<unk>	0
<s>	0
</s>	0
之	-4.2377
)	-4.91246
(	-4.9126
於	-4.97583
以	-5.19298
而	-5.31218
/	-5.40685
爲	-5.50641
有	-5.55735
也	-5.61686
者	-5.65338
上	-5.73185
臣	-5.75509
不	-5.76241
一	-5.77725
中	-5.78827
神	-5.85519
天	-5.86917
其	-5.9105
符	-5.93911
人	-5.93947
生	-5.93999
無	-5.94611
道	-6.09468
大	-6.10704
三	-6.14227
行	-6.14507
則	-6.16265
心	-6.18141
自	-6.19093
下	-6.21774
至	-6.26184
法	-6.28125
眞	-6.29875
明	-6.30318
日	-6.30891
或	-6.32242
如	-6.32898
靈	-6.33951
▁	-6.34271
此	-6.35675
在	-6.40057
身	-6.40562
所	-6.44012
五	-6.44111
時	-6.45727
九	-6.48935
玄	-6.50767
入	-6.52052
經	-6.52679
曰	-6.52948
得	-6.52979
名	-6.55282
炁	-6.55551
二	-6.55648
出	-6.58621
與	-6.58792
同	-6.59276
氣	-6.59853
四	-6.60793
及	-6.60913
水	-6.61322
用	-6.61818
子	-6.63116
文	-6.63131
若	-6.63625
見	-6.64567
諸	-6.6466
君	-6.64672
乃	-6.64839
是	-6.65247
令	-6.65443
當	-6.68827
故	-6.68985
山	-6.69027
即	-6.69086
皆	-6.69255
地	-6.70861
次	-6.72817
某	-6.74022
常	-6.74103
金	-6.74576
光	-6.74655
化	-6.75561
宫	-6.76267
今	-6.77058
玉	-6.77284
開	-6.78946
度	-6.79175
精	-6.80868
門	-6.82245
仙	-6.82289
相	-6.8229
成	-6.82398
内	-6.8287
右	-6.83912
言	-6.83966
天尊	-6.8453
眞人	-6.84815
非	-6.85134
和	-6.85462
方	-6.85619
受	-6.86496
)(	-6.86544
師	-6.86648
雲	-6.87131
又	-6.87224
元	-6.8802
事	-6.88176
來	-6.88255
書	-6.88327
等	-6.89812
王	-6.90022
命	-6.90759
前	-6.90967
合	-6.91696
形	-6.92309
可	-6.92481
真	-6.92684
我	-6.93573
矣	-6.94484
後	-6.9456
通	-6.94802
字	-6.94894
巳	-6.95394
正	-6.96324
應	-6.96538
使	-6.96674
願	-6.96803
觀	-6.97953
火	-6.98113
主	-6.9871
章	-6.99038
作	-6.99171
陽	-6.99798
七	-7.0035
亦	-7.00722
念	-7.01222
六	-7.01318
未	-7.01664
八	-7.02448
分	-7.02878
飛	-7.03434
帝	-7.04337
存	-7.04434
隂	-7.05049
流	-7.05784
年	-7.06521
復	-7.06665
長	-7.07178
從	-7.07556
能	-7.07899
各	-7.08588
一切	-7.09124
運	-7.09818
立	-7.1005
聞	-7.10121
太上	-7.10197
死	-7.11083
聖	-7.11181
將	-7.11576
降	-7.12761
重	-7.13011
知	-7.13266
司	-7.13777
安	-7.13779
官	-7.13866
清	-7.14374
請	-7.14397
十	-7.14798
風	-7.15247
萬	-7.15465
先	-7.1562
自然	-7.1563
善	-7.15643
因	-7.1577
然	-7.16133
取	-7.16374
鬼	-7.16478
青	-7.16653
月	-7.17056
龍	-7.17786
妙	-7.17827
德	-7.17873
修	-7.17885
欲	-7.17937
處	-7.17958
星	-7.18092
本	-7.18326
華	-7.18603
去	-7.18909
云	-7.19792
過	-7.21319
景	-7.22616
寳	-7.22763
宣	-7.23204
髙	-7.23246
白	-7.23971
不得	-7.2416
壇	-7.24331
外	-7.24754
多	-7.254
齋	-7.2675
丹	-7.2721
散	-7.27722
奉	-7.27789
黄	-7.29366
解	-7.29866
傳	-7.29991
十方	-7.30841
物	-7.31311
福	-7.31855
定	-7.32038
衆	-7.32067
食	-7.32419
凡	-7.32968
靈寳	-7.33128
世	-7.33143
居	-7.3344
歸	-7.33958
並	-7.33978
九天	-7.34204
永	-7.3428
位	-7.34791
洞	-7.34891
无	-7.35705
盡	-7.36818
空	-7.37514
朝	-7.3947
儀	-7.39706
功	-7.40107
虚	-7.40263
隨	-7.40694
召	-7.41464
數	-7.41499
治	-7.41562
起	-7.41758
香	-7.41961
關	-7.42078
難	-7.42377
惡	-7.42648
罪	-7.43013
天地	-7.43701
致	-7.43741
左	-7.45125
告	-7.45206
極	-7.45262
呪	-7.45295
依	-7.45568
服	-7.46213
攝	-7.46916
發	-7.47417
何	-7.48092
惟	-7.48568
還	-7.48918
石	-7.49396
魂	-7.49598
家	-7.49773
遂	-7.49912
東	-7.50278
樂	-7.51733
口	-7.52634
旣	-7.53073
意	-7.53337
結	-7.53455
道士	-7.53518
啓	-7.5356
登	-7.5415
列	-7.5434
土	-7.54348
畢	-7.5494
眞君	-7.55354
尊	-7.55823
玉女	-7.55934
遊	-7.56074
小	-7.56807
體	-7.56866
衣	-7.5687
實	-7.56877
禮	-7.57183
耳	-7.57625
除	-7.57765
廣	-7.57805
思	-7.58587
北	-7.58678
離	-7.59359
乗	-7.59411
深	-7.59461
御	-7.5947
上清	-7.60078
之中	-7.60466
守	-7.60704
已	-7.60836
色	-7.60915
備	-7.60964
都	-7.61139
聲	-7.61176
俱	-7.61262
公	-7.61351
奏	-7.61519
病	-7.61917
府	-7.61972
南	-7.62015
期	-7.62044
諸天	-7.62695
滅	-7.62963
赤	-7.63222
周	-7.63377
執	-7.63396
理	-7.63454
吾	-7.63962
求	-7.64024
莫	-7.64243
照	-7.64412
必	-7.64545
普	-7.64606
乎	-7.64861
教	-7.64928
隱	-7.65067
向	-7.65207
具	-7.65392
苦	-7.65402
太	-7.65869
法師	-7.66456
幽	-7.66682
轉	-7.67009
不可	-7.67018
息	-7.6787
西	-7.67932
舉	-7.68257
悉	-7.68348
根	-7.68486
凝	-7.68495
天尊志心朝禮	-7.68533
仰	-7.6881
便	-7.69341
玉清	-7.69659
木	-7.69897
簡	-7.70173
焉	-7.70176
信	-7.70564
絶	-7.71231
更	-7.71391
業	-7.7169
紫	-7.71944
保	-7.7214
初	-7.72393
耀	-7.72397
蓋	-7.72548
羅	-7.72814
始	-7.73022
訣	-7.7314
元始	-7.7358
承	-7.73696
藏	-7.73875
施	-7.73923
雖	-7.73995
積	-7.74286
齊	-7.74356
變	-7.74383
弟子	-7.74396
邪	-7.74434
說	-7.74722
平	-7.75109
回	-7.75443
目	-7.75727
式	-7.7584
申	-7.75942
戒	-7.7611
動	-7.76166
咸	-7.76203
㑹	-7.76359
素	-7.76549
謂	-7.76736
百	-7.76794
千	-7.77122
授	-7.77548
日月	-7.77676
頭	-7.77975
垂	-7.78143
于	-7.78447
女	-7.7856
州	-7.78741
伏	-7.78746
坐	-7.78746
共	-7.78818
三界	-7.78832
著	-7.7886
兩	-7.78905
感	-7.79256
造	-7.79364
國	-7.79429
▲	-7.79558
力	-7.79651
超	-7.79901
宗	-7.80058
交	-7.80397
須	-7.80843
止	-7.80933
牒	-7.80997
微	-7.81273
宿	-7.81356
隂陽	-7.81507
伏願	-7.81753
夜	-7.8193
疾	-7.82042
昭	-7.82169
夫	-7.82195
縁	-7.82322
首	-7.82333
大道	-7.82464
誠	-7.82711
謹	-7.8294
異	-7.83041
性	-7.83578
劫	-7.83929
神仙	-7.84107
集	-7.84676
節	-7.85346
臨	-7.85393
殺	-7.85512
進	-7.86173
號	-7.8648
升	-7.86547
呪曰	-7.8669
終	-7.86789
靜	-7.86941
十二	-7.86999
衆生	-7.87323
勑	-7.87462
對	-7.87546
汝	-7.87931
但	-7.87963
注	-7.88047
消	-7.88098
䰟	-7.88229
真人	-7.88264
塵	-7.88518
考	-7.89216
陳	-7.89326
詣	-7.89435
天帝	-7.89514
持	-7.89762
建	-7.90039
朱	-7.90268
圖	-7.90393
藥	-7.90538
三元	-7.90744
易	-7.91222
興	-7.9126
燈	-7.91391
民	-7.91638
録	-7.91887
引	-7.91931
恩	-7.91965
布	-7.92468
慶	-7.92871
張	-7.9289
敷	-7.92954
災	-7.93485
表	-7.93518
面	-7.93916
獲	-7.94183
失	-7.94355
林	-7.94424
諱	-7.95057
制	-7.95154
開度	-7.95214
籙	-7.95409
三天	-7.95572
由	-7.95644
狀	-7.95651
果	-7.95707
象	-7.95842
誦	-7.96119
宜	-7.96606
壽	-7.96884
宮	-7.97044
功德	-7.97216
印	-7.97235
屬	-7.97323
濟	-7.97576
歩	-7.97651
遇	-7.98813
利	-7.99138
拜	-7.99428
斗	-7.99628
使者	-8.00313
足	-8.00927
間	-8.01253
地獄	-8.01321
東方	-8.01782
天尊志心敬禮	-8.01891
威	-8.02014
謝	-8.02065
生死	-8.02094
傷	-8.02226
延	-8.02244
報	-8.023
職	-8.02643
帝君	-8.02992
皇	-8.03151
旛	-8.03385
收	-8.03459
室	-8.03984
斷	-8.04029
胎	-8.04303
直	-8.04398
焚	-8.04511
淨	-8.04776
手	-8.04917
想	-8.05045
大神	-8.05067
路	-8.05157
逺	-8.05188
全	-8.05237
卷	-8.05505
犯	-8.05673
童子	-8.05909
資	-8.05919
少	-8.06227
按	-8.06382
蒙	-8.06576
指	-8.0658
投	-8.06626
冠	-8.06685
煥	-8.0684
錬	-8.06862
歳	-8.07063
義	-8.07535
辰	-8.07652
五帝	-8.07796
九幽	-8.07833
學	-8.08003
望	-8.08013
太一	-8.0809
志	-8.0811
稱	-8.0819
顯	-8.08215
領	-8.08355
不能	-8.08663
黃	-8.08811
破	-8.09144
音	-8.09229
恭	-8.09479
中有	-8.09525
海	-8.0954
聽	-8.1017
部	-8.10295
駕	-8.10418
雨	-8.1079
鍊	-8.10809
獄	-8.10841
到	-8.10959
老	-8.11007
容	-8.11219
左右	-8.11337
魄	-8.11492
别	-8.11598
昇	-8.11693
敬	-8.11806
契	-8.11847
輪	-8.1199
禁	-8.12033
靈官	-8.12086
品	-8.12115
順	-8.12389
惠	-8.12411
境	-8.12665
切	-8.12825
乞	-8.12943
母	-8.12961
親	-8.13149
滿	-8.13543
祝	-8.13593
宻	-8.13811
問	-8.13821
會	-8.13916
情	-8.14098
北方	-8.1439
封	-8.14676
却	-8.14853
養	-8.14896
澤	-8.14954
速	-8.15134
侍	-8.15222
映	-8.15315
崇	-8.15341
害	-8.15534
慈	-8.15536
三寳	-8.15673
庭	-8.15863
識	-8.15952
再	-8.15989
兵	-8.16456
之炁	-8.16477
宅	-8.16502
好	-8.1659
被	-8.16608
加	-8.16682
設	-8.16737
黒	-8.17095
語	-8.17316
要	-8.17362
既	-8.17552
祈	-8.17912
急	-8.17929
質	-8.18166
曲	-8.18506
克	-8.18617
春	-8.19026
馬	-8.19168
城	-8.19225
賜	-8.19459
長生	-8.19543
亡	-8.19809
愛	-8.20086
履	-8.2058
南方	-8.20736
恐	-8.20842
浮	-8.20897
餘	-8.20996
益	-8.21359
供養	-8.21413
無量	-8.21721
男女	-8.21735
如是	-8.21801
嚴	-8.22033
悟	-8.22247
闕	-8.22674
固	-8.22704
唯	-8.22808
累	-8.22854
鎭	-8.22907
西方	-8.22959
先生	-8.22977
乾	-8.23099
科	-8.23109
留	-8.23198
光明	-8.23316
榮	-8.23466
兹	-8.23811
紀	-8.23903
魔	-8.23966
落	-8.24009
載	-8.24127
輕	-8.24214
稽首	-8.24378
上帝	-8.24442
就	-8.24477
救	-8.24571
毒	-8.24667
甚	-8.2467
夫人	-8.24745
俾	-8.25158
斯	-8.25338
仁	-8.25341
界	-8.25471
古	-8.25689
珠	-8.25796
三洞	-8.25872
昔	-8.26359
臺	-8.26524
迎	-8.2669
輝	-8.27264
天下	-8.27708
堂	-8.27773
遣	-8.27826
姓	-8.27941
覺	-8.27989
源	-8.28017
之道	-8.28089
天人	-8.28687
遍	-8.28705
急急如律令	-8.28732
五嶽	-8.28801
迴	-8.28942
覆	-8.2907
寧	-8.29086
總	-8.2911
凶	-8.29352
騰	-8.2937
爾	-8.29379
猶	-8.29398
獨	-8.29727
籍	-8.29753
佩	-8.2981
妄	-8.29821
岀	-8.30228
圓	-8.30442
盛	-8.30514
送	-8.30526
三十六	-8.30673
露	-8.30694
證	-8.30694
徳	-8.30871
護	-8.30969
勝	-8.31087
醮	-8.31133
瓊	-8.31152
五方	-8.31245
金闕	-8.31556
尚	-8.31605
返	-8.31889
負	-8.32047
煙	-8.32106
勿	-8.32123
酒	-8.32248
鬼神	-8.32359
并	-8.33368
釋	-8.33419
内外	-8.33544
潜	-8.33739
晨	-8.3397
連	-8.33988
庶	-8.3399
太極	-8.34045
呼	-8.34194
幸	-8.34581
彼	-8.34698
冥	-8.34918
毎	-8.34926
將軍	-8.35059
監	-8.35291
種	-8.35322
誓	-8.35437
之所	-8.3554
勤	-8.35671
房	-8.35822
功曹	-8.35843
刑	-8.35884
典	-8.36029
違	-8.36189
示	-8.36393
天尊至心朝禮	-8.36449
至眞	-8.36762
忽	-8.36775
住	-8.36793
穢	-8.37001
反	-8.37104
道君	-8.3713
賢	-8.37148
縣	-8.37309
之法	-8.37389
貴	-8.37467
達	-8.37639
中央	-8.37746
近	-8.37889
之後	-8.37967
殿	-8.38256
遷	-8.38268
第一	-8.38362
臣等	-8.38443
無上	-8.38565
田	-8.38748
變化	-8.38937
㝠	-8.39091
座	-8.39575
吉	-8.39653
羽	-8.40047
不知	-8.40059
哉	-8.40061
敢	-8.40161
視	-8.40527
為	-8.40548
智	-8.40778
昌	-8.40846
混	-8.41228
士	-8.41259
之人	-8.41292
扶	-8.41457
三光	-8.41601
懴悔	-8.41703
置	-8.41752
三官	-8.41797
鳯	-8.41846
吏	-8.42275
曹	-8.42542
揚	-8.42581
調	-8.42673
許	-8.4283
敕	-8.43563
久	-8.43603
新	-8.43788
詞	-8.43858
掌	-8.43882
辭	-8.4409
記	-8.44109
大將軍	-8.44127
徒	-8.44128
俗	-8.44205
漢	-8.44279
所以	-8.44451
驗	-8.44507
放	-8.44568
今日	-8.44647
老君	-8.44717
冝	-8.44878
花	-8.44954
原	-8.45003
禍	-8.4502
行道	-8.45314
然後	-8.45441
清淨	-8.45713
二十四	-8.45719
父母	-8.45845
聚	-8.46116
尸	-8.46152
得道	-8.46194
追	-8.46263
且	-8.47391
育	-8.47443
第三	-8.47485
盟	-8.47549
第二	-8.4764
梵	-8.47735
均	-8.48036
條	-8.48064
澄	-8.48336
五行	-8.48378
徃	-8.48397
伏以	-8.48532
天師	-8.4866
星君	-8.48734
太清	-8.48786
可以	-8.49034
虎	-8.49231
無爲	-8.49242
曜	-8.49388
只	-8.49472
披	-8.49643
亂	-8.49672
停	-8.49697
廻	-8.49894
任	-8.4992
沉	-8.49944
霞	-8.50199
豈	-8.50402
是也	-8.5043
緫	-8.50652
喜	-8.50681
禀	-8.50728
祖	-8.50767
代	-8.50838
遵	-8.50847
雷	-8.5119
參	-8.51293
移	-8.51405
無極	-8.51441
閉	-8.51588
論	-8.51616
鳳	-8.51807
童	-8.51815
舍	-8.51912
寒	-8.52177
如此	-8.52249
井	-8.52252
付	-8.52321
車	-8.52327
亡魂	-8.52347
祐	-8.52374
泉	-8.52476
玄都	-8.52772
午	-8.52821
玄壇	-8.53048
蕩	-8.53178
水火	-8.53209
端	-8.53224
骨	-8.53383
院	-8.53384
萬物	-8.53557
舊	-8.53707
泰	-8.5371
仍	-8.53976
班	-8.54022
迷	-8.54141
庸	-8.54295
郷	-8.54308
血	-8.54398
乆	-8.54402
接	-8.54416
天門	-8.54496
淵	-8.546
頌	-8.54783
以今	-8.54875
免	-8.55226
以爲	-8.55387
獻	-8.55516
憂	-8.55567
他	-8.55717
幕	-8.55733
逐	-8.55951
津	-8.56049
江	-8.56052
北斗	-8.56068
了	-8.56336
脫	-8.56361
休	-8.56518
廟	-8.56891
貪	-8.57047
震	-8.57131
朗	-8.57164
俯	-8.57175
驚	-8.57227
演	-8.57282
无上	-8.57361
竟	-8.57375
度人	-8.57414
跡	-8.57607
候	-8.57848
英	-8.57897
眞文	-8.57977
仙官	-8.58111
於是	-8.58799
懴	-8.58901
逆	-8.58938
尋	-8.59076
滯	-8.59108
萬劫	-8.59255
善男子	-8.59284
因縁	-8.5937
肺	-8.59552
推	-8.59776
司命	-8.59915
患	-8.59967
懷	-8.6003
奉行	-8.60094
冀	-8.60113
振	-8.60148
草	-8.60211
河	-8.60293
燒香	-8.60397
肅	-8.60401
太陽	-8.606
所謂	-8.60605
武	-8.60647
父	-8.60707
萬神	-8.60736
輔	-8.60873
徧	-8.60962
緑	-8.61141
寂	-8.61196
慮	-8.61325
而不	-8.61358
計	-8.61365
每	-8.61532
肝	-8.61591
爽	-8.61623
逢	-8.61656
味	-8.6166
之時	-8.61741
威儀	-8.61798
謂之	-8.61899
機	-8.61927
元君	-8.62006
甲	-8.62366
訖	-8.62475
李	-8.62688
爰	-8.62707
營	-8.62802
天尊信禮	-8.62896
腎	-8.63127
野	-8.63224
徹	-8.63337
符命	-8.63659
階	-8.63794
秀	-8.63824
之功	-8.63855
省	-8.6398
鎮	-8.64059
鳴	-8.64179
鼻	-8.64235
經云	-8.64301
提	-8.64332
錢	-8.64353
神虎	-8.64383
之上	-8.64872
寅	-8.65134
夢	-8.65202
無邊	-8.65208
厄	-8.65239
潤	-8.65294
五色	-8.6537
殊	-8.65603
弘	-8.65658
仙人	-8.6575
里	-8.65754
衞	-8.65891
若有	-8.66203
統	-8.66239
差	-8.66255
捨	-8.66862
無窮	-8.66948
像	-8.66989
聖前	-8.67343
慧	-8.67443
谷	-8.6748
碧	-8.67526
含	-8.67606
紙	-8.67655
劵	-8.67737
窮	-8.67756
融	-8.67936
愆	-8.67948
唐	-8.68312
鑒	-8.68327
之氣	-8.68344
律	-8.68486
往	-8.6854
彰	-8.6859
允	-8.68609
髙功	-8.6866
痛	-8.68802
炎	-8.68824
察	-8.69218
讃	-8.69259
充	-8.69263
錬度	-8.69391
歌	-8.69738
祕	-8.69968
筆	-8.70305
群	-8.70322
太隂	-8.70355
招	-8.70481
納	-8.70802
悲	-8.70832
背	-8.70919
上元	-8.71103
虛	-8.7119
𡨚	-8.71634
沐浴	-8.71803
世間	-8.71948
洪	-8.71953
眼	-8.72053
荷	-8.72061
唱	-8.72113
疑	-8.72171
兆	-8.72374
疾病	-8.72377
際	-8.72444
慈悲	-8.72475
波	-8.72498
檢	-8.72529
瑞	-8.72535
魔王	-8.72597
逍遥	-8.7283
干	-8.72899
御前	-8.72906
燭	-8.72925
増	-8.72982
酆都	-8.73021
奔	-8.73124
大帝	-8.73159
精神	-8.73207
之妙	-8.73244
霄	-8.73259
池	-8.73279
芝	-8.73324
拔	-8.73336
巨	-8.73428
祥	-8.73506
鼓	-8.73549
希	-8.73691
現	-8.73692
徑	-8.73729
掐	-8.73762
樹	-8.73783
紫微	-8.73796
遠	-8.73817
傾	-8.74027
忘	-8.7407
大聖	-8.74267
逹	-8.74516
妖	-8.74613
氏	-8.74642
汝等	-8.74666
比	-8.74806
絳	-8.74806
名曰	-8.75055
赦	-8.75272
高	-8.75273
真君	-8.75542
衛	-8.757
抱	-8.75804
劒	-8.75986
頒	-8.76213
歷	-8.76241
瞻	-8.76295
魂魄	-8.7635
智慧	-8.76393
歡	-8.76399
堅	-8.76433
律令	-8.76453
鐵	-8.76518
服之	-8.76596
旋	-8.76609
格	-8.76784
眞靈	-8.76848
損	-8.77124
丈人	-8.77162
吹	-8.77624
危	-8.77755
東南	-8.77894
遺	-8.77971
孝	-8.78188
黑	-8.78221
太玄	-8.78273
吐	-8.78316
康	-8.78343
豐	-8.78401
乘	-8.78467
財	-8.78564
無有	-8.7896
之日	-8.79018
縱	-8.79124
㫖	-8.79128
馳	-8.79224
專	-8.79226
序	-8.79305
祖師	-8.79405
退	-8.79481
生神	-8.79534
卯	-8.7973
飛仙	-8.79903
西北	-8.79937
於此	-8.79982
末	-8.80171
殃	-8.80185
三炁	-8.80258
飲	-8.8032
卿	-8.80513
䇿	-8.80729
葉	-8.8124
亥	-8.81261
禄	-8.8135
良	-8.81379
域	-8.81517
繫	-8.81686
篇	-8.81756
潔	-8.82036
上聖	-8.8232
主者	-8.82353
故曰	-8.82424
角	-8.82473
之内	-8.82542
眷屬	-8.8264
紅	-8.82837
雜	-8.83028
告下	-8.83034
脾	-8.83162
假	-8.8342
伯	-8.83436
助	-8.83628
金光	-8.83792
翠	-8.83921
越	-8.84011
棄	-8.84013
戸	-8.84152
峯	-8.84251
閑	-8.84349
䟽	-8.84433
正一	-8.84529
兼	-8.84553
天中	-8.84846
恒	-8.85001
暗	-8.85137
灌	-8.85231
蒼	-8.85285
刀	-8.85426
導	-8.85585
役	-8.85604
烟	-8.85698
暉	-8.85705
甘露	-8.85762
髙上	-8.85887
劉	-8.8591
早	-8.86091
帶	-8.86145
青玄	-8.8626
愚	-8.86276
盈	-8.86276
靈光	-8.86287
懸	-8.86302
之神	-8.86369
佐	-8.86415
一切衆生	-8.86421
丑	-8.86535
玊	-8.86564
看	-8.86659
長夜	-8.86659
勞	-8.86703
讀	-8.86704
陶	-8.86733
洗	-8.86764
種種	-8.86816
臻	-8.86948
沈	-8.86967
男	-8.87176
摧	-8.87305
孤	-8.87338
皇帝	-8.87428
修行	-8.87604
細	-8.87656
嶽	-8.87702
幽魂	-8.87742
己	-8.87752
空洞	-8.87771
享	-8.87842
曷	-8.87848
祖炁	-8.88057
上章	-8.88104
救苦	-8.88155
仗	-8.88322
神君	-8.88338
邊	-8.88551
川	-8.88573
三塗	-8.88618
彩	-8.8863
三清	-8.88664
詔	-8.88683
神王	-8.88922
鶴	-8.88982
量	-8.89069
塞	-8.8908
蛇	-8.89114
又有	-8.89311
幾	-8.89457
朱陵	-8.89486
竒	-8.8951
副	-8.89619
東華	-8.8985
梁	-8.90085
影	-8.90289
賛	-8.90301
同前	-8.90314
此經	-8.90366
之恩	-8.9043
鳥	-8.90431
濁	-8.90592
酉	-8.90804
混合	-8.90813
忌	-8.90838
愈	-8.90865
薦	-8.91196
值	-8.91239
改	-8.91267
乾坤	-8.91301
學道	-8.91325
黄籙	-8.91337
本命	-8.91349
將吏	-8.91677
普度	-8.91702
秋	-8.91749
中元	-8.91847
況	-8.91873
竹	-8.91944
詳	-8.9195
貫	-8.9196
類	-8.92104
鐘	-8.9215
再拜	-8.92243
朱書	-8.92339
寫	-8.92362
覩	-8.92382
吸	-8.92615
器	-8.92643
善惡	-8.92677
遐	-8.92727
羣	-8.92896
與道合眞	-8.92924
漸	-8.93368
敎	-8.93411
鬱	-8.9358
化爲	-8.93628
液	-8.93649
寶	-8.93861
隆	-8.93948
錫	-8.9414
厚	-8.9433
霧	-8.94514
子孫	-8.94619
半	-8.94835
慕	-8.94836
墮	-8.94853
舒	-8.94891
政	-8.9509
丘	-8.95476
特	-8.95515
髮	-8.9555
沐	-8.95601
行之	-8.95671
委	-8.95744
上下	-8.95771
之精	-8.96014
綱	-8.96047
解脫	-8.96065
坤	-8.96205
南宫	-8.96231
具位	-8.96291
衝	-8.96342
神明	-8.96371
陵	-8.9642
皈依	-8.96445
一日	-8.96617
宇	-8.96727
係	-8.96738
罡	-8.96763
似	-8.96991
三日	-8.96996
赴	-8.97044
頓	-8.97051
不敢	-8.97054
市	-8.97118
待	-8.97145
軍	-8.97259
是以	-8.97268
玄元	-8.97625
黙	-8.97703
一炁	-8.97717
染	-8.97901
膺	-8.97921
向來	-8.97998
蟲	-8.98011
五炁	-8.98087
四時	-8.98113
客	-8.98196
齋主	-8.98207
走	-8.98223
元陽	-8.98491
亡靈	-8.98496
拱	-8.98558
一名	-8.98594
横	-8.98667
誦經	-8.98805
昏	-8.98992
函	-8.99043
迹	-8.99101
五道	-8.99187
丁	-8.99211
基	-8.99253
響	-8.99262
一人	-8.99359
伸	-8.99402
給	-8.99422
科儀立成品	-8.99433
罄	-8.9944
耶	-8.99443
歩虚	-8.99506
晝夜	-8.9951
預	-8.99668
身中	-8.99687
道場	-8.99737
四方	-8.99845
湯	-9.00008
旨	-9.00041
勢	-9.00168
罰	-9.00209
斬	-9.0028
遥	-9.00581
夏	-9.00873
適	-9.01022
䖍	-9.01028
眞符	-9.01136
吞	-9.01249
顧	-9.01294
哀	-9.0132
旁	-9.01375
聖人	-9.01395
人間	-9.01559
管	-9.01737
毋	-9.01782
禳	-9.0187
造化	-9.01884
美	-9.01906
受度	-9.01911
書符	-9.01947
宫中	-9.01978
超度	-9.02012
篆	-9.02062
左手	-9.0214
宴	-9.02299
嬰	-9.0249
約	-9.02947
攺	-9.02952
令人	-9.02984
鍾	-9.02984
拘	-9.03066
化生	-9.03078
燒	-9.03109
形神	-9.03147
咽	-9.03384
西南	-9.03389
叅	-9.03401
芒	-9.03428
供	-9.03474
驅	-9.0363
産	-9.03635
騎	-9.03641
茂	-9.03767
布施	-9.0377
世人	-9.03812
户	-9.0384
洞玄	-9.03848
夙	-9.03888
九炁	-9.03985
曽	-9.04052
出入	-9.041
輙	-9.04195
聖衆	-9.04253
之境	-9.04288
枝	-9.04314
術	-9.04611
玉皇	-9.04741
祝曰	-9.04774
虚皇	-9.0489
蘭	-9.04937
嘉	-9.05003
附	-9.05242
之至	-9.05246
世界	-9.05312
元始天尊	-9.05334
下降	-9.05362
大小	-9.05389
泥丸	-9.05413
阿	-9.05439
臣聞	-9.05531
祭	-9.05579
校	-9.05651
人民	-9.05672
沖	-9.05708
六甲	-9.05798
巾	-9.05819
一時	-9.06083
侵	-9.06102
水府	-9.06376
應感	-9.06406
凌	-9.06512
八景	-9.06568
不見	-9.06797
上眞	-9.06859
開明	-9.06859
熟	-9.0694
天曹	-9.07213
上天	-9.07233
爾時	-9.07246
鸞	-9.07298
官吏	-9.0738
无量	-9.07435
杖	-9.07448
藉	-9.07566
天尊志心歸命	-9.07691
拔度	-9.07779
彌	-9.07832
觸	-9.079
太虚	-9.08049
東北	-9.08121
範	-9.08166
寜	-9.08298
齋主某	-9.08414
知磬舉	-9.0845
維	-9.08486
是故	-9.08564
務	-9.08623
吿	-9.08643
刻	-9.08682
殫	-9.08795
習	-9.08914
玉帝	-9.08972
仙公	-9.09046
修齋	-9.09114
者也	-9.09132
訓	-9.09209
二十	-9.0929
説	-9.09293
牛	-9.09573
翼	-9.09619
答曰	-9.09648
無所	-9.09655
第四	-9.09748
道德	-9.09903
三師	-9.0994
屋	-9.10025
之心	-9.10071
之鬼	-9.10085
官將	-9.10159
九宫	-9.10161
夷	-9.1022
塗	-9.10265
急急如	-9.10532
太微	-9.10546
存亡	-9.10582
一一	-9.10712
雷霆	-9.10777
神光	-9.10878
土地	-9.10972
所有	-9.11023
生成	-9.11047
太平	-9.11082
上方	-9.11099
五靈	-9.11105
淪	-9.11192
長存	-9.11237
魚	-9.11313
名爲	-9.11328
暢	-9.11394
萬里	-9.11428
案	-9.11529
五星	-9.1158
熱	-9.11713
梵炁	-9.11725
無不	-9.12162
冲	-9.12179
之間	-9.12215
不信	-9.12331
賔	-9.12331
吏兵	-9.1244
誅	-9.12492
衆聖	-9.12581
巖	-9.12662
天官	-9.127
天尊志心信禮	-9.1279
頂	-9.12814
山川	-9.12882
衆官	-9.12906
玉字	-9.12959
長跪	-9.13084
軒	-9.13108
龜	-9.13133
賊	-9.13178
太乙	-9.13178
貞	-9.13244
流光	-9.13278
責	-9.13418
七祖	-9.13526
夀	-9.13554
天眞	-9.13577
至道	-9.13753
一如告命	-9.13857
筭	-9.14033
侯	-9.14195
存思	-9.14218
棲	-9.14222
歲	-9.14253
權	-9.14308
三十	-9.14416
卒	-9.14421
伐	-9.14441
榜	-9.14496
告文	-9.14532
而去	-9.14649
下元	-9.14677
坎	-9.14719
洞天	-9.14811
大洞	-9.149
笑	-9.14919
配	-9.14933
舞	-9.14936
楊	-9.14952
煩惱	-9.15048
姓名	-9.15169
尺	-9.15215
北極	-9.1524
翳	-9.15268
法事	-9.15328
丈	-9.15331
松	-9.15389
地府	-9.15418
太素	-9.15617
灰	-9.15776
怪	-9.15847
各有	-9.15884
吟	-9.15926
鍊度	-9.16028
孰	-9.16158
詠	-9.16181
之門	-9.16189
上香	-9.16216
匪	-9.16281
焚香	-9.16392
道言	-9.16403
錦	-9.16666
環	-9.16761
藹	-9.16794
甘	-9.17055
整	-9.17068
東極	-9.17076
自在	-9.17125
行持	-9.17168
懼	-9.17169
欺	-9.17235
雪	-9.17244
薄	-9.17256
孫	-9.1739
玉京	-9.17394
勸	-9.17621
蜀	-9.17647
不生	-9.17689
鉛	-9.17722
躬	-9.17736
八極	-9.1786
昧	-9.17973
經法	-9.17998
瑶	-9.18082
廓	-9.18129
滋	-9.18188
三五	-9.18205
萬靈	-9.18287
十極	-9.18307
南極	-9.1846
一百	-9.18633
捧	-9.18646
謁	-9.18665
濟度	-9.18703
快樂	-9.18705
度命	-9.18721
靖	-9.18722
芳	-9.18732
我身	-9.18891
唵	-9.18979
衡	-9.1899
一身	-9.19116
云何	-9.19173
夕	-9.19304
威靈	-9.19311
禱	-9.19354
誥	-9.19365
碧落	-9.19479
强	-9.19601
眞仙	-9.19707
伏冀	-9.19745
宸	-9.19754
七寳	-9.19869
拯	-9.19977
罪福	-9.20002
主宰	-9.20193
輪轉	-9.20214
徐	-9.20493
雙	-9.20527
劔	-9.20527
卧	-9.20907
若見	-9.20908
㝷	-9.21002
戴	-9.21007
肉	-9.21024
之事	-9.21146
安鎭	-9.21287
敗	-9.21409
怨	-9.21539
神功	-9.2166
尊神	-9.21755
友	-9.21777
銀	-9.21862
編	-9.21916
畫	-9.21948
齒	-9.21963
趣	-9.21988
煞	-9.22005
勲	-9.22036
人天	-9.22114
飲食	-9.22121
束	-9.22268
風雨	-9.22274
第五	-9.22278
洞神	-9.22336
扣	-9.22352
飛天	-9.22377
神霄	-9.22388
二人	-9.22402
寄	-9.22425
側	-9.22441
樓	-9.22467
烏	-9.22833
玉符	-9.22841
生人	-9.22899
繒	-9.22936
毀	-9.2295
之罪	-9.22996
託	-9.22999
簿	-9.23031
亡人	-9.23057
遭	-9.23069
席	-9.23086
謹請	-9.23262
十一	-9.23318
忠	-9.23319
第	-9.2337
單	-9.23389
試	-9.23487
削	-9.2351
壁	-9.23763
一心	-9.23812
禮拜	-9.23815
道炁	-9.23834
㧞	-9.23836
之處	-9.24021
亦可	-9.2407
神靈	-9.24078
衰	-9.24185
史	-9.24338
是名	-9.24345
漏	-9.24352
京	-9.24405
溪	-9.2442
暴	-9.24444
咎	-9.24457
山林	-9.24465
郡	-9.24618
如法	-9.24696
限	-9.24705
亦不	-9.24828
包	-9.24896
醫	-9.25266
嘗	-9.25349
天醫	-9.25373
富	-9.2544
元皇	-9.25534
辛	-9.25575
增	-9.25735
十八	-9.25763
翔	-9.25862
穴	-9.25907
泥	-9.26124
莫不	-9.26183
續	-9.26248
樞	-9.26274
所在	-9.26312
人也	-9.26313
威神	-9.26374
混元	-9.26443
障	-9.26606
飛行	-9.26648
幽㝠	-9.26758
效	-9.26879
謀	-9.2698
諒	-9.2701
宏	-9.27011
閣	-9.27023
溥	-9.27039
句	-9.27059
轉經	-9.27256
齡	-9.27324
憫	-9.27465
最	-9.27473
弟子某	-9.27513
眞炁	-9.27536
生天	-9.27628
金書	-9.27673
効	-9.27952
鏡	-9.2798
辟	-9.27982
六合	-9.28201
神將	-9.28207
採	-9.2834
虚无	-9.28428
植	-9.28435
三禮	-9.28447
貧	-9.28484
𩲸	-9.28489
衍	-9.28499
題	-9.28519
擁	-9.28602
更生	-9.28865
摩	-9.28903
曉	-9.28971
飄	-9.29027
今齋主某	-9.29126
今故燒香自皈依師尊大聖衆至眞之	-9.29157
至於	-9.29228
三年	-9.29279
憑	-9.29364
荒	-9.29497
輿	-9.29503
肇	-9.29621
尤	-9.29643
不任	-9.2971
玉文	-9.29798
腹	-9.29972
那	-9.30001
擊	-9.30017
率	-9.30052
繼	-9.30125
馭	-9.30137
天上	-9.3021
沙	-9.3027
𡨋	-9.30276
幽明	-9.30361
上願	-9.30378
才	-9.30392
虚空	-9.30398
十華	-9.30405
修奉	-9.3047
否	-9.30595
貌	-9.30609
三千	-9.30733
上昇	-9.30761
以來	-9.30815
賤	-9.30866
爲之	-9.31012
大羅	-9.31022
獸	-9.31072
竊	-9.31078
毛	-9.31103
齎	-9.31105
游	-9.31174
日中	-9.31216
厭	-9.31304
南斗	-9.31482
雄	-9.31508
身心	-9.31669
隔	-9.31682
竭	-9.31693
麗	-9.31714
私	-9.31966
之士	-9.31995
之儀	-9.32035
誤	-9.32096
温	-9.32215
五十	-9.32252
太空	-9.3226
叩齒	-9.32266
四海	-9.32486
倒	-9.32752
撫	-9.32769
五苦	-9.328
巍巍	-9.32805
天君	-9.32831
幽顯	-9.33027
北帝	-9.33047
族	-9.33148
舌	-9.33156
水官	-9.33173
國王	-9.33253
妙經	-9.33427
爲人	-9.33467
解釋	-9.33509
建齋	-9.33512
大慈	-9.33699
補	-9.3371
寳籙	-9.33728
分别	-9.33751
保命	-9.33825
壞	-9.33838
大法	-9.33844
操	-9.33884
五老	-9.34234
不復	-9.34382
慈尊	-9.34403
逮	-9.34413
人身	-9.34662
无極	-9.3469
大將	-9.34828
避	-9.34944
盤	-9.34947
㸃	-9.35048
亡故某	-9.35106
衆眞	-9.35349
開光	-9.35455
握	-9.3549
議	-9.35508
惑	-9.35587
丸	-9.35699
受生	-9.35705
局	-9.35761
逸	-9.35782
誰	-9.35791
闊	-9.36081
號曰	-9.36201
攝召	-9.36425
凡有	-9.36482
五藏	-9.36544
仲	-9.36595
慢	-9.36659
寸	-9.36742
消災	-9.36811
復有	-9.36937
嵗	-9.37
設醮	-9.37004
消滅	-9.37112
叨	-9.37195
巽	-9.37219
綵	-9.37232
戍	-9.37303
不同	-9.37328
鼎	-9.37447
成就	-9.37455
爐	-9.37546
金籙	-9.37666
十五	-9.37712
頼	-9.37714
纒	-9.37767
狂	-9.37776
九霄	-9.37786
普濟	-9.37824
下方	-9.37853
正法	-9.37876
網	-9.37898
東井	-9.37943
億劫	-9.37945
斷絶	-9.38005
層	-9.38199
秉	-9.38356
冬	-9.38385
祗	-9.38385
髙眞	-9.38404
玉虚	-9.38463
某人	-9.38506
一如	-9.38527
歸命	-9.38533
工	-9.38966
天罡	-9.39169
作用	-9.39361
銅	-9.39364
神通	-9.39411
元始符命	-9.39417
受持	-9.39533
虚無	-9.39535
盍	-9.39544
飢	-9.39556
墓	-9.39641
懇	-9.39646
純	-9.3966
奪	-9.39731
浴	-9.39884
太上无極大道	-9.39954
顔	-9.39957
銷	-9.39981
幅	-9.39999
悃	-9.40007
微妙	-9.40067
二者	-9.40087
上生	-9.40127
玉簡	-9.40145
秘	-9.40338
䕃	-9.40433
懴謝	-9.40581
眞道	-9.40592
喪	-9.40662
黄帝	-9.40665
祠	-9.40668
玄虚	-9.40716
岸	-9.40791
金龍	-9.40865
萬聖	-9.40909
天道	-9.40954
陸	-9.40989
名山	-9.41008
以此	-9.41037
施行	-9.41043
枯	-9.41164
宋	-9.41231
徘徊	-9.41294
百神	-9.41336
功徳	-9.41379
南昌	-9.41454
出家	-9.41519
如前	-9.41562
后	-9.41595
生生	-9.41606
眞經	-9.41659
億	-9.41683
舟	-9.41808
戰	-9.41809
勵	-9.41812
罔	-9.41999
臣某	-9.42074
十六	-9.42126
伏聞	-9.42174
見在	-9.42176
欣	-9.42187
翊	-9.4219
乃至	-9.42254
兒	-9.42262
爭	-9.42352
趙	-9.42354
而爲	-9.42449
血湖	-9.42493
方便	-9.42502
呈	-9.42543
三途	-9.42683
千里	-9.42911
神符	-9.42958
恪	-9.42979
矜	-9.42998
赤書	-9.43029
三宫	-9.43106
腦	-9.43197
是爲	-9.43341
瘟	-9.43592
追攝	-9.43599
六十	-9.43604
肆	-9.43648
纏	-9.43649
直符	-9.43717
畏	-9.43929
宰	-9.43988
米	-9.44128
繁	-9.44178
乖	-9.44189
婦	-9.44208
頃	-9.44212
垢	-9.44286
次第	-9.44298
僧	-9.44339
有所	-9.44366
諸司	-9.44417
貺	-9.44436
途	-9.44531
七日	-9.44536
答	-9.44542
孔	-9.44598
此法	-9.44635
清微	-9.44655
皈命	-9.44674
戌	-9.44741
淫	-9.44847
磨	-9.44858
伺	-9.44879
安寧	-9.4498
之郷	-9.45094
昇天	-9.45206
帝王	-9.4526
駐	-9.45401
飾	-9.45444
羊	-9.45456
歎	-9.45493
溢	-9.45501
黄華	-9.45598
三天門下	-9.4564
治病	-9.4579
額	-9.45877
練	-9.46051
誕	-9.46052
龍王	-9.46053
膽	-9.46066
冰	-9.46091
煉	-9.46236
魁	-9.46356
標	-9.46391
東嶽	-9.464
念呪	-9.46463
三十二天	-9.46686
繞	-9.46694
上仙	-9.46699
酬	-9.46737
霜	-9.46737
三景	-9.46806
香火	-9.46956
善功	-9.47184
甲子	-9.472
弟	-9.47239
殘	-9.4726
縈	-9.47376
纂	-9.47387
志心敬禮	-9.47433
司馬	-9.47461
九地	-9.47522
判	-9.47555
旦	-9.47556
何以故	-9.47609
三月	-9.47666
及諸	-9.47684
齋壇	-9.47734
登眞	-9.47806
鴻	-9.47818
牀	-9.47873
右符	-9.47925
選	-9.47952
混沌	-9.47983
虧	-9.47984
玉訣	-9.48011
所居	-9.48023
陽光	-9.48032
脚	-9.48212
上有	-9.48441
訪	-9.48548
奠	-9.48602
溺	-9.48608
寒庭	-9.48828
之下	-9.48844
十三	-9.489
用之	-9.48919
北向	-9.4897
苦惱	-9.4904
其中	-9.49137
吉凶	-9.49169
埋	-9.49177
據	-9.49188
蘇	-9.49199
艮	-9.49287
上升	-9.49447
若不	-9.49477
皈	-9.49529
凝神	-9.49533
旬	-9.4955
浩	-9.49651
鐡	-9.49687
叩	-9.49799
洞明	-9.49829
天文	-9.49961
身形	-9.49998
朔	-9.50063
有一	-9.50115
榖	-9.50136
消除	-9.50157
法輪	-9.50177
東向	-9.5026
歴	-9.5042
折	-9.50452
神呪	-9.50494
準	-9.50501
泛	-9.50506
筵	-9.50521
静	-9.50524
仙靈	-9.50548
没	-9.50553
不可思議	-9.50554
東北方	-9.50565
神祇	-9.50736
之苦	-9.50737
三百	-9.50743
第六	-9.50743
明堂	-9.50797
渉	-9.50887
常以	-9.51005
控	-9.51188
報應	-9.51301
而生	-9.51387
闢	-9.5139
俓	-9.51417
龍虎	-9.51655
灑	-9.51763
述	-9.51772
歸依	-9.51815
兇	-9.51823
言功	-9.5183
皓	-9.51994
吳	-9.52332
乳	-9.5236
勒	-9.52433
索	-9.52454
猶如	-9.52474
之澤	-9.52526
祚	-9.52597
弗	-9.52666
皆得	-9.52684
至心	-9.52794
太上道君	-9.52912
項	-9.52916
青華	-9.52918
牙	-9.53117
六道	-9.53134
徼	-9.53151
霑	-9.53162
審	-9.53175
堪	-9.53257
之府	-9.53258
之地	-9.53288
𩔖	-9.53352
妻	-9.53392
無礙	-9.53406
紫虚	-9.53417
而成	-9.53477
困	-9.53489
悔	-9.53538
十四	-9.53575
九玄	-9.5358
胞	-9.53635
依科	-9.53655
右手	-9.53717
捉	-9.53753
漿	-9.53777
柔	-9.53778
俟	-9.53809
腰	-9.53816
秦	-9.53826
柱	-9.53881
之際	-9.53969
之文	-9.54052
怒	-9.54217
珍	-9.54309
其人	-9.54327
丹田	-9.5433
之外	-9.54502
門下	-9.54573
破獄	-9.54599
立功	-9.5462
上請	-9.54728
凡夫	-9.54884
百日	-9.54919
瀆	-9.54988
嗣	-9.55027
烈	-9.5505
其所	-9.55064
亦有	-9.55227
襲	-9.55229
言之	-9.55318
齋戒	-9.55335
和與道合眞	-9.55354
六畜	-9.55472
四十	-9.5557
監齋	-9.55614
眉	-9.5574
胡	-9.55761
癘	-9.558
橋	-9.55808
攸	-9.5581
翻	-9.5583
旌	-9.55836
暫	-9.55929
正炁	-9.55943
七星	-9.56051
黄素	-9.56122
盖	-9.56297
災厄	-9.56302
卑	-9.56396
邑	-9.56477
傍	-9.56486
余	-9.5649
割	-9.56497
闡	-9.56501
胃	-9.56502
侍衞	-9.56517
輒	-9.56529
力士	-9.56641
赤帝	-9.56653
不用	-9.56997
感通	-9.57026
晝	-9.5704
清靜	-9.57085
支	-9.57107
盧	-9.57156
賞	-9.57188
例	-9.57197
福慶	-9.57205
一者	-9.57219
杜	-9.5729
清虚	-9.57329
三業	-9.5741
廬	-9.57515
世世	-9.57535
即是	-9.57576
皮	-9.57723
太歳	-9.57767
蓮	-9.57806
百二十	-9.57839
恱	-9.57854
絲	-9.57855
汞	-9.5792
者皆	-9.57944
六天	-9.57978
亦復如是	-9.58054
過去	-9.5813
滌	-9.58143
四大	-9.58144
感應	-9.58271
准	-9.58398
卦	-9.5848
請命	-9.58522
太眞	-9.58581
掃	-9.58583
盜	-9.58592
競	-9.58594
生於	-9.58606
火鈴	-9.58609
逝	-9.58631
璇璣	-9.58646
正神	-9.58813
齋法	-9.589
志心	-9.58909
仙道	-9.58926
水中	-9.58933
是時	-9.58976
九十	-9.59052
延年	-9.59052
第七	-9.59088
飛歩	-9.59098
旱	-9.59113
婆	-9.59142
君諱	-9.59171
黄庭	-9.59174
靡	-9.59176
之尊	-9.59234
射	-9.59279
併	-9.59283
拂	-9.59316
淳	-9.59328
愚癡	-9.59333
侍衛	-9.59413
罪學士及百姓子	-9.59484
洞陽	-9.59517
詩	-9.59604
八方	-9.59735
華蓋	-9.5976
救度	-9.59787
第十	-9.59791
郎	-9.59963
碑	-9.59965
天堂	-9.59974
國土	-9.59984
八十	-9.60001
垣	-9.60011
良久	-9.60025
照耀	-9.60033
又云	-9.60143
扇	-9.6015
七十	-9.6022
文字	-9.60259
一百二十	-9.60277
五神	-9.60397
二年	-9.60448
上玄	-9.60448
楚	-9.60482
三十二	-9.60531
福地	-9.60542
毫	-9.60616
呉	-9.60677
祀	-9.60712
家國	-9.60724
邁	-9.60729
綿	-9.60729
晉	-9.60747
之罪學者及百姓子	-9.60774
出離	-9.60809
若能	-9.60813
或爲	-9.60837
草木	-9.60846
大齋	-9.60932
大魔王	-9.61119
忍	-9.61142
妙道	-9.61146
氛	-9.61343
八門	-9.61343
短	-9.6136
桃	-9.61384
九壘	-9.61409
激切	-9.61437
廢	-9.61446
缺	-9.61448
云云	-9.61705
泉曲	-9.61725
地官	-9.618
戒者	-9.61802
二百	-9.61806
之名	-9.61841
好生	-9.61873
爲一	-9.61948
上品	-9.62044
盗	-9.62078
神化	-9.62095
崖	-9.62131
趨	-9.62175
勉	-9.62181
鮮	-9.62191
傳授	-9.62518
之期	-9.6253
不死	-9.62666
壘	-9.62689
欽	-9.62873
正眞	-9.62917
一念	-9.62928
葛	-9.62931
紛	-9.62941
莊嚴	-9.63042
急急	-9.63103
可漏	-9.63134
道法	-9.63152
香花	-9.632
墨	-9.63261
蠲	-9.63263
生靈	-9.63268
成眞	-9.63352
今有	-9.63399
逃	-9.63421
活	-9.63534
激	-9.63535
剋	-9.63631
各各	-9.63642
収	-9.63685
脩	-9.63708
具足	-9.63769
超凌	-9.63783
精誠	-9.63838
旋行	-9.63956
天關	-9.64119
砂	-9.64161
曾	-9.64241
西南方	-9.64278
璧	-9.64326
鋒	-9.64328
經寳	-9.64396
搯	-9.6443
剛	-9.64505
枚	-9.64631
散花	-9.64698
不爲	-9.64732
尅	-9.64744
白日	-9.64883
神人	-9.64904
慾	-9.64948
油	-9.65023
太和	-9.65059
分明	-9.6506
孟	-9.65074
躡	-9.65121
略	-9.65136
正月	-9.65143
大梵	-9.65249
歩武	-9.65279
龍漢	-9.65419
伏惟	-9.65442
茅	-9.65547
通靈	-9.65626
謹召	-9.65652
符呪曰	-9.65763
符召	-9.65825
防	-9.65845
鄉	-9.65934
韻	-9.66005
道衆	-9.6606
伏望	-9.66137
自非	-9.66145
之理	-9.66188
迅	-9.66191
一旦	-9.66265
絳宫	-9.66348
而無	-9.6643
曰此	-9.66582
矣道言	-9.66592
睿	-9.66612
嬰兒	-9.66644
星辰	-9.66647
祅	-9.6665
祭鍊	-9.66668
完	-9.66677
赫奕	-9.66701
劄	-9.66705
厥	-9.66744
玉札	-9.66752
押	-9.66878
侍經	-9.66977
等伏聞	-9.67047
之數	-9.67104
天光	-9.67112
几	-9.67123
焦	-9.67149
乏	-9.67185
我今	-9.67214
死者	-9.67234
某乙	-9.67251
中來	-9.67274
也故	-9.67304
瑩	-9.67377
前後	-9.67429
龍神	-9.67433
三台	-9.67677
者則	-9.67762
希夷	-9.67788
上聞	-9.67947
互	-9.67969
稽	-9.68014
湖	-9.68092
壯	-9.68102
裏	-9.68106
解除	-9.68127
之音	-9.68304
延生	-9.68318
金剛	-9.68348
大王	-9.68405
利益	-9.68424
虞	-9.68428
太上洞玄靈寳	-9.68437
學者	-9.68486
算	-9.68613
九色	-9.68635
無形	-9.68686
無復	-9.68769
圎	-9.68777
洽	-9.68805
東南方	-9.68847
一年	-9.68879
旗	-9.68915
恊	-9.68938
蹤	-9.68969
山中	-9.69003
宣告	-9.69047
洪恩	-9.69089
四十九	-9.69205
檄	-9.69264
者是	-9.69461
精思	-9.69502
上登	-9.69505
某甲	-9.69514
亭	-9.69617
萬人	-9.69656
又曰	-9.69677
促	-9.69715
飛天神王	-9.69722
幢	-9.69732
某日	-9.69737
孕	-9.69743
紹	-9.69754
跪	-9.69767
祈恩	-9.69781
皆有	-9.69796
巳上	-9.6994
兩手	-9.70052
金眞	-9.7006
中天	-9.70076
一拜	-9.70114
十七	-9.70154
罪業	-9.70199
圍	-9.70202
此是	-9.7037
錬形	-9.70373
靈文	-9.70421
屈	-9.70468
聖位	-9.70472
恣	-9.70495
髪	-9.70516
鬱勃	-9.70525
死魂	-9.70527
骨肉	-9.70531
縛	-9.70545
材	-9.7055
遁	-9.70621
恰	-9.70632
偈	-9.70709
甲申	-9.70788
普及	-9.70831
十月	-9.70837
倍	-9.70852
所行	-9.70893
科曰	-9.70955
九靈	-9.70959
手執	-9.70987
齋用	-9.70991
之初	-9.7105
元炁	-9.71077
社	-9.71132
陛	-9.71178
靈符	-9.71202
天皇	-9.7125
青帝	-9.71338
玉童玉女	-9.71361
之前	-9.71412
由是	-9.7142
八卦	-9.71484
金華	-9.71525
僞	-9.71566
眞人道士	-9.71732
宿啓	-9.7174
六根	-9.72028
墜	-9.72049
火池	-9.72058
船	-9.72111
帝眞	-9.7213
釁	-9.7215
无爲	-9.72213
歡喜	-9.72224
八難	-9.72307
百姓	-9.72308
姓某	-9.72339
乙	-9.7242
幽關	-9.7245
福堂	-9.7256
之者	-9.72579
吒	-9.7273
羣生	-9.7276
地戸	-9.72834
雞	-9.72859
性命	-9.72893
䝉	-9.72945
陞壇	-9.73051
原赦	-9.73107
三靈	-9.73116
靈壇	-9.73169
生炁	-9.7325
九祖	-9.7344
亡䰟	-9.73542
浪	-9.73623
斗中	-9.7365
步	-9.73682
之物	-9.73686
剌	-9.7369
歛	-9.73699
冐	-9.73717
六丁	-9.73763
泄	-9.7379
太上老君	-9.73793
卜	-9.73806
轉輪	-9.73821
正道	-9.7396
姦	-9.73963
福德	-9.7399
八十一	-9.74051
呪畢	-9.74103
氷	-9.74251
上皇	-9.74278
西北方	-9.74295
我等	-9.74362
奉請	-9.74385
紫極	-9.74399
電	-9.74411
周流	-9.74424
羅酆	-9.7443
齋功	-9.74431
學仙	-9.74485
着	-9.74518
欵	-9.74589
沉淪	-9.74632
南嶽	-9.7466
萬福	-9.74747
書之	-9.74785
隨事	-9.7479
追魂	-9.74804
化育	-9.74834
今故燒香	-9.74875
十九	-9.74959
玉晨	-9.74967
閉氣	-9.74997
洞房	-9.75014
曆	-9.75149
之方	-9.75165
晶	-9.75272
冷	-9.75315
懽	-9.75316
郊	-9.75329
眞官	-9.75338
犬	-9.75357
鑊湯	-9.75387
熈	-9.75411
精進	-9.75537
衣服	-9.7559
周天	-9.75612
終不	-9.75674
明眞	-9.7569
天寳	-9.75728
疫	-9.75732
勑呪	-9.75743
之宫	-9.75743
農	-9.7597
大乗	-9.75977
入室	-9.75996
受錬	-9.76017
忱	-9.76054
祟	-9.76062
慶雲	-9.7611
稍	-9.76112
偶	-9.76187
煩	-9.76216
琅	-9.7622
惡根	-9.76231
淸	-9.76299
▲▲	-9.76442
齋意	-9.76472
粹	-9.76502
禹	-9.76511
保舉	-9.76585
虔	-9.76725
其神	-9.76781
夭	-9.76944
靈寳天尊	-9.76949
衷	-9.76958
循	-9.7699
罷	-9.77019
之根	-9.77027
弱	-9.7703
寢	-9.77042
某家	-9.77056
刃	-9.77077
一寸	-9.77116
符勑呪	-9.77124
先亡	-9.77128
動植	-9.77152
安樂	-9.77168
也若	-9.77186
百年	-9.77201
訟	-9.77204
蕩除	-9.7729
分野	-9.77326
第八	-9.77334
空中	-9.77356
澄清	-9.77409
上詣	-9.77611
和合	-9.77615
三素	-9.77699
低	-9.77761
二儀	-9.77792
朝禮	-9.77795
之光	-9.77795
錯	-9.77802
膏	-9.77814
飛昇	-9.77829
福田	-9.77872
鑿	-9.77873
呵	-9.77882
愼	-9.77903
苟	-9.77918
十二月	-9.78159
眞元	-9.78212
玄妙	-9.78228
教化	-9.78306
超生	-9.78364
土府	-9.78439
常行	-9.78524
賦	-9.78594
枕	-9.78689
喉	-9.78701
內	-9.78738
嶺	-9.78742
焰	-9.78748
涵	-9.78755
咽液	-9.78784
玄恩	-9.78803
裁成	-9.78811
豁落	-9.78855
三拜	-9.78887
庚	-9.79014
五日	-9.79017
有道	-9.79131
四極	-9.79184
軌	-9.7928
然燈	-9.79311
洞淵	-9.79401
帔	-9.79434
展	-9.79438
至今	-9.79471
玄功	-9.79518
峻	-9.79527
究	-9.79575
淩	-9.79592
玄靈	-9.79618
窺	-9.79641
使人	-9.79809
次法師	-9.79851
或有	-9.79882
太白	-9.79911
萬化	-9.7995
惡人	-9.80044
之象	-9.80067
斛	-9.80081
元氣	-9.8009
也其	-9.80099
紫府	-9.80121
無私	-9.80128
流精	-9.80172
晦	-9.80198
天符	-9.80208
口中	-9.80301
煎	-9.80318
把	-9.80373
台	-9.80418
脉	-9.80419
爛	-9.80428
輦	-9.80445
減	-9.80448
偏	-9.80467
闇	-9.80496
請稱法位具位	-9.80548
不絶	-9.806
譬如	-9.80674
周圓	-9.8073
依法	-9.80739
神名	-9.80866
齋官	-9.81098
某處	-9.811
永離	-9.81118
魂神	-9.81147
儲	-9.81213
惜	-9.81256
軫	-9.81259
踈	-9.81346
博	-9.81351
邈	-9.81352
鑑	-9.81369
聮	-9.81371
囚	-9.81377
水池	-9.81427
當以	-9.81446
奥	-9.81468
至真	-9.81468
帛	-9.81487
者當	-9.8158
兵馬	-9.81677
大夫	-9.81796
六情	-9.81819
洲	-9.81872
受經	-9.81942
十天	-9.81972
三者	-9.82
曰吾	-9.82058
也夫	-9.82087
猛	-9.82111
鄭	-9.82121
別	-9.8213
仙都	-9.82141
飽	-9.82193
誡	-9.82216
庫	-9.82231
透	-9.82245
抑	-9.82259
署	-9.82279
天地之	-9.82403
至尊	-9.82442
季	-9.82458
中黄	-9.82534
幽夜	-9.82578
之科	-9.82609
二十五	-9.82753
奉爲	-9.8278
二炁	-9.82854
商	-9.82936
佑	-9.82982
宛	-9.82997
遲	-9.83061
勾	-9.83072
騫	-9.83092
罪根	-9.83132
寵	-9.83143
故云	-9.83151
平等	-9.83159
𠔃	-9.83187
輅	-9.8319
心中	-9.83269
而巳	-9.83285
回向	-9.83312
安鎮	-9.83449
誦之	-9.83481
萬炁	-9.8352
怠	-9.83541
紫炁	-9.83555
時有	-9.83682
方函	-9.8369
鈞	-9.83747
帥	-9.83749
洞眞	-9.83776
昭昭	-9.83828
藴	-9.83888
始青	-9.83892
莊	-9.83898
漱	-9.83959
滓	-9.83973
耕	-9.8399
岳	-9.83992
所犯	-9.83998
五臓	-9.84022
獅子	-9.84054
逼	-9.8406
濯	-9.84066
蔽	-9.84073
寓	-9.84074
数	-9.84078
喻	-9.84088
行事	-9.84138
等衆	-9.84186
合用	-9.8423
金液	-9.8435
寳光	-9.84372
切切	-9.84427
青龍	-9.84437
次存	-9.84495
愍	-9.84517
度厄	-9.84588
人之	-9.84594
斤	-9.84675
蕭	-9.84805
婬	-9.84827
黒帝	-9.84889
曠	-9.84894
自今以去	-9.84903
穿	-9.8491
倚	-9.84917
躋	-9.84932
妨	-9.84959
富貴	-9.84997
講	-9.85023
城隍	-9.85193
人物	-9.85225
志心朝禮	-9.85229
白帝	-9.85268
七元	-9.8528
道塲	-9.85319
報對	-9.85333
主人	-9.85433
太帝	-9.85491
縹緲	-9.85549
境界	-9.85588
芽	-9.85625
之義	-9.85684
玄師	-9.85768
竈	-9.85781
億萬	-9.85797
𡻕	-9.85805
棺	-9.85823
圭	-9.85826
黄籙大齋	-9.85826
經曰	-9.8583
群生	-9.85834
長樂	-9.85841
屍	-9.85852
全形	-9.85855
道者	-9.8588
館	-9.859
廣大	-9.85953
九清	-9.85971
口舌	-9.86019
丹元	-9.86035
勑命	-9.86103
倫	-9.86251
並同	-9.86289
羅列	-9.86336
和平	-9.8636
九陽	-9.864
守一	-9.86403
官屬	-9.86492
之災	-9.86545
臭	-9.8657
堯	-9.86584
修之	-9.86687
三寶	-9.86697
䕶	-9.86723
天蓬	-9.86751
叩齒九通	-9.86768
也此	-9.86769
揖	-9.86782
憲	-9.86802
添	-9.86814
度世	-9.8687
悉皆	-9.86912
經緯	-9.86937
平安	-9.86965
應化	-9.86981
以聞	-9.87013
百里	-9.87098
垂慈	-9.871
上宫	-9.8711
清齋	-9.87149
䘮	-9.87274
中宫	-9.87295
洞煥	-9.87309
羅敷	-9.87369
九府	-9.87387
佳	-9.87404
截	-9.87455
關啓	-9.87517
裙	-9.87613
太乙救苦天尊	-9.87635
鹿	-9.87642
換	-9.87648
暮	-9.87655
隂陽之	-9.87658
盻	-9.87691
村	-9.87705
製	-9.87722
五臟	-9.87726
掩	-9.87737
禽	-9.87745
靈旛	-9.87757
亡者	-9.87821
不勝	-9.88016
天王	-9.88041
玉童	-9.88101
漠	-9.88102
必有	-9.88143
絹	-9.88255
之位	-9.88276
竅	-9.88282
即得	-9.88297
眞授靈寳通玄弘教水南先生林靈眞編	-9.88334
拜章	-9.88512
彭	-9.88539
赤明	-9.88583
同北	-9.88596
三魂	-9.88628
存神	-9.88639
具位姓某謹據	-9.88645
桑	-9.88669
謬	-9.88689
逾	-9.88698
随	-9.88722
蓬	-9.88722
元精	-9.8875
願得	-9.88794
注生	-9.88825
之化	-9.8886
鬼王	-9.88906
具法位	-9.88922
陛下	-9.88979
三才	-9.89027
監臨	-9.89032
符使	-9.89203
上相	-9.89234
名字	-9.89365
天恩	-9.89402
玄黄	-9.89455
淺	-9.89469
大乘	-9.89486
籠	-9.8952
呪詛	-9.89538
醉	-9.89566
喬	-9.89576
瘡	-9.89591
又請	-9.89619
寛	-9.8963
循環	-9.89651
幻	-9.89687
請降	-9.89848
不安	-9.89848
見存	-9.89894
病人	-9.89895
次舉	-9.90042
宿命	-9.90055
之先	-9.90059
元年	-9.90061
測	-9.90068
妃	-9.90092
人道	-9.90111
湛	-9.9017
星宿	-9.90181
恭敬	-9.90206
道化	-9.90258
三十六部尊經玄中大法師	-9.90263
白虎	-9.90335
崇建	-9.90369
則爲	-9.90395
牌	-9.90425
超昇	-9.90475
六府	-9.9048
打	-9.9049
排	-9.90545
撰	-9.90548
天尊言	-9.90579
徴	-9.90588
企	-9.90599
同卷	-9.90621
三皇	-9.90636
忠孝	-9.90639
解厄	-9.90642
軿	-9.90691
而行	-9.90743
之樂	-9.90829
瘥	-9.9096
九夜	-9.91019
壇前	-9.91194
飛玄	-9.91244
晏	-9.91271
老子	-9.91289
之仁	-9.91304
照臨	-9.91309
功成	-9.91415
貼	-9.91462
而有	-9.91466
靈寶	-9.9149
陟	-9.91517
玄眞	-9.91521
寡	-9.91526
慰	-9.91577
之誠	-9.91584
餐	-9.91627
一道	-9.91633
諸法	-9.9164
倉	-9.91652
逕	-9.91801
皇君	-9.91895
九光	-9.91898
道力	-9.91958
九州	-9.91965
香官使者左右龍虎君侍香諸靈官當令	-9.91978
頗	-9.92034
魅	-9.92074
下有	-9.92082
年月日	-9.92138
禁戒	-9.92157
妙化	-9.92175
列位	-9.92181
汁	-9.92239
輩	-9.92344
後世	-9.92352
沾	-9.92352
飯	-9.9241
况	-9.92454
炭	-9.92486
法橋	-9.925
剪	-9.92525
崑崙	-9.92529
禁忌	-9.92536
慿	-9.92542
之章	-9.92548
兊	-9.92551
秩	-9.92557
牧	-9.92566
赫赫	-9.92598
得見	-9.92718
祈禳	-9.92772
居之	-9.9279
玉章	-9.9283
九眞	-9.92897
見之	-9.93008
三境	-9.9301
是一病	-9.93081
無常	-9.932
飛龍	-9.93214
見世	-9.93376
擇	-9.93399
枉	-9.93404
大衆	-9.93411
第九	-9.93465
囊	-9.93496
胤	-9.93504
屏	-9.9351
辯	-9.9353
罹	-9.9356
詩曰	-9.93567
炬	-9.93585
所願	-9.93599
復爐	-9.93604
萬方	-9.93677
之力	-9.93738
蓮花	-9.93738
晚	-9.9376
建立	-9.93773
猷	-9.93787
無間	-9.93808
祥光	-9.93839
可得	-9.93921
仙聖	-9.93936
於碧落	-9.94035
淨明	-9.94049
蒙恩	-9.94129
命魔	-9.94204
而後	-9.94325
天元	-9.94332
擾	-9.94336
寳符	-9.94347
之靈	-9.94441
尼	-9.94461
遏	-9.9449
采	-9.94526
極狀	-9.94554
逍遙	-9.94559
幡	-9.94564
輕慢	-9.94574
無由	-9.94663
飈	-9.94673
奚	-9.94682
覆載	-9.94718
奏請	-9.94752
彈	-9.94806
皆是	-9.94843
介	-9.94856
知其	-9.94912
三氣	-9.94924
萬象	-9.94971
承符	-9.95043
九年	-9.95103
多少	-9.95111
罪人	-9.95179
仙眞	-9.95231
髙尊	-9.95251
九月	-9.95269
札	-9.95414
遊宴	-9.95436
符吏	-9.95447
流行	-9.95449
鑄	-9.95492
哭	-9.95496
借	-9.95519
靄	-9.95542
麟	-9.95549
築	-9.95574
廕	-9.95578
程	-9.95585
冒	-9.95597
度師	-9.9568
畜	-9.95718
洞章	-9.9572
世之	-9.95853
是一藥	-9.95857
善人	-9.95877
平坐	-9.95911
飛雲	-9.96038
八節	-9.96058
百關	-9.96095
仙吏	-9.96144
度脫	-9.96214
告盟	-9.96401
如何	-9.96449
蠶	-9.96491
桂	-9.96503
姿	-9.96554
二十八宿	-9.96567
盜賊	-9.96573
三塗五苦	-9.96609
幽暗	-9.96758
大吉	-9.96786
一切威靈	-9.9679
旡	-9.96793
紫庭	-9.9681
有三	-9.96988
得其	-9.97151
者從	-9.97161
七月	-9.97212
穹	-9.97348
開通	-9.9748
視之	-9.97487
者乃	-9.97496
耗	-9.97508
風雲	-9.97513
攀	-9.97523
佩之	-9.97541
隠	-9.97544
帀	-9.97548
昨	-9.97551
上啓	-9.9756
茶	-9.97574
板	-9.97577
癡	-9.97601
廵	-9.97615
禎祥	-9.97628
所見	-9.97635
女青	-9.97664
之家	-9.97691
權衡	-9.97703
給付	-9.97717
厄難	-9.97851
無任	-9.97925
自此	-9.98027
常住	-9.98102
二十七	-9.98109
五月	-9.98145
幽靈	-9.98228
諸衆生	-9.98337
此符	-9.98385
潭	-9.98442
太上靈寳	-9.98475
道君曰	-9.98507
洒	-9.98552
而來	-9.98582
冩	-9.98584
廉	-9.98631
躍	-9.98639
征	-9.9864
之狀	-9.98653
版	-9.98657
者謂	-9.98764
之術	-9.98806
莫能	-9.98864
善心	-9.98896
元帥	-9.98915
入山	-9.98924
之德	-9.98951
遊行	-9.99001
者爲	-9.99009
眞宰	-9.99047
何以	-9.99115
疾速	-9.99146
七炁	-9.99172
不聞	-9.9923
三尺	-9.99289
無極世界	-9.99331
生門	-9.99338
安穩	-9.99368
法界	-9.99476
牽	-9.99507
說法	-9.99511
二月	-9.99556
者即	-9.99559
蘂	-9.9957
迫	-9.99649
叔	-9.9965
挺	-9.99659
受福	-9.99705
恨	-9.99706
挹	-9.9972
之憂	-9.99742
苦爽	-9.99768
侍香	-9.99804
師尊	-9.99812
丹書	-9.99829
黃庭	-9.99899
有人	-9.999
太上無極大道	-9.99987
俯仰	-10.0006
玄中大法師	-10.0009
生神章	-10.0012
今則	-10.0012
持戒	-10.0016
靈寳領教濟度金書卷之	-10.0017
九過	-10.002
死生	-10.0035
萬國	-10.0042
其道	-10.0045
於地	-10.0045
場	-10.0045
煥耀	-10.0047
師曰	-10.0059
之類	-10.0061
字道	-10.0063
當願	-10.0063
紋	-10.0065
賣	-10.007
之天	-10.007
園	-10.0072
𩀱	-10.0075
軄	-10.0076
須㬰	-10.0076
毁	-10.0077
賴	-10.0078
某身	-10.008
旙	-10.0081
不祥	-10.0082
嶽瀆	-10.0103
病者	-10.0104
甲乙	-10.0107
九氣	-10.0107
赤子	-10.0108
六洞	-10.0111
自是	-10.0111
惱	-10.0111
本靖	-10.0115
之機	-10.012
千萬	-10.0125
儀卷	-10.0144
衣食	-10.0149
奉戒	-10.0154
炁吹	-10.0155
也又	-10.0158
三華	-10.0164
癸	-10.0167
慎	-10.0168
火錬	-10.0169
費	-10.0171
進拜	-10.0172
驛	-10.0173
亦無	-10.0173
員	-10.0175
餌	-10.0176
書名	-10.0178
戎	-10.0178
浄	-10.0182
𢹂	-10.0182
姑	-10.0182
三過	-10.0183
覲	-10.0183
之衆	-10.0183
燦	-10.0183
入道	-10.0184
當知	-10.0185
遽	-10.0188
修道	-10.0189
長齋	-10.019
十里	-10.0196
開化	-10.0196
流通	-10.0201
椿	-10.0202
雨露	-10.0204
北酆	-10.0221
神吏	-10.0228
之聲	-10.0235
丹天	-10.0236
去來	-10.0239
丹誠	-10.0252
金丹	-10.0261
袍	-10.0265
之忱	-10.0267
某等	-10.0269
飬	-10.0279
斷除	-10.028
襟	-10.0281
尹	-10.0284
占	-10.0285
醮筵	-10.0285
暎	-10.0289
凋	-10.029
其身	-10.0292
貨	-10.0292
呼吸	-10.0292
闘	-10.0293
諦聽	-10.0302
惟願	-10.0307
入意	-10.0309
九轉	-10.0316
亡過某	-10.0317
眞精	-10.0324
至誠	-10.0329
髙下	-10.0329
疫鬼	-10.033
之符	-10.0333
自生	-10.0336
符籙	-10.0348
靈書	-10.0351
百病	-10.036
官事	-10.0366
九玄七祖	-10.0367
擲	-10.0369
不欲	-10.037
皆當	-10.0373
起死	-10.0374
䖍誠	-10.038
見有	-10.0384
煑	-10.0388
地仙	-10.0388
出於	-10.0389
魏	-10.039
決	-10.0392
地户	-10.0394
橫	-10.0396
玄珠	-10.0397
之始	-10.0398
壤	-10.0399
鳴法鼓二十四通	-10.0399
匡	-10.04
戾	-10.0402
提携	-10.0405
驂	-10.0405
人有	-10.0406
公私	-10.0408
謹當	-10.0411
其心	-10.0412
不動	-10.0414
服食	-10.042
玉華	-10.0429
之運	-10.0433
神燈	-10.0434
冠帶	-10.0434
五寸	-10.0437
故也	-10.0448
妙法	-10.0451
三十九	-10.0451
命門	-10.0457
之宗	-10.0461
所爲	-10.0471
發願	-10.0477
合屬	-10.0482
紫清	-10.0483
存想	-10.0487
女子	-10.0489
聚形	-10.0493
嘯	-10.0496
牢	-10.05
韓	-10.05
玉籙	-10.0501
叙	-10.0502
師寳	-10.0504
三寸	-10.0507
侣	-10.051
開悟	-10.0511
熏	-10.0511
料	-10.0511
成形	-10.0519
懴主某	-10.0519
叩頭	-10.052
隱書	-10.0529
裳	-10.0529
蕩滌	-10.0538
法門	-10.0543
八威	-10.0547
吾今	-10.0548
妻子	-10.055
丙	-10.0553
玄上	-10.0553
罪魂	-10.0564
十方三界	-10.057
或作	-10.0573
眞形	-10.0575
陽精	-10.0581
天仙	-10.0587
財物	-10.0591
昇仙	-10.0592
研	-10.0592
玄曹	-10.0592
十日	-10.06
成仙	-10.0603
建壇	-10.0606
萬年	-10.061
蒸	-10.0611
刋	-10.0611
升天	-10.0612
戲	-10.0613
債	-10.0613
憐	-10.0615
甞	-10.0615
道前	-10.0615
底	-10.0616
叱	-10.0617
捕	-10.0619
諸大	-10.0623
攻	-10.0623
兄	-10.0624
璇	-10.0624
繩	-10.0624
巧	-10.0625
使我	-10.0625
之意	-10.0626
凖	-10.0627
辨	-10.0627
不以	-10.0628
裂	-10.0629
謙	-10.0629
虬	-10.0629
夜壑	-10.0629
可謂	-10.0634
狗	-10.0634
十萬人	-10.0638
爲先	-10.0639
導引	-10.0641
千年	-10.0655
役使	-10.0657
天子	-10.0667
紫雲	-10.0667
功曹使者	-10.0667
未能	-10.0669
金童	-10.0669
軀	-10.0669
此人	-10.0671
二景	-10.0671
演說	-10.0677
不行	-10.0678
敢忘	-10.0679
章奏	-10.0682
所言	-10.0684
死亡	-10.0693
醜	-10.0694
生身	-10.0694
飛空	-10.0697
泰山	-10.0702
之威	-10.0707
不敬	-10.0712
擣	-10.0715
衆神	-10.0726
老人	-10.073
奴婢	-10.0733
擬	-10.0736
奮	-10.0737
斥	-10.0738
衆等	-10.0738
謹上請	-10.0738
轡	-10.0738
斧	-10.0739
三極	-10.0739
髙明	-10.0739
先天	-10.0742
胞胎	-10.0744
騫林	-10.0744
寳誥	-10.0748
自有	-10.0748
法衆	-10.0753
修齋行道	-10.0753
之形	-10.0754
焚符	-10.0758
幽隂	-10.0761
接引	-10.0765
奏聞	-10.0765
無遺	-10.0776
返生	-10.0783
復連	-10.0784
玄關	-10.0794
流輝	-10.0794
蕩蕩	-10.08
成人	-10.0801
宥	-10.0812
召魂	-10.082
无常	-10.0824
庶得	-10.0826
經文	-10.0842
掘	-10.0842
覽	-10.0845
心不	-10.0848
嚥	-10.0848
勿令	-10.0849
饌	-10.0851
鬰	-10.0852
翹	-10.0853
策	-10.0854
錄	-10.0855
三田	-10.0864
運度	-10.0866
閉目	-10.087
黃籙	-10.0871
無量度人	-10.0873
浩劫	-10.0874
受戒	-10.0887
髓	-10.0889
至人	-10.0894
貽	-10.0899
降眞	-10.0905
三乗	-10.0906
受事	-10.0907
上朝	-10.0909
得道之後昇入无形和與道合眞	-10.0909
之界	-10.0911
戮	-10.0914
受化	-10.0915
修眞	-10.0915
五百	-10.0919
隨方	-10.092
慈雲	-10.0923
投簡	-10.0931
翁	-10.0933
萬民	-10.0936
神兵	-10.0939
五氣	-10.0942
穀	-10.0943
天樞	-10.0945
祛	-10.0959
救苦天尊	-10.0962
灾	-10.0964
剔	-10.0966
鎖	-10.0966
皆由	-10.0967
麤	-10.0971
顚倒	-10.0974
金符	-10.098
通用	-10.0982
在上	-10.0987
黙念	-10.0988
宣行	-10.0998
不識	-10.0999
茲	-10.1001
山在	-10.1007
神水	-10.1007
而下	-10.1016
或號	-10.1018
諸靈官	-10.1019
恭惟	-10.102
之風	-10.1023
玄㝠	-10.1044
之瑞	-10.1048
官君	-10.1048
朱章	-10.1051
靈風	-10.1056
經典	-10.1066
啓白	-10.1068
赦罪	-10.1074
澗	-10.1078
膝	-10.1078
篤	-10.1079
化人	-10.108
當爲	-10.1081
阜	-10.1082
倐	-10.1085
崔	-10.1086
恠	-10.1086
辱	-10.1087
白簡	-10.1088
雅	-10.1089
罷對	-10.1095
微祝曰	-10.1102
巳來	-10.1106
眞名	-10.1108
紫陽	-10.1114
神炁	-10.112
萬鬼	-10.1122
昇入	-10.1129
後生	-10.113
不離	-10.1143
壬	-10.1145
欲望	-10.1151
大明	-10.1156
鬼兵	-10.116
愚人	-10.1161
告行	-10.1164
髙上玉皇十方巳得道大聖衆至眞諸君	-10.1172
十惡	-10.1173
酆	-10.1175
先生林靈眞編科儀立成品	-10.118
尾	-10.1186
當令	-10.1191
許君	-10.1192
受鍊	-10.1193
其文	-10.1196
法身	-10.1196
之輝	-10.1196
在心	-10.1196
十餘	-10.1196
携	-10.1198
替	-10.1199
諭	-10.1201
郭	-10.1201
碎	-10.1201
強	-10.1203
陣	-10.1204
亶	-10.1204
踐	-10.1204
憶	-10.1204
事畢	-10.1205
栖	-10.1205
都講	-10.1206
葬	-10.1206
其家	-10.1206
貢	-10.1207
孚	-10.1208
鄕	-10.1208
大道君	-10.1209
恃	-10.1212
尊願以是功德歸流	-10.1212
君字	-10.1213
浹	-10.1213
生根	-10.122
聰明	-10.122
至此	-10.1221
法雨	-10.1225
頌曰	-10.1229
含靈	-10.1241
腸	-10.1252
得一	-10.1257
謝過	-10.1261
是非	-10.1267
中外	-10.1267
輪廻	-10.1269
關告	-10.127
玉闕	-10.1284
黄道	-10.1286
不成	-10.1297
四生	-10.1298
二氣	-10.1301
絡	-10.1311
抜	-10.1312
雷電	-10.1312
功過	-10.1313
之身	-10.132
𦤺	-10.1321
其事	-10.1321
倘	-10.1321
叶	-10.1322
弄	-10.1324
洛	-10.1324
聳	-10.1326
四象	-10.1326
播	-10.1327
宵	-10.1327
績	-10.1327
袐	-10.1328
流布	-10.1331
十年	-10.1333
曹治	-10.1334
朱雀	-10.1336
雖有	-10.1337
香燈	-10.1341
者以	-10.1344
鬱儀	-10.1344
瑶壇	-10.1347
寒暑	-10.1347
劫運	-10.135
罪咎	-10.135
威光	-10.1355
年命	-10.1361
不食	-10.1365
口訣	-10.1365
惡鬼	-10.138
方諸	-10.1401
三人	-10.1404
引至	-10.1412
保護	-10.1414
栢	-10.1419
八月	-10.1422
北府	-10.1422
覃	-10.1428
聦	-10.143
開張	-10.1437
濕	-10.144
匿	-10.1443
譴	-10.1446
黨	-10.1446
褐	-10.1447
零	-10.1447
玉光	-10.1448
人家	-10.1448
傅	-10.1448
蕃	-10.1449
嗟	-10.1452
蠢動	-10.1452
仙曹	-10.1453
上奏	-10.1467
一十二	-10.1476
兮	-10.1477
聞經	-10.148
之大	-10.1484
不必	-10.1486
人中	-10.1492
無所不	-10.1495
其有	-10.1497
七十二	-10.1497
帳	-10.1498
開泰	-10.1512
之本	-10.152
爲我	-10.1521
慧光	-10.1522
天府	-10.1524
判官	-10.1524
金科	-10.1533
天機	-10.1535
先世	-10.1539
瑕	-10.1539
之書	-10.1539
七世	-10.154
門庭	-10.1552
頻	-10.156
汙	-10.1564
僕	-10.1565
警	-10.1565
賀	-10.1567
腥	-10.1567
敵	-10.157
蛟	-10.1571
化身	-10.1573
虎狼	-10.1573
指揮	-10.1573
表裏	-10.1574
中嶽	-10.1574
悠悠	-10.1575
紛紜	-10.1575
磬	-10.1575
耽	-10.1576
與道合真	-10.1577
今世	-10.1581
寃	-10.1581
𡨚仇	-10.1582
天一	-10.1584
太一救苦天尊	-10.1586
大德	-10.1605
靈音	-10.1606
永無	-10.1607
六月	-10.1609
是經	-10.1609
死入	-10.1615
升壇	-10.1615
華池	-10.1616
夜半	-10.1616
三捻上香	-10.1619
於天	-10.1623
即使	-10.1629
念道	-10.1629
爲某	-10.1631
布化	-10.1631
戊	-10.1632
天丁	-10.1635
合同	-10.1642
開圖	-10.1645
所受	-10.1651
殺生	-10.1656
道成	-10.1659
法服	-10.166
與道	-10.1665
寳章	-10.1665
與人	-10.1668
學士	-10.1668
臍	-10.1673
餓鬼	-10.1674
東海	-10.1675
鑪	-10.1676
食之	-10.1683
玄天	-10.169
升度	-10.1692
羙	-10.1692
構	-10.1692
胷	-10.1692
亨	-10.1694
眄	-10.1694
以其	-10.1695
四肢	-10.1696
忤	-10.1696
社稷	-10.1696
誹謗	-10.1696
壑	-10.1696
沛	-10.1697
瓦	-10.1698
辤	-10.1699
四面	-10.17
探	-10.1702
大慈大悲大聖大願隨機赴感發誓度人	-10.1702
四者	-10.1711
形體	-10.1713
甲辰	-10.1714
今當	-10.1719
畜生	-10.1722
惠澤	-10.1722
六親	-10.1734
而出	-10.1741
日宫	-10.1741
大劫	-10.1744
超升	-10.1746
皇家	-10.1747
祉	-10.1752
風雷	-10.1758
說經	-10.1762
受苦	-10.1768
圓成	-10.1787
朝眞	-10.1788
攝書符唵	-10.1789
歆	-10.1796
亦如	-10.1796
區	-10.1797
笈	-10.1799
豆	-10.1803
所屬	-10.1805
傳度	-10.1806
黎	-10.1806
眞王	-10.1808
駕景	-10.1818
風清	-10.1819
汗	-10.182
者不	-10.1821
驕	-10.1822
覬	-10.1824
饑	-10.1824
慳貪	-10.1825
讓	-10.1827
三災	-10.1827
詐	-10.1834
監察	-10.1836
展轉	-10.1836
玉匱	-10.1836
奏章	-10.1839
萬眞	-10.1839
治之	-10.184
莫測	-10.184
濟物	-10.1841
宅舍	-10.1842
不須	-10.1844
之令	-10.1852
徃來	-10.1855
延壽	-10.1857
考對	-10.1862
刀山	-10.1873
之路	-10.1875
而已	-10.1878
同學	-10.1885
並用	-10.1885
惡業	-10.1888
至心朝禮	-10.1892
說戒	-10.1892
地下	-10.1903
眞聖	-10.1903
靈章	-10.1905
受命	-10.1912
暑	-10.1916
礙	-10.192
經教	-10.1931
无有	-10.1932
轉經行道	-10.1933
陽明	-10.1935
永保	-10.1938
臘	-10.1938
九日	-10.1938
蠻	-10.1943
黄書	-10.1943
痊	-10.1945
銘	-10.1945
不足	-10.1946
廚	-10.1947
的	-10.1949
穆	-10.1949
衣冠	-10.1952
顛倒	-10.1955
皎	-10.1955
輕重	-10.1958
讀誦	-10.1962
九重	-10.1963
誠惶誠恐稽首頓首	-10.1963
五體	-10.1964
彌羅	-10.1965
三百六十	-10.1976
素靈	-10.1977
上眞道君	-10.1977
羽蓋	-10.198
所說	-10.1981
見其	-10.1986
鬼官	-10.1987
仙靈官吏	-10.1988
光華	-10.1988
門外	-10.1991
之要	-10.1995
太皇	-10.1998
緯	-10.2017
寳經	-10.2017
非人	-10.2021
福禄	-10.2026
道氣	-10.2028
正度	-10.2031
天心	-10.2037
兢	-10.2038
玄武	-10.2041
無數	-10.2042
亡故某人	-10.2043
渥	-10.2047
真符	-10.2049
訴	-10.2054
溟	-10.2057
散壇	-10.2058
玄冥	-10.2062
晴	-10.2073
金簡	-10.2073
裁	-10.2073
蓬萊	-10.2074
幽䰟	-10.2077
畔	-10.2077
蛻	-10.2077
徵	-10.2077
辟斥	-10.2078
亘	-10.2079
等今故燒香皈身皈神皈命	-10.208
儒	-10.208
銜	-10.2083
尊卑	-10.2088
浮黎	-10.2088
旺	-10.2088
今爲	-10.2092
無量無邊	-10.2097
今故燒香自歸依師尊大聖衆至	-10.21
惡道	-10.2102
玄中	-10.2105
玄穹	-10.2108
之福	-10.2109
曰我	-10.2115
煥明	-10.2116
穩	-10.212
千災	-10.2121
領教	-10.2123
神龍王	-10.2125
好道	-10.2128
終身	-10.2131
動靜	-10.2135
祝之	-10.2135
簡文	-10.2144
朝謁	-10.2146
二捻上香	-10.2151
太山	-10.2153
經者	-10.2153
所得	-10.2154
今生	-10.2156
頭上	-10.216
古今	-10.216
流火	-10.2162
仰惟	-10.2164
不受	-10.2168
神也	-10.2172
法信	-10.2175
當願一切	-10.2178
臣今	-10.2179
命元	-10.2181
道德日	-10.2182
眷	-10.2182
非常	-10.2182
催	-10.2185
伏念	-10.2185
分形	-10.2188
天尊曰	-10.219
常存	-10.2191
在前	-10.2191
卓	-10.2193
恬	-10.2197
其後	-10.2199
蔵	-10.2207
帝東華南極西靈北眞玄都玉京金闕七	-10.2207
鍊形	-10.2207
禦	-10.221
誘	-10.2211
嗔	-10.2211
盆	-10.2212
雍	-10.2212
琴	-10.2215
隂精	-10.2216
普天	-10.2217
丙丁	-10.2217
寺	-10.2218
貧窮	-10.2219
子午	-10.2221
謹爲	-10.2222
日月星辰	-10.2223
三分	-10.2225
以昭宸貺	-10.2226
符醫	-10.2228
千眞	-10.2228
有情	-10.2229
玉曆	-10.2231
元神	-10.2233
昇度	-10.2239
玉局	-10.2239
重泉	-10.224
不應	-10.2246
白雲	-10.2247
眞一	-10.2251
之報	-10.2257
金石	-10.2262
洞玄靈寳	-10.2268
之典	-10.2274
無色	-10.2276
之徒	-10.2276
清都	-10.2277
龍章	-10.2279
須至	-10.2281
天宫	-10.2282
各一	-10.2282
妙炁	-10.2285
俯垂	-10.2288
落滅	-10.2294
離苦	-10.2308
七曜	-10.2308
是謂	-10.2313
四月	-10.2313
上真	-10.2315
輝華	-10.2319
妙有	-10.2319
今有齋主某	-10.232
飛升	-10.232
攝醫	-10.2326
腑	-10.233
嵩	-10.2332
受此	-10.2332
隅	-10.2333
軸	-10.2334
僚	-10.2336
饒	-10.2339
泯	-10.2339
荆	-10.2341
戈	-10.2342
一曰	-10.2342
騎吏	-10.2343
綺	-10.2343
奸	-10.2345
乗晨	-10.2347
戢	-10.2349
銅柱	-10.2349
迓	-10.235
淡	-10.2352
靈仙	-10.2353
城隍社令	-10.2353
鼓舞	-10.2354
七魄	-10.2355
普告	-10.2357
大有	-10.2358
升神	-10.2359
眞師	-10.2362
更相	-10.2365
懴罪	-10.2367
孤魂	-10.2369
尚慮	-10.237
六趣	-10.2371
歸位	-10.2374
幽爽	-10.2375
存念	-10.2376
歸心	-10.2377
主執	-10.2382
仙翁	-10.2382
引魂	-10.2383
切以	-10.2385
六腑	-10.2396
天神	-10.2396
登壇	-10.2397
宣揚	-10.2397
建三	-10.24
敢有	-10.2402
來下	-10.2402
前世	-10.2412
眞氣	-10.2418
有生	-10.2419
如常	-10.2431
神眞	-10.2433
金門	-10.244
南上	-10.2442
驅除	-10.2446
思惟	-10.2448
尸解	-10.245
梵行	-10.2453
三色	-10.2461
不從	-10.2461
壽域	-10.2464
若欲	-10.2464
及以	-10.2467
儼	-10.247
勃	-10.2471
鄧	-10.2472
神氣	-10.2476
入夜	-10.2479
擒	-10.248
萌	-10.248
贖	-10.2481
故次之以	-10.2481
不通	-10.2484
釐	-10.2485
戀	-10.2485
甲戌	-10.2486
敦	-10.2488
燕	-10.2488
四十二	-10.249
十方靈寳天尊	-10.2492
地祇	-10.2497
邪魔	-10.2502
五者	-10.2502
善縁	-10.2503
光芒	-10.2504
之果	-10.2505
他人	-10.2505
焚之	-10.251
聖力	-10.2512
白鶴	-10.2512
錬質	-10.2513
不善	-10.2514
至于	-10.2514
虚無自然	-10.2517
羽衣	-10.2517
妙用	-10.2519
神威	-10.252
玄臺	-10.2522
萬罪	-10.2522
幽冥	-10.2523
此乃	-10.2531
其上	-10.2533
流金	-10.2536
齋事	-10.2538
流明	-10.2542
不相	-10.2543
以上	-10.2547
慈光	-10.255
苦海	-10.2552
上言	-10.2556
修設	-10.256
片	-10.2562
門戸	-10.2573
承天	-10.2574
其義	-10.2587
伏爲	-10.2591
等歸身歸命首體投地仰依太上三	-10.2594
災凶	-10.26
鋪	-10.2606
烹	-10.2608
壓	-10.2611
訶	-10.2613
鉞	-10.2617
琳琅	-10.2619
辦	-10.2619
朴	-10.2619
無極大道	-10.2619
輸	-10.2619
舘	-10.262
萃	-10.2621
炳	-10.2621
揮	-10.2621
鳥獸	-10.2624
寥廓	-10.2625
渡	-10.2625
狐	-10.2626
宣化	-10.2629
即得免	-10.263
生前	-10.2632
弘道	-10.2632
黒鬱	-10.2633
司主管天下	-10.2639
案判官嶽府第	-10.264
洞府	-10.2646
監生	-10.2646
一方	-10.2649
光照	-10.2651
投誠	-10.2658
午朝	-10.2668
法食	-10.2669
請臣等	-10.2673
飛度	-10.2674
生化	-10.2675
未來	-10.2681
五濁	-10.2683
飛騰	-10.269
今故燒香自皈依師尊大聖衆至	-10.2692
神仙諸靈官	-10.2694
兄弟	-10.2696
上法	-10.27
之華	-10.2702
陰	-10.2705
昊天玉皇上帝	-10.2706
真人右	-10.2708
太一天尊	-10.2717
至聖	-10.2718
仙衆	-10.272
玉宸	-10.2725
天帝君上清	-10.2727
級	-10.2735
於人	-10.274
流形	-10.2741
稽首禮	-10.2743
陀	-10.2744
序立	-10.2744
十戒	-10.2745
棗	-10.2748
可不	-10.2749
朽	-10.2749
懇祈	-10.2752
叩齒三通	-10.2753
尉	-10.2754
汚	-10.2754
苗	-10.2754
顏	-10.2755
扶桑	-10.2756
瑤	-10.2757
陋	-10.2758
愧	-10.2758
掛	-10.2758
先亡同得離幽苦上昇福堂轉輪成眞利	-10.2759
恠夢消除二儀交泰則七曜調明風雨以	-10.2759
於鴻覆生靈曷遂於燕安或旱澇之所災	-10.2759
或民庶之多難覩此物	-10.2759
海災消禎祥雲集八節安和一切羣生咸	-10.2759
用叩天恩冀社稷之尊隆庶民物之康阜	-10.2759
洞神之法立墠設位象三十六天燒香然	-10.2759
皇中元祈請大齋臣等誠愚誠魯非賛大	-10.2759
奕	-10.276
相應	-10.276
賈	-10.2761
霓旌	-10.2762
丕	-10.2763
尊師	-10.2763
玄科	-10.2764
五嶽四瀆	-10.2765
天帝君	-10.2765
東方青	-10.277
興隆	-10.2773
骸	-10.2781
之言	-10.2782
某與臨壇官衆等謹同誠上啓	-10.2784
法王	-10.2785
九華	-10.2814
不起	-10.2819
謝恩	-10.2828
齋醮	-10.2828
元洞	-10.2829
聖澤	-10.2833
壇場	-10.2834
得仙	-10.2841
不干	-10.2844
聖母	-10.2845
綸	-10.2847
殺鬼	-10.2854
三世	-10.2854
禮懴	-10.2857
未有	-10.2857
地禁	-10.286
以成	-10.2861
太極眞人	-10.2863
俓上	-10.287
三一	-10.2878
邦	-10.288
淨供	-10.2882
巢	-10.2883
麥	-10.2884
焼	-10.2885
黃帝	-10.2888
信禮	-10.2889
徽	-10.2892
鼔	-10.2894
亞獻	-10.2896
諧	-10.2897
霹靂	-10.2897
眠	-10.2898
聿	-10.2899
暄涼應節黎庶咸安兵戈止息天下太平	-10.2899
衘	-10.2899
悔丹誠以是功德歸流某七廟之靈九玄	-10.29
當今皇帝遇荷玄恩幸藉餘慶屬當萬機	-10.29
燈應三十六地消釋幽闇招引神明爲某	-10.29
罔極之澤垂救度之福賜更造之仁使道	-10.29
塚	-10.2901
度人經	-10.2902
良乆	-10.2902
有大	-10.2903
鄰	-10.2905
超淩	-10.2907
樞機	-10.2907
日夜	-10.291
之年	-10.2912
身命	-10.2913
得生	-10.2917
聦明	-10.2917
辰星	-10.2925
下愚	-10.2926
昭回	-10.2928
室中	-10.2929
輪迴	-10.2929
升降	-10.2929
歡樂	-10.293
謗	-10.293
九龍	-10.2936
西靈	-10.2942
聞之	-10.2944
解穢	-10.295
滅度	-10.295
孝道	-10.2955
玉眞	-10.296
六宫	-10.2962
通眞	-10.2965
赫	-10.2969
朝元	-10.2983
凡人	-10.2985
般	-10.2993
不淨	-10.2995
用此	-10.2996
不老	-10.3
有違	-10.3001
七祖一切	-10.3005
行年	-10.3011
次髙功	-10.3025
道路	-10.303
床	-10.3034
豫	-10.3034
脱	-10.3035
梯	-10.3036
叛	-10.3038
中國	-10.3038
愁	-10.304
五雷	-10.304
腫	-10.3041
若是	-10.3042
急急如上帝律令	-10.3042
塡	-10.3043
摽露眞文揚旛請命披心散	-10.3043
符呪	-10.3044
嘆	-10.3044
涵濡	-10.3044
帷	-10.3045
須至申聞者右謹具狀上申	-10.3046
悔過	-10.3046
大慈大悲	-10.3048
三界官屬	-10.3051
神魂	-10.3061
几前	-10.3066
然而	-10.3077
玄玄	-10.3077
眞司	-10.3079
患人	-10.3081
甲午	-10.3083
九圍	-10.3083
垂光	-10.3084
不測	-10.3105
體道	-10.3111
人能	-10.3118
三獻	-10.3119
在人	-10.3121
四明	-10.3121
金童傳言散花玉女五帝直符直日香官	-10.3127
群靈	-10.3133
衆等志心皈命	-10.3139
明皇	-10.3142
昊	-10.3147
心生	-10.3147
不解	-10.3148
各三十二人出出者嚴裝關啓	-10.3149
之辰	-10.315
謹按	-10.3154
受法	-10.3157
昇玄	-10.3169
隂靈	-10.317
𥙷	-10.3177
乗雲	-10.3178
絕	-10.3179
壽命	-10.318
搆	-10.3185
髙仙	-10.3185
顚	-10.3185
禾	-10.3186
飄飄	-10.3187
結璘	-10.3187
禧	-10.3188
佇	-10.3188
四司五帝	-10.3189
己身	-10.319
邪精	-10.319
天地水三官	-10.3191
九天普度院	-10.3193
縳	-10.3194
姓某上表	-10.3199
誦詠	-10.32
國家	-10.3207
三尸	-10.3207
之祥	-10.3213
内有	-10.3216
通玄	-10.322
此文	-10.3223
仙品	-10.3224
之源	-10.3225
三十六部尊經玄中大法師上相上宰	-10.3227
不退	-10.3229
君子	-10.3241
來生	-10.3249
萬姓	-10.3253
受報	-10.3258
禁壇	-10.326
洞微髙士開光救苦眞人寗全	-10.3261
結成	-10.3262
青紙	-10.3266
上應	-10.3267
爲道	-10.3278
鈴	-10.3279
從官	-10.3281
護持	-10.3289
地司	-10.3289
如有	-10.3292
回靈	-10.3298
無終	-10.3299
華夏	-10.3302
從此	-10.3305
所求	-10.3307
渴	-10.331
者亦	-10.3312
籍師	-10.3313
通神	-10.3316
浩蕩	-10.3318
粮	-10.3322
畧	-10.3322
謡	-10.3325
快	-10.3326
緣	-10.3331
茫茫	-10.3333
隣	-10.3333
革	-10.3334
靈童	-10.3334
惶	-10.3335
八紘	-10.3335
疊	-10.3336
註	-10.3336
琳	-10.3337
預修弟子某	-10.3337
六道四生	-10.3338
摇	-10.3338
五斗	-10.3339
陶鎔	-10.3339
來迎	-10.3341
以自	-10.3346
今以	-10.3349
五福	-10.3355
玄風	-10.3361
若干	-10.3362
四瀆	-10.3363
水旱	-10.3363
預修	-10.3365
諸仙	-10.3366
詩書	-10.3371
二寸	-10.3376
隨其	-10.3377
謄	-10.338
不肯	-10.3382
月日	-10.3384
疾苦	-10.3384
救護	-10.3392
人多	-10.3402
當念	-10.341
有命	-10.341
存見	-10.3428
過去生	-10.3432
雌	-10.344
㝠㝠	-10.3441
熒惑	-10.3444
地獄主者	-10.3448
前去	-10.3454
無方	-10.3457
二日	-10.3465
虚无自然	-10.3469
爲始	-10.3472
白玉	-10.3473
謫	-10.3475
生氣	-10.3475
受書	-10.3475
沸	-10.3475
闔	-10.3476
歘	-10.3477
無盡	-10.3477
嘘	-10.3477
臣等皈身皈神皈命首體投地仰依	-10.3478
暁	-10.3478
玄極	-10.3478
經中	-10.348
擎	-10.3481
滛	-10.3481
一口	-10.3483
孽	-10.3484
蝗	-10.3485
暖	-10.3485
纔	-10.3487
靣	-10.3487
思念	-10.349
追薦	-10.3496
月中	-10.3498
逺近	-10.3501
之主	-10.3504
部衞	-10.3506
無疆	-10.3514
追䰟	-10.3517
七政	-10.3523
修建	-10.3526
宻呪	-10.3528
百餘	-10.3529
窮魂	-10.3531
師資	-10.3532
壷	-10.3534
殺害	-10.3536
通天	-10.3537
百鬼	-10.3549
五通	-10.3557
不過	-10.3564
如意	-10.3568
升入	-10.3568
五老上帝	-10.357
道流	-10.3571
之庭	-10.3579
狼	-10.358
將來	-10.3581
一分	-10.3581
肉人	-10.3584
則有	-10.3585
不及	-10.3585
化形	-10.3593
太上大道君	-10.3597
不在	-10.36
豈不	-10.3602
證明	-10.3606
旅	-10.3606
怡	-10.3606
帝尊	-10.3608
諸神	-10.3608
玄化	-10.361
早朝	-10.3624
竪	-10.3625
得之	-10.3626
奉道	-10.3626
洎	-10.3627
喚	-10.3629
禪	-10.3629
塗炭	-10.363
御炁	-10.3634
醜虜歸降某所苦某病即蒙差愈或官司	-10.3635
其法	-10.3635
吕	-10.3636
讃詠	-10.3637
䢖	-10.3637
葆	-10.3638
譯文	-10.364
𦍙	-10.364
悅	-10.364
三萬六千	-10.3644
真人左	-10.3646
苦魂	-10.3646
之厄	-10.3647
金童玉女	-10.3649
聖日	-10.3653
二十八	-10.3656
之節	-10.3658
依按	-10.3666
祖玄	-10.3667
妄想	-10.3667
壬癸	-10.3674
三尊	-10.3676
奏狀	-10.3679
人見	-10.3686
洞照	-10.3687
得爲	-10.3689
靈源	-10.3696
金精	-10.3698
某人靈䰟	-10.3705
人事	-10.3706
慈心	-10.3707
福庭	-10.371
言語	-10.371
受道	-10.3713
與我	-10.3715
塲	-10.3717
面東	-10.3721
恩光	-10.3725
經師	-10.3728
爲齋主某	-10.3729
筋	-10.3731
心存	-10.3735
再三	-10.3737
十一月	-10.3738
不言	-10.374
來臨	-10.3742
八素	-10.3747
南向	-10.3748
肅清	-10.3751
以手	-10.3751
天丁力士	-10.3754
慧日	-10.3754
九幽地獄	-10.3755
真靈	-10.3759
之禮	-10.376
關奏	-10.376
一尺	-10.376
托	-10.3761
一元	-10.377
鷄	-10.3777
仇	-10.3778
一徧	-10.378
玄微	-10.378
箕	-10.3783
盲	-10.3783
弓	-10.3785
寔	-10.3787
藩	-10.3789
濛	-10.3789
猷之人特念巳叨	-10.379
冤	-10.379
巳忝敢負登盟之誓謹共精嚴	-10.3791
攄	-10.3791
逰	-10.3791
頥	-10.3792
願得玉清道炁靈寳妙光下降流入	-10.3793
子文	-10.3795
𡨚愆	-10.3797
小兒	-10.3799
稽首皈依	-10.38
靈山	-10.3804
多有	-10.3804
愆尤	-10.3805
甲寅	-10.3807
不覺	-10.3808
東西	-10.3808
兆民	-10.381
尊靈	-10.3817
真經	-10.3818
如儀	-10.3829
玉液	-10.3833
此道	-10.3835
丹靈	-10.3836
故能	-10.3837
朱宫	-10.3841
朱表	-10.3852
引旛	-10.3859
丹臺	-10.3862
則上明天尊大慈之化下副	-10.3867
成道	-10.3867
出堂頌	-10.3878
皇圖	-10.388
不負	-10.3892
无形	-10.3895
浮空	-10.3896
若無	-10.3897
未得	-10.39
數十	-10.3901
動主	-10.3901
一二	-10.3906
入妙	-10.391
四聖	-10.3913
從心	-10.3915
不經	-10.3921
錬化	-10.3921
沼	-10.3922
婦人	-10.3924
鎻	-10.3933
申狀	-10.3933
屯	-10.3937
剥	-10.3939
濫	-10.394
勘	-10.3941
鍚	-10.3941
杓	-10.3943
遼	-10.3945
天帝君太清	-10.3946
慙	-10.3947
道徳	-10.3947
崩	-10.3947
法中	-10.3947
邀	-10.3948
仙化成人	-10.395
煥爛	-10.3951
予	-10.3954
考校	-10.3956
御景	-10.3957
伏地	-10.3957
日月星宿	-10.3958
死籍	-10.3959
書符呪	-10.3963
方可	-10.3965
昊天	-10.3968
經絡	-10.3969
庚辛	-10.3972
䰟𩲸	-10.3973
靈觀	-10.3979
依前	-10.3983
石室	-10.3984
數百	-10.3985
五榖	-10.3987
照應	-10.3988
𨽻	-10.3989
靈寳大法	-10.399
持齋	-10.3995
重隂	-10.3996
遷神	-10.4003
命靈	-10.4004
萬丈	-10.4017
子等	-10.4018
徃生	-10.402
陽神	-10.4028
靈飛	-10.4031
流演	-10.4032
道果	-10.4033
三籙	-10.4037
土皇	-10.4041
昭宣	-10.4043
之眞	-10.4044
隻	-10.4048
三官九府	-10.4048
真文	-10.4049
神龍	-10.4053
天台	-10.4054
而行之	-10.4054
紫宸	-10.4057
忽見	-10.406
其形	-10.4065
爲上	-10.407
召役	-10.4073
天兵	-10.4083
舜	-10.4086
七年	-10.4087
靈通	-10.4089
歸依師尊大聖衆至眞之德得道之後	-10.409
憎	-10.4091
三㑹	-10.4091
杯	-10.4092
瓶	-10.4093
飮	-10.4096
無上道	-10.4096
箇	-10.4096
弊	-10.4097
欲得	-10.4097
鍳	-10.4098
規	-10.4098
不可思議功德	-10.41
抗	-10.4101
繇	-10.4102
魯	-10.4103
撓	-10.4103
澡	-10.4105
勤拳	-10.4105
獵	-10.4105
薰	-10.4106
百骸	-10.4108
琅函	-10.4109
觸犯	-10.411
吐納	-10.4112
祭酒	-10.4114
如上	-10.4114
衣食自然	-10.4114
方隅	-10.4115
朝修	-10.4115
猛獸	-10.4116
創	-10.4117
九星	-10.4119
森羅	-10.4122
手足	-10.4122
歷劫	-10.4126
雲中	-10.4128
後聖	-10.413
在世	-10.4132
教主	-10.4132
紋繒	-10.4133
四寸	-10.4133
靡不	-10.4134
流芳	-10.4136
運限	-10.4138
四字	-10.414
晚朝	-10.4141
風刀	-10.4142
碧霞	-10.4143
地紀	-10.4145
開啓	-10.4146
不孝	-10.4147
之私	-10.4147
聖化	-10.4148
廣度	-10.415
無他	-10.415
清明	-10.4151
往來	-10.4153
鬼賊	-10.4153
千生	-10.4154
大化	-10.416
身體	-10.4162
火鍊	-10.4163
所請	-10.4163
不作	-10.4168
直壇	-10.4179
道性	-10.4181
有二	-10.4184
長春	-10.4186
偃	-10.4189
衆妙	-10.419
授以	-10.419
而退	-10.4194
當先	-10.4197
洞天仙官	-10.4197
炁一口	-10.4199
北都	-10.4205
生者	-10.4206
衆人	-10.4207
一氣	-10.4208
不明	-10.4214
里域	-10.4215
靈應	-10.422
以生	-10.4229
太無	-10.4233
千二百	-10.4234
八㑹	-10.4235
丁卯	-10.4237
國祚	-10.4238
尚書	-10.4238
元始天尊太上大道君太上老君	-10.424
卯文	-10.424
之性	-10.4252
臣等皈身皈神皈命首體投地仰依太	-10.4252
恍	-10.4253
皂	-10.4255
陞	-10.4255
艱	-10.4256
忝	-10.4258
遶	-10.4259
杳	-10.426
勇	-10.426
丹砂	-10.4261
隴	-10.4263
邇	-10.4263
裔	-10.4264
躭	-10.4266
漂	-10.4267
躔	-10.4267
元始天尊无極大道太上道君太上老君	-10.4268
奕奕	-10.427
四十八	-10.4274
刀兵	-10.4274
險	-10.4274
一如告命風火驛傳	-10.4277
而至	-10.4279
寂寂	-10.4279
紫戸	-10.4285
者必	-10.4287
五行之	-10.4289
後學	-10.4296
人皆	-10.4297
累劫	-10.4299
作禮	-10.4301
告命	-10.4303
下土	-10.4305
謝罪	-10.4305
等魂	-10.431
成都	-10.431
天威	-10.4311
太子	-10.4312
四維	-10.4317
金玉	-10.4325
化成	-10.4326
年月	-10.4327
與天地	-10.4328
女人	-10.4328
勑符呪	-10.433
法食符	-10.4336
凝眞	-10.4341
三洞之	-10.4342
百靈	-10.4342
次唱	-10.4343
禍福	-10.4347
大水	-10.4356
言曰	-10.4358
上通	-10.436
得此	-10.436
洞門	-10.4363
之玄	-10.4368
江河	-10.4369
河源	-10.4371
西向	-10.4373
即俾	-10.4376
紫金	-10.4377
霍	-10.438
二符	-10.4382
𨇠	-10.4382
月宫	-10.4391
相見	-10.4403
上御	-10.4407
白素	-10.4409
諸獄	-10.4412
諸部	-10.4416
斡	-10.4419
臂	-10.442
粉	-10.442
梓	-10.4423
沒	-10.4425
功行	-10.4426
戶	-10.4426
霈	-10.4427
屢	-10.4428
盞	-10.4429
天皇大帝	-10.4432
柳	-10.4432
認	-10.4432
灼	-10.4432
熖	-10.4434
阻	-10.4434
閱	-10.4435
桐栢	-10.4435
髣髴	-10.4436
入於	-10.4436
五常	-10.4437
流鈴	-10.4442
發爐	-10.4444
殺害衆生或	-10.4447
請福	-10.4448
錢馬	-10.4448
與之	-10.4451
常有	-10.4451
西嶽	-10.4453
太上三尊	-10.4453
章醮	-10.4454
九竅	-10.4456
之慈	-10.4457
殺人	-10.4458
能知	-10.4463
承受	-10.447
土皇君	-10.448
所啓	-10.4481
人口	-10.4482
不違	-10.4487
妙哉	-10.4488
明日	-10.4489
上士	-10.449
公子	-10.4491
受其	-10.4495
等至心稽首禮	-10.4496
碧玉	-10.4498
事竟	-10.45
前驅	-10.4511
幽獄	-10.4511
皆以	-10.4513
一眞	-10.452
南北	-10.4522
去處	-10.4526
龍君	-10.4528
天河	-10.4529
寳珠	-10.4532
若非	-10.4533
上達	-10.4535
根本	-10.4553
甚多	-10.4553
所部	-10.4557
日光	-10.4558
九龍符命	-10.4562
淮	-10.4569
之愆	-10.4582
出官	-10.4586
匠	-10.4589
繡	-10.4589
衢	-10.459
緒	-10.459
飜	-10.459
肥	-10.4591
抵	-10.4592
駒	-10.4593
柄	-10.4593
爵	-10.4594
耳目	-10.4594
二字	-10.4594
譽	-10.4596
默	-10.4596
宇宙	-10.4596
蝕	-10.4596
蒙福慶俱服正教同歸自然得道之後與	-10.4596
談	-10.4596
陶冶	-10.4597
有何	-10.4597
殞	-10.4598
洞天福地	-10.46
寳瓊臺紫微上宫靈寳至眞明皇道君	-10.4601
䂓	-10.4601
青書	-10.4601
囚徒	-10.4602
之竒	-10.4607
兵士	-10.4608
何謂	-10.4608
父毋	-10.461
化日	-10.4611
十二河源	-10.4611
若人	-10.4619
削落	-10.4619
已身	-10.4622
家庭	-10.4623
三清上聖	-10.4625
九寸	-10.4626
三界十方	-10.4629
焚修	-10.463
神郷	-10.4631
形魂	-10.4637
御運	-10.4645
善果	-10.4647
永辭	-10.4649
洞徹	-10.465
其功	-10.4654
午時	-10.4656
授之	-10.4657
身中三五功曹左右官使者	-10.4658
所向	-10.4659
問曰	-10.4663
之道也	-10.4667
金錢	-10.4671
白炁	-10.4673
寂然	-10.4679
九天生神	-10.468
不思	-10.4687
之信	-10.4687
故名	-10.4692
黄紙	-10.4695
耀景	-10.4696
長安	-10.4697
一斗	-10.4701
前生	-10.4701
爲汝	-10.4703
中間	-10.4703
考官	-10.4703
隨意	-10.4712
諸符	-10.4714
有功	-10.4715
宗親	-10.472
厨	-10.4722
眞風	-10.4722
仙階	-10.4724
生身受度	-10.4729
何處	-10.4732
飢寒	-10.4735
九晨	-10.4735
不滅	-10.4736
初捻上香	-10.4747
療	-10.4747
五尺	-10.4748
普照	-10.4749
萬天	-10.475
幼	-10.475
奴	-10.4751
睡	-10.4752
唎	-10.4757
頑	-10.4757
樵	-10.4759
又以	-10.4759
綿綿	-10.476
迸	-10.4761
蠟	-10.4761
督	-10.4762
劎	-10.4762
渺	-10.4763
涼	-10.4763
豪	-10.4763
㓂	-10.4764
殄	-10.4765
擢	-10.4766
馮	-10.4766
恍惚	-10.4767
粲	-10.4771
眷序	-10.4771
煒燁	-10.4772
吞之	-10.4773
調和	-10.4773
在天	-10.4776
霄衢	-10.4776
中部	-10.4778
黄籙齋	-10.4778
符告文	-10.4779
青炁	-10.478
夫妻	-10.4781
飲酒	-10.4781
頭戴	-10.4782
郷里	-10.4783
含生	-10.4787
眞常	-10.4787
紫霄	-10.4789
傳言	-10.479
紫霞	-10.4793
虛空	-10.4797
玄司	-10.4802
洞靈	-10.4802
勤修	-10.4803
山下	-10.481
人所	-10.4811
有漏	-10.4822
於前	-10.4826
二十二	-10.4826
切慮	-10.4827
四司	-10.4836
諸惡	-10.4838
安泰	-10.4838
考召	-10.4842
皆爲	-10.4852
下臨	-10.4853
萬魔	-10.4854
白書	-10.4854
經戒	-10.4854
赴壇	-10.4857
所作	-10.4862
眞交㑹在此香火爐前令	-10.4866
主張	-10.4874
右出	-10.4879
精心	-10.488
則是	-10.4887
中指	-10.4891
知之	-10.4894
神室	-10.4905
初捻上香願此香煙騰空	-10.4905
一面	-10.4905
聖君	-10.4909
變爲	-10.491
天開	-10.4913
法籙	-10.4918
冶	-10.4921
妾	-10.4923
景星	-10.4927
罵	-10.4927
令得	-10.4928
鱗	-10.4929
罏	-10.4929
郁	-10.493
蹈	-10.493
揺	-10.4932
湧	-10.4933
洋	-10.4933
侍香金童傳言玉女五帝直符直日香官	-10.4935
巡	-10.4936
濡	-10.4937
仕	-10.4937
歟	-10.4937
吽	-10.4937
清涼	-10.494
干戈	-10.4942
爻	-10.4942
倐忽	-10.4946
之可	-10.4948
青詞	-10.4949
焼香	-10.495
兆身	-10.4951
洞真	-10.4953
赤天	-10.4954
疑惑	-10.4956
事意	-10.4957
嘯命	-10.4958
河海	-10.496
堅固	-10.4962
重樓	-10.4963
金銀	-10.4967
不得妄	-10.4971
仰瞻	-10.4971
臭穢	-10.4971
積善	-10.4974
真授靈寳通玄弘教水南先生林靈真編	-10.4976
具載	-10.4976
皇后	-10.4978
南丹	-10.4995
聖境	-10.4995
心無	-10.4998
從官十	-10.4998
存神燒香香官使者左右	-10.5001
五千	-10.5003
聖眞	-10.5006
禮謝	-10.5007
國主	-10.5009
三十六部尊經	-10.5013
二十一	-10.5018
乃可	-10.5018
仙君	-10.5021
學眞	-10.5021
永斷	-10.5022
合景	-10.5026
百邪	-10.5029
忽有	-10.5029
元和	-10.5033
有此	-10.5036
白元	-10.5036
眞實	-10.5042
王君	-10.5042
真聖	-10.5046
此一	-10.5047
本壇	-10.5051
二斗	-10.5058
分位	-10.5064
龍文	-10.5064
郷神仙諸靈官	-10.5075
伏乞	-10.5075
帝庭	-10.5076
青天	-10.5079
萬事	-10.5085
口吐	-10.5087
受之	-10.509
本司	-10.5098
正氣	-10.51
生成之	-10.5102
合炁	-10.5103
太一救苦天尊至心朝禮	-10.5107
稟	-10.5107
㦸	-10.5108
紐	-10.511
羲	-10.511
稼	-10.5111
鹽	-10.5111
於玄	-10.5112
巫	-10.5113
矯	-10.5113
今月某日	-10.5113
皷	-10.5113
達神氣和合靈官衛護	-10.5113
傾心	-10.5114
畿	-10.5114
合屬去處	-10.5115
别有	-10.5116
葺	-10.5116
仙童玉女	-10.5117
月華	-10.5117
自今	-10.5118
沈淪	-10.5118
挾	-10.5119
後有	-10.5129
紫户	-10.513
難可	-10.5131
滯爽	-10.5133
靈寳符命	-10.5134
金木	-10.5136
一月	-10.5137
寳蓋	-10.5138
扶持	-10.5139
過咎	-10.5139
端坐	-10.514
四指	-10.5142
北炁	-10.5142
十五日	-10.5146
未嘗	-10.5146
萬法	-10.5149
之訟	-10.5154
災殃	-10.516
泰定	-10.5161
修習	-10.5168
人爲	-10.5171
下及	-10.5171
入水	-10.5175
山嶽	-10.5176
梵炁天君	-10.5179
一行	-10.5183
玉律	-10.5187
宫殿	-10.5187
太元	-10.5189
應時	-10.5192
度魂	-10.5194
出者嚴裝關啓玄壇天帝神君當召此間	-10.5196
九江	-10.5196
天尊告	-10.5197
無異	-10.5198
雲路	-10.52
自己	-10.5203
龍虎君侍香諸靈官當令臣	-10.5203
變神	-10.5204
炁入	-10.5205
乃得	-10.5209
紫光	-10.5213
拔贖	-10.5221
風火	-10.523
敢不	-10.5236
救苦眞人	-10.5242
上帝勑	-10.5245
皆悉	-10.5251
某官	-10.5255
一枚	-10.5256
十善	-10.5256
吉慶	-10.5257
眞人寗全眞授靈寳通玄弘教水南	-10.5258
法官	-10.5261
九幽之	-10.5263
見有國王	-10.5265
圃	-10.5266
吉日	-10.5267
衆魂	-10.5268
之品	-10.5268
念念	-10.527
之域	-10.527
上界	-10.5272
敬聽	-10.5273
踏	-10.5277
玉音	-10.5279
义	-10.5288
酌	-10.5291
見前	-10.5292
嗚	-10.5292
故得	-10.5293
翫	-10.5294
爍	-10.5294
獄五苦解悉歸太上經靜念稽首禮三禮	-10.5295
德得道之後保天長存和與道合眞	-10.5295
胥	-10.5296
書刀一口	-10.5296
無英	-10.5296
扉	-10.5296
該	-10.5299
玉樓	-10.5299
六道四生孤魂滯魄	-10.53
劒樹	-10.53
雌雄	-10.5301
屠割	-10.5301
是用	-10.5306
爲善	-10.5307
開元	-10.5309
臨軒	-10.5311
問之	-10.5311
火星	-10.5312
度生	-10.5312
鬱羅	-10.5313
飢渴	-10.5316
以求	-10.5316
俯賜	-10.5318
陸離	-10.5319
民欲	-10.5319
證品	-10.5321
之色	-10.5326
㧞度	-10.5334
赤炁	-10.5335
燈燭	-10.5337
乃是	-10.5341
丹青	-10.5341
三十六天	-10.5342
擲火	-10.5347
周回	-10.5349
養生	-10.5353
如是等	-10.536
小腸	-10.5363
爲弟子	-10.5367
地水	-10.5368
眞皇	-10.5371
具位姓某	-10.5372
瘟疫	-10.5373
即與	-10.5375
宗師	-10.5376
父子	-10.5378
救濟	-10.5379
一切眞靈	-10.5379
五符	-10.5382
利貞	-10.5385
傳經	-10.5385
等皈身皈神皈命首體投地	-10.5385
午文	-10.5388
西山	-10.5391
災害	-10.5393
永劫	-10.5393
六塵	-10.5394
萬道	-10.5398
心拜	-10.5409
也今	-10.541
以致	-10.5416
心神	-10.542
銖	-10.5422
玄雲	-10.5422
祥雲	-10.5422
玄景	-10.5424
而作	-10.5425
庚申	-10.5427
賢者	-10.5431
某甲子	-10.5438
三省	-10.5438
其地	-10.544
天柱	-10.5445
執符	-10.5451
隂符	-10.5452
洞微髙士開光救苦眞人𡩋全	-10.5455
青童	-10.5459
州縣	-10.546
圓明	-10.546
葩	-10.5463
大獻	-10.5463
韶	-10.5465
括	-10.5465
刼	-10.5466
暦	-10.5466
兎	-10.5467
悉令	-10.5468
祝畢	-10.5468
厲	-10.5468
朋	-10.5469
一兩	-10.547
掾	-10.5471
㓕	-10.5471
討	-10.5471
囿	-10.5471
恢	-10.5471
架	-10.5472
汲	-10.5472
仰祈	-10.5473
暇	-10.5474
毓	-10.5476
九獄	-10.5477
熈熈	-10.5477
緘	-10.5478
蔚	-10.5478
鞠	-10.5478
𥘉	-10.5479
南昌上宫	-10.5481
除巳具奏諸天上帝申牒三界真司外	-10.5483
朗徹	-10.5484
衞靈呪	-10.5485
之官	-10.5485
十方救苦天尊	-10.5486
治病功曹	-10.5489
和不可思議功德	-10.5489
聽法	-10.5489
今年	-10.549
無涯	-10.5495
萬𩔖	-10.5496
拜表	-10.5498
虚玄	-10.5499
祥煙	-10.5501
來降	-10.5503
玉陛下	-10.5503
丹悃	-10.5505
朗耀	-10.5506
増延	-10.5508
身得	-10.5511
紫煙	-10.5512
消魔	-10.5516
玊女	-10.5516
一家	-10.5517
遊神	-10.5522
佐命	-10.5523
聖壽	-10.5525
妙行眞人	-10.5527
傷亡	-10.5527
男子	-10.5528
受諸	-10.553
不息	-10.5532
或云	-10.5534
蕩穢	-10.5539
仙王	-10.5543
勿得	-10.5545
九土	-10.5554
三品	-10.5556
始生	-10.5562
必先	-10.5567
三辰	-10.5575
也如	-10.5581
召請	-10.5584
聖祖	-10.5584
九鳳	-10.5591
即日	-10.5591
求仙	-10.5594
記名	-10.5594
覺悟	-10.5595
小鬼	-10.5599
數日	-10.56
不自	-10.5602
六者	-10.5605
中出	-10.5606
聖號	-10.5608
之志	-10.5611
今來	-10.5614
吾當	-10.5617
一朝	-10.5621
洞朗	-10.5625
於道	-10.5626
爲本	-10.5627
麻	-10.5627
山水	-10.5634
章從事	-10.5637
咸通	-10.5638
掠	-10.564
天庭	-10.5642
當來	-10.5644
攪	-10.5648
諦	-10.5649
偉	-10.5649
岡	-10.565
匝	-10.5653
泣	-10.5653
粟	-10.5654
墟	-10.5655
廣成先生杜光庭	-10.5656
𣈆	-10.5656
本無	-10.5657
廊	-10.5658
瀹	-10.5658
梅	-10.5659
廼	-10.5659
㓗	-10.566
罵詈	-10.566
析	-10.566
酣	-10.5661
太歲年月日具位姓某狀申申	-10.5661
掾吏	-10.5661
嫉妬	-10.5661
優	-10.5662
閭	-10.5663
韜	-10.5666
種民	-10.5667
梯航	-10.5669
一千	-10.5672
流傳	-10.5672
是諸	-10.5674
冥曹	-10.5681
悟道	-10.5681
言其	-10.5682
等志心稽首禮三十六部尊經	-10.5682
流浪	-10.5685
長史	-10.5686
圓滿	-10.569
君臨	-10.5691
於世	-10.5692
之表	-10.5693
梵唱	-10.5693
土地里域眞官正神急上關啓	-10.5695
八荒	-10.5695
緲入大乗因心立福田靡	-10.5695
之謂	-10.5699
北辰	-10.57
諸君丈人	-10.5705
法音	-10.5705
招眞	-10.5705
飛神	-10.5709
吾遣	-10.5709
而言	-10.5711
有形	-10.5712
三關	-10.5715
青玄黄籙	-10.5715
發遣	-10.5716
二尺	-10.5724
天真	-10.5725
之師	-10.5729
忽然	-10.573
定命	-10.573
除巳	-10.5731
四十五	-10.5732
傾光	-10.5737
歸於	-10.574
表具位	-10.5753
果報	-10.5756
中和	-10.576
未聞	-10.5761
髙歩	-10.5761
祇	-10.5763
身爲	-10.577
積功	-10.5772
洗心	-10.5772
金容	-10.5774
求乞	-10.5783
侍從	-10.5785
人命	-10.5786
得聞	-10.5786
復次善男子	-10.5787
衆仙	-10.5787
壇中	-10.5792
丹霞	-10.5792
等身中三五功曹左右官使者侍香	-10.5795
下界	-10.5795
九泉	-10.5795
取炁	-10.5796
放生	-10.5799
火車	-10.5801
子時	-10.5802
萬生	-10.5809
五年	-10.581
靈寳淨明	-10.5817
福郷	-10.5818
三洞法師	-10.582
豁	-10.582
立成	-10.582
上道	-10.5821
者即是	-10.5822
十二人	-10.5823
科儀	-10.5829
肩	-10.5831
殁	-10.5833
陁	-10.5834
稻	-10.5835
和氣	-10.5836
當得	-10.5838
醮詞伏以	-10.584
儔	-10.584
貟	-10.5841
北鬱	-10.5841
五篇	-10.5842
誨	-10.5842
話	-10.5843
冊	-10.5843
戹	-10.5844
先師	-10.5844
藻	-10.5844
凝妙	-10.5845
竿	-10.5845
遮	-10.5846
玲瓏	-10.5847
歷關諸天	-10.5847
岫	-10.5847
肌	-10.5848
槖籥	-10.5849
熒	-10.5849
㐲	-10.5849
瞋	-10.5849
壬辰	-10.5849
淑	-10.5851
魁罡	-10.5851
援	-10.5852
蹕	-10.5852
勾陳	-10.5852
河伯	-10.5854
二十六	-10.5854
蠲除	-10.5856
津液	-10.5857
昭明	-10.5857
天書	-10.586
奉師	-10.5862
如斯	-10.5863
讃歎	-10.5864
救拔	-10.5865
相傳	-10.5865
此身	-10.5873
覆護	-10.5876
也凡	-10.5878
災衰	-10.5882
公卿	-10.5883
其一	-10.5885
恭望	-10.5896
得解脫	-10.59
此日	-10.5902
吉祥	-10.5909
下照	-10.5914
普告三界	-10.5918
化化	-10.5921
丹陽	-10.5921
憂苦	-10.593
蠲消	-10.5934
流珠	-10.5935
百體	-10.5937
𡨚對	-10.594
召神	-10.5945
年中	-10.5945
帝闕	-10.5948
緋	-10.5957
特爲	-10.5959
先身	-10.597
夜光	-10.5972
天界	-10.5972
青宫	-10.5972
肯	-10.5973
之屬	-10.5973
之情	-10.5973
上告	-10.5974
无極大道	-10.5975
稱揚	-10.5976
之敬	-10.598
者見世	-10.5985
十二願	-10.5985
南方赤	-10.5988
日日	-10.5988
乞恩	-10.5996
白石	-10.5997
而得	-10.5999
道也	-10.6002
元始上帝	-10.6006
疆	-10.6008
存之	-10.6009
過度	-10.6009
日月星	-10.6011
法用	-10.6013
蒼生	-10.6014
譬	-10.6017
白天尊言	-10.6019
君吏	-10.6021
身與我神	-10.6022
脇	-10.6025
宫内	-10.6025
墻	-10.6028
填	-10.6029
坑	-10.6029
浸	-10.603
饗	-10.6031
司録	-10.6031
𡖖	-10.6031
陷	-10.6032
諾	-10.6034
箭	-10.6034
百八十	-10.6035
伍	-10.6035
甫	-10.6036
搜	-10.6036
弦	-10.6037
膀胱	-10.6038
𣗳	-10.6038
明科	-10.6039
渾	-10.6039
寮	-10.6039
駢	-10.604
金龍驛傳	-10.604
須臾	-10.604
㳙	-10.6041
買	-10.6041
救人	-10.6041
乞賜	-10.6041
鴻濛	-10.6042
天玉闕宣化扶敎上仙昭靈博濟髙明弘	-10.6042
麾	-10.6042
發心	-10.6043
呈祥	-10.6043
旂	-10.6043
北隂玄天酆都大帝	-10.6044
昔有	-10.6044
飛仙眞人名山洞府得道神仙諸靈官	-10.6044
馥	-10.6047
請師	-10.6048
邦家	-10.6049
太歳年月日具位姓某狀申申	-10.6052
家有	-10.6056
羣品	-10.6058
千齡	-10.606
河圖	-10.6066
上部	-10.6068
鬱絶	-10.6069
丁亥	-10.6075
山洞府得道神仙三界官屬一切眞靈臣	-10.6088
就某處	-10.6088
常在	-10.6088
三焦	-10.6089
在後	-10.609
校録	-10.6092
之惠	-10.6093
如上法	-10.6094
埃	-10.6107
陽之炁	-10.6107
三時	-10.6111
照燭	-10.6115
治在	-10.6115
隂翳	-10.6118
萬有	-10.612
髙上玉皇	-10.6123
鬱鬱家國盛濟濟經道興天人同其願縹	-10.6124
修崇	-10.6127
神鬼	-10.6128
事理	-10.6128
向東	-10.6131
之喜	-10.6131
香案	-10.6134
非有	-10.614
修持	-10.6143
人倫	-10.6143
南炁	-10.6145
至心稽首禮三十六部尊經	-10.6151
表文	-10.6155
諷	-10.6156
一體	-10.6157
仰荷	-10.6158
呼召	-10.6159
九曜	-10.616
非法	-10.6167
天衢	-10.6179
仁風	-10.618
向北	-10.6181
之㑹	-10.6182
之影	-10.6182
中央黄	-10.6183
倦	-10.6184
羅絡	-10.6187
首謝	-10.619
二十三	-10.6194
者有	-10.6195
朱陵度命天尊	-10.6199
眞之德得道之後升入無形和與道合眞	-10.6204
符文	-10.6204
无上三天玄元始三炁太上道君召出臣	-10.6204
以傳	-10.6208
萬仙	-10.621
皆從	-10.621
崇建某齋	-10.6212
玉皇上帝	-10.6217
寥	-10.6218
眞光	-10.6219
流恩	-10.622
啓運	-10.6223
偷盜	-10.6227
彦	-10.623
崐崘	-10.623
街	-10.6231
黄籙院	-10.6231
濳	-10.6231
渺渺	-10.6232
癩	-10.6232
拒	-10.6233
牢獄	-10.6233
斜	-10.6233
乍	-10.6234
償	-10.6235
粗	-10.6235
霐	-10.6235
嫉	-10.6236
翰	-10.6237
靜冲湛妙應仁惠輔國佑民洪恩眞君	-10.6238
襄	-10.6238
不能自	-10.6239
道心	-10.624
縮	-10.624
得度	-10.6241
三界官屬一切眞靈	-10.6244
隂功	-10.6244
焚燎	-10.6245
無垠	-10.6246
洗滌	-10.6246
九天生神上帝	-10.6247
䑕	-10.6248
睿號	-10.6251
我者	-10.6251
康寧	-10.6251
次上	-10.6256
以水	-10.626
諸苦	-10.6263
送迎	-10.6264
三惡	-10.6268
聖慈	-10.6272
已上	-10.6273
坎離	-10.6273
能爲	-10.6273
書章	-10.6274
紫房	-10.6274
不入	-10.6276
亦得飛仙	-10.6278
宫觀	-10.6282
來詣	-10.6289
上徹	-10.6295
丁未	-10.6297
鍊質	-10.6304
如此之	-10.6308
炁合	-10.631
其下	-10.6311
圓光	-10.6312
丈人三十二天帝君玉虚上帝玉帝大	-10.6313
品物	-10.6313
執對	-10.6314
上經	-10.6324
件	-10.6324
五味	-10.6327
願賜	-10.6328
見在使陵廟墳基肅寧殃注斷絶宫宅安	-10.633
雲輿	-10.6332
立春	-10.6334
錢財	-10.6337
道寳	-10.6339
演教	-10.6339
稱善	-10.634
通達	-10.634
眞人童子	-10.6343
十方天尊	-10.6344
三遍	-10.6345
人心	-10.6346
雲氣	-10.635
門户	-10.6354
不修	-10.6354
今古	-10.6359
作一	-10.6368
不知其	-10.6371
旛符	-10.6375
而死	-10.6376
南山	-10.6381
央	-10.6387
還丹	-10.6388
自從	-10.6388
善行	-10.6391
主之	-10.6394
大戒	-10.6396
遵奉	-10.6398
昬	-10.64
劫劫	-10.6407
黄白	-10.6408
入靖	-10.6411
願垂	-10.6413
鬼道	-10.6413
天魔	-10.6415
湛然	-10.6419
經籙	-10.642
大醮	-10.6423
此時	-10.6424
求道	-10.6424
墀	-10.6425
唾	-10.6426
宣通	-10.6426
脊	-10.6426
腐	-10.6426
菜	-10.6427
潰	-10.6428
章表	-10.6428
蟻	-10.6428
取其	-10.6429
仙童	-10.643
扆	-10.643
六通	-10.643
針	-10.643
覧	-10.6431
薪	-10.6432
捐	-10.6433
顛	-10.6433
帝澤	-10.6433
窈	-10.6433
形像	-10.6433
疇	-10.6434
婁	-10.6434
之崇	-10.6434
葷	-10.6435
突	-10.6435
涕	-10.6435
篝	-10.6436
告齋	-10.6437
歇	-10.6437
蘿	-10.6437
薫	-10.6437
抽	-10.6437
眇	-10.6437
綂	-10.6438
鴈	-10.644
皆令	-10.6441
牛馬	-10.6444
則無	-10.6444
无上黄籙大齋	-10.6446
七竅	-10.6447
等身中	-10.6448
名號	-10.6449
注訟	-10.6449
隱韻	-10.645
應聲	-10.6453
破壞	-10.6453
九道	-10.6454
愛河	-10.646
之魂	-10.646
重玄	-10.6463
鉛汞	-10.6463
沴	-10.6463
降福	-10.6464
二曰	-10.6464
亦當	-10.6469
之英	-10.6472
其餘	-10.6473
皆可	-10.6475
安寜	-10.6475
群仙	-10.6477
列聖	-10.6477
火燒	-10.6482
卿司命茅君定録保命二眞人名	-10.6484
胎息	-10.6485
大師	-10.649
上古	-10.6491
合眞	-10.6492
混洞	-10.6496
某謹重誠上啓	-10.65
爲諸	-10.6507
雲霞	-10.6515
罪目	-10.6527
元靈	-10.6531
萬品	-10.6534
遂成	-10.654
未悟	-10.6541
或在	-10.6545
弼	-10.6547
正齋	-10.6552
萬萬	-10.6554
九章	-10.6557
天王姓	-10.6563
而入	-10.6564
在身	-10.6565
不與	-10.6566
火光	-10.6566
亡故某乙	-10.6567
武帝	-10.657
神輝	-10.6572
而立	-10.6573
誓願	-10.6581
同仁	-10.6584
所冀	-10.659
所奏	-10.659
汝今	-10.659
具官	-10.6593
二捻上香願此香煙騰空	-10.6594
曰子	-10.6595
其本	-10.6601
具位臣	-10.6607
相對	-10.6611
醮儀	-10.6611
寅卯	-10.6614
欲求	-10.6618
仙去	-10.6623
漬	-10.6624
錬神	-10.6627
禎	-10.6629
啼	-10.663
坦	-10.6631
日精	-10.6632
夾	-10.6632
地上	-10.6632
来	-10.6633
澆	-10.6633
寐	-10.6633
槐	-10.6633
軒轅	-10.6634
屠	-10.6634
戊已	-10.6634
魍魎	-10.6635
厠	-10.6637
挽	-10.6637
月十五日	-10.6637
刺	-10.6637
馘	-10.6637
奬	-10.6637
劣	-10.6637
䧟	-10.6638
三部八景	-10.6639
终	-10.6639
辜	-10.664
座前	-10.6643
天長	-10.6643
勤渠	-10.6644
抄	-10.6644
祭祀	-10.6645
賫	-10.6646
灌沐	-10.6648
影響	-10.6652
也然	-10.6653
而莫	-10.6653
天女	-10.6654
衞靈	-10.6655
身入	-10.6662
洪州	-10.6663
鬼門	-10.6663
次都講唱	-10.6664
長短	-10.6666
五億	-10.6668
常爲	-10.667
北嶽	-10.6671
又復	-10.6671
普薦	-10.6674
賢人	-10.6675
冥冥	-10.6682
玄宗	-10.6683
之懇	-10.6684
書篆	-10.6685
清濁	-10.6686
無憂	-10.6687
三十二天帝君	-10.6688
不遺	-10.6694
師主	-10.6698
咸得	-10.6699
醮詞伏聞	-10.67
垂象	-10.6701
今人	-10.6703
不然	-10.6705
等身中令	-10.671
無名	-10.6712
玄老	-10.6715
九戒	-10.6716
澤被	-10.6716
巳身	-10.672
火候	-10.6721
有石	-10.6721
靈根	-10.6721
炎光	-10.6722
奉迎	-10.6724
合形	-10.6728
有餘	-10.6732
太虛	-10.6735
通明	-10.6735
亦名	-10.6737
洞源	-10.6739
太守	-10.674
不拘	-10.6745
陽炁	-10.6745
天災	-10.6748
邪鬼	-10.6748
常當	-10.6751
舉家	-10.6751
不出	-10.6753
護身	-10.6755
神力	-10.6759
狀如	-10.6759
歩罡	-10.6761
第一日	-10.6761
少陽	-10.6765
而能	-10.6767
遵依	-10.6769
純陽	-10.6774
生民	-10.6776
五分	-10.6776
皇極	-10.6779
不如	-10.6781
證果	-10.6782
勑下	-10.6784
自稱	-10.6791
今者	-10.6795
降臨	-10.6798
掃蕩	-10.6804
者可	-10.6807
之㫖	-10.6808
自滅	-10.6809
所生	-10.6814
不利	-10.6821
定水	-10.6825
之咎	-10.6826
運行	-10.6827
蜜	-10.6828
焚化	-10.6834
董	-10.6837
熾	-10.6838
袖	-10.6839
儀卷一百	-10.684
莖	-10.684
戚	-10.6843
暘谷	-10.6843
滴	-10.6844
鋉	-10.6844
檀	-10.6844
纎	-10.6845
兔	-10.6845
褒	-10.6845
僣	-10.6845
釘	-10.6845
痾	-10.6845
奈何	-10.6845
轅	-10.6845
誑	-10.6846
汨	-10.6846
氤氲	-10.6848
峙	-10.6848
疰	-10.6849
巳得道大聖衆至眞諸君丈人	-10.6849
懐	-10.6849
摶	-10.6849
隨我神運	-10.685
俄	-10.6851
榆	-10.6852
翼翼	-10.6852
囘	-10.6852
菲	-10.6853
其日	-10.6853
儀璘	-10.6854
億曽萬祖	-10.6855
飭	-10.6855
貴賤	-10.6856
黒簿	-10.6857
朱砂	-10.6858
靈寳大法司	-10.6861
都講舉	-10.6863
也人之	-10.6865
三官大帝	-10.6867
遷拔	-10.687
亦得	-10.687
翊衞	-10.687
徑上	-10.6872
率土	-10.6873
少隂	-10.6877
統御	-10.6883
天尊說	-10.6883
分爲	-10.6884
自得	-10.6885
浩浩	-10.6886
周旋	-10.6888
空玄	-10.689
合德	-10.689
救之	-10.6892
不可以	-10.6899
天炁	-10.6899
周迴	-10.69
使之	-10.6903
其炁	-10.6905
主水	-10.691
青城	-10.6911
衆和	-10.6912
受此經	-10.6916
降下	-10.6919
威力	-10.6923
之用	-10.6926
謹言年月日具位	-10.6926
流華	-10.6927
唯有	-10.6928
玉樹	-10.6932
天綱	-10.6934
景貺	-10.6937
太上曰	-10.6947
龍符	-10.6948
五人	-10.695
黃華	-10.6952
是人	-10.6956
相去	-10.6956
混成	-10.6961
之祕	-10.6961
虛無	-10.6966
靈儀	-10.6973
是敢	-10.6973
神丹	-10.6978
百萬	-10.6979
某身原赦宿新無量罪咎矜奬即今	-10.6981
各禮師存念如法	-10.6982
五逆	-10.6985
爲師	-10.6992
昭彰	-10.6993
之說	-10.7001
可見	-10.7003
所陳	-10.7003
矣若	-10.7003
未見	-10.7004
衆等至心歸命	-10.7005
本來	-10.7007
玄澤	-10.7007
罪爽	-10.7009
疫毒	-10.7011
孝子	-10.7012
靈化	-10.7012
無外	-10.7012
丁酉	-10.7015
臨壇	-10.7024
道境	-10.7029
其間	-10.703
眞慈	-10.703
足躡	-10.7033
脂	-10.7035
千載	-10.704
朕	-10.7041
下丹田	-10.7042
中文	-10.7042
合明	-10.7046
旦夕	-10.7048
嫌	-10.7049
月一日	-10.7049
如日	-10.705
不去	-10.7052
年月日時	-10.7052
竇	-10.7053
刄	-10.7053
幾晝夜	-10.7054
者得	-10.7054
出家法身	-10.7055
軰	-10.7056
大千	-10.7056
鋤	-10.7056
裝	-10.7058
虹	-10.7058
縷	-10.7058
妬	-10.7061
亢	-10.7061
四靈	-10.7061
苑	-10.7063
轝	-10.7065
𧵥	-10.7065
矢	-10.7065
幽寥	-10.7067
謹録狀上奏	-10.7068
雞鳴	-10.7069
丁丑	-10.7069
曹仙官下元	-10.7071
康泰	-10.7073
鐵圍	-10.7073
明燈	-10.7075
講說	-10.7078
朱火	-10.7081
煙霞	-10.7085
山福地主仙録君	-10.7085
元始天尊太上道君太上老君	-10.7086
業垢	-10.7088
之命	-10.7091
庶俾	-10.7093
社令	-10.7094
太无	-10.7096
衆靈	-10.7105
宗祖	-10.7109
朗照	-10.7111
存焉	-10.7111
特降	-10.7111
金樓	-10.7111
山上	-10.7113
不倦	-10.7114
紫闕	-10.7116
紫氣	-10.7116
懇禱	-10.7122
魔試	-10.7124
六幕	-10.7125
謹依	-10.7129
臨目	-10.7135
形和與道合眞	-10.7141
人不	-10.7142
朱衣	-10.7145
斗極	-10.7147
玉檢	-10.715
端正	-10.715
直日	-10.7151
此言	-10.7155
法性	-10.7157
則神	-10.716
上靈	-10.7166
登齋	-10.7167
不盡	-10.717
手持	-10.7172
形骸	-10.7174
玉女五帝直符直日香官各三十二人出	-10.7174
之慶	-10.7182
陽靈	-10.7182
當境	-10.7183
九元	-10.719
啓奏	-10.719
奏啓	-10.7192
一生	-10.7193
經行	-10.7196
但以	-10.7203
九厄	-10.7206
享福	-10.7207
典者	-10.7207
諸君	-10.7207
從今	-10.7212
鑒映	-10.7215
帝力	-10.722
數年	-10.7222
皇上	-10.7225
黄老	-10.7226
月光	-10.7234
拜上	-10.7235
即時	-10.7235
玉書	-10.7236
粒	-10.7241
珮	-10.7243
即便	-10.7243
涯	-10.7244
披心	-10.7244
丈餘	-10.7248
未可	-10.7248
召靈	-10.725
成功	-10.7251
龍璧	-10.7251
日清旦	-10.7252
幽都	-10.7255
酸	-10.7256
自相	-10.7257
天根	-10.7257
鄙	-10.7258
十過	-10.7262
無令	-10.7263
悉得	-10.7263
餓	-10.7263
一乗	-10.7263
傷亡符	-10.7266
裹	-10.7267
貯	-10.7267
渠	-10.7267
太歲年月日	-10.7268
下入	-10.7268
神公	-10.7268
言訖	-10.7269
與道合眞鳴法鼓二十四通	-10.727
淚	-10.727
七月七日	-10.7271
梨	-10.7271
火府	-10.7271
百和	-10.7272
臟	-10.7272
疲	-10.7272
劇	-10.7273
儻	-10.7274
燄	-10.7275
懈	-10.7277
六十甲子	-10.7277
流金火鈴	-10.7277
拊	-10.7277
掖	-10.7278
蕃釐	-10.7279
斿	-10.7279
庇	-10.728
之座	-10.728
乞丐	-10.7281
偕	-10.7281
泰玄樞機三省	-10.7283
神機	-10.7283
未敢擅便須至申聞者右謹具狀上申	-10.7285
朱陵火府	-10.7286
九江水帝	-10.7286
䇿杖	-10.7288
救治	-10.7289
驛吏	-10.729
眞遂成金剛體超度三界難地	-10.7292
齋福	-10.7292
三生	-10.7294
國中	-10.7296
善哉善哉	-10.7297
俯鑒	-10.7297
端拱	-10.7302
五緯	-10.7302
㝠曹	-10.7305
大運	-10.7306
三曰	-10.7307
妙果	-10.7318
災危	-10.7318
聖旨	-10.7319
大如	-10.7322
侍燈	-10.7323
无窮	-10.7324
二象	-10.7324
仰冀	-10.7326
天台山	-10.7326
功圓	-10.7328
仙籍	-10.7329
洞觀	-10.733
告下具位姓某承誥奉行謹封	-10.7333
唯願	-10.7338
毎日	-10.7338
芝壇	-10.7341
攝魄	-10.7344
敷陳	-10.7344
謹狀	-10.7345
土簡	-10.7345
如人	-10.7345
玉篆	-10.7346
鈎	-10.7347
丁巳	-10.7348
人鬼	-10.7348
邪見	-10.7348
逺離	-10.7352
師友	-10.7352
洞清	-10.7354
明霞	-10.7354
靈司	-10.7357
普救	-10.7357
爲衆生	-10.7358
觀中	-10.7364
解結	-10.7364
言我	-10.7365
玄圖	-10.7366
玉清訣	-10.7367
神變	-10.7368
騰景	-10.7368
小兆	-10.737
殺則	-10.7374
神儀	-10.7374
附告	-10.7379
善根	-10.738
雲龍	-10.7386
和釋	-10.739
逍遥快樂天尊	-10.7391
百千	-10.7393
少年	-10.7394
塜	-10.7398
妙音	-10.7399
文武	-10.7406
一條	-10.741
節次	-10.7413
宣德	-10.7413
飛符	-10.7415
人生	-10.7421
黒書	-10.7425
水簡	-10.7433
王子	-10.7433
普爲	-10.7437
罪籍	-10.7437
不失	-10.7439
則知	-10.744
土星	-10.744
萬邪	-10.7442
天和	-10.7442
則能	-10.7447
律曰	-10.7451
九州社令	-10.7452
無生	-10.7453
承流	-10.7455
之春	-10.7461
香爐	-10.7462
入口	-10.7462
墨書	-10.7462
无上道	-10.7467
𥿄	-10.7471
復生	-10.7478
之獄	-10.7482
列宿	-10.7486
捻香	-10.7487
扄	-10.7488
之勤	-10.7489
曵	-10.7489
死後	-10.7489
皈身皈神皈命	-10.7489
痢	-10.7491
紏	-10.7491
𣲖	-10.7493
邵	-10.7493
范	-10.7493
安宅	-10.7495
偷	-10.7495
玩	-10.7495
鏤	-10.7496
帯	-10.7496
逈	-10.7496
之祖	-10.7496
虎豹	-10.7496
裘	-10.7497
聾	-10.7497
叩齒三十六通	-10.7497
簮	-10.7497
瑟	-10.7498
丙午	-10.7498
飛龍騎吏	-10.7499
駭	-10.7499
馳騁	-10.7499
白日昇天	-10.7499
形神俱妙	-10.7499
禆	-10.7499
匹	-10.7499
蒂	-10.75
啖	-10.75
蔣	-10.7501
其諸	-10.7501
衆災度脫壽命延長	-10.7501
驛馬	-10.7501
傲	-10.7502
宅中	-10.7503
薛	-10.7504
綬	-10.7504
疫癘	-10.7504
等志心稽首禮太上无極大道	-10.7504
僊	-10.7505
鶴鳴	-10.7505
旋繞	-10.7505
猿	-10.7505
落滅惡根	-10.7506
拳拳	-10.7506
起居	-10.7506
郷貫	-10.7506
欎	-10.7508
無塵	-10.7509
元尊	-10.751
玄丹	-10.7511
燒香然燈	-10.7511
益筭	-10.7512
醴泉	-10.7513
當須	-10.7514
神識	-10.7515
雲散	-10.7516
幽途	-10.7516
祭錬	-10.752
三十五	-10.7521
無色界	-10.7521
玄門	-10.7522
乗此	-10.7524
二十四獄	-10.7524
蛟龍	-10.7524
延康	-10.7524
破暗	-10.7525
道德天尊	-10.7526
之號	-10.7532
罔知	-10.7533
平旦	-10.7534
建齋行道	-10.7534
分身	-10.7535
大腸	-10.7536
玉府	-10.7538
洞虚	-10.7538
千愆	-10.7538
直上	-10.7539
无邊	-10.7539
黙朝	-10.7539
丹華	-10.754
十方世界	-10.754
或以	-10.754
總領	-10.7542
后土	-10.7545
水陸	-10.7553
八百	-10.7554
炁也	-10.7554
長者	-10.7556
入靜	-10.7557
玉女五帝直符直日香官各三十六人出	-10.7558
不可勝	-10.7559
金章	-10.7559
華林	-10.7561
殺之	-10.7564
靈虚	-10.7564
靈驗	-10.7567
其名	-10.7568
水錬	-10.7569
福報	-10.7569
如在	-10.7572
憲天	-10.7574
降靈	-10.7575
如故	-10.7577
永固	-10.7578
受者	-10.7578
所治	-10.7578
精氣	-10.7581
仰謝	-10.7581
德得道之後保天長存	-10.7585
一過	-10.7586
並乞	-10.759
故氣	-10.7592
奏對	-10.7595
以相	-10.7601
妙齋	-10.7601
爲大	-10.7601
精勤	-10.7608
飛潜	-10.7608
大指	-10.761
攝魂	-10.7617
輕泄	-10.7618
不正	-10.7619
筆書	-10.7619
飡	-10.7622
之教	-10.7622
百千萬	-10.7624
合道	-10.7625
位爲	-10.7625
清旦	-10.7626
士庶	-10.7629
皇人	-10.7631
又恐	-10.7633
太華	-10.7633
開幽	-10.764
神風	-10.7646
大魔	-10.7646
慈悲之	-10.7647
靈魂	-10.7651
六炁	-10.7652
皇天	-10.7656
淨水	-10.7656
真仙	-10.7659
降炁	-10.7664
萬變	-10.7668
故爲	-10.7669
以下	-10.7672
是其	-10.7676
億千	-10.7676
髙座	-10.7677
愼之	-10.7679
爲害	-10.7684
山之	-10.7687
風散	-10.769
三兩	-10.7692
志心朝禮大慈大悲	-10.7692
返本	-10.7699
隂曹	-10.77
海嶽	-10.7703
黄炁	-10.7706
關功曹	-10.7709
姚	-10.7709
汎	-10.7709
袋	-10.7712
丞	-10.7713
符右符	-10.7714
蠱	-10.7715
醴	-10.7715
者非	-10.7715
緩	-10.7716
濤	-10.7717
泓	-10.7719
有異	-10.772
雀	-10.7721
陪	-10.7721
咨	-10.7721
楓	-10.7724
簾	-10.7724
蟠	-10.7725
七宿星君	-10.7726
巴	-10.7727
鬱單	-10.7728
迨	-10.7728
緊	-10.7728
安得	-10.7729
怖畏	-10.7729
黄雲	-10.773
𠃔	-10.773
三河四海	-10.773
殆	-10.773
誠惶誠恐稽首頓首再拜	-10.7731
萬病	-10.7731
慚	-10.7731
謹言年月日具位臣姓某上表	-10.7733
霓	-10.7734
迷途	-10.7734
寒熱	-10.7734
剖	-10.7736
閉塞	-10.7737
羽葆	-10.7737
上生天堂	-10.7737
文書	-10.7739
清泠	-10.774
開天	-10.774
進退	-10.7741
投詞	-10.7742
結炁	-10.7744
勤行	-10.7745
㣲	-10.7745
再念	-10.7746
衆惡	-10.7748
灑淨	-10.7749
曰汝	-10.775
丹忱	-10.7756
住宅	-10.7756
瓊臺	-10.7762
雖復	-10.7765
謹有	-10.7766
破穢	-10.7768
經言	-10.7768
香湯	-10.7771
此皆	-10.7772
左足	-10.7772
稱慶	-10.7781
水鍊	-10.7783
恩愛	-10.7784
苦趣	-10.7789
下情不勝	-10.779
修鍊	-10.779
第二日	-10.7791
於玄虚	-10.7791
仙宫	-10.7793
光輝	-10.7796
發生	-10.7802
妖氛	-10.7803
流霞	-10.7814
紫蓋	-10.7815
亦復	-10.7815
巳徃	-10.7815
點	-10.7819
治職	-10.7826
知者	-10.7827
延命	-10.7829
某月	-10.7834
萬善	-10.7835
也謂	-10.7836
困苦	-10.7841
光耀	-10.7844
兩儀	-10.7844
滅罪	-10.7848
朝儀	-10.7848
三十日	-10.7851
靈臺	-10.7851
生世	-10.7853
分靈	-10.7854
神仙傳	-10.7854
故炁	-10.7856
奉受	-10.7857
資薦	-10.7859
人人	-10.786
一物	-10.7863
諸大地獄	-10.7865
經信禮	-10.7871
億兆任重嵩恒道慕堯舜旣纉承於大業	-10.7872
本始	-10.7876
八表	-10.7883
上宰	-10.7886
吾奉	-10.7888
以答	-10.7889
身長	-10.7891
度品	-10.7893
行此	-10.7893
病苦	-10.7904
太歳年月日	-10.7914
九朝	-10.7916
次宣	-10.7917
等神	-10.7917
之格	-10.7918
承恩	-10.7919
寳香	-10.7922
不犯	-10.7922
大海	-10.7922
出世	-10.7924
中三五功曹左右官使者侍香金童傳言	-10.7924
仙觀	-10.7929
根源	-10.7933
眞科	-10.7941
在我	-10.7941
段	-10.7945
羡	-10.7945
丹心	-10.7947
有象	-10.7948
飴	-10.795
遜	-10.7951
拾	-10.7952
鬼名	-10.7952
馨	-10.7953
躁	-10.7954
燥	-10.7954
元吉	-10.7955
栁	-10.7956
宫室	-10.7958
悶	-10.7958
壬午	-10.7959
三日三夜	-10.7959
徤	-10.796
凢	-10.796
咫尺	-10.796
大臣	-10.796
帖	-10.796
終始	-10.7961
擔	-10.7962
逭	-10.7962
較	-10.7962
解散	-10.7962
而上	-10.7963
謹重誠上啓	-10.7963
羞	-10.7964
廻骸起死	-10.7964
一門	-10.7965
元陽上品	-10.7965
亮	-10.7965
亡過某靈䰟	-10.7965
旋遶	-10.7966
岑	-10.7966
一如靈寳玄壇律令	-10.7968
湛露	-10.7969
凍	-10.7969
不傳	-10.797
振響	-10.797
池中	-10.7975
轉法輪	-10.7975
丞相	-10.7975
直入	-10.7977
五炁天君	-10.7977
戊巳	-10.7977
謂之曰	-10.7978
擁護	-10.7979
九拜	-10.7981
此則	-10.7986
春秋	-10.7986
灌注	-10.7989
現形	-10.7991
春融	-10.7993
若有衆生	-10.7994
戊辰	-10.7994
奏申	-10.7998
一十	-10.7998
五千文	-10.7999
神司	-10.8002
修善	-10.8007
之深	-10.8008
調理	-10.8008
陽日	-10.8011
升遷	-10.8011
天靈	-10.8014
十尺	-10.8014
處士	-10.8015
隂官	-10.8016
度人上品妙經	-10.8016
則生	-10.8017
日月之	-10.8018
之異	-10.8019
凶惡	-10.802
或於	-10.8022
三農	-10.8023
者見有	-10.8023
方圓	-10.8023
聖帝	-10.8024
萬衆	-10.8024
引進	-10.8029
空常	-10.8032
玊清	-10.8032
秋分	-10.8036
乞爲	-10.8037
制魔	-10.8038
之野	-10.8038
多違	-10.8041
帝勑	-10.8045
稽首再拜	-10.8046
元命	-10.8046
函三	-10.8047
監壇	-10.8048
不忘	-10.8053
空寂	-10.8056
祝香	-10.8057
隂神	-10.8058
騰空	-10.8059
家人	-10.806
一卷	-10.8065
散形	-10.8068
三昧	-10.8069
執法	-10.8069
咽之	-10.8071
還復	-10.8071
惡縁	-10.8071
入戸	-10.8072
嗜	-10.8076
失其	-10.8078
六氣	-10.8082
后土皇地祇	-10.8092
七部	-10.8096
華陽	-10.8101
玉堂	-10.8103
下民	-10.8106
齋主某家	-10.8106
過止	-10.8108
落死	-10.811
偈頌	-10.811
森	-10.8112
身生	-10.8113
靈寳經	-10.8113
太歲	-10.8114
之子	-10.8115
隱居	-10.8116
拔罪	-10.8119
各隨	-10.8124
皇老	-10.8127
而坐	-10.813
九皇	-10.8133
髙真	-10.8133
聖賢	-10.8137
都司	-10.8143
處處	-10.8143
髙皇	-10.8144
呈章	-10.8145
内視	-10.8147
文獻	-10.8148
真炁	-10.8149
驅邪院	-10.8154
在此	-10.8157
符命告下	-10.816
羅天	-10.8168
解𡨚	-10.817
喃	-10.817
之榮	-10.8174
有四	-10.8176
以後	-10.8177
北方黒	-10.8178
鎔	-10.8182
人各	-10.8184
玄元之	-10.8184
不令	-10.8184
术	-10.8184
喧	-10.8187
噴	-10.8187
昆	-10.8187
炷	-10.8188
風行	-10.8188
簫	-10.8189
丹簡	-10.819
太靈	-10.819
侮	-10.8191
鞭	-10.8191
星宫	-10.8191
能生	-10.8193
此二	-10.8193
四百	-10.8194
庻	-10.8194
潘	-10.8195
欠	-10.8196
誣	-10.8196
呌	-10.8196
酷	-10.8197
梵炁彌羅	-10.8197
閤	-10.8197
眇眇	-10.8198
噉	-10.8198
神神	-10.8198
叚	-10.8198
毎省惕於眇躬道俗凌夷淳化難振隂翊	-10.8199
相合	-10.82
西方白	-10.82
𩥵	-10.8201
吁	-10.8201
九天金闕明道達德大仙顯靈	-10.8203
㐫	-10.8203
㡬	-10.8204
杳杳	-10.8204
宿世	-10.8206
右手執	-10.8206
八萬四千	-10.8206
及其	-10.8207
解壇	-10.8207
曁	-10.8207
燒香散花	-10.8209
仗劒	-10.8209
生尸	-10.8209
屋宇	-10.821
本位	-10.8211
上清天樞院	-10.8212
六尺	-10.8216
之職	-10.8216
寒池	-10.8217
靜念	-10.8218
清浄	-10.8219
以今晚朝行道請法衆等運兹	-10.8223
之兆	-10.8226
司空	-10.8226
五劫	-10.8227
以報	-10.8228
所用	-10.8228
香油	-10.8229
芝英百靈衆眞交㑹在此香火爐前令臣	-10.823
仰希	-10.8235
咸令	-10.8237
下鬼	-10.8237
朝天	-10.8239
難量	-10.824
統攝	-10.8241
任意	-10.8247
翊衛	-10.8248
之權	-10.8252
畢竟	-10.8255
赤氣	-10.8255
自知	-10.8256
後從	-10.8259
黑帝	-10.8263
萬二千	-10.8263
互相	-10.8265
其數	-10.8267
不合	-10.8268
惡趣	-10.8268
青衣	-10.827
以至	-10.8273
福壽	-10.8273
有赫	-10.8274
五師	-10.8275
皓靈	-10.8276
運化	-10.8276
音聲	-10.8281
金甲	-10.8282
者如	-10.8284
齋堂	-10.8284
頭建	-10.8284
某上啓	-10.8286
始終	-10.8287
章符	-10.8287
法解	-10.8287
臨照	-10.8289
酉文	-10.8289
登山	-10.8293
此書	-10.8293
六甲六丁	-10.8294
罪愆	-10.8297
津梁	-10.8299
於九	-10.8301
之業	-10.8304
玄元始	-10.8304
我形	-10.8305
衆苦	-10.8307
眞人曰	-10.8308
道岸	-10.8311
六時	-10.8313
所宜	-10.8316
行法	-10.8319
紫微宫	-10.8319
慈風	-10.8322
辟除	-10.8322
榮衞	-10.8327
三部	-10.833
自天	-10.8331
依式	-10.8331
福祥	-10.8331
赤色	-10.8331
攝炁	-10.8333
召龍	-10.8334
有識	-10.8336
黄金	-10.8341
科法	-10.8342
也乃	-10.8343
玄祖	-10.8346
丹陽符	-10.8351
隂關	-10.8353
運轉	-10.8356
洞微	-10.8357
仙卿	-10.8357
速降	-10.8358
精修	-10.8359
惠露	-10.836
文章	-10.8362
至矣	-10.8365
非是	-10.8365
帝圖	-10.8373
爾時天尊	-10.8373
尊像	-10.8376
死户	-10.8384
億萬人	-10.8385
亦曰	-10.8386
三命	-10.8388
之盛	-10.8388
令其	-10.8389
者矣	-10.8391
一斤	-10.8392
召攝	-10.8395
七轉	-10.8397
不宰	-10.8399
大將軍符	-10.8401
並是	-10.8405
眞神	-10.8406
削除	-10.8407
常居	-10.8407
丹霄	-10.841
島	-10.8414
能行	-10.8416
正面	-10.8418
聰	-10.8423
長壽	-10.8423
之旨	-10.8424
瀉	-10.8424
幽牢	-10.8426
沃	-10.8427
韋	-10.843
團	-10.8431
夣	-10.8432
梧	-10.8434
壅	-10.8435
天樞院	-10.8435
犂	-10.8435
膠	-10.8435
雕	-10.8436
行香	-10.8437
葱	-10.8437
稔	-10.8438
飊	-10.8438
⬤	-10.8438
健	-10.844
狹	-10.844
稽首皈依無極大道	-10.8441
奄	-10.8442
崑	-10.8442
塑	-10.8442
敬禮	-10.8443
有無	-10.8443
戊己	-10.8444
遐邇	-10.8444
竄	-10.8445
咽喉	-10.8445
虐	-10.8445
憇	-10.8445
俞	-10.8446
頴	-10.8446
誠惶誠恐稽首頓首伏念	-10.8446
億兆	-10.8446
訛	-10.8446
今醮官某	-10.8446
𡨚債	-10.8447
迴骸起死	-10.8447
溷	-10.8448
經籍度師	-10.8449
叩齒十二通	-10.8449
定位	-10.8451
收捕	-10.8452
以是義故	-10.8452
豫章	-10.8454
道眞	-10.8455
萬八千	-10.846
愼勿	-10.8461
師曰此	-10.8461
之景	-10.8462
不還	-10.8462
道域	-10.8464
死䰟	-10.8464
鎭星	-10.8466
同歸	-10.8467
九天上帝	-10.8468
帝命	-10.8471
五臘	-10.8473
明了	-10.8473
與臨壇官衆等謹同誠上啓	-10.8473
昇遷	-10.8475
爲禍	-10.8476
不可得	-10.8476
此山	-10.8477
致使	-10.8479
啓告	-10.848
玄通	-10.848
造化之	-10.8484
元辰	-10.8484
飛化	-10.8485
造諸	-10.8486
三十二字	-10.8488
停輪	-10.8488
以次	-10.849
之𩔖	-10.8492
部領	-10.8494
曹局	-10.8495
立夏	-10.8498
空碧	-10.8499
年月日具位	-10.85
設齋	-10.85
法也	-10.85
師道	-10.8506
大福	-10.8506
廬山	-10.8507
姓某狀奏	-10.8507
亡過	-10.8508
之未	-10.8508
玄貺	-10.8509
大兵	-10.851
真人玉清	-10.8511
之患	-10.8511
赤城	-10.8513
一丈	-10.8513
千日	-10.8515
臣身中	-10.8516
下部	-10.8518
罪録	-10.852
於丹	-10.8522
冥關	-10.8523
宫闕	-10.8528
隱文	-10.8528
同誠上啓	-10.8531
兩足	-10.8534
前有	-10.8534
世俗	-10.8535
玉燭	-10.8538
凶災	-10.8538
得入	-10.8547
智慧頌	-10.8547
上極	-10.8552
中有一	-10.8552
宫府	-10.8553
即爲	-10.8555
解悟	-10.8555
無人	-10.8558
下至	-10.8559
土木	-10.8562
三代	-10.8562
存三	-10.8565
誅之	-10.8567
守護	-10.8568
受罪	-10.8569
禮方懴方	-10.8577
光景	-10.858
歩虛	-10.8582
潜通	-10.8583
七十四	-10.8585
未分	-10.8585
上表	-10.8586
災咎	-10.8588
延長	-10.859
經營	-10.8591
上無無至眞無上無爲大道應感眞精第	-10.8599
里域眞官	-10.8601
妙光	-10.8602
誦念	-10.8603
說是	-10.8607
復還	-10.861
用也	-10.8611
故以	-10.8613
牒請	-10.8614
家中	-10.8614
重罪	-10.8616
家口	-10.8619
黍	-10.8623
胎生	-10.8625
眞人信禮	-10.8628
九奏	-10.8629
何所	-10.863
經書	-10.8632
姻	-10.8632
應號	-10.8635
北海	-10.8638
頃刻	-10.8639
姓某承誥奉行	-10.8641
刑殺	-10.8642
廷	-10.8643
伏魔	-10.8644
官君將吏	-10.8652
虚靈	-10.8653
立於	-10.8654
燒香行道	-10.8654
十斤	-10.8655
進章	-10.8661
九九	-10.8664
亦然	-10.8668
都畢	-10.8669
天尊志心敬禮太一救苦天尊志心敬禮	-10.8671
肘	-10.8672
髻	-10.8673
表白	-10.8675
破地獄	-10.8676
清靈	-10.8677
三朝	-10.8678
普召	-10.8681
菩	-10.8681
覩光明	-10.8682
正真	-10.8683
樊	-10.8683
三魂七魄	-10.8683
守一之元	-10.8684
蜃	-10.8686
玄紀	-10.8686
狄	-10.8687
浙	-10.8687
笙	-10.8687
聊	-10.8688
福生無量天尊	-10.8689
奉爲齋主某仰謝	-10.869
天眞皇人	-10.8691
藝	-10.8691
仭	-10.8692
湘	-10.8692
純嘏	-10.8693
聆	-10.8693
幷	-10.8693
者多	-10.8694
黍珠	-10.8694
彌綸	-10.8695
君一人官將百二十人	-10.8695
粘	-10.8696
獅座	-10.8696
今將聖德	-10.8696
溥濟清微洞玄冲虚妙感慈惠	-10.8696
貞吉	-10.8699
名也	-10.87
无上至眞	-10.87
天慈	-10.87
本𣲖	-10.8701
名列	-10.8701
伺候	-10.8703
紛葩	-10.8704
東炁	-10.8704
救療	-10.8708
鳯篆	-10.8708
九垓	-10.8709
仙家	-10.8709
傳云	-10.871
登仙	-10.871
院宇	-10.8712
承顔	-10.8714
綱紀	-10.8714
放蕩	-10.8714
無一	-10.8716
懴祈	-10.8718
宮仙官	-10.872
急速	-10.8721
丹懇	-10.8722
也道言	-10.8722
延洪	-10.8725
星君北斗	-10.8726
德行	-10.8726
含識	-10.8727
九醜	-10.8729
與道合眞鳴法鼓二十四通發爐	-10.8733
觀身	-10.8735
三十六部	-10.8735
護國庇民洪恩眞君志心皈	-10.8737
不定	-10.8739
年齡	-10.8739
空歌	-10.8742
无英	-10.8742
敷露	-10.8744
天羅	-10.8744
深慮	-10.8745
驚心	-10.8746
未盡	-10.8749
未曽	-10.875
數千	-10.875
大仙	-10.8751
八遐	-10.8752
九錬	-10.8755
小吏	-10.8755
覺海	-10.8756
宗廟	-10.8757
隂日	-10.8757
受化更生	-10.8759
由中	-10.8763
山簡	-10.8767
雲衢	-10.8769
金口	-10.8771
休息	-10.8771
遐長	-10.8772
浴室	-10.8778
始於	-10.878
宣䟽	-10.8782
玉池	-10.8783
追取	-10.8783
非一	-10.8784
者一	-10.8786
者願	-10.8786
黄房	-10.8788
方域	-10.8791
身後	-10.8791
水帝	-10.8792
聖德	-10.8793
何爲	-10.8794
之望	-10.8798
後人	-10.8799
長新	-10.8801
所須	-10.8804
最爲	-10.8806
靈寳之	-10.8809
乗龍	-10.881
禮十方	-10.881
上清靈寳行司	-10.8818
記云	-10.8821
復以	-10.8824
案上	-10.8824
亦爾	-10.8825
至心皈命	-10.8825
永度	-10.8829
冬至	-10.883
人形	-10.8831
不伏	-10.8831
北隂	-10.8833
七情	-10.8835
入天門	-10.8837
圓通	-10.8841
之殊	-10.8843
服御	-10.8844
在於	-10.8851
向西	-10.8855
帝前	-10.8855
之臺	-10.8856
來入	-10.8857
輝輝	-10.8859
便得	-10.8861
不存	-10.8863
三陽	-10.8863
開建	-10.8864
靈眞	-10.8865
玄機	-10.8868
方寸	-10.8868
所由	-10.8868
悉是	-10.8869
安全	-10.8871
洞中	-10.8875
亦是	-10.8875
有五	-10.8878
三徧	-10.8878
投龍	-10.8879
噀	-10.8879
自覺	-10.8879
金星	-10.8881
之難	-10.8881
爲某事	-10.8881
仙衣	-10.8883
道家	-10.8885
學道得道求仙得仙齋主受福幽顯	-10.8886
傳奏	-10.8888
形影	-10.8888
馳神	-10.8892
至極	-10.8893
無虧	-10.8897
除去	-10.8897
血尸	-10.8902
人世	-10.8902
鍾山	-10.8904
仙界	-10.8904
飛玄之	-10.8907
大丹	-10.8909
自巳	-10.8912
壬子	-10.8913
合爲	-10.8914
不至	-10.8918
神章	-10.8919
萬億	-10.8926
小劫	-10.8926
玉經	-10.8927
火翳	-10.8928
炁入符	-10.8929
明星	-10.8931
頽	-10.8932
莫非	-10.8935
變形	-10.8935
呬	-10.8937
叟	-10.8938
曹太玄中元	-10.8938
殗	-10.8938
徊	-10.8939
捷	-10.8939
漆	-10.8939
戯	-10.894
䆫	-10.8941
懿	-10.8941
退人	-10.8941
隂生	-10.8941
瞋怒	-10.8942
詰	-10.8943
晃	-10.8943
沿	-10.8943
暘	-10.8944
暝	-10.8944
煦	-10.8944
鯨	-10.8944
若有善男子善女人	-10.8945
業報	-10.8945
蟾	-10.8946
墳	-10.8946
告符	-10.8947
瑠璃	-10.8948
寰區	-10.8948
怖	-10.8948
捲	-10.8948
織	-10.8949
玉臺	-10.8949
弔	-10.8949
身有光明	-10.8949
芙蓉	-10.895
所召	-10.895
柯	-10.895
北極驅邪院	-10.8951
牖	-10.8951
翩翻	-10.8951
靜黙堂	-10.8951
轍	-10.8952
謹詞	-10.8952
䖍誠讃願賜威光鑒此忱願共諸有情同	-10.8952
命禮威震雷霆澤垂雨露神通自在	-10.8953
廽	-10.8953
龍車	-10.8953
莽	-10.8953
志心敬禮隨願往生天尊志心敬禮	-10.8953
曹太玄下元	-10.8954
自今月某日爲始	-10.8954
群品	-10.8954
諸經	-10.8954
懈怠	-10.8956
一尺二寸	-10.8959
結至謹狀	-10.8961
於心	-10.8964
諦受	-10.8965
帝渥	-10.8965
大定	-10.8966
无量度人	-10.8966
赤松	-10.8967
考掠	-10.8967
讃揚	-10.8968
罪䰟	-10.8968
勵志	-10.8969
營衛	-10.8969
攸司	-10.8972
拯濟	-10.8972
七人	-10.8973
玄都玉京	-10.8975
青城山	-10.8975
匪由	-10.8976
青絲	-10.8978
七寸	-10.898
舊典	-10.8981
讀經	-10.8981
咸臻	-10.8982
元父	-10.8983
之粹	-10.8984
疾厄	-10.8985
如初	-10.8985
耀彩	-10.8988
所載	-10.8993
春臺	-10.8994
祈福	-10.8998
掃除	-10.8999
褁	-10.9
紫文	-10.9008
願念	-10.9009
頂門	-10.9011
觀宇	-10.9013
太上大道	-10.9015
以生成	-10.9016
天寳君	-10.9017
玄女	-10.9017
神道	-10.9022
之虞	-10.9025
居中	-10.9025
不悟	-10.9025
華夷	-10.9028
貪欲	-10.9029
臣某與臨壇官衆等謹同誠上啓	-10.9029
宴景	-10.9029
上帝敕	-10.903
死魂符	-10.9032
獲福	-10.9033
遍滿	-10.9034
雲臻	-10.9035
炎帝	-10.9038
不去者	-10.9038
道備	-10.9039
相與	-10.9039
淨土	-10.904
月日時生行年若干歳伏念某	-10.9041
室内	-10.9043
子丑	-10.9044
終天	-10.9045
各以	-10.9053
百寳	-10.9055
一丸	-10.9055
不吉	-10.906
清寧	-10.9061
置於	-10.9061
不久	-10.9061
奉命	-10.9062
二七	-10.9065
爲惡	-10.9069
六度	-10.9069
之印	-10.9069
加臨	-10.9072
香林	-10.9076
吿下	-10.9078
長年	-10.9081
醫治	-10.9082
大法師	-10.9083
爲吾	-10.9083
直使	-10.9084
一座	-10.9089
清衆	-10.9089
金色	-10.9094
服氣	-10.9098
耀靈	-10.9103
受中	-10.9105
靈威	-10.9106
普令	-10.9109
右用	-10.9111
登天	-10.9112
法衆運誠	-10.9114
明道	-10.9114
經像	-10.9115
玄慈	-10.9118
皆須	-10.9118
四直功曹	-10.9124
左目	-10.9127
木星	-10.9132
刑獄	-10.9133
一遍	-10.9133
便可	-10.9135
布炁	-10.9141
頒行	-10.9143
應物	-10.9143
因今	-10.9143
玉室	-10.9153
七玄	-10.9156
十轉	-10.9158
碧漢	-10.916
志心皈命	-10.9165
天獄	-10.9166
不恕	-10.9168
宣詞	-10.9168
其方	-10.9169
瀝	-10.9171
司判官志心敬禮	-10.9171
高眞	-10.9173
能令	-10.9183
如雲	-10.919
名書	-10.919
叉	-10.9195
濟濟	-10.9195
謌	-10.92
亦如是	-10.9201
今時	-10.9202
得成	-10.9202
匱	-10.9202
漫	-10.9204
袂	-10.9204
将	-10.9204
吊	-10.9205
蔡	-10.9205
乂	-10.9206
慘	-10.9206
之餘	-10.9206
禽獸	-10.9206
三簡	-10.9207
跨	-10.9208
𣗥	-10.9208
僉	-10.9209
轗軻	-10.9209
燼	-10.9209
𠂻	-10.9209
嘯詠	-10.921
踊躍	-10.921
供飬	-10.921
翺翔	-10.921
夏禹	-10.9211
符宣	-10.9212
地道功曹	-10.9212
籥	-10.9212
範圍	-10.9213
蒭	-10.9213
哺	-10.9213
糜	-10.9213
臣某等上啓太	-10.9213
蘂笈	-10.9213
太妙至極	-10.9214
寳華圓滿天尊	-10.9214
水府扶桑大帝	-10.9214
邦國	-10.9215
蟬	-10.9215
㑹稽	-10.9215
東西南北	-10.9215
金籙簡文	-10.9215
昏衢	-10.9215
閶闔	-10.9216
飽滿	-10.9216
寰瀛	-10.9216
皈無上道志心皈命禮	-10.9216
赤松子	-10.9216
四念同志學人早得仙道更相開度	-10.9216
惻	-10.9217
溟涬	-10.9217
社稷尊靈	-10.9217
玉清降福天尊志心敬禮尋聲救苦天尊	-10.9217
猛火	-10.9217
殷	-10.9219
四尺	-10.9219
激越	-10.922
鐵杖	-10.9221
鬱鬱	-10.9223
大教	-10.9224
拯拔	-10.9224
大地	-10.9225
赤文	-10.9227
終獻	-10.9228
凢夫	-10.9228
天澤	-10.9229
三十二天上帝	-10.923
籌	-10.9231
入地	-10.9231
毒蛇	-10.9232
曹仙官	-10.9232
瀝懇	-10.9233
九天生神天尊	-10.9234
三晨	-10.9234
章文	-10.9234
百榖	-10.9236
四季	-10.9237
臣等身中即使玄壇清淨内外成眞天	-10.9237
因緣	-10.9238
洪澤	-10.9239
十餘年	-10.924
五穀	-10.9241
水上	-10.9242
得免	-10.9243
往生	-10.9243
洪慈	-10.9244
八分	-10.9245
王公	-10.9246
道門	-10.9246
相生	-10.9246
有慶	-10.9247
稱爲	-10.925
升入無形和與道合眞	-10.9252
列職	-10.9252
滯魄	-10.9253
化雨	-10.9257
凡欲	-10.9257
無侵	-10.9258
三周	-10.9259
先靈	-10.9259
直下	-10.926
至妙	-10.926
求哀	-10.9261
赤白	-10.9263
太霞	-10.9263
朝行道	-10.9263
以兩手	-10.9263
積生	-10.9264
靖廬仙官	-10.9264
故有	-10.9264
分解	-10.9265
化作	-10.927
萬類	-10.9271
腹中	-10.9271
前來	-10.9272
三行	-10.9272
應運	-10.9273
幽沉	-10.9273
引領	-10.9274
敬信	-10.9275
隨心	-10.9277
主簿	-10.9277
六十四	-10.9278
下仙	-10.928
具有	-10.9281
黃素	-10.9283
口業	-10.9283
頭破	-10.9284
於後	-10.9288
根塵	-10.9295
三竒	-10.9297
衆尊	-10.9298
見人	-10.9305
之南	-10.9305
數也	-10.9307
福善	-10.9311
性天	-10.9315
順行	-10.9315
說此	-10.9317
魂靈	-10.9317
飛揚	-10.9317
三啓頌	-10.9318
黃籙大齋	-10.932
五賊	-10.9321
何由	-10.9322
何等	-10.9324
也非	-10.933
太始	-10.9333
聞道	-10.9333
廣濟	-10.9334
太初	-10.9335
八圓	-10.9335
照徹	-10.9336
請問	-10.9336
頌次	-10.9338
也蓋	-10.9341
六害	-10.9343
再生	-10.9346
靜定	-10.9348
虛皇	-10.9353
所致	-10.9358
閉炁	-10.9366
忱恂	-10.9367
二指	-10.9368
下副	-10.9371
五德	-10.9374
炁炁	-10.9381
内景	-10.9384
元元	-10.9385
一夕	-10.9386
所告	-10.9387
本師	-10.9389
五府	-10.939
四天	-10.9391
玉京山	-10.9394
古法	-10.9396
華旛	-10.9397
玄龍	-10.9398
書寫	-10.9398
生時	-10.9406
復歸	-10.9408
十絶	-10.9411
從容	-10.9414
我之	-10.9415
八海	-10.9417
從何	-10.9418
十苦	-10.9421
之韻	-10.9421
九微	-10.9425
子母	-10.9428
有八	-10.9429
聚魂	-10.9432
以道	-10.9434
却入	-10.9435
今身	-10.9437
六星	-10.9439
財寳	-10.9441
啓請	-10.9444
之籍	-10.9445
之訣	-10.9448
籙齋用	-10.9448
不念	-10.9449
俱入	-10.9451
得道者	-10.9452
十宫	-10.9458
物外	-10.9458
敬奉	-10.9459
睦	-10.9462
摽	-10.9466
昻	-10.9468
之耳	-10.9469
六龍	-10.9469
眉間	-10.9471
眀	-10.9471
俠	-10.9471
三道	-10.9472
涌	-10.9474
邃	-10.9474
佛	-10.9475
兌	-10.9475
棲神	-10.9476
鬢	-10.9476
旌陽	-10.9476
贈	-10.9476
評論	-10.9477
址	-10.9477
趍	-10.9478
淹	-10.9478
詵詵	-10.9479
左右龍虎君	-10.9479
玄宫	-10.948
堆	-10.948
嵯峨	-10.9481
地上音	-10.9481
大赤	-10.9482
矅	-10.9482
不侵	-10.9482
西王母	-10.9483
衮衮	-10.9483
受三洞	-10.9483
囉	-10.9484
逓	-10.9484
釣	-10.9484
僻	-10.9484
修身	-10.9485
忍辱	-10.9485
挑	-10.9485
一依	-10.9485
梵監須延天	-10.9486
壺	-10.9486
鳳凰	-10.9488
醒	-10.9488
綴武	-10.9489
哲	-10.949
炎炎	-10.9491
此三	-10.9492
若以	-10.9492
有諸	-10.9494
斛食	-10.9495
採藥	-10.9495
二分	-10.9495
結尾	-10.9496
以是因縁	-10.9496
三眞	-10.9496
千餘	-10.9497
特賜	-10.9499
太尉	-10.95
罔極	-10.95
所修	-10.9502
不墮	-10.9502
十方無極世界	-10.9503
佐國	-10.9504
髙躋	-10.9504
玉笈	-10.9504
衍慶	-10.9505
受身	-10.9508
曷俾	-10.9509
公侯	-10.9509
恕	-10.951
潤澤	-10.9515
珍寳	-10.9515
行藏	-10.9519
晨君	-10.9522
爲其	-10.9525
乗空	-10.9526
夫婦	-10.9528
形容	-10.9528
此爲	-10.953
業機	-10.9532
垂恩	-10.9533
罪結	-10.9534
齊并	-10.9534
初獻	-10.9534
法位	-10.9535
八鸞	-10.9539
升仙	-10.9539
召之	-10.9541
化機	-10.9542
除蕩	-10.9544
拜手	-10.9544
民情	-10.9545
君官將百二十人	-10.9546
前行	-10.9547
三彭	-10.9548
一同	-10.9549
定慧	-10.9549
有心	-10.9549
景福	-10.955
上保上傅太平下教二十四眞人西城	-10.955
紫元	-10.9556
佩身	-10.9558
非道	-10.956
行道願得玉清道炁靈寳妙光下降流入	-10.9565
醮禮	-10.9565
法教	-10.9568
不求	-10.9571
念誦	-10.9572
百節	-10.9574
君親	-10.9574
自樂	-10.9575
宣符	-10.9576
有一人	-10.9577
濟人	-10.9577
孰能	-10.9578
玉篇	-10.9579
死炁	-10.958
仰望	-10.958
狀式	-10.9581
齊臨	-10.9581
無虞	-10.9582
弘慈	-10.9584
二神	-10.9584
惡心	-10.9586
府君	-10.9587
死矣	-10.9588
凡所	-10.9589
法座	-10.959
必得	-10.9591
一合	-10.9593
無相	-10.9593
其理	-10.9594
拜奏	-10.9595
八日	-10.9597
乞降	-10.9597
十二日	-10.96
施惠	-10.9603
安和	-10.9605
太上三尊十方衆聖	-10.9617
慈仁	-10.9618
不怠	-10.9627
關牒	-10.9628
一萬	-10.9628
即以	-10.9629
齋主家	-10.9631
真人志心敬禮	-10.9632
逐一	-10.9632
皇夫人	-10.9634
至理	-10.9634
當時	-10.9642
所出	-10.9642
或見	-10.9647
相隨	-10.9648
風澤	-10.9648
齋直	-10.9648
各二十四人出	-10.9651
救苦眞人志心朝禮大慈大悲大惠眞人	-10.9652
百姓子男女人	-10.9653
之司	-10.9656
五龍	-10.9661
六職	-10.9662
九野	-10.9662
身有	-10.9663
疋	-10.967
太丹	-10.967
佩奉	-10.9674
通幽	-10.9675
福流	-10.9675
家門	-10.9676
開度祈	-10.9677
宣示	-10.9678
諸王	-10.9679
之所自然生金液丹碧芝英百靈衆	-10.9682
俗人	-10.9684
歌曰	-10.9685
真司	-10.9691
自來	-10.9694
賢聖	-10.9699
玄壇天帝神君當召此間土地里域眞官	-10.9705
爲主	-10.9706
太上无極大道至眞玉皇上帝御前	-10.9707
上獻	-10.9708
盂	-10.9714
于後	-10.9714
即見	-10.9714
君元	-10.9715
不審	-10.9715
恭依	-10.9718
香煙	-10.9718
敕命	-10.9718
地中	-10.9718
元眞	-10.972
無際	-10.9723
曹僚	-10.9723
道術	-10.9723
滅除	-10.973
聖王	-10.9733
垓	-10.9736
毗	-10.9738
深重	-10.9738
斬邪	-10.974
不窮	-10.9741
之長	-10.9741
時人	-10.9742
喫	-10.9743
伽	-10.9744
於身	-10.9745
㓜	-10.9749
洞元	-10.975
除滅	-10.975
九老	-10.975
疼	-10.9751
捍	-10.9752
蒲	-10.9752
優游	-10.9753
次焚	-10.9753
瘵	-10.9754
坊	-10.9755
垂文	-10.9755
倪	-10.9756
贍	-10.9757
紗	-10.9757
迂	-10.9757
内音	-10.9758
霆	-10.9759
何故	-10.9759
肆覲	-10.9759
冨	-10.9759
模	-10.976
道都大主者	-10.976
君降大慈之恩流	-10.976
混合百神	-10.976
芬	-10.976
變錬	-10.976
畢又	-10.9761
彤	-10.9762
玄中大法師三天大法師	-10.9762
霖	-10.9762
一行官吏	-10.9762
祝呪	-10.9762
監眞度生	-10.9762
靈府	-10.9762
傷亡復舊還形	-10.9763
閬	-10.9763
受其發揚萬物滋生國儲民豐九	-10.9763
德配乾坤功叅日月神通妙用正直	-10.9764
貧賤	-10.9764
牘	-10.9764
志心稽首禮玄中大法師重稱法位具位	-10.9765
玉眸	-10.9765
廟貌	-10.9766
喜怒	-10.9766
不夜	-10.9766
天帝合眞	-10.9766
澄湛	-10.9769
問曰何謂	-10.977
枯骨	-10.977
九眞妙戒	-10.977
録事	-10.9771
棊	-10.9771
熱惱	-10.9771
玄一	-10.9772
圍繞	-10.9772
黄中	-10.9772
遷賞	-10.9772
普掠	-10.9774
嚴裝	-10.9775
監生大神	-10.9776
星冠	-10.9776
營衞	-10.9779
參差	-10.978
不染	-10.9781
赦除	-10.9783
北方无極太上靈寳天尊	-10.9784
先人	-10.9784
進呈	-10.9785
兩舌	-10.9786
沉迷	-10.9788
五道大神	-10.9789
香華	-10.979
申酉	-10.9791
眞戒	-10.9791
群魔	-10.9792
九幽長夜	-10.9792
䖍祈	-10.9792
南陵	-10.9794
回旋	-10.9797
眞明皇道君三十六部尊經玄中大法師	-10.9798
得道眞	-10.9798
濟拔	-10.9799
鬼王等	-10.9803
五芽	-10.9803
千祥	-10.9804
太霄	-10.9805
立冬	-10.9806
長生大帝	-10.9806
正中	-10.9809
分燈	-10.9811
身佩	-10.9811
蓮華	-10.9812
君臣	-10.9812
帝一	-10.9814
燃燈	-10.9817
周廻	-10.9821
天錫	-10.9823
次思	-10.9825
作善	-10.9828
上清宫	-10.9831
立秋	-10.9833
勤苦	-10.9835
一首	-10.9835
三茅	-10.9838
百六	-10.9838
乗景	-10.984
功德牒	-10.9845
告曰	-10.9848
隱顯	-10.985
流祥	-10.985
佩服	-10.985
關盟	-10.9851
應干	-10.9853
冥心	-10.9853
前件	-10.9855
敷羅	-10.9856
急急如律令次	-10.9857
兩目	-10.9859
飛登	-10.9859
救物	-10.9863
毒害	-10.9864
不免	-10.9867
不立	-10.9868
之曹	-10.9868
炎精	-10.9871
某謹	-10.9872
仁恩	-10.9875
㝠官	-10.9877
清醮	-10.9879
白氣	-10.988
道運	-10.9881
何有	-10.9883
寳範	-10.9887
聖師	-10.9893
䰟神	-10.9894
存神燒香	-10.9895
魄將軍	-10.9897
無滯	-10.9901
以逍遥	-10.9903
復何	-10.9904
玄德	-10.9905
十人	-10.9907
朝宗	-10.9907
重稱法位具位	-10.991
尊經	-10.9916
北玄	-10.992
内名	-10.992
無傾	-10.9926
修齋直	-10.9929
回光	-10.9929
天花	-10.9933
而化育	-10.9933
禹歩	-10.9935
即有	-10.9935
度亡	-10.9936
命根	-10.9936
科律	-10.9936
當用	-10.9943
塵勞	-10.9944
左行	-10.9948
功名	-10.9948
不專	-10.9951
之至謹稽首再拜	-10.9952
直日香官	-10.9952
經科	-10.9953
壷天	-10.9954
九地之	-10.9954
某不勝	-10.9955
見一	-10.9959
瑞炁	-10.996
八千	-10.9961
有犯	-10.9962
故令	-10.9962
二品	-10.9963
玉相	-10.9965
西華	-10.9967
諸省府院司	-10.9969
一性	-10.9974
福祐	-10.9975
罪過	-10.9976
命過	-10.9976
司額	-10.9978
爲齋主	-10.9978
復六十日	-10.9979
死戸	-10.9979
道行	-10.9982
職司	-10.9991
萬精	-10.9992
萬惡	-10.9994
宿縁	-10.9995
帝業	-10.9997
三河	-11.0003
見有男女	-11.0004
輟	-11.0008
寳華	-11.0018
十華之	-11.002
畢次	-11.0021
仰觀	-11.0025
靈炁	-11.0026
心爲	-11.003
祖宗	-11.0031
渇	-11.0031
弭	-11.0032
從事	-11.0033
批	-11.0034
請聖	-11.0034
東方青帝	-11.0034
威德	-11.0035
之厄次解	-11.0035
送聖	-11.0035
擅	-11.0035
璫	-11.0035
彊	-11.0035
火急	-11.0036
落景	-11.0036
桐	-11.0037
妙樂	-11.0037
迍	-11.0038
禮誦	-11.0038
罕	-11.0038
拳	-11.0039
亊	-11.0039
剡	-11.0041
之考或有	-11.0041
閽	-11.0041
瀛	-11.0042
甲子日	-11.0042
依此	-11.0042
叢	-11.0043
丙寅	-11.0043
凛	-11.0044
桃康	-11.0044
烽	-11.0045
本命元辰	-11.0045
肢體	-11.0045
貸	-11.0045
一字	-11.0046
諫	-11.0046
金闕化身天尊	-11.0046
遨遊	-11.0046
法水	-11.0046
制地	-11.0047
雍熈	-11.0047
願五嶽各安其方巍巍包藏長爲仙宫安	-11.0047
龍駕	-11.0048
天上地下	-11.0048
隨時	-11.0049
向王	-11.0049
𩲸將軍明承符命追攝	-11.0049
神景	-11.0049
赴旛受度焚符太乙救苦天尊謹召	-11.0049
赤明開圖	-11.0049
甚深	-11.0049
三清上聖十極髙眞	-11.005
庵	-11.005
握固	-11.005
無氛穢地絶妖塵琳琅振響十方肅	-11.005
日積月累	-11.005
五念九親和睦好尚仁義貴道賤財行	-11.0051
恢張	-11.0051
地方	-11.0051
鶉	-11.0051
謨	-11.0051
燒灰	-11.0051
香官	-11.0051
桑梓	-11.0051
桓	-11.0052
時刻昇遷	-11.0052
但見	-11.0053
異常	-11.0054
培	-11.0054
門下君一人官將百二十人上請	-11.0055
丙申	-11.0055
名山洞府	-11.0055
勇猛	-11.0055
壬午年	-11.0056
恪遵	-11.0059
稽首歸依	-11.0062
庚辰	-11.0063
呪水	-11.0064
奉法	-11.0065
三炁天君	-11.0066
凝精	-11.0067
未甞	-11.0068
微塵	-11.0068
猶慮	-11.0069
悉爲	-11.007
癸未	-11.0071
時節	-11.0072
祝融	-11.0075
燈以照	-11.0075
錦帔	-11.0075
錫慶	-11.0076
瑶圖	-11.0076
法則	-11.008
端嚴	-11.0082
召將	-11.0082
昭鑒	-11.0084
人志心敬禮大慈救苦真人志心敬禮大	-11.0084
真宰	-11.0084
形如	-11.0085
一也	-11.0086
當有	-11.0086
紅塵	-11.0086
玉帛	-11.0089
昭融	-11.009
度死	-11.0092
善應	-11.0092
身亡	-11.0094
升沉	-11.0094
瓊林	-11.0094
橋梁	-11.0094
續命	-11.01
希微	-11.01
隨機	-11.0104
證道	-11.0106
永享	-11.0107
無影	-11.011
克獲	-11.0112
矣其	-11.0113
泥丸宫	-11.0115
不獲	-11.0115
中庭	-11.0116
冲和	-11.0118
山河	-11.0122
沖和	-11.0124
道本	-11.0126
廣覆	-11.0128
羣仙	-11.0128
紫禁	-11.0129
之焉	-11.0129
共相	-11.0134
五色雲	-11.0134
結節	-11.0134
面目	-11.0135
黄絹	-11.0137
地網	-11.0137
上計	-11.0137
所指	-11.0139
在左	-11.0139
俄而	-11.0139
各依	-11.014
結習	-11.0142
泥九	-11.0142
制伏	-11.0149
降伏	-11.0151
莫知	-11.0152
某郷貫	-11.0152
空無	-11.0153
神呪經	-11.0157
持符	-11.0158
以度	-11.0159
是吾	-11.0164
靈君	-11.0166
頒降	-11.0167
聞見	-11.0171
求生	-11.0174
老病	-11.0177
變成	-11.0178
月魄	-11.018
於北	-11.0182
生萬物	-11.0183
合靈	-11.0184
飲之	-11.0185
大矣	-11.0185
莫知其	-11.0187
宣演	-11.0188
通利	-11.0191
寳齋	-11.0191
君五人	-11.0192
羣靈	-11.0195
章具法位	-11.0197
福境	-11.0197
玄綱	-11.0197
便是	-11.0198
印印	-11.0199
巳周	-11.0199
運心	-11.02
以明	-11.0203
於隂	-11.0207
炁聚	-11.0212
異香	-11.0213
萬壽	-11.0215
文昌	-11.0217
品格	-11.0217
合於	-11.0218
臣等皈身皈神皈命	-11.0219
要在	-11.022
君父	-11.022
爲天	-11.0222
不瘥	-11.0223
方位	-11.0224
下三界十方	-11.0225
心常	-11.0227
者能	-11.0232
受煉	-11.0234
西方白帝	-11.0236
解脱	-11.0236
燒香頌	-11.0237
蒙福	-11.0239
介福	-11.0239
妖精	-11.0239
施爲	-11.024
注念	-11.0248
大業	-11.0251
一法	-11.0252
死之訟	-11.0253
以時	-11.0255
不避	-11.0257
太妙	-11.0259
澄神	-11.0262
玉寳	-11.0262
來赴	-11.0267
謹上啓	-11.0268
母子	-11.0275
仍乞	-11.0275
太極眞人曰	-11.0275
厄㑹	-11.0278
或生	-11.0281
從來	-11.0286
乃知	-11.0288
梵天	-11.0293
正念	-11.0297
岱	-11.0299
資福	-11.0299
釀	-11.0305
入符中	-11.0313
一聲	-11.0317
葵	-11.032
南方赤帝	-11.0321
未備	-11.0321
課	-11.0321
矣此	-11.0323
正坐	-11.0326
稱名	-11.0326
皇皇	-11.0327
粥	-11.0327
𦋇	-11.0328
玄明	-11.0328
右件	-11.0328
秤	-11.0329
有耀	-11.033
譜	-11.0331
竺	-11.0332
志心信禮	-11.0332
靡法輪昇七祖生天堂我身白日騰	-11.0334
鳯凰	-11.0335
盥	-11.0335
满	-11.0336
皮膚	-11.0336
綴	-11.0336
斂	-11.0337
藪	-11.0338
書畢	-11.0338
靈寳五師眞君	-11.0338
𢘆	-11.0339
建齋有期移文到日部衞前來領受功德	-11.0339
溝	-11.034
弧矢	-11.034
娥	-11.034
六丁六甲	-11.034
遯	-11.034
涉	-11.0341
天尊號	-11.0342
告文太上符命告下	-11.0342
漸漸	-11.0342
同登福境	-11.0342
社稷尊靈宗祧先聖	-11.0342
億劫種親	-11.0342
靈書中篇	-11.0343
漁	-11.0343
上接	-11.0343
濟苦	-11.0343
煙飛空髙澄䕃覆玄玄隱	-11.0343
善男子善女人	-11.0343
峰	-11.0344
兵戈	-11.0344
流火之庭	-11.0344
峩峩	-11.0344
孝悌	-11.0345
風披拂	-11.0346
金鈕	-11.0346
中元玉籙簡文神仙品曰詣師威儀當	-11.0347
冶錬	-11.0347
灌溉	-11.0347
禮此懴文五體投地	-11.0348
障礙	-11.0348
下教	-11.0349
侍郎	-11.0349
預告	-11.035
無鞅數衆	-11.035
司命司録	-11.0351
綱維	-11.0351
吟詠	-11.0352
縱横	-11.0352
上奏靈官	-11.0352
田蠶	-11.0353
髙玄	-11.0354
而不知	-11.0354
自古	-11.0355
長生不死	-11.0356
豈可	-11.0356
靈泉	-11.0357
已來	-11.0357
如彼	-11.0358
齋官上香	-11.0359
炁三口	-11.0361
太𡻕	-11.0361
藏府	-11.0363
酆都大帝	-11.0363
御史	-11.0364
敷奏	-11.0365
未知	-11.0366
於外	-11.0368
三十八	-11.0368
靜黙	-11.0369
氷清	-11.0372
希恩	-11.0372
學道得道求仙得仙	-11.0373
戊子	-11.0374
無上三天玄元始三炁太上老君召出臣	-11.0374
雷公	-11.0374
覆育	-11.0376
籲天	-11.0376
離坎	-11.0377
忠良	-11.0377
同此	-11.0378
仰依	-11.0378
駐景	-11.0378
也科曰	-11.0379
開皇	-11.0384
若在	-11.0384
具位臣姓某	-11.0386
下情	-11.0387
久之	-11.0388
落落	-11.0389
震動	-11.0391
精邪	-11.0391
入壇	-11.0392
豐登	-11.0392
夏至	-11.0392
四千	-11.0394
逍遥上清	-11.0394
宰制	-11.0396
辛巳	-11.0397
禱祈	-11.0398
敷揚	-11.0398
九尺	-11.0398
飛翔	-11.0399
怡神	-11.04
九龍符	-11.0402
不死之	-11.0402
有罪	-11.0407
萬宇	-11.0408
一合下	-11.0408
謹具	-11.0409
設拜	-11.041
無期	-11.041
害人	-11.0413
見此	-11.0418
昇平	-11.0418
二道	-11.0419
保生	-11.0419
城隍司	-11.0422
之所自然生金液丹碧	-11.0423
上三尊願以是功德皈流	-11.0424
无色	-11.0426
視聽	-11.0427
登真	-11.0427
發露	-11.0429
祕法	-11.043
噀水	-11.043
下項	-11.0433
函上詣	-11.0434
功滿	-11.0435
勤心	-11.0435
道人	-11.0436
九百	-11.0438
太子諸王	-11.0438
存日	-11.0438
宻呪曰	-11.0444
此謂	-11.0444
十二時	-11.0445
關祝	-11.0446
今奉爲	-11.0447
青童君	-11.0449
玉芝	-11.045
百尺	-11.0452
玄光	-11.0453
治仙官	-11.0454
矣夫	-11.0454
肅建	-11.0457
勿以	-11.046
陰陽	-11.0462
災祥	-11.0463
廬在	-11.0465
三啓三禮重稱法位具位	-11.0466
綱常	-11.0468
秘法	-11.0472
妙嚴	-11.0473
足以	-11.0473
具法位姓某	-11.0477
壇上	-11.0479
七者	-11.0482
到處	-11.0485
洪水	-11.0485
瓊章	-11.0488
削罪	-11.0489
白色	-11.049
相連	-11.0494
鍊神	-11.0496
始陽	-11.0499
宻運	-11.05
曲垂	-11.0503
黒炁	-11.0507
正薦	-11.0508
圓方	-11.051
苦痛	-11.0511
无所	-11.0512
之芳	-11.052
回耀	-11.052
萬災	-11.0521
交㑹	-11.0527
至眞大聖	-11.0528
正直	-11.0534
九祖父母	-11.0536
之津梁	-11.0539
之又	-11.0542
庶人	-11.0548
禳通用	-11.0549
奉爲齋主某	-11.0551
獲奉	-11.0552
無道	-11.0554
貴人	-11.0554
酆都山	-11.0559
金母	-11.056
煉度	-11.0561
合并	-11.0561
下注	-11.0562
崇建无上黄籙大齋	-11.0568
罪累	-11.057
靈寳君	-11.057
造作	-11.0571
干冒聖威下情无任惶懼之至謹狀	-11.0573
死䰟符追	-11.0576
於某處	-11.0578
之旦	-11.058
用心	-11.0582
之任	-11.0584
咸使	-11.0584
而歸	-11.0584
首過	-11.0589
聲聞	-11.0592
讎	-11.0593
之恭	-11.0595
衆經	-11.0597
獄中	-11.0597
乗虚	-11.0597
七祖父母	-11.0599
自作	-11.0603
鍊化	-11.0604
無我	-11.0605
或因	-11.0607
曝	-11.061
居人	-11.0612
上京	-11.0613
目前	-11.0614
捨身	-11.0615
殺害衆生	-11.0615
祕之	-11.0617
之寳	-11.0619
塵世	-11.0619
一句	-11.062
王侯	-11.0621
於紫極	-11.0623
速逹俓御太上无極大道至眞玉皇上帝	-11.0626
籟	-11.0627
炁吹之	-11.0628
懲	-11.0631
𧷤	-11.0631
信向	-11.0631
飲酒食肉	-11.0633
九祖七玄	-11.0635
先據	-11.0636
在乎	-11.0637
蕆	-11.0637
眩	-11.0638
恵	-11.0638
種植	-11.0638
名諱	-11.0639
不待	-11.064
娑	-11.0641
千乗萬騎	-11.0641
靈化梵輔天	-11.0641
宦	-11.0641
紛紛	-11.0643
今以至心回向大道歸依天帝委命至眞	-11.0643
以舌	-11.0643
皁	-11.0643
璣	-11.0643
扃	-11.0644
門下君一人官將百二十人上請天曹勑	-11.0644
纓	-11.0644
溟泠	-11.0644
茯苓	-11.0644
甦	-11.0644
香官使者	-11.0644
冨貴	-11.0644
諶姆	-11.0644
次念	-11.0644
懺	-11.0645
岐	-11.0645
矩	-11.0645
遙	-11.0645
先存	-11.0645
丘陵	-11.0645
綍	-11.0645
某誠惶誠恐稽首頓首再拜上言	-11.0645
願諸凡夫	-11.0646
徙	-11.0646
踰	-11.0647
洋洋	-11.0647
炷香	-11.0647
具位姓某狀申申	-11.0648
凝玄	-11.0648
思念無量普得	-11.0648
檢校	-11.0649
太上玉經隱注曰	-11.065
十餘里	-11.065
鋪設	-11.0652
煥赫	-11.0652
供給	-11.0655
咸歸	-11.0655
知磬	-11.0656
溟泠大神	-11.0657
清信	-11.0657
遭遇	-11.0658
鬱秀	-11.0658
散景	-11.0659
洎乎	-11.0659
充盈	-11.066
節度	-11.066
九鍊	-11.066
存心	-11.0662
碧霄	-11.0664
大哉	-11.0665
晨夕	-11.0667
聽受	-11.0669
手把	-11.0669
不依	-11.067
南辰	-11.0671
歷代	-11.0671
迎祥	-11.0672
客塵	-11.0673
生育	-11.0674
江南	-11.0674
具法位臣	-11.0675
不住	-11.0675
穢濁	-11.0676
謹齎	-11.0677
諸將	-11.0678
提封	-11.0681
眞境	-11.0683
恭望聖慈允兹申請特降聖㫖	-11.0684
景雲	-11.0685
白衣	-11.0685
玄師前	-11.0685
朝拜	-11.0685
伏尸	-11.0687
訟訴	-11.0689
某日夜	-11.0691
禳災	-11.0691
散華	-11.0692
之區	-11.0694
非我	-11.0694
出壇	-11.0696
周行	-11.0696
十遍	-11.0697
顔色	-11.0698
之因	-11.0699
二官直使正一功曹左右官	-11.0699
重請	-11.07
威嚴	-11.0703
三啓三禮	-11.0703
對揚	-11.0704
諸天大聖	-11.0704
飛鳥	-11.0705
交泰	-11.0706
上件	-11.0706
下觀	-11.0708
與臨壇官衆等謹重誠上啓	-11.0709
髙拱	-11.071
老君曰	-11.071
百昌	-11.0711
離宫	-11.0714
周遍	-11.0716
臣學道得道求仙得仙齋主受福幽顯	-11.0717
平生	-11.0719
昭然	-11.0719
於人間	-11.0721
斬之	-11.0724
謂曰	-11.0726
真王	-11.0727
無上三天	-11.0727
筋骨	-11.0727
畢乃	-11.0728
之結	-11.0729
靈妃	-11.0731
止於	-11.0733
並願	-11.0737
宿對	-11.0739
地分	-11.0742
神寳	-11.0742
安靜	-11.0742
具奏	-11.0744
林木	-11.0746
恭啓	-11.0748
賛化	-11.0751
三毒	-11.0752
咸蒙	-11.0752
之變	-11.0753
之願	-11.0754
召䰟	-11.0756
右目	-11.0756
問道	-11.0757
次願	-11.0764
者其	-11.0765
高上	-11.0766
徃徃	-11.0768
何不	-11.0769
大火	-11.0771
穢慢	-11.0773
洞映	-11.0773
䟽云	-11.0778
各稱法位	-11.0778
主吏	-11.0779
猶在	-11.0781
普施	-11.0782
保安	-11.0782
不容	-11.0782
齋官某	-11.0783
辰巳	-11.0788
結形	-11.0789
罪簿	-11.0789
歳星	-11.0794
崇修	-11.0795
時刻	-11.0796
今故	-11.0797
有災	-11.0797
命終	-11.0798
障難	-11.0799
五香	-11.0799
海龍王	-11.08
非其	-11.0804
科品	-11.0804
一切神靈	-11.0806
隨力	-11.0806
終劫	-11.0807
不全	-11.0808
聖胎	-11.0808
生命	-11.0808
奉經	-11.0808
拔出	-11.0809
雲臺	-11.0811
此地	-11.0813
諸應	-11.0813
護命	-11.0813
上答	-11.0818
縣城隍	-11.0819
還元	-11.082
福祉	-11.0821
希夷之	-11.0825
也但	-11.0827
囂	-11.0831
不得與	-11.0835
七氣	-11.0837
玉精	-11.0838
祕訣	-11.0842
邪氣	-11.0843
啓聖	-11.0845
十二年	-11.0846
萬縁	-11.0849
玉皇大天尊玄穹髙上帝	-11.085
妖惡	-11.085
未至	-11.085
頂上	-11.0852
以是	-11.0853
其福	-11.0853
天衣	-11.0855
寄籍	-11.0856
消平	-11.0856
正教	-11.086
宫左	-11.086
變通	-11.0866
道經	-11.0867
下濟	-11.0868
聲色	-11.0873
南華	-11.0876
聖像	-11.0878
二十九	-11.0879
不止	-11.088
次讀	-11.088
黄色	-11.0883
章一通	-11.0888
平復	-11.089
仙飛	-11.0891
相次	-11.0892
應干合屬去處	-11.0903
難言	-11.0903
一合來下	-11.0905
九幽拔罪天尊	-11.0911
霽	-11.0911
人身中	-11.0911
追魂攝魄	-11.0912
司命君	-11.0913
在下	-11.0915
位列	-11.0915
坐起	-11.0915
不當	-11.0917
歩斗	-11.0917
如願	-11.0918
禮經	-11.0919
以告	-11.0922
清微天	-11.0924
杵	-11.0926
世有	-11.093
太玄都省	-11.0932
與諸	-11.0932
隱形	-11.0933
脣	-11.0936
見於	-11.0936
飛光	-11.0941
天心正法	-11.0941
祠宇	-11.0942
潛	-11.0942
譯	-11.0943
隳	-11.0945
肌膚	-11.0945
茍	-11.0945
賷	-11.0945
欄	-11.0946
米一石二斗	-11.0946
宫左府主生太陽火官	-11.0947
衆誦	-11.0948
玄母	-11.0948
喝	-11.0949
儉	-11.0949
旻	-11.0949
徇	-11.0949
敘	-11.095
㗸	-11.095
曇	-11.095
敞	-11.095
墠	-11.0951
逞	-11.0951
上官典者	-11.0952
貪慾	-11.0952
孤魂滯魄	-11.0953
覊	-11.0953
厖	-11.0954
曹太玄上元	-11.0954
芹	-11.0954
上境	-11.0954
霑恩	-11.0955
兩眉間	-11.0955
必須	-11.0955
遨	-11.0955
今以至心回向大道歸依土皇委命至眞	-11.0956
諂	-11.0956
彫	-11.0956
渙	-11.0956
自作教他心生口語	-11.0957
恭願	-11.0957
枷	-11.0957
際天尊志心敬禮功徳海天尊志心敬禮	-11.0957
駟	-11.0957
笏	-11.0957
氐	-11.0957
某嶽先生	-11.0957
光八衝迸威包羅交變萬方	-11.0957
忿	-11.0958
翦	-11.0958
七世父母	-11.0958
丹靈朱火炎霞激風赤輪剛運天	-11.0958
誠惶誠恐	-11.0958
麒麟	-11.0958
伊	-11.0958
嗔怒	-11.0958
寳光以爲	-11.0958
滑	-11.0958
海中	-11.0958
搏	-11.0959
璀璨	-11.0959
軿頌	-11.0959
韞	-11.0959
時刻升遷	-11.0959
雉	-11.096
繡衣	-11.096
什	-11.096
首尾	-11.096
南極長生大帝	-11.096
無益	-11.0961
上造	-11.0961
元陽經	-11.0962
監度	-11.0962
樓閣	-11.0962
恐怖	-11.0962
上書	-11.0962
攘	-11.0963
勑制地祇	-11.0963
腰帶	-11.0963
宣詞按如詞言	-11.0964
去離	-11.0964
鼻中	-11.0964
伏惟陛下	-11.0964
帝天中神仙和諸靈官伏聞	-11.0964
二千	-11.0964
紀羣靈裁成萬化今有某精心扣地稽首	-11.0965
壇而法象神輝𤑔香彛而關通帝闕歸命	-11.0965
忠貞	-11.0966
長一尺二寸	-11.0966
玊京	-11.0967
解𡨚釋結	-11.0968
勛	-11.097
服符	-11.097
妄語	-11.0972
長九寸	-11.0972
銀漢	-11.0972
官僚	-11.0972
郡縣	-11.0973
拯救	-11.0974
飛天使者	-11.0975
銷平	-11.0975
無停	-11.0975
大聖元始天尊	-11.0977
詞㫖	-11.0978
洗蕩	-11.0981
邪淫	-11.0982
左右捧香驛龍騎吏侍香金童傳言散花	-11.0983
有病	-11.0983
慧力	-11.0984
學上道	-11.0985
伏屍	-11.0985
无極世界	-11.0986
未審	-11.0988
爲國	-11.0988
開道	-11.0989
長生保命天尊志心敬禮	-11.099
禱祝	-11.0991
帝諱	-11.0991
丹衷	-11.0994
不差	-11.0994
簡書	-11.0997
九思	-11.0997
皈神	-11.1002
符焚	-11.1004
凌空	-11.1006
轉此經	-11.1006
於黄混	-11.1008
行道之所自然生金液丹碧芝英百靈衆	-11.1008
色如	-11.1008
日直	-11.1009
毒藥	-11.101
飛天神人曰	-11.1012
君名	-11.1013
京師	-11.1018
輔星	-11.1018
下情無任	-11.1018
五雲	-11.1022
辟非	-11.1026
玉輿	-11.1026
太真	-11.1028
飛華	-11.1039
明眞科	-11.1039
降於	-11.104
沉魂	-11.1041
自已	-11.1044
燈圖	-11.1047
十枚	-11.1047
常樂	-11.1047
元綱	-11.1049
九族	-11.105
飛霄	-11.1052
仙仗	-11.1053
須延	-11.1054
流潤	-11.1055
德得道之後昇入無形	-11.1055
幽𡨋	-11.1058
欲令	-11.1058
下通	-11.106
祈眞	-11.1061
垂科	-11.1061
養神	-11.1061
問其	-11.1064
地獄之中	-11.1064
是夕	-11.1066
三皈依	-11.1069
千枝	-11.107
郡人	-11.1071
吾身	-11.1071
太上無無至眞無上無爲大道應感	-11.1075
俯降	-11.1078
二章	-11.1081
飛流	-11.1087
玄壇天帝神君當召此間	-11.1088
四角	-11.1089
同聲	-11.1089
急急如律令右	-11.109
身死	-11.1091
佩符	-11.1095
十八年	-11.1096
生籍	-11.1097
欲使	-11.11
星斗	-11.1102
照㑹	-11.1103
未明	-11.1111
乾元	-11.1111
休門	-11.1111
所傳	-11.1113
色界	-11.1113
某謹焚香上啓	-11.1116
四十六	-11.1122
焚香上啓	-11.1126
見天尊	-11.1126
金花	-11.1129
七過	-11.1131
追度	-11.1132
一切神明	-11.1134
復位	-11.1134
消亡	-11.1136
道恩	-11.1136
北方黒帝	-11.114
清微之	-11.114
是何	-11.1141
形儀	-11.1143
金房	-11.1144
道妙	-11.1144
矣故	-11.1144
至眞無極大道	-11.1153
結氣	-11.1155
九河	-11.1156
聖朝	-11.1157
玄範	-11.1157
法筵	-11.1159
春分	-11.116
二十四神	-11.1163
北極紫微大帝	-11.1164
觀於	-11.1165
霍山	-11.1166
五官	-11.1167
自消	-11.1169
特乞	-11.117
七分	-11.1171
七尺	-11.1174
少女	-11.1177
清旦行道	-11.1177
九鳯	-11.1181
吐氣	-11.1182
玉龍	-11.1187
山精	-11.119
積罪	-11.1191
四人	-11.1191
乙卯	-11.1192
今得	-11.1197
七宿	-11.1198
輝煥	-11.1202
天篆	-11.1206
隂之炁	-11.1207
所冝	-11.1207
此等	-11.1208
方丈	-11.1209
詣師	-11.1213
變食	-11.1213
錬魂	-11.1214
通感	-11.1214
風動	-11.1216
不散	-11.1217
犯者	-11.1219
日魂	-11.1222
南方火	-11.1223
崇奉	-11.1227
咽氣	-11.1229
方得	-11.1232
雲軿	-11.1234
不能得	-11.1235
青色	-11.1236
齋日	-11.1236
隱語	-11.1237
實爲	-11.1243
是我	-11.1244
對曰	-11.1247
之徑	-11.1247
服色	-11.1248
右足	-11.1248
答言	-11.125
轉輪聖王天尊	-11.1254
通章	-11.1259
懇切	-11.1261
餅	-11.1263
有得	-11.1265
稽首皈依无極大道	-11.1267
閻	-11.1268
旒	-11.1268
翮	-11.1269
悴	-11.1269
鈕	-11.1269
塊	-11.1269
南方丹	-11.127
悖	-11.1271
東嶽泰山	-11.1271
囬	-11.1272
稀	-11.1272
繕	-11.1273
濃	-11.1273
腴	-11.1273
雞犬	-11.1273
枯朽	-11.1274
勑符呪唵吽吽	-11.1274
倣	-11.1274
决	-11.1275
芥	-11.1275
悠	-11.1275
刹	-11.1276
瘴	-11.1276
價	-11.1277
流注	-11.1277
姪	-11.1277
蓊	-11.1277
賦形以來紀録黒籍厭世之後	-11.1278
輻	-11.1278
鷺	-11.1279
恭望天慈允兹奏請特降勑命	-11.1279
左玄眞人	-11.1279
萬一	-11.1279
𣑽	-11.1279
大寳	-11.128
急急如上帝勑	-11.128
奉修	-11.128
與吾	-11.128
熒煌	-11.128
三界應感一切眞靈	-11.1281
度世司馬大神好生韓君丈人	-11.1281
髙虚清明天	-11.1281
如意萬司	-11.1281
井竈	-11.1281
駿	-11.1281
醮壇	-11.1282
筌	-11.1282
以爲效信	-11.1282
五六	-11.1283
稷	-11.1283
騫樹	-11.1283
上十方香	-11.1283
漙	-11.1283
運應滅度	-11.1283
里社	-11.1283
伴	-11.1283
席一領	-11.1284
開目	-11.1284
猒	-11.1284
幕神位	-11.1284
蔕	-11.1284
陲	-11.1284
璋	-11.1284
悦	-11.1284
得此報	-11.1284
裝嚴	-11.1285
取今月某日	-11.1285
亡親某乙	-11.1285
靈寳監齋大法師眞君	-11.1286
劫仞	-11.1286
與天齊	-11.1286
今謹有黄籙大齋主某	-11.1286
无上正眞大道	-11.1287
拔度某人靈䰟	-11.1287
无上黃籙大齋	-11.1287
元始天王	-11.1288
分離	-11.1288
須至申聞者右某謹具狀申	-11.1289
冒犯聖威	-11.1289
汎景	-11.1289
糞穢	-11.129
杳㝠	-11.1292
披髮	-11.1292
江湖	-11.1292
降聖司	-11.1293
霽月	-11.1293
鬱單無量天	-11.1295
髙蹈	-11.1295
遠近	-11.1296
總眞王君太乙眞人東嶽上	-11.1296
鶴赦	-11.1297
霄漢	-11.1298
馨香	-11.1298
永不	-11.1298
柰何	-11.1299
徧滿	-11.1301
百脉	-11.1302
訣曰	-11.1307
三捻香	-11.131
之體	-11.1313
長庚	-11.1313
廣成先生	-11.1313
臓	-11.1313
妙義	-11.1314
沉滯	-11.1314
設禮	-11.1314
宮中	-11.1314
湛寂	-11.132
金帛	-11.1321
炁吹符	-11.1322
天帝君諱	-11.1323
閉息	-11.1324
有物	-11.1327
十分	-11.1328
相國	-11.1328
騰勝	-11.1328
護送	-11.133
紀名	-11.133
緑羅	-11.1332
仁義	-11.1333
佩帶	-11.1334
同一	-11.1336
望恩	-11.1338
衆星	-11.1338
井中	-11.1338
善神	-11.1341
六寸	-11.1342
相交	-11.1344
避之	-11.1344
墮於	-11.1344
之氣諱	-11.1345
或怒	-11.1347
者乎	-11.1351
詞旨	-11.1353
損傷	-11.1356
取人	-11.1357
産死	-11.1359
便爲	-11.1361
聞元始開圖	-11.1367
十卷	-11.1369
左手執	-11.1371
地理	-11.1374
隂府	-11.1375
背面	-11.1375
一斛	-11.1378
之塵	-11.1383
響應	-11.1384
尊貴	-11.1385
神方	-11.1388
難勝	-11.1389
一下	-11.1389
大有之	-11.1391
消散	-11.1394
護法	-11.1394
之夕	-11.1398
隂暗	-11.1402
九芒	-11.1402
八風	-11.1402
帝郷	-11.1404
幽微	-11.1405
其言	-11.1406
仰承	-11.1407
受錬更生	-11.141
善念	-11.1411
特與	-11.1412
不足以	-11.1413
必應	-11.1413
開度亡故某	-11.1413
餘慶	-11.1413
各持	-11.1416
同時	-11.1419
定志	-11.142
一切法	-11.1421
億萬衆	-11.1422
表白宣	-11.1424
蕩形	-11.1425
相歡	-11.1426
最靈	-11.1427
三惡道	-11.1428
凝結	-11.1431
天休	-11.1432
善男子眞人道士	-11.1432
慈愛	-11.1433
亦非	-11.1434
妙戒	-11.1434
關報	-11.1438
降真	-11.1442
四種	-11.1445
天尊志心朝禮常	-11.1447
凶衰	-11.1447
篆文	-11.1448
玉敕	-11.1453
未除	-11.1453
萬遍	-11.1456
曷遂	-11.1459
洞鑒	-11.1468
㝠司	-11.1469
流入	-11.1472
百福	-11.1475
梵氣	-11.1475
符簡	-11.1476
无始	-11.1478
剛風	-11.1481
真君九天	-11.1481
本行	-11.1483
延夀	-11.1485
然後可	-11.1486
道德之	-11.1487
天顔	-11.1487
之切	-11.1487
于今	-11.1492
三成	-11.1492
書云	-11.1493
千人	-11.1493
生意	-11.1496
無災	-11.1497
覺地	-11.1497
破獄符	-11.1507
上三天	-11.1509
救民	-11.1509
六神	-11.1512
金庭	-11.1517
引氣	-11.1519
太極左	-11.1524
與其	-11.1524
陽九	-11.1525
無定	-11.1527
文曲	-11.153
丹山	-11.153
陽縣	-11.1531
小童	-11.1532
某與臨壇官衆等	-11.1532
次吟	-11.1535
陽耀	-11.1537
也且	-11.1548
儀云	-11.155
沾恩	-11.1553
入火	-11.1555
辛酉	-11.1562
通於	-11.1563
太清宫	-11.1564
光風	-11.1565
禮敬	-11.1567
號爲	-11.1568
某靖	-11.1568
告下具法位	-11.1572
醋	-11.1575
調灰下	-11.1576
因果	-11.1577
旣畢	-11.1578
君三天	-11.1583
天章	-11.1583
卿雲	-11.1587
二親	-11.1587
𠋣	-11.1589
寰中	-11.1591
見諸	-11.1592
本經	-11.1592
詮	-11.1593
拭	-11.1593
嶽府	-11.1594
挈	-11.1595
成真	-11.1595
仙經	-11.1595
轄	-11.1596
三帀	-11.1596
絞	-11.1596
齋食	-11.1596
嚧	-11.1599
捻	-11.1599
血脉	-11.1601
系	-11.1601
十八日	-11.1602
白水	-11.1602
抃	-11.1602
惕	-11.1603
綉	-11.1604
撞	-11.1604
離合	-11.1604
恬淡	-11.1605
罩	-11.1605
荐	-11.1605
恚	-11.1605
䄂	-11.1606
臓腑	-11.1606
天常	-11.1606
覓	-11.1607
五月五日	-11.1607
斫	-11.1607
綏	-11.1608
幘	-11.1608
朝廷	-11.1608
名山大川	-11.1608
茫	-11.1609
瘧	-11.161
皇合眞臣某等上啓	-11.1611
快覩	-11.1611
九老仙都	-11.1611
靈貺	-11.1611
臨下	-11.1612
外物	-11.1612
混化	-11.1612
稽顙	-11.1612
湧泉	-11.1612
憚	-11.1613
掌醮司	-11.1613
憂惶	-11.1613
鏘	-11.1614
柏	-11.1614
於西	-11.1614
嗊嗃	-11.1614
螭	-11.1614
岩	-11.1614
玄一三眞人	-11.1615
恭望聖慈允茲申請	-11.1615
𡨚親平等	-11.1615
徯	-11.1616
於黄垓	-11.1617
旄	-11.1617
過去未來	-11.1617
虚妄	-11.1617
風火無停	-11.1618
三官九署	-11.1618
屏營	-11.1618
茭郭	-11.1618
六年	-11.1619
瞻天建	-11.1619
赦宥	-11.1621
諮	-11.1623
嘿	-11.1623
亡過某乙	-11.1623
虚耗	-11.1624
整肅	-11.1624
請詳前項事理疾速	-11.1624
東方無極太上靈寳天尊	-11.1625
芝蘭	-11.1625
玉暦	-11.1628
延齡	-11.1629
符圖	-11.163
因此	-11.163
生津	-11.1631
暗曜	-11.1632
瓊闕	-11.1633
凡夫衆生	-11.1634
潔淨	-11.1636
天罡大聖	-11.1637
逆順	-11.1642
儼然	-11.1642
部衛	-11.1643
呪咀	-11.1644
宴坐	-11.1645
先須	-11.1646
青玄上帝	-11.1647
焚燒	-11.1647
玉磬	-11.1647
名香	-11.1649
業障	-11.165
壇塲	-11.165
業網	-11.1652
皆成	-11.1653
開具	-11.1653
司禁	-11.1655
塵寰	-11.1656
舜日	-11.1658
道德經	-11.1658
消愆	-11.1659
以授	-11.1659
無形和與道合眞	-11.166
而容與	-11.1664
而起	-11.1665
瓊輪	-11.1665
開祥	-11.1667
帝座	-11.1668
北魁玄範府	-11.1668
圓象	-11.1669
曲映	-11.1669
造像	-11.167
七百	-11.167
普化	-11.167
上中下	-11.1672
在㑹係薦	-11.1673
仙都山	-11.1673
使者隂陽神決吏科車赤符吏剛風騎置	-11.1674
小有	-11.1674
八節日	-11.1675
道俗	-11.1675
不知所	-11.1676
赤光	-11.1678
心腎	-11.1678
傷害	-11.1679
六銖	-11.168
醮位	-11.1682
侍職	-11.1682
照破	-11.1682
下映	-11.1682
鳳篆	-11.1683
不許	-11.1684
宰輔	-11.1686
月建	-11.1687
閉口	-11.1689
妙有之	-11.1689
塵垢	-11.169
同志	-11.1691
奏事	-11.1692
官將吏兵	-11.1694
九軌	-11.1696
清潔	-11.1697
雷火	-11.1698
依依	-11.1701
犯觸	-11.1703
亡爽	-11.1704
魔精	-11.1704
十餘人	-11.1706
易失	-11.1708
無違	-11.1708
云此	-11.1708
登道岸	-11.171
福基	-11.171
之東	-11.1711
未兆	-11.1713
恩惟	-11.1713
斗訣	-11.1713
飛奔	-11.1714
是日	-11.1716
亦以	-11.1717
所佩	-11.172
四明山	-11.1723
雲篆	-11.1723
臨時	-11.1724
定籍	-11.1728
隂景	-11.1729
所合	-11.1729
善因	-11.173
斗印	-11.1732
統制	-11.1736
升舉	-11.1737
午後	-11.1739
金格	-11.1739
積夜	-11.174
得以	-11.1741
彰於	-11.1743
念善	-11.1745
務在	-11.1746
施用	-11.1746
一忱	-11.1747
宴樂	-11.1747
之室	-11.1748
凝華	-11.1753
幽幽	-11.1753
願降	-11.1754
攝化	-11.1755
荷恩	-11.1756
前身	-11.1757
三合	-11.1758
豈非	-11.1758
入門	-11.1764
萬帝	-11.1765
轉誦	-11.1765
弼星	-11.1766
十方大聖	-11.1767
名之爲	-11.1769
者名爲	-11.1773
石上	-11.1774
俱㑹	-11.1774
並在	-11.1776
誠心	-11.1777
某事	-11.1777
丙子	-11.1778
八者	-11.1782
九隂	-11.1783
耳若	-11.1784
德得道之後	-11.1784
日近	-11.1784
前愆	-11.1785
十種	-11.1786
煥映	-11.1789
方懴	-11.1791
狀至	-11.1791
以示	-11.1792
䖍恭	-11.1793
聖造	-11.1794
萬種	-11.1795
第十一	-11.1795
復次	-11.1797
每日	-11.1798
在壇	-11.1798
在右	-11.1808
脾神	-11.1812
王母	-11.1812
明真	-11.1813
委炁	-11.1816
諸弟子	-11.1818
式至	-11.1819
難得	-11.1823
各宜	-11.1825
不問	-11.1825
文檄	-11.1827
矣又	-11.1828
皆在	-11.1829
中篇	-11.1832
修黄籙	-11.1834
也言	-11.1836
十六字	-11.1836
星光	-11.1836
都曹	-11.1841
三斤	-11.1842
朝奏	-11.1843
味甘	-11.1844
科典	-11.1845
百官	-11.1851
一函	-11.1853
朱陽	-11.1854
皇太子	-11.1856
人僞	-11.1856
不亦	-11.1856
寸二分	-11.1861
真光	-11.1862
關發	-11.1869
生滅	-11.1869
赤龍	-11.1871
雲車	-11.1873
以制	-11.1873
列於	-11.1884
齋修	-11.1895
死之訟訴其	-11.1898
妙行	-11.1904
畫一	-11.1905
願以是功德	-11.1906
五十七	-11.1909
午朝行道	-11.1909
或是	-11.1912
天尊告曰	-11.1912
上景	-11.1914
滿口	-11.1918
空虚	-11.1921
道契	-11.1923
晚朝陞壇行道	-11.1924
信道	-11.1925
志切	-11.1925
風扇	-11.1927
之物或盜	-11.1928
列名	-11.193
釜	-11.1931
曹靈官	-11.1934
明鏡	-11.1936
縫	-11.1936
中黃	-11.1939
古人	-11.1939
戒勿	-11.1941
无上黃籙大齋立成儀卷之	-11.1941
香一斤	-11.1941
又存	-11.1943
所欲	-11.1943
澹	-11.1944
糞	-11.1944
玉格	-11.1945
鐶	-11.1945
薩	-11.1946
之謂也	-11.1946
立身	-11.1946
椒	-11.1947
心念	-11.1948
墉	-11.1949
蕪	-11.1949
膿血	-11.1949
堦	-11.195
虚明	-11.195
安在	-11.195
之駕	-11.1951
先以	-11.1951
綃	-11.1951
缸	-11.1951
嗽	-11.1952
奢	-11.1952
瀾	-11.1952
猥	-11.1952
五音	-11.1952
苖	-11.1953
踵	-11.1953
衿	-11.1953
撲	-11.1953
跳	-11.1953
熊	-11.1954
祿	-11.1954
瞳	-11.1954
牓	-11.1954
大元帥	-11.1954
品彚	-11.1954
隊	-11.1954
密	-11.1956
姧	-11.1956
庚子	-11.1957
其妻	-11.1957
石景水母	-11.1958
娑訶	-11.1958
跛	-11.1958
茹	-11.1958
嚮	-11.1958
玉冠衣	-11.1958
飢渇	-11.1959
褥	-11.1959
鳩	-11.1959
七變	-11.1959
汨没	-11.1959
氣候調節四運和平國安民豐普天	-11.1959
流水	-11.1959
稼穡	-11.196
以今清旦行道請法衆等運兹	-11.196
跂行一切衆生咸蒙成就八念赦	-11.196
三天大法師	-11.196
葳蕤	-11.1961
庚午	-11.1961
奎	-11.1962
杳冥	-11.1962
等身中三五功曹左右官使者	-11.1962
一如吿命	-11.1962
謳歌	-11.1962
守雄抱雌二大將	-11.1962
塘	-11.1963
卵	-11.1963
雲雨	-11.1963
菴	-11.1963
坐在立亡	-11.1963
葛仙公	-11.1964
祀典	-11.1965
𠡠	-11.1965
長㓜	-11.1965
寒冰	-11.1965
拆	-11.1965
衆等至心皈命无上自然	-11.1966
穆穆	-11.1966
十華而	-11.1966
醮神位	-11.1966
蓮座	-11.1966
懴主某伏爲	-11.1966
吴	-11.1966
二千石	-11.1967
下並有	-11.1967
九炁天君	-11.1967
誌	-11.1968
流曵	-11.1969
五帝直符	-11.1971
太漠	-11.1972
河洛	-11.1976
相好	-11.1976
州刺史	-11.1977
龍尾	-11.1978
宣呪	-11.1978
七祖生天	-11.1978
七十五	-11.1979
違律	-11.1979
瓊宫	-11.1979
之分	-11.1979
廣運	-11.1979
十首	-11.198
焚香供養	-11.1982
不畏	-11.1983
無端	-11.1984
車馬	-11.1984
之像	-11.1984
乙未	-11.1984
一百八十	-11.1985
不妄	-11.1985
某月日	-11.1986
天氣	-11.1986
素悃	-11.1987
但當	-11.1988
篇目	-11.1988
無差	-11.1989
四溟	-11.1989
辛苦	-11.199
煥彩	-11.199
某與臨壇官衆等謹同誠上啓虚无自然	-11.1993
衞護	-11.1993
如水	-11.1994
速至	-11.1994
謝恩醮	-11.1995
守之	-11.1995
破軍	-11.1995
破酆都	-11.1996
諸眞人	-11.1996
移籍	-11.1996
顧惟	-11.1997
引導	-11.1998
各禮師存念如法衞靈	-11.2001
入法門	-11.2001
辟邪	-11.2001
所主	-11.2002
一粒	-11.2003
擊之	-11.2003
養育	-11.2006
雷雨	-11.2007
洪造	-11.2007
烈火	-11.2009
髙妙	-11.201
蘭公	-11.2011
補過	-11.2011
垂休	-11.2013
寳旛	-11.2014
良善	-11.2014
上資	-11.2017
檢㑹	-11.2018
潔已	-11.2018
丹禱	-11.2019
判官地府	-11.202
天樂	-11.2021
清夷	-11.2021
樹木	-11.2022
黍米	-11.2026
左旋	-11.2026
合成	-11.2026
死入地獄	-11.2027
業道	-11.2028
醮詞	-11.2034
准此	-11.2035
散彩	-11.2036
久矣	-11.2037
故誤	-11.2039
流轉	-11.2039
堂中	-11.2039
慶㑹	-11.2042
處世	-11.2043
榮華	-11.2043
五墓	-11.2044
澄心	-11.2044
自成	-11.2045
風馳	-11.2048
炁結	-11.205
亡故	-11.2052
亦應	-11.2052
道紀	-11.2053
賜以	-11.2056
驅邪	-11.2056
塵沙	-11.2057
黄泉	-11.2058
育物	-11.2059
眞乗	-11.2059
齋者	-11.206
有能	-11.2062
珠玉	-11.2063
髙祖	-11.2064
披散	-11.2065
髙澄	-11.2066
微呪曰	-11.2069
㝠關	-11.207
性識	-11.2072
大羅天	-11.2073
玄奥	-11.2074
靜坐	-11.2076
以何	-11.2076
諸侯	-11.2078
之良	-11.2078
靈運	-11.2079
師子	-11.2081
開濟	-11.2081
洞經	-11.2082
素華	-11.2085
弟子等	-11.2089
太上之	-11.209
臨億兆任重嵩恒道慕堯舜旣纉承於大	-11.209
終日	-11.209
禮師	-11.2091
寳號	-11.2094
亥時	-11.2097
容止	-11.2098
良因	-11.2098
玉虛	-11.2099
父母兄弟	-11.2099
發放	-11.2099
神遊	-11.2099
教法	-11.21
白馬	-11.21
經緯之	-11.2102
祭之	-11.2103
同臻	-11.2107
業縁	-11.2107
如遇	-11.2108
偃月	-11.2108
禀命	-11.2109
信心	-11.2109
不忍	-11.211
束形	-11.2111
大洞眞經	-11.2112
清風	-11.2114
也於是	-11.2116
江海	-11.2118
乗光	-11.2118
雲仍	-11.2119
絶滅	-11.2122
於斯	-11.2126
眞人𡩋全眞授靈寳通玄弘教水南	-11.2127
除邪	-11.2128
增長	-11.2131
數人	-11.2135
福被	-11.2135
九天之上	-11.2139
相承	-11.214
聖教	-11.214
罪尤	-11.2141
號令	-11.2143
丹谷	-11.2143
干冒	-11.2143
一切諸	-11.2143
玉房	-11.2144
還家	-11.2145
言此	-11.2146
所化	-11.2147
日新	-11.2152
章具法位上言謹按文書	-11.2153
書曰	-11.2154
取之	-11.2159
如左	-11.216
掐訣	-11.216
陽境	-11.2162
中央黃	-11.2165
一室	-11.2165
天闕	-11.2166
返還	-11.2168
玄休	-11.217
精䖍	-11.2171
永絶	-11.2172
不愈	-11.2172
移文	-11.2176
皇壇	-11.2182
掐中指	-11.2182
受之於	-11.2184
七遍	-11.2186
鬼魔	-11.2192
當生	-11.2192
五十二	-11.2194
導從	-11.2195
助之	-11.2202
不停	-11.2203
五斤	-11.2204
來徃	-11.2205
過尤	-11.2207
之元	-11.2208
妖魔	-11.221
等皈身皈神皈命	-11.2212
丹闕	-11.2213
當知是	-11.2215
不勝激切之至	-11.2215
帝化	-11.2216
又呪	-11.2217
八願	-11.2217
丹藥	-11.2218
得爲人	-11.2218
六疾	-11.222
七徧	-11.222
返形	-11.2223
而化	-11.2224
其志	-11.2227
善男子若	-11.2228
衣裳	-11.223
是名爲	-11.2232
立降	-11.2233
十方飛天神王	-11.2235
歳月	-11.2235
入地獄	-11.2236
夙夜	-11.2241
本章	-11.2244
腎中	-11.2248
仙名	-11.2252
庶品	-11.2254
當依	-11.2256
垂衣	-11.2259
積行	-11.2262
了悟	-11.2263
失度	-11.2264
可知	-11.2266
相通	-11.2267
並與	-11.2268
禮方	-11.2269
還返	-11.227
之極	-11.2275
開度黄	-11.2276
瑞氣	-11.228
下座	-11.2281
玉皇上帝御前	-11.2283
光映	-11.2286
我當	-11.2286
痒	-11.2286
巳後	-11.2286
二百四十	-11.2286
太明	-11.2287
此章	-11.2289
緬	-11.2289
貪狼	-11.2294
雌一	-11.2295
吾言	-11.2296
詩云	-11.2297
帝車	-11.2298
迪	-11.2298
和同	-11.2299
玉山	-11.2299
唇	-11.2299
錦衣	-11.2299
裊	-11.2302
椀	-11.2302
燧	-11.2303
昔日	-11.2303
麻姑	-11.2303
凉	-11.2303
則不能	-11.2304
南嶽衡山	-11.2305
彛	-11.2305
僕射	-11.2306
驟	-11.2306
專心	-11.2307
啄	-11.2307
金木水火土	-11.2307
匣	-11.2308
俊	-11.2308
緜	-11.2309
慨	-11.2309
隙	-11.2309
羸	-11.231
泠	-11.231
孩	-11.2311
様	-11.2311
装	-11.2311
儛	-11.2311
十一日	-11.2312
地獄或入	-11.2312
在焉	-11.2312
𥙿	-11.2313
閭里	-11.2313
九宫八卦	-11.2314
驢	-11.2314
臯	-11.2314
所啓速達俓御	-11.2314
蔬	-11.2314
啗	-11.2314
北斗七星	-11.2315
榛	-11.2315
迄	-11.2315
浦	-11.2315
傑	-11.2315
絃	-11.2315
亶藉	-11.2315
舛	-11.2316
簇	-11.2316
二十八宿星君	-11.2316
毀壞	-11.2316
滄海	-11.2316
二願諸天結炁澄清髙虚廣覆保眞固靈	-11.2316
依光	-11.2316
圜扉	-11.2317
諸靈官伏聞	-11.2317
寗	-11.2317
𤑔	-11.2317
晩	-11.2318
以今午朝行道請法衆等運兹	-11.2319
照夜	-11.2319
波羅尼宻不驕樂天	-11.2319
度仙上聖天尊	-11.2319
渚	-11.2319
見聞	-11.2319
紫微上宫	-11.232
魚鼈	-11.232
方无極太上靈寶天尊	-11.232
尹喜	-11.2321
在㑹衆魂	-11.2321
懴滌	-11.2321
雨露之恩	-11.2321
蠕	-11.2322
陽燧	-11.2322
徬徨	-11.2323
頓首	-11.2323
文檄發放品	-11.2323
三業紛紜	-11.2323
癸酉	-11.2323
節度使	-11.2326
朗晏	-11.2326
好生度命天尊	-11.2327
一劫	-11.2327
丙辰	-11.2328
不備	-11.2328
度爲弟子某	-11.2329
嘉祥	-11.2329
青雲	-11.233
纒綿	-11.2331
宿綱清炁	-11.2331
殘害	-11.2332
壬申	-11.2332
頒行外	-11.2333
流景	-11.2335
青玄老君	-11.2337
幽扄	-11.2337
八緯	-11.2339
章書	-11.2341
詞伏以	-11.2342
鑒祐	-11.2344
皈向	-11.2344
周帀	-11.2345
包羅	-11.2345
玄牝	-11.2346
不顧	-11.2347
紺	-11.2349
承誥奉行	-11.235
總監	-11.235
水星	-11.235
飛裙	-11.2353
壽禄	-11.2354
玉霄	-11.2354
靈祇	-11.2355
𡨚親	-11.2355
一半	-11.2356
靈華	-11.2358
乙巳	-11.2358
臍下	-11.2359
筆硯	-11.2359
亦能	-11.236
感格	-11.236
長沙	-11.2362
視履	-11.2362
河車	-11.2362
聖功	-11.2363
泉源	-11.2364
除穢	-11.2365
明梵	-11.2365
太陽帝君	-11.2366
妙相	-11.2366
洪災	-11.2366
同何	-11.2367
一處	-11.2369
水災	-11.2371
太玄玉女	-11.2372
魔靈	-11.2372
而不能	-11.2373
良縁	-11.2373
五方五帝	-11.2374
地獄苦	-11.2377
者或有	-11.2378
録籍	-11.2379
祈雨	-11.2379
六賊	-11.238
萬古	-11.2381
卯酉	-11.2382
開闢	-11.2383
住持	-11.2385
北元	-11.2385
敷落	-11.2386
洞微髙士開光救苦真人寗全	-11.2386
也是以	-11.2386
青律	-11.2389
於中庭	-11.2391
翌日	-11.2392
黃書	-11.2392
世網	-11.2393
三聲	-11.2394
方輿	-11.2395
藏於	-11.2395
神交	-11.2398
加持	-11.2399
光普照	-11.2399
陽景	-11.2399
參賛	-11.2399
善道	-11.2402
宫主	-11.2404
地黃	-11.2404
靈景	-11.2405
華盖	-11.2406
丹陵	-11.2407
宣表	-11.2409
五辛	-11.241
降祥	-11.2411
返魂	-11.2413
三重	-11.2414
不殺	-11.2419
運動	-11.2419
既畢	-11.2419
寫經	-11.242
證無爲	-11.2422
雲開	-11.2426
廣被	-11.2427
諷誦	-11.2428
無忘	-11.2428
非可	-11.2432
收除	-11.2435
在地	-11.2437
飛爽	-11.2439
家親	-11.2439
起鎭	-11.2439
傳送	-11.2441
今有某	-11.2441
道場用	-11.2443
身外	-11.2447
混景	-11.2448
將欲	-11.2448
一通上詣	-11.245
二丈	-11.245
投於	-11.2451
正性	-11.2452
得受生	-11.2453
頂中	-11.2454
諸大衆	-11.2455
仙真	-11.2458
法象	-11.2459
書符時	-11.2459
普濟曰	-11.246
姓某狀	-11.2461
㝠心	-11.2461
五瘟	-11.2463
大慈悲	-11.2465
人欲	-11.2466
罪犯	-11.2469
炁訣	-11.2475
神仙玉女	-11.2478
七眞	-11.2479
鑒觀	-11.2479
千尋	-11.2482
何縁	-11.2483
二十四字	-11.2484
某氏	-11.2493
定録	-11.2495
法衣	-11.2496
德音	-11.2496
𡨚結	-11.25
玉清宫	-11.2501
標名	-11.2503
事訖	-11.2503
右奉	-11.2504
先當	-11.2506
玄真	-11.2506
修真	-11.251
土公	-11.2511
猶未	-11.2516
演妙	-11.2516
酒肉	-11.2518
劫數	-11.2522
道㫖	-11.2524
皆空	-11.2531
志心皈命禮	-11.2531
夜夢	-11.2533
按靈寳	-11.2533
更有	-11.2535
五種	-11.2537
宣傳	-11.2542
至德	-11.2546
一點	-11.2546
四門	-11.2548
主領	-11.255
者猶	-11.2551
持此	-11.2552
下世	-11.2552
脾中	-11.2553
歸向	-11.2553
科教	-11.2555
紫色	-11.2555
不使	-11.2559
米五斗	-11.2561
九霞	-11.2567
多福	-11.2567
安人	-11.2568
十願	-11.2568
九光之	-11.2569
經歷	-11.2572
三十七	-11.258
五十一	-11.2581
胎仙	-11.2582
三際	-11.2584
今辰	-11.2585
衣物	-11.259
尺二寸	-11.2593
超離	-11.2595
眞空	-11.2596
大謝	-11.2598
四夷	-11.2598
成矣	-11.2601
十徧	-11.2603
威制	-11.2605
之輿	-11.2605
不堪	-11.2607
南方无極太上靈寳天尊	-11.2611
/▲	-11.2612
悟解	-11.2612
髙虚	-11.2615
下提	-11.2616
誦呪	-11.2616
君内名	-11.2617
乗運	-11.2617
只用	-11.2618
承宣	-11.2619
尊奉	-11.2619
祈禱	-11.2623
玄㑹	-11.2625
九遍	-11.2631
日星	-11.2631
交合	-11.2636
菊	-11.2637
賛於	-11.2643
横死	-11.2643
運用	-11.2643
曲賜	-11.2646
應當	-11.2649
化祖師	-11.265
如雞子	-11.2653
於虚无	-11.2653
之語	-11.2654
等身中即使玄壇清淨内外成眞天	-11.2655
於水中	-11.2655
以昭宸貺干冒	-11.2656
天門炁	-11.2657
燎	-11.2659
神庭	-11.2661
胡麻	-11.2662
肺神	-11.2665
券	-11.2665
皇靈	-11.2666
都門	-11.2667
心印	-11.2668
元化	-11.2671
櫛	-11.2671
暈	-11.2671
鎮星	-11.2671
違科	-11.2671
寤	-11.2672
臥	-11.2673
㑹合	-11.2673
眸	-11.2673
幹	-11.2673
恙	-11.2673
㮣	-11.2674
清萬魔不干眞誠上徹令	-11.2674
福利	-11.2674
繪	-11.2674
頸	-11.2674
橐籥	-11.2675
泊	-11.2675
汪	-11.2676
大鬼	-11.2676
超神	-11.2676
幃	-11.2676
各領	-11.2676
穗	-11.2677
驛龍	-11.2677
世上	-11.2678
隋	-11.2678
符一道	-11.2678
遞	-11.2678
巔	-11.2679
擕	-11.268
西嶽華山	-11.268
度人无量天尊	-11.268
穢汚	-11.268
疵癘	-11.2681
瞑目	-11.2681
居家	-11.2681
蒙如丹禱	-11.2681
法戒	-11.2681
協	-11.2682
扁	-11.2683
翕	-11.2683
溟渤	-11.2683
有勑	-11.2684
派	-11.2684
無想無結無愛天	-11.2684
輯	-11.2684
四直	-11.2684
莫敢	-11.2685
百世	-11.2685
攷	-11.2685
靡法輪升七祖生天堂我身白日騰	-11.2685
不可稱量五者修心	-11.2685
得道之後升入無形	-11.2685
簽	-11.2685
金龍驛吏	-11.2686
犢	-11.2686
愚衷	-11.2686
靈寳天仙内院	-11.2686
挿	-11.2686
黄華蕩形	-11.2686
則無爲散則彌天神仙同居結友衆眞惠	-11.2686
曩	-11.2687
簷	-11.2687
門隆盛宗廟有人世生賢才十念尊受	-11.2687
措	-11.2687
虜	-11.2688
右府主死太隂水官中府主生死罪録官	-11.2688
鵬	-11.2688
砌	-11.2688
金穰	-11.2689
志心奉請	-11.2689
姻親	-11.2689
其性	-11.2689
滂	-11.2689
籖	-11.2689
潦	-11.269
金馬驛程	-11.269
兢兢	-11.269
採訪	-11.2691
三官九府百二十曹	-11.2691
空青	-11.2692
受鍊更生	-11.2692
哀愍	-11.2693
究竟	-11.2693
黙誦	-11.2693
門䦨	-11.2693
縠	-11.2694
君官將百二十人治	-11.2695
蒼蒼	-11.2696
靈靈	-11.2699
翹勤	-11.2701
係薦	-11.2701
所可	-11.2701
迷惑	-11.2701
精炁神	-11.2702
府在	-11.2702
休祥	-11.2703
謄詞	-11.2703
彼岸	-11.2704
太倉	-11.2704
專行	-11.2706
所造	-11.2707
有二種一者	-11.2707
生成之德	-11.2707
同三師狀	-11.2707
佐助	-11.2708
存殁	-11.2708
貼黄	-11.271
道慈	-11.271
汝等男女	-11.2711
敕赦	-11.2711
肘後	-11.2712
能除	-11.2714
百六十	-11.2714
遂使	-11.2715
歌詠	-11.2716
其中有	-11.2717
飛空歩虚	-11.2719
曲赦	-11.272
滅形	-11.272
燒之	-11.2721
玉陛	-11.2721
鶴駕	-11.2722
靈寳官屬	-11.2724
慈恩	-11.2724
聞知	-11.2725
不衰	-11.2725
嵩山	-11.2725
保度	-11.2727
急急如玉清	-11.2727
上至	-11.2727
毫光	-11.2728
充滿	-11.273
具位姓某謹據齋意	-11.2736
龍輿	-11.2739
疾患	-11.274
並皆	-11.274
一千二百	-11.2741
千𡨚	-11.2742
俱承	-11.2743
千妖	-11.2745
五藴	-11.2749
樓觀	-11.275
瞻仰	-11.2751
青編	-11.2751
校定	-11.2751
年限	-11.2752
金鼎	-11.2753
罪對	-11.2753
無形無名	-11.2756
佐理	-11.2756
殿下	-11.2756
大上	-11.2756
學道者	-11.2758
玉都	-11.2758
鐘磬	-11.2759
玉晨君	-11.2759
雲錦	-11.276
月十三日	-11.2761
吳君	-11.2762
黄素曰	-11.2763
謹據	-11.2764
欣慶	-11.2764
高功	-11.2766
旬日	-11.2767
玉京之	-11.2768
吞服	-11.2769
之奥	-11.2772
遠離	-11.2772
帝恩	-11.2772
說之	-11.2772
炁布入	-11.2773
丈夫	-11.2774
同太陽	-11.2778
殺傷	-11.2778
赤天中	-11.2779
一切眷屬	-11.2783
鬼魅	-11.2783
明皇道君	-11.2784
俱登	-11.2786
洞輔	-11.2786
親縁	-11.2787
青霄	-11.2788
志願	-11.2794
玄精	-11.2794
除愈	-11.2795
其實	-11.2795
仁壽	-11.2797
普被	-11.2797
流吹	-11.2798
以付	-11.2802
而為	-11.2804
頒宣	-11.2805
臣下情無任激切之至謹奉表奏以聞	-11.2808
三十三	-11.2809
建功	-11.281
坤宫	-11.2813
蒙惠	-11.2816
疫病	-11.2817
也所以	-11.2818
髙士	-11.2819
宿業	-11.2824
廣布	-11.2828
令我	-11.2831
元景	-11.2836
玄造	-11.2841
忽聞	-11.2846
塜訟	-11.2851
自新	-11.2851
出戸	-11.2856
所薦	-11.2856
執簡	-11.2856
痛主	-11.2859
備足	-11.286
歸眞	-11.2865
開朗	-11.2866
玉泉	-11.2866
寅文	-11.2866
縣令	-11.2866
來朝	-11.2867
盟言	-11.2868
今齋主	-11.2875
金寳	-11.2878
周備	-11.2879
於下土	-11.2882
今屬	-11.2884
有截	-11.2886
本壇奉爲	-11.2887
了了	-11.2887
念呪七徧	-11.2889
若復	-11.289
外封	-11.2892
子能	-11.2894
等皈身皈神皈命首體投地仰依太上三	-11.2896
牌位	-11.2897
勞苦	-11.2898
季主	-11.2899
誰能	-11.2902
浮雲	-11.2905
試之	-11.2908
太上符命	-11.2909
法體	-11.291
隨運	-11.2911
若遇	-11.2912
齋誠	-11.2913
尊重	-11.2914
青林	-11.2916
妙藥	-11.292
五華	-11.2924
施食	-11.2925
安貞	-11.2925
靈寳玉鑑卷之	-11.293
難思	-11.2932
永息	-11.2934
六丁玉女	-11.2936
分布	-11.2938
朱丹	-11.2938
也所謂	-11.2947
得長生	-11.2947
黃精	-11.2947
月朔	-11.2948
所祈	-11.295
詞伏聞	-11.2952
癸亥	-11.2952
在外	-11.2954
八年	-11.2955
中央黄帝	-11.2959
未易	-11.2961
憂懼	-11.2961
住於	-11.2963
祝願	-11.2965
明徹	-11.2968
獄吏	-11.297
災禍	-11.297
五毒	-11.2973
魂爽	-11.2975
玉勑	-11.2981
積惡	-11.2993
一石	-11.2994
容與	-11.2999
激切之至	-11.2999
不可稱量九者遣情	-11.3003
惡逆	-11.3005
弘濟	-11.3005
司官吏	-11.3007
乞垂	-11.3007
勸人	-11.3011
玄班	-11.3014
不飢	-11.3015
左腎	-11.3016
護國	-11.3018
謹封	-11.3019
飛天神人	-11.3023
爽靈	-11.3023
更願	-11.3024
雲擁	-11.3027
五累	-11.303
告成	-11.303
輕傳	-11.3036
三元君	-11.3037
歸身	-11.3037
千歳	-11.3038
云是	-11.3038
也問	-11.3038
降流	-11.3038
法味	-11.304
次發	-11.3043
當須讃歎	-11.3043
生神寳符	-11.3045
見有皇后	-11.3046
妹	-11.305
造罪	-11.3052
憤	-11.3053
徐徐	-11.3053
玉醴	-11.3053
拓	-11.3055
不可稱量八者飾身	-11.3055
册	-11.3055
茭	-11.3056
召十方	-11.3057
滄	-11.3057
不假	-11.3057
爪	-11.3058
轂	-11.3058
猪	-11.3058
鄷都	-11.3059
嗔恚	-11.3059
瘦	-11.3059
捨身受身	-11.306
惒	-11.306
圵	-11.3062
鎚	-11.3062
部尚書	-11.3063
僅	-11.3064
巍峩	-11.3064
筞	-11.3064
鴛	-11.3064
咽液三過	-11.3064
黍稷非馨	-11.3065
沭	-11.3065
諠	-11.3066
東方八天	-11.3066
醮官	-11.3066
巾笥	-11.3066
萬彚	-11.3066
混合爲一	-11.3066
瑛	-11.3066
以今清旦行道請法衆等運茲	-11.3066
遡	-11.3067
謹牒	-11.3067
伯叔兄弟	-11.3067
青龍白虎朱雀玄武	-11.3067
膳	-11.3067
燁	-11.3067
泝	-11.3068
當此之時	-11.3068
北隂酆都大帝	-11.3068
暨	-11.3068
業每省惕於眇躬道俗凌夷淳化難振隂	-11.3069
爕理	-11.3069
不可稱量七者精進	-11.3069
九靈飛歩	-11.3069
叩齒二十四通	-11.3069
太上曰復有十種	-11.3069
不可稱量六者善業	-11.3069
青牙	-11.3069
飛浮元始集神天地交周	-11.307
不仁	-11.307
腥穢	-11.307
彗孛	-11.307
兀	-11.307
黄籙簡文	-11.3071
司命六神	-11.3071
田疇	-11.3071
漲	-11.3071
好生韓君丈人	-11.3071
碍	-11.3072
螻蟻	-11.3072
三途五苦	-11.3072
叩齒七通	-11.3072
君五人官將百二十人	-11.3072
兠	-11.3072
柔弱	-11.3072
昌熾	-11.3073
疾除罪簿	-11.3073
債訟	-11.3073
淡泊	-11.3073
翩翩	-11.3073
桑麻	-11.3073
出堂頌引至幕謝師	-11.3073
三業六根	-11.3074
以今清旦陞壇行道請法衆等運兹	-11.3074
華果	-11.3074
神將吏兵	-11.3074
玉寳皇上天尊	-11.3074
矜憐	-11.3075
宗祧	-11.3075
凾	-11.3075
傳戒	-11.3076
恤	-11.3076
芝草	-11.3077
摧毀	-11.3077
㵸	-11.3077
戊午	-11.3078
燈光	-11.3078
无鞅	-11.3079
一者智慧	-11.308
束帶	-11.308
辰時	-11.308
乙亥	-11.308
踊	-11.3081
城郭	-11.3081
瑩徹	-11.3081
疼痛	-11.3083
三元八節	-11.3084
列仙傳	-11.3086
邪祟	-11.3086
何時	-11.3086
上清靈寳	-11.3087
北極大帝	-11.3087
現於	-11.3088
攝書符	-11.3088
催召	-11.3088
降聖	-11.3089
獨峯	-11.3089
不斷	-11.3091
超邁	-11.3092
昏迷	-11.3093
枝葉	-11.3093
家宅	-11.3095
之禱	-11.3095
歡呼	-11.3097
洒淨	-11.3097
玉清寳籙	-11.3098
有二種	-11.3098
瑶臺	-11.3098
他生	-11.3099
升壇行道	-11.3101
憲章	-11.3103
雲霄	-11.3103
含光	-11.3103
上逹	-11.3104
何如	-11.3106
天下人民	-11.3106
方无極世界一切	-11.3107
迴旋	-11.3109
仙妃	-11.3109
不壞	-11.3109
幽精	-11.311
兩邊	-11.311
直符直事	-11.3111
玄象	-11.3113
方无極飛天神王長生大聖无量度人君	-11.3113
妖邪	-11.3115
四梵	-11.3116
兵吏	-11.3118
仙山	-11.3118
宫商	-11.3119
羅網	-11.3119
專爲	-11.312
死罪	-11.3124
宿愆	-11.3127
山澤	-11.3131
與道合	-11.3131
種親	-11.3132
昭祐	-11.3134
太常	-11.3134
茅山	-11.3135
玄洲	-11.3137
流煥	-11.3137
大殿	-11.3139
關聞	-11.3139
三十六獄	-11.3139
凡伸	-11.3141
欣然	-11.3143
除差	-11.3143
爲人所	-11.3146
帝祚	-11.3148
二十年	-11.3149
外壇	-11.3149
燈照	-11.315
疑其	-11.3151
聖夀	-11.3151
髙厚	-11.3151
罡風	-11.3153
罪苦	-11.3154
宫宅	-11.3158
混凝	-11.3159
髙奔	-11.3159
俄頃	-11.3161
仍以	-11.3162
除災	-11.3163
昌期	-11.3163
紅光	-11.3167
石壁	-11.3167
本根	-11.3168
衆真	-11.317
據齋意	-11.3171
用黄	-11.3173
親姻	-11.3173
開導	-11.3173
一如告命右	-11.3177
災期	-11.3179
備守	-11.3179
玉宇	-11.3182
虔誠	-11.3185
衆邪	-11.3185
孫子	-11.3186
開函	-11.3187
在㑹	-11.3191
九真	-11.3193
建節	-11.3193
洞達	-11.3193
一疋	-11.3197
聚炁	-11.3197
幽路	-11.32
執職	-11.3205
消息	-11.3206
午朝陞壇行道	-11.3212
拔苦	-11.3215
師父	-11.3216
闕七寳玄臺紫微上宫靈寳至	-11.3218
鼻引	-11.3219
陽華	-11.322
傳受	-11.322
寳祕	-11.322
萬妄	-11.3226
始素	-11.3226
受籙	-11.3228
東斗	-11.3231
畢矣	-11.3231
垂鑒映	-11.3232
靈圖	-11.3234
四序	-11.3235
非由	-11.3235
於家庭	-11.3238
枉死	-11.3238
爾乃	-11.324
極樂	-11.324
七返	-11.3248
追魂使者	-11.3251
殿堂	-11.3253
勤勞	-11.3254
宣衛靈呪	-11.3256
觀之	-11.3257
豈有	-11.3259
千靈	-11.326
無疑	-11.3261
彼我	-11.3261
樹下	-11.3263
三十年	-11.3266
不傷	-11.3266
隨我	-11.3267
得失	-11.3267
梅仙	-11.3269
要訣	-11.327
爲某家	-11.3272
无上三天玄元始三炁太上道君召出	-11.3275
寳藏	-11.3279
紀字	-11.3287
物物	-11.3289
治罪	-11.329
下賤	-11.3294
亦不可	-11.3297
龍圖	-11.3301
修學	-11.3306
仙公曰	-11.3306
不爾	-11.3307
十三年	-11.3313
壇席	-11.3314
萬騎	-11.3315
如此者	-11.3316
罪報	-11.3316
三寳前	-11.3318
丹成	-11.332
惡口	-11.3322
九品	-11.3324
五戒	-11.333
斬鬼	-11.333
安坐	-11.3331
犯戒	-11.3334
兩半	-11.3336
案前	-11.3338
魔鬼	-11.3341
黃籙齋	-11.3341
五十六	-11.3341
山海	-11.3342
内鍊	-11.3343
帝師	-11.3343
朱書符	-11.3351
官將百二十人	-11.3356
斗口	-11.3356
惡事	-11.3357
眞機	-11.3357
在其中	-11.3357
通逹	-11.3358
之主宰	-11.3359
他方	-11.3361
聖威	-11.3364
隨行	-11.3368
各安	-11.337
百二十曹	-11.3371
專爲齋主	-11.3373
微言	-11.3375
主録	-11.3378
而弗	-11.3382
恩惟太上	-11.3383
家先	-11.3387
天工	-11.3388
諸功德	-11.3393
本靖官將	-11.3394
遣使	-11.3394
臣不勝	-11.3396
鬼律	-11.3399
彼此	-11.3407
獲罪	-11.3414
按玄科	-11.3414
仙境	-11.3415
仁慈	-11.3415
悉歸	-11.342
各異	-11.342
恭奉	-11.3425
㕹	-11.3427
謹言	-11.3428
合㑹	-11.3429
陶形	-11.343
主司	-11.3432
至心稽首禮玄中大法師重稱法位具位	-11.3433
者蓋	-11.3434
筆墨	-11.3434
夜府	-11.3435
臨午	-11.3436
瑶光	-11.3439
瀑布	-11.3443
頰	-11.3444
無限	-11.3444
普使	-11.3446
䑓	-11.3447
枷鎖	-11.3447
西極	-11.3448
志心歸命	-11.3452
鬚	-11.3452
垂精	-11.3453
姤	-11.3455
膚	-11.3455
半斤	-11.3456
炙	-11.3456
具嚴	-11.3457
两	-11.3458
噠	-11.3459
人不能	-11.3459
离	-11.3459
黯	-11.346
蜂	-11.3461
錢一千二百文	-11.3461
抛	-11.3461
謹爲上請	-11.3462
尾閭	-11.3462
淘	-11.3463
昩	-11.3463
榻	-11.3463
之時也	-11.3463
甎	-11.3464
幽閉	-11.3464
摺角封	-11.3464
迢迢	-11.3465
惚	-11.3465
以今晚朝陞壇行道請法衆等運兹	-11.3466
萬炁齊仙	-11.3466
硤石	-11.3466
撿	-11.3466
巵	-11.3466
无量无邊	-11.3466
潮	-11.3467
攬	-11.3467
鷹	-11.3467
𢢽	-11.3467
弩	-11.3468
隷	-11.3468
沓	-11.3468
蹟	-11.3468
梨棗	-11.3468
蕭臺	-11.3469
莅止	-11.3469
不可稱量何等爲十種	-11.3469
不可稱量四者行功	-11.3469
不可稱量二者慈悲	-11.3469
虹橋	-11.3469
徹視	-11.3469
不勝䖍禱之至	-11.347
灌漑	-11.347
虹霓	-11.347
鵲	-11.347
鵠	-11.347
法天象地	-11.347
搖	-11.347
最爲第一	-11.347
生慳貪心或見	-11.3471
混元玉札	-11.3471
颺	-11.3471
艾	-11.3471
寂寞	-11.3471
仇讎	-11.3471
燒香散華	-11.3471
戊寅	-11.3472
臟腑	-11.3472
謹爲黃籙大齋主某	-11.3472
九天諸司眞君天曹諸司眞君	-11.3472
凡有皈投	-11.3472
溟濛	-11.3472
寧一普天興昌六願四時隨節推遷景	-11.3472
栢庭	-11.3472
賁	-11.3472
盪	-11.3473
燦爛	-11.3473
瘁	-11.3473
清凉	-11.3473
危厄	-11.3473
禎貺	-11.3473
松蘿	-11.3474
四炁朗清	-11.3474
白帝侍魄	-11.3474
風雨均調	-11.3474
廣寒	-11.3475
簾櫳	-11.3475
錐	-11.3475
誇	-11.3475
甄陶	-11.3475
𠜍	-11.3475
班聮	-11.3475
宿命讃	-11.3476
太上三尊願以是功徳皈流	-11.3476
殄滅	-11.3477
東嶽天齊大生仁聖帝志心朝禮	-11.3477
魏夫人	-11.3478
則無以爲	-11.3478
廪	-11.3478
十一曜	-11.3479
濯質	-11.348
念呪曰	-11.348
江水帝	-11.348
生天寳籙	-11.348
惡對罪根	-11.3481
同慶	-11.3481
干冐	-11.3481
驚懼	-11.3482
無鞅	-11.3482
度品南宫	-11.3482
賦質	-11.3482
庚寅	-11.3483
上聖髙眞	-11.3483
見有賢者	-11.3483
唵吽吒唎	-11.3484
莫大於	-11.3485
考訟	-11.3485
殯	-11.3485
停酸	-11.3485
六戊	-11.349
䇿役	-11.349
以今奉爲	-11.349
𥙷過	-11.349
正眞三寳	-11.349
三捻上香願此香	-11.3491
建齋之所自然生金液丹碧芝英百靈衆	-11.3493
障累	-11.3493
神寳君	-11.3495
朱顔	-11.3495
豁然	-11.3495
清蕩	-11.3496
慾海	-11.3496
最勝	-11.3497
妙樂眞人	-11.3498
曷克	-11.3499
年若干	-11.3499
盟誓	-11.35
補職	-11.35
推移	-11.35
宣讀	-11.35
昇眞	-11.3501
夢想	-11.3501
𡨚憎	-11.3501
墮落	-11.3502
赦拔	-11.3502
河漢	-11.3503
上三尊願以是功德上祝皇帝陛下伏願	-11.3504
賢良	-11.3504
牛頭	-11.3506
大㑹	-11.3506
清虛	-11.3508
殊不知	-11.3509
恪祈	-11.351
證誓	-11.351
玉珮	-11.3511
尊帝	-11.3512
産魂	-11.3512
救苦真人	-11.3513
齎持	-11.3514
祕典	-11.3514
工夫	-11.3515
列位眞人	-11.3515
急急如律令右符	-11.3515
慎之	-11.3516
罪網	-11.3518
紫烟	-11.3522
三官五帝	-11.3523
火沼	-11.3525
侍香金童傳言玉女	-11.3525
地久	-11.3526
天廷	-11.3526
備嬰	-11.3528
不勝激切	-11.3529
削過	-11.353
玄圃	-11.3537
雷動	-11.3541
訣云	-11.3543
水盂	-11.3543
本命之日	-11.3544
守衛	-11.3545
萬範	-11.3547
訾毀	-11.3547
三聞經	-11.3549
擇日	-11.3549
禄位	-11.355
禀生	-11.355
錬魄	-11.3552
貪著	-11.3552
相續	-11.3556
端凝	-11.356
兵將	-11.3561
制御	-11.3562
難窮	-11.3562
列曜	-11.3566
旣徃	-11.3566
月八日	-11.3566
歸仁	-11.3568
斯人	-11.357
引䰟	-11.3576
西城	-11.3577
禄存	-11.3577
妄言	-11.3579
永脫	-11.3583
華房	-11.3584
免離	-11.3589
殃注	-11.3589
黒簡	-11.3589
像設	-11.3592
穢惡	-11.3593
作如是	-11.3596
正化	-11.3599
金陵	-11.3601
丘山	-11.3604
者死入	-11.3608
南宮	-11.3612
交通	-11.3613
厚地	-11.3614
其要	-11.3614
存月	-11.3616
福源	-11.3616
之義也	-11.3616
靜夜	-11.3617
左右班	-11.3619
伏藏	-11.3622
紫素	-11.3623
太白星	-11.3626
流俗	-11.3632
禮樂	-11.3632
東方無極	-11.3635
照對	-11.3637
是言	-11.3638
三枚	-11.3641
人不知	-11.3641
未必	-11.3641
豈知	-11.3643
三上香	-11.3645
致福	-11.3646
民生	-11.3646
隱藏	-11.3647
重輕	-11.3649
常處	-11.3649
服藥	-11.365
利物	-11.3661
謹啓以聞	-11.3665
元陽眞人	-11.3665
仰啓	-11.3665
黄混	-11.367
罪滅	-11.367
一統	-11.367
車書	-11.3672
教戒	-11.3672
刻名	-11.3673
禄壽	-11.3675
拜謝	-11.3678
天地萬物	-11.3679
或殺	-11.3681
不知所之	-11.3681
内殿	-11.3683
錫以	-11.3685
精粹	-11.3688
付與	-11.369
北斗七元	-11.3693
祕藏	-11.3694
眞性	-11.3695
太上无極大道虚无自然元始天尊太上	-11.3696
紫華	-11.3705
抱一	-11.371
五帝大魔	-11.3711
許令	-11.3712
午未	-11.3712
救苦經	-11.3717
訖次	-11.3721
傷人	-11.3724
三層	-11.3725
右腎	-11.3732
行道請法衆等運兹	-11.3738
上清大洞	-11.3741
悉能	-11.3746
須知	-11.3754
三䰟	-11.3756
祐護	-11.3757
世澤	-11.3763
遭逢	-11.3768
旡上	-11.3772
削除罪	-11.3772
五土	-11.3774
之能	-11.3775
假令	-11.3776
次引	-11.3777
資財	-11.3778
五十四	-11.3781
受恩	-11.3789
氛穢	-11.3791
三界官屬一切眞靈臣聞	-11.3797
言詞	-11.3798
爲災	-11.38
預以同學普得升虚與天相保長存無憂	-11.3801
滌慮	-11.3807
六分	-11.3812
無量劫來	-11.3815
不加	-11.3816
于此	-11.3818
庭中	-11.382
百一十	-11.3824
石景	-11.3826
同太	-11.3827
法衆等	-11.3827
聚神	-11.3833
讃曰	-11.3835
周遊	-11.3836
係薦亡魂	-11.3838
得生天	-11.3844
无上三天玄元始三炁太上老君召出	-11.3845
硯	-11.3848
朱筆	-11.3851
爲日神傷	-11.3852
屑	-11.3857
常上祝曰	-11.386
一毫	-11.3861
早朝行道	-11.3863
嶠	-11.3865
臼	-11.3866
召集	-11.3868
芻	-11.3868
紫晨	-11.3868
急降	-11.3868
棘	-11.3869
瓜	-11.3869
登眞隱訣	-11.3869
糧	-11.387
名利	-11.3871
寳座	-11.3871
章醮吉符	-11.3871
荀	-11.3873
粧	-11.3874
炁一口吹	-11.3874
届	-11.3875
梟	-11.3876
漑	-11.3877
罪惡	-11.3877
窟	-11.3877
曳	-11.3877
孛	-11.3878
光彩	-11.3878
娛	-11.3878
勃勃	-11.3878
豎	-11.3879
淋	-11.3879
萊	-11.3879
繳	-11.3879
撥	-11.388
堰	-11.388
鼻孔	-11.388
蟄	-11.3881
杜光庭	-11.3881
往生神仙界	-11.3881
交光	-11.3881
伏須告報	-11.3881
覩見光明	-11.3882
扣齒	-11.3882
短促	-11.3882
大功	-11.3882
三塗五苦八難	-11.3882
誦念是經	-11.3882
棟	-11.3883
首體投地仰依太上三尊願以是功	-11.3883
𥫄	-11.3883
六洞十宫	-11.3883
女青詔書	-11.3883
滄溟	-11.3883
尺餘	-11.3884
上祈	-11.3884
支干	-11.3884
蕘	-11.3885
法橋大度天尊	-11.3886
䆳	-11.3886
蘋蘩	-11.3886
未敢擅便須至奏聞者右	-11.3886
袁	-11.3886
販	-11.3886
以昭宸貺干冐聖威	-11.3886
拷	-11.3887
技	-11.3887
囑	-11.3887
悵	-11.3887
魒	-11.3887
學道得道求仙得仙齋官蒙福幽顯	-11.3887
庥	-11.3887
青帝護魂	-11.3887
青靈始老	-11.3887
三天化主玄中大法師眞君	-11.3887
香鑪	-11.3888
封疆	-11.3888
嚼	-11.3888
恭望聖慈允兹申請	-11.3888
願風雨流灑無窮普加施泄	-11.3888
霾	-11.3888
玄之又玄	-11.3888
臣衆等至心皈命	-11.3888
慈航	-11.3888
箱	-11.3888
老叟	-11.3888
潺	-11.3889
紫微中天北極大帝	-11.3889
五族六親	-11.3889
普天率土	-11.3889
殷勤	-11.3889
飛行太空	-11.3889
龍漢蕩蕩	-11.3889
鄂	-11.389
貳	-11.389
朗映十方各安其位經緯直行保	-11.389
謹具狀申	-11.389
天聽	-11.389
三洞四輔經籙法科	-11.389
耳混宫商	-11.3891
啞	-11.3891
超凡入聖	-11.3891
寥寥	-11.3891
八洞微髙士開光救苦	-11.3892
挺秀	-11.3892
候八願萬物生全九願家多孝悌十願國	-11.3892
紏察	-11.3892
三洞四輔經籙	-11.3892
白日升天	-11.3893
惡毒	-11.3893
辛丑	-11.3893
鳴法皷二十四通	-11.3893
北都羅酆	-11.3893
錦繡	-11.3893
不信道	-11.3894
髙低	-11.3894
玉晨君北斗	-11.3894
月孛	-11.3894
大聖大慈	-11.3894
笥	-11.3895
太靈虚皇天尊	-11.3895
觀道士	-11.3895
夏屋	-11.3895
月駟	-11.3895
赤書玉字	-11.3896
與神同	-11.3896
今故燒香自皈依師尊大聖衆至真之	-11.3896
十方無極	-11.3897
具法位姓某今據某郷貫	-11.3897
九天金闕洪恩眞君九天玉闕洪恩眞君	-11.3897
宣慈	-11.3897
故名爲	-11.3898
毛髮	-11.3898
某官某乙	-11.3899
念呪三徧	-11.3899
混茫	-11.39
道源	-11.39
願以是功德歸流	-11.39
玉籟	-11.39
夷夏	-11.3901
蠲潔	-11.3901
乞就某處	-11.3902
奉持	-11.3902
庶𩔖	-11.3903
天下太平	-11.3903
天門上	-11.3904
救苦眞符	-11.3904
鈍	-11.3905
急急如律令又呪	-11.3905
至心稽首	-11.3906
以次之	-11.3906
黃老	-11.3907
一炁天君	-11.3907
塵籠	-11.3907
一之元	-11.3908
若夫	-11.3909
盛衰	-11.3909
放逸	-11.3911
清泰	-11.3911
痛哉	-11.3912
守寸	-11.3913
隂獄	-11.3914
隆昌	-11.3914
効信	-11.3916
宗社	-11.3916
朝陽	-11.3917
落景行道	-11.3917
絳霞	-11.3918
營護	-11.3918
兆庶	-11.3919
宿啓儀	-11.3919
腎炁	-11.392
宸恩	-11.392
良辰	-11.3921
掌籍	-11.3922
百辟	-11.3924
前導	-11.3924
迷津	-11.3925
至眞玉皇上帝御前請稱法位具位	-11.3925
得一之元	-11.3927
戌亥	-11.3929
考罰	-11.393
朝夕	-11.3931
發鑪	-11.3932
九天生神章	-11.3935
分別	-11.3935
幽賛	-11.3935
典吏	-11.3936
九孔	-11.3937
如儀次	-11.3937
刋名	-11.3939
后妃	-11.394
珍重	-11.3941
垂祥	-11.3944
旣得	-11.3946
蘂簡	-11.3947
胞元	-11.3947
七百年	-11.3949
本性	-11.395
二十三日	-11.395
丹陛	-11.3951
河沙	-11.3953
極天尊志心朝禮	-11.3954
起立	-11.3955
開發	-11.3956
四十四	-11.3957
昭泰	-11.3957
躡雲	-11.3958
森列	-11.3962
而請命	-11.3962
十幅	-11.3965
衡山	-11.3967
慈念	-11.397
賛引	-11.3971
六虚	-11.3974
雲層	-11.3974
今故焼香自皈依師尊大聖衆至	-11.3975
慶幸	-11.3976
宣勞	-11.3976
乾象	-11.3979
三指	-11.398
敷榮	-11.398
罪瑕	-11.3983
利濟	-11.3986
所臨	-11.3986
咸寧	-11.3989
重重	-11.3992
者則以	-11.3992
洞逹	-11.3993
百魔	-11.3993
勸化	-11.3994
質信	-11.3997
相似	-11.3998
注想	-11.4
爲某人靈䰟	-11.4
齊同	-11.4001
善瑞	-11.4003
塵稽首皈依䖍誠讃詠信禮无上大羅天	-11.4004
飲水	-11.4005
設教	-11.4006
諸天上帝	-11.4007
小運	-11.4009
逐日	-11.401
海上	-11.4011
納官	-11.4011
結界	-11.4011
命籍	-11.4014
百餘人	-11.4014
品目	-11.4017
三徒	-11.4019
塵劫	-11.4021
眞宗	-11.4021
仙府	-11.4021
林泉	-11.4022
靈恩	-11.4024
與道合眞禮方懴悔	-11.4025
進止	-11.4025
圓清	-11.4032
節目	-11.4034
朗明	-11.404
一切諸法	-11.404
四嶽	-11.4041
玄樞	-11.4041
說偈	-11.4043
淪於	-11.4044
七洞微髙士開光救苦	-11.4045
未免	-11.4045
中指中	-11.4046
三天曹	-11.4047
得道之後昇入無形	-11.4048
祥開	-11.4049
罪考	-11.4053
離羅	-11.4055
整具	-11.4055
三元眞君	-11.4062
要言	-11.4062
陞壇行道之所自然生金液丹碧	-11.4066
唱禮	-11.4072
精微	-11.4074
形長二寸	-11.4075
尋常	-11.4075
特垂	-11.4075
苦樂	-11.4083
師恩	-11.4084
千殃	-11.4088
殿宇	-11.4088
人情	-11.4089
祈請	-11.4092
獄卒	-11.4094
治化	-11.4096
金虎	-11.4097
殃流	-11.4098
三蟲	-11.4102
獨立	-11.4103
立牌	-11.4114
䖍心	-11.4115
罪垢	-11.4119
丹霍	-11.412
宅宇	-11.4121
三啓樂法以爲妻愛經如珠玉持戒制六	-11.4122
濟世	-11.4122
崇嚴	-11.4124
黃炁	-11.4125
注福	-11.4127
日闢	-11.4128
昇降	-11.4132
二寸四分	-11.414
左轉	-11.414
目治	-11.414
方始	-11.4143
千秋	-11.4145
耳聞	-11.415
第十二	-11.4163
瓊文	-11.4165
微微	-11.4166
口啓	-11.4168
削名	-11.4169
靜室	-11.4171
宣科	-11.4175
生全	-11.4182
無餘	-11.4184
沾恩十方仙童玉女侍衛蘭煙傳	-11.4185
泥丸中	-11.4191
玉庭	-11.4192
司殺	-11.4194
了無	-11.42
華精	-11.4202
内誦	-11.4207
足下	-11.421
魂儀	-11.4214
清肅	-11.4214
降鑒	-11.4214
物命	-11.4217
積年	-11.422
謹奏	-11.4223
痛苦	-11.4224
月府	-11.4224
増益	-11.4224
之墟	-11.4225
無情	-11.423
司仙靈官吏	-11.4231
於是天尊	-11.4231
寂滅	-11.4231
毀謗	-11.4233
諸君丈人三十六天帝君玉虚上帝玉帝	-11.4234
圖書	-11.4235
福地主仙録君	-11.4237
受慶	-11.4246
青玄老君太乙救苦天尊運明保元上帝	-11.4267
一十八	-11.4269
不忠	-11.4272
本乎	-11.4272
▲▲▲	-11.4277
謹封方函	-11.4277
和與道合眞鳴法鼓二十四通	-11.428
奏三天門下	-11.4285
某謹同誠上啓	-11.4286
山頂	-11.4287
熬	-11.4288
普慈	-11.4291
心懷	-11.4293
左右官使者	-11.4293
剉	-11.4294
念衆生	-11.4294
太上老君太上丈人	-11.4295
十方巳得道大聖衆至眞諸君丈人	-11.4296
翅	-11.43
怨恨	-11.4301
柈	-11.4301
仞	-11.4302
兩眉	-11.4302
相求	-11.4302
槌	-11.4303
脯	-11.4303
線	-11.4304
株	-11.4307
兵革	-11.4308
霞鶴服朱履長𥚑玉珮	-11.4309
廡	-11.4309
巒	-11.431
得此報受生	-11.431
閃	-11.431
等皈命之誠謹啓以聞發願	-11.431
馴	-11.431
立壇	-11.4311
棒	-11.4311
爾身	-11.4312
吞火食炭	-11.4312
揆	-11.4313
竃	-11.4313
求乞章奏	-11.4313
舎	-11.4313
會稽	-11.4313
𥨸	-11.4313
荼	-11.4314
鄷	-11.4314
癎	-11.4314
𢡖	-11.4315
龕	-11.4315
爛壞	-11.4315
恭按	-11.4315
書此符	-11.4315
莅	-11.4316
黒帝通血	-11.4316
洩	-11.4316
䘏	-11.4316
太素三元君	-11.4316
翥	-11.4317
叩齒五通	-11.4317
酥	-11.4317
罔極之恩	-11.4318
闕信儀	-11.4318
矛	-11.4318
愚劣謹因	-11.4318
涸	-11.4318
九天司命府	-11.4318
今奉爲入意以今	-11.4318
峽	-11.4318
恭望聖慈	-11.4319
寂然兜術天	-11.4319
悼	-11.4319
太極左仙公	-11.4319
𠅘	-11.4319
五靈玄老	-11.432
豹	-11.432
劫劫長存	-11.432
降臨壇所	-11.432
刳	-11.432
愽	-11.4321
累月積	-11.4321
誠惶誠恐稽首頓首謹録狀上奏以	-11.4321
隂忤神靈	-11.4321
鼎湖	-11.4321
無鞅聖衆	-11.4321
散花轉經行道生死宿過咸乞赦原伏冀	-11.4321
詭	-11.4322
晃朗	-11.4322
昂	-11.4322
回骸起死	-11.4322
眞誥云	-11.4322
恥	-11.4322
臣等今故燒香志心皈身皈神皈命謹	-11.4323
仰慮亡靈某及九祖父母一切死魂	-11.4323
千愆萬罪紀録靈曹兆劫億齡	-11.4323
九壘土皇君	-11.4323
霓裳	-11.4323
顚倒六情紛紜三業日	-11.4323
陽造隂謀	-11.4324
經籍度三師	-11.4324
君一人官將百二十人上請	-11.4324
謾	-11.4324
太微天帝君	-11.4324
銓	-11.4324
溟涬大梵	-11.4324
普慈護國天尊志心敬禮逍遥快樂天尊	-11.4324
簴	-11.4324
劫年	-11.4324
十四年	-11.4324
爓	-11.4325
一願乾坤明素二願	-11.4325
北方八天	-11.4325
鎭家國無有災傷四海	-11.4325
之至謹奉表陳啓以聞	-11.4325
蚊	-11.4325
夙宵	-11.4325
元亨利貞	-11.4325
出戸太上黄籙齋儀卷之	-11.4326
監齋大法師	-11.4326
泉扄	-11.4326
壬寅	-11.4327
倉箱	-11.4327
太上生天寳籙	-11.4327
無上靈寳天尊諸尊諸聖諸大真人諸大	-11.4327
乙丑	-11.4327
儲副	-11.4327
乙酉	-11.4328
三道順行慶雲流布合景黄庭	-11.4329
慈悲道場消災九幽懴	-11.4329
幽扃	-11.4329
鉤	-11.433
願得長生	-11.433
瞋恚	-11.4331
拽	-11.4331
瓊笈	-11.4331
於方來	-11.4332
未經懴滌	-11.4332
勅	-11.4332
鋪張	-11.4332
不得拘留	-11.4333
銀河	-11.4333
碧落空歌	-11.4333
層霄	-11.4333
以今奉爲齋主某	-11.4334
桃源	-11.4334
雲鏞	-11.4334
十二時辰	-11.4335
軟	-11.4335
各䖍誠懴謝	-11.4336
蘭湯	-11.4337
門攝之若	-11.4337
括蒼	-11.4337
茭龍	-11.4338
邊夷	-11.4338
奉爲某人靈䰟	-11.4339
拱極	-11.434
奉爲亡靈	-11.434
觜	-11.434
黄精	-11.4341
下降玄壇	-11.4341
委曲	-11.4341
長保	-11.4341
漱口	-11.4341
不可見	-11.4341
玄元始炁	-11.4342
和往生神仙界	-11.4343
誡業	-11.4343
山魈	-11.4343
用印	-11.4346
无礙	-11.4347
紫衣	-11.4348
八溟	-11.4351
十洲	-11.4351
榮衛	-11.4352
惠天尊志心朝禮	-11.4352
往往	-11.4353
具述	-11.4355
勿忘	-11.4356
之衆一切	-11.4357
萬竅	-11.4357
坐卧	-11.4357
上方無極太上靈寳天尊	-11.4358
潭洞	-11.4359
長生靈符	-11.4359
生活	-11.4361
竊惟	-11.4361
肝神	-11.4363
北魁	-11.4363
注殃	-11.4366
日月五星	-11.4368
干試	-11.4372
狀紙	-11.4372
无私	-11.4375
萬兆	-11.4376
俱在	-11.4377
紫霧	-11.4382
厄符解	-11.4383
運慈悲	-11.4383
書章法	-11.4386
度人經云	-11.4386
夜行	-11.4388
賜紫	-11.4389
得飛仙	-11.4392
文軌	-11.4392
簿登	-11.4392
如此則	-11.4393
克證	-11.4393
儲宫	-11.4394
酆山	-11.4396
昭朗	-11.4396
上元金籙簡文眞仙品曰然燈威儀於	-11.4397
芝英	-11.4397
具法位姓	-11.4398
伏請	-11.4399
華晨	-11.44
時歆	-11.4405
大凶	-11.4406
滿足	-11.4411
孔子	-11.4411
魔王等	-11.4411
一丈二尺	-11.4412
永依	-11.4412
百丈	-11.4416
六夷	-11.4417
向南	-11.4422
靈跡	-11.4423
緋衣	-11.4424
返照	-11.4425
靈童子明承	-11.4426
七寶	-11.4427
臣等歸身歸命首體投地仰依太上三	-11.4429
養素	-11.4429
言功表	-11.4429
輕舉	-11.4431
鑒臨	-11.4432
作福	-11.4432
扣地	-11.4432
刻書	-11.4435
坎宫	-11.4436
甲庚	-11.4437
巨石	-11.4439
演化	-11.4441
斬妖	-11.4443
慈尊言	-11.4446
長八尺	-11.4447
總攝	-11.4453
玉隆	-11.4456
氣力	-11.4457
永超	-11.4458
誠祈	-11.4459
穢氣	-11.4462
鈞天	-11.4463
過患	-11.4467
天憲	-11.4469
疾疾	-11.447
科禁	-11.4472
預修黄籙	-11.4473
必資	-11.4473
六十六	-11.4475
節㑹	-11.4477
熒惑星	-11.4478
六十日	-11.4481
滅魔	-11.4484
感動	-11.4484
安置	-11.4485
大聖衆至眞諸君丈人	-11.4487
神竒	-11.4488
本命日	-11.4492
收攝	-11.4498
煉形	-11.45
一片	-11.45
冥官	-11.4502
无自然元始天尊无極大道太上大道君	-11.4503
丁甲	-11.4504
善業	-11.4504
初平	-11.4512
曽無	-11.4517
今弟子某	-11.4518
圖呪	-11.4518
延永	-11.4519
山谷	-11.4524
一㸃	-11.4527
所啓速達逕御太上无極大道	-11.4531
靈液	-11.4533
常懷	-11.4536
皇上帝	-11.4537
精專	-11.4539
愍念	-11.4539
身被	-11.4543
並同前	-11.4544
隨逐	-11.4546
聖威某下情無任惶懼之至謹狀年月日	-11.4546
三百年	-11.4549
在人間	-11.455
靈寳領教濟度金書卷之二百	-11.4551
某郷貫住居奉道弟子姓某本命某甲子	-11.4558
得遇	-11.4573
除愆	-11.4575
晚朝行道	-11.4576
三丹田	-11.4578
主治	-11.4579
直事	-11.4587
隨吾	-11.4589
玄祐	-11.4589
陳情	-11.4589
儀卷二百	-11.4596
六十二	-11.4606
各禮師存念如法宣衛靈呪	-11.4609
混同	-11.4615
設醮儀	-11.4616
懴法	-11.4618
巳得道	-11.462
群眞	-11.4621
不泄	-11.4625
金馬	-11.4633
永除	-11.4634
百歳	-11.4636
月磬	-11.4636
萬倍	-11.4638
祖先	-11.4638
以朝元	-11.4639
下情無任激切之至謹奉表奏以聞謹言	-11.4639
某謹重誠上啓三清上聖十極髙眞	-11.4641
何能	-11.4645
煥照	-11.4646
禹餘天	-11.4652
長久	-11.4659
醮謝	-11.4659
於經緯	-11.4667
願得太上	-11.4673
空浮	-11.4676
衛靈呪	-11.4682
玄泉	-11.4685
燃	-11.4689
萬歳	-11.4693
羣魔	-11.4695
勿使	-11.4705
結胎	-11.4706
大智	-11.4708
此印	-11.4711
非但	-11.4718
鍊丹	-11.4723
裴	-11.4731
臉	-11.4731
紀善	-11.4734
苦根	-11.4738
貴其	-11.4743
炊	-11.4745
梗	-11.4748
道眼	-11.4748
百拜	-11.4751
口章	-11.4752
次一弟子姓	-11.4753
普願	-11.4754
稱法位	-11.4754
幣	-11.4755
瀑	-11.4757
械	-11.4757
騁	-11.4757
柰	-11.4758
霏	-11.4758
捫	-11.476
縦	-11.4761
塜墓	-11.4762
不可稱量十者普心	-11.4762
姨	-11.4762
丧	-11.4762
殮	-11.4763
阮	-11.4764
謹爲某	-11.4764
𥬇	-11.4765
次序	-11.4766
稠	-11.4766
三千六百	-11.4766
中嶽嵩山	-11.4766
香花燈燭供養如法	-11.4767
兖	-11.4767
綜	-11.4767
昇天堂	-11.4768
衙	-11.4769
千罪萬過	-11.4769
祼	-11.4769
願天垂甘露六願地發祥煙七願四時應	-11.477
耄	-11.477
孳	-11.4771
窻	-11.4771
葵忱	-11.4771
叩齒三通咽液三過	-11.4771
蕚	-11.4772
上相上宰四司五帝三界官屬一切眞靈	-11.4772
恡惜	-11.4773
晻	-11.4773
魘	-11.4773
主火大將軍	-11.4773
玄冲虚妙感慈惠護國庇民洪恩眞君	-11.4773
燔	-11.4774
玉符寳節嘯命微幽擲火揚威奸凶無留	-11.4774
漓	-11.4774
牛羊	-11.4774
髮謝過自新伏願	-11.4774
導迎景貺	-11.4774
莭	-11.4774
跋	-11.4774
北方無極太上靈寳天尊	-11.4774
屇	-11.4774
等謹同誠上啓	-11.4774
南方八天	-11.4775
淨穢	-11.4775
巳得道大聖衆	-11.4775
偷盗	-11.4775
介祉	-11.4775
爲如上縁請聖作證	-11.4775
上章詞表靈官	-11.4775
蹔	-11.4775
不可稱量	-11.4776
揺曵	-11.4776
䕫	-11.4776
掐玉清訣	-11.4776
師經不敢中怠平等一心廣度一切	-11.4776
袱	-11.4776
正神急上關啓臣今奉爲入齋意以今	-11.4776
永無輪轉	-11.4776
火殃	-11.4777
戊戌	-11.4777
水火刀兵	-11.4777
旌旄	-11.4777
臣等身中令臣所啓之誠速達俓御	-11.4777
茭龍驛吏	-11.4777
爲黄籙齋主某懴悔亡故某普及幽	-11.4777
身口意	-11.4777
恢廓	-11.4777
恭望道慈	-11.4777
聾盲	-11.4778
三災九厄	-11.4778
奉承正道赤書	-11.4778
太上玄一	-11.4778
璽	-11.4778
恭望洪慈	-11.4778
扶桑大帝	-11.4779
灑衆生五願星辰與日齊光轉燭照耀	-11.4779
𨓜	-11.4779
玉眸鍊質	-11.4779
諸天諸地	-11.4779
朱陵火府南昌上宫	-11.4779
度人不死尊神南極長生大君	-11.4779
扶揺	-11.478
閒	-11.478
北嶽恒山	-11.478
洞玄化應聲天	-11.478
萬神敬聽	-11.478
宿命因縁	-11.4781
䇿六丁七轉八合周旋天經聖化巍巍	-11.4781
歡恱	-11.4781
妃后	-11.4781
敕制地祇	-11.4781
彈指	-11.4781
普受開度	-11.4781
地水職司	-11.4782
經師眞君靈寳籍師眞君靈寳度師眞君	-11.4782
七祖九玄	-11.4782
娱	-11.4782
稽首作禮	-11.4782
玉晨道君	-11.4782
防禦	-11.4783
至眞道炁靈寳瑞光下降流入	-11.4783
亟	-11.4783
當職道士	-11.4784
應時下降	-11.4784
諸天復位	-11.4784
攀戀	-11.4784
長七寸	-11.4785
痛楚	-11.4785
鍾磬	-11.4785
䖍誠懴悔	-11.4786
爲某事建某齋懴罪祈恩消災請福切慮	-11.4786
動植飛潜均陶惠澤得道之後	-11.4786
戊申	-11.4787
獅頭	-11.4787
生輪轉積劫循環流浪六情馳騁三業玄	-11.4787
博士	-11.4787
䟽瀹	-11.4788
鄉神仙諸靈官	-11.4788
今故修齋行道燒香散花皈身皈神皈命	-11.4788
太隂皇君	-11.4788
主宰髙眞	-11.4788
辛卯	-11.4788
縉雲	-11.4788
卑棲	-11.4789
考官門下	-11.4789
知見覺	-11.479
真君天曹	-11.479
鳯曆	-11.479
蠱毒	-11.479
所薦亡魂	-11.4791
完全	-11.4791
衛護	-11.4791
謹具狀	-11.4791
覆䕃	-11.4791
海涵	-11.4792
琅音	-11.4793
兼忘	-11.4793
七炁天君	-11.4795
凡愚	-11.4795
寥陽	-11.4796
夀域	-11.4797
黎元	-11.4797
百穀	-11.4797
水火鍊度	-11.4797
虚皇道君	-11.4798
元陽妙經	-11.4799
郡守	-11.4799
出離地獄	-11.4799
倚伏	-11.48
沈滯	-11.48
紀録黒	-11.4801
所授	-11.4802
正一天師	-11.4803
侍宸	-11.4804
直符使者	-11.4805
俓詣	-11.4806
地獄符破	-11.4806
洪休	-11.4807
莫不由	-11.4807
推遷	-11.4808
一切有情	-11.4809
徒勞	-11.4809
勸戒	-11.481
如其言	-11.481
痛毒	-11.4811
宿垢	-11.4813
刻石	-11.4814
諸司眞君	-11.4816
而死或	-11.4817
流晶	-11.4817
太微帝君	-11.4818
禍害	-11.4819
絳闕	-11.4819
五方眞文	-11.4819
啓旦	-11.482
服飾	-11.4821
仰頼	-11.4822
招延	-11.4823
血氣	-11.4824
八尺	-11.4825
昇入无形和與道合眞	-11.4825
右謹上請	-11.4826
者見世得	-11.4826
九室	-11.4827
章右用	-11.4827
客死	-11.4828
一如告命年歳次月日	-11.4831
瓊房	-11.4832
申錫	-11.4832
固濟	-11.4833
式宴	-11.4833
以今臨午行道請法衆等運兹	-11.4834
四十字	-11.4836
二皇君	-11.4837
依憑	-11.4838
押字	-11.484
監映	-11.4844
波羅	-11.4845
虎拜	-11.4845
愚昧	-11.4845
然㸃	-11.4846
鼓動	-11.4849
親近	-11.485
三級	-11.485
語言	-11.485
瓊音	-11.4851
日上計	-11.4852
㝠路	-11.4854
捨施	-11.4855
煥落	-11.4859
禮畢	-11.4861
道要	-11.4861
唱善	-11.4863
奉爲某	-11.4863
今據	-11.4864
懴除	-11.487
非憑	-11.4871
列班	-11.4873
災難	-11.4876
病患	-11.4877
十二萬人	-11.4877
考由	-11.4878
殃及	-11.4878
之罪或	-11.4879
形長三寸	-11.488
堯天	-11.4882
不捨	-11.4887
飛天神王長生大聖	-11.4889
潔清	-11.489
霄極	-11.4892
天帝碧	-11.4892
悔謝	-11.4899
惟新	-11.4901
甲子庚申	-11.4902
斗星	-11.4907
三十四	-11.4908
兢憂	-11.491
无任	-11.4911
惡夢	-11.4912
陽狀	-11.4914
無畏	-11.4914
舉手	-11.4916
爲佳	-11.4916
臺玉樓	-11.4919
陽干	-11.4923
來往	-11.4924
南海	-11.4935
一心發念稽首慈尊敬禮真聖志心敬禮	-11.4938
慶流	-11.4939
九鼎	-11.4939
專一	-11.4941
大帝東華南極西靈北眞玄都玉京金	-11.4942
群方	-11.4944
未充	-11.4945
動止	-11.4946
隱諱	-11.4947
古跡	-11.4948
面南	-11.4949
死生之	-11.4949
拘留	-11.4953
喜氣	-11.4958
要當	-11.496
舉動	-11.4963
晨輝	-11.4964
苦厄	-11.4965
訣目	-11.4967
皈心	-11.497
共仰	-11.4971
廻旋	-11.4974
各一人	-11.4974
浮羅	-11.4975
黑書	-11.4978
仙郷	-11.4981
輕清	-11.4985
醮官某	-11.4987
聖㫖	-11.4993
無量數	-11.4995
太上洞淵神呪經卷之	-11.4996
風波	-11.4997
幽深	-11.5002
氣象	-11.5003
陽界	-11.5003
關節	-11.5004
夷心	-11.5005
頗有	-11.5009
寒夜	-11.5012
盛德	-11.5013
奪人	-11.5023
則上明天尊大慈之化下副臣等皈命之	-11.5023
五百年	-11.5027
飛輪	-11.5029
將何	-11.5032
寳林	-11.5034
某身中	-11.5034
具位臣姓某謹據	-11.5043
雲林	-11.5043
宣威	-11.5045
靈識	-11.5049
未蒙	-11.5053
不覩	-11.5056
詞文	-11.5059
三極以	-11.5062
靈輝	-11.5064
根刷	-11.5066
超脫	-11.507
血食	-11.507
大赤天	-11.5071
天關星	-11.5072
隨聲	-11.5072
精嚴	-11.5078
猶存	-11.5079
玄津	-11.5079
侍立	-11.5083
香烟	-11.5087
馳心	-11.5091
學之士	-11.5093
嚴潔	-11.5097
金城	-11.5097
黄堂	-11.5098
修造	-11.5099
符散形	-11.5108
流血	-11.5109
常侍	-11.5111
金蓮	-11.5111
爲弟子某	-11.5112
眞靈臣聞	-11.5113
歸空	-11.5114
受職	-11.5115
毒氣	-11.5118
二十四炁	-11.5122
相牽	-11.5124
喜炁	-11.513
誓勤	-11.5131
歸身歸神歸命	-11.5138
初起	-11.514
正一功曹	-11.5146
而不夜	-11.5149
法師上香	-11.5155
遂逍遥	-11.516
不休	-11.5161
金碧	-11.5163
奔飛	-11.5166
得生人	-11.5172
靈芝	-11.5177
得之者	-11.5181
臣向來所啓之誠速達俓御	-11.5182
不昧	-11.5184
長一丈	-11.5189
名南上	-11.5192
麴	-11.5203
黄庭經	-11.5203
財物或盜	-11.5208
百億	-11.521
玄鑒	-11.5211
死魂醫	-11.5213
甖	-11.522
消釋	-11.5226
智惠	-11.5228
天門冬	-11.5229
東方无極太上靈寳天尊	-11.5231
睛	-11.5234
急急如元始度人律令宣	-11.5236
吼	-11.5237
煌	-11.5238
蒿	-11.5239
鈔	-11.5239
靴	-11.5239
油一斗二升	-11.524
蝎	-11.524
萬魔振伏紛葩却消摧怪伐惡道炁	-11.524
慳	-11.5241
泗	-11.5241
櫝	-11.5241
𤓰	-11.5242
肹	-11.5242
噐	-11.5242
月上詣太上	-11.5243
捜	-11.5243
幄	-11.5243
故三洞弟子某	-11.5244
詎	-11.5245
痕	-11.5245
侈	-11.5246
楪	-11.5246
碓	-11.5246
凄	-11.5246
矚	-11.5246
雖云	-11.5246
嶮	-11.5247
聴	-11.5247
黜	-11.5247
盲聾	-11.5247
謐	-11.5247
耆	-11.5247
扶衰度厄	-11.5247
開啓齋壇	-11.5247
長生乆視	-11.5247
歳年月日具位臣姓某狀奏奏	-11.5247
舄	-11.5248
蕭蕭	-11.5248
奇	-11.5248
爵禄	-11.5248
元皇開度天尊	-11.5248
衮	-11.5248
朋友	-11.5248
榭	-11.5248
請聖初獻	-11.5248
蹄	-11.5248
夀命延長	-11.5248
樸	-11.5249
見有道士	-11.5249
將亡過某原赦罪愆蠲除考對候	-11.5249
租	-11.5249
上上禪善無量壽天	-11.5249
郷貫某住居奉道弟子姓某本命某甲子	-11.5249
煖	-11.5249
燦燦	-11.5249
不忠不孝	-11.5249
刪	-11.5249
飄零	-11.5249
浣濯	-11.525
玃	-11.525
今故燒香自皈依道尊大聖衆至眞之	-11.525
欽奉綸音崇修金籙	-11.525
不肯布施或見	-11.525
琅琅	-11.525
赤帝養炁	-11.525
巳奏聞諸天上帝申牒三界眞司外	-11.525
若復有人	-11.525
哩	-11.525
太上敕赦生天寳籙	-11.525
祖考	-11.5251
長生久視	-11.5251
口是心非	-11.5251
風火驛傳	-11.5251
當境土地里域眞官	-11.5251
壹	-11.5252
巷	-11.5252
三業恣縱六情	-11.5252
下違地理上逆天文	-11.5252
髙上大道金闕玄元天皇大帝太上老君	-11.5252
志心稱念	-11.5252
潢	-11.5252
寰宇	-11.5253
不生不滅	-11.5253
稽首皈依䖍誠讃詠	-11.5253
専	-11.5253
侍靖仙官	-11.5253
登眞度命	-11.5253
畒	-11.5254
萬件千條	-11.5254
摘	-11.5254
禄算	-11.5255
徑上供養无上至眞經寳	-11.5255
逸響	-11.5255
飢寒者天下人民各得其所七念蠕動	-11.5255
泉曲之府北都羅酆三官九署十二河源	-11.5255
肌肉	-11.5255
哆	-11.5255
翠葆	-11.5256
眞校録三元蕩清左嘯中黄右	-11.5256
三十六部尊經玄中大法師天師君	-11.5256
鎭國祚保天無終護度一切莫不仰宗	-11.5256
匪繇	-11.5256
峒	-11.5256
特爲弟子某	-11.5256
疏	-11.5256
箕裘	-11.5256
曠蕩	-11.5257
峭	-11.5257
玄眞萬福天尊	-11.5257
億劫循環	-11.5257
沾濡	-11.5257
況奉詞㫖敢不上聞	-11.5257
恪副	-11.5258
敢不上聞	-11.5258
儀歩虚洒淨	-11.5258
靈芒	-11.5258
𥝠	-11.5258
柴	-11.5258
侔	-11.5258
席二領	-11.5258
餉	-11.5258
消捐	-11.5259
諸天至極上聖	-11.5259
泉曲河源	-11.5259
飄蕩	-11.5259
緑軿	-11.5259
斗柄	-11.526
即俾弟子某	-11.526
啓白具位	-11.526
斾	-11.526
翼轅	-11.526
朽骸	-11.526
躅	-11.526
𡜍	-11.526
洪濛	-11.526
怱	-11.526
玄都律曰	-11.5261
九炁天君東郷神仙諸靈官	-11.5261
譬如有人	-11.5261
癸丑	-11.5261
開通道路	-11.5261
前生今世	-11.5261
省覽	-11.5261
吉祥音檀熾鈞	-11.5262
洪貺	-11.5262
金籙度命	-11.5262
重稱法位	-11.5262
哀矜	-11.5262
正爾燒香	-11.5262
佐國立功	-11.5263
鴛班	-11.5263
無拘天門	-11.5263
乹	-11.5264
黄庭經云	-11.5264
今日道場大衆人各運心	-11.5264
青紙朱書	-11.5264
無上三天玄元始三炁太上道君召出臣	-11.5264
親踈	-11.5265
囚禁	-11.5265
仗劔	-11.5266
遷昇	-11.5266
松脂	-11.5266
師尊父母	-11.5266
逍遥自在	-11.5266
將來之	-11.5266
龍御	-11.5267
青𥿄	-11.5267
落滅宿	-11.5267
下方無極太上靈寳天尊	-11.5268
首悔	-11.5268
扶衰	-11.5268
伏匿	-11.5269
憂惱	-11.5269
州社令司主者	-11.5271
鴻恩	-11.5272
奔走	-11.5273
玄元始三炁	-11.5273
白鹿	-11.5273
洪波	-11.5274
寳殿	-11.5274
崑崙山	-11.5274
正眞之道	-11.5277
薦瑞	-11.5278
鸞輿	-11.5278
尊至心朝禮	-11.5279
丹綸	-11.5279
得道之後昇入無形與道合眞	-11.5279
弟子某甲	-11.5279
羣迷	-11.5281
豐盈	-11.5281
傷殘	-11.5283
朱墨	-11.5283
四十三	-11.5284
峻極	-11.5286
陽春	-11.5286
黄籙齋壇	-11.5287
粤自	-11.5288
牀上	-11.5292
玉緯	-11.5293
閉眼	-11.5298
久久	-11.53
禄祚	-11.53
上品妙經人各一	-11.53
鐵城	-11.5301
決定	-11.5305
無幽不	-11.5305
罪障	-11.5308
仰祝曰	-11.5309
不知所在	-11.5309
祖氣	-11.5313
眼目	-11.5316
詞預告	-11.5317
運明保元上帝	-11.5317
感降	-11.5317
莊子	-11.5318
所啓之言速達	-11.5322
未曾	-11.5322
旛花	-11.5323
食肉	-11.5324
姓某謹封	-11.5324
玄憲	-11.5325
無量太華天尊	-11.5326
二炁交	-11.5326
十四日	-11.5326
巨海	-11.533
憲令	-11.5331
雨澤	-11.5333
骨節	-11.5334
眞之德得道之後升入無形	-11.5338
跪奏	-11.5339
虧盈	-11.5343
催生	-11.5345
瞻依	-11.5346
紫鳳	-11.5349
敷座	-11.5354
於靜室	-11.5355
冥路	-11.5356
誓言	-11.5357
飛行上清	-11.5358
九清之	-11.536
提魂	-11.5361
燈壇	-11.5363
諷經	-11.5363
不可得而	-11.5364
返形太	-11.5366
二十日	-11.5366
垂憐	-11.537
蒼龍	-11.537
早朝陞壇行道	-11.5371
採取	-11.5373
申奏	-11.5375
爰從	-11.5377
本院	-11.5384
於碧漢	-11.5384
不具足	-11.5385
華芒	-11.5386
妙境	-11.5387
羽服	-11.5387
慈惠	-11.5392
兩耳	-11.5392
電光	-11.5394
醮祈	-11.5396
上白天尊	-11.5397
萬端	-11.5401
窮乏	-11.5401
速去	-11.5402
無始以來	-11.5405
居住	-11.5406
具狀	-11.5407
右告下	-11.5409
徒衆	-11.5409
益算	-11.5411
莫知所	-11.5411
壽齊	-11.5415
斷滅	-11.5415
五體投地	-11.5417
宜乎	-11.542
小指	-11.5422
巳往	-11.5423
頂出	-11.5426
元梵	-11.543
背書	-11.5432
急召	-11.5439
福祚	-11.5439
遷善	-11.544
左邊	-11.5441
鬼趣	-11.5448
代形	-11.545
未敢	-11.5453
臣謹重誠上啓	-11.5456
本科	-11.546
得仙道	-11.5461
青要	-11.5473
里域土地	-11.5475
千四百	-11.5477
眞誥	-11.5494
腎氣	-11.5496
遍十方際盡玄虚界	-11.5498
等至心皈命	-11.55
仙伯	-11.5511
保胎	-11.5514
滌除	-11.5517
相接	-11.5518
宣布	-11.5527
風輪	-11.5531
薦拔	-11.5536
登晨	-11.5538
大小劫	-11.5546
聖恩	-11.5556
妙行真人	-11.5557
太上无極大道至眞玉皇上帝	-11.5564
祕宻	-11.5569
大齋法事小兆臣某與臨壇官衆等	-11.5571
土地里域眞官	-11.5574
所問	-11.5579
淨明法	-11.558
敕旨	-11.5581
厭穢	-11.5586
無漏	-11.5586
豈得	-11.559
老子曰	-11.56
木石	-11.5601
紙筆	-11.5604
垂洞鑒	-11.5604
无上黄籙大齋立成儀卷之	-11.5631
上相上宰上保上傅	-11.5642
情念道遣所欲澹泊正氣停蕭然神	-11.565
脫離	-11.5658
各三十二人出出者嚴裝關啓玄壇天帝	-11.5666
日平旦	-11.5675
見之者	-11.5678
靈嶽	-11.5681
籲	-11.5684
碧虚	-11.5685
天地隂陽	-11.5689
慧源	-11.5694
鳴鐘	-11.5695
居止	-11.571
學道得道求仙得仙齋主受福幽顯沾恩	-11.5714
祈晴	-11.5717
森然	-11.572
二念帝王國主道化興隆庠序濟濟皇	-11.5724
畆	-11.5726
惡對	-11.5727
髭	-11.5731
珪	-11.5733
姜	-11.5733
晷	-11.5735
虺	-11.5737
瞿	-11.574
鮑	-11.574
埏	-11.574
忘形	-11.574
律令敕	-11.574
懋	-11.5741
蔓	-11.5741
州剌史	-11.5741
荅	-11.5741
真人玉清左	-11.5742
峨	-11.5742
隊仗	-11.5742
列于	-11.5742
遑	-11.5743
髯	-11.5743
穎	-11.5743
吒唎	-11.5744
給玉童玉女	-11.5744
醇	-11.5744
靈寳領教濟度金書卷之一百三十	-11.5744
昇玄經云	-11.5744
鐫	-11.5745
肖	-11.5745
修眞之士	-11.5745
劫生死之罪	-11.5745
甄	-11.5745
麓	-11.5746
擷	-11.5746
迦	-11.5746
檐	-11.5746
消災散禍	-11.5746
九萬九千九百九十	-11.5747
降眞召靈	-11.5747
賞罰	-11.5747
詢	-11.5748
不可稱量是謂十種	-11.5748
靈寳領教濟度金書卷之一百七十	-11.5748
舋	-11.5748
蹇	-11.5748
巍	-11.5748
焕	-11.5748
綾	-11.5748
芬芳	-11.5748
筍	-11.5749
帝王國主	-11.5749
腋	-11.5749
蠢	-11.5749
未敢擅便須至奏聞者右臣謹録狀上奏	-11.5749
發遣超生今來齋期將届凖格審告須至	-11.5749
二捻上香願此香烟騰空	-11.5749
顒	-11.5749
言功舉遷	-11.5749
鹹	-11.5749
縻	-11.575
千變萬化	-11.575
西方八天	-11.575
守雄抱雌	-11.575
作是念	-11.575
願此香煙騰空徑上供養無上至眞師寳	-11.575
劑	-11.575
愉	-11.575
諸凡夫一切衆生	-11.5751
萬一之忱	-11.5751
牎	-11.5751
扈	-11.5751
伶華	-11.5751
嗜慾	-11.5751
殂	-11.5751
南方無極太上靈寳天尊	-11.5752
以今早朝陞壇行道請法衆等運兹	-11.5752
虚永爲種民不經苦惱得道之後身入無	-11.5752
長生大君	-11.5752
多生輪轉	-11.5752
周而復始	-11.5752
考罪玄曹恐墮沉淪未繇懴滌今依	-11.5752
提携敢忘修誦	-11.5752
陌	-11.5752
具表奏聞者	-11.5752
心謝過無邊罪犯並乞蕩除伏冀慈造垂	-11.5752
花稽首投誠	-11.5752
上保上傳太平下教二十四眞人西城	-11.5752
罄丹誠	-11.5753
上清靈寶行司	-11.5753
雲璈	-11.5753
丐	-11.5753
道教靈驗記卷之	-11.5753
属	-11.5754
監壇某神	-11.5754
軄惟領教理難抑違	-11.5754
清衆運誠平坐如法平坐讃	-11.5754
玉眸錬質	-11.5754
迤	-11.5754
閫	-11.5754
若存若亡	-11.5754
攣	-11.5754
禾稼滋植營運日豐咸得厚載萬	-11.5754
纏繞	-11.5754
之至謹稽首再拜奉送	-11.5755
仰荷玄恩	-11.5755
姆	-11.5755
黼黻	-11.5755
言功遷賞	-11.5755
獻狀	-11.5755
運神㑹道功曹	-11.5755
具陳	-11.5755
癸卯	-11.5755
願以是功德上祝皇帝陛下伏願	-11.5756
鵝	-11.5756
祅氛	-11.5756
天曹諸司眞君	-11.5756
玉清聖境元始天尊	-11.5756
遊宴十方五雲浮	-11.5756
梓木	-11.5756
欻	-11.5756
伏望聖慈	-11.5756
爐炭	-11.5757
三時行道	-11.5757
蘋藻	-11.5757
各稱法位具位	-11.5757
拒遏	-11.5757
黄華蕩形天尊宣	-11.5757
崇建无上黃籙大齋	-11.5757
天牢地獄	-11.5758
靈寳領教濟度金書卷之九十	-11.5758
以來至于今日	-11.5758
炁血	-11.5758
三昧神呪	-11.5758
稅	-11.5758
沐浴冠帶	-11.5759
億齡	-11.5759
自縊	-11.5759
斬伐	-11.5759
徑上供養无上至眞道寳	-11.5759
正薦亡親某乙	-11.5759
縹	-11.5759
抄寫	-11.5759
所以爾者	-11.576
鼇	-11.576
𩛙	-11.576
蘭桂	-11.576
人經法道場以今謹率在㑹法衆	-11.576
宻念	-11.576
顙	-11.5761
壇修誦太上洞玄靈	-11.5761
噬	-11.5762
金籙白簡	-11.5762
黙奏	-11.5762
汪涵伏願開瓊笈以宣揚啓琅函而嘯	-11.5762
緑輦	-11.5762
思慮	-11.5762
紋之繒	-11.5763
玄靈經懴	-11.5763
匪聽法以聞經曷明心而見性俾	-11.5763
璘	-11.5763
西北方無極太上靈寳天尊	-11.5763
西南方無極太上靈寳天尊	-11.5763
玉虚明皇天尊	-11.5763
飢餓	-11.5763
春夏	-11.5763
雍雍	-11.5764
火錬丹界天尊	-11.5764
開明三景	-11.5764
靈寳領教濟度金書卷之一百二十	-11.5765
鸞鶴	-11.5765
捲簾	-11.5765
候敕旨頒行外	-11.5765
葑菲	-11.5766
潜孚	-11.5766
守坐飛鉤一切神君土府	-11.5766
五嶽靈山	-11.5766
真人上清太微	-11.5766
森嚴	-11.5766
邇遐	-11.5767
現眞形	-11.5768
畢引炁	-11.5768
滋味	-11.5769
謝過祈恩	-11.5769
栢木	-11.577
圓穹	-11.577
開業道	-11.577
辛亥	-11.5771
靈寳領教濟度金書卷之二百八十	-11.5771
丁罡	-11.5772
光下燭	-11.5772
和睦	-11.5773
睿澤	-11.5773
澤壘	-11.5774
衝破	-11.5774
驅馳	-11.5775
蹤跡	-11.5775
嬰童	-11.5775
祥烟	-11.5776
一切真聖	-11.5776
勸助	-11.5777
甲戍	-11.5777
葵藿	-11.5778
七𩲸	-11.5778
伏覬	-11.5778
祖父母	-11.5779
周圍	-11.5779
刑衝	-11.5779
寳笈	-11.578
至心稽首禮太上無極大道	-11.5782
靈寳領教濟度金書卷之二百六十	-11.5782
哀哉	-11.5782
勑勒	-11.5782
瓊瑶	-11.5783
龜臺	-11.5783
七月十五日	-11.5784
此一句	-11.5784
效職	-11.5784
今謹有	-11.5785
謹同誠上啓太上无極大道虚无自然	-11.5786
鴻圖	-11.5786
頓悟	-11.5787
覺知	-11.5787
欽承	-11.5791
攝提	-11.5792
皇基	-11.5793
澄寂	-11.5794
接武	-11.5795
黄旗	-11.5795
漏泄	-11.5795
開宥	-11.5797
效信	-11.5798
武曲	-11.5799
總統	-11.5801
淨明院	-11.5802
徒切	-11.5802
貪愛	-11.5803
爾時元始天尊	-11.5803
雲擾	-11.5808
八陛	-11.5808
四輩	-11.5809
師寳天尊	-11.581
幽塗	-11.5811
四十年	-11.5812
堂堂	-11.5812
干犯	-11.5813
無極神郷	-11.5813
口誦	-11.5813
統領	-11.5814
允拜	-11.5814
臣謹上啓	-11.5816
滯識	-11.5817
浮沉	-11.5817
均被	-11.5817
銷解	-11.5821
紀綱	-11.5822
朱鳳	-11.5823
逃形	-11.5823
七十一	-11.5826
十七日	-11.5826
恭肅	-11.5827
向背	-11.5829
鬼祟	-11.5832
尋聲救苦天尊	-11.5833
李公	-11.5833
凌虚	-11.5834
周徧	-11.5838
紀録	-11.584
二十八日	-11.5841
典領	-11.5842
靈寳領教濟度金書卷之八十	-11.5845
寳祚	-11.5848
滅跡	-11.5853
雷局	-11.5853
今有齋主某人	-11.5858
潜消	-11.5859
覆蓋	-11.5859
三十里	-11.5862
朱陵度命	-11.5867
陳設	-11.5872
交映	-11.5875
況復	-11.5875
詞表	-11.5877
露奏	-11.588
政和	-11.5881
登道果	-11.5889
禹餘	-11.5891
咸乞	-11.5897
七葉	-11.5901
歷觀	-11.5907
不見其	-11.5908
降格	-11.5913
一通上聞	-11.5915
速離	-11.5916
齋盟	-11.5916
普資	-11.5918
科戒	-11.5921
歸身歸神歸命大道	-11.5923
天尊志心朝禮大慈大悲救苦	-11.5925
靈篇	-11.5926
飛霞	-11.5928
昭著	-11.5935
答云	-11.5935
玄滋	-11.5935
具說	-11.5938
輝映	-11.5939
富才賢十一願齋功廣被十二願善瑞日	-11.5939
髙晨	-11.594
諸名山	-11.5942
開元中	-11.5949
容儀	-11.5952
萬徧	-11.5953
復爐香官使者左右	-11.5953
旁敷	-11.5958
欲界	-11.5962
壇陛	-11.5962
良醫	-11.5963
中層	-11.5975
具位臣姓某謹據齋意	-11.5975
久住	-11.5977
業累	-11.598
雷震	-11.5982
殺戮	-11.5992
兩腎	-11.5996
厄運	-11.5997
本末	-11.6017
君一人	-11.6017
雷霆齋	-11.6019
虎關	-11.6022
出户	-11.6025
慈孝	-11.6034
仰咽	-11.6035
金華山	-11.6038
吉辰	-11.6042
災消	-11.6047
衰厄	-11.6051
鎭信	-11.6051
卷之一	-11.6055
階升	-11.6063
萬九千	-11.6065
十方衆聖	-11.6067
旁周	-11.6067
成象	-11.607
洞案	-11.6075
寳玄臺紫微上宫靈寳至眞明皇道君	-11.6086
監生司	-11.6088
真符告下	-11.6089
持誦	-11.6093
塵埃	-11.6094
天官君將吏兵	-11.6095
方无極太上靈寳天尊梵炁天君	-11.61
骨髓	-11.6105
樂法以爲妻愛經如珠玉持戒制六情	-11.611
霄映	-11.6115
品𩔖	-11.6115
城隍里域	-11.6116
武功	-11.6117
千千	-11.6122
下情無任激切	-11.6125
腦神	-11.6126
速赴	-11.6152
從無始	-11.6155
无極大道至眞玉皇上帝御前出堂頌	-11.6161
返胎	-11.6161
五臓六腑	-11.6164
訾	-11.617
捧香	-11.6186
佩之者	-11.6189
預修黄	-11.6197
瓊科	-11.6199
形質	-11.6207
杜廣成	-11.6215
領兵	-11.6217
萬變混沌玄元老君	-11.622
之本也	-11.6223
靈寳玉鑑卷之三十	-11.6223
枸杞	-11.6224
清衆運誠	-11.6225
十丈	-11.6226
養性	-11.6226
上祝皇帝陛下伏願	-11.6235
店	-11.6239
鞋	-11.624
巳上並	-11.6242
顆	-11.6246
捧章	-11.6247
閩	-11.6248
兜	-11.6251
薑	-11.6253
栗	-11.6253
垠	-11.6254
咀	-11.6254
匀	-11.6254
春回	-11.6256
浣	-11.6256
黔	-11.6256
菓	-11.6257
等皈身皈神皈命首體投地仰依太	-11.6258
詛	-11.626
杏	-11.626
勁	-11.626
須至關發者右關	-11.6261
肅肅	-11.6262
斑	-11.6262
碣	-11.6263
憩	-11.6264
剱	-11.6264
各三十二人	-11.6266
敏	-11.6266
醮酌	-11.6266
靈寳淨明飛天度人	-11.6266
掇	-11.6267
冉冉	-11.6267
肚	-11.6268
姊	-11.6269
廣建福田	-11.6269
大指掐	-11.6269
逢昌運	-11.6269
藍	-11.6269
之境面朝	-11.627
以今臨午陞壇行道請法衆等運兹	-11.627
咄	-11.627
掐午文	-11.627
龍虎君侍香諸靈官當令臣向來	-11.627
渟	-11.6271
窒	-11.6271
㕔	-11.6271
上開八門	-11.6272
媾	-11.6272
混洞赤文	-11.6272
螫	-11.6272
悽	-11.6273
葷辛	-11.6273
隨機赴感	-11.6273
襪	-11.6273
𠉀	-11.6273
𧇊	-11.6273
惰	-11.6273
陽九百六	-11.6274
各百二十人	-11.6274
乂安	-11.6274
硃	-11.6274
𡨚債和平	-11.6274
齋三日節目	-11.6274
存亡二世	-11.6274
樣	-11.6274
攔	-11.6274
撼	-11.6275
嬰孩	-11.6275
育嬰	-11.6275
礪	-11.6275
嚥液	-11.6275
察命童子	-11.6275
迭	-11.6275
金闕玉房	-11.6275
轉誦太上玄靈北斗本命延生眞經	-11.6275
除壽齡延永不經苦惱身	-11.6275
搶	-11.6275
玄壇恭按眞科次第修奉巳於某月某日	-11.6275
九天應元雷聲普化天尊	-11.6275
閟	-11.6276
距	-11.6276
尋聲赴感太一救苦天尊	-11.6276
薈	-11.6276
偽	-11.6276
眚	-11.6276
四直玉文功曹	-11.6276
降勑命行下三界十方	-11.6276
蒿里	-11.6276
驛馬上章吏官各二人出操	-11.6276
大梵隱語	-11.6277
縶	-11.6277
燌	-11.6277
彗	-11.6277
謫役	-11.6277
侍香金童	-11.6277
惡口兩舌	-11.6277
行住坐卧	-11.6277
覔	-11.6277
魂神澄正	-11.6278
堕	-11.6278
重誠上啓	-11.6278
緑鬢	-11.6278
貰	-11.6278
傳符授戒	-11.6278
松栢	-11.6278
鐵牀	-11.6279
遒	-11.6279
滄浪	-11.6279
願神願仙	-11.6279
九天尚父	-11.6279
爭競	-11.6279
所啓之言速達徑御太上無極大道	-11.6279
三元品戒	-11.6279
澤得道之後升入無形和與道合真	-11.6279
謹率見前清衆升壇	-11.6279
墳墓	-11.628
達有生保天長存億劫不傾三願土地	-11.628
各䖍誠懴悔跪懴臣等	-11.628
鴻鈞	-11.628
倶	-11.628
未敢擅便須至申聞者右謹録狀上申	-11.628
超度亡故某普及幽冥𡨚親平等	-11.6281
𥮅	-11.6281
中天門下	-11.6281
天君天樞左丞相天君天樞右丞相天君	-11.6281
氣和調無有災患疫毒消滅普天安平五	-11.6281
前生今世罪對立功補過九念家	-11.6281
善知識	-11.6281
等三師四友	-11.6281
極含容恢廓無細不植淵奥柔惠潤加	-11.6281
出青入玄	-11.6281
侃侃	-11.6282
願此香煙騰空徑上供養無上至眞經寳	-11.6282
刀山劒樹	-11.6282
大天帝六天洞淵大帝六波天主帝君	-11.6282
孕粹	-11.6282
法事如式	-11.6283
魑魅	-11.6283
洞微髙士開光救苦真人𡩋全	-11.6283
虚空鑒察	-11.6283
叵	-11.6283
太上三尊十方衆聖願以是香功德	-11.6283
衆眞監度	-11.6283
伏羲	-11.6283
鼔舞	-11.6283
火鍊丹界	-11.6284
上清靈寳玄壇	-11.6284
纏綿	-11.6284
三部追魂使者	-11.6284
禄筭	-11.6284
籬	-11.6284
肅建玄壇	-11.6284
丹靈眞老	-11.6284
虔祈	-11.6285
讚	-11.6285
四生六道	-11.6285
四十九尺	-11.6285
張清都	-11.6285
亶頼	-11.6285
世世生生	-11.6286
恭望聖慈允兹申請特降聖㫖行下	-11.6286
紫虚鬱秀	-11.6286
靈寳領教濟度金書卷之一百十	-11.6286
球	-11.6286
言我今	-11.6286
道士女冠	-11.6286
恭望天慈	-11.6286
行年本命	-11.6287
昇天堂衣食自然	-11.6287
上極无上	-11.6287
五靈五老上帝	-11.6287
俯伏	-11.6288
拔度科品	-11.6288
太上洞玄靈寶業報因縁經卷之	-11.6288
地水火風	-11.6288
門闌	-11.6288
均沾	-11.6289
上明天尊	-11.6289
朔單	-11.629
長生度世	-11.629
謁帝	-11.629
覃恩	-11.629
璇璣玉衡	-11.629
然九幽神燈上照	-11.629
禮二十拜若	-11.6291
上方下方	-11.6291
穩歩	-11.6292
賢智眞人	-11.6293
泒	-11.6293
香一兩	-11.6293
零落	-11.6294
復作是念	-11.6294
斡運	-11.6294
東北方無極太上靈寳天尊	-11.6295
巨細	-11.6296
提拯	-11.6296
君度南昌上生	-11.6297
瑶池	-11.6297
抽添	-11.6297
珠幢	-11.6298
蘂闕	-11.6298
願諸凡夫一切衆生	-11.6299
附薦	-11.63
蟲魚	-11.6301
白絹	-11.6302
鋪陳	-11.6303
東岱	-11.6303
環拱	-11.6304
感激	-11.6304
冥漠	-11.6304
饗帝	-11.6305
鳯繒	-11.6306
醮席	-11.6306
宸嚴	-11.6307
裴君	-11.6308
諮問	-11.6308
宿債	-11.6309
蜀州	-11.6309
凶殃	-11.6309
正月一日	-11.6311
黒編	-11.6311
寒泉	-11.6312
三寳慈尊	-11.6312
俯察	-11.6312
來殺人	-11.6313
神仙兵馬	-11.6313
三島	-11.6314
仁周	-11.6314
四鄙	-11.6317
遊戲	-11.6322
爲過以	-11.6322
庶幾	-11.6322
火急奉行	-11.6323
眞之德得道之後昇入无形和與道合眞	-11.6324
七寳林	-11.6324
斷榖	-11.6325
靈官將吏	-11.6325
旁資	-11.6325
維持	-11.6327
懴拔	-11.6327
盟威	-11.6329
祕㫖	-11.633
伏覩	-11.6331
寳曆	-11.6331
殫誠	-11.6332
赤烏	-11.6332
銅關	-11.6335
以今奉爲某	-11.6336
靈寳領教濟度金書卷之二百七十	-11.6339
鴻福	-11.634
旬月	-11.6341
秋月	-11.6343
恩沾	-11.6344
職惟領敎理難抑違敬依所卜日辰肅建	-11.6344
垂芒	-11.6345
昭格	-11.6345
威權	-11.6345
𡨋關	-11.6345
咸沐	-11.6346
司主之	-11.6347
金籙齋	-11.6347
汝等衆生	-11.635
太虚眞人	-11.635
絳節	-11.635
兩曜	-11.635
回禄	-11.6351
不覩光明	-11.6357
黄輿	-11.6358
宿曜	-11.6361
消蕩	-11.6361
災患	-11.6363
進士	-11.6363
萬夀	-11.637
吟偈	-11.637
司罪福	-11.6373
東方木	-11.6374
遵承	-11.6378
化洽	-11.638
雄黄	-11.6384
佑聖	-11.6384
三十二人	-11.6386
調伏	-11.6387
老少	-11.6389
依舊	-11.6391
謹遣	-11.6391
丹詔	-11.6392
遊爽	-11.6393
易質	-11.6396
數里	-11.6402
靈寳領教濟度金書卷之一百八	-11.6405
天厨	-11.6407
上帝訣	-11.6407
乆視	-11.6409
而亦是	-11.6411
深愆	-11.6413
几案	-11.6417
楚痛	-11.6418
廟食	-11.642
保固	-11.6425
幽闕	-11.6426
重霄	-11.6433
三界五帝	-11.6434
靈寳領教濟度金書卷之六十	-11.6435
靈寳五符	-11.6437
金枝	-11.6442
建齋之日	-11.6443
三月三日	-11.6448
朗然	-11.6449
身心口	-11.6449
眞人志心朝禮大慈大悲大惠眞人	-11.6462
衰老	-11.6463
卒死	-11.6475
考殃	-11.6476
一隻	-11.6477
幽域	-11.6478
囂塵	-11.649
保天長存	-11.6494
報恩	-11.6499
下情无任惶懼之至謹狀太	-11.6508
俄有	-11.6508
神虎追攝	-11.6509
燒香頌各禮師存念如法	-11.6509
行此道	-11.6514
向來所啓速達	-11.6521
北斗九皇	-11.6524
吉昌	-11.6526
願以是	-11.654
貪財	-11.6542
陽明星	-11.6547
今故燒香自皈依	-11.6547
格式	-11.6555
恢弘	-11.6564
深淺	-11.6565
上清靈寳行司據	-11.6568
妙範	-11.659
形軀	-11.6611
鬼域	-11.6616
滋榮	-11.6625
等今故燒香	-11.6637
身中三五功曹左右官使者左右捧香	-11.6637
反胎	-11.6641
化無方	-11.6643
半兩	-11.6654
芝英百靈衆眞交㑹在此香火爐前	-11.666
姓某奉行	-11.6684
以今落景行道請法衆等運茲	-11.6693
天倉	-11.6708
日月之光	-11.6709
至眞無極大道三清上聖昊天至尊金闕	-11.671
舌神	-11.6714
甘雨	-11.6715
班列	-11.672
靈寳領教濟度金書卷之二百二十	-11.6722
問其所	-11.6723
太歲年月日牒具法師衘位姓押牒	-11.6728
經信禮太上	-11.673
干冒聖威	-11.6732
至眞无極大道	-11.6734
可憐	-11.6744
弈	-11.6747
尸穢	-11.6748
眞之德得道之後長享自然和與道合眞	-11.675
夫人諱	-11.6756
甲子旬	-11.6761
飛天神王長生大聖無量度人君	-11.6765
檻	-11.6766
粤	-11.6781
大道太上老君	-11.6783
牝	-11.6784
十方无極太上靈寳天尊	-11.6793
靖室	-11.6793
太歳年月日具位	-11.6796
都講唱	-11.6798
科條	-11.68
心或起	-11.6801
緝	-11.6801
丹鳯	-11.6802
亦無所	-11.6803
入丹田	-11.6803
俟命之至	-11.6803
搗	-11.6803
劍	-11.6804
翟	-11.6805
豬	-11.6806
吒那	-11.6809
是也動主	-11.6809
經老君授	-11.6811
問訊	-11.6814
基址	-11.6814
喘	-11.6814
攅	-11.6815
鉦	-11.6816
凈	-11.6816
牲	-11.6817
姊妹	-11.6818
不任歸命	-11.6819
犀	-11.6819
刈	-11.682
煆	-11.682
輔弼	-11.682
嘻	-11.682
蔭	-11.6821
桒	-11.6821
劃	-11.6823
產	-11.6823
𣸸	-11.6823
形貌	-11.6823
太上慈悲九幽拔罪懴卷之	-11.6824
閏	-11.6824
咏	-11.6825
廂	-11.6825
癲	-11.6825
怛	-11.6825
徃生神仙界	-11.6826
人各恭敬	-11.6826
瓢	-11.6826
忻	-11.6826
確	-11.6828
颷	-11.6828
受持讀誦	-11.6828
𥠖	-11.6828
溉	-11.6828
龍興觀	-11.6828
大悲大願	-11.6829
交媾	-11.6829
激切屏營之至	-11.6829
紹隆	-11.6829
太歳年月日關具法師衘位姓押	-11.6829
東華南極西靈北眞上宰上相上保上	-11.683
㝷聲救苦	-11.683
下方无極太上靈寳天尊	-11.683
俾令六道幽靈受食等衆形神俱妙定慧	-11.683
譬喻	-11.683
燋	-11.683
生四負俾得一身清	-11.6831
盱	-11.6831
助吾	-11.6831
赦夙生今世一切愆尤開度九祖七玄三	-11.6831
妓	-11.6831
肅清萬魔不干眞誠上徹令臣所啓之誠	-11.6831
符生身受度削名北府紀字南宫厄難蠲	-11.6831
百川	-11.6831
𨗉	-11.6831
五星髙耀瑞	-11.6832
不零一切濟度靡不鮮榮	-11.6832
年歳次月日	-11.6832
歉	-11.6832
鑾	-11.6832
僖宗	-11.6832
上三尊願以是功德皈流齋主某伏願	-11.6833
汗漫	-11.6833
奈	-11.6833
掣	-11.6833
表臣某言	-11.6833
嵐	-11.6833
上方无極太上靈寳天尊	-11.6833
髪謝過自新伏願天帝君降大慈之恩流	-11.6833
刀圭	-11.6833
爲如上縁志心稱念	-11.6833
謝過自新伏願天帝君降大慈之恩流	-11.6834
府主生太陽火官	-11.6834
皓庭霄度天	-11.6834
延壽益筭	-11.6834
黃籙簡文靈仙品格修齋行道燒香散	-11.6834
諌	-11.6834
削死上生	-11.6834
告文靈寳	-11.6834
轉誦太上洞玄靈寳	-11.6834
犮	-11.6834
鑚	-11.6834
慇懃	-11.6834
殗穢	-11.6835
主將副將	-11.6835
醜陋	-11.6835
輪囷	-11.6835
隨願徃生	-11.6835
見有女官	-11.6836
揷	-11.6836
謬誤	-11.6836
鄉神仙諸靈官竊以	-11.6836
藩屏	-11.6836
殖	-11.6836
三界直符使者	-11.6836
需	-11.6836
好生之德	-11.6837
上謝天恩	-11.6837
謹依科法	-11.6837
鎭家國兆民興從養生安死惠周十方	-11.6837
艶	-11.6837
態	-11.6837
濟生度死	-11.6837
羽飛衣	-11.6838
栽	-11.6838
願此香煙騰空徑上供養無上至眞道寳	-11.6838
五嶽聖帝	-11.6838
護道監壇	-11.6838
蚩尤	-11.6838
南閻洞浮	-11.6838
皈身皈命大慈大悲無上天尊至心朝禮	-11.6838
曠野	-11.6839
浩渺	-11.6839
外封面式	-11.6839
啓堂頌	-11.6839
締	-11.6839
以昭玄貺	-11.6839
佞	-11.6839
上香師白文	-11.6839
黍稷	-11.684
蒼穹	-11.684
烜赫	-11.684
髙功入科	-11.684
求覔	-11.684
咸乞蕩除	-11.684
沉痾	-11.684
吠	-11.6841
蝸	-11.6841
冶鍊	-11.6841
十方仙童玉女接侍香煙傳	-11.6841
裕	-11.6842
皥	-11.6842
蓮炬	-11.6842
風雷雨部	-11.6842
牛頭獄卒	-11.6842
斬絶地根	-11.6843
外封背式拔度某人靈䰟	-11.6843
洗浣	-11.6843
違律罰	-11.6843
太眞科曰	-11.6843
十願江海蕩蕩	-11.6843
要修科儀戒律鈔	-11.6844
電掃	-11.6844
倒懸	-11.6844
孔竅	-11.6844
猴	-11.6844
昴	-11.6844
寧謐	-11.6844
刑擣獄中	-11.6844
庚戌	-11.6844
所以者何	-11.6845
檜	-11.6845
少壯	-11.6845
靈寳玄局	-11.6845
信幣	-11.6846
謹召神霄生	-11.6846
五帝四司	-11.6846
鳴法鼓	-11.6846
乞賜原赦無邊罪犯並與蕩除伏冀	-11.6846
學道之士	-11.6846
鐵壘	-11.6847
聿嚴	-11.6847
三清三境	-11.6847
殄息	-11.6847
啄齒	-11.6847
與道合同	-11.6848
者杖一百	-11.6848
穩駕	-11.6848
冒犯天	-11.6848
𩔖皆從四願日月二景髙明無有	-11.6849
錯落	-11.6849
南斗六星	-11.6849
曷副	-11.6849
藹藹	-11.6849
渭	-11.685
懇欵	-11.685
伎樂	-11.6851
東南方無極太上靈寳天尊	-11.6851
澄晏	-11.6851
東方九炁天君	-11.6851
過度三界	-11.6853
消北府	-11.6853
哀憐	-11.6853
常樂我淨	-11.6853
亶由	-11.6853
汙穢	-11.6854
九州社令司主者	-11.6855
紏過	-11.6856
上元天官	-11.6857
匡扶	-11.6857
若然者	-11.6858
青玄救苦	-11.6861
攀縁	-11.6863
墨黒	-11.6863
玉葩	-11.6863
以何因縁	-11.6864
禪善	-11.6864
西方無極太上靈寳天尊	-11.6865
謡歌	-11.6865
均陶	-11.6865
百餘年	-11.6866
黄芽	-11.6866
甘泉	-11.6866
拯護	-11.6867
興工	-11.6867
龍鱗	-11.6867
慧燭	-11.6869
土地里域真官	-11.687
支離	-11.687
太上靈寳元陽妙經卷之	-11.6871
逍遥無爲	-11.6873
兩脚	-11.6873
異𩔖	-11.6873
混融	-11.6875
誕布	-11.6875
益茂	-11.6876
諸天上聖	-11.6876
赦原	-11.6878
老君驗	-11.6879
演説	-11.6879
恐懼	-11.6879
恩榮	-11.688
懽樂	-11.688
可韓	-11.688
不輟	-11.6883
難逃	-11.6886
衞房	-11.6886
陟降	-11.6886
自今以去若有道士	-11.6887
災纒	-11.6888
米三斗	-11.6889
曲荷	-11.689
與道同	-11.6894
二竪	-11.6895
結友	-11.6895
禮謁	-11.6897
充足	-11.6898
損害	-11.6898
抜度	-11.6899
圖畫	-11.6901
而拱極	-11.6901
人寰	-11.6902
地軸	-11.6902
芝圖	-11.6902
軫念	-11.6903
既徃	-11.6904
接手	-11.6905
丹輿	-11.6905
玉璧	-11.691
紫虛	-11.691
𡨚讎	-11.6914
夜半時	-11.6914
騰輝	-11.6916
三捻上香願此香煙騰空	-11.6921
變現	-11.6921
精研	-11.6923
灌錬	-11.6923
違犯	-11.6925
真人玉清右	-11.6926
若干人	-11.6926
湛湛	-11.693
玄壇土地方域神眞臣今	-11.693
托生	-11.6932
日赫	-11.6934
廓清	-11.6936
慶基	-11.6937
彌月	-11.6939
龍鸞	-11.6939
嚴淨	-11.694
青鸞	-11.6941
遐永	-11.6943
恩覃	-11.6949
晦明	-11.695
行旅	-11.6952
靈寳領教濟度金書卷之二十	-11.6954
現形符	-11.6957
餓鬼道	-11.696
摧伏	-11.6961
國界	-11.6962
州社令主者	-11.6963
燈旛	-11.6964
袍吊䪃靴	-11.6966
靈寳領教濟度金書卷之三十	-11.6966
靈墟	-11.6969
太玄都	-11.6972
大宥	-11.6973
開壽域	-11.6975
十大洞天	-11.6991
人所不能	-11.6992
百寳光	-11.6997
靈寳領教濟度金書卷之二百四十	-11.7001
誦中篇	-11.7002
得尸解	-11.7017
得道之後昇入無形和與道合眞	-11.7032
十五里	-11.7037
左脚	-11.7038
靈寳領教濟度金書卷之二百十	-11.704
緲	-11.7041
渉世	-11.7064
肉人某	-11.707
交接	-11.7071
六洞微髙士開光救苦	-11.7073
垂䕃	-11.7089
瞻禮	-11.7092
堅持	-11.711
矣道言自今以去	-11.7111
運四極安隆伏御帝前罔有不恭	-11.7112
三咽止	-11.7113
嗜酒	-11.7119
徃返	-11.7125
品類	-11.7126
即得受	-11.713
元始五老	-11.713
太上洞淵神呪經卷之十	-11.714
掐訣念呪	-11.7141
三捻上香願此香煙騰空俓上供養	-11.7144
相尅	-11.7159
斬殺	-11.7206
之誠速逹徑御至眞無極大道三清上聖	-11.721
梵音	-11.7218
三五功曹	-11.7228
騶	-11.7244
讃引	-11.7247
十五年	-11.727
本命甲子	-11.7274
法師衘位姓押	-11.7278
祈禳開	-11.7291
召出臣等身中三五功曹左右官使者	-11.7309
春三月	-11.7319
乞於齋次	-11.7323
問其故	-11.7326
災沴	-11.7328
五臟六腑	-11.7337
大慈大悲救苦眞人大慈大悲大惠眞人	-11.7342
思念無量普	-11.7354
同前式	-11.7363
生諸怨恨	-11.7382
所啓速逹徑御	-11.7389
告文靈寳三景玉符告下爲齋主某	-11.7389
旛肚	-11.7397
櫃	-11.7397
帝東華南極西靈北眞玄都	-11.7401
岷	-11.7404
人鳥山	-11.7405
卭	-11.7405
搥	-11.7405
麵	-11.7406
諄	-11.7407
耐	-11.7408
至聖至靈	-11.7408
無有出期	-11.7409
執水盂	-11.7409
痊愈	-11.7409
坡	-11.7409
攜	-11.7409
廳	-11.7409
嚢	-11.7409
争	-11.741
棹	-11.741
蛾	-11.741
甑	-11.7411
尭	-11.7411
畝	-11.7411
彷徨	-11.7412
嫗	-11.7412
箋	-11.7412
撮	-11.7412
枯槁	-11.7412
正一盟威	-11.7413
鬻	-11.7413
癰疽	-11.7413
唵吽吽	-11.7413
繋	-11.7413
伏惟皇帝陛下	-11.7413
瓣	-11.7413
斬之不恕矣道言	-11.7413
捶	-11.7413
正月七日	-11.7414
亡故某及一切産魂	-11.7414
谿	-11.7414
哭泣	-11.7415
悮	-11.7415
寨	-11.7415
杭	-11.7415
貿	-11.7415
夾脊	-11.7416
樞紐	-11.7416
若男若女	-11.7416
恡	-11.7416
稽首再禮	-11.7416
蠅	-11.7416
秋冬	-11.7416
冠冕	-11.7416
嬪	-11.7416
玉輔上宰四恊侍宸	-11.7417
九幽玉匱明	-11.7417
挫	-11.7417
從劫至劫	-11.7417
𦆵	-11.7417
大行梵炁	-11.7417
髙上月宫太隂元君孝道仙王靈寳淨明	-11.7417
逋	-11.7418
主將某副將某護道某監壇某	-11.7418
竦	-11.7418
棗湯	-11.7418
七道功曹	-11.7418
信受奉行	-11.7418
州縣城隍司	-11.7418
豚	-11.7418
陶鑄	-11.7419
臍下三寸	-11.7419
甲子諸官君	-11.7419
梳	-11.742
罪業消除災衰洗蕩福壽資命善果臻身	-11.742
衆災度脫	-11.742
枯骸	-11.742
汪洋	-11.742
請轉寳經誦經畢度人	-11.742
不可稱量三者舍忍	-11.7421
萬神咸聽	-11.7421
青玄黄籙左府	-11.7421
琪	-11.7421
羌	-11.7421
鯉	-11.7421
喝云	-11.7421
愚謹因	-11.7421
裸	-11.7421
奄忽	-11.7421
齊同慈愛	-11.7421
聞謹狀太歲年月日具位臣姓某狀奏奏	-11.7421
今來欲得三界十方預期聞知除巳具奏	-11.7421
痊平	-11.7421
願得玉清道炁靈寶妙光下降流入	-11.7422
位臣姓某謹據齋意集此善縁總祈開度	-11.7422
篋	-11.7422
剖判	-11.7422
譛	-11.7422
休禎	-11.7422
隣里	-11.7422
普慈護國天尊志心敬禮	-11.7422
莾	-11.7422
禺	-11.7422
妻妾	-11.7422
姓某謹重封	-11.7422
流一切興國愛民普濟羣生人同劫年八	-11.7422
元載孔昇天	-11.7423
九靈飛歩章奏司	-11.7423
蘆	-11.7423
聞經聽法	-11.7423
訊	-11.7423
䙱	-11.7423
欲望天慈特降勑命	-11.7424
洪纎	-11.7424
上清眞境靈寳天尊太清仙境道德天尊	-11.7424
三皇内文	-11.7424
太極濛翳天	-11.7424
職惟領教理難抑違	-11.7424
回靈養素天尊	-11.7424
事意至須至申聞者右某謹録狀上申	-11.7424
九炁青天明星大神煥照東郷洞映九門	-11.7424
宗祧先聖	-11.7424
旌葆	-11.7424
扶桑大帝暘谷神王三河四海九江水帝	-11.7425
鞏固	-11.7425
仕宦	-11.7425
混車書	-11.7425
雷霆九司諸天省府東華西靈執職眞衆	-11.7425
無極無量品至眞大神	-11.7425
百邪摧落	-11.7425
無形無名虚無自然金闕玉陛下	-11.7425
太上三尊願以是功徳歸流	-11.7426
恩惟太上分别哀	-11.7426
一塵不染	-11.7426
七十二福地	-11.7426
寰海	-11.7426
五苦八難	-11.7426
人各恭信	-11.7426
斧斤	-11.7426
各禮師存念如法宣衞靈呪	-11.7426
蒨	-11.7427
欣欣	-11.7427
隴畒	-11.7427
具位姓某謹據齋意大教除巳具奏	-11.7427
齋功成就	-11.7427
驚怖	-11.7427
視聽自民	-11.7428
逺近廟貌	-11.7428
噉食	-11.7428
稽首皈依䖍誠讃詠信禮	-11.7429
氣象清玄三願聖人萬壽四願化洽八埏	-11.7429
香五兩	-11.7429
茶湯	-11.7429
不經苦惱	-11.7429
豊	-11.743
嵎	-11.743
等今故燒香歸身歸神歸命奉爲某乙	-11.743
鵷	-11.743
生身受度劫劫長存隨劫輪轉與天齊年	-11.743
聦明智慧	-11.743
推研	-11.743
瓊輪羽蓋	-11.7431
年若干歳	-11.7431
澤潤	-11.7431
爲國爲家	-11.7431
寂寥	-11.7431
靈光洞煥	-11.7431
九炁青天	-11.7431
又大道洞玄虚有念無不契錬質入仙	-11.7431
胞絡	-11.7431
衡嶽	-11.7432
自然而然	-11.7432
情慾	-11.7432
九州分野	-11.7432
須至奏聞者右	-11.7432
紅杏	-11.7432
閻浮	-11.7432
貧富	-11.7433
茶酒果	-11.7433
踐履	-11.7433
肥甘	-11.7433
表榜規制品	-11.7433
金液鍊形	-11.7434
舟航	-11.7434
亳	-11.7434
驕慢	-11.7434
六親眷屬	-11.7434
玩弄	-11.7434
姹女	-11.7434
茨	-11.7435
九真妙戒	-11.7435
今有黄籙大齋主	-11.7435
玄師幕	-11.7435
返故根	-11.7435
耳聾	-11.7436
金槌	-11.7436
道生一	-11.7437
散漫	-11.7437
毫髮	-11.7437
太歳尊神	-11.7438
當念遊	-11.7438
睿旨	-11.7438
本際經云	-11.7438
某上言今月某日爲齋法弟子某	-11.7438
敢怠	-11.7438
㤙	-11.7439
盃	-11.7439
出家之人	-11.744
凌霄	-11.7442
道士治病	-11.7443
璠	-11.7443
蕭條	-11.7444
財寶	-11.7444
某誠惶誠恐稽首頓首再拜以聞	-11.7444
百張筆一管墨一笏	-11.7445
邪婬	-11.7446
輦路	-11.7446
垢穢	-11.7446
蓬宇	-11.7446
惠徼	-11.7446
陸天師	-11.7448
始學	-11.7448
掌握	-11.7448
鼎新	-11.7449
誦洞經	-11.7449
三十六天帝君	-11.7449
羽翼	-11.745
坤維	-11.7452
龍墀	-11.7452
㝠途	-11.7454
芳猷	-11.7457
驅遣	-11.7457
晨昏	-11.7457
夭傷	-11.7458
頓首頓首	-11.7458
誕敷	-11.7459
丹襟	-11.746
煉質	-11.7461
營營	-11.7461
存神復爐	-11.7462
侵害	-11.7462
禳謝	-11.7462
扶危	-11.7462
攺易	-11.7463
黄華素	-11.7465
以今奉爲某人	-11.7465
今有齋主某崇建某齋開度亡	-11.7466
屋宅	-11.7466
庭户	-11.7467
罪報除	-11.7468
舌根	-11.7472
輔佐	-11.7473
庭宇	-11.7473
瞻望	-11.7481
淨域	-11.7483
家眷	-11.7486
骸骨	-11.7488
祛災	-11.7488
上聖髙尊	-11.7489
良民	-11.749
爰崇	-11.7492
愆違	-11.7494
人爾欲自	-11.7496
宸極	-11.7496
頂禮	-11.7498
當須讃歎願	-11.7499
卧具	-11.75
銀錢	-11.7501
卓子	-11.7507
翠蓋	-11.7509
代謝	-11.751
二十九日	-11.7513
𡨚業	-11.7514
從無量劫來	-11.7514
邪魅	-11.7516
隂氛	-11.7517
春育	-11.7518
城隍主者	-11.7525
死骸	-11.7525
二十一日	-11.7528
後嗣	-11.7531
功曹符使	-11.7532
可不愼	-11.7538
宛然	-11.7545
願此香烟騰空俓上供養无上至眞	-11.755
建某齋	-11.7555
曉悟	-11.7574
建福田	-11.7576
君將吏兵	-11.758
清晏	-11.7584
諸般	-11.759
守雌	-11.7597
神虎追魂	-11.7599
光洞照	-11.7601
無間地獄	-11.7606
六時行道	-11.7609
周圎	-11.7613
金鈴	-11.764
愚迷	-11.7648
輔助	-11.7651
深奥	-11.7658
敢干	-11.7669
已得道大聖衆至眞諸君丈人	-11.7686
下屬玄	-11.769
天下地上	-11.7698
乗空飛	-11.7699
罔敢	-11.7704
皈依皈	-11.7705
道君曰吾	-11.771
一願大道流行普天懷	-11.772
㝠漠	-11.7741
梅山	-11.7756
南極長生大帝東極青華大帝	-11.7757
靈寳領教濟度金書卷之五十	-11.777
再拜長跪	-11.7775
淺深	-11.7786
太上无極大道虚无自然元始天尊	-11.7787
上啓太上無極大道	-11.781
科範	-11.7812
年某月某日	-11.7835
首體投地仰依太上三尊願以是功德	-11.7838
亦復不	-11.7843
行道之所自然生金液丹碧	-11.7844
寳通玄弘教水南先生林靈眞編	-11.7845
五星列照煥明五方水星却災木	-11.7847
請稱法位	-11.785
唱恭	-11.7861
五洞微髙士開光救苦	-11.787
正薦亡	-11.787
無任激切	-11.7877
某月某朔某日某	-11.7878
靈寳領教濟度金書卷之二百三十	-11.7884
天上天下	-11.7884
无上至眞經寳臣等皈身皈神皈命	-11.7902
二捻上香願此香煙騰空俓上供養	-11.7903
講誦	-11.7909
供獻	-11.791
車駕	-11.7918
上元金籙簡文眞仙品曰然燈威儀	-11.7937
繒綵	-11.7979
至眞諸君丈人	-11.7982
愚蒙	-11.7992
鬼殺人	-11.7993
氷消	-11.7994
年月日牒具法師衘位姓押	-11.7995
眞之德得道之後	-11.8004
等志心稽首禮玄中大法師重稱法位	-11.8004
慧眼	-11.8007
篩	-11.8011
刺史	-11.8011
獅	-11.8014
有光明此世他生常膺福慶	-11.8015
瀛洲	-11.8023
黄華蕩形天尊	-11.8024
接陽眷	-11.8026
今奉爲入齋意以今	-11.8028
三五七九	-11.8028
鉢	-11.8028
崗	-11.803
璈	-11.8031
濵	-11.8032
評	-11.8032
拙	-11.8033
紊	-11.8034
蟻磨	-11.8034
一隂一陽	-11.8034
麈	-11.8035
祭鍊内法	-11.8035
瘳	-11.8036
燿	-11.8037
遊行天下	-11.8037
迮	-11.8037
掐中指中文	-11.8037
蠲銷	-11.8037
蛆	-11.8037
獰	-11.8037
㳟	-11.8038
嚩	-11.8038
波濤	-11.8038
以爲效信恩惟太上	-11.8038
呌喚	-11.8038
瘖瘂	-11.8038
人作善	-11.8038
怳	-11.8039
急急如太上律令	-11.8039
粛	-11.804
楷	-11.804
飄颻	-11.804
蘖	-11.8041
紆	-11.8041
飼	-11.8041
月初一日	-11.8041
粱	-11.8042
洒掃	-11.8042
机	-11.8042
捷疾	-11.8042
𡵨	-11.8042
羅天大醮	-11.8042
膓	-11.8043
㢘	-11.8043
抱朴子	-11.8043
甸	-11.8043
綺語	-11.8043
掲	-11.8043
各九億萬衆九天玄元太空洞虚自然	-11.8043
兾	-11.8043
狎	-11.8043
三台華蓋星君	-11.8043
無極之國	-11.8043
以今早朝行道請法衆等運兹	-11.8044
某下情無任激切之至謹狀年月日具位	-11.8044
巳生未生	-11.8044
無上靈寳天尊諸尊諸聖諸	-11.8044
瞽	-11.8044
功德周圓伏願	-11.8044
翛	-11.8044
州縣郷里	-11.8044
詳前項事理疾速	-11.8044
胚	-11.8044
舅	-11.8044
弟子於燈下三禮	-11.8044
德致昌熒惑消禍太白辟兵	-11.8044
圻	-11.8045
悚	-11.8045
貝	-11.8045
化育之仁	-11.8045
泰玄都省	-11.8045
劄本家土地司命遍告齋意	-11.8045
譏	-11.8045
元陽經典	-11.8045
孝道明王	-11.8045
洞元化應聲天	-11.8045
十二願蝖飛蠢動巳生未生咸蒙安全普	-11.8045
娘	-11.8045
八千萬人	-11.8046
冬三月	-11.8046
梵寳昌陽	-11.8046
懃	-11.8046
某年某月某日某時	-11.8046
某帝眞人	-11.8046
三五功曹左右官使者	-11.8046
移文者牒候到請詳前項事理疾速	-11.8046
祺	-11.8046
憎愛	-11.8046
陂	-11.8046
舉形仙飛	-11.8046
髙上神霄玉清眞王	-11.8047
兵馬各九億萬騎	-11.8047
晻藹	-11.8047
差撥	-11.8047
悲拔罪真人今日道場懴主及以大衆	-11.8047
萬神咸聞	-11.8047
敖	-11.8047
漢武帝	-11.8047
風刀之考	-11.8047
無鞅之衆	-11.8047
龍變梵度天	-11.8048
赤明和陽天	-11.8048
妙齋法事小兆	-11.8048
閑寧廣濟一切惠	-11.8048
睇	-11.8048
盗賊	-11.8048
仗此寳香普同供養	-11.8048
土府太皇	-11.8049
繚繞	-11.8049
今日道場大衆	-11.8049
太明玉完天	-11.8049
思微定志	-11.8049
紳	-11.8049
法事如式各禮師存念如法請宣神呪	-11.8049
講說大乗	-11.8049
靈寳領教濟度金書卷之一百四十	-11.8049
超度三界難	-11.8049
謹具表奏聞者臣伏以	-11.8049
靈寳領教濟度金書卷之二百九十	-11.8049
努力	-11.8049
光熒星轉燭洞照太陽上有赤精	-11.805
揚揚兆庶稱慶長樂未央十二願	-11.805
簮紱	-11.805
擎拳	-11.805
讒	-11.805
痾旋即痊愈十願孤露衆生豐衣足食	-11.805
東嶽天齊仁聖帝	-11.8051
勾芒	-11.8051
揉	-11.8051
冥保固劫運世祚和平普加潤澤惠	-11.8051
注上生名	-11.8051
衆妙之門	-11.8051
麽	-11.8051
而下邁	-11.8051
一心歸命禮	-11.8051
匃	-11.8051
道衆雲集	-11.8052
九皇夫人九隂内妃	-11.8052
慊	-11.8052
珠黍	-11.8052
上元太極左	-11.8052
吝	-11.8052
稽首虚皇修行經法敷座	-11.8052
靈寳領教濟度金書卷之一百九十	-11.8052
五文開廓	-11.8053
陽虚映耀日回靈神虎辟邪飛天流鈴摧	-11.8053
疾除罪簿落滅惡根不得拘留	-11.8053
蜎	-11.8053
緬惟	-11.8053
黔黎	-11.8053
髙上神霄玉清眞王長生大帝	-11.8053
狸	-11.8053
奸滅試萬魔束形九微回道八威攝精千	-11.8053
徂	-11.8053
蓐收	-11.8054
𢊍	-11.8054
礫	-11.8054
愈十願孤露衆生豐衣足食	-11.8054
你	-11.8054
五體眞官	-11.8054
辛酸	-11.8054
擊壤	-11.8054
歴關諸天	-11.8055
無氛穢地絶祅塵琳琅振響十方	-11.8055
陀羅	-11.8055
呪三徧	-11.8055
靈寳大法司當司	-11.8055
涓	-11.8055
付囑	-11.8055
晡時	-11.8056
三界内外應感	-11.8056
惶懼	-11.8056
凡歸陶冶悉	-11.8056
換易	-11.8056
濶	-11.8056
胃管	-11.8056
香二兩	-11.8057
盈溢	-11.8057
侍衞送迎	-11.8057
符祝曰謹召	-11.8057
右牒上	-11.8057
太清仙境	-11.8058
蘭場	-11.8058
某不勝䖍祝之至	-11.8058
按如詞言	-11.8058
弋	-11.8058
證生方	-11.8058
懿夫人	-11.8058
主宰髙真	-11.8058
霏煙	-11.8059
三梁冠	-11.8059
從官符吏飛空變化攝召生炁奉爲亡魂	-11.8059
荘	-11.8059
南方臣等今故燒香皈身皈神皈命	-11.8059
云何名爲	-11.8059
溪澗	-11.806
乳哺	-11.806
以今落景行道請法衆等運兹	-11.8061
輝煌	-11.8061
俯軫	-11.8062
龍漢開圖	-11.8062
東方風雷地獄	-11.8063
十方道都大主者	-11.8063
嗣法弟子	-11.8063
躡紀	-11.8063
告文太上符命	-11.8063
銅鐵	-11.8063
憐愍	-11.8064
心生歡喜	-11.8064
道君髙清	-11.8064
篤好	-11.8065
凡學黄素書者	-11.8066
某今歸命	-11.8066
養蠶	-11.8066
受持此經	-11.8066
八月十五日	-11.8067
南斗北斗	-11.8067
瓊漿	-11.8068
取或以	-11.8068
符告文玉清	-11.8069
亡親某	-11.8069
俯矜	-11.807
繁昌	-11.807
傲忽	-11.807
驅逐	-11.8072
長三寸	-11.8072
綺羅	-11.8072
收歛	-11.8073
閻羅	-11.8074
眞常之樂	-11.8075
度人無量天尊	-11.8076
點汙	-11.8077
罔識	-11.8077
唵吽吒唎四字	-11.8078
不信道法	-11.8079
按摩	-11.8079
稽延	-11.808
泄漏	-11.8081
旛一首	-11.8082
療治	-11.8082
下情无任惶懼之至謹狀	-11.8084
黒單	-11.8087
竒花	-11.8087
不勝䖍祝之至	-11.8087
親友	-11.8087
色慾	-11.8088
辟兵	-11.8088
仰叩	-11.8089
眞詮	-11.8089
挑起	-11.809
復鑪	-11.8091
長七尺	-11.8091
一顆	-11.8092
紫盖	-11.8092
此之謂也	-11.8094
名之曰	-11.8095
某下情無任	-11.8096
供養之具	-11.8096
一切幽䰟	-11.8097
丹笈	-11.8098
遐想	-11.8099
日直功曹	-11.8099
混康	-11.81
堂宇	-11.8102
忠信	-11.8102
蜀郡	-11.8102
侵傷	-11.8103
領敎	-11.8103
綵女	-11.8105
恣意	-11.8105
學道之人	-11.8106
紫樞	-11.8108
慕義	-11.8109
上帝有勑	-11.811
長九尺	-11.811
禍患	-11.8114
輝潤	-11.8114
靈寳領教濟度金書卷之二百五十	-11.8115
可惜	-11.8123
方無極飛天神王長生大聖無量度人君	-11.8127
人各恭敬志心朝禮	-11.8128
祕範	-11.8132
與道合眞鳴法鼔二十四通	-11.8141
諸天上帝申牒三界真司外	-11.8145
九幽拔罪	-11.8151
院使眞君	-11.8153
兒女	-11.816
歴劫	-11.8166
䖍祝	-11.8167
謹牒太歳年月日牒具法師衘位姓押	-11.817
與天相	-11.8175
渥澤	-11.8178
設壇場	-11.8178
治百病	-11.8189
星𨇠	-11.8193
逢道運	-11.8195
西方无極太上靈寳天尊	-11.8198
向來所啓之誠速逹徑御	-11.8198
醜惡	-11.8211
威顔	-11.8213
長五尺	-11.8217
侍香金童傳言散花	-11.8225
无上黄籙大齋立成儀卷之四十	-11.8232
千二百官君	-11.8246
恩綸	-11.8259
千尺	-11.826
拜謁	-11.8262
所請天官	-11.8266
奉爲亡故某	-11.8283
紫微夫人	-11.8316
誠謹啓以聞發願存神燒香香	-11.8319
切忱恂	-11.8323
尊願以是功德歸流齋主	-11.8328
潔己	-11.8337
自今以去若有	-11.8352
禍殃	-11.8363
魂一時解脫四願孤	-11.8364
初捻上香願此香煙騰空俓上供養无上	-11.8385
財帛	-11.8388
千斤	-11.8389
方寸七	-11.8391
逍遥快樂	-11.8393
向來所啓之誠速達俓御	-11.8416
葵志	-11.8455
疾疫	-11.8463
掐卯文	-11.8467
某不勝虔祝之至	-11.847
枉殺	-11.8478
激切懇祈之至謹奉表陳啓以聞	-11.8489
出者嚴裝顯服冠帶垂纓關啓	-11.8493
日服一	-11.8501
虚无自然元始天尊无極大道太上	-11.8513
墮地獄	-11.8527
吹彈	-11.8535
遊名山	-11.8535
皇君諱	-11.8541
月日時生	-11.8554
靈寳本章	-11.8555
抹	-11.8556
寰	-11.8575
太上無極大道虚無自然元始天尊	-11.858
▲▲▲▲	-11.8583
急上關啓	-11.8585
道炁靈寳妙光下降流入臣等身中	-11.8609
齋意安泰	-11.8631
靈寳玉鑑卷之二十	-11.8634
呪七遍	-11.8636
中元玉籙簡文神仙品曰詣師威儀	-11.8656
仰對慈尊	-11.8664
宸道君	-11.8677
譔	-11.8685
糠	-11.8688
腸胃	-11.869
驛馬上章吏	-11.8692
九月九日	-11.8693
餚	-11.8693
耳目聰明	-11.8693
眥	-11.8695
乗黒雲	-11.8696
冕	-11.8696
蓄	-11.8697
鎔銅	-11.8698
犒	-11.8698
豕	-11.8698
驚駭	-11.8699
十方仙童玉女侍衛香煙傳	-11.87
榦	-11.87
西昇經云	-11.87
闈	-11.87
樽	-11.87
天下都大城隍	-11.8701
猫	-11.8702
蘋	-11.8702
烏丸	-11.8702
荆𣗥	-11.8703
墨一笏	-11.8703
琰	-11.8703
豺狼	-11.8703
香上度過	-11.8704
甕	-11.8704
天一生水	-11.8704
卵咸得生成九願積疾新痾旋即痊	-11.8704
沌	-11.8704
稜	-11.8705
獄定罪考鬼靈官志心朝禮酆都	-11.8705
百餘里	-11.8705
五行三命	-11.8705
湮	-11.8705
淅	-11.8705
摙	-11.8706
念呪九徧	-11.8706
鳴天鼓	-11.8706
二丈四尺	-11.8706
壊	-11.8706
耿	-11.8706
魂度朱陵	-11.8706
冦	-11.8706
剏	-11.8707
𠎝	-11.8707
章一通上詣太上某宫曹治	-11.8707
拖	-11.8708
飛神謁帝	-11.8708
𧇖	-11.8708
葛仙翁	-11.8708
念道遣所欲淡泊正氣停蕭然神	-11.8708
惶怖	-11.8708
導迎善瑞榮進家庭利旺子孫昌隆福壽	-11.8709
狩	-11.8709
顧盻	-11.8709
策杖	-11.8709
恍愡	-11.8709
齋主營造所在	-11.8709
破齋犯戒	-11.8709
眷屬親縁	-11.8709
湊	-11.8709
庠序	-11.8709
俓上供養无上至眞經寶	-11.8709
微天皇大帝紫微北極大帝后土皇地祇	-11.8709
傅日月星宿北斗南辰周天眞宰十方	-11.8709
罵辱	-11.871
皇笳天	-11.871
遘	-11.871
歩虚旋遶	-11.871
一日一夜	-11.871
月府太隂皇君	-11.871
靜萬業	-11.871
㳺	-11.871
轟	-11.871
瘞	-11.8711
鏗鏘	-11.8711
身命運限	-11.8711
三洞法師冲靖先生留用光傳	-11.8711
本命神將本宿星官	-11.8711
壬戌	-11.8711
微上宫靈寳至眞明皇道君	-11.8711
枷鎻	-11.8711
長生保命天尊福生無量天尊	-11.8712
自然上升玉	-11.8712
吳越	-11.8712
緑輦丹輿	-11.8712
仰祈天澤克證徃生	-11.8712
明檢鬼營	-11.8712
等謹按經云	-11.8712
堤	-11.8713
郷閭	-11.8713
畎	-11.8713
呪七徧	-11.8713
五人官將一百二十人	-11.8713
太安皇崖天	-11.8713
土地里域眞官正神急上關啓臣今奉爲	-11.8714
清明何童天	-11.8714
壝	-11.8714
矜憫	-11.8714
道炁百千萬重	-11.8714
蓋招神攝風役使萬靈上衛仙翁	-11.8714
淨天地呪	-11.8714
得一分靈	-11.8714
蟻悃	-11.8714
三界應感一切眞靈臣聞	-11.8714
胄	-11.8714
千和萬合	-11.8714
願得長生伏以	-11.8714
飛潜動植	-11.8714
持齋奉戒	-11.8714
書題云	-11.8715
消災謝過請福延生	-11.8715
桉	-11.8715
𤁋	-11.8715
祓	-11.8715
蓋招神攝風役使萬靈上衞仙翁	-11.8715
破地獄眞符	-11.8715
眞鎭星吐輝流	-11.8715
以今中分行道請法衆等運茲	-11.8715
珍羞	-11.8716
殻	-11.8716
轉燭陽光掃穢除氛開明童子號曰玄	-11.8716
爲如上縁	-11.8716
七日七夜	-11.8716
前生今世罪對立功𥙷過九念家	-11.8716
各二人出	-11.8716
彤墀	-11.8716
屹	-11.8716
疪	-11.8716
三途五苦八難	-11.8716
流一切興國愛民普濟群生人同劫年	-11.8716
黄素書卷之	-11.8716
傲誕	-11.8716
无想无結无愛	-11.8716
婚	-11.8716
欺誑	-11.8716
具位姓某承誥奉行謹封方函	-11.8716
覆載無窮安平不陷海淪不崩保	-11.8716
眇莽	-11.8717
一如女青詔書	-11.8717
嗣續	-11.8717
甓	-11.8717
樊籠	-11.8717
環珮	-11.8717
磅礴	-11.8717
隨劫輪轉	-11.8717
敎導頑夫皆蒙惠澤精苦	-11.8717
孛蝕虧盈安清光照諸天洞消暗	-11.8717
丙戌	-11.8717
萬願從心	-11.8717
黄炁陽精	-11.8717
醮筵内外一切威靈	-11.8717
翁重浮容天	-11.8717
大帝九天應元雷聲普化天尊九天雷祖	-11.8718
消災度厄	-11.8718
蕋	-11.8718
爲物範六念損已布施道士及	-11.8718
眞皇洞神天尊	-11.8718
變化無方	-11.8718
禋	-11.8718
蒙如所啓仰荷玄恩得道之後昇入无	-11.8718
奉道弟子姓某	-11.8718
願得太上十方正眞生炁降流	-11.8718
屐	-11.8719
拔舌	-11.8719
囊盛	-11.8719
縈纒	-11.8719
同𡨚親和釋八願潜胞處	-11.8719
丐祈原赦齋主某前生今世	-11.8719
禁戒多違	-11.8719
綽	-11.8719
天尊從此巳上禮念天尊聖號乞懴某	-11.8719
齎持法信	-11.8719
太嵗年月日	-11.8719
五炁朝元	-11.872
倐歘	-11.872
飛天法輪	-11.872
復次眞人道士	-11.872
楓陛	-11.872
上明天尊大慈之澤下副	-11.872
緼	-11.872
飛元聚靈	-11.872
岱宗	-11.872
髙拱彌髙	-11.872
若干日夜	-11.872
諸天内音	-11.872
溟漠	-11.872
宣通召命	-11.8721
噏	-11.8721
徳得道之後保天長存和與道合眞	-11.8721
斃	-11.8721
丕闡	-11.8721
下情无任	-11.8721
動植飛潜	-11.8721
延生保命	-11.8721
倒生玄司七玉女	-11.8721
靜謐	-11.8721
砂汞	-11.8722
硤石血湖	-11.8722
嘯朗	-11.8722
三塗九夜	-11.8722
繿	-11.8722
澡雪	-11.8722
貧乏	-11.8723
璿	-11.8723
丹輿緑輦	-11.8723
九祖生天	-11.8723
螟	-11.8723
匪賴	-11.8723
凈明	-11.8723
太皇萬福	-11.8723
雷轟	-11.8723
四海四瀆	-11.8723
之柱石	-11.8724
提擕	-11.8724
龜齡	-11.8724
凝旒	-11.8724
三天扶教輔元大法天師	-11.8724
太平下敎二十四眞人	-11.8724
霏霧	-11.8724
猛虎	-11.8724
在會係薦	-11.8725
軍陣	-11.8725
匪頼	-11.8725
鵰	-11.8725
綺言妄語	-11.8725
合屬官吏	-11.8725
十月五日	-11.8726
奕葉	-11.8726
鳳輦	-11.8726
鈔夫	-11.8726
殃斷絶	-11.8726
稚	-11.8726
翹傾	-11.8727
剌史	-11.8727
殃咎	-11.8727
玊皇上帝	-11.8727
碩	-11.8727
保䕶	-11.8728
憲網	-11.8729
炫	-11.8729
坤輿	-11.8729
顏色	-11.873
康寜	-11.873
急急如長生大帝勑	-11.873
泡	-11.873
九幽諸獄	-11.873
盤旋	-11.873
負扆	-11.8731
莊子云	-11.8731
三洞寳經	-11.8731
愆瑕	-11.8732
游宴	-11.8732
讃嘆	-11.8732
激響	-11.8732
野獸	-11.8732
靖廬	-11.8732
釋八願潜胞處卵咸得生成九願積疾新	-11.8733
膏雨	-11.8733
學仙頌	-11.8733
偃息	-11.8734
夙植	-11.8734
庖	-11.8734
東嶽泰山府	-11.8735
鴻休	-11.8735
赤書眞文	-11.8735
是故我今	-11.8735
遲留	-11.8737
拔出地户	-11.8738
黎庶	-11.8738
則上明天尊大慈之化下副臣等	-11.8738
河魁	-11.874
輔翼	-11.8741
貼黃	-11.8741
黒壤	-11.8741
品秩	-11.8742
乖違	-11.8743
瘟毒	-11.8743
繁想	-11.8743
袐藏	-11.8745
第三日早	-11.8746
怨憎	-11.8747
冥途	-11.8747
誦經行道	-11.8747
遍下十方三界	-11.8747
曰子欲	-11.8748
三啓頌三禮重稱法位具位	-11.8749
沖融	-11.875
十方靈寳天尊十方巳得道大	-11.8751
朱陵大帝	-11.8752
殁後	-11.8752
靈寳領教	-11.8752
慈憫	-11.8753
億載	-11.8753
爰潔	-11.8756
樓臺	-11.8757
節次先	-11.8765
愆咎	-11.8766
等至心歸命	-11.8772
㑹散花太空神化	-11.8775
萬六千	-11.88
病殺人	-11.8802
烟騰空俓上供養无上至眞師	-11.8807
官將司額據	-11.8852
虚皇大道	-11.8853
等首體投地歸命太上	-11.8864
畏懼	-11.8884
五明之	-11.8885
當境里域	-11.8888
僚屬	-11.8888
四洞微髙士開光救苦	-11.8891
三寶中來	-11.8902
百斤	-11.8922
某年某月	-11.8939
此間土地里域眞官	-11.8951
賜證明	-11.8957
牽引	-11.8959
歳年月日具位姓某狀	-11.8966
蠕息天人獲慶年同劫石十一願帝王國	-11.8975
上朝元始	-11.8982
寒氷	-11.8984
符奉爲亡故某人靈䰟仗兹往生仙界念	-11.8986
三十六部尊經眞文寳符	-11.8994
中斗大魁	-11.8996
譴責	-11.9007
等皈命之誠謹啓以聞	-11.901
小墓	-11.9024
長生大帝東極青華大帝后土皇地祇	-11.9035
尤甚	-11.9044
泄慢	-11.9082
須至申聞者右	-11.91
拜跪	-11.9117
詣靈壇	-11.9117
轉誦太上洞玄靈寳無量度人上品妙經	-11.9141
甘美	-11.9144
靜黙天魔並敬護世世享大福又	-11.9146
行香之所自然生金液丹	-11.9148
告下十方三界	-11.9158
迅雷	-11.9158
玄壇天帝神君當召此間土地里域	-11.9176
真交㑹在此香火爐前令	-11.9195
持法戒	-11.9215
郷貫某人	-11.9218
誦是經	-11.9253
供養三寶	-11.9257
穢觸	-11.9267
元返本	-11.9275
赴齋壇	-11.928
南宫受化	-11.9286
所啓速達徑御太上无極大道	-11.9301
方無極太上靈寳天尊	-11.9303
愼之焉	-11.9317
七曜齋	-11.932
臣等身中令臣所啓	-11.9326
按人各恭敬	-11.9334
妙經洞玄靈寳	-11.9339
離幽夜	-11.9342
聖前恭望聖慈允兹申請	-11.9344
猖狂	-11.9364
靈寳領教濟度金書卷之四十	-11.9369
兵士十萬	-11.9376
瞬息	-11.9379
㪷	-11.9382
見有王子	-11.9389
渴飲	-11.9389
溲	-11.9393
念一念爲道四大合德齋主七世父母免	-11.9393
元明文舉天	-11.9393
誠惶誠恐稽首頓首再拜以聞	-11.9393
總眞王君	-11.9395
遂成金剛體超度三界難地	-11.9398
藤	-11.9399
鐺	-11.9405
尖	-11.9405
畋	-11.9405
故殺誤傷	-11.9406
痺	-11.9406
番	-11.9408
沐浴更衣	-11.9411
娠	-11.9411
拘魂制魄	-11.9411
天堂享大福	-11.9411
瓠	-11.9412
楮	-11.9412
諶	-11.9412
核	-11.9413
十洲三島	-11.9413
歐	-11.9413
沮	-11.9413
伎	-11.9413
㣧	-11.9413
鍵	-11.9414
花瓶	-11.9414
願以是功德皈流	-11.9415
命素一疋	-11.9415
呻	-11.9415
婢	-11.9416
嘉禾	-11.9416
悸	-11.9416
丗	-11.9416
煌煌	-11.9416
涎	-11.9416
鑊	-11.9416
掣電	-11.9417
倉庫	-11.9417
圗	-11.9417
十回度人	-11.9417
降臨醮座	-11.9417
耻	-11.9417
志心皈依信禮	-11.9417
五嶽眞形	-11.9417
顓	-11.9417
嬉	-11.9417
曹仙官中元南洞陽左宮	-11.9417
訝	-11.9417
千眞科曰	-11.9417
揣	-11.9417
蓬島	-11.9417
神功妙濟	-11.9418
㘅	-11.9418
閃爍	-11.9418
閬苑	-11.9418
劈	-11.9418
符到奉行	-11.9419
闐	-11.9419
餒	-11.9419
媚	-11.9419
區區	-11.942
懾	-11.942
桴	-11.942
嶂	-11.942
瀟	-11.942
運神㑹道	-11.9421
羗	-11.9421
宣告十方三界合屬真司	-11.9421
橘	-11.9421
五嶽五帝眞君	-11.9421
請光分燈	-11.9421
咒	-11.9422
有感必通	-11.9422
歷關天中度命登眞焚符	-11.9422
薤	-11.9422
咬	-11.9422
種病病殺惡人	-11.9422
稍稍	-11.9422
丕冐	-11.9422
貅	-11.9422
紫金瑞相	-11.9423
絃歌	-11.9423
澹泊	-11.9423
櫟	-11.9423
録異記卷之	-11.9423
蝦	-11.9423
飛行羽經	-11.9423
靑	-11.9423
永爲種民	-11.9423
頒宣符命	-11.9423
𩲃	-11.9424
寕	-11.9424
胷膈	-11.9424
率衆官	-11.9424
崐	-11.9424
金銀珠玉	-11.9424
響答	-11.9425
夭折	-11.9425
邉	-11.9425
如車輪	-11.9425
天神地祇	-11.9425
謹重伸上啓太上	-11.9425
状	-11.9425
極无量品至眞大神飛天神王長生大聖	-11.9426
鈐	-11.9426
旌旗	-11.9426
赤棒	-11.9426
毳	-11.9426
喘息	-11.9426
拍	-11.9426
立觀度人	-11.9426
蜒	-11.9426
汾	-11.9426
測瓊漿寳飯異果竒	-11.9426
蒨燦	-11.9426
一唱萬眞	-11.9426
髪謝過自新伏願	-11.9426
旃	-11.9426
功滿德就	-11.9426
帡	-11.9426
謹奉降	-11.9426
諳	-11.9426
矧	-11.9427
玉山淨供	-11.9427
帀繞	-11.9427
禮方懴方三啓三禮重稱法位具位	-11.9427
萬㝢	-11.9427
零一切濟度靡不鮮榮和與道合眞復爐	-11.9427
玷	-11.9427
圍遶	-11.9427
淵通元洞天	-11.9427
犴室	-11.9427
璿璣	-11.9427
弃	-11.9427
慟	-11.9428
謹㳙今月某日爲始	-11.9428
三命五行	-11.9428
各三十二人出出者嚴装關啓	-11.9428
恩惟太上分别求哀	-11.9428
道士女官	-11.9428
大道洞玄虚有念無不契煉質入仙	-11.9428
九幽㧞罪天尊	-11.9428
呼隂召陽	-11.9428
某謹爲某求乞	-11.9428
泉扃	-11.9428
唳	-11.9429
𡨚仇和釋	-11.9429
太上執法仙士蔣叔輿編	-11.9429
七誦重關開	-11.9429
天羅地網	-11.9429
監齋直事	-11.9429
仰依太上三尊願以是功德上祝	-11.9429
六道都案	-11.9429
即與和合隂陽調平經緯其有身命運限	-11.9429
悞	-11.9429
金華仙魔王敬受事故能朝諸天皆從齋	-11.9429
凡有皈投敢忘關告	-11.9429
玄壇恭按眞科次第修奉	-11.9429
婺	-11.943
男子女人	-11.943
枵	-11.943
亭亭	-11.943
泠泠	-11.943
錫羡	-11.943
胤嗣	-11.943
憲天弘道	-11.943
須至奏聞者右臣謹録狀上奏	-11.943
投龍進簡	-11.943
度人不死尊神	-11.943
山其山	-11.943
寂然兠術天	-11.943
榖豐熟國富民歡七願浮雲結炁聚	-11.9431
達俱獲飛仙	-11.9431
地獄餓鬼畜生	-11.9431
先亡後死	-11.9431
毓粹	-11.9431
太上洞玄靈寳无量度人上品妙經	-11.9431
劬勞	-11.9431
魃	-11.9431
四海四瀆溪澗潭洞	-11.9432
提奬	-11.9432
上元一品賜福天官	-11.9432
衣服卧具	-11.9432
纎芥	-11.9432
頑愚	-11.9432
坐致自然	-11.9432
日月星宿璇璣玉衡	-11.9432
䑛	-11.9432
事理疾速	-11.9432
隍	-11.9432
仆	-11.9432
伏乞聖慈特	-11.9432
疹	-11.9432
踪	-11.9432
井鬼栁星張翼軫七宿星君	-11.9432
鐡柱	-11.9433
綠	-11.9433
劒㦸	-11.9433
泮	-11.9433
要修科儀戒律鈔卷之十	-11.9433
天一北祚	-11.9433
雷霆九司	-11.9433
魔王保舉	-11.9433
堵	-11.9433
祖玄眞師列位眞人經籍度師列位眞人	-11.9433
西方七炁素天太白流精光耀金門洞	-11.9433
萬劫一傳	-11.9433
箸	-11.9434
恭對道前	-11.9434
㝷聲赴感	-11.9434
祈恩謝過	-11.9434
嵩衡	-11.9434
華夏讃引	-11.9434
須至專牒者牒候到	-11.9434
榖稼	-11.9434
蛙	-11.9434
負隂抱陽	-11.9434
福佑見存	-11.9434
薦祉	-11.9434
天尊斗極宗師	-11.9434
太上黄籙齋儀卷之四十	-11.9434
鰲極	-11.9434
賑	-11.9434
秋三月	-11.9434
本靖諸省府院司	-11.9434
萬仞	-11.9435
早朝行道儀燒香頌各禮師存念如法	-11.9435
具法位姓某謹重封	-11.9435
黄庭内景	-11.9435
銀缸	-11.9435
不得留停	-11.9435
玄中大法師重稱法位上清玄都弟子	-11.9435
亭育	-11.9435
提𢹂	-11.9436
祚曆	-11.9436
七眞讃	-11.9436
百揆	-11.9436
剛柔	-11.9436
制魔保舉	-11.9436
白骨成人	-11.9436
至心歸依	-11.9436
琉璃	-11.9436
請轉法輪師題經	-11.9436
埸	-11.9437
焚詞頌	-11.9437
至于累劫	-11.9437
痒主	-11.9437
佗	-11.9437
門下求覔之如不具者又詣	-11.9437
侍爐引班	-11.9438
西城總眞王君太乙眞人東嶽上	-11.9438
炎亢	-11.9438
玄上玉晨天尊	-11.9438
東華青宫	-11.9438
筆一管	-11.9438
无極神郷	-11.9438
負債	-11.9438
獲福無量	-11.9438
歿	-11.9438
崇建某齋幾晝夜開度亡過某靈䰟	-11.9438
斗極祖師	-11.9439
三界應感一切威靈	-11.9439
謹牒太歳年月日牒具位姓某押	-11.9439
好事者	-11.944
掃灑	-11.944
杲	-11.944
開大宥	-11.944
駟馬	-11.944
織烏	-11.944
霜雪	-11.944
旦暮	-11.944
懽恱	-11.944
賔客	-11.944
當爾之時	-11.944
亦當修齋行香誦經	-11.944
瑩潔	-11.9441
筠	-11.9441
倏	-11.9441
遏截	-11.9441
衆聖臣等皈身皈神皈命首體投地仰依	-11.9441
冥冥長夜	-11.9442
與道合并	-11.9442
摧鋒	-11.9442
廩君	-11.9442
新釐	-11.9442
神虎玉札	-11.9443
蝗蟲	-11.9443
北方臣等今故燒香皈身皈神皈命	-11.9443
仰祈天澤克證生	-11.9443
墊	-11.9443
上清眞境	-11.9443
生老病死	-11.9443
得道之後昇入無爲	-11.9444
飈輪	-11.9445
瘧疾	-11.9445
羽盖	-11.9446
丘墓	-11.9446
黃巢	-11.9447
三部使者	-11.9448
也其星則號	-11.9448
恭惟聖造	-11.9448
忤逆	-11.9449
闔境	-11.9449
元陽上品大乘經典	-11.9449
不肯布施見	-11.9449
焦爛	-11.9449
陞座	-11.945
叨荷	-11.945
携手	-11.9451
冬夏	-11.9451
曰善哉	-11.9451
尋訪	-11.9452
形長七寸	-11.9452
錯亂	-11.9452
驅役	-11.9452
恒沙	-11.9454
縱恣	-11.9454
衆等奉爲	-11.9455
珍竒	-11.9456
洞天福地靖廬治化仙官	-11.9456
左府主生太陽火官右府主死太隂水官	-11.9457
眞人光妙音	-11.9457
竹帛	-11.9458
生神玉章	-11.9458
葵傾	-11.9458
玄胎平育天	-11.9459
天寳臺	-11.946
度上南宫	-11.9465
岱嶽	-11.9467
帝瓊闕髙眞玄都玉京金闕七寳瓊臺紫	-11.9472
元陽世界	-11.9476
拔罪真人今日道場施主及以大衆仰願	-11.9477
升天堂衣食自然二念帝王國主道化興	-11.9478
善種大王	-11.9481
七寳自然宫殿永與道合所啓玄感	-11.9486
長生保命天尊	-11.9487
將軍從官	-11.9492
皈命之誠謹啓以聞十二願	-11.9512
落景陞壇	-11.9521
江淮	-11.9541
上詣三天曹	-11.9563
今故燒香歸身歸神歸命	-11.9571
司額據	-11.9583
人之受生	-11.9587
狼吏虎賁	-11.9662
西南方无極太上靈寳天尊	-11.9667
九府四司	-11.9721
符簡軌範品	-11.9729
得解脱	-11.9731
右府主死太隂水官	-11.9783
願此香煙騰空徑上供養无上至眞師寳	-11.9798
志心歸命禮	-11.9828
書符一道	-11.9848
十三科儀立成品	-11.9876
貽譴	-11.988
紙墨書	-11.9931
屬一切眞靈	-11.9944
人東嶽上卿司命茅君定録保命二	-11.9983
說此偈	-11.9987
甲午旬	-11.9995
无上至眞師寳臣等皈身皈神皈命	-12.0001
恭就某處崇建靈寳	-12.002
等皈身皈神皈命首體投地仰依	-12.0043
謹同誠上啓虚无自然	-12.0045
向來奉爲某	-12.0051
三寸六分	-12.0059
虚皇玉晨大道君	-12.0059
北魁玄範府神虎	-12.0087
六願臣忠子孝君仁父慈七願四海	-12.0115
靜黙天魔並敬護世世受大福	-12.0125
廣成集卷之十	-12.0125
官使者左右龍虎君侍香諸靈官當令臣	-12.0126
身中三五功曹左右官使者侍香	-12.0126
無上三天玄元始三炁太上老君召出	-12.013
上物或盜天尊寶	-12.0143
毬	-12.015
樂子長	-12.0166
忍不可忍法	-12.0166
葛璝	-12.0167
匙	-12.0168
穰	-12.0168
弓箭	-12.0168
細研	-12.0168
邢	-12.017
諸獄考鬼靈官	-12.0171
苔	-12.0171
扎	-12.0171
繭	-12.0174
隂騭	-12.0175
槿	-12.0177
簟	-12.0178
扣齒九通	-12.0179
中元玉籙簡文神仙品曰奉師威儀	-12.018
急急如元始度人律令	-12.018
稚川	-12.018
舐	-12.0181
溫	-12.0181
腕	-12.0181
凭	-12.0181
亰	-12.0182
𥚑	-12.0182
有感斯通	-12.0182
鐸	-12.0182
彷彿	-12.0183
戈甲	-12.0184
澣濯	-12.0184
無常的法	-12.0184
脹滿	-12.0184
邅	-12.0184
銀潢	-12.0185
絢	-12.0185
倩	-12.0185
牟	-12.0185
歧	-12.0185
鋸解	-12.0185
洗垢穢法	-12.0185
寘	-12.0186
缺者考屬	-12.0186
疽	-12.0186
放翫習法	-12.0186
孚佑	-12.0186
牡	-12.0186
虵	-12.0186
蠡	-12.0186
急急如太上口勑	-12.0187
秪	-12.0187
衫	-12.0187
借貸	-12.0187
無常顧法	-12.0187
思神念眞	-12.0188
急急如上清律令勑右誦呪	-12.0188
桃康合延	-12.0188
减	-12.0188
倂	-12.0188
之身或生	-12.0188
無極大道道德衆聖天尊至眞大帝天帝	-12.0188
挂	-12.0189
苞	-12.0189
晦朔	-12.0189
采菲	-12.0189
募	-12.0189
留冲靖	-12.0189
夘	-12.0189
鏞	-12.019
今醮主某	-12.019
峩	-12.019
姥	-12.019
冥寂玄通	-12.019
攀戀之至	-12.019
誑惑	-12.019
表臣某伏覩	-12.0191
災凶殄息	-12.0191
之考又有	-12.0191
曹仙官中元洞空青靈宮	-12.0191
晋	-12.0191
智慧生戒根眞道戒爲主三寳由是興	-12.0191
窟宅	-12.0191
不淫想法	-12.0191
膂	-12.0191
功德金色光	-12.0191
素以胎生	-12.0191
凱	-12.0192
𦔳	-12.0192
棟宇	-12.0192
氊	-12.0192
閙	-12.0192
狠	-12.0192
寧免𡨚愆	-12.0193
俸	-12.0193
張萬福天師	-12.0193
櫺	-12.0193
十轉回靈	-12.0193
願此香煙騰空逕上供養无上至眞師寳	-12.0193
尢	-12.0193
悲泣	-12.0194
巻	-12.0194
羈	-12.0194
急急如靈寳无量度人律令	-12.0194
訕	-12.0194
悔恨	-12.0194
謹遵金籙品格肅䢖然燈威儀於	-12.0194
生成皆見元炁受陽之形草木果林經冬	-12.0194
不追懷法	-12.0194
冽	-12.0195
五星列照煥明五方水星却災木德致昌	-12.0195
扶桒	-12.0195
疵	-12.0195
姓某誠惶誠懼稽首頓首再拜上	-12.0195
親戚	-12.0195
時不可用	-12.0195
金龍一枚皈命	-12.0195
遊宴玉京	-12.0195
夐	-12.0195
三生四負	-12.0195
陽耀通關	-12.0195
祐見在使陵廟墳基肅寜殃注斷絶	-12.0195
熙	-12.0196
無拘留逼合之憂	-12.0196
裾	-12.0196
无量度人君妙行眞人天眞皇人	-12.0196
磕	-12.0196
咀嚼	-12.0196
貧窮下賤	-12.0196
跨鶴	-12.0196
顓頊	-12.0196
㓙	-12.0196
太歲年月日具位臣姓某狀奏	-12.0196
灝	-12.0196
蒞	-12.0196
不可稱計	-12.0197
大臣宰輔	-12.0197
忿怒	-12.0197
拾遺	-12.0197
玄明恭慶天	-12.0197
諸天丞相南昌上宫韓司主録監生大神	-12.0197
平好醜法	-12.0197
慚愧	-12.0197
異口同音	-12.0197
僮	-12.0197
閉氣九息	-12.0197
輕泄漏慢	-12.0197
爲修齋弟子某	-12.0197
上相上宰上保上傅四司五帝十二仙	-12.0197
蓊藹	-12.0197
靈寳大法司牒上	-12.0197
不疑空法	-12.0197
妖魅	-12.0197
芸	-12.0197
萬範開張	-12.0197
椿萱	-12.0197
靈寶領敎濟度金書卷之三百	-12.0197
蕳	-12.0197
至眞玉皇上帝御前謹稱法位具位	-12.0197
開九宫八卦係屬之門爲弟子某解除	-12.0198
變神歩罡	-12.0198
闗	-12.0198
魔無干犯	-12.0198
厄告文玄靈解厄符命告下解	-12.0198
砭	-12.0198
行道燒香散花轉誦太上洞玄靈寳无量	-12.0198
嬴	-12.0198
魓	-12.0198
今故燒香願以是功德上爲	-12.0198
消災集福	-12.0198
匐	-12.0198
厦	-12.0198
九天命靈章生神神自超元君遏死	-12.0198
五嶽五天聖帝	-12.0198
俯垂省録	-12.0199
漣汲溟波	-12.0199
本州城隍司本縣城隍司里域眞官	-12.0199
不悠想法	-12.0199
之厄疾速關告某本命元辰本命	-12.0199
某上言今月某日爲修齋弟子某崇建	-12.0199
釆	-12.0199
靈寳經籍度三師眞君	-12.0199
思念是經	-12.0199
西方七寳金門	-12.0199
保命生根	-12.0199
巍巍大梵	-12.0199
籣	-12.0199
蓬茅	-12.0199
徐葛鄭三	-12.0199
某等同誠上啓虚	-12.0199
宮眞仙聖衆	-12.0199
道場衆等	-12.0199
鴻鴈	-12.0199
郡邑	-12.0199
妙行眞人天眞皇人	-12.0199
炁和調無有災患疫毒消滅普天安平五	-12.0199
冢	-12.02
膿	-12.02
唐廣成先生杜光庭刪	-12.02
方无極飛天神王長生大聖無量度人君	-12.02
鎗	-12.02
可韓司丈人天尊	-12.02
志心稽首禮太上無極大道	-12.02
前行諸妄想或於	-12.02
嘯歌	-12.02
巳得道大聖衆至眞尊神无極大道	-12.02
本靖主將副將護道監壇	-12.02
如律宣行	-12.02
雹	-12.02
南斗上生	-12.02
烽燧	-12.0201
於象外	-12.0201
上揲阮樂天	-12.0201
糾	-12.0201
迥	-12.0201
堯疆	-12.0201
甯	-12.0201
烽煙	-12.0201
恩章一通上詣某天曹伏須告報	-12.0201
眞緑霞煥映三天飛雲丹霄諸天控軿晨	-12.0201
孜孜	-12.0201
巾褐	-12.0201
曹僚案掾	-12.0201
敷落五篇	-12.0201
克獲上仙白日登天拜見太上永成眞	-12.0201
九世七玄	-12.0201
總眞王君太元眞人東嶽上	-12.0201
饑寒者天下人民各得其所七念蠕動	-12.0201
十華上聖俯	-12.0201
亶繇	-12.0201
胎卵濕化	-12.0201
謹牒太歳年月日牒具法位姓某押牒	-12.0201
豐儉	-12.0202
御案香	-12.0202
方宣懴	-12.0202
砥	-12.0202
㗖	-12.0202
豐稔	-12.0202
主宰龍神社稷山川城隍里域三界官	-12.0202
觀聽法音	-12.0202
垂淵鑒	-12.0202
罔測	-12.0202
死魂受鍊	-12.0202
淫慾	-12.0202
者徒二年	-12.0202
不彼念法	-12.0202
以昭宸貺干冒天威	-12.0202
法衆等志心皈身皈神皈命	-12.0202
爲上清眞人	-12.0202
下元三品解厄水官大帝	-12.0202
巳得道大聖衆至眞諸君丈人梵炁天君	-12.0202
控轡適十方旋憇玄景阿仰觀劫	-12.0202
潤屋潤身	-12.0202
善防言法	-12.0203
或大或小	-12.0203
今謹有黄籙大齋主某乙	-12.0203
饍	-12.0203
歙	-12.0203
桑榆	-12.0203
黃華蕩形	-12.0203
三炁天君南郷神仙諸靈官	-12.0203
除惡想法	-12.0203
離口過法	-12.0203
然燈續明	-12.0203
亡過某靈魂	-12.0203
獅御	-12.0203
鮒	-12.0203
三洞道士朱法滿編	-12.0203
聽法聞經	-12.0204
栲	-12.0204
靈寳天尊紫微天皇大帝禹餘天	-12.0204
蜚	-12.0204
喑	-12.0204
如影隨形	-12.0205
𦍒	-12.0205
玉文九天符命攝龍驛傳普天安	-12.0205
撩	-12.0205
今齋主某仰慮亡故某	-12.0205
不邪還法	-12.0205
歸身歸神歸命奉爲某乙修齋行道仰謝	-12.0205
逆旅	-12.0205
應念垂慈	-12.0205
須至專牒者牒請	-12.0205
灑掃	-12.0205
巳得道大聖衆至眞尊神	-12.0205
催促	-12.0205
薙	-12.0206
習悉意法	-12.0206
其辭曰	-12.0206
騾	-12.0206
逕御太上無極大道至眞玉皇上帝	-12.0206
開建无上黃籙大齋	-12.0206
㨿	-12.0206
凡有投告敢不關聞	-12.0206
髙皇九土四司五帝十二仙君	-12.0207
旛身書	-12.0207
臣誠惶誠恐稽首頓首再拜伏念臣	-12.0207
圜	-12.0207
踞	-12.0207
翠騫	-12.0208
筏	-12.0208
洞照内外	-12.0208
化化之機	-12.0208
豉	-12.0209
淒	-12.0209
搬	-12.0209
十餘丈	-12.0209
混元十二炁化生大將軍	-12.0209
又大道洞玄虚有念無不契鍊質入仙	-12.0209
絶心想法	-12.0209
峭壁	-12.0209
凡有投告盍爲關聞	-12.0209
升壇轉誦太上洞玄靈寳无量	-12.0209
六趣三塗	-12.021
黄帝中主	-12.021
蠢蠢	-12.021
永爲身寳	-12.021
糺	-12.021
天仙兵馬	-12.0211
湍	-12.0211
緬平	-12.0211
威禁至重	-12.0211
里閭	-12.0211
南方火翳地獄	-12.0211
玄上玉宸天尊	-12.0211
譚	-12.0211
椿桂	-12.0211
皮毛	-12.0212
隨品受生	-12.0212
東極青宫	-12.0212
門下君一人上請	-12.0212
大勲魔王	-12.0213
者流三千里	-12.0214
設醮謝恩	-12.0214
䜟	-12.0214
之罪或罵詈	-12.0214
酒陳終獻	-12.0215
而說偈言	-12.0216
我於爾時	-12.0216
茂恱	-12.0217
朝元之所自然生金液丹碧芝英百靈衆	-12.0217
再拜奉送	-12.022
塑像	-12.0221
紙百張筆一管墨一丸	-12.0221
與天同	-12.0222
司禄司	-12.0223
生人不用	-12.0223
渺渺大羅	-12.0223
太上玉晨大道君	-12.0224
志心奉請北都泉曲府	-12.0227
别傳云	-12.0231
得生成皆見元氣受陽之形草木果林經	-12.0234
在會衆	-12.0235
聖衆至眞諸君丈人諸天	-12.0243
大王當知	-12.0245
所啓速達徑御太上無極大道	-12.0246
雷陣	-12.0246
者何也	-12.0247
修設玄都大獻玉山淨供	-12.0249
形急急如髙上神霄玉清眞王律令	-12.0261
上出紅	-12.0264
身中令臣所啓速達俓御	-12.0283
牢檻	-12.0283
午朝陞壇行道之所自然生金液丹碧	-12.0284
東極青玄老君太乙救苦天尊	-12.0301
道君太上老君昊天至尊玉皇上帝紫	-12.0316
賦詩	-12.0317
三十六部尊經玄中大法師三天大法師	-12.0322
淡泊虚无安閑空寂澄清自居廣開法門	-12.0331
告之曰	-12.0334
惣	-12.0369
各禮師存念如法衛靈	-12.0372
丁壬	-12.0375
樂法以爲妻愛經如珠玉持戒制六	-12.041
之至謹稽首	-12.0416
一洞微髙士開光救苦	-12.042
志心皈依	-12.0439
演瓊科	-12.0444
傾葵	-12.0479
衛護某身原赦宿新無量罪咎矜奬即	-12.0499
誦隱語	-12.0522
髙功上香	-12.0528
出者嚴裝顯服冠帶垂纓關啓玄壇	-12.0559
星中神仙	-12.0608
臣某謹重誠上啓太上无極大道	-12.0633
靈寳玉鑑卷之十	-12.0646
昊天玉皇上帝十方巳得道大聖衆至眞	-12.0684
干冐天威	-12.0698
今故燒香自皈依經尊大聖衆至眞之	-12.071
死魂受錬	-12.0718
三十二天帝君玉虚上帝玉帝大	-12.0723
初捻上香願此香烟騰空俓上供養	-12.0743
眞人名山洞府得道神仙	-12.0803
師與弟子	-12.0812
爲某上請	-12.0855
與道合眞存神燒香	-12.0868
魁𩲃𩵄䰢魓𩳐魒	-12.0882
升入無形	-12.0895
昊天至尊玉皇上帝	-12.0906
甲申旬	-12.0911
尋聲救苦	-12.0913
無上至眞道寳	-12.0917
終獻具位	-12.0922
雇	-12.0959
普及幽冥𡨚親平等	-12.0959
頓首再拜	-12.0968
紂	-12.0976
甲寅旬	-12.0981
捾	-12.0982
恭惟太上无形无名虚无自然至	-12.0983
藕	-12.0992
見有大臣	-12.0993
延年益壽	-12.0999
琢	-12.1001
茄	-12.1002
噫	-12.1003
所啓速逹	-12.1004
齒落更生	-12.1006
拈	-12.1007
磿	-12.1008
参	-12.1008
所啓之誠速逹俓御	-12.1009
瓮	-12.101
磑	-12.1011
生身者從	-12.1011
輾	-12.1011
样	-12.1012
膜	-12.1012
髠	-12.1012
禮三寳巳復次懴悔	-12.1013
鏁	-12.1014
隘	-12.1014
壠	-12.1015
又爲上請	-12.1015
阨	-12.1016
闌	-12.1016
衒	-12.1016
日鬼敗	-12.1016
鉅	-12.1016
贏	-12.1017
凡得淨明法者	-12.1017
謔	-12.1017
鬬	-12.1017
鬱儀結璘	-12.1017
者其徳如	-12.1017
曹仙官上元太極右宮	-12.1018
宼	-12.1018
悛	-12.1019
杻	-12.1019
撒	-12.1019
螭坳	-12.102
癆	-12.102
爲諸來生	-12.102
酪	-12.102
乗雲駕龍	-12.102
富貴貧賤	-12.1021
中理五炁混合百神	-12.1022
九天溥度院	-12.1022
㸔	-12.1022
鳬	-12.1022
僮僕	-12.1022
元綱流演	-12.1022
領仙玉郎	-12.1022
帙	-12.1022
揮斥	-12.1022
玄靈璇璣府	-12.1022
狴犴	-12.1023
庠	-12.1023
閡	-12.1023
速達徑御	-12.1023
朶	-12.1023
死魂受錬仙化成人	-12.1023
日上忌	-12.1023
上皇元年	-12.1023
𡨥	-12.1023
斁	-12.1023
書篆旨訣品	-12.1024
誠惶誠恐稽首再拜	-12.1024
胎結解根	-12.1024
無猶豫法	-12.1024
超有漏之	-12.1024
行神布炁	-12.1024
福所覃普天	-12.1024
玉清寳籙破地獄眞符	-12.1024
綺言妄語惡口兩舌	-12.1025
謹按玄科今據	-12.1025
亞	-12.1025
仙降格扇景乗飈群生咸遂惠遍神州	-12.1025
方隅禁忌一切	-12.1025
彈紏	-12.1025
茅茨不剪	-12.1025
旭	-12.1026
枝榦	-12.1026
呵風罵雨	-12.1026
曹仙官中元北酆都右宮	-12.1026
[...]
