<unk>	0
<s>	0
</s>	0
。	-2.65841
(	-3.49344
)。	-3.84057
也	-4.48533
▁*	-4.60353
)	-4.70195
▁	-4.91565
之	-5.14574
上	-5.17083
反	-5.26191
音	-5.35983
者	-5.42803
為	-5.55505
有	-5.63514
不	-5.64209
經	-5.64654
以	-5.65532
一	-5.71335
於	-5.74953
無	-5.80602
而	-5.8768
曰	-5.88732
大	-5.89395
,	-5.92872
人	-5.93448
中	-5.94403
是	-5.94573
佛	-5.94842
下	-5.95628
法	-5.96324
故	-5.97288
其	-6.04093
即	-6.07007
作	-6.07919
心	-6.0798
如	-6.09517
出	-6.13491
生	-6.14917
行	-6.17281
此	-6.17409
又	-6.18486
見	-6.20148
言	-6.20416
三	-6.21647
時	-6.22962
若	-6.25021
相	-6.26032
經一卷	-6.26152
從	-6.2627
云	-6.26931
謂	-6.28052
名	-6.28768
二	-6.30444
得	-6.30703
自	-6.33672
王	-6.35156
非	-6.38926
身	-6.42303
四	-6.43063
聲	-6.43292
我	-6.47547
道	-6.47566
所	-6.48108
同	-6.48285
等	-6.48302
)。】「	-6.50788
說	-6.5097
五	-6.51015
」【(	-6.51428
和	-6.51706
菩薩	-6.52257
一卷	-6.5246
諸	-6.54337
如來	-6.55104
與	-6.57211
在	-6.58769
天	-6.5952
至	-6.60892
多	-6.63409
明	-6.65894
亦	-6.66414
來	-6.69484
反下	-6.69834
入	-6.70018
則	-6.72012
子	-6.73063
及	-6.73969
皆	-6.76001
善	-6.77011
水	-6.77498
智	-6.78664
知	-6.78806
因	-6.79307
字	-6.80051
事	-6.80952
】	-6.81486
地	-6.82691
能	-6.83039
義	-6.8549
問	-6.85678
本	-6.85697
處	-6.87322
當	-6.87835
前	-6.89015
山	-6.92807
成	-6.93147
師	-6.93175
後	-6.93215
今	-6.93282
一切	-6.93298
正	-6.94498
論	-6.9479
或	-6.95203
意	-6.9538
欲	-6.95511
常	-6.96912
彼	-6.96957
觀	-6.97542
譯	-6.98128
分	-6.98149
▁《	-6.98251
日	-6.99099
食	-7.00285
苦	-7.00717
然	-7.00992
空	-7.02195
可	-7.03686
七	-7.03972
起	-7.04137
力	-7.04789
那	-7.0501
六	-7.05092
眾	-7.05235
令	-7.0607
受	-7.08488
乃	-7.09019
語	-7.09925
光	-7.10851
取	-7.11159
已	-7.11461
僧	-7.1249
教	-7.12614
去	-7.12902
用	-7.13018
便	-7.14043
真	-7.14811
色	-7.14957
復	-7.15237
上音	-7.15743
文	-7.15884
汝	-7.16148
求	-7.16294
正作	-7.16711
應	-7.17826
門	-7.19359
勝	-7.19669
性	-7.20156
八	-7.20213
著	-7.20238
寶	-7.20294
羅	-7.22297
聞	-7.22798
淨	-7.23165
施	-7.2366
持	-7.2393
緣	-7.2451
世	-7.24694
眾生	-7.24816
盡	-7.25301
物	-7.25599
高	-7.26308
難	-7.26397
樂	-7.2677
先	-7.27235
國	-7.27655
神	-7.2829
修	-7.28312
果	-7.29298
頭	-7.29948
如是	-7.30049
小	-7.3022
依	-7.30656
業	-7.31564
何	-7.32381
德	-7.32587
通	-7.32787
隨	-7.3304
十	-7.33568
解	-7.33693
香	-7.34339
未	-7.34606
會	-7.34803
妙	-7.34825
還	-7.35134
識	-7.35691
重	-7.35847
離	-7.35948
定	-7.36108
惡	-7.36153
女	-7.36481
安	-7.37286
華	-7.37512
理	-7.37527
佛如來	-7.37836
念	-7.38144
火	-7.38454
利	-7.38519
合	-7.388
初	-7.39501
藏	-7.39503
衣	-7.39644
比丘	-7.39706
具	-7.40035
願	-7.40185
方	-7.40959
住	-7.41241
共	-7.41445
內	-7.41614
戒	-7.41659
也說文	-7.42258
深	-7.42886
長	-7.43145
也正作	-7.43161
集	-7.43318
金	-7.43593
化	-7.43726
滅	-7.44029
沙門	-7.44094
他	-7.4515
月	-7.45919
口	-7.4604
既	-7.47191
外	-7.47423
。【	-7.47562
風	-7.47616
開	-7.47645
古	-7.47719
將	-7.48217
功德	-7.48282
覺	-7.48692
流	-7.49161
實	-7.49342
雖	-7.49498
右	-7.49651
慧	-7.49657
死	-7.50096
由	-7.5026
莫	-7.50994
信	-7.51284
使	-7.5143
品	-7.51771
耶	-7.5194
俱	-7.52071
體	-7.5212
發	-7.52143
普	-7.52434
立	-7.52489
白	-7.52593
家	-7.52979
九	-7.53494
現	-7.53705
廣	-7.53743
迦	-7.55103
巳	-7.55607
異	-7.55725
耳	-7.55772
》(	-7.55914
猶	-7.5624
反正作	-7.56918
過	-7.57044
錄	-7.57475
足	-7.57982
度	-7.58685
亦云	-7.5882
居	-7.59528
目	-7.59724
餘	-7.59906
年	-7.60105
如來南無	-7.60359
寺	-7.60529
聖	-7.61096
別	-7.62015
除	-7.62393
清淨	-7.62724
南	-7.6273
龍	-7.63146
。」	-7.63174
此云	-7.63328
主	-7.63834
似	-7.63871
摩	-7.64541
傳	-7.65053
好	-7.65281
譯曰	-7.65286
轉	-7.66132
眼	-7.6627
數	-7.66516
手	-7.66627
福	-7.66714
佛南無	-7.66972
但	-7.67246
矣	-7.67832
部	-7.67981
ㄟ	-7.68026
證	-7.68207
二卷	-7.68439
達	-7.68567
向	-7.68698
木	-7.68736
兩	-7.6887
並	-7.69302
歸	-7.69316
反說文	-7.69532
斷	-7.69799
學	-7.69872
命	-7.70886
供養	-7.70897
無量	-7.7105
海	-7.71083
石	-7.71469
一名	-7.71593
報	-7.71596
「	-7.72096
或云	-7.72119
樹	-7.72141
釋	-7.72275
直	-7.7317
要	-7.73459
千	-7.73521
婆	-7.73552
阿	-7.73767
各	-7.7397
非也	-7.74214
北	-7.75415
是名	-7.75522
夫	-7.7569
照	-7.75807
形	-7.76136
書	-7.77008
聲也	-7.77157
根	-7.77503
雲	-7.77515
顯	-7.77686
遠	-7.77986
破	-7.78389
稱	-7.78623
更	-7.78722
不得	-7.79037
唯	-7.791
玄	-7.79239
悟	-7.79281
乎	-7.79531
止	-7.80084
母	-7.80153
請	-7.80165
牛	-7.80309
花	-7.80347
佛菩薩	-7.80453
都	-7.80568
必	-7.80577
宗	-7.80721
遂	-7.80894
失	-7.81535
土	-7.81992
次	-7.82271
少	-7.82656
執	-7.82674
病	-7.82764
愛	-7.82797
往	-7.82937
下音	-7.83131
坐	-7.83488
捨	-7.83831
斯	-7.84151
喜	-7.84967
思	-7.85208
諸佛如來	-7.85275
親	-7.85602
草	-7.85679
指	-7.85787
。」「	-7.86689
》	-7.86933
城	-7.87435
又作	-7.87436
不能	-7.8821
極	-7.88326
述	-7.88751
迷	-7.88935
齊	-7.89506
動	-7.89665
」	-7.89669
禮	-7.89824
造	-7.89968
罪	-7.89997
波	-7.90287
滿	-7.90958
到	-7.91568
師曰	-7.9177
百	-7.91995
境	-7.92121
種	-7.92323
馬	-7.92483
記	-7.9273
南無	-7.92803
乃至	-7.9315
也又	-7.93385
不可	-7.93565
帝	-7.94729
呼	-7.95132
情	-7.95363
尋	-7.96007
經云	-7.9602
首	-7.96091
新	-7.96332
謂之	-7.96657
夜	-7.97038
的	-7.97043
萬	-7.97245
引	-7.97705
世尊	-7.97787
吾	-7.97869
種種	-7.98011
須	-7.98814
舉	-7.98941
周	-7.98987
說文	-7.99604
凡	-7.99627
志	-7.99842
氣	-8.00821
想	-8.00838
了	-8.0112
始	-8.01207
結	-8.01399
▁佛說	-8.01438
計	-8.01536
光明	-8.01818
烏	-8.01833
且	-8.02217
塵	-8.02535
圓	-8.02803
護	-8.02883
像	-8.03244
車	-8.03641
悉	-8.03795
陀	-8.04135
西	-8.04477
乘	-8.04607
禪	-8.04976
金剛	-8.05232
胡	-8.05562
世間	-8.05744
攝	-8.05831
分別	-8.06039
興	-8.06213
公	-8.06239
或作	-8.06272
加	-8.06299
成就	-8.06442
鳥	-8.06601
息	-8.06618
邪	-8.07022
徒	-8.07406
俗	-8.07469
疑	-8.07483
出家	-8.0785
答	-8.08093
舍	-8.08498
菩提	-8.0854
〡	-8.08645
魚	-8.09117
路	-8.09175
東	-8.09192
涅槃	-8.09193
象	-8.09553
甚	-8.09652
三昧	-8.09733
清	-8.09783
界	-8.10119
代	-8.10163
邊	-8.10575
位	-8.11172
許	-8.11197
平	-8.11285
類	-8.11335
故名	-8.11509
于	-8.11518
喻	-8.11767
因緣	-8.12168
般若	-8.1297
尊	-8.13294
沙	-8.13329
提	-8.13755
二反	-8.13927
被	-8.14067
林	-8.1409
無有	-8.1414
元	-8.14206
殺	-8.14277
機	-8.14348
諸佛	-8.14846
治	-8.15217
也謂	-8.15347
也從	-8.15482
賢	-8.15834
劫	-8.15885
鉢	-8.16039
靈	-8.16239
云何	-8.16619
是也	-8.16812
注	-8.17038
聽	-8.17125
魔	-8.17243
方便	-8.17743
對	-8.17961
尼	-8.18034
鬼	-8.18367
老	-8.18608
聚	-8.18784
名也	-8.18952
遍	-8.19505
妄	-8.19548
虛	-8.19658
律	-8.19779
三藏	-8.20029
并	-8.20268
卷	-8.20627
底	-8.20753
支	-8.20966
絕	-8.21025
堅	-8.21192
)。【	-8.21319
略	-8.21329
州	-8.21428
敬	-8.21637
雜	-8.22084
散	-8.22125
所以	-8.22168
二音	-8.22451
這佛法	-8.22505
慈	-8.22626
誰	-8.22646
宣	-8.22819
感	-8.22827
近	-8.22849
彌	-8.22928
雨	-8.2327
微	-8.23521
生死	-8.23531
奉	-8.23548
自在	-8.23652
梵語	-8.23685
疾	-8.23806
長者	-8.23832
面	-8.23915
菩薩南無	-8.23973
輪	-8.23979
世界	-8.24003
解脫	-8.24016
即是	-8.24626
說法	-8.2483
比	-8.24839
塔	-8.24917
肉	-8.25083
煩惱	-8.25156
名為	-8.26496
三卷	-8.26606
地獄	-8.26655
終	-8.26711
兒	-8.26759
舊	-8.27135
十二	-8.27174
皮	-8.27619
懷	-8.27678
悞	-8.28326
步	-8.28517
垂	-8.28799
量	-8.2887
骨	-8.28939
古文	-8.29015
梵	-8.29664
貪	-8.29816
布	-8.2992
變	-8.30084
趣	-8.30417
益	-8.30469
獨	-8.30477
進	-8.30568
久	-8.30886
却	-8.31079
伏	-8.31447
全	-8.31471
伽	-8.3151
寂	-8.31576
珠	-8.3164
大乘	-8.31762
末	-8.3188
焉	-8.32131
印	-8.32367
佛言	-8.3259
莊嚴	-8.32717
盛	-8.33056
爾時	-8.33082
致	-8.33364
」「○	-8.33425
咸	-8.33441
示	-8.33539
害	-8.3364
永	-8.33759
留	-8.33844
壞	-8.34054
半	-8.34135
撰	-8.34207
習	-8.3422
易	-8.34244
昔	-8.34455
宿	-8.34541
虛空	-8.34583
唐	-8.346
精	-8.34611
河	-8.34668
四卷	-8.34698
陰	-8.34816
輕	-8.34975
憂	-8.35001
智慧	-8.35516
障	-8.35589
不知	-8.35627
墮	-8.35741
密	-8.35745
毒	-8.35764
落	-8.36026
田	-8.36175
弟子	-8.36205
五百	-8.36298
南無釋迦牟尼佛南無釋迦牟尼佛	-8.36879
羊	-8.37156
交	-8.37512
存	-8.37515
惑	-8.3759
覆	-8.377
祖	-8.37739
是故	-8.37858
藥	-8.37973
太子	-8.38358
縛	-8.38362
沒	-8.3851
青	-8.38518
爾	-8.38936
刀	-8.38992
玉	-8.39749
總	-8.40033
放	-8.40195
細	-8.40272
運	-8.40332
遇	-8.40591
也說文從	-8.40631
也下	-8.4078
毛	-8.4103
間	-8.41225
婆羅門	-8.41316
制	-8.41727
順	-8.41788
豈	-8.4193
戶	-8.42015
看	-8.42279
父	-8.42389
亂	-8.42689
法界	-8.42708
遊	-8.42709
竹	-8.428
而不	-8.42863
十卷	-8.42946
拘	-8.43109
反考聲云	-8.43284
阿難	-8.43383
歡喜	-8.43667
味	-8.43772
辯	-8.43832
。「	-8.43851
亦名	-8.44245
惟	-8.44537
具足	-8.44786
以為	-8.44793
父母	-8.44887
積	-8.45021
置	-8.45355
忍	-8.45418
士	-8.45419
句	-8.45655
修行	-8.45729
器	-8.45876
美	-8.46078
悲	-8.46206
告	-8.46229
蟲	-8.46371
飛	-8.46567
財	-8.46791
功	-8.46815
諸佛菩薩	-8.46974
濟	-8.47467
設	-8.47581
旨	-8.47713
含	-8.47738
婦	-8.47912
黃	-8.48188
視	-8.48258
觸	-8.48278
第一	-8.48287
獲	-8.48471
翻	-8.48545
尚	-8.48651
容	-8.4873
蓋	-8.48778
角	-8.49083
序	-8.49218
黑	-8.49287
仁	-8.49955
嚴	-8.50309
切	-8.50472
之人	-8.51077
赤	-8.51146
諸法	-8.51231
隱	-8.51278
第二	-8.51457
章	-8.515
亡	-8.51636
守	-8.52136
染	-8.52395
載	-8.52769
十方	-8.52803
移	-8.53217
救	-8.53515
精進	-8.53792
靜	-8.53971
字函	-8.5402
恒	-8.54023
窮	-8.54505
背	-8.54564
漢	-8.54597
表	-8.54861
不見	-8.54913
上古	-8.55078
張	-8.55334
〡也	-8.5538
出長房錄	-8.55925
宮	-8.55949
無邊	-8.56309
有一	-8.56379
增	-8.56659
浮	-8.56719
官	-8.56953
燈	-8.57
忽	-8.57141
才	-8.57146
呪	-8.57174
太	-8.57358
蘇	-8.57461
壽	-8.5755
誦	-8.5781
陁	-8.5784
寧	-8.57844
君	-8.57914
者謂	-8.58082
號	-8.58388
佛法	-8.58462
延	-8.58489
夢	-8.58766
陳	-8.58811
服	-8.59026
里	-8.59105
休	-8.59491
池	-8.59699
孝	-8.5989
登	-8.5989
尺	-8.60264
外道	-8.60472
第四	-8.60601
同上	-8.60746
抄	-8.6098
超	-8.61138
蓮華	-8.61419
推	-8.61437
歲	-8.61458
鐵	-8.61706
殊	-8.61948
恩	-8.62098
諸天	-8.62204
打	-8.62231
室	-8.62468
梁	-8.62469
鼻	-8.62627
仙	-8.63082
影	-8.63153
天地間永流通	-8.63259
幻	-8.63388
讚	-8.63449
葉	-8.63547
勅	-8.63586
兼	-8.63603
宋	-8.63637
答曰	-8.6395
愚	-8.64009
二形	-8.64184
備	-8.6445
自然	-8.64475
思惟	-8.64647
無常	-8.64659
熱	-8.64697
助	-8.6471
又音	-8.64907
迦葉	-8.64959
宜	-8.65016
遮	-8.65113
假	-8.65135
無礙	-8.65473
就	-8.65849
毗	-8.65906
朝	-8.65938
平等	-8.66367
尊者	-8.66439
燒	-8.66483
患	-8.66692
調	-8.66786
陀羅尼	-8.66794
偈	-8.66855
法師	-8.66866
乞	-8.67139
降	-8.67163
尸	-8.67417
屬	-8.67447
之所	-8.67464
應云	-8.67587
奴	-8.67974
一切眾生	-8.68078
法身	-8.68327
望	-8.68521
盧	-8.68547
無所	-8.68589
頂	-8.68714
法門	-8.68808
寒	-8.68971
最	-8.68976
第三	-8.6962
反廣雅	-8.69681
補	-8.6989
案	-8.69908
囉	-8.70226
臣	-8.70242
群	-8.70369
師子	-8.70387
三界	-8.70727
倒	-8.70901
強	-8.7099
傷	-8.71221
民	-8.71242
星	-8.71298
也亦	-8.71559
是為	-8.71603
臨	-8.71616
脫	-8.71672
惠	-8.71767
仰	-8.71827
消	-8.71919
真如	-8.72356
良	-8.72934
陽	-8.73122
弘	-8.73316
犯	-8.73395
脚	-8.73426
威	-8.736
中有	-8.73661
忘	-8.73748
虎	-8.73778
於是	-8.7384
也廣雅	-8.74048
連	-8.74295
泥	-8.74373
鹿	-8.74514
典	-8.74878
煩	-8.74939
答言	-8.74952
訓	-8.74965
呵	-8.75038
幽	-8.75109
恐	-8.7517
遣	-8.75185
華言	-8.75229
列	-8.75235
也說文云	-8.75251
冥	-8.75371
訖	-8.75372
誠	-8.75492
毘	-8.75584
疏	-8.75597
承	-8.75653
名曰	-8.75754
急	-8.75825
譬如	-8.75997
勸	-8.76218
笑	-8.76458
薄	-8.76731
、	-8.76831
端	-8.76989
任	-8.7711
越	-8.7714
雙	-8.77507
堂	-8.7764
覩	-8.7777
國王	-8.77777
博	-8.78172
哉	-8.78187
走	-8.78264
毀	-8.78292
歷	-8.78489
十六	-8.78644
真言	-8.78824
驚	-8.79135
若有	-8.79163
二合	-8.79276
節	-8.79309
裏	-8.79406
富	-8.79435
漸	-8.79447
授	-8.79584
舌	-8.79597
無明	-8.79671
繫	-8.80072
亦不	-8.80446
之法	-8.80502
辭	-8.80631
養	-8.80639
夷	-8.80759
徹	-8.809
建	-8.81019
露	-8.81095
二十	-8.8127
氏	-8.81307
正法	-8.81502
者也	-8.81538
勞	-8.81573
畢	-8.81598
座	-8.81755
伊	-8.81812
臥	-8.82283
賊	-8.82639
蒲	-8.82744
殿	-8.83005
梨	-8.83025
詣	-8.83059
參	-8.83099
十一	-8.83127
酒	-8.83179
貴	-8.83259
適	-8.8334
齒	-8.83415
二紙	-8.83433
遺	-8.83436
吉	-8.83489
違	-8.83514
晉	-8.83534
不生	-8.83697
曲	-8.8372
於此	-8.83752
吒	-8.84014
逆	-8.84112
一切法	-8.84122
丁	-8.84231
姓	-8.84296
春	-8.84336
勤	-8.8448
也又音	-8.84613
巨	-8.84717
十八	-8.8497
闕	-8.85034
勿	-8.85244
飲	-8.85301
布施	-8.85333
恭	-8.85441
亦作	-8.8553
棄	-8.85539
如此	-8.85543
改	-8.8574
不同	-8.86024
速	-8.86039
頌	-8.8614
送	-8.86152
樓	-8.8651
神通	-8.86566
和尚	-8.86648
我今	-8.8669
約	-8.86775
○	-8.86897
飯	-8.869
損	-8.87028
野	-8.87031
法華經云	-8.87063
詮	-8.8722
市	-8.87423
卑	-8.87696
也經文作	-8.87721
投	-8.87734
文殊	-8.87811
待	-8.88143
供	-8.88255
資	-8.88406
逐	-8.88791
負	-8.88883
接	-8.8899
孔	-8.89053
乳	-8.89378
屋	-8.89429
舍利弗	-8.8953
不動	-8.89598
權	-8.89625
之中	-8.8966
𢙣	-8.89705
五卷	-8.8971
夏	-8.89746
梵志	-8.89921
希	-8.89962
癡	-8.8997
血	-8.89985
儀	-8.90281
之心	-8.90303
鼓	-8.90314
諦	-8.9067
澄	-8.90675
三寶	-8.90695
拔	-8.90818
鳴	-8.90849
尾	-8.91057
差	-8.91216
境界	-8.91278
曾	-8.91306
所說	-8.91424
楚	-8.91717
兵	-8.91746
天下	-8.91847
徧	-8.91873
日月	-8.91888
勇	-8.9222
演	-8.92365
拏	-8.92577
髮	-8.92765
曜	-8.92811
履	-8.92831
痛	-8.9294
江	-8.93031
娑	-8.93036
甲	-8.93113
熟	-8.93343
善男子	-8.93652
七日	-8.94001
乾	-8.94088
舍利	-8.94358
談	-8.94455
奇	-8.9462
歎	-8.94685
索	-8.94795
聲聞	-8.94881
天子	-8.94978
閑	-8.94984
側	-8.95071
自性	-8.95413
女人	-8.95508
真實	-8.95617
夫人	-8.95631
素	-8.95921
編	-8.95922
一心	-8.96076
▁菩薩	-8.96175
米	-8.96299
質	-8.96419
怨	-8.96454
訶	-8.965
觀音菩薩十方諸佛菩薩	-8.96606
私	-8.96654
擊	-8.96662
上戶	-8.96839
頓	-8.96976
經作	-8.9699
瞋	-8.97098
附	-8.97108
蒙	-8.97132
竟	-8.97382
源	-8.97403
折	-8.97614
暗	-8.97915
闍	-8.9792
只	-8.98022
竭	-8.98228
郎	-8.98352
無相	-8.98454
論云	-8.98546
俗字也	-8.98714
扶	-8.99013
洛	-8.99069
祐	-8.99127
短	-8.99161
侵	-8.99321
上苦	-8.99655
字也	-8.99988
專	-9.00058
齋	-9.00079
幾	-9.00107
觀音菩薩無量諸佛菩薩	-9.00155
縱	-9.00187
相應	-9.00652
每	-9.00678
秦	-9.00719
猶如	-9.00819
所謂	-9.00893
目連	-9.009
軍	-9.00959
上於	-9.00982
網	-9.01211
次第	-9.01317
條	-9.01478
穀	-9.01597
收	-9.01634
客	-9.0169
吐	-9.01742
祇	-9.01871
固	-9.01902
上力	-9.01935
特	-9.02133
蘭	-9.02186
跡	-9.0219
臺	-9.0227
麼	-9.0228
洗	-9.02402
帝釋	-9.0247
悔	-9.02482
勒	-9.02526
揚	-9.02735
縣	-9.02968
免	-9.03018
三紙	-9.03198
床	-9.03296
據	-9.03341
.	-9.03646
園	-9.03707
曉	-9.03729
弟	-9.0382
懺悔	-9.03835
獸	-9.03836
經二卷	-9.04194
渠	-9.04757
貧	-9.04793
過去	-9.04963
契	-9.05004
當知	-9.05147
童子	-9.0527
飲食	-9.05395
啟	-9.05431
男	-9.05448
關	-9.05605
驗	-9.05743
不應	-9.05751
退	-9.05834
迴	-9.05996
歌	-9.06055
寬	-9.06665
卒	-9.06773
盖	-9.06773
誤	-9.06884
麤	-9.07163
无	-9.072
十四	-9.07291
瓶	-9.07312
御	-9.0732
哀	-9.07371
左	-9.07522
擬	-9.07542
原	-9.0757
唱	-9.07591
故云	-9.07832
領	-9.07846
景	-9.07946
活	-9.08028
垢	-9.08377
武	-9.08561
省	-9.08619
湏	-9.08722
失譯	-9.0884
喚	-9.09072
又云	-9.09084
聖人	-9.09143
四紙	-9.09219
鏡	-9.09222
聲下	-9.09223
蛇	-9.09228
七卷	-9.09292
丑	-9.09361
卿	-9.09393
上烏	-9.09502
華嚴	-9.09514
幢	-9.09702
回	-9.0974
師云	-9.09879
六卷	-9.09887
何以故	-9.09932
二者	-9.10093
詳	-9.1023
仙人	-9.10244
丘	-9.10653
有情	-9.10707
畫	-9.10882
豆	-9.11098
▁大	-9.11106
是以	-9.11153
減	-9.11302
上居	-9.11313
慮	-9.11367
跋	-9.11519
不空	-9.11542
橫	-9.11709
邪見	-9.11724
涉	-9.11731
戰	-9.11894
亦無	-9.11961
和合	-9.12099
講	-9.12159
成佛	-9.12199
隋	-9.12391
善惡	-9.12732
三十	-9.12871
根本	-9.13011
五紙	-9.1313
也或作	-9.13202
屈	-9.13221
陵	-9.1333
穢	-9.13437
焰	-9.13667
磨	-9.13669
己	-9.13687
佛告	-9.13707
濁	-9.13787
佛說	-9.14006
續	-9.14047
一者	-9.14067
偽	-9.14216
畏	-9.14261
厭	-9.1429
不淨	-9.14386
房	-9.14505
早	-9.14667
怪	-9.14696
冝	-9.14704
凡夫	-9.14931
丹	-9.14966
敷	-9.15063
篇	-9.15124
福德	-9.15242
獄	-9.15294
反考聲	-9.15333
誓	-9.15581
如何	-9.15585
魏	-9.15592
所有	-9.15695
谷	-9.15744
惱	-9.1575
果報	-9.15917
枝	-9.15979
決	-9.16041
狂	-9.16149
付	-9.16169
錢	-9.16218
振	-9.1623
純	-9.1626
際	-9.16284
慢	-9.16347
叉	-9.16366
狗	-9.16591
箭	-9.16839
爭	-9.16843
大眾	-9.16859
茲	-9.16905
圖	-9.16907
昌	-9.16928
紙	-9.17143
飾	-9.17285
院	-9.17374
塗	-9.17464
災	-9.17524
宅	-9.17534
猛	-9.17647
之時	-9.17698
泉	-9.17746
偏	-9.17793
以此	-9.17806
慶	-9.17824
悅	-9.18019
究	-9.18075
上徒	-9.18086
朗	-9.18161
佉	-9.18231
逢	-9.18457
上子	-9.1854
簡	-9.18553
船	-9.18751
謝	-9.18826
吳	-9.18872
余	-9.19168
賣	-9.1924
恨	-9.19358
崇	-9.19359
寄	-9.19399
持戒	-9.19417
吉祥	-9.19504
錯	-9.1965
誤也	-9.19674
期	-9.19963
戲	-9.20356
蜜	-9.20555
務	-9.20564
乖	-9.20595
拜	-9.20668
甘	-9.2067
然後	-9.20842
迹	-9.2126
榮	-9.21346
潤	-9.21434
善根	-9.21648
利益	-9.21708
暴	-9.21713
十三	-9.21725
礙	-9.21997
檀	-9.22112
此是	-9.22199
無為	-9.22227
皆是	-9.22261
盲	-9.22334
融	-9.22346
八卷	-9.22353
健	-9.22489
瑞	-9.22509
秋	-9.22524
府	-9.22577
丈	-9.22917
反說文云	-9.22963
皇	-9.23158
牙	-9.23439
追	-9.23475
闇	-9.23572
腹	-9.23577
莫道	-9.23805
若不	-9.24006
申	-9.24022
戀	-9.24042
般	-9.24047
箇	-9.24267
十五	-9.24432
五十	-9.24472
捉	-9.24478
薩	-9.24547
這	-9.246
仍	-9.24665
今日	-9.2472
審	-9.24727
【	-9.24791
尊者南無	-9.24929
妻	-9.24957
劣	-9.25043
禁	-9.2514
最勝	-9.2515
多羅	-9.2518
彌勒	-9.25202
獻	-9.25216
一人	-9.25335
天地	-9.25362
此經	-9.25588
漏	-9.25613
盜	-9.25635
大唐	-9.25636
命終	-9.25643
比丘尼	-9.25669
射	-9.25773
掌	-9.25872
衛	-9.25882
懸	-9.25969
試	-9.25988
懼	-9.26269
循	-9.26286
響	-9.26288
問曰	-9.26321
抱	-9.26395
澤	-9.26477
六反	-9.26558
京	-9.26649
洲	-9.26687
無上	-9.26696
或有	-9.26856
說文云	-9.26877
怒	-9.27046
壁	-9.27069
割	-9.27087
導	-9.27196
堪	-9.27205
差別	-9.27304
復有	-9.27438
沙彌	-9.27455
史	-9.27557
峯	-9.27613
營	-9.27661
譽	-9.27678
岸	-9.27719
一日	-9.2775
式	-9.27789
亦復如是	-9.27842
祥	-9.27854
塞	-9.27985
汝等	-9.28076
時有	-9.28119
馳	-9.28272
吟	-9.28276
貫	-9.283
謬	-9.28417
之理	-9.2854
奪	-9.28586
辨	-9.28596
謗	-9.28699
杖	-9.28884
喪	-9.28906
紅	-9.29002
如何是	-9.2912
胎	-9.2913
筆受	-9.29142
騰	-9.29151
二年	-9.29201
顛倒	-9.29256
疋	-9.29328
遙	-9.29369
弓	-9.29388
曇	-9.29434
頗	-9.29494
一部	-9.29608
旋	-9.29684
稽首	-9.2972
勢	-9.29807
者即	-9.29901
冠	-9.29953
帙	-9.29963
上莫	-9.30025
臂	-9.30158
諸菩薩	-9.30162
況	-9.30233
銅	-9.30278
披	-9.3029
論一卷	-9.30332
昇	-9.30343
陀羅尼經	-9.30357
所作	-9.30371
傍	-9.30436
內外	-9.30553
孤	-9.30606
厚	-9.30635
無畏	-9.30673
二形同	-9.30733
迎	-9.30773
遠離	-9.30776
說文從	-9.30874
不可得	-9.30963
累	-9.30987
大海	-9.30995
眠	-9.31048
委	-9.31077
賜	-9.31128
為人	-9.31239
六十	-9.31335
現在	-9.31493
人天	-9.31618
究竟	-9.31648
諸比丘	-9.31852
昧	-9.31937
脩	-9.32014
)【	-9.32028
眷屬	-9.32058
天地間永流通菩薩諸佛菩薩	-9.32155
第六	-9.32203
寫	-9.32328
慈悲	-9.3241
這佛法天地間永流通如來	-9.32443
無盡	-9.32663
佛性	-9.32672
倍	-9.32708
法華	-9.32748
也諸佛如來	-9.32824
舟	-9.32844
按	-9.32844
無不	-9.32847
值	-9.32864
韻	-9.3299
怛	-9.33074
貌	-9.3318
与	-9.33192
牽	-9.3322
一時	-9.33228
圓滿	-9.33392
梵天	-9.33461
術	-9.33467
不思議	-9.33485
諸眾生	-9.33497
避	-9.33593
我等	-9.33742
餓鬼	-9.33794
荼	-9.33915
再	-9.33967
充	-9.33982
阿羅漢	-9.34058
犬	-9.34097
廣大	-9.34323
字從	-9.34354
億	-9.34482
瘡	-9.34557
巧	-9.34565
召	-9.34656
三乘	-9.34677
危	-9.34742
上許	-9.34757
一念	-9.34837
何故	-9.34843
道人	-9.34988
飢	-9.35053
侍	-9.3513
庶	-9.35195
畜生	-9.35195
點	-9.35288
第二譯	-9.35379
一一	-9.35424
柔	-9.35485
十七	-9.35601
途	-9.35619
音同上	-9.35666
單	-9.35692
珍	-9.35703
臭	-9.35777
羽	-9.35931
」「	-9.35936
責	-9.36091
互	-9.36129
基	-9.36216
伐	-9.36392
暫	-9.36562
是時	-9.36604
元年	-9.36627
第五	-9.36643
文殊師利	-9.36731
恱	-9.36757
威儀	-9.36771
十二卷	-9.36777
人民	-9.36866
謹	-9.36916
不如	-9.36942
皆悉	-9.36994
端正	-9.37001
𡰱	-9.37069
四十	-9.3708
潔	-9.3708
洞	-9.37088
生滅	-9.37091
斫	-9.37109
彰	-9.37133
怖	-9.37143
雪	-9.37173
遷	-9.37245
招	-9.37475
羯磨	-9.37475
無漏	-9.37806
經論	-9.37866
方等	-9.38034
王經一卷	-9.38105
給	-9.38127
狀	-9.38137
第一譯	-9.38213
七寶	-9.38231
無生	-9.38417
𠔃反	-9.38636
納	-9.38745
因果	-9.38787
題	-9.38863
甘露	-9.38953
龍王	-9.39029
譬	-9.39083
蔽	-9.39098
釋迦	-9.39418
噉	-9.39443
纏	-9.39622
見佛	-9.39701
孫	-9.39723
出世	-9.39754
天人	-9.39798
測	-9.39804
瑜伽	-9.39813
辛	-9.3992
否	-9.39923
已上	-9.3995
鬼神	-9.40073
西域	-9.40109
覓	-9.40166
寸	-9.40217
駕	-9.40384
法性	-9.40482
保	-9.4053
羅漢	-9.40592
寂靜	-9.40663
沉	-9.40989
有人	-9.41066
無垢	-9.4114
巖	-9.41221
唐言	-9.41309
須彌	-9.41349
帶	-9.41354
六紙	-9.41393
虫	-9.41404
封	-9.41407
盈	-9.41544
善法	-9.41687
邑	-9.41726
断	-9.41931
爛	-9.42015
經文作	-9.42063
反顧野王云	-9.42136
幸	-9.42197
▁佛	-9.42245
舒	-9.42395
眀	-9.42456
穴	-9.4259
炎	-9.42665
敗	-9.4279
嗔	-9.42803
託	-9.42848
髻	-9.4288
也古今正字從	-9.42907
實相	-9.42957
隔	-9.42988
妄想	-9.43104
無我	-9.43128
大悲	-9.43228
冝作	-9.43234
冷	-9.43287
閉	-9.43288
鑒	-9.43352
波羅	-9.43357
居士	-9.43363
匹	-9.43407
得道	-9.43516
各反	-9.4352
溫	-9.43614
佛為	-9.43794
什	-9.43894
康	-9.43912
吹	-9.43947
撿	-9.43991
㝡	-9.44056
倉	-9.44076
芳	-9.44096
雅	-9.44261
井	-9.44266
王佛	-9.44301
嚩	-9.44339
安樂	-9.44407
增長	-9.44496
柱	-9.44562
隣	-9.44642
好看	-9.44719
小兒	-9.4474
剎	-9.45032
升	-9.45084
祭	-9.45155
剌	-9.45241
淵	-9.45264
昏	-9.4528
閻浮提	-9.45294
不為	-9.45341
第七	-9.45411
恭敬	-9.45442
華嚴經云	-9.45487
修習	-9.45548
逼	-9.45561
束	-9.45564
英	-9.45656
返	-9.45981
婆羅	-9.46085
紫	-9.46146
摩訶	-9.46152
枯	-9.46361
或言	-9.464
雄	-9.46444
國土	-9.46527
預	-9.46671
繩	-9.46735
郡	-9.468
掃	-9.46896
而生	-9.46985
敢	-9.47216
衰	-9.47241
經文	-9.47268
廢	-9.47333
倚	-9.47359
考聲云	-9.4745
符	-9.47488
龜	-9.47543
詐	-9.47545
禪師	-9.47572
是人	-9.47591
若能	-9.47639
顧	-9.47721
可以	-9.47913
五陰	-9.48029
智者	-9.48121
二十卷	-9.48158
慕	-9.48188
纔	-9.48253
弗	-9.48254
此人	-9.48348
文字	-9.48351
擲	-9.48368
眉	-9.484
頃	-9.48441
頻	-9.48486
裂	-9.48544
王佛南無	-9.48651
注云	-9.48946
劉	-9.48997
十六卷	-9.49072
四大	-9.4908
睡	-9.49082
繞	-9.49125
欲界	-9.49273
不信	-9.49292
前後	-9.49457
揵	-9.49538
奔	-9.4959
敬禮	-9.4972
兄	-9.49805
不離	-9.49855
單本	-9.49913
若人	-9.49978
殘	-9.50189
威德	-9.50204
翼	-9.50297
燄	-9.50316
十九	-9.5042
擇	-9.50688
李	-9.50734
有三	-9.50798
愚癡	-9.50829
八十	-9.50869
小乘	-9.50946
是非	-9.51091
雷	-9.51118
朱	-9.5117
受持	-9.51244
上蒲	-9.51254
繁	-9.51431
旦	-9.51466
浪	-9.51525
鞞	-9.51618
最上	-9.51749
虵	-9.51792
本無	-9.51891
醉	-9.51903
其人	-9.51971
之道	-9.52057
即便	-9.52075
侯	-9.52164
上直	-9.52244
奏	-9.52293
瞿	-9.52297
統	-9.5234
未來	-9.52348
貝	-9.52353
窟	-9.52421
堅固	-9.52546
詞	-9.52571
菩薩摩訶薩	-9.52775
司	-9.52875
鄙	-9.52979
禍	-9.52999
停	-9.53014
困	-9.53039
:	-9.53074
優	-9.53127
察	-9.53214
淺	-9.53264
沈	-9.53302
滯	-9.53329
麗	-9.53346
之言	-9.53396
大王	-9.53539
為一	-9.53558
冬	-9.53569
語言	-9.53596
禮拜	-9.53694
上聲	-9.53707
十地	-9.53712
甚深	-9.53739
万	-9.53764
色等	-9.53812
所出	-9.5399
反謂	-9.54027
畜	-9.54085
准	-9.5409
去聲	-9.54179
三者	-9.54279
之義	-9.5429
灑	-9.54377
顏	-9.54381
包	-9.54426
諍	-9.54499
萬物	-9.54558
階	-9.54571
童	-9.54656
穿	-9.54714
也亦作	-9.54755
倫	-9.54767
干	-9.54839
瞋恚	-9.54984
▁大乘	-9.55141
杜	-9.55166
淳	-9.55166
游	-9.55216
七紙	-9.55226
筆	-9.55231
淚	-9.55251
無心	-9.55268
而無	-9.55297
大德	-9.5532
陟	-9.55335
濕	-9.55341
徵	-9.55374
楞嚴經云	-9.55407
二人	-9.55448
翳	-9.55453
終不	-9.5548
眾僧	-9.5558
絲	-9.55598
調伏	-9.55627
函	-9.55635
第一卷	-9.5568
分明	-9.5572
所生	-9.55732
政	-9.55739
悉皆	-9.55951
麻	-9.55959
兜	-9.55977
三世	-9.56061
其身	-9.56258
梵本	-9.5634
灌	-9.564
也從手	-9.56473
音聲	-9.56625
羯	-9.56798
可得	-9.56816
沙門釋	-9.56828
禪定	-9.56855
婬	-9.56856
截	-9.57087
羊反	-9.5719
畢竟	-9.5727
奢	-9.57348
斤	-9.57394
有所	-9.57413
賤	-9.57543
把	-9.57603
今作	-9.57676
鈔	-9.57697
欣	-9.57808
逸	-9.57864
何處	-9.57973
䥫	-9.58011
有大	-9.58016
三種	-9.58073
庭	-9.58191
羅剎	-9.58212
斗	-9.58223
也考聲云	-9.58235
革	-9.58287
或無	-9.58321
徃	-9.58411
廣雅	-9.58498
毫	-9.58556
反字林	-9.58561
弱	-9.58611
第八	-9.5868
兔	-9.58836
蘊	-9.58934
道場	-9.59038
變化	-9.59207
囊	-9.59215
村	-9.59233
百千	-9.5936
秀	-9.59383
故曰	-9.5941
八紙	-9.59411
曩	-9.5942
煙	-9.59591
虛妄	-9.59601
故知	-9.59683
普賢	-9.59796
何反	-9.59805
常住	-9.59866
標	-9.60025
十三卷	-9.60036
坑	-9.60077
有二	-9.60181
又問	-9.60193
污	-9.60372
不是	-9.60462
膝	-9.60532
寂滅	-9.6056
真空	-9.60717
三年	-9.60808
懺	-9.60825
發心	-9.60854
上下	-9.6095
何等	-9.60994
扇	-9.6114
潛	-9.61176
愈	-9.6124
默	-9.61332
缺	-9.61337
十四卷	-9.61338
銀	-9.61355
西方	-9.61365
竺	-9.61511
相續	-9.61543
忠	-9.6158
泰	-9.61609
針	-9.61657
盤	-9.61668
伯	-9.61675
人也	-9.61708
協	-9.61761
隆	-9.61762
俗字	-9.61763
嗟	-9.61792
不敢	-9.61891
微妙	-9.6193
瘦	-9.61938
觀世音	-9.6197
刃	-9.62115
遭	-9.6212
不可思議	-9.62182
苑	-9.62194
四諦	-9.62288
肅	-9.62334
反下音	-9.6237
四方	-9.62441
耆	-9.62659
而為	-9.62687
輒	-9.62688
六度	-9.62863
亦有	-9.62887
欺	-9.62906
欝	-9.62925
雞	-9.63025
白佛言	-9.6305
傾	-9.63079
灰	-9.6316
反蒼頡篇	-9.63238
不善	-9.63251
鳩	-9.63266
險	-9.6329
刺	-9.63481
採	-9.63492
之處	-9.63525
你	-9.63587
爪	-9.63627
交反	-9.63649
嘉	-9.63703
辦	-9.63736
身心	-9.63822
之相	-9.63926
輩	-9.63935
亦非	-9.63965
川	-9.64004
搖	-9.64127
上胡	-9.64139
鼠	-9.64231
西晉三藏竺法護譯	-9.643
之曲	-9.64313
賀	-9.64323
其心	-9.64396
魯	-9.64402
反通俗文	-9.64776
經中	-9.64827
縷	-9.6483
決定	-9.64915
􄑄	-9.65011
金色	-9.65039
壇	-9.65063
瓦	-9.65096
耕	-9.65212
槃	-9.65264
也言	-9.65302
輔	-9.65306
愁	-9.65319
可反	-9.65405
王經	-9.65422
占	-9.6552
㒵也	-9.65579
掩	-9.65605
擔	-9.65614
不識	-9.65618
賓	-9.6563
真諦	-9.65636
藍	-9.65646
奧	-9.65703
弊	-9.65743
靄	-9.65743
蓮	-9.65783
凝	-9.65788
驅	-9.65837
禾	-9.65837
也諸佛菩薩	-9.65882
計反	-9.65937
徐	-9.66023
四百	-9.66151
擾	-9.66155
号	-9.66238
愧	-9.66285
何以	-9.66327
遵	-9.66378
轉法輪	-9.66497
輸	-9.66523
昭	-9.66706
管	-9.66754
栗	-9.66856
灌頂	-9.66879
墜	-9.66909
上座	-9.6713
所得	-9.67192
天王	-9.67339
天竺	-9.67411
競	-9.67513
瞻	-9.67521
亨	-9.67551
諸經	-9.67585
詔	-9.67625
妖	-9.67634
不復	-9.67715
豐	-9.67749
蒲州	-9.67803
陀羅尼經一卷	-9.67804
乏	-9.6787
矛	-9.67888
謂菩薩	-9.68022
道俗	-9.68029
桑	-9.68058
亦如是	-9.68255
反又音	-9.68329
也蒼頡篇	-9.68329
非是	-9.68419
其所	-9.6842
維	-9.68534
祝	-9.68544
汝今	-9.686
蕩	-9.6873
讀	-9.68737
東方	-9.6874
妙法	-9.68766
族	-9.68788
邏	-9.68918
贊	-9.6901
憑	-9.69034
揭	-9.69171
鍾	-9.69172
觀察	-9.69178
通達	-9.69246
莫不	-9.69254
瑟	-9.69337
麁	-9.69416
人間	-9.69418
謂此	-9.69462
鮮	-9.69545
亭	-9.6957
大小	-9.69598
而去	-9.69599
誡	-9.69603
靡	-9.6961
刑	-9.69627
行者	-9.69652
快	-9.69743
育	-9.69808
有四	-9.69808
認	-9.69809
梵言	-9.69858
十善	-9.69859
惡業	-9.6992
上步	-9.69996
妄語	-9.70026
而有	-9.70034
也悞	-9.70044
津	-9.70045
恚	-9.70109
淨土	-9.7015
熏	-9.70161
心不	-9.70307
現前	-9.70402
壽命	-9.70418
福田	-9.70432
溺	-9.70433
寤	-9.70437
一百	-9.70598
嫌	-9.70629
安隱	-9.70741
難陀	-9.70823
吞	-9.70863
罵	-9.70889
愍	-9.71111
掉	-9.71142
脂	-9.7121
帛	-9.71273
上他	-9.713
四種	-9.71359
覽	-9.71361
友	-9.7143
羨	-9.71446
戾	-9.71446
繼	-9.7154
浴	-9.71546
碎	-9.71698
右一經	-9.71727
暢	-9.71774
二乘	-9.71888
摧	-9.71975
二種	-9.71987
第二卷	-9.72028
樹下	-9.72055
㒵	-9.72088
:「	-9.72124
鷄	-9.72139
也考聲	-9.72279
九十	-9.72296
莖	-9.72316
法中	-9.72319
斬	-9.72333
團	-9.72358
尤	-9.72363
植	-9.72593
翅	-9.72716
齧	-9.72719
空中	-9.72737
大師	-9.72837
与反	-9.73075
韋	-9.73191
萬法	-9.73204
域	-9.73228
商	-9.73236
凶	-9.7339
糞	-9.7339
冀	-9.73446
亦直云	-9.73463
婢	-9.73582
憍	-9.73628
精舍	-9.73641
好看那佛佛相傳法法相續歷劫浩無窮	-9.73654
優婆塞	-9.73682
歡	-9.7372
紀	-9.73756
也顧野王云	-9.73788
稟	-9.73822
及諸	-9.73869
陶	-9.73877
如前	-9.73913
肩	-9.73924
也方言	-9.73925
老反	-9.74038
獵	-9.74089
令其	-9.74099
以其	-9.74185
無性	-9.74246
麥	-9.74306
燭	-9.74316
愽	-9.74447
舊云	-9.74467
震	-9.74526
虧	-9.7455
種子	-9.74611
如意	-9.7474
反悞	-9.74887
廉反	-9.74946
防	-9.75003
善知識	-9.75095
勉	-9.75132
區	-9.75136
上之	-9.7519
王如來	-9.75229
限	-9.7529
世人	-9.75292
王如來南無	-9.75297
本來	-9.75342
祕密	-9.75394
不覺	-9.75406
宇	-9.75688
眾人	-9.75708
詩	-9.75776
至於	-9.75809
迦羅	-9.75812
泯	-9.75909
夾	-9.75925
上五	-9.75928
四部	-9.76047
】【	-9.76057
慎	-9.76072
男女	-9.76094
某甲	-9.76122
而得	-9.76196
乞食	-9.76375
大道	-9.76437
仕	-9.7645
反方言	-9.76483
上尸	-9.76531
梵字	-9.76664
餅	-9.76724
買	-9.76749
上郎	-9.76823
殃	-9.7683
草木	-9.76847
無數	-9.76917
反爾雅	-9.76929
有作	-9.76952
撥	-9.76964
各各	-9.76986
哲	-9.77001
冤	-9.77044
阻	-9.77063
洪	-9.77064
受戒	-9.77073
湯	-9.77232
上普	-9.7724
稍	-9.77262
暮	-9.77273
閱	-9.77298
敬頂禮	-9.77308
哩	-9.77323
十種	-9.77421
獼猴	-9.77505
晝夜	-9.77521
法一卷	-9.77535
沃	-9.77601
惜	-9.77649
問佛	-9.77655
為說	-9.77668
五部	-9.77691
結反	-9.77741
挑	-9.77823
旁	-9.77878
反廣雅云	-9.77933
闡	-9.77943
摩尼	-9.77954
竊	-9.77961
波羅蜜	-9.78024
弄	-9.78059
廟	-9.78096
無異	-9.78105
頸	-9.78118
綿	-9.78129
產	-9.78146
由反	-9.78238
陀羅	-9.78307
排	-9.7835
伺	-9.7839
省聲	-9.78405
王言	-9.78459
不定	-9.78531
上都	-9.7855
諫	-9.78553
於中	-9.78651
荅	-9.78827
渴	-9.78852
夕	-9.78853
松	-9.78857
練	-9.7886
醫	-9.78915
毘尼	-9.78924
閒	-9.79004
刻	-9.79042
席	-9.79101
辟支佛	-9.79213
話	-9.79243
操	-9.79298
曼	-9.79339
聞法	-9.79501
撫	-9.79514
之間	-9.79544
諸根	-9.79592
卜	-9.79653
創	-9.79725
摸	-9.79738
於諸	-9.79776
例	-9.79794
不起	-9.79938
省聲也	-9.79943
左右	-9.79963
大地	-9.80055
其中	-9.80251
荷	-9.80285
闕本	-9.80292
何所	-9.80343
▁阿	-9.8037
阿毘曇	-9.8038
念佛	-9.80507
法藏	-9.80571
猪	-9.80643
佛在	-9.80685
光佛	-9.80722
同本	-9.80797
一法	-9.80808
反非也	-9.80831
無窮	-9.80846
復次	-9.8085
方言	-9.80914
忍辱	-9.81066
工	-9.81107
一本	-9.81182
一乘	-9.8119
鎮	-9.81193
也字從	-9.8123
也案	-9.81319
削	-9.81337
苟	-9.81403
謀	-9.81714
二十五	-9.81735
古今	-9.81778
憶	-9.8183
籠	-9.819
〃(	-9.81939
牆	-9.8208
鄉	-9.82172
規	-9.82374
八萬四千	-9.82394
伴	-9.82413
勘	-9.82425
旬	-9.82445
此言	-9.82466
見長房錄	-9.82475
之事	-9.82587
二部	-9.82603
須臾	-9.82629
一紙	-9.82704
拂	-9.82744
曳	-9.82827
霜	-9.82847
啼	-9.82865
由此	-9.82892
▁右	-9.82895
狹	-9.83008
於彼	-9.83071
祿	-9.83081
第二十	-9.83136
鬘	-9.8322
監	-9.83289
傳云	-9.83298
上巨	-9.83349
古文作	-9.83362
傳曰	-9.83428
有五	-9.83444
旡	-9.8347
格	-9.8351
鉤	-9.83534
珍寶	-9.83545
該	-9.83562
逝	-9.83636
名稱	-9.83792
迫	-9.83828
歸依	-9.83918
念念	-9.83949
茂	-9.84003
寡	-9.84019
焚	-9.84027
兆	-9.84049
我當	-9.84192
授記	-9.84278
亦通	-9.84308
舊錄云	-9.84325
皃	-9.84409
慳	-9.84455
經音義作	-9.84561
放光	-9.84664
雖有	-9.84749
探	-9.8477
五種	-9.84867
賈	-9.84913
翻譯	-9.85017
咎	-9.85022
厥	-9.85028
劒	-9.85031
▁四	-9.85098
隨順	-9.85149
只見得	-9.85174
受用	-9.85231
第	-9.8524
壯	-9.85289
郭	-9.85309
大臣	-9.85374
神力	-9.85378
議	-9.85383
鳳	-9.8552
研	-9.85533
析	-9.85605
牀	-9.85696
鎧	-9.8572
幼	-9.85752
曷	-9.85763
吼	-9.85778
在家	-9.85809
上呼	-9.85865
一切諸法	-9.86006
有何	-9.86066
赴	-9.8607
大明	-9.86088
第三十	-9.8615
祕	-9.86202
踐	-9.86203
長安	-9.86273
呂	-9.86353
僧問	-9.86452
墨	-9.86505
不捨	-9.86561
刀反	-9.86566
也今	-9.86623
寺譯	-9.86737
儒	-9.86751
誘	-9.86798
叡	-9.86852
豪	-9.86937
卓	-9.86943
羸	-9.86975
踰	-9.86978
漂	-9.87006
仝上	-9.87047
外國	-9.87088
者是	-9.87199
驢	-9.87267
上七	-9.87369
知見	-9.87395
九卷	-9.87399
反廣疋	-9.8747
一部二卷	-9.87663
峻	-9.87702
十住	-9.8772
三百	-9.87733
吏	-9.87738
四者	-9.87761
三部	-9.87822
絹	-9.87858
掘	-9.87944
初出	-9.87953
嘗	-9.87953
彩	-9.87955
乙	-9.87966
受苦	-9.87971
電	-9.87976
▁三	-9.87986
雀	-9.88022
異譯	-9.88058
軌	-9.88095
記一卷	-9.88167
曹	-9.88209
希有	-9.88286
此譯云	-9.88314
貞	-9.88393
不受	-9.88563
油	-9.88609
五欲	-9.8867
捕	-9.88681
拈	-9.88688
各有	-9.88718
建立	-9.88736
即以	-9.88742
織	-9.88743
忙	-9.88818
第九	-9.88871
咒	-9.88907
哆	-9.88994
王云	-9.89009
宮殿	-9.89073
摩羅	-9.89118
敘	-9.89119
陵反	-9.89135
奚	-9.89161
而能	-9.89254
苗	-9.89254
水中	-9.89265
判	-9.89299
緣起	-9.8949
梵行	-9.89555
借	-9.89564
貧窮	-9.89642
天上	-9.89642
以手	-9.89735
拳	-9.89736
朕	-9.89761
第三卷	-9.89765
幡	-9.8977
信心	-9.89789
廓	-9.8979
九紙	-9.8981
属	-9.8998
〃	-9.9
芬	-9.90019
十五卷	-9.90044
官反	-9.90126
多聞	-9.90167
經三卷	-9.90172
尒	-9.90235
考	-9.90258
王子	-9.90272
身體	-9.90479
俊	-9.90484
鹽	-9.90498
莊	-9.90515
若無	-9.90521
罪人	-9.90547
此中	-9.90578
候	-9.90648
噯	-9.90734
乱	-9.90743
並是	-9.90748
跛	-9.9079
作麼生	-9.90834
音義	-9.90862
疊	-9.90867
蒼	-9.90875
茶	-9.90887
即得	-9.90922
袈裟	-9.90974
中阿含	-9.91029
正是	-9.91063
矩	-9.91074
非體也	-9.91291
未曾	-9.91318
十九卷	-9.91375
晝	-9.91379
維摩經云	-9.91516
蹋	-9.91518
閻	-9.91529
項	-9.91577
聾	-9.91587
讖	-9.91628
能生	-9.91638
諸人	-9.91684
濫	-9.91726
三千	-9.91778
鞭	-9.91822
鑿	-9.91845
之類	-9.91853
崖	-9.91871
圓覺	-9.91896
不與	-9.91923
誑	-9.91982
真心	-9.92124
利反	-9.92135
慈心	-9.92136
徑	-9.92141
二字	-9.92142
齎	-9.92168
所知	-9.92178
瞿曇	-9.92206
勇猛	-9.92259
兄弟	-9.9244
耀	-9.92507
第四卷	-9.92572
敵	-9.92645
孟	-9.92698
註	-9.9277
十八卷	-9.92781
讚歎	-9.92796
成道	-9.92807
如幻	-9.92822
角反	-9.9283
發菩提心	-9.92841
撲	-9.92874
發願	-9.92944
三十卷	-9.93111
範	-9.93131
銜	-9.93138
之後	-9.93186
偃	-9.93189
均	-9.93235
財物	-9.93246
大慧	-9.93254
挍	-9.93258
厄	-9.93357
梵音	-9.93441
偶	-9.93484
刪	-9.93583
品第五	-9.93609
念誦	-9.93667
圍	-9.93692
曇摩	-9.9376
謂如來	-9.9377
訪	-9.93797
汁	-9.93933
一千	-9.93935
迴反	-9.94044
亮	-9.94135
有無	-9.94135
一云	-9.94263
提婆	-9.9427
透	-9.94292
無間	-9.94325
娑羅	-9.94342
無知	-9.94361
由旬	-9.94399
天台	-9.94457
郎反	-9.94467
梯	-9.94469
激	-9.94493
諸如來	-9.94621
故名為	-9.9469
十紙	-9.94737
峰	-9.9474
字書	-9.94772
咽	-9.94795
反蒼頡篇云	-9.9486
降伏	-9.94913
牟	-9.95033
敬皈依	-9.95034
苦行	-9.95051
醜	-9.95055
亦爾	-9.95241
菜	-9.95288
▁「	-9.95311
混	-9.95352
騎	-9.95353
大品	-9.9545
中道	-9.95526
三十二	-9.95537
不著	-9.95595
菩提心	-9.95604
荒	-9.9562
婁	-9.95633
翠	-9.95646
示現	-9.95654
住處	-9.95662
反毛詩傳云	-9.95673
后	-9.95702
無二	-9.95735
病也	-9.95776
哭	-9.9585
問言	-9.95895
八部	-9.95895
衣服	-9.95916
從此	-9.95934
臨濟	-9.95945
言說	-9.96039
曠	-9.96147
頰	-9.96155
妃	-9.96159
嗣	-9.96166
三昧經	-9.96201
見僧祐錄	-9.9621
親近	-9.96234
上方	-9.96254
賢聖	-9.96298
行道	-9.96314
戴	-9.96453
有二種	-9.9647
瓔珞	-9.9648
滿足	-9.96489
焦	-9.96633
殞	-9.96647
楊	-9.96679
剖	-9.96701
科	-9.96713
不肯	-9.96743
▁【	-9.96766
陸	-9.96775
品第六	-9.96795
所問經	-9.96796
或名	-9.96865
唯有	-9.96964
慚	-9.97002
他人	-9.97038
遐	-9.97049
或二卷	-9.97075
鄭	-9.97115
猗	-9.97202
率	-9.97271
也廣雅云	-9.97326
觀自在菩薩	-9.97368
光佛南無	-9.97396
括	-9.97515
四天王	-9.97536
饒	-9.97536
恃	-9.97564
處處	-9.97565
則無	-9.97586
躬	-9.976
魂	-9.97608
鈍	-9.97665
牧	-9.97667
頞	-9.9774
▁五	-9.97776
讓	-9.97812
侯反	-9.97818
同帙	-9.97875
紹	-9.97875
中間	-9.97951
苦惱	-9.97982
十一紙	-9.98027
二百	-9.9804
自心	-9.98078
碧	-9.98092
生天	-9.98096
不聞	-9.981
多少	-9.98131
之境	-9.98172
反下力	-9.98193
菓	-9.98204
作是念	-9.98217
佛道	-9.98282
佛頂	-9.98319
澡	-9.98327
亦是	-9.98329
藉	-9.9842
容反	-9.98639
搜	-9.98659
五色	-9.98661
謙	-9.98678
令人	-9.98716
生於	-9.98771
一切諸	-9.98813
品第三	-9.98859
儀軌	-9.98911
閣	-9.98943
屢	-9.98944
)「	-9.98945
祠	-9.98964
枉	-9.98969
慚愧	-9.98996
安住	-9.9903
訛	-9.99133
桃	-9.99224
陷	-9.99232
出生	-9.99235
佛所	-9.99331
見之	-9.99369
展	-9.99406
乃是	-9.9941
五戒	-9.99452
斧	-9.99757
皆有	-9.99781
整	-9.99789
兮	-9.99827
段	-9.99843
佛語	-9.99898
浪反	-10
廁	-10.0002
故不	-10.0003
螺	-10.0005
欽	-10.0021
二形也	-10.0028
六根	-10.0029
題云	-10.0031
巾	-10.0036
篋	-10.0036
撮	-10.0037
人所	-10.0037
隨意	-10.0038
須彌山	-10.0041
反孔注尚書云	-10.0051
人之	-10.0062
字林	-10.0062
淡	-10.0064
正覺	-10.0065
能令	-10.0067
銷	-10.0074
應當	-10.0077
兩反	-10.0083
說偈言	-10.0088
涼	-10.0092
渡	-10.0095
名字	-10.01
守護	-10.0101
廣說	-10.0101
戈	-10.0104
而起	-10.0104
更有	-10.0111
策	-10.0114
逾	-10.0116
㓨	-10.0116
錫	-10.012
拍	-10.012
孕	-10.0122
男子	-10.0145
鶴	-10.0153
遲	-10.0155
攞	-10.0162
孰	-10.0163
劍	-10.0165
牒	-10.0174
目錄	-10.0184
調達	-10.0184
般涅槃	-10.0184
不斷	-10.0184
洽	-10.0185
辰	-10.0187
吠	-10.0196
飽	-10.0203
夭	-10.0204
上所	-10.0204
總持	-10.0207
教化	-10.0208
心生	-10.0211
十七紙	-10.0214
紙欠	-10.0216
所以者何	-10.022
飲酒	-10.0222
經一名	-10.0224
寶積	-10.0224
作禮	-10.0226
鋒	-10.0242
經從	-10.0243
而行	-10.0245
阿育王	-10.0255
不退	-10.0258
泥洹	-10.0267
伽羅	-10.0268
貞元	-10.0269
七十	-10.0272
訛也	-10.0288
明了	-10.029
不異	-10.0291
第七卷	-10.0294
所依	-10.0296
修道	-10.03
恣	-10.0305
反杜注左傳云	-10.031
第二出與	-10.0311
皃也	-10.0312
几	-10.0319
滋	-10.0323
决	-10.0325
不出	-10.0346
憎	-10.0352
宗旨	-10.0353
忍反	-10.0353
𨚗	-10.0357
品第二	-10.0359
校	-10.0362
頌曰	-10.0363
也從水	-10.0373
稽	-10.0376
力反	-10.0377
經本	-10.0378
所見	-10.0386
環	-10.0392
武帝	-10.04
蓮花	-10.0402
挽	-10.0408
泣	-10.0411
加反	-10.0412
十卷同帙	-10.0413
不相	-10.0417
貪欲	-10.0423
度無極	-10.0429
賴	-10.0431
動也	-10.0437
了知	-10.0437
為我	-10.0439
疲	-10.044
綺	-10.044
列反	-10.0441
玉反	-10.0442
僕	-10.0444
綜	-10.0444
傅	-10.0447
𡨋	-10.045
阿含	-10.0451
魚反	-10.0451
羣	-10.0453
不以	-10.0453
嚕	-10.0455
上奴	-10.0471
忌	-10.0474
酬	-10.0474
又有	-10.0483
紺	-10.0499
辱	-10.0505
上羊	-10.0506
何謂	-10.0515
上芳	-10.0517
不樂	-10.0523
宰	-10.0528
突	-10.0531
肆	-10.0533
未詳	-10.0534
亦復	-10.0536
匠	-10.0538
十二因緣	-10.0544
輪王	-10.0555
奮	-10.0556
嗜	-10.0558
額	-10.056
欠	-10.0562
悔過	-10.0562
輿	-10.0566
品第四	-10.0567
有為	-10.0568
棒	-10.0576
好因果	-10.0585
譬喻	-10.0587
手足	-10.0591
不自	-10.0597
晚	-10.06
綱	-10.0604
神足	-10.0605
二十四	-10.0605
相似	-10.0606
下力	-10.0607
不住	-10.061
有異	-10.0618
恬	-10.0619
捲	-10.0622
破戒	-10.0628
俱反	-10.0635
竝	-10.0637
淨行	-10.0639
三摩地	-10.0643
皆得	-10.0644
煞	-10.0646
相見	-10.0646
一切智	-10.0647
脾	-10.0647
辟	-10.065
大聖	-10.0651
狐	-10.0651
則不	-10.0652
十三紙	-10.0656
貨	-10.0657
筋	-10.0658
西晉	-10.0677
枕	-10.0678
場	-10.0679
如法	-10.0683
渾	-10.0685
品第七	-10.0692
一帙	-10.0696
四年	-10.0714
衡	-10.0717
奮迅	-10.0718
盆	-10.072
僧祐錄云	-10.0722
是我	-10.0734
反切韻	-10.0736
王曰	-10.0737
華嚴經	-10.0738
喝	-10.0741
姑	-10.0745
祈	-10.0745
不死	-10.0748
薪	-10.0751
寶藏	-10.0753
酪	-10.0758
食之	-10.076
十九紙	-10.0762
聚落	-10.0771
諸惡	-10.0774
法華經	-10.0776
坐禪	-10.0777
俾	-10.0778
善現	-10.0779
椎	-10.0779
徙	-10.0779
噐	-10.0785
睒	-10.0788
若欲	-10.0792
並同	-10.0793
王即	-10.0796
增上	-10.0796
有餘	-10.0799
促	-10.0805
裹	-10.0807
東西	-10.0809
逃	-10.0812
崩	-10.0812
趙	-10.0815
匪	-10.0816
心無	-10.0817
熙	-10.0819
說偈	-10.0821
嬈	-10.0832
此事	-10.0833
屍	-10.0836
朱反	-10.0836
撓	-10.0838
聞之	-10.0841
十二紙	-10.0843
尚書	-10.0845
不久	-10.0847
都只在發善心	-10.0848
閻浮	-10.0849
刼	-10.0852
耶舍	-10.0863
片	-10.0864
阜	-10.0864
普照	-10.0869
鼎	-10.087
勵	-10.0874
管反	-10.0879
爾雅	-10.0884
亦如	-10.0886
無始	-10.089
板	-10.0891
如實	-10.0894
係	-10.0898
甫	-10.09
茅	-10.0902
沸	-10.0908
法者	-10.0912
刧	-10.0914
誰道	-10.0914
皇帝	-10.0915
放逸	-10.0915
頑	-10.0917
江南	-10.0921
非常	-10.0926
怡	-10.0928
警	-10.0933
如是等	-10.0934
竪	-10.0939
叔	-10.094
桓	-10.0945
北方	-10.095
上去	-10.0963
季	-10.0966
况	-10.0966
錦	-10.098
逍遙	-10.0981
幹	-10.0987
上尺	-10.0989
不壞	-10.0992
之名	-10.0994
隨緣	-10.0994
也字書	-10.0996
見其	-10.1011
辝	-10.1017
光明佛南無	-10.102
耽	-10.1022
迴向	-10.1023
之內	-10.1023
大智	-10.1031
天竺沙門	-10.1034
鬪	-10.1037
錄中	-10.1039
汙	-10.1042
四分	-10.1043
見一	-10.1051
無人	-10.1052
弭	-10.1052
壓	-10.1054
跳	-10.1055
枳	-10.1059
殊勝	-10.1062
僧伽	-10.1072
之門	-10.1077
山中	-10.1084
晉世竺法護譯	-10.1084
螫	-10.1086
搏	-10.1087
上自	-10.1088
白衣	-10.1089
輝	-10.1093
臻	-10.1095
問訊	-10.1097
我身	-10.1097
罔	-10.1099
其義	-10.1103
考聲	-10.1103
熾	-10.1104
不二	-10.112
上卷	-10.1121
瑠璃	-10.1125
緣生	-10.1142
不須	-10.1152
剝	-10.1152
互相	-10.1163
凡聖	-10.1167
秘	-10.1175
阤	-10.118
得解脫	-10.1181
喫	-10.1184
兖反	-10.1185
君子	-10.1189
古反	-10.119
朗反	-10.1192
也從木	-10.12
第十	-10.1202
色界	-10.1203
右二經同本異譯	-10.1211
彌留	-10.1212
孚	-10.1215
稻	-10.1217
懇	-10.1224
秦言	-10.1227
欲得	-10.1233
陰陽	-10.1233
一字	-10.1237
高僧傳	-10.124
䖝	-10.1242
反前	-10.1243
蔭	-10.1246
恥	-10.1246
割反	-10.1249
萌	-10.1251
娜	-10.1261
也通俗文	-10.1268
合掌	-10.1272
下郎	-10.1275
灼	-10.1277
捶	-10.1278
牢	-10.1283
黨	-10.1287
見在	-10.1289
反字書	-10.1294
如人	-10.1295
涌	-10.1301
維摩詰	-10.1303
隻	-10.1308
新編上	-10.1309
法經一卷	-10.1314
寐	-10.1316
譏	-10.1317
仗	-10.1318
製	-10.132
嶺	-10.1321
及以	-10.1324
音古	-10.1325
大千	-10.133
也古今正字	-10.1331
謁	-10.1333
神呪經一卷	-10.1342
腫	-10.1344
王舍城	-10.1357
無量無邊	-10.1358
着	-10.1358
第三譯	-10.1359
鼈	-10.1361
堯	-10.1361
不了	-10.1384
檢	-10.1387
障礙	-10.1388
賞	-10.1389
蹤	-10.1393
低	-10.1405
北涼	-10.1408
無量壽	-10.1409
詭	-10.141
遽	-10.1411
剋	-10.1413
狼	-10.1414
腦	-10.1414
舞	-10.1414
不足	-10.1418
?	-10.142
無憂	-10.142
黎	-10.1421
猒	-10.1422
不在	-10.1424
貌也	-10.1428
後世	-10.143
屏	-10.1432
也從心	-10.1436
南方	-10.1437
佛菩薩佛菩薩	-10.144
繒	-10.1441
有漏	-10.1449
中陰	-10.1452
鄭注	-10.1454
善哉	-10.1462
恐怖	-10.1471
歇	-10.1477
胸	-10.1481
岳	-10.1482
罰	-10.1482
出內典錄	-10.1484
默然	-10.1484
不行	-10.1485
能知	-10.149
碑	-10.1491
又弘利益之曲	-10.1495
聲也下	-10.1496
請問	-10.1499
故說	-10.1503
出離	-10.1503
十七卷	-10.1504
炬	-10.1504
屠	-10.1506
在於	-10.1507
真性	-10.1508
說文作	-10.1509
埋	-10.1512
丸	-10.1521
即頻伽音又名呌街聲	-10.1528
剎那	-10.1533
佳	-10.1543
拾	-10.1549
悞也	-10.1552
允	-10.1553
詠	-10.1555
件	-10.1558
此方	-10.1565
住持	-10.1565
六塵	-10.1567
為王	-10.1574
時彼	-10.1574
善見	-10.1579
克	-10.1581
誕	-10.1581
樣	-10.1586
之一	-10.159
十一卷	-10.1595
國人	-10.1597
於人	-10.1603
非法	-10.1608
猥	-10.161
選	-10.1611
捐	-10.1611
酉	-10.1611
予	-10.1612
殺生	-10.1614
群生	-10.1618
若以	-10.1618
何況	-10.1639
剛	-10.1641
啄	-10.1641
掠	-10.1642
逮	-10.1643
羙	-10.1649
葬	-10.1655
則能	-10.1655
爰	-10.1658
十八紙	-10.1659
非有	-10.1659
殷	-10.1677
薦	-10.1681
某	-10.1681
光明佛	-10.1686
栴檀	-10.1687
蠱	-10.1689
不作	-10.1697
彼岸	-10.1697
海中	-10.1699
快樂	-10.17
或三卷	-10.1703
安置	-10.1706
矟	-10.171
所行	-10.1712
祀	-10.1715
唯識	-10.172
與我	-10.1727
翻經	-10.1731
與之	-10.1731
圓明	-10.1733
相好	-10.1737
無上菩提	-10.1737
拾遺編入	-10.1739
倦	-10.175
價	-10.175
聲或作	-10.1754
筏	-10.1754
所問	-10.1761
諂	-10.1767
眾經	-10.1767
達摩	-10.1768
或直云	-10.1773
憒	-10.1776
不失	-10.1776
罪福	-10.1777
知其	-10.1782
不盡	-10.1784
忿	-10.1785
天竺三藏	-10.1785
摽	-10.1788
鷲	-10.1792
三日	-10.1794
恁麼	-10.1798
或從	-10.1803
之性	-10.1812
豫	-10.1814
之身	-10.1817
湛然	-10.1838
六年	-10.1842
長者子	-10.1844
較	-10.1848
合反	-10.1858
無比	-10.1861
籍	-10.1861
等法	-10.1862
當來	-10.1862
道士	-10.1872
亮反	-10.1876
瑩	-10.1885
往來	-10.1887
街	-10.1891
東晉	-10.1894
馱	-10.1894
見道	-10.1894
止觀	-10.1896
亘	-10.1908
何不	-10.1909
一句	-10.191
雉	-10.1912
性相	-10.1913
口反	-10.1913
斛	-10.1915
偷	-10.1915
搆	-10.1917
反韻英云	-10.1918
藝	-10.1918
玉篇	-10.1924
一切如來	-10.1928
等筆受	-10.1934
音又	-10.1936
萬里	-10.1939
反三蒼	-10.1943
拭	-10.195
瞬	-10.195
右反	-10.1951
將來	-10.1952
誅	-10.1952
捺	-10.1956
隸	-10.1956
嫉	-10.1957
無能	-10.1959
文句	-10.1967
大集	-10.1976
𠃵	-10.1977
大雲	-10.1978
緩	-10.1984
禹	-10.1986
譯經	-10.1986
葢	-10.199
巡	-10.1991
暉	-10.1992
擎	-10.1994
勑	-10.1994
不可說	-10.2009
䟽	-10.2011
溝	-10.2017
遏	-10.2018
姚	-10.202
嬰	-10.202
意識	-10.2022
昔有	-10.2028
微塵	-10.2036
昬	-10.2043
白佛	-10.2045
琰	-10.205
爾時世尊	-10.2051
匿	-10.2051
未曾有	-10.2054
千里	-10.2056
彼人	-10.2058
須達	-10.2059
所緣	-10.2061
至心	-10.2064
也廣疋	-10.2069
檀越	-10.2077
踏	-10.2083
富貴	-10.2083
我是	-10.2092
番	-10.2093
臘	-10.2095
矜	-10.2095
蜀	-10.2101
唵嘛呢叭𡄣吽	-10.2102
奚反	-10.2102
律反	-10.2107
若是	-10.2109
輕重	-10.2111
法護	-10.2115
大迦葉	-10.2117
反案	-10.2121
古猛反	-10.2121
軟	-10.2123
髀	-10.2128
攝受	-10.2131
矢	-10.2131
丈夫	-10.214
之日	-10.2142
擊也	-10.2143
入於	-10.2153
唾	-10.2156
聖道	-10.2163
蟻	-10.2164
祗	-10.2165
誨	-10.2174
不成	-10.2185
化作	-10.2186
忽然	-10.2191
第一義	-10.2191
級	-10.2196
五年	-10.2201
鬱	-10.2203
賢者	-10.2204
別有	-10.2207
春秋	-10.2209
麦	-10.221
人身	-10.2212
懈怠	-10.2212
施設	-10.2222
呪經一卷	-10.2223
金銀	-10.2225
畔	-10.2229
遶	-10.2233
明也	-10.2235
琳	-10.2238
而言	-10.2249
何為	-10.2254
見反	-10.2259
佛名	-10.2267
誓願	-10.2267
勃	-10.2268
慰	-10.2272
四法	-10.2283
佛如來佛如來佛菩薩佛菩薩佛菩薩	-10.2286
於佛	-10.2293
庚	-10.2295
古人	-10.2297
臼	-10.2299
宣說	-10.2304
怕	-10.2306
頼	-10.2312
雪山	-10.2315
護持	-10.2315
上布	-10.2318
饒益	-10.232
昆	-10.2327
因此	-10.2328
藏經	-10.2343
滌	-10.2343
而自	-10.2352
今此	-10.2352
不及	-10.2358
以是因緣	-10.236
我所	-10.236
上丘	-10.2364
甞	-10.2366
梵王	-10.2367
則為	-10.2374
陋	-10.2376
溢	-10.2376
不取	-10.2376
役	-10.2377
澆	-10.2378
蜂	-10.2379
懈	-10.238
曆	-10.2384
大士	-10.24
湛	-10.24
翻為	-10.2401
品第三十	-10.2402
羅什	-10.2403
商人	-10.2403
第二出	-10.2408
袁	-10.241
故以	-10.2411
若見	-10.2417
之本	-10.2421
展轉	-10.2423
如來藏	-10.2431
滴	-10.2432
本性	-10.2434
天女	-10.2434
怖畏	-10.2435
聰	-10.2439
傳譯	-10.244
微細	-10.2442
蠅	-10.2447
俻	-10.2448
故得	-10.245
而成	-10.2452
棺	-10.2454
六首	-10.2455
大集經	-10.246
滅度	-10.2461
卵	-10.2464
經同本異譯	-10.2469
邠	-10.2486
嵗	-10.2489
不用	-10.2496
菩薩經	-10.25
秘密	-10.2511
皆由	-10.2516
豕	-10.252
貯	-10.252
後漢	-10.2522
善業	-10.2524
觀音	-10.2529
踈	-10.2531
自知	-10.2532
俗用	-10.2536
宗鏡	-10.2538
嫁	-10.2539
鍊	-10.2547
去來	-10.2551
掣	-10.2556
蕭	-10.2559
菩薩行	-10.2561
真理	-10.2561
好因果都只在發善心如來	-10.2562
映	-10.2563
五蘊	-10.2565
▁摩訶般若波羅蜜經	-10.2566
蘓	-10.2566
􂔗	-10.2568
稚	-10.2568
鳥也	-10.2569
往昔	-10.2569
下戶	-10.257
離垢	-10.2585
涕	-10.2587
見有	-10.2589
勝佛	-10.2595
之外	-10.2596
耕反	-10.2598
兀	-10.2598
邃	-10.2603
梵語也	-10.2603
儞	-10.2604
受生	-10.2609
肘	-10.261
新譯	-10.2615
亦同	-10.2617
愆	-10.2631
錄云	-10.2631
波頭摩	-10.2635
享	-10.2635
也說文作	-10.2642
須菩提	-10.2649
學人	-10.2655
上堂	-10.2656
坦	-10.2662
桒	-10.2664
垣	-10.2668
隨喜	-10.2669
詰	-10.267
溪	-10.2671
名之為	-10.2672
正見	-10.2672
淫	-10.2674
問答	-10.2677
淮南子云	-10.2681
為之	-10.2683
請佛	-10.2687
品第八	-10.2692
已來	-10.2697
拖	-10.2701
十四紙	-10.271
神呪	-10.271
䭾	-10.2712
敏	-10.2714
冰	-10.2716
波斯匿王	-10.2721
之功	-10.2724
於我	-10.2725
昨	-10.2726
品第一	-10.2729
本作	-10.2735
香氣	-10.2736
上魚	-10.2738
耎	-10.2747
持誦	-10.2747
七部	-10.2749
柳	-10.2753
鷹	-10.2756
纖	-10.2779
三業	-10.2784
蹈	-10.2785
膩	-10.2788
淪	-10.2794
𦰧反	-10.28
偈云	-10.2808
也經文	-10.2815
旱	-10.2818
縫	-10.2819
諧	-10.282
長阿含	-10.2822
經典	-10.2824
學道	-10.2825
綠	-10.2826
故有	-10.283
阿闍世王	-10.2841
□□	-10.2845
無著	-10.2847
新編入錄	-10.2848
者則	-10.2848
演說	-10.2858
仲	-10.2864
二十八	-10.2865
頂禮	-10.2869
燒香	-10.2874
依止	-10.2881
正云	-10.2885
應知	-10.2892
反梵語	-10.2894
膏	-10.2895
謂人	-10.2895
鈴	-10.2896
漚	-10.2896
故也	-10.2898
宏	-10.2899
庸	-10.29
報應	-10.2902
午	-10.2904
得福	-10.2906
也從糸	-10.2909
色身	-10.2915
正言	-10.2918
當得	-10.292
未得	-10.292
填	-10.2934
顛	-10.2936
諮	-10.2937
二名	-10.2938
爽	-10.2942
諸國	-10.2949
第五卷	-10.295
反爾雅云	-10.295
二十二	-10.2953
辯才	-10.2955
密雲	-10.2955
佛如來佛如來佛菩薩	-10.2957
無言	-10.2958
紛	-10.2962
脣	-10.2973
闢	-10.2973
朔	-10.2973
軸	-10.2977
不退轉	-10.2985
是佛	-10.2987
▁沙門	-10.2989
取也	-10.2993
即為	-10.2996
人名	-10.2999
咀	-10.3002
漬	-10.3004
雌	-10.301
呈	-10.3015
煥	-10.3015
煎	-10.3015
霧	-10.302
多有	-10.3022
佛告阿難	-10.3024
難提	-10.303
千歲	-10.3031
所譯	-10.3032
芥	-10.3033
賢劫	-10.3036
上其	-10.3036
能斷	-10.3047
眩	-10.305
躍	-10.3053
共相	-10.3053
之二	-10.3056
用也	-10.3059
也律文作	-10.3063
使人	-10.3067
佛所說	-10.3069
良反	-10.3072
上女	-10.3076
貞元新入目錄	-10.3077
滑	-10.3081
脊	-10.3086
自身	-10.3087
拒	-10.3093
鑑	-10.3094
無所有	-10.3095
社	-10.3101
學者	-10.3117
元魏	-10.3122
二同	-10.3123
汗	-10.3123
態	-10.3123
廉	-10.3124
匱	-10.3124
諾	-10.3124
亦得	-10.3127
療	-10.3128
飄	-10.3129
諸有情	-10.3129
會意字也	-10.3134
㸦	-10.3135
惶	-10.3135
四事	-10.3138
六部	-10.3138
𦰧	-10.3141
旃	-10.3142
甘反	-10.3142
百年	-10.315
法王	-10.3155
長老	-10.3159
則有	-10.3166
劇	-10.317
貪著	-10.3173
薰	-10.3174
粟	-10.3175
法輪	-10.3176
線	-10.3178
下卷	-10.3183
或四卷	-10.3185
故反	-10.3189
出入	-10.3193
之意	-10.3198
惡口	-10.3199
黃金	-10.3205
矯	-10.3205
併	-10.3206
巢	-10.3208
喻經	-10.3208
令我	-10.321
別生	-10.3221
□	-10.3225
四分律	-10.323
阿毘達磨	-10.3231
彈	-10.3238
惚	-10.324
奈	-10.3241
利養	-10.3241
什麼	-10.3247
勝佛南無	-10.3248
有此	-10.325
法施	-10.325
上丑	-10.3252
二字並從	-10.3257
妙覺	-10.3262
流布	-10.3265
摩竭	-10.3266
其形	-10.3266
因緣經一卷	-10.3271
誦經	-10.3271
印度	-10.3283
瓜	-10.3283
鑽	-10.3286
霑	-10.329
非此義	-10.329
本經	-10.3291
虞	-10.3292
个反	-10.3295
寔	-10.33
化身	-10.3304
或一卷	-10.3308
此二	-10.3309
唯識論云	-10.331
經文從	-10.3316
駭	-10.3322
入地獄	-10.3325
翁	-10.3325
抑	-10.3327
罕	-10.333
憍慢	-10.3337
四十卷	-10.3338
年少	-10.3338
天眼	-10.3355
▁【(	-10.3357
抽	-10.3359
上知	-10.336
憐	-10.3363
遁	-10.3364
嗢	-10.3365
摶	-10.3366
妻子	-10.337
勇反	-10.337
)。「	-10.3372
不解	-10.3376
不滅	-10.338
顧野王云	-10.3385
執著	-10.3389
骨反	-10.3391
經同本	-10.3395
報恩	-10.3408
風吹	-10.341
窺	-10.3411
百億	-10.3411
清涼	-10.3416
四海	-10.3423
聰明	-10.3431
化為	-10.3433
讀誦	-10.3435
國中	-10.3439
八百	-10.344
班	-10.3443
善住	-10.3446
厲	-10.3446
▁文殊師利	-10.3447
記云	-10.3451
唎	-10.3454
明日	-10.3465
僧祇	-10.3466
緣覺	-10.3467
四生	-10.3469
二十三	-10.3472
誣	-10.3482
七佛	-10.3485
挺	-10.3486
器也	-10.3486
西國	-10.3488
說是	-10.349
等譯	-10.3491
鴻	-10.3494
形如	-10.3496
無所得	-10.3497
此乃	-10.3499
或曰	-10.3502
格反	-10.3505
二十一	-10.3514
卷第十	-10.3515
檻	-10.352
喉	-10.3523
三塗	-10.3527
梟	-10.3527
而作	-10.353
流轉	-10.3531
離諸	-10.3535
師子吼	-10.3547
又如	-10.3551
所在	-10.3552
後漢安息三藏安世高譯	-10.3552
綴	-10.3558
皆從	-10.3558
得一	-10.3562
魔王	-10.3568
罷	-10.3569
汲	-10.357
庾	-10.3571
大法	-10.3577
緫	-10.3581
欲求	-10.3582
所造	-10.3583
丁禮反	-10.3584
炙	-10.3589
不能得	-10.3589
也爾雅	-10.3598
圓融	-10.3599
燥	-10.3601
最後	-10.3605
川音作	-10.3605
至誠	-10.3606
軒	-10.3606
媚	-10.3608
層	-10.3608
肥	-10.361
僻	-10.361
介	-10.3613
舍利子	-10.3616
餘人	-10.3634
喜樂	-10.3641
瑕	-10.3644
世反	-10.3646
冊	-10.3647
上正並	-10.3649
不可以	-10.3649
跋陀	-10.3649
侶	-10.3651
本末	-10.3652
善友	-10.3655
歸命	-10.3658
修善	-10.3661
然燈	-10.3664
反亦作	-10.3664
別譯	-10.3668
未有	-10.3674
四句	-10.3676
揣	-10.3677
經本作	-10.3679
不殺	-10.3682
攘	-10.3685
道行	-10.369
供城	-10.3692
髓	-10.3692
人中	-10.3692
飢渴	-10.3696
五者	-10.3698
而死	-10.3699
三月	-10.3701
上楚	-10.3701
弃	-10.3702
經意	-10.3705
相違	-10.3706
便是	-10.3707
今以	-10.372
晃	-10.3721
憤	-10.3725
三毒	-10.3727
大乘經	-10.3732
破壞	-10.3733
潭	-10.3738
周易	-10.374
也從金	-10.3743
反或作	-10.3745
尓	-10.3747
和上	-10.3751
與汝	-10.3754
不現	-10.3758
同經	-10.3762
勿反	-10.3762
蹇	-10.3766
鎖	-10.3768
堆	-10.3769
塊	-10.3771
京師	-10.3773
舊言	-10.3775
王聞	-10.3776
施主	-10.3777
造作	-10.378
所成	-10.3793
律師	-10.3801
上息	-10.3804
銘	-10.3824
得生	-10.3828
竺法護	-10.3829
藪	-10.3837
都只在至誠心	-10.3837
捷	-10.3843
念誦法一卷	-10.3849
知識	-10.3853
系	-10.3855
貢	-10.3855
戍	-10.3855
皷	-10.3857
藏中	-10.3859
奄	-10.3859
虛空藏	-10.3869
義同	-10.3872
酥	-10.3874
今者	-10.3875
悶	-10.3875
精勤	-10.3876
玄應	-10.3883
見聞	-10.3887
坘	-10.3889
十五紙	-10.3891
卷第二	-10.3892
挾	-10.3893
襲	-10.3896
泛	-10.3898
邦	-10.3898
禮佛	-10.39
傲	-10.3901
於其	-10.3902
菩薩造	-10.3902
不聽	-10.3909
但有	-10.391
光如來南無	-10.3912
聽法	-10.392
摩那	-10.3922
二經	-10.3924
三十三天	-10.3925
上正作	-10.3931
伎	-10.3932
為大	-10.3936
企	-10.3936
縮	-10.3936
餓	-10.3941
世俗	-10.3941
配	-10.3943
握	-10.3944
遙見	-10.3945
葛	-10.395
不然	-10.3952
若言	-10.3954
言語	-10.3956
睡眠	-10.3958
莫結反	-10.3959
佛剎	-10.396
費	-10.396
步米反	-10.3961
形聲字也	-10.3962
一切經音義	-10.3966
剃	-10.3975
𤓰	-10.3975
心念	-10.3976
圭	-10.3976
屣	-10.3978
出世間	-10.3979
唄	-10.3981
馭	-10.3983
釜	-10.3985
見者	-10.3986
篤	-10.3988
反尒疋	-10.399
惡道	-10.3992
其事	-10.4001
謂於	-10.4012
聞已	-10.4014
是則	-10.4014
救反	-10.4022
力故	-10.4023
悼	-10.4023
伸	-10.4027
乱反	-10.4034
無餘	-10.4034
捧	-10.4036
阿那含	-10.4041
上蘇	-10.4043
雖復	-10.4044
泥犁	-10.4045
木反	-10.4045
起塔	-10.4048
此身	-10.4052
刮	-10.4052
躁	-10.4053
僉	-10.4053
佛陀	-10.4061
三蒼	-10.4062
有三種	-10.4062
蘆	-10.4063
隙	-10.4072
所言	-10.4072
一百一十	-10.4073
圍繞	-10.4077
討	-10.4078
萬象	-10.4079
聲經作	-10.4085
口中	-10.4085
毒蛇	-10.4086
六種	-10.4086
卷第三	-10.4094
上疋	-10.4098
嚼	-10.4107
磔	-10.4109
踊	-10.4115
炭	-10.4116
涅槃經云	-10.4117
分為	-10.4119
誐	-10.412
此法	-10.4134
上倉	-10.4135
恒河沙	-10.4138
汎	-10.4151
更無	-10.4151
疏一卷	-10.4152
膠	-10.4155
纂	-10.4155
食肉	-10.4156
鈎	-10.4158
古字也	-10.416
不虛	-10.416
西域記云	-10.4164
蒼頡篇	-10.4165
妨	-10.4165
菴	-10.4165
赫	-10.4166
不明	-10.4167
反尒雅	-10.4172
三十六	-10.4172
白佛言世尊	-10.4177
得大	-10.4179
舍衛國	-10.4182
也下音	-10.4183
不食	-10.4184
兩舌	-10.4186
仾	-10.4188
忉利天	-10.4195
以自	-10.4197
大慈	-10.4197
甄	-10.4199
粥	-10.4202
軀	-10.4202
煮	-10.4202
効	-10.4203
夙	-10.421
達多	-10.4215
佛教	-10.4218
之物	-10.4222
盖反	-10.4232
財寶	-10.4238
拱	-10.4242
禽獸	-10.4243
反〡	-10.4244
衣食	-10.4249
胎藏	-10.4253
醯	-10.4256
貞觀	-10.4257
來至	-10.427
見內典錄	-10.4273
以是	-10.4274
萎	-10.4282
擯	-10.4283
善心	-10.4292
令得	-10.4293
聲聞緣覺	-10.4299
沼	-10.43
佛身	-10.4304
有八	-10.4307
愚人	-10.4307
繫縛	-10.4308
之力	-10.4319
色相	-10.4319
僧祐	-10.432
耐	-10.4324
豎	-10.4329
妬	-10.433
鄭玄曰	-10.4332
譬喻經	-10.4332
白言	-10.4333
恢	-10.4334
我見	-10.4353
惡趣	-10.4353
明王	-10.4356
梵文	-10.4358
之旨	-10.4361
如彼	-10.4362
染淨	-10.4365
郭璞曰	-10.4368
喙	-10.4369
十年	-10.4369
憚	-10.4371
是一	-10.4371
癸	-10.4376
逈	-10.438
墮地獄	-10.4381
樂也	-10.4388
萬行	-10.4389
尒反	-10.4392
消息	-10.4396
虗	-10.4398
必有	-10.4399
無色	-10.4399
我於	-10.4401
欲令	-10.4404
一分	-10.4404
▁八	-10.4404
著那	-10.4405
稅	-10.4406
實際	-10.441
婦人	-10.4412
燕	-10.4413
丙	-10.4416
寢	-10.4416
擁	-10.4417
禦	-10.4417
贈	-10.4418
換	-10.4418
開示	-10.4418
殖	-10.4419
竅	-10.442
十六紙	-10.4431
止也	-10.4435
何得	-10.4436
入涅槃	-10.4439
象形	-10.4441
開元錄	-10.4443
下古	-10.4443
視也	-10.4452
圓通	-10.4455
裝	-10.4459
皆空	-10.446
通俗文	-10.4461
朋	-10.4463
入藏	-10.4465
播	-10.4467
法相	-10.4468
也又云	-10.4474
佛南無無量	-10.4474
聲亦作	-10.4475
▁梵志	-10.4477
流通	-10.4479
由是	-10.4481
九部	-10.4486
十月	-10.4487
吳月支優婆塞支謙譯	-10.4487
女經一卷	-10.4489
佛土	-10.449
于時	-10.4497
同於	-10.4498
日出	-10.4501
苦樂	-10.4501
名聞	-10.4504
陂	-10.4505
眴	-10.4506
宿命	-10.4507
躡	-10.4508
灾	-10.451
女經	-10.4512
戎	-10.4512
作佛	-10.4513
對治	-10.4516
人心	-10.4517
赤色	-10.4519
敢反	-10.4521
所居	-10.4526
大力	-10.4533
獄卒	-10.4536
般泥洹經	-10.4541
經律論	-10.4545
邁	-10.4546
毛詩	-10.4548
老母	-10.4551
湖	-10.4551
五法	-10.4552
鹹	-10.4554
寺沙門	-10.4557
孔子	-10.456
三十二相	-10.4563
波利	-10.4565
塵勞	-10.4582
豈不	-10.4584
之曰	-10.4586
見已	-10.4591
吸	-10.4591
沫	-10.4595
百歲	-10.4596
帳	-10.4597
酷	-10.4598
溼	-10.4601
誹謗	-10.4602
冲	-10.4606
鴈	-10.4612
音笑	-10.4614
所為	-10.4614
行也	-10.4614
下胡	-10.4619
出現	-10.462
入聲	-10.4622
㲲	-10.4629
智力	-10.4631
弋	-10.4632
使者	-10.4632
反非	-10.4633
胡反	-10.4637
閇	-10.4638
不實	-10.4644
拯	-10.4646
準	-10.4648
智度論云	-10.4649
十二部	-10.4649
無分別	-10.465
功德經	-10.4653
同時	-10.4658
力士	-10.4661
門外	-10.4666
道者	-10.4666
贍	-10.4676
扣	-10.4678
杵	-10.4679
道理	-10.4681
柯	-10.4681
恡	-10.4684
出中阿含	-10.4685
俯	-10.4689
何者	-10.4692
藻	-10.4693
於一切	-10.4695
魄	-10.4697
其母	-10.4697
本有	-10.4699
是法	-10.4699
實有	-10.4699
天神	-10.4703
聖賢	-10.4704
六十卷	-10.4704
道德	-10.4706
之行	-10.4708
殺之	-10.4711
不求	-10.4724
隨所	-10.4724
白雲	-10.4725
跪	-10.4726
不變	-10.4726
玩	-10.4728
銳	-10.4729
栽	-10.4729
已具釋	-10.4731
沙門法	-10.4732
賦	-10.4738
從手	-10.474
樞	-10.4742
道安	-10.4743
恒沙	-10.4744
六百	-10.4745
轉輪聖王	-10.4746
大歡喜	-10.475
與前	-10.4753
能為	-10.4753
時王	-10.4755
常為	-10.4756
則見那	-10.4757
群臣	-10.4758
終日	-10.4758
啞	-10.4769
鍵	-10.4778
江反	-10.4778
𠕀	-10.478
廬	-10.478
十萬	-10.478
烈	-10.478
坊	-10.4785
陁羅	-10.4787
六波羅蜜	-10.4788
父子	-10.4802
初禪	-10.4811
夫婦	-10.4812
三形	-10.4816
羹	-10.4818
梅	-10.482
立反	-10.4823
此土	-10.4824
農	-10.4824
蒸	-10.4825
浩	-10.4825
氷	-10.4826
酸	-10.4826
柴	-10.4826
觀世音菩薩	-10.4829
諸方	-10.4833
縱橫	-10.4834
無別	-10.4835
夢見	-10.4836
見得	-10.4836
六道	-10.484
元嘉	-10.4843
光照	-10.4845
崛多	-10.4852
膚	-10.4859
嗽	-10.4862
隘	-10.4865
懶	-10.4867
別名	-10.4867
荊	-10.4867
者以	-10.4868
償	-10.487
戒本	-10.4872
腰	-10.4873
經一部二卷	-10.4873
鴿	-10.4876
枚	-10.4877
祚	-10.4878
之以	-10.4883
上扶	-10.4893
自他	-10.4893
護法	-10.4896
與諸	-10.4898
天帝釋	-10.49
皆反	-10.4901
而出	-10.4901
不會	-10.4903
直須	-10.4903
郁	-10.4904
前世	-10.4905
優波	-10.4907
浣	-10.491
筞	-10.4913
上丁	-10.4915
征	-10.4916
殆	-10.4917
見此	-10.4917
敦	-10.4921
▁大寶積經	-10.4921
裁	-10.4921
桂	-10.4921
千佛	-10.4922
琉璃	-10.4925
反鄭注禮記云	-10.4925
漫	-10.4927
得此	-10.493
威神	-10.4934
一百二十	-10.4944
大意	-10.4946
王所	-10.4953
洟	-10.4955
菩薩戒	-10.4958
之體	-10.4959
威力	-10.4962
叱	-10.4964
姦	-10.4964
緘	-10.4965
變異	-10.4966
對曰	-10.4967
佐	-10.4969
謨	-10.497
者為	-10.497
依字	-10.499
編入	-10.4994
朽	-10.4997
第九卷	-10.4999
上補	-10.5
也下又	-10.5
二千	-10.5007
算	-10.5007
憙	-10.5007
押	-10.5007
這箇	-10.5007
鍼	-10.5008
紐	-10.5009
甜	-10.5009
惹	-10.5014
四眾	-10.5015
行人	-10.5016
真言一本	-10.5018
遙反	-10.5019
慙	-10.502
股	-10.5022
今生	-10.5024
月光	-10.5035
▁十	-10.5038
此之	-10.5043
即能	-10.5047
之為	-10.5049
迭	-10.5056
眷	-10.5057
四禪	-10.5059
八萬	-10.5059
含反	-10.5067
巍巍	-10.507
釋論	-10.5079
身中	-10.508
見性	-10.5083
通用	-10.5092
卷第四	-10.5099
迅	-10.51
人皆	-10.5101
無障礙	-10.5103
同本異譯	-10.5106
之智	-10.5108
妙用	-10.5108
字替之	-10.5109
訣	-10.5111
憐愍	-10.5113
熒	-10.5117
古今正字從	-10.5124
然則	-10.5127
最為	-10.513
持也	-10.5135
也川音作	-10.5135
下苦	-10.5139
旃檀	-10.5142
狀如	-10.5147
𠧒	-10.5149
儲	-10.5149
掬	-10.515
三德	-10.5152
局	-10.5156
醒	-10.5159
律儀	-10.5161
諭	-10.5162
皆聲	-10.5163
從木	-10.5167
彫	-10.5171
反字書云	-10.5171
如來南無寶	-10.5174
佛世尊	-10.5178
上方經作	-10.5178
染反	-10.518
業障	-10.5181
成熟	-10.5183
業報	-10.5184
火燒	-10.5185
七年	-10.5187
反埤蒼	-10.5187
日光	-10.5195
俟	-10.5195
十力	-10.5195
一處	-10.5199
翔	-10.5206
程	-10.5209
音紫	-10.5209
淨心	-10.521
雁	-10.521
於大	-10.521
但以	-10.521
在此	-10.5211
唯願	-10.5212
信解	-10.5213
老僧	-10.5218
􅴭	-10.522
氣也	-10.5221
也說文從手	-10.5222
姚秦三藏鳩摩羅什譯	-10.5227
愛樂	-10.5228
無復	-10.5235
魔忍	-10.5235
▁大方廣佛華嚴經	-10.5238
亦言	-10.524
揮	-10.5243
慨	-10.5244
巷	-10.5246
籌	-10.5247
渚	-10.5247
菩薩修行	-10.5248
濯	-10.5249
一部一卷	-10.525
液	-10.525
躭	-10.5251
槍	-10.5253
取其	-10.5254
隅	-10.5256
膺	-10.5256
於後	-10.5262
鉢羅	-10.5263
生時	-10.5264
反下古	-10.5266
說言	-10.5267
熾盛	-10.5268
歷反	-10.5272
嫁反	-10.5274
也從言	-10.5274
律文作	-10.5278
也文字典說從	-10.5282
善財	-10.5283
▁摩訶	-10.5283
未知	-10.5284
仇	-10.5287
稱讚	-10.5288
護摩	-10.5291
餉	-10.5292
惣	-10.5292
拊	-10.5292
脛	-10.5293
禱	-10.5295
彼國	-10.5296
囚	-10.5297
潰	-10.5297
假名	-10.5298
央	-10.5298
身命	-10.5299
斂	-10.53
脈	-10.5304
也聲類	-10.5305
杳	-10.5305
捨離	-10.5305
告反	-10.5309
神呪經	-10.5309
同一	-10.5321
之妙	-10.5326
縱廣	-10.5328
月十五日	-10.5332
弘始	-10.5334
不從	-10.5335
惡人	-10.5339
漢書	-10.5339
擿	-10.534
援	-10.5342
下方	-10.5342
三身	-10.5344
翰	-10.5344
絳	-10.5344
黠	-10.5345
赦	-10.5346
其本	-10.5347
大覺	-10.5349
霄	-10.5351
勝妙	-10.5351
涯	-10.5351
仁者	-10.5355
副	-10.5357
四天下	-10.5357
已後	-10.5358
神僧南無	-10.5364
三藏法師	-10.5366
非一	-10.5372
亦然	-10.5375
三昧經一卷	-10.5376
手執	-10.5376
唐云	-10.5376
正道	-10.5377
之教	-10.5377
反梵語也	-10.538
連反	-10.5385
狄	-10.5385
也從口	-10.5385
叢	-10.5386
暖	-10.5391
禮反	-10.5392
妙理	-10.5393
第六卷	-10.5393
嗅	-10.5395
晨	-10.5395
一真	-10.5395
嵩	-10.5397
所綺反	-10.5401
者不	-10.5404
八種	-10.5405
儉	-10.5405
䪺	-10.5407
良久	-10.5407
一切有情	-10.5409
白王	-10.541
意經一卷	-10.5413
有十	-10.5416
可知	-10.5418
(􄑄	-10.542
笈多	-10.542
只見	-10.5428
有得聞	-10.5432
柰	-10.5433
泄	-10.5434
若比丘	-10.5434
此三	-10.5435
正體	-10.5435
核	-10.5438
楯	-10.5438
之文	-10.5441
佛名經	-10.5441
作惡	-10.5442
雍	-10.5443
筭	-10.5443
狩	-10.5443
緒	-10.5449
皈依	-10.5449
之士	-10.5449
須陀洹	-10.5455
梵云	-10.5457
)》	-10.5459
果反	-10.5459
祖師	-10.5463
小反	-10.5467
上又	-10.5468
百八十	-10.5468
衣也	-10.5469
本闕	-10.5469
一切諸佛	-10.547
可謂	-10.5471
叅	-10.5474
意經	-10.5476
五根	-10.5478
甚麼	-10.5478
流行	-10.5483
之者	-10.5483
也蒼頡篇云	-10.5484
咨	-10.5484
無形	-10.5486
聞佛	-10.5488
諱	-10.5489
施與	-10.549
二帙	-10.5491
竿	-10.5492
切韻	-10.5493
萬歲	-10.5495
受此	-10.5496
蓬	-10.5498
神變	-10.5507
年中	-10.5509
靣	-10.5509
阿闍梨	-10.551
大周	-10.5512
出家者	-10.5513
林反	-10.5514
▁摩訶般若波羅蜜	-10.5521
也文字典說云	-10.5521
沾	-10.553
孝反	-10.5532
夜叉	-10.5533
戮	-10.5538
攪	-10.5539
縶	-10.554
攬	-10.554
伽陀	-10.5541
反鄭注周禮云	-10.5542
涅	-10.5543
不犯	-10.5546
初出與	-10.5549
事經一卷	-10.555
主人	-10.5553
法故	-10.5563
論文作	-10.5564
誰能	-10.5576
一劫	-10.5577
不過	-10.5581
無法	-10.5582
那其間	-10.5584
疾也	-10.5587
僅	-10.559
魅	-10.5591
晏	-10.5592
下居	-10.5595
法海	-10.5595
稠	-10.5596
所起	-10.5597
一身	-10.5599
國名	-10.5599
王者	-10.5601
不許	-10.5607
疏云	-10.562
念言	-10.562
不通	-10.5625
騃	-10.5625
壤	-10.5636
脹	-10.564
疾病	-10.564
二形今作	-10.5642
二形又	-10.5642
墳	-10.5644
是何	-10.5645
咄	-10.5647
安公	-10.5648
撗	-10.5648
法寶	-10.5648
大夫	-10.5649
煑	-10.5649
那羅延	-10.5649
付囑	-10.5661
兮反	-10.5669
十誦	-10.567
遂反	-10.5671
轉輪王	-10.5675
普賢菩薩	-10.5675
子也	-10.5675
楞伽	-10.5676
重譯	-10.5683
不依	-10.5684
為善	-10.5684
如來名號	-10.5685
之則	-10.5687
岐	-10.5689
携	-10.5689
踵	-10.5692
橛	-10.5693
至道	-10.5694
舶	-10.5694
導師	-10.5695
長壽	-10.5697
難得	-10.5699
等經	-10.5699
二十七	-10.5705
無事	-10.571
論語云	-10.5715
大興善寺三藏沙門大廣智不空奉詔譯	-10.5718
紅反	-10.5722
住於	-10.5729
善知	-10.5729
頂反	-10.5733
無作	-10.5736
架	-10.5736
耗	-10.5739
有四種	-10.574
分衛	-10.5741
綵	-10.5741
壑	-10.5742
王名	-10.5743
是菩薩	-10.5744
闊	-10.5746
羞	-10.5746
四十二	-10.5746
怠	-10.5747
而後	-10.5747
禰	-10.575
爐	-10.575
靜慮	-10.5766
成正覺	-10.5766
韓詩	-10.5772
法苑珠林卷第	-10.5774
離欲	-10.5775
禹反	-10.5779
空寂	-10.578
上余	-10.5783
怯	-10.5786
如今	-10.5791
蕃	-10.5793
衍	-10.5794
肝	-10.5794
絡	-10.5795
誇	-10.5795
戟	-10.5796
縈	-10.58
悉地	-10.5801
子曰	-10.5802
十法	-10.5802
乾坤	-10.5803
忻	-10.5803
庚反	-10.5804
唵	-10.5804
開元	-10.5807
等同本	-10.5809
一部四卷	-10.5809
禁戒	-10.581
正行	-10.5811
思量	-10.5813
則是	-10.5818
盍反	-10.5818
▁大般若波羅蜜多經卷第	-10.5819
十方佛	-10.582
▁金剛	-10.5822
所證	-10.5822
侍者	-10.5823
俱舍論	-10.5833
無差別	-10.5834
滓	-10.5839
流出	-10.5839
歟	-10.5844
橋	-10.5845
之因	-10.5845
熊	-10.5847
祐云	-10.585
乍	-10.585
沒反	-10.5858
時節	-10.5861
佛南無寶	-10.5864
無可	-10.5865
憶念	-10.5868
我慢	-10.587
心中	-10.5881
我為	-10.5881
洽反	-10.5881
化生	-10.5883
反毛詩傳曰	-10.5888
俞	-10.5888
諷	-10.5889
暨	-10.589
隹	-10.5895
三十七	-10.5898
腸	-10.5898
暇	-10.5899
兜率	-10.5901
莎	-10.5904
阿修羅	-10.591
不說	-10.5915
圓成	-10.5921
不絕	-10.5936
則見	-10.5941
羈	-10.5944
腋	-10.595
一百五十	-10.5952
泡	-10.5954
喧	-10.5954
如如	-10.5958
形聲字	-10.5959
粲	-10.596
明月	-10.5964
從人	-10.5966
下徒	-10.5968
皆為	-10.5972
等覺	-10.5972
之德	-10.5981
盡也	-10.5985
書寫	-10.5985
品第九	-10.5986
蹉	-10.5987
蚊	-10.5992
皎	-10.5993
蹶	-10.5993
挫	-10.5993
心性	-10.5996
舛	-10.5996
替	-10.5996
因緣經	-10.5999
郊	-10.6
一生	-10.6003
粗	-10.6003
膓	-10.6004
維摩	-10.6006
王菩薩	-10.6008
里反	-10.6009
比丘僧	-10.6011
功德如來南無	-10.6017
不修	-10.6022
曼荼羅	-10.6024
勝義	-10.6025
經等同本	-10.6025
出華嚴經䟽	-10.6025
身口	-10.6027
顏色	-10.6028
菩薩經一卷	-10.6036
非時	-10.604
羅婆	-10.6048
非人	-10.6048
跨	-10.6048
▁摩	-10.6049
恠	-10.605
仞	-10.6051
債	-10.6052
而來	-10.6054
揩	-10.6056
知之	-10.6056
疑惑	-10.6057
慳貪	-10.607
其意	-10.6072
論語	-10.6074
也字書云	-10.6075
譯出	-10.608
城中	-10.6082
佛地	-10.6083
達磨	-10.6083
論曰	-10.6085
法義	-10.6089
右此	-10.6089
二十九	-10.6091
震動	-10.6094
行法	-10.6095
萃	-10.6099
抵	-10.6101
跋陀羅	-10.6103
虹	-10.6103
也論文作	-10.6104
目前	-10.6108
品第十	-10.6109
得見	-10.6111
世世	-10.6113
迦旃延	-10.6117
粉	-10.6121
並非	-10.6123
是知	-10.6123
上市	-10.6124
具云	-10.6128
日日	-10.6135
下奴	-10.6144
肯	-10.6147
與人	-10.6149
冶	-10.6151
修福	-10.6152
莫瓶反	-10.6152
感反	-10.6153
恤	-10.6154
鑊	-10.6155
屎	-10.6156
疫	-10.6159
恰	-10.6163
天中	-10.6167
上竹	-10.6167
見舊錄	-10.6169
輪轉	-10.6169
佛南無一切	-10.6173
於一切法	-10.6173
苾芻	-10.6174
古今正字	-10.6178
以偈	-10.618
當以	-10.6182
求法	-10.619
〔	-10.6193
沮	-10.6195
硬	-10.6198
病人	-10.62
常行	-10.62
木也	-10.6202
蹹	-10.6203
上卑	-10.6207
巫	-10.6207
燎	-10.6208
緾	-10.6208
上子老反	-10.6208
攻	-10.621
性空	-10.6211
轍	-10.6211
啇	-10.6211
彌勒菩薩	-10.6212
濡	-10.6212
丞	-10.6213
也說文從水	-10.6214
𢢔	-10.6214
朴	-10.6215
釘	-10.6215
摩耶	-10.6216
光如來	-10.6218
時人	-10.6222
不墮	-10.6226
般若波羅蜜	-10.6229
道之	-10.6231
驚怖	-10.6242
父王	-10.6244
郭注	-10.6245
?」	-10.6253
佛祖	-10.6254
劈	-10.6255
音岸	-10.6258
痕	-10.626
犍	-10.6262
猴	-10.6262
諸行	-10.6265
彥	-10.6267
本願	-10.6267
一月	-10.6268
上方問反	-10.6269
自說	-10.6269
修學	-10.627
旅	-10.627
從來	-10.6271
盂	-10.6271
無所畏	-10.6271
於世	-10.6279
教授	-10.6281
福報	-10.6288
菩提留支	-10.6289
十方諸佛	-10.629
並非也	-10.6294
也三蒼	-10.6297
作此	-10.6298
音𢙉	-10.63
巴	-10.63
其家	-10.63
反埤蒼云	-10.6302
十二年	-10.6302
殄	-10.631
禽	-10.6312
若於	-10.6314
類也	-10.6314
虗空	-10.6315
玄奘	-10.6317
洎	-10.6318
我心	-10.6318
邈	-10.6319
數十	-10.6331
借音	-10.634
上昌	-10.6342
理事	-10.6347
至今	-10.6349
觀心	-10.6351
觀自在	-10.6354
▁七	-10.6356
為他	-10.6359
衢	-10.636
柄	-10.6364
未能	-10.6365
儼	-10.6365
法眼	-10.6365
屯	-10.6366
禾反	-10.6366
噎	-10.6367
惻	-10.637
蟒	-10.6372
三人	-10.6372
晦	-10.6375
輻	-10.6375
上乘	-10.6375
啼哭	-10.6375
相傳	-10.6377
眾苦	-10.6379
又曰	-10.6382
食時	-10.6382
𣗳	-10.6385
輪迴	-10.6397
不敬	-10.6399
與佛	-10.64
尸羅	-10.6402
休息	-10.6403
宛	-10.6404
何等為	-10.6407
度人	-10.6407
既不	-10.6407
或加	-10.6412
僂	-10.6414
踞	-10.6415
遅	-10.6416
▁抄	-10.6416
洋	-10.6418
流水	-10.6419
甕	-10.6419
二十六	-10.642
下烏	-10.6421
佛南無善	-10.6423
聖諦	-10.6423
夢中	-10.6425
棟	-10.6425
能作	-10.6425
秉	-10.6428
我以	-10.6429
鸞	-10.643
十惡	-10.643
漿	-10.6431
遜	-10.6434
行經一卷	-10.6434
供給	-10.6435
七種	-10.6444
聖教	-10.6448
安居	-10.6454
開皇	-10.6465
搔	-10.6468
不合	-10.647
證菩提	-10.647
藤	-10.6476
覈	-10.6477
漆	-10.6478
棘	-10.6478
一日一夜	-10.6479
何有	-10.648
野干	-10.6481
芽	-10.6481
職	-10.6482
非也下	-10.6484
水流	-10.6486
凌	-10.6488
既無	-10.6489
鑄	-10.6493
尸利	-10.6494
支反	-10.6494
遊戲	-10.6495
所求	-10.6496
實無	-10.6503
食也	-10.6505
已釋	-10.6512
惡心	-10.6512
為汝	-10.6514
滅後	-10.6514
所右反	-10.6515
後生	-10.6522
炳	-10.6522
自恣	-10.6523
滲	-10.6526
不遠	-10.6528
那箇	-10.6529
洒	-10.6529
伇	-10.653
別本作	-10.653
俄	-10.6531
句反	-10.6531
剔	-10.6531
亞	-10.6531
旗	-10.6532
捨身	-10.6536
慾	-10.6537
囑	-10.6537
虔	-10.6539
慧琳	-10.6539
得脫	-10.6539
澹	-10.654
鄴	-10.6541
也上又	-10.6542
它	-10.6543
根塵	-10.6543
上毗	-10.6545
叶	-10.6548
者即是	-10.6548
聊	-10.655
活反	-10.6556
諷誦	-10.6558
莊子云	-10.6559
幻化	-10.6561
優波離	-10.6561
經一卷慧琳	-10.6563
古德	-10.6567
為惡	-10.6576
物也	-10.6576
而住	-10.6576
一百四十	-10.6579
豁	-10.6584
聲佛南無	-10.6584
斥	-10.6585
從犬	-10.6588
遠近	-10.6588
文殊師利菩薩	-10.6588
穩	-10.659
林中	-10.6592
寅	-10.6593
零	-10.6595
寵	-10.6596
天帝	-10.6597
信受	-10.66
佛智	-10.66
凡有	-10.6606
而已	-10.6614
聚也	-10.6615
復問	-10.6622
十方世界	-10.6623
今當	-10.6624
那羅	-10.6626
也從肉	-10.6627
契經	-10.6627
即此	-10.6633
文義	-10.6637
一部十卷	-10.6637
倫反	-10.6637
視之	-10.6637
都無	-10.664
擣	-10.664
而復	-10.6642
所須	-10.6642
咤	-10.6643
館	-10.6643
我不	-10.6644
天宮	-10.6644
駝	-10.6644
出於	-10.6645
諸有	-10.6646
或以	-10.6646
受報	-10.6649
鸚鵡	-10.6654
美也	-10.6657
諸臣	-10.6658
一種	-10.6658
復以	-10.6658
孔雀	-10.6662
罽賓	-10.6668
或五卷	-10.6669
尊重	-10.6676
至于	-10.6681
攀	-10.6685
願我	-10.6687
舩	-10.6688
嚙	-10.6694
坌	-10.6699
聳	-10.67
燋	-10.6701
者如	-10.6702
覺悟	-10.6702
生子	-10.6703
下直	-10.6706
略說	-10.6707
三千大千世界	-10.6708
異名	-10.672
急也	-10.6722
不入	-10.6722
群錄	-10.6724
老子	-10.6732
豈有	-10.6733
毘盧遮那	-10.6736
是事	-10.6736
佛告諸比丘	-10.6737
之果	-10.6738
地也	-10.6738
過失	-10.6738
長短	-10.674
上又音	-10.6741
半月	-10.6743
假使	-10.6744
別錄	-10.6745
淨戒	-10.6749
讒	-10.675
惕	-10.6752
不安	-10.6753
築	-10.6754
株	-10.6755
即時	-10.676
二反說文	-10.6762
一百三十	-10.6763
莫能	-10.6765
提婆達多	-10.6768
▁毘	-10.6771
變易	-10.6772
一卷右	-10.6773
正念	-10.6777
報言	-10.6779
第十一	-10.6786
祖曰	-10.6791
牖	-10.6797
若依	-10.6797
反聲類	-10.6798
蛆	-10.68
無上道	-10.6801
引也	-10.6802
醉反	-10.6802
革反	-10.6802
鄧	-10.6802
擘	-10.6802
寂然	-10.6805
不能自	-10.6805
證義	-10.6805
仆	-10.6807
心即	-10.6808
翹	-10.6809
詢	-10.681
輟	-10.6811
千年	-10.6812
獵師	-10.6813
諸煩惱	-10.6813
佛經	-10.6818
般若波羅蜜多	-10.682
且道	-10.6827
入道	-10.6828
星宿	-10.6829
非我	-10.683
曼殊室利	-10.683
香華	-10.6831
上二經	-10.6831
所明	-10.6833
廣雅曰	-10.6834
大地獄	-10.6846
窓	-10.6862
異出	-10.6863
艱	-10.6863
皆同	-10.6864
呬	-10.6865
之業	-10.6865
漁	-10.6868
鵝	-10.6868
陿	-10.6868
從水	-10.687
尹	-10.687
盛也	-10.6871
菩提樹	-10.6872
溥	-10.6873
嫉妬	-10.6874
熖	-10.6878
西明寺	-10.6882
看看	-10.6888
南北	-10.6888
四面	-10.6888
未嘗	-10.6889
十日	-10.6889
心地	-10.689
夷反	-10.6891
此即	-10.6893
得其	-10.6897
陀那	-10.6897
無方	-10.6898
比丘經一卷	-10.6902
蠶	-10.6911
出家人	-10.6913
困反	-10.6915
下都	-10.6917
敝	-10.6918
䏶	-10.6919
義理	-10.692
新集	-10.692
績	-10.6922
躓	-10.6922
𠛴	-10.6925
齡	-10.6927
一切世間	-10.6929
一面	-10.693
懿	-10.693
初生	-10.6932
隷	-10.6933
𢍆	-10.6936
作是	-10.6937
隨機	-10.6938
樓炭經	-10.6939
如夢	-10.6944
攀緣	-10.6944
韓	-10.6947
二法	-10.6953
大唐三藏義淨譯	-10.6957
荅曰	-10.6958
經五卷	-10.6959
玄義	-10.6959
爾雅云	-10.6962
自相	-10.6963
經律	-10.6968
皺	-10.6971
卦	-10.6972
也文字典說	-10.6973
頷	-10.6978
犁	-10.6979
嵐	-10.6979
埤蒼	-10.698
眇	-10.698
恕	-10.6981
琴	-10.6982
此等	-10.6988
壹	-10.699
百餘	-10.6992
音信	-10.6992
聞此	-10.6995
奇特	-10.6996
未盡	-10.6999
阿那律	-10.7
同論	-10.7007
無過	-10.7008
了無	-10.7009
鋪	-10.7013
勤修	-10.7015
三藏沙門	-10.7019
應作	-10.7024
二月	-10.7027
蹙	-10.7027
袂	-10.7027
森	-10.7031
咲	-10.7032
鉗	-10.7032
遠也	-10.7033
濤	-10.7033
並云	-10.7034
不染	-10.7035
並悞	-10.7037
澍	-10.7039
孛	-10.7042
二十紙	-10.7046
品第十一	-10.705
覺知	-10.7053
三十五	-10.7054
反下莫	-10.7056
礼	-10.7065
反下徒	-10.7065
俗作	-10.7066
音舜	-10.707
不息	-10.7071
法行	-10.7073
即入	-10.7079
之形	-10.7081
瞢	-10.709
弶	-10.709
也說文亦	-10.7091
饌	-10.7093
儀軌一卷	-10.7094
蔓	-10.7095
四人	-10.7098
於法	-10.7101
睿	-10.7103
譜	-10.7103
莽	-10.7106
聲佛	-10.711
十五日	-10.7113
二諦	-10.7116
臥反	-10.7117
非真	-10.712
二首	-10.7121
度脫	-10.7121
了了	-10.7122
上火	-10.7124
右後漢代安世高譯	-10.7125
具說	-10.7127
沙門釋法	-10.7129
第八卷	-10.7136
二百五十	-10.7142
殺害	-10.7146
無盡意	-10.7147
諠	-10.7147
漏盡	-10.7149
讎	-10.715
同異	-10.715
鐘	-10.7155
措	-10.7156
桀	-10.7157
無極	-10.7157
菩	-10.7158
▁比丘	-10.716
掛	-10.716
旛	-10.7162
賓頭盧	-10.7162
也玉篇	-10.7163
迦毘羅	-10.7169
佛子	-10.7172
遇反	-10.7173
毘婆沙	-10.7182
南海	-10.7183
敬也	-10.719
增益	-10.7191
尓疋	-10.7191
胃	-10.7201
澀	-10.7205
觜	-10.7208
皰	-10.7211
為名	-10.7211
有相	-10.7212
篆	-10.7213
芒	-10.7214
六字	-10.7215
鱗	-10.7215
斑	-10.7215
或為	-10.7217
栖	-10.7217
拋	-10.7221
無非	-10.7224
難可	-10.7227
涼州	-10.7232
人姓	-10.7232
菩薩問	-10.7233
下羊	-10.7236
所修	-10.724
同力	-10.7242
高下	-10.7243
持世	-10.7244
十八部	-10.7244
須摩提	-10.7245
夘	-10.7245
之流	-10.7246
及僧祐錄	-10.7248
此名	-10.725
娛樂	-10.7252
阿僧祇	-10.7252
時諸	-10.7252
增一阿含	-10.7253
姧	-10.7256
陛下	-10.7261
轡	-10.7262
瘳	-10.7263
次明	-10.7263
▁觀	-10.7263
上二	-10.7264
不來	-10.7265
虺	-10.7266
善行	-10.7268
惰	-10.7268
〡也正作	-10.7269
真偽	-10.727
鎻	-10.7272
皆以	-10.7275
者誤也	-10.7277
而說偈言	-10.7278
叚	-10.7284
淨飯王	-10.7285
瑜伽論云	-10.7285
教人	-10.7286
優婆夷	-10.7289
上初	-10.7289
三事	-10.7289
思念	-10.7293
異熟	-10.7298
舊譯	-10.7299
常以	-10.7302
􃣌(	-10.7303
有時	-10.7305
以喻	-10.7307
之地	-10.731
五千	-10.7311
佛果	-10.7313
躄	-10.7315
修多羅	-10.7317
者皆	-10.7318
師問	-10.7319
即於	-10.732
此一	-10.7321
奉行	-10.7321
久住	-10.7322
罪業	-10.7324
未來世	-10.7324
牝	-10.7325
搦	-10.7326
拙	-10.7329
咳	-10.733
六趣	-10.733
妾	-10.7331
頭上	-10.7332
胷	-10.7335
之餘	-10.7335
已釋訖	-10.7337
添	-10.7339
儻	-10.7339
未生	-10.734
文作	-10.7342
名號	-10.7344
而立	-10.7344
神仙	-10.7347
經律異相	-10.7349
隨其	-10.7351
淨名經云	-10.7352
諸弟子	-10.7358
為本	-10.7361
其文	-10.7368
甚麼處	-10.7372
裸	-10.7379
出增一阿含	-10.7381
者非也	-10.7383
撾	-10.7383
軛	-10.7384
月八日	-10.7386
瓊	-10.7386
釋種	-10.7386
酢	-10.7389
至理	-10.739
佛塔	-10.7392
以成	-10.7393
襟	-10.7396
呪願	-10.7397
爵	-10.7398
婇女	-10.7398
其後	-10.7401
也從足	-10.7402
從何	-10.7402
誥	-10.7403
謂佛	-10.7404
小品	-10.7406
字體	-10.7406
自有	-10.7413
者今	-10.7414
定反	-10.7415
經右	-10.7418
佛南無大	-10.7419
理趣	-10.7424
是真	-10.7429
近也	-10.7438
體性	-10.7439
祐錄	-10.744
立名	-10.7442
只是	-10.7443
稼	-10.7447
傴	-10.7447
嶮	-10.7447
無以	-10.7448
弼	-10.7449
絃	-10.745
尖	-10.7451
無際	-10.7451
之罪	-10.7455
萬億	-10.7457
令彼	-10.7462
不生不滅	-10.7463
舜	-10.747
姚秦	-10.7473
無色界	-10.7476
出雜阿含	-10.7476
呼之	-10.7478
西天	-10.748
寶塔	-10.748
卷第五	-10.7485
受記	-10.7489
芥子	-10.7489
塵垢	-10.749
五穀	-10.7491
了達	-10.7492
五月	-10.7499
瑞應	-10.7499
依此	-10.7501
川音	-10.7501
世高	-10.7501
呪經	-10.7502
􂌞	-10.7505
捫	-10.7505
瘂	-10.7505
糧	-10.7506
嶽	-10.7507
竇	-10.7508
鑠	-10.7508
無情	-10.7509
釣	-10.751
隴	-10.751
山曰	-10.7511
尉	-10.7511
法度	-10.7513
鎔	-10.7513
龕	-10.7514
許叔重	-10.7515
典反	-10.7515
煖	-10.7516
壬	-10.7519
敕	-10.7522
種性	-10.7528
第四譯	-10.7528
圓覺經云	-10.7532
遣使	-10.7535
今附漢錄	-10.7536
東晉西域沙門竺曇無蘭譯	-10.7536
求那	-10.7539
太康	-10.754
常樂	-10.754
一體	-10.7543
犯戒	-10.7544
因地	-10.7547
耄	-10.7555
噬	-10.7556
聞是	-10.756
得成	-10.7563
堅反	-10.7563
蔑	-10.7564
擗	-10.7565
偉	-10.7566
姿	-10.7568
𡧱	-10.7569
欬	-10.7572
本起	-10.7574
噴	-10.7576
砂	-10.7579
奴婢	-10.7583
無自性	-10.7583
上才	-10.7593
綺語	-10.7595
了反	-10.7596
執持	-10.7598
言之	-10.7598
略反	-10.7599
力計反	-10.7603
其言	-10.7603
釋迦牟尼佛	-10.7606
行經	-10.7608
常在	-10.7614
為因	-10.7616
名相	-10.7627
貽	-10.7629
摘	-10.7629
黏	-10.763
瞖	-10.763
叨	-10.763
反人名也	-10.7633
厨	-10.7634
生處	-10.7635
法句	-10.7636
十二月	-10.7638
燿	-10.7638
醍醐	-10.7638
也經作	-10.7641
兇	-10.7642
無限	-10.7642
譯曰大	-10.7642
說文曰	-10.7646
雖然	-10.7646
一曰	-10.7651
不忘	-10.7655
重罪	-10.7659
豈可	-10.7663
也釋名云	-10.7665
時如何	-10.7666
太平	-10.7667
莫報反	-10.7668
利樂	-10.7671
肇	-10.7676
帝代	-10.7679
腹中	-10.7682
歿	-10.7684
賣反	-10.7684
鵄	-10.7685
郭氏音	-10.7687
。○	-10.7688
鑰	-10.7688
安立	-10.769
刊	-10.769
彊	-10.7691
糠	-10.7693
衝	-10.7693
從手作	-10.7693
亟	-10.7694
鵲	-10.7695
名也正作	-10.7697
大願	-10.77
馥	-10.7701
唯佛	-10.7703
對反	-10.7709
佛南無普	-10.7709
當時	-10.771
有佛	-10.7712
年歲次	-10.7714
曼茶羅	-10.7715
端嚴	-10.7715
現行	-10.7717
大莊嚴	-10.7717
道也	-10.7718
自覺	-10.7721
此則	-10.7723
直追反	-10.7729
昆反	-10.7732
匝	-10.7732
臨終	-10.7739
擢	-10.7743
杙	-10.7744
戒律	-10.7744
眾中	-10.7745
迮	-10.7748
徒骨反	-10.7748
盈反	-10.7749
頭陀	-10.7753
闘	-10.7753
五塵	-10.7756
虜	-10.7756
若有眾生	-10.7756
逵	-10.7758
燈明	-10.776
號曰	-10.776
關中	-10.7761
可愛	-10.7763
五逆	-10.7765
舊錄	-10.7766
風雨	-10.7774
猶豫	-10.7776
其實	-10.7777
也或從	-10.778
郭注云	-10.7784
刃反	-10.7789
者曰	-10.7789
開悟	-10.779
此國	-10.7793
上陟	-10.7794
習氣	-10.7795
當為	-10.7796
覲	-10.7798
隨時	-10.7801
叛	-10.7802
餧	-10.7805
長夜	-10.7805
品第十二	-10.7807
受樂	-10.7811
亂也	-10.7812
我聞	-10.7813
也說文云從	-10.7813
聿	-10.7815
文字典說	-10.7815
沛	-10.7816
剪	-10.7818
何緣	-10.782
字又作	-10.7822
為甚麼	-10.7823
枷	-10.7823
莊子	-10.7823
死者	-10.7823
也杜注左傳云	-10.7823
即生	-10.7826
郭璞云	-10.7826
即今	-10.7828
不具	-10.7829
頌云	-10.7832
苦痛	-10.7834
漸漸	-10.7837
故能	-10.784
遞	-10.7842
忿怒	-10.7842
上莫𠋫反	-10.7843
魏吳失譯	-10.7843
等事	-10.7846
宋元嘉年	-10.7847
休道	-10.7852
▁太子	-10.7852
尒疋	-10.7853
錦反	-10.7855
上徒刀反	-10.7859
律云	-10.786
云何名	-10.7864
經內題云	-10.7866
𨒫	-10.7869
第五十	-10.7872
訾	-10.7875
生者	-10.7876
中國	-10.7877
疇	-10.7879
嘆	-10.7879
亦能	-10.788
人人	-10.788
猜	-10.7881
毛孔	-10.7882
揆	-10.7883
迸	-10.7884
柔軟	-10.7889
或八卷	-10.7889
藏菩薩南無	-10.7889
不正	-10.789
吊	-10.7891
命終生	-10.7891
毘羅	-10.7891
本心	-10.7892
僧云	-10.7894
非無	-10.7894
九年	-10.7897
塔寺	-10.7905
稱佛	-10.7908
或見	-10.7921
幢佛	-10.7921
厄反	-10.7923
中無	-10.7924
兜率天	-10.7926
有一人	-10.7928
我說	-10.793
右西晉	-10.7931
後有	-10.7931
徒的反	-10.7934
憲	-10.7935
五首	-10.7937
抓	-10.7937
此處	-10.794
敞	-10.7941
腨	-10.7941
娑婆	-10.7941
受罪	-10.7941
箕	-10.7942
鑪	-10.7942
一切煩惱	-10.7943
餌	-10.7945
妹	-10.7947
暎	-10.7947
七百	-10.7949
唯一	-10.795
懊惱	-10.7951
棲	-10.7952
西晉竺法護譯	-10.7952
偈曰	-10.7954
身口意	-10.7956
成實論	-10.7957
兩手	-10.7962
鳩摩羅什	-10.7962
大愛道	-10.7965
呼為	-10.7971
福業	-10.7973
彼此	-10.7973
所立反	-10.7974
波羅密	-10.7975
斷絕	-10.7976
有德	-10.7979
文一卷	-10.798
於洛陽譯	-10.798
入定	-10.7981
大小乘	-10.7982
數數	-10.7983
以來	-10.7987
心境	-10.7991
慧菩薩	-10.7991
非用	-10.7995
膊	-10.7997
字同	-10.7998
絞	-10.8002
緇	-10.8003
塹	-10.8004
褒	-10.8005
般泥洹	-10.8007
譯云	-10.8009
孩	-10.801
坎	-10.8011
經等	-10.8016
厭離	-10.8016
行於	-10.8017
佛為說	-10.8021
真常	-10.8022
十二門	-10.8023
無量壽經	-10.8025
一味	-10.8025
此女	-10.8025
故經云	-10.8034
貪愛	-10.8035
勤苦	-10.8042
之情	-10.8042
玉篇曰	-10.8045
說此	-10.8045
二邊	-10.8049
結集	-10.8056
往生	-10.8056
疽	-10.8058
曀	-10.806
惋	-10.8061
虐	-10.8063
猫	-10.8064
斜	-10.8064
西南	-10.8064
息也	-10.8066
来	-10.8069
梗	-10.807
第十二	-10.8071
金輪	-10.8071
本覺	-10.8073
駿	-10.8074
由來	-10.8074
無想	-10.8075
賔	-10.8076
派	-10.8078
霞	-10.8078
甚多	-10.8079
烟	-10.808
妄心	-10.8081
廣雅云	-10.8083
論作	-10.8084
非此義也	-10.8085
獨覺	-10.8088
常有	-10.809
上冝作	-10.8094
能破	-10.8096
寺出	-10.8097
心心	-10.8098
迷惑	-10.81
證果	-10.8101
遊行	-10.8102
▁小	-10.8103
如故	-10.8104
從今	-10.8112
三品	-10.8113
用之	-10.8114
譯者曰	-10.8115
意菩薩	-10.8118
完	-10.8118
這感應	-10.8119
漱	-10.8119
安公云	-10.812
音竭	-10.8122
受者	-10.8124
串	-10.8126
侈	-10.813
闌	-10.813
昂	-10.813
羅此云	-10.8132
他方	-10.8133
妍	-10.8135
幅	-10.8135
應和尚以	-10.8138
上有	-10.814
地獄中	-10.8143
般若經云	-10.8146
釋提桓因	-10.8146
只見那	-10.8146
之樂	-10.8154
大悲心	-10.8155
持齋	-10.8155
大會	-10.8155
廬山	-10.8155
下莫	-10.8156
佛之	-10.8158
支讖	-10.8162
證得	-10.8163
瞿那	-10.8163
訛略也	-10.8167
佛弟子	-10.8168
眾會	-10.8182
苦角反	-10.8183
聖智	-10.8187
釋云	-10.8188
盪	-10.8189
者當	-10.819
散亂	-10.819
怙	-10.8191
如水	-10.8191
棗	-10.8192
撻	-10.8193
耿	-10.8193
天監	-10.8194
絮	-10.8194
膽	-10.8194
直是	-10.8196
椽	-10.8197
大慈悲	-10.82
淹	-10.8201
崔	-10.8202
頒	-10.8203
取捨	-10.8203
嶷	-10.8204
東南	-10.8206
力主反	-10.8209
曠野	-10.8211
無染	-10.8214
虛空中	-10.8215
佛以	-10.8219
梵語涅槃華言滅度	-10.8222
出大智度論	-10.8228
增減	-10.8228
八反	-10.8229
作大	-10.8232
又復	-10.8234
來生	-10.8236
謂以	-10.8236
理也	-10.8239
不言	-10.8239
延反	-10.8239
有七	-10.8247
而說	-10.8249
實語	-10.825
同音	-10.8252
歐	-10.8253
蹴	-10.8254
噓	-10.8256
蟠	-10.8258
汪	-10.8258
皂	-10.8259
郭氏作	-10.826
麟	-10.8263
也從人	-10.8264
誰知	-10.8265
法印	-10.8265
疎	-10.8269
󲊛	-10.8269
帝王	-10.8269
翫	-10.827
僧尼	-10.8273
已下	-10.8274
歸於	-10.8275
彈指	-10.8275
反集訓云	-10.8275
第十二卷	-10.8278
未見	-10.8279
製序	-10.828
見費長房錄	-10.8283
本起經	-10.8285
豈得	-10.8285
眾經目錄	-10.8287
眾德	-10.8288
充滿	-10.8288
▁第二分	-10.829
人壽	-10.8291
甚處	-10.8291
罽賓國	-10.8292
上疾	-10.8294
也非	-10.8299
王菩薩南無	-10.8299
尒時	-10.8308
二本	-10.8309
於長安譯	-10.8316
脅	-10.8318
狎	-10.832
財施	-10.8321
錐	-10.8322
膜	-10.8324
除也	-10.8325
入海	-10.8325
黍	-10.8326
霍	-10.8328
鞠	-10.8329
勗	-10.833
甘蔗	-10.833
閏	-10.8331
譯人	-10.8331
坻	-10.8333
上書	-10.8336
非此用	-10.8336
教法	-10.8341
山海經云	-10.8344
摩訶衍	-10.8345
謂眾生	-10.8351
解說	-10.8352
尚書云	-10.8353
豈非	-10.8356
九月	-10.8359
為道	-10.8374
有六	-10.8375
皈命禮	-10.8376
合卷	-10.8379
一向	-10.8381
何用	-10.8384
懅	-10.8384
憩	-10.8388
悴	-10.839
胤	-10.8391
幢佛南無	-10.8391
百由旬	-10.8393
浸	-10.8393
瞎	-10.8394
五十卷	-10.8396
井反	-10.8398
謾	-10.8398
涅盤	-10.8399
也鄭注禮記云	-10.84
戲論	-10.8401
因緣故	-10.8406
穆	-10.8407
猷	-10.8407
如上	-10.8407
墮落	-10.8411
廣州	-10.8412
藏菩薩	-10.8413
晉世	-10.8413
四果	-10.8415
舍衛城	-10.8416
熾然	-10.8421
其名	-10.8423
本是	-10.8425
舊經	-10.8425
决定	-10.8425
何物	-10.8426
供養佛	-10.8428
經或云	-10.8433
生天上	-10.8434
中作	-10.844
積聚	-10.844
▁晉	-10.8441
得阿羅漢	-10.8443
也古今正字云	-10.8444
報身	-10.8445
心懷	-10.8447
眾多	-10.845
千萬	-10.8453
綖	-10.8453
呿	-10.8453
上中下	-10.8455
染著	-10.8455
陌	-10.8458
重重	-10.8459
驕	-10.846
帀	-10.846
入山	-10.846
台	-10.8461
吁	-10.8461
於心	-10.8461
竄	-10.8462
暑	-10.8462
亢	-10.8462
攸	-10.8462
屐	-10.8462
寺僧	-10.8464
祛	-10.8465
犀	-10.8466
所卓反	-10.8466
昵	-10.8466
之至	-10.8467
無住	-10.8467
婆沙	-10.8467
反方言云	-10.8468
金剛經云	-10.8469
其有	-10.8473
▁聖	-10.8473
下子	-10.8475
博雅	-10.8476
吉凶	-10.8476
虛空藏菩薩	-10.8477
諸侯	-10.8478
青色	-10.848
眾生心	-10.848
郢反	-10.8481
生人中	-10.8484
在前	-10.8485
山東	-10.8485
西晉沙門釋法炬譯	-10.8486
鳥獸	-10.8488
楞伽經	-10.8493
回向	-10.8498
出第一卷	-10.8499
淺深	-10.8501
為其	-10.8501
相對	-10.8504
經歷	-10.851
海水	-10.8514
第十卷	-10.8514
功德如來	-10.8518
中有一	-10.8518
牡	-10.852
皓	-10.852
毀呰	-10.8522
▁寶	-10.8522
顯示	-10.8523
絆	-10.8524
烹	-10.8524
國名也	-10.8525
徒結反	-10.8525
如我	-10.8525
轢	-10.8526
轅	-10.8527
優鉢羅	-10.8527
菟	-10.8527
戚	-10.8529
初發心	-10.853
猿	-10.8534
材	-10.8534
丁𠔃反	-10.8535
古乱反	-10.8536
此間	-10.8537
無疑	-10.8542
甲反	-10.8543
宮中	-10.8548
唯心	-10.8549
于闐	-10.855
行處	-10.855
一塵	-10.8553
相承	-10.8554
聞其	-10.8556
人名也	-10.8559
第八識	-10.8563
詩云	-10.8568
飯食	-10.8571
不欲	-10.8573
二形也又	-10.8576
將欲	-10.8576
今有	-10.8576
搥	-10.8582
攫	-10.8583
頂上	-10.8583
法炬	-10.8584
貿	-10.8585
上力條反	-10.8585
上烏割反	-10.8587
悉能	-10.8587
駮	-10.8587
如來南無善	-10.8588
𣽈	-10.8588
求索	-10.8589
音陁	-10.859
腐	-10.859
綸	-10.8591
瓠	-10.8592
槩	-10.8592
例反	-10.8593
攢	-10.8593
訟	-10.8594
惡行	-10.8594
模	-10.8595
尚不	-10.8596
知是	-10.86
也郭璞曰	-10.86
汝當	-10.8602
世之	-10.8602
伽藍	-10.861
反聲類云	-10.8611
處所	-10.8614
今世	-10.8615
陛	-10.8616
阿彌陀佛	-10.8619
一偈	-10.8625
不立	-10.8627
西京	-10.8628
一切皆	-10.8634
人能	-10.8635
大論云	-10.8636
觀行	-10.8642
又說	-10.8644
此心	-10.8644
心外	-10.8646
從口	-10.8646
輦	-10.865
三法	-10.8652
發起	-10.8652
盥	-10.8653
經音義	-10.8655
章句	-10.8655
傭	-10.8656
糅	-10.8657
儔	-10.8657
鬚	-10.8658
一部三卷	-10.8658
簸	-10.866
煒	-10.866
然而	-10.866
娶	-10.8661
慊	-10.8662
閃	-10.8663
趺	-10.8663
瑜伽師地論	-10.8663
金剛頂	-10.8663
趨	-10.8664
漢書云	-10.8666
寥	-10.8669
卷第一	-10.8671
阿閦	-10.8675
降魔	-10.8683
作意	-10.8684
生故	-10.8684
為正	-10.8685
一百七十	-10.8692
上徒了反	-10.8698
金翅鳥	-10.8708
無記	-10.8709
淨名	-10.871
皆作	-10.8712
易曰	-10.8717
膳	-10.872
多作	-10.8721
舂	-10.8722
涎	-10.8725
恪	-10.8725
埵	-10.8725
蓄	-10.8728
慼	-10.8728
庵	-10.8728
姊	-10.8729
舐	-10.8731
駛	-10.8731
黜	-10.8732
署	-10.8732
龜茲	-10.8733
觀之	-10.8733
出涅槃經	-10.8734
是諸	-10.8736
卯	-10.8738
三尺	-10.8738
隨心	-10.8738
四月	-10.874
子孫	-10.8741
第十一卷	-10.8741
也爾雅云	-10.8741
反詩云	-10.8743
能除	-10.8745
十里	-10.8747
真人	-10.8749
▁大方廣	-10.8753
王問	-10.8758
無緣	-10.8759
魔藏	-10.876
如理	-10.876
為眾生	-10.876
所住	-10.8762
嬉戲	-10.8765
佛名經一卷	-10.8768
六通	-10.8772
藏也	-10.8775
復言	-10.8775
之徒	-10.8785
吻	-10.8785
如佛	-10.8785
善能	-10.8786
下他	-10.8786
散華	-10.8786
笞	-10.8786
惑業	-10.8786
𠔃	-10.8787
顯現	-10.8791
長大	-10.8792
蠍	-10.8793
舋	-10.8793
狸	-10.8794
𦋺	-10.8794
前行	-10.8794
懾	-10.8795
葦	-10.8795
炊	-10.8795
悵	-10.8797
丁反	-10.8797
𠁅	-10.8797
吽	-10.8798
関	-10.8799
靖	-10.88
王宮	-10.88
抳	-10.8801
寶華	-10.8802
佛心	-10.8804
六月	-10.8804
穹	-10.8805
羅者	-10.8805
帚	-10.8806
答云	-10.8807
見諸	-10.881
無罪	-10.8814
緣反	-10.8817
伎樂	-10.8819
𤼵	-10.882
給孤獨園	-10.882
禮敬	-10.8822
作如是	-10.8828
所願	-10.8831
何因	-10.8832
百姓	-10.8833
園中	-10.8834
而不能	-10.8835
六識	-10.8837
支謙	-10.8837
寶唱錄	-10.8837
子告反	-10.8838
方廣	-10.884
造化	-10.8843
郭璞注	-10.8846
詣佛所	-10.8846
十誦律	-10.8849
十餘	-10.8849
窄	-10.8852
勢力	-10.8854
無私	-10.8854
入城	-10.8856
欄	-10.8856
道中	-10.8857
誌	-10.8857
捔	-10.886
悖	-10.8862
秤	-10.8862
壘	-10.8863
於道	-10.8863
航	-10.8864
蓐	-10.8864
杯	-10.8865
復生	-10.8865
鱉	-10.8866
庇	-10.8866
▁婆	-10.8867
緊	-10.8867
臍	-10.8867
先擊反	-10.8867
苞	-10.8868
效	-10.8869
禁反	-10.887
匕	-10.8871
蹄	-10.8872
萇	-10.8873
相與	-10.8874
謚	-10.8874
長跪	-10.8879
出第四卷	-10.8881
方知	-10.8881
學士	-10.8883
上羊朱反	-10.8886
皆云	-10.8889
與麼	-10.8893
無對	-10.8893
後魏	-10.8895
跋摩	-10.8897
又以	-10.8897
五道	-10.8899
調御	-10.89
之義謂	-10.8902
旱反	-10.8903
御製	-10.8907
古堯反	-10.891
〕	-10.891
了義	-10.8911
能持	-10.8913
可見	-10.8921
刳	-10.8927
泊	-10.8927
明明	-10.8927
法顯	-10.8927
如來南無無邊	-10.8927
徂	-10.8929
捍	-10.8931
茹	-10.8932
譴	-10.8933
中印度	-10.8933
▁大般涅槃經	-10.8934
將軍	-10.8934
無等	-10.8936
耻	-10.8937
宥	-10.8937
峙	-10.8938
臣等	-10.8941
菩薩所問	-10.8943
我有	-10.8945
俊反	-10.8945
廻	-10.8946
內典錄	-10.8947
心故	-10.8953
曼陀羅	-10.8956
愁憂	-10.896
祕要	-10.897
故言	-10.8971
無處	-10.8972
於地	-10.8972
若得	-10.8972
反俗字也	-10.8976
章一卷	-10.8983
四時	-10.8985
我亦	-10.8986
苦海	-10.8988
天主	-10.8991
並無	-10.8991
四智	-10.8993
莫知	-10.8993
義淨	-10.8997
膿	-10.8997
貲	-10.8999
􄒡	-10.8999
稷	-10.9001
平聲	-10.9001
所攝	-10.9001
在世	-10.9003
磬	-10.9003
箱	-10.9003
墓	-10.9004
蔡	-10.9005
令眾生	-10.9006
俗字也下	-10.9009
首楞嚴經	-10.9009
或復	-10.9009
大興善寺	-10.901
貴賤	-10.901
滅盡	-10.9011
救護	-10.9012
筌	-10.9013
𠋫反	-10.9013
第十三	-10.9014
竦	-10.902
所聞	-10.9021
言我	-10.9023
樓閣	-10.9024
唵嘛呢叭𡄣吽唵嘛呢叭𡄣吽	-10.9024
法雲	-10.9026
一切佛	-10.9031
雲門	-10.9032
賢首	-10.9042
佛即	-10.9046
百九十	-10.905
變為	-10.905
音卓	-10.9051
音同	-10.9056
合成	-10.9057
所受	-10.9058
可畏	-10.906
周遍	-10.9064
迄	-10.9064
䰟	-10.9067
中來	-10.907
往詣	-10.9076
塚	-10.9077
龍樹	-10.9078
日夜	-10.908
鏤	-10.9081
虬	-10.9083
大智論	-10.9083
不令	-10.9085
文帝	-10.9086
為欲	-10.9087
有五百	-10.9092
羅睺羅	-10.9093
知足	-10.9093
微言	-10.9095
耆闍崛山	-10.9098
是名為	-10.91
佛像	-10.9103
當有	-10.9103
迷悟	-10.9104
其性	-10.9105
釋氏	-10.9105
各自	-10.9106
一物	-10.9106
刦	-10.9107
寶女	-10.9108
還歸	-10.9109
今之	-10.9113
今為	-10.9116
夜反	-10.9116
加持	-10.912
本自	-10.9121
▁舍利弗	-10.9122
音塔	-10.9124
亦反	-10.9126
怒也	-10.9128
便得	-10.9133
大菩薩	-10.9136
訴	-10.914
大般若	-10.9141
插	-10.9141
倡	-10.9142
懼也	-10.9142
羂	-10.9143
啖	-10.9144
漉	-10.9146
少時	-10.9146
𢙉	-10.9148
於一	-10.9149
聯	-10.9152
橐	-10.9153
毒藥	-10.9154
傳法	-10.9156
南山	-10.9156
燧	-10.9156
不共	-10.9159
俱胝	-10.9161
也從火	-10.9165
五各反	-10.9171
死屍	-10.9171
眾生故	-10.9177
定慧	-10.9178
也從目	-10.9182
心行	-10.9184
乱也	-10.9186
未審	-10.9187
諸魔	-10.9189
三形同	-10.9189
始終	-10.919
最初	-10.9191
也詩云	-10.9195
聖眾	-10.9199
萬劫	-10.9201
不隨	-10.9204
羊力反	-10.9205
先師	-10.9206
內有	-10.9207
蝎	-10.9209
食者	-10.9212
心所	-10.9213
高座	-10.9214
居謁反	-10.9215
榻	-10.9217
佩	-10.9218
鵠	-10.9219
燼	-10.922
叵	-10.9221
缽	-10.9222
卷下	-10.9223
捴	-10.9223
茫	-10.9223
瞽	-10.9224
傘	-10.9226
茫茫	-10.9229
亥	-10.923
樹神	-10.9233
牟尼	-10.9237
於前	-10.9242
〡〡	-10.9244
蟲也	-10.9244
今時	-10.9247
取之	-10.9247
如斯	-10.925
顧野王	-10.925
俱舍	-10.9252
上而兖反	-10.9252
出生經	-10.9255
修羅	-10.9257
戒本一卷	-10.9258
無此字	-10.9259
死生	-10.9263
是謂	-10.9266
云云	-10.9268
一切處	-10.927
上必	-10.927
亦當	-10.9272
我欲	-10.9272
增一	-10.9273
得果	-10.9275
涅槃經	-10.9275
肪	-10.928
今謂	-10.9283
刷	-10.9285
楞嚴	-10.9286
不堪	-10.9286
𣫍	-10.9286
鴨	-10.9287
既至	-10.9287
𦽦	-10.9288
字音	-10.9288
騫	-10.9288
賄	-10.9288
吴	-10.9289
正理	-10.929
薑	-10.929
大樹	-10.9291
脇	-10.9291
大唐三藏玄奘譯	-10.9293
巳上	-10.9293
繡	-10.9293
之用	-10.9293
不曾	-10.9293
二十二卷	-10.9295
之間謂	-10.9298
頡	-10.9298
晴	-10.9299
僧祐錄	-10.93
阿脩羅	-10.9303
寓	-10.9304
而坐	-10.9311
之苦	-10.9313
超越	-10.9318
未至	-10.9319
受其	-10.932
或無經字	-10.9321
佛菩薩誰道	-10.9322
品第四十	-10.9322
也字林	-10.9328
力支反	-10.9328
十二部經	-10.9329
得自在	-10.9329
此諸	-10.9332
之審反	-10.9337
舉也	-10.9343
善道	-10.9344
長房等錄	-10.9345
有五種	-10.9347
奘	-10.9349
得入	-10.9351
姓也	-10.9352
藥王	-10.9352
𢈔	-10.9353
墮地	-10.9354
鬻	-10.9354
本空	-10.9354
匙	-10.9354
𧿡	-10.9355
似那	-10.9355
緻	-10.9356
珂	-10.936
姪	-10.9361
歰	-10.9363
婉	-10.9365
蠻	-10.9365
其年	-10.9365
文殊問	-10.9366
鐸	-10.9367
蠢	-10.9371
之下	-10.9376
㕘	-10.9378
僧叡	-10.9378
八年	-10.9379
上卑連反	-10.938
楚責反	-10.9382
身長	-10.9383
從木作	-10.9385
十一部	-10.9388
般若波羅密	-10.9388
西北	-10.9389
無厭	-10.9393
之精	-10.9393
稱為	-10.9394
尒雅	-10.9396
兖	-10.9399
始也	-10.9401
毛詩傳曰	-10.9405
黑色	-10.9406
迦葉佛時	-10.9408
出第二卷	-10.9414
械	-10.9423
其子	-10.9423
第十五	-10.9425
彭	-10.9428
穽	-10.943
杓	-10.943
聖凡	-10.9431
詹	-10.9434
宴	-10.9436
道果	-10.9437
▁阿難	-10.9439
心法	-10.9439
剡	-10.9439
為體	-10.944
銓	-10.9441
羼提	-10.9442
王逸注楚辭	-10.9443
妙吉祥	-10.9453
彌陀	-10.9454
成佛道	-10.9458
佛母	-10.9458
貢反	-10.9463
史記	-10.9463
鄭玄注	-10.9464
言其	-10.9472
君臣	-10.9473
字書云	-10.9473
怛羅	-10.9474
依他	-10.9477
歷代	-10.9478
真妄	-10.9478
而非	-10.9478
殺人	-10.9479
與此	-10.9487
普門	-10.9487
梵摩	-10.9488
觀佛	-10.9488
房云	-10.9489
臥具	-10.949
能所	-10.9491
所化	-10.9491
呼各反	-10.9493
雜阿含	-10.9493
水火	-10.9496
眼識	-10.9497
姉	-10.9502
也從土	-10.9502
吝	-10.9502
􂌤	-10.9503
及餘	-10.9505
贖	-10.9505
涸	-10.9506
河沙	-10.9507
坤	-10.9509
公羊傳	-10.951
弔	-10.9511
豸	-10.9512
憫	-10.9512
一百九十	-10.9513
指歸	-10.9515
三教	-10.9516
𠋫	-10.9516
拄杖	-10.9517
皆聲也	-10.9517
無量劫	-10.9519
凾	-10.9522
擁護	-10.9522
蕩蕩	-10.9525
般若波羅蜜經	-10.9527
為是	-10.9531
上丁禮反	-10.9532
意菩薩南無	-10.9533
荊州	-10.9534
杜注左傳云	-10.9537
在地	-10.9541
膿血	-10.9542
所不能	-10.9543
三名	-10.9546
唼	-10.9546
中之	-10.9551
釋名	-10.9551
下蒲	-10.9554
其道	-10.9558
尊勝	-10.9558
聞說	-10.9559
長生	-10.956
卷上	-10.9561
尓反	-10.9562
終無	-10.9563
諸聖	-10.9563
應言	-10.9564
空有	-10.9567
次說	-10.9568
邇雅曰	-10.9572
𧆞	-10.9572
至敬頂禮	-10.9573
苫	-10.9574
繕	-10.9575
能見	-10.9576
黯	-10.9576
好看那	-10.9576
岑	-10.9579
粹	-10.9579
解釋	-10.9579
糜	-10.9581
得名	-10.9581
縵	-10.9581
𡖉	-10.9582
襄	-10.9582
溷	-10.9582
脩行	-10.9589
聞者	-10.959
凢	-10.9591
五事	-10.9593
踊躍	-10.9604
以求	-10.9606
梵網經	-10.9607
▁宋	-10.9607
向上	-10.961
商主	-10.961
刊定	-10.961
一相	-10.9614
▁右大唐	-10.9617
南無釋迦牟尼佛南無釋迦牟尼佛噯	-10.9619
通也	-10.962
言句	-10.9623
律藏	-10.9624
即往	-10.9626
三十七品	-10.9627
同古	-10.9628
證反	-10.9632
念誦法	-10.9632
所用	-10.9633
是心	-10.9633
若菩薩	-10.9635
聲類	-10.9637
應用	-10.964
歎曰	-10.9641
糸	-10.9644
問之	-10.9644
▁唐	-10.9645
六經	-10.9647
骸	-10.9648
鞕	-10.9648
右一部	-10.9649
熱鐵	-10.9649
埴	-10.9652
右二經	-10.9654
挂	-10.9654
承事	-10.9655
䎡	-10.9656
叫	-10.9657
裨	-10.9658
不還	-10.9659
聖僧	-10.9661
自念言	-10.9662
真智	-10.9663
反下力計反	-10.9664
經右說	-10.9664
抗	-10.9665
壺	-10.9667
芝	-10.9669
旃陀羅	-10.9671
一百八十	-10.9674
相者	-10.9677
能得	-10.9682
同居	-10.9684
現世	-10.9684
寶珠	-10.9686
一切菩薩	-10.9691
于反	-10.9694
聖者	-10.97
三音	-10.9703
無量功德	-10.9704
善巧	-10.9707
正體從	-10.9713
大涅槃經	-10.9719
動靜	-10.972
五分	-10.9723
二反非	-10.9723
攣	-10.9724
傑	-10.9725
象馬	-10.9725
蝕	-10.9726
之大	-10.9726
鳬	-10.9726
佷	-10.9726
㿈	-10.9727
音訓	-10.9728
隥	-10.9728
知有	-10.9729
悒	-10.9729
𦘺	-10.9731
蟬	-10.9731
作是言	-10.9732
澗	-10.9732
絺	-10.9732
于元反	-10.9733
佇	-10.9735
無定	-10.9735
臆	-10.9737
也漢書	-10.9738
音胡	-10.9739
婿	-10.974
若干	-10.9743
閙	-10.9744
煇	-10.9747
假借	-10.975
以前	-10.9754
優填王	-10.9754
又何	-10.9759
傳文作	-10.9759
毘舍	-10.9762
下巨	-10.9763
若有人	-10.977
沙門曇	-10.977
自在王	-10.9772
永明	-10.9773
或在	-10.9773
論議	-10.9774
一如	-10.9777
可為	-10.9783
乃得	-10.9786
乃能	-10.9787
獲得	-10.979
能滅	-10.979
小異	-10.9792
我則見	-10.9795
辜	-10.9799
病者	-10.9799
五人	-10.98
遼	-10.98
豹	-10.98
叩	-10.9801
撤	-10.9802
襵	-10.9803
癩	-10.9804
聲經從	-10.9806
賢護	-10.9806
確	-10.9807
侮	-10.9807
𠡠	-10.9807
訥	-10.9807
稗	-10.9808
脉	-10.9808
讚一卷	-10.9809
谿	-10.981
更不	-10.9811
沓	-10.9814
瑜	-10.9814
反玉篇	-10.9816
旌	-10.9816
以是義故	-10.982
曲也	-10.9822
又名	-10.9823
員	-10.9828
白淨	-10.9829
從心	-10.9832
二反下	-10.9833
白象	-10.9834
見人	-10.9835
戒定慧	-10.9836
宋天竺三藏求那跋陀羅譯	-10.9836
十九年	-10.9837
田結反	-10.9837
經義	-10.9837
意也	-10.9837
上首	-10.984
去反	-10.9841
大同	-10.9842
阿耨多羅三藐三菩提	-10.9842
若離	-10.9845
數千	-10.9846
在後	-10.9849
大涅槃	-10.985
他達反	-10.9851
當生	-10.9851
剎利	-10.9851
全身	-10.9862
同論疏	-10.9862
前作	-10.9865
佛法僧	-10.9867
指示	-10.9869
相隨	-10.9869
青山	-10.9871
其婦	-10.9871
正也	-10.9872
普願	-10.9872
郎反下	-10.9874
上公五反	-10.9876
奉勅	-10.9876
墟	-10.9877
政反	-10.9877
抒	-10.9878
獷	-10.9878
故此	-10.9879
褥	-10.9879
寇	-10.988
樹木	-10.988
無差	-10.9881
鞋	-10.9881
跌	-10.9882
偱	-10.9882
一品	-10.9882
瘠	-10.9883
髆	-10.9883
欻	-10.9883
跟	-10.9884
匡	-10.9888
艸	-10.9889
徽	-10.9889
駈	-10.989
事理	-10.989
有罪	-10.9892
顗	-10.9894
八尺	-10.9894
靈山	-10.9899
或七卷	-10.9901
品異譯	-10.9904
目揵連	-10.9908
聶道真	-10.9912
於楊都譯	-10.9913
普光明	-10.9916
如虛空	-10.9916
論文	-10.9916
三世諸佛	-10.9918
並皆	-10.9918
卷第六	-10.992
四念處	-10.9923
於他	-10.9928
經序	-10.9929
蒼頡篇云	-10.9935
大富	-10.9936
真宗	-10.9938
無此	-10.9938
頭面	-10.994
諸外道	-10.9941
辟支	-10.9941
滅罪	-10.9943
不礙	-10.9948
新舊	-10.9948
二十五卷	-10.9951
五濁	-10.9951
是誰	-10.9953
若此	-10.9953
離於	-10.9953
軻	-10.9955
柘	-10.9957
褊	-10.9959
羇	-10.996
蛤	-10.9962
鄰	-10.9962
薨	-10.9963
𠮧反	-10.9964
也又作	-10.9965
漠	-10.9965
貪瞋癡	-10.9969
八戒	-10.9972
􂏥	-10.9974
賈客	-10.9974
怎	-10.9976
周禮	-10.9976
裸形	-10.9978
欲知	-10.9981
善也	-10.9988
僧祇律云	-10.9988
輪廻	-10.9991
反切韻云	-10.9994
三時	-10.9995
著地	-10.9996
芮反	-10.9998
此字	-11
二十四卷	-11.0001
病苦	-11.0011
淨天	-11.0011
言無	-11.0012
品第十三	-11.0012
照明	-11.0013
證真	-11.0017
其父	-11.0019
奴管反	-11.0019
或於	-11.0019
妙道	-11.002
優婆	-11.0021
恩愛	-11.0025
也禮記	-11.0026
釋迦牟尼	-11.0027
普光	-11.0029
挊	-11.0029
得羅漢	-11.0031
教誡	-11.0034
銖	-11.0034
何須	-11.0035
裔	-11.0035
亶	-11.0036
欶	-11.0036
誚	-11.0037
􂜗	-11.0037
自歸	-11.004
匈	-11.004
即與	-11.0041
乃可	-11.0041
妙色	-11.0042
曹溪	-11.0043
洹	-11.0043
鏁	-11.0045
漸次	-11.0046
纓	-11.0046
沼反	-11.0048
聡	-11.0049
湧	-11.0051
寶髻	-11.0051
本源	-11.0052
發明	-11.0052
嚫	-11.0053
祇洹	-11.0053
去也	-11.0054
這裏	-11.0054
凡所	-11.0056
禮記云	-11.0057
粒	-11.0057
也並從	-11.0058
加行	-11.006
道路	-11.0064
輕慢	-11.0065
眾寶	-11.0072
信樂	-11.0075
心者	-11.0076
從肉	-11.0079
大乘論	-11.0079
四門	-11.0082
退失	-11.0086
叶反	-11.0086
耨	-11.0087
樂說	-11.0092
出第八卷	-11.0096
得菩提	-11.0098
閻羅王	-11.0101
俗人	-11.0101
若我	-11.0102
徒登反	-11.0104
衲	-11.0108
嚴淨	-11.0108
童女	-11.0109
蹬	-11.0109
則見得	-11.0111
駃	-11.0113
屑	-11.0115
自在天	-11.0116
范	-11.0118
讚佛	-11.0118
籬	-11.0118
經說	-11.0118
嘯	-11.0119
樵	-11.0122
妙音	-11.0122
一切智智	-11.0123
惠施	-11.0127
义	-11.0127
燃	-11.0127
慘	-11.0128
二分	-11.0128
沐	-11.0129
斷除	-11.013
夜摩天	-11.0132
現身	-11.0134
夫子	-11.0135
同學	-11.0141
寶雲	-11.0141
梵語具云	-11.0144
母子	-11.0144
百千萬億	-11.0146
明珠	-11.0146
知一切法	-11.0147
國語	-11.015
虫也	-11.0152
摩提	-11.0157
而大	-11.0159
國之	-11.0164
廣疋	-11.0168
中說	-11.017
大威德	-11.0172
從糸	-11.0176
自念	-11.0177
何人	-11.0177
大方廣	-11.018
後漢失譯	-11.0185
閞	-11.0186
金剛般若	-11.0186
如其	-11.0189
即有	-11.019
心常	-11.0191
玷	-11.0194
悚	-11.0194
本事	-11.0194
也方言云	-11.0194
渧	-11.0195
胞	-11.0195
愜	-11.0195
於天	-11.0196
不別	-11.0196
萬二千	-11.0197
鄔波	-11.0197
五結反	-11.0198
呂反	-11.0199
虱	-11.0201
六者	-11.0204
反下又作	-11.0205
此翻為	-11.0209
清風	-11.021
牛頭	-11.0211
既而	-11.0212
書云	-11.0214
緇素	-11.0215
心起	-11.0215
日照	-11.0215
七歲	-11.022
佛與	-11.0221
舉身	-11.0223
悲心	-11.0224
無滯	-11.0224
法忍	-11.0228
云何為	-11.0231
醫王	-11.0231
傳寫	-11.0237
金錢	-11.0237
諸龍	-11.0238
追反	-11.024
波逸提	-11.0243
行此	-11.0243
先世	-11.0247
大苦	-11.025
今在	-11.025
飛行	-11.0251
大者	-11.0253
䟽云	-11.0256
今古	-11.0258
而巳	-11.0259
四十九	-11.026
實法	-11.026
又道	-11.0263
三十三	-11.0264
阿羅	-11.0267
𧴵	-11.0267
撞	-11.027
寮	-11.0271
更生	-11.0273
大如	-11.0273
技	-11.0274
裴	-11.0275
狡	-11.0275
擐	-11.0275
擒	-11.0275
珊	-11.0276
闔	-11.0277
長也	-11.0278
孝子	-11.0278
芻	-11.0279
始得	-11.0279
佛為說法	-11.0279
溉灌	-11.0279
陣	-11.028
十事	-11.0281
阿彌陀	-11.0282
婚	-11.0282
經卷	-11.0283
諸大眾	-11.0284
未聞	-11.0284
滔	-11.0286
齋戒	-11.0287
盧舍那	-11.0288
反賈注國語云	-11.0289
或六卷	-11.029
寰	-11.0292
嚴飾	-11.0294
律文	-11.0296
梵語菩提華言道	-11.0296
之宗	-11.0297
亦不得	-11.0297
會稽	-11.0301
求那跋摩	-11.0301
度眾生	-11.0303
以何	-11.0305
神明	-11.0306
五百人	-11.0313
其體	-11.0314
權實	-11.0314
大寶	-11.0318
忽見	-11.032
不假	-11.033
正從	-11.0332
應和尚未詳	-11.0335
房云見別錄	-11.0337
照了	-11.0337
寶幢	-11.0338
作何	-11.034
者矣	-11.0341
平生	-11.0342
良由	-11.0343
斯那	-11.0345
小者	-11.0346
八千	-11.0348
噫	-11.0348
愛欲	-11.0349
感應	-11.035
撩	-11.035
之具	-11.035
明帝	-11.0352
無涯	-11.0352
上戶瓦反	-11.0353
此亦	-11.0353
並作	-11.0355
毅	-11.0356
異生	-11.0356
之福	-11.0357
霹靂	-11.0358
叉手	-11.0359
首楞嚴	-11.0359
泆	-11.036
上徐	-11.0362
山河大地	-11.0363
鵬	-11.0363
烏甲反	-11.0366
或用	-11.0367
古者	-11.0378
諸錄	-11.0383
法空	-11.039
世法	-11.0393
有佛性	-11.0393
惡法	-11.0394
仁壽	-11.04
空故	-11.0402
胡本	-11.0402
之聲	-11.0403
幽深	-11.0403
經曰	-11.0409
二義	-11.0417
勸請	-11.0418
之恩	-11.042
應時	-11.0423
剗	-11.0424
繭	-11.0429
天尊	-11.0429
申日	-11.0429
睫	-11.043
▁薩	-11.0431
劓	-11.0432
冕	-11.0432
問云	-11.0433
異相	-11.0436
殉	-11.0436
僧物	-11.0437
穬	-11.0438
亦曰	-11.0442
賈注國語	-11.0442
倪	-11.0444
舅	-11.0444
与之反	-11.0444
寶積經云	-11.0444
水也	-11.0448
阿僧祇劫	-11.0449
周錄	-11.0449
百里	-11.0451
親友	-11.0455
依法	-11.0456
尸力反	-11.0456
序云	-11.0456
永嘉	-11.0457
嬰兒	-11.0458
2	-11.0466
有法	-11.0467
上阻	-11.0471
並通	-11.0473
自體	-11.0477
反杜注左傳	-11.0477
不必	-11.0478
第十四卷	-11.048
用心	-11.0485
余反	-11.0487
既得	-11.049
天竺國	-11.049
佛告比丘	-11.049
然此	-11.0491
千人	-11.0492
僧曰	-11.0494
尸旨反	-11.0497
料	-11.0498
沙門慧	-11.0498
止息	-11.05
思議	-11.05
珠叢曰	-11.0506
上許之反	-11.0506
喬	-11.0507
雖得	-11.0508
世閒	-11.0509
憒𡗚	-11.0509
形像	-11.0509
魁	-11.0509
堤	-11.0511
輙	-11.0514
能仁	-11.0514
蝮	-11.0514
崛	-11.0514
茨	-11.0514
􂌯	-11.0514
揀	-11.0514
復更	-11.0517
徒刀反	-11.0517
杌	-11.052
版	-11.0521
藹	-11.0521
䡄	-11.0522
徇	-11.0523
足下	-11.0524
種類	-11.0525
富樓那	-11.0528
音巨	-11.053
燉煌	-11.0533
藥師	-11.0535
西來	-11.0536
有緣	-11.0538
靡不	-11.054
必當	-11.054
其國	-11.0542
白色	-11.0543
吳黃武年支謙譯	-11.0545
出長阿含	-11.0546
黃色	-11.0546
十五年	-11.0551
育王	-11.0551
至彼	-11.0552
色心	-11.0555
上徒官反	-11.0556
念誦儀軌一卷	-11.0557
普明	-11.0558
欺也	-11.0558
多達反	-11.0561
自作	-11.0562
黃帝	-11.0564
三惡道	-11.0569
古譯	-11.0569
置於	-11.057
實性	-11.0574
二禪	-11.0574
法雨	-11.0577
正觀	-11.0577
譯者	-11.058
汝可	-11.0581
今得	-11.0582
放光明	-11.0586
常懷	-11.0589
䀎	-11.0591
剩	-11.0591
謔	-11.0593
慈氏	-11.0594
嘶	-11.0594
罝	-11.0595
𨦣	-11.0598
諸功德	-11.06
芬馥	-11.0601
酌	-11.0601
噤	-11.0602
梓	-11.0602
玉女	-11.0603
刈	-11.0604
僊	-11.0604
品第十四	-11.0607
善男子善女人	-11.0608
此識	-11.0608
惒	-11.0609
金剛頂經	-11.061
右東晉	-11.0611
沮渠	-11.0618
山河	-11.062
反王逸注楚辭云	-11.0624
人曰	-11.063
大劫	-11.0631
不忍	-11.0632
譯見費長房錄	-11.0634
上側	-11.0635
熏習	-11.0636
得度	-11.0637
牧牛	-11.0642
其福	-11.0642
本生	-11.0643
何由	-11.0646
未入藏	-11.0647
法要	-11.0649
為業	-11.0652
亦應	-11.0653
疏二卷	-11.0654
一性	-11.0654
向佛	-11.0658
空空	-11.0658
至佛所	-11.0659
二反正作	-11.0667
釋名云	-11.067
功用	-11.0672
𤏙	-11.0675
韶	-11.0675
慧眼	-11.0675
市軟反	-11.0677
􂗙	-11.0678
▁釋	-11.0679
詁	-11.068
瘖瘂	-11.0681
蜱	-11.0681
儜	-11.0683
敖	-11.0683
複	-11.0685
何曾	-11.0685
玉篇云	-11.0686
▁須	-11.0687
剜	-11.0687
九十一劫	-11.0688
佛出世	-11.0689
疆	-11.0689
兢	-11.0689
善來	-11.0691
寺中	-11.0691
而求	-11.0692
其間	-11.0694
百千萬	-11.0696
十四年	-11.0696
資糧	-11.0699
森羅	-11.07
莫顏反	-11.0704
至此	-11.0705
之際	-11.0707
金光明經	-11.0707
後人	-11.0708
囑累	-11.0708
右三經同本異譯	-11.071
下正作	-11.0714
出翻譯名義	-11.0718
那伽	-11.0719
七余反	-11.0721
廣略	-11.0722
雖不	-11.0723
反玉篇云	-11.0724
六情	-11.0725
五通	-11.0726
念處	-11.0728
古杏反	-11.073
愛敬	-11.0733
佛南無無邊	-11.0735
及說	-11.0741
此語	-11.0744
自得	-11.0749
安也	-11.0749
義也	-11.075
本業經	-11.0752
略也	-11.0754
故稱	-11.0754
心識	-11.0756
熱惱	-11.0756
䰅	-11.0757
但是	-11.0758
𦝫	-11.0759
慍	-11.0759
入胎	-11.076
尿	-11.076
窠	-11.076
善人	-11.076
尠	-11.0762
棧	-11.0762
修證	-11.0762
還復	-11.0765
扈	-11.0765
弩	-11.0765
弁	-11.0765
閭	-11.0766
失染反	-11.0766
佛眼	-11.0767
幟	-11.0767
第十四	-11.0768
鄭注周禮云	-11.0769
王女	-11.077
旻	-11.077
歧	-11.0771
豊	-11.0772
不畏	-11.0774
初果	-11.0775
筵	-11.0779
二十一紙	-11.0781
臭穢	-11.0781
更相	-11.0782
波羅奈	-11.0783
城內	-11.0783
修梵行	-11.0783
值佛	-11.0785
無依	-11.0786
囙	-11.0789
永徽	-11.0789
瑟吒	-11.079
音早	-11.079
我若	-11.0797
一年	-11.08
獸也	-11.0805
作如是言	-11.0805
厚也	-11.0806
沙界	-11.0806
吉以反	-11.0807
怨家	-11.0814
馬鳴	-11.0815
也從疒	-11.0818
晉言	-11.0819
故為	-11.082
光明如來南無	-11.0821
㒵也正作	-11.0823
消滅	-11.0824
下又	-11.0825
山頂	-11.0827
得免	-11.0828
死人	-11.0832
入聖	-11.0834
閏反	-11.0835
也尒雅	-11.0839
洿	-11.0842
肌	-11.0842
槀	-11.0843
綫	-11.0843
正並	-11.0843
𧢻	-11.0844
悠	-11.0845
捫摸	-11.0845
也說文從心	-11.0847
多者	-11.0848
姤	-11.0848
四輩	-11.0848
瀆	-11.0849
敲	-11.085
亦可	-11.0851
卉	-11.0852
評	-11.0852
復見	-11.0852
鏘	-11.0854
溟	-11.0855
趙州	-11.0856
俄而	-11.0857
心如	-11.086
那由他	-11.086
生生	-11.086
减	-11.086
法則	-11.0867
般若經	-11.087
是也又	-11.0872
電光	-11.0874
飾也	-11.0875
卷第七	-11.0876
從心作	-11.0877
為師	-11.0879
也埤蒼	-11.0879
正信	-11.0889
阿那	-11.089
眼見	-11.0891
金華	-11.0893
月明	-11.0893
行相	-11.0896
猶有	-11.0898
形相	-11.0907
恒河	-11.0907
作福	-11.0911
真詮	-11.0912
肉也	-11.0912
觀門	-11.0913
二萬	-11.0913
皮肉	-11.0915
此義	-11.0919
消除	-11.0921
屬也	-11.0922
庫	-11.0922
璞	-11.0924
丁歷反	-11.0926
之源	-11.0927
到反	-11.0928
隄	-11.0928
勁	-11.0928
悸	-11.0928
販	-11.093
嘲	-11.093
二相	-11.0931
利物	-11.0931
過於	-11.0934
盾	-11.0935
螢	-11.0936
洛陽	-11.0936
佛如來誰道	-11.0939
継	-11.094
一百六十	-11.094
飡	-11.0941
欝單越	-11.0947
往至	-11.0947
阿蘭若	-11.0948
之三	-11.0948
洗浴	-11.0948
諸經要集	-11.0951
圓教	-11.0955
爭巧反	-11.0955
六師	-11.0964
作者	-11.0965
十歲	-11.0965
門人	-11.0965
少分	-11.0967
不悟	-11.097
之夜反	-11.0972
㽵	-11.0973
未及	-11.0974
真金	-11.0976
方得	-11.0977
三尊	-11.0978
不達	-11.0979
竺法護譯	-11.0982
般舟三昧經	-11.0984
真俗	-11.0986
八歲	-11.0987
莫測	-11.0987
生疑	-11.0991
從口作	-11.0993
所撰	-11.0994
此四	-11.0996
相分	-11.0997
說者	-11.0997
來入	-11.1004
耆婆	-11.1004
各異	-11.1004
長養	-11.1005
菩薩名	-11.1007
八難	-11.1007
拽	-11.101
肴	-11.101
貶	-11.1012
袖	-11.1012
火光	-11.1012
笮	-11.1014
經一部一卷	-11.1015
卬	-11.1016
拓	-11.1016
得罪	-11.1016
肺	-11.1017
䂓	-11.1017
婆沙論云	-11.1017
經一部	-11.1019
尻	-11.102
棠	-11.102
軫	-11.102
菀	-11.1022
栢	-11.1022
何事	-11.1023
三十四	-11.1027
璽	-11.1027
安反	-11.1027
或十卷	-11.1029
彌樓	-11.103
覿	-11.103
願力	-11.1032
述曰	-11.1033
無動	-11.1035
住在	-11.1037
壽終	-11.1038
上九	-11.1042
隨逐	-11.1044
曼拏羅	-11.1045
作善	-11.1048
來世	-11.1049
識得	-11.1055
日輪	-11.1055
心意	-11.1055
聲或從	-11.106
不可得故	-11.1061
大水	-11.1071
無一	-11.1072
示眾	-11.1073
是名菩薩	-11.1074
汝若	-11.1076
尊貴	-11.1079
反孔注尚書	-11.1081
佛前	-11.1084
行願	-11.1088
色空	-11.1088
九百	-11.1089
俎	-11.1097
蔚	-11.1097
店	-11.1098
貸	-11.1098
不顧	-11.1099
姝	-11.1099
董	-11.11
縹	-11.11
自見	-11.1101
𣗥	-11.1101
磧	-11.1103
墻	-11.1103
竈	-11.1103
耑	-11.1105
罸	-11.1105
齩	-11.1108
棄捨	-11.1108
婬女	-11.1109
定意	-11.111
伹	-11.111
駒	-11.111
墾	-11.1111
性本	-11.1111
三十一	-11.1113
也郭注云	-11.1114
羌	-11.1114
▁波	-11.1115
沙門道	-11.1115
無實	-11.1115
象形字也	-11.1116
不止	-11.1118
鴦	-11.1119
苦改反	-11.1125
奴侯反	-11.1125
提舍	-11.1128
第十六卷	-11.1128
密嚴經	-11.113
薩婆多	-11.1131
前後三譯	-11.1133
不至	-11.1137
妙明	-11.1139
沙門竺法護譯	-11.114
及與	-11.1143
得之	-11.1145
斯乃	-11.1145
金剛頂瑜伽	-11.1145
揵度	-11.1148
豈能	-11.1151
體用	-11.1151
覆也	-11.1153
宿世	-11.1162
者非	-11.1163
世諦	-11.1166
其餘	-11.1167
天后	-11.1169
謂能	-11.117
一行	-11.1171
音軟	-11.1178
𩬇	-11.1178
智通	-11.118
爆	-11.1181
窶	-11.1182
𦿔	-11.1185
湍	-11.1185
從水作	-11.1185
百萬	-11.1187
徒了反	-11.1187
氛	-11.1188
唱言	-11.1189
古作	-11.119
离	-11.1191
袒	-11.1193
不貪	-11.1193
甎	-11.1194
法智	-11.1195
必祭反	-11.1198
戒者	-11.1201
屆	-11.1203
戊	-11.1204
婦女	-11.1204
惟願	-11.1208
胞胎	-11.121
弱也	-11.121
大海水	-11.1215
能忍	-11.1215
莊嚴佛	-11.1218
焰反	-11.1218
訓釋	-11.1219
釋迦文	-11.1222
時有一	-11.1223
悔過經	-11.1223
卷中已具釋	-11.1224
木名也	-11.1224
迦葉佛	-11.1225
治之	-11.1225
跋提	-11.1226
嬉	-11.1227
聖王	-11.1228
也周禮	-11.1238
之機	-11.1241
所集	-11.1246
性海	-11.1247
多所	-11.1252
從巾	-11.1254
不調	-11.1256
文殊師利言	-11.1257
施者	-11.126
一言	-11.1267
筮	-11.1269
告言	-11.1269
花嚴	-11.1271
無體	-11.1272
蕪	-11.1273
直利反	-11.1274
應供	-11.1275
晡	-11.1275
癰	-11.1276
謫	-11.1276
逯	-11.1277
廛	-11.1277
妒	-11.1277
悑	-11.1277
諸善	-11.1278
淑	-11.1279
饑	-11.128
舘	-11.128
薜	-11.1282
都故反	-11.1283
澁	-11.1284
颯	-11.1285
覺觀	-11.1286
雕	-11.1287
所愛	-11.1288
為僧	-11.1289
必須	-11.1292
交涉	-11.1292
皿	-11.1294
善哉善哉	-11.1295
洞山	-11.1295
音酉	-11.1298
盎	-11.1299
告曰	-11.1299
迷情	-11.1304
輕躁	-11.1306
之子	-11.1319
之說	-11.1319
太虛	-11.132
既是	-11.1326
入水	-11.1327
之要	-11.1327
七者	-11.133
神咒	-11.1332
求道	-11.1333
下於	-11.1334
飛鳥	-11.1335
儀一卷	-11.1339
論釋	-11.134
進也	-11.1341
常得	-11.1344
安般	-11.1359
圂	-11.1361
作沙門	-11.1362
綰	-11.1362
妓	-11.1364
脯	-11.1365
疱	-11.1365
要知	-11.1366
礦	-11.1366
貳	-11.1367
末後	-11.1367
勾	-11.1367
畦	-11.1368
懌	-11.1368
不喜	-11.1368
跂	-11.1369
盟	-11.1369
抉	-11.137
私妙反	-11.1372
大魚	-11.1372
咃	-11.1373
齋日	-11.1375
霓	-11.1376
大乗	-11.1376
諒	-11.1376
鵰	-11.1377
度也	-11.1377
端坐	-11.1379
毗盧遮那	-11.1382
塞也	-11.1386
右後魏	-11.1388
尒時世尊	-11.1389
同經疏	-11.139
菩薩藏經	-11.1391
深信	-11.1392
沙門僧	-11.1394
侍郎	-11.1395
無生忍	-11.1397
闍梨	-11.1397
釋慧遠	-11.1397
的是	-11.1398
即自	-11.1407
卷中已釋	-11.1409
滿月	-11.1409
好也	-11.1411
故無	-11.1411
化度	-11.1415
答之	-11.1415
下座	-11.1417
古犬反	-11.1418
譬喻經一卷	-11.1418
字下	-11.1421
從虫	-11.1421
稱揚	-11.1423
一十二卷	-11.1424
壽量	-11.1426
之主	-11.1426
卷第八	-11.1427
波羅蜜多	-11.1428
善信	-11.1429
德佛	-11.143
方能	-11.1432
雖無	-11.1437
不疑	-11.1439
吃	-11.144
無名	-11.1442
有一比丘	-11.1443
得聞	-11.1443
聽受	-11.1444
自性清淨	-11.1444
下徒何反	-11.1445
居月反	-11.1445
不去	-11.1448
皆令	-11.145
𧂐	-11.1454
宍	-11.1455
宂	-11.1455
疥	-11.1455
爍	-11.1456
蟄	-11.1456
一切功德	-11.1457
拆	-11.1457
清淨故	-11.1457
蒿	-11.1458
穰	-11.1458
簪	-11.1461
三歸	-11.1462
他化自在天	-11.1462
天堂	-11.1463
羊兩反	-11.1464
何時	-11.1465
丈六	-11.1466
汰	-11.1466
葉反	-11.1467
無有是處	-11.1468
▁雜	-11.1469
緝	-11.1471
耳鼻舌身	-11.1472
師利	-11.1473
法住	-11.1474
鴦崛	-11.1474
至心頂禮	-11.1475
斯陀含	-11.1475
常樂我淨	-11.1477
終身	-11.148
小人	-11.1482
金剛三昧	-11.1482
佛陀跋陀羅	-11.1486
隋天竺三藏闍那崛多等譯	-11.1486
罪過	-11.1488
菩薩南無一切	-11.1488
德如來南無	-11.149
所感	-11.1491
禪經	-11.1492
周旋	-11.1493
反韻詮云	-11.1494
而至	-11.1494
!	-11.1498
於外	-11.1501
寶唱	-11.1501
▁彌勒	-11.1504
合作	-11.1504
經法	-11.1514
第三出與	-11.1514
逼迫	-11.1517
山林	-11.1518
沙門釋慧	-11.1524
行步	-11.1526
妙義	-11.1528
復說	-11.153
一切法皆	-11.1533
出第五卷	-11.1537
疣	-11.1537
呰	-11.1539
毳	-11.1539
音希	-11.1539
字門	-11.1541
下賤	-11.1542
孃	-11.1542
檐	-11.1543
𠸍	-11.1544
砥	-11.1545
當於	-11.1546
所執	-11.1546
化眾生	-11.1546
寘	-11.1547
擅	-11.1547
俳	-11.1547
衫	-11.1548
)。「○	-11.1548
今欲	-11.155
倨	-11.155
逗	-11.1551
稀	-11.1552
努	-11.1553
之美	-11.1554
毘曇	-11.1556
柏	-11.1556
還家	-11.1556
將此	-11.1558
沖	-11.1558
化人	-11.156
潮	-11.1561
後時	-11.1562
論中	-11.1563
末世	-11.1565
放大光明	-11.1566
周匝	-11.1567
愛念	-11.1568
度世	-11.1568
邪婬	-11.1568
金剛智	-11.1573
金光	-11.1576
斷常	-11.1578
如實知	-11.1578
妄計	-11.1579
猶未	-11.158
恐懼	-11.1584
雅反	-11.1585
使我	-11.1586
疏三卷	-11.1589
交反下	-11.159
譯曰好	-11.159
不相應	-11.1596
我昔	-11.1596
婆羅門言	-11.1597
不遷	-11.1601
何法	-11.1602
去迦反	-11.1602
奴代反	-11.1603
金光明	-11.1604
聊反	-11.1605
自稱	-11.1606
與舊	-11.1608
五行	-11.1617
鄧反	-11.1618
不正也	-11.1619
八識	-11.1621
從頁	-11.1623
諸相	-11.1624
科一卷	-11.1625
僧祇律	-11.1626
刖	-11.163
同卷	-11.163
馨	-11.1631
躰	-11.1632
祁	-11.1633
箸	-11.1634
拼	-11.1634
簷	-11.1638
沮壞	-11.1638
蔬	-11.1639
迺	-11.1639
惛	-11.164
無智	-11.164
个	-11.1643
籤	-11.1643
不由	-11.1644
三論	-11.1644
藂	-11.1644
坏	-11.1645
波旬	-11.1648
偷盜	-11.1649
第十九卷	-11.1649
心體	-11.165
賾	-11.1651
並從	-11.1652
焚燒	-11.1652
彥琮	-11.1653
悲泣	-11.1653
天龍	-11.1658
馳走	-11.1658
力日反	-11.1659
無學	-11.166
子六反	-11.1661
不問	-11.1662
所現	-11.1664
六度集	-11.1665
忽有	-11.1667
o	-11.1667
明暗	-11.1667
而兖反	-11.1667
解脫門	-11.1668
婆藪	-11.1675
為性	-11.1677
義一卷	-11.1677
羅譯曰	-11.1682
闍那	-11.1685
變現	-11.1688
永斷	-11.1689
受五戒	-11.1689
無由	-11.169
爾雅曰	-11.1691
反周禮	-11.1692
聖人之	-11.1693
二三	-11.1694
梵釋	-11.1695
綺反	-11.1697
石室	-11.1698
為沙門	-11.1701
阿迦	-11.1709
毛詩云	-11.1711
雜色	-11.1712
周徧	-11.1713
徒眾	-11.1714
作佛事	-11.1715
為說法	-11.1717
晧	-11.1718
其罪	-11.1718
麵	-11.172
以世反	-11.1721
孔雀王	-11.1722
賑	-11.1723
徼	-11.1725
鐙	-11.1726
䗍	-11.1726
也經文從	-11.1727
殯	-11.1727
轂	-11.1727
㵎	-11.1727
所角反	-11.1727
琦	-11.1728
趾	-11.1729
憾	-11.1729
遘	-11.1729
鈆	-11.173
㦸	-11.1731
不違	-11.1736
飼	-11.1736
居良反	-11.1737
簫	-11.1737
也尒疋	-11.1738
義故	-11.1742
羅云	-11.1742
一切善法	-11.1744
詎	-11.1744
師子王	-11.1746
枝葉	-11.1748
求那跋陀羅	-11.1749
佛頂尊勝陀羅尼	-11.1754
毘婆沙論	-11.1754
陀羅尼呪	-11.1758
蘇摩	-11.1758
一存一闕	-11.1758
龍宮	-11.1759
無數劫	-11.176
憂愁	-11.1761
草也	-11.1763
智照	-11.1767
女言	-11.177
數百	-11.1776
資生	-11.1776
滿中	-11.1776
莫胡反	-11.1777
貧人	-11.1777
譬經一卷	-11.1781
速疾	-11.1782
寂光	-11.1783
三帙	-11.1783
皆能	-11.1785
幽微	-11.1786
應當學	-11.1796
眾咸	-11.1801
觀身	-11.1802
羊益反	-11.1802
妄執	-11.1809
鼉	-11.1811
茤	-11.1815
佞	-11.1816
闍黎	-11.1817
二十二紙	-11.1818
娛	-11.1819
氳	-11.182
佛國	-11.182
遺教	-11.1824
冈	-11.1825
庠	-11.1826
𠧸	-11.1826
雇	-11.1828
龐	-11.1828
苽	-11.1828
懃	-11.1829
鎚	-11.183
箴	-11.1833
久遠	-11.1833
㗚	-11.1834
凍	-11.1834
考工記	-11.1837
薩薄	-11.1838
說戒	-11.1843
法明門謂	-11.1843
羂索	-11.1843
呪術	-11.1845
異本	-11.1846
雜譬喻	-11.1847
羅國	-11.185
七到反	-11.1851
雜阿含經	-11.1851
譯人同上	-11.1854
不可見	-11.1855
奉事	-11.1856
城門	-11.186
反經作	-11.1862
皆名	-11.1863
護國	-11.1864
要義	-11.1865
顧野王曰	-11.1867
上蘓	-11.1867
紛紛	-11.187
正體作	-11.1871
唯是	-11.1872
須知	-11.1873
於去反	-11.1873
何名	-11.1875
貞觀二十	-11.1876
聚集	-11.1881
其數	-11.1882
品第十五	-11.1883
天魔	-11.1884
誰道那	-11.1888
八法	-11.1889
辛苦	-11.189
搖動	-11.1892
大悟	-11.1892
白王言	-11.1894
維那	-11.1896
三際	-11.1896
聽我	-11.1897
不易	-11.1897
法句經	-11.19
色欲	-11.19
威光	-11.1904
金剛手	-11.1905
▁二種	-11.1906
佛號	-11.1909
脆	-11.1909
躶	-11.191
欲殺	-11.191
托	-11.1911
非經義	-11.1914
紆	-11.1914
上子孔反	-11.1915
蒱	-11.1915
莫朗反	-11.1916
圃	-11.1916
噯那其間	-11.1916
麋	-11.1916
此翻	-11.192
湮	-11.192
動搖	-11.192
韜	-11.1921
王見	-11.1925
居之反	-11.1925
所食	-11.1925
不放逸	-11.1928
出第三卷	-11.193
無益	-11.193
悟道	-11.1934
聞聲	-11.1935
於諸法	-11.1936
恊反	-11.1938
門中	-11.1939
上居冝反	-11.194
二空	-11.1941
仁王般若	-11.1942
且未說	-11.1947
淨居天	-11.1947
等皆	-11.1948
反郭注爾雅云	-11.1955
隋開皇	-11.1955
奴短反	-11.1957
已得	-11.1957
支提	-11.1959
其一	-11.196
恊	-11.196
因陀羅	-11.1962
觀經	-11.1963
惟淨	-11.1966
令諸	-11.1966
何能	-11.1966
隨眠	-11.1966
第十三卷	-11.1975
三分	-11.1978
杜注左傳曰	-11.1984
法上錄	-11.1988
音呼	-11.1989
廝	-11.1999
荅言	-11.1999
以示	-11.1999
躃	-11.1999
布薩	-11.2
哺	-11.2001
箋	-11.2002
作業	-11.2002
尊佛	-11.2003
齅	-11.2003
鞮	-11.2004
寶蓋	-11.2004
思益	-11.2005
邪正	-11.2005
𤙖	-11.2006
咽喉	-11.2006
髭	-11.2007
鋸	-11.2007
嫡	-11.2008
年正月	-11.2008
梢	-11.2009
髦	-11.2011
嚮	-11.2011
乎反	-11.2013
佚	-11.2013
文粉反	-11.2013
應云阿	-11.2013
隟	-11.2014
笛	-11.2015
脂反	-11.2016
注解	-11.2016
行布施	-11.2016
慟	-11.2017
內云	-11.2018
颺	-11.2019
玄微	-11.202
貧賤	-11.2021
須賴	-11.2022
浮圖	-11.2026
軰	-11.2027
受之	-11.2029
兔角	-11.203
巨月反	-11.2033
佛住	-11.2034
不肖	-11.2036
乃曰	-11.2037
圓照	-11.2038
其本見在	-11.2039
諸事	-11.2041
得生天	-11.2042
復還	-11.2043
天笁	-11.2043
釋教	-11.2049
不免	-11.205
左傳	-11.205
汝見	-11.2051
直至	-11.2051
持此	-11.2051
下生	-11.2053
韻集	-11.2054
妙行	-11.2055
僧護	-11.2056
奉佛	-11.2058
三禪	-11.2061
上他故反	-11.2062
遣人	-11.2063
新經	-11.2063
感通	-11.2064
如意輪	-11.2065
結使	-11.2068
馬祖	-11.2068
集訓云	-11.2069
以神力	-11.207
能證	-11.2071
詣佛	-11.2073
二反並非	-11.2078
空處	-11.2083
大教	-11.2084
同歸	-11.2086
第三十卷	-11.2087
釋道安	-11.2089
金剛手菩薩	-11.209
字号	-11.2091
方丈	-11.2091
疵	-11.2096
明淨	-11.2096
㽞	-11.2097
俠	-11.2097
師乃	-11.2097
▁妙法蓮華經	-11.2097
㝹	-11.2098
鉾	-11.2098
塢	-11.2099
滂	-11.2101
黷	-11.2103
罥	-11.2104
冒	-11.2104
捻	-11.2104
顆	-11.2105
靳	-11.2105
挹	-11.2105
僵	-11.2106
搶	-11.2106
噭	-11.2107
深遠	-11.2109
一首	-11.2109
愷	-11.211
賁	-11.2111
令他	-11.2112
涓	-11.2112
野狐	-11.2112
在外	-11.2115
論師	-11.2115
貧道	-11.2116
壅	-11.2116
禮記	-11.2116
揔	-11.2119
余主反	-11.2125
下尸	-11.2126
自是	-11.2128
不成字	-11.2129
犢子	-11.2135
三反	-11.2138
音施	-11.2139
金剛薩埵	-11.214
普吉反	-11.2141
力丁反	-11.2142
女久反	-11.2142
竹林	-11.2143
而作是言	-11.2144
寶積經	-11.2147
相逢	-11.2148
任運	-11.2148
右說	-11.2153
品第十七	-11.2154
第二十卷	-11.2155
品第十六	-11.2157
衣鉢	-11.2161
影像	-11.2162
弈	-11.2163
山川	-11.2163
遠聞	-11.2167
雖是	-11.2175
阿鼻	-11.2175
太始	-11.2176
月二十三日	-11.2176
隱顯	-11.2178
況復	-11.2179
西反	-11.218
幢如來南無	-11.218
二十四紙	-11.2181
介反	-11.2182
蒼頡	-11.2182
釋子	-11.2183
鏃	-11.2193
貪嗔	-11.2194
癘	-11.2196
鶩	-11.2197
矬	-11.2197
單作	-11.2198
倩	-11.2199
鍮	-11.2201
亾	-11.2201
駐	-11.2202
疼	-11.2202
𨢘	-11.2202
倉歷反	-11.2203
礪	-11.2204
埏	-11.2204
下有	-11.2204
中天竺	-11.2204
偈讚	-11.2206
拕	-11.2206
懷妊	-11.2206
迢	-11.2206
蠃	-11.2207
開化	-11.2207
煌	-11.221
樹名	-11.2211
㝡勝	-11.2212
之類也	-11.2213
澡浴	-11.2213
祇桓	-11.2215
總名	-11.2215
念誦儀軌	-11.2216
含識	-11.2218
烏故反	-11.2218
難也	-11.2219
罪報	-11.2222
盡其	-11.2224
舉手	-11.2224
車匿	-11.2225
=	-11.2228
忘失	-11.2229
或時	-11.2232
隨其所	-11.2234
四十里	-11.2238
千由旬	-11.224
之甚	-11.2242
施等	-11.2243
謂諸眾生	-11.2243
沙彌尼	-11.2245
東北	-11.2247
自思惟	-11.2249
不善業	-11.225
也切韻	-11.2252
鉢囉	-11.2253
上品	-11.2254
乃爾	-11.2256
除滅	-11.2261
八月	-11.2262
所詮	-11.2263
樹名也	-11.2265
幻師	-11.2266
猛火	-11.2267
不測	-11.227
便生	-11.227
大家	-11.227
自古	-11.2275
發生	-11.2278
常見	-11.2278
覺了	-11.2283
四王	-11.2283
卵生	-11.2284
別行	-11.2289
頟	-11.2289
西域沙門	-11.229
三衣	-11.2291
礫	-11.2291
𦟛	-11.2292
誹	-11.2293
蚖	-11.2295
俛	-11.2295
不知所	-11.2296
過患	-11.2296
蹲	-11.2296
哽	-11.2297
仚	-11.2297
字替之非也	-11.2297
𢪛	-11.2297
居力反	-11.2298
緬	-11.2298
鹵	-11.2299
丐	-11.23
訕	-11.2301
衒	-11.2302
門閫	-11.2302
櫱	-11.2302
只為	-11.2302
囹圄	-11.2303
椀	-11.2303
褐	-11.2303
彌沙塞	-11.2303
震旦	-11.2305
睦	-11.2306
廷	-11.2306
踰繕那	-11.2306
非道	-11.2307
苦迴反	-11.2308
不知何	-11.2308
懲	-11.231
生死之罪	-11.2312
叢林	-11.2313
頴	-11.2313
勇健	-11.2314
百六十	-11.2317
國師	-11.2317
一義	-11.2318
下尺	-11.2318
內題云	-11.2319
唯識論	-11.2322
地婆訶羅	-11.2324
集會	-11.2325
到彼岸	-11.2326
剎土	-11.2328
如來所說	-11.2329
郭璞注云	-11.2333
四姓	-11.234
之報	-11.2341
七月	-11.2341
不淨觀	-11.2342
之閒	-11.2347
道地經	-11.2348
婆提	-11.2351
四分律云	-11.2353
葛反	-11.2355
凡人	-11.2356
巨迦反	-11.2357
太山	-11.2357
今我	-11.2357
名利	-11.237
反漢書	-11.2379
然其	-11.2382
非此用也	-11.2384
捩	-11.2385
離一切	-11.2386
反禮記	-11.239
苾	-11.239
羅什譯	-11.2391
倮	-11.2393
令生	-11.2393
者必	-11.2394
雹	-11.2396
上徒聊反	-11.2397
島	-11.2397
上苦浪反	-11.2397
上烏沒反	-11.2399
其頭	-11.2402
䇿	-11.2402
周礼	-11.2403
勳	-11.2404
妙智	-11.2405
琢	-11.2405
蝦蟇	-11.2405
母胎	-11.2406
乾闥婆	-11.2406
謟	-11.2408
出家學道	-11.2408
苐	-11.2409
􂗆	-11.2409
之初	-11.241
號為	-11.241
諸子	-11.2411
叩頭	-11.2411
宇宙	-11.2411
未詳何	-11.2414
百丈	-11.2416
中央	-11.2416
楊州	-11.2421
耆域	-11.2422
明鏡	-11.2422
種姓	-11.2423
慈恩	-11.2426
忠孝	-11.2427
杏	-11.2429
名色	-11.2431
與彼	-11.2433
希望	-11.2434
求那跋陀羅譯	-11.2435
史記云	-11.2438
於計反	-11.2438
七重	-11.2438
園林	-11.2438
三匝	-11.2439
一卷慧琳	-11.2441
古花反	-11.2441
過去世	-11.2445
八方	-11.2445
我常	-11.2448
大笑	-11.2453
三十紙	-11.2454
然燈佛	-11.2458
住此	-11.2459
自遂反	-11.2462
華香	-11.2466
放牛	-11.2467
但為	-11.2471
明旦	-11.2478
戒行	-11.2481
意在	-11.2482
深入	-11.2486
一部五卷	-11.2488
噏	-11.2489
蔗	-11.2489
纊	-11.2492
袋	-11.2493
榜	-11.2493
光明如來	-11.2493
翦	-11.2493
也從女	-11.2493
閡	-11.2494
二十八紙	-11.2495
序全反	-11.2496
智人	-11.2497
炷	-11.2498
窈	-11.25
掖	-11.25
不可稱計	-11.2501
十戒	-11.2501
鯨	-11.2502
從草	-11.2502
募	-11.2502
深山	-11.2503
右二部	-11.2505
艶	-11.2505
馮	-11.2505
諍訟	-11.2506
尒雅云	-11.2508
西域記	-11.2509
願得	-11.2509
葱	-11.251
沐浴	-11.251
得阿羅漢果	-11.2511
獲福	-11.2511
真源	-11.2514
雒陽	-11.2514
妙樂	-11.2517
後至	-11.2517
應如是	-11.2518
也聲類云	-11.2519
清信士	-11.2519
右手	-11.252
若論	-11.2521
大同小異	-11.2522
於禁反	-11.2522
善德	-11.2522
寶物	-11.2524
▁述意部	-11.2524
億劫	-11.2525
無病	-11.2526
真諦譯	-11.2531
離相	-11.2533
大雨	-11.2539
各說	-11.2541
太守	-11.2542
眾善	-11.2542
別教	-11.2546
相貌	-11.2547
將至	-11.2549
千古	-11.2552
五高反	-11.2554
生長	-11.2555
許鬼反	-11.2557
學問	-11.2557
道宣	-11.2558
推求	-11.2559
水精	-11.2566
依舊	-11.2567
五眼	-11.2567
既有	-11.2569
窗	-11.2578
出城	-11.2581
贅	-11.2581
遮反	-11.2582
生老病死	-11.2584
鞅	-11.2584
直下	-11.2587
𤍜	-11.2588
𩭈	-11.2589
犢	-11.2593
上市倫反	-11.2593
第二十一卷	-11.2593
蚤	-11.2594
癭	-11.2595
潦	-11.2595
湘	-11.2596
杼	-11.2596
棹	-11.2597
采	-11.2598
㝵	-11.2599
弦	-11.2599
詛	-11.2599
熬	-11.2599
捃	-11.2599
羡	-11.2602
下昌	-11.2605
長房錄	-11.2606
袪	-11.2608
阿耨	-11.261
歸家	-11.2613
優曇	-11.2621
家人	-11.2622
五識	-11.2624
有為法	-11.2625
十輪經	-11.2626
僧伽婆羅	-11.2626
徧照	-11.2627
入法界品	-11.2627
菩薩南無金剛	-11.2628
諸餘	-11.263
國內	-11.2632
也古文作	-11.2633
右西晉惠帝代	-11.2634
為喻	-11.2641
奈何	-11.2642
塵塵	-11.2644
經後記	-11.2646
同體	-11.2647
徒到反	-11.2648
精神	-11.265
正定	-11.2651
名義	-11.2665
轉舌	-11.2669
人物	-11.2669
從目	-11.2671
頭髮	-11.2677
中本起經	-11.2678
分也	-11.268
自在佛南無	-11.2681
受胎	-11.2682
難思	-11.2683
喑	-11.2687
謂由	-11.2689
紇	-11.269
簾	-11.2691
郭𤩶曰	-11.2692
匣	-11.2692
戢	-11.2693
塵沙	-11.2693
噍	-11.2693
顒	-11.2694
十億	-11.2696
音呂	-11.2697
僚	-11.2698
補特伽羅	-11.2698
潘	-11.2698
迥	-11.2699
柁	-11.27
詶	-11.27
觝	-11.2701
毀訾	-11.2702
遍照	-11.2704
惙	-11.2704
摭	-11.2706
六入	-11.2707
𦗟	-11.2708
治病	-11.2712
拂子	-11.2712
諂曲	-11.2712
受三歸	-11.2713
根性	-11.2713
三摩	-11.2715
孝武	-11.2715
能與	-11.2717
身分	-11.2718
數日	-11.272
西明寺沙門釋道世撰	-11.2721
轉女身	-11.2724
N	-11.2726
莊嚴佛南無	-11.2726
遮羅	-11.2726
傳一卷	-11.2726
非實	-11.2727
今言	-11.2727
玉華	-11.2731
斷滅	-11.2732
光讚	-11.2732
江東	-11.2733
也說文從糸	-11.2733
彌沙塞律	-11.2734
十千	-11.2735
湏彌	-11.2738
傷害	-11.274
敬重	-11.274
上莫官反	-11.2742
字書作	-11.2747
之數	-11.2747
癡人	-11.2749
二音非	-11.2751
先結反	-11.2752
善逝	-11.2753
要略	-11.2754
見寶唱錄	-11.2755
有兩	-11.2759
除去	-11.2765
▁攝大乘論	-11.2765
亦聲也	-11.2766
憂苦	-11.2768
見他	-11.2769
發言	-11.2769
除罪	-11.2769
一滴	-11.2771
周禮云	-11.2774
受福	-11.2777
初地	-11.278
伏藏	-11.2781
白馬	-11.2784
二卷右	-11.2784
利生	-11.2786
汝何	-11.2789
曬	-11.2789
札	-11.279
投身	-11.2791
藏識	-11.2793
翮	-11.2793
非經義也	-11.2793
分布	-11.2793
護身	-11.2794
棊	-11.2794
闥	-11.2795
咩	-11.2795
蠲	-11.2795
叟	-11.2796
諫反	-11.2796
憘	-11.2796
桴	-11.2797
變成	-11.2797
睇	-11.2797
賚	-11.2798
自已	-11.2798
貧女	-11.2798
臠	-11.2798
娉	-11.28
嚧	-11.28
苦報	-11.2801
浦	-11.2801
鬲	-11.2801
蠆	-11.2802
𢙢	-11.2803
風起	-11.2806
芸	-11.2809
泠	-11.2809
度量	-11.2814
淨業	-11.2814
三觀	-11.2814
智度論	-11.2816
女加反	-11.2818
優波提舍	-11.282
出宗鏡錄	-11.2824
陳天竺三藏真諦譯	-11.2827
竹園	-11.2833
觀佛三昧經	-11.2834
本國	-11.284
白法	-11.2843
僧肇	-11.2844
他歷反	-11.2845
南無寶	-11.2845
一闡提	-11.2847
二百六十	-11.2849
五百歲	-11.2856
內心	-11.2858
有五事	-11.2858
何等為十	-11.286
年四月	-11.286
禮懺	-11.2865
上田結反	-11.2868
高昌	-11.287
禪法	-11.287
口業	-11.2871
蒲北反	-11.2871
自在佛	-11.2875
華果	-11.2875
為宗	-11.2878
鐵丸	-11.288
山海經	-11.2883
為首	-11.2884
第十六	-11.2886
偈一卷	-11.2891
無諍	-11.2891
奴禮反	-11.2893
一紙餘	-11.2894
見藏作	-11.2895
􃅠	-11.2896
癲	-11.2898
晞	-11.2898
燔	-11.2899
牲	-11.2899
窣	-11.2899
痺	-11.2899
飤	-11.29
鑛	-11.2901
㩜	-11.2901
趍	-11.2901
盍	-11.2901
喘息	-11.2902
峨	-11.2902
眄	-11.2903
蜎飛	-11.2903
悟解	-11.2904
批	-11.2904
妄見	-11.2905
殫	-11.2905
騖	-11.2906
憧	-11.2906
凝然	-11.2906
苻	-11.2906
鴟	-11.2908
所持	-11.291
緊那羅	-11.2911
虛無	-11.2912
朿	-11.2913
朋友	-11.2913
出長阿含經	-11.2913
▁金剛頂瑜伽	-11.2915
過去世時	-11.2919
不見有	-11.292
堅牢	-11.2921
淨光	-11.2922
康僧會	-11.2922
深心	-11.2922
知草反	-11.2924
一箇	-11.2925
渺	-11.2925
功德莊嚴	-11.2926
得成佛	-11.2928
黃門	-11.2929
也韻英云	-11.2931
於世間	-11.2933
形骸	-11.2933
事業	-11.2934
兩卷	-11.2935
八十卷	-11.2939
還至	-11.2941
行施	-11.2942
欲使	-11.2944
之義也	-11.2944
工夫	-11.2945
不順	-11.2947
持禁戒	-11.2951
無能勝	-11.2956
便自	-11.2959
復何	-11.2961
萬八千	-11.2968
融通	-11.2969
裳	-11.2976
愚夫	-11.2976
一事	-11.2979
憂惱	-11.2982
阿難言	-11.2984
不容	-11.2984
句義	-11.2984
雷音	-11.2984
萬有	-11.2988
相連	-11.2988
菴羅	-11.2991
傳記	-11.2991
二十年	-11.2992
騷	-11.2994
寠	-11.2994
樹上	-11.2994
㩲	-11.2995
㱕	-11.2996
砧	-11.2999
鞔	-11.3
助㽵反	-11.3002
黔	-11.3003
忤	-11.3003
略云	-11.3007
嘔	-11.3008
四十八	-11.3008
抆	-11.3009
馴	-11.3009
化導	-11.3009
氐	-11.301
羅睺	-11.301
淋	-11.301
棖	-11.3011
驀	-11.3013
胡古反	-11.3014
籥	-11.3014
卻	-11.3015
州刺史	-11.3016
極樂	-11.3016
欲見	-11.302
無生法忍	-11.302
右後秦	-11.3021
也說文從木	-11.3021
喚作	-11.3021
直里反	-11.3022
地水火風	-11.3022
贍部洲	-11.3022
居家	-11.3023
捕魚	-11.3023
羔	-11.3023
叫喚	-11.3023
下呼	-11.3023
一片	-11.3024
無遺	-11.3025
色聲香味觸	-11.3026
從人作	-11.3026
波羅提木叉	-11.3027
本緣	-11.3027
城郭	-11.3028
上二經十卷同帙	-11.3036
出家得道	-11.3041
之屬	-11.3041
血肉	-11.3042
仁王經云	-11.3043
十誦律云	-11.3043
先後	-11.3047
反梵言	-11.3048
集作	-11.3049
兩頭	-11.3049
▁虛空藏菩薩	-11.3049
颰陀	-11.305
孝順	-11.3056
從疒	-11.3059
將去	-11.3059
一百八	-11.3059
出沒	-11.3059
徧計	-11.3062
二十三紙	-11.3064
也集訓云	-11.3066
善現白佛	-11.3068
一毛	-11.3069
二俱	-11.307
會得	-11.3073
也釋名	-11.3073
。】「	-11.3074
利他	-11.3075
南齊	-11.3075
到此	-11.3078
孟子	-11.3082
藥叉	-11.3084
坐具	-11.3091
得清淨	-11.3092
非色	-11.3101
凸	-11.3105
葵	-11.3106
狙	-11.3108
譖	-11.3108
䩭	-11.3108
謇	-11.3108
染污	-11.3108
蛟	-11.3108
𠲿	-11.3108
瘤	-11.3109
藿	-11.3109
凋	-11.311
氈	-11.3111
苛	-11.3112
跢	-11.3113
煜	-11.3113
繖	-11.3113
蝗	-11.3113
敬心	-11.3113
闐	-11.3114
繚	-11.3116
欵	-11.3116
瓦礫	-11.3117
溈山	-11.3118
音武	-11.3121
淤泥	-11.3122
邕	-11.3123
徒果反	-11.3128
勝處	-11.3128
婆伽婆	-11.313
第一義諦	-11.3131
寶莊嚴	-11.3132
上古患反	-11.3133
豁然	-11.3135
非本字	-11.3137
妄念	-11.3139
真淨	-11.314
也從貝	-11.3144
郎果反	-11.3147
一由旬	-11.3149
亦不能	-11.315
上烏古反	-11.3151
二音非也	-11.3152
四衢	-11.3155
又智度論云	-11.3159
誦持	-11.3162
𠮧	-11.3162
宿緣	-11.3163
虛空界	-11.3168
泥洹經	-11.3174
頓悟	-11.318
天雨	-11.3181
未悟	-11.3185
世間出世間	-11.3192
百二十	-11.3192
也經音義作	-11.3193
上丁𠔃反	-11.3194
能壞	-11.3196
深廣	-11.3197
好惡	-11.3201
識處	-11.3202
皆當	-11.3205
也毛詩傳曰	-11.3205
距	-11.3208
融融	-11.3209
開解	-11.3211
本際	-11.3211
揌	-11.3213
徒盍反	-11.3214
笁	-11.3215
肋	-11.3216
漲	-11.3216
諸佛世尊如來菩薩尊者名稱歌曲卷第	-11.3218
嗤	-11.3218
簿	-11.3218
控	-11.3219
本尊	-11.3219
尫	-11.3219
皤	-11.322
食噉	-11.322
謗佛	-11.322
白虎通云	-11.3221
窒	-11.3222
夜半	-11.3223
吮	-11.3223
知解	-11.3224
驪	-11.3225
缶	-11.3225
所覆	-11.3225
此卷	-11.3229
釋慧	-11.3232
僧伽梨	-11.3233
樹提	-11.3234
於長安	-11.3235
堂堂	-11.3237
師子奮迅	-11.3237
如海	-11.3239
宗門	-11.3241
娑婆世界	-11.3242
菩薩南無普	-11.3242
不荅	-11.3242
鹿王	-11.3242
今依	-11.3246
大千世界	-11.3246
還生	-11.3246
道樹	-11.3248
勿令	-11.3248
尸棄	-11.3249
出法界次第	-11.325
四月八日	-11.3251
察也	-11.3255
一十五卷	-11.3258
於東都	-11.3264
上斯此反	-11.3265
品第十八	-11.3266
文章	-11.3268
後學	-11.3269
摩訶迦葉	-11.3273
蠱道	-11.3273
丘迦反	-11.3274
南無一切	-11.3276
他國	-11.3276
庶反	-11.3276
伏惟	-11.3277
有幾	-11.3281
上芳梵反	-11.3282
此兒	-11.3285
郁伽	-11.3286
五明	-11.3286
西秦	-11.3289
闍那崛多	-11.3289
形似	-11.3291
諸部	-11.3291
念佛三昧	-11.3293
東海	-11.3295
弘法	-11.3296
地持	-11.3297
文字集略	-11.3301
反左傳	-11.3303
頻婆	-11.3305
棄之	-11.3307
諦聽	-11.331
􄓩	-11.3314
􃙆	-11.3315
𤌢	-11.3316
癖	-11.3317
僑	-11.3317
莫𠋫反	-11.3317
賦云	-11.3317
不好	-11.3318
蘿	-11.3318
喃	-11.3319
不知其	-11.332
嗚	-11.3321
綬	-11.3321
机	-11.3321
梁言	-11.3321
持五戒	-11.3322
但見	-11.3323
能詮	-11.3323
麾	-11.3323
摩訶般若	-11.3323
嬌	-11.3324
媒	-11.3325
麤獷	-11.3325
邀	-11.3326
謦欬	-11.3326
廿	-11.3326
佛乘	-11.3327
腎	-11.3327
令諸眾生	-11.3328
摩納	-11.3328
髑髏	-11.3328
抃	-11.3329
佛在世時	-11.3329
錘	-11.3329
垠	-11.333
鑊湯	-11.3331
面目	-11.3332
逕	-11.3335
火焰	-11.3336
必得	-11.3336
戌	-11.3337
穎	-11.3337
簇	-11.3338
仁義	-11.334
也左傳	-11.3342
譬如有人	-11.3343
錫杖	-11.3346
庶幾	-11.3346
楗	-11.3346
住家者	-11.3349
聦	-11.335
低頭	-11.335
司馬	-11.335
墮惡道	-11.3352
宋居士沮渠京聲譯	-11.3353
寒熱	-11.3353
勤精進	-11.3358
胡反下	-11.3358
入宮	-11.3364
知列反	-11.3367
衣裳	-11.337
天真	-11.337
見房錄	-11.337
專精	-11.337
反經文作	-11.3371
諦觀	-11.3377
不改	-11.3377
皆依	-11.3379
今俗	-11.3392
經中作	-11.3398
修持	-11.34
無足	-11.34
聲也或作	-11.3401
三形也	-11.3407
金剛藏	-11.3408
第一百	-11.341
何異	-11.3417
女子	-11.3419
也賈注國語云	-11.342
未足	-11.3425
稈	-11.3427
寶月	-11.3427
黑白	-11.3428
罄	-11.3429
挻	-11.3429
驃	-11.3429
羗	-11.3431
珮	-11.3431
輭	-11.3432
飴	-11.3432
瓌	-11.3433
樊	-11.3433
壍	-11.3433
餐	-11.3434
帷	-11.3434
腥	-11.3435
身壞命終	-11.3436
時婆羅門	-11.3436
寶光明	-11.3436
旒	-11.3437
憍陳如	-11.3438
釆	-11.3438
猝	-11.3438
塘	-11.3438
掊	-11.3438
褰	-11.3439
𦒿	-11.3439
者名為	-11.3439
棚	-11.3439
二反非也	-11.3439
扁	-11.3442
烏雅反	-11.3442
蛾	-11.3443
轟	-11.3445
邇	-11.3446
月十六日	-11.3448
者謬也	-11.3449
受持讀誦	-11.3451
禎	-11.3452
依正	-11.3453
底迦	-11.3454
薩埵	-11.3455
長房錄云	-11.3455
阿鋡	-11.3459
從足作	-11.346
1	-11.3462
尋求	-11.3462
彌勒菩薩說沙門玄奘奉詔譯	-11.3463
之末	-11.3464
彌勒下生	-11.3472
金剛般若經	-11.3475
歷劫	-11.3477
尊卑	-11.3479
諸法實相	-11.348
音厄	-11.3482
悉曇	-11.3485
楞伽經云	-11.3489
胎生	-11.349
坐臥	-11.3491
也從草	-11.3492
悟入	-11.3496
獲益	-11.35
曇無讖	-11.3501
右三經	-11.3502
牛羊	-11.3503
替之	-11.3504
慈愍	-11.3504
而不知	-11.3505
比量	-11.3506
乃知	-11.351
出第六卷	-11.351
寶星經作	-11.3515
誦念	-11.3522
巨廉反	-11.3522
平地	-11.3525
意如來南無	-11.3529
宋齊	-11.353
諸女	-11.3531
斯此反	-11.3532
都迴反	-11.3533
街反	-11.3535
山僧	-11.3535
隧	-11.3539
裙	-11.354
菽	-11.3542
芋	-11.3542
欒	-11.3542
懵	-11.3544
小乘經	-11.3544
恍	-11.3547
往到	-11.3547
非字義	-11.3547
㮈	-11.3547
鄣	-11.3549
榆	-11.3549
甲冑	-11.355
妙慧	-11.3551
德佛南無	-11.3551
積集	-11.3551
溜	-11.3553
法賢	-11.3553
驛	-11.3553
圍遶	-11.3555
丕	-11.3555
一點	-11.3556
黃檗	-11.3556
老死	-11.3556
禍福	-11.3558
華佛南無	-11.3559
徒官反	-11.356
大梵天王	-11.356
觧	-11.356
心源	-11.3561
干反	-11.3566
貢高	-11.357
三界者欲界色界無色界也	-11.357
伽耶	-11.3571
興善寺譯	-11.3572
今附涼錄	-11.3572
風輪	-11.3575
從他	-11.3577
不祥	-11.3577
也從禾	-11.3578
聖果	-11.3578
掌中	-11.358
第三出	-11.358
淨信	-11.3583
頭頭	-11.3584
救濟	-11.3591
妄生	-11.3593
佛言善男子	-11.3594
道塲	-11.3597
文理	-11.3604
浮陀	-11.3604
花開	-11.3621
單譯	-11.3624
孔注尚書云	-11.3626
音豆	-11.3627
物物	-11.3629
七羊反	-11.3631
第十七卷	-11.3634
上子告反	-11.3636
步步	-11.3636
關西	-11.3637
脩羅	-11.3638
音昨	-11.364
不盜	-11.3641
地動	-11.3644
能令眾生	-11.3644
薩羅	-11.3645
扸	-11.3649
庖	-11.3649
些	-11.365
跣	-11.365
淮	-11.3651
筒	-11.3651
命過	-11.3651
撟	-11.3651
甖	-11.3653
偈頌	-11.3653
啁	-11.3654
扆	-11.3654
憺怕	-11.3654
鵂鶹	-11.3654
襞	-11.3654
難解	-11.3655
鸖	-11.3655
三百六十	-11.3656
躊躇	-11.3657
憺	-11.3657
濟度	-11.3657
臧	-11.3659
熈	-11.3659
司馬彪	-11.3663
稱佛南無	-11.3663
纖毫	-11.3663
構	-11.3665
字統云	-11.3665
又烏	-11.3666
一萬	-11.3666
裕	-11.3667
開發	-11.3667
四品	-11.3667
不能行	-11.3673
慧命	-11.3673
醜陋	-11.3674
賓主	-11.3677
古眼反	-11.3678
佛圖	-11.368
三十八	-11.368
符秦	-11.3683
今附秦錄	-11.3684
善惡業	-11.3684
貞元圓覺梵釋	-11.3684
大功德	-11.3687
礼記	-11.3687
覺性	-11.3689
上古瓦反	-11.3694
濕生	-11.3697
左傳云	-11.3703
占反	-11.3703
覆藏	-11.3705
宣揚	-11.3707
少異	-11.3707
一切世界	-11.3711
古內反	-11.3711
無所有處	-11.3712
安得	-11.3714
不輕	-11.3724
頗有	-11.3726
俗諦	-11.3727
六祖	-11.3732
永離	-11.3732
不得自在	-11.3734
命根	-11.3736
圓光	-11.3738
檀那	-11.3742
發善願	-11.3744
小劫	-11.3744
那時節	-11.3744
退轉	-11.3744
或因	-11.3747
直須是	-11.3749
無礙智	-11.3751
經偈云	-11.3752
閫	-11.3753
醋	-11.3753
不得食	-11.3753
出華嚴經	-11.3757
楚辭云	-11.3758
蓏	-11.3759
剉	-11.376
上古詣反	-11.376
嚬	-11.3761
矝	-11.3761
篅	-11.3761
楊都	-11.3761
礭	-11.3762
珪	-11.3762
繪	-11.3763
妷	-11.3764
鍜	-11.3765
饋	-11.3765
教令	-11.3765
呾	-11.3766
舀	-11.3766
唐三藏玄奘譯	-11.3766
云何得	-11.3767
軄	-11.3767
湩	-11.3768
罵詈	-11.3769
閹	-11.377
吾當	-11.377
尋常	-11.377
縻	-11.3772
猨	-11.3773
霽	-11.3774
揀擇	-11.3777
恍惚	-11.3777
歌舞	-11.3778
瞻仰	-11.3779
悌	-11.3779
遑	-11.378
甥	-11.3781
大海中	-11.3782
鶯	-11.3782
所害	-11.3786
挌反	-11.3787
耳目	-11.3787
得失	-11.3789
根本說一切有部	-11.3791
循環	-11.3792
天親菩薩造	-11.3795
▁大法炬陀羅尼經	-11.3796
於大慈恩寺翻經院譯	-11.3796
續高僧傳	-11.3796
三昧耶	-11.3799
惡知識	-11.3802
得涅槃	-11.3803
二十七卷	-11.3812
阿耨菩提	-11.3813
一百八名	-11.3815
法律	-11.3815
綴文	-11.3817
知諸法	-11.3817
維摩經	-11.3819
音盖	-11.3819
徃反	-11.3821
玄妙	-11.3823
摩騰	-11.3823
般若波羅密多	-11.3824
卷第九	-11.3825
大石	-11.3826
山名也	-11.3826
出十誦律	-11.3831
步沒反	-11.3834
積善	-11.3836
八正道	-11.3839
肖	-11.3845
隨處	-11.3845
法護譯	-11.3849
修鍊	-11.3851
欲取	-11.3854
徒活反	-11.3855
慧日	-11.3856
施食	-11.3864
西域人	-11.3865
慧菩薩南無	-11.3867
力𦰧反	-11.3867
反毛詩云	-11.3871
驟	-11.3873
功能	-11.3874
碩	-11.3876
上許衣反	-11.3876
粘	-11.3878
蝸	-11.3878
罪畢	-11.3879
奕	-11.3879
鍱	-11.388
闡提	-11.388
蒭	-11.388
唯有一	-11.388
湊	-11.3881
囿	-11.3881
㑥	-11.3881
上戶高反	-11.3882
自在王佛	-11.3882
飢饉	-11.3883
課	-11.3883
䂎	-11.3883
劬	-11.3886
厂	-11.3886
鬚髮	-11.3887
買反	-11.3889
駢	-11.389
合道	-11.389
藕	-11.3891
一棒	-11.3892
目犍連	-11.3893
翩	-11.3893
鄭箋詩云	-11.3894
塵埃	-11.3895
說偈云	-11.3896
右脇	-11.39
不勞	-11.39
曇無德	-11.3903
擾亂	-11.3906
上蒲末反	-11.3909
僧祐錄云安公古典經	-11.391
曹魏	-11.3912
曉了	-11.3916
白馬寺	-11.3917
土地	-11.3921
菩薩南無寶	-11.3922
心真言	-11.3925
普現	-11.3926
婆沙論	-11.3927
心印	-11.3927
爾乃	-11.3929
皆訛也	-11.3929
入藏錄	-11.3931
箇中	-11.3933
疏十卷	-11.3934
限量	-11.3934
亦通也	-11.3937
開元釋教錄	-11.3938
品第二十	-11.3939
寶網	-11.3939
玄門	-11.3945
魔事	-11.3945
二百七十	-11.3947
見祐錄	-11.3948
牛馬	-11.3948
則成	-11.3948
言詮	-11.3949
後漢安世高譯	-11.3952
論文從	-11.3952
羅網	-11.3954
呼𠔃反	-11.3955
序一卷	-11.3957
我我所	-11.3959
出家之人	-11.3959
從廾	-11.3962
巨久反	-11.3963
舍羅	-11.3969
韻略	-11.397
妙旨	-11.3973
金輪王	-11.3976
日藏	-11.3978
也杜注左傳	-11.3978
悉令	-11.3979
可食	-11.398
由延	-11.3984
漢書音義曰	-11.3984
利益眾生	-11.3984
怳	-11.3985
何必	-11.3985
騁	-11.3986
咥	-11.3987
南天竺	-11.3989
擭	-11.3991
合為一	-11.3992
捋	-11.3992
橜	-11.3993
反釋名云	-11.3996
僧眾	-11.3996
賃	-11.3996
阮	-11.3997
孔安注書曰	-11.3998
會意字	-11.3998
齗	-11.3998
濛	-11.4
出三界	-11.4001
蟣	-11.4002
獺	-11.4002
樸	-11.4002
腕	-11.4002
不待	-11.4002
郗	-11.4003
上之然反	-11.4003
瑤	-11.4003
宵	-11.4004
涕泣	-11.4005
鷃	-11.4005
欺誑	-11.4006
沙門婆羅門	-11.4007
墮於	-11.4008
金山	-11.4008
聆	-11.401
尓雅曰	-11.401
波濤	-11.4011
一切種智	-11.4011
天地之	-11.4012
十由旬	-11.4013
如意珠	-11.4016
𥼶名云	-11.4016
聲經文作	-11.4016
蜜多	-11.4018
優婆塞五戒	-11.4022
僧伽提婆	-11.4022
靖邁	-11.4023
賢愚經	-11.4023
一毫	-11.4024
苦頰反	-11.4024
掉舉	-11.4024
後漢世安世高譯	-11.4024
見始興錄	-11.4027
好醜	-11.4027
致使	-11.4032
取物也	-11.4032
字體作	-11.4033
此鳥	-11.4035
機關	-11.404
得安隱	-11.4041
年七月	-11.4043
種種諸	-11.4043
肉眼	-11.4045
下芳	-11.4047
轉變	-11.4047
室中	-11.4048
邊際	-11.4052
正直	-11.406
郢	-11.4069
失入反	-11.4074
字苑	-11.4075
舍衛	-11.4082
眾生界	-11.4084
尚未	-11.4085
經中說	-11.4088
勤行	-11.4088
明白	-11.4092
奴定反	-11.4092
三百三十	-11.4092
得阿耨多羅三藐三菩提	-11.4096
從土作	-11.4098
生歡喜	-11.4101
犍度	-11.4104
挐	-11.4104
銛	-11.4105
𡗚	-11.4105
鄔	-11.4106
偈經一卷	-11.4107
洄	-11.4108
踝	-11.4108
紕	-11.4109
痾	-11.411
扼	-11.411
其去反	-11.4111
鉞	-11.4111
遍滿	-11.4111
陜	-11.4111
到佛所	-11.4113
讙	-11.4113
雚	-11.4116
豚	-11.4116
也毛詩傳云	-11.4117
綏	-11.4117
五蓋	-11.4118
危脆	-11.4118
自活	-11.4118
隤	-11.4118
敫	-11.4119
冖	-11.4119
戶圭反	-11.4119
萬年	-11.4122
濃	-11.4122
上力丁反	-11.4122
訛轉也	-11.4123
彡	-11.4123
一切眾生皆	-11.4123
受請	-11.4124
也說文從言	-11.4124
剃髮	-11.4125
宸	-11.4126
毘奈耶	-11.4126
林寺	-11.4127
獎	-11.4127
彼皮反	-11.4133
隨求	-11.4133
淮南子	-11.4134
見別錄	-11.4134
音弄	-11.4135
塔廟	-11.4135
陁羅尼	-11.4136
于求反	-11.4136
真箇是	-11.4137
西南方	-11.4138
二十五紙	-11.4138
後秦弘始年羅什譯	-11.4141
折伏	-11.4147
與上經同	-11.4154
徒合反	-11.4154
眾聖	-11.4155
何况	-11.4156
品第十九	-11.4157
四洲	-11.4159
藥草	-11.4161
記二卷	-11.4164
妙德	-11.4166
以杖	-11.4167
出華嚴經隨䟽演義鈔	-11.4167
是何人	-11.4171
進云	-11.4172
佛菩薩那	-11.4178
不獲	-11.418
各別	-11.4181
但能	-11.4191
隨類	-11.4198
第十七	-11.4198
諸趣	-11.4199
月輪	-11.4201
僧寶	-11.4204
是故我	-11.4204
反川音作	-11.4205
直中反	-11.4207
無邊際	-11.4208
閔	-11.421
見惑	-11.4211
能現	-11.4212
即遣	-11.4214
右佛說	-11.4222
哥	-11.4223
翕	-11.4225
塌	-11.4225
邵	-11.4226
哂	-11.4226
神光	-11.4227
禿	-11.4227
薜荔	-11.4228
老人	-11.4228
棓	-11.4228
饉	-11.4229
殼	-11.4229
也形聲字	-11.423
慣	-11.423
五告反	-11.423
扌	-11.4231
纜	-11.4231
詵	-11.4231
屎尿	-11.4233
儵	-11.4233
改為	-11.4233
睹	-11.4234
釧	-11.4234
涕唾	-11.4234
篾	-11.4236
威德佛南無	-11.4236
鐫	-11.4238
力進反	-11.4239
碌	-11.424
不空譯	-11.424
云愍反	-11.4242
慜	-11.4242
哀愍	-11.4243
雲集	-11.4245
樹枝	-11.4246
不爾	-11.4247
魚列反	-11.4247
往古	-11.4248
廂	-11.4249
附西晉錄	-11.4249
栴	-11.4251
翻經沙門慧琳撰	-11.4251
三紙餘	-11.4252
菩薩梵語具云菩提薩埵華言覺有情	-11.4257
講堂	-11.4258
見聶道真錄	-11.4258
神異	-11.4261
賢愚	-11.4264
悉得	-11.4265
公案	-11.4271
解了	-11.4273
於其中	-11.4273
無邊功德	-11.4278
無為法	-11.4279
自責	-11.428
雖未	-11.4285
宗師	-11.4287
徒南反	-11.4289
物外	-11.4293
徒朗反	-11.4295
今疑是	-11.4296
噉食	-11.43
可以為	-11.4303
或謂之	-11.4305
發意	-11.4312
一喝	-11.4315
三十一紙	-11.4315
受諸苦	-11.4315
濫反	-11.432
草名也	-11.4321
一鋪	-11.4323
不可量	-11.4325
大精進	-11.4332
阿育	-11.4332
喇	-11.4334
豬	-11.4335
羯羅	-11.4336
萬德	-11.4337
杭	-11.4338
仰山	-11.4339
以何為	-11.4339
古木反	-11.4339
更互	-11.4339
眉殞反	-11.434
豺	-11.4341
瘖	-11.4341
帽	-11.4341
塩	-11.4341
上於今反下烏雅反	-11.4342
啜	-11.4343
姥	-11.4343
鋤	-11.4344
善𢙣	-11.4345
瓮	-11.4345
蕳	-11.4345
私列反	-11.4346
祠祀	-11.4346
愕	-11.4346
逞	-11.4346
蜫	-11.4347
肚	-11.4347
僮	-11.4347
秏	-11.4349
觀一切法	-11.4349
羸瘦	-11.4349
逋	-11.4349
罩	-11.4351
羅雲	-11.4351
篦	-11.4351
矚	-11.4352
譚	-11.4352
催	-11.4352
慈雲	-11.4353
智惠	-11.4353
不差	-11.4354
胥	-11.4356
緯	-11.4356
乳哺	-11.4357
應須	-11.4358
音義云	-11.436
高僧	-11.436
市力反	-11.4361
璧	-11.4361
聶	-11.4362
覃	-11.4363
聲經文從	-11.4364
月氏	-11.4364
韻英云	-11.4366
闍維	-11.4366
囀	-11.4367
醫藥	-11.4367
發善願都只在至誠心如來諸佛	-11.4368
水月	-11.4369
佛如來佛菩薩	-11.437
忉利	-11.437
殑伽	-11.437
戲弄	-11.4371
二反悞	-11.4374
見大周錄	-11.4377
安公古典經	-11.4377
江東呼	-11.4377
附東晉錄	-11.4377
宋北印土沙門施護譯	-11.4378
百味	-11.4379
刀杖	-11.4379
天親	-11.4385
飲水	-11.4387
語默	-11.4387
真乘	-11.439
上芳文反下	-11.439
反玉篇曰	-11.439
三歸五戒	-11.4394
上必遙反	-11.4395
攝心	-11.4396
流沙	-11.4396
苦諦	-11.4396
雜染	-11.4397
正字	-11.4399
竟不	-11.4401
也形聲字也	-11.4403
見法上錄	-11.4403
獲大	-11.4409
也孔注尚書云	-11.441
婬欲	-11.4415
也從刀	-11.4415
者謂之	-11.4415
機緣	-11.4421
妙法蓮華經	-11.4421
種善根	-11.4422
戲笑	-11.4423
阿夷	-11.4427
微密	-11.4429
趣向	-11.4431
雜事	-11.4431
彼土	-11.4431
大將軍	-11.4434
幢菩薩南無	-11.4435
也下正作	-11.4436
門戶	-11.4438
多種	-11.444
三十四紙	-11.4442
活命	-11.4443
諸大德	-11.4448
舍利弗問	-11.4449
佛南無妙	-11.4451
無所見	-11.4457
傳文從	-11.446
甸	-11.4462
鵂	-11.4463
精誠	-11.4465
􃜤	-11.4466
濬	-11.4467
櫨	-11.4467
钁	-11.4468
渥	-11.4468
梳	-11.4468
未到	-11.4469
拉	-11.4469
髖	-11.4469
畋	-11.4472
恧	-11.4472
靴	-11.4472
十三年	-11.4472
覔	-11.4473
竺佛念	-11.4474
帆	-11.4474
音魯	-11.4478
道行經	-11.448
呌	-11.4481
勝如來南無	-11.4484
威德佛	-11.4485
二合引	-11.4485
渭	-11.4486
摩登伽	-11.4488
增上慢	-11.449
阿耨達	-11.4497
勝鬘經	-11.4498
狐疑	-11.45
氣力	-11.4501
佛南無勝	-11.4505
燈王	-11.4511
昱	-11.4511
於洛陽	-11.4513
照曜	-11.4514
會同本異譯	-11.4515
華鬘	-11.4515
五百比丘	-11.4517
取著	-11.4519
遺教經	-11.452
下洛	-11.452
微笑	-11.4523
二十七紙	-11.453
往往	-11.453
正使	-11.4532
正是那	-11.4534
許記反	-11.4534
三十九	-11.4543
策子	-11.4548
抄出	-11.455
閑居	-11.4551
彌勒佛	-11.4553
第二十四卷	-11.4561
以智慧	-11.4567
埤	-11.4567
溈	-11.4578
造塔	-11.4579
癢	-11.4582
鎗	-11.4582
痰	-11.4584
上古內反下女㒵反	-11.4585
跽	-11.4586
金像	-11.4586
清虛	-11.4586
摑	-11.4586
孔安國曰	-11.4587
榛	-11.4587
懣	-11.4588
罐	-11.4589
劫初	-11.459
嗇	-11.4591
喘	-11.4591
聒	-11.4591
槌	-11.4591
罣礙	-11.4593
上居例反	-11.4593
諳	-11.4593
瘻	-11.4593
岱	-11.4594
撾打	-11.4596
琮	-11.4596
収	-11.4596
字函第一卷	-11.4598
橙	-11.4599
川兖反	-11.46
所從來	-11.46
擬議	-11.4602
優劣	-11.4604
阿鼻地獄	-11.4604
音愽	-11.4605
嘿	-11.4606
鳩摩羅	-11.4607
音麵	-11.4608
大般若經	-11.4609
棒喝	-11.4609
宋元嘉	-11.461
養育	-11.4611
善住意天子	-11.4615
白㲲	-11.4615
懽喜	-11.4615
蒲沒反	-11.4617
宋世	-11.4618
許謁反	-11.4623
栴檀香	-11.4623
方便善巧	-11.4627
徧一切處	-11.4627
古活反	-11.4628
二形又音	-11.4628
讚揚	-11.4631
無所不	-11.4635
起滅	-11.4635
最尊	-11.4635
乃往過去	-11.4636
行草反	-11.4639
國界	-11.4642
品第二十三	-11.4644
乞兒	-11.4645
舉足	-11.4648
釋迦如來	-11.465
是故說	-11.4652
品第二十一	-11.466
普曜經	-11.4662
傳文	-11.4664
太元	-11.4664
惡友	-11.4669
五十五	-11.467
寂寂	-11.467
救度	-11.4671
弘誓	-11.4672
反尚書	-11.4674
大集經云	-11.4679
也從衣	-11.4679
千二百五十	-11.468
首座	-11.4695
毱	-11.4695
莫鉢反	-11.4697
蜚	-11.4699
不妨	-11.47
輅	-11.4702
也非用	-11.4702
以此為	-11.4703
痒	-11.4706
杪	-11.4707
𢿘	-11.4709
噦	-11.4712
曄	-11.4712
堵	-11.4712
上羊廉反	-11.4712
成辦	-11.4714
法服	-11.4715
螽	-11.4715
穫	-11.4715
藏佛南無	-11.4715
莭	-11.4716
泫	-11.4717
蒼生	-11.4717
拄	-11.4717
臬	-11.4717
年六月	-11.4718
臗	-11.4718
薤	-11.4719
凹	-11.4719
胝	-11.472
罽	-11.472
犯罪	-11.472
殹	-11.4721
天結反	-11.4721
王位	-11.4723
經一部三卷	-11.4724
樹林	-11.4724
禪門	-11.473
剎帝利	-11.473
知格反	-11.4735
惣名	-11.4738
頂生王	-11.4742
雜藏	-11.4742
現量	-11.4742
舊錄所載	-11.4743
音拳	-11.4744
舍利弗言	-11.4744
四帙	-11.4746
得人身	-11.4746
鹿苑	-11.4747
師子國	-11.4749
大神通	-11.4749
自守	-11.475
鹿野	-11.4752
毀壞	-11.4757
也埤蒼云	-11.4759
第二十三卷	-11.4762
龍樹菩薩	-11.4762
應現	-11.4766
六十四	-11.4769
也鄭注禮記	-11.477
今疑	-11.477
火坑	-11.4771
河南	-11.4773
三藏義淨	-11.4777
命盡	-11.4778
出瑜伽師地論	-11.4784
紫金	-11.4786
隨煩惱	-11.4788
一十八卷	-11.4793
子宋反	-11.4795
業力	-11.4796
有司	-11.48
思惑	-11.4807
城邑	-11.481
形容	-11.481
廣博	-11.4812
頭痛	-11.4813
應和尚	-11.4816
笈	-11.4816
境智	-11.4817
塲	-11.482
▁攝大乘論釋	-11.4822
之狀	-11.4827
啾	-11.4829
遠來	-11.483
豉	-11.483
𧑮動	-11.483
𥥛	-11.4832
𢭀	-11.4833
大智度論云	-11.4833
燾	-11.4834
繳	-11.4836
鞍	-11.4836
夸	-11.4836
皴	-11.4837
朅	-11.4837
上居影反	-11.4837
𦬔	-11.4837
上之林反	-11.4838
笥	-11.4838
𡙸	-11.4839
掇	-11.4839
述意	-11.484
瀉	-11.4841
錍	-11.4844
頹	-11.4844
罵辱	-11.4845
大丈夫	-11.4845
往還	-11.4845
戒德	-11.4845
犮	-11.4846
釐	-11.4849
喿	-11.4849
於佛法中	-11.485
悠悠	-11.4851
瓶沙王	-11.4851
色受想行識	-11.4851
翊	-11.4851
命終之後	-11.4852
黽	-11.4852
經中或作	-11.4853
薄伽梵	-11.4853
諸佛世尊如來菩薩尊者神僧名經卷第	-11.4854
兩邊	-11.4855
上徒兼反	-11.4858
浩浩	-11.4858
頂戴	-11.4859
糞穢	-11.4863
形貌	-11.4864
大明三藏法數	-11.4865
第十八卷	-11.4866
西晉月支國沙門竺法護譯	-11.4868
佛境界	-11.487
二十卷二帙	-11.487
箋云	-11.4871
善巧方便	-11.4871
聖教序	-11.4871
出法苑珠林	-11.4872
何等為四	-11.4874
四十二章經	-11.4875
上於綺反	-11.4882
烏貢反	-11.4883
第五譯	-11.4884
珍重	-11.4889
盛滿	-11.489
出者同本	-11.4895
齋法	-11.4897
從容	-11.4899
水草	-11.4899
徧十方	-11.49
賢劫經	-11.49
月一日	-11.4903
堪為	-11.4903
粉反	-11.4905
童真	-11.4912
戈反	-11.4919
十一年	-11.4922
疏記	-11.4925
手捉	-11.4926
錠	-11.4926
大般涅槃經	-11.4927
優婆塞戒	-11.4929
大毘盧遮那	-11.493
千七百	-11.4933
義足經	-11.4934
於佛前	-11.4935
訊	-11.4943
睺	-11.4947
阿吒	-11.495
只在	-11.4951
璫	-11.4952
廻反	-11.4956
瓢	-11.4958
讁	-11.4959
刎	-11.4959
熅	-11.4959
慄	-11.496
二十六紙	-11.496
一十一卷	-11.496
𩚅	-11.4961
洟唾	-11.4962
栝	-11.4962
陞	-11.4963
轝	-11.4963
鑱	-11.4964
佛陀耶舍	-11.4964
鵶	-11.4965
白虎通曰	-11.4965
蛙	-11.4965
昊	-11.4965
佗	-11.4966
𦒱	-11.4966
泓	-11.4966
綽	-11.4967
霏	-11.4967
韈	-11.4968
醎	-11.4969
𠂕	-11.4969
桎梏	-11.4971
玄機	-11.4974
字函第三卷	-11.4974
汩	-11.4974
浙	-11.4975
奢摩他	-11.4975
十二因緣經	-11.4976
東西南北	-11.4976
世界如來南無	-11.4977
護念	-11.4981
五百弟子	-11.4982
徤	-11.4982
躋	-11.4982
波羅夷	-11.4983
苾蒭	-11.4986
請師	-11.4986
寒暑	-11.4986
第十五卷	-11.4988
不增不減	-11.4988
阿毘曇心	-11.499
莫官反	-11.4994
重翻闕本	-11.4995
閱藏知津卷第	-11.4995
遠公	-11.4996
古夘反	-11.5
參差	-11.5002
前秦	-11.5003
含藏	-11.5006
須陀	-11.501
受想	-11.5012
從宀	-11.5015
乗	-11.5016
從彳	-11.5019
一十五紙	-11.5026
造業	-11.5029
大小便	-11.5029
顯慶	-11.503
弊惡	-11.5035
下余	-11.5038
十八界	-11.5042
古口反	-11.5048
也止也	-11.5048
呼告反	-11.5051
也從竹	-11.5051
留支	-11.5055
五十三	-11.5056
一百卷	-11.5057
巨右反	-11.5058
賴吒	-11.506
費長房	-11.5061
非此呼	-11.5064
年代	-11.5068
於楊都	-11.508
反文字集略云	-11.508
埃	-11.5083
紵	-11.5083
瑰	-11.5084
揑	-11.5089
輞	-11.509
苔	-11.509
㘁	-11.5091
開敷	-11.5091
濩	-11.5092
眵	-11.5092
反前有部律第	-11.5092
上巨支反	-11.5093
惓	-11.5093
𦫿	-11.5093
蹔	-11.5094
癬	-11.5094
篲	-11.5094
灘	-11.5094
撝	-11.5095
芟	-11.5096
芮	-11.5096
圈	-11.5097
從肉從	-11.5098
皆歸	-11.5098
朵	-11.5099
菌	-11.5099
優波笈多	-11.5099
比丘比丘尼	-11.5101
鳥名也	-11.5102
鈔云	-11.5102
渟	-11.5103
洛禾反	-11.5104
蟾	-11.5105
謂修菩薩行者	-11.5105
虎狼	-11.5106
夢幻	-11.5113
摩尼珠	-11.5116
薩婆	-11.5116
之領反	-11.5117
五趣	-11.512
支敏度	-11.5122
仁王護國	-11.5123
無著菩薩造	-11.5123
新編入藏	-11.5124
寺立塔	-11.5124
煩𢙉	-11.5125
月如來南無	-11.5126
之涉反	-11.5126
并序	-11.5127
阿闍世	-11.5127
垢穢	-11.5129
纏縛	-11.5132
己身	-11.5134
作佛形像	-11.5135
瞋恨	-11.5137
歡樂	-11.5142
品第二十四	-11.5145
覺海	-11.5145
扶福反	-11.5153
阿彌陀經	-11.5155
二百四十	-11.5155
湛寂	-11.5163
不可盡	-11.5166
目佉	-11.5169
教化眾生	-11.5169
千四百	-11.5171
以繩	-11.5173
攝大乘論	-11.5173
二十餘	-11.5174
吾今	-11.5174
發露	-11.5179
會麼	-11.5179
作麼	-11.5179
婆羅門子	-11.5179
右隋開皇	-11.518
火宅	-11.518
洞然	-11.5181
設教	-11.5182
或十四卷	-11.5188
此呪	-11.5189
專心	-11.5194
繽紛	-11.5195
▁增壹阿含經	-11.5202
反鄭注禮記	-11.5202
苦本反	-11.5208
臾	-11.5212
二十八卷	-11.5213
霖	-11.5214
也韻英	-11.5214
簞	-11.5215
篡	-11.5216
慌	-11.5217
譁	-11.5219
荻	-11.5219
黶	-11.522
沙門惠	-11.522
女㒵反	-11.522
出曜經	-11.522
𠚫	-11.5221
囓	-11.5222
巨𨒫反	-11.5222
潢	-11.5222
滕	-11.5223
瞚	-11.5223
鈇	-11.5224
罟	-11.5224
并列反	-11.5225
貍	-11.5225
耘	-11.5226
蝨	-11.5226
廩	-11.5226
搩	-11.5226
茸	-11.5227
三祇	-11.5228
䧟	-11.5228
我今當	-11.5229
椿	-11.5229
𥼶名	-11.523
痆斯	-11.5231
倐	-11.5231
也從虫	-11.5232
謳	-11.5234
𣲖	-11.5237
兩足	-11.5237
應機	-11.5237
婆須蜜	-11.524
他的反	-11.524
求福	-11.524
宛轉	-11.5241
當知是人	-11.5241
蒨	-11.5242
無所著	-11.5243
何者為	-11.5244
捷疾	-11.5245
阿須倫	-11.5246
牢獄	-11.5246
諸法皆	-11.5247
)。」【	-11.5247
興起行經	-11.5249
無為之	-11.5249
出天台四教儀集註	-11.5249
長者家	-11.5249
馨香	-11.525
東南方	-11.5251
憎愛	-11.5253
梵漢兩字	-11.5253
孤獨	-11.5254
尸遮反	-11.5255
出現於世	-11.5255
普門品	-11.5256
毗盧	-11.5257
支謙譯	-11.5257
讀經	-11.5258
禪要	-11.526
師子座	-11.526
昨日	-11.526
伏願	-11.5261
眼目	-11.5262
波浪	-11.5263
門庭	-11.5266
賈人	-11.5269
諸善根	-11.5271
南泉	-11.5272
天冠	-11.5278
如鏡	-11.5279
文字集略云	-11.5283
品第二十二	-11.5283
攴	-11.5286
南無普	-11.5287
從𨸏	-11.5288
無一法	-11.5296
古孝反	-11.5302
遞相	-11.5302
爾疋	-11.5307
苦老反	-11.5307
無所依	-11.5308
幢如來	-11.5308
嗔恚	-11.5309
儀式	-11.5317
共住	-11.5318
誰道是	-11.5322
反爾雅曰	-11.5325
錢財	-11.5328
闍那崛多譯	-11.5328
轄	-11.5338
真言一卷	-11.534
音牟	-11.5341
經一卷玄應	-11.5342
為人所	-11.5342
絢	-11.5344
車馬	-11.5346
蜎	-11.5346
臛	-11.5348
出六度集	-11.5349
耦	-11.5351
劑	-11.5352
撚	-11.5352
口液也	-11.5352
瞼	-11.5353
扉	-11.5353
侘	-11.5353
而陝反	-11.5353
𨳰	-11.5354
鴉	-11.5354
羖	-11.5354
𦙁	-11.5354
姜	-11.5354
搭	-11.5355
垓	-11.5355
入室	-11.5355
椒	-11.5355
耒	-11.5356
屨	-11.5356
鷂	-11.5356
結界	-11.5357
栁	-11.5357
鎣	-11.5357
辮	-11.5358
媵	-11.5358
牓	-11.5358
隕	-11.5358
炫	-11.5358
裘	-11.5359
羆	-11.5359
囂	-11.5359
箄	-11.5359
狗子	-11.5359
蝡	-11.536
繢	-11.536
盻	-11.5361
僥倖	-11.5361
瀝	-11.5361
今不取	-11.5362
昔佛在世時	-11.5363
燈如來南無	-11.5364
乹	-11.5366
瀾	-11.5367
勅令	-11.5367
舡	-11.5367
深淺	-11.5367
俱禹反	-11.5369
𠇲	-11.537
琅	-11.5371
昨夜	-11.5371
▁雜譬喻經	-11.5371
豪貴	-11.5372
戶牖	-11.5374
料簡	-11.538
一切佛法	-11.538
毘沙門天王	-11.538
婆蹉	-11.5382
成唯識論	-11.5383
出楞嚴經	-11.5383
僧伽羅剎	-11.5384
三藏法師玄奘	-11.5384
呵責	-11.5385
攝取	-11.5387
龍樹菩薩造	-11.5389
南岳	-11.5396
次答	-11.5397
巨魚反	-11.5398
繫念	-11.5403
降雨	-11.5406
丘月反	-11.5407
老子云	-11.5408
獵者	-11.5408
決疑	-11.5411
釋迦佛	-11.5416
二同音	-11.542
相待	-11.542
顧視	-11.542
游行	-11.5427
重載	-11.5428
淨穢	-11.543
安詳	-11.5433
北天竺	-11.5436
長房	-11.5437
益州	-11.544
最妙	-11.5441
燒炙	-11.5442
慈氏菩薩	-11.5454
善不善	-11.5458
長阿含經云	-11.5461
第十八	-11.5463
戶內反	-11.5466
形體	-11.5472
從草作	-11.5473
尊佛南無	-11.5474
袤	-11.5474
九種	-11.5475
光明照	-11.5475
挨	-11.5478
菁	-11.548
右一經出	-11.5481
踟	-11.5482
釀	-11.5482
癈	-11.5483
忖	-11.5485
蚌	-11.5486
禮佛足	-11.5487
上莫交反	-11.5487
玄决反	-11.5487
𢪔	-11.5488
𧹞	-11.549
舫	-11.5491
筩	-11.5491
鏟	-11.5491
鉆	-11.5493
稜	-11.5493
閤	-11.5493
筠	-11.5493
顙	-11.5493
翟	-11.5494
辤	-11.5494
醇	-11.5495
葷	-11.5495
浹	-11.5497
臨命終時	-11.5497
蓊	-11.5498
正體字也	-11.55
阿差末經	-11.55
私云	-11.55
出大周錄	-11.55
邸	-11.5502
駄	-11.5502
舍那	-11.5502
諸經中	-11.5503
𥠖	-11.5509
沉淪	-11.5509
大勢至	-11.551
質多羅	-11.5513
跋渠	-11.5513
龜毛	-11.5514
兀的是	-11.5514
右後漢	-11.5517
于月反	-11.5518
大唐三藏沙門大廣智不空譯	-11.5518
僧祐錄云安公失譯經	-11.5518
修行道地經	-11.5518
元康	-11.552
嬈亂	-11.552
燈光	-11.5525
釋訖	-11.5526
上烏侯反	-11.5527
一般	-11.5527
不避	-11.5529
見吳錄	-11.5533
良藥	-11.5534
坦然	-11.5538
聲聞乘	-11.554
法非法	-11.554
公戶反	-11.5542
妙好	-11.5543
也從辵	-11.5545
復告	-11.5553
萬由旬	-11.5558
票	-11.5558
懷胎	-11.5561
亦無所	-11.5566
那提	-11.5567
非義也	-11.5568
行法一卷	-11.5574
大方等大集經	-11.5575
力之反	-11.5575
耶舍譯	-11.5579
一部七卷	-11.5592
必遙反	-11.5596
獨坐	-11.5596
也從馬	-11.5599
失譯人名	-11.5601
古胡反	-11.5608
躁動	-11.561
之謂也	-11.5615
坼	-11.5616
孑	-11.5617
佯	-11.5617
金剛界	-11.5617
瘢	-11.5618
妊	-11.5618
蘂	-11.5618
千聖	-11.5619
上竹花反	-11.562
妣	-11.5621
莧反	-11.5621
悋	-11.5621
灒	-11.5622
隈	-11.5623
韋昭	-11.5623
鈿	-11.5623
瞑	-11.5624
簟	-11.5624
瘶	-11.5624
字函第六卷	-11.5624
千載	-11.5626
侫	-11.5627
麝	-11.5629
曚	-11.5629
一旦	-11.5629
潺	-11.563
崘	-11.5631
上都南反	-11.5631
敻	-11.5632
㽵嚴	-11.5633
咆	-11.5634
誑惑	-11.5634
祇陀	-11.5635
毱多	-11.5636
商量	-11.5637
禪宗	-11.5638
滄海	-11.5638
沿	-11.5639
柱杖	-11.5639
今撿	-11.5642
蠲除	-11.5644
樹提伽	-11.5644
賖	-11.5644
欝多羅	-11.5647
無一物	-11.5647
從犬作	-11.5651
馬頭	-11.5651
畧	-11.5652
自在王菩薩	-11.5661
四維	-11.5664
心意識	-11.5666
品第二十六	-11.567
舍宅	-11.5672
勸化	-11.5673
拘樓	-11.5676
補闕	-11.5677
遊方	-11.57
大智度論	-11.5701
捨家	-11.5704
惱亂	-11.5709
閻羅	-11.5711
百官	-11.5712
菩薩南無無量	-11.5716
何故不	-11.572
上五結反	-11.5725
宋本	-11.5725
毀犯	-11.5725
六帙	-11.5726
上先擊反	-11.5729
龍象	-11.5731
進退	-11.5737
不懈	-11.5738
傳燈	-11.5743
餒	-11.5751
雜寶藏經	-11.5752
澓	-11.5753
奉施	-11.5754
兕	-11.5755
椑	-11.5756
江河	-11.5756
下力計反	-11.5756
莾	-11.5756
玃	-11.5757
膾	-11.5757
超過	-11.5758
俸	-11.5759
度無極經	-11.5759
迂	-11.5759
緜	-11.576
珊瑚	-11.576
楞	-11.576
𡱈	-11.576
諛	-11.5761
見聞覺知	-11.5761
青瘀	-11.5761
名譽	-11.5763
搯	-11.5764
第三十三卷	-11.5765
怏	-11.5765
疒	-11.5766
敬信	-11.5766
盞	-11.5767
芭蕉	-11.5767
貿易	-11.5768
泗	-11.5768
辯正論	-11.5769
姬	-11.577
真珠	-11.577
摩尼寶	-11.577
姑臧	-11.577
毋	-11.5771
羅闍	-11.5773
飢餓	-11.5775
▁金光明經	-11.5776
迦蘭陀	-11.5777
苦毒	-11.5778
良醫	-11.5779
做	-11.578
三十年	-11.5782
羊者反	-11.5782
毘舍離	-11.5782
鷲峯	-11.5782
說咒	-11.5783
盲人	-11.5785
阿惟越致	-11.5785
迦羅越	-11.5786
祇域	-11.5787
說此中所明	-11.5789
元魏天竺三藏菩提留支譯	-11.579
房錄	-11.579
賢愚經云	-11.579
▁觀天品	-11.5791
黑暗	-11.5792
宋孝武	-11.5792
京城	-11.5797
無所住	-11.5801
朗朗	-11.5803
密迹	-11.5808
上尺之反	-11.5809
了悟	-11.5812
猶如虛空	-11.5814
音秘	-11.5815
諸漏	-11.582
上烏玄反	-11.582
反爾疋	-11.5823
玄宗	-11.5824
右西晉竺法護譯	-11.5827
魔忍曰	-11.5832
根源	-11.5833
十四部	-11.5834
內典	-11.5835
少年	-11.5836
略述	-11.5839
或十五卷	-11.5842
欣然	-11.5857
昔日	-11.5871
潤文	-11.5874
法鏡經	-11.5882
進止	-11.5883
顫	-11.5884
瀑	-11.5885
㩉	-11.5888
餔	-11.5888
澱	-11.5888
作是說	-11.5889
寺主	-11.589
咬	-11.589
後秦	-11.5891
扠	-11.5892
碓	-11.5892
揖	-11.5892
姟	-11.5894
𢲻	-11.5894
紡	-11.5895
醬	-11.5895
倏	-11.5896
擈	-11.5896
張口	-11.5896
摹	-11.5896
睞	-11.5896
譎	-11.5898
洮	-11.5898
悕	-11.5899
毗祭反	-11.5899
墀	-11.5899
愉	-11.5899
從欠	-11.59
槗	-11.59
十八年	-11.59
戱	-11.5901
牸	-11.5901
冉	-11.5902
饗	-11.5903
五體投地	-11.5903
祭祀	-11.5904
衣被	-11.5905
懍	-11.5905
師便打	-11.5905
廊	-11.5906
嵬	-11.5906
鋋	-11.5906
隊	-11.5907
淨名疏云	-11.5908
劬勞	-11.5908
不得是願終不作佛	-11.5908
悛	-11.5909
屠兒	-11.591
𦦨	-11.5914
瞿耶尼	-11.5915
說此經	-11.5916
也賈注國語	-11.5916
摩醯首羅	-11.5918
▁「○	-11.592
四天王天	-11.5921
佛在舍衛國	-11.5923
江陵	-11.5925
具陳	-11.5926
本同譯別	-11.5929
失譯今附東晉錄	-11.5929
彌勒成佛經	-11.5929
前後四譯	-11.5929
▁第三分	-11.593
警覺	-11.5931
弗沙	-11.5931
瓔珞莊嚴	-11.5931
法界體性	-11.5931
南嶽	-11.5932
宅加反	-11.5933
與寶積第	-11.5933
校量	-11.5933
眉間	-11.5935
初眼反	-11.5936
右出中阿含經第	-11.5937
祐錄云抄	-11.5938
從寸	-11.5939
也從穴	-11.5941
尼揵	-11.5944
生淨土	-11.5947
序品第一	-11.5949
阿毘曇毘婆沙	-11.595
手把	-11.5951
祕藏	-11.5957
白毫	-11.5957
仁王經	-11.5962
一部八卷	-11.5966
劍樹	-11.5967
皃也說文	-11.5968
終不能	-11.597
預流	-11.597
從广	-11.5972
助道	-11.5974
七月十五日	-11.5976
毒害	-11.5978
上爭巧反	-11.5991
聲類作	-11.6004
憂波	-11.6013
婆娑	-11.6013
十界	-11.6015
鞞婆沙	-11.6017
孰能	-11.602
求哀	-11.6021
興化	-11.6025
本來無	-11.6026
桁	-11.6028
蓰	-11.6029
上巨焉反下	-11.603
𨚎	-11.6032
資財	-11.6033
蠹	-11.6033
于闐國	-11.6033
璅	-11.6034
擺	-11.6034
也𥼶名云	-11.6035
上乎故反	-11.6035
槁	-11.6035
輾	-11.6036
縠	-11.6036
𤵜	-11.6036
膞	-11.6037
勺	-11.6038
杻械	-11.6038
上徒敢反下普百反	-11.6038
葺	-11.6038
源流	-11.6039
照耀	-11.604
柩	-11.6041
赭	-11.6041
𡑅	-11.6041
阿誰	-11.6042
菡	-11.6042
或有人	-11.6042
煬	-11.6042
𢡠	-11.6042
甬	-11.6043
躅	-11.6043
駟	-11.6043
勻	-11.6044
嚇	-11.6045
一計反	-11.6045
歆	-11.6045
拗	-11.6046
崑崙	-11.6046
頤	-11.6046
字函第四卷	-11.6047
非有非無	-11.6051
䆫	-11.6051
衷	-11.6053
㲉	-11.6056
彙	-11.6056
嗚呼	-11.6058
洋銅	-11.6058
▁根本說一切有部毘奈耶	-11.6063
尋思	-11.6064
那連提耶舍	-11.6065
率土	-11.6067
第二譯兩譯一闕	-11.6069
郎達反	-11.607
爾時世尊告	-11.6072
枯木	-11.6075
一千二百	-11.6079
徒可反	-11.6079
從肉作	-11.608
雜阿毘曇心	-11.6081
共議	-11.6084
授與	-11.6087
金剛部	-11.6087
之異名	-11.6088
刀兵	-11.6094
閉門	-11.6097
私記	-11.6099
異類	-11.6101
柰女	-11.6102
反賈逵注國語云	-11.6102
樂器	-11.6112
▁月燈三昧經	-11.6114
染汙	-11.6117
年老	-11.6119
含靈	-11.6126
大佛頂	-11.6126
差殊	-11.6127
餘卷	-11.6129
道諦	-11.6129
集訓	-11.6133
善戒經	-11.6133
㒵也又	-11.6133
眼根	-11.6138
徃來	-11.614
音線	-11.6148
下宅加反	-11.6152
涌出	-11.6154
障蔽	-11.6155
同上正作	-11.6161
𥝷反	-11.6163
南陽	-11.6164
也韻詮云	-11.6164
東都	-11.6165
從酉	-11.6169
很	-11.6173
悶絕	-11.6173
閾	-11.6174
𢌿	-11.6175
騾	-11.6181
筯	-11.6182
歔欷	-11.6182
􄉓	-11.6183
􂔞	-11.6184
督	-11.6185
第十九	-11.6185
愴	-11.6186
慠	-11.6187
聵	-11.6188
墯	-11.6189
鄒	-11.6191
羲	-11.6191
瞳	-11.6191
燦	-11.6193
利鈍	-11.6193
遬	-11.6194
蝶	-11.6194
巒	-11.6195
艮	-11.6195
淩	-11.6195
反鄭箋毛詩云	-11.6195
祉	-11.6197
荊溪	-11.6197
上於遠反	-11.6197
迦留陀夷	-11.6201
羊一反	-11.6201
蒙遜	-11.6201
顏貌	-11.6204
說此偈	-11.6205
鼻孔	-11.6205
經十一卷同帙	-11.6208
又雜寶藏經	-11.6209
疲極	-11.621
真際	-11.6211
後秦弘始年	-11.6213
右道安云	-11.6213
▁正法念處經卷第	-11.6213
一紙半	-11.6216
惱害	-11.6221
慎勿	-11.6221
怛囉	-11.6224
希夷	-11.6225
清潔	-11.6226
識宿命	-11.6229
大寶積經	-11.623
見思惑	-11.6235
品第二十五	-11.6236
撰集	-11.6237
有娠	-11.624
香草也	-11.6244
且莫道	-11.6245
區別	-11.6246
偽妄	-11.6248
上蒲沒反	-11.6251
上許記反	-11.6251
地藏菩薩	-11.626
恁麼則	-11.626
今皆作	-11.6263
千差	-11.6266
堪忍	-11.6268
受決	-11.6268
自在王佛南無	-11.6271
讚一本	-11.6275
烏玄反	-11.6288
反禮記云	-11.629
譙	-11.6294
郎歎反	-11.6294
飲光	-11.6294
尓雅	-11.6296
周書	-11.6305
常無常	-11.6305
爺	-11.6306
▁七佛	-11.6306
咋	-11.6314
沙門釋僧	-11.6315
進修	-11.6316
建業	-11.6316
多羅菩薩	-11.6316
湔	-11.6318
茵	-11.6321
𣃆	-11.6321
懊	-11.6322
荏	-11.6322
懽	-11.6323
紂	-11.6324
駞	-11.6324
稔	-11.6325
驥	-11.6325
哹	-11.6326
嫗	-11.6326
捒	-11.6326
幕	-11.6326
惡鬼	-11.6327
優婆塞戒經云	-11.6328
欄楯	-11.633
上力遇反	-11.6331
殳	-11.6331
得須陀洹果	-11.6331
戹	-11.6332
齲	-11.6332
禺	-11.6332
而語之言	-11.6333
娘	-11.6334
撈	-11.6336
畫像	-11.6337
仕咸反	-11.6337
􂎫	-11.6338
抂	-11.634
歹	-11.634
所以然者	-11.634
稱量	-11.634
於綺反	-11.6342
晶	-11.6342
姊妹	-11.6343
老耄	-11.6344
六十二見	-11.6344
八關齋	-11.6347
世尊告曰	-11.6349
細滑	-11.6349
每日	-11.6349
音𤗊	-11.635
曇摩難提	-11.635
普徧	-11.6351
一十四部	-11.6353
壽盡	-11.6354
無垢稱	-11.6356
如來南無蓮華	-11.6357
金剛杵	-11.6357
大教王經	-11.6357
親族	-11.6358
上巨員反	-11.6358
墋	-11.6361
觧脫	-11.6362
甚難	-11.6363
眾經錄	-11.6363
也古今正字從手	-11.6364
便喝	-11.637
國語云	-11.6372
品第二十七	-11.6373
不惜	-11.6381
未甞	-11.6381
巨位反	-11.6382
普木反	-11.6384
沙門瞿曇	-11.6387
三十二紙	-11.6389
無想天	-11.639
戶官反	-11.6391
三十一卷	-11.6394
上二論	-11.6402
佛形像	-11.6406
妄情	-11.6407
上徒盍反	-11.6407
骨肉	-11.6407
恐悑	-11.6411
來迎	-11.6411
而為說法	-11.6413
親屬	-11.6413
徒頂反	-11.6419
釋梵	-11.6422
起信論云	-11.6432
脫衣	-11.6432
前經第	-11.644
未曾有經	-11.6441
觀音菩薩無量諸佛菩薩噯	-11.6441
▁普曜經	-11.6445
月藏	-11.645
也郭注爾雅云	-11.6451
古瓦反	-11.6452
威如來南無	-11.6455
晷	-11.6462
勦	-11.6462
頺	-11.6467
聘	-11.6467
不墮惡道	-11.6467
久矣	-11.6469
肢	-11.647
正法念經	-11.6471
柿	-11.6472
崎	-11.6472
椹	-11.6472
腴	-11.6472
莅	-11.6473
冗	-11.6473
蜺	-11.6473
萬像	-11.6474
駱	-11.6474
若復有人	-11.6475
再譯	-11.6476
串習	-11.6476
偕	-11.6477
楚辭	-11.6479
褚	-11.648
突吉羅	-11.648
千二百	-11.6481
􂋧	-11.6482
眸	-11.6482
一部六卷	-11.6482
晈	-11.6483
櫺	-11.6484
雒	-11.6484
覘	-11.6484
蚑行	-11.6485
古案反	-11.6485
酋	-11.6486
父母兄弟	-11.6487
啼泣	-11.6487
古巧反	-11.6488
宴坐	-11.649
龔	-11.6491
他心智	-11.6491
復何因緣	-11.6493
給孤獨	-11.6493
霸	-11.6493
滋味	-11.6495
天龍八部	-11.6496
寺塔	-11.6498
未了	-11.6498
悉達	-11.6499
西晉代竺法護譯	-11.6501
誠信	-11.6502
廣百論	-11.6503
迄今	-11.6503
文句全同	-11.6505
都鄧反	-11.6506
扇底迦	-11.6508
皇朝	-11.6509
較量	-11.6511
安忍	-11.6512
非也悞	-11.6516
灰河	-11.6522
羊朱反	-11.6528
郎个反	-11.6533
月五日	-11.6534
奘法師	-11.6544
大慈恩寺	-11.6547
郎禾反	-11.6547
畢竟空	-11.6548
池水	-11.6548
虛幻	-11.6554
求覓	-11.6554
徧滿	-11.6557
苦謗反	-11.6566
從攴	-11.6568
諸佛世尊	-11.6569
阿難白佛	-11.657
扶南	-11.657
緣記第	-11.657
四十七	-11.6574
容易	-11.6575
上居力反	-11.6577
卷舒	-11.6599
心生歡喜	-11.6607
𥌒	-11.6607
抹	-11.6612
莂	-11.6613
塠	-11.6614
波羅密多	-11.6615
本性空	-11.6615
掐	-11.6617
了義經	-11.6618
𧨏	-11.6619
長一丈	-11.6619
蕤	-11.662
滅諦	-11.6621
杷	-11.6621
尸智反	-11.6622
諸大菩薩	-11.6622
嚻	-11.6623
挈	-11.6623
鏗	-11.6623
驍	-11.6624
諠譁	-11.6624
蘥	-11.6625
鴛鴦	-11.6625
羶	-11.6626
斃	-11.6626
匧	-11.6627
糖	-11.6629
爻	-11.6629
㡿	-11.663
涵	-11.663
痔	-11.6631
號咷	-11.6631
杲	-11.6631
髣髴	-11.6631
麈	-11.6633
傴僂	-11.6634
彌尒反	-11.6634
四十五卷	-11.6635
渤	-11.6635
亹	-11.6635
􂰌	-11.6635
昉	-11.6636
鄭注儀禮云	-11.6636
臣民	-11.6636
吼聲	-11.6636
應和尚作	-11.6636
皇后	-11.6637
多可反	-11.6637
寒氷	-11.6639
雷電	-11.664
凡愚	-11.6641
意生身	-11.6644
晨朝	-11.6644
無生無滅	-11.6644
門限也	-11.6647
又正法念經	-11.6649
沙門釋曇	-11.6649
終南山	-11.6651
安靜	-11.6652
上居委反	-11.6652
康孟詳	-11.6653
見李廓錄	-11.6654
春風	-11.6654
初一日誦	-11.6654
陳世真諦譯	-11.6654
歌羅	-11.6654
府君	-11.6655
墮三惡道	-11.6657
魔波旬	-11.6658
沈沒	-11.6659
佛授記寺	-11.6662
薩遮	-11.6662
逮得	-11.6662
起世經	-11.6665
天皇	-11.667
房舍	-11.6673
頁	-11.6678
廓然	-11.668
精氣	-11.6685
東夏	-11.6687
屏處	-11.6691
違背	-11.6692
子才反	-11.6693
從金作	-11.6694
毗尼	-11.6695
作甚麼	-11.6697
小乘律	-11.6705
著袈裟	-11.6706
上三經	-11.6709
出中阿含經第	-11.6711
太清	-11.6711
▁菩薩處胎經	-11.6714
二經合	-11.6717
鈍根	-11.6717
徒勞	-11.6718
從髟	-11.6718
南面	-11.6731
王逸注	-11.6736
二紙半	-11.6737
僧佉	-11.6741
聞正法	-11.6745
曇無讖譯	-11.6745
第二十二卷	-11.6753
古還反	-11.6753
宮內	-11.6753
群品	-11.6758
宕	-11.6764
淤	-11.6767
要須	-11.6768
躑	-11.6768
呞	-11.6769
䩕	-11.6771
􄴐	-11.6771
上竹角反	-11.6771
瑕疵	-11.6771
葩	-11.6771
挃	-11.6772
鴥	-11.6772
上其俱反下	-11.6772
羣生	-11.6772
喆	-11.6773
畺	-11.6773
小雅曰	-11.6774
賈逵曰	-11.6777
蛭	-11.6777
上七廉反	-11.6777
姻	-11.6777
箇甚麼	-11.678
戔	-11.6781
翱翔	-11.6783
從水從	-11.6784
腳	-11.6784
一十部	-11.6784
喫飯	-11.6785
釁	-11.6785
世本云	-11.6786
慇懃	-11.6787
順正理論	-11.6788
塵境	-11.6788
出僧祐錄	-11.679
後秦羅什	-11.6791
大廣智不空	-11.6791
許穢反	-11.6792
得生天上	-11.6794
殘害	-11.6799
見竺道祖	-11.68
海印	-11.68
隋大業	-11.6801
一字頂輪王	-11.6802
呼郭反	-11.6803
奉詔譯	-11.6805
a	-11.6805
海龍王經	-11.6806
郭注尒雅	-11.6807
贍部	-11.6807
西北方	-11.6809
智者大師	-11.6809
古外反	-11.6809
庫藏	-11.6813
在其中	-11.6818
百川	-11.6819
招提	-11.682
宛然	-11.682
毀謗	-11.682
郎古反	-11.6822
步角反	-11.6822
一帖	-11.683
迷悶	-11.683
步講反	-11.6833
白銀	-11.6834
便作是念	-11.6836
虛偽	-11.6837
瓦器	-11.6838
上戶官反	-11.6841
知主反	-11.6852
與上同	-11.6853
律文從	-11.6854
樹葉	-11.6859
蒲拜反	-11.6861
切韻云	-11.6865
應云毘	-11.687
反韻英	-11.6877
員反	-11.688
塗香	-11.688
種族	-11.6883
護公	-11.6886
徃昔	-11.6893
下女加反	-11.6902
雖殊	-11.691
璣	-11.6919
拶	-11.6921
糺	-11.6921
字意也	-11.6923
牛鳴音	-11.6923
汾陽	-11.6923
阻䟽反	-11.6924
膖脹	-11.6925
窴	-11.6925
慴	-11.6926
濺	-11.6926
上彼巾反下	-11.6926
􂪩	-11.6926
上所愁反	-11.6927
菊	-11.6927
􂴧	-11.6927
無央數	-11.6928
顇	-11.6928
炤	-11.6929
甌	-11.6931
螟	-11.6931
奠	-11.6931
䤈	-11.6932
傘盖	-11.6932
檀波羅蜜	-11.6932
秖	-11.6932
电	-11.6932
桐	-11.6933
鳩那羅	-11.6934
鬪諍	-11.6934
三千大千	-11.6935
憨	-11.6936
屩	-11.6936
唘	-11.6937
鴆	-11.6938
楷	-11.6938
又增一阿含經云	-11.6938
此譯為	-11.694
我於爾時	-11.6945
􂌦	-11.6946
弘福寺	-11.6947
剡浮	-11.6947
毛竪	-11.6948
優婆塞優婆夷	-11.6948
弘明集	-11.6949
祈請	-11.6951
古岸反	-11.6953
豫章	-11.6953
江西	-11.6956
也從阜	-11.6957
切韻作	-11.6957
敗壞	-11.6958
唐北天竺沙門大廣智不空譯	-11.6959
七賜反	-11.696
▁雜阿含經卷第	-11.696
科文一卷	-11.696
摩訶般若波羅蜜	-11.6961
貪瞋	-11.6962
光輝	-11.6962
號哭	-11.6962
經同本別譯	-11.6962
梵夾	-11.6963
微塵數	-11.6964
又川音作	-11.6969
云何名為	-11.6971
㽵子	-11.6981
薩婆若	-11.6984
奉獻	-11.6986
古代反	-11.6987
佛本行經	-11.6987
直𡰱反	-11.699
閉目	-11.6991
稟性	-11.6992
世出世間	-11.6998
夫妻	-11.6999
煩惱障	-11.7
觀音菩薩十方諸佛菩薩噯	-11.7009
上二正並	-11.7016
倉乱反	-11.7018
二百一十	-11.7022
奇異	-11.7025
聲類云	-11.7029
般若心經	-11.7031
胡麻	-11.7044
一粒	-11.7049
三百五十	-11.7055
十六年	-11.7058
苦庚反	-11.706
三元三要	-11.7073
美巾反	-11.7074
欱	-11.7075
鞘	-11.7079
䘏	-11.7079
閩	-11.7081
莚	-11.7081
蛻	-11.7082
窯	-11.7083
字切脚	-11.7083
臽	-11.7083
跖	-11.7083
唇	-11.7084
窊	-11.7084
懟	-11.7085
鳧	-11.7086
悕望	-11.7086
澣	-11.7087
阿賴耶	-11.7087
風俗通	-11.7087
饕餮	-11.7088
穗	-11.7088
忩	-11.7089
潬	-11.709
𠆴	-11.709
㨾	-11.709
化樂天	-11.7091
得須陀洹道	-11.7091
媟	-11.7091
鈞	-11.7091
瓔	-11.7093
翥	-11.7094
右一驗出	-11.7095
翏	-11.7095
螻	-11.7095
𠌵	-11.7097
阿梨	-11.7098
選擇	-11.7099
𧆛	-11.7099
色究竟天	-11.71
薄拘羅	-11.71
窘	-11.7101
籟	-11.7101
凉	-11.7102
犂	-11.7102
躃地	-11.7108
反尓疋	-11.711
五分律云	-11.711
趣菩提	-11.711
藥王藥上	-11.7112
所出經律	-11.7112
拾遺	-11.7114
肇論	-11.7115
世親菩薩造	-11.7115
第一譯兩譯一闕	-11.7115
布施持戒	-11.7117
佛本行經云	-11.7118
失支反	-11.7118
二十八宿	-11.7118
反古今正字云	-11.7119
擾擾	-11.7121
質礙	-11.7122
音逾	-11.7126
瞿曇彌	-11.7127
花鬘	-11.7128
集本作	-11.7128
蕭齊	-11.713
盛皃	-11.7134
迴轉	-11.7141
丁念反	-11.7151
掘地	-11.7156
開導	-11.7162
萬端	-11.7162
反毛詩傳	-11.7162
迦葉波	-11.7163
何罪	-11.7163
毘婆尸佛	-11.7164
是甚麼	-11.7166
出第十卷	-11.7167
般遮	-11.7168
出雜阿含經第	-11.7168
二百二十	-11.7169
年十一月	-11.7175
又涅槃經云	-11.7175
七卷同帙	-11.7184
下而沼反	-11.7187
武德	-11.7188
三經同卷	-11.7191
得不退轉	-11.7194
有佛出世	-11.722
焭	-11.7227
外國沙門	-11.7227
無生滅	-11.7228
柵	-11.7234
餝	-11.7237
𦙃	-11.7238
上所姧反	-11.7239
蹠	-11.7239
䶩	-11.7239
上其列反	-11.7239
古典反	-11.7241
獅子	-11.7241
餬	-11.7242
喏	-11.7242
售	-11.7244
楚辝	-11.7244
上大了反	-11.7244
䫂	-11.7245
詫	-11.7245
毉	-11.7245
上普擊反	-11.7246
鎌	-11.7246
蹎	-11.7247
菓蓏	-11.7247
埿	-11.7247
闞	-11.7248
䓗	-11.7248
橘	-11.7249
正梵音云	-11.7249
淆	-11.7249
伍	-11.7249
𥧌	-11.7249
怚	-11.725
肱	-11.725
㖑	-11.725
漢靈帝	-11.7251
矇	-11.7251
字函第五卷	-11.7251
芙蓉	-11.7251
紊	-11.7252
腓	-11.7252
誼	-11.7252
革屣	-11.7252
卂	-11.7253
爾時世尊告諸比丘	-11.7253
謐	-11.7254
大乘律	-11.7254
頭面禮足	-11.7255
啻	-11.7255
稱南無佛	-11.7255
􂍧	-11.7257
莫姧反	-11.7258
潤澤	-11.7258
帥	-11.7261
涇	-11.7262
分陀利	-11.7262
歡喜奉行	-11.7263
丘𠃵反	-11.7264
游戲	-11.7264
唯願世尊	-11.7264
優游	-11.7266
出家修道	-11.7266
大方廣佛花嚴經	-11.7267
過去諸佛	-11.7267
解深密經	-11.7268
十住斷結經	-11.7268
子賜反	-11.7269
上步末反	-11.7271
起世經云	-11.7272
後漢月支三藏支婁迦讖譯	-11.7274
元曉述	-11.7274
右一經前後兩譯	-11.7275
上二經同本別譯	-11.7275
鄴都	-11.728
唐天后代	-11.7283
今附西晉錄	-11.7287
生忉利天	-11.7288
悉檀	-11.7293
設齋	-11.7296
阿毘	-11.7298
一切同名	-11.7301
他故反	-11.7303
形狀	-11.7307
烏乱反	-11.7312
洞達	-11.7315
俗姓	-11.7318
不朽	-11.732
反文字典說云	-11.7323
鄭注禮記云	-11.7326
四十紙	-11.7338
猛利	-11.7342
右一部一卷	-11.7344
遷流	-11.7344
俗字非也	-11.7349
慈仁	-11.7359
展轉相	-11.7363
十餘年	-11.7364
訛略	-11.7366
我只見	-11.7369
片片	-11.7373
第二十七卷	-11.7374
戒壇	-11.7376
丁故反	-11.7383
宄	-11.7389
肬	-11.739
𦜩	-11.7391
霈	-11.7397
痟	-11.7397
智炬	-11.7397
苪	-11.7397
爤	-11.7397
癎	-11.7398
剬	-11.7398
上文夫反	-11.7399
漢書集注曰	-11.7401
觚	-11.7401
逄	-11.7401
𠯗	-11.7401
喟	-11.7401
蟹	-11.7402
繹	-11.7403
上徒愛反	-11.7403
𤨏	-11.7404
徒濫反	-11.7404
跱	-11.7404
􂎴	-11.7405
栰	-11.7406
笴	-11.7406
是義不然	-11.7406
揜	-11.7407
裒	-11.7407
孳	-11.7407
幔	-11.7407
告諸比丘	-11.7409
郄	-11.7409
臚	-11.7411
斌	-11.7411
熙怡	-11.7412
秪	-11.7413
𥎞	-11.7415
隍	-11.7415
菩薩南無無邊	-11.7416
畝	-11.7417
千億	-11.7417
澷	-11.7418
漱口	-11.7419
笙	-11.7421
孔注尚書	-11.7422
楊枝	-11.7422
􂐔	-11.7422
粳米	-11.7423
陪	-11.7423
昔有一	-11.7425
阿練若	-11.7426
北印度	-11.7428
祖父	-11.743
居輦反	-11.743
正法眼藏	-11.743
族姓	-11.7432
不退轉法輪經	-11.7432
於廣州譯	-11.7434
朱士行漢錄	-11.7435
前秦建元年	-11.7436
僧祐二錄	-11.7436
伽耶山頂經	-11.7436
委曲	-11.7437
揣食	-11.7438
躄地	-11.7441
寂默	-11.7448
丁計反	-11.7448
毛詩傳云	-11.7449
除愈	-11.7456
黃武	-11.7461
年三月	-11.7465
十二遊經	-11.7469
子昔反	-11.7469
慈父	-11.7475
作是語	-11.7477
疑偽	-11.7479
謗毀	-11.7482
晃晃	-11.7485
金翅鳥王	-11.7487
阿耆	-11.75
音晚	-11.751
右三部	-11.751
作護摩	-11.7518
安世高譯	-11.7538
反左傳云	-11.7548
瀬	-11.7556
陝	-11.7558
摒	-11.7559
瑱	-11.756
𨷂	-11.7562
估	-11.7562
蘖	-11.7562
揥	-11.7562
曝	-11.7563
𡶤	-11.7565
􂍾	-11.7565
攉	-11.7566
汝前世時	-11.7566
爨	-11.7567
古迹	-11.7568
杅	-11.7569
爿	-11.7569
鵽	-11.757
袍	-11.757
臯	-11.7571
組	-11.7571
頑嚚	-11.7571
悍	-11.7571
好因果都只在發善心菩薩	-11.7571
𩮜	-11.7574
䐡	-11.7574
後魏世	-11.7575
𡱁	-11.7575
爇	-11.7575
藏經音義隨函錄	-11.7575
吳支謙譯	-11.7575
桂苑珠叢	-11.7576
堀	-11.7577
峭	-11.7577
鼇	-11.7577
潑	-11.7578
稼穡	-11.7578
廳	-11.7579
嬪	-11.7579
聲論作	-11.758
剛強	-11.758
眼睛	-11.758
得法眼淨	-11.7581
雜譬喻經云	-11.7582
躁擾	-11.7582
殷勤	-11.7583
已見前釋	-11.7583
自利利他	-11.7584
摩伽陀國	-11.7586
千六百	-11.7587
弗婆提	-11.7588
鈷	-11.7589
斆	-11.759
木槵	-11.7591
姨	-11.7592
余芮反	-11.7592
安般守意	-11.7596
血流	-11.7597
悲哀	-11.7597
清信士聶承遠	-11.7598
唐大慈恩寺沙門釋玄奘譯	-11.7599
普超三昧經	-11.7599
黑繩	-11.7601
市六反	-11.7602
決擇	-11.7605
病瘦	-11.7607
菩提場	-11.7607
修禪定	-11.7608
抄阿含	-11.7609
青黃	-11.7616
摩訶止觀	-11.762
唼食	-11.7624
供養恭敬	-11.7625
逆順	-11.7627
攝論云	-11.7628
甘美	-11.7633
重擔	-11.7635
四百九十	-11.7635
救拔	-11.7637
黃河	-11.7643
存亡	-11.7644
充足	-11.7644
內題	-11.7645
真宰	-11.765
禮記曰	-11.7659
穢惡	-11.7662
舌根	-11.7663
作如是念	-11.7669
歷丁反	-11.7672
罽賓三藏	-11.7672
什物	-11.7676
呼高反	-11.7678
十七年	-11.7688
而甚反	-11.7689
瞻波	-11.7691
三百九十	-11.7697
皆一也	-11.7697
虛假	-11.7702
寶雲經	-11.7713
圊	-11.7719
佛及僧	-11.772
垤	-11.773
㝎	-11.773
糟	-11.773
殂	-11.773
食尹反	-11.7732
嘍	-11.7732
暝	-11.7732
蚩	-11.7732
緹	-11.7733
痿	-11.7735
瞞	-11.7735
泮	-11.7735
斲	-11.7735
溉	-11.7735
魁膾	-11.7735
上序延反	-11.7736
絛	-11.7736
纂文云	-11.7737
子消反	-11.7737
上都含反	-11.7738
聲論者	-11.7738
澡漱	-11.7739
煗	-11.7739
揄	-11.7739
筐	-11.774
艾	-11.774
嘻	-11.774
睛	-11.774
行住坐臥	-11.7743
萊	-11.7745
古𠋫反	-11.7747
上直林反	-11.7748
宅耕反	-11.7748
窣堵波	-11.7748
跋難陀	-11.7749
堯舜	-11.7749
虒	-11.7749
阿鼻獄	-11.7749
闍耶	-11.775
崙	-11.775
不惜身命	-11.7751
工巧	-11.7752
羊亮反	-11.7752
闍貰	-11.7753
籌量	-11.7754
行七步	-11.7756
著衣持鉢	-11.7757
靈鷲山	-11.7758
恐畏	-11.776
千手千眼	-11.7761
流轉生死	-11.7763
占察	-11.7763
倒懸	-11.7764
實叉難陀	-11.7765
▁佛本行集經卷第	-11.7766
眷属	-11.7768
賢聖集傳	-11.7768
久受苦已	-11.7771
更無別	-11.7772
;	-11.7775
津梁	-11.7777
月光童子經	-11.7781
雜阿含經云	-11.7783
金剛智譯	-11.7783
品第二十八	-11.7784
許牛反	-11.7786
稟受	-11.7787
巨海	-11.7796
之總名也	-11.7797
作是念已	-11.7799
降伏魔	-11.7805
香油	-11.7813
圓頓	-11.7818
神祝	-11.7819
如是展轉	-11.782
分析	-11.7822
啟請	-11.7825
昭然	-11.7827
反上聲字	-11.7832
巨營反	-11.7832
波羅柰國	-11.7836
第六識	-11.7837
有為無為	-11.7853
娠	-11.7854
太史	-11.7858
耕反下	-11.7877
古旱反	-11.7879
息羊反	-11.789
子到反	-11.7891
􂌶	-11.7896
痤	-11.7897
瞪	-11.7897
鎋	-11.7898
琛	-11.79
捏	-11.79
𦍞	-11.79
𨷲	-11.79
瓨	-11.79
殤	-11.7901
蜴	-11.7902
嫉姤	-11.7902
瑿	-11.7902
饕	-11.7902
諺	-11.7902
􄖥	-11.7903
揬	-11.7904
佷戾	-11.7904
褺	-11.7904
卞	-11.7905
𠫤	-11.7906
所戢反	-11.7906
女右反	-11.7907
酣	-11.7907
紳	-11.7907
摛	-11.7908
百緣經云	-11.7908
爓	-11.7908
黛	-11.7908
脚跟	-11.7908
墮於地獄	-11.7908
長二丈	-11.7908
初覲反	-11.7909
惔	-11.7909
䞋	-11.7909
荊棘	-11.7911
枯槁	-11.7911
秣	-11.7912
蘇走反	-11.7912
義淨譯	-11.7913
杜預曰	-11.7914
灰燼	-11.7914
汾	-11.7914
上居小反	-11.7914
訝	-11.7915
鷺	-11.7915
因以為名	-11.7915
纘	-11.7917
巠	-11.7917
牢固	-11.7918
鐵圍山	-11.7919
塚間	-11.7919
烔	-11.792
蒜	-11.792
天龍鬼神	-11.792
因緣和合	-11.7921
地持論云	-11.7922
倣	-11.7922
魚吠反	-11.7924
正法念處經	-11.7926
幡蓋	-11.7929
是則名為	-11.7932
阿毗遮嚕迦	-11.7933
▁佛說中阿含經卷第	-11.7936
僧祐錄云安公涼土異經	-11.7936
太后	-11.7936
法經錄云	-11.7937
從辵	-11.7937
罪福報應經	-11.7941
貝葉	-11.7943
都只是	-11.7946
第一帙	-11.7948
甘露味	-11.7949
列二反	-11.7949
瞻視	-11.7954
聲集作	-11.796
累劫	-11.7961
酒肉	-11.7962
蓮花部	-11.7966
無法可	-11.7968
奴了反	-11.7969
靈源	-11.7975
法滅盡經	-11.7976
梵語也唐云	-11.7976
都無所	-11.7996
票聲	-11.7999
十卷一帙	-11.8005
也說文並從	-11.8006
徒東反	-11.8019
兒孫	-11.8035
五骨反	-11.8036
聞此語	-11.8036
丘智反	-11.804
法律三昧經	-11.8061
辢	-11.8063
𢭃	-11.8064
霔	-11.8065
犖	-11.8069
釵	-11.8069
鋌	-11.807
穆王	-11.807
唅	-11.807
概	-11.8071
窳	-11.8071
比丘尼戒	-11.8072
扴	-11.8073
𥢶	-11.8073
犇	-11.8073
眺	-11.8074
砌	-11.8074
韻詮云	-11.8074
廄	-11.8075
䆤	-11.8075
亥聲	-11.8076
蕀	-11.8076
壃	-11.8076
枲	-11.8076
絰	-11.8076
圻	-11.8077
誦法華	-11.8077
斐	-11.8079
上多達反下	-11.808
楹	-11.8082
飈	-11.8082
熊羆	-11.8083
捊	-11.8084
鬢	-11.8086
上烏口反	-11.8086
字函第八卷	-11.8086
璿	-11.8087
馳騁	-11.8088
嚏	-11.8088
奸	-11.8089
薛	-11.809
莊飾	-11.809
毓	-11.809
作是語已	-11.8091
嘴	-11.8092
猘	-11.8092
瑣	-11.8092
㳙	-11.8092
三紙半	-11.8095
郭注方言云	-11.8095
姝好	-11.8096
𠂢	-11.8096
以神通力	-11.8098
怨敵	-11.8098
從言作	-11.8101
四無量心	-11.8101
仲尼	-11.8101
巨焉反	-11.8105
出寶唱錄	-11.8108
南賢北	-11.8108
闥婆	-11.8108
佛陀扇多譯	-11.8109
謂修行之人	-11.8116
三藏玄奘	-11.8118
纂要	-11.8122
入涅槃後	-11.8132
說頌曰	-11.8139
天上人間	-11.8141
徒點反	-11.8146
純陀	-11.8147
不相離	-11.8156
子余反	-11.8157
出出曜經	-11.8167
一部二十卷	-11.817
大乘起信論	-11.8176
普幻反	-11.8183
生兜率天	-11.8186
醫方	-11.8186
上一正並	-11.8187
右東晉孝武帝代竺曇無蘭	-11.8187
步保反	-11.8194
卑連反	-11.82
力古反	-11.8231
榭	-11.8239
于𠃵反	-11.8241
瘀	-11.8244
搒	-11.8244
毛布也	-11.8245
坋	-11.8246
抧	-11.8247
勌	-11.8247
右此一驗出	-11.8247
麴	-11.8248
出華嚴經隨䟽演義鈔第	-11.8248
堊	-11.8249
䔉	-11.8249
𢱍	-11.825
廡	-11.8251
𢪨	-11.8251
慓	-11.8251
剎海	-11.8252
菅	-11.8252
拪	-11.8253
上居追反	-11.8253
趒	-11.8254
憋	-11.8254
浚	-11.8254
蔣	-11.8256
蜇	-11.8256
餮	-11.8256
絜	-11.8257
孽	-11.8257
上巨今反	-11.8257
犎	-11.8258
初責反	-11.8258
悽	-11.8259
崎嶇	-11.8259
毦	-11.8259
上他計反	-11.826
𧄼瞢	-11.826
摳	-11.826
葆	-11.8261
叜	-11.8261
珠璣	-11.8262
磑	-11.8262
雪峰	-11.8262
歛	-11.8262
燃燈	-11.8262
飜	-11.8262
斟酌	-11.8264
阿毗曇	-11.8264
穿鑿	-11.8265
鞭打	-11.8267
璟	-11.8267
㐭	-11.8267
彈琴	-11.8267
慰勞	-11.8269
謂菩薩住是三昧	-11.8271
繕寫	-11.8271
六種震動	-11.8272
呻吟	-11.8273
亦通用	-11.8276
只聽得	-11.8277
光音天	-11.8277
樞機	-11.8277
阿耨達龍王	-11.8278
建康	-11.8279
聲聞辟支佛	-11.8279
苦點反	-11.828
唐玄奘譯	-11.828
直列反	-11.8281
挌	-11.8396
詖	-11.8417
唧	-11.8421
􅁐	-11.8421
枅	-11.8423
毬	-11.8423
𢰔	-11.8425
𡐢	-11.8426
蛊	-11.8426
蜥	-11.8427
䉼	-11.8427
殮	-11.8428
秔	-11.8428
泍	-11.8428
瞥	-11.8428
鬧	-11.8428
䏣	-11.8429
㸌	-11.843
抨	-11.843
籀	-11.8431
鷙	-11.8431
渝	-11.8433
劭	-11.8433
莬	-11.8434
隰	-11.8434
鉉	-11.8435
慝	-11.8436
扄	-11.8437
悢	-11.8437
㝢	-11.8438
蔕	-11.8438
泳	-11.8439
俘	-11.844
詈	-11.8442
蠖	-11.8442
慇	-11.8442
郍	-11.8448
𤉢	-11.8453
荐	-11.8454
蔔	-11.8598
槊	-11.8603
鍪	-11.8604
歠	-11.8606
彗	-11.8606
埠	-11.8606
惽	-11.8607
塼	-11.8607
瘨	-11.8608
摷	-11.8609
捭	-11.8609
旄	-11.861
鬀	-11.8611
拷	-11.8612
􂗘	-11.8612
珣	-11.8613
𣴟	-11.8613
盃	-11.8613
䛧	-11.8614
䂮	-11.8614
霆	-11.8615
胄	-11.8615
駑	-11.8615
戇	-11.8616
珉	-11.8616
佑	-11.8616
鯉	-11.8616
彪	-11.8617
讟	-11.8617
岌	-11.8618
捼	-11.8618
螘	-11.8619
尃	-11.8619
覷	-11.8621
萍	-11.8623
髫	-11.8623
賒	-11.8627
鶖	-11.8632
汞	-11.8632
荄	-11.8788
個	-11.879
挮	-11.879
􂓕	-11.8791
坡	-11.8794
𥧝	-11.8794
氀	-11.8795
甑	-11.8795
縊	-11.8795
􂳸	-11.8796
踔	-11.8796
巘	-11.8796
懱	-11.8796
嘷	-11.8796
黮	-11.8797
港	-11.8798
彎	-11.8798
􂚋	-11.8798
伶	-11.8799
閬	-11.8799
螭	-11.88
漾	-11.88
鐶	-11.8801
讇	-11.8803
楔	-11.8804
瀛	-11.8805
綾	-11.8806
惺	-11.8807
咅	-11.8808
腭	-11.8809
岡	-11.881
漳	-11.881
晤	-11.8812
夋	-11.8812
禳	-11.8813
謎	-11.882
譊	-11.8969
怗	-11.8973
窖	-11.8977
膢	-11.8977
紉	-11.8978
撅	-11.8979
㗱	-11.8981
貓	-11.8982
𨤲	-11.8983
喁	-11.8983
穌	-11.8984
焱	-11.8985
缾	-11.8985
炮	-11.8985
㰆	-11.8985
磣	-11.8985
僥	-11.8986
隖	-11.8986
桶	-11.8986
鰥	-11.8986
梧	-11.8986
殟	-11.8986
絣	-11.8987
𣅀	-11.8988
燁	-11.8988
盼	-11.8988
崑	-11.8988
衿	-11.8989
沽	-11.899
蓽	-11.8991
􂏱	-11.8991
熠	-11.8993
奐	-11.8993
詃	-11.8995
檝	-11.8996
啑	-11.9002
怱	-11.9004
鐃	-11.9168
盇	-11.917
鱣	-11.9171
􄦕	-11.9172
􂐖	-11.9173
搋	-11.9173
培	-11.9174
𢡖	-11.9174
脬	-11.9174
暈	-11.9175
㷿	-11.9175
莝	-11.9176
𥇒	-11.9176
􂍙	-11.9176
爴	-11.9176
獦	-11.9177
冏	-11.9178
攙	-11.9179
㯓	-11.918
荀	-11.918
􃙔	-11.918
樺	-11.918
磕	-11.918
􃚫	-11.918
韁	-11.918
漯	-11.918
炒	-11.918
媾	-11.918
㗛	-11.918
巔	-11.918
𥱼	-11.9181
醢	-11.9182
璨	-11.9183
莠	-11.9184
擡	-11.9184
駁	-11.9184
瞤	-11.9184
踣	-11.9184
鮑	-11.9185
𠂤	-11.9186
璩	-11.9186
訂	-11.9186
櫛	-11.9188
賭	-11.9188
笳	-11.9188
尅	-11.9188
惇	-11.9189
猳	-11.9192
濱	-11.9194
錙	-11.9197
淅	-11.9198
冘	-11.9199
棱	-11.9365
煉	-11.9366
􃕈	-11.9367
懋	-11.9368
槽	-11.9369
猾	-11.937
拇	-11.937
闚	-11.9372
㕛	-11.9372
軶	-11.9372
㭬	-11.9373
讜	-11.9373
恙	-11.9374
堞	-11.9376
崐	-11.9377
翌	-11.9377
澇	-11.9379
煦	-11.9381
忒	-11.9382
袞	-11.9382
幵	-11.9383
齔	-11.9385
煢	-11.9385
矧	-11.9387
䀹	-11.9388
彚	-11.9389
噪	-11.939
掦	-11.9391
締	-11.9391
羼	-11.9547
𥼶	-11.9549
痍	-11.9559
姞	-11.9565
鉛	-11.9565
鞌	-11.9566
褻	-11.9567
磁	-11.9567
𧋠	-11.9567
唏	-11.9568
鶉	-11.9569
怜	-11.9569
痏	-11.957
尨	-11.957
稸	-11.957
顰	-11.9571
縒	-11.9571
黧	-11.9571
嶠	-11.9572
謦	-11.9573
廅	-11.9573
苕	-11.9574
臈	-11.9575
傀	-11.9576
紘	-11.9577
萠	-11.9578
彬	-11.9578
馺	-11.9579
韱	-11.9579
墊	-11.958
爝	-11.9581
帔	-11.9583
侔	-11.9583
瘍	-11.9584
楨	-11.9585
椷	-11.9585
嬾	-11.9586
媿	-11.9586
𧷮	-11.9586
尞	-11.9587
仡	-11.9588
狠	-11.9588
劃	-11.9588
恁	-11.959
冂	-11.9592
迪	-11.9595
謌	-11.9599
𨸏	-11.9703
烝	-11.9768
麓	-11.9769
㨶	-11.9771
濘	-11.9772
伀	-11.9772
閼	-11.9772
扞	-11.9773
剽	-11.9774
􄥊	-11.9774
𨶳	-11.9776
麩	-11.9777
鯢	-11.9778
黿	-11.9778
蓍	-11.9778
睨	-11.9779
櫓	-11.978
羝	-11.978
䜌	-11.9781
唌	-11.9782
垔	-11.9782
刵	-11.9782
遄	-11.9782
蘘	-11.9783
絙	-11.9783
眥	-11.9783
匃	-11.9784
㢮	-11.9784
攏	-11.9784
卩	-11.9786
𠬧	-11.9786
䞈	-11.9788
秩	-11.9789
麌	-11.9789
暄	-11.979
閟	-11.9791
鉅	-11.9791
􂞺	-11.9796
犲	-11.9797
藐	-11.9797
豦	-11.9799
䟦	-11.9809
摴	-11.9967
紲	-11.9971
蝅	-11.9973
摣	-11.9978
帖	-11.9978
磋	-11.9979
瀨	-11.9979
桎	-11.998
愶	-11.9981
艷	-11.9981
榦	-11.9981
儷	-11.9981
𠿒	-11.9982
銚	-11.9982
鉀	-11.9982
撒	-11.9983
款	-11.9984
萄	-11.9984
仳	-11.9984
孥	-11.9985
􄛒	-11.9985
𧰟	-11.9985
磊	-11.9988
帑	-11.9988
𧜟	-11.9989
湎	-11.999
笄	-11.999
淖	-11.9991
鞬	-11.9991
彤	-11.9992
匳	-11.9993
謠	-11.9993
皐	-11.9994
呻	-11.9994
釰	-11.9996
辞	-11.9996
褫	-11.9997
鶡	-11.9997
阱	-11.9998
鷰	-12
瘁	-12
􂏖	-12
蛄	-12.0001
䖒	-12.0001
惲	-12.0004
琨	-12.0006
8	-12.0023
蒔	-12.0176
匾	-12.0178
郝	-12.0182
鸕	-12.0183
杻	-12.0189
悷	-12.0189
釿	-12.0192
鬣	-12.0193
蠒	-12.0193
甯	-12.0195
儐	-12.0195
扷	-12.0195
券	-12.0195
蓼	-12.0195
𦝩	-12.0197
怵	-12.0198
倿	-12.0198
㧾	-12.0199
噵	-12.0199
朾	-12.0199
懆	-12.02
靽	-12.0201
暹	-12.0201
兗	-12.0201
牌	-12.0201
譺	-12.0201
䯗	-12.0201
笠	-12.0202
鍛	-12.0202
夌	-12.0202
哮	-12.0203
罹	-12.0203
杇	-12.0203
畟	-12.0205
㭊	-12.0205
梭	-12.0206
㓟	-12.0206
醮	-12.0206
碾	-12.0207
閈	-12.0207
嗷	-12.0207
网	-12.0207
㿇	-12.0207
啗	-12.0207
咫	-12.0207
䖍	-12.0208
髠	-12.0209
鏑	-12.021
𨫼	-12.0211
菲	-12.0212
勍	-12.0213
牘	-12.0213
宁	-12.0214
叕	-12.0214
赧	-12.0216
穊	-12.0395
菔	-12.04
崗	-12.0401
颰	-12.0403
撜	-12.0407
霤	-12.0407
䐗	-12.0407
蛘	-12.0407
渫	-12.0407
鶻	-12.0409
瘵	-12.0411
籰	-12.0412
猖	-12.0412
扂	-12.0412
梏	-12.0412
湫	-12.0413
𦊨	-12.0413
幣	-12.0415
韞	-12.0415
呴	-12.0417
襪	-12.0417
埳	-12.0419
鐺	-12.0419
󶍿	-12.0419
斖	-12.0421
壙	-12.0422
萏	-12.0422
䶧	-12.0422
睱	-12.0425
䖟	-12.0426
乂	-12.0428
愞	-12.0429
痼	-12.0429
弧	-12.0429
胭	-12.0429
槐	-12.043
襁	-12.0431
彖	-12.0431
黼	-12.0431
𣎆	-12.0432
瀅	-12.0433
鍑	-12.0433
慞	-12.0434
+	-12.0438
稿	-12.0446
肈	-12.0448
攜	-12.0611
𣯛	-12.0621
圄	-12.0624
繆	-12.063
埻	-12.0632
賂	-12.0633
畿	-12.0634
寱	-12.0635
樗	-12.0635
跗	-12.0635
遯	-12.0636
岨	-12.0636
楣	-12.0637
曒	-12.0638
堰	-12.0638
罣	-12.0638
貰	-12.0638
絓	-12.0638
媲	-12.0638
堙	-12.0639
葭	-12.0639
滄	-12.0639
𠕋	-12.0639
桄	-12.0639
軾	-12.0639
撽	-12.0639
覰	-12.0639
瑀	-12.064
渙	-12.0641
咼	-12.0641
縑	-12.0642
訹	-12.0642
幖	-12.0642
卸	-12.0643
柂	-12.0643
舸	-12.0644
縕	-12.0644
媅	-12.0644
礎	-12.0644
􃪙	-12.0645
笏	-12.0646
疌	-12.0646
琬	-12.0646
䨱	-12.0647
𩕳	-12.0649
蜋	-12.065
勹	-12.0651
諜	-12.0653
􃣌	-12.0692
驎	-12.0855
粳	-12.0856
檗	-12.0858
淴	-12.086
桷	-12.086
𦵮	-12.0862
㦥	-12.0862
􄓥	-12.0863
圜	-12.0864
𦏁	-12.0865
迯	-12.0865
瘧	-12.0865
捄	-12.0866
貺	-12.0866
𢎢	-12.0866
愸	-12.0866
搵	-12.0867
綆	-12.0867
鵅	-12.0867
鑣	-12.0868
嚚	-12.0869
擠	-12.0869
粮	-12.0869
呢	-12.087
䫌	-12.087
嚶	-12.087
墠	-12.087
迨	-12.0871
掔	-12.0872
岫	-12.0873
榴	-12.0874
租	-12.0874
旭	-12.0874
𠜂	-12.0875
𩠐	-12.0878
匊	-12.0879
碣	-12.0881
腔	-12.0882
匚	-12.0883
廌	-12.0884
寉	-12.0887
𥁞	-12.0894
玫	-12.1078
奎	-12.1082
瘙	-12.1087
廋	-12.1087
卭	-12.1088
騏	-12.1088
惸	-12.1089
俹	-12.109
粖	-12.1091
鑾	-12.1091
𡱝	-12.1092
蚋	-12.1093
幃	-12.1095
胯	-12.1095
瑳	-12.1095
煨	-12.1096
嫽	-12.1096
鼾	-12.1096
踧	-12.1096
伉	-12.11
趁	-12.11
淄	-12.11
魑	-12.11
暱	-12.1101
𤩶	-12.1101
搪	-12.1101
葅	-12.1103
傎	-12.1103
齚	-12.1103
渜	-12.1104
𦾨	-12.1104
綻	-12.1105
沌	-12.1105
粵	-12.1105
榱	-12.1105
翡	-12.1106
冓	-12.1107
餼	-12.1107
饍	-12.1107
鬽	-12.1108
襜	-12.1109
㰦	-12.111
氂	-12.111
堄	-12.111
撕	-12.1114
蒦	-12.1115
痴	-12.1293
仝	-12.131
确	-12.1323
犛	-12.1326
堓	-12.1327
殪	-12.1329
厓	-12.1329
癊	-12.133
蠟	-12.1331
刁	-12.1334
璝	-12.1334
噠	-12.1335
迃	-12.1335
濾	-12.1335
囇	-12.1335
汜	-12.1336
𦙘	-12.1338
鱞	-12.1338
麞	-12.1339
衽	-12.1339
縟	-12.134
奞	-12.134
爼	-12.134
黤	-12.1341
遨	-12.1341
讌	-12.1341
邅	-12.1342
曖	-12.1342
顓	-12.1342
忪	-12.1343
忝	-12.1343
匆	-12.1343
哦	-12.1343
繇	-12.1343
鶬	-12.1345
臋	-12.1346
闈	-12.1346
鸛	-12.1346
􃚹	-12.1347
􂖗	-12.1347
㑗	-12.1348
𨵗	-12.1349
遟	-12.1349
夬	-12.135
洫	-12.1351
鍬	-12.1351
驤	-12.1354
蝱	-12.1357
悱	-12.1558
譟	-12.1564
𦽆	-12.1565
抴	-12.1567
𨷖	-12.1567
㖒	-12.157
噢	-12.1572
𥘿	-12.1573
秸	-12.1575
瑋	-12.1575
垖	-12.1576
撼	-12.1576
􅕏	-12.1576
􂍨	-12.1576
𠇾	-12.1578
痢	-12.1579
昕	-12.1579
蹊	-12.1579
柬	-12.1579
𢁙	-12.1581
唳	-12.1582
敺	-12.1582
􃥗	-12.1582
猩	-12.1582
釤	-12.1582
蘗	-12.1583
􂜉	-12.1583
髁	-12.1584
杉	-12.1584
皈	-12.1584
粃	-12.1585
冑	-12.1585
罏	-12.1585
笋	-12.1586
芙	-12.1587
龠	-12.1587
穡	-12.1588
嬖	-12.1589
㳂	-12.159
趂	-12.1593
瘉	-12.1593
夂	-12.1594
蔫	-12.1594
􂗔	-12.1596
廾	-12.1682
擩	-12.1815
􂚲	-12.1816
𢷋	-12.1819
𧈸	-12.1821
儋	-12.1822
㥧	-12.1824
𧄼	-12.1824
𤝧	-12.1824
眚	-12.1825
馲	-12.1825
捎	-12.1828
鬥	-12.1828
𦍬	-12.183
訿	-12.183
丱	-12.1831
紋	-12.1831
􄁼	-12.1832
撨	-12.1832
蝦	-12.1832
䓣	-12.1832
𪘨	-12.1833
堋	-12.1834
総	-12.1835
纈	-12.1835
洩	-12.1835
枰	-12.1835
􅢟	-12.1835
蕙	-12.1838
櫂	-12.184
莞	-12.184
茗	-12.1841
烽	-12.1841
𤑔	-12.1842
需	-12.1844
璃	-12.1845
鼙	-12.1846
澈	-12.1849
凄	-12.1849
廕	-12.185
璹	-12.1851
𤢴	-12.1852
憬	-12.1861
凊	-12.1861
􅵲	-12.1862
㒹	-12.2066
賙	-12.2068
餚	-12.2076
咢	-12.2079
遒	-12.208
牗	-12.2081
𥁄	-12.2082
迍	-12.2083
磐	-12.2083
􄖉	-12.2084
殲	-12.2084
搓	-12.2085
凱	-12.2085
䛕	-12.2085
歙	-12.2085
矰	-12.2086
尪	-12.2086
槅	-12.2087
痊	-12.2087
􃚴	-12.2087
嫰	-12.2088
瓷	-12.2088
梠	-12.2089
輈	-12.2089
攡	-12.2089
豍	-12.209
氓	-12.209
凰	-12.209
烊	-12.209
峽	-12.2091
昺	-12.2091
窹	-12.2092
菐	-12.2092
揉	-12.2093
蠧	-12.2095
駘	-12.2095
甛	-12.2096
枼	-12.2097
袟	-12.2097
睟	-12.2098
𥪰	-12.2101
瓫	-12.2106
鯤	-12.2111
𤢌	-12.234
𠳮	-12.2342
潠	-12.2343
𦏌	-12.2343
愒	-12.2344
媧	-12.2345
侚	-12.2346
儭	-12.2347
簁	-12.2347
燠	-12.2348
癤	-12.2348
娥	-12.2349
枋	-12.2349
餳	-12.2349
𩚳	-12.2349
𣓞	-12.2349
崢	-12.235
瑠	-12.235
蕖	-12.2351
巩	-12.2351
宙	-12.2351
裓	-12.2351
碁	-12.2352
沠	-12.2352
幘	-12.2352
袴	-12.2353
掾	-12.2353
鯁	-12.2354
坂	-12.2354
巉	-12.2354
𣦸	-12.2354
嬻	-12.2355
祑	-12.2355
沱	-12.2356
躇	-12.2356
俚	-12.2357
􃚬	-12.2358
穅	-12.2358
㳄	-12.2359
厝	-12.2359
摠	-12.2359
盌	-12.2359
樝	-12.2362
㧖	-12.2362
𨳝	-12.2363
戠	-12.2364
𢷤	-12.2365
𢱢	-12.2365
薀	-12.2366
鄮	-12.2366
蜣	-12.2366
汀	-12.2369
囟	-12.2378
彳	-12.2536
蚑	-12.2601
梱	-12.2608
嵯	-12.261
縲	-12.261
嚾	-12.2612
𩬞	-12.2613
抖	-12.2613
謿	-12.2614
汦	-12.2614
厈	-12.2614
䠱	-12.2615
疧	-12.2615
碪	-12.2615
迊	-12.2616
廚	-12.2618
𠼝	-12.2619
荖	-12.2619
帊	-12.2619
烙	-12.2619
嗌	-12.2619
藩	-12.2619
𣪊	-12.262
醞	-12.262
􂑛	-12.262
查	-12.262
昴	-12.2621
鞾	-12.2621
蟺	-12.2621
㓷	-12.2621
聮	-12.2621
隩	-12.2621
腑	-12.2622
蠰	-12.2622
嚲	-12.2622
枇	-12.2623
纛	-12.2623
窪	-12.2624
豢	-12.2624
靺	-12.2624
蹕	-12.2625
𤸇	-12.2625
孱	-12.2625
塏	-12.2625
􃙇	-12.2625
糩	-12.2626
撣	-12.2626
攄	-12.2626
㭰	-12.2626
蚉	-12.2626
踴	-12.2627
僶	-12.2628
悁	-12.2628
窂	-12.2629
󵠪	-12.2629
悄	-12.263
踡	-12.2631
曙	-12.2631
祜	-12.2632
蕉	-12.2634
纍	-12.2634
􂳺	-12.2635
緗	-12.2636
鸇	-12.2636
驂	-12.2638
复	-12.2638
侖	-12.2646
𨭝	-12.2647
繽	-12.2711
毯	-12.2882
倖	-12.2884
􃝃	-12.2884
􂗜	-12.2887
􂏍	-12.2888
迤	-12.289
穄	-12.2891
荃	-12.2892
杈	-12.2892
𨔵	-12.2892
椸	-12.2892
􃢣	-12.2892
癃	-12.2893
薎	-12.2895
飻	-12.2895
扙	-12.2895
淀	-12.2895
哈	-12.2896
膱	-12.2896
褱	-12.2896
𩿍	-12.2896
雰	-12.2897
𣏾	-12.2897
􃦣	-12.2897
奩	-12.2897
賽	-12.2898
坈	-12.2898
墉	-12.2898
婪	-12.2899
悊	-12.2899
樽	-12.2901
翬	-12.2901
閨	-12.2901
菸	-12.2902
坭	-12.2902
譸	-12.2902
箠	-12.2902
僭	-12.2902
睠	-12.2902
啅	-12.2903
𩌦	-12.2903
𠒎	-12.2904
莢	-12.2904
洶	-12.2905
䧜	-12.2905
雋	-12.2905
佪	-12.2906
𤸃	-12.2906
蕕	-12.2907
巛	-12.2907
樘	-12.2907
姙	-12.2908
㘕	-12.2908
覬	-12.2912
灬	-12.2913
嚳	-12.2914
鋷	-12.2914
躧	-12.2914
磺	-12.2915
𤘽	-12.2918
凖	-12.2918
璀	-12.292
髟	-12.3038
洸	-12.3165
㱇	-12.317
囈	-12.3171
傒	-12.3171
斠	-12.3173
鎸	-12.3173
欹	-12.3173
捽	-12.3174
咷	-12.3174
㲪	-12.3175
樴	-12.3176
舁	-12.3176
䯊	-12.3176
揲	-12.3176
繤	-12.3177
咿	-12.3177
俓	-12.3178
哳	-12.3179
萹	-12.318
旍	-12.318
𧟶	-12.318
𡂡	-12.318
糊	-12.3181
賺	-12.3181
鷦	-12.3181
麄	-12.3181
診	-12.3181
衾	-12.3182
㨿	-12.3182
臏	-12.3182
睢	-12.3183
豖	-12.3183
胛	-12.3183
沂	-12.3183
阪	-12.3183
䔍	-12.3184
𡀔	-12.3184
爚	-12.3184
韮	-12.3185
𢷏	-12.3185
沆	-12.3185
麑	-12.3185
犾	-12.3185
犧	-12.3185
昞	-12.3185
裾	-12.3186
褓	-12.3186
冡	-12.3187
鈹	-12.3187
鱓	-12.3187
沔	-12.3187
胏	-12.3187
𨥨	-12.3188
蹀	-12.3189
枹	-12.3189
屰	-12.319
斡	-12.319
䀏	-12.3192
蘧	-12.3193
鏨	-12.3194
胻	-12.3194
巍	-12.3195
惌	-12.3195
匐	-12.3195
睪	-12.3195
凞	-12.3195
􃇩	-12.3197
姹	-12.3198
讐	-12.3198
卪	-12.3199
𠍴	-12.3201
臿	-12.3201
彶	-12.3203
冐	-12.321
衂	-12.3214
隳	-12.3459
鑞	-12.346
磚	-12.3466
勠	-12.3466
鄂	-12.3466
暐	-12.3468
擻	-12.347
誄	-12.3471
簏	-12.3471
喎	-12.3473
陏	-12.3473
泅	-12.3473
􄛊	-12.3473
嘖	-12.3474
莁	-12.3474
跓	-12.3474
伅	-12.3475
𡉏	-12.3475
𨽁	-12.3475
綟	-12.3476
𨗉	-12.3477
庂	-12.3477
𡓜	-12.3479
蠡	-12.3479
箏	-12.348
昷	-12.348
蹌	-12.348
嬲	-12.3482
𢪿	-12.3482
吅	-12.3482
翾	-12.3482
𢬿	-12.3483
螮	-12.3483
蒐	-12.3484
臟	-12.3484
訃	-12.3486
倕	-12.3486
卅	-12.3487
弇	-12.3487
苣	-12.3488
䒱	-12.349
泌	-12.349
咠	-12.3491
悃	-12.3492
璋	-12.3493
齪	-12.3493
珞	-12.3496
諡	-12.3501
慵	-12.3502
辵	-12.3617
广	-12.3672
杆	-12.376
鼷	-12.3766
擳	-12.3767
䬃	-12.3768
椰	-12.3768
忉	-12.377
𢯯	-12.377
殀	-12.377
廐	-12.3771
齓	-12.3772
僖	-12.3773
懦	-12.3773
涶	-12.3774
鏕	-12.3774
𣾫	-12.3775
􄿊	-12.3775
􂔕	-12.3776
髡	-12.3776
矍	-12.3778
吕	-12.3778
疚	-12.3778
孜	-12.3778
襤	-12.3778
𣛰	-12.3779
篩	-12.378
戡	-12.378
丳	-12.3781
𤳖	-12.3781
譌	-12.3782
腊	-12.3782
𩧐	-12.3782
忮	-12.3782
泝	-12.3783
忸	-12.3783
憣	-12.3783
瓛	-12.3783
濼	-12.3783
𢬘	-12.3783
蹵	-12.3783
𠻬	-12.3784
閴	-12.3784
氤	-12.3784
蝪	-12.3784
𣏌	-12.3785
i	-12.3785
忱	-12.3786
縆	-12.3786
柧	-12.3786
軋	-12.3786
圌	-12.3786
幰	-12.3787
扃	-12.3787
蝣	-12.3788
呫	-12.3788
虓	-12.379
繄	-12.3791
縳	-12.3791
夒	-12.3792
夗	-12.3793
恂	-12.3794
藟	-12.3794
隼	-12.3796
斵	-12.3798
睘	-12.3799
戞	-12.3799
霰	-12.3803
㐬	-12.3803
4	-12.3821
庌	-12.4078
𠷐	-12.4079
喍	-12.4084
瀁	-12.4084
彷	-12.4084
􃝲	-12.4084
􃚟	-12.4085
踦	-12.4086
􄑌	-12.4086
𠢕	-12.4087
庿	-12.4088
􂗩	-12.4088
颻	-12.4088
妐	-12.4089
糾	-12.4089
臰	-12.4089
欷	-12.4089
庰	-12.4091
冋	-12.4091
賸	-12.4091
訢	-12.4091
膌	-12.4092
佃	-12.4092
廗	-12.4092
𢼜	-12.4092
隗	-12.4092
砰	-12.4092
愔	-12.4093
墎	-12.4094
􂴎	-12.4095
蚓	-12.4095
㬥	-12.4095
𢯇	-12.4096
紗	-12.4096
庳	-12.4096
鴞	-12.4096
葙	-12.4096
韭	-12.4097
􄒇	-12.4097
􃙮	-12.4098
澠	-12.4098
濆	-12.4099
斟	-12.4099
頜	-12.41
斕	-12.41
柎	-12.4101
囷	-12.4101
甍	-12.4101
劵	-12.4101
㥯	-12.4102
楫	-12.4102
䋈	-12.4104
郵	-12.4104
淊	-12.4104
藜	-12.4105
蜹	-12.4107
筑	-12.4107
竆	-12.4108
猋	-12.4108
㗊	-12.4108
逡	-12.411
夆	-12.411
𡋯	-12.4112
玻	-12.4112
綦	-12.4113
崒	-12.4117
瓏	-12.4119
卍	-12.4122
蚕	-12.4345
頇	-12.4397
𡝩	-12.4398
㷮	-12.4404
熇	-12.4404
鳶	-12.4405
䅽	-12.4405
𡚁	-12.4405
􂓢	-12.4405
􃚰	-12.4406
惴	-12.4406
挓	-12.4406
斸	-12.4406
枮	-12.4407
䞯	-12.4407
𤴨	-12.4407
鑷	-12.4408
囗	-12.4408
㷔	-12.4408
闋	-12.4409
􂪕	-12.441
涘	-12.4411
㧺	-12.4412
扡	-12.4412
𢬃	-12.4412
圯	-12.4412
敧	-12.4412
竚	-12.4412
魘	-12.4413
挼	-12.4413
䋄	-12.4414
諀	-12.4414
仿	-12.4415
瘴	-12.4415
畎	-12.4415
橃	-12.4415
襆	-12.4415
刾	-12.4416
惷	-12.4416
鄯	-12.4416
獠	-12.4417
朦	-12.4417
醘	-12.4417
偫	-12.4417
䠒	-12.4417
㲂	-12.4417
偘	-12.4418
籃	-12.4418
m	-12.4418
髄	-12.4418
蝩	-12.4418
幞	-12.4419
㼾	-12.4419
􄒜	-12.4419
𥎀	-12.4419
眂	-12.442
􄞀	-12.442
殸	-12.4421
翎	-12.4421
涪	-12.4422
氶	-12.4422
窅	-12.4423
裠	-12.4423
鏵	-12.4423
儁	-12.4423
檛	-12.4424
嶂	-12.4424
滾	-12.4424
韏	-12.4425
沬	-12.4425
畒	-12.4426
厶	-12.4427
瞙	-12.4428
滬	-12.4428
漪	-12.443
􂔘	-12.443
亰	-12.4431
晻	-12.4432
淘	-12.4433
嫂	-12.4434
敄	-12.4435
曦	-12.4436
丰	-12.4437
徊	-12.4438
5	-12.4452
莧	-12.4718
憔	-12.4728
臊	-12.4731
鏇	-12.4734
讋	-12.4735
瑙	-12.4735
諶	-12.4736
簉	-12.4736
􂢄	-12.4737
掞	-12.4739
􂪣	-12.4739
摙	-12.474
膂	-12.474
褅	-12.474
荑	-12.4741
𧄜	-12.4742
勱	-12.4742
憹	-12.4743
瀹	-12.4743
狷	-12.4744
􄏘	-12.4744
㺃	-12.4745
􂩲	-12.4745
踖	-12.4745
鳫	-12.4745
齶	-12.4746
苓	-12.4746
梐	-12.4747
杴	-12.4747
蕘	-12.4748
𥞩	-12.4749
捥	-12.4749
𩑬	-12.475
聃	-12.475
詆	-12.475
蝀	-12.475
蕈	-12.475
𠚏	-12.4751
剠	-12.4751
匂	-12.4751
溲	-12.4752
闤	-12.4752
玦	-12.4752
稊	-12.4752
紩	-12.4752
𡄇	-12.4753
襯	-12.4753
縉	-12.4754
塑	-12.4754
猊	-12.4754
戉	-12.4754
鵾	-12.4754
啐	-12.4755
彛	-12.4755
愾	-12.4756
恀	-12.4756
舓	-12.4756
愀	-12.4757
頥	-12.4757
兊	-12.4758
逖	-12.4758
蜃	-12.4759
𢇛	-12.476
捿	-12.4761
滎	-12.4761
劦	-12.4761
𢌞	-12.4762
棃	-12.4762
蜯	-12.4762
岷	-12.4764
枸	-12.4764
酇	-12.4764
蹟	-12.4769
体	-12.505
㤥	-12.5067
阬	-12.5073
𣧑	-12.5076
囹	-12.508
䫃	-12.5082
麂	-12.5082
蛛	-12.5083
枑	-12.5085
𦚻	-12.5086
肓	-12.5087
聟	-12.5087
澌	-12.5087
渃	-12.5088
厩	-12.509
崟	-12.509
漭	-12.509
蠉	-12.509
𤬪	-12.5091
釗	-12.5091
􄟣	-12.5091
謏	-12.5092
飰	-12.5092
嗛	-12.5092
𨑲	-12.5092
𣱦	-12.5093
𣧩	-12.5093
汭	-12.5093
鈕	-12.5093
垽	-12.5094
g	-12.5095
賻	-12.5095
堦	-12.5095
刓	-12.5096
愊	-12.5096
凜	-12.5096
壟	-12.5096
貂	-12.5097
雛	-12.5097
懞	-12.5098
礓	-12.5098
澥	-12.5099
儗	-12.5099
馽	-12.5099
蜉	-12.5099
鬬	-12.5099
吱	-12.5099
麛	-12.51
僃	-12.51
簧	-12.5101
搉	-12.5101
栲	-12.5101
㵱	-12.5102
牴	-12.5102
貣	-12.5103
亐	-12.5103
麃	-12.5104
襻	-12.5104
𠁊	-12.5104
憊	-12.5105
騣	-12.5106
㖾	-12.5106
畐	-12.5106
篨	-12.5106
冫	-12.5107
旰	-12.5108
阝	-12.5108
跰	-12.5108
儘	-12.5113
冺	-12.5133
𢍶	-12.5433
恌	-12.5437
齟	-12.5439
𣦢	-12.5441
卛	-12.5443
忛	-12.5443
諄	-12.5443
苷	-12.5444
蘄	-12.5444
闠	-12.5444
昳	-12.5445
㑦	-12.5445
􃙝	-12.5445
㧌	-12.5446
勛	-12.5446
陗	-12.5447
􂐗	-12.5447
鰐	-12.5447
䆘	-12.5447
膀	-12.5447
窬	-12.5448
澒	-12.5449
軼	-12.5449
憮	-12.5449
𦠍	-12.545
妉	-12.545
軓	-12.5451
踢	-12.5451
円	-12.5451
搹	-12.5451
葳	-12.5451
嵫	-12.5451
鉸	-12.5452
蜓	-12.5452
顉	-12.5452
嶔	-12.5452
𨅊	-12.5453
􄗌	-12.5453
酖	-12.5453
垛	-12.5454
伈	-12.5454
櫪	-12.5454
㞢	-12.5455
糝	-12.5455
瘥	-12.5455
滷	-12.5455
跼	-12.5455
霾	-12.5456
觴	-12.5457
豌	-12.5457
骼	-12.5457
摯	-12.5457
茜	-12.5457
勣	-12.5458
𩅢	-12.5458
瑯	-12.5459
輓	-12.5459
廈	-12.546
槧	-12.546
蝘	-12.5461
甹	-12.5461
􃙚	-12.5462
潼	-12.5462
𩥵	-12.5462
髯	-12.5464
𢩁	-12.5464
貼	-12.5464
衖	-12.5465
鞏	-12.5466
􂪰	-12.5468
甿	-12.5472
㐱	-12.5474
佺	-12.5476
鸚	-12.58
㿃	-12.5802
柈	-12.5805
𦙽	-12.5806
釭	-12.5808
􄒑	-12.5809
搨	-12.581
􄙎	-12.581
眦	-12.5811
抲	-12.5811
瓣	-12.5811
忨	-12.5813
筴	-12.5814
羿	-12.5814
餟	-12.5814
縢	-12.5814
􃦃	-12.5815
𡍩	-12.5815
㪶	-12.5815
瘭	-12.5816
儴	-12.5816
𩗺	-12.5816
譡	-12.5816
􃥲	-12.5817
圿	-12.5817
餞	-12.5818
輯	-12.5818
蛉	-12.5819
漩	-12.5819
躕	-12.582
𡩷	-12.582
仔	-12.582
曛	-12.582
橈	-12.5821
𢇇	-12.5821
囒	-12.5821
𦂝	-12.5822
綣	-12.5822
購	-12.5822
荾	-12.5822
鷁	-12.5822
莘	-12.5822
醴	-12.5823
愵	-12.5824
縚	-12.5824
汧	-12.5825
璺	-12.5825
蛣	-12.5825
泜	-12.5826
蚳	-12.5826
棰	-12.5827
澮	-12.5827
坳	-12.5828
鄜	-12.5828
陴	-12.5829
緲	-12.5829
𡗢	-12.5829
蒺	-12.5829
猱	-12.5829
幄	-12.583
憃	-12.583
𢦵	-12.583
狁	-12.583
苲	-12.583
衙	-12.583
榖	-12.5831
肙	-12.5831
貇	-12.5832
𥑐	-12.5833
殨	-12.5834
𢆶	-12.5834
詑	-12.5835
勔	-12.5836
豳	-12.5837
窆	-12.5837
鍫	-12.5838
瑘	-12.5838
岠	-12.5839
𡧯	-12.5844
𣈆	-12.5844
鐆	-12.5848
𨛋	-12.5851
𠑽	-12.5852
􂓇	-12.6186
𦨣	-12.6189
燌	-12.6191
􂌴	-12.6192
珥	-12.6192
靷	-12.6193
緂	-12.6193
頊	-12.6193
窕	-12.6194
賝	-12.6194
仄	-12.6195
𩇕	-12.6195
浡	-12.6196
蹻	-12.6196
􄓫	-12.6196
𧯞	-12.6196
􃛻	-12.6197
蹰	-12.6197
𢾊	-12.6197
眤	-12.6198
嶸	-12.6198
顱	-12.6199
惘	-12.6199
祟	-12.6199
􄛆	-12.6201
𢡼	-12.6201
涱	-12.6201
􃥇	-12.6201
唬	-12.6202
悝	-12.6202
覡	-12.6203
􄓑	-12.6203
輥	-12.6203
􃛊	-12.6204
𡊅	-12.6204
詺	-12.6205
𣮧	-12.6206
儆	-12.6206
瘜	-12.6206
誾	-12.6206
櫃	-12.6207
呀	-12.6207
呺	-12.6207
靤	-12.6207
逶	-12.6207
坥	-12.6208
漣	-12.6208
堛	-12.6208
𠁁	-12.6209
􃥢	-12.6209
齘	-12.621
樑	-12.6211
侜	-12.6211
澧	-12.6211
哿	-12.6211
崦	-12.6211
翛	-12.6212
䑛	-12.6212
賷	-12.6212
𧷤	-12.6212
餙	-12.6213
炁	-12.6214
盱	-12.6215
銑	-12.6215
濠	-12.6216
詡	-12.6216
臤	-12.6217
𦬆	-12.6219
挲	-12.622
兌	-12.6221
胳	-12.6221
𢖍	-12.6221
脃	-12.6222
玁	-12.6222
黐	-12.6222
朁	-12.6224
􃫷	-12.6225
丣	-12.6226
熛	-12.6227
歘	-12.6231
翱	-12.6232
􂍗	-12.6561
呤	-12.6582
坁	-12.6586
焣	-12.6587
尟	-12.6589
𨥌	-12.659
舄	-12.659
姖	-12.6591
徨	-12.6592
掏	-12.6592
𠙽	-12.6592
㝯	-12.6593
𨵦	-12.6594
覦	-12.6597
遰	-12.6597
鶿	-12.6597
㧓	-12.6598
簣	-12.6599
羺	-12.6599
粕	-12.66
忼	-12.66
㓞	-12.6601
<	-12.6601
睚	-12.6601
絁	-12.6602
樔	-12.6602
𢆰	-12.6603
㓝	-12.6604
粧	-12.6604
𤦲	-12.6605
袜	-12.6605
抍	-12.6606
檄	-12.6606
𣊵	-12.6606
黝	-12.6606
淬	-12.6607
𧴲	-12.6607
籧	-12.6607
塟	-12.6607
𩑶	-12.6607
訒	-12.6607
𤡜	-12.6608
諵	-12.6608
磓	-12.6609
􃫩	-12.6609
梪	-12.6609
寗	-12.661
瓚	-12.661
蘋	-12.661
蠣	-12.661
鐷	-12.6611
陬	-12.6611
葫	-12.6611
靦	-12.6611
櫳	-12.6611
苜	-12.6611
姡	-12.6611
􂲅	-12.6611
𨗿	-12.6611
膈	-12.6612
貙	-12.6612
穟	-12.6613
雩	-12.6614
蚔	-12.6614
蕑	-12.6614
􃪽	-12.6614
瞰	-12.6615
𣑭	-12.6615
𥸮	-12.6615
睎	-12.6615
𣪠	-12.6616
䊸	-12.6618
丵	-12.6619
疹	-12.6619
腆	-12.662
毚	-12.662
觔	-12.6621
湑	-12.6622
剏	-12.6622
遝	-12.6622
􂻨	-12.6625
倭	-12.6633
肨	-12.6633
弒	-12.6639
6	-12.6639
𩔗	-12.6642
]	-12.665
掀	-12.6998
惏	-12.7
唶	-12.7003
𦒡	-12.7003
坵	-12.7004
𤁷	-12.7006
芧	-12.7007
鵁	-12.7008
褶	-12.7008
㽄	-12.7009
䶗	-12.7009
倢	-12.7009
馹	-12.7009
鷗	-12.701
㯹	-12.7012
爕	-12.7013
癇	-12.7014
軔	-12.7014
塋	-12.7014
擑	-12.7014
㧗	-12.7015
垜	-12.7016
䩙	-12.7016
螉	-12.7016
荔	-12.7017
搸	-12.7017
隒	-12.7017
柚	-12.7018
鏝	-12.7018
馝	-12.7019
菆	-12.7019
􂍔	-12.7019
竸	-12.7019
儌	-12.7019
瘞	-12.702
靿	-12.702
𡂠	-12.702
胇	-12.702
􃢆	-12.702
𡐊	-12.7021
𩓙	-12.7021
柢	-12.7021
妥	-12.7021
齝	-12.7021
踠	-12.7021
饜	-12.7022
溘	-12.7022
邐	-12.7022
嵎	-12.7022
倓	-12.7023
寙	-12.7023
启	-12.7024
竽	-12.7024
氍	-12.7024
𧈪	-12.7024
跬	-12.7025
𪾼	-12.7026
𣫆	-12.7026
𥯤	-12.7026
瑛	-12.7026
趠	-12.7027
呦	-12.7028
玅	-12.7028
葌	-12.7028
矮	-12.7028
鞊	-12.7028
䢼	-12.7029
噑	-12.7029
薉	-12.703
𡱤	-12.7031
襃	-12.7032
蟭	-12.7033
𦙄	-12.7033
鮫	-12.7033
嗘	-12.7033
㹅	-12.7034
斒	-12.7034
𧴪	-12.7034
䦧	-12.7034
焜	-12.7035
袵	-12.7035
鸎	-12.7036
鐏	-12.7036
麚	-12.7036
𣣋	-12.7036
𨥥	-12.7037
㴱	-12.7037
㪷	-12.7037
鷖	-12.7038
雔	-12.704
岩	-12.704
絪	-12.7042
馘	-12.7042
帬	-12.7042
錚	-12.7043
槎	-12.7043
􃰺	-12.7047
􄊪	-12.7049
歭	-12.7055
㘑	-12.7071
䖵	-12.7338
紬	-12.7414
迕	-12.7436
邲	-12.7441
㾽	-12.7442
蟆	-12.7443
䍧	-12.7444
㧙	-12.7445
扟	-12.7445
􃝿	-12.7445
嫪	-12.7446
姒	-12.7446
鋡	-12.7447
𠺕	-12.7447
涑	-12.7447
虻	-12.7447
蟥	-12.7448
捦	-12.7448
縺	-12.7449
腠	-12.7449
韛	-12.745
倝	-12.745
儕	-12.745
抶	-12.745
簀	-12.7451
􃚐	-12.7452
抌	-12.7452
𦖟	-12.7452
􂪯	-12.7452
㶿	-12.7453
沚	-12.7453
榰	-12.7453
𦆠	-12.7453
餽	-12.7454
𨋁	-12.7454
鉏	-12.7454
㨹	-12.7454
蒀	-12.7454
笯	-12.7455
灸	-12.7455
氾	-12.7455
𩿒	-12.7456
琉	-12.7456
銼	-12.7457
踳	-12.7457
痃	-12.7458
謩	-12.7458
􄿝	-12.7459
𢧵	-12.7459
跏	-12.7459
剸	-12.7459
忓	-12.7459
递	-12.7459
㤄	-12.746
紈	-12.746
櫻	-12.7461
􂚎	-12.7461
癵	-12.7461
墌	-12.7462
􂛩	-12.7462
衮	-12.7462
喈	-12.7462
禧	-12.7463
瑗	-12.7463
胖	-12.7464
湄	-12.7464
晣	-12.7464
妤	-12.7465
醪	-12.7465
婕	-12.7465
壠	-12.7466
蒂	-12.7466
𡭽	-12.7467
狌	-12.7467
汨	-12.7467
蔟	-12.7467
乇	-12.7468
鄲	-12.7468
栱	-12.7468
愎	-12.7468
喭	-12.747
壴	-12.747
楸	-12.747
虢	-12.7471
咍	-12.7471
銸	-12.7472
賫	-12.7472
鍋	-12.7472
縓	-12.7473
峩	-12.7473
轔	-12.7474
󳌤	-12.7475
緤	-12.7475
㠀	-12.7475
鍤	-12.7476
䠶	-12.7476
𦫀	-12.7476
羑	-12.7477
袨	-12.7478
溦	-12.748
鴳	-12.7481
尌	-12.7482
俙	-12.7485
醲	-12.7487
3	-12.7493
𥝷	-12.7523
㝱	-12.7882
慷	-12.7885
栟	-12.7886
靉	-12.7887
轆	-12.7887
紖	-12.7891
椅	-12.7893
揳	-12.7894
𠒃	-12.7895
咻	-12.7895
􄘁	-12.7897
聹	-12.7898
𤛆	-12.7899
瘕	-12.7899
胲	-12.7899
擋	-12.79
颿	-12.7901
跑	-12.7901
肕	-12.7901
儩	-12.7901
棍	-12.7902
􃤈	-12.7902
毹	-12.7902
嵠	-12.7902
羠	-12.7903
𧀧	-12.7903
筍	-12.7903
湌	-12.7903
摎	-12.7904
屧	-12.7904
佂	-12.7904
􄞉	-12.7904
珀	-12.7904
𥌎	-12.7904
柝	-12.7904
􂍺	-12.7905
捅	-12.7905
琁	-12.7905
瀸	-12.7906
㧋	-12.7906
扳	-12.7906
膍	-12.7906
閶	-12.7906
姢	-12.7907
薈	-12.7907
艇	-12.7907
飃	-12.7908
𡍭	-12.7908
𣰅	-12.7908
􄗜	-12.7908
噆	-12.7909
菱	-12.791
闑	-12.791
蠓	-12.791
溶	-12.791
𢮓	-12.791
􂪒	-12.791
蒢	-12.7911
阨	-12.7911
僈	-12.7911
藷	-12.7911
詬	-12.7911
􃙡	-12.7911
楮	-12.7911
拚	-12.7911
贏	-12.7912
𧘂	-12.7912
誙	-12.7913
錮	-12.7913
𦮽	-12.7913
㕧	-12.7913
茘	-12.7913
踹	-12.7913
􄚐	-12.7915
㹠	-12.7915
秕	-12.7915
詅	-12.7915
囋	-12.7916
狻	-12.7916
鞙	-12.7916
崿	-12.7917
塿	-12.7917
􃢱	-12.7918
鸝	-12.7919
𨱞	-12.7919
彝	-12.792
悆	-12.792
誶	-12.792
樟	-12.7921
暘	-12.7921
癕	-12.7922
𧎔	-12.7922
􃫸	-12.7923
榍	-12.7924
陲	-12.7924
槨	-12.7924
䲷	-12.7925
牋	-12.7925
歔	-12.7926
哇	-12.7927
辡	-12.7927
訑	-12.7927
鑹	-12.7927
贓	-12.7928
胾	-12.7928
𤿺	-12.793
厘	-12.793
蟁	-12.793
𠢧	-12.7931
㚘	-12.7932
脰	-12.7932
憜	-12.7933
黻	-12.7935
𦼮	-12.7939
荳	-12.794
薗	-12.7943
从	-12.7946
􂢈	-12.8366
􃢢	-12.8368
瑪	-12.8369
瓤	-12.8371
梀	-12.8371
蛔	-12.8372
蒹	-12.8373
汱	-12.8373
𨵵	-12.8374
籕	-12.8374
糗	-12.8375
􅈄	-12.8375
􂎔	-12.8376
𪇔	-12.8376
櫌	-12.8377
輶	-12.8377
搢	-12.8377
筫	-12.8377
橑	-12.8377
𧂄	-12.8378
鞫	-12.8379
湲	-12.838
酗	-12.838
堇	-12.838
鎞	-12.8381
㨊	-12.8381
靨	-12.8381
怍	-12.8381
帒	-12.8383
𤚥	-12.8383
􂑃	-12.8384
嗒	-12.8384
儡	-12.8385
髂	-12.8385
蛕	-12.8385
娣	-12.8385
𧧂	-12.8385
葐	-12.8385
􂌸	-12.8386
􃘶	-12.8386
怩	-12.8386
􂘒	-12.8386
儱	-12.8386
𦷢	-12.8386
蜽	-12.8387
憿	-12.8387
嚨	-12.8387
篠	-12.8387
阡	-12.8388
螈	-12.8388
笐	-12.8388
旈	-12.8388
𧵤	-12.8388
蜿	-12.8389
䠊	-12.8389
笇	-12.8389
魃	-12.8389
柲	-12.8389
臉	-12.8389
駙	-12.8389
竢	-12.839
僣	-12.839
悰	-12.839
􂈀	-12.839
嚂	-12.839
抦	-12.839
痠	-12.839
恇	-12.839
娵	-12.839
謣	-12.8391
琊	-12.8391
磾	-12.8391
茄	-12.8391
獯	-12.8392
趯	-12.8392
暍	-12.8392
𡨧	-12.8392
娙	-12.8393
鶚	-12.8393
鴰	-12.8393
𧬊	-12.8393
鵞	-12.8393
𠾱	-12.8393
𩬊	-12.8393
𠜨	-12.8394
焯	-12.8394
􃙫	-12.8396
㐲	-12.8396
愻	-12.8396
肫	-12.8396
堺	-12.8397
𤝔	-12.8397
摺	-12.8398
仵	-12.8398
嚥	-12.8398
𢓈	-12.8398
暕	-12.8398
邯	-12.8399
譫	-12.8399
埒	-12.8399
煼	-12.8399
瑑	-12.84
憕	-12.84
綘	-12.84
㮆	-12.84
棑	-12.8401
慺	-12.8402
靃	-12.8402
耴	-12.8402
爯	-12.8403
罅	-12.8403
俜	-12.8404
渕	-12.8405
桼	-12.8405
𦧇	-12.8405
鈐	-12.8405
苴	-12.8409
𥿳	-12.841
𧶝	-12.841
㜸	-12.8412
麕	-12.8412
㡭	-12.8417
t	-12.8421
7	-12.8422
閦	-12.8843
蝟	-12.8868
牂	-12.8871
殑	-12.8872
蝥	-12.8873
􄑸	-12.8873
枙	-12.8874
櫼	-12.8875
𠯞	-12.8876
夥	-12.8876
𨦟	-12.8877
暠	-12.8877
嗉	-12.8878
豔	-12.8878
搬	-12.8878
橦	-12.8878
牎	-12.8879
芺	-12.8879
莓	-12.8879
倀	-12.8879
痱	-12.888
佶	-12.888
甦	-12.888
􄯑	-12.888
壼	-12.888
噁	-12.888
𢹂	-12.888
覯	-12.8881
姐	-12.8881
㿲	-12.8881
茷	-12.8882
勖	-12.8882
􄡖	-12.8882
㩌	-12.8882
胮	-12.8882
䴏	-12.8883
啤	-12.8883
菚	-12.8883
蜆	-12.8883
謵	-12.8883
痆	-12.8883
㓣	-12.8883
峒	-12.8883
𧋍	-12.8884
𡨥	-12.8884
淼	-12.8884
霎	-12.8884
遴	-12.8885
咦	-12.8886
彐	-12.8887
軬	-12.8887
􄡨	-12.8887
䕑	-12.8887
莒	-12.8887
毼	-12.8888
齠	-12.8888
𠗦	-12.8888
爬	-12.8889
𤼣	-12.8889
栓	-12.8889
牕	-12.8889
擥	-12.889
犗	-12.889
鉦	-12.8891
褾	-12.8891
肜	-12.8891
呃	-12.8891
䛴	-12.8891
殠	-12.8891
巤	-12.8891
穾	-12.8891
𨹃	-12.8891
悎	-12.8892
蓿	-12.8892
𥥆	-12.8892
瀟	-12.8892
笱	-12.8892
旐	-12.8893
𧿟	-12.8893
寞	-12.8893
柒	-12.8893
篙	-12.8893
蹂	-12.8894
𣹉	-12.8895
戩	-12.8895
粈	-12.8895
𢗌	-12.8896
蠛	-12.8896
𧙃	-12.8897
煤	-12.8897
騶	-12.8898
甓	-12.8898
洙	-12.8898
歒	-12.8898
淥	-12.8899
齷	-12.8899
鞇	-12.8899
坯	-12.8899
䆿	-12.8901
麫	-12.8901
宦	-12.8901
亼	-12.8901
孺	-12.8901
䏺	-12.8901
􃩻	-12.8901
𦪑	-12.8902
㫃	-12.8903
瀲	-12.8903
筥	-12.8903
蓆	-12.8903
軿	-12.8905
㹤	-12.8905
怤	-12.8905
𧷓	-12.8906
隶	-12.8906
𠹈	-12.8907
屮	-12.8909
鰓	-12.891
烘	-12.891
飇	-12.8911
㪅	-12.8912
㞋	-12.8912
𤚲	-12.8913
􂌡	-12.8913
隦	-12.8915
r	-12.8922
宀	-12.9241
𤗊	-12.929
鐎	-12.939
搰	-12.9392
𦶇	-12.9392
斾	-12.9394
狖	-12.9394
欀	-12.9395
𠲎	-12.9395
𩑌	-12.9395
儸	-12.9398
筈	-12.9398
㒒	-12.9398
圇	-12.9398
巽	-12.9399
抅	-12.9401
灆	-12.9401
㼚	-12.9402
凭	-12.9403
忡	-12.9403
鄱	-12.9403
􅍶	-12.9404
揃	-12.9405
齏	-12.9405
呱	-12.9406
邳	-12.9406
跘	-12.9406
釪	-12.9406
䗈	-12.9406
􄝣	-12.9406
逭	-12.9407
𥂖	-12.9407
瘇	-12.9407
𢢣	-12.9407
􅔅	-12.9408
馞	-12.9408
𥥌	-12.9408
𠰸	-12.9408
𣵠	-12.9409
愙	-12.9409
毆	-12.941
𧶜	-12.941
欂	-12.941
囕	-12.941
倘	-12.941
醼	-12.941
鶘	-12.9411
𧵍	-12.9411
蘸	-12.9411
𣨙	-12.9411
醻	-12.9411
䈥	-12.9411
糴	-12.9412
𨩲	-12.9412
䡰	-12.9413
詘	-12.9413
絍	-12.9413
𩎽	-12.9413
沁	-12.9414
㨑	-12.9414
鴝	-12.9414
雝	-12.9414
􃝡	-12.9414
捾	-12.9415
淭	-12.9415
燖	-12.9416
嚀	-12.9416
胱	-12.9416
𣰽	-12.9416
畯	-12.9416
蜒	-12.9416
殽	-12.9417
􄦽	-12.9417
胘	-12.9417
鐮	-12.9417
謶	-12.9417
蜾	-12.9417
𧈭	-12.9418
蕇	-12.9418
朚	-12.9418
㬉	-12.9418
焴	-12.9419
媯	-12.9419
𢪺	-12.9419
熢	-12.9419
螂	-12.9419
葚	-12.9419
徬	-12.942
柹	-12.942
籙	-12.942
槾	-12.942
樁	-12.942
靶	-12.942
薅	-12.942
𧒣	-12.942
蕂	-12.9421
堡	-12.9421
凷	-12.9421
畛	-12.9421
巇	-12.9421
嬴	-12.9421
疐	-12.9422
𢠽	-12.9422
禘	-12.9422
异	-12.9422
瀰	-12.9422
飊	-12.9422
馗	-12.9423
稭	-12.9423
愐	-12.9423
闉	-12.9424
猢	-12.9424
嫈	-12.9425
骰	-12.9426
蓱	-12.9426
甃	-12.9426
纑	-12.9427
剞	-12.9427
𣀙	-12.9427
𨒦	-12.9427
滏	-12.9428
獮	-12.9428
幺	-12.9428
逷	-12.9429
螕	-12.9429
睆	-12.943
茇	-12.943
𨀗	-12.9431
祅	-12.9432
􃳫	-12.9433
𦣞	-12.9433
瞀	-12.9434
鍠	-12.9435
幀	-12.9435
尢	-12.9437
猲	-12.9438
刂	-12.9439
䠋	-12.944
炯	-12.9442
嘙	-12.9442
𧰃	-12.9928
啀	-12.9944
轤	-12.9945
葡	-12.9945
𠥶	-12.9946
掎	-12.9946
梲	-12.9951
𥀷	-12.9951
峪	-12.9951
球	-12.9953
搣	-12.9953
縗	-12.9953
䛬	-12.9953
竉	-12.9955
鈸	-12.9955
术	-12.9956
葴	-12.9957
颼	-12.9957
咏	-12.9958
糇	-12.9958
鄠	-12.9959
軨	-12.9959
呷	-12.9959
吶	-12.996
桔	-12.996
𠷰	-12.996
鞦	-12.996
掁	-12.9961
襦	-12.9961
瞶	-12.9961
𦠌	-12.9962
媛	-12.9962
曏	-12.9963
𤲶	-12.9963
𣯟	-12.9963
􃪞	-12.9963
齵	-12.9964
𥞫	-12.9965
觱	-12.9965
楴	-12.9965
韒	-12.9965
𤺊	-12.9965
鷯	-12.9966
𧏦	-12.9966
燂	-12.9966
芰	-12.9967
矒	-12.9967
􃫊	-12.9967
㲹	-12.9967
糲	-12.9967
歕	-12.9967
㥽	-12.9968
菼	-12.9969
孾	-12.9969
譮	-12.9969
蹡	-12.9969
𧓵	-12.9969
􄑯	-12.9969
噲	-12.9969
㭼	-12.9969
咶	-12.997
亳	-12.997
糂	-12.9971
醭	-12.9971
鮓	-12.9972
挱	-12.9972
蠐	-12.9972
萁	-12.9972
綩	-12.9972
顥	-12.9973
狢	-12.9973
硋	-12.9973
摓	-12.9973
槿	-12.9973
膖	-12.9973
㕹	-12.9974
傖	-12.9974
甾	-12.9974
􃵔	-12.9974
紜	-12.9975
珩	-12.9975
嚊	-12.9975
贄	-12.9975
䏲	-12.9975
􂔇	-12.9975
赩	-12.9976
楓	-12.9976
􄾭	-12.9976
玼	-12.9976
邢	-12.9976
杠	-12.9977
櫬	-12.9977
气	-12.9977
詿	-12.9977
睥	-12.9978
𩣺	-12.9978
䋾	-12.9978
𣦻	-12.9978
䞉	-12.9979
撑	-12.9979
灣	-12.998
嘁	-12.9981
珽	-12.9981
􃫞	-12.9982
靠	-12.9982
𠯋	-12.9982
崱	-12.9983
􂢏	-12.9983
皦	-12.9983
𤀹	-12.9983
唫	-12.9984
劾	-12.9985
麀	-12.9985
拌	-12.9985
䖶	-12.9986
唉	-12.9986
嫇	-12.9986
覶	-12.9988
翄	-12.9989
擕	-12.999
綉	-12.9991
勰	-12.9991
𤔔	-12.9993
裊	-12.9996
蚡	-12.9998
肻	-13
逍	-13.0002
𧉨	-13.0499
蹭	-13.0525
顦	-13.0529
薝	-13.0532
􄕦	-13.0537
攲	-13.0537
啝	-13.0537
褸	-13.0539
􄏞	-13.054
鼬	-13.0542
䍽	-13.0543
飭	-13.0543
㘓	-13.0543
餹	-13.0544
詷	-13.0544
棬	-13.0544
炅	-13.0545
沲	-13.0545
𨀸	-13.0545
儛	-13.0545
熨	-13.0546
胅	-13.0546
秬	-13.0546
嗄	-13.0547
祏	-13.0547
倅	-13.0547
摚	-13.0548
碗	-13.0548
鋑	-13.0548
詀	-13.0549
彯	-13.0549
閥	-13.0549
𢇲	-13.055
仂	-13.055
埸	-13.0551
𣯫	-13.0551
𨎶	-13.0551
蘃	-13.0551
𡊤	-13.0551
歃	-13.0551
樐	-13.0552
饔	-13.0552
𥕤	-13.0552
恾	-13.0552
鮎	-13.0552
頏	-13.0553
瑇	-13.0553
􃘥	-13.0553
摐	-13.0553
􄑏	-13.0554
扭	-13.0554
秆	-13.0554
鑯	-13.0554
襖	-13.0554
薁	-13.0555
顀	-13.0555
􄔥	-13.0555
𩲐	-13.0555
􅏔	-13.0555
䞘	-13.0555
礰	-13.0555
誖	-13.0555
膸	-13.0555
罃	-13.0556
𪊽	-13.0556
䴸	-13.0556
沷	-13.0556
螬	-13.0557
跎	-13.0557
渰	-13.0557
泔	-13.0557
剟	-13.0557
㰤	-13.0557
皼	-13.0558
砢	-13.0558
髣	-13.0558
耋	-13.0558
􃡥	-13.0558
屖	-13.0558
搊	-13.0558
薆	-13.0559
𢱧	-13.0559
蛸	-13.0559
􂜝	-13.0559
􂬔	-13.0559
弆	-13.056
芊	-13.056
醨	-13.056
陖	-13.0561
俣	-13.0561
稞	-13.0561
跤	-13.0561
菢	-13.0562
怫	-13.0562
葶	-13.0562
􃯩	-13.0562
挪	-13.0562
􂑱	-13.0562
痋	-13.0562
􃙞	-13.0562
柙	-13.0563
殻	-13.0563
耜	-13.0563
䯇	-13.0563
􃞙	-13.0563
𠛠	-13.0563
𪒠	-13.0563
𦞦	-13.0564
􃗵	-13.0564
紱	-13.0564
蠩	-13.0564
劂	-13.0565
鶵	-13.0565
阸	-13.0565
皡	-13.0565
皵	-13.0566
兾	-13.0566
𢫫	-13.0566
㳬	-13.0566
嵸	-13.0566
渦	-13.0566
璵	-13.0566
膭	-13.0567
緋	-13.0567
柣	-13.0567
𣏋	-13.0568
匽	-13.0568
罘	-13.0568
􃆩	-13.0568
匋	-13.0569
軆	-13.057
𢥠	-13.057
蕚	-13.0571
蟪	-13.0571
䭷	-13.0571
佻	-13.0573
􃫻	-13.0574
憓	-13.0575
汬	-13.0576
𪍑	-13.0576
𢦏	-13.0576
􃫫	-13.0577
𣄆	-13.0577
􃡖	-13.0578
錥	-13.0578
硯	-13.0578
潞	-13.0579
賏	-13.0579
𧗳	-13.0579
覀	-13.058
菑	-13.0586
扺	-13.1146
𦡕	-13.1153
挭	-13.1155
《	-13.1156
眨	-13.1157
哊	-13.1159
韅	-13.1159
􃠤	-13.1162
歱	-13.1163
崤	-13.1165
礧	-13.1165
鍐	-13.1165
牻	-13.1167
㗌	-13.1168
茯	-13.1168
鵒	-13.1168
袷	-13.1168
馚	-13.1169
潸	-13.1169
㩻	-13.117
􂌰	-13.1171
廠	-13.1171
簦	-13.1171
𩑔	-13.1172
𦕓	-13.1172
喐	-13.1173
衺	-13.1173
橿	-13.1173
䣑	-13.1173
𧑮	-13.1174
醝	-13.1175
纕	-13.1175
蚶	-13.1176
㧻	-13.1176
𠇈	-13.1176
纇	-13.1176
崆	-13.1176
俶	-13.1176
𩦾	-13.1177
縋	-13.1177
糶	-13.1177
蠮	-13.1177
桊	-13.1177
鍭	-13.1177
婫	-13.1177
袘	-13.1177
𢴠	-13.1177
篥	-13.1178
晢	-13.1178
獐	-13.1178
鞀	-13.1179
㹢	-13.1179
􂪮	-13.1179
灡	-13.1179
黳	-13.1179
齆	-13.1179
𠞈	-13.1179
膇	-13.118
歉	-13.118
矅	-13.118
𤺨	-13.118
𤹠	-13.118
㕞	-13.1181
𢶞	-13.1181
褘	-13.1181
綈	-13.1181
迾	-13.1181
椳	-13.1182
齕	-13.1182
傶	-13.1182
滉	-13.1182
濊	-13.1183
蹢	-13.1183
錞	-13.1184
贔	-13.1184
輳	-13.1184
闓	-13.1185
嫚	-13.1185
曅	-13.1186
踪	-13.1187
鷩	-13.1187
􃙷	-13.1187
䨥	-13.1187
䓑	-13.1187
􄦏	-13.1187
儳	-13.1187
㲻	-13.1187
辣	-13.1187
爀	-13.1187
峴	-13.1188
𠹀	-13.1188
䝀	-13.1188
臞	-13.1188
㰍	-13.1188
薹	-13.1188
栘	-13.1189
㗨	-13.1189
芉	-13.1189
婸	-13.119
筬	-13.119
閽	-13.119
蛺	-13.119
叮	-13.119
饐	-13.119
飣	-13.1191
涷	-13.1191
磷	-13.1191
枡	-13.1192
􂰟	-13.1193
偑	-13.1193
賮	-13.1194
臀	-13.1194
桌	-13.1194
􃥾	-13.1195
韙	-13.1196
嗍	-13.1196
𦚭	-13.1197
俈	-13.1197
跉	-13.1197
嚘	-13.1197
粦	-13.1198
袠	-13.1198
献	-13.1198
柷	-13.1199
篹	-13.1199
􃭬	-13.1199
狺	-13.1199
􃙟	-13.1199
􃪏	-13.1199
𧧳	-13.1199
麒	-13.12
鷇	-13.12
㻮	-13.12
褌	-13.12
􃜀	-13.1201
洧	-13.1202
𣶒	-13.1203
乑	-13.1204
禕	-13.1205
蜩	-13.1209
邙	-13.1209
恓	-13.121
圞	-13.121
􂌮	-13.1218
鏦	-13.1224
綃	-13.1812
輠	-13.182
㪻	-13.1821
𤸬	-13.1823
䯉	-13.1827
䑔	-13.1827
杚	-13.1827
𥂁	-13.183
掫	-13.183
傜	-13.1831
櫩	-13.1831
􂒖	-13.1831
䳄	-13.1832
頠	-13.1833
莪	-13.1833
泹	-13.1834
㩫	-13.1834
𧩟	-13.1834
攔	-13.1834
癗	-13.1834
哢	-13.1835
𥬰	-13.1835
潯	-13.1837
䖭	-13.1837
𨽦	-13.1837
鄽	-13.1837
䩸	-13.1837
卝	-13.1837
驩	-13.1837
庱	-13.1837
訙	-13.1837
撦	-13.1837
焇	-13.1838
騗	-13.1838
𠯈	-13.1838
湓	-13.1838
娟	-13.1839
餱	-13.1839
䫫	-13.1839
􃡔	-13.1839
𣐎	-13.184
飱	-13.184
䬫	-13.1841
􂫗	-13.1841
坩	-13.1841
鳺	-13.1841
檳	-13.1841
𢜪	-13.1841
訇	-13.1841
噱	-13.1841
𠸻	-13.1841
𦙚	-13.1841
憭	-13.1841
薇	-13.1841
艥	-13.1842
燻	-13.1843
鐐	-13.1843
螗	-13.1843
𦀟	-13.1843
􄟤	-13.1844
𤍽	-13.1844
贇	-13.1844
偝	-13.1844
礕	-13.1844
􄑭	-13.1844
䍲	-13.1844
躐	-13.1845
瞌	-13.1845
嘅	-13.1845
萼	-13.1845
慫	-13.1845
笭	-13.1845
軷	-13.1845
㧡	-13.1845
榔	-13.1846
饘	-13.1846
皯	-13.1846
􃶲	-13.1846
躲	-13.1846
蔞	-13.1846
浞	-13.1846
𦆝	-13.1846
嶼	-13.1847
賕	-13.1847
粢	-13.1847
𤵇	-13.1847
肶	-13.1847
𧨯	-13.1847
丮	-13.1848
叀	-13.1848
磅	-13.1849
胜	-13.1849
蜍	-13.1849
橖	-13.185
𧮂	-13.185
墡	-13.185
𡊮	-13.185
唻	-13.1851
𠸪	-13.1851
􃱨	-13.1851
膫	-13.1852
旆	-13.1852
𩉥	-13.1852
䳕	-13.1852
𧉻	-13.1852
忄	-13.1853
𤋲	-13.1853
蝝	-13.1853
䟺	-13.1853
厷	-13.1854
𠣏	-13.1854
呶	-13.1854
饙	-13.1854
韀	-13.1855
薺	-13.1855
𦸲	-13.1855
獰	-13.1855
𤇆	-13.1855
藶	-13.1855
屹	-13.1856
扎	-13.1856
𥫱	-13.1857
鋩	-13.1857
㑺	-13.1857
蓞	-13.1857
齰	-13.1857
䠆	-13.1857
摜	-13.1857
罙	-13.1858
鎢	-13.1858
濇	-13.1858
遆	-13.1858
埽	-13.1858
𤯝	-13.1858
䇶	-13.1858
夔	-13.1858
偎	-13.1859
彀	-13.1859
㧧	-13.1859
罫	-13.1859
𡼡	-13.1859
􄯉	-13.186
綢	-13.186
􃑝	-13.186
毾	-13.186
腿	-13.186
斮	-13.1861
𩯭	-13.1862
􃓁	-13.1862
麇	-13.1862
􂎡	-13.1862
𥨊	-13.1862
遦	-13.1863
璆	-13.1863
摝	-13.1863
􂿅	-13.1863
􂛼	-13.1863
漓	-13.1865
𦨕	-13.1865
蚇	-13.1865
孌	-13.1865
𣽨	-13.1866
鋺	-13.1866
毿	-13.1866
𨓍	-13.1866
繈	-13.1866
腂	-13.1867
冪	-13.1868
齮	-13.1868
洼	-13.1869
滃	-13.187
􃼽	-13.187
𦉑	-13.1871
㬋	-13.1871
禋	-13.1872
弉	-13.1876
壻	-13.1877
尗	-13.188
攖	-13.1897
洳	-13.252
儈	-13.2528
鐱	-13.2531
􄒾	-13.2534
疙	-13.2536
㮯	-13.2537
䯎	-13.2537
𣏚	-13.2538
羃	-13.2539
菘	-13.254
邽	-13.2541
巚	-13.2542
扢	-13.2543
嘬	-13.2543
𦳈	-13.2544
薖	-13.2546
蜼	-13.2546
縞	-13.2546
岵	-13.2547
􅒯	-13.2547
㭪	-13.2549
鞵	-13.2549
𨳾	-13.2549
嚌	-13.2549
硤	-13.2549
磵	-13.2549
𨳲	-13.2549
䩛	-13.2549
藡	-13.2551
匄	-13.2551
髏	-13.2551
㦻	-13.2551
覢	-13.2551
􄕳	-13.2552
􄣑	-13.2552
覼	-13.2552
㩴	-13.2553
騬	-13.2553
𦯕	-13.2553
楺	-13.2553
侁	-13.2554
𡶩	-13.2554
萆	-13.2554
𨃥	-13.2554
艘	-13.2555
􂬵	-13.2555
址	-13.2555
瘼	-13.2555
屙	-13.2555
糓	-13.2555
蠑	-13.2555
髴	-13.2556
搴	-13.2556
姣	-13.2556
懎	-13.2556
柤	-13.2556
狚	-13.2556
瀚	-13.2556
颲	-13.2556
汴	-13.2556
䰿	-13.2556
蘺	-13.2557
䱜	-13.2557
轞	-13.2557
婀	-13.2557
呆	-13.2557
獪	-13.2557
瘑	-13.2557
壜	-13.2557
䮚	-13.2557
竫	-13.2558
􅠢	-13.2558
抁	-13.2558
􂫖	-13.2558
篳	-13.2558
鯷	-13.2559
婟	-13.2559
嫩	-13.2559
彘	-13.2559
𠆙	-13.2559
恉	-13.2559
悏	-13.2559
戅	-13.2559
鎡	-13.256
𢝌	-13.256
涔	-13.256
秫	-13.256
蜻	-13.256
􃸬	-13.256
揗	-13.256
邱	-13.256
𧞣	-13.256
𨊥	-13.2561
􄒍	-13.2561
鎬	-13.2561
抯	-13.2561
楬	-13.2561
􅆅	-13.2562
㸑	-13.2562
𦍝	-13.2562
楟	-13.2562
㖿	-13.2562
頋	-13.2563
巋	-13.2563
珓	-13.2563
灹	-13.2563
韃	-13.2563
祲	-13.2563
𤘳	-13.2563
㦿	-13.2564
偋	-13.2564
尰	-13.2564
璉	-13.2564
蚘	-13.2564
撇	-13.2565
玕	-13.2565
􄕗	-13.2565
罌	-13.2565
􃩬	-13.2565
攊	-13.2565
塾	-13.2565
􃛅	-13.2565
猻	-13.2566
芇	-13.2566
𠰘	-13.2566
頿	-13.2566
慽	-13.2566
玢	-13.2566
𠵖	-13.2566
䧢	-13.2567
呲	-13.2567
蝓	-13.2567
濵	-13.2567
廧	-13.2567
皪	-13.2567
􃞞	-13.2567
螵	-13.2567
􂩙	-13.2567
眯	-13.2567
攎	-13.2567
蓑	-13.2568
糵	-13.2568
洑	-13.2568
𣊹	-13.2568
枿	-13.2568
㵶	-13.2568
檜	-13.2569
𩁹	-13.2569
謼	-13.2569
繮	-13.2569
㤇	-13.2569
􃻒	-13.2569
㔜	-13.257
毖	-13.257
菉	-13.257
􄑶	-13.257
㷅	-13.257
愨	-13.2571
彿	-13.2571
緡	-13.2571
驊	-13.2571
䝿	-13.2572
檎	-13.2572
蟽	-13.2572
撶	-13.2572
䅶	-13.2572
鋼	-13.2573
􂎟	-13.2573
𧧷	-13.2573
𩋆	-13.2573
价	-13.2574
槖	-13.2574
􃚅	-13.2574
􄗸	-13.2574
𧽍	-13.2574
嘼	-13.2574
胵	-13.2574
絀	-13.2575
鱠	-13.2575
痶	-13.2575
𢶕	-13.2575
鮒	-13.2576
彔	-13.2577
潜	-13.2577
􃮃	-13.2577
𦥚	-13.2577
虘	-13.2577
頵	-13.2578
􃝥	-13.2578
殅	-13.2578
塜	-13.2578
恑	-13.2579
䃺	-13.2579
𡙇	-13.2582
􃫧	-13.2582
缹	-13.2582
􃭄	-13.2583
町	-13.2583
慱	-13.2585
褁	-13.2586
唁	-13.2586
螾	-13.2588
旟	-13.2593
墼	-13.2595
ā	-13.2595
y	-13.2596
矗	-13.2598
轀	-13.26
輬	-13.2606
蔥	-13.3279
鶹	-13.3293
􂚳	-13.3297
么	-13.3305
􃝒	-13.3306
繐	-13.3307
孿	-13.3307
褋	-13.3307
𥟦	-13.3307
䆠	-13.3307
鸜	-13.3308
䶌	-13.331
冽	-13.3311
踸	-13.3311
啉	-13.3312
𧙍	-13.3313
􄒂	-13.3313
啒	-13.3315
刨	-13.3315
䐑	-13.3316
楙	-13.3316
豰	-13.3316
嶲	-13.3316
𡼏	-13.3317
埌	-13.3317
侄	-13.3318
瑚	-13.3318
𠲸	-13.3318
𧪓	-13.3318
媮	-13.3319
笡	-13.332
塸	-13.332
𪖦	-13.3321
鶋	-13.3321
􂬦	-13.3321
攦	-13.3322
髲	-13.3322
儇	-13.3322
嶝	-13.3322
𥹁	-13.3322
𩭤	-13.3322
𩬩	-13.3322
𧫦	-13.3323
豓	-13.3323
庘	-13.3323
晄	-13.3324
鴹	-13.3324
磽	-13.3325
鉺	-13.3325
􄕪	-13.3325
􃦨	-13.3325
萸	-13.3325
撢	-13.3325
玔	-13.3325
𠪄	-13.3326
􄟦	-13.3326
惆	-13.3326
朮	-13.3326
㔸	-13.3326
瘃	-13.3326
巃	-13.3327
酤	-13.3327
𧥮	-13.3327
蜟	-13.3327
枓	-13.3327
弑	-13.3327
匯	-13.3328
貔	-13.3328
淒	-13.3328
憀	-13.3328
匏	-13.3328
睽	-13.3328
􂗵	-13.3328
蓖	-13.3328
嘊	-13.3328
騠	-13.3328
漕	-13.3329
􄴹	-13.3329
弝	-13.3329
𤗉	-13.3329
塪	-13.3329
𢝆	-13.3329
丂	-13.333
􃚩	-13.333
􃷄	-13.333
癑	-13.333
窿	-13.3331
祧	-13.3331
䵟	-13.3331
􄖗	-13.3332
佫	-13.3332
𥔐	-13.3332
鉄	-13.3332
𡕆	-13.3332
骹	-13.3332
鉼	-13.3332
茖	-13.3333
䅵	-13.3333
􃝍	-13.3333
饟	-13.3334
㮏	-13.3334
廨	-13.3334
鵙	-13.3334
旂	-13.3334
喰	-13.3334
踁	-13.3334
苒	-13.3335
塍	-13.3335
揁	-13.3335
㞐	-13.3335
礱	-13.3335
証	-13.3335
􂚩	-13.3336
黲	-13.3336
蘡	-13.3336
寑	-13.3336
笵	-13.3336
侏	-13.3336
逑	-13.3336
桾	-13.3337
􅐧	-13.3337
霝	-13.3337
㐸	-13.3337
􄠳	-13.3337
𧷽	-13.3338
苹	-13.3338
䦱	-13.3338
㗖	-13.3339
孀	-13.3339
燅	-13.3339
􃫛	-13.3339
𡍕	-13.3339
淰	-13.3339
𢹍	-13.3339
鞚	-13.334
覻	-13.334
莇	-13.334
鸋	-13.3341
叻	-13.3341
眹	-13.3341
儅	-13.3341
佼	-13.3341
􂗗	-13.3341
泱	-13.3342
獫	-13.3342
􂑨	-13.3342
蘅	-13.3342
𡀩	-13.3342
盔	-13.3343
惄	-13.3343
𧶅	-13.3343
鄶	-13.3344
嘈	-13.3344
􂧉	-13.3344
鸑	-13.3345
秊	-13.3345
氊	-13.3345
蜡	-13.3345
鴒	-13.3345
痁	-13.3345
蹍	-13.3346
晜	-13.3346
狾	-13.3346
檼	-13.3347
攕	-13.3348
捇	-13.3348
𦴭	-13.3348
焅	-13.3348
𥁑	-13.3349
𨁝	-13.3349
黥	-13.335
曨	-13.335
偓	-13.335
軎	-13.335
矞	-13.3351
凳	-13.3351
羚	-13.3352
癉	-13.3352
𧺫	-13.3354
膻	-13.3354
􃜝	-13.3354
𧻓	-13.3355
筲	-13.3356
懀	-13.3356
桉	-13.3357
覇	-13.3357
蚹	-13.3358
􂛲	-13.3359
庄	-13.3359
䥈	-13.336
廼	-13.3361
櫟	-13.3361
懕	-13.3361
朏	-13.3362
幬	-13.3362
d	-13.3365
諝	-13.3365
惈	-13.3366
䲭	-13.3366
0	-13.3368
型	-13.337
砭	-13.3373
柅	-13.338
灶	-13.4105
蟨	-13.4127
椶	-13.4129
黟	-13.4134
泲	-13.4137
獅	-13.4137
侃	-13.4138
炰	-13.4138
󵪺	-13.4141
踒	-13.4141
疰	-13.4141
泚	-13.4142
榾	-13.4143
𢮎	-13.4144
搗	-13.4144
𡵆	-13.4145
諏	-13.4147
􅌯	-13.4147
𥄏	-13.4148
䫳	-13.4148
薾	-13.4149
􂜱	-13.4149
􃮓	-13.4149
轗	-13.4149
􅙼	-13.4149
㛐	-13.415
鶣	-13.415
癀	-13.4151
㯏	-13.4151
竛	-13.4151
摟	-13.4151
𣧘	-13.4151
迆	-13.4152
㕨	-13.4152
滀	-13.4152
炕	-13.4152
鐇	-13.4152
􂚺	-13.4153
餈	-13.4153
𪗪	-13.4153
䐔	-13.4153
𦥞	-13.4154
纆	-13.4154
頫	-13.4154
撐	-13.4154
檊	-13.4155
檾	-13.4155
玟	-13.4155
磴	-13.4156
𤸱	-13.4156
嶤	-13.4156
􂱶	-13.4157
𥞑	-13.4157
𢝔	-13.4157
髼	-13.4157
㲨	-13.4157
𩥇	-13.4157
惵	-13.4158
琯	-13.4158
䊩	-13.4158
㖃	-13.4158
􄭂	-13.4158
荽	-13.4158
醟	-13.4158
橰	-13.4159
鼄	-13.4159
􄢟	-13.4159
呇	-13.4159
蚣	-13.4159
怶	-13.4159
㬤	-13.416
㗘	-13.416
􃱺	-13.416
毃	-13.4161
樛	-13.4161
􄔐	-13.4161
㨁	-13.4161
𠐨	-13.4161
𡗱	-13.4161
抪	-13.4161
暏	-13.4161
欑	-13.4162
㾪	-13.4162
𢒈	-13.4162
鮭	-13.4162
㭓	-13.4162
鄹	-13.4162
歫	-13.4162
􃪉	-13.4162
吔	-13.4162
􄯄	-13.4162
宎	-13.4162
𥧦	-13.4162
䔖	-13.4162
䉛	-13.4162
翣	-13.4162
軁	-13.4163
𧍷	-13.4163
􂝍	-13.4163
􄓪	-13.4163
担	-13.4163
􂭚	-13.4163
䗶	-13.4163
偟	-13.4164
槲	-13.4164
􃚆	-13.4164
𧎗	-13.4164
鏊	-13.4164
􄦢	-13.4164
櫚	-13.4164
􄘜	-13.4165
㲣	-13.4165
頳	-13.4165
韌	-13.4165
膒	-13.4165
􃙱	-13.4166
玠	-13.4166
鍔	-13.4166
柟	-13.4166
癥	-13.4166
𡑞	-13.4166
􃅓	-13.4167
𡣪	-13.4167
抐	-13.4167
𨭛	-13.4167
􄧐	-13.4167
拴	-13.4168
稉	-13.4168
缸	-13.4168
稂	-13.4168
綪	-13.4168
􂡻	-13.4168
鱍	-13.4168
􂜐	-13.4169
􄒌	-13.4169
惢	-13.4169
㨖	-13.4169
誂	-13.4169
𪘽	-13.417
藋	-13.417
𣵽	-13.417
㨝	-13.417
觥	-13.417
貊	-13.417
㤢	-13.417
鈌	-13.4171
藺	-13.4171
㰅	-13.4171
䠟	-13.4171
冢	-13.4171
燬	-13.4171
楝	-13.4171
􄯱	-13.4171
巗	-13.4172
鮪	-13.4172
𠻱	-13.4172
慲	-13.4172
-	-13.4172
裩	-13.4173
笻	-13.4173
嚟	-13.4173
㤩	-13.4173
𠤭	-13.4173
頦	-13.4173
顊	-13.4173
䤄	-13.4173
㼌	-13.4174
𥉕	-13.4174
膲	-13.4174
爟	-13.4175
佡	-13.4175
􂍛	-13.4175
芭	-13.4176
豤	-13.4176
􃴎	-13.4176
蟴	-13.4176
𡙜	-13.4176
届	-13.4177
覊	-13.4177
礴	-13.4177
卆	-13.4177
􃳰	-13.4177
圉	-13.4177
螣	-13.4178
嬭	-13.4178
杝	-13.4179
􃴖	-13.4179
扑	-13.4179
亻	-13.4179
帋	-13.418
祺	-13.418
􂍻	-13.418
鵚	-13.418
酔	-13.418
犴	-13.4181
玲	-13.4181
轒	-13.4182
𣎜	-13.4182
陼	-13.4182
痮	-13.4182
􃱇	-13.4182
𣰆	-13.4183
劄	-13.4183
㡯	-13.4183
󰑁	-13.4184
哄	-13.4184
𡲘	-13.4184
𤕫	-13.4184
陊	-13.4185
蜙	-13.4185
嵒	-13.4186
巑	-13.4186
盋	-13.4186
𩞹	-13.4186
蟊	-13.4187
嘮	-13.4188
鼃	-13.4189
鈂	-13.4189
𧊧	-13.4193
􃗢	-13.4194
揈	-13.4194
肛	-13.4194
㚇	-13.4194
濄	-13.4194
􂔓	-13.4196
隺	-13.4196
虀	-13.4196
n	-13.4198
h	-13.4198
𦿕	-13.4203
􂏩	-13.4218
砲	-13.5014
睼	-13.5036
㝃	-13.5045
蓉	-13.5048
徉	-13.5049
鐔	-13.5049
俁	-13.5051
𤚐	-13.5051
𥿞	-13.5052
垧	-13.5053
𪅏	-13.5053
虅	-13.5053
𨵈	-13.5054
萪	-13.5054
躊	-13.5054
􅞪	-13.5055
壕	-13.5055
磈	-13.5055
𣯮	-13.5055
耟	-13.5055
眊	-13.5056
𦊱	-13.5057
笪	-13.5057
䏧	-13.5057
㲥	-13.5057
酵	-13.5058
㪍	-13.5058
躳	-13.5058
􂪤	-13.5058
薙	-13.5059
喂	-13.5059
䘢	-13.506
迁	-13.5061
秭	-13.5061
愂	-13.5061
呹	-13.5061
榓	-13.5062
袥	-13.5062
顣	-13.5062
䍃	-13.5062
鼁	-13.5062
葪	-13.5062
晰	-13.5062
􂞯	-13.5062
𨞮	-13.5062
霹	-13.5063
􂧆	-13.5063
糯	-13.5063
􃝉	-13.5063
􂝼	-13.5064
㴎	-13.5064
􃫐	-13.5064
譍	-13.5064
飫	-13.5064
楩	-13.5064
􃦔	-13.5064
㥲	-13.5064
沇	-13.5065
𢴤	-13.5065
畷	-13.5065
𪂃	-13.5065
㕭	-13.5065
酹	-13.5065
𦃠	-13.5065
𦡚	-13.5065
𥗫	-13.5066
𢃑	-13.5066
讛	-13.5066
圴	-13.5066
痀	-13.5066
𦮰	-13.5066
𪙉	-13.5066
𥿾	-13.5066
橝	-13.5066
𥰠	-13.5067
扮	-13.5067
􅝃	-13.5067
喣	-13.5067
嘑	-13.5067
枻	-13.5067
􄯟	-13.5068
𧰚	-13.5068
㽽	-13.5068
𩌧	-13.5068
瓅	-13.5068
潄	-13.5068
紓	-13.5069
㐄	-13.5069
奓	-13.5069
暾	-13.5069
邴	-13.5069
晟	-13.507
𧋒	-13.507
痲	-13.507
醈	-13.507
滸	-13.507
㘈	-13.507
遛	-13.5071
蝭	-13.5071
抬	-13.5071
胂	-13.5071
份	-13.5071
覗	-13.5071
痵	-13.5071
𣛝	-13.5071
僄	-13.5071
齬	-13.5071
㵪	-13.5072
閛	-13.5072
瞠	-13.5072
𤷄	-13.5072
𤭔	-13.5072
弰	-13.5072
檏	-13.5073
𧌲	-13.5073
􃹱	-13.5073
𡵒	-13.5073
莿	-13.5073
廖	-13.5073
竣	-13.5073
粽	-13.5073
煽	-13.5073
㡤	-13.5073
茠	-13.5073
怐	-13.5074
摵	-13.5074
䶥	-13.5074
鈘	-13.5074
坒	-13.5074
𤛓	-13.5074
䖯	-13.5074
朧	-13.5074
􄑆	-13.5074
𨎪	-13.5074
𩄆	-13.5074
殛	-13.5074
獚	-13.5075
䖧	-13.5075
繾	-13.5075
𢴲	-13.5075
䝱	-13.5075
琩	-13.5075
𧎮	-13.5075
觕	-13.5076
䔧	-13.5076
緌	-13.5076
𠼐	-13.5076
鍇	-13.5077
懂	-13.5077
𢼨	-13.5077
𢾛	-13.5077
剿	-13.5077
􂏶	-13.5077
婺	-13.5077
躂	-13.5078
􂎹	-13.5078
磻	-13.5078
􃙈	-13.5078
吲	-13.5078
􃚡	-13.5079
􃬝	-13.5079
𠬪	-13.5079
碻	-13.5079
􃬊	-13.5079
􃘦	-13.5079
𤰞	-13.5079
𨊾	-13.5079
􄐴	-13.5079
曈	-13.5079
𦱔	-13.508
巂	-13.508
嗥	-13.508
焃	-13.508
枊	-13.508
𨳖	-13.5081
撙	-13.5081
𦚣	-13.5081
𣸪	-13.5081
蓻	-13.5081
矴	-13.5081
𡶅	-13.5081
瑾	-13.5081
夤	-13.5081
媈	-13.5082
澂	-13.5082
𧧸	-13.5082
餲	-13.5082
濮	-13.5082
暅	-13.5082
銵	-13.5083
𡖖	-13.5083
𠄏	-13.5083
𥃳	-13.5083
曤	-13.5083
𦣱	-13.5083
𣞙	-13.5084
茱	-13.5084
􄿫	-13.5084
㫊	-13.5084
蕛	-13.5084
詼	-13.5085
捘	-13.5085
諕	-13.5085
査	-13.5085
睴	-13.5085
𢈹	-13.5085
䃜	-13.5086
彧	-13.5086
另	-13.5086
􄚹	-13.5086
𡳐	-13.5086
腷	-13.5087
蹁	-13.5087
𤻀	-13.5087
嗑	-13.5087
㕟	-13.5087
棋	-13.5088
灋	-13.5088
楖	-13.5088
𦇧	-13.5088
臡	-13.5088
虯	-13.5089
𣩦	-13.5089
滛	-13.5089
琝	-13.509
􅁄	-13.509
骽	-13.509
慤	-13.5091
蝍	-13.5091
螳	-13.5091
㥏	-13.5091
綂	-13.5091
皅	-13.5092
朞	-13.5092
榺	-13.5092
𨁟	-13.5092
皚	-13.5093
㦍	-13.5093
緱	-13.5093
黹	-13.5093
􃜴	-13.5093
掝	-13.5094
􃬚	-13.5094
涂	-13.5095
𣬉	-13.5095
祓	-13.5095
蹏	-13.5095
鴛	-13.5096
羮	-13.5096
㲜	-13.5096
􂎶	-13.5096
檈	-13.5096
􃫶	-13.5097
𡚶	-13.5098
嵋	-13.5099
劮	-13.5099
趐	-13.5099
媱	-13.5099
𥴧	-13.51
􃭼	-13.5101
䕴	-13.5101
𢾕	-13.5101
巵	-13.5102
攤	-13.5103
􂛺	-13.5104
􃮪	-13.5105
絖	-13.5107
􂞅	-13.5111
9	-13.5112
蕊	-13.5985
獘	-13.6026
睍	-13.6042
𢍀	-13.6042
胆	-13.6043
奭	-13.6045
騲	-13.6046
煻	-13.6047
馵	-13.6047
摡	-13.6047
𥍉	-13.6049
螝	-13.6049
衎	-13.605
蔻	-13.605
􂏺	-13.6051
硎	-13.6052
櫁	-13.6052
𠠤	-13.6052
㕮	-13.6053
㣿	-13.6053
靸	-13.6053
𩜁	-13.6053
𣏞	-13.6054
丫	-13.6054
靻	-13.6054
襠	-13.6054
洺	-13.6054
筕	-13.6055
覧	-13.6055
􂳻	-13.6055
嗐	-13.6055
諤	-13.6056
囧	-13.6056
嵇	-13.6056
胒	-13.6057
􅗙	-13.6057
儨	-13.6058
􂓴	-13.6058
僨	-13.6059
㳷	-13.6059
塺	-13.6059
蝯	-13.6059
蠚	-13.606
輜	-13.606
㦎	-13.606
䫙	-13.606
𥌋	-13.606
蕨	-13.606
莟	-13.6061
蛢	-13.6061
紿	-13.6061
􃛳	-13.6061
囐	-13.6061
𢬜	-13.6061
􂪾	-13.6062
杋	-13.6062
碝	-13.6062
膎	-13.6062
愓	-13.6062
䜴	-13.6062
𧙯	-13.6062
溏	-13.6062
柞	-13.6062
囄	-13.6062
𨢩	-13.6062
蕢	-13.6063
咮	-13.6063
􄐮	-13.6063
㚲	-13.6064
痂	-13.6064
膋	-13.6064
􅖅	-13.6064
肧	-13.6064
祫	-13.6065
雊	-13.6065
簑	-13.6065
錡	-13.6065
倠	-13.6065
䋫	-13.6065
䡩	-13.6066
誵	-13.6066
汛	-13.6066
鴩	-13.6066
嘌	-13.6066
刲	-13.6066
􄟷	-13.6066
緶	-13.6066
檮	-13.6067
栭	-13.6067
𤹪	-13.6067
𥆨	-13.6067
鵮	-13.6067
紝	-13.6067
枵	-13.6067
餻	-13.6068
慪	-13.6068
倰	-13.6068
奯	-13.6068
纚	-13.6068
餗	-13.6068
􄜭	-13.6068
嘵	-13.6069
蟸	-13.6069
汅	-13.6069
屟	-13.6069
庴	-13.6069
薟	-13.607
淟	-13.607
嫣	-13.607
􃫍	-13.607
浛	-13.607
􃬑	-13.607
𢣷	-13.607
􃙰	-13.6071
􄡎	-13.6071
弜	-13.6072
膬	-13.6072
𩗋	-13.6072
𠜓	-13.6072
􅓕	-13.6072
矖	-13.6072
溳	-13.6072
塉	-13.6072
璠	-13.6072
鎩	-13.6072
扚	-13.6072
蹺	-13.6072
𡐛	-13.6073
蝢	-13.6073
婓	-13.6073
粆	-13.6073
㢩	-13.6073
侳	-13.6074
垸	-13.6074
􄝖	-13.6074
慆	-13.6074
䵴	-13.6075
􃯾	-13.6075
眡	-13.6075
㫺	-13.6075
𧦘	-13.6075
翿	-13.6075
瘓	-13.6075
􂧔	-13.6076
疝	-13.6077
𣦼	-13.6077
􄐿	-13.6077
㿅	-13.6077
䶍	-13.6077
撠	-13.6077
髕	-13.6077
騮	-13.6077
嘹	-13.6077
蟋	-13.6078
瀣	-13.6078
澘	-13.6078
獃	-13.6078
䉽	-13.6078
芩	-13.6078
諲	-13.6078
蟀	-13.6079
􂨆	-13.6079
鐝	-13.6079
牉	-13.6079
􄷆	-13.6079
麰	-13.6079
䇷	-13.6079
泭	-13.6079
𤻲	-13.608
鬯	-13.608
絫	-13.608
㧊	-13.608
澳	-13.608
􃝄	-13.608
沍	-13.608
庀	-13.6081
眭	-13.6081
喊	-13.6081
嚭	-13.6081
嬔	-13.6081
􃫝	-13.6081
殭	-13.6081
榒	-13.6082
䳇	-13.6082
㮛	-13.6082
据	-13.6082
瑫	-13.6082
􃭲	-13.6082
槵	-13.6082
􄥲	-13.6083
脤	-13.6083
紏	-13.6083
獽	-13.6083
㢡	-13.6083
蠕	-13.6084
蟙	-13.6084
湜	-13.6084
聸	-13.6084
𣓏	-13.6084
琪	-13.6084
𨽾	-13.6084
囱	-13.6085
岥	-13.6085
愇	-13.6085
萩	-13.6086
𧩄	-13.6086
􃯆	-13.6086
㴑	-13.6086
嘞	-13.6086
􄔳	-13.6087
䅎	-13.6087
珤	-13.6087
𢾭	-13.6087
豩	-13.6087
妭	-13.6087
潏	-13.6087
闖	-13.6087
鞴	-13.6087
昝	-13.6087
鴗	-13.6087
褡	-13.6088
􃱀	-13.6088
㴉	-13.6088
垘	-13.6088
愿	-13.6088
烖	-13.6088
蔘	-13.6088
淙	-13.6088
眶	-13.6089
檡	-13.6089
矻	-13.6089
屺	-13.6089
鉋	-13.6089
娩	-13.6089
鎽	-13.6089
檉	-13.6089
泞	-13.6089
鐓	-13.6089
䫻	-13.6089
笔	-13.609
鵓	-13.609
怢	-13.609
蚱	-13.609
靼	-13.609
𤻘	-13.609
𤅋	-13.609
悳	-13.609
􂢬	-13.6091
窀	-13.6092
甡	-13.6092
颷	-13.6092
𥌽	-13.6093
爹	-13.6093
柑	-13.6094
皁	-13.6095
𧔣	-13.6095
𠏉	-13.6095
艦	-13.6096
𪇑	-13.6096
仛	-13.6097
汏	-13.6097
脪	-13.6097
瘐	-13.6097
哧	-13.6097
厽	-13.6097
􄁌	-13.6098
蔦	-13.6098
熸	-13.6099
瓈	-13.6099
孨	-13.61
蠥	-13.61
淈	-13.61
釬	-13.6101
𢜬	-13.6101
媸	-13.6101
昚	-13.6101
𣢑	-13.6102
㒧	-13.6102
瀞	-13.6102
鳸	-13.6103
﨟	-13.6103
穨	-13.6103
鰕	-13.6104
鶤	-13.6105
e	-13.6107
v	-13.6108
佰	-13.611
㾨	-13.6111
𧩰	-13.6113
䤋	-13.6124
濂	-13.6133
𦚧	-13.7138
鵡	-13.714
𠴏	-13.7144
𧋐	-13.7148
听	-13.715
鐍	-13.7151
髑	-13.7155
𧐎	-13.7156
􅜆	-13.7156
􂙑	-13.7156
𨀳	-13.7157
戧	-13.7158
擷	-13.7158
粔	-13.7159
尛	-13.7159
蛩	-13.716
顃	-13.7161
郯	-13.7161
涮	-13.7161
􅈊	-13.7161
鋀	-13.7161
𨶮	-13.7162
倳	-13.7162
䓸	-13.7164
糏	-13.7164
稕	-13.7164
庡	-13.7165
𤌉	-13.7166
糒	-13.7166
鴶	-13.7166
鼗	-13.7166
􂙴	-13.7166
呧	-13.7166
慉	-13.7167
笘	-13.7167
磎	-13.7167
桿	-13.7168
𢲉	-13.7168
焏	-13.7168
傞	-13.7168
􄓰	-13.7168
檣	-13.7168
痬	-13.7168
伭	-13.7169
􄳟	-13.7169
䅀	-13.717
嗼	-13.717
坰	-13.717
藎	-13.717
邡	-13.717
鍉	-13.717
鏶	-13.7171
𠷺	-13.7171
吚	-13.7171
开	-13.7172
嘏	-13.7172
𧣙	-13.7172
􄗲	-13.7172
礊	-13.7172
𨀣	-13.7172
槉	-13.7172
絏	-13.7172
瀶	-13.7172
湣	-13.7173
狽	-13.7173
𧽸	-13.7173
𣫢	-13.7173
㘅	-13.7174
傱	-13.7174
􃩺	-13.7174
􄠎	-13.7174
𧺆	-13.7174
硾	-13.7174
􂰾	-13.7174
侅	-13.7174
𥝣	-13.7174
􂫒	-13.7175
鞉	-13.7175
媼	-13.7175
蛬	-13.7175
漘	-13.7175
絸	-13.7175
潟	-13.7175
䨴	-13.7176
蘪	-13.7176
蘢	-13.7176
鋻	-13.7176
詒	-13.7176
壖	-13.7176
菷	-13.7177
堁	-13.7177
醍	-13.7177
靫	-13.7177
𧍃	-13.7177
㱟	-13.7177
搌	-13.7177
荇	-13.7178
􄛏	-13.7178
􂜣	-13.7178
骻	-13.7178
撎	-13.7178
鋘	-13.7178
玓	-13.7178
沴	-13.7179
靚	-13.7179
菖	-13.7179
竮	-13.7179
捁	-13.7179
􅟫	-13.7179
􂳹	-13.7179
􅑹	-13.7179
菰	-13.718
㖟	-13.718
􂠭	-13.718
􂜴	-13.718
􄖱	-13.718
􂎕	-13.718
鬒	-13.718
犳	-13.718
􃴬	-13.7181
敂	-13.7181
𢲞	-13.7181
迵	-13.7181
𩞚	-13.7181
岴	-13.7181
贉	-13.7181
斅	-13.7181
狧	-13.7181
軯	-13.7181
𧦪	-13.7181
槫	-13.7181
㨔	-13.7181
嶋	-13.7181
汶	-13.7182
鶂	-13.7182
圣	-13.7182
𦙝	-13.7182
眘	-13.7182
𧏞	-13.7182
􃸏	-13.7182
􄑗	-13.7182
礚	-13.7182
􅖾	-13.7182
𣯃	-13.7182
掄	-13.7182
頔	-13.7182
洌	-13.7183
䠞	-13.7183
樚	-13.7183
瀓	-13.7183
摨	-13.7183
蝤	-13.7183
𤊟	-13.7183
􅄛	-13.7183
鼐	-13.7184
􄑽	-13.7184
枆	-13.7184
錔	-13.7184
𢗡	-13.7184
㬢	-13.7184
􄞵	-13.7185
茆	-13.7185
𤉋	-13.7185
䛥	-13.7185
鑵	-13.7185
禲	-13.7185
棭	-13.7186
酙	-13.7186
臃	-13.7186
郛	-13.7186
駸	-13.7186
楄	-13.7186
蘯	-13.7186
嬳	-13.7186
𨔛	-13.7186
戕	-13.7186
椐	-13.7186
焫	-13.7187
栜	-13.7187
㤿	-13.7187
􃯗	-13.7187
釃	-13.7187
㿖	-13.7187
橡	-13.7187
𥧲	-13.7187
㰚	-13.7187
宬	-13.7187
𡬽	-13.7187
胚	-13.7188
霪	-13.7188
𡫸	-13.7188
姍	-13.7188
䩞	-13.7189
扯	-13.7189
薔	-13.7189
𧤼	-13.7189
偂	-13.7189
趕	-13.7189
椄	-13.7189
𢋀	-13.7189
𢙼	-13.719
攱	-13.719
甊	-13.719
𠏧	-13.719
醊	-13.719
廮	-13.719
𦐊	-13.719
棳	-13.719
貈	-13.719
牚	-13.719
鏺	-13.719
暜	-13.7191
痳	-13.7191
妲	-13.7191
柜	-13.7191
遡	-13.7191
􄧶	-13.7191
箬	-13.7191
胼	-13.7191
𨖫	-13.7191
􃨑	-13.7191
轘	-13.7191
乚	-13.7191
碢	-13.7191
蓲	-13.7192
䬦	-13.7192
􄕛	-13.7192
𨧲	-13.7192
􃫚	-13.7192
垐	-13.7192
屓	-13.7192
􃺞	-13.7192
齜	-13.7192
袈	-13.7193
郅	-13.7193
繰	-13.7193
衇	-13.7193
贛	-13.7193
墅	-13.7193
碭	-13.7193
蕞	-13.7193
褎	-13.7193
逌	-13.7193
錤	-13.7193
鰲	-13.7193
岧	-13.7193
夅	-13.7194
鋟	-13.7194
敜	-13.7194
鄷	-13.7194
𤜴	-13.7194
霶	-13.7194
𠅸	-13.7194
𪊭	-13.7194
掍	-13.7194
軗	-13.7195
𥊄	-13.7195
𢆎	-13.7195
袓	-13.7195
隁	-13.7195
𩏕	-13.7195
肸	-13.7195
趄	-13.7195
譔	-13.7196
閰	-13.7196
錭	-13.7197
𥠆	-13.7197
𤑏	-13.7197
𦇷	-13.7197
鼕	-13.7197
簨	-13.7197
簳	-13.7197
㘽	-13.7198
熿	-13.7198
鍕	-13.7198
𡩺	-13.7198
𨪏	-13.7198
岏	-13.7198
夹	-13.7198
𧸐	-13.7198
𣸫	-13.7199
㳅	-13.7199
􂎂	-13.7199
􄊕	-13.7199
蹯	-13.7199
鹻	-13.7199
胑	-13.72
諗	-13.72
坫	-13.72
勐	-13.72
紃	-13.7201
雐	-13.7201
笿	-13.7201
渢	-13.7201
𦚰	-13.7201
伋	-13.7201
貟	-13.7201
㑢	-13.7201
􅔾	-13.7201
𩍁	-13.7202
璘	-13.7203
赳	-13.7203
䴬	-13.7203
槮	-13.7203
𥵨	-13.7203
亙	-13.7204
􂐠	-13.7204
洴	-13.7204
崽	-13.7205
彞	-13.7205
鯀	-13.7205
搎	-13.7205
芿	-13.7206
畊	-13.7206
􃹓	-13.7206
嚯	-13.7206
𩚮	-13.7206
襍	-13.7207
薋	-13.7207
磶	-13.7208
茴	-13.7208
諐	-13.7208
貘	-13.7208
䔏	-13.7209
䙴	-13.7209
禸	-13.7209
𥿭	-13.7209
㢭	-13.721
寋	-13.721
儓	-13.721
哯	-13.721
駔	-13.721
霣	-13.7211
􄯅	-13.7212
􃰗	-13.7212
􃳑	-13.7212
􃾌	-13.7212
𩝙	-13.7212
橾	-13.7213
䔋	-13.7216
𧵩	-13.7216
𤎩	-13.7217
耍	-13.7217
偰	-13.7218
K	-13.722
􃘣	-13.722
砒	-13.722
熯	-13.7221
鑁	-13.7223
𣜥	-13.7225
㼜	-13.723
鴚	-13.723
皥	-13.7233
[...]
