<unk>	0
<s>	0
</s>	0
。	-1.73763
故	-4.32857
者	-4.51084
也	-4.88684
以	-5.18376
(	-5.18779
)	-5.24059
是	-5.3019
二	-5.36335
▁	-5.44236
有	-5.45045
即	-5.50159
此	-5.53547
為	-5.56763
等	-5.60326
如	-5.61813
中	-5.62212
謂	-5.63595
無	-5.69797
言	-5.7274
若	-5.72949
於	-5.76526
一	-5.78633
之	-5.82002
名	-5.83381
心	-5.86708
不	-5.87974
法	-5.92243
相	-5.95653
義	-5.9638
非	-5.96425
而	-5.98238
因	-6.00626
說	-6.01716
三	-6.01785
生	-6.01874
至	-6.10673
又	-6.11467
下	-6.12699
*	-6.17592
及	-6.18905
則	-6.21408
彼	-6.2185
。】「	-6.22442
行	-6.25232
如是	-6.25329
論	-6.27224
得	-6.31074
亦	-6.31184
成	-6.37039
。」【	-6.37143
人	-6.38196
其	-6.40711
依	-6.46131
起	-6.49803
明	-6.50081
時	-6.518
自	-6.55142
四	-6.55897
由	-6.56081
或	-6.57671
門	-6.57839
答	-6.58284
與	-6.58397
見	-6.60538
皆	-6.60619
一切	-6.60901
云	-6.64171
作	-6.64205
所	-6.6802
初	-6.6816
眾生	-6.69387
後	-6.69498
智	-6.69529
本	-6.70209
身	-6.71894
性	-6.72615
佛	-6.73585
諸	-6.73827
宗	-6.74273
問	-6.75073
大	-6.75088
處	-6.76892
耶	-6.78152
即是	-6.78383
同	-6.78659
緣	-6.79797
顯	-6.80045
故云	-6.80846
從	-6.80961
上	-6.82368
能	-6.82668
離	-6.82713
無明	-6.83484
體	-6.83644
滅	-6.84863
觀	-6.85269
今	-6.85329
是故	-6.86242
云何	-6.86496
知	-6.86667
雖	-6.87038
立	-6.87483
名為	-6.88075
然	-6.88411
前	-6.88544
我	-6.89213
意	-6.89424
唯	-6.90652
定	-6.91156
空	-6.91349
分	-6.92239
菩薩	-6.93289
令	-6.93469
等者	-6.93603
常	-6.94415
應	-6.95608
異	-6.98634
釋	-6.98718
多	-6.98769
既	-6.99669
已	-7.00273
果	-7.01165
事	-7.01334
分別	-7.01462
過	-7.01526
五	-7.02207
真如	-7.02268
識	-7.02442
色	-7.03108
但	-7.03853
解	-7.04761
具	-7.0553
疏	-7.06301
樂	-7.06509
入	-7.07116
隨	-7.0792
覺	-7.08072
喻	-7.09132
乃至	-7.103
用	-7.1061
受	-7.11272
善	-7.11425
斷	-7.11484
業	-7.13073
在	-7.1336
修	-7.14155
現	-7.14332
欲	-7.14727
因緣	-7.14935
正	-7.15026
攝	-7.15117
通	-7.15501
餘	-7.15542
二者	-7.15736
住	-7.15844
一者	-7.16938
苦	-7.17022
當	-7.1734
別	-7.17518
難	-7.17951
念	-7.19161
經	-7.1977
引	-7.19822
問曰	-7.21779
答曰	-7.22379
聲	-7.23483
故名	-7.23525
先	-7.24374
境	-7.24375
取	-7.25376
道	-7.25608
復	-7.26224
他	-7.26808
次	-7.27154
出	-7.28492
真	-7.29269
轉	-7.29703
淨	-7.30373
六	-7.30614
證	-7.31431
信	-7.31686
功德	-7.3187
無常	-7.35071
復次	-7.35277
地	-7.35729
理	-7.36053
俱	-7.3653
如來	-7.36531
根	-7.3668
煩惱	-7.38282
差別	-7.39467
】	-7.39556
文	-7.39708
可	-7.41142
生滅	-7.41147
無有	-7.41706
何	-7.4184
本覺	-7.43078
盡	-7.43367
合	-7.43603
」	-7.44237
對	-7.46307
所謂	-7.47023
勝	-7.47321
王	-7.47526
不能	-7.47863
除	-7.48651
此中	-7.49003
約	-7.50612
世間	-7.50795
相應	-7.50949
教	-7.51838
外	-7.51942
實	-7.52414
諸法	-7.52651
捨	-7.53258
,	-7.5346
位	-7.53674
量	-7.54584
方便	-7.54595
德	-7.5515
水	-7.56613
故言	-7.56834
十	-7.58249
內	-7.5827
具足	-7.59734
廣	-7.60289
論曰	-7.60368
方	-7.61226
染	-7.6184
清淨	-7.62166
舉	-7.62204
未	-7.62669
總	-7.6333
)。】「	-7.63379
。「	-7.63402
境界	-7.63805
記	-7.64317
想	-7.66401
一心	-7.67334
執	-7.68071
妄	-7.68146
不同	-7.68406
示	-7.68452
力	-7.68665
巳	-7.68717
修行	-7.69445
各	-7.69501
乃	-7.69798
平等	-7.69802
大乘	-7.70188
七	-7.70579
八	-7.71154
火	-7.7212
是名	-7.72811
聞	-7.72939
語	-7.73089
發	-7.73303
。」【(	-7.73484
汝	-7.73706
重	-7.73959
動	-7.7523
就	-7.76248
便	-7.77239
故知	-7.77448
眾	-7.7807
曰	-7.785
第二	-7.78652
▁二	-7.78841
自性	-7.79131
所以者何	-7.79972
成就	-7.80049
所作	-7.80116
來	-7.80276
破	-7.80476
解脫	-7.80601
藏	-7.80845
戒	-7.81163
求	-7.81211
種	-7.8122
止	-7.81541
二種	-7.81727
悉	-7.81748
決定	-7.82353
耳	-7.82425
天	-7.82542
深	-7.82684
何故	-7.82968
無量	-7.83624
三者	-7.84368
始覺	-7.85492
數	-7.85658
愛	-7.85678
諸佛	-7.86381
共	-7.86876
違	-7.87032
法身	-7.8737
必	-7.87596
種種	-7.88222
食	-7.88358
師	-7.88512
遍	-7.88638
不定	-7.89332
慧	-7.89496
施	-7.89509
所以	-7.90187
物	-7.90592
相違	-7.90608
不覺	-7.9095
不可	-7.91393
失	-7.91593
略	-7.9182
所依	-7.92032
結	-7.92674
自在	-7.92911
和合	-7.93006
譬如	-7.93194
述曰	-7.93545
涅槃	-7.94233
字	-7.94558
屬	-7.9463
▁初	-7.96371
次第	-7.9639
惡	-7.96427
願	-7.96743
之義	-7.96837
熏	-7.97123
疑	-7.97721
極	-7.97739
持	-7.99081
染淨	-7.99266
障	-7.99279
迷	-8.0015
似	-8.00338
指	-8.00378
報	-8.00518
亦無	-8.00985
不得	-8.01511
少	-8.01595
凡夫	-8.03107
由此	-8.03672
有法	-8.03687
更	-8.04002
句	-8.04245
惑	-8.04513
利	-8.0462
眼	-8.04831
第三	-8.04941
。△	-8.05025
音	-8.0545
。【	-8.05721
使	-8.06433
所說	-8.0709
相續	-8.0744
不生	-8.07517
著	-8.07695
何以故	-8.07861
故說	-8.0811
可知	-8.08199
並	-8.08703
精進	-8.09224
生死	-8.09808
辨	-8.10252
不成	-8.10805
二合	-8.11071
界	-8.11301
遠離	-8.1137
還	-8.11515
海	-8.12213
當知	-8.12594
順	-8.126
喜	-8.12794
品	-8.13312
了	-8.13386
此即	-8.13643
猶如	-8.13645
風	-8.13724
開	-8.1411
所有	-8.1448
以此	-8.15051
對治	-8.15208
於此	-8.15384
兩	-8.15816
觸	-8.15829
日	-8.16688
皆是	-8.16728
法界	-8.16766
稱	-8.17291
根本	-8.17312
世	-8.17497
圓滿	-8.17498
能立	-8.17555
外道	-8.17711
恒	-8.18157
邪	-8.18233
矣	-8.18465
真實	-8.1902
第一	-8.19045
二門	-8.19421
子	-8.1967
思	-8.19883
滿	-8.20203
所立	-8.20209
流	-8.21102
意識	-8.21304
亦有	-8.21576
造	-8.21674
許	-8.21994
集	-8.22299
遮	-8.2236
歸	-8.229
之相	-8.22961
望	-8.23079
闕	-8.23403
一切法	-8.23516
塵	-8.23807
三種	-8.23942
小	-8.24383
智慧	-8.24671
一切眾生	-8.24886
細	-8.25008
假	-8.25258
妙	-8.25382
之中	-8.25593
○	-8.25728
究竟	-8.25747
度	-8.26581
發心	-8.2671
不離	-8.2702
會	-8.27146
須	-8.27495
九	-8.27722
無我	-8.27825
寶	-8.28462
猶	-8.2865
因果	-8.29143
死	-8.29228
不知	-8.29231
無礙	-8.29377
要	-8.2952
有二	-8.29926
論云	-8.30184
為因	-8.3027
故名為	-8.30443
之法	-8.30453
四種	-8.30606
亦不	-8.30616
亦名	-8.30681
四者	-8.3083
不動	-8.3146
學	-8.32031
釋曰後	-8.32112
照	-8.32452
遠	-8.32507
將	-8.32516
反	-8.32528
光	-8.32681
比量	-8.32729
化	-8.33258
圓	-8.33584
全	-8.33585
亦爾	-8.33961
自體	-8.34023
世尊	-8.34477
二乘	-8.34588
自然	-8.34616
無相	-8.34657
隨順	-8.3469
去	-8.34941
亦復如是	-8.34955
簡	-8.34986
類	-8.35116
聚	-8.35282
熏習	-8.35505
向	-8.35778
乘	-8.35803
四相	-8.35871
經云	-8.36161
不應	-8.36196
遣	-8.36479
且	-8.36604
非是	-8.37332
若無	-8.37742
悟	-8.37744
聖	-8.37788
以為	-8.38244
則無	-8.38311
山	-8.38369
一一	-8.3837
標	-8.38581
貪	-8.39073
比丘	-8.39369
竟	-8.39553
而不	-8.39869
建立	-8.39875
那先言	-8.40387
行者	-8.40394
末	-8.40508
菩提	-8.4062
顯示	-8.4089
一分	-8.4104
如本	-8.41045
能生	-8.41046
增長	-8.41312
如來藏	-8.41331
麁	-8.41438
凡	-8.41451
福	-8.41539
瓶	-8.41716
忍	-8.41803
始	-8.41918
兼	-8.42276
種子	-8.42562
變	-8.42565
妄心	-8.42639
所攝	-8.42694
斯	-8.42737
於中	-8.43618
若有	-8.43788
。」【【	-8.43857
此論	-8.44052
趣	-8.44242
治	-8.44331
非有	-8.44684
壞	-8.44845
設	-8.4523
命	-8.45655
廣大	-8.45883
之所	-8.4595
禪	-8.46349
增	-8.46454
利益	-8.4656
長	-8.46669
供養	-8.46722
虛空	-8.46888
爾	-8.46963
親	-8.47676
豈	-8.47716
法性	-8.48261
形	-8.48549
不見	-8.49047
家	-8.49088
因明	-8.49187
據	-8.49676
云何為二	-8.4975
亦是	-8.49759
今此	-8.50216
若不	-8.5046
於彼	-8.50612
樹	-8.50728
不淨	-8.50927
亦如是	-8.51113
前後	-8.51191
足	-8.51503
終	-8.51602
病	-8.51835
是人	-8.52049
此二	-8.52702
若人	-8.52731
計	-8.52906
釋曰	-8.52988
佛法	-8.53081
如偈	-8.5347
二義	-8.53479
波	-8.53675
主	-8.54084
莊嚴	-8.54094
無所	-8.54302
白	-8.54351
善根	-8.5459
所成	-8.54685
三昧	-8.54863
罪	-8.55584
無漏	-8.55615
若爾	-8.55686
神	-8.55729
香	-8.5597
修習	-8.56135
金剛	-8.56229
業識	-8.56415
羅	-8.56459
、	-8.56572
同異	-8.56631
所言	-8.56678
言說	-8.57415
目	-8.57566
而有	-8.57767
無邊	-8.57822
寂靜	-8.58462
甚深	-8.58563
四句	-8.58745
第四	-8.59033
有二種	-8.59393
月	-8.59535
光明	-8.59701
益	-8.60014
比	-8.60374
唯識	-8.60434
行相	-8.60601
由是	-8.60601
安	-8.60883
智者	-8.61233
麤	-8.6132
是為	-8.61441
中有	-8.61904
又云	-8.62383
不說	-8.62728
此是	-8.62817
徧	-8.62844
衣	-8.63771
義故	-8.63873
直	-8.641
金	-8.64347
常住	-8.64653
巳說	-8.64685
觀察	-8.64727
自相	-8.65004
如何	-8.65101
被	-8.65131
不異	-8.65959
之心	-8.66269
味	-8.66527
詮	-8.66592
經說	-8.66704
過去	-8.66781
以下	-8.66895
劫	-8.6698
本曰	-8.67358
雙	-8.67497
法門	-8.6769
染法	-8.67978
佛言	-8.68048
此初也	-8.68258
摩	-8.68366
漸	-8.68532
義也	-8.69077
那	-8.69106
同喻	-8.69268
真如門	-8.69313
異品	-8.6938
體相	-8.70048
表	-8.70049
無別	-8.70186
不起	-8.70191
此則	-8.70248
此謂	-8.70385
鏡	-8.70387
過失	-8.70509
國	-8.70726
魔	-8.70775
習	-8.70942
僧	-8.70978
邊	-8.71154
息	-8.7125
皆悉	-8.71396
大悲	-8.71443
最	-8.71478
器	-8.71747
乎	-8.71909
近	-8.71941
然此	-8.72045
若言	-8.72078
異喻	-8.72229
思惟	-8.72247
斯則	-8.72487
即此	-8.72634
百	-8.72821
尚	-8.732
爾時	-8.73206
阿	-8.73255
覆	-8.73468
雖有	-8.73516
獨	-8.7357
現量	-8.73609
現在	-8.73631
到	-8.73767
虗空	-8.73931
相似	-8.74025
絕	-8.74667
復有	-8.74879
寂滅	-8.75036
二初	-8.75107
亦可	-8.75238
未來	-8.75434
此明	-8.75482
有情	-8.75715
悲	-8.75904
三相	-8.76349
如前	-8.76469
普	-8.76936
生滅門	-8.76991
口	-8.77184
手	-8.77303
而為	-8.77323
心體	-8.77373
坐	-8.77385
癡	-8.77438
於中有二	-8.77572
王言	-8.77884
互	-8.77935
事識	-8.78041
現前	-8.78052
同品	-8.78557
五陰	-8.78601
.	-8.78672
輪	-8.78796
如此	-8.7885
護	-8.79018
十種	-8.79099
能所	-8.79302
蓋	-8.79564
道理	-8.79604
亦非	-8.79949
或有	-8.80012
散	-8.80189
三界	-8.80191
不空	-8.80257
能起	-8.80355
伹	-8.80458
論文	-8.80506
影	-8.8071
往	-8.80962
其相云何	-8.81408
能破	-8.81513
邪見	-8.8155
因喻	-8.81795
所起	-8.81831
根本無明	-8.81867
法中	-8.81882
而生	-8.81918
達	-8.81978
四大	-8.82024
最勝	-8.82043
況	-8.82236
加	-8.82445
信心	-8.82672
又若	-8.82704
此義	-8.83048
并	-8.8344
本無	-8.83538
居	-8.83541
亦應	-8.83726
五者	-8.83983
不了	-8.84206
墮	-8.84215
應知	-8.84233
小乘	-8.84381
不善	-8.8442
不斷	-8.84982
如人	-8.85109
微細	-8.85123
正法	-8.8523
頭	-8.85306
退	-8.85314
存	-8.85371
相故	-8.85614
此云	-8.85744
者即	-8.85769
通達	-8.85872
惱	-8.8615
色等	-8.86436
是其	-8.86438
部	-8.86538
一時	-8.86597
別釋	-8.86782
陰	-8.86905
收	-8.86971
囉	-8.8698
花	-8.87109
了知	-8.87145
名曰	-8.8729
不許	-8.8733
正因	-8.87369
無異	-8.8741
中間	-8.87466
已說	-8.87595
所生	-8.87643
果報	-8.87864
高	-8.87891
有三種	-8.87973
真心	-8.87982
無體	-8.87988
辯	-8.87993
無為	-8.88031
焉	-8.88043
最上	-8.88623
無始	-8.88929
現識	-8.88963
聲聞	-8.8922
微	-8.89269
有無	-8.89413
寂	-8.8945
勸	-8.89558
含	-8.89585
發起	-8.89688
像	-8.897
隱	-8.89826
名之為	-8.89875
一念	-8.89876
名字	-8.89913
好	-8.90027
緣起	-8.90237
第五	-8.90352
尊	-8.90499
瞋	-8.90505
依此	-8.9054
異相	-8.90571
久	-8.90945
故曰	-8.91078
說法	-8.91139
十信	-8.91154
▁三	-8.91195
成立	-8.91306
世界	-8.91315
待	-8.915
請	-8.91531
遂	-8.9163
獲	-8.91748
怖	-8.91872
非謂	-8.92301
幻	-8.92745
是時	-8.92795
齊	-8.9288
隨緣	-8.93111
自他	-8.93152
二相	-8.93272
伏	-8.93357
脩	-8.93692
無念	-8.93763
例	-8.9387
傳	-8.94114
進	-8.94124
佛說	-8.94162
次說	-8.94282
如是等	-8.9445
十地	-8.94485
阿羅漢	-8.94513
能成	-8.94733
千	-8.9489
寧	-8.94955
解釋	-8.95045
故得	-8.95169
而無	-8.95201
如實	-8.95317
作意	-8.95339
受用	-8.95437
易	-8.95566
象	-8.95737
所見	-8.95749
但是	-8.95766
窮	-8.95908
止觀	-8.96061
縛	-8.96246
藥	-8.96381
廣說	-8.96398
如說	-8.96689
之因	-8.96703
意云	-8.96819
諸天	-8.97215
有三	-8.97229
是則	-8.97265
配	-8.97277
出離	-8.97448
假名	-8.97474
相者	-8.97528
應當	-8.9753
情	-8.9767
十二	-8.98563
能見	-8.98775
又此	-8.98881
夫	-8.9899
色相	-8.99129
畢竟	-8.9926
業相	-8.99279
珠	-8.99327
亂	-8.99403
1	-8.9953
各有	-8.99615
極成	-8.99618
我今	-8.99627
諸眾生	-8.99635
所緣	-8.99675
能知	-8.99681
過患	-8.99725
安住	-8.99745
輕	-8.99923
害	-8.9997
支	-9.00015
頌曰	-9.00138
彰	-9.00145
下文	-9.00272
讚	-9.00309
淨法	-9.00625
真妄	-9.00741
劣	-9.01043
如經中說	-9.01063
眷屬	-9.01225
雜	-9.01504
既無	-9.01613
無盡	-9.01928
華	-9.0194
下釋	-9.02118
燈	-9.02154
准	-9.02201
之言	-9.02321
染心	-9.02528
第七	-9.02601
那先	-9.02868
不壞	-9.0298
於是	-9.03021
致	-9.03183
有性	-9.03249
顯現	-9.0334
顛倒	-9.03602
問答	-9.0363
不退	-9.03773
禮	-9.03999
非一	-9.04506
宜	-9.04559
唯有	-9.04562
一向	-9.04587
決	-9.04654
又如	-9.04798
年	-9.04806
諦	-9.04846
五種	-9.05191
以是	-9.0535
城	-9.05395
皆有	-9.0549
法體	-9.05538
母	-9.05651
不共	-9.05662
闇	-9.05958
摩訶衍	-9.06356
經中	-9.06375
生起	-9.06421
迴向	-9.06424
地獄	-9.06429
返	-9.06451
陀	-9.06587
殺	-9.06649
不可說	-9.06834
感	-9.07057
述	-9.07148
出生	-9.07206
受持	-9.07542
不然	-9.07567
婆	-9.07573
木	-9.07654
十方	-9.07664
此因	-9.07733
置	-9.07884
妄念	-9.07917
經中說	-9.07918
堅	-9.08162
先明	-9.08195
飲食	-9.08364
剎那	-9.086
熱	-9.08769
帝	-9.08805
頌	-9.08939
一切諸法	-9.09038
揀	-9.09071
何者	-9.09267
末那	-9.09287
此文	-9.09324
龍	-9.09416
第八	-9.09486
燒	-9.09487
靜	-9.09599
新	-9.09701
令其	-9.09823
敬	-9.09866
鬼	-9.09954
恐	-9.0997
科	-9.1005
而起	-9.10061
菩提心	-9.10081
宗法	-9.10371
迦	-9.10483
生相	-9.10527
慈	-9.10576
不二	-9.10689
沒	-9.108
興	-9.10811
是中	-9.10847
陳那	-9.11424
縱	-9.11427
二法	-9.11894
略說	-9.12058
莫	-9.1206
歡喜	-9.12349
此義云何	-9.1249
此識	-9.1251
能別	-9.12547
能緣	-9.12875
三細	-9.12883
本來	-9.12968
備	-9.13001
若以	-9.13089
宗因	-9.13276
機	-9.13366
弟子	-9.13388
見佛	-9.13412
門中	-9.13474
不言	-9.13563
眼識	-9.13606
善法	-9.13666
佛性	-9.1383
半	-9.13855
財	-9.13863
諸行	-9.13956
下明	-9.14035
功	-9.14078
流轉	-9.14082
不爾	-9.14087
第六	-9.14156
相也	-9.14335
法故	-9.1457
之人	-9.14703
此法	-9.14774
般若	-9.14864
不思議	-9.14964
而能	-9.1497
大海	-9.15149
亡	-9.15221
不變	-9.15306
間	-9.15405
牒	-9.15648
沙門	-9.15717
能令	-9.15766
超	-9.15816
救	-9.15916
以有	-9.16071
誦	-9.16249
而言	-9.16256
助	-9.16329
路	-9.16513
體性	-9.16695
父母	-9.16722
無二	-9.1688
無生	-9.16929
其心	-9.16941
有四	-9.16969
垢	-9.1711
能依	-9.17145
石	-9.17306
三寶	-9.17375
法者	-9.17407
布施	-9.17466
無餘	-9.17481
慢	-9.17482
所得	-9.17611
勿	-9.17652
從此	-9.17751
却	-9.18181
有人	-9.18205
不可得	-9.1823
正念	-9.18315
互相	-9.18432
成佛	-9.18433
唯是	-9.18517
夢	-9.18556
身心	-9.1868
懈怠	-9.18716
本識	-9.18787
六者	-9.18916
嚩	-9.19248
礙	-9.19248
守護	-9.19345
即前	-9.19412
譯	-9.19429
不為	-9.19442
一法	-9.19558
耶答	-9.19629
滿足	-9.1963
共相	-9.19719
之時	-9.19802
滅相	-9.19934
土	-9.19964
依止	-9.19994
而得	-9.20035
欲界	-9.20136
作用	-9.20229
二釋	-9.20589
林	-9.2059
熟	-9.20747
苦樂	-9.20924
有漏	-9.20956
契	-9.21075
舍	-9.21113
萬	-9.21147
節	-9.21171
但說	-9.21333
2	-9.21383
汝言	-9.21518
不取	-9.21765
女	-9.21849
之體	-9.21877
以彼	-9.21882
速	-9.22034
我見	-9.22064
諸根	-9.2207
是常	-9.22079
強	-9.22199
持戒	-9.22333
正理	-9.22382
無性	-9.22413
何等	-9.22505
際	-9.22526
面	-9.22639
可得	-9.22668
又說	-9.22803
以明	-9.2283
列	-9.22874
三世	-9.22903
犯	-9.2297
唯心	-9.23062
何得	-9.23071
偈曰	-9.23133
中說	-9.23202
大王	-9.23208
誰	-9.23431
是事	-9.23538
可見	-9.23784
何以	-9.23834
說為	-9.23909
古	-9.23996
皆名	-9.24119
轉識	-9.24217
一體	-9.24239
殊勝	-9.24269
亦然	-9.24348
翻	-9.24528
出世	-9.24532
實有	-9.24536
禪定	-9.24541
車	-9.24576
倒	-9.24584
於諸	-9.24722
咸	-9.24782
甚	-9.24886
無不	-9.25254
有體	-9.2532
以無	-9.25321
為宗	-9.25406
憶	-9.25441
十六	-9.2551
偏	-9.25634
七識	-9.2569
後二	-9.25832
殊	-9.25899
遇	-9.26125
厭	-9.26226
尋	-9.26311
上下	-9.26549
又復	-9.26607
此等	-9.2679
不出	-9.26824
不捨	-9.2706
此釋	-9.27071
印	-9.27181
諸識	-9.27221
即無	-9.27351
總相	-9.27395
切	-9.27522
是也	-9.27823
怖畏	-9.27948
聖人	-9.28031
力故	-9.28034
智相	-9.28049
頂	-9.28187
夜	-9.28394
微塵	-9.28588
壽命	-9.28597
一種	-9.28639
轉相	-9.28643
本有	-9.28737
老	-9.28754
則是	-9.28863
亦復	-9.28922
一味	-9.28987
能入	-9.2899
說名	-9.29097
審	-9.29197
不相應	-9.29201
隨一	-9.29244
利他	-9.29278
位中	-9.29472
陳	-9.29591
昔	-9.29694
內外	-9.29796
故下文云	-9.29973
唯一	-9.30116
解云	-9.30133
能現	-9.30135
六識	-9.30288
有二初	-9.30531
清	-9.30582
文中	-9.30639
章	-9.3073
佛果	-9.30824
釋云	-9.30961
都	-9.3107
各各	-9.31102
行人	-9.31581
聽	-9.31736
自心	-9.31809
無上	-9.31888
但以	-9.32015
永	-9.32019
性故	-9.32121
愚癡	-9.32191
不滅	-9.32221
是無常	-9.32446
寬	-9.32513
徵	-9.32528
得名	-9.32607
卷	-9.32707
謂此	-9.32887
造作	-9.33091
所入	-9.3312
所詮	-9.33211
有異	-9.33214
悉皆	-9.33232
見分	-9.33248
里	-9.33462
所行	-9.33491
為一	-9.33578
三大	-9.33716
堅固	-9.3384
謗	-9.34058
釋成	-9.34088
分明	-9.34111
準	-9.34306
功能	-9.34322
婆羅門	-9.34545
初地	-9.34632
泥洹	-9.34651
正見	-9.34666
出家	-9.34911
仍	-9.34925
信解	-9.35155
提	-9.3524
神通	-9.35244
己	-9.35348
生滅門中	-9.35437
三乘	-9.35499
差	-9.35525
妄想	-9.35569
父	-9.35582
此說	-9.35606
于	-9.3579
是心	-9.35822
此約	-9.35844
鼻	-9.35868
質	-9.35896
共許	-9.35966
不立	-9.36027
頓	-9.3619
云何為三	-9.36206
初釋	-9.3629
立者	-9.36302
心所	-9.36305
云何名為	-9.36653
十一	-9.36671
號	-9.36796
法執	-9.36836
故今	-9.37047
有所	-9.37051
一相	-9.37121
哉	-9.37152
能熏	-9.37161
是名為	-9.37225
有為	-9.37351
若依	-9.374
展轉	-9.37461
尼	-9.37465
歎	-9.37488
此三	-9.37513
牛	-9.37752
諸菩薩	-9.37764
底	-9.37766
論中	-9.37808
正明	-9.37876
各別	-9.37918
善惡	-9.38004
造論	-9.38193
問云何	-9.38204
不相捨離	-9.38221
未得	-9.3834
或以	-9.38357
亦如	-9.38477
若離	-9.3852
毒	-9.38532
異故	-9.38937
則有	-9.38994
此顯	-9.38996
麤細	-9.39148
法也	-9.39174
馬	-9.39204
用大	-9.39401
青	-9.39455
及與	-9.39524
正智	-9.39767
越	-9.39816
廣釋	-9.3982
三藏	-9.3983
報身	-9.39845
初禪	-9.40001
源	-9.40026
若於	-9.40031
減	-9.40069
虛	-9.40186
恭敬	-9.4023
故有	-9.40322
有義	-9.4042
憂	-9.40434
蘊	-9.40512
瞋恚	-9.40588
四諦	-9.40611
只	-9.40625
權	-9.40744
繫	-9.40762
少分	-9.40816
和	-9.40867
若說	-9.41062
無實	-9.41265
此心	-9.41449
安立	-9.41466
有此	-9.4159
正釋	-9.41678
其體	-9.41698
西	-9.41892
□	-9.41917
華嚴	-9.42077
不信	-9.42083
故無	-9.42213
無過	-9.42272
則不	-9.42309
其身	-9.42707
文云	-9.42745
俗	-9.42817
而說	-9.42986
之智	-9.43064
所作性	-9.43066
虗	-9.43154
脫	-9.43323
親近	-9.43443
立義	-9.43476
骨	-9.43493
棄	-9.43603
然後	-9.44009
所知	-9.44079
3	-9.44091
此言	-9.44191
執著	-9.44234
愚	-9.44308
音聲	-9.44371
緣生	-9.4439
隨其	-9.44476
宣說	-9.44682
貪欲	-9.44769
釋曰次	-9.44827
念念	-9.44833
是事不然	-9.4515
非無	-9.45253
諸煩惱	-9.45392
野	-9.45438
別明	-9.45496
本性	-9.45502
地前	-9.45588
同時	-9.45623
障礙	-9.45675
謂由	-9.4579
心性	-9.45923
不以	-9.46074
善知識	-9.4613
河	-9.46452
業報	-9.46476
分齊	-9.46529
此之	-9.46574
尊重	-9.4671
住處	-9.46736
相分	-9.46893
所證	-9.47061
難云	-9.47098
色界	-9.47125
論主	-9.47147
十五	-9.47164
無因	-9.47211
得成	-9.47215
今言	-9.47231
語言	-9.47275
斷除	-9.4731
判	-9.47358
惡業	-9.47487
壽	-9.4751
畏	-9.47513
起信	-9.47548
元	-9.47555
密	-9.4757
以顯	-9.47666
謂於	-9.47669
現相	-9.47695
於他	-9.47713
玄	-9.47717
得入	-9.47749
何有	-9.47992
而非	-9.48036
前文	-9.48317
前二	-9.48423
別有	-9.48707
梨耶	-9.48776
能作	-9.48868
談	-9.49021
呪	-9.49084
五識	-9.49175
瓶等	-9.49176
烟	-9.49253
雲	-9.49388
所作性故	-9.49432
有一	-9.49535
善男子	-9.49597
續	-9.49643
示現	-9.49845
八種	-9.49845
虛妄	-9.49869
心境	-9.49905
體用	-9.50009
令起	-9.5011
七者	-9.50172
△	-9.50223
法爾	-9.50272
不名	-9.50298
俱生	-9.50327
惠	-9.50411
發菩提心	-9.50561
敘	-9.50596
得生	-9.50852
但言	-9.50864
一云	-9.51004
離相	-9.51071
無量無邊	-9.51202
譬	-9.51422
總標	-9.51493
怨	-9.51612
不失	-9.51775
不作	-9.51866
名言	-9.51895
梵	-9.5194
貪著	-9.52004
背	-9.52008
諍	-9.52057
誠	-9.52057
幾	-9.52097
所現	-9.52126
舊	-9.52177
損	-9.52189
上來	-9.52346
初明	-9.52418
真體	-9.52637
安樂	-9.5264
等也	-9.5296
所依不成	-9.53009
離諸	-9.53013
六種	-9.53378
八識	-9.53641
周	-9.53774
八者	-9.53828
草	-9.5383
了因	-9.53906
徵釋	-9.53962
藏識	-9.54027
攝受	-9.5419
怛	-9.54271
因中	-9.54401
不生滅	-9.54434
勤	-9.54498
方得	-9.54659
謂即	-9.54764
疏云	-9.54777
有四種	-9.54861
之用	-9.54898
如彼	-9.54969
承	-9.55065
心法	-9.55128
一人	-9.55202
所熏	-9.55279
其義	-9.553
雖復	-9.55306
開示	-9.55352
不實	-9.55459
此事	-9.55485
不生不滅	-9.55583
暗	-9.55601
次釋	-9.55634
與彼	-9.55687
更無	-9.55708
苦惱	-9.55709
此身	-9.55715
落	-9.55718
正顯	-9.55764
總別	-9.5578
伽	-9.55861
雨	-9.55861
二障	-9.55877
融	-9.55883
何不	-9.55913
東	-9.56012
分別事識	-9.56225
無間	-9.56275
若能	-9.56288
之性	-9.56309
毀	-9.56318
即有	-9.5634
第一義諦	-9.56423
現見	-9.56489
視	-9.56625
所造	-9.56627
作如是說	-9.56672
不與	-9.56679
可愛	-9.56765
覺義	-9.5677
南	-9.56799
忘	-9.56912
化身	-9.56925
者謂	-9.56951
貪愛	-9.57099
立名	-9.57102
容	-9.57106
申	-9.57164
不可思議	-9.57185
業障	-9.57265
調伏	-9.57269
疾	-9.57302
冥	-9.57444
亦得	-9.57471
六塵	-9.57524
深心	-9.57552
不著	-9.57604
資	-9.57608
生因	-9.57707
初一	-9.57733
放逸	-9.57803
阿梨耶識	-9.57948
薄	-9.57981
馬鳴	-9.58058
眼等	-9.58158
此下	-9.58234
破壞	-9.58329
別解	-9.58487
此人	-9.58515
不住	-9.587
鳥	-9.58817
為體	-9.59002
次當說	-9.59027
離於	-9.59069
舌	-9.59279
所別	-9.59298
寺	-9.59314
猶豫	-9.59419
憶念	-9.59481
別故	-9.59506
成宗	-9.59569
以其	-9.59578
有二義	-9.59579
狹	-9.59783
中道	-9.59875
敵	-9.59889
體大	-9.59916
妄法	-9.60399
淨心	-9.60553
二字	-9.60568
為欲	-9.60576
誹謗	-9.60628
捨離	-9.60682
本論	-9.60801
依於	-9.60836
守	-9.6085
一切智	-9.60925
覺觀	-9.60942
覺知	-9.60944
後一	-9.60959
極微	-9.61022
契經中作如是說	-9.61159
本末	-9.6118
國土	-9.61343
人天	-9.61706
刺	-9.61745
不分	-9.61753
理門	-9.61796
貫	-9.61845
或復	-9.61965
今初	-9.62124
又以	-9.62211
飲	-9.62265
契經	-9.62382
消	-9.62422
波羅蜜	-9.62481
非異	-9.62539
總攝	-9.62542
患	-9.62566
引證	-9.62593
但有	-9.62687
又經中說	-9.62718
初相	-9.63002
作業	-9.63093
云何為四	-9.63229
渴愛	-9.63245
我當	-9.63318
俱有	-9.63444
虗妄	-9.63483
一切皆	-9.63488
魔事	-9.63594
佛地	-9.63611
心不	-9.6362
暫	-9.63637
故能	-9.63664
取著	-9.63681
正行	-9.63693
二合引	-9.6382
首	-9.63871
過也	-9.63889
定有	-9.64069
4	-9.64307
是法	-9.64447
令彼	-9.64448
隨應	-9.6446
非真	-9.64493
寄	-9.64506
業用	-9.64675
覩	-9.64723
依心	-9.64928
皆為	-9.64976
逆	-9.65106
為緣	-9.65166
義者	-9.65265
不樂	-9.65323
如上	-9.65335
無分別	-9.65343
實無	-9.65393
故成	-9.65516
若約	-9.65563
心相	-9.65566
精	-9.6566
尾	-9.65711
後顯	-9.65736
是菩薩	-9.65747
恩	-9.65874
福德	-9.65879
威儀	-9.65993
意許	-9.66027
訖	-9.66067
網	-9.66093
帶	-9.66129
沙	-9.66205
諸佛菩薩	-9.66228
色心	-9.66276
何況	-9.66299
無窮	-9.66364
外緣	-9.66389
声	-9.66412
自利	-9.6642
阿難	-9.66497
潤	-9.66506
調	-9.66563
漏	-9.66707
初標	-9.66731
別說	-9.66782
由旬	-9.66913
輪迴	-9.66968
則能	-9.67055
若見	-9.67086
前說	-9.67102
0	-9.67113
種類	-9.67117
說言	-9.67204
彌	-9.67214
薰	-9.67364
心中	-9.6738
真如門中	-9.67576
盛	-9.67587
不依	-9.67603
服	-9.67662
立宗	-9.67702
真性	-9.67723
三句	-9.67739
之意	-9.67762
何所	-9.6781
得道	-9.67822
詳	-9.67826
有過	-9.67834
之力	-9.68179
現行	-9.6828
逐	-9.68297
所執	-9.68319
之行	-9.6834
泥	-9.68597
若是	-9.68652
橫	-9.68683
鉢	-9.68777
遊	-9.68847
書	-9.68875
奉	-9.68912
生故	-9.69014
別異	-9.69073
何須	-9.69138
愛樂	-9.69173
譬喻	-9.69321
能感	-9.69501
心無	-9.69576
懷	-9.69642
應身	-9.69646
未曾	-9.69657
改	-9.69758
無數	-9.69815
運	-9.69876
內熏	-9.69925
立義分	-9.70059
皆以	-9.70123
心也	-9.70163
黑	-9.70187
總舉	-9.70203
心故	-9.70537
自身	-9.70566
制	-9.70587
是一	-9.70614
能詮	-9.70616
此四	-9.7064
我慢	-9.70641
五塵	-9.70671
無知	-9.70678
四法	-9.70721
一句	-9.70797
別相	-9.70841
此意	-9.7087
此亦	-9.70897
留	-9.70905
佛身	-9.7094
男女	-9.71038
聲無常	-9.71067
一切世間	-9.71093
總名	-9.71214
總結	-9.71268
及諸	-9.71279
故不	-9.71314
濕	-9.71352
歲	-9.71362
俱不成	-9.71365
說有	-9.71386
今既	-9.7141
謂依	-9.71484
南無	-9.71579
眠	-9.71625
曾	-9.71649
地上	-9.71668
所顯	-9.71772
偈	-9.71804
肉	-9.71851
之境	-9.71998
論師	-9.72049
我執	-9.72083
為彼	-9.72127
隨所	-9.72163
正定	-9.72166
女人	-9.72183
由彼	-9.72321
得解脫	-9.72378
如次	-9.72385
所作性因	-9.72388
次下	-9.72401
如是以	-9.72403
謂有	-9.72422
旨	-9.7244
猶預	-9.72451
百千	-9.72456
勇猛	-9.72496
真理	-9.72538
而成	-9.72576
》	-9.72607
必有	-9.72666
宗中	-9.72671
五蘊	-9.72726
不遍	-9.72728
演	-9.7281
法相	-9.72871
離欲	-9.7295
同相	-9.72996
慳	-9.73146
無色	-9.73179
或可	-9.73203
為顯	-9.73267
出現	-9.7332
三賢	-9.73381
終不	-9.7342
住持	-9.73507
行處	-9.73604
微妙	-9.7361
九相	-9.73666
豈非	-9.73671
二喻	-9.73677
池	-9.73747
迴	-9.73792
毛	-9.73999
為喻	-9.74036
我等	-9.74036
去來	-9.74096
楞伽	-9.74116
中有二	-9.74152
故須	-9.74152
兩俱	-9.74268
依前	-9.74292
大有	-9.74468
他人	-9.74516
隨染	-9.74529
相違決定	-9.7459
此中有二	-9.74653
座	-9.74689
且如	-9.74699
No	-9.74725
轉故	-9.74726
能斷	-9.74789
日月	-9.74866
無所有	-9.74907
任運	-9.74908
為相	-9.74919
不復	-9.74962
立量	-9.75023
顕	-9.75131
兩俱不成	-9.75173
稽首	-9.75176
即名	-9.75197
謂若	-9.75471
免	-9.75512
若法	-9.75735
以何義故	-9.75742
滅者	-9.75887
長者	-9.75938
不相離	-9.75939
不現	-9.76028
安隱	-9.76053
法寶	-9.76104
眾生心	-9.76187
真諦	-9.76277
滅故	-9.76332
敵者	-9.76341
園	-9.76548
二句	-9.76655
名色	-9.76725
始終	-9.76774
顯其	-9.76792
受生	-9.76838
四禪	-9.76887
論說	-9.76894
古師	-9.76928
初句	-9.76934
住相	-9.76953
復說	-9.7697
無住	-9.76974
性相	-9.77057
釋上	-9.77188
心識	-9.77217
第十	-9.77248
宿	-9.77269
欲令	-9.77448
舉體	-9.77494
其相	-9.77505
性德	-9.77527
責	-9.77588
志	-9.7763
凡聖	-9.77635
成熟	-9.77657
三摩地	-9.7768
呵	-9.77701
心生	-9.77722
即為	-9.77732
次明	-9.77898
受樂	-9.7795
局	-9.7821
氣	-9.78228
因云	-9.7826
同體	-9.78373
淺	-9.78397
茲	-9.78564
徒	-9.78575
如理	-9.78675
唯取	-9.78793
乖	-9.78898
若得	-9.79031
十八	-9.79032
中初	-9.7906
亦能	-9.79072
能得	-9.79076
覺者	-9.79077
宣	-9.79187
推	-9.79197
非實	-9.79275
角	-9.79278
空義	-9.79371
法師	-9.79501
俱非	-9.79683
等諸	-9.79746
前三	-9.79746
鐵	-9.79759
三業	-9.7978
其因	-9.79971
十四	-9.80089
以心	-9.8022
積	-9.80235
五根	-9.80277
巳下	-9.80294
有六	-9.80306
資糧	-9.80306
體也	-9.80348
自性差別	-9.80375
呼	-9.80472
正覺	-9.80641
證得	-9.80648
有五	-9.80792
所化	-9.80842
穢	-9.80863
中無	-9.81005
快樂	-9.81006
皆由	-9.81012
佛世尊	-9.81061
繁	-9.81182
如其次第	-9.81205
取相	-9.81418
更有	-9.8142
下二	-9.81452
本法	-9.81493
不定過	-9.81626
具有	-9.81645
而作	-9.81739
是謂	-9.81888
體故	-9.81951
但為	-9.81964
因也	-9.82048
偈言	-9.8209
缺	-9.82091
恒沙	-9.82166
如幻	-9.82212
妄境	-9.82242
未有	-9.82286
五欲	-9.82304
勝義	-9.8234
動念	-9.82347
此名	-9.82444
之過	-9.82513
定心	-9.82524
但取	-9.82563
意業	-9.82564
不覺義	-9.82594
是有法	-9.82595
拔	-9.82755
是有	-9.82798
喜樂	-9.82813
乃至廣說故	-9.82817
從本巳來	-9.82884
清涼	-9.83056
一法界	-9.83082
饒益	-9.83118
如其	-9.83214
即成	-9.83216
賊	-9.83237
美	-9.83306
則知	-9.83346
總明	-9.83373
二因	-9.83385
離念	-9.83474
無差別	-9.83511
慮	-9.83699
者即是	-9.83885
妄執	-9.83919
故論云	-9.83945
邪執	-9.84014
無作	-9.84068
慈悲	-9.84125
皮	-9.84166
左	-9.84286
念佛	-9.84313
說名為	-9.84345
相對	-9.8435
之理	-9.84424
▁【	-9.84521
亦即	-9.84716
第一義	-9.84934
諸惡	-9.84949
室	-9.85183
後三	-9.852
諸有情	-9.85201
該	-9.85215
尸	-9.85412
問何故	-9.85538
黎耶	-9.85629
九者	-9.85634
如下	-9.85703
不須	-9.85708
之本	-9.85708
上文	-9.8571
大小	-9.8573
總持	-9.8573
分二	-9.85794
既是	-9.85814
未生	-9.85969
令他	-9.86039
是苦	-9.86048
明了	-9.86062
不違	-9.86229
增上	-9.86245
曩	-9.86262
段	-9.86314
者意云	-9.86316
因故	-9.8634
戲論	-9.86417
明何義	-9.86525
此上	-9.86549
所聞	-9.86668
巳上	-9.86673
心源	-9.86747
寂寂	-9.86764
田	-9.86899
其中	-9.86909
從彼	-9.87075
受苦	-9.87166
智淨相	-9.87187
應化	-9.87189
葉	-9.87213
三初	-9.87221
即顯	-9.87375
相待	-9.87419
娑	-9.87425
似因	-9.8748
未能	-9.87484
生時	-9.87497
疏中	-9.87615
一切煩惱	-9.87706
周遍	-9.87856
今以	-9.87958
一切染法	-9.87972
初二	-9.87975
業果	-9.87988
如言	-9.88066
如前所說	-9.88158
世俗	-9.88268
可說	-9.88391
或為	-9.88431
釋曰三	-9.88517
是無	-9.88532
如前說	-9.88545
嚴	-9.88551
八地	-9.88622
喻中	-9.88632
萬行	-9.88652
巧	-9.88682
遍滿	-9.88691
如有	-9.88817
稱讚	-9.88953
無畏	-9.88963
於中有三	-9.88977
一義	-9.89012
招	-9.89069
云何為	-9.89179
不是	-9.89192
常無常	-9.89319
等法	-9.89332
以依	-9.89336
二明	-9.89379
後釋	-9.89405
詞	-9.89421
義理	-9.89474
能為	-9.89527
所成立	-9.89631
徹	-9.89772
即當	-9.89781
鹿	-9.89788
六染	-9.89818
之事	-9.89834
第八識	-9.89843
故非	-9.89885
住地	-9.89896
不攝	-9.89996
心外	-9.9001
若心	-9.90065
離言	-9.90199
為本	-9.90232
梵行	-9.90345
生滅相	-9.90424
三分	-9.90426
偈云	-9.90452
一切境界	-9.90457
瑜伽	-9.90479
不如	-9.90657
無記	-9.90682
濁	-9.90695
賢	-9.90754
聖諦	-9.9078
端	-9.90815
皆無	-9.90863
實相	-9.90868
異法	-9.90874
如水	-9.90953
又汝言	-9.90964
辭	-9.91029
俱是	-9.91073
疑惑	-9.91147
獲得	-9.91175
正義	-9.91363
不待	-9.91398
以成	-9.91459
岸	-9.91495
布	-9.91579
釋曰四	-9.91695
前云	-9.91703
不唯	-9.91733
之名	-9.91773
乞	-9.91825
焰	-9.91875
法空	-9.91884
十者	-9.91962
住於	-9.9203
亦名為	-9.92037
忍辱	-9.92201
此偈	-9.92252
何等為	-9.92254
惡趣	-9.92393
大智	-9.92429
濟	-9.92528
則為	-9.92535
奢摩他	-9.92595
纏	-9.92634
奪	-9.92654
憍慢	-9.92683
不可得故	-9.92784
信位	-9.92788
大願	-9.92794
隨喜	-9.92806
仰	-9.92819
汝問	-9.92835
宮	-9.92857
浮	-9.92881
虫	-9.92889
打	-9.92896
何名	-9.92919
釋曰二	-9.93038
專	-9.93039
勢	-9.93161
彼坐禪人	-9.93191
習氣	-9.93229
大義	-9.93238
邪定	-9.93317
隨意	-9.93395
數量	-9.9343
漸漸	-9.93512
群	-9.93513
不盡	-9.93545
聖道	-9.93587
告	-9.93724
麁細	-9.93737
或於	-9.93872
不相違	-9.93893
之文	-9.93907
妄染	-9.93935
若據	-9.9395
空無	-9.94209
念念滅	-9.94213
入涅槃	-9.94304
王復問那先	-9.94326
同一	-9.94436
歷	-9.94466
五分	-9.94535
浪	-9.94556
葢	-9.94613
非一非異	-9.94622
心念	-9.94629
藉	-9.94667
序	-9.94688
中言	-9.94708
單	-9.94728
牽	-9.94844
歸命	-9.94869
平	-9.949
原	-9.94906
簡別	-9.94936
相大	-9.95036
不自	-9.95167
善人	-9.95171
不在	-9.95177
云何對治	-9.95252
棃耶	-9.95324
師子	-9.95336
非但	-9.95468
得自在	-9.95479
異熟	-9.95642
結成	-9.95653
既不	-9.95665
於前	-9.95684
蛇	-9.95826
能治	-9.95843
毘	-9.95893
見聞	-9.95983
生於	-9.9599
億	-9.95995
正觀	-9.96001
畜生	-9.96049
凡夫二乘	-9.96055
見道	-9.96059
別顯	-9.96062
誐	-9.96064
此乃	-9.96096
依他	-9.96113
眼根	-9.96193
以一切法	-9.9626
即能	-9.9637
二覺	-9.96398
未盡	-9.96598
悔	-9.96637
自此	-9.9665
因者	-9.96665
何用	-9.96692
自有	-9.96708
從無始來	-9.9671
其所	-9.96735
懺悔	-9.96932
三法	-9.97205
能顯	-9.97235
唱	-9.97273
相符	-9.9732
後重	-9.97387
能攝	-9.97551
相違因	-9.97552
此門	-9.97625
諸有	-9.97645
人中	-9.97806
又於	-9.97875
所明	-9.97959
眾多	-9.98059
北	-9.98088
諸功德	-9.98157
者此意	-9.98167
學者	-9.98212
因緣故	-9.98224
即得	-9.98327
理事	-9.9844
煩惱障	-9.98472
枝	-9.98513
最初	-9.98586
故經云	-9.98729
都無	-9.98743
異者	-9.98841
之外	-9.98856
曉	-9.98888
繩	-9.9894
智力	-9.99018
雖不	-9.99027
應云	-9.99029
再	-9.99078
魚	-9.99085
穀	-9.99086
初總標	-9.99091
修止	-9.99127
投	-9.99152
等相	-9.99154
相即	-9.99174
本自	-9.9923
似破	-9.99279
無自性	-9.9933
通於	-9.99344
餘人	-9.99348
之上	-9.9937
文殊	-9.99526
廣明	-9.99527
苦諦	-9.99532
相用	-9.99601
心起	-9.99603
非因	-9.99629
繫縛	-9.99683
能取	-9.99777
若在	-9.99814
無智	-9.99842
決擇	-9.99867
良以	-9.99879
以何	-9.99925
龍樹	-9.99956
慚愧	-10.0005
諸相	-10.0016
弘	-10.0021
成正覺	-10.0023
跡	-10.0028
即便	-10.0037
天人	-10.0037
勝論	-10.004
哩	-10.0055
一切有情	-10.0056
樂受	-10.0058
無常等	-10.0058
堪	-10.0063
滅盡	-10.0064
值	-10.0074
思之	-10.0074
立義分中	-10.0075
髮	-10.0075
7)	-10.0082
空等	-10.0084
比量相違	-10.0088
為其	-10.0092
彼此	-10.0094
無別體	-10.0097
差別故	-10.01
短	-10.0104
同類	-10.0104
解脫道	-10.0109
厚	-10.0109
及以	-10.0114
授	-10.0114
何法	-10.0115
常恒	-10.0117
無障礙	-10.0117
亦說	-10.0121
非彼	-10.0121
無著	-10.0122
涅盤	-10.0125
散亂	-10.0128
多聞	-10.0135
無上菩提	-10.0136
又有	-10.0137
出世間	-10.0138
能除	-10.014
訶	-10.014
棄捨	-10.0143
有相	-10.0146
緣故	-10.0147
薩	-10.0153
解行	-10.0153
有人言	-10.0163
有何	-10.0167
最後	-10.0168
聞法	-10.0172
心王	-10.0173
大師	-10.0174
6)	-10.0183
別立	-10.0188
外境	-10.0196
所量	-10.0204
種性	-10.0211
轉變	-10.0212
生疑	-10.0224
讚歎	-10.0225
防	-10.0225
准此	-10.0231
以是義故	-10.0231
中亦二	-10.0234
於一	-10.0234
兩重	-10.0237
特	-10.0242
性淨	-10.0243
余	-10.0243
五十	-10.0244
若我	-10.0245
真如三昧	-10.025
令得	-10.0251
定慧	-10.0258
雖無	-10.0264
大慧	-10.0282
於一切	-10.0282
必須	-10.0289
變異	-10.0293
尊者	-10.0298
四義	-10.0302
8)	-10.0306
老死	-10.0307
大地	-10.0308
諸苦	-10.0309
諸如來	-10.0316
一切處	-10.032
命終	-10.0326
其猶	-10.0329
亦云	-10.0329
至於	-10.0332
第七識	-10.0335
修道	-10.034
曲	-10.034
與前	-10.0342
我說	-10.0351
畢	-10.0356
此經	-10.0362
象王	-10.0364
脚	-10.0364
趣入	-10.0365
蓮華	-10.0375
是實	-10.0379
空寂	-10.038
然則	-10.0388
動靜	-10.0399
見者	-10.0399
皆從	-10.0399
罪人	-10.0401
1)	-10.0405
大覺	-10.0408
不行	-10.042
8	-10.0423
而立	-10.0436
限	-10.0447
乃是	-10.045
以一	-10.0455
黃	-10.0457
貴	-10.0465
接	-10.0465
於其	-10.0467
擊	-10.0467
悅	-10.0469
因義	-10.047
皆得	-10.047
三釋	-10.0471
無心	-10.0477
名義	-10.048
2)	-10.0489
若欲	-10.049
為同喻	-10.0492
心行	-10.0493
身口	-10.0498
宗義	-10.0513
生處	-10.0513
別義	-10.0521
萬法	-10.0526
5)	-10.053
冷	-10.0535
摩訶	-10.0544
不能得	-10.0544
天眼	-10.0548
廣略	-10.0549
真智	-10.0558
鼓	-10.0559
4)	-10.056
白佛言	-10.0564
後得	-10.0565
名相	-10.0566
放	-10.0567
唯是一心	-10.0573
吉祥	-10.0574
世諦	-10.0577
唐	-10.0579
傷	-10.0583
宮殿	-10.0589
明其	-10.0595
聲論	-10.0599
見有	-10.0602
知見	-10.0604
經論	-10.061
名也	-10.0619
二十	-10.0621
初中言	-10.0623
不極成	-10.0626
故生	-10.0629
皆非	-10.0648
能觀	-10.0648
一切諸	-10.0653
三德	-10.0658
思量	-10.066
有其	-10.0663
謬	-10.0664
引經	-10.0664
妄見	-10.0676
影像	-10.0681
洲	-10.0685
隨其所應	-10.0685
已下	-10.0689
自證分	-10.0689
▁四	-10.0695
並是	-10.0696
自許	-10.0701
三義	-10.0702
不具	-10.0712
渴	-10.0714
一切菩薩	-10.0722
若云	-10.0723
9)	-10.0727
詣	-10.0733
所觀	-10.0736
漸次	-10.0737
何義	-10.075
隔	-10.0757
傍	-10.076
利根	-10.0762
立敵	-10.0764
赤	-10.0765
題	-10.077
可以	-10.0772
登	-10.0772
六道	-10.0777
二量	-10.078
7	-10.078
所取	-10.0785
數論	-10.0785
三支	-10.0787
之宗	-10.0799
而轉	-10.0799
長時	-10.0802
濫	-10.0805
是知	-10.0809
惟	-10.0815
非常	-10.0819
但云	-10.0821
乾	-10.0826
五十一位	-10.0826
十三	-10.0835
六度	-10.0855
三身	-10.0861
有我	-10.0867
但約	-10.0874
能證	-10.0881
若有眾生	-10.0889
神我	-10.0894
無所得	-10.0901
隨心	-10.0921
有五種	-10.0922
檀	-10.0924
凡小	-10.0925
軟	-10.0925
途	-10.0927
而實	-10.093
貧窮	-10.0931
似立	-10.0932
災	-10.0933
可解	-10.0936
之異	-10.0937
有差別	-10.0939
下文云	-10.0955
隨逐	-10.0957
令心	-10.0962
無差	-10.0963
破戒	-10.0968
天子	-10.0968
無違	-10.0973
不聞	-10.0976
諸業	-10.0978
非法	-10.0986
無能	-10.0988
變易	-10.099
若彼	-10.0992
為他	-10.0995
若為	-10.1002
境界相	-10.101
不解	-10.1011
證真	-10.1017
若此	-10.1017
分中	-10.1026
略明	-10.1032
任	-10.1038
養	-10.1042
實等	-10.1045
是處	-10.1046
希有	-10.1047
鈍根	-10.1051
乳	-10.1057
處處	-10.1061
隨一不成	-10.1063
所為	-10.1064
所餘	-10.1066
相應故	-10.1067
四十	-10.1072
之處	-10.108
七日	-10.1088
四門	-10.1088
妄語	-10.109
常見	-10.1098
六麤	-10.1103
是明	-10.1127
惡道	-10.1132
勤修	-10.1134
靈	-10.1136
文義	-10.1142
後得智	-10.1146
偽	-10.1147
實性	-10.1147
忽	-10.1148
如上說	-10.1149
依正	-10.1164
應言	-10.1168
我於	-10.1171
a	-10.1175
熱惱	-10.1181
?	-10.1184
公	-10.1187
講	-10.1196
此二種	-10.1206
賴耶	-10.1212
名究竟覺	-10.1213
正是	-10.1231
論者	-10.1232
義說	-10.1236
前所說	-10.1236
大眾	-10.1237
七種	-10.1237
永離	-10.1238
供	-10.1242
當念	-10.1253
有諸	-10.1259
法義	-10.126
其實	-10.1263
信根	-10.1267
悟他	-10.1274
疏文	-10.1276
所別不成	-10.1277
稍	-10.1278
以前	-10.1279
更生	-10.1282
即真如	-10.129
衣服	-10.1291
兒	-10.1293
六根	-10.1296
反顯	-10.1305
牙	-10.1305
退失	-10.131
於佛	-10.1311
所發	-10.1312
伊	-10.1312
同法	-10.1321
善心	-10.1323
軍	-10.1328
「	-10.134
修多羅	-10.1343
新論	-10.1345
方成	-10.1349
斷滅	-10.1351
發生	-10.1352
即彼	-10.1356
究	-10.1359
善業	-10.1364
疏二	-10.1366
學人	-10.1376
四分	-10.1377
能別不成	-10.1379
依義	-10.1381
如鏡	-10.1382
後義	-10.1385
帝釋	-10.1406
顯示正義	-10.1409
非同	-10.1414
相續識	-10.142
釋前	-10.1424
閉	-10.1432
復生	-10.1435
誓願	-10.1436
泯	-10.144
然於	-10.1446
變化	-10.1448
說故	-10.1449
相好	-10.146
廢	-10.146
自下	-10.1461
煩	-10.1462
疎	-10.147
罪福	-10.1479
八十	-10.1479
是前	-10.1481
於我	-10.1486
智識	-10.1491
形相	-10.1494
刀	-10.1499
所治	-10.1505
仙	-10.1508
勸請	-10.1508
諸佛如來	-10.1511
5	-10.1512
前四	-10.1527
生滅因緣	-10.1528
皆同	-10.1536
攀緣	-10.154
無有是處	-10.1542
迷悟	-10.1544
衰	-10.1546
遷	-10.1546
不相	-10.1547
俱名	-10.1548
慈心	-10.1549
臥	-10.1549
油	-10.1551
以此義故	-10.1552
競	-10.1552
法自相	-10.1556
能了	-10.1562
釋迦	-10.1568
積聚	-10.1568
是名為三	-10.1584
無染	-10.1585
等事	-10.1588
成於	-10.1601
有為法	-10.1604
問云何以	-10.1606
趣向	-10.1608
無自體	-10.1615
祖	-10.1615
有三初	-10.1617
所歸	-10.1618
若汝	-10.162
下云	-10.1622
教化	-10.1624
降	-10.1626
所立宗	-10.1626
脩行	-10.1635
起信論	-10.1641
外人	-10.1641
為令	-10.1642
粗	-10.1654
也問	-10.1659
律儀	-10.1664
說者	-10.1673
3)	-10.1675
交	-10.1677
財物	-10.1678
福田	-10.1678
斷煩惱	-10.1681
眼見	-10.1683
有火	-10.1683
周徧	-10.1684
既有	-10.1686
不一	-10.1687
不入	-10.1691
四位	-10.1696
菩薩摩訶薩	-10.1707
三聚	-10.1711
如虛空	-10.1712
何處	-10.1719
猶未	-10.1722
一處	-10.1722
獄卒	-10.1727
不無	-10.1729
所斷	-10.1729
亦同	-10.1729
法藏	-10.1731
真識	-10.1736
中間有	-10.174
如是巳說	-10.1743
後世	-10.1767
真空	-10.1768
雖是	-10.1769
汝等	-10.1771
佛子	-10.1773
時節	-10.1776
賴	-10.1779
如意	-10.1781
所修	-10.1786
佛寶	-10.1796
同前	-10.1799
云何為五	-10.18
時中	-10.1801
積集	-10.1803
佛所	-10.1806
出興	-10.1806
伸	-10.1808
過者	-10.1809
初中	-10.1813
垂	-10.1815
真如法	-10.1818
利養	-10.1819
無力	-10.1821
頌云	-10.1823
頭陀	-10.1824
心數	-10.1824
何者是	-10.1825
九種	-10.1832
關	-10.1835
因此	-10.1849
亦通	-10.1852
眾苦	-10.1857
動心	-10.1866
符	-10.1872
是我	-10.1873
先說	-10.1876
在於	-10.188
為實	-10.1882
應說	-10.1893
如空	-10.1899
當得	-10.1902
不求	-10.1905
自證	-10.1906
二云	-10.1911
授記	-10.1913
導	-10.1913
有十	-10.1913
既云	-10.1915
有力	-10.192
散心	-10.1923
亦為	-10.1925
覓	-10.1926
叉	-10.1935
妨	-10.1936
諸陰	-10.1939
亦如上說	-10.194
錄	-10.1944
等義	-10.195
解釋分	-10.1952
智礙	-10.1955
三有	-10.1956
二諦	-10.1956
散壞	-10.1967
二禪	-10.1972
龍王	-10.1972
境故	-10.1972
見愛	-10.1979
其人	-10.1981
多言	-10.1984
無定	-10.1992
何故不	-10.1992
應是	-10.1995
命根	-10.1996
根性	-10.1997
淨土	-10.2001
殺生	-10.201
得涅槃	-10.2015
言無	-10.2016
下顯	-10.2029
法合	-10.2036
然其	-10.2039
起於	-10.2045
說也	-10.2047
令諸眾生	-10.2049
平等平等	-10.2049
分位	-10.2053
不令	-10.2054
聲是無常	-10.2056
所作因	-10.206
豈不	-10.2062
用故	-10.2071
一劫	-10.2071
沈	-10.2074
寫	-10.2081
市	-10.2081
轉勝	-10.2081
五意	-10.2085
応	-10.2089
邪正	-10.2097
已得	-10.2113
利樂	-10.2114
士	-10.2117
國王	-10.212
無量功德	-10.2123
是故名為	-10.2123
倍	-10.2125
徵起	-10.2126
《	-10.2127
上轉	-10.2128
七地	-10.2134
初後	-10.214
餘皆	-10.214
如佛	-10.2146
皆依	-10.2149
不欲	-10.2149
能離	-10.2151
自性清淨	-10.2155
之門	-10.2156
滅諦	-10.2161
諸位	-10.2163
長行	-10.2166
總說	-10.2168
二智	-10.2168
純	-10.2173
注	-10.2174
覺悟	-10.2174
軌	-10.2175
諸經	-10.2176
過故	-10.2176
厭求	-10.2177
從本已來	-10.218
隨染本覺	-10.2182
云何名	-10.2185
翳	-10.2186
有八	-10.2189
疑云	-10.2193
非有非無	-10.2195
自利利他	-10.2197
荅	-10.2198
果海	-10.2199
對治邪執	-10.2201
睡眠	-10.2208
久遠	-10.2208
身命	-10.2211
善巧	-10.2211
難曰	-10.2212
我所	-10.2214
從初	-10.222
柔軟	-10.2221
為欲顯示	-10.2227
無明住地	-10.2232
不假	-10.2232
馬鳴菩薩	-10.2234
是故說言	-10.224
是佛	-10.2248
或現	-10.2248
聚集	-10.2257
中有三	-10.2258
染相	-10.2261
如來藏者	-10.2265
如是已說	-10.2267
各異	-10.2274
便成	-10.2275
覺了	-10.2276
現比	-10.2278
為異	-10.2281
眾生界	-10.2301
般若波羅蜜	-10.2311
貧	-10.2322
悲心	-10.233
三禪	-10.2333
生長	-10.2336
誑	-10.2338
謝	-10.2348
臣	-10.2352
為性	-10.2354
覺性	-10.236
梵天	-10.2362
勝劣	-10.2364
不受	-10.2364
而巳	-10.2369
十二因緣	-10.2371
相續相	-10.2372
名如來藏	-10.2381
終教	-10.2381
實法	-10.2383
陀羅尼	-10.2386
已竟	-10.2393
雜亂	-10.2396
心者	-10.2396
律	-10.2397
不定聚	-10.241
今當	-10.2412
三事	-10.2422
驗	-10.243
為勝	-10.2433
睡	-10.2441
惡口	-10.2443
不可知	-10.2449
勤發	-10.245
修行信心分	-10.2458
佛經	-10.2458
能障	-10.2459
聲上	-10.2464
苟	-10.2466
淺深	-10.2468
汎	-10.247
逼	-10.247
飛	-10.2475
今約	-10.2477
連	-10.2478
理故	-10.2478
亦空	-10.2479
註	-10.2483
初門	-10.2486
報化	-10.2486
痛	-10.2488
壽量	-10.249
能見相	-10.2496
準此	-10.2497
或時	-10.2497
是業	-10.2505
勝故	-10.2509
但隨	-10.2511
污	-10.2519
及餘	-10.2519
施設	-10.252
摩尼	-10.2527
若非	-10.2528
教法	-10.254
斷絕	-10.2544
真故	-10.2544
所須	-10.2546
平等緣	-10.2546
無常宗	-10.2565
對法	-10.2571
正信	-10.2575
真能立	-10.2585
即以	-10.2588
或有眾生	-10.2595
一卷	-10.2601
皆應	-10.2604
建	-10.2607
無所有處	-10.2616
故說為	-10.2622
為苦	-10.2623
諸色	-10.2624
有因	-10.2627
冤	-10.2628
念處	-10.2628
說此	-10.2628
飾	-10.263
晝夜	-10.2633
出過	-10.2633
或說	-10.2634
之一字	-10.2637
唯此	-10.2638
無垢	-10.2639
不從	-10.2647
罪業	-10.2652
惹	-10.2654
真似	-10.2657
無質礙故	-10.2659
非作	-10.2659
三十	-10.2662
正解	-10.2663
種姓	-10.2675
非一切	-10.2685
一切諸佛	-10.2686
非所作	-10.2697
門者	-10.2699
是色	-10.2713
一乘	-10.2717
須陀洹	-10.2722
決定相違	-10.2723
那先問王	-10.2724
賢聖	-10.2726
之身	-10.2732
今說	-10.2733
則成	-10.2736
船	-10.2738
是以	-10.2743
以離	-10.2744
厭離	-10.2747
負	-10.275
而住	-10.2751
色身	-10.2757
如實修行	-10.2759
於身	-10.2761
如大	-10.2763
法施	-10.2767
二俱	-10.2768
滅壞	-10.2769
圓明	-10.277
此為	-10.2771
儀	-10.2772
時彼	-10.2773
五百	-10.2776
獄	-10.2778
佛道	-10.2781
乃至廣說	-10.2782
第四禪	-10.279
諸善	-10.2794
十住	-10.2794
漏盡	-10.2799
本質	-10.28
見色	-10.2802
神王	-10.2806
若不爾者	-10.2806
餘二	-10.2812
淨用	-10.2819
久住	-10.2826
佛智	-10.2836
第	-10.284
義中	-10.284
不亂	-10.2841
理實	-10.2852
於空	-10.2855
方名	-10.2858
大意	-10.2862
辨相	-10.2865
此解	-10.2868
此難	-10.2871
盲	-10.2874
無色界	-10.2875
牒前	-10.2876
勤勇	-10.2878
固	-10.2889
即滅	-10.289
了別	-10.2891
如法	-10.2893
生念	-10.2893
中生	-10.2893
太	-10.2897
細分	-10.2899
鬼神	-10.2901
則生	-10.2902
愛欲	-10.2903
彼人	-10.2909
弱	-10.2915
急	-10.2917
得菩提	-10.2921
智也	-10.2923
意言	-10.2925
釋論	-10.2928
意明	-10.2928
大士	-10.293
不成就	-10.2935
位地	-10.2937
威德	-10.2937
不有	-10.2942
能有	-10.2942
義相	-10.2943
二一	-10.2943
不別	-10.2946
釋義	-10.2947
二邊	-10.2948
二名	-10.2953
起滅	-10.2964
成滿	-10.2969
為我	-10.2969
攝故	-10.2971
覺心	-10.2977
盡故	-10.298
初重	-10.2983
無此	-10.2985
汝說	-10.2987
理智	-10.2994
佛心	-10.2995
事故	-10.2996
起業相	-10.2996
造業	-10.2996
意樂	-10.3002
西方	-10.3004
能滅	-10.3007
今論	-10.3011
因三相	-10.3019
歸依	-10.302
文殊師利	-10.3021
出入	-10.3023
離此	-10.3025
立因	-10.3027
覺與不覺	-10.3028
受報	-10.3029
上說	-10.303
一百	-10.3031
第九	-10.3044
羅漢	-10.3046
應非	-10.305
王所	-10.3053
所求	-10.3054
怯弱	-10.3056
阿耨多羅三藐三菩提	-10.3058
依無明	-10.3059
不遣	-10.306
草木	-10.3066
樂為	-10.3069
實智	-10.3088
惡心	-10.3089
珍寶	-10.3094
是所	-10.3095
大性	-10.3095
攝一切	-10.3108
一心法	-10.3108
同故	-10.3118
心生滅門	-10.3122
答中	-10.3124
知之	-10.3135
直心	-10.3147
剎	-10.3149
此論中	-10.3149
欲顯	-10.3149
此有	-10.3157
修慧	-10.3157
難得	-10.3168
為能立	-10.3168
佛土	-10.3169
非過	-10.317
人所	-10.3171
頌中	-10.3174
誓	-10.318
如實知	-10.3186
果位	-10.3188
修行信心	-10.3188
二礙	-10.3195
觀行	-10.3196
侵	-10.3205
加行	-10.3205
令人	-10.3209
榮	-10.321
非他	-10.3213
狀	-10.3214
大乘者	-10.3216
執取	-10.3218
善友	-10.322
不成因	-10.3221
諸比丘	-10.3229
舉喻	-10.3231
則非	-10.3239
修多羅中	-10.3242
是名為二	-10.3243
之與	-10.3246
究竟覺	-10.3248
行也	-10.325
謂真如	-10.3261
前五	-10.3263
起行	-10.3264
以上	-10.3271
能成立	-10.3276
十善	-10.3277
讀	-10.328
聞慧	-10.3293
盜	-10.3298
是故當知	-10.3302
無緣	-10.3308
如疏	-10.3309
異也	-10.331
不思議業	-10.3313
勝妙	-10.3316
四不成	-10.332
阿僧祇	-10.3332
懸	-10.3339
之功	-10.3339
相望	-10.3341
本來無	-10.3344
反流	-10.3345
不可以	-10.3346
資熏	-10.3347
辯才	-10.3348
諸論	-10.3348
又佛	-10.3349
佛弟子	-10.3349
釋文	-10.3351
男	-10.3354
幢	-10.3357
後際	-10.3358
修善	-10.336
手足	-10.3362
合結	-10.3363
瓔珞	-10.3365
薪	-10.3367
初問	-10.3369
不思議熏	-10.3372
優	-10.3374
二約	-10.3391
善行	-10.3393
為正	-10.3395
體中	-10.3397
辟支佛	-10.3402
意也	-10.3418
俗諦	-10.3421
其理	-10.3426
悲智	-10.3442
炎	-10.3453
為難	-10.3454
是諸	-10.3458
破他	-10.3465
豈可	-10.3466
勞	-10.3466
瓦器	-10.3468
楞伽經	-10.3473
法喻	-10.3478
應有	-10.3482
我為	-10.3482
不增不減	-10.3485
6	-10.3486
戲	-10.3486
通名	-10.3487
不必	-10.3493
代	-10.3494
遍計	-10.3495
佛為	-10.3499
竪	-10.351
壁	-10.3511
一名	-10.3517
性者	-10.3518
但名	-10.3522
唯佛	-10.3522
血	-10.3524
憂惱	-10.3525
腹	-10.3527
應觀	-10.3531
自知	-10.3537
往來	-10.3538
所引	-10.3544
得有	-10.3545
非如	-10.3545
門有二初結指	-10.3556
問若	-10.3559
不至	-10.3568
相依	-10.3573
迦葉	-10.3578
因緣和合	-10.3584
是真	-10.3586
得見	-10.3587
如是說	-10.3591
勝緣	-10.3594
難知	-10.3598
根本智	-10.3605
以法	-10.3611
二分	-10.3622
後陳	-10.3624
期	-10.3626
德相	-10.3631
希	-10.3639
常宗	-10.364
我亦	-10.3643
彼岸	-10.3647
常樂	-10.3652
願力	-10.3656
箭	-10.366
包	-10.3662
我心	-10.3663
今此論中	-10.3665
至此	-10.3667
缺減	-10.3668
而已	-10.3669
i	-10.3669
更不	-10.367
狂	-10.367
勇	-10.3672
都盡	-10.3672
釋摩訶衍論	-10.3672
何別	-10.3674
前之	-10.3676
此非	-10.3677
是彼	-10.3679
於同品	-10.3682
富貴	-10.3683
勢力	-10.3684
承事	-10.3687
應作	-10.3687
自性清淨心	-10.3687
下結	-10.3693
當觀	-10.3695
邪道	-10.3696
若知	-10.3701
受身	-10.3713
文字	-10.3725
列名	-10.3726
▁二釋	-10.373
為說	-10.3731
迷真	-10.3732
依法	-10.3733
不可見	-10.3734
之果	-10.3735
姓	-10.3739
是身	-10.3741
由有	-10.3743
門也	-10.3746
顯了	-10.3752
所覺	-10.3759
意根	-10.3762
不定因	-10.3768
道諦	-10.3774
無能所	-10.3782
能覺	-10.3786
鈍	-10.3788
思慧	-10.379
為如	-10.3791
9	-10.3793
是因	-10.3795
十解	-10.3802
緣也	-10.3803
其宗	-10.3804
結前	-10.3806
自悟	-10.3807
惡人	-10.3808
疊	-10.3818
殘	-10.3819
理門論云	-10.3821
善說	-10.3825
究竟離	-10.3825
上有	-10.3827
軌則	-10.3831
拘	-10.3832
斷故	-10.3834
佉	-10.3834
分三	-10.3834
梵語	-10.3836
言之	-10.3838
以智	-10.3839
夏	-10.3842
等中	-10.3847
未知	-10.3852
立量云	-10.3854
見相	-10.3857
勝進	-10.3858
無為法	-10.3861
超過	-10.3862
一切如來	-10.3863
信受	-10.3864
數數	-10.3865
吒	-10.3867
因法	-10.3875
執取相	-10.3889
摧	-10.3894
即真	-10.3895
起故	-10.3896
之德	-10.39
十由旬	-10.3902
真如體	-10.3902
此句	-10.3911
不善業	-10.3913
前陳	-10.3917
亦以	-10.3918
等覺	-10.3918
由前	-10.3919
別名	-10.3928
第二禪	-10.3933
得果	-10.3936
而亦	-10.3937
典	-10.3945
自念	-10.3946
全體	-10.3946
三合	-10.3948
信行	-10.3949
聲是	-10.3953
雖多	-10.3956
隨相	-10.3959
假說	-10.3961
護法	-10.3963
猗	-10.3967
天主	-10.397
作是念	-10.3972
惡法	-10.3973
推求	-10.3975
憑	-10.3976
薰習	-10.3977
入定	-10.3978
錯	-10.398
澄	-10.398
一性	-10.3983
起諸	-10.3983
能化	-10.3986
一日	-10.3988
餘處	-10.3989
萬德	-10.399
ā	-10.3991
若就	-10.3995
覽	-10.3996
竭	-10.3997
不達	-10.4003
空有	-10.4013
入於	-10.4016
以喻	-10.4016
彼論	-10.402
嚕	-10.4021
雖說	-10.4034
得定	-10.4035
六十	-10.4041
令知	-10.4041
以真如	-10.4043
勸修	-10.4043
謂前	-10.4052
次言	-10.4054
妙覺	-10.4059
發心修行	-10.4062
似宗	-10.4063
俱行	-10.4064
有十種	-10.4065
無法	-10.4067
萬物	-10.4068
無分別智	-10.4078
除滅	-10.4089
即下	-10.4092
下二句	-10.4094
無明熏	-10.4102
熏義	-10.4102
我我所	-10.4104
後說	-10.4107
其事	-10.4108
拏	-10.4113
因於	-10.4121
文也	-10.4122
皆空	-10.4125
方能	-10.4128
真俗	-10.4136
第四句	-10.4138
便是	-10.4138
初正釋	-10.4139
異生	-10.4141
梵王	-10.4143
淨德	-10.4144
塔	-10.4146
昏	-10.4146
不轉	-10.415
佛菩薩	-10.415
此依	-10.4158
唯依	-10.4158
有別	-10.416
梨	-10.4163
何以知之	-10.4164
其義云何	-10.4165
有四一	-10.4168
信成就發心	-10.417
枝末	-10.417
聖教	-10.417
成事	-10.4173
此定	-10.4176
屬於	-10.4179
不放逸	-10.4181
中陰	-10.4182
有多	-10.4185
初起	-10.4189
不過	-10.4197
地中	-10.4203
有大	-10.4204
修定	-10.4204
六句	-10.4206
所應	-10.4208
覺照	-10.4209
一門	-10.4211
▁「	-10.4213
妙樂	-10.4215
因位	-10.4217
昧	-10.4232
義不然	-10.4233
欲求	-10.4237
內心	-10.4249
謂以	-10.4255
別體	-10.4257
之內	-10.4261
有無量	-10.4262
愍	-10.4269
由斯	-10.4269
領	-10.4275
為作	-10.4284
如立	-10.4286
真如性	-10.4291
僧寶	-10.4294
第三句	-10.4296
適	-10.4298
無依	-10.4303
令生	-10.4305
賢首	-10.4309
增益	-10.431
渡	-10.4315
𨷂	-10.4315
幽	-10.4316
發願	-10.4317
讀誦	-10.432
昇	-10.4324
前義	-10.4325
因生	-10.4325
慈氏	-10.4327
其本	-10.4333
所樂	-10.4334
琉璃	-10.4337
寒	-10.4337
堂	-10.4341
依如來藏	-10.4364
聖智	-10.4365
不相離故	-10.4365
以下明	-10.4367
夢中	-10.4368
悟入	-10.4369
宗體	-10.437
皆名為	-10.4371
一約	-10.4372
心心所	-10.4372
正道	-10.4375
真如平等	-10.438
如來法身	-10.4381
乞食	-10.4405
或云	-10.442
言語	-10.4422
為根本	-10.4425
等過	-10.4427
本空	-10.443
不由	-10.4442
相違故	-10.4444
下品	-10.4446
心生滅	-10.4448
有餘	-10.4453
五十由旬	-10.4453
實義	-10.4454
難可	-10.4456
波羅蜜多	-10.4457
若取	-10.4467
彼彼	-10.4473
故釋曰	-10.4476
圓融	-10.4476
所知障	-10.4479
所問	-10.4479
隨自	-10.4479
上云	-10.4483
杖	-10.4484
載	-10.449
灰	-10.4492
牟尼	-10.4493
臂	-10.4494
染污	-10.4495
菓	-10.4501
海水	-10.4505
此亦不然	-10.4506
州	-10.4512
良	-10.4516
五十一	-10.4521
舉數	-10.4532
隨流	-10.4534
答言	-10.4536
後明	-10.4536
能示	-10.4538
則應	-10.454
斷惑	-10.4546
諸外道	-10.4552
此量	-10.4553
形色	-10.4555
作是說	-10.4563
所諍	-10.4566
身口業	-10.4566
於法	-10.4572
為自	-10.4572
二十五	-10.4575
無妄	-10.4577
我法	-10.4584
示義	-10.4584
與眾生	-10.4588
識者	-10.4589
見故	-10.4598
所聞性因	-10.4602
增減	-10.4604
性功德	-10.4605
根本不覺	-10.4606
劍	-10.4606
緣覺	-10.4609
此三種	-10.4613
不絕	-10.462
始從	-10.4624
滅時	-10.4625
當體	-10.4625
身見	-10.4625
身業	-10.4627
則於	-10.4628
中實	-10.4628
豈得	-10.4629
斷見	-10.4634
初心	-10.4634
攬	-10.4637
擬	-10.4638
塗	-10.4645
且約	-10.4646
無明所起	-10.4651
同於	-10.4652
為同品	-10.4653
起時	-10.4653
滯	-10.4653
託	-10.4656
无常	-10.466
法身菩薩	-10.4661
點	-10.4662
行苦	-10.4663
飢	-10.4663
厭患	-10.4663
有非有	-10.4664
柱	-10.4664
餓鬼	-10.4668
般若波羅蜜多	-10.4669
苦受	-10.467
後二相	-10.4673
樓	-10.4674
皆因	-10.4678
地界	-10.4683
三名	-10.4685
流通	-10.4693
向上	-10.4699
謂之	-10.4702
一切行	-10.4703
禮敬	-10.4706
覺體	-10.4709
果故	-10.4709
心動	-10.4709
以知	-10.4715
不能自	-10.4715
理無	-10.4717
皆能	-10.4718
悲願	-10.4724
而彼	-10.4724
或是	-10.473
十地菩薩	-10.4732
宗因喻	-10.4732
爭	-10.4733
隨轉	-10.4735
眾生亦爾	-10.4741
身中	-10.4745
伴	-10.4745
阿賴耶識	-10.4747
因緣生	-10.4751
一因	-10.4755
毀謗	-10.4761
是名為十	-10.4762
步	-10.4767
咎	-10.4767
動轉	-10.4769
答此	-10.4773
動故	-10.4782
門法	-10.4784
成故	-10.4785
貪等	-10.4785
妙吉祥	-10.4787
成一	-10.4788
既非	-10.4794
統	-10.4799
此業	-10.4802
異名	-10.4816
應審觀察	-10.4818
計我我所	-10.4818
集諦	-10.4825
不通	-10.4826
違他	-10.4827
德業	-10.4829
充滿	-10.483
恃	-10.4838
屋	-10.4839
遭	-10.4842
奇	-10.4842
邊際	-10.4846
無厭	-10.4851
非直	-10.4852
巳去	-10.4853
得此	-10.4853
事業	-10.4855
婬欲	-10.4857
不久	-10.4858
宗依	-10.4863
義准	-10.4864
又諸	-10.4866
同異性	-10.4867
自宗	-10.4868
初正明	-10.487
餘法	-10.4871
之旨	-10.4873
不顯	-10.4876
故理門云	-10.488
剡浮提	-10.4884
世人	-10.4884
經言	-10.4884
名為法身	-10.4886
言陳	-10.4888
是空	-10.4893
其性	-10.4893
云何為十	-10.4894
望於	-10.4896
勝行	-10.49
品類	-10.49
不許有	-10.4901
即指	-10.4905
諸教	-10.4906
不正	-10.4908
皆說	-10.4908
能入門	-10.491
權實	-10.4914
三結	-10.4916
若復	-10.4916
中亦有	-10.492
即心	-10.4921
證發心	-10.4926
始教	-10.4927
頓教	-10.4927
不改	-10.4928
云何得	-10.4931
意在	-10.4931
而行	-10.4934
而此	-10.4936
依因	-10.4936
初三	-10.4936
善不善	-10.4938
自作	-10.4939
釋疑	-10.4942
難也	-10.4947
釋中	-10.4953
是非	-10.4954
攝取	-10.4955
真如是	-10.4958
演說	-10.4963
不妨	-10.4965
非量	-10.4966
遍知	-10.4967
重罪	-10.4969
下劣	-10.497
民	-10.4974
如虗空	-10.4977
本具	-10.4979
差別緣	-10.498
六相	-10.4983
圓覺	-10.4983
又二初	-10.4983
仙人	-10.4985
所由	-10.4986
佛語	-10.4986
臭	-10.4992
如實空	-10.4997
除疑	-10.4997
問言	-10.4998
初顯	-10.5
任持	-10.5004
隱覆	-10.5005
上句	-10.5008
外有	-10.5008
婬	-10.5008
料揀	-10.501
生解	-10.5013
罵	-10.5013
飯	-10.5021
念法	-10.5022
綱	-10.5022
相離	-10.5022
蜜	-10.5023
所立法	-10.5024
畫	-10.5025
下轉	-10.5025
各具	-10.5027
表示	-10.5029
永斷	-10.503
若望	-10.503
為法	-10.5033
闍	-10.5034
煙	-10.5039
具足圓滿	-10.5047
別用	-10.505
成道	-10.5054
不到	-10.5055
若自	-10.5058
經文	-10.5059
所變	-10.5061
無想	-10.5064
不名為	-10.5066
多種	-10.5068
相見	-10.507
之類	-10.5072
毗	-10.5073
非理	-10.508
外曰	-10.5084
依彼	-10.5087
生者	-10.5094
分離	-10.51
立聲無常	-10.5112
位故	-10.5116
廣如	-10.5119
不思議業相	-10.5119
各自	-10.5134
為有	-10.5137
於自	-10.5138
離心	-10.5143
不愛	-10.5143
施等	-10.5146
別記	-10.5152
空故	-10.5154
無學	-10.5156
此亦如是	-10.5156
於心	-10.5156
即應	-10.5162
不等	-10.5162
一切入	-10.5168
設有	-10.517
一切功德	-10.5177
斥	-10.5178
兔	-10.5181
離言說相	-10.5181
王言善哉	-10.5182
芽	-10.5187
八門	-10.519
無差別故	-10.5192
預	-10.5193
圓音	-10.5195
心則	-10.5196
露	-10.5197
輩	-10.5197
有眾生	-10.5199
信者	-10.52
延	-10.52
阿含	-10.5201
逢	-10.5201
空中	-10.5203
爛	-10.5203
每	-10.5204
圍繞	-10.5205
大種	-10.5206
体	-10.521
起用	-10.5213
九地	-10.522
以因	-10.5221
時分	-10.5221
平等無二	-10.5222
無可	-10.5222
之源	-10.5228
離分別	-10.5234
此五	-10.5235
能發	-10.5236
▁○	-10.5255
況復	-10.5258
差別之相	-10.5268
相應心	-10.527
之後	-10.5271
依真	-10.5274
今云	-10.5282
五位	-10.5283
人執	-10.5285
下句	-10.5287
是義	-10.529
三際	-10.5293
復言	-10.5301
生死涅槃	-10.5301
彼法	-10.5302
一類	-10.5307
七十	-10.5307
苦滅	-10.5314
體非	-10.5314
欲明	-10.5315
非定	-10.5318
十力	-10.5326
皆具	-10.5332
二別	-10.5333
相滅	-10.5336
委	-10.5338
一法界心	-10.5338
富	-10.5346
此智	-10.5347
隨彼	-10.5348
所乘	-10.5349
苦行	-10.535
圓成	-10.5351
難言	-10.5355
為依	-10.5355
攝持	-10.5356
分別者	-10.5361
不苦不樂	-10.5361
為眾生	-10.5364
閻浮提	-10.5365
般涅槃	-10.5366
非我	-10.5367
行願	-10.5374
是正因	-10.5376
勝鬘	-10.5377
因相	-10.5377
為此	-10.5382
不修	-10.5386
舍利子	-10.5386
唯除	-10.5388
頗	-10.539
麻	-10.539
幻化	-10.5392
齒	-10.5397
驚	-10.5397
若其	-10.5403
正意	-10.5405
忉利天	-10.5409
斫	-10.541
於異品	-10.5413
他宗	-10.5422
隨他	-10.5423
上明	-10.5429
識處	-10.5434
所聞性故	-10.5434
離性	-10.544
即名為	-10.5444
字事	-10.5445
難思	-10.5446
隨念	-10.5449
以色	-10.5453
如經言	-10.5454
四德	-10.546
異義	-10.5465
流出	-10.5466
此語	-10.5467
則無有	-10.5468
有實	-10.547
之緣	-10.5471
佛位	-10.5475
則不能	-10.5477
會通	-10.548
二識	-10.5481
」【	-10.5487
已生	-10.5489
德句	-10.5493
二別釋	-10.5501
體同	-10.5501
上品	-10.5504
俱不	-10.5509
妄識	-10.5509
十信位	-10.5514
種智	-10.5523
名相違	-10.5523
舉因	-10.5525
二如是下	-10.5527
巳前	-10.5528
無動	-10.5531
得起	-10.5537
生滅門內	-10.5538
三品	-10.5541
離心緣相	-10.5541
持業	-10.5541
道路	-10.5544
然彼	-10.5544
電	-10.5546
欣	-10.5551
處所	-10.5555
客	-10.5559
違順	-10.556
明知	-10.5562
喚	-10.5563
天王	-10.5563
天台	-10.5566
已訖	-10.5569
二巳說下	-10.5573
星	-10.5574
酒	-10.5574
知有	-10.5574
能遮	-10.558
井	-10.5583
聲聞緣覺	-10.5588
塞	-10.559
烏	-10.5591
殺等	-10.5594
向下	-10.5596
第二相	-10.56
句義	-10.5603
人我見	-10.5604
往生	-10.5609
是顯	-10.561
今則	-10.5612
無見	-10.5616
一者明	-10.562
清淨本覺	-10.5621
體者	-10.5623
似能立	-10.5638
用相	-10.5639
即明	-10.5642
進趣	-10.5643
以是因緣	-10.5644
合成	-10.5648
亦成	-10.5648
佛所說	-10.565
彼經	-10.5659
此菩薩	-10.5662
作此	-10.5663
因過	-10.5664
三賢位	-10.5664
功用	-10.5671
蓮花	-10.5673
雖未	-10.5674
知足	-10.5675
別開	-10.5676
得住	-10.5678
以無明	-10.568
又解	-10.5682
得福	-10.5691
為首	-10.5692
比知	-10.5692
次顯	-10.5692
是宗法	-10.5697
即同	-10.5708
大慈	-10.5709
解脫門	-10.571
一身	-10.5712
愛著	-10.5714
動作	-10.5718
後時	-10.5732
邪行	-10.5732
善修	-10.5735
樹下	-10.5736
中二	-10.5737
又釋	-10.574
附	-10.574
普賢	-10.5744
馳	-10.5745
了義	-10.5745
豎	-10.5746
此真如	-10.5746
一音	-10.5747
三千大千世界	-10.575
某	-10.5752
盧	-10.5753
性淨本覺	-10.5754
愁	-10.5759
遍一切處	-10.576
揀擇	-10.5762
假立	-10.5764
所入法	-10.5765
為義	-10.5765
尸羅	-10.5766
殺害	-10.5767
永不	-10.5768
前中	-10.5768
參	-10.5768
超越	-10.5772
豈有	-10.5772
驚怖	-10.5773
飢渴	-10.5776
活	-10.5777
者問	-10.5777
啟	-10.5778
此但	-10.5784
皆是無常	-10.5785
今就	-10.5789
以之為	-10.579
而現	-10.5791
止息	-10.5793
賀	-10.5794
體相用	-10.5797
遍無	-10.5798
鉢囉	-10.5801
異法喻	-10.5804
毫	-10.5808
宗也	-10.581
於世間	-10.5812
非唯	-10.5815
理門論	-10.582
十七	-10.5824
了達	-10.5825
有二意	-10.5828
不礙	-10.5828
海中	-10.583
彼說	-10.5834
願諸眾生	-10.5835
現身	-10.5843
一剎那	-10.585
敢	-10.5854
遺	-10.5858
而常	-10.5871
二地	-10.5878
作惡	-10.5878
多人	-10.5879
具三相	-10.5881
名聞	-10.5883
空觀	-10.5886
釋也	-10.5888
無非	-10.5889
實際	-10.5889
攝法	-10.5891
悉能	-10.5894
後二句	-10.5897
不殊	-10.5898
有二門	-10.5907
二乘人	-10.5914
而自	-10.5919
能善	-10.5922
恐怖	-10.5924
初生	-10.5925
有時	-10.5925
何為	-10.5929
此識有二種義	-10.5929
但依	-10.5936
磨	-10.5939
應審思擇	-10.5943
堪任	-10.5945
珍	-10.595
既言	-10.5952
非離	-10.5953
高下	-10.5954
似能破	-10.5955
以對	-10.5955
百億	-10.5957
釋相	-10.5961
蒙	-10.5962
兵	-10.5964
滿足方便	-10.5965
筆	-10.5967
御	-10.5969
補	-10.5971
因是	-10.5971
捉	-10.5972
擲	-10.5975
熏真如	-10.5975
顯真	-10.5976
遍有	-10.5979
無前後	-10.5979
馱	-10.5981
問此	-10.5986
非實有	-10.5987
作者	-10.5994
初二句	-10.6001
一異	-10.6002
為初	-10.6002
亦不得	-10.6006
並皆	-10.6007
必定	-10.6008
依何	-10.602
重顯	-10.6024
終無	-10.6024
煖	-10.6028
皆屬	-10.6035
以空	-10.6038
雖同	-10.6039
今據	-10.604
不共不定	-10.6043
跋	-10.6043
下釋成	-10.6044
一切種智	-10.6045
俱不極成	-10.6049
是故說	-10.6051
摩訶衍法	-10.6051
業果報	-10.6056
此過	-10.6057
坐禪人	-10.6059
三中	-10.6059
空性	-10.606
不決定	-10.6061
道者	-10.6061
雖具	-10.6064
夫人	-10.6066
宿命	-10.6069
即於	-10.6075
樂著	-10.6076
一事	-10.6076
無分齊	-10.6078
墮地獄	-10.6082
真如相	-10.6082
此位	-10.6083
由無明	-10.6083
謂彼	-10.6087
臥具	-10.609
依主	-10.6096
擇	-10.6098
受熏	-10.6102
立聲	-10.6104
舍利弗	-10.6107
教中	-10.6112
復以	-10.6113
熾然	-10.6113
信有	-10.6118
答云	-10.6122
違自	-10.6123
未必	-10.6125
下別釋	-10.6129
執持	-10.613
隨其所	-10.6133
人民	-10.6133
即知	-10.6134
波浪	-10.6135
諸師	-10.6136
涉	-10.6141
枝末不覺	-10.6142
名不成	-10.6143
誦呪	-10.6144
樂欲	-10.6144
所欲	-10.6145
真相	-10.6148
恚	-10.615
為樂	-10.615
圓覺云	-10.6152
十方世界	-10.6152
異類	-10.6154
童子	-10.6158
懼	-10.616
真覺	-10.6162
走	-10.6166
植	-10.6167
為根	-10.6168
逼惱	-10.6168
二執	-10.617
眼所見	-10.6171
哆	-10.6172
避	-10.6174
枯	-10.6175
北欝單越	-10.6177
唯以	-10.6178
旦	-10.618
第三禪	-10.6184
復何	-10.6191
猛	-10.6196
本智	-10.6197
合說	-10.62
若作	-10.6203
華嚴云	-10.6206
妙法	-10.6206
通用	-10.6207
云何說	-10.6212
所示	-10.6217
共成	-10.6219
修觀	-10.6219
而取	-10.6223
受者	-10.6224
能照	-10.6227
有所作	-10.6231
人身	-10.6234
大乘起信論	-10.6236
名一切種智	-10.6238
先後	-10.6238
過於	-10.624
九十	-10.6241
離染	-10.6242
五法	-10.6247
最為	-10.6251
濕性	-10.6255
宗過	-10.6256
初約	-10.6259
天上	-10.6261
之位	-10.6262
所謂下	-10.6263
不墮	-10.6266
彼處	-10.627
能遣	-10.6284
前則	-10.6288
貪瞋	-10.6289
以不	-10.6292
欲樂	-10.6292
胎	-10.6295
心真如門	-10.6295
通別	-10.6296
不但	-10.6304
業等	-10.6314
前解	-10.6314
量果	-10.6321
能與	-10.6321
務	-10.6322
鄔	-10.6325
隨分	-10.6326
俱不遣	-10.6333
離名字相	-10.6334
心滅	-10.6339
具說	-10.6344
揚	-10.6348
雙運	-10.6349
銷	-10.6351
之識	-10.6352
計名字相	-10.6352
義邊	-10.6353
誤	-10.6355
十行	-10.6355
能說	-10.6355
此理	-10.6355
同品定有性	-10.6356
不息	-10.636
食噉	-10.6362
禁	-10.6362
以要言之	-10.6363
四事	-10.6364
如風	-10.6366
緣境	-10.6367
右	-10.6369
拂	-10.6369
迹	-10.637
出入息	-10.6371
旋	-10.6371
以本	-10.6371
嫉妬	-10.6372
四方	-10.6372
營	-10.6373
甘	-10.6373
憐愍	-10.6373
隨眠	-10.6376
有殊	-10.638
躡前	-10.6382
如火	-10.6384
聚落	-10.6386
今日	-10.6392
上妙	-10.6393
生苦	-10.6394
體空	-10.6394
而去	-10.6398
地地	-10.6398
細相	-10.6399
本覺義	-10.6401
於如來	-10.6404
聞已	-10.6409
音樂	-10.6412
為能	-10.6419
論意	-10.6424
心心數法	-10.6431
無疑	-10.6437
聲性	-10.6443
非餘	-10.6445
唯一真如	-10.6449
八法	-10.6449
一切佛法	-10.6465
自教	-10.6465
圓教	-10.6465
相隨	-10.6469
諸染	-10.647
於眾生	-10.6472
用也	-10.6473
不自在	-10.6474
識相	-10.6476
謂諸	-10.6477
施者	-10.648
若許	-10.648
者即此	-10.6481
釋名	-10.6482
謂離	-10.6486
攝諸	-10.6487
信心成就	-10.6489
無罪	-10.6491
熏習真如	-10.6494
一識	-10.6496
觀心	-10.6497
心緣	-10.6501
深廣	-10.6504
以種種	-10.6507
階	-10.6508
諍論	-10.6513
說無	-10.6516
即離	-10.6524
覺故	-10.6525
身分	-10.6527
非一異	-10.6532
非色	-10.6534
立聲為常	-10.6535
病苦	-10.654
覺心初起	-10.654
亦無有	-10.6543
厭生死苦	-10.6543
知此	-10.6544
言顯	-10.6547
四智	-10.6548
束	-10.6548
族	-10.6548
普遍	-10.6552
於餘	-10.6555
盡於未來	-10.6561
覺不覺	-10.6564
初言	-10.6564
云何為六	-10.6565
時有	-10.6566
不可破壞	-10.6566
方有	-10.657
江	-10.6572
業繫苦相	-10.6573
付	-10.6573
之失	-10.6579
能持	-10.6583
約法	-10.6583
嫌	-10.6584
若入	-10.6586
看	-10.6588
酥	-10.6589
神力	-10.659
親友	-10.6591
名宗	-10.6593
之差別	-10.6594
不明	-10.6598
洗	-10.66
廣顯	-10.6603
以信	-10.6608
如下文云	-10.6609
一念相應	-10.6611
以能	-10.6612
性空	-10.6613
合云	-10.6629
對待	-10.663
不增減	-10.663
於大乘	-10.6631
對彼	-10.6637
妄境界	-10.664
實教	-10.6641
執相	-10.6641
真宗	-10.6649
餘三	-10.6651
百由旬	-10.6658
是無明	-10.6672
俱無	-10.6673
無際	-10.6673
金剛位	-10.6676
於無	-10.6684
解了	-10.6684
作如是	-10.6685
由其	-10.6687
淳	-10.6701
境也	-10.6707
隱顯	-10.6716
俱時	-10.6718
畜	-10.6728
等者此	-10.6731
若準	-10.6738
行法	-10.6746
諸境	-10.6748
劫數	-10.6749
受想行識	-10.6752
此問	-10.6761
契經說	-10.6762
難可了知	-10.6765
生已	-10.6765
尚不	-10.6766
起動	-10.6767
是時諸人	-10.6768
彼所	-10.6769
憎	-10.677
實非	-10.6771
初舉	-10.6772
修學	-10.6774
寔	-10.6775
遲	-10.6776
今此文中	-10.6776
禮拜	-10.6776
猶如瓶等	-10.6777
崇	-10.6778
自力	-10.6779
殿	-10.6781
身口意	-10.6781
剋	-10.6781
論宗	-10.6783
嚴飾	-10.6785
贊	-10.6787
畢竟平等	-10.679
騰	-10.679
修集	-10.6791
分別發趣道相	-10.6793
電等	-10.6793
斧	-10.6793
於一切法	-10.6793
處說	-10.6793
諂	-10.6795
不緣	-10.6797
違自教	-10.6798
墜	-10.6799
合掌	-10.68
許有	-10.6801
財利	-10.6802
乏	-10.6802
戰	-10.6804
不染	-10.6805
三自	-10.6812
多分	-10.6814
滅也	-10.6823
轉相門	-10.6831
唯在	-10.6833
諸波羅蜜	-10.6837
悲愍	-10.684
相符極成	-10.6842
不雜	-10.6849
初一句	-10.6854
名為無明	-10.6862
故稱	-10.6863
非能立	-10.6863
此觀	-10.6866
乃得	-10.6874
六入	-10.6877
解行發心	-10.6883
義同	-10.6889
計我	-10.6899
有色	-10.6901
利益眾生	-10.6903
非勤勇無間所發	-10.6905
俱轉	-10.6908
空者	-10.691
有七	-10.6911
果也	-10.6912
解也	-10.6916
五事	-10.6918
其法	-10.6922
即非	-10.6923
明淨	-10.6924
染淨法	-10.6927
今者	-10.6928
糞	-10.694
為有法	-10.6943
之色	-10.6948
有自體	-10.6951
相資	-10.6952
大苦	-10.6953
牟休多	-10.6956
與此	-10.6956
有智	-10.6956
此中有三	-10.6956
修證	-10.6962
別法	-10.6968
為所	-10.6968
離妄	-10.6979
祕密	-10.6982
是正	-10.6983
此之謂也	-10.6985
淨信	-10.6986
若聞	-10.6988
五明	-10.6989
屈	-10.6991
所愛	-10.6994
阿那含	-10.6996
法界一相	-10.6996
轉輪聖王	-10.6996
鈔	-10.6997
得佛	-10.6997
世親	-10.6999
增勝	-10.7
綺語	-10.7001
孔	-10.7001
本覺隨染	-10.7001
研	-10.7002
墮負處	-10.7002
三十二	-10.7003
阿僧祇劫	-10.7004
應成	-10.7004
敗	-10.7005
幸	-10.7005
華嚴經	-10.7005
有緣	-10.7006
安置	-10.7006
優婆塞	-10.7007
伐	-10.7007
張	-10.7008
甘露	-10.7008
吾	-10.7008
妻	-10.7011
杌	-10.7011
一切眾生皆	-10.7011
官	-10.7011
約義	-10.7012
総	-10.7012
脩習	-10.7013
善逝	-10.7014
泉	-10.7015
毒蛇	-10.7016
金銀	-10.7017
鍵	-10.7017
不淨觀	-10.7018
全分	-10.7023
彼文	-10.7024
不相離性	-10.7027
人法	-10.7027
發趣	-10.703
歌	-10.7042
無上道	-10.7047
境相	-10.7049
不守自性	-10.7058
所破	-10.7059
皆不	-10.706
入真如門	-10.7061
彼中	-10.7064
辦	-10.7066
生法	-10.7067
大本	-10.7073
水火	-10.7073
相攝	-10.7078
三毒	-10.7078
立論	-10.7083
人空	-10.7092
無有自性	-10.7092
不相應心	-10.7099
故前云	-10.7105
此六	-10.7108
顯理	-10.7108
所宗	-10.7109
不住生死	-10.711
身相	-10.7112
今明	-10.7116
攝義	-10.7116
得離	-10.712
生滅之相	-10.7124
苦因	-10.7125
有法差別	-10.7126
楞伽云	-10.7126
答以	-10.7127
法自相相違	-10.7132
聖法	-10.7137
喻體	-10.7138
離過	-10.7141
自分	-10.7145
未離	-10.7145
天道	-10.7146
問云	-10.7148
麁相	-10.715
法華	-10.7151
有二初結指	-10.7152
相違過	-10.7153
其數	-10.7157
見其	-10.7161
此處	-10.7161
心之	-10.7161
自下第二	-10.7168
十門	-10.7169
順理	-10.7169
入道	-10.7176
人也	-10.7183
善道	-10.7185
無病	-10.7187
入正定聚	-10.7188
大慈悲	-10.7189
五句	-10.7191
未斷	-10.7191
釋頌	-10.7191
契經云	-10.7192
造種種業	-10.7193
慚	-10.7196
正宗	-10.7197
始起	-10.7199
行成	-10.7206
大悲心	-10.7206
王言善哉善哉	-10.7209
貪瞋癡	-10.721
八萬四千	-10.7212
攝化眾生	-10.7214
過恒沙	-10.7218
故名真如	-10.722
出體	-10.7221
宗之	-10.7221
楞嚴云	-10.7224
福報	-10.7225
奧	-10.7226
摩羅	-10.723
孤	-10.723
三字	-10.7231
業煩惱	-10.7232
前明	-10.7233
朝	-10.7235
永無	-10.7235
初中有三	-10.7236
已還	-10.7238
知是	-10.7238
獸	-10.724
喻依	-10.724
損害	-10.7242
頂禮	-10.7244
方始	-10.7246
道中	-10.7248
染著	-10.7249
人間	-10.7251
唯立	-10.7254
離垢	-10.726
分分	-10.726
十九	-10.7268
捺	-10.7269
揀非	-10.7271
不合	-10.7278
諸塵	-10.7279
勸修利益分	-10.7279
深信	-10.7279
無明業相	-10.7285
妄有	-10.7287
指陳	-10.7287
是宗	-10.7287
六塵境界	-10.7289
但能	-10.729
重釋	-10.7296
能分別	-10.7296
名能立	-10.73
遂令	-10.7303
見彼	-10.7304
之業	-10.7305
無失	-10.7305
轉現	-10.7306
見諸眾生	-10.7307
已去	-10.7307
無二體	-10.7308
但由	-10.731
令滿	-10.7311
由心	-10.7312
智淨	-10.7313
即生	-10.7314
絕言	-10.7321
皆不可得	-10.7332
揀異	-10.7337
二十四	-10.7339
不論	-10.7342
行善	-10.7344
證成	-10.7345
修生	-10.7345
而復	-10.7352
水界	-10.7354
歸敬	-10.7356
故次	-10.7362
返顯	-10.7363
於此中	-10.7369
顯發	-10.7372
雙非	-10.7378
而可	-10.738
障故	-10.7384
但明	-10.7388
二意	-10.7389
無常性故	-10.7391
邪定聚	-10.7392
生一切法	-10.7392
義門	-10.7392
於何	-10.7394
即是真如	-10.7396
妄計	-10.7403
苦故	-10.7411
末那識	-10.7412
得勝	-10.7412
論也	-10.7416
執相應染	-10.7417
乃至菩薩究竟地	-10.7417
汝今	-10.7417
王位	-10.742
相應義	-10.7421
二行	-10.7421
一行	-10.7422
累	-10.7424
策	-10.7426
或言	-10.7431
還生	-10.7431
多羅	-10.7432
真能破	-10.7433
但舉	-10.7434
可取	-10.7434
故新論云	-10.7435
未入	-10.7435
其意	-10.7438
於一切眾生	-10.744
多少	-10.744
仗	-10.744
大宗地玄文本論	-10.7442
博	-10.7443
當於	-10.7446
中具	-10.7447
出纏	-10.7448
裂	-10.7449
衛	-10.7449
降伏	-10.7452
測	-10.7456
利鈍	-10.7458
甜	-10.7458
同此	-10.7459
臺	-10.7459
瘡	-10.7462
不容	-10.7462
恨	-10.7462
西瞿耶尼	-10.7464
故說名	-10.7464
割	-10.7465
受想	-10.7465
狗	-10.7468
但於	-10.7469
第六識	-10.747
其餘	-10.7479
非約	-10.7482
復云	-10.7483
是妄	-10.7484
輪轉	-10.7486
稱性	-10.7492
量云	-10.7496
該攝	-10.7499
大法	-10.7503
後身	-10.7508
若菩薩	-10.7511
勝處	-10.7512
證理	-10.7513
緣者	-10.7514
依主釋也	-10.7516
以起	-10.7517
是何	-10.7518
無明者	-10.7521
餘四	-10.7521
實體	-10.7524
心與	-10.7528
吹	-10.753
所覆	-10.753
因成	-10.7531
生老死	-10.7538
我身	-10.7538
始本	-10.7544
若起	-10.7548
此位中	-10.7552
立破	-10.7555
令入	-10.7556
奉行	-10.7563
大乘法	-10.7565
與力	-10.757
正辨	-10.7575
有無明	-10.7581
徧計	-10.7586
初三攝	-10.759
用熏習	-10.7591
順真	-10.7593
何能	-10.7594
初總	-10.7594
通相	-10.7595
心不相應	-10.7595
諸大	-10.7596
解者	-10.76
甚深法	-10.7601
有生滅	-10.7605
如佛所說	-10.7608
議	-10.7614
釋所以	-10.7615
生佛	-10.7618
對染	-10.7626
證真如	-10.7626
善見	-10.7627
掌	-10.763
相應者	-10.7632
聞說	-10.7632
若唯	-10.7635
受苦樂	-10.7637
能歸	-10.7641
過於恒沙	-10.7652
何者為	-10.7652
唯說	-10.7653
生住異滅	-10.7654
▁五	-10.7657
淨法滿足	-10.7658
似有	-10.766
創	-10.7661
財施	-10.7663
此無明	-10.7665
異品遍無	-10.7666
無有窮盡	-10.7669
中作如是說	-10.767
正受	-10.7672
三摩提	-10.7674
能解	-10.7677
未至	-10.768
彌勒	-10.768
違宗	-10.7682
一切物	-10.7683
聖凡	-10.7683
無所依	-10.7684
層	-10.7687
度脫	-10.7688
煩惱礙	-10.7688
屬當	-10.7688
在纏	-10.7688
所依故	-10.769
喪	-10.7691
無所不	-10.7692
心真如者	-10.7694
爪	-10.7695
端正	-10.7695
熾盛	-10.7698
履	-10.7698
轉法輪	-10.7699
迎	-10.7699
如上所說	-10.7701
良由	-10.7703
分為二	-10.7703
真如理	-10.7703
曼	-10.7705
儞	-10.7707
退墮	-10.7707
慶	-10.7709
先有	-10.7711
邪命	-10.7714
今文	-10.7715
即法身	-10.7715
禰	-10.7716
為除	-10.7717
神呪	-10.7717
假使	-10.7721
事理	-10.7724
如如	-10.7724
而知	-10.7727
所遣	-10.7731
諸門	-10.7736
本意	-10.7739
又言	-10.7742
現起	-10.7745
又此人	-10.7745
根塵	-10.7748
之別	-10.7749
過咎	-10.7749
言詞	-10.775
三門	-10.7753
稱量	-10.776
應無	-10.7767
名差別	-10.7777
人我	-10.7778
開合	-10.7779
證入	-10.7779
此結	-10.778
生果	-10.7783
諸弟子	-10.7785
既離	-10.7787
既爾	-10.7788
功力	-10.7789
所以也	-10.7792
如餘	-10.7793
以自	-10.7796
取境	-10.7796
下約	-10.7798
樂求涅槃	-10.7807
三明	-10.7808
疏主	-10.7808
如是如是	-10.7808
攝論	-10.781
而於	-10.7811
成辦	-10.7817
中亦	-10.7819
色像	-10.7821
多一心	-10.7823
是真如	-10.7824
即空	-10.7826
如夢	-10.783
所被	-10.7831
其過	-10.7832
薩婆多	-10.7833
之語	-10.7835
除遣	-10.7839
一多	-10.784
斯論	-10.7842
依主釋	-10.7845
修作	-10.7846
相者是	-10.7846
相成	-10.785
敵論	-10.7854
之有	-10.7855
為異品	-10.7856
二緣	-10.7862
貌	-10.7862
天女	-10.7867
難陀	-10.787
因緣具足	-10.787
同彼	-10.788
諸魔	-10.7881
以為其	-10.7883
須彌	-10.7884
愚者	-10.7884
總釋	-10.7885
我義	-10.7888
有為無為	-10.7888
聲常	-10.7889
過去未來	-10.789
眾緣	-10.7891
所念	-10.7891
若因	-10.7892
無斷	-10.7894
心性無動	-10.7894
生天	-10.7895
己身	-10.7897
若觀	-10.7898
龜毛	-10.79
果分	-10.7902
緣熏習鏡	-10.7902
未相應	-10.7903
鏡中	-10.7903
合為	-10.7904
為欲現示	-10.7905
以不解故	-10.7908
尤	-10.791
的	-10.7911
所量性故	-10.7911
又問	-10.7912
無常想	-10.7915
隨機	-10.7915
稟	-10.7917
言有	-10.7918
伺察	-10.7918
擔	-10.792
初正	-10.792
自語相違	-10.792
兩舌	-10.7923
嗅	-10.7923
以無常	-10.7925
撰	-10.7927
繞	-10.7927
工巧	-10.7928
按	-10.7929
長短	-10.793
妄相	-10.7931
暢	-10.7931
清淨心	-10.7931
碎	-10.7934
舒	-10.7935
救度	-10.7936
六趣	-10.7938
日光	-10.7938
陵	-10.7939
說彼	-10.794
齋	-10.7942
進退	-10.7942
二人	-10.7944
故說名為	-10.7946
未證	-10.795
心數法	-10.795
未起	-10.7951
絕待	-10.7952
聲聞乘	-10.7952
東方	-10.7953
四過	-10.796
具云	-10.796
事中	-10.796
言生因	-10.7961
真如也	-10.7964
之相也	-10.7964
依生滅門	-10.7968
信成就	-10.7974
見已	-10.7975
種種相	-10.7975
在前	-10.7977
本云	-10.7981
何因	-10.7981
義利	-10.7984
諸染法	-10.7984
謂能	-10.7984
言生	-10.7986
因明論	-10.7986
無二故	-10.799
兩俱隨一	-10.7991
四行	-10.7995
而實不	-10.7998
是名為四	-10.7998
於諸眾生	-10.8001
含攝	-10.8003
蓋以	-10.8004
智人	-10.8017
十法	-10.8019
次二	-10.802
入正理	-10.8021
謂從	-10.8024
宗喻	-10.8028
則滅	-10.8028
空無為	-10.803
纔	-10.8031
初學	-10.8032
如我	-10.8032
因滅	-10.8034
懈	-10.8036
知一切法	-10.8036
一切下	-10.8037
此皆	-10.8038
為異喻	-10.8038
相去	-10.8043
其名	-10.8044
得成就	-10.8047
所緣境	-10.8048
總顯	-10.8056
若如是者	-10.8059
淨熏	-10.8061
所感	-10.8064
彼諸	-10.8069
威	-10.8071
之機	-10.8074
日夜	-10.8075
後結	-10.8079
我是	-10.808
如斯	-10.808
受諸	-10.8081
隣	-10.8087
業者	-10.8091
依真如	-10.8098
則得	-10.8098
眾中	-10.8101
故立	-10.8102
三輪	-10.8104
於境	-10.8105
謂如來藏	-10.8106
常為	-10.8106
是故下	-10.8106
標名	-10.8106
惑業	-10.811
忽然	-10.8111
當說	-10.8114
地上菩薩	-10.8116
苦者	-10.8119
業因	-10.8122
定不離眼識	-10.8122
停	-10.8125
示相	-10.8126
真法	-10.8126
詳之	-10.8129
氷	-10.8131
是此	-10.8131
四信	-10.8133
常恒不變	-10.8135
禪師	-10.8136
五過	-10.8138
百年	-10.8138
為過	-10.8139
求菩提	-10.814
脩多羅中作如是說	-10.8144
可言	-10.8144
尋伺	-10.8145
無所不遍	-10.8147
淨心地	-10.8149
湛然	-10.815
謂眾生	-10.8153
中文	-10.8154
無有增減	-10.8159
行布施	-10.816
醎	-10.8163
聖賢	-10.8164
術	-10.8165
羣	-10.8165
沉	-10.8167
對前	-10.8167
阿毘曇	-10.8175
云何下	-10.8175
婦	-10.8176
轉輪王	-10.8176
素	-10.8177
沙門婆羅門	-10.8178
刻	-10.8179
名為智礙	-10.8179
第十地	-10.818
一明	-10.8181
眼所不攝	-10.8182
汁	-10.8182
必當	-10.8183
有何差別	-10.8184
喃	-10.8185
應修	-10.8187
說名能立	-10.8188
吐	-10.8188
氏	-10.819
水中	-10.8191
方是	-10.8194
謗法	-10.82
先問	-10.82
精勤	-10.8211
風界	-10.8211
猶在	-10.8211
止觀門	-10.8214
顯此	-10.8217
不能知	-10.8218
為因緣	-10.8219
不得言	-10.8223
因分	-10.8223
非非	-10.8225
白言	-10.824
凡愚	-10.8241
相似過類	-10.8242
八相	-10.8245
已上	-10.8247
常行	-10.8248
▁初正釋	-10.8251
人有	-10.8254
若如是	-10.8256
令心生滅	-10.8256
九句	-10.8257
諸佛世尊	-10.8261
執我	-10.8265
非無常	-10.827
之量	-10.8274
行施	-10.8275
為善	-10.8279
此一	-10.8281
即真如門	-10.8282
不足	-10.8288
化生	-10.829
為人	-10.8298
智障	-10.8298
無覺	-10.8299
故不說	-10.8299
本文	-10.8302
空空	-10.8303
妄起	-10.8307
唯一心	-10.831
定是	-10.8315
大仙	-10.832
翻前	-10.832
總為	-10.8321
無雜	-10.8321
為主	-10.8324
五趣	-10.833
火燒	-10.8332
於一切時	-10.8334
智故	-10.8336
為得	-10.8338
無人	-10.8344
相從	-10.8345
不及	-10.8346
何由	-10.8348
為名	-10.835
臨	-10.8358
據此	-10.8359
自利行	-10.836
無復	-10.837
住心	-10.837
隨時	-10.8372
雜染	-10.8375
差別相	-10.838
有法自相	-10.838
如實不空	-10.8381
已成	-10.8382
得罪	-10.8383
斷盡	-10.8383
宗者	-10.8384
云何修行	-10.8387
三細六麤	-10.8387
文可見	-10.8397
蕩	-10.8398
見聞覺知	-10.84
萬像	-10.84
又行者	-10.8401
鳩	-10.8403
折	-10.8404
通明	-10.8405
率	-10.8406
無漏種子	-10.8406
損減	-10.8409
文意	-10.8409
僧佉	-10.8411
訓	-10.8412
同分	-10.8412
校	-10.8413
逕	-10.8413
不能見	-10.8414
名不定	-10.8415
嫉	-10.8415
五十一種	-10.8416
名本覺	-10.8417
此一心	-10.8418
鑒	-10.842
左右	-10.842
弊	-10.8422
纏縛	-10.8422
愈	-10.8423
近遠	-10.8423
以諸	-10.8425
知識	-10.8428
小兒	-10.8428
離障	-10.8429
能受	-10.843
因言	-10.8431
名身	-10.8432
敷	-10.8434
以大悲	-10.8436
可畏	-10.8438
回向	-10.8446
善哉	-10.8448
作如是言	-10.8451
常住一心	-10.8455
有念	-10.8457
有德	-10.8458
當知是人	-10.8459
令眾生	-10.8464
色法	-10.8467
三慧	-10.8473
動搖	-10.8474
無惑	-10.8475
初中有二	-10.8477
三細中	-10.8477
不成過	-10.8478
起業	-10.8479
不同也	-10.848
真如熏習	-10.8481
經典	-10.8486
法說	-10.8492
即生滅門	-10.8493
題目	-10.8495
何異	-10.8499
結指	-10.8505
法為	-10.8505
觀之	-10.8505
當來	-10.851
前際	-10.8512
口業	-10.8513
響	-10.8528
染緣	-10.853
慳貪	-10.8534
立聲常	-10.8535
今且	-10.8537
如是下	-10.8538
析	-10.854
大德	-10.8543
廣大心	-10.8543
為門	-10.8545
第二句	-10.855
不善法	-10.8552
中云	-10.8554
仁	-10.8554
此地	-10.8556
下答	-10.8557
修行者	-10.8559
有本覺	-10.856
勤勇無間所發	-10.8566
因名	-10.8567
無明不覺	-10.8572
見苦	-10.8574
三重	-10.8579
隨釋	-10.8585
淨智	-10.8589
名利	-10.859
度眾生	-10.8591
是故我	-10.8592
無名	-10.8592
今取	-10.8594
持業釋	-10.8595
是法身	-10.8598
三大義	-10.8601
非所聞	-10.8603
合修	-10.8604
意顯	-10.8608
其上	-10.8614
之道	-10.8615
如何得	-10.8616
察	-10.862
智身	-10.862
梁	-10.8621
眾善	-10.8621
愛敬	-10.8621
是心生滅因緣相	-10.8621
心常	-10.8623
禁戒	-10.8626
炙	-10.8628
藏中	-10.863
即說	-10.8631
日日	-10.8635
合本	-10.8643
此三昧	-10.8644
自此已下	-10.8647
阿棃耶識	-10.8648
移	-10.8648
染淨諸法	-10.8649
曠	-10.865
優劣	-10.8653
依處	-10.8653
塵沙	-10.8656
括	-10.8658
製	-10.866
總略	-10.8663
耳識	-10.8663
聽受	-10.8664
能立不遣	-10.8664
玉	-10.8666
可斷	-10.8667
以眾生	-10.8667
不念	-10.867
迴向菩提	-10.867
性也	-10.8671
不忘	-10.8672
逆順	-10.8672
顯說	-10.8672
健	-10.8672
專念	-10.8673
疲	-10.8674
無質礙因	-10.8674
式	-10.8674
商	-10.8674
眾德	-10.8675
重重	-10.8675
怨家	-10.8675
戶	-10.8676
總有	-10.8676
真言	-10.8678
映	-10.8678
除此	-10.8679
逼迫	-10.8681
困苦	-10.8682
梨耶識	-10.8682
見非所作	-10.8686
相生	-10.8688
彼復	-10.869
無礙自在	-10.8691
未說	-10.8695
標數	-10.8697
次下第二	-10.8698
怨賊	-10.8698
各各差別	-10.87
及彼	-10.87
他用	-10.8702
無終	-10.8707
意謂	-10.8707
熏故	-10.8711
是智	-10.8712
今世	-10.8712
廣分別	-10.8714
此中有	-10.8715
要須	-10.8715
或生	-10.8718
業力	-10.8718
大臣	-10.8718
闕一	-10.8719
言簡	-10.872
為同	-10.8723
隨宜	-10.8725
名似現量	-10.8727
清淨始覺	-10.8728
在後	-10.8733
與我	-10.8737
廣辨	-10.8737
自見	-10.8737
遍行	-10.8739
謂眾生心	-10.874
空無我	-10.8743
希求	-10.8751
以後	-10.8753
之根本	-10.8753
菩薩於	-10.8757
既成	-10.8762
諸禪定	-10.8767
此方	-10.8767
將欲	-10.8768
現境	-10.877
若如	-10.8775
取其	-10.8776
諸物	-10.8779
初義	-10.8782
他不許	-10.8783
以方便	-10.8789
指法	-10.8793
等經	-10.8795
已見	-10.8796
餘義	-10.8798
過類	-10.8801
之見	-10.8805
終不能	-10.8805
先釋	-10.8808
體義	-10.8815
無俱不成	-10.8816
知彼	-10.8821
為真	-10.8822
無質礙	-10.8824
報業	-10.8831
即現	-10.8834
四名	-10.8836
於真如	-10.8836
取陰	-10.8836
空相	-10.8837
似喻	-10.8839
通妨	-10.884
唯言	-10.8843
隨滅	-10.8846
有云	-10.8848
二利	-10.8851
未成	-10.8851
寶藏	-10.8856
足處	-10.8861
二過	-10.8865
此當	-10.8867
最極	-10.887
量故	-10.8872
我與	-10.888
王復問	-10.8882
云何有	-10.8885
熏習義	-10.8886
妄生	-10.8887
牒章	-10.889
見法身	-10.8891
具明	-10.8895
常有	-10.8896
為三	-10.8896
無形	-10.8898
不存	-10.8899
約人	-10.89
初結前生後	-10.89
嚤	-10.8901
如是一切	-10.8907
理應	-10.8909
之義也	-10.891
離苦	-10.8911
此門中	-10.8912
從緣	-10.8912
積聚他用	-10.8913
若修止者	-10.8914
已知	-10.8914
於契經中	-10.8914
亦不應	-10.8915
大圓鏡智	-10.8917
現證	-10.8918
不住涅槃	-10.8919
一生	-10.8923
伎	-10.8924
成其	-10.8925
遲速	-10.8928
甲	-10.893
如是諸	-10.893
域	-10.8933
私	-10.8934
默	-10.8935
保	-10.8937
村	-10.8938
無餘涅槃	-10.8938
作有緣性	-10.8939
徧知	-10.8941
大力	-10.8941
內因	-10.8942
唯自	-10.8942
五行	-10.8944
是菩提	-10.8945
奔	-10.8945
離一切相	-10.8947
猶有	-10.8947
若生	-10.8947
鮮	-10.8948
開章	-10.8948
造此論	-10.8949
愚夫	-10.895
笑	-10.8951
此謂修	-10.8951
宅	-10.8952
分段	-10.8953
須菩提	-10.8955
合為一	-10.8955
問意	-10.8957
道場	-10.8957
八聖道	-10.896
沙彌	-10.896
佛法僧	-10.8962
四念處	-10.8964
又彼	-10.8964
努	-10.8965
喻也	-10.8971
而悉	-10.8972
所持	-10.8974
真如隨緣	-10.8974
具德	-10.8974
勝德	-10.8978
覆藏	-10.8981
即時	-10.8983
無功用	-10.8986
不離眼識	-10.8986
有生滅心	-10.8989
▁二釋成	-10.8989
經書	-10.899
往彼	-10.8994
新生	-10.9001
者明	-10.9002
五蓋	-10.9003
無有前後	-10.9006
如以	-10.9009
比觀	-10.9009
亦當	-10.9011
佛世尊說	-10.9013
摩訶衍論	-10.9013
上二	-10.9015
一分轉	-10.9019
第三相	-10.9021
是總	-10.9026
或作	-10.9027
愛取	-10.9027
二顯	-10.9029
利他行	-10.9032
正體	-10.9035
從心	-10.9037
假有	-10.9038
唯是一	-10.9038
六處	-10.9039
或見	-10.904
種種差別	-10.9048
為常	-10.905
相應也	-10.9052
眾寶	-10.906
在家	-10.9068
釋其	-10.9073
為能熏	-10.9075
故華嚴云	-10.9076
違教	-10.9077
應如是知	-10.9079
法我見	-10.908
治障	-10.9088
轉生	-10.9092
以辨	-10.9093
此初	-10.9097
喻如	-10.9099
體無二	-10.9099
而論	-10.9102
見之	-10.9103
各攝	-10.9105
論師說	-10.911
因性	-10.9112
聲等	-10.9119
汝當	-10.9119
分際	-10.9121
謂無明	-10.9124
▁二別釋	-10.9124
則名	-10.9125
從緣生	-10.9125
又若人	-10.9126
不亡	-10.9127
兔角	-10.9129
未曾有	-10.913
有對	-10.9132
是即	-10.9134
無數劫	-10.9135
譬若	-10.9138
互為	-10.9139
卒	-10.9143
實句	-10.915
觀智	-10.9153
四字	-10.9153
悉知	-10.9154
乘者	-10.9154
成有法	-10.9155
苾芻	-10.9156
閑	-10.9157
念故	-10.9159
所立義	-10.916
對此	-10.9165
失念	-10.9165
能變	-10.9168
為味	-10.917
非愛	-10.917
無始無明	-10.9172
索	-10.9173
非自	-10.9173
所以言	-10.9176
難意	-10.9176
誡	-10.9176
作善	-10.9177
若心有動	-10.9178
位位	-10.9182
生空	-10.9182
無生滅	-10.9185
不繁	-10.9187
立我	-10.9187
彼天	-10.9188
闡提	-10.9189
遍一切	-10.9191
復能	-10.9193
已作	-10.9193
番	-10.9194
所別不極成	-10.9195
一一各各	-10.9199
鑽	-10.9199
無有變異	-10.9199
難者	-10.92
到彼岸	-10.9201
借	-10.9201
初發心住	-10.9201
□□	-10.9202
醍醐	-10.9202
惜	-10.9205
遊戲	-10.9205
救護	-10.9205
遷流	-10.9207
充	-10.9207
廓	-10.9209
懺	-10.9209
瞻	-10.921
憎愛	-10.921
怪	-10.921
攝盡	-10.921
大用	-10.9211
鬪諍	-10.9211
東弗婆提	-10.9211
言因	-10.9211
未甞	-10.9213
開悟	-10.9215
初標徵	-10.9216
故唯	-10.9216
如勝論師	-10.9216
無常性	-10.9217
游	-10.9217
釈	-10.9217
一切世界	-10.9218
春	-10.9219
侍	-10.922
廣大圓滿	-10.922
之境界	-10.9223
總答	-10.9223
念念生滅	-10.9223
於彼中生	-10.9224
蘇	-10.9225
丸	-10.9225
諸趣	-10.9225
耽	-10.9226
螺髻	-10.9227
而今	-10.9227
智了	-10.9228
麗	-10.9231
圍遶	-10.9233
雖殊	-10.9234
聲是有法	-10.9235
非可	-10.9235
如瓶等	-10.9237
為始	-10.9238
八千	-10.9238
有生	-10.9239
相耶	-10.9245
三諦	-10.9247
論之	-10.9247
色無色界	-10.9248
他比量	-10.925
十向	-10.9252
無所立	-10.9253
苦果	-10.9255
林中	-10.926
所願	-10.9263
何因緣故	-10.9264
。」【(○	-10.9268
為先	-10.9268
群生	-10.9269
若行	-10.927
減失	-10.9272
詔	-10.9275
往向	-10.9278
表實	-10.9279
是經	-10.9284
有物	-10.9289
癡行人	-10.929
信樂	-10.9297
深妙	-10.9297
為事	-10.9298
此相	-10.9298
以彰	-10.9302
非為	-10.9304
得大	-10.9305
執有	-10.9308
大涅槃	-10.9316
受此	-10.9317
其文	-10.9317
內有	-10.9319
非正	-10.9321
得自相	-10.9321
淨戒	-10.9323
所離	-10.9324
不可言	-10.9325
立為	-10.9328
此釋之	-10.9333
壞苦	-10.9334
又是	-10.9335
則不得	-10.9335
雖異	-10.9336
如經	-10.9337
能使	-10.9343
因緣分	-10.9343
瑜伽論	-10.9347
至教	-10.9348
二十七	-10.9355
那先言人	-10.9357
乃能	-10.9359
答釋	-10.936
是故一切法	-10.9365
熏力	-10.9367
染淨本覺	-10.9369
皆令	-10.9371
脩羅	-10.9372
於宗	-10.9374
便能	-10.9377
引喻	-10.9377
不用	-10.9377
初住	-10.9379
論釋	-10.9383
不應說	-10.9384
作諸	-10.9385
由於	-10.9386
上之	-10.9386
略顯	-10.9387
謂由無明	-10.9388
不退轉	-10.939
作證	-10.9399
勝論師	-10.94
得度	-10.9402
熏真	-10.9403
惡行	-10.9404
又由	-10.9405
堪能	-10.9406
標釋	-10.9407
異執	-10.9417
識故	-10.9419
之大	-10.9422
略標	-10.9423
體即	-10.9425
依業識	-10.9426
從本	-10.9429
能以	-10.9431
鬘	-10.9434
水相	-10.9435
修心	-10.9435
潔	-10.9439
全分一分	-10.944
發心相	-10.9443
河沙	-10.9443
世間法	-10.9443
緣中	-10.9444
因有	-10.9445
無分別故	-10.9445
生淨土	-10.9446
此喻	-10.9446
二品	-10.9447
治道	-10.9447
竟在於前	-10.9449
所受	-10.945
唯佛窮了	-10.9451
不染而染	-10.9451
復有二種	-10.9452
鎔融	-10.9452
心不見心	-10.9452
此通	-10.9452
六麁	-10.9455
通依	-10.9456
釋之	-10.946
染故	-10.946
成佛道	-10.9462
六門	-10.9463
初牒	-10.9463
體相二大	-10.9464
因行	-10.9465
快	-10.9466
道果	-10.9467
焚	-10.9468
速疾	-10.9472
五意中	-10.9473
善哉善哉	-10.9473
化度	-10.9473
剖	-10.9474
扶	-10.9477
故下論云	-10.9478
三世間	-10.948
聲生	-10.9481
雅	-10.9482
釋曰後合本論	-10.9482
隨緣成	-10.9483
中三	-10.9485
更無別法	-10.9485
愧	-10.9486
隨順法性	-10.9488
誘	-10.9491
端嚴	-10.9491
試	-10.9492
劇	-10.9493
哀	-10.9493
富樂	-10.9493
更相	-10.9494
作是思惟	-10.9494
鄙	-10.9496
作法	-10.9496
起大悲	-10.9499
分別心	-10.9499
即入	-10.9499
名為如來藏	-10.9501
皮肉	-10.9503
送	-10.9505
生信	-10.9505
七八	-10.9508
正說	-10.9509
涅槃經云	-10.951
分門	-10.951
舍利	-10.9511
我以	-10.9513
章門	-10.9514
巖	-10.9516
起成	-10.9517
有緣性	-10.9517
迦羅	-10.9517
本一	-10.9517
天耳	-10.9518
於虛空	-10.9524
名稱	-10.9525
結云	-10.9528
隨從	-10.9533
佛教	-10.9535
有所得	-10.9536
具戒	-10.9536
一真	-10.9537
登地	-10.9538
正答	-10.9539
思念	-10.9542
以相	-10.9542
等皆	-10.9542
起念	-10.9543
如日	-10.9548
依不覺	-10.9549
還歸	-10.9549
是大	-10.955
何等為四	-10.9553
證涅槃	-10.9554
品中	-10.9557
心生滅者	-10.9557
持業釋也	-10.9557
未見	-10.9559
略釋	-10.9561
而修	-10.9565
各有三	-10.9571
界中	-10.9572
已被	-10.9578
於因	-10.9581
以理	-10.9583
愚人	-10.9585
本非	-10.9587
意者	-10.9587
我相	-10.9587
名同	-10.9588
願我	-10.959
此經文	-10.959
具顯	-10.9593
喻明	-10.9595
莫不	-10.9598
所成故	-10.9599
以如來藏	-10.96
亦不成	-10.9601
楞嚴	-10.9605
增上緣	-10.9607
自高	-10.9611
果德	-10.9629
此舉	-10.963
為無	-10.9632
天中	-10.9632
亦滅	-10.9633
無比	-10.9634
還復	-10.9642
師說	-10.9642
開發	-10.9643
觀也	-10.9643
皆通	-10.9643
而有無明	-10.9643
相似覺	-10.9645
有愛	-10.9646
無義	-10.9647
何成	-10.9651
從來	-10.9651
無二無別	-10.9655
靜心	-10.9655
使令	-10.9655
倒離	-10.9656
以不知	-10.9657
得聞	-10.9659
所作事	-10.9659
無色定	-10.9663
盡十方	-10.967
地者	-10.9671
天下	-10.9672
意趣	-10.9673
是行	-10.9674
後合	-10.9675
依之	-10.9678
出家人	-10.9678
異於	-10.9679
師云	-10.968
亦不相違	-10.9683
猶若	-10.9686
見性	-10.9691
彼宗	-10.9699
生滅心	-10.97
無妨	-10.97
違理	-10.9705
所依止	-10.9706
一切凡夫	-10.9708
諸禪	-10.9708
意說	-10.9714
今依	-10.9719
淨相	-10.972
能成就	-10.9721
立此	-10.9723
諦觀	-10.9724
當生	-10.9726
友	-10.973
釋曰五	-10.9734
善利	-10.9734
自共	-10.9736
染而不染	-10.9736
故此釋云	-10.9738
色者	-10.9738
所詮義	-10.9739
以慧	-10.9739
八句	-10.9739
總問	-10.974
此執	-10.9741
霧	-10.9743
蟲	-10.9743
因熏習鏡	-10.9744
善根微少	-10.9746
五中	-10.9746
猒	-10.9748
簡擇	-10.9749
無間道	-10.9751
稻	-10.9752
常念	-10.9752
如燈	-10.9755
種種莊嚴	-10.9755
乍	-10.9756
又經云	-10.9756
所言法者	-10.9759
之教	-10.9761
十方諸佛	-10.9762
險	-10.9764
靜慮	-10.9764
嗔	-10.9768
㲲	-10.9768
偶	-10.9769
欲得	-10.9769
生彼	-10.977
聰明	-10.9771
射	-10.9772
下釋成二初	-10.9773
若與	-10.9774
追	-10.9774
十義	-10.9776
因明入正理論	-10.9777
思擇	-10.9777
權教	-10.9779
親證	-10.978
梵世	-10.978
常得	-10.9782
何故說	-10.9782
祕	-10.9782
滑	-10.9782
成此	-10.9783
召	-10.9787
無德	-10.9789
四無量	-10.9789
空華	-10.9791
唯識論	-10.9794
平等故	-10.9796
能生一切	-10.98
業轉	-10.9801
不增	-10.9802
容受	-10.9803
爾時世尊	-10.9803
此宗	-10.9805
滅惑	-10.9808
十歲	-10.9808
有始	-10.9811
品云	-10.9811
其後	-10.9812
自立	-10.9812
阿字	-10.9814
後門	-10.9815
次辨	-10.9815
那先問王言	-10.9816
攝一切法	-10.9817
眾僧	-10.9818
戒定慧	-10.9819
三千	-10.982
即攝	-10.982
發智	-10.9821
證法身	-10.9825
過去世	-10.9825
墮惡道	-10.9827
元年	-10.9831
四障	-10.9835
說偈	-10.984
若至	-10.9843
萬由旬	-10.9845
染熏	-10.9847
重明	-10.9853
同品定有	-10.9854
勤行	-10.9858
為明何義	-10.986
則有三種	-10.9866
清淨法	-10.9869
境者	-10.9873
能立不成	-10.9874
與佛	-10.9879
厭惡	-10.988
兩句	-10.9884
已滅	-10.989
此之二	-10.9893
答意	-10.9895
正教	-10.9896
結也	-10.9896
唯有一	-10.9899
絕相	-10.99
為所熏	-10.9902
說之	-10.9903
有法自相相違	-10.9905
不思	-10.9906
四中	-10.9907
比智	-10.9908
名法	-10.9912
聽法	-10.9913
明此	-10.9918
歸一心	-10.9919
非宗法	-10.992
後別	-10.9924
戒取	-10.9924
便無	-10.9927
前來	-10.9929
順真如	-10.9931
有礙	-10.9937
即墮	-10.9937
不堪	-10.9941
出其	-10.9946
從於	-10.9946
覺分	-10.9947
如一	-10.9947
二立	-10.9948
斷結	-10.9951
大無量	-10.9951
有俱不成	-10.9953
所許	-10.9954
即是不覺	-10.9955
依經	-10.996
彼等	-10.996
以何為	-10.9961
是識	-10.9963
若比丘	-10.9965
亦不離	-10.997
微塵數	-10.9973
不喜	-10.9974
之由	-10.9981
他智	-10.9984
今疏	-10.9984
若具	-10.9985
正思惟	-10.999
此正	-10.9991
等持	-10.9994
能立因	-10.9997
後四	-11.0001
斷無明	-11.0005
此示	-11.0008
別辨	-11.0008
有一實	-11.0009
六染中	-11.001
得樂	-11.0011
三世諸佛	-11.0019
佛告	-11.0023
自語	-11.0026
願求	-11.003
不殺	-11.0031
體無	-11.0031
不思議變	-11.0035
如是觀	-11.0036
無所不徧	-11.0036
濕性不壞	-11.0037
䇿	-11.0038
識心	-11.004
如量智	-11.0042
滅度	-11.0044
若汝意謂	-11.0044
丈夫	-11.0045
斯陀含	-11.0045
竝	-11.0047
有二義一	-11.0048
從無始世來	-11.0051
奢	-11.0051
有二一	-11.0051
此本覺	-11.0051
識等	-11.0052
染汙	-11.0053
是故此	-11.0053
四句者	-11.0054
鑛	-11.0055
論言	-11.0057
二處	-11.0057
醉	-11.0058
漂	-11.0058
賤	-11.0058
早	-11.0059
穿	-11.006
譬如瓶等	-11.0061
尅	-11.0061
奴	-11.0062
縷	-11.0062
鉤	-11.0063
鍊	-11.0063
相違者	-11.0063
米	-11.0065
與心相應	-11.0065
雪山	-11.0066
同也	-11.0067
灌頂	-11.0067
緩	-11.0069
合有	-11.0069
二徵列	-11.007
如見	-11.0071
危	-11.0071
尺	-11.0071
逸	-11.0072
工	-11.0072
基	-11.0072
枳	-11.0073
圖	-11.0076
復次有	-11.0077
不苦不樂受	-11.0077
床	-11.0077
而不能	-11.0077
麥	-11.0079
鬪戰	-11.0081
財寶	-11.0081
多義	-11.0082
名苦	-11.0082
悔過	-11.0084
後一句	-11.0085
契當	-11.0086
憙	-11.0087
立有	-11.0087
無由	-11.0088
非有相	-11.009
共有	-11.0097
如來地	-11.0099
於義	-11.0099
除斷	-11.01
今欲	-11.0102
假智	-11.0104
何謂	-11.0104
妙用	-11.0105
無倒	-11.011
於色	-11.0111
後生	-11.0111
▁二別	-11.0112
所緣境界	-11.0116
無得	-11.0119
無明熏真如	-11.0123
永滅	-11.0123
作禮	-11.0124
顯因	-11.0124
故但	-11.0126
種種性	-11.0127
有質礙	-11.0128
離見	-11.0132
名法身	-11.0133
理體	-11.0144
戒者	-11.0147
之極	-11.0156
生喜	-11.0156
得無	-11.0159
皆盡	-11.016
火界	-11.0163
惑亂	-11.0167
如金	-11.0169
雖然	-11.0169
上根	-11.017
信佛	-11.017
不敬	-11.0171
不能盡知	-11.0171
無斷絕	-11.0171
無用	-11.0172
全同	-11.0175
一切佛	-11.0178
歸向	-11.0184
以少	-11.0185
此疑	-11.0186
如海	-11.0188
應以	-11.0188
施主	-11.0189
比量者	-11.0191
不可分別	-11.0193
於水	-11.0197
專心	-11.0197
無物	-11.0204
菩薩行	-11.0207
外無	-11.0209
心想	-11.0212
於諸法	-11.022
後三句	-11.022
名能破	-11.0222
貫通	-11.0224
能見能現	-11.0227
取彼	-11.0228
千歲	-11.023
定中	-11.0234
所作無常	-11.0235
即屬	-11.0235
應滅	-11.0238
便生	-11.0239
而其	-11.0246
一切時	-11.0248
與其	-11.0251
少欲	-11.0253
喻顯	-11.0254
得脫	-11.0255
陰所攝	-11.0256
三百	-11.0263
地等	-11.0263
行道	-11.0263
但得	-11.0265
陀羅	-11.0268
業轉現	-11.0269
一千	-11.0269
本體	-11.027
無道理	-11.0271
解義	-11.0271
准前	-11.0273
論所說	-11.0275
煩惱業	-11.0276
空也	-11.0279
性自	-11.0279
不云	-11.0282
下第三	-11.0284
以念	-11.0284
他受用	-11.0286
配屬	-11.0289
相續不斷	-11.029
似現量	-11.029
聞者	-11.029
何假	-11.0292
應名	-11.0293
者何義	-11.0296
四相違	-11.0296
摩訶衍者	-11.0305
因亦	-11.0305
般	-11.0306
名不	-11.0307
對色	-11.0309
淳淨	-11.0309
不同故	-11.0314
諸眾生等	-11.0315
真如生滅	-11.032
真金	-11.0325
斷常	-11.0326
智性	-11.0329
於理	-11.0329
無常故	-11.0329
等三	-11.033
略舉	-11.0331
不斷相應染	-11.0333
皆無自立	-11.0334
如說聲常	-11.0335
可成	-11.0335
如是眾生	-11.0336
立無常	-11.0338
由因	-11.0339
修遠離法	-11.0341
正當	-11.0341
撥	-11.0342
理趣	-11.0342
是業熟	-11.0345
信等	-11.0345
阿梨耶	-11.0346
今但	-11.0348
為諸	-11.0349
百非	-11.035
因言遣言	-11.035
其地	-11.0351
才	-11.0351
立論者	-11.0352
區	-11.0353
他方佛色	-11.0354
此即初也	-11.0355
蔽	-11.0355
五教	-11.0355
嘆	-11.0355
智用	-11.0356
有法及法	-11.0358
焦	-11.0359
以此因緣	-11.036
合喻	-11.0362
正體智	-11.0362
佛法身	-11.0363
作大	-11.0363
破和合識相	-11.0364
所著	-11.0364
陽	-11.0364
三時	-11.0364
三衣	-11.0364
冤家	-11.0365
堅牢	-11.0365
由是義故	-11.0366
省	-11.0368
眾寶所成	-11.0368
辛	-11.0369
荷	-11.0369
溫	-11.037
貪恚	-11.0371
方便善巧	-11.0371
惡知識	-11.0371
流注	-11.0372
色香味觸	-11.0373
信力	-11.0373
擇滅	-11.0375
庶	-11.0376
休	-11.0377
採	-11.0378
掉	-11.0379
黑暗	-11.038
體是	-11.0381
聲瓶	-11.0382
披	-11.0382
謂無	-11.0383
教授	-11.0385
輕安	-11.0386
冠	-11.0387
往昔	-11.0388
憎惡	-11.0391
枝葉	-11.0393
無苦	-11.0395
兩宗	-11.04
設使	-11.0404
曳	-11.0404
必無	-11.0405
不闕	-11.0407
論議	-11.0407
有法差別相違	-11.041
寶池	-11.041
首陀	-11.0411
可立	-11.0414
為證	-11.0415
四塵	-11.042
瑜伽等	-11.0421
輕重	-11.0421
和尚	-11.0422
又為	-11.0428
留惑	-11.0429
求那	-11.0429
此二因	-11.0432
為令眾生	-11.0432
應得	-11.0435
彼有	-11.0437
前雖	-11.0437
此即是	-11.044
名同品	-11.044
於上	-11.0441
日輪	-11.0441
迷惑	-11.0443
無漏法	-11.0444
決斷	-11.0446
自他共	-11.0447
繫屬	-11.0448
釋曰後別	-11.045
有九	-11.0455
事識中	-11.0456
還淨	-11.0456
水等	-11.0457
總體	-11.0461
無中間有	-11.0461
智體	-11.0462
種種諸	-11.0464
真如自體	-11.0466
諸人	-11.0466
正命	-11.0467
現報	-11.0467
色蘊	-11.0471
諸見	-11.0473
六七	-11.0473
謂一	-11.0473
清白	-11.0478
色聲	-11.0479
後有	-11.0483
諸過	-11.0485
六麤中	-11.049
說有無明	-11.0492
但緣	-11.0492
異熟識	-11.0496
為二	-11.0497
同法喻	-11.0499
用熏	-11.05
若立	-11.05
若滅	-11.0503
釋師	-11.0503
別也	-11.0508
變作	-11.051
東西	-11.0511
如何說	-11.0513
應如是	-11.0514
今舉	-11.0515
融攝	-11.0517
不定故	-11.0518
名為真如	-11.0519
如瓶	-11.0519
名相似覺	-11.0521
力能	-11.0521
不斷絕	-11.0522
是故無	-11.0524
自說	-11.0524
淨名云	-11.0524
於人	-11.0526
非人	-11.0529
宗同品	-11.0533
死時	-11.0534
約生滅門	-11.0539
引文	-11.054
合也	-11.0542
令不	-11.0547
能捨	-11.0549
句處	-11.0555
如汝	-11.0555
是故應	-11.0557
起相	-11.056
譬如有人	-11.0563
提婆	-11.0568
取此	-11.0569
頌言	-11.057
藏性	-11.0572
無別異	-11.0572
二段	-11.0573
不去	-11.0578
顧	-11.058
文有三	-11.058
自比量	-11.0584
云何當	-11.0587
生人中	-11.0587
進修	-11.0589
怯	-11.0593
又亦	-11.0594
皆是無明	-11.0596
護持	-11.0602
生緣	-11.0604
實語	-11.0604
瓶上	-11.0605
三十六	-11.0608
云何言	-11.0608
恩愛	-11.0609
義成	-11.061
熏眾生	-11.0614
總中	-11.0614
虛空相	-11.0619
有六種	-11.0622
人見	-11.0624
消滅	-11.0628
等取	-11.0628
證智	-11.0628
一日一夜	-11.0632
所住	-11.0634
共不定	-11.0635
言教	-11.064
失故	-11.0641
實是	-11.0644
言極成	-11.0645
則見	-11.0647
所謂心性不生不滅	-11.065
踈	-11.0651
止也	-11.0652
云何能	-11.0653
差別也	-11.0654
為境	-11.0654
初地以上	-11.0654
成自然業	-11.0658
包含	-11.0659
生老病死	-11.0661
即依	-11.0662
即如來藏	-11.0663
今此偈中為明何義	-11.0663
及四	-11.0665
法執分別	-11.0665
甞	-11.0666
方隅	-11.0669
教說	-11.0671
無有斷絕	-11.0671
怠	-11.0673
泥團	-11.0674
識浪	-11.0674
本來平等	-11.0675
常在	-11.0675
勉	-11.0676
二種本法	-11.0678
警	-11.0678
e	-11.0681
輒	-11.0682
三十二種	-11.0683
敗壞	-11.0684
片	-11.0684
滅則	-11.0685
入住	-11.0685
可有	-11.0685
頸	-11.0686
一萬	-11.0687
則可	-11.0688
之具	-11.0688
真門	-11.0689
;	-11.0689
毘婆舍那	-11.0689
當知此	-11.0689
開敷	-11.0689
今此門中	-11.069
妻子	-11.0691
淚	-11.0691
返流	-11.0692
答若	-11.0692
三性	-11.0693
寬狹	-11.0695
所陳	-11.0695
但遮	-11.0696
六波羅蜜	-11.0698
異門	-11.0699
翻譯	-11.0699
杵	-11.0701
則與	-11.0704
如世	-11.0704
流布	-11.0707
伽陀	-11.0707
􂵋	-11.0707
入十住	-11.0708
數息	-11.071
自體相用	-11.071
取捨	-11.0712
融通	-11.0713
本淨	-11.0715
白衣	-11.0717
乃至十地	-11.0719
不覺而起	-11.072
不減	-11.0722
不怖	-11.0725
一字	-11.073
二初結前生後	-11.0734
言詮	-11.0736
同異品	-11.0737
彼子	-11.0739
隨於	-11.0743
何功德	-11.0744
菩提行	-11.0747
唯局	-11.0748
名因	-11.0749
受等	-11.0753
福行	-11.0753
希望	-11.0754
言我	-11.0758
救世	-11.0758
如虗空等	-11.0759
一期	-11.076
應觀察	-11.076
是第二	-11.0763
三節	-11.0764
此段	-11.0764
後文	-11.0771
以瓶	-11.0775
何故此中	-11.0775
中各	-11.0776
若爾何故	-11.0778
▁二答	-11.0778
所縛	-11.0781
作沙門	-11.0785
總是	-11.0786
治之	-11.0787
得益	-11.079
通攝	-11.0794
亦知	-11.0798
道人	-11.08
無我想	-11.0801
中之	-11.0801
翻對	-11.0801
有法上	-11.0801
身故	-11.0801
云云	-11.0803
從其	-11.0805
具如	-11.0806
護念	-11.0808
於聲	-11.0808
不清淨	-11.0809
即智	-11.081
無一	-11.0811
或唯	-11.0815
無有一法	-11.0816
本覺體	-11.0817
翻染	-11.0818
之詞	-11.0819
可樂	-11.0821
現世	-11.0824
妄心熏習	-11.0824
我所說	-11.0824
有不定	-11.0827
有如是	-11.0828
為地獄	-11.0829
當作	-11.0832
隨緣不變	-11.0838
無退	-11.0839
為大	-11.084
結名	-11.0842
意意識	-11.0844
不離真如	-11.0845
為佛	-11.0846
遂成	-11.0846
苦想	-11.0846
其聲	-11.0848
後位	-11.0849
後句	-11.085
執受	-11.0854
初發心	-11.0856
真如中	-11.086
邪念	-11.0861
於一切處	-11.0862
後則	-11.0864
非別	-11.0866
婆羅	-11.0867
宗有法	-11.087
得彼	-11.0871
亦二	-11.0875
所辨	-11.0875
二執相	-11.0876
中無有	-11.0877
若異	-11.0878
正取	-11.0879
然有	-11.0882
行位	-11.0884
信成就發心者	-11.0884
上言	-11.0885
是假名	-11.0887
證果	-11.089
隨義	-11.0892
兼取	-11.0892
即理	-11.0895
難解	-11.0897
佛意	-11.0901
四五	-11.0901
均	-11.0901
三類	-11.0903
風吹	-11.0904
佛體	-11.0904
即本覺	-11.0905
我語	-11.0906
王言我	-11.0908
之因緣	-11.0918
不破	-11.0923
凡夫人	-11.0924
四攝	-11.0927
勤勇發	-11.0932
不遮	-11.0932
同相者	-11.0933
眾生身	-11.0934
前七	-11.0935
諸佛法身	-11.0943
勤勇無間所發性故	-11.0943
後解	-11.0944
此唯	-11.0945
熏起	-11.0946
耳根	-11.095
此第二	-11.0951
不安	-11.0954
離念相者	-11.0959
詰	-11.0961
新熏	-11.0961
道分	-11.0962
世間相違	-11.0963
何言	-11.0964
而用	-11.0964
順於	-11.0965
求解脫	-11.0966
我有	-11.0968
有說	-11.0968
色陰	-11.0968
已前	-11.0969
場	-11.0975
在其中	-11.0975
修梵行	-11.0975
依一心法有二種門	-11.0976
所言義者	-11.0978
遍是宗法性	-11.0978
謂一切	-11.0978
智性不壞	-11.0978
凡位	-11.0979
勅	-11.0979
報應	-11.098
信真如	-11.0981
石女	-11.0982
問若爾	-11.0983
即與	-11.0984
自教相違	-11.0987
因體	-11.0988
所修離相	-11.0989
惡作	-11.0991
常樂我淨	-11.0991
平等一味	-11.0992
功德故	-11.0992
凝然	-11.0993
筏	-11.0993
云何取其相	-11.0994
畧	-11.0995
給	-11.0996
三祇	-11.0997
醜	-11.0998
塹	-11.0998
見佛身	-11.0999
無厭足	-11.0999
踰	-11.1
欺誑	-11.1001
香象	-11.1001
導師	-11.1004
真妄和合	-11.1004
頓悟	-11.1005
漸斷	-11.1006
方為	-11.1006
血肉	-11.101
瞿	-11.101
夷	-11.1012
詐	-11.1012
弗	-11.1012
諂曲	-11.1013
默然	-11.1013
識體	-11.1013
惑染	-11.1014
殃	-11.1014
智慧觀察	-11.1014
諸部	-11.1015
憒閙	-11.1016
實我	-11.1016
大果	-11.1016
作如是念	-11.1016
施與	-11.1017
驅	-11.1017
至極	-11.1017
徑	-11.1017
彼坐禪人如是	-11.1018
不應作	-11.102
居士	-11.102
旃陀羅	-11.1021
不簡	-11.1024
者謂即	-11.1026
復次若	-11.1026
所起之	-11.1029
園林	-11.103
微劣	-11.1032
城門	-11.1033
二事	-11.1035
浴	-11.1038
妙吉祥言	-11.1038
教理	-11.1038
七寶	-11.1038
三十二相	-11.1038
且初	-11.1038
下正明	-11.1038
信之	-11.1039
王數	-11.1042
餘一切	-11.1042
若對	-11.1044
或因	-11.1045
是亦不然	-11.1045
妙寶	-11.1046
定無	-11.1049
不能盡	-11.105
正定聚	-11.1053
因由	-11.1055
五頂	-11.1055
違共	-11.1055
意之識	-11.1055
方顯	-11.1063
廣論	-11.1063
應念	-11.1066
禮佛	-11.1066
唯屬	-11.1069
即分為	-11.1069
凡所	-11.1071
堅等	-11.1074
智起	-11.1074
無流	-11.1074
若修	-11.1075
▁二釋相	-11.1085
大有性	-11.1085
依報	-11.1091
智惠	-11.1091
染淨始覺	-11.1093
衣食	-11.1093
天魔	-11.1096
等種種	-11.1097
對於	-11.1105
地獄中	-11.1105
轉釋	-11.1105
他身	-11.1106
為破	-11.1108
▁初總	-11.1109
若有人	-11.1109
二年	-11.1109
方起	-11.111
誰為	-11.1112
威神	-11.1114
消除	-11.112
前三染	-11.1123
離眼識	-11.1129
莊嚴具	-11.113
常法	-11.113
計名	-11.1131
所解	-11.1132
此標	-11.1137
【	-11.1137
傍生	-11.1138
主宰	-11.1139
今為	-11.1143
諸眾生故	-11.1151
不犯	-11.1152
前所	-11.1153
寶花	-11.1157
速得	-11.116
結使	-11.116
譽	-11.116
同異喻	-11.1161
示法	-11.1161
見此	-11.1167
略辨	-11.1167
。《	-11.1171
先標	-11.1171
業也	-11.1176
指前	-11.118
義別	-11.118
分量	-11.1181
無合	-11.1181
譏	-11.1181
非實等	-11.1183
正量	-11.1184
見諦	-11.1185
不空義	-11.1186
抑	-11.1186
唯見	-11.1187
不證	-11.1189
不敢	-11.119
無願	-11.119
名為意識	-11.119
如來身	-11.1191
勝解	-11.1198
略示	-11.1199
真熏	-11.1199
瓶等無常	-11.12
文二	-11.12
熱觸	-11.1201
名涅槃	-11.1203
雖在	-11.1204
福業	-11.1204
今於	-11.1207
故名現量	-11.1207
道品	-11.1211
即上	-11.1219
生義	-11.1221
口中	-11.1222
不易	-11.1223
枝末無明	-11.1229
華嚴經云	-11.1229
喻上	-11.123
顯義	-11.1236
方便道	-11.1238
遊行	-11.1239
更互	-11.1239
欲行人	-11.1241
別別	-11.1241
未解	-11.1242
科分	-11.1244
如似	-11.1245
隨文	-11.1245
故令	-11.1247
善因果	-11.1247
宜應	-11.1249
大菩薩	-11.1249
如前所	-11.1252
金剛心	-11.1253
又人	-11.1253
修止觀	-11.1254
上中下	-11.1255
攝心	-11.1256
身為	-11.1258
入胎	-11.1259
前位	-11.1261
無量劫	-11.1261
菩提分	-11.1264
總言	-11.1269
差別相故	-11.1269
動亂	-11.127
初立	-11.1271
我等今	-11.1271
佛功德	-11.1272
雖知	-11.1273
是道	-11.1275
教也	-11.1278
身體	-11.1282
名生	-11.1283
生了	-11.1287
成就故	-11.1289
得見心性	-11.1298
隨有	-11.13
依本覺	-11.13
勝義諦	-11.1301
對無空論	-11.1301
依覺故迷	-11.1303
法及有法	-11.1303
心行處滅	-11.1303
二十三諦	-11.1306
亦無可立	-11.1306
住異	-11.1308
一切諸佛本所乘故	-11.1309
標指	-11.1309
法出離鏡	-11.131
令住	-11.131
料簡	-11.1311
然上	-11.1311
假使有人	-11.1315
能熏所熏	-11.1316
剎那不住	-11.1316
九過	-11.1318
蘊處界	-11.1318
曼陀羅	-11.1319
亦不能	-11.1322
總攝諸	-11.1324
後方	-11.1325
條	-11.1326
有邊	-11.1327
十千劫	-11.1327
相違義	-11.1327
本始二覺	-11.1327
曇	-11.1328
主伴	-11.133
後報	-11.1331
折伏	-11.1331
顯現法身	-11.1333
阿修羅	-11.1333
g	-11.1333
增上慢	-11.1334
戀	-11.1334
若復有人	-11.1335
我若	-11.1335
教誨	-11.1336
侶	-11.1336
福智	-11.1336
劫中	-11.1337
太子	-11.1338
地水火風	-11.1339
貪恚癡	-11.1342
雖非	-11.1342
聾	-11.1344
不貪	-11.1345
湯	-11.1346
眼等根	-11.1346
塵境	-11.1346
此復	-11.1346
諸菩薩等	-11.1347
昔在人中	-11.1348
瑟	-11.1349
截	-11.135
柯	-11.135
就此	-11.1351
一味平等	-11.1352
有一實因	-11.1353
亦不可得	-11.1359
如是知	-11.1362
無所依止	-11.1362
為起	-11.1363
六不定	-11.1363
一心二門	-11.1363
遠近	-11.1364
本有法身	-11.1364
猶豫不成	-11.1365
緣滅	-11.1365
是語	-11.1369
共生	-11.137
於十方	-11.1372
菩提涅槃	-11.1373
破諸	-11.1373
已盡	-11.1373
當自	-11.1374
情有	-11.1377
經所說	-11.1378
於一心	-11.1379
熏成	-11.1379
本源	-11.1379
遇佛	-11.1381
惑障	-11.1382
決擇分	-11.1384
上上	-11.1384
出息	-11.1386
業幻	-11.1387
作緣	-11.1389
有分	-11.139
王富	-11.1391
值佛	-11.1393
治斷	-11.1393
樂相	-11.1395
四眾	-11.1395
卷第十	-11.1395
賢善	-11.1397
愛念	-11.1402
堪受	-11.1404
科文	-11.1407
德所依故	-11.1421
義如前說	-11.1422
此諸	-11.1425
轉成能見	-11.1427
斷障	-11.1428
云何知	-11.143
名為大	-11.1432
能信	-11.1432
現色	-11.1432
故亦名	-11.1433
我不	-11.1434
▁初標	-11.144
以修	-11.1441
觀待	-11.1441
說念	-11.1442
諸有智	-11.1445
諸善法	-11.1446
是故不	-11.1451
非斷	-11.1451
證者	-11.1451
無相可得	-11.1453
答前	-11.1456
似比量	-11.1457
他心	-11.1458
非所	-11.146
是生滅	-11.1461
非智	-11.1462
勤苦	-11.1464
卷第一	-11.1469
若隨	-11.1473
電光	-11.1477
初解	-11.1479
德也	-11.1479
▁初問	-11.148
業故	-11.148
例知	-11.1482
云何隨順	-11.1482
諸境界	-11.1484
俱起	-11.1486
定有性	-11.1498
實故	-11.1499
可名	-11.15
作佛	-11.1505
▁三結	-11.1506
分之一	-11.1507
起後	-11.151
但欲	-11.151
空理	-11.1515
違自宗	-11.1516
即是一心	-11.1516
種生	-11.152
徵問	-11.1522
重說	-11.1524
可聞	-11.1525
當云何	-11.1537
分別六塵	-11.1539
一月	-11.1543
苦集	-11.1544
通緣	-11.1545
合集	-11.1546
淨行	-11.1547
論者言	-11.1547
牒上	-11.1548
眾人	-11.1549
開釋	-11.1553
娑婆	-11.1557
故下云	-11.1558
後後	-11.1559
與無明	-11.156
王子	-11.156
求之	-11.1562
猶是	-11.1563
智生	-11.1567
義亦	-11.1568
善知	-11.157
即始覺	-11.1573
二自此下	-11.1577
彼云	-11.158
一論	-11.1583
疑故	-11.1583
名真	-11.1585
徵列	-11.1585
攝彼	-11.1588
無有差別	-11.159
無別異故	-11.1591
如初	-11.1592
各各不同	-11.1596
離彼	-11.1604
我今當	-11.1606
令增長	-11.1606
此二義	-11.1607
為所依故	-11.161
名為覺	-11.161
心淨	-11.1611
愛語	-11.1612
大歡喜	-11.1612
如是行	-11.1612
智境	-11.1614
等苦	-11.1614
佛之	-11.1621
諸佛法	-11.1622
以一切	-11.1624
明論	-11.1629
二解	-11.1629
亦隨	-11.163
所信	-11.1632
風相	-11.1632
若論	-11.1633
觀音	-11.1634
令觀	-11.1638
法智	-11.1642
彼二	-11.1643
謂為	-11.1644
是故汝	-11.1645
為惡	-11.1645
所住依果	-11.1646
倒合	-11.1648
燃	-11.1648
我言	-11.1651
皆苦	-11.1652
寧有	-11.1652
言真如者	-11.1653
故圓覺云	-11.1655
不依氣息	-11.1655
具三	-11.1655
總指	-11.1656
金剛喻定	-11.1656
熏修	-11.1656
苗	-11.1656
位在	-11.1657
心王心所	-11.1657
困	-11.1658
阿蘭若	-11.1658
當何	-11.1658
修此	-11.1658
所以然者	-11.1659
無諸	-11.1659
力用	-11.1664
此文中	-11.1664
就初中有二	-11.1666
汝難	-11.1667
薩埵	-11.1667
本業經云	-11.1668
於後	-11.1668
分流	-11.1669
以為體故	-11.1671
裏	-11.1673
俱行俱轉	-11.1674
適悅	-11.1675
能壞	-11.1676
認	-11.1676
如是我聞	-11.1677
造惡	-11.1677
對顯	-11.1677
孝	-11.1677
墮二乘地	-11.1677
經意	-11.1679
有體無體	-11.168
虛誑	-11.168
醫	-11.168
領納	-11.168
善巧方便	-11.1681
利眾生	-11.1681
世出世間	-11.1681
卿	-11.1682
酬	-11.1682
綿	-11.1682
淨名	-11.1685
深固	-11.1686
峯	-11.1686
竹	-11.1686
書寫	-11.1686
麤相	-11.1686
我已	-11.1686
忿	-11.1688
雷	-11.1689
云何修	-11.1689
(←)	-11.1689
酪	-11.1689
疾病	-11.1691
長夜	-11.1693
吉	-11.1693
名滅	-11.1693
既其	-11.1696
蜂	-11.1696
所聞性	-11.1696
無有邊際	-11.1697
即斯義	-11.1698
亦有二種	-11.1698
四天下	-11.1699
得安隱	-11.17
五大	-11.1701
觀門	-11.1702
即不	-11.1702
聲為	-11.1704
翻為	-11.1706
不捨離	-11.1706
針	-11.1709
耆	-11.171
菩薩藏	-11.1711
塵勞	-11.1711
冬	-11.1711
正修	-11.1712
例此	-11.1712
名異品	-11.1715
心為	-11.1715
起心	-11.1715
毛孔	-11.1717
所化眾生	-11.1719
花鬘	-11.1719
似現	-11.1719
波羅	-11.172
遍照	-11.1726
八義	-11.1727
須彌山	-11.1728
自在無礙	-11.1729
十惡	-11.1731
生住	-11.1733
自無	-11.1733
靜處	-11.1735
有法者	-11.1736
有染	-11.1738
正因相應	-11.1738
不顛倒	-11.1738
麤顯	-11.1739
中央	-11.1742
名似比量	-11.1743
說我	-11.1743
親愛	-11.1743
當修	-11.1744
見也	-11.1747
如是乃至	-11.1747
疏記	-11.1747
應機	-11.1748
法輪	-11.175
餘物	-11.175
四聖諦	-11.1755
佛法中	-11.1756
反此	-11.1756
此下第二	-11.1757
始覺般若	-11.1758
熏者	-11.176
即無明	-11.176
之海	-11.176
聲上有	-11.1763
不分別	-11.1767
起念相續	-11.1767
理法	-11.1767
潤生	-11.1767
外塵	-11.1773
為所立	-11.1773
中論	-11.1774
合上	-11.1774
故不得	-11.1774
道路中	-11.1775
能度	-11.1778
不俱	-11.1781
以立	-11.1782
獨覺	-11.1783
齊等	-11.1784
四住	-11.1785
法差別	-11.1786
移轉	-11.1788
巳來	-11.1791
別處	-11.1792
資具	-11.1793
無常者	-11.1794
求法	-11.1796
本始	-11.1797
最多	-11.1801
頌文	-11.1803
非勤發	-11.1803
於苦	-11.1807
已斷	-11.1807
不能成	-11.1808
言辭	-11.1809
亦具	-11.1814
結歸	-11.1816
據實	-11.1816
有八種	-11.1817
且依	-11.1818
上首	-11.1819
不覺者	-11.1819
於真	-11.182
問中	-11.1823
瓶體	-11.1826
成因	-11.1827
豈無	-11.183
香等	-11.183
是名為五	-11.183
唯明	-11.1835
異前	-11.1837
業識心	-11.1839
知法	-11.1841
無有異	-11.1845
變現	-11.1845
之曰	-11.1852
方盡	-11.1854
盡智	-11.1855
緣慮	-11.1856
五門	-11.1857
亦得名	-11.1859
前門	-11.186
名藏	-11.1862
眼色	-11.1863
相順	-11.1863
別離	-11.1863
熏動	-11.1867
異心	-11.1871
立喻	-11.1872
所因	-11.1874
苦苦	-11.1875
熏習力故	-11.1875
無根	-11.188
先世	-11.1881
同品異品	-11.1883
淨業	-11.1887
二云何下	-11.1887
是體	-11.1889
違逆	-11.189
思議	-11.1895
無減	-11.1897
所住處	-11.1902
依不覺故	-11.1904
差別義	-11.1905
於色等	-11.1906
人等	-11.1908
何故不說	-11.1909
應當知	-11.1911
能乘	-11.1912
成相違	-11.1912
取之	-11.1916
有多種	-11.1917
一切苦	-11.1918
故楞伽云	-11.1918
俱分	-11.1919
諸漏	-11.1919
真如者	-11.1921
出所以	-11.1925
初中亦	-11.1927
更復	-11.1928
并及	-11.1929
真如無相	-11.1931
不具足	-11.1932
真故極成色	-11.1934
離色	-11.1934
問意云	-11.1935
器世間	-11.194
無明下	-11.194
等者謂	-11.1942
更無別	-11.1944
自性空	-11.1945
三心	-11.1945
非時	-11.1946
等言	-11.1948
有前後	-11.1952
所謂顯示	-11.1953
一一門	-11.1958
證菩提	-11.196
雖無量	-11.1966
合離	-11.1972
漸增	-11.1972
先所	-11.1972
▁初結指	-11.1972
亦皆	-11.1975
不動地	-11.1976
生滅也	-11.1976
皆在	-11.1981
無其	-11.1984
終至	-11.1985
歸本	-11.1987
而後	-11.1989
質礙	-11.1992
前六	-11.1994
鄣	-11.1995
諸事	-11.1996
是別	-11.1996
遠行	-11.1997
境界也	-11.1998
發趣道相	-11.2002
以為宗	-11.2003
虛空界	-11.2007
阿黎耶識	-11.2008
無生無滅	-11.2009
復次真如自體相者	-11.201
蓮	-11.2013
諸男女天	-11.2013
結屬	-11.2014
能別不極成	-11.2015
恣	-11.2015
又因	-11.2016
如勝論	-11.2016
麤分	-11.2019
岐	-11.202
無益	-11.2021
受道緣	-11.2023
對佛弟子	-11.2023
如佛說	-11.2024
同異二品	-11.2024
死者	-11.2024
鈴	-11.2024
不失不壞	-11.2024
調柔	-11.2026
補特伽羅	-11.2026
堂殿	-11.2027
伺	-11.2028
以說	-11.2029
洞	-11.203
叵	-11.2031
佗	-11.2032
忻	-11.2032
猴	-11.2033
云何為八	-11.2034
柔和	-11.2035
炬	-11.2036
高一由旬	-11.2036
穴	-11.2036
初喻	-11.2037
墨	-11.2037
舍宅	-11.2038
八萬	-11.2038
道故	-11.2038
勇猛精進	-11.204
無貪	-11.204
示其	-11.2042
欺	-11.2042
君	-11.2042
提婆達多	-11.2043
瑩	-11.2044
獨存	-11.2044
意欲	-11.2044
羸	-11.2045
前重	-11.2045
卑	-11.2046
四正勤	-11.2048
伴侶	-11.2048
偈頌	-11.2049
圍	-11.2049
祠	-11.2049
莖	-11.2049
陀羅驃	-11.205
忠	-11.205
為生	-11.2051
遍轉	-11.2052
供給	-11.2053
漫	-11.2054
淡	-11.2054
能別所別	-11.2055
皇	-11.2056
中受生	-11.2057
比度	-11.2057
為菩提	-11.2058
一者體大	-11.2058
虎	-11.2059
宿世	-11.206
卷第二	-11.206
一由旬	-11.206
長老	-11.2061
因熏	-11.2061
扇	-11.2061
契真	-11.2063
兩輪	-11.2064
為當	-11.2065
徧滿	-11.2066
畢竟無念	-11.2066
幹	-11.2066
黃金	-11.2066
於世	-11.207
是釋	-11.207
棃耶識	-11.207
▁二引經	-11.2071
一塵	-11.2074
今之	-11.2075
苦報	-11.2075
身根	-11.2077
一切相	-11.2077
滅盡定	-11.2078
入解	-11.208
樂故	-11.2083
諸惑	-11.2084
不得自在	-11.2086
無去來	-11.2086
悟解	-11.2089
盡滅	-11.2089
垢染	-11.2089
樂等	-11.209
不隨	-11.2092
決疑門	-11.2099
合二	-11.21
意熏習	-11.2101
暫時	-11.2101
初總明	-11.2102
凡有	-11.2103
此據	-11.2105
真實性	-11.2107
如同異性	-11.2107
故不可	-11.2108
如來藏心	-11.2109
是果	-11.211
上二句	-11.2112
比丘尼	-11.2117
文中有二	-11.2119
不肯	-11.212
非生滅	-11.2125
大乘不許	-11.2126
自在天	-11.2127
經中佛說	-11.2128
得知	-11.2129
所敬	-11.2129
先總	-11.2129
所謂真如	-11.2131
壞時	-11.2135
但應	-11.2136
然亦	-11.2138
而見	-11.214
十卷	-11.214
禪者	-11.214
易解	-11.2142
有說言	-11.2142
此緣	-11.2143
墮惡趣	-11.2143
照明	-11.2143
相貌	-11.2144
愛見	-11.2144
住位	-11.2146
起妄	-11.2147
從他	-11.2149
文可知	-11.2152
王復問那先言	-11.2155
勝能	-11.2156
無同喻	-11.2158
故淨名云	-11.2159
覺相	-11.2159
七句	-11.2162
微少	-11.2166
無明起	-11.2167
集成	-11.2167
善事	-11.2167
退分	-11.2169
名現量	-11.2174
業道	-11.2175
眼耳	-11.2176
無處	-11.2176
不和合	-11.2179
見邊	-11.218
契合	-11.2184
以本覺	-11.2185
此四種	-11.2187
相宗	-11.2192
依位	-11.2192
前世	-11.2192
他心智	-11.2197
立宗言	-11.2204
二由旬	-11.2205
本因	-11.2206
可謂	-11.2207
神變	-11.2207
破云	-11.2208
信根本	-11.2208
瓶所作	-11.2209
見彼無常	-11.2211
隨根	-11.2211
正知	-11.2211
謂如來	-11.2211
隨所應	-11.2212
在心	-11.2215
影現	-11.2215
別門	-11.2217
數論師	-11.2218
無形相	-11.2218
自成	-11.2219
有信	-11.2219
言總	-11.222
法上	-11.2222
失也	-11.2223
是能立	-11.2225
如所說	-11.2228
故不名	-11.2228
而觀	-11.223
身識	-11.2232
又能	-11.2233
之異名	-11.2234
無常法	-11.2234
以觀	-11.2235
違世間	-11.2237
自得	-11.2238
一一心	-11.224
會釋	-11.2243
不覺故	-11.2247
間斷	-11.2248
皆成	-11.2249
名數	-11.2253
信故	-11.2253
戒定	-11.2257
長大	-11.2259
見法	-11.2265
自體相熏習	-11.2268
成得	-11.2269
而未	-11.2269
此有二義	-11.227
為處	-11.227
心相應	-11.2272
可爾	-11.2272
業識等	-11.2273
所疑	-11.2273
中開	-11.2276
如文	-11.2277
照達	-11.2278
二答	-11.2283
亦在	-11.2286
不可壞	-11.2287
略無	-11.2292
所獲	-11.2294
▁初明	-11.2294
老病死	-11.2295
若住	-11.2296
作是言	-11.2301
忍受	-11.2301
愚迷	-11.2303
入真如	-11.2304
隨事	-11.2305
千由旬	-11.2308
同許	-11.2309
合釋	-11.2311
以真	-11.2312
次云	-11.2313
一切智智	-11.2314
非不	-11.2317
第二解	-11.2317
而出	-11.2321
為所成立	-11.2322
一切善法	-11.2324
善能	-11.2327
純淨	-11.2328
生厭離	-11.233
是常住	-11.2333
差別性故	-11.2333
定者	-11.2334
則離	-11.2338
三受	-11.2339
何義謂	-11.234
是難	-11.2341
上無	-11.2342
不常	-11.2343
豫	-11.2344
相續心	-11.2345
作因	-11.2346
隨妄	-11.2347
深法	-11.2348
真中	-11.2351
能令眾生	-11.2353
除障	-11.2354
佛塔	-11.2358
他世	-11.2359
今顯	-11.2359
諸界	-11.2359
慧眼	-11.2362
非真實	-11.2362
未了	-11.2362
俱品一分轉	-11.2365
得解	-11.2366
調心	-11.2366
秖	-11.2367
非取	-11.2367
動則有苦	-11.237
覺於念住	-11.2372
分別智相應染	-11.2373
被燒	-11.2374
念住	-11.2376
又心起者	-11.2377
勝用	-11.2378
筋	-11.2378
三量	-11.2379
所現之色	-11.2379
說云	-11.2379
克	-11.2379
念相	-11.2381
依如來藏有生滅心	-11.2381
福慧	-11.2382
從初正信	-11.2382
前約	-11.2382
筌	-11.2384
亦遣除想	-11.2385
五種寶樹	-11.2385
派	-11.2385
文略	-11.2386
轉成	-11.2386
成等正覺	-11.2388
擾	-11.2388
渾	-11.2388
以不知為破著故	-11.2389
他方	-11.2389
大智慧光明義	-11.2389
戲樂	-11.2389
平等性智	-11.2389
出觀	-11.239
自不成	-11.2392
發起問答決疑門	-11.2392
氣息	-11.2392
練	-11.2393
不斷絕故	-11.2393
應說此論	-11.2394
畢竟不退	-11.2394
心體不滅	-11.2394
軸	-11.2395
嘗	-11.2395
觀身	-11.2395
以妄	-11.2395
始覺智	-11.2395
撿	-11.2395
坑	-11.2397
深生	-11.2399
等四	-11.24
豐	-11.2401
有論師言	-11.2401
谷	-11.2401
信相應地	-11.2402
舟	-11.2402
深厚	-11.2403
離一切	-11.2403
若干	-11.2404
若實	-11.2404
倚	-11.2405
是過	-11.2406
可遣	-11.2407
托	-11.2407
世間出世間	-11.2407
聽聞	-11.2407
吼	-11.2409
用心	-11.2411
錢	-11.2411
惱害	-11.2411
現像	-11.2412
滴	-11.2412
宛然	-11.2412
七法	-11.2413
此翻	-11.2415
銅	-11.2415
室中	-11.2415
以身	-11.2415
隱沒	-11.2416
述曰此	-11.2416
銀	-11.2417
能取境界	-11.2417
境起	-11.2418
活命	-11.2418
剃	-11.2418
羊	-11.2419
天竺	-11.2419
闕初相	-11.2421
封	-11.2422
菩提資糧	-11.2423
不作意	-11.2424
了故	-11.2425
正為	-11.2425
盈	-11.2425
暴	-11.2427
隷	-11.2427
亦不可	-11.2427
罪惡	-11.2428
縣	-11.2428
卷第三	-11.2429
滅相續心相	-11.2429
踐	-11.2432
澁	-11.2432
迷亂	-11.2432
有幾數	-11.2433
他化自在天	-11.2433
寒熱	-11.2434
諸餘	-11.2434
不散	-11.2434
二十一	-11.2435
合是	-11.2435
四無為	-11.2436
灌	-11.2436
憂喜	-11.2437
塔廟	-11.2438
現比量	-11.2438
復更	-11.2438
謨	-11.2443
正勤	-11.2443
以熏習故	-11.2444
遍於	-11.2445
違於	-11.2446
令修	-11.2446
形像	-11.2447
若謂	-11.2448
依真如門	-11.2448
如是次第	-11.2448
所計	-11.245
名句文	-11.245
分別智	-11.2451
聞聲	-11.2452
業繫	-11.2454
同有	-11.2455
四種住相	-11.2458
所染	-11.246
異品有	-11.2461
二釋疑	-11.2463
教化眾生	-11.2463
此中下	-11.2464
無滅	-11.2466
諸妙	-11.2467
故前文云	-11.2472
小乘不許	-11.2472
遠離一切	-11.2475
輔相	-11.2475
亦復然	-11.2476
無明動	-11.248
後答	-11.2485
所不能	-11.2486
我及	-11.2487
顯了分	-11.2488
之水	-11.2489
為第一	-11.2489
答彼	-11.249
不自在故	-11.2493
名隨分覺	-11.2493
有識	-11.2496
諸法皆	-11.2497
舉此	-11.2497
槃	-11.2499
違害	-11.25
俱舍	-11.2501
常在前	-11.2502
住正定	-11.2503
伏難	-11.2503
一解	-11.2506
t	-11.2506
有三一	-11.2509
似彼	-11.2509
故說無	-11.2509
天親	-11.251
無與等	-11.2514
是實有	-11.2518
無窮盡	-11.2519
應化身	-11.2524
無念故	-11.2525
天地	-11.2528
餘七	-11.2528
明鏡	-11.2532
標舉	-11.2532
為果	-11.2532
或從	-11.2534
若但	-11.2535
一切法空	-11.2538
不離本覺	-11.2538
施戒	-11.2542
不如實知	-11.2543
千世界	-11.2544
或非	-11.2544
或立	-11.2547
諸世間	-11.2548
此辨	-11.2548
問既	-11.255
離實有	-11.255
名為能立	-11.255
所立不成	-11.2551
然非	-11.2556
同喻如	-11.256
知其	-11.2563
如是功德	-11.2563
已起	-11.2563
謂一切法	-11.2564
後當	-11.2566
頓斷	-11.2567
不約	-11.2568
一問	-11.2568
類也	-11.257
分析	-11.2571
破之	-11.2574
四生	-11.2574
迴心	-11.2576
無明染法	-11.2584
不淨想	-11.2585
極樂	-11.2587
法相宗	-11.2589
善現	-11.2589
佛在	-11.2593
一切智心	-11.2594
既說	-11.2598
無礙智	-11.26
必不	-11.2602
滅無餘	-11.2607
是不善	-11.2607
生愛	-11.2611
不可分	-11.2612
異說	-11.2612
言論	-11.2617
無所著	-11.2618
所施	-11.2619
生大	-11.2622
因何	-11.2626
功德品	-11.2626
顯法身	-11.2627
萬劫	-11.2627
諸凡夫	-11.2636
不當	-11.2638
散說	-11.2639
差別者	-11.264
能自	-11.2642
歸真	-11.2643
無所住	-11.2643
三十三	-11.2644
敵論者	-11.2646
緣熏	-11.2648
通釋	-11.2652
不能入	-11.2652
妙行	-11.2653
受用身	-11.2654
第四分	-11.2654
等物	-11.2657
一心之	-11.2658
語業	-11.266
色無色	-11.2664
有三義	-11.2669
四十二	-11.2669
捨心	-11.267
能止	-11.2671
謂諸菩薩	-11.2673
熏變	-11.2674
自餘	-11.2678
開門	-11.2679
如前云	-11.268
苦海	-11.2681
標也	-11.2681
若從	-11.2682
是樂	-11.2683
或施	-11.2683
染欲	-11.2684
是思	-11.2685
何妨	-11.2686
自害	-11.2686
二轉	-11.2689
者是心	-11.2691
何非	-11.2693
二種門	-11.2695
為空	-11.2696
正業	-11.2699
苦等	-11.27
離言說	-11.2701
一切障	-11.2705
高舉	-11.2706
等分	-11.2706
極成色	-11.2707
前境	-11.2707
大劫	-11.2707
故不相違	-11.2709
尚未	-11.2711
別無	-11.2712
理門云	-11.2712
是第三	-11.2713
顯示正義者	-11.2717
名不相應	-11.2717
諸罪	-11.2719
水性	-11.2726
時方	-11.2726
下引證	-11.2735
知相緣相	-11.2735
無明滅	-11.2736
獨一	-11.2737
八因	-11.2737
無自相	-11.2738
十方三世一切	-11.2738
耐	-11.2743
則墮	-11.2743
違平等性	-11.2745
若諸眾生	-11.2749
我應	-11.275
現色不相應染	-11.2751
依本	-11.2753
無諍	-11.2754
常所	-11.2754
念無異相	-11.2755
從本以來	-11.2757
不無之有	-11.2761
取著轉深	-11.2761
諸分	-11.2762
懈慢	-11.2762
盡未來際	-11.2762
行因	-11.2763
心隨	-11.2763
以之故言	-11.2763
種現	-11.2764
生滅法	-11.2765
作正因緣	-11.2767
故舉	-11.2768
運載	-11.2768
積聚性因	-11.2769
更說	-11.277
唯佛能知	-11.2772
以宗	-11.2773
非想非非想處	-11.2773
涅槃經	-11.2774
欣厭	-11.2774
同有異無	-11.2774
此世	-11.2774
一則	-11.2774
無有休息	-11.2775
相可得	-11.2775
現現別轉	-11.2776
細故	-11.2776
為求	-11.2776
度生	-11.2777
刀杖	-11.2777
軌法師	-11.2778
負債	-11.2779
入於涅槃	-11.2779
障難	-11.278
紙	-11.278
勤精進	-11.278
亦異	-11.2781
流轉生死	-11.2781
各差別故	-11.2781
多劫	-11.2782
何修何相何味何處何	-11.2783
格	-11.2783
欲界繫	-11.2784
發大心	-11.2785
後智	-11.2786
無外境界	-11.2786
經無量劫	-11.2787
踊躍	-11.2789
鎧	-11.2789
席	-11.279
下正釋	-11.279
無所遺	-11.279
迭	-11.2791
本來涅槃	-11.2791
無量差別	-11.2792
價	-11.2792
振	-11.2793
𡄣	-11.2794
不覺知	-11.2794
五受陰	-11.2795
腰	-11.2795
若言有	-11.2795
袈裟	-11.2795
三年	-11.2796
從真起	-11.2796
匪	-11.2796
想念	-11.2797
此第三	-11.2797
朋友	-11.2797
苟能	-11.2797
細滑	-11.2797
脹	-11.2797
交徹	-11.2797
樓閣	-11.2798
和會	-11.2798
刃	-11.2798
涌	-11.2798
虗空等	-11.28
等至	-11.2802
上生	-11.2802
貝	-11.2802
周匝	-11.2803
秋	-11.2804
死屍	-11.2804
受陰	-11.2805
上上品苦	-11.2805
聖者	-11.2805
▁初釋義	-11.2806
世間人	-11.2807
噉	-11.2809
猶如虗空	-11.2809
卷第四	-11.2811
決定有性	-11.2812
應受	-11.2813
影略	-11.2814
三解脫門	-11.2814
楞伽經云	-11.2816
地種	-11.2817
起惑	-11.2818
衰惱	-11.282
善根力	-11.282
塚間	-11.282
名為報身	-11.2822
似異	-11.2822
呬	-11.2822
煮	-11.2823
俱決定故	-11.2826
現染	-11.2826
觀義	-11.2827
尋求	-11.2828
無所不至	-11.2829
焚燒	-11.2831
賜	-11.2832
一切無量	-11.2832
敬禮	-11.2833
京	-11.2833
制伏	-11.2834
離無明	-11.2834
前陳有法	-11.2834
能攝一切法	-11.2839
智淨相者	-11.284
經營	-11.2844
究竟地	-11.2845
行者見	-11.2845
受化	-11.2845
之念	-11.2847
因無	-11.2847
三處	-11.2851
無法可	-11.2852
觀聽	-11.2855
怨親	-11.2855
佛種不斷故	-11.2856
受染熏	-11.2857
中疏	-11.2858
光照	-11.2861
我空	-11.2862
淨覺	-11.2862
次句	-11.2865
二復次下	-11.2866
無有能	-11.2868
陳那菩薩	-11.2869
甚多	-11.287
何故但說	-11.287
準前	-11.2873
斯乃	-11.2873
攝護	-11.2874
此中所說	-11.2875
總聚	-11.2877
始得	-11.2877
四大種	-11.2877
麁顯	-11.2879
五逆	-11.2879
有人云	-11.2882
諸外道等	-11.2885
喻於	-11.2885
入證	-11.289
義當	-11.289
初中後	-11.2892
正報	-11.2898
與真	-11.2898
供養諸佛	-11.29
譬如虛空	-11.29
如理智	-11.2902
但就	-11.2905
名曰馬鳴	-11.2905
共住	-11.2907
如是名為	-11.2907
所逼	-11.2908
得名為	-11.2908
內身	-11.2909
我從	-11.2911
滿覺	-11.2911
過中	-11.2915
題名	-11.2917
問前	-11.292
麤重	-11.2921
本覺性	-11.2923
作釋	-11.2923
定力	-11.2923
非究竟覺	-11.2928
汝若	-11.2931
有終	-11.2933
次第生	-11.2933
一實	-11.2934
常生	-11.2936
為利	-11.2936
之所以	-11.2938
還滅	-11.2938
八分	-11.2944
之要	-11.2945
非無相	-11.2945
十六種	-11.2948
梵音	-11.295
生喜樂	-11.2952
幾種	-11.2952
生識	-11.2956
當有	-11.2958
又前	-11.296
以此下	-11.2962
西天譯經三藏朝散大夫試鴻臚少卿	-11.2964
有業	-11.2964
且說	-11.2966
列釋	-11.2967
不能成宗	-11.2974
諸緣	-11.2977
無漏智	-11.2982
彼智	-11.2985
大乘經	-11.2985
此十	-11.2986
十八界	-11.2988
人眾	-11.2991
中現	-11.2995
染者	-11.2998
先立	-11.2998
當知下	-11.3
一覺	-11.3
現法	-11.3001
初之	-11.3001
總成	-11.3007
始覺者	-11.3007
安慧	-11.3007
則不應	-11.3008
在生滅門	-11.301
有垢	-11.3011
對治故	-11.3013
共比量	-11.3013
常寂	-11.3015
可了	-11.3015
求出離	-11.3016
不相應染	-11.3016
觀一切法	-11.3017
摩尼寶	-11.3021
一喻	-11.3022
容有	-11.3023
病人	-11.3023
実	-11.3024
若准	-11.3028
當起	-11.303
實行	-11.3031
為增上緣	-11.3031
初中二	-11.3032
亦許	-11.3035
不斷故	-11.3035
前難	-11.3036
我自	-11.3038
唯為	-11.3041
能正	-11.3041
持淨戒	-11.3042
之間	-11.3047
菩薩乘	-11.3049
名為同品	-11.3049
三智	-11.3052
三賢菩薩	-11.3056
攝也	-11.3057
所攝故	-11.3059
覺道	-11.3063
喻言	-11.3066
菩提道	-11.3066
真常	-11.307
顯實	-11.307
聞此	-11.3071
太虗	-11.3076
佛像	-11.3078
入初禪	-11.3078
圓通	-11.3079
餘教	-11.3086
其水	-11.3087
是定	-11.309
妄取	-11.3093
共起	-11.3095
第二明	-11.3095
名為眾生	-11.3102
元無	-11.3102
即同本覺	-11.3102
報佛	-11.3105
因緣起	-11.3108
地藏	-11.3109
佛剎	-11.3111
無邊功德	-11.3114
若諸	-11.3115
對勝論	-11.3115
一切諸法皆	-11.3116
不觀	-11.3116
妙智	-11.3118
述曰此下	-11.3118
業繫苦	-11.3119
無明熏習	-11.3119
未曾離念	-11.3119
本數	-11.3121
佛出世	-11.3121
何得言	-11.3122
是所立	-11.3124
樂說	-11.3127
巳後	-11.3128
無他	-11.3129
觀彼	-11.313
帶過	-11.3131
合故	-11.3134
有疑	-11.3135
為那先耶	-11.3136
敵智	-11.3139
謂心	-11.3141
報化二身	-11.3143
捨此	-11.3143
能伏	-11.3147
覺則不動	-11.3147
不為那先	-11.3149
若生若滅	-11.3151
中有四	-11.3153
能顯示	-11.3153
非前際生	-11.3154
下至	-11.3155
所觀境	-11.3156
還源	-11.3159
能知名義	-11.3161
如地	-11.3162
或有說者	-11.3162
四種無為	-11.3162
依他性	-11.3163
細中之細	-11.3163
而實無有始覺之異	-11.3164
身有無量色	-11.3165
迷理	-11.3165
上煩惱	-11.3166
令無	-11.3166
隨生	-11.3166
十迴向	-11.3167
釋曰後辨	-11.3167
諸所作者皆是無常	-11.3167
有正智生	-11.3167
無所闕失	-11.3168
妙觀察智	-11.3169
說因宗所隨	-11.317
無始無終	-11.3172
信得增長	-11.3172
則不須論	-11.3173
之前	-11.3173
猒求	-11.3174
脩多羅中	-11.3174
心實不動	-11.3175
教令	-11.3175
獨力業相	-11.3175
立其名故	-11.3176
有二初問	-11.3176
升	-11.3177
旬	-11.3177
三十七	-11.3179
捐	-11.318
緒	-11.3181
天水盈滿	-11.3181
謂心體離念	-11.3181
勝遍光天	-11.3181
名異	-11.3182
梵志	-11.3183
具無漏法	-11.3183
男子	-11.3183
亦乃	-11.3183
以有妄心	-11.3183
猛利	-11.3183
往詣	-11.3184
因有三相	-11.3184
譬如北地妙好	-11.3185
納	-11.3187
芥子	-11.3187
周遍法界	-11.3187
恐繁	-11.3187
形相如何	-11.3188
聲論師	-11.3188
不應有	-11.3189
他功力	-11.3189
亦無所	-11.319
前量	-11.319
則無是處	-11.319
鹽	-11.3191
見眾生	-11.3191
修福	-11.3191
通指	-11.3192
嘉	-11.3194
否	-11.3194
c	-11.3194
勵	-11.3194
端坐	-11.3195
是故菩薩	-11.3196
苑	-11.3196
柔	-11.3196
閱	-11.3196
夜叉	-11.3198
勳	-11.3198
佛事	-11.3199
本覺內熏	-11.32
不退故	-11.3201
両	-11.3203
庫藏	-11.3204
▁初總標	-11.3204
不樂世間	-11.3204
事法	-11.3205
拔除	-11.3205
同事	-11.3205
引導	-11.3206
窺	-11.3206
正遍知	-11.3207
智斷	-11.3209
有一比丘	-11.3209
二次說下	-11.3211
險難	-11.3212
少壯	-11.3212
惡友	-11.3213
有何咎	-11.3213
▁二答釋	-11.3213
龍樹云	-11.3214
叫	-11.3214
周圍	-11.3215
是名菩薩	-11.3216
知者	-11.3216
裸形	-11.3217
名為應身	-11.3217
𧹞	-11.3218
毒藥	-11.322
必應	-11.322
臭穢	-11.3221
出胎	-11.3222
緣彼	-11.3223
相異	-11.3223
大丈夫	-11.3223
須陀洹果	-11.3223
燥	-11.3224
以下明其	-11.3224
六麁中	-11.3225
無行	-11.3225
依此義	-11.3226
為所依	-11.3226
熱鐵	-11.3227
不耐	-11.3227
終不可得	-11.3227
等是也	-11.3231
身口意業	-11.3231
因即	-11.3232
身土	-11.3234
示此	-11.3235
色究竟	-11.3236
酤	-11.3241
謂我	-11.3242
次答	-11.3242
心作	-11.3243
墮落	-11.3244
助成	-11.3245
為車	-11.3246
亦如前說	-11.3246
可壞	-11.3246
維摩	-11.3249
之地	-11.325
解脫者	-11.3252
是故應說	-11.3253
佛無	-11.3258
名因明	-11.3261
燒炙	-11.3262
。」【△	-11.3264
且止	-11.3264
轉識現	-11.3269
何故下	-11.3269
執取計名	-11.3273
苦相	-11.3275
離礙	-11.3275
通前	-11.3277
有三門	-11.3283
不可取	-11.3284
古今	-11.3285
亦言	-11.3285
非一相	-11.3286
佛不說	-11.329
制止	-11.3291
有苦	-11.3292
如華嚴	-11.3294
大龍王	-11.3296
何時	-11.3301
自生	-11.3301
不謬	-11.3302
無明為因	-11.3302
四百	-11.3303
不消	-11.3305
我無	-11.3306
復為	-11.3306
通二	-11.3307
第三總結	-11.3308
應是常	-11.3309
現形	-11.3312
於地	-11.3312
畢竟無	-11.3313
生滅之法	-11.3313
畢竟空	-11.3315
入心	-11.3316
有流	-11.3318
初三句	-11.3318
歸於	-11.3319
隨眾生	-11.332
不生滅心	-11.3321
一一皆	-11.3322
成住	-11.3322
身形	-11.3326
聲亦	-11.3328
金色	-11.3328
故上文云	-11.3329
經部	-11.333
根緣	-11.3331
各取	-11.3335
離名	-11.334
種種事	-11.3343
皆當	-11.3343
非心	-11.3343
不離於	-11.3348
有種種	-11.3349
等量	-11.3353
何等眾生	-11.3353
不舉	-11.3354
三識	-11.3355
善惡業	-11.3356
無有二	-11.3357
城中	-11.3358
滅除	-11.3358
外物	-11.3364
得利	-11.3367
謂此菩薩	-11.3368
名得涅槃	-11.3368
發心住	-11.3368
現故	-11.337
不能分別	-11.3371
魔境	-11.3374
虛空處	-11.3375
阿賴耶	-11.3377
滅已	-11.338
魔王	-11.3382
能盡	-11.3382
十億	-11.3383
即自	-11.3384
明顯	-11.3384
眾生真心	-11.3385
一切無常	-11.3386
善趣	-11.3389
無邊故	-11.339
是信	-11.339
月輪	-11.3391
不燒	-11.3392
而來	-11.3393
得成佛	-11.3393
准理	-11.3396
四邊	-11.3399
於中二	-11.34
下別	-11.3402
如虛空等	-11.3403
不越	-11.3405
何人	-11.3406
通則	-11.3411
諸善根	-11.3413
幻有	-11.3414
正語	-11.3416
尚無	-11.3418
染淨熏習	-11.3419
變為	-11.3423
清淨持戒	-11.3423
比量中	-11.3426
聖種	-11.3426
有二種義	-11.3427
今我	-11.3428
彼因	-11.3429
若諸菩薩	-11.3429
隨緣義	-11.3431
汝執	-11.3432
有非	-11.3432
妙理	-11.3433
佛滅後	-11.3435
初略明	-11.3435
究竟離故	-11.3436
神解	-11.3436
堅相	-11.3438
如是二種	-11.344
所趣	-11.3442
必為	-11.3442
一佛	-11.3443
所有一切	-11.3445
二空	-11.3447
五字	-11.3447
於瓶等	-11.345
隨業	-11.345
自違	-11.3451
乃有	-11.3451
應用	-11.3451
開解	-11.3452
方便心	-11.3453
如經說	-11.3454
不異真如	-11.3455
一切法無	-11.3457
今更	-11.346
得失	-11.3466
則不生	-11.3468
釋有二初	-11.3469
今釋	-11.3472
性海	-11.3474
滅義	-11.3476
惑者	-11.3478
彼識	-11.348
不得成	-11.3481
但見	-11.3483
攝末	-11.3484
以取	-11.3484
不除	-11.3486
二頌	-11.3489
七轉識	-11.3489
復次下	-11.3491
淨妙	-11.3491
及於	-11.3491
諸經論	-11.3492
上義	-11.3493
應生	-11.3493
所分別	-11.3494
經本	-11.3495
有五百	-11.3497
盡無餘	-11.3498
▁三釋	-11.35
則名為	-11.3501
見思	-11.3507
見報身	-11.3508
發時	-11.3513
此二法	-11.3515
行勝	-11.3515
位也	-11.3516
性即	-11.3517
然前	-11.3518
乘義	-11.3519
名大	-11.3519
就初	-11.3519
隨何	-11.352
中三句	-11.3523
即般若	-11.3525
十萬	-11.3528
益也	-11.353
意識轉	-11.353
同緣	-11.3531
自巳	-11.3532
本也	-11.3532
非見	-11.3532
知諸法	-11.3533
因上	-11.3533
福聚	-11.3535
既滅	-11.3541
曜	-11.3543
種種法	-11.3546
之稱	-11.3549
有慧	-11.355
墮於	-11.3551
得阿耨多羅三藐三菩提	-11.3551
下引經	-11.3554
燒然	-11.3554
不虛	-11.3554
心得	-11.3558
異體	-11.3563
念之	-11.3563
令成	-11.3564
法我	-11.3567
於中有	-11.3567
無不盡	-11.3568
誰言	-11.3569
未滿	-11.3573
宛	-11.3575
無障無礙	-11.3575
即觀之止	-11.3576
覺於念異	-11.3576
十信心	-11.3576
摂	-11.3577
大神通	-11.3578
真實識知義故	-11.3578
使其	-11.3582
是心則攝一切世間出世間法	-11.3583
異品徧無性	-11.3583
二文	-11.3585
不相應故	-11.3585
依如來藏故	-11.3586
非色非心	-11.3587
一切菩薩皆乘此法到如來地故	-11.3587
聞修多羅說	-11.3587
知心妄動	-11.3588
三賢十聖	-11.3588
如化	-11.3588
純熟	-11.3589
十方世界之塵量	-11.359
此第四	-11.3591
若離神通及	-11.3592
名為宗	-11.3593
三善根	-11.3593
無所畏	-11.3594
瓶上無常	-11.3594
成所作智	-11.3594
真淨	-11.3596
頃	-11.3596
止濫	-11.3597
真俗二諦	-11.3597
後以心除心	-11.3597
𣰽毺	-11.3598
皆悉各各	-11.3598
逾	-11.3599
紹	-11.3599
膝	-11.3599
方可	-11.3599
秦	-11.3599
不覺心動	-11.3599
外別有	-11.3599
生怖畏	-11.3599
十種信心	-11.3599
不取不著	-11.36
炭	-11.36
心若馳散	-11.3601
徐	-11.3601
心住不亂	-11.3601
心得解脫	-11.3602
境界為緣	-11.3602
即是一法界大總相法門體	-11.3602
喧	-11.3603
炷	-11.3604
寶性論云	-11.3604
總為一	-11.3605
假令	-11.3605
無始已來	-11.3607
甘蔗	-11.3607
猶如虛空	-11.3608
宋	-11.3609
利益安樂	-11.3609
有及非有	-11.3609
飛鳥	-11.361
漠	-11.3612
七變	-11.3612
賣	-11.3613
偽妄	-11.3614
性本無	-11.3614
探	-11.3614
本論云	-11.3614
虗假	-11.3615
稱揚	-11.3616
支提	-11.3616
了不可得	-11.3617
纂	-11.3617
黨	-11.3618
出生增長	-11.3618
真偽	-11.3618
鳴	-11.3618
相應心滅	-11.3618
定性	-11.3619
怒	-11.3619
軀	-11.3619
右手	-11.3621
成實論	-11.3622
未熟	-11.3623
胸	-11.3624
已來	-11.3624
上文云	-11.3624
王舍城	-11.3624
二隨釋	-11.3626
若多若少	-11.3627
二者相大	-11.3629
剎利	-11.363
楚	-11.363
見愛煩惱	-11.363
慕	-11.3632
在此	-11.3633
相分色	-11.3633
有定	-11.3634
佛也	-11.3634
誕	-11.3635
不疑	-11.3635
不共許	-11.3636
結頌	-11.3636
眾生心者	-11.3636
本來清淨	-11.3639
是覺	-11.3639
六七識	-11.364
勝前	-11.3641
合前	-11.3643
足目	-11.3644
釋意	-11.3645
因緣總相	-11.3645
對後	-11.3646
諸地	-11.3647
見五陰	-11.3647
憂悲	-11.3647
以是故	-11.3648
其數無量	-11.3649
如次配	-11.3649
後別釋	-11.3651
那先言譬如	-11.3653
如山	-11.3654
薩哩	-11.3655
當時	-11.3657
念者	-11.3657
如波	-11.3657
地前菩薩	-11.3658
作事	-11.3666
或名	-11.3667
見如來	-11.3667
異耳	-11.3669
攝大乘	-11.3669
勑	-11.3669
法有法	-11.367
不可念	-11.3672
乃至云	-11.3673
教義	-11.3673
若使	-11.3675
不怯	-11.3677
等無差別	-11.3678
亦應有	-11.3679
說其	-11.3681
之妄	-11.3682
十信位中	-11.3684
和合成	-11.3686
不二大乘	-11.3687
之物	-11.3687
何等為三	-11.3688
卷上	-11.3693
等虛空界	-11.3693
謂佛	-11.3697
相雜	-11.3697
十重	-11.3698
菩薩境界	-11.3698
變化身	-11.3703
決了	-11.3703
定執	-11.3707
是可	-11.3707
無變異	-11.371
名似能破	-11.3714
即是常	-11.3724
退轉	-11.3725
▁二明	-11.3725
利生	-11.3725
約真如門	-11.3726
由依	-11.3728
不變義	-11.3729
心自在	-11.3729
配合	-11.3731
若念	-11.3731
有厭求	-11.3731
作境界	-11.3732
地一切入	-11.3732
共知	-11.3732
39	-11.3733
身行	-11.3733
如此之	-11.3734
異時	-11.3734
有滅	-11.3734
指示	-11.3735
更作	-11.3737
極細	-11.3737
從無始	-11.3738
禪那	-11.3738
妄熏	-11.3738
前宗	-11.3739
助道	-11.3741
實德業	-11.3743
徧照	-11.3744
究竟位	-11.3745
先已	-11.3747
能隨順	-11.3748
對障	-11.3749
是人於	-11.3754
攝化	-11.3754
即是本覺	-11.3754
所聞因	-11.3755
行蘊	-11.3756
息滅	-11.3756
同法相似	-11.376
大乘教	-11.3761
界內	-11.3763
實不	-11.3765
諸受	-11.3766
又是菩薩	-11.3767
又復有	-11.3768
同品非有	-11.3768
色力	-11.3775
熏習之義	-11.3777
上地	-11.3778
大菩提	-11.3779
諸聲聞	-11.3781
亦從	-11.3783
身等	-11.3783
隨類	-11.3784
攝屬	-11.3787
豈能	-11.379
亦不然	-11.3791
應供	-11.3792
爾者	-11.3792
玄理	-11.3793
事火	-11.3795
即是顯示	-11.3796
六界	-11.3798
十一種	-11.3799
善解	-11.38
識生	-11.3802
通為	-11.3804
量中	-11.3806
中攝	-11.3808
論義	-11.3814
上所說	-11.3817
了無	-11.3817
消文	-11.3818
修習信心	-11.382
王問	-11.3823
前言	-11.3824
道智	-11.3826
地水	-11.3828
為上	-11.3831
人我見者	-11.3832
等因	-11.3832
以生滅	-11.3837
山林	-11.3837
起大悲心	-11.3839
即簡	-11.3841
現識所現	-11.3841
有聲	-11.3843
名為阿梨耶識	-11.3845
一邊	-11.3845
所用	-11.3849
對餘	-11.3851
是故世尊	-11.3854
一心三大	-11.3854
乃至無量	-11.3856
深入	-11.3857
差別不同	-11.3857
麁分別	-11.3858
而發	-11.386
上座	-11.3861
虛空無	-11.3862
淨故	-11.3866
妄動	-11.3868
雖念	-11.3868
一往	-11.3871
隨順真如	-11.3872
出三界	-11.3874
無邊際	-11.3874
之始	-11.3876
二十二	-11.3878
數法	-11.3878
生天上	-11.3879
細者	-11.3881
同相門	-11.3881
成淨	-11.3883
深解	-11.3883
中二句	-11.3885
無時	-11.3886
熏習故	-11.3886
不順	-11.3887
妄情	-11.3888
差別緣者	-11.3888
智了因	-11.389
各開	-11.3893
不能動	-11.3894
中又二	-11.3897
餘位	-11.3898
諸罪人	-11.3899
今略	-11.3901
相續生	-11.3902
此有二種	-11.3902
以無念等故	-11.3903
為煩惱	-11.3905
橫說	-11.3908
大乘起信	-11.3908
如是分別	-11.3908
不稱	-11.3911
以見	-11.3918
聲宗	-11.3921
釋本	-11.3921
和合因緣	-11.3922
修得	-11.3923
以來	-11.3924
大事	-11.3932
有二釋	-11.3937
化眾生	-11.3937
無限	-11.3938
大乘義	-11.3941
二論	-11.3943
二初結指分門	-11.3943
勝方便	-11.3945
意令	-11.3945
有何等	-11.3946
為別	-11.3947
總立	-11.395
信地	-11.3952
因明者	-11.3954
方說	-11.3957
輪王	-11.3957
名相續相	-11.3958
法出離	-11.3958
忍門	-11.3958
來去	-11.3965
頭面	-11.3967
罪報	-11.397
結勸	-11.3976
攝生	-11.3977
實德業三	-11.3978
真如之體	-11.3979
入滅	-11.3985
不死	-11.3987
詮顯	-11.3988
勝鬘經	-11.399
時處	-11.3992
名相續識	-11.3996
其用	-11.3998
有想	-11.4
因無明風動	-11.4001
相稱	-11.4005
恭	-11.4005
解釋分中	-11.4005
平等緣者	-11.4006
唯應	-11.4007
如鏡中像	-11.4008
因滅故不相應心滅	-11.4008
不動則無見	-11.4011
遠離諸	-11.4011
能障真如根本智故	-11.4012
立敵共許	-11.4012
依如來藏故有生滅心	-11.4013
所言覺義者	-11.4013
境界隨滅	-11.4014
皈	-11.4014
如實空鏡	-11.4014
破非	-11.4016
退屈	-11.4016
作逆事	-11.4016
當知無明能生一切染法	-11.4017
故唯識云	-11.4018
謂東為西	-11.4019
此以何義	-11.4019
今謂不爾	-11.4019
畢竟常恒	-11.4019
不愚癡	-11.4019
亦名如來法身	-11.402
造斯論	-11.402
起大乘正信	-11.4021
十中	-11.4022
只是	-11.4022
湛	-11.4023
得清淨	-11.4023
離心無	-11.4023
初發意	-11.4023
劣故	-11.4023
是心真如相	-11.4023
其數幾有	-11.4024
是初	-11.4025
其心怯弱	-11.4025
和合句	-11.4025
起惑造業	-11.4026
不覺心起而有其念	-11.4026
亦由	-11.4027
火聚	-11.4029
俱時而有	-11.4029
此事不然	-11.4031
於自心	-11.4031
混	-11.4031
受大苦惱	-11.4032
剩	-11.4032
敵對	-11.4032
哭	-11.4032
此聲	-11.4032
一切有為	-11.4032
菩薩發心	-11.4032
下第二明	-11.4032
時即	-11.4033
是現量	-11.4033
促	-11.4034
何事	-11.4034
俱合動相	-11.4036
用之	-11.4036
逈	-11.4037
不二摩訶衍法	-11.4037
非非想處	-11.4037
即指前	-11.4038
歟	-11.4039
專注	-11.4039
厭生死	-11.4039
不變隨緣	-11.404
盤	-11.404
三種大義	-11.4041
波利夜多樹	-11.4041
欝單越	-11.4043
九句中	-11.4043
一切有為法	-11.4044
房	-11.4044
正理者	-11.4044
不也世尊	-11.4044
傾	-11.4045
如諸部	-11.4045
亂行者心	-11.4046
異相者	-11.4046
潛	-11.4046
隨觀	-11.4046
切身	-11.4047
分際門	-11.4047
環	-11.4048
寶積經	-11.4048
緣智	-11.4048
解脫知見	-11.4048
偷	-11.405
如是見	-11.405
迷倒	-11.405
思慮	-11.405
朽	-11.4051
:「	-11.4051
予	-11.4051
百歲	-11.4051
常無常品	-11.4052
宗家法	-11.4052
編	-11.4053
極堅極強最為痛	-11.4053
又是人	-11.4053
餘文	-11.4054
即此相續識	-11.4054
金城	-11.4054
喻過	-11.4055
釋曰後解釋有二初	-11.4055
現知	-11.4056
稱實	-11.4056
極成有法	-11.4057
羅剎	-11.4058
紅	-11.4058
法身顯現	-11.406
赴	-11.406
非淨	-11.4062
金剛三昧	-11.4062
能依所依	-11.4062
木石	-11.4063
鬪	-11.4063
報恩	-11.4063
妄言	-11.4063
晝	-11.4064
怨憎會	-11.4064
迦葉波	-11.4065
所現境	-11.4065
已後	-11.4067
調適	-11.4067
蟻	-11.4068
整	-11.4069
可思議	-11.4069
相差別	-11.407
厚薄	-11.407
。」【(△	-11.4071
風雨	-11.4073
一萬劫	-11.4074
麼	-11.4075
不相應也	-11.4075
後三染	-11.4076
法差別相違因	-11.4077
初果	-11.4077
彼既	-11.4077
主者	-11.4078
非空	-11.4078
▁s	-11.4079
假觀	-11.4079
遠離大悲	-11.4079
對敵	-11.4079
目連	-11.4081
貞	-11.4081
播	-11.4081
無有障礙	-11.4083
色等法	-11.4083
極成能別	-11.4083
有斯	-11.4085
黎耶識	-11.4085
即有二門	-11.4085
合顯	-11.4087
教誡	-11.4091
是本	-11.4092
作不定過	-11.4093
加持	-11.4094
氣分	-11.4094
所除	-11.4095
下徵釋	-11.4098
虛妄分別	-11.4099
四覺	-11.41
可作	-11.4103
立宗云	-11.4103
其形	-11.4103
五欲樂	-11.4104
弭	-11.4105
即熏習真如	-11.4107
七支	-11.4108
染因	-11.4109
一千由旬	-11.411
實理	-11.4111
隨順修行	-11.4114
更立	-11.4114
無眾生	-11.4118
有五一	-11.4118
憂苦	-11.4119
六種染心	-11.412
多說	-11.4122
此總	-11.4122
配釋	-11.4123
如立聲無常	-11.4124
文言	-11.4125
自下第二明	-11.4126
便應	-11.4126
歡喜地	-11.4127
受彼	-11.4127
兩種	-11.4129
一切心行	-11.413
不成宗	-11.4131
於諸法中	-11.4133
外無別	-11.4133
所觸	-11.4135
親屬	-11.4136
所說法	-11.4138
勝慧	-11.4139
種族	-11.4139
覺智	-11.414
無障	-11.4143
所入本法	-11.4143
若坐禪人	-11.4143
瞋行人	-11.4144
修因	-11.4147
根本罪	-11.4148
兩重能入	-11.4149
若爾何	-11.4151
他故	-11.4151
迷方	-11.4151
必依	-11.4152
見空華	-11.4153
准知	-11.4153
未覺	-11.4153
觀照	-11.4154
有分別智	-11.4155
不覺也	-11.4156
以有自體	-11.4158
心心法	-11.4158
者此是	-11.4158
為王	-11.4159
二何故下	-11.4159
識性	-11.416
所覺相	-11.4161
文句	-11.4162
猶預不成	-11.4162
故不言	-11.4163
譯者	-11.4164
惱亂	-11.4164
未分	-11.4167
約境	-11.4169
而入	-11.4171
十二分	-11.4175
同種	-11.4177
因力	-11.418
三位	-11.4182
如云	-11.4183
是地	-11.419
所配	-11.419
具二義	-11.4191
寂然	-11.4194
是善	-11.4196
受變易	-11.4196
然此二	-11.4198
有身	-11.4199
住正念	-11.42
總攝一切	-11.4204
勤求	-11.4208
根境	-11.4208
入者	-11.4209
四寶	-11.421
不得名	-11.421
能發起	-11.421
強名	-11.4212
二十三	-11.4213
義不相應	-11.4216
識也	-11.4216
或謂	-11.4218
依他起	-11.4222
山王	-11.4222
ar	-11.4223
王言然	-11.4224
愛別離	-11.4226
眾生心中	-11.4226
故名之為	-11.4227
是般若	-11.4229
此二句	-11.4231
亂心	-11.4232
細苦	-11.4235
釋曰六	-11.424
佛菩薩等	-11.424
生滅相者	-11.4241
最大	-11.4242
下即	-11.4242
謂隨	-11.4245
是其常	-11.4248
一釋	-11.4248
即許	-11.425
於三寶	-11.4251
通染淨	-11.4253
麁念	-11.4256
為同法	-11.4259
今此下	-11.4259
為用	-11.4263
以體	-11.4269
圓智	-11.4271
王即	-11.4273
雖云	-11.4273
未顯	-11.4279
自許言	-11.4284
而動	-11.4284
身量	-11.4285
圓頓	-11.4287
違自現	-11.429
真身	-11.4291
為失	-11.4298
此念	-11.4301
盲人	-11.4301
不離識	-11.4301
智明	-11.4305
五有為	-11.4305
之惡	-11.4306
汝何	-11.4307
本願	-11.4309
師教	-11.4312
指事	-11.4312
不相似	-11.4313
真立	-11.4314
兩重所入	-11.4314
遮表	-11.4316
欲者	-11.4317
無我故	-11.4318
王言不	-11.4319
能藏	-11.432
先生	-11.4321
如世間	-11.4323
斯皆	-11.4323
平等心	-11.4324
隨分覺	-11.4324
前中亦	-11.4325
若一切法	-11.433
而猶	-11.4333
陀那	-11.4333
七住	-11.4334
之妙	-11.4334
真德	-11.4334
名句	-11.4335
無塵	-11.4336
便非	-11.4336
何故名	-11.4336
所迷	-11.4338
能引	-11.434
今時	-11.4342
現於	-11.4343
總名為	-11.4343
四結	-11.4345
一心法界	-11.4347
言音	-11.4347
一切境	-11.4347
真現量	-11.4348
證發心者	-11.4349
有道理	-11.435
結集	-11.435
要依	-11.435
見諸	-11.4354
勤勇因	-11.4354
堅實	-11.4355
以一切下	-11.4357
不同彼	-11.4359
瓶上所作	-11.436
同義	-11.4361
屬著	-11.4361
根身	-11.4361
略也	-11.4362
無常義	-11.4363
見滅諦	-11.4363
諸心	-11.4364
勝者	-11.4366
無煩惱	-11.4375
總宗	-11.4375
先陳	-11.4378
定非	-11.4381
雖現	-11.4383
因既	-11.4383
即合	-11.4384
常隨	-11.4385
少分見	-11.4386
一切善根	-11.4387
如金剛	-11.439
十波羅蜜	-11.4391
多諸	-11.4393
八因緣	-11.4394
行乞食	-11.4394
搖	-11.4396
三段	-11.4396
如是事	-11.4397
各隨	-11.4399
我癡	-11.4404
俱名為	-11.4404
前段	-11.4405
前科	-11.4406
何以不	-11.4406
對明	-11.441
初唱本論	-11.4414
從下	-11.4414
別中	-11.4415
必具	-11.4415
生死苦	-11.4417
智名	-11.442
下地	-11.442
聞思	-11.4422
互通	-11.4423
念著	-11.4424
若一	-11.4426
能示摩訶衍自體相用故	-11.443
所牽	-11.443
二初唱本	-11.443
顯德	-11.4431
則壞	-11.4434
在生滅門中	-11.4436
為滅	-11.4437
此苦	-11.4438
及佛	-11.4439
食已	-11.4441
更互相	-11.4442
眾行	-11.4442
無始覺之異	-11.4443
何相	-11.4444
約位	-11.4444
不相離也	-11.4445
無缺	-11.4448
出定	-11.4449
知味	-11.4449
所纏	-11.445
現作	-11.4451
分別染淨	-11.4451
取種種塵	-11.4451
第八地	-11.4453
兼正	-11.4456
即通	-11.4457
即謂無念	-11.4461
以有境界緣故	-11.4461
行德	-11.4461
體無不實	-11.4463
非求世間名利恭敬故	-11.4463
念無住相	-11.4465
皆同真如性相	-11.4465
其樹中間	-11.4465
不決	-11.4466
緣滅故相應心滅	-11.4467
見修煩惱	-11.4467
亦須	-11.4469
境界妄現	-11.4469
即生滅	-11.447
不曾	-11.4471
顯示摩訶衍義	-11.4471
一切分別	-11.4471
色心不二	-11.4471
回	-11.4472
以一切法皆同如故	-11.4472
飄	-11.4473
猶如淨鏡	-11.4473
先舉	-11.4473
備有不思議業	-11.4474
不取不念	-11.4474
無始時來	-11.4474
宗無因不有	-11.4475
綺互	-11.4475
非有無俱相	-11.4476
如來之藏	-11.4476
為諸眾生	-11.4477
僕	-11.4477
深解現前	-11.4477
一時生	-11.4477
作境界之性	-11.4477
依緣	-11.4477
心生則種種法生	-11.4478
盡不盡	-11.4478
所學	-11.4478
以一切法悉皆真故	-11.4478
義不成	-11.4479
空無相無願	-11.4479
例餘	-11.4479
宰	-11.4479
自當顯	-11.448
不樂眾善	-11.448
紛	-11.448
不生不滅與生滅和合	-11.4481
一切淨法	-11.4481
伹是	-11.4482
成不定	-11.4483
教理行果	-11.4483
諸無常者	-11.4483
奇特	-11.4484
對聲顯論	-11.4484
輔	-11.4485
所緣之境	-11.4485
論等	-11.4485
以之為別	-11.4485
請轉法輪	-11.4485
護持正法	-11.4486
虧	-11.4486
諸欲	-11.4487
忿恨	-11.4487
斷三寶種	-11.4487
不為車	-11.4488
初執緣	-11.4488
梁攝論云	-11.4489
併	-11.449
泛	-11.4491
由是道理	-11.4491
厄	-11.4491
妄念而生	-11.4491
現比二量	-11.4491
對薩婆多	-11.4491
俱胝	-11.4492
不乖	-11.4493
毗鉢舍那	-11.4494
聰	-11.4494
摩醯首羅	-11.4494
無覺無觀	-11.4494
賓	-11.4494
唯一真心	-11.4495
怖畏生死	-11.4496
𥁞	-11.4496
倦	-11.4496
泡	-11.4497
瞿曇	-11.4497
螺	-11.4498
佛滅度後	-11.4498
闡	-11.4499
生住滅	-11.4499
肩	-11.4499
損益	-11.4499
釋成上義	-11.45
匿	-11.45
者即前	-11.45
便得	-11.4501
色聲香味觸	-11.4501
所說偈	-11.4501
不平等	-11.4502
淪	-11.4502
勇健	-11.4502
有二義故	-11.4502
始覺義者	-11.4502
溺	-11.4503
過患品	-11.4504
四天王天	-11.4504
稠林	-11.4504
須彌山王	-11.4505
千年	-11.4505
(21	-11.4505
沸	-11.4505
菩提薩埵	-11.4506
與心不相應	-11.4506
難可堪忍	-11.4507
等同一味	-11.4507
憍	-11.4508
周迴	-11.4508
泰	-11.4508
慳悋	-11.451
暇	-11.4511
亦兼	-11.4512
吞	-11.4512
涎	-11.4513
府	-11.4514
五種有為	-11.4514
道行	-11.4514
巧方便	-11.4515
具足成立	-11.4515
壓	-11.4517
真實義	-11.4517
嗜	-11.4517
位次	-11.4517
耕	-11.4517
頻	-11.4518
無咎	-11.4519
俾	-11.4519
曠野	-11.4521
更無別體	-11.4522
挙	-11.4522
然由	-11.4523
脇	-11.4523
九法	-11.4523
肅	-11.4524
名自相	-11.4524
廁	-11.4525
國中	-11.4526
次二句	-11.4526
之方便	-11.4527
十句	-11.4528
經戒	-11.4528
瑞	-11.4528
四無量心	-11.4529
施作	-11.4531
次當	-11.4533
發言	-11.4535
如實智	-11.4538
自滅	-11.4539
安心	-11.454
非汝	-11.454
印度	-11.4541
別取	-11.4542
異見	-11.4543
展轉相	-11.4545
(36	-11.4547
而作因緣	-11.4548
為斷	-11.4548
教行	-11.455
從是	-11.4551
為護	-11.4556
心意	-11.4558
非佛語	-11.4558
此位菩薩	-11.4559
猶存	-11.456
白王言	-11.4561
暫住	-11.4564
勝義諦中	-11.4565
未來世	-11.4566
以約	-11.4568
不相違也	-11.4569
無外	-11.4572
若人修行	-11.4572
唯識論中	-11.4573
若然者	-11.4576
識識	-11.4577
約喻	-11.4578
分齊也	-11.4578
所立宗義	-11.4578
當依	-11.4581
不空如來藏	-11.4581
為究竟	-11.4583
巳竟	-11.4584
難了	-11.4584
末法	-11.4586
諸德	-11.4587
眼見色	-11.4588
依體	-11.4589
自比	-11.459
三惡道	-11.459
能立所立	-11.4595
寶船	-11.4597
壞滅	-11.4597
二結	-11.4598
廣多	-11.4599
巳還	-11.4599
難故	-11.4601
可信	-11.4602
今當說	-11.4602
未詳	-11.4602
可燒	-11.4602
得生天上	-11.4603
八解脫	-11.4604
發明	-11.4606
而與	-11.4606
不悔	-11.4608
若知一切法	-11.4609
與本覺	-11.4611
便利	-11.4612
成菩提	-11.4615
方知	-11.4616
心真如	-11.4618
皆共	-11.4618
覺分齊	-11.4619
名婆羅門	-11.4622
有退	-11.4623
別者	-11.463
其門	-11.4631
於生死	-11.4633
並屬	-11.4634
世間一切	-11.4635
字輪	-11.4638
無量無數	-11.4639
名為轉識	-11.464
斷諸煩惱	-11.4646
合之	-11.4646
起現行	-11.4649
不可立	-11.4649
仁者	-11.465
恒常	-11.4651
五種意	-11.4652
護身	-11.4652
四萬由旬	-11.4653
滅無明故	-11.4653
文中二	-11.4655
有法自相相違因	-11.466
所遮	-11.4662
迷人	-11.4665
甚難	-11.467
彼一切	-11.4675
修斷	-11.4677
異法者	-11.4677
初說	-11.4677
無自性故	-11.4678
雖曰	-11.468
是三昧	-11.4682
一味一相	-11.4682
有二種門	-11.4688
斷證	-11.469
敵證	-11.469
耳聞	-11.4695
大品	-11.4696
內曰	-11.4696
恒沙功德	-11.47
一室	-11.47
心沈沒	-11.4701
殊妙	-11.4706
心清淨	-11.4707
從上	-11.4711
一真法界	-11.4714
此雖	-11.4715
無明亦爾	-11.4715
具闕	-11.4715
無逼樂無有受樂	-11.4718
貪欲生	-11.4721
無增減	-11.4723
百二十	-11.4724
諸天子	-11.473
能忍	-11.4734
次第說	-11.4735
外道說	-11.4737
眾事	-11.4738
是故不說	-11.4739
離散	-11.4739
有四句	-11.4741
入初地	-11.4741
出世間法	-11.4741
中初一	-11.4742
詮法	-11.4743
照用	-11.4743
此染	-11.4743
器世界	-11.4744
之餘	-11.4747
諸障	-11.4755
為道	-11.4755
略論	-11.4756
自家	-11.4759
上釋	-11.4761
自在故	-11.4762
入三昧	-11.4764
學道	-11.4766
之空	-11.4766
利根者	-11.4767
正證	-11.4771
覺滅相	-11.4775
一者下	-11.4775
方所	-11.4775
少時	-11.4776
皆言	-11.4777
大決擇分	-11.4778
四鏡	-11.478
造立	-11.478
生滅因緣相	-11.4781
合一	-11.4782
色性	-11.4782
又見	-11.4782
觀色	-11.4783
果滿	-11.4785
一心真如	-11.4787
九因	-11.4791
毀犯	-11.4791
分能所	-11.4792
求不得	-11.4793
反云	-11.4795
三十四	-11.4795
勝相	-11.4797
是解脫	-11.4798
發心者	-11.4798
舉本	-11.48
成宗義	-11.4803
此總結	-11.4804
如是作意	-11.4805
實知	-11.4807
若如此	-11.4809
釋通	-11.4812
山中	-11.4816
自思惟	-11.4818
戒等	-11.482
六塵境	-11.4821
諦聽	-11.4825
及俱	-11.483
若離於	-11.483
現影	-11.4831
顯照	-11.4835
答由	-11.4838
妙音	-11.4839
無所有故	-11.4844
前二句	-11.4844
義竟	-11.485
心喜	-11.4851
對量	-11.4852
對治邪執者	-11.4852
二理	-11.4852
種種方便	-11.4857
唯心所作	-11.4858
汝以	-11.4858
不離心	-11.4859
此境	-11.4859
法無我	-11.486
三由旬	-11.486
我亦如是	-11.4862
諸苦惱	-11.4862
墮在	-11.4863
相狀	-11.4864
漸離	-11.4869
正言	-11.4869
如立無常	-11.487
以況	-11.4872
絕諸	-11.4876
義云何	-11.4876
之殊	-11.4878
所見者	-11.4881
貪樂	-11.4881
四王	-11.4882
我則	-11.4882
過未	-11.4883
如電	-11.4886
理亦	-11.4886
亦有亦無	-11.4891
而坐	-11.4891
名一	-11.4894
之末	-11.4895
等業	-11.4895
無我等	-11.4896
起愛	-11.4897
垢淨	-11.4899
世法	-11.4899
復見	-11.49
因宗	-11.4903
修諸行	-11.4907
得漏盡	-11.4908
亦緣	-11.4909
以下第二	-11.4913
所現色	-11.4916
摩訶衍者總	-11.4922
剛	-11.4922
別成	-11.4926
諦所攝	-11.4927
前文云	-11.4927
算	-11.4928
見滅	-11.4932
萬億	-11.4933
字義差別	-11.4933
轉為	-11.4935
以何因緣	-11.4935
因熏習	-11.4936
離分齊相	-11.4936
離二取相	-11.4939
所立不遣	-11.4939
此中應	-11.4939
下四	-11.494
知一切眾生	-11.494
等虗空界	-11.4941
(23	-11.4941
一切諸法唯依妄念而有差別	-11.4942
故說無始無明	-11.4942
溼	-11.4943
非心體滅	-11.4944
所述	-11.4944
善根增長	-11.4944
衛世	-11.4945
非心智滅	-11.4945
皆同如故	-11.4945
隨染幻差別	-11.4946
文相可知	-11.4946
若修觀者	-11.4947
毘鉢舍那	-11.4947
應廣通達	-11.4947
揀濫	-11.4948
受解緣別	-11.4948
虗偽	-11.4949
正解不謬	-11.4949
句也	-11.4949
於所比義	-11.495
別所依	-11.495
以依業識生滅相示	-11.4951
所言止者	-11.4951
是誰	-11.4952
喻合	-11.4952
阿羅漢果	-11.4952
見從外來	-11.4952
則一切	-11.4952
即止之觀	-11.4953
(22	-11.4954
境界滅時	-11.4954
一體無異	-11.4954
文相可見	-11.4955
正明執相	-11.4955
遍計所執	-11.4955
有因有緣	-11.4955
肇	-11.4956
敵者不許	-11.4957
所修之行	-11.4957
慳嫉	-11.4957
謂心為念	-11.4957
之惑	-11.4958
染法淨法	-11.4959
如來根本之義	-11.4959
柵	-11.4959
泥犁	-11.4959
舍那	-11.4959
不退位	-11.496
還作眾生	-11.496
窟	-11.496
證何境界	-11.496
不離覺性	-11.496
恒河沙	-11.4961
三者用大	-11.4961
如來所說	-11.4961
法雲地	-11.4962
頑	-11.4962
為先導	-11.4963
孰	-11.4963
而得解者	-11.4963
収	-11.4963
聲上所作	-11.4964
僻	-11.4964
不思議佛法	-11.4964
鏤	-11.4965
令解	-11.4965
巨	-11.4965
池岸	-11.4965
直至	-11.4966
大悲者	-11.4966
應思	-11.4967
鐵圍山	-11.4967
豆	-11.4967
即心不覺	-11.4968
能自發心	-11.4968
摠	-11.4968
如意足	-11.4968
九十六種	-11.4969
芳	-11.4969
心定	-11.497
羅睺羅	-11.4972
受持讀誦	-11.4973
不藉	-11.4973
由業	-11.4973
其一	-11.4973
鷲	-11.4974
育	-11.4975
邪婬	-11.4975
過惡	-11.4975
朗	-11.4976
n	-11.4976
巾	-11.4976
d	-11.4976
夙	-11.4977
顏	-11.4977
凝	-11.4977
無足	-11.4978
起於大悲	-11.4979
師子吼	-11.498
故說為意	-11.498
亦名為量	-11.498
錯謬	-11.498
戒行	-11.498
冀	-11.498
非不可壞	-11.4981
堅住	-11.4981
然雖	-11.4981
畢竟無得	-11.4981
懃	-11.4981
弟	-11.4981
諍訟	-11.4982
阿闍梨	-11.4982
二作釋文	-11.4982
肘	-11.4982
龜	-11.4982
何以得知	-11.4983
子微	-11.4983
肥	-11.4983
四天王	-11.4983
憂悔	-11.4983
(33	-11.4984
震	-11.4984
勤勇所發	-11.4984
飲酒	-11.4984
真我	-11.4984
復次為欲顯示	-11.4985
如色	-11.4985
祀	-11.4987
別記云	-11.4988
巷	-11.4988
有其二種	-11.4988
一切異生	-11.4988
共量	-11.4989
謂下中上	-11.4989
巳訖	-11.4989
考	-11.4989
窮盡	-11.4991
有樂	-11.4991
亦犯	-11.4991
例前	-11.4992
坐臥	-11.4992
追求	-11.4992
戒律儀	-11.4993
爰	-11.4993
史	-11.4993
聳	-11.4994
聲聞獨覺	-11.4994
為如眼識	-11.4995
說法者	-11.4995
境智	-11.4996
修慈	-11.4996
馳散	-11.4997
躬	-11.4997
剎帝利	-11.4998
嚴淨	-11.4999
親里	-11.4999
一切皆是無常	-11.4999
方等	-11.5
如凡夫人	-11.5
答初問	-11.5
戲笑	-11.5
哥	-11.5001
初坐禪人	-11.5002
只此	-11.5002
返成	-11.5002
來世	-11.5004
曉了	-11.5004
阿脩羅	-11.5006
前七識	-11.501
屎尿	-11.501
屍	-11.501
端直	-11.5011
聲上無常	-11.5011
救濟	-11.5017
故置	-11.5017
比類	-11.5018
亦攝	-11.5018
滅相續心	-11.5018
說名同品	-11.5019
如是二門	-11.5019
(43	-11.502
娑羅	-11.502
依染淨差別	-11.5021
佛那謨	-11.5023
名為得入	-11.5023
依於業識	-11.5024
與所立	-11.5026
之深	-11.5029
初分門	-11.5029
一體一心	-11.503
瞋惱	-11.5031
藕	-11.5031
釋此	-11.5032
出於	-11.5033
欲取	-11.5034
必隨	-11.5036
皆悉具足	-11.5038
所得功德	-11.5039
名之為法	-11.5039
於有法	-11.504
徧於	-11.504
能出	-11.5043
是有為	-11.5043
上半	-11.5043
居止	-11.5046
字者	-11.5048
諸苾芻	-11.5048
所障	-11.505
極遠	-11.5052
乃云	-11.5053
本趣	-11.5054
正念真如	-11.5055
欲生	-11.5057
心亦如是	-11.5057
此分	-11.5058
故攝論云	-11.5059
如雲	-11.506
準知	-11.5061
意識界	-11.5061
在果	-11.5062
開二門	-11.5063
有少	-11.5065
泯相	-11.5065
國師	-11.5067
惡不善法	-11.5067
我不說	-11.5069
我愛	-11.507
歷然	-11.5071
領解	-11.5071
引經證成	-11.5075
順性	-11.5075
均等	-11.5078
含識	-11.5079
就第	-11.5079
求名利	-11.5082
園中	-11.5082
入第四禪	-11.5083
總徵	-11.5084
通論	-11.5084
二教	-11.5084
八風	-11.5085
所表	-11.5086
為智障	-11.5086
智等	-11.5086
如立聲常	-11.5087
俱成	-11.5087
亦非有	-11.5088
因不成	-11.5089
微苦	-11.5089
以三行	-11.5091
當喻	-11.5092
淨鏡	-11.5093
以偈	-11.5094
平正	-11.51
能念	-11.51
顯勝	-11.5101
智光明	-11.5101
故說無明	-11.5104
恩德	-11.5108
即是法身	-11.511
妄分別	-11.5113
同一覺故	-11.5114
願樂	-11.5115
如來根本	-11.5117
唱本	-11.5117
風水	-11.5118
望自	-11.5119
無事	-11.5123
此正釋	-11.5124
為對治	-11.5126
聲亦如是	-11.5126
四無礙	-11.5126
計著	-11.5127
理門論中	-11.5127
以水	-11.5128
大總持	-11.5128
體上	-11.5128
相續故	-11.513
資生	-11.5131
更無異	-11.5133
本無明	-11.5134
同證	-11.5137
三日	-11.5139
十五者	-11.5139
成彼	-11.5141
為方便	-11.5144
影顯	-11.5144
法我見者	-11.5145
樂念	-11.5145
學者世間	-11.5146
既生	-11.5147
解之	-11.5147
象馬	-11.5148
為業	-11.5148
其旨	-11.5149
轉增	-11.515
二百五十	-11.5151
隣虛	-11.5151
諸法實相	-11.5153
初機	-11.5154
無生智	-11.5154
不顧	-11.5157
安定	-11.5158
之喻	-11.5158
染用	-11.5159
舉例	-11.5161
金輪	-11.5163
標徵	-11.5163
細微	-11.5165
不極	-11.5165
唯心所現	-11.5167
證無常	-11.517
上界	-11.5173
大利	-11.5173
斷彼	-11.5176
者此中意說	-11.5177
標宗	-11.5177
從因生	-11.5177
因同品	-11.5178
故約	-11.5178
王聞	-11.5179
成過	-11.5183
科云	-11.5184
不如是	-11.5184
雖明	-11.5185
根宜	-11.5187
是故應知	-11.5187
不能生	-11.5187
得利益故	-11.5189
空無我等	-11.5189
大梵	-11.519
善觀察	-11.5192
後辨	-11.5196
所取相	-11.5199
反前	-11.5201
性智	-11.5202
空處	-11.5203
此行	-11.5204
皆顯	-11.5208
無所分別	-11.5212
復二初	-11.5214
信僧	-11.5219
離二邊	-11.5223
依分別事識	-11.5224
業行	-11.5226
即因	-11.5227
亦復無	-11.5228
能所熏	-11.5228
皆除	-11.5228
意識中	-11.5229
此牒	-11.5229
既同	-11.523
便自	-11.523
不守自性故	-11.5232
教者	-11.5232
假實	-11.5232
歸三寶	-11.5233
真如之理	-11.5234
此惑	-11.5237
常與	-11.5238
勿生	-11.5241
亦有二義	-11.5242
等者問	-11.5246
皆不相應	-11.5247
一物	-11.5247
成緣	-11.5247
十七者	-11.5256
安立門	-11.5258
初徵	-11.5264
是根本	-11.5266
初總釋	-11.5267
如下文	-11.527
我母	-11.5275
有瞋	-11.5278
明矣	-11.5278
其外	-11.5282
一切法皆	-11.5282
法印	-11.5283
覺心源	-11.5283
文雖	-11.5285
波相	-11.5288
本覺智	-11.5288
意界	-11.5291
所成法	-11.5292
義趣	-11.5293
二十八	-11.5295
不共因	-11.5296
大道	-11.5298
其福	-11.5299
二位	-11.5299
先喻	-11.53
有法不成	-11.5302
人我執	-11.5302
所習	-11.5303
等亦爾	-11.5304
相合	-11.5309
如眼識	-11.5309
而說偈	-11.531
空鏡	-11.5312
風動	-11.5314
觸發	-11.5322
約體	-11.5327
勿令	-11.5327
未出	-11.5328
是舉	-11.5333
順明	-11.5337
破和合識	-11.5338
理果	-11.5338
標立	-11.5338
莫能	-11.5341
次文	-11.5341
依持	-11.5342
報障	-11.5348
雖少	-11.5348
略中	-11.5353
無相觀	-11.5355
伹言	-11.5355
餘之	-11.5357
苦根	-11.5359
聲聞辟支佛	-11.5359
結示	-11.5362
妄說	-11.5362
種種妄執	-11.5364
未明	-11.5366
無量菩薩	-11.5367
皆依無明	-11.5367
無分別心	-11.5368
涯	-11.5371
總字	-11.5374
極重	-11.5374
總示	-11.5374
世出世	-11.5376
以一下	-11.538
羅婆	-11.5381
計執	-11.5382
皆無自體	-11.5382
攝藏	-11.5382
二見	-11.5385
直明	-11.5386
不識	-11.5386
所對	-11.5387
有人說	-11.5387
指體	-11.5388
自謂	-11.539
其體性	-11.5391
心力	-11.5393
初行菩薩	-11.5396
第三明	-11.5396
有用	-11.5398
箇	-11.54
應離	-11.5401
欲使	-11.5402
又佛說	-11.5403
復起	-11.5403
具足無量性功德故	-11.5404
立理	-11.5405
世世	-11.5406
如是此論	-11.5406
亦得名為	-11.5406
是生滅因	-11.5408
對境	-11.5411
如是則	-11.5414
即解脫	-11.5417
眾會	-11.5422
佛種	-11.5423
善巧門	-11.5424
作因緣	-11.5425
體即真如	-11.5427
不可盡	-11.5427
真實識知	-11.5429
從因至果	-11.5429
覺知前念起惡	-11.5429
先行	-11.543
能動	-11.5431
非後際滅	-11.5431
十解以上	-11.5431
復生六種相	-11.5432
真如生滅二門	-11.5432
疑者	-11.5433
薩般若慧	-11.5435
法我執	-11.5438
但可	-11.5438
徧一切處	-11.5443
聲顯論	-11.5444
以是二門不相離故	-11.5444
通而言之	-11.5445
發動身口	-11.5445
取色分齊	-11.5445
覺也	-11.5446
心即常住	-11.5446
正道理	-11.5448
皆同微塵性相	-11.5448
徧轉	-11.5449
依不覺故說有始覺	-11.5449
依本覺故而有不覺	-11.5449
清涼不變自在義故	-11.5449
依數列名	-11.545
舉劣顯勝	-11.545
此識依見愛煩惱增長義故	-11.545
展	-11.5451
說有五分	-11.5451
循環	-11.5451
長水沙門子璿錄	-11.5452
不出不入	-11.5452
是生滅緣	-11.5452
是緣	-11.5452
得究竟樂	-11.5452
即是如來平等法身	-11.5453
麤中之細	-11.5453
始本二覺	-11.5453
示教利喜	-11.5454
二八	-11.5454
念佛三昧	-11.5455
故亦可	-11.5455
非可修相	-11.5455
常無斷絕	-11.5456
親友尊長	-11.5456
因緣法	-11.5456
非正因	-11.5457
畢竟不可說相	-11.5457
唯示體	-11.5457
次第漸轉	-11.5457
此云何示	-11.5457
起信論疏筆削記卷第十	-11.5458
倫	-11.5459
聞思修	-11.5461
如菩薩地盡	-11.5461
所謂樂念真如法故	-11.5461
始不異本	-11.5461
無法可現	-11.5461
行住坐臥	-11.5461
門有三初	-11.5462
與外道共	-11.5462
亦應如是	-11.5462
非彼相違義能遣	-11.5463
實為	-11.5463
所言空者	-11.5463
俱合	-11.5463
發如是心	-11.5463
斷德	-11.5464
蹔	-11.5464
白疊	-11.5464
六粗	-11.5466
現妄境界	-11.5466
非遍	-11.5467
崖	-11.5467
自此巳下	-11.5467
長養	-11.5468
樹林	-11.5468
燭	-11.5469
第一變中	-11.547
疲倦	-11.547
沾彌利	-11.547
<	-11.5471
壘	-11.5471
是集	-11.5471
]	-11.5472
摽	-11.5472
廣大神王	-11.5472
門樓一	-11.5472
之所圍繞	-11.5473
如華嚴經	-11.5473
諂誑	-11.5474
既知	-11.5475
三十七品	-11.5475
經中所說	-11.5475
嗔恚	-11.5475
乃至得佛	-11.5475
髻	-11.5475
生此天	-11.5475
西域	-11.5476
何緣	-11.5476
牢獄	-11.5477
寡	-11.5477
清淨戒	-11.5478
剎土	-11.5479
四大所造色	-11.548
蚊	-11.548
頗梨	-11.548
恥	-11.548
少欲知足	-11.5481
後還	-11.5481
分明顯示	-11.5481
辰	-11.5481
初正顯	-11.5481
自受用身	-11.5481
士夫	-11.5481
化樂天	-11.5482
籍	-11.5482
如數論師	-11.5482
萎	-11.5482
美味	-11.5482
親疎	-11.5482
彼中生已受用種種不善	-11.5482
嶮	-11.5483
勒	-11.5483
跳	-11.5483
堪忍	-11.5484
狼	-11.5484
放大光明名	-11.5485
有勝劣	-11.5485
暖	-11.5485
堆	-11.5486
誨	-11.5486
耽著	-11.5487
若離業識	-11.5487
一分不成	-11.5489
心地	-11.549
黑繩	-11.549
所作性等	-11.5492
答前問	-11.5492
輸	-11.5493
淨法熏習	-11.5493
夕	-11.5494
異品遍無性	-11.5494
一切諸行	-11.5494
妃	-11.5495
項	-11.5495
非天	-11.5496
黑白	-11.5496
冒	-11.5496
為遮	-11.5496
后	-11.5496
疲極	-11.5497
低	-11.5497
澄淨	-11.5497
自受用	-11.5498
罰	-11.5498
尊貴	-11.5498
黑闇	-11.5498
更無餘	-11.5499
說相	-11.55
即九句中	-11.55
摩尼珠	-11.55
五道	-11.5501
自性淨心	-11.5501
俱許	-11.5502
咽	-11.5503
生善	-11.5504
恒河	-11.5504
一者覺義	-11.5505
勝負	-11.5506
檀越	-11.5506
各有二種	-11.5508
約此	-11.5508
空界	-11.551
根本熏習	-11.5512
無常苦	-11.5512
故說為空	-11.5514
無所少	-11.5515
所作業	-11.5515
次下第三	-11.5515
現念	-11.5516
彼壽量者	-11.5516
近因	-11.5518
修進	-11.5518
但唯	-11.5518
唧	-11.5523
緣因	-11.5523
味著	-11.5524
諸法性	-11.5525
是第七識	-11.5525
實德	-11.5527
慮知	-11.5528
樂想	-11.5529
已離	-11.5529
犯戒	-11.553
遣疑	-11.5531
白法	-11.5533
問那先	-11.5534
質礙性	-11.5534
四卷	-11.5535
然而	-11.5536
一段	-11.5539
來到	-11.554
問其	-11.5542
為異法喻	-11.5543
亦無有相	-11.5544
相違不定	-11.5544
小劫	-11.5545
於佛法中	-11.5546
有實體	-11.5547
得火	-11.5548
此義下	-11.5548
似同	-11.555
乃名	-11.5551
是貪	-11.5551
所立無常	-11.5554
現種種	-11.5554
三塗	-11.5555
行劣	-11.5558
不異本覺	-11.5559
依功力	-11.556
法相觀	-11.556
同品有異品	-11.556
漸轉	-11.5561
世出世法	-11.5561
深遠	-11.5562
大乘法體	-11.5563
則無不覺	-11.5564
本覺佛性	-11.5565
無有過	-11.5567
分為三	-11.5567
遂能	-11.5569
同一體	-11.5569
下總結	-11.557
真如之法	-11.5571
善財	-11.5572
又於此中	-11.5573
更成立	-11.5576
同一味	-11.5576
正慧	-11.5578
三障	-11.558
我得	-11.558
淨潔	-11.5585
無明滅故	-11.5586
起見	-11.5587
自心現	-11.5587
燈明	-11.5589
不離眼識色	-11.5589
無量莊嚴	-11.559
為後	-11.5591
佛是	-11.5594
老病	-11.5595
論旨	-11.5595
順成	-11.5595
自他俱	-11.5596
前中言	-11.5598
滅後	-11.5598
習熏	-11.56
未審	-11.5602
有中間有	-11.5602
及其	-11.5604
二皆	-11.5608
立聲是常	-11.5609
常以	-11.561
從本來	-11.561
門有二初	-11.5611
入理	-11.5611
時勝	-11.5612
無漏心	-11.5613
而為其	-11.5613
惠施	-11.5613
住著	-11.5615
受之	-11.5616
花果	-11.5617
三自一心	-11.5618
成染	-11.5619
三對治	-11.5621
摧邪	-11.5621
一切不善	-11.5627
如何者是	-11.5627
三十三天	-11.5628
大聖	-11.5628
一時轉	-11.5629
死後	-11.5631
得無念	-11.5632
不能了	-11.5632
欲人	-11.5633
本際	-11.5636
事相	-11.5638
稱為	-11.5644
多生	-11.5645
故使	-11.5645
不可言說	-11.5645
定心緣	-11.5647
覺觀滅	-11.5648
能立中	-11.5649
殊勝故	-11.5651
四取	-11.5652
苦難	-11.5655
易知	-11.5655
無作者	-11.5657
無漏業	-11.5658
從生	-11.5659
麁中	-11.566
生三種相	-11.5661
無利	-11.5661
亦復不	-11.5662
其前	-11.5663
中劫	-11.5663
法差別相違	-11.5664
無有定	-11.5665
是水	-11.5666
體是一	-11.5667
汝義	-11.5667
起下	-11.5669
由何	-11.5669
一面	-11.5669
不住道	-11.567
自地	-11.5672
陳疑	-11.5673
臥具等	-11.5674
初牒指	-11.5674
信三寶	-11.5676
本王	-11.5676
受記	-11.5677
中邊論	-11.5679
住法	-11.5679
雖覺	-11.5681
善來	-11.5681
菩薩得	-11.5682
癡暗	-11.5683
入大乘	-11.5685
至涅槃	-11.5686
所及	-11.5688
轉徵釋	-11.569
立比量	-11.5692
勤勇無間所發宗	-11.5692
散說門	-11.5694
三苦	-11.5695
識蘊	-11.5696
直就	-11.5697
翻云	-11.5697
相屬	-11.5698
四威儀	-11.5702
文內有	-11.5702
為生滅	-11.5703
入地	-11.5703
十事	-11.5703
則便	-11.5704
恒有	-11.5704
因智	-11.5705
根勝	-11.5709
有盡	-11.5711
煩惱盡	-11.5713
成無常	-11.5714
一切無量無邊	-11.5718
相續滅	-11.5719
於未來	-11.572
二十九	-11.572
分別性	-11.5721
標列	-11.5722
入如來地	-11.5724
取瓶	-11.5725
自下第三	-11.5726
佛世	-11.5726
治惑	-11.5726
不相離義	-11.5729
手執	-11.5729
不發	-11.573
此中意	-11.5731
無欲	-11.5734
知已	-11.5734
小事	-11.5737
如大乘	-11.5738
尊勝	-11.574
識法	-11.5743
是煩惱	-11.5743
汝自	-11.5745
行列	-11.5745
過去未來現在	-11.5748
覺念	-11.575
▁No	-11.5751
有不定過	-11.5753
即釋	-11.5758
不煩	-11.5759
是罪	-11.5759
無異品	-11.5763
於處處	-11.5764
我想	-11.5765
諸賢聖	-11.5766
十地論	-11.5767
俱不違	-11.5769
釋本文	-11.5771
即說偈	-11.5772
自立義	-11.5777
二十六	-11.578
身法	-11.5781
菩提果	-11.5785
故名為空	-11.5787
有何義	-11.5788
妙有	-11.5788
二果	-11.5791
破滅	-11.5792
迴轉	-11.5792
始能	-11.5792
等色	-11.5792
於師	-11.5794
顯時	-11.5798
就此門中	-11.58
次復	-11.58
得苦	-11.5802
為實有	-11.5804
離色等	-11.5805
形如	-11.5806
能行	-11.5807
雙舉	-11.5808
無盡故	-11.5812
兼明	-11.5813
非大有	-11.5814
大光明	-11.5816
是故不應	-11.5818
地位	-11.5819
勝人	-11.5819
根熟	-11.5823
破無明	-11.5823
一切言說	-11.5824
多羅樹	-11.5829
後總結	-11.5831
謂觀	-11.5839
自類	-11.584
中邊	-11.584
亦有三種	-11.584
大乘集菩薩學論卷第	-11.5841
略不說	-11.5844
為四句	-11.585
當知無明	-11.585
生歡喜	-11.5851
執故	-11.5852
所集	-11.5853
無常觀	-11.5859
熏習不斷	-11.5861
如月	-11.5862
則攝	-11.5864
無空	-11.5864
觸身	-11.5867
教示	-11.5868
彌陀	-11.5871
劣者	-11.5872
或由	-11.5878
具足一切	-11.5879
兩門	-11.5881
大乘體	-11.5887
此既	-11.5887
本自無	-11.5888
其最	-11.5888
三月	-11.5889
熏習之力	-11.5892
故名曰	-11.5892
六中	-11.5893
無始妄想熏	-11.5896
而受	-11.5897
於現在	-11.5897
作四句	-11.5897
中藏	-11.5898
宗趣	-11.5898
無所作	-11.5899
斷道	-11.59
以證	-11.59
說之為	-11.5903
而言之	-11.5903
劫初	-11.5904
一行三昧	-11.5904
恒行	-11.5905
如王	-11.5911
當獲	-11.5913
如應	-11.5914
非覺	-11.592
聖眾	-11.5921
昔時	-11.5921
立聲是無常	-11.5922
經中作如是說	-11.5926
正使	-11.5926
非獨	-11.5928
同法者	-11.5929
施物	-11.5929
▁二顯	-11.5931
住者	-11.5933
多法	-11.5934
大海中	-11.5934
六句義	-11.5936
一下	-11.5937
三種發心	-11.5939
聞佛	-11.5939
從心生	-11.594
則不可	-11.5943
漸漸轉	-11.5943
外行	-11.5943
火性	-11.5944
弓	-11.5944
如無	-11.5945
無量眾生	-11.5945
真下	-11.5946
彼經又	-11.5946
假人	-11.595
為多	-11.5952
成佛時	-11.5954
必為他用	-11.5957
亦無有相可取	-11.596
唯依妄念而有差別	-11.596
神通力	-11.5962
令信	-11.5964
與聲	-11.5964
四類	-11.5965
聲是常	-11.5966
即心不覺常無別異	-11.5966
自然而有不思議業	-11.5966
隱密	-11.5966
故不能	-11.5967
色有無量相	-11.5969
略不別釋	-11.5969
出家者	-11.5969
由宗因喻多言	-11.597
故略不	-11.597
非真識知	-11.5971
如來在世	-11.5972
問答釋疑	-11.5972
禮懺	-11.5972
能立法不成	-11.5973
無二相故	-11.5973
緣色	-11.5974
終無有退	-11.5974
親承供養	-11.5974
增長行緣	-11.5975
謂若為修彼止輪門	-11.5975
非生非滅	-11.5975
而顯現故	-11.5976
智體不動	-11.5976
外熏	-11.5976
若心起見	-11.5977
能化教法出興門	-11.5978
染淨相資	-11.5978
依名辨相	-11.5978
〔	-11.5978
延促	-11.5978
欲求正信	-11.5978
無體可得	-11.5979
為欲總攝如來廣大深法無邊義故	-11.5979
如初廣說	-11.5979
雖復名覺	-11.5981
拔濟	-11.5982
窮未來際	-11.5982
無明力不覺心動	-11.5982
以如來藏無前際故	-11.5982
覈	-11.5982
此法身	-11.5983
有其染心	-11.5983
得入如來種性	-11.5983
不依文字	-11.5984
立大誓願	-11.5984
晦	-11.5984
於同品有	-11.5985
謂若是常	-11.5985
檢	-11.5985
王復言	-11.5986
心性不起	-11.5986
當勤正念	-11.5987
自所	-11.5988
亦無色相可見	-11.5988
綺	-11.5989
諸不善	-11.5989
發大慈悲	-11.5989
自許之言	-11.5989
若得無念者	-11.5989
黎	-11.599
此即初門	-11.599
悉於中現	-11.599
無始有終	-11.5991
似因似喻	-11.5991
政	-11.5991
謂不如實知真如法一故	-11.5991
密嚴	-11.5992
若如是義者	-11.5992
云何生	-11.5992
發阿耨多羅三藐三菩提心	-11.5992
依於此心	-11.5994
心無初相	-11.5994
已觀	-11.5995
和合識	-11.5995
轍	-11.5996
兜率陀天	-11.5996
徵也	-11.5996
h	-11.5996
鼻舌身	-11.5996
俯	-11.5996
狹劣	-11.5997
矯	-11.5997
宗法性	-11.5998
給侍	-11.5999
重擔	-11.5999
是故此光名	-11.5999
欝	-11.6
虛空等	-11.6001
明照	-11.6001
祕藏	-11.6002
綱要	-11.6003
殑伽沙數	-11.6004
周圓	-11.6004
妄顯真	-11.6005
覧	-11.6005
狂亂	-11.6005
寂照	-11.6005
旁	-11.6006
何等外道說	-11.6006
會中	-11.6006
和南	-11.6006
聲是所聞	-11.6006
抱	-11.6007
如聲論師	-11.6007
善法堂	-11.6007
排	-11.6007
鞭杖	-11.6007
阿鼻地獄	-11.6008
乃至總說	-11.6008
▁初偈頌	-11.6008
五對	-11.6008
二十小劫	-11.6009
灑	-11.6009
蘭	-11.6009
幡	-11.6009
揣食	-11.601
產	-11.601
顛	-11.6011
對治門	-11.6011
陣	-11.6012
中之一	-11.6012
曾無	-11.6012
能依別相	-11.6013
深淺	-11.6013
父子	-11.6014
觀諸法	-11.6014
染淨相	-11.6015
而不言	-11.6015
夾	-11.6015
歌舞	-11.6016
以真如門	-11.6017
染淨二法	-11.6018
如立聲是無常	-11.6018
樹木	-11.6018
皆依此	-11.6019
未亡	-11.6019
多所	-11.6019
涕	-11.602
駕	-11.602
童女	-11.602
▁二長行	-11.602
雙遣	-11.602
若定	-11.6021
彩	-11.6021
不能斷	-11.6022
二十五諦	-11.6022
匹	-11.6022
二者不覺義	-11.6023
真實不空	-11.6023
常與無常	-11.6023
牟	-11.6023
能遠離	-11.6023
支節	-11.6025
固知	-11.6025
悶絕	-11.6025
十佛	-11.6026
龍樹菩薩	-11.6028
大地獄	-11.603
法門海	-11.603
大智慧光明義等	-11.603
不能令	-11.6032
結答	-11.6034
夜摩天	-11.6036
皆已	-11.6036
謂自	-11.6037
武	-11.6037
不定相違	-11.6038
是義已	-11.6038
造諸惡	-11.6039
相應不相應義	-11.6039
合明	-11.6043
果不離因故	-11.6043
不恭敬	-11.6044
亦同此	-11.6045
且就	-11.6045
發心之相	-11.6046
具足無漏	-11.6047
本覺般若	-11.6047
今此亦爾	-11.6047
並在	-11.6048
依一心法	-11.6048
說法要	-11.6048
四倒	-11.6048
之悲	-11.6049
瑜伽論說	-11.6049
用熏習者	-11.6051
見斷	-11.6052
性火	-11.6052
信業果報	-11.6052
之自體	-11.6054
下釋相	-11.6054
順流	-11.6055
繫念	-11.6058
定難	-11.6059
終日	-11.6059
波動	-11.606
於中有四	-11.6062
如文可見	-11.6063
名分別事識	-11.6063
汝所說	-11.6063
常修	-11.6065
此間	-11.6066
大乘集菩薩學論卷第十	-11.6066
無分	-11.6066
亦勿	-11.6067
如是思惟	-11.6067
有此過	-11.6069
顯體	-11.6069
次別	-11.607
或曰	-11.6073
至死	-11.6073
所繫	-11.6074
如說修行	-11.6077
此所作性	-11.6078
後示	-11.608
具陳	-11.6083
始覺之智	-11.6086
生愛樂	-11.6086
四住地	-11.6087
我知	-11.6087
功德過患	-11.6089
相濫	-11.609
集起	-11.609
下釋所以	-11.6091
麁重	-11.6092
如來所	-11.6093
所依不成過	-11.6095
唯是真如	-11.6097
信滿	-11.6102
第二重	-11.6102
初總敘	-11.6103
諸有為法	-11.6103
現時	-11.6105
可念	-11.6105
故即無	-11.6108
女色	-11.6109
之終	-11.6109
而證	-11.6112
以瓶等	-11.6112
佛名	-11.6113
於己	-11.6113
將來	-11.6113
修行也	-11.6115
不一義	-11.6115
明白	-11.6116
離分別相	-11.6116
之難	-11.612
惡名	-11.6121
老苦	-11.6122
千佛	-11.6123
勝上	-11.6125
云何受	-11.6127
然據	-11.6127
在彼	-11.6128
不可愛	-11.613
初即	-11.6132
受蘊	-11.6132
當如何	-11.6138
菩提分法	-11.6138
未離欲	-11.6139
止持	-11.6141
佛及菩薩	-11.6143
應捨	-11.6145
初辨	-11.6148
緣現在	-11.6148
發業	-11.6151
為能量	-11.6152
執著相	-11.6153
違真	-11.6153
通說	-11.6153
不盜	-11.6154
作其	-11.616
違現量	-11.6164
他受用身	-11.6164
如師子	-11.6166
修羅	-11.6169
喻況	-11.6173
釋曰後解釋	-11.6173
非有故	-11.6179
多過	-11.6181
何以知	-11.6182
即取	-11.6182
斷不斷	-11.6183
所立無	-11.6183
大罪	-11.6184
先師	-11.6186
不復生	-11.6191
之辭	-11.6193
非情	-11.6194
大也	-11.6194
隨煩惱	-11.6194
不應分別	-11.6194
前已	-11.6195
等性	-11.62
調身	-11.6201
初則	-11.6201
佛種不斷	-11.6202
眾生為	-11.6203
恐人	-11.6204
現有	-11.6208
外路	-11.6208
當墮	-11.6214
亦隨滅	-11.6215
眾生利根	-11.6217
始成	-11.622
直是	-11.6221
所修行	-11.6222
真如淨法	-11.6228
比量云	-11.6229
世所	-11.6233
細念	-11.6234
冷熱	-11.6238
無熱	-11.6239
便違	-11.624
雖處	-11.624
略指	-11.6244
增長念	-11.6244
十年	-11.6245
為明	-11.6247
住世	-11.6249
是故佛說	-11.6249
首楞嚴	-11.6249
斷善根	-11.6251
以除	-11.6252
維摩詰	-11.6253
大菩提心	-11.6253
合者	-11.6255
本地	-11.6256
分別發趣道相者	-11.6257
坐時	-11.626
名煩惱礙	-11.6261
性除	-11.6262
名為異品	-11.6264
厭苦	-11.6264
假我	-11.6265
是大乘	-11.627
心住	-11.6275
有煖	-11.6279
倍增	-11.628
燒見	-11.6281
情器	-11.6282
自安	-11.6283
復次由	-11.6283
根識	-11.6285
旨趣	-11.6286
現相也	-11.6289
所尊	-11.629
即一切法	-11.6294
自性無生	-11.6296
始有	-11.63
非有性	-11.6301
有四門	-11.6301
既屬	-11.6304
無常為宗	-11.6305
故先	-11.6305
俱滅	-11.6306
根力	-11.6313
無有餘	-11.6316
非不定	-11.6316
於菩薩所	-11.6316
今復	-11.6317
是故說名	-11.6317
無喜	-11.632
望彼	-11.6323
前巳	-11.6324
心所法	-11.6325
所受用	-11.6329
緣外	-11.633
那羅	-11.6332
不可遣	-11.6332
同鏡	-11.6332
觀想	-11.6333
▁【(	-11.6335
眾生世間	-11.6336
不堅	-11.6336
得利益	-11.6338
隨自意	-11.6341
內住	-11.6341
自信	-11.6342
鏡像	-11.6342
眾惡	-11.6343
之益	-11.6343
心所行	-11.6344
既盡	-11.6347
念真如	-11.635
破此	-11.635
若實有	-11.6355
知有我	-11.6355
復退失	-11.6355
先相	-11.6356
一偈	-11.6361
乃至究竟	-11.6361
天壽命	-11.6362
是約	-11.6366
祇數	-11.6367
青色	-11.6367
同上	-11.6367
能測	-11.6368
得泥洹道	-11.6368
諸善行	-11.6368
但立	-11.637
若不爾	-11.637
諸法自性	-11.6375
變成	-11.6375
諸覺	-11.6375
有二類	-11.6378
通凡聖	-11.6379
如手	-11.6384
藏總攝	-11.6387
美妙	-11.6388
破彼	-11.6389
生盲	-11.6391
諸結	-11.6396
悉為	-11.6396
深理	-11.6397
不因	-11.6398
十方界	-11.6398
如依	-11.6399
辨其	-11.6399
速證	-11.64
不淨等	-11.6401
置自許	-11.6402
修一切善	-11.6408
真用	-11.6409
是諸眾生	-11.641
因地	-11.6413
更起	-11.6414
正觀也	-11.6414
肯	-11.6415
性起	-11.6415
有罪	-11.6416
亦常	-11.6417
名為涅槃	-11.6418
而恒	-11.6418
謂一心	-11.642
簡過	-11.6421
次別釋	-11.6435
理合	-11.6437
二初明	-11.6437
如唯識	-11.6439
尚不能	-11.6443
如大海水	-11.6445
下結成	-11.6448
那尸	-11.6448
彼自	-11.645
為法身	-11.6451
是事已	-11.6452
獄者	-11.6452
有命	-11.6456
此則以	-11.6456
三辨相	-11.6457
諸眷屬	-11.6458
義言	-11.646
方便故	-11.646
二初結指二	-11.6462
即喻	-11.6465
懈怠者	-11.6465
遍在	-11.647
乃可	-11.6477
是比丘	-11.6479
相形	-11.6479
三總結	-11.6483
餘事	-11.6484
性境	-11.6485
者謂由	-11.6486
論主答	-11.6486
不見有	-11.6487
之本也	-11.6487
▁二結	-11.6489
耀	-11.6491
聲與	-11.6492
是無為	-11.6493
具足無量	-11.6495
若存	-11.6496
方法	-11.6499
誦經	-11.6499
當勤	-11.65
見取	-11.6501
沾彌利望群	-11.6505
示大乘體	-11.6505
菩薩道	-11.6505
無明為緣	-11.6508
細染	-11.6509
道相	-11.6509
既明	-11.651
初發心菩薩	-11.6511
其一一	-11.6512
若為造作	-11.6512
犯隨一	-11.6514
離言絕慮	-11.6514
望他	-11.6515
到如來地	-11.6515
云何菩薩	-11.6516
見本法身	-11.6516
速趣涅槃	-11.6517
能攝一切法生一切法	-11.6517
善男子善女人	-11.6519
所言不空者	-11.652
以有如是大方便智	-11.652
歡	-11.6521
如有成立聲是無常	-11.6522
所證理	-11.6522
遠離微細念	-11.6522
王曰	-11.6523
念彼	-11.6523
祇	-11.6523
所起見愛熏習	-11.6524
一法界大總相法門體	-11.6525
通是宗法性	-11.6527
內緣	-11.6528
皆從心起	-11.6528
結觀分齊	-11.6528
令諸眾生正解不謬故	-11.6528
三寶之海轉廣大故	-11.6528
如是四種	-11.6529
邑	-11.6529
若離不覺之心	-11.6529
爾時文殊師利	-11.653
隨一攝故	-11.653
乃至不依見聞覺知	-11.653
以始覺者即同本覺	-11.653
令修善根	-11.653
轉依	-11.653
心起著故	-11.6531
所餘法門	-11.6531
說名智身	-11.6531
醒	-11.6532
常樂我淨義故	-11.6532
舉宗	-11.6532
自性清淨心義故	-11.6532
當用	-11.6533
初地巳上	-11.6533
則無境界	-11.6533
與種種善法	-11.6533
往復除疑	-11.6534
轉彼淨心	-11.6534
撮	-11.6534
即智名果	-11.6536
以現烟故	-11.6536
十方世界微塵數	-11.6536
謂言說之極	-11.6536
喘息	-11.6536
住持苦樂	-11.6536
若心有起	-11.6536
阿闍世王	-11.6536
此中常宗	-11.6537
雖實有此諸功德義	-11.6537
非其實退	-11.6537
ra	-11.6537
勸請隨喜	-11.6537
以不達一法界故	-11.6538
一分兩俱不成	-11.6539
信滿入住	-11.6539
決定常住無	-11.654
有覺有觀	-11.654
閻浮	-11.654
明利	-11.654
不能起	-11.654
攝眾生戒	-11.6541
何等是	-11.6542
無發悟	-11.6542
戒學	-11.6542
丘龍	-11.6542
過河沙	-11.6543
外緣之力	-11.6543
閙	-11.6544
德用	-11.6544
尋思	-11.6544
所謂依不定聚眾生	-11.6544
且止斯事	-11.6545
懸敘	-11.6545
極喜	-11.6545
得無分別心	-11.6545
虛假	-11.6545
循	-11.6546
故無有斷	-11.6547
【△	-11.6547
無有少法	-11.6548
效	-11.6549
臍	-11.655
修習二禪	-11.655
英	-11.655
無量功德藏	-11.655
衰變	-11.655
其名字	-11.655
遐	-11.655
遍是宗法	-11.6551
了自心	-11.6552
第三結	-11.6552
捷	-11.6553
第二中言	-11.6553
發揮	-11.6553
啼	-11.6554
唵	-11.6554
悕	-11.6554
發起善根	-11.6554
津	-11.6555
得人身	-11.6555
調順	-11.6555
二初問起二答釋二初偈頌	-11.6555
童	-11.6556
翼	-11.6556
豁	-11.6556
達磨	-11.6556
毘曇	-11.6556
既許	-11.6556
圓備	-11.6557
同異二喻	-11.6557
從業生	-11.6557
無明緣行	-11.6557
無所不通	-11.6558
o	-11.6558
卵	-11.6558
(44	-11.6559
合法	-11.6559
名聞利養	-11.6559
謹	-11.6559
改悔	-11.6559
無明等者	-11.6559
無明則滅	-11.6559
殿堂	-11.6559
抄	-11.6559
菴	-11.656
妙吉祥菩薩	-11.6561
朋	-11.6561
是佛境界	-11.6561
三事和合	-11.6562
遵	-11.6563
無貪欲	-11.6563
阿迦尼吒天	-11.6563
綸	-11.6563
無同品	-11.6563
闇鈍	-11.6564
智德	-11.6564
動相滅	-11.6564
分為四	-11.6564
勇悍	-11.6565
狐	-11.6565
難測	-11.6565
午	-11.6566
掩	-11.6566
不畏	-11.6567
徧照法界義故	-11.6567
即得往生	-11.6567
敏	-11.6567
恭敬供養	-11.6568
巧妙	-11.6568
名一行三昧	-11.6568
躍	-11.6568
奘師	-11.6568
釋曰後徵釋	-11.6569
通能所	-11.6569
赤鐵	-11.6569
側	-11.6569
元是	-11.6569
群品	-11.657
茂	-11.657
。(→)	-11.657
枉	-11.657
以此心	-11.6571
五見	-11.6571
離癡	-11.6571
卷第五	-11.6571
初發心時	-11.6571
即是明	-11.6572
厥	-11.6575
故說為用	-11.6575
增長善根	-11.6576
忿怒	-11.6576
為眾	-11.6576
久久	-11.6576
具足無漏性功德故	-11.6576
巘尼	-11.6576
寶性論	-11.6576
癰	-11.6576
蠅	-11.6578
嗟	-11.6578
婬女	-11.6578
雪	-11.6578
訥	-11.6578
非染	-11.658
一切種種	-11.6581
二門不二	-11.6581
𡁠	-11.6581
禽獸	-11.6582
屏	-11.6582
求不得苦	-11.6582
鼠	-11.6582
第六意識	-11.6583
大千	-11.6585
其心平等	-11.6585
止惡	-11.6585
▁初問起	-11.6585
謂曰	-11.6586
飯食	-11.6586
醫師	-11.6586
長壽	-11.6586
證自證分	-11.6586
珂	-11.6587
奏	-11.6587
猪	-11.6589
所知境	-11.6589
中唯釋	-11.6589
隨眾生根	-11.6589
言顯示	-11.659
十二支法	-11.659
有為自在	-11.659
求覓	-11.6591
於本論中	-11.6591
馬鳴菩薩造	-11.6591
本來平等同一覺故	-11.6591
文繁	-11.6592
大城	-11.6593
無畏施	-11.6593
五百歲	-11.6593
約別義	-11.6595
相應不斷故	-11.6596
冥合	-11.6597
無想定	-11.6598
真如三昧者	-11.6599
分別法執	-11.6603
不名為覺	-11.6604
理不失	-11.6604
所成之	-11.6604
而有所說	-11.6606
眾生苦	-11.6606
偈中	-11.6607
難見	-11.6607
以二行	-11.6609
就此門中即有二	-11.661
利樂眾生	-11.6613
無餘故	-11.6614
不覺相	-11.6615
於正法	-11.6615
名為退分	-11.6615
無事處	-11.6616
常無常等	-11.6616
苦道	-11.6616
食時	-11.6617
摧伏	-11.6618
無慚	-11.662
上轉門	-11.6622
歡樂	-11.6622
師曰	-11.6623
謂如實不空	-11.6624
若先	-11.6626
初發	-11.6626
契證	-11.6626
等住	-11.6627
諸蓋	-11.6627
二月	-11.6629
慧明	-11.6629
無明義者	-11.663
是故我今	-11.663
無法不	-11.6632
住阿蘭若	-11.6634
抧	-11.6635
簡異	-11.6635
所惱	-11.6637
後之二	-11.6638
並可知	-11.6642
忽起	-11.6644
分限	-11.6645
故彼文云	-11.6647
積聚性故	-11.6647
以一念	-11.6649
離諸過	-11.665
違因	-11.6651
能仁	-11.6652
火大	-11.6655
通難	-11.6655
師尊	-11.6655
諸城門	-11.6655
故名為藏	-11.6657
不難	-11.6657
假者	-11.6658
二千	-11.6658
亦屬	-11.6659
智生因	-11.6659
十心	-11.666
未聞	-11.6663
色體	-11.6664
入水	-11.6665
於餘處	-11.6669
舍利弗等	-11.6669
覺四相	-11.667
熏俱	-11.6672
心外無	-11.6672
修萬行	-11.6673
名為業相	-11.6673
彼有情	-11.6674
趣中	-11.6675
更有何	-11.6676
六月	-11.6678
舉足	-11.6678
無有分齊	-11.6678
無此過	-11.6679
熏彼	-11.6681
集會	-11.6681
天像	-11.6684
十五種	-11.6685
念起	-11.6687
報相	-11.6687
不共無明	-11.6688
還入	-11.6689
一切心識	-11.669
寬宗	-11.6691
憂根	-11.6693
在因	-11.6699
數習	-11.67
近住	-11.6701
得無分別智	-11.6702
等類	-11.6703
於瓶	-11.6703
四界	-11.6704
所出	-11.6704
護戒	-11.6706
自體相熏習者	-11.6706
能摧	-11.6708
修習止觀	-11.6711
第二釋	-11.6714
一一根	-11.6715
失壞	-11.6716
即是真心	-11.6717
別知	-11.6721
如佛弟子	-11.6722
覺體相	-11.6722
判為	-11.6723
法處	-11.6723
那先言王	-11.6724
有通別	-11.6724
深著	-11.6726
諸法差別	-11.6729
變易生死	-11.6729
正直	-11.6731
真正	-11.6732
無力故	-11.6733
何須更	-11.6733
戒門	-11.6734
雙現	-11.6734
不相應心滅	-11.6734
所知故	-11.6735
藏故	-11.6736
諸聖	-11.6736
十界	-11.6736
樹根	-11.6738
作善惡	-11.6738
質直	-11.6739
諸過患	-11.6739
行向	-11.6741
無自體故	-11.6746
普現	-11.6747
行捨	-11.675
二乘之人	-11.6756
藏海	-11.6759
至于	-11.6762
動靜不一	-11.6767
勝利	-11.6771
百餘	-11.6772
說名法身	-11.6772
所望	-11.6776
如是行相	-11.6776
如離	-11.6777
於其中	-11.6782
舉數總標	-11.6786
因緣所起	-11.6786
欲愛	-11.6787
如是展轉	-11.6788
得無生忍	-11.6789
恐有	-11.679
欲塵	-11.6791
三賢位中	-11.6793
日出	-11.6794
所現境界	-11.6796
對辨	-11.6797
燒木	-11.6801
通取	-11.6802
寶印	-11.6802
宣梵大師賜紫沙門臣日稱等奉詔譯	-11.6805
善入	-11.6805
陀尼	-11.6805
是故此中	-11.6807
之首	-11.6813
是故佛	-11.6816
名似因	-11.6817
宿業	-11.6818
亦必	-11.6818
何等為二	-11.6819
上流	-11.6819
一切諸佛菩薩	-11.682
於是中	-11.6821
遍宗法	-11.6824
理性	-11.6828
一切皆悉	-11.683
文可解	-11.6832
是故以下	-11.6834
可重	-11.6835
若佛	-11.6835
十行位	-11.6837
解行發心者	-11.6837
不二故	-11.6839
如影	-11.6839
於中初	-11.6839
二初標門	-11.6842
誠心	-11.6844
諸龍	-11.6844
本成	-11.6846
敵者智	-11.6849
其量	-11.6851
無常之宗	-11.6855
福蘊	-11.6856
死苦	-11.6859
各通	-11.686
皆離	-11.6862
故謂之	-11.6866
僧伽	-11.6867
開通	-11.6868
於此時	-11.6869
染心者	-11.6872
總標門	-11.6872
下別明	-11.6875
業相等	-11.6877
能生長	-11.6879
法華經	-11.688
無果	-11.688
進入	-11.688
身肉	-11.688
從他聞	-11.6881
能燒	-11.6886
現在世	-11.6887
內明	-11.6888
極微細	-11.6893
敬三寶	-11.6899
離絕	-11.69
有二分	-11.69
為障	-11.6904
千劫	-11.6905
一切三寶	-11.6908
論中說	-11.6909
各分	-11.6911
大等	-11.6911
得一切智	-11.6913
內凡	-11.6914
即是無明	-11.6915
前中二	-11.6917
不一不異	-11.6918
亦盡	-11.6919
法身不現	-11.6919
眼中	-11.6922
鏡智	-11.6922
細惑	-11.6924
四聖	-11.6924
敵證智	-11.6926
障智	-11.693
百八	-11.693
謂於前	-11.6931
成生滅	-11.6931
淨品	-11.6934
化人	-11.6934
智度	-11.6938
一世界	-11.6938
所藏	-11.6944
圓證	-11.6945
平等義	-11.6947
且明	-11.6947
彼一切法	-11.6948
所起也	-11.6948
勝分	-11.695
兩處	-11.6953
從我	-11.6956
如是修行	-11.6956
計度	-11.6957
能斷煩惱	-11.6958
故有此	-11.6959
此則約	-11.696
白毫	-11.696
樂見	-11.6963
而實無	-11.6964
大精進	-11.6966
且舉	-11.6966
如經云	-11.6975
諸大眾	-11.6977
真比量	-11.6982
界外	-11.6982
十念	-11.6982
大方便	-11.6982
十卷經云	-11.6984
若人於	-11.6987
胎藏	-11.699
種種想	-11.699
相傳	-11.6991
顯法	-11.6992
生淨信	-11.6993
終盡	-11.6999
無量百千	-11.7
復有何	-11.7001
樂住	-11.7002
何以故下	-11.7007
長水	-11.7008
謂凡夫	-11.701
當知一切法	-11.7012
隨風	-11.7012
同品有	-11.7013
皆云	-11.7015
能隨	-11.7015
各攝一切法	-11.7018
既而	-11.7018
多求	-11.702
日行	-11.7023
妄緣	-11.7025
辨因	-11.7026
聖位	-11.7028
爾時名	-11.7028
既不許	-11.7031
皆約	-11.7032
中論云	-11.7034
闕因	-11.704
立敵俱	-11.7041
相應不相應	-11.7042
是月	-11.7042
王宮	-11.7047
即是大乘	-11.7051
雖則	-11.7051
比量智	-11.7052
慧命	-11.7053
序分	-11.7055
妙色	-11.7059
心解脫	-11.7061
不念我	-11.7061
三摩	-11.7062
巳成	-11.7064
攝之	-11.7066
故云乃至	-11.7068
異處	-11.7069
不定及相違	-11.7069
何差別	-11.7072
結前生後	-11.7073
即起下	-11.7073
無主	-11.7074
始覺同本	-11.7075
生界	-11.7076
遍緣	-11.7076
其果	-11.7079
流行	-11.7081
與樂	-11.7082
法集經	-11.7084
隙	-11.7086
一心本法	-11.7091
此物	-11.7093
厭捨	-11.7095
施食	-11.7095
一時俱	-11.7096
妄取境界	-11.7097
賢位	-11.7097
不相妨	-11.7098
不覺念起	-11.7098
於義異轉	-11.7099
後人	-11.71
無始世來	-11.7101
忽然念起	-11.7101
妄與法違	-11.7102
為無明所染	-11.7102
s	-11.7102
行解	-11.7103
無初相	-11.7104
雖俱	-11.7106
歸佛	-11.7107
非想非非想	-11.7107
遙	-11.7108
萬有	-11.7108
無因無果	-11.7108
同無異有	-11.7109
則無真覺自相可說	-11.711
行根本方便	-11.711
不了一法界義者	-11.711
能生一切染法	-11.711
依無明起差別	-11.711
斯義	-11.7111
十五日	-11.7111
背覺合塵	-11.7111
分覺	-11.7112
眾生依心意意識轉	-11.7112
初發意菩薩等	-11.7112
未信	-11.7113
之罪	-11.7113
若無明斷	-11.7113
名為業識	-11.7114
與體相應	-11.7114
則名不空	-11.7114
不可窮盡	-11.7114
此教	-11.7114
聲聞獨覺地	-11.7115
能見心不相應染	-11.7115
無明頓盡	-11.7115
妄取涅槃	-11.7115
已能	-11.7115
最極微細	-11.7116
復由	-11.7116
餘文可知	-11.7116
非是水滅	-11.7117
向佛智	-11.7117
當知真如自性	-11.7118
一切煩惱皆	-11.7118
彼諸部見	-11.7118
所立法不成	-11.7118
圓圓海	-11.7119
佛眼	-11.7119
徧是宗法性	-11.7119
瓶盆等	-11.7119
若風止滅	-11.712
遠離凡夫不修善根	-11.712
已生已得	-11.7121
復次真如用者	-11.7121
如來滅後	-11.7121
復次眾生初學是法	-11.7121
此意復有五種名	-11.7122
故受之以	-11.7122
未至心源	-11.7122
諸所有事	-11.7123
顯照諸法	-11.7123
於汝意云何	-11.7123
答後問	-11.7123
以說不究竟	-11.7123
平等法身	-11.7124
我之	-11.7124
熾	-11.7124
別配	-11.7125
罪重	-11.7125
舉益勸修	-11.7125
諸佛甚深廣大義	-11.7125
始本不二	-11.7126
以五事治五事	-11.7127
輿	-11.7127
如來藏性	-11.7127
以阿羅漢道	-11.7128
依何等人	-11.7128
非智非識	-11.7128
覺心初起心無初相	-11.7129
由不共故	-11.7129
諸所作者	-11.7129
當念唯心	-11.713
發何等心	-11.713
離於妄見	-11.7131
釋曰後釋文有二初	-11.7131
豈唯	-11.7131
沖	-11.7131
未入正位	-11.7131
自信己性	-11.7132
俱生法執	-11.7133
眾寶莊嚴	-11.7133
此亦不爾	-11.7133
裁	-11.7134
譬如瓦器	-11.7135
亦如耳璫眾寶	-11.7135
異品一分轉	-11.7136
智度論云	-11.7136
阿彌陀佛	-11.7136
猛風	-11.7136
若得淨心	-11.7137
心得自在	-11.7138
以依轉識說為境界	-11.7138
唯一心在	-11.7138
以彼文中	-11.7138
澤	-11.7138
下答有二	-11.7138
勸修利益	-11.7138
色形	-11.7139
惡言	-11.7139
馬鳴大士	-11.7139
入所攝	-11.7139
不相應義	-11.7139
驢	-11.714
買	-11.7141
詳明	-11.7141
無明迷故	-11.7141
能救	-11.7142
肢	-11.7143
▁167	-11.7143
似宗因喻	-11.7143
惡見	-11.7143
後五	-11.7143
自下明	-11.7145
風所吹	-11.7145
奉詔譯	-11.7145
亦不怯弱	-11.7145
菩	-11.7145
▁【【	-11.7145
難勝	-11.7146
無邊識	-11.7147
賓頭盧	-11.7147
酢	-11.7148
善根成熟	-11.7148
由彼為因	-11.7149
林樹	-11.7149
添	-11.7149
璃	-11.715
遠離誹謗	-11.715
如實了知	-11.715
三細六麁	-11.715
威力	-11.715
菩提之道	-11.7151
慰	-11.7152
放光	-11.7152
畔	-11.7152
叫喚	-11.7152
皆無分齊	-11.7153
司	-11.7153
學無學	-11.7153
棄擲	-11.7153
輕慢	-11.7154
依於境界	-11.7154
性真如理	-11.7155
現識亦爾	-11.7155
▁初標示	-11.7155
法門名字	-11.7155
名號	-11.7156
哀愍	-11.7156
嬰	-11.7157
終不得	-11.7157
瓶衣	-11.7157
藤	-11.7157
欽	-11.7157
有四種大義	-11.7158
貪等煩惱	-11.7158
就實	-11.7158
校量	-11.7158
能詮教	-11.7158
火所燒	-11.7158
智相相續相	-11.7158
攻	-11.7158
謂無分別	-11.7159
或在	-11.7159
栖	-11.7159
然此下	-11.716
加護	-11.7161
含二義	-11.7161
互有	-11.7161
臨命終時	-11.7161
囊	-11.7162
識變	-11.7162
暮	-11.7162
竊	-11.7163
寅	-11.7163
踰繕那	-11.7163
江水	-11.7163
悋	-11.7164
此下釋	-11.7166
塗香	-11.7166
一箇	-11.7168
毛頭	-11.7168
神足	-11.7169
在家菩薩	-11.7169
為母	-11.7169
詮表	-11.717
所謂六塵	-11.717
修習善根	-11.717
慨	-11.7171
形容	-11.7171
普徧	-11.7171
偏執	-11.7172
籠	-11.7172
激	-11.7172
其色	-11.7173
茶	-11.7175
便為	-11.7176
囑	-11.7176
果法	-11.7176
四種信心	-11.7177
中亦同此說	-11.7177
兩俱全分	-11.7178
發露	-11.7178
臨終	-11.7179
體一	-11.7181
不思議業用	-11.7182
如世尊說	-11.7183
無垢地	-11.7183
諸過失	-11.7185
亦應爾	-11.7185
憶持	-11.7185
別則	-11.7186
委釋	-11.7186
求死不	-11.7186
諸法唯心	-11.7188
為明無明	-11.7189
勤発	-11.719
淳淨明故	-11.719
若無明滅	-11.7192
佛德	-11.7193
當知亦爾	-11.7194
五枝	-11.7194
無想天	-11.7195
地故	-11.7196
覺樂等	-11.7197
菩提之法	-11.7198
南北	-11.7198
剡浮提人	-11.7199
有實德業	-11.72
獲益	-11.72
根故	-11.7201
施佛	-11.7202
坐禪	-11.7204
大智慧	-11.7205
伎樂	-11.7206
如是多言	-11.7207
不加	-11.7207
修念死	-11.7207
偏舉	-11.7208
而有言說者	-11.721
是名為六	-11.721
不勤	-11.7212
樂不樂	-11.7212
百弓	-11.7213
南山	-11.7215
如意珠	-11.7216
是假名有	-11.7217
損他	-11.7219
於一念	-11.7219
壞失	-11.722
能觀人	-11.722
風輪	-11.722
法自相相違因	-11.7221
應根	-11.7221
廣大義	-11.7221
海東疏	-11.7223
有光明	-11.7223
其狀	-11.7224
益物	-11.7227
瓶無常	-11.7227
有二初總	-11.723
智度論	-11.7232
聲既	-11.7234
客塵	-11.7235
意所許	-11.7235
求索	-11.7236
無相違過	-11.7237
略去	-11.7238
四洲	-11.7238
為如瓶等	-11.724
是第四	-11.724
後學	-11.7243
便起	-11.7243
空王	-11.7244
一向生滅	-11.7247
能順	-11.7247
遍法界	-11.7249
修三昧	-11.7249
覺生相	-11.7249
五神通	-11.725
應物	-11.7251
之信	-11.7251
具足故	-11.7253
未入十信	-11.7254
邪智	-11.7254
可住	-11.7256
判云	-11.7257
名正定聚	-11.7258
聽者	-11.726
兩字	-11.7261
言自許	-11.7263
往復	-11.7264
入位	-11.7265
建立諸法	-11.7267
汝法中	-11.7268
根源	-11.7269
地獄苦	-11.727
無有彼此	-11.7272
普照	-11.7273
純一	-11.7274
能招	-11.7276
或即	-11.7283
如薩婆多	-11.7284
隨自樂	-11.7284
二列釋	-11.7284
戒品	-11.7288
唯識論云	-11.7288
通為一	-11.7291
亦得成	-11.7291
十度	-11.7292
得成立	-11.7293
相應不離	-11.7298
有漏無漏	-11.7302
因滿	-11.7303
辨異	-11.7303
聞熏	-11.7306
不知不覺	-11.731
共同品	-11.731
眾相	-11.7313
像時中	-11.7314
斯為	-11.7315
三如是下	-11.7315
不悟	-11.7316
皆隨	-11.7316
兜率	-11.7317
于時	-11.7319
所不及	-11.7322
無邊際故	-11.7325
此同	-11.7327
更有餘	-11.7329
名目	-11.733
諦義	-11.7332
俱泯	-11.7332
大自在	-11.7336
佛法不許	-11.7336
麁惡	-11.7337
動起	-11.7342
禪枝	-11.7344
諸佛子	-11.7345
久處	-11.7345
那婆	-11.7345
云何如此	-11.7346
當須	-11.7346
類故	-11.7349
於中生	-11.7349
極苦	-11.7349
十四者	-11.735
隨染緣	-11.735
名觀	-11.7351
共同	-11.7353
令歡喜	-11.7357
五住	-11.7357
妄謂	-11.7358
此岸	-11.7359
不成立	-11.7359
學之	-11.736
非識	-11.7363
外色	-11.7365
獨處	-11.7366
生滅之心	-11.7367
勝力	-11.7367
釋曰後指	-11.7368
俗門	-11.7368
言中說	-11.7377
就體	-11.738
麤分別	-11.7381
心與無明	-11.7382
斯事	-11.7384
引生	-11.7386
但顯	-11.7387
無妄染	-11.739
熏發	-11.7391
文持	-11.7393
喜心	-11.7394
皆無常故	-11.7395
樂苦	-11.7396
見烟	-11.7397
不懈	-11.7397
糞穢	-11.7398
異品者	-11.74
後二是	-11.7401
能所分別	-11.7401
自能	-11.7404
彼經云	-11.7404
復次以下	-11.741
不可斷	-11.7412
真如之用	-11.7414
無體性	-11.7415
間地	-11.7416
攝入	-11.7416
瞋恚心	-11.7417
答中有二	-11.7419
攝論云	-11.7421
先略	-11.7422
受道	-11.7422
憂悲苦惱	-11.7422
可證	-11.7426
惡業障	-11.7428
▁初略	-11.7428
名為差別	-11.743
有一實故	-11.7432
現在前	-11.7432
如是差別	-11.7434
亦作	-11.7437
法身體	-11.7437
書本	-11.7437
六通	-11.7439
復次若人	-11.7441
相關	-11.7441
等者意云	-11.7443
現生	-11.7447
廣說故	-11.7447
起事識	-11.7448
五色	-11.7449
外道等	-11.7452
要具	-11.7459
生福	-11.746
陀羅尼門	-11.7461
悟時	-11.7461
愛取有	-11.7462
因喻成	-11.7467
不成故	-11.7467
熏習力	-11.7471
清淨真如	-11.7473
不善根	-11.7475
諸異生	-11.7475
此真如體	-11.7478
無善	-11.7481
行者若	-11.7483
散動	-11.7484
障染	-11.7486
令解脫	-11.7492
行者以	-11.7492
五十四	-11.7494
有七種	-11.7495
入正定	-11.7496
魔鬼	-11.7496
前後差別	-11.7497
差別平等	-11.7498
二類	-11.7498
癡人	-11.7498
蘊等	-11.75
教人	-11.75
然猶	-11.7501
同品中	-11.7501
能造	-11.7502
染淨真如	-11.7502
名為相應	-11.7502
似因智	-11.7503
一尋	-11.7503
即不生滅	-11.7505
果智	-11.7508
身猗	-11.7509
華分	-11.7512
攝主	-11.7512
十法界	-11.7513
散滅	-11.7514
是所依	-11.7517
何意	-11.7519
能制	-11.7521
言一切法	-11.7523
今解	-11.7524
迦葉佛	-11.7525
有十六	-11.7526
前九	-11.7526
更增	-11.7526
即十地	-11.753
如瑜伽	-11.7532
亦不生	-11.7535
空花	-11.7537
準上	-11.7538
則易	-11.7539
r	-11.7543
牒釋	-11.7547
之自相	-11.7548
喜足	-11.7549
望前	-11.7551
生子	-11.7554
內證	-11.7554
為最勝	-11.7558
無後際	-11.7563
其底	-11.7564
如木	-11.7566
慧解脫	-11.7566
假名為	-11.757
十身	-11.7573
能入所入	-11.7574
色空	-11.7577
餘業	-11.758
巳相應	-11.7582
增上業	-11.7584
未盡故	-11.7586
豈同	-11.7586
趣菩提	-11.7588
順結	-11.7589
唯願	-11.7589
日照	-11.7592
指廣	-11.7592
忍樂	-11.7599
一切法無我	-11.7602
不移	-11.7602
自業	-11.7602
非宗過	-11.7603
見我	-11.7607
是不相應	-11.7607
上佛	-11.7608
之像	-11.7611
有四義	-11.7615
和上	-11.7625
夢覺	-11.7627
現量得	-11.7629
行緣	-11.763
不變故	-11.7633
二初標列	-11.7634
巳明	-11.7634
不開	-11.7635
真如體相	-11.7636
則斷	-11.7637
異相門	-11.7638
亦不可說	-11.764
生三細	-11.764
是故如來	-11.7643
積聚性	-11.7644
大智慧光明	-11.7649
我常	-11.7653
有法之上	-11.7654
若汝言	-11.7654
藍	-11.7657
已出	-11.7657
無不覺故	-11.7657
業果不失	-11.766
如是等義	-11.766
淨想	-11.7664
以表	-11.7664
通約	-11.7667
無實體	-11.767
自共相	-11.7679
報化色	-11.7681
徧無	-11.7683
三科	-11.7688
三約	-11.769
以此識	-11.7694
雖皆	-11.7697
從外	-11.7697
二演義疏文	-11.77
如是種種	-11.7704
所言觀者	-11.7707
攀	-11.7711
欲行	-11.7712
二種生滅	-11.7713
若人說	-11.7715
水非動性	-11.7715
先解	-11.7717
復次生滅因緣者	-11.7717
於有情	-11.7717
依此法身說名本覺	-11.7722
觀四大	-11.7722
窮其	-11.7725
別因	-11.7728
情有理無	-11.7728
我見愛染煩惱	-11.7729
人無我	-11.7729
辨之	-11.773
謂加	-11.773
階降	-11.773
亦名分離識	-11.7731
能熏習無明	-11.7731
則知心相生住異滅	-11.7732
欲退	-11.7732
非實非德非業	-11.7732
云何熏習起淨法不斷	-11.7732
對至即現	-11.7732
是現識因	-11.7733
非空決定住法	-11.7733
止觀雙運	-11.7734
若於是處	-11.7734
離倒	-11.7734
麁中之細	-11.7735
違他順自	-11.7736
一心者名如來藏	-11.7738
達分	-11.7739
丈	-11.7739
三界虗偽	-11.7739
大恩	-11.7739
亦可下	-11.7739
以真如自在用義故	-11.774
能成此信	-11.774
外別無	-11.7741
隨無明緣	-11.7741
相有無量好	-11.7741
復次覺體相者	-11.7741
為依止	-11.7742
則有染相	-11.7742
約體絕相	-11.7742
所謂能現一切境界	-11.7742
次說立義分	-11.7742
虛空定	-11.7743
歸命盡十方	-11.7743
肝	-11.7743
以同體智力故	-11.7743
謂一切法真如平等不增減故	-11.7743
染心者有六種	-11.7743
以念相應不斷故	-11.7743
夜摩	-11.7743
此阿梨耶識當何決擇	-11.7744
若離於念	-11.7744
隨所示現	-11.7744
無前境界	-11.7744
不瞋	-11.7744
一一皆各各	-11.7744
水相風相不相捨離	-11.7744
至心源時	-11.7745
以熏習因緣力故	-11.7745
是人住下品	-11.7745
二乘觀智	-11.7746
念無自相不離本覺	-11.7746
心自在地	-11.7747
以隨順法性無斷絕故	-11.7747
靈鑒	-11.7747
若心滅者云何相續	-11.7747
不知轉識現故	-11.7748
無明之相亦無有始	-11.7748
無上大覺	-11.7748
牢固	-11.7749
乃至小罪	-11.7749
即得隨順入真如門	-11.7749
少分而見	-11.7749
依心自在地能離故	-11.7749
具示三大	-11.7749
略說信心有四種	-11.7749
脩多羅說	-11.7749
常不休廢	-11.775
能起厭苦之心	-11.775
離名種等所有分別	-11.775
自然歸順真如法故	-11.775
契經異說	-11.775
帶質	-11.775
畢竟空寂	-11.775
佛告文殊師利	-11.7751
依於動心能見相故	-11.7751
此用有二種	-11.7751
一切染法不相應故	-11.7752
以阿那含道	-11.7752
修諸福德	-11.7752
鵂	-11.7752
或學他發心	-11.7752
非可作相	-11.7752
苞	-11.7752
心之生滅	-11.7752
若因滅則緣滅	-11.7752
逗	-11.7753
攝末歸本	-11.7753
虛偽	-11.7753
斯之謂也	-11.7753
細中之麤	-11.7753
立敵俱許	-11.7754
則有過恒沙等諸淨功德相義示現	-11.7754
案	-11.7754
香味	-11.7754
依境界緣	-11.7754
娛樂	-11.7755
言真如者亦無有相	-11.7755
所言不覺義者	-11.7755
六染心	-11.7756
疎遠	-11.7756
諳	-11.7756
韻	-11.7756
神力自在	-11.7756
若無人知	-11.7756
正同	-11.7757
若從坐起	-11.7757
審察	-11.7757
則有不見之相	-11.7757
依於名字	-11.7758
无	-11.7758
入正位	-11.7758
罔	-11.7758
八種識	-11.7759
俱無形相	-11.7759
種種雕	-11.776
寶𠕋	-11.776
則知法界一相	-11.776
直顯	-11.776
事事無礙	-11.776
寶塹	-11.7761
皆應止觀俱行	-11.7761
罵辱	-11.7761
奚	-11.7761
不須重釋	-11.7761
慈悲喜捨	-11.7761
獨影	-11.7762
剪	-11.7763
斬	-11.7763
那羅延	-11.7763
雞	-11.7763
顯因同品	-11.7763
所有功德	-11.7763
妙高	-11.7763
是正念者	-11.7764
復次覺與不覺	-11.7764
較	-11.7764
秘	-11.7764
最上授所問經	-11.7765
心無懈怠	-11.7765
梯	-11.7765
經多劫	-11.7765
七重寶	-11.7765
鋒	-11.7765
習種性	-11.7765
依諸凡夫	-11.7766
修諸波羅蜜	-11.7766
衛世師	-11.7766
難行苦行	-11.7766
歇	-11.7767
六七二識	-11.7767
初標立	-11.7768
三者境界相	-11.7768
地獄餓鬼畜生	-11.7768
八萬由旬	-11.7769
昭然	-11.7769
摸	-11.7769
沼	-11.7769
那由他	-11.777
染淨等法	-11.777
便成正覺	-11.777
暗鈍	-11.777
涼	-11.777
雄	-11.777
釋提桓因	-11.7771
f	-11.7772
訶梨跋摩造姚秦三藏鳩摩羅什譯	-11.7772
隔檀	-11.7772
佛告阿難	-11.7772
輕賤	-11.7772
古德云	-11.7772
無常苦空無我	-11.7772
身語意	-11.7772
掘	-11.7772
愛心	-11.7773
頓漸	-11.7773
雖有染心	-11.7773
羼提	-11.7773
三巳說下	-11.7775
烈	-11.7775
疲勞	-11.7775
何等信心	-11.7775
咽喉	-11.7775
貪嗔	-11.7776
問訊	-11.7776
艱	-11.7776
▁初摽	-11.7776
逃	-11.7776
如攝論云	-11.7776
髀	-11.7777
陸	-11.7777
皮持	-11.7777
悶	-11.7777
眾緣和合	-11.7777
鬚髮	-11.7777
非無因	-11.7778
債	-11.7778
城邑	-11.7779
於其中間	-11.7779
下論說	-11.7779
感彼中生	-11.7779
恒沙德	-11.7779
貨	-11.7779
惓	-11.7779
器仗	-11.7779
寺沙門	-11.778
人天二乘	-11.778
雌	-11.778
良藥	-11.7781
勝鬘經云	-11.7781
往來生死	-11.7781
篋	-11.7781
不善律儀	-11.7782
訶責	-11.7782
謂若所作	-11.7782
久習	-11.7783
其舌	-11.7783
康	-11.7783
佛在世	-11.7783
入滅盡定	-11.7783
汗	-11.7784
削	-11.7784
四如意足	-11.7784
善不善無記	-11.7784
信法	-11.7784
踊	-11.7785
斤	-11.7785
醫王	-11.7785
豈況	-11.7786
貧賤	-11.7786
生死中	-11.7787
費	-11.7787
如是略說名	-11.7788
院	-11.7789
十二緣生	-11.7789
勝道	-11.7789
染淨差別	-11.7789
毀壞	-11.7789
奉施	-11.7789
拍	-11.7789
聖弟子	-11.779
如母	-11.779
慈雲	-11.779
転	-11.779
志求	-11.779
有無等	-11.7791
儀式	-11.7791
螫	-11.7792
生他解	-11.7792
戴	-11.7792
剝	-11.7793
也審	-11.7793
精神	-11.7793
九品	-11.7793
一一位位	-11.7793
額	-11.7794
洪	-11.7794
受具足戒	-11.7794
本熏	-11.7795
自然常住	-11.7795
誦經門	-11.7796
已除	-11.7796
」「	-11.7797
細尋	-11.7798
炎熱	-11.7798
三不善根	-11.7798
㖡	-11.78
而得成立	-11.7801
顯揚	-11.7801
真如本覺	-11.7801
」《	-11.7801
瓶衣等	-11.7802
但標	-11.7802
景	-11.7803
逆風	-11.7803
捧	-11.7803
淨居天	-11.7803
非根覺	-11.7804
雙標	-11.7805
毘舍	-11.7805
如實修行等	-11.7807
不能成就	-11.7807
無所不作	-11.7811
六十四	-11.7811
若爾云何	-11.7811
大火	-11.7811
臘	-11.7811
斯由	-11.7811
無明滅時	-11.7815
喜悅	-11.7816
入佛法	-11.7816
器界	-11.7818
唾	-11.7818
自然熏習	-11.7818
下轉門	-11.7821
釋意轉	-11.7821
此並	-11.7822
諸聖人	-11.7822
若有若無	-11.7822
而不覺知	-11.7823
偈說	-11.7823
第七句	-11.7823
法力	-11.7823
放光明	-11.7824
非勤勇	-11.7824
嘶	-11.7828
喝	-11.7828
凡夫境界	-11.7829
則不復	-11.7829
心品	-11.783
長遠	-11.7832
分別諦	-11.7835
重成	-11.7836
邪思惟	-11.7837
周盡	-11.7837
一微塵	-11.7838
穢惡	-11.7838
修般若波羅蜜多	-11.784
凡聖染淨	-11.784
則不見	-11.7841
發是心	-11.7842
中初標	-11.7843
師主	-11.7843
起不善業	-11.7844
心起分別	-11.7844
古人	-11.7845
金寶	-11.7846
若菩薩摩訶薩	-11.7846
本性清淨	-11.785
念念分別	-11.7851
承事供養	-11.7852
何別答	-11.7853
攝世間法	-11.7854
滅定	-11.7856
一異等	-11.7857
此破	-11.7859
此說是為	-11.7859
法如是故	-11.7859
何可	-11.7861
二利行	-11.7862
一子	-11.7863
邪法	-11.7865
成他	-11.7866
筋骨	-11.7867
於過去	-11.7868
無數時	-11.7869
法癡	-11.787
方圓	-11.7873
為正宗	-11.7874
下半	-11.7874
初牒章	-11.7876
多欲	-11.7877
麁執	-11.7877
第一心也	-11.7878
異後	-11.7878
別列	-11.7878
法性宗	-11.7879
應得罪	-11.788
故但云	-11.788
▁初標徵	-11.7884
當待	-11.7886
第二轉	-11.7887
三大之義	-11.7888
顯大乘	-11.7888
由此義故	-11.789
無濫	-11.7891
要當	-11.7894
顕因	-11.7895
結上	-11.79
至不至	-11.7901
所依總相	-11.7901
就第二	-11.7902
宗為能立	-11.7903
通所依	-11.7904
十住位	-11.7907
宗本法	-11.7907
亦不能盡	-11.7909
前六識	-11.7909
後復	-11.7911
本末不覺	-11.7913
決定不退	-11.7913
九十八	-11.7914
凡夫法	-11.7915
不流轉	-11.7919
餘經	-11.792
業種	-11.792
遣除	-11.7921
大般若	-11.7922
知他心	-11.7923
天處	-11.7923
惡事	-11.7923
其所立	-11.7925
然準	-11.7926
有幾	-11.7927
勤修習	-11.7927
無顛倒	-11.7929
聲所作	-11.7929
糞掃衣	-11.7936
亂住	-11.7937
觀義故	-11.7937
為正因	-11.7938
太虛	-11.7941
修善行	-11.7943
如實見	-11.7943
於異品中	-11.7944
一倍	-11.7945
寧知	-11.7946
有法差別相違因	-11.7948
有量	-11.7949
盡形	-11.7951
甚深義	-11.7951
明闇	-11.7951
是麁	-11.7952
亦如此	-11.7955
色界中	-11.7956
後重所入	-11.7957
不同外道	-11.7959
四相違因	-11.7962
業盡	-11.7962
立聲常宗	-11.7962
成業識	-11.7963
天使	-11.7964
集滅	-11.7965
如尊者	-11.7966
重辨	-11.7967
標其名	-11.7968
於異品有	-11.7969
四角	-11.7978
盆	-11.7978
勸觀	-11.7979
此心性	-11.7981
自殺	-11.7982
不淨相	-11.7983
五釋	-11.7985
師資	-11.7987
義亦如是	-11.7988
唱言	-11.7989
若緣	-11.7989
設難	-11.7989
遣者	-11.7991
觀苦	-11.7993
聲是所作	-11.7996
分相門	-11.7997
然此菩薩	-11.7999
轉法	-11.7999
來求	-11.8
自然智	-11.8003
以慈	-11.8004
大有句	-11.8006
證義	-11.801
是異品	-11.801
阿羅	-11.8011
遣彼	-11.8012
八戒	-11.8013
能害	-11.8014
以捨	-11.8014
劣人	-11.8018
習近	-11.8019
力士	-11.802
難忍	-11.8021
非行	-11.8023
麁分	-11.8023
於愛	-11.8023
推其	-11.8026
珠鏡	-11.8027
生貪	-11.8032
常德	-11.8034
同體智	-11.8037
泥洹道	-11.8042
如是三種	-11.8043
命終生	-11.8044
三昧力	-11.8046
菩提心者	-11.8048
我今答	-11.8048
智光	-11.805
別境	-11.8051
身語	-11.8056
安處	-11.8056
受施	-11.8057
即五意中	-11.8058
白色	-11.806
無障礙故	-11.8061
以不達	-11.8061
化用	-11.8062
要以	-11.8062
念念相續	-11.8063
受戒	-11.8064
若施	-11.8065
宗因喻三	-11.8066
以真如法	-11.8068
一切智人	-11.8069
如蓮華	-11.807
無所有事	-11.8071
深義	-11.8073
正宗分	-11.8073
未滅	-11.8074
成劫	-11.8075
照了	-11.8078
合中	-11.8079
不謗	-11.8079
通結	-11.8088
以顯真如	-11.8092
無遺	-11.8093
自心所現	-11.8094
他苦	-11.8095
仁王經云	-11.8095
施門	-11.8095
鏡義	-11.8096
自量	-11.8099
俱句	-11.8101
後起	-11.8104
緣熏習	-11.8104
五戒	-11.8105
即因也	-11.8106
無不皆	-11.8107
色心等	-11.8108
非常住	-11.8109
亦合	-11.811
清淨施	-11.811
所有分別	-11.8111
取色	-11.8112
通顯	-11.8113
釋曰後依	-11.8119
通因果	-11.8121
何曾	-11.8121
法之自相	-11.8123
如實觀	-11.8128
同喻云	-11.8129
念死	-11.8129
明無明	-11.8131
如是諸佛	-11.8132
病緣	-11.8134
燒熱	-11.8137
於斯	-11.814
依信力	-11.8145
隨一所依不成	-11.8147
觀滿	-11.8149
有三分	-11.8151
寶喻	-11.8153
四相違中	-11.8154
源本	-11.8157
無生忍	-11.8157
為量果	-11.8158
瓶盆	-11.816
青等	-11.8161
相似智	-11.8162
所立之宗	-11.8163
隨一一	-11.8164
若將	-11.8164
皆須	-11.8166
諸惡道	-11.8167
忘失	-11.8169
心懷	-11.8169
不須說	-11.817
二是故下	-11.817
置於	-11.817
於第四禪	-11.8171
雖實	-11.8171
四月	-11.8171
加力	-11.8172
餘九	-11.8173
兩段	-11.8173
積聚他	-11.8174
推之	-11.8176
說四諦	-11.8181
滅無明	-11.8181
猛火	-11.8183
入死	-11.8186
此等皆是	-11.8186
不執	-11.8187
體真如	-11.8187
一切眾生心	-11.819
揀之	-11.8193
必非	-11.8195
穢污	-11.8196
量所量	-11.8198
修治	-11.8202
歸趣	-11.8202
師長	-11.8203
那先言然	-11.8206
勝論立	-11.8206
寶性	-11.8207
眾所	-11.8211
七識中	-11.8212
心原	-11.8215
自壞	-11.8215
不忍	-11.8215
非究竟	-11.822
以去	-11.8225
作佛事	-11.8225
因待	-11.8226
之虫名	-11.8227
異求	-11.8228
自性身	-11.8231
法界性	-11.8233
耳鼻	-11.8234
十住菩薩	-11.8235
普皆	-11.8236
又亦可	-11.8241
應合	-11.8242
自性淨	-11.8243
故稱為	-11.8243
唯識等	-11.8243
變改	-11.8244
救拔	-11.8249
非要	-11.825
之執	-11.8251
犯相符	-11.8251
我昔	-11.8254
得法空	-11.8255
普攝	-11.8257
次後	-11.8259
有學	-11.8259
小乘教	-11.826
法雲	-11.8265
何處有	-11.8267
極惡	-11.8267
其報	-11.8268
釋曰後依門	-11.8269
故說有	-11.827
有智慧	-11.8272
依教	-11.8274
本覺真如	-11.8279
火熱	-11.8284
無前際	-11.8286
惡處	-11.8286
四流	-11.829
起厭求	-11.8293
攝在	-11.8296
為自相	-11.8298
勝法	-11.8298
遍照法界義	-11.83
應常	-11.8301
妨難	-11.8304
不近	-11.8304
先業	-11.8306
釋曰後結	-11.8306
受無明熏	-11.8308
不護	-11.8308
品說	-11.8315
起盡	-11.8315
遮斷	-11.8319
宗鏡	-11.8321
引經證	-11.8323
次前	-11.8324
相翻	-11.8325
其間	-11.8326
破我	-11.8334
覺異相	-11.8336
一者總標	-11.8336
能出生	-11.8339
遍身	-11.8343
雙結	-11.8343
能遍	-11.8348
是故此義唯佛能知	-11.8349
池中	-11.8349
有實等	-11.8352
依空	-11.8354
一切更	-11.8354
無殊	-11.8355
與此相違	-11.8356
不對	-11.8357
生苦樂	-11.8358
而不取	-11.8359
雙現前故	-11.8359
神呪門	-11.8362
先德	-11.8364
頓入	-11.8364
并前	-11.8364
無明所動	-11.8364
亦不立	-11.8365
具足轉	-11.8374
恒流	-11.8377
相例	-11.838
心念法異	-11.8381
佛果位	-11.8384
菩薩盡地	-11.8384
成立有法	-11.8385
菩薩地	-11.8389
火焰	-11.8389
妄作境界義故	-11.839
先宗後因	-11.8391
麤念相	-11.8392
有大智用	-11.8392
亦取如來地	-11.8393
能作一切勝妙境界	-11.8394
依色	-11.8394
曾有	-11.8395
常慘菩薩	-11.8395
離見則無境界	-11.8395
名似立宗	-11.8396
異類等解	-11.8396
依是義故	-11.8397
法執相應	-11.8398
圓音一演	-11.8398
欠	-11.8398
顯因同品決定有性	-11.8399
問意可知	-11.84
以依動故能見	-11.84
初說因緣分	-11.84
有生有滅	-11.8402
顯其礙義	-11.8402
攝善法戒	-11.8402
即熏習妄心	-11.8403
問答決疑門	-11.8404
金鼓經	-11.8404
有釋	-11.8404
不稱法性	-11.8404
若心體滅	-11.8405
根本業不相應染	-11.8405
是故得名一切種智	-11.8405
此二皆	-11.8406
生二種相	-11.8407
依於此心顯示摩訶衍義	-11.8407
無明為因生三細	-11.8407
離心則無六塵境界	-11.8407
與彼本覺不相捨離	-11.8407
歸敬述意	-11.8407
同體大悲	-11.8407
以一切時任運而起常在前故	-11.8408
然起人天種子	-11.8408
綜	-11.8408
謂一切諸佛所證之道	-11.8409
入淨心地隨分得離	-11.8409
受於一切身心等苦	-11.841
開示諸有問者未了義故	-11.841
言相應義者	-11.841
以如實知無前境界故	-11.841
穢土	-11.841
依無明熏習所起識者	-11.841
皆令究竟無餘涅槃	-11.8411
本在因地	-11.8411
生於彼已受下品	-11.8411
謂離一切法差別之相	-11.8411
唯佛能了	-11.8412
釋曰後答有二初結頌	-11.8412
法性真如海	-11.8412
離於施作	-11.8412
是我見有二種	-11.8412
真如熏無明	-11.8412
求學如實行故	-11.8412
乃至久遠熏習力故	-11.8412
猶如明鏡現於色像	-11.8412
胡	-11.8413
非凡夫能知	-11.8413
傲	-11.8413
必定不退信心故	-11.8413
謂於是處	-11.8413
名為識藏	-11.8413
如是信心成就得發心者	-11.8413
體備一切功德之法	-11.8414
對治凡夫住著世間	-11.8414
依於妄執	-11.8414
一毛	-11.8415
四寶所成	-11.8415
入大乘道	-11.8415
終不為惱	-11.8415
色離識	-11.8415
及不思議熏之所成就	-11.8415
捨麁分別	-11.8415
謂止一切境界相	-11.8415
自畏不能常值諸佛	-11.8415
能捨二乘怯弱之見	-11.8416
善惡之業	-11.8416
謂以專意念佛因緣	-11.8416
妄心熏無明	-11.8416
依士釋	-11.8416
寂而常照	-11.8416
遮非表	-11.8417
值遇	-11.8417
若止觀不具	-11.8417
復次真如者	-11.8417
迷時	-11.8417
無去無來	-11.8417
亦不得隨心外念境界	-11.8417
智淳淨故	-11.8418
千億	-11.8418
大願平等方便	-11.8418
評	-11.8418
冲	-11.8418
所謂自有熏習之力	-11.8419
或為世間事務種種牽纏	-11.8419
正念正知	-11.8419
捨壽命後	-11.8419
修習觀者	-11.8419
本無今有	-11.842
以真如法常熏習故	-11.842
迦旃延	-11.842
爾時世尊告	-11.842
所言法者謂眾生心	-11.842
則無見相	-11.842
云何修行止觀門	-11.842
經一萬劫	-11.8421
妄心熏習義有二種	-11.8421
無情	-11.8421
隨順得入真如三昧	-11.8421
頂骨	-11.8421
云何有信無信	-11.8422
具引	-11.8422
不相違背	-11.8423
遞	-11.8423
須臾頃	-11.8423
連續	-11.8424
現鏡識	-11.8424
速成不退	-11.8424
分明顯說	-11.8425
陽焰	-11.8425
取要言之	-11.8425
以見始故	-11.8426
不可說不可說	-11.8426
婆婆	-11.8426
鳥獸	-11.8426
好醜	-11.8426
種種勝妙	-11.8426
釋迦牟尼佛	-11.8426
五十位	-11.8426
所修善根	-11.8427
無對礙	-11.8427
無量前後差別	-11.8427
有其二義	-11.8427
淵	-11.8427
妄心則滅	-11.8427
字事差別	-11.8427
輪回	-11.8427
能取所取	-11.8427
現身說法	-11.8427
纖毫	-11.8428
具足性功德	-11.8428
檀波羅蜜	-11.8428
因遍非有	-11.8428
有三初徵	-11.8428
串	-11.8428
餘如初廣說	-11.8429
秀	-11.8429
善說法要	-11.8429
不覺起念	-11.8429
三重塹外	-11.843
心不懈退	-11.843
毘尼	-11.843
逆罪	-11.8431
豪	-11.8431
宮中	-11.8431
諸無質礙	-11.8431
之藏	-11.8431
四寶為塼	-11.8431
次下別釋	-11.8431
幽致	-11.8432
方寸	-11.8432
鎖	-11.8432
以立其名	-11.8432
裹	-11.8433
酸	-11.8433
决	-11.8433
使人愛著	-11.8433
後段	-11.8434
噵	-11.8434
如四卷經	-11.8434
青黃赤白	-11.8434
廣二由旬	-11.8435
初學菩薩	-11.8435
達俗	-11.8435
䟦	-11.8435
戰鬪	-11.8435
飲食衣服	-11.8437
勤加	-11.8437
此論所明	-11.8437
劫盜	-11.8438
茫	-11.8438
菩薩造論	-11.8438
王又問那先	-11.8438
或但	-11.8439
二牒釋	-11.8439
燕	-11.8439
hā	-11.8439
▁184	-11.8439
猶如極微	-11.8439
喧動	-11.844
荷負	-11.844
十信初心	-11.844
則有淨用	-11.844
害他	-11.8441
天神	-11.8441
開導	-11.8441
騎	-11.8441
調御	-11.8441
丘	-11.8442
燒煮	-11.8442
卷第六	-11.8443
膿血	-11.8443
龍獸	-11.8443
凌	-11.8444
而水非動性	-11.8444
昭	-11.8444
三十三種	-11.8444
是中罪人	-11.8444
六地	-11.8444
自性清淨心因無明風動	-11.8445
星宿	-11.8445
砂	-11.8445
以是緣故	-11.8446
優波離	-11.8446
獵	-11.8446
眉	-11.8446
慎勿	-11.8446
修菩薩行	-11.8447
遣拂	-11.8447
滋	-11.8448
如芭蕉	-11.8448
燼	-11.8448
川	-11.8448
隆	-11.845
算數	-11.845
調達	-11.845
如寶雲經說	-11.845
謂心念法異	-11.8451
若如來滅後	-11.8451
無慚無愧	-11.8452
劫中間	-11.8452
礦	-11.8452
瘂	-11.8452
亦猶	-11.8453
光炎	-11.8453
色無礙自在	-11.8453
即見	-11.8453
如前已說	-11.8453
受大苦	-11.8454
意意識轉	-11.8454
三無數劫	-11.8454
叢	-11.8454
伽羅	-11.8455
蠲除	-11.8457
其無常性	-11.8459
在知境	-11.846
意云何	-11.846
共合	-11.846
心所見者	-11.846
若遇	-11.8461
無明之相	-11.8461
南剡浮提	-11.8462
脣	-11.8462
諸有情類	-11.8463
那先言譬如人	-11.8464
沒馱	-11.8464
擯	-11.8465
乖真	-11.8466
了別識	-11.8466
以有不覺妄想心故	-11.8467
無間獄	-11.8467
受種種苦	-11.8467
經部師	-11.8468
當知唯心	-11.8468
解脫分	-11.8468
棲	-11.8469
世俗諦	-11.8469
風起	-11.847
鑁	-11.8472
立常宗	-11.8472
住胎	-11.8473
清淨法界	-11.8474
禽	-11.8474
青黃	-11.8474
生牙	-11.8475
色究竟天	-11.8476
影兼	-11.8476
於色等義	-11.8476
以須陀洹道	-11.8476
疑情	-11.8477
文顯	-11.8477
諸法無性	-11.8478
下中上	-11.848
愛憎	-11.8481
二初牒指	-11.8481
想蘊	-11.8482
出現於世	-11.8484
好惡	-11.8484
八地菩薩	-11.8484
但隨眾生	-11.8485
能立能破	-11.8486
愁憂	-11.8486
見諸境界	-11.8486
常想	-11.8486
鼓聲	-11.849
由此道理	-11.8491
適意	-11.8492
不共法	-11.8494
復次善男子	-11.8495
一切身分	-11.8497
終歸	-11.8498
因云所作性故	-11.85
次立正	-11.8502
此土	-11.8503
此下有二	-11.8503
非異義	-11.8503
是喻過	-11.8503
說名為業	-11.8504
皆是現量	-11.8505
以無明力	-11.8506
如阿難	-11.8506
以此妄心	-11.8507
無憂	-11.8508
謂根本無明	-11.8509
頂上	-11.851
不停	-11.851
何容	-11.851
世界無邊	-11.8511
幻師	-11.8514
諸佛所證	-11.8516
若了	-11.8516
不相應義者	-11.8518
六度萬行	-11.8523
常非所作	-11.8526
唯證相應故	-11.8526
減少	-11.8527
得無念者	-11.8528
嚴身	-11.8529
若依此	-11.8529
須陀洹道	-11.853
者為作	-11.8531
瑜伽論云	-11.8532
照耀	-11.8532
因明正理	-11.8532
內路	-11.8533
罪過	-11.8535
非一義	-11.8536
小乘外道	-11.8536
求涅槃	-11.8538
出法體	-11.8539
無涯	-11.8543
不周	-11.8544
亦不定	-11.8545
徹過	-11.8545
有其三	-11.8546
不應理	-11.8547
貪心	-11.8547
約機	-11.8548
髓	-11.8548
自下第二釋	-11.855
楞伽契經中作如是說	-11.855
能治之	-11.8557
一切妄法	-11.8558
因緣分中	-11.8559
僧祇	-11.856
隨力	-11.856
十九者	-11.8561
後代	-11.8561
十四過	-11.8562
四十八	-11.8563
普賢行	-11.8564
小大	-11.8567
因緣所生	-11.8569
譬如大海	-11.8573
於生死中	-11.8574
為所乘	-11.8574
法身無相	-11.8574
覺不覺義	-11.8574
止成	-11.8575
夫言	-11.8577
如是學者	-11.8578
微細生滅	-11.8582
胎生	-11.8582
世間所有	-11.8582
福力	-11.8584
結縛	-11.8585
第一句	-11.8586
受果報	-11.8588
梵云	-11.859
自然業	-11.8594
俱轉故	-11.8596
諸法自體	-11.8597
伽藍	-11.86
臨死	-11.86
他物	-11.86
相續識滅	-11.8604
於彼彼	-11.8606
種種諸惡	-11.8608
生瞋	-11.8608
何得云	-11.8609
宗違因	-11.8609
若能如是	-11.8609
諸沙門	-11.861
五十一種位	-11.8611
如意寶	-11.8612
如是應知	-11.8613
華果	-11.8616
此文有二	-11.8617
非第一義	-11.862
是阿羅漢	-11.8621
名為不變	-11.8622
熏生	-11.8622
所成立義	-11.8623
珠寶	-11.8624
以此二義	-11.8625
後得智中	-11.8626
見一處	-11.8628
令諸眾生離	-11.8628
中自有	-11.8629
行滿	-11.863
雖有無量	-11.8632
如是觀察	-11.8638
下一句	-11.8638
善取	-11.864
了了	-11.8642
勝益	-11.8643
畢竟無有	-11.8646
云何差別	-11.8647
同喻如瓶	-11.8649
照物	-11.8656
指上	-11.8659
業識熏習	-11.8659
自不許	-11.8659
有為相	-11.8662
是故應當	-11.8662
又現見	-11.8663
使使	-11.8667
顯果	-11.8669
空無所有	-11.8669
法身不現故	-11.867
初列名	-11.8672
通舉	-11.8674
遮止	-11.8674
之所以也	-11.8685
高大	-11.8686
元來	-11.8687
疑悔	-11.8691
不可依	-11.8693
業所生	-11.8694
不思業	-11.8696
本論中	-11.8698
無明闇	-11.87
五力	-11.8702
向菩提	-11.8702
不可稱	-11.8704
勝餘	-11.8705
水體	-11.8705
權智	-11.8706
根所執	-11.8707
此舉喻	-11.871
即是涅槃	-11.8711
抑亦	-11.8711
劫盡	-11.8712
此相續識	-11.8715
改變	-11.8716
正在	-11.8718
應禮	-11.872
今於此中	-11.8728
唯據	-11.8729
當住	-11.873
無改	-11.873
菩薩戒	-11.873
不散亂	-11.8734
熏習義者	-11.8736
摩多	-11.8737
與色等	-11.874
問何以	-11.8741
非勤	-11.8741
出障	-11.8748
所為人	-11.8749
是聖人	-11.8749
起不斷絕	-11.8751
別釋散說	-11.8752
比丘僧	-11.8752
如是二法	-11.8753
三十三過	-11.8754
復還	-11.8754
後五三	-11.8755
不思議業相者	-11.8756
即此論中	-11.8758
初禪中	-11.8761
名共相	-11.8762
安坐	-11.8763
敬愛	-11.8765
未解脫	-11.8768
実有	-11.8768
妙香	-11.8768
前過	-11.8769
汝說我	-11.8769
欲染	-11.8771
生緣老死	-11.8773
共行	-11.8778
讀之	-11.878
無有自體	-11.8781
有四種法	-11.8783
別對	-11.8783
轉時中	-11.8785
彼論云	-11.8789
見四諦	-11.8789
諸法自相	-11.8792
雙立	-11.8792
說三乘	-11.8793
未究竟	-11.8793
以電	-11.88
所爭	-11.8801
根器	-11.8801
不障	-11.8801
沈沒	-11.8802
見聞等	-11.8802
今何	-11.8802
增數	-11.8804
種種功德	-11.8807
超出	-11.8809
遍非有	-11.8811
得不退轉	-11.8812
無有邊	-11.8812
辯相	-11.882
山處	-11.882
闕失	-11.8823
冥熏	-11.8825
分散	-11.883
前後際	-11.8831
並非	-11.8832
散亂心	-11.8833
良以下	-11.8837
能見心	-11.8839
異轉	-11.884
定異	-11.8853
隨身	-11.8857
相續相也	-11.8858
如前引	-11.8864
不廢	-11.8865
願諸眾生得	-11.8866
性不可得	-11.8866
得無量	-11.8868
作此說	-11.8868
妄現	-11.887
畢竟斷	-11.8876
真修	-11.8878
示利益	-11.888
如楞伽云	-11.8888
法塵	-11.8888
如下說	-11.8897
如毒	-11.89
故云遠離	-11.8904
俱絕	-11.8904
金光明經	-11.8905
八地巳上	-11.8905
此謂為	-11.8905
有差別故	-11.8906
惡魔	-11.8907
一切時處	-11.891
牒名	-11.8912
死生	-11.8913
當捨	-11.8914
一年	-11.8918
邪宗	-11.8918
以性	-11.8918
彼文云	-11.8923
生死染法	-11.8923
譬如種種瓦器	-11.8924
唯一真	-11.8927
覺慧	-11.8929
中加	-11.893
有六句	-11.893
十二月	-11.8935
四段	-11.8939
不可顯	-11.894
緣生法	-11.8946
因明師	-11.8946
今望	-11.8946
三僧祇	-11.8948
初發菩提心	-11.8955
寶山	-11.8956
戒清淨	-11.8958
兩法	-11.8958
故不能了	-11.8961
亦無邊	-11.8964
醫藥	-11.8966
致敬	-11.8967
對治行	-11.8968
輕毀	-11.898
且據	-11.8981
無記心	-11.8983
諸三昧	-11.8987
菩提樹下	-11.8989
本業經	-11.8989
所釋	-11.8989
有所作性	-11.899
唯證相應	-11.8996
瓶聲	-11.8996
即是意識	-11.8996
豈成	-11.8998
之所由	-11.8999
備有	-11.9003
次第轉	-11.9009
假相	-11.9021
無多	-11.9027
如空華	-11.9027
之疑	-11.9027
但是一	-11.903
花香	-11.9032
他許	-11.9035
與生滅和合	-11.9036
境界之相	-11.9036
小果	-11.9037
爾所	-11.9042
大小乘	-11.9043
出不定	-11.9048
意許差別	-11.9048
如來功德	-11.9049
業惑	-11.9054
示摩訶衍體	-11.9054
標體	-11.9056
能攝一切	-11.9057
決疑	-11.9062
不到而	-11.9063
種苦	-11.9065
巧便	-11.9065
下釋相二初	-11.907
二依門釋相	-11.907
地獄等	-11.9075
正唯	-11.9075
比前	-11.9076
法僧	-11.9076
堅持	-11.9078
增其	-11.9082
無能勝	-11.9083
出生死	-11.9085
之虫復有	-11.9089
種善根	-11.9095
中入三昧於	-11.9098
彼約	-11.91
後之一	-11.9102
當知此中道理亦爾	-11.9104
不毀不失	-11.9107
定離眼識色	-11.9109
纓絡	-11.911
是隨同品言	-11.911
是遣諸法自相門故	-11.911
兩俱極成非佛語所不攝	-11.911
石女兒	-11.9111
依言說分別	-11.9111
無有初相可知	-11.9111
得長相續	-11.9111
皆由無明	-11.9111
徧是宗法	-11.9112
菟角	-11.9112
非有為非無為	-11.9112
水波	-11.9113
從微至著	-11.9113
但隨妄念不可得故	-11.9113
唯是法身智相之身	-11.9114
聖言量	-11.9114
則為向佛智故	-11.9115
以瓶等為同品	-11.9115
牀	-11.9115
後陳宗體	-11.9116
即真如故	-11.9116
言語道斷	-11.9117
有一實故有德業故	-11.9117
細中之麁	-11.9117
復有別風	-11.9118
違自順他	-11.9118
五種識	-11.9118
依業受果	-11.9118
分別假名言相	-11.9118
除滅無明見本法身	-11.9118
令不失故	-11.9118
與因俱	-11.9118
能所未分	-11.9119
於同品有非有	-11.9119
離於想念	-11.9119
古因明師	-11.9119
境界熏妄心	-11.9119
或起二乘種子	-11.912
深密經	-11.912
對治凡夫二乘心過故	-11.912
約緣	-11.912
得免諸障	-11.912
寂滅者名為一心	-11.9121
〕	-11.9121
非受樂相	-11.9121
心相隨滅	-11.9121
與行與相	-11.9121
一向離故	-11.9121
牒因顯果	-11.9122
復次分別生滅相者	-11.9122
能成立法無質礙無	-11.9122
則無能入菩提之道	-11.9122
以一切染法皆是不覺相故	-11.9122
教他	-11.9122
如是淨法無量功德	-11.9122
共相助成	-11.9123
何須重說	-11.9123
以智性即色故	-11.9123
而能得入	-11.9123
則無一切境界之相	-11.9123
則有香氣	-11.9124
乃至滿足無有所少義故	-11.9124
尋名取著	-11.9124
不可說不可念	-11.9125
第八見分	-11.9125
離和合相	-11.9125
可燒可見	-11.9125
如風依水而有動相	-11.9125
鞠	-11.9126
常樂親近諸菩薩眾	-11.9126
亦有無量種種莊嚴	-11.9126
以有無明染法因故	-11.9126
若離覺性	-11.9126
所謂自體有大智慧光明義故	-11.9126
旡	-11.9126
略說發心有三種	-11.9126
云何熏習起染法不斷	-11.9127
班	-11.9128
以住於此娑婆世界	-11.9128
所謂不生不滅與生滅和合	-11.9128
乃能志求無上之道	-11.9128
從細至麁	-11.9129
心性離見	-11.9129
三支無過	-11.9129
火宅	-11.9129
炳	-11.913
三界虛偽	-11.913
是故一切眾生不名為覺	-11.913
非染非淨	-11.913
爐	-11.913
難知難解	-11.913
歒	-11.9131
重牒分別	-11.9131
結末歸本	-11.9131
其路	-11.9131
無明盡故	-11.9131
除疑捨邪執	-11.9131
以隨順法性離癡障故	-11.9132
若人修行一切善法	-11.9132
境界為緣生六	-11.9132
以隨順法性無住故	-11.9132
因一喻二	-11.9132
若人專念西方極樂世界阿彌陀佛	-11.9132
復次顯示從生滅門即入真如門	-11.9132
一因二喻	-11.9132
以是等緣	-11.9132
從初發意	-11.9132
若能觀察知心無念	-11.9132
於中若見若念	-11.9132
秉	-11.9133
十月	-11.9133
無有超過之法	-11.9133
不退心	-11.9133
於二量中	-11.9133
略說方便有四種	-11.9134
亦復同前	-11.9134
即是大智慧光明義故	-11.9134
我法二執	-11.9135
甚為可愍	-11.9135
當知如來善巧方便	-11.9135
以智相無可見故	-11.9135
依諸凡夫二乘人等	-11.9135
圭山	-11.9136
心與無明俱無形相	-11.9136
諸佛菩薩教令發心	-11.9136
聞思修慧	-11.9136
窮源	-11.9136
寐	-11.9136
故涅槃云	-11.9136
初三攝眼所不攝故	-11.9136
挍	-11.9137
思之可見	-11.9137
佛語比丘	-11.9137
若見一切來求索者	-11.9137
壺	-11.9137
結果由因	-11.9138
心是一	-11.9138
對法論云	-11.9138
聲名句文	-11.9138
花嚴	-11.9138
鑑	-11.9138
方實不轉	-11.9139
馬鳴菩薩造真諦三藏譯	-11.9139
無明熏習義有二種	-11.9139
文相明故	-11.9139
憒	-11.9139
七寶樹林之所圍	-11.9139
同品非定有	-11.9139
於大眾中	-11.9139
如是摩訶衍諸佛祕藏	-11.914
舞	-11.914
替	-11.914
開曉	-11.914
有四軍	-11.914
漸漸能生無量三昧	-11.914
十方三世	-11.9141
唯識所現	-11.9141
無一一法而非	-11.9141
况	-11.9141
至教量	-11.9141
八相成道	-11.9141
紹佛種	-11.9141
潰爛	-11.9142
是猶豫因	-11.9142
宗等多言	-11.9142
隨緣變	-11.9142
遠離怯弱	-11.9142
廣如彼說	-11.9142
迫	-11.9142
攝論下	-11.9143
乖角	-11.9143
說我是思	-11.9143
右旋	-11.9143
本來常住	-11.9143
成實論卷第十	-11.9143
是難顛倒	-11.9143
十方世界之塵數	-11.9143
如幻化	-11.9144
分段苦	-11.9144
帝網	-11.9144
棄背	-11.9145
眼等五識	-11.9145
照察	-11.9145
嬈亂	-11.9146
能見所見	-11.9146
床座	-11.9146
該收	-11.9146
迅	-11.9146
汝先言	-11.9147
有其六種	-11.9147
一隅	-11.9147
高半由旬	-11.9147
異喻如空	-11.9147
辨才	-11.9148
釋其所以	-11.9148
繼	-11.9148
微薄	-11.9148
趺	-11.9148
釋曰後作釋有二初分門	-11.9149
弄	-11.9149
遍十方	-11.9149
一切諸花	-11.9149
楞	-11.9149
釋曰後開示有二初唱本	-11.915
雕	-11.915
差別之義	-11.915
嵐	-11.915
違現	-11.915
若不異者	-11.915
鳳	-11.9151
奄	-11.9151
軟滑	-11.9152
有人聞說	-11.9152
互融	-11.9152
過量	-11.9152
羯	-11.9152
脩行信心	-11.9152
不能正解	-11.9152
k	-11.9152
無所從來	-11.9152
顏色	-11.9153
彼無過故	-11.9153
赤色	-11.9153
爽	-11.9153
諾	-11.9153
牆	-11.9153
震動	-11.9154
如餘處	-11.9154
樞	-11.9155
療	-11.9155
金剛五位	-11.9155
體非無故	-11.9155
犁	-11.9155
次釋第二	-11.9155
法應爾	-11.9155
得阿羅漢道	-11.9155
鍵摩	-11.9155
目之為	-11.9155
造像門	-11.9155
無所障礙	-11.9156
姊妹	-11.9156
有其三種	-11.9156
匠	-11.9156
拒	-11.9156
諭	-11.9156
又一切染法所不能染	-11.9156
嚙	-11.9156
監	-11.9156
漢	-11.9156
巳具	-11.9157
意生身	-11.9157
輪轉生死	-11.9158
蹉	-11.9158
同一覺	-11.9158
壯	-11.9158
如實而知	-11.9159
一者信根本	-11.9159
技	-11.9159
哪	-11.9159
減損	-11.916
增進	-11.916
侵奪	-11.916
一者執相應染	-11.916
芬	-11.916
輝	-11.916
豈容	-11.9161
復次文殊師利	-11.9161
與虗空等	-11.9161
天帝釋	-11.9161
即是始覺	-11.9162
四種大義	-11.9162
芻	-11.9162
広	-11.9162
輟	-11.9162
動作生滅	-11.9163
無上尊	-11.9163
無有間斷	-11.9163
糖	-11.9163
飡	-11.9163
太原	-11.9164
涕唾	-11.9164
阿鼻	-11.9165
攸	-11.9165
吠	-11.9166
無所不當	-11.9166
沫	-11.9167
鴻	-11.9167
精舍	-11.9167
凋	-11.9167
魏	-11.9167
詮示	-11.9167
經中亦說	-11.9168
如是等名	-11.9168
不異義	-11.9169
澡	-11.9169
無量壽	-11.9169
具遮表	-11.9169
金剛薩埵	-11.9169
正難	-11.9169
核	-11.917
竅	-11.917
卵生	-11.917
亘	-11.917
比尼	-11.9171
宣說法要	-11.9171
以離念境界	-11.9171
帛	-11.9172
翰	-11.9172
喉	-11.9173
地持論	-11.9173
鞭	-11.9174
臆	-11.9174
稱歎	-11.9174
異品無故	-11.9174
十種功德	-11.9174
兇	-11.9175
▁初標分	-11.9175
長久	-11.9175
初標數	-11.9175
如燈焰	-11.9175
翔	-11.9176
池沼	-11.9176
与	-11.9176
徳	-11.9176
墮餓鬼	-11.9176
亭	-11.9177
吻	-11.9177
膜	-11.9177
不墮惡道	-11.9177
繒	-11.9177
波若	-11.9178
閣	-11.9179
瑟吒	-11.918
財富	-11.918
來詣	-11.9181
復次如前所說	-11.9181
作是念已	-11.9182
何所疑	-11.9182
女天	-11.9182
無和合義	-11.9182
欣樂	-11.9183
瘦	-11.9183
直置	-11.9183
沛	-11.9183
邏	-11.9183
雜集	-11.9183
善人所行	-11.9184
信心增長	-11.9184
十方一切世界	-11.9184
冷觸	-11.9184
淨梵行	-11.9184
帶言	-11.9185
盛年	-11.9185
下品眾生	-11.9185
獲斯	-11.9185
發心觀察	-11.9185
氣味	-11.9185
如是知已	-11.9186
阿那	-11.9186
百六十	-11.9186
辣	-11.9188
二章門	-11.9188
因無所依	-11.9191
有何所以	-11.9191
愛別離苦	-11.9191
即名一行三昧	-11.9193
自相差別	-11.9194
自相可說	-11.9194
狹因	-11.9194
行陰	-11.9195
識陰	-11.9195
所目	-11.9196
尊長	-11.9196
而實菩薩	-11.9196
偏句	-11.9196
醯摩跋多	-11.9197
二法二門	-11.9198
依此二義	-11.9198
隨順觀察	-11.9198
何所來	-11.9199
四神足	-11.9199
治諸	-11.9199
天人師	-11.92
居家	-11.92
初問後答	-11.92
本覺智明	-11.92
魔羅	-11.9201
得他心智	-11.9201
如貧	-11.9201
露地	-11.9204
甚深廣大	-11.9204
白鑞等	-11.9205
無怨	-11.9206
月二十	-11.9207
反覆	-11.9207
根本無明熏習	-11.9208
眾生有念	-11.9208
魔邪	-11.9209
謬解	-11.921
三結成	-11.9211
百萬	-11.9211
離貪	-11.9211
怨憎會苦	-11.9211
合中言	-11.9212
下釋義	-11.9214
長者子	-11.9214
非可壞	-11.9215
俱通	-11.9217
是二種門	-11.9217
大果報	-11.9221
無明熏真	-11.9221
病眼	-11.9222
蘇摩	-11.9223
諸佛所得	-11.9223
所立無處	-11.9227
同一真如	-11.9227
何獨	-11.9227
住持過去	-11.9227
欲者如	-11.9229
示方便	-11.9229
麁惑	-11.923
賢首云	-11.9231
為所緣	-11.9232
依此法身	-11.9232
大富	-11.9233
於同異品	-11.9234
想受	-11.9236
根利	-11.9236
合支	-11.9237
可分別	-11.9237
順益	-11.9239
濟度	-11.9239
即是一法界	-11.9242
教勅	-11.9244
神眾	-11.9245
若有比丘	-11.9247
佛僧	-11.9248
釋曰十	-11.9248
心生歡喜	-11.9249
恒常熏習	-11.925
勸令	-11.925
剎那剎那	-11.9252
百千劫	-11.9253
華言	-11.9255
之方便也	-11.9255
但是一心	-11.9258
名修慧	-11.9259
非覺照義故	-11.9259
已熟	-11.926
亦是不定	-11.926
何勞	-11.926
謂之為	-11.9262
而有不覺	-11.9262
心得清淨	-11.9263
擇法	-11.9267
以此菩薩	-11.9268
執計	-11.9269
七分	-11.927
令我	-11.9274
故云等也	-11.9275
望宗	-11.9277
所證真如	-11.9278
雜藏	-11.9279
大周	-11.928
說名本覺	-11.928
遍照法界義故	-11.9282
俗智	-11.9282
是名隨順	-11.9284
同諸佛	-11.9286
五識身	-11.9286
則有二種	-11.9287
釋曰七	-11.9288
初中二初	-11.929
深經	-11.9291
妙音聲	-11.9291
故有差別	-11.9292
眼光	-11.9293
有兩意	-11.9297
故名不空	-11.9299
一大劫	-11.9299
因之明	-11.93
還成	-11.9301
長時心	-11.9301
得值	-11.9302
現作意	-11.9304
剎中	-11.9305
無我理	-11.9305
子藏	-11.9305
是名似因	-11.9306
法成法	-11.9306
須造論	-11.9306
於自身	-11.9306
過恒沙等	-11.9307
沙門果	-11.9314
後一是	-11.9314
治病	-11.9316
而為根本	-11.9318
名邪定聚	-11.9321
徵明	-11.9326
月光	-11.933
三是故下	-11.9333
潤業	-11.9333
指掌	-11.9334
二合反	-11.9336
又經中	-11.9339
先已說	-11.9345
下三句	-11.9346
以法為	-11.9347
汝語	-11.9347
深重	-11.9348
又此行者	-11.935
說所立無	-11.9354
自捨	-11.9355
有上中下	-11.9356
欲瞋	-11.9356
初正辨	-11.9358
釋曰後開示有二初	-11.936
七種識	-11.9362
四攝法	-11.9362
今古	-11.9363
聲常住	-11.9363
慧數	-11.9365
為過失	-11.9365
漸教	-11.9372
不昧	-11.9373
現前介爾心性	-11.9373
直入	-11.9376
隨順方便	-11.9381
第七末那	-11.9383
餘緣	-11.9383
廣大心也	-11.9385
淨施	-11.9389
初別明	-11.939
可通	-11.939
功德四相	-11.9391
不能壞	-11.9392
世諦故有	-11.9394
兩意	-11.9395
攝持故	-11.9398
能通達	-11.9401
淨命	-11.9401
十八日	-11.9402
者問此	-11.9402
不取相	-11.9405
王種	-11.9408
信解行	-11.9409
欲令眾生	-11.941
華香	-11.941
隔別	-11.9411
正理門	-11.9411
無偏	-11.9413
上味	-11.9415
此義云何以下	-11.9417
差別相違	-11.9417
先須	-11.9424
則不自在	-11.9426
有漏業	-11.9427
別作	-11.9431
故知有我	-11.9432
麁識	-11.9432
不須論	-11.9444
伹云	-11.9445
成猶豫	-11.9449
祖師	-11.945
四辯	-11.945
有為有二種	-11.9452
逆次	-11.9454
自相相違	-11.9454
所立能立	-11.9456
此生中	-11.9457
過罪	-11.9457
真界	-11.9457
故不可壞	-11.9457
無分際	-11.9458
影取	-11.9459
行步	-11.946
法自相相違過	-11.9467
靡	-11.947
瑜伽云	-11.9472
十使	-11.9472
無二相	-11.9474
囉拏	-11.9476
心歡喜	-11.9477
若人能	-11.9477
前頌	-11.9478
更求	-11.9485
惱眾生	-11.9487
棄之	-11.9487
返熏	-11.9488
犯他	-11.9489
有故者	-11.949
福果	-11.949
無戲論	-11.949
二唱本作釋	-11.9491
何所為	-11.9491
此所聞性	-11.9492
細分別	-11.9496
已相應	-11.9497
可然	-11.9497
名聞慧	-11.9498
無縛	-11.9501
所信之境	-11.9501
令起心	-11.9501
四住煩惱	-11.9502
要由	-11.9505
過攝	-11.951
到彼	-11.9513
觸受	-11.9519
邪妄	-11.9519
所制	-11.9521
▁初徵	-11.9522
能薰	-11.9528
現在未來	-11.9529
而不捨	-11.953
著衣	-11.954
體會	-11.9544
此中菩薩	-11.9544
云何得知	-11.9545
第二門	-11.9545
心有所	-11.9545
之號	-11.9551
諸馬	-11.9553
法空觀	-11.9554
寺中	-11.9554
直釋	-11.9558
還依	-11.9559
彰顯	-11.9559
有中陰	-11.9563
名字差別	-11.9566
八部	-11.9567
取解	-11.9567
佛乘	-11.9568
無主宰	-11.957
心心所法	-11.9574
獲罪	-11.9574
如來種	-11.9574
說苦諦	-11.9575
靡不	-11.9576
緣念	-11.9579
同喻合	-11.9581
生死海	-11.9581
隨俗	-11.9581
不相應行	-11.9581
決定安立	-11.9581
尋之	-11.9584
眾生想	-11.959
是有法差別	-11.9594
名不定聚	-11.9594
修勝行	-11.9596
無明所覆	-11.9598
是故無二	-11.9599
事識熏	-11.9607
四無色	-11.9609
了然	-11.9609
自然性	-11.9611
未嘗	-11.9612
又汝所	-11.9613
彼坐禪人以	-11.9619
眾生身中	-11.9621
亦得說	-11.9622
支分	-11.9623
圓極	-11.9625
云何相續	-11.9633
十二入	-11.9635
八功德	-11.9636
發精進	-11.9637
上上品	-11.9641
所壞	-11.9641
逮	-11.9641
隨動	-11.9642
後之三	-11.9649
斷食	-11.965
性不變	-11.965
變壞	-11.9654
初標舉	-11.9655
便可	-11.9656
二釋相	-11.9657
諸佛菩提	-11.9658
由此生	-11.966
在本識	-11.9666
當念身自性	-11.9669
以前云	-11.9674
離脫	-11.9683
五種位	-11.9685
無住相	-11.9686
梵本	-11.9687
故作此	-11.9691
勤修行	-11.9694
計名字	-11.9708
眾生現前介爾	-11.971
佛界	-11.9712
於初禪	-11.9719
又此身	-11.9735
一總標	-11.9741
之珠	-11.9741
見煙	-11.9742
為煩惱障	-11.9745
其味	-11.9749
所以造論	-11.9752
六觸	-11.9755
一毛孔	-11.9758
滿月	-11.9759
共不共	-11.9759
無有盡	-11.9767
云何得有	-11.9772
樂為所立	-11.9773
受諸苦	-11.9776
作境	-11.9777
精進門	-11.9781
躡	-11.9783
過去法	-11.9784
軍眾	-11.9786
盧舍那佛	-11.9789
親眷	-11.9793
勤勇無間所發性	-11.9796
明暗	-11.9797
種種不同	-11.9801
目前	-11.9811
無盡意經	-11.9823
大惡	-11.9823
據理	-11.9823
與彼不覺相應不離	-11.9823
有五門	-11.9829
覺住相	-11.983
更無有	-11.9832
立已成	-11.9838
得生天	-11.9839
將何	-11.9839
而有言說	-11.9841
天眼見	-11.9842
維	-11.9842
闇中	-11.9843
七菩提分	-11.985
證佛果	-11.985
四惑	-11.9852
任運起	-11.9854
之原	-11.9855
娑婆訶阿阿訶呵若此神呪誦	-11.9859
受此果報	-11.9859
有法聲	-11.9861
百劫	-11.9862
生樂想	-11.9863
初地菩薩	-11.9864
二千五百	-11.9868
亦同此說	-11.9869
修眾善	-11.987
為欲解釋如來根本之義	-11.9871
依覺有不覺	-11.9872
未得無分別心	-11.9873
離念境界	-11.9875
彼契經中	-11.9875
四卷經	-11.9876
釋覺義	-11.9877
障量智	-11.9877
是二種門皆各總攝一切法	-11.9877
分劑	-11.9878
冥性	-11.9879
令彼憶念本極成故	-11.988
是覺利益	-11.988
是不定因	-11.9881
乾闥婆	-11.9881
不了真如法故	-11.9881
離於見相	-11.9881
增其不了	-11.9881
其體皆同	-11.9881
後重法	-11.9882
若時於所緣	-11.9882
爾時住唯識	-11.9882
即分別自心	-11.9883
寤	-11.9884
性染幻差別故	-11.9884
水風	-11.9884
唵摩羅	-11.9884
復次言意識者	-11.9885
自然而有不思議業種種之用	-11.9886
若水滅者	-11.9886
退沒	-11.9886
愛盡	-11.9886
開二種門	-11.9886
干	-11.9886
若離心念	-11.9887
應成非所說	-11.9887
似同法喻	-11.9887
同一所緣	-11.9887
確	-11.9888
念即無念	-11.9888
灑散	-11.9888
若有眾生能觀無念者	-11.9888
一切菩薩發心修行趣向義故	-11.9889
起執緣	-11.9889
別立以為阿梨耶	-11.989
謂法喻合	-11.989
皆各總攝	-11.989
統收	-11.989
境界風所動	-11.9891
造作論教	-11.9891
與諸佛智用相應	-11.9891
假名無實	-11.9892
從麁至細	-11.9892
意及意識	-11.9892
永離惡道	-11.9893
又亦無有用相可得	-11.9893
所謂如來在世	-11.9893
直等三心	-11.9894
廣百論	-11.9894
若不然者	-11.9894
猶如明鏡	-11.9894
一剎那頃	-11.9894
若見若聞	-11.9894
人法二執	-11.9894
前三位中	-11.9894
答有二解	-11.9894
得淨心地究竟離故	-11.9894
凡所有相	-11.9894
復次究竟離妄執者	-11.9894
諠	-11.9894
相應心品	-11.9895
各成	-11.9895
約終教說	-11.9895
得值諸佛	-11.9895
以隨順法性離諸過故	-11.9895
若離心念則無一切境界之相	-11.9895
十地滿心	-11.9895
意欲退者	-11.9895
是證相故	-11.9895
如來但為說人無我	-11.9896
以唯依真如義說故	-11.9896
五者滅一切疑諸惡覺觀	-11.9896
復次若人雖修行信心	-11.9896
離垢地	-11.9896
寥	-11.9896
依一切眾生以有妄心	-11.9896
盡其未來	-11.9896
皆依眾生無明妄心而得住持	-11.9897
或起懈怠	-11.9897
謂分別染淨法故	-11.9897
真如淨法實無於染	-11.9897
云何修行施門	-11.9897
所謂見佛色相而發其心	-11.9897
不得輕於如來所制禁戒	-11.9897
見一處住地	-11.9897
以為懈慢眾生故	-11.9897
發迴向心	-11.9897
小乘宗	-11.9897
以離念境界唯證相應故	-11.9897
同一相	-11.9898
願令我心離分別故	-11.9898
與用相應	-11.9898
以知法性體無慳貪故	-11.9898
混融	-11.9898
心一境性	-11.9898
造業受報	-11.9899
堅執	-11.9899
舉非顯失	-11.9899
恭敬父母沙門婆羅門	-11.9899
八地以上	-11.9899
依諸凡夫取著轉深	-11.9899
善護其心	-11.9899
當觀一切世間有為之法	-11.9899
所變相分	-11.99
或說有退墮惡趣者	-11.99
故云深也	-11.99
非同非異	-11.99
修何等行	-11.99
無上正等菩提	-11.99
十二支	-11.99
憶想分別	-11.9901
熏離俱相	-11.9901
而有見色相者	-11.9901
亦非業繫	-11.9901
以心住故	-11.9901
是中依未入正定聚眾生	-11.9901
端坐正意	-11.9901
唯彼有性	-11.9901
為鈍根	-11.9901
不可合一	-11.9901
有所簡別	-11.9901
攝律儀戒	-11.9902
唯心相滅	-11.9902
離有離無	-11.9902
假以言說引導眾生	-11.9902
掌珍	-11.9903
畢竟得生	-11.9903
業識未盡	-11.9903
我已總說	-11.9903
此亦非真	-11.9903
幼	-11.9903
現世當得十種利益	-11.9903
向涅槃道	-11.9904
正念真如法故	-11.9904
有三種心微細之相	-11.9904
終無得淨	-11.9904
應觀世間一切有身	-11.9904
而亦不取眾生相	-11.9904
性自本無	-11.9904
此緣有二種	-11.9904
以深信真如法故	-11.9904
一切世間境界悉於中現	-11.9905
六者根本業不相應染	-11.9905
四信五行	-11.9905
復一小門	-11.9905
真言行人	-11.9905
又是菩薩功德成滿	-11.9905
何故不唯念真如	-11.9905
有諸婇女	-11.9905
割截	-11.9905
段論文	-11.9905
又如來藏無有後際	-11.9905
▁初標指	-11.9906
不惜身命	-11.9906
乃至具有過恒沙等妄染之義	-11.9906
不限劫數	-11.9906
下廣上狹	-11.9906
有熏習善根力故	-11.9906
無一可樂	-11.9906
是故眾生應勤修學	-11.9906
但隨眾生世界不同	-11.9906
阿毘止	-11.9906
或令人知宿命過去之事	-11.9906
迢	-11.9907
禾	-11.9907
者此意說云	-11.9907
嗢	-11.9907
若有眾生來求法者	-11.9907
執取計名字相	-11.9907
唯心虗妄	-11.9907
隨流反流	-11.9908
以修世間諸禪三昧	-11.9908
復以何義得說差別	-11.9908
漸漸猛利	-11.9908
有於無明	-11.9909
二對治邪執	-11.9909
僅	-11.9909
必為諸佛之所授記	-11.9909
與理相應	-11.9909
機感	-11.9909
摶	-11.9909
釋上立義分中	-11.991
從細至麤	-11.991
莊飾	-11.991
晴	-11.991
寄言簡過	-11.991
救世大悲者	-11.991
念安般	-11.991
而使證會永息妄者	-11.991
以見法身故	-11.991
是諸門者	-11.9911
定性二乘	-11.9911
或立為常	-11.9911
絲	-11.9911
唯有如如	-11.9911
一者施門	-11.9911
処	-11.9911
爍	-11.9912
所謂雖念諸法自性不生	-11.9912
資生具足	-11.9912
令行十善	-11.9912
墮邪網	-11.9912
與行與相如來藏	-11.9912
乃得成辦	-11.9912
真破	-11.9912
若離妄心	-11.9912
定常為宗	-11.9913
以此法	-11.9913
立破之	-11.9913
聲是其常	-11.9913
飜	-11.9913
所作非常故	-11.9913
唐譯	-11.9913
除障方便	-11.9914
闢	-11.9914
初歡喜地	-11.9914
規	-11.9914
曷	-11.9914
亦能使人得諸三昧	-11.9914
▁165	-11.9915
廣果天	-11.9915
則能遠離是諸業障	-11.9915
貧乏	-11.9915
一者業識根本熏習	-11.9915
若自若他	-11.9915
管	-11.9915
施與無畏	-11.9916
毘盧遮那	-11.9916
次說勸修利益分	-11.9916
獻	-11.9916
一執緣	-11.9916
菟	-11.9916
慎	-11.9916
偏說	-11.9917
游戲	-11.9917
嬈	-11.9917
閒	-11.9917
膿	-11.9917
以上四分	-11.9918
水戲	-11.9918
十二部經	-11.9918
身心適悅	-11.9918
若有正智	-11.9918
纖	-11.9918
汝意若謂	-11.9919
即無有邊	-11.9919
運載眾生	-11.9919
撓	-11.9919
極解脫道	-11.9919
三相應染	-11.9919
宏	-11.9919
矚	-11.992
故不別說	-11.992
▁163	-11.992
模	-11.992
則有妄心	-11.992
謐	-11.992
廣答門	-11.992
分明顯了	-11.9921
象馬車	-11.9921
u	-11.9922
云爾	-11.9922
盈滿	-11.9922
光潔	-11.9922
堅依堅	-11.9922
乃至惡業受報未盡求	-11.9922
對治此執說	-11.9922
身從定起	-11.9922
坐處	-11.9923
八功德水	-11.9923
涅	-11.9923
因明正理門論	-11.9923
損惱	-11.9923
色相可見	-11.9923
一切諸想	-11.9924
釋曰後引教證	-11.9924
不可稱量	-11.9924
愆	-11.9924
摩訶薩	-11.9925
虛幻	-11.9926
範	-11.9926
牢	-11.9926
哲	-11.9926
潤澤	-11.9927
蹈	-11.9927
常恒相續	-11.9927
貪嫉	-11.9927
非非想	-11.9927
初結前標後	-11.9928
八萬劫	-11.9928
次第緣	-11.9928
相違及不定	-11.9929
貿易	-11.9929
三藏法師	-11.9929
貲	-11.9929
不耐食想	-11.9929
一者如實空鏡	-11.9929
四衢道	-11.993
貯	-11.993
大覺海	-11.993
三摩鉢底	-11.993
兩卷	-11.993
自用	-11.993
懈倦	-11.9931
旋火輪	-11.9931
天眾	-11.9931
熱灰	-11.9931
勘	-11.9932
護法論師	-11.9932
鹽味	-11.9932
云何為七	-11.9932
盡不盡義	-11.9932
不覺心起	-11.9933
彼經復說	-11.9933
不見色	-11.9933
婦女	-11.9933
住壽一	-11.9933
奴僕	-11.9934
宣示	-11.9934
遶	-11.9934
勝意樂	-11.9935
洞然	-11.9935
五逆罪	-11.9935
腐	-11.9935
拯	-11.9936
羽	-11.9936
来	-11.9937
杜	-11.9937
犯罪	-11.9937
供養恭敬	-11.9937
有十一	-11.9937
犬	-11.9938
同一緣起	-11.9938
奉獻	-11.9938
詳示	-11.9938
宗為所立	-11.9939
身語意業	-11.9939
一切染因	-11.9939
拕	-11.9939
溢	-11.9939
鎮	-11.9939
無本覺故	-11.9939
從淨心地	-11.994
是為魔事	-11.994
三支比量	-11.994
照解	-11.9941
不出於	-11.9942
劫奪	-11.9942
雹	-11.9942
波羅提木叉	-11.9942
化度有情	-11.9943
因一果	-11.9943
處非處	-11.9944
倏	-11.9944
如下所說	-11.9945
能緣所緣	-11.9945
惡罵	-11.9945
高勝	-11.9945
充足	-11.9945
十信滿心	-11.9946
祥	-11.9946
無餘究竟	-11.9946
飽	-11.9946
與彼不覺	-11.9946
𠼝	-11.9946
彈指	-11.9946
如十地經	-11.9947
漸伏	-11.9947
旃檀	-11.9948
樹間	-11.9948
真如不變	-11.9948
復有罪人	-11.9948
周法界	-11.9948
因即是明	-11.9949
洛叉	-11.9949
沾彌利望群言	-11.995
揆	-11.995
飲水	-11.995
葛	-11.9951
不假方便	-11.9951
透	-11.9951
溟	-11.9951
遇善知識	-11.9952
不見其	-11.9952
領受	-11.9952
荅曰	-11.9953
修禪定	-11.9953
以如實知	-11.9954
却敵	-11.9954
疱	-11.9954
廣狹	-11.9955
臼	-11.9955
脈	-11.9955
浣	-11.9955
訛也	-11.9956
以何為體	-11.9956
常無常外	-11.9956
覺察	-11.9956
即理門第	-11.9956
苦諦所攝	-11.9957
一心二門三大	-11.9957
是故得知	-11.9958
節量食	-11.9958
香臭	-11.9959
藥叉	-11.9959
此約下	-11.9959
入園	-11.996
紫	-11.996
醯	-11.996
性除智	-11.996
清辨	-11.996
離一切苦	-11.996
不可聞	-11.9961
六十小劫	-11.9961
云何名為二種	-11.9962
釘	-11.9962
生善處	-11.9963
己利	-11.9963
若觸	-11.9963
色入	-11.9965
闍梨	-11.9965
德患	-11.9966
故云轉勝	-11.9967
諸群生	-11.9967
得安樂	-11.9968
見是事已	-11.997
賢劫	-11.997
如上文云	-11.997
朕	-11.9971
給與	-11.9971
而有妄心	-11.9972
文旨	-11.9972
色受想行識	-11.9974
息除	-11.9975
丁	-11.9976
之謂也	-11.9976
無色處	-11.9976
全體是	-11.9976
衣鉢	-11.9977
立因云	-11.9978
五十二	-11.9979
乃至七日	-11.998
諸菩薩摩訶薩	-11.998
誦持	-11.9981
梵眾	-11.9981
永盡	-11.9981
縱使	-11.9981
勤力	-11.9981
第八句	-11.9981
種種別相	-11.9982
安息	-11.9982
問答中	-11.9983
發心勇猛	-11.9984
邪魔	-11.9985
無質礙性	-11.9987
言所陳	-11.9988
妙好	-11.9989
准此知	-11.9989
諸天子等	-11.9991
無有世諦境界	-11.9992
狹宗	-11.9993
三世菩薩	-11.9993
建立顯示	-11.9994
遙見	-11.9994
順法性	-11.9995
翻此	-11.9996
又一由旬	-11.9997
是清淨戒	-11.9998
互熏	-11.9998
在一處	-11.9998
不定聚人	-11.9999
寶鈴	-11.9999
修十善	-11.9999
昔行何業受此	-12.0001
有動相	-12.0003
心滅則種種法滅故	-12.0004
第一義空	-12.0005
密意	-12.0007
以此善根	-12.0008
微細起滅故	-12.0008
即名異品	-12.0009
為人所	-12.001
共聚	-12.0011
破器	-12.0015
癡迷	-12.0016
則不名	-12.0018
四陰	-12.0019
我今當說	-12.0019
偏取	-12.002
梁攝	-12.0021
起瞋	-12.0021
妄想分別	-12.0022
未達	-12.0022
遮遣	-12.0022
池水	-12.0023
以隨下	-12.0023
飛行	-12.0024
更須	-12.0027
助緣	-12.0027
無漏性德	-12.0028
長安	-12.003
一切無量眾生	-12.0031
同本覺故	-12.0031
聞是說	-12.0032
隨應施	-12.0033
一者明其	-12.0034
已下顯	-12.0034
如是等文	-12.0034
於佛塔	-12.0034
俱存	-12.0034
授與	-12.0035
越於	-12.0035
王女	-12.0036
於泥洹	-12.0038
如無盡意經	-12.0041
多端	-12.0043
此無常性	-12.0043
非勤勇發	-12.0045
究竟滅	-12.0045
五種無常	-12.0045
諸菩薩行	-12.0048
於此門中	-12.0055
具此二	-12.0056
邊見	-12.006
一切國土	-12.0061
就此門中則有	-12.0062
惡覺	-12.0066
是義云何	-12.0068
勝佛者	-12.007
照曜	-12.0071
即此法身	-12.0071
由無明力	-12.0076
獨住	-12.0076
皆悉平等	-12.0079
俱亡	-12.0082
慈恩	-12.0084
為利眾生	-12.0085
今陳那	-12.0091
甚大	-12.0091
七月	-12.0093
邪方	-12.0094
就初中有	-12.0094
次三句	-12.0094
高聲	-12.0095
入城	-12.0096
我同	-12.01
異遍無	-12.0101
或勤勇無間所發性	-12.0102
言因緣者	-12.0104
皆悉無常	-12.0105
往到	-12.0108
寶階	-12.0111
令行人	-12.0112
醜陋	-12.0114
謂諸佛如來	-12.0115
善根增長故	-12.0119
當說似	-12.012
楞伽經說	-12.0121
了解	-12.0124
▁二釋義	-12.0127
感果	-12.013
一牟休多	-12.013
第十五	-12.014
種種苦	-12.0141
供養佛	-12.0141
非一切因	-12.0144
修真如三昧	-12.0146
共和合	-12.0147
舉宗因	-12.0153
總有三	-12.0153
初重門	-12.0158
無取無	-12.016
自性涅槃	-12.0161
依本修治	-12.0163
所害	-12.0165
各各別	-12.0166
今論主	-12.0168
何故唯	-12.0168
略有三	-12.0169
四蘊	-12.0171
大梵王	-12.0172
拔苦	-12.0173
於無量劫	-12.0174
力勢	-12.0174
無餘滅	-12.0176
是故汝言	-12.0177
身結	-12.0179
逮得	-12.0185
誦習	-12.0185
以一心為	-12.0186
根行不	-12.0186
究其	-12.0189
不明了	-12.019
謗正法	-12.0192
始本無二	-12.0193
香水	-12.0195
垢穢	-12.0195
改喻	-12.0195
互顯	-12.0196
捨壽	-12.0198
有二初徵釋	-12.02
請問	-12.0203
斷疑	-12.0207
前之三	-12.0207
香氣	-12.0214
泯絕	-12.0215
照寂	-12.0217
眼十	-12.0219
無增減故	-12.0222
總報	-12.0223
佛菩提	-12.0224
造惡業	-12.0225
起用熏習	-12.0242
服之	-12.0244
所招	-12.0246
不同相	-12.0247
但據	-12.025
是則為	-12.0251
諸不善法	-12.0256
是則名為	-12.0257
先辨	-12.0257
為他說	-12.0262
住空閑	-12.0263
如是等事	-12.0264
違背	-12.0267
名為不覺	-12.0269
諸人民	-12.0269
為他所	-12.0272
為伴	-12.0272
前三義	-12.0273
繫縛地	-12.0275
習學	-12.0276
前三句	-12.0277
四相差別	-12.028
二十卷	-12.0285
不能決定	-12.0289
之行相	-12.0291
玄門	-12.0295
病惱	-12.0296
更轉	-12.0297
不同凡夫	-12.0301
能立破	-12.0306
二初總標	-12.0315
不復更	-12.0316
名為生相	-12.0319
生我心	-12.0319
一切諸相	-12.0323
不出三界	-12.0326
無始生死	-12.0327
念僧	-12.033
極妙	-12.0331
修忍辱	-12.0336
名為現量	-12.0336
有二過	-12.0337
證會	-12.0337
唯舉	-12.0338
喜欲	-12.0342
微風	-12.0348
初標名	-12.0352
不得定	-12.036
破外道	-12.0361
五無間	-12.0362
引發	-12.0363
釋所由	-12.0366
斷滅相	-12.0368
諸善知識	-12.0371
又阿羅漢	-12.0374
卿宣梵大師賜紫沙門臣日稱等奉詔譯	-12.0374
菩薩集西天譯經三藏朝散大夫試鴻臚	-12.0375
難壞	-12.0375
如色聲等	-12.0377
惡鬼	-12.0377
而有差別	-12.0382
於五欲	-12.0382
修諸善	-12.0383
除智障	-12.0385
隨一猶預	-12.0387
地味	-12.039
該通	-12.0393
是菩薩行	-12.0398
法非法	-12.0399
實諦	-12.0404
在世	-12.0405
實不實	-12.0406
五陰無常	-12.0406
所依根	-12.0412
無明之念	-12.0415
真源	-12.0422
言說名字	-12.0423
此中意說	-12.0423
甚可	-12.0425
此一論	-12.0429
染淨熏	-12.043
無貪等	-12.043
初結指分門	-12.0432
ṃ	-12.0433
無悔	-12.0434
親見	-12.0436
初頌	-12.0437
無動作	-12.0438
之業用	-12.044
自性功德	-12.0445
之實性	-12.0445
色界繫	-12.0447
法律	-12.0454
依止義	-12.0459
風觸	-12.0466
令諸有情	-12.0472
得阿羅漢果	-12.0474
不該	-12.0481
隨一過	-12.0483
以依智淨	-12.0483
無謬	-12.0487
色聲等	-12.0499
所不攝故	-12.05
不希	-12.0501
趣道	-12.0514
忿恚	-12.0517
施戒忍	-12.0517
分二初	-12.052
五年	-12.0526
性不改	-12.0533
大池	-12.0534
ta	-12.0534
分流楞伽	-12.0538
終不自	-12.0543
真如用大	-12.0543
生疑惑	-12.0545
遍一切法	-12.0548
色塵	-12.0549
妄想心	-12.0552
理量	-12.056
修行布施	-12.0565
得如意	-12.0574
得辟支佛	-12.0579
非覺照義	-12.058
果不離因	-12.0584
心不亂	-12.0585
􂵦	-12.0587
第一重	-12.059
忉利	-12.0593
相屬著	-12.0598
一丈	-12.0602
解其義	-12.0605
厨	-12.061
悲增	-12.061
有淨用	-12.0617
無威德	-12.0619
滿分	-12.062
解行地	-12.0621
佛自說	-12.0623
劍林	-12.0626
聞正法	-12.063
名無記	-12.0638
開覺	-12.0638
廣如下	-12.0643
其過失	-12.0647
是宗過	-12.0647
有二種用	-12.0652
五月	-12.0659
二釋義	-12.0668
能生一切世間出世間善因果故	-12.067
淨不淨	-12.0671
緣外境	-12.0674
利刀	-12.0674
空無邊入	-12.0674
所入之法	-12.0679
宗異品	-12.068
立論之	-12.0682
不繫	-12.0684
非定不離	-12.0687
陰界入	-12.0701
即熏習無明	-12.0702
不如實知真法一故	-12.0704
如次率自類	-12.0704
一切妄念無相	-12.0704
如是無漏無明	-12.0705
多病	-12.0705
阿陀那	-12.0705
翻染成淨	-12.0708
令其念著	-12.0708
分段麁苦	-12.0709
皆乘此法	-12.0709
決定相違不定過	-12.0709
薩婆若	-12.0709
異品徧無	-12.071
一切分別即分別自心	-12.0711
而言知初相者	-12.0714
乃至廣破	-12.0714
愛與不愛故	-12.0715
如薩婆多對大乘	-12.0715
皆各總攝一切法	-12.0715
則眾生斷絕	-12.0715
前陳宗依	-12.0715
以念一切法	-12.0715
心有分齊	-12.0716
非現量攝	-12.0716
有一實等因	-12.0716
如法身菩薩等	-12.0717
隨力所能	-12.0717
初三攝眼所不攝因	-12.0717
見相二分	-12.0717
彼罪人	-12.0717
隨事攀緣	-12.0717
以有妄境界染法緣故	-12.0718
大乘起信論裂網疏卷	-12.0719
此非心識分別能知	-12.0719
眼等必為他用	-12.0719
唯癡滅故	-12.0719
從信相應地觀察學斷	-12.072
起事心滅	-12.072
不入實智故	-12.072
自體顯照一切妄法	-12.072
根本心盡	-12.0721
火立觸	-12.0721
慧及方便	-12.0722
重罪業障	-12.0722
先因後宗	-12.0722
大會	-12.0723
應亦名宗	-12.0723
色體無形	-12.0723
吹諸花鬘	-12.0723
如是無漏無明種種業幻	-12.0724
肇公云	-12.0724
非非有相非非無相	-12.0724
次說解釋分	-12.0724
前後無量差別	-12.0724
烟立火	-12.0724
隨應見聞而現作業	-12.0724
是遠離言	-12.0724
能止一切惡法不令增長	-12.0724
非明分位	-12.0724
更無所念	-12.0724
猶如螺貝	-12.0724
依於無明熏習而有	-12.0725
以瓶等為異品	-12.0725
族姓	-12.0725
隨念皆除	-12.0725
約王數釋	-12.0725
先問後答	-12.0725
此非心識	-12.0725
九種心住	-12.0726
皆悉相待	-12.0726
列章門	-12.0726
而倒說言	-12.0726
欲求無上菩提	-12.0726
云何修行戒門	-12.0727
此謂如來廣大性智究竟之義	-12.0727
信謗損益	-12.0727
亦非二乘智慧所覺	-12.0727
禪那波羅蜜	-12.0727
是故一切法從本巳來	-12.0727
以一切言說假名無實	-12.0727
問答通妨	-12.0727
對治二乘不起大悲狹劣心過	-12.0728
有法能起摩訶衍信根	-12.0728
謂有眾生作如是	-12.0728
三者發起善根增長方便	-12.0728
不覺念起現妄境界	-12.0728
離不善法	-12.0728
修唯識觀	-12.0728
為同法喻	-12.0728
其旨趣者	-12.0729
畢竟不畏墮二乘地	-12.0729
非異非不異	-12.0729
又為諸佛菩薩等慈悲願護	-12.0729
迷於無相	-12.0729
奈	-12.0729
以為怯弱眾生故	-12.0729
唯為開導利益眾生	-12.073
若聞無量無邊阿僧祇劫	-12.073
隨時隨處	-12.073
此真如體無有可遣	-12.073
或有眾生無善根力	-12.073
非前際生非後際滅	-12.073
麤中之麤	-12.073
境從心起	-12.0731
誠心懺悔	-12.0731
以心除心	-12.0731
真如熏習義有二種	-12.0731
無有自相可說	-12.0731
作非有緣性	-12.0731
因風波動	-12.0731
智都無所得	-12.0731
從外來	-12.0731
而有其念	-12.0732
未經一萬劫	-12.0732
王復問何等為	-12.0732
常能住持不毀不失	-12.0732
以起大悲熏習之力	-12.0732
依正二報	-12.0732
都無所得	-12.0732
深伏煩惱	-12.0732
當知世間一切境界	-12.0732
所向	-12.0733
離實等有	-12.0733
有遮有表	-12.0733
以一切法即真實性故	-12.0733
智性即色	-12.0733
變易行苦	-12.0733
不思議熏變	-12.0733
以善方便	-12.0733
與之相應	-12.0733
或因供養眾僧而發其心	-12.0734
善見大城	-12.0734
無二山王	-12.0734
立宗過性	-12.0734
因緣互闕	-12.0734
於無量阿僧祇劫	-12.0734
當持此論	-12.0734
非非異相	-12.0734
對果舉因	-12.0734
隨順修行羼提波羅蜜	-12.0734
即應勇猛立大誓願	-12.0734
轂	-12.0735
安受苦忍	-12.0735
則有所少	-12.0735
癈	-12.0735
因及果	-12.0735
非常非樂非我非淨	-12.0735
乾闥婆城	-12.0735
依於三昧	-12.0735
隨順修行檀波羅蜜	-12.0735
寂滅寂靜念	-12.0735
謙	-12.0736
常見佛故	-12.0736
開總體	-12.0736
儻	-12.0736
現在即有無量逼迫	-12.0736
本末二不覺	-12.0736
住於靜處	-12.0736
瓶等是常	-12.0736
防退方便	-12.0736
楷	-12.0737
而亦即念性不可得	-12.0737
唯是其空	-12.0737
其有眾生於此論中	-12.0737
色是我	-12.0737
復假求學諸善之行	-12.0738
分別事識熏習	-12.0738
祗	-12.0738
袪	-12.0738
能生無量三昧	-12.0738
𦦨	-12.0738
又是菩薩發心相者	-12.0738
無我無我所	-12.0739
能令眾生貪著世間名利之事	-12.074
不住見相	-12.074
當知此人定紹佛種	-12.074
遍淨天	-12.074
漸漸修習	-12.074
奄含	-12.0741
所謂從兜率天退	-12.0741
松	-12.0741
癡闇	-12.0741
我巳總說	-12.0741
速離眾苦	-12.0741
非可壞非不可壞	-12.0741
是菩薩淨土	-12.0741
而無差別之相	-12.0741
自此已下顯示	-12.0741
假使有人能化三千大千世界滿中眾生	-12.0742
六觸入	-12.0742
唯是妄有	-12.0742
重重無盡	-12.0742
四歎實行	-12.0743
香味觸	-12.0743
有其終盡	-12.0743
又復汝說	-12.0743
三者分別智相應染	-12.0743
若雖有外緣之力	-12.0744
一者名為業識	-12.0744
煥	-12.0744
紛然	-12.0744
明行足	-12.0744
舉體而為	-12.0744
憫	-12.0744
能自燒木	-12.0744
失意者	-12.0744
一即一切	-12.0744
唯有過恒沙等諸淨功德	-12.0745
佛得無念	-12.0745
當知真如是三昧根本	-12.0745
法準思之	-12.0745
扃	-12.0745
栽	-12.0745
若說陀羅尼	-12.0745
矛	-12.0745
l	-12.0745
平坦	-12.0745
以依轉識	-12.0745
苐	-12.0746
饑	-12.0746
無量無邊一切	-12.0746
若因緣具足者	-12.0746
阿毘達磨	-12.0746
搏	-12.0746
若如來藏體有妄法	-12.0746
謂法性功德無有盡故	-12.0746
一者分別事識熏習	-12.0746
為說真覺	-12.0747
故云爾也	-12.0747
百千萬億	-12.0747
常無別異	-12.0747
二者依於業識	-12.0747
心悔	-12.0747
無等等生	-12.0747
所為機	-12.0747
能趣	-12.0748
所見微妙	-12.0748
壞不壞	-12.0748
絃	-12.0748
俟	-12.0749
無我無人	-12.0749
手指	-12.0749
復次信成就發心者	-12.0749
誅	-12.0749
今此論者	-12.075
大攝主識	-12.075
饒	-12.075
蚊蚋	-12.075
隨舉一	-12.075
虔	-12.075
邈	-12.0751
皆遍法界	-12.0751
剎那生滅	-12.0751
依於此義	-12.0751
本來唯心	-12.0751
悲鳴	-12.0751
墮負	-12.0751
倣此	-12.0751
(48	-12.0751
料	-12.0751
無常苦無我	-12.0751
執我我所	-12.0751
一者心真如門	-12.0752
掃	-12.0752
十四過類	-12.0752
膖脹想	-12.0752
輕躁	-12.0752
是故得成此光明放大光明名	-12.0753
新坐禪人	-12.0753
鵝	-12.0753
十不善業道	-12.0753
一體三自	-12.0753
昨	-12.0753
破裂	-12.0753
坐道場	-12.0754
二散文釋	-12.0754
三通權教	-12.0754
嬉戲	-12.0754
􂶗	-12.0754
言生智了	-12.0754
末後	-12.0754
眾生分故	-12.0754
由不覺故	-12.0754
(49	-12.0755
仁王	-12.0755
根原	-12.0755
(45	-12.0755
引教證	-12.0755
賓主	-12.0755
如幻夢	-12.0756
二初牒屬	-12.0756
如月燈經	-12.0756
影響	-12.0756
任運而起	-12.0756
思量修習	-12.0756
娛	-12.0757
綵	-12.0757
煎	-12.0757
輾	-12.0757
天竺國	-12.0757
難追	-12.0757
集量論	-12.0757
廣博	-12.0758
故法華云	-12.0758
不失壞故	-12.0758
優波底沙梁言大光造梁扶南三藏僧伽	-12.0758
得往生	-12.0758
鴈	-12.0758
我入息	-12.0758
一體一心摩訶衍	-12.0758
智相相續	-12.0759
合掌恭敬	-12.0759
等者等取	-12.0759
二者不斷相應染	-12.0759
於念念中	-12.0759
屠	-12.076
崩	-12.076
然上所說	-12.076
雙徵	-12.076
撫	-12.076
墮大地獄	-12.076
是故應禮	-12.076
殘害	-12.076
偷盜	-12.0761
惰	-12.0761
斂	-12.0761
劣弱	-12.0761
嗣	-12.0761
非正能立	-12.0762
安慰	-12.0762
而得生起	-12.0762
而不相妨	-12.0762
疼痛	-12.0762
作依止故	-12.0762
紀	-12.0762
郡	-12.0763
不耐想	-12.0763
人非人等	-12.0763
噉食	-12.0763
牟尼尊	-12.0763
且取	-12.0763
達唯心	-12.0764
簡略	-12.0764
迮	-12.0764
胎藏不安者	-12.0765
故智論云	-12.0765
冥加	-12.0765
忻樂	-12.0765
二長行釋二初	-12.0765
二初徵釋	-12.0765
安布	-12.0765
頂禮佛足	-12.0766
籌量	-12.0766
後世不復生	-12.0766
二者解行發心	-12.0766
愛不愛	-12.0767
皆非現量	-12.0767
無量報身	-12.0768
(47	-12.0768
九孔	-12.0768
六百年	-12.0768
漿	-12.0768
祈	-12.077
尼乾子	-12.077
憍逸	-12.077
有大利益	-12.077
建立名字門	-12.0771
瀑流	-12.0771
誑惑	-12.0772
一僧祇	-12.0772
金翅鳥	-12.0773
淫	-12.0773
饌	-12.0773
羨	-12.0773
十善業道	-12.0773
斬斫	-12.0773
宣揚	-12.0773
抂	-12.0774
藝	-12.0774
號哭	-12.0774
思擇滅	-12.0774
癩	-12.0774
一者信成就發心	-12.0775
為欲令眾生	-12.0775
僧坊	-12.0775
三藏之中	-12.0776
辱	-12.0776
毘沙門	-12.0776
有如是過	-12.0776
(46	-12.0776
貪著世間名利恭敬故	-12.0776
浮雲	-12.0776
功德成滿	-12.0777
閻	-12.0777
降魔	-12.0777
償	-12.0777
対	-12.0777
鋸	-12.0778
遏	-12.0778
偏就	-12.0778
良田	-12.0778
內有二	-12.0778
汝等比丘	-12.0778
除滅無明	-12.0778
是故修觀	-12.0778
藥草	-12.0778
翅	-12.0778
二者是別	-12.0778
如前巳說	-12.078
懊惱	-12.078
性本離	-12.078
教導	-12.078
喻上能立	-12.0781
雙修	-12.0781
殖	-12.0782
羞	-12.0782
如圓覺經	-12.0782
應如是觀	-12.0783
悴	-12.0783
苦滅道	-12.0783
二者對治邪執	-12.0783
營事比丘	-12.0783
如是等發心	-12.0784
無可現	-12.0784
無明與此	-12.0784
具性功德	-12.0786
知相緣相同	-12.0786
消息	-12.0787
本體神王	-12.0787
蒸	-12.0787
怨憎	-12.0787
戌	-12.0788
陞	-12.0788
是地獄人	-12.0789
孕	-12.079
唯是宗法	-12.079
外凡	-12.079
而為說法	-12.0791
所収	-12.0791
無休息	-12.0791
八正道	-12.0792
大般涅槃	-12.0792
観	-12.0792
白銀	-12.0793
係	-12.0794
若善男子善女人	-12.0794
銛	-12.0795
種種異類	-12.0796
花葉	-12.0797
洗浴	-12.0797
苦樂等報	-12.0797
風飄	-12.0799
依功力生	-12.08
成一切種智	-12.0801
釋曰後問答	-12.0801
敵論人	-12.0801
故云即也	-12.0802
車輪	-12.0802
念天	-12.0802
眾妙	-12.0802
啟請	-12.0802
雜華	-12.0803
引經文	-12.0806
二若爾下	-12.0808
滅度後	-12.0809
天雨	-12.0809
念念不可得	-12.081
生滅一門	-12.081
王寧	-12.081
天帝	-12.0811
章句	-12.0813
相不存	-12.0813
至無上道	-12.0813
天宮	-12.0814
遮詮	-12.0814
加行道	-12.0815
無學果	-12.0815
全徧	-12.0816
長劫	-12.0817
從此二義	-12.0818
乃至最後	-12.0818
九十六	-12.0818
能止惡	-12.0818
中觀論	-12.0818
囕	-12.0818
黑象	-12.0819
自下第三明	-12.082
一切人民	-12.082
如瓶盆等	-12.0821
濁水	-12.0821
所謂不生不滅	-12.0823
長時心也	-12.0823
經歷	-12.0824
能示摩訶衍	-12.0825
及眾寶	-12.0826
善不善業	-12.0826
以無明滅故	-12.0826
不出一心	-12.0826
真如本一	-12.0827
此二種生滅	-12.0828
無瑕	-12.0829
宿住	-12.083
未入正定聚	-12.0831
日出時	-12.0831
兩家	-12.0833
如是人者	-12.0835
遂使	-12.0835
眾香	-12.0835
所知法	-12.0838
十種識	-12.0839
同喻異喻	-12.084
說名能破	-12.0841
如明鏡	-12.0842
舌根	-12.0843
無為自在	-12.0846
開演	-12.0846
大河	-12.0847
生諸染法	-12.0847
少善根	-12.0848
禪外行	-12.085
前中二初	-12.0851
斷煩惱障	-12.0851
施戒等	-12.0852
雖念念滅	-12.0852
惡報	-12.0852
起淨用	-12.0855
縱廣	-12.0858
倍前	-12.0859
無差別相	-12.0859
分段變易	-12.086
後邊	-12.0862
眾像	-12.0862
總說有二種	-12.0863
自他平等	-12.0863
誐多	-12.0864
止輪	-12.0864
命終時	-12.0864
能作熏事	-12.0864
聲上所作性	-12.0866
若一日一夜	-12.087
初中三	-12.087
睡人	-12.0872
現在時	-12.0874
理不相違	-12.0877
最重	-12.0877
謂立論者	-12.0877
兔角等	-12.0882
資助	-12.0883
一段文	-12.0886
未到	-12.0887
亦不見	-12.0888
何待	-12.0888
名曰如來	-12.0891
二千由旬	-12.09
出沒	-12.0901
又由下	-12.0905
人天中	-12.0906
真照	-12.0908
隨緣而	-12.091
真如之名	-12.0911
三十三法	-12.0911
水輪	-12.0915
小教	-12.0919
具足莊嚴	-12.092
舊云	-12.092
莫過	-12.0923
所詮理	-12.0924
求學	-12.0925
故名異相	-12.0925
患德	-12.0927
百千歲	-12.0928
最勝業	-12.093
為序分	-12.0932
是故滿足	-12.0933
問詞	-12.0934
諸蘊	-12.0934
於諸世間	-12.0935
能滅心	-12.0935
釋迦如來	-12.0936
復次戒有	-12.0936
隨緣真如	-12.0936
化王	-12.094
縱令	-12.0943
諸蟲	-12.0946
同所成	-12.0947
如兜羅綿	-12.0949
二轉釋	-12.0952
麤識	-12.0952
如修多羅中	-12.0954
牒難	-12.0955
有三初總	-12.0957
不捨眾生	-12.0961
第四明	-12.0964
所生處	-12.0965
邊地	-12.0969
得其名	-12.097
請佛	-12.0971
度量	-12.0973
不救	-12.0975
能所別	-12.0975
以為對治	-12.0976
學習	-12.0979
各具三	-12.0979
即十住	-12.0982
如是等諸	-12.0983
自己	-12.0984
惡字	-12.0987
大名稱	-12.0991
身毛	-12.1
望言陳	-12.1004
女身	-12.1005
習此論	-12.1006
即驗	-12.1007
濕生	-12.1011
自然相應	-12.1011
寂定	-12.102
即生下	-12.1022
隨機現	-12.1024
白淨	-12.1029
皆是不覺相故	-12.1029
聽我	-12.1031
第三分	-12.1037
闇無明	-12.1041
不自生	-12.1041
雙顯	-12.1041
化現	-12.1043
母胎	-12.1044
二門之中	-12.1046
普利	-12.1051
如是義者	-12.1055
俱利	-12.1059
題中	-12.106
所愛樂	-12.106
亦可前	-12.1061
復遠	-12.1068
入大海	-12.107
現一切境	-12.1072
千倍	-12.1079
一切善行	-12.1079
指歸	-12.108
無處不	-12.1082
他能別不成	-12.1083
二乘三賢	-12.1086
以大悲心	-12.1091
體相用三大	-12.1093
染法不斷	-12.1094
此事云何	-12.1097
獨尊	-12.1097
心不相應行	-12.1099
宿命智	-12.1106
瓶有所作	-12.1106
此即第一	-12.1109
所脩	-12.1114
趣求	-12.1116
彼此俱	-12.112
如下云	-12.1122
香熏	-12.1122
是真如相	-12.1122
有非有俱	-12.1122
二述造論意	-12.1125
為流通	-12.1126
[...]
