<unk>	0
<s>	0
</s>	0
(	-2.91207
)	-2.96683
也	-3.88601
/	-4.12427
)(	-4.23381
又	-4.66317
之	-4.76618
切	-4.7711
音	-4.87883
曰	-5.25058
以	-5.50217
為	-5.55615
而	-5.57418
有	-5.68653
反	-5.69753
者	-5.71998
聲	-5.7345
其	-5.79239
同	-5.83195
字	-5.88309
集韻	-5.88356
説文	-5.88417
與	-5.88759
)○	-5.89559
不	-5.95373
􁏐	-6.00166
作	-6.00472
也又	-6.00898
大	-6.09017
於	-6.09231
一	-6.09568
人	-6.13437
廣韻	-6.20294
子	-6.22194
說文	-6.24024
古	-6.24739
上	-6.25663
丨	-6.32446
註	-6.34424
文	-6.36043
無	-6.36411
云	-6.36489
詩	-6.36575
韻	-6.37485
二	-6.37741
三	-6.38051
注	-6.38794
下	-6.40863
从	-6.43654
○	-6.4395
如	-6.43996
中	-6.44887
水	-6.45923
則	-6.47848
名	-6.48721
見	-6.48788
亦作	-6.51573
五	-6.53817
謂之	-6.55856
在	-6.56184
切音	-6.56287
或作	-6.60111
山	-6.60943
從	-6.62873
言	-6.64303
于	-6.65437
小	-6.6708
傳	-6.67308
所	-6.68104
出	-6.68619
兮	-6.68801
行	-6.7
相	-6.71473
謂	-6.71869
亦	-6.71901
四	-6.74321
馬	-6.7623
今	-6.76817
此	-6.76845
木	-6.78523
書	-6.79829
非	-6.80573
爲	-6.81996
王	-6.82511
故	-6.82714
一曰	-6.83853
貌	-6.86396
生	-6.88714
居	-6.88873
部	-6.90785
通	-6.90835
魚	-6.90871
皆	-6.9306
也一曰	-6.93142
長	-6.9646
自	-6.9838
即	-7.00833
□	-7.01119
七	-7.01717
正	-7.02462
衣	-7.02988
似	-7.03673
車	-7.04571
▁	-7.04966
又集韻	-7.05643
通作	-7.05885
是	-7.07092
白	-7.07693
九	-7.0784
力	-7.08191
物	-7.09088
六	-7.09883
釋	-7.10288
古文	-7.11378
食	-7.11807
玉篇	-7.12477
方	-7.12628
多	-7.13326
用	-7.15338
漢	-7.15389
天	-7.15661
胡	-7.18228
石	-7.18704
乃	-7.18807
或	-7.19033
俗	-7.19339
氏	-7.19362
按	-7.19751
公	-7.19985
地	-7.20352
時	-7.20402
然	-7.20531
至	-7.20681
凡	-7.20828
義	-7.20965
女	-7.22242
日	-7.23056
文一	-7.23149
皃	-7.24447
火	-7.24504
屬	-7.25278
口	-7.2552
碑	-7.25821
唐韻	-7.26072
合	-7.27533
明	-7.27739
入	-7.27914
草	-7.28432
易	-7.29443
鳥	-7.29608
心	-7.30115
本	-7.3031
也从	-7.31249
若	-7.31555
八	-7.32222
目	-7.3243
禮	-7.34611
土	-7.35444
後	-7.3578
成	-7.35792
直	-7.35875
我	-7.3597
象	-7.36297
陽	-7.36354
▁(	-7.37685
道	-7.38191
風	-7.39327
呼	-7.3961
牛	-7.39707
同上	-7.40118
切集韻	-7.40253
去	-7.40785
可	-7.41038
國	-7.41662
前	-7.41873
門	-7.42333
周	-7.42829
足	-7.43659
何	-7.44004
齊	-7.45009
平	-7.45134
玉	-7.45415
苦	-7.45439
烏	-7.45456
莫	-7.45537
髙	-7.45914
竹	-7.45915
猶	-7.45947
取	-7.46434
義同	-7.465
乎	-7.47266
疏	-7.48434
矣	-7.48482
事	-7.48955
兩	-7.49707
重	-7.50482
也或作	-7.50835
耳	-7.50981
語	-7.51019
徒	-7.51411
頭	-7.51629
當	-7.53073
爾雅	-7.53878
縣	-7.54265
得	-7.5444
東	-7.54567
田	-7.54783
十	-7.5607
分	-7.56466
知	-7.57133
君	-7.57207
氣	-7.57437
博雅	-7.58412
及	-7.58552
也文一	-7.5937
賦	-7.59889
士	-7.60203
先	-7.60273
許	-7.61336
張	-7.61377
色	-7.61452
來	-7.62493
黄	-7.62578
州	-7.63281
神	-7.63525
華	-7.63884
丘	-7.63916
器	-7.64392
羊	-7.65672
都	-7.66893
一名	-7.66933
俗作	-7.67053
經	-7.67246
或从	-7.67405
南	-7.67559
思	-7.67573
形	-7.67849
能	-7.68279
赤	-7.68386
金	-7.687
曲	-7.69089
又姓	-7.69188
毛	-7.69478
百	-7.70557
楚	-7.70618
疾	-7.71581
樂	-7.716
流	-7.71604
實	-7.7222
西	-7.72511
止	-7.72534
首	-7.73099
安	-7.73151
省	-7.73205
祭	-7.73294
左傳	-7.7334
未	-7.73509
篇	-7.73565
酒	-7.7362
侯	-7.73645
引	-7.73986
武	-7.74284
角	-7.74291
官	-7.74632
立	-7.75021
母	-7.75271
臣	-7.76801
内	-7.76835
龍	-7.77149
和	-7.77478
皮	-7.7768
漢書	-7.78046
民	-7.78287
使	-7.78753
諸	-7.79028
師	-7.79069
舉	-7.7977
志	-7.79851
將	-7.80224
他	-7.8077
史記	-7.81813
令	-7.82405
以為	-7.8251
肉	-7.82653
又音	-7.82662
讀	-7.82798
並	-7.82991
秦	-7.83032
已	-7.83123
北	-7.84096
意	-7.84592
服	-7.85091
欲	-7.85204
元	-7.85207
始	-7.8533
月	-7.85335
羽	-7.85483
光	-7.8581
飛	-7.86132
又廣韻	-7.86413
既	-7.86939
屋	-7.87139
周禮	-7.87179
青	-7.87187
必	-7.87312
雨	-7.87691
夫	-7.87712
布	-7.87939
異	-7.88458
身	-7.88528
數	-7.88835
稱	-7.89282
蒲	-7.90539
病	-7.90566
葉	-7.90587
江	-7.90596
丁	-7.91346
善	-7.91545
韻㑹	-7.91824
盛	-7.92144
手	-7.92522
夏	-7.92563
廣	-7.92623
本作	-7.92672
命	-7.92844
上同	-7.93011
歌	-7.93204
章	-7.93373
載	-7.93486
焉	-7.93893
家	-7.93966
爾	-7.94293
初	-7.948
禾	-7.95026
外	-7.9522
惟	-7.95532
説	-7.9615
二切	-7.96156
因	-7.9624
唐	-7.96552
好	-7.9683
治	-7.96929
父	-7.97178
常	-7.975
類	-7.97553
蟲	-7.97778
離	-7.98388
虎	-7.9843
主	-7.98451
記	-7.98535
說	-7.98611
魯	-7.98739
節	-7.98796
畫	-7.99009
誤	-7.99522
視	-7.99567
清	-7.99576
美	-7.99854
晉	-7.99968
彼	-8.00043
集	-8.00843
世	-8.00884
法	-8.01159
渠	-8.01185
声	-8.01367
處	-8.01511
所以	-8.01585
息	-8.01736
陳	-8.01943
雲	-8.02347
别	-8.02532
復	-8.02822
正韻	-8.03072
衆	-8.03082
余	-8.03096
且	-8.03188
薄	-8.03389
定	-8.03569
孔	-8.04637
骨	-8.04774
也亦作	-8.04786
連	-8.05173
左	-8.0532
伯	-8.05497
次	-8.05927
禮記	-8.0603
去聲	-8.06049
高	-8.06083
餘	-8.06373
城	-8.06482
弓	-8.06543
加	-8.06608
朝	-8.06696
蓋	-8.06728
集韻或作	-8.07187
姓	-8.07206
木名	-8.07292
側	-8.08203
夷	-8.08702
受	-8.08818
徳	-8.08976
史	-8.09074
莊子	-8.09273
海	-8.09415
千	-8.09778
深	-8.09858
逺	-8.09956
年	-8.10148
發	-8.10402
卷	-8.10464
犬	-8.10515
疑	-8.10806
宋	-8.10823
商	-8.1101
陵	-8.11175
詳	-8.11274
體	-8.1144
轉	-8.11515
廣韻集韻	-8.11736
釋云	-8.11763
具	-8.1186
梁	-8.11862
少	-8.11882
鳴	-8.12009
齒	-8.12089
尾	-8.12249
起	-8.12271
求	-8.12439
户	-8.12649
交	-8.12875
動	-8.13278
是也	-8.14391
良	-8.14405
郡	-8.14587
黒	-8.15116
解	-8.15118
寒	-8.15229
容	-8.15317
過	-8.15431
地名	-8.15697
河	-8.15829
又作	-8.15834
隂	-8.15958
字註	-8.16018
盧	-8.16166
米	-8.16564
春	-8.16806
惡	-8.16815
李	-8.18502
死	-8.1876
澤	-8.18833
而不	-8.18899
邑	-8.18975
説文曰	-8.19068
歸	-8.19383
魚名	-8.19398
落	-8.19468
度	-8.19497
蘇	-8.19561
星	-8.19715
朱	-8.19908
老	-8.19964
秋	-8.20041
持	-8.20109
亡	-8.20421
紀	-8.20484
指	-8.2052
說文曰	-8.20844
吾	-8.20878
絲	-8.21061
帝	-8.21601
面	-8.21661
丑	-8.21664
理	-8.21676
射	-8.21695
亂	-8.21853
谷	-8.22559
獸	-8.22642
飾	-8.23398
文一重音一	-8.23465
句	-8.23939
林	-8.24094
奴	-8.24135
結	-8.24424
失	-8.24515
著	-8.24536
微	-8.24549
二韻	-8.24659
變	-8.24995
也從	-8.25248
考	-8.2536
旁	-8.25597
野	-8.25962
㑹	-8.26161
才	-8.26176
類篇	-8.2649
細	-8.26661
執	-8.27103
竝	-8.27238
兵	-8.27268
不可	-8.27386
昌	-8.27581
覆	-8.27754
甲	-8.27858
太	-8.28052
古作	-8.28105
宜	-8.28145
案	-8.28235
支	-8.28343
鹿	-8.28477
間	-8.28511
巨	-8.2859
刀	-8.28596
制	-8.28676
近	-8.28691
魏	-8.28766
豕	-8.29996
里	-8.30116
望	-8.30615
問	-8.30634
列	-8.31032
開	-8.31097
比	-8.31549
鳥名	-8.31656
切說文	-8.31931
訓	-8.32027
難	-8.32199
祖	-8.32664
虚	-8.32795
各	-8.32813
冬	-8.32879
博	-8.33027
利	-8.33166
封	-8.33618
草名	-8.33631
遂	-8.33667
舟	-8.33791
切今用	-8.33893
精	-8.33973
號	-8.34015
鄭	-8.34141
質	-8.34229
堅	-8.34326
雖	-8.3433
除	-8.34375
藏	-8.34524
香	-8.34591
也通作	-8.34723
扶	-8.34749
施	-8.3482
終	-8.34838
矢	-8.3521
獨	-8.35496
艸	-8.35558
萬	-8.35772
補	-8.35933
徐	-8.36208
守	-8.364
斯	-8.369
靈	-8.36981
匹	-8.37071
鼓	-8.37212
樹	-8.37229
應	-8.37393
貎	-8.37508
俱	-8.37684
水名	-8.37799
增	-8.38072
極	-8.38139
擊	-8.38299
表	-8.3844
蟲名	-8.38485
戸	-8.38665
郎	-8.38757
舊	-8.38852
豆	-8.38919
工	-8.38991
學	-8.39168
仲	-8.39316
新	-8.3932
辭	-8.39382
十二	-8.39491
鼎	-8.39539
上聲	-8.39781
市	-8.40176
維	-8.40352
走	-8.40645
半	-8.40817
字韻	-8.40946
改	-8.40969
折	-8.41005
采	-8.41024
空	-8.41317
進	-8.41528
韻補	-8.41713
夜	-8.41954
聚	-8.41998
登	-8.4206
干	-8.4208
憂	-8.42244
革	-8.42283
信	-8.4273
普	-8.4319
垂	-8.4326
代	-8.43469
麥	-8.43548
孫	-8.43647
龜	-8.43908
方言	-8.44005
劉	-8.44039
末	-8.44043
春秋	-8.44151
音義	-8.44467
置	-8.44515
燕	-8.449
論	-8.45008
式	-8.45169
乾	-8.45177
等	-8.45179
尺	-8.4556
右	-8.45604
也又姓	-8.45721
郭	-8.45774
桑	-8.45982
鬼	-8.46053
履	-8.46464
也或从	-8.46641
尚	-8.4676
短	-8.46791
吉	-8.46851
越	-8.46991
翻	-8.47002
皇	-8.47187
乙	-8.4756
功	-8.47792
依	-8.4791
共	-8.47965
也詩	-8.4828
興	-8.48486
闕	-8.4868
職	-8.48918
雞	-8.492
玄	-8.49714
由	-8.49971
蛇	-8.5012
杜	-8.50153
種	-8.50155
德	-8.50322
盡	-8.50378
觀	-8.50383
借	-8.50439
也廣韻	-8.5052
厚	-8.50574
宗	-8.50626
室	-8.50678
揚	-8.50961
邪	-8.5104
輕	-8.51132
冠	-8.51158
路	-8.51381
甘	-8.51684
正字通	-8.51786
幽	-8.5193
斗	-8.52048
盖	-8.52136
井	-8.52365
伏	-8.5243
化	-8.52571
果	-8.52645
泥	-8.52747
急	-8.52833
天子	-8.52847
益	-8.53092
附	-8.53231
尊	-8.53341
御	-8.53378
宫	-8.53529
陟	-8.53762
圭	-8.53882
府	-8.539
簡	-8.54341
倉	-8.54434
養	-8.54622
親	-8.54646
大夫	-8.5475
雜	-8.54834
承	-8.54919
更	-8.54974
殺	-8.5508
根	-8.55121
告	-8.55129
喜	-8.55239
絶	-8.55286
辟	-8.55381
衡	-8.55698
端	-8.56079
笑	-8.56225
哀	-8.56965
銘	-8.57236
辨	-8.57394
浮	-8.57449
麻	-8.57547
束	-8.57668
聞	-8.57806
敬	-8.58151
切集韻韻㑹	-8.58611
舒	-8.58626
升	-8.58632
孟	-8.58658
虞	-8.58937
予	-8.59189
平聲	-8.59211
飲	-8.60083
羣	-8.60366
殷	-8.60371
位	-8.60563
牙	-8.60599
軍	-8.60639
達	-8.6064
掌	-8.60794
病也	-8.61044
隨	-8.61154
遺	-8.61257
韋	-8.61265
池	-8.61496
刺	-8.6173
别作	-8.62135
符	-8.62336
昭	-8.6234
孟子	-8.62699
原	-8.62914
尤	-8.63163
但	-8.63235
遇	-8.6324
乗	-8.6331
卦	-8.63378
素	-8.63379
楊	-8.6347
永	-8.63721
衛	-8.6377
被	-8.63873
鼻	-8.64222
雅	-8.64226
釋文	-8.64317
貫	-8.64337
申	-8.64344
宣	-8.64958
巾	-8.65028
傷	-8.65038
吐	-8.6504
莊	-8.65121
甚	-8.65303
致	-8.65317
隱	-8.65433
切説文	-8.65457
枝	-8.65518
篇海	-8.65537
荀子	-8.65683
臨	-8.65722
嘉	-8.6599
又與	-8.65991
芳	-8.66017
横	-8.66352
積	-8.66524
山名	-8.66715
性	-8.66727
延	-8.66831
叔	-8.66837
天下	-8.66964
之後	-8.66967
對	-8.67015
負	-8.67066
見上	-8.67112
景	-8.6713
房	-8.67425
師古曰	-8.67446
叶	-8.67543
歩	-8.6768
蜀	-8.67797
文二	-8.67819
泉	-8.67846
靡	-8.67978
船	-8.68169
須	-8.68231
帶	-8.68326
柔	-8.68435
雉	-8.68525
陸	-8.68575
鍾	-8.68908
婦	-8.68954
真	-8.68982
可以	-8.69097
怒	-8.69186
仁	-8.6926
司	-8.69294
降	-8.6947
序	-8.69528
頌	-8.69702
古音	-8.69756
教	-8.69975
咸	-8.69983
獻	-8.69994
戎	-8.70168
爵	-8.70712
堂	-8.71027
明也	-8.71045
要	-8.71109
步	-8.71119
姑	-8.7133
儀	-8.71453
刻	-8.71576
不能	-8.71718
穴	-8.71767
任	-8.72043
屈	-8.72048
甫	-8.72093
勞	-8.72141
豈	-8.72224
切一	-8.72247
散	-8.72322
律	-8.72474
厥	-8.72498
君子	-8.72562
久	-8.72636
吳	-8.72662
斷	-8.72706
建	-8.72841
福	-8.72853
固	-8.72937
花	-8.73124
瓜	-8.73196
趙	-8.73266
丹	-8.73483
藥	-8.73486
露	-8.73555
伐	-8.73661
卑	-8.73884
舞	-8.742
之形	-8.74251
背	-8.74547
政	-8.74761
收	-8.7494
略	-8.75
有所	-8.75004
回	-8.75295
鹽	-8.75386
修	-8.75432
卒	-8.75489
耕	-8.75511
羅	-8.7576
黑	-8.76305
獸名	-8.76317
庚	-8.77209
順	-8.77226
䑕	-8.77249
山海經	-8.77349
忽	-8.77483
今作	-8.77831
阿	-8.78137
穀	-8.78183
川	-8.78282
移	-8.78319
雷	-8.78594
前漢	-8.78603
弋	-8.78735
葢	-8.7874
含	-8.78929
悲	-8.79008
諸侯	-8.79161
向	-8.7929
几	-8.79317
汝	-8.79439
詩云	-8.79665
昔	-8.79757
參	-8.79773
還	-8.79883
血	-8.79916
毒	-8.79964
孝	-8.80062
滿	-8.8019
賢	-8.80248
閒	-8.80338
視也	-8.80444
宿	-8.80469
管	-8.80473
亭	-8.80479
刑	-8.80859
鳩	-8.80956
休	-8.81076
廟	-8.81082
象形	-8.81084
留	-8.81168
肥	-8.81586
十三	-8.81691
莖	-8.81814
據	-8.81998
菜	-8.82046
波	-8.82062
逆	-8.82441
榖	-8.82447
坐	-8.82571
髪	-8.82597
勿	-8.83117
翼	-8.83595
剛	-8.83604
典	-8.83696
彌	-8.83823
讀若	-8.83859
委	-8.83889
謹	-8.83975
造	-8.84042
存	-8.84051
論語	-8.84165
韻義異	-8.84312
髮	-8.84345
帛	-8.84418
辛	-8.84527
濟	-8.84569
十五	-8.84596
感	-8.84682
嚴	-8.84721
康	-8.84826
貝	-8.84925
省聲	-8.84989
淺	-8.85154
所謂	-8.85273
季	-8.8543
沈	-8.85503
介	-8.85838
詞	-8.85916
設	-8.86183
蔽	-8.86206
哉	-8.8654
易林	-8.86851
丈	-8.86925
國名	-8.87131
交切	-8.87223
之義	-8.873
釋名	-8.87379
徂	-8.8766
字彙補	-8.87719
人之	-8.87736
克	-8.87832
窮	-8.87838
臺	-8.8791
沙	-8.87949
増	-8.88005
候	-8.88079
二十	-8.88409
塞	-8.88558
放	-8.88628
游	-8.88843
鐵	-8.88876
湯	-8.88889
顧	-8.88915
竒	-8.8896
舍	-8.88977
條	-8.89054
厲	-8.8914
驚	-8.89218
陶	-8.89352
奉	-8.89371
計	-8.89381
私	-8.89392
故曰	-8.89444
便	-8.89536
蕭	-8.89556
臣鍇曰	-8.89582
害	-8.89765
奏	-8.89851
大也	-8.89867
畢	-8.90102
畜	-8.90138
豐	-8.90169
韻會	-8.90252
尸	-8.90299
舌	-8.90457
旦	-8.90501
紫	-8.90705
約	-8.91082
行也	-8.91249
弗	-8.91349
備	-8.91462
又玉篇	-8.9156
卜	-8.91581
味	-8.91614
伊	-8.91695
毛氏韻増	-8.91753
眉	-8.92039
十四	-8.92104
歴	-8.92161
索	-8.92177
禹	-8.92311
𫝊	-8.92315
鄉	-8.92479
勝	-8.92574
呉	-8.92643
敗	-8.92719
織	-8.92819
純	-8.92832
珠	-8.93432
廢	-8.9349
繫	-8.93574
寸	-8.93582
兼	-8.93607
鼠	-8.93795
蒙	-8.93937
後漢	-8.94091
送	-8.94118
后	-8.94168
倚	-8.94181
識	-8.94208
戈	-8.94293
鉤	-8.94385
敦	-8.94591
威	-8.94637
竹名	-8.94877
熟	-8.94905
庶	-8.94958
謀	-8.94971
特	-8.94972
蘭	-8.95266
往	-8.95271
詩曰	-8.95392
差	-8.95502
區	-8.95546
十六	-8.95551
字下	-8.95581
適	-8.95646
止也	-8.95743
單	-8.95835
業	-8.95972
腹	-8.9629
者也	-8.96314
吕	-8.96484
飯	-8.9688
錯	-8.96901
之言	-8.96949
辰	-8.97026
麗	-8.97084
擊也	-8.97158
吏	-8.97175
亦姓	-8.97223
切集韻韻㑹正韻	-8.97243
尚書	-8.97344
黃	-8.97354
又曰	-8.97406
)□(	-8.97479
十九	-8.97814
雀	-8.98011
盤	-8.98243
震	-8.98434
恐	-8.98493
郭云	-8.98674
聖	-8.9885
圖	-8.98871
巧	-8.98931
通用	-8.99251
推	-8.99327
増入	-8.9944
柱	-8.99444
弟	-8.99575
强	-8.99638
弱	-8.99645
率	-8.9966
筆	-8.99701
草木	-8.99758
格	-9.00067
文一重音二	-9.00092
破	-9.00154
就	-9.00256
十一	-9.00264
又叶	-9.00272
客	-9.00379
一作	-9.0072
二字	-9.00747
韓	-9.0082
財	-9.00906
濁	-9.01079
洛	-9.01124
罪	-9.01329
昨	-9.01387
夕	-9.01417
虛	-9.01429
萬物	-9.0144
佩	-9.01486
征	-9.01496
水出	-9.01571
曹	-9.01612
籀文	-9.0177
駕	-9.01771
拜	-9.0184
繩	-9.01999
葛	-9.02042
押	-9.02112
旋	-9.02201
祝	-9.02293
雄	-9.02297
艸名	-9.02619
滅	-9.02766
吹	-9.03112
貴	-9.03136
危	-9.03195
敷	-9.03198
禁	-9.03239
紅	-9.03254
瓦	-9.03319
与	-9.03351
英	-9.03546
淮南子	-9.03644
不知	-9.03719
各切	-9.03729
气	-9.03811
充	-9.03866
錢	-9.03922
枯	-9.04092
嵗	-9.04172
輿	-9.04239
獲	-9.04305
戒	-9.0436
黍	-9.04368
爾雅曰	-9.0438
貌又	-9.04563
注云	-9.04731
温	-9.04836
榮	-9.04896
席	-9.04965
塗	-9.04985
卿	-9.0502
願	-9.05205
之所	-9.05276
愛	-9.05364
賈	-9.05441
敕	-9.05478
廣雅	-9.05505
兹	-9.05747
習	-9.05766
逐	-9.05923
暴	-9.05981
賜	-9.06096
族	-9.06124
喪	-9.06171
假	-9.06258
匪	-9.06307
茅	-9.06317
情	-9.0642
盈	-9.06533
録	-9.06611
仰	-9.06741
乘	-9.06763
蒼	-9.06841
關	-9.07173
妻	-9.07299
孤	-9.07301
鬱	-9.07319
孚	-9.07387
顔	-9.07442
稻	-9.0745
桃	-9.0748
營	-9.07505
再	-9.07598
脂	-9.07755
總	-9.08023
示	-9.08335
乳	-9.0835
淵	-9.08688
醜	-9.08766
寧	-9.08796
察	-9.088
刃	-9.08929
穿	-9.08955
助	-9.09225
縣名	-9.093
鼔	-9.09378
旱	-9.09532
保	-9.09595
不得	-9.09726
十八	-9.09737
鮮	-9.09739
荒	-9.0974
杖	-9.09817
期	-9.09906
振	-9.09913
二音	-9.10321
厭	-9.1038
入聲	-9.10464
童	-9.10553
字彚補	-9.10855
班	-9.109
殊	-9.10955
奔	-9.10962
仕	-9.11006
牡	-9.11011
字彚	-9.1105
全	-9.11174
照	-9.11191
京	-9.11195
接	-9.11251
茂	-9.11298
召	-9.11319
旗	-9.11398
楚辭	-9.11404
燒	-9.11622
蒸	-9.11627
密	-9.11764
旅	-9.11858
逸	-9.11941
惠	-9.11973
切正韻	-9.12154
斤	-9.12206
決	-9.12366
壯	-9.12421
十七	-9.12509
皃又	-9.12509
薦	-9.12615
邊	-9.12643
徐曰	-9.12682
智	-9.1272
慮	-9.12727
聲也	-9.12974
敢	-9.13032
之屬	-9.13058
題	-9.13085
桓	-9.1313
兒	-9.13137
彊	-9.13209
說文云	-9.13295
畏	-9.13322
栗	-9.13367
漸	-9.13657
字彙	-9.13696
尼	-9.13727
加切	-9.13798
熱	-9.14189
輔	-9.14391
證	-9.14443
己	-9.14452
懐	-9.14574
雙	-9.14616
規	-9.14673
墨	-9.14775
水名在	-9.1486
脩	-9.14863
今圈	-9.14881
詩小雅	-9.14905
鐘	-9.15034
兔	-9.15039
請	-9.15116
困	-9.15169
也左傳	-9.15199
祀	-9.15209
秀	-9.15446
錫	-9.15539
鑿	-9.1568
披	-9.15788
之類	-9.15801
勇	-9.15811
箋	-9.15818
夢	-9.15965
戲	-9.16148
之以	-9.16159
儒	-9.16166
戾	-9.16255
專	-9.16259
尋	-9.16407
也文一重音一	-9.1654
女字	-9.16568
趨	-9.166
婁	-9.16677
蕩	-9.1673
頸	-9.16928
罔	-9.1706
契	-9.17145
編	-9.17164
圓	-9.17169
爰	-9.17223
覺	-9.17242
説文作	-9.17269
物也	-9.17277
侵	-9.17282
陰	-9.17321
追	-9.17513
協	-9.17523
兆	-9.17693
疾也	-9.1775
邦	-9.17843
字之譌	-9.18083
蠶	-9.18108
殿	-9.1819
運	-9.18347
牆	-9.18375
佳	-9.1857
人名	-9.18672
審	-9.1875
權	-9.19047
聽	-9.19052
姓也	-9.19209
庭	-9.19247
悉	-9.19253
牀	-9.19255
逢	-9.19281
偏	-9.19418
淫	-9.19431
顯	-9.19431
泰	-9.19494
堯	-9.19539
夾	-9.19569
者曰	-9.19612
器也	-9.19743
縱	-9.19822
展	-9.19835
戰	-9.19898
傳曰	-9.19916
馳	-9.1996
汁	-9.19965
調	-9.19978
避	-9.19981
均	-9.20001
天地	-9.20052
續	-9.202
累	-9.20261
亦曰	-9.20271
切許氏曰	-9.20342
狄	-9.20551
包	-9.20619
狐	-9.20701
遲	-9.20745
崇	-9.20767
例	-9.20775
也本作	-9.20832
幹	-9.21093
切見	-9.21117
力切	-9.21272
動也	-9.21315
臭	-9.21324
縁	-9.21334
譌	-9.214
牽	-9.21479
選	-9.21497
誰	-9.21548
唐韻集韻	-9.21565
本草	-9.21616
為之	-9.2165
雪	-9.21683
囊	-9.21728
慈	-9.21733
歲	-9.21993
領	-9.22076
縣名在	-9.22272
集韻韻㑹	-9.22321
狗	-9.22353
棘	-9.22357
箭	-9.22446
緩	-9.22446
貞	-9.22502
削	-9.2253
舜	-9.22598
集韻同	-9.22614
并	-9.22685
徑	-9.22739
報	-9.22878
遷	-9.22933
三十	-9.22978
溝	-9.23154
荷	-9.23455
繒	-9.23503
取也	-9.23564
兩切	-9.2363
也周禮	-9.23699
染	-9.23866
最	-9.23901
祥	-9.24041
粟	-9.24055
咨	-9.24181
棄	-9.24233
来	-9.24273
木也	-9.24362
狼	-9.24579
恭	-9.24595
閉	-9.24659
鄙	-9.24674
投	-9.24676
弦	-9.24993
也集韻或作	-9.25272
之意	-9.25318
牲	-9.25445
怪	-9.25549
傾	-9.25622
不同	-9.25769
驅	-9.25775
劒	-9.26072
腫	-9.26103
術	-9.26139
或曰	-9.26174
别名	-9.26207
第	-9.26272
效	-9.26408
也亦姓	-9.26454
巢	-9.26467
熊	-9.26551
容切	-9.26962
念	-9.27052
韓愈	-9.27184
奚	-9.27195
乆	-9.27327
曉	-9.27384
字林	-9.27399
唯	-9.27403
環	-9.27475
隸	-9.27511
仙	-9.2758
脊	-9.27613
苗	-9.27644
圜	-9.27676
眞	-9.27862
衣也	-9.28078
篆	-9.28081
荆	-9.28104
汗	-9.28129
炎	-9.28132
也亦	-9.28308
老子	-9.28463
輪	-9.28676
拘	-9.28676
葵	-9.2875
昆	-9.28789
贊	-9.28831
滑	-9.28881
賔	-9.28909
界	-9.28917
校	-9.29088
貢	-9.29124
兄	-9.2934
者為	-9.29353
芒	-9.29363
黎	-9.29471
未詳	-9.29504
如此	-9.29609
混	-9.29622
諫	-9.29851
謝	-9.29903
文一重音	-9.2991
左右	-9.30035
冰	-9.30182
醉	-9.30423
納	-9.30492
胥	-9.30509
狀	-9.30523
攻	-9.30524
草也	-9.30547
蔡	-9.30643
凶	-9.30716
役	-9.3076
之名	-9.30781
愚	-9.30846
馮	-9.30882
毁	-9.30973
煩	-9.31001
別作	-9.31224
遊	-9.31252
今用	-9.31281
訛	-9.31386
臂	-9.31415
狂	-9.31482
獵	-9.31779
本字	-9.31825
㠯	-9.31885
缺	-9.31912
藉	-9.31938
董	-9.32082
徹	-9.32115
行貌	-9.32147
鴻	-9.32159
郊	-9.32278
牢	-9.32369
激	-9.32396
宮	-9.32404
烈	-9.3249
岸	-9.32492
或謂之	-9.32538
借為	-9.32576
痛	-9.32718
塵	-9.32816
圍	-9.32923
材	-9.33018
侯切	-9.33073
免	-9.33124
豫	-9.33134
勢	-9.33159
禽	-9.3321
的	-9.33287
灰	-9.33337
壁	-9.3345
底	-9.33491
乞	-9.33527
偶	-9.33662
水中	-9.33748
稽	-9.33941
婦人	-9.34061
繁	-9.34257
玉名	-9.34262
艾	-9.34264
軫	-9.34312
基	-9.34401
范	-9.34419
機	-9.34517
當作	-9.34548
一字	-9.34709
懸	-9.35018
釋曰	-9.3507
鉏	-9.35222
富	-9.35225
量	-9.35274
古者	-9.35285
幸	-9.35335
坎	-9.35343
仍	-9.35362
肅	-9.35383
述	-9.35569
蹇	-9.35571
樓	-9.35586
險	-9.3559
脛	-9.3565
猛	-9.35756
膏	-9.35768
植	-9.35802
翰	-9.35811
戴	-9.35847
引詩	-9.36048
幾	-9.3607
詔	-9.36188
育	-9.36193
也二	-9.36322
襄	-9.36472
寢	-9.36561
拔	-9.36676
慶	-9.36692
沃	-9.36693
宅	-9.3675
皃文一	-9.36906
銜	-9.37016
影	-9.37037
至也	-9.37132
而無	-9.37165
網	-9.37269
嗟	-9.37277
昏	-9.37325
切二	-9.37353
喙	-9.3737
懷	-9.37434
衞	-9.37575
之間	-9.37609
倫切	-9.37639
救	-9.37702
早	-9.3771
賣	-9.37726
㦸	-9.37736
絳	-9.37799
版	-9.37803
肆	-9.37881
今之	-9.3809
阜	-9.38185
暮	-9.38234
互	-9.38305
牧	-9.38382
溪	-9.38383
小兒	-9.38406
蟬	-9.38578
又人名	-9.38586
阻	-9.38661
寄	-9.38681
孰	-9.38727
貪	-9.38745
炙	-9.38761
聲徐曰	-9.38808
巴	-9.3882
憂也	-9.38855
柄	-9.38896
)【	-9.3895
軌	-9.39012
資	-9.39019
摩	-9.39047
重増	-9.3905
籠	-9.39124
屑	-9.39155
縷	-9.39193
割	-9.39309
監	-9.3931
舂	-9.39426
待	-9.39434
階	-9.39579
嘗	-9.39579
撫	-9.39687
只	-9.39718
籍	-9.39754
蒿	-9.39857
傍	-9.39906
勒	-9.39921
結切	-9.39932
反丨	-9.39957
桂	-9.39981
也玉篇	-9.40002
雌	-9.40133
切釋	-9.40141
也釋	-9.40336
麋	-9.40348
冥	-9.40435
曷	-9.40442
垣	-9.40508
統	-9.40516
同上又	-9.40548
爪	-9.40576
慎	-9.40583
日月	-9.40657
僕	-9.40694
長也	-9.40695
豪	-9.40793
歳	-9.40928
六切	-9.40939
恨	-9.40954
戚	-9.4112
強	-9.41127
頓	-9.41132
農	-9.41227
也象	-9.41259
防	-9.41337
庸	-9.41345
掩	-9.41472
矛	-9.4148
美也	-9.41535
増韻	-9.41555
隠	-9.41605
者名	-9.41713
詩大雅	-9.41894
閭	-9.41909
閑	-9.41952
愁	-9.42002
切文一重音一	-9.42033
隅	-9.42051
招	-9.42162
隆	-9.42165
賊	-9.4218
閣	-9.42191
聲一曰	-9.42303
頰	-9.42337
可食	-9.42369
聚也	-9.42433
宛	-9.42438
析	-9.42449
文三	-9.42484
逹	-9.42493
旣	-9.42518
棗	-9.42691
上下	-9.42798
怨	-9.42956
夭	-9.43285
列切	-9.43304
撰	-9.43308
闗	-9.43446
酉	-9.43455
斧	-9.43457
計切	-9.4346
璧	-9.43729
勤	-9.43732
尹	-9.4381
倫	-9.43828
又州名	-9.43852
隋	-9.43887
鱗	-9.43924
漢有	-9.43965
焦	-9.44052
讀為	-9.44065
傅	-9.44115
託	-9.44126
以爲	-9.44154
衍	-9.44166
提	-9.44242
敵	-9.44288
朔	-9.44311
松	-9.44391
苑	-9.4442
議	-9.4443
忍切	-9.44546
肩	-9.44653
列子	-9.44706
也又音	-9.44734
亮切	-9.44794
巳	-9.44876
齧	-9.44925
盛也	-9.44933
况	-9.44976
宰	-9.45058
希	-9.4525
遵	-9.45347
喻	-9.4544
爭	-9.45442
黨	-9.45723
忠	-9.45753
衰	-9.45772
午	-9.45805
賤	-9.45813
从木	-9.45821
偃	-9.45895
司馬	-9.45956
殘	-9.45958
叢	-9.46041
貨	-9.46107
昧	-9.46154
每	-9.46161
導	-9.46164
豹	-9.4632
角切	-9.46346
燭	-9.46363
寡	-9.46434
陂	-9.46542
非是	-9.46582
項	-9.4664
珍	-9.46683
壽	-9.467
而小	-9.46707
聲又	-9.46761
增入	-9.46776
也禮記	-9.46935
銅	-9.46972
棺	-9.47224
懼	-9.47324
綏	-9.47624
軒	-9.47642
占	-9.47654
藻	-9.47698
紛	-9.47812
良切	-9.47895
許氏曰	-9.47974
□□	-9.48067
享	-9.48074
禄	-9.48164
聊	-9.48311
無所	-9.48415
雍	-9.48513
溢	-9.4857
持也	-9.48587
友	-9.48601
冒	-9.48618
将	-9.48622
書曰	-9.48624
系	-9.48658
毗	-9.48778
考工記	-9.48927
說文作	-9.4895
寘	-9.48989
俞	-9.49033
崔	-9.49058
揚雄	-9.49088
患	-9.49199
匕	-9.49274
卵	-9.49292
竭	-9.49322
到切	-9.49403
妙	-9.49424
誠	-9.49458
寛	-9.49489
安也	-9.49512
為一	-9.49535
濕	-9.49685
禦	-9.49863
倒	-9.49959
扇	-9.4999
也莊子	-9.50107
洽	-9.50164
烝	-9.50177
卧	-9.50178
臧	-9.50248
裂	-9.50287
災	-9.50329
鶴	-9.50354
廉	-9.50419
會	-9.50497
皆作	-9.50527
敖	-9.50535
退	-9.50546
黄帝	-9.50555
迷	-9.50571
敝	-9.50662
試	-9.5069
寳	-9.50706
矜	-9.50813
損	-9.50816
速	-9.50831
可為	-9.50853
文選	-9.50893
倪	-9.50971
紙	-9.50975
牝	-9.50997
俾	-9.51057
忘	-9.51141
寫	-9.51143
毋	-9.51149
三韻	-9.51156
者謂之	-9.51162
食之	-9.51267
贈	-9.5128
別	-9.51305
咽	-9.51326
没	-9.51396
人所	-9.51399
抱	-9.51405
俗音	-9.51524
北方	-9.51531
斬	-9.51612
洪	-9.51686
賓	-9.5169
灌	-9.51705
行皃	-9.51764
驕	-9.51793
梅	-9.5182
消	-9.51904
獨用	-9.51923
犯	-9.5197
瑞	-9.5207
羌	-9.52072
它	-9.52325
耑	-9.52488
濫	-9.52519
了	-9.52609
額	-9.52617
薛	-9.52659
也史記	-9.52708
竊	-9.5278
賁	-9.52813
道也	-9.52929
屯	-9.5302
儀禮	-9.53029
務	-9.53036
三年	-9.533
无	-9.53348
遇切	-9.53436
妄	-9.5353
品	-9.53579
洞	-9.5358
鞠	-9.53614
冕	-9.53621
夀	-9.53645
距	-9.53738
蕃	-9.53758
也易	-9.53881
獄	-9.53895
旄	-9.54024
朗切	-9.54032
五音集韻	-9.5407
弁	-9.54071
繇	-9.54111
重增	-9.54138
穆	-9.54153
忍	-9.54164
縮	-9.54178
産	-9.54185
脚	-9.54267
忌	-9.54298
今人	-9.54378
又類篇	-9.54479
否	-9.54512
字註詳	-9.54522
騎	-9.54683
宵	-9.54738
國語	-9.54797
霜	-9.54799
以其	-9.54873
墓	-9.54953
爽	-9.55177
綺	-9.5518
峻	-9.55274
凝	-9.55328
婢	-9.55372
岐	-9.55394
巖	-9.55444
鄰	-9.55502
拂	-9.55591
庚切	-9.55651
救切	-9.55661
从水	-9.5585
絮	-9.55853
又正韻	-9.55888
湖	-9.55907
遠	-9.56077
歎	-9.56109
字从	-9.56139
蟹	-9.56224
浪	-9.5635
鵲	-9.56394
欺	-9.56406
律切	-9.56545
宇	-9.56554
南方	-9.56585
禮切	-9.56629
回切	-9.56681
祠	-9.56705
毛氏曰	-9.56724
責	-9.56779
浪切	-9.56816
琴	-9.56855
漢志	-9.56864
盡也	-9.56925
䝉	-9.57031
鵠	-9.57032
巫	-9.57092
謨	-9.57104
授	-9.57188
爻	-9.57265
又廣韻集韻	-9.57316
㸃	-9.57321
春秋傳	-9.57344
沒	-9.57381
恩	-9.57449
或省	-9.57607
記曰	-9.57697
佐	-9.57727
孔子	-9.57741
柳	-9.57761
虫	-9.57764
併	-9.57801
和也	-9.57868
鬲	-9.5794
涕	-9.57988
把	-9.57999
攸	-9.57999
泣	-9.58189
粉	-9.58208
疋	-9.5828
石經	-9.58309
切音與	-9.58325
屏	-9.58348
旬	-9.58445
譜	-9.58481
模	-9.58501
葬	-9.58833
縫	-9.58866
果切	-9.58928
湛	-9.58934
萌	-9.59119
彭	-9.5915
零	-9.59151
瓠	-9.59171
板	-9.59267
豬	-9.59283
何切	-9.59294
丨丨	-9.59382
飾也	-9.59414
眼	-9.59422
弔	-9.59472
箕	-9.59493
苟	-9.59529
書作	-9.59537
諧	-9.59662
急也	-9.59686
拾	-9.59704
江切	-9.59793
斂	-9.59963
磨	-9.60108
也増韻	-9.6013
又本韻	-9.60272
厯	-9.60281
亂也	-9.60282
管子	-9.60354
麤	-9.60479
晉書	-9.60599
敏	-9.60618
舎	-9.60635
檢	-9.60685
薪	-9.60865
言也	-9.60911
脅	-9.60962
灼	-9.60973
突	-9.61121
枚	-9.61129
漆	-9.61153
倍	-9.61174
觸	-9.61204
酌	-9.61283
宻	-9.6129
渾	-9.61346
到	-9.61348
津	-9.61392
其中	-9.61401
低	-9.61499
稍	-9.61529
賄	-9.61577
禍	-9.61743
卅	-9.61759
股	-9.61808
沛	-9.61812
括	-9.61814
曾	-9.62013
劣	-9.62025
訖	-9.62044
㑹意	-9.62052
循	-9.62104
隷	-9.62305
社	-9.62394
也从心	-9.62488
銳	-9.62502
覃	-9.62529
二十四	-9.62531
苴	-9.62535
魂	-9.62541
今増	-9.62545
摇	-9.6255
徙	-9.62581
裳	-9.62601
或書作	-9.62625
栁	-9.62681
理也	-9.62713
羮	-9.62842
配	-9.62882
言其	-9.62894
域	-9.63022
弩	-9.63117
氐	-9.63131
印	-9.6316
西方	-9.63191
諱	-9.63263
耕切	-9.63264
荼	-9.6331
又唐韻	-9.63349
之字	-9.63379
頗	-9.63427
男	-9.63452
滂	-9.63484
副	-9.63664
亢	-9.63677
秉	-9.6384
也爾雅	-9.63972
曽	-9.64039
抑	-9.64041
澄	-9.64071
奄	-9.64085
寶	-9.64114
瑟	-9.6414
文二重音一	-9.64142
翟	-9.6415
迹	-9.6419
亦有	-9.64209
也从糸	-9.64297
月令	-9.6449
誅	-9.646
臼	-9.64608
橋	-9.64676
也漢書	-9.64711
鋤	-9.64733
徃	-9.64778
買	-9.64844
鳯	-9.64858
讀如	-9.64903
取其	-9.64935
創	-9.64942
奮	-9.64976
旨	-9.65192
覽	-9.65202
芻	-9.65248
穢	-9.65309
繼	-9.65337
浸	-9.65464
罷	-9.65467
矦	-9.65565
握	-9.656
築	-9.65664
姦	-9.65795
畧	-9.65795
濡	-9.65808
駭	-9.65814
樊	-9.65851
㣲	-9.65858
䇿	-9.65973
幼	-9.65981
洗	-9.6606
台	-9.66178
錄	-9.66198
朋	-9.66209
人也	-9.66224
歡	-9.66227
謁	-9.66415
刃切	-9.66669
二反	-9.66673
源	-9.66691
腸	-9.66727
九切	-9.66736
假借	-9.66757
亥	-9.6676
鴈	-9.6685
沸	-9.66924
繹	-9.66932
又地名	-9.66933
費	-9.66963
噐	-9.66992
四方	-9.66995
莽	-9.67179
此是	-9.67214
錦	-9.67248
準	-9.67454
雕	-9.67508
太守	-9.67581
弄	-9.67647
也釋名	-9.67739
喬	-9.6775
踐	-9.6776
爛	-9.67796
薺	-9.67866
妃	-9.67898
也从水	-9.67917
牟	-9.67928
徵	-9.68005
妖	-9.68054
也从手	-9.68247
説文云	-9.68271
夫人	-9.68293
靜	-9.68343
絞	-9.68345
奇	-9.68388
晚	-9.68428
漏	-9.68483
俯	-9.68533
枲	-9.68601
抽	-9.68621
寐	-9.6876
迎	-9.68774
中有	-9.68778
酢	-9.68814
銀	-9.68831
周官	-9.6885
濯	-9.68857
榆	-9.68913
阮	-9.68931
二百	-9.68951
又見下	-9.68968
樂也	-9.68985
程	-9.69036
河南	-9.69056
也書	-9.69197
陌	-9.6921
飢	-9.6928
隔	-9.69468
蔓	-9.69483
徴	-9.69557
談	-9.69675
恥	-9.69724
恒	-9.69824
鳥也	-9.69849
援	-9.69883
後人	-9.70071
檻	-9.70112
魁	-9.70123
同用	-9.70128
丸	-9.70153
操	-9.70155
絡	-9.70173
轡	-9.70205
之貌	-9.70295
練	-9.70342
答	-9.70591
􁂅	-9.70626
公羊傳	-9.70655
晏	-9.70707
不敢	-9.70713
驗	-9.70729
玉切	-9.70738
呂	-9.70781
裁	-9.70837
見爾雅	-9.70844
聿	-9.70871
郎切	-9.70887
聲廣韻	-9.70898
癡	-9.70902
代切	-9.70903
釐	-9.70915
邑名	-9.71004
障	-9.71006
苞	-9.71039
元年	-9.71058
卓	-9.71097
箸	-9.71162
欠	-9.71264
相如賦	-9.71283
南陽	-9.71333
咎	-9.71384
邱	-9.71394
而已	-9.71419
然則	-9.71501
怒也	-9.71533
祈	-9.71537
擬	-9.71541
鼈	-9.71554
柴	-9.71697
幅	-9.71718
㫖	-9.71782
脣	-9.71875
稷	-9.71919
从艸	-9.71967
韻今圈	-9.71988
翳	-9.72157
同説文	-9.72306
豚	-9.72329
勃	-9.72331
皓	-9.7236
弘	-9.72383
藍	-9.72451
正音	-9.72469
迥	-9.72514
候切	-9.72524
切三	-9.72585
脯	-9.72597
裘	-9.72663
弭	-9.72735
綴	-9.72742
趣	-9.72759
䟽	-9.72778
声臣鍇曰	-9.72795
潛	-9.72824
賛	-9.72892
狀如	-9.72894
二十五	-9.7291
讓	-9.72927
廬	-9.72954
感切	-9.7296
踰	-9.72969
陷	-9.73021
黏	-9.73065
那	-9.73092
縛	-9.73191
允	-9.73209
膚	-9.73242
二十三	-9.73254
猗	-9.73256
奪	-9.73267
後漢書	-9.73272
超	-9.73315
膠	-9.73321
卽	-9.73359
而大	-9.73416
頃	-9.73451
宥	-9.73491
策	-9.73516
蹄	-9.7353
為韻	-9.7364
葦	-9.73718
糾	-9.73752
敬也	-9.73786
響	-9.73801
奥	-9.7388
氣也	-9.73907
岳	-9.73951
裏	-9.73974
輸	-9.73987
組	-9.7417
衝	-9.74222
梓	-9.74316
名又	-9.74321
用之	-9.74341
也古作	-9.7446
也引詩	-9.74542
樞	-9.74577
擇	-9.74619
潤	-9.74681
盆	-9.74825
勺	-9.74896
不相	-9.74935
給	-9.7497
含切	-9.74972
也从人	-9.75022
墮	-9.75075
名曰	-9.75113
壬	-9.75151
又韻㑹	-9.75183
竹器	-9.75218
騰	-9.75284
貧	-9.75291
隂陽	-9.75293
刪	-9.75325
淮	-9.75354
竟	-9.75471
融	-9.75505
嫁	-9.75524
罟	-9.7554
辯	-9.75559
暗	-9.7557
物之	-9.75586
促	-9.75659
五十	-9.75685
覆也	-9.7571
盍切	-9.75725
合切	-9.75779
悔	-9.75789
鑑	-9.75809
侍	-9.75811
釋按	-9.75833
箴	-9.75847
究	-9.75899
違	-9.76006
翁	-9.76027
健	-9.76033
彫	-9.76054
禪	-9.76175
帝紀	-9.76209
世家	-9.76277
寺	-9.76349
局	-9.76598
墳	-9.76599
庾	-9.76633
箇	-9.76682
整	-9.76684
壹	-9.76693
某	-9.76723
臯	-9.76732
之類皆从	-9.76733
唐書	-9.76739
毛詩	-9.76745
囚	-9.76885
函	-9.76892
教切	-9.77051
躬	-9.77151
遣	-9.77279
鸞	-9.77296
謙	-9.77317
頂	-9.77358
乖	-9.77368
羈	-9.7739
渡	-9.77454
幕	-9.77546
隕	-9.77601
活	-9.77625
勸	-9.77658
切文一重音	-9.77706
貉	-9.77714
黒色	-9.77763
省作	-9.77775
攝	-9.77863
文王	-9.7794
亦書作	-9.77987
郭璞	-9.77997
息也	-9.78009
千里	-9.78026
而後	-9.7819
冀	-9.78247
鴟	-9.78276
故切	-9.7838
徐邈讀	-9.78424
蓬	-9.78617
瀆	-9.78627
綬	-9.78683
赫	-9.78705
尉	-9.78716
収	-9.7872
垢	-9.78722
荘子	-9.78779
捕	-9.78865
人呼	-9.78901
媚	-9.78912
者皆	-9.78912
盛貌	-9.78923
也从木	-9.78928
竈	-9.78929
員	-9.79119
綿	-9.79143
正也	-9.79144
殳	-9.7919
涉	-9.79228
講	-9.79234
正字通俗	-9.79253
鳳	-9.79339
眇	-9.79352
磬	-9.79362
園	-9.79372
癸	-9.79434
古人	-9.79527
旌	-9.79559
官名	-9.79585
吕切	-9.79631
盾	-9.79656
引也	-9.79774
廉切	-9.7981
也言	-9.79873
易曰	-9.79892
供	-9.7991
朗	-9.7992
故謂之	-9.79943
字注	-9.79943
崖	-9.80094
寅	-9.80113
東西	-9.80122
矯	-9.80198
耿	-9.80198
誄	-9.80245
奢	-9.80254
欣	-9.80266
桐	-9.80399
詰	-9.80481
醫	-9.80485
度也	-9.80535
繭	-9.80566
訟	-9.80572
二年	-9.80683
朕	-9.80692
仇	-9.80695
逺也	-9.80729
缶	-9.80817
刈	-9.80835
𤣥	-9.80856
緝	-9.8089
帷	-9.81049
排	-9.81061
俗呼	-9.81081
亞	-9.8113
欽	-9.81154
啓	-9.8118
卄	-9.8118
優	-9.81263
億	-9.81293
般	-9.81336
柯	-9.8139
瞻	-9.81393
筋	-9.81406
聖人	-9.81424
昆切	-9.81545
之中	-9.81566
枕	-9.81578
轂	-9.81592
天之	-9.81635
減	-9.81717
虹	-9.81718
郭璞曰	-9.81734
饗	-9.81748
俟	-9.81811
咸切	-9.81842
棲	-9.81876
羙	-9.81941
數也	-9.81982
讀曰	-9.8206
醢	-9.82062
字書	-9.82149
粗	-9.82169
憲	-9.82185
鋪	-9.8219
而有	-9.82197
館	-9.82201
二十一	-9.82237
並音	-9.82245
貳	-9.82254
星名	-9.82318
爾雅云	-9.82376
簫	-9.82438
吻	-9.82439
揚子方言	-9.82482
義與	-9.825
隊	-9.82539
蠡	-9.82561
啼	-9.82596
却	-9.82601
擾	-9.82709
黠	-9.82765
之稱	-9.82769
經典	-9.82775
具也	-9.82784
篤	-9.82787
唐韻集韻韻㑹正韻	-9.82843
吴	-9.82919
慕	-9.82967
梵	-9.83057
属	-9.83125
遏	-9.83127
躍	-9.83171
彈	-9.83187
紐	-9.83202
菜名	-9.83221
番	-9.83274
吟	-9.83317
皆曰	-9.83322
紆	-9.83358
鄂	-9.83461
翠	-9.8347
髻	-9.83504
繆	-9.83771
梗	-9.83806
係	-9.83814
胃	-9.8385
切竝音	-9.83858
進也	-9.83924
繡	-9.83937
東北	-9.8398
汙	-9.84015
大如	-9.8411
然後	-9.84123
者以	-9.84148
誘	-9.84184
亨	-9.8419
公子	-9.84269
測	-9.84276
虺	-9.84329
其所	-9.84381
曼	-9.84416
讀作	-9.84456
厓	-9.84479
罰	-9.84563
打	-9.84734
搏	-9.84747
遐	-9.84757
舉也	-9.84757
語也	-9.84769
隹	-9.84841
衆也	-9.84866
鶉	-9.84905
孕	-9.84909
赤色	-9.84965
椒	-9.84966
疆	-9.84967
也凡	-9.85025
陵切	-9.85026
疎	-9.85218
穫	-9.85316
跡	-9.85328
渚	-9.85363
韭	-9.85377
蓼	-9.85406
二十七	-9.85495
逋	-9.85516
顛	-9.85575
姜	-9.85621
嘯	-9.857
食也	-9.85761
鋭	-9.85769
塞也	-9.85807
小雅	-9.85925
茹	-9.8596
樸	-9.86025
四年	-9.86047
與同	-9.86137
委切	-9.86156
漫	-9.86171
信也	-9.86187
蠻	-9.86193
斥	-9.86195
襲	-9.86208
而為	-9.86213
<	-9.8635
嬰	-9.86362
地名在	-9.86383
晦	-9.86405
淳	-9.86428
逝	-9.86431
孔切	-9.86456
些	-9.86499
酸	-9.86562
唐韻集韻韻㑹	-9.86574
播	-9.86582
壅	-9.86759
脫	-9.86814
班固	-9.86856
謬	-9.86868
攴	-9.86885
犀	-9.8689
魄	-9.86912
甸	-9.86954
頻	-9.8696
翔	-9.87014
乏	-9.87072
東方	-9.87073
惑	-9.87144
盜	-9.87216
釡	-9.87258
腰	-9.87341
冶	-9.87382
徐鍇曰	-9.87471
詭	-9.87547
弼	-9.8755
矩	-9.87581
集韻類篇	-9.87614
屨	-9.87625
鎮	-9.87649
過也	-9.87763
="33"/>	-9.87768
t	-9.87768
曳	-9.87803
東海	-9.87968
繞	-9.87998
名也	-9.8811
俊	-9.88182
狹	-9.88206
署	-9.88222
愈	-9.8824
欽定四庫全書	-9.88256
瘡	-9.88278
江南	-9.88281
宗廟	-9.88314
豸	-9.88338
鈴	-9.88384
壇	-9.88387
丞	-9.8851
大者	-9.88532
之辭	-9.88628
鬻	-9.88657
際	-9.88661
林切	-9.88674
按說文	-9.88683
小篆	-9.88741
凌	-9.88811
洽切	-9.88821
遮	-9.8883
部中	-9.88889
鹵	-9.88946
甑	-9.88997
水流	-9.89043
絜	-9.8906
切文一重音二	-9.89109
離騷	-9.89183
霽	-9.8927
漿	-9.89271
況	-9.89294
廾	-9.89304
扈	-9.89333
笙	-9.89356
渉	-9.89413
子曰	-9.89414
競	-9.89427
大雅	-9.89542
耶	-9.89545
佳切	-9.89591
空也	-9.89769
桀	-9.89771
滓	-9.89771
在此	-9.89814
歛	-9.89897
走也	-9.89939
不平	-9.9
香草	-9.90012
煙	-9.90018
龍龕音	-9.90086
連切	-9.90135
芝	-9.90211
遽	-9.90229
犂	-9.90236
洒	-9.90238
跛	-9.90247
撥	-9.90271
晨	-9.90289
竿	-9.90314
嗣	-9.90328
漬	-9.90344
皆以	-9.90369
集韻韻㑹正韻	-9.90381
潘	-9.90493
堪	-9.9052
蹙	-9.90522
其義	-9.90526
其實	-9.90579
詐	-9.90584
摧	-9.90675
晋	-9.90711
竝音	-9.90778
支切	-9.90787
可切	-9.90811
也从金	-9.90903
好也	-9.91171
藪	-9.91176
兄弟	-9.91197
姬	-9.91403
潰	-9.91466
丙	-9.91533
浩	-9.91538
仄	-9.91554
鏡	-9.91568
誦	-9.91578
電	-9.91642
紹	-9.91686
旌旗	-9.91759
筍	-9.91797
也前漢	-9.91882
又通作	-9.91898
杯	-9.91931
株	-9.91965
言之	-9.91966
晝	-9.91973
也从女	-9.9199
皆有	-9.92024
涼	-9.92157
敎	-9.92239
壺	-9.92249
静	-9.92308
之子	-9.92354
盍	-9.9238
郁	-9.92391
沮	-9.92408
釋按說文	-9.92491
二同	-9.92658
戍	-9.92658
戊	-9.92697
碎	-9.92809
毳	-9.92813
南山	-9.92885
績	-9.92898
故从	-9.93034
不見	-9.93116
里切	-9.9313
貍	-9.93142
隘	-9.9319
吁	-9.93191
瓊	-9.93245
闇	-9.9327
卯	-9.93279
賀	-9.9331
跳	-9.93391
初生	-9.93406
跋	-9.93511
龍龕	-9.93533
嶽	-9.93639
闌	-9.93656
佛	-9.93693
熒	-9.93694
緑	-9.93723
遭	-9.93737
帖	-9.93746
幺	-9.9376
黍稷	-9.93782
餅	-9.93827
臣鍇按	-9.93832
徐鉉曰	-9.93907
翅	-9.9394
氏曰	-9.93947
譬	-9.93965
艸木	-9.94022
厚也	-9.94031
祭也	-9.9407
礙	-9.94094
事也	-9.94191
痛也	-9.94259
吏切	-9.94265
藥名	-9.94313
巷	-9.94331
匡	-9.94412
本亦作	-9.94459
粥	-9.94585
饒	-9.94623
勉	-9.94628
餌	-9.94644
竦	-9.94729
多也	-9.94777
盈切	-9.94824
束也	-9.94828
霸	-9.94829
凍	-9.94841
之属皆从	-9.94933
潔	-9.95006
亮	-9.95023
札	-9.95026
伍	-9.95027
綱	-9.95058
宴	-9.95061
康成曰	-9.95064
又國名	-9.95154
旱切	-9.95196
藝	-9.95203
壞	-9.95263
完	-9.95268
隴	-9.95308
拱	-9.954
豔	-9.95484
捷	-9.95519
胎	-9.95522
黽	-9.95611
玉篇古文	-9.95623
袁	-9.9565
渉切	-9.95661
鷹	-9.95677
白色	-9.95777
攘	-9.95842
琰	-9.95854
髦	-9.95876
之則	-9.95887
墜	-9.95901
勁	-9.96044
勇切	-9.96052
擣	-9.96078
此字	-9.96137
斑	-9.96172
轅	-9.96184
麟	-9.96207
銑	-9.96237
碑碑	-9.96322
裔	-9.96344
灑	-9.96354
之不	-9.96466
也从艸	-9.96475
鐸	-9.96499
簿	-9.96572
也象形	-9.96708
借用	-9.96732
飲酒	-9.96736
飽	-9.96764
下也	-9.96778
恱	-9.96854
也今	-9.9694
吝	-9.96959
冷	-9.96967
溺	-9.9697
翦	-9.9706
之為	-9.97073
劍	-9.97077
地也	-9.97079
惡也	-9.97087
鄰切	-9.97141
偽	-9.97183
切集韻韻會	-9.97186
懼也	-9.97225
左傳襄	-9.97243
頷	-9.97521
馨	-9.97638
羊切	-9.97643
喉	-9.97645
今文作	-9.97665
荀	-9.97684
藩	-9.97752
又於	-9.97859
針	-9.97867
煑	-9.97874
帥	-9.97883
之道	-9.97889
近也	-9.97942
核	-9.97951
从口	-9.97967
梟	-9.97988
蜺	-9.98062
闔	-9.98229
然也	-9.98283
挺	-9.98335
延切	-9.98354
炊	-9.98375
縁切	-9.9838
滯	-9.98393
緯	-9.98408
緣	-9.98414
曲也	-9.98479
古切	-9.98499
省文	-9.9851
也从言	-9.98527
楚詞	-9.98538
二十六	-9.9856
姚	-9.98563
斜	-9.98567
也孟子	-9.98573
畝	-9.98584
蛤	-9.98598
限	-9.98615
韓愈詩	-9.98699
鬯	-9.98699
絃	-9.98706
决	-9.98776
父母	-9.98813
膺	-9.98831
霍	-9.98857
鷄	-9.98862
卬	-9.98864
之事	-9.98874
荅	-9.98876
藏也	-9.98936
今俗	-9.99013
媒	-9.99045
至于	-9.99132
糜	-9.99282
輦	-9.99292
中庸	-9.99425
殆	-9.99433
岀	-9.99481
揮	-9.99542
善也	-9.99544
谿	-9.99551
橘	-9.99563
剖	-9.99568
於是	-9.99577
軸	-9.99662
襦	-9.99686
即今	-9.99695
逼	-9.99728
蕪	-9.9976
不正	-9.99781
牖	-9.9981
椎	-9.9996
誓	-10.0003
象其	-10.0017
貌詩	-10.0018
也从口	-10.0018
入切	-10.0019
三字	-10.0025
蘆	-10.0026
二十二	-10.0026
慢	-10.0027
祿	-10.0028
肴	-10.0032
字不同	-10.0045
斛	-10.0046
霰	-10.0047
壘	-10.0048
耦	-10.0052
外切	-10.0057
周禮春官	-10.0058
耆	-10.0069
治也	-10.0073
亥切	-10.0075
摶	-10.0075
纓	-10.0087
膝	-10.0087
朽	-10.009
樂器	-10.0092
江東	-10.0092
點	-10.0092
俎	-10.0096
脱	-10.0101
圈	-10.0104
也故	-10.0113
畔	-10.0114
文二重音二	-10.0115
説文本作	-10.0116
涌	-10.0116
睢	-10.0116
哭	-10.0117
文四	-10.0121
杜預曰	-10.0127
漾	-10.013
水名出	-10.0132
煎	-10.0135
泛	-10.0139
驪	-10.0139
子之	-10.014
絹	-10.0151
紺切	-10.0157
蟻	-10.0159
誤今正	-10.0159
研	-10.016
租	-10.0161
歷	-10.0168
肉也	-10.0172
龍龕同	-10.0202
侈	-10.0209
彪	-10.0211
耒	-10.0212
汎	-10.0213
妾	-10.0214
賴	-10.0214
臻	-10.0228
小人	-10.0229
困切	-10.0231
悦	-10.0236
冢	-10.024
陸機	-10.0241
深也	-10.0242
蝗	-10.0252
孫氏	-10.0252
岡	-10.0254
祭祀	-10.0257
疇	-10.0258
淡	-10.026
切博雅	-10.026
惜	-10.0262
陋	-10.0262
籀	-10.0263
張衡西京賦	-10.0264
又支韻	-10.0268
管切	-10.0271
佞	-10.028
集韻亦作	-10.0283
巡	-10.0286
五年	-10.0288
文字	-10.0293
迄	-10.0303
鳥獸	-10.0306
標	-10.0306
水經注	-10.0308
讒	-10.031
盟	-10.0319
而生	-10.0323
付	-10.0328
饋	-10.0329
俱切	-10.0329
水貌	-10.0333
頤	-10.0333
聘	-10.0336
蜃	-10.0337
韻㑹正韻	-10.0338
諄	-10.0344
蟲也	-10.0346
按説文	-10.0346
貌一曰	-10.0349
憐	-10.0349
儉	-10.0352
齋	-10.036
鯉	-10.0367
字從	-10.0367
閔	-10.0377
冉	-10.0388
挑	-10.039
奠	-10.0399
宀	-10.04
是以	-10.0407
石也	-10.0414
秃	-10.0417
按即	-10.0419
瑕	-10.0424
褒	-10.0424
馬名	-10.0426
字典	-10.0431
格切	-10.0438
夬	-10.0441
堇	-10.0445
沾	-10.045
紂	-10.0451
其後	-10.0455
韻㑹小補	-10.046
裹	-10.0479
切四	-10.0481
韻註音	-10.0488
袖	-10.0489
网	-10.0511
聲詩曰	-10.0511
袂	-10.0515
由切	-10.0525
弊	-10.0525
从邑	-10.0526
二十八	-10.054
音同	-10.0548
法也	-10.055
驂	-10.0552
重也	-10.0558
傷也	-10.0559
騷	-10.0561
从人	-10.0563
其上	-10.0563
官切	-10.0569
搖	-10.0572
央	-10.0579
鳬	-10.0583
水也	-10.0589
百七	-10.0589
碑隂	-10.0594
槐	-10.0599
鏤	-10.0599
虧	-10.06
之上	-10.06
用切	-10.0606
本音	-10.0613
碧	-10.0615
崩	-10.0617
勑	-10.0621
後世	-10.0623
之謂	-10.0632
篇海類編	-10.0635
技	-10.0638
倦	-10.0639
爾雅釋草	-10.0642
伺	-10.0645
其聲	-10.0657
棟	-10.0664
揖	-10.0665
抵	-10.0668
滌	-10.067
竇	-10.0672
肺	-10.0673
亦謂之	-10.0675
揚子	-10.0679
譽	-10.068
袴	-10.0687
箱	-10.069
蜩	-10.0694
較	-10.0702
故以	-10.0704
臿	-10.0716
生於	-10.0719
段	-10.072
逮	-10.0724
沱	-10.073
搜真玉鏡音	-10.0733
匣	-10.0736
亶	-10.0737
縳	-10.074
也徐曰	-10.0741
浦	-10.0747
也或省	-10.0752
司馬相如上林賦	-10.0756
誥	-10.0757
卧切	-10.076
緒	-10.0769
也謂	-10.0772
籥	-10.0773
駟	-10.0777
蔡邕	-10.078
甘切	-10.0789
阪	-10.079
佗	-10.079
雛	-10.0793
皿	-10.0793
怠	-10.0797
曠	-10.081
塊	-10.0815
裴	-10.0817
溼	-10.0818
杜甫詩	-10.0818
邁	-10.0818
四時	-10.0819
瞿	-10.0819
烟	-10.0822
祐	-10.0825
也詩小雅	-10.0827
實也	-10.0829
帚	-10.0842
糞	-10.0844
埋	-10.0847
剥	-10.085
散也	-10.0861
稅	-10.0861
山貌	-10.0868
訾	-10.0868
宏	-10.0869
山有	-10.087
片	-10.087
揭	-10.0871
今文	-10.0877
定切	-10.0879
舅	-10.088
糸	-10.0883
六書	-10.0886
氷	-10.0895
僻	-10.0897
刀切	-10.09
亷	-10.09
羞	-10.0902
將軍	-10.0903
蚩	-10.0914
之地	-10.0916
跨	-10.0917
詹	-10.0918
葛切	-10.0921
光也	-10.0922
算	-10.0923
玩	-10.0928
声臣鍇按	-10.0935
了切	-10.094
集韻本作	-10.0943
邕	-10.0946
詠	-10.0951
又力	-10.0964
字廣韻作	-10.0964
迫	-10.0974
郭璞云	-10.0983
河東	-10.0986
不如	-10.0987
之屬皆从	-10.0992
婉	-10.0994
罪切	-10.0996
厄	-10.1
吕氏春秋	-10.1001
霧	-10.1008
滋	-10.1019
舛	-10.1021
隸釋云	-10.1033
也俗作	-10.1043
籕文	-10.1045
叙	-10.1048
靑	-10.1048
複姓	-10.1048
曲禮	-10.1049
毅	-10.1049
色也	-10.105
秩	-10.1053
専	-10.1053
纍	-10.1053
觧	-10.1054
也禮	-10.1058
五色	-10.1059
虜	-10.1059
中央	-10.1062
碑丨	-10.1072
汚	-10.1073
寤	-10.1079
先生	-10.108
臥	-10.1087
尤切	-10.1095
三月	-10.1096
倨	-10.1102
輒	-10.1111
鮪	-10.1113
集韻古作	-10.1115
厶	-10.1117
夜切	-10.1122
添	-10.1125
鄧	-10.1126
麌	-10.1127
誕	-10.1127
切協用	-10.1127
不足	-10.1128
暑	-10.1128
寓	-10.1131
赴	-10.1132
暫	-10.1132
燔	-10.1133
子孫	-10.1138
八切	-10.1146
墟	-10.1151
蓮	-10.1152
哲	-10.1153
綸	-10.1154
僊	-10.1155
匈奴	-10.1155
醬	-10.1159
虐	-10.1171
眠	-10.1172
歐	-10.1174
茀	-10.1177
籀韻	-10.119
兖切	-10.1192
很	-10.1195
轄	-10.1196
註師古曰	-10.1196
之間謂之	-10.1197
睡	-10.1198
二十九	-10.1201
狎	-10.1205
變作	-10.1206
宕	-10.1206
楷	-10.1207
蜂	-10.1208
纂	-10.1211
周公	-10.1212
冝	-10.1223
然而	-10.1224
伸	-10.123
駒	-10.1231
澹	-10.1233
恚	-10.1242
兩手	-10.1247
古之	-10.1249
戾也	-10.125
纒	-10.1256
又集韻韻㑹	-10.1259
丕	-10.126
液	-10.1273
頑	-10.1283
境	-10.1285
補遺	-10.1288
戰國䇿	-10.1288
淹	-10.1298
蚌	-10.1298
縈	-10.1302
之一	-10.1305
刺也	-10.1311
亾	-10.1313
以上	-10.1313
洲	-10.1319
十陽	-10.1321
祭名	-10.1323
熏	-10.1327
衺	-10.1329
禺	-10.1331
耎	-10.1332
停	-10.1336
汲	-10.1346
啟	-10.1357
壤	-10.1358
干切	-10.1358
淮南	-10.1359
告也	-10.1364
剡	-10.1364
匿	-10.1369
棧	-10.1373
裂也	-10.1374
逃	-10.1381
亦通作	-10.1385
岑	-10.1385
顚	-10.1387
立切	-10.1388
探	-10.1388
泄	-10.1388
筐	-10.139
譌從	-10.1398
廷	-10.1407
乂	-10.1413
茍	-10.1417
緜	-10.1417
踵	-10.142
辱	-10.1426
也論語	-10.1426
改為	-10.1426
棃	-10.1427
僖	-10.1427
本又作	-10.1431
禹貢	-10.1431
獮	-10.1433
足也	-10.1433
臘	-10.1438
緩也	-10.1441
百里	-10.1445
據切	-10.1448
如字	-10.1452
謀也	-10.1455
慘	-10.1461
本證	-10.1463
需	-10.1463
甸切	-10.1465
拳	-10.1466
蓋切	-10.1466
蛾	-10.1467
肯	-10.1471
嫌	-10.1472
之下	-10.1478
丨也	-10.1489
覩	-10.1494
釁	-10.1496
戌	-10.1504
又魚	-10.1525
挾	-10.1527
君之	-10.1537
古通	-10.1539
之有	-10.1553
㞢	-10.1553
得其	-10.156
多言	-10.156
切並音	-10.156
兀	-10.1572
杼	-10.1574
拊	-10.1581
類也	-10.1581
腐	-10.1582
鄒	-10.1583
又韻補叶	-10.1587
山之	-10.1595
左傳昭	-10.1598
芟	-10.1602
圉	-10.1605
眷	-10.1605
柏	-10.1606
賞	-10.1608
人姓	-10.161
助也	-10.1611
演	-10.1614
七十	-10.1614
耀	-10.1616
三百	-10.1617
毫	-10.1619
韻增入	-10.1619
刋	-10.1619
旰切	-10.162
判	-10.1626
又姓左傳	-10.1631
之外	-10.1633
芮切	-10.1634
又居	-10.1635
小者	-10.1641
之人	-10.1648
韻増入	-10.1648
骨也	-10.1654
字廣韻不載	-10.1657
汜	-10.1658
勿切	-10.1658
豎	-10.1659
俠	-10.1659
廣韻集韻韻㑹	-10.166
又集韻類篇	-10.1663
頁	-10.1663
菽	-10.1666
帳	-10.1666
字彚補同	-10.167
釋文云	-10.1674
粲	-10.1677
鍇曰	-10.1682
芮	-10.169
紅切	-10.1691
篇海類編同	-10.1694
不明	-10.1701
字母韻	-10.1707
形如	-10.171
娶	-10.1711
螽	-10.1712
萃	-10.1713
寵	-10.1717
駁	-10.1718
也所以	-10.1719
西南	-10.172
篠	-10.1726
也漢	-10.1726
頭也	-10.1727
乍	-10.1737
上有	-10.1737
械	-10.174
至於	-10.174
柞	-10.174
渭	-10.1745
周禮地官	-10.1753
線	-10.1756
燎	-10.1766
恤	-10.1767
拒	-10.1767
㒵	-10.1779
部四百	-10.1783
切合聲	-10.1787
亦聲	-10.1788
二章	-10.179
鹹	-10.1791
駿	-10.1795
醴	-10.1796
周禮曰	-10.1801
人為	-10.1803
靣	-10.181
唐韻正	-10.1815
刮	-10.1815
江東呼	-10.1822
啖	-10.1826
潁	-10.1826
一人	-10.1833
呵	-10.1845
閏	-10.1848
酋	-10.1851
黄色	-10.1852
犧	-10.1853
暢	-10.1855
圃	-10.1857
汨	-10.1858
焚	-10.1858
督	-10.1859
汗簡	-10.1864
輻	-10.188
陽縣	-10.1881
截	-10.1884
方言云	-10.1887
遥	-10.1888
六十	-10.1894
迴	-10.1904
五音篇海音	-10.1905
祗	-10.1909
來切	-10.1909
駕切	-10.191
口切	-10.1916
或省作	-10.1926
部一百	-10.1929
盎	-10.1932
衢	-10.1934
桴	-10.1937
撓	-10.1939
本切	-10.1942
諧聲	-10.1943
亷切	-10.1949
天下之	-10.1952
弱也	-10.1955
掘	-10.1963
複	-10.1964
吞	-10.1966
䘮	-10.1966
艱	-10.1968
益也	-10.197
屈原	-10.1976
遼	-10.1984
魴	-10.1984
括切	-10.1985
靖	-10.1991
果名	-10.1996
名文一	-10.1997
簟	-10.2003
已上屬	-10.2005
而長	-10.2005
人謂	-10.2006
也揚子方言	-10.2009
闕人名	-10.2015
掃	-10.2019
淑	-10.2024
鑄	-10.203
齊人	-10.2042
噍	-10.2043
祇	-10.2045
汾	-10.2047
冡	-10.2051
莎	-10.2052
四十	-10.2054
音義同	-10.2063
郷	-10.2064
六書故	-10.2066
註謂	-10.207
盂	-10.2073
恨也	-10.2075
葉似	-10.2077
叫	-10.2078
鋒	-10.208
兕	-10.2083
沐	-10.2084
鐡	-10.2092
增韻	-10.2099
隈	-10.2104
三章	-10.2107
蓄	-10.2108
耜	-10.2108
以此	-10.211
什	-10.2113
前漢地理志	-10.2116
古老	-10.2118
快	-10.2121
揺	-10.2129
鈞	-10.2133
橐	-10.2136
溫	-10.2137
昬	-10.2138
澗	-10.2138
瑣	-10.2138
愛也	-10.2139
饑	-10.214
汶	-10.2151
見詩	-10.2159
扁	-10.216
夷切	-10.216
艮	-10.216
篋	-10.2161
从糸	-10.2162
屠	-10.2165
迅	-10.2167
翕	-10.2169
出入	-10.2174
篆文	-10.2176
氏之	-10.2178
慙	-10.2181
或從	-10.2183
當為	-10.2187
檀	-10.2187
又博雅	-10.2187
菊	-10.2194
人以	-10.2198
哿	-10.2208
苛	-10.2215
毛傳云	-10.2217
紕	-10.2217
稚	-10.2218
从心	-10.222
也今作	-10.223
等字	-10.2237
者不	-10.224
也疏	-10.224
音與	-10.2241
徧	-10.2244
切水	-10.2248
𤓰	-10.2248
學者	-10.2249
田器	-10.2252
幫	-10.2267
福也	-10.227
厂	-10.2273
漂	-10.2276
侮	-10.2276
貸	-10.2278
又正字通	-10.228
古作註詳	-10.2281
勉也	-10.2285
斷也	-10.2285
也文一重音二	-10.229
獸名似	-10.2299
扃	-10.2308
通為一韻	-10.2308
又水名	-10.2309
卩	-10.231
菹	-10.2311
嘔	-10.2311
搜	-10.2313
徽	-10.2313
輅	-10.2316
祁	-10.2321
映	-10.2327
敞	-10.2331
蠱	-10.2337
广	-10.2338
釀	-10.234
第十	-10.2348
隷作	-10.235
禱	-10.236
憚	-10.2361
典切	-10.2363
綽	-10.2368
柎	-10.2369
狩	-10.237
女子	-10.2374
使人	-10.2375
協切	-10.2375
幡	-10.2376
奚切	-10.2383
唐韻正韻	-10.2388
𥙷	-10.2396
菑	-10.2397
覈	-10.2398
木為	-10.241
玉篇同	-10.2412
彡	-10.2413
詩有	-10.242
疲	-10.2422
悟	-10.2423
茸	-10.2425
盲	-10.2426
飲食	-10.2427
曜	-10.2428
蜜	-10.2431
莫不	-10.244
亘	-10.2443
平水韻増	-10.2443
則有	-10.2447
皁	-10.2454
預	-10.2455
菌	-10.2455
廩	-10.2457
邉	-10.2463
又見	-10.2464
猶言	-10.2472
山名在	-10.2477
恣	-10.2477
落也	-10.2482
袒	-10.2483
堆	-10.2484
摯	-10.2484
廣雅云	-10.2484
韶	-10.2487
牒	-10.2487
六年	-10.2488
僧	-10.2489
舄	-10.2491
糧	-10.2491
啄	-10.2494
萑	-10.2494
禡	-10.2506
布也	-10.2508
麴	-10.251
衙	-10.2513
合也	-10.2514
聲讀若	-10.2515
芥	-10.2516
東南	-10.2519
巽	-10.252
其名	-10.2523
國之	-10.2528
不止	-10.2529
也釋曰	-10.253
汝南	-10.2543
窺	-10.2545
注謂	-10.2556
古今	-10.2557
狡	-10.2564
剔	-10.2574
並古文	-10.2586
部二百	-10.2593
其子	-10.2596
替	-10.2598
碩	-10.2602
潭	-10.2602
旃	-10.2602
嚮	-10.2602
瞢	-10.2604
在上	-10.2607
税	-10.261
之象	-10.2626
於此	-10.263
纎	-10.2631
擔	-10.2631
十月	-10.2647
沿	-10.2647
集韻與	-10.2654
虢	-10.2656
挂	-10.2657
雝	-10.2663
除也	-10.2664
之山	-10.2664
悼	-10.2668
始也	-10.2676
約切	-10.2677
暇	-10.2682
枸	-10.2692
摘	-10.2692
勞也	-10.2695
漚	-10.2696
迭	-10.2696
風俗通	-10.2698
科	-10.2699
甄	-10.27
瘦	-10.27
態	-10.2703
順也	-10.2706
又古	-10.2716
殽	-10.2722
而下	-10.2723
争	-10.2723
海中	-10.2726
也借為	-10.2728
駮	-10.2729
汪	-10.2737
字作	-10.2745
棠	-10.2747
猿	-10.2753
日出	-10.2754
偉	-10.2755
猴	-10.2781
讎	-10.2785
眩	-10.2786
荘	-10.2791
凉	-10.2793
譌作	-10.2799
削也	-10.2799
起也	-10.2801
公羊	-10.2802
故云	-10.2807
僚	-10.2807
出於	-10.2808
文六	-10.2812
恢	-10.2814
冂	-10.2816
苕	-10.2817
湘	-10.2817
愧	-10.2818
芬	-10.2819
之長	-10.283
䖍	-10.2837
袍	-10.2846
兎	-10.2847
擁	-10.2849
葱	-10.2849
畦	-10.2849
冊	-10.2852
也方言	-10.2857
鬬	-10.2857
烹	-10.2861
毛氏韻增	-10.2861
鳧	-10.2865
陽氣	-10.2865
厯切	-10.2868
簪	-10.2877
埽	-10.2877
逵	-10.2877
警	-10.2878
觜	-10.2881
鰥	-10.2882
鍼	-10.2883
殖	-10.2884
水聲	-10.2887
象人	-10.2896
何以	-10.2897
文章	-10.2902
釣	-10.2909
戮	-10.2909
髙也	-10.2911
河内	-10.2911
釋名曰	-10.2912
脈	-10.2912
贅	-10.2915
又有	-10.292
也説文作	-10.2922
愼	-10.2933
辠	-10.2937
善切	-10.2937
又云	-10.2938
愉	-10.2938
鴆	-10.2939
霄	-10.2942
坤	-10.2944
榦	-10.2945
莧	-10.2951
第三	-10.2954
賈誼	-10.2957
南北	-10.2958
徼	-10.2961
菜也	-10.2964
諌	-10.2967
挈	-10.2969
陀	-10.2969
挽	-10.2972
盛皃	-10.2979
卭	-10.2981
書禹貢	-10.2984
以木	-10.2992
利也	-10.2994
耽	-10.2996
酒器	-10.2999
隙	-10.3
膳	-10.3002
郤	-10.3004
出也	-10.3004
蹶	-10.301
利切	-10.3017
𥘉	-10.3017
皃一曰	-10.3019
之精	-10.3022
正義	-10.3023
彞	-10.3023
櫛	-10.3031
料	-10.3032
薑	-10.3033
海篇音	-10.3035
八十	-10.3035
祕	-10.3035
眀	-10.3038
胄	-10.3039
甗	-10.3042
呈	-10.3044
民之	-10.3054
忿	-10.3055
鈍	-10.3064
必有	-10.3066
朴	-10.3068
架	-10.3068
語曰	-10.3068
服也	-10.3069
盪	-10.3072
集韻通作	-10.3078
也韻㑹	-10.3083
又直	-10.3084
丁切	-10.3084
俄	-10.3087
王之	-10.309
罕	-10.3091
妹	-10.3093
廣韻集韻韻㑹正韻	-10.3096
譙	-10.3097
長貌	-10.3097
以手	-10.3098
泰山	-10.3099
蔑	-10.3099
夸	-10.3101
匠	-10.3101
橫	-10.3102
禾切	-10.3104
鮑	-10.3105
淪	-10.3106
劣切	-10.311
化為	-10.3113
莞	-10.3114
也文一重音	-10.312
菲	-10.312
渴	-10.3125
吠	-10.3126
嬴	-10.3127
惰	-10.3127
俗謂	-10.3128
槃	-10.3131
應劭曰	-10.3132
椽	-10.3132
梧	-10.3137
羹	-10.3142
也从肉	-10.3143
劫	-10.3151
司徒	-10.3154
翹	-10.3158
怯	-10.3159
䕃	-10.316
好貌	-10.3161
沂	-10.3162
絕	-10.3162
掾	-10.3169
熾	-10.3173
居切	-10.3178
極也	-10.3178
肖	-10.3179
櫟	-10.3181
該	-10.3184
夲	-10.3187
挹	-10.3189
撮	-10.3189
切詩	-10.319
弇	-10.3192
穎	-10.3193
胷	-10.3193
愆	-10.3194
貢切	-10.3197
蠭	-10.3197
亟	-10.3201
輈	-10.3203
沼切	-10.3209
蛙	-10.322
螫	-10.3221
埤	-10.3222
弛	-10.3224
劑	-10.3226
羸	-10.3226
窟	-10.3231
皆切	-10.3238
見山海經	-10.3239
瘍	-10.3249
嘆	-10.3251
牛馬	-10.3253
陜	-10.3257
太元	-10.3258
萹	-10.326
又寘韻	-10.3261
詳見	-10.3263
住	-10.3263
太子	-10.3265
皎	-10.3271
之閒	-10.3278
禮曲禮	-10.328
苖	-10.3286
也增韻	-10.3287
旒	-10.3291
捶	-10.3292
鷂	-10.3292
漢書作	-10.3296
顙	-10.3296
屢	-10.3296
幣	-10.3298
从虫	-10.3298
彖	-10.3304
開也	-10.3305
切易林	-10.3306
崔希裕纂古	-10.3307
石聲	-10.3313
謗	-10.3313
武王	-10.3315
蹲	-10.332
聶	-10.3321
惕	-10.3321
威儀	-10.3323
知其	-10.3325
竄	-10.3325
字皆	-10.3329
察也	-10.3331
相近	-10.3332
北海	-10.3336
正字通同	-10.3338
平也	-10.3338
敗也	-10.3341
以下	-10.3343
不及	-10.3343
首章	-10.3344
蔵	-10.3344
訊	-10.3354
劇	-10.3354
百十	-10.3359
楸	-10.3361
憂心	-10.3368
君碑	-10.3378
古文作	-10.3379
蔣	-10.3384
兼切	-10.3385
从手	-10.3389
後魏	-10.3391
庫	-10.3392
㑹稽	-10.3395
註詳	-10.3409
甾	-10.3415
昜	-10.3416
喧	-10.3417
禮檀弓	-10.3418
移切	-10.3419
儋	-10.3426
切小	-10.3426
有三	-10.3433
字林云	-10.3438
名在	-10.3439
丸切	-10.3442
朱切	-10.3442
弔切	-10.3442
沽	-10.3443
例切	-10.3444
歴切	-10.3444
讙	-10.3445
諾	-10.3448
相承	-10.3449
屬也	-10.3453
十年	-10.346
斫	-10.3463
五音篇海	-10.348
攜	-10.3482
剌	-10.3482
琢	-10.3485
鞭	-10.3486
字同	-10.3488
檐	-10.3488
書云	-10.349
軾	-10.3493
切集韻韻會正韻	-10.3494
百四	-10.3496
傳云	-10.3499
指事	-10.3501
蘇軾詩	-10.3506
聾	-10.3511
三聲	-10.3516
聴	-10.3519
鬛	-10.3525
正月	-10.3527
顔師古曰	-10.353
罽	-10.3532
酒也	-10.3533
殄	-10.3538
頡	-10.354
淸	-10.3541
稼	-10.3544
車也	-10.3544
皓切	-10.3544
痕	-10.3546
姊	-10.3546
所居	-10.3548
疏云	-10.3553
萊	-10.3554
院	-10.3554
揄	-10.3555
齎	-10.3556
樗	-10.356
借作	-10.3562
男子	-10.3566
一音	-10.3568
沓	-10.3572
杏	-10.3575
堅也	-10.3577
爾雅注	-10.3579
郭氏	-10.3581
猷	-10.3585
語辭	-10.3586
庖	-10.3587
寂	-10.3588
濩	-10.3589
滿也	-10.3589
視貌	-10.3599
衽	-10.3604
第一	-10.3607
限切	-10.3614
山川	-10.3615
籬	-10.3615
水鳥	-10.3616
悶	-10.3617
換	-10.362
榛	-10.3623
孽	-10.3623
也詩大雅	-10.3629
公孫	-10.363
華山	-10.3637
貪也	-10.3639
皆謂	-10.364
跌	-10.3646
緇	-10.3646
沃切	-10.3646
熙	-10.3646
飄	-10.3648
不通	-10.3651
瓶	-10.3654
白虎通	-10.3657
也引	-10.3661
武帝	-10.3665
亦名	-10.3666
動貌	-10.3667
内則	-10.367
孔宙碑	-10.3671
者从	-10.3678
韻義並異	-10.3682
周禮天官	-10.3682
穹	-10.3687
廿	-10.3691
不正也	-10.3692
蚤	-10.3692
買切	-10.3692
頒	-10.3694
煮	-10.3695
爾雅釋	-10.3697
五采	-10.3703
髀	-10.3711
葅	-10.3712
繳	-10.3713
也詩云	-10.3714
横木	-10.3714
筮	-10.3714
迫也	-10.3717
脾	-10.3717
詘	-10.3717
枉	-10.3717
難也	-10.3718
匱	-10.3721
釜	-10.3722
西域	-10.3726
杜預	-10.3737
登切	-10.3737
也又作	-10.3739
漁	-10.3739
瑩	-10.3741
沉	-10.3747
踞	-10.3749
金石	-10.375
隐	-10.3751
填	-10.3752
茨	-10.3753
革切	-10.3755
丰	-10.3757
㫄	-10.3758
旂	-10.3759
彘	-10.376
戈切	-10.3762
壊	-10.3762
又苦	-10.3763
之時	-10.3771
天地之	-10.3773
彩	-10.3782
窒	-10.3784
耐	-10.3787
沁	-10.3792
所封	-10.3797
鄭康成	-10.3802
不復	-10.3805
遥切	-10.3807
非也	-10.3817
婆	-10.3817
蜚	-10.3818
遁	-10.3819
螻	-10.3819
字彙補與	-10.3822
渥	-10.3822
儲	-10.3825
往來	-10.3836
昵	-10.3852
又姓出	-10.3853
亦同	-10.3855
蝦	-10.3856
撞	-10.3856
拯	-10.3856
左傳僖	-10.386
謹也	-10.388
燿	-10.3882
涉切	-10.3885
憤	-10.3885
蔚	-10.3885
鞮	-10.3889
杳	-10.3891
棫	-10.3895
又尤韻	-10.3901
又徒	-10.3903
扵	-10.3906
衡方碑	-10.3906
也後漢	-10.3915
十一年	-10.3916
故名	-10.3917
鄭氏曰	-10.3919
剽	-10.392
噬	-10.3921
土也	-10.3922
卉	-10.3923
駱	-10.3925
小爾雅	-10.3926
又五音集韻	-10.3928
屮	-10.3931
古孝	-10.3939
則為	-10.3946
木切	-10.3948
蘄	-10.3953
姥	-10.3955
銜切	-10.3956
叩	-10.3956
榜	-10.3956
想	-10.3958
錐	-10.3959
辜	-10.3961
駢	-10.3961
正作	-10.3976
日光	-10.3976
次也	-10.3982
掖	-10.3984
少也	-10.3988
麾	-10.399
形似	-10.3997
又陽韻	-10.4
觚	-10.4001
牛名	-10.4001
鱣	-10.4006
从示	-10.4006
自然	-10.4006
揣	-10.4018
芸	-10.402
熬	-10.4021
擿	-10.4022
蹈	-10.4026
溷	-10.4027
竅	-10.4033
芋	-10.4033
沫	-10.4033
百八	-10.4039
而行	-10.4042
歇	-10.4057
笛	-10.4057
砥	-10.4059
郭璞江賦	-10.4061
流也	-10.4062
場	-10.4062
筵	-10.4063
从金	-10.4063
當也	-10.4064
頟	-10.4066
郵	-10.4068
部三百	-10.4071
之處	-10.4075
司馬相如	-10.4076
秦晉	-10.4082
之法	-10.4084
前後	-10.4084
訶	-10.4084
之物	-10.4084
五行	-10.409
上帝	-10.409
穰	-10.409
晧	-10.409
盗	-10.4095
其形	-10.4096
嗛	-10.4097
甌	-10.4098
閼	-10.4101
齧也	-10.4105
敢切	-10.4105
又烏	-10.4112
辭也	-10.4113
黑色	-10.4119
蔞	-10.412
並同上	-10.4122
闞	-10.4124
堵	-10.4127
沬	-10.4129
腥	-10.4131
油	-10.4131
傑	-10.4131
魚也	-10.4134
採	-10.414
之美者	-10.4144
又胡	-10.4145
三日	-10.4148
也詩曰	-10.4151
穌	-10.4153
飴	-10.4159
娥	-10.4159
踦	-10.4162
之類是也	-10.4163
壑	-10.4164
帀	-10.417
有文	-10.4173
不安	-10.4173
分也	-10.4176
荏	-10.4192
衮	-10.4193
耗	-10.4194
淚	-10.4196
護	-10.4198
者謂	-10.4202
㫁	-10.4203
楫	-10.4206
毎	-10.4216
文五	-10.4216
又並	-10.422
逺切	-10.4225
以自	-10.4226
又先韻	-10.4227
六止	-10.4229
搔	-10.4232
燈	-10.4233
垠	-10.4236
輯	-10.4241
欒	-10.4249
不行	-10.4257
一東	-10.4259
韜	-10.4259
揚雄傳	-10.4267
鑠	-10.4269
祚	-10.4269
夊	-10.4276
俛	-10.428
取之	-10.4281
仞	-10.4285
主人	-10.4291
漢書地理志	-10.4295
轢	-10.4297
嶺	-10.43
菟	-10.4302
相通	-10.4303
街	-10.4306
韓詩	-10.4307
古韻	-10.4309
演切	-10.431
疊	-10.4312
不成	-10.4312
蹋	-10.4321
瓦切	-10.4321
古音同上	-10.4323
楚人	-10.4335
本或作	-10.4335
罵	-10.4336
嗜	-10.4338
拭	-10.434
衿	-10.434
繚	-10.4342
璋	-10.4344
騶	-10.4345
漢書叙傳	-10.4348
輙	-10.4351
欺也	-10.4356
滕	-10.4372
周書	-10.4377
去也	-10.4378
叟	-10.4379
驢	-10.4382
積也	-10.4386
詣	-10.4388
錦切	-10.4389
從水	-10.439
藴	-10.4407
駝	-10.4414
羔	-10.4414
潦	-10.4416
葭	-10.442
正切	-10.442
貙	-10.4422
雁	-10.4429
麃	-10.4443
漉	-10.4445
吸	-10.4447
叱	-10.4448
水之	-10.445
寜	-10.445
蠅	-10.4451
浴	-10.4452
鐙	-10.4452
廓	-10.4454
兖	-10.4457
肝	-10.4459
故次之以	-10.4462
胡切	-10.4467
霓	-10.4475
相似	-10.4477
匈	-10.4477
隻	-10.4479
尒	-10.448
抒	-10.4481
棊	-10.4483
之説	-10.4485
跂	-10.4489
山皃	-10.4494
郢	-10.4496
𧖟	-10.4503
埤雅	-10.4503
綰	-10.4515
爇	-10.4516
捎	-10.4516
蚊	-10.4518
邾	-10.452
切説文云	-10.4521
也說文曰	-10.4521
也郭云	-10.4522
蓍	-10.4523
茶	-10.4523
勲	-10.4524
筥	-10.4526
像	-10.4528
萍	-10.4529
鞅	-10.453
聲臣鍇曰	-10.4532
禁切	-10.4533
其下	-10.4539
从二	-10.4548
小雨	-10.4552
言不	-10.4556
勞切	-10.4556
趾	-10.4557
諒	-10.4558
看	-10.4558
拙	-10.4563
可作	-10.4565
恵	-10.4565
業切	-10.4567
而成	-10.4576
說文本作	-10.4582
猨	-10.4587
僂	-10.4588
羲	-10.459
六尺	-10.4594
款	-10.4596
闊	-10.4596
泗	-10.4597
涂	-10.4597
範	-10.4599
泠	-10.4599
甕	-10.4599
貟	-10.4605
八月	-10.4609
韓文	-10.461
禽獸	-10.4618
彗	-10.462
鄭康成曰	-10.462
之器	-10.4622
也从土	-10.4622
誨	-10.4626
戛	-10.4626
臣鍇	-10.4628
倡	-10.4629
蠆	-10.4629
七年	-10.463
覲	-10.463
者亦	-10.463
赦	-10.4633
銷	-10.4633
鷺	-10.4635
人謂之	-10.4636
鉅	-10.4637
慧	-10.4638
僅	-10.4639
嵩	-10.464
左傳曰	-10.4654
輕重	-10.4659
鏃	-10.4661
////////////////	-10.4663
我心	-10.4667
鄧切	-10.4668
人曰	-10.467
第二	-10.467
畱	-10.467
各有	-10.4672
不齊	-10.4672
叢生	-10.4674
禮曰	-10.4674
支韻	-10.4678
字彚補與	-10.4679
肥也	-10.4682
之屬本聲	-10.4683
亦可	-10.4694
平去	-10.4695
七月	-10.4696
周禮注	-10.47
所作	-10.4702
酷	-10.4703
遞	-10.4705
賈誼傳	-10.4706
幢	-10.4707
去聲則	-10.4708
飛也	-10.4708
闢	-10.4715
丗	-10.4722
西北	-10.4729
茈	-10.4734
螘	-10.4738
也一名	-10.4739
栝	-10.474
叉	-10.474
腊	-10.474
叚	-10.4741
琅邪	-10.4742
傲	-10.4742
磔	-10.4743
邸	-10.4752
亦以	-10.4763
遮切	-10.4764
習也	-10.4768
九十	-10.477
又呼	-10.4776
不當	-10.4776
儼	-10.4776
褐	-10.4779
所用	-10.4782
哺	-10.4784
彦	-10.4786
囿	-10.4788
踊	-10.4789
索也	-10.4794
文一重	-10.4795
山在	-10.4796
又霰韻	-10.4803
字亦	-10.4804
諍	-10.4808
逡	-10.481
一説	-10.4812
瞑	-10.4812
淨	-10.4815
壻	-10.4818
坼	-10.4823
廡	-10.4823
鴨	-10.4826
彳	-10.4832
字从此	-10.4833
思也	-10.4834
神名	-10.4839
也从虫	-10.4848
伴	-10.4848
煇	-10.4849
履也	-10.4849
鉞	-10.4852
剝	-10.486
静也	-10.4869
大貌	-10.487
中國	-10.4873
三十六	-10.4876
也荀子	-10.4881
聲詩	-10.4885
梨	-10.4887
益州	-10.4889
拏	-10.489
驛	-10.4892
兮切	-10.4893
囘	-10.4894
擇也	-10.4895
幷	-10.4897
抗	-10.49
牂	-10.4901
有餘	-10.4903
又丘	-10.4915
之日	-10.4924
謾	-10.4928
銚	-10.4928
僵	-10.4928
喜也	-10.4932
蜎	-10.4932
佚	-10.4934
斿	-10.4936
州名	-10.4936
麕	-10.4939
鴞	-10.494
簧	-10.4946
以成	-10.4948
王者	-10.4949
通也	-10.4951
藥草	-10.4955
熱也	-10.4955
兵車	-10.4956
相連	-10.4961
跪	-10.4963
蓐	-10.4968
團	-10.4971
莒	-10.4973
苓	-10.4975
三十一	-10.4979
不可以	-10.4983
从土	-10.4985
閑切	-10.4986
二切見	-10.4994
燥	-10.4997
若今	-10.4998
魚切	-10.5004
黔	-10.5007
文七	-10.5007
隄	-10.5007
韻同餘異	-10.5008
未成	-10.5009
臚	-10.501
寔	-10.5011
泊	-10.5012
殻	-10.5012
孟子曰	-10.5025
卣	-10.5026
聰	-10.5026
而出	-10.5027
緫	-10.5039
謔	-10.504
生也	-10.504
藜	-10.5045
笠	-10.5046
也从日	-10.5047
揆	-10.505
批	-10.5052
黒也	-10.5054
楚人謂	-10.5057
老切	-10.5057
隸作	-10.5063
兗切	-10.5063
也从竹	-10.5064
百姓	-10.5066
殺也	-10.5067
第五	-10.5071
又紙韻	-10.5072
梢	-10.5077
諦	-10.5078
懲	-10.5081
涓	-10.5081
巾切	-10.5081
鶬	-10.5081
鞞	-10.5082
渙	-10.5083
討	-10.5083
筩	-10.5083
產	-10.5088
漠	-10.509
楹	-10.509
瀾	-10.5093
手足	-10.5096
又蕭韻	-10.5106
従	-10.5112
宦	-10.5114
穗	-10.5118
隤	-10.5118
愍	-10.512
懿	-10.5123
者言	-10.5125
絶也	-10.5141
未有	-10.5145
之為言	-10.5145
媿	-10.5147
浚	-10.5156
解也	-10.5158
怖	-10.516
小而	-10.5161
沒切	-10.5163
詩邶風	-10.5174
聲臣鍇按	-10.5178
瓦器	-10.5178
五月	-10.518
旻	-10.5185
南楚	-10.5189
誇	-10.5194
蠢	-10.5194
之文	-10.5194
紳	-10.5196
雚	-10.5196
萎	-10.5198
江淮	-10.5203
后切	-10.5205
分别	-10.5205
隧	-10.5206
朿	-10.521
譯	-10.5211
透	-10.5212
常也	-10.5218
也从火	-10.5218
又名	-10.5227
忝	-10.5227
懈	-10.5227
甖	-10.523
伎	-10.5231
醋	-10.5233
羨	-10.5234
埒	-10.5236
掉	-10.5237
篇海同	-10.5237
經史	-10.5238
腦	-10.5238
臆	-10.524
捉	-10.524
篆作	-10.5244
沼	-10.5246
畎	-10.5247
可以為	-10.5249
孫炎曰	-10.5252
三足	-10.5252
引易	-10.5254
下有	-10.5269
郎丁切	-10.5272
墻	-10.5274
裝	-10.5275
以言	-10.5277
有二	-10.5277
闐	-10.528
切集韻正韻	-10.5282
没切	-10.5289
意也	-10.5295
從木	-10.5298
以象	-10.5308
曵	-10.5311
史記天官書	-10.5314
爾雅翼	-10.5314
鳥聲	-10.5321
泮	-10.5321
得之	-10.533
貌或作	-10.5343
絹切	-10.5344
合韻	-10.5346
文八	-10.5347
肱	-10.5351
泯	-10.5354
枳	-10.5357
也从辵	-10.536
糗	-10.536
又許	-10.5363
又揚子方言	-10.5366
又虞韻	-10.5375
緼	-10.5381
走貌	-10.5383
如淳曰	-10.5384
弃	-10.5387
摽	-10.5392
綦	-10.5395
柚	-10.5397
从犬	-10.5397
芹	-10.5398
諷	-10.5398
此碑	-10.5401
沔	-10.5403
美玉	-10.5409
檀弓	-10.541
仆	-10.5414
彝	-10.5417
待也	-10.5417
号	-10.5421
爾雅釋言	-10.5422
石次玉	-10.5423
始生	-10.5425
鼓聲	-10.5426
戔	-10.5426
三十四	-10.5428
䰟	-10.5429
鮎	-10.5429
風雨	-10.5432
絆	-10.5433
鞍	-10.5433
閤	-10.5434
裾	-10.5435
掠	-10.5436
圻	-10.5436
甬	-10.5438
又東韻	-10.5443
周禮夏官	-10.5445
晉有	-10.5445
集韵	-10.5456
大水	-10.5457
黄補	-10.5461
又蒲	-10.5462
餉	-10.5467
又霽韻	-10.5468
豉	-10.547
鍵	-10.5475
蠃	-10.5476
簋	-10.5476
五百	-10.5478
庳	-10.5478
叶音	-10.5479
取魚	-10.548
京兆	-10.5483
閎	-10.5492
遙	-10.5497
上从	-10.5507
奕	-10.5509
戯	-10.5512
囷	-10.5515
㝠	-10.5516
囂	-10.5516
轍	-10.5516
遜	-10.5518
櫂	-10.552
裼	-10.5521
壓	-10.5525
杠	-10.5525
鴉	-10.5528
也増韻又	-10.5531
从女	-10.5535
郭註	-10.5539
笑也	-10.5547
銖	-10.5552
斐	-10.5555
餓	-10.5555
恬	-10.5556
刖	-10.5556
娑	-10.5557
柘	-10.556
丨按	-10.5561
蛭	-10.5564
悅	-10.5565
黼	-10.5568
者非	-10.5568
肇	-10.5569
攷	-10.5569
巧切	-10.5571
貎又	-10.5573
割也	-10.5582
魯峻碑	-10.5588
見下	-10.5591
唱	-10.5597
晉語	-10.5597
宂	-10.5599
騫	-10.5599
巵	-10.5599
牘	-10.5601
桷	-10.5604
蕙	-10.5608
薰	-10.5608
四字	-10.5613
𩔖	-10.5614
對切	-10.5619
紺	-10.562
三十五	-10.5622
者爲	-10.5623
卦名	-10.5625
棣	-10.563
太玄	-10.563
是謂	-10.5632
日中	-10.5633
帆	-10.5633
僭	-10.5633
黮	-10.5635
公切	-10.5636
曺全碑	-10.5638
椹	-10.5639
黝	-10.564
旰	-10.5641
綠	-10.5643
製	-10.5643
笭	-10.5645
班固西都賦	-10.5645
蒯	-10.5647
个	-10.565
獸也	-10.5662
詩作	-10.5665
噎	-10.5665
又姓又	-10.5666
恕	-10.567
衫	-10.5674
炭	-10.5675
羡	-10.5676
峯	-10.5676
話	-10.5677
亦州名	-10.5678
悖	-10.5681
盧谷切	-10.5683
蒜	-10.5684
弧	-10.5684
大而	-10.5686
姪	-10.5688
篇海音	-10.5689
失其	-10.5689
豫章	-10.5693
或云	-10.5699
師古註	-10.5699
異也	-10.57
世本	-10.5701
義作	-10.5702
九年	-10.5705
並同	-10.571
不過	-10.571
綵	-10.5711
軋	-10.5712
湫	-10.5713
誑	-10.5713
地理志	-10.5718
苹	-10.5718
卻	-10.5721
有此	-10.5723
蹤	-10.5724
頽	-10.5725
獺	-10.573
匏	-10.5739
石似玉	-10.5742
戀切	-10.5743
其事	-10.5745
晃	-10.5749
杓	-10.575
車聲	-10.5751
泫	-10.5753
刷	-10.5753
直也	-10.5753
之氣	-10.5755
滔	-10.5757
樂府	-10.5757
毁也	-10.5758
卞	-10.5758
緻	-10.5759
艸也	-10.576
蹻	-10.576
酬	-10.5762
鈎	-10.5763
字母	-10.5763
父之	-10.5765
遯	-10.5767
五字	-10.5769
又他	-10.5769
鬭	-10.5769
在下	-10.5769
參差	-10.5769
禮月令	-10.5776
蘋	-10.5779
及也	-10.5782
皃从	-10.5783
聲徐按	-10.5788
義雲章	-10.5789
今俗作	-10.5791
誠也	-10.5798
廣韻作	-10.5798
也說文作	-10.5802
殃	-10.5804
戰國策	-10.5812
貽	-10.5813
師古	-10.582
也類篇	-10.5823
欄	-10.5835
踈	-10.5835
坦	-10.5839
左氏傳	-10.5842
凖	-10.5842
蠻夷	-10.5844
偕	-10.5844
邈	-10.5844
企	-10.5845
黄金	-10.5848
文九	-10.5851
偽切	-10.5853
集韻韻會	-10.5854
近聲	-10.5856
火光	-10.5858
雒	-10.586
粱	-10.5862
衣服	-10.5867
文十	-10.5881
臾	-10.5881
竝非	-10.5882
巂	-10.5883
裕	-10.5883
蘓	-10.5885
詛	-10.5886
蹂	-10.5888
蟄	-10.5895
之國	-10.5896
立也	-10.5897
證切	-10.5906
其葉	-10.5908
之註	-10.5908
埤蒼	-10.5908
匊	-10.5912
韵	-10.5915
寇	-10.5917
盱	-10.5917
用力	-10.592
疫	-10.5922
孟康曰	-10.5923
丌	-10.5925
㓜	-10.5925
又支	-10.5925
夙	-10.5925
見周禮	-10.5925
蠲	-10.5925
羿	-10.5931
閩	-10.5931
孑	-10.5931
蕨	-10.5933
衷	-10.5933
蘩	-10.5937
髙祖	-10.595
次第	-10.5952
亦不	-10.5957
凋	-10.5958
值	-10.5962
孛	-10.5965
纔	-10.5967
鉉	-10.5967
邢	-10.5971
疵	-10.5972
从日	-10.5977
昊天	-10.5979
不入	-10.598
之間曰	-10.5981
可知	-10.5984
樂記	-10.5991
按集韻	-10.5998
徒結切	-10.5998
六月	-10.6002
緘	-10.6004
莘	-10.6004
虒	-10.6006
姿	-10.6006
澆	-10.6009
剪	-10.6009
揉	-10.6011
玊	-10.6012
霤	-10.6012
猥切	-10.6013
淖	-10.6013
戀	-10.6015
夫子	-10.6016
鑣	-10.6016
之故	-10.6018
訪	-10.6019
鎭	-10.6021
又五	-10.6024
書傳	-10.6036
撟	-10.6039
隸釋云以	-10.6039
一云	-10.604
去其	-10.604
菀	-10.6045
古老子	-10.6047
史記司馬相如傳	-10.6048
而言	-10.605
姻	-10.6052
邵	-10.6054
杞	-10.6055
廵	-10.6057
攀	-10.6057
成王	-10.6062
也按	-10.6068
也从車	-10.6071
天子之	-10.6075
名又姓	-10.6078
風聲	-10.6079
轉也	-10.608
詩傳	-10.6081
語助	-10.6082
都賦	-10.6083
怛	-10.6084
孔子曰	-10.6089
贍	-10.6092
一屋	-10.6092
噫	-10.6095
浙	-10.6096
駘	-10.6096
長尾	-10.6097
僮	-10.6101
膽	-10.6102
禮内則	-10.6104
幟	-10.6105
陳留	-10.6108
韓敕碑	-10.6111
穿也	-10.6113
鐘鼎	-10.6118
諧近聲	-10.612
以待	-10.612
周禮有	-10.6124
也釋文	-10.6127
詁	-10.6128
省从	-10.6133
偷	-10.6134
晻	-10.6134
杭	-10.6137
苻	-10.6139
譚	-10.614
舟名	-10.6142
鵝	-10.6145
問也	-10.6146
洛陽	-10.6148
著也	-10.6149
曹植	-10.6151
長沙	-10.6157
朝鮮	-10.6157
火也	-10.6166
轉注	-10.6169
虍	-10.6175
法度	-10.6178
飬	-10.6178
減切	-10.6179
槩	-10.6181
彤	-10.6182
靳	-10.6183
竝古	-10.6185
纛	-10.6187
博物志	-10.6187
瓚	-10.6188
舒也	-10.6188
總名	-10.6188
幬	-10.619
上黨	-10.6198
髟	-10.6203
夂	-10.6209
孝經	-10.6209
漢武帝	-10.6215
打也	-10.6216
稠	-10.622
儔	-10.6222
縞	-10.6222
不以	-10.6223
絺	-10.6223
劉寛	-10.6224
同詳	-10.6226
鑒	-10.6227
捲	-10.6227
之用	-10.6228
戢	-10.6231
又丑	-10.6232
八分	-10.6241
陛	-10.6245
走皃	-10.6246
新制添入	-10.6246
水上	-10.6246
春秋傳曰	-10.6248
宜切	-10.6249
孟切	-10.6253
菴	-10.6259
妥	-10.6263
妬	-10.6264
雩	-10.6266
饌	-10.6267
􁔫	-10.6268
滴	-10.6271
好皃	-10.6271
璞	-10.6272
郡名	-10.6288
骨切	-10.6296
惛	-10.6298
襜	-10.6304
南越	-10.6307
稜	-10.6309
脂切	-10.631
憎	-10.631
雹	-10.6311
聳	-10.6311
敘	-10.6311
綜	-10.6314
糟	-10.6314
蘧	-10.6314
橈	-10.6315
玷	-10.6315
尨	-10.6315
閱	-10.6316
霞	-10.632
齊也	-10.6321
切六	-10.6321
牛羊	-10.6322
禘	-10.6324
舍也	-10.6329
山東	-10.6341
㑹也	-10.6342
四足	-10.6346
坑	-10.6348
几切	-10.6348
長安	-10.6348
之禮	-10.6349
又齊韻	-10.6351
悠	-10.6353
兌	-10.6355
龠	-10.6356
諺	-10.6359
樵	-10.6361
張衡東京賦	-10.6362
占切	-10.6362
構	-10.6362
莠	-10.6363
注見	-10.6364
按此	-10.6366
一角	-10.6371
縣在	-10.6373
猥	-10.6385
引書	-10.6388
而上	-10.6388
桼	-10.6388
嬌切	-10.6388
幵	-10.6392
藤	-10.6394
腳	-10.6395
嘲	-10.6395
無不	-10.6396
鄭氏	-10.6396
溉	-10.6397
潜	-10.6397
嗇	-10.6399
凡物	-10.64
窳	-10.6401
洩	-10.6402
又屑韻	-10.6402
爨	-10.6404
辵	-10.6407
反又音	-10.6409
毛傳	-10.641
十二年	-10.641
之數	-10.6414
旦切	-10.6417
十三年	-10.6426
猪	-10.6433
不必	-10.6437
藿	-10.644
廣韻正韻	-10.6441
醇	-10.6442
未知	-10.6442
濛	-10.6443
唐韻正音	-10.6444
瘠	-10.6445
餔	-10.6447
姒	-10.6455
願切	-10.6459
所出	-10.6466
歟	-10.6467
注今	-10.648
蘖	-10.6482
清也	-10.6483
山多	-10.6484
翮	-10.6484
妨	-10.6488
飫	-10.649
脰	-10.6493
肌	-10.6496
籩	-10.6498
又漾韻	-10.6501
也正韻	-10.6505
𤼵	-10.6514
臠	-10.6523
四海	-10.6524
掇	-10.6524
箠	-10.6526
狠	-10.6526
齊魯	-10.6527
鄔	-10.6527
瞀	-10.6529
錘	-10.6529
玃	-10.6533
措	-10.6535
挫	-10.6536
馭	-10.6537
鎧	-10.6539
揚雄賦	-10.654
又隊韻	-10.6541
下垂	-10.6541
西狹	-10.6541
声臣鍇	-10.6544
淮南子曰	-10.6544
隼	-10.6545
行不正	-10.6545
危也	-10.655
冓	-10.6564
巛	-10.6565
經傳	-10.6565
旁證	-10.6565
窕	-10.6567
藹	-10.657
滛	-10.657
濊	-10.6573
瓢	-10.6575
卪	-10.6579
螺	-10.658
諭	-10.6582
控	-10.6582
皆從	-10.6584
切五	-10.6584
㕜	-10.6597
之諧聲	-10.6598
者何	-10.6608
生子	-10.6608
一日	-10.6609
八年	-10.661
掊	-10.661
時有	-10.6611
義雲	-10.6613
詬	-10.6614
褚	-10.662
躓	-10.6621
鬢	-10.6621
稟	-10.6621
尖	-10.6622
第四	-10.6623
嬪	-10.6623
飛貌	-10.6624
冐	-10.6624
鉛	-10.6625
淇	-10.6626
所生	-10.6627
亏	-10.6629
􁁉	-10.6632
勘	-10.6634
也博雅	-10.6634
粢	-10.6637
鶩	-10.6639
亦云	-10.664
俗从	-10.6655
嚼	-10.6655
侗	-10.6658
槮	-10.6659
齗	-10.666
讀與	-10.6661
扞	-10.6663
陪	-10.6663
嫗	-10.6663
柰	-10.6664
紼	-10.6665
閬	-10.6665
憶	-10.6666
塘	-10.6666
人掌	-10.6666
屈也	-10.6667
膊	-10.6668
罍	-10.6669
郭云今	-10.6672
後漢有	-10.6677
貿	-10.6678
今此字兩收於	-10.6681
乾也	-10.6681
碑陰	-10.6684
切木名	-10.6688
拭也	-10.6689
器名	-10.6689
涯	-10.669
飽也	-10.6692
摩也	-10.6694
所在	-10.6695
朐	-10.6703
䋲	-10.6703
从言	-10.6705
霑	-10.6706
紡	-10.6707
獸似	-10.6707
涔	-10.6708
水出焉	-10.6708
鬚	-10.6708
求也	-10.6709
纖	-10.6709
茗	-10.671
彰	-10.671
螭	-10.6711
虯	-10.6711
藕	-10.6712
从衣	-10.6712
壷	-10.6713
鰕	-10.6714
猱	-10.6714
憑	-10.6715
詒	-10.6715
黙	-10.6716
四月	-10.6717
抄	-10.6718
觴	-10.6719
揚雄甘泉賦	-10.6721
又丁	-10.6724
偃切	-10.6725
舊韻	-10.6728
字異	-10.6734
韻書	-10.6738
不為	-10.6738
今音	-10.6743
蠧	-10.6755
周易	-10.6755
捄	-10.6755
穴也	-10.6757
坂	-10.6758
鵰	-10.6759
按廣韻	-10.676
三十三	-10.676
入于	-10.6761
變化	-10.6763
青州	-10.6767
墉	-10.6767
今江東呼	-10.6768
平上	-10.6768
望也	-10.6775
或以	-10.6784
恃	-10.6785
乙切	-10.6787
六寸	-10.6788
嵬	-10.6789
怳	-10.6791
瞋	-10.6795
按以上	-10.6797
摸	-10.6797
孳	-10.68
珪	-10.68
百官	-10.6801
丿	-10.6801
瞽	-10.6802
蹴	-10.6802
甞	-10.6803
阬	-10.6803
纏	-10.6804
恊	-10.6805
搶	-10.6805
涸	-10.6808
級	-10.6812
夔	-10.6813
又山名	-10.6817
詩周頌	-10.6818
其文	-10.6822
从禾	-10.6824
八尺	-10.6827
字或作	-10.6829
南郡	-10.6831
見前	-10.6833
多言也	-10.6835
懣	-10.6839
澮	-10.684
圎	-10.6841
呼為	-10.6842
戶	-10.6843
町	-10.6846
筠	-10.6846
陬	-10.685
閻	-10.6851
闡	-10.6851
髠	-10.6852
説文木	-10.6855
謇	-10.6857
䕶	-10.6861
廟碑	-10.6878
良馬	-10.6879
互見	-10.6883
寮	-10.6885
疥	-10.6887
燠	-10.6888
人面	-10.6894
票	-10.6895
腹下	-10.6896
踐也	-10.6896
禮器	-10.6897
㳺	-10.6899
偪	-10.6899
蘢	-10.6899
厺	-10.6899
搴	-10.6899
涇	-10.69
備也	-10.6901
栢	-10.6901
纚	-10.6906
也或	-10.6906
也從水	-10.691
扶風	-10.6913
誤也	-10.6913
漬也	-10.6917
鷙	-10.6919
一說	-10.6923
灼切	-10.6927
槌	-10.6932
蕢	-10.6937
返	-10.6937
餐	-10.6938
也从頁	-10.694
等字从此	-10.6941
莪	-10.6942
栖	-10.6942
菅	-10.6943
孔龢碑	-10.6943
輟	-10.6945
祼	-10.6946
聯	-10.6947
躡	-10.6952
十四年	-10.6958
詐也	-10.6961
也古者	-10.6965
臭也	-10.6975
杷	-10.6979
炮	-10.6982
笞	-10.6984
啞	-10.6987
史記作	-10.6988
訏	-10.6988
價	-10.699
矞	-10.6993
左思魏都賦	-10.6995
速也	-10.6996
皮也	-10.7001
重音三	-10.7011
説文大	-10.7021
爾雅釋詁	-10.7021
仗	-10.7027
闚	-10.703
儻	-10.7031
杙	-10.7031
貯	-10.7032
稔	-10.7033
峙	-10.7034
橛	-10.7036
又集韻正韻	-10.7036
丂	-10.7036
隣	-10.7037
粤	-10.7037
鬼神	-10.7038
笮	-10.7039
石之	-10.7042
甚切	-10.7045
吉凶	-10.7053
又庚韻	-10.7061
詞也	-10.7065
昊	-10.7072
也引春秋傳	-10.7074
居六切	-10.7074
囗	-10.7076
陁	-10.7076
引周禮	-10.7078
稀	-10.7078
鄭箋云	-10.7079
輝	-10.7081
窊	-10.7082
殄切	-10.7083
譏	-10.7083
鶻	-10.7084
行之	-10.7085
莢	-10.7085
粒	-10.7085
誣	-10.7086
濤	-10.7086
跗	-10.7088
蒐	-10.7088
又見上	-10.709
六反	-10.7092
蔕	-10.7094
者則	-10.7098
一足	-10.7099
活切	-10.7099
二人	-10.7099
䧟	-10.7111
大小	-10.7114
以金	-10.7117
聲或作	-10.7118
簾	-10.7123
山谷	-10.7126
茭	-10.7126
楔	-10.7127
膴	-10.7128
仌	-10.7129
洋	-10.713
緣切	-10.7131
蝮	-10.7133
縛切	-10.7135
又有韻	-10.7135
周頌	-10.7139
就也	-10.7141
潮	-10.7141
菼	-10.7144
穴中	-10.7146
霅	-10.7147
説文作從	-10.7152
嬌	-10.7158
撃	-10.7162
三尺	-10.7165
离	-10.7165
犗	-10.7167
葍	-10.7169
僉	-10.7171
罌	-10.7173
鉗	-10.7174
蝎	-10.7174
鳥之	-10.7175
胙	-10.7176
茲	-10.7177
則不	-10.7178
量也	-10.718
潘岳	-10.718
皋	-10.7181
摹	-10.7184
暉	-10.7185
第二百	-10.7195
槎	-10.7214
掣	-10.7216
相如	-10.7218
笄	-10.7219
笏	-10.7221
厎	-10.7222
拍	-10.7223
簀	-10.7223
上林賦	-10.7224
賚	-10.7225
有兩音	-10.7225
靃	-10.7225
庇	-10.7227
水名又	-10.7227
雖有	-10.7239
歐陽	-10.7241
事之	-10.7246
陳也	-10.7251
先王	-10.7259
今江東	-10.7264
馬也	-10.7265
類篇或作	-10.7268
盥	-10.7268
水經	-10.7268
南海	-10.7269
蔽也	-10.7269
溥	-10.727
恪	-10.727
又宥韻	-10.7276
俶	-10.7278
不自	-10.7279
而自	-10.7279
又爾雅釋詁	-10.728
者必	-10.7281
豨	-10.7282
宫中	-10.7285
白也	-10.7286
破也	-10.7287
車馬	-10.7288
句切	-10.7288
爲之	-10.7295
歷切	-10.7297
四聲	-10.7298
詳前	-10.73
光明	-10.73
磑	-10.7301
燧	-10.7308
縊	-10.7308
隴西	-10.7308
九月	-10.7309
虵	-10.7312
杜甫	-10.7314
絫	-10.7315
華山廟碑	-10.7316
暖	-10.7317
荑	-10.7318
黜	-10.7319
夏承碑	-10.7321
青色	-10.7321
茫	-10.7322
鸛	-10.7327
聲文一	-10.7331
以玉	-10.7335
觳	-10.7335
又魚韻	-10.7337
寒也	-10.734
十八尤	-10.7347
荆州	-10.7356
東入	-10.7358
正義曰	-10.7359
詩周南	-10.736
篇海類編音	-10.7362
庻	-10.7363
襃	-10.7364
燋	-10.7364
頥	-10.7364
害也	-10.7366
慰	-10.7366
梯	-10.7366
薊	-10.7367
芾	-10.7367
詈	-10.7367
捍	-10.7367
鼉	-10.7372
咮	-10.7372
縹	-10.7373
拉	-10.7374
欵	-10.7376
也从刀	-10.7379
葑	-10.7382
王肅	-10.7383
互詳	-10.7386
状如	-10.7386
漢書曰	-10.7389
顏	-10.7404
隰	-10.7407
徐廣曰	-10.7407
訐	-10.7409
勦	-10.7411
鶡	-10.7411
伉	-10.7412
坻	-10.7412
状	-10.7413
祛	-10.7413
尻	-10.7414
胡光切	-10.7414
有司	-10.7415
虗	-10.7418
途	-10.7419
周禮冬官考工記	-10.742
􁄗	-10.7421
璽	-10.7422
諡	-10.7422
芰	-10.7424
集韻作	-10.7433
大車	-10.7433
安定	-10.7438
爾雅釋鳥	-10.7443
塡	-10.7452
勹	-10.7456
啁	-10.7458
嵒	-10.7458
覓	-10.7459
煖	-10.7461
罩	-10.7461
蟠	-10.7462
挐	-10.7462
糠	-10.7463
捽	-10.7465
馴	-10.7465
紬	-10.7465
丞相	-10.7466
無音	-10.7467
菆	-10.7469
雇	-10.747
又集韻韻㑹正韻	-10.747
坫	-10.747
捐	-10.7472
从火	-10.7477
崑崙	-10.7477
閏切	-10.7482
豻	-10.7484
捕魚	-10.7485
瓜切	-10.7489
光武	-10.7491
也易曰	-10.7491
之官	-10.7492
礪	-10.7496
也止也	-10.7502
酏	-10.7504
翬	-10.7505
蝸	-10.7506
註言	-10.7507
五帝	-10.7507
哆	-10.7509
三十二	-10.751
汰	-10.7511
姓苑	-10.7512
湍	-10.7514
掎	-10.7516
蔥	-10.7517
呴	-10.7519
粹	-10.752
亯	-10.7521
鰌	-10.7521
秘	-10.7522
帶也	-10.7523
洿	-10.7524
義異	-10.7525
水皃	-10.7528
也从鳥	-10.7538
並上同	-10.7539
計反	-10.754
㝱	-10.755
四韻	-10.7552
說文水	-10.7554
又星名	-10.7557
沖	-10.7562
丩	-10.7562
棓	-10.7563
寥	-10.7564
幔	-10.7565
捋	-10.7567
穆天子傳	-10.7571
脉	-10.7572
貌亦作	-10.7578
寘韻	-10.7578
長皃	-10.7584
鄭玄	-10.7586
引之為	-10.7588
琰切	-10.7594
文一重音五	-10.7595
三寸	-10.7596
許慎	-10.7597
譖	-10.7604
之别名	-10.7605
視皃	-10.7607
東齊	-10.7609
唾	-10.7609
穜	-10.761
襟	-10.761
鳩切	-10.761
煦	-10.7611
木之	-10.7611
瑱	-10.7612
茷	-10.7613
从肉	-10.7613
忒	-10.7613
闥	-10.7616
鞏	-10.7616
猋	-10.7618
謳	-10.7619
驟	-10.7619
濃	-10.7619
飭	-10.762
文云	-10.762
不進	-10.7624
宫室	-10.7633
仲尼	-10.7634
慧也	-10.7635
齊人謂	-10.7636
也从二	-10.764
榭	-10.7641
主也	-10.7646
切韻	-10.7646
禮韻	-10.7648
十里	-10.7653
豔切	-10.7654
溟	-10.7657
廻	-10.766
欲其	-10.766
字又作	-10.7663
又東	-10.7664
虖	-10.7664
久切	-10.7665
苫	-10.7668
楬	-10.7668
祓	-10.7669
眂	-10.7671
宓	-10.7676
豺	-10.768
任也	-10.7684
久也	-10.7695
是為	-10.7696
訝	-10.7698
童子	-10.7702
逼切	-10.7703
筭	-10.7707
坊	-10.7708
蘿	-10.7708
北海相景君	-10.771
茇	-10.7711
結反	-10.7712
八語	-10.7713
顓頊	-10.7713
丣	-10.7717
釆	-10.7718
弓弩	-10.7718
娣	-10.7722
凡从	-10.7722
鮒	-10.7727
勅	-10.7728
凱	-10.7729
鳥飛	-10.7734
介切	-10.774
書之	-10.7742
遟	-10.7746
也从目	-10.7754
爾雅作	-10.7757
儗	-10.7758
吅	-10.7758
偏旁	-10.7759
碣	-10.776
笑貌	-10.776
驩	-10.7761
湏	-10.7761
陸徳明	-10.7762
瘞	-10.7762
餘也	-10.7762
喝	-10.7762
相背	-10.7763
籌	-10.7763
纁	-10.7765
衆多	-10.7767
屋也	-10.7767
鑽	-10.7768
未嘗	-10.777
揚子太玄經	-10.777
楓	-10.7771
食人	-10.7772
閲	-10.7774
患切	-10.7775
媵	-10.7776
從人	-10.7778
周禮大	-10.7778
聲与	-10.7781
不合	-10.7785
萌切	-10.7786
健也	-10.7786
因名	-10.779
又莫	-10.7795
汭	-10.7804
癉	-10.7805
周語	-10.7806
慁	-10.781
張補	-10.781
㡬	-10.7812
終也	-10.7814
肘	-10.7816
百五	-10.7818
力求切	-10.7818
亦音	-10.7819
九歌	-10.782
蟋蟀	-10.7822
滅也	-10.7823
車軸	-10.7824
六書正譌	-10.7826
之狀	-10.7827
風也	-10.783
一種	-10.7834
水在	-10.7836
爾雅釋天	-10.7836
檢切	-10.7836
莧切	-10.7851
鎌	-10.7854
李斯	-10.7858
有大	-10.7862
繅	-10.7864
村	-10.7864
處也	-10.7865
岌	-10.7867
匙	-10.7868
旭	-10.7868
后稷	-10.7868
拓	-10.7873
又屋韻	-10.7873
臯陶	-10.7875
字重文	-10.7876
其人	-10.788
主切	-10.788
軹	-10.788
鄭云	-10.7881
又真韻	-10.7882
校官碑	-10.7887
則以	-10.7888
入海	-10.7894
故其	-10.7894
合聲	-10.7896
相如傳	-10.7896
又銑韻	-10.7898
車輪	-10.79
猒	-10.79
踶	-10.7903
王子	-10.7905
詆	-10.7907
朶	-10.7907
饘	-10.7913
惶	-10.7914
韻注音	-10.7915
鷩	-10.7915
笱	-10.7918
宁	-10.792
榻	-10.7921
呂氏春秋	-10.7927
也大也	-10.7928
韻注	-10.7934
也春秋傳	-10.7935
監本从	-10.7936
也從木	-10.7944
又震韻	-10.795
何氏姓苑	-10.7952
傳作	-10.7953
韓勑	-10.7953
佻	-10.7954
媞	-10.7954
譁	-10.7957
噭	-10.7957
戟	-10.7959
詡	-10.796
縣有	-10.7962
錞	-10.7963
屰	-10.7964
旐	-10.7964
枹	-10.7968
籀作	-10.7969
畀	-10.797
鸇	-10.7971
不收	-10.7972
司馬法	-10.7973
畿	-10.7976
熹	-10.7978
王傳	-10.7986
靜也	-10.7988
又七	-10.7989
臥切	-10.7989
十五年	-10.799
車前	-10.7992
此皆	-10.7992
祭天	-10.7997
古詩	-10.7998
尹切	-10.8003
字註見	-10.8004
而不可	-10.8006
大風	-10.8008
紩	-10.8009
為氏	-10.8009
天竺	-10.801
攣	-10.8013
柩	-10.8015
謚	-10.8015
靁	-10.8017
櫨	-10.8018
軼	-10.8018
磊	-10.802
狙	-10.8022
貶	-10.8023
潁川	-10.8023
黿	-10.8024
睦	-10.8025
集韻韻會正韻	-10.8025
虡	-10.8025
篇韻	-10.8026
營切	-10.8026
霆	-10.8027
雨雪	-10.8029
蜼	-10.8033
單作	-10.8037
漢律	-10.8038
之内	-10.8038
不定	-10.8039
輕也	-10.804
眷切	-10.804
海篇	-10.8041
陸氏	-10.8049
万	-10.8051
還切	-10.8054
两	-10.8055
薄也	-10.8057
蟊	-10.806
又漢複姓	-10.8063
之名也	-10.8064
慱	-10.8064
耄	-10.8064
行不	-10.8065
秭	-10.8065
慄	-10.8066
字彙補同	-10.8069
从月	-10.8069
薜	-10.807
諂	-10.8071
槀	-10.8071
珥	-10.8073
祉	-10.8074
平原	-10.8075
罹	-10.8078
咢	-10.8081
不食	-10.8083
實如	-10.8089
礼	-10.8096
轄切	-10.8097
慢也	-10.8098
小切	-10.8102
斁	-10.8109
軻	-10.8114
冘	-10.8114
籕	-10.8115
糝	-10.8116
字類	-10.8118
桮	-10.812
矧	-10.812
嘼	-10.8122
音義與	-10.8123
者皆曰	-10.8123
熟也	-10.8124
不絶	-10.8124
苐	-10.8126
兜	-10.8129
暨	-10.813
玉也	-10.8131
翣	-10.8135
謂以	-10.8139
故為	-10.8142
吉切	-10.8144
服之	-10.8146
傳有	-10.8146
馮翊	-10.8161
蜿	-10.8162
䍐	-10.8169
檄	-10.8169
恭也	-10.817
妒	-10.817
喑	-10.817
勻	-10.8171
絲也	-10.8171
睛	-10.8171
擭	-10.8172
紵	-10.8172
奭	-10.8173
鎖	-10.8173
幘	-10.8176
而止	-10.8176
蝨	-10.8177
田黎切	-10.8178
往也	-10.8178
畤	-10.8181
佀	-10.8182
栭	-10.8184
者其	-10.8185
隴切	-10.8188
滑切	-10.819
五音篇海同	-10.8194
又先	-10.8202
聿切	-10.8203
胡官切	-10.8204
之皃	-10.8205
素問	-10.8205
儿	-10.8212
上同又	-10.8213
字為	-10.8217
木名又	-10.8219
摻	-10.8221
糓	-10.8222
踔	-10.8223
豏	-10.8223
眄	-10.8224
螟	-10.8224
噴	-10.8225
蛟	-10.8226
象形凡	-10.8227
雎	-10.8228
贄	-10.8228
文子	-10.8229
郝	-10.823
誡	-10.823
畛	-10.823
窻	-10.8231
緌	-10.8232
熈	-10.8232
涷	-10.8233
周禮秋官	-10.8235
冩	-10.8236
羆	-10.8238
多貌	-10.8238
注疏	-10.8244
見於	-10.8245
輩	-10.8249
見切	-10.8252
義同又	-10.8258
瑰	-10.8263
國名又姓	-10.8264
藨	-10.8268
劬	-10.8268
醜也	-10.8272
噐也	-10.8274
躁	-10.8275
箄	-10.8277
張衡	-10.8277
大人	-10.8278
十一唐	-10.8278
葆	-10.828
按今	-10.8281
楚謂	-10.8281
蹊	-10.8283
直視	-10.8285
繪	-10.8285
徒郎切	-10.8285
伽	-10.8285
大戴禮	-10.8287
又才	-10.8292
絶有力	-10.8293
古尚	-10.8296
鎋	-10.8298
狄切	-10.8302
三千	-10.8304
即此	-10.8307
九魚	-10.8309
觸也	-10.8312
蛣	-10.832
从目	-10.8324
懇	-10.8324
楯	-10.8326
脹	-10.8326
北燕	-10.8326
孩	-10.8328
从玉	-10.8329
腋	-10.8329
言語	-10.833
褘	-10.8336
其一	-10.8336
眥	-10.8339
袪	-10.8339
又匹	-10.834
逰	-10.8341
國有	-10.835
之說	-10.8356
殘碑	-10.8357
山形	-10.8358
通押	-10.8362
爲意	-10.8364
从刀	-10.8375
陸本	-10.8376
釘	-10.8377
儺	-10.8378
醮	-10.8378
犮	-10.8381
旡	-10.8382
今為	-10.8382
東方朔	-10.8382
磽	-10.8382
汀	-10.8383
仡	-10.8384
蟉	-10.8384
鞶	-10.8385
斃	-10.8385
臬	-10.8385
从穴	-10.8386
鐃	-10.8387
窈	-10.8388
繕	-10.8388
囱	-10.8388
經典相承	-10.8389
窘	-10.8389
妣	-10.839
觶	-10.8391
錡	-10.8392
随	-10.8395
溲	-10.8396
風俗通云	-10.8396
老人	-10.8398
書舜典	-10.8399
啾	-10.8399
委蛇	-10.8409
詩豳風	-10.8416
之譌	-10.8423
呂切	-10.8425
文作	-10.8427
版切	-10.843
皇帝	-10.843
灾	-10.843
也文二重音一	-10.8431
喚	-10.8432
重音二	-10.8433
鬥	-10.8436
也或曰	-10.8436
漢碑	-10.8437
齡	-10.8438
纊	-10.8438
神明	-10.8439
又持	-10.8439
筴	-10.844
踖	-10.8441
餳	-10.8442
渫	-10.8442
有毛	-10.8442
扉	-10.8443
耨	-10.8443
曄	-10.8443
有一	-10.8444
種也	-10.8446
劉向	-10.8446
㢘	-10.8447
岱	-10.8455
隸續云	-10.8465
也㑹意	-10.8468
有兩	-10.8475
也从衣	-10.8475
鯀	-10.8484
帬	-10.8485
本自	-10.8486
之疑	-10.8487
疑也	-10.849
巧言	-10.8493
贛	-10.8494
法言	-10.8495
懦	-10.8496
亳	-10.8497
炤	-10.8498
相類	-10.8499
鍊	-10.85
槁	-10.85
踧	-10.8503
見本韻	-10.8504
洫	-10.8504
漢武	-10.8505
參同契	-10.8509
玩切	-10.851
四牡	-10.8511
項羽	-10.8513
者如	-10.8515
下从	-10.8521
玦	-10.8529
亦从	-10.853
先後	-10.853
幺切	-10.8536
膾	-10.854
司空	-10.8541
也正字通	-10.8542
侃	-10.8545
鳶	-10.8551
賣切	-10.8551
氂	-10.8553
蔬	-10.8556
冀州	-10.8557
匝	-10.8561
之總名	-10.8564
百六	-10.8565
之異	-10.8567
飛皃	-10.8574
邦國	-10.8578
嶭	-10.8594
鋸	-10.8599
洵	-10.86
壮	-10.86
晞	-10.8601
焱	-10.8602
謡	-10.8603
冦	-10.8606
黏也	-10.8606
甥	-10.8606
擘	-10.8607
貓	-10.8608
厨	-10.8608
襍	-10.8615
爾雅釋器	-10.8622
耕也	-10.8625
麓	-10.8628
太原	-10.8632
也从足	-10.8633
彚	-10.864
見禮記	-10.8646
大學	-10.8648
豁	-10.8652
蝱	-10.8652
之於	-10.8653
迓	-10.8654
槍	-10.8654
菰	-10.8655
擅	-10.8656
不出	-10.8656
疽	-10.8656
遒	-10.8657
水流貌	-10.8657
重音一	-10.8657
啇	-10.8659
酤	-10.8661
鬰	-10.8661
弘農	-10.8661
縵	-10.8662
肄	-10.8663
成也	-10.8663
不言	-10.8664
昴	-10.8664
邇	-10.8665
黄庭經	-10.8665
角反	-10.8665
隩	-10.8666
家語	-10.8668
鎬	-10.8672
行行	-10.8674
之對	-10.8681
音由	-10.8681
水草	-10.8681
生之	-10.8682
韋昭	-10.8684
五切	-10.8684
垂貌	-10.8687
鄭康成讀	-10.8689
續也	-10.8692
因之為	-10.8693
六脂	-10.8694
從一	-10.8695
可染	-10.8699
題名	-10.87
隕切	-10.8703
又泰韻	-10.8705
潸	-10.8709
癘	-10.8709
慤	-10.8712
之美	-10.8712
廱	-10.8713
丮	-10.8713
泲	-10.8713
酪	-10.8713
􁁯	-10.8714
縶	-10.8715
鬵	-10.8715
冲	-10.8715
鑪	-10.8717
下曰	-10.8717
褎	-10.8717
略切	-10.8717
蔗	-10.8717
森	-10.8718
忘也	-10.8722
文二重音三	-10.8722
陣	-10.8723
者多	-10.8727
屈原離騷	-10.8728
非聲	-10.8731
又官名	-10.8732
禮玉藻	-10.8733
神農	-10.8735
傳寫	-10.8737
惑也	-10.8739
不識	-10.8742
周之	-10.8743
二月	-10.8749
川篇音	-10.8754
杜詩	-10.8755
南史	-10.876
薇	-10.8762
滇	-10.8764
償	-10.8765
西京賦	-10.8765
切説文曰	-10.8765
縠	-10.8766
薉	-10.8766
蠋	-10.8767
㒵也	-10.8769
陽之	-10.8769
偈	-10.8769
州刺史	-10.8773
袞	-10.8775
殺之	-10.8775
鯨	-10.8776
次清次音	-10.8782
酈	-10.8783
江夏	-10.8784
庶人	-10.8789
隹切	-10.8791
叙傳	-10.8792
國在	-10.8796
孺	-10.88
石鼓文	-10.8803
弟子	-10.8806
故謂	-10.8807
王逸	-10.8808
隗	-10.881
駔	-10.8816
强也	-10.8816
羣臣	-10.8817
煌	-10.8818
噦	-10.8819
禳	-10.8819
亼	-10.882
奐	-10.8822
張遷碑	-10.8822
堰	-10.8824
搜真玉鏡	-10.8824
之制	-10.8825
嵎	-10.8825
杵	-10.8826
狃	-10.8827
甜	-10.8829
派	-10.8829
斲	-10.8829
軛	-10.8833
楮	-10.8835
當時	-10.8838
幽州	-10.8838
十八年	-10.8838
不順	-10.8842
九章	-10.8846
匈奴傳	-10.8846
舩	-10.8849
而死	-10.8853
俗書	-10.8861
相與	-10.8862
撻	-10.8872
擠	-10.8876
嶷	-10.8876
啜	-10.8876
渝	-10.8877
頼	-10.8878
郢切	-10.8878
抉	-10.8878
轔	-10.8879
遘	-10.8881
悠悠	-10.8881
琫	-10.8881
嘘	-10.8883
酇	-10.8884
同意	-10.8884
氾	-10.8884
悵	-10.8885
牛角	-10.8885
蹢	-10.8885
檜	-10.8886
無角	-10.889
㧞	-10.8893
按詩	-10.8894
秬	-10.8894
使也	-10.8894
三十八	-10.8896
足以	-10.8896
紗	-10.8899
之月	-10.8899
文十一	-10.8902
容也	-10.8904
古尚書	-10.8907
王存乂切韻	-10.8909
因以	-10.8914
禮樂記	-10.8916
唐韻集韻韻會正韻	-10.8918
為大	-10.8919
枝葉	-10.8919
中心	-10.8921
禮王制	-10.8922
東夷	-10.8927
蓑	-10.893
沆	-10.893
陳楚	-10.893
哥	-10.893
睂	-10.8932
玉篇云	-10.8935
迂	-10.8936
婚	-10.8936
幻	-10.8936
郙閣頌	-10.8937
鴇	-10.8937
甎	-10.8937
灼龜	-10.8938
睪	-10.8939
慝	-10.8939
聮	-10.894
縫也	-10.894
頫	-10.8944
又養韻	-10.8944
書堯典	-10.8949
張口	-10.8953
八字	-10.8956
腹中	-10.896
之通	-10.896
敎切	-10.8962
〇	-10.897
晉灼曰	-10.897
用此	-10.8971
齊侯	-10.8975
京師	-10.8979
違也	-10.8982
山中	-10.8982
怡	-10.8986
放也	-10.8987
芍	-10.8987
有五	-10.8988
軨	-10.8988
韍	-10.8988
豆切	-10.8989
景君	-10.8989
鄭固碑	-10.899
叶韻	-10.8991
膜	-10.8991
觥	-10.8992
祲	-10.8993
裨	-10.8993
冤	-10.8993
攫	-10.8996
蝦蟆	-10.8996
灘	-10.8996
蜡	-10.8997
濆	-10.8998
也進也	-10.8999
徐音	-10.9
禋	-10.9001
徒谷切	-10.9004
弓切	-10.9014
晉大夫	-10.9021
五味	-10.9027
八寸	-10.9041
堤	-10.9042
九州	-10.9043
鄭樵曰	-10.9043
鏗	-10.9046
螾	-10.9047
五行志	-10.9047
蕡	-10.9047
其類	-10.9048
廣大	-10.9048
不用	-10.9049
攵	-10.9051
縻	-10.9052
埸	-10.9053
急就章	-10.9053
查	-10.9054
儵	-10.9055
為正	-10.9056
菁	-10.9056
癰	-10.9058
也從艸	-10.9061
伐木	-10.9061
猛獸	-10.9062
氏掌	-10.9067
之義也	-10.907
而細	-10.9071
亦與	-10.9071
會意	-10.9071
繫也	-10.9072
讀書	-10.9072
目也	-10.9074
萬民	-10.9076
屬又	-10.9083
之㑹意	-10.9085
畨	-10.9085
碑碑碑	-10.9086
又口	-10.9091
去聲義同	-10.9093
也从攴	-10.9095
之使	-10.9099
二俗	-10.9099
毛羽	-10.91
也从禾	-10.9102
魚子	-10.9105
佩玉	-10.9105
潏	-10.9107
後碑	-10.9107
鬣	-10.9107
咤	-10.9108
醯	-10.9114
草生	-10.9115
鱓	-10.9117
濞	-10.9117
嫁切	-10.9119
太公	-10.9121
也从大	-10.9123
失之	-10.9123
徧也	-10.9126
左傳昭二十	-10.913
各反	-10.913
又藥韻	-10.9131
斫也	-10.9133
追切	-10.9138
秦人	-10.9138
布帛	-10.914
澤也	-10.9142
衣裳	-10.915
戉	-10.9153
五經文字	-10.9154
愒	-10.9154
胤	-10.9157
繒也	-10.9157
弓矢	-10.9159
髮也	-10.916
搢	-10.916
漢郊祀歌	-10.9163
絭	-10.9163
毛氏	-10.9165
裒	-10.9167
撲	-10.9167
枋	-10.9168
楚有	-10.9168
晴	-10.9171
軟	-10.9172
謠	-10.9172
炳	-10.9172
陸雲	-10.9173
也从貝	-10.9175
不至	-10.9177
也禮曲禮	-10.9177
文十二	-10.9183
喋	-10.9186
同說文	-10.9191
者案	-10.9193
又姓出姓苑	-10.9193
推也	-10.9196
古今注	-10.9199
左傳哀	-10.9203
兩旁	-10.9203
單于	-10.9206
手也	-10.9206
鄭注	-10.9208
矍	-10.9212
罪人	-10.9217
曩	-10.9218
搦	-10.9219
隃	-10.9222
撿	-10.9223
古穴切	-10.9223
涎	-10.9224
文曰	-10.9224
插	-10.9225
鼃	-10.9225
古字	-10.9225
周憬	-10.9225
縢	-10.9228
熇	-10.9229
通俗文	-10.923
媯	-10.9231
碑變從	-10.9232
課	-10.9236
掲	-10.9237
諸書	-10.9243
又陌韻	-10.9244
終日	-10.9251
之樂	-10.9251
樂名	-10.9252
六字	-10.9253
遼東	-10.9254
項切	-10.9263
閉也	-10.9265
故反	-10.927
訝切	-10.927
瑑	-10.9273
本也	-10.9274
令人	-10.9274
雋	-10.9276
悍	-10.9277
誹	-10.9278
白華	-10.9278
又巨	-10.928
一物	-10.928
門也	-10.928
臣鉉等曰	-10.928
氛	-10.9281
跟	-10.9282
即今之	-10.9282
突也	-10.9284
拚	-10.9285
尗	-10.9286
濮	-10.9286
又姓風俗通云	-10.9288
髓	-10.9289
拄	-10.9292
貨殖傳	-10.9295
從艸	-10.9296
或為	-10.9298
籠也	-10.9298
上曰	-10.9302
沇	-10.9305
川篇	-10.9316
隶	-10.9322
懈切	-10.9324
固也	-10.9325
也与	-10.9325
九江	-10.9327
綆	-10.9329
栩	-10.9329
也説文曰	-10.933
裯	-10.9333
又質韻	-10.9334
棱	-10.9334
殞	-10.9336
詢	-10.9338
緡	-10.9338
洧	-10.9339
咄	-10.9339
盻	-10.9341
橦	-10.9341
嬉	-10.9341
夤	-10.9343
鼂	-10.9343
煥	-10.9344
之可	-10.9346
雜也	-10.9346
嘖	-10.9348
罄	-10.9349
確	-10.9351
石名	-10.9351
顧氏	-10.9354
爿	-10.9354
荻	-10.9356
音義云	-10.9357
黨切	-10.9366
郎反	-10.9371
蚍蜉	-10.9373
别也	-10.9375
置也	-10.9376
小皃	-10.9379
禮記曰	-10.9381
叀	-10.9381
字今	-10.9387
去入	-10.9395
二尺	-10.9396
芷	-10.9396
炬	-10.9397
堲	-10.9397
坡	-10.9397
藐	-10.9397
殯	-10.9398
罘	-10.9399
荂	-10.9399
犴	-10.94
邁切	-10.94
俳	-10.94
貂	-10.9401
梏	-10.9402
闋	-10.9403
晡	-10.9403
逗	-10.9404
陳琳	-10.9405
贖	-10.9405
招魂	-10.9408
周禮司	-10.9408
韓非子	-10.9409
左思吳都賦	-10.941
橙	-10.9412
四十二	-10.9414
悶切	-10.9419
招切	-10.9424
交反	-10.9424
貌莊子	-10.943
王莽	-10.9434
馬尾	-10.944
咥	-10.9441
馬融	-10.9445
皤	-10.9449
澣	-10.9449
鐶	-10.9451
百卅	-10.9451
界也	-10.9452
集韻正韻	-10.9452
妊	-10.9452
斟	-10.9455
薈	-10.9457
男女	-10.9457
不應	-10.9457
垓	-10.9459
釵	-10.9461
恂	-10.9461
糲	-10.9461
蒻	-10.9461
佑	-10.9462
此即	-10.9463
狼狄切	-10.9464
諤	-10.9464
曺	-10.9464
葉如	-10.9464
樽	-10.9466
於上	-10.9466
倩	-10.9466
刻石	-10.9466
菱	-10.9467
培	-10.9468
湊	-10.9468
鍛	-10.9469
韋昭曰	-10.9469
人物	-10.9473
漕	-10.9474
神也	-10.948
又姓漢	-10.948
楚謂之	-10.9484
从攴	-10.9492
之末	-10.9499
嬈	-10.9505
天文志	-10.9505
變也	-10.9506
腓	-10.9512
愷	-10.9513
道路	-10.9516
歆	-10.9517
从鳥	-10.9517
窬	-10.9518
貊	-10.9519
紲	-10.952
綃	-10.9521
爍	-10.9522
鑾	-10.9525
劉昌宗讀	-10.9525
芊	-10.9525
驥	-10.9525
諶	-10.9525
掬	-10.9525
見宋史宗室表	-10.9526
蛹	-10.9528
責也	-10.9529
又去聲	-10.9529
鄭注云	-10.9529
伊尹	-10.953
鮐	-10.953
五寸	-10.954
山林	-10.9542
無聲	-10.9542
如今	-10.9546
亦省	-10.9554
也善也	-10.9554
馬行	-10.9556
声臣	-10.9562
君臣	-10.9562
目不明	-10.9565
非一	-10.9565
翏	-10.9567
吼	-10.9573
結也	-10.9573
庵	-10.9575
絢	-10.9576
扱	-10.9577
二十四職	-10.9577
字彚補音	-10.9578
戕	-10.9578
鮦	-10.9578
駑	-10.9581
犛	-10.9583
豳	-10.9583
葩	-10.9584
羖	-10.9585
有功	-10.9587
扆	-10.9588
椑	-10.9588
咍	-10.9589
浹	-10.959
禮韻續降	-10.9592
也从馬	-10.9593
其身	-10.9596
之誤	-10.9605
水蟲	-10.9608
往往	-10.961
為名	-10.9611
又女	-10.9615
廣也	-10.9619
其色	-10.9621
誶	-10.9628
螢	-10.9629
寛也	-10.9629
説文引詩	-10.9637
罅	-10.9638
哨	-10.9639
溱	-10.964
虬	-10.9641
栘	-10.9641
踏	-10.9641
用也	-10.9642
藁	-10.9642
匽	-10.9642
鴂	-10.9643
文十三	-10.9643
數之	-10.9644
獫	-10.9644
五日	-10.9644
東方朔傳	-10.9644
廊	-10.9644
从山	-10.9645
鄴	-10.9645
篾	-10.9645
也从門	-10.9645
史晨	-10.9648
一百	-10.9651
祊	-10.9652
迨	-10.9654
顔師古	-10.9654
水清	-10.9655
之書	-10.9663
有角	-10.9663
八九	-10.9667
不利	-10.9672
塵也	-10.9674
榖梁傳	-10.9675
玉聲	-10.9676
鄭司農曰	-10.9685
碑銘	-10.9692
馗	-10.9694
詖	-10.9698
堯廟碑	-10.9699
杪	-10.9699
迪	-10.97
迸	-10.97
樛	-10.97
壟	-10.97
袤	-10.9701
厖	-10.9701
闓	-10.9702
戹	-10.9703
簸	-10.9705
畆	-10.9705
黯	-10.9705
第二十	-10.9705
皇后	-10.9705
劦	-10.9706
捨	-10.9707
陸佃云	-10.9713
之間謂	-10.9714
亭名在	-10.9714
匜	-10.9714
大腹	-10.9715
釋曰此	-10.9718
三公	-10.9718
擾也	-10.9721
声讀若	-10.9723
杜氏曰	-10.9725
無足	-10.9725
約也	-10.9729
切草	-10.9733
又寒韻	-10.9735
十七年	-10.9743
今從集韻	-10.9745
皃或作	-10.9747
字至	-10.9748
鼎文	-10.975
字廣韻收入	-10.9755
以竹	-10.9756
肸	-10.9757
騃	-10.9758
洮	-10.9759
郅	-10.9759
澱	-10.9761
均也	-10.9761
砌	-10.9763
蜻	-10.9763
伶	-10.9763
邅	-10.9763
諜	-10.9763
土為	-10.9765
廌	-10.9765
麪	-10.9765
摠	-10.9766
徘徊	-10.9767
夷周切	-10.9769
莩	-10.9769
斡	-10.9769
劾	-10.977
三十七	-10.9771
逕	-10.9772
字彙補古文	-10.9774
鷦	-10.9774
颯	-10.9776
匚	-10.9778
徒東切	-10.978
判也	-10.978
正字	-10.9783
滎	-10.9791
不知其	-10.9794
説文馬	-10.9794
蒿也	-10.9797
人者	-10.9797
聲引詩	-10.98
亦切	-10.9801
精也	-10.9801
見左傳	-10.9803
柅	-10.9808
叨	-10.9812
道徳	-10.9813
璫	-10.9814
韎	-10.9818
墠	-10.9819
豢	-10.9819
字從之	-10.9821
顓	-10.9825
當是	-10.9825
穧	-10.9826
瑶	-10.9826
瀧	-10.9826
狸	-10.9826
王逸九思	-10.9828
不安也	-10.9828
蝦蟇	-10.9831
三輔	-10.9831
睫	-10.9833
六經	-10.9834
太玄經	-10.9834
註云	-10.9835
榱	-10.9838
受命	-10.984
渠之切	-10.9841
詩鄭風	-10.9842
峨	-10.9842
芙蓉	-10.9845
詩經集傳	-10.9845
字義	-10.985
行不進	-10.9852
等也	-10.9861
其尾	-10.9861
五音	-10.9868
讀爲	-10.9868
得聲	-10.9869
知之	-10.9873
又借為	-10.9876
二曰	-10.9879
傴	-10.988
褊	-10.988
㫃	-10.988
啻	-10.9885
紇	-10.9885
椿	-10.9887
銛	-10.9887
騁	-10.9888
崒	-10.9892
瘉	-10.9893
覿	-10.9893
晳	-10.9894
白虎	-10.9894
斾	-10.9896
粉切	-10.9896
鳥名似	-10.9901
五經	-10.991
爾雅釋蟲	-10.9915
杲	-10.9916
遽也	-10.9922
周禮考工記	-10.9922
垣也	-10.9923
周曰	-10.9935
死也	-10.9936
舀	-10.9937
巠	-10.9938
閃	-10.9938
迦	-10.9938
蝥	-10.9939
前也	-10.9941
畧切	-10.9941
又唐	-10.9942
稌	-10.9945
翊	-10.9946
佹	-10.9946
貲	-10.9946
絇	-10.9949
苔	-10.9949
埶	-10.995
囟	-10.995
邯鄲	-10.995
汋	-10.9951
犢	-10.9951
遝	-10.9952
歙	-10.9953
桶	-10.9953
漣	-10.9955
不載	-10.9955
馬融長笛賦	-10.9955
騏	-10.9956
字彙𥙷	-10.9957
壙	-10.9958
以前	-10.9961
力制切	-10.9963
崧	-10.9964
小魚	-10.9964
葘	-10.9967
乱	-10.9968
不死	-10.9972
養也	-10.9972
車上	-10.9976
又御韻	-10.9979
世之	-10.9979
春秋左傳	-10.9979
而未	-10.9979
徒刀切	-10.9982
四尺	-10.9984
以見意	-10.9985
大口	-10.9986
孫炎云	-10.9987
生者	-10.9987
也或書作	-10.9996
部第三百	-10.9997
竝同	-10.9999
嗚	-10.9999
射之	-11.0001
厠	-11.0001
白石	-11.0003
悚	-11.0003
鄣	-11.0005
皀	-11.0005
釭	-11.0007
嬾	-11.0007
又翰韻	-11.0007
米也	-11.0008
侑	-11.0008
獠	-11.0009
掔	-11.0009
姝	-11.0011
踣	-11.0013
劉熊碑	-11.0013
堊	-11.0013
偁	-11.0014
從衣	-11.0015
苽	-11.0015
鋝	-11.0016
洌	-11.0018
濳	-11.002
鯢	-11.002
正譌	-11.0022
又縣名	-11.0022
増韻又	-11.0022
濵	-11.0023
騂	-11.0024
矣又	-11.0028
兵器	-11.003
方音	-11.0032
又蕭	-11.0034
紹切	-11.0036
無有	-11.0045
索隱	-11.0046
刮切	-11.0047
次濁	-11.0048
宋玉	-11.0053
宗伯	-11.0053
動皃	-11.0056
蜀人	-11.0057
不欲	-11.0057
當从	-11.0058
水曰	-11.0061
獪	-11.0062
詩召南	-11.0063
晢	-11.0067
紘	-11.0068
衡山	-11.0068
韠	-11.0068
縿	-11.0071
眴	-11.0071
之野	-11.0072
巍	-11.0072
擩	-11.0072
螗	-11.0072
重音	-11.0073
朏	-11.0073
月切	-11.0075
从一	-11.0075
瘁	-11.0075
蔟	-11.0075
櫜	-11.0076
罥	-11.0076
淋	-11.0078
鐔	-11.0079
漳	-11.0079
紱	-11.008
之士	-11.008
赭	-11.008
廼	-11.008
層	-11.0081
耘	-11.0082
絰	-11.0082
穀梁傳	-11.0085
㨗	-11.0085
逄	-11.0085
鶚	-11.0086
擲	-11.0087
尾長	-11.0088
正字通與	-11.0089
之小者	-11.009
冇	-11.009
也从力	-11.0095
去聲則音	-11.0097
並古	-11.0097
文三重音一	-11.0098
周禮作	-11.0098
藥艸	-11.0104
文帝	-11.0115
唐人	-11.0123
食貨志	-11.0124
廣漢	-11.0125
吮	-11.0128
畺	-11.013
逞	-11.0132
涿	-11.0134
淒	-11.0135
侖	-11.0136
饜	-11.0136
晶	-11.0137
墊	-11.0137
聲臣鍇	-11.0138
字舊為	-11.0139
犬吠	-11.014
芼	-11.0141
車輞	-11.0142
楛	-11.0143
鈔	-11.0143
州又姓	-11.0144
茝	-11.0146
民不	-11.0152
太史	-11.0152
則是	-11.0154
字彚𥙷	-11.0154
郎計切	-11.0157
夏后氏	-11.0159
又遇韻	-11.0164
又軫韻	-11.0168
相對	-11.0168
不明也	-11.0168
改作	-11.0169
又爾雅	-11.0174
引春秋傳	-11.0175
顔師古注	-11.0175
声一曰	-11.0177
今謂之	-11.0181
篇云	-11.0182
堯切	-11.0191
長短	-11.0191
揜	-11.0192
轑	-11.0197
礧	-11.0197
疏謂	-11.0198
么	-11.0199
胠	-11.02
柬	-11.0202
礫	-11.0203
儷	-11.0206
鍜	-11.0207
郭音	-11.021
柔也	-11.0211
如何	-11.0215
頂切	-11.0215
齊有	-11.0218
五經文字云	-11.022
茂也	-11.0222
人有	-11.0224
埤蒼云	-11.0226
以來	-11.0227
諸侯之	-11.0231
竹角切	-11.0237
常山	-11.0238
東郡	-11.0239
從口	-11.0244
辝	-11.0244
三十九	-11.0245
上古	-11.0245
國語曰	-11.0245
毛也	-11.0245
尸子	-11.0247
袁切	-11.0256
集韻草名	-11.0258
渇	-11.0259
四章	-11.0263
掛	-11.0263
拖	-11.0263
雺	-11.0263
也儀禮	-11.0264
浼	-11.0264
鏘	-11.0265
檠	-11.0265
猝	-11.0265
亦無	-11.0267
有力	-11.0267
髪也	-11.0267
銓	-11.0268
十六年	-11.0269
鐫	-11.027
王莽傳	-11.027
臍	-11.027
醒	-11.0272
惻	-11.0272
蝕	-11.0272
祧	-11.0273
睽	-11.0277
贏	-11.0278
秠	-11.0284
渡水	-11.0285
楚辭曰	-11.0286
仁義	-11.0286
草名爾雅	-11.0289
又灰韻	-11.0301
四百	-11.0302
此言	-11.0312
相著	-11.0315
古玩切	-11.0316
舡	-11.0317
宥韻	-11.0318
古活切	-11.0319
艸名爾雅	-11.032
也从宀	-11.0321
邑名在	-11.0321
痒	-11.0321
􁈢	-11.0322
禮記月令	-11.0323
焞	-11.0324
剸	-11.0326
蠖	-11.0327
訑	-11.0329
甯	-11.033
峽	-11.0331
倭	-11.0332
陘	-11.0332
欹	-11.0333
佃	-11.0333
左思呉都賦	-11.0333
梳	-11.0334
瞞	-11.0336
蹏	-11.0337
註今	-11.0339
霰韻	-11.034
子名	-11.0342
弄切	-11.0345
鷸	-11.0345
六書統	-11.0347
竽	-11.0347
以物	-11.0348
斵	-11.0351
隰有	-11.0351
博士	-11.0352
庾切	-11.0352
樂浪	-11.0356
其首	-11.0356
之大者	-11.0357
其餘	-11.0358
羊朱切	-11.0358
徐按	-11.0358
五六	-11.0359
曷切	-11.036
許氏	-11.0363
襌	-11.0374
□○	-11.0377
在外	-11.0381
此非	-11.0382
孱	-11.0386
人心	-11.0387
硬	-11.0388
窮也	-11.039
皆同	-11.039
火氣	-11.0391
椅	-11.0392
犁	-11.0393
碭	-11.0394
扣	-11.0395
璣	-11.0396
跳也	-11.0396
荔	-11.0397
輮	-11.0398
蟣	-11.04
棼	-11.04
櫬	-11.0401
术	-11.0402
也荘子	-11.0404
又普	-11.0404
流貌	-11.0405
滄	-11.0406
篇韻音	-11.0406
書洪範	-11.0407
芃	-11.0408
音如	-11.041
北山	-11.0411
撝	-11.0411
駵	-11.0411
故從	-11.0414
字非	-11.0415
四十六	-11.0416
應劭	-11.0418
詩注	-11.0419
又奴	-11.0427
文公	-11.0428
文二十	-11.044
反下	-11.0441
六至	-11.0445
傀	-11.0448
審也	-11.045
留切	-11.045
地名又	-11.0451
揚州	-11.0451
呌	-11.0456
歧	-11.0456
瘢	-11.0456
之屬皆從	-11.0457
昩	-11.0457
兊	-11.0457
鞬	-11.0459
肫	-11.046
田也	-11.0461
佇	-11.0462
因謂之	-11.0462
穆公	-11.0462
蝶	-11.0462
訂	-11.0464
也又於	-11.0464
翾	-11.0466
乎其	-11.0466
訣	-11.0468
鄗	-11.0469
糅	-11.0472
聲古	-11.0477
皵	-11.0478
美女	-11.048
五尺	-11.048
罝	-11.0482
而不能	-11.0485
詩詁	-11.0487
兩頭	-11.0491
張納	-11.0492
此亦	-11.0493
記云	-11.0503
亭名	-11.0505
聲與	-11.0511
唐韻集韻韻會	-11.0513
有罪	-11.0515
燼	-11.0518
韻會正韻	-11.0519
離也	-11.0519
荅切	-11.0519
此則	-11.052
而髙	-11.052
莤	-11.0521
琅	-11.0522
頏	-11.0524
絝	-11.0524
兾	-11.0524
釃	-11.0525
萬里	-11.0525
邃	-11.0527
毆	-11.0528
栁宗元	-11.0529
騑	-11.0529
不失	-11.053
胖	-11.0531
蓺	-11.0532
逶	-11.0532
閨	-11.0534
胞	-11.0534
西河	-11.0535
籧篨	-11.0537
折也	-11.0538
誼	-11.0542
閉門	-11.0542
翥	-11.0542
雨也	-11.0543
説文艸	-11.0544
偶也	-11.0546
詩秦風	-11.0553
爾雅釋獸	-11.0557
舟也	-11.056
詳後	-11.0566
以周切	-11.0575
在中	-11.0577
感反	-11.0581
也一作	-11.0582
从殳	-11.0582
於人	-11.0583
艸名文一	-11.0585
挼	-11.0587
稗	-11.0591
􁌏	-11.0592
摳	-11.0594
葚	-11.0594
靚	-11.0595
臽	-11.0595
蛻	-11.0596
羶	-11.0597
蜘蛛	-11.0597
帑	-11.0597
餒	-11.0599
嫉	-11.0599
鴛鴦	-11.0599
迆	-11.06
道藏歌	-11.06
武榮碑	-11.0601
崟	-11.0602
璜	-11.0603
瀏	-11.0604
蓊	-11.0604
杻	-11.0605
鱧	-11.0606
香也	-11.0608
有節	-11.0608
鸒	-11.0611
也公羊傳	-11.0611
柱也	-11.0613
䲭	-11.0614
犍	-11.0623
徒紅切	-11.0624
門中	-11.0627
部五百	-11.0632
能言	-11.0633
又木名	-11.0635
所食	-11.0635
禮記内則	-11.0637
東韻	-11.0641
又竝	-11.0642
鄭註	-11.0651
臤	-11.0654
紙韻	-11.0658
瘧	-11.0658
愬	-11.0659
硯	-11.0659
昂	-11.0659
蕤	-11.066
盼	-11.066
倅	-11.066
刳	-11.066
敺	-11.0661
揷	-11.0662
也易繫辭	-11.0662
靷	-11.0662
徯	-11.0663
鵞	-11.0664
栽	-11.0664
療	-11.0664
啍	-11.0664
艷	-11.0665
諼	-11.0665
骹	-11.0665
劓	-11.0666
顒	-11.0668
氓	-11.0669
脆	-11.067
廬江	-11.0672
奎	-11.0673
徠	-11.0674
快也	-11.0674
生而	-11.0675
之郊	-11.0675
􁃸	-11.0676
劉向九歎	-11.0676
東門	-11.068
爾雅釋訓	-11.0682
仆也	-11.0682
斂也	-11.0683
四五	-11.0683
劉向傳	-11.0686
二部	-11.0687
漢書揚雄傳	-11.069
易繫辭	-11.0694
四十三	-11.07
爾雅釋木	-11.0701
一二	-11.0702
又凡	-11.0704
伯勞	-11.0706
孝子	-11.0709
顔色	-11.071
衆聲	-11.0711
念切	-11.0714
四十八	-11.0714
西域傳	-11.0714
室也	-11.0717
四十七	-11.0717
韻内	-11.0719
叕	-11.0719
列也	-11.0719
呀	-11.0719
琨	-11.0719
母也	-11.0721
孃	-11.0721
獷	-11.0723
爼	-11.0725
止切	-11.0725
窅	-11.0726
者有	-11.0726
又虞	-11.0726
滲	-11.0726
稾	-11.0728
檮	-11.073
蚓	-11.073
玉藻	-11.0733
欷	-11.0733
鋋	-11.0734
枷	-11.0734
􁀋	-11.0736
沅	-11.0737
栲	-11.0738
陸音	-11.0742
峰	-11.0743
頭上	-11.0751
夫之	-11.0752
其言	-11.0754
又方	-11.0754
王后	-11.0756
漢書禮樂志	-11.0765
温器	-11.0771
靳切	-11.0772
說文大	-11.0775
别出	-11.0779
揩	-11.0785
䆫	-11.0788
魚名似	-11.079
指之	-11.0791
姁	-11.0791
本草云	-11.0793
忙	-11.0794
天命	-11.0794
柲	-11.0795
濼	-11.0796
琮	-11.0796
逴	-11.0796
余切	-11.0796
撃也	-11.0799
笴	-11.0799
餅也	-11.08
諛	-11.08
拇	-11.0801
橜	-11.0801
桐柏廟碑	-11.0801
颺	-11.0801
腎	-11.0801
麇	-11.0802
晁	-11.0802
噉	-11.0805
㚇	-11.0806
黻	-11.0806
人君	-11.0806
鎗	-11.0806
可爲	-11.0807
洶	-11.0808
窈窕	-11.0808
鶂	-11.0809
􁃟	-11.0809
貔	-11.0811
堯舜	-11.0814
豈不	-11.0815
饔	-11.0816
歠	-11.0817
封禪書	-11.0822
舉足	-11.0829
或作文二	-11.0833
隸省	-11.0844
一先	-11.0845
又前漢	-11.0853
貌通作	-11.0853
禮有	-11.0853
十二月	-11.0854
兗	-11.0856
襢	-11.0856
三曰	-11.0858
口中	-11.0859
儃	-11.086
失志	-11.086
墾	-11.086
涅	-11.086
倥	-11.0862
販	-11.0863
莓	-11.0864
芴	-11.0864
涵	-11.0864
黹	-11.0865
衒	-11.0865
佼	-11.0865
犖	-11.0868
訢	-11.0869
殽阬	-11.0869
澡	-11.0869
揲	-11.0869
遍	-11.0869
行人	-11.0869
穡	-11.0869
茵	-11.087
兪	-11.087
微也	-11.087
岫	-11.087
从皿	-11.0871
餼	-11.0873
茄	-11.0873
闍	-11.0873
知也	-11.0875
幄	-11.0875
退也	-11.0876
城縣	-11.0876
荇	-11.0877
馬融廣成頌	-11.0878
朙	-11.0879
虎豹	-11.0879
其徳	-11.0883
之神	-11.0892
子如	-11.0893
切詩云	-11.0894
門外	-11.0894
説文小	-11.0898
神道	-11.0902
莫候切	-11.0905
女名	-11.0908
觀其	-11.0911
臀	-11.0924
玄切	-11.0925
入水	-11.0926
娠	-11.0926
寀	-11.093
先儒	-11.0931
又姓廣韻	-11.0931
腴	-11.0932
亦謂	-11.0932
翩	-11.0932
徐醉切	-11.0932
粻	-11.0933
坰	-11.0934
纑	-11.0934
茻	-11.0934
敲	-11.0935
无咎	-11.0935
夘	-11.0935
虔	-11.0935
疐	-11.0935
豕也	-11.0936
曝	-11.0936
鵻	-11.0936
又鹽韻	-11.0937
跬	-11.0937
咳	-11.0937
甓	-11.0939
劵	-11.0939
窶	-11.094
擢	-11.0941
慙也	-11.0941
翿	-11.0943
隂氣	-11.0944
考工記曰	-11.0945
蹷	-11.0945
楨	-11.0946
从巾	-11.095
小石	-11.095
差也	-11.095
容朱切	-11.095
舍人	-11.0952
賔客	-11.0954
五支	-11.0957
之意也	-11.0958
蹋也	-11.0962
小水	-11.0962
改切	-11.0965
鴈門	-11.0966
蒼頡篇	-11.097
豆也	-11.0974
鳴也	-11.0977
西戎	-11.0977
此文	-11.0978
周書曰	-11.098
先韻	-11.098
其心	-11.0982
蒦	-11.0982
鋌	-11.0988
識也	-11.0989
高祖	-11.099
不解	-11.0991
有六	-11.0992
詷	-11.0994
多作	-11.0994
褰	-11.0995
洄	-11.0997
輕薄	-11.0997
㐱	-11.0997
蒩	-11.0998
以石	-11.0998
祅	-11.0998
儳	-11.1
墀	-11.1001
嘏	-11.1002
鑊	-11.1002
馘	-11.1003
節也	-11.1003
蒨	-11.1005
义	-11.1005
小子	-11.1005
所載	-11.1005
也助也	-11.1006
琵琶	-11.1006
阨	-11.1007
娵	-11.1007
鮓	-11.1007
又敬韻	-11.1007
矛也	-11.1008
槖	-11.1008
孟郁	-11.1008
躋	-11.1009
一尺	-11.1009
秫	-11.101
孫叔敖碑	-11.101
閾	-11.101
勾	-11.1011
芙蕖	-11.1011
陔	-11.1012
阝	-11.1012
棖	-11.1012
姐	-11.1013
又篠韻	-11.1013
臑	-11.1013
溜	-11.1014
潼	-11.1014
憺	-11.1016
騶虞	-11.1017
夙夜	-11.1017
九麌	-11.1018
車名	-11.1019
鐘鼎文	-11.102
詳字註	-11.1021
先祖	-11.1029
蟹切	-11.1029
沈約	-11.1031
鐘鼓	-11.1032
液也	-11.1035
之無	-11.1046
本紀	-11.1054
封禪	-11.1057
喪服	-11.1057
觱	-11.1059
首飾	-11.106
箋云	-11.1061
十姥	-11.1066
聦	-11.1067
夐	-11.1067
枌	-11.1068
鄭伯	-11.1068
又效韻	-11.1069
冬至	-11.107
蕝	-11.107
奓	-11.1071
岡切	-11.1071
咬	-11.1073
冄	-11.1074
眡	-11.1074
柄也	-11.1075
此書	-11.1075
廖	-11.1077
洚	-11.1077
屐	-11.1077
㐭	-11.1078
㱃	-11.1078
慊	-11.1079
嶠	-11.1079
輓	-11.108
敔	-11.1082
繞也	-11.1084
相應	-11.1088
澀	-11.109
臛	-11.1091
也亦州名	-11.1092
新附	-11.1096
明堂	-11.1097
蔓生	-11.1097
房六切	-11.1097
董仲舒傳	-11.1098
門户	-11.1098
漢書注	-11.11
也見爾雅	-11.1101
文十五	-11.1107
目無	-11.1109
易也	-11.1111
尤韻	-11.1111
訟也	-11.1115
大雨	-11.1119
白魚	-11.1123
垂也	-11.1124
地之	-11.1128
所止	-11.113
刄	-11.1134
循也	-11.1135
兩足	-11.1135
的切	-11.1136
燬	-11.1137
俗語	-11.1138
裙	-11.1139
篆文作	-11.1141
呪	-11.1141
天問	-11.1141
急就篇	-11.1142
屎	-11.1142
椀	-11.1142
迤	-11.1142
凵	-11.1143
霿	-11.1143
甚也	-11.1144
蘂	-11.1145
縑	-11.1145
枅	-11.1146
埴	-11.1146
譎	-11.1146
悄	-11.1147
評	-11.1148
螣	-11.115
虙	-11.115
龐	-11.1151
彛	-11.1152
又嘯韻	-11.1152
鯤	-11.1154
使之	-11.1156
欸	-11.1156
左思蜀都賦	-11.1157
第七	-11.116
字本作	-11.1163
十二字	-11.1165
章移切	-11.1167
栗切	-11.1169
靄	-11.117
一重音一	-11.1178
澤名	-11.1179
柿	-11.1182
也從手	-11.1183
草木之	-11.1184
文武	-11.1185
亦非	-11.1188
床	-11.119
後有	-11.119
見其	-11.1191
盬	-11.1201
險也	-11.1203
不容	-11.1203
以水	-11.1204
長尺	-11.1205
􁂄	-11.1208
趙魏	-11.1208
售	-11.1209
箾	-11.121
螻蛄	-11.1211
碓	-11.1214
鈐	-11.1214
力也	-11.1214
南有	-11.1215
嗔	-11.1216
柤	-11.1217
胝	-11.1218
諟	-11.1218
古外切	-11.1218
拗	-11.1219
屩	-11.122
軀	-11.122
死而	-11.1222
証	-11.1222
鄉名	-11.1223
燄	-11.1224
効	-11.1224
閡	-11.1225
文選章句	-11.1226
橢	-11.1227
歺	-11.1229
皆从	-11.1231
詩衛風	-11.1231
大木	-11.1232
𢎞	-11.1232
隱也	-11.1234
郭注釋	-11.1234
短衣	-11.1234
視之	-11.1237
也廣雅	-11.1237
雲霓	-11.1238
科斗	-11.124
又韻會	-11.1249
無極	-11.1254
未見	-11.126
悪	-11.1263
引之	-11.1266
得切	-11.1267
雉名	-11.1269
中切	-11.1275
左傳作	-11.1278
唐有	-11.128
大聲	-11.128
也從口	-11.1281
店	-11.1281
昭切	-11.1281
柢	-11.1282
制也	-11.1282
沴	-11.1282
角也	-11.1283
按玉篇	-11.1283
邛	-11.1284
圯	-11.1284
酣	-11.1285
戇	-11.1285
譍	-11.1285
竺	-11.1287
顥	-11.1287
輜	-11.1287
竹也	-11.1289
辦	-11.129
霖	-11.129
史晨奏銘	-11.129
豊	-11.1291
慨	-11.1291
鷇	-11.1291
反覆	-11.1292
薤	-11.1292
喁	-11.1292
缾	-11.1292
嫡	-11.1293
又侵韻	-11.1294
功臣表	-11.1295
楣	-11.1296
睆	-11.1297
瓞	-11.1298
抱朴子	-11.1298
塔	-11.1298
賈誼賦	-11.1301
見春秋傳	-11.1303
朝廷	-11.1306
麰	-11.131
無知	-11.131
大篆	-11.1313
陌切	-11.1317
其皮	-11.1319
皇皇	-11.1321
物相	-11.1321
禽經	-11.1322
取物	-11.1327
韻畧	-11.1331
力竹切	-11.1332
邳	-11.1334
于天	-11.1335
也从酉	-11.1337
小曰	-11.1339
丁計切	-11.134
懆	-11.1341
見三	-11.1342
是非	-11.1342
誤矣	-11.1349
地中	-11.1349
倖	-11.135
焮	-11.1351
又廣韻集韻韻㑹	-11.1353
枿	-11.1354
皷	-11.1354
閹	-11.1355
祋	-11.1355
烘	-11.1356
涖	-11.1359
陼	-11.1359
宄	-11.136
座	-11.136
夆	-11.1362
粼	-11.1362
从田	-11.1363
不肖	-11.1363
簍	-11.1363
趯	-11.1363
盩	-11.1364
捧	-11.1364
酺	-11.1364
䜛	-11.1365
䣛	-11.1365
木華海賦	-11.1365
譔	-11.1366
太息	-11.1366
庠	-11.1366
戴勝	-11.1367
吳都賦	-11.1367
确	-11.1368
䕫	-11.1368
檿	-11.1368
瓣	-11.1368
芳無切	-11.1368
大皃	-11.1369
也然則	-11.1377
今正	-11.138
山髙	-11.1383
物曰	-11.1385
而立	-11.1388
也从犬	-11.1393
未定	-11.1394
皃或从	-11.1405
上聲説文	-11.1406
儦	-11.1411
水深	-11.1415
而復	-11.1415
在後	-11.1416
羣三	-11.1417
短也	-11.1419
美好	-11.142
尞	-11.1422
香氣	-11.1423
蠪	-11.1424
奸	-11.1424
狚	-11.1425
文二重音	-11.1426
逾	-11.1427
甃	-11.1428
衎	-11.1429
愞	-11.143
壴	-11.1431
愿	-11.1431
咋	-11.1431
宋史	-11.1432
吃	-11.1432
潢	-11.1433
鷚	-11.1434
謫	-11.1435
鷖	-11.1435
秣	-11.1436
懵	-11.1436
私列切	-11.1438
禮樂	-11.1438
伏也	-11.1439
洪範	-11.1441
愔	-11.1443
韓詩外傳	-11.1443
柷	-11.1444
城上	-11.1447
齊民要術	-11.1447
皐	-11.1448
說文水出	-11.1448
文三重音	-11.1448
蝟	-11.1449
牛尾	-11.1451
體也	-11.1454
今增	-11.1455
之餘	-11.146
王制	-11.146
左思	-11.1461
史記封禪書	-11.1463
細也	-11.1467
按爾雅	-11.1469
流水	-11.147
禮部韻	-11.1471
鷙鳥	-11.1474
雍州	-11.1479
者是也	-11.1481
字自	-11.1486
免切	-11.1488
倉庚	-11.1493
鯁	-11.1497
槧	-11.1498
孌	-11.1499
瞳	-11.15
徇	-11.15
蟪蛄	-11.15
蕈	-11.1501
惄	-11.1501
悸	-11.1501
瓉	-11.1503
發也	-11.1503
諏	-11.1504
從邑	-11.1504
夥	-11.1506
刼	-11.1506
蠵	-11.1507
巉	-11.1507
跲	-11.1507
憮	-11.1507
逍遥	-11.1508
尃	-11.1508
柜	-11.1509
蓲	-11.151
伾	-11.151
蝝	-11.151
娛	-11.151
瞰	-11.1512
楙	-11.1513
宇宙	-11.1514
稯	-11.1515
叔孫	-11.1515
窌	-11.1515
薍	-11.1516
也從心	-11.1517
胡故切	-11.1518
樅	-11.1519
麞	-11.1519
邶	-11.1519
濟濟	-11.1519
社稷	-11.1521
耏	-11.1522
縣東	-11.1522
魏志	-11.1523
四十四有	-11.1524
東至	-11.1525
減也	-11.1534
蜉蝣	-11.1541
字彚補古文	-11.1541
四夷	-11.1542
本韻	-11.1544
今人以	-11.1548
故有	-11.1549
犬也	-11.1558
安切	-11.1563
鄼	-11.1565
串	-11.1568
三代	-11.1568
媛	-11.1568
生水中	-11.1571
悴	-11.1571
妍	-11.1572
磷	-11.1573
桓公	-11.1575
訇	-11.1579
嶔	-11.1579
欬	-11.1579
又麻韻	-11.1579
毌	-11.158
鑰	-11.1582
成文	-11.1583
擊也又	-11.1584
楗	-11.1586
太嵗在	-11.1586
篝	-11.1587
疾貌	-11.1588
筒	-11.1589
飪	-11.159
之所以	-11.1591
者即	-11.1591
姍	-11.1591
百四十	-11.1594
汧	-11.1595
在前	-11.1596
隸書	-11.1604
前漢揚雄傳	-11.1604
列反	-11.1605
照切	-11.1613
韻㑹或作	-11.1615
同義	-11.1618
犬聲	-11.1621
星也	-11.1624
味也	-11.1626
木也从木	-11.1629
葷	-11.1629
薛韻	-11.1631
弥	-11.1631
樂之	-11.1632
也從言	-11.1633
从宀	-11.1634
减	-11.1635
起貌	-11.1636
輒切	-11.1638
山碑	-11.1639
鍾鼎	-11.1639
俗字	-11.1639
从馬	-11.1642
劭	-11.1643
襠	-11.1644
愴	-11.1645
懌	-11.1646
蹠	-11.1646
莅	-11.1649
鐏	-11.1651
豫州	-11.1652
饎	-11.1652
娘	-11.1652
榼	-11.1653
穄	-11.1653
巇	-11.1654
丹陽	-11.1654
餞	-11.1654
浣	-11.1655
髣髴	-11.1655
摺	-11.1655
右扶風	-11.1655
顆	-11.1656
煬	-11.1656
鞫	-11.1656
鴿	-11.1657
詮	-11.1657
淰	-11.1659
挃	-11.1659
飱	-11.1659
城門	-11.166
同都切	-11.1661
聲相近	-11.1663
蓴	-11.1663
何晏景福殿賦	-11.1667
余支切	-11.1667
隸釋	-11.1668
渠尤切	-11.1668
影三	-11.1672
之實	-11.1679
路史	-11.1685
余六切	-11.1686
屈曲	-11.1687
俗用	-11.1694
充耳	-11.1697
金也	-11.1697
中山	-11.1698
罪也	-11.17
塗也	-11.1702
史記曰	-11.1706
漢制	-11.1709
説文水	-11.171
四寸	-11.1714
字彙同	-11.1714
碧落	-11.1715
徐邈	-11.1716
喿	-11.1717
姼	-11.1717
咼	-11.1718
恐也	-11.1718
稈	-11.172
奈	-11.172
稕	-11.1721
而去	-11.1722
詀	-11.1724
嗌	-11.1725
髳	-11.1726
芽	-11.1726
惔	-11.1727
籔	-11.1727
大呼	-11.1728
唫	-11.1728
嘻	-11.1729
椉	-11.173
摭	-11.1731
頎	-11.1733
薆	-11.1733
蕘	-11.1734
魋	-11.1734
梱	-11.1734
濬	-11.1734
霏	-11.1734
迎也	-11.1735
薨	-11.1735
張衡南都賦	-11.1735
阼	-11.1736
華嶽	-11.1737
宐	-11.1738
鉦	-11.1738
寄切	-11.1739
攢	-11.1739
疑即	-11.1742
缺也	-11.1743
溪三	-11.1744
賢者	-11.1744
鎛	-11.1748
濁也	-11.1749
前漢食貨志	-11.1751
西都賦	-11.1753
萬邦	-11.1755
戰切	-11.1757
限也	-11.1758
皆通	-11.1765
韻註	-11.1773
毀	-11.1774
水厓	-11.1775
于切	-11.1779
揔	-11.1782
死者	-11.1782
王存乂	-11.1784
朱子	-11.1785
治之	-11.1785
碾	-11.1787
其氣	-11.1788
夏曰	-11.1791
其本	-11.1793
本从	-11.1795
禮樂志	-11.1795
琚	-11.1797
黃色	-11.1797
瑜	-11.1799
曖	-11.1799
湑	-11.1799
哮	-11.18
卿大夫	-11.18
訥	-11.1801
㳟	-11.1801
懽	-11.1801
綫	-11.1802
夌	-11.1802
縕	-11.1803
鄒陽傳	-11.1803
籀文作	-11.1803
噣	-11.1803
弈	-11.1804
擯	-11.1804
咠	-11.1805
球	-11.1805
祜	-11.1805
鴽	-11.1805
曹全碑	-11.1805
鄠	-11.1806
蕞	-11.1806
泂	-11.1808
賾	-11.1808
帝時	-11.1808
龔	-11.1808
餘招切	-11.1808
洪孤切	-11.1809
白石神君碑	-11.1809
崔駰	-11.1809
帨	-11.1809
絀	-11.181
埃	-11.181
筑	-11.181
鸝	-11.181
紋	-11.1811
貴切	-11.1811
扗	-11.1814
鷃	-11.1814
靶	-11.1815
㬥	-11.1815
遑	-11.1817
怕	-11.1817
嬰兒	-11.1817
江淹	-11.1821
大笑	-11.1821
又歌韻	-11.1822
陷切	-11.1822
進退	-11.1826
僞	-11.1826
也合也	-11.1835
棄也	-11.1836
短尾	-11.1837
廣韻呼	-11.1838
縣屬	-11.1838
輔也	-11.1843
帝堯	-11.1845
不熟	-11.1846
鳥名爾雅	-11.1847
黄白	-11.1848
山海經云	-11.1849
字見	-11.1851
今人謂	-11.1851
左傳桓	-11.1851
又篇海	-11.1852
之服	-11.1855
木上	-11.1862
餧	-11.1865
化也	-11.1867
江東呼為	-11.1867
歉	-11.1868
蔪	-11.1869
褫	-11.187
漊	-11.187
恫	-11.1871
悌	-11.1872
也爾雅曰	-11.1873
殤	-11.1874
磕	-11.1875
菩	-11.1876
疚	-11.1876
飛鳥	-11.1877
次之	-11.1878
机	-11.1878
蘇軾	-11.1878
秊	-11.1881
吒	-11.1881
燐	-11.1882
縭	-11.1883
窄	-11.1883
荄	-11.1883
彬	-11.1883
木叢生	-11.1883
首也	-11.1885
又元韻	-11.1885
巻	-11.1885
穽	-11.1885
唇	-11.1888
攬	-11.189
倂	-11.1892
孫愐	-11.1893
不我	-11.1894
五章	-11.1896
禮運	-11.1898
怪切	-11.19
子碑	-11.19
鄭司農云	-11.1907
五十五	-11.1907
乖切	-11.1907
也从人从	-11.1911
声詩曰	-11.1912
賀切	-11.1914
間謂	-11.1917
李廵曰	-11.1918
獸之	-11.1918
叶切	-11.192
學士	-11.1922
尺二寸	-11.1925
也从走	-11.1932
也楚辭	-11.1933
漢王	-11.1933
引論語	-11.1933
木皮	-11.1935
从寸	-11.1937
邊也	-11.1937
聲類	-11.194
也从欠	-11.1943
高也	-11.1944
蹕	-11.1945
網也	-11.1945
嶸	-11.1946
磨也	-11.1947
箝	-11.1951
筏	-11.1951
饐	-11.1952
謌	-11.1952
啐	-11.1952
出字林	-11.1953
眺	-11.1954
駿馬	-11.1955
届	-11.1955
鷯	-11.1955
爲一	-11.1956
藷	-11.1957
捻	-11.1957
繋	-11.1958
聼	-11.1959
大魚	-11.1959
蟲名說文	-11.1959
舁	-11.1961
蓯	-11.1961
魏受禪表	-11.1962
符分切	-11.1962
東萊	-11.1962
偵	-11.1963
遹	-11.1963
沚	-11.1963
公羊傳曰	-11.1965
消切	-11.1971
部五畫	-11.1971
書大禹謨	-11.1972
公侯	-11.198
又紙	-11.1986
所化	-11.1987
元氣	-11.1989
詣切	-11.1991
俗謂之	-11.1991
桂陽	-11.1991
時人	-11.1994
一丈	-11.1998
𨽻作	-11.2002
跡也	-11.2003
曉三	-11.2008
索隱曰	-11.2009
戲也	-11.2011
父子	-11.2011
楚子	-11.2015
一文一字	-11.2016
南蠻	-11.2016
十虞	-11.2017
䃺	-11.2018
邐	-11.202
瘳	-11.2021
奬	-11.2023
䜴	-11.2024
瓮	-11.2024
佋	-11.2025
鞘	-11.2025
瀰	-11.2026
縐	-11.2026
靴	-11.2027
憐蕭切	-11.2028
赧	-11.2029
珽	-11.203
余章切	-11.2032
樊毅	-11.2032
龢	-11.2033
夷益切	-11.2035
捫	-11.2036
一目	-11.2037
畋	-11.2037
繢	-11.2037
李善	-11.2038
蠓	-11.2038
屹	-11.2039
自關而東	-11.2039
攪	-11.2039
蓁	-11.2039
飼	-11.2039
詎	-11.204
浥	-11.204
傭	-11.2041
用為	-11.2041
宿名	-11.2041
牕	-11.2042
深目	-11.2043
踝	-11.2044
鼙	-11.2046
从止	-11.2046
校尉	-11.2047
何反	-11.2048
之首	-11.2048
又集	-11.2049
其間	-11.2049
不勝	-11.205
从此	-11.2056
相合	-11.2063
皆非	-11.2067
張也	-11.2069
从頁	-11.2072
髙貌	-11.208
轉音	-11.2082
其道	-11.2084
又姓風俗通	-11.2084
十日	-11.2085
蛸	-11.2086
兖州	-11.2087
字同用	-11.2087
釋名云	-11.2091
媧	-11.2097
不然	-11.2097
狀似	-11.2097
𨽻	-11.2098
夋	-11.2099
怱	-11.2101
或作譌從	-11.2103
憒	-11.2103
珉	-11.2104
肚	-11.2105
京切	-11.2105
郊祀志	-11.2106
嘈	-11.2106
酉切	-11.2107
臞	-11.2107
巜	-11.2107
叛	-11.2108
冖	-11.2108
邏	-11.211
昉	-11.2111
漢中	-11.2112
姊妹	-11.2113
娟	-11.2113
鳥名説文	-11.2115
苣	-11.2115
膍	-11.2115
迮	-11.2117
從事	-11.2117
檉	-11.2118
白馬	-11.2118
暈	-11.2119
篚	-11.2121
芑	-11.2123
珧	-11.2125
數十	-11.2126
又薺韻	-11.2127
而弗	-11.2134
考之	-11.2134
詩我	-11.2137
委曲	-11.2139
千斤	-11.2141
又見下又	-11.2148
凡三字	-11.2152
說者	-11.2168
七尺	-11.2169
烜	-11.2173
上文	-11.2175
其地	-11.2175
四角	-11.2175
懊	-11.2178
敫	-11.2178
胯	-11.2178
綾	-11.2178
諠	-11.2179
耴	-11.2179
耋	-11.218
趺	-11.218
又麌韻	-11.218
噤	-11.2182
嗃	-11.2182
迻	-11.2183
􁉭	-11.2184
窱	-11.2184
青徐	-11.2185
幪	-11.2185
磋	-11.2185
一章	-11.2186
蚯蚓	-11.2186
鎩	-11.2188
者小雅	-11.2188
迷切	-11.2188
頴	-11.2188
猶有	-11.2189
泡	-11.2189
者所以	-11.2189
咺	-11.2189
遡	-11.219
蔆	-11.2192
鍰	-11.2194
亦然	-11.2194
驚也	-11.2195
喫	-11.2196
五質	-11.2196
楅	-11.2198
麝	-11.2199
羭	-11.22
遂以	-11.2201
籟	-11.2203
例反	-11.2203
遮也	-11.2205
也書曰	-11.2207
康成	-11.2209
通志	-11.2215
事者	-11.2222
縱横	-11.2223
也从食	-11.2225
也从疒	-11.2226
从䖵	-11.2229
左傳云	-11.223
从竹	-11.223
山有獸	-11.2231
元切	-11.2231
室之	-11.2233
中空	-11.2235
於地	-11.2236
之功	-11.2237
三切	-11.2238
不善	-11.2239
重出	-11.2239
延年	-11.224
截也	-11.224
囘切	-11.2242
或省文二	-11.2243
䑕名	-11.2243
大射	-11.2244
病也又	-11.2244
箇切	-11.2246
牛也	-11.2252
大也又	-11.2253
衣領	-11.2253
鳥鳴	-11.2254
從容	-11.2255
掫	-11.2256
復省	-11.2257
緄	-11.2257
剜	-11.2257
於天	-11.2261
邀	-11.2261
漭	-11.2261
誌	-11.2261
嘐	-11.2262
緬	-11.2262
眙	-11.2262
魅	-11.2263
迢	-11.2264
光和	-11.2265
笥	-11.2265
刑法志	-11.2265
帽	-11.2266
茢	-11.2266
淄	-11.2266
之轉	-11.2266
是故	-11.2268
天門	-11.2268
悤	-11.2268
聨	-11.2268
彎	-11.2268
泚	-11.2269
瀹	-11.227
爐	-11.227
䘏	-11.227
茱萸	-11.2271
錧	-11.2271
貨也	-11.2271
秦漢	-11.2271
萁	-11.2272
梗切	-11.2275
薶	-11.2276
腆	-11.2276
小貌	-11.2276
也从巾	-11.2277
俚	-11.2277
从卩	-11.2278
二三	-11.228
荃	-11.2281
柳宗元	-11.2282
麛	-11.2283
倣此	-11.2285
三嵗	-11.2285
饙	-11.2286
犉	-11.2287
六韜	-11.229
賜也	-11.2291
谷名	-11.2292
見方言	-11.2296
徐鉉	-11.2297
葉切	-11.2298
都尉	-11.2299
又董韻	-11.2303
廣韻集韻韻會正韻	-11.2307
欲也	-11.2315
澤中	-11.2315
爾切	-11.2317
郡有	-11.2322
以財	-11.2323
疒	-11.2325
嬥	-11.2328
東平	-11.2329
而不知	-11.2333
唐置	-11.2334
長毛	-11.2334
膞	-11.2338
嫪	-11.234
襇	-11.2341
曬	-11.2342
畇	-11.2343
紒	-11.2343
貰	-11.2343
霝	-11.2344
脃	-11.2346
綢繆	-11.2346
葴	-11.2346
宋韻	-11.2348
不若	-11.2349
鍑	-11.2349
其意	-11.235
軷	-11.2351
恆	-11.2354
峭	-11.2354
准	-11.2354
部首	-11.2355
自得	-11.2359
瀑	-11.2359
琦	-11.2359
鄉名在	-11.236
無常	-11.2366
肅肅	-11.2368
麋鹿	-11.2372
敘傳	-11.2383
籒文	-11.2386
潔也	-11.2387
縣西	-11.239
上天	-11.239
上平	-11.2393
靈臺碑	-11.2394
也从雨	-11.2394
犍為	-11.2399
七八	-11.2405
説文引	-11.2408
字亦作	-11.2409
丈夫	-11.2413
也廣韻又	-11.2414
可見	-11.2415
韏	-11.2416
北地	-11.2416
畐	-11.2418
喘	-11.2418
島	-11.2418
繼也	-11.2419
之類从丨	-11.242
忮	-11.2421
漯	-11.2421
絓	-11.2421
董仲舒	-11.2421
剟	-11.2422
罦	-11.2422
矇	-11.2423
丵	-11.2423
剋	-11.2423
㳄	-11.2425
宙	-11.2426
補遺史記	-11.2426
藝文志	-11.2426
睨	-11.2427
闑	-11.2428
慼	-11.2429
古孝經	-11.243
裸	-11.243
饁	-11.2431
捕鳥	-11.2432
姤	-11.2433
稂	-11.2435
四紙	-11.2435
鵜	-11.2435
赫赫	-11.2436
駐	-11.2436
樝	-11.2436
櫝	-11.2436
坴	-11.2436
監韻	-11.2438
延知切	-11.2439
呷	-11.2441
鄰知切	-11.2441
佰	-11.2442
石貌	-11.2443
之别	-11.2444
三軍	-11.2448
無别	-11.245
音移	-11.2453
禮記檀弓	-11.2455
聞之	-11.2457
故稱	-11.2458
逃也	-11.2458
公卿	-11.2461
邦之	-11.2464
草盛	-11.2464
魯語	-11.2464
高貌	-11.2469
皆可	-11.2473
逸周書	-11.2474
侍中	-11.2477
不生	-11.2477
明日	-11.2478
平去為韻	-11.2479
慣	-11.248
救反	-11.2483
蠰	-11.2487
塩	-11.2488
蚕	-11.2489
謼	-11.2489
奞	-11.2492
古本切	-11.2493
誤作	-11.2495
蝤	-11.2496
彄	-11.2497
史記貨殖傳	-11.2498
尔	-11.2498
萆	-11.2498
鴰	-11.2499
蠹	-11.2501
琬	-11.2502
尢	-11.2502
雜毛	-11.2502
餲	-11.2502
瑁	-11.2503
爓	-11.2504
容反	-11.2504
聒	-11.2505
珌	-11.2505
漪	-11.2505
恙	-11.2507
見上注	-11.2508
自有	-11.2508
甿	-11.251
倚切	-11.251
旟	-11.251
汔	-11.2511
搰	-11.2511
晣	-11.2511
晷	-11.2511
通雅	-11.2512
瞎切	-11.2514
呼爲	-11.2517
枵	-11.2517
圗	-11.2518
迺	-11.252
歎也	-11.2521
琴瑟	-11.2522
淢	-11.2525
義闕	-11.2527
藏之	-11.2536
不平也	-11.254
引此	-11.2541
度量	-11.2541
土地	-11.2546
講切	-11.2547
因其	-11.2549
怨也	-11.2549
守宫	-11.2552
纂文	-11.2556
也从革	-11.2557
所執	-11.256
直音	-11.2563
萬年	-11.2564
黄鳥	-11.2571
越也	-11.2574
卝	-11.2575
本義	-11.2576
白居易	-11.2576
濺	-11.2576
僥	-11.2577
六七	-11.258
嘽	-11.258
暘	-11.2581
爚	-11.2583
熯	-11.2583
娜	-11.2584
犬名	-11.2584
遴	-11.2584
崛	-11.2585
十六字	-11.2585
小者謂之	-11.2585
榔	-11.2586
阤	-11.2586
鑚	-11.2586
濘	-11.2587
催	-11.2587
烖	-11.2588
禰	-11.2588
杶	-11.2588
甹	-11.2588
遶	-11.2589
鶖	-11.2589
閽	-11.2591
觖	-11.2591
托	-11.2591
廣韻集韻正韻	-11.2592
周有	-11.2592
箘	-11.2592
澌	-11.2592
軥	-11.2592
柝	-11.2593
埤倉	-11.2593
楚相	-11.2593
樠	-11.2595
無以	-11.2595
羝	-11.2595
河水	-11.2596
躧	-11.2598
交趾	-11.2599
蠟	-11.2599
又姓漢有	-11.2605
廣輿記	-11.2605
豝	-11.2606
非借	-11.262
蟲名爾雅	-11.2625
石室	-11.263
縣名前漢地理志	-11.2632
不丨	-11.2636
四十一	-11.2638
丨也二	-11.2638
其羽	-11.2646
縁也	-11.2654
夫婦	-11.2655
𥿄	-11.2655
爲氏	-11.2657
緹	-11.2659
倀	-11.2662
武夫	-11.2662
泭	-11.2666
見則	-11.2666
娩	-11.2666
廁	-11.2667
瘣	-11.2667
凷	-11.2668
醳	-11.2668
視也又	-11.2668
薔	-11.2668
搤	-11.2669
力救切	-11.2669
湧	-11.2669
蛩	-11.2669
鱯	-11.2669
猲	-11.267
堂練切	-11.267
蹀	-11.2672
輶	-11.2672
漢人	-11.2673
圂	-11.2673
簜	-11.2674
祝睦	-11.2674
廛	-11.2674
言采其	-11.2677
湮	-11.2677
潄	-11.2677
璆	-11.2677
萬物之	-11.2677
詩維	-11.2678
細腰	-11.2679
鮆	-11.268
翺翔	-11.268
金切	-11.268
灸	-11.2683
其民	-11.2684
楚辭九歌	-11.2685
楚辭九章	-11.2688
其先	-11.2689
豵	-11.269
史記五帝紀	-11.2691
金玉	-11.2693
蟲食	-11.2694
又姓與	-11.2696
按碑	-11.2698
別名	-11.2702
五十一	-11.2707
三鍾	-11.2714
辰名	-11.2717
也引周書	-11.2717
餌也	-11.2718
陳氏	-11.272
滎陽	-11.2725
日三	-11.2727
籒	-11.2734
硠	-11.2735
之北	-11.2737
嘑	-11.2738
趍	-11.2738
車轅	-11.2739
殂	-11.2742
􁚳	-11.2742
儆	-11.2744
鞋	-11.2744
渺	-11.2745
淈	-11.2745
蝘蜓	-11.2745
篲	-11.2746
堨	-11.2747
巿	-11.2749
故言	-11.275
哇	-11.275
泆	-11.275
桁	-11.2751
附袁切	-11.2752
从厂	-11.2753
窠	-11.2754
翫	-11.2755
嶝	-11.2756
擗	-11.2756
鄆	-11.2756
懶	-11.2756
鸕	-11.2756
榷	-11.2758
兇	-11.2758
􁃫	-11.2758
塾	-11.2759
認	-11.2759
酆	-11.2759
轉為	-11.276
畬	-11.276
䪥	-11.276
渢	-11.2761
可用	-11.2761
鴳	-11.2764
之屬一文一字	-11.2765
海岱	-11.2766
鵙	-11.2766
愚袁切	-11.2766
也周官	-11.2768
魏文帝	-11.2768
虹霓	-11.2771
啑	-11.2774
緒也	-11.2775
或謂	-11.2778
或从隹	-11.278
从辵	-11.2792
白首	-11.2793
今本	-11.2794
陰陽	-11.2801
方六切	-11.2801
子夏	-11.2805
尓	-11.2807
孔安國	-11.2809
古與	-11.281
詩魯頌	-11.2816
流離	-11.2816
舊注	-11.2816
凡三	-11.2817
又通	-11.2817
蜉	-11.2817
群	-11.2823
九二	-11.2825
勤也	-11.2826
録有	-11.2826
翛	-11.2826
兩音	-11.2827
䠶	-11.2828
愠	-11.2828
垤	-11.2829
淩	-11.2829
壞也	-11.2829
耳目	-11.283
疌	-11.2832
蘅	-11.2832
袵	-11.2833
訴	-11.2833
顱	-11.2834
牽引	-11.2834
椁	-11.2834
鬌	-11.2835
鴠	-11.2836
員切	-11.2836
櫓	-11.2837
躐	-11.2837
五十四	-11.2837
聆	-11.2837
錍	-11.2838
衾	-11.2838
權俱切	-11.2838
颿	-11.2838
腕	-11.2839
無窮	-11.284
炕	-11.2841
蜋	-11.2841
遄	-11.2841
藋	-11.2842
兑	-11.2842
瓿	-11.2843
孔耽	-11.2843
莫報切	-11.2843
豖	-11.2844
媠	-11.2845
文二重音四	-11.2846
㦸切	-11.2847
故書	-11.2847
攅	-11.2848
冃	-11.285
君子之	-11.285
果反	-11.2851
紹興	-11.2854
亦為	-11.2857
羊益切	-11.2858
文十六	-11.2863
其角	-11.2866
蜥蜴	-11.287
自稱	-11.2871
又集韻一曰	-11.2872
籕作	-11.2872
城郭	-11.2873
誤以	-11.2873
擊鼓	-11.2874
鍇	-11.2878
下音	-11.2881
見平聲	-11.2883
孫炎	-11.2886
瓶也	-11.2892
弓衣	-11.2895
也從人	-11.2897
也注詩曰	-11.2899
釋典	-11.2899
也揚子	-11.2903
山名又	-11.2903
收入	-11.2904
娗	-11.2908
文十四	-11.2911
蕭何	-11.2911
炰	-11.2911
嚻	-11.2911
咷	-11.2912
鄢	-11.2913
儐	-11.2914
唏	-11.2914
蚳	-11.2914
姣	-11.2915
蕉	-11.2915
文采	-11.2915
鍫	-11.2915
胾	-11.2916
欇	-11.2916
艶	-11.2917
佯	-11.2917
仿	-11.2917
倝	-11.2917
子胥	-11.2918
寗	-11.2918
顫	-11.2918
其足	-11.2918
晉侯	-11.2918
咅	-11.2918
唶	-11.2919
泓	-11.292
黤	-11.292
袿	-11.292
旆	-11.2921
長大	-11.2922
娃	-11.2922
廂	-11.2922
刓	-11.2922
蒟	-11.2924
琳	-11.2925
流沙	-11.2925
澒	-11.2925
硏	-11.2925
从水从	-11.2926
洼	-11.2926
囧	-11.2928
鮫	-11.293
穉	-11.2931
莫卜切	-11.2932
漻	-11.2933
牝牡	-11.2933
瀨	-11.2933
已上	-11.2933
霾	-11.2934
燮	-11.2934
魏陳思王	-11.2934
柙	-11.2934
今按	-11.2937
章句	-11.2937
以土	-11.2938
著書	-11.2939
悶也	-11.294
心也	-11.2942
太𤣥	-11.2942
灋	-11.2945
也又本韻	-11.2946
陸璣	-11.2948
他刀切	-11.2949
出自	-11.2953
九河	-11.2957
之吉	-11.2958
為一韻	-11.2965
也周禮天官	-11.2969
盟于	-11.2969
壊也	-11.2971
不祥	-11.2973
歹	-11.298
磈	-11.2986
又廣雅	-11.2991
叜	-11.2992
其根	-11.2993
耻	-11.2993
匿也	-11.2994
穟	-11.2995
賑	-11.2996
堋	-11.2997
烓	-11.2997
旖旎	-11.2997
埏	-11.2999
正直	-11.2999
上聲義同	-11.3001
囬	-11.3001
殁	-11.3002
砂	-11.3003
訕	-11.3004
淅	-11.3004
是用	-11.3004
邲	-11.3005
饉	-11.3006
姞	-11.3006
睿	-11.3008
終始	-11.3008
羊角	-11.3009
一韻	-11.3009
痺	-11.301
細布	-11.301
鏑	-11.3011
跣	-11.3011
始於	-11.3011
郞	-11.3011
茜	-11.3012
鍥	-11.3012
湎	-11.3012
形聲	-11.3013
雰	-11.3013
觀之	-11.3013
槱	-11.3013
悽	-11.3013
侯旰切	-11.3013
棐	-11.3016
莫佩切	-11.3017
爆	-11.3017
餘封切	-11.3019
輭	-11.3019
入河	-11.302
殪	-11.3021
班固東都賦	-11.3022
隷省	-11.3025
呼光切	-11.3026
望之	-11.3032
宋書	-11.3032
野馬	-11.3033
關西	-11.3034
也太玄	-11.3034
吳王	-11.3035
殺人	-11.3035
疑三	-11.304
廣雅曰	-11.3049
葢切	-11.3049
翳也	-11.3051
及其	-11.3052
相傳	-11.3058
睊	-11.306
改正	-11.3062
戒也	-11.3063
五百里	-11.3072
見一	-11.3072
冫	-11.3072
絛	-11.3075
牽牛	-11.3078
坷	-11.3081
怫	-11.3081
汛	-11.3082
有毒	-11.3082
瀁	-11.3083
笑皃	-11.3083
鼬	-11.3084
爾雅釋魚	-11.3084
山石	-11.3085
眊	-11.3085
泱	-11.3086
忻	-11.3087
侣	-11.3087
㒳	-11.3087
沄	-11.3087
撩	-11.3087
憃	-11.3087
瑗	-11.3087
鞁	-11.3088
菣	-11.3088
禜	-11.3088
綢	-11.3089
鳻	-11.309
骼	-11.3091
薁	-11.3091
一寸	-11.3092
髯	-11.3092
倞	-11.3092
騖	-11.3093
嚌	-11.3093
大計切	-11.3096
啗	-11.3096
謝靈運	-11.3097
羔裘	-11.3097
錮	-11.3097
腔	-11.3097
貺	-11.3098
雲臺	-11.3098
狖	-11.3101
居月切	-11.3102
窖	-11.3103
概	-11.3104
烏侯切	-11.3106
太歲	-11.3106
晝夜	-11.3109
漢書五行志	-11.311
墓銘	-11.311
居候切	-11.3111
軍中	-11.3113
據此	-11.3113
痛聲	-11.3114
又釋名	-11.3119
手持	-11.312
魯有	-11.3124
音煩	-11.3124
多少	-11.3126
細者	-11.3127
並見	-11.3131
王室	-11.3133
不與	-11.3135
字畫	-11.3135
第六	-11.3139
庚韻	-11.314
從禾	-11.3141
遙切	-11.3146
之閒謂之	-11.3149
虎文	-11.3154
舊叶	-11.3155
垂皃	-11.3159
瞥	-11.316
蛘	-11.316
加反	-11.3161
晏切	-11.3161
吳人	-11.3162
饟	-11.3163
悢	-11.3164
霣	-11.3167
蒔	-11.3167
煨	-11.3168
蛆	-11.3168
芭	-11.3169
今俗呼	-11.3172
僣	-11.3172
周禮冬官	-11.3172
瀼	-11.3173
慳	-11.3174
謏	-11.3174
烽	-11.3174
帙	-11.3175
關中	-11.3175
諓	-11.3176
庋	-11.3176
弋灼切	-11.3176
矰	-11.3178
清河	-11.3178
貈	-11.3179
鬆	-11.3179
橡	-11.3181
仙人	-11.3182
藇	-11.3182
愕	-11.3182
讚	-11.3183
戡	-11.3184
腯	-11.3186
忱	-11.3186
嫂	-11.3189
靸	-11.319
女蘿	-11.319
盇	-11.3198
歐陽修詩	-11.3203
詩序	-11.3204
合於	-11.3206
林木	-11.3207
左傳有	-11.3214
山陽	-11.3214
周切	-11.3217
御史	-11.3219
也从广	-11.3219
百九	-11.3227
以示	-11.3228
叶上	-11.323
張揖	-11.3233
郊特牲	-11.3234
司命	-11.3236
南人	-11.3238
又語韻	-11.3238
協韻	-11.3238
諸家	-11.3239
甚多	-11.3239
武陵	-11.3246
顉	-11.3246
毖	-11.325
勘韻	-11.3251
曏	-11.3252
間有	-11.3253
懋	-11.3254
是也又	-11.3254
崐崘	-11.3254
苾	-11.3255
鏟	-11.3258
厝	-11.3258
左氏	-11.3258
婪	-11.3258
剗	-11.3259
毇	-11.3259
懟	-11.326
山有鳥	-11.326
襞	-11.3261
褱	-11.3261
黃帝	-11.3261
杴	-11.3262
恍	-11.3262
忳	-11.3263
槽	-11.3264
嘶	-11.3265
風俗	-11.3265
鯈	-11.3268
跼	-11.3268
寰	-11.3268
鳱	-11.3268
也唐書	-11.3269
讋	-11.327
張衡思玄賦	-11.3272
趙充國傳	-11.3272
菉	-11.3273
説文長箋	-11.3274
莫狄切	-11.3275
為主	-11.3275
鰋	-11.3276
􁂁	-11.3276
擥	-11.3276
畮	-11.3277
不流	-11.3279
蔀	-11.3279
字原	-11.3283
莊周曰	-11.3285
逺近	-11.3287
也从石	-11.3291
藺	-11.3291
木名似	-11.3294
堯母	-11.3298
風貌	-11.3302
獨行	-11.3304
皆云	-11.3311
也讀若	-11.3315
朱傳	-11.3316
魚虞	-11.3317
此類	-11.3317
今本作	-11.3319
服䖍曰	-11.3322
孔氏	-11.3326
監本	-11.3326
天水	-11.3331
魏書	-11.3331
春秋時	-11.3332
秅	-11.3338
兠	-11.3338
慆	-11.3338
蜓	-11.3339
反見詩	-11.3339
論語曰	-11.334
北斗	-11.334
九九	-11.3341
一嵗	-11.3341
褶	-11.3342
峩	-11.3342
㳙	-11.3343
亦姓又	-11.3344
後魏書	-11.3344
攙	-11.3344
葽	-11.3346
澠	-11.3346
垝	-11.3346
褥	-11.3348
逹切	-11.3349
膢	-11.3349
踽	-11.3349
居良切	-11.3349
僑	-11.335
鬷	-11.3351
縗	-11.3351
憾	-11.3351
覬	-11.3351
緊	-11.3351
十七真	-11.3352
筦	-11.3352
彴	-11.3353
惚	-11.3354
䳺	-11.3354
匃	-11.3356
溶	-11.3356
寃	-11.3356
樕	-11.3356
茆	-11.3357
皴	-11.3358
尹宙碑	-11.3358
轓	-11.3358
於容切	-11.3359
李軌讀	-11.336
摛	-11.336
松柏	-11.336
㶢	-11.3364
佌	-11.3364
十四泰	-11.3364
之變	-11.3367
螳蜋	-11.3367
母猴	-11.3367
百家	-11.3369
鏞	-11.3369
岠	-11.3372
又唐韻集韻	-11.3372
十一畫	-11.3373
都昆切	-11.3376
徃來	-11.3384
始皇	-11.3388
明矣	-11.3389
從日	-11.3391
濟南	-11.3399
審二	-11.34
義竝同	-11.3403
駭切	-11.3406
四曰	-11.3406
帝王	-11.3407
十餘	-11.3407
断	-11.341
伸也	-11.3412
蒼頡	-11.3422
蛑	-11.3427
僾	-11.3427
蘺	-11.343
濟隂	-11.343
蜒	-11.343
入也	-11.343
杅	-11.343
宋有	-11.3431
譟	-11.3431
韽	-11.3433
怲	-11.3433
椶	-11.3434
鍇按	-11.3434
芘	-11.3434
幃	-11.3434
費鳳	-11.3434
簨	-11.3435
劔	-11.3436
滫	-11.3436
詶	-11.3437
刁	-11.3438
魏臣	-11.3438
廪	-11.3438
現	-11.3438
蹩	-11.3439
周憬功勲銘	-11.3439
醻	-11.3439
痿	-11.3439
憸	-11.3441
郃	-11.3441
餈	-11.3442
姱	-11.3442
鵬	-11.3442
桎	-11.3443
闃	-11.3443
陴	-11.3444
鱒	-11.3445
郷名	-11.3445
豶	-11.3445
鬴	-11.3446
噩	-11.3446
珮	-11.3446
獸足	-11.3447
說文解字	-11.3447
殫	-11.3448
篹	-11.3448
敇	-11.345
符袁切	-11.345
昃	-11.3451
目視	-11.3453
鄭箋	-11.3455
長三尺	-11.3455
蜮	-11.3456
復生	-11.3459
从戈	-11.346
不實	-11.346
夏小正	-11.3462
翼翼	-11.3464
注曰	-11.3467
九麻	-11.3469
遇韻	-11.3477
淳于	-11.3482
也毛詩	-11.3495
又賄韻	-11.3496
之言也	-11.3502
諸碑	-11.3506
后紀	-11.3506
六藝	-11.3507
此章以	-11.3508
倣	-11.351
漱	-11.3516
縉	-11.3516
美人	-11.3516
湝	-11.3516
撣	-11.3517
卅四	-11.3518
船名	-11.3521
膩	-11.3521
也禮月令	-11.3522
脽	-11.3522
借義	-11.3523
蕰	-11.3524
鞄	-11.3524
罃	-11.3525
雘	-11.3526
驒	-11.3526
悾	-11.3528
牴	-11.3529
撇	-11.353
芔	-11.353
陟利切	-11.3531
耤	-11.3532
砰	-11.3532
泳	-11.3533
集韻邱	-11.3533
三國志	-11.3533
小鳥	-11.3534
朾	-11.3534
蟁	-11.3535
讘	-11.3536
埆	-11.3537
説文水出	-11.3538
蓀	-11.3539
徐鍇	-11.354
塤	-11.354
荀卿	-11.354
簠	-11.3541
重音四	-11.3542
荐	-11.3542
濶	-11.3542
書益稷	-11.3543
喪大記	-11.3546
又覃韻	-11.3547
罽也	-11.355
鳸	-11.3551
昆吾	-11.3553
心四	-11.3554
也從女	-11.3559
漢地理志	-11.3563
凡言	-11.3564
鄭𤣥	-11.3564
類篇同	-11.3565
梁州	-11.3568
陽氷	-11.3569
因以名	-11.3571
孕切	-11.3571
之妻	-11.3576
何不	-11.3576
外反	-11.3577
衮切	-11.358
十二庚	-11.3582
字誤	-11.3583
相擊	-11.3585
胡昆切	-11.3585
王孫	-11.3585
則霓	-11.3586
又暮韻	-11.3591
注見上	-11.3597
鳥羽	-11.3599
從犬	-11.3603
慺	-11.3605
秦晉之間	-11.3605
醬也	-11.3607
茁	-11.3608
鉼	-11.361
以時	-11.3611
懺	-11.3611
魏郡	-11.3612
絙	-11.3612
椐	-11.3613
蔽膝	-11.3613
嵁	-11.3614
秸	-11.3614
霈	-11.3615
湩	-11.3615
暄	-11.3615
綪	-11.3616
薙	-11.3616
劈	-11.3616
媮	-11.3617
蠕	-11.3617
鏝	-11.3617
逖	-11.3617
据	-11.3618
噲	-11.3618
秔	-11.3619
泝	-11.3619
矛㦸	-11.362
􁄥	-11.3621
舫	-11.3621
簁	-11.3622
炫	-11.3623
中正	-11.3623
騧	-11.3624
讕	-11.3625
歊	-11.3625
甘棠	-11.3625
至今	-11.3626
抛	-11.3626
醤	-11.3626
暵	-11.3626
阡	-11.3627
部八畫	-11.3628
巒	-11.3629
鼂錯傳	-11.3631
後五切	-11.3632
大抵	-11.3633
曶	-11.3634
其狀如	-11.3634
蝸牛	-11.3635
佩刀	-11.3636
灉	-11.3637
癡也	-11.3638
徒對切	-11.364
説見	-11.3646
也文選	-11.3647
干戈	-11.365
韻略	-11.365
聲春秋傳曰	-11.3652
氣出	-11.3655
為人	-11.3657
白金	-11.3659
緇衣	-11.366
精四	-11.3661
山海經曰	-11.3661
車轂	-11.3663
象其形	-11.3665
陸璣云	-11.3665
天文	-11.3667
不和	-11.3668
又増韻	-11.3672
又刪韻	-11.3677
必先	-11.3677
孔廟	-11.3683
所宜	-11.3683
火貌	-11.3684
孟康	-11.3687
三十二晧	-11.3696
漑	-11.3701
漲	-11.3702
毚	-11.3702
擊之	-11.3702
太常	-11.3703
瘥	-11.3703
鱄	-11.3704
檾	-11.3704
狊	-11.3705
喟	-11.3706
驁	-11.3706
苜	-11.3707
紃	-11.3707
蹟	-11.3708
浄	-11.3708
綌	-11.3708
歜	-11.3709
不滿	-11.3709
東京賦	-11.371
琅玕	-11.371
改爲	-11.3712
舝	-11.3712
豋	-11.3712
趼	-11.3713
佽	-11.3713
瑳	-11.3713
睹	-11.3714
雲氣	-11.3714
籋	-11.3714
梀	-11.3714
江河	-11.3714
史晨後碑	-11.3715
又獮韻	-11.3715
噰	-11.3715
觕	-11.3715
鷁	-11.3716
陿	-11.3717
孫子	-11.3718
檝	-11.3718
七歌	-11.3718
懾	-11.3718
闟	-11.3719
閶闔	-11.3719
揀	-11.3721
山峻	-11.3723
卷三	-11.3725
築牆	-11.3728
羊諸切	-11.3728
揚子法言	-11.3728
後人加	-11.3735
舎人曰	-11.3737
六十四	-11.3746
隸變如上亦作	-11.3747
十四清	-11.3752
穆穆	-11.3754
取此	-11.3754
美目	-11.3755
也郭璞曰	-11.3756
夏至	-11.3758
在旁	-11.3763
因氏焉	-11.3765
胡公切	-11.3781
曁	-11.3783
从豕	-11.3783
戰國	-11.3783
緅	-11.3783
内外	-11.3784
背上	-11.3785
猾	-11.3788
刀反	-11.3788
剄	-11.3789
從示	-11.3789
張華	-11.3789
齵	-11.3791
第九	-11.3791
子結切	-11.3791
其功	-11.3793
忯	-11.3794
髲	-11.3794
蘠	-11.3795
古候切	-11.3795
鐻	-11.3796
懘	-11.3797
山海	-11.3797
癭	-11.3798
僤	-11.3798
飤	-11.3798
忖	-11.3799
縝	-11.3799
隳	-11.38
怙	-11.38
薳	-11.3801
二十五徳	-11.3801
觺	-11.3801
齕	-11.3802
亍	-11.3802
迋	-11.3802
寝	-11.3802
靬	-11.3802
水所出	-11.3803
盌	-11.3803
鴛	-11.3803
貤	-11.3803
魏孔羨碑	-11.3804
號曰	-11.3804
淤	-11.3804
澧	-11.3804
異物志	-11.3805
龎	-11.3805
揫	-11.3805
凥	-11.3806
薅	-11.3806
深貌	-11.3807
駹	-11.3807
角清音説文	-11.3807
馵	-11.3808
廐	-11.3808
閫	-11.3809
治玉	-11.3809
投壺	-11.381
周穆王	-11.381
豈切	-11.3811
聨句	-11.3812
佩觿集	-11.3812
福禄	-11.3813
蕪菁	-11.3813
乗馬	-11.3813
未聞	-11.3813
揚雄羽獵賦	-11.3814
劉寛碑	-11.3815
拆	-11.3817
又諡法	-11.3818
漁陽	-11.3818
舉手	-11.3818
雜色	-11.3819
翻上	-11.3819
荏切	-11.3822
莫紅切	-11.3827
木枝	-11.3827
艸名説文	-11.3828
戰于	-11.3829
燥也	-11.3829
飯器	-11.3833
鄭司農	-11.3835
徹三	-11.3837
袁良碑	-11.3843
獸如	-11.3843
四十四	-11.3845
木實	-11.3847
蘇林曰	-11.385
去聲説文	-11.3851
未可	-11.3852
也又姓又	-11.3856
从木从	-11.3859
恐懼	-11.3865
皆是	-11.3866
穿二	-11.3867
樂章	-11.387
酹	-11.3874
銑韻	-11.3875
禮云	-11.3877
錠	-11.3879
艇	-11.3881
十有二	-11.3881
巋	-11.3883
綷	-11.3883
蝹	-11.3884
以祀	-11.3887
擐	-11.3888
煴	-11.3888
罿	-11.3889
嫋	-11.389
憍	-11.3892
瘤	-11.3893
涪	-11.3894
菶	-11.3894
澳	-11.3895
鬋	-11.3895
當從	-11.3895
右銘	-11.3895
酒食	-11.3895
鍭	-11.3895
葺	-11.3896
杇	-11.3896
翩翩	-11.3896
白茅	-11.3897
騅	-11.3897
杌	-11.3897
縣北	-11.3897
阸	-11.3897
橑	-11.3898
阱	-11.39
覯	-11.3901
胸	-11.3902
紿	-11.3902
鍪	-11.3902
北末切	-11.3902
囉	-11.3902
臝	-11.3903
青驪	-11.3903
直言	-11.3904
疈	-11.3905
又廣韻集韻韻㑹正韻	-11.3905
觭	-11.3905
崔豹古今注	-11.3906
兩收	-11.3906
轉注古音	-11.3907
縣西北	-11.3907
詩衞風	-11.3907
臡	-11.3908
部七畫	-11.3909
象傳	-11.391
詳鳥部	-11.3911
姓名	-11.3911
北史	-11.3917
五忽切	-11.3918
徐行	-11.3925
省声	-11.3926
杙也	-11.3927
恃也	-11.3934
瑞玉	-11.3935
蜀郡	-11.3936
字通押	-11.3937
雙聲	-11.3939
王粲	-11.3942
又阮韻	-11.3943
平地	-11.3944
太宗	-11.3947
又爻韻	-11.3949
十三祭	-11.3951
也从牛	-11.3951
深廣	-11.3952
奚韻	-11.3958
又送韻	-11.3958
焉註	-11.3961
舞者	-11.3965
悦也	-11.3968
木根	-11.3968
皆用	-11.3968
听	-11.3971
蠏	-11.3972
東方之	-11.3973
嫇	-11.3973
緷	-11.3974
蛉	-11.3976
韻韻㑹	-11.3977
緶	-11.3977
湔	-11.3977
譴	-11.3978
斝	-11.3979
餽	-11.3979
繻	-11.398
羕	-11.398
龕	-11.398
牋	-11.3981
榘	-11.3981
邯	-11.3982
桄	-11.3982
棋	-11.3982
謑	-11.3982
秩秩	-11.3983
美貌	-11.3984
餱	-11.3985
三百六十	-11.3985
泌	-11.3987
䖵	-11.3987
喊	-11.3987
悁	-11.3987
駣	-11.3988
邴	-11.3989
淘	-11.3989
倮	-11.3989
犆	-11.399
仝	-11.399
帕	-11.399
耡	-11.399
多毛	-11.3994
簏	-11.3994
豭	-11.3995
歃	-11.3996
躅	-11.3996
水貎	-11.3999
騐	-11.3999
薩	-11.4
司馬相如子虚賦	-11.4001
也或作文二	-11.4002
忤	-11.4002
洋洋	-11.4003
良刃切	-11.4003
廣韻集韻竝	-11.4005
韻㑹通作	-11.4014
聲集韻或作	-11.4022
杜林	-11.4031
六豪	-11.4039
山髙貌	-11.4042
蟲名似	-11.4044
陟彼	-11.4046
从欠	-11.4049
巴郡	-11.405
他計切	-11.405
雉鳴	-11.4052
从貝	-11.4052
太平	-11.4053
恭切	-11.4053
明月	-11.4058
莫結切	-11.4059
匣一	-11.4059
水波	-11.4059
朓	-11.4061
者訛	-11.4067
鐓	-11.4067
蹛	-11.407
脤	-11.4071
司馬相如傳	-11.4071
和樂	-11.4071
爟	-11.4071
又禡韻	-11.4071
髁	-11.4071
轒	-11.4072
戻	-11.4073
捼	-11.4073
帊	-11.4074
廕	-11.4076
㓕	-11.4076
塹	-11.4076
膎	-11.4076
垔	-11.4077
揵	-11.4077
訬	-11.4077
慾	-11.4078
馬援傳	-11.4079
簷	-11.4079
佪	-11.4081
驎	-11.4081
妯	-11.4082
按佩文韻	-11.4082
盭	-11.4082
黧	-11.4082
譸	-11.4084
帝嚳	-11.4084
椵	-11.4084
倕	-11.4084
亹	-11.4085
冽	-11.4085
鍠	-11.4086
祝融	-11.4086
甘泉賦	-11.4086
扑	-11.4086
引左傳	-11.4086
獶	-11.4087
易乾卦	-11.4089
賡	-11.409
笈	-11.409
他達切	-11.4091
歰	-11.4092
凙	-11.4093
浡	-11.4093
襖	-11.4093
凄	-11.4093
羽次清音	-11.4095
注引	-11.4097
衆口	-11.4099
冠名	-11.41
徐廣	-11.4101
唐本	-11.4104
前漢司馬相如傳	-11.4104
雌雄	-11.4104
古忽切	-11.4105
五藏	-11.4107
霽韻	-11.411
陸氏曰	-11.4111
八八	-11.4112
並作	-11.4112
奈何	-11.4114
胡對切	-11.4121
闗西	-11.4124
晏子	-11.4127
西域國名	-11.4127
馬行疾	-11.4128
甲乙	-11.4131
善言	-11.4132
明明	-11.4133
度尚	-11.4135
徒感切	-11.4136
矛屬	-11.4141
彖傳	-11.4145
按漢書	-11.4146
荎	-11.4152
五十七	-11.4153
也逺也	-11.4156
縣南	-11.4158
人之所	-11.4163
義同或作	-11.4165
幰	-11.4167
兢	-11.4168
杈	-11.4169
礚	-11.417
磐	-11.417
刎	-11.417
弜	-11.417
碕	-11.4171
鯫	-11.4171
綮	-11.4171
袌	-11.4171
嫽	-11.4172
卸	-11.4172
瑇瑁	-11.4174
賃	-11.4174
呿	-11.4174
廣韻集韻韻會	-11.4175
汏	-11.4175
踼	-11.4175
開元	-11.4176
覘	-11.4176
嫈	-11.4177
貒	-11.4178
㫺	-11.4178
䀠	-11.4178
㒺	-11.4179
瀉	-11.4179
唲	-11.4179
券	-11.4182
甒	-11.4183
施隻切	-11.4183
欿	-11.4184
胡計切	-11.4185
凡四字	-11.4185
朋友	-11.4186
振旅	-11.4187
芡	-11.4187
功臣	-11.4187
鯊	-11.4189
躔	-11.4189
田中	-11.4189
更生	-11.4191
衖	-11.4194
魏大	-11.4196
居拜切	-11.4196
戼	-11.4198
古文尚書	-11.4203
鎋切	-11.4205
文十七	-11.4207
五榖	-11.4214
州因	-11.422
力弔切	-11.4229
誰能	-11.4233
無枝	-11.4236
回反	-11.424
溪一	-11.4242
其俱切	-11.4244
許云切	-11.4248
紫色	-11.4253
痯	-11.4256
憬	-11.4257
䭹	-11.4257
□□□	-11.4261
屵	-11.4261
等韻	-11.4262
鬖	-11.4262
褕	-11.4263
髴	-11.4263
廹也	-11.4263
呻吟	-11.4265
悃	-11.4265
僎	-11.4266
謐	-11.4266
沕	-11.4266
忉	-11.4266
集綴	-11.4267
挶	-11.4267
柣	-11.4267
西南夷	-11.4267
姓氏	-11.4268
涑	-11.4268
猵	-11.4269
鈹	-11.4269
筰	-11.427
澄三	-11.427
誚	-11.427
嘷	-11.427
沌	-11.4271
少儀	-11.4272
無疆	-11.4272
枓	-11.4272
圅	-11.4273
芺	-11.4273
泜	-11.4274
鄱	-11.4274
咆	-11.4274
潬	-11.4274
椇	-11.4274
塲	-11.4275
穅	-11.4276
愽	-11.4276
鵷	-11.4276
岨	-11.4277
陞	-11.4277
陸機文賦	-11.4277
蝙蝠	-11.4279
斆	-11.428
蠁	-11.428
紈	-11.428
侔	-11.428
逯	-11.4282
駰	-11.4282
攄	-11.4282
詩鄘風	-11.4285
蹯	-11.4286
字彚同	-11.4287
滸	-11.4288
符遇切	-11.4288
伏羲	-11.4288
商清音説文	-11.4291
漢五行志	-11.4292
推之	-11.4293
古侯切	-11.4295
箭室	-11.4297
鱮	-11.4299
深逺	-11.43
説苑	-11.4302
百八十	-11.4303
前漢五行志	-11.4305
徒登切	-11.4309
聲増韻	-11.431
音聊	-11.4313
則知	-11.4315
色青	-11.4328
太乙	-11.4329
魚列切	-11.4332
後因	-11.4334
開口	-11.4335
江漢	-11.4343
日入	-11.4345
右手	-11.4346
斫木	-11.4348
韓詩作	-11.4348
色白	-11.4352
集韻或省作	-11.4358
分明	-11.436
娉	-11.4363
以制切	-11.4364
吭	-11.4364
蹈也	-11.4364
痱	-11.4364
灮	-11.4365
騊駼	-11.4365
袗	-11.4365
骸	-11.4365
嚇	-11.4366
所以為	-11.4366
簹	-11.4366
豦	-11.4367
侅	-11.4367
蓫	-11.4368
㱿	-11.4368
枰	-11.4369
又增韻	-11.4369
瑚	-11.4369
婆娑	-11.437
三蒼	-11.437
勰	-11.4371
俗加	-11.4371
咀	-11.4372
湄	-11.4372
韻會小補	-11.4373
洸	-11.4373
捩	-11.4374
珊瑚	-11.4374
廋	-11.4374
邠	-11.4375
呰	-11.4376
斮	-11.4377
韝	-11.4377
荓	-11.4378
䙝	-11.4378
耊	-11.4378
氊	-11.4378
鉅鹿	-11.4378
筓	-11.4381
鍤	-11.4382
風吹	-11.4382
儒林傳	-11.4384
鄉飲酒	-11.4384
檟	-11.4384
臣鉉等	-11.4385
徼外	-11.4385
趙岐	-11.4387
規矩	-11.4388
草盛貌	-11.4389
也法也	-11.4392
梧桐	-11.4393
于貴切	-11.4393
精神	-11.4394
襌衣	-11.4401
清四	-11.4403
天道	-11.4404
周文王	-11.4407
胡南切	-11.4407
所乗	-11.441
建寧	-11.4411
十十	-11.4411
古禾切	-11.4415
五故切	-11.4417
沇切	-11.4418
姓也出	-11.4424
無此字	-11.4425
又號韻	-11.4425
襄陽	-11.4432
唐何切	-11.4433
莫江切	-11.4433
大宛	-11.4436
不足以	-11.4437
耉	-11.4438
【	-11.444
十三字	-11.4441
官府	-11.4443
亮反	-11.4446
金飾	-11.4447
居之切	-11.445
輾	-11.4452
無分切	-11.4452
譀	-11.4452
字書云	-11.4453
不忘	-11.4455
軬	-11.4455
靈臺	-11.4456
夗	-11.4456
蠙	-11.4456
釅	-11.4457
瘵	-11.4458
捾	-11.4458
萋	-11.4459
棷	-11.4459
濔	-11.446
屖	-11.446
二十一侵	-11.446
鸚鵡	-11.4461
杉	-11.4462
藑	-11.4462
蟺	-11.4462
璿	-11.4463
蝡	-11.4463
鋈	-11.4463
烕	-11.4464
饕	-11.4464
眈	-11.4465
部第一百	-11.4466
筊	-11.4466
騾	-11.4466
暍	-11.4467
垽	-11.4467
氏後改為	-11.4467
漙	-11.4467
匐	-11.4468
迕	-11.4468
鬄	-11.4468
穊	-11.4468
录	-11.4468
佩文韻作	-11.4468
鉹	-11.4468
頞	-11.4468
薌	-11.4468
蚡	-11.4468
敷勿切	-11.4468
瓴	-11.4469
征例切	-11.4469
文十九	-11.4469
筳	-11.4469
鳺	-11.447
箙	-11.447
抹	-11.447
馥	-11.4471
朅	-11.4471
韈	-11.4471
祫	-11.4474
馲	-11.4475
柶	-11.4475
刅	-11.4476
腑	-11.4476
俸	-11.4476
恰	-11.4476
虋	-11.4477
攻乎切	-11.4478
房尤切	-11.4478
蟈	-11.4479
芣苢	-11.4479
瘖	-11.4479
庶幾	-11.4484
蜀都賦	-11.4484
寡婦	-11.4486
劉歆	-11.4492
周南	-11.4498
王問切	-11.4502
田間	-11.4503
李巡曰	-11.4503
國君	-11.4508
養之	-11.4508
陌韻	-11.451
熟食	-11.4511
鄭大夫	-11.4514
之形凡	-11.452
小學	-11.4522
繁陽	-11.4527
變體	-11.4529
營室	-11.4537
禮禮運	-11.4537
下民	-11.4538
張揖曰	-11.454
相去	-11.4542
草根	-11.4545
唐扶	-11.4545
窆	-11.455
粦	-11.455
蛄	-11.4551
合口呼	-11.4551
大者謂之	-11.4552
不能行	-11.4552
部第四百	-11.4552
行道	-11.4554
踉	-11.4554
媻	-11.4554
水際	-11.4556
庌	-11.4556
禫	-11.4556
謍	-11.4557
郊祀歌	-11.4558
卂	-11.4559
肎	-11.456
噱	-11.4561
驤	-11.4561
琛	-11.4561
煔	-11.4561
摎	-11.4562
之属皆從	-11.4562
涫	-11.4562
噆	-11.4563
騩	-11.4563
帴	-11.4563
挍	-11.4564
䖏	-11.4564
𣏌	-11.4564
匹妙切	-11.4564
瑒	-11.4565
蔏	-11.4565
繘	-11.4565
又哿韻	-11.4565
以備	-11.4565
鉆	-11.4565
櫪	-11.4566
蕐	-11.4566
刲	-11.4566
儓	-11.4566
閥	-11.4566
塢	-11.4567
磧	-11.4568
第八	-11.4569
湓	-11.4569
蚿	-11.457
鶵	-11.4571
𨼆	-11.4571
倰	-11.4571
駞	-11.4573
歐陽修	-11.4573
文十八	-11.4573
軿	-11.4573
餬	-11.4574
窐	-11.4574
疹	-11.4574
彀	-11.4574
縟	-11.4574
大波	-11.4575
鮭	-11.4575
東方朔七諫	-11.4576
絡絲	-11.4578
潘岳西征賦	-11.4578
蒺藜	-11.4578
銍	-11.4578
須臾	-11.4579
相值	-11.4581
徒渾切	-11.4581
鄘	-11.4582
薏	-11.4584
秦始皇	-11.4586
从舟	-11.4586
黄華	-11.459
老子銘	-11.459
徐州	-11.459
煞	-11.4591
漢書郊祀志	-11.4598
从米	-11.4598
雲夢	-11.4604
武帝紀	-11.4605
岷	-11.4605
水涯	-11.4607
文彩	-11.4608
也从隹	-11.4611
也从彳	-11.4622
雜記	-11.4622
从人从	-11.4623
帳也	-11.4628
從刀	-11.4629
十一字	-11.4642
釧	-11.4643
四宵	-11.4645
叶下	-11.4646
之甚	-11.4649
二十六年	-11.465
骭	-11.4651
監切	-11.4651
諳	-11.4652
嬗	-11.4652
搥	-11.4652
影一	-11.4653
吉日	-11.4654
也从网	-11.4655
漢紀	-11.4655
又州名又姓	-11.4656
􁆛	-11.4657
愾	-11.4657
祟	-11.4658
銎	-11.4659
古通用	-11.466
兵媚切	-11.466
嗽	-11.4661
肓	-11.4661
趁	-11.4662
菏	-11.4662
踆	-11.4662
蠉	-11.4663
蝍蛆	-11.4663
斄	-11.4664
馺	-11.4665
塵埃	-11.4665
鮀	-11.4665
襱	-11.4665
頯	-11.4665
巔	-11.4666
廞	-11.4667
糴	-11.4667
迷浮切	-11.4668
隍	-11.4668
鎔	-11.4668
不聞	-11.4668
靦	-11.4668
撚	-11.4668
胔	-11.4669
醲	-11.467
公主	-11.467
扛	-11.4673
鼏	-11.4673
束晳	-11.4675
魯頌	-11.4677
臨淮	-11.4677
􁊵	-11.4677
毛晃	-11.4677
昆侖	-11.4677
謨官切	-11.4678
精氣	-11.4679
經緯	-11.4679
榎	-11.4681
鼖	-11.4681
乾坤	-11.4681
國家	-11.4687
厠也	-11.4693
呼骨切	-11.4695
从彳	-11.4698
篇文也	-11.4698
分為二	-11.4702
形容	-11.4705
論衡	-11.4707
地理	-11.4707
尊卑	-11.4709
又青韻	-11.471
百五十	-11.4714
笑聲	-11.4716
莫白切	-11.4721
郡國	-11.4722
魯大夫	-11.4724
封於	-11.4724
别種	-11.4728
漢書音義	-11.4731
隊韻	-11.4742
谷風	-11.4743
蛓	-11.475
肭	-11.4753
碨	-11.4754
四時之	-11.4755
蜰	-11.4756
國名亦姓	-11.4756
萼	-11.4757
釗	-11.4758
悝	-11.4759
正字通俗字	-11.476
蜴	-11.4761
抌	-11.4761
蹉	-11.4761
駽	-11.4762
圛	-11.4762
嶮	-11.4763
蘀	-11.4763
婬	-11.4763
煤	-11.4763
崔嵬	-11.4763
惸	-11.4764
殛	-11.4764
隓	-11.4764
故知	-11.4765
肜	-11.4766
熲	-11.4766
墅	-11.4767
鑱	-11.4767
抜	-11.4767
鈇	-11.4767
常棣	-11.4768
蔈	-11.4769
葛藟	-11.4769
􁇒	-11.4769
或从手	-11.477
柑	-11.477
餤	-11.477
傚	-11.4771
燾	-11.4771
瑋	-11.4771
輇	-11.4771
粘	-11.4771
彥	-11.4771
資昔切	-11.4772
曀	-11.4772
多力	-11.4772
鸚	-11.4773
殉	-11.4774
􁄓	-11.4775
瀵	-11.4775
陳球	-11.4775
羑	-11.4776
部苐一百	-11.4776
雊	-11.4777
謞	-11.4777
瀝	-11.4778
鷽	-11.478
鶯	-11.478
緵	-11.4783
按說文作	-11.4792
隋置	-11.4793
河北	-11.4794
六章	-11.4795
都回切	-11.4802
白日	-11.4806
卅六	-11.4811
新制	-11.4813
禮少儀	-11.4818
髮亂	-11.4828
行列	-11.4836
江賦	-11.4846
室家	-11.4847
東冬	-11.4849
辱也	-11.485
嵫	-11.4853
蟧	-11.4853
量名	-11.4854
又模韻	-11.4854
崦	-11.4855
李陵	-11.4857
鄭地	-11.4857
摋	-11.4857
䍃	-11.4858
醷	-11.4858
之際	-11.4859
嶙	-11.4859
何休	-11.486
篸	-11.486
笳	-11.486
虆	-11.486
蜢	-11.4861
后土	-11.4861
婐	-11.4861
嗄	-11.4864
腱	-11.4864
殑	-11.4865
蒲昧切	-11.4866
櫻桃	-11.4866
又文韻	-11.4866
畯	-11.4866
嬖	-11.4866
孔氏曰	-11.4866
蟫	-11.4866
轎	-11.4866
詑	-11.4866
卷一	-11.4867
絅	-11.4868
蒼天	-11.4868
澶	-11.4868
孔子弟子	-11.4869
僨	-11.4869
拕	-11.4869
襮	-11.4869
腄	-11.487
溠	-11.487
皺	-11.487
辡	-11.487
朧	-11.4871
珂	-11.4871
嶲	-11.4871
屣	-11.4871
皚	-11.4871
箬	-11.4871
屛	-11.4872
交阯	-11.4872
駜	-11.4872
喭	-11.4873
詵	-11.4873
孚袁切	-11.4873
禴	-11.4873
狷	-11.4874
頍	-11.4875
珩	-11.4875
墝	-11.4875
篪	-11.4875
施于	-11.4875
唁	-11.4875
懜	-11.4876
皮日休	-11.4876
朞	-11.4878
湆	-11.4879
洎	-11.4879
鵁	-11.488
甀	-11.4881
平水韻增	-11.4882
東山	-11.4883
鼯	-11.4883
嶓	-11.4885
又集韻韻會	-11.489
起於	-11.489
明堂位	-11.4891
艸也从艸	-11.4891
漢書髙帝紀	-11.4893
太尉	-11.4897
潤澤	-11.4898
漢書司馬相如傳	-11.4898
篇海與	-11.4902
毒蟲	-11.4902
報反	-11.4902
又州名漢	-11.4904
照二	-11.4904
以别之	-11.4905
大荒	-11.4914
轉相	-11.4917
輩也	-11.492
文四重音	-11.4922
汲水	-11.4926
虞韻	-11.4927
古牙切	-11.4935
不仁	-11.4937
自序	-11.4939
石鼓	-11.4945
水名山海經	-11.4946
礦	-11.4958
喜樂	-11.496
盯	-11.4961
件	-11.4962
約束	-11.4962
三十年	-11.4963
肋	-11.4963
締	-11.4963
蘬	-11.4964
醖	-11.4965
俔	-11.4966
篳	-11.4968
輢	-11.4968
蘪蕪	-11.4969
劃	-11.4969
賵	-11.4969
骫	-11.497
倐	-11.4972
齱	-11.4972
轟	-11.4973
簣	-11.4973
幭	-11.4973
睇	-11.4973
幞	-11.4974
躇	-11.4974
瞍	-11.4975
朢	-11.4975
礐	-11.4975
跖	-11.4975
詻	-11.4976
唐扶頌	-11.4976
棹	-11.4976
蝀	-11.4977
蕫	-11.4977
儇	-11.4978
桋	-11.4979
痏	-11.4979
儕	-11.4979
怏	-11.498
力質切	-11.498
比目魚	-11.4981
摰	-11.4981
濱	-11.4982
鷮	-11.4984
从匕	-11.4985
閧	-11.4986
鞙	-11.4986
貜	-11.4987
鄭烈	-11.4988
皥	-11.4988
㐮	-11.4988
巨鳩切	-11.4988
不盡	-11.4989
蟨	-11.4989
瑞草	-11.499
盧對切	-11.4991
􁃱	-11.4992
矩切	-11.4993
汴	-11.4993
四十五	-11.4994
􁆺	-11.4995
郎擊切	-11.4999
从彡	-11.4999
許既切	-11.4999
闗中	-11.5002
巧婦	-11.5003
也釋名曰	-11.5005
取諸	-11.5015
矦切	-11.5015
延熹	-11.5017
朝夕	-11.5017
透一	-11.5022
鐘聲	-11.5025
也周禮冬官考工記	-11.5027
蒲官切	-11.5032
板切	-11.5033
不顯	-11.5042
猶未	-11.5045
可讀	-11.5046
庶子	-11.5047
又線韻	-11.5052
所六切	-11.5062
禂	-11.5063
抍	-11.5066
疣	-11.5067
貌荀子	-11.5067
闛	-11.5068
覆車	-11.5068
廴	-11.5069
蝓	-11.507
不忍	-11.507
洟	-11.507
畚	-11.5071
鮮明	-11.5071
汩	-11.5071
柵	-11.5072
繰	-11.5072
褢	-11.5072
毬	-11.5073
蟜	-11.5073
朦	-11.5073
猫	-11.5073
羇	-11.5074
撅	-11.5074
偲	-11.5074
今從之	-11.5074
閜	-11.5075
蓽	-11.5075
徦	-11.5075
桔	-11.5075
㮚	-11.5076
暜	-11.5077
彧	-11.5077
藾	-11.5077
郇	-11.5077
魏上尊號奏	-11.5077
並出	-11.5078
鱖	-11.5078
􁆱	-11.5078
賸	-11.5079
偄	-11.508
喔	-11.508
豰	-11.508
竢	-11.5081
滈	-11.5081
咫	-11.5081
出山海經	-11.5082
鼗	-11.5082
渠希切	-11.5082
佔	-11.5082
挏	-11.5083
竪	-11.5084
茅蒐	-11.5084
北海相景君銘	-11.5085
田聊切	-11.5085
豈弟	-11.5086
隋書	-11.5086
潯	-11.5086
診	-11.5087
亙	-11.5088
怵	-11.5089
詩唐風	-11.5089
獒	-11.5091
也从米	-11.5092
貛	-11.5093
史記項羽紀	-11.5095
海魚	-11.5096
荆楚	-11.5097
又覺韻	-11.5098
唼	-11.5099
正字通按	-11.51
前漢武帝紀	-11.5103
賢人	-11.5104
白居易詩	-11.5107
八卦	-11.5109
地氣	-11.5114
十八隊	-11.5115
今詩作	-11.5115
乙六切	-11.5116
徒弔切	-11.5117
角弓	-11.5118
切第四百	-11.512
熾也	-11.5128
下邳	-11.5129
直角切	-11.513
七啟	-11.513
目不明也	-11.5131
隷作丨	-11.5134
門限	-11.5137
農夫	-11.5147
端一	-11.515
樂書	-11.5154
奔走	-11.5157
生民	-11.5159
麻韻	-11.5161
古巧切	-11.5165
鞴	-11.5167
十九鐸	-11.5167
何足	-11.5167
西羌	-11.5168
从廾	-11.5169
佸	-11.517
螬	-11.517
萇	-11.5172
杘	-11.5174
硜	-11.5174
褭	-11.5174
簎	-11.5175
吺	-11.5176
藃	-11.5177
彯	-11.5177
誃	-11.5177
㚔	-11.5177
禕	-11.5178
輠	-11.5178
獌	-11.5178
憖	-11.5179
兟	-11.518
鞾	-11.518
钁	-11.5181
盈之切	-11.5181
蔦	-11.5183
螯	-11.5183
沮洳	-11.5183
姆	-11.5184
鉶	-11.5185
鐺	-11.5185
唐韻集韻正韻	-11.5186
驚視	-11.5186
袷	-11.5187
失意	-11.5188
魏都賦	-11.5189
小蟲	-11.5189
窣	-11.519
捭	-11.519
車駕	-11.5192
愜	-11.5193
部六畫	-11.5195
江湘	-11.5195
廷尉	-11.5195
簞	-11.5196
又豪韻	-11.5197
引虞書	-11.5198
盧東切	-11.5199
徒弄切	-11.5199
楚辭天問	-11.5201
松栢	-11.5201
苦本切	-11.5202
召南	-11.5204
肥貌	-11.5205
司馬彪	-11.5205
揔名	-11.5206
周武王	-11.5206
司農	-11.5212
哈	-11.5212
嗚呼	-11.5213
不待	-11.5213
入江	-11.5214
注疏云	-11.5215
如字又	-11.5222
態也	-11.5223
火皃	-11.5224
洪水	-11.5226
析木	-11.5228
也又姓漢有	-11.5233
疾風	-11.5234
今依	-11.5242
故於文	-11.5245
素絲	-11.5247
匹角切	-11.5248
升降	-11.5248
石經作	-11.5251
不可得	-11.5253
禮記曲禮	-11.5253
上下相	-11.5254
相混	-11.5255
服䖍	-11.5258
舉要	-11.5263
子小切	-11.5266
皇天	-11.5268
禮義	-11.5268
睒	-11.5269
心亂	-11.5271
王命	-11.5271
鉢	-11.5275
妎	-11.5276
梃	-11.5276
撋	-11.5277
䉛	-11.5278
瞵	-11.5279
譲	-11.5279
慌	-11.5279
所造	-11.528
慅	-11.528
窔	-11.528
嬛	-11.528
輵	-11.5281
枼	-11.5281
十四字	-11.5282
方言曰	-11.5282
獦	-11.5282
狴	-11.5282
咇	-11.5282
舸	-11.5283
撼	-11.5284
梲	-11.5285
莝	-11.5285
鍚	-11.5286
覡	-11.5286
瑲	-11.5287
媟	-11.5288
十九年	-11.5288
泔	-11.5288
芙	-11.5289
䆃	-11.5289
甍	-11.5289
踢	-11.5289
􁄞	-11.5289
樊敏碑	-11.5289
狋	-11.5289
鮧	-11.529
爞	-11.529
玖	-11.529
繾綣	-11.529
觵	-11.5291
䇂	-11.5292
頊	-11.5292
揳	-11.5292
耇	-11.5293
捊	-11.5294
暌	-11.5294
􁆍	-11.5294
溓	-11.5294
鏦	-11.5295
薿	-11.5295
菘	-11.5296
醆	-11.5296
夅	-11.5297
匍匐	-11.5298
闈	-11.5299
􁂒	-11.53
給事	-11.5302
禀	-11.5302
弼角切	-11.5304
鯿	-11.5305
緎	-11.5305
廹	-11.5306
到反	-11.5307
五穀	-11.531
龍都切	-11.5312
所以盛	-11.5315
六畜	-11.5316
亦省作	-11.5316
皆誤	-11.5317
蘇轍	-11.5318
集古録	-11.532
䖍切	-11.5322
諸良切	-11.5323
韓勑碑	-11.5323
水勢	-11.5324
行貎	-11.5329
歸來	-11.533
又姓正字通	-11.533
江湖	-11.533
孔子廟	-11.5333
十分	-11.5333
不得志	-11.5334
薄言	-11.5334
世俗	-11.5334
允切	-11.534
又葉韻	-11.5347
異名	-11.5349
歠也	-11.5351
十一月	-11.5352
在左	-11.5355
匹各切	-11.5355
細毛	-11.5357
求於切	-11.5357
相交	-11.5368
更名	-11.537
是也云	-11.537
䏰	-11.5376
唐虞	-11.5376
凡二字	-11.5378
典反	-11.5379
憭	-11.538
手指	-11.5382
岷山	-11.5382
艽	-11.5384
葶	-11.5384
氲	-11.5385
崔希𥙿纂古	-11.5385
林罕	-11.5385
蛬	-11.5386
襪	-11.5386
居侯切	-11.5389
敧	-11.5389
紟	-11.5389
鈕	-11.5389
禧	-11.5389
􁁕	-11.5389
簦	-11.539
鵽	-11.539
繠	-11.539
諵	-11.539
楩	-11.5391
之始也	-11.5392
蓧	-11.5392
跽	-11.5392
注師古曰	-11.5392
扺	-11.5393
航	-11.5393
嗾	-11.5393
甤	-11.5393
字詩凡	-11.5393
嗉	-11.5393
釿	-11.5394
顗	-11.5394
梡	-11.5394
塋	-11.5395
棚	-11.5395
壼	-11.5395
挺切	-11.5396
侲	-11.5396
緧	-11.5396
綻	-11.5396
轊	-11.5397
玼	-11.5398
柍	-11.5398
梔	-11.5399
訖黠切	-11.5399
軔	-11.5399
斕	-11.5399
蔌	-11.54
屍	-11.54
梩	-11.54
造化	-11.5401
怊	-11.5401
叵	-11.5402
有虞氏	-11.5402
悦切	-11.5402
櫰	-11.5404
􁘫	-11.5405
齊大夫	-11.5405
賂	-11.5405
萱	-11.5405
嚨	-11.5406
齍	-11.5407
以此為	-11.5407
紾	-11.5408
暱	-11.5408
班固幽通賦	-11.5411
木槿	-11.5412
忝切	-11.5412
曉一	-11.5417
詩陳風	-11.5419
詩王風	-11.5419
陳留切	-11.5419
字原云	-11.5421
五各切	-11.5423
等字從之	-11.5423
都郎切	-11.5429
未央	-11.5431
古胡切	-11.5431
先王之	-11.5433
也从山	-11.5434
别收	-11.5435
第三十	-11.544
七志	-11.5447
共工	-11.545
建平	-11.545
魯峻	-11.5452
烏含切	-11.5453
稽首	-11.5453
反字林	-11.5458
譌為	-11.5459
千金	-11.5462
髪亂	-11.5471
照三	-11.5476
古今字	-11.5477
蛛	-11.5481
撙	-11.5483
斚	-11.5489
敄	-11.5491
猰	-11.5492
褌	-11.5494
禪三	-11.5495
誖	-11.5496
㕯	-11.5496
瘨	-11.5497
覜	-11.5497
侁	-11.5498
麫	-11.5498
从广	-11.5498
齝	-11.5499
芣	-11.5499
腒	-11.5499
蠯	-11.55
陊	-11.55
刹	-11.55
劌	-11.5501
㕧	-11.5502
女字文一	-11.5502
疃	-11.5503
髤	-11.5503
磝	-11.5503
帗	-11.5503
帟	-11.5503
鶻鵃	-11.5503
漦	-11.5503
謷	-11.5504
衘	-11.5504
蝘	-11.5504
綖	-11.5504
櫐	-11.5505
駓	-11.5506
媾	-11.5506
食采於	-11.5507
楊君石門頌	-11.5507
惲	-11.5508
榝	-11.5508
羯	-11.5508
字林作	-11.5508
潺湲	-11.5508
驍	-11.5509
也成也	-11.5509
琱	-11.5509
愀	-11.551
拈	-11.551
鸅	-11.551
也从言从	-11.551
相支切	-11.5511
臊	-11.5511
郫	-11.5512
紉	-11.5512
購	-11.5513
瑤	-11.5513
皮變切	-11.5513
溝洫	-11.5513
傖	-11.5513
舊說	-11.5514
餾	-11.5514
薻	-11.5514
蚴	-11.5515
驄	-11.5517
又旱韻	-11.5519
籩豆	-11.552
玉光	-11.552
謨蓬切	-11.552
鰓	-11.5522
詩齊風	-11.5526
經典相承用此字	-11.5529
盧當切	-11.5529
十六蒸	-11.5531
前地理志	-11.5534
曲木	-11.5536
求福	-11.5541
胡谷切	-11.5542
柔革	-11.5544
之石切	-11.5547
伯各切	-11.5554
翰林	-11.5556
不暇	-11.5563
宋公	-11.557
取物也	-11.5573
又廣韻正韻	-11.5578
放此	-11.5586
廟門	-11.5595
餟	-11.5597
左傳晉	-11.5599
木名爾雅	-11.5601
也厚也	-11.5601
賭	-11.5603
倔	-11.5604
隮	-11.5604
禇	-11.5604
罧	-11.5604
韁	-11.5605
斸	-11.5606
蟾	-11.5606
朁	-11.5607
小船	-11.5607
餙	-11.5608
婓	-11.5608
瀌	-11.5608
癶	-11.561
艟	-11.561
淆	-11.5611
禨	-11.5611
蹔	-11.5611
擎	-11.5611
蟒	-11.5611
有柄	-11.5612
眣	-11.5612
篇海類編與	-11.5614
㝷	-11.5614
椸	-11.5616
猖	-11.5616
欨	-11.5616
毓	-11.5616
艐	-11.5616
篿	-11.5617
禆	-11.5617
菔	-11.5618
絻	-11.5618
癬	-11.5618
鶪	-11.5618
僦	-11.5619
雲貌	-11.5619
所由	-11.5619
傒	-11.562
俅	-11.562
酓	-11.562
眚	-11.562
壎	-11.5621
皂	-11.5621
忩	-11.5621
罶	-11.5622
翺	-11.5622
旛	-11.5622
毄	-11.5622
唧	-11.5623
屋梠	-11.5623
於阮切	-11.5623
汕	-11.5625
坏	-11.5625
􁀂	-11.5625
邽	-11.5626
黄庭堅詩	-11.5626
列女傳	-11.5627
室中	-11.5627
碩人	-11.5628
栱	-11.563
箑	-11.563
巍巍	-11.5635
韓信傳	-11.5635
居牙切	-11.5635
方問切	-11.5641
蚌屬	-11.5646
於計切	-11.565
之形以見意	-11.565
古獲切	-11.5651
子六切	-11.5651
又豔韻	-11.5654
王矩切	-11.5654
夏后	-11.5656
唐丁切	-11.5656
也又卦名	-11.5657
漢書食貨志	-11.5661
文二十一	-11.5661
樹木	-11.5663
詩傳云	-11.5666
亞切	-11.5666
礼切	-11.5668
飲器	-11.5668
陸雲詩	-11.5672
星辰	-11.5674
又沁韻	-11.5682
白虎通曰	-11.5683
入地	-11.5686
从隹	-11.5687
玉色	-11.569
南華經	-11.569
七感切	-11.5691
名之曰	-11.5691
熊虎	-11.5694
蚚	-11.5694
怒聲	-11.5694
字下亦作	-11.57
堂下	-11.5707
石之似玉者	-11.5708
太學	-11.5713
氈	-11.5715
蜻蛉	-11.5715
冨	-11.5715
蚪	-11.5715
輞	-11.5715
靫	-11.5716
砉	-11.5717
訩	-11.5718
炷	-11.5719
茙	-11.5719
馬銜	-11.572
燀	-11.5721
吪	-11.5722
剃	-11.5722
王庶	-11.5722
聘禮	-11.5722
靉	-11.5723
鱻	-11.5724
大帶	-11.5724
訰	-11.5724
瓽	-11.5725
不必叶	-11.5725
偟	-11.5725
冗	-11.5726
嚜	-11.5726
縣名屬	-11.5726
齲	-11.5726
楊震	-11.5726
黂	-11.5726
凭	-11.5727
煜	-11.5727
十一模	-11.5728
騯	-11.5728
惇	-11.5728
鸜鵒	-11.5729
流皃	-11.5729
莍	-11.5729
昕	-11.573
鷞	-11.573
潨	-11.573
􁄏	-11.573
觝	-11.5731
侜	-11.5731
白芷	-11.5731
胲	-11.5731
丁聊切	-11.5732
穿地	-11.5732
牓	-11.5732
厹	-11.5733
䳇	-11.5733
齟齬	-11.5733
霹靂	-11.5736
鞈	-11.5737
頻脂切	-11.5737
嶧	-11.5738
儀禮士冠禮	-11.5739
思積切	-11.5741
薠	-11.5741
騰躍	-11.5742
食虎豹	-11.5743
輴	-11.5743
册	-11.5744
余救切	-11.5745
味辛	-11.5746
灂	-11.5747
有如此者	-11.5748
螢火	-11.5751
从缶	-11.5768
縣東南	-11.5769
逺遊	-11.577
渠容切	-11.5772
頭不正	-11.5773
古火切	-11.5776
四方之	-11.5777
暫見	-11.5789
玉石	-11.5791
大者名	-11.5792
交錯	-11.5796
太祖	-11.5801
青黒	-11.5807
才老	-11.581
於求切	-11.581
又地名左傳	-11.5816
事君	-11.5818
鏨	-11.582
雞鳴	-11.582
與章切	-11.5821
蝑	-11.5822
﨑	-11.5822
齊語	-11.5825
忍反	-11.5825
撤	-11.5826
相然切	-11.5826
又韻㑹通作	-11.5826
匯	-11.5827
醊	-11.5827
紞	-11.5828
砮	-11.5828
齔	-11.583
擖	-11.5831
臉	-11.5831
贔	-11.5831
􁀎	-11.5831
鴒	-11.5832
俜	-11.5833
幨	-11.5833
袛	-11.5833
􁍘	-11.5833
􁐏	-11.5833
璘	-11.5834
黥	-11.5834
烋	-11.5834
古紅切	-11.5835
墫	-11.5835
愓	-11.5835
顑	-11.5835
嫚	-11.5835
薟	-11.5836
崢	-11.5836
氏焉	-11.5836
債	-11.5836
潑	-11.5837
虓	-11.5837
崎	-11.5837
膂	-11.5837
璇	-11.5837
碌	-11.5837
从肉从	-11.5838
稬	-11.5838
牌	-11.5839
貆	-11.5839
慚	-11.584
坱	-11.584
四十九宥	-11.584
萯	-11.584
煒	-11.5841
百餘	-11.5841
裛	-11.5841
淙	-11.5842
桺	-11.5842
彑	-11.5842
滹	-11.5843
失道	-11.5844
痤	-11.5844
皸	-11.5845
荍	-11.5845
褏	-11.5846
抔	-11.5846
茠	-11.5846
仟	-11.5847
苜蓿	-11.5848
字彙補音未詳	-11.5849
魚厥切	-11.585
蘆菔	-11.585
廏	-11.585
歬	-11.5852
以冉切	-11.5853
其名曰	-11.5854
櫳	-11.5855
蹵	-11.5855
伋	-11.5856
咒	-11.5859
震韻	-11.586
零陵	-11.5861
胡玩切	-11.5862
也從肉	-11.5864
四升	-11.5865
也注皆	-11.5868
郎侯切	-11.5872
唐韵	-11.5876
博木切	-11.588
宣王	-11.5887
隸變	-11.5891
反字林云	-11.5909
盛貎	-11.5913
卷耳	-11.5916
義並同	-11.5917
韓子	-11.5917
無底	-11.5919
古拜切	-11.592
又漢復姓	-11.5922
之人切	-11.5923
蒲結切	-11.5927
又支紙	-11.5927
餘詳	-11.5932
不畏	-11.5937
涬	-11.594
神仙	-11.594
焌	-11.594
鵾	-11.5942
濙	-11.5943
碞	-11.5944
軺	-11.5944
塼	-11.5944
􁃭	-11.5945
夰	-11.5945
引爾雅	-11.5946
揥	-11.5946
琯	-11.5946
癖	-11.5947
慇	-11.5947
第十一	-11.5947
賨	-11.5948
隑	-11.5948
様	-11.5948
㬰	-11.5949
抆	-11.5949
銼	-11.5949
噪	-11.595
僇	-11.595
都黎切	-11.595
鳲鳩	-11.5951
玁狁	-11.5951
楎	-11.5951
檖	-11.5951
臄	-11.5952
澩	-11.5952
憯	-11.5953
鷕	-11.5953
枇杷	-11.5954
揚雄解嘲	-11.5954
惙	-11.5954
渠記切	-11.5954
齸	-11.5954
蕕	-11.5955
督郵	-11.5955
如淳	-11.5955
儚	-11.5955
尣	-11.5956
鷹隼	-11.5956
手執	-11.5957
薧	-11.5957
慹	-11.5957
訿	-11.5957
蘇后切	-11.5957
羃	-11.5957
荽	-11.5958
鐎	-11.5958
飂	-11.5959
蓏	-11.5959
瓝	-11.5959
咏	-11.596
礿	-11.596
受福	-11.596
匈于切	-11.5961
庭燎	-11.5961
処	-11.5961
肢	-11.5961
尅	-11.5962
眹	-11.5963
壝	-11.5964
窗	-11.5964
桯	-11.5967
爾雅釋畜	-11.5967
進士	-11.5967
闉	-11.5968
富貴	-11.5972
東莞	-11.5974
床二	-11.5975
皇矣	-11.5975
炎帝	-11.5977
下濕	-11.5978
屑韻	-11.5981
三畫	-11.5987
在木上	-11.5992
權輿	-11.5993
北角切	-11.6004
考工記輪人	-11.6005
廣志	-11.6006
陛下	-11.6008
清濁	-11.6019
呻也	-11.6021
燕燕	-11.6024
箕子	-11.6027
竹箭	-11.6029
浮雲	-11.6031
史傳	-11.6038
􁇟	-11.6045
艖	-11.6051
惴	-11.6051
齊齒呼	-11.6054
菐	-11.6055
藎	-11.6056
怮	-11.6056
祴	-11.6056
儈	-11.6056
鴝	-11.6058
騤	-11.6058
唈	-11.6058
禔	-11.6059
譊	-11.6059
僄	-11.606
顩	-11.606
蜆	-11.606
漼	-11.606
㬎	-11.6061
嶢	-11.6061
慉	-11.6062
褸	-11.6062
搯	-11.6062
芩	-11.6062
盞	-11.6063
魵	-11.6063
艴	-11.6064
蒲撥切	-11.6064
鶤	-11.6064
陗	-11.6064
錕	-11.6064
骳	-11.6065
貀	-11.6065
水流皃	-11.6065
日無光	-11.6065
遰	-11.6065
紛紛	-11.6066
妓	-11.6066
藟	-11.6066
隒	-11.6066
毐	-11.6067
憧	-11.6068
帔	-11.607
亦姓出	-11.607
寖	-11.607
殸	-11.6073
堅固	-11.6073
奕奕	-11.6073
鱅	-11.6073
卑吉切	-11.6073
胡溝切	-11.6074
羱	-11.6074
韌	-11.6075
幠	-11.6075
櫺	-11.6075
北風	-11.6076
神鳥	-11.6076
斗斛	-11.6078
陵之切	-11.6078
隸變如上	-11.6078
西京雜記	-11.6078
郎才切	-11.6078
二十二元	-11.6079
麐	-11.6079
溧	-11.608
部四畫	-11.6081
畵	-11.6082
騉	-11.6082
鳳凰	-11.6082
易説卦	-11.6082
周宣王	-11.6086
屋棟	-11.609
鵹	-11.6091
音怡	-11.6092
國名在	-11.6092
呻	-11.6101
嘎	-11.6105
花名	-11.6105
或从口	-11.6108
遽貌	-11.6109
剛柔	-11.611
急就篇註	-11.6111
沛國	-11.6111
呼官切	-11.6117
以灼切	-11.612
召伯	-11.6121
河間	-11.6122
也从心从	-11.6125
从歺	-11.6125
短矛	-11.6125
八微	-11.6131
外戚傳	-11.6133
從疒	-11.6133
漢文帝	-11.6137
目不正	-11.6141
也爾雅釋詁	-11.6141
府君	-11.6145
百畝	-11.615
附載	-11.6155
寋	-11.6157
張目也	-11.6158
搫	-11.6161
雲章	-11.6163
莖葉	-11.6164
怒貌	-11.6164
袲	-11.6165
也从尸	-11.6167
郭氏曰	-11.617
故吏	-11.6172
婼	-11.6172
㬱	-11.6173
稑	-11.6173
獜	-11.6173
怐	-11.6174
㮇	-11.6175
唅	-11.6175
忼	-11.6175
其後氏焉	-11.6175
丱	-11.6176
扮	-11.6176
筲	-11.6176
簮	-11.6177
咿	-11.6177
嵯	-11.6177
曙	-11.6177
紖	-11.6179
甔	-11.618
矟	-11.618
韱	-11.618
穋	-11.618
氿	-11.618
熠	-11.6181
㯕	-11.6181
巘	-11.6181
古杏切	-11.6182
三十六養	-11.6182
溞	-11.6183
殍	-11.6183
趠	-11.6183
麽	-11.6184
撢	-11.6184
丏	-11.6184
叡	-11.6185
㷭	-11.6185
元稹	-11.6186
努	-11.6186
按碑復變	-11.6186
堙	-11.6186
淮南王	-11.6186
倓	-11.6186
瘕	-11.6186
鍉	-11.6186
鴟鴞	-11.6186
妺	-11.6187
鳽	-11.6189
書序	-11.6189
䎒	-11.6189
佁	-11.6189
娯	-11.6189
喤	-11.619
鐍	-11.619
蘦	-11.6191
藒	-11.6191
子虚賦	-11.6191
淦	-11.6192
張晏曰	-11.6192
宼	-11.6192
璅	-11.6194
耰	-11.6196
時戰切	-11.6197
清風	-11.6201
次商次清音	-11.6203
鱨	-11.6204
乗輿	-11.6205
前漢禮樂志	-11.6206
故字从	-11.6207
鮮卑	-11.6211
未必	-11.6212
卅一	-11.6212
嗇夫	-11.6212
三歳	-11.6214
金石録云	-11.6217
前漢賈誼傳	-11.622
委積	-11.6221
爾雅釋地	-11.6222
蚍	-11.6222
牛刀切	-11.6223
果五切	-11.6226
彭城	-11.6227
彗星	-11.6227
貎文一	-11.623
桑柔	-11.6233
之所在	-11.6233
歎辭	-11.6234
借爲	-11.6241
師古注	-11.6243
从齒	-11.6246
春夏	-11.6247
盧各切	-11.6257
莫能	-11.6261
之類皆	-11.6263
似鳧	-11.6264
百六十	-11.6268
婦官	-11.6271
上去為韻	-11.6271
菝	-11.6279
纇	-11.6284
鸀	-11.6287
涒	-11.6287
鏖	-11.6287
楰	-11.6288
大到切	-11.6288
爝	-11.6289
翌	-11.629
引周書	-11.629
直音同	-11.629
俘	-11.6291
馣	-11.6291
鷲	-11.6292
哽	-11.6292
磓	-11.6292
十一暮	-11.6292
歈	-11.6292
仿佛	-11.6293
跦	-11.6293
址	-11.6294
葳	-11.6294
嵌	-11.6295
禡韻	-11.6295
休息	-11.6295
蠣	-11.6296
咈	-11.6296
又水名出	-11.6296
燖	-11.6297
熨	-11.6297
莬	-11.6297
穮	-11.6298
灝	-11.6298
秤	-11.6299
呐	-11.6299
脂利切	-11.6299
禬	-11.63
䀹	-11.63
駉	-11.63
涘	-11.6301
䗥	-11.6301
甈	-11.6301
鬐	-11.6301
儥	-11.6301
圮	-11.6302
螖	-11.6302
忸	-11.6302
鏌	-11.6303
石鼔文	-11.6304
雔	-11.6304
鞌	-11.6304
囋	-11.6304
剴	-11.6304
冋	-11.6305
璃	-11.6305
赳	-11.6305
逈	-11.6305
窋	-11.6305
麄	-11.6306
離鹽切	-11.6306
毛氏曰从	-11.6306
盝	-11.6307
秋傳	-11.6308
悛	-11.6308
謨郎切	-11.6308
翹移切	-11.6309
西王母	-11.631
憐題切	-11.6311
搒	-11.6314
郎丁切音靈	-11.6314
搆	-11.6314
息移切	-11.6315
甲蟲	-11.6316
螟蛉	-11.6317
託合切	-11.6319
三燭	-11.6319
所據	-11.6323
莫半切	-11.6323
蕩蕩	-11.6326
寒暑	-11.6331
十三末	-11.6331
雲俱切	-11.6332
止息	-11.6333
蘇武	-11.6333
車轄	-11.6333
必至切	-11.6334
衣縫	-11.6335
入淮	-11.6336
天官書	-11.6337
徒甘切	-11.6338
髙平	-11.634
海賦	-11.634
徒南切	-11.6345
魯當切	-11.6346
九御	-11.6359
偏旁作	-11.636
呼昆切	-11.6361
未明	-11.6372
古委切	-11.638
說文引詩	-11.6383
元帝	-11.6389
陸璣曰	-11.6392
又祭韻	-11.6398
擲也	-11.64
繦	-11.64
軍旅	-11.6403
僝	-11.6405
寡人	-11.6406
蚨	-11.6406
亦姓或作	-11.6407
鋟	-11.6407
暋	-11.6407
蝯	-11.6407
昷	-11.6407
襚	-11.6408
昫	-11.6408
齰	-11.6409
罬	-11.6409
戞	-11.6409
士卒	-11.641
鋗	-11.641
鄖	-11.641
畾	-11.6411
稊	-11.6411
㾕	-11.6411
悷	-11.6411
惏	-11.6411
賖	-11.6412
枒	-11.6412
襹	-11.6412
羗	-11.6412
俙	-11.6412
聱	-11.6412
鬽	-11.6414
謟	-11.6414
胵	-11.6414
瑾	-11.6414
嫣	-11.6414
嶇	-11.6415
脞	-11.6415
駴	-11.6415
釋惠洪詩	-11.6415
醟	-11.6415
蹁	-11.6416
轘	-11.6416
靻	-11.6416
睘	-11.6416
睎	-11.6416
跱	-11.6417
嗼	-11.6417
􁆦	-11.6417
燂	-11.6418
子肖切	-11.6418
緁	-11.6418
挨	-11.6418
求位切	-11.6419
芉	-11.6419
剞	-11.6419
稹	-11.642
屝	-11.642
揬	-11.642
䜌	-11.6421
讞	-11.6421
寄生	-11.6421
跙	-11.6421
尌	-11.6421
柂	-11.6422
丄	-11.6422
憙	-11.6422
􁈱	-11.6422
墐	-11.6423
狶	-11.6424
煉	-11.6424
嬀	-11.6425
踤	-11.6425
摲	-11.6425
抨	-11.6425
麑	-11.6426
泉水	-11.6426
鏐	-11.6426
丶	-11.6426
嵇康	-11.6426
徛	-11.6428
鵂	-11.6428
槾	-11.643
張協七命	-11.643
鼇	-11.643
麒麟	-11.6431
騋	-11.6431
頜	-11.6434
孫根碑	-11.6436
郎刀切	-11.6437
芀	-11.6439
芬芳	-11.6439
也从弓	-11.644
貴賤	-11.644
秬鬯	-11.644
洞庭	-11.6441
獨立	-11.6442
可以染	-11.6446
發語辭	-11.6449
未能	-11.6449
出釋典	-11.6452
桑扈	-11.6459
唐仙	-11.6462
塵起	-11.6463
緑色	-11.6468
又蒸韻	-11.6468
索隠曰	-11.6483
居宜切	-11.649
飛揚	-11.6514
舊蔵作	-11.6523
蜥	-11.6524
鐮	-11.6525
涴	-11.6525
䦧	-11.6527
浟	-11.6529
顤	-11.6529
袢	-11.653
侹	-11.653
䳚	-11.653
竁	-11.6531
鎚	-11.6532
此之謂	-11.6532
䫡	-11.6533
肙	-11.6533
藂	-11.6534
紏	-11.6535
俏	-11.6535
跔	-11.6535
嗷	-11.6535
棨	-11.6536
絏	-11.6536
皛	-11.6536
思邀切	-11.6537
畽	-11.6538
元結	-11.6538
葰	-11.6539
礱	-11.6539
拑	-11.654
澇	-11.654
猜	-11.6541
鷢	-11.6542
鼠名	-11.6542
橚	-11.6542
椓	-11.6542
因以為	-11.6542
紑	-11.6543
紊	-11.6543
神異經	-11.6544
宸	-11.6544
誒	-11.6544
篷	-11.6544
賈山傳	-11.6544
奘	-11.6544
稃	-11.6545
楥	-11.6546
枘	-11.6548
陸德明	-11.6548
湅	-11.6548
桵	-11.6549
又願韻	-11.6549
鸎	-11.6551
忡	-11.6552
郯	-11.6553
胡涓切	-11.6553
簴	-11.6555
詩商頌	-11.6555
扼	-11.6555
尸羊切	-11.6556
之屬二文	-11.6557
倉頡篇	-11.6557
弑	-11.6558
揚雄長楊賦	-11.6559
盧紅切	-11.6562
篠韻	-11.6562
顔師古讀	-11.6562
按即字之譌	-11.6563
也从髟	-11.6563
亡遇切	-11.6566
使民	-11.6567
相遇	-11.6567
楊統	-11.6569
南嶽	-11.6573
分勿切	-11.6573
楊雄	-11.6576
目病	-11.6577
蘇林	-11.6578
於良切	-11.6578
而振切	-11.6582
嶺南	-11.6582
九州之	-11.6583
止忍切	-11.6585
天台	-11.6591
喻三	-11.6595
韓敕	-11.6597
乾隆	-11.6599
骨肉	-11.6605
又琰韻	-11.6612
低頭	-11.6612
丨按說文	-11.6613
禮郊特牲	-11.6614
先結切	-11.6617
乘馬	-11.6617
田獵	-11.6617
蟬屬	-11.6617
百九十	-11.6619
東南入	-11.6627
嵗在	-11.6628
於袁切	-11.6633
土刀切	-11.6638
莫六切	-11.6643
平上為韻	-11.6644
喻四	-11.6648
又月韻	-11.6649
潎	-11.6649
茂盛	-11.6649
傝	-11.6649
􁗷	-11.6649
二十二昔	-11.665
从疒	-11.665
恠	-11.6651
炅	-11.6651
瀲	-11.6651
叴	-11.6651
鈏	-11.6651
婟	-11.6652
崤	-11.6653
堁	-11.6654
鈑	-11.6655
也見博雅	-11.6655
頠	-11.6655
黭	-11.6656
髑髏	-11.6656
娭	-11.6656
骴	-11.6656
齦	-11.6657
檥	-11.6657
秧	-11.6657
僰	-11.6657
捔	-11.6658
菸	-11.6658
翄	-11.6658
煢	-11.6658
孼	-11.6658
恧	-11.6658
噞	-11.6658
粕	-11.6658
虥	-11.6659
雗	-11.6659
吕張切	-11.6659
蚼	-11.666
滃	-11.666
文二重	-11.6661
鴀	-11.6661
蚰	-11.6661
砲	-11.6661
五十里	-11.6661
溔	-11.6661
蛷	-11.6662
偭	-11.6662
邂逅	-11.6663
撾	-11.6664
瞠	-11.6664
柮	-11.6665
枻	-11.6665
䟫	-11.6665
徨	-11.6666
韞	-11.6666
原隰	-11.6666
驘	-11.6666
戩	-11.6666
內	-11.6666
蔡湛	-11.6667
徬	-11.6668
蝃	-11.6668
擒	-11.6668
讇	-11.6668
鳦	-11.6669
昻	-11.6669
馮煥	-11.667
㝛	-11.667
暝	-11.6671
㩜	-11.6671
祖叢切	-11.6671
穂	-11.6673
颮	-11.6673
軜	-11.6673
侌	-11.6674
莊子齊物論	-11.6674
嘿	-11.6674
傅毅舞賦	-11.6675
䴠	-11.6676
式竹切	-11.6676
揃	-11.6676
彼義切	-11.6677
郭究	-11.6677
弋支切	-11.6678
左傳昭元年	-11.6678
壚	-11.6678
而由切	-11.6681
蚩尤	-11.6682
蘇秦	-11.6682
賈逵	-11.6684
司馬遷傳	-11.6684
前漢王莽傳	-11.6687
衣檢切	-11.6687
他典切	-11.6694
生山中	-11.6694
時制切	-11.6695
莫浮切	-11.6696
芍藥	-11.6702
羣飛	-11.6702
隸釋云即	-11.6709
力九切	-11.6709
西伯	-11.671
今據	-11.6713
从艸从	-11.6715
于元切	-11.6726
鋼	-11.6726
直由切	-11.6728
桑蟲	-11.6734
白虎通云	-11.6738
苦骨切	-11.6739
左𫝊	-11.6743
二百九	-11.6745
於六切	-11.6747
氣逆	-11.6748
鍾鼎文	-11.6749
今俗别作	-11.6754
墨子	-11.6755
甫田	-11.6755
徒回切	-11.6756
吊	-11.6758
从屮	-11.6758
州府	-11.6758
山頂	-11.676
䡝	-11.6772
又感韻	-11.6773
懕	-11.6774
痟	-11.6774
蚑	-11.6775
謈	-11.6775
滷	-11.6776
迍	-11.6776
裷	-11.6777
柟	-11.6778
葥	-11.6778
嘄	-11.6778
蜹	-11.6778
十六咍	-11.6778
墼	-11.6779
綟	-11.6779
暀	-11.6779
長丈	-11.6779
旺	-11.678
慵	-11.6781
䜟	-11.6781
讜	-11.6781
圄	-11.6782
雲臺碑	-11.6782
今俗謂	-11.6782
之類从丨俗作	-11.6783
廧	-11.6783
葫	-11.6783
祺	-11.6783
櫑	-11.6783
鉸	-11.6783
羊茹切	-11.6784
抴	-11.6784
惽	-11.6784
着	-11.6784
懰	-11.6785
鎰	-11.6785
惓	-11.6785
籰	-11.6785
辤	-11.6785
嚴助傳	-11.6786
唉	-11.6786
呬	-11.6787
榰	-11.6788
蘇内翰	-11.6788
詨	-11.6788
衡方	-11.6789
熊羆	-11.6789
互用	-11.679
父沸切	-11.679
鼷	-11.6791
犇	-11.6791
蝤蠐	-11.6791
瀕	-11.6792
叅	-11.6792
跳躍	-11.6792
厷	-11.6793
蓱	-11.6793
橇	-11.6793
蚻	-11.6793
蓷	-11.6793
所臻切	-11.6795
壁吉切	-11.6795
涿郡	-11.6796
唐棣	-11.6796
桐柏	-11.6797
訖力切	-11.6797
力讓切	-11.6799
祔	-11.6802
前漢藝文志	-11.6802
鍔	-11.6803
今此字三收於	-11.6804
蒹	-11.6805
冥冥	-11.6808
女媧	-11.6808
也从又持	-11.681
巨支切	-11.6812
諸延切	-11.6815
鳳皇	-11.6818
並此是	-11.682
寛大	-11.6821
許元切	-11.6827
杜若	-11.6829
無味	-11.6829
學記	-11.6831
反正作	-11.6833
崔云	-11.6834
黄補亦作	-11.6834
徒了切	-11.6836
水邊	-11.6837
徒到切	-11.6841
侗謂	-11.6842
廣韻集韻並	-11.6843
從欠	-11.6849
刺史	-11.6857
而已矣	-11.6863
睔	-11.6865
齧人	-11.6871
酒味	-11.6872
个切	-11.6873
重押	-11.6874
去入為韻	-11.6875
瞎	-11.6876
莫敢	-11.6877
普木切	-11.6886
杜子春讀	-11.6892
荵	-11.6896
蠜	-11.6899
匋	-11.69
哂	-11.69
自關而西	-11.69
肪	-11.6901
葐	-11.6902
萭	-11.6902
扄	-11.6903
蓨	-11.6903
鷀	-11.6904
苧	-11.6904
饇	-11.6904
柧	-11.6904
敶	-11.6904
婺	-11.6905
勠	-11.6905
掀	-11.6905
蹌	-11.6905
歗	-11.6905
匀	-11.6906
礴	-11.6907
薢茩	-11.6907
堀	-11.6908
開口呼	-11.6909
䏌	-11.6909
怗	-11.6909
砢	-11.6909
棒	-11.6909
又曷韻	-11.6909
嚏	-11.691
晤	-11.691
螮蝀	-11.691
抶	-11.691
皰	-11.6911
芧	-11.6911
崱	-11.6912
繙	-11.6912
矗	-11.6912
倬	-11.6913
㽘	-11.6913
冏	-11.6913
橤	-11.6914
以諸切	-11.6914
喃	-11.6914
鱦	-11.6914
賻	-11.6915
魚網	-11.6915
杝	-11.6915
味甘	-11.6915
瑛	-11.6915
虩	-11.6916
蝪	-11.6916
匸	-11.6916
䵹鼄	-11.6916
胡桂切	-11.6916
觼	-11.6917
松倫切	-11.6917
稡	-11.6918
糈	-11.6919
箎	-11.692
蹐	-11.692
訽	-11.692
鷗	-11.6921
觿	-11.6921
黶	-11.6921
鵁鶄	-11.6922
幦	-11.6923
鰈	-11.6923
司馬相如子虛賦	-11.6923
鶼	-11.6924
司馬相如大人賦	-11.6924
石介詩	-11.6925
顔氏家訓	-11.6925
徒冬切	-11.6925
鰿	-11.6925
史記秦始皇紀	-11.6927
郭璞註	-11.6927
采色	-11.6928
特計切	-11.6931
朱氏曰	-11.6933
地名又姓	-11.6933
丨按即	-11.6933
之類皆從	-11.6934
詳見毛詩古音攷	-11.6935
古慕切	-11.6936
赬	-11.6938
竹索	-11.6939
掘地	-11.6959
孺子	-11.6967
并州	-11.6968
孫根	-11.6969
黠韻	-11.6969
曾孫	-11.6975
西番	-11.6979
徒果切	-11.6985
先君	-11.6988
卅卅	-11.699
竹席	-11.699
比干	-11.699
帝堯碑	-11.6997
通鑑	-11.6997
从土从	-11.6997
徒官切	-11.7004
媱	-11.7016
北極	-11.7016
久雨	-11.7017
虞書曰	-11.7017
鄭樵	-11.7019
䜋	-11.702
蒼蒼	-11.7022
螇	-11.7023
酥	-11.7023
攤	-11.7024
笪	-11.7024
太歳在	-11.7025
徒合切	-11.7025
竣	-11.7025
貘	-11.7026
餕	-11.7026
嘅	-11.7026
䙔	-11.7026
痗	-11.7028
㳂	-11.7028
配合	-11.7028
抓	-11.703
擷	-11.703
蝜	-11.703
䰍	-11.703
堄	-11.703
龡	-11.7031
繖	-11.7031
鞉	-11.7031
苺	-11.7032
矻	-11.7032
于救切	-11.7033
孥	-11.7033
􁉷	-11.7034
凹	-11.7034
檣	-11.7034
律厯志	-11.7034
麷	-11.7034
菭	-11.7034
毗至切	-11.7034
畷	-11.7035
蚖	-11.7035
籃	-11.7035
桑經切	-11.7035
醨	-11.7035
葯	-11.7035
淬	-11.7035
珊	-11.7036
臏	-11.7036
平祕切	-11.7037
頋	-11.7037
後魏置	-11.7038
疢	-11.7038
鵂鶹	-11.7038
飮	-11.7039
蓂	-11.7039
嫠	-11.7039
洊	-11.7039
楝	-11.704
譣	-11.704
憊	-11.704
惱	-11.7041
篩	-11.7041
弋笑切	-11.7042
晛	-11.7043
式荏切	-11.7044
鳯凰	-11.7045
簇	-11.7045
陟栗切	-11.7045
朱子曰	-11.7045
坯	-11.7045
一稃二米	-11.7046
史記楚世家	-11.7046
㤅	-11.7046
夃	-11.7046
卹	-11.7049
餠	-11.7049
李廣傳	-11.705
普活切	-11.705
香艸	-11.7051
亭年切	-11.7051
部九畫	-11.7052
俊乂	-11.7056
鵩	-11.7056
史記律書	-11.7057
王伐切	-11.7057
漢書藝文志	-11.7057
居何切	-11.7058
瀛	-11.7059
俯仰	-11.706
敷容切	-11.7061
韻韻㑹正韻	-11.7065
居御切	-11.7066
青黒色	-11.7068
豹文	-11.7068
偃蹇	-11.707
京房	-11.7071
昌石切	-11.7073
李廵云	-11.7077
碑式云	-11.708
補遺首	-11.7082
少康	-11.7084
遥反	-11.7085
二沃	-11.7086
皮膚	-11.7093
鳯皇	-11.7095
合為一	-11.7099
猶豫	-11.7101
郭璞讀	-11.7103
古樂府	-11.7105
草木華	-11.711
古老切	-11.7111
注書曰	-11.7123
吳人謂	-11.7134
髿	-11.7147
屼	-11.7148
山名文一	-11.7148
徐曰㑹意	-11.715
􁃎	-11.7154
冎	-11.7154
執事	-11.7154
瓘	-11.7155
儌	-11.7155
巀	-11.7155
皭	-11.7155
噂	-11.7155
箔	-11.7155
蠚	-11.7156
詗	-11.7157
坌	-11.7158
醵	-11.7159
岏	-11.7159
㸚	-11.7159
辮	-11.716
饊	-11.716
憩	-11.716
獝	-11.716
咻	-11.7161
蚣	-11.7161
叒	-11.7161
缸	-11.7162
嚚	-11.7162
璠	-11.7162
堛	-11.7162
徤	-11.7163
剿	-11.7163
襺	-11.7163
佾	-11.7163
眛	-11.7164
遨	-11.7164
綯	-11.7164
沈重讀	-11.7164
水激	-11.7164
儠	-11.7165
酎	-11.7166
橿	-11.7166
蟾蜍	-11.7166
狌	-11.7166
笋	-11.7167
䤅	-11.7167
慴	-11.7168
漢髙紀	-11.7168
沭	-11.7168
乇	-11.7168
驃	-11.7169
瘃	-11.7169
畹	-11.7169
硌	-11.7169
濈	-11.717
稴	-11.7171
律歴志	-11.7171
積柴	-11.7172
臼許切	-11.7172
獼猴	-11.7173
椌	-11.7173
童謡	-11.7173
瞭	-11.7173
蒼梧	-11.7174
臟	-11.7175
淠	-11.7175
羍	-11.7175
後漢郡國志	-11.7175
振振	-11.7176
檽	-11.7176
鯽	-11.7177
摵	-11.7177
喈喈	-11.7177
所綺切	-11.7178
魚羈切	-11.7178
見考工記	-11.718
越絶書	-11.718
索隠	-11.7181
胹	-11.7182
薫	-11.7183
都念切	-11.7186
字之誤	-11.7187
從虫	-11.7187
張掖	-11.719
宛轉	-11.7192
眸子	-11.7192
息利切	-11.7195
果實	-11.7197
逆各切	-11.7199
忠信	-11.7202
从囗	-11.7211
門屏	-11.7218
二十一年	-11.7218
北狄	-11.722
孔宙	-11.7222
直利切	-11.7223
皮弁	-11.7223
目深	-11.7227
苦禾切	-11.7238
之若切	-11.7245
孔安國曰	-11.7248
行遲	-11.7251
㑹正韻	-11.7257
惷	-11.7266
又僊韻	-11.7268
輹	-11.727
襁	-11.7272
釋曰案	-11.7272
䥫	-11.7276
晜	-11.7277
漾韻	-11.7277
鮌	-11.7281
古雙切	-11.7281
楄	-11.7283
从瓦	-11.7284
悋	-11.7285
渦	-11.7285
楊統碑	-11.7285
殹	-11.7285
蟦	-11.7286
沆瀣	-11.7286
翽	-11.7287
鷊	-11.7287
砭	-11.7287
懠	-11.7287
􁄨	-11.7288
裎	-11.7289
蝚	-11.7289
硩	-11.7289
姺	-11.7289
傋	-11.7289
刌	-11.729
亐	-11.729
芛	-11.729
髽	-11.729
椏	-11.7291
嘒	-11.7291
熛	-11.7291
陲	-11.7291
棬	-11.7291
崿	-11.7291
頲	-11.7292
脢	-11.7292
縓	-11.7292
姸	-11.7292
嶞	-11.7293
醰	-11.7293
緆	-11.7293
㺑	-11.7293
躊躇	-11.7293
梠	-11.7294
鄜	-11.7294
歍	-11.7294
無販切	-11.7295
膮	-11.7295
㡿	-11.7295
嫫	-11.7295
媢	-11.7296
慷	-11.7296
痁	-11.7296
翯	-11.7296
礎	-11.7296
侏	-11.7296
暴風	-11.7296
㓞	-11.7296
郙閣	-11.7297
嘽嘽	-11.7297
胅	-11.7297
景帝	-11.7298
腠	-11.7298
抪	-11.7299
輊	-11.7299
韘	-11.7299
䞓	-11.7299
潞	-11.73
蔘	-11.73
岩	-11.73
燉煌	-11.73
敊	-11.7301
􁞅	-11.7301
緱	-11.7301
薚	-11.7302
觽	-11.7302
騮	-11.7302
慿	-11.7303
耼	-11.7303
錚	-11.7303
㴱	-11.7303
郪	-11.7304
韗	-11.7305
檼	-11.7306
橧	-11.7308
巤	-11.7308
酉陽雜俎	-11.7308
七接切	-11.7309
乾肉	-11.7311
前漢郊祀志	-11.7312
淮夷	-11.7312
宷	-11.7312
又冬韻	-11.7312
羜	-11.7313
无妄	-11.7313
十二齊	-11.7316
蓆	-11.7317
文三重音二	-11.732
又宵韻	-11.7321
唐李	-11.7321
觀乎	-11.7323
吳楚	-11.7325
百官志	-11.7326
奴刀切	-11.7329
諸盈切	-11.7331
飄風	-11.7334
釋詁	-11.7338
韻𥙷	-11.7348
與説文同從	-11.7355
亦州名又姓	-11.736
暴雨	-11.7363
夜半	-11.7364
魚巾切	-11.7367
隷省作	-11.7368
屏風	-11.7373
昭明	-11.7375
胡感切	-11.7375
縣西南	-11.7381
蜀志	-11.7381
武梁	-11.7382
酒泉	-11.7393
从斤	-11.7397
八十一	-11.7398
从冂	-11.7404
亅	-11.7407
氍	-11.7411
繐	-11.7413
濥	-11.7414
袾	-11.7414
塺	-11.7414
妗	-11.7415
挻	-11.7415
㠑	-11.7417
嘍	-11.7418
蚰蜒	-11.7418
蠀	-11.7418
鐐	-11.7418
琖	-11.7419
跰	-11.7419
驀	-11.7419
誩	-11.7419
呶	-11.7419
愮	-11.742
毣	-11.742
栟櫚	-11.7421
妘	-11.7421
虉	-11.7421
笯	-11.7421
闖	-11.7421
坋	-11.7422
覦	-11.7422
螉	-11.7423
从竹从	-11.7423
渟	-11.7423
獮韻	-11.7423
髢	-11.7423
種類	-11.7424
眎	-11.7425
勩	-11.7425
鼢	-11.7425
啚	-11.7425
悒	-11.7425
仳	-11.7425
扢	-11.7425
覂	-11.7426
胳	-11.7426
獀	-11.7426
㐬	-11.7427
蒚	-11.7427
綣	-11.7427
蜙蝑	-11.7428
眵	-11.7428
擺	-11.7428
鴡	-11.7429
犎	-11.7429
鴝鵒	-11.7429
胏	-11.7429
窴	-11.743
鄄	-11.743
鶌	-11.743
襳	-11.743
唪	-11.743
錟	-11.743
頵	-11.743
廑	-11.743
搣	-11.7431
鈒	-11.7431
檡	-11.7431
轝	-11.7432
睍	-11.7432
墣	-11.7432
㤗	-11.7432
鷦鷯	-11.7433
麈	-11.7433
浞	-11.7433
黷	-11.7434
韣	-11.7434
馮衍顯志賦	-11.7435
息淺切	-11.7435
默	-11.7435
騭	-11.7436
槨	-11.7437
雲雨	-11.7437
謝惠連	-11.7437
津私切	-11.7437
魾	-11.7437
厮	-11.7437
娣姒	-11.7438
芐	-11.744
十遇	-11.744
霜雪	-11.7441
彭彭	-11.7441
纆	-11.7441
靈樞經	-11.7441
厽	-11.7441
今㠯爲	-11.7441
从豸	-11.7442
陸佃曰	-11.7443
側革切	-11.7444
文正公	-11.7448
良脂切	-11.7449
大透切	-11.7449
春官	-11.7451
觡	-11.7451
虎爪	-11.7455
遷延	-11.7458
太宰	-11.7462
線韻	-11.7462
陳知切	-11.7465
杜子春	-11.7467
李善註	-11.7478
徒含切	-11.748
十五青	-11.7482
漢書天文志	-11.7482
方言南楚	-11.7487
从血	-11.749
善惡	-11.7496
空谷	-11.75
丨義作	-11.7505
沛郡	-11.7508
少府	-11.7514
釋按說	-11.7524
不肯	-11.7528
揠	-11.7536
䔿	-11.7541
徉	-11.7542
與説文同	-11.7543
驙	-11.7544
諗	-11.7545
朻	-11.7549
罘罳	-11.755
褧	-11.755
緺	-11.755
轛	-11.755
瓏	-11.755
籮	-11.755
玭	-11.7551
縒	-11.7551
跧	-11.7551
櫱	-11.7551
纈	-11.7551
涗	-11.7552
氤	-11.7552
艼	-11.7553
鵃	-11.7553
諞	-11.7554
䔰	-11.7554
齘	-11.7554
鞻	-11.7554
紝	-11.7554
緰	-11.7555
賙	-11.7555
樿	-11.7555
壖	-11.7555
倜	-11.7555
諉	-11.7555
曇	-11.7556
毼	-11.7557
古今人表	-11.7557
溘	-11.7558
杗	-11.7558
籧	-11.7558
廣陵	-11.7558
嶃	-11.7559
鸙	-11.7559
眯	-11.7559
顄	-11.756
閟	-11.7561
灊	-11.7561
戣	-11.7561
離珍切	-11.7561
朌	-11.7561
掞	-11.7562
暆	-11.7562
䂓	-11.7562
筤	-11.7563
僜	-11.7563
輂	-11.7563
自闗而西	-11.7563
蔔	-11.7563
絣	-11.7563
柯開切	-11.7564
淊	-11.7564
渜	-11.7564
攺	-11.7564
阽	-11.7564
闕人名春秋傳	-11.7565
衱	-11.7565
惢	-11.7565
丯	-11.7565
凸	-11.7566
檍	-11.7567
職方氏	-11.7567
史記河渠書	-11.7567
郜	-11.7567
䝐	-11.7568
櫋	-11.7568
􁄮	-11.7568
壹計切	-11.7569
沐浴	-11.757
餗	-11.757
从㫃	-11.7571
侏儒	-11.7571
渠追切	-11.7571
􁜜	-11.7572
普半切	-11.7572
慕容	-11.7573
訖岳切	-11.7574
樴	-11.7574
少昊	-11.7575
苨	-11.7576
鶾	-11.7576
又諄韻	-11.7577
鱏	-11.7577
另	-11.7577
酷吏傳	-11.758
伊鳥切	-11.7581
力珍切	-11.7582
力鹽切	-11.7583
醴泉	-11.7584
前漢東方朔傳	-11.7585
巨禁切	-11.7588
獸名山海經	-11.7591
古送切	-11.7594
老稱	-11.7597
何葛切	-11.7599
側角切	-11.7601
楊厥	-11.7609
西嶽	-11.7612
葷菜	-11.7613
古洽切	-11.7614
終軍	-11.7616
太后	-11.7617
與職切	-11.7618
陶器	-11.7619
僞切	-11.7625
滋味	-11.7626
又笑韻	-11.7637
游龍	-11.7649
苦菜	-11.7654
濜	-11.7668
第四十	-11.7675
体	-11.7677
惹	-11.7678
㲋	-11.7678
魏武帝	-11.768
杸	-11.7681
鼻息	-11.7682
焜	-11.7682
茮	-11.7682
琲	-11.7682
慓	-11.7682
襜褕	-11.7684
袽	-11.7684
奼	-11.7685
鬤	-11.7685
捌	-11.7685
頄	-11.7685
漢隷	-11.7686
蒢	-11.7686
惺	-11.7686
茬	-11.7687
鷜	-11.7687
戭	-11.7688
抎	-11.7688
㒼	-11.7688
㝅	-11.7688
覔	-11.7688
躠	-11.7688
眔	-11.7689
烰	-11.7689
畼	-11.769
稭	-11.7691
輘	-11.7691
鶝	-11.7691
摟	-11.7691
痀	-11.7692
鄯	-11.7692
錏	-11.7692
䫉	-11.7692
㓂	-11.7693
搊	-11.7693
栵	-11.7693
扳	-11.7693
髃	-11.7693
欶	-11.7694
鼩	-11.7694
趢	-11.7695
鯷	-11.7695
許訖切	-11.7696
蒲眠切	-11.7696
躒	-11.7696
篦	-11.7696
􁍓	-11.7697
茂貌	-11.7697
扡	-11.7697
娀	-11.7697
嫭	-11.7697
禖	-11.7697
古音叢目	-11.7698
鞸	-11.7698
㺒	-11.7699
醪	-11.7699
㴑	-11.7699
遻	-11.77
麢	-11.77
欂櫨	-11.7701
寂寞	-11.7702
牏	-11.7702
公渾切	-11.7703
谷永傳	-11.7703
燃	-11.7704
媪	-11.7704
之屬二文之注	-11.7706
鑮	-11.7706
樀	-11.7706
角次濁音	-11.7706
濰	-11.7707
礉	-11.7708
商次清音	-11.7708
枚乗七發	-11.7709
之龤聲	-11.7709
熠燿	-11.7709
十六屑	-11.7709
竇憲	-11.7709
阮籍	-11.771
巫咸	-11.7711
老子道徳經	-11.7711
陟格切	-11.7711
文二重一	-11.7712
六書本義	-11.7717
左馮翊	-11.7717
無非切	-11.7718
礪石	-11.772
漁父	-11.7722
千秋	-11.7725
徒何切	-11.7733
力丁切	-11.7733
珠玉	-11.7734
女加切	-11.7737
莫葛切	-11.7739
武方切	-11.7743
都果切	-11.7746
正字通字之譌	-11.7747
宗室	-11.7755
字從此	-11.7763
竹萌	-11.7766
百卄	-11.777
巨列切	-11.7772
牛何切	-11.7785
耕田	-11.7793
五㫖	-11.781
也釋曰謂	-11.7812
楚大夫	-11.7813
孨	-11.7813
忨	-11.7814
㔻	-11.7815
校官	-11.7816
蝍	-11.7816
磻	-11.7818
梭	-11.7818
蟥	-11.7819
煗	-11.782
䄶	-11.782
蒲故切	-11.7821
拮	-11.7821
䘿	-11.7821
繽	-11.7822
㡗	-11.7823
沙門	-11.7824
燹	-11.7824
陭	-11.7824
凢	-11.7824
蚢	-11.7825
蕛	-11.7825
膈	-11.7825
栺	-11.7825
逷	-11.7826
糶	-11.7826
昶	-11.7827
梫	-11.7827
鼛	-11.7827
焰	-11.7827
髭	-11.7827
筯	-11.7828
豤	-11.7828
頮	-11.7828
䠧	-11.7829
昱	-11.783
覛	-11.783
衃	-11.783
瀋	-11.783
滄浪	-11.783
絪	-11.7831
醹	-11.7831
鱟	-11.7831
瀟	-11.7831
五嶽	-11.7832
樣	-11.7832
腝	-11.7833
鄹	-11.7833
莭	-11.7833
張公神碑	-11.7833
唬	-11.7833
凊	-11.7834
僆	-11.7834
儂	-11.7834
塈	-11.7835
輨	-11.7836
瑙	-11.7836
紕招切	-11.7837
嗅	-11.7837
崪	-11.7837
躳	-11.7838
朒	-11.7838
篁	-11.7839
隥	-11.7839
尚書大傳	-11.7839
霍去病傳	-11.7839
轙	-11.7839
帯	-11.784
溽	-11.7841
翡翠	-11.7841
檮杌	-11.7841
澨	-11.7841
古史考	-11.7842
碁	-11.7842
渠焉切	-11.7843
胑	-11.7844
閈	-11.7845
茖	-11.7845
陟革切	-11.7845
魯猥切	-11.7845
莫故切	-11.7846
乀	-11.7846
軒轅	-11.7846
胡化切	-11.7847
煌煌	-11.7847
史記樂書	-11.7847
騵	-11.7848
北征頌	-11.7848
奡	-11.7849
螓	-11.7849
馮無切	-11.7854
郎到切	-11.7857
又徑韻	-11.7858
積聚	-11.7859
巴蜀	-11.786
長八尺	-11.786
禮記玉藻	-11.7871
女六切	-11.7877
末各切	-11.7879
角次清音説文	-11.7881
註索隱曰	-11.7883
反下同	-11.7887
淮陽	-11.7889
功徳	-11.789
此芮切	-11.7896
九辯	-11.7913
其月切	-11.7915
因名云	-11.7916
从匚	-11.7925
不遑	-11.7936
肉醬	-11.794
又錫韻	-11.794
子余切	-11.7943
􁞂	-11.7948
潒	-11.7948
裴光逺	-11.7949
袺	-11.795
飰	-11.7951
癢	-11.7955
嗺	-11.7956
祡	-11.7957
鴚	-11.7959
髂	-11.796
斨	-11.796
姡	-11.796
劼	-11.7961
莚	-11.7961
櫽	-11.7961
臷	-11.7961
黛	-11.7962
氍毹	-11.7962
昒	-11.7962
㱡	-11.7962
棰	-11.7963
撏	-11.7963
晉灼	-11.7963
蛈	-11.7963
逑	-11.7963
苡	-11.7964
妠	-11.7964
混沌	-11.7965
萄	-11.7965
氄	-11.7965
异	-11.7965
㓗	-11.7966
膋	-11.7966
釱	-11.7966
娙	-11.7967
嬙	-11.7967
灩	-11.7967
甶	-11.7967
顐	-11.7967
㗊	-11.7967
橠	-11.7967
疼	-11.7967
戁	-11.7968
磥	-11.7968
鏁	-11.7968
墺	-11.7968
鰂	-11.797
十一薺	-11.797
蠩	-11.797
稲	-11.797
㛍	-11.7971
鞀	-11.7971
鍬	-11.7971
緦	-11.7971
肬	-11.7971
邡	-11.7971
菙	-11.7972
觩	-11.7972
瀸	-11.7972
釳	-11.7972
罛	-11.7973
帢	-11.7973
塍	-11.7973
匄	-11.7973
湣	-11.7974
攡	-11.7974
鏜	-11.7975
仔	-11.7975
􁃰	-11.7976
覧	-11.7976
斟酌	-11.7976
䭈	-11.7976
鸑鷟	-11.7976
薞	-11.7976
軶	-11.7977
蕆	-11.7977
輿服志	-11.7977
嵏	-11.7977
寑	-11.7978
獳	-11.7978
钀	-11.7978
鳴自呼	-11.7978
蘴	-11.7978
鄞	-11.7979
􁄭	-11.7979
扐	-11.7979
矕	-11.7979
闥各切	-11.798
直祐切	-11.798
訹	-11.7981
酈食其	-11.7981
珙	-11.7982
覇	-11.7982
霍山	-11.7983
牾	-11.7983
七賜切	-11.7983
左傳宣十二年	-11.7983
梬	-11.7984
猩猩	-11.7984
㡛	-11.7985
桎梏	-11.7985
薜荔	-11.7985
車釭	-11.7986
嵇康琴賦	-11.7987
玆	-11.7989
李賀詩	-11.7989
如之何	-11.799
淮南子原道訓	-11.7992
子賤切	-11.7993
搜真玉鏡同	-11.7993
十二霽	-11.7994
讐	-11.7996
之字或譌從	-11.7999
碣石	-11.8
爾雅釋水	-11.8
下革切	-11.8003
杬	-11.8006
乙角切	-11.8006
脂膏	-11.8009
僕射	-11.8015
古字通	-11.8015
二百六	-11.8015
牲體	-11.802
黒黍	-11.8026
管仲	-11.8026
者皆然	-11.8044
恭敬	-11.8052
海篇同	-11.8061
袁良	-11.8066
又未韻	-11.8068
特立	-11.8069
腨	-11.8091
瘛	-11.8091
繩索	-11.8095
麦	-11.8095
俇	-11.8097
秏	-11.8098
餹	-11.8099
繟	-11.8099
羴	-11.8099
琇	-11.8099
䛁	-11.8102
齩	-11.8102
齬	-11.8104
謜	-11.8104
弮	-11.8105
涏	-11.8105
銕	-11.8105
矮	-11.8106
㕦	-11.8106
􁖫	-11.8106
鋙	-11.8106
篅	-11.8106
痡	-11.8107
茿	-11.8107
匭	-11.8107
瘐	-11.8107
悱	-11.8107
痞	-11.8107
炯	-11.8108
弢	-11.8108
蜲	-11.8108
失冉切	-11.8108
枏	-11.8109
獬	-11.8109
韔	-11.8109
顰	-11.811
鶿	-11.811
眭	-11.811
芎藭	-11.811
營隻切	-11.811
元命包	-11.8111
倘	-11.8111
蠛蠓	-11.8111
塏	-11.8111
鑴	-11.8111
虴	-11.8112
糳	-11.8112
萩	-11.8112
羽翼	-11.8112
蜈蚣	-11.8112
谸	-11.8112
䑓	-11.8113
皪	-11.8113
毛萇	-11.8113
趫	-11.8113
尹竦切	-11.8113
毿	-11.8113
鵒	-11.8114
躩	-11.8114
紓	-11.8114
弣	-11.8114
寕	-11.8114
鋏	-11.8114
􁎦	-11.8114
泬	-11.8115
筆迹小異	-11.8115
湃	-11.8115
不可兩押	-11.8115
婁夀碑	-11.8115
儁	-11.8115
欱	-11.8115
㲨	-11.8115
岵	-11.8115
狢	-11.8116
瞬	-11.8116
覭	-11.8117
募	-11.8117
糊	-11.8117
瘼	-11.8118
杜奚切	-11.8118
眉貧切	-11.8118
懮	-11.8119
寠	-11.8119
宧	-11.8119
牿	-11.812
祏	-11.812
罨	-11.8121
逵員切	-11.8121
翡	-11.8121
鱐	-11.8121
瞂	-11.8122
胚	-11.8123
倉頡	-11.8124
滑稽	-11.8124
夨	-11.8124
狡兔	-11.8124
疉	-11.8125
璲	-11.8125
拾遺記	-11.8126
禮儒行	-11.8126
甽	-11.8126
庉	-11.8127
呉都賦	-11.8129
所景切	-11.813
禮明堂位	-11.8134
南都賦	-11.8135
宣帝紀	-11.8135
螽斯	-11.8136
庾信	-11.8138
敷文切	-11.8146
部苐二百	-11.8147
防無切	-11.815
魚鼈	-11.8153
元俱切	-11.8154
張流切	-11.8156
斤於切	-11.8156
禮祭義	-11.8162
諸氏切	-11.819
次序	-11.8199
又腫韻	-11.8211
又姓古作	-11.8218
孫之子	-11.8225
崔希裕	-11.8231
食列切	-11.8231
此章以平上通為一韻	-11.8232
縜	-11.8235
瑊	-11.8237
詉	-11.8237
糂	-11.8237
似鳬	-11.8238
惎	-11.8238
褆	-11.8239
䦱	-11.8241
謘	-11.8241
蚗	-11.8242
欐	-11.8242
繣	-11.8242
媕	-11.8243
齖	-11.8243
也從辵	-11.8244
瞏	-11.8244
謻	-11.8245
髆	-11.8245
蒘	-11.8245
蒡	-11.8246
並上俗下正	-11.8246
舚	-11.8247
刉	-11.8247
嗸	-11.8248
鈆	-11.8248
蠐螬	-11.8248
瓌	-11.8248
瞪	-11.8248
岯	-11.8248
駃	-11.8249
佷	-11.8249
鍱	-11.8249
痍	-11.8249
鞎	-11.8249
庥	-11.825
並上通下正	-11.825
昄	-11.8251
蒲侯切	-11.8251
尺尹切	-11.8251
鶗	-11.8251
啙	-11.8251
戺	-11.8252
纕	-11.8252
鍦	-11.8252
艎	-11.8253
螝	-11.8253
篔	-11.8253
枇	-11.8253
騏驥	-11.8253
慸	-11.8254
杕	-11.8254
韤	-11.8254
莕	-11.8254
韅	-11.8254
隿	-11.8255
嫖	-11.8255
寁	-11.8255
㩻	-11.8256
魃	-11.8256
莔	-11.8256
菨	-11.8256
鼪	-11.8257
匾	-11.8257
愊	-11.8257
徥	-11.8257
翹翹	-11.8257
山有獸狀如	-11.8257
􁑅	-11.8257
蛩蛩	-11.8258
欃	-11.8258
狺	-11.8258
司馬遷	-11.8258
竑	-11.8259
鮥	-11.8259
緤	-11.8259
劂	-11.8259
憜	-11.8259
蘇遭切	-11.826
瘯	-11.826
槊	-11.826
㐲	-11.8261
䧢	-11.8261
劘	-11.8262
解廌	-11.8262
􁂙	-11.8262
牷	-11.8262
靿	-11.8262
闒	-11.8263
澎	-11.8263
磅	-11.8264
二十五寒	-11.8265
郎甸切	-11.8265
霍光傳	-11.8265
十七薛	-11.8266
狭	-11.8266
偝	-11.8266
殊倫切	-11.8271
胡結切	-11.8271
說文長箋	-11.8271
東南隅	-11.8271
後漢輿服志	-11.8272
讖	-11.8272
苦角切	-11.8275
春秋左氏傳	-11.8275
榖梁	-11.8276
因以為氏	-11.8276
湯湯	-11.8278
浮屠	-11.8282
典禮切	-11.8283
徐心切	-11.8285
南楚謂之	-11.8297
莫駕切	-11.8298
白鷺	-11.8302
衣袖	-11.8303
韓信	-11.8304
小學類	-11.8304
乎刀切	-11.8305
字原云在	-11.832
魯水切	-11.832
聰明	-11.8343
疾各切	-11.8347
縣从邑	-11.835
鬪	-11.8376
娧	-11.8377
硝	-11.8378
痑	-11.8379
幾何	-11.838
泧	-11.8385
禸	-11.8386
滭	-11.8386
猭	-11.8386
僁	-11.8386
也从酒省	-11.8387
崴	-11.8387
石之次玉者	-11.8388
埻	-11.8388
奊	-11.8389
髖	-11.8389
誙	-11.8389
胡慣切	-11.8389
轗軻	-11.839
渤	-11.839
騬	-11.8391
硉	-11.8392
居言切	-11.8393
李商隱	-11.8393
寨	-11.8393
誾	-11.8393
余招切	-11.8394
墓道	-11.8394
庿	-11.8394
迒	-11.8396
同用今仍作	-11.8396
攏	-11.8396
蟘	-11.8397
螼	-11.8397
漓	-11.8398
悇	-11.8398
􁀅	-11.8398
㕣	-11.8399
剭	-11.8399
嘬	-11.8399
襂	-11.8399
鐲	-11.84
靘	-11.84
輷	-11.84
禊	-11.84
鶊	-11.84
畞	-11.84
􁛟	-11.84
潺	-11.84
􁖨	-11.84
启	-11.8401
漶	-11.8401
楖	-11.8401
怍	-11.8401
虣	-11.8401
踳	-11.8402
璉	-11.8402
欻	-11.8402
秒	-11.8402
弸	-11.8402
寽	-11.8403
仍吏切	-11.8403
菥	-11.8403
襛	-11.8404
婕妤	-11.8404
王禹偁詩	-11.8404
鶨	-11.8404
詫	-11.8405
峘	-11.8405
笘	-11.8406
磯	-11.8407
景北海碑隂	-11.8407
瘰	-11.8407
王褒洞簫賦	-11.8407
又韻𥙷叶	-11.8407
武粉切	-11.8409
磴	-11.8409
嫩	-11.8409
稼穡	-11.8409
洪武正韻	-11.8409
敷救切	-11.8409
幎	-11.841
雖遂切	-11.841
閟宫	-11.8411
獅	-11.8411
孔叢子	-11.8412
士喪禮	-11.8412
噬嗑	-11.8412
鋄	-11.8413
両	-11.8414
抃	-11.8415
䵷	-11.8416
逶迤	-11.8416
諸侯王表	-11.8416
縦	-11.8419
美好貌	-11.8419
刻鏤	-11.842
急疾	-11.8422
竀	-11.8422
畿内	-11.8425
蒲光切	-11.8425
屈伸	-11.8428
歴各切	-11.8429
旻天	-11.8433
虎賁	-11.8437
帥師	-11.8438
羽俱切	-11.8441
雲際	-11.8441
羊至切	-11.8441
他弔切	-11.8444
鼓吹	-11.8445
元帝紀	-11.8446
因以為名	-11.8453
前相如賦	-11.8455
視也从目	-11.8457
胡沃切	-11.8457
羽清音説文	-11.8462
釋曰皆謂	-11.8466
諸容切	-11.8471
鳥喙	-11.8484
金銀	-11.8501
似熊	-11.851
字統云	-11.852
痢	-11.852
䫴	-11.8529
襭	-11.853
怓	-11.853
鴹	-11.8532
悻	-11.8532
下老切	-11.8532
麵	-11.8535
㕞	-11.8535
憫	-11.8536
齂	-11.8536
僔	-11.8538
憀	-11.8538
蜯	-11.8538
艑	-11.8538
盉	-11.8539
喈	-11.8539
轚	-11.8539
繴	-11.8541
儡	-11.8541
㷠	-11.8541
轤	-11.8542
跫	-11.8542
澘	-11.8543
繶	-11.8543
胗	-11.8543
捈	-11.8543
簉	-11.8543
􁄍	-11.8543
蛜	-11.8544
鬒	-11.8544
㮰	-11.8544
尺制切	-11.8544
褓	-11.8545
敉	-11.8545
􁍩	-11.8546
鼀	-11.8546
朘	-11.8546
僷	-11.8547
膬	-11.8547
蓰	-11.8547
蜻蛚	-11.8547
縲	-11.8548
壄	-11.8548
剏	-11.8548
㞕	-11.8549
迣	-11.8549
秝	-11.8549
牂牁	-11.8549
庀	-11.855
㠭	-11.855
輗	-11.855
介蟲	-11.855
繂	-11.8551
彷彿	-11.8551
瘻	-11.8552
漢侯國名	-11.8552
驈	-11.8552
房越切	-11.8552
小兒啼	-11.8553
日月星辰	-11.8554
䑛	-11.8554
簙	-11.8554
弋質切	-11.8555
齊人呼	-11.8555
洹	-11.8555
顋	-11.8556
墁	-11.8556
鈿	-11.8556
堮	-11.8557
王吉傳	-11.8557
礨	-11.8557
鄕	-11.8557
漘	-11.8558
揚雄蜀都賦	-11.8558
霎	-11.8558
萇楚	-11.8558
女九切	-11.8559
箏	-11.856
矛柄	-11.8561
括地志	-11.8562
歐陽氏曰	-11.8562
微夫切	-11.8562
麆	-11.8563
禿	-11.8563
颶	-11.8564
螣蛇	-11.8566
秦昔切	-11.8568
桃李	-11.8571
許叔重	-11.8573
古巷切	-11.8573
方矩切	-11.8576
將帥	-11.8576
所晏切	-11.8577
古狎切	-11.8577
宮室	-11.858
青蠅	-11.8588
戚施	-11.859
徒典切	-11.8594
說苑	-11.8601
又諫韻	-11.8601
徒沃切	-11.8604
方未切	-11.8612
碑碑碑碑	-11.8616
采采	-11.8627
谷名在	-11.863
胡老切	-11.863
息六切	-11.8632
陳如切	-11.8632
送死	-11.8634
道藝	-11.8657
章章六句	-11.8668
躟	-11.8673
兗州	-11.8673
憝	-11.8677
後人因	-11.8679
顡	-11.8679
捖	-11.8681
顈	-11.8682
血祭	-11.8682
鷒	-11.8683
嵽	-11.8684
焠	-11.8684
樻	-11.8685
舽	-11.8685
裧	-11.8686
峴	-11.8686
裋	-11.8687
廝	-11.8687
㪍	-11.8688
砠	-11.8689
趗	-11.8689
丼	-11.869
湜	-11.8691
㤿	-11.8691
搓	-11.8691
樲	-11.8691
㐁	-11.8692
梂	-11.8693
渌	-11.8693
崝	-11.8693
堥	-11.8693
毸	-11.8693
㝢	-11.8693
鵖	-11.8694
糺	-11.8694
倛	-11.8694
窀	-11.8694
型	-11.8695
嵐	-11.8695
鶹	-11.8695
槲	-11.8695
慫	-11.8695
葝	-11.8696
拲	-11.8696
碡	-11.8697
値	-11.8697
襤	-11.8697
吽	-11.8697
装	-11.8697
肉也从肉	-11.8697
疾郢切	-11.8698
瓤	-11.8699
畸	-11.8699
鴦	-11.8699
咊	-11.8699
􁈀	-11.87
徒濫切	-11.87
赩	-11.87
籭	-11.87
岣嶁	-11.87
媌	-11.87
瑀	-11.87
裻	-11.87
佩觿	-11.87
靨	-11.8701
韐	-11.8701
嫛	-11.8701
􁄎	-11.8702
乑	-11.8702
彣	-11.8702
萉	-11.8702
鼐	-11.8702
屺	-11.8703
栞	-11.8703
媲	-11.8703
史記周本紀	-11.8703
堅堯切	-11.8704
柹	-11.8704
荈	-11.8705
或不省	-11.8705
剉	-11.8705
侐	-11.8705
殀	-11.8706
煽	-11.8706
音韻闡微	-11.8707
十六怪	-11.8708
汝朱切	-11.8708
怦	-11.871
楂	-11.871
酃	-11.871
琥	-11.871
栒	-11.8711
史記趙世家	-11.8711
奚結切	-11.8714
萐	-11.8715
儀禮聘禮	-11.8717
毁齒	-11.8718
蛟龍	-11.8719
㦯	-11.8721
馮衍	-11.8722
側吏切	-11.8724
引之則凡	-11.8725
之爲言	-11.8728
刀劒	-11.873
筆迹小異亦作	-11.8734
部三畫	-11.8735
古文尚書作	-11.8738
之異名也	-11.8738
禮禮器	-11.8741
欽定四庫全書經部十	-11.8741
烏瓜切	-11.8743
他干切	-11.8751
蘇故切	-11.8755
居寒切	-11.8758
徒協切	-11.8764
莫後切	-11.8764
當口切	-11.8767
都計切	-11.8773
从又从	-11.8776
諸儒	-11.8787
又馬韻	-11.8794
七由切	-11.8799
賮	-11.8825
摡	-11.8825
璱	-11.883
眳	-11.883
蔜	-11.8831
旖	-11.8831
􁅞	-11.8832
鷤	-11.8832
饗碑	-11.8833
蝭	-11.8834
苵	-11.8834
嘾	-11.8835
儑	-11.8835
奰	-11.8835
巆	-11.8836
砎	-11.8836
睚	-11.8837
襻	-11.8838
顇	-11.8838
憛	-11.8838
簺	-11.8838
唳	-11.8838
脡	-11.8838
麧	-11.8838
粮	-11.8839
份	-11.8839
拌	-11.884
脩華嶽碑	-11.884
桹	-11.884
崥	-11.884
襯	-11.8841
嘹	-11.8842
槄	-11.8842
慬	-11.8842
缿	-11.8842
煁	-11.8843
唐公房碑	-11.8843
㢟	-11.8843
渻	-11.8843
檇	-11.8843
莆	-11.8843
蜍	-11.8844
蟷蠰	-11.8845
無極山碑	-11.8846
梪	-11.8846
綍	-11.8846
拫	-11.8846
罔甫切	-11.8846
憨	-11.8847
屚	-11.8847
䍧	-11.8847
眅	-11.8847
炒	-11.8847
籞	-11.8847
兢兢	-11.8848
捒	-11.8848
粃	-11.8848
婧	-11.8848
綅	-11.8848
逅	-11.8848
呼宏切	-11.8848
掄	-11.8848
􁆡	-11.8849
皮可為	-11.8849
據集韻増	-11.8849
勵	-11.885
箹	-11.885
欝	-11.885
膰	-11.8851
楱	-11.8851
汲汲	-11.8851
穠	-11.8851
愎	-11.8852
腌	-11.8852
攕	-11.8852
搉	-11.8852
槳	-11.8852
都挺切	-11.8853
臇	-11.8854
怚	-11.8854
韎韐	-11.8854
㸑	-11.8854
必益切	-11.8854
稙	-11.8856
姨	-11.8856
醓	-11.8856
直質切	-11.8856
珞	-11.8857
䧺	-11.8857
襡	-11.8859
崽	-11.8859
鵅	-11.886
蚹	-11.8861
以贍切	-11.8862
歸妹	-11.8863
風無切	-11.8863
本草綱目	-11.8864
亦姓風俗通云	-11.8865
又山名山海經	-11.8865
百一十	-11.8865
悉協切	-11.8866
鷉	-11.8866
又梗韻	-11.8866
二韻通押	-11.8867
楚辭招魂	-11.8868
齏	-11.8868
力入切	-11.887
虞舜	-11.8872
吐舌	-11.8875
駥	-11.888
於希切	-11.8882
草叢生	-11.8882
關西謂之	-11.8882
古肴切	-11.8882
楚茨	-11.8884
漢書王莽傳	-11.8885
櫟實	-11.8885
繫辭	-11.8885
師曠	-11.8887
都感切	-11.8888
桑何切	-11.8894
郊外	-11.8897
古岳切	-11.8898
無年月	-11.89
索隐	-11.89
士咸切	-11.8902
也古作文二	-11.8905
蒲交切	-11.8912
胡典切	-11.8913
他昆切	-11.8916
胡田切	-11.8917
文甫切	-11.8937
從彳	-11.895
視不明	-11.8956
柔弱	-11.8966
千嵗	-11.8967
僒	-11.8971
関	-11.8972
廆	-11.8976
溳	-11.898
嘂	-11.8982
瞼	-11.8984
虘	-11.8986
疧	-11.8987
引之則	-11.8988
刏	-11.8988
滉	-11.8988
枊	-11.8989
跁	-11.8989
畟	-11.899
捘	-11.8991
㡀	-11.8991
賽	-11.8991
妸	-11.8992
妲	-11.8992
䚻	-11.8993
椄	-11.8993
卙	-11.8993
篥	-11.8994
愗	-11.8994
庪	-11.8994
㽉	-11.8994
骲	-11.8994
忞	-11.8995
賏	-11.8995
箭笴	-11.8995
踟蹰	-11.8995
鴜	-11.8995
繄	-11.8995
錣	-11.8995
夒	-11.8995
鬀	-11.8995
禠	-11.8996
厔	-11.8996
娿	-11.8996
椳	-11.8996
呫	-11.8996
㕙	-11.8996
嘵	-11.8996
秕	-11.8996
旎	-11.8997
覀	-11.8997
峗	-11.8998
䔖	-11.8998
阺	-11.8999
拽	-11.8999
蘘荷	-11.8999
閷	-11.8999
二十陌	-11.8999
薃	-11.8999
欂	-11.9
蟷	-11.9
袚	-11.9
澴	-11.9
鰅	-11.9
尺四寸	-11.9
毰	-11.9001
牚	-11.9001
酳	-11.9001
唐武后作	-11.9001
适	-11.9001
杆	-11.9002
軑	-11.9002
曨	-11.9003
憕	-11.9003
唸	-11.9003
虇	-11.9003
誻	-11.9003
薾	-11.9003
滮	-11.9004
蟚	-11.9004
矸	-11.9004
鞗	-11.9005
姕	-11.9005
竫	-11.9006
𣙗	-11.9006
洙	-11.9006
輼	-11.9006
嗑	-11.9007
摝	-11.9007
麀	-11.9008
峿	-11.9008
捃	-11.9008
駙	-11.9008
酖	-11.9009
靧	-11.901
蚶	-11.901
觢	-11.9011
􁓒	-11.9012
䨘	-11.9017
樁	-11.9018
冪	-11.902
悹	-11.9129
榴	-11.9132
胻	-11.9135
恌	-11.9137
伈	-11.914
怭	-11.9141
蟟	-11.9141
媰	-11.9142
厞	-11.9142
胦	-11.9143
蛅	-11.9143
軄	-11.9144
蠦	-11.9145
蜦	-11.9146
翨	-11.9146
撠	-11.9146
芓	-11.9146
慥	-11.9147
㡜	-11.9147
􁉍	-11.9148
闠	-11.9148
玎	-11.9148
箛	-11.9149
笲	-11.9149
貼	-11.9149
旼	-11.915
鱉	-11.9151
鼄	-11.9151
陖	-11.9151
脟	-11.9152
􁙆	-11.9153
嚘	-11.9153
灡	-11.9153
葟	-11.9153
暾	-11.9153
􁌣	-11.9153
炱	-11.9154
傁	-11.9154
黕	-11.9154
猎	-11.9154
蘊	-11.9154
駛	-11.9155
蝳	-11.9156
揱	-11.9156
鬩	-11.9156
嘌	-11.9156
姶	-11.9156
諝	-11.9156
噳	-11.9157
晟	-11.9157
韙	-11.9157
噌	-11.9158
捂	-11.9159
䢅	-11.9159
裊	-11.916
痴	-11.916
檴	-11.9161
廚	-11.9161
糖	-11.9161
魗	-11.9161
䖟	-11.9161
螲	-11.9161
歔	-11.9162
跇	-11.9162
㧙	-11.9163
稺	-11.9163
鯇	-11.9163
輬	-11.9163
瞜	-11.9163
魧	-11.9164
嚵	-11.9164
倢	-11.9165
餥	-11.9168
諐	-11.917
㟒	-11.917
疀	-11.9173
䤈	-11.9178
澁	-11.9183
豓	-11.9198
搄	-11.9248
朹	-11.9293
跢	-11.9295
蛪	-11.9298
鶋	-11.9299
芵	-11.93
憹	-11.93
絥	-11.9303
餂	-11.9304
癠	-11.9304
蘼	-11.9304
偘	-11.9304
碏	-11.9306
􁗦	-11.9306
徊	-11.9307
縚	-11.9308
埳	-11.9308
樟	-11.9309
娸	-11.9309
婗	-11.9309
剬	-11.931
篙	-11.931
嵼	-11.931
摴	-11.9311
醝	-11.9311
蜤	-11.9312
瘈	-11.9312
堞	-11.9313
嫺	-11.9314
筡	-11.9314
咡	-11.9314
襾	-11.9314
薹	-11.9315
䙾	-11.9315
牼	-11.9315
蟓	-11.9315
呺	-11.9316
欦	-11.9316
飦	-11.9316
搚	-11.9316
嚳	-11.9316
櫚	-11.9316
侸	-11.9316
嚭	-11.9317
㡳	-11.9318
絿	-11.9318
㥏	-11.9318
牸	-11.9318
蘚	-11.9318
倳	-11.9318
􁉀	-11.9318
􁍪	-11.9319
􁚧	-11.9319
逓	-11.9319
勛	-11.9319
䈚	-11.932
餫	-11.932
斒	-11.9321
諮	-11.9321
趚	-11.9322
禎	-11.9323
蜷	-11.9323
爬	-11.9323
􁋙	-11.9324
昺	-11.9325
矉	-11.9326
虦	-11.9326
㕔	-11.9326
厦	-11.9329
糵	-11.9329
笊	-11.933
郟	-11.9336
䰄	-11.9337
驖	-11.9338
錬	-11.9451
趌	-11.9457
袠	-11.9457
砧	-11.946
瀴	-11.946
狾	-11.9461
礩	-11.9462
嵣	-11.9463
蟭	-11.9464
蜙	-11.9464
惘	-11.9464
姽	-11.9464
馽	-11.9465
緉	-11.9465
蜠	-11.9465
顴	-11.9466
鬠	-11.9466
坺	-11.9466
鑈	-11.9467
鵫	-11.9467
矲	-11.9467
敳	-11.9467
澉	-11.9467
齅	-11.9468
趿	-11.9468
㳅	-11.9468
俁	-11.9469
餭	-11.9469
儜	-11.9469
幗	-11.947
戽	-11.947
嬿	-11.947
覕	-11.9471
鞨	-11.9471
粺	-11.9471
䌨	-11.9471
瀅	-11.9471
矼	-11.9472
􁉄	-11.9473
㱾	-11.9473
侻	-11.9474
劙	-11.9474
媊	-11.9474
鵀	-11.9474
罻	-11.9474
䠱	-11.9474
唌	-11.9474
蠍	-11.9474
惝	-11.9474
郴	-11.9474
觓	-11.9475
熭	-11.9475
捥	-11.9476
殲	-11.9477
鯪	-11.9477
疻	-11.9477
袀	-11.9477
犒	-11.9478
璵	-11.9478
鶷	-11.9479
軰	-11.9479
苢	-11.9479
獰	-11.9479
鯖	-11.948
詼	-11.948
瓨	-11.948
肶	-11.948
謅	-11.948
剫	-11.9481
墍	-11.9481
㷉	-11.9481
鞃	-11.9481
藣	-11.9482
鰝	-11.9482
漷	-11.9482
䳢	-11.9482
棜	-11.9482
欑	-11.9483
郕	-11.9483
脀	-11.9484
筌	-11.9484
慟	-11.9484
鷑	-11.9485
毨	-11.9485
湟	-11.9486
氶	-11.9487
駼	-11.9487
烙	-11.9487
鰷	-11.9488
蚋	-11.9488
摐	-11.9488
􁃔	-11.9489
窯	-11.949
郄	-11.949
躞	-11.9491
貣	-11.9491
郈	-11.9492
爹	-11.9493
薕	-11.9494
㧖	-11.9495
㹠	-11.9504
笰	-11.9505
蛁	-11.9614
婭	-11.9618
彠	-11.9619
繯	-11.962
謖	-11.9623
偬	-11.9623
噢	-11.9624
獑	-11.9625
篗	-11.9625
獟	-11.9625
鵳	-11.9625
槿	-11.9628
佖	-11.9629
軝	-11.963
獡	-11.963
嵲	-11.963
䰼	-11.9631
瘲	-11.9631
㯺	-11.9631
鬊	-11.9632
峒	-11.9632
艨	-11.9632
眦	-11.9633
刜	-11.9633
膻	-11.9633
趎	-11.9633
􁄖	-11.9634
蘞	-11.9634
篍	-11.9635
瞫	-11.9635
㨖	-11.9635
䗃	-11.9636
廇	-11.9636
篡	-11.9636
蚱	-11.9637
㪅	-11.9637
捺	-11.9637
邍	-11.9637
湀	-11.9638
醍	-11.9639
捆	-11.9639
螷	-11.964
緢	-11.964
坿	-11.964
胈	-11.964
褾	-11.964
琶	-11.9641
軎	-11.9641
跐	-11.9641
㯻	-11.9642
麩	-11.9642
㚄	-11.9642
霙	-11.9642
菡	-11.9642
讃	-11.9642
厈	-11.9642
蒺	-11.9642
喣	-11.9643
臐	-11.9643
嵑	-11.9643
凔	-11.9643
蟆	-11.9643
黟	-11.9643
擉	-11.9643
壈	-11.9643
牣	-11.9644
俴	-11.9644
鴯	-11.9644
綈	-11.9645
隉	-11.9645
毦	-11.9646
羂	-11.9646
璊	-11.9646
歕	-11.9647
䔺	-11.9647
脇	-11.9647
騢	-11.9647
歋	-11.9647
蜕	-11.9648
簬	-11.9648
屧	-11.9648
藙	-11.9649
郛	-11.965
躄	-11.9654
䟦	-11.9658
箈	-11.9658
衇	-11.9658
穥	-11.9659
穨	-11.9663
穏	-11.9789
嗢	-11.9791
眑	-11.9791
躰	-11.9791
僋	-11.9793
􁂤	-11.9795
詧	-11.9795
鋩	-11.9795
痂	-11.9796
鼫	-11.9798
价	-11.9798
蹡	-11.9799
􁖮	-11.9799
鰻	-11.9799
䉳	-11.9799
􁓾	-11.98
埵	-11.98
磌	-11.9801
凰	-11.9801
懍	-11.9801
肮	-11.9802
疝	-11.9802
嵳	-11.9802
犺	-11.9802
䢔	-11.9802
呱	-11.9802
恝	-11.9803
踴	-11.9803
禓	-11.9803
䡾	-11.9803
釂	-11.9804
儱	-11.9804
邰	-11.9804
婞	-11.9804
穾	-11.9804
膿	-11.9804
飣	-11.9805
犨	-11.9805
藚	-11.9805
􁂛	-11.9805
鼒	-11.9805
鼮	-11.9805
􁍔	-11.9805
咶	-11.9805
鎣	-11.9805
騻	-11.9806
偯	-11.9806
掜	-11.9806
偰	-11.9806
袼	-11.9807
擪	-11.9807
蘜	-11.9807
鋂	-11.9807
吷	-11.9808
􁚘	-11.9808
徭	-11.9808
􁓂	-11.9808
縰	-11.9808
艒	-11.9808
膨	-11.9809
絧	-11.9809
暠	-11.9809
攃	-11.9809
㔶	-11.9809
艫	-11.981
㰤	-11.981
􁚬	-11.981
㷀	-11.981
閙	-11.981
瀦	-11.9811
犦	-11.9811
簃	-11.9812
媦	-11.9812
殣	-11.9812
俓	-11.9812
鸄	-11.9813
忕	-11.9813
婿	-11.9813
鯸	-11.9813
沍	-11.9813
厃	-11.9813
䅘	-11.9814
㒸	-11.9814
蜬	-11.9814
婣	-11.9814
鼁	-11.9814
腢	-11.9815
覊	-11.9815
删	-11.9815
罭	-11.9816
埌	-11.9818
尫	-11.9818
搭	-11.9821
婀	-11.9822
颼	-11.9831
􁞨	-11.9953
懴	-11.9954
䘸	-11.9954
勷	-11.9957
􁡐	-11.9957
秆	-11.9958
藭	-11.9959
􁕹	-11.996
䘳	-11.996
􁠬	-11.9961
聵	-11.9961
嘳	-11.9962
弅	-11.9962
瀱	-11.9962
䮧	-11.9963
瀣	-11.9965
跒	-11.9965
􁄰	-11.9965
爌	-11.9965
鑲	-11.9966
􁏑	-11.9966
蔨	-11.9967
惌	-11.9967
趡	-11.9968
鬈	-11.9969
鵴	-11.9969
齚	-11.9969
􁌽	-11.9969
姹	-11.9969
菋	-11.997
阠	-11.997
肛	-11.9971
鑢	-11.9971
桲	-11.9971
骩	-11.9972
寎	-11.9972
慂	-11.9972
􁑘	-11.9972
裓	-11.9972
􁠾	-11.9972
鴔	-11.9972
澥	-11.9972
鏵	-11.9972
軵	-11.9972
䥈	-11.9973
楢	-11.9973
彍	-11.9973
餦	-11.9974
􁈛	-11.9974
孀	-11.9974
睞	-11.9974
栫	-11.9974
䳏	-11.9975
笫	-11.9975
這	-11.9975
􁘢	-11.9975
蔱	-11.9976
嬭	-11.9976
焯	-11.9976
芎	-11.9976
堡	-11.9977
酗	-11.9977
旴	-11.9977
訃	-11.9977
麂	-11.9977
瓔	-11.9978
芞	-11.9978
頇	-11.9978
呢	-11.9978
驌	-11.9979
芚	-11.9979
估	-11.9979
墱	-11.9979
悰	-11.998
鱺	-11.998
􁚮	-11.998
蚸	-11.998
􁋒	-11.9981
硰	-11.9981
羬	-11.9981
褋	-11.9981
参	-11.9981
毯	-11.9982
獯	-11.9982
齪	-11.9983
缻	-11.9983
湲	-11.9983
郿	-11.9984
鶠	-11.9984
紽	-11.9984
釬	-11.9984
濅	-11.9984
橆	-11.9985
澍	-11.9985
稉	-11.9985
雱	-11.9985
睅	-11.9986
帤	-11.9986
輣	-11.9986
廳	-11.9986
昇	-11.9987
匼	-11.9988
繃	-11.9995
薬	-12.0087
䗐	-12.0129
綼	-12.0131
眸	-12.0131
􁙃	-12.0131
㶳	-12.0132
䖒	-12.0133
􁚈	-12.0133
嵤	-12.0133
鮚	-12.0134
搌	-12.0135
殱	-12.0137
螮	-12.0138
㬮	-12.0138
䝤	-12.014
傂	-12.014
眢	-12.014
箯	-12.014
罞	-12.014
􁍞	-12.014
瀎	-12.014
簝	-12.0141
廔	-12.0141
讌	-12.0142
揎	-12.0142
礥	-12.0142
閶	-12.0142
鯶	-12.0142
葸	-12.0142
㗲	-12.0142
瑵	-12.0143
􁔹	-12.0143
齁	-12.0143
熮	-12.0143
汃	-12.0143
穩	-12.0143
衹	-12.0144
蹎	-12.0145
僸	-12.0145
廯	-12.0145
犪	-12.0145
汓	-12.0145
樺	-12.0145
䱷	-12.0145
彷	-12.0146
譆	-12.0146
佝	-12.0147
篎	-12.0147
睠	-12.0147
楞	-12.0147
觠	-12.0148
竆	-12.0148
讟	-12.0148
呭	-12.0148
頩	-12.0149
釾	-12.0149
蕮	-12.0149
獧	-12.0149
黓	-12.0149
㓝	-12.0149
宎	-12.015
玳	-12.015
豜	-12.015
喆	-12.015
萴	-12.015
􁓿	-12.015
遛	-12.0151
开	-12.0151
焄	-12.0151
嵇	-12.0151
𧹞	-12.0151
眽	-12.0151
垸	-12.0151
潠	-12.0151
坳	-12.0152
笿	-12.0152
痰	-12.0152
胘	-12.0153
㛰	-12.0153
沲	-12.0154
􁗅	-12.0154
􁗡	-12.0155
偞	-12.0155
琉	-12.0155
琵	-12.0155
盃	-12.0156
􁖩	-12.0156
蕳	-12.0156
狿	-12.0157
蹬	-12.0157
錔	-12.0157
蹼	-12.0158
薸	-12.0158
霂	-12.0159
晰	-12.0159
囁	-12.016
籝	-12.016
豲	-12.016
㝔	-12.0162
沝	-12.0162
喀	-12.0163
楶	-12.0164
逻	-12.0164
㭒	-12.0168
罋	-12.0169
􁌁	-12.0172
喇	-12.0189
蓾	-12.0298
峞	-12.03
㦛	-12.0306
秌	-12.0306
玟	-12.0306
揾	-12.0308
膫	-12.0309
謱	-12.0309
鎻	-12.0309
鴺	-12.0309
㕟	-12.0311
炘	-12.0311
􁒍	-12.0312
䒀	-12.0312
䝿	-12.0313
􁆷	-12.0313
弨	-12.0313
痾	-12.0313
慒	-12.0314
䋈	-12.0314
冔	-12.0315
鋘	-12.0315
翲	-12.0315
蔧	-12.0315
簩	-12.0315
逭	-12.0316
檷	-12.0316
栔	-12.0316
碔	-12.0316
瘽	-12.0317
峱	-12.0318
嬋	-12.0318
􁐒	-12.0318
㣻	-12.0318
㥾	-12.0319
珕	-12.0319
訧	-12.0319
􁍟	-12.0319
浿	-12.0319
褻	-12.032
龤	-12.032
葇	-12.032
莁	-12.032
尰	-12.032
稰	-12.0321
瓀	-12.0321
廸	-12.0321
㡓	-12.0322
浽	-12.0322
嵃	-12.0322
谾	-12.0322
罒	-12.0322
庮	-12.0323
抾	-12.0323
玨	-12.0323
癹	-12.0323
嚄	-12.0323
罇	-12.0324
慠	-12.0324
园	-12.0324
鼘	-12.0324
荁	-12.0324
頖	-12.0324
婘	-12.0325
儽	-12.0325
壠	-12.0325
踟	-12.0325
㺜	-12.0325
舳	-12.0326
黴	-12.0326
昦	-12.0326
撕	-12.0327
鼊	-12.0327
鞛	-12.0327
􁊙	-12.0327
玠	-12.0327
踒	-12.0327
孴	-12.0327
甂	-12.0327
淜	-12.0327
蓓	-12.0329
䄂	-12.0329
鍋	-12.0329
㛂	-12.0329
蚷	-12.0331
皦	-12.0331
掐	-12.0331
㩧	-12.0331
擸	-12.0331
朂	-12.0332
㞚	-12.0332
醶	-12.0332
薀	-12.0332
􁄩	-12.0332
䳟	-12.0332
􁅩	-12.0332
鬇	-12.0332
邿	-12.0333
􁅨	-12.0333
漩	-12.0333
遬	-12.0334
撒	-12.0335
龣	-12.0335
攽	-12.0335
魘	-12.0336
㭘	-12.0337
肧	-12.0337
塒	-12.0337
毊	-12.0337
䬒	-12.0339
蓌	-12.0339
豌	-12.0339
䱡	-12.034
蟃	-12.034
梜	-12.0341
棁	-12.0342
觟	-12.0342
酘	-12.0344
軓	-12.0345
儛	-12.0345
稛	-12.0453
揗	-12.0478
脮	-12.0479
磳	-12.0481
袊	-12.0481
袋	-12.0482
莣	-12.0485
摷	-12.0486
瀢	-12.0487
硪	-12.0487
雥	-12.0488
窾	-12.0488
䎕	-12.0489
你	-12.0489
眶	-12.0489
祤	-12.0489
跕	-12.0489
腇	-12.049
莙	-12.0491
郺	-12.0492
輖	-12.0492
縋	-12.0493
璺	-12.0494
蝌	-12.0494
狁	-12.0494
玲	-12.0494
馹	-12.0494
崋	-12.0495
䘽	-12.0495
殈	-12.0495
詪	-12.0495
趬	-12.0496
㝿	-12.0496
洴	-12.0496
繜	-12.0496
蘪	-12.0496
枍	-12.0496
咲	-12.0497
晬	-12.0497
蔾	-12.0497
襗	-12.0497
跀	-12.0497
港	-12.0498
譻	-12.0498
苶	-12.0498
昳	-12.0499
殗	-12.0499
扎	-12.0499
絯	-12.0499
痎	-12.0499
舘	-12.05
􁉋	-12.0501
卼	-12.0501
駸	-12.0501
笢	-12.0501
蜾	-12.0501
嫿	-12.0501
榾	-12.0501
藄	-12.0502
硞	-12.0502
拶	-12.0502
厀	-12.0502
癩	-12.0502
蛖	-12.0503
泐	-12.0503
樏	-12.0503
瀀	-12.0503
鵌	-12.0503
嬻	-12.0504
􁓁	-12.0504
鎞	-12.0504
齟	-12.0505
㧗	-12.0505
贑	-12.0505
􁉣	-12.0505
煼	-12.0505
嶰	-12.0506
漰	-12.0506
姘	-12.0506
匵	-12.0507
莱	-12.0507
螿	-12.0508
玤	-12.0508
鸂	-12.0508
莥	-12.0508
敜	-12.0508
玗	-12.0509
襆	-12.0509
恇	-12.0509
鰱	-12.0509
啎	-12.051
珈	-12.051
裵	-12.051
篧	-12.051
闤	-12.0511
歫	-12.0511
鞔	-12.0511
傛	-12.0511
噓	-12.0512
惆	-12.0512
瀺	-12.0513
矖	-12.0513
鵧	-12.0513
囦	-12.0514
艿	-12.0517
隖	-12.0517
呦	-12.0523
啿	-12.0524
睩	-12.0526
鏄	-12.0527
栜	-12.0528
憢	-12.0664
划	-12.0665
挱	-12.0667
旝	-12.0668
鰩	-12.0668
虰	-12.0669
㥯	-12.0671
楑	-12.0671
齓	-12.0672
磤	-12.0673
㽦	-12.0673
㶏	-12.0673
譱	-12.0674
檕	-12.0674
蠸	-12.0674
􁘂	-12.0674
礬	-12.0675
樔	-12.0675
飡	-12.0675
侉	-12.0676
傿	-12.0676
邘	-12.0676
飶	-12.0677
碝	-12.0677
矔	-12.0677
腿	-12.0677
訒	-12.0677
庱	-12.0677
䶥	-12.0678
檛	-12.0678
哳	-12.0678
褮	-12.0679
㧘	-12.0679
駾	-12.0679
㥴	-12.0679
絟	-12.0679
医	-12.0679
瘌	-12.068
粰	-12.068
堧	-12.0681
蘱	-12.0681
皖	-12.0681
羼	-12.0681
箌	-12.0681
籜	-12.0682
艗	-12.0682
蔭	-12.0682
顅	-12.0682
俑	-12.0682
穸	-12.0682
翪	-12.0683
鑷	-12.0683
簳	-12.0683
鸓	-12.0684
跆	-12.0684
幐	-12.0684
齹	-12.0685
䳜	-12.0685
佒	-12.0685
䭾	-12.0685
陓	-12.0686
痬	-12.0686
擴	-12.0686
疕	-12.0687
䱜	-12.0687
䕩	-12.0687
鄀	-12.0687
鼜	-12.0688
幓	-12.0688
傃	-12.0688
倏	-12.0688
圊	-12.0688
艅	-12.0689
娖	-12.0689
嚶	-12.069
㫐	-12.069
頦	-12.069
噈	-12.069
覞	-12.069
鴣	-12.0691
餻	-12.0691
閌	-12.0691
􁁬	-12.0692
悊	-12.0692
嶪	-12.0692
皕	-12.0693
摫	-12.0693
鞹	-12.0693
霶	-12.0693
舶	-12.0693
蒱	-12.0694
蹜	-12.0694
瞷	-12.0694
鵯	-12.0694
柁	-12.0694
囮	-12.0695
駻	-12.0695
㢲	-12.0695
稫	-12.0695
鄫	-12.0697
㪚	-12.0698
幂	-12.0698
糯	-12.0698
遌	-12.0698
桭	-12.07
遫	-12.07
㘝	-12.0701
莨	-12.0701
肈	-12.0705
叠	-12.071
鮨	-12.0711
㚃	-12.0849
蕧	-12.0852
癆	-12.0852
硊	-12.0852
羛	-12.0853
釦	-12.0853
詿	-12.0854
噟	-12.0857
磾	-12.0857
堠	-12.0857
礛	-12.0858
砏	-12.0858
腏	-12.0858
䠆	-12.0859
矹	-12.0859
勔	-12.0859
𬒳	-12.0859
佉	-12.0859
蛦	-12.086
跎	-12.086
攱	-12.086
偒	-12.0861
揕	-12.0861
瞴	-12.0862
渹	-12.0862
鮬	-12.0862
丐	-12.0862
諴	-12.0862
隝	-12.0863
䚔	-12.0863
蟀	-12.0863
坒	-12.0864
碪	-12.0864
忥	-12.0864
疷	-12.0864
餁	-12.0864
㤄	-12.0865
挋	-12.0865
􁘠	-12.0865
劋	-12.0865
鑼	-12.0865
諑	-12.0865
糒	-12.0866
轃	-12.0866
艘	-12.0866
􁋹	-12.0866
敭	-12.0866
噏	-12.0866
汞	-12.0867
鷐	-12.0867
煣	-12.0867
㻞	-12.0868
屴	-12.0868
臈	-12.0868
邙	-12.0868
鸋	-12.0868
鄩	-12.0868
闘	-12.0869
嚾	-12.0869
􁊎	-12.0869
柃	-12.0869
埜	-12.0869
訞	-12.087
鷾	-12.087
愖	-12.087
藳	-12.0871
潚	-12.0871
偫	-12.0871
竉	-12.0871
鸊	-12.0872
㠾	-12.0872
䯢	-12.0872
嫷	-12.0872
驔	-12.0872
罳	-12.0872
衈	-12.0873
俌	-12.0873
帉	-12.0873
縡	-12.0874
輑	-12.0874
麒	-12.0874
槭	-12.0874
褖	-12.0875
憋	-12.0875
窪	-12.0876
悞	-12.0876
鵓	-12.0876
鏚	-12.0876
泑	-12.0876
粽	-12.0876
籈	-12.0877
湼	-12.0877
傱	-12.0878
聃	-12.0878
魖	-12.0879
极	-12.0879
􁒼	-12.0879
蹍	-12.0879
醅	-12.0879
㼾	-12.0879
嗀	-12.0879
酲	-12.088
屆	-12.0881
顣	-12.0884
蓉	-12.0884
簵	-12.0885
椔	-12.0886
幌	-12.0887
閍	-12.0887
畒	-12.089
􁂽	-12.0891
欥	-12.0892
麚	-12.0894
􁉛	-12.0898
蕄	-12.1036
勥	-12.1037
莛	-12.1039
墆	-12.1039
偠	-12.1043
􁇥	-12.1043
􁛚	-12.1046
帣	-12.1046
㒾	-12.1047
􁉚	-12.1047
䟃	-12.1047
碆	-12.1048
䛢	-12.1048
㪺	-12.1048
厱	-12.1049
怜	-12.1049
尵	-12.105
踘	-12.105
搪	-12.105
㪁	-12.105
蛞	-12.105
椷	-12.105
緂	-12.1051
槷	-12.1051
枖	-12.1052
挌	-12.1052
剠	-12.1052
髵	-12.1052
抯	-12.1052
薂	-12.1053
殟	-12.1053
笐	-12.1053
籊	-12.1053
枮	-12.1053
羵	-12.1053
嵞	-12.1053
旤	-12.1053
粧	-12.1053
愡	-12.1054
圣	-12.1054
嘰	-12.1054
壍	-12.1054
塕	-12.1055
窵	-12.1055
貅	-12.1055
恖	-12.1055
恔	-12.1055
篨	-12.1055
謕	-12.1055
嚗	-12.1055
嬎	-12.1056
䩵	-12.1056
耔	-12.1056
嶁	-12.1056
鶄	-12.1057
蠾	-12.1057
􁁻	-12.1057
扠	-12.1057
癈	-12.1058
嶟	-12.1058
巩	-12.1058
嚲	-12.1058
挿	-12.1058
砅	-12.1058
筈	-12.1058
靼	-12.1058
瞟	-12.1059
丅	-12.1059
獐	-12.1059
凇	-12.1059
抐	-12.106
詍	-12.106
輆	-12.106
糪	-12.106
桞	-12.106
厬	-12.1061
麎	-12.1061
乚	-12.1061
蕷	-12.1061
䁔	-12.1061
騱	-12.1061
蝛	-12.1061
薋	-12.1062
􁍈	-12.1062
􁀹	-12.1063
鵶	-12.1063
詾	-12.1063
鶛	-12.1064
厤	-12.1065
逌	-12.1066
蹹	-12.1066
箐	-12.1066
旹	-12.1066
犕	-12.1066
鮞	-12.1067
僈	-12.1069
飩	-12.107
凘	-12.1071
㡭	-12.1071
喢	-12.1071
笓	-12.1072
琁	-12.1072
栻	-12.1074
轐	-12.1074
麔	-12.1077
猣	-12.1078
䑋	-12.1228
㒟	-12.1228
囯	-12.123
睕	-12.123
蟰	-12.1231
楡	-12.1232
荺	-12.1233
裞	-12.1233
黦	-12.1233
齾	-12.1236
醃	-12.1236
蔖	-12.1237
輐	-12.1238
嫢	-12.1238
鸆	-12.1238
懫	-12.1238
楪	-12.1238
攩	-12.1239
狤	-12.1239
豣	-12.1239
㟪	-12.124
塚	-12.124
縪	-12.124
蠐	-12.1241
臮	-12.1242
磼	-12.1242
􁍍	-12.1242
䶂	-12.1242
屓	-12.1243
䘆	-12.1243
䱔	-12.1243
㥶	-12.1243
䑞	-12.1243
潗	-12.1243
裲	-12.1243
蘮	-12.1244
緥	-12.1244
䓴	-12.1244
焭	-12.1244
閵	-12.1244
㨷	-12.1245
恀	-12.1245
勗	-12.1245
螃	-12.1246
穈	-12.1246
傺	-12.1247
斪	-12.1247
㘈	-12.1247
趄	-12.1247
訌	-12.1248
鋊	-12.1248
霹	-12.1248
攟	-12.1248
姙	-12.1249
𤞞	-12.1249
㶒	-12.1249
踡	-12.1249
瞡	-12.1249
灨	-12.1249
擧	-12.125
糔	-12.125
蔫	-12.125
㑥	-12.125
轆	-12.125
蟇	-12.1251
嫳	-12.1251
傜	-12.1252
㑻	-12.1252
蕍	-12.1252
倯	-12.1252
鮛	-12.1253
潾	-12.1254
懻	-12.1254
歅	-12.1254
渰	-12.1254
䨲	-12.1254
輚	-12.1255
蒍	-12.1255
寉	-12.1255
饛	-12.1255
蘥	-12.1255
䰜	-12.1255
蚅	-12.1256
爯	-12.1256
懪	-12.1256
嶡	-12.1256
䳒	-12.1257
窓	-12.1257
旍	-12.1257
䨇	-12.1257
翜	-12.1258
䐑	-12.1258
􁊶	-12.1258
欯	-12.1259
貾	-12.1259
籚	-12.1259
胍	-12.1261
輳	-12.1261
鷷	-12.1263
羺	-12.1263
垘	-12.1263
䚡	-12.1264
㵒	-12.1264
裺	-12.1265
䱐	-12.1265
汍	-12.1265
苙	-12.1266
淥	-12.1268
㰦	-12.1268
檗	-12.1269
聫	-12.1276
􁚷	-12.1421
㢝	-12.1423
妭	-12.1428
磍	-12.1428
䖆	-12.1428
璗	-12.1429
瑇	-12.1429
孜	-12.143
胼	-12.143
瀬	-12.143
蟞	-12.143
忦	-12.143
玪	-12.1431
䄏	-12.1431
蚵	-12.1433
廜	-12.1434
襊	-12.1434
鮺	-12.1435
踁	-12.1435
舋	-12.1435
撆	-12.1435
埭	-12.1436
罼	-12.1436
釪	-12.1436
嗊	-12.1436
垚	-12.1436
魟	-12.1437
妝	-12.1437
偓	-12.1438
㦎	-12.1438
黸	-12.1438
髣	-12.1438
䔇	-12.1438
䯊	-12.1438
謦	-12.1439
洳	-12.1439
䲊	-12.1439
䕻	-12.1439
睟	-12.1439
垜	-12.144
齯	-12.144
孎	-12.1441
纘	-12.1441
䲔	-12.1442
璪	-12.1442
跑	-12.1442
鑋	-12.1442
輡	-12.1442
劻	-12.1442
裗	-12.1443
櫫	-12.1443
彙	-12.1443
䀡	-12.1443
㽎	-12.1443
陾	-12.1444
燉	-12.1444
躚	-12.1444
曣	-12.1444
璏	-12.1444
憴	-12.1444
脕	-12.1445
饞	-12.1445
髾	-12.1445
鷫	-12.1446
悈	-12.1446
髥	-12.1446
鸍	-12.1447
䖦	-12.1447
鬡	-12.1447
錙	-12.1447
軏	-12.1447
轠	-12.1447
䪝	-12.1447
膘	-12.1447
鑯	-12.1447
􁏵	-12.1447
蕖	-12.1448
􁌌	-12.1448
蒬	-12.1448
黈	-12.1449
斌	-12.1449
戠	-12.1449
鎒	-12.1449
侘	-12.1449
笵	-12.1449
崑	-12.145
㶕	-12.145
磁	-12.1451
蔤	-12.1451
旇	-12.1451
㣇	-12.1452
蕊	-12.1452
蔿	-12.1452
懬	-12.1452
撎	-12.1452
飵	-12.1453
鱁	-12.1454
霢	-12.1454
濄	-12.1454
䲛	-12.1455
㱥	-12.1455
鵵	-12.1455
魦	-12.1456
撐	-12.1456
麠	-12.1456
湒	-12.1457
灕	-12.1457
囏	-12.1457
墯	-12.1458
澂	-12.1458
箷	-12.1458
阞	-12.1458
㕑	-12.1458
喩	-12.1459
吡	-12.1459
􁁰	-12.1459
䁾	-12.1459
跈	-12.146
蘗	-12.146
衄	-12.1461
瀄	-12.1463
鴮	-12.1468
曍	-12.1471
䕡	-12.1618
儢	-12.162
磒	-12.1621
繀	-12.1624
骱	-12.1625
鶙	-12.1625
憞	-12.1626
摕	-12.1627
䟆	-12.1627
奵	-12.1629
􁗢	-12.1629
僬	-12.163
耾	-12.163
莉	-12.1632
棽	-12.1632
䭓	-12.1632
襘	-12.1632
緀	-12.1633
欀	-12.1633
衲	-12.1634
䗁	-12.1635
􁋵	-12.1635
鉠	-12.1636
皫	-12.1636
鏂	-12.1636
瘏	-12.1636
趮	-12.1636
竚	-12.1636
檓	-12.1637
酨	-12.1637
勍	-12.1637
㭬	-12.1637
傞	-12.1637
挩	-12.1638
玞	-12.1638
蹮	-12.1638
螹	-12.1638
芈	-12.1639
蒵	-12.1639
哦	-12.1639
䬼	-12.1639
翐	-12.164
戱	-12.164
歁	-12.164
掝	-12.164
㲚	-12.1641
傘	-12.1641
撍	-12.1641
曚	-12.1641
鸜	-12.1641
茦	-12.1641
􁈖	-12.1642
豷	-12.1642
嶻	-12.1642
恁	-12.1642
藫	-12.1642
觷	-12.1643
覗	-12.1643
曃	-12.1643
醎	-12.1643
嗤	-12.1643
毘	-12.1643
磹	-12.1644
鼆	-12.1644
蔎	-12.1645
餀	-12.1645
屭	-12.1645
㳬	-12.1645
觰	-12.1645
囹	-12.1645
綝	-12.1646
矺	-12.1646
鶅	-12.1646
謄	-12.1646
侶	-12.1646
蜛	-12.1647
偛	-12.1647
蜄	-12.1647
鰼	-12.1647
䄠	-12.1647
瀡	-12.1647
䕸	-12.1647
鼸	-12.1647
馯	-12.1647
􁛐	-12.1648
狧	-12.1648
鵗	-12.1648
􁃄	-12.1648
繮	-12.1648
㞋	-12.1648
芅	-12.1649
㐄	-12.1649
趹	-12.165
䓈	-12.165
礜	-12.165
驦	-12.165
掤	-12.165
譶	-12.1651
袸	-12.1651
凑	-12.1652
迾	-12.1652
墢	-12.1654
䈉	-12.1655
䡴	-12.1655
蕅	-12.1655
魮	-12.1656
葼	-12.1656
􁅃	-12.1657
寬	-12.1657
傯	-12.1657
箁	-12.1658
鞿	-12.1658
韸	-12.1659
􁍲	-12.166
傰	-12.166
梮	-12.1661
䖳	-12.1662
阹	-12.1662
䰝	-12.1663
蕀	-12.1663
韡	-12.1663
諰	-12.1664
䴉	-12.1667
堭	-12.1667
鬨	-12.1667
𦵔	-12.1816
硱	-12.1818
婠	-12.1824
妁	-12.1829
瘴	-12.183
鍳	-12.1831
䀢	-12.1831
殮	-12.1831
貐	-12.1832
蛡	-12.1833
葀	-12.1833
瀯	-12.1834
譛	-12.1835
䀣	-12.1835
􁚿	-12.1837
㖩	-12.1837
謩	-12.1838
萏	-12.1838
鴋	-12.1838
姢	-12.1839
􁎕	-12.184
凛	-12.1841
鍮	-12.1841
辢	-12.1842
熚	-12.1842
㐆	-12.1842
蟅	-12.1842
蠠	-12.1842
鈌	-12.1843
痹	-12.1843
閞	-12.1843
鞂	-12.1844
凜	-12.1844
佶	-12.1844
瞤	-12.1844
鉋	-12.1844
哄	-12.1844
􁄧	-12.1844
殜	-12.1845
邂	-12.1845
㡘	-12.1845
悆	-12.1845
㲈	-12.1845
凚	-12.1845
䑎	-12.1845
芨	-12.1845
膀	-12.1845
􁋻	-12.1846
鸗	-12.1846
誧	-12.1846
塿	-12.1846
惈	-12.1846
淛	-12.1847
汸	-12.1847
窞	-12.1847
訦	-12.1847
憿	-12.1847
􁉌	-12.1848
䗱	-12.1848
泅	-12.1848
蹝	-12.1849
袐	-12.1849
䪎	-12.1849
钃	-12.1849
㖾	-12.1849
薢	-12.1849
䮗	-12.1849
瓛	-12.1849
拸	-12.1849
衻	-12.1849
杍	-12.185
傔	-12.185
洔	-12.185
飥	-12.185
菤	-12.185
䐹	-12.1851
奲	-12.1851
㴐	-12.1851
㹞	-12.1851
鳭	-12.1852
楘	-12.1853
鈃	-12.1853
摑	-12.1853
踥	-12.1854
鈗	-12.1854
僢	-12.1854
𥫱	-12.1854
苰	-12.1855
莾	-12.1855
嗒	-12.1855
塟	-12.1855
尟	-12.1855
媺	-12.1855
骰	-12.1856
燅	-12.1856
􁘜	-12.1856
腮	-12.1856
寞	-12.1857
癙	-12.1857
澬	-12.1857
籤	-12.1857
䣙	-12.1857
眮	-12.1858
榑	-12.1858
皜	-12.1858
纉	-12.1858
㵎	-12.1858
㡌	-12.1858
珵	-12.1858
厸	-12.1859
櫍	-12.1859
洭	-12.1859
曅	-12.1859
郗	-12.1859
艻	-12.1861
麙	-12.1861
汐	-12.1861
匌	-12.1861
薝	-12.1862
躃	-12.1862
橪	-12.1863
捇	-12.1865
㸦	-12.1865
漨	-12.1867
閿	-12.187
豗	-12.1874
􁋳	-12.1876
棪	-12.1876
鷣	-12.1882
硭	-12.2024
㲖	-12.2029
􁘬	-12.2032
鏊	-12.2032
亠	-12.2033
婥	-12.2035
䏿	-12.2035
䃔	-12.2036
屾	-12.2036
䍴	-12.2036
衩	-12.2039
楀	-12.2039
衸	-12.2041
膓	-12.2041
峉	-12.2042
藸	-12.2042
䀛	-12.2042
秺	-12.2042
爁	-12.2043
魭	-12.2044
譩	-12.2044
橬	-12.2044
瑌	-12.2044
扒	-12.2045
娋	-12.2045
䛳	-12.2045
䜭	-12.2045
緋	-12.2047
艡	-12.2047
䋙	-12.2047
鮁	-12.2047
欏	-12.2047
竘	-12.2048
瞚	-12.2048
笨	-12.2048
菓	-12.2048
雃	-12.2048
蛃	-12.2049
鏷	-12.2049
漴	-12.2049
㢋	-12.2049
懃	-12.2049
狟	-12.205
􁄫	-12.205
霫	-12.205
㙪	-12.205
碯	-12.205
硎	-12.205
喛	-12.205
扴	-12.205
鼨	-12.205
灥	-12.205
瓷	-12.205
􁙰	-12.2051
趜	-12.2051
謯	-12.2052
尿	-12.2052
敠	-12.2053
䞣	-12.2053
鵱	-12.2053
檵	-12.2053
褹	-12.2053
酅	-12.2053
鬑	-12.2054
䉉	-12.2054
馰	-12.2054
橭	-12.2054
􁝥	-12.2055
妉	-12.2055
脬	-12.2055
彆	-12.2055
佊	-12.2056
鮡	-12.2056
袉	-12.2056
􁙊	-12.2056
厜	-12.2056
瑄	-12.2057
衕	-12.2057
瀚	-12.2057
羷	-12.2058
曈	-12.2058
䐈	-12.2058
􁑉	-12.2058
枎	-12.2059
嶒	-12.206
痼	-12.206
鰐	-12.206
隟	-12.206
冹	-12.206
􁈑	-12.206
鴐	-12.206
昈	-12.206
稸	-12.2061
犿	-12.2061
肣	-12.2061
脘	-12.2061
䀀	-12.2061
翎	-12.2061
鞪	-12.2062
鄲	-12.2062
㹌	-12.2062
蓻	-12.2062
罺	-12.2062
孅	-12.2062
疁	-12.2062
轏	-12.2062
䶗	-12.2062
洏	-12.2063
􁊗	-12.2063
嵓	-12.2063
逿	-12.2063
窨	-12.2063
汳	-12.2064
墦	-12.2064
竷	-12.2064
擡	-12.2064
渳	-12.2064
㝵	-12.2065
瑢	-12.2065
謣	-12.2065
髼	-12.2066
嶂	-12.2066
墽	-12.2066
醭	-12.2066
掦	-12.2066
䆳	-12.2067
痔	-12.2067
榙	-12.2067
妤	-12.2067
柀	-12.2068
􁄟	-12.2068
醁	-12.2068
抏	-12.2069
筝	-12.2069
𨕖	-12.207
㝃	-12.2071
櫾	-12.2071
譳	-12.2071
鮂	-12.2072
亻	-12.2073
垺	-12.2074
䬀	-12.2075
襵	-12.2076
郚	-12.2077
鮅	-12.208
鴢	-12.2081
㕘	-12.2084
飧	-12.2086
驡	-12.224
鍖	-12.2247
礹	-12.2248
䘨	-12.2249
䃂	-12.2251
敽	-12.2252
憔	-12.2252
虤	-12.2253
䭡	-12.2253
炔	-12.2254
鎡	-12.2254
􁖘	-12.2254
猢	-12.2255
萮	-12.2255
嶚	-12.2255
蘤	-12.2255
㗿	-12.2257
黚	-12.2257
蚈	-12.2257
崵	-12.2257
芪	-12.2257
匳	-12.2257
㶣	-12.2257
豽	-12.2258
聅	-12.2258
緍	-12.2258
壃	-12.2258
䥍	-12.2258
䶬	-12.2259
垻	-12.2259
駷	-12.2259
膲	-12.2259
埂	-12.226
僓	-12.226
脄	-12.226
􁥱	-12.226
􁜞	-12.226
懁	-12.226
駪	-12.226
鬝	-12.2261
崆	-12.2262
騝	-12.2262
躗	-12.2262
敂	-12.2263
弝	-12.2263
揞	-12.2263
􁆮	-12.2263
攗	-12.2264
祪	-12.2264
㝈	-12.2264
䠣	-12.2264
䜮	-12.2265
穛	-12.2265
楠	-12.2266
恎	-12.2266
骾	-12.2266
穱	-12.2266
荳	-12.2266
椆	-12.2267
姎	-12.2267
鬞	-12.2267
跜	-12.2267
蟿	-12.2267
描	-12.2267
螶	-12.2267
餮	-12.2267
獥	-12.2267
鼽	-12.2268
鏺	-12.2268
㧾	-12.2268
覢	-12.2268
謎	-12.2268
䑳	-12.2268
忓	-12.2268
凒	-12.2268
綀	-12.2269
鄈	-12.227
猩	-12.227
渒	-12.227
偊	-12.2271
㼽	-12.2271
讄	-12.2272
䫻	-12.2272
攓	-12.2272
獿	-12.2273
綎	-12.2273
囑	-12.2273
扔	-12.2273
偋	-12.2273
牎	-12.2273
􁃪	-12.2273
棌	-12.2274
拼	-12.2274
篘	-12.2274
䏽	-12.2274
䰰	-12.2275
簥	-12.2275
豀	-12.2275
猘	-12.2275
旊	-12.2276
飜	-12.2276
㮣	-12.2276
朸	-12.2276
鱍	-12.2277
琪	-12.2277
袘	-12.2277
裌	-12.2277
鞳	-12.2277
麮	-12.2278
􁊾	-12.2278
椈	-12.2278
籙	-12.2278
輁	-12.2279
鞥	-12.2279
撈	-12.228
阯	-12.228
􁍥	-12.228
撜	-12.228
䡅	-12.2281
淞	-12.2281
僃	-12.2281
焫	-12.2282
蘽	-12.2283
魼	-12.2284
剕	-12.2284
葹	-12.2284
濇	-12.2285
瑪	-12.2286
伃	-12.2287
伻	-12.2288
煠	-12.2288
漈	-12.2288
㩁	-12.2289
熅	-12.2289
􁊜	-12.229
韄	-12.229
羒	-12.2305
􁠂	-12.2453
䯤	-12.2459
毹	-12.2464
佅	-12.2465
釤	-12.2465
䫟	-12.2466
􁕲	-12.2466
魔	-12.2469
踸	-12.2469
䲽	-12.2471
涊	-12.2471
櫖	-12.2471
疸	-12.2471
趒	-12.2472
篂	-12.2472
簻	-12.2472
櫃	-12.2473
骻	-12.2474
涳	-12.2475
卌	-12.2476
䍘	-12.2477
紨	-12.2477
顁	-12.2478
灺	-12.2478
􁗲	-12.2478
㑛	-12.2479
馞	-12.2479
祳	-12.2479
陒	-12.248
贙	-12.2481
犤	-12.2481
㵧	-12.2481
鏉	-12.2481
侚	-12.2481
蘨	-12.2481
玈	-12.2481
徘	-12.2481
脪	-12.2482
襓	-12.2482
恗	-12.2482
䁓	-12.2482
蕚	-12.2482
􁝴	-12.2482
䫜	-12.2482
岝	-12.2482
骿	-12.2482
剚	-12.2482
妟	-12.2483
䍮	-12.2483
瞶	-12.2483
墇	-12.2483
襉	-12.2483
廙	-12.2484
靽	-12.2484
䜚	-12.2484
􁌾	-12.2484
蔩	-12.2484
㟅	-12.2484
礣	-12.2484
媆	-12.2485
嗿	-12.2485
羉	-12.2485
仂	-12.2485
虨	-12.2485
欓	-12.2485
潟	-12.2485
棍	-12.2485
岭	-12.2486
蘵	-12.2486
䜈	-12.2486
濠	-12.2486
嵾	-12.2486
茞	-12.2486
蚥	-12.2487
狽	-12.2487
㨾	-12.2487
攲	-12.2487
􁏡	-12.2487
㸔	-12.2488
槥	-12.2488
賕	-12.2488
䠗	-12.2488
騣	-12.2488
譇	-12.2488
䄡	-12.2488
櫡	-12.2489
㾻	-12.2489
嫮	-12.2489
􁘎	-12.2489
􁋪	-12.249
寍	-12.249
㰍	-12.249
哤	-12.249
匘	-12.2491
􁛍	-12.2491
倗	-12.2491
艹	-12.2492
籛	-12.2492
觛	-12.2492
嶫	-12.2492
庤	-12.2492
炁	-12.2493
誋	-12.2493
䧿	-12.2493
孋	-12.2493
瞯	-12.2493
䩉	-12.2493
胜	-12.2493
㯽	-12.2494
􁀢	-12.2494
鴾	-12.2494
汒	-12.2495
𦿆	-12.2495
剰	-12.2495
澦	-12.2495
蛒	-12.2496
秿	-12.2496
瘀	-12.2496
哰	-12.2496
畗	-12.2497
瑽	-12.2497
煏	-12.2497
􁌈	-12.2497
偩	-12.2498
㠥	-12.2499
琤	-12.2499
㜝	-12.2499
鎪	-12.25
􁙅	-12.25
魱	-12.25
謿	-12.25
攎	-12.25
鯆	-12.2501
樘	-12.2501
誎	-12.2501
畣	-12.2501
鸁	-12.2502
坶	-12.2502
怔	-12.2502
􁚵	-12.2503
搹	-12.2503
鱴	-12.2506
􁃐	-12.2506
尩	-12.2507
琭	-12.2508
鱀	-12.2508
倈	-12.2509
刦	-12.2509
庛	-12.251
虪	-12.251
鯦	-12.2516
䃧	-12.2686
􁞀	-12.2687
孈	-12.2692
㵾	-12.2694
砊	-12.2694
晵	-12.2694
掆	-12.2695
錪	-12.2695
潫	-12.2696
嬳	-12.2696
僶	-12.2696
曦	-12.2697
橉	-12.2697
脼	-12.2697
趪	-12.2698
咦	-12.2698
鍍	-12.2698
梐	-12.2698
碼	-12.2699
㟐	-12.2699
滒	-12.2699
䵒	-12.27
淼	-12.27
涆	-12.27
槢	-12.27
岪	-12.27
䐇	-12.2701
㒚	-12.2701
鼶	-12.2701
奫	-12.2701
漅	-12.2702
櫩	-12.2702
浰	-12.2702
幩	-12.2702
慔	-12.2703
惵	-12.2703
眕	-12.2703
餛	-12.2703
鈀	-12.2703
􁟊	-12.2703
蚞	-12.2704
戄	-12.2704
䣱	-12.2704
澋	-12.2704
柈	-12.2705
岍	-12.2706
䃍	-12.2706
珸	-12.2706
櫻	-12.2706
莏	-12.2706
咉	-12.2706
鮵	-12.2706
㾯	-12.2707
犥	-12.2707
蹺	-12.2707
􁛦	-12.2708
誐	-12.2708
鵕	-12.2709
傹	-12.2709
峐	-12.2709
􁆧	-12.2709
轕	-12.2709
攦	-12.271
糦	-12.271
慍	-12.271
䥏	-12.271
􁋝	-12.271
櫌	-12.271
抇	-12.2711
ㄊ	-12.2711
蛺	-12.2711
茘	-12.2711
􁊳	-12.2711
煆	-12.2711
瘇	-12.2711
扤	-12.2711
㡒	-12.2711
㺖	-12.2711
梴	-12.2712
醑	-12.2712
棉	-12.2712
滀	-12.2712
趽	-12.2712
䑙	-12.2712
仵	-12.2713
膱	-12.2713
橅	-12.2713
鱠	-12.2714
氀	-12.2714
刵	-12.2714
覰	-12.2714
髐	-12.2715
蕑	-12.2716
鬟	-12.2716
􁄐	-12.2717
縬	-12.2717
㳒	-12.2717
謋	-12.2717
飋	-12.2717
唄	-12.2717
槸	-12.2718
貁	-12.2718
麖	-12.2719
崍	-12.2719
髕	-12.2719
騈	-12.2719
嶼	-12.272
躑	-12.272
䶀	-12.2721
噀	-12.2721
鴱	-12.2722
􁔔	-12.2723
鉒	-12.2723
羚	-12.2724
㩢	-12.2724
蜇	-12.2725
􁍣	-12.2725
㕚	-12.2728
蒧	-12.2729
哅	-12.273
􁢀	-12.2735
鴷	-12.2738
饠	-12.2911
迿	-12.2911
翃	-12.2913
𤬪	-12.2914
㛑	-12.2915
銋	-12.2915
疨	-12.2916
駚	-12.2917
􁙄	-12.2919
䰉	-12.2921
舷	-12.2922
崘	-12.2922
嵸	-12.2922
䫘	-12.2923
䊤	-12.2923
䪫	-12.2923
乹	-12.2924
㜷	-12.2924
􁓩	-12.2925
酴	-12.2925
踱	-12.2926
䰃	-12.2926
鼴	-12.2926
臲	-12.2927
鹺	-12.2928
㼜	-12.2928
㝞	-12.2928
頧	-12.2928
斞	-12.2928
傉	-12.2929
喅	-12.2929
獢	-12.2929
䨴	-12.2929
炗	-12.293
澼	-12.293
頬	-12.293
齮	-12.293
檎	-12.293
䉶	-12.293
尠	-12.293
鰹	-12.293
錭	-12.2931
趑	-12.2931
䃴	-12.2931
㩋	-12.2931
檆	-12.2931
裦	-12.2931
潧	-12.2932
䁝	-12.2932
鸘	-12.2932
鉄	-12.2932
䕞	-12.2932
蹱	-12.2932
撗	-12.2932
熸	-12.2933
熂	-12.2933
昲	-12.2933
雂	-12.2933
䣜	-12.2933
裖	-12.2933
鷰	-12.2933
摜	-12.2934
燦	-12.2934
䔑	-12.2934
螸	-12.2934
喥	-12.2935
禼	-12.2935
漮	-12.2935
㺯	-12.2935
嘕	-12.2935
磢	-12.2935
餰	-12.2935
倠	-12.2936
幖	-12.2936
灃	-12.2936
靠	-12.2936
􁙫	-12.2936
䣊	-12.2936
鯬	-12.2936
㾗	-12.2936
菎	-12.2936
埿	-12.2937
鴘	-12.2937
酡	-12.2937
懭	-12.2937
蜧	-12.2937
污	-12.2937
嚙	-12.2937
䈰	-12.2937
聝	-12.2938
鬳	-12.2938
犫	-12.2938
塓	-12.2938
䏁	-12.2938
鮋	-12.2938
􁇌	-12.2938
軧	-12.2938
弽	-12.2938
旓	-12.2938
䰐	-12.2939
谽	-12.2939
喠	-12.2939
蝁	-12.2939
謵	-12.2939
縩	-12.294
駗	-12.294
淀	-12.294
䏧	-12.2941
㒔	-12.2941
脙	-12.2941
幝	-12.2941
䚢	-12.2942
褣	-12.2942
伹	-12.2942
􁎹	-12.2942
靆	-12.2942
㽔	-12.2942
扂	-12.2942
緗	-12.2943
􁠔	-12.2943
艦	-12.2943
㯳	-12.2943
觻	-12.2943
騄	-12.2944
廨	-12.2944
欙	-12.2944
磟	-12.2944
洝	-12.2944
盰	-12.2944
嬬	-12.2945
嗂	-12.2945
萿	-12.2946
㤴	-12.2946
罾	-12.2946
嚬	-12.2946
黬	-12.2946
麯	-12.2947
窿	-12.2947
狨	-12.2947
脝	-12.2947
𥜗	-12.2947
套	-12.2947
嗁	-12.2947
禗	-12.2948
􁋃	-12.2949
膟	-12.2949
贆	-12.295
鮤	-12.2951
鶆	-12.2951
琄	-12.2952
冼	-12.2953
甝	-12.2954
㤏	-12.2955
玢	-12.2955
邨	-12.2956
葖	-12.2957
蕺	-12.2957
庬	-12.2958
䏻	-12.2959
聏	-12.296
蒮	-12.296
彔	-12.2961
薓	-12.2966
􁅒	-12.3122
饆	-12.313
䭕	-12.3146
哴	-12.3148
璟	-12.3151
蟼	-12.3153
㪏	-12.3153
硾	-12.3153
臸	-12.3153
譺	-12.3154
㵿	-12.3155
韺	-12.3155
掍	-12.3155
繵	-12.3156
奩	-12.3156
􁉼	-12.3156
嫧	-12.3156
溾	-12.3157
珢	-12.3157
碬	-12.3157
暹	-12.3157
縴	-12.3157
涹	-12.3158
䌜	-12.3158
攠	-12.3158
䪴	-12.3158
莌	-12.3159
絖	-12.3159
庨	-12.3159
聉	-12.316
馝	-12.316
堦	-12.316
蒫	-12.316
秈	-12.3161
㭨	-12.3161
髫	-12.3161
惀	-12.3162
鳿	-12.3162
窉	-12.3162
䙡	-12.3162
䍶	-12.3163
晩	-12.3163
袑	-12.3163
蕣	-12.3163
蔠	-12.3164
螔	-12.3164
㖧	-12.3164
䜕	-12.3164
䍙	-12.3164
袥	-12.3164
傄	-12.3164
跚	-12.3165
䁱	-12.3165
諈	-12.3165
衊	-12.3165
鷈	-12.3165
􁝓	-12.3166
䑿	-12.3166
䨥	-12.3166
㭰	-12.3167
䆅	-12.3167
姧	-12.3167
蜳	-12.3167
䒌	-12.3168
忪	-12.3168
㸒	-12.3168
蕎	-12.3169
濦	-12.3169
鄶	-12.3169
牉	-12.3169
蜝	-12.3169
劕	-12.3169
䗏	-12.317
稄	-12.317
癄	-12.317
㗉	-12.317
偅	-12.317
纜	-12.317
噠	-12.317
驫	-12.317
瓟	-12.317
䯽	-12.3171
甐	-12.3171
圁	-12.3171
孒	-12.3171
嚀	-12.3171
䢉	-12.3171
䌛	-12.3171
傎	-12.3172
叮	-12.3172
瑹	-12.3172
皽	-12.3172
皯	-12.3172
狻	-12.3172
韉	-12.3173
諲	-12.3173
筄	-12.3173
囐	-12.3173
瘝	-12.3173
䔩	-12.3173
滁	-12.3174
䓞	-12.3174
彿	-12.3174
􁋽	-12.3174
胂	-12.3174
􁒅	-12.3174
䛩	-12.3175
虱	-12.3175
㘉	-12.3175
絍	-12.3175
呥	-12.3176
腞	-12.3176
㟭	-12.3176
搋	-12.3176
榬	-12.3176
鉈	-12.3176
鞵	-12.3176
垕	-12.3178
牯	-12.3178
圥	-12.3179
䖹	-12.3179
鰭	-12.3179
鋞	-12.3179
㙤	-12.3179
蠽	-12.318
籖	-12.318
跅	-12.318
劄	-12.3181
澈	-12.3181
丠	-12.3181
閦	-12.3182
棤	-12.3183
篴	-12.3184
杫	-12.3184
搨	-12.3184
郰	-12.3185
獃	-12.3185
􁈹	-12.3186
邋	-12.3186
刊	-12.3186
辣	-12.3187
讁	-12.3187
䯱	-12.3189
娽	-12.3189
鬾	-12.3191
㪔	-12.3191
胕	-12.3191
橕	-12.3191
虷	-12.3195
蜞	-12.3202
蛶	-12.3384
􁈵	-12.3386
汫	-12.3386
􁆕	-12.3387
翢	-12.3387
嫕	-12.3388
鰒	-12.3388
暦	-12.339
唴	-12.339
箖	-12.339
膇	-12.3391
叄	-12.3394
佺	-12.3395
䅧	-12.3395
襐	-12.3396
琈	-12.3396
摦	-12.3396
㮯	-12.3396
㲻	-12.3396
盅	-12.3397
躘	-12.3397
歂	-12.3397
鷔	-12.3397
侊	-12.3397
榹	-12.3398
傪	-12.3398
抲	-12.3398
徲	-12.3399
珣	-12.3399
􁄠	-12.3399
罣	-12.3399
吰	-12.3399
辥	-12.3399
箰	-12.3399
嚃	-12.3399
卟	-12.34
贇	-12.34
􁄡	-12.34
橰	-12.3401
籲	-12.3401
餺	-12.3401
鷴	-12.3402
渨	-12.3402
稏	-12.3402
舐	-12.3402
㣯	-12.3402
䘪	-12.3402
鳼	-12.3402
肻	-12.3402
頢	-12.3402
誺	-12.3402
轗	-12.3403
舃	-12.3403
磃	-12.3403
㗱	-12.3403
伀	-12.3403
蟩	-12.3403
牁	-12.3403
馤	-12.3403
鮈	-12.3403
蔍	-12.3404
䑏	-12.3404
􁜺	-12.3404
綹	-12.3404
摮	-12.3404
飻	-12.3405
璙	-12.3405
籑	-12.3406
䅣	-12.3406
褗	-12.3406
弴	-12.3406
瓬	-12.3406
㥄	-12.3406
䅌	-12.3406
扻	-12.3407
攉	-12.3407
裱	-12.3407
巊	-12.3407
䒼	-12.3407
溦	-12.3408
癃	-12.3408
涾	-12.3408
箅	-12.3409
鄅	-12.3409
艁	-12.3409
尐	-12.3409
鯠	-12.3409
艭	-12.341
䧅	-12.341
覤	-12.341
怌	-12.341
􁎚	-12.3411
鶘	-12.3411
􁊛	-12.3411
涶	-12.3411
侂	-12.3411
堣	-12.3411
贓	-12.3411
覼	-12.3411
顲	-12.3412
槤	-12.3412
眲	-12.3412
篽	-12.3412
闅	-12.3412
鵊	-12.3412
姌	-12.3412
騜	-12.3412
􁞁	-12.3412
栟	-12.3412
䩸	-12.3413
齃	-12.3413
㧁	-12.3413
譒	-12.3413
忚	-12.3413
歾	-12.3413
􁉉	-12.3413
匰	-12.3413
蒠	-12.3414
菂	-12.3414
㙠	-12.3414
蕾	-12.3414
䥘	-12.3414
湞	-12.3414
髹	-12.3414
颸	-12.3414
赮	-12.3414
㓃	-12.3414
膕	-12.3415
鴃	-12.3415
嗋	-12.3415
鈚	-12.3415
懤	-12.3415
匑	-12.3416
㲉	-12.3416
僴	-12.3416
魠	-12.3417
䛠	-12.3417
綘	-12.3418
槅	-12.3418
綂	-12.3418
郾	-12.3419
啅	-12.3419
靲	-12.3419
旳	-12.3419
􁉠	-12.3419
饅	-12.3419
醽	-12.3419
蒤	-12.342
桉	-12.342
芫	-12.342
輤	-12.3421
芿	-12.3421
靾	-12.3422
僩	-12.3422
䵑	-12.3423
􁉬	-12.3423
鑞	-12.3424
穲	-12.3424
餴	-12.3425
嬃	-12.3425
滻	-12.3425
荾	-12.3425
櫼	-12.3426
鳪	-12.3426
􁉁	-12.3428
㒒	-12.3428
韇	-12.3429
騼	-12.3431
蜭	-12.3626
苯	-12.3627
螌	-12.3629
袜	-12.363
黰	-12.3631
㣙	-12.3632
􁏭	-12.3633
儸	-12.3633
䪼	-12.3633
髎	-12.3633
􁙥	-12.3633
顝	-12.3636
矴	-12.3638
烔	-12.3638
懥	-12.3638
趻	-12.3639
􁞯	-12.3639
晅	-12.3639
坁	-12.3639
䒞	-12.364
髒	-12.364
縌	-12.364
嬮	-12.364
嵔	-12.364
喓	-12.364
唵	-12.364
𧽼	-12.3641
䀈	-12.3641
愻	-12.3641
瑴	-12.3641
㥜	-12.3641
黲	-12.3641
懀	-12.3641
絩	-12.3642
蟋	-12.3642
䪜	-12.3643
嚅	-12.3643
晙	-12.3643
㓖	-12.3643
鈷	-12.3644
椊	-12.3644
桾	-12.3644
蛢	-12.3644
諎	-12.3645
䁙	-12.3645
惉	-12.3645
䠙	-12.3645
揘	-12.3645
俍	-12.3645
婷	-12.3646
㤉	-12.3646
嶊	-12.3646
薯	-12.3646
躆	-12.3646
鏶	-12.3647
蜊	-12.3647
牻	-12.3647
䄷	-12.3648
􁉫	-12.3648
鰜	-12.3648
襎	-12.3648
蘈	-12.3648
􁋉	-12.3648
孿	-12.3648
复	-12.3649
䞚	-12.3649
䐄	-12.3649
裀	-12.3649
蚭	-12.3649
齛	-12.3649
鶞	-12.3649
􁓽	-12.365
􁋁	-12.365
霪	-12.365
錥	-12.365
鷘	-12.365
辴	-12.3651
爂	-12.3651
驊	-12.3651
鷟	-12.3651
啽	-12.3651
蘸	-12.3651
藘	-12.3651
棥	-12.3651
䝪	-12.3651
璀	-12.3651
帓	-12.3652
狒	-12.3652
獹	-12.3652
珬	-12.3652
詺	-12.3653
愨	-12.3653
崙	-12.3653
䄖	-12.3653
鬙	-12.3653
䥯	-12.3653
輥	-12.3654
䬍	-12.3654
鷧	-12.3654
腶	-12.3654
薽	-12.3654
携	-12.3654
囤	-12.3655
抖	-12.3655
瀷	-12.3655
湱	-12.3655
驓	-12.3655
榠	-12.3656
苘	-12.3656
諀	-12.3656
􁍋	-12.3657
亓	-12.3657
俺	-12.3657
瘱	-12.3657
萷	-12.3658
鰨	-12.3658
媼	-12.3658
旉	-12.3658
醼	-12.3658
鼵	-12.3658
􁂐	-12.3658
盨	-12.3658
㩉	-12.3659
糷	-12.3659
胿	-12.366
䅻	-12.366
暐	-12.366
蓿	-12.3661
嶆	-12.3661
㽞	-12.3661
䣄	-12.3661
㔍	-12.3662
䩞	-12.3663
􁅼	-12.3663
溯	-12.3663
莋	-12.3664
䤨	-12.3664
䘓	-12.3664
芌	-12.3665
洨	-12.3665
醙	-12.3666
喌	-12.3667
㨿	-12.3667
剺	-12.3668
􁖯	-12.3669
􁇐	-12.367
􁀖	-12.367
漎	-12.3671
鉀	-12.3679
霡	-12.3682
􁡔	-12.3874
仉	-12.3877
濎	-12.3879
蘘	-12.388
􁜍	-12.388
灢	-12.388
忀	-12.3883
寴	-12.3883
崐	-12.3883
㡙	-12.3885
幑	-12.3885
欭	-12.3886
瀙	-12.3888
焆	-12.3888
䏍	-12.3889
㪬	-12.389
蒛	-12.389
繾	-12.389
魛	-12.389
盋	-12.3891
唆	-12.3891
踑	-12.3891
洈	-12.3892
䳘	-12.3892
潣	-12.3892
玏	-12.3892
􁐊	-12.3893
毉	-12.3893
袨	-12.3893
逜	-12.3893
磣	-12.3893
䈇	-12.3893
蜌	-12.3894
噡	-12.3894
㰳	-12.3894
䴊	-12.3894
􁈙	-12.3894
髬	-12.3894
硍	-12.3895
䜱	-12.3895
旞	-12.3895
籦	-12.3895
㿥	-12.3895
錎	-12.3895
鸐	-12.3896
棻	-12.3896
􁊭	-12.3896
玕	-12.3896
􁓈	-12.3896
􁖡	-12.3897
瓻	-12.3897
穬	-12.3897
蹸	-12.3897
璚	-12.3897
璩	-12.3897
岊	-12.3898
鼦	-12.3898
怩	-12.3898
埀	-12.3898
􁟵	-12.3898
齶	-12.3899
獖	-12.3899
擏	-12.3899
玒	-12.3899
􁓬	-12.3899
􁉆	-12.3899
絁	-12.3899
礊	-12.39
菢	-12.39
鬺	-12.39
枑	-12.39
櫄	-12.39
丳	-12.39
􁀺	-12.3901
䔾	-12.3901
䰂	-12.3901
䟺	-12.3901
􁔁	-12.3901
堫	-12.3902
陻	-12.3902
碻	-12.3902
䋕	-12.3902
淴	-12.3902
㹱	-12.3902
疙	-12.3902
鏠	-12.3902
衪	-12.3902
欮	-12.3902
䂦	-12.3902
䆗	-12.3902
鄡	-12.3902
种	-12.3902
鄑	-12.3903
偸	-12.3903
矱	-12.3903
䔟	-12.3903
勴	-12.3903
劖	-12.3903
犩	-12.3903
贉	-12.3903
襋	-12.3904
朡	-12.3904
繸	-12.3904
犝	-12.3904
粳	-12.3904
夹	-12.3904
砆	-12.3904
跿	-12.3904
刧	-12.3905
䠊	-12.3905
蘝	-12.3905
􁘥	-12.3905
歭	-12.3905
鑕	-12.3905
礏	-12.3905
攖	-12.3906
􁀈	-12.3906
埯	-12.3906
䚦	-12.3906
竲	-12.3906
硫	-12.3906
趂	-12.3906
嗕	-12.3906
䘺	-12.3906
殭	-12.3906
㑮	-12.3906
袧	-12.3906
珷	-12.3906
巃	-12.3907
袩	-12.3907
豾	-12.3907
􁖪	-12.3907
鯞	-12.3907
圾	-12.3908
縆	-12.3908
蜐	-12.3908
湤	-12.3908
埼	-12.3908
䰞	-12.3909
殐	-12.3909
頳	-12.3909
穖	-12.3909
冑	-12.3909
俵	-12.3909
燁	-12.391
湡	-12.391
殙	-12.3911
郳	-12.3911
劗	-12.3911
腣	-12.3911
娓	-12.3912
鞢	-12.3912
􁏪	-12.3912
嶬	-12.3912
娕	-12.3912
躭	-12.3913
鵑	-12.3913
嶄	-12.3913
勣	-12.3914
郲	-12.3915
汽	-12.3915
㡋	-12.3916
籓	-12.3918
􁞡	-12.3919
墄	-12.392
鳷	-12.3921
攈	-12.3922
㭊	-12.3926
蝣	-12.4044
㪯	-12.4118
􁖽	-12.4126
䫖	-12.4131
㧒	-12.4133
鏹	-12.4137
㼵	-12.4138
䭇	-12.4138
鞼	-12.4138
睴	-12.4139
曭	-12.4139
垒	-12.4139
鉍	-12.414
餪	-12.414
俕	-12.4141
蜸	-12.4141
㚟	-12.4141
数	-12.4142
㜪	-12.4142
􁜬	-12.4142
擨	-12.4143
茪	-12.4143
㲣	-12.4143
庣	-12.4143
帋	-12.4143
崹	-12.4143
繛	-12.4143
嶕	-12.4143
琡	-12.4143
璡	-12.4144
饍	-12.4144
嶜	-12.4144
􁖌	-12.4144
鱊	-12.4145
抳	-12.4145
珎	-12.4145
痄	-12.4145
㠊	-12.4146
穭	-12.4146
櫏	-12.4147
檹	-12.4147
擽	-12.4147
嘮	-12.4148
篻	-12.4148
弞	-12.4148
篞	-12.4149
矠	-12.4149
蕒	-12.4149
㱸	-12.4149
矏	-12.4149
㚘	-12.4149
劳	-12.4149
偎	-12.4149
幧	-12.4149
㞂	-12.415
􁆎	-12.415
䪌	-12.415
棆	-12.415
蓩	-12.415
䜪	-12.415
慃	-12.415
朖	-12.415
[...]
