<unk>	0
<s>	0
</s>	0
之	-4.13513
也	-4.36867
(	-4.64826
)	-4.70546
/	-4.71096
者	-4.85761
而	-4.94204
爲	-5.07418
以	-5.07903
)(	-5.32114
則	-5.32297
其	-5.3388
有	-5.36125
於	-5.47706
不	-5.5621
一	-5.62
中	-5.74242
人	-5.75671
無	-5.75987
故	-5.76821
上	-5.85161
生	-5.85336
是	-5.96621
心	-5.98297
此	-5.9844
曰	-6.00632
氣	-6.01645
神	-6.01851
自	-6.07663
天	-6.0806
三	-6.08538
如	-6.08626
大	-6.09412
在	-6.09492
得	-6.10237
下	-6.11847
道	-6.12496
即	-6.13765
至	-6.16324
矣	-6.16982
水	-6.1759
與	-6.18599
行	-6.18886
子	-6.22794
乃	-6.25697
見	-6.27126
言	-6.29789
日	-6.3087
出	-6.35176
時	-6.35881
入	-6.37764
陽	-6.40693
二	-6.41457
用	-6.42392
金	-6.42908
眞	-6.43574
謂	-6.44887
五	-6.45302
又	-6.46586
乎	-6.47098
火	-6.47367
若	-6.47481
明	-6.47989
焉	-6.495
後	-6.49936
非	-6.51523
内	-6.52568
六	-6.53961
皆	-6.54596
所	-6.55172
▁	-6.56061
成	-6.56128
四	-6.5657
名	-6.57381
合	-6.57869
作	-6.58838
身	-6.60454
亦	-6.6539
當	-6.66091
陰	-6.66478
去	-6.67864
經	-6.68094
可	-6.68187
地	-6.68252
同	-6.68264
法	-6.68278
相	-6.68723
山	-6.69171
或	-6.69282
來	-6.70727
精	-6.71156
九	-6.72275
復	-6.72857
王	-6.73216
事	-6.73672
君	-6.76611
及	-6.76912
七	-6.77951
從	-6.78171
能	-6.78344
多	-6.79214
化	-6.79286
然	-6.79307
常	-6.80501
玄	-6.80544
于	-6.80669
正	-6.81747
令	-6.82209
方	-6.8333
知	-6.8353
物	-6.85214
形	-6.85403
風	-6.85454
主	-6.85494
通	-6.86145
欲	-6.86813
外	-6.88133
靈	-6.89559
云	-6.89825
長	-6.91328
今	-6.91742
病	-6.93356
取	-6.93933
先	-6.95243
處	-6.95547
玉	-6.95775
使	-6.95841
耳	-6.96083
月	-6.97014
本	-6.98817
前	-6.9913
土	-7
分	-7.00611
木	-7.00694
數	-7.00787
體	-7.02173
我	-7.02877
元	-7.03394
已	-7.03879
八	-7.03932
未	-7.06476
因	-7.06562
者也	-7.06918
十	-7.08398
性	-7.08804
天地	-7.09597
夫	-7.0963
聲	-7.09645
應	-7.09858
將	-7.09885
立	-7.1001
光	-7.10496
必	-7.10939
星	-7.10985
清	-7.11495
文	-7.11562
宫	-7.12486
死	-7.13018
理	-7.13047
受	-7.13572
盡	-7.14132
小	-7.14348
脉	-7.14734
年	-7.14739
居	-7.14989
空	-7.1574
開	-7.16046
命	-7.16751
善	-7.17881
起	-7.19241
丹	-7.19254
門	-7.19577
食	-7.19623
高	-7.21093
白	-7.21246
難	-7.21525
過	-7.21939
○	-7.22362
師	-7.22589
書	-7.22711
兩	-7.2375
歸	-7.2377
龍	-7.23777
傳	-7.23798
不可	-7.23989
德	-7.24192
治	-7.24294
何	-7.24956
和	-7.25305
實	-7.25355
始	-7.25433
還	-7.25572
諸	-7.26206
○)	-7.26861
動	-7.2689
存	-7.2726
重	-7.27442
仙	-7.2774
觀	-7.27805
雖	-7.27906
字	-7.2817
寒	-7.28558
安	-7.28839
平	-7.29145
定	-7.29647
意	-7.30456
右	-7.30606
石	-7.30694
運	-7.30933
離	-7.31318
○)(	-7.3151
雲	-7.32824
帝	-7.32851
虚	-7.33053
音	-7.33353
變	-7.33979
服	-7.34861
少	-7.34925
更	-7.35173
陰陽	-7.35264
不能	-7.35781
象	-7.36072
藏	-7.36126
凡	-7.36996
世	-7.37735
北	-7.38254
飛	-7.38262
色	-7.38379
說	-7.38739
向	-7.39712
口	-7.39756
蓋	-7.39784
便	-7.40411
初	-7.4051
微	-7.40544
不得	-7.40666
流	-7.41004
反	-7.41076
易	-7.41196
絶	-7.41223
會	-7.42193
炁	-7.42875
自然	-7.42938
華	-7.42956
黄	-7.43135
深	-7.43684
足	-7.4373
骨	-7.44282
藥	-7.44584
公	-7.45224
隨	-7.45284
求	-7.45358
目	-7.45489
發	-7.45518
修	-7.46655
熱	-7.46678
位	-7.46825
萬	-7.47147
衆	-7.47171
散	-7.47533
吾	-7.47649
日月	-7.48004
極	-7.4863
各	-7.49155
青	-7.494
好	-7.50384
符	-7.50486
度	-7.50567
邪	-7.51189
故曰	-7.51794
周	-7.51886
别	-7.52406
臣	-7.52629
引	-7.5279
間	-7.52985
次	-7.53132
隂	-7.53155
乾	-7.53368
終	-7.53606
守	-7.5369
情	-7.54068
歲	-7.54122
思	-7.5435
息	-7.54389
家	-7.54793
所以	-7.55024
俱	-7.55095
之中	-7.55846
國	-7.55995
妙	-7.56202
頭	-7.56271
眞人	-7.56318
結	-7.56346
滿	-7.56511
著	-7.56572
聞	-7.5714
西	-7.5725
虎	-7.57396
靜	-7.57722
勝	-7.57783
无	-7.57851
解	-7.5789
問	-7.59309
既	-7.59427
樂	-7.59531
而不	-7.59578
猶	-7.59868
降	-7.60634
止	-7.60821
景	-7.60904
東	-7.61067
須	-7.61108
為	-7.61423
可以	-7.618
失	-7.61882
遂	-7.6194
交	-7.62376
之氣	-7.62532
隱	-7.62596
南	-7.62859
春	-7.63446
章	-7.63845
且	-7.63855
宜	-7.6429
功	-7.64359
甚	-7.64582
惡	-7.64914
滅	-7.64931
伏	-7.65327
盛	-7.65402
論	-7.65467
之道	-7.65632
十二	-7.66313
但	-7.66356
赤	-7.67434
志	-7.67633
齊	-7.68164
全	-7.68968
百	-7.69005
等	-7.69287
教	-7.69471
似	-7.6997
莫	-7.70266
萬物	-7.70581
爾	-7.70858
五行	-7.71034
義	-7.71041
養	-7.71298
謂之	-7.71501
血	-7.71803
轉	-7.71893
半	-7.72146
並	-7.72249
腎	-7.72264
老	-7.72717
真	-7.72878
信	-7.73746
疾	-7.74099
不知	-7.74989
亂	-7.75198
寶	-7.75617
要	-7.75808
鬼	-7.76015
固	-7.76349
女	-7.76439
指	-7.7758
廣	-7.77749
却	-7.78058
直	-7.78076
哉	-7.78083
積	-7.78302
節	-7.78462
旣	-7.78596
註	-7.78853
利	-7.79209
注	-7.79432
手	-7.79605
圖	-7.79764
遊	-7.79959
遇	-7.80248
異	-7.80398
名曰	-7.80518
坐	-7.80827
惟	-7.81705
左	-7.81859
永	-7.82063
聖	-7.82067
學	-7.82395
朝	-7.82498
苦	-7.82564
力	-7.82654
進	-7.83173
肺	-7.83554
天下	-7.84086
授	-7.84299
夜	-7.84472
首	-7.85042
汞	-7.851
魚	-7.85444
致	-7.85534
遠	-7.85824
肝	-7.86075
州	-7.86123
都	-7.86327
獨	-7.86349
鉛	-7.86538
官	-7.86549
唯	-7.8702
斯	-7.87394
太	-7.87396
坤	-7.87697
順	-7.87726
刺	-7.87806
鍊	-7.87965
識	-7.8837
殺	-7.8843
除	-7.8864
關	-7.88725
念	-7.89042
愛	-7.89243
衣	-7.89338
虛	-7.89963
衰	-7.90353
并	-7.90575
近	-7.9083
於是	-7.91034
舉	-7.91079
酒	-7.91497
民	-7.91559
巳	-7.91699
花	-7.92185
語	-7.92312
餘	-7.92613
禁	-7.9271
勿	-7.9274
千	-7.93156
由	-7.93311
吟	-7.93651
脾	-7.93679
馬	-7.93793
退	-7.93815
共	-7.93899
張	-7.9401
海	-7.94077
輕	-7.9421
/○○○○)	-7.94546
夏	-7.94674
魂	-7.95076
傷	-7.95079
乘	-7.95748
痛	-7.95881
堅	-7.97294
畢	-7.98013
制	-7.98105
之所	-7.98243
急	-7.98762
屬	-7.98957
洞	-7.99256
秋	-7.99674
卷	-7.99703
(/	-7.9996
兵	-8.00112
以爲	-8.00179
李	-8.00279
黑	-8.00627
尋	-8.00679
切	-8.00853
紫	-8.00862
根	-8.00898
己	-8.00909
益	-8.0094
凝	-8.01026
奉	-8.01188
所謂	-8.01269
是也	-8.0188
照	-8.02134
毛	-8.02153
篇	-8.02459
稱	-8.03318
如此	-8.03517
加	-8.0359
感	-8.03711
貴	-8.03886
任	-8.04058
古	-8.04068
浮	-8.05186
上下	-8.05271
視	-8.05315
臨	-8.05577
登	-8.05612
母	-8.05776
寳	-8.05866
漢	-8.05884
鼎	-8.06195
之時	-8.06234
留	-8.06413
到	-8.06459
福	-8.06679
亡	-8.06711
悟	-8.0701
也故	-8.07612
依	-8.07816
肉	-8.07842
長生	-8.08006
乾坤	-8.08083
執	-8.08097
害	-8.081
被	-8.0811
了	-8.08178
損	-8.08511
强	-8.08585
壽	-8.0874
忘	-8.08783
對	-8.09299
面	-8.0932
水火	-8.0989
親	-8.1003
味	-8.10203
神仙	-8.10376
就	-8.10511
隂陽	-8.10744
太上	-8.11078
雨	-8.11166
達	-8.1122
卦	-8.11401
覺	-8.11754
喜	-8.12031
室	-8.12051
呼	-8.12149
宗	-8.12266
彼	-8.1236
聖人	-8.12476
榮	-8.12915
是以	-8.12955
收	-8.12995
裏	-8.13022
久	-8.13262
香	-8.13297
逆	-8.13487
智	-8.1371
路	-8.1378
幽	-8.13845
府	-8.13977
然後	-8.14311
草	-8.14458
走	-8.14488
變化	-8.14518
豈	-8.14644
陳	-8.15173
液	-8.1528
恐	-8.15741
舌	-8.15854
保	-8.16056
坎	-8.16083
左右	-8.16648
是謂	-8.16781
望	-8.16936
珠	-8.16967
具	-8.17034
持	-8.17203
胎	-8.17315
艮	-8.1764
圓	-8.17711
素	-8.17821
許	-8.18221
奇	-8.18329
禮	-8.18554
備	-8.18718
報	-8.18884
訣	-8.1897
請	-8.19373
五藏	-8.19707
每	-8.2001
⬤	-8.2006
之法	-8.2017
宿	-8.20274
是爲	-8.2028
士	-8.20463
消	-8.2057
漸	-8.20681
興	-8.20687
候	-8.21303
休	-8.21658
夢	-8.21823
辰	-8.22554
中有	-8.22691
布	-8.234
十五	-8.23443
汝	-8.23476
太一	-8.23574
先生	-8.23711
含	-8.23931
造	-8.24973
號	-8.24996
機	-8.25017
巽	-8.25114
而爲	-8.25387
朱	-8.25429
敗	-8.2589
破	-8.25946
閑	-8.26399
斗	-8.26431
秦	-8.26531
之後	-8.2707
落	-8.2719
其氣	-8.27405
看	-8.2762
太陽	-8.27638
返	-8.27671
住	-8.27714
憂	-8.28372
飲	-8.28373
元氣	-8.28603
封	-8.28821
閉	-8.2896
顯	-8.2905
期	-8.29169
妄	-8.29313
斷	-8.29387
告	-8.29476
賢	-8.29738
塵	-8.29867
尚	-8.29917
而生	-8.29967
代	-8.29995
十一	-8.30463
金丹	-8.3048
術	-8.30662
假	-8.31144
疑	-8.31301
再	-8.31418
温	-8.31429
之上	-8.31458
比	-8.31465
鼻	-8.3162
宻	-8.31962
施	-8.31981
業	-8.32062
補	-8.32161
武	-8.32212
冬	-8.32229
兼	-8.32532
造化	-8.32583
城	-8.32619
甲	-8.32638
/○○○	-8.3271
愈	-8.32813
司	-8.33294
林	-8.33317
他	-8.3339
大道	-8.33912
想	-8.3402
太極	-8.34057
沉	-8.34106
迴	-8.34214
父	-8.34689
質	-8.34892
氏	-8.3491
俗	-8.35236
果	-8.35327
鳥	-8.35396
衛	-8.35655
魄	-8.35775
新	-8.36139
胃	-8.36252
昔	-8.36252
爭	-8.36571
四時	-8.36598
甘	-8.36676
至于	-8.36719
升	-8.36725
啓	-8.36732
器	-8.36896
牛	-8.37805
穴	-8.37808
吉	-8.37812
歌	-8.38037
窮	-8.3806
羽	-8.38149
眼	-8.38229
孔	-8.38235
聚	-8.38336
曲	-8.38477
按	-8.39035
剛	-8.39041
而已	-8.39202
計	-8.39223
車	-8.39311
願	-8.39542
勞	-8.39689
祖	-8.39775
細	-8.39901
移	-8.40044
申	-8.40234
美	-8.40304
還丹	-8.40375
十六	-8.40434
之間	-8.40666
陵	-8.40882
忽	-8.40909
辛	-8.4107
耶	-8.41118
午	-8.41281
龍虎	-8.41326
十四	-8.41326
震	-8.41606
採	-8.41663
列	-8.41665
種	-8.41738
建	-8.41808
尊	-8.4193
聽	-8.42035
而成	-8.42513
谷	-8.42527
烏	-8.42562
境	-8.42672
劉	-8.42683
混	-8.42771
生於	-8.428
辭	-8.42887
放	-8.43131
容	-8.43173
凶	-8.43173
救	-8.43181
葉	-8.43281
井	-8.43622
客	-8.43737
鼓	-8.4403
濟	-8.44095
迷	-8.44141
/○○○○)(	-8.44145
齋	-8.44172
江	-8.44453
魏	-8.44524
誠	-8.44559
泄	-8.45336
録	-8.45413
調	-8.45726
二十	-8.4582
某	-8.45851
昇	-8.45994
戒	-8.46576
二十四	-8.46683
經云	-8.46737
驚	-8.46842
十三	-8.46854
砂	-8.46975
步	-8.46997
毒	-8.4703
表	-8.47192
之人	-8.47246
兮	-8.4727
薄	-8.47471
總	-8.47498
遍	-8.47619
適	-8.47909
伐	-8.48429
旦	-8.48736
類	-8.48879
三元	-8.48977
誰	-8.48977
參	-8.49249
黄帝	-8.49267
寧	-8.49575
皇	-8.49582
詩	-8.49616
煉	-8.49635
冥	-8.49709
驗	-8.49765
盈	-8.49778
角	-8.49791
徃	-8.49797
載	-8.49814
兔	-8.49913
十八	-8.49916
夫人	-8.50048
之内	-8.5013
舍	-8.50204
河	-8.5025
無所	-8.50319
棄	-8.50323
人之	-8.50387
早	-8.50688
陽氣	-8.50944
災	-8.51009
上清	-8.51313
部	-8.51368
厥	-8.51395
針	-8.51529
臺	-8.51612
仰	-8.51636
待	-8.51837
一聲	-8.51961
禍	-8.52001
道士	-8.52032
姓	-8.52101
也夫	-8.52594
兆	-8.5285
回	-8.52916
罪	-8.52973
爲之	-8.53061
威	-8.53111
記	-8.5319
三十	-8.53191
羅	-8.53195
腹	-8.53474
縣	-8.53621
仁	-8.53691
縱	-8.53749
露	-8.53789
眞氣	-8.5385
連	-8.54291
况	-8.54587
縁	-8.54596
脫	-8.54784
逺	-8.54872
軍	-8.54922
集	-8.55018
患	-8.55101
瑩	-8.55457
良	-8.55639
晋	-8.55652
不同	-8.55659
干	-8.55685
抱	-8.55736
師曰	-8.55998
楚	-8.56017
御	-8.5603
一日	-8.56165
遺	-8.56231
覆	-8.56231
絡	-8.56479
累	-8.5653
犬	-8.56872
梁	-8.57141
侯	-8.57262
攝	-8.57275
危	-8.57307
煙	-8.57441
紅	-8.57476
鳳	-8.5764
笑	-8.5779
只	-8.57828
乆	-8.57945
房	-8.58036
條	-8.58324
得道	-8.5835
雜	-8.58627
充	-8.58661
不見	-8.58761
)(/	-8.58785
冠	-8.58871
丁	-8.59026
出入	-8.59054
辰戌	-8.59143
潜	-8.5955
皮	-8.59551
陽明	-8.59604
卧	-8.59637
筋	-8.5967
源	-8.59915
超	-8.59997
生死	-8.60079
津	-8.60151
差	-8.60231
塞	-8.6026
紀	-8.60415
濁	-8.60625
田	-8.60651
澤	-8.60734
不及	-8.61201
承	-8.613
柔	-8.61303
慧	-8.61375
五聲	-8.6138
爐	-8.61433
接	-8.615
投	-8.6159
循	-8.61701
序	-8.61711
背	-8.61813
奔	-8.61927
證	-8.62052
樹	-8.62142
懷	-8.62253
寂	-8.62487
之下	-8.6286
辰巳	-8.62901
不足	-8.62987
少陽	-8.6302
寫	-8.63112
厚	-8.63131
趙	-8.63142
三日	-8.63211
令人	-8.63315
伯	-8.63374
雪	-8.63509
闕	-8.63614
至於	-8.63763
徒	-8.63992
延	-8.64121
愚	-8.64268
拜	-8.64359
蛇	-8.64414
寅	-8.64452
庚	-8.64592
之數	-8.64619
丘	-8.64686
謀	-8.64708
推	-8.64727
置	-8.64758
三聲	-8.64843
太陰	-8.64869
五音	-8.6498
□	-8.64997
帶	-8.65251
而後	-8.65259
往	-8.65315
垂	-8.65921
行之	-8.65945
四聲	-8.66003
甲子	-8.66179
二聲	-8.66182
宣	-8.66399
濕	-8.66436
鬱	-8.66472
化爲	-8.66676
火候	-8.6676
舊	-8.66784
釋	-8.66874
三年	-8.67004
金水	-8.67042
十七	-8.67123
内外	-8.67155
弟子	-8.67278
商	-8.67313
刑	-8.67498
寄	-8.67516
謝	-8.67558
納	-8.67722
履	-8.67738
兄	-8.67843
錬	-8.68435
末	-8.68494
蟲	-8.68771
輪	-8.69004
卒	-8.69042
鼠	-8.6908
審	-8.69203
服之	-8.69537
逢	-8.6961
專	-8.69896
喻	-8.7019
辰申	-8.70487
也其	-8.7049
敬	-8.70535
八聲	-8.7054
察	-8.70552
辰辰	-8.70567
辰午	-8.70588
世人	-8.70689
鳴	-8.70815
原	-8.70842
刻	-8.70877
宋	-8.70935
人也	-8.71076
宅	-8.71103
辰寅	-8.71301
辰未	-8.71417
宰	-8.71604
仙人	-8.71798
契	-8.71941
父母	-8.71987
改	-8.71996
獸	-8.72119
君子	-8.72138
辰子	-8.72163
遷	-8.72336
辰丑	-8.72404
辰亥	-8.72405
辰卯	-8.72409
辰酉	-8.72413
殊	-8.72483
政	-8.72563
吐	-8.72747
越	-8.72812
横	-8.72918
故云	-8.73538
辯	-8.73557
映	-8.73557
禀	-8.73558
吴	-8.73567
三十六	-8.73573
速	-8.73588
尸	-8.73684
又曰	-8.73709
少陰	-8.73771
晨	-8.73991
十九	-8.74059
無爲	-8.74081
歷	-8.74101
神氣	-8.74167
弱	-8.74209
修行	-8.74619
淫	-8.7462
兊	-8.74643
庭	-8.74703
卯	-8.74794
答	-8.74812
詳	-8.74878
老君	-8.74965
跡	-8.74988
酉	-8.75202
權	-8.75245
鬼神	-8.75257
佛	-8.75497
竹	-8.75809
增	-8.75811
召	-8.75878
堂	-8.75938
白虎	-8.76004
昌	-8.76269
精神	-8.76316
英	-8.76363
賊	-8.76391
悉	-8.76474
九聲	-8.76579
者是	-8.76646
孝	-8.76973
逐	-8.77082
暴	-8.772
懸	-8.77234
五色	-8.7728
否	-8.77364
丹田	-8.77406
蒙	-8.77541
端	-8.77605
晝夜	-8.77621
折	-8.77631
畫	-8.77879
童	-8.78283
鐵	-8.78378
熟	-8.78434
冷	-8.78592
慮	-8.78601
訖	-8.78689
恩	-8.78779
穀	-8.78806
示	-8.78877
户	-8.79142
綱	-8.79276
奏	-8.79503
人間	-8.79527
汗	-8.79556
畏	-8.79568
青龍	-8.79667
十聲	-8.79699
約	-8.79719
駕	-8.79789
二音	-8.79895
隔	-8.79903
潤	-8.79966
霜	-8.80103
攻	-8.80255
有所	-8.80324
龜	-8.80425
九天	-8.80596
男	-8.80644
泥丸	-8.80783
咽	-8.80785
仍	-8.80792
營	-8.80808
坎離	-8.80871
膽	-8.8092
祝	-8.80944
乙	-8.8096
神明	-8.81112
壯	-8.81128
波	-8.81361
貪	-8.8143
配	-8.81656
余	-8.81704
雙	-8.81743
唐	-8.81828
黄芽	-8.81911
八音	-8.82053
穢	-8.8224
丹砂	-8.82313
徐	-8.82347
泰	-8.82614
楊	-8.82713
昏	-8.82722
泉	-8.82765
帥	-8.82862
㫖	-8.82901
乍	-8.82961
狀	-8.82997
産	-8.83099
六音	-8.83292
學道	-8.83461
真人	-8.83661
十一音	-8.83687
九音	-8.83719
野	-8.83802
之事	-8.83932
燥	-8.83937
碧	-8.83995
四音	-8.84099
一音	-8.84099
獲	-8.84111
欠	-8.84166
犯	-8.84341
天地之	-8.84432
一切	-8.84446
偏	-8.84532
十音	-8.84549
七音	-8.84645
於此	-8.84669
孫	-8.84847
銀	-8.85113
怒	-8.85156
答曰	-8.85156
喪	-8.85229
把	-8.85435
亥	-8.85437
三音	-8.85469
簡	-8.85966
才	-8.85982
秀	-8.86122
又云	-8.86568
負	-8.86609
齒	-8.86637
曉	-8.86649
諱	-8.86768
謹	-8.8686
資	-8.86889
十二音	-8.86998
尾	-8.87025
岳	-8.87175
底	-8.87176
領	-8.8724
曾	-8.87251
霍	-8.87331
魯	-8.87508
郡	-8.87536
鉛汞	-8.87569
醉	-8.87793
水銀	-8.87828
悲	-8.8784
祕	-8.87853
一名	-8.8792
允	-8.88258
一年	-8.88376
而無	-8.88445
霞	-8.88515
迎	-8.88674
五臟	-8.88821
没	-8.88826
妻	-8.8897
勤	-8.89018
里	-8.89114
之山	-8.8913
習	-8.89172
各有	-8.89252
輔	-8.89324
惑	-8.89485
徹	-8.89502
妾	-8.89508
暗	-8.89693
不敢	-8.8992
第一	-8.90254
奪	-8.90308
有餘	-8.90378
之理	-8.9038
管	-8.90658
不用	-8.91079
第三	-8.91229
是故	-8.91786
燒	-8.91856
緩	-8.919
陰氣	-8.91947
工	-8.91953
貫	-8.9207
誦	-8.92139
丸	-8.92296
亦有	-8.92345
呼吸	-8.92393
三五	-8.92592
胡	-8.92702
設	-8.92963
殿	-8.93074
六甲	-8.93109
務	-8.93125
腦	-8.9315
淵	-8.93167
幾	-8.93418
八卦	-8.93612
助	-8.93717
送	-8.93836
群	-8.93977
將軍	-8.94059
司天	-8.94112
用之	-8.9422
鎭	-8.94424
純陽	-8.94426
狂	-8.94468
據	-8.94473
借	-8.94479
經曰	-8.9453
廢	-8.94763
魂魄	-8.94875
短	-8.94936
二千二百	-8.9502
即是	-8.9504
捨	-8.95068
孤	-8.95089
違	-8.95115
康	-8.95546
腰	-8.95635
壇	-8.95758
遣	-8.95991
鏡	-8.96183
邊	-8.96222
咸	-8.96287
者皆	-8.96335
何以	-8.96336
酸	-8.96378
惠	-8.96562
界	-8.96565
夷	-8.96825
𣈆	-8.97018
嬰兒	-8.97318
忌	-8.97328
拔	-8.97328
何也	-8.9736
其道	-8.97549
二十五	-8.97593
招	-8.97676
竅	-8.97682
默	-8.9791
免	-8.98063
道德	-8.98064
至道	-8.98079
也若	-8.98175
魔	-8.98225
儀	-8.98254
其神	-8.98351
揚	-8.98486
玉女	-8.98767
爻	-8.98794
金液	-8.9887
淨	-8.98888
帝君	-8.99242
考	-8.99333
索	-8.99409
精氣	-8.99635
沐浴	-8.99731
恒	-8.99831
髮	-8.99895
如是	-8.99964
環	-9.00239
湯	-9.00328
亘	-9.00551
顧	-9.00566
泥	-9.00606
枝	-9.00614
財	-9.00625
刀	-9.00721
五十	-9.00803
滯	-9.00825
者謂	-9.00861
試	-9.00889
膀胱	-9.00895
出於	-9.00907
則爲	-9.0091
不死	-9.01209
嘗	-9.0126
燕	-9.01305
四十	-9.01341
七日	-9.01451
曜	-9.01514
繫	-9.01527
無窮	-9.0173
脚	-9.01924
蒼	-9.02102
煩	-9.02108
此是	-9.02142
予	-9.02395
屈	-9.02396
俞	-9.02415
誤	-9.02427
一月	-9.02509
停	-9.02516
律	-9.02569
嚥	-9.02645
箇	-9.02645
如何	-9.02678
特	-9.02707
擊	-9.02741
竭	-9.02775
況	-9.02944
尺	-9.02952
草木	-9.03004
舒	-9.0311
讀	-9.03238
太平	-9.0338
治之	-9.03507
賜	-9.0354
吞	-9.03629
丑	-9.03657
旋	-9.03725
卿	-9.03816
一人	-9.03841
髓	-9.03862
徑	-9.03867
崇	-9.03884
鄭	-9.04011
先天	-9.04066
改元	-9.04478
勢	-9.04481
影	-9.0477
純	-9.04807
貞	-9.04925
愼	-9.04935
十月	-9.04979
乞	-9.04985
侍	-9.05043
育	-9.05104
附	-9.05115
最	-9.05122
傾	-9.05335
之外	-9.05342
迹	-9.05391
戰	-9.05394
嚴	-9.05423
歟	-9.05465
友	-9.05532
亦不	-9.05576
其所	-9.05594
之日	-9.05612
其中	-9.05627
量	-9.05649
第二	-9.05795
昭	-9.05904
瓊	-9.05917
幸	-9.06101
頂	-9.0612
統	-9.06182
新校正云詳	-9.06218
一氣	-9.06437
翼	-9.06452
岐伯曰	-9.06633
天之	-9.06699
潔	-9.06703
之精	-9.06713
騰	-9.06726
東方	-9.06727
此法	-9.06803
其名曰	-9.06823
詣	-9.0696
丙	-9.06974
韓	-9.07141
述	-9.07331
郎	-9.0741
澄	-9.07419
四日	-9.07496
自有	-9.07592
現	-9.07595
科	-9.07644
季	-9.07709
雷	-9.07735
二十一	-9.0775
支	-9.07794
暮	-9.07972
不復	-9.0812
知其	-9.08122
眉	-9.08442
扶	-9.08662
中央	-9.08708
屋	-9.08853
逸	-9.08878
衝	-9.08979
追	-9.08988
九轉	-9.09099
禪	-9.09187
朗	-9.09208
松	-9.09262
膝	-9.09277
竟	-9.09381
繼	-9.09414
性命	-9.09478
枯	-9.09566
不動	-9.09588
校	-9.09817
敢	-9.09953
之用	-9.0997
之功	-9.09979
希	-9.10192
偶	-9.10413
者何也	-9.10425
上元	-9.10466
决	-9.1047
包	-9.1047
動靜	-9.10575
北方	-9.10595
緑	-9.10641
託	-9.10809
學者	-9.10836
壞	-9.10996
慶	-9.1102
昧	-9.11028
句	-9.11163
癸	-9.11244
略	-9.11284
劫	-9.11307
透	-9.11361
太清	-9.11414
一斤	-9.11436
池	-9.11635
不生	-9.11765
而有	-9.11784
問曰	-9.11786
呪	-9.11921
逰	-9.11982
徵	-9.12034
無形	-9.12097
克	-9.12459
蜀	-9.12491
个	-9.12563
號曰	-9.12776
北斗	-9.12806
融	-9.13023
二十八	-9.13121
策	-9.13242
之妙	-9.13296
品	-9.13432
減	-9.13447
市	-9.13532
一陽	-9.1355
者爲	-9.13731
衆生	-9.13836
之位	-9.13914
占	-9.13961
川	-9.1405
游	-9.14089
兒	-9.14136
一身	-9.1422
怪	-9.14241
津液	-9.14448
司命	-9.148
傍	-9.14927
妻子	-9.14939
避	-9.14958
淺	-9.15041
寒熱	-9.15056
歩	-9.15084
西方	-9.15153
晝	-9.15172
滋	-9.15457
弦	-9.15569
盜	-9.15856
哀	-9.15943
掌	-9.16114
入于	-9.1626
在於	-9.16374
苟	-9.16394
小腸	-9.16447
暉	-9.16484
基	-9.1695
道之	-9.17028
頓	-9.17253
鄉	-9.1747
雄	-9.17589
其數	-9.17597
貧	-9.17675
翠	-9.1772
溢	-9.1786
戊	-9.17881
故能	-9.17952
鶴	-9.18016
夕	-9.18073
僧	-9.18165
服氣	-9.18176
牙	-9.18189
灾	-9.18206
印	-9.1823
其身	-9.18232
際	-9.18242
之象	-9.18288
不爲	-9.18525
二十二	-9.18636
三才	-9.18886
南方	-9.18997
漏	-9.19131
吹	-9.19375
寸	-9.19423
標	-9.19462
沈	-9.19512
寢	-9.19531
壬	-9.19668
之道也	-9.19691
新校正云按	-9.19764
之物	-9.19807
宇	-9.19948
萬里	-9.19948
遲	-9.19971
叔	-9.19996
劒	-9.20002
飲食	-9.20075
寒暑	-9.20169
富	-9.20211
不通	-9.20395
也此	-9.20401
四方	-9.20444
逍遥	-9.20447
儒	-9.20571
錯	-9.20704
三陽	-9.20865
巨	-9.20951
三界	-9.20959
大丹	-9.21181
委	-9.21226
也又	-9.21291
兹	-9.21682
不離	-9.21706
其形	-9.21712
怨	-9.21788
錢	-9.21821
奈何	-9.21866
常以	-9.21941
炎	-9.21986
戌	-9.22028
之士	-9.2215
腸	-9.22192
困	-9.22243
圍	-9.22266
巧	-9.22269
第五	-9.22348
慈	-9.22355
百日	-9.22491
沙	-9.22512
項	-9.22607
妖	-9.22636
痹	-9.22719
虧	-9.22756
入於	-9.23071
導	-9.23127
太過	-9.23175
耀	-9.23199
童子	-9.23486
尤	-9.23495
分明	-9.23539
彌	-9.23562
莫不	-9.23566
籙	-9.23636
陶	-9.23688
杜	-9.23728
混沌	-9.23947
密	-9.23968
皆有	-9.24084
世間	-9.24086
不過	-9.24241
冰	-9.2428
流珠	-9.2429
不可以	-9.24318
弟	-9.24368
躁	-9.24531
洛	-9.24564
豐	-9.2458
吸	-9.24586
覩	-9.24702
披	-9.24867
摩	-9.24896
二十三	-9.24901
六十	-9.24995
鹹	-9.25196
像	-9.25237
添	-9.25331
其心	-9.25384
響	-9.25399
着	-9.25479
邪氣	-9.25502
倒	-9.25517
辟	-9.25567
嬰	-9.25593
尚書	-9.25704
階	-9.25782
明堂	-9.25928
緫	-9.25956
凉	-9.26094
見之	-9.26095
懼	-9.26104
而去	-9.26125
佐	-9.26126
彰	-9.26167
富貴	-9.26219
羊	-9.26283
天師	-9.26306
振	-9.26339
四象	-9.26407
天尊	-9.26469
省	-9.26488
二十六	-9.26491
責	-9.26495
錦	-9.26557
染	-9.26696
取之	-9.26698
爲陽	-9.26797
乖	-9.26927
厥陰	-9.26929
婦	-9.27106
陸	-9.27218
黄庭	-9.27255
故爲	-9.27323
羣	-9.27386
於人	-9.27419
也然	-9.27475
霄	-9.27671
者則	-9.27752
五味	-9.27757
滑	-9.27774
人有	-9.27796
談	-9.27864
光明	-9.27954
胎息	-9.28078
蕩	-9.28105
忠	-9.28249
堪	-9.284
殃	-9.28412
男女	-9.28454
之脉	-9.28496
虚無	-9.28555
多少	-9.28587
霧	-9.28626
灌	-9.28833
長史	-9.28941
其病	-9.29144
帝曰	-9.29157
起於	-9.29163
之神	-9.29197
淳	-9.29233
女子	-9.29404
▁(	-9.29568
粉	-9.29596
典	-9.297
得其	-9.29838
道者	-9.2995
肩	-9.3001
格	-9.30263
禄	-9.30273
天道	-9.30283
不出	-9.30288
第四	-9.30333
善惡	-9.30339
往來	-9.30364
一時	-9.30501
則有	-9.30512
清淨	-9.30589
二十七	-9.3059
博	-9.30642
口訣	-9.30656
大腸	-9.30686
血氣	-9.30724
護	-9.30767
纔	-9.30827
柳	-9.30851
殘	-9.30861
五星	-9.30976
腫	-9.31275
暑	-9.31321
舟	-9.31359
太玄	-9.3151
身中	-9.31621
誅	-9.31712
馳	-9.31793
之初	-9.31841
私	-9.31924
五嶽	-9.31961
工夫	-9.32171
研	-9.32253
朱雀	-9.32315
汁	-9.3238
之際	-9.32434
棲	-9.32589
病者	-9.32791
吕	-9.32826
題	-9.3291
二氣	-9.33004
籍	-9.33007
付	-9.33036
史	-9.33041
使人	-9.33098
夭	-9.33169
役	-9.33312
憑	-9.33319
之術	-9.33488
者必	-9.33494
進退	-9.33518
是非	-9.3364
三焦	-9.33644
不相	-9.33751
無不	-9.33785
爲相	-9.33862
溪	-9.33863
太素	-9.3395
嘉	-9.33992
此之謂也	-9.34043
蒸	-9.34198
顔	-9.34208
鎮	-9.34294
觸	-9.3438
蔽	-9.34404
名爲	-9.34414
六府	-9.34539
仲	-9.34699
五帝	-9.34728
限	-9.34732
心審	-9.34774
歡	-9.348
男坎	-9.34851
元始	-9.34868
黄帝曰	-9.34914
眞一	-9.35117
千里	-9.35235
六氣	-9.3525
禹	-9.35288
禾火化八	-9.35294
不利	-9.35295
刀早孝	-9.35299
牛斗奏	-9.35308
龍甬用	-9.35314
在乎	-9.3538
暢	-9.35413
故也	-9.35427
貌	-9.35434
桑	-9.35438
溺	-9.35471
又有	-9.35686
龜水貴	-9.35838
醫	-9.35996
之說	-9.36048
多可	-9.36062
點	-9.36295
飽	-9.36386
丁井	-9.36392
千典	-9.36394
一本	-9.36402
言之	-9.3641
賞	-9.36441
鐘	-9.3654
拘	-9.36599
吏	-9.36613
以成	-9.36814
射	-9.36877
乳	-9.36894
鑒	-9.36979
便是	-9.3701
人身	-9.37064
太虚	-9.37078
慾	-9.37271
前後	-9.37285
京	-9.37292
一曰	-9.37438
以其	-9.37441
臂	-9.3746
良兩	-9.37569
輒	-9.37609
上昇	-9.37771
洗	-9.38133
戲	-9.38139
必有	-9.3814
邑	-9.38175
無極	-9.38202
秘	-9.38262
七星	-9.38539
三月	-9.38559
回每	-9.38561
葬	-9.3868
洪	-9.38827
庶	-9.38979
生氣	-9.39012
而出	-9.39034
不在	-9.39185
老子	-9.39336
食之	-9.39345
得之	-9.39499
慕	-9.39524
奚	-9.39534
相合	-9.39573
無常	-9.39703
輿	-9.39717
今日	-9.39873
捻	-9.39873
三一	-9.3996
無有	-9.3997
佳	-9.40186
九宫	-9.40201
疏	-9.40235
亦可	-9.40285
防	-9.40361
爲陰	-9.40438
飢	-9.40695
鮮	-9.40737
晩	-9.40782
監	-9.40797
萬神	-9.40812
手足	-9.4101
太白	-9.41135
佩	-9.41138
冬至	-9.41235
均	-9.41296
祭	-9.41328
天上	-9.41488
合於	-9.41501
沖	-9.41523
樓	-9.41609
僞	-9.41657
之義	-9.41683
之始	-9.4189
陰陽之	-9.4192
輝	-9.41924
戊己	-9.41938
大小	-9.42003
亦無	-9.42059
盤	-9.42305
小人	-9.42345
枕	-9.42376
二年	-9.42421
生成	-9.42516
巖	-9.42564
華池	-9.4259
甲午	-9.4265
之前	-9.42747
幻	-9.42776
第六	-9.42793
鍾	-9.42907
升降	-9.42942
卯酉	-9.43046
茂	-9.43049
阿	-9.43081
風雨	-9.43082
也言	-9.43141
玉清	-9.43209
究	-9.43292
郭	-9.43399
不明	-9.43515
詞	-9.4356
悅	-9.43579
稍	-9.43588
弗	-9.43622
三十二	-9.4366
側	-9.43785
五氣	-9.43999
樞	-9.44038
終始	-9.441
不成	-9.44102
煎	-9.44114
河車	-9.44155
古人	-9.44163
診	-9.44164
導引	-9.44169
黄金	-9.44199
再拜	-9.44423
主之	-9.44479
消息	-9.44479
氣也	-9.44483
可謂	-9.445
孰	-9.44511
一寸	-9.44593
毁	-9.44687
活	-9.44716
筆	-9.44758
辨	-9.44761
課	-9.44876
汗出	-9.44909
猛	-9.45043
以此	-9.45119
玄珠	-9.45141
之本	-9.45221
絳	-9.45247
岀	-9.4529
而行	-9.45336
三寸	-9.45368
天眞	-9.4563
職	-9.45631
浪	-9.45757
侵	-9.45759
穿	-9.45816
獻	-9.45852
蘇	-9.45873
徳	-9.45891
上有	-9.45911
晦	-9.46097
者即	-9.46305
子曰	-9.46358
竊	-9.46462
乗	-9.46463
由是	-9.4649
所在	-9.46733
一一	-9.4693
也今	-9.46986
遁	-9.46988
一兩	-9.47022
墮	-9.47028
須臾	-9.47053
二千一百	-9.47332
不必	-9.47348
其人	-9.47599
崑崙	-9.47608
勑	-9.4762
伸	-9.47621
下降	-9.47875
桃	-9.48008
式	-9.48252
恭	-9.48266
謙	-9.483
臍	-9.48391
荒	-9.48444
日中	-9.48455
燭	-9.48752
鹽	-9.48772
罷	-9.48833
尅	-9.48835
睡	-9.48842
趣	-9.48898
涉	-9.48944
驅	-9.49119
踈	-9.49428
神丹	-9.49466
所生	-9.49522
水中	-9.49533
六合	-9.49592
二十九	-9.49675
西北	-9.49676
者乃	-9.49698
頗	-9.49843
東南	-9.49855
十日	-9.49862
銅	-9.49894
恍惚	-9.49932
抑	-9.49942
宴	-9.4998
之性	-9.49988
普	-9.49999
維	-9.50062
不欲	-9.50082
知之	-9.50186
者有	-9.50295
皮膚	-9.50361
中宫	-9.50455
化生	-9.5046
抽	-9.50497
一物	-9.50509
軒	-9.50593
效	-9.50601
瑞	-9.50641
則氣	-9.50691
有一	-9.50766
三尸	-9.50819
而死	-9.50851
蔵	-9.50997
畜	-9.51095
謁	-9.51199
旬	-9.51229
盟	-9.51257
競	-9.51297
互	-9.51309
天氣	-9.51316
東西	-9.51383
者以	-9.51441
大夫	-9.51645
之炁	-9.51676
見其	-9.51833
勸	-9.51929
剋	-9.51952
途	-9.51955
撰	-9.52255
胞	-9.52257
子孫	-9.52292
漿	-9.52351
筭	-9.52359
繁	-9.52432
敵	-9.52442
氣之	-9.52452
缺	-9.52455
祝曰	-9.52456
激	-9.52474
讓	-9.52511
翻	-9.52519
之謂也	-9.52769
膏	-9.53041
戴	-9.53048
暫	-9.53085
費	-9.53092
巾	-9.5324
唱	-9.53298
太隂	-9.53322
灰	-9.53341
乃妳女	-9.53565
老冷吕	-9.5357
内南年	-9.53571
同覃田	-9.53572
走哉足	-9.53575
旁排平瓶	-9.53577
普朴品匹	-9.53577
自在匠	-9.5358
父凡吠	-9.53593
安亞乙一	-9.53603
义赤	-9.53604
吾牙月堯	-9.53605
黄華雄賢	-9.53606
寺象	-9.53609
五瓦仰	-9.53609
近揆	-9.53628
曰吾	-9.53633
崇辰	-9.53651
之類	-9.53663
之要	-9.53678
爲人	-9.53682
詔	-9.53686
卓中	-9.53706
脩	-9.53707
長安	-9.53848
東北	-9.53911
三清	-9.5395
弘	-9.54105
賔	-9.54199
東丹帝	-9.54203
卜百丙必	-9.54206
鹿犖离	-9.54207
曹才全	-9.54207
草采七	-9.54207
夫法飛	-9.54224
母馬美米	-9.54224
爻王寅	-9.54227
古甲九癸	-9.54247
莊震	-9.54259
壁	-9.54275
修鍊	-9.54279
山手	-9.54296
眠	-9.54369
曹	-9.54388
孔子	-9.54448
病在	-9.54453
焦	-9.54597
洞天	-9.54684
覽	-9.54739
步白備鼻	-9.54839
思三星	-9.54843
鹿	-9.54905
訪	-9.54922
掩	-9.54924
二物	-9.54941
族	-9.54967
雞	-9.55145
矣夫	-9.55251
豈不	-9.55261
太虛	-9.55292
議	-9.55335
之地	-9.55383
塗	-9.55385
芒	-9.55482
文万未	-9.55483
目貌眉民	-9.55499
故言	-9.555
乾虯	-9.55506
黑花香血	-9.55507
一點	-9.55531
麗	-9.55597
涼	-9.55608
逃	-9.55613
此道	-9.55628
六月	-9.55684
絳宫	-9.55819
在上	-9.55876
四肢	-9.55916
祥	-9.55962
第七	-9.55987
脊	-9.56045
坼丑	-9.56148
若不	-9.56246
瀉	-9.56281
吉凶	-9.56374
至此	-9.56557
率	-9.56633
藥物	-9.5666
始生	-9.56684
姹女	-9.56815
綿綿	-9.56855
宅直	-9.56885
於外	-9.56927
舞	-9.5701
山川	-9.57175
烹	-9.57192
西南	-9.57201
七十	-9.57211
桂	-9.57249
上帝	-9.57369
諸侯	-9.57452
天符	-9.57485
肥	-9.57537
耗	-9.57586
金精	-9.57649
餌	-9.5765
矣故	-9.57745
常存	-9.57858
在泉	-9.57873
寡	-9.58051
坤巧丘弃	-9.58095
愁	-9.581
茶呈	-9.58104
翳	-9.58232
燈	-9.58241
爲一	-9.58264
而能	-9.5829
三千	-9.58393
是知	-9.58414
彭	-9.58421
之宫	-9.58501
廉	-9.5872
三光	-9.58735
珍	-9.58751
不失	-9.58769
炭	-9.5878
人生	-9.58821
若有	-9.58823
第	-9.58846
埋	-9.58873
杖	-9.58895
不以	-9.58927
山中	-9.58941
士石	-9.59002
賤	-9.59051
未有	-9.5907
未嘗	-9.59185
三十日	-9.59286
太和	-9.5937
武晩尾	-9.59396
疾病	-9.59464
之處	-9.59486
葛	-9.59743
中元	-9.59861
繞	-9.59918
爽	-9.59923
莊	-9.59945
咎	-9.60065
岸	-9.60122
斬	-9.60147
凌	-9.60169
紙	-9.6022
芝	-9.60358
其性	-9.604
歎	-9.60562
其名	-9.60567
席	-9.60648
謬	-9.60704
閉氣	-9.60781
庚申	-9.60796
何謂	-9.60798
隆	-9.60837
座	-9.60871
也帝曰	-9.60936
四海	-9.61
陷	-9.61113
周天	-9.61165
民病	-9.6117
不勝	-9.61171
渾	-9.61252
續	-9.61254
太微	-9.61258
答云	-9.61282
腹中	-9.61324
演	-9.61507
徴	-9.61538
不如	-9.61558
天下之	-9.61715
二者	-9.61721
翁	-9.61774
人心	-9.61876
孟	-9.61939
萌	-9.62071
倚	-9.62173
芳	-9.62196
皆是	-9.62318
正一	-9.62334
神室	-9.62341
長存	-9.62352
甲乙	-9.62383
甲申	-9.62675
者非	-9.6277
廟	-9.62837
减	-9.62843
儉	-9.62846
大藥	-9.62894
柱	-9.62905
併	-9.62918
茅	-9.62932
换	-9.62965
道也	-9.63072
新校正云按甲乙經	-9.63324
有三	-9.63446
煥	-9.63451
金花	-9.63614
修道	-9.63768
之謂	-9.63836
故以	-9.63917
惜	-9.64013
煑	-9.64026
本無	-9.64034
上天	-9.64209
赤氣	-9.6422
八十	-9.64232
淡	-9.6425
擇	-9.6429
弊	-9.64316
無事	-9.6439
鷄	-9.6455
元君	-9.64575
辱	-9.64901
囊	-9.64913
左手	-9.6496
煩惱	-9.64978
八月	-9.64981
握固	-9.65033
不應	-9.65044
之體	-9.65114
甲寅	-9.65204
牢	-9.65212
玄元	-9.65344
得一	-9.65413
非是	-9.65481
其事	-9.65509
能知	-9.6553
古今	-9.65534
卑	-9.65578
其間	-9.65669
濡	-9.65708
濇	-9.65737
者亦	-9.65753
一歲	-9.6581
釜	-9.65845
五神	-9.65847
夜半	-9.65851
右手	-9.65875
之門	-9.65981
清靜	-9.6608
五日	-9.66087
四十九	-9.66151
天關	-9.66162
玉皇	-9.66185
赤子	-9.66306
鼎器	-9.66328
相應	-9.66341
循環	-9.66449
老君曰	-9.66484
園	-9.66504
神光	-9.66536
元年	-9.66583
二分	-9.66697
厭	-9.66718
可得	-9.66739
元神	-9.66831
妃	-9.66917
喘	-9.66918
亦是	-9.67072
臭	-9.6708
琴	-9.67093
天機	-9.67132
血脉	-9.67204
洞房	-9.67367
經脉	-9.67406
十方	-9.6747
始於	-9.67545
不行	-9.67673
二人	-9.67736
髪	-9.6778
寇	-9.67799
慢	-9.67801
弄	-9.67833
預	-9.67846
爛	-9.67876
牽	-9.67879
正月	-9.6797
㑹	-9.68001
金運	-9.68069
取其	-9.68307
這	-9.68455
渴	-9.68493
盧	-9.68498
冒	-9.68566
劔	-9.68638
胷	-9.68697
三分	-9.68737
夫婦	-9.688
認	-9.68924
上應	-9.69014
蕭	-9.69023
甚則	-9.69073
漱	-9.6908
正氣	-9.6912
焕	-9.69127
則無	-9.69206
窺	-9.69259
狐	-9.693
希夷	-9.69306
倍	-9.69311
麤	-9.6932
十年	-9.69392
三千六百	-9.69423
欺	-9.695
倫	-9.6951
之氣也	-9.6964
鈆	-9.69692
自己	-9.69781
金石	-9.69809
神靈	-9.69841
絲	-9.69954
僕	-9.70011
戀	-9.70046
肌肉	-9.70069
逼	-9.7009
之狀	-9.7012
參同契	-9.70353
飛仙	-9.70446
之主	-9.70526
鸞	-9.70552
玄武	-9.7058
死生	-9.706
則神	-9.70634
人物	-9.7065
饑	-9.70757
九年	-9.70793
腎氣	-9.70818
吾之	-9.70963
交合	-9.70982
之心	-9.71015
十二月	-9.71082
頌曰	-9.71109
墨	-9.71194
此二	-9.71201
鈎	-9.71218
擣	-9.71255
効	-9.71293
言其	-9.71334
單	-9.71345
閣	-9.7138
而得	-9.7142
肅	-9.71476
檢	-9.71523
髙	-9.71622
庚辰	-9.71641
之言	-9.71722
彩	-9.71853
人能	-9.71886
頌	-9.7192
功成	-9.71948
那	-9.71973
之源	-9.72087
變爲	-9.72105
不言	-9.72105
神水	-9.72138
呵	-9.72218
縮	-9.72233
億	-9.72289
朔	-9.72397
之形	-9.72428
或作	-9.72443
身心	-9.72562
雖有	-9.72713
之象也	-9.72724
下元	-9.7278
而復	-9.72794
其脉	-9.72811
苗	-9.72839
而止	-9.72901
成丹	-9.72931
騎	-9.72941
少隂	-9.72955
判	-9.72962
狀如	-9.73012
於内	-9.73015
嶺	-9.73033
世之	-9.73162
或有	-9.73293
四支	-9.73325
上眞	-9.73376
不已	-9.73411
九月	-9.73429
以應	-9.73454
相交	-9.7346
頃	-9.73474
功德	-9.73532
分别	-9.73544
延年	-9.7359
不入	-9.73639
萬象	-9.73746
頸	-9.73749
耕	-9.73756
規	-9.73768
恨	-9.73822
烈	-9.73835
米	-9.73836
赴	-9.73855
卜	-9.73863
之方	-9.74054
百年	-9.74152
至人	-9.74309
三百六十	-9.74315
粗	-9.74515
館	-9.74524
詠	-9.74525
虞	-9.74553
無心	-9.74554
尹	-9.74566
誓	-9.74586
飾	-9.74595
此乃	-9.74604
乙酉	-9.74622
給	-9.74636
三官	-9.74662
而不知	-9.74665
何如	-9.74719
丹成	-9.74742
之歲	-9.74771
曰此	-9.74971
時人	-9.75022
存思	-9.75025
覓	-9.7519
之名	-9.75256
握	-9.7526
悔	-9.75275
打	-9.75283
禽	-9.75307
盖	-9.75314
橋	-9.75341
七十二	-9.75385
榮衛	-9.75449
宋朝	-9.7546
良久	-9.75489
嶽	-9.75518
冀	-9.75552
未得	-9.75564
徃來	-9.75625
三十三	-9.75667
男子	-9.7577
有道	-9.75791
中間	-9.75793
於天	-9.75816
厄	-9.75835
聞之	-9.75839
者其	-9.75846
玉液	-9.75854
篤	-9.75998
庚子	-9.76015
亭	-9.76053
泣	-9.76055
乙丑	-9.7609
陷者中	-9.76102
敷	-9.76113
蘭	-9.76119
肌	-9.76127
(/○○○	-9.76149
對化	-9.76188
名山	-9.76206
白金	-9.76242
丁亥	-9.76288
修眞	-9.76336
九竅	-9.76353
者乎	-9.76375
三十一	-9.76447
心中	-9.76527
偃	-9.7654
兩手	-9.76668
八百	-9.76762
後聖	-9.76786
飯	-9.76812
梵	-9.76888
頻	-9.76893
君曰	-9.76899
植	-9.76911
纏	-9.76936
測	-9.76961
失其	-9.76989
於中	-9.7701
妙用	-9.77082
用事	-9.77116
有無	-9.77164
閉目	-9.7718
丁巳	-9.77213
般	-9.77247
疫	-9.77324
魁	-9.77376
言語	-9.77438
眞仙	-9.77454
天門	-9.77461
九十	-9.775
材	-9.77571
若能	-9.77626
道君	-9.77642
泛	-9.77675
峯	-9.77678
趨	-9.777
躡	-9.77704
集賢	-9.77805
皇帝	-9.77854
内觀	-9.77934
墓	-9.78089
革	-9.78129
五穀	-9.78129
此書	-9.78169
唾	-9.78405
刺之	-9.78406
朴	-9.78417
百病	-9.78445
萬物之	-9.78479
携	-9.78504
有形	-9.78524
度支	-9.78627
子午	-9.78705
此皆	-9.78752
軀	-9.78849
剛柔	-9.78894
金玉	-9.78921
未能	-9.79002
魏公	-9.79022
眞君	-9.79026
千日	-9.79071
在下	-9.79087
三十五	-9.79096
殆	-9.79107
凡人	-9.79117
其一	-9.79219
然而	-9.79227
雅	-9.79278
墜	-9.79306
賜緋魚袋	-9.79314
竒	-9.79321
張君房集	-9.79327
玄牝	-9.79405
喜怒	-9.79442
三十四	-9.79449
二寸	-9.79486
智慧	-9.79495
生于	-9.79562
於心	-9.79644
地氣	-9.79689
焰	-9.79778
眞鉛	-9.7982
熒惑	-9.79909
雲母	-9.79909
土貪天	-9.79953
論曰	-9.79956
不息	-9.80017
磨	-9.80066
天子	-9.80108
員外郎	-9.80131
醮	-9.80132
崩	-9.80133
不止	-9.80151
鍼	-9.80171
叛	-9.80204
與人	-9.80256
戊申	-9.803
主人	-9.80423
君臣	-9.80438
乙未	-9.80439
王母	-9.80445
二月	-9.80629
爍	-9.80646
已上	-9.80729
迫	-9.8084
無名	-9.80861
的	-9.80875
話	-9.80901
矜	-9.80902
訓	-9.80932
鴻	-9.80937
寬	-9.8094
瘡	-9.80948
鬲	-9.80954
癸亥	-9.80969
足陽明	-9.81023
一百	-9.81062
不然	-9.81107
别有	-9.8121
和合	-9.81242
壬午	-9.81261
心爲	-9.81294
衡	-9.81331
莫能	-9.81338
視之	-9.81355
咳	-9.81357
摇	-9.81401
焚	-9.81406
有人	-9.81447
拂	-9.81471
曠	-9.81485
天人	-9.81616
靡	-9.8163
案	-9.81681
操	-9.81754
泯	-9.81757
孕	-9.81762
遥	-9.81766
丙寅	-9.81773
丙戌	-9.81822
屯	-9.81844
不覺	-9.8187
上古	-9.82081
金木	-9.82087
耳目	-9.82125
冲	-9.82202
解曰	-9.82293
排	-9.82459
八十一	-9.82474
乃得	-9.82477
運行	-9.82509
其狀如	-9.82517
也即	-9.82526
經辰之	-9.82541
低	-9.82546
奥	-9.82559
叙	-9.82595
復有	-9.82616
劎	-9.82624
丁卯	-9.82643
己卯	-9.82649
庚午	-9.82663
華蓋	-9.82674
不須	-9.82706
乙卯	-9.82714
火運	-9.82731
仁義	-9.82874
搏	-9.82912
人皆	-9.82969
暖	-9.83203
凝結	-9.83212
鼎中	-9.83243
金鼎	-9.83338
高下	-9.83365
捉	-9.83368
錫	-9.83368
三宫	-9.83383
之府	-9.83393
通神	-9.83393
俯	-9.83397
唇	-9.83422
爲道	-9.83436
準	-9.83453
提	-9.83456
廬	-9.83513
相生	-9.83527
之首	-9.83544
遭	-9.83547
動而	-9.83657
戊子	-9.83698
歸於	-9.83745
守一	-9.83899
於身	-9.8398
空中	-9.83993
丈	-9.84016
禾	-9.84054
火氣	-9.84065
之變	-9.84066
壬子	-9.84125
春秋	-9.8421
輸	-9.84222
太上老君	-9.84245
悶	-9.84268
郷	-9.84336
上行	-9.84358
例	-9.84367
戊寅	-9.84394
八方	-9.84399
而下	-9.84421
甲戌	-9.84429
桓	-9.84465
白氣	-9.84466
以養	-9.84492
生化	-9.84492
口中	-9.84579
行人	-9.84692
虚空	-9.84707
所居	-9.84751
古之	-9.84798
能生	-9.8486
三皇	-9.84953
不至	-9.85089
瞻	-9.85107
見於	-9.85119
時有	-9.85133
翔	-9.85153
戊午	-9.85243
此言	-9.85297
不信	-9.85367
不食	-9.8541
刺可入同身寸之	-9.8546
水之	-9.85508
神通	-9.85517
何處	-9.85806
芽	-9.85807
朱砂	-9.85962
其二	-9.85964
其德	-9.85968
愆	-9.85976
堯	-9.8598
罰	-9.85982
緊	-9.85998
祈	-9.86005
巡	-9.86008
肆	-9.86035
皆以	-9.86141
戊辰	-9.86159
辛巳	-9.86244
其精	-9.86266
後人	-9.86302
之大	-9.86317
物之	-9.86319
虛無	-9.86365
三關	-9.86368
電	-9.86444
五月	-9.86468
不安	-9.86502
有二	-9.86517
靖	-9.8661
揺	-9.86631
東海	-9.86682
晴	-9.8673
离	-9.86769
垢	-9.86798
徧	-9.86831
三天	-9.86832
禦	-9.86849
厲	-9.86866
鑄	-9.86884
灸	-9.86887
勿令	-9.86896
係	-9.86899
丁未	-9.8691
以明	-9.86943
己丑	-9.86983
靈寶	-9.87007
水運	-9.87074
壬申	-9.87077
自生	-9.87128
修之	-9.87224
白日	-9.87241
乙亥	-9.87325
數也	-9.87357
入室	-9.87379
之徒	-9.87465
蓬萊	-9.87465
人事	-9.87483
域	-9.8749
十五日	-9.8751
洛陽	-9.87513
脹	-9.87589
相見	-9.87602
公子	-9.87611
六十四	-9.87611
姑	-9.87625
顛倒	-9.87697
金闕	-9.87699
擾	-9.87761
舜	-9.87763
範	-9.87772
云云	-9.87784
三者	-9.87821
内丹	-9.87836
紫微	-9.8793
服食	-9.87937
八景	-9.87952
輩	-9.87956
千年	-9.87964
進火	-9.87976
之子	-9.87988
/○○○○)(/	-9.88001
己酉	-9.88021
無以	-9.8805
二八	-9.88051
欲得	-9.88109
辛丑	-9.88159
辛亥	-9.88222
癸酉	-9.88278
肘	-9.88279
一體	-9.88428
之機	-9.88474
匿	-9.88533
緯	-9.88551
叩齒	-9.8858
或曰	-9.88601
安得	-9.88604
沸	-9.88631
瘧	-9.88639
割	-9.88645
三百	-9.88671
丙午	-9.88688
不絶	-9.88743
己亥	-9.88756
也此課	-9.88767
丁酉	-9.888
精思	-9.88881
然則	-9.88913
燒香	-9.88925
其色	-9.89035
崔	-9.89044
此經	-9.89045
五行之	-9.89075
求之	-9.89186
經絡	-9.89196
焉其	-9.8923
南北	-9.89293
網	-9.89378
云何	-9.89379
祠	-9.89441
仙官	-9.89486
賦	-9.89491
彈	-9.89516
介	-9.89518
挺	-9.89549
練	-9.89565
不識	-9.89586
腸胃	-9.89605
太子	-9.89648
之㫖	-9.89688
採藥	-9.89986
日用	-9.89986
辰星	-9.90005
何謂也	-9.90075
四季	-9.90106
終日	-9.90141
死者	-9.90213
寸口	-9.90225
眀	-9.9026
浴	-9.90366
癸未	-9.90396
鱗	-9.90443
其實	-9.90506
丙申	-9.90515
之分	-9.90534
之化	-9.90575
當以	-9.90617
使之	-9.90631
爲主	-9.90645
己巳	-9.90682
使者	-9.90731
五年	-9.90828
之月	-9.90837
虚實	-9.90889
祐	-9.91003
故有	-9.91187
火之	-9.91201
罔	-9.91257
銜	-9.91265
享	-9.91319
仕	-9.91341
峰	-9.91341
三氣	-9.91388
壬寅	-9.91429
行氣	-9.91442
道人	-9.91471
也是以	-9.91534
我身	-9.91559
一千二百	-9.91652
因縁	-9.91682
從此	-9.91737
斤	-9.91757
程	-9.91795
數十	-9.91854
三十九	-9.92042
有功	-9.92094
兌大弟	-9.92119
亦然	-9.92133
在于	-9.92138
兌	-9.92153
束	-9.92161
蜜	-9.922
侣	-9.92228
俠	-9.92237
闇	-9.92246
曆	-9.92247
卵	-9.9226
饒	-9.92265
銷	-9.92266
闊	-9.92268
療	-9.9227
朋	-9.92275
秉	-9.92329
道成	-9.9237
乙巳	-9.92389
賢者	-9.92655
以至	-9.92805
不受	-9.92872
抵	-9.92908
丙辰	-9.9292
棗	-9.92931
銖	-9.92932
和氣	-9.92984
肯	-9.93062
天心	-9.9307
訟	-9.93119
辛未	-9.93147
嗟	-9.93178
剥	-9.93186
牧	-9.93197
筋骨	-9.93221
者蓋	-9.93253
值	-9.93266
曰我	-9.93275
自是	-9.93352
正化	-9.93369
帝王	-9.9337
玉京	-9.93394
盛則	-9.93455
聖賢	-9.93475
在人	-9.93592
表裏	-9.93672
甲辰	-9.93681
擒	-9.93686
萬事	-9.93701
有大	-9.93731
𩲸	-9.93745
者不	-9.93902
陽也	-9.93974
三田	-9.94014
梅	-9.94075
賴	-9.94078
日月之	-9.94086
促	-9.94094
馮	-9.94107
勇	-9.94109
不肯	-9.94126
命門	-9.94171
按之	-9.9418
堯夫	-9.942
庚寅	-9.94209
癸巳	-9.94247
故名	-9.9426
氣海	-9.94375
白雲	-9.9438
秋冬	-9.94391
混合	-9.94398
之意	-9.94507
丙子	-9.94563
衛氣	-9.94735
凈	-9.94826
三十七	-9.94952
滎	-9.95048
拙	-9.95059
稽首	-9.95076
征	-9.95093
冝	-9.95127
而至	-9.95157
辛酉	-9.95184
故知	-9.95282
五分	-9.95295
也凡	-9.95347
雖然	-9.9551
其功	-9.95638
一千五百	-9.95681
仙道	-9.95698
鄰	-9.95762
四兩	-9.95801
之根	-9.95813
元炁	-9.95832
易曰	-9.95884
四十五	-9.9594
襲	-9.96
之至	-9.96018
碎	-9.96019
及其	-9.96054
栖	-9.96071
自此	-9.96095
戊戌	-9.96116
何所	-9.96171
己未	-9.96175
寒氣	-9.96197
百姓	-9.9621
衆人	-9.96322
養生	-9.96363
乃是	-9.96451
齋戒	-9.96507
獄	-9.96531
金華	-9.96535
牀	-9.96579
東向	-9.96662
矣此	-9.96683
物外	-9.96772
足少陽	-9.96811
其中有	-9.96879
東華	-9.96882
鋒	-9.96914
險	-9.96953
拒	-9.96964
展	-9.9699
托	-9.96997
位也	-9.97009
恃	-9.97017
庚戌	-9.97019
氣者	-9.97027
昇天	-9.97116
壬辰	-9.97137
庚辛	-9.97174
可見	-9.97217
厥隂	-9.97324
之用也	-9.97417
后	-9.97471
如前	-9.97507
周流	-9.97539
農	-9.97588
則知	-9.97671
船	-9.97869
十里曰	-9.9789
伴	-9.97912
伊	-9.9796
鄙	-9.97979
癸丑	-9.9798
極則	-9.97986
玩	-9.97988
夏至	-9.98007
其法	-9.98027
非有	-9.9808
叅	-9.98132
生焉	-9.9814
三千五百	-9.98175
月之	-9.98303
一息	-9.98363
經世之	-9.98399
眞火	-9.98425
旱	-9.98433
火也	-9.9853
四十八	-9.9859
牝	-9.98653
羲	-9.98697
骨髓	-9.98711
其上	-9.98747
巢	-9.98758
此三	-9.98763
得仙	-9.98789
殻	-9.9885
探	-9.98894
整	-9.98919
掾	-9.98961
不悟	-9.9898
木運	-9.98981
殷	-9.99001
通靈	-9.99019
一分	-9.99046
四月	-9.99112
此爲	-9.99134
故不	-9.99154
陰也	-9.99162
誘	-9.99249
壬癸	-9.9931
而不能	-9.99424
刀圭	-9.99427
隅	-9.99466
虚則	-9.99537
玄妙	-9.99558
衍	-9.9961
無方	-9.99649
其時	-9.99701
二兩	-9.99734
情性	-9.9984
百神	-9.99852
晚	-9.99865
補之	-9.99868
崖	-9.99869
抽添	-9.99879
擬	-9.99929
弓	-9.99937
吐納	-9.99939
韻	-9.99949
不聞	-9.99967
二十八宿	-9.99977
雀	-10.0001
雌	-10.0003
守眞	-10.0018
第八	-10.0021
一本作	-10.0023
陽生	-10.0028
快	-10.0038
聖胎	-10.0045
智者	-10.0056
寓	-10.0059
北極	-10.0065
三人	-10.0072
名也	-10.0075
之令	-10.0081
七月	-10.0082
福地	-10.0082
之候	-10.0083
之數也	-10.0086
亦得	-10.0088
而反	-10.0089
通於	-10.0089
築	-10.0096
癸卯	-10.0096
癡	-10.0097
䧟	-10.0097
恣	-10.0098
莖	-10.01
是一病	-10.0109
蓮	-10.0112
礙	-10.0121
生萬物	-10.0123
鎖	-10.0132
脅	-10.0145
千九百	-10.0146
不是	-10.0147
萬法	-10.0165
二百	-10.0168
者何	-10.0169
司馬	-10.0173
賈	-10.0183
刃	-10.0185
嗣	-10.0187
捕	-10.0191
仲尼	-10.0191
杳冥	-10.0195
完	-10.0196
歳	-10.0197
蔡	-10.0198
於道	-10.02
湘	-10.0201
足太陽	-10.0203
范	-10.0204
運火	-10.0205
動則	-10.0206
丁丑	-10.0207
思慮	-10.0212
藏府	-10.0212
辛卯	-10.0215
法象	-10.0215
金火	-10.0219
後聖君	-10.0221
顔色	-10.0222
譬如	-10.0223
尸解	-10.0229
或以	-10.0233
則生	-10.0236
諸天	-10.0238
二千五百	-10.0239
當時	-10.0243
自在	-10.0248
山在	-10.0253
授以	-10.0271
月中	-10.0273
相去	-10.0276
編	-10.029
非常	-10.0292
一千八百	-10.0296
虛空	-10.0298
六十卦	-10.0298
討	-10.0301
遵	-10.0306
兩傍	-10.031
其用	-10.0324
乃可	-10.0337
俟	-10.034
十一月	-10.0345
山林	-10.0354
何爲	-10.0357
贈	-10.0363
禹歩	-10.0366
以生	-10.0379
徙	-10.0388
銳	-10.0389
方知	-10.0397
成都	-10.0397
祀	-10.0397
囚	-10.0397
浸	-10.0398
一千三百	-10.0445
手陽明	-10.0448
神人	-10.0451
宫中	-10.0458
五寸	-10.0462
足以	-10.047
殺之	-10.0471
氷	-10.0473
湖	-10.0479
三千七百	-10.0481
不合	-10.0484
稽	-10.0488
詐	-10.0494
三兩	-10.0498
誕	-10.0499
做	-10.0501
宇宙	-10.0506
咽液	-10.0508
之經	-10.0511
歌曰	-10.0513
而入	-10.0518
千萬	-10.0521
二千四百	-10.0522
即得	-10.0527
門户	-10.0528
河圖	-10.0537
平旦	-10.054
蟾	-10.054
流通	-10.054
忍	-10.0542
無知	-10.0545
三魂	-10.0559
以道	-10.0559
日夜	-10.0566
麻	-10.0585
姤	-10.0585
一旦	-10.0587
瑶	-10.0587
之卦	-10.0588
不散	-10.0594
萬化	-10.0598
匪	-10.06
拳	-10.0601
郊	-10.0603
毋	-10.0606
踵	-10.0607
譽	-10.0608
渠	-10.0609
徘徊	-10.0609
焚香	-10.061
,	-10.0611
三十八	-10.0612
離宫	-10.0613
其位	-10.0616
心神	-10.0619
固濟	-10.0626
皓	-10.0627
鎮星	-10.063
玄眞	-10.0634
淪	-10.0637
以來	-10.0639
之聲	-10.064
方寸	-10.064
金銀	-10.0641
洞玄	-10.0648
也故曰	-10.065
水穀	-10.065
後世	-10.0653
相得	-10.0653
二千八百	-10.0656
以意	-10.0664
聲色	-10.0664
胸	-10.0666
太初	-10.0676
相傳	-10.0678
三千二百	-10.0687
上仙	-10.0688
高上	-10.0692
股	-10.0693
者當	-10.0698
一千四百	-10.0702
喫	-10.0704
闢	-10.0705
人迎	-10.0709
百脉	-10.071
逝	-10.0711
四者	-10.0711
一千七百	-10.0711
析	-10.0711
之書	-10.0712
買	-10.0712
紛	-10.0713
不與	-10.0715
呈	-10.0715
扇	-10.0716
爲水	-10.0716
亦非	-10.0726
此人	-10.0726
壬戌	-10.0733
其餘	-10.0734
黃	-10.0735
若是	-10.0742
成數	-10.0743
心心	-10.0743
至眞	-10.0744
庵	-10.0765
至藥	-10.0767
熱病	-10.0771
焉故	-10.0772
三千三百	-10.0789
氣爲	-10.0792
調和	-10.0793
神名	-10.0794
成功	-10.0795
蓬	-10.0796
癰	-10.0807
無復	-10.0809
飮	-10.0812
頑	-10.0814
綿	-10.0815
掃	-10.0818
三千四百	-10.082
窗	-10.0823
三遍	-10.0826
九氣	-10.0826
一千六百	-10.0835
少商	-10.0856
下手	-10.0862
不宜	-10.0869
以致	-10.0872
配合	-10.0876
太守	-10.0876
日日	-10.088
在天	-10.0883
掛	-10.0888
未始	-10.0889
文王	-10.0889
熱則	-10.089
忽然	-10.0892
者歟	-10.0895
二千七百	-10.0898
二千三百	-10.0909
訣曰	-10.091
成形	-10.0914
噫	-10.0914
削	-10.0918
四千二百	-10.0921
發於	-10.0921
變易	-10.0921
豫	-10.0924
哭	-10.0924
夫子	-10.0925
狗	-10.0928
遐	-10.0929
瘦	-10.0936
人情	-10.0942
眞汞	-10.0947
成矣	-10.0962
出于	-10.0965
八兩	-10.0992
三千八百	-10.0993
四千一百	-10.101
有時	-10.1013
陽火	-10.1033
飄	-10.1034
脂	-10.1035
嘆	-10.1036
撓	-10.104
有五	-10.1041
丙丁	-10.1043
污	-10.1043
下見	-10.1046
混元	-10.1046
至精	-10.1046
度世	-10.1048
峻	-10.1049
形神	-10.105
太徵	-10.1052
四大	-10.1055
三陰	-10.1057
本來	-10.1063
運用	-10.1064
少角	-10.107
逾	-10.1074
去其	-10.1076
自得	-10.1087
所爲	-10.1088
氣候	-10.1095
元精	-10.1105
爲火	-10.1111
二千九百	-10.1113
其次	-10.1118
二千六百	-10.1129
十餘	-10.113
郞	-10.1133
問云何是道笑指	-10.1139
臟	-10.114
百里	-10.1141
鑿	-10.1145
鼎内	-10.1145
障	-10.1146
勾	-10.1148
姦	-10.115
旺	-10.115
驕	-10.1151
腐	-10.1152
四十二	-10.1152
一千一百	-10.1159
縛	-10.1159
誡	-10.116
一卷	-10.1166
三千九百	-10.1167
三尺	-10.1167
喉	-10.1168
院	-10.1173
周易	-10.1175
只是	-10.1178
姓名	-10.1182
逆順	-10.1186
浩	-10.1192
始終	-10.1204
存神	-10.1205
丈人	-10.1211
觀其	-10.1215
陽精	-10.1227
天生	-10.1242
裴	-10.1243
眩	-10.1248
涕	-10.1253
此即	-10.1259
聖人之	-10.1263
西王母	-10.1267
者所以	-10.1286
曰夫	-10.1288
二曰	-10.1289
上升	-10.1289
陰符	-10.1291
相似	-10.1292
丹陽	-10.1298
温養	-10.13
長短	-10.1302
出世	-10.1302
洲	-10.1316
祟	-10.1318
其理	-10.1319
怠	-10.1319
元陽	-10.1326
之所以	-10.1327
四十四	-10.1336
日出	-10.1349
每日	-10.1351
未知	-10.1363
水也	-10.1363
叩	-10.1363
健	-10.1366
豆	-10.1366
闔	-10.1367
灑	-10.1367
溲	-10.1369
杯	-10.1371
壅	-10.1371
匠	-10.1371
諭	-10.1373
講	-10.1374
雌雄	-10.1374
傅	-10.1375
荆	-10.1375
戎	-10.1375
眞精	-10.1376
存之	-10.1376
晏	-10.1377
守之	-10.1379
餐	-10.1379
緒	-10.138
賓	-10.1381
雍	-10.1383
五金	-10.1383
則不	-10.1385
唤	-10.1388
會稽	-10.139
天有	-10.1397
也經云	-10.141
白雪	-10.1416
水出焉	-10.1416
八日	-10.1417
人人	-10.142
用也	-10.142
亦如	-10.1427
其意	-10.144
也蓋	-10.1453
筮	-10.1456
吾身	-10.1457
在心	-10.1458
不祥	-10.1462
呪曰	-10.1463
藴	-10.1469
微妙	-10.1469
眞空	-10.1469
滓	-10.1473
太空	-10.1477
一陰	-10.1477
朽	-10.148
明矣	-10.148
脛	-10.148
春夏	-10.1484
歇	-10.1485
摧	-10.1485
六十日	-10.1486
淮	-10.1488
藉	-10.1488
村	-10.1489
對曰	-10.1491
床	-10.1492
耽	-10.1492
製	-10.1494
勁	-10.1496
菜	-10.1496
第九	-10.15
天帝	-10.15
一炁	-10.1501
流行	-10.1502
素問	-10.1502
何如岐伯曰	-10.1504
相隨	-10.151
於地	-10.1511
所出	-10.1512
下弦	-10.1515
上陽子曰	-10.1518
七返	-10.1526
生滅	-10.153
而不可	-10.1534
口舌	-10.1536
頭上	-10.1536
他人	-10.154
之義也	-10.155
下有	-10.1557
千一百	-10.1563
君火	-10.1565
壺	-10.1571
物物	-10.1582
其志	-10.1583
化氣	-10.1589
上士	-10.159
嘔	-10.1596
揮	-10.1598
茶	-10.16
稀	-10.1601
填	-10.1604
擁	-10.1607
軟	-10.1608
茯苓	-10.1608
黍	-10.1609
徐徐	-10.161
醜	-10.1613
是一藥	-10.1614
受之	-10.1614
乏	-10.1615
湛然	-10.1621
之時也	-10.1623
)(/○○○	-10.1637
故聖人	-10.164
譬	-10.1645
赫	-10.1646
四十一	-10.1651
從來	-10.1651
故得	-10.1652
而行之	-10.1656
所得	-10.1658
者死	-10.166
片	-10.1663
可知	-10.1664
二儀	-10.1668
盛衰	-10.1677
其眞	-10.1682
本命	-10.1683
華陽	-10.1704
合于	-10.1718
括	-10.1719
爲用	-10.1719
赤色	-10.172
欽	-10.1723
冤	-10.1725
替	-10.1726
枉	-10.1728
生而	-10.1736
氣逆	-10.1738
百歲	-10.174
大將軍	-10.1741
相通	-10.1741
與天	-10.1742
也金	-10.1763
地獄	-10.1772
夫妻	-10.1773
皆爲	-10.1781
不起	-10.1784
伏火	-10.1792
其外	-10.1805
好道	-10.1814
應之	-10.1816
元陽子曰	-10.1822
口吐	-10.1826
璧	-10.1829
與天地	-10.183
入山	-10.1833
五藏之	-10.1833
金剛	-10.1836
亢	-10.1837
扣	-10.184
翫	-10.1844
小便	-10.1846
與之	-10.1847
傳於	-10.1848
四十三	-10.1853
此則	-10.1856
閉塞	-10.1856
腎之	-10.186
或爲	-10.1864
後天	-10.1867
七年	-10.1898
之運	-10.1899
竈	-10.1916
埃	-10.1921
終於	-10.1922
一者	-10.1923
兄弟	-10.1925
百事	-10.1929
玄關	-10.193
修身	-10.1938
治病	-10.1944
祖師	-10.1951
倦	-10.1958
觀之	-10.1959
潭	-10.196
選	-10.1965
瞑目	-10.1966
顛	-10.1966
今在	-10.1966
麥	-10.197
器中	-10.197
之色	-10.1983
肝氣	-10.1985
四年	-10.1985
萬靈	-10.1996
其下	-10.2
中國	-10.2002
互相	-10.2003
穀氣	-10.2005
與道	-10.2008
於肺	-10.2009
六日	-10.2011
土運	-10.2017
寫之	-10.2022
勝復	-10.2024
者也故	-10.2036
形容	-10.204
不自	-10.2042
注云	-10.2048
歩綱	-10.206
嘯	-10.2061
也非	-10.2063
若無	-10.2063
奢	-10.2063
王君	-10.2065
五彩	-10.2066
其體	-10.2068
其三	-10.2069
十有二	-10.2071
圓明	-10.2072
喘息	-10.2072
七祖	-10.2072
陽神	-10.2076
中部	-10.2084
貨	-10.2085
上弦	-10.2087
爲本	-10.2088
銘	-10.2088
毎	-10.209
肌膚	-10.2091
養性	-10.2095
假令	-10.2097
形骸	-10.2107
一粒	-10.2109
王氏	-10.211
十里	-10.2114
於上	-10.2116
隂年	-10.2119
之會	-10.2123
何云	-10.2124
凡此	-10.2138
不定	-10.2145
久久	-10.2147
因而	-10.215
生也	-10.2151
眞人曰	-10.2152
成道	-10.2156
地户	-10.2179
萬人	-10.218
之病	-10.2181
無他	-10.2189
旁	-10.2191
内有	-10.2196
勃	-10.2199
此章	-10.2199
三曰	-10.2202
存想	-10.2202
清濁	-10.2203
挾	-10.2204
六爻	-10.2207
准	-10.2208
𤣥	-10.2208
四面	-10.2209
濯	-10.2213
乾之	-10.2215
縱横	-10.2217
九日	-10.2221
四十六	-10.2226
中黄	-10.2228
勝則	-10.2229
枚	-10.2236
變而	-10.2237
用心	-10.2237
無生	-10.2239
之情	-10.2244
反覆	-10.2253
者謂之	-10.2254
疲	-10.227
相須	-10.2272
金液還丹	-10.2274
保命	-10.2278
之患	-10.2278
凡事	-10.228
而言	-10.228
六年	-10.2296
功滿	-10.2302
之師	-10.2307
而言之	-10.2307
猿	-10.2308
七八	-10.2309
一十二	-10.231
玄黄	-10.231
者先	-10.2318
奸	-10.2325
此卦	-10.2329
有此	-10.2331
所言	-10.2332
擲	-10.2332
零	-10.2336
繩	-10.2337
者何也答曰	-10.2338
黄婆	-10.2338
勉	-10.2339
得此	-10.2339
巴	-10.2341
醒	-10.2341
失守	-10.2345
棊	-10.2346
良乆	-10.2347
也所謂	-10.2349
時時	-10.2354
北帝	-10.2357
其陽	-10.2363
愼勿	-10.2366
浮沉	-10.2367
國之	-10.237
一二	-10.2378
雄黄	-10.2379
修丹	-10.2401
金砂	-10.2411
亦猶	-10.2412
一般	-10.2415
眞水	-10.2428
腠理	-10.243
歛	-10.2437
成眞	-10.2439
不修	-10.2442
其化	-10.2443
膺	-10.2446
痿	-10.2451
若見	-10.2452
聾	-10.2454
子時	-10.2457
麟	-10.246
甫	-10.2461
攀	-10.2461
斧	-10.2463
戾	-10.2466
熙	-10.2467
胃氣	-10.247
穆	-10.2479
卒子	-10.2485
次第	-10.2486
重陽	-10.2492
不知其	-10.2494
歸于	-10.2495
口鼻	-10.2499
不解	-10.2503
其内	-10.2514
傳授	-10.252
陰精	-10.2531
無所不	-10.2538
又以	-10.2543
南極	-10.2547
太宫	-10.2549
制之	-10.255
而起	-10.2575
水水	-10.258
終不	-10.2581
新校正云詳此	-10.2583
頰	-10.2585
豪	-10.2586
跨	-10.2587
此所謂	-10.2588
員	-10.2589
憶	-10.2589
俾	-10.259
屏	-10.259
撫	-10.2592
鄕	-10.2593
此時	-10.2593
世上	-10.2596
㝠	-10.2598
人所	-10.2603
紫陽	-10.2605
顏云	-10.2607
心不	-10.2608
其說	-10.2617
亨	-10.2625
於物	-10.2627
金公	-10.2631
湛	-10.2635
中見	-10.2638
日行	-10.264
人知	-10.2641
寐	-10.2643
丹經	-10.2644
玄門	-10.2649
歲星	-10.2651
神也	-10.2651
之水	-10.2658
楊君	-10.2674
氣交	-10.2674
清風	-10.2677
一作	-10.2684
常在	-10.2684
不盡	-10.2685
椎	-10.2689
聦	-10.2692
無益	-10.2694
依前	-10.2694
亦名	-10.2697
道家	-10.2703
窒	-10.2706
文武	-10.271
神神	-10.2712
應乎	-10.2712
吿	-10.2713
相連	-10.2714
屈伸	-10.2715
平氣	-10.2716
揖	-10.2716
遽	-10.2716
皇極經世	-10.2718
熾	-10.2719
陣	-10.2719
居之	-10.272
系	-10.272
墟	-10.2721
沃	-10.2724
赤龍	-10.2727
北向	-10.2727
功夫	-10.2732
氣血	-10.2733
先須	-10.2748
人不	-10.2754
如人	-10.2756
遠近	-10.2757
入道	-10.2762
大神	-10.2763
玉晨	-10.2764
心者	-10.2769
曰子	-10.2771
帛	-10.2771
敦	-10.2774
天仙	-10.2774
堅固	-10.2788
無人	-10.2789
不正	-10.2789
少腹	-10.28
配衣	-10.2801
豈有	-10.2802
奕	-10.2823
上皇	-10.2823
廓	-10.283
以手	-10.2838
瓦	-10.2843
構	-10.2845
翕	-10.2845
二日	-10.2846
巫	-10.2847
釣	-10.2847
夾	-10.2847
之與	-10.2848
有四	-10.2848
遯	-10.2849
忙	-10.2849
也復詢	-10.285
躬	-10.285
撥	-10.2854
制伏	-10.2855
其本	-10.2856
矯	-10.2856
阻	-10.2856
爲丹	-10.2856
寅申	-10.2861
嗜欲	-10.2861
交媾	-10.2872
丞相	-10.2877
閉息	-10.288
賢人	-10.2881
方可	-10.2892
爲金	-10.2893
爪	-10.2911
玉帝	-10.2921
矣其	-10.2924
心氣	-10.2928
訖即	-10.2939
豈能	-10.295
洞中	-10.2957
之正	-10.2962
老人	-10.2967
中出	-10.2967
跪	-10.2972
此謂	-10.2974
膚	-10.2974
未至	-10.2976
踐	-10.2979
也岐伯曰	-10.2979
周而復始	-10.298
迸	-10.2982
濫	-10.2983
疝	-10.2983
轡	-10.2984
不去	-10.2986
竿	-10.2987
其情	-10.2988
結成	-10.299
得失	-10.2997
之訣	-10.3002
飛行	-10.3005
星辰	-10.3007
救人	-10.3017
者也夫	-10.3029
後來	-10.303
形體	-10.3035
左足	-10.3041
由此	-10.3042
黑鉛	-10.3043
禍福	-10.3045
當是	-10.3048
大洞	-10.3052
居中	-10.3058
形質	-10.3064
有疾	-10.3068
至理	-10.3081
欣	-10.3082
灼	-10.3082
文字	-10.3088
柄	-10.3089
全眞	-10.3089
街	-10.3091
心痛	-10.3098
金爲	-10.3099
故謂之	-10.31
嗜	-10.3107
不可得	-10.3109
火火	-10.311
紐	-10.3111
爲上	-10.3114
純陰	-10.3116
眄	-10.3117
滴	-10.3118
湧	-10.3119
六十四卦	-10.3121
堯夫非是愛吟詩堯夫非是愛吟詩詩是	-10.3121
薰	-10.3121
箭	-10.3122
軌	-10.3122
謾	-10.3123
酬	-10.3124
絡脉	-10.3125
五符	-10.3125
精華	-10.3126
詭	-10.3128
奈何岐伯曰	-10.3131
胷中	-10.3136
皆在	-10.3138
四十七	-10.3141
運動	-10.3146
知此	-10.3148
眞誥	-10.3153
臍下	-10.3154
學仙	-10.3156
一家	-10.3156
地之	-10.3159
三教	-10.3161
思之	-10.3166
人民	-10.3172
之極	-10.3175
明月	-10.318
存亡	-10.3184
行道	-10.3184
運轉	-10.3187
五十五	-10.3194
神鬼	-10.3198
之文	-10.3203
躍	-10.3208
太始	-10.321
黨	-10.321
五方	-10.3215
大風	-10.3218
五十二	-10.3222
無異	-10.3227
各一	-10.3233
非人	-10.3234
長生不死	-10.3236
化成	-10.3237
叟	-10.3238
賣	-10.3246
自然之	-10.3246
寺	-10.3249
倉	-10.325
尾閭	-10.3252
所有	-10.3252
墻	-10.3253
箕	-10.3254
遏	-10.3254
之德	-10.3256
壤	-10.3257
坑	-10.3258
身體	-10.3259
何者	-10.3261
藏之	-10.3267
神炁	-10.3268
頭痛	-10.3268
盆	-10.3268
十分	-10.327
人以	-10.3283
養氣	-10.329
運氣	-10.3291
木也	-10.3296
敢問	-10.3297
必先	-10.3298
殺人	-10.3302
上品	-10.3303
所行	-10.3304
九星	-10.3308
隂功	-10.3309
也於是	-10.3311
神化	-10.3311
至矣	-10.3324
在此	-10.3325
化也	-10.3333
而上	-10.3336
曰汝	-10.3341
法師	-10.3348
採取	-10.3352
何必	-10.3356
愼之	-10.3363
分爲	-10.3368
豈非	-10.337
清虚	-10.3375
知道	-10.3378
之宗	-10.3379
只在	-10.3383
裂	-10.3383
篆	-10.3386
鑪	-10.3389
栢	-10.339
有獸焉其狀如	-10.339
不休	-10.339
長久	-10.3392
天柱	-10.3392
穴也	-10.3397
闡	-10.3398
蓄	-10.3399
默默	-10.3399
淚	-10.34
後學	-10.34
蓍	-10.3401
幼	-10.3402
勿食	-10.3403
手太陽	-10.3405
此山	-10.3405
將欲	-10.3406
人面	-10.3413
直符	-10.3415
名字	-10.3416
命曰	-10.3416
八節	-10.3417
上聖	-10.3418
成就	-10.3421
也且	-10.3422
氣盛	-10.3429
應是	-10.343
誰能	-10.3439
結於	-10.3447
一片	-10.3449
將來	-10.3457
五十一	-10.346
七元	-10.3461
發生	-10.3478
其義	-10.3492
之境	-10.3504
不測	-10.3505
秋分	-10.3506
漸漸	-10.3507
病也	-10.3507
生者	-10.3521
嘿庵曰	-10.3522
駐	-10.353
飈	-10.3533
采	-10.3533
邈	-10.3534
烟	-10.3537
璇璣	-10.3538
搜	-10.3539
也參同契曰	-10.3539
拯	-10.354
人自	-10.3541
昨	-10.3541
誇	-10.3542
聊	-10.3542
奴	-10.3542
天皇	-10.3544
䟽	-10.3545
皮毛	-10.3547
爲大	-10.3549
靈臺	-10.355
至今	-10.3552
十二時	-10.3553
安能	-10.3553
安靜	-10.3561
抱一	-10.3563
九六	-10.357
二陰	-10.3571
砂汞	-10.3571
然其	-10.3572
五運	-10.3573
三部	-10.3574
則不能	-10.3575
紫金	-10.3575
今古	-10.3576
玄都	-10.3588
是以聖人	-10.3597
得長生	-10.3608
勝之	-10.3609
至妙	-10.3615
正道	-10.3616
金汞	-10.3618
坐忘	-10.3619
一云	-10.3619
空洞	-10.362
而知	-10.3621
爰	-10.3626
五藏六府	-10.363
清齋	-10.3632
或問	-10.3638
暇	-10.3639
貴賤	-10.3642
婦人	-10.3652
粟	-10.3662
名利	-10.3671
閭	-10.3671
明珠	-10.3674
猪	-10.3676
層	-10.3676
斜	-10.3679
澗	-10.368
垣	-10.3681
肇	-10.3682
畔	-10.3682
漆	-10.3683
鄧	-10.3684
你	-10.3684
黎	-10.3685
言曰	-10.3687
三洞	-10.3689
以求	-10.3694
剪	-10.3695
矣然	-10.3695
所主	-10.3699
金金	-10.3701
相逢	-10.3705
清氣	-10.3705
不免	-10.3709
歸一	-10.3712
胸中	-10.3723
燔	-10.3728
非眞	-10.3738
骨肉	-10.3739
茅山	-10.3744
知音	-10.3748
法也	-10.3751
七魄	-10.3759
眞經	-10.3769
三過	-10.377
寥	-10.3777
書云	-10.3777
足少陰	-10.3777
養之	-10.3782
紫雲	-10.3785
飲酒	-10.3791
而自	-10.3791
欲知	-10.3792
不求	-10.3808
忽有	-10.3809
腎爲	-10.3811
窟	-10.3813
人多	-10.3817
局	-10.3818
寵	-10.3818
齡	-10.3818
霸	-10.3819
薪	-10.3822
涸	-10.3822
潰	-10.3824
罕	-10.3825
嫌	-10.3827
荷	-10.3828
青童	-10.3828
伏羲	-10.3835
也謂	-10.3836
之教	-10.384
相與	-10.3844
傳之	-10.387
其子	-10.3874
山下	-10.3876
道無	-10.3881
心存	-10.3882
輪迴	-10.3882
而終	-10.3887
所求	-10.389
玄冥	-10.3894
形氣	-10.3896
太帝	-10.3903
之年	-10.3905
此一	-10.391
從容	-10.3912
皆得	-10.3913
八石	-10.3919
求仙	-10.3927
心火	-10.3931
屑	-10.3933
陽年	-10.3934
合之	-10.3944
丹法	-10.3947
藏於	-10.3949
六分	-10.395
无極	-10.3956
籠	-10.3959
大衆	-10.396
靈根	-10.396
額	-10.3961
忤	-10.3964
旅	-10.3965
賀	-10.3965
此亦	-10.3967
面目	-10.3967
播	-10.397
根本	-10.3972
風化	-10.3972
手太陰	-10.3972
喬	-10.3974
堯夫非是愛吟詩	-10.3974
嘘	-10.3975
遶	-10.3976
侮	-10.3976
鬢	-10.398
不著	-10.3983
懃	-10.3984
受邪	-10.3984
父子	-10.3986
上宫	-10.3986
九州	-10.3987
綱紀	-10.3994
可不	-10.3995
未可	-10.4009
神農	-10.4017
一刻	-10.4033
不傳	-10.4036
之藥	-10.4053
黄老	-10.4056
與我	-10.4069
五十三	-10.4076
之火	-10.4078
飛昇	-10.4078
歸去	-10.4084
瓶	-10.4084
則死	-10.4088
不變	-10.4098
恬	-10.4101
志人	-10.4102
盲	-10.4107
署	-10.4111
五十四	-10.4112
蟬	-10.4114
禱	-10.4114
軒轅	-10.4114
所說	-10.4114
漠	-10.4115
仇	-10.4115
裹	-10.4116
琅	-10.4118
故病	-10.4118
踏	-10.4118
裁	-10.4119
諧	-10.412
更相	-10.412
樸	-10.4121
寔	-10.4121
讎	-10.4121
韋	-10.4121
紛紛	-10.4123
焉夫	-10.4125
廼	-10.4126
淸	-10.4127
方便	-10.4133
之端	-10.4135
胎仙	-10.4139
數日	-10.4139
五十七	-10.414
今人	-10.4143
少氣	-10.4147
仙翁	-10.4149
者言	-10.4149
飢渴	-10.4151
雲雨	-10.4151
既濟	-10.4152
法度	-10.4155
而作	-10.4166
一法	-10.4172
乃至	-10.4178
丗	-10.4181
於下	-10.4183
二字	-10.4187
有心	-10.4192
不移	-10.4194
軸	-10.4195
合德	-10.4197
大有	-10.4207
山上	-10.4207
所見	-10.422
爲我	-10.422
無限	-10.4224
虚而	-10.4225
求道	-10.4226
頥	-10.423
關節	-10.4238
四五	-10.4238
上見	-10.4242
未盡	-10.4242
臓	-10.4251
交會	-10.4257
無憂	-10.4259
濤	-10.426
錬形	-10.4262
剖	-10.4267
純粹	-10.4268
邁	-10.4268
繡	-10.4268
喧	-10.4269
疊	-10.4271
截	-10.4273
之屬	-10.4273
蠻	-10.4274
副	-10.4274
婚姻	-10.4275
寒温	-10.4275
誨	-10.4276
也所以	-10.4276
冢	-10.4277
此其	-10.4283
種種	-10.429
其中多	-10.4292
當得	-10.4295
三物	-10.4295
無情	-10.4295
心主	-10.43
又按	-10.4301
玉童	-10.4303
皆由	-10.4304
賁	-10.4305
靜室	-10.4305
南嶽	-10.4308
無上	-10.431
也是故	-10.4311
稱帝	-10.4316
之中有	-10.4316
黄氣	-10.4318
五十六	-10.432
必得	-10.4321
不治	-10.4323
生神	-10.4328
經中	-10.4334
須是	-10.4336
生數	-10.434
則病	-10.4343
不許	-10.4354
自知	-10.4357
當其	-10.436
入鼎	-10.4362
遷正	-10.4364
丹元	-10.4367
乃止	-10.4379
我者	-10.4381
下丹田	-10.4389
有聲	-10.4389
歸根	-10.4394
一爻	-10.4395
百一	-10.4395
不可得而	-10.4397
之疾	-10.4398
之紀	-10.4399
八風	-10.4402
豈可	-10.4404
眞常	-10.4405
精微	-10.4407
魅	-10.441
閉口	-10.4416
伍	-10.4417
心脉	-10.4419
四分	-10.4422
屍	-10.4422
厨	-10.4423
憎	-10.4423
漂	-10.4424
而來	-10.4425
隋	-10.4427
炙	-10.4427
羸	-10.4427
鑑	-10.4427
去來	-10.443
屯蒙	-10.4432
盃	-10.4432
自見	-10.4433
鬭	-10.4434
苑	-10.4434
匡	-10.4435
正坐	-10.4436
晦朔	-10.4437
可也	-10.4439
鳥獸	-10.4442
非道	-10.4444
渡	-10.4446
黑氣	-10.4448
少宫	-10.4452
不失其	-10.4455
其狀	-10.4455
其日	-10.446
一句	-10.4461
太極眞人	-10.4465
養神	-10.4467
左右手	-10.4478
團	-10.448
實則	-10.4487
有爲	-10.4489
有異	-10.4494
硫黄	-10.4495
未詳	-10.4495
動脉	-10.4497
金氣	-10.4498
甲乙經	-10.4506
而求	-10.4506
山澤	-10.4506
不下	-10.4507
氣化	-10.4512
之光	-10.4513
光照	-10.4514
入口	-10.4516
入水	-10.4517
朝元	-10.4519
二陽	-10.4523
之國	-10.4525
之至也	-10.4528
可用	-10.4531
無礙	-10.4531
纖	-10.4534
洩	-10.4534
常行	-10.4534
陰陽相	-10.4539
誥	-10.454
白玉	-10.4542
庸	-10.4544
不化	-10.4545
獨立	-10.4545
木之	-10.4549
猶未	-10.455
眞道	-10.4555
肺氣	-10.4561
煉丹	-10.4563
何人	-10.4564
乃生	-10.4565
混成	-10.4565
不審	-10.4566
下部	-10.4568
九鼎	-10.4569
聰	-10.457
三蟲	-10.4571
之期	-10.4572
梯	-10.4572
也黄帝曰	-10.4572
隙	-10.458
薦	-10.4582
區	-10.4583
爲首	-10.4587
冶	-10.4587
帳	-10.4587
豈知	-10.4588
抛	-10.4589
周易參同契	-10.459
之靈	-10.459
長春	-10.4592
也腎	-10.4595
而動	-10.4596
以自	-10.4599
黄牙	-10.4599
清虛	-10.4599
金母	-10.46
肅殺	-10.4607
腎之氣	-10.4608
三四	-10.4615
相國	-10.4626
以水	-10.4629
月華	-10.464
身形	-10.4644
無涯	-10.4646
洞眞	-10.4651
其夕	-10.4653
數之	-10.4654
天中	-10.4662
書曰	-10.4663
不遇	-10.4665
不容	-10.4672
此四	-10.4672
須知	-10.4673
小大	-10.4678
大如	-10.4681
有象	-10.4686
生則	-10.4692
同類	-10.4692
太眞	-10.4694
氣不足	-10.4696
或云	-10.4703
牒	-10.4705
五十九	-10.4707
之基	-10.471
傷於	-10.471
微微	-10.4712
宫室	-10.4712
宛	-10.4713
仙家	-10.4714
太山	-10.4716
於世	-10.4717
貴人	-10.4723
祚	-10.4725
此文	-10.4726
有何	-10.4728
涯	-10.4729
傳曰	-10.4733
之類也	-10.4733
供	-10.4736
徽	-10.4736
瘕	-10.4736
鬚	-10.4736
墳	-10.474
岐伯對曰	-10.474
通玄	-10.4742
太乙	-10.4742
優	-10.4742
急急如律令	-10.4743
此身	-10.4744
膈	-10.4744
以象	-10.4746
則能	-10.4746
板	-10.4748
半斤	-10.4749
自古	-10.4749
脾氣	-10.475
霜雪	-10.4754
功曹	-10.4757
流注	-10.4761
在中	-10.4769
天地間	-10.4772
之異	-10.4774
日月星辰	-10.4778
靜而	-10.4778
仙問	-10.4781
妙道	-10.4787
逮	-10.4798
生人	-10.4802
蹤	-10.4809
飲之	-10.4809
武帝	-10.4811
場	-10.4817
襄	-10.4817
靜坐	-10.482
若得	-10.4822
金也	-10.4836
衆眞	-10.4838
不病	-10.4843
必須	-10.4845
造化之	-10.4845
淮南	-10.485
有常	-10.4851
眞元	-10.4851
氣自	-10.4852
自家	-10.4852
五六	-10.4856
輕重	-10.4859
發明	-10.4866
氣氣	-10.4869
願聞	-10.487
滌	-10.4879
災害	-10.4881
料	-10.4881
陰生	-10.4883
出乎	-10.4885
膠	-10.4889
捧	-10.489
㸃	-10.4892
大壯	-10.4893
百五	-10.4896
賛	-10.4896
戮	-10.4897
一篇	-10.4898
溟	-10.4899
糞	-10.4899
婁	-10.4899
旌	-10.4899
瓜	-10.49
漁	-10.4901
慎	-10.4902
軫	-10.4903
葱	-10.4905
仗	-10.4906
控	-10.4907
俯仰	-10.4907
袖	-10.4907
捐	-10.4908
𩔖	-10.4909
人之所	-10.4913
潤澤	-10.4914
明日	-10.4916
黄色	-10.4917
煙霞	-10.4919
靈光	-10.4919
武火	-10.4921
水土	-10.4923
手少陽	-10.4924
之野	-10.493
服餌	-10.4931
使我	-10.4935
正陽	-10.4938
嚥之	-10.4948
則傷	-10.4952
唯有	-10.4953
錬之	-10.4956
六十三	-10.4956
寒則	-10.4957
之先	-10.4959
利害	-10.4959
及乎	-10.4962
迅	-10.4968
之號	-10.498
神功	-10.4994
一味	-10.4996
在地	-10.5004
不令	-10.5004
常有	-10.5007
行於	-10.5007
地生	-10.5011
亦曰	-10.5013
有病	-10.5014
故人	-10.5021
而坐	-10.5022
骸	-10.5023
腸中	-10.5027
天宫	-10.5027
卷中	-10.5029
與此	-10.5049
共成	-10.5052
踰	-10.5056
髣髴	-10.506
屢	-10.5061
催	-10.5063
核	-10.5064
斂	-10.5065
之母	-10.5065
昴	-10.5065
頽	-10.5065
帝一	-10.5065
供養	-10.5069
一章	-10.5069
應時	-10.5069
謗	-10.5071
誣	-10.5072
𫝊	-10.5072
當作	-10.5073
形如	-10.5074
其音如	-10.5075
咽氣	-10.508
岐	-10.5087
易之	-10.5088
無物	-10.5101
未見	-10.5103
其方	-10.5103
熱氣	-10.5104
天元	-10.5104
此理	-10.5106
病人	-10.5106
丹書	-10.5108
一心	-10.5111
金鎖流珠	-10.5111
州刺史	-10.5113
猶如	-10.5114
不妄	-10.5115
足太陰	-10.5124
何故	-10.5131
乎天	-10.5133
玉華	-10.5137
六丁	-10.5138
玄玄	-10.5139
身熱	-10.514
榮華	-10.5141
四寸	-10.5165
天文	-10.5166
尊師	-10.5166
章第二十	-10.517
之官	-10.5176
其象	-10.5177
之符	-10.5183
歲會	-10.519
膿	-10.5191
無由	-10.5202
亦爲	-10.5202
無非	-10.5208
蘂	-10.5216
九重	-10.5216
嗜慾	-10.5223
怡	-10.5224
腧	-10.5227
失之	-10.5229
有數	-10.523
凋	-10.523
之始也	-10.5231
鮑	-10.5232
傲	-10.5232
揆	-10.5233
班	-10.5233
涂	-10.5233
咽之	-10.5234
洋	-10.5234
妹	-10.5234
無量	-10.5237
天地之間	-10.5238
何物	-10.5238
九眞	-10.5239
者多	-10.524
姬	-10.5241
思存	-10.5242
沐	-10.5243
隸	-10.5243
蕃	-10.5243
更有	-10.5243
上至	-10.5248
備矣	-10.525
隂陽之	-10.5251
兆身	-10.5254
少徵	-10.5258
督脉	-10.5265
太原	-10.5268
紫府	-10.5276
日精	-10.528
爲體	-10.5283
但以	-10.5293
而明	-10.5294
紫房	-10.5296
有九	-10.5299
輕舉	-10.53
漬	-10.5301
帝曰善	-10.5306
在内	-10.5315
脾胃	-10.532
而化	-10.5332
其後	-10.5334
下焦	-10.5343
腎脉	-10.5345
精精	-10.5346
次之	-10.5358
成敗	-10.5359
三三	-10.5359
又存	-10.536
眞形	-10.5366
陽中	-10.5376
不差	-10.5378
皆可	-10.5381
五老	-10.5383
子母	-10.5385
鈴	-10.5385
真鉛	-10.5385
溜	-10.5386
凝神	-10.5388
之節	-10.5389
方諸	-10.5392
哲	-10.5393
子鍾離子曰	-10.5395
凶惡	-10.5398
陽脉	-10.5398
邦	-10.5398
术	-10.5399
嗔	-10.54
谿	-10.54
蠶	-10.5401
燦	-10.5401
缺盆	-10.5402
簾	-10.5402
矢	-10.5402
措	-10.5403
藝	-10.5403
泊	-10.5404
迭	-10.5404
如斯	-10.5405
邵	-10.5405
伺	-10.5405
猜	-10.5405
不堪	-10.5407
叫	-10.5407
四人	-10.5411
嫁	-10.5412
番	-10.5413
腰痛	-10.5414
百八	-10.5415
龜蛇	-10.5418
陰陽之氣	-10.5422
許長史	-10.5422
以傳	-10.5423
善則	-10.5424
一丸	-10.5424
九九	-10.5426
爲眞人	-10.5435
章第十	-10.5443
滋味	-10.5447
無聲	-10.5447
甚多	-10.545
百二	-10.5452
道術	-10.5452
天綱	-10.5453
虎豹	-10.5455
間氣	-10.5457
學道者	-10.5459
十二經	-10.5461
道不	-10.5468
其穀	-10.547
生矣	-10.5471
世界	-10.5474
風吹	-10.5476
天之道	-10.5479
天津	-10.5482
者水也	-10.5485
高祖	-10.5487
周旋	-10.5489
詩云	-10.5491
其變	-10.5494
清閑	-10.5497
常道	-10.5498
眞性	-10.5499
水出	-10.55
冥冥	-10.5501
上焦	-10.5504
皆須	-10.5507
一言	-10.551
太陽之	-10.5513
不遠	-10.5519
若夫	-10.552
而長	-10.5537
本性	-10.5541
命也	-10.5542
絃	-10.5547
下文	-10.5547
奈	-10.5547
不當	-10.5551
春分	-10.5552
到此	-10.5552
不亦	-10.5559
社	-10.5565
忿	-10.5568
治在	-10.5569
受氣	-10.5571
當願一切	-10.5571
韜	-10.5571
蹈	-10.5571
油	-10.5572
董	-10.5572
誰知	-10.5573
扶桑	-10.5575
其政	-10.5575
至誠	-10.5575
逕	-10.5575
涎	-10.5576
淘	-10.5576
牝牡	-10.5577
臍之下	-10.5577
叢	-10.5577
漫	-10.5578
文帝	-10.5578
轂	-10.5578
愧	-10.558
五常	-10.558
否泰	-10.5581
一日一夜	-10.5581
微祝曰	-10.5581
檀	-10.5584
彦	-10.5584
歸來	-10.5587
石室	-10.5588
立春	-10.5596
七十四	-10.5597
其文	-10.5599
之流	-10.5605
四句	-10.5607
於腎	-10.5609
少年	-10.5611
乃爲	-10.5611
成也	-10.5612
下至	-10.5614
文章	-10.5615
一生	-10.5615
天神	-10.5616
萬劫	-10.5618
無功	-10.5619
誦之	-10.562
而變	-10.5621
初九	-10.5623
用火	-10.5634
徃徃	-10.5645
復生	-10.5653
則謂之	-10.5658
手執	-10.5659
藏氣	-10.5659
而歸	-10.5667
孰能	-10.567
九還	-10.5671
若欲	-10.5673
這箇	-10.5673
地中	-10.5679
不住	-10.5684
氣至	-10.5692
不易	-10.5696
斯爲	-10.5698
又西	-10.57
靈寳	-10.57
大還丹	-10.5701
推之	-10.5701
大吉	-10.5703
長夏	-10.5705
在左	-10.5707
豁	-10.5709
變通	-10.571
者肺	-10.5726
羽化	-10.5728
函	-10.573
有物	-10.5734
隨時	-10.5735
鞭	-10.5738
一百二十	-10.574
煞	-10.5741
氤氲	-10.5741
喝	-10.5744
胻	-10.5744
掣	-10.5746
凍	-10.5746
髀	-10.5747
樊	-10.5747
涌	-10.5748
盗	-10.5748
臻	-10.5749
偉	-10.5749
啼	-10.575
體用	-10.575
徤	-10.5751
日光	-10.5751
陋	-10.5752
遘	-10.5752
大指	-10.5753
開元	-10.5753
段	-10.5753
謫	-10.5754
貯	-10.5754
學人	-10.5755
宂	-10.5756
閏	-10.5756
言也	-10.5757
外物	-10.5757
抄	-10.5758
醋	-10.5759
考召	-10.5764
北海	-10.5768
若以	-10.5768
熊	-10.5769
六天	-10.5772
於陽	-10.5779
今以	-10.5784
通流	-10.5787
所傳	-10.5789
地紀	-10.5789
以知	-10.579
太角	-10.5792
物也	-10.5793
殊不知	-10.5796
形也	-10.58
爲地	-10.5801
中和	-10.5806
金丹之道	-10.5807
木氣	-10.5811
定録	-10.5811
出焉	-10.5812
眞靈	-10.5813
合道	-10.5815
一十五	-10.5839
交感	-10.5841
三素	-10.5844
在外	-10.5844
志意	-10.5844
也經曰	-10.5846
身有	-10.5851
方圓	-10.5852
歲月	-10.5861
元和	-10.5862
任脉	-10.5868
事皆	-10.5871
晶	-10.5873
腹滿	-10.5874
矣於是	-10.5875
者哉	-10.5876
豹	-10.5877
無能	-10.5884
五兩	-10.5885
所作	-10.5885
一周	-10.5886
四曰	-10.589
愚者	-10.5893
道性	-10.5895
而爲之	-10.5897
筌	-10.5901
無差	-10.5902
態	-10.5903
島	-10.591
於後	-10.591
三十年	-10.5914
袁	-10.5914
天曹	-10.5915
遼	-10.5922
柯	-10.5923
狼	-10.5925
區區	-10.5928
熬	-10.5928
飛龍	-10.5929
眥	-10.5929
肘後	-10.593
禽獸	-10.5931
流水	-10.5931
而得之	-10.5932
昩	-10.5932
其聲	-10.5933
俊	-10.5933
幹	-10.5935
又東	-10.5935
自非	-10.5936
簫	-10.5937
嗚呼	-10.5938
此之謂	-10.594
侍衛	-10.5943
眚	-10.5944
渭	-10.5945
其主	-10.5946
神全	-10.5946
諫	-10.5946
相對	-10.5949
號爲	-10.5949
異名	-10.5955
少羽	-10.5958
心肺	-10.5959
之罪	-10.5959
虚者	-10.5968
躡地紀	-10.5968
土也	-10.5969
則是	-10.5971
洛書	-10.5973
昇仙	-10.5974
十二辰	-10.5977
平生	-10.5982
存乎	-10.5988
右足	-10.5989
以候	-10.5989
隱書	-10.5994
忘形	-10.5998
國有	-10.6
與道合	-10.6002
不能自	-10.6008
合而	-10.6011
各有所	-10.6012
要知	-10.6014
任意	-10.6014
俄	-10.6017
不老	-10.6024
初生	-10.603
生長	-10.6043
所宜	-10.6044
出其	-10.6047
而用	-10.6052
位爲	-10.6055
室中	-10.6059
欲求	-10.606
突	-10.6063
上部	-10.6069
者可以	-10.6072
彊	-10.6072
一遍	-10.6078
者肝	-10.6082
之位也	-10.6084
氣滿	-10.6084
復卦	-10.6086
容易	-10.6087
未必	-10.609
蛻	-10.6098
筒	-10.6099
愍	-10.6102
匝	-10.6102
橫	-10.6103
脾之	-10.6104
讒	-10.6106
摽	-10.6107
几	-10.611
耦	-10.611
輦	-10.6111
丹道	-10.6111
異也	-10.6111
宏	-10.6111
扉	-10.6111
眇	-10.6112
暄	-10.6112
戚	-10.6113
禳	-10.6114
驟	-10.6114
功行	-10.6114
襟	-10.6116
之本也	-10.6116
相承	-10.6117
乃成	-10.6119
顓頊	-10.612
故稱	-10.6124
舍於	-10.6128
端坐	-10.6138
風雲	-10.614
二十四氣	-10.615
爐中	-10.6152
注於	-10.6152
萬民	-10.6155
胞胎	-10.6156
者也其	-10.6161
下入	-10.6162
稱王	-10.6163
忽見	-10.6166
官事	-10.6169
法界	-10.6169
陽而	-10.6178
同歸	-10.6178
毫	-10.6187
用針	-10.6188
乾元	-10.6191
不論	-10.6193
明白	-10.6198
紫氣	-10.6198
秋石	-10.6202
順行	-10.6202
一事	-10.6203
向上	-10.6203
隂氣	-10.6207
氣之所	-10.621
老子曰	-10.6212
受命	-10.6213
至神	-10.6214
也聖人	-10.622
諸人	-10.622
次存	-10.6232
守其	-10.6233
盡矣	-10.6236
相和	-10.6242
死矣	-10.6244
五十八	-10.6249
有六	-10.625
情欲	-10.6253
是時	-10.6253
心腎	-10.6258
一道	-10.6259
身中之	-10.6262
未分	-10.6263
世世	-10.6267
相剋	-10.6268
亦當	-10.6271
讚	-10.6272
玉堂	-10.6272
平等	-10.6275
愚人	-10.6276
較	-10.6285
變成	-10.6286
勒	-10.6287
濕氣	-10.6288
爲藥	-10.629
起火	-10.629
無象	-10.629
也吾	-10.6291
欻	-10.6292
爵	-10.6293
其要	-10.6293
娥	-10.6293
奮	-10.6293
褐	-10.6294
也陽	-10.6295
不得其	-10.6296
脱	-10.6297
端的	-10.6298
頤	-10.6298
鈞	-10.6301
尉	-10.6301
白日昇天	-10.6302
先師	-10.6302
丈夫	-10.6303
一十八	-10.6308
二七	-10.631
之音	-10.6313
別	-10.6316
地也	-10.632
太商	-10.632
日爲	-10.6322
内視	-10.6326
脇	-10.6332
玉池	-10.6332
七十六	-10.6339
不達	-10.6347
乎其	-10.6349
不從	-10.6349
世俗	-10.6349
之液	-10.6349
地上	-10.635
一合	-10.6351
而用之	-10.6353
其母	-10.6354
得火	-10.6355
十餘年	-10.6355
自相	-10.6358
與物	-10.636
既得	-10.636
羽蟲	-10.6361
直指	-10.6367
刀支	-10.6372
一念	-10.6373
鼻中	-10.6378
内氣	-10.6381
出血	-10.6382
已成	-10.6383
來入	-10.6387
太無	-10.6387
衝脉	-10.6388
又何	-10.6396
和之	-10.6398
之餘	-10.6399
妙理	-10.64
兩足	-10.6402
一箇	-10.6405
以下	-10.641
山有	-10.6411
不足以	-10.6419
礬	-10.6421
之祖	-10.6427
萬世	-10.6427
亦如之	-10.643
不思	-10.6431
以示	-10.6431
明其	-10.6432
一尺	-10.6434
廣成子	-10.6434
天地之氣	-10.6435
如嬰兒	-10.6438
孰爲	-10.6438
之交	-10.6439
之精也	-10.644
无所	-10.6446
六寸	-10.6447
少時	-10.6448
亦同	-10.6449
神仙之	-10.6451
寂然	-10.6455
外丹	-10.6459
失道	-10.6461
鉛中	-10.6463
類也	-10.6463
若灸者可灸三壯	-10.6464
諸法	-10.6466
瀆	-10.647
不泄	-10.647
肝之	-10.6475
睛	-10.6475
始得	-10.6475
腕	-10.6476
棺	-10.648
夾脊	-10.648
慘	-10.6481
稷	-10.6481
岑	-10.6481
揣	-10.6482
裙	-10.6482
澀	-10.6483
裝	-10.6484
叩齒九通	-10.6485
乃能	-10.6485
怫	-10.6486
大者	-10.6486
藍	-10.6487
鳳凰	-10.6488
應于	-10.6488
呬	-10.6488
翰	-10.6488
當有	-10.6489
緘	-10.649
恥	-10.6491
癘	-10.6491
多則	-10.6492
於斯	-10.6495
不和	-10.6496
十二年	-10.6497
也或	-10.6498
可使	-10.6498
亦能	-10.65
之學	-10.6502
坎宫	-10.6502
戊巳	-10.6502
所用	-10.6504
洞庭	-10.6505
聦明	-10.6506
故經云	-10.6506
臟腑	-10.6508
居於	-10.6508
以和	-10.6513
慕容	-10.6513
水爲	-10.6518
氣有餘	-10.6524
本是	-10.6526
不假	-10.6528
妙有	-10.6528
氣入	-10.6529
二十日	-10.6533
一斗	-10.6533
解脫	-10.6538
其四	-10.654
如何然	-10.6544
遊行	-10.6545
應於	-10.6549
八十七	-10.6556
水流	-10.6558
十八日	-10.6564
吏兵	-10.657
使其	-10.6575
未生	-10.6575
百餘	-10.6576
盛而	-10.6577
三花	-10.6582
身之	-10.6582
莫測	-10.6589
胃中	-10.659
太古	-10.6595
心地	-10.6598
乃知	-10.6601
五曰	-10.6601
若非	-10.6601
麽	-10.6601
精血	-10.6605
圓光	-10.6606
當知	-10.661
五靈	-10.661
主於	-10.6617
色如	-10.6618
並是	-10.6621
何須	-10.6622
受病	-10.6623
則成	-10.6624
焉於是	-10.6625
同於	-10.6629
一升	-10.663
靈樞經曰	-10.6632
第三十	-10.6635
定位	-10.6637
通天	-10.6638
不虚	-10.6639
自身	-10.664
如此則	-10.6642
皇君	-10.6644
七十五	-10.6644
心無	-10.6647
諸經	-10.6648
時也	-10.6652
篇云	-10.6652
先後	-10.666
其運	-10.6662
挽	-10.6663
帀	-10.6668
姚	-10.6668
火燒	-10.667
金烏	-10.667
脆	-10.6671
鴻濛	-10.6672
杏	-10.6672
夬	-10.6673
潛	-10.6673
劣	-10.6674
懇	-10.6675
敕	-10.6676
睹	-10.6676
澆	-10.6676
長生之道	-10.6676
瑶池	-10.6676
閻	-10.6676
赦	-10.6677
叚	-10.6679
詰	-10.668
弩	-10.668
汎	-10.668
綺	-10.668
寂然不動	-10.668
巍巍	-10.6681
模	-10.6682
此事	-10.6683
吁	-10.6685
圜	-10.6686
虔	-10.6687
不昧	-10.6687
嚥氣	-10.669
一周天	-10.6693
足少隂	-10.6693
西山	-10.6694
鄴	-10.6694
庵曰	-10.6694
陰脉	-10.6695
甘露	-10.6696
大要	-10.6699
元始天尊	-10.6703
木木	-10.6707
乆乆	-10.671
更無	-10.671
坦	-10.6713
也但	-10.6715
周迴	-10.6729
坎中	-10.6735
七七	-10.6738
於水	-10.6744
消滅	-10.6745
不滅	-10.6746
氣而	-10.6746
月一日	-10.6749
詩曰	-10.6749
玄機	-10.675
囂	-10.6751
七寶	-10.6752
南山	-10.6752
玄女	-10.6753
天命	-10.6759
修養	-10.6763
肝脉	-10.6763
者可	-10.6766
天光	-10.6766
爲天下	-10.6767
兩儀	-10.6771
若人	-10.6772
者人之	-10.6776
中斗	-10.6785
爲仙	-10.6787
飛走	-10.6787
不可見	-10.6788
二子	-10.679
以左右手	-10.6792
教人	-10.6796
相因	-10.6796
相感	-10.6797
其家	-10.6799
生物	-10.6813
又如	-10.6814
穩	-10.6818
三百日	-10.6822
第十	-10.6825
食氣	-10.6825
數足	-10.6827
之勢	-10.6828
直入	-10.6828
傷人	-10.6833
上文	-10.6834
何異	-10.6835
氣上	-10.6839
會於	-10.6839
日魂	-10.6841
之所在	-10.6842
黄赤	-10.6845
十十十	-10.685
兊大弟	-10.6852
青氣	-10.6854
杳	-10.6854
夢見	-10.6854
肺之	-10.6854
天庭	-10.6856
駭	-10.6857
一輪	-10.6858
則身	-10.686
雷電	-10.6864
盞	-10.6864
伊川	-10.6865
二三	-10.6866
簇	-10.6867
豕	-10.6869
醴泉	-10.6869
呼爲	-10.687
慄	-10.687
姿	-10.687
怕	-10.6871
㓜	-10.6872
堯舜	-10.6873
敲	-10.6873
尋常	-10.6873
虹	-10.6874
蠱	-10.6875
長生久視	-10.6875
相薄	-10.6876
江湖	-10.6876
法身	-10.6876
敏	-10.6877
耻	-10.6877
姜	-10.6878
袍	-10.6878
梨	-10.6881
蒲	-10.6883
參差	-10.6889
用此	-10.689
紫微夫人	-10.689
其下多	-10.6894
諸神	-10.6894
足太隂	-10.6894
隱居	-10.6897
裳	-10.6898
無色	-10.6899
三台	-10.6902
蟠	-10.6903
大聖	-10.6909
行用	-10.6909
性也	-10.691
坎爲	-10.6911
大象	-10.6912
是名	-10.6917
在我	-10.6918
而已矣	-10.6918
昔有	-10.6922
也陰陽	-10.6927
不曉	-10.6929
金丹之	-10.6932
七曜	-10.6932
視其	-10.6935
未來	-10.6938
精光	-10.6939
因此	-10.6939
九寸	-10.694
法則	-10.6942
二穴	-10.6943
矣是以	-10.6947
半夜	-10.6953
之身	-10.6955
從心	-10.6956
得見	-10.6957
幽微	-10.6958
華山	-10.6961
相火	-10.6961
黄白	-10.6964
有兩	-10.6966
四四四	-10.6967
百關	-10.6974
八八八	-10.6974
兩目	-10.6975
于丹田	-10.6978
時節	-10.6978
曰道	-10.6978
根源	-10.6989
骨節	-10.6991
不傷	-10.6992
存念	-10.6993
母也	-10.6994
不知何	-10.6997
無定	-10.6998
頂門	-10.7002
遮	-10.7014
肺脉	-10.7017
明明	-10.7019
七十一	-10.7021
請問	-10.7023
昊	-10.7023
價	-10.7026
粒	-10.7027
者陰陽	-10.7032
黄精	-10.7033
筋脉	-10.7038
三將軍	-10.704
弼	-10.704
無病	-10.7041
如何是	-10.7041
見人	-10.7044
德德德	-10.7046
玄微	-10.7047
當先	-10.7048
正性	-10.7051
掘	-10.7055
胥	-10.7056
飛步	-10.7059
祛	-10.7063
不忘	-10.7066
匹	-10.7067
至陰	-10.7067
無相	-10.7068
後有	-10.7068
儔	-10.7072
斑	-10.7073
拍	-10.7073
薛	-10.7074
一陰一陽	-10.7075
倮蟲	-10.7076
栗	-10.7076
貧賤	-10.7077
夙	-10.7077
挹	-10.7077
謚	-10.7077
屠	-10.7078
摶	-10.7078
尊卑	-10.7079
鵬	-10.7079
甬	-10.708
太上道君	-10.7081
尼	-10.7082
糧	-10.7082
叩頭	-10.7086
拔宅	-10.7086
此說	-10.7087
一百八十	-10.7087
二升	-10.7089
峕	-10.709
人道	-10.7091
神仙經曰	-10.7095
已後	-10.7096
陽子	-10.7097
八極	-10.7097
重樓	-10.7099
蚩尤	-10.71
志心	-10.7104
一顆	-10.7106
之表	-10.7106
繼是謂	-10.7106
少女	-10.7109
六六六	-10.711
并序	-10.7111
其根	-10.7116
還元	-10.7121
斗柄	-10.7122
而非	-10.7123
秋氣	-10.7124
其應	-10.7129
其卦	-10.713
之府也	-10.713
太易	-10.7135
土之	-10.7135
不由	-10.7136
服藥	-10.7136
百刻	-10.7137
以授	-10.7137
吾道	-10.7142
七竅	-10.7144
毒藥	-10.7147
鈆汞	-10.7149
本命日	-10.7153
氣乃	-10.7158
百節	-10.7161
商王	-10.7165
陽盛	-10.7165
所欲	-10.7168
未成	-10.7168
于心	-10.7171
無可	-10.7173
以為	-10.7178
楊書	-10.7188
感應	-10.7193
救之	-10.7196
同身寸之一寸	-10.7198
穴在	-10.7202
手少陰	-10.7203
百六	-10.7203
爐鼎	-10.7204
也亦	-10.7204
雲山	-10.7211
二十四分	-10.7211
之辭	-10.7214
觀物	-10.7215
六十二	-10.7215
難得	-10.7219
光耀	-10.722
六十六	-10.722
問道	-10.7221
風月	-10.7229
事須	-10.7233
四時之	-10.7235
爲眞	-10.7236
六十五	-10.7238
眞文	-10.7238
師道	-10.7238
刀刀刀	-10.7241
金碧	-10.7246
補其	-10.7247
腑	-10.7249
用力	-10.725
可可可	-10.7252
些	-10.7255
合成	-10.726
光輝	-10.7262
虎虎虎	-10.7264
叉	-10.7264
佞	-10.7265
是則	-10.7267
六十一	-10.7268
臘	-10.7268
縈	-10.7269
猶有	-10.7269
巔	-10.7269
珪	-10.727
邀	-10.7271
痏	-10.7272
蛟	-10.7273
洞神	-10.7273
山河	-10.7274
創	-10.7274
腨	-10.7274
雄雌	-10.7274
恠	-10.7276
宋守尚書屯田郎孫兆重改誤	-10.7276
龍龍龍	-10.7276
少陽相火	-10.7276
腴	-10.7276
柴	-10.7276
亮	-10.7276
碑	-10.7276
噴	-10.7276
媚	-10.7277
如是者	-10.7278
訴	-10.7278
上法	-10.7278
婚	-10.7279
不顧	-10.7279
驚駭	-10.7279
評	-10.7282
中指	-10.7285
䕶	-10.7285
舌本	-10.7286
客於	-10.7288
脾主	-10.729
應物	-10.7291
谷神	-10.7291
今之	-10.7292
六腑	-10.7293
二景	-10.7295
歡喜	-10.7295
營衛	-10.7295
無令	-10.7303
飛騰	-10.7305
常人	-10.7307
居上	-10.7314
役使	-10.7316
却入	-10.732
必死	-10.7321
可以爲	-10.7322
心心心	-10.7324
九霄	-10.7325
此物	-10.7326
土土	-10.7327
久而	-10.7328
不衰	-10.7335
尊神	-10.7336
同身寸之	-10.7337
而未	-10.7338
其經	-10.7342
九色	-10.7343
以鼻	-10.7348
星宿	-10.7352
形者	-10.7354
方平	-10.7355
傷則	-10.7363
之鄉	-10.7364
中外	-10.7365
人不知	-10.7365
之卦也	-10.7367
莫不由	-10.7378
陽者	-10.7381
變動	-10.7383
調之	-10.7386
燒之	-10.7387
調氣	-10.7389
數百	-10.7389
求其	-10.7393
之絡	-10.7393
肝木	-10.7395
皆從	-10.7398
江河	-10.7404
第一百	-10.7409
莫知	-10.7411
之甚	-10.7415
以左手	-10.7416
三里	-10.7418
明皇	-10.7419
之由	-10.742
在天爲	-10.7423
風雷	-10.7424
當用	-10.7425
土地	-10.7426
禾禾禾	-10.7426
無私	-10.7426
之元	-10.7428
爐火	-10.7428
卓	-10.7429
帖	-10.7431
如是則	-10.7433
即此	-10.7435
樵	-10.7438
天地之道	-10.7438
元元元	-10.7439
審審審	-10.744
虚邪	-10.744
虚皇	-10.7442
旦旦旦	-10.7443
化化化	-10.7444
允允允	-10.7445
臣臣臣	-10.7446
三篇	-10.7449
犬犬犬	-10.745
行符	-10.7453
勿使	-10.7454
斗斗斗	-10.7454
兩兩兩	-10.7456
多多多	-10.7456
爲先	-10.7456
去去去	-10.7456
牛牛牛	-10.7457
亘亘亘	-10.7457
奏奏奏	-10.7458
早早早	-10.7459
瑩瑩瑩	-10.7459
根基	-10.746
禁禁禁	-10.746
孔孔孔	-10.7461
子子子	-10.7461
毛毛毛	-10.7463
光光光	-10.7463
妾妾妾	-10.7463
貴貴貴	-10.7463
開開開	-10.7463
寶寶寶	-10.7464
艮艮艮	-10.7464
之常也	-10.7464
鼠鼠鼠	-10.7464
舌舌舌	-10.7466
妻妻妻	-10.7466
魚魚魚	-10.7467
帥帥帥	-10.7468
退退退	-10.7469
欠欠欠	-10.7469
無言	-10.747
廣廣廣	-10.7471
兄兄兄	-10.7471
回回回	-10.7472
永永永	-10.7473
兔兔兔	-10.7473
壘	-10.7474
瞽	-10.7474
嗌	-10.7474
玉玉玉	-10.7475
衰衰衰	-10.7475
引引引	-10.7476
良良良	-10.7476
拄杖	-10.7476
宫宫宫	-10.7476
君君君	-10.7476
蚌	-10.7477
丁丁丁	-10.7477
濁氣	-10.7477
衆衆衆	-10.7477
妄爲	-10.7477
酥	-10.7478
報報報	-10.7478
揲	-10.7479
婆	-10.7479
袋	-10.748
向向向	-10.748
淹	-10.7482
岳岳岳	-10.7482
牖	-10.7482
坎坎坎	-10.7482
典典典	-10.7482
懽	-10.7483
阜	-10.7483
巽巽巽	-10.7483
簪	-10.7483
男男男	-10.7484
所以爲	-10.7484
喙	-10.7485
骨骨骨	-10.7485
霍霍霍	-10.7485
况况况	-10.7485
愛愛愛	-10.7486
憚	-10.7487
鬥	-10.7487
龜龜龜	-10.7487
半半半	-10.7488
嘻	-10.7489
北北北	-10.7489
井井井	-10.749
孝孝孝	-10.749
決	-10.7491
縷	-10.7491
不待	-10.7491
甬甬甬	-10.7491
所治	-10.7492
潘	-10.7494
何由	-10.7495
个个个	-10.7496
大明	-10.7497
宰宰宰	-10.7497
用用用	-10.7499
王注	-10.7499
放下	-10.75
六十九	-10.7501
六根	-10.7504
不肖	-10.7506
曾青	-10.7506
也木	-10.7511
聰明	-10.7512
鍊形	-10.7513
亦以	-10.7514
玄母	-10.7515
故令	-10.7517
中生	-10.7519
視聽	-10.7519
寂寂	-10.7525
復命	-10.7526
千千千	-10.7528
大帝	-10.7528
洞府	-10.7531
也天地	-10.7531
腎水	-10.7535
何足	-10.7536
昇降	-10.7536
而立	-10.7537
節度	-10.7539
一處	-10.7541
不平	-10.7544
赤帝	-10.7546
久則	-10.7549
由人	-10.755
壺中	-10.7551
海底	-10.7552
佛法	-10.7555
本乎	-10.756
願聞其	-10.756
一度	-10.7561
甲子日	-10.7564
肺爲	-10.7565
外有	-10.7565
陰德	-10.7565
利名	-10.7571
夫欲	-10.7572
大還	-10.7573
定息	-10.7576
妄想	-10.7576
矣吾	-10.7577
洒	-10.7577
其藏	-10.7583
九玄	-10.7583
經言	-10.7588
昭然	-10.7593
故先	-10.7596
靈砂	-10.7609
且道	-10.7609
以氣	-10.7613
凡夫	-10.7613
章第四	-10.7615
又名	-10.7616
白石	-10.7616
得道者	-10.7617
嵩	-10.7618
不立	-10.762
人家	-10.7623
於脾	-10.7624
衣服	-10.7628
正當	-10.7642
南海	-10.7643
四體	-10.7652
過於	-10.7656
圃	-10.766
焉此	-10.7661
件	-10.7664
字道	-10.7666
腋	-10.7668
玄宫	-10.7671
群生	-10.7671
不知所	-10.7673
以定	-10.7674
九十六	-10.7677
内踝	-10.7679
宵	-10.7681
瞑	-10.7682
堆	-10.7686
潄	-10.769
哺	-10.7691
脯	-10.7691
千歲	-10.7692
火火火	-10.7693
籥	-10.7693
要妙	-10.7694
菴	-10.7694
橐籥	-10.7695
水水水	-10.7696
餅	-10.7696
每每每	-10.7696
摘	-10.7697
噓	-10.7697
醴	-10.7699
圭	-10.7699
雕	-10.77
夫道	-10.7701
溝	-10.7701
拆	-10.7707
狄	-10.7707
二十有四	-10.771
迎之	-10.771
旗	-10.7711
金木水火土	-10.7711
雖不	-10.7712
譬喻	-10.7712
即可	-10.7716
在前	-10.7718
功名	-10.772
亦云	-10.772
玉斧	-10.7721
當爲	-10.7721
無欲	-10.7722
豁然	-10.7724
三丹田	-10.773
氣衰	-10.773
一字	-10.7737
純陽子曰	-10.7739
令其	-10.7743
二首	-10.7745
明知	-10.7748
乃復	-10.7748
肝藏	-10.7749
手把	-10.7751
方得	-10.7753
風氣	-10.7757
日日日	-10.7758
南陽	-10.7759
四氣	-10.776
汴	-10.7764
十六日	-10.7767
江海	-10.7769
獨坐	-10.777
何事	-10.7772
屬陽	-10.7772
道法	-10.7778
上中下	-10.7783
六十八	-10.7784
玉兔	-10.7784
某甲	-10.7785
因以	-10.7787
立冬	-10.7791
台	-10.7792
者猶	-10.7802
不干	-10.7802
兑	-10.7803
會得	-10.7807
丑未	-10.7807
何時	-10.7809
不仁	-10.7813
彼此	-10.7814
此名	-10.7815
火化	-10.7818
八素	-10.782
仙經	-10.7829
山其上多	-10.7829
已來	-10.7831
行此	-10.7833
入聖	-10.7844
平坐	-10.7848
十兩	-10.7848
其類	-10.7851
起居	-10.7854
如此者	-10.7855
小指	-10.7857
難以	-10.786
登仙	-10.7861
同異	-10.7863
陰中	-10.7865
始也	-10.7868
焉能	-10.7868
水氣	-10.7869
足厥陰	-10.787
須得	-10.7871
中嶽	-10.7872
憐	-10.788
郄	-10.7881
不顯	-10.7881
顔云	-10.7883
而還	-10.7887
隂符	-10.7887
金光	-10.7894
順天	-10.7894
五斗	-10.7896
是之謂	-10.7896
逆行	-10.7897
靈源	-10.7899
塊	-10.79
陽光	-10.79
莫若	-10.7902
南向	-10.7903
以前	-10.7904
無過	-10.7905
之司	-10.7906
畢引	-10.7908
春夏秋冬	-10.7908
疵	-10.7909
粲	-10.7909
惶	-10.7909
十二分	-10.791
憫	-10.791
僻	-10.791
炳	-10.791
之語	-10.7912
槐	-10.7912
合爲	-10.7913
黜	-10.7915
陟	-10.7916
雉	-10.7917
斃	-10.7917
象也	-10.7918
无爲	-10.7919
馭	-10.792
太元	-10.792
旨	-10.792
及諸	-10.7921
戌亥	-10.7921
稻	-10.7921
偷	-10.7921
有言	-10.7922
頃刻	-10.7923
蠲	-10.7926
岫	-10.7927
優游	-10.7927
九過	-10.7928
祭祀	-10.7931
名之曰	-10.7931
皆謂	-10.7931
平之	-10.7931
妨	-10.7933
桃李	-10.7936
過此	-10.7938
烏烏烏	-10.7942
七十三	-10.7945
脉之	-10.7946
之盛	-10.7948
光芒	-10.7952
千載	-10.7952
之化也	-10.7953
其五	-10.7956
聞道	-10.7959
自然之道	-10.796
巳亥	-10.7963
安樂	-10.7967
小兒	-10.7969
其液	-10.7969
四維	-10.7973
玄中	-10.7977
卷下	-10.798
之臺	-10.798
脾土	-10.798
不拘	-10.7981
水旱	-10.7987
訣云	-10.799
之户	-10.7991
二卦	-10.7994
自成	-10.8
衢	-10.8001
形象	-10.8001
火龍	-10.8003
。	-10.8004
其國	-10.8004
坤之	-10.8005
終身	-10.8008
在手	-10.801
靈官	-10.8012
大寒	-10.8014
還返	-10.8017
也刺	-10.802
如法	-10.8023
大海	-10.8024
清明	-10.8026
我今	-10.8026
本經	-10.8027
已前	-10.8027
處也	-10.803
道路	-10.8032
吕子曰	-10.8038
非一	-10.8039
也人之	-10.8039
乎岐伯曰	-10.8041
陰盛	-10.8042
往往	-10.8045
死也	-10.8045
之末	-10.8049
靜則	-10.8051
十有六	-10.8051
章第三十	-10.8057
必成	-10.806
有情	-10.8062
宰相	-10.8064
精誠	-10.8068
之使	-10.807
而无	-10.8074
入地	-10.8077
立秋	-10.808
第四十	-10.8081
呼之	-10.8082
其動	-10.8083
者反	-10.8084
終無	-10.8087
龍虎之	-10.8087
七十七	-10.8088
分形	-10.8089
笑曰	-10.8089
陰陰	-10.8093
而取之	-10.8094
一十六	-10.8094
和平	-10.8095
上玄	-10.8098
修煉	-10.8101
隱於	-10.8102
流轉	-10.8103
依法	-10.8107
螣蛇	-10.8112
勾陳	-10.8115
也土	-10.8122
人若	-10.8123
氣虚	-10.8125
以時	-10.8125
茫	-10.8126
壑	-10.8127
痺	-10.8127
天數	-10.8128
但能	-10.8129
修行人	-10.8129
熏	-10.813
𡖖	-10.813
二斤	-10.813
矣若	-10.8131
物我	-10.8133
家風	-10.8133
悠悠	-10.8133
眼前	-10.8133
雷霆	-10.8133
曝	-10.8135
亟	-10.8135
頷	-10.8135
蟄	-10.8136
髎	-10.8136
孔子曰	-10.8136
九十八	-10.8139
裘	-10.8139
獵	-10.814
無間	-10.8141
濛	-10.8141
處處	-10.8142
竇	-10.8142
九十一	-10.8144
妍	-10.8144
雲笈七籤卷之	-10.8145
畢又	-10.8146
柔弱	-10.8148
睦	-10.815
濱	-10.8151
羅列	-10.8156
言功	-10.816
林泉	-10.8161
氣應	-10.8164
清水	-10.8165
女人	-10.8169
逆也	-10.817
無失	-10.8173
毛蟲	-10.8174
一身之	-10.8175
從而	-10.8183
故號	-10.8183
復還	-10.8186
風寒	-10.8188
南宫	-10.8189
開口	-10.8191
開明	-10.8195
爲太尉	-10.8195
勝於	-10.8195
黄土	-10.8196
六十七	-10.8196
不克	-10.8197
參同契曰	-10.8199
廬山	-10.8199
單衣	-10.8202
遠矣	-10.8204
昇玄	-10.8204
黑色	-10.8204
鍊丹	-10.8211
氣足	-10.822
爲寒	-10.8221
貴乎	-10.8224
大地	-10.8227
地理	-10.8236
十斤	-10.8238
膜	-10.8247
之策	-10.8247
其行	-10.8248
其光	-10.8251
更生	-10.8252
八年	-10.8257
土爲	-10.8259
是其	-10.8264
於是乎	-10.8265
脉氣	-10.8266
隨之	-10.8266
崑崙山	-10.8267
化形	-10.8267
所由	-10.8268
也當	-10.8269
氣液	-10.8269
林下	-10.827
身長	-10.827
同一	-10.8276
也肺	-10.8276
止於	-10.8278
地有	-10.8279
遊於	-10.828
不常	-10.8282
德之	-10.8288
其味	-10.8289
而見	-10.8293
活計	-10.8293
生殺	-10.8294
來迎	-10.8296
欲以	-10.8298
形於	-10.8303
爲病	-10.8306
精明	-10.8308
春氣	-10.8311
無邊	-10.8311
一陽生	-10.8316
而知之	-10.8318
有无	-10.8319
也昔	-10.8324
不交	-10.8326
百三	-10.8328
彘	-10.8329
則可	-10.8329
二十年	-10.8331
粹	-10.8336
語言	-10.8336
察其	-10.8337
以正	-10.8341
也肝	-10.835
庫	-10.8352
尻	-10.8356
綴	-10.8357
中正	-10.8357
梓	-10.8359
媒	-10.8359
定庵曰	-10.8359
攸	-10.836
蔓	-10.836
眸	-10.836
明君	-10.8362
腥	-10.8362
拾	-10.8362
葩	-10.8362
蔚	-10.8363
胤	-10.8363
既已	-10.8364
艱	-10.8365
諦	-10.8365
傷寒	-10.8366
二名	-10.8366
豈無	-10.8366
詎	-10.8367
儻	-10.8369
帔	-10.8369
幡	-10.837
猛獸	-10.8371
天台	-10.8372
冑	-10.8373
訛	-10.8374
禺	-10.8375
醇	-10.8377
嚮	-10.8377
七十八	-10.8379
雲霧	-10.838
飮食	-10.838
援	-10.8382
不倦	-10.8385
字子	-10.8389
難也	-10.8392
者道之	-10.8393
民之	-10.8393
紫煙	-10.8397
伯陽	-10.8399
賢愚	-10.8401
色也	-10.8406
青天	-10.8409
其言	-10.841
陰爲	-10.8411
歸之	-10.8413
氣在	-10.8416
不窮	-10.8418
沖和	-10.8419
如火	-10.842
平地	-10.842
識者	-10.8422
海中	-10.8423
大抵	-10.8424
遞	-10.8424
都畢	-10.8427
不收	-10.8429
厥逆	-10.843
如今	-10.843
金門	-10.8432
見矣	-10.8433
之制	-10.8434
礬石	-10.8437
萬年	-10.8438
眞神	-10.8439
行步	-10.8439
禮樂	-10.844
熱者	-10.8449
行則	-10.845
七十九	-10.8451
死而	-10.8454
如意	-10.8455
莫知其	-10.8456
千餘	-10.8456
并於	-10.8458
心藏	-10.8459
芝草	-10.8461
病之	-10.8462
玉爐	-10.8462
樞機	-10.8468
即爲	-10.8469
其處	-10.8471
吐氣	-10.8474
則水	-10.8475
侍中	-10.8475
於己	-10.8476
月魄	-10.8477
有名	-10.848
必以	-10.8483
先天地	-10.8487
文火	-10.8488
塵世	-10.849
以制	-10.8491
攪	-10.8497
乃以	-10.8498
黑白	-10.8498
代立	-10.8498
未聞	-10.8499
雖無	-10.8502
者如	-10.8504
何不	-10.8509
者陽也	-10.8514
所願	-10.8515
全其	-10.8518
精進	-10.852
太尉	-10.8522
出没	-10.8523
某乙	-10.8526
想其	-10.853
攻之	-10.8532
人爲	-10.8533
如玉	-10.8534
鼎爐	-10.8538
氣絶	-10.8541
著於	-10.8545
合和	-10.8545
又問	-10.8548
其源	-10.8549
八十四	-10.855
腎藏	-10.8552
不善	-10.8552
地仙	-10.8557
不亂	-10.8561
怎	-10.8565
九靈	-10.8568
以補	-10.8579
氣散	-10.8583
瑛	-10.8584
璞	-10.8586
也雖	-10.8587
褒	-10.8587
縫	-10.8588
鵠	-10.8588
色赤	-10.8591
灸之	-10.8591
殞	-10.8592
黒	-10.8593
捷	-10.8593
寥廓	-10.8593
社廟	-10.8593
罏	-10.8594
心上	-10.8594
鋪	-10.8594
辦	-10.8594
惱	-10.8594
四極	-10.8595
雹	-10.8596
慙	-10.8596
方始	-10.8597
魏伯陽	-10.8598
氐	-10.8599
梟	-10.8599
之所生	-10.86
伎	-10.8601
迥	-10.8601
三等	-10.8601
規矩	-10.8603
戊癸	-10.8603
剡	-10.8603
麋	-10.8603
化而爲	-10.8604
梢	-10.8604
警	-10.8605
鱗蟲	-10.8605
耎	-10.8605
之理也	-10.8606
嚏	-10.8606
念念	-10.8607
纓	-10.8609
贊	-10.861
纂	-10.861
來復	-10.861
耳聾	-10.8612
自悟	-10.8613
者或	-10.8614
奉天	-10.8616
叓	-10.8617
即有	-10.8619
大修行人	-10.8621
脫胎	-10.8623
九地	-10.8624
勤行	-10.8625
而易	-10.8625
本師	-10.8626
洞徹	-10.8627
相親	-10.8629
直下	-10.8629
理也	-10.863
不爾	-10.8633
熱也	-10.8633
雷公	-10.8637
釋氏	-10.8637
自稱	-10.8638
八八	-10.864
下臨	-10.8649
居家	-10.8651
海内	-10.8653
而陽	-10.8657
補寫	-10.8657
地下	-10.8659
安寧	-10.8659
河東	-10.8664
度人	-10.8664
無一	-10.8664
死氣	-10.8665
三十有六	-10.8666
故當	-10.8666
之力	-10.8667
右腎	-10.8668
命之	-10.8669
吾身之	-10.867
肺主	-10.867
圓通	-10.867
八十五	-10.8672
抑之	-10.8675
何嘗	-10.8677
金虎	-10.8679
者雖	-10.8682
生涯	-10.8682
問之	-10.8686
機關	-10.8689
奉上	-10.8695
等閑	-10.8697
九十三	-10.87
義也	-10.8702
九天之	-10.8705
光澤	-10.8717
土氣	-10.8717
之質	-10.8718
同志	-10.8721
所致	-10.8723
先生曰	-10.8723
崑崙之	-10.8724
事不	-10.8728
肺金	-10.8729
一朝	-10.8732
具足	-10.8732
其術	-10.8733
色黄	-10.8734
真君	-10.8737
直上	-10.8742
玄靈	-10.8742
玉房	-10.8743
曰天	-10.8743
無别	-10.8747
祕之	-10.8748
化之	-10.8748
更不	-10.8751
黄雲	-10.8751
三度	-10.8753
得成	-10.876
所受	-10.8767
陽數	-10.8767
可與	-10.8768
能使	-10.8773
熱而	-10.8774
一竅	-10.8775
又見	-10.8779
混然	-10.8783
而赤	-10.8785
以上	-10.8785
瑕	-10.8785
立功	-10.8791
經文	-10.8791
白色	-10.8792
者病	-10.8799
三卷	-10.8801
之君	-10.8803
法籙	-10.8804
泰山	-10.8808
在世	-10.8809
氣和	-10.8811
其汞	-10.8812
仙公	-10.8818
鳩	-10.8819
强名	-10.8821
璨	-10.8825
斫	-10.8825
之政	-10.8825
瘞	-10.8827
偕	-10.8828
祅	-10.8829
讃	-10.8831
何故也	-10.8831
潮	-10.8831
萎	-10.8831
蕪	-10.8832
轍	-10.8833
兎	-10.8834
静	-10.8834
滄海	-10.8835
羡	-10.8836
身輕	-10.8837
澹	-10.8838
𨽻	-10.8839
一符	-10.8839
悮	-10.8839
棠	-10.8841
悟眞篇云	-10.8841
憲	-10.8841
瘥	-10.8842
苞	-10.8842
滲	-10.8842
金陵	-10.8843
罔象	-10.8844
浩浩	-10.8845
鎔	-10.8845
躭	-10.8845
太上大道君	-10.8845
刻漏	-10.8846
太倉	-10.8846
坤卦	-10.8847
陽爻	-10.8847
翟	-10.8848
聞其	-10.8849
能通	-10.8849
㜽	-10.885
不降	-10.885
手太隂	-10.8852
距	-10.8854
脾脉	-10.8855
同法	-10.8856
所聞	-10.8857
歸眞	-10.8858
又北	-10.8858
汞爲	-10.8858
因其	-10.8861
得之以	-10.8862
伐鄭	-10.8865
卦之	-10.8867
則形	-10.8868
脾藏	-10.8869
火中	-10.8871
爲善	-10.8875
真一	-10.8877
陽陽	-10.8878
圓成	-10.8879
新校正云按甲乙經作	-10.8881
八寸	-10.8882
十人	-10.8883
不足則	-10.8885
災厄	-10.8886
言人	-10.8887
前聖	-10.8888
至聖	-10.889
左腎	-10.8892
之志	-10.8894
度數	-10.8898
三百六十日	-10.8899
逆之	-10.8902
其㫖	-10.8905
在後	-10.8906
俟其	-10.8906
生生	-10.8909
者以其	-10.8911
所勝	-10.8916
依舊	-10.8917
宗祖	-10.8919
廣大	-10.8921
上經	-10.8922
夢中	-10.8926
道生	-10.8927
者自	-10.8928
不愈	-10.8931
八十二	-10.8932
事也	-10.8933
不煩	-10.8933
玄白	-10.8933
死籍	-10.8937
直事	-10.894
隨其	-10.8942
此心	-10.8944
二十三日	-10.8946
五百	-10.8946
小車	-10.8947
未足	-10.8951
通達	-10.8951
此日	-10.8952
黄花	-10.8958
空寂	-10.8958
矣又	-10.8964
師云	-10.8974
其大	-10.8975
神龍	-10.8976
也帝曰善	-10.8983
陽極	-10.8985
長三寸	-10.8988
起于	-10.899
三品	-10.8993
交而	-10.8994
魂神	-10.8996
以至於	-10.8997
皇人	-10.8998
屬金	-10.8998
未有不	-10.9001
一十	-10.9001
休息	-10.9002
一十三	-10.9002
行事	-10.9008
立夏	-10.9008
之長	-10.901
事事	-10.901
不勞	-10.9012
月生	-10.9013
行者	-10.9014
方外	-10.9015
無妄	-10.9016
知有	-10.902
是一	-10.9025
句曲	-10.9025
生門	-10.9026
公曰	-10.9028
至游子曰	-10.9031
金書	-10.9034
參同	-10.9038
食飲	-10.9039
虚心	-10.9039
金生水	-10.9044
土釜	-10.9044
在目前	-10.9047
人主	-10.9047
者常	-10.9049
軿	-10.9051
能制	-10.9052
百步	-10.9053
易象	-10.9054
可知也	-10.9059
喪其	-10.9059
黄衣	-10.9061
瘟	-10.9061
腰脊	-10.9064
一節	-10.9067
稟	-10.9067
摸	-10.9069
濃	-10.9071
羞	-10.9072
眷	-10.9072
隴	-10.9074
凑	-10.9074
至游子曾慥集	-10.9075
肩背	-10.9076
膂	-10.9076
饌	-10.9076
衷	-10.9076
説	-10.9078
懶	-10.9078
曹操	-10.9078
遜	-10.9079
戈	-10.9079
寥寥	-10.9079
當此之時	-10.908
諷	-10.908
身家	-10.908
眞金	-10.9081
之事也	-10.9082
翠虚篇云	-10.9082
册	-10.9082
氣力	-10.9082
中焦	-10.9083
蔣	-10.9083
札	-10.9084
而至于	-10.9084
慰	-10.9085
壓	-10.9086
少隂君火	-10.9086
琅玕	-10.9087
耐	-10.9088
翮	-10.9088
該	-10.9089
臯	-10.909
太后	-10.909
秩	-10.909
罇	-10.909
之民	-10.909
䧺	-10.9094
居于	-10.9097
大哉	-10.9097
旁門	-10.9098
黄庭經云	-10.9099
鳳翔	-10.91
動作	-10.9104
世有	-10.9105
結爲	-10.9107
以火	-10.9111
又言	-10.9113
脉沉	-10.9114
一十九	-10.9115
則民	-10.9115
小腹	-10.9117
勝也	-10.9122
澄心	-10.9123
一星	-10.9123
不改	-10.9124
之極也	-10.9125
不樂	-10.9127
是道	-10.9127
易者	-10.913
本在	-10.913
六陽	-10.9132
常當	-10.9133
紀綱	-10.9136
氣街	-10.9136
一夕	-10.9138
易遷	-10.914
斯言	-10.9141
右遷	-10.9141
人身中	-10.9142
不專	-10.9144
九十七	-10.9144
人無	-10.9146
氣以	-10.9147
十有八	-10.9148
江南	-10.9149
肺藏	-10.9149
升天	-10.9151
風生	-10.9155
飛雲	-10.9158
幽玄	-10.9158
爲度	-10.9162
其目	-10.9165
帝時	-10.9167
畢乃	-10.917
動也	-10.9172
積聚	-10.9174
道非	-10.918
德也	-10.9183
山高	-10.9185
一十四	-10.9188
於乾	-10.9192
不死之道	-10.9192
炎上	-10.9193
花開	-10.9196
安有	-10.9202
運入	-10.9205
司命君	-10.9213
龍蛇	-10.9219
實而	-10.9222
水者	-10.9225
大雨	-10.9227
門人	-10.9227
躡紀	-10.9229
爲司徒	-10.9235
多有	-10.9235
九十九	-10.9235
肺肺	-10.9236
安其	-10.9237
其地	-10.9238
人倫	-10.9241
其藥	-10.9243
大羅	-10.9244
者心	-10.9245
天官	-10.9247
何得	-10.9248
戒者	-10.9249
風府	-10.9251
三百六十五	-10.9255
神守	-10.9263
蒂	-10.9266
相成	-10.9267
丹丹丹丹	-10.9268
凡凡凡凡	-10.9271
氣穴	-10.9272
壽命	-10.9273
穴也在	-10.9274
一百八	-10.9279
本末	-10.9279
顆	-10.9279
第十二	-10.928
天地萬物	-10.9281
近近近近	-10.9282
父父父父	-10.9283
哉哉哉哉	-10.9283
人莫	-10.9285
乍乍乍乍	-10.9287
此三者	-10.9287
吠吠吠吠	-10.9288
玉芝	-10.9289
卜卜卜卜	-10.929
心病	-10.929
能爲	-10.9292
辰辰辰辰	-10.9293
星星星星	-10.9293
朴朴朴朴	-10.9293
武武武武	-10.9295
仰仰仰仰	-10.9295
古古古古	-10.9296
士士士士	-10.9296
吕吕吕吕	-10.9297
中中中中	-10.9297
生乎	-10.9297
万万万万	-10.9297
兵士	-10.9298
普普普普	-10.9298
貢	-10.9299
妳妳妳妳	-10.9301
美美美美	-10.9301
眉眉眉眉	-10.9301
千金	-10.9302
莊莊莊莊	-10.9302
㒵㒵㒵㒵	-10.9303
甲甲甲甲	-10.9303
癸癸癸癸	-10.9303
百百百百	-10.9304
以金	-10.9304
田田田田	-10.9305
花花花花	-10.9305
上爲	-10.9305
其口	-10.9305
株	-10.9306
品品品品	-10.9307
母母母母	-10.9307
老老老老	-10.9308
者陰也	-10.9308
冷冷冷冷	-10.9308
七七七七	-10.9309
弟弟弟弟	-10.9309
匹匹匹匹	-10.9309
坤坤坤坤	-10.931
月月月月	-10.931
旁旁旁旁	-10.931
步步步步	-10.931
目目目目	-10.931
手手手手	-10.931
震震震震	-10.9311
茶茶茶茶	-10.9311
才才才才	-10.9312
驢	-10.9312
華華華華	-10.9312
黄黄黄黄	-10.9313
必必必必	-10.9313
簿	-10.9313
東東東東	-10.9313
柏	-10.9313
法法法法	-10.9314
犖犖犖犖	-10.9314
見于	-10.9314
直直直直	-10.9314
爻爻爻爻	-10.9315
乾乾乾乾	-10.9315
夫夫夫夫	-10.9315
王者	-10.9315
崇崇崇崇	-10.9316
离离离离	-10.9317
兌兌兌兌	-10.9317
足足足足	-10.9317
乃乃乃乃	-10.9317
乙乙乙乙	-10.9318
下治	-10.9318
吾吾吾吾	-10.9318
亞亞亞亞	-10.9318
黑黑黑黑	-10.9318
赤赤赤赤	-10.9318
算	-10.9319
排排排排	-10.9319
义义义义	-10.9319
水下	-10.9319
全全全全	-10.9319
山山山山	-10.9319
寺寺寺寺	-10.932
未未未未	-10.932
身外	-10.932
天天天天	-10.932
備備備備	-10.932
坼坼坼坼	-10.932
朕	-10.932
丑丑丑丑	-10.932
不飢	-10.932
仆	-10.9321
位而	-10.9321
瓶瓶瓶瓶	-10.9321
五五五五	-10.9322
匠匠匠匠	-10.9322
玄牝之門	-10.9322
女女女女	-10.9323
相反	-10.9323
繇	-10.9323
詢	-10.9323
采采采采	-10.9324
貪貪貪貪	-10.9324
寅寅寅寅	-10.9324
紹	-10.9324
悖	-10.9324
宅宅宅宅	-10.9325
昆	-10.9325
牙牙牙牙	-10.9325
一一一一	-10.9326
爲末	-10.9326
堯堯堯堯	-10.9326
大大大大	-10.9326
馬馬馬馬	-10.9326
文文文文	-10.9326
誑	-10.9326
通暢	-10.9326
揆揆揆揆	-10.9327
走走走走	-10.9327
絹	-10.9327
咫尺	-10.9327
安安安安	-10.9327
之主也	-10.9328
髻	-10.9328
草草草草	-10.9328
尾尾尾尾	-10.9328
香香香香	-10.9328
白白白白	-10.9328
呈呈呈呈	-10.9328
雄雄雄雄	-10.9328
内内内内	-10.9329
平平平平	-10.9329
三三三三	-10.933
唐太僕令啓玄子王氷次註宋光禄卿直	-10.933
斥	-10.933
米米米米	-10.933
搗	-10.933
盼	-10.9331
南嶽夫人	-10.9331
騁	-10.9331
曹曹曹曹	-10.9331
嫉	-10.9331
耳耳耳耳	-10.9332
思思思思	-10.9332
民民民民	-10.9332
浮生	-10.9332
南南南南	-10.9333
實者	-10.9333
帝帝帝帝	-10.9334
自自自自	-10.9334
瓦瓦瓦瓦	-10.9335
天王姓	-10.9335
二二二二	-10.9335
也靈樞經曰	-10.9336
石石石石	-10.9336
究竟	-10.9336
蹙	-10.9336
丘丘丘丘	-10.9336
在在在在	-10.9336
朙	-10.9338
同同同同	-10.9338
賢賢賢賢	-10.9338
宦	-10.9338
血血血血	-10.9339
卓卓卓卓	-10.9339
存心	-10.934
毗	-10.934
𨼆	-10.9341
織	-10.9341
象象象象	-10.9341
弑其君	-10.9341
天寶	-10.9341
不有	-10.9342
巧巧巧巧	-10.9342
九九九九	-10.9342
鼻鼻鼻鼻	-10.9343
年年年年	-10.9343
飛飛飛飛	-10.9344
蓋以	-10.9344
自謂	-10.9345
上登	-10.9346
霧露	-10.9347
煉之	-10.9347
豫章	-10.9347
覃覃覃覃	-10.9348
而取	-10.9348
虎嘯	-10.9348
鹿鹿鹿鹿	-10.9353
會合	-10.9353
鼻孔	-10.9355
爲司空	-10.9356
太淵	-10.9356
不壞	-10.9358
甲蟲	-10.936
丙丙丙丙	-10.9361
授之	-10.9361
七分	-10.9362
之法也	-10.9364
傳送	-10.9364
深淺	-10.9365
膕	-10.9366
手心主	-10.9369
坐卧	-10.9371
返照	-10.9372
至大	-10.9379
捻訣	-10.938
何哉	-10.938
所知	-10.9384
老君告	-10.9385
仙都	-10.9388
後五日	-10.9388
關元	-10.9388
何況	-10.939
驅使	-10.9391
而升	-10.9395
自可	-10.9396
明年	-10.9397
死於	-10.94
五雲	-10.9402
玉泉	-10.9402
身無	-10.9403
凡欲	-10.9406
性情	-10.9409
不到	-10.9411
自當	-10.9412
或問曰	-10.9414
午時	-10.9415
山海經	-10.9415
斷絶	-10.9417
即知	-10.9418
茅君	-10.9421
漏泄	-10.9421
乃作	-10.9422
一千	-10.9423
水而	-10.9423
若此	-10.9423
氣口	-10.9427
超然	-10.9427
爲木	-10.9428
認得	-10.9429
已有	-10.9431
相守	-10.9435
所以能	-10.9436
五升	-10.9439
臍中	-10.944
誤也	-10.944
皆當	-10.9443
存焉	-10.9444
仙矣	-10.9448
之丹	-10.9449
經營	-10.9451
易也	-10.9451
高眞	-10.9452
乘龍	-10.9454
既有	-10.9457
也又曰	-10.9458
何曾	-10.9467
能行	-10.9468
公孫	-10.9468
鉛也	-10.947
王子	-10.9471
甚者	-10.9474
各異	-10.9477
土木	-10.9479
不異	-10.9486
四四	-10.9486
究其	-10.9487
數年	-10.9487
者腎	-10.9487
即成	-10.9487
仙眞	-10.9488
南華	-10.9489
二穴在	-10.9494
洞達	-10.9503
者主	-10.9504
爲土	-10.9505
以通	-10.9508
藏也	-10.9509
丁壬	-10.951
九天之上	-10.951
各得其	-10.9517
一日之	-10.9518
爲心	-10.9518
龍吟	-10.9519
都不	-10.9519
煉氣	-10.9522
下士	-10.9522
紫清	-10.9523
肝爲	-10.9524
謂之曰	-10.9526
珠玉	-10.9527
十卷	-10.9529
非也	-10.953
道流	-10.9531
脉也	-10.9532
氣有	-10.9533
也或問	-10.9535
月十五日	-10.9536
靜定	-10.9536
何以故	-10.9538
畢矣	-10.954
不疑	-10.9545
三寶	-10.9547
之室	-10.9549
拈	-10.955
夜行	-10.9552
皆因	-10.9552
滿則	-10.9556
大功	-10.9557
跳	-10.9561
師子	-10.9564
夏王	-10.9567
虯虯虯虯	-10.9567
腎者	-10.9568
詮	-10.9569
古文	-10.957
雲水	-10.957
論云	-10.957
噦	-10.9571
猶是	-10.9572
蜂	-10.9572
顏	-10.9576
琳	-10.9578
蹄	-10.9579
曷	-10.9579
之域	-10.9579
結胎	-10.958
斟	-10.958
亦須	-10.958
耆	-10.958
如來	-10.9581
不使	-10.9581
飄飄	-10.9581
寂寞	-10.9582
而致	-10.9582
瘖	-10.9583
輻	-10.9583
從子	-10.9583
霑	-10.9584
叩齒三通	-10.9584
橘	-10.9584
蹇	-10.9584
毫釐	-10.9585
恍	-10.9585
一室	-10.9585
三眞	-10.9586
祕閣林億等校正	-10.9586
洽	-10.9586
絶粒	-10.9586
藻	-10.9586
窈冥	-10.9587
恕	-10.9587
菊	-10.9588
榮辱	-10.9589
秤	-10.959
荀	-10.959
净	-10.959
聘	-10.9591
痾	-10.9591
貝	-10.9591
兇	-10.9591
中自有	-10.9591
掉	-10.9593
撮	-10.9593
王王王王	-10.9593
景雲	-10.9594
虎狼	-10.9595
至德	-10.9596
三陰三陽	-10.9597
櫛	-10.9597
厚薄	-10.9598
其猶	-10.9599
正中	-10.9599
實爲	-10.9599
乙庚	-10.9601
一性	-10.9603
音聲	-10.9605
以立	-10.9606
白蜜	-10.9606
爾雅	-10.9609
鬱鬱	-10.9609
道經當思	-10.961
合乎	-10.9612
故無	-10.9613
無數	-10.9613
丹青	-10.9614
安樂窩中	-10.9615
新校正云按甲乙經云	-10.9618
經法	-10.962
正宫	-10.9621
爲皇太子	-10.9626
是何	-10.9627
皆同	-10.9629
天理	-10.9633
九十二	-10.9634
朔旦	-10.9634
者火也	-10.9638
流霞	-10.9638
首尾	-10.9638
諸陽	-10.9642
交於	-10.9644
後聖君告	-10.965
文公	-10.9661
潜龍	-10.9663
不可妄	-10.9664
乎答云	-10.9666
直至	-10.9667
天蓬	-10.9668
亦自	-10.9671
其妙	-10.9677
道自	-10.9679
點化	-10.9682
眞訣	-10.9682
煑之	-10.9683
太羽	-10.9683
上篇	-10.9683
乘之	-10.9685
之路	-10.9686
聽之	-10.9688
爻象	-10.969
方能	-10.9691
汞鉛	-10.9694
戒不得	-10.9702
道經	-10.9702
一小	-10.9703
通則	-10.9703
靈丹	-10.9707
無疾	-10.9713
餌之	-10.9714
二百五	-10.9715
仙者	-10.9716
脉浮	-10.9718
道要	-10.972
向前	-10.9722
便得	-10.9724
所云	-10.9727
須要	-10.9729
學士	-10.973
肝肝	-10.9733
者脾	-10.9736
于天	-10.9737
難可	-10.9739
有餘則	-10.9741
所成	-10.9744
高仙	-10.9748
乎天地	-10.9756
神機	-10.9757
山水	-10.9758
離合	-10.9758
雲霞	-10.9761
以取	-10.9761
小者	-10.9761
來下	-10.9763
赤水	-10.9763
外應	-10.9769
何用	-10.977
月建	-10.9773
童顔	-10.9773
退位	-10.9774
訣在	-10.9777
吾有	-10.9781
明師	-10.9781
則陽氣	-10.9783
邪在	-10.9784
第十一	-10.9788
飛入	-10.9789
反爲	-10.9791
青色	-10.9792
與其	-10.9798
之器	-10.98
章第七	-10.98
九元	-10.9815
如雞子	-10.9817
瞳	-10.9818
⬤(	-10.9818
萬遍	-10.9818
昔者	-10.982
紅塵	-10.9822
而合	-10.9822
爲國	-10.9823
三君	-10.9823
之耳	-10.9824
交接	-10.9824
貽	-10.9827
降於	-10.9827
籬	-10.9828
八十九	-10.9829
爲逆	-10.983
泓	-10.9837
五辛	-10.984
章第六	-10.9842
盻	-10.9842
平人	-10.9842
及至	-10.9843
魒	-10.9844
桐	-10.9844
藹	-10.9845
蟻	-10.9846
菽	-10.9846
有鳥焉其狀如	-10.9846
瓢	-10.9846
牡	-10.9847
屬于	-10.9847
觜	-10.9847
眎	-10.9848
汾	-10.9848
盪	-10.9848
擔	-10.9848
笛	-10.9849
郁	-10.9849
或見	-10.9849
杓	-10.985
六一泥	-10.9851
好生	-10.9851
擅	-10.9851
甑	-10.9851
先聖	-10.9851
忠孝	-10.9853
峙	-10.9854
抗	-10.9854
則可以	-10.9854
嬉	-10.9854
祝畢	-10.9854
尺寸	-10.9855
憩	-10.9855
犢	-10.9856
善言	-10.9856
光元曰	-10.9856
釐	-10.9856
沮	-10.9856
去世	-10.9857
坦然	-10.9859
悉皆	-10.9859
府也	-10.9859
翊	-10.9861
而退	-10.9863
威儀	-10.9863
玉童玉女	-10.9864
頴	-10.9865
豺	-10.9866
骷髏	-10.9867
夏禹	-10.9867
嚥液	-10.9869
塵埃	-10.9871
毛髮	-10.9871
枝葉	-10.9875
忠信	-10.9875
乘雲	-10.9876
二篇	-10.9878
正位	-10.9879
俗人	-10.988
之難	-10.9885
專政	-10.9885
而勿	-10.9887
虎龍	-10.9887
香火	-10.9889
孟子	-10.9889
道以	-10.989
忘機	-10.989
乾坤之	-10.9891
讀書	-10.9891
其生	-10.9892
昭昭	-10.9893
常住	-10.9895
志不	-10.9897
成子	-10.9898
三合	-10.9899
大道之	-10.9901
自無	-10.9907
公卒子	-10.9908
相配	-10.9909
且如	-10.9909
損益	-10.9915
向外	-10.9915
白帝	-10.9915
而陰	-10.9917
節候	-10.9917
炎炎	-10.9918
承之	-10.9921
爲始	-10.9922
萬類	-10.9925
八十八	-10.9925
内經	-10.9926
志士	-10.9929
也地	-10.9936
忘其	-10.9942
在其中	-10.9947
見性	-10.9948
各以	-10.9957
還家	-10.9958
也又云	-10.9962
人或	-10.9963
元首	-10.9964
屬陰	-10.9965
故其	-10.9965
五五	-10.9967
日月之精	-10.9969
四卦	-10.9969
大司馬	-10.997
與夫	-10.9971
光陰	-10.9976
受生	-10.9977
此等	-10.9977
司徒	-10.998
仙子	-10.998
河中	-10.9981
蓮花	-10.999
知人	-10.9991
有八	-10.9997
錬氣	-10.9998
事業	-11.0002
之津	-11.0003
惡寒	-11.0006
未濟	-11.001
衣冠	-11.0012
八十三	-11.0014
也汞	-11.0014
中原	-11.0016
是書	-11.0017
其機	-11.002
蹻	-11.002
得眞	-11.0022
妙哉	-11.0027
此語	-11.0029
陷中	-11.0029
過去	-11.0033
六六	-11.0033
其門	-11.0043
在右	-11.0044
屬於	-11.0046
眞炁	-11.0047
生命	-11.005
永無	-11.0052
云是	-11.0054
極於	-11.0054
惡者	-11.0055
成仙	-11.0055
斛	-11.0055
非我	-11.0055
眉間	-11.0057
邪正	-11.006
爲害	-11.006
神凝	-11.0062
嚥津	-11.0065
不順	-11.0068
相臨	-11.0069
萬歲	-11.0069
精者	-11.0074
斯須	-11.0075
撞	-11.0075
無成	-11.0076
不見其	-11.0076
經書	-11.0078
不一	-11.0078
靈氣	-11.0088
受其	-11.0091
道德經	-11.0094
真人曰	-11.0095
八十六	-11.0098
學而	-11.0098
傳云	-11.01
土土土土	-11.0101
芥	-11.0102
將何	-11.0102
一等	-11.0104
寤	-11.0106
腠	-11.0106
相望	-11.0107
億萬	-11.0107
玄之又玄	-11.0108
胕腫	-11.0109
偈	-11.011
婢	-11.011
塑	-11.0111
其上多	-11.0111
綜	-11.0111
中取	-11.0111
五藏之氣	-11.0112
慨	-11.0112
氣象	-11.0112
形神俱妙	-11.0112
扃	-11.0112
行住坐卧	-11.0113
之正氣	-11.0113
北斗七星	-11.0114
竦	-11.0116
而愈	-11.0116
朵	-11.0116
怖	-11.0117
甚矣	-11.0117
葢	-11.0118
蘆	-11.0119
終而復始	-11.0119
悔吝	-11.0119
綵	-11.012
釋迦	-11.012
儘	-11.0121
嫩	-11.0121
片餉	-11.0122
徇	-11.0123
杞	-11.0123
蠹	-11.0124
癖	-11.0124
張道陵	-11.0124
所殺	-11.0126
人死	-11.0127
閬苑	-11.0127
長子	-11.0127
沛	-11.0128
劇	-11.0128
赭	-11.013
微呪曰	-11.0133
夀	-11.0134
葵	-11.0134
鍊氣	-11.0136
覆載	-11.0137
外踝	-11.0137
上道	-11.0137
求長生	-11.0137
但有	-11.0137
宮	-11.0138
各三	-11.0139
官吏	-11.0139
慈悲	-11.0143
頭戴	-11.0143
不問	-11.0149
畢微祝曰	-11.0149
星甲	-11.0151
焉有	-11.0152
能成	-11.0153
一千八	-11.0154
復爲	-11.0156
十干	-11.0156
玉樓	-11.0157
肺病	-11.0158
無滯	-11.0163
三旬	-11.0164
謂其	-11.0165
初起	-11.0166
中無	-11.0167
冬夏	-11.0169
刺可入同身寸之三分	-11.0172
標本	-11.0175
清凈	-11.018
斗建	-11.0181
諸方	-11.0181
妄行	-11.0183
能致	-11.0188
者氣之	-11.0189
大事	-11.0192
深處	-11.0192
要訣	-11.0194
日月星	-11.0194
所不勝	-11.0197
大敗	-11.0199
金蓮	-11.0203
之分也	-11.0208
大人	-11.0212
豈得	-11.0212
輪轉	-11.0216
無思	-11.0217
春風	-11.0218
其六	-11.0219
惡鬼	-11.022
以待	-11.0224
靜處	-11.0226
終則	-11.0227
全無	-11.0233
含眞	-11.024
未免	-11.024
頂上	-11.024
性者	-11.0241
行持	-11.0241
不厭	-11.0243
養就	-11.0244
同契	-11.0245
教之	-11.0251
十歲	-11.0252
眞僞	-11.0252
二女	-11.0253
千古	-11.0254
順也	-11.0255
王侯	-11.0258
列仙	-11.026
有德	-11.026
萬古	-11.0272
鍾山	-11.0275
而天下	-11.0277
靈芝	-11.0278
山頭	-11.0283
交泰	-11.0283
大易	-11.0287
此意	-11.0292
是云	-11.0295
卒然	-11.0297
來生	-11.0301
陰極	-11.0301
之體也	-11.0302
祕訣	-11.0305
亦不可	-11.0305
精液	-11.0305
氣中	-11.0306
於天下	-11.0307
自心	-11.0308
五百里	-11.0309
九十四	-11.0311
舌下	-11.0315
如有	-11.0315
子欲	-11.0317
爲鬼	-11.0318
按摩	-11.0322
之命	-11.0323
可刺	-11.033
下流	-11.0331
内景	-11.0331
三呼	-11.0334
半日	-11.0335
□(	-11.0335
藥成	-11.0335
頭頭	-11.0336
皆然	-11.0337
依時	-11.0346
百萬	-11.0347
媾	-11.0348
即非	-11.0359
用一	-11.0363
一十一	-11.0364
北方水	-11.0366
也何謂	-11.0368
目前	-11.037
恁麽	-11.0371
丞	-11.0371
於目	-11.0371
面有	-11.0373
靈飛	-11.0377
相接	-11.0377
此非	-11.0378
天樞	-11.0381
攺	-11.0381
必當	-11.0381
不朽	-11.0382
動者	-11.0382
弃弃弃弃	-11.0382
交結	-11.0383
蠢	-11.0384
從官	-11.0386
上朝	-11.0387
以類	-11.0388
也是爲	-11.0388
協	-11.0388
橐	-11.0388
蝕	-11.0388
妬	-11.0389
爲君	-11.039
之功也	-11.0391
蹊	-11.0392
棒	-11.0393
裕	-11.0393
募	-11.0393
勘	-11.0393
弈	-11.0393
敖	-11.0393
䰟	-11.0394
啖	-11.0395
堤	-11.0395
恬淡	-11.0396
狡	-11.0397
家人	-11.0397
迨	-11.0397
來見	-11.0399
忻	-11.0399
矩	-11.0399
閱	-11.0399
用九	-11.0399
湛湛	-11.04
凄	-11.04
涌泉	-11.04
青山	-11.04
澁	-11.04
臧	-11.04
通眞	-11.0401
芳草	-11.0402
五金八石	-11.0403
黙	-11.0404
幃	-11.0405
匹配	-11.0405
斯道	-11.0406
甲己	-11.0408
如初	-11.0408
無念	-11.0409
七月七日	-11.0409
盂	-11.0409
恬惔	-11.0409
有十	-11.0415
無餘	-11.0415
依此	-11.0415
曰某	-11.0415
陽和	-11.0416
自覺	-11.0416
月也	-11.0417
復歸	-11.0421
皇后	-11.0421
其君	-11.0423
久視	-11.0427
八會	-11.0429
百川	-11.0431
遊宴	-11.0432
稱兵	-11.0433
妄傳	-11.0433
不屬	-11.0434
形而	-11.0435
腹脹	-11.0436
震巽	-11.0437
煉形	-11.0437
盡而	-11.0446
爲小	-11.0447
水其中多	-11.0448
在地爲	-11.0449
人我	-11.0452
死不治	-11.0453
玉漿	-11.0454
十萬	-11.0454
通乎	-11.0456
三萬六千	-11.0456
之原	-11.0457
見一	-11.0459
根蒂	-11.0461
太白星	-11.0462
目明	-11.0462
不分	-11.0462
萬縁	-11.0463
可知矣	-11.0463
調其	-11.0463
之候也	-11.0466
急急	-11.0467
年月	-11.0469
京師	-11.0469
行乎	-11.0469
右英	-11.047
四明	-11.0471
有光	-11.0472
人見	-11.0472
不虧	-11.0474
上臨	-11.0478
德者	-11.048
不存	-11.0483
臨目	-11.0484
欲使	-11.0486
玄德	-11.049
常令	-11.0494
天涯	-11.0494
九華	-11.0498
丹臺	-11.0498
言言	-11.0499
不妨	-11.0501
自明	-11.0501
素靈	-11.0502
淺深	-11.0505
之夫	-11.0515
劉子	-11.0516
注于	-11.0517
丙辛	-11.0519
百鬼	-11.052
下行	-11.0521
交通	-11.0524
昇入	-11.0527
靈明	-11.0531
赤城	-11.0533
二星	-11.0535
達觀	-11.0537
一十七	-11.054
復以	-11.054
八門	-11.0541
然如	-11.0541
自足	-11.0541
立於	-11.0543
日辰	-11.0546
靈驗	-11.0547
道場	-11.0547
而痛	-11.0552
可得而	-11.0553
要道	-11.0556
二尺	-11.0558
人得	-11.056
七過	-11.0562
不堅	-11.0566
道體	-11.0566
足矣	-11.0567
聖人之道	-11.0567
三九	-11.0569
亦未	-11.057
逆流	-11.0572
六曰	-11.0573
人君	-11.0576
不曾	-11.0578
皆非	-11.0578
吞之	-11.0579
百二十	-11.0581
以行	-11.0583
俞在	-11.0586
滿口	-11.0587
箇中	-11.0591
氣行	-11.0592
腎主	-11.0592
斤兩	-11.0595
妄言	-11.0596
登山	-11.0602
周公	-11.0602
苦海	-11.0603
掌中	-11.0605
常思	-11.0606
青衣	-11.0606
丹田中	-11.0612
濁者	-11.0612
十有五日	-11.0615
腎病	-11.0618
水府	-11.0621
大行	-11.0622
乎夫	-11.0624
言之則	-11.0624
無所見	-11.0627
身神	-11.0628
一門	-11.0629
派	-11.0634
亦不得	-11.0637
木火	-11.0637
先以	-11.0638
但見	-11.064
不若	-11.0654
長年	-11.0656
以救	-11.0659
熨	-11.0662
靈書	-11.0663
過度	-11.0664
一天	-11.0664
百四	-11.0666
數至	-11.0667
神符	-11.0668
不來	-11.0669
恚	-11.0671
顴	-11.0671
脚跟	-11.0672
兕	-11.0672
磬	-11.0675
笙	-11.0676
庾	-11.0677
饗	-11.0678
刊	-11.0678
疼	-11.0679
稚	-11.068
猴	-11.068
瀝	-11.068
寫其	-11.068
腎腎	-11.0681
匀	-11.0681
巿	-11.0681
孰知	-11.0681
粮	-11.0681
畧	-11.0681
弃	-11.0681
元來	-11.0682
涇	-11.0682
驂	-11.0683
㖟	-11.0683
甚麽	-11.0684
幾人	-11.0684
槁	-11.0684
重重	-11.0684
欒	-11.0684
摹	-11.0685
犀	-11.0685
顚	-11.0687
岐伯答曰	-11.0688
孩	-11.0688
蔭	-11.0688
樣	-11.069
於火	-11.0691
亦復如是	-11.0691
無疑	-11.0691
其獸多	-11.0691
滄	-11.0692
艾	-11.0693
紂	-11.0694
椒	-11.0695
餓	-11.0695
謂應作	-11.0695
休歇	-11.0696
以表	-11.0696
運化	-11.0699
大法	-11.07
開闔	-11.0704
未出	-11.0704
五臓	-11.0708
保其	-11.0708
畢竟	-11.071
三二	-11.0712
有七	-11.0712
烏兔	-11.0713
主簿	-11.0716
大都	-11.0716
雨露	-11.0719
紫庭	-11.0722
塵勞	-11.0723
屬土	-11.0723
主治	-11.0724
徙居	-11.0725
離坎	-11.0728
靡不	-11.0728
第十四	-11.0729
氣通	-11.0729
山嶽	-11.0734
神識	-11.0738
於胃	-11.0742
兩脚	-11.0742
非世	-11.0743
初學	-11.0746
可爲	-11.075
有命	-11.0751
吾嘗	-11.0752
流沙	-11.0756
識破	-11.0757
眞陽	-11.0759
物有	-11.0761
在人爲	-11.0762
隱顯	-11.0762
太陰之	-11.0765
九十五	-11.0767
盡是	-11.0768
發泄	-11.0772
温温	-11.0773
隨意	-11.0777
泥丸宫	-11.0779
衆妙	-11.0782
結氣	-11.0784
百餘年	-11.0787
能言	-11.0788
東山	-11.079
不惑	-11.0791
國曰	-11.0791
五德	-11.0795
生成之	-11.0795
得乎	-11.0797
施行	-11.0802
無害	-11.0802
無影	-11.0804
只要	-11.0809
斡	-11.0811
無爲之	-11.0815
水官	-11.0816
細微	-11.0821
浮雲	-11.0822
陰則	-11.0822
黄河	-11.0825
蒸之	-11.0827
乎曰	-11.083
勝負	-11.0832
有生	-11.0833
殺氣	-11.0834
行年	-11.0837
同體	-11.0839
修真	-11.0839
天地陰陽	-11.0843
道之士	-11.0844
二腎	-11.0846
徒勞	-11.0846
之勝也	-11.0846
黑帝	-11.0847
爲風	-11.0848
一千六	-11.085
眞官	-11.085
而内	-11.0852
可以長生	-11.0856
體重	-11.0858
地皇	-11.0861
青雲	-11.0864
學道之人	-11.0866
當令	-11.0868
宫闕	-11.0872
故爾	-11.0875
符火	-11.0881
記之	-11.0883
朱書	-11.0885
爲日	-11.0887
熱化	-11.0889
殊不	-11.0889
仙佛	-11.089
變也	-11.089
五苦	-11.0892
而不行	-11.0895
爾時	-11.0897
置於	-11.0899
中篇	-11.09
軍于	-11.0908
一轉	-11.0911
各自	-11.0912
以兩手	-11.0913
道言	-11.0916
之次	-11.0918
刺史	-11.0919
四天	-11.0919
入海	-11.0922
至靈	-11.0924
中極	-11.0926
其令	-11.0927
忘言	-11.0927
勿以	-11.093
嵗	-11.0932
乎此	-11.0933
向日	-11.0934
要在	-11.0936
候之	-11.094
性命之	-11.0941
以次	-11.0945
乃見	-11.0948
通明	-11.0949
五斤	-11.0949
見者	-11.0951
不違	-11.0954
貶	-11.0954
盛故	-11.0954
明鏡	-11.0956
之例	-11.0956
不斷	-11.0956
人姓	-11.096
熒	-11.0961
施化	-11.0961
衞	-11.0961
住世	-11.0962
發也	-11.0963
飡	-11.0964
虬	-11.0965
暈	-11.0966
斗中	-11.0967
汧	-11.0968
子之時	-11.0968
洎	-11.0968
逡巡	-11.0969
六戊	-11.0969
欬	-11.0971
其息	-11.0972
可得聞乎	-11.0972
恢	-11.0972
然也	-11.0973
攣	-11.0973
六七	-11.0973
其支者	-11.0973
勵	-11.0974
噬	-11.0974
𩱿	-11.0975
赤白	-11.0975
齎	-11.0975
沾	-11.0975
閔	-11.0975
新校正云按别本	-11.0976
人中	-11.0976
洞周迴	-11.0977
酆	-11.0977
績	-11.0977
巷	-11.0977
靄	-11.0978
掇	-11.0978
達者	-11.0978
去後	-11.0978
玲瓏	-11.0979
浦	-11.0979
擺	-11.098
甕	-11.098
青城	-11.098
黔	-11.098
离坎	-11.098
懿	-11.0981
久之	-11.0981
偃卧	-11.0981
戟	-11.0981
騫	-11.0982
賞罰	-11.0982
惹	-11.0983
緣	-11.0983
盜賊	-11.0984
胡麻	-11.0986
經也	-11.0986
天罡	-11.0988
籌	-11.0989
爲宗	-11.0991
達磨	-11.0992
陽道	-11.0992
轅	-11.0993
悼	-11.0993
仰卧	-11.0994
得位	-11.0995
之尊	-11.0995
正心	-11.0995
穰	-11.0996
快樂	-11.0996
腋下	-11.0998
五者	-11.0999
也雲牙子曰	-11.0999
乾坤坎離	-11.1001
南面	-11.1002
裴君	-11.1002
知覺	-11.1002
鍾離	-11.1003
去矣	-11.1007
仙籍	-11.1008
陰中之陽	-11.1008
一丈	-11.1009
侍女	-11.1009
紫色	-11.1009
皆如	-11.1013
境界	-11.1014
朝夕	-11.1018
按甲乙經	-11.1022
神官	-11.1024
數四	-11.1024
不染	-11.1028
脾爲	-11.1028
兩般	-11.1029
意思	-11.1029
月爲	-11.1029
與天地同	-11.103
新校正云按太素	-11.1031
三乘	-11.1031
識之	-11.1034
未曾	-11.1036
寳珠	-11.1037
中氣	-11.1038
經緯	-11.1039
用功	-11.1039
黄道	-11.1044
不可不	-11.1044
神清	-11.1045
脾脾	-11.1046
亦復	-11.1047
東都	-11.1047
乎哉	-11.1048
之所由	-11.1051
安神	-11.1054
天堂	-11.1057
發爲	-11.1057
分付	-11.1058
消魔	-11.1063
全元起	-11.1066
相類	-11.107
有小	-11.1072
精氣神	-11.1073
不畏	-11.1074
因循	-11.1079
罪福	-11.1079
五更	-11.1081
成而	-11.1084
不實	-11.1087
定則	-11.1088
震爲	-11.1088
不可名	-11.1091
而不得	-11.1094
也或曰	-11.1097
相繼	-11.1098
戒之	-11.1098
九十日	-11.1098
歌云	-11.1099
龍虎經	-11.1102
無傷	-11.1106
在身	-11.1112
通于	-11.1113
揚州	-11.1114
四時之氣	-11.1114
爪甲	-11.1118
留之	-11.1124
萬有	-11.1129
兩耳	-11.1133
死生之	-11.1136
肝病	-11.114
四十年	-11.114
害人	-11.1141
河南	-11.1143
到頭	-11.1144
心意	-11.1145
收之	-11.1145
者取之	-11.1148
成象	-11.1155
太上曰	-11.116
閉之	-11.116
六壬	-11.116
優劣	-11.1163
常用	-11.1165
以無爲	-11.1168
和而	-11.1169
山遇	-11.1169
禀受	-11.1174
飛空	-11.1181
相從	-11.1181
亦謂	-11.1184
色青	-11.1185
七宿	-11.1185
靈汞	-11.1188
了然	-11.1188
爲師	-11.1189
盛也	-11.1189
正法	-11.1191
萬邪	-11.1192
讀之	-11.1194
火數	-11.1195
氏之	-11.1196
則血	-11.1198
運之	-11.1199
在足	-11.1202
行止	-11.1203
雲笈七籖卷之	-11.1207
匱	-11.1212
劑	-11.1212
流光	-11.1214
應用	-11.1215
洗心	-11.1216
金簡	-11.1218
踝	-11.1223
三奇	-11.1224
之世	-11.1224
汞也	-11.1229
旣有	-11.1229
小異	-11.1235
一吸	-11.1236
正經	-11.1237
大臣	-11.1239
太陽水	-11.124
之孫	-11.124
泠	-11.1241
升身	-11.1246
間有	-11.1247
及於	-11.1256
鶯	-11.1256
大通	-11.1256
奪其	-11.1257
感通	-11.1257
不死之	-11.1258
靈符	-11.1259
煅	-11.1264
老氏	-11.1266
感而	-11.1266
蛤	-11.1268
士貪天	-11.1269
不備	-11.1269
疽	-11.1269
上陽子	-11.1271
憤	-11.1271
其辭	-11.1272
譚	-11.1273
者天地之	-11.1273
武后	-11.1273
隳	-11.1273
來徃	-11.1274
丹藥	-11.1274
乃出	-11.1274
應天	-11.1274
臑	-11.1275
筠	-11.1275
擘	-11.1276
稼	-11.1276
使然	-11.1276
狸	-11.1276
鈍	-11.1277
閃	-11.1278
通徹	-11.1278
霹靂	-11.1279
翹	-11.1279
小小	-11.1279
線	-11.128
陂	-11.128
豚	-11.128
此符	-11.128
娶	-11.1281
其腹	-11.1281
蟄蟲	-11.1282
傷肝	-11.1282
大洞眞經	-11.1282
竺	-11.1283
藩	-11.1283
秋毫	-11.1284
秪	-11.1284
扁鵲	-11.1284
天一	-11.1285
栽	-11.1285
君曰仙道有	-11.1285
笈	-11.1286
槩	-11.1286
扈	-11.1286
晃	-11.1287
誌	-11.1287
譜	-11.1289
舉世	-11.129
虐	-11.1291
繒	-11.1292
男兒	-11.1293
蛟龍	-11.1293
矣故曰	-11.1294
遲速	-11.1297
足厥隂	-11.1298
委曲	-11.1298
長養	-11.1299
須有	-11.1299
繼代	-11.13
時候	-11.1301
計謀	-11.1303
而異	-11.1303
胤丹	-11.1304
養形	-11.1307
思念	-11.1308
靜中	-11.1311
任其	-11.1313
句容	-11.1316
自然而然	-11.1316
禹步	-11.1316
極而	-11.1317
司録	-11.1318
如雲	-11.1319
爲名	-11.132
亦應	-11.1326
天令	-11.1326
長跪	-11.1327
相吞	-11.1327
浮而	-11.1328
人鬼	-11.1328
有餘不足	-11.1329
東卿	-11.1329
洞明	-11.133
多食	-11.1331
無中	-11.1332
乃有	-11.1332
天地人	-11.1333
元曰	-11.1333
而居	-11.1336
氣從	-11.1338
車馬	-11.1338
萬慮	-11.134
未悟	-11.134
萬端	-11.1343
二卷	-11.1347
而萬物	-11.1348
調息	-11.1348
已得	-11.1353
所能	-11.1354
三歲	-11.1356
次即	-11.1358
隨風	-11.1365
出家	-11.1367
色黑	-11.1367
肝主	-11.1367
改元建	-11.1368
妙訣	-11.1372
周身	-11.1374
三斗	-11.1375
其始	-11.1375
病生	-11.1376
神水華池	-11.1377
問其	-11.1377
三斤	-11.1381
註曰	-11.1381
青黄	-11.1383
爰有	-11.1386
未審	-11.1387
一卦	-11.1392
季主	-11.1395
善人	-11.1399
互用	-11.1402
神藥	-11.1403
土德	-11.1403
八九	-11.1406
道心	-11.1406
未發	-11.1411
玄洲	-11.1413
大過	-11.1415
下則	-11.1417
者也於是	-11.1418
高士	-11.1419
三五一	-11.142
無主	-11.142
自然之理	-11.1421
加之	-11.1421
而又	-11.1422
大乘	-11.1427
黄帝曰善	-11.1428
朱衣	-11.1428
而外	-11.1428
異香	-11.1429
青帝	-11.1429
三七	-11.1432
坎水	-11.1437
都無	-11.1438
星己	-11.1438
始知	-11.1439
九變	-11.144
大數	-11.1441
南斗	-11.1441
者唯	-11.1441
以陽	-11.145
送之	-11.1451
百邪	-11.1455
至心	-11.1455
生身	-11.1456
惡則	-11.146
司地	-11.146
此術	-11.1463
今年	-11.1466
即須	-11.1468
本根	-11.1469
幽冥	-11.147
成金	-11.1472
與神	-11.1472
于腎	-11.1477
六兩	-11.1481
者金也	-11.1483
爲表裏	-11.1484
西華	-11.1484
閑居	-11.1485
取象	-11.1485
用兵	-11.1491
攝生	-11.1494
心有	-11.1499
以配	-11.1507
頭面	-11.1508
不全	-11.1514
每一	-11.1517
作此	-11.1518
皓月	-11.152
順時	-11.1522
不相應	-11.1523
崑	-11.1525
有如	-11.1529
當年	-11.1531
天地之中	-11.1532
岐伯	-11.1536
也以其	-11.1539
精炁	-11.154
心下	-11.154
七寳	-11.1541
謂此	-11.1544
其木多	-11.1548
甞	-11.1549
聚於	-11.1551
大水	-11.1559
縣屬	-11.156
上生	-11.156
占事	-11.1561
玄府	-11.1564
感於	-11.1565
積氣	-11.1565
爲三	-11.1566
彼人	-11.1568
愚謂	-11.1571
瞀	-11.1571
而入于	-11.1576
若知	-11.1576
萬變	-11.1577
皎	-11.1578
書之	-11.1578
今有	-11.1579
鴈	-11.158
木星	-11.158
真氣	-11.1581
心念	-11.1583
彫	-11.1583
世子	-11.1584
酌	-11.1584
而忘	-11.1584
自消	-11.1585
待時	-11.1585
咦	-11.1586
毛羽	-11.1586
鼎也	-11.1586
渚	-11.1586
亦在	-11.1586
聯	-11.1589
債	-11.1589
硬	-11.1589
蝶	-11.1589
訝	-11.1589
皎潔	-11.1589
汞者	-11.159
靜也	-11.159
拱	-11.159
奄	-11.1591
靈藥	-11.1591
儛	-11.1592
百骸	-11.1592
馨	-11.1592
於其中	-11.1592
塡	-11.1592
酆都	-11.1592
沫	-11.1594
鑚	-11.1594
悴	-11.1595
相尅	-11.1595
棘	-11.1595
趾	-11.1597
榆	-11.1597
岡	-11.1597
新校正云按全元起本	-11.1597
不知其所	-11.1597
虫	-11.1598
艷	-11.1598
葷	-11.1598
神虎	-11.1599
婬	-11.1599
不可言	-11.16
趁	-11.1601
卉	-11.1601
罵	-11.1601
茫茫	-11.1601
瓊林	-11.1602
應感	-11.1602
趙昇王	-11.1602
攘	-11.1603
赤松子	-11.1603
打破	-11.1603
朝廷	-11.1604
弛	-11.1605
收拾	-11.1606
太一天符	-11.1607
愚癡	-11.1607
撰述	-11.1607
堂堂	-11.1608
同心	-11.1609
邾	-11.1609
英雄	-11.161
何以言之	-11.161
包含	-11.1612
一切衆生	-11.1613
大道君	-11.1615
便爲	-11.1615
公案	-11.1615
之爻	-11.162
妄作	-11.162
不相得	-11.162
石勒	-11.1622
真師	-11.1623
莊周	-11.1625
靈山	-11.1625
白鹿	-11.1626
而亡	-11.1627
之所生也	-11.1628
月滿	-11.1628
守道	-11.1629
變則	-11.1629
度量	-11.163
仙君	-11.1631
筋急	-11.1633
人之身	-11.1633
水晶	-11.1633
頓首	-11.1633
膿血	-11.1634
靈府	-11.1634
即死	-11.1635
天真	-11.1639
以安	-11.1639
不居	-11.164
相扶	-11.164
九五	-11.1642
常居	-11.1642
無漏	-11.1646
飛天	-11.1646
不寧	-11.1651
黑水	-11.1652
神定	-11.1654
木生火	-11.1654
玄圃	-11.1654
千人	-11.1655
眞人云	-11.1655
玉霄	-11.1656
明眞	-11.1656
一劑	-11.1656
山谷	-11.1657
行功	-11.1658
熒惑星	-11.1659
神王	-11.1661
鍊之	-11.1661
正是	-11.1663
事有	-11.1664
而實	-11.1665
矣今	-11.1666
以養其	-11.1668
之祕	-11.1669
兩忘	-11.1669
隨縁	-11.1672
是年	-11.1672
作麽	-11.1673
爲汞	-11.1676
至寳	-11.1677
外側	-11.1677
二千	-11.1677
可道	-11.1677
見聞	-11.1678
蕩蕩	-11.168
西嶽	-11.168
流精	-11.1682
傷脾	-11.1683
猶可	-11.1683
血溢	-11.1684
此藥	-11.1684
汞汞	-11.1686
相違	-11.1686
修齋	-11.1687
越人	-11.1688
胎中	-11.1691
始皇	-11.1692
天清	-11.1693
不爭	-11.1694
冲和	-11.1695
蓋謂	-11.1695
重玄	-11.1696
一條	-11.1696
師傳	-11.1697
純乾	-11.1698
六賊	-11.1698
天然	-11.1698
所起	-11.1699
余聞	-11.17
天運	-11.1705
相續	-11.1707
脾病	-11.1708
泰和	-11.1709
故死	-11.171
此道也	-11.1712
眞心	-11.1712
開通	-11.1712
雲氣	-11.1715
法常以	-11.1718
達於	-11.1718
佩之	-11.1721
多端	-11.1722
此氣	-11.1722
難知	-11.1724
可治	-11.1724
白馬	-11.1725
曲直	-11.1725
而氣	-11.1725
各各	-11.1726
大羅天	-11.1726
近於	-11.1728
和則	-11.1728
于時	-11.1729
謂之神	-11.1732
也純陽子曰	-11.1734
自安	-11.1735
其物	-11.1738
安知	-11.174
守神	-11.1742
用氣	-11.1743
百九	-11.1745
之宅	-11.1745
武王	-11.1749
大暑	-11.1749
靈文	-11.175
未達	-11.1753
色白	-11.1756
門外	-11.1756
士運	-11.1761
正角	-11.1761
之恩	-11.1765
其色白	-11.1768
楚王	-11.177
從其	-11.1773
性性	-11.1773
體也	-11.1774
養其	-11.1774
太上之	-11.1778
而常	-11.1782
凡修	-11.1783
如泥	-11.1785
眞土	-11.1786
言訖	-11.1786
之應	-11.1786
明則	-11.1787
其來	-11.1789
之木	-11.1789
火符	-11.1793
以喻	-11.1797
星君	-11.1797
白首	-11.18
國家	-11.1803
將此	-11.1805
大忌	-11.1808
丹者	-11.1809
手指	-11.1812
於萬物	-11.1813
至其	-11.1813
也吾之	-11.1814
意馬	-11.1819
高明	-11.1822
丗人	-11.1824
北辰	-11.1825
鉢	-11.1829
内照	-11.183
黄華	-11.1831
督	-11.1833
則心	-11.1834
衣食	-11.1834
安坐	-11.1837
六尺	-11.1839
水火相	-11.1842
用則	-11.1842
每至	-11.1842
相會	-11.1842
兩腎	-11.1846
心自	-11.1851
一方	-11.1851
物生	-11.1853
于下	-11.1853
如環	-11.1854
無質	-11.1855
骨空	-11.1856
猶能	-11.186
篩	-11.1861
山東	-11.1863
一過	-11.1864
發火	-11.1866
又復	-11.1867
其罪	-11.1868
房中	-11.187
乾卦	-11.1877
天地造化	-11.1877
所貴	-11.1879
得之者	-11.188
道常	-11.1881
欣然	-11.1884
夫人之	-11.1884
無草木	-11.1885
相遇	-11.1886
隨方	-11.1888
一百四	-11.1889
物情	-11.1891
颺	-11.1895
鉛爲	-11.1896
敎	-11.1898
太常	-11.1899
拭	-11.1899
鼈	-11.1902
喉嚨	-11.1906
要識	-11.1907
蔕	-11.1907
幕	-11.1907
無時	-11.1908
絲毫	-11.1909
馳騁	-11.1909
酣	-11.1909
血血	-11.191
揭	-11.191
榻	-11.191
芬	-11.191
三百八十四銖	-11.191
薰蒸	-11.1911
金丹大要	-11.1911
惚	-11.1912
蕭蕭	-11.1913
山南	-11.1913
捲	-11.1913
𢘆	-11.1913
擎	-11.1915
蒜	-11.1915
毫毛	-11.1915
其草多	-11.1915
涵	-11.1915
梗	-11.1916
考召法師	-11.1916
隄防	-11.1916
昂	-11.1917
此神	-11.1917
懲	-11.1917
淩	-11.1918
傑	-11.1918
辟穀	-11.1918
麵	-11.1918
綉	-11.1918
倣	-11.1918
闌	-11.1919
吼	-11.1921
嗌乾	-11.1921
鬧	-11.1921
邇	-11.1921
十二時中	-11.1922
鴟	-11.1923
又法	-11.1924
便可	-11.1924
甯	-11.1925
京兆	-11.1925
踞	-11.1925
駿	-11.1926
治身	-11.1926
郢	-11.1927
亞	-11.1927
否答云	-11.1928
塵垢	-11.1928
其上有	-11.1929
神眞	-11.1929
國人	-11.193
兢	-11.193
御史	-11.193
飛天綱	-11.1932
發揮	-11.1933
遼東	-11.1935
可傳	-11.1935
城郭	-11.1938
有限	-11.1938
之災	-11.1941
先知	-11.1941
便有	-11.1942
積陰	-11.1942
其卦得	-11.1946
身生	-11.1948
不調	-11.1948
各一謂	-11.1949
一時之	-11.1949
其死	-11.195
是誰	-11.1955
領兵	-11.1955
有爲之	-11.1956
勞神	-11.1957
本元	-11.1959
示人	-11.1959
正眞	-11.196
外廉	-11.196
乃登	-11.1961
身内	-11.1963
然無	-11.1966
至極	-11.1967
味甘	-11.1969
飛揚	-11.1971
神魂	-11.1972
止于	-11.1973
五湖	-11.1973
無咎	-11.1973
莊子	-11.1973
須憑	-11.1976
者心也	-11.1976
假合	-11.1978
血絡	-11.1978
煩心	-11.1979
二斗	-11.1981
足下	-11.1983
刺法	-11.1984
真仙	-11.1985
不依	-11.1988
形狀	-11.1989
東行	-11.1992
十二經脉	-11.1992
之宜	-11.1993
群仙	-11.1995
不能知	-11.1995
繆刺	-11.1998
朝禮	-11.1999
其血	-11.1999
眞實	-11.2001
俱生	-11.2001
名書	-11.2003
戊土	-11.2004
三道	-11.2004
大衍	-11.2007
魏改元	-11.2008
神精	-11.2009
留於	-11.201
必能	-11.201
狀若	-11.201
久矣	-11.2011
篇中	-11.2012
先存	-11.2013
運太過	-11.2014
避之	-11.2015
砂中	-11.2016
一口	-11.2017
内守	-11.2019
損人	-11.2019
火裏	-11.202
千百	-11.2022
逆則	-11.2024
蒼生	-11.2024
實也	-11.2028
死亡	-11.203
善者	-11.2032
能變化	-11.2032
虚故	-11.2033
變而爲	-11.2033
眞源	-11.2036
爲虚	-11.2039
安身	-11.204
而服之	-11.2041
兩弦	-11.2042
金籙	-11.2044
九皇	-11.2044
大成	-11.2044
以手按	-11.2048
此方	-11.2049
九陽	-11.205
天府	-11.2055
集云	-11.2058
或謂	-11.2058
不加	-11.2064
則止	-11.2064
恰	-11.2065
聖師	-11.2067
中庭	-11.2068
來歸	-11.2068
濕化	-11.207
不聽	-11.207
之神也	-11.2071
散爲	-11.2071
黄帝曰願聞	-11.2074
過則	-11.2078
佛性	-11.2079
體道	-11.2083
四九	-11.2084
明者	-11.2084
二君	-11.2084
得爲	-11.2085
氣出	-11.2086
取諸	-11.2087
合體	-11.2089
合眞	-11.209
无不	-11.209
旣畢	-11.209
若使	-11.2091
道眼	-11.2094
心腹	-11.2096
右轉	-11.2096
味苦	-11.2097
四神	-11.2098
常欲	-11.2098
今世	-11.21
陽明金	-11.2101
二二	-11.2106
復見	-11.2107
不得妄	-11.211
内藏	-11.2112
上合	-11.2116
亦不能	-11.2118
有赤氣	-11.2119
正音	-11.2119
作聲	-11.212
心靜	-11.212
養生之	-11.2122
二千九	-11.2126
日夕	-11.2129
七斗	-11.2129
天王	-11.2132
洪水	-11.2132
滿目	-11.2134
上通	-11.2136
又遇	-11.2139
是我	-11.2139
自言	-11.214
玄丹	-11.2142
爲實	-11.2142
修習	-11.2149
恐是	-11.2155
六四	-11.2157
定心	-11.2159
登眞	-11.216
遞相	-11.2164
坤宫	-11.2168
來往	-11.2169
至亥	-11.2175
自然而	-11.2177
神遊	-11.2178
爲母	-11.2179
修仙	-11.218
不精	-11.2181
承當	-11.2181
右一條	-11.2181
此云	-11.2181
體中	-11.2184
胠	-11.2186
作丹	-11.2188
則失	-11.2189
篇曰	-11.219
釜中	-11.219
内明	-11.2192
曲江	-11.2193
也既	-11.2193
有志	-11.2194
七曰	-11.2195
有質	-11.2198
是所謂	-11.2198
仙也	-11.2198
試之	-11.2201
於土	-11.2202
知是	-11.2203
神安	-11.2204
相依	-11.2205
未易	-11.2206
行雨	-11.2206
遨	-11.2209
火五日用炭	-11.221
不伏	-11.2211
長壽	-11.2219
柔順	-11.222
生病	-11.222
於市	-11.2221
所傷	-11.2224
九丹	-11.2224
宫殿	-11.2226
日入	-11.2226
因何	-11.2227
常行之	-11.2227
與君	-11.2228
先取	-11.2229
之脉起於	-11.2229
分兩	-11.223
萬物皆	-11.223
異人	-11.2231
以法	-11.2232
七兩	-11.2236
奎	-11.2236
叱	-11.2236
紗	-11.2238
奴婢	-11.2238
六位	-11.2239
隻	-11.2239
煆	-11.224
黅	-11.224
韶	-11.224
周行	-11.224
悸	-11.2241
旄	-11.2242
狹	-11.2242
懈	-11.2242
翛然	-11.2242
參伍	-11.2242
倏忽	-11.2243
玄子	-11.2244
渺	-11.2245
雲中	-11.2245
以下至	-11.2246
浩劫	-11.2247
瘛	-11.2247
寛	-11.2247
玄同	-11.2247
驛	-11.2247
不守	-11.2248
滄浪	-11.2248
惰	-11.2248
菌	-11.2248
級	-11.2248
髮際	-11.2249
胃脘	-11.2249
華胥	-11.225
衫	-11.225
鉤	-11.225
稽首再拜	-11.225
芙蓉	-11.225
鐶	-11.225
暝	-11.2251
辜	-11.2252
陀	-11.2253
彤	-11.2253
萊	-11.2253
來時	-11.2253
長生乆視	-11.2254
牌	-11.2254
胚	-11.2254
羿	-11.2254
顚倒	-11.2255
巍	-11.2255
羌	-11.2255
五臟六腑	-11.2256
玉珮	-11.2256
旦夕	-11.2256
未及	-11.2256
龔	-11.2257
鼻引	-11.2257
謐	-11.2257
踐位是謂	-11.2257
強	-11.2258
撲	-11.2259
且夫	-11.226
衒	-11.2261
歷歷	-11.2262
權衡	-11.2262
年中	-11.2264
酷	-11.2266
者從	-11.2267
迷惑	-11.2267
居處	-11.2268
節度使	-11.227
推移	-11.2273
瓊花	-11.2274
坎男	-11.2275
屬乎	-11.2276
異常	-11.2277
張天師	-11.2279
指示	-11.228
光隂	-11.228
利貞	-11.228
火炎	-11.2281
年少	-11.2281
瓶子	-11.2282
定矣	-11.2282
之精氣	-11.2284
曰死	-11.2284
而始	-11.2285
紫霞	-11.2285
一元	-11.2288
諸藥	-11.2289
孫權	-11.229
純隂	-11.2291
之甚也	-11.2292
西向	-11.2292
之美	-11.2293
氣至而	-11.2293
肺者	-11.2294
皮肉	-11.2295
止之	-11.2295
片時	-11.2296
得理	-11.2297
光彩	-11.2299
清涼	-11.2303
則外	-11.2304
是月	-11.2304
與天同	-11.2307
庶幾	-11.2309
只爲	-11.2318
非獨	-11.232
兩箇	-11.2323
以合	-11.2323
白鶴	-11.2324
萬般	-11.2324
其可	-11.2328
非凡	-11.2328
開目	-11.233
六時	-11.2331
未若	-11.2332
屬木	-11.2335
於子	-11.2339
迴頭	-11.234
文昌	-11.2342
陰魄	-11.2344
爲樂	-11.2345
之具	-11.2346
今夫	-11.2348
靜者	-11.2349
盛陽	-11.2359
列於	-11.2359
化作	-11.236
法天	-11.2362
其候	-11.2362
月月	-11.2362
而弗	-11.2366
五石	-11.2369
當自	-11.2372
易道	-11.2374
無英	-11.2374
補益	-11.2374
居人	-11.2375
陽升	-11.2378
又能	-11.2383
但知	-11.2384
曰君	-11.2386
則玄	-11.2387
卦象	-11.2393
求官	-11.2393
于上	-11.2393
聚而	-11.2394
陽魂	-11.2394
正在	-11.2395
帝尊	-11.2396
天降	-11.2396
玄覽	-11.2396
之寳	-11.2397
用而	-11.2402
九尺	-11.2403
順之	-11.2405
百七	-11.2408
九晨	-11.2411
仰觀	-11.2413
三王	-11.2414
一百五	-11.2414
三神	-11.2418
空無	-11.242
之圖	-11.2421
寶經	-11.2423
生靈	-11.2426
可成	-11.2428
即止	-11.2428
故易	-11.2429
空虚	-11.2433
從事	-11.2434
血也	-11.2439
傷氣	-11.2443
襄王	-11.2446
子能	-11.2447
降伏	-11.2447
以治	-11.2447
流於	-11.2448
無用	-11.2449
爲正	-11.2454
是人	-11.2456
下田	-11.2458
與天地相	-11.2458
飛伏	-11.2459
靈通	-11.2462
七世	-11.2464
虛心	-11.2468
濟物	-11.2472
留止	-11.2473
四斗	-11.2474
仁者	-11.2475
非但	-11.248
自由	-11.2481
其右	-11.2482
爲鼎	-11.2483
谷子	-11.2484
布化	-11.2486
爲二	-11.249
了無	-11.2491
安國	-11.2492
陰陽升降	-11.2494
神道	-11.2495
之才	-11.2496
能守	-11.2497
熱熱	-11.2497
血者	-11.2497
此所以	-11.2498
可致	-11.2506
又玄	-11.2507
日在	-11.2508
玄虛	-11.2509
惟有	-11.251
覩其	-11.251
都是	-11.2512
汝等	-11.2513
失於	-11.2514
來勝	-11.2515
金木相	-11.2515
所禀	-11.2517
何有	-11.2518
應手	-11.252
伏藏	-11.252
延壽	-11.2523
於隂	-11.2524
經歷	-11.2526
忘情	-11.2527
荆州	-11.2527
舍人	-11.2534
疾也	-11.2536
冥心	-11.2536
真實	-11.2536
之益	-11.2539
一枚	-11.254
若言	-11.2542
青白	-11.2544
錦衣	-11.2546
根元	-11.2548
則熱	-11.2549
眞藏	-11.2549
謂之道	-11.2552
則當	-11.2555
上廉	-11.2556
爲龍	-11.2559
掖	-11.256
其初	-11.2561
莫知所	-11.2562
泄之	-11.2562
則必	-11.2564
世事	-11.2566
將去	-11.2567
魏武	-11.2567
位居	-11.2573
目視	-11.2574
外氣	-11.2577
䏶	-11.2577
星斗	-11.2578
裔	-11.2578
耳聞	-11.2579
綸	-11.258
燋	-11.258
星君上應	-11.2581
罩	-11.2582
間斷	-11.2582
鋤	-11.2582
受胎	-11.2582
霓	-11.2583
代之	-11.2584
宿下管	-11.2585
鑠	-11.2585
於彼	-11.2585
霖	-11.2586
晷	-11.2586
漳	-11.2586
椿	-11.2587
粥	-11.2588
笠	-11.2588
竄	-11.2588
閩	-11.2588
恱	-11.2589
逞	-11.2589
三百有六十	-11.2589
鞋	-11.2589
㐫	-11.259
汙	-11.259
駡	-11.2591
:	-11.2591
羹	-11.2591
嗽	-11.2591
週	-11.2592
忙忙	-11.2593
款	-11.2593
此道者	-11.2594
殁	-11.2594
驀	-11.2594
癃	-11.2595
叩齒三十六通	-11.2595
脘	-11.2595
挂	-11.2596
鷺	-11.2596
燠	-11.2596
袂	-11.2596
厠	-11.2596
瞞	-11.2597
穎	-11.2597
荆棘	-11.2597
瓦礫	-11.2598
捫	-11.2599
寒水	-11.2599
天師曰	-11.26
苛	-11.26
鵝	-11.26
癉	-11.26
保護	-11.2601
先王	-11.2601
龍門	-11.2601
之味	-11.2603
肝肺	-11.2604
靈樞	-11.2604
中候	-11.2604
真一之	-11.2607
漉	-11.2607
其隂多	-11.261
蓬壺	-11.261
幽明	-11.261
故心	-11.2611
中秋	-11.2611
紫河車	-11.2612
鬱儀	-11.2613
消散	-11.2613
太過不及	-11.2613
艱難	-11.2616
山海	-11.2617
左右同	-11.2618
邠	-11.2619
中人	-11.2623
祝融	-11.2624
季夏	-11.2624
雷公曰	-11.2627
文書	-11.2628
必待	-11.2628
發之	-11.2629
爲泥	-11.2632
寒濕	-11.2633
安心	-11.2636
之源也	-11.2637
逆從	-11.2638
之兆	-11.2638
紅鉛	-11.2639
明目	-11.264
無處	-11.2644
飽食	-11.2644
巨勝	-11.2645
更始	-11.2645
深淵	-11.2646
情慾	-11.2646
無端	-11.2648
百穀	-11.2648
洞虚	-11.2649
混一	-11.265
於金	-11.2651
者不可	-11.2652
秦王	-11.2653
以右手	-11.2656
此章言	-11.2657
清凉	-11.2657
凡服氣	-11.2659
美玉	-11.2661
方丈	-11.2661
于身	-11.2663
積善	-11.2665
先有	-11.2666
人皇	-11.2667
之根本	-11.2668
玉壺	-11.2671
生華	-11.2672
皆屬於	-11.2673
以觀	-11.2673
不時	-11.2678
斯文	-11.2678
回頭	-11.2679
眞樂	-11.2681
無味	-11.2682
三百里	-11.2687
卦爻	-11.2689
於前	-11.269
分野	-11.2693
明帝	-11.2694
白者	-11.2694
其首	-11.2695
二百八	-11.2699
安居	-11.27
取捨	-11.27
道之人	-11.2701
大熱	-11.2701
猶在	-11.2704
入門	-11.2705
可使之	-11.2708
者神之	-11.2708
二百一	-11.2709
聞聲	-11.271
終身不	-11.2713
者也純陽子曰	-11.2713
羽蓋	-11.2713
皆自	-11.2714
次思	-11.2715
相離	-11.2718
月圓	-11.2719
出門	-11.272
海外	-11.272
知見	-11.2722
傷也	-11.2722
斷穀	-11.2722
養命	-11.2723
日服	-11.2723
少許	-11.2727
欲令	-11.2729
不退	-11.2729
修錬	-11.273
五牙	-11.2732
上入	-11.2733
常自	-11.2733
而刺之	-11.2736
文侯	-11.2737
與日	-11.2738
一毫	-11.2739
爲惡	-11.274
玉虚	-11.2742
有分	-11.2745
行此道	-11.2745
丈餘	-11.2746
行於上	-11.275
大荒	-11.2752
五千	-11.2753
二至	-11.2754
自來	-11.2755
但得	-11.2757
弗能	-11.2758
所撰	-11.2758
故經曰	-11.2759
趙王	-11.276
第十三	-11.2761
壽夭	-11.2762
也由	-11.2764
相近	-11.2767
逆氣	-11.2767
一半	-11.2769
相推	-11.2773
如圖	-11.2773
五内	-11.2773
三字	-11.2773
具載	-11.2775
酒色	-11.2777
制御	-11.278
十一日	-11.2781
心如	-11.2781
推而	-11.2783
地軸	-11.2785
玄象	-11.2786
養育	-11.2787
皆禀	-11.279
三十六天	-11.2792
見形	-11.2797
爲萬物之	-11.2805
無力	-11.2807
次序	-11.2809
至微	-11.281
木精	-11.2812
者陽氣	-11.2817
不因	-11.2817
方來	-11.2818
天河	-11.2819
面前	-11.2822
積石	-11.2823
畢即	-11.2825
無縁	-11.2832
也老君曰	-11.2834
幾何	-11.2835
玉光	-11.2835
安和	-11.2838
藏精	-11.2838
時至	-11.2839
還精	-11.284
是夕	-11.284
德行	-11.2842
土石	-11.2842
則吉	-11.2842
海蟾	-11.2844
朝于	-11.2847
坤元	-11.2851
不犯	-11.2851
義理	-11.2852
無外	-11.2854
其爲人	-11.2856
石藥	-11.2856
爲隂	-11.2857
得志	-11.2857
法以	-11.286
神將	-11.2863
味辛	-11.2863
道之要	-11.2864
好惡	-11.2866
人不識	-11.2866
輕泄	-11.2867
二百六	-11.2869
勤修	-11.2875
易有	-11.2875
登高	-11.2876
一部	-11.2877
三百五	-11.2878
人參	-11.2887
則致	-11.2887
之子也	-11.2889
一貫	-11.2889
咒	-11.2891
論之	-11.2892
帶之	-11.2892
一志	-11.2893
丹之	-11.2901
相求	-11.2901
肖	-11.2902
其左	-11.2904
中丹田	-11.2906
古仙	-11.2907
南方火	-11.2909
城中	-11.2911
數千	-11.2919
二直之候也	-11.292
不逺	-11.2921
傷肺	-11.2922
常念	-11.2926
一眞	-11.2928
人之心	-11.2929
五轉	-11.293
雷震	-11.293
明了	-11.2931
水母	-11.2931
宿上治	-11.2932
矣次六旬而	-11.2934
潤下	-11.2935
亦不知	-11.2936
氣運	-11.2936
衂	-11.2936
琰	-11.2937
存而	-11.2938
渴飲	-11.2938
換	-11.2939
在肺	-11.2939
鼽	-11.2939
氛	-11.294
仕宦	-11.294
孽	-11.2941
茹	-11.2941
蛾	-11.2942
鯨	-11.2943
幢	-11.2943
新校正云按五常政大論云	-11.2944
未通	-11.2944
千息	-11.2945
出處	-11.2945
以辛	-11.2945
癢	-11.2946
鍋	-11.2946
夏氣	-11.2946
瞿	-11.2947
盡則	-11.2947
扣齒	-11.2947
執法	-11.2947
陌	-11.2947
烹煎	-11.2948
肓	-11.2948
內	-11.2948
鏁	-11.2948
千變萬化	-11.2949
以代	-11.2949
攢簇	-11.2949
糜	-11.2949
黯	-11.2949
拖	-11.2949
萃	-11.295
元始天王	-11.295
所指	-11.2951
澡	-11.2951
槌	-11.2951
日魂月魄	-11.2951
僅	-11.2951
三景	-11.2951
鍜	-11.2951
賒	-11.2953
爾乃	-11.2953
巓	-11.2953
膩	-11.2954
鵲	-11.2954
薤	-11.2955
候也	-11.2955
金色	-11.2955
臼	-11.2956
霏	-11.2956
什	-11.2957
赫赫	-11.2957
炅	-11.2958
陪	-11.2959
衾	-11.2959
髯	-11.2959
中書令	-11.296
又非	-11.2961
膻中	-11.2962
聳	-11.2963
風從	-11.2964
後生	-11.2964
榖	-11.2964
玉字	-11.2965
怯	-11.2966
令我	-11.2966
稠	-11.2967
其十	-11.2968
奧	-11.297
佛祖	-11.2971
左旋	-11.2974
頑空	-11.2975
收氣	-11.2975
弑	-11.2976
陰陽應象大論曰	-11.2976
心非	-11.2981
皇上	-11.2981
步綱	-11.2983
識其	-11.2983
温凉	-11.2984
上界	-11.2987
由於	-11.2988
萬萬	-11.299
亦由	-11.2991
家有	-11.2991
兒女	-11.2992
房室	-11.2993
王屋山	-11.2993
專制	-11.2994
三十過	-11.2996
十二支	-11.2997
是鉛	-11.2998
悟真篇	-11.2999
遂以	-11.3001
八曰	-11.3002
左遷	-11.3002
三寳	-11.3004
身重	-11.3006
讚曰	-11.3006
焉吾	-11.3009
今爲	-11.301
形形	-11.301
吉何云	-11.3011
文曰	-11.3014
萬丈	-11.3014
者是也	-11.3015
光景	-11.3015
上丹田	-11.3015
可憐	-11.302
覺悟	-11.3021
合同	-11.3022
受書爲	-11.3023
震卦	-11.3024
白髮	-11.3024
曠然	-11.3025
水行	-11.3026
傷心	-11.3026
元宫	-11.3027
白銀	-11.3027
不足也	-11.3029
而欲	-11.3031
照見	-11.3031
於丹田	-11.3032
勿失	-11.3033
長沙	-11.3034
磁石	-11.3034
大體	-11.3034
分而爲	-11.3041
朗然	-11.3041
大便	-11.3043
鎭星	-11.3043
是二	-11.3044
臨時	-11.3045
洞門	-11.3046
而難	-11.3051
正徵	-11.3051
水性	-11.3052
金翁	-11.3054
金關	-11.3057
左味	-11.3058
三轉	-11.306
生光	-11.306
安穩	-11.3061
海上	-11.3062
九還七返	-11.3064
攪之	-11.3066
弱水	-11.3068
長男	-11.3069
襄子	-11.3072
長大	-11.3075
相制	-11.3078
離火	-11.308
榮氣	-11.308
四時五行	-11.3083
遇至人	-11.3086
入火	-11.3088
陰在上	-11.3089
丘山	-11.309
偃月	-11.309
所授	-11.3094
不流	-11.3094
自歸	-11.3096
之東	-11.3098
天象	-11.3099
焉若	-11.3103
是曰	-11.3104
雞子	-11.3106
七遍	-11.311
十二兩	-11.3111
黄鍾	-11.3119
巨陽	-11.312
不寐	-11.3121
服丹	-11.3123
十五兩	-11.3124
治天下	-11.3126
東方木	-11.313
見在	-11.3131
證道	-11.3133
龍虎交	-11.3134
名號	-11.3135
了了	-11.3136
絶念	-11.3138
出則	-11.314
爲貴	-11.3141
則天下	-11.3142
咸陽	-11.3147
自取	-11.3155
又爲	-11.3157
之性也	-11.3161
太衝	-11.3162
○)(/	-11.3164
當日	-11.3168
不舉	-11.3171
其勢	-11.3173
往復	-11.3173
奉行	-11.3174
分布	-11.3175
大化	-11.3176
告曰	-11.3176
者天之	-11.3177
善能	-11.3178
爲鉛	-11.318
月照	-11.3181
今時	-11.3182
不可復	-11.3183
其書	-11.3183
教授	-11.3183
疑是	-11.3184
王道	-11.3184
惡人	-11.3185
故須	-11.3185
身死	-11.3186
一呼	-11.3186
也易曰	-11.3189
居下	-11.319
月晦	-11.3192
冥目	-11.3192
尸鬼	-11.3194
陰爻	-11.3194
之終	-11.3195
四正	-11.32
太公	-11.32
象帝	-11.32
行勝	-11.3202
夫能	-11.3202
不及則	-11.3204
行滿	-11.3204
不貪	-11.3207
互爲	-11.3209
不獲	-11.321
天時	-11.3212
修行之人	-11.3212
輟	-11.3213
漸加	-11.3214
半兩	-11.3215
散於	-11.3217
祖宗	-11.3218
六國	-11.3219
而形	-11.322
大君	-11.322
陽則	-11.322
皆能	-11.3222
空空	-11.3224
飛上	-11.3229
之貌	-11.323
再三	-11.3232
九二	-11.3232
餘氣	-11.3233
何也岐伯曰	-11.3234
當初	-11.3235
左目	-11.3235
陰神	-11.3237
受道	-11.3239
者不能	-11.3241
施爲	-11.3242
玄光	-11.3244
者心之	-11.3245
必不	-11.3249
病氣	-11.3251
之證	-11.3253
而不見	-11.3253
動摇	-11.3257
但當	-11.3258
先天之	-11.3258
則應	-11.326
二神	-11.326
名之爲	-11.326
十四年	-11.326
火記	-11.3262
又作	-11.3263
膕中	-11.3263
爲事	-11.3265
通利	-11.3265
日月之光	-11.3269
生民	-11.327
一乘	-11.327
然後知	-11.327
紙上	-11.3273
而分	-11.3273
爲汝	-11.3276
一百六	-11.3276
罡	-11.3277
可矣	-11.3278
常如	-11.3279
甚於	-11.3281
氣息	-11.3282
行軍	-11.3287
晝日	-11.3288
數里	-11.329
胞中	-11.3291
最爲	-11.3292
求生	-11.3295
夜光	-11.3298
泝	-11.3299
諸公	-11.3299
有箇	-11.33
氣全	-11.3301
矣次而	-11.3301
腹内	-11.3302
寒泉	-11.3305
躋	-11.3307
淋	-11.3307
校尉	-11.3309
甜	-11.3309
流血	-11.3311
即云	-11.3311
黄丹	-11.3311
韭	-11.3312
諂	-11.3312
命人禄壽禍	-11.3312
楊上善云	-11.3312
嬌	-11.3312
吾將	-11.3312
瀾	-11.3313
麾	-11.3313
授書	-11.3313
嬪	-11.3314
恊	-11.3314
返本還元	-11.3315
覔	-11.3315
鳧	-11.3315
社稷	-11.3316
吝	-11.3316
一步	-11.3317
哭泣	-11.3317
宿管天下	-11.3317
歩躡	-11.3318
虜	-11.3318
松栢	-11.3318
棟	-11.3319
飴	-11.3319
歧	-11.332
感而遂通	-11.332
菟	-11.3321
三部九候	-11.3321
臆	-11.3321
新校正云按楊上善云	-11.3322
五人	-11.3322
知之者	-11.3322
譏	-11.3323
各不同	-11.3323
恡	-11.3323
下位	-11.3323
譴	-11.3323
癰腫	-11.3324
剌	-11.3324
不滿	-11.3324
刳	-11.3324
之宫也	-11.3325
綬	-11.3325
鑽	-11.3325
銅鐵	-11.3326
鄕里	-11.3326
妙本	-11.3326
三百八十四爻	-11.3327
内養	-11.3327
榦	-11.3327
新校正云按氣交變大論云	-11.3327
皂	-11.3327
紛紜	-11.3328
糟粕	-11.3328
蹔	-11.3328
妙化	-11.3328
楮	-11.333
髭	-11.333
拌	-11.333
長司命李仲甫茅盈許玉斧等係代	-11.333
痕	-11.3331
小童	-11.3331
纏綿	-11.3331
戍	-11.3332
遂得	-11.3332
慵	-11.3334
用鉛	-11.3334
則天地	-11.3334
入腹	-11.3335
挼	-11.3335
坎离	-11.3336
低頭	-11.3337
金仙	-11.3338
疹	-11.3339
告之	-11.3339
恐懼	-11.3339
包裹	-11.334
雞犬	-11.334
邪客於	-11.3342
難曰經言	-11.3343
視之不見	-11.3343
坎位	-11.3343
些子	-11.3344
坎户	-11.3344
心之火	-11.3344
不甚	-11.3344
與子	-11.3345
清庵	-11.3345
異同	-11.3345
使氣	-11.3345
月明	-11.3347
换骨	-11.3348
上詣	-11.3348
唐將軍	-11.3349
門下	-11.3349
祭酒	-11.335
太霄	-11.3351
都督	-11.3351
而病	-11.3352
左有	-11.3353
中風	-11.3353
老翁	-11.3355
似是	-11.3357
珍重	-11.3358
形影	-11.3358
七轉	-11.336
所至	-11.3362
而調之	-11.3362
故非	-11.3363
之魂	-11.3366
大丈夫	-11.3368
研之	-11.3369
紀篇	-11.3369
犯之	-11.3373
我有	-11.3373
保養	-11.3373
丹訣	-11.3373
化爲水	-11.3374
行火候	-11.3374
三島	-11.3378
三升	-11.3378
異之	-11.3378
傍門	-11.3379
人世	-11.338
迷人	-11.3381
陰中之	-11.3381
夜卧	-11.3381
洛城	-11.3382
散髮	-11.3383
紫華	-11.3384
引氣	-11.3386
石膽	-11.3386
受事	-11.3388
回首	-11.3388
閑閑	-11.3389
九三	-11.339
小成	-11.339
羽衣	-11.3392
三業	-11.3394
腠理開	-11.3394
金帛	-11.3395
虛皇	-11.3395
二用	-11.3396
玉符	-11.3397
美酒	-11.3397
天外	-11.3397
已下	-11.3398
在頭	-11.3402
不能傷	-11.3402
地黄	-11.3404
玉籙	-11.3405
成熟	-11.3405
專心	-11.3406
六畜	-11.3407
天帝君	-11.3409
建安	-11.3409
三要	-11.341
百二十里曰	-11.341
間隔	-11.3412
中山	-11.3413
心猿	-11.3414
而不通	-11.3414
元陽子	-11.3414
大旱	-11.3417
入靖	-11.3419
飛去	-11.3421
得金	-11.3423
朝暮	-11.3424
第二節	-11.3425
平王	-11.3425
令得	-11.3426
司空	-11.3427
充滿	-11.3428
赤書	-11.3428
處於	-11.3429
添汞	-11.343
如日	-11.3431
高卧	-11.3431
而同	-11.3433
漢中	-11.3433
繼事	-11.3435
燥濕	-11.3438
旬日	-11.3438
者土也	-11.3438
相干	-11.344
吾所謂	-11.3441
立身	-11.3442
除此	-11.3442
皆應	-11.3445
智識	-11.3445
不竭	-11.3446
之冠	-11.3446
也陽氣	-11.3447
白露	-11.3451
出自	-11.3454
苦酒	-11.3456
夫何故	-11.3457
主于	-11.3457
誦經	-11.3458
諸脉	-11.346
云我	-11.346
五兵	-11.346
心之氣	-11.3462
三塗	-11.3464
或生	-11.3466
二四	-11.3466
陽縣	-11.3468
獲其	-11.3468
清旦	-11.3471
心包	-11.3471
後漢	-11.3472
風波	-11.3473
轉筋	-11.3477
六陰	-11.3479
陰降	-11.348
百尺	-11.3483
伏龍	-11.3486
矣經曰	-11.349
含光	-11.3491
記云	-11.3493
金童	-11.3499
也音	-11.3501
他日	-11.3502
吴王	-11.3503
用意	-11.3503
時刻	-11.3507
井中	-11.3511
度也	-11.3511
氣清	-11.3514
疑此	-11.3514
養精	-11.3516
所不能	-11.352
皆出	-11.3521
神呪	-11.3522
無邪	-11.3524
則邪氣	-11.3526
故可	-11.3526
眞正	-11.3527
得入	-11.3531
念道	-11.3532
何以知	-11.3532
敬之	-11.3533
戸	-11.3534
之多少	-11.3535
爲坤	-11.3537
後代	-11.354
以鹹	-11.354
胎光	-11.3541
凡有	-11.3543
立是謂	-11.3543
受用	-11.3545
老陰	-11.3547
江山	-11.3548
隨氣	-11.3551
散而	-11.3552
立已	-11.3553
六十年	-11.3554
可名	-11.3554
者膽	-11.3554
六者	-11.3555
氣聚	-11.3555
明乎	-11.3557
吐之	-11.3561
不寒	-11.3562
不榮	-11.3566
樹木	-11.3567
得神仙	-11.3569
陰邪	-11.357
龜山	-11.357
雖未	-11.3576
不發	-11.3579
兩卦	-11.3579
治國	-11.358
永和	-11.3581
下篇	-11.3585
爲性	-11.3586
熱中	-11.3586
靈神	-11.3587
不侵	-11.3587
白光	-11.3588
得水	-11.3593
去三尸	-11.3598
吾今	-11.3603
煉就	-11.3605
不除	-11.3606
則不然	-11.3608
留形	-11.361
斯乃	-11.3611
悟者	-11.3611
縣令	-11.3613
汲	-11.3615
浩然	-11.3616
陽氣盛	-11.362
左行	-11.3621
不念	-11.3622
百丈	-11.3623
上聞	-11.3629
者但	-11.3631
黃帝	-11.3636
霽	-11.3638
消除	-11.3639
癸生	-11.364
道教	-11.3641
國在	-11.3645
地府	-11.3647
皇太子	-11.3648
性本	-11.3649
白頭	-11.365
五首	-11.3659
專精	-11.3659
冠帶	-11.366
疾者	-11.3663
而不散	-11.3667
功用	-11.3668
腎中	-11.367
師事	-11.3671
决之	-11.3674
森	-11.3674
三足	-11.3674
金室	-11.3675
離女	-11.3675
地地	-11.3676
無使	-11.3679
九候	-11.3679
伐齊	-11.368
過乎	-11.3681
䐃	-11.3682
同卷	-11.3683
天地日月	-11.3683
在西	-11.3683
萬國	-11.3685
氣味	-11.3686
始可	-11.3686
訥	-11.3687
忒	-11.3687
功力	-11.3689
衆仙	-11.3689
三聖	-11.3691
燼	-11.3691
疇	-11.3692
逆上	-11.3692
故不能	-11.3693
晡	-11.3693
僑	-11.3693
八分	-11.3694
嗅	-11.3694
叶	-11.3696
架	-11.3698
杳杳冥冥	-11.3698
拽	-11.3699
綻	-11.37
擊壤集	-11.37
箝	-11.37
嘿	-11.3701
莫大乎	-11.3702
瘡瘍	-11.3702
苔	-11.3702
時亦	-11.3703
肚	-11.3703
輙	-11.3703
版	-11.3704
雲母粉	-11.3704
浙	-11.3705
碗	-11.3705
龐	-11.3705
正陽之氣	-11.3705
隕	-11.3705
丸如梧桐子大	-11.3705
六通	-11.3706
鄂	-11.3706
癲	-11.3706
還丹者	-11.3706
筵	-11.3707
方士	-11.3708
墉	-11.3708
逹	-11.3708
櫃	-11.3708
故病如是	-11.3708
幽州	-11.3709
太微天帝君	-11.3709
諮	-11.3709
難言	-11.371
錦帔	-11.371
敘	-11.371
弋	-11.371
僚	-11.371
衮	-11.371
堊	-11.3711
它	-11.3711
辰戌丑未	-11.3711
結璘	-11.3711
秦伐	-11.3711
贍	-11.3712
塚	-11.3712
熱化七	-11.3712
壟	-11.3713
靚	-11.3714
與天地齊	-11.3715
一百九	-11.3715
凛	-11.3715
曹溪	-11.3716
纖毫	-11.3716
市賈	-11.3717
澄澄	-11.3718
虖	-11.3718
尹喜	-11.372
關鍵	-11.3721
無明	-11.3721
炎暑	-11.3721
靈眞	-11.3721
惡氣	-11.3727
雌黄	-11.3727
飲水	-11.3728
爲佳	-11.3728
長一寸	-11.3729
陛下	-11.3729
鍊成	-11.373
展轉	-11.373
焉是爲	-11.3733
朱子	-11.3733
復來	-11.3733
支干	-11.3735
悟道	-11.3736
徒自	-11.3736
魚際	-11.3737
與衆	-11.3738
怡然	-11.3739
緩急	-11.3743
未判	-11.3744
卷舒	-11.3745
金晶	-11.3745
小豆	-11.3747
鬼賊	-11.3747
人神	-11.3747
雷雨	-11.3747
伐吴	-11.3747
則易	-11.3749
數數	-11.375
涓子	-11.375
死人	-11.3751
善男子	-11.3752
八難	-11.3752
同行	-11.3754
筭數	-11.3758
江陵	-11.3759
勤苦	-11.376
心目	-11.376
可觀	-11.376
廓然	-11.3761
寒者	-11.3762
兩乳	-11.3762
公卿	-11.3765
一向	-11.3766
爲夫婦	-11.3767
徹視	-11.3767
之别	-11.3768
右邊	-11.3768
我輩	-11.3769
自化	-11.3771
其炁	-11.3772
下火	-11.3774
乗龍	-11.3775
金性	-11.3777
比類	-11.3777
通氣	-11.3778
之天即	-11.3779
青霞	-11.3779
直待	-11.378
入於胃	-11.378
皇極	-11.3782
傷肉	-11.3786
紫微宫	-11.3788
修德	-11.3789
深山	-11.379
坎卦	-11.3793
太過故	-11.3794
必欲	-11.3795
亦何	-11.3796
治天	-11.3797
所化	-11.3798
心之液	-11.3799
雜類	-11.38
江東	-11.3803
二炁	-11.3808
不停	-11.3809
則亡	-11.3809
助國	-11.3813
雲笈七籤卷之一百	-11.3814
積功	-11.3817
調神	-11.3817
安危	-11.3818
咸通	-11.3818
一石	-11.3819
審其	-11.382
七度	-11.3821
之禮	-11.3821
埃昏	-11.3822
飛出	-11.3822
月光	-11.3822
氣少	-11.3823
光華	-11.3824
師友	-11.383
哉夫	-11.3831
炎火	-11.3832
非爲	-11.3833
長女	-11.3833
者不以	-11.3834
保身	-11.3836
同乎	-11.3838
徃還	-11.3842
陽蹻	-11.3843
盈虚	-11.3843
結就	-11.3843
内側	-11.3843
閉炁	-11.3844
白黑	-11.3845
皆吉	-11.3845
無際	-11.3846
代謝	-11.3846
此蓋	-11.3851
焉則	-11.3851
從前	-11.3852
之車	-11.3857
輔骨	-11.3859
真空	-11.3859
喜樂	-11.386
眞人治之	-11.3863
不作	-11.3864
何可	-11.3864
二十九日	-11.3864
莫令	-11.3867
平和	-11.3868
者豈	-11.3869
獨有	-11.387
五行者	-11.3871
浮華	-11.3873
篇目	-11.3873
小有	-11.3873
在目	-11.3874
已知	-11.3874
之論	-11.3874
不害	-11.3874
尚有	-11.3878
九分	-11.388
外藥	-11.3882
不固	-11.3882
物理	-11.3883
在其中矣	-11.3883
只如	-11.3883
亦如此	-11.3884
經論	-11.3886
風流	-11.3886
五里	-11.3889
二寸半	-11.389
西方金	-11.389
俄而	-11.3892
六五	-11.3895
獨居	-11.3896
化源	-11.3897
者少	-11.3899
陽龍	-11.3899
留心	-11.39
二象	-11.39
禁止	-11.3901
耳若	-11.3901
服此	-11.3904
元君曰	-11.3905
戒勿	-11.3906
則陽	-11.3906
者汞也	-11.3907
安然	-11.3907
日月合	-11.3907
目中	-11.3908
賢聖	-11.3908
相勝	-11.3911
金丹者	-11.3912
而可	-11.3913
也然則	-11.3923
之門户	-11.3927
一百七	-11.3929
所以然者	-11.3929
真佛	-11.3929
即愈	-11.3935
西東	-11.3936
官人	-11.3938
則内	-11.394
本文	-11.3941
不便	-11.3943
潜通	-11.3946
外無	-11.3948
只今	-11.3951
隱形	-11.3951
平安	-11.3955
卦二	-11.3957
與世	-11.3959
如一	-11.396
足陽明脉氣所發	-11.3961
不忍	-11.3962
合爲一	-11.3963
其隂	-11.3963
非世間	-11.3963
夫修	-11.3965
之父	-11.3965
通身	-11.3967
來去	-11.3967
玄天	-11.3973
故謂	-11.3973
伐木	-11.3979
只有	-11.398
聖君	-11.398
同𩔖	-11.3982
未明	-11.3982
明公	-11.3986
恁	-11.3993
左右足	-11.3995
玄臺	-11.3997
是吾	-11.3997
以温	-11.4
色身	-11.4001
與汝	-11.4002
若乃	-11.4002
本草	-11.4002
願得	-11.4007
一嚥	-11.4007
常山	-11.4009
於理	-11.401
逺行	-11.4011
繆	-11.4013
舊本	-11.4014
二百日	-11.402
陽炁	-11.4021
十五年	-11.4022
丹基	-11.4022
獨行	-11.4023
天池	-11.4024
得其理	-11.4024
以藥	-11.4025
精魂	-11.4027
以知其	-11.4028
仙骨	-11.4029
諸仙	-11.4032
邪入	-11.4033
時須	-11.4034
寰	-11.4035
天癸	-11.4036
一如	-11.4038
○○	-11.4042
震動	-11.4042
三世	-11.4045
下界	-11.4048
陰主	-11.4048
有一人	-11.4049
故易曰	-11.4051
薑	-11.4063
一通	-11.4064
然可	-11.4064
根也	-11.4065
平調	-11.4065
為主	-11.4066
也按	-11.4068
也日月	-11.4074
十二節	-11.4075
有縁	-11.4075
勳	-11.4077
腎也	-11.408
辛苦	-11.4081
是皆	-11.4082
不可不知	-11.4082
登天	-11.4083
屬水	-11.4084
四達	-11.4086
而失	-11.4087
只得	-11.4087
搓	-11.409
賾	-11.409
眞一之水	-11.4091
超凡入聖	-11.4091
開度	-11.4094
以告	-11.4095
樂道	-11.4095
世無	-11.4095
皺	-11.4095
老君曰夫	-11.4095
屬火	-11.4097
巇	-11.4097
廊	-11.4098
窘	-11.4098
巡狩	-11.4098
淑	-11.4099
宸	-11.4099
不會	-11.4099
四刻	-11.4099
葺	-11.4099
有黄氣	-11.41
髀樞	-11.41
蟾蜍	-11.41
晩晩晩晩	-11.4101
閡	-11.4101
皎皎	-11.4101
白元	-11.4101
翅	-11.4103
衆妙之門	-11.4104
噉	-11.4104
吠	-11.4104
棋	-11.4104
佚	-11.4104
瑶臺	-11.4104
晦朔之間	-11.4105
梧	-11.4105
諾	-11.4105
悠	-11.4105
匡郭	-11.4105
徼	-11.4106
大角	-11.4106
剔	-11.4106
兵攻	-11.4106
菩薩	-11.4106
拓	-11.4106
若灸者可灸五壯	-11.4107
獅子	-11.4107
嚼	-11.4107
東方青	-11.4107
挈	-11.4108
俠脊	-11.4108
飧泄	-11.4108
匣	-11.4108
雨化五	-11.4108
悦	-11.4109
娱	-11.411
於是有	-11.411
咨	-11.411
悚	-11.411
莫大於	-11.4111
東西南北	-11.4112
脣	-11.4112
榛	-11.4112
峭	-11.4112
寂寥	-11.4112
趍	-11.4112
經脉之	-11.4112
鏗	-11.4112
如彼	-11.4113
子午卯酉	-11.4113
樗	-11.4113
精粹	-11.4114
縳	-11.4114
崗	-11.4115
卜筮	-11.4116
先從	-11.4117
牲	-11.4117
非唯	-11.4117
而生者也	-11.4118
早晩	-11.4119
范蠡	-11.412
元皇	-11.4121
天帝位	-11.4122
夢寐	-11.4122
紫芝	-11.4122
無塵	-11.4123
交姤	-11.4123
白衣	-11.4123
洪波	-11.4124
生非	-11.4125
偃月爐	-11.4125
難成	-11.4126
熱化二	-11.4128
青龍白虎	-11.4129
省悟	-11.413
韞	-11.4133
金胎	-11.4134
□□	-11.4135
陰位	-11.4136
乆而	-11.4137
或言	-11.4139
作用	-11.4144
夫惟	-11.4145
一穴	-11.4145
者木也	-11.4145
其色青	-11.4146
奔走	-11.4147
歷代	-11.4149
學道之士	-11.415
遨遊	-11.415
永嘉	-11.415
坐於	-11.4152
心印	-11.4152
百靈	-11.4153
雙關	-11.4153
宗于	-11.4154
不雜	-11.4154
羲白	-11.4155
三變	-11.4158
上循	-11.4158
邪干	-11.4159
細研	-11.416
者道也	-11.4161
禮拜	-11.4161
事物	-11.4162
依前法	-11.4162
聞見	-11.4164
山崩	-11.4165
心常	-11.4165
色變	-11.4166
之爲物	-11.4167
主歲	-11.4168
無二	-11.4169
一神	-11.4169
契虛	-11.417
獨露	-11.4172
受書	-11.4173
失政	-11.4173
化令	-11.4174
獨步	-11.4175
符合	-11.4176
亦无	-11.4176
起自	-11.4176
東流水	-11.4177
之妙也	-11.4178
多事	-11.4178
夢覺	-11.418
牛馬	-11.4182
食之已	-11.4185
騰空	-11.4185
五行之氣	-11.4185
一寸半	-11.4185
師授	-11.4185
全忠	-11.4186
韓信	-11.4186
不可妄行	-11.4188
至靜	-11.4193
十過	-11.4194
所制	-11.4194
二七過	-11.4194
焉得	-11.4194
日起子	-11.4195
崩子	-11.4201
一紙	-11.4202
虛妄	-11.4203
帝晨	-11.4208
萬病	-11.421
下同身寸之一寸	-11.4211
飛精	-11.4212
腦中	-11.4216
太素眞人	-11.4218
與道同	-11.4218
每月	-11.422
青牛	-11.4221
頥神	-11.4221
心定	-11.4223
厥隂木	-11.4225
者正	-11.4225
神芝	-11.4225
不二	-11.4226
此五者	-11.4226
陽維	-11.4226
此中	-11.4228
凡道士	-11.4228
傳非人	-11.4228
虛无	-11.4229
五蔵	-11.4232
興亡	-11.4233
十數	-11.4234
合符	-11.4235
樓臺	-11.4236
至十五日	-11.424
海水	-11.4242
語曰	-11.4243
納氣	-11.4243
一千九	-11.4244
然後可以	-11.4245
之以爲	-11.4248
復勝	-11.425
之脉也	-11.425
元初	-11.4251
乾道	-11.4252
七情	-11.4252
安定	-11.4254
雲林	-11.4254
北斗君	-11.4254
世所	-11.4255
異類	-11.4255
傳寫	-11.4255
安期	-11.4262
應化	-11.4266
山頂	-11.4266
父也	-11.4266
命者	-11.4269
舉其	-11.427
高山	-11.427
太明	-11.427
後乃	-11.427
天地之數	-11.4271
立名	-11.4272
之章	-11.4275
腸鳴	-11.4278
因得	-11.428
年年	-11.428
三般	-11.4282
有憂	-11.4283
邪魔	-11.4284
上衝	-11.4285
旣成	-11.4286
乃行	-11.4286
水火之氣	-11.4287
耳夫	-11.4287
旣無	-11.4287
附於	-11.4288
章第二	-11.4289
尋眞	-11.4291
勝至	-11.4293
同人	-11.4296
之鬼	-11.4296
契丹	-11.4296
於鼎中	-11.4298
言此	-11.4304
狀也	-11.4305
猛火	-11.4305
以變	-11.4305
靜默	-11.4308
三百一	-11.4309
而論之	-11.4313
從他	-11.4313
深遠	-11.4315
縣西	-11.4316
黄芽者	-11.4317
青州	-11.4317
七尺	-11.4317
處士	-11.4318
曰吾聞	-11.4321
不就	-11.4322
内境	-11.4323
干木	-11.4323
誠能	-11.4326
于肝	-11.4326
刺其	-11.4326
朝眞	-11.4331
藏形	-11.4334
蒼天	-11.4334
形中	-11.4335
合則	-11.4336
有鳥	-11.4341
黍米	-11.4342
何能	-11.4346
吉日	-11.4346
無所不至	-11.435
赤明	-11.435
二十有	-11.4351
降下	-11.4352
是乃	-11.4354
儒者	-11.4355
仙伯	-11.4359
自適	-11.4362
釋之	-11.4364
少而	-11.4364
三遍訖	-11.4365
爲丸	-11.4366
心動	-11.4367
而發	-11.4372
長生矣	-11.4372
矣若夫	-11.4373
侯王	-11.4373
弼星	-11.438
者也吾	-11.4381
到了	-11.4382
莫教	-11.4383
合丹	-11.4385
口訣是	-11.4385
之根本也	-11.4396
中書	-11.4398
既知	-11.4399
軍亂	-11.4399
鉛精	-11.44
衰老	-11.4403
既生	-11.4404
覆之	-11.4405
是道也	-11.4416
於器中	-11.4417
虛名	-11.4419
正炁	-11.442
最上	-11.4429
三千一	-11.4431
三百四	-11.4432
也若夫	-11.4432
遠行	-11.4432
與語	-11.4432
月精	-11.4434
尋求	-11.4435
下關	-11.4438
雲房	-11.4438
痛而	-11.4439
九跡	-11.4439
无有	-11.4439
入息	-11.4441
易成	-11.4441
我心	-11.4442
方成	-11.4442
衆聖	-11.4444
年壽	-11.4445
習之	-11.4447
三分留七呼若灸者可灸三壯	-11.4447
穆公	-11.4452
目下	-11.4455
長一尺	-11.4457
盛矣	-11.4458
種子	-11.4465
解結	-11.4467
國亡	-11.4471
師言	-11.4472
雖多	-11.4476
而不知其	-11.4476
世祖	-11.4477
正陽子曰	-11.4484
集神	-11.4485
洞房中	-11.4488
故脉	-11.449
傷腎	-11.4491
流散	-11.4493
十善	-11.4496
說之	-11.4497
秋月	-11.4499
金鎖	-11.45
多年	-11.45
月朔	-11.4501
則損	-11.4501
孛	-11.4502
碍	-11.4504
儲	-11.4505
鱉	-11.4506
所存	-11.4507
帷	-11.4508
湊	-11.4508
喜怒哀樂	-11.4508
一千二	-11.4509
佑	-11.451
謡	-11.451
駟	-11.451
行法	-11.4512
肋	-11.4512
拄	-11.4512
一千三	-11.4513
其面	-11.4513
同身寸之三寸	-11.4513
輳	-11.4514
户牖	-11.4514
帝曰其	-11.4514
帝嚳	-11.4514
同而	-11.4515
彝	-11.4515
爲臣	-11.4515
冽	-11.4515
無中生有	-11.4517
𠕋	-11.4517
莽	-11.4517
多言	-11.4518
娘	-11.4518
螻蟻	-11.4519
煖	-11.4519
動脉應手	-11.4519
専	-11.4519
翥	-11.4519
坊	-11.4519
譎	-11.4519
衲	-11.452
杪	-11.452
懈怠	-11.452
瀛	-11.452
黄帝問於岐伯曰	-11.452
狎	-11.452
之炁此天炁	-11.452
入胃	-11.452
踐位	-11.4521
壼	-11.4523
蔬	-11.4523
癰疽	-11.4523
檻	-11.4523
璽	-11.4523
不損	-11.4523
䘮	-11.4524
懦	-11.4525
碧潭	-11.4525
濮	-11.4525
故下文曰	-11.4526
竹筒	-11.4526
擢	-11.4526
中天	-11.4526
老聃	-11.4526
礜石	-11.4526
速於水火	-11.4527
蓑	-11.4527
咽喉	-11.4527
紋	-11.4527
諠	-11.4527
夔	-11.4528
之印	-11.4529
瀛洲	-11.4529
疋	-11.4529
一二三四	-11.4529
華陽隱居	-11.453
青童君	-11.453
蘿	-11.453
臍下三寸	-11.453
企	-11.453
蹶	-11.453
羈	-11.4531
不務	-11.4531
柰	-11.4531
火發	-11.4531
綽	-11.4532
外别	-11.4532
覲	-11.4532
七十二候	-11.4532
這般	-11.4533
啄	-11.4533
隱藏	-11.4533
不久	-11.4533
繫辭曰	-11.4533
醺	-11.4534
聚氣	-11.4534
本自	-11.4535
玉章	-11.4536
之病也	-11.4536
何謂歟正陽子曰	-11.4537
大雪	-11.4537
貪嗔	-11.4539
誰肯	-11.454
門戸	-11.4541
降于	-11.4541
虢	-11.4541
感動	-11.4543
次五日	-11.4543
枝條	-11.4544
留三呼	-11.4544
瓊漿	-11.4544
不吉	-11.4546
雲收	-11.4547
欲其	-11.4547
施用	-11.4548
瞳子	-11.4548
甲庚	-11.4549
穆王	-11.4549
頓悟	-11.455
兒孫	-11.4551
終于	-11.4551
壬木運	-11.4551
假借	-11.4551
紫書	-11.4552
正直	-11.4553
日三服	-11.4553
第十八	-11.4553
淮南王	-11.4553
跳出	-11.4553
於巳	-11.4554
群陰	-11.4555
傷筋	-11.4555
銖兩	-11.4556
中有一	-11.4556
十三日	-11.4557
寒化一	-11.4557
䝿	-11.4559
東嶽	-11.4561
同身寸之二寸	-11.4561
外來	-11.4562
福德	-11.4562
非空	-11.4563
巽風	-11.4564
須用	-11.4564
莊子曰	-11.4565
之妙用	-11.4565
聞而	-11.4565
東陽	-11.4565
生養	-11.4566
大凡	-11.4567
其陽多	-11.4567
黄籙	-11.4571
生白	-11.4571
善功	-11.4573
魏夫人	-11.4575
紫户	-11.4578
沉細	-11.4581
靈仙	-11.4582
朗朗	-11.4585
書符	-11.4585
甚也	-11.4585
如之何	-11.4586
崔公	-11.4588
脉之會	-11.4589
白元君	-11.4589
胃管	-11.459
一曲	-11.4591
命籍	-11.4592
擣篩	-11.4592
强爲	-11.4593
不足故	-11.4593
厥陰之	-11.4595
咽止	-11.4596
不視	-11.4598
太帝君	-11.4599
明徹	-11.4599
一派	-11.4603
同天符	-11.4606
數人	-11.4606
潔白	-11.4606
其妻	-11.4607
至尊	-11.4608
而卒	-11.461
箇箇	-11.461
了達	-11.4613
歸元	-11.4616
手摩	-11.4616
明道	-11.4618
金匱	-11.4619
者此也	-11.4624
得免	-11.4628
腹痛	-11.4629
郡縣	-11.463
枯木	-11.4633
天魔	-11.4634
受符	-11.4634
守城	-11.4637
靈龜	-11.4637
故如是	-11.4637
以小	-11.4638
差别	-11.4639
荆山	-11.4642
未敢	-11.4643
是汞	-11.4643
東宫	-11.4646
神驗	-11.4646
太隂土	-11.4646
是謂五	-11.4648
一百一	-11.4651
短長	-11.4652
遂成	-11.4652
燥化	-11.4656
喘咳	-11.4657
人共	-11.4658
既未	-11.4658
晋陽	-11.4662
假如	-11.4662
飛鳥	-11.4664
陽氣内	-11.4664
失時	-11.4665
陽明星	-11.4665
保守	-11.4666
衝陽	-11.4668
聖功	-11.4668
所載	-11.467
宣帝	-11.4671
與肺	-11.4673
游于	-11.4674
不知所在	-11.4676
分肉	-11.4682
又告	-11.4683
而返	-11.4683
亦可以	-11.4686
子子	-11.4688
香風	-11.469
告命	-11.4691
始以	-11.4694
迷者	-11.4703
成粉	-11.4704
說云	-11.4705
於我	-11.4705
右有	-11.4706
紫陽眞人	-11.4707
端正	-11.471
散而爲	-11.471
衆邪	-11.471
承天	-11.4716
前程	-11.4718
主生	-11.4718
章第五十	-11.4718
逺近	-11.4722
在門	-11.4722
三代	-11.4723
仙階	-11.4724
勿妄	-11.4724
腦户	-11.4725
宫中有	-11.4725
徹底	-11.4726
節符	-11.4727
之淵	-11.4728
全神	-11.4729
黑雲	-11.4735
五道	-11.4736
益其	-11.4738
二十三十	-11.4738
内存	-11.4739
酒食	-11.4744
澄清	-11.4744
身安	-11.4744
妙門	-11.4746
流布	-11.4746
今所	-11.4747
石硫黄	-11.4747
如風	-11.4747
因果	-11.4748
莫能知	-11.4748
帝庭	-11.4748
元吉	-11.4748
延命	-11.4752
守靜	-11.4753
三通	-11.4753
久長	-11.4753
洒洒	-11.4755
昔日	-11.4756
乾也	-11.4758
無遺	-11.476
靈化	-11.4763
太一君	-11.4764
我師	-11.4767
蓋由	-11.4772
長氣	-11.4774
常守	-11.4774
玉蟾	-11.4775
自從	-11.4776
與吾	-11.4778
苦辛	-11.4779
二萬	-11.4782
金堂	-11.4784
未嘗不	-11.479
開張	-11.4791
在左手	-11.4793
論篇黄帝問曰	-11.4793
接引	-11.4793
輕清	-11.4794
大經	-11.4795
四序	-11.4795
冠衣	-11.4797
自守	-11.4798
廣寒	-11.4801
南眞	-11.4801
之德也	-11.4802
用藥	-11.4803
消長	-11.4803
只言	-11.4805
刺可入同身寸之四分	-11.4805
若干	-11.4806
罪過	-11.4807
中下	-11.481
全身	-11.4813
至巳	-11.4819
一陽爻	-11.4819
不愛	-11.4819
靜慮	-11.4819
仲秋	-11.482
焉是以	-11.482
則性	-11.482
靈液	-11.4823
一變	-11.4824
真陽	-11.4827
木液	-11.4828
闔闢	-11.4828
三載	-11.4829
洞經	-11.4837
日月同	-11.4841
能消	-11.4842
十三年	-11.4844
五伯	-11.4845
七篇	-11.4846
白埃	-11.485
明照	-11.485
不逢	-11.4851
龍蟠	-11.4852
三昧	-11.4855
全體	-11.4855
受氣於	-11.4857
存使	-11.4859
之容	-11.4863
合自然	-11.4864
形長	-11.4867
年命	-11.4867
九曲	-11.4877
之迹	-11.4879
央	-11.4879
信也	-11.4882
同時	-11.4884
也何者	-11.4885
治世	-11.4887
延生	-11.4888
轉輪	-11.4889
孝子	-11.4889
仙聖	-11.4891
因名	-11.4892
陰人	-11.4895
桓公	-11.4895
胃爲	-11.4895
經教	-11.4896
西風	-11.4896
異而	-11.4897
取此	-11.4898
于泥丸	-11.49
不落	-11.4901
執之	-11.4906
可長生	-11.4906
自號	-11.4909
則非	-11.4909
衣裳	-11.4909
合而爲	-11.491
精心	-11.4914
地道	-11.4915
日月交	-11.4916
天地之精	-11.4918
可乎	-11.4918
非正	-11.4919
晟	-11.492
天意	-11.4923
河魁	-11.4925
蝎	-11.4929
大方	-11.4931
既成	-11.4932
金星	-11.4935
二千八	-11.4936
睫	-11.4941
安閑	-11.4941
心不動	-11.4942
交錯	-11.4942
己土運	-11.4943
清清	-11.4943
一國	-11.4944
収	-11.4944
馥	-11.4944
蠅	-11.4945
曄	-11.4946
諒	-11.4946
玄關一竅	-11.4948
冉冉	-11.4948
夷狄	-11.4949
天下有	-11.4949
之奈何岐伯曰	-11.495
僣	-11.495
珮	-11.495
悗	-11.4951
剛柔相	-11.4951
惺	-11.4951
吐蕃	-11.4953
無道	-11.4953
箴	-11.4953
涅槃	-11.4953
巒	-11.4954
紊	-11.4954
丕	-11.4954
其支别者	-11.4954
蒿	-11.4955
以全	-11.4955
二百三	-11.4955
又恐	-11.4956
漑	-11.4956
箋	-11.4956
憊	-11.4957
捏	-11.4957
對化有間與運	-11.4957
崐	-11.4958
桀	-11.4958
天地水三官	-11.4959
水火既濟	-11.4959
徊	-11.4959
干戈	-11.4959
檐	-11.496
嶮	-11.496
謨	-11.496
燎	-11.496
古歌曰	-11.4961
閒	-11.4962
沓	-11.4962
謝之	-11.4962
般般	-11.4963
恤	-11.4963
流鈴	-11.4963
璣	-11.4964
曳	-11.4964
白日上昇	-11.4964
中央黄老君	-11.4965
伊尹	-11.4965
圖子欲	-11.4965
嗣位是謂	-11.4967
朋友	-11.4968
指揮	-11.4968
無苦	-11.4968
无能子	-11.4969
桐栢	-11.4969
金丹大藥	-11.497
六虚	-11.4971
再生	-11.4971
鉞	-11.4971
觴	-11.4971
妙經	-11.4971
彌綸	-11.4972
防危	-11.4972
鶉	-11.4972
查	-11.4973
昭王	-11.4973
洞觀	-11.4973
雨濕	-11.4973
冕	-11.4974
樹下	-11.4974
阮	-11.4974
門開	-11.4975
横骨	-11.4975
鐵牛	-11.4976
瑩淨	-11.4976
混融	-11.4976
水數一	-11.4977
畫八卦	-11.4977
針經曰	-11.4977
施於	-11.4979
也夫人	-11.498
帙	-11.498
碧落	-11.4981
補瀉	-11.4981
不關	-11.4982
光明砂	-11.4982
隂德	-11.4983
從魁	-11.4983
國王	-11.4983
不記	-11.4984
陰之精	-11.4985
五行相生	-11.4985
布衣	-11.4986
騰騰	-11.4986
宗廟	-11.4986
猶豫	-11.4986
器也	-11.4989
乃自	-11.4989
者何謂也	-11.499
愛慾	-11.4992
邢	-11.4992
凝滯	-11.4997
王莽	-11.4998
五指	-11.4999
虧盈	-11.4999
無疆	-11.5
尺部	-11.5001
流星	-11.5001
哀樂	-11.5001
玉衡	-11.5002
蟠桃	-11.5004
故名曰	-11.5005
所住	-11.5005
洞淵	-11.5005
而制	-11.5007
我形	-11.5007
火候也	-11.501
不負	-11.5012
咒曰	-11.5013
園林	-11.5014
除之	-11.5014
難測	-11.5014
貪愛	-11.5015
畫圖	-11.5016
得遇	-11.5016
宻宻	-11.5017
一銖	-11.5017
十洲	-11.5017
三百八	-11.5022
群臣	-11.5025
死于	-11.5026
初六	-11.5026
從頭	-11.5027
第十九	-11.5027
碧天	-11.5028
甘草	-11.5028
當須	-11.503
從下	-11.5032
列子	-11.5034
藥材	-11.5036
嵩高	-11.5037
巳上	-11.5037
爲鄰	-11.5039
旣至	-11.5042
委中	-11.5043
絡於	-11.5043
不殆	-11.5046
千二百	-11.5046
黄泉	-11.5047
也三者	-11.5048
者耶	-11.5048
加以	-11.5049
除邪	-11.505
蹤跡	-11.505
内廉	-11.505
廣陵	-11.5051
將至	-11.5053
白龍	-11.5054
何日	-11.5055
之樂	-11.5056
雌一	-11.5058
心包絡	-11.5059
一斛	-11.506
各隨	-11.5061
足躡	-11.5061
無瑕	-11.5062
火養	-11.5068
黄房	-11.5069
上陽	-11.5071
行於世	-11.5071
不輟	-11.5072
圖中	-11.5072
不難	-11.5073
上德	-11.5073
魔王	-11.5075
審察	-11.5076
眼中	-11.5077
虚危	-11.5079
如舊	-11.5082
常能	-11.5082
成物	-11.5084
教化	-11.5085
十二日	-11.5087
不迷	-11.5088
風邪	-11.5088
下工	-11.5088
后土	-11.5091
皆言	-11.5094
風刀	-11.5095
到處	-11.5096
疑惑	-11.5096
十五里	-11.5096
如鷄	-11.5097
天和	-11.5102
乾體	-11.5102
流傳	-11.5104
四字	-11.5105
散則	-11.5106
辟非	-11.5107
有期	-11.5107
灼灼	-11.5107
還丹之道	-11.5107
玉英	-11.5108
神字	-11.5108
第十五	-11.5109
在南	-11.5109
精勤	-11.5113
能變	-11.5115
六十時	-11.5117
百物	-11.512
亢倉㜽	-11.5121
風光	-11.5122
鷄子	-11.5122
無始	-11.5123
乾陽	-11.5125
不能行	-11.5126
大宫	-11.5126
第二十一	-11.5127
縣南	-11.5127
在人身	-11.5135
成胎	-11.5135
保神	-11.5136
惡夢	-11.5136
六律	-11.5137
閉門	-11.5138
未形	-11.5142
一百三	-11.5144
萬壽	-11.5144
者不知	-11.5145
或如	-11.5145
善行	-11.5148
居山	-11.515
圖書	-11.5154
第十七	-11.5161
象數	-11.5168
無虧	-11.5168
修心	-11.517
調理	-11.517
之像	-11.5171
終南	-11.5172
交戰	-11.5173
上關	-11.5175
法眼	-11.5175
少好道	-11.5176
五百年	-11.5176
仙宫	-11.5178
相符	-11.5179
開門	-11.5179
俱是	-11.5181
有神人	-11.5182
只此	-11.5186
日之精	-11.5187
凡五	-11.5187
亘古	-11.5189
本源	-11.5193
孤陽	-11.5193
莫得	-11.5195
州軍亂	-11.5196
和尚	-11.5198
玉樹	-11.5199
兵起	-11.5199
仙童	-11.5201
君主	-11.5205
見血	-11.5206
火金	-11.5208
内藥	-11.5209
人也少	-11.521
獨存	-11.521
但依	-11.5211
一脉	-11.5212
明光	-11.5212
幻化	-11.5216
法訣	-11.5217
求眞	-11.5218
而進	-11.522
脉循	-11.5221
我等	-11.5221
矣且	-11.5224
求救	-11.5224
虎牙	-11.5225
渾淪	-11.5228
黄素	-11.5228
失常	-11.5229
死門	-11.5229
八節日	-11.5229
九江	-11.5231
育萬物	-11.5231
始覺	-11.5236
玉室	-11.5237
脉起於	-11.5238
不空	-11.5238
立事	-11.5239
不懼	-11.524
二十四神	-11.5241
太華	-11.5243
五賊	-11.5245
水火土	-11.5247
之勿令	-11.5254
乾乾	-11.5256
履之	-11.5263
人之情	-11.5263
身命	-11.5266
疑其	-11.5266
至午	-11.5266
正邪	-11.5269
識得	-11.5269
漸覺	-11.527
水精	-11.5274
悟則	-11.5279
其足	-11.5281
天兵	-11.5281
自後	-11.5282
所害	-11.5283
皆受	-11.5289
神仙之道	-11.529
方位	-11.5291
靈風	-11.5292
諸子	-11.5294
所感	-11.5298
其道也	-11.5299
九千	-11.53
感化	-11.5301
圓滿	-11.5304
加於	-11.5308
其明	-11.5308
一千七	-11.5309
雲散	-11.5309
合藥	-11.5312
生育	-11.5312
三萬六千神	-11.5313
穴中	-11.5316
小數	-11.5317
積精	-11.5317
之門户也	-11.5319
驗之	-11.532
節氣	-11.5325
名實	-11.533
不逐	-11.5331
之爲言	-11.5332
三爻	-11.5332
天地之始	-11.5332
無拘	-11.5332
候氣	-11.5333
許多	-11.5334
平陽	-11.5334
其命	-11.5337
者神也	-11.534
向東	-11.5341
不可治	-11.5341
二千七	-11.5342
得意	-11.5342
水源	-11.5343
造物	-11.5344
駕龍	-11.5346
口傳	-11.5349
一千五	-11.5351
若要	-11.5351
無爲也	-11.5354
返復	-11.5354
九曰	-11.5354
以歸	-11.5354
中華	-11.5357
疆	-11.5358
也心者	-11.5358
脉小	-11.5362
二百四	-11.5362
之氣以	-11.5363
此論	-11.5363
冬脉	-11.5363
發生之	-11.5363
爲左	-11.5365
蟾宫	-11.5368
五宫	-11.5372
却歸	-11.5376
多汗	-11.5377
閉則	-11.538
不憂	-11.538
大約	-11.5382
復行	-11.5384
共爲	-11.5385
以後	-11.5385
不得入	-11.5388
合會	-11.5389
儵	-11.539
之山無草木多	-11.5391
千神	-11.5392
無終	-11.5393
之意也	-11.5393
眹	-11.5394
紅日	-11.5395
鷄鳴	-11.5395
閉目内視	-11.5396
制汞	-11.5396
之原出於	-11.5397
對化盛而不實勝而有復	-11.5397
二千六	-11.5397
十餘人	-11.5398
佗	-11.5398
悄	-11.5399
从	-11.54
努	-11.5401
不離於	-11.5402
羶	-11.5403
一呼一吸	-11.5403
陽中有陰	-11.5403
陽中之陰	-11.5404
失節	-11.5404
挫	-11.5404
脈	-11.5404
開閉	-11.5405
啄齒	-11.5405
犧	-11.5405
遑	-11.5406
咄	-11.5406
三百二	-11.5406
疎	-11.5406
叠	-11.5407
疥	-11.5407
之訣曰	-11.5408
呻	-11.5408
西昇經云	-11.5408
蠕	-11.5408
目赤	-11.5409
贅	-11.5409
運北正司天天面向南左東直右西直	-11.5409
二千二	-11.5409
心安	-11.541
鍛	-11.541
非其人	-11.5411
自下而上	-11.5411
殖	-11.5411
峽	-11.5411
羨	-11.5412
坐在立亡	-11.5412
篋	-11.5412
悍	-11.5412
琢	-11.5413
鞅	-11.5413
廕	-11.5413
閼	-11.5413
窈窕	-11.5414
艶	-11.5414
女媧	-11.5414
存用	-11.5414
𢘆守我	-11.5415
之應也	-11.5415
弭	-11.5415
意欲	-11.5415
氣所生	-11.5416
凱	-11.5416
鄒	-11.5416
岱	-11.5416
大矣哉	-11.5416
千乘萬騎	-11.5417
修黄籙道場	-11.5417
肱	-11.5417
陶弘景	-11.5417
兀然	-11.5417
瓮	-11.5418
中男	-11.5418
雰	-11.5419
悳	-11.5419
黄裳	-11.5419
拊	-11.5419
昱	-11.5419
五月五日	-11.542
西城王君	-11.542
炊	-11.542
溥	-11.5421
蓼	-11.5421
舂	-11.5421
三魂七魄	-11.5422
粧	-11.5422
大仙	-11.5422
則太上云	-11.5423
互有	-11.5424
過止	-11.5424
冷氣	-11.5424
太羽終	-11.5425
雪霜	-11.5425
俛仰	-11.5427
新校正云按六元正紀大論云	-11.5427
偏枯	-11.5427
徐州	-11.5428
征伐	-11.5428
冬至之後	-11.5428
各五	-11.5428
荼	-11.5428
鳯	-11.5429
休糧	-11.5429
滕	-11.543
吟詠	-11.543
歷劫	-11.5431
後聖君授	-11.5431
國公	-11.5431
後聖君告天師曰	-11.5432
鴨	-11.5432
而成丹	-11.5433
繩墨	-11.5433
如麻	-11.5433
包羅	-11.5434
隂中	-11.5434
虚中	-11.5434
結喉	-11.5434
羲皇	-11.5435
五嶽眞形	-11.5435
營營	-11.5436
孺子	-11.5436
二千一	-11.5436
容貌	-11.5438
月二十七日	-11.5438
之所致也	-11.5439
旦暮	-11.544
太素作	-11.5441
玄谷	-11.5441
彭城	-11.5442
貪財	-11.5442
經綸	-11.5442
辟兵	-11.5443
符牒	-11.5444
西流	-11.5445
帝堯	-11.5445
有才	-11.5446
當云	-11.5447
羽翼	-11.5448
也哉	-11.5449
嘗聞	-11.545
掾書	-11.5451
懷胎	-11.5452
亦作	-11.5453
未嘗有	-11.5454
國君	-11.5456
北嶽	-11.5457
子貢	-11.546
太丹	-11.546
嵩山	-11.5463
一千一	-11.5463
五炁	-11.5465
會諸侯	-11.5465
二時	-11.5466
亦多	-11.5468
智慮	-11.5468
萬二千	-11.5472
武陵	-11.5473
呪畢	-11.5474
立成	-11.5476
主氣	-11.5477
弱而	-11.5478
朱鳥	-11.5478
二千四	-11.5478
三千四	-11.5479
九兩	-11.548
過失	-11.5481
盤古	-11.5482
蜀郡	-11.5483
下應	-11.5483
兼忘	-11.5485
煩滿	-11.5486
州縣	-11.5487
一切人	-11.5488
轉轉	-11.5492
周將軍	-11.5492
二弟	-11.5493
十有五	-11.5493
劉備	-11.5494
泄利	-11.5495
黄昏	-11.5496
落落	-11.5497
尺脉	-11.5497
所論	-11.55
蒼龍	-11.5501
山其木多	-11.5501
旣濟	-11.5502
九針	-11.5502
布施	-11.5505
第十六	-11.5505
師貞	-11.5506
太宗	-11.5506
仙傳	-11.5509
日暮	-11.5515
塵俗	-11.5516
骨之端	-11.5517
西海	-11.5517
契道	-11.5518
无形	-11.5519
光射	-11.552
梁國	-11.5525
固形	-11.5527
盛滿	-11.5527
頗有	-11.5528
自合	-11.5529
大茅	-11.5531
于今	-11.5532
雖復	-11.5532
由乎	-11.5534
金城	-11.5534
炎帝	-11.5534
千秋	-11.5535
謹白	-11.5536
九精	-11.5537
寒化	-11.5542
和光	-11.5544
術士	-11.5547
十餘里	-11.5547
不可得也	-11.5551
恁時	-11.5552
最靈	-11.5553
氣不足則	-11.5556
糠	-11.5556
一曰在	-11.5557
左肘	-11.5557
救度	-11.556
不可測	-11.5563
陽虚	-11.5564
雲笈七籤卷之一百一十	-11.5565
歎曰	-11.5571
慕道	-11.5572
簡易	-11.558
鬼官	-11.5584
耳鳴	-11.5586
言說	-11.5589
青城山	-11.559
黄帝曰人之	-11.5591
靈元	-11.5593
雲門	-11.5594
執著	-11.5595
赤黄	-11.5596
經年	-11.5596
幽深	-11.5597
左轉	-11.5597
月餘	-11.56
無妨	-11.5606
至陽	-11.5606
不可刺	-11.5614
卦四	-11.5615
衡山	-11.5616
山名	-11.5617
在脾	-11.562
吉利	-11.5621
依科	-11.5622
食穀	-11.5624
足太陽之	-11.5625
小術	-11.5626
更加	-11.5628
採之	-11.5628
方術	-11.563
存見	-11.5634
去地	-11.5637
白液	-11.5637
要言	-11.5638
無不應	-11.5638
無何	-11.5638
金之精	-11.564
其下有	-11.5641
越王	-11.5643
湯武	-11.5644
焉凡	-11.5644
不怠	-11.565
何患	-11.565
其末	-11.5651
火星	-11.5653
過從	-11.5655
九章	-11.5658
萬聖	-11.5658
訖便	-11.566
陽丹	-11.5664
隱隱	-11.5664
長乆	-11.5668
白眞人	-11.5669
凡言	-11.5669
五度	-11.567
亦已	-11.5671
識神	-11.5672
而問之	-11.5672
刺熱	-11.5674
正司	-11.5675
相次	-11.5675
一刀圭	-11.5678
皇天	-11.5685
陰虎	-11.5685
果有	-11.5687
發動	-11.5688
造作	-11.569
始治	-11.5693
制魄	-11.5695
聚散	-11.5695
可否	-11.5695
道門	-11.5696
安可	-11.5698
乘空	-11.5699
同前	-11.5699
一任	-11.57
亡矣	-11.5702
莫之	-11.5704
十全	-11.5704
甚衆	-11.5707
五十日	-11.5709
神門	-11.5711
雨水	-11.5711
下愚	-11.5713
以助	-11.5716
終不能	-11.5717
六八	-11.5718
坎中之	-11.5719
陰數	-11.572
知足	-11.5721
陽動	-11.5721
李公	-11.5724
微甚	-11.5725
得所	-11.5726
鉛汞者	-11.5727
土中	-11.5731
若將	-11.5732
陰丹	-11.5734
黄龍	-11.5734
治亂	-11.5735
三候	-11.5736
一爐	-11.5737
十二樓	-11.5738
不彰	-11.5738
六候	-11.5739
常侍	-11.574
滅亡	-11.5741
二五	-11.5742
卒弟	-11.5743
王卒子	-11.5748
其色赤	-11.5749
其色黄	-11.5749
春色	-11.5752
无常	-11.5753
大略	-11.5754
林木	-11.5755
而嚥之	-11.5756
爲太子	-11.5758
亦如是	-11.5761
金房	-11.5762
爲萬	-11.5767
相授	-11.5767
不具	-11.5769
是以君子	-11.5772
曰卿	-11.5773
天老	-11.5774
直須	-11.5775
紫文	-11.5776
示之	-11.5777
若遇	-11.5778
則萬物	-11.5778
九孔	-11.5778
改元天	-11.578
二千五	-11.5781
細細	-11.5786
固有	-11.5786
半年	-11.5787
洞元	-11.5796
陽之精	-11.5796
之衆	-11.5797
一足	-11.5799
百斤	-11.58
睿	-11.5803
不漏	-11.5806
元父	-11.5806
于肺	-11.5808
六卦	-11.5808
積德	-11.5809
其丹	-11.581
二味	-11.5811
内結	-11.5814
三首	-11.5815
冰雪	-11.5821
行度	-11.5822
腎肝	-11.5823
不喜	-11.5823
盡皆	-11.5823
清心	-11.5826
/○○○○)(/○○○	-11.583
爲第一	-11.583
在人間	-11.583
十七日	-11.5834
千丈	-11.5834
入泥丸	-11.5836
二百二	-11.5836
四千二	-11.5839
物類	-11.584
四黄	-11.584
不獨	-11.5843
籟	-11.5843
二火	-11.5848
成真	-11.5849
吾聞	-11.5849
四千一	-11.585
一千四	-11.5851
右目	-11.5852
相失	-11.5857
訪道	-11.5859
道書	-11.586
定庵	-11.5862
莫過	-11.5867
陬	-11.5867
囑	-11.5868
成佛	-11.587
著書	-11.587
而卧	-11.587
捩	-11.5874
周君	-11.5874
穹	-11.5875
三軍	-11.5876
倘	-11.5876
慳	-11.5877
陰中有陽	-11.5877
瘁	-11.5878
跟	-11.5878
本來面目	-11.5878
馴	-11.5879
釘	-11.588
淄	-11.588
大筋	-11.588
鄞鄂	-11.5881
跋	-11.5882
人少	-11.5882
亦爾	-11.5882
蜚	-11.5883
悽	-11.5883
岩	-11.5884
眞鉛眞汞	-11.5884
坼	-11.5884
事迹	-11.5885
痔	-11.5885
砭石	-11.5885
痢	-11.5885
外求	-11.5885
㠯	-11.5885
蟬蛻	-11.5886
焦枯	-11.5886
白日升天	-11.5886
螢	-11.5886
𩲃	-11.5886
侈	-11.5886
葆	-11.5887
舛	-11.5887
㣲	-11.5887
汨	-11.5888
撼	-11.5888
硃砂	-11.5889
曽	-11.5889
祗	-11.5889
歸根復命	-11.5889
垓	-11.589
確	-11.589
讖	-11.5891
之母也	-11.5891
戢	-11.5891
幘	-11.5891
攢	-11.5891
礦	-11.5891
藥力	-11.5891
沉淪	-11.5891
古歌云	-11.5892
貨財	-11.5892
陜	-11.5892
猫	-11.5893
復命篇云	-11.5893
渤海	-11.5894
大腸小腸	-11.5894
嚴固守之使	-11.5894
勇猛	-11.5894
鬼魅	-11.5894
柘	-11.5895
夫如是	-11.5895
嫗	-11.5895
覈	-11.5896
筋攣	-11.5896
掠	-11.5896
隊	-11.5897
煅煉	-11.5897
啞	-11.5898
繕	-11.5898
祭醮	-11.5899
蓬島	-11.5899
郗	-11.5899
揆度	-11.5899
鍾吕	-11.5899
嫁娶	-11.5899
錯綜	-11.59
牟	-11.59
火生土	-11.5901
莢	-11.5901
不和則	-11.5901
毬	-11.5903
長七寸	-11.5903
邯鄲	-11.5904
律吕	-11.5904
五運行大論	-11.5905
含弘	-11.5906
癲疾	-11.5906
陳臭	-11.5906
長史寫	-11.5906
瑜	-11.5907
痿厥	-11.5907
叢林	-11.5907
四千三	-11.5908
紫粉	-11.5908
也二者	-11.5909
氣衝	-11.5909
閉藏	-11.591
牙齒	-11.5911
民災	-11.5911
背俞	-11.5912
太傅	-11.5913
洪範	-11.5913
侍郎	-11.5917
之秘	-11.5918
晨昏	-11.5918
感激	-11.5918
腰帶	-11.5919
循喉嚨	-11.5919
在中央	-11.5919
作法	-11.592
夫人諱	-11.5921
九百六	-11.5921
季脇	-11.5923
歲在	-11.5923
金木水火	-11.5924
三千八	-11.5926
八刻	-11.5929
開闢	-11.5929
返覆	-11.5931
但是	-11.5931
仰天	-11.5932
同歲會	-11.5932
李克用	-11.5933
月窟	-11.5933
頭項	-11.5933
還歸	-11.5935
上藥	-11.5936
調適	-11.5936
吴越	-11.5938
玄膺	-11.5938
得其道	-11.5939
禁忌	-11.5942
公主	-11.5942
左邊	-11.5943
之臣	-11.5944
玉訣	-11.5944
三尊	-11.5948
而不言	-11.5949
納甲	-11.5949
第二十	-11.595
相佐	-11.595
認取	-11.5953
不以爲	-11.5954
賢良	-11.5959
影響	-11.5959
天后	-11.596
虛寂	-11.596
仙鄉	-11.5961
披雲	-11.5963
對境	-11.5967
其力	-11.5967
慧照	-11.5968
佳也	-11.5969
火之候	-11.5969
玄風	-11.597
解云	-11.597
二十一日	-11.5971
心頭	-11.5971
設位	-11.5972
二百七	-11.5974
如前法	-11.5975
老子云	-11.5975
以濟	-11.5975
解穢	-11.5975
之生數	-11.5978
共工	-11.5979
而稱	-11.5981
山石	-11.5984
初之氣	-11.5984
何妨	-11.5985
伏尸	-11.5985
尺中	-11.5986
八千	-11.5987
驚異	-11.5987
髮白	-11.5988
言哉	-11.5988
落花	-11.5989
如左	-11.5992
雷聲	-11.5992
氣流行	-11.5995
章第三	-11.5995
而不動	-11.5996
陽眀	-11.5996
亦隨	-11.5998
照破	-11.5998
河北	-11.6002
癸火運	-11.6003
哀哉	-11.6004
西伯	-11.6008
内院	-11.6009
而成形	-11.6009
渾沌	-11.6009
頭建	-11.601
保舉	-11.601
返老	-11.6011
求福	-11.6015
上清眞人	-11.6016
受教	-11.602
而獲	-11.6021
黄庭經	-11.6021
心識	-11.6021
含靈	-11.6022
氷雪	-11.6023
吴起	-11.6026
行於地	-11.6027
哉吾	-11.6034
品物	-11.6037
不勤	-11.6037
刑德	-11.604
眞丹	-11.6042
相克	-11.6042
無爲而	-11.6043
妙法	-11.6044
同居	-11.6045
不孝	-11.6047
朱汞	-11.6051
數百人	-11.6051
七寸	-11.6051
不已則	-11.6052
即位	-11.6053
三百三	-11.6056
舉似	-11.6056
必知	-11.6057
所屬	-11.6058
木王	-11.6059
服元氣	-11.606
口乾	-11.6062
十天	-11.6063
觀古	-11.6064
筮之	-11.6064
玉闕	-11.6065
進賢	-11.6066
放開	-11.6066
人之有	-11.6067
六塵	-11.6068
于外	-11.607
附于	-11.6074
泉水	-11.6075
十六兩	-11.6076
民安	-11.6077
五城	-11.6077
可以治	-11.6079
寒寒	-11.6081
情懷	-11.6083
按其	-11.6085
陰陽二氣	-11.6087
沖天	-11.6089
利用	-11.6089
虚妄	-11.609
合氣	-11.609
於時	-11.6093
流俗	-11.6094
不傾	-11.6094
九野	-11.6095
煉已	-11.6095
舉家	-11.6096
處于	-11.6096
爲基	-11.6097
尸蟲	-11.6099
兩眉間	-11.6099
龍飛	-11.61
二千三	-11.61
九載	-11.6107
至丑	-11.6109
出現	-11.6111
路上	-11.6113
兵馬	-11.6114
相乘	-11.6115
鼻息	-11.6116
我我	-11.6117
並有	-11.6117
益壽	-11.612
問其故	-11.6123
終歸	-11.6124
古來	-11.6124
六紀	-11.6125
養志	-11.6125
三千里	-11.6128
只這	-11.6128
有黑氣	-11.6129
入鼎中	-11.613
足心	-11.6131
其骨	-11.6131
易形	-11.6134
清靈	-11.6137
天地之根	-11.6142
色脉	-11.6142
所修	-11.6142
於人也	-11.6143
漢末	-11.6145
太陽之精	-11.6145
會于	-11.6148
大慈	-11.6149
所託	-11.6153
死尸	-11.6155
相攻	-11.6156
即捻	-11.6158
自極	-11.6162
悲哉	-11.6163
二百九	-11.6165
默然	-11.6166
可惜	-11.6166
大將	-11.6169
之生也	-11.6169
悲夫	-11.6169
二隂	-11.6172
舉動	-11.6172
水中金	-11.6174
順則	-11.6174
赫然	-11.6175
十二部	-11.6176
山上有	-11.6176
金庭	-11.6179
重濁	-11.6181
己身	-11.6182
太歲	-11.6182
仲春	-11.6184
注中	-11.6185
元嘉	-11.6185
天根	-11.6185
祥雲	-11.6187
然而然	-11.6188
有殊	-11.6193
河之	-11.6195
肝脾	-11.6196
位至	-11.6198
吾師	-11.6198
有道者	-11.6199
先生受	-11.6201
丹家	-11.6201
章第五	-11.6203
不齊	-11.6207
自記	-11.6213
心胷	-11.6215
今反	-11.6216
氣不行	-11.6217
遣使	-11.6218
耳聽	-11.6219
而多	-11.6223
鄭君	-11.6223
陰君	-11.6232
性理	-11.6232
漬之	-11.6234
喉中	-11.6234
乾金	-11.6237
古道	-11.6248
仙女	-11.625
授子	-11.6251
沌	-11.6253
有待	-11.6256
只知	-11.6256
焚之	-11.6263
積年	-11.6263
而至於	-11.6264
非類	-11.6265
而咽之	-11.6269
交相	-11.627
跗	-11.6271
露出	-11.6272
不被	-11.6274
杵	-11.6279
不可輕	-11.628
理會	-11.6281
可以除	-11.6283
紅光	-11.6283
者也經曰	-11.6286
紫衣	-11.6286
之行也	-11.6286
之時皆	-11.6288
善事	-11.6288
皆空	-11.6289
陰消	-11.629
之資	-11.6294
三百六	-11.6296
不滯	-11.6297
公侯	-11.6297
金臺	-11.6299
又加	-11.63
心拜	-11.63
何等	-11.6303
去就	-11.6305
第二十四	-11.6313
色見	-11.6317
血流	-11.6318
春歸	-11.6321
素書	-11.6325
者即是	-11.6325
在位	-11.6331
皆知	-11.6331
結實	-11.6332
玉書	-11.6332
手書	-11.6333
奪得	-11.6335
之類皆	-11.6336
之輩	-11.6338
丹光	-11.6339
而後生	-11.6339
嘿庵	-11.6341
眞鈆	-11.6342
甚難	-11.6342
各守	-11.6345
景象	-11.6346
常常	-11.6347
從何而	-11.6347
風飄	-11.6347
觀夫	-11.6348
檄	-11.6349
了心	-11.6351
益甚	-11.6351
好學	-11.6351
六脉	-11.6357
蟹	-11.6357
紫宫	-11.6357
東風	-11.6358
之所能	-11.6359
跗上	-11.6359
衆神	-11.6359
乃佳	-11.636
之正位	-11.6362
毅	-11.6362
燿	-11.6369
嬴	-11.6369
參天	-11.637
銚	-11.6371
宣王	-11.6371
上道君	-11.6371
暨	-11.6371
黑汞	-11.6372
絮	-11.6373
渺渺	-11.6374
叡	-11.6375
開發	-11.6375
於其間	-11.6376
炫	-11.6376
犯者	-11.6376
尖	-11.6376
南方赤	-11.6377
甌	-11.6377
乂	-11.6377
揀	-11.6377
瞋	-11.6377
呌	-11.6378
其要在乎	-11.6378
煮	-11.6378
以防	-11.6379
邃	-11.6379
寵辱	-11.638
贖	-11.638
晉	-11.638
空青	-11.638
眞人星	-11.638
抱元守一	-11.638
惺惺	-11.6381
償	-11.6382
訾	-11.6382
璈	-11.6382
塘	-11.6382
佯	-11.6383
三百八十四	-11.6383
衿	-11.6383
鷹	-11.6383
下迎	-11.6383
慣	-11.6384
夫道者	-11.6384
流金火鈴	-11.6384
仿	-11.6384
谷神不死	-11.6385
䖍	-11.6386
絆	-11.6386
誼	-11.6386
泮	-11.6387
咀	-11.6387
前篇	-11.6388
大笑	-11.6388
幅	-11.6389
眞誥卷之十	-11.6389
宣行	-11.639
裊	-11.639
鯀	-11.639
田𧖟	-11.639
狩	-11.6391
鬼臾區	-11.6391
稚川	-11.6391
以付	-11.6392
驥	-11.6393
是也䟽曰	-11.6393
蝦	-11.6393
三日三夜	-11.6393
屋宇	-11.6393
覆藉	-11.6394
五日一候	-11.6394
淖	-11.6394
溽	-11.6395
飛金晶	-11.6395
金闕右卿司命蓬萊都水	-11.6395
烝	-11.6395
匙	-11.6395
穗	-11.6395
側卧	-11.6395
睢	-11.6395
榆莢	-11.6396
瘍	-11.6396
螺	-11.6396
野戰	-11.6397
清靈眞人	-11.6397
駢	-11.6397
湧泉	-11.6398
田蠶	-11.6398
冗	-11.6399
收斂	-11.6399
耳目聦明	-11.64
二穴在足	-11.64
在何處	-11.64
雲篆	-11.64
琮	-11.6401
藕	-11.6401
哂	-11.6402
金闕帝君	-11.6402
孫絡	-11.6402
猷	-11.6402
金液神丹	-11.6402
宛轉	-11.6403
惕	-11.6403
庇	-11.6404
旂	-11.6404
法事	-11.6404
昺	-11.6405
地形	-11.6406
五行顛倒	-11.6407
黄帝問曰	-11.6407
𦙄中	-11.6407
未全	-11.6409
周帀	-11.6409
譆	-11.641
風化八	-11.641
盈縮	-11.6411
伊川擊壤集卷之十	-11.6411
莊子云	-11.6414
毫髮	-11.6414
先言	-11.6414
凝然	-11.6415
觸類	-11.6415
内想	-11.6415
苦熱	-11.6416
足脛	-11.6416
珍寳	-11.6417
倮	-11.6417
從兆泥丸中入下布兆	-11.6417
太角初	-11.6417
化機	-11.6418
仲夏	-11.6418
遟	-11.6419
本位	-11.6419
指歸	-11.6421
地裂	-11.6421
無毒	-11.6422
吉祥	-11.6422
禍患	-11.6423
謹按	-11.6423
章第一	-11.6424
延齡	-11.6427
食頃	-11.6428
勿泄	-11.6431
五華	-11.6432
流浪	-11.6432
拔晋	-11.6433
玉局	-11.6435
君王	-11.6436
子母相	-11.6436
金鎖流珠引卷之	-11.6442
甲乙經作	-11.6443
但言	-11.6445
祖師云	-11.6445
肝膽	-11.6448
朱陵	-11.6449
翠微	-11.6453
然後能	-11.6453
必獲	-11.6453
何也答云	-11.6454
碧海	-11.6456
玄丹宫	-11.6457
循臂	-11.646
有毒	-11.646
三千七	-11.6461
在物	-11.6461
三千九	-11.6462
九百九	-11.6464
第二十三	-11.6465
狀貌	-11.6466
寒化六	-11.6466
無累	-11.6467
五藏六府之	-11.6468
十翼	-11.6469
口授	-11.6471
氣不散	-11.6472
上造	-11.6472
仍須	-11.6475
時雨	-11.6475
應機	-11.6476
三千二	-11.6477
寂滅	-11.6477
死灰	-11.6478
隨分	-11.6478
達士	-11.6478
以此爲	-11.6479
朝拜	-11.648
修學	-11.648
樵人	-11.6483
禍害	-11.6483
九光	-11.6483
所述	-11.6484
返本	-11.6485
住處	-11.6486
開悟	-11.6486
崑山	-11.6488
悲則	-11.6488
保精	-11.6488
昔黄帝	-11.6489
幽室	-11.6489
留七呼	-11.649
有大小	-11.6492
勸君	-11.6492
背上	-11.6492
勞苦	-11.6493
正謂	-11.6493
部分	-11.6493
峨嵋山	-11.6493
庚申日	-11.6497
萬乘	-11.6499
之歲也	-11.65
眞息	-11.6501
照臨	-11.6503
爭似	-11.6505
小吉	-11.6505
巨虚	-11.6505
壬寅癸卯甲辰乙巳丙午丁未戊申己酉	-11.6505
各依	-11.6507
可見矣	-11.6508
丹爐	-11.651
靈應	-11.6511
冬氣	-11.6511
容色	-11.6512
宣通	-11.6512
凶人	-11.6513
而産	-11.6513
聲聞	-11.6514
嚥焉	-11.6515
合而爲一	-11.6515
功畢	-11.6516
斗星	-11.652
鼎器歌	-11.6521
暴雨	-11.6522
彭祖	-11.6523
刻石	-11.6524
數十年	-11.6526
莫如	-11.653
洞陽	-11.6531
符籙	-11.6532
戊已	-11.6533
衣黄	-11.6536
眞符	-11.6536
眼目	-11.6538
爻動	-11.6539
不得卧	-11.6542
青鳥	-11.6543
而況	-11.6544
足太陽脉	-11.6546
童蒙	-11.6548
誅之	-11.6551
泉源	-11.6551
第二十二	-11.6552
堅强	-11.6552
玉户	-11.656
雖殊	-11.6561
故其脉	-11.6561
本始	-11.6561
早起	-11.6562
衝天	-11.6564
景王	-11.6565
泄漏	-11.6566
自滅	-11.6568
之驗也	-11.6569
以道爲	-11.657
理國	-11.657
晋王	-11.6571
之𩔖	-11.6571
各從	-11.6572
忘心	-11.6572
神之舍	-11.6573
三彭	-11.6574
寄位	-11.6575
玄霜	-11.6581
漢武	-11.6582
之力也	-11.6583
四百八	-11.6588
以爲常	-11.6588
九度	-11.659
陰陽造化	-11.6593
者氣也	-11.6594
自除	-11.6594
固守	-11.6595
大疫	-11.6596
二弦	-11.6597
昔年	-11.6598
所生也	-11.6599
其爻	-11.66
何憂	-11.6602
六旬	-11.6602
屬隂	-11.6605
而觀之	-11.6606
生生之	-11.6606
五色雲	-11.661
十一年	-11.661
閑人	-11.6611
風濕	-11.662
可以已	-11.6625
深根	-11.6629
抑亦	-11.6632
不育	-11.6637
味鹹	-11.6637
氣泄	-11.6641
還童	-11.6656
野人	-11.6659
墓在	-11.6662
不消	-11.6665
主客	-11.6666
師父	-11.6666
鮮明	-11.6667
散亂	-11.6672
惠王	-11.6674
紫蓋	-11.6681
二十分	-11.6682
絶學	-11.6685
産於	-11.6685
配衣轉天關	-11.6686
其色黑	-11.6686
有差	-11.6687
風塵	-11.6688
鍊鉛	-11.6689
充實	-11.6692
神廬	-11.6694
氣三咽止便讀玉經畢又祝曰	-11.6698
明德	-11.6698
起伏	-11.6698
主領	-11.6701
今按	-11.6703
一團	-11.6705
失度	-11.6709
飛玄	-11.6709
報應	-11.671
主宰	-11.6714
眞宰	-11.6714
九祖	-11.6714
符契	-11.6715
兖	-11.6716
幽人	-11.6716
精凝	-11.6719
玉經	-11.6722
陽德	-11.6723
而授	-11.6725
相刑	-11.6725
血肉	-11.673
大淵	-11.6732
禮智	-11.6733
將吏	-11.6733
最難	-11.6734
固際	-11.6734
入丹田	-11.6735
一百二	-11.6736
脅痛	-11.6736
雲笈七籤卷之六十	-11.6737
與天地合	-11.6738
彼我	-11.6739
故君子	-11.6742
聖母	-11.6746
道樞	-11.6748
而後有	-11.6748
亦宜	-11.6753
雲笈七籤卷之七十	-11.6754
於心心	-11.6754
之爲病	-11.6761
後聖君曰	-11.6761
不熱	-11.6762
不欺	-11.6766
居焉	-11.6768
悉是	-11.6769
大怒	-11.6771
一百五十二	-11.6776
兵于	-11.678
内熱	-11.6781
四十里	-11.6785
改易	-11.6786
過爲一	-11.6786
有白氣	-11.6786
義同	-11.6791
林中	-11.6792
甚易	-11.6796
淮南子	-11.6796
遭遇	-11.68
擊之	-11.6801
渡江	-11.6807
九卷	-11.6808
本體	-11.6811
結丹	-11.6811
肢體	-11.6816
切須	-11.6816
財色	-11.6816
黄黑	-11.6818
其効	-11.6822
不遺	-11.6824
旋轉	-11.6831
豈是	-11.6832
獨處	-11.6833
平常	-11.6836
無爲者	-11.6836
歸家	-11.6838
丹服之	-11.6841
安用	-11.6842
外書	-11.6843
豈容	-11.6852
之兆也	-11.6852
名位	-11.6852
之歲上見	-11.6854
環中	-11.6855
改元元	-11.6857
神與氣	-11.6859
言汞	-11.6861
等法	-11.6862
爻辭	-11.6863
損傷	-11.6863
孚	-11.6867
市中	-11.6867
火輪	-11.6869
入于中宫	-11.687
三歩九跡	-11.6873
寒甚	-11.6873
由來	-11.6875
訖又	-11.6878
晦日	-11.6879
儼	-11.688
純一	-11.6881
青黑	-11.6881
血泄	-11.6882
字伯	-11.6883
半月	-11.6884
窈	-11.6892
不殊	-11.6896
躔	-11.6897
謂金水	-11.6898
髦	-11.69
過于	-11.69
鯉	-11.6902
紫光	-11.6902
不患	-11.6902
翱翔	-11.6903
混同	-11.6904
罹	-11.6904
留三呼若灸者可灸三壯	-11.6904
軒冕	-11.6904
迄	-11.6905
依韻和	-11.6905
褥	-11.6906
覷	-11.6906
稔	-11.6906
留六呼若灸者可灸三壯	-11.6906
麻姑	-11.6907
佇	-11.6907
象帝之先	-11.6907
則死矣	-11.6908
緇	-11.6908
結而成	-11.6908
金璫	-11.6908
無爲而無不爲	-11.6908
南流注于	-11.6909
綿綿若存	-11.6909
裸	-11.691
臉	-11.6911
松脂	-11.6911
璇	-11.6911
渝	-11.6912
蚯蚓	-11.6912
杳杳	-11.6912
慼	-11.6912
庖	-11.6912
黄帝内經素問補註釋文卷之十	-11.6913
畝	-11.6913
隘	-11.6913
煉成	-11.6914
昰	-11.6914
矧	-11.6914
我命在我	-11.6914
臭腐	-11.6916
倩	-11.6916
炬	-11.6917
汲汲	-11.6917
帝曰治之奈何岐伯曰	-11.6918
章第八	-11.6918
拔宅上昇	-11.6918
河上公	-11.6919
捍	-11.6919
狙	-11.6919
黄帝曰余聞	-11.6919
忖	-11.6919
衹	-11.6919
明月清風	-11.6919
嚙	-11.692
紆	-11.692
猛烈	-11.692
頁	-11.692
化萬物	-11.692
臊	-11.692
螻	-11.6921
嶠	-11.6921
瘳	-11.6921
菀	-11.6921
金鐺	-11.6921
非有非無	-11.6921
欄	-11.6922
古之人	-11.6922
正化令實	-11.6922
鑊	-11.6923
靈飛六甲	-11.6923
糾	-11.6923
需	-11.6923
皇甫	-11.6923
苟有	-11.6923
千山	-11.6923
菖蒲	-11.6925
匈奴	-11.6926
滌除	-11.6926
峨	-11.6926
冰雹	-11.6927
滲泄	-11.6927
劉裕	-11.6927
益氣	-11.6928
勘破	-11.6929
周匝	-11.6929
憔悴	-11.6931
道經云	-11.6931
文理	-11.6932
純熟	-11.6932
周穆王	-11.6934
大杼	-11.6934
掃除	-11.6934
東方朔	-11.6934
巫咸	-11.6935
天門冬	-11.6935
燕雀	-11.6935
豁落	-11.6936
手少隂	-11.6938
百千萬	-11.6938
殺生	-11.6939
勗	-11.6939
嗔怒	-11.6939
馬丹陽	-11.6939
牡丹	-11.6939
桃康	-11.694
雞鳴	-11.694
二十餘	-11.694
賣藥	-11.694
無罪	-11.6941
分毫	-11.6941
忌諱	-11.6942
念佛	-11.6942
於此時	-11.6942
散落	-11.6943
赤金	-11.6943
般運	-11.6944
桃源	-11.6944
滋榮	-11.6944
可取	-11.6944
在掌後	-11.6946
思想	-11.695
寰中	-11.6951
紫霄	-11.6951
銅器中	-11.6952
妻妾	-11.6952
豈謂	-11.6952
五行四象	-11.6954
在心中	-11.6955
桓温	-11.6955
變而成	-11.6957
王方平	-11.6958
下品	-11.6958
漢武帝	-11.6959
從何	-11.696
青松	-11.6961
變化無窮	-11.6961
脉法	-11.6962
湯液	-11.6963
土生金	-11.6964
不得已而	-11.6967
火鈴	-11.6969
日新	-11.6969
大驗	-11.697
丁木運	-11.6971
毒蛇	-11.6973
强弱	-11.6973
水竹	-11.6974
太皇	-11.6978
漏刻	-11.6978
王公	-11.6978
陰蹻	-11.6979
有盛衰	-11.698
和暢	-11.6981
殊途	-11.6981
太霞	-11.6981
閑來	-11.6982
黄巢	-11.6983
建業	-11.6983
四象五行	-11.6984
項羽	-11.6984
非理	-11.6984
留連	-11.6987
郄中	-11.6988
摇動	-11.6988
忽忽	-11.6989
成大丹	-11.6991
鼻内氣	-11.6991
離中之	-11.6993
亦無所	-11.6993
金丹大道	-11.6994
昊天	-11.6995
焚身	-11.6996
霍亂	-11.6997
樓觀	-11.6997
教門	-11.7
憂患	-11.7
思量	-11.7001
應四時	-11.7004
無所不通	-11.7004
伐秦	-11.7008
眞妃	-11.7008
堅剛	-11.7008
氣上升	-11.7009
將軍吏兵	-11.701
非吾	-11.7011
年乙未丙申丁酉戊戌己亥庚子辛丑	-11.7012
爲人所	-11.7014
朝朝	-11.7014
甘泉	-11.7016
清爽	-11.7016
三千六	-11.7017
慶雲	-11.7017
十八年	-11.7018
伏梁	-11.7019
功過	-11.7021
如何得	-11.7025
陳留	-11.7026
大椎	-11.7027
說法	-11.7027
天關星	-11.7028
漢時	-11.7031
三境	-11.7032
清潔	-11.7033
友人	-11.7033
繫於	-11.7036
其象如	-11.7037
火盛	-11.7038
三千五	-11.7039
西江	-11.7041
胃脉也	-11.7043
周遍	-11.705
無價	-11.705
五香	-11.7052
矣雲牙子曰	-11.7053
錬神	-11.7056
東流	-11.7056
幽關	-11.7058
爭如	-11.7058
惡血	-11.7059
清平	-11.706
十有四	-11.7061
不暇	-11.7063
黄帝内經素問補註釋文卷之三十	-11.7064
通塞	-11.7065
勞形	-11.7065
說破	-11.7067
鸞鳳	-11.7069
之家	-11.707
濟度	-11.707
不幸	-11.7073
入兵	-11.7073
已具	-11.7073
先定	-11.708
尚未	-11.7085
世尊	-11.7086
何者爲	-11.7087
千斤	-11.7087
蒼蒼	-11.7087
諸藏	-11.7091
洞宫	-11.7092
凝精	-11.7094
三千三	-11.7098
萬機	-11.7099
于長安	-11.71
消亡	-11.71
河水	-11.7107
簡文	-11.7109
面赤	-11.7111
之元也	-11.7113
此訣	-11.7114
忽聞	-11.7114
虛白	-11.7115
無蹤	-11.7118
馬齒	-11.7118
即今之	-11.7121
史記	-11.7122
所稱	-11.7125
下泄	-11.7125
開眼	-11.7126
長生神仙	-11.7126
消陰	-11.7127
三十二分	-11.7128
眞機	-11.7129
原其	-11.713
潜藏	-11.7132
不言而	-11.7134
四邊	-11.7134
却老	-11.7135
留七呼若灸者可灸三壯	-11.7138
至三十日	-11.7142
灰心	-11.7144
陰陽合	-11.7146
河伯	-11.7152
利物	-11.7156
失正	-11.7157
居其中	-11.7163
餘事	-11.7163
辟邪	-11.7164
苟能	-11.7165
玉虛	-11.7167
上尸	-11.717
席上	-11.717
不摇	-11.717
千千	-11.7171
丹房	-11.7173
伏制	-11.7174
八威	-11.7176
至真	-11.7178
張紫陽	-11.718
靈泉	-11.7186
幾時	-11.7188
不見有	-11.7192
思惟	-11.7194
等物	-11.7195
問曰若	-11.7195
黄民	-11.7196
三元君	-11.7197
五岳	-11.7197
相伐	-11.7197
元亨	-11.7198
雲牙子曰	-11.7201
符吏	-11.7203
登明	-11.7203
瀟	-11.7206
水陸	-11.7208
常須	-11.7208
也若能	-11.7209
離離	-11.7214
善養	-11.722
同源	-11.7225
爲大將軍	-11.7225
喻如	-11.7227
之門也	-11.723
老氏之	-11.7233
於靜室	-11.7233
豈止	-11.7234
客氣	-11.7236
十四二十	-11.724
論篇	-11.724
虚虚	-11.7241
修持	-11.7241
雲笈七籤卷之八十	-11.7242
天衢	-11.7243
篇第十	-11.7244
少室	-11.7245
虛極	-11.7246
老君授	-11.7248
也若以	-11.7258
江淮	-11.7258
猶存	-11.726
若然者	-11.7261
定志	-11.7262
心源	-11.7266
不願	-11.7274
令燥	-11.7283
脉盛	-11.7286
法術	-11.7286
神仙傳	-11.7287
初受	-11.7287
順陰陽	-11.7288
末後	-11.7289
眞宗	-11.729
者也是以	-11.7292
大劫	-11.7294
關閉	-11.7294
爲天子	-11.7296
之内有	-11.7296
後三年	-11.7298
氣也氣	-11.7299
黄老君	-11.73
病生於	-11.7305
三十二天	-11.7308
元帝	-11.7309
太上皇	-11.7309
痹者	-11.731
敢不	-11.7314
除去	-11.7316
五藏皆	-11.7316
宫觀	-11.7321
商陽	-11.7321
造次	-11.7322
奏章	-11.7323
在身中	-11.7323
右二條	-11.7326
十八分	-11.7328
鎭我	-11.7329
無爲之道	-11.7329
苟非	-11.733
一葉	-11.733
威神	-11.7331
布氣	-11.7332
於北方	-11.7336
相顧	-11.7337
庶人	-11.7337
二十有五	-11.7338
百數	-11.734
病處	-11.7344
傳之於	-11.7346
異處	-11.7357
帝曰何謂	-11.7362
形似	-11.7363
金谷	-11.7364
殊無	-11.7367
吾昔	-11.737
眞境	-11.7371
來居	-11.7374
八十有一	-11.7384
令熱	-11.7385
難尋	-11.7388
絶穀	-11.7391
三焦者	-11.7396
吾心	-11.7397
成還丹	-11.74
悟來	-11.7402
也或問曰	-11.7418
百八十	-11.7419
羽服	-11.742
道樞卷之十	-11.742
發散	-11.7421
溺於	-11.7421
明朗	-11.7423
知其所	-11.7425
戰于	-11.7427
羅浮	-11.7436
陛	-11.7437
矣黄帝曰	-11.7438
舉足	-11.7443
祇	-11.7443
東方甲乙	-11.7444
章第九	-11.7445
叅同契	-11.7447
西方庚辛	-11.7447
三元將軍	-11.7447
尺五寸	-11.7447
而不息	-11.7451
姑射	-11.7452
瑰	-11.7453
運交時面向	-11.7454
所以謂之	-11.7455
酪	-11.7455
舐	-11.7455
妓	-11.7456
厮	-11.7456
圈	-11.7456
杲	-11.7456
煴	-11.7456
遇師	-11.7457
父母未生	-11.7457
愠	-11.7457
清香	-11.7458
轆轤	-11.7458
壷	-11.7459
笋	-11.7459
脉動	-11.746
搐	-11.7461
赤石脂	-11.7462
薄蝕	-11.7462
魍魎	-11.7462
塔	-11.7462
一切常人	-11.7462
昏衢	-11.7463
晞	-11.7463
一陽初動	-11.7464
青木香	-11.7464
兜	-11.7464
釀	-11.7464
麒麟	-11.7465
躄	-11.7465
太沖	-11.7465
戎鹽	-11.7465
藜	-11.7465
跌	-11.7465
分肉之間	-11.7465
鏤	-11.7465
南華老仙	-11.7466
愉	-11.7466
殫	-11.7466
少俞曰	-11.7467
椀	-11.7467
毓	-11.7467
未解	-11.7467
四百里曰	-11.7467
貺	-11.7468
西江月	-11.7468
竹帛	-11.7469
醪	-11.7469
哩	-11.7469
自上而下	-11.747
髁	-11.747
械	-11.747
六元正紀大論	-11.747
勛	-11.747
嵓	-11.747
爇	-11.7471
王子喬	-11.7471
鼽衂	-11.7471
雎	-11.7471
異於常	-11.7471
正化盛而實勝而不復	-11.7472
䑕	-11.7472
桐柏	-11.7472
蓽	-11.7472
后妃	-11.7472
此資生第三元	-11.7473
鴆	-11.7473
役使鬼神	-11.7473
瓷	-11.7473
梧桐	-11.7473
葛洪	-11.7474
痞	-11.7474
左足躡	-11.7474
嗇	-11.7474
歴	-11.7474
小指次指	-11.7474
膊	-11.7475
地下主者	-11.7475
于秦	-11.7475
不慮	-11.7475
何以明之	-11.7475
鈔	-11.7475
硝石	-11.7476
痰	-11.7476
硇砂	-11.7476
伊川邵雍堯夫	-11.7477
愕	-11.7477
至簡至易	-11.7477
机	-11.7477
薺	-11.7478
餉	-11.7478
自古及今	-11.7478
旛	-11.7479
押	-11.7479
夙夜	-11.7479
盤桓	-11.7479
嬌女	-11.7479
淡泊	-11.748
沿	-11.7481
嘔吐	-11.7481
中華仙人李淳風注	-11.7481
群魔	-11.7482
痤	-11.7483
醮祭	-11.7483
瑋	-11.7483
貧窮	-11.7483
未央	-11.7484
腦髓	-11.7484
深思	-11.7484
潁川	-11.7485
奇耦	-11.7486
聶	-11.7486
太一眞君	-11.7486
在海中	-11.7486
泡	-11.7487
刑罰	-11.7487
語云	-11.7488
岷山	-11.7488
屋宅	-11.7489
斡運	-11.7489
一月三十日	-11.749
所造	-11.7491
皆悉	-11.7491
絳闕	-11.7491
知識	-11.7491
白日昇仙	-11.7493
縉雲	-11.7494
曝乾	-11.7494
蘭臺	-11.7494
以胃氣爲本	-11.7495
靈樞經	-11.7496
致死	-11.7497
玉蘂	-11.7497
楊柳	-11.75
之别名	-11.75
澤瀉	-11.7501
五日一	-11.7502
氣上騰	-11.7503
香臭	-11.7505
皎然	-11.7507
秘訣	-11.7508
恬然	-11.7509
旁通	-11.7509
中孚	-11.751
戰爭	-11.751
百般	-11.7511
等分	-11.7512
瑩徹	-11.7512
春三月	-11.7513
郞君	-11.7513
爲婦	-11.7514
謀慮	-11.7514
山源	-11.7515
顯出	-11.7516
被髮	-11.7516
委羽	-11.7516
道樞卷之三十	-11.7517
施惠	-11.7517
文義	-11.7517
護持	-11.7518
徙都	-11.7519
輕健	-11.752
長嘯	-11.752
紫瓊	-11.752
遂使	-11.7522
五十五數	-11.7523
四皓	-11.7524
飄風	-11.7525
滿鼎	-11.7526
比喻	-11.7527
支節	-11.7529
昏迷	-11.7529
烹鍊	-11.753
半寸	-11.7532
專一	-11.7533
丁寧	-11.7533
假名	-11.7534
内踝上	-11.7535
内屬於	-11.7535
王夫人	-11.7535
他物	-11.7536
天火燒	-11.7538
補腦	-11.7538
充盈	-11.7539
終南山	-11.7539
焕然	-11.7539
正月一日	-11.7541
與之俱	-11.7542
削去	-11.7543
所以者何	-11.7543
萬惡	-11.7544
去奢	-11.7545
出其血	-11.7549
密室	-11.7549
智伯	-11.7549
亦似	-11.755
火滅	-11.7551
成數也	-11.7552
相資	-11.7554
桂心	-11.7557
既分	-11.7558
沖虚	-11.7558
大羽	-11.7559
目擊	-11.756
趙州	-11.756
試問	-11.7561
兩眉	-11.7562
少卿	-11.7563
異端	-11.7564
日中時	-11.7565
雲駕	-11.7569
八瓊	-11.7571
三才萬物	-11.7574
劫運	-11.7575
豈不聞	-11.7577
一本云	-11.7579
伐楚	-11.7581
隨機	-11.7583
泰卦	-11.7583
道友	-11.7583
日夜半時	-11.7587
閉關	-11.7587
横流	-11.7588
沉沉	-11.7591
中庸	-11.7593
陽在下	-11.7593
符命	-11.7593
斗魁	-11.7595
也老子曰	-11.7597
救治	-11.7598
郡人	-11.7598
善怒	-11.7599
爲地仙	-11.7599
眞君降言曰	-11.76
顯露	-11.7601
口口	-11.7604
盈滿	-11.7604
頭風	-11.7605
水之精	-11.7606
尤甚	-11.7607
拂子	-11.7609
解釋	-11.7609
垂象	-11.761
仰視	-11.7611
之處也	-11.7611
天地之大	-11.7612
代代	-11.7617
輔星	-11.762
受水穀	-11.762
除害	-11.7623
冬至日	-11.7623
隂年不及故少	-11.7623
虚无	-11.7624
入于泥丸	-11.7624
右脇	-11.7625
萬卷	-11.7625
通神明	-11.7625
大梁	-11.7627
消災	-11.7628
扶風	-11.7629
服御	-11.7629
足跗	-11.7636
入天門	-11.7636
靜靜	-11.7642
傷於寒	-11.7643
保生	-11.7646
幾乎	-11.7647
午之時	-11.7648
陰維	-11.7653
也此卦	-11.7653
非徒	-11.7654
乃天地之	-11.7654
號令	-11.7658
如其言	-11.7661
汝南	-11.7661
天台山	-11.7663
傳受	-11.7665
詩書	-11.7665
對面	-11.7666
後果	-11.7667
譬若	-11.7672
篇黄帝問曰	-11.7672
見贈	-11.7675
而不死	-11.7677
不離乎	-11.7678
扶持	-11.7678
化育	-11.7681
玄泉	-11.7681
要須	-11.7685
神龜	-11.7686
列位	-11.7687
禁制	-11.7691
疾苦	-11.7693
上黨	-11.7693
掛一	-11.7695
牀上	-11.7696
云修行之人	-11.7699
臣某	-11.7701
坤坤	-11.7701
序云	-11.7702
不營	-11.7703
太過即	-11.7704
失色	-11.7704
絶塵	-11.7705
相錯	-11.7706
南辰	-11.7707
含元	-11.771
由此則	-11.7718
長生藥	-11.7719
鍊心	-11.7719
亡後	-11.772
相濟	-11.772
弘道	-11.772
九泉	-11.7722
何以知之	-11.7722
苦味	-11.7723
一陰生	-11.7723
紫炁	-11.7723
方隅	-11.7723
九蟲	-11.7725
緩者	-11.7731
味酸	-11.7731
一日十二時	-11.7732
偶然	-11.7735
遇明師	-11.7738
反復	-11.774
精髓	-11.7745
合天符	-11.7748
黄帝内經靈樞集註卷之	-11.7749
内應	-11.7754
息息	-11.7755
離卦	-11.7756
火之精	-11.7756
浩氣	-11.7761
注解	-11.7762
大凉	-11.7765
七十日	-11.7767
凡聖	-11.777
何以爲	-11.7774
洞口	-11.7774
人之生	-11.7778
温和	-11.7778
雲笈七籤卷之九十	-11.7785
朔望	-11.7787
丹頭	-11.7798
居中央	-11.7799
關奏	-11.7802
精竭	-11.7805
伐宋	-11.7808
具在	-11.7809
乆矣	-11.7811
相搏	-11.7811
也師云	-11.7819
血液	-11.7824
靈異	-11.7831
失位	-11.7832
不然則	-11.7834
人刀支	-11.7835
問其所	-11.7835
狀似	-11.7836
若有所	-11.7849
卦三	-11.7849
肩上	-11.7852
左右各	-11.7855
會齊	-11.786
吉解曰	-11.786
防風	-11.7865
此竅	-11.7865
無厭	-11.7868
窮通	-11.7871
哉然	-11.7872
起坐	-11.7873
更須	-11.7881
玉簡	-11.7885
他方	-11.7886
拘制	-11.7888
右三條	-11.7888
求事	-11.789
葛玄	-11.7892
不涉	-11.7894
素問六氣玄珠宻語卷之	-11.7894
陰鬼	-11.7906
官屬	-11.7906
顔如	-11.7907
道樞卷之二十	-11.7907
之祖也	-11.7907
象先	-11.7919
未了	-11.7922
磁	-11.7925
世情	-11.7925
頓覺	-11.7926
脇下	-11.793
仞	-11.7939
子姓	-11.7945
中田	-11.7948
仙樂	-11.795
源流	-11.795
漸成	-11.7954
天英	-11.7954
内針	-11.7955
尋思	-11.7962
陳平	-11.7962
石虎	-11.7963
上卿	-11.7964
二百里	-11.7966
乘風	-11.7966
嬰童	-11.7968
乾燥	-11.7976
人之生也	-11.7978
靈關	-11.7979
者陽之	-11.7982
所以知	-11.7983
黄帝内經素問補註釋文卷之四十	-11.7984
底人	-11.7989
十二跡	-11.7998
三十里	-11.7999
甲兵	-11.8
窮極	-11.8004
尚可	-11.8006
驪	-11.8007
之根源	-11.8012
六變	-11.8012
林間	-11.8013
陰陽應象大論	-11.8015
八尺	-11.8017
其所以	-11.8018
白素	-11.8018
虚損	-11.802
雲笈七籖卷之四十	-11.802
孺	-11.8022
學之士	-11.8023
嫉妬	-11.803
愼無	-11.8031
以成其	-11.8031
▲	-11.8033
數終	-11.8033
得火而	-11.8034
淫泆	-11.8038
挑	-11.8038
枷	-11.8039
釁	-11.8039
瘴	-11.804
罅	-11.804
日再服	-11.804
泳	-11.804
敝	-11.8041
肘後飛金晶	-11.8043
溉	-11.8043
輻輳	-11.8044
又東五百里曰	-11.8044
晁	-11.8045
踪	-11.8045
鬛	-11.8045
詹	-11.8046
巵	-11.8046
嵯峨	-11.8046
琢齒	-11.8046
壠	-11.8047
甄	-11.8047
迺	-11.8048
洿	-11.8048
鴉	-11.8048
毫針	-11.8049
咬	-11.8049
天眞皇人	-11.8049
古先至人	-11.8049
一角	-11.8049
旬有五日	-11.8049
庚辰辛巳壬午癸未甲申乙酉丙戌丁亥	-11.805
脉之所入也刺可入同身寸之	-11.805
浣	-11.805
諍	-11.805
棹	-11.8051
犍	-11.8051
膳	-11.8051
轟	-11.8051
咽液九過	-11.8052
蒨	-11.8052
還源篇	-11.8052
縁督子	-11.8052
畒	-11.8053
胂	-11.8054
叩齒二十四通	-11.8054
窠	-11.8054
森羅	-11.8054
塩	-11.8054
纒	-11.8054
彷彿	-11.8054
七百七	-11.8054
應驗	-11.8054
淅	-11.8054
渌	-11.8055
疣	-11.8055
陶冶	-11.8055
悟眞篇	-11.8055
迦葉	-11.8055
眺	-11.8055
餚	-11.8056
抱朴子	-11.8056
逈	-11.8056
三尸九蟲	-11.8056
波濤	-11.8057
䆫	-11.8057
瑯	-11.8057
離騷	-11.8057
癇	-11.8057
鷗	-11.8058
寮	-11.8058
其鳥多	-11.8058
亥子	-11.8058
駮	-11.8058
先覺	-11.8058
諳	-11.8059
延年益壽	-11.8059
相得即小間小間即一間也地從奇即	-11.8059
婉	-11.8059
唐堯	-11.806
緻	-11.806
乾坤二卦	-11.806
翩翩	-11.806
黛	-11.806
其或未然	-11.806
蛙	-11.8061
此資生第二元	-11.8061
周天火候	-11.8061
芻	-11.8061
簮	-11.8061
葦	-11.8061
蹋	-11.8061
蓋謂此也	-11.8062
蹉跎	-11.8062
流水不冰	-11.8062
虞舜	-11.8062
翦	-11.8063
凖	-11.8063
葛仙公	-11.8063
唏	-11.8063
一點靈光	-11.8063
五常政大論	-11.8064
蕤	-11.8065
四旬有五日	-11.8065
無色界	-11.8065
堝	-11.8065
坡	-11.8065
丘長春	-11.8066
日月之精華	-11.8066
腸澼	-11.8066
玉版	-11.8066
絞	-11.8067
潦	-11.8067
急出之	-11.8067
匏	-11.8067
筋骸	-11.8067
複	-11.8067
葛藤	-11.8068
渟	-11.8068
仲甫	-11.8069
芝蘭	-11.8069
億劫	-11.8069
娠	-11.807
沽	-11.807
隗	-11.807
勤而行之	-11.807
宥	-11.8071
土數五	-11.8071
十二卦	-11.8071
不生不滅	-11.8071
萬杵	-11.8072
閬風	-11.8072
種植	-11.8072
穴名也	-11.8073
在其東	-11.8073
中品	-11.8074
寒氣客於	-11.8074
管仲	-11.8075
遊戲	-11.8075
鴈門	-11.8075
悲哀	-11.8075
晨夕	-11.8076
秦始皇	-11.8077
少昊	-11.8077
樽	-11.8077
八聲九聲	-11.8078
仲冬	-11.8078
而後可也	-11.8078
鷄鳴時	-11.808
先天一氣	-11.8081
柔軟	-11.8081
上下釜	-11.8081
興廢	-11.8082
孔竅	-11.8083
徒然	-11.8083
淹留	-11.8083
闈	-11.8085
萬里之外	-11.8085
九聲十聲	-11.8085
遊奕	-11.8086
遁甲	-11.8087
招眞	-11.8087
三丈	-11.8088
脉至如	-11.8088
渥	-11.8088
掖下	-11.8089
龢	-11.8089
嘔逆	-11.809
和諧	-11.8092
飛裙	-11.8092
之籍係色界	-11.8093
西方庚辛金	-11.8093
千般	-11.8093
鄆	-11.8093
形證	-11.8094
圉	-11.8095
太上老君告	-11.8096
止息	-11.8097
傷血	-11.8097
水灌	-11.8099
於腎腎	-11.8104
切忌	-11.8106
行之一年	-11.8106
暮卧	-11.8106
黄庭經曰	-11.8106
伯高曰	-11.8107
五方之	-11.8107
七百二十	-11.8108
憂愁	-11.8108
超脫	-11.8108
太一帝君	-11.8108
者其唯	-11.8115
寥天	-11.8116
暴亡	-11.8116
披衣	-11.8117
午之前	-11.8118
謹啓	-11.8118
未萌	-11.8119
第二十五	-11.812
象月	-11.8121
而修之	-11.8121
布政	-11.8121
五千言	-11.8122
母胞	-11.8123
洞曉	-11.8123
率性	-11.8129
晋改元	-11.8129
幽闕	-11.813
丈二尺	-11.8131
高卑	-11.8132
銀河	-11.8134
靈童	-11.8135
耗散	-11.8135
參同契云	-11.8139
怎生	-11.814
樓閣	-11.814
西川	-11.8141
三百六十五日	-11.8141
越州	-11.8142
萬品	-11.8146
城市	-11.8147
雲臺	-11.8148
際會	-11.8149
筋力	-11.815
五相類	-11.815
於子之時	-11.8153
玉枕	-11.8154
御女	-11.8156
洞臺	-11.8156
冬至之日	-11.8161
西域	-11.8161
成黄金	-11.8162
右脅	-11.8162
濁亂	-11.8164
道生一	-11.8164
河海	-11.8165
恩愛	-11.8166
有掾寫	-11.8166
滓穢	-11.8167
唯願	-11.8169
俟時	-11.817
獲罪	-11.817
務在	-11.8171
得道之人	-11.8175
潜伏	-11.8175
聖祖	-11.8177
寡欲	-11.8178
步斗	-11.8178
五十年	-11.8179
迴首	-11.8181
羅浮山	-11.8181
於中宫	-11.8181
百餘人	-11.8184
休休	-11.8185
貪求	-11.8186
冷熱	-11.8188
青蛇	-11.8188
大敦	-11.8188
家貧	-11.8193
日之光	-11.8195
家國	-11.8195
賔主	-11.8196
胠脅	-11.8197
興衰	-11.8197
註按	-11.8198
進士	-11.8199
安鎭	-11.8199
要法	-11.8201
少壯	-11.8201
東井	-11.8204
洞裏	-11.8204
庶物	-11.8204
力士	-11.8205
少男	-11.8205
外合於	-11.8207
香花	-11.8208
⬤⬤	-11.8209
鍊就	-11.821
西河	-11.8212
澄神	-11.8216
楚滅	-11.8216
王冰	-11.8227
之女也	-11.8229
洞照	-11.8235
傳於世	-11.8236
好花	-11.8237
改元大	-11.824
三九過	-11.8245
芝英	-11.8247
走失	-11.8249
宫商	-11.8249
變轉	-11.825
暖氣	-11.825
於皮膚	-11.825
利益	-11.8252
足少陰脉	-11.8255
第二十八	-11.8256
鼻口	-11.8257
隂陽俱	-11.8258
尋師	-11.8259
存其神	-11.8261
適意	-11.8262
五百六	-11.8262
二氣相	-11.8262
爲道者	-11.8263
天地之先	-11.8265
必資	-11.8265
兵亂	-11.8266
太白山	-11.8267
建武	-11.8267
不愼	-11.8268
先生問	-11.8268
更無别	-11.8271
以有爲	-11.8271
之名也	-11.8275
難易	-11.8277
快活	-11.8278
順四時	-11.8279
高宗	-11.8284
大率	-11.8284
靈胎	-11.829
無所歸	-11.8291
欲殺	-11.8291
交爭	-11.8298
帝問	-11.8306
清澄	-11.8306
胡王	-11.8309
心祝曰	-11.831
萬兵	-11.8314
玉臺	-11.832
達妙	-11.8323
光透	-11.8323
如黍米	-11.8326
傳付	-11.8327
開看	-11.8331
者精也	-11.8334
功効	-11.8342
未兆	-11.8344
邊際	-11.8347
任運	-11.8357
圖南	-11.8359
者腎也	-11.8359
丹霞	-11.8362
朱顔	-11.8367
此名爲	-11.8369
西門	-11.837
透入	-11.8373
容成	-11.8374
虛谷	-11.8377
針刺	-11.8378
漢劉	-11.8378
者身之	-11.838
求財	-11.8381
書記	-11.8381
原夫	-11.8382
火院	-11.8383
可測	-11.8386
大澤	-11.8387
非敢	-11.8389
乎其中矣	-11.8395
帝崩	-11.8404
受福	-11.8415
第二十七	-11.8419
兑金	-11.842
立到	-11.8421
燒丹	-11.8422
花枝	-11.8422
不欲食	-11.8424
外國	-11.8428
王之時	-11.8429
將兵	-11.8431
所親	-11.8434
者必先	-11.8436
初爻	-11.8438
之變也	-11.8441
于元宫	-11.8441
所告	-11.8442
草藥	-11.8444
覺性	-11.8449
之樞機	-11.8451
武夷	-11.8454
俱昇	-11.8463
華池神水	-11.8473
窮盡	-11.8479
家家	-11.8484
隂陽之氣	-11.849
則無以	-11.8492
發熱	-11.8492
不逾	-11.8493
不逮	-11.8493
侍從	-11.8496
岐伯曰夫	-11.8507
酒服	-11.851
三畫	-11.8511
下唱	-11.8513
聖人之心	-11.8516
攻其	-11.8517
聖德	-11.8519
身亡	-11.8522
花木	-11.8529
災禍	-11.8532
幽居	-11.8532
色味	-11.8535
必致	-11.8535
陰陽俱	-11.8544
既足	-11.8545
痛甚	-11.8548
五百五	-11.855
厥後	-11.855
勸人	-11.8553
持齋	-11.8557
峨嵋	-11.8559
中爻	-11.8565
衣絳	-11.8567
蹻脉	-11.857
本來無	-11.8574
履斗	-11.8576
行尸	-11.858
雨師	-11.858
氣不足故	-11.8584
陰賊	-11.8589
相傾	-11.8589
吾家	-11.8591
下文云	-11.8593
失其所	-11.8599
但聞	-11.8605
何以得	-11.8615
尊君	-11.8622
混物	-11.8623
哀公	-11.8626
袁紹	-11.8626
韓魏	-11.8628
可冀	-11.8634
財物	-11.8636
託生	-11.8637
劉曜	-11.8638
水出焉而東流注于	-11.8641
龍首	-11.8646
志節	-11.8651
不辨	-11.8651
先左間不右間從偶即先右間不左間也	-11.8652
組	-11.8654
訶	-11.8655
知白守黑	-11.8655
肢	-11.8655
爻位	-11.8655
揩	-11.8658
燧	-11.8658
螫	-11.8658
日月之行	-11.866
者多矣	-11.8663
紅紫	-11.8664
插	-11.8664
如如不動	-11.8666
榴	-11.8666
陞	-11.8667
猖狂	-11.8668
攅	-11.8668
留而不去	-11.867
新校正云按四時刺逆從論云	-11.867
頡	-11.8671
迂	-11.8671
非天下之至	-11.8671
年老逢春	-11.8672
餒	-11.8672
盥	-11.8673
水出焉而南流注于	-11.8673
抱朴	-11.8674
郭璞傳	-11.8674
啓玄子述	-11.8674
殯	-11.8675
梳	-11.8675
帆	-11.8675
鹵	-11.8676
緱	-11.8676
貳	-11.8676
芸芸	-11.8677
身外有身	-11.8677
姥	-11.8677
紈	-11.8677
雁	-11.8677
下獄死	-11.8678
㝠㝠	-11.8678
卭	-11.8678
此吾之	-11.8678
褚	-11.8679
如彈丸	-11.8679
笻	-11.8679
懐	-11.8679
晃耀	-11.8679
狐狸	-11.8679
經隧	-11.8679
詬	-11.868
浄	-11.868
紺	-11.868
耘	-11.868
魓	-11.868
炅煌	-11.868
鈐	-11.868
五分留七呼若灸者可灸三壯	-11.868
技	-11.8681
藪	-11.8682
囉	-11.8682
鴛鴦	-11.8682
帝崩皇太子	-11.8683
藤	-11.8683
笥	-11.8683
啗	-11.8683
妊	-11.8683
颯	-11.8684
藏氣法時論	-11.8684
水中有	-11.8684
滚	-11.8684
些兒	-11.8684
茵	-11.8684
爵禄	-11.8684
𠫤	-11.8684
斯之謂歟	-11.8685
蓬瀛	-11.8685
鶯花	-11.8685
殄	-11.8685
廉貞	-11.8685
杳㝠	-11.8685
煥爛	-11.8686
皷	-11.8686
孑	-11.8686
此資生第五元	-11.8686
亶	-11.8686
捺	-11.8686
賫	-11.8686
慝	-11.8686
逍遥自在	-11.8686
者不知何許人也	-11.8686
搆	-11.8686
蠧	-11.8687
鷄犬	-11.8687
紫微王夫人	-11.8687
煙嵐	-11.8687
鮑靚	-11.8688
䭀飯	-11.8688
澡雪	-11.8688
乘虚	-11.8688
近代	-11.8689
龍吟虎嘯	-11.8689
日月合璧	-11.8689
楷	-11.8689
愔	-11.8689
金石草木	-11.869
多㻬琈之玉	-11.869
萇	-11.869
鬱勃	-11.8691
之動也	-11.8691
陽陵泉	-11.8691
戊火運	-11.8691
掌握	-11.8692
醯	-11.8692
歆	-11.8692
疫癘	-11.8692
眼睛	-11.8692
䢉	-11.8692
蠟	-11.8693
糈	-11.8693
芮	-11.8693
黎庶	-11.8693
三五七九	-11.8694
如電	-11.8694
麴	-11.8694
代書寄	-11.8694
覿	-11.8694
鍾乳	-11.8695
鳩尾	-11.8695
收歛	-11.8695
涅	-11.8696
昨夜	-11.8696
殷勤	-11.8696
凭欄	-11.8696
俄頃	-11.8697
太上隱書	-11.8697
莒	-11.8697
蠡	-11.8697
荔	-11.8697
障礙	-11.8698
泗	-11.8698
蝸	-11.8698
渺邈	-11.8699
往往如此	-11.8699
疼痛	-11.87
販骨	-11.87
厚三分	-11.87
食不化	-11.87
驪山	-11.8701
兀兀	-11.8701
簷	-11.8701
七祖父母	-11.8703
芝田	-11.8703
塵寰	-11.8703
占者得之	-11.8704
調暢	-11.8704
病亡年	-11.8705
少陰司天	-11.8706
少羽終	-11.8706
后稷	-11.8707
隱淪	-11.8707
璋	-11.8708
無草木多	-11.8708
木火土	-11.8708
矣老子曰	-11.8708
陽明在泉	-11.8708
蕙	-11.8709
佐以苦	-11.871
太陽在泉	-11.871
丘曾	-11.871
效驗	-11.8711
寇亂	-11.8714
目眩	-11.8715
遥指	-11.8715
左手把	-11.8716
雲遊	-11.8717
昇騰	-11.8717
韜光	-11.8718
卓然	-11.8719
彖曰	-11.8719
儼然	-11.8719
包容	-11.872
暗昧	-11.8721
坎中之陽	-11.8724
有草焉	-11.8725
徑路	-11.8726
之類是也	-11.8726
陽明司天	-11.8728
上下無常	-11.8728
潞	-11.8728
迴腸	-11.8728
公私	-11.8729
骨痿	-11.873
採戰	-11.8731
四百九	-11.8731
震兊	-11.8733
三百里曰	-11.8734
占候	-11.8734
議論	-11.8734
太陽司天	-11.8735
少頃	-11.8737
浮沈	-11.8738
彼岸	-11.874
准前	-11.874
仙卿	-11.874
梅花	-11.8741
斬邪	-11.8742
七百五	-11.8745
道德經云	-11.8745
方一寸	-11.8746
朱全忠	-11.8747
凡軀	-11.8749
襄陽	-11.8749
福禄	-11.8752
最貴	-11.8753
濟濟	-11.8753
何由得	-11.8755
滑利	-11.8755
色慾	-11.8757
騎龍	-11.8758
心無所	-11.8758
爲庶人	-11.8759
陰股	-11.8759
四百四	-11.8761
此一條	-11.8761
仰面	-11.8763
熱甚	-11.8763
合璧	-11.8763
安排	-11.8763
愚智	-11.8763
博學	-11.8764
吴興	-11.8766
反側	-11.8766
莊公	-11.8767
武當	-11.8767
一十四年	-11.8767
符籍	-11.8768
隱逸	-11.8768
紫晨	-11.8768
乞願	-11.877
手大指	-11.8773
蒼色	-11.8774
一萬事畢	-11.8774
行天令	-11.8774
列宿	-11.8777
九域	-11.8781
兼濟	-11.8781
孔甲	-11.8782
掩耳	-11.8785
英華	-11.8785
天網	-11.8785
無不爲	-11.8786
此二者	-11.8787
絶迹	-11.8787
禍亂	-11.8788
寥陽	-11.8788
逸少	-11.8789
病者宜	-11.8791
寒厥	-11.8792
吟詩	-11.8792
宛然	-11.8792
佐命	-11.8794
意識	-11.8794
傍人	-11.8796
未肯	-11.8799
語録	-11.88
車駕	-11.88
固不可	-11.8801
積習	-11.8804
是何物	-11.8806
五芝	-11.8807
蕭然	-11.8808
備具	-11.8811
四孟	-11.8812
嵗星	-11.8813
桃君	-11.8814
手太陰脉	-11.8816
砂砂	-11.8816
懸絶	-11.8819
如水之	-11.8821
語汝	-11.8821
夜夜	-11.8825
兆民	-11.8828
煥明	-11.8828
尋覓	-11.8831
念頭	-11.8832
乆服	-11.8833
王屋	-11.8835
龍鳳	-11.8841
廣成子曰	-11.8853
抑其	-11.8858
清泉	-11.8858
念慮	-11.8858
大丹之道	-11.8858
永興	-11.8859
晋君	-11.8862
昌利	-11.8865
安泰	-11.8867
不潔	-11.8868
隂在泉	-11.8869
經典	-11.8869
觀察	-11.8869
甚驗	-11.8869
立壇	-11.887
華晨	-11.8871
二十里	-11.8872
周宻	-11.8875
逰行	-11.8877
者性也	-11.8879
了悟	-11.8881
過差	-11.8882
崔生	-11.8882
壽考	-11.8883
謝過	-11.8885
大小便	-11.8887
火焚	-11.8892
那得	-11.8893
水冰	-11.8893
尚書令	-11.8894
隂隂	-11.8894
皆非是	-11.8896
昇平	-11.8897
蓬萊山	-11.8897
壽春	-11.8898
火棗	-11.8898
驚門	-11.8899
關鎖	-11.89
厥陰之脉	-11.8902
成器	-11.8904
俱備	-11.8904
隂消	-11.8909
奚足	-11.8914
新安	-11.8915
授之以	-11.8916
有三等	-11.8917
故命曰	-11.8919
莫過於	-11.8926
高辛	-11.8928
東望	-11.8929
魏君	-11.893
丹誠	-11.893
木不及	-11.8934
花謝	-11.894
五十有五	-11.8943
决定	-11.8944
顔子	-11.8945
公房	-11.8945
針石	-11.8945
兖州	-11.8947
啓告	-11.8948
法老君曰	-11.8955
豈不是	-11.8956
釋然	-11.8957
七政	-11.8962
錯簡	-11.8962
高尚	-11.8963
十二爻	-11.8969
道之用	-11.8971
焉經曰	-11.8974
人之命	-11.8978
威靈	-11.8978
轉天關指	-11.8978
虛靜	-11.8982
難窮	-11.8987
八月十五	-11.8989
太息	-11.8991
相包	-11.8999
骨痛	-11.9003
三百年	-11.9004
輝輝	-11.9007
者誤也	-11.9014
寂靜	-11.9017
得其情	-11.9021
寸口脉	-11.9023
持盈	-11.9029
莫問	-11.903
形軀	-11.9032
棲心	-11.9037
駕景	-11.9044
成大藥	-11.9046
明夷	-11.9049
分爲三	-11.905
臨爐	-11.9051
兩脇	-11.9055
大禹	-11.9055
必有所	-11.9059
久留	-11.906
皇道君	-11.906
猶恐	-11.906
九轉丹	-11.9062
勝剋	-11.9066
神后	-11.9082
冬月	-11.9092
六十有四	-11.9097
七丸	-11.9102
亢倉㜽曰	-11.9107
伏汞	-11.9113
爲一周	-11.9125
青丘	-11.9126
仙品	-11.9131
道畢矣	-11.9132
惜哉	-11.9133
辛水運	-11.914
三百七	-11.9146
人者人	-11.9153
刻書	-11.9159
○)(/○○○○)(	-11.9165
道成矣	-11.9166
尹眞人	-11.9168
襄公	-11.9169
人莫知	-11.917
只可	-11.9177
病甚	-11.9182
步步	-11.9194
二百四十	-11.9196
駕雲	-11.9204
耳目口	-11.9212
惠公	-11.9217
在眼前	-11.9225
施功	-11.9226
福慶	-11.9229
其大如	-11.9244
物無不	-11.9246
先刺	-11.9248
掾寫	-11.9249
求諸	-11.9251
无窮	-11.9253
冀州	-11.9254
變化之道	-11.9262
氣相合	-11.9262
夫學道	-11.9262
命之根	-11.9274
賊邪	-11.9279
十丈	-11.93
仙經云	-11.9302
之謂也修夫	-11.9303
相招	-11.9305
三大兩	-11.9305
北方壬癸	-11.9314
於胷中	-11.9314
皇元年	-11.9318
兩手相叉	-11.932
倮倮洒洒	-11.9321
第二十六	-11.9322
矇	-11.9325
國並九小國下管人間	-11.9325
訊	-11.9325
紅霞子	-11.9325
强盛	-11.9326
迦	-11.9326
稅	-11.9328
瞎	-11.9328
苖	-11.933
廨	-11.9331
不可勝數	-11.9333
背痛	-11.9333
西城	-11.9333
鍵	-11.9334
讙	-11.9334
聆	-11.9335
踊	-11.9335
不可以俯仰	-11.9336
炒	-11.9336
熹	-11.9337
嗤	-11.9338
萋	-11.9338
孰能與於此	-11.9338
十有三	-11.9338
天數有餘	-11.9339
頄	-11.9339
綿綿若存用之不勤	-11.9339
拗	-11.9339
𥋋	-11.9339
剉	-11.934
麻婆	-11.934
氏爲皇后	-11.934
脹滿	-11.934
掀	-11.934
鑰	-11.9341
黄籙道場	-11.9341
譔	-11.9342
到這裏	-11.9342
黄庭内景	-11.9342
攙搶	-11.9342
颼	-11.9342
沴	-11.9342
奕奕	-11.9342
覬	-11.9343
上善若水	-11.9343
瘠	-11.9343
嬰孩	-11.9343
慤	-11.9343
燦爛	-11.9343
竪	-11.9343
同正商	-11.9344
蒼梧	-11.9344
嘶	-11.9344
歃血	-11.9345
其故何也	-11.9345
一動一靜	-11.9346
生氣通天論	-11.9346
五嶽四瀆	-11.9346
故能成其	-11.9346
煌煌	-11.9347
誚	-11.9347
孝悌	-11.9347
熇	-11.9347
迅速	-11.9348
舄	-11.9348
鸞鶴	-11.9348
何處覓	-11.9348
戊子己丑庚寅辛卯壬辰癸巳經世之	-11.9348
出入無間	-11.9348
睽	-11.9348
爐竈	-11.9348
姧	-11.9348
販	-11.9348
璿	-11.9349
殗	-11.9349
噪	-11.9349
徐從事	-11.9349
鋭	-11.9349
㯶	-11.9349
詆	-11.9349
噏	-11.9349
杻	-11.9349
粉碎	-11.935
緬	-11.935
功成行滿	-11.935
炷香	-11.935
勺	-11.9351
新校正云詳王注	-11.9351
黄疸	-11.9351
惋	-11.9351
奬	-11.9352
撒	-11.9352
簞瓢	-11.9352
决死生	-11.9353
缾	-11.9353
龍從火裏	-11.9353
燮	-11.9353
嬰兒姹女	-11.9354
𩵄	-11.9354
澆灌	-11.9355
咳嗽	-11.9355
砥	-11.9355
喉痹	-11.9355
旡	-11.9355
厥炁客於	-11.9355
盤旋	-11.9356
稻米	-11.9356
酢	-11.9356
航	-11.9356
鉗	-11.9356
騰躍	-11.9356
麥門冬	-11.9356
咀嚼	-11.9356
捶	-11.9357
陽中之隂	-11.9357
低昂	-11.9357
醖	-11.9357
箱	-11.9358
縹緲	-11.9359
天一生水	-11.9359
慚	-11.9359
壅滯	-11.9359
侍郞	-11.9359
疲倦	-11.9359
歸去來兮	-11.936
中華總眞大仙宰	-11.936
漚	-11.936
四百五	-11.936
跛	-11.936
伺候	-11.9361
人發之治王	-11.9361
六七八九	-11.9361
畋	-11.9361
四十有九	-11.9362
忝	-11.9362
斟酌	-11.9362
捭闔	-11.9362
織女	-11.9362
琪	-11.9362
鷙	-11.9362
黃庭	-11.9363
字从	-11.9364
擾擾	-11.9364
温暖	-11.9364
之圖論	-11.9365
不亦難乎	-11.9365
陰符經云	-11.9365
司馬季主	-11.9366
浮漚	-11.9366
者何氣使然岐伯曰	-11.9366
桑田	-11.9366
操持	-11.9366
陶隱居	-11.9366
絲竹	-11.9368
羅網	-11.9368
槃	-11.9368
商賈	-11.9368
弓矢	-11.9368
噲	-11.9369
傾危	-11.9369
括蒼	-11.9369
郷里	-11.937
爲下鬼	-11.937
萬事畢	-11.937
刑獄	-11.937
何如哉	-11.9371
千里之外	-11.9371
昏昏	-11.9371
樞宻使	-11.9372
六百七	-11.9372
陽明所至爲	-11.9373
驟雨	-11.9373
久服	-11.9373
蘇秦	-11.9373
君曰道有	-11.9373
州司馬	-11.9374
劫劫	-11.9374
醉飽	-11.9374
七百四	-11.9375
濬	-11.9376
塊然	-11.9376
絳霞	-11.9377
貧富	-11.9377
清泠	-11.9377
十聲十聲	-11.9377
者治其	-11.9378
立之是謂	-11.9378
介蟲	-11.9378
凡籠	-11.938
運一法	-11.9381
根株	-11.9382
尺澤	-11.9384
少腹痛	-11.9385
迴顧	-11.9385
毫分	-11.9386
穢濁	-11.9387
蒙昧	-11.9387
這些	-11.9388
穴俞	-11.9388
携手	-11.9389
復溜	-11.939
二穴也在	-11.939
打坐	-11.9391
醉卧	-11.9394
辟除	-11.9394
之所出也	-11.9394
芥子	-11.9394
朝謁	-11.9396
良醫	-11.9396
楊氏	-11.9397
畏敬	-11.94
王崩太子	-11.94
敗壞	-11.9402
禪機	-11.9402
李茂貞	-11.9402
歎息	-11.9403
四百六	-11.9404
孟春	-11.9406
帝舜	-11.9408
歡樂	-11.9408
仙姑	-11.9409
荆南	-11.9409
永劫	-11.9409
功業	-11.941
奇特	-11.9411
推遷	-11.9411
迷徒	-11.9413
受之於	-11.9413
張儀	-11.9414
赤鹽	-11.9414
東籬	-11.9415
六百四	-11.9415
二十餘年	-11.9416
攝攝	-11.9416
繁華	-11.9418
曲折	-11.9418
固密	-11.9419
爽靈	-11.9421
故易謂	-11.9423
第二十九	-11.9424
琴書	-11.9428
此兩者	-11.9428
七百年	-11.9429
恍惚之中	-11.943
離披	-11.9433
七十餘	-11.9433
未見其	-11.9434
莫見其	-11.9435
祥光	-11.9436
青霄	-11.9436
混俗	-11.9438
朝昏	-11.9438
今略	-11.944
三百六十過	-11.9441
八荒	-11.9441
行隂德	-11.9444
左脚	-11.9444
儒家	-11.9444
許侯	-11.9447
七十有二	-11.9448
拈出	-11.9449
隨機應	-11.9452
迷雲	-11.9453
量力	-11.9454
十有二時	-11.9455
可以奪	-11.9455
雲軿	-11.9455
枯骨	-11.9455
吟君子	-11.9456
樞要	-11.9456
渾渾	-11.9456
喜歡	-11.9456
百端	-11.9457
料得	-11.9459
賢士	-11.946
俱會	-11.9463
丹霄	-11.9463
逺遊	-11.9466
育養	-11.9469
金粟	-11.9472
天突	-11.9473
日日中時	-11.9474
客主	-11.9476
子午陽年	-11.9477
張果	-11.9478
曲池	-11.9479
赤蛇	-11.9482
也帝曰願聞	-11.9484
祕要	-11.9485
因兹	-11.9485
飛霞	-11.9488
相摩	-11.9488
鉛銀	-11.9488
之闔闢	-11.9489
石腦	-11.9495
信步	-11.9497
渾身	-11.9497
須依	-11.95
太祖	-11.9503
衝開	-11.9505
鉢中	-11.9507
奪造化	-11.9507
仁愛	-11.9509
裏面	-11.9509
妄泄	-11.951
美惡	-11.9516
每遇	-11.9516
迴轉	-11.952
太陰之精	-11.952
酒肉	-11.952
揺動	-11.9527
都忘	-11.9529
臣妾	-11.9529
頓超	-11.9529
殺害	-11.953
走馬	-11.953
光曜	-11.953
素女	-11.9532
人見之	-11.9532
謬矣	-11.9533
流溢	-11.9537
謝安	-11.9537
神去則	-11.9541
小童子	-11.9542
帝皇	-11.9542
乘馬	-11.9542
何云凡事	-11.9543
停留	-11.9544
攻晋	-11.9544
病在外	-11.9544
七十二日	-11.9545
月十四日	-11.9546
因之以	-11.9546
持戒	-11.9546
一尺五寸	-11.9547
博士	-11.9554
肺藏氣	-11.956
藥餌	-11.9562
太盛	-11.9564
微塵	-11.9567
金雞	-11.9567
其味甘	-11.9572
滿三千	-11.9579
壺内	-11.9581
循理	-11.9582
寓言	-11.9586
丹竈	-11.9587
西方白	-11.9587
孤然	-11.959
幾多	-11.9591
萬無一	-11.9591
差失	-11.9593
太陽之脉	-11.9595
相迎	-11.9611
之所存	-11.9611
清冷	-11.9622
功著	-11.9624
思議	-11.963
壺天	-11.963
於鼎内	-11.9635
此資生第	-11.964
鼎室	-11.964
者何也岐伯曰	-11.964
根器	-11.9647
調伏	-11.9653
萬物之所	-11.9662
虎符	-11.9665
輔弼	-11.9668
分爲四	-11.9669
氣和則	-11.9671
一切諸	-11.9672
脉鈎	-11.9673
天地之機	-11.9679
不知誰	-11.9683
浮世	-11.9691
笑呵呵	-11.9694
呵呵笑	-11.9696
墨子	-11.9699
者性之	-11.9703
順倒反	-11.9703
干犯	-11.9713
所侵	-11.9714
斡轉	-11.9748
關衝	-11.975
悟真	-11.9758
至其日	-11.9768
復舊	-11.9769
其文曰	-11.977
依依	-11.9772
此資生	-11.9782
四千五	-11.9791
鹹物	-11.9794
剋金	-11.9812
年限	-11.9822
此輩	-11.9824
登上清	-11.9825
拜謝	-11.9826
入于頂	-11.9827
瑞雲	-11.9837
慈愛	-11.9841
南園	-11.9847
九百二	-11.9854
各自有	-11.9856
亡失	-11.9893
位號	-11.9894
五百九	-11.9902
萬物之情	-11.9903
含養	-11.9906
哉或問	-11.9908
换鼎	-11.9916
腎之脉	-11.9917
任他	-11.9925
石室中	-11.9926
升仙	-11.9964
于汴	-11.9974
道遥	-11.9975
堯夫非是愛吟詩詩是堯夫自	-11.9977
黄帝内經素問補註釋文卷之二十	-11.9978
東面	-11.9985
照曜	-11.9993
唤作	-11.9994
父老	-11.9995
涓	-11.9996
散爲禹歩	-11.9999
長二寸	-12.0002
在吾身	-12.0005
神劔	-12.0014
榮枯	-12.0018
魁罡	-12.0026
兵甲	-12.0027
銅器	-12.0037
塵縁	-12.0038
杼	-12.0041
噀	-12.0042
痼	-12.0043
神光不聚	-12.0044
見則天下大	-12.0045
趺	-12.0045
十五跡	-12.0045
山海經卷之十	-12.0045
閬	-12.0047
闓	-12.0047
駝	-12.0048
罵詈	-12.0048
鮫	-12.0049
彗	-12.0049
蔑	-12.0051
損之又損	-12.0051
悒	-12.0051
煌	-12.0052
幽邃	-12.0052
筯	-12.0052
匈	-12.0052
涕唾	-12.0053
鶩	-12.0054
一陽來復	-12.0055
攫	-12.0055
痠	-12.0056
柔剛	-12.0056
壽延	-12.0056
骶	-12.0056
有名萬物之母	-12.0056
樞紐	-12.0056
樞轄	-12.0056
滿庭芳	-12.0057
千經萬論	-12.0057
鉛錫	-12.0058
隂中之陽	-12.0058
騖	-12.0058
喚	-12.0058
浹	-12.0058
俸	-12.0058
多血少氣	-12.0058
嵒	-12.0059
麝	-12.0059
雄黄雌黄	-12.0059
御政之首	-12.0059
汩	-12.0059
璃	-12.006
萬籟	-12.006
玄光玉女	-12.006
顙	-12.006
簁	-12.006
欒巴	-12.006
潜龍勿用	-12.006
天虚運不佐天即大間大間即左右俱間	-12.006
端倪	-12.006
漯	-12.006
吕洞賔	-12.0061
癥	-12.0061
稍稍	-12.0061
謌	-12.0061
顗	-12.0061
廷	-12.0061
天綱地紀	-12.0062
不行而至	-12.0062
皋	-12.0062
砌	-12.0062
滄溟	-12.0062
誦之三遍	-12.0062
六百篇	-12.0062
吐故納新	-12.0062
迤邐	-12.0062
涓涓	-12.0062
向水中生	-12.0062
A	-12.0062
J	-12.0062
N	-12.0062
U	-12.0062
用聲一百一十二	-12.0063
一升一降	-12.0063
榼	-12.0063
㤅	-12.0063
氈	-12.0063
猥	-12.0063
馬牛	-12.0063
亢倉子	-12.0063
舐唇	-12.0063
殽	-12.0064
覃	-12.0064
軌轍	-12.0064
含光默默	-12.0064
螟	-12.0064
泠然	-12.0064
修眞之士	-12.0064
糵	-12.0064
形長七寸	-12.0064
何以别之	-12.0065
又南三百里曰	-12.0065
返老還童	-12.0065
兵戈	-12.0065
東南流注于	-12.0065
烱	-12.0065
澈	-12.0065
三天正法	-12.0065
黽	-12.0065
產	-12.0065
百姓日用而不知	-12.0065
人亦有之	-12.0065
拶	-12.0065
枯槁	-12.0065
則文始眞經云	-12.0065
錐	-12.0065
耨	-12.0066
搭	-12.0066
剩	-12.0066
垠	-12.0066
法天象地	-12.0066
百骸九竅	-12.0066
殗穢	-12.0066
旬有六日	-12.0067
功曹使者	-12.0067
一陰一陽之謂道	-12.0067
囿	-12.0067
玉機眞藏論	-12.0067
蹉	-12.0067
罄	-12.0067
迴光返照	-12.0067
愴	-12.0067
學仙之士	-12.0067
官爵	-12.0067
黍珠	-12.0067
虺	-12.0068
蚤	-12.0068
邪僻	-12.0068
朱砂水銀	-12.0068
炮	-12.0069
瑣	-12.0069
烏兎	-12.0069
馮尊師	-12.007
一隂一陽	-12.007
涿	-12.007
刺可入同身寸之三分若灸者可灸三壯	-12.007
店	-12.0071
黵	-12.0071
彷	-12.0071
蝗蟲	-12.0071
䝉	-12.0071
所以爾者	-12.0071
盤膝	-12.0071
七百九	-12.0072
做箇	-12.0072
椎之傍	-12.0073
逆之則傷	-12.0073
徨	-12.0073
坯	-12.0073
中元三將軍	-12.0074
璚	-12.0074
使之然也	-12.0074
剖判	-12.0074
南柯	-12.0074
紫極宫	-12.0074
黄帝八十一難經纂圖句解卷之	-12.0074
素履子曰	-12.0074
湣	-12.0075
珉	-12.0075
繫辭	-12.0075
九眞中經	-12.0075
懵	-12.0075
八節之日	-12.0076
團團	-12.0076
太元眞人	-12.0076
欲升而	-12.0076
北正司天天面向南左東直右西直上正	-12.0076
廳	-12.0076
餘杭	-12.0076
罟	-12.0076
䐜脹	-12.0077
南方丙丁火	-12.0077
不可思議	-12.0077
縞	-12.0078
迢	-12.0078
巅	-12.0078
之異名也	-12.0078
痴	-12.0079
礫	-12.0079
結絡	-12.0079
肅肅	-12.0079
沸騰	-12.008
蘧	-12.008
華蓋之下	-12.008
隱符太上大道君次乘	-12.0081
萼	-12.0081
瑯琊王	-12.0082
木之精	-12.0082
二日半	-12.0083
巻	-12.0083
顔回	-12.0084
淫慾	-12.0084
零落	-12.0084
澄徹	-12.0084
何氣使然	-12.0085
縑	-12.0085
廣狹	-12.0086
胡粉	-12.0086
乎正陽子曰	-12.0086
命侍女	-12.0086
晦迹	-12.0087
學道得仙	-12.0087
公卒世子	-12.0087
句句	-12.0087
坂	-12.0088
泝流	-12.0088
盈溢	-12.0088
嘉州	-12.0089
瑾	-12.0091
手掌	-12.0091
乾之策	-12.0091
奔馳	-12.0093
代立是謂	-12.0093
恭敬	-12.0094
三月三日	-12.0095
充溢	-12.0095
係代	-12.0096
秀才	-12.0096
蕭條	-12.0096
捉住	-12.0096
無英君	-12.0098
槁木	-12.01
邪佞	-12.01
敷陳	-12.01
之别名曰	-12.0101
金命人	-12.0101
三五與一	-12.0101
閑愁	-12.0101
商量	-12.0101
藥物火候	-12.0102
盡爲度	-12.0103
鼎湖	-12.0103
雷鳴	-12.0103
愚昧	-12.0105
譬猶	-12.0105
而東流注于	-12.0106
掌訣	-12.0107
傳非其人	-12.0108
陳蔡	-12.0108
抱朴子曰	-12.0109
誰敢	-12.0109
服术	-12.0109
瓊輪	-12.0109
尋訪	-12.011
盈虧	-12.011
夸父	-12.011
胞根	-12.0111
暴卒	-12.0112
秦川	-12.0112
天籟	-12.0112
慈母	-12.0112
霄漢	-12.0112
所生病者	-12.0113
婦女	-12.0113
阿母	-12.0115
愛惜	-12.0115
貫穿	-12.0116
獻公	-12.0116
立春之日	-12.0116
灾害	-12.0118
功勳	-12.0118
三十九章	-12.0118
沉滯	-12.0119
乾爲天	-12.012
玉帛	-12.0121
良工	-12.0121
白刃	-12.0122
隱芝	-12.0125
中央土	-12.0125
伏匿	-12.0126
鑿開	-12.0128
得延年	-12.0128
月建在	-12.0128
抽鉛	-12.0128
諸名山	-12.0129
眞詮	-12.013
七百三	-12.0131
定録君	-12.0131
九疇	-12.0134
上腭	-12.0134
紫霧	-12.0134
曉了	-12.0135
足少陽脉	-12.0135
延陵	-12.0135
坐禪	-12.0135
耳或問	-12.0136
寳瓶	-12.0137
紅爐	-12.0137
錯亂	-12.0137
帶佩	-12.0138
奉迎	-12.0138
長生久視之道	-12.014
足陽明脉	-12.014
須彌	-12.014
石函	-12.014
玉曆	-12.0141
許昌	-12.0142
石鹽	-12.0143
渡河	-12.0146
石壁	-12.0149
否卦	-12.015
骨痹	-12.0151
保命君	-12.0151
天地之正氣	-12.0154
脉滑	-12.0155
禮敬	-12.0155
守三一	-12.0156
麻衣	-12.0159
浮丘	-12.0159
吾之藥	-12.016
吸引	-12.0162
長四寸	-12.0162
臨危	-12.0162
求乞	-12.0163
沖玄	-12.0165
野獸	-12.0166
夏侯	-12.0167
盤石	-12.0168
驚恐	-12.0168
其味酸	-12.017
愚迷	-12.0172
吴改元	-12.0173
風后	-12.0173
字叔	-12.0174
丹書云	-12.0174
從革	-12.0174
問如何是	-12.0175
是一藥不	-12.0177
受籙	-12.0181
毛孔	-12.0181
兼并	-12.0183
誰識	-12.0183
均平	-12.0183
洞室	-12.0187
都監	-12.0189
輕快	-12.019
五百三	-12.019
凡刺之	-12.0191
長史書	-12.0192
先天地生	-12.0193
武都	-12.0194
奏聞	-12.0194
兩膝	-12.0199
淫邪	-12.0203
一件	-12.0208
沉浮	-12.0209
振動	-12.021
一年之中	-12.0211
碧虚	-12.0216
無絃	-12.0218
晴明	-12.0219
城縣	-12.022
一百九十	-12.0223
百毒	-12.0228
淳風	-12.0232
傷敗	-12.0232
蕭何	-12.0234
瑞氣	-12.0237
師資	-12.0237
字當作	-12.0239
帝鄉	-12.0251
勿犯	-12.0252
碧霞	-12.0265
牛羊	-12.0266
東郭	-12.0269
腰背	-12.0271
禪師	-12.0281
憂悲	-12.0289
塵不染	-12.029
勞役	-12.0293
纖塵	-12.0297
句曲山	-12.0298
無遮	-12.03
之物皆	-12.0309
陽氣有餘	-12.0311
尚賢	-12.0315
乆留	-12.0317
同一體	-12.0321
成金液	-12.0333
火焰	-12.0333
箇甚	-12.0339
有優劣	-12.0354
矣吕子曰	-12.0355
電光	-12.0358
王敦	-12.0365
五百八	-12.0367
與天通	-12.0375
得昇天	-12.0376
差錯	-12.0377
數尺	-12.0378
月厭	-12.0383
復歸于	-12.0388
入于丹田	-12.04
守雌	-12.0421
戰勝	-12.0422
雲霄	-12.0422
交互	-12.0429
筋膜	-12.043
少陽司天	-12.0435
莫測其	-12.0435
三咽止便讀玉經畢又祝曰	-12.0436
行於陽	-12.0438
不離身	-12.0439
地戸	-12.0443
是何人	-12.0446
連珠	-12.0454
末學	-12.0458
轉天關	-12.0459
臨卦	-12.0464
沖虛	-12.0465
第三十四	-12.0467
傷損	-12.0471
官職	-12.0473
各隨其	-12.048
其所勝	-12.0504
問答	-12.0505
秘要	-12.0506
純白	-12.0508
留五呼	-12.0513
囂塵	-12.0526
萬物之母	-12.0532
照徹	-12.0541
甘美	-12.0541
陰符經	-12.0547
以身爲	-12.0555
牢固	-12.0557
子不聞	-12.0562
入于腦	-12.0567
授汝	-12.0567
七返九還	-12.0581
世務	-12.0585
厄難	-12.059
叅同	-12.0591
衣巾	-12.0599
宗皇帝	-12.0607
搬	-12.0622
有淺深	-12.0644
坦蕩	-12.0646
壬寅癸卯甲辰	-12.0649
煉金丹	-12.066
所拘	-12.0661
肢節	-12.0662
一百五十	-12.067
燥熱	-12.0673
帝曰願聞其	-12.0676
雲笈七籤卷之二十	-12.0734
腭	-12.0735
師㫖	-12.074
吾鄉	-12.0745
州叛	-12.0754
竹書	-12.0755
手厥陰	-12.0761
外更無	-12.0763
五百七	-12.0764
鑄鼎	-12.0769
本來眞	-12.0775
甲寅乙卯	-12.0778
董卓	-12.0787
彖	-12.0788
冢墓	-12.0791
三百九	-12.0797
䏚	-12.08
奈何伯高曰	-12.08
又北二百里曰	-12.0801
慚愧	-12.0802
度人經	-12.0803
鳳髓	-12.0805
歙	-12.0809
耄	-12.0811
于中宫	-12.0812
歐	-12.0813
霆	-12.0813
灧	-12.0817
昆吾之	-12.0818
一寸五分	-12.0818
金也金	-12.0818
瘉	-12.0819
之例是也	-12.0819
槍	-12.0819
水出焉而西流注于	-12.0819
球	-12.0819
鞠	-12.082
灌溉	-12.082
打成一片	-12.082
牋	-12.0821
目内眥	-12.0821
瓠	-12.0821
脉之所注也刺可入同身寸之	-12.0821
䐜	-12.0821
娉	-12.0822
修黄籙齋	-12.0822
兩筋之間	-12.0822
哥	-12.0822
頒	-12.0822
焫	-12.0822
詫	-12.0822
欹	-12.0823
煒	-12.0823
不可不察	-12.0823
脉令人腰痛	-12.0823
淒	-12.0823
茍	-12.0823
新校正云按全元起云	-12.0824
鼔	-12.0824
肥瘦	-12.0824
欵	-12.0825
戕	-12.0825
逵	-12.0825
一晝一夜	-12.0825
奠	-12.0825
金眞玉光	-12.0825
胡蘆	-12.0826
顱	-12.0826
挫銳	-12.0826
㕘	-12.0826
灘	-12.0827
僮	-12.0827
貂	-12.0827
臀	-12.0827
蘸	-12.0827
紫霄絳宫上陽子觀吾陳致虚撰	-12.0827
憾	-12.0827
兩筋間	-12.0827
拉	-12.0828
拇指	-12.0828
汰	-12.0828
震來受符	-12.0828
流泉	-12.0828
涣	-12.0829
刮	-12.0829
芙	-12.0829
繹	-12.0829
曼	-12.0829
劈開	-12.0829
小間小間即一間也天從奇即先左間不	-12.0829
鴞	-12.0829
四時之季	-12.0829
榮衞	-12.0829
常無欲以觀其妙	-12.083
三部八景	-12.083
盈虚消息	-12.083
癭	-12.083
邵康節	-12.083
稼穡	-12.083
岐伯曰悉乎哉問也	-12.083
也天從奇即先左間	-12.083
顥	-12.0831
廵	-12.0831
甲土運	-12.0831
朦	-12.0831
如環無端	-12.0831
炷	-12.0831
登眞隱訣	-12.0832
饑荒	-12.0832
之山其上多金玉其下多	-12.0832
苴	-12.0832
綃	-12.0832
訂	-12.0832
桑榆子曰	-12.0832
僊	-12.0832
䰢	-12.0832
藜杖	-12.0832
三洞經教部經	-12.0832
火始治地也熱行於地苦物乃生	-12.0832
廪	-12.0833
譙	-12.0833
糊	-12.0834
纍	-12.0834
鎚	-12.0834
秖	-12.0834
媿	-12.0834
眞人子丹	-12.0834
墀	-12.0834
龍虎上經	-12.0834
經星之甲二百	-12.0834
之要在乎	-12.0835
劍	-12.0835
腰尻	-12.0835
古文龍虎經	-12.0835
巘	-12.0835
倏欻	-12.0835
洮	-12.0835
柟	-12.0835
包褁	-12.0835
皇甫士安	-12.0835
無英公子	-12.0835
拏	-12.0836
嵐	-12.0836
陰極陽生	-12.0836
肴	-12.0836
諛	-12.0836
娶婦	-12.0836
僭	-12.0836
天地之數五十有五	-12.0836
五行之精	-12.0837
嶸	-12.0837
楓	-12.0837
包括	-12.0837
悌	-12.0837
母隱子胎	-12.0837
櫟	-12.0837
坎男離女	-12.0838
勒陽關	-12.0838
弘農	-12.0839
此資生第四元	-12.0839
沼	-12.0839
録尚書事	-12.0839
茗	-12.0839
傚	-12.0839
貫臀	-12.0839
日月爲易	-12.084
湍	-12.0841
銓	-12.0841
梁武帝	-12.0841
五藏六腑	-12.0841
决烈	-12.0841
城隍	-12.0841
枳	-12.0841
凋落	-12.0842
晃朗	-12.0842
夏至之日	-12.0842
白玉蟾	-12.0842
麋鹿	-12.0842
繭	-12.0842
廛	-12.0843
踴躍	-12.0843
鴣	-12.0843
礪	-12.0843
崩弟	-12.0843
修丹之士	-12.0843
殢	-12.0843
太素三元君	-12.0843
鯢	-12.0844
拱手	-12.0844
犬戎	-12.0844
臥	-12.0844
邳	-12.0844
㸘	-12.0844
鏘	-12.0844
入室燒香	-12.0844
姹	-12.0844
不嗜食	-12.0845
毁譽	-12.0845
閉氣三息	-12.0845
六百九	-12.0845
乾薑	-12.0845
拈花	-12.0845
七八九六	-12.0845
沈淪	-12.0845
其脉弦	-12.0846
萬象森羅	-12.0846
毫末	-12.0846
恰似	-12.0846
鐸	-12.0846
前聖後聖	-12.0846
刹那	-12.0847
漓	-12.0847
汶	-12.0847
夕夕	-12.0847
伏犧	-12.0847
藁	-12.0847
暎	-12.0847
長九分	-12.0847
驪龍	-12.0848
冷淡	-12.0848
飛行上清	-12.0848
乖戾	-12.0849
九九八十一	-12.0849
鳶	-12.0849
太陽所至爲	-12.085
隴西	-12.085
驚蟄	-12.085
少陽所至爲	-12.0851
姓李名	-12.0851
堅牢	-12.0851
羲頓首頓首	-12.0852
祟害	-12.0852
天一地二	-12.0852
震兌	-12.0853
粗工	-12.0853
偽	-12.0853
丐	-12.0854
燥化四	-12.0855
陽燧	-12.0855
賑	-12.0855
韓趙魏	-12.0856
神祇	-12.0856
歌舞	-12.0857
培	-12.0857
沮渠蒙遜	-12.0857
賢哲	-12.0857
壺中日月	-12.0858
盟誓	-12.0858
顏色	-12.0858
透徹	-12.0858
瘻	-12.0858
莫之能	-12.0859
腕骨	-12.0859
鐺中	-12.0859
水命人	-12.086
温涼	-12.086
個月	-12.086
吉㐫	-12.0861
鐘鼓	-12.0861
虎爪	-12.0863
訣訣曰	-12.0863
琳宫	-12.0864
皮囊	-12.0864
鼓舞	-12.0864
釣魚	-12.0865
一寸二分	-12.0865
向此中	-12.0865
驚懼	-12.0865
羊角	-12.0866
霜雹	-12.0866
工巧	-12.0867
無恙	-12.0868
貶相	-12.0868
攪令	-12.0868
彭祖曰	-12.0869
裴老	-12.0869
臨泣	-12.0869
目瞑	-12.0869
雲臺治	-12.0869
揣情	-12.0869
孟嘗君	-12.087
簫韶	-12.087
茅屋	-12.0871
豁開	-12.0871
三十六部	-12.0871
凌犯	-12.0871
竹杖	-12.0872
鱗甲	-12.0872
張仙問	-12.0873
五千文	-12.0874
潁	-12.0874
常能行之	-12.0874
長一尺二寸	-12.0874
冲虛	-12.0875
狐疑	-12.0877
田單	-12.0877
左右前後	-12.0878
悅澤	-12.0878
折腰	-12.0879
匹夫	-12.088
空不空	-12.0881
愛憎	-12.0881
衰厄	-12.0881
周勃	-12.0882
宴坐	-12.0884
燔焫	-12.0884
九百七	-12.0885
其葉如	-12.0885
羽儀	-12.0886
算來	-12.0886
往來上下	-12.0887
六百六	-12.0887
四瀆	-12.0887
辛勤	-12.0888
上下往來	-12.0888
衛護	-12.0889
盡之矣	-12.0891
照耀	-12.0891
冲虚	-12.0892
朗然子	-12.0892
瞋喜	-12.0892
各安其	-12.0893
賞花	-12.0894
嘗試	-12.0894
南燭	-12.0896
季秋	-12.0896
尸魄	-12.0898
來復勝	-12.0898
一陰爻	-12.09
刑禍	-12.0901
浮游	-12.0901
照鏡	-12.0901
謹請	-12.0902
迷津	-12.0902
主勝則	-12.0902
赤銅	-12.0902
之後而有	-12.0904
唾血	-12.0904
純素	-12.0905
羅絡	-12.0905
腹脹滿	-12.0906
謹愼	-12.0907
善噫	-12.0909
東方甲乙木	-12.0909
掘地	-12.0909
南軒	-12.091
巢居	-12.0912
懷抱	-12.0912
佛氏	-12.0913
遷移	-12.0914
士卒	-12.0914
願垂	-12.0915
證驗	-12.0915
豈敢	-12.0916
妖邪	-12.0916
壯士	-12.0916
釋疑	-12.0916
捧出	-12.092
修道之人	-12.092
混沌之中	-12.092
靈芽	-12.092
承貞	-12.092
國祚	-12.0921
焉元陽子曰	-12.0923
朱子曰	-12.0924
增損	-12.0925
映照	-12.0926
自貽	-12.0927
夢幻	-12.0927
目盲	-12.0928
宅舍	-12.0928
京骨	-12.0928
白髪	-12.0929
雌陰	-12.0929
攻魏	-12.0929
一撞	-12.093
靈苗	-12.0931
十有一月	-12.0936
》,	-12.0937
失所在	-12.0938
庚戌辛亥壬子癸丑甲寅乙卯丙辰	-12.0939
文彩	-12.0939
四百三	-12.0942
篤志	-12.0946
設教	-12.0946
調停	-12.0946
暑熱	-12.0948
圓混	-12.0948
于下丹田	-12.0963
胸脅	-12.0964
心主脉	-12.0965
許氏	-12.0967
紫陽真人	-12.0972
章第十三	-12.0974
避世	-12.0974
五藴	-12.0977
佐助	-12.0978
故下文云	-12.0982
流蕩	-12.0982
細擣	-12.0987
千杵	-12.0988
鬼帥	-12.0989
木運角木音也	-12.0994
杭州	-12.0996
少室山	-12.0996
夭傷	-12.0997
亨通	-12.0998
分明說	-12.1002
迷悟	-12.1006
吴郡	-12.1008
玉屑	-12.1017
聖人則之	-12.1017
天尊告	-12.1019
西蜀	-12.1021
汲水	-12.1026
素問六氣玄珠宻語卷之十	-12.1031
漱口	-12.1036
金鎖流珠引卷之二十	-12.1037
調其氣	-12.1041
之山其陽多	-12.1045
其隂多鐵	-12.1046
神不守	-12.1047
少陰少陽	-12.105
萬頃	-12.105
同身寸之五分	-12.1051
太陽脉氣所發	-12.1051
尹真人	-12.1057
卿須	-12.1058
純坤	-12.1059
彊名	-12.106
驅除	-12.1073
雲笈七籖卷之三十	-12.1073
六百二	-12.1074
役役	-12.1084
福祐	-12.1094
躍出	-12.1096
繼改元	-12.1115
兵革	-12.1131
二百七十	-12.1134
月二十二日	-12.1138
第三十六	-12.1146
周逰	-12.1152
未究	-12.1155
彩霞	-12.1155
四十三十	-12.1168
衣九色	-12.1182
度厄	-12.1253
恰如	-12.1283
成至寳	-12.1296
行乎其中	-12.13
正一眞人	-12.13
呼其名	-12.1304
所誘	-12.1304
隂符經	-12.1318
腎主骨	-12.1323
壬申癸酉甲戌乙亥丙子丁丑戊寅己卯	-12.1332
五百二	-12.1357
冬之月	-12.1369
鉛爐	-12.137
水生木	-12.1376
少陰之脉	-12.1384
金鎖流珠引卷之十	-12.1389
登玉清	-12.1397
八百七	-12.1452
成至藥	-12.1461
幾箇	-12.1468
刺者刺	-12.1478
存三一	-12.1484
息賁	-12.1495
步天綱	-12.1502
里其神狀皆	-12.1518
章第十二	-12.1544
各三遍	-12.1565
大指次指	-12.1567
八百八	-12.1581
熛	-12.1627
諸人作麽會	-12.1635
四千九	-12.1636
璫	-12.1638
鉅	-12.1639
崔嵬	-12.164
發音清和律一之	-12.1641
騷	-12.1641
泚	-12.1641
冩	-12.1642
碩	-12.1642
賦詩	-12.1643
馬明生	-12.1644
怵惕	-12.1645
隂與陽	-12.1645
發音濁和律四之	-12.1645
四千七	-12.1646
開音濁和律二之	-12.1646
汚	-12.1648
幸東都	-12.1648
扺	-12.1648
僥	-12.1648
烊	-12.1648
沐浴令人	-12.1648
冠冕	-12.1649
桃花	-12.1649
曈	-12.1649
賄	-12.165
倡	-12.165
禎	-12.1651
溝渠	-12.1651
之節初五日	-12.1651
嵇	-12.1653
閉音清和律一之	-12.1653
又按至眞要大論云	-12.1653
愼之愼之	-12.1654
開音清和律一之	-12.1654
發音濁和律二之	-12.1654
琉璃	-12.1654
緝	-12.1654
嗷	-12.1655
貪狼	-12.1655
錙銖	-12.1655
窈窈冥冥	-12.1655
閉音濁和律二之	-12.1655
在甚處	-12.1655
娟	-12.1656
顒顒	-12.1656
山澤通氣	-12.1656
水出焉東流注于	-12.1656
勦	-12.1656
泪	-12.1656
溟涬	-12.1656
溉灌	-12.1657
閉音濁和律四之	-12.1657
南方丙丁	-12.1657
使我飛仙	-12.1657
三皇五帝	-12.1657
斲	-12.1657
闚	-12.1657
圓陀陀	-12.1657
昴畢之上	-12.1658
怡怡	-12.1658
窅	-12.1658
發音清和律三之	-12.1658
彪	-12.1658
閟	-12.1658
頞	-12.1658
帽	-12.1658
叩齒五通	-12.1658
簟	-12.1659
三百八十有四銖	-12.1659
碣	-12.1659
蜕	-12.1659
屣	-12.1659
夜半子時	-12.1659
收音濁和律二之	-12.1659
子之後午之前	-12.166
侍帝晨	-12.166
懾	-12.166
蝗	-12.166
厲兌	-12.166
開音濁和律四之	-12.1661
厶	-12.1661
一萬三千五百息	-12.1661
宛宛中	-12.1662
懈惰	-12.1662
㕘同契	-12.1662
粱	-12.1662
倏	-12.1662
衄	-12.1662
唳	-12.1662
嗄	-12.1662
彖辭	-12.1662
聴	-12.1662
閉音清和律三之	-12.1662
右間從偶即先右間不左間也	-12.1662
萬仞	-12.1662
水出焉南流注于	-12.1662
諸葛亮	-12.1662
谿谷	-12.1662
懊	-12.1663
緋	-12.1663
厥隂木司天	-12.1663
瑟	-12.1663
爲此諸病盛則寫之	-12.1663
鋸	-12.1663
侔	-12.1663
姊	-12.1664
眇眇	-12.1664
上相青童君	-12.1664
廖	-12.1664
陽極陰生	-12.1664
霖霪	-12.1664
鰲	-12.1664
堦	-12.1664
陶鑄	-12.1664
𩳐	-12.1664
時人氣亦在	-12.1664
樂天知命	-12.1664
之關者也	-12.1664
肝心脾肺腎	-12.1664
郝	-12.1665
恚怒	-12.1665
歟正陽子曰	-12.1665
芷	-12.1665
當斯之時	-12.1665
眦	-12.1665
北邙山	-12.1665
上應辰星	-12.1665
廷尉	-12.1665
桑榆	-12.1666
奥㫖	-12.1666
寒暑燥濕風火	-12.1666
娶妻	-12.1666
是死炁之門	-12.1666
妒	-12.1666
交阯	-12.1666
遡	-12.1666
箇甚麽	-12.1667
宫在下爲	-12.1667
左取右右取左	-12.1667
以一日言之爲	-12.1667
金運商金音	-12.1667
貸	-12.1667
賺	-12.1667
俎	-12.1667
煙蘿	-12.1667
以一月言之爲	-12.1667
俛	-12.1667
奢侈	-12.1667
魔障	-12.1668
還元返本	-12.1668
生長收藏	-12.1668
洗滌	-12.1668
蒲州	-12.1668
早晏	-12.1668
閲	-12.1668
國并九小國下管人間	-12.1668
萬彙	-12.1668
君臣父子	-12.1668
九還七返八歸六居	-12.1668
溪上眞廟在	-12.1668
墊	-12.1669
不可勝紀	-12.1669
俺	-12.1669
許旌陽	-12.1669
青童道君	-12.1669
吊	-12.1669
撈	-12.1669
女几	-12.1669
柞	-12.1669
桶	-12.1669
黄石公	-12.167
穿鑿	-12.167
櫝	-12.167
基址	-12.167
生天生地	-12.167
呆	-12.167
踴	-12.167
粃	-12.1671
北正司天天面向南左東直右西直上太	-12.1671
鬢髮	-12.1671
祈禱	-12.1671
實庵曰	-12.1671
漫漫	-12.1671
肛	-12.1671
右英夫人	-12.1671
亭亭	-12.1671
臭腥	-12.1671
霐	-12.1671
敞	-12.1672
桀紂	-12.1672
概	-12.1672
鷦	-12.1672
黼	-12.1672
騩	-12.1672
蠢動含靈	-12.1672
葛稚川	-12.1673
桎梏	-12.1673
痊	-12.1673
顯諸仁	-12.1673
反小於	-12.1673
中華總真大仙宰王方平	-12.1673
市賈有利	-12.1673
赫曦	-12.1673
笄	-12.1673
承嗣	-12.1673
盩	-12.1673
象彼仲冬節	-12.1673
倉廪	-12.1674
琴瑟	-12.1674
孫策	-12.1674
父母未生前	-12.1674
息庵曰	-12.1674
驚悸	-12.1674
椹	-12.1674
鯉魚	-12.1674
亥子丑	-12.1674
勅	-12.1674
百有二十	-12.1675
臭穢	-12.1675
月律也管長	-12.1675
畿	-12.1675
曩	-12.1676
錘	-12.1676
泛泛	-12.1676
俠谿	-12.1676
放曠	-12.1676
岌	-12.1676
僵	-12.1676
猗	-12.1676
鋒刃	-12.1676
絪緼	-12.1677
其形如左	-12.1677
裾	-12.1677
来	-12.1677
小指次指之端	-12.1677
那箇	-12.1677
迍	-12.1677
冉	-12.1677
修煉之士	-12.1678
五氣朝元	-12.1678
靳	-12.1678
萍	-12.1678
朦朧	-12.1678
顛狂	-12.1678
删	-12.1679
剛健	-12.1679
晏嬰	-12.1679
萌芽	-12.1679
麓	-12.1679
其可得乎	-12.1679
吃	-12.1679
薈	-12.168
新校正云按金匱眞言論	-12.168
奴僕	-12.168
十月五日	-12.168
邪化日	-12.1681
咏	-12.1681
新校正云詳注云	-12.1681
唐虞	-12.1681
設醮	-12.1681
六丁玉女	-12.1682
陽平治	-12.1682
熊羆	-12.1682
隂故爲第	-12.1682
眼耳鼻舌	-12.1682
翌日	-12.1682
周于身	-12.1683
那堪	-12.1683
暘谷	-12.1683
姹女嬰兒	-12.1684
李筌	-12.1684
駒	-12.1684
叩齒十二通	-12.1684
洛川	-12.1685
埃塵	-12.1685
埅	-12.1685
夏后	-12.1685
微祝曰太上	-12.1685
以是當知	-12.1686
幄	-12.1686
邕	-12.1686
湛寂	-12.1686
夏至之後	-12.1687
機鋒	-12.1687
許玉斧	-12.1687
熙寧	-12.1687
姚興	-12.1687
年月日時	-12.1687
儲華谷	-12.1688
瀨	-12.1688
攄	-12.1688
群品	-12.1689
擘開	-12.169
珂	-12.169
堂宇	-12.169
蜼	-12.169
妖怪	-12.169
地祇	-12.1691
緫統	-12.1691
叅同契曰	-12.1692
臏	-12.1693
廻	-12.1693
粤	-12.1693
四大兩	-12.1693
薊	-12.1693
祁	-12.1693
三四尺	-12.1693
捭	-12.1694
鉅鹿	-12.1694
四百七	-12.1694
胷腹	-12.1694
堪嗟	-12.1695
救護	-12.1695
九百四	-12.1695
賓客	-12.1695
烈士	-12.1696
昭彰	-12.1696
彭曉	-12.1697
觸犯	-12.1697
袁公	-12.1697
棲遲	-12.1697
白鵠	-12.1697
瓊臺	-12.1698
周武王	-12.1698
二十五刻	-12.1698
菊花	-12.1698
黑錫	-12.1699
衰朽	-12.17
勤勤	-12.17
志道之人	-12.1701
脉洪大	-12.1701
不可度量	-12.1701
涿鹿	-12.1701
拂衣	-12.1702
增減	-12.1702
翠竹	-12.1702
泄天機	-12.1703
火以焚	-12.1703
凶咎	-12.1703
年月日	-12.1704
月受日	-12.1704
威勢	-12.1706
將兵百萬衆	-12.1707
齊桓公	-12.1707
童兒	-12.1708
逃亡	-12.1708
忠良	-12.1709
嘔血	-12.1709
巔疾	-12.171
鴻毛	-12.171
其星曰	-12.1711
移徙	-12.1711
滔天	-12.1712
弟兄	-12.1713
燒錬	-12.1713
目之曰	-12.1713
震雷	-12.1714
尺宅	-12.1714
皮膚痛	-12.1715
上古聖人	-12.1715
小腹痛	-12.1716
寸部	-12.1717
隴右	-12.1717
七百六	-12.1718
周徧	-12.1718
蓮華	-12.172
維持	-12.1721
城邑	-12.1721
泥牛	-12.1722
樂毅	-12.1722
流涕	-12.1723
鳥翼	-12.1724
罔極	-12.1724
北方壬癸水	-12.1724
弱冠	-12.1724
兩脅	-12.1724
可以延年	-12.1725
毁傷	-12.1727
亢龍	-12.1728
弦望	-12.1728
洞鑒	-12.1728
浮腫	-12.1729
九百三	-12.1729
耳聰	-12.1731
家園	-12.1732
焚修	-12.1734
也脾者	-12.1738
之刻也	-12.1738
瓊室	-12.1741
充塞	-12.1742
烏龜	-12.1742
章第十四	-12.1742
鄭衛	-12.1742
瑶宫	-12.1742
具述	-12.1743
乙丑歲	-12.1745
拔魏	-12.1749
伐燕	-12.175
火命人	-12.1753
傷暑	-12.1754
眞誥云	-12.1754
章第十五	-12.1755
繼趙	-12.1756
禹歩三歩九跡	-12.1757
淵源	-12.1761
四百一	-12.1763
火數二	-12.1769
右僕射	-12.1773
丁巳戊午己未庚申辛酉壬戌癸亥	-12.178
枯朽	-12.1782
未甞	-12.1795
刺禁論	-12.18
一年十二月	-12.1802
之常情	-12.1806
行之三年	-12.1812
雨霽	-12.1813
謹候	-12.1817
勤勞	-12.1818
救鄭	-12.182
循脊	-12.1823
十有二月	-12.1847
百七十里曰	-12.1861
欣欣	-12.1869
朱砂鼎	-12.1887
此吾所謂	-12.1889
感而通	-12.1889
帝曰願卒聞之岐伯曰	-12.1893
氣穴論	-12.1912
九百一	-12.193
海蟾子	-12.1944
黄帝素問靈樞集註卷之	-12.1946
百一十	-12.1952
有過者	-12.1968
光爍	-12.1987
養浩	-12.2005
月二十五日	-12.2005
周於身	-12.2014
十八戒不得	-12.2016
六百八	-12.2022
澄湛	-12.2049
瀟洒	-12.205
人之一身	-12.2065
不知是何	-12.2079
得而知之	-12.2088
五百四	-12.2098
分清濁	-12.2112
關竅	-12.2112
留十呼	-12.2126
鬼祟	-12.2128
略舉	-12.2134
足太陰脉	-12.2184
元眞曰	-12.2184
夭折	-12.219
刺可入	-12.2215
仁慈	-12.2253
燔灼	-12.2262
也丑未隂年	-12.2285
十五戒不得	-12.2331
戒不得妄	-12.2344
十三戒不得	-12.2375
脉氣所發也	-12.2378
角木音	-12.2398
慈惠	-12.2431
庚申辛酉壬戌癸亥經世之	-12.245
條有楊書	-12.2462
爭奈	-12.2462
四千三百	-12.2471
乙丑丙寅丁卯戊辰己巳庚午辛未壬申	-12.2481
十一戒不得	-12.2499
十六戒不得	-12.2505
經星之甲一百	-12.2534
毫髮差殊	-12.2544
彙	-12.2547
賽	-12.2549
戒常當	-12.2551
忘筌	-12.2551
四千八	-12.2552
拘畜禁門	-12.2553
寅午戌	-12.2553
潔庵	-12.2555
水内屬于	-12.2555
撩	-12.2555
閹	-12.2555
懺悔	-12.2555
收音濁和律四之	-12.2555
收音清和律一之	-12.2556
沐浴除過	-12.2556
璘	-12.2556
運交時面向未望	-12.2556
闔閭	-12.2556
問曰旣言	-12.2557
深根固蒂	-12.2557
其故何也岐伯曰	-12.2558
診要經終論	-12.2558
迫促時陰	-12.2558
平人氣象論	-12.2558
皈	-12.2559
開音清和律三之	-12.2559
扁舟	-12.256
入于精海	-12.256
壽同天地	-12.256
之時其氣在于	-12.256
帝曰夫子言	-12.256
收音清和律三之	-12.256
小人由是知	-12.256
干德符	-12.2561
九天眞王	-12.2561
芬芳	-12.2561
積氣生液	-12.2561
六微㫖大論	-12.2562
恍恍惚惚	-12.2562
寤寐	-12.2562
劬勞	-12.2562
閉眼思	-12.2562
父精母血	-12.2562
擬議	-12.2562
刼	-12.2562
飫	-12.2562
扶突	-12.2562
氣初五日	-12.2562
申酉戌	-12.2563
乘雲駕龍	-12.2563
蕤賔	-12.2563
筏	-12.2563
汲郡	-12.2563
濠	-12.2563
五篇眞文	-12.2563
非有非无	-12.2563
礜	-12.2564
稜	-12.2564
季孫	-12.2564
徐來勒	-12.2564
摯	-12.2564
直指人心見性成佛	-12.2564
胗	-12.2564
耿耿	-12.2565
喫飯	-12.2565
燃	-12.2565
紫度炎光	-12.2566
虹霓	-12.2566
糅	-12.2567
秃	-12.2567
跂	-12.2567
日精月華	-12.2567
一萬八千	-12.2567
土運南正司天天面向北左西直右東直	-12.2567
紱	-12.2567
荄	-12.2567
安爐立鼎	-12.2567
孳	-12.2567
湄	-12.2568
神符白雪	-12.2568
[...]
