<unk>	0
<s>	0
</s>	0
/	-4.34824
(	-4.35037
)	-4.35037
之	-4.42532
也	-5.2045
者	-5.23021
一	-5.40004
以	-5.40925
爲	-5.46001
兩	-5.4627
不	-5.49457
有	-5.54069
而	-5.65018
上	-5.70782
中	-5.7259
人	-5.74176
無	-5.76415
大	-5.78628
其	-5.84144
於	-5.85056
三	-5.86682
天	-5.89307
生	-5.90009
心	-5.93784
方	-5.97364
下	-5.97813
如	-6.01656
得	-6.03182
行	-6.04832
道	-6.12076
則	-6.13175
自	-6.13233
子	-6.19792
二	-6.20469
治	-6.22686
神	-6.22758
出	-6.23058
氣	-6.24311
用	-6.29093
若	-6.29395
在	-6.29888
是	-6.31151
五	-6.32237
故	-6.3354
又	-6.33774
此	-6.34824
)(	-6.37511
入	-6.39107
水	-6.41675
日	-6.41744
見	-6.42337
去	-6.43514
身	-6.43807
或	-6.44136
至	-6.44185
四	-6.44868
當	-6.45416
與	-6.46435
内	-6.4713
▁	-6.47487
明	-6.47832
法	-6.48575
作	-6.49186
時	-6.49724
令	-6.54218
分	-6.56205
主	-6.59741
成	-6.59974
合	-6.6173
風	-6.62458
經	-6.63117
常	-6.63164
及	-6.63236
來	-6.63478
真	-6.64233
名	-6.65075
後	-6.66302
取	-6.6643
皆	-6.66514
即	-6.66561
眞	-6.66865
言	-6.6698
同	-6.69416
相	-6.69702
所	-6.70101
通	-6.72739
地	-6.74668
正	-6.75868
病	-6.76023
服	-6.76518
靈	-6.79182
知	-6.79268
事	-6.79808
乃	-6.8
可	-6.80184
仙	-6.81358
使	-6.81792
善	-6.82171
山	-6.82848
長	-6.83599
白	-6.83925
復	-6.84193
文	-6.84549
火	-6.84729
我	-6.85227
金	-6.86031
多	-6.86222
欲	-6.8704
散	-6.88157
盡	-6.89741
能	-6.89838
處	-6.90025
矣	-6.90029
亦	-6.90709
陽	-6.91083
重	-6.92652
過	-6.93245
精	-6.93577
九	-6.9403
從	-6.94658
非	-6.94758
六	-6.95375
小	-6.9594
前	-6.96309
玄	-6.96641
玉	-6.96976
食	-6.97733
師	-6.97917
和	-6.98287
起	-6.99262
書	-6.99272
七	-6.99851
符	-6.99993
君	-7.01181
右	-7.02091
頭	-7.02428
今	-7.02703
清	-7.02931
半	-7.02967
好	-7.03044
死	-7.03857
先	-7.04095
更	-7.04382
凡	-7.04409
外	-7.04831
自然	-7.0555
便	-7.05665
八	-7.05683
曰	-7.05704
不得	-7.06826
開	-7.07164
黄	-7.07515
命	-7.07764
應	-7.08019
加	-7.08172
熱	-7.08303
化	-7.08751
諸	-7.08981
受	-7.10171
已	-7.1046
未	-7.1111
意	-7.11228
然	-7.11795
將	-7.11805
樂	-7.12853
湯	-7.13077
各	-7.13233
惡	-7.13322
因	-7.13532
天地	-7.14403
藥	-7.15372
發	-7.15611
口	-7.15978
空	-7.18129
王	-7.18156
雲	-7.18358
云	-7.19607
解	-7.19886
傳	-7.20164
升	-7.20301
陰	-7.208
存	-7.20945
炁	-7.22714
物	-7.22831
難	-7.22977
乎	-7.23077
痛	-7.23267
形	-7.23712
著	-7.24048
酒	-7.24814
耳	-7.24953
字	-7.25382
觀	-7.25408
結	-7.25411
安	-7.25604
念	-7.25637
理	-7.25744
光	-7.25908
急	-7.26053
數	-7.26455
元	-7.26927
歸	-7.27068
邪	-7.27158
不可	-7.28351
立	-7.28764
各一	-7.28919
吾	-7.29217
青	-7.29275
月	-7.29358
性	-7.30089
十	-7.30849
次	-7.3111
无	-7.31178
血	-7.31268
德	-7.31633
少	-7.33846
度	-7.3387
苦	-7.34588
絶	-7.34797
門	-7.35115
高	-7.35527
實	-7.36115
飛	-7.36124
年	-7.36373
反	-7.37388
何	-7.37513
動	-7.37526
本	-7.37691
各二	-7.38662
止	-7.38998
虚	-7.39755
還	-7.41172
等	-7.41709
宫	-7.42079
家	-7.42633
寒	-7.42636
夫	-7.43335
除	-7.43487
須	-7.43896
目	-7.441
極	-7.44304
甘草	-7.44619
公	-7.44724
滿	-7.44758
會	-7.45119
居	-7.4529
說	-7.45972
體	-7.46132
真人	-7.4621
色	-7.4675
平	-7.46755
修	-7.47042
流	-7.47117
共	-7.47494
脉	-7.48156
但	-7.48315
骨	-7.48852
思	-7.49133
不能	-7.49388
利	-7.49557
隨	-7.49562
石	-7.50006
鬼	-7.50118
運	-7.50123
根	-7.50376
定	-7.50484
丹	-7.50702
又方	-7.50712
轉	-7.51155
傷	-7.5183
深	-7.52661
各三	-7.52976
萬	-7.53456
願	-7.54037
教	-7.54359
要	-7.54637
枚	-7.54711
冷	-7.55226
世	-7.55296
赤	-7.5567
别	-7.55843
宜	-7.56295
俱	-7.56465
香	-7.56756
臣	-7.56767
聞	-7.57167
圓	-7.57466
微	-7.5753
且	-7.58104
學	-7.58243
妙	-7.58535
求	-7.58701
向	-7.58879
衣	-7.60148
土	-7.60802
藏	-7.60915
信	-7.61253
了	-7.6133
衆	-7.61672
離	-7.61802
華	-7.61985
足	-7.62067
景	-7.62498
莫	-7.6268
遊	-7.62689
降	-7.62743
必	-7.63355
星	-7.63608
帝	-7.64011
致	-7.64367
錢	-7.6445
悉	-7.64456
失	-7.64866
龍	-7.64927
論	-7.65089
守	-7.66087
問	-7.66262
遠	-7.66394
攝	-7.6663
聲	-7.66738
變	-7.66834
功	-7.66983
却	-7.67243
養	-7.6738
斷	-7.67405
甚	-7.68032
乾	-7.68789
洞	-7.69403
易	-7.69804
木	-7.70227
太上	-7.70277
久	-7.70442
疾	-7.71424
滅	-7.71525
飲	-7.7157
召	-7.71836
都	-7.71882
異	-7.71951
面	-7.7263
休	-7.72807
坐	-7.73129
灸	-7.73452
悟	-7.73595
間	-7.7471
交	-7.74802
西	-7.74918
百	-7.75176
初	-7.75514
既	-7.76008
似	-7.76249
到	-7.76344
并	-7.7637
亂	-7.76662
老	-7.76842
東	-7.77044
覺	-7.77098
閑	-7.7718
獨	-7.77215
奉	-7.77412
力	-7.77439
勿	-7.78081
喜	-7.78082
隂	-7.78205
左	-7.79024
雖	-7.79082
馬	-7.79798
隱	-7.79829
積	-7.80114
肉	-7.80306
毒	-7.80419
桂心	-7.80421
引	-7.80491
某	-7.80984
語	-7.8101
末	-7.8195
興	-7.821
品	-7.822
並	-7.82252
志	-7.82316
贈	-7.82319
女	-7.82829
裏	-7.83147
煎	-7.83719
節	-7.83872
雷	-7.84146
任	-7.84575
義	-7.84819
關	-7.85222
紫	-7.85335
進	-7.85435
先生	-7.85883
汁	-7.86651
戒	-7.86795
黑	-7.87922
親	-7.88293
順	-7.88377
看	-7.88445
天下	-7.88995
丸	-7.89123
聖	-7.89147
破	-7.89365
手	-7.89371
直	-7.89668
果	-7.89741
訣	-7.90107
請	-7.90573
住	-7.90741
皮	-7.91197
春	-7.91742
畢	-7.91757
收	-7.92032
瘡	-7.92209
塵	-7.92448
全	-7.9245
一切	-7.92479
福	-7.92684
再	-7.92804
報	-7.92838
腎	-7.93343
遇	-7.94204
夜	-7.94311
具	-7.94311
服之	-7.94715
新	-7.94786
北	-7.95126
施	-7.9515
始	-7.95392
民	-7.95417
依	-7.95481
朝	-7.95685
當歸	-7.96185
花	-7.9621
千	-7.9639
消	-7.96401
路	-7.96412
壽	-7.96647
呪	-7.96893
眞人	-7.9697
萬物	-7.96996
首	-7.97466
象	-7.97517
官	-7.9757
望	-7.97861
兒	-7.97882
伏	-7.97936
眼	-7.98539
斗	-7.98992
温	-7.99182
吐	-7.99333
逆	-7.99338
不知	-7.9935
哉	-7.99459
腫	-7.99538
寳	-7.99605
雨	-7.99672
顯	-7.99817
唯	-7.99891
患	-8.00068
對	-8.00164
靜	-8.00165
就	-8.00257
國	-8.00281
布	-8.00851
章	-8.00853
虛	-8.00922
聚	-8.0103
乘	-8.01421
十二	-8.01472
味	-8.0151
日月	-8.01637
南	-8.0169
罪	-8.01805
燒	-8.01889
鍊	-8.02282
蟲	-8.02316
寶	-8.0236
許	-8.02384
位	-8.02732
宿	-8.03061
縁	-8.0316
忘	-8.03284
勝	-8.03524
人參	-8.03593
賢	-8.03846
肝	-8.0388
所以	-8.03968
照	-8.03988
聽	-8.04488
太	-8.04498
愛	-8.04607
速	-8.04783
周	-8.04809
稱	-8.05217
持	-8.05328
感	-8.06303
肺	-8.06318
茯苓	-8.06483
業	-8.06661
舉	-8.06695
餘	-8.06852
尋	-8.06906
海	-8.07103
焉	-8.07314
告	-8.07354
勑	-8.07449
上清	-8.07617
輕	-8.08335
又云	-8.08503
號	-8.08623
調	-8.08625
大黄	-8.08683
經云	-8.09789
强	-8.09921
齋	-8.09927
俗	-8.10053
張	-8.10571
謂	-8.10582
九天	-8.11225
指	-8.11555
素	-8.11631
神仙	-8.12062
保	-8.12103
熟	-8.12341
盛	-8.12611
終	-8.12669
煑	-8.13328
遂	-8.13337
智	-8.13627
近	-8.14392
尚	-8.14462
廣	-8.14769
情	-8.14931
想	-8.15329
補	-8.15352
識	-8.15373
蓋	-8.15414
于	-8.15432
脾	-8.15541
膏	-8.15615
惟	-8.15659
息	-8.16047
愈	-8.1611
益	-8.16698
幽	-8.17367
草	-8.17374
臨	-8.17705
魂	-8.17814
堅	-8.18056
葉	-8.18184
良	-8.18189
猶	-8.18355
一兩	-8.18425
音	-8.18519
大道	-8.18634
禮	-8.18734
之人	-8.18777
長生	-8.18842
弟子	-8.18942
録	-8.19094
附子	-8.19218
乾薑	-8.19472
天尊	-8.19589
刺	-8.1961
由	-8.19894
禁	-8.19983
登	-8.20118
而不	-8.20468
生薑	-8.20493
令人	-8.20645
達	-8.20728
胎	-8.20809
道德	-8.20842
總	-8.20925
防風	-8.21126
投	-8.21282
帝王	-8.2129
他	-8.21654
室	-8.21825
羅	-8.21863
仁	-8.22157
之道	-8.22347
無爲	-8.22353
集	-8.22703
紅	-8.22715
種	-8.22791
驚	-8.23004
迷	-8.23342
之中	-8.23402
修行	-8.2347
辭	-8.23836
爲末	-8.23849
放	-8.23911
臺	-8.2397
早	-8.23995
落	-8.23999
損	-8.24247
憂	-8.24313
歲	-8.24554
陳	-8.24623
黄芩	-8.24628
白术	-8.24922
母	-8.24934
固	-8.25001
也故	-8.25282
永	-8.25417
甲	-8.25684
害	-8.25871
漸	-8.26056
執	-8.26591
二十	-8.26757
秋	-8.26766
細	-8.26835
留	-8.26871
切	-8.26981
尊	-8.27041
細辛	-8.27307
殺	-8.27588
夢	-8.27612
斤	-8.2763
貪	-8.27767
備	-8.27851
謝	-8.28015
被	-8.28243
把	-8.28368
迴	-8.28388
恐	-8.28649
塗	-8.28964
最	-8.29107
客	-8.29108
謹	-8.29245
大神	-8.294
第一	-8.29407
皇	-8.29428
待	-8.29505
如此	-8.29771
勞	-8.29879
連	-8.30018
造	-8.30768
芍藥	-8.30804
隂陽	-8.30896
往	-8.31032
浮	-8.31165
容	-8.31388
上下	-8.31448
期	-8.3154
父母	-8.32026
犯	-8.32212
凶	-8.32361
古	-8.32637
貴	-8.32837
針	-8.33074
屬	-8.33185
朱	-8.33218
走	-8.33373
境	-8.33384
視	-8.33564
助	-8.33878
為	-8.33912
候	-8.34166
卧	-8.3424
薄	-8.34467
敕	-8.34558
證	-8.34602
汝	-8.34669
曲	-8.34846
没	-8.35136
杏仁	-8.35195
做	-8.35335
灰	-8.35341
笑	-8.35478
一升	-8.35563
窮	-8.35609
齊	-8.36067
現	-8.36114
光明	-8.36299
注	-8.36828
制	-8.36944
勸	-8.37227
承	-8.37388
懷	-8.37464
巳	-8.37568
背	-8.38647
可以	-8.38789
昇	-8.39416
府	-8.39574
每	-8.39821
名爲	-8.40047
穴	-8.40071
歌	-8.40095
愚	-8.40258
脚	-8.40297
己	-8.40363
亡	-8.40562
得道	-8.40639
午	-8.40839
恩	-8.40979
林	-8.4112
呼	-8.41193
劫	-8.41587
銖	-8.41703
▲	-8.41812
禍	-8.42178
鐵	-8.42297
部	-8.42687
三界	-8.42891
堪	-8.42939
脫	-8.42997
司	-8.43125
辰	-8.432
以爲	-8.43507
不敢	-8.43513
誠	-8.43697
洗	-8.43722
圖	-8.43983
夏	-8.44156
寧	-8.44315
秀	-8.44381
閉	-8.44418
遣	-8.44557
救	-8.4458
珠	-8.45119
天尊至心信禮	-8.45215
道士	-8.45396
覆	-8.45397
授	-8.45523
記	-8.45561
魔	-8.45638
炒	-8.4568
假	-8.45687
腹	-8.45945
然後	-8.45967
效	-8.46039
吉	-8.46191
慧	-8.46202
仰	-8.46226
壇	-8.46488
中有	-8.46725
房	-8.46915
塞	-8.47357
魚	-8.47576
一名	-8.47738
甘	-8.48002
虎	-8.4823
士	-8.48589
敬	-8.48753
垂	-8.48842
宗	-8.48853
奏	-8.48987
置	-8.49
舊	-8.49294
兵	-8.49551
蜜	-8.49765
仍	-8.49959
堂	-8.49981
廼	-8.50076
蒙	-8.50112
衆生	-8.50132
棄	-8.50446
其人	-8.50463
輪	-8.5052
忽	-8.50525
榮	-8.50759
黄連	-8.50833
亦可	-8.51103
冬	-8.51292
回	-8.51378
豈	-8.51547
諸天	-8.51906
第二	-8.52117
陰陽	-8.52206
露	-8.52223
比	-8.52325
州	-8.52362
只	-8.52793
敗	-8.5308
各四	-8.53349
宣	-8.53655
逍遥	-8.53677
列	-8.53733
慈	-8.53806
半夏	-8.53818
逐	-8.53892
芎藭	-8.53893
專	-8.53975
研	-8.53976
計	-8.5408
機	-8.54211
舌	-8.54235
之所	-8.54735
石膏	-8.54764
充	-8.54795
使者	-8.54979
牛	-8.55028
參	-8.55088
累	-8.55091
乳	-8.55195
謂之	-8.55215
曉	-8.55339
凝	-8.55385
索	-8.55426
代	-8.55442
灾	-8.55585
箇	-8.55695
斯	-8.55941
沉	-8.55967
天道	-8.56149
鼻	-8.56304
詩	-8.56384
違	-8.5648
角	-8.56493
學道	-8.56633
大棗	-8.57045
類	-8.57054
遍	-8.57203
卷	-8.57262
帶	-8.57578
考	-8.57816
偏	-8.57932
煙	-8.57957
建	-8.58253
天上	-8.58401
生死	-8.58577
左右	-8.58743
步	-8.58794
厚	-8.58855
退	-8.59163
竟	-8.59228
刑	-8.59419
精神	-8.59431
含	-8.59448
乾地黄	-8.59521
寄	-8.59561
鬼神	-8.59677
煞	-8.59931
三十	-8.60262
孝	-8.60347
辛	-8.60526
髮	-8.6059
超	-8.60621
米	-8.6073
徹	-8.6105
之法	-8.61071
急急如律令	-8.61115
弱	-8.61169
祕	-8.61173
免	-8.61232
户	-8.61348
第三	-8.6163
附	-8.61745
樹	-8.6183
小兒	-8.619
田	-8.6194
暗	-8.61998
耶	-8.62002
封	-8.62066
醫	-8.62373
十方	-8.62384
余	-8.62721
妄	-8.62724
李	-8.62778
唵	-8.62803
狀	-8.62908
送	-8.63165
淨	-8.63299
普	-8.63507
濟	-8.63531
兼	-8.63588
三光	-8.6371
元始	-8.63999
名曰	-8.64038
縱	-8.64056
不止	-8.64089
天師	-8.64146
端	-8.64175
活	-8.64221
爛	-8.64264
財	-8.64286
遺	-8.64347
怒	-8.64351
湯治	-8.64401
忌	-8.64417
胃	-8.64661
車	-8.64833
按	-8.64904
是故	-8.64955
器	-8.65177
威	-8.65251
手足	-8.65316
瓊	-8.65355
兆	-8.65393
擣	-8.65471
祖	-8.65473
鳳	-8.65638
晨	-8.6564
四肢	-8.65668
卒	-8.65729
詳	-8.65752
誦	-8.65869
太陽	-8.65959
誰	-8.66088
麥門冬	-8.66257
舍	-8.66342
職	-8.66491
無有	-8.66521
傅	-8.666
寒熱	-8.6678
二兩	-8.66821
耀	-8.66893
雪	-8.6745
白芷	-8.67492
雙	-8.67517
趣	-8.67701
爭	-8.68047
移	-8.68172
黃	-8.68433
啓	-8.68637
分明	-8.68642
麻黄	-8.68933
一日	-8.68953
吹	-8.69041
密	-8.69401
父	-8.69654
炙	-8.69996
濁	-8.70221
也夫	-8.70485
靈寳	-8.70612
衰	-8.70758
不用	-8.70904
城	-8.70938
爾	-8.70984
劉	-8.71198
各五	-8.71498
黒	-8.71567
中央	-8.71695
疑	-8.72051
鎮	-8.72063
瘥	-8.72067
愁	-8.72073
之時	-8.72132
朗	-8.72193
付	-8.72217
四時	-8.72222
示	-8.72246
五臟	-8.72358
狂	-8.72507
映	-8.72579
諱	-8.72697
接	-8.7271
河	-8.72778
篇	-8.73198
表	-8.73225
寂	-8.73264
簡	-8.73378
履	-8.73424
汗	-8.73426
那	-8.7347
申	-8.73665
竹	-8.73682
條	-8.73744
增	-8.7379
飲食	-8.73869
三日	-8.74179
五行	-8.74195
返	-8.74256
帝君	-8.74256
拜	-8.74304
訖	-8.74317
波	-8.74603
闕	-8.7467
日三	-8.74761
載	-8.74792
筆	-8.74979
披	-8.75035
玉女	-8.75036
習	-8.75067
紙	-8.75111
鳴	-8.75235
漢	-8.75376
穢	-8.75716
邊	-8.75733
凡人	-8.75839
佳	-8.76021
腸	-8.76056
毛	-8.76209
推	-8.76289
吏	-8.76587
覩	-8.76744
横	-8.76762
漏	-8.77071
不足	-8.77184
予	-8.77267
太極	-8.773
大小	-8.77355
冠	-8.77626
濕	-8.77694
不復	-8.77939
彼	-8.78091
橘皮	-8.78142
齒	-8.78168
汗出	-8.782
松	-8.78201
性命	-8.78325
蜀椒	-8.78366
玉清	-8.78446
宅	-8.78526
燈	-8.78638
愼	-8.78658
點	-8.78765
烏	-8.78792
緊	-8.78838
太平	-8.7886
東方	-8.79119
鶴	-8.79285
物外	-8.79417
産	-8.79809
輔	-8.79994
是也	-8.80232
鄉	-8.80516
之氣	-8.80631
延	-8.80698
内外	-8.81193
三兩	-8.81263
危	-8.813
郎	-8.81305
五帝	-8.81333
婦人	-8.81476
醉	-8.81616
心中	-8.81625
因縁	-8.81672
三元	-8.81711
遲	-8.81848
夫人	-8.81921
怨	-8.82036
武	-8.82169
悲	-8.82329
逢	-8.82336
壯	-8.82406
源	-8.82415
自在	-8.82579
顧	-8.82715
災	-8.82777
迎	-8.82857
聖人	-8.82875
詞	-8.83003
美	-8.83068
負	-8.83331
訪	-8.83413
庭	-8.83483
震	-8.83591
桔梗	-8.83907
停	-8.84019
金光	-8.84119
駕	-8.84297
衝	-8.84474
領	-8.84521
腹中	-8.84665
招	-8.84919
孔	-8.85094
惑	-8.85126
井	-8.85206
昏	-8.8553
變化	-8.85536
不見	-8.85551
孤	-8.85642
太一	-8.85769
賜	-8.85888
打	-8.86086
這	-8.86087
姓	-8.86111
倒	-8.86253
之後	-8.86344
爲善	-8.86369
慶	-8.86578
上帝	-8.8664
煩	-8.86668
貧	-8.86884
南方	-8.86887
昔	-8.86932
童	-8.86937
刀	-8.86949
於是	-8.87062
筋	-8.8713
捨	-8.8722
鼓	-8.87318
懸	-8.87333
也今	-8.87481
將軍	-8.87648
館	-8.8776
牛膝	-8.87768
蓬萊	-8.87779
厚朴	-8.87821
黄耆	-8.88069
暴	-8.88083
頓	-8.88221
短	-8.88229
釋	-8.88255
折	-8.88324
敢	-8.88662
用之	-8.88902
跡	-8.89089
勤	-8.89181
驗	-8.89339
磨	-8.89494
洪	-8.89517
人間	-8.89535
霜	-8.89553
野	-8.89605
浸	-8.89729
護	-8.89804
沸	-8.89901
赴	-8.89925
寅	-8.89929
搜	-8.89935
透	-8.89946
曜	-8.90024
改	-8.90401
卯	-8.90542
元帥	-8.90546
捉	-8.90619
雞	-8.90713
江	-8.90864
童子	-8.90946
谷	-8.90948
科	-8.91067
行之	-8.91242
認	-8.91243
滯	-8.91366
頂	-8.9144
世間	-8.91561
欺	-8.91777
五味子	-8.91867
散治	-8.91929
决	-8.91944
腰	-8.92166
各半	-8.92177
吞	-8.92206
無所	-8.92288
也又云	-8.92332
肯	-8.92396
衛	-8.92475
善惡	-8.92479
奇	-8.92484
五方	-8.92512
誡	-8.926
契	-8.92615
北方	-8.9276
便是	-8.92902
祝	-8.92932
男女	-8.93088
寸	-8.93122
三升	-8.93152
分别	-8.93381
響	-8.93494
設	-8.93652
管	-8.93664
真君	-8.93723
法師	-8.9376
徒	-8.93784
二十四	-8.93901
蛇	-8.94107
顔	-8.94139
咽	-8.94234
梁	-8.94294
略	-8.94314
錦	-8.9434
吴茱萸	-8.94374
敷	-8.94397
泉	-8.94649
友	-8.94818
談	-8.94826
傾	-8.94917
採	-8.95367
霞	-8.95403
里	-8.95472
量	-8.95526
御	-8.95782
泄	-8.95835
曾	-8.96109
染	-8.96122
罡	-8.96257
五色	-8.96326
乞	-8.9634
序	-8.96395
醋	-8.96422
獨活	-8.96511
緑	-8.96555
蒸	-8.96563
豆	-8.96583
差	-8.96752
碎	-8.96784
混	-8.96797
十四	-8.96922
男	-8.96952
五嶽	-8.97031
十八	-8.97062
津	-8.97092
兮	-8.97127
旦	-8.9717
自有	-8.97193
泥	-8.97378
是以	-8.97425
人人	-8.97799
洞天	-8.98099
莫不	-8.98131
太清	-8.98149
雄黄	-8.98175
澤	-8.98195
烏頭	-8.98317
試	-8.98325
底	-8.98359
羽	-8.98461
恒	-8.9852
原	-8.98555
崇	-8.98559
質	-8.98579
印	-8.98616
觸	-8.98708
灸法	-8.9893
一作	-8.9894
爲人	-8.98949
無常	-8.99041
頻	-8.99113
吸	-8.99155
約	-8.99163
哀	-8.99179
英	-8.99203
坎	-8.99617
膽	-8.99694
幾	-8.99714
暖	-8.99766
越	-8.99826
輒	-8.99867
雜	-9.00092
役	-9.00127
不通	-9.00153
之間	-9.00237
人也	-9.00356
忠	-9.00424
淵	-9.0052
各有	-9.00625
僞	-9.00665
魄	-9.00764
枝	-9.0083
摩	-9.00919
策	-9.00928
冥	-9.00969
所謂	-9.00978
獄	-9.00993
題	-9.01052
畫	-9.01102
身體	-9.01112
富	-9.01152
虚空	-9.01247
使人	-9.01365
緩	-9.0169
去滓	-9.01723
侍	-9.01807
樓	-9.01973
第四	-9.0202
籙	-9.02099
水火	-9.02143
術	-9.02184
時時	-9.02322
沈	-9.02448
厥	-9.02494
遠志	-9.0262
伯	-9.0268
治之	-9.02851
嚴	-9.02933
今日	-9.02995
稍	-9.03223
如何	-9.03285
掌	-9.03541
於此	-9.03545
籍	-9.03644
澄	-9.03703
升麻	-9.03748
畏	-9.03765
出入	-9.03882
是非	-9.03911
脂	-9.04118
丘	-9.04179
尸	-9.04249
爲其	-9.04326
者是	-9.0434
遷	-9.04372
膝	-9.04413
省	-9.04575
騰	-9.04628
主之	-9.0465
韻	-9.04662
霹靂	-9.04743
者爲	-9.04844
咸	-9.05002
鹽	-9.0521
二者	-9.05252
占	-9.05302
灌	-9.05317
縣	-9.05332
煮	-9.05731
無窮	-9.05997
呪曰	-9.06015
拔	-9.06166
憑	-9.0618
枳實	-9.06185
雷霆	-9.06301
暮	-9.06324
古今	-9.0645
拆	-9.06685
羊	-9.06706
傷寒	-9.06858
○	-9.06972
勢	-9.06973
吒	-9.07048
龍骨	-9.07064
渴	-9.0707
油	-9.07157
萬里	-9.07326
者皆	-9.07413
務	-9.07552
川	-9.07594
飯	-9.07639
厄	-9.07686
老子	-9.07795
殊	-9.0785
傅之	-9.07868
不同	-9.07966
座	-9.07996
往來	-9.08077
之上	-9.08228
追	-9.08245
慮	-9.08288
痺	-9.08294
二升	-9.08324
殃	-9.08327
道人	-9.08416
刻	-9.08577
急急	-9.08704
不須	-9.08706
枯	-9.08938
電	-9.08945
奔	-9.08993
萬神	-9.09017
吟	-9.09025
高上	-9.09164
特	-9.09172
出家	-9.09458
尤	-9.0955
詠	-9.09555
如是	-9.09579
棗	-9.09593
揚	-9.09599
丁	-9.09677
滑	-9.09689
功德	-9.09777
知之	-9.09852
天地之	-9.10171
膿	-9.10263
口中	-9.10269
丹田	-9.10384
道君	-9.10414
有所	-9.10458
右出洞真	-9.10511
神靈	-9.10752
純	-9.108
胡	-9.10863
液	-9.10943
一者	-9.10958
適	-9.11018
清浄	-9.11021
政	-9.11042
罪學士及百姓子	-9.11073
唱	-9.11145
乾坤	-9.11231
碧	-9.1132
尺	-9.11702
疏	-9.11751
小便	-9.12241
監	-9.12411
之炁	-9.12459
項	-9.12482
天君	-9.12511
得之	-9.12522
睡	-9.12532
行道	-9.12544
腦	-9.12651
豉	-9.12719
不生	-9.13042
粉	-9.13201
責	-9.13456
造化	-9.13681
導	-9.13682
輸	-9.13737
包	-9.13926
潤	-9.13932
疼痛	-9.13935
驅	-9.14013
各十	-9.14028
熬	-9.14089
天之	-9.14119
避	-9.14149
慢	-9.14216
歷	-9.14392
厭	-9.14408
其中	-9.14412
孫	-9.1457
擊	-9.14613
儀	-9.14627
阿膠	-9.14686
霄	-9.14735
怪	-9.14791
三天	-9.14852
七日	-9.14869
之日	-9.14956
桂	-9.14966
療	-9.15001
雲水	-9.15028
幸	-9.15087
兩半	-9.15387
你	-9.1542
惠	-9.15424
晝夜	-9.155
剔	-9.15646
即是	-9.15713
才	-9.15895
百日	-9.15974
巴豆	-9.16043
趙	-9.16067
也若	-9.16168
抱	-9.16282
無上	-9.16335
消息	-9.16347
至於	-9.16372
審	-9.16429
老君	-9.16561
清靜	-9.16564
亥	-9.1663
牙	-9.16639
清淨	-9.16645
游	-9.1675
柔	-9.16757
杖	-9.16834
牽	-9.16934
弦	-9.17021
斬	-9.1706
清凉	-9.17119
三年	-9.17184
五十	-9.17195
案	-9.17216
四方	-9.17326
若有	-9.17478
肥	-9.17599
希	-9.17611
獲	-9.1763
蕩	-9.17706
字起	-9.17716
不及	-9.17724
迹	-9.17776
前後	-9.17947
第五	-9.18056
瀉	-9.18164
剛	-9.1818
須臾	-9.18207
治小兒	-9.1822
穿	-9.18445
賊	-9.18524
貼	-9.1855
酸	-9.18564
重陽	-9.18571
智慧	-9.1881
壞	-9.1889
元氣	-9.189
誤	-9.18991
服藥	-9.18991
續	-9.1902
有餘	-9.19039
句	-9.19077
猪	-9.19086
比若	-9.1909
昌	-9.19101
喘	-9.19121
扶	-9.19175
病人	-9.19304
眠	-9.19359
嘉	-9.19395
西方	-9.19483
麻	-9.19492
銀	-9.19522
丹陽	-9.19578
筭	-9.19593
或有	-9.19629
瘧	-9.19848
界	-9.19855
麝香	-9.19903
淋	-9.19957
慈悲	-9.19979
傍	-9.19993
暉	-9.19998
秘	-9.20029
營	-9.20118
餘方	-9.20339
本類	-9.20427
群	-9.20464
徧	-9.20605
炎	-9.20654
礬石	-9.20679
律令	-9.20752
鬱	-9.20769
頌	-9.20772
禀	-9.20776
困	-9.20788
心痛	-9.208
巧	-9.208
喪	-9.2082
潜	-9.20827
影	-9.20876
唯唯	-9.20886
咎	-9.21042
妖	-9.21063
五雷	-9.21159
旋	-9.21223
四十	-9.21265
柴胡	-9.21346
巨	-9.21396
一枚	-9.21671
律	-9.21717
上元	-9.21809
散見	-9.21967
嘗	-9.22285
盈	-9.22287
瑩	-9.22288
不過	-9.22293
沙	-9.22298
統	-9.22361
漬	-9.22371
激	-9.22375
殘	-9.224
遭	-9.22617
巽	-9.22708
歸去	-9.22736
燒香	-9.22765
玉帝	-9.22766
巾	-9.22946
之以	-9.23005
銅	-9.23021
君子	-9.23044
氏	-9.23155
纔	-9.23192
射	-9.23307
病者	-9.23438
三者	-9.23494
太玄	-9.23636
神明	-9.23681
三寸	-9.23684
一點	-9.23728
無名者	-9.2377
坤	-9.23896
輝	-9.24142
察	-9.24154
丑	-9.24394
干	-9.24411
之事	-9.24471
此方	-9.24494
仙人	-9.24639
者方	-9.24847
頭痛	-9.25007
霧	-9.25029
隔	-9.25235
而已	-9.25335
臍	-9.25338
姑	-9.25545
縛	-9.25551
繫	-9.256
爲之	-9.25651
不欲	-9.25794
身中	-9.25841
覓	-9.25987
報應	-9.26
鎖	-9.26154
澤瀉	-9.26258
洞玄	-9.26308
瑞	-9.26359
相應	-9.26362
戌	-9.26425
㝠	-9.26439
五藏	-9.26523
而生	-9.26591
不解	-9.26621
池	-9.2663
生地黄	-9.26638
雷神	-9.26703
廢	-9.26714
髓	-9.26721
屋	-9.26804
無極	-9.2681
暫	-9.26922
歡	-9.26997
死生	-9.27011
錯	-9.27067
供養	-9.27233
者以	-9.27245
地獄	-9.27322
柳	-9.27352
三皇	-9.27445
欬	-9.27446
之精	-9.27489
右二味	-9.27834
振	-9.27865
軒	-9.27893
也其	-9.27925
盟	-9.27973
元君	-9.28007
顛倒	-9.28086
催	-9.28181
單	-9.28184
飽	-9.28265
者乃	-9.28343
焚	-9.28372
側	-9.28397
舞	-9.28561
功行	-9.28565
多少	-9.28627
醮	-9.2871
繩	-9.2878
市	-9.28853
屈	-9.28857
换	-9.28879
競	-9.28903
煉	-9.28934
辯	-9.28936
快	-9.28946
詣	-9.28994
金闕	-9.29007
不死	-9.29225
菜	-9.29317
也此	-9.29367
三十六	-9.29391
左手	-9.29483
殿	-9.29556
短氣	-9.29608
盤	-9.29649
十日	-9.2968
冰	-9.29736
話	-9.29742
默	-9.29768
不動	-9.29972
帥	-9.30011
飢	-9.30077
防	-9.30368
戀	-9.30456
急急如	-9.30515
添	-9.30577
翻	-9.30597
寬	-9.3065
墮	-9.30911
冤	-9.30963
弗	-9.31132
穀	-9.31146
溪	-9.31164
栀子	-9.31241
此爲	-9.31287
眉	-9.31341
道友	-9.31377
善人	-9.31427
纏	-9.3147
道之	-9.31613
一人	-9.31662
食之	-9.31664
北帝	-9.31768
取汁	-9.31775
第六	-9.3193
西北	-9.31999
納	-9.32243
攻	-9.32294
一斤	-9.32335
弄	-9.32352
寫	-9.32386
勿令	-9.32549
侯	-9.32687
三清	-9.32695
陽氣	-9.32863
紀	-9.33126
像	-9.33132
大將	-9.33347
各六	-9.33366
者則	-9.33375
賢者	-9.33403
一時	-9.33416
佩	-9.33454
私	-9.33478
别有	-9.33511
雷火	-9.33583
淺	-9.33751
化爲	-9.33752
又有	-9.33829
石斛	-9.33932
拂	-9.33993
常以	-9.34232
尾	-9.34534
三寳	-9.34576
上皇	-9.34582
徑	-9.34644
可得	-9.34726
峰	-9.34788
倍	-9.34916
貫	-9.34918
恭	-9.34941
浪	-9.34993
桃仁	-9.35022
席	-9.35025
障	-9.35041
郡	-9.35061
修眞	-9.35091
胷中	-9.35289
其身	-9.35379
院	-9.35652
茶	-9.35717
絲	-9.35742
禄	-9.35837
以此	-9.35897
天雄	-9.35938
悶	-9.35944
人民	-9.35974
崑崙	-9.36078
每服	-9.36149
白雲	-9.3617
劇	-9.36176
疼	-9.36333
長春	-9.36334
者死	-9.36379
資	-9.36422
所言	-9.36502
萬劫	-9.36536
不肯	-9.36574
爲度	-9.36589
舟	-9.36616
鍾	-9.36629
委	-9.36664
玉皇	-9.36671
典	-9.36715
乗	-9.3672
清虚	-9.36991
東南	-9.36994
誓	-9.37118
十六	-9.37213
痔	-9.3723
牢	-9.37252
三洞	-9.37269
而無	-9.3759
而爲	-9.37622
局	-9.37642
繞	-9.37728
翁	-9.37737
唎	-9.37907
忍	-9.38081
二首	-9.38203
爲使	-9.38204
芝	-9.38298
啼	-9.38395
牡蠣	-9.38494
諸神	-9.38554
謾	-9.3862
讀	-9.38655
彊	-9.38658
權	-9.38703
日夜	-9.39103
一身	-9.39164
格	-9.39203
圓治	-9.39235
伐	-9.39246
呵	-9.39361
蓯蓉	-9.39383
菖蒲	-9.39408
硭硝	-9.39427
臭	-9.3945
賤	-9.3962
富貴	-9.39644
分三服	-9.39694
皇天	-9.39822
知母	-9.39938
上氣	-9.39983
心下	-9.40059
使其	-9.4011
愚生	-9.4012
亦有	-9.40263
溺	-9.40285
嘔	-9.40297
毋	-9.40298
菴	-9.4033
者當	-9.40331
赤石脂	-9.40339
嬰	-9.40422
宴	-9.40443
丹砂	-9.40532
遥	-9.40551
泥丸	-9.40599
功成	-9.40709
際	-9.40716
肩	-9.4082
浴	-9.41074
學者	-9.41105
燥	-9.4112
儒	-9.41376
貞	-9.41429
輩	-9.41534
之神	-9.4156
稽首	-9.41627
則爲	-9.41747
第七	-9.41859
臂	-9.41884
而行	-9.4194
慕	-9.41974
髙	-9.42025
裹	-9.42104
悔	-9.42124
酉	-9.42177
悅	-9.42313
掐	-9.42366
日日	-9.42396
餐	-9.42404
飛仙	-9.42454
吴	-9.42456
賞	-9.42523
日再	-9.42671
給	-9.42727
雄	-9.42869
虚無	-9.43078
九轉	-9.43081
脹	-9.43137
潔	-9.43195
白歛	-9.4322
鳥	-9.4332
郭	-9.43353
晝	-9.43369
檢	-9.43419
地黄	-9.43518
書符	-9.43582
五升	-9.43784
沖和	-9.43981
三官	-9.44113
潰	-9.44219
真道	-9.44257
也凡	-9.44316
怎	-9.44345
將來	-9.4437
罷	-9.44375
宇	-9.44419
也又	-9.44663
化生	-9.4486
栝蔞根	-9.44869
宮	-9.44877
答	-9.44905
宜服	-9.45079
腹滿	-9.45188
校	-9.45197
絳	-9.45249
竭	-9.45332
鼎	-9.45336
子孫	-9.45353
腹痛	-9.45382
翠	-9.45386
脩	-9.45395
葱白	-9.45417
的	-9.45437
侵	-9.45519
十五	-9.45542
亦不	-9.45568
奪	-9.45682
陷	-9.45859
預	-9.45862
蒼	-9.45872
祟	-9.46047
行持	-9.46074
秦芁	-9.46161
凉	-9.46184
禪	-9.4638
徐	-9.46385
飲之	-9.4643
兩手	-9.46488
昧	-9.46517
辟	-9.46566
第八	-9.46619
入道	-9.46672
百年	-9.46708
陵	-9.46812
蓮	-9.46865
焦	-9.46881
唾	-9.46937
三五	-9.46944
豐	-9.46953
愆	-9.47025
戲	-9.47178
犀角	-9.47192
之内	-9.47212
何故	-9.47238
請問	-9.47299
燭	-9.47341
恍惚	-9.47346
焕	-9.47356
面目	-9.47358
丹陽繼韻	-9.47362
鼠	-9.47373
唤	-9.47378
片	-9.4741
忠孝	-9.47451
神人	-9.47545
减	-9.47652
丈人	-9.4782
九玄	-9.47889
雷電	-9.47909
宻	-9.48081
曹	-9.48133
六十	-9.4814
杜仲	-9.48199
疰	-9.48209
膀胱	-9.48247
艾	-9.48258
奉行	-9.48288
自是	-9.48292
無形	-9.48352
環	-9.48354
園	-9.484
罰	-9.48424
皆有	-9.48424
讚	-9.48443
金丹	-9.48452
天門	-9.48463
上有	-9.485
其所	-9.48589
其上	-9.48638
凡事	-9.48665
卿	-9.48671
若能	-9.48758
各等	-9.48763
人身	-9.48906
日中	-9.48923
弘	-9.49166
卦	-9.49231
繼	-9.49253
粥	-9.4927
歎	-9.49371
聖賢	-9.49464
再拜	-9.49579
元初	-9.49621
姜	-9.4973
尿	-9.49804
拘	-9.49902
歩	-9.49968
竈	-9.50023
上真	-9.50281
祥	-9.50283
紫菀	-9.5029
校正	-9.5035
提	-9.50352
般	-9.50361
秦	-9.50366
者可	-9.50415
宋朝	-9.50417
少卿	-9.50441
姦	-9.50476
熏	-9.50608
有三	-9.50687
守一	-9.50725
七寳	-9.50797
不絶	-9.50826
人之	-9.50869
弟	-9.50946
究	-9.5115
薯蕷	-9.51235
知其	-9.5127
太空	-9.51276
之士	-9.51315
莖	-9.5135
墨	-9.51376
即愈	-9.51409
促	-9.5143
入符	-9.51516
騎	-9.5154
阿	-9.51574
不出	-9.5165
邪氣	-9.51694
綿	-9.51708
守太	-9.51847
德君	-9.51855
伴	-9.5191
不爲	-9.51969
漿	-9.52033
所致	-9.52172
述	-9.52248
日二	-9.52253
削	-9.52405
文書	-9.52434
發熱	-9.52466
林億	-9.52496
燒灰	-9.52523
詔	-9.5254
夷	-9.52547
教化	-9.52731
梵	-9.52918
誅	-9.52955
爲道	-9.52965
故曰	-9.53059
爽	-9.53086
雷公	-9.53109
上天	-9.53124
不瘥	-9.53149
嶽	-9.53177
自知	-9.53184
一寸	-9.53276
恣	-9.53325
三田	-9.53335
癰	-9.53388
不如	-9.5345
茯神	-9.53504
無量	-9.53508
携	-9.53578
芳	-9.53595
摧	-9.53595
喉	-9.53597
脣	-9.53654
倚	-9.53701
混沌	-9.53732
方便	-9.53749
未能	-9.53754
了了	-9.5377
謙	-9.53783
北斗	-9.53814
心意	-9.53825
故云	-9.53868
於天	-9.53984
是爲	-9.54137
不信	-9.54216
玄都	-9.54232
不失	-9.54294
口口	-9.543
酒服	-9.54306
不仁	-9.5431
亦得	-9.54395
當以	-9.54684
沐浴	-9.54741
着	-9.54754
獻	-9.54797
祐	-9.54897
可謂	-9.54909
四兩	-9.55052
全眞	-9.55102
四者	-9.55151
浄	-9.55161
柱	-9.55183
東華	-9.5523
羣	-9.55251
太素	-9.55291
晴	-9.55393
癰疽	-9.5546
教人	-9.55526
祈	-9.5568
淫	-9.55698
掩	-9.55752
枕	-9.5576
山茱萸	-9.55768
戰	-9.55822
賢聖	-9.55848
例	-9.55869
痢	-9.55892
恨	-9.55897
魂魄	-9.55975
者亦	-9.56143
爲惡	-9.56158
胞	-9.56264
鏡	-9.56524
於人	-9.56543
世人	-9.56585
絡	-9.56622
防己	-9.56732
循	-9.56776
葛	-9.56812
臟	-9.56837
丹參	-9.56903
續斷	-9.56911
眀	-9.56931
表裏	-9.57037
鉛	-9.57066
核	-9.57119
殺人	-9.57296
不覺	-9.57305
草木	-9.57315
不安	-9.5734
無不	-9.57392
十一	-9.5742
復有	-9.57499
呈	-9.57616
貌	-9.57649
葛根	-9.57697
囊	-9.57713
得其	-9.57799
至道	-9.57819
長安	-9.57873
康	-9.57934
填	-9.5806
一方	-9.5809
袍	-9.58154
又灸	-9.58175
逸	-9.58191
桑	-9.5827
洞真	-9.58298
浮華	-9.583
剋	-9.5838
五合	-9.58484
妻	-9.58495
道者	-9.58568
門户	-9.58578
一箇	-9.58718
茅	-9.58737
網	-9.58809
風雨	-9.58872
者也	-9.58899
大便	-9.58933
生瘡	-9.5894
巖	-9.58965
酆都	-9.58972
上昇	-9.59087
酥	-9.591
掃	-9.59106
式	-9.59191
軟	-9.59211
宋	-9.5922
三千	-9.5923
籠	-9.59238
掛	-9.59269
屏	-9.5927
皆是	-9.59275
辱	-9.59286
三教	-9.59566
太隂	-9.59595
大豆	-9.59701
烈	-9.59803
太虚	-9.59982
蠟	-9.6006
司命	-9.60087
静	-9.6019
育	-9.60256
赤小豆	-9.60275
訓	-9.60279
肘後	-9.60413
匿	-9.60436
吾書	-9.60446
清閑	-9.60464
水中	-9.60646
彌	-9.60712
通草	-9.60714
斷絶	-9.60868
金剛	-9.60872
痰	-9.60905
霍亂	-9.60988
雲霞	-9.61174
嗽	-9.61332
下降	-9.61375
艮	-9.61468
治病	-9.61483
一服	-9.61507
埋	-9.61525
判	-9.61532
翳	-9.61542
□	-9.61545
仗	-9.61563
嘆	-9.61565
辨	-9.61596
限	-9.6164
師父	-9.61642
晋	-9.6166
天人	-9.61723
日用	-9.61861
人有	-9.61878
玄妙	-9.62034
號曰	-9.62051
明月	-9.62082
攪	-9.62119
況	-9.62249
粒	-9.62418
粗	-9.62481
人情	-9.62501
惜	-9.62537
縮	-9.62592
蒲黄	-9.62606
半兩	-9.62661
階	-9.62674
一年	-9.6273
更相	-9.62797
大聖	-9.62831
延年	-9.62892
議	-9.62942
七祖	-9.62978
相隨	-9.62999
桃	-9.63069
調和	-9.63191
六銖	-9.63206
飲酒	-9.63319
正一	-9.63443
魁	-9.63531
何以	-9.63549
無復	-9.63595
肘	-9.6362
燕	-9.63796
噫	-9.63844
㫖	-9.6386
舒	-9.63913
此藥	-9.63933
毁	-9.63944
汞	-9.64001
六畜	-9.64085
苦參	-9.64163
答曰	-9.64185
彩	-9.64335
癢	-9.6437
飛行	-9.6438
結成	-9.64422
神王	-9.64522
中和	-9.6453
血脉	-9.64578
百病	-9.64595
綱	-9.64596
庶	-9.647
脊	-9.64706
胷	-9.64831
此文	-9.6487
逃	-9.64901
次念	-9.64904
論曰	-9.64907
猛	-9.64957
麫	-9.64973
神氣	-9.65001
斧	-9.6504
棲	-9.65063
誇	-9.65066
混合	-9.65092
千金翼	-9.65129
擇	-9.65137
我身	-9.65146
託	-9.65149
煩惱	-9.65151
枉	-9.65189
陸	-9.65274
中風	-9.65309
小人	-9.65399
身心	-9.65562
八銖	-9.65607
明師	-9.65635
小腸	-9.65776
即止	-9.65806
者加	-9.65819
故也	-9.65847
朱書	-9.6585
嬰兒	-9.65853
緣	-9.6587
此法	-9.65976
珍	-9.65978
之文	-9.66056
靈光	-9.66132
川芎	-9.66137
山侗	-9.66216
下之	-9.6622
搗	-9.66243
蝕	-9.66265
垢	-9.66322
供	-9.66327
途	-9.66334
若不	-9.66378
)○(	-9.66538
也是	-9.66615
血氣	-9.66719
百壯	-9.66765
善者	-9.66899
不樂	-9.66974
清風	-9.67028
平等	-9.67077
蘇	-9.67161
細細	-9.67188
滓	-9.67264
癡	-9.67349
皂莢	-9.67357
一宿	-9.67425
者即	-9.67439
謁	-9.67451
壁	-9.67506
禱	-9.67535
編	-9.67544
蹤	-9.6755
苟	-9.67561
輪迴	-9.67652
也天	-9.67666
灸之	-9.67699
少許	-9.67742
簿	-9.67838
西山	-9.67861
三月	-9.67875
澀	-9.6793
叔	-9.68037
天帝	-9.68139
靈明	-9.68174
道學不得	-9.68185
輿	-9.68219
塗之	-9.68403
支	-9.68413
度人	-9.6842
墜	-9.68518
小腹	-9.68521
鍾乳	-9.68526
一錢	-9.68583
之心	-9.68608
生於	-9.68612
希夷	-9.68652
烟	-9.68659
淳	-9.6875
仲	-9.68785
準	-9.6887
緫	-9.68883
空中	-9.68932
無可	-9.68948
南極	-9.68961
水銀	-9.69056
无極	-9.69276
愚人	-9.69279
北極	-9.69417
芒	-9.69461
握	-9.69529
卷之	-9.69531
火急	-9.69547
毫	-9.69584
軍	-9.69621
四海	-9.69628
講	-9.69681
泰	-9.69773
淡	-9.69796
千里	-9.69883
喫	-9.69887
松脂	-9.69924
名利	-9.69993
否	-9.69995
成就	-9.69996
束	-9.69996
以水	-9.70009
鸞	-9.70045
工	-9.70075
苗	-9.70083
滋	-9.70107
惡人	-9.70146
酬	-9.70159
元始天尊	-9.70211
龍虎	-9.7032
前胡	-9.70382
六甲	-9.70621
也然	-9.7063
後生	-9.7078
此是	-9.7089
孰	-9.70918
疽	-9.70937
暑	-9.70996
圓明	-9.71163
何處	-9.71166
六合	-9.71172
鮮	-9.71175
所居	-9.71181
後世	-9.71195
菟絲子	-9.71209
甲乙	-9.71225
天門冬	-9.71252
獸	-9.71326
无上	-9.71357
麥	-9.71452
嘔吐	-9.71534
元陽	-9.71585
而反	-9.71646
紫微	-9.71693
净	-9.717
楊	-9.7174
少氣	-9.72003
仙官	-9.72032
一曰	-9.72045
闡	-9.7209
修鍊	-9.72124
二錢	-9.72155
下利	-9.7228
吉凶	-9.7229
五日	-9.72297
九宫	-9.7235
捧	-9.72455
鼈甲	-9.72482
十三	-9.72517
佐	-9.72519
此人	-9.72521
祕閣校理	-9.72537
椎	-9.72556
男子	-9.72599
減	-9.72609
鋪	-9.72618
此經	-9.72619
恃	-9.72663
鐘	-9.72678
靖	-9.72688
彰	-9.72712
據	-9.72733
各自	-9.72744
庵	-9.72761
百姓	-9.72867
積聚	-9.72889
不盡	-9.73142
其脉	-9.73289
馳	-9.73339
刀圭	-9.73355
而死	-9.73377
萬事	-9.73413
瓦	-9.73445
五星	-9.73595
四大	-9.73619
二寸	-9.73633
姓名	-9.73641
甲子	-9.73658
中黄	-9.73721
程	-9.73731
符命	-9.73753
醒	-9.73778
玉京	-9.73793
排	-9.73874
尖	-9.73923
村	-9.73957
唐	-9.73986
膿血	-9.73993
者從	-9.73996
神丹	-9.74009
人心	-9.74044
龜	-9.74119
不食	-9.74166
用藥	-9.74222
故天	-9.74256
京	-9.74378
仙公	-9.74447
瘦	-9.74512
何所	-9.74543
天罡	-9.74569
右爲末	-9.74614
又曰	-9.74735
長存	-9.74784
八方	-9.74794
其道	-9.7483
其治	-9.7485
何以故	-9.74874
神光	-9.74891
▲▲	-9.74959
腰痛	-9.75053
昭	-9.75085
空心	-9.75117
蔽	-9.75217
猪脂	-9.7531
偶	-9.75321
玲瓏	-9.75343
基	-9.75359
旣	-9.75373
前程	-9.75385
值	-9.75399
右手	-9.754
東北	-9.75453
竒	-9.75469
其心	-9.75507
一百	-9.7562
般般	-9.7562
玄玄	-9.75638
不成	-9.75689
一事	-9.75756
淨明	-9.75846
右四味	-9.75863
去皮	-9.75868
毎	-9.75885
葱	-9.75941
憐	-9.75943
吽	-9.76139
係	-9.76225
焰	-9.76276
按之	-9.76279
一炁	-9.76293
恁	-9.76386
具足	-9.76386
演	-9.76452
夭	-9.76491
太乙	-9.76515
牒	-9.76518
思之	-9.76569
荒	-9.76584
行事	-9.76604
杜	-9.76613
膠	-9.76613
割	-9.76617
鋒	-9.76635
窗	-9.76655
博	-9.76659
肌肉	-9.76753
通靈	-9.76786
言語	-9.76856
愁苦	-9.76917
之屬	-9.76928
漸漸	-9.76981
億	-9.77004
修持	-9.77011
亦無	-9.77242
先生曰	-9.77355
七十	-9.77362
丈	-9.77388
所爲	-9.77515
曝乾	-9.77712
九年	-9.77763
帛	-9.77769
雅	-9.77901
來往	-9.77927
祈雨	-9.77928
顛	-9.77989
而成	-9.78018
効	-9.78092
上士	-9.78137
金蓮	-9.78202
濃	-9.78248
靈官	-9.78276
故能	-9.78372
種種	-9.7848
之家	-9.78501
下痢	-9.78706
問曰	-9.78758
不離	-9.78774
缺	-9.78786
人所	-9.78864
害風	-9.78952
乏	-9.79106
莽草	-9.7917
又方取	-9.79186
合和	-9.79201
牡丹	-9.79229
欣	-9.79238
澤蘭	-9.79258
爲子	-9.79357
攢	-9.79391
庚	-9.79397
諸藥	-9.79409
叩齒	-9.79414
配	-9.7942
冒	-9.79428
乆	-9.79443
蘭	-9.79445
率	-9.79449
之門	-9.79451
飾	-9.79466
是我大病	-9.7953
不明	-9.79559
麻子	-9.79627
太微	-9.79679
平旦	-9.79752
酢	-9.79792
以自	-9.79926
天皇	-9.79948
萬靈	-9.79978
一合	-9.80257
者有	-9.80318
女人	-9.80344
又方燒	-9.80478
入室	-9.80489
各一兩	-9.80494
飛天	-9.80499
一月	-9.8054
宰	-9.80601
夕	-9.80647
焙	-9.80668
乙	-9.80669
隨年壯	-9.80696
壓	-9.80758
無事	-9.80764
慾	-9.80773
憶	-9.80799
釣	-9.80803
㑹	-9.80803
囚	-9.80818
鬥	-9.80821
彭	-9.8083
礙	-9.80837
次灸	-9.80901
嘔逆	-9.80902
終日	-9.80939
右三味	-9.80955
上仙	-9.80994
裙	-9.81037
發汗	-9.81065
疾病	-9.81081
不相	-9.811
大腸	-9.81142
三分	-9.81187
天眞	-9.81268
誦經	-9.81301
靈寶	-9.81423
地上	-9.81429
八景	-9.81509
各八	-9.81624
明堂	-9.81742
人生	-9.81751
伸	-9.81806
亭	-9.81845
天神	-9.81862
膈	-9.81867
藜蘆	-9.81873
第九	-9.81937
脱	-9.81951
轟	-9.82
兔	-9.82007
愼之	-9.8203
屑	-9.82076
五十壯	-9.82082
頭面	-9.82096
澄清	-9.82142
無生	-9.82152
戴	-9.82157
整	-9.82185
麴	-9.82226
域	-9.82232
劍	-9.82269
亦治	-9.82317
頓服	-9.82317
是其	-9.82327
四時五行	-9.82363
天文	-9.82424
即爲	-9.82559
與人	-9.82592
三焦	-9.826
諸公	-9.827
若見	-9.82747
其意	-9.82764
胸	-9.828
與天	-9.82888
五者	-9.83045
脹滿	-9.83046
八月	-9.83047
如法	-9.83101
瑶	-9.83339
中元	-9.83342
温服	-9.83345
不行	-9.83415
翼	-9.83425
殻	-9.83495
屎	-9.83632
撥	-9.83743
皂	-9.83786
和氣	-9.83853
不必	-9.83859
俗人	-9.83981
拭	-9.84117
而得	-9.84132
之下	-9.84142
十九	-9.8415
一分	-9.84381
三合	-9.84726
之意	-9.84743
砂	-9.8477
邪精	-9.84789
彈	-9.84824
圍	-9.84966
兹	-9.85036
琴	-9.85057
暢	-9.85091
狗	-9.85128
一丸	-9.85129
凌	-9.85212
闊	-9.8522
嶺	-9.85229
乖	-9.85233
均	-9.8524
無名	-9.85265
次第	-9.85291
竹葉	-9.85386
少陽	-9.85397
真文	-9.85427
三氣	-9.85447
右出	-9.85459
下元	-9.85487
可用	-9.85509
餌	-9.85521
祖師	-9.85675
主人	-9.85685
衆聖	-9.85756
下血	-9.8585
八十	-9.85923
鞭	-9.85977
根源	-9.85991
顔色	-9.86042
他人	-9.86062
瓜	-9.86174
摇	-9.86175
女子	-9.8625
劒	-9.86294
繒	-9.86304
有一	-9.86308
五老	-9.86376
右用	-9.86412
煑取三升分三服	-9.86445
聾	-9.86535
滑石	-9.86582
僧	-9.86607
旬	-9.86625
享	-9.86634
岀	-9.86646
練	-9.86646
翫	-9.86648
借	-9.86686
兄	-9.86687
默默	-9.86688
標	-9.8669
賓	-9.86721
所在	-9.86858
以來	-9.86949
廉	-9.8707
倦	-9.87082
上古	-9.87092
也子	-9.87159
從此	-9.87189
頑	-9.87269
吐血	-9.87344
渾	-9.87451
裂	-9.87532
其二	-9.87643
云何	-9.87682
心腹	-9.8771
塊	-9.87724
太陰	-9.87752
死者	-9.87785
遵	-9.87802
癇	-9.87842
所生	-9.87854
鹿	-9.8789
胃中	-9.87944
王者	-9.87959
相生	-9.87982
法服	-9.88025
今古	-9.88032
病在	-9.88132
岸	-9.88152
右出洞眞	-9.88164
以成	-9.88176
魏	-9.88185
尅	-9.88187
陶	-9.88196
其事	-9.88209
諾	-9.8822
牀	-9.88226
寢	-9.88243
疾速	-9.8825
涉	-9.88271
無憂	-9.8841
等分	-9.88465
不利	-9.88489
道衆	-9.88497
以傳	-9.88613
久久	-9.88619
玉真	-9.88629
自己	-9.8863
出世	-9.88678
如前	-9.88702
團	-9.88768
不祥	-9.88839
作用	-9.88912
善哉善哉	-9.88957
婦	-9.88986
從來	-9.89001
修仙	-9.89126
認得	-9.89198
凡有	-9.89218
西南	-9.89404
大羅	-9.89405
虚實	-9.89421
飄	-9.89452
傅之又方	-9.89476
桑白皮	-9.89512
五兩	-9.89543
犬	-9.89547
邀	-9.8958
臟腑	-9.89585
材	-9.89641
署	-9.89643
廟	-9.89664
篆	-9.89667
晩	-9.89684
押	-9.89702
馬風	-9.8971
逺	-9.89723
煥	-9.89805
鼻中	-9.89845
善哉	-9.8985
無心	-9.89857
可知	-9.89858
道法	-9.89992
不問	-9.90061
肌	-9.90062
搯	-9.90185
蓬	-9.90189
手執	-9.90228
吾奉	-9.90356
精氣	-9.90373
功夫	-9.90436
何時	-9.90501
熱病	-9.90606
盜	-9.90608
黄帝	-9.90683
癲	-9.90716
惱	-9.90754
腹脹	-9.90766
相傳	-9.90793
术	-9.91001
蠱	-9.91046
眞道	-9.91084
令使	-9.91136
盖	-9.91181
滴	-9.91214
生滅	-9.91218
右出洞玄	-9.91233
檄	-9.91235
齎	-9.91237
渡	-9.91247
選	-9.91253
饑	-9.91283
説	-9.91288
錬	-9.91294
六月	-9.91307
刃	-9.91325
煩悶	-9.91327
嗣	-9.91369
羸瘦	-9.91427
飄飄	-9.91432
黄芽	-9.91553
灾害	-9.91639
炁入	-9.91685
度世	-9.91782
一云	-9.91858
乃可	-9.92028
次存	-9.92043
額	-9.92167
青龍	-9.92186
大法	-9.92257
季	-9.9229
天有	-9.92336
入腹	-9.92461
本來	-9.92477
盜賊	-9.92479
白蜜	-9.92483
第十	-9.92489
黄蘖	-9.92604
故名	-9.9266
下部	-9.92702
社	-9.92707
史	-9.92715
皆當	-9.92739
健	-9.92755
津液	-9.92771
自得	-9.9281
荷	-9.92824
逮	-9.92835
竊	-9.92835
擁	-9.92846
嗟	-9.92886
謀	-9.92895
欽	-9.92904
廬	-9.92911
徘徊	-9.92914
功曹	-9.92932
族	-9.92938
之理	-9.9303
欲得	-9.93045
逝	-9.93079
正道	-9.93101
无量	-9.93114
一首	-9.93362
北向	-9.93525
五味	-9.93592
一片	-9.93619
無知	-9.93639
開度	-9.93839
其言	-9.93884
中間	-9.9397
穩	-9.94072
五寸	-9.94078
相似	-9.94248
仙道	-9.9425
二氣	-9.94257
枳殻	-9.94293
祭	-9.94361
稀	-9.94404
扇	-9.94411
徳	-9.94418
床	-9.94425
兊	-9.94428
旗	-9.94452
皆以	-9.94461
紛紛	-9.94462
踈	-9.94462
瞻	-9.94485
旨	-9.94499
泯	-9.94508
挺	-9.9451
妙用	-9.94512
勿食	-9.94525
弊	-9.94533
鹹	-9.94557
也是故	-9.94567
榮華	-9.94686
白虎	-9.94838
土地	-9.94867
問之	-9.94886
服食	-9.94902
山川	-9.94917
得遇	-9.94945
金玉	-9.94946
一粒	-9.95027
先以	-9.95187
之名	-9.95196
精進	-9.9533
大乘	-9.95377
薑	-9.95378
出於	-9.95388
古者	-9.95443
已上	-9.95455
測	-9.95496
十月	-9.95508
場	-9.95673
針灸	-9.95723
溢	-9.9574
失其	-9.95759
十分	-9.95782
蓬島	-9.95893
治婦人	-9.95915
糞	-9.95957
爲佳	-9.95986
梅	-9.95998
頸	-9.96015
電光	-9.96026
懼	-9.96036
橫	-9.96082
橋	-9.96098
爐	-9.96114
逹	-9.96129
藉	-9.96136
伊	-9.96173
晚	-9.96174
泛	-9.96211
其氣	-9.96268
入符中	-9.96274
齋戒	-9.96326
産後	-9.96398
呼吸	-9.9646
認取	-9.96467
不言	-9.96467
十七	-9.9654
三曰	-9.96563
又以	-9.96743
爲天	-9.96751
劑	-9.96878
不自	-9.96964
一斗	-9.96989
之術	-9.97039
不順	-9.97222
以知爲度	-9.97253
無私	-9.97297
治産後	-9.97324
黄金	-9.97335
抵	-9.97403
家風	-9.97426
故爲	-9.97432
開悟	-9.97471
兇	-9.97534
閣	-9.97611
栢	-9.97611
熨	-9.97636
紫石英	-9.9764
方大黄	-9.97661
玄機	-9.97666
修道	-9.97685
貯	-9.97693
壹	-9.97714
騁	-9.97747
撰	-9.97749
赫	-9.97763
黙	-9.97769
道學當念	-9.97772
薦	-9.97778
逼	-9.97792
費	-9.97815
肅	-9.97817
縳	-9.97823
徵	-9.97826
操	-9.97841
人皆	-9.97842
冀	-9.97851
篤	-9.97893
太上道君	-9.97932
遮	-9.97951
上宫	-9.97986
長短	-9.98164
五氣	-9.98205
洞神	-9.98236
二曰	-9.9826
陰氣	-9.98284
凶惡	-9.98298
今朝	-9.98496
故有	-9.98602
不善	-9.98672
十年	-9.9877
吾道	-9.98771
故使	-9.98807
凢	-9.98839
鑪	-9.98907
方取	-9.98915
因而	-9.98922
得失	-9.98928
甚者	-9.98992
懈	-9.99031
湧	-9.99092
所行	-9.99101
元炁	-9.99114
蘆	-9.99119
閑閑	-9.99161
綿綿	-9.99177
五分	-9.99205
椒	-9.99207
磁石	-9.99274
烏梅	-9.99298
併	-9.99305
到處	-9.99415
俠	-9.99432
朱砂	-9.99436
范	-9.99448
薰	-9.99471
劣	-9.99491
右符	-9.99495
忙	-9.99498
真炁	-9.99508
風雷	-9.99532
仕	-9.99553
殆	-9.9956
清齋	-9.99643
八卦	-9.99691
牛黄	-9.99697
不在	-9.99764
虧	-9.99764
眞常	-9.9979
相去	-9.99856
非常	-9.99924
蒜	-10.0013
玄參	-10.0024
不犯	-10.0038
保命	-10.0039
天地人	-10.004
不孝	-10.0046
照耀	-10.0048
傳授	-10.0048
赤白	-10.005
酒服方寸七日三	-10.005
之物	-10.0058
三服	-10.0061
僻	-10.0074
竅	-10.0077
崩	-10.0081
七寶	-10.0081
山林	-10.0083
方見	-10.0095
争	-10.0097
咳	-10.0098
天下之	-10.0099
第	-10.0103
利名	-10.0104
警	-10.0105
毒氣	-10.011
無情	-10.0114
耳聾	-10.0119
乍	-10.0121
奸	-10.0121
是謂	-10.0122
船	-10.0123
克	-10.0126
賔	-10.0127
九十	-10.0127
聦明	-10.0133
十枚	-10.0139
先天	-10.0143
者必	-10.0148
小麥	-10.0154
回頭	-10.0155
之始	-10.0158
七星	-10.0164
盞	-10.017
火光	-10.017
爲一	-10.0179
起於	-10.0185
也如	-10.0186
唇	-10.0192
風火	-10.0196
雖有	-10.0197
承負	-10.0197
此乃	-10.0206
施行	-10.0213
屍	-10.022
頃	-10.0221
何須	-10.0222
見其	-10.0229
去滓内	-10.0231
乃至	-10.0232
三十日	-10.024
七壯	-10.0243
金華	-10.0245
用心	-10.025
葶藶	-10.0252
嚥	-10.0256
軀	-10.0263
臍下	-10.0266
副	-10.0274
絹	-10.0277
二十日	-10.0278
維	-10.0281
不去	-10.0288
兌	-10.0289
天心	-10.0289
衡	-10.0289
箭	-10.029
腐	-10.0291
婬	-10.0292
規	-10.0292
皮膚	-10.0292
闇	-10.0293
哭	-10.0294
歇	-10.0294
粘	-10.0296
勒	-10.0298
麤	-10.0298
遐	-10.0305
言之	-10.0306
丙丁	-10.0306
一二	-10.0307
祠	-10.031
而有	-10.0313
也但	-10.0318
一氣	-10.0324
雞子	-10.0324
不可以	-10.0326
扶風	-10.0326
天中	-10.0333
神霄	-10.0342
謫	-10.0345
當時	-10.0351
此皆	-10.0356
心不	-10.0358
兆身	-10.0368
吐下	-10.0376
永永	-10.0388
輕重	-10.0395
眩	-10.0395
歘火	-10.0397
瘡口	-10.0407
皓	-10.0413
不悟	-10.0417
脛	-10.0441
雲中	-10.0444
出血	-10.0445
煙霞	-10.0449
微妙	-10.045
萎蕤	-10.045
綿裹	-10.0451
道也	-10.0454
本命	-10.0456
穴在	-10.0457
婆	-10.0459
而後	-10.0461
喻	-10.0462
浩	-10.0466
栀子仁	-10.0466
蜀	-10.0469
鬢	-10.047
至真	-10.0472
卜	-10.0472
忿	-10.0474
高下	-10.0474
跨	-10.0475
仙家	-10.0475
咄	-10.0476
攀	-10.0477
俯	-10.0477
賦	-10.0477
帔	-10.0477
箕	-10.0478
萬化	-10.0478
璧	-10.0478
惺惺	-10.0484
述懷	-10.0485
融	-10.0485
朝元	-10.0488
玄元	-10.0488
寧海	-10.0496
當願一切	-10.0503
些	-10.0518
眞珠	-10.0521
知音	-10.0528
正月	-10.0536
至誠	-10.0537
處處	-10.0538
神通	-10.055
皆須	-10.0552
陷中	-10.0571
靈靈	-10.0579
有人	-10.0611
道成	-10.0612
清明	-10.0612
四面	-10.0614
腑	-10.0623
靈臺	-10.0624
隆	-10.0628
方可	-10.0629
芫花	-10.0631
不宜	-10.0635
噎	-10.0637
胃氣	-10.064
下一寸	-10.0642
嗔	-10.0642
睛	-10.0645
畜	-10.0645
佛	-10.0646
上聖	-10.0648
青木香	-10.0651
聴	-10.0652
憎	-10.0652
生涯	-10.0653
戊	-10.0654
擲	-10.0656
檀	-10.0656
洽	-10.0657
捲	-10.0658
凖	-10.0658
抑	-10.0658
揺	-10.0659
終不	-10.0659
鉛汞	-10.0663
努力	-10.0665
玉訣	-10.0668
錫	-10.0669
乳香	-10.0669
身熱	-10.0672
可爲	-10.0677
生人	-10.0688
何有	-10.0689
歸來	-10.0694
玉晨	-10.0698
羊肉	-10.0705
有病	-10.071
功滿	-10.0714
脇	-10.0725
良又方	-10.0725
腫痛	-10.0726
無漏	-10.0729
方知	-10.0737
不可不	-10.0742
治妊娠	-10.0743
惡寒	-10.0746
失之	-10.0761
二七	-10.0765
不下	-10.0779
段	-10.0783
風仙	-10.0785
如有	-10.0785
不消	-10.0788
何謂	-10.0797
稍稍	-10.0802
劔	-10.0809
展	-10.0811
下手	-10.0816
終南	-10.0821
射干	-10.0824
有熱	-10.0827
吾文	-10.083
郞	-10.083
侣	-10.0831
截	-10.0832
洩	-10.0833
慵	-10.0833
肚	-10.0834
鈎	-10.0836
盧	-10.0836
卑	-10.0839
少陰	-10.084
晶	-10.084
袖	-10.0843
覽	-10.0843
範	-10.0844
歳	-10.0845
不調	-10.0849
威儀	-10.0853
通天	-10.0864
魔王	-10.0865
不然	-10.0866
歡喜	-10.0867
三台	-10.0867
蜜和	-10.0872
南嶽	-10.0873
九月	-10.0875
學士	-10.0876
冷熱	-10.0876
天氣	-10.088
未有	-10.0884
隨縁	-10.0885
不識	-10.0886
圓成	-10.0894
六天	-10.0894
法門	-10.0899
出離	-10.0907
湯治産後	-10.091
娑訶	-10.0917
不除	-10.0921
方右用	-10.0922
論曰凡	-10.0923
空洞	-10.094
念道	-10.095
五道	-10.0958
形容	-10.0965
見在	-10.0986
瘡上	-10.0987
事事	-10.099
無邊	-10.0998
亦然	-10.1
二斗	-10.1001
疝	-10.1014
胡粉	-10.1018
丙	-10.1018
勉	-10.1019
雀	-10.102
剪	-10.102
粟	-10.1022
猪膏	-10.1023
一道	-10.1023
誦之	-10.1025
綵	-10.1026
其形	-10.1028
詐	-10.1029
駭	-10.1034
抛	-10.1035
邑	-10.1037
趨	-10.1043
禮拜	-10.1045
人道	-10.1047
風月	-10.1057
血出	-10.1059
一方用	-10.1066
得得	-10.1071
實則	-10.1078
三尸	-10.1081
皆可	-10.1081
怎生	-10.1087
以酒	-10.1096
胎仙	-10.1099
東向	-10.1099
槐	-10.1099
一團	-10.1102
三百	-10.1107
與之	-10.1109
金書	-10.111
心煩	-10.1112
壘	-10.1122
三才	-10.1123
一大	-10.1124
衣服	-10.1125
此符	-10.1127
周流	-10.1134
大人	-10.1144
在其中	-10.1145
願聞	-10.1146
賢明	-10.1151
失道	-10.1159
之類	-10.116
常行	-10.1161
一具	-10.117
釜	-10.1177
街	-10.1181
餅	-10.1186
幻	-10.1187
奉道	-10.1193
地骨皮	-10.1196
白薇	-10.1202
東西	-10.1204
白石英	-10.1205
五神	-10.1205
悟徹	-10.1205
幼	-10.1206
四升	-10.1209
妊娠	-10.1211
爲末以	-10.1212
羚羊角	-10.1213
菊花	-10.1218
嫌	-10.1219
斑	-10.1221
阻	-10.1223
賴	-10.1223
硫黄	-10.1225
惹	-10.1225
喘息	-10.1226
虹	-10.1226
構	-10.1227
紅塵	-10.1227
鑒	-10.1228
揮	-10.1229
端的	-10.123
貴賤	-10.1233
養性	-10.1235
福田	-10.1238
迴頭	-10.1282
衣食	-10.1289
何不	-10.1292
至眞	-10.1297
炷	-10.1316
脉浮	-10.132
大夫	-10.1328
脉來	-10.1334
與天地	-10.1339
其行	-10.1342
耳目	-10.1343
腋	-10.1346
不正	-10.1359
其功	-10.1363
其神	-10.1364
太上大道君	-10.1364
厨	-10.1367
天真	-10.1368
猿	-10.1372
无爲	-10.1376
也吾	-10.139
炭	-10.1396
天關	-10.1397
太真	-10.1398
相見	-10.1399
二分	-10.14
醜	-10.1401
癸	-10.1401
漆	-10.1403
而自	-10.1403
井花水	-10.1404
嚼	-10.1405
甘遂	-10.1406
縫	-10.1406
識破	-10.1409
肆	-10.1411
譚	-10.1412
三四	-10.1413
繁	-10.1415
丁香	-10.1416
頭上	-10.1417
怕	-10.142
元神	-10.1422
褐	-10.1423
何必	-10.1424
替	-10.1424
之本	-10.1424
逕	-10.1425
屢	-10.1425
蠱毒	-10.1426
栽	-10.1426
害人	-10.1427
匠	-10.1428
則有	-10.1434
瑶臺	-10.1435
訣曰	-10.1435
頭戴	-10.1436
省悟	-10.1445
寸口	-10.1445
布施	-10.1448
清酒	-10.1448
火鈴	-10.1452
胸中	-10.146
㕮咀	-10.1462
治下篩	-10.1469
者生	-10.1477
已成	-10.149
乃得	-10.1492
真王	-10.1506
歡樂	-10.1511
良因	-10.1513
純陽	-10.1517
論方	-10.152
天元	-10.1529
嘯	-10.153
人我	-10.1542
互	-10.1543
神驗	-10.1543
有無	-10.1545
者其	-10.1546
金色	-10.1547
其德	-10.1554
八極	-10.1556
不定	-10.1557
言也	-10.1569
在上	-10.1572
在内	-10.1577
六者	-10.1581
步步	-10.1586
沖	-10.1587
叢	-10.1587
因果	-10.1588
而言	-10.1591
有心	-10.1595
何爲	-10.1597
剉	-10.1598
經法	-10.1598
藁本	-10.16
股	-10.16
荆	-10.1603
更生	-10.1604
不和	-10.1607
蜈蚣	-10.1609
不受	-10.161
𥿄	-10.1611
製	-10.1614
俯仰	-10.1617
耕	-10.1617
兄弟	-10.1617
伍	-10.1619
撫	-10.1621
耗	-10.1622
圓光	-10.1622
鑿	-10.1624
刑罰	-10.1624
翔	-10.1625
精思	-10.1625
險	-10.1625
依法	-10.1626
滋味	-10.1626
擎	-10.1627
些兒	-10.1627
陳皮	-10.1628
九色	-10.1628
孟	-10.1629
亦如	-10.1633
虞	-10.1633
絳宫	-10.164
外臺	-10.1641
壯熱	-10.1644
箇箇	-10.1646
上法	-10.1649
傷人	-10.1651
五月	-10.1652
通明	-10.166
尸解	-10.166
罪賜	-10.1661
三寶	-10.1669
物物	-10.1672
相與	-10.1673
雷聲	-10.1675
擒	-10.1677
風寒	-10.1685
也人	-10.1689
眞文	-10.1692
天官	-10.1693
有過	-10.1706
吾言	-10.1712
逍遥自在	-10.1712
即瘥	-10.1712
更服	-10.1716
道言	-10.1723
玄天	-10.1727
百神	-10.1728
國王	-10.1735
不住	-10.1745
在人	-10.1749
有道	-10.175
只是	-10.1752
尊神	-10.176
之子	-10.1767
㸃	-10.1771
崖	-10.1773
玉童	-10.1774
光陰	-10.1775
天法	-10.1777
九日	-10.1779
冷水	-10.1783
以致	-10.1785
五炁	-10.1787
鷄	-10.1797
讓	-10.1799
癥	-10.18
自生	-10.1801
湯下	-10.1804
窌	-10.1806
東海	-10.1806
喝	-10.1808
遁	-10.1809
何者	-10.1812
豁	-10.1813
帖	-10.1816
馨香	-10.1816
諫	-10.1817
煩滿	-10.1819
卓	-10.1821
躡	-10.1821
朴	-10.1822
薤白	-10.1824
淪	-10.1824
懶	-10.1825
上眞	-10.1827
壅	-10.1828
罔	-10.1829
狀如	-10.1836
忽然	-10.1836
頰	-10.184
科曰凡	-10.1843
也善哉善哉	-10.1849
雷局	-10.1849
石灰	-10.1851
空外	-10.1851
石南	-10.1854
能生	-10.1859
古人	-10.1859
一念	-10.1863
軿	-10.1867
存亡	-10.1868
機關	-10.1872
三十二	-10.1878
消渴	-10.188
有時	-10.188
二儀	-10.1884
瘟	-10.1888
之功	-10.1894
時有	-10.1895
去來	-10.1895
流注	-10.1904
其三	-10.1908
半升	-10.1909
不能自	-10.191
這箇	-10.1913
豈不	-10.1926
昇仙	-10.1932
大洞	-10.1935
三十二天	-10.1935
天丁	-10.1937
化成	-10.1938
人中	-10.1945
后	-10.1951
覺悟	-10.1953
所以然者	-10.196
右七味	-10.1967
三炁	-10.1989
蓬瀛	-10.1991
法身	-10.1998
之數	-10.1999
可不	-10.2
茵芋	-10.2007
爪	-10.201
壬	-10.2011
匀	-10.2014
倉	-10.2018
旱	-10.2018
明明	-10.2019
栢子仁	-10.202
車前子	-10.2022
圭	-10.2023
鄧	-10.2024
不能食	-10.2027
饒	-10.203
成功	-10.2034
頗	-10.2034
湖	-10.2035
腴	-10.2036
誘	-10.2037
葵子	-10.2037
咽喉	-10.2038
竹瀝	-10.2041
八十一	-10.2042
寒暑	-10.2042
檳榔	-10.2043
肌膚	-10.2043
下治	-10.2044
木香	-10.2044
又方以	-10.2049
上至	-10.2049
太眞	-10.2051
火院	-10.2054
其文	-10.2058
欲樂	-10.2059
及諸	-10.2063
所得	-10.2064
之則	-10.2066
之臺	-10.2067
九霄	-10.2069
久服	-10.2078
三塗	-10.2083
守道	-10.2099
若欲	-10.21
說之	-10.2105
地下	-10.2105
不已	-10.2108
方以	-10.211
千金	-10.2118
須當	-10.2124
一旦	-10.2125
用此	-10.2138
罪福	-10.214
者主	-10.2143
福地	-10.2145
茱萸	-10.2151
水和	-10.2152
動靜	-10.2152
切一	-10.2164
七轉	-10.2165
芽	-10.2177
未嘗	-10.2185
完	-10.2193
自在逍遥	-10.2204
經曰	-10.2207
和合	-10.2216
脇下	-10.2221
不忘	-10.2221
紋	-10.2229
敢有	-10.2229
知道	-10.2229
沫	-10.2233
癖	-10.2233
艾葉	-10.2237
馬鈺	-10.2241
白礬	-10.2243
買	-10.2243
線	-10.2244
韓	-10.2244
房室	-10.2244
劎	-10.2245
薪	-10.2247
骷髏	-10.225
門人	-10.2256
數日	-10.2257
其間	-10.226
之教	-10.2276
閉目	-10.2281
者此	-10.2285
萬法	-10.2287
遠近	-10.2293
風冷	-10.2295
象天	-10.2298
二年	-10.2302
萬物之	-10.2307
生成	-10.231
乎哉	-10.2315
太白	-10.232
五六	-10.2323
唯有	-10.2326
欲死	-10.2331
太虛	-10.2334
赤帝	-10.2335
取之	-10.234
無毒	-10.2342
始終	-10.2343
頓覺	-10.2347
光輝	-10.2351
明眞	-10.2352
微火煎	-10.2353
得其意	-10.2358
色界	-10.2359
月中	-10.2362
心地	-10.2367
不與	-10.237
名山	-10.2372
威靈	-10.2374
絞	-10.2378
昇天	-10.2378
内有	-10.2379
汙	-10.2382
無礙	-10.2382
洗之	-10.2385
玄中	-10.239
臍中	-10.2394
寸口脉	-10.2398
有此	-10.2406
養就	-10.2413
咒	-10.2419
朽	-10.242
萬古	-10.242
玄臺	-10.2421
鄰	-10.2421
水雲	-10.2425
之師	-10.2434
荆芥	-10.2435
煨	-10.2437
咳嗽	-10.2439
不應	-10.2442
輙	-10.2445
洲	-10.2445
不治	-10.2449
時人	-10.245
朋	-10.2454
蕭	-10.2457
灑	-10.2457
勾	-10.2457
無中	-10.246
入於	-10.2461
哥	-10.2462
飈	-10.2462
捐	-10.2463
豪	-10.2465
嫉妬	-10.2466
裝	-10.2468
匪	-10.2468
峯	-10.2468
窟	-10.2469
托	-10.2469
閉塞	-10.2469
之際	-10.2469
幡	-10.247
戮	-10.2471
洒	-10.2471
天將	-10.2476
者宜	-10.2477
爲法	-10.248
炎炎	-10.248
一朝	-10.2483
一味	-10.2484
三斗	-10.2487
得見	-10.2493
所說	-10.2493
賢人	-10.2494
行功	-10.2497
譬如	-10.25
各二兩	-10.2501
一歲	-10.2503
猶如	-10.2503
堅固	-10.2505
日三服	-10.2505
三里	-10.2511
其子	-10.2513
有功	-10.2514
世世	-10.2516
返照	-10.2517
不爾	-10.2517
口乾	-10.2519
多食	-10.252
將吏	-10.2531
氣神	-10.2536
四月	-10.2545
九幽	-10.2545
生者	-10.2546
者但	-10.2547
深知	-10.2554
直符	-10.2554
大指	-10.2559
眼前	-10.2572
三七	-10.2573
塵情	-10.2574
恒山	-10.2589
當先	-10.2597
脚氣	-10.2601
民臣	-10.2603
酒下	-10.2604
眞仙	-10.2605
火燒	-10.2607
此病	-10.261
赤書	-10.261
妙理	-10.2614
非是	-10.2614
過去	-10.2615
我今	-10.2622
者是也	-10.2624
真靈	-10.2634
靈文	-10.2635
何也	-10.2636
杏	-10.2639
莊	-10.2639
終身	-10.2645
浮生	-10.2645
兩邊	-10.2646
煎湯	-10.2646
礜石	-10.2652
痿	-10.2655
一般	-10.2655
不退	-10.2656
恬	-10.2657
炮	-10.2658
死亡	-10.2658
晃	-10.2661
蠶	-10.2662
澁	-10.2668
溟	-10.2671
膜	-10.2672
巢	-10.2673
炊	-10.2673
羹	-10.2676
捕	-10.2679
函	-10.268
天堂	-10.2681
潭	-10.2681
辦	-10.2682
懽	-10.2682
勘	-10.2683
鄕	-10.2685
襟	-10.2686
銜	-10.2686
聊	-10.2687
亘初	-10.2687
植	-10.2687
魯	-10.2689
歸依	-10.2689
郷	-10.2689
竿	-10.269
旦夕	-10.2694
七枚	-10.2698
如意	-10.2704
也無	-10.2705
清静	-10.2705
謹請	-10.2708
一盞	-10.2713
福無	-10.2715
良久	-10.2715
咒曰	-10.2715
活計	-10.2718
千古	-10.2718
胃管	-10.2719
妙玄	-10.272
導引	-10.2726
身形	-10.2734
山頭	-10.2739
在前	-10.274
皆由	-10.2741
萬病	-10.2745
其君	-10.2746
悅喜	-10.2747
當有	-10.2748
立功	-10.275
赤芍藥	-10.2754
從前	-10.2758
上書	-10.2763
所受	-10.2766
不負	-10.2773
疊	-10.2774
靈源	-10.2774
相得	-10.2775
一處	-10.2776
好生	-10.2779
達理	-10.2781
亦名	-10.2781
有德	-10.2783
清清	-10.2784
悟來	-10.2785
患人	-10.2796
輪轉	-10.2797
凡物	-10.2807
一物	-10.2807
氣血	-10.2814
尋常	-10.2817
吾身	-10.2822
熱毒	-10.2823
應物	-10.2833
勿使	-10.2838
成仙	-10.2846
道家	-10.2848
須知	-10.285
三宫	-10.2851
烹	-10.2854
小便不利	-10.2865
每日	-10.2871
即得	-10.2873
貝母	-10.2879
一志	-10.288
者如	-10.2881
無所不	-10.2882
心神	-10.2884
嘘	-10.2885
禹餘粮	-10.2889
土瓜根	-10.289
靈童	-10.2891
三人	-10.2892
之身	-10.2892
粳米	-10.2892
海藻	-10.2892
畔	-10.2894
癲疾	-10.2896
腥	-10.2896
泣	-10.2897
瘰癧	-10.2898
陣	-10.2898
佑	-10.2898
瘀血	-10.29
拈	-10.2901
忤	-10.2901
噴	-10.2903
孽	-10.2903
覷	-10.2904
之耳	-10.2904
内藥	-10.2906
䰟	-10.2911
祀	-10.2911
硬	-10.2911
惡風	-10.2912
家書	-10.2913
趖	-10.2917
或爲	-10.2918
賀	-10.2918
小豆	-10.2919
妃	-10.292
兒孫	-10.2921
苦海	-10.2929
故得	-10.293
而去	-10.2932
祝曰	-10.2933
跳出	-10.2934
無明	-10.2938
一切衆生	-10.2938
怠	-10.2939
地之	-10.2941
神祇	-10.2945
乳汁	-10.2951
應化	-10.2952
玉液	-10.2952
一劑	-10.2953
人君	-10.2954
運轉	-10.2956
者謂	-10.2958
飛雲	-10.296
取三升	-10.2961
二十七	-10.2961
皆得	-10.2964
衆多	-10.2964
子午	-10.2965
百歲	-10.297
地仙	-10.2976
裏面	-10.2978
大神言	-10.2983
塵縁	-10.2985
三乘	-10.2987
死人	-10.2988
口訣	-10.2992
一卷	-10.2993
之謂	-10.2998
八百	-10.3007
得長生	-10.3008
有異	-10.3016
萬象	-10.3021
柄	-10.3024
爲害	-10.3026
寒冷	-10.3027
也不	-10.3036
遊行	-10.3036
不斷	-10.3044
閭	-10.3047
羊脂	-10.3047
皆爲	-10.3048
誰能	-10.3049
神符	-10.3049
必有	-10.3052
不堪	-10.3054
悸	-10.306
吾今	-10.3063
萬縁	-10.3064
芝草	-10.3065
其次	-10.3066
重重	-10.3068
樞	-10.3071
天機	-10.3074
之行	-10.3078
學仙	-10.3079
踏	-10.3087
不愈	-10.3089
心頭	-10.309
羸	-10.31
喉痺	-10.3106
之言	-10.3106
無爭	-10.3115
重者	-10.3117
本文	-10.3118
无有	-10.3119
骸	-10.312
焚香	-10.3121
藍	-10.3121
黄帝云	-10.3123
頭眩	-10.3123
青童	-10.3125
袋	-10.3127
胡洽	-10.3128
麵	-10.313
革	-10.3133
禳	-10.3134
服方寸七	-10.3134
人自	-10.3134
譽	-10.3134
賣	-10.3134
巴戟天	-10.3135
坑	-10.3135
乃止	-10.3137
匝	-10.3137
麗	-10.3138
甫	-10.3138
糖	-10.314
安樂	-10.3142
茂	-10.3142
豫	-10.3143
旁	-10.3143
班	-10.3143
曠	-10.3146
擔	-10.3146
聯	-10.3146
藴	-10.3148
之宫	-10.315
勘破	-10.315
榮衛	-10.3151
脚弱	-10.3152
葬	-10.3154
㝠㝠	-10.3154
禦	-10.3155
縣官	-10.3159
者不	-10.3159
味甘	-10.3162
時復	-10.3165
邪鬼	-10.317
天雷	-10.317
進退	-10.317
境界	-10.317
聰明	-10.3172
六丁	-10.3172
隨時	-10.3178
再服	-10.3189
黄庭	-10.3189
夜半	-10.319
若此	-10.3191
正是	-10.3193
受命	-10.3202
之前	-10.3203
誰知	-10.3206
是以真人	-10.3207
長吏	-10.3211
躍	-10.3213
天王	-10.3215
疔	-10.3217
上經	-10.3222
壺中	-10.3226
魂神	-10.3231
者即是	-10.3237
方寸	-10.3245
无上祕要卷之	-10.325
四曰	-10.3254
虎龍	-10.3258
冠衣	-10.326
人參甘草	-10.3262
是時	-10.3268
腹内	-10.3278
先師	-10.3282
家縁	-10.3286
右五味	-10.3288
發於	-10.3291
三一	-10.3291
二合	-10.3297
玉華	-10.33
道理	-10.3303
不以	-10.3304
衆人	-10.3304
惡瘡	-10.3313
飛昇	-10.3314
以應	-10.3316
盆	-10.3316
大將軍	-10.332
長壽	-10.3321
風吹	-10.3335
萬丈	-10.3337
後學	-10.3342
以示	-10.3349
巨闕	-10.3352
眥	-10.3352
如今	-10.3354
惡者	-10.3354
萆薢	-10.3354
之根	-10.3359
口噤	-10.3365
欲知	-10.3365
爲大	-10.3365
凈	-10.3368
腸鳴	-10.337
涕	-10.3372
食後	-10.3373
𥙷	-10.3373
瓶	-10.3375
若無	-10.3375
趁	-10.3376
叩	-10.3377
五臟六腑	-10.3377
誕	-10.3378
鄭	-10.3378
梳	-10.3379
銷	-10.3379
治少小	-10.338
寡	-10.3381
赦	-10.3383
五錢	-10.3384
裁	-10.3386
邈	-10.3386
無道	-10.3386
惡氣	-10.3387
惶	-10.3388
究竟	-10.3389
擬	-10.3389
常存	-10.339
訴	-10.3391
見於	-10.3392
分再服	-10.3393
之妙	-10.3393
晏	-10.3396
六升	-10.3399
枸杞	-10.3401
骨髓	-10.3402
五石	-10.3407
寂寂	-10.3408
朔	-10.3415
直待	-10.3416
使得	-10.3417
飛騰	-10.3426
下士	-10.3426
又名	-10.3426
黄籙	-10.3428
无窮	-10.3432
去之	-10.3446
萬民	-10.3453
恩愛	-10.3461
與我	-10.3464
太帝	-10.3466
愚者	-10.3476
以上	-10.3478
通神	-10.3479
此書	-10.3481
不從	-10.3486
太和	-10.3489
感應	-10.3495
師曰	-10.3501
禁忌	-10.3502
長齋	-10.3509
相對	-10.351
真符	-10.3513
是名	-10.3515
乃爲	-10.3516
紙上	-10.352
一尺	-10.3522
補之	-10.3533
常住	-10.3533
常有	-10.3533
九道	-10.3546
方麻黄	-10.356
四聖	-10.3561
三字	-10.3562
國家	-10.3562
天書	-10.3563
真形	-10.3563
以是	-10.3569
耐	-10.3573
杯	-10.3575
者多	-10.3585
四分	-10.3588
刮	-10.3593
向上	-10.3593
老子曰	-10.3597
跪	-10.3602
適寒温	-10.3603
念呪曰	-10.3606
石韋	-10.3607
捷	-10.3607
涌泉	-10.3608
伏龍肝	-10.361
誥	-10.3613
夢中	-10.3613
𩀱	-10.3614
跳	-10.3615
瀝	-10.3616
爲帝王	-10.3616
躭	-10.3618
𦋇	-10.3618
平生	-10.3619
稽	-10.362
黨	-10.3623
俟	-10.3623
潮	-10.3624
濡	-10.3626
奚	-10.3626
躬	-10.3627
版	-10.3629
無人	-10.363
蔭	-10.363
築	-10.363
治諸	-10.3632
謬	-10.3633
料	-10.3633
流水	-10.3645
於道	-10.3651
方寸七	-10.3653
拘校	-10.3656
通達	-10.3658
動作	-10.3659
風氣	-10.3671
陽明	-10.3677
千萬	-10.3682
空虚	-10.3683
氣逆	-10.3685
右爲細末	-10.3685
服之又方	-10.3689
變成	-10.3694
太元	-10.3696
氣力	-10.3704
小小	-10.3706
二味	-10.3706
乃能	-10.371
此即	-10.3711
未知	-10.3713
功名	-10.3714
七月	-10.3717
人家	-10.3724
慎	-10.3727
爲散	-10.3727
天蓬	-10.373
自來	-10.373
之德	-10.3735
三沸	-10.3735
其病	-10.3736
洞房	-10.3738
安得	-10.3739
文字	-10.3739
各有所	-10.374
也地	-10.3743
雲遊	-10.3746
五斗	-10.3747
煞文	-10.3748
氣上	-10.3748
人能	-10.375
食飲	-10.3751
二日	-10.3751
昇玄	-10.3754
則不	-10.3759
虚无	-10.3759
速降	-10.3763
脾胃	-10.3765
大德	-10.3766
書文	-10.3768
語言	-10.3773
服一升	-10.3779
正真	-10.378
而不止	-10.3785
惡之	-10.3788
迸	-10.3793
煎取	-10.3798
勑呪	-10.3802
一性	-10.3806
也真人	-10.3814
從今	-10.3815
也以	-10.3821
大丹	-10.3822
億萬	-10.3822
經戒	-10.3827
十二月	-10.3829
不起	-10.3831
真性	-10.3832
株	-10.3837
其下	-10.3838
孕	-10.3843
骨肉	-10.3846
瘕	-10.3847
放下	-10.3852
二炁	-10.3854
瞿麥	-10.3859
譬	-10.3861
商	-10.3862
卵	-10.3864
凍	-10.3869
之處	-10.3869
即出	-10.3871
介	-10.3871
鹿角	-10.3871
濛	-10.3872
此之謂也	-10.3872
膺	-10.3873
哺	-10.3873
叉	-10.3874
六腑	-10.3874
鎭	-10.3874
挽	-10.3876
債	-10.3876
龍膽	-10.3877
鱗	-10.3879
洛	-10.3879
掣	-10.3879
痾	-10.3879
飮	-10.388
碗	-10.3883
二十八宿	-10.3883
念之	-10.3885
思念	-10.3885
悒悒	-10.3886
雖然	-10.3886
無益	-10.3886
探	-10.3888
禽	-10.3889
吏兵	-10.3895
柔弱	-10.3895
形骸	-10.3896
何曾	-10.3902
世界	-10.3902
亦是	-10.3902
南星	-10.3903
紫府	-10.3903
玉字	-10.3907
妄語	-10.3907
明珠	-10.3911
念念	-10.3913
過多	-10.3916
會得	-10.3917
先用	-10.3918
玄武	-10.3918
修之	-10.3919
虚則	-10.3921
孔中	-10.3922
川烏	-10.3926
自責	-10.3927
頓服之	-10.393
奉勸	-10.3933
蟠	-10.3933
明日	-10.3934
金童	-10.3935
有大	-10.3937
天樞	-10.3938
故知	-10.3946
無限	-10.3948
無數	-10.395
何謂也	-10.3954
如水	-10.3959
道性	-10.3959
壽命	-10.3962
有箇	-10.3965
忘機	-10.3966
此則	-10.3967
一石	-10.3969
腰脊	-10.397
地户	-10.3974
重玄	-10.3974
炁吹	-10.3975
任意	-10.3976
凡夫	-10.3978
加至	-10.398
之曰	-10.3981
上道	-10.3987
難治	-10.3989
各七	-10.3992
五曰	-10.3996
塵勞	-10.3997
色黄	-10.4007
悟道	-10.4008
不至	-10.4016
漱	-10.4019
大帝	-10.402
各各	-10.4021
者得	-10.4021
教之	-10.4029
日三夜一	-10.4031
丹成	-10.4036
法輪	-10.4038
箇中	-10.4042
又方擣	-10.4046
來生	-10.4048
傅上	-10.4051
結就	-10.4052
四等	-10.4054
人行	-10.4057
太歲	-10.407
求道	-10.4071
冶	-10.4074
無餘	-10.408
老人	-10.408
歲月	-10.4084
故人	-10.4086
生地黄汁	-10.4092
喬	-10.4092
風毒	-10.4093
右法	-10.4104
涎	-10.4106
爲丸	-10.4107
結氣	-10.4107
柴	-10.4108
妙道	-10.411
膚	-10.4114
乾漆	-10.4116
蛇牀子	-10.4116
鑑	-10.4119
祈晴	-10.4119
地榆	-10.412
全真	-10.4123
妄言	-10.4124
以意	-10.4126
郄	-10.4128
沾	-10.4129
斜	-10.4129
迫	-10.4129
姿	-10.4131
澆	-10.4132
准	-10.4133
尹	-10.4134
區區	-10.4134
綺	-10.4134
敲	-10.4135
梨	-10.4136
斡運	-10.4139
夀	-10.414
之方	-10.414
庚辛	-10.4141
相通	-10.4141
愛之	-10.4143
賈	-10.4143
浩劫	-10.4144
一條	-10.4145
林泉	-10.415
詮	-10.415
之光	-10.4151
搜尋	-10.4151
四季	-10.4162
同煎	-10.4164
酒浸	-10.4168
直上	-10.418
黄疸	-10.4191
解脫	-10.4193
湛	-10.4194
三十年	-10.4197
人物	-10.4197
洞眞	-10.4198
者天	-10.4198
壇前	-10.4202
道意	-10.4208
大者	-10.4212
得病	-10.4213
也眞人	-10.4217
閑人	-10.4226
役使	-10.4228
蜜丸	-10.423
社令	-10.4231
爲真人	-10.4237
持戒	-10.4238
二十五	-10.4242
大病	-10.4245
臣等	-10.4246
十銖	-10.4254
無言	-10.4259
安寧	-10.426
青霄	-10.4262
神君	-10.4266
三島	-10.4273
不可得	-10.4273
之地	-10.4278
半日	-10.4284
方云	-10.4287
如斯	-10.4289
周天	-10.4291
令盡	-10.4292
本師	-10.4296
不合	-10.4298
戒者	-10.4299
不自知	-10.4302
一言	-10.4304
不顧	-10.4307
藥力	-10.4307
其内	-10.4308
長夜	-10.4308
下愚	-10.4309
之房	-10.431
含之	-10.431
有知	-10.4313
火輪	-10.4316
之要	-10.4324
先人	-10.4331
七者	-10.4332
亦不可	-10.4333
疫	-10.4337
不能言	-10.4338
下氣	-10.4341
恰	-10.4342
若是	-10.4344
行也	-10.4346
思惟	-10.4348
攣	-10.4353
悟眞	-10.4355
其本	-10.4355
欲使	-10.4362
正教	-10.4365
煅	-10.4367
虚皇	-10.4368
疥	-10.4369
得仙	-10.4369
沐	-10.437
崔氏	-10.437
上登	-10.4371
豈有	-10.4371
致太平	-10.4372
歛	-10.4373
更有	-10.4375
古今録驗	-10.4375
何如	-10.4376
盲	-10.4377
白日	-10.4378
系	-10.4378
朴硝	-10.4384
濇	-10.4384
祛	-10.4386
寒水石	-10.4386
艶	-10.4389
札	-10.4389
爲細末	-10.4389
甲乙云	-10.439
魁罡	-10.4391
猜	-10.4391
諦	-10.4392
生姜	-10.4392
紛	-10.4393
診	-10.4393
勇	-10.4395
淹	-10.4396
衒	-10.4397
簇	-10.4397
叅	-10.4398
拯	-10.4398
故言	-10.4399
縈	-10.4399
萌	-10.4399
决烈	-10.44
馮	-10.44
後聖	-10.4401
廻	-10.4402
猾	-10.4402
旛	-10.4402
岳	-10.4405
贊	-10.4407
齡	-10.4409
暇	-10.441
其餘	-10.4413
頂門	-10.4413
玉花	-10.4415
上詣	-10.4417
經絡	-10.4423
壬癸	-10.4424
喜怒	-10.4426
之狀	-10.4431
忘情	-10.4432
朝禮	-10.4435
玉泉	-10.4435
燒末	-10.4436
常服	-10.4436
心猿	-10.4438
瓊花	-10.4438
成道	-10.4441
關元	-10.4447
赤子	-10.4449
呪畢	-10.4449
十轉	-10.4451
上行	-10.4451
消石	-10.4453
幽微	-10.4453
音聲	-10.4456
合成	-10.4459
之宗	-10.446
三山	-10.4463
念呪	-10.4464
爲體	-10.4473
之義	-10.4476
病苦	-10.4481
酒服方寸七	-10.4482
下入	-10.4486
山上	-10.4488
與道	-10.449
陰乾	-10.4494
煩熱	-10.4495
綻	-10.4501
必死	-10.4505
玉文	-10.4513
非有	-10.4514
本際經云	-10.4515
兩目	-10.4517
應變	-10.4521
玄關	-10.4525
世事	-10.4526
有四	-10.4528
寳經	-10.4535
皆因	-10.4536
速至	-10.4537
各異	-10.455
先煑	-10.4558
遍身	-10.4559
此言	-10.4559
礬	-10.456
目中	-10.4561
更不	-10.4564
而出	-10.4568
有形	-10.4568
舌上	-10.457
正氣	-10.4573
如故	-10.4575
頂上	-10.4581
青黄	-10.4582
三百六十	-10.4582
之位	-10.4586
耳中	-10.4589
雲步	-10.4589
得此	-10.459
文章	-10.4591
人不	-10.4592
衮	-10.4596
五苦	-10.4602
於内	-10.4605
九炁	-10.4606
不老	-10.461
爲妙	-10.4615
葵	-10.4619
此二	-10.4622
數十	-10.4622
紫雲	-10.4625
嘉祥	-10.4627
世俗	-10.4627
於中	-10.4627
得天心	-10.4628
於身	-10.4629
無他	-10.4631
養氣	-10.4637
蛇床子	-10.4646
鼈	-10.4648
蜂	-10.4651
塵世	-10.4654
驢	-10.4658
本名	-10.4659
謗	-10.466
相從	-10.466
囑	-10.4661
墓	-10.4662
三魂	-10.4662
离	-10.4663
牧	-10.4663
佞	-10.4664
拳	-10.4664
崔	-10.4664
板	-10.4664
囉	-10.4665
罩	-10.4667
僕	-10.4669
擾	-10.4669
濯	-10.4671
漂	-10.4672
因緣	-10.4674
修完	-10.4676
九竅	-10.4679
之室	-10.4681
教令	-10.4685
一生	-10.4685
金花	-10.4686
述意	-10.4689
地黄汁	-10.4694
優	-10.4697
不傳	-10.4701
長久	-10.4705
輝輝	-10.4712
其時	-10.4713
二字	-10.4717
超然	-10.4717
黒炁	-10.4721
君臣	-10.4723
者常	-10.4729
真經	-10.4729
宫中	-10.4734
不得息	-10.4735
其實	-10.4744
飛龍	-10.4746
問事	-10.4752
而行之	-10.4754
見之	-10.4758
已下	-10.476
吐逆	-10.476
矣故	-10.4771
王公	-10.4772
咽之	-10.4783
勿復	-10.4785
晴空	-10.4786
天仙	-10.4791
服又方	-10.4794
生氣	-10.4795
積行	-10.48
大熱	-10.4803
之章	-10.4804
某甲	-10.4807
取其	-10.4809
治風	-10.481
名字	-10.4817
灌之	-10.4818
相和	-10.4818
莫能	-10.4823
右十味	-10.4825
之罪	-10.4829
五符	-10.483
萬萬	-10.4834
枝葉	-10.4836
也天地	-10.4837
所傷	-10.4844
神光燦	-10.4844
故名爲	-10.4845
九靈	-10.4845
山中	-10.4849
神水	-10.485
今人	-10.4851
本無	-10.4853
眞功	-10.4855
速起	-10.4857
洞照	-10.4859
二百	-10.486
星宿	-10.4869
六兩	-10.487
飲水	-10.488
頤	-10.4883
一字	-10.4884
者若	-10.4885
唵吽吽	-10.4887
訟	-10.489
踝	-10.4892
安能	-10.4897
海上	-10.4899
安閑	-10.4903
除熱	-10.4906
雷鳴	-10.4911
優游	-10.4913
無病	-10.4918
狐	-10.492
甜	-10.4921
微火	-10.4923
瘻	-10.4923
分二服	-10.4923
居之	-10.4924
胷滿	-10.4927
疳	-10.4927
民間	-10.4929
鯉魚	-10.4929
人天	-10.493
缺盆	-10.493
說法	-10.4931
嗜	-10.4933
堆	-10.4933
轄	-10.4934
層	-10.4935
弓	-10.4936
疲	-10.4936
廓	-10.4937
啖	-10.4938
右件	-10.4938
拷	-10.4938
斑猫	-10.4939
絮	-10.494
盈盈	-10.4941
香豉	-10.4941
未得	-10.4942
鎻	-10.4942
鞋	-10.4942
吼	-10.4943
濤	-10.4943
墻	-10.4943
日出	-10.4943
愍	-10.4943
火急奉行	-10.4944
其年	-10.4944
嚥液	-10.4944
挾	-10.4945
慇懃	-10.4946
控	-10.4948
漫	-10.4948
巍巍	-10.4948
是天	-10.4949
郊	-10.4949
三十九	-10.4949
枷	-10.495
追魂	-10.4951
秤	-10.4952
吕	-10.4953
天地開闢以來	-10.4953
愧	-10.4953
也所以	-10.4955
細切	-10.4956
桂心甘草	-10.4956
亦復如是	-10.4957
雕	-10.4958
息肉	-10.4959
隨其	-10.4959
其數	-10.496
丈夫	-10.496
良醫	-10.4961
遜	-10.4961
不許	-10.4967
躁	-10.4969
筋骨	-10.4973
金銀	-10.4975
二月	-10.4976
不得卧	-10.4979
邪僞	-10.498
財物	-10.4981
神珠	-10.4981
無極之	-10.4982
常在	-10.4986
七魄	-10.4988
收攝	-10.4995
華蓋	-10.5005
丹藥	-10.5006
經教	-10.5015
積年	-10.5023
消亡	-10.5024
矣夫	-10.5026
故當	-10.5027
真真	-10.5044
不禁	-10.5048
真仙	-10.5049
爾時	-10.505
便得	-10.5053
相連	-10.5058
眞空	-10.5062
無相	-10.5064
玉虛	-10.5064
大師	-10.5065
敕召	-10.5065
夫婦	-10.5065
虚而	-10.5066
奥	-10.507
視之	-10.5074
三首	-10.5077
之鄉	-10.5077
寒氣	-10.5077
糊	-10.5078
不若	-10.5079
訖下	-10.5084
水腫	-10.5085
金門	-10.5085
未盡	-10.5087
道不	-10.5093
召呪	-10.5098
眞樂	-10.5101
風雲	-10.5102
眞修	-10.5102
頌曰	-10.5113
於上	-10.512
轉筋	-10.5122
前藥	-10.5125
於外	-10.5129
之故	-10.513
觀者	-10.5131
利益	-10.5136
在外	-10.5141
始生	-10.5156
右八味	-10.5158
三部	-10.5159
心香	-10.516
有爲	-10.5163
道場	-10.5176
行人	-10.5178
不息	-10.5183
香火	-10.5184
價	-10.5184
慈心	-10.5186
神效	-10.5189
太上曰	-10.5195
煑取二升	-10.5202
積久	-10.5205
而不能	-10.5205
玉京山	-10.5208
痞	-10.5209
同前	-10.5209
神虎	-10.5211
六七	-10.5213
元始天王	-10.5217
朴消	-10.5218
草烏	-10.522
五月五日	-10.5221
酌	-10.5221
酷	-10.5223
赤色	-10.5224
蟬	-10.5225
仲景	-10.5227
呬	-10.5227
况	-10.5227
轡	-10.5228
殷	-10.5228
頻頻	-10.5229
愚癡	-10.5231
跨鶴	-10.5231
駐	-10.5231
西王母	-10.5234
旺	-10.5234
穹	-10.5235
聳	-10.5236
戊己	-10.5238
皮毛	-10.5238
叙	-10.5241
寵	-10.5241
縱横	-10.5246
亂髮	-10.5247
湛然	-10.5253
祥雲	-10.5254
爲義	-10.5256
人事	-10.5257
洞陽	-10.5259
加减	-10.5265
主者	-10.5267
妖精	-10.5269
終始	-10.5271
洞府	-10.5272
三業	-10.5273
益氣	-10.5276
水洗	-10.5282
五穀	-10.5285
以其	-10.5286
之病	-10.5292
男兒	-10.5293
妻子	-10.5293
蛟龍	-10.5298
生萬物	-10.5301
令熟	-10.5302
帝敕	-10.5303
之館	-10.5305
太平經	-10.5305
浮雲	-10.5306
超昇	-10.5307
未見	-10.5307
尺脉	-10.5313
少時	-10.5317
吞之	-10.5318
吐出	-10.5322
靡	-10.5324
天地之間	-10.5329
要道	-10.5333
隨意	-10.5335
福德	-10.5338
虚寒	-10.5338
香煙	-10.5342
虚損	-10.5346
二枚	-10.5347
發背	-10.5348
則致	-10.5349
青炁	-10.5352
雲路	-10.5355
足以	-10.5355
也唯唯	-10.5359
故令	-10.5361
面上	-10.5362
記之	-10.5367
自言	-10.5367
巽方	-10.5368
中来經曰	-10.5369
四十九	-10.5369
端正	-10.5377
後有	-10.5377
一把	-10.5382
行善	-10.5388
歌舞	-10.5391
虚心	-10.5401
喉中	-10.5402
三徧	-10.5402
常常	-10.5405
此箇	-10.5407
之境	-10.5408
風濕	-10.5411
空腹	-10.5412
曆	-10.5415
大小便	-10.5418
者悉	-10.542
犯之	-10.5426
歸於	-10.5427
大賢	-10.5427
煞炁	-10.5432
深處	-10.5434
壺	-10.5437
但當	-10.5438
邪惡	-10.5441
八者	-10.5445
符中	-10.5446
脅	-10.545
忘言	-10.5458
與其	-10.546
釀	-10.546
青山	-10.5463
仙鄉	-10.5465
以明	-10.5466
氣息	-10.5468
冥冥	-10.5473
以下	-10.5474
鈴	-10.5476
治傷寒	-10.5477
而起	-10.5477
而下	-10.5478
當知	-10.548
篩	-10.548
虛皇	-10.5482
曰夫	-10.5484
言其	-10.5492
柰	-10.5492
右二味以	-10.5492
驚悸	-10.5493
也乃	-10.5495
有何	-10.5495
洞明	-10.5496
猪苓	-10.5497
小童	-10.5497
偷	-10.5499
萬道	-10.55
不移	-10.5502
几	-10.551
爍	-10.551
水煎	-10.551
腸胃	-10.5516
蛾	-10.5517
叱	-10.5518
連翹	-10.5519
栖	-10.552
脯	-10.552
浩浩	-10.552
裳	-10.5521
簪	-10.5522
纖	-10.5523
瓢	-10.5523
京兆	-10.5523
喚	-10.5523
古之	-10.5525
洋	-10.5526
勅	-10.5529
扶桑	-10.553
奴婢	-10.553
鑄	-10.553
開闢	-10.5531
爲治	-10.5532
庸	-10.5533
錦帔	-10.5537
三陽	-10.5539
酒調	-10.5541
杏人	-10.5546
無涯	-10.5547
使我	-10.5548
拆起	-10.555
恰似	-10.5551
詩詞	-10.5558
快樂	-10.5558
須憑	-10.5561
下焦	-10.5566
明旦	-10.557
下方	-10.5577
之徒	-10.5578
行此	-10.5578
絞去滓	-10.5581
不可治	-10.5583
還丹	-10.5584
依此	-10.5585
燒之	-10.5587
四寸	-10.5593
右六味	-10.5596
服此	-10.5598
熬令	-10.5606
凝神	-10.5606
帝勑	-10.5608
殺之	-10.5608
如上法	-10.5608
身爲	-10.5611
忠信	-10.5612
陰中	-10.5614
通玄	-10.5639
與神	-10.5641
一聲	-10.5641
六情	-10.5642
不過三	-10.5645
惡心	-10.5646
修真	-10.5647
大風	-10.5648
十五日	-10.5655
苦酒	-10.5658
之外	-10.5659
乃是	-10.5659
清平	-10.566
父子	-10.5662
金瘡	-10.5663
義曰	-10.5667
於地	-10.5676
所有	-10.5677
養生	-10.568
少年	-10.5683
煑取一升	-10.5685
了眞	-10.5686
疾苦	-10.5686
時行	-10.5687
之恩	-10.5689
杳	-10.5691
心上	-10.5691
諸將	-10.5693
又方治	-10.5694
无形	-10.5704
必須	-10.5705
四體	-10.5707
好把	-10.5707
修齋	-10.5707
天意	-10.5711
有情	-10.5717
仁義	-10.5723
四象	-10.5727
卷中	-10.5735
根本	-10.5736
轉輪	-10.574
蘂	-10.5741
所由	-10.5744
分四服	-10.5747
下者	-10.5748
蛟	-10.5756
未來	-10.5757
方半夏	-10.5758
之辭	-10.5758
腕	-10.5761
番	-10.5765
九升	-10.5767
杵	-10.5768
傳之	-10.5768
百二十	-10.5768
此理	-10.5771
㧞	-10.5771
心無	-10.5774
路上	-10.5774
千年	-10.5783
外臺云	-10.5788
漬一宿	-10.5791
寃	-10.5791
易之	-10.5793
臘	-10.5793
不當	-10.5796
奈何	-10.5798
酒調服	-10.5798
萬年	-10.5799
鐶	-10.58
烏賊骨	-10.5802
未悟	-10.5803
流光	-10.5804
痙	-10.5805
羗活	-10.5806
竹茹	-10.5806
髀	-10.5806
此者	-10.5806
蕪荑	-10.5808
治卒	-10.5809
馘	-10.581
叁	-10.5813
以道	-10.5813
不是	-10.5814
吞下	-10.5815
藤	-10.5816
不聞	-10.5816
樸	-10.5818
拖	-10.5818
嗚	-10.5818
妬	-10.5819
爪甲	-10.5819
坊	-10.582
羞	-10.5821
蟻	-10.5821
大明	-10.5822
污	-10.5822
猛吏	-10.5823
妻男	-10.5823
道學	-10.5824
大戟	-10.5824
蒼术	-10.5824
七月七日	-10.5825
巔	-10.5826
絃	-10.5826
虚羸	-10.5826
讎	-10.5827
穎	-10.5827
遏	-10.5827
亨	-10.5827
糧	-10.5829
循環	-10.5829
太衝	-10.583
氤氲	-10.583
諭	-10.5832
沃	-10.5832
晦	-10.5832
鬭	-10.5832
算	-10.5833
奮	-10.5833
在心	-10.5834
捉住	-10.5835
清水	-10.5836
陀	-10.5837
琅	-10.5837
羡	-10.584
欲求	-10.5842
金牙	-10.5842
涌	-10.5843
太上老君	-10.5844
吐納	-10.5851
天涯	-10.5852
開明	-10.5856
成眞	-10.5857
固固	-10.5863
不妨	-10.5867
顯現	-10.5869
發心	-10.5872
山水	-10.5872
雲山	-10.5883
日一	-10.5885
卯文	-10.5885
入水	-10.5888
瘥又方	-10.5891
其後	-10.5894
中士	-10.5902
端坐	-10.5904
將息	-10.5907
常思	-10.591
力士	-10.5913
不容	-10.592
不論	-10.5923
不收	-10.5924
三尺	-10.5927
五種	-10.5929
天子	-10.593
相逢	-10.5931
上善	-10.5935
召雷	-10.5935
神神	-10.5938
一如	-10.5944
正炁	-10.5947
寂然	-10.5949
立愈	-10.595
一家	-10.5951
安坐	-10.5952
白玉	-10.5953
兩般	-10.5954
孝道	-10.5956
殺生	-10.5959
義者	-10.5961
鬼賊	-10.5964
動脉	-10.5966
律令敕	-10.5967
勸人	-10.597
火車	-10.5973
共爲	-10.5986
癰腫	-10.5988
因何	-10.5994
絞取汁	-10.5994
紫金	-10.6001
雲霧	-10.6004
温病	-10.6005
者少	-10.6006
氣滿	-10.6007
封之	-10.6007
好道	-10.6009
而今	-10.601
二十八	-10.6011
下古	-10.6017
有分	-10.6019
感動	-10.6027
中人	-10.6028
氣不足	-10.603
一百二十	-10.6032
霸	-10.6036
方諸	-10.6037
傷損	-10.6038
骨節	-10.6043
日三又方	-10.6044
天使	-10.6045
金甲	-10.6049
急痛	-10.6052
雲外	-10.6056
中國	-10.6056
水官	-10.606
以相	-10.6062
以治	-10.6066
催生	-10.6067
太微天帝君	-10.6069
也而	-10.6073
霆	-10.6082
高聖	-10.6085
王氣	-10.6087
熱服	-10.6089
玉童玉女	-10.6092
法度	-10.6092
次用	-10.6097
子文	-10.6099
常念	-10.61
敦	-10.6101
寥	-10.6101
熨之	-10.6104
四直	-10.6104
其日	-10.6107
髻	-10.6108
不得食	-10.611
愼勿	-10.611
春秋	-10.6113
携雲	-10.6113
合煎	-10.6114
皂角	-10.6115
曰吾	-10.6115
故吾	-10.6116
栗	-10.6117
動則	-10.6118
閑中	-10.6119
雲收	-10.612
門下獄	-10.612
不中	-10.612
辛夷	-10.6121
大如	-10.6122
鹿茸	-10.6123
霹𩆝	-10.6124
柏子仁	-10.6128
挑	-10.6128
胡麻	-10.6129
孝子	-10.6129
本有	-10.613
低	-10.6132
肉桂	-10.6133
恚	-10.6133
之道也	-10.6133
萬歲	-10.6133
不隨	-10.6133
白帝	-10.6134
漠	-10.6134
爵	-10.6136
梢	-10.6136
擺	-10.6137
喧	-10.6137
撞	-10.6139
鬼臼	-10.6139
凋	-10.6139
鴻	-10.6139
瀛洲	-10.6139
鄙	-10.614
采	-10.614
攺	-10.614
嚮	-10.614
利小便	-10.614
俊	-10.6141
懃	-10.6142
塵埃	-10.6142
帀	-10.6143
在天	-10.6143
白日昇天	-10.6143
蟠桃	-10.6143
巡	-10.6143
月華	-10.6144
貨	-10.6144
寺	-10.6145
爻	-10.6146
之用	-10.6147
懇	-10.6147
頭頭	-10.6148
窺	-10.6149
長生久視	-10.6149
咫尺	-10.615
五年	-10.615
倒顛	-10.6151
至德	-10.6151
嫉	-10.6151
守之	-10.6158
吏民	-10.6159
塵寰	-10.616
足下	-10.6162
别研	-10.6163
如小豆	-10.6164
之性	-10.6169
此明	-10.6169
可治	-10.6169
恣意	-10.6169
歸蓬島	-10.6173
春夏	-10.6173
回首	-10.618
見世	-10.618
厥逆	-10.6182
愼無	-10.6182
其法	-10.6185
器中	-10.6185
金精	-10.6186
皇人	-10.6186
天宫	-10.6196
小乘	-10.621
也是以	-10.6211
流金	-10.6213
普天	-10.6215
逆氣	-10.6215
同心	-10.6217
有益	-10.6218
右四味治下篩	-10.6219
宗師	-10.6221
四序	-10.6222
瑞應	-10.6222
白雪	-10.6223
爲君	-10.6224
金虎	-10.6226
丹結	-10.6228
與地	-10.6233
得成	-10.6235
青帝	-10.6236
無欲	-10.6237
不平	-10.6241
成形	-10.6244
法界	-10.6246
思慮	-10.6252
食後服	-10.6259
樂道	-10.6259
所宜	-10.6263
精光	-10.6266
水穀	-10.627
羅列	-10.6271
立至	-10.6271
故稱	-10.6274
所見	-10.6275
則生	-10.6276
瘥止	-10.628
國土	-10.6283
遶	-10.6289
早早	-10.629
漬之	-10.629
中古	-10.6291
多者	-10.6298
紫蘇	-10.6304
藥成	-10.631
玉臺	-10.631
中秋	-10.6323
酒三升	-10.6324
亦復	-10.6328
流行	-10.6329
氣結	-10.6333
兩耳	-10.6335
行步	-10.6335
先身	-10.6336
汁出	-10.6337
中極	-10.634
故以	-10.6345
斗中	-10.6347
星君	-10.635
受生	-10.6351
人者	-10.6355
以綿	-10.6358
當風	-10.6361
斗口	-10.6362
十八銖	-10.6363
百合	-10.6363
死魂	-10.6363
服方寸七日三	-10.6365
目前	-10.6371
作末	-10.6371
白皮	-10.6375
若人	-10.6379
通眞	-10.6379
七分	-10.6379
卷云	-10.6379
不妄	-10.6383
乃以	-10.6386
瓊漿	-10.6388
玉堂	-10.6395
於心	-10.6396
次内	-10.6399
時氣	-10.641
開口	-10.641
億劫	-10.641
土皇	-10.6415
及其	-10.6416
令熱	-10.6419
之至	-10.6421
自出	-10.6421
光照	-10.6424
不止方	-10.6428
早悟	-10.6429
栝蔞	-10.6429
以何	-10.6431
嚥氣	-10.6432
於世	-10.6436
淚	-10.6438
薏苡仁	-10.6439
訶	-10.6441
督	-10.6441
茴香	-10.6443
或問	-10.6444
榜	-10.6446
批	-10.6448
狼	-10.6449
欬嗽	-10.6449
髪	-10.645
七元	-10.6451
平復	-10.6452
難爲	-10.6453
長跪	-10.6453
鬧	-10.6454
守一之法	-10.6456
夾	-10.6456
嬰姹	-10.6457
尼	-10.6457
藹	-10.6458
震動	-10.6459
形神	-10.646
拙	-10.646
森	-10.6461
艷	-10.6463
掘	-10.6464
岡	-10.6465
忍辱	-10.6465
頃刻	-10.6465
漁	-10.6465
俾	-10.6468
密封	-10.6469
一卷上清	-10.6469
不入	-10.647
猪肉	-10.6472
夙	-10.6473
五千文	-10.6476
尊卑	-10.6476
黑豆	-10.6477
棗膏	-10.6477
日月星辰	-10.6478
龍門	-10.648
者廼	-10.6481
抄	-10.6482
須要	-10.6487
四圍	-10.6488
月經	-10.6491
靈根	-10.6491
祕呪	-10.6493
腋下	-10.6494
所作	-10.6494
丸如梧子大	-10.6497
坐卧	-10.6501
一本	-10.6501
内諸藥	-10.6501
依舊	-10.6502
胷脇	-10.6502
别是	-10.6502
發則	-10.6506
陽也	-10.6506
謹召	-10.6507
然燈	-10.6515
濟度	-10.6516
碧落	-10.6517
人多	-10.6517
雷符	-10.6522
滿空	-10.6523
去矣	-10.6524
展轉	-10.6527
三遍	-10.653
夏月	-10.6534
格法	-10.6535
己身	-10.6538
白髮	-10.6543
豈可	-10.6547
小便數	-10.6549
財色	-10.6552
不著	-10.6554
之果	-10.6558
以水一斗	-10.6558
瑞氣	-10.6559
有疑	-10.6561
正中	-10.6563
四天	-10.6566
腎氣	-10.6566
熱氣	-10.6566
丹書	-10.6567
安置	-10.6567
姜汁	-10.6567
天光	-10.6569
面赤	-10.6569
八節	-10.6576
燦燦	-10.6582
欲令	-10.6583
難也	-10.6586
絶滅	-10.6588
神名	-10.6593
下及	-10.6595
事也	-10.6598
實者	-10.66
此道	-10.6603
高真	-10.6604
而止	-10.6605
劈	-10.6607
水調	-10.661
三景	-10.661
第十一	-10.6612
合同	-10.6613
幾何	-10.6613
徧身	-10.6615
天柱	-10.6617
録籍	-10.6617
不覩	-10.6618
然而	-10.6618
化身	-10.662
其要	-10.6622
身重	-10.6629
青天	-10.6629
此三	-10.6631
皮肉	-10.6632
明光	-10.6633
常欲	-10.6635
面黑	-10.6636
有毒	-10.6641
皇君	-10.6642
藏頭	-10.6645
經脉	-10.6646
三過	-10.6649
科曰	-10.6652
神良	-10.6653
熟擣	-10.6666
出現	-10.6666
姓某	-10.6667
皆不得	-10.6677
三錢	-10.6681
不求	-10.6686
上方	-10.6689
之治	-10.669
遊歷	-10.6698
善縁	-10.6699
焚之	-10.67
文辭	-10.6701
萬種	-10.6707
脉沉	-10.6707
目視	-10.6707
衆賢	-10.6709
九九	-10.6712
同志	-10.6714
又能	-10.6716
所願	-10.6719
行者	-10.6724
還反	-10.6728
節度	-10.673
所問	-10.6734
何等	-10.6735
驅雷	-10.6737
滅盡	-10.6742
魅	-10.6743
如此者	-10.6744
勤苦	-10.6744
下篩	-10.6751
丸如梧子	-10.6753
久視	-10.676
麻油	-10.6761
平平	-10.6766
夢見	-10.6768
不痛	-10.6768
輒有	-10.6769
薤	-10.677
渠	-10.677
藿香	-10.677
百六	-10.6771
擣末	-10.6772
頷	-10.6773
汗不出	-10.6775
䗪蟲	-10.6777
翕	-10.6778
品科曰凡是道學當知	-10.678
水蛭	-10.678
淡竹葉	-10.6781
無方	-10.6781
飴	-10.6785
牡丹皮	-10.6785
芒消	-10.6787
凡受	-10.6787
傲	-10.6788
風邪	-10.6788
寐	-10.6789
擘	-10.679
偏枯	-10.679
撼	-10.679
瑶池	-10.6791
鉢	-10.6791
諸法	-10.6791
拾	-10.6792
得生	-10.6792
征	-10.6792
淘	-10.6792
吿	-10.6794
澹	-10.6794
輦	-10.6795
婁	-10.6795
法海	-10.6795
盛則	-10.6796
暈	-10.6797
軌	-10.6797
括	-10.6797
環墻	-10.6798
十里	-10.6798
嬌	-10.6798
滌	-10.6799
罕	-10.6799
剖	-10.68
罏	-10.68
手太陰	-10.68
騫	-10.6803
堯	-10.6803
可服	-10.6803
鍊就	-10.6805
繡	-10.6806
蹈	-10.681
合於	-10.6812
欬逆	-10.6812
㤥	-10.6814
如此矣	-10.6817
爲鄰	-10.6818
三枚	-10.6818
月一日	-10.682
而長	-10.682
視其	-10.6821
昇入	-10.6823
者先	-10.6824
拘急	-10.6828
明了	-10.6831
由是	-10.6834
紫房	-10.6835
右七味㕮咀	-10.6838
大仙	-10.684
存思	-10.6841
難以	-10.6841
令得	-10.6842
其父母	-10.6845
登州	-10.6845
坎離	-10.6846
針刺	-10.6849
五辛	-10.6852
反覆	-10.6854
邪神	-10.6854
成子	-10.6859
過於	-10.6859
者乎	-10.6859
八日	-10.686
二人	-10.6861
唯天師	-10.6862
右十味㕮咀	-10.6863
奉戒	-10.6866
燦爛	-10.6867
不失其	-10.6868
四極	-10.6871
妄想	-10.6871
所不及	-10.6872
六根	-10.6872
二物	-10.6873
先服	-10.688
灾變	-10.6884
憂愁	-10.689
無毒主	-10.689
一心	-10.689
得真	-10.6895
大都	-10.69
南宫	-10.6908
行香	-10.691
天命	-10.6911
四合	-10.6912
悉皆	-10.6916
即下	-10.692
衆眞	-10.6921
起土	-10.6923
當得	-10.6926
十者	-10.6928
常樂	-10.6934
二丸	-10.6935
右二味爲末	-10.6936
本是	-10.6938
午文	-10.6939
存神	-10.6941
撮	-10.6944
瘥後	-10.6947
未及	-10.6948
邪文	-10.6951
半夏湯	-10.6956
浮腫	-10.6959
七合	-10.6959
有五	-10.696
天尊言	-10.6962
桃花	-10.6964
也亦	-10.6964
復發	-10.6965
隱書	-10.6967
十五丸	-10.6967
度日	-10.6967
青宫	-10.6968
此疾	-10.6973
何可	-10.6979
不具	-10.6981
醫者	-10.6982
唾血	-10.6984
眞實	-10.699
亦佳	-10.6991
明也	-10.6992
而致	-10.6995
共生	-10.6995
二斤	-10.7005
人亦	-10.7008
是我	-10.7008
其根	-10.7013
服一合	-10.7016
在於	-10.7016
三道	-10.702
吽吽	-10.7021
休休	-10.7026
蟾	-10.7027
其師	-10.7029
至理	-10.7029
九天之	-10.7032
唵吽	-10.7033
傍人	-10.7033
頭建	-10.7034
六極	-10.7034
天魔	-10.7038
大劫	-10.7039
紫清	-10.7039
青華	-10.7039
不審	-10.7043
九地	-10.7044
汝等	-10.7047
非人	-10.705
妨	-10.7055
殺鬼	-10.7059
侍衛	-10.706
不知其	-10.7062
赤鳳	-10.7064
不思	-10.7064
在乎	-10.7066
浸一宿	-10.7067
亦能	-10.7069
湯中	-10.707
玉性	-10.7071
安穩	-10.7076
次下	-10.7078
不避	-10.7082
復重	-10.7087
無色	-10.709
絶盡	-10.709
盃	-10.7091
有二	-10.7092
顆	-10.7093
黍米	-10.7094
召將	-10.7099
六日	-10.7103
無價	-10.7104
一法	-10.7104
眞君	-10.7106
我心	-10.7106
見人	-10.7108
冲	-10.7112
同流	-10.7113
方外	-10.7113
䕡茹	-10.7114
山東	-10.7116
錢重	-10.7117
羌活	-10.712
狼毒	-10.7121
代赭	-10.7121
何人	-10.7122
蹄	-10.7123
椀	-10.7124
掣電	-10.7125
魚際	-10.7125
奴	-10.7126
欠	-10.7126
咬	-10.7127
菊	-10.7128
熊	-10.7129
産婦	-10.713
聻	-10.7131
而痛	-10.7131
稠	-10.7132
厮	-10.7133
觜	-10.7133
摘	-10.7134
雹	-10.7135
鬚	-10.7135
撒	-10.7136
姙娠	-10.7136
寓	-10.7136
槌	-10.7137
戚	-10.7137
臻	-10.7138
又問	-10.7138
其理	-10.7138
復爲	-10.7139
亟	-10.714
罐	-10.714
董	-10.714
噉	-10.714
零	-10.714
朱雀	-10.7141
真實	-10.7142
雌黄	-10.7143
太倉	-10.7143
悠悠	-10.7144
黍	-10.7144
戎	-10.7145
相宜	-10.7145
茟	-10.7145
豁落	-10.7146
邁	-10.7146
鳥獸	-10.7149
驕	-10.715
憎愛	-10.7151
微咒曰	-10.7151
而上	-10.7151
儉	-10.7151
北海	-10.7153
身如	-10.7153
巫	-10.7154
無罣礙	-10.7154
輪回	-10.7157
熱則	-10.7159
宿命	-10.7163
叩頭	-10.7164
補益	-10.7164
蠻雷	-10.7165
萬人	-10.7167
靈符	-10.7168
星辰	-10.7169
亦不得	-10.7171
所欲	-10.7173
渾身	-10.7176
更無	-10.7177
湯治小兒	-10.7182
水煑	-10.7182
其四	-10.7183
二銖	-10.7185
東嶽	-10.7187
諸方	-10.7187
司馬	-10.7187
如無	-10.7189
香附子	-10.719
學而	-10.719
食前	-10.7192
日益	-10.7193
本根	-10.7194
搏	-10.7195
一度	-10.7196
飛步	-10.7196
虛則	-10.7198
響應	-10.7198
金液	-10.7204
客於	-10.7208
象地	-10.7209
太守	-10.7211
桂枝湯	-10.7213
没藥	-10.7215
一一	-10.7216
靈物	-10.7216
做箇	-10.7218
大效	-10.722
求仙	-10.7224
不測	-10.7225
風眩	-10.7225
地皇	-10.7228
凢婦人	-10.7232
漸加	-10.7237
大有	-10.7238
白茯苓	-10.7239
治在	-10.7241
天君言	-10.7242
初發	-10.7243
畢竟	-10.7247
中封	-10.7248
消滅	-10.7249
貪求	-10.7251
玉光	-10.7253
百鬼	-10.7254
昔日	-10.7254
行化	-10.7257
代之	-10.7258
諸病	-10.726
乃後	-10.7273
一齊	-10.7273
七遍	-10.7276
眞靈	-10.7276
三度	-10.7278
已來	-10.7281
神聖	-10.7283
大定	-10.7285
爲末蜜丸	-10.7288
得益	-10.7293
虚冷	-10.7294
秋冬	-10.7297
不念	-10.73
三壯	-10.7303
金簡	-10.7308
心性	-10.7308
其義	-10.7313
大千	-10.7314
施爲	-10.7314
善心	-10.7315
流通	-10.732
之又方	-10.7324
相引	-10.7337
來去	-10.7337
方生地黄	-10.7338
三關	-10.7341
某人	-10.7343
而來	-10.7346
其狀	-10.7348
泄痢	-10.7349
不可勝	-10.7351
具說	-10.7353
火炙	-10.7353
次以	-10.7364
目下	-10.7367
號令	-10.7371
有失	-10.7373
存心	-10.7376
教主	-10.7377
用水	-10.738
門下	-10.7382
桂枝	-10.7385
罪無	-10.7389
皇上	-10.7393
子大	-10.7393
水服	-10.7395
痛處	-10.7396
石上	-10.7397
三味	-10.7401
只爲	-10.7405
兩脚	-10.7406
到此	-10.7409
行藏	-10.7415
瘡中	-10.7417
不畏	-10.7418
木通	-10.7418
斛	-10.7428
之書	-10.7429
癬	-10.7433
腫方	-10.7434
雌	-10.7435
真氣	-10.7439
先須	-10.744
無疑	-10.7441
正心	-10.7449
第十二	-10.745
爲主	-10.7453
依前	-10.7455
醬	-10.7457
楚	-10.7462
竹筒	-10.7463
儔	-10.7463
門主	-10.7464
噀	-10.7464
消盡	-10.7465
白芨	-10.7465
哽	-10.7471
大將軍敕	-10.7471
聞之	-10.7471
白石脂	-10.7472
趾	-10.7475
漿水	-10.7476
五加皮	-10.7476
腠理	-10.7478
留心	-10.748
旋復花	-10.748
亦非	-10.748
駡	-10.7481
筒	-10.7482
緋	-10.7483
紫微宫	-10.7484
敵	-10.7485
痹	-10.7486
從心	-10.7488
君之	-10.7489
衫	-10.7489
澡	-10.749
灼	-10.749
趺	-10.749
噠	-10.7491
哮吼	-10.7491
叩齒九通	-10.7491
殿試	-10.7492
調服	-10.7493
勃	-10.7494
則用	-10.7494
笠	-10.7494
眇	-10.7495
醴	-10.7495
拱	-10.7496
遼	-10.7497
樞機	-10.7497
世情	-10.7497
天猷	-10.7497
偃	-10.7498
環堵	-10.7498
隨分	-10.7498
綴	-10.7499
道學不得教人	-10.7499
挂	-10.75
宿字君	-10.75
大羅天	-10.75
虎嘯	-10.7501
禽獸	-10.7501
不失銖分	-10.7502
窈	-10.7503
戹	-10.7503
去滓下	-10.7504
失精	-10.7507
敕呪	-10.7507
癃	-10.7508
不肖	-10.7508
朝夕	-10.7508
碧霄	-10.7509
冠帶	-10.7509
矜	-10.7511
輕慢	-10.7511
飆	-10.7512
風流	-10.7514
亦當	-10.7515
火坑	-10.7516
)▲(	-10.7517
周旋	-10.7517
飢寒	-10.7518
福慶	-10.7519
永保	-10.752
當歸桂心	-10.7523
示衆	-10.7524
月明	-10.7525
貧窮	-10.7526
愚迷	-10.7527
宿上治	-10.7529
萬有	-10.7533
麻黄湯	-10.7533
非其	-10.7535
見前	-10.7535
上品	-10.7536
頤神	-10.7536
水一盞	-10.7539
心火	-10.754
服餌	-10.7546
明真	-10.7546
爲天地	-10.7546
夫道	-10.7546
之疾	-10.7547
腹中痛	-10.7548
雷丸	-10.7549
清貧	-10.7553
立效	-10.7553
發動	-10.7555
不修	-10.7558
皓月	-10.756
瘵	-10.756
現形	-10.7561
救苦	-10.7561
之證	-10.7563
百節	-10.7564
高仙	-10.7566
右十一味	-10.7567
九星	-10.7568
煑取四升	-10.7569
道無	-10.757
服湯	-10.7571
高卧	-10.7572
君所居	-10.7574
不效	-10.7574
蜜丸如梧子	-10.7578
今生	-10.7582
人民萬物	-10.7584
冠服	-10.7586
玄珠	-10.7589
造物	-10.7589
靈風	-10.7589
勤修	-10.7591
九氣	-10.7595
惟有	-10.7595
隻	-10.7598
說破	-10.7599
乞丐	-10.7599
以藥	-10.76
救度	-10.7601
蓋之	-10.7602
自詠	-10.7607
玉室	-10.7617
變神	-10.7618
急急奉	-10.7621
如大豆	-10.7628
入口	-10.763
善之人	-10.763
二十四氣	-10.7631
内觀	-10.7632
神吏	-10.7633
容易	-10.7635
烈火	-10.7637
有膿	-10.7639
夫天	-10.764
無拘	-10.7645
只要	-10.7647
時節	-10.7648
降臨	-10.7651
古者聖人	-10.7653
力行	-10.7656
八威	-10.7656
水二升	-10.7657
消散	-10.7659
清通	-10.7662
了然	-10.7663
仍以	-10.7663
神呪	-10.7669
形體	-10.7669
右六味㕮咀以	-10.767
碧天	-10.7676
龍吟	-10.768
坦蕩	-10.7687
▲▲▲	-10.7691
正法	-10.7694
内消	-10.7696
之使	-10.77
加大黄	-10.7707
甘露	-10.7708
何得	-10.7711
洞達	-10.7712
台	-10.7713
漏蘆	-10.7714
勿以	-10.7717
小事	-10.7717
高眞	-10.7721
炁布	-10.7722
右三味㕮咀以	-10.7725
也言	-10.7729
當爲	-10.7731
相親	-10.7733
其有	-10.7735
除去	-10.7736
右㕮咀	-10.7736
吸入	-10.7743
群仙	-10.7746
常自	-10.775
獨自	-10.7751
何日	-10.7754
玄門	-10.7755
猿馬	-10.776
治也	-10.7765
修身	-10.7772
太華	-10.7774
一寸半	-10.7778
二千	-10.7783
未解	-10.7785
九重	-10.7791
炁一口	-10.7792
流精	-10.7795
助其	-10.7796
續命湯	-10.7797
幽冥	-10.7798
尋思	-10.7798
同一	-10.7801
八難	-10.7804
得與	-10.7805
蓮花	-10.7814
清香	-10.7817
韭	-10.782
有縁	-10.782
爲作	-10.7821
生時	-10.7822
受其	-10.7823
星斗	-10.7826
所犯	-10.7826
拍	-10.7826
自安	-10.7826
麽	-10.7833
南向	-10.7833
瀆	-10.7836
芥	-10.7837
徃	-10.7838
卷之八	-10.7841
何首烏	-10.7843
半錢	-10.7844
鵝	-10.7845
自相	-10.7845
綂	-10.7848
榆	-10.7849
能爲	-10.7849
十惡	-10.7849
男左女右	-10.785
垣	-10.7852
生有	-10.7853
疹	-10.7853
目眩	-10.7853
庚申	-10.7855
竹瀝湯	-10.7855
蓄	-10.7855
醴泉	-10.7855
幹	-10.7856
柏	-10.7856
弩	-10.7857
元來	-10.7858
斡旋	-10.7859
換	-10.786
寇	-10.786
獵	-10.7862
討	-10.7863
昭然	-10.7863
交媾	-10.7863
叟	-10.7863
踵	-10.7864
亢	-10.7864
揩	-10.7865
翛然	-10.7865
墳	-10.7867
太極真人	-10.7868
大慈	-10.7868
屬於	-10.7868
爲陽	-10.7868
翅	-10.7868
叩齒三通	-10.7869
雲朋霞友	-10.7869
牌	-10.7871
厠	-10.7871
呢	-10.7872
蔡	-10.7874
又用	-10.7874
堪歎	-10.7874
踐	-10.7875
猛烈	-10.7875
墟	-10.7875
瞑目	-10.7876
滿庭芳	-10.7876
食不消	-10.7878
鍜鍊	-10.7878
誨	-10.788
羊腎	-10.788
記名	-10.788
飛行上清	-10.7884
服二丸	-10.7884
天天王姓	-10.7886
參差	-10.7887
以此爲	-10.7888
休要	-10.789
右呪畢	-10.789
靈書	-10.7891
江海	-10.7891
祖宗	-10.7891
筆書	-10.7899
人神	-10.7901
之初	-10.7907
投玄	-10.7907
柰何	-10.791
流霞	-10.7912
人言	-10.7915
右十二味㕮咀	-10.7919
水氣	-10.7919
六方	-10.7932
四五	-10.7937
厥陰	-10.7938
賊風	-10.7941
虚勞	-10.7948
往還	-10.7951
五戒	-10.7951
洞經	-10.7952
衆真	-10.7952
素靈	-10.7954
齋堂	-10.7954
雷部	-10.7962
用事	-10.7963
善也	-10.7964
白氣	-10.7967
說與	-10.797
而不知	-10.7971
便把	-10.7972
日久	-10.7972
起雷	-10.7976
風痺	-10.7977
遇重陽	-10.7978
西華	-10.7979
惡血	-10.7987
山海	-10.7987
灰心	-10.799
備急	-10.7991
遊宴	-10.7994
敬信	-10.7994
疾疾	-10.7995
仙真	-10.7998
腰脚	-10.8
元皇	-10.8
無定	-10.8001
子細	-10.8002
難知	-10.8004
金容	-10.8005
十一月	-10.8011
修善	-10.8014
不能行	-10.8017
痰飲	-10.8021
滅度	-10.8025
志堅	-10.8027
百邪	-10.8029
四味	-10.8031
太過	-10.8031
五行之	-10.8033
四假	-10.8035
但見	-10.804
知空	-10.8041
相類	-10.8044
背上	-10.8045
煩心	-10.8045
洞徹	-10.8047
轉相	-10.8047
有小	-10.8048
欲絶	-10.8054
金鼎	-10.8055
疾者	-10.8057
神道	-10.8059
一篇	-10.8061
入山	-10.8063
萬邪	-10.8063
靈章	-10.8064
相欺	-10.8065
塵事	-10.8067
氣衝	-10.8071
三素	-10.8072
崑崙山	-10.8073
南斗	-10.8078
止痛	-10.8079
一半	-10.8081
八合	-10.8083
向東	-10.8084
爲師	-10.8086
痛不可忍	-10.8087
中央黄	-10.8088
即生	-10.809
也非	-10.8091
劇者	-10.8092
自家	-10.8095
期門	-10.8095
難言	-10.8097
玉虚	-10.8098
彼此	-10.8098
號爲	-10.8099
之國	-10.8102
各自有	-10.811
然夫	-10.8112
變爲	-10.8115
都仙	-10.8118
邪魔	-10.8119
酒肉	-10.8124
在下	-10.8124
者明	-10.8129
天之道	-10.8135
志意	-10.8136
内補	-10.8138
自從	-10.8138
墨書	-10.8138
煎令	-10.8138
明目	-10.8138
天庭	-10.8143
君王	-10.8149
件	-10.8151
六曰	-10.8156
惡也	-10.8158
和平	-10.8158
天尊曰	-10.816
惡物	-10.8162
神兵	-10.8171
萬鬼	-10.8171
善哉子	-10.8172
山居	-10.8174
明道	-10.8174
倫	-10.8177
百里	-10.8179
不滅	-10.8181
大樂	-10.8181
五勞七傷	-10.8181
閃	-10.8182
上通	-10.8182
煎取三升	-10.8184
家家	-10.8185
發時	-10.8187
這般	-10.8194
聰	-10.8196
心田	-10.82
熱盛	-10.8203
方燒	-10.8207
夜光	-10.8209
所能	-10.8213
斬鬼	-10.8213
不夜	-10.8215
生用	-10.8216
厲	-10.8217
即以	-10.8218
行雨	-10.8218
上帝敕	-10.8219
擣篩	-10.822
農	-10.822
蒲	-10.822
五彩	-10.8221
魘	-10.8222
至今	-10.8223
髮際	-10.8223
不勝	-10.8223
青白	-10.8224
須用	-10.8224
欵冬花	-10.8224
蒴藋	-10.8225
所屬	-10.8226
或在	-10.8229
善事	-10.8233
蝱蟲	-10.8233
防葵	-10.8234
吻	-10.8235
劄	-10.8236
肘後方云	-10.8238
叫	-10.8239
矯	-10.8239
彦	-10.8241
茹	-10.8241
臼	-10.8241
戾	-10.8241
痂	-10.8241
晡	-10.8242
筵	-10.8242
抹	-10.8242
授以	-10.8243
輭	-10.8243
蕪	-10.8243
時當	-10.8243
陷者中	-10.8243
地官	-10.8243
取汗	-10.8244
銳	-10.8244
磚	-10.8246
捺	-10.8246
餳	-10.8246
調塗	-10.8247
太歳	-10.8248
洞中	-10.8248
劵	-10.8249
窒	-10.8249
吊	-10.8249
阜	-10.8249
秦川	-10.825
偉	-10.825
屠	-10.825
恥	-10.825
澗	-10.8251
鯨	-10.8251
祖炁	-10.8251
柯	-10.8251
焙乾	-10.8252
囉哩㖫哩囉㖫	-10.8252
匙	-10.8252
皆從	-10.8253
盻	-10.8253
券	-10.8253
經年	-10.8253
糜	-10.8254
可見	-10.8255
虎狼	-10.8255
屯	-10.8256
梯	-10.8256
眄	-10.8257
綱紀	-10.8258
便宜	-10.8258
裘	-10.8258
麟	-10.8258
區	-10.8259
欻	-10.8259
黙念	-10.8259
何事	-10.8259
芥子	-10.826
陋	-10.826
貧賤	-10.8261
十洲	-10.8262
完全	-10.8263
寂寥	-10.8263
江湖	-10.8263
夷狄	-10.8263
尹喜	-10.8263
治一切	-10.8264
五更	-10.8265
俄	-10.8266
墮落	-10.8266
萬二千物	-10.8266
戰鬥	-10.8268
虚幻	-10.8268
羽蓋	-10.8269
酒一斗	-10.8269
十斤	-10.8271
取北炁	-10.8275
八風	-10.8275
乾薑桂心	-10.8276
丹霄	-10.8277
言而	-10.8279
萬世	-10.828
正神	-10.8281
温酒	-10.8282
紅霞	-10.8283
上造	-10.8284
身軀	-10.8287
神將	-10.829
黒雲	-10.8291
二七枚	-10.8294
如常	-10.8294
赤炁	-10.8294
宫殿	-10.8296
華池	-10.8297
山嶽	-10.8299
幾人	-10.83
右九味	-10.83
迴光	-10.83
真聖	-10.8302
太極真人曰	-10.8307
泰山	-10.8308
滅亡	-10.8309
明鏡	-10.8309
安危	-10.8315
急速	-10.8318
清心	-10.8321
其過	-10.8322
二十丸	-10.8326
乎故	-10.8328
身輕	-10.8329
仁者	-10.833
或如	-10.8332
同學	-10.8333
水煎服	-10.8337
不朽	-10.8338
動摇	-10.8338
冬月	-10.8338
神人言	-10.834
威神	-10.8342
不可妄	-10.8344
隂陽之	-10.8345
遠遊	-10.8352
落魄	-10.8353
聖王	-10.8353
明矣	-10.8354
頓悟	-10.8355
九州	-10.8356
出塵	-10.8356
房中	-10.8357
禹	-10.8359
刻書	-10.8363
過此	-10.8365
其名	-10.8366
八升	-10.8367
官屬	-10.8367
九曲	-10.837
門開	-10.8371
畏之	-10.8374
勿得	-10.8375
同卷	-10.8377
相合	-10.8378
風府	-10.8378
太古	-10.838
白附子	-10.8382
重陽師父	-10.8383
敕煞攝	-10.8388
已後	-10.8393
運用	-10.8393
洞極	-10.8395
黄色	-10.8395
青衣	-10.8398
尚書	-10.8398
道氣	-10.8402
則愈	-10.8405
無時	-10.8406
光射	-10.8407
高明	-10.841
心開	-10.8412
超三界	-10.8413
此非	-10.8413
傷於	-10.8414
爲本	-10.8416
風波	-10.8418
其家	-10.8419
會於	-10.8422
虚書	-10.8429
受苦	-10.8432
神仙之	-10.8436
空無	-10.8438
火雷	-10.8438
怎得	-10.8438
方圓	-10.8441
散人	-10.8442
他年	-10.8443
爲我	-10.8445
足太陰	-10.8448
水府	-10.8448
臣某	-10.8452
黄氣	-10.8452
丹靈	-10.8453
善功	-10.8455
以手	-10.8458
大凶	-10.8461
十天	-10.8461
運度	-10.8468
深思	-10.8476
二升半	-10.8478
小便難	-10.8478
玄靈	-10.848
疔瘡	-10.8483
丸散	-10.8487
劉公	-10.8488
歸命	-10.849
者非	-10.8495
則死	-10.8495
不久	-10.8499
成真	-10.8502
火裏	-10.8504
八會	-10.851
天理	-10.8512
百萬	-10.8513
受天	-10.8516
無差	-10.8516
不虚	-10.8518
祥瑞	-10.8519
當歸芍藥	-10.8524
流入	-10.8524
耳後	-10.8528
文登	-10.853
黄炁	-10.8531
如膏	-10.8532
所出	-10.8532
遂成	-10.8533
水一斗	-10.8535
欲要	-10.8537
病也	-10.8538
因此	-10.8538
枸杞根	-10.8539
殺傷	-10.854
眞經	-10.8542
運行	-10.8544
三冬	-10.8544
脉也	-10.8545
占得	-10.8546
不拘	-10.8549
泡	-10.855
腎水	-10.8553
符上	-10.8553
室中	-10.8554
有十	-10.8555
偈	-10.8556
專心	-10.8556
解之	-10.8558
右十三味	-10.8558
二尺	-10.8562
集驗	-10.8565
腸中	-10.8565
有寒	-10.8566
甑	-10.8568
不曉	-10.857
澄澄	-10.8571
休歇	-10.8571
毒用	-10.8572
之氣也	-10.8573
不作	-10.8575
西向	-10.8578
則是	-10.8579
老小	-10.8579
空青	-10.8583
當須	-10.8584
貪生	-10.8586
字道	-10.8587
人身中	-10.8589
兩脇	-10.859
一枝	-10.8591
立身	-10.8591
我師	-10.8593
赤腫	-10.8595
澼	-10.8596
無故	-10.8596
清虛	-10.8596
等分爲末	-10.86
心灰	-10.8601
不免	-10.8605
相教	-10.8606
一周	-10.8609
乾嘔	-10.8615
而復	-10.8618
令兒	-10.8618
其蟲	-10.862
常用	-10.8624
有驗	-10.8625
病之	-10.8625
曲池	-10.8626
贰	-10.8628
等也	-10.8629
野葛	-10.863
茵蔯	-10.8631
拌	-10.8633
䇿	-10.8634
丞	-10.8635
捻	-10.8635
搔	-10.8636
哆	-10.8636
意者	-10.8637
措	-10.8638
却用	-10.8638
巴	-10.864
出自	-10.864
蒿	-10.864
灸三壯	-10.8642
鴨	-10.8642
圎	-10.8643
蒺藜子	-10.8643
叛	-10.8643
靈神	-10.8643
毀	-10.8643
剥	-10.8644
如彈丸	-10.8644
肋	-10.8645
不來	-10.8645
圈	-10.8645
體無	-10.8645
桐	-10.8646
儘	-10.8646
忒	-10.8647
十數	-10.8647
䟽	-10.8647
俞	-10.8647
拽	-10.8647
啄	-10.8647
蜚	-10.8648
汞鉛	-10.8648
俏	-10.8648
過度	-10.8648
矢	-10.8648
蒂	-10.8649
鴈	-10.865
夾脊	-10.865
咭	-10.8651
宛	-10.8651
熙	-10.8651
內	-10.8651
脆	-10.8652
眸	-10.8652
徃來	-10.8652
指揮	-10.8652
椿	-10.8653
翹	-10.8653
增損	-10.8653
迥	-10.8653
虔	-10.8654
𥘉	-10.8654
以類	-10.8655
凑	-10.8655
遨遊	-10.8656
簾	-10.8656
死矣	-10.8657
其音	-10.8657
曽	-10.8657
不時	-10.8657
摶	-10.8658
拂袖	-10.8658
腿	-10.8658
慚	-10.866
應是	-10.866
服一丸	-10.866
鍛鍊	-10.8661
祅	-10.8663
雲朋	-10.8664
雖復	-10.8665
飛揚	-10.8665
甲申	-10.8666
不散	-10.8666
所以者何	-10.8666
綸	-10.8666
允	-10.8667
嬉	-10.8668
今報其	-10.867
性燭	-10.867
三師	-10.867
深淺	-10.867
覆取汗	-10.8671
煑取三升去滓分三服	-10.8674
工夫	-10.8675
瓊林	-10.8675
破壞	-10.8679
萬二千國	-10.868
所求	-10.868
登壇	-10.8682
諸惡	-10.8683
車馬	-10.8686
沉香	-10.8689
年命	-10.8689
行而	-10.8691
紫晨	-10.8692
教其	-10.8692
珠玉	-10.8693
成膿	-10.8693
七百年	-10.8695
二十年	-10.8695
五靈	-10.8695
作伴	-10.8697
烏藥	-10.8697
者死病人	-10.8698
助之	-10.87
有惡	-10.87
在此	-10.8704
無以	-10.8704
未曾	-10.8705
各三兩	-10.8706
薑汁	-10.8709
恰如	-10.8711
筋急	-10.8714
假令	-10.8715
於其内	-10.8716
讀經	-10.8719
黄素	-10.872
右十二味	-10.8721
六寸	-10.8722
矣今	-10.8729
遇風仙	-10.873
成事	-10.8731
無用	-10.8736
事畢	-10.8736
受經	-10.8738
眞性	-10.8738
腹大	-10.874
此三者	-10.8742
之患	-10.8743
使神	-10.8746
五字	-10.8747
同處	-10.8751
不欺	-10.8754
以粉	-10.8756
閻	-10.8757
方灸	-10.8758
禍福	-10.8758
之觀	-10.8758
毛髮	-10.876
學之	-10.8762
月水	-10.8767
雲集	-10.877
何一	-10.8772
日二服	-10.8773
太无	-10.8775
穀氣	-10.8776
黑帝	-10.8777
唯唯今	-10.8778
其爲	-10.878
眞箇	-10.8781
只用	-10.8783
勸化	-10.8787
一握	-10.8789
即消	-10.8793
下後	-10.8799
即時	-10.8802
服此藥	-10.8802
五人	-10.8803
玉樓	-10.8804
客熱	-10.8814
此時	-10.8814
群生	-10.8814
急至	-10.8815
方寸匕	-10.8815
所部	-10.8817
聲色	-10.882
十二部	-10.882
魒	-10.8821
三十丸	-10.8821
定志	-10.8824
妙法	-10.8824
者無	-10.8827
七年	-10.8828
已得	-10.883
九真	-10.883
也宜	-10.8833
風伯	-10.8834
開張	-10.8836
花開	-10.8839
杳冥	-10.8843
下三寸	-10.8848
治虛勞	-10.8851
並是	-10.8858
人命	-10.8859
公子	-10.886
腹中有	-10.8861
乃成	-10.8864
不得妄	-10.8865
雲氣	-10.8865
書言	-10.8866
靈真	-10.8868
自養	-10.8869
者見世	-10.8871
胞中	-10.8875
之年	-10.8875
隨病	-10.8875
不昧	-10.8878
犯者	-10.8878
化人	-10.8879
敷之	-10.888
經道	-10.8881
世外	-10.8889
古文	-10.889
亦以	-10.8894
玉名	-10.8894
可與	-10.8895
之信	-10.8896
天地隂陽	-10.8897
黎	-10.8897
佩之	-10.8897
靈芝	-10.8912
勸修	-10.8912
右二味治下篩	-10.8912
滅形	-10.8925
矣然	-10.8926
去血	-10.8926
諸真人	-10.8929
江河	-10.893
陽精	-10.8932
東井	-10.8935
衝天	-10.8936
莫知	-10.8939
火令	-10.894
經文	-10.8943
也比若	-10.8944
能知	-10.8944
消除	-10.8957
一斗二升	-10.8961
治法	-10.8964
九寸	-10.8967
徒勞	-10.8969
數數	-10.897
服一劑	-10.8972
性月	-10.8975
之源	-10.8978
八素	-10.898
三斤	-10.8981
隅	-10.8982
名之爲	-10.8983
人世	-10.8989
難得	-10.8989
後生者	-10.8993
氣象	-10.8994
兩頭	-10.9002
不可復	-10.9002
軫	-10.9005
皇道君	-10.9009
兩足	-10.9011
歟	-10.9015
三七日	-10.9017
宵	-10.9017
自非	-10.9018
真空	-10.9022
别後	-10.9028
芍藥甘草	-10.9029
耆	-10.9032
經書	-10.9041
以安	-10.9042
濾	-10.9042
在右	-10.9044
曝	-10.9045
鳩尾	-10.9045
四首	-10.9047
以生	-10.9048
黑色	-10.9048
本分	-10.9049
咽中	-10.9049
不令	-10.9049
浮世	-10.905
匕	-10.905
地膚子	-10.9051
百草霜	-10.9052
溝	-10.9052
漉	-10.9053
痊	-10.9055
荆瀝	-10.9057
樣	-10.9057
籬	-10.9058
一日一夜	-10.9059
徐徐	-10.9059
猫	-10.906
虚熱	-10.906
分五服	-10.906
副帥	-10.906
絆	-10.906
燒作灰	-10.9061
插	-10.9062
只在	-10.9062
縷	-10.9062
陪	-10.9062
惡鬼	-10.9063
幅	-10.9063
粧	-10.9063
溉	-10.9064
鷹	-10.9065
盂	-10.9065
鑽	-10.9065
地神	-10.9065
蜂房	-10.9066
瘖	-10.9066
煖	-10.9066
香風	-10.9067
丹陽次韻	-10.9067
詰	-10.9067
淮	-10.9068
奏地仙得道上學之人言名於四天之王	-10.9068
不可食	-10.9068
迅	-10.9069
嫩	-10.9069
至心歸命	-10.907
相搏	-10.9071
瘥治	-10.9071
爇	-10.9071
帽	-10.9071
敏	-10.9072
爰	-10.9072
昂	-10.9072
白石	-10.9073
囬	-10.9073
奢	-10.9074
嚤	-10.9075
速降臨	-10.9075
先食服	-10.9075
銘	-10.9075
九者	-10.9076
甘草桂心	-10.9076
仇	-10.9076
右十六味	-10.9076
纓	-10.9076
在後	-10.9077
者早已成真道	-10.9077
舜	-10.9078
邦	-10.9078
揖	-10.9078
悟得	-10.9079
副將	-10.9081
顚倒	-10.9082
城郭	-10.9084
玉蘂	-10.9086
飲刀圭	-10.909
空心服	-10.9092
行法	-10.9094
開化	-10.9094
無上祕要卷之	-10.9096
有德之君	-10.9097
不知人	-10.9097
赤明	-10.9097
損人	-10.9098
紫庭	-10.9099
佩身	-10.91
更以	-10.91
愛憎	-10.91
合道	-10.9102
道陵	-10.9102
罪過	-10.9102
舌下	-10.9104
浮沉	-10.9104
危亡	-10.9104
做神仙	-10.9108
積善	-10.9108
光澤	-10.911
受之於	-10.911
乳癰	-10.9111
興隆	-10.9112
丹青	-10.9113
威光	-10.9113
之藥	-10.9114
某等	-10.9114
日新	-10.9116
良縁	-10.9116
面有	-10.9117
諸般	-10.9123
内踝	-10.9123
不拘時	-10.9124
道乃	-10.9128
今明	-10.913
聞知	-10.9133
勑煞攝	-10.9135
幻化	-10.9136
衝開	-10.9138
本源	-10.914
中賢	-10.9142
如前法	-10.9144
福堂	-10.9147
五香	-10.9147
藏之	-10.9149
天府	-10.915
無分	-10.9151
玄宫	-10.9155
門在	-10.9157
照明	-10.9158
右四味㕮咀	-10.9159
奉北帝敕	-10.9161
九陽	-10.9161
四明	-10.9162
承負之	-10.9165
於其	-10.9165
服一升日三	-10.9168
注云	-10.9168
而歸	-10.9171
人知	-10.9175
師尊	-10.9177
必得	-10.9177
中宫	-10.9178
酒一升	-10.9182
元帥名	-10.9184
與不	-10.9186
甘草湯	-10.9187
小者	-10.919
羣生	-10.919
運雷	-10.9191
也當	-10.9195
從容	-10.9197
三昧	-10.9197
精誠	-10.9198
三拜	-10.9198
神真	-10.9199
爲名	-10.9199
通身	-10.92
好事	-10.9202
迸出	-10.9202
湯方	-10.9209
符右符	-10.921
門外	-10.9211
之志	-10.9213
不壽	-10.9213
耶唯唯	-10.9218
不能得	-10.9219
帝王之	-10.922
半斤	-10.9226
大哉	-10.9227
五霸	-10.9229
衆神	-10.9232
獨立	-10.9235
樂其	-10.9235
贈丹陽	-10.9241
思其意	-10.9241
形如	-10.9243
反爲	-10.9243
夜卧	-10.9244
者哉	-10.9248
意馬	-10.925
色白	-10.9251
以水三升煑取一升	-10.9253
與世	-10.9256
流火	-10.9261
故能成	-10.9261
和調	-10.9262
年少	-10.9263
養浩	-10.9267
龍王	-10.9271
其五	-10.9273
因以	-10.9281
眞眞	-10.9286
身有	-10.9286
米飲	-10.9291
馳騁	-10.9291
中真	-10.9291
灾異	-10.9292
玄虛	-10.9297
遠行	-10.9299
天下人	-10.93
不達	-10.93
風虚	-10.93
急捉	-10.9302
光彩	-10.9304
也真人知之耶唯唯	-10.9307
玉精	-10.9307
臨時	-10.9311
無著	-10.9313
在家	-10.9315
不救	-10.9316
氣絶	-10.9321
不敬	-10.9326
不渴	-10.9326
仙卿	-10.9326
手把	-10.9338
不倦	-10.934
自致	-10.9344
無我	-10.9347
是知	-10.935
觀其	-10.9351
人難	-10.9351
密妙	-10.9352
爲禍	-10.9353
秋月	-10.9353
雷震	-10.9354
付歸	-10.9355
有志	-10.9356
右以	-10.9356
短長	-10.936
四十五	-10.9361
也謂	-10.9361
火炁	-10.9368
既得	-10.9369
得自然	-10.9371
真修	-10.9371
日死	-10.9372
某日	-10.9372
上香	-10.9375
是道	-10.9377
歲兒	-10.9379
善乎	-10.9382
卷之六	-10.9386
飛符	-10.9392
一輪	-10.9393
則易	-10.9396
至于	-10.9398
不由	-10.9399
不停	-10.94
則無	-10.9403
教戒	-10.9404
如左	-10.9406
蔣	-10.9407
者去	-10.9416
昨	-10.9418
當令	-10.9422
今且	-10.9427
發者	-10.9427
以付	-10.9428
通真	-10.9429
三間	-10.9429
實也	-10.943
天外	-10.9433
驚癇	-10.9433
銅器中	-10.9434
願念	-10.9436
鬼物	-10.9437
凡諸	-10.9438
以養	-10.944
一體	-10.9442
功過	-10.9443
定是	-10.9444
於天地	-10.9444
無力	-10.9445
往往	-10.945
黄鶴洞中仙	-10.9454
赤芍	-10.9456
所成	-10.9456
詣師	-10.9457
大吉	-10.9458
相承	-10.9459
真火	-10.9464
有六	-10.9465
足太陽	-10.9466
陽九	-10.9477
眷	-10.9478
宸	-10.9479
惺	-10.9479
傳於	-10.9479
扃	-10.9479
對曰	-10.948
狼牙	-10.9481
戸	-10.9482
白馬	-10.9482
客忤	-10.9483
態	-10.9485
琳	-10.9485
搨	-10.9489
處也	-10.949
香爐	-10.949
綫	-10.9491
拒	-10.9492
躑躅	-10.9492
奄	-10.9492
悮	-10.9492
衞	-10.9493
黄花	-10.9494
岑	-10.9495
暨	-10.9496
方黄連	-10.9496
掉	-10.9497
昆	-10.9498
貫衆	-10.9498
援	-10.9498
加至二十丸	-10.9499
㦸	-10.95
癆	-10.9501
宂	-10.9501
伽	-10.9502
閬苑	-10.9502
樵	-10.9502
尻	-10.9502
馨	-10.9502
伺	-10.9503
腎輸	-10.9504
髣髴	-10.9504
肛門	-10.9504
磬	-10.9504
靈山	-10.9506
宇宙	-10.9506
不可思議	-10.9507
忙忙	-10.9507
焦枯	-10.9508
貸	-10.9509
魁𩲃𩵄䰢魓𩳐魒	-10.9509
忻	-10.9509
竟其天年	-10.9509
原缺	-10.951
鳩	-10.951
無異	-10.951
𣑽	-10.9511
龐	-10.9511
功成行滿	-10.9511
玉札	-10.9512
耽	-10.9512
碑	-10.9512
模	-10.9513
獅子	-10.9513
住行坐卧	-10.9516
架	-10.9516
緒	-10.9516
如此則	-10.9516
鼻塞	-10.9516
誰肯	-10.9517
莫測	-10.9517
沉淪	-10.9518
該	-10.9519
動揺	-10.952
宗祖	-10.952
六分	-10.952
濫	-10.9521
洪波	-10.9521
京師	-10.9521
五十日	-10.9524
動一止	-10.9526
赴蓬萊	-10.9527
報之	-10.9527
道果	-10.9528
貧富	-10.9529
厚薄	-10.9529
秀才	-10.9529
玉兔	-10.9529
兒女	-10.9531
慎勿	-10.9532
藏於	-10.9533
交接	-10.9533
烏兔	-10.9533
不可久	-10.9537
但以	-10.9538
侍香	-10.9541
丹霞	-10.9542
師法	-10.9544
多不	-10.9544
高皇	-10.9545
視聽	-10.9546
隨身	-10.9547
學人	-10.955
但能	-10.9551
湯治傷寒	-10.9552
中府	-10.9555
瀉之	-10.9562
來時	-10.9564
俱忘	-10.9564
七氣	-10.9565
部領	-10.9565
具位	-10.9565
持齋	-10.9567
童便	-10.9568
西風	-10.9569
王治	-10.957
金石	-10.9572
火雲	-10.9572
大蒜	-10.9573
上管	-10.9574
姹嬰	-10.9578
稍加至	-10.9579
常與	-10.9581
事意	-10.9583
斷穀	-10.9583
虚堂	-10.9585
糯米	-10.9585
有幾	-10.9585
能言	-10.9587
下廉	-10.9591
十指	-10.9592
悶亂	-10.9593
研細	-10.9595
善德	-10.9595
苦惱	-10.9596
未足	-10.9596
七曜	-10.9598
南華	-10.9601
性靈	-10.9604
玉户	-10.9606
紅光	-10.9607
隨機	-10.9611
混元	-10.9611
而已矣	-10.9613
以度	-10.9615
霹靂震	-10.9619
中出	-10.962
廣寒	-10.9621
比若人	-10.9621
玄虚	-10.9623
治於	-10.9628
滄海	-10.9629
三毒	-10.963
六府	-10.9631
青皮	-10.9632
不遠	-10.9633
神文	-10.9633
世夢	-10.9635
不敢有	-10.9635
中嶽	-10.9637
旋行	-10.9637
搜玄	-10.9639
自易	-10.9642
天大	-10.9643
心自	-10.9644
而數	-10.9644
但有	-10.9644
作善	-10.9645
目赤	-10.9645
老公	-10.9646
全身	-10.9647
上聞	-10.9654
大化	-10.9655
受持	-10.9657
由此	-10.9657
騰空	-10.9658
以水二斗	-10.9658
六年	-10.9667
神眞	-10.9667
何其	-10.9668
善哉子之言也	-10.9679
勞損	-10.9682
十善	-10.9686
玉章	-10.9688
仙公曰	-10.9691
煎服	-10.9695
七寸	-10.9695
生也	-10.9701
天中有	-10.9705
右八味㕮咀以	-10.9706
九天之上	-10.971
十載	-10.9711
行惡	-10.9711
者名爲	-10.9713
卷之三十	-10.9715
所知	-10.9716
身上	-10.9719
眞通	-10.9719
隨吾	-10.972
此三人	-10.9726
酒色	-10.9729
至死	-10.973
用力	-10.9731
五轉	-10.9734
雙關	-10.9734
人以	-10.9735
心堅	-10.9736
塗之又方	-10.9736
水流	-10.974
依科	-10.9741
玉門	-10.9742
陽之	-10.9743
神州	-10.9745
師弟子	-10.9747
之象	-10.9747
三品	-10.9748
仙王	-10.9749
俗事	-10.975
大喜	-10.9751
空裏	-10.9757
四斗	-10.9763
鈞	-10.9764
諸經	-10.9768
其色	-10.977
凶事	-10.9771
科戒	-10.9771
再念	-10.9772
非一	-10.9772
玄風	-10.9774
之端	-10.9775
道心	-10.9776
莫令	-10.9777
不差	-10.9781
爲末蜜丸如梧子大	-10.9781
道德仁	-10.9783
六六	-10.9784
本願	-10.9785
全道	-10.9786
右十五味㕮咀	-10.9787
豈能	-10.9787
風狂	-10.9788
未成	-10.979
凶神	-10.9794
不空	-10.9795
右六味治下篩	-10.9795
受道	-10.9801
食氣	-10.9806
也治	-10.9807
官將	-10.9809
也所謂	-10.9809
如雞子	-10.9811
玄理	-10.9816
吒唎	-10.9818
大害	-10.982
幸遇	-10.9821
在身	-10.9822
照破	-10.9824
大怒	-10.9825
去滓分三服	-10.9827
本相	-10.9829
冤結	-10.983
强者	-10.983
今天	-10.9831
之人也	-10.9832
無失	-10.9837
厭世	-10.9839
九江	-10.984
病上	-10.985
急者	-10.9851
各等分	-10.9852
常苦	-10.9861
苦樂	-10.9861
言曰	-10.9861
太靈	-10.9863
妙經	-10.9865
無比	-10.9865
神清	-10.9868
谿	-10.9871
至心	-10.9876
姹	-10.9879
小便利	-10.988
道教	-10.988
良治	-10.9885
噦	-10.9887
以爲常	-10.9888
和光	-10.9897
馭	-10.9898
鍊成	-10.99
午時	-10.9901
自消	-10.9903
流轉	-10.9903
六十日	-10.9904
讖	-10.9905
三十壯	-10.9905
皆愈	-10.9905
蒸之	-10.9905
青精	-10.9906
本末	-10.9906
當歸芎藭	-10.9912
雷兵	-10.9912
疸	-10.9915
皆令	-10.9916
并治	-10.9916
者勿	-10.9918
白芍藥	-10.9919
派	-10.992
吾令	-10.9922
長年	-10.9923
無間	-10.9924
腰背	-10.9925
足大趾	-10.9925
山河	-10.9925
抽	-10.9925
穰	-10.9926
零陵香	-10.9929
瓜蒂	-10.993
乃與	-10.9931
霞光	-10.9931
肝輸	-10.9932
聦	-10.9933
地氣	-10.9935
下有	-10.9935
太初	-10.9938
𧏾	-10.9938
右二味㕮咀	-10.9938
大赤天	-10.9939
秃	-10.9939
雷雨	-10.9939
瞋	-10.994
道本	-10.9941
粟米	-10.9942
鐺	-10.9945
兀	-10.9945
牽牛	-10.9945
六度	-10.9945
建中湯	-10.9946
牡	-10.9946
勦	-10.9947
詢	-10.9948
蛻	-10.9948
酒服之	-10.9948
驀	-10.9948
炓	-10.9949
太上之	-10.9949
已死	-10.995
不語	-10.995
右十四味	-10.995
驛	-10.9951
鈺	-10.9952
者令人	-10.9953
浄清	-10.9953
律令勑	-10.9955
炭火	-10.9955
黄𥿄朱書	-10.9955
𢬵	-10.9956
戍	-10.9956
急急如律令右呪畢	-10.9957
慘	-10.9957
瘤	-10.9958
頒	-10.9958
蝸	-10.9958
𡨚	-10.9958
刊	-10.9958
棋	-10.9959
隙	-10.9959
之音	-10.9959
員	-10.9959
進一服	-10.996
耍	-10.996
熾	-10.996
镇	-10.996
旌	-10.996
超彼岸	-10.996
奈	-10.9961
等病	-10.9961
牢獄	-10.9962
七升	-10.9962
相交	-10.9962
棺	-10.9963
察察	-10.9964
與吾	-10.9964
彼岸	-10.9964
誑	-10.9964
扉	-10.9964
財貨	-10.9964
鈍	-10.9964
烏龜	-10.9965
免輪回	-10.9965
帳	-10.9966
玩	-10.9966
𠔃	-10.9967
恭惟某	-10.9968
慳貪	-10.9968
三天玉童	-10.9969
其性	-10.9969
七祖父母	-10.9969
鼎内	-10.9969
此其致也	-10.9969
光耀	-10.9969
較	-10.997
大小便不通	-10.997
仰卧	-10.9971
娱	-10.9972
兵革	-10.9972
賜之	-10.9973
寵辱	-10.9973
瑩徹	-10.9975
泊	-10.9976
道經	-10.9977
鸞鶴	-10.9979
專專	-10.9981
甲寅	-10.9981
大要	-10.9984
上朝	-10.9984
施惠	-10.9988
氣急	-10.9989
去殻	-10.999
日月星宿	-10.9991
十二時中	-10.9991
之尊	-10.9991
打坐	-10.9992
迷惑	-10.9994
受法	-10.9995
謹謹	-10.9995
閑遊	-10.9997
後用	-10.9999
脅下	-10.9999
絹袋盛	-11.0002
悲傷	-11.0003
不能飲食	-11.0005
成人	-11.0006
眞師	-11.0006
悔過	-11.0006
思量	-11.0007
神功	-11.0008
劫運	-11.001
鬼魅	-11.0011
虎骨	-11.0012
壺天	-11.0012
收捉	-11.0012
右㕮咀每服	-11.0016
右二十	-11.0016
我來	-11.0019
狂走	-11.0021
生而	-11.0027
氣通	-11.0028
昇降	-11.0028
上白	-11.0034
當歸甘草	-11.0035
大過	-11.0043
冷氣	-11.0043
分四服日三夜一	-11.0044
又方用	-11.0046
大抵	-11.0046
此二人	-11.0046
者用	-11.0049
金烏	-11.0051
重樓	-11.0052
長生之	-11.0055
乾燥	-11.0057
細辛桂心	-11.0057
一頭	-11.0057
處所	-11.0059
玉籙	-11.006
无復	-11.0063
大寒	-11.0066
無非	-11.0066
關上脉	-11.007
用此方	-11.0071
粉之	-11.0072
化形	-11.0073
會合	-11.0073
長命	-11.0074
功行滿	-11.0077
隨人	-11.0079
同法	-11.008
精華	-11.0081
風池	-11.0082
不舉	-11.0084
王母	-11.0085
餘藥	-11.0087
風刀	-11.0088
朝天	-11.0089
養成	-11.0092
若在	-11.0093
無罪	-11.0095
六時	-11.0095
方茯苓	-11.0097
於子	-11.0102
煞鬼	-11.0103
四邊	-11.0107
多則	-11.0108
宿食	-11.0112
開闡	-11.0113
莫教	-11.0114
丹臺	-11.0114
今天師	-11.0115
下世	-11.0115
生靈	-11.0117
湯灸法	-11.0119
分形	-11.0122
温中	-11.0122
雖是	-11.0123
百藥	-11.0124
柔和	-11.0126
之官	-11.0126
六神	-11.0126
口吐	-11.0128
復見	-11.0128
經師	-11.0129
无所	-11.0129
訖次	-11.0129
一切諸	-11.0131
周行	-11.0131
須是	-11.0132
衆妙	-11.0132
凡民	-11.0132
八年	-11.0134
肩背	-11.0135
不勞	-11.0135
安之	-11.0138
以戒	-11.0141
始學	-11.0146
自成	-11.0149
五濁	-11.0149
風熱	-11.015
洞元	-11.0151
摩之	-11.0155
忽忽	-11.0156
法也	-11.0158
物情	-11.0158
漏下	-11.0159
煑取三升去滓	-11.0161
敢不	-11.0162
玄微	-11.0162
小便赤	-11.0166
治下篩以	-11.0167
玄教	-11.0172
右八味㕮咀	-11.0172
爲正	-11.0174
浮而	-11.0174
取二升	-11.0177
貪財	-11.0178
目痛	-11.018
衆中	-11.018
十丸日三	-11.0184
其辭	-11.0184
華山	-11.0184
分付	-11.0185
脉大	-11.0186
此等	-11.0188
諸仙	-11.0191
相當	-11.0191
雲母	-11.0191
仙宫	-11.0195
外衆	-11.0198
教門	-11.0202
動止	-11.0202
之學	-11.0205
者天之	-11.0207
傷也	-11.021
腹脹滿	-11.0214
八兩	-11.0214
已有	-11.0215
經中	-11.0217
修習	-11.0217
六真人	-11.0222
治下篩酒服方寸七	-11.0223
大逆	-11.0224
大海	-11.0225
臘月	-11.0231
不干	-11.0234
安心	-11.0237
則賜	-11.0238
前生	-11.024
直至	-11.024
隨方	-11.0245
非不	-11.0255
日三夜二	-11.0256
不傷	-11.026
霞友	-11.0263
初得	-11.0263
手持	-11.0264
天然	-11.0266
等閑	-11.0266
神寳	-11.0266
仙都	-11.027
丹元	-11.0272
五常	-11.0275
處無爲	-11.0278
王相	-11.0279
上出	-11.0281
靜定	-11.0282
不染	-11.0283
初服	-11.0283
多是	-11.0283
太平之	-11.0284
可覩	-11.0287
分爲三服	-11.0288
有甚	-11.0288
日三治	-11.0288
突	-11.0293
日吉	-11.0295
紫光	-11.0296
分三服治	-11.0299
陸地	-11.0299
春又	-11.0299
服人	-11.0303
無令	-11.0309
也何以故	-11.0313
妙訣	-11.0315
天地間	-11.0316
解毒	-11.0316
每服三錢	-11.0318
三箇	-11.0319
列宿	-11.0321
手脚	-11.0322
一種	-11.0326
腸癰	-11.0328
十壯	-11.0331
昊天	-11.0335
赤茯苓	-11.0336
無縁	-11.0338
不欲食	-11.0338
唯唯右	-11.034
甚則	-11.0343
上焦	-11.0345
治者	-11.0346
太子	-11.035
十二日	-11.0351
中部	-11.0352
足厥陰	-11.0354
家緣	-11.0354
故古者聖賢	-11.0356
五枚	-11.0358
可無	-11.036
五華	-11.0361
有一人	-11.0363
内容	-11.0363
但恐	-11.0363
北炁	-11.0364
以何爲	-11.0364
玄光	-11.0365
居處	-11.0365
存念	-11.0371
間使	-11.0371
南北	-11.0372
爲行	-11.0372
令消	-11.0372
之先	-11.0379
足陽明	-11.0379
不易	-11.0379
道眼	-11.0382
向前	-11.039
先食	-11.0391
妄行	-11.0391
皆應	-11.0392
時間	-11.0393
羨	-11.0396
事不	-11.0397
即吐	-11.0399
愼之愼之	-11.0399
罪學上道	-11.0402
依方	-11.0402
九過	-11.0403
子欲	-11.0404
七八	-11.0404
無上道	-11.0405
不淨	-11.041
餓	-11.041
宛宛中	-11.041
雲雨	-11.0411
姜三片	-11.0411
雷霆都司	-11.0412
乍寒乍熱	-11.0414
鉤	-11.0414
不愛	-11.0414
焚香關召	-11.0415
如棗核大	-11.0415
廕	-11.0416
温瘧	-11.0416
淬	-11.0417
遞	-11.0418
麾	-11.0418
鼇	-11.0419
茯苓白术	-11.0419
弱者	-11.0419
軒轅	-11.0419
燃	-11.042
擂	-11.0421
授之	-11.0421
廷	-11.0422
鋭	-11.0422
斟酌	-11.0422
法教	-11.0423
以報	-11.0423
榆白皮	-11.0423
嚙	-11.0424
小便赤黄	-11.0425
求生	-11.0425
擦	-11.0425
人皇	-11.0425
寔	-11.0426
飡	-11.0426
中和之	-11.0426
命屬	-11.0426
芒硝	-11.0427
夏至之日	-11.0427
蟹	-11.0428
猪膽	-11.0428
蝶	-11.0428
熟地黄	-11.0429
不居	-11.0429
熒惑	-11.0429
甦	-11.0429
掃蕩	-11.0429
宏	-11.043
有九	-11.043
方當歸	-11.0431
蓼	-11.0431
清風明月	-11.0431
勳	-11.0431
巳上	-11.0431
綬	-11.0432
啞	-11.0432
苑	-11.0432
憒憒	-11.0433
於後	-11.0433
別	-11.0433
擾擾	-11.0433
姪	-11.0434
哩	-11.0435
姚	-11.0435
紐	-11.0436
鵲	-11.0437
掠	-11.0437
收拾	-11.0437
惻	-11.0438
貴人	-11.0438
手段	-11.0438
貽	-11.0439
惕	-11.0439
隸	-11.044
營衛	-11.044
蹉跎	-11.044
汲	-11.0441
一輪明月	-11.0441
騰騰	-11.0441
嚧	-11.0441
閏	-11.0443
狹	-11.0443
穩駕	-11.0443
瓊瑶	-11.0443
璇璣	-11.0443
庫	-11.0444
口訣云是	-11.0444
秉	-11.0446
之長也	-11.0446
手少陰	-11.0447
五雷使者	-11.0447
岫	-11.0447
珍寶	-11.0447
蒼耳	-11.0447
癰疽發背	-11.0448
乃復	-11.0448
流灾	-11.0448
昇玄經云	-11.0449
下至	-11.0449
生長	-11.0449
供養三寳	-11.0449
即安	-11.0449
外臺作	-11.0449
的端	-11.045
割斷	-11.0451
輕粉	-11.0451
嶮	-11.0452
大善	-11.0453
復六十日	-11.0453
饑寒	-11.0454
纖塵	-11.0454
秪	-11.0454
交泰	-11.0455
賁豚	-11.0456
作此	-11.0456
結於	-11.0457
這迴	-11.0457
悉除	-11.0458
三次	-11.0458
因循	-11.0458
襲	-11.0459
塗炭	-11.0461
子母	-11.0462
頭風	-11.0462
論曰夫	-11.0462
前谷	-11.0463
初生	-11.0463
桂心乾薑	-11.0465
建齋	-11.0466
香鑪	-11.0466
大敦	-11.0468
其罪	-11.0468
孔穴	-11.0468
太極眞人	-11.0469
四溟	-11.0469
昏迷	-11.047
止渴	-11.0471
然谷	-11.0472
方人參	-11.0473
槐子	-11.0473
轉轉	-11.0473
盛衰	-11.0474
各得其所	-11.0474
无不	-11.0475
二將	-11.0476
煎取一升	-11.0476
决要	-11.0477
到蓬萊	-11.0477
决定	-11.0478
接引	-11.0483
振寒	-11.0483
寶經	-11.0487
勤行	-11.0488
恁時	-11.0488
次書	-11.0489
劔訣	-11.0489
變蒸	-11.0489
眞氣	-11.0491
自古	-11.0492
採藥	-11.0492
久長	-11.0494
瓊宫	-11.0494
忽有	-11.0496
支滿	-11.0497
一顆	-11.0498
保舉	-11.05
實核	-11.0503
明燈	-11.0504
有常	-11.0506
開通	-11.0506
部界	-11.0507
猛悟	-11.0508
以是爲	-11.0508
舌本	-11.0509
七十二	-11.051
談笑	-11.051
西嶽	-11.0511
也故天	-11.0511
無一	-11.0512
右三味爲末	-11.0515
釜中	-11.0515
滿口	-11.0516
靜中	-11.0518
逆天	-11.0518
經營	-11.052
黄河	-11.0522
各隨	-11.0523
戒之	-11.0523
何愁	-11.0527
疑惑	-11.0529
太山	-11.0529
何勞	-11.0532
洞章	-11.0537
乃知	-11.0538
右三味治下篩	-11.0549
爲臣	-11.0551
在左	-11.0552
關衝	-11.0552
掌中	-11.0552
無由	-11.0554
不懈	-11.0557
之所以	-11.0558
不足以	-11.0558
呪曰唵	-11.0562
會首	-11.0564
五千	-11.0564
聖衆	-11.0564
自由	-11.0564
或因	-11.0567
服御	-11.0567
仙經	-11.0568
乘風	-11.0569
最爲	-11.0569
上廉	-11.057
一塊	-11.0571
安神	-11.0573
之經	-11.0573
无常	-11.0574
氣也	-11.0574
萬變	-11.0574
九尺	-11.0575
反得	-11.0575
般若	-11.0576
正好	-11.0576
弘道	-11.0578
居山	-11.058
立春	-11.0581
存想	-11.0582
德而	-11.0584
智者	-11.0587
雖不	-11.0587
休教	-11.0587
心主	-11.0589
紫虚	-11.0589
所明	-11.059
心悶	-11.0591
得乘	-11.0594
百行	-11.0594
能行	-11.0597
教法	-11.0597
令赤	-11.06
服五合	-11.0602
安居	-11.0603
靜室	-11.0603
無忌	-11.0605
逍遥坦蕩	-11.0605
天乃	-11.0608
與俗	-11.0608
天蓬呪	-11.061
眞明	-11.0612
膈上	-11.0613
乎夫	-11.0616
半盞	-11.0617
方乾地黄	-11.0618
爲非	-11.0619
不得眠	-11.062
玄上	-11.0623
不亂	-11.0625
不難	-11.0625
輕者	-11.0625
不敢妄	-11.0625
膏成	-11.0626
湯藥	-11.0627
方防風	-11.0627
合擣	-11.0629
雨師	-11.0629
真一	-11.063
前去	-11.063
九孔	-11.0635
日精	-11.0639
遇師	-11.0641
重陽子	-11.0642
下流	-11.0647
深師	-11.0647
隂氣	-11.065
光芒	-11.065
復得	-11.065
穀道	-11.0652
非獨	-11.0655
十兩	-11.0657
明其	-11.0658
養之	-11.0662
所患	-11.0662
生肌	-11.0663
隨風	-11.0663
具如	-11.0666
六子	-11.067
寶光	-11.0673
到頭	-11.068
洗去	-11.0681
七聖	-11.0682
正直	-11.0682
治食	-11.0684
以今	-11.0692
無子	-11.0692
之候	-11.0693
上部	-11.0694
有效	-11.0694
今世	-11.0697
人參茯苓	-11.0697
法王	-11.0698
可畏	-11.07
青面	-11.0702
苦痛	-11.0703
百餘	-11.0708
神鬼	-11.0708
然則	-11.071
惡疾	-11.0712
光景	-11.0712
下古之人	-11.0718
人各	-11.0718
腫上	-11.072
舉之	-11.0721
心明	-11.0721
孝順	-11.0722
氣衰	-11.0727
吾門	-11.0727
三種	-11.0728
獨坐	-11.0729
不愈者	-11.0736
金龍	-11.0737
有敕	-11.0738
若要	-11.0741
不詳	-11.0744
師子	-11.0746
言是	-11.075
黄華	-11.0751
次向	-11.0753
象天地	-11.0755
東南方	-11.0758
飛空	-11.076
無虧	-11.0762
小指	-11.0765
理之	-11.0769
不貪	-11.0771
一句	-11.0773
瓜子	-11.0775
不曾	-11.0779
後服	-11.0779
諸疾	-11.078
呪唵	-11.078
以解	-11.0781
一升半	-11.0782
常當	-11.0788
石室	-11.0791
日光	-11.0791
洞靈	-11.0793
稱爲	-11.0793
象之	-11.0798
正覺	-11.0804
萬氣	-11.0806
十丸	-11.0811
斬邪	-11.0814
言者	-11.0814
以除	-11.0816
令病人	-11.0816
此日	-11.0817
仁人	-11.0819
或作	-11.0819
不教	-11.082
至尊	-11.0821
北酆	-11.0822
四指	-11.0829
不還	-11.083
此事	-11.0832
如梧子大	-11.0832
君父	-11.0834
一通	-11.0834
十戒	-11.0844
合藥	-11.0845
服二合	-11.0848
上升	-11.0849
降下	-11.085
眞聖	-11.0851
爲天下	-11.0852
山下	-11.0852
知之矣	-11.0852
能使	-11.0856
上三天	-11.0856
鼻口	-11.0863
金字	-11.0864
者非也	-11.0866
掖	-11.0866
法則	-11.087
以為	-11.087
直下	-11.0873
雷車	-11.0873
之符	-11.0873
他時	-11.0883
之令	-11.0889
人來	-11.089
勞神	-11.0892
十一者	-11.0893
將興	-11.0893
祐之	-11.0893
朵	-11.0897
飛尸	-11.0898
而作	-11.0899
瘈瘲	-11.0905
清油	-11.0907
我獨	-11.0908
癥瘕	-11.0909
扁鵲云	-11.091
華陽	-11.091
鍋	-11.0911
猥	-11.0912
白頭翁	-11.0913
顱	-11.0913
溶	-11.0914
癭	-11.0919
角弓反張	-11.0919
祈禱	-11.092
涼	-11.092
薔薇根	-11.0921
不嗜食	-11.0921
秦椒	-11.0921
禾	-11.0921
王不留行	-11.0922
酒服方寸匕日三	-11.0922
大戒	-11.0922
掌握	-11.0922
夾縛	-11.0923
所不能	-11.0923
太平經卷之一百	-11.0923
豆汁	-11.0923
八味	-11.0924
寤	-11.0924
勑召	-11.0924
竇	-11.0926
示之	-11.0926
飴糖	-11.0926
謌	-11.0927
冬至之日	-11.0928
乾㯃	-11.0929
必先	-11.0929
斂	-11.093
雞犬	-11.093
菉豆	-11.0931
家門	-11.0931
憂恚	-11.0932
哪	-11.0932
飄蓬	-11.0933
炎凉	-11.0933
䖏	-11.0933
儻	-11.0934
嵩	-11.0934
奔波	-11.0934
咳逆	-11.0934
酸疼	-11.0934
季夏	-11.0934
仗劒	-11.0935
立冬之日	-11.0935
南極上元君	-11.0936
蔓	-11.0936
猴	-11.0936
翊聖	-11.0936
壑	-11.0936
皎潔	-11.0937
憩	-11.0937
深山	-11.0937
峻	-11.0938
芬芳	-11.0938
逋	-11.0938
加之	-11.0938
盡是	-11.0938
跋	-11.0938
躋	-11.0938
抗	-11.0939
憚	-11.0939
穴遠近法第	-11.0939
朋友	-11.0939
怖	-11.0939
乹	-11.094
卒死	-11.094
欄	-11.0941
優劣	-11.0942
贖	-11.0942
去皮尖	-11.0943
黯	-11.0943
簫	-11.0943
協	-11.0943
幢	-11.0944
郡界	-11.0944
琉璃	-11.0944
銀霞	-11.0945
無害	-11.0945
願國安寧	-11.0945
勵	-11.0946
腸澼	-11.0946
遺尿	-11.0946
庇	-11.0946
乾姜	-11.0947
所用	-11.0947
道中	-11.0947
攢聚	-11.0947
一遍	-11.0947
中古以來	-11.0949
天報	-11.0954
圓融	-11.0954
未生	-11.0954
㕮咀以	-11.0955
祖師答曰	-11.0955
名韁	-11.0955
小品	-11.0955
太平氣至	-11.0955
珍寳	-11.0955
超造化	-11.0955
天兵	-11.0956
身入	-11.0957
驟	-11.0958
之㫖	-11.0959
大良	-11.0959
忽爾	-11.096
松峰	-11.096
新鮮	-11.096
昇騰	-11.0961
遭遇	-11.0962
疊書	-11.0962
辛苦	-11.0963
雲篆	-11.0964
歷劫	-11.0966
朝昏	-11.0967
堂堂	-11.097
黄𥿄	-11.097
多唾	-11.0975
關西	-11.0975
耳鳴	-11.0975
萬般	-11.0976
大臣	-11.0977
爲君長	-11.0978
大興	-11.0982
火中	-11.0983
以文	-11.0987
百會	-11.0989
留飲	-11.0992
幾度	-11.0993
以兩手	-11.0993
作一	-11.0997
生肉	-11.0998
落花	-11.0999
孤雲	-11.1003
酒二升	-11.1004
隂陽相	-11.1005
入地	-11.1007
黄泉	-11.1008
昔年	-11.1008
冷淡	-11.101
朝朝	-11.101
擣碎	-11.1011
沸湯	-11.1011
如雞子大	-11.1015
今是	-11.1015
之首	-11.1016
天地中和	-11.1018
始覺	-11.1019
玉眞	-11.1019
地膽	-11.1019
月建	-11.102
以求	-11.1021
青城	-11.1022
生薑汁	-11.1026
仙童	-11.1027
卷之二十	-11.103
青布	-11.1031
紫虛	-11.1033
鍊氣	-11.1035
煞伐	-11.1036
一著	-11.1036
當復	-11.1039
香上	-11.104
上相	-11.104
閉絶	-11.104
定録	-11.1041
宿世	-11.1045
無此	-11.1045
竹葉湯	-11.1046
孫眞人備急千金要方卷之三十	-11.1046
真神	-11.1047
湛湛	-11.1047
來迎	-11.1048
胷膈	-11.105
三丸	-11.1051
符成	-11.1056
使者符	-11.1058
之路	-11.1059
是正	-11.106
千丈	-11.1061
地中	-11.1064
知友	-11.1068
登仙	-11.1068
宫右在	-11.1069
尸蟲	-11.1075
非道	-11.1075
三世	-11.1076
宜用	-11.1076
渴飲	-11.1076
神雷	-11.1076
孫眞人備急千金要方卷之二十	-11.1077
驅使	-11.1077
胷心	-11.1078
食頃	-11.1082
取瘥	-11.1088
靈君	-11.1088
微言	-11.1088
務在	-11.1091
調理	-11.1091
去離	-11.1092
竝	-11.1092
安靜	-11.1094
二景	-11.1096
其處	-11.1097
不遂	-11.1098
皇老	-11.1101
惡肉	-11.1103
子時	-11.1103
煑散	-11.1103
混成	-11.1104
鄉里	-11.1105
有可	-11.1107
十十	-11.1108
上應	-11.1111
刀山	-11.1114
不違	-11.1114
一部	-11.1114
㗶	-11.1115
前來	-11.1116
影響	-11.1119
日以	-11.1119
伏藏	-11.112
開天	-11.112
八分	-11.1121
章門	-11.1123
無根	-11.1124
認正	-11.1127
大青	-11.1127
之報	-11.1128
斷除	-11.1128
年月	-11.1129
上星	-11.1129
閑看	-11.1129
須教	-11.1129
宜以	-11.113
上奏	-11.1134
願得	-11.1135
之期	-11.1137
以授	-11.1137
无色	-11.114
火丹	-11.1143
入内	-11.1145
五百	-11.1145
之庭	-11.1146
以水七升煑取三升	-11.1147
相逐	-11.1151
佳又方	-11.1153
風害	-11.1156
紫氣	-11.1156
主將	-11.1157
書名	-11.1159
凶年	-11.116
閑居	-11.116
有風	-11.116
地有	-11.1166
本性	-11.1168
存金光	-11.1169
北辰	-11.117
方寸七日三	-11.1176
得知	-11.1179
王君	-11.1184
王侯	-11.1185
也問曰	-11.1187
覺了	-11.1189
大功	-11.1195
贈張	-11.1199
九百	-11.1199
二十一	-11.12
都畢	-11.1202
明知	-11.1206
名書	-11.1207
紫陽	-11.1209
一徧	-11.1211
故天地	-11.1212
終無	-11.1213
右五味治下篩	-11.1217
内音	-11.1221
冬至	-11.1225
毎日	-11.1226
仙方	-11.1231
理中	-11.1233
十卷	-11.1236
者本	-11.1237
炒令	-11.1238
三四日	-11.1239
真人曰	-11.124
靈仙	-11.1252
大藥	-11.1253
而治	-11.1256
兆民	-11.1256
復更	-11.1268
求教	-11.1269
黄耆湯	-11.1273
至妙	-11.1274
一小	-11.1274
精血	-11.1276
妙處	-11.1284
變動	-11.1284
此證	-11.1285
放出	-11.1286
口舌	-11.1291
祕法	-11.1292
六十四	-11.1296
之難	-11.1296
酒漬	-11.1297
病源	-11.1301
孫眞人備急千金要方卷之十	-11.1301
天寳	-11.1302
見形	-11.1302
依時	-11.1302
得神仙	-11.1307
寒中	-11.1308
明君	-11.131
惡業	-11.1311
永無	-11.1315
能得	-11.1319
之謂也	-11.1319
故多	-11.1319
和之	-11.132
其證	-11.1321
無塵	-11.1321
隨處	-11.1323
元精	-11.1325
輕舉	-11.1325
立便	-11.1325
今天上	-11.1325
日興	-11.1331
五音	-11.1333
專一	-11.1333
冷則	-11.1335
大悟	-11.1337
勑攝	-11.1339
中指	-11.1339
斗訣	-11.1339
曳	-11.1341
自死	-11.1342
玉芝	-11.1342
齋直	-11.1343
來到	-11.1343
得一	-11.1345
心同	-11.1348
名號	-11.1348
深計	-11.1357
圓方	-11.1359
順行	-11.1363
慶雲	-11.1365
陽生	-11.1366
寒則	-11.1368
蟲出	-11.1373
福報	-11.1375
衆經	-11.1375
所當	-11.1378
陽關	-11.1378
難遇	-11.1379
正當	-11.1381
而用之	-11.1382
復何	-11.1387
行用	-11.1387
立瘥	-11.1387
日服	-11.1388
金臺	-11.1388
平氣	-11.139
來者	-11.1391
者蓋	-11.1391
力學	-11.1398
乃有	-11.1405
不好	-11.1406
分外	-11.1407
者以其	-11.141
但願	-11.1412
亦无	-11.1417
其志	-11.1417
南山	-11.1418
戟	-11.1419
治上應	-11.142
尺澤	-11.142
神字	-11.142
濟物	-11.1421
無功	-11.1422
右五味爲末	-11.1423
文相似各從其俗記吾	-11.1424
屈伸	-11.1425
甆	-11.1426
各異自有自然元氣隂陽與吾	-11.1427
膝上	-11.143
流傳	-11.143
噤	-11.1431
瞖	-11.1432
學以	-11.1432
右手劒訣	-11.1434
諸瘡	-11.1435
支溝	-11.1435
便可	-11.1436
仙聖	-11.1436
太谿	-11.1437
㣲	-11.1437
胻	-11.1438
六道	-11.1439
山色	-11.1439
難可	-11.1439
撲	-11.144
之號	-11.1442
牡蒙	-11.1443
攘	-11.1443
不落	-11.1443
癩	-11.1443
顖	-11.1443
重陽全真集卷之	-11.1444
隂中	-11.1444
禁不可灸	-11.1445
瞑	-11.1445
多生	-11.1445
孫眞人備急千金要方卷之五十	-11.1446
以綿裹	-11.1447
山魈	-11.1447
陰陵泉	-11.1448
踪	-11.1448
釘	-11.1448
梧	-11.1448
白殭蠶	-11.1449
螫	-11.1449
猶未	-11.145
跟	-11.145
黄老	-11.145
惡事	-11.1451
蠅	-11.1451
塡	-11.1452
或生	-11.1452
戈	-11.1453
肓	-11.1453
麝	-11.1453
莽	-11.1454
募	-11.1454
怡	-11.1454
蝦蟆	-11.1455
馘滅	-11.1455
諧	-11.1455
孫眞人備急千金要方卷之七十	-11.1456
去心	-11.1456
太平經卷之四十	-11.1457
堪可	-11.1457
三天正法	-11.1458
飛行羽經	-11.1458
賞翫	-11.1458
萬端	-11.1458
郡縣	-11.1458
儲	-11.1458
狡	-11.1459
膳	-11.1459
憫	-11.1459
腰背痛	-11.1459
叩齒十二通	-11.1459
孫眞人備急千金要方卷之八十	-11.146
恢	-11.146
琢	-11.146
諮	-11.146
溜	-11.146
無過	-11.1461
歴	-11.1461
隴西	-11.1461
舌拄上腭	-11.1461
閃爍	-11.1462
六甲六丁	-11.1462
滚	-11.1462
上用	-11.1463
鶯	-11.1463
葆光	-11.1463
隄防	-11.1464
原赦	-11.1464
帙	-11.1464
縹緲	-11.1464
䘮	-11.1464
得其人	-11.1465
鬱鬱	-11.1465
熱熱則	-11.1465
饌	-11.1465
毒腫	-11.1465
亘古	-11.1465
麥糵	-11.1466
辰戌	-11.1467
坡	-11.1467
千金翼云	-11.1468
菩提	-11.1468
地戸	-11.1468
肉蓯蓉	-11.147
遽	-11.147
輕洩	-11.147
庶幾	-11.147
傚	-11.1471
玎璫	-11.1471
昏昏默默	-11.1471
宛轉	-11.1471
四十八	-11.1471
掃除	-11.1472
臭穢	-11.1472
流鈴	-11.1473
踰	-11.1473
玄圃	-11.1473
宥	-11.1474
德者	-11.1475
木金	-11.1475
超越	-11.1475
歷節	-11.1476
諸風	-11.1477
地祇	-11.1477
恣逍遥	-11.1477
瓊樓	-11.1477
光中	-11.1478
凡軀	-11.1478
丘劉譚馬	-11.1479
瑟	-11.148
艱難	-11.148
其母	-11.148
還自	-11.148
放蕩	-11.1481
粲	-11.1483
不改	-11.1484
民之	-11.1484
級	-11.1485
恁時節	-11.1485
羣魔	-11.1486
有疾病	-11.1488
蓮華	-11.1488
泄利	-11.1488
不發	-11.1488
師寳	-11.1488
皇后	-11.1489
青鸞	-11.1489
其方	-11.149
熱藥	-11.149
上相青童君	-11.1491
太霄	-11.1492
之爲病	-11.1492
以苦酒	-11.1492
三十六部	-11.1493
波羅	-11.1494
一方加	-11.1495
虛空	-11.1495
瓊臺	-11.1495
太原	-11.1495
空山	-11.1496
驅除	-11.1497
歸心	-11.1499
補肝	-11.15
强弱	-11.15
離坎	-11.1501
治金瘡	-11.1501
保護	-11.1502
針灸法	-11.1503
是癇候	-11.1503
普照	-11.1504
長於	-11.1505
豁然	-11.1505
肺癰	-11.1505
正觀	-11.1506
玉漿	-11.1506
談論	-11.1507
延壽	-11.151
頭疼	-11.1512
水中金	-11.1514
味辛	-11.1519
物我	-11.152
燕山	-11.1522
有瘡	-11.1523
熱即	-11.1523
太平經云	-11.1523
相違	-11.1525
卷之七	-11.1526
此處	-11.1526
告下	-11.1527
龍漢	-11.1528
獨步	-11.1531
月日	-11.1531
欲界	-11.1531
兵馬	-11.1532
神舟	-11.1532
清吟	-11.1532
閉炁	-11.1533
常居	-11.1536
菴主	-11.1537
嚥下	-11.1539
後復	-11.1539
解釋	-11.154
蓬萊路	-11.154
幾箇	-11.154
其生	-11.154
六賊	-11.1541
紫蓋	-11.1541
大羅天上	-11.1545
常須	-11.1545
夫妻	-11.1549
玄科	-11.155
方黄耆	-11.1551
得福	-11.1552
悉得	-11.1553
使帝王	-11.1553
脾輸	-11.1555
横文	-11.1555
召雷神	-11.1557
逆順	-11.1558
小腹滿	-11.1559
百病方	-11.1561
見者	-11.1561
治祟	-11.1566
反復	-11.1567
駕乘	-11.157
調下	-11.1571
圓滿	-11.1572
休言	-11.1573
天靈	-11.1574
大麻子	-11.1576
者或	-11.1576
不使	-11.1576
九祖	-11.1577
唯唯行去	-11.1577
統領	-11.1579
立秋	-11.158
靜坐	-11.1583
狂言	-11.1583
雲煙	-11.1587
敕命	-11.1588
家人	-11.1588
梵行	-11.1591
隨手	-11.1593
太平氣	-11.1594
群神	-11.1596
遊戲	-11.1598
胷背	-11.1602
煙火	-11.1602
明聽	-11.1604
地意	-11.1605
目光	-11.1605
子亦	-11.1606
本元	-11.1608
上達	-11.161
不管	-11.161
一場	-11.161
醋和	-11.1613
碧空	-11.1614
非難	-11.1614
王曰	-11.1617
保守	-11.1618
存見	-11.1619
方丈	-11.1621
五雲	-11.1621
即用	-11.1623
大家	-11.1626
四轉	-11.1627
但是	-11.1627
兩乳	-11.163
本身	-11.1633
即成	-11.1635
云何哉	-11.1635
早起	-11.1636
無物	-11.1638
泔	-11.1639
平坐	-11.1641
頭重	-11.1644
損傷	-11.1644
吐之	-11.1647
七曰	-11.1648
人前	-11.1648
額上	-11.1654
細研	-11.1655
大乗	-11.1655
澄湛	-11.1656
猪蹄	-11.1657
不待	-11.1658
血者	-11.1658
五篇	-11.1659
道號	-11.1662
皆用	-11.1663
下令	-11.1664
方右以	-11.1666
府右	-11.1668
總攝	-11.1668
問其	-11.1669
豈得	-11.1671
急用	-11.1674
日一服	-11.1675
道爲	-11.1676
不喜	-11.1678
痛癢	-11.1679
身生	-11.168
外内	-11.1682
悉出	-11.1687
雲輿	-11.1688
甘草芍藥	-11.1688
雷光	-11.1692
方杏仁	-11.1694
紫芝	-11.1694
眞容	-11.1695
矣又	-11.1701
不可忍	-11.1702
變通	-11.1702
幽居	-11.1702
黄丹	-11.1704
烊	-11.1709
日平旦	-11.171
各得	-11.1713
靈飛	-11.1713
大衆	-11.1713
其血	-11.1714
片時	-11.1715
應爲	-11.1716
糊丸	-11.1716
帝命	-11.1716
痛或	-11.1716
取八合	-11.1718
承當	-11.1719
玄眞	-11.1721
營養	-11.1722
六塵	-11.1724
侍經	-11.1724
交加	-11.1724
善應	-11.1733
來降	-11.1734
居家	-11.1737
内視	-11.174
善而	-11.1742
慕道	-11.1742
慎之	-11.1742
童顔	-11.1742
全在	-11.1744
蜜和丸	-11.1746
案行	-11.1747
人參桂心	-11.1749
下則	-11.1749
何用	-11.175
十二人	-11.1752
潤澤	-11.1753
大驗	-11.1755
可憐	-11.1757
净洗	-11.1758
無何	-11.1761
一口	-11.1762
以救	-11.1762
第十三	-11.1763
各得其	-11.1764
無所見	-11.1765
書之	-11.1767
大佳	-11.1767
甘草當歸	-11.1768
出没	-11.1769
别卷	-11.1772
可至	-11.1774
自身	-11.1779
㕮咀以水	-11.178
前有	-11.1781
莊嚴	-11.1781
清神	-11.1781
使民	-11.1782
交會	-11.1783
人參當歸	-11.1784
乎然	-11.1785
皇帝	-11.1786
丸子	-11.179
多有	-11.179
以水四升	-11.179
清旦	-11.1791
青牛	-11.1791
鎚	-11.1792
一夜	-11.1793
紫石	-11.1794
直入	-11.1795
火龍	-11.1809
馬猿	-11.1813
七次	-11.1816
妙門	-11.1817
月下	-11.1819
不休	-11.1819
過責	-11.1819
並無	-11.1819
篇中	-11.1821
未必	-11.1823
腎中	-11.1825
彩雲	-11.1825
臘月猪脂	-11.1827
恐有	-11.1828
所處	-11.1829
白鹿	-11.1831
不學	-11.1833
安身	-11.1835
癘	-11.1837
得瘥	-11.1844
頓明	-11.1846
或見	-11.1847
同行	-11.1848
一隻	-11.1849
巽炁	-11.1852
用意	-11.1853
遣呪	-11.1856
天中之	-11.1857
齋法	-11.1858
衆仙	-11.1859
滑者	-11.1866
上啓	-11.1866
天之所	-11.1866
其要意	-11.1868
或時	-11.187
合爲	-11.1874
養家	-11.1875
仙路	-11.1875
治身	-11.1876
也又有	-11.1878
爲上	-11.1882
神煞	-11.1883
今已	-11.1883
東方青	-11.1883
咎在	-11.1887
苦苦	-11.1887
馥郁	-11.1887
天年	-11.1888
下土	-11.1888
七丸	-11.1889
守本	-11.1893
照見	-11.1894
我有	-11.1894
中天	-11.1896
順天	-11.1899
爲始	-11.1905
增之	-11.1907
虚名	-11.1912
七尺	-11.1913
無休	-11.1916
洞室	-11.1919
所致也	-11.1919
召之	-11.192
四枚	-11.1923
有疾	-11.1925
西東	-11.1932
大洞真經	-11.1934
之冠	-11.1934
先死	-11.1935
右五味㕮咀	-11.1938
赤氣	-11.1938
西方白	-11.1939
百千	-11.1939
陽數	-11.1943
心印	-11.1944
故鄉	-11.1947
中惡	-11.1948
善行	-11.1949
全家	-11.1952
蒺藜	-11.1952
皆空	-11.1954
長生路	-11.1954
見此	-11.1954
命清	-11.1955
者此是	-11.1957
濕痺	-11.196
前世	-11.196
右九味㕮咀以水一斗	-11.1962
反逆	-11.1963
蠻	-11.1964
温酒調下	-11.1964
又加	-11.1967
皆成	-11.1969
緩急	-11.197
關節	-11.1973
以青	-11.1973
俠谿	-11.1975
求之	-11.1975
海蛤	-11.1976
口鼻	-11.1979
唯唯行	-11.198
瘈	-11.1982
玉房	-11.1982
月照	-11.1983
欬逆上氣	-11.1983
即便	-11.1983
豬	-11.1984
㿗	-11.1985
即須	-11.1985
要當	-11.1987
溲	-11.1987
家中	-11.1988
駃	-11.1989
蕪菁子	-11.1989
下鬼	-11.1989
軸	-11.1991
女萎	-11.1991
苦瓠	-11.1991
硏	-11.1993
摻	-11.1994
黄苓	-11.1995
黄芩甘草	-11.1996
法海遺珠卷之十	-11.1996
王風	-11.1997
葦	-11.1997
甘草人參	-11.1997
自此	-11.1997
熏陸香	-11.1998
缾	-11.1998
却以	-11.1998
京骨	-11.1998
承漿	-11.2001
縵	-11.2001
𩔖	-11.2002
右十七味	-11.2003
輕賤	-11.2003
爲家	-11.2004
槁	-11.2005
衆官	-11.2005
䕶	-11.2006
沽	-11.2006
赫赫	-11.2007
大黄湯	-11.2007
黒霧	-11.2007
薄苛	-11.2007
袋盛	-11.2008
撇	-11.2008
尾閭	-11.2008
昭彰	-11.2009
慄	-11.2009
流金火鈴	-11.2009
鴉	-11.201
心腹痛	-11.201
切痛	-11.2011
右八味治下篩	-11.2011
卉	-11.2011
羲	-11.2012
嘲	-11.2013
檻	-11.2013
贍	-11.2013
靴	-11.2013
㧞度	-11.2013
顏	-11.2013
道自	-11.2013
抽添	-11.2013
斫	-11.2014
便令	-11.2015
疆	-11.2015
酒色氣財	-11.2015
不驕樂天	-11.2015
春分之日	-11.2016
内景	-11.2016
葵根	-11.2016
幕	-11.2017
複	-11.2017
氣財酒色	-11.2017
馥	-11.2017
纂	-11.2017
地理	-11.2017
嗜慾	-11.2018
仙傳外科祕方卷之	-11.2018
有心之人	-11.2018
孫眞人備急千金要方卷之六十	-11.2018
旅	-11.2018
徊	-11.2019
稜	-11.2019
浮漚	-11.2019
食之令人	-11.2019
四極明科	-11.2019
噏	-11.202
縱橫	-11.202
衷	-11.202
憨	-11.202
王喆	-11.2021
豈知	-11.2021
壼	-11.2021
寶瓶	-11.2022
陶陶	-11.2022
塚	-11.2022
亞	-11.2022
祭祀	-11.2023
我咱	-11.2023
太平經卷之一百一十	-11.2023
鏤	-11.2023
主生	-11.2025
纏綿	-11.2025
恭敬	-11.2025
陰痿	-11.2026
繁華	-11.2026
誌	-11.2027
揀	-11.2027
漚	-11.2027
肺痿	-11.2027
恕	-11.2028
攀縁	-11.2028
即非	-11.2028
騾	-11.2028
道教義樞	-11.2028
荆棘	-11.2029
徴	-11.2029
闃	-11.2029
一任	-11.2029
芋	-11.2029
汲汲	-11.2029
侮	-11.203
爲眞人	-11.203
四日	-11.203
五斤	-11.203
諳	-11.2031
做修持	-11.2031
憲	-11.2031
閒	-11.2031
佑聖	-11.2033
大便難	-11.2033
恣情	-11.2033
然此	-11.2033
也子知之邪唯唯	-11.2033
肇	-11.2034
巽户	-11.2034
闌	-11.2036
祥煙	-11.2036
天醫	-11.2039
諍	-11.204
感通	-11.2042
精微	-11.2042
至孝	-11.2043
之母	-11.2044
俯視	-11.2045
曾青	-11.2045
聽予	-11.2046
八寸	-11.205
青蓮	-11.205
愛人	-11.205
淨土	-11.2052
困窮	-11.2055
千載	-11.2059
上令	-11.2059
面色	-11.206
而巳	-11.206
乎者也	-11.2062
公孫	-11.2063
上搶心	-11.2066
心氣	-11.2066
地爲	-11.2068
一方寸七	-11.2069
朝元去	-11.2069
傳得	-11.2069
去朝元	-11.2072
一朵	-11.2073
丁寧	-11.2073
亡魂	-11.2075
讀書	-11.2076
百脉	-11.2078
當奈何	-11.2079
天地之性	-11.2079
眞如	-11.2079
來問	-11.2079
大魔	-11.208
經典	-11.2081
昭昭	-11.2081
不省	-11.2083
開心	-11.2086
飛霞	-11.2088
雌一	-11.2089
無聲	-11.2093
宿縁	-11.2096
筋攣	-11.2097
無爲清浄	-11.21
應感	-11.21
萬類	-11.2101
全無	-11.2101
龜山	-11.2101
罪業	-11.2102
何等也	-11.2102
水服方寸七日三	-11.2103
千杵	-11.2103
門中	-11.2105
煎湯下	-11.2107
學問	-11.2107
色如	-11.2113
烹鍊	-11.2114
和塗之	-11.2114
寅文	-11.2116
汁和	-11.2117
是以聖人	-11.2119
常道	-11.2119
致雨	-11.2123
碧霞	-11.2124
靈泉	-11.2124
中經曰	-11.2125
通玄妙	-11.2126
數年	-11.2128
得意	-11.213
玄母	-11.2131
高士	-11.2133
以詩	-11.2133
事理	-11.2133
玉簡	-11.2133
相續	-11.2134
法海遺珠卷之三十	-11.2135
呵出	-11.2137
能食	-11.2138
不讓	-11.2139
間有	-11.214
民人	-11.214
能致	-11.2142
於前	-11.2143
昇霞	-11.2143
其源	-11.2144
驚動	-11.2144
玉陽	-11.2145
治其	-11.2146
愼之唯唯	-11.215
洞裏	-11.215
訣第一百	-11.2153
九晨	-11.2156
宜乎	-11.2157
并力	-11.2157
迎風	-11.2158
白蓮	-11.2158
此山	-11.2159
右七味㕮咀以水一斗	-11.216
萬聖	-11.2161
鐵精	-11.2162
卒中惡	-11.2162
茯苓人參	-11.2165
貼之	-11.2165
无上祕要卷之四十	-11.2165
朗然	-11.2165
方蜀椒	-11.2165
輕忽	-11.2166
精研	-11.2166
萬福	-11.2167
尿血	-11.217
與子	-11.217
飛火	-11.2171
右二味合	-11.2176
凡修	-11.2178
能如是	-11.2179
煮取	-11.218
松栢	-11.2182
法海遺珠卷之二十	-11.2182
何求	-11.2183
猶是	-11.2183
在地	-11.2184
救濟	-11.2184
至如	-11.2188
形長	-11.2188
神自	-11.2189
變易	-11.2192
一轉	-11.2197
大水	-11.22
世網	-11.22
人之言	-11.2202
無遺	-11.2202
已知之矣	-11.2202
事皆	-11.2206
方甘草	-11.2208
以前	-11.2209
爲伴	-11.221
生故	-11.2211
骨中	-11.2212
雞子大	-11.2214
心是	-11.2215
馬公	-11.2218
閑吟	-11.2219
合眞	-11.222
中道	-11.222
時運	-11.2226
東風	-11.2228
被其	-11.2228
不汗	-11.2228
無益於	-11.2231
訪道	-11.2232
兩劑	-11.2234
神官	-11.2235
正眞	-11.2236
戒律	-11.2239
還生	-11.2241
萬不失一也	-11.2243
無缺	-11.2247
飽食	-11.2252
休心	-11.2253
光映	-11.2253
脉微	-11.2254
哉然	-11.2254
病愈	-11.226
通谷	-11.2261
不變	-11.2264
精魂	-11.2266
汁中	-11.2269
化之	-11.2273
三劑	-11.2274
髙上	-11.2275
易治	-11.2275
預知	-11.2277
骨痛	-11.2282
裏頭	-11.2283
今得	-11.2283
殊方	-11.2284
愛欲	-11.2286
自然通	-11.2286
養萬物	-11.2287
向日	-11.2287
復還	-11.2287
罪根	-11.2287
治久	-11.2293
歸一	-11.2294
不可言	-11.2295
棗核	-11.2296
之行也	-11.2296
不專	-11.2297
卷之十	-11.2298
吉凶之	-11.23
大腹	-11.23
長吉	-11.2302
漏泄	-11.2305
下界	-11.2307
高會	-11.2307
之鬼	-11.2307
而渴	-11.2309
九龍	-11.2311
餘者	-11.2317
非法	-11.2317
臨事	-11.2318
今先	-11.2319
使吾	-11.232
常生	-11.2323
黄龍	-11.2324
三上香	-11.2325
曰平	-11.2325
修學	-11.2326
官人	-11.2327
五體	-11.2329
孫眞人備急千金要方卷之	-11.2331
大羅仙	-11.2332
誓不	-11.2334
君頭建	-11.2334
指日	-11.234
蘇子	-11.2344
通妙	-11.2347
說經	-11.2347
煑汁	-11.2348
之祖	-11.2348
茅山	-11.2349
善則	-11.2352
眞官	-11.2354
愈又方	-11.2356
皆悉	-11.2359
安可	-11.236
大忌	-11.2361
四見	-11.2362
當日	-11.2363
不敢失	-11.2367
善能	-11.2367
煞攝	-11.237
島	-11.2371
生生	-11.2374
玄帝	-11.2375
服三丸	-11.2378
妙妙	-11.2378
事之	-11.2383
无數	-11.2384
奪得	-11.2384
文以	-11.2384
其毒	-11.2385
地道	-11.2386
行方便	-11.239
脉沈	-11.239
血風	-11.2398
七情	-11.2399
於天下	-11.24
君也	-11.2401
三晨	-11.2401
便止	-11.2402
煑令	-11.2404
始知	-11.2405
分三服日三	-11.2406
婦人産後	-11.2408
皆先	-11.2409
也既	-11.241
米醋	-11.2414
青童君	-11.2414
奉受	-11.2415
不迷	-11.2416
天亦	-11.2416
行來	-11.2421
散華	-11.2422
得清凉	-11.2423
玉闕	-11.2423
混世	-11.2424
將欲	-11.2426
相邀	-11.2435
三歲	-11.2436
寄生	-11.2438
必當	-11.2444
甚良	-11.2444
開懷	-11.2448
塵沙	-11.2451
自愛	-11.2451
衂	-11.2452
隨我	-11.2458
變形	-11.2458
常令	-11.246
不惜	-11.2468
出其	-11.247
受鍊	-11.2472
毒物	-11.2473
芎藭當歸	-11.2474
外道	-11.2474
和同	-11.2476
上大羅	-11.2476
心存	-11.2477
食肉	-11.2479
終身不	-11.2484
進道	-11.2487
經宿	-11.2488
所共	-11.2489
今故	-11.249
開眼	-11.2491
所聞	-11.2493
雷令	-11.2494
仙品	-11.2495
亦隨	-11.2495
飲下	-11.2497
諸苦	-11.2498
面青	-11.2499
以水五升	-11.2503
第十五	-11.2504
心常	-11.2504
受教	-11.2509
火獄	-11.251
符呪	-11.2511
咽下	-11.2512
下賤	-11.2513
五尺	-11.2514
頭髮	-11.2515
則與	-11.2517
娑	-11.2519
令焦	-11.252
長夜之	-11.2521
千日	-11.2521
調氣	-11.2521
立春之日	-11.2522
長大	-11.2524
氣不和	-11.2527
上來	-11.2528
身受	-11.2529
不異	-11.2529
一陽	-11.2532
分理	-11.2534
也明	-11.2535
之形	-11.2535
吹入	-11.2536
光瑩	-11.2538
此外	-11.2539
山山	-11.254
至老	-11.2542
一國	-11.2542
失度	-11.2542
贈之	-11.2542
天樂	-11.2546
小腹痛	-11.2548
其類	-11.2551
爲鬼	-11.2553
也夫人	-11.2554
思過	-11.2555
即死	-11.2557
厲兌	-11.2557
失氣	-11.2559
攣急	-11.2564
子言	-11.2567
吽吒	-11.2568
自可	-11.2568
頸項	-11.2568
不交	-11.2572
加至三十丸	-11.2572
關上	-11.2572
大作	-11.2572
服色	-11.2573
賁	-11.2573
此一	-11.2574
水雷	-11.2576
眞心	-11.2577
所住	-11.2578
長服	-11.2579
囂	-11.258
金雞叫	-11.2581
玄胡索	-11.2581
商陸	-11.2581
貝	-11.2582
茯苓湯	-11.2582
斟	-11.2582
修誦是經	-11.2584
欬唾	-11.2585
因其	-11.2586
圃	-11.2587
赤黑	-11.2588
馘魔	-11.2588
霖	-11.2588
有聲	-11.2589
醇酒	-11.2589
藜	-11.259
不爭	-11.259
臉	-11.259
涓	-11.2591
五倍子	-11.2592
湯洗	-11.2593
附子一枚	-11.2594
拄	-11.2594
因得	-11.2594
蛇蛻皮	-11.2594
猖狂	-11.2594
迭	-11.2594
孩	-11.2595
挈	-11.2595
䚴	-11.2595
風雲雷雨電	-11.2595
扁	-11.2596
和傅之	-11.2596
腨	-11.2596
丸治	-11.2596
趕	-11.2597
蟾酥	-11.2597
閣校理	-11.2597
粮	-11.2597
藕	-11.2597
綽	-11.2597
桃皮	-11.2597
葩	-11.2597
狗脊	-11.2598
虛无	-11.2598
腹中絞痛	-11.2598
閑裏	-11.2598
豁暢	-11.2598
虛實第	-11.2599
伏兔	-11.2599
陌	-11.2599
寰	-11.2599
彩霞	-11.26
疣	-11.26
歧	-11.26
九千	-11.2601
碾	-11.2601
趓	-11.2602
郝	-11.2602
皺	-11.2602
匡	-11.2603
稚	-11.2603
木蘭	-11.2603
款款	-11.2604
笛	-11.2604
茫茫	-11.2604
跛	-11.2604
逾	-11.2604
至心稽首正真三寳	-11.2604
哲	-11.2604
殷郊	-11.2605
年月日時	-11.2605
三萬六千	-11.2605
八素真經	-11.2605
巽戸	-11.2605
寥寥	-11.2606
還元	-11.2606
訛	-11.2606
霐	-11.2606
韭子	-11.2606
喗	-11.2608
輥	-11.2608
愉	-11.2608
裊	-11.2608
几前	-11.2608
王三	-11.2608
磻溪	-11.2608
赴瑶池	-11.2608
鍛	-11.2608
扣	-11.2609
氈	-11.2609
玉屑	-11.2609
頽	-11.2609
本來一點	-11.2609
祚	-11.2609
販骨	-11.2609
駡詈	-11.2609
木瓜	-11.2609
塔	-11.2609
賽	-11.2609
毗	-11.261
匱	-11.261
謡	-11.261
恬淡	-11.2611
破軍	-11.2611
咭唎	-11.2611
氛	-11.2612
櫛	-11.2612
太𡻕	-11.2612
洗面	-11.2612
倏忽	-11.2613
紹	-11.2613
鳳凰	-11.2613
姹女	-11.2613
皇天后土	-11.2613
憤	-11.2613
隊	-11.2614
萊陽	-11.2614
十徧	-11.2614
杳杳	-11.2615
消穀	-11.2615
蚤	-11.2615
刳	-11.2615
鏁	-11.2615
閉不通	-11.2616
忝	-11.2617
驂	-11.2617
杳杳冥冥	-11.2617
抱一	-11.2617
更相承負	-11.2617
團圓	-11.2618
妖魔	-11.2621
如雲	-11.2621
河海	-11.2621
牙齒	-11.2621
餘疾	-11.2621
䇿役	-11.2621
蹤跡	-11.2621
昨日	-11.2622
榻	-11.2622
慧劍	-11.2623
一點靈明	-11.2623
玉樞	-11.2625
得知之	-11.2625
肝膽	-11.2626
身經曰	-11.2628
姦猾	-11.263
也雖	-11.263
恐懼	-11.2631
令相得	-11.2631
兩手雷局	-11.2631
貪嗔	-11.2633
金剛大果	-11.2633
何方	-11.2634
冲和	-11.2634
講說	-11.2634
雞鳴	-11.2634
身者從	-11.2637
翼作	-11.2637
蕩蕩	-11.2638
甲午	-11.2639
蓬頭	-11.2639
九層	-11.264
香油	-11.264
筋力	-11.264
伐惡	-11.2641
得天心意	-11.2643
心懷	-11.2643
影裏	-11.2644
五里	-11.2646
洞淵	-11.2647
理也	-11.2647
洞泄	-11.2648
自愈	-11.2648
人不知	-11.265
大帝律令	-11.265
天池	-11.265
勸君	-11.265
百川	-11.2652
求乞	-11.2652
凶害	-11.2655
水旱	-11.2656
從兹	-11.2658
凡書符	-11.2658
窮魂	-11.266
法律	-11.266
靈苗	-11.2662
玉書	-11.2663
眞人前	-11.2664
牛肉	-11.2664
觀身	-11.2665
禁戒	-11.2666
消魔	-11.2667
海底	-11.2667
葶藶子	-11.2669
迴首	-11.267
多病	-11.2672
去粗	-11.2672
酉文	-11.2672
告斗	-11.2673
一派	-11.2673
有限	-11.2673
玄清	-11.2673
雲車	-11.268
當初	-11.2681
反言	-11.2681
湧出	-11.2683
共記	-11.2684
復生	-11.2685
七十二相	-11.2687
心下堅	-11.2692
千歲	-11.2692
好酒	-11.2693
清泉	-11.2693
靜處	-11.2694
設教	-11.2695
交結	-11.2698
語聲	-11.2698
常使	-11.2699
之說	-11.27
之吏	-11.2701
湯調下	-11.2703
右四味㕮咀以	-11.2705
崩中	-11.2705
合谷	-11.2705
乞食	-11.2705
若悟	-11.2709
深謝	-11.271
亦爲	-11.271
四十年	-11.2713
矣凡	-11.2714
寧解	-11.2717
時刻	-11.2718
爲事	-11.2718
衣被	-11.2719
上一寸	-11.272
救治	-11.2722
遂致	-11.2722
以至	-11.2722
文者	-11.2724
改易	-11.2725
離苦海	-11.2726
鹽湯	-11.2727
得天意	-11.2727
南炁	-11.2728
受事	-11.2728
盆中	-11.2729
仙位	-11.273
投於	-11.2731
徹視	-11.2731
無染	-11.2732
心清	-11.2733
清真	-11.2734
人倫	-11.2734
凝結	-11.2738
幽深	-11.2738
清濁	-11.2739
朱宫	-11.274
水道	-11.274
有誰	-11.274
乃出	-11.2744
右在	-11.2745
章句	-11.2746
何能	-11.2749
只今	-11.275
未滿	-11.2751
玄通	-11.2753
散治妊娠	-11.2753
心臟	-11.2753
縣令	-11.2754
若干	-11.2757
取出	-11.2757
今年	-11.2757
一㸃	-11.2758
先亡	-11.2761
相接	-11.2763
七部	-11.2764
合天心	-11.2765
欲吐	-11.2766
贈劉	-11.2767
問修行	-11.2769
爽氣	-11.2769
熱痛	-11.277
盛德	-11.2773
勞生	-11.2774
新生	-11.2774
長樂	-11.2775
取一斗	-11.2775
免離	-11.2777
痢方	-11.2778
臨頭	-11.2778
種民	-11.278
玄圖	-11.2781
休息	-11.2781
盡更	-11.2782
養神	-11.2786
單用	-11.2787
四句	-11.2787
南方赤	-11.2788
右手執	-11.279
藥品	-11.2791
或以	-11.2792
定光	-11.2795
靈珠	-11.2796
玄名	-11.28
口苦	-11.2801
都是	-11.2801
人還	-11.2802
是吾	-11.2803
而欲	-11.2806
千千	-11.2806
中管	-11.2807
易知	-11.2811
藥末	-11.2813
入胃	-11.2814
可丸	-11.2815
玉音	-11.2816
竒方	-11.2816
帝時	-11.2817
石門	-11.2817
紫炁	-11.2818
裏急	-11.2818
也其次	-11.282
神府	-11.2824
容光	-11.2825
以水一升	-11.2826
假合	-11.2829
亦齋	-11.283
風風	-11.2831
内傷	-11.2831
九皇	-11.2836
生麥門冬	-11.2837
物外逍遥	-11.2838
具問	-11.2838
應手	-11.2838
長而	-11.284
何異	-11.284
家有	-11.284
又如	-11.2843
受福	-11.2844
冬瓜	-11.2844
亦云	-11.2845
未嘗有	-11.2847
來日	-11.2847
二卷	-11.2848
同歸	-11.2849
無别	-11.2849
一方有	-11.285
不飢	-11.285
玉符	-11.2854
月朔	-11.2854
故聖人	-11.2856
六種	-11.2856
南方火	-11.2856
八道	-11.2856
行功成	-11.2857
分部	-11.2859
白牛	-11.2859
不得復	-11.2862
所及	-11.2864
空色	-11.2865
出水	-11.2866
五德	-11.2866
生世	-11.2868
治之方	-11.2869
悟理	-11.2869
灸刺	-11.2871
一發	-11.2871
之情	-11.2871
爲地	-11.2872
人意	-11.2873
内側	-11.2873
松風	-11.2874
衆善	-11.2874
能通	-11.2875
不止者	-11.2881
服之治	-11.2882
降形	-11.2883
在臍下	-11.2883
如雞	-11.2887
持經	-11.2887
秋分	-11.2887
本因	-11.2891
同道	-11.2892
此之謂	-11.2892
仍用	-11.2892
天尊至心信禮妙	-11.2893
紫書	-11.2894
右三味合	-11.2894
食前服	-11.2895
不虧	-11.2897
清眞	-11.2897
備足	-11.2898
陽陽	-11.2904
更加	-11.2905
八九	-11.2907
之根本	-11.2907
於下	-11.2907
樂則	-11.2911
字子	-11.2913
椎下兩傍各一寸半	-11.2918
增益	-11.292
空觀	-11.2922
出筆	-11.2924
神書	-11.2925
减之	-11.2925
地府	-11.293
二道	-11.293
開示	-11.2931
禮樂	-11.2933
寶珠	-11.2934
面生	-11.2934
水服方寸七	-11.2934
後人	-11.2934
忘形	-11.2937
成敗	-11.2947
白炁	-11.2948
先從	-11.2951
之體	-11.2959
妙趣	-11.296
他日	-11.2961
飲以	-11.2962
從頭	-11.2965
玉龍	-11.2967
月十五日	-11.2968
如如	-11.2974
色赤	-11.2976
當歸湯	-11.2981
者皆由	-11.2981
曰子	-11.2982
面白	-11.2982
拭之	-11.2983
三王	-11.2983
明徹	-11.2983
雲歸	-11.2985
轉頭	-11.2986
矣子	-11.2989
脚踏	-11.2989
到壇	-11.2989
九合	-11.2989
地雷	-11.2993
而緊	-11.2993
嶽先生	-11.2993
手心	-11.2993
升降	-11.2995
言我	-11.2997
九華	-11.3
服後	-11.3001
言今	-11.3004
下極	-11.3005
異日	-11.3005
不瘥更	-11.3006
八字	-11.3006
符於	-11.3009
治産後中風	-11.3012
牛馬	-11.3014
無狀	-11.3018
讀誦	-11.3019
忘塵	-11.302
汁飲之	-11.3023
速行	-11.3025
本非	-11.3025
雷速起	-11.303
虚煩	-11.303
六轉	-11.3031
烏麻	-11.3032
二服	-11.3033
矣若	-11.3036
散方	-11.3037
化作	-11.3039
木上	-11.3043
暗中	-11.3045
者方右用	-11.3046
心生	-11.3048
不悅	-11.3048
碧洞	-11.3049
龍駕	-11.3049
瑞雲	-11.3051
羽衣	-11.3053
洪大	-11.3057
有信	-11.3057
燒令	-11.3063
三條	-11.3064
五六日	-11.3068
非真	-11.3071
林下	-11.3075
聖師	-11.3078
玄黄	-11.308
不邪	-11.308
日月星	-11.3081
本眞	-11.3083
此中	-11.3083
之科	-11.3084
神炁	-11.3084
金木	-11.3087
萬仙	-11.3087
恐其	-11.3089
服氣	-11.3092
女青	-11.3098
圓治婦人	-11.3098
爲人所	-11.3102
幸得	-11.3103
七宿	-11.3104
正文	-11.3105
數百	-11.3105
果報	-11.311
保養	-11.3114
玄真	-11.3123
平安	-11.3124
涯	-11.3126
真如	-11.313
五使者	-11.3133
道術	-11.3134
安和	-11.3136
害之	-11.3137
道在	-11.3142
皆能	-11.3142
酢和	-11.3147
捉鬼	-11.3147
不但	-11.3147
正路	-11.315
炁出	-11.3151
方用	-11.3153
未然	-11.3154
二十九	-11.3156
清高	-11.3156
水三升煑取一升	-11.3161
親見	-11.3164
太上洞玄靈寳	-11.3174
出汗	-11.3174
歸物外	-11.3175
肛	-11.3175
好學	-11.3176
是經	-11.3176
四司	-11.3178
焚符	-11.3178
妙手	-11.3182
哉今	-11.3182
十二者	-11.3185
其炁	-11.3185
右六味㕮咀	-11.3186
色心	-11.3186
不到	-11.3187
百五十	-11.3188
交合	-11.3189
足少陽	-11.3189
愚暗	-11.3191
最好	-11.3192
不能久立	-11.3193
石龍芮	-11.3197
胳	-11.3197
脇痛	-11.3197
豬𦚠	-11.3198
霍	-11.3198
書辭而行之即太平矣	-11.3199
臑	-11.3201
荆芥穗	-11.3201
者一曰	-11.3202
者此爲	-11.3203
甘松香	-11.3203
曲泉	-11.3205
腕骨	-11.3205
韁	-11.3206
目𥆨𥆨	-11.3207
然子	-11.3207
毬	-11.3208
唯願	-11.3208
幘	-11.3209
蔞	-11.3209
瘴	-11.3209
覆盆子	-11.321
楮	-11.321
皰	-11.321
不侵	-11.3211
相反	-11.3211
鷰	-11.3212
豫章	-11.3212
隴	-11.3213
猛獸	-11.3213
眼中	-11.3213
織	-11.3213
猛將	-11.3214
杜蘅	-11.3214
膩	-11.3214
𡅗	-11.3215
之法也	-11.3215
橘	-11.3216
拘攣	-11.3216
蠲	-11.3216
蜣螂	-11.3216
祕之	-11.3216
决明子	-11.3216
筯	-11.3217
芩	-11.3217
瀉心湯	-11.3217
奎	-11.3217
蕤仁	-11.3218
憒	-11.3218
完骨	-11.3219
蓑	-11.3219
挹	-11.322
鼠屎	-11.3221
蔓荆子	-11.3221
鵬	-11.3221
卯酉	-11.3221
葷	-11.3221
怯	-11.3221
另	-11.3223
衲	-11.3223
虬	-11.3223
瞿	-11.3223
葫蘆	-11.3223
黄赤	-11.3224
蔚	-11.3224
攸	-11.3224
得過	-11.3225
氷	-11.3225
桑根白皮	-11.3225
啜	-11.3225
行書	-11.3226
彭城	-11.3226
青蒿	-11.3226
形狀	-11.3226
皎	-11.3227
蠢	-11.3227
青竹茹	-11.3227
課	-11.3227
飛天神王	-11.3227
悠	-11.3227
恐怖	-11.3228
發此證	-11.3229
鳯	-11.3229
斡	-11.3229
纖毫	-11.3229
搬	-11.3229
勇猛	-11.323
心念	-11.323
慷慨	-11.323
曷	-11.323
提挈	-11.323
殷勤	-11.323
立夏之日	-11.323
死入地獄	-11.3231
旋旋	-11.3231
踴躍	-11.3232
黄檗	-11.3232
寂寞	-11.3232
右七味治下篩	-11.3232
鞅	-11.3233
醺	-11.3233
稔	-11.3233
稼	-11.3233
窠	-11.3233
羈	-11.3233
腰脊痛	-11.3233
僚	-11.3234
麒麟	-11.3234
痼疾	-11.3234
海蟾	-11.3234
中央黄老君	-11.3234
棟	-11.3234
襯	-11.3234
挫	-11.3234
萼	-11.3234
清和	-11.3234
翮	-11.3235
潘	-11.3235
拏	-11.3236
葺	-11.3237
脾臟	-11.3237
此蟲形如	-11.3238
言教	-11.3238
忻然	-11.3238
翰	-11.3238
妒	-11.3238
狐疑	-11.3239
今故燒香自歸	-11.3239
驚怖	-11.3239
蛻殻	-11.324
具述	-11.324
聆	-11.324
坦然	-11.324
故自	-11.3241
塩	-11.3241
殞	-11.3241
畝	-11.3241
蕭條	-11.3241
道學當念逰	-11.3241
嗚呼	-11.3241
遁尸	-11.3242
開天門	-11.3242
籌	-11.3242
錦繡	-11.3242
列仙班	-11.3242
檀香	-11.3243
黜	-11.3243
示門人	-11.3244
胤	-11.3244
汎	-11.3244
爭如	-11.3245
哭泣	-11.3245
倡	-11.3246
炅	-11.3246
集議	-11.3246
穹蒼	-11.3247
忿怒	-11.3247
一吸	-11.3247
奪筭	-11.3248
瑩瑩	-11.3248
賢不肖	-11.3248
大帝敕	-11.325
勿失	-11.325
剉碎	-11.325
推移	-11.325
畜積	-11.3252
眉間	-11.3252
微祝曰	-11.3252
怨咎	-11.3253
開目	-11.3253
耳今	-11.3254
玉枕	-11.3254
群品	-11.3255
賊害	-11.3255
扶持	-11.3256
超生滅	-11.3257
真人知之邪唯唯	-11.3257
絞痛	-11.3258
孤魂	-11.3258
枸杞子	-11.3259
和匀	-11.3261
大麥	-11.3261
塵垢	-11.3261
擲火	-11.3262
凝滯	-11.3263
師存	-11.3263
知不乎	-11.3263
男子女人	-11.3264
圓治小兒	-11.3264
南京	-11.3265
邪祟	-11.3267
一千二百	-11.3267
樂之	-11.3267
玄洲	-11.3268
入齋堂	-11.3269
乘雲	-11.3269
靈空	-11.3272
巳午	-11.3273
七八日	-11.3273
於北	-11.3274
修誦是經果而如願若欲	-11.3275
辰星	-11.3275
愈治	-11.3276
嗔怒	-11.3278
山有	-11.3278
伴侣	-11.3279
口燥	-11.3281
殊異	-11.3281
周遍	-11.3284
心胷	-11.3284
中焦	-11.3285
賊傷	-11.3285
做修行	-11.3285
安排	-11.3285
水雲遊	-11.3286
傳言	-11.3286
打破	-11.3286
三十斤	-11.3287
舉事	-11.3287
其民	-11.3287
絶慮	-11.329
祕訣	-11.329
符籙	-11.329
手太陽	-11.3292
諸侯	-11.3292
不灸	-11.3293
四維	-11.3294
或復	-11.3295
正理	-11.3295
關啓	-11.3295
迷迷	-11.3296
神定	-11.3296
貪欲	-11.3297
拆字	-11.3297
逃形	-11.3298
損益	-11.3298
不說	-11.3299
閉氣	-11.33
隱士	-11.3304
親屬	-11.3304
十干	-11.3306
如梧桐子大	-11.3306
樂生	-11.3306
明理	-11.3307
防風芎藭	-11.3308
不比	-11.3309
日月之	-11.331
姓字	-11.3311
干君	-11.3311
齋官	-11.3311
有犯	-11.3313
胸脇	-11.3315
救之	-11.3316
呼召	-11.3317
療之	-11.3317
物之	-11.3318
洗心	-11.3319
衝陽	-11.332
今當	-11.332
永斷	-11.332
過去生	-11.332
未肯	-11.3321
根皮	-11.3321
黄昏	-11.3321
方大豆	-11.3323
時來	-11.3323
遍體	-11.3324
喜悅	-11.3325
主簿	-11.3326
丹誠	-11.3328
欲死方	-11.3329
起自	-11.3329
右十	-11.333
洞曰	-11.3331
丹房	-11.3331
共成一	-11.3333
後來	-11.3338
街前	-11.3339
霞彩	-11.3341
心月	-11.3342
皆如	-11.3344
玉庭	-11.3344
須彌	-11.3345
清爽	-11.3348
今釋	-11.3349
眞風	-11.3352
見鬼	-11.3353
誰解	-11.3355
主宰	-11.3355
信任	-11.3358
正也	-11.336
鑪中	-11.3361
不降	-11.3362
應有	-11.3362
命門	-11.3364
忌諱	-11.3368
玉篇	-11.3369
臨風	-11.337
天衢	-11.3371
三日三夜	-11.3371
古者聖賢	-11.3374
赴壇	-11.3374
絶穀	-11.3375
風生	-11.3376
叩頭搏頰各	-11.3378
八表	-11.3378
氣上衝	-11.3378
繒上	-11.3379
以水二升煑	-11.338
諸衆生	-11.3383
先後	-11.3385
可得而	-11.3385
虚妄	-11.3387
收藏	-11.3388
矣真人	-11.3391
助吾	-11.3393
見師	-11.3393
玄壇	-11.3393
者何也	-11.3393
普化	-11.3398
擣取汁	-11.3399
積功	-11.3401
内書	-11.3402
是主	-11.3402
明效	-11.3403
治虚勞	-11.3403
右等分	-11.3404
乘空	-11.3407
而至	-11.3408
青巾	-11.3408
黑雲	-11.3409
春色	-11.341
不欲見	-11.3414
治癰疽	-11.3414
解其	-11.3416
幾時休	-11.3417
人不識	-11.3417
九品	-11.3418
平地	-11.3418
三帥	-11.342
夜啼	-11.342
明科	-11.342
食時	-11.3421
運動	-11.3421
无上祕要卷之三十	-11.3424
地也	-11.3426
其外	-11.3426
愛其	-11.3426
方得	-11.3429
金光呪	-11.3429
文出	-11.3431
來朝	-11.3432
之勿令	-11.3433
俗念	-11.3433
身神	-11.3435
苦行	-11.3439
其壽	-11.3442
一方無	-11.3442
救急	-11.3443
赤龍	-11.3443
與道合	-11.3444
委中	-11.3445
曰汝	-11.3448
勞復	-11.345
虛熱	-11.3451
法體	-11.3451
清音	-11.3452
久食	-11.3453
天性	-11.3454
吾師	-11.3456
第十四	-11.3457
則不可	-11.3459
便愈	-11.3461
加持	-11.3461
黒煞	-11.3462
故與	-11.3463
事師	-11.3467
桂心人參	-11.3471
長一尺	-11.3472
食少	-11.3474
惡毒	-11.3478
日數	-11.3479
不窮	-11.3484
不純	-11.3485
可知也	-11.3488
此名	-11.349
水五升	-11.3491
乃生	-11.3491
相聚	-11.3494
黄水	-11.3494
三卷	-11.3495
靈音	-11.3495
興雲	-11.3499
大覺	-11.35
淺深	-11.3502
不肯力	-11.3504
命住	-11.3506
千金翼無	-11.3509
不似	-11.351
聖君	-11.3513
清光	-11.3514
者取	-11.3514
安隱	-11.3514
醋煮	-11.3515
也隂	-11.352
法海遺珠卷之	-11.352
注於	-11.3525
鬼官	-11.3526
醫之	-11.3526
付與	-11.353
所治	-11.353
家無	-11.353
不瘥者	-11.3543
有命	-11.3544
或為	-11.3549
自已	-11.3549
做作	-11.3552
得免	-11.3554
元父	-11.3554
右六味爲末	-11.3555
是為	-11.3556
來來	-11.3558
察之	-11.3559
天井	-11.3562
服三合	-11.3563
天尊至心信禮玄	-11.3566
九字	-11.3569
以水三升	-11.3569
鍊眞	-11.3574
得汗	-11.3576
世上	-11.3576
生乎	-11.3576
書此	-11.3581
但得	-11.3582
得力	-11.3584
難問	-11.3584
便利	-11.3585
不出方	-11.3587
周全	-11.3588
渾如	-11.3589
頓服又方	-11.3589
精專	-11.3591
便教	-11.3592
師友	-11.3593
子知之耶唯唯	-11.3595
何哉	-11.3596
學之士	-11.3597
之命	-11.3597
瓊文	-11.3597
紫文	-11.3598
煎取二升	-11.3598
相遇	-11.36
而求	-11.3602
德行	-11.3603
作禮	-11.3604
色之雲	-11.3606
頭足	-11.3607
遠方	-11.3608
竹皮	-11.3611
會衆	-11.3612
降心	-11.3613
燦	-11.3614
自下	-11.3615
應當	-11.3617
生死之	-11.3617
安然	-11.3619
右五味㕮咀以水	-11.3621
等藥	-11.3624
太帝君	-11.3625
紫元	-11.3626
足少陰	-11.3627
隨宜	-11.3629
一室	-11.3629
三處	-11.3632
酸棗	-11.3633
其所以	-11.3637
牛乳	-11.3637
萬魔	-11.3638
以通	-11.3639
故古者聖人	-11.3641
無灾	-11.3642
丹毒	-11.3643
離俗	-11.3644
宜食	-11.3645
陽光	-11.3647
邪妖	-11.365
内鍊	-11.3651
積德	-11.3654
念天蓬呪	-11.366
屬地	-11.3661
熱食	-11.3661
長三寸	-11.3662
張使者	-11.3665
每服二	-11.3665
馬屎	-11.3666
斗一座	-11.3666
以酢	-11.3667
爲德	-11.3668
辭語	-11.3669
本然	-11.3671
可使	-11.3673
不煩	-11.3673
之本也	-11.3674
白簡	-11.3674
滅門	-11.3675
其藥	-11.3677
熏之	-11.3677
遠離	-11.368
十餘	-11.3683
塵凡	-11.3684
劒訣	-11.3686
靡不	-11.3689
友人	-11.3691
誰是	-11.3692
滿痛	-11.3692
生前	-11.3693
在手	-11.3694
痛止	-11.3696
之車	-11.3703
不精	-11.3706
日常	-11.3707
親近	-11.371
吟詠	-11.371
始發	-11.3712
覺性	-11.3717
棗肉	-11.3717
贈李	-11.3717
腹背	-11.3717
子明	-11.3721
光華	-11.3723
微塵	-11.3724
利爲度	-11.3727
右四味爲末	-11.3728
切二	-11.3728
視人	-11.3728
不逆	-11.3729
物悉	-11.3737
天威	-11.3738
有力	-11.374
肢節	-11.3742
自心	-11.3742
子午斗	-11.3744
内神	-11.3747
九人	-11.3747
離苦	-11.375
耳若	-11.3752
承天	-11.3752
祕呪曰	-11.3755
所向	-11.3755
盡日	-11.3755
服五丸	-11.3756
仙壇	-11.3757
唯唯不敢	-11.376
毒藥	-11.3767
全性命	-11.3767
子今	-11.3767
上帝勑	-11.3768
位登	-11.3769
面前	-11.3775
茯苓甘草	-11.3776
灸七壯	-11.3776
功圓	-11.3778
如玉	-11.3783
則其	-11.3783
益壽	-11.3784
减半	-11.3784
大聖衆	-11.3784
發黄	-11.3786
周迴	-11.3788
慧刀	-11.3789
石硫黄	-11.3792
一碗	-11.3793
以禮	-11.3793
方能	-11.3794
空空	-11.3797
壇中	-11.3799
而退	-11.3802
張公	-11.3809
耳前	-11.381
虛勞	-11.381
問道	-11.381
不得久	-11.381
服石	-11.3812
不厭	-11.3814
復問	-11.3814
黄芩芍藥	-11.3815
共事	-11.3816
此謂	-11.3816
教者	-11.3818
微微	-11.3819
垂死	-11.3819
相忘	-11.382
珮	-11.3825
腫起	-11.3826
行年	-11.3826
應難	-11.3828
者謂之	-11.3828
相稱	-11.383
能成	-11.3835
落落	-11.3835
冗	-11.3835
臥	-11.3836
吾爲	-11.3838
信也	-11.3841
受之	-11.3843
便成	-11.3843
多飲	-11.3844
傷中	-11.3845
當日某帥	-11.3849
膈輸	-11.3852
幾時	-11.3852
耳夫	-11.3853
歸正	-11.3854
照徹	-11.3855
廣大	-11.3857
相應和	-11.3858
川山甲	-11.3859
眞一	-11.3859
磁	-11.3861
攝右	-11.3861
無度	-11.3861
發遣	-11.3862
瘙	-11.3862
先取	-11.3865
當使	-11.3867
右三味以	-11.3867
糠	-11.3867
靜夜	-11.3869
其力	-11.3869
胷痺	-11.3869
其候	-11.387
久矣	-11.387
乳香没藥	-11.387
身外	-11.3871
敗醬	-11.3871
譴	-11.3872
覺來	-11.3873
稻	-11.3873
狸	-11.3873
若妊娠傷寒	-11.3873
以水三斗煑	-11.3873
手陽明	-11.3874
爲一家	-11.3874
芤	-11.3875
刄	-11.3876
悅澤	-11.3877
擣三千杵	-11.3878
硝	-11.3879
既有	-11.3879
再用	-11.388
酒服二十丸日	-11.3883
要見	-11.3883
煎取三升分三服	-11.3883
胥	-11.3883
嘻	-11.3883
每服三十丸	-11.3884
娘	-11.3884
蘸	-11.3884
亦宜	-11.3884
昆布	-11.3884
悽	-11.3885
袂	-11.3885
冝	-11.3885
猪屎	-11.3885
同體	-11.3885
太平經卷之九十	-11.3885
鼔	-11.3885
晒	-11.3886
杓	-11.3886
志在	-11.3886
常如	-11.3887
風伯雨師	-11.3888
酩酊	-11.3888
鮑	-11.3888
焙乾爲末	-11.3888
蘿	-11.3888
裔	-11.3888
雞子白	-11.3889
烘	-11.3889
驅馳	-11.3889
劃	-11.389
隋	-11.389
宦	-11.389
急急如上帝律令	-11.389
宿食不消	-11.389
急急奉北帝敕四聖令	-11.389
雍	-11.3891
有娠	-11.3891
至此	-11.3891
鋼	-11.3891
僅	-11.3891
逗引	-11.3892
嚩	-11.3892
蜥蜴	-11.3893
踏雲行	-11.3893
淩	-11.3893
讒	-11.3894
橐	-11.3894
掇	-11.3894
玉清隱書	-11.3894
追薦	-11.3894
俺	-11.3895
蟄	-11.3895
行音土皇姓	-11.3896
坼	-11.3896
二處各七壯穴在	-11.3896
𩀱手	-11.3896
沙參	-11.3896
牛髓	-11.3897
朝廷	-11.3897
氐	-11.3897
然谷主	-11.3897
蝟皮	-11.3898
琅玕	-11.3898
伎倆	-11.3898
南柯	-11.3898
非但	-11.3899
本來面目	-11.3899
什	-11.3899
蝦	-11.3899
闔	-11.39
欹	-11.39
緘	-11.39
暘谷	-11.39
椒目	-11.39
緩弱	-11.3901
吃	-11.3902
善哉子之問也	-11.3902
貪狼	-11.3902
諕	-11.3902
願人	-11.3902
龜蛇	-11.3902
蓬頭垢面	-11.3902
逞	-11.3902
天寶	-11.3902
悦	-11.3902
四條	-11.3902
洗滌	-11.3902
勁	-11.3903
藝	-11.3903
𩲕	-11.3903
峙	-11.3903
潛	-11.3903
播	-11.3904
金木水火土	-11.3904
岐	-11.3904
仆	-11.3904
三千六百	-11.3904
太眞科	-11.3904
葫	-11.3904
恤	-11.3904
炎帝	-11.3904
螘	-11.3904
内傳云	-11.3905
九天生神章	-11.3905
秦皮	-11.3905
伶俐	-11.3905
本身符	-11.3905
眷屬	-11.3905
奼	-11.3905
無爲無作	-11.3906
牋	-11.3906
佗	-11.3906
地軸	-11.3907
冰雪	-11.3907
肩息	-11.3908
不全	-11.3908
猪腎	-11.3908
本行經云	-11.3909
生子	-11.3909
欣然	-11.3909
寥廓	-11.3909
一點靈光	-11.391
桃李	-11.391
垂拱	-11.391
燼	-11.3911
穆	-11.3911
亦可以	-11.3911
𧵥	-11.3911
行成	-11.3911
百骸	-11.3912
昏暗	-11.3912
堆裏	-11.3912
永享	-11.3913
就中	-11.3913
小腹急	-11.3913
稱天心	-11.3914
華麗	-11.3914
也故當	-11.3914
天中内音書於其上	-11.3915
撞透	-11.3915
師教	-11.3916
何益於	-11.3916
發聲	-11.3917
剌	-11.3917
殢	-11.3917
亭亭	-11.3917
槎	-11.3917
咽液	-11.3917
丞相	-11.3917
寒疝	-11.3918
何况	-11.392
縛住	-11.392
十餘年	-11.392
碧漢	-11.392
日一易	-11.392
四瀆	-11.3921
勤勞	-11.3922
關羽	-11.3922
灰汁	-11.3922
紫霄	-11.3922
把握	-11.3923
榮枯	-11.3923
无上祕要卷之五十	-11.3924
偷盜	-11.3926
結爲	-11.3926
都緣	-11.3927
感於	-11.3927
一斗五升	-11.3928
那箇	-11.3928
靈芽	-11.3928
伏尸	-11.3928
霄漢	-11.3929
二十八日	-11.3929
願請問	-11.3929
温暖	-11.3929
蒼龍	-11.393
普濟	-11.393
公私	-11.393
隨緣	-11.393
海市	-11.3931
幽㝠	-11.3933
啼呼	-11.3933
巖前	-11.3934
見天師言	-11.3934
琴書	-11.3934
福山	-11.3934
沉沉	-11.3934
哀哉	-11.3936
錯亂	-11.3936
持修	-11.3937
牛屎	-11.3937
黄婆	-11.3938
者則其人	-11.3938
凡行持	-11.3938
黒暗	-11.3938
浮大	-11.3939
内廉	-11.3939
謹按	-11.394
隨多少	-11.394
難逃	-11.3941
琳宫	-11.3941
搶心	-11.3941
十方三界	-11.3941
少少	-11.3943
上願	-11.3943
從他	-11.3944
親疏	-11.3946
陽陰	-11.3947
留連	-11.3947
消磨	-11.3948
百部	-11.3949
其爲人也	-11.3949
眼暗	-11.3949
令匀	-11.3951
轟轟	-11.3952
救護	-11.3953
反使	-11.3955
數十年	-11.3955
到底	-11.3957
事親	-11.3957
至矣	-11.3958
晃朗	-11.3962
飛霄	-11.3962
道化	-11.3965
東行	-11.3967
帝皇	-11.3968
地黄煎	-11.3969
三髻	-11.3969
化應聲天	-11.397
不可無	-11.3971
而卧	-11.3973
愛河	-11.3975
終古	-11.3975
西城	-11.3975
大小便不利	-11.3976
遺棄	-11.3976
天曹	-11.3978
真功	-11.398
敷藥	-11.398
太極宫	-11.398
無從得	-11.3983
錢財	-11.3983
刀兵	-11.3984
虛冷	-11.3985
適意	-11.3986
雄雞	-11.3986
爲民	-11.3986
如初	-11.3987
帥用	-11.3988
覩天	-11.3988
吉善	-11.3989
丁腫	-11.399
俱實	-11.3992
萬事休	-11.3992
世有	-11.3992
臍上	-11.3993
無益也	-11.3994
未入	-11.3994
則能	-11.3995
幽夜	-11.3996
一斛	-11.3996
燈草	-11.3996
交錯	-11.3996
歲星	-11.3998
求問	-11.4
金關	-11.4
矣是故	-11.4001
亦難	-11.4002
乳頭	-11.4005
在中	-11.4005
重戒	-11.4005
莫待	-11.4007
鼻衂	-11.4007
主帥	-11.4009
捧出	-11.4009
因由	-11.4009
之山	-11.401
筭來	-11.4012
卒得	-11.4015
開顔	-11.4017
兒生	-11.4017
所食	-11.4018
識其	-11.4018
祝畢	-11.4019
有識	-11.4019
延命	-11.4021
羊角	-11.4022
達了	-11.4026
依經	-11.4027
久不瘥	-11.4027
立夏	-11.4027
國中	-11.4027
煑取三升分四服	-11.403
雜病	-11.4031
先祖	-11.4032
如泥	-11.4034
與他	-11.4034
昔有	-11.4035
關召	-11.4035
重明	-11.4036
草堂	-11.4036
敕字	-11.4038
一杯	-11.4039
大亂	-11.404
心開悟	-11.4041
風清	-11.4043
甚深	-11.4044
而順	-11.4045
白鶴	-11.4046
周圓	-11.4047
閃電	-11.4049
人迎	-11.4051
舉體	-11.4051
告子	-11.4052
傅之治	-11.4052
三十六天	-11.4053
呪訣	-11.4055
上衝	-11.4055
隱隱	-11.4058
妙哉	-11.4059
肉中	-11.4059
西面	-11.4061
衆賢共	-11.4064
不下食	-11.4066
坐忘	-11.4068
靜思	-11.4069
見善	-11.407
絶骨	-11.407
香花	-11.4073
電火	-11.4075
登天	-11.4077
玄宗	-11.4078
在其内	-11.4081
松葉	-11.4084
遠遠	-11.4085
等物	-11.4086
金光炁	-11.4086
降伏	-11.4089
遂得	-11.409
乾薑當歸	-11.4093
白前	-11.4094
留意	-11.4094
始青	-11.4095
治霍亂	-11.4096
玄文	-11.4096
仁愛	-11.4097
奉承	-11.4097
心病	-11.4102
辰文	-11.4102
天尊至心信禮真	-11.4109
第十六	-11.4109
一兩半	-11.4109
食茱萸	-11.411
如省悟	-11.4111
贈王	-11.4111
水七升	-11.4113
諸道士	-11.4114
天台	-11.4116
左足	-11.4116
本行	-11.4116
不以時	-11.4117
也廼	-11.4117
神仙傳	-11.4119
降致	-11.4119
修補	-11.412
罡炁	-11.412
大教	-11.4122
肺氣	-11.4122
回光	-11.4125
如是則	-11.4126
資生	-11.4126
諸有	-11.4127
從初	-11.4129
眼界	-11.4129
乾者	-11.4129
立可	-11.4132
指頭	-11.4134
飲服方寸七日三	-11.4135
告命	-11.4135
信符	-11.4137
舉意	-11.4137
者是其	-11.4139
之心也	-11.4139
乎唯唯	-11.414
傅之治小兒	-11.414
火精	-11.4141
雷字	-11.4141
月宫	-11.4142
累功	-11.4142
神庭	-11.4142
利鎖	-11.4143
聞香	-11.4144
不聽	-11.4145
共成	-11.4146
一毫	-11.4147
又念	-11.4147
能明	-11.4149
諸縁	-11.4149
絶洞	-11.4151
達道	-11.4151
次取	-11.4153
白者	-11.4153
行滿	-11.4154
而況	-11.4154
桂心芎藭	-11.4156
三更	-11.4156
知足	-11.4159
桂心細辛	-11.4159
滅絶	-11.4162
而降	-11.4162
開雲	-11.4164
靈宫	-11.4166
雲散	-11.4166
不壞	-11.4167
其教	-11.4168
秀氣	-11.4171
又方服	-11.4172
再加	-11.4173
所起	-11.4173
真書	-11.4173
微温	-11.4177
雞子黄	-11.4177
增年	-11.4178
善氣	-11.4179
所疑	-11.4183
患身	-11.4183
俱出	-11.4185
半去滓	-11.4189
紫色	-11.4191
轉動	-11.4191
許大	-11.4192
微汗	-11.4195
教勑	-11.4196
常善	-11.4197
著甚	-11.4197
欬而	-11.4198
而傳	-11.4202
靈圖	-11.4202
昇天堂	-11.4204
玉國	-11.4206
迷津	-11.4208
神妙	-11.4209
某將	-11.4209
神効	-11.421
水服之	-11.4212
心乃	-11.4214
極目	-11.4214
其父	-11.4215
肺病	-11.4217
龍雷	-11.4217
方獨活	-11.4217
而可	-11.4218
二指	-11.4219
宫觀	-11.4219
雲門	-11.422
乃内	-11.4221
體用	-11.4223
孰能	-11.4224
不放	-11.4227
寒寒則	-11.4228
乃當	-11.423
者吉	-11.4232
文理	-11.4234
左右同	-11.4235
每至	-11.4235
六通	-11.4238
大丹成	-11.4239
芍藥桂心	-11.4243
鬼使	-11.4245
土府	-11.4247
行於	-11.4249
又法	-11.425
三真	-11.4252
微弱	-11.4254
離塵	-11.4255
右八味㕮咀以水一斗	-11.4256
服了	-11.426
又呪	-11.4261
七徧	-11.4261
清中	-11.4262
溏	-11.4267
服盡	-11.4268
由心	-11.4268
下古人	-11.4268
日再服	-11.4269
塵中	-11.427
取二升分三服	-11.4271
安鎮	-11.4271
心休	-11.4276
谷神	-11.4277
則天	-11.4282
玉經	-11.4283
無影	-11.4284
陽神	-11.4285
火星	-11.4285
癤	-11.4288
度命	-11.4289
未聞	-11.429
八曰	-11.429
驅邪	-11.429
先世	-11.4291
背痛	-11.4292
補腎	-11.4295
都合	-11.4295
獨處	-11.43
眞了	-11.4305
迴轉	-11.4306
道體	-11.4306
如麻	-11.4309
迷人	-11.4311
皮中	-11.4311
雲漢	-11.4312
趙公	-11.4313
尚自	-11.4314
或云	-11.4315
忌食	-11.4316
芍藥當歸	-11.4317
捨家	-11.4319
無能	-11.4319
産難	-11.4325
都在	-11.4326
而熱	-11.4326
乃敢	-11.4329
下行	-11.4331
可安	-11.4331
莫非	-11.4333
手摩	-11.4334
雲飛	-11.4336
明霞	-11.4336
千餘	-11.4337
生民	-11.4341
又復	-11.4343
青黑	-11.4343
用酒	-11.4347
祥光	-11.435
當行	-11.435
此物	-11.4358
作湯	-11.4358
自思	-11.4363
四字	-11.4363
不實	-11.4364
隨符	-11.4369
七傷	-11.4369
等身中	-11.4371
列仙	-11.4372
經過	-11.4373
許多	-11.4376
要言	-11.4377
物皆	-11.4377
傳尸	-11.4379
勿怪	-11.4379
正坐	-11.4383
不可與	-11.4384
社令雷	-11.4384
堂下	-11.4384
不限	-11.4386
輕輕	-11.4387
敕符呪	-11.439
慢火	-11.439
物盡	-11.439
三界十方	-11.4394
半年	-11.4397
離鄉	-11.4398
所須	-11.4401
吞服	-11.4404
爲男	-11.4406
活人	-11.4406
嘔血	-11.4409
黑書	-11.4409
夏至	-11.441
作瘡	-11.4411
體有	-11.4414
氣喘	-11.4415
不戀	-11.4418
雖未	-11.4423
除邪	-11.4425
夫子	-11.4425
則止	-11.4428
置之	-11.4431
房内	-11.4432
以灌	-11.4434
解除	-11.4435
丹天	-11.4436
即瘥治	-11.4449
炁混合	-11.4451
得其所	-11.446
却入	-11.446
願聞其	-11.4463
在世	-11.4464
如夢	-11.4465
教我	-11.4467
中毒方	-11.447
兩箇	-11.4476
開光	-11.4477
生火	-11.4478
斯文	-11.4482
真箇	-11.4483
大法師	-11.4485
吐利	-11.4486
二七壯	-11.4486
忠誠	-11.4492
諸毒	-11.4493
眞了了	-11.4494
玉壺	-11.4499
祇	-11.45
天恩	-11.4504
祝之	-11.4505
常恐	-11.4507
諸家	-11.4509
方桃仁	-11.4511
太微天帝	-11.4513
真身	-11.4514
顯出	-11.4517
元宫	-11.4519
授兆	-11.4519
猪脂和	-11.4522
度厄	-11.4524
逍遥物外	-11.4526
洗瘡	-11.4526
扁鵲	-11.4527
水水	-11.4527
天下之人	-11.4528
張口	-11.4528
陰德	-11.4535
善神	-11.4542
令其	-11.4542
上起	-11.4542
四達	-11.4547
守中	-11.4547
所修	-11.4549
貴者	-11.4551
大限	-11.4554
如彈	-11.4555
功效	-11.4555
甘草黄芩	-11.4556
亘	-11.4556
以繩	-11.4557
爲一切	-11.4559
分離	-11.456
非止	-11.4561
一邊	-11.4562
臨泣	-11.4564
變作	-11.4564
䵟	-11.4566
其支者	-11.4567
個	-11.4567
用此藥	-11.4568
白鮮皮	-11.4572
大杼	-11.4575
行間主	-11.4577
焉故	-11.4577
益氣力	-11.4579
瑕	-11.4579
搽	-11.458
月事	-11.4581
太始	-11.4582
瘥止又方	-11.4583
歘	-11.4583
酘	-11.4583
深深	-11.4583
百壯穴在	-11.4585
時出爲師號	-11.4585
銚	-11.4586
酪	-11.4586
陛	-11.4587
彎	-11.4588
朒	-11.4588
多言	-11.4589
窻	-11.4589
嶽瀆	-11.4589
不得屈伸	-11.4589
未若	-11.4589
戎鹽	-11.459
者各	-11.459
緯	-11.459
䖍	-11.459
燎	-11.459
叮囑	-11.459
圓灸法	-11.459
莨菪子	-11.4591
隴州	-11.4591
膠飴	-11.4591
性上	-11.4591
梗	-11.4592
薩	-11.4593
不可用	-11.4594
六尺	-11.4594
竅陰	-11.4595
不知稍增	-11.4595
煎三上三下	-11.4595
噓	-11.4595
梓	-11.4596
貝齒	-11.4596
豕	-11.4596
霹	-11.4597
臛	-11.4597
蔬	-11.4597
桐子大	-11.4597
諷	-11.4598
呪詛	-11.4598
蚊	-11.4598
以鼻引	-11.4598
戶	-11.4599
笞	-11.4599
大麻仁	-11.4599
渭	-11.4599
七日七夜	-11.4599
俠脊	-11.4599
治療	-11.4599
韋	-11.4599
不辭	-11.46
秩	-11.4601
分六服	-11.4601
糟	-11.4601
飬	-11.4601
癉	-11.4601
皈	-11.4601
癸亥	-11.4601
不得留停	-11.4602
覃	-11.4602
精靈	-11.4602
散治婦人	-11.4602
錐	-11.4602
天罡大聖	-11.4604
榖	-11.4604
桃葉	-11.4604
贈華亭	-11.4604
腮	-11.4604
右件各罰禮	-11.4604
銀蟾	-11.4604
惺灑	-11.4605
懊	-11.4605
藍青	-11.4605
骭	-11.4605
筠	-11.4606
紅焰	-11.4606
貟	-11.4606
小腸輸	-11.4606
鄽	-11.4606
絹袋	-11.4606
分作三服	-11.4606
爇心香	-11.4607
尉	-11.4607
佚	-11.4607
萆麻子	-11.4608
赴瀛洲	-11.4608
弼	-11.4608
盥	-11.4608
靈書紫文	-11.4608
服一刀圭	-11.4608
白肉際	-11.4608
盜汗	-11.4609
方石膏	-11.4609
漫漫	-11.4609
璞	-11.4609
鬼箭羽	-11.4609
秋分之日	-11.4609
蚌	-11.4609
酸棗仁	-11.4609
魍魎	-11.4609
賒	-11.4609
婢	-11.4609
茵	-11.461
射罔	-11.461
帛裹	-11.461
油膩	-11.461
鍼	-11.461
笑傲	-11.4611
𡻕	-11.4611
樊籠	-11.4611
恍	-11.4611
攤	-11.4611
璨	-11.4611
五嶽四瀆	-11.4612
倣	-11.4612
乞覓	-11.4612
咖	-11.4612
坦	-11.4612
策杖	-11.4612
揭	-11.4613
盤桓	-11.4613
笙	-11.4613
脇下痛	-11.4613
龕	-11.4613
曠野	-11.4613
羙	-11.4614
上德之君	-11.4614
瞽	-11.4614
頂戴	-11.4615
翩翩	-11.4615
賄	-11.4616
吁	-11.4616
摸	-11.4616
規矩	-11.4616
乾葛	-11.4616
無妄	-11.4616
攬	-11.4617
儼然	-11.4617
霑	-11.4618
蟬蛻	-11.4618
支飲	-11.4618
三塗五苦	-11.4618
都仙真君	-11.4618
丙午	-11.4618
聾盲	-11.4618
太霄琅書	-11.4618
无上祕要卷之九十	-11.4618
冗冗	-11.4618
辛酉	-11.4618
守拙	-11.4618
足躡	-11.4619
嫁	-11.4619
愚闇	-11.4619
之美	-11.4619
蛻形	-11.462
充盈	-11.462
斥	-11.462
大咎在此	-11.462
琴瑟	-11.462
暝	-11.4622
畧	-11.4622
東牟	-11.4622
殺伐	-11.4622
誦詠	-11.4622
東西南北	-11.4624
中渚	-11.4624
一百日	-11.4624
倉卒	-11.4625
拯救	-11.4625
孩兒	-11.4625
褥	-11.4625
携手	-11.4625
壤	-11.4625
父母之	-11.4626
貲	-11.4627
樓閣	-11.4627
十七聖乘	-11.4627
堪嗟	-11.4627
何從得	-11.4627
鶴鳴	-11.4628
外廉	-11.4629
外求	-11.4629
捷徑	-11.4629
濛濛	-11.4629
如常法	-11.463
嵗	-11.463
朗朗	-11.463
疑也	-11.4631
得之以	-11.4631
誹謗	-11.4633
即可	-11.4634
豈敢	-11.4635
手臂	-11.4635
天上之事	-11.4636
河源	-11.4636
癢痛	-11.4637
歩罡	-11.4637
端嚴	-11.4638
臧	-11.4638
叨	-11.4638
願聞其意	-11.4638
髮灰	-11.464
制御	-11.464
奥旨	-11.464
喘逆	-11.464
内汁中	-11.464
神咒	-11.4641
朱陵	-11.4642
召役	-11.4642
暴虐	-11.4642
恬然	-11.4644
並力	-11.4644
胞胎	-11.4644
救拔	-11.4644
此四人	-11.4645
於己	-11.4645
温和	-11.4645
青童君曰	-11.4645
丘曾	-11.4647
講論	-11.4647
陰囊	-11.4647
冬夏	-11.4647
玉珮	-11.4648
禍殃	-11.4648
芍藥茯苓	-11.4648
金橋	-11.4648
神威	-11.4649
食不下	-11.4649
七竅	-11.4649
堅牢	-11.465
醮罷	-11.465
勞役	-11.4653
前引	-11.4653
國人	-11.4654
者其德如	-11.4655
扁鵲曰	-11.4655
温酒下	-11.4655
其國	-11.4655
九壘	-11.4655
根基	-11.4656
宿昔	-11.4656
畢乃	-11.4657
申酉	-11.4658
啓奏	-11.4659
陽谿	-11.4661
超生死	-11.4661
烈血	-11.4663
太息	-11.4664
永劫	-11.4664
者屬	-11.4664
受氣	-11.4665
紫金丹	-11.4667
故致	-11.4667
孝弟	-11.4667
白黑	-11.4668
靈砂	-11.467
棲雲	-11.4672
掖門	-11.4673
此名爲	-11.4674
普告	-11.4674
投水	-11.4674
一向	-11.4676
章奏	-11.4676
逮及	-11.4677
玉貌	-11.4677
步雲	-11.4677
小續命湯	-11.4679
尚可	-11.4682
細辛附子	-11.4682
唯大神	-11.4683
主副	-11.4683
七首	-11.4684
執迷	-11.4684
洞中天	-11.4684
胸滿	-11.4685
死氣	-11.4685
搜求	-11.4686
界外	-11.4686
骨蒸	-11.4687
青要	-11.4688
天讖	-11.4689
章表	-11.469
紅葉	-11.469
玉峰	-11.4691
香燈	-11.4692
心通	-11.4692
服十丸日三	-11.4694
方麥門冬	-11.4696
帝簡	-11.4696
畜生	-11.4697
頑心	-11.4697
千斤	-11.4697
斗府	-11.4698
百日兒	-11.4698
既生	-11.4698
證果	-11.4698
幽室	-11.4699
則神	-11.4699
萬姓	-11.47
皆使	-11.4704
火焰	-11.4704
祕要	-11.4705
興則	-11.4708
帝王治	-11.4708
内獨	-11.471
朝金闕	-11.471
而明	-11.4711
賤人	-11.4711
女者	-11.4713
尸疰	-11.4714
篇目	-11.4714
逆冷	-11.4715
災厄	-11.4718
備矣	-11.4719
劫中	-11.472
閉口	-11.4721
諸男女	-11.4721
太平之氣	-11.4722
味酸	-11.4724
於大	-11.4724
精心	-11.4724
幽關	-11.4725
出遊	-11.4727
死籍	-11.4727
方前胡	-11.4728
堅志	-11.4729
手大指	-11.4731
神化	-11.4731
有二種	-11.4731
非可	-11.4732
策文	-11.4733
超度	-11.4733
勞宫	-11.4733
欲知其	-11.4734
降靈	-11.4735
隱顯	-11.4737
三時	-11.4738
口念	-11.4739
中文	-11.4741
養素	-11.4741
憂惱	-11.4741
咽汁	-11.4744
雷城	-11.4747
氣而生	-11.4749
高歌	-11.4749
乞化	-11.4751
隨證	-11.4753
記其	-11.4756
誠信	-11.4758
觸處	-11.4759
猪肝	-11.476
石火	-11.476
積熱	-11.4765
故常	-11.4767
刻名	-11.4769
洗浴	-11.477
職主	-11.477
三千里	-11.4774
故天道	-11.4775
仙籍	-11.4779
自悔	-11.478
飛雷	-11.4784
右十五味	-11.4784
塵境	-11.4785
萬千	-11.4786
次序	-11.4787
收心	-11.4788
内庭	-11.4788
玉樹	-11.4789
真人知之耶唯唯	-11.4789
一兩重	-11.4791
總是	-11.4792
凡是	-11.4792
邪炁	-11.4795
取三升分三服	-11.4798
入無爲	-11.4799
當來	-11.4802
誅之	-11.4804
符圖	-11.4804
幽玄	-11.4804
真武	-11.4804
自止	-11.4805
要知	-11.4808
尊者	-11.4809
七味	-11.481
玉洞	-11.4817
緑水	-11.4819
妙覺	-11.482
膿水	-11.4821
半夏湯治	-11.4823
者按	-11.4823
者難治	-11.4826
勞熱	-11.4827
也古者	-11.4828
三月三日	-11.4829
六七日	-11.483
能制	-11.483
祖先	-11.483
與天同	-11.4831
甘草節	-11.4831
命籍	-11.4837
結縁	-11.4843
進食	-11.4844
急急如律令右符	-11.4844
三指	-11.4847
復來	-11.485
抱道	-11.485
行間	-11.485
千二百	-11.4851
偏風	-11.4851
眼開	-11.4851
不得汗	-11.4855
青靈	-11.4856
休生	-11.4861
萬頃	-11.4862
勑命	-11.4862
堪爲	-11.4863
眞慈	-11.4864
平常	-11.4864
漏蘆湯	-11.4865
空有	-11.4865
而學	-11.4866
空寂	-11.4866
以時	-11.4867
中宮	-11.4868
九光	-11.487
牛羊	-11.487
牢擒	-11.4871
深藏	-11.4872
老少	-11.4873
師徒	-11.4873
空花	-11.4873
尊重	-11.4874
衆道友	-11.4875
酒服方寸七日二	-11.4879
受稱	-11.4881
眼視	-11.4885
并以	-11.4886
誤也	-11.489
稍加	-11.4891
瞳子	-11.4892
自輕	-11.4892
達者	-11.4893
求索	-11.4895
不可輕	-11.4897
四角	-11.49
而强	-11.4901
重陽真人	-11.4901
今則	-11.4907
欲生	-11.4907
如粉	-11.4911
也以此	-11.4915
元本	-11.4916
學之以	-11.4916
也子知之耶唯唯	-11.4917
瘡癤	-11.4919
賜以	-11.492
地裂	-11.4923
踏碎	-11.4924
於南	-11.4924
服此方	-11.4927
受用	-11.4928
同時	-11.4931
暫時	-11.4932
八脉	-11.4936
一撮	-11.4938
忘懷	-11.4939
水漿	-11.4941
尺中	-11.4944
修性命	-11.4946
不成人	-11.4946
明公	-11.4948
好肉	-11.4949
金根	-11.4952
尚未	-11.4954
數服	-11.4955
爐中	-11.4955
聚散	-11.4956
十人	-11.4958
聲聲	-11.4959
東北方	-11.4961
无所不	-11.4962
大汗	-11.4964
天師言	-11.4965
所陳	-11.4965
善哉善哉愚生	-11.4965
熱中	-11.4968
反多	-11.4968
奉命	-11.4969
尸鬼	-11.4969
虛無	-11.497
十三者	-11.4971
方雄黄	-11.4972
神機	-11.4974
精明	-11.4976
次思	-11.4977
存入	-11.4981
白首	-11.4982
惡罪	-11.4982
食人	-11.4987
以刀	-11.4987
造作	-11.4993
百丈	-11.4993
合爲一	-11.4994
粥飲	-11.4996
出乎	-11.4996
成膏	-11.4997
立教	-11.4997
湯治妊娠	-11.5001
鬼滅	-11.5003
衰少	-11.5003
寅午斗	-11.5005
多服	-11.5005
不自覺	-11.5007
九眞	-11.5007
食穀	-11.5008
玄精	-11.5009
某處	-11.501
四境	-11.5012
傷則	-11.5013
萬不失一	-11.5016
精勤	-11.5019
呪塗	-11.5021
清靈	-11.5023
鼎中	-11.5023
知味	-11.5028
始於	-11.5028
衣青	-11.5029
專治	-11.503
不害	-11.503
失天心	-11.5031
自然得	-11.5038
足心	-11.504
切不可	-11.5044
蓬萊島	-11.5049
如違	-11.505
解元	-11.5051
各依	-11.5052
自招	-11.5059
雖多	-11.5059
十五者	-11.506
四年	-11.5062
貧人	-11.5062
爲先	-11.5062
至重	-11.5066
貪愛	-11.5068
使天下	-11.507
任他	-11.5071
鬼氣	-11.5073
玄景	-11.5074
茯苓桂心	-11.5075
飛神	-11.5076
天地日月	-11.5077
脉數	-11.5077
下重	-11.508
祕文	-11.508
自解	-11.5082
風塵	-11.5083
本在	-11.5084
及一切	-11.5092
寒温	-11.5093
十二時	-11.5093
變而	-11.5095
春風	-11.5098
三統	-11.5098
披雲	-11.5099
无極大道	-11.5099
證明	-11.5103
三家	-11.5106
國主	-11.5106
河伯	-11.5107
日增	-11.511
寅午	-11.5111
二種	-11.5112
今欲	-11.5114
人參湯	-11.5115
夜深	-11.5115
江水	-11.5117
生物	-11.5118
脹者	-11.5118
今身	-11.512
方擣	-11.512
欲嘔	-11.5122
日二夜一	-11.5123
生育	-11.5124
常處	-11.5124
次日	-11.5126
興用	-11.5132
而不可	-11.5135
聖主	-11.5136
元真	-11.5136
無語	-11.5137
超凡	-11.5139
一劫	-11.5139
喜忘	-11.514
異於	-11.5142
終不自	-11.5147
所奏	-11.5149
道路	-11.515
星光	-11.5153
者道之	-11.5156
春三月	-11.5156
至心稽首	-11.5157
某事	-11.516
投之	-11.5161
湯吞下	-11.5162
手掌	-11.5163
施與	-11.5165
殊不	-11.5166
地地	-11.5168
謫仙	-11.5169
除害	-11.5169
善物	-11.517
驚恐	-11.5171
相愛	-11.5172
不假	-11.5173
知天地	-11.5174
諸弟子	-11.5174
右十一味㕮咀	-11.5174
大煞	-11.5175
治中風	-11.5177
芍藥黄芩	-11.5178
陽純	-11.5179
真誥	-11.5181
以順	-11.5182
元靈	-11.5182
防風湯	-11.5185
冷痢	-11.5187
三灾	-11.5188
非凡	-11.5191
則成	-11.52
衰則	-11.5203
經水	-11.5205
聖水	-11.5219
而死者	-11.5219
之儀	-11.5219
酒煎	-11.522
紫宫	-11.5227
服日三	-11.5229
日魂	-11.5231
之稱	-11.5235
右十二味㕮咀以水一斗	-11.5236
雞屎	-11.5236
塵土	-11.5238
有七	-11.5244
獨行	-11.5245
衢	-11.5245
惡道	-11.5246
猛火	-11.5252
言之今	-11.5252
央	-11.5258
善道	-11.5258
有幸	-11.5259
如梧子	-11.5261
處覓	-11.5263
考召	-11.5264
附身	-11.5268
深可	-11.5268
以左手	-11.5269
也何故	-11.5272
婆訶	-11.5272
化機	-11.5276
分三服又方	-11.5277
諸眞人	-11.5278
右十九味	-11.5279
以冷水	-11.5281
之裙	-11.5284
如未	-11.5288
至意	-11.5288
講師	-11.5289
三境	-11.5294
吹之	-11.5295
廼後	-11.5297
仙觀	-11.5298
敬之	-11.5303
衰老	-11.5304
位爲	-11.5305
渚	-11.5308
當歸乾薑	-11.5309
歸眞	-11.5312
淵明	-11.5321
遊仙	-11.5322
砒	-11.5322
行止	-11.5324
亦不能	-11.5326
五歲	-11.5329
桑螵蛸	-11.5331
鹵	-11.5333
箇内	-11.5333
瞳	-11.5335
嚏	-11.5336
有實	-11.5337
酒服方寸匕	-11.5338
月光	-11.5339
癰也	-11.534
臨目	-11.534
七竅病	-11.5342
䖟蟲	-11.5347
蚘蟲	-11.5347
治崩中	-11.5347
枳	-11.5347
仙舉	-11.5349
雉	-11.535
萬國	-11.535
鷹屎白	-11.535
商丘主	-11.5351
牡荆子	-11.5352
便見	-11.5353
面黄	-11.5354
疵	-11.5356
小便不通	-11.5356
馬蹄	-11.5357
釵	-11.5358
蛤	-11.5358
中來經曰	-11.5358
䑕	-11.5359
陷谷	-11.5359
石榴皮	-11.5359
水服方寸匕	-11.536
樊	-11.536
辜	-11.5361
外踝上	-11.5361
百億	-11.5361
桑寄生	-11.5361
右符成	-11.5363
稷	-11.5363
笈	-11.5363
随	-11.5363
絹篩	-11.5363
先煎	-11.5364
潄	-11.5365
飛捷使者	-11.5365
天雷隱隱	-11.5366
款	-11.5366
唳	-11.5366
兀兀	-11.5366
邇	-11.5367
石榴	-11.5367
金間隔	-11.5368
麻子仁	-11.5368
芎	-11.5368
治下篩爲粗散	-11.5369
䄂	-11.537
蜀㯃	-11.537
鎗	-11.537
城隍	-11.537
傻	-11.537
朗照	-11.5371
羸人	-11.5371
泪出	-11.5372
甘菊花	-11.5372
癧	-11.5373
食之害人	-11.5373
鶉	-11.5373
舂	-11.5373
置於	-11.5373
高上玉皇	-11.5373
棘	-11.5373
家國	-11.5374
撒手	-11.5374
早晚	-11.5374
鉞	-11.5375
速現真形	-11.5375
虛羸	-11.5375
懣	-11.5376
崑	-11.5376
祗	-11.5376
如大豆許	-11.5376
甲今歸命	-11.5376
逰	-11.5376
霽	-11.5376
不知加之	-11.5376
妖怪	-11.5377
烏梅肉	-11.5377
階級	-11.5377
上下相	-11.5378
紈	-11.5378
模樣	-11.5378
増	-11.5378
罪重	-11.5378
上來至此	-11.5378
曹溪	-11.5378
血不止	-11.5378
㗸	-11.5379
謔	-11.5379
伎	-11.5379
痒	-11.5379
箴	-11.5379
長一丈	-11.5379
麴末	-11.5379
方右取	-11.5379
老壽	-11.5379
衍	-11.538
傑	-11.538
飄颺	-11.538
棒	-11.538
春夏秋冬	-11.538
戲弄	-11.538
清微天	-11.538
袴	-11.5381
乙丑	-11.5381
臚脹	-11.5381
貢	-11.5381
齎上金	-11.5381
天真皇人	-11.5381
邵	-11.5381
酣	-11.5381
桓	-11.5382
雪崖	-11.5382
吝	-11.5382
瀟灑	-11.5382
徙	-11.5382
賊殺	-11.5382
瓊蘂	-11.5382
爲親屬兄弟	-11.5382
𣲖	-11.5383
自巳	-11.5383
狸骨	-11.5383
乖錯	-11.5383
三元玉檢	-11.5384
洪禧	-11.5384
蜃	-11.5384
立秋之日	-11.5384
汩	-11.5384
登真隱訣	-11.5384
這些兒	-11.5384
須臾之間	-11.5384
今建齋立直燒香	-11.5384
以水五升煑	-11.5384
萬劫一傳	-11.5385
稍增	-11.5385
體重	-11.5385
擅	-11.5385
預備	-11.5385
經渠	-11.5386
罔象	-11.5386
韜光	-11.5386
陟	-11.5386
店	-11.5386
彭祖	-11.5386
薛	-11.5386
威雄	-11.5387
明月清風	-11.5387
輔佐	-11.5387
右出道迹經	-11.5387
讃	-11.5387
丁其狀	-11.5387
創	-11.5388
亮	-11.5388
窄	-11.5388
迺	-11.5388
霍山	-11.5388
儛	-11.5388
沼	-11.5388
熈	-11.5388
一座	-11.5388
牝	-11.5389
本命之日	-11.5389
少商	-11.5389
截斷	-11.5389
聒	-11.5389
窩	-11.5389
闓	-11.5389
槃	-11.539
共欺其上	-11.539
疝瘕	-11.539
解肌	-11.539
師尊大聖衆至眞之德得道之後昇入	-11.539
迦	-11.539
澆灌	-11.539
哀憐	-11.539
上天梯	-11.5391
七世父母	-11.5391
龜甲	-11.5391
赴蓬瀛	-11.5391
慙	-11.5392
登眞隱訣	-11.5392
眇眇	-11.5392
天尊曰常當	-11.5392
不可勝記	-11.5392
麻麥	-11.5392
利貞	-11.5393
弟兄	-11.5393
地上亦然	-11.5393
綜	-11.5393
哦	-11.5393
恢恢	-11.5393
寅卯	-11.5393
勝如	-11.5394
項負	-11.5395
嵩高	-11.5395
匣	-11.5395
萬物各得其所	-11.5395
渾淪	-11.5395
鼓舞	-11.5395
曩	-11.5396
之禁勿	-11.5396
已覺矣	-11.5396
會稽	-11.5396
功徳	-11.5396
有德之國	-11.5396
高岑	-11.5396
夫人諱	-11.5397
大恩	-11.5398
蔬食	-11.5398
勑符呪	-11.5399
恒沙	-11.5399
矇	-11.54
長生不死	-11.54
惡根	-11.54
食不化	-11.54
科曰道士女冠	-11.5401
梅花	-11.5401
北斗七星	-11.5401
觀者至故名	-11.5401
怡然	-11.5401
泄注	-11.5401
休粮	-11.5401
元亨利貞	-11.5402
生而不	-11.5403
各七壯	-11.5403
鐵杖	-11.5403
天突	-11.5403
嬉戲	-11.5404
譜録	-11.5404
龍沙	-11.5404
吉祥	-11.5404
心忘	-11.5405
緘口	-11.5405
抽身	-11.5405
以類相從	-11.5405
惟思	-11.5405
乾薑蜀椒	-11.5406
尤佳	-11.5406
瀟瀟	-11.5406
右出洞元	-11.5408
七世	-11.5408
圖畫	-11.5408
士庶	-11.5409
玉隆	-11.5409
服三劑	-11.5409
户牖	-11.541
骨癰	-11.541
判官	-11.541
攻擊	-11.5411
岀家	-11.5411
要在	-11.5411
隂日	-11.5412
正赤	-11.5413
總領	-11.5413
陰陽造化	-11.5413
蒼蒼	-11.5414
憎之	-11.5414
苦辛	-11.5414
法海遺珠卷之四十	-11.5414
出家兒	-11.5416
少澤	-11.5416
其應	-11.5417
道與德	-11.5417
瓊房	-11.5418
六銖衣	-11.5418
調搽	-11.5419
天下地上	-11.5419
玄丹	-11.5419
其蒸在	-11.542
山後	-11.5421
形軀	-11.5422
臨卧	-11.5423
炁三口	-11.5423
校定	-11.5424
遞相	-11.5425
向北	-11.5425
司候	-11.5425
長幼	-11.5425
那堪	-11.5425
凉藥	-11.5426
去處	-11.5426
統攝	-11.5426
符一道	-11.5426
喘急	-11.5427
涎出	-11.5427
有差	-11.5427
公卿	-11.5427
四十里	-11.5427
氣神和	-11.5427
登玉清	-11.5427
神農	-11.5427
代回	-11.5427
塗上	-11.5428
團團	-11.5429
癇之爲病	-11.5429
枯木	-11.5431
詩曲	-11.5431
光滿	-11.5432
二七日	-11.5433
自然之術	-11.5434
乳母	-11.5434
少食	-11.5434
龍蛇	-11.5434
水湧	-11.5434
長史	-11.5435
真公	-11.5435
都市	-11.5435
愚蒙	-11.5436
乳上	-11.5437
餓鬼	-11.5437
金閣	-11.5437
也釋曰	-11.5438
内鼻中	-11.5439
潮熱	-11.5439
金鑪	-11.544
誰人	-11.544
際會	-11.5441
變怪	-11.5442
老氏	-11.5442
亦須	-11.5443
不可測	-11.5443
温瓊	-11.5443
應時	-11.5444
細辛乾薑	-11.5444
决斷	-11.5444
先王之	-11.5446
貧閑	-11.5448
之流	-11.5449
結積	-11.5449
朱書白	-11.545
休止	-11.5451
髮落	-11.5454
可否	-11.5454
千魔	-11.5454
紅花	-11.5455
尊貴	-11.5458
欣欣	-11.546
衣冠	-11.546
無所不治	-11.546
紫户	-11.546
惡夢	-11.5461
與衆	-11.5463
虎豹	-11.5463
也願聞	-11.5464
赤蜜	-11.5464
清潔	-11.5464
五藏之	-11.5464
陽谷	-11.5466
信步	-11.5469
風癇	-11.547
興衰	-11.547
寳文	-11.547
天使子	-11.5471
奏告	-11.5471
語録	-11.5473
胎息	-11.5473
治五勞七傷	-11.5473
尤宜	-11.5473
沈香	-11.5474
玉池	-11.5475
本帥	-11.5475
慶會	-11.5475
消災	-11.5477
賢良	-11.5478
發揚	-11.5478
玄老	-11.548
大丈夫	-11.5482
門冬	-11.5483
此文主	-11.5483
各三壯	-11.5484
賢儒	-11.5485
濃煑	-11.5487
徹底	-11.5488
失音	-11.5488
微炒	-11.5489
死喪	-11.5489
悟解	-11.5491
唱和	-11.5491
是誰	-11.5493
上中下	-11.5493
頓然	-11.5494
勸世	-11.5494
孫眞人備急千金要方卷之四十	-11.5495
當歸大黄	-11.5495
此間	-11.5496
甲子日	-11.5499
百草	-11.55
傅藥	-11.5502
發狂	-11.5502
争如	-11.5502
人也少	-11.5504
羽化	-11.5507
五痔	-11.551
裴君	-11.551
鄰里	-11.5513
各以其	-11.5515
九曰	-11.5516
定慧	-11.5517
道情	-11.5517
九泉	-11.5519
并用	-11.5521
亥文	-11.5522
亡靈	-11.5522
慧目	-11.5522
吾鄉	-11.5522
簡文	-11.5524
聲音	-11.5524
馬風子	-11.5524
政事	-11.5524
有似	-11.5524
起慈悲	-11.5525
洞真經云	-11.5525
召龍	-11.5526
遣吾	-11.5527
矣善哉善哉	-11.5527
生光	-11.5528
之義也	-11.5528
集驗方	-11.5528
師前	-11.5529
建立	-11.5529
降授	-11.5531
天河	-11.5532
一二日	-11.5533
三蟲	-11.5534
速離	-11.5534
取瘥止	-11.5534
立冬	-11.5535
醉便	-11.5536
可解	-11.5537
天下太平	-11.5538
休論	-11.5539
煎之	-11.5539
且自	-11.554
崑崙主	-11.554
同居	-11.5545
南陽	-11.5545
山谷	-11.5547
更兼	-11.5547
文武	-11.5548
豆豉	-11.5549
高尊	-11.555
入土	-11.555
北方水	-11.5552
墜下	-11.5554
布裹	-11.5556
甘草乾薑	-11.5557
鬼路	-11.5557
還鄉	-11.5557
愛慾	-11.5561
食五辛	-11.5561
通流	-11.5564
太丹	-11.5566
仰嚥	-11.5568
仍存	-11.5569
火劒	-11.557
手指	-11.557
人間事	-11.5572
精舍	-11.5573
須臾即	-11.5574
已前	-11.5578
如麻子	-11.5584
歌曰	-11.5584
賢家	-11.5585
妻兒	-11.5585
八風散	-11.5586
大陵	-11.5587
引飲	-11.5588
萬塵	-11.559
三升煑	-11.5592
桃人	-11.5593
共欺	-11.5593
雨澤	-11.5593
芎藭桂心	-11.5594
十地	-11.5595
慧本	-11.5595
水帝	-11.5596
乃如是	-11.5598
未瘥	-11.5598
不勤	-11.5603
龍蟠	-11.5604
不能語	-11.5605
執符	-11.5605
京門	-11.5606
情忘	-11.5611
當依	-11.5612
大惡	-11.5613
耳門	-11.5617
徑入	-11.5618
五丸日	-11.5618
歲已上	-11.562
山堂	-11.5621
久遠	-11.5622
上皇氣	-11.5623
柳枝	-11.5623
恩山	-11.5624
大梵	-11.5625
青紅	-11.5628
有水氣	-11.5629
精持	-11.5629
而愈	-11.5631
豈非	-11.5632
口業	-11.5633
日辰	-11.5635
青春	-11.5636
生菜	-11.5636
敬事	-11.5641
符到	-11.5641
千金翼有	-11.5641
難瘥	-11.5642
青松	-11.5642
間隔	-11.5642
手執金	-11.5644
圖書	-11.5646
透出	-11.5647
春光	-11.5648
泄氣	-11.5648
受戒	-11.5649
自然明	-11.5649
廣開	-11.5649
俱生	-11.565
水九升煑取三升	-11.565
却要	-11.565
天賜	-11.5652
至聖	-11.5652
入臟	-11.5653
安國	-11.5653
有緣	-11.5653
秋陽	-11.5657
當歸人參	-11.5657
劉先生	-11.5657
恐畏	-11.5658
神遊	-11.5659
互相	-11.5661
可惜	-11.5668
傍行	-11.5668
速速	-11.5671
臣民	-11.5673
中来經曰生	-11.5673
負於	-11.5677
贈京兆	-11.5678
受恩	-11.5679
碧虚	-11.5681
神力	-11.5685
一旦而	-11.5688
敬受	-11.5689
灾禍	-11.5689
存將	-11.5691
三部脉	-11.5693
彌天	-11.5697
玄冥	-11.5698
至極	-11.5699
相助	-11.5701
獄中	-11.5701
清流	-11.5702
常懷	-11.5706
三百六十五	-11.5707
黄黑	-11.5708
空洞之	-11.5713
無象	-11.5716
天鈞	-11.572
皆隨	-11.5721
浮黎	-11.5721
本司	-11.5721
補湯	-11.5725
長保	-11.5727
氣丈人	-11.5727
疾痛	-11.5727
因遇	-11.5733
腫毒	-11.5739
去油	-11.5739
流年	-11.5745
有五種	-11.5752
羅天	-11.5752
自滅	-11.5752
萬善	-11.5753
仙花	-11.5758
了達	-11.5762
前胡湯	-11.5764
試問	-11.5764
要妙	-11.5765
便覺	-11.5766
靈都	-11.5767
無敢	-11.5771
内發	-11.5771
亂矣	-11.5773
和藥	-11.5773
洞觀	-11.5773
共治	-11.5778
非謂	-11.5779
所以爲	-11.578
方恒山	-11.5781
心鏡	-11.5784
勿妄	-11.5785
心腎	-11.5785
育養	-11.5787
苦酒和	-11.5788
不會	-11.5793
自苦	-11.5793
四門	-11.5797
星米	-11.5799
在肩	-11.5802
速攝	-11.5806
當歸細辛	-11.5808
速現	-11.5809
未了	-11.5816
師受	-11.5817
脾脉	-11.5818
芍藥生薑	-11.5824
斗牛	-11.5832
徒自	-11.5833
自謂	-11.5837
大黄黄芩	-11.5837
出迷津	-11.5838
唇口	-11.5841
去留	-11.5842
無慮	-11.5848
長行	-11.5851
養沖和	-11.5852
隱文	-11.5857
可求	-11.5861
他方	-11.5862
者方取	-11.5862
天尊至心信禮金	-11.5863
法衣	-11.5864
良藥	-11.5866
本來無	-11.5867
所損	-11.587
玉景	-11.5872
温覆	-11.5873
火氣	-11.5875
長長	-11.5881
微細	-11.5887
鏡中	-11.5887
相看	-11.5888
箇人	-11.5892
氣精神	-11.5897
存符	-11.59
江南	-11.5901
陽輔	-11.5901
少與	-11.5902
方吴茱萸	-11.5903
同塵	-11.5906
鍊丹	-11.5906
師叔	-11.5908
寧可	-11.5914
最上	-11.5916
覺知	-11.5917
向西	-11.5918
難思	-11.5918
根白皮	-11.5927
楊柳	-11.5928
地肺	-11.5928
情性	-11.5932
鄉中	-11.5933
豈徒	-11.5934
作箇	-11.5934
只此	-11.5935
乎善哉	-11.5938
如山	-11.5938
染著	-11.594
而堅	-11.594
萬重	-11.5941
捨身	-11.5941
未免	-11.5942
知天道	-11.5943
永瘥	-11.5947
玄谷	-11.5948
莫使	-11.5952
萬物悉	-11.5954
瘟疫	-11.5955
五十五	-11.5955
唯唯然	-11.5956
教示	-11.5959
右四味㕮咀以水一斗	-11.5971
附骨	-11.5971
擒猿	-11.5974
莫問	-11.5974
神變	-11.5983
輕泄	-11.5984
水浸	-11.5986
禹餘天	-11.5987
栢葉	-11.5989
既知	-11.5995
酒吞下	-11.5996
脉細	-11.5998
疼痺	-11.6001
九變	-11.6009
忽見	-11.6011
初起	-11.6012
右九味㕮咀	-11.6014
作聲	-11.6024
右九味㕮咀以	-11.6025
哉真人	-11.6025
芎藭甘草	-11.6028
傳屍	-11.6031
晨夜	-11.6032
黒風	-11.6033
加臨	-11.6035
普度	-11.6039
雲軿	-11.604
無膿	-11.6043
皇文	-11.6044
不可救	-11.6046
茅君	-11.6046
先覺	-11.6052
隨事	-11.6052
猶自	-11.6055
二條	-11.6056
速出	-11.6062
金公	-11.6064
學道者	-11.6069
各半兩	-11.607
黒書	-11.6072
爲弟子	-11.6074
氣候	-11.6078
水漬	-11.6079
恩情	-11.608
筋脉	-11.6082
消灾	-11.6083
懈怠	-11.6089
服三十丸	-11.609
每服一升	-11.6091
升麻湯	-11.6094
梧子大	-11.6095
素問	-11.6097
内功	-11.6097
方升麻	-11.6105
鳳文	-11.6108
十六者	-11.6109
召汝	-11.611
吸呼	-11.6111
服此湯	-11.6113
凶矣	-11.6114
無端	-11.6114
河水	-11.6115
種類	-11.6117
何患	-11.6121
産乳	-11.6126
明帝	-11.6129
還知	-11.6131
以水六升煑取	-11.6137
剔開	-11.6141
司官	-11.6142
願我	-11.6145
劫數	-11.6146
嗌	-11.6152
令烊	-11.6154
望蓬萊	-11.6154
面腫	-11.6158
少小嬰孺方	-11.6158
度數	-11.616
炁入符	-11.6161
救人	-11.6161
子之言	-11.6162
發言	-11.6162
異日功成	-11.6163
商丘	-11.6164
生活	-11.6164
不衰	-11.6165
隨師	-11.6167
危證	-11.6173
亡者	-11.6173
取四升	-11.6174
温脾湯	-11.6176
煑取汁	-11.6177
爲天問事	-11.6177
常持	-11.6178
爲源行於	-11.6179
薊	-11.618
爲滎注於	-11.618
爲經入於	-11.618
爲輸過於	-11.618
脉也流於	-11.618
再拜長跪願曰	-11.618
陽起石	-11.6181
雲房	-11.6182
五香連翹湯	-11.6182
色黑	-11.6183
澤㯃	-11.6184
直日	-11.6185
豐隆	-11.6185
松蘿	-11.6186
丁卯	-11.6186
别擣	-11.6186
薺苨	-11.6186
嗌乾	-11.6186
瀟洒	-11.6186
尸厥	-11.6187
噙	-11.6187
恪	-11.6187
冬葵子	-11.6188
汾陽解	-11.6188
明彰報應	-11.6189
麩炒	-11.6189
妬乳	-11.619
丸如彈子大	-11.619
華佗	-11.619
射工	-11.6191
蕤	-11.6191
發其汗	-11.6192
面䵟	-11.6192
鼻孔中	-11.6192
泪	-11.6193
瘭疽	-11.6193
子細看	-11.6193
精精	-11.6193
麞	-11.6193
矛	-11.6193
臓	-11.6194
並皆治之	-11.6194
腦户	-11.6195
方見别卷	-11.6195
青黛	-11.6195
陽谷主	-11.6195
膊	-11.6196
訣傳來	-11.6196
齧	-11.6196
唫	-11.6196
貟將	-11.6196
洗手面	-11.6197
雯	-11.6197
隱軫	-11.6197
森森	-11.6198
腰背强	-11.6198
叩齒三十六通	-11.6198
捏	-11.6199
老病	-11.6199
手足逆冷	-11.6199
涇	-11.62
刷	-11.62
楓香	-11.62
箸	-11.6201
捜	-11.6201
搯煞文	-11.6201
恬惔	-11.6201
瘀	-11.6202
張文仲	-11.6202
朕	-11.6202
故號	-11.6202
抜	-11.6203
愊	-11.6203
本節後	-11.6203
熟艾	-11.6204
意馬心猿	-11.6204
阮	-11.6205
倪	-11.6205
旱魃	-11.6205
囂塵	-11.6205
嬰孩	-11.6205
敢有拒逆	-11.6205
韶	-11.6205
黄籙醮	-11.6206
枯竭	-11.6206
咈	-11.6206
蠻觸	-11.6206
哩囉㖫哩囉㖫	-11.6207
槲	-11.6207
華胥	-11.6207
貧者	-11.6207
以瘥爲度	-11.6207
鵠	-11.6207
籟	-11.6207
武陵春	-11.6207
桃康	-11.6208
粧點	-11.6208
寧耐	-11.6208
棹	-11.6209
犢	-11.6209
胯	-11.6209
么	-11.6209
兩筋間	-11.621
掐煞文	-11.621
漠漠	-11.621
有二種一者	-11.621
箱	-11.621
塞鬼路	-11.6211
削除罪録	-11.6211
沓	-11.6212
捩	-11.6212
廳	-11.6212
搐	-11.6212
晨夕	-11.6212
鈆丹	-11.6212
蓬壺	-11.6212
甌	-11.6212
商量	-11.6212
躔	-11.6212
不拘多少	-11.6212
靈飛六甲	-11.6212
墉	-11.6213
甄	-11.6213
綾	-11.6213
自悟	-11.6213
白蒺藜	-11.6213
遯	-11.6213
闢	-11.6213
姬	-11.6213
㨿	-11.6213
姊妹	-11.6213
渺	-11.6213
波濤	-11.6214
跌	-11.6214
要文	-11.6214
瓷	-11.6214
唏	-11.6214
廊	-11.6215
睹	-11.6215
蘧廬	-11.6215
錦飛裙	-11.6215
牓	-11.6215
西江月	-11.6215
雄黄雌黄	-11.6215
淹留	-11.6215
塞鬼路穿鬼心破鬼肚	-11.6215
拊	-11.6215
槩	-11.6215
三道行書	-11.6216
足脛	-11.6216
衿	-11.6216
虐	-11.6216
觧	-11.6216
桃枝	-11.6216
南北東西	-11.6216
少人知	-11.6216
腥羶	-11.6216
鬱單无量天	-11.6216
服一錢七	-11.6216
孜孜	-11.6217
緑軿	-11.6217
賞罰	-11.6217
灌溉	-11.6217
亂髮灰	-11.6217
河魁	-11.6217
無作無爲	-11.6217
矩	-11.6217
虔誠	-11.6217
松筠	-11.6218
紗	-11.6218
靄	-11.6218
歆	-11.6218
玉清真王	-11.6218
眺	-11.6218
鑊湯	-11.6218
袁	-11.6218
敷貼	-11.6219
分五服日三夜二	-11.6219
酒疸	-11.6219
紏	-11.6219
湧泉	-11.6219
撚	-11.6219
蠒	-11.6219
圍繞	-11.6219
霜雪	-11.6219
黒虎	-11.6219
飛行上昇	-11.6219
桃源	-11.622
究洽	-11.622
二十四生圖	-11.622
游戲	-11.622
大洞眞經	-11.622
譁	-11.622
欵	-11.6221
燈以照	-11.6221
滛	-11.6221
烜赫	-11.6221
陜右	-11.6221
四直使者	-11.6221
眉毛	-11.6222
哂	-11.6222
奔馳	-11.6222
妻妾	-11.6222
或致	-11.6222
惙	-11.6223
廛	-11.6223
膏肓	-11.6223
天尊大果	-11.6223
携笻	-11.6223
茫	-11.6223
故不敢	-11.6223
雞屎白	-11.6223
者慙愧	-11.6223
紫微夫人	-11.6224
赫奕	-11.6224
鬱單	-11.6224
勸持經	-11.6224
焕爛	-11.6224
掀	-11.6224
是爲可知	-11.6224
桶	-11.6224
褁	-11.6225
諂	-11.6225
憔悴	-11.6225
束骨	-11.6225
淡泊	-11.6226
然後能	-11.6226
武曲	-11.6226
萬道霞光	-11.6226
烏豆	-11.6227
雷斧	-11.6227
論一首	-11.6227
十洲三島	-11.6227
悼	-11.6227
這番	-11.6228
不欲飲食	-11.6228
既是	-11.6228
閉户	-11.6228
攀緣愛念	-11.6229
童子小便	-11.6229
治百病	-11.6229
咨	-11.6229
道學傳第	-11.6229
様	-11.6229
手少陽	-11.6229
擁護	-11.6229
玉陛	-11.623
二色之光	-11.623
無所忌	-11.623
各從其	-11.623
灸瘡	-11.623
穿鑿	-11.623
苞	-11.6231
急急如律令呪畢	-11.6231
歡悅	-11.6231
舞袖	-11.6231
丁巳	-11.6231
囚徒	-11.6231
父母兄弟	-11.6231
鬱儀	-11.6231
搜獲	-11.6231
旌陽	-11.6232
瑞草	-11.6232
立効	-11.6232
群魔	-11.6232
按摩	-11.6233
芝田	-11.6233
飼	-11.6233
自覺	-11.6233
秖	-11.6234
諧師當	-11.6234
榮辱	-11.6234
曲澤	-11.6234
黄書白	-11.6235
渾似	-11.6235
衂血	-11.6235
到仙鄉	-11.6236
紛華	-11.6236
瓦礫	-11.6236
泉源	-11.6236
可㤥哉可㤥哉	-11.6236
遨	-11.6236
木防己	-11.6237
翠霧	-11.6237
結金蓮	-11.6238
猛虎	-11.6238
赤脉	-11.6238
行大道	-11.6238
天文地理	-11.6239
昏昏	-11.6239
曇	-11.624
君父師	-11.624
攝唵	-11.6241
絳闕	-11.6241
初學	-11.6242
婦女	-11.6242
祈求	-11.6242
於銅器中	-11.6242
降雨	-11.6242
得壽	-11.6242
淚出	-11.6243
勿懈	-11.6244
細剉	-11.6244
任西東	-11.6245
監臨	-11.6246
玄雲	-11.6246
福禄	-11.6246
何妨	-11.6247
公休	-11.6248
顚	-11.6248
一百八十	-11.6248
無極大道	-11.6249
休誇	-11.625
何謂也然	-11.6251
醉卧	-11.6251
若道士女冠	-11.6251
上善之人	-11.6252
愛惜	-11.6252
南昌	-11.6254
千妖	-11.6254
黄蠟	-11.6254
容儀	-11.6255
大概	-11.6255
整理	-11.6255
拜禮	-11.6256
年壽	-11.6257
雲腴	-11.6258
反胃	-11.6258
看經	-11.6259
方隅	-11.6259
五廕	-11.6259
樓臺	-11.6262
邪淫	-11.6263
拍手	-11.6264
馬刀	-11.6265
護持	-11.6265
道德之君	-11.6266
飢渴	-11.6267
煅鍊	-11.6269
寂靜	-11.6269
治愈者	-11.6269
朝儀	-11.627
行之九年	-11.627
興廢	-11.6271
尤妙	-11.6271
瓦器	-11.6272
四畔	-11.6272
善言	-11.6273
惡核	-11.6274
飛烏	-11.6274
太霞	-11.6274
切切	-11.6274
珍物	-11.6274
劫劫	-11.6276
遣汝	-11.6277
誦讀	-11.6278
誰識	-11.6278
人參白术	-11.6279
流芳	-11.6279
殊不知	-11.6279
畢便	-11.6281
玉輿	-11.6281
大一枚	-11.6283
讀之	-11.6284
小兒驚癇	-11.6284
右六味㕮咀以水一斗	-11.6287
奪命	-11.6287
希微	-11.6287
不羨	-11.6288
成大藥	-11.6288
偶然	-11.6288
閑愁	-11.6288
四時春	-11.6288
啓請	-11.6289
無始	-11.629
道眼開	-11.6292
魚肉	-11.6292
仙儔	-11.6294
餅子	-11.6294
令净	-11.6295
反折	-11.6296
高眠	-11.6296
妙通	-11.6296
三惡道	-11.6296
詔書	-11.6296
道學當	-11.6298
發散	-11.6299
其所爲	-11.6301
丑未	-11.6301
温疫	-11.6302
向人間	-11.6302
長七寸	-11.6303
洞映	-11.6303
亭長	-11.6304
拔度	-11.6304
潔白	-11.6305
威力	-11.6305
夜半時	-11.6307
在頭上	-11.6307
赴吾	-11.6309
飲一升	-11.6309
棄家	-11.631
戒真人	-11.6311
志念	-11.6311
欺其上	-11.6312
横骨	-11.6313
愚頑	-11.6316
之君也	-11.6317
至微	-11.6317
寥天	-11.6317
根深	-11.6317
高吟	-11.6318
必然	-11.6318
方附子	-11.6319
在人間	-11.632
金格	-11.6322
安康	-11.6323
腋下腫	-11.6325
交帶	-11.6326
賢愚	-11.6326
道門	-11.6329
寂然天	-11.6329
動寂	-11.633
古者帝王	-11.6332
誰信	-11.6333
何疑	-11.6335
修此	-11.6336
斷制	-11.6338
相資	-11.6338
漸覺	-11.6338
者歟	-11.6338
敬奉	-11.6338
白銀	-11.6339
以類相	-11.6339
好醋	-11.6341
明達	-11.6343
一番	-11.6344
高晨	-11.6345
聞早	-11.6345
知吉凶	-11.6346
相催	-11.6347
釀酒	-11.6347
宿對	-11.6349
喻如	-11.6349
叢中	-11.635
降魔	-11.635
靈峰	-11.6353
流珠	-11.6354
祕字	-11.6354
浮遊	-11.6355
死尸	-11.6357
十四卷	-11.6358
六百	-11.636
太無	-11.636
衆魔	-11.6361
毋令	-11.6361
内癰	-11.6361
攪令	-11.6362
大神言是	-11.6362
青羊	-11.6363
閉藏	-11.6363
鍊形	-11.6363
鬼敗	-11.6363
玄丘	-11.6364
兆形	-11.6365
界内	-11.6366
也此者	-11.6366
不寧	-11.6367
腦後	-11.637
魔軍	-11.637
飲兒	-11.637
不殊	-11.6371
清河	-11.6372
敢問	-11.6372
要識	-11.6373
勿忘	-11.6374
無常處	-11.6376
十一日	-11.6376
九曜	-11.6376
不雜	-11.6377
免教	-11.6377
飛走	-11.6378
多汗	-11.6382
醫藥	-11.6383
米泔	-11.6385
湯泡	-11.6385
世之人	-11.6385
昇度	-11.6385
利害	-11.6393
室家	-11.6395
樂希夷	-11.6398
道院	-11.6401
七壯又灸	-11.6402
迴還	-11.6404
生葱	-11.6406
喉咽	-11.6407
厥氣	-11.6408
欺人	-11.6408
也欲得	-11.641
聖功	-11.6411
迷亂	-11.6411
皓靈	-11.6412
救物	-11.6413
自恣	-11.6413
乾薑附子	-11.6414
百毒	-11.6414
脾病	-11.6415
祕符	-11.6417
加至二七	-11.642
雲軒	-11.6423
不歇	-11.6423
九遍	-11.6424
亡人	-11.6428
騰身	-11.6428
多端	-11.6429
既悟	-11.643
雲霄	-11.643
降福	-11.6431
蜜煎	-11.6432
靈篇	-11.6434
衰盛	-11.6434
久寒	-11.6434
加至四十丸	-11.6435
記傳	-11.6435
治産後血	-11.6437
也頌曰	-11.6438
麥門冬湯	-11.6438
乾則易	-11.644
情實	-11.6442
爲誰	-11.6442
萊州	-11.6448
皮囊	-11.6448
歸于	-11.6448
要訣	-11.6448
些子	-11.6449
氣係	-11.6453
耀靈	-11.6454
勞冷	-11.6456
彈指	-11.6456
竒文	-11.6458
道俗	-11.6458
天與地	-11.6462
白膏	-11.6462
合隂陽	-11.6462
可不愼乎	-11.6463
即愈又方	-11.6464
水泉	-11.6466
處士	-11.6467
服符	-11.6468
房事	-11.6471
脾脾	-11.6472
入妙	-11.6476
金壇	-11.6482
治風虚	-11.6484
沙界	-11.6485
虚弱	-11.6485
七千	-11.6485
即定	-11.6486
對月	-11.6487
景致	-11.6488
蓋因	-11.6489
土木	-11.6489
内教	-11.6491
五根	-11.6492
意想	-11.6495
如棗	-11.6496
務令	-11.6498
生地黄湯	-11.6501
金房	-11.6502
竈上	-11.6504
修行好	-11.6505
度明	-11.6508
明證	-11.6509
庶人	-11.651
七粒	-11.6512
九章	-11.6512
猶在	-11.6515
火候	-11.6516
病證	-11.6517
之所致也	-11.6518
爲末和	-11.6518
相關	-11.652
萬帝	-11.6524
爲天使	-11.6528
愛戀	-11.6528
是名爲	-11.6529
羊髓	-11.6531
贈道友	-11.6531
不得其人	-11.6532
流星	-11.6533
大帥	-11.6533
密室	-11.6535
從教	-11.6541
三階	-11.6543
修養	-11.6547
四種	-11.6547
本初	-11.6549
鹿肉	-11.655
粱米	-11.655
乾薑細辛	-11.6551
信心	-11.6555
右二十味爲末	-11.6556
無不瘥	-11.6558
職當	-11.6559
耳鼻	-11.6559
剔入	-11.6559
失正	-11.6559
脉實	-11.656
行孝	-11.6561
第二十一	-11.6569
外科	-11.6571
要須	-11.6578
燈心	-11.6579
不能動	-11.658
飛華	-11.6582
光圓	-11.6583
符吏	-11.6587
水輪	-11.659
發泄	-11.6594
由斯	-11.6597
外覓	-11.6597
命根	-11.6599
有些	-11.6603
便瘥	-11.6609
而弗	-11.6611
垂光	-11.6616
死不治	-11.6618
遂使	-11.6626
兩臂	-11.6628
宜各	-11.6628
平和	-11.6631
居止	-11.6632
不礙	-11.6632
仙伯	-11.6634
餘毒	-11.6636
散花	-11.6637
勞氣	-11.664
煑取五	-11.664
六親	-11.6641
盡力	-11.6641
助帝王	-11.6644
寳光	-11.6646
勤心	-11.6646
引小腹	-11.6651
便做	-11.6653
法敗	-11.6654
腰中	-11.6654
徒衆	-11.6655
真慈	-11.6656
塗之治	-11.6658
之處也	-11.6659
松間	-11.6661
明證也	-11.6663
贈趙	-11.6665
煑取二升半	-11.6669
奏事	-11.6674
伏地	-11.6675
腹中熱	-11.668
虛寒	-11.6681
金錢	-11.6683
治女人	-11.6685
玉冠	-11.6687
得趣	-11.6687
勞苦	-11.6692
天地神靈	-11.6692
腎病	-11.6692
如是者	-11.6694
步煙霞	-11.6694
年限	-11.6694
大迎	-11.6696
如醉	-11.6699
家鄉	-11.6701
歷遍	-11.6704
丈人太	-11.6705
急須	-11.6705
有子孫	-11.671
萬疊	-11.6714
急降	-11.6714
勸衆	-11.6716
差别	-11.6716
得之者	-11.672
諸證	-11.6723
出膿	-11.6723
城中	-11.6725
仁賢	-11.6726
陰公	-11.6728
李大乘	-11.6732
封於	-11.6734
氣海	-11.6734
不知稍加	-11.6736
煆	-11.6738
魓𩳐魒	-11.6739
藥餌	-11.6746
此得之	-11.6748
已得道	-11.6749
妄說	-11.6751
簿録	-11.6751
浩然	-11.6766
已定	-11.6768
知其意	-11.6769
右四味㕮咀以水八升	-11.6774
數月	-11.6776
吾教	-11.6777
背道	-11.678
不廢	-11.6783
汝身	-11.6784
舌乾	-11.6785
火帝	-11.6787
兩膝	-11.6789
肩上	-11.6793
擒捉	-11.6795
細微	-11.6802
内照	-11.6806
世務	-11.6809
萬遍	-11.681
永除	-11.681
春分	-11.6813
愈矣	-11.6814
青色	-11.6818
方苦參	-11.6818
四五日	-11.6821
甚多	-11.6822
更始	-11.6824
直視	-11.6831
懷抱	-11.6831
遊走	-11.6832
那得	-11.6833
名醫	-11.6835
元洞	-11.6837
治發背	-11.6838
清居	-11.6842
和如泥	-11.6843
還本	-11.6851
變色	-11.6854
三光照	-11.6855
一十五	-11.6855
衣物	-11.6859
竝無	-11.686
終是	-11.6866
行此道	-11.6869
第十九	-11.6875
躍出	-11.6876
益智	-11.6876
之極也	-11.6876
九鳳	-11.6878
服十丸	-11.6878
帝主	-11.6879
入海	-11.6881
億萬里	-11.6882
治瘧	-11.6882
洞虛	-11.6885
洞庭	-11.6888
醋湯	-11.6888
本來眞	-11.689
重陽眞人	-11.6894
同遊	-11.6895
高清	-11.6899
救世	-11.6901
治丈夫	-11.6902
扶摇	-11.6909
孝心	-11.6909
北元	-11.691
方竹瀝	-11.6913
傷肝	-11.6915
滄	-11.6917
帝王得	-11.692
海島	-11.6921
投眞	-11.6921
色欲	-11.6939
煑取二升半分三服	-11.6939
澄心	-11.6944
奏聞	-11.6944
惡言	-11.6945
惡縁	-11.6946
甕	-11.6948
思善	-11.6955
公山	-11.6958
興盛	-11.6959
芝苗	-11.6963
爲末傅之	-11.6963
悉由	-11.6968
酒和服	-11.697
共議	-11.6971
者一者	-11.6972
服之良	-11.6974
令香	-11.6976
諸蟲	-11.6984
水裏	-11.6984
地脉	-11.6985
慈仁	-11.6985
服七丸	-11.6986
招靈	-11.6988
分爲三	-11.6988
以酢漿	-11.6992
他非	-11.6993
半寸	-11.6996
之人自	-11.6996
達人	-11.6997
夢魂	-11.7002
實熱也	-11.7002
不得語	-11.7006
駕雲	-11.7009
陰符	-11.7015
之内有	-11.7018
不墮	-11.7022
常守	-11.7023
靈虚	-11.7023
此由	-11.7023
爲一服	-11.7025
名香	-11.7027
有竒	-11.7037
年老	-11.7041
笑指	-11.7042
渘	-11.7049
雷轟	-11.7051
來呈	-11.7054
糵	-11.7055
駕龍	-11.7056
各二十	-11.7057
米添	-11.7058
味甘平無毒	-11.7058
殭蠶	-11.7064
雷煞	-11.7065
聖明	-11.7065
血蝎	-11.7066
藥性	-11.7067
宜當	-11.7067
嘶	-11.7068
踢	-11.7068
鬼道	-11.7069
接物	-11.7071
痕	-11.7072
肪	-11.7072
䧺	-11.7075
苓	-11.7075
澤漆	-11.7076
小青龍湯	-11.7078
滿腹	-11.7078
一縣	-11.7078
矣請問	-11.7079
肺臟	-11.708
大灾	-11.708
痰涎	-11.7081
𥿄朱書	-11.7084
於斯	-11.7085
生肉膏	-11.7089
菌	-11.709
猬皮	-11.7092
問疑	-11.7092
賛	-11.7093
五苓散	-11.7094
冬瓜仁	-11.7094
暘	-11.7094
口噤不開	-11.7094
骨碎補	-11.7095
美酒	-11.7095
攪匀	-11.7096
始得	-11.7097
雁	-11.7097
躄	-11.7097
廉貞	-11.7099
堅痛	-11.7099
以鼻吸	-11.7099
囓	-11.7099
攪令相得	-11.7099
燔	-11.71
⬤	-11.71
頭目眩	-11.7102
神霄真王	-11.7102
齒齗	-11.7102
大便不利	-11.7102
捌	-11.7102
荏子	-11.7103
虱	-11.7103
四肢煩疼	-11.7103
同會	-11.7103
钁	-11.7104
挨	-11.7104
懊憹	-11.7104
款冬花	-11.7104
後一寸半	-11.7104
迮	-11.7105
癭瘤	-11.7105
顴	-11.7105
篦	-11.7105
決	-11.7105
竪	-11.7106
不可屈伸	-11.7106
蓐	-11.7106
右十二味㕮咀以水一斗二升	-11.7106
右㕮咀每服四錢	-11.7106
埃	-11.7106
山梔子	-11.7107
猪肪	-11.7107
蓍	-11.7107
符到奉行	-11.7107
七言絕句	-11.7107
咽腫	-11.7107
夜夢	-11.7108
半身不遂	-11.7108
萍	-11.7108
瞥	-11.7108
内下部中	-11.7108
鮓	-11.7108
蛇蛻	-11.7108
九月九日	-11.7109
吸吸少氣	-11.7109
藿	-11.7109
皁	-11.7109
冢	-11.711
淨明忠孝	-11.711
筌	-11.711
瘠	-11.711
勃勃	-11.711
骰	-11.711
右九味爲末	-11.7111
列缺主	-11.7111
養家苦	-11.7111
生冷酢滑	-11.7111
䏶	-11.7111
箍	-11.7111
相去如人行十里久	-11.7112
親傳	-11.7112
卷栢	-11.7112
淋瀝	-11.7112
暎	-11.7112
伐廟	-11.7112
豁落七元	-11.7113
擎拳	-11.7113
妙行眞人	-11.7113
呌	-11.7114
留人門	-11.7114
電掣	-11.7115
摺	-11.7115
煩疼	-11.7115
頰車	-11.7116
㖿	-11.7116
萊	-11.7116
訾	-11.7116
靉靆	-11.7116
落魄婪躭	-11.7116
驪	-11.7116
溉濟	-11.7116
右爲末每服二錢	-11.7116
椽	-11.7116
高聖帝君曰	-11.7116
湊	-11.7117
嵐	-11.7117
虵	-11.7117
惚	-11.7117
鎔	-11.7117
𨼆	-11.7117
葱豉	-11.7117
整頓	-11.7117
誣	-11.7117
拈弄	-11.7118
廵	-11.7118
寛	-11.7118
陞	-11.7118
災害	-11.7119
濱	-11.7119
丫髻	-11.7119
西江月裏	-11.7119
追陪	-11.7119
竺	-11.7119
以東流水	-11.7119
浮名浮利	-11.712
驅役	-11.712
鍾乳粉	-11.712
懺	-11.712
飲食不消	-11.712
仔細	-11.712
擺脫	-11.7121
諸天諸地	-11.7121
範軒	-11.7121
龍膽湯	-11.7121
内補散	-11.7121
童稚	-11.7121
炳	-11.7122
寮	-11.7122
醖	-11.7122
庚寅	-11.7122
枯朽	-11.7122
波瀾	-11.7123
邃	-11.7123
疑事	-11.7123
浩蕩	-11.7123
汾	-11.7123
删	-11.7123
鳴天鼓	-11.7123
入室燒香	-11.7123
狐狸	-11.7123
催促	-11.7124
行住坐卧	-11.7124
十二重樓	-11.7124
鞍	-11.7124
摧殘	-11.7124
之例是也	-11.7124
搜己過	-11.7124
黄柏	-11.7124
三元八會	-11.7125
怛	-11.7125
心猿意馬	-11.7125
揉	-11.7125
滚滚	-11.7125
久留	-11.7125
莖葉	-11.7125
萬派	-11.7125
硯	-11.7125
瘢	-11.7125
鷄鳴	-11.7126
明燈誦經思眞行道求仙上解七	-11.7126
翟	-11.7126
酒色財氣	-11.7126
周而復始	-11.7126
福祚	-11.7126
耻	-11.7126
舄	-11.7126
四肢不舉	-11.7126
礦	-11.7126
蕭蕭	-11.7126
裊裊	-11.7126
滄溟	-11.7126
天地之心意	-11.7126
艱	-11.7127
棚	-11.7127
無盡藏	-11.7127
罪不除也	-11.7127
復用前韻	-11.7127
慰	-11.7127
迎仙客	-11.7127
城隍社令	-11.7127
减半内	-11.7128
紀綱	-11.7128
娥	-11.7128
上腭	-11.7128
妙行真人	-11.7128
惰	-11.7128
稟	-11.7128
枯槁	-11.7128
兹蓋恭遇某	-11.7128
太素三元君	-11.7128
其支者從	-11.7128
令汁盡	-11.7129
闡揚	-11.7129
崆峒	-11.7129
懷妊	-11.7129
覆燾	-11.7129
命侍女	-11.7129
梵寳天	-11.7129
痊安	-11.7129
浴兒	-11.7129
肋間	-11.7129
流曳	-11.7129
三九素語	-11.7129
闚	-11.7129
巿	-11.7129
灣	-11.713
無夢令	-11.713
姑姑	-11.713
九老仙都	-11.713
關令尹喜	-11.713
北嶽	-11.7131
寶鑑	-11.7131
沖融	-11.7131
魑	-11.7131
以雞子白和	-11.7131
仞	-11.7131
臨江仙	-11.7131
世態	-11.7132
葛藤	-11.7132
追伐	-11.7132
悒	-11.7132
日月五星	-11.7132
七十二候	-11.7132
𩲓	-11.7132
肋端	-11.7133
彀	-11.7133
勞倦	-11.7133
太尉	-11.7134
榭	-11.7134
賾	-11.7134
咀嚼	-11.7134
躋攀	-11.7134
朦	-11.7135
億兆	-11.7135
摧傾	-11.7135
坐在立亡	-11.7135
孤雲野鶴	-11.7135
絲毫	-11.7135
一粒金丹	-11.7135
到如今	-11.7135
樂清貧	-11.7135
乳哺	-11.7135
帷	-11.7136
伫	-11.7136
地水火風	-11.7136
内耳中	-11.7136
纛	-11.7136
尺寸	-11.7136
貝子	-11.7136
骨疽	-11.7136
堤	-11.7136
夢寐	-11.7137
迢迢	-11.7137
繩墨	-11.7137
青書白	-11.7137
慈孝	-11.7137
無漏果	-11.7137
不祐	-11.7138
捷疾	-11.7138
媒	-11.7138
殃咎	-11.7139
叵	-11.7139
然後書符	-11.7139
棲霞	-11.7139
春花秋月	-11.714
遭逢	-11.714
洪崖	-11.714
增減	-11.714
大洞玉經	-11.714
否泰	-11.714
天上地下	-11.714
芋栗	-11.714
河洛	-11.7141
趙公明	-11.7141
都督	-11.7141
骸骨	-11.7141
軻	-11.7142
九河	-11.7142
鳧	-11.7142
涓子	-11.7142
寂淡	-11.7142
書白繒高聖帝君曰	-11.7142
此義	-11.7142
瞻視	-11.7142
諒	-11.7142
絳宮	-11.7143
嘿	-11.7143
展手	-11.7143
簷	-11.7143
洪災	-11.7144
桑葉	-11.7145
胛	-11.7146
遲遲	-11.7146
堪嘆	-11.7146
金闕帝君	-11.7146
消魔經	-11.7147
周匝	-11.7147
直饒	-11.7147
下手遲	-11.7147
齎信	-11.7147
總統	-11.7148
寶鼎	-11.7148
慢慢	-11.7148
彫	-11.7148
握固	-11.7148
穢慢	-11.7149
相陪	-11.7149
胷痛	-11.7149
趙州	-11.7149
敗壞	-11.7149
笋	-11.7149
役使鬼神	-11.715
英雄	-11.715
寳冠衣	-11.715
踊	-11.715
酆	-11.715
肘後云	-11.7151
正一經云	-11.7152
豫知	-11.7153
祭酒	-11.7154
罔極	-11.7154
四隅	-11.7154
朱顔	-11.7155
西靈	-11.7155
嚴凝	-11.7155
剪除	-11.7155
體義者	-11.7155
溺血	-11.7157
關格	-11.7157
牢固	-11.7158
都綂	-11.7159
不相干	-11.7159
依憑	-11.716
官桂	-11.716
鹿皮	-11.7162
太極真人曰修靈寳飛行三界之道當	-11.7162
相尅賊	-11.7162
君臣民	-11.7162
根芽	-11.7162
到岸	-11.7162
千般	-11.7164
灌注	-11.7164
從先身	-11.7165
益友	-11.7167
臨産	-11.7169
石藥	-11.7169
團雲	-11.717
紫詔	-11.717
穢濁	-11.7171
無道之人	-11.7172
紫霞	-11.7172
推窮	-11.7173
鐵柱	-11.7173
蕭然	-11.7174
進飲食	-11.7176
骨碎	-11.7176
捨俗	-11.7177
童蒙	-11.7178
萬徧	-11.7178
羊屎	-11.7179
張天師	-11.7179
丹陽先生	-11.718
八荒	-11.7181
化工	-11.7182
厲風	-11.7182
甲辰	-11.7182
流後生	-11.7182
誓願	-11.7183
興平	-11.7183
成道果	-11.7184
元綱	-11.7184
後廉	-11.7184
者純	-11.7184
焚燒	-11.7185
但可	-11.7185
歲歲	-11.7186
清泠	-11.7186
只恐	-11.7187
冤家	-11.7187
停住	-11.7188
神仙玉女	-11.7189
萬愆	-11.719
鍾離	-11.719
程頭	-11.7192
存焉	-11.7192
奸邪	-11.7193
香潔	-11.7193
擣汁	-11.7194
摇頭	-11.7196
龍齒	-11.7196
女冠	-11.7196
奉迎	-11.7197
結金丹	-11.7197
老松	-11.7198
隔絶	-11.7198
石鹽	-11.7198
夕陽	-11.7199
映照	-11.7199
疏記	-11.7199
六味	-11.7199
指撮	-11.72
長春宫	-11.72
温藥	-11.7201
公案	-11.7201
不耐	-11.7202
仰視	-11.7202
右十八味㕮咀	-11.7203
雷速發	-11.7203
雲菴	-11.7204
無妨	-11.7207
五百里	-11.7208
入髮際	-11.7209
殊無	-11.721
信效	-11.721
雷使者	-11.7211
覆蓋	-11.7212
靈寳經云	-11.7212
巨門	-11.7215
瘡孔	-11.7215
八柱	-11.7216
帝庭	-11.7217
手小指	-11.7217
氣職主	-11.7217
玉殿	-11.7219
法具	-11.7221
歎曰	-11.7222
德具足	-11.7223
刺痛	-11.7224
右十八味	-11.7224
傷折	-11.7224
帝鄉	-11.7225
謝罪	-11.7225
故今得	-11.7226
雲牙	-11.7227
幽魂	-11.7227
爲種民	-11.7228
令患人	-11.7231
乏氣	-11.7231
難療	-11.7232
慈愛	-11.7234
黃帝	-11.7236
鍾山	-11.7243
玉蓮	-11.7243
相伴	-11.7243
夭死	-11.7244
閻老	-11.7244
大神舟	-11.7244
四十日	-11.7244
夢裏	-11.7245
久病	-11.7247
位號	-11.7248
臺上	-11.7249
魚龍	-11.725
出火光	-11.7251
調風雨	-11.7251
積冷	-11.7251
士衆	-11.7251
肥白	-11.7252
隨步	-11.7253
壯數	-11.7253
九條	-11.7254
入玄門	-11.7255
碧玉	-11.7255
曲直	-11.7255
赤髮	-11.7257
獲福	-11.7258
自圓成	-11.7259
宿勿食	-11.726
斯須	-11.7261
無可復	-11.7261
暑氣	-11.7262
昌陽	-11.7264
温温	-11.7264
携去	-11.7265
坦蕩逍遥	-11.7267
降真炁	-11.7269
忠良	-11.7273
直指	-11.7274
御史	-11.7275
朱衣	-11.7276
平正	-11.7278
觀空	-11.7278
金籙	-11.7279
五般	-11.7284
警世	-11.7285
血凝	-11.7285
積感	-11.729
治下篩先食	-11.729
走骨	-11.7291
瘥乃止	-11.7295
下血不止	-11.7298
善友	-11.7299
門庭	-11.73
以火炙	-11.7304
常清浄	-11.7307
正此也	-11.7307
能奉	-11.7307
右二味先	-11.7308
天下之事	-11.7308
金章	-11.7309
洗藥	-11.731
遵奉	-11.7311
守護	-11.7312
至日中	-11.7313
隂雷	-11.7313
方竹葉	-11.7313
狂邪	-11.7319
大魔王	-11.7319
作醮	-11.732
雷章	-11.7321
相繼	-11.7325
後一寸	-11.7329
南面	-11.7331
周遊	-11.7331
人屎	-11.7332
與丹陽	-11.7333
取七升	-11.7333
百福	-11.7334
煑取四升去滓	-11.7334
小草	-11.7335
目録	-11.7338
未斷	-11.734
破戒	-11.7341
辛君	-11.7341
證候	-11.7342
不見火	-11.7342
爲人君	-11.7346
端首	-11.7346
提起	-11.7348
不識人	-11.7348
紫㣲大帝	-11.7353
己未	-11.7353
爭知	-11.7356
又詠	-11.7357
開圖	-11.7358
察其	-11.7359
流血	-11.736
爲貴人	-11.7363
水五升煑取二升	-11.7364
蒼天	-11.7365
怎知	-11.7367
老弱	-11.7368
觀察	-11.7369
信向	-11.7371
能行此	-11.7372
眼目	-11.7372
風輪	-11.7374
酒熟	-11.7382
傅瘡	-11.7383
附子桂心	-11.7386
玉府	-11.7388
開皇	-11.7394
黄帝曰	-11.7394
坐功	-11.7394
志願	-11.7398
館主	-11.74
玉清天中	-11.7401
幸有	-11.7402
勑字	-11.7403
眠卧	-11.7403
神翁	-11.7403
萬品	-11.741
宻呪	-11.7412
四野	-11.7412
疫癘	-11.7414
火府	-11.7414
頑痺	-11.7415
不伸	-11.7416
小便澀	-11.7416
天下之至	-11.7419
游仙	-11.7423
真誥第	-11.7424
無愆	-11.7425
假使	-11.7426
十乘	-11.7427
大綱	-11.7429
心機	-11.7429
巳文	-11.7432
必且	-11.7434
億億	-11.7435
敕令	-11.7441
文曲	-11.7441
正宗	-11.7443
莫要	-11.7447
損處	-11.7449
何以知	-11.7454
入法門	-11.7456
勿絶	-11.7456
后土	-11.7457
去滓温服	-11.7457
雜仙	-11.7458
不敢不敢	-11.7458
自然之道	-11.7459
天麻	-11.746
示教	-11.7462
十萬	-11.7462
陽臺	-11.7463
神靈所	-11.7465
行功圓	-11.7465
也所以然者	-11.7466
塵俗	-11.7466
救療	-11.747
限到	-11.7472
神氣靈	-11.7474
膈中	-11.7479
空見	-11.7482
十七者	-11.7489
玄奥	-11.7489
住持	-11.7491
一尺二寸	-11.7496
從鼻	-11.7496
殺害	-11.7497
觀自在	-11.7498
眞境	-11.75
身腫	-11.75
擣絞取汁	-11.7501
胃反	-11.7502
漱口	-11.7504
可傳	-11.7508
真僞	-11.7508
洗之又方	-11.7515
教公	-11.7515
隨意所	-11.7517
高功	-11.7519
不可用也	-11.752
四物湯	-11.7521
在目前	-11.7521
其本也	-11.7521
以蜜和	-11.7521
焉能	-11.7522
先生韻	-11.7528
言事	-11.7529
受籙	-11.753
文舉	-11.7531
東壁	-11.7535
怒喜	-11.7542
百物	-11.7544
分明是	-11.7548
年七十	-11.7549
半夜	-11.755
腫處	-11.7556
何有不	-11.7557
登山	-11.7562
善忘	-11.7568
功業	-11.758
無染著	-11.7586
以水三升煑	-11.7587
雖曰	-11.7588
手中指	-11.7589
斗柄	-11.759
于後	-11.7591
碧桃	-11.7592
卒暴	-11.7593
壇所	-11.7599
亦可用	-11.7602
觸犯	-11.7603
斯言	-11.7604
達本	-11.7611
天地之道	-11.7611
千山	-11.7615
覺照	-11.7619
一翁	-11.7626
肝肝	-11.7629
終南山	-11.7635
賜我	-11.7636
空腹服	-11.7639
不忍	-11.7651
北方黑	-11.7651
生薑半夏	-11.7651
速悟	-11.7652
高尚	-11.7655
轉增	-11.7656
其子孫	-11.7656
㕮咀以水五升煑取二升	-11.7657
此際	-11.7658
吒娑訶	-11.766
登高	-11.7662
以何知	-11.7664
罪名	-11.7666
粱	-11.7668
利物	-11.767
口相傳	-11.7672
不能制	-11.7673
人人自	-11.7673
横天	-11.7683
明晨	-11.7685
即瘥又方	-11.7686
攝魔	-11.7689
養老	-11.769
般運	-11.7694
葛根湯	-11.7702
仙女	-11.7702
花綻	-11.7703
自改	-11.7704
氣脹	-11.7704
上青霄	-11.7704
屋上	-11.7717
相感	-11.772
洗手	-11.7724
萬兵	-11.7724
相剋	-11.7725
京兆府	-11.7732
飲醉	-11.7736
附子細辛	-11.7741
虛損	-11.7741
傳付	-11.7747
慧照	-11.7748
耶然	-11.7748
異香	-11.7754
所行罪負	-11.7759
傅瘡上	-11.7765
神龜	-11.7766
知多少	-11.7766
黄耆芍藥	-11.7767
快利	-11.7773
與此方	-11.7777
求請	-11.778
有功者	-11.7785
入中宫	-11.7788
長安道	-11.7791
本草	-11.7792
野雲	-11.7794
取二升去滓	-11.7794
至十丸	-11.7795
傷害	-11.7804
蜀椒乾薑	-11.7804
妙音	-11.7814
順善	-11.7814
隂斗	-11.7821
以給	-11.7823
在左右	-11.7826
何足	-11.7829
要德	-11.7834
騰雲	-11.7834
辟邪	-11.7835
臨月	-11.7839
以水一斗二升先煑	-11.784
坐看	-11.7846
人之所不	-11.7847
墮地	-11.7849
終歸	-11.7858
退道	-11.7867
天之法	-11.7869
諸雜	-11.7869
特地	-11.787
得爲人	-11.787
百步	-11.788
卧不安	-11.7886
只見	-11.7896
思想	-11.7896
在腹中	-11.7913
草藥	-11.7913
三十八	-11.7917
研窮	-11.7922
舉目	-11.7923
以水七升煑	-11.7928
脚疼	-11.7935
領兵	-11.7941
吾所以	-11.7941
細末	-11.7942
附子乾薑	-11.7944
通徹	-11.795
斗罡	-11.7965
酒醉	-11.7975
聖文	-11.7976
鍊度	-11.7979
手提	-11.7979
響相應	-11.7987
人畜	-11.7992
父母生	-11.7996
青蓮池上客	-11.8006
元首	-11.8007
豹	-11.801
眞活計	-11.8013
神秀	-11.8019
機宜	-11.8027
飄逸	-11.8028
無異也	-11.8035
刑殺	-11.8035
米飲下	-11.8043
平無毒主	-11.8044
談語	-11.8046
爲細末鍊蜜	-11.8046
無生滅	-11.8047
九霞	-11.8053
唵吽吒	-11.8059
玉清宫	-11.8059
緑靴	-11.8061
清净	-11.8061
對齋	-11.8062
養胎	-11.8064
牖	-11.8065
乾薑茯苓	-11.8067
陽陵泉	-11.8067
震地	-11.8072
相引痛	-11.8072
米飲調下	-11.8072
照鏡	-11.8072
肉傷人神氣	-11.8073
伏魔	-11.8075
鬾	-11.8076
百壯三報	-11.8077
羊蹄根	-11.8078
雲霓	-11.8078
痘	-11.8078
濼	-11.8079
滅煙消	-11.8081
𩵄	-11.8082
輟	-11.8082
小腸腑	-11.8083
烏喙	-11.8084
者免内衆	-11.8085
凝水石	-11.8086
肝肺	-11.8086
籙上清太上	-11.8086
牛角䚡	-11.8088
蜀漆	-11.8089
平濇無毒	-11.809
販	-11.809
外境	-11.809
勿令泄氣	-11.8091
慳	-11.8091
以酒五升	-11.8091
三沸去滓	-11.8091
靨	-11.8092
一兩十	-11.8093
仙童玉女	-11.8093
糝	-11.8093
氣不調	-11.8094
輕身益氣	-11.8094
治月經不通	-11.8094
蜂窠	-11.8094
黄芪	-11.8094
㹠	-11.8094
白堊	-11.8095
僵仆	-11.8097
侗	-11.8097
炬	-11.8098
巢源	-11.8098
烙	-11.8099
伶	-11.8099
濕𧏾	-11.8099
魑魅	-11.8099
日再夜一	-11.8099
黄茋	-11.81
澹澹	-11.81
紫荆皮	-11.81
心胸	-11.81
須延天	-11.8102
俛	-11.8103
青葙子	-11.8103
瓮	-11.8103
脫肛	-11.8104
肩髃	-11.8104
一顆明珠	-11.8104
北斗七元	-11.8104
挼	-11.8105
咜	-11.8105
碧嶂	-11.8105
閴	-11.8105
蘇合香	-11.8105
醫所不治	-11.8106
右二十三味	-11.8106
汨	-11.8106
心腹絞痛	-11.8106
蹇	-11.8107
雚蘆	-11.8107
得逍遥	-11.8107
司農	-11.8107
戰掉	-11.8107
大唐陸海羽客王懸河修	-11.8108
虹霓	-11.8108
膂	-11.8109
陜	-11.8109
闘	-11.8109
雞肶胵	-11.8109
瘳	-11.8109
頭痛壯熱	-11.8109
齒根	-11.811
襄	-11.811
運明天尊至心信禮	-11.811
以水二升煑取一升	-11.8111
飲酒食肉	-11.8111
如指大	-11.8111
干戈	-11.8111
瑰	-11.8111
銅鏡鼻	-11.8112
叮嚀	-11.8112
赴蓬莊	-11.8112
盼	-11.8112
訖自下	-11.8112
浸淫	-11.8113
藏頭拆字	-11.8113
杖屨	-11.8113
劾	-11.8113
破傷風	-11.8113
犀	-11.8114
瓠	-11.8114
小指次指	-11.8114
岐伯曰	-11.8114
芬	-11.8114
不忠不孝	-11.8114
忿忿	-11.8114
聽予勸	-11.8114
煎令可丸	-11.8115
撻	-11.8115
佃	-11.8115
旭	-11.8115
兖	-11.8115
月水不利	-11.8115
悉主之方	-11.8115
靂	-11.8115
勞宫主	-11.8115
以意消息	-11.8116
如蟲行	-11.8116
摭	-11.8116
艾炷	-11.8116
南海	-11.8116
𤓰	-11.8116
捉祟	-11.8116
孝悌	-11.8116
滂	-11.8116
内外二衆	-11.8117
令極熱	-11.8117
獰	-11.8117
鬢髮	-11.8117
以詩贈之	-11.8117
千乘萬騎	-11.8117
𤮴	-11.8117
哺乳	-11.8117
癲癇	-11.8117
蛙	-11.8117
嗇	-11.8118
趍	-11.8118
處也又云	-11.8118
可得聞乎	-11.8118
秦芃	-11.8118
㝷	-11.8118
襪	-11.8118
階梯	-11.8118
偎	-11.8118
耿	-11.8118
薄荷	-11.8118
堅如石	-11.8118
祕㫖	-11.8119
瑞靄	-11.8119
白馬蹄	-11.8119
岩	-11.8119
謳	-11.8119
素靈大有妙經	-11.8119
猪魚	-11.8119
萬事俱忘	-11.8119
青要紫書	-11.8119
喆	-11.8119
麵糊爲丸	-11.8119
知之邪唯唯	-11.812
闇昧	-11.812
麴糵	-11.812
昴	-11.812
檐	-11.812
惺惺了了	-11.812
蕩滌	-11.812
袐	-11.812
羽輪奉迎甲身上登玉清宫紫	-11.812
漲	-11.812
霞漿	-11.812
赶	-11.812
出凡籠	-11.812
嶒	-11.8121
搖	-11.8121
𡅗字	-11.8121
揣	-11.8121
陡	-11.8121
叚	-11.8121
願報師恩	-11.8121
頼	-11.8121
天牖	-11.8122
上帝有敕	-11.8122
校尉	-11.8122
世世不絶	-11.8122
因墓中	-11.8122
三官九府	-11.8122
狄	-11.8123
拔伸	-11.8123
煌	-11.8123
結九幽長夜之府魂充考撻諸痛備嬰形	-11.8123
甯	-11.8123
倐	-11.8123
梵摩迦夷天	-11.8123
常清常浄	-11.8123
泥丸宮	-11.8124
癰癤	-11.8124
藜杖	-11.8124
讁	-11.8124
蹙	-11.8124
三九二十七	-11.8124
憨癡	-11.8124
紿	-11.8124
得更生福慶之門甲得道眞與神合同畢	-11.8124
月水不通	-11.8124
籠罩	-11.8124
清涼	-11.8124
卜筭子	-11.8124
身入光明上昇天堂衣食自然	-11.8125
臨泣主	-11.8125
龜毛	-11.8125
玄之又玄	-11.8125
飲瓊漿	-11.8125
謹上啓	-11.8125
裝嚴	-11.8125
瑛	-11.8125
諫而不從因而消亡矣	-11.8125
茆	-11.8126
韜	-11.8126
彤	-11.8126
獨我揺頭不管	-11.8126
靠	-11.8126
巒	-11.8126
羌	-11.8126
上上禪善无量壽天	-11.8126
止太極真人曰修靈寳飛行三界之道當	-11.8126
訝	-11.8126
郁	-11.8126
鳶	-11.8126
飭	-11.8127
晉	-11.8127
第五論	-11.8127
三髻山侗	-11.8127
腹中雷鳴	-11.8127
當歸尾	-11.8127
肩井	-11.8127
寧海軍	-11.8127
牽纏	-11.8127
二丈四尺	-11.8127
鍾吕	-11.8127
鷗	-11.8127
搦	-11.8127
三寳中来經曰	-11.8128
州刺史	-11.8128
清風皓月	-11.8128
獺肝	-11.8128
莎	-11.8128
繆	-11.8128
燒香散花	-11.8128
疋	-11.8128
救死	-11.8128
无鞅數	-11.8128
上皇元年	-11.8128
九真中經	-11.8128
踞	-11.8128
粹	-11.8128
八素眞經	-11.8129
紂	-11.8129
浹	-11.8129
幻軀	-11.8129
澆溉	-11.8129
超法界	-11.8129
嬰兒姹女	-11.8129
凡名參	-11.8129
栽培	-11.813
析	-11.813
龍吟虎嘯	-11.813
娶	-11.813
正一盟威	-11.813
假軀	-11.813
俠臍	-11.813
夏三月	-11.8131
註	-11.8131
停停	-11.8131
琅琅	-11.8131
倘	-11.8131
慨	-11.8131
茅屋	-11.8131
妥	-11.8131
毫毛	-11.8131
九垓	-11.8131
舐	-11.8131
不可輕用	-11.8132
無名異	-11.8132
耿耿	-11.8132
伏念某	-11.8132
迅速	-11.8132
汨没	-11.8132
耕種	-11.8133
束帶	-11.8133
牀席	-11.8133
贅	-11.8133
髯	-11.8133
中來居世	-11.8133
殯	-11.8134
九天玄女	-11.8134
設醮	-11.8134
紫宸	-11.8134
虧盈	-11.8134
布帛	-11.8134
悚	-11.8134
疇	-11.8134
雲衢	-11.8134
濛附	-11.8134
仙樂集卷之	-11.8134
澶	-11.8134
鄕里	-11.8135
五臓	-11.8135
龍陽觀	-11.8135
手心主	-11.8135
罄	-11.8135
王國	-11.8136
銀牙	-11.8136
紫綬	-11.8136
戊午	-11.8137
詐僞	-11.8137
水晶宫	-11.8137
居環堵	-11.8137
灑落	-11.8137
咽津	-11.8137
乘雲駕龍	-11.8137
冬三月	-11.8137
姑射	-11.8137
廬陵	-11.8137
殫	-11.8137
診候	-11.8137
峭	-11.8137
浦	-11.8137
疥癬	-11.8137
句曲	-11.8138
淑	-11.8138
八節之日	-11.8138
幃	-11.8138
仕宦	-11.8139
迎送	-11.8139
千變萬化	-11.814
四十六	-11.814
混沌一炁	-11.814
章門主	-11.814
妙機	-11.814
砌	-11.814
顛狂	-11.814
屋宇	-11.814
芍藥白术	-11.814
頓服之又方	-11.8141
騰騰兀兀	-11.8142
九醜	-11.8142
吹嘘	-11.8142
天長觀	-11.8142
遺溺	-11.8143
石鍾乳	-11.8143
追尋	-11.8143
丁亥	-11.8143
吐嘔	-11.8144
蘇木	-11.8144
饑渴	-11.8144
十方世界	-11.8144
右十味治下篩	-11.8144
承負之責	-11.8144
面脂	-11.8145
戰退	-11.8145
壽夭	-11.8145
侍從	-11.8145
烏晶	-11.8145
古今許龐家去也應都免輪回苦	-11.8145
風痱	-11.8145
何以故譬如	-11.8146
定志經云	-11.8146
崇眞	-11.8146
萬無一	-11.8146
不能自禁	-11.8146
貪戀	-11.8146
糞土	-11.8146
甚麽	-11.8146
燈亦可	-11.8146
相去何若	-11.8146
割愛	-11.8147
隳	-11.8147
太陽之氣	-11.8148
詭	-11.8148
尺澤主	-11.8149
傻猿	-11.8149
也亦從慧本生	-11.8149
捻香	-11.8149
昩	-11.8149
養拙	-11.8149
句句	-11.815
遷延	-11.815
奔走	-11.815
隴山	-11.815
牢落	-11.815
選甚	-11.8151
餐霞	-11.8151
自是之後	-11.8151
葱葉	-11.8151
殗	-11.8151
翼云	-11.8151
監映	-11.8152
狂吟	-11.8152
萬壑	-11.8152
不瘥更作	-11.8153
戰勝	-11.8153
紫微上宫	-11.8153
是人非	-11.8153
幻境	-11.8153
遵承	-11.8153
腰腹痛	-11.8154
積衆多	-11.8154
卷之九十	-11.8155
功虧	-11.8155
贏得	-11.8156
陸先生	-11.8157
祈請	-11.8157
右五味㕮咀以水一斗	-11.8157
甘津	-11.8158
撲入	-11.8159
腰帶	-11.8159
包含	-11.816
清靜無爲	-11.816
歸紫府	-11.816
木郎	-11.816
統御	-11.816
開導	-11.8161
萬萬世	-11.8162
刮取	-11.8162
二十三者	-11.8162
十八卷	-11.8163
居其處	-11.8163
宗廟	-11.8163
長跪言	-11.8163
黄連黄芩	-11.8164
遊蓬島	-11.8164
可知矣	-11.8164
九天丈人	-11.8165
巨海	-11.8165
結胎	-11.8165
雪浪	-11.8166
絡脉	-11.8166
目眥	-11.8166
四十四	-11.8166
鍊烹	-11.8166
剛强	-11.8167
心腹脹滿	-11.8167
少頃	-11.8167
威嚴	-11.8168
不可勝數	-11.8168
鳳鳴	-11.8169
百般	-11.817
赴闕	-11.8171
木郎呪	-11.8171
郵	-11.8173
密密	-11.8174
上皇先生	-11.8174
曲映	-11.8174
急急如大赤天帝	-11.8174
良工	-11.8175
子之所問	-11.8175
陷者中是	-11.8176
石門主	-11.8177
慧燈	-11.8177
熬煎	-11.8178
普救	-11.8178
混俗	-11.8178
喫藥	-11.8178
皆主之方	-11.8178
散治産後	-11.8179
矣洞曰	-11.8179
河圖	-11.8179
累劫	-11.818
何況	-11.818
丹扃	-11.8181
書符呪	-11.8181
和沖	-11.8181
虚竭	-11.8181
都統	-11.8181
黄冠	-11.8182
蓬莊	-11.8182
點破	-11.8184
巢雲	-11.8185
千里其次	-11.8186
啓告	-11.8187
斬首	-11.8187
安泰	-11.8187
皇妃	-11.8187
莫戀	-11.8187
念其後	-11.8188
斬斷	-11.8189
玉鑪	-11.8189
加減	-11.8189
憂喜	-11.819
教你	-11.819
歲已下	-11.8191
何也答曰	-11.8192
閑步	-11.8193
都歸	-11.8194
凈明	-11.8194
休廢	-11.8194
莫怪	-11.8195
三五次	-11.8195
寳籙	-11.8196
丹池	-11.8196
極第四	-11.8197
兒童	-11.8197
死肌	-11.8197
子言是也	-11.8198
儒家	-11.8199
劉蔣	-11.8199
龍泉	-11.8199
兇惡	-11.82
都監	-11.82
亘靈	-11.82
嘔噦	-11.82
盈滿	-11.82
以劒訣	-11.8201
切忌	-11.8201
上丹霄	-11.8201
漢末	-11.8201
不輟	-11.8201
慈母	-11.8201
凶禍	-11.8202
極冷	-11.8203
隂也主養	-11.8203
拈來	-11.8204
左邊	-11.8205
芎藭防風	-11.8206
陽也主生	-11.8206
交横	-11.8206
飛鳥	-11.8206
姦邪	-11.8207
群臣	-11.8208
石菖蒲	-11.8209
鷄子	-11.8209
恁麽	-11.821
雪裏	-11.821
良辰	-11.821
代謝	-11.8211
難測	-11.8212
萬慮	-11.8213
停冷	-11.8213
禍患	-11.8213
瓊路	-11.8213
千條	-11.8213
五十丸	-11.8214
拜手	-11.8215
也或問	-11.8217
泉石	-11.8217
擣下篩	-11.8217
與天地同	-11.8218
日三度	-11.8219
佳節	-11.8219
如黍米	-11.822
滅跡	-11.822
爭似	-11.822
之效也	-11.8221
照海	-11.8223
密蓋	-11.8224
靈龜	-11.8225
去蘆	-11.8226
形像	-11.8226
右五味㕮咀以	-11.8227
凶衰	-11.8228
朝謁	-11.8228
赤松	-11.823
志誠	-11.8231
奔豚	-11.8232
世僞	-11.8232
覆手	-11.8233
妖邪	-11.8233
閉眼	-11.8235
相干	-11.8235
滿悶	-11.8238
金嬰	-11.8238
成修鍊	-11.824
以手按之	-11.824
解厄	-11.8241
王喬	-11.8241
歷年	-11.8242
愛念	-11.8243
前驅	-11.8244
孕婦	-11.8244
一隅	-11.8245
玄中妙	-11.8245
禀受	-11.8246
登臨	-11.8247
愚蔽	-11.8249
故帛	-11.825
案前	-11.8251
不得小便	-11.8251
下赤白	-11.8252
首謝	-11.8254
師訓	-11.8254
仙翁	-11.8255
雜念	-11.8255
元氣自然	-11.8256
鮮明	-11.8256
舊隱	-11.8257
此三事	-11.8257
暴痛	-11.8258
護法	-11.8259
難易	-11.8261
走馬	-11.8261
安丘	-11.8261
回向	-11.8262
華榮	-11.8263
李公	-11.8263
金盤	-11.8265
陰陽俱	-11.8265
林木	-11.8265
久坐	-11.8265
寃結	-11.8268
死屍	-11.8268
始初	-11.8268
閑客	-11.827
百種	-11.8271
光潤	-11.8272
旦起	-11.8273
可不愼	-11.8274
畢備	-11.8274
毒蛇	-11.8275
昨夜	-11.8279
迴向	-11.8279
彌佳	-11.8279
滿十方	-11.8281
行屍	-11.8281
藏府	-11.8281
蓬山	-11.8282
聖真仙	-11.8283
又山侗	-11.8285
乘虛	-11.8285
一盃	-11.8288
終朝	-11.829
穢惡	-11.829
福壽	-11.8291
位業	-11.8291
以水五升煑取一升	-11.8292
篇云	-11.8293
甑中	-11.8293
在水中	-11.8293
十一曰	-11.8293
在心下	-11.8294
莫把	-11.8295
羣仙	-11.8296
休迷	-11.8297
日月之光	-11.8298
經像	-11.8298
三屍	-11.8298
知縣	-11.8298
萬户	-11.8301
相離	-11.8302
仍須	-11.8303
切須	-11.8307
金丹結	-11.8308
希文	-11.831
共造	-11.8313
第三云	-11.8313
特忌	-11.8314
犯觸	-11.8314
透過	-11.8315
自述	-11.8316
瑩然	-11.8316
布炁	-11.8318
丑時	-11.8322
直須	-11.8323
只恁	-11.8323
單衣	-11.8324
相貌	-11.8325
水一升煑	-11.8325
看看	-11.8325
色不變	-11.8329
脉弦	-11.8329
三光秀	-11.833
歸計	-11.833
虛弱	-11.8332
傳奏	-11.8332
天地隂陽之	-11.8333
勝似	-11.8333
好弱	-11.8336
顯異	-11.8343
落空	-11.8345
圓周	-11.8347
亥時	-11.8347
百花	-11.8348
或化爲	-11.835
患冷	-11.8351
亦爾	-11.8352
歲寒	-11.8352
土宿	-11.8353
眞僞	-11.8354
東引	-11.8354
无崖	-11.8356
宜速	-11.8364
熬令黄	-11.8368
歸期	-11.8368
脱離	-11.8372
元帥符	-11.8375
他物	-11.8375
不可不知	-11.8376
萬億	-11.8377
惟願	-11.8381
結丹	-11.8384
宫室	-11.8393
住世	-11.8393
瓦上	-11.8394
超塵	-11.8395
地黃	-11.8396
情慾	-11.8397
末世	-11.8398
伏願	-11.8401
周公	-11.8403
一段	-11.8404
天厨	-11.8408
飲之又方	-11.8413
各四十	-11.8413
九夏	-11.8415
靜心	-11.8415
脊中	-11.8417
自冤	-11.8418
天界	-11.8419
爲盜賊	-11.8419
心悸	-11.8421
教導	-11.8424
講經	-11.8424
異景	-11.8424
更没	-11.8424
午前	-11.8425
治大風	-11.8428
賢明共	-11.843
保全	-11.8434
病難治	-11.8437
勸不得	-11.8439
家親	-11.8443
布德	-11.8444
李先生	-11.8446
鍊性	-11.8447
言不通	-11.8448
隱藏	-11.8448
胡王	-11.8453
得其要意	-11.8456
遍滿	-11.8457
右十味㕮咀以水九升	-11.8459
升麻黄芩	-11.846
靈壇	-11.8462
與道相	-11.8468
生凡物	-11.8469
味甘微寒	-11.8469
於是天尊	-11.8472
何堪	-11.8472
仁安	-11.8476
洞微	-11.8476
效又方	-11.8477
肺肺	-11.8482
生神章	-11.8487
玄都玉京	-11.8489
怪變	-11.8489
師授	-11.8491
壽筭	-11.8495
四肢腫	-11.8496
得度世	-11.8498
單行	-11.8502
舉動	-11.8502
者得見	-11.8507
念金光呪	-11.8508
皆可用	-11.8509
青録	-11.8512
射透	-11.8514
川當歸	-11.8514
毛羽	-11.8517
得仙度	-11.8517
眼赤	-11.8517
鳳舞	-11.8518
成造化	-11.8518
右十味㕮咀以水一斗	-11.852
究其	-11.8521
東井之	-11.8526
果實	-11.8527
當歸湯治	-11.853
所從來	-11.853
空腹服之	-11.8533
宫闕	-11.8537
黄金爲	-11.8537
無由得	-11.8541
魔鬼	-11.8542
誅斬	-11.8544
房勞	-11.8549
當於何	-11.855
宜早	-11.8551
勞勞	-11.8551
運周	-11.8557
病瘥後	-11.8564
是故聖人	-11.8564
吸炁	-11.8565
細尋思	-11.8566
十粒	-11.857
子竒	-11.857
往付	-11.8571
爲度又方	-11.8572
各隨其	-11.8594
息贈	-11.8594
無有惡	-11.8595
下二寸	-11.8607
芎藭白术	-11.861
成器	-11.8614
古聖	-11.8615
藥貼	-11.8628
始起	-11.8631
作灰	-11.8632
龍蟠虎	-11.8634
行此法	-11.8634
藥下之	-11.8638
騁風流	-11.8638
手剔	-11.8638
度人經	-11.8638
脉緊	-11.865
入腦	-11.8653
遠志甘草	-11.8654
即出又方	-11.8655
有三種	-11.866
盡忠	-11.8664
旦空腹	-11.8666
以温酒	-11.8685
猪蹄湯	-11.8691
善哉善哉今	-11.8691
其姓名	-11.8696
劈開	-11.8716
内酒中	-11.872
短氣方	-11.8723
本由	-11.8723
脊强	-11.8725
談玄	-11.8732
宫裏	-11.874
隨其所	-11.8744
右總爲細末	-11.8748
未易	-11.876
細辛白术	-11.8761
微腫	-11.8769
唾膿血	-11.877
相參	-11.8775
財産	-11.8784
㗶吒	-11.8786
包容	-11.8788
腹中滿	-11.8788
五日後	-11.8794
律令大神	-11.88
百千萬	-11.8803
葛根汁	-11.8811
者衆多	-11.8815
司命君	-11.8815
十六卷	-11.8822
氣之所	-11.8823
願聞之然	-11.8825
透骨	-11.8827
承奉	-11.8831
贈于	-11.8845
爛瘡	-11.8852
服三丸日三	-11.8855
秋夜	-11.8859
安胎	-11.886
治黄疸	-11.887
達士	-11.8879
治消渴	-11.8893
一食頃	-11.8906
取五升去滓	-11.8911
名稱	-11.8912
乗雲	-11.8914
帝尊	-11.8931
東萊	-11.8932
五五二十五	-11.8941
蜜爲丸	-11.8955
炒乾	-11.8965
日已上	-11.8971
右符用	-11.8974
如小豆大	-11.8974
舉家	-11.8977
十二支	-11.8984
復疑	-11.8985
永占	-11.899
已解矣	-11.899
灸胃管	-11.8995
萬二千	-11.8995
益佳	-11.8998
十五首	-11.9002
羊乳	-11.9005
非一人	-11.9007
宴景	-11.9008
之門户也	-11.9009
去滓分三服日三	-11.9011
以水九升煑	-11.9024
浮生夢	-11.9029
相侵	-11.9031
恁地	-11.9032
泥塗之	-11.9034
人間世	-11.9037
渾無	-11.9037
不怠	-11.9053
吸吸	-11.9058
九祖父母	-11.9058
太一帝君	-11.9064
史公	-11.9067
以絹袋盛	-11.9072
胷腹	-11.9074
調匀	-11.9076
者於諸	-11.9078
以手按	-11.908
以此方	-11.9081
道無形	-11.9082
通造化	-11.9101
米粉	-11.9103
自然之氣	-11.9104
有大功	-11.912
㕮咀以水七升煑取二升半分三服	-11.9125
入水中	-11.9135
重愼	-11.9139
水和服之	-11.9148
右三味治下篩以	-11.9156
後谿主	-11.9159
金璫	-11.9161
白蜜和	-11.9165
寸口脉沈	-11.9171
十丈	-11.9172
痓	-11.9179
大豆黄卷	-11.9181
款冬	-11.9182
蘘	-11.9184
齗交	-11.9184
制魔	-11.9187
成煎猪膏	-11.9188
虚實第二	-11.9188
蠼螋	-11.9188
删繁	-11.919
瘖不能言	-11.9193
還童	-11.9195
生肌藥	-11.9198
手足厥冷	-11.9198
生蘆根	-11.9199
道士女冠	-11.9199
削除	-11.9199
蚯蚓屎	-11.9201
鄷都	-11.9203
道全德之也貴大家總赴玉華會	-11.9203
邉	-11.9204
若道士若女冠	-11.9204
味甘平無毒主	-11.9205
埪	-11.9205
瘑	-11.9206
食飲不下	-11.9206
鯉	-11.9206
雀屎	-11.9206
煑取一升頓服	-11.9207
鑠	-11.9207
燁	-11.9208
如食法	-11.9208
右四味㕮咀以水六升煑取二升	-11.9208
葷辛	-11.9208
小便澁	-11.9209
木蘭皮	-11.9209
泓	-11.9209
喎	-11.921
棕	-11.921
也眞人知之耶唯唯	-11.921
昊	-11.921
血碣	-11.921
禁不可刺	-11.921
菴䕡子	-11.9211
所生病者	-11.9211
天花粉	-11.9211
咱	-11.9211
豐隆主	-11.9212
喝將吏	-11.9212
右二十一味	-11.9212
鑚	-11.9212
髭	-11.9213
太乙火府	-11.9213
未發前	-11.9213
鱠	-11.9214
辛漢臣	-11.9215
懿	-11.9215
駢	-11.9215
子孫醮縁重遇敬信全仗高眞度	-11.9215
不得稽停	-11.9216
稍稍咽之	-11.9216
其天上人壽	-11.9216
莖中痛	-11.9216
三屍九蟲	-11.9216
燒存性	-11.9217
高枕卧	-11.9217
魈	-11.9217
凛	-11.9217
人發之治王	-11.9217
悵	-11.9217
刁	-11.9217
附骨疽	-11.9217
也兀底	-11.9217
白馬尿	-11.9217
茸	-11.9217
四肢沉重	-11.9218
皂靴	-11.9218
愼火草	-11.9218
潑	-11.9218
嚴畏智詐	-11.9219
粃	-11.9219
川椒	-11.9219
臏	-11.9219
行子已覺矣	-11.9219
麋	-11.9219
侍郞	-11.9219
去成都	-11.9219
巷	-11.922
陽陵泉主	-11.922
結空成	-11.922
浮萍	-11.922
綺語	-11.922
者取訣於	-11.922
五靈脂	-11.9221
墀	-11.9221
月胎者當預服此方	-11.9221
餒	-11.9221
崐崘	-11.9221
煌煌	-11.9221
不以多少	-11.9221
曲素訣辭	-11.9221
槽	-11.9221
天丁力士	-11.9222
巽宮	-11.9222
搥	-11.9222
蟻穿珠	-11.9222
疽也上肉微起者	-11.9222
詛	-11.9222
右四味各等分	-11.9223
胳别走	-11.9223
餉	-11.9223
謄	-11.9223
腑臟	-11.9223
茆根	-11.9223
全蝎	-11.9223
漏始發於頸	-11.9223
隱隱而痛者	-11.9223
司命司録	-11.9224
陽九百六	-11.9224
跂行	-11.9224
僕射	-11.9224
扶突	-11.9224
痔漏	-11.9224
啒	-11.9224
渣	-11.9224
之明效也	-11.9224
軍姜	-11.9225
咳逆上氣	-11.9225
廣寒之宫	-11.9225
隘	-11.9225
刺足少陰	-11.9225
誤吞	-11.9225
迤	-11.9225
㯃	-11.9225
外國放品	-11.9225
不得有違	-11.9225
庸醫	-11.9225
以臘月猪脂和	-11.9225
覓殘餘	-11.9225
狗屎	-11.9225
丘墟主	-11.9226
鈐	-11.9226
熒惑星	-11.9226
磑	-11.9227
青盲	-11.9227
兵戈	-11.9227
夏三月則變形爲	-11.9227
熱酒調下	-11.9227
水雲遊歷	-11.9227
右十二味爲末蜜丸如梧子	-11.9227
魚鼈	-11.9227
規模	-11.9227
金銀花	-11.9227
鐵板	-11.9227
宫却入	-11.9227
虎龍交媾	-11.9228
腰疼	-11.9228
銀屑	-11.9228
冑	-11.9228
釁	-11.9228
紫度炎光經云	-11.9228
乞殘餘	-11.9228
曝令乾	-11.9228
秋三月則變形爲	-11.9228
泄瀉	-11.9228
解谿主	-11.9228
惹絆	-11.9228
衾	-11.9228
齏	-11.9228
狠	-11.9229
上清變化七十四方經云	-11.9229
饗	-11.9229
畦	-11.9229
恊	-11.9229
煅煉	-11.9229
瘖瘂	-11.9229
感得其	-11.9229
無縈繫	-11.923
眉鬚	-11.923
茗	-11.923
閫	-11.923
唵嚩𠯐囉喗	-11.923
妍	-11.923
當此之時	-11.923
竄	-11.923
時出爲帝師號曰	-11.923
安息香	-11.9231
捋	-11.9231
苔	-11.9231
細嚼	-11.9231
列仙曹	-11.9231
姹女嬰兒	-11.9231
閼伯	-11.9231
三島十洲	-11.9231
奕奕	-11.9231
晦朔	-11.9231
猶豫	-11.9231
佩此文	-11.9231
身中三五功曹左右官使者	-11.9231
岱	-11.9232
列圖如左	-11.9232
塵活死人兮活死人	-11.9232
一隂一陽	-11.9232
大陵主	-11.9232
塘	-11.9232
无極世界	-11.9233
僣	-11.9233
道人活計	-11.9233
迢遞	-11.9233
商陽	-11.9233
怱怱	-11.9233
摧挫	-11.9233
悌	-11.9233
蝎	-11.9233
露蜂房	-11.9233
肢體	-11.9233
計較	-11.9233
科曰凡道士女冠	-11.9233
恓	-11.9233
黄氣陽精	-11.9233
越衡天	-11.9234
誅伐	-11.9234
翼軫	-11.9234
晷	-11.9234
𨽻	-11.9234
繋	-11.9234
十十相應	-11.9234
簑	-11.9234
上昇南宫	-11.9234
賃	-11.9234
簟	-11.9235
殷紅	-11.9235
右出洞真外國放品經	-11.9235
匹	-11.9235
驀山溪	-11.9235
拉	-11.9235
烹鉛	-11.9235
蝗	-11.9235
詶	-11.9235
家九祖父母惡對罪根三界司筭女青	-11.9235
出娑婆	-11.9236
驢馬	-11.9236
遑	-11.9236
王高上玉虛至極天尊特垂曲映令	-11.9236
竟天年	-11.9236
羯	-11.9236
急急如律令右法	-11.9236
霞友雲朋	-11.9236
放心閑	-11.9236
倏欻	-11.9236
藩	-11.9236
可駭哉可駭哉	-11.9236
盟而傳	-11.9236
鑪竈	-11.9236
心中赤炁	-11.9237
自古到今	-11.9237
强健	-11.9237
天火地火	-11.9237
蹔	-11.9237
度歲華	-11.9237
忖	-11.9237
爲之佐	-11.9237
剛柔	-11.9237
常融天	-11.9237
作餅子	-11.9238
天長地久	-11.9238
梟	-11.9238
缸	-11.9239
返樸	-11.9239
勸捨惡	-11.9239
還知否	-11.9239
簞瓢	-11.9239
鞠	-11.9239
浚儀原陽子趙宜眞集	-11.9239
璈	-11.9239
某敢不	-11.9239
榮華富貴	-11.9239
鬱勃	-11.9239
奎婁胃昴畢觜參	-11.924
良乆	-11.924
藍汁	-11.924
丹參膏	-11.924
三道順行經云	-11.924
飛行太空	-11.924
國祚	-11.924
欲知其效	-11.924
驚駭	-11.924
安坐爲子	-11.924
各爲身計	-11.924
浩渺	-11.924
元初一點	-11.924
匐	-11.9241
富貴榮華	-11.9241
後之學者	-11.9241
憂愁思慮	-11.9241
三元布經	-11.9241
胸臆	-11.9241
承氣湯	-11.9241
先人後己	-11.9241
王瓊文第	-11.9241
猛省	-11.9241
燒灰存性	-11.9242
青溪道士孟安排集	-11.9242
卞	-11.9242
服五丸日三	-11.9242
輕易	-11.9242
斃	-11.9243
苗裔	-11.9243
懲	-11.9243
曰吾昔	-11.9243
服五分七日三	-11.9243
遐齡	-11.9243
邪言邪文	-11.9243
虎咆哮	-11.9243
績	-11.9243
贈萊州	-11.9243
繫絆	-11.9243
諧師	-11.9243
𨔼	-11.9244
閤	-11.9244
訣第一百九十	-11.9244
協晨	-11.9244
驀然	-11.9244
賡	-11.9244
白雲深處	-11.9244
倣傚	-11.9244
佞僞	-11.9245
豊	-11.9245
束縛	-11.9245
傳非其人	-11.9245
殁	-11.9245
礪	-11.9245
褒	-11.9245
大豆卷	-11.9245
社稷	-11.9245
承筋	-11.9245
毁謗	-11.9245
崑嵛山	-11.9245
太平經卷之五十	-11.9245
惻隱	-11.9245
航	-11.9245
萬八千	-11.9245
青龍白虎	-11.9245
餞	-11.9245
雌雄	-11.9246
庖	-11.9246
旂	-11.9246
白絹	-11.9246
貧乏	-11.9246
飛行玉清	-11.9246
洪崖先生	-11.9247
淡薄	-11.9247
媚	-11.9247
沈淪	-11.9247
仲景云	-11.9247
做生涯	-11.9247
此其致也釋曰	-11.9247
憨憨	-11.9247
龍麟	-11.9247
幻惑	-11.9247
羶	-11.9247
儵	-11.9248
軋	-11.9248
變化無窮	-11.9248
鴻濛	-11.9248
杆	-11.9248
片片	-11.9248
狡猾	-11.9248
觴	-11.9248
明燈誦經思神念眞行道求仙飛騰九天	-11.9249
肝臟	-11.9249
太微帝君	-11.9249
行自得之	-11.9249
右四天王	-11.9249
血崩	-11.9249
百衲	-11.9249
檢校	-11.925
熖	-11.925
璽	-11.925
卑賤	-11.925
活死人	-11.925
椎下節間	-11.925
玉宸	-11.925
十苦八難	-11.9251
樞環	-11.9251
捐棄	-11.9251
之丹名	-11.9251
大便不通	-11.9251
復六十日能	-11.9251
歘火大神	-11.9252
十壯三報	-11.9252
豈復	-11.9252
潼	-11.9252
竹杖	-11.9252
堅硬	-11.9253
拱手	-11.9253
入髮際一寸	-11.9253
胡臭	-11.9253
灸五壯	-11.9254
去三蟲	-11.9254
訞	-11.9254
非有非無	-11.9254
一十二字召	-11.9254
破廟	-11.9255
受書爲	-11.9255
潔淨	-11.9255
者勸助	-11.9255
這些	-11.9255
魁𩲃𩵄䰢	-11.9255
側卧	-11.9255
怎敢	-11.9255
擾擾之屬	-11.9255
諸君丈人	-11.9255
鄒	-11.9256
巢源作	-11.9256
充飢	-11.9256
習習	-11.9256
火滅煙消	-11.9256
緋衣	-11.9256
與道合真	-11.9256
斬妖精	-11.9256
𦋇定	-11.9256
句曲山	-11.9256
燈燭	-11.9256
恭審	-11.9257
如鷄子	-11.9257
二百八十	-11.9257
佯	-11.9257
鉅	-11.9257
姓李	-11.9258
燕京	-11.9258
靈書經云	-11.9258
張弓	-11.9258
經一卷太上洞玄靈寳	-11.9258
墨黒	-11.9259
蝨	-11.926
三清境	-11.926
芝蘭	-11.926
傷於寒	-11.926
口不能言	-11.926
守一明法	-11.926
森然	-11.9261
歷歷	-11.9261
乾地黄當歸	-11.9261
甘甜	-11.9261
喝云	-11.9262
庚申日	-11.9262
詳審	-11.9263
宫宫中有帝君	-11.9263
守道而行	-11.9263
訶子	-11.9264
穩坐	-11.9264
了却	-11.9265
眞空體	-11.9265
朗曜	-11.9265
汴	-11.9265
道學與人同	-11.9265
印印	-11.9265
扶危	-11.9266
灸百壯	-11.9266
令人世世	-11.9266
父毋	-11.9267
右十味㕮咀以水九升煑取三升	-11.9267
些箇	-11.9267
瑞雪	-11.9267
併力	-11.9268
香餌	-11.9268
純漆	-11.927
印堂	-11.927
異道雜仙	-11.927
喜嘔	-11.927
織成	-11.927
侍座	-11.9271
摩膏	-11.9271
參禪	-11.9271
妓樂	-11.9272
可見矣	-11.9272
親踈	-11.9272
暗昧	-11.9272
道君清微	-11.9273
在腕後	-11.9273
甘河	-11.9274
翕然	-11.9274
圖籙	-11.9274
巨細	-11.9274
梵音	-11.9274
司徒	-11.9275
汝曹	-11.9275
右十味㕮咀以水一斗煑取三升分三服	-11.9275
遥望	-11.9275
諦受	-11.9276
銀河	-11.9276
道君洞清	-11.9277
遠志茯苓	-11.9278
邪僻	-11.9278
端午	-11.9279
了幹	-11.9279
壬子	-11.9279
無瑕	-11.928
五千言	-11.928
推遷	-11.928
洪恩	-11.9281
常作伴	-11.9281
上古之人	-11.9282
温帥	-11.9282
科曰凡造	-11.9282
太清境	-11.9282
好醜	-11.9284
飄然	-11.9286
雲芽	-11.9286
尋覓	-11.9286
鬼擊	-11.9287
八景飛	-11.9288
冤親	-11.9289
似醉	-11.929
華嶽	-11.9292
噀水	-11.9293
虚乏	-11.9293
證驗	-11.9293
矣頌曰	-11.9294
索詩	-11.9294
臘日	-11.9294
河車	-11.9295
觀瞻	-11.9295
演說	-11.9295
謹序	-11.9296
死三部脉	-11.9296
其脉弦	-11.9297
痺不仁	-11.9297
法眷	-11.9297
期約	-11.9298
四十丸	-11.9299
超彼	-11.9299
寳冠	-11.9299
急急如太上	-11.93
何惜	-11.9301
敷布	-11.9301
熏黄	-11.9303
丹成九轉	-11.9303
宫隱吾	-11.9303
我俱忘	-11.9304
離宮	-11.9304
舌强	-11.9304
照察	-11.9304
羽客	-11.9305
有善意	-11.9305
貪爭	-11.9305
百尺	-11.9306
荆山	-11.9306
奇哉	-11.9307
免輪迴	-11.9307
浄洗	-11.9308
三四服	-11.9308
善芽	-11.9309
丹鼎	-11.931
桑耳	-11.931
掌中熱	-11.9311
千災	-11.9311
銅青	-11.9311
伏梁	-11.9311
滿大千	-11.9312
每每	-11.9313
被髮	-11.9313
嘘出	-11.9313
若家有	-11.9314
喎僻	-11.9314
足下熱	-11.9315
紙布	-11.9315
五更初	-11.9316
樂天眞	-11.9316
尤甚	-11.9316
青鳥	-11.9316
八節日	-11.9317
胞轉	-11.9317
追攝	-11.9318
發癰疽	-11.9319
牒前	-11.932
禮十方	-11.9322
栗子	-11.9322
二方寸七	-11.9322
膏成去滓	-11.9323
感得十	-11.9323
塵慮	-11.9324
也多病	-11.9324
酒調下	-11.9324
振動	-11.9325
癲病	-11.9327
巽宫	-11.9327
譚公	-11.9327
梵炁	-11.9328
二十八天	-11.9329
目擊	-11.933
巽門	-11.933
騰景	-11.9331
安恬	-11.9332
常清静	-11.9333
忠臣	-11.9333
監度	-11.9334
右十九味爲末	-11.9335
被考	-11.9335
舊業	-11.9335
前程路	-11.9336
作知音	-11.9336
祥光瑞	-11.9336
不疑也	-11.9337
桂心麻黄	-11.9338
禄存	-11.9338
十二部經	-11.9338
星中名	-11.9339
每夜	-11.9339
茶清	-11.9339
固窮	-11.934
東方木	-11.934
施恩	-11.9342
雨露	-11.9342
蓋覆	-11.9342
絶句	-11.9344
外貌	-11.9344
快意	-11.9344
管甚	-11.9344
陰谷	-11.9345
仰望	-11.9345
苦楚	-11.9346
受胎	-11.9346
損己	-11.9346
返老	-11.9348
立驗	-11.935
紫煙	-11.9351
憑高	-11.9352
千户	-11.9355
度春秋	-11.9355
大小皆	-11.9355
月桂	-11.9357
人參細辛	-11.9357
自然銅	-11.9358
劉志	-11.9358
每服二十丸	-11.9359
腎堂	-11.9359
今宵	-11.936
目不明	-11.936
做就	-11.9361
太清宫	-11.9361
拔苦	-11.9363
手腕	-11.9364
䐜	-11.9364
爲丸如梧桐子大	-11.9365
福慧	-11.9365
醒來	-11.9365
拂盡	-11.9367
羣眞	-11.9367
每到	-11.9373
勤勤	-11.9374
釋曰	-11.9374
玄紀	-11.9374
本命日	-11.9375
爽靈	-11.9375
牛尿	-11.9376
莊子	-11.9379
切一升	-11.9379
光焰	-11.9379
玄暉	-11.9382
不過三服	-11.9383
金翁	-11.9383
華宗	-11.9383
免了	-11.9384
祝云	-11.9384
尊官	-11.9386
貧苦	-11.9386
那臺	-11.9386
千秋	-11.9386
用生姜	-11.9389
用清油	-11.9391
每服一升日三	-11.9391
甲馬	-11.9391
幽顯	-11.9393
百禍	-11.9393
甘草二兩	-11.9394
松巖	-11.9395
全完	-11.9396
卒痛	-11.9399
乎哉然	-11.9401
失脚	-11.9403
紫臺	-11.9405
鳳嘯	-11.9407
四般	-11.9407
聖母	-11.9409
闡化	-11.9413
誦念	-11.9413
高厚	-11.9413
幽隱	-11.9414
失笑	-11.9415
黄縣	-11.9416
十日愈	-11.9416
營護	-11.9417
七十五	-11.9418
二十七日	-11.9418
星壇	-11.942
須索	-11.9421
無灰酒	-11.9422
奉上帝敕	-11.9423
灸百會	-11.9423
世宗	-11.943
魁神	-11.9432
爲天談	-11.9432
玄談	-11.9434
素雲	-11.9438
流演	-11.9441
俗間	-11.9441
適足	-11.9442
壇場	-11.9443
攪令調	-11.9443
相通並力同心共	-11.9445
治婦人産後	-11.945
夜靜	-11.9451
珍珠	-11.9451
癡頑	-11.9452
步虚	-11.9454
黄素四十四方經	-11.9455
指蓬瀛	-11.9455
小腹堅	-11.9455
調龍虎	-11.9455
出膿血	-11.9456
突出	-11.9462
龍胎	-11.9465
明真科	-11.9466
承天心	-11.9467
酒煑	-11.9467
有五字	-11.9468
無衰老	-11.9469
直爾	-11.9473
傳送	-11.9474
清談	-11.9475
書記	-11.9484
治之之方	-11.9487
數劑	-11.9492
蟾光	-11.9506
二十一者	-11.9507
稍加以知爲度	-11.9513
微澀	-11.9519
性月圓	-11.9519
用劒訣	-11.9521
黄耆人參	-11.9523
支干	-11.9524
脉嬰兒	-11.953
殊能	-11.9538
人自求	-11.9544
品類	-11.9546
半夏生薑	-11.9553
存將入	-11.9553
清澄	-11.9555
華亭	-11.9561
尊至心稽首	-11.9567
右八味㕮咀以水八升	-11.9571
答言	-11.9581
不力學	-11.9586
石脂	-11.9591
濃煎	-11.9593
洪流	-11.9598
豉汁	-11.9598
脚腫	-11.9602
小蒜	-11.9603
籙上清	-11.9604
步虛	-11.961
衮出	-11.961
性靈靈	-11.9619
開天符	-11.9624
一點眞	-11.9625
心腹痛方	-11.9632
亦佳又方	-11.9644
東方青炁	-11.9646
治同前	-11.9647
投簡	-11.9651
風濕痺	-11.9652
又方濃煑	-11.9654
丸日三稍加	-11.9671
㕮咀以水八升煑取二升半分三服	-11.9678
汁浸	-11.9684
微火上煎	-11.9686
相承負	-11.9698
星曆	-11.971
源流	-11.9712
良由	-11.9718
邀請	-11.9726
酒服十丸	-11.9727
馬尾	-11.9727
紙墨	-11.9727
鞭龍	-11.9736
栝蔞根甘草	-11.9737
吉慶	-11.9743
官位	-11.9745
神彩	-11.9757
五劑	-11.9768
殿堂	-11.9773
之過也	-11.9775
天地神明	-11.9807
炷香	-11.9828
知天意	-11.9829
呈祥	-11.9834
附子烏頭	-11.9841
寳臺	-11.9843
功滿三千	-11.9846
弦緊	-11.9857
海水帝	-11.987
治産難	-11.9881
方見第	-11.9882
容情	-11.9883
三升分三服	-11.9885
升麻芍藥	-11.989
黄耆黄芩	-11.99
虎遶	-11.9901
治萬病	-11.991
大乘經	-11.9912
數載	-11.992
牛膽	-11.9936
斬妖	-11.9943
關機	-11.997
玷	-11.9983
治男子	-11.9986
故本際經云	-11.9987
閻浮	-11.999
天尊殿	-11.9992
壁土	-11.9997
善哉子之難問	-12.0007
大腸輸	-12.0013
百三十	-12.0014
奉上帝勑	-12.0019
取二斗	-12.0042
生神章第	-12.0053
煎取四升	-12.0069
决然	-12.0074
清雅	-12.0078
目瞳	-12.0086
仙階	-12.0099
百壯又灸	-12.0101
皇恩	-12.0113
㕮咀以水八升煑	-12.0122
玉皇上帝敕	-12.0131
又方臘月	-12.0143
臣行道得道求仙得仙飛行太空騰景	-12.0144
紫㣲	-12.0144
治妊娠傷寒	-12.018
糯	-12.0192
下氣方	-12.0207
酸鹹	-12.0225
太上黄素四十四方	-12.0258
自在閑	-12.0273
人參厚朴	-12.0277
胡桃	-12.0283
灸肺輸	-12.0303
十壯穴在	-12.0361
女男	-12.0368
口含	-12.038
覺夢	-12.0392
疫氣	-12.0424
𥐻砂	-12.0425
薏苡	-12.0429
厄會	-12.043
人見之	-12.0432
丘墟	-12.0433
嗏	-12.0439
璫滴瑠玎	-12.044
鱉甲	-12.0441
攅竹	-12.0441
饙	-12.0443
白楊皮	-12.0443
烜	-12.0443
孫眞人備急千金要方卷之九十	-12.0446
莧	-12.0446
有微熱	-12.0447
善哉子之言	-12.0447
風引湯	-12.0448
魓	-12.0448
丿	-12.045
臊	-12.045
野葛膏	-12.0451
痠	-12.0451
列缺	-12.0452
爲細末每服二錢	-12.0452
沐髮	-12.0452
合而爲一	-12.0453
上街求乞	-12.0454
嘔沫	-12.0454
承筋主	-12.0454
胡椒	-12.0455
薇	-12.0455
鎮心圓	-12.0456
贈鄠縣	-12.0456
犢鼻	-12.0456
芫	-12.0457
復留主	-12.0457
謐	-12.0457
月水不調	-12.0458
硃砂	-12.0458
癎	-12.0458
白馬莖	-12.0458
嘘吸	-12.0458
猷	-12.0458
興雲致雨	-12.0458
胃腑	-12.0459
桃紅散	-12.0459
搭	-12.046
㡌	-12.046
怖畏	-12.046
清貧柔弱	-12.046
釐	-12.0461
焮	-12.0461
蛔	-12.0461
虜	-12.0462
小便黄赤	-12.0462
轍	-12.0462
禁如藥法	-12.0462
冕	-12.0463
破故紙	-12.0463
上氣欬嗽	-12.0463
渴欲飲水	-12.0463
誰乎有身不自	-12.0463
日四五度	-12.0463
東向竈	-12.0463
太上神仙洞淵洞玄	-12.0463
發作有時	-12.0464
功過上真總領	-12.0464
右五味合	-12.0464
愼生冷	-12.0464
不思議	-12.0465
黄帝問曰	-12.0465
灼灼	-12.0465
煩躁	-12.0465
小便淋瀝	-12.0465
脅痛	-12.0465
懈惰	-12.0465
恚怒	-12.0466
胞囊	-12.0466
熬成膏	-12.0467
鬼督郵	-12.0467
虎遶龍蟠	-12.0467
疱	-12.0467
已與道同	-12.0467
罣礙	-12.0467
啹	-12.0467
臭腐	-12.0468
徃來寒熱	-12.0468
皴	-12.0469
隱白主	-12.0469
承誥奉行	-12.0469
械	-12.0469
岌	-12.0469
濾去滓	-12.047
閉塞不通	-12.047
坦坦	-12.047
菩薩	-12.047
湯若曾傷	-12.047
蚯蚓	-12.047
取一斗去滓	-12.0471
如胡豆	-12.0471
饋	-12.0471
天關地軸	-12.0471
養氣全神	-12.0471
紫虚元君	-12.0471
孜	-12.0472
呮	-12.0472
稍加至三十丸	-12.0472
嵐光	-12.0472
仵	-12.0472
帝消魔大王常以	-12.0472
麩	-12.0472
不限多少	-12.0473
鋒芒鋒芒光垂	-12.0473
輪羽車飛行雲中遊宴五嶽	-12.0473
大腹皮	-12.0473
新汲水	-12.0473
法將班	-12.0473
福山縣	-12.0473
腎中黒炁	-12.0473
瑶臺閬苑	-12.0473
撩	-12.0474
病新瘥	-12.0474
丐	-12.0474
[...]
