<unk>	0
<s>	0
</s>	0
。	-1.6073
也	-4.2677
故	-4.34338
者	-4.48856
有	-5.06623
以	-5.27298
無	-5.36575
是	-5.38737
為	-5.41631
若	-5.43536
此	-5.50866
即	-5.52406
而	-5.54951
之	-5.60036
一	-5.6427
則	-5.64572
如	-5.65015
二	-5.68282
謂	-5.7367
非	-5.76703
義	-5.77012
(	-5.77071
)	-5.77071
▁	-5.81253
法	-5.84316
生	-5.88394
言	-5.88869
又	-5.90333
不	-5.91906
名	-5.943
中	-5.95348
因	-5.96265
下	-5.97004
等	-5.98335
明	-5.98801
於	-6.0108
亦	-6.02073
云	-6.04239
耶	-6.05788
破	-6.06809
答	-6.13995
,	-6.14119
相	-6.16802
三	-6.17202
說	-6.1864
今	-6.20727
。「	-6.24851
彼	-6.30008
問	-6.30676
空	-6.32359
人	-6.34152
見	-6.34974
體	-6.38462
得	-6.39722
」	-6.41305
心	-6.44697
異	-6.47823
時	-6.48983
果	-6.49313
與	-6.49474
我	-6.54777
。」【	-6.5531
但	-6.56318
佛	-6.56633
應	-6.58567
即是	-6.59536
知	-6.61575
後	-6.62954
如是	-6.63126
前	-6.63351
作	-6.64211
涅槃	-6.65055
是故	-6.66042
用	-6.66232
皆	-6.6685
然	-6.67881
既	-6.68636
論	-6.69524
智	-6.70119
成	-6.72113
同	-6.72833
常	-6.72906
自	-6.73034
其	-6.75244
性	-6.76538
及	-6.76935
四	-6.77606
滅	-6.77618
起	-6.78506
雖	-6.78616
理	-6.80237
實	-6.8091
初	-6.82444
耳	-6.83352
從	-6.84558
。】「	-6.85082
釋	-6.85178
行	-6.85614
云何	-6.86793
本	-6.88749
眾生	-6.88941
菩薩	-6.89392
曰	-6.90077
大	-6.90521
緣	-6.91752
離	-6.91789
何以故	-6.92578
立	-6.953
復次	-6.95948
上	-6.96392
能	-6.96964
出	-6.9766
觀	-6.97687
故云	-6.98067
一切	-6.98273
意	-6.98318
名為	-6.98468
通	-6.98656
至	-6.9971
由	-7.01296
色	-7.01704
汝	-7.02216
正	-7.0222
所	-7.02404
真	-7.02784
次	-7.03534
所以	-7.03942
因緣	-7.0493
在	-7.05575
物	-7.06885
解	-7.07007
身	-7.0715
*	-7.07364
釋曰	-7.08906
道	-7.09522
諸法	-7.0956
別	-7.10082
就	-7.10136
無常	-7.13385
可	-7.14728
教	-7.1593
境	-7.16663
難	-7.17759
合	-7.18675
諸	-7.18895
顯	-7.19185
住	-7.19561
二諦	-7.20063
經	-7.20103
門	-7.20499
事	-7.20778
有無	-7.21174
執	-7.22575
外	-7.2325
或	-7.23336
定	-7.24883
文	-7.2592
假	-7.26037
斷	-7.26657
宗	-7.27804
一者	-7.27864
依	-7.28117
二者	-7.28172
去	-7.28214
多	-7.28243
業	-7.28924
入	-7.29623
無有	-7.29979
識	-7.31131
已	-7.31851
因果	-7.32573
取	-7.3292
當	-7.33532
亦無	-7.34746
生死	-7.34822
不同	-7.35147
過	-7.36845
復	-7.37355
令	-7.3887
證	-7.40758
盡	-7.41161
乃	-7.41412
般若	-7.42192
分別	-7.43461
疏	-7.44434
五	-7.44664
他	-7.44987
失	-7.45905
先	-7.46399
如來	-7.46423
辨	-7.47211
分	-7.49607
苦	-7.49753
受	-7.49773
何	-7.50115
照	-7.5015
大乘	-7.51015
不得	-7.51435
並	-7.51617
此是	-7.53941
神	-7.54432
唯	-7.55149
何者	-7.55305
內	-7.55364
求	-7.55379
未	-7.56034
聞	-7.56052
處	-7.56081
欲	-7.56324
不生	-7.57519
故名	-7.58067
瓶	-7.58076
論主	-7.58101
方便	-7.58683
佛性	-7.60013
煩惱	-7.60203
餘	-7.60342
對	-7.60498
俱	-7.60821
矣	-7.62276
具	-7.62488
無生	-7.62664
喻	-7.63048
善	-7.63159
隨	-7.63586
外道	-7.64471
世間	-7.64659
兩	-7.64942
眼	-7.65556
不可	-7.65753
語	-7.66575
生滅	-7.67289
若言	-7.67554
開	-7.67619
來	-7.67819
小	-7.69103
無相	-7.70309
便	-7.70865
悟	-7.70867
無為	-7.71639
邪	-7.72113
不能	-7.73173
第二	-7.73616
覺	-7.74222
今明	-7.74958
俗	-7.75105
方	-7.76065
約	-7.76375
真諦	-7.76459
師	-7.77671
計	-7.78756
現	-7.78796
指	-7.78862
火	-7.79144
。】△	-7.79196
論云	-7.79316
則無	-7.79528
舉	-7.79545
世諦	-7.7997
波若	-7.80289
答曰	-7.80658
乃至	-7.80861
如此	-7.81695
不成	-7.81919
引	-7.81996
巳	-7.82504
問曰	-7.83777
故知	-7.84421
聖	-7.84439
此中	-7.847
小乘	-7.85213
若無	-7.85347
乎	-7.86147
迷	-7.86429
待	-7.86517
不異	-7.86749
結	-7.86892
壞	-7.86909
若有	-7.8809
譬如	-7.88545
實相	-7.88683
亦應	-7.8967
.	-7.90062
深	-7.90129
第三	-7.90646
不見	-7.90932
自性	-7.91379
聖人	-7.91393
第一	-7.92104
自體	-7.92148
不知	-7.92247
除	-7.92318
總	-7.93336
攝	-7.93505
會	-7.93528
若爾	-7.93778
故言	-7.9386
必	-7.94212
轉	-7.944
不應	-7.95084
地	-7.95362
六	-7.95474
形	-7.95485
等者	-7.95496
二乘	-7.95591
慧	-7.95763
位	-7.96135
差別	-7.96241
樂	-7.97733
絕	-7.9815
解脫	-7.98346
亦是	-7.98361
皆是	-7.98692
捨	-7.99461
中道	-7.99677
惑	-8.00407
偈	-8.00511
、	-8.00585
論者言	-8.01023
稱	-8.01185
非有非無	-8.01357
化	-8.01379
法身	-8.01682
虛空	-8.01716
還	-8.02039
五陰	-8.02054
動	-8.02273
乘	-8.02669
諦	-8.02837
而有	-8.03176
和合	-8.03285
三乘	-8.04204
遠	-8.04507
水	-8.05016
三者	-8.05138
修	-8.05173
重	-8.05503
著	-8.05658
勝	-8.05692
凡	-8.06288
天	-8.0638
未來	-8.07767
外人	-8.08649
品	-8.09189
現在	-8.10355
世	-8.10421
德	-8.10521
示	-8.10734
所說	-8.11237
無知	-8.11494
竟	-8.11681
頌言	-8.11747
外曰	-8.11763
非是	-8.11826
根	-8.12147
夫	-8.12493
顛倒	-8.12613
何故	-8.13519
無體	-8.13627
既無	-8.13877
將	-8.13935
亦非	-8.14334
淨	-8.1442
聲	-8.15256
性空	-8.15329
不可得	-8.15335
施	-8.15399
廣	-8.15626
感	-8.15997
次第	-8.16442
各	-8.16515
修妬路	-8.16814
信	-8.16919
終	-8.17218
過去	-8.17818
非有	-8.18254
遍	-8.18346
屬	-8.18682
不然	-8.18838
真俗	-8.19024
故曰	-8.1938
內曰	-8.19442
又云	-8.19655
反	-8.19783
;	-8.19904
了	-8.1994
四句	-8.20184
第一義中	-8.20215
之義	-8.20302
一切法	-8.20461
豈	-8.20749
不二	-8.2085
猶	-8.21125
即無	-8.21346
義也	-8.21545
七	-8.21557
亦爾	-8.21851
悉	-8.22225
爾	-8.22764
學	-8.23043
少	-8.23133
長	-8.23612
須	-8.23698
不遷	-8.24117
有為	-8.24245
共	-8.24504
發	-8.24535
變	-8.24604
此則	-8.24638
子	-8.25087
經云	-8.2577
一異	-8.25814
極	-8.25983
妄	-8.26192
可得	-8.26435
妙	-8.27144
始	-8.28085
人法	-8.28211
相續	-8.28363
此即	-8.28532
更	-8.28559
障	-8.288
相待	-8.2882
思	-8.28935
遮	-8.29147
此義	-8.29193
病	-8.29574
?	-8.29701
亦不	-8.29799
決定	-8.2992
能生	-8.30026
所謂	-8.30616
力	-8.30694
三世	-8.30812
而不	-8.30836
則是	-8.3086
智慧	-8.30989
實有	-8.31154
故有	-8.31501
無量	-8.32279
數	-8.32563
境智	-8.32874
是以	-8.33151
相違	-8.33937
八	-8.34211
境界	-8.34635
權	-8.34892
凡夫	-8.35315
流	-8.3538
疑	-8.3539
論曰	-8.35437
無因	-8.35546
色等	-8.35838
所作	-8.35925
述曰	-8.35994
一時	-8.36698
聲聞	-8.36832
且	-8.3729
情	-8.37487
造	-8.37588
略	-8.37937
倒	-8.37956
偏	-8.37984
道理	-8.37988
十	-8.38184
生時	-8.38313
字	-8.38364
昔	-8.38512
眾	-8.38584
中論	-8.39071
惡	-8.3931
有所得	-8.39429
所言	-8.39602
塵	-8.39884
非無	-8.39941
是有	-8.40102
寂	-8.40537
以為	-8.40636
愛	-8.40824
有二	-8.40965
止	-8.41014
無我	-8.41102
向	-8.41288
救	-8.41396
無明	-8.41781
王	-8.41833
望	-8.42148
種種	-8.42838
虗	-8.43013
念	-8.43291
可見	-8.43454
第四	-8.43644
是則	-8.44604
違	-8.44626
存	-8.44779
申	-8.45264
哉	-8.45771
使	-8.46
可知	-8.46165
之法	-8.46398
二智	-8.46966
度	-8.47203
亦有	-8.47244
類	-8.4731
標	-8.47608
歸	-8.47817
假名	-8.47896
空有	-8.48227
諸佛	-8.48285
俗諦	-8.48392
萬物	-8.48427
燈	-8.48577
前後	-8.48587
要	-8.48657
息	-8.48784
亦然	-8.48844
三界	-8.48936
縛	-8.49105
作者	-8.49156
無所得	-8.49187
表	-8.49901
菩提	-8.5011
能所	-8.50344
故名為	-8.50519
常住	-8.50581
法體	-8.50618
似	-8.50926
為因	-8.5093
末	-8.51389
虛	-8.514
只	-8.5144
無故	-8.51553
遂	-8.51959
本無	-8.5204
諸行	-8.52075
玄	-8.52372
家	-8.52945
若謂	-8.53254
誰	-8.53451
明之	-8.53951
獨	-8.54323
達	-8.54557
責	-8.54727
解云	-8.55303
窮	-8.55325
斯	-8.55401
之理	-8.55553
則有	-8.55682
不生不滅	-8.56454
內外	-8.56501
觸	-8.56602
龍樹	-8.56934
大小	-8.57398
遣	-8.57556
陰	-8.57575
無別	-8.57669
細	-8.57742
一乘	-8.57795
興	-8.57942
尚	-8.57979
邊	-8.58025
雙	-8.58256
偈說	-8.58353
麁	-8.58482
此二	-8.58535
所以然者	-8.58831
戲論	-8.58869
順	-8.58893
直	-8.59093
想	-8.59156
所見	-8.59204
不有	-8.59254
量	-8.59599
亦得	-8.59711
而言	-8.59715
有異	-8.59882
日	-8.60182
死	-8.60433
此論	-8.60643
有法	-8.60661
往	-8.61013
是常	-8.61143
寂滅	-8.61161
正法	-8.61316
無性	-8.61658
如論	-8.61806
平等	-8.61855
二種	-8.61939
故經云	-8.61994
不滅	-8.62285
一切眾生	-8.62686
所依	-8.6275
故無	-8.62943
有二種	-8.63017
之人	-8.63217
染	-8.63544
象	-8.636
何有	-8.6371
邪見	-8.63713
即有	-8.63721
未有	-8.63883
古	-8.64064
去者	-8.6429
推	-8.64375
集	-8.64573
別有	-8.64639
十二	-8.64776
法性	-8.64781
而生	-8.64911
應有	-8.64988
四者	-8.65053
據	-8.65115
三種	-8.6563
八不	-8.66372
所以者何	-8.66385
利	-8.66404
亦名	-8.66414
三相	-8.66545
中有	-8.66728
譬	-8.67238
無所	-8.67536
山	-8.67591
真實	-8.67829
無二	-8.68257
真如	-8.68688
墮	-8.68756
益	-8.6924
亦如是	-8.69331
之心	-8.69337
不空	-8.69362
佛法	-8.69404
不取	-8.69506
歎	-8.69552
例	-8.6984
微	-8.70009
況	-8.70206
如偈	-8.7029
第一義	-8.70361
安	-8.70503
故說	-8.70721
雖有	-8.7093
冥	-8.70969
之言	-8.70993
佛果	-8.7129
一法	-8.71296
亡	-8.71686
善惡	-8.71746
目	-8.71836
不定	-8.71925
近	-8.71936
不離	-8.7208
同時	-8.72193
九	-8.72418
並是	-8.7242
靜	-8.72449
種	-8.72457
未生	-8.72521
下半	-8.7259
虛妄	-8.72777
福	-8.72844
去來	-8.72888
足	-8.73031
無異	-8.73186
不住	-8.73467
習	-8.74362
若是	-8.74489
翻	-8.74555
有三	-8.74681
無礙	-8.75063
復有	-8.75107
自在	-8.75345
體用	-8.75371
既有	-8.75405
述	-8.75837
報	-8.75838
國	-8.76349
殊	-8.76687
切	-8.76805
傳	-8.76936
四大	-8.76948
正觀	-8.77364
當知	-8.77707
迹	-8.77768
為有	-8.77927
謂之	-8.78187
名相	-8.78356
畢竟空	-8.78519
汝言	-8.78842
罪	-8.7888
但是	-8.78897
若不	-8.79078
不起	-8.79339
萬法	-8.79472
品云	-8.79482
之中	-8.79838
為二	-8.7992
所成	-8.80074
風	-8.80452
猶如	-8.80499
若以	-8.80597
遷	-8.80723
自有	-8.80764
伏	-8.80974
序	-8.81036
眼見	-8.81211
為體	-8.81273
不出	-8.81331
極微	-8.81395
無窮	-8.81406
十地	-8.81475
功德	-8.81693
尋	-8.81748
具足	-8.81818
宜	-8.81882
現見	-8.82318
是事不然	-8.8283
清淨	-8.83059
一體	-8.83263
是無	-8.83779
部	-8.8385
不說	-8.84012
致	-8.84133
四諦	-8.84237
□	-8.84295
i	-8.85618
趣	-8.8572
大品	-8.85946
第一義諦	-8.85993
十二因緣	-8.86011
雖復	-8.86176
如何	-8.86291
圓	-8.86346
是名	-8.86582
徵	-8.86599
m	-8.86802
先有	-8.87414
究竟	-8.87432
世俗	-8.87457
如前	-8.87786
g	-8.88
:>	-8.88
<	-8.88001
隱	-8.88016
借	-8.88032
許	-8.88096
下第二	-8.88107
易	-8.8815
云何有	-8.88286
自然	-8.88314
有性	-8.88546
聖心	-8.88558
出世	-8.88586
然後	-8.88608
常無常	-8.88769
二義	-8.88867
何得	-8.8893
第五	-8.88993
斷常	-8.89016
實無	-8.89081
機	-8.8942
界	-8.89512
年	-8.896
緣生	-8.89641
權實	-8.89858
因中	-8.89873
不失	-8.89974
無所有	-8.90035
本有	-8.9017
何異	-8.90245
真空	-8.90342
此言	-8.90672
過失	-8.9071
為一	-8.90824
自他	-8.91041
新	-8.91059
金	-8.91128
唯有	-8.91199
薪	-8.91211
周	-8.91246
此明	-8.91633
非真	-8.9178
句	-8.91952
像	-8.92011
蓋	-8.92085
正破	-8.92203
有體	-8.92571
藏	-8.92637
意云	-8.92967
所知	-8.93011
既是	-8.9334
互	-8.93496
恒	-8.93661
土	-8.9379
判	-8.93914
有生	-8.94148
其義	-8.94163
體相	-8.9436
:「	-8.94405
牒	-8.94662
老	-8.94697
長行	-8.94953
戒	-8.95185
今謂	-8.95408
乖	-8.95446
次明	-8.95495
此亦不然	-8.95727
經中	-8.95764
縱	-8.96039
破之	-8.9606
前明	-8.96152
不作	-8.96181
書	-8.96604
緣起	-8.96621
相應	-8.9667
光	-8.96774
馬	-8.96803
肇公	-8.96846
牛	-8.96932
伹	-8.96932
無名	-8.9706
之名	-8.97062
法華	-8.97277
悲	-8.97556
一念	-8.97565
名之為	-8.97652
以此	-8.9776
心境	-8.97869
什	-8.98066
短	-8.98357
釋之	-8.98393
恐	-8.98463
淨名	-8.98621
此謂	-8.99249
為義	-8.99302
寄	-8.99592
》	-8.99611
為是	-8.99846
則非	-8.99934
亦可	-8.99957
契	-9.0035
定有	-9.00668
根本	-9.00676
此文	-9.00793
法師	-9.01044
又如	-9.01134
而無	-9.01592
世尊	-9.01808
章	-9.01964
有相	-9.01978
好	-9.01979
問何故	-9.02027
名字	-9.02079
不可說	-9.02354
燒	-9.02409
佛說	-9.02432
所生	-9.02993
一一	-9.03474
命	-9.03481
百論	-9.04065
一云	-9.042
是非	-9.0423
若離	-9.04279
不在	-9.04317
治	-9.04369
聚	-9.04393
運	-9.0473
簡	-9.05104
居	-9.05128
吾	-9.05423
月	-9.05432
食	-9.05433
舊	-9.05541
備	-9.05649
智者	-9.05664
口	-9.05722
此三	-9.05796
提婆	-9.05804
成就	-9.05809
所立	-9.05818
說法	-9.05892
高	-9.06084
齊	-9.06092
無法	-9.06588
二法	-9.06651
豈非	-9.06781
闇	-9.06811
去法	-9.06932
生者	-9.06956
無生滅	-9.06957
說有	-9.07057
有人言	-9.07072
論者	-9.07083
味	-9.0742
瓶等	-9.07502
暗	-9.07644
實智	-9.07971
主	-9.08151
願	-9.08392
即真	-9.08422
則知	-9.08647
無不	-9.08901
巧	-9.08963
眼等	-9.09068
竝	-9.09453
立義	-9.09614
言說	-9.09628
四緣	-9.09642
兼	-9.09657
親	-9.09816
相即	-9.09896
無作	-9.09953
燃	-9.09968
一分	-9.10024
必有	-9.10115
音	-9.10201
敘	-9.10202
美	-9.10238
故次頌曰	-9.10312
河	-9.10339
無自性	-9.10375
之所	-9.10471
不為	-9.10692
手	-9.10693
有餘	-9.10774
眾緣	-9.10792
微塵	-9.10824
無自體	-9.11166
功	-9.112
金剛	-9.11249
則不	-9.11281
無住	-9.11315
正因	-9.11365
所有	-9.11481
都	-9.11526
於諦	-9.11556
果報	-9.1182
公	-9.11836
毘曇	-9.11999
今破	-9.1215
都無	-9.12426
猶是	-9.12462
經論	-9.12513
驗	-9.1277
初句	-9.12978
此下	-9.13008
非有無	-9.13039
何以	-9.13261
為緣	-9.13489
但有	-9.13591
然則	-9.13626
其體	-9.13656
三論	-9.13788
剎那	-9.13887
所得	-9.13924
有二義	-9.14059
不動	-9.14066
立名	-9.14136
此意	-9.14178
應無	-9.14236
論之	-9.14448
始終	-9.14449
無實	-9.14502
門破	-9.14522
故不	-9.14585
權智	-9.14594
由此	-9.14959
僧	-9.14961
比量	-9.14961
不名	-9.15119
乃是	-9.15253
愚	-9.15563
得成	-9.15576
譬喻	-9.15762
異者	-9.16122
忘	-9.16132
思惟	-9.16596
頌	-9.16755
諸法實相	-9.17068
是無常	-9.17111
秤	-9.17173
初明	-9.17173
大意	-9.17375
之相	-9.17453
所執	-9.1748
何所	-9.17481
於此	-9.1752
亦云	-9.17777
能見	-9.17809
不無	-9.17816
相似	-9.17958
成實	-9.17967
弟子	-9.18075
旨	-9.18199
意也	-9.1827
三時	-9.18324
謂有	-9.18364
久	-9.18372
有此	-9.18423
此品	-9.18499
懷	-9.1851
不爾	-9.18618
比	-9.1867
華	-9.18721
故非	-9.18991
我見	-9.19063
罪福	-9.19371
無餘	-9.19449
談	-9.19466
不待	-9.19496
有人	-9.19825
若法	-9.19972
種子	-9.20053
隨緣	-9.20304
列	-9.20586
全	-9.20662
百	-9.20711
以其	-9.20796
不受	-9.20807
之意	-9.20976
之體	-9.20993
七地	-9.21172
不斷	-9.21283
焉	-9.21318
半	-9.21344
義不然	-9.21404
異相	-9.21414
辯	-9.21439
今言	-9.21658
衣	-9.22
滿	-9.2208
上半	-9.222
蓋是	-9.22228
折	-9.2231
以無	-9.22495
海	-9.22519
是一	-9.22676
正明	-9.22682
蘊	-9.22767
之時	-9.22767
總別	-9.22775
四論	-9.22909
虗空	-9.22945
莫	-9.23372
樹	-9.2338
不可見	-9.23721
所行	-9.23749
如是等	-9.23763
萬	-9.23852
藥	-9.23935
有三種	-9.23952
辭	-9.24196
持	-9.24343
柱	-9.24398
空故	-9.24411
未曾	-9.24449
見者	-9.2451
非實	-9.24528
請	-9.24596
師云	-9.24662
初偈	-9.24684
異也	-9.24848
羅	-9.25088
為宗	-9.25267
劫	-9.25271
第六	-9.25272
同異	-9.25279
一心	-9.25358
不識	-9.25362
奪	-9.25398
又若	-9.25525
成立	-9.25731
一義	-9.25767
熱	-9.25831
無得	-9.25941
此說	-9.26173
超	-9.26482
三藏	-9.26524
決	-9.26679
有為法	-9.26915
俱無	-9.26965
破其	-9.27153
開善	-9.27207
泥	-9.27271
退	-9.27384
非但	-9.27605
散	-9.27643
皆有	-9.27746
經說	-9.27755
中間	-9.27844
有時	-9.27965
白	-9.27984
頭	-9.28197
言有	-9.28271
不破	-9.28327
能知	-9.28457
造論	-9.28588
一切諸法	-9.2879
則應	-9.28913
礙	-9.28928
一人	-9.29026
漸	-9.29043
陳	-9.29076
聖智	-9.29086
千	-9.29102
甚深	-9.29187
為實	-9.29396
六道	-9.2947
無邊	-9.29558
覆	-9.29653
云何言	-9.29671
此云	-9.29721
轉變	-9.29915
寶	-9.30149
不須	-9.30196
收	-9.30206
無漏	-9.30438
詮	-9.30693
不淨	-9.30786
不一	-9.3094
器	-9.31077
作用	-9.31289
或言	-9.31483
續	-9.31747
初地	-9.31748
能破	-9.31751
非一	-9.31771
非緣	-9.31927
有所	-9.31964
亂	-9.32015
欲令	-9.32324
彼云	-9.32381
應知	-9.32421
敬	-9.32422
脩	-9.32635
然此	-9.32652
和	-9.32736
到	-9.32772
乳	-9.32816
或有	-9.32882
不信	-9.32947
而得	-9.3312
生法	-9.33305
以明	-9.33342
不解	-9.33498
四種	-9.33611
進	-9.33795
諸見	-9.33858
不自	-9.34021
氣	-9.34112
是亦不然	-9.34304
文二	-9.34323
了因	-9.34432
不言	-9.34455
即知	-9.3446
肇師	-9.34466
觀察	-9.34605
法中	-9.34626
論文	-9.34887
聽	-9.3493
可有	-9.35169
橫	-9.35356
如彼	-9.35575
之道	-9.35598
皆空	-9.35605
謬	-9.35648
《	-9.35655
次破	-9.35764
教諦	-9.35844
設	-9.3597
功能	-9.36176
長短	-9.36211
傍	-9.36386
所破	-9.3657
不實	-9.36672
呵	-9.3672
老死	-9.36834
非因非果	-9.36845
癡	-9.36868
亦有亦無	-9.36874
意謂	-9.37038
含	-9.37189
無體故	-9.37468
上來	-9.37632
三昧	-9.37646
□□	-9.37741
淺	-9.37928
不變	-9.38025
之智	-9.38243
被	-9.38258
已生	-9.38289
妄想	-9.38436
異故	-9.38712
感應	-9.38915
二門	-9.38924
亦如	-9.39013
以是故	-9.39191
為無	-9.39223
中無	-9.39379
苦樂	-9.3949
不以	-9.39511
之用	-9.40224
動靜	-9.40497
本來	-9.4058
東	-9.40813
滅時	-9.40928
而說	-9.40989
如人	-9.41077
幾	-9.41168
跡	-9.41228
故是	-9.41425
小乘人	-9.41426
自生	-9.41594
為異	-9.41696
爾時	-9.41739
非常	-9.4174
泯	-9.41813
畢竟	-9.41844
相對	-9.41847
以是義故	-9.4193
經曰	-9.42143
問若	-9.42216
何處	-9.42232
中說	-9.42293
而非	-9.42357
不真	-9.42392
雜	-9.42454
母	-9.42634
卷	-9.42664
成佛	-9.42695
正是	-9.42696
凡聖	-9.42979
於中	-9.43356
斷滅	-9.43385
此之	-9.43393
外人言	-9.43523
而起	-9.43553
可燃	-9.43563
三寶	-9.43584
精	-9.43654
厭	-9.43832
損	-9.44108
所起	-9.44217
是有為	-9.44298
自相	-9.44331
吉	-9.4449
執有	-9.44535
有見	-9.44581
審	-9.44622
此釋	-9.44649
物體	-9.44662
二相	-9.44685
無始	-9.44741
數論	-9.44933
累	-9.45035
印	-9.45127
有因	-9.4514
生起	-9.45379
不了	-9.45427
之流	-9.45466
融	-9.45552
何謂	-9.45588
源	-9.45784
拔	-9.46044
有名	-9.46062
非謂	-9.46097
利益	-9.46316
成論	-9.46327
廢	-9.46356
是實	-9.46407
釋迦	-9.46418
問答	-9.46679
終不	-9.46819
勝義	-9.46834
而今	-9.46847
西	-9.46877
固	-9.46905
人天	-9.46914
豈不	-9.47009
大悲	-9.47122
廣說	-9.47303
章門	-9.47453
無也	-9.47564
不善	-9.47605
有得	-9.47607
所緣	-9.47682
斥	-9.47727
理教	-9.47907
沒	-9.48044
悲心	-9.48047
既云	-9.48314
有知	-9.48411
之境	-9.48544
能作	-9.48579
智度論云	-9.48593
所取	-9.48667
於彼	-9.48679
金剛心	-9.48722
貪	-9.4878
對治	-9.48989
一句	-9.49103
屈	-9.49271
甚	-9.49332
空義	-9.49336
今此	-9.49344
質	-9.49411
論中	-9.49536
不失法	-9.49683
釋論	-9.49693
往來	-9.49695
疾	-9.4971
所攝	-9.49742
空者	-9.49742
平	-9.49759
生於	-9.49889
法者	-9.49984
是果	-9.50031
勝義諦中	-9.50071
有我	-9.50138
異於	-9.50178
亦不成	-9.5024
五者	-9.50272
文云	-9.50561
是事	-9.50603
滯	-9.51188
無記	-9.5145
支	-9.51523
說空	-9.51525
我今	-9.51547
遇	-9.51667
實法	-9.51689
返	-9.51706
義不成	-9.51763
增	-9.51872
故得	-9.51897
及以	-9.51904
無心	-9.51993
正理	-9.52052
二見	-9.52063
有過	-9.52171
清	-9.52537
題	-9.52595
四相	-9.52634
次釋	-9.52657
各有	-9.52716
法界	-9.52727
略云	-9.52737
有為無為	-9.52777
今以	-9.52807
導	-9.52858
并	-9.52863
此亦	-9.52906
棄	-9.52925
但明	-9.52983
大涅槃	-9.5308
▁二	-9.53128
號	-9.53302
莊嚴	-9.53646
解釋	-9.53719
際	-9.53735
言無	-9.53745
假有	-9.53767
牙	-9.53833
僧佉	-9.53925
木	-9.53934
破邪	-9.53936
諸有	-9.5395
是世諦	-9.54018
世人	-9.54038
此語	-9.54117
不盡	-9.54161
可以	-9.54234
真理	-9.54287
守	-9.54366
勿	-9.54428
強	-9.54556
生相	-9.54827
諸根	-9.54856
不壞	-9.54901
未盡	-9.54901
不遍	-9.54947
為當	-9.55028
云云	-9.55094
之本	-9.55241
大士	-9.55291
稱為	-9.55372
是法	-9.55598
今欲	-9.55633
萬行	-9.55644
一往	-9.55932
何況	-9.55965
異法	-9.55983
若見	-9.56065
禮	-9.56077
鑒	-9.56123
密	-9.56155
不捨	-9.56224
又二	-9.56227
之與	-9.56332
變異	-9.56367
是空	-9.56375
後時	-9.56468
領	-9.56501
是人	-9.56518
不合	-9.56577
為本	-9.56583
父	-9.5662
汝今	-9.56761
有其	-9.56824
得涅槃	-9.56877
第七	-9.56931
但以	-9.57006
云何名	-9.57266
同喻	-9.57477
幽	-9.57492
染者	-9.57513
此偈	-9.57515
託	-9.5752
不來	-9.57529
幻	-9.57693
用也	-9.57792
影	-9.57857
竪	-9.57935
上明	-9.57941
施設	-9.58197
正道	-9.58243
最後	-9.5826
於世諦中	-9.58356
故今	-9.58489
得失	-9.58533
頓	-9.58591
靈	-9.58639
十方	-9.58663
有果	-9.58765
不許	-9.58776
二慧	-9.58906
已有	-9.58906
斷見	-9.58944
最	-9.58978
下第三	-9.59021
發心	-9.59024
當體	-9.59201
二云	-9.59203
布	-9.59286
為真	-9.59288
阿羅漢	-9.59333
難也	-9.5947
無差別	-9.59523
得道	-9.59626
無色	-9.59857
總非	-9.59921
無分別	-9.59923
諸佛菩薩	-9.60078
無果	-9.60102
之教	-9.60185
未得	-9.60432
第八	-9.60525
關	-9.60657
故能	-9.60692
前云	-9.60719
豈得	-9.60815
永	-9.60935
盛	-9.61048
丈夫	-9.61066
性相	-9.61143
前有	-9.61168
宛然	-9.61171
第二偈	-9.61197
理內	-9.61226
城	-9.61236
注云	-9.61345
華嚴	-9.61346
破外道	-9.61372
謗	-9.61403
諍	-9.61437
可解	-9.61453
有分	-9.61481
此人	-9.61564
即空	-9.61784
成壞	-9.61894
一向	-9.61943
豈有	-9.62056
見有	-9.62085
曾	-9.62271
為欲	-9.62414
任	-9.62453
引經	-9.62527
只是	-9.62549
之過	-9.62798
忍	-9.62858
患	-9.62893
夢	-9.62998
元	-9.63155
理外	-9.63187
斷惑	-9.63386
此句	-9.63476
世界	-9.63514
體性	-9.63565
改	-9.63699
脫	-9.63718
秦王	-9.63785
詺	-9.63829
彰	-9.63866
滅度	-9.63868
人也	-9.63918
有何	-9.63929
記	-9.6396
不可以	-9.6396
生生	-9.63977
那	-9.64222
云何得	-9.64349
相生	-9.64394
之事	-9.64399
問若爾	-9.644
釋成	-9.64427
大品經	-9.6445
色心	-9.64456
常有	-9.64555
古今	-9.64666
劣	-9.64719
生死涅槃	-9.64768
初二句	-9.64773
勸	-9.65016
過故	-9.65071
是為	-9.65349
住相	-9.65385
佛言	-9.65424
有四	-9.65425
之因	-9.65442
前破	-9.65622
無分別智	-9.65654
此乃	-9.65863
是假	-9.65914
太	-9.65963
演	-9.66071
應是	-9.6616
欲明	-9.66204
為正	-9.66493
可生	-9.66588
釋云	-9.66618
空等	-9.66658
于	-9.66663
此復云何	-9.66753
自作	-9.66768
如其	-9.66788
為破	-9.66792
所證	-9.66799
隔	-9.66814
偽	-9.66855
非色	-9.66857
即非	-9.66883
所明	-9.66902
難曰	-9.6701
昧	-9.67027
不思議	-9.67219
無物	-9.6725
今問	-9.67501
一切皆	-9.6757
尊	-9.67601
須菩提	-9.6762
汝說	-9.67703
誦	-9.67712
復次若	-9.6773
越	-9.6776
􂎥	-9.67771
摩訶衍	-9.67817
非實有	-9.67841
第	-9.67865
無用	-9.68017
波	-9.68071
不如	-9.68248
樂等	-9.68249
之性	-9.68298
般若波羅蜜	-9.68457
但為	-9.68543
承	-9.68545
雖無	-9.68589
路	-9.68633
生已	-9.68646
科	-9.68649
依止	-9.6866
緣會	-9.68679
法門	-9.68684
令其	-9.68755
羅漢	-9.68832
舍	-9.68834
首	-9.68854
無間	-9.68947
修行	-9.68955
起時	-9.68973
酪	-9.69013
堅	-9.6902
天竺	-9.69052
雲	-9.69087
出家	-9.69107
佛教	-9.69186
有一	-9.69222
無過	-9.69243
賢	-9.69259
三句	-9.69286
又復	-9.69344
注	-9.69397
因義不成	-9.69591
非因	-9.69612
是中	-9.69691
無復	-9.69696
因故	-9.69698
應如	-9.69816
未起	-9.69845
天地	-9.69962
謝	-9.69991
作業	-9.70013
如實	-9.70047
釋上	-9.70074
女	-9.70111
數人	-9.70117
受者	-9.70317
石	-9.70388
去時	-9.7052
撿	-9.70557
必須	-9.70647
偈為二	-9.7068
則為	-9.70907
重破	-9.70986
中假	-9.71177
得解脫	-9.71307
因中無果	-9.71406
誠	-9.71451
不覺	-9.71522
不去	-9.71643
鳥	-9.71729
不從	-9.71834
此法	-9.71899
具有	-9.71999
車	-9.72038
亦復如是	-9.721
之外	-9.72189
先後	-9.72231
二俱	-9.72305
各各	-9.72338
何則	-9.7236
悟入	-9.72406
亦復	-9.72435
不行	-9.72457
等也	-9.72465
假實	-9.72754
招	-9.72978
智度論	-9.73011
」【	-9.73054
方等	-9.73061
後有	-9.73157
難者	-9.73221
節	-9.73242
為世諦	-9.73327
皆無	-9.73361
名曰	-9.73461
三法	-9.73464
明無	-9.735
復有人言	-9.73522
龍	-9.73573
聖教	-9.736
又問	-9.73696
汝立	-9.73775
故下頌	-9.73827
是因	-9.73872
義故	-9.73917
唯一	-9.73922
已滅	-9.74137
若就	-9.74219
害	-9.74278
以不	-9.74345
南	-9.74354
之物	-9.74434
段	-9.74453
變化	-9.74545
既非	-9.74613
能相	-9.74667
講	-9.74717
接	-9.7472
珠	-9.74736
不相應	-9.74747
有四種	-9.7476
以有	-9.7485
此事	-9.74858
行者	-9.7501
寧	-9.7508
依他	-9.75105
一物	-9.75125
徒	-9.75139
為三	-9.75192
既言	-9.75252
建立	-9.75262
不因	-9.7533
一切智	-9.75383
其實	-9.75586
輪	-9.75675
遠離	-9.75883
作因	-9.76052
而後	-9.76074
各異	-9.76077
稟	-9.76101
呼	-9.76105
亦無有	-9.76178
大品云	-9.7619
至於	-9.76209
不成故	-9.76213
能起	-9.76238
既不	-9.76278
五塵	-9.76281
無生無滅	-9.76378
今就	-9.76419
單	-9.76521
別異	-9.76539
無見	-9.76639
可說	-9.76658
得名	-9.76713
定慧	-9.76722
計有	-9.76751
從緣生	-9.76818
載	-9.77084
更無	-9.7714
何用	-9.77151
下釋	-9.7721
取相	-9.77221
林	-9.77329
畢竟無	-9.77446
彌	-9.77465
喜	-9.77499
中論云	-9.77535
婆羅門	-9.77591
適	-9.77634
法相	-9.77658
始有	-9.7767
還是	-9.7772
迦葉	-9.77766
後二句	-9.77769
隨順	-9.77942
偈云	-9.78164
又汝	-9.7823
之說	-9.78538
即應	-9.78587
三德	-9.7859
何物	-9.78608
因中有果	-9.78721
善法	-9.78776
避	-9.78853
何能	-9.78867
普	-9.78869
第二明	-9.79451
神通	-9.79666
豈是	-9.79831
「	-9.79874
非不	-9.79926
即成	-9.79984
義成	-9.8
為果	-9.80175
欲得	-9.80291
不立	-9.80298
群	-9.80306
闕	-9.80333
空也	-9.80342
芽	-9.80481
其性	-9.8049
三假	-9.80528
遊	-9.80536
勢	-9.80614
因者	-9.80725
既其	-9.80733
仰	-9.80884
二句	-9.80939
論意	-9.80988
有五	-9.81018
舍利弗	-9.81173
涅槃經云	-9.81223
弘	-9.81415
己	-9.81667
五種	-9.81743
別相	-9.81757
無言	-9.81788
青	-9.81844
於空	-9.8186
大論	-9.81925
徧	-9.82025
輕	-9.82073
能照	-9.82103
是真	-9.82164
破也	-9.8223
:	-9.82394
取著	-9.82429
流轉	-9.82508
理也	-9.82706
不應有	-9.82763
者不然	-9.82807
不有不無	-9.82932
因成	-9.8301
若人	-9.83056
法也	-9.83068
何處有	-9.83087
制	-9.83245
不著	-9.8325
分位	-9.83407
殺	-9.83421
以顯	-9.83487
經文	-9.83658
却	-9.83737
無從	-9.83749
義者	-9.83779
沙門	-9.83881
!	-9.83916
是涅槃	-9.84008
此理	-9.84062
莊子	-9.84204
若能	-9.84341
佛經	-9.84361
此義云何	-9.84454
此破	-9.84543
放光	-9.84635
亦得言	-9.84638
總結	-9.8468
之有	-9.84732
六種	-9.84795
之異	-9.84905
法空	-9.84962
光明	-9.85076
破於	-9.85183
熟	-9.85203
次句	-9.85254
緣因	-9.85283
總相	-9.85304
劉公	-9.85332
讚	-9.8534
而能	-9.85451
大乘人	-9.85451
俱有	-9.85451
則失	-9.85504
花	-9.85562
應身	-9.85611
薩婆多	-9.85641
不絕	-9.85683
善根	-9.8573
過去世	-9.8576
因緣生	-9.85769
差	-9.858
藉	-9.86067
悉皆	-9.8607
穀	-9.86151
香	-9.86251
文字	-9.86263
二名	-9.8637
釋也	-9.86378
此非	-9.8638
那得	-9.86397
不復	-9.86428
一切法空	-9.86611
是佛	-9.86654
三毒	-9.86759
縷	-9.86781
加	-9.86782
即此	-9.86822
若說	-9.86828
共相	-9.86861
不相	-9.86888
而為	-9.86932
提	-9.86948
之也	-9.87112
薪火	-9.8712
觀智	-9.87252
空華	-9.87312
為成	-9.87313
異喻	-9.87364
前問	-9.87412
何須	-9.87482
二邊	-9.87663
初破	-9.87821
取者	-9.87863
三義	-9.87892
召	-9.87929
第十	-9.87969
猶未	-9.88019
起者	-9.88029
盲	-9.88075
歷	-9.88098
見諦	-9.88138
言教	-9.88172
一種	-9.88205
異體	-9.88416
展轉	-9.8842
歡喜	-9.8848
淺深	-9.88485
他性	-9.88575
什公	-9.88657
大經	-9.88797
是故今明	-9.88798
秦	-9.89202
滅故	-9.89204
為名	-9.89242
途	-9.89243
不名為	-9.89336
留	-9.89458
句義	-9.89475
摩	-9.89526
何等	-9.89536
若或	-9.89626
草木	-9.89823
體也	-9.89836
迴	-9.89878
迷悟	-9.89959
偈言	-9.89989
此經	-9.8999
次第緣	-9.90036
無滅	-9.90108
苟	-9.90127
諸菩薩	-9.90172
比丘	-9.90198
破有	-9.90262
清涼	-9.90276
良由	-9.90359
聖諦	-9.90361
若汝	-9.90496
欲界	-9.9062
如來藏	-9.90634
惱	-9.90639
法華云	-9.9067
此四	-9.90695
生住滅	-9.90716
為常	-9.90723
二人	-9.90768
故成	-9.90843
有用	-9.90862
至人	-9.90932
漚和	-9.91018
不到	-9.91066
為喻	-9.91079
禪	-9.91161
二破	-9.91175
在於	-9.91199
後世	-9.91233
不與	-9.91249
遮遣	-9.9125
逆	-9.91265
非諦	-9.91305
勤	-9.91402
什師	-9.91529
落	-9.9163
則成	-9.91643
之緣	-9.9181
而實	-9.91877
原	-9.91884
可相	-9.91897
其心	-9.91897
讀	-9.91898
有兩	-9.91945
善男子	-9.92005
滅相	-9.92012
第九	-9.92027
外云	-9.92132
微妙	-9.92154
是故說	-9.92199
經意	-9.92276
亦不得	-9.92342
明二諦	-9.92382
二不二	-9.92555
番	-9.9263
無定	-9.92668
身心	-9.92735
洗	-9.9275
何名	-9.92771
為證	-9.92803
既爾	-9.92856
故須	-9.92874
又此	-9.92889
曉	-9.92946
六者	-9.92993
是無為	-9.93022
依此	-9.9305
等法	-9.93062
習氣	-9.93219
捲	-9.93285
所相	-9.93287
日月	-9.93295
二釋	-9.93319
斷煩惱	-9.93326
共生	-9.93353
前二	-9.93355
觀行	-9.93477
有情	-9.93508
謂無	-9.93544
涅槃是	-9.93578
問云何	-9.93593
眾經	-9.93671
異性	-9.93671
之果	-9.93703
背	-9.93718
杖	-9.93721
無緣	-9.93864
之旨	-9.93871
可取	-9.93895
六根	-9.94003
執著	-9.94033
一家	-9.94125
何不	-9.94126
未能	-9.9413
眼根	-9.94251
阿	-9.94321
詳	-9.94344
應當	-9.94438
明中道	-9.94474
合故	-9.94515
因緣故	-9.94575
或說	-9.94701
世諦中	-9.94705
生果	-9.94774
現前	-9.94822
則不應	-9.94828
見色	-9.94866
有瓶	-9.94906
十二門	-9.9493
無起	-9.95021
帝	-9.95159
勞	-9.95219
置	-9.95231
應化	-9.95246
北	-9.95284
畢	-9.95329
貴	-9.95338
能取	-9.95351
不二而二	-9.95381
見空	-9.95383
常見	-9.95403
懸	-9.95404
慮	-9.95454
無人	-9.95538
開善云	-9.95619
羅什	-9.95649
現量	-9.95689
過也	-9.95704
如說	-9.95791
常法	-9.95883
如上	-9.95902
通別	-9.9602
譯	-9.96033
有生滅	-9.96073
各別	-9.96095
彼此	-9.96243
二難	-9.96348
相離	-9.96442
六地	-9.96462
未見	-9.96515
無能	-9.96603
慈	-9.96638
十一	-9.96693
前釋	-9.96739
皆得	-9.96747
亦同	-9.96765
所解	-9.96765
逐	-9.96879
智也	-9.96881
捉	-9.96911
本無今有	-9.9692
相故	-9.96928
所引	-9.96936
▁初	-9.97004
已去	-9.971
擬	-9.97155
響	-9.97156
有漏	-9.97176
便謂	-9.97219
愚癡	-9.97244
供養	-9.97253
慈悲	-9.97389
疊	-9.974
是即	-9.97447
下半破	-9.97646
不得言	-9.97704
有實	-9.97809
應不	-9.97836
異義	-9.9789
垢	-9.97904
後明	-9.97916
緣緣	-9.97974
教門	-9.98007
皆悉	-9.98075
是故當知	-9.98076
定無	-9.9811
正見	-9.98117
以彼	-9.98164
有佛性	-9.9817
能為	-9.9823
便是	-9.98263
之功	-9.98284
豈可	-9.98316
第一義空	-9.98376
其相	-9.98437
容	-9.98483
有色	-9.9854
其人	-9.9877
最勝	-9.99062
寂靜	-9.99261
今既	-9.99271
理事	-9.99277
絕待	-9.9936
資	-9.99441
果體	-9.99445
勝義諦	-9.9953
鏡	-9.99556
而成	-9.99565
前說	-9.99627
假說	-9.99671
求之	-9.99695
長行云	-9.99701
二明	-9.99719
間	-9.99757
泥團	-9.99765
即為	-10.0001
非真非俗	-10.0001
如涅槃	-10.0006
說言	-10.002
無當	-10.0027
論主破	-10.0031
亦不然	-10.0035
難云	-10.0047
別破	-10.0059
於有	-10.0068
性故	-10.0068
他作	-10.0072
作此	-10.008
淨土	-10.0082
略說	-10.0082
疎	-10.0085
寺	-10.0087
說之	-10.0088
真常	-10.009
染法	-10.0091
福德	-10.0091
色空	-10.0096
相違故	-10.01
少分	-10.0106
名色	-10.0111
鹹	-10.0117
答言	-10.0118
為諦	-10.0128
二果	-10.0144
不足	-10.0153
不明	-10.0157
故說頌曰	-10.0162
微細	-10.0163
有所作	-10.0166
陀	-10.0171
不有有	-10.0172
華嚴云	-10.0176
諍論	-10.0178
相因	-10.0184
此有	-10.0184
更有	-10.0185
若異	-10.0193
積	-10.0207
唱	-10.0234
能成	-10.0236
念念	-10.0241
負	-10.0245
連	-10.0265
果果	-10.0265
令悟	-10.0266
四門	-10.0268
諸師	-10.0268
麤	-10.0268
若汝意謂	-10.0269
得生	-10.0271
仍	-10.0275
天下	-10.0277
黑	-10.0278
今更	-10.028
進退	-10.0283
老子云	-10.0289
涉	-10.03
若於	-10.0305
二因	-10.0306
如是說	-10.0327
何時	-10.0327
物不遷	-10.0329
乞者	-10.033
為真諦	-10.0333
世俗諦	-10.0338
應名	-10.0338
是知	-10.0361
由是	-10.0362
志	-10.0376
地等	-10.038
序云	-10.0383
二十	-10.0399
二空	-10.04
今云	-10.0403
證成	-10.0411
服	-10.0427
立有	-10.0427
了知	-10.0437
不遷也	-10.044
第二句	-10.0445
同體	-10.0446
默	-10.0447
財	-10.0447
之文	-10.0447
心也	-10.0448
大生	-10.0448
答云	-10.0451
陽	-10.0456
喪	-10.0456
訓	-10.0459
魔	-10.0461
無方	-10.0461
可信	-10.0474
則墮	-10.049
如虛空	-10.0492
又言	-10.0499
發起	-10.0504
未必	-10.0513
不達	-10.0517
則不然	-10.052
起故	-10.0522
皆不成	-10.0523
本末	-10.0523
無為法	-10.0526
佛道	-10.0534
實性	-10.0534
說為	-10.0536
之見	-10.0542
生故	-10.0555
肇	-10.057
無性故	-10.0579
為大	-10.0581
牒上	-10.059
兔角	-10.0603
未甞	-10.0605
若執	-10.0612
互相	-10.0618
燃可燃	-10.0628
本性	-10.0631
通達	-10.0632
一相	-10.0638
壽	-10.0645
嚴	-10.0657
泥洹	-10.066
的	-10.0662
再	-10.0664
揀	-10.0667
作佛	-10.0671
一處	-10.0673
與彼	-10.0677
老氏	-10.0682
不斷不常	-10.0685
安立	-10.0685
不可言	-10.0688
不一不異	-10.0691
準	-10.0699
或有人言	-10.0706
涅槃經	-10.0707
為無為	-10.0709
習因	-10.0717
速	-10.0724
布施	-10.0727
非瓶	-10.0727
方得	-10.0731
為涅槃	-10.0739
利根	-10.0744
而巳	-10.0761
不攝	-10.0763
炎	-10.0764
大經云	-10.0772
五性	-10.0779
無名曰	-10.0785
見佛	-10.0786
增長	-10.0787
立宗	-10.0788
大師	-10.0791
三性	-10.0802
而彼	-10.0802
濟	-10.0802
說名	-10.0805
文中	-10.0809
實是	-10.0811
中觀	-10.0813
為難	-10.0813
即破	-10.0816
今時	-10.0818
何由	-10.0825
為我	-10.0827
無形	-10.0833
滅者	-10.084
下句	-10.0846
阿含	-10.085
妄執	-10.0852
從緣	-10.0856
欣	-10.0858
果者	-10.0863
有住	-10.0863
一明	-10.0872
知有	-10.0882
小生	-10.0883
若彼	-10.0886
頌遣言	-10.0887
故稱	-10.0888
力故	-10.0889
暫	-10.0902
繫	-10.0907
佛菩薩	-10.0915
宗本	-10.0926
諸部	-10.0927
已未	-10.0928
俱是	-10.0932
以破	-10.0939
於無	-10.0944
二論	-10.0946
我無我	-10.095
此即是	-10.0959
舉體	-10.0971
惠	-10.0978
次答	-10.098
緣有	-10.0991
統	-10.0998
明義	-10.1011
若一	-10.1015
猶有	-10.1015
偈本	-10.1022
鈍根	-10.1023
臣	-10.1031
問此	-10.1046
功用	-10.1046
世出世	-10.1049
室	-10.1067
飯	-10.1068
增上緣	-10.1087
可謂	-10.1093
為得	-10.112
之辭	-10.1121
名也	-10.1131
破他	-10.1135
辟支佛	-10.114
大有	-10.1142
亦不可得	-10.1144
有物	-10.1147
應生	-10.115
苦諦	-10.1153
自宗	-10.1154
同類	-10.1157
餘法	-10.1157
明於	-10.1158
一雙	-10.116
起於	-10.1161
階	-10.1165
妙有	-10.1171
為方便	-10.1174
釋上半	-10.1176
先無	-10.118
無上	-10.1192
潛	-10.1197
不必	-10.1198
諸經	-10.1198
皆同	-10.1199
相成	-10.1218
經言	-10.1221
業果	-10.1229
免	-10.123
惑者	-10.1238
作法	-10.1242
未知	-10.126
不至	-10.1262
端	-10.1264
後釋	-10.1273
中二	-10.1274
條	-10.1275
角	-10.1275
夜	-10.1278
之處	-10.1279
有滅	-10.1279
獲	-10.1281
非常非無常	-10.1284
法師云	-10.1285
分之	-10.1285
道也	-10.1286
非空非有	-10.1292
何得言	-10.1301
諸法性空	-10.1307
之論	-10.1307
文中有	-10.1314
寂照	-10.1319
或可	-10.1322
過去未來	-10.1327
能依	-10.1329
我說	-10.133
歲	-10.1338
若因	-10.1352
緣覺	-10.1361
能令	-10.1369
心法	-10.1371
為他	-10.1375
是故無	-10.1379
汝謂	-10.1388
言之	-10.139
修道	-10.1402
義宗	-10.1412
不相離	-10.1418
所詮	-10.142
今亦爾	-10.1423
總破	-10.1435
大道	-10.1448
傳云	-10.1448
是謂	-10.1459
廣破	-10.1466
涼	-10.148
二意	-10.1481
賓	-10.1482
無盡	-10.1487
了悟	-10.1487
特	-10.1489
索	-10.1492
訖	-10.1493
期	-10.1494
得之	-10.15
言其	-10.1501
青目	-10.1514
見聞	-10.1518
下半明	-10.1522
涅槃云	-10.1527
就文為二	-10.1527
可破	-10.1534
聞說	-10.1534
我體	-10.1538
令人	-10.1538
以成	-10.1547
有為相	-10.1559
無去	-10.1561
之失	-10.1565
金心	-10.1566
此等	-10.1568
為論	-10.157
今論	-10.1578
地前	-10.1585
有心	-10.1587
真智	-10.1591
遺	-10.1596
三事	-10.16
不違	-10.1601
助	-10.1601
今初	-10.1607
之力	-10.1611
有解	-10.1613
得果	-10.162
可成	-10.1621
實等	-10.1625
空不空	-10.1627
是真諦	-10.1632
涅槃者	-10.1633
此名	-10.1643
始得	-10.1645
如幻	-10.1646
以何	-10.1652
舌	-10.166
議	-10.1667
江	-10.168
我者	-10.1688
鄣	-10.1692
六塵	-10.1693
草	-10.1703
是因緣	-10.1704
張	-10.1705
持戒	-10.1706
參	-10.1706
所用	-10.1708
若言其	-10.171
知者	-10.1711
變易	-10.1713
狹	-10.1722
自上已來	-10.1737
見法	-10.1741
是方便	-10.1751
故稱為	-10.1752
三有	-10.1753
縛解	-10.1754
性實	-10.1754
正意	-10.176
一破	-10.1761
憂	-10.1764
身子	-10.1764
從來	-10.1777
別故	-10.1786
鈍	-10.1787
妄心	-10.1789
而未	-10.1792
果生	-10.1795
二別	-10.1801
何以知	-10.1803
此無	-10.1819
如前說	-10.1826
覩	-10.183
何意	-10.1833
顯示	-10.1837
而復	-10.1842
造作	-10.1849
於聖	-10.185
犢子	-10.1866
可言	-10.1869
並皆	-10.1874
舉頌	-10.1878
二乘人	-10.1879
何故不	-10.188
才	-10.1884
虛假	-10.1884
假名說	-10.1892
闡提	-10.1895
符	-10.1902
明佛性	-10.1905
答此	-10.1914
刀	-10.1914
推求	-10.1916
果法	-10.1919
附	-10.192
感佛	-10.1923
決定有	-10.1924
天親	-10.1924
防	-10.1925
實義	-10.1926
餘二	-10.1928
破病	-10.1934
開示	-10.1937
不共	-10.1945
皆應	-10.195
實也	-10.1957
神力	-10.1957
譬喻無體	-10.1965
分明	-10.1968
別釋	-10.1972
無智	-10.1974
自心	-10.1978
畏	-10.2
意者	-10.2009
三門	-10.2011
復言	-10.2027
即生	-10.2028
尚無	-10.2032
中有二	-10.204
為空	-10.2048
於佛	-10.2054
理實	-10.206
其理	-10.2067
能緣	-10.207
體者	-10.207
諸煩惱	-10.2071
有名曰	-10.2072
本始	-10.2079
有不有	-10.2082
廣大	-10.2083
應物	-10.2085
因有	-10.2086
顯現	-10.2086
實際	-10.2088
今昔	-10.2093
聲等	-10.2104
士夫	-10.2108
亦不能	-10.211
復何	-10.2114
亦非有	-10.2117
善巧	-10.2118
御	-10.2121
方廣	-10.2123
色陰	-10.2127
此土	-10.2131
未滅	-10.2133
湛然	-10.2143
處處	-10.2146
文也	-10.2149
但言	-10.215
竭	-10.2152
消	-10.2154
論師	-10.2155
頂	-10.2155
幻有	-10.2157
梵志	-10.2158
體無	-10.216
化身	-10.2164
曲	-10.2164
是中道	-10.2169
本空	-10.2173
余	-10.2174
作者作業	-10.218
為用	-10.2183
但破	-10.2198
非異	-10.22
十住	-10.2225
故不得	-10.2232
是我	-10.2235
▁「	-10.2239
亦應爾	-10.224
能生果	-10.224
若果	-10.2244
不當	-10.225
應非	-10.2251
眼識	-10.2253
前中	-10.2256
知無知	-10.2261
相可相	-10.2265
傷	-10.2274
教也	-10.2284
所斷	-10.2286
建	-10.2294
說無	-10.2303
法華經	-10.2303
之實	-10.2304
此義不然	-10.2306
滅諦	-10.2308
為權	-10.231
謂以	-10.2315
婆	-10.2327
責之	-10.2328
為正因	-10.233
。】	-10.233
性有	-10.2336
定性	-10.2337
初釋	-10.2342
具云	-10.2343
同於	-10.2347
一切法皆	-10.235
若知	-10.235
釋八不	-10.2356
上云	-10.2367
從此	-10.237
問云	-10.2376
無所不知	-10.2376
所造	-10.2377
塞	-10.2382
文殊	-10.2382
得悟	-10.2385
毀	-10.2386
交	-10.2392
學者	-10.2396
不能自	-10.2396
色即是空	-10.2406
知見	-10.2414
真妄	-10.2422
餘物	-10.2424
作論	-10.2429
彼經	-10.2429
本住	-10.243
不證	-10.2432
青等	-10.2434
有差別	-10.2436
以何為	-10.2437
般若無知	-10.2451
因此	-10.2452
如先	-10.2452
明了	-10.2458
其名	-10.2469
空花	-10.247
初牒	-10.2474
與他	-10.2483
詞	-10.2484
正性	-10.2484
出生	-10.2486
一道	-10.2489
佛身	-10.2498
正義	-10.2501
雙結	-10.2507
明矣	-10.251
汝若	-10.2521
住者	-10.2528
若爾者	-10.2529
後句	-10.2537
什法師	-10.2543
對待	-10.2546
結成	-10.2548
即彼	-10.255
其過	-10.2555
三業	-10.2562
所計	-10.2565
如燈	-10.2566
勉	-10.2574
行人	-10.2577
伴	-10.258
本性空	-10.2584
八地	-10.2584
所照	-10.2584
答上	-10.2587
用之	-10.2591
因名	-10.2591
不能見	-10.2592
上破	-10.2592
自是	-10.2597
彈	-10.2603
非第一義	-10.2604
智人	-10.2605
次偈	-10.2608
五百	-10.261
晉	-10.261
是實有	-10.2612
沙	-10.2612
夷	-10.2618
料簡	-10.2621
不出不在	-10.2626
智體	-10.2627
非二非不二	-10.2628
餘處	-10.2628
或謂	-10.2629
次二句	-10.2641
身見	-10.265
即事	-10.2654
不可得故	-10.2656
非唯	-10.2657
菩薩思惟	-10.2662
今當	-10.2666
人言	-10.2671
同一	-10.2672
果起	-10.2673
時體	-10.2676
內有	-10.2679
不生滅	-10.268
亦不生	-10.2681
此門	-10.2682
豈能	-10.2687
法說	-10.2695
之妙	-10.2698
初中	-10.2702
為說	-10.2706
但說	-10.2707
今是	-10.2709
修多羅	-10.2709
汝執	-10.2713
舊云	-10.2725
十六	-10.2727
諸相	-10.273
無執	-10.274
有三義	-10.2741
不觀	-10.2743
肇法師	-10.2751
之身	-10.2753
是諦	-10.2754
諸業	-10.2755
不依	-10.2763
不可取	-10.2766
入涅槃	-10.2768
不由	-10.2771
釋名	-10.2774
於理	-10.2777
究	-10.278
還成	-10.2786
汝等	-10.2787
非見	-10.2788
悉是	-10.2792
三位	-10.2799
徹	-10.2802
皆不然	-10.2803
一切物	-10.2804
不可思議	-10.2808
如斯	-10.281
色法	-10.2814
若無有	-10.2815
方有	-10.282
諸分	-10.2823
智用	-10.2825
而知	-10.2841
婆沙	-10.2842
乃名	-10.2853
淵	-10.2853
四見	-10.2857
授	-10.2857
研	-10.2862
瞋	-10.2868
排	-10.2871
成者	-10.2871
教理	-10.2879
不常不斷	-10.2879
今謂不然	-10.2884
力能	-10.2885
誰為	-10.2887
無所依	-10.289
或云	-10.2891
則無有	-10.2892
之間	-10.2893
所受	-10.2894
為顯此義	-10.2894
凡有二義	-10.2897
一性	-10.2901
百非	-10.2904
二教	-10.291
生耶	-10.2911
上下	-10.2921
中實	-10.2922
不入	-10.2924
正釋	-10.2928
不能生	-10.2929
名為涅槃	-10.2932
本迹	-10.2932
初門	-10.2938
移	-10.2947
因性	-10.296
兩義	-10.2965
高下	-10.2966
不假	-10.2966
為四	-10.2988
永滅	-10.2997
生等	-10.2997
不墮	-10.3002
空無	-10.3005
律	-10.3006
起滅	-10.3008
仙	-10.3016
值	-10.3018
經中說	-10.3021
唯是	-10.3026
所為	-10.3032
此約	-10.3041
有眾生	-10.3043
前三	-10.3044
不妨	-10.3044
二體	-10.3048
並觀	-10.3049
萬化	-10.3055
非正	-10.3061
典	-10.3064
得益	-10.3068
共有	-10.3074
不通	-10.308
貫	-10.3088
文言	-10.3094
一是	-10.3096
巳上	-10.31
調達	-10.31
君	-10.3101
同前	-10.3102
競	-10.3105
四時	-10.3107
中之	-10.3117
坐	-10.3117
幸	-10.3118
履	-10.3119
為境	-10.3122
理智	-10.3123
後念	-10.3126
心生	-10.313
覓	-10.3131
其所	-10.3133
中觀論疏卷第	-10.3134
蒲	-10.3141
雖同	-10.3146
破有無	-10.3148
相與	-10.3153
一切諸	-10.3174
二家	-10.3179
繫縛	-10.3183
兩種	-10.3188
了達	-10.3193
於有無	-10.32
能滅	-10.3204
無窮過	-10.3211
初章	-10.3212
不欲	-10.3215
六入	-10.322
法寶	-10.3221
楞伽	-10.3221
事理	-10.3223
不可知	-10.3225
寂用	-10.3228
三偈	-10.3229
破外	-10.3229
能斷	-10.3231
而作	-10.3233
攝法	-10.3234
宣	-10.3236
在因	-10.3241
簡異	-10.3241
面	-10.3245
如文	-10.3245
今日	-10.3246
非智	-10.325
有自體	-10.3252
若為	-10.326
所能	-10.3273
亦破	-10.3274
愛見	-10.3276
捨福	-10.3279
修習	-10.3283
甘露	-10.3286
失於	-10.3287
為相	-10.3293
十信	-10.3295
正為	-10.3297
由來	-10.3298
則不得	-10.3299
即便	-10.3299
我所	-10.3301
兩句	-10.3302
今且	-10.331
取捨	-10.3314
雙非	-10.3317
更復	-10.3319
遠公	-10.332
其言	-10.3327
析	-10.3328
諸緣	-10.3336
第三句	-10.3336
地獄	-10.3341
登	-10.3352
從生	-10.3355
彌勒	-10.3361
答前	-10.3363
所表	-10.3364
姓	-10.3368
行相	-10.3376
局	-10.3376
僧祇	-10.3376
No	-10.3381
宿	-10.3381
頃	-10.3383
噵	-10.3388
或復	-10.3391
是真實	-10.3394
嘖	-10.3398
其事	-10.3398
十八	-10.3406
東西	-10.3406
第四句	-10.3406
語言	-10.3415
邪正	-10.3417
若有若無	-10.3437
□□□	-10.3449
准	-10.3459
若作	-10.3463
愚者	-10.3464
受生	-10.3467
失二諦	-10.3471
等皆	-10.3475
父母	-10.3477
之情	-10.3477
凡有	-10.3478
體一	-10.3478
至理	-10.3483
言象	-10.3483
即失	-10.3489
受用	-10.3493
若先	-10.3496
未去	-10.3497
之行	-10.3503
雖言	-10.3506
諸陰	-10.3516
照空	-10.3516
有作者	-10.3519
非道	-10.3534
結破	-10.3553
離相	-10.3554
常樂	-10.3557
何為	-10.3562
示現	-10.3565
既稱	-10.3572
有二諦	-10.3573
為非	-10.3575
即顯	-10.3579
軌	-10.3581
今文	-10.3582
有作	-10.3585
常義	-10.3587
不成就	-10.3588
入於	-10.3589
下云	-10.3591
大論云	-10.3591
於是	-10.3606
名為中道	-10.3618
三十	-10.3621
遠法師	-10.3622
三明	-10.3624
檢	-10.3625
祖	-10.3627
有神	-10.3627
謂情	-10.3628
中道也	-10.3631
封	-10.3632
淡	-10.3635
赴	-10.3638
作是說	-10.3638
住滅	-10.364
嘆	-10.3642
咸	-10.3643
長安	-10.3643
即離	-10.3644
有邊	-10.3644
試	-10.3645
一品	-10.3647
不顛倒	-10.3648
淨名經	-10.3649
淨不淨	-10.3651
照有	-10.3652
之病	-10.3656
亦不應	-10.3658
知諸法	-10.3658
此上	-10.3661
芽等	-10.3666
虗無	-10.3675
二事	-10.3687
便有	-10.3687
初章名	-10.3691
諸外道	-10.3692
所不能	-10.37
咎	-10.37
於心	-10.3706
彼說	-10.3713
能感	-10.3714
不應理	-10.3715
虗妄	-10.3727
難解	-10.3728
覺慧	-10.373
生住	-10.3744
又釋	-10.3746
得有	-10.3747
已成	-10.3747
則生	-10.3749
而立	-10.3758
無煩惱	-10.377
不應說	-10.377
一身	-10.3772
解惑	-10.3781
疏云	-10.3783
論也	-10.3786
勝論	-10.379
寧得	-10.3799
汝宗	-10.3803
七者	-10.3806
定執	-10.3807
初標	-10.3826
四依	-10.3832
父子	-10.3841
之宗	-10.3845
亦異	-10.3846
因緣和合	-10.385
涉有	-10.3861
外道計	-10.3862
阿難	-10.3865
寂滅相	-10.3877
破無	-10.3878
二偈	-10.3881
時節	-10.3889
一偈	-10.3889
唯識	-10.3889
下明	-10.3892
若約	-10.3892
若依	-10.3893
繩	-10.3894
促	-10.3895
○	-10.3898
政	-10.39
遺民	-10.3901
外人云	-10.3902
黃	-10.3903
於凡	-10.3904
餘人	-10.3906
星	-10.3906
視	-10.3907
忽	-10.391
四微	-10.3911
考	-10.3911
果性	-10.3913
􂲹	-10.3916
欲顯	-10.3917
庶	-10.3917
以喻	-10.392
引證	-10.3921
充	-10.3921
之無	-10.3925
開為	-10.393
意在	-10.3932
穢	-10.3936
亦非無	-10.3937
今還	-10.3939
此顯	-10.3941
亦空	-10.3942
名諦	-10.395
作作者	-10.395
至此	-10.3952
莊子云	-10.3957
便成	-10.396
雖然	-10.396
合者	-10.3961
遍計	-10.3964
何法	-10.3964
能說	-10.3967
大方	-10.3971
因生	-10.3975
此難	-10.3976
第一義中有	-10.3979
該	-10.3987
相者	-10.3994
障礙	-10.4004
龍樹菩薩	-10.4014
佛智	-10.4019
證真	-10.4025
之稱	-10.4029
卷云	-10.4029
後果	-10.4032
太虗	-10.4037
云何為	-10.4038
能證	-10.404
說二諦	-10.404
敢	-10.4052
此正	-10.4056
現有	-10.4057
既不成	-10.4063
作是	-10.4063
未來世	-10.4065
生因	-10.4067
止息	-10.4068
皆不可得	-10.4079
此因	-10.408
假緣	-10.4088
在後	-10.4093
初有	-10.4097
下第四	-10.4102
離於	-10.4102
攝論	-10.4103
信受	-10.4122
長者	-10.4126
煩	-10.413
異耶	-10.4132
玅	-10.4134
如佛	-10.4136
道行	-10.4142
詰	-10.4144
若論	-10.415
因不成	-10.4153
思議	-10.4154
良	-10.4162
無方便	-10.4162
緣性	-10.4164
正論	-10.4167
新故	-10.4168
兒	-10.4168
為眾生	-10.4172
在前	-10.4176
沈	-10.4183
不常	-10.4183
專	-10.419
摧	-10.4191
成故	-10.4194
為顯	-10.4195
即涅槃	-10.4198
寂也	-10.42
萬德	-10.4204
我我所	-10.4213
是所	-10.4222
承前	-10.4226
三十心	-10.4229
了義	-10.4232
要須	-10.424
如一	-10.4245
則同	-10.4245
強名	-10.4246
為物	-10.4252
初發心	-10.4253
二於諦	-10.4256
斯論	-10.4257
先已說	-10.4258
略明	-10.426
破外人	-10.4268
良以	-10.4274
體故	-10.4279
明其	-10.4282
非果	-10.4284
真是	-10.4286
五乘	-10.4289
時分	-10.4299
相望	-10.4301
一瓶	-10.4313
不及	-10.4314
撥	-10.4331
不過	-10.4343
之知	-10.4344
不改	-10.4345
名生	-10.4355
為對	-10.4359
可滅	-10.4366
來者	-10.4367
底	-10.4367
有病	-10.4373
初生	-10.4374
大慧	-10.4376
為第一義諦	-10.4378
賢聖	-10.4378
不吉	-10.438
來去	-10.4383
無取	-10.4383
與我	-10.4396
為佛	-10.4399
後二	-10.4402
步	-10.4406
無合	-10.4408
非涅槃	-10.441
二諦義	-10.441
又有	-10.4414
義得成	-10.4417
證得	-10.4422
外有	-10.4424
於二諦	-10.4424
生義	-10.4425
不真空	-10.4431
無瓶	-10.4434
共合	-10.4436
前念	-10.4436
梁	-10.4438
以見	-10.444
欲滅	-10.4441
先破	-10.445
破法	-10.4456
性也	-10.4458
論初	-10.4461
有淺深	-10.4463
混	-10.4465
為生	-10.4465
予	-10.4465
三乘人	-10.4466
州	-10.4467
衰	-10.4467
慕	-10.4468
鹿	-10.447
六度	-10.4471
不存	-10.4472
檀	-10.4472
般若燈論	-10.4476
五百部	-10.4486
處有	-10.4486
今亦	-10.4494
有力	-10.4497
為其	-10.4502
緣合	-10.4504
問何以知	-10.4505
若欲	-10.4508
於我	-10.4508
故今明	-10.4512
實慧	-10.4515
攝一切	-10.4519
應如是	-10.4521
東方	-10.4522
佛語	-10.4522
上句	-10.4527
出離	-10.4528
情塵	-10.4529
被破	-10.4531
六情	-10.4533
證有	-10.4535
明涅槃	-10.4537
無量劫	-10.454
方言	-10.4546
今大乘明義	-10.4546
文三	-10.4551
十善	-10.4551
前文	-10.4553
於涅槃	-10.4553
觀空	-10.4556
無身	-10.4557
根塵	-10.4567
佛地	-10.4568
為中	-10.4576
三釋	-10.4576
云何是	-10.4578
受名	-10.4581
有三段	-10.4586
虛妄分別	-10.46
如夢	-10.4604
意識	-10.4609
了別	-10.4611
破空	-10.4611
名言	-10.462
第三明	-10.4621
二關	-10.4632
貪等	-10.4633
四法	-10.4637
無依	-10.464
即是中道	-10.4642
則一切	-10.4642
▁三	-10.4644
已來	-10.4657
取其	-10.466
作如是說	-10.4666
無可	-10.4666
異見	-10.4671
過患	-10.4673
二世	-10.4677
通論	-10.4678
他家	-10.468
私	-10.4685
四偈	-10.4688
其中	-10.4693
所以不	-10.4694
本際	-10.4694
色非	-10.4697
後一	-10.4698
性住	-10.47
滅法	-10.4702
能立	-10.4706
是故有	-10.4707
士	-10.4708
真應	-10.4714
百年	-10.4714
滅不滅	-10.4719
代	-10.4725
絕四句	-10.4725
無去來	-10.4727
十力	-10.473
破立	-10.473
不即	-10.4735
朋	-10.4737
彼人	-10.4738
即前	-10.4739
麻	-10.4755
魚	-10.4756
谷	-10.4756
為性	-10.4758
初又	-10.4758
既同	-10.4759
孔子	-10.4762
飛	-10.4763
此就	-10.4764
增上	-10.4767
茲	-10.477
昇	-10.477
通於	-10.4771
陶師	-10.4773
懺悔	-10.4774
男女	-10.4774
無餘涅槃	-10.4775
作如是言	-10.4778
為人	-10.4783
復是	-10.4786
神明	-10.4788
九地	-10.479
無畏	-10.479
住時	-10.4791
兩關	-10.4793
他人	-10.4793
如有	-10.4795
真偽	-10.4796
是能	-10.4799
顯正	-10.4806
二諦者	-10.4808
一剎那	-10.4812
實非	-10.4813
聖道	-10.4814
雖殊	-10.4823
萬有	-10.4824
佛為	-10.4826
不乖	-10.4828
常情	-10.483
一切時	-10.483
而已	-10.483
文義	-10.4831
論釋	-10.4833
地論	-10.4833
三諦	-10.4841
與果	-10.4843
色即空	-10.4845
體中	-10.4846
是故今	-10.4851
若此	-10.4851
阿毘曇	-10.4859
上品	-10.4867
為所	-10.4882
未變	-10.4887
斯則	-10.4889
假立	-10.4899
而常	-10.4901
俱生	-10.4901
法起	-10.4904
能詮	-10.4905
於色	-10.4915
如前所說	-10.493
天人	-10.493
四家	-10.493
無常故	-10.4934
若未	-10.4941
已遮	-10.4947
時方	-10.4949
下第二明	-10.4959
破性	-10.4961
便應	-10.4969
知其	-10.4973
無神	-10.4976
有何過	-10.4982
若破	-10.4987
以來	-10.4992
終是	-10.4997
開為二	-10.4998
所由	-10.5
心體	-10.5
彼宗	-10.5003
五蘊	-10.5003
異名	-10.5006
不和合	-10.5014
千年	-10.5015
法喻	-10.5022
諸眾生	-10.5022
察	-10.5023
實教	-10.5023
虛空等	-10.5023
有多	-10.5026
遠近	-10.503
從他生	-10.5031
得言	-10.5037
受想行識	-10.5038
叡師	-10.5041
此皆	-10.5041
為門	-10.5045
儒	-10.5047
富	-10.5058
是故不應	-10.5059
閑	-10.5064
客	-10.5065
拘	-10.5067
常樂我淨	-10.5069
根境	-10.507
油	-10.507
四倒	-10.5071
奇	-10.5071
呪	-10.5072
術	-10.5073
詣	-10.5074
潤	-10.5076
從緣起	-10.5077
貪著	-10.5087
揚	-10.5087
鹽	-10.509
二俱不然	-10.5094
四聖諦	-10.5102
顯事	-10.5103
世閒	-10.511
非他	-10.5115
兩教	-10.5116
皆非	-10.5117
緣果	-10.5119
涅槃之道	-10.5119
有所得人	-10.512
外無	-10.5127
亦言	-10.5134
大海	-10.5136
觀之	-10.5136
真俗二諦	-10.5139
五根	-10.5142
非我	-10.5145
十種	-10.5153
絕名	-10.5158
單假	-10.5163
觀色	-10.5165
心無	-10.5173
復次第一義中	-10.5177
義理	-10.5177
是義	-10.5178
之異名	-10.5184
愚人	-10.5186
止遣	-10.5196
每	-10.5201
非物	-10.5201
有所成	-10.5208
本生	-10.5211
利他	-10.5212
當時	-10.5214
於法	-10.5219
後心	-10.5221
果地	-10.5226
撥無	-10.5237
為佛性	-10.5243
三身	-10.5244
有無等	-10.5245
無以	-10.5247
執無	-10.5252
即名	-10.5253
前偈	-10.5268
初後	-10.5273
時無	-10.5276
有煩惱	-10.5282
辨之	-10.5288
不礙	-10.529
第二破	-10.5296
終日	-10.5301
有緣	-10.5308
因滅	-10.5311
能除	-10.5311
衛世	-10.5312
減	-10.5313
我宗	-10.5313
將欲	-10.5314
非彼	-10.5318
又初	-10.532
亦無體	-10.5321
無自體故	-10.5325
是同	-10.5327
能了	-10.5327
此空	-10.5329
結使	-10.5331
一切世間	-10.5339
佛所說	-10.534
無所見	-10.5343
神知	-10.5344
聞之	-10.5351
毛	-10.5353
若許	-10.5357
我亦	-10.5357
所以有	-10.5358
是生	-10.5359
心為	-10.5359
兩偈	-10.536
一名	-10.5362
因緣者	-10.5364
智論	-10.537
朝	-10.5374
以觀	-10.5375
網	-10.5375
尺	-10.5376
熏	-10.5378
傾	-10.5379
破邪顯正	-10.5381
正果	-10.5383
洞	-10.5383
撰	-10.5385
秦主	-10.5386
預	-10.5387
佛滅度後	-10.5389
空寂	-10.5389
賊	-10.5389
怖	-10.539
純	-10.5391
易知	-10.5396
以果	-10.5396
離有無	-10.54
唯有一	-10.5402
獨存	-10.5404
是時	-10.5409
隱顯	-10.5412
於物	-10.5414
是菩薩	-10.5415
來也	-10.5422
住處	-10.5422
生滅無生滅	-10.5426
始生	-10.5431
斷伏	-10.5432
最上	-10.5434
歎曰	-10.5435
一部	-10.5436
觀者	-10.5438
引經證	-10.5443
身口	-10.5444
能通	-10.5444
俱非	-10.5447
劫初	-10.5451
是第一義	-10.5451
八者	-10.5452
成論師	-10.5453
等義	-10.5454
非有故	-10.5454
三品	-10.5457
知無	-10.5465
若非	-10.5468
若滅	-10.5471
內法	-10.5472
應之	-10.5473
不能知	-10.548
有非有	-10.5482
如先說	-10.5485
菩薩行	-10.5486
集諦	-10.5489
赤	-10.5493
不異者	-10.5494
上半牒	-10.5498
未了	-10.5502
空解	-10.5509
是俗	-10.5515
無成	-10.5516
諦智	-10.5525
目之為	-10.5527
何等是	-10.5539
五句	-10.5548
中三	-10.5549
是虛妄	-10.5551
出世間	-10.5553
因緣所生法	-10.5556
而來	-10.5564
頌中	-10.5569
甞	-10.5569
此結	-10.5573
於一切法	-10.5577
難言	-10.5584
今說	-10.559
會通	-10.5598
並照	-10.5599
以辨	-10.56
答中	-10.5609
覺知	-10.5609
不化	-10.561
色界	-10.5611
是其	-10.5617
救上	-10.562
假俗	-10.5621
太虛	-10.5621
測	-10.5623
申佛	-10.5624
者第二	-10.5624
真一	-10.5634
果中	-10.5635
苦集	-10.5638
隣	-10.5639
假設	-10.564
無名相	-10.5642
方是	-10.5647
所顯	-10.5654
鼻	-10.5657
同也	-10.5658
放光云	-10.5659
方為	-10.5662
章云	-10.5663
報身	-10.5665
今但	-10.5668
道者	-10.567
夏	-10.5671
煖	-10.5674
等諸	-10.5676
離諸	-10.5676
大乘經	-10.568
則違	-10.5681
梵	-10.5683
駁	-10.5687
寒	-10.5695
慢	-10.5695
紛	-10.5695
兵	-10.5697
恩	-10.5699
生公	-10.5699
身智	-10.5699
成瓶	-10.57
付	-10.57
何必	-10.5701
只是一	-10.5701
複假	-10.5701
倍	-10.5702
非一非異	-10.5702
第二科	-10.5702
則不可	-10.5703
即是涅槃	-10.5703
朗	-10.5705
卦	-10.5707
拆	-10.5709
有何咎	-10.571
非俗	-10.5711
以下	-10.5715
二俱有過	-10.5717
然即下	-10.5719
妙悟	-10.5721
方能	-10.5726
能造	-10.5728
但見	-10.5728
二十五諦	-10.573
染染者	-10.5733
寂然	-10.574
精進	-10.5742
若如是者	-10.5747
希	-10.5749
由有	-10.5751
外國	-10.5753
然彼	-10.5756
未始	-10.5758
我立	-10.5759
斷無	-10.5759
了了	-10.5759
如汝所說	-10.5759
若得	-10.5761
第一明	-10.5763
即以	-10.5764
即不	-10.5772
一諦	-10.5777
故大品經	-10.578
之前	-10.5782
作此說	-10.5782
未悟	-10.5788
非作	-10.5788
自見	-10.5789
之內	-10.5799
之談	-10.5802
仁王經	-10.5803
種類	-10.5803
其本	-10.5807
應云	-10.5807
外別有	-10.5808
於緣	-10.5812
六識	-10.5822
後破	-10.5826
故論云	-10.583
難意	-10.5845
瓶體	-10.5847
論旨	-10.5848
破我	-10.5854
果也	-10.5855
心識	-10.5856
非道理	-10.5859
若立	-10.5859
悲者	-10.5863
但釋	-10.5863
護	-10.5869
與其	-10.587
十二門論	-10.5871
有自體者	-10.5871
脩行	-10.5873
是破	-10.5874
為因者	-10.5881
複中	-10.5881
見佛性	-10.5887
正難	-10.5888
五時	-10.5892
已說	-10.5903
非有為	-10.5904
雖異	-10.5909
又上	-10.5909
先世	-10.5917
今取	-10.5918
妨	-10.5919
薩婆若	-10.5925
教意	-10.5926
教化	-10.5926
分別者	-10.593
不應生	-10.5932
而不知	-10.5932
有去者	-10.5935
三結	-10.5936
汝義	-10.5938
而云	-10.5938
惡見	-10.5941
還復	-10.5941
正宗	-10.5943
眾多	-10.5945
隨義	-10.5947
左	-10.5954
人見	-10.5956
無知也	-10.5963
過去時	-10.5965
空色	-10.5966
妙存	-10.5968
心數	-10.5974
未曾有	-10.5976
得菩提	-10.5976
所聞	-10.5982
謂此	-10.5982
而去	-10.5984
無別異	-10.5985
過於	-10.5987
既破	-10.5988
三乘之	-10.5993
青黃	-10.5993
二諦是	-10.5994
釋論云	-10.6005
所燒	-10.6005
至論	-10.6009
座	-10.6011
對上	-10.6014
雨	-10.6015
於前	-10.6017
擇	-10.6021
身中	-10.6024
一數	-10.6027
包	-10.6032
降	-10.6033
恨	-10.6034
道諦	-10.6035
色性	-10.6036
須陀洹	-10.6037
丈六	-10.6039
畫	-10.604
遍不遍	-10.604
啟	-10.6041
與今何異	-10.6042
從眾緣生	-10.6044
麁細	-10.6044
緣非緣	-10.6044
投	-10.6045
愚夫	-10.6046
周遍	-10.6046
梵王	-10.6048
瓶衣等	-10.6048
出現	-10.605
為眾生故	-10.605
作緣	-10.6056
難測	-10.6056
昔日	-10.6059
雖無而有	-10.6059
求那	-10.6061
解者	-10.6061
妄見	-10.6062
像法	-10.6067
稟教	-10.6069
權實二智	-10.607
化生	-10.6071
凡有二種	-10.6072
三無為	-10.6074
亦通	-10.6075
明知	-10.6079
第二義	-10.608
無一	-10.6089
易云	-10.609
今為	-10.6099
昔物	-10.6099
一致	-10.61
本為	-10.6101
空見	-10.6104
故頌	-10.6106
下文	-10.611
應見	-10.611
無此	-10.6129
二用	-10.6131
更生	-10.6137
玄道	-10.6139
正教	-10.6142
牒外義	-10.6148
位中	-10.6149
本是	-10.615
相貌	-10.6152
一切種智	-10.6152
阿毘曇人	-10.6154
釋前	-10.6157
破申	-10.6158
性空故	-10.6159
色等諸法	-10.6168
次辨	-10.617
為俗	-10.6172
眾師	-10.6174
生無生	-10.618
初發	-10.6181
二時	-10.6183
明有	-10.6185
申正	-10.6191
即是實相	-10.6192
亦應然	-10.6194
又彼	-10.62
釋義	-10.62
皆由	-10.6202
大小乘人	-10.6215
有二過	-10.6216
觀照	-10.6217
無生法忍	-10.6219
因緣法	-10.622
幻化	-10.6226
結上	-10.624
但約	-10.6243
非因果	-10.6245
成實論	-10.6248
因義	-10.625
如瓶	-10.625
如水	-10.6251
性地	-10.6253
有義	-10.6258
得於	-10.626
有何異	-10.6262
尚不	-10.6267
漏	-10.6268
無色界	-10.6275
無非	-10.6277
無障礙	-10.6284
初心	-10.6284
已破	-10.6285
死有	-10.6288
別明	-10.6288
略破	-10.6291
如虗空	-10.6292
實不	-10.6296
度眾生	-10.6297
是苦	-10.63
能得	-10.6301
於果	-10.6305
此心	-10.6307
又前	-10.6308
智斷	-10.6308
釋中	-10.6313
論宗	-10.6314
同是	-10.632
相反	-10.6323
入空	-10.6323
故前	-10.6323
顯理	-10.6324
而可	-10.6328
住法	-10.6328
宅	-10.6334
則不成	-10.6336
即是破	-10.6336
後方	-10.6336
七日	-10.6341
有為空	-10.6342
攀緣	-10.6346
從因緣	-10.6347
問今	-10.6352
四心	-10.6353
有常	-10.6362
身根	-10.6367
牽	-10.6374
伐	-10.6374
雅	-10.6376
寫	-10.6378
賴	-10.6379
非知	-10.638
楞嚴	-10.638
何人	-10.638
拂	-10.6381
有體無體	-10.6382
蒙	-10.6383
弊	-10.6385
迦旃延	-10.6386
空觀	-10.6387
廣明	-10.6389
心心數法	-10.6389
西域	-10.6389
博	-10.639
惟	-10.6391
童子	-10.6391
樞	-10.6392
帶	-10.6392
儒童	-10.6395
次一偈	-10.6395
不悟	-10.6396
舒	-10.6398
抑	-10.64
長行為	-10.6402
財物	-10.6404
雖有而無	-10.6405
八倒	-10.6406
受記	-10.6406
故非有	-10.6406
善不善	-10.6409
仁	-10.641
躡前	-10.6411
無常者	-10.6412
眾緣和合	-10.6413
龍光	-10.6415
不俗	-10.6415
得成佛	-10.6417
及與	-10.6418
由如是故	-10.642
是俗諦	-10.6425
瓶衣	-10.6427
比知	-10.6427
三人	-10.6428
為彼	-10.6436
皆名	-10.6438
不論	-10.644
心不	-10.6443
失也	-10.645
見等	-10.6451
真心	-10.6451
於他	-10.6453
古人	-10.6454
捨離	-10.6456
故無有	-10.6458
示之	-10.646
。《	-10.6463
無際	-10.6464
如如	-10.6465
世性	-10.6467
大宗	-10.6468
心行	-10.647
唯佛	-10.648
二緣	-10.6482
若其	-10.6486
起業	-10.6488
有礙	-10.6496
有三相	-10.6496
假施設	-10.6501
域	-10.6501
因緣生法	-10.6505
得意	-10.6505
不用	-10.6507
無著	-10.6511
長行釋	-10.6512
不相違	-10.6514
發生	-10.6522
已明	-10.6523
昔人	-10.6526
立也	-10.653
必當	-10.6535
是一邊	-10.6537
境也	-10.6537
壞故	-10.6543
一切處	-10.6544
天王	-10.6551
義中	-10.6552
是境	-10.6553
而曰	-10.6554
不屬	-10.6555
之色	-10.6558
世諦中道	-10.6562
為斷	-10.6566
故名為大	-10.6572
內道	-10.6575
非是無	-10.6575
依世俗	-10.6579
妙契	-10.6579
於後	-10.658
後生	-10.6581
無有自性	-10.6582
之徒	-10.6586
六十	-10.6589
因緣品	-10.6593
我當	-10.6595
之難	-10.6598
謂彼	-10.6598
以理	-10.66
異類	-10.6601
由彼	-10.6606
是以下	-10.6609
自在天	-10.6611
是有法	-10.6614
非離	-10.6615
四絕	-10.6615
不別	-10.6616
一劫	-10.6617
亦能	-10.663
略示	-10.6636
諸法空	-10.6639
不從緣生	-10.6642
就初	-10.6647
智境	-10.665
弗	-10.665
非有也	-10.6651
今舉	-10.6653
尼	-10.6654
亦復不	-10.6655
是故汝	-10.6656
亦許	-10.6659
學人	-10.666
答若	-10.667
若復	-10.6674
二十五	-10.6691
有業	-10.6699
為言	-10.6699
敵	-10.6707
本不生	-10.6709
謙	-10.6714
般涅槃	-10.6717
二境	-10.6719
上半明	-10.672
問前	-10.672
舊義	-10.6725
破常	-10.6726
仲尼	-10.6728
無有異	-10.6728
之大	-10.673
鉢	-10.6732
憶	-10.6734
池	-10.6735
木石	-10.6736
非是有	-10.6738
威	-10.674
按	-10.6741
疲	-10.6741
務	-10.6742
今復	-10.6743
眷屬	-10.6743
奉	-10.6744
亦一亦異	-10.6746
時有	-10.6746
具如	-10.675
犢子部	-10.675
為道	-10.6752
何得有	-10.6753
爾雅云	-10.6754
於一	-10.6758
有四句	-10.6762
頭足	-10.6762
若不爾	-10.6762
彼岸	-10.6762
後辨	-10.6764
破因緣	-10.6765
無有是處	-10.6765
云何知	-10.6766
空無我	-10.6768
能取所取	-10.677
直明	-10.6771
有果無果	-10.6772
自部人	-10.6772
安樂	-10.6774
稱歎	-10.6776
同時起	-10.6777
怖畏	-10.6779
▁【	-10.678
況復	-10.6784
答彼	-10.6786
略釋	-10.6791
感應義	-10.6793
問既	-10.6797
應會	-10.6797
不生果	-10.6798
不自在	-10.6801
國土	-10.6803
遍學	-10.6807
即能	-10.6809
正智	-10.6816
令彼	-10.682
都盡	-10.6823
並有	-10.6829
俱絕	-10.683
亦說	-10.6833
全體	-10.6838
以空為	-10.6845
此二句	-10.6847
何義	-10.6852
自起	-10.686
與前	-10.6863
起作	-10.6869
各住	-10.687
二執	-10.6872
令眾生	-10.6875
故論偈	-10.6877
同歸	-10.6881
應成	-10.6882
斷或	-10.6883
之耳	-10.6884
無境	-10.6902
空理	-10.6905
無上菩提	-10.6906
同無	-10.6911
三空	-10.6911
俱舍論	-10.6912
方成	-10.6913
中亦無	-10.6917
非法	-10.6923
計我	-10.6928
夫論	-10.6929
佛性者	-10.694
一邊	-10.6947
點	-10.6951
空門	-10.6952
儀	-10.6956
我等	-10.6961
是理	-10.6965
汝所立	-10.6968
可尋	-10.6971
非佛性	-10.6975
所以須	-10.6982
開合	-10.6983
翻為	-10.6985
解不同	-10.6987
汎	-10.6987
十五	-10.6987
及彼	-10.6992
但應	-10.6993
離五陰	-10.7
真身	-10.7005
天子	-10.7005
標宗	-10.7008
如是決定	-10.7008
不轉	-10.7014
緣故	-10.7017
本自	-10.7022
如石女兒	-10.7024
是顛倒	-10.7025
五度	-10.7026
物也	-10.7031
汝既	-10.7037
是何	-10.7039
今依	-10.7041
住於	-10.7044
氏	-10.7049
今何故	-10.7049
來意	-10.7051
汝以	-10.7054
聲聞人	-10.7056
四果	-10.7057
空空	-10.7064
緣中	-10.7068
皆為	-10.7073
汝雖	-10.7076
假生	-10.7081
尤	-10.7082
所欲	-10.7083
破壞	-10.7083
音聲	-10.7091
薄	-10.7094
立比量	-10.7097
偏執	-10.7097
澄	-10.71
臨	-10.7102
憑	-10.7103
濁	-10.7104
昏	-10.7105
覈	-10.7106
後之	-10.7106
弱	-10.7108
垂	-10.711
飲食	-10.711
譏	-10.7111
第一義悉檀	-10.7114
果亦	-10.7115
弁	-10.7117
二分	-10.7119
君子	-10.7121
非有非不有	-10.7122
自破	-10.7122
惑智	-10.7123
非眾生	-10.7124
席	-10.7125
苦果	-10.7127
故說此品	-10.7128
而實不爾	-10.713
不出有無	-10.713
扶	-10.7133
梨耶	-10.7134
六十二見	-10.7135
眾苦	-10.7138
稱之為	-10.7142
券	-10.7142
觀因緣	-10.715
凡有三義	-10.7151
相不可得	-10.7154
若先有	-10.7159
大也	-10.7165
佛告	-10.7165
照用	-10.7166
善行	-10.7167
不真空論	-10.7169
非真俗	-10.717
十地菩薩	-10.7172
無有實	-10.7172
依二諦說法	-10.7173
一多	-10.718
莊嚴云	-10.7182
說頌曰	-10.7182
出入	-10.7182
詮表	-10.7184
有所生	-10.7185
言語	-10.7186
我義	-10.7186
捨罪	-10.7188
未嘗	-10.7196
見之	-10.7201
常遍	-10.7204
門中	-10.7204
破異	-10.7213
如虛空等	-10.7214
略廣	-10.7214
波羅蜜	-10.7214
證涅槃	-10.7216
譬說	-10.7219
未達	-10.7219
維摩	-10.7223
非理	-10.7225
不顯	-10.7225
之類	-10.7229
宛然而	-10.723
第三偈	-10.723
一果	-10.723
何故爾	-10.7233
其用	-10.7233
以釋	-10.7234
別立	-10.7237
去者去	-10.7238
大小乘	-10.7242
聲聞辟支佛	-10.7249
故涅槃云	-10.7251
答以	-10.7253
為明	-10.7256
外救	-10.7263
非斷	-10.7264
具二義	-10.7265
窮盡	-10.7268
兩法	-10.7269
具破	-10.727
而現	-10.7283
真性	-10.7294
怪	-10.7296
遍計所執	-10.7296
證也	-10.7299
其文	-10.7299
不見有	-10.7314
不生故	-10.7318
次云	-10.7323
?」	-10.7326
欲示	-10.7328
頌曰	-10.7328
無異故	-10.7329
為失	-10.7332
誰能	-10.7336
若實有	-10.7336
至佛	-10.7341
既得	-10.7344
去來品	-10.7346
滅盡	-10.7346
更不	-10.7348
奪破	-10.735
階級	-10.7351
六因	-10.7351
破云	-10.7359
大眾	-10.736
一切有為	-10.7362
無知者	-10.7363
名為世諦	-10.7364
如理	-10.7369
一類	-10.7369
前難	-10.737
有身	-10.7374
邊見	-10.7375
之極	-10.738
破生	-10.7382
乞	-10.7384
中觀論	-10.7387
則便	-10.739
色等法	-10.7391
生老死	-10.74
得者	-10.7401
叡	-10.7402
五識	-10.7402
起信	-10.7403
亦滅	-10.7405
萬物之	-10.7413
愍	-10.7414
論語	-10.7415
有所得者	-10.7416
須識	-10.7418
停	-10.7423
有善	-10.7423
解脫者	-10.7423
皆從	-10.7429
未生時	-10.743
有大	-10.7434
漢	-10.7435
必是	-10.7435
果有	-10.7436
亦應無	-10.7441
自立	-10.7443
方圓	-10.7448
於眾生	-10.7452
宗極	-10.7454
提婆達多	-10.7455
謂諸法	-10.7456
告	-10.7458
語意	-10.746
厭離	-10.7461
篇	-10.7461
彼有	-10.7463
狂	-10.7465
體非	-10.7468
此有無	-10.7471
總明	-10.7471
神覺	-10.7473
或名	-10.7476
有別	-10.7478
不應言	-10.7481
中道為體	-10.7482
若我	-10.7482
迎	-10.7483
馳	-10.7483
真體	-10.7485
自住	-10.7486
哀	-10.7487
推之	-10.7488
大眾部	-10.749
胡	-10.749
玉	-10.749
迦	-10.7491
悅	-10.7491
調	-10.7493
此為	-10.7494
千里	-10.7496
勒沙婆	-10.7496
無有我	-10.7497
顯道	-10.7497
鄙	-10.7499
師子吼品	-10.7499
灰	-10.75
須彌	-10.75
遙	-10.7502
鼓	-10.7503
溺	-10.7503
攬	-10.7503
如此等	-10.7504
烟	-10.7504
委	-10.7507
無生忍	-10.7509
為此	-10.7509
有生死	-10.7514
紛然	-10.7514
之能	-10.7521
五名	-10.7522
損益	-10.7522
不曾	-10.7524
多有	-10.7524
此若無者	-10.7525
十方諸佛	-10.753
後段	-10.7532
論語云	-10.7533
方乃	-10.7534
流動	-10.7534
人之	-10.7537
亦三	-10.7539
念念滅	-10.754
二身	-10.7541
已起	-10.7543
二過	-10.7543
成於	-10.7545
三家	-10.7545
反照	-10.7549
不差	-10.7551
無失	-10.7551
成論師云	-10.7553
解也	-10.7556
病故	-10.7557
明空	-10.7559
入道	-10.7559
圓成	-10.756
實方便	-10.7562
現在時	-10.7568
可了	-10.7574
分段	-10.7575
如是一切	-10.7581
衛世師	-10.7581
滿足	-10.7581
諸蘊	-10.7581
無益	-10.7581
四智	-10.7582
毒	-10.7582
通也	-10.7584
而應	-10.7586
不可為無	-10.7586
類遣	-10.7588
常者	-10.7598
色因	-10.76
宣說	-10.7608
兩品	-10.7608
事相	-10.7611
苦等	-10.7611
通破	-10.7613
始是	-10.7615
聞者	-10.762
非戲論	-10.7625
者即是	-10.7626
方便說	-10.7626
是體	-10.7626
已後	-10.7627
是二	-10.7628
於第一義中	-10.7629
例破	-10.7635
從他	-10.7637
此乃是	-10.7637
就文為	-10.7644
正答	-10.7648
於大	-10.7648
二十七	-10.7654
其意	-10.7658
名為佛性	-10.7659
但取	-10.7659
乃有	-10.766
一味	-10.766
迦葉品	-10.7661
大明	-10.7661
欲求	-10.7661
常寂	-10.7662
心者	-10.7665
涅槃之體	-10.7665
所宗	-10.7666
未成	-10.7668
佛意	-10.7669
二諦也	-10.7671
而失	-10.7672
品中	-10.7677
有所得心	-10.7679
佛法中	-10.7681
借名	-10.7682
此智	-10.7684
亦復無	-10.7684
邪執	-10.7687
根性	-10.7687
如是知	-10.77
世間法	-10.7708
標相	-10.7712
因緣有無	-10.7717
假人	-10.7719
應言	-10.7721
外謂	-10.7724
五十	-10.7725
此三種	-10.7728
心神	-10.7731
三云	-10.7731
即色	-10.7737
契會	-10.7739
此解	-10.7742
大種	-10.7742
四結	-10.7742
救云	-10.7742
生時生	-10.7743
文意	-10.7744
非緣生	-10.7748
因緣空	-10.7749
生死苦	-10.7749
非空	-10.775
又是	-10.7751
例如	-10.7755
無自性故	-10.7757
所論	-10.7766
知會	-10.7767
真諦中道	-10.7768
復云何	-10.7773
有本云	-10.7776
不令	-10.7776
無始終	-10.7782
性有無	-10.7783
二俱無	-10.7783
非非	-10.7787
所以明	-10.7787
理應	-10.7788
果故	-10.7791
靡	-10.7791
復生	-10.7799
有耶	-10.78
出有無	-10.7806
無處	-10.7815
起染	-10.7816
錯	-10.7817
釋者	-10.7817
則壞	-10.7818
佗	-10.7832
大覺	-10.7833
若成	-10.7834
諸論	-10.7834
徵釋	-10.7836
不戲論	-10.7838
謂我	-10.7838
如經云	-10.7844
二乘之人	-10.7845
經明	-10.7857
幻事	-10.7858
我是	-10.7859
配	-10.786
今約	-10.7862
之義也	-10.7862
以法	-10.7862
即物	-10.7862
無耶	-10.7864
異部	-10.7866
所歸	-10.7867
生死中	-10.7871
孔	-10.7871
問佛	-10.7872
三時門	-10.7874
若了	-10.7875
苦行	-10.7876
慧眼	-10.7876
老子	-10.7876
龜毛	-10.7878
是第一義諦	-10.7879
蘇	-10.7886
此四句	-10.7886
恭敬	-10.7887
崇	-10.7887
空慧	-10.7887
繁	-10.7888
軍	-10.7889
便得	-10.7889
若然者	-10.789
評	-10.7891
今世	-10.7891
論主對破	-10.7891
朕	-10.7891
此中立驗	-10.7892
宋	-10.7892
右	-10.7892
殆	-10.7894
追	-10.7894
懃	-10.7896
率	-10.7896
養	-10.7897
眾生有佛性	-10.7897
之所以	-10.7898
葉	-10.7899
有幾種	-10.79
理無不統	-10.79
玄旨	-10.7901
菩薩摩訶薩	-10.7902
百千	-10.7904
文殊師利	-10.7905
中為二	-10.7908
九流	-10.7909
可是	-10.791
佛滅後	-10.791
淳	-10.791
思之	-10.791
染污	-10.7911
物無不是	-10.7912
能生所生	-10.7914
難可	-10.7914
眼等根	-10.7915
華嚴經云	-10.7915
二章	-10.7919
發菩提心	-10.7922
諸賢聖	-10.7925
造化	-10.7931
雖知	-10.7931
是當	-10.7933
我相	-10.7933
一牒	-10.7934
作故	-10.7936
去時去	-10.7939
無患	-10.7947
動寂	-10.795
現在世	-10.7951
不仁	-10.7955
得解	-10.7959
有之	-10.7961
中道佛性	-10.7962
救義	-10.7963
常為	-10.7971
前之	-10.7973
更無異	-10.7974
師子	-10.7975
禪師	-10.7977
種智	-10.798
今物	-10.7985
無所作	-10.7986
為無常	-10.7989
汝所說	-10.7993
但知	-10.8001
識等	-10.8002
非勝義諦	-10.8006
有過失故	-10.8011
則無所	-10.8015
無蹤	-10.8027
為瓶	-10.8029
智照	-10.803
因法	-10.8031
此引	-10.8031
兩捨	-10.8032
有六	-10.8033
非因緣	-10.8035
於人	-10.8036
陀羅	-10.8036
一生	-10.8036
初四句	-10.8041
在果	-10.8044
非佛	-10.8045
用中	-10.8046
執也	-10.8046
於其	-10.8047
簡別	-10.8047
離苦	-10.8049
共成	-10.8058
一理	-10.806
忘言	-10.806
破四緣	-10.8063
可名	-10.8064
貌	-10.8064
亦二	-10.8065
未明	-10.8069
先釋	-10.8069
無實體	-10.807
若使	-10.8084
不起故	-10.8085
有對	-10.8086
境界因	-10.809
曠	-10.809
復次下	-10.8096
因緣有	-10.8097
合成	-10.8098
運出	-10.8109
竝是	-10.8111
能與	-10.8114
妙用	-10.8115
不退	-10.8122
諸子	-10.8126
果名	-10.8126
有殊	-10.8134
應廣說	-10.8135
中有三	-10.8138
常在	-10.814
而取	-10.8146
量云	-10.8148
攝論師	-10.8157
三聚	-10.8158
諸法性	-10.8167
並破	-10.8171
十卷	-10.8172
本宗	-10.8173
真俗不二	-10.8183
直是	-10.8185
何緣	-10.8186
有為之法	-10.8186
又三	-10.8187
然其	-10.8189
有去	-10.8193
應得	-10.8196
如見	-10.8196
多分	-10.8197
非心	-10.8197
作苦	-10.82
大聖	-10.8203
有於	-10.8209
謂般若	-10.8216
皆明	-10.8216
般若之	-10.8217
盡也	-10.8219
即滅	-10.8221
若瓶	-10.8226
廣釋	-10.8228
縱破	-10.8229
今略	-10.8234
歎佛	-10.8238
本非	-10.8246
答曰下	-10.8249
二處	-10.825
心中	-10.825
其道	-10.8255
論序云	-10.8257
今則	-10.8257
是瓶	-10.8257
宗也	-10.8259
至道	-10.8264
宮	-10.8264
擊	-10.8265
動也	-10.8269
問論主	-10.827
今破此	-10.827
鬼	-10.827
從本	-10.8272
初一	-10.8273
有成	-10.8279
現事	-10.8279
便失	-10.8279
義同	-10.8281
斯二	-10.8287
塗	-10.8295
焰	-10.8296
無受	-10.8299
莫能	-10.8302
括	-10.8304
喚	-10.8305
暢	-10.8307
笑	-10.8307
地論師	-10.8307
二諦教	-10.8308
烏	-10.8308
出因	-10.8308
寒暑	-10.8309
假無	-10.8309
六法	-10.8309
恢	-10.831
壯	-10.8311
小雅	-10.8312
佛性義	-10.8312
名涅槃	-10.8312
起見	-10.8314
二道	-10.8314
蜜	-10.8315
腹	-10.8316
以緣求智	-10.8318
浮	-10.8319
雖說	-10.832
渡	-10.8321
纏	-10.8322
皆以	-10.8326
有無俱	-10.8328
立驗	-10.833
所遮	-10.833
彌存	-10.8333
廣百論	-10.8333
亦遍	-10.8333
我執	-10.8333
見他	-10.8333
爾者	-10.8336
如上偈說	-10.8336
非體	-10.834
答婆沙	-10.8342
則破	-10.8343
為眾生說法	-10.8343
多種	-10.8344
則通	-10.8346
無二故	-10.8346
即得	-10.8347
本自不生	-10.8348
莫不	-10.8351
因體	-10.8353
自無	-10.8355
染淨	-10.8355
信解	-10.8361
破小乘	-10.8362
造色	-10.8364
放	-10.8366
無相無名	-10.8375
但云	-10.8382
一實	-10.8384
大師云	-10.8384
定相	-10.8387
名體	-10.8388
外法	-10.8392
論文云	-10.8399
全真	-10.8404
不是	-10.8404
則見	-10.8407
圓滿	-10.8408
無作者	-10.8411
若實	-10.8412
難之	-10.8421
又曰	-10.8424
雖不	-10.8425
假令	-10.8426
二經	-10.8434
生空	-10.8436
如中論	-10.8436
作相	-10.8438
一則	-10.8441
所疑	-10.8441
師子吼	-10.8446
受果	-10.8451
等是	-10.8455
照境	-10.8455
亦為	-10.8456
生後	-10.8456
唯見	-10.8457
自照	-10.8461
前境	-10.8466
當果	-10.8466
指前	-10.8467
歸於	-10.847
不相離故	-10.8474
僧佉人言	-10.8475
而自	-10.8478
同明	-10.8478
以證	-10.848
理無	-10.8481
作意	-10.8484
所立宗	-10.8487
肇師云	-10.8492
諸因	-10.8494
使我	-10.8494
寧有	-10.8495
大等	-10.8501
任運	-10.8503
得見	-10.8515
若聞	-10.8519
上半破	-10.8519
二部	-10.8521
行善	-10.8521
知也	-10.8522
不但	-10.8523
空即	-10.8527
有八	-10.8528
滅道	-10.853
第一真諦	-10.8534
說此	-10.8536
束	-10.8536
下第二破	-10.8538
為勝	-10.8538
無有性	-10.8539
能發	-10.854
此章	-10.8544
牒八不	-10.8549
修福	-10.855
既知	-10.8552
狀	-10.8553
皆云	-10.8553
是假名	-10.8554
受戒	-10.8557
破救	-10.8558
彼明	-10.8564
得佛	-10.8565
色相	-10.8565
是名為	-10.8569
我法	-10.857
俗有	-10.8575
合時	-10.8577
次就	-10.8579
諸論師	-10.858
不執	-10.8581
報佛	-10.8582
有去來	-10.8583
之於	-10.8584
有合	-10.8585
同彼	-10.8585
以人	-10.8594
以眾生	-10.8596
表理	-10.8606
義云	-10.8606
說三	-10.8607
非無也	-10.8612
於一切	-10.8612
舟	-10.8614
摩訶	-10.8615
以示	-10.8616
有方分	-10.8616
思我	-10.8617
但由	-10.8625
汝所執	-10.8628
此生	-10.8632
行行	-10.8638
大異	-10.8642
後得	-10.8643
故有此品	-10.8643
遷流	-10.8645
相見	-10.8645
若生	-10.8646
豈曰	-10.8648
有無之	-10.8655
復云	-10.8656
彼即	-10.8661
見諸法	-10.8668
毫	-10.8673
名波若	-10.8673
問言	-10.8675
說有無	-10.8685
是教	-10.8687
轉為	-10.8688
隨有	-10.869
別體	-10.8695
惡止	-10.8696
物物	-10.8701
無象	-10.8701
故就	-10.8706
句也	-10.8707
是異	-10.8708
宗中	-10.8713
隨其	-10.8716
此彼	-10.8716
戲	-10.8718
化眾生	-10.8725
但得	-10.8727
三菩提	-10.8728
大疏	-10.873
道人	-10.8731
應說	-10.8733
扣	-10.8733
解行	-10.8735
秤為	-10.8735
我空	-10.8736
以通	-10.8736
哲	-10.8739
有如來	-10.8741
急	-10.8742
成實師	-10.8743
二諦中道	-10.8744
明有無	-10.8744
振	-10.8746
為能	-10.8746
五陰中	-10.8746
鑑	-10.8746
所以言	-10.8746
三乘同	-10.8748
野	-10.8749
不來不出	-10.8749
舉譬	-10.8749
燭	-10.875
壁	-10.8752
論師云	-10.8754
併	-10.8754
裁	-10.8754
脩習	-10.8755
厚	-10.8755
半偈	-10.8759
二而不二	-10.8759
有取	-10.8759
因因而果	-10.876
聲聞緣覺	-10.8762
一論	-10.8762
即其事也	-10.8765
轍	-10.8766
橫竪	-10.8766
欣樂	-10.8766
云何乃	-10.8768
報恩	-10.8769
定是無常	-10.8774
作之	-10.8777
初立	-10.878
常存	-10.8782
獨覺	-10.8783
為作	-10.8785
道場	-10.8786
有如是	-10.8787
□□□□	-10.8787
但解	-10.8794
為智	-10.8795
是以聖人	-10.8798
無違	-10.8799
三章	-10.8803
行陰	-10.8806
用故	-10.8808
後解釋	-10.8808
次問答	-10.8809
中道第一義諦	-10.8809
如色	-10.881
二約	-10.8813
實體	-10.8813
不滯	-10.8819
我言	-10.8819
六趣	-10.882
便無	-10.8825
五事	-10.8825
共知	-10.8826
佛出世	-10.8828
依何	-10.884
離此	-10.8841
是故無有	-10.8842
具明	-10.8843
隨所	-10.8846
作如此	-10.8852
與此	-10.8855
若定	-10.8856
第三義	-10.8857
不俱	-10.8861
穀子	-10.8862
破執	-10.8862
釋偈本	-10.8863
可得言	-10.8864
不測	-10.8864
亦應有	-10.8869
並非	-10.8871
凡有二	-10.8874
雙破	-10.8877
亦以	-10.8879
三破	-10.8885
此二人	-10.8886
是則不然	-10.8888
不正	-10.889
自知	-10.8891
亦一	-10.8893
二文	-10.8894
無覺	-10.8894
則名	-10.8901
體空	-10.8904
雙照	-10.8906
一真	-10.8907
等經	-10.8907
此敘	-10.8908
不相似	-10.8908
有形	-10.8913
如下	-10.8913
一切有為法	-10.8914
未足	-10.8917
妙盡	-10.8918
其猶	-10.8922
以是因緣	-10.8923
巳下	-10.8926
破神	-10.8929
無咎	-10.8944
法非法	-10.8947
之後	-10.8948
四人	-10.8951
人功	-10.8958
不生者	-10.8959
前心	-10.8961
此五	-10.8962
分為	-10.8963
復次下第二	-10.8967
二地	-10.897
若諸法	-10.8975
處所	-10.8981
如法華	-10.8982
不燒	-10.8984
因他	-10.8985
無義	-10.8986
從用	-10.8986
十七	-10.8987
善解	-10.8991
而論之	-10.8992
恒有	-10.8998
於二	-10.8999
顛倒故	-10.8999
本覺	-10.9002
實相波若	-10.9008
名教	-10.9012
有無二	-10.9015
變為	-10.9021
關中	-10.9026
所辨	-10.9027
並得	-10.9033
經也	-10.9033
隨意	-10.9043
問意	-10.9044
似有	-10.9052
前識	-10.9058
一氣	-10.9059
以前	-10.907
遠師	-10.9072
不得成	-10.9073
現行	-10.9074
無殊	-10.9074
不容	-10.9075
之始	-10.9075
無所取	-10.9077
照真	-10.9083
分為二	-10.9083
羣	-10.9088
是故無過	-10.9089
玄得	-10.9093
名無	-10.9098
亦不見	-10.9105
既曰	-10.9106
六波羅蜜	-10.9119
有失	-10.9119
五道	-10.912
即心	-10.9123
唐	-10.9125
此通	-10.9134
不可為有	-10.9137
體同時	-10.9137
真知	-10.914
立因	-10.9142
之根	-10.9143
故無過	-10.9146
小大	-10.9148
不聞	-10.915
若望	-10.9151
大事	-10.9154
淪	-10.9155
諸體	-10.9159
空為真諦	-10.9159
鄉	-10.9161
冷	-10.9166
橫謂	-10.9166
與佛	-10.9168
聞聲	-10.9168
擇滅	-10.9169
初偈明	-10.9169
故大經	-10.9172
得起	-10.9173
自謂	-10.9175
與外道	-10.918
不隨	-10.9181
夢中	-10.9181
製	-10.9184
犯	-10.9187
如所說	-10.9187
如經說	-10.9188
註	-10.9188
不二之理	-10.9188
逼	-10.9189
籍	-10.919
式	-10.9192
行解	-10.9193
聖言	-10.9195
二性	-10.9197
堅固	-10.9197
搆	-10.9197
乾	-10.9197
立量	-10.9198
敗	-10.9198
神我	-10.9199
姚興	-10.9199
逾	-10.9203
兮	-10.9204
峯	-10.9205
飲	-10.9205
又開二	-10.9208
本有今無	-10.9208
本無惑取之知	-10.9209
聚集	-10.921
薩埵	-10.9211
如火	-10.9211
封執	-10.9212
為是義故	-10.9212
帖	-10.9212
優劣	-10.9212
故以為門	-10.9212
非能非所	-10.9212
釋吉藏撰	-10.9213
貧窮	-10.9214
有不自有	-10.9216
開宗	-10.9217
天女	-10.9217
走	-10.9218
悟解	-10.9219
梵語	-10.9219
故云爾	-10.922
初步	-10.922
依他起性	-10.9221
屈申	-10.9223
彼謂	-10.9226
不染	-10.9226
亦是中道義	-10.9232
正辨	-10.9235
念念生滅	-10.9236
若言有	-10.9236
人等	-10.9238
有餘無餘	-10.9239
修靜慮	-10.9239
云何當有	-10.9241
九品	-10.9242
又諸	-10.9246
一切不成	-10.9248
人無	-10.9249
成論云	-10.9249
前際	-10.9252
眼色	-10.9253
後際	-10.9259
正行	-10.926
住住	-10.9263
他生	-10.9263
處中	-10.9264
有體故	-10.9264
總說	-10.9265
破邪見	-10.9267
開善義	-10.9271
無有一法	-10.9272
所現	-10.9273
法為	-10.9274
始起	-10.9275
物不遷論	-10.9275
不在有無	-10.9275
品竟	-10.9276
是誰	-10.9276
于時	-10.9276
和合故	-10.9277
」「	-10.9277
正顯	-10.9278
如言	-10.9281
淨名經云	-10.9285
聖凡	-10.9288
故不須	-10.929
善業	-10.929
不可信	-10.9294
差別故	-10.93
思慮	-10.9306
為俗諦	-10.9309
二無我	-10.9312
涅槃無名	-10.9317
永離	-10.9317
此見	-10.9317
三際	-10.9318
亦不可	-10.932
疏中	-10.9323
能遮	-10.9329
下二句	-10.9333
謂涅槃	-10.9333
何容	-10.9335
重生	-10.9335
不例	-10.934
亦具	-10.9344
諸塵	-10.9345
色是	-10.9347
生疑	-10.9352
虛無	-10.9353
惑盡	-10.9354
虛空相	-10.9357
波若無知	-10.9361
明昧	-10.9365
必然	-10.9367
佛乘	-10.9372
即是常	-10.9375
物性	-10.9378
友	-10.9385
正言	-10.9386
對緣	-10.9386
非後	-10.9388
梵行	-10.939
是何物	-10.9391
證滅	-10.9399
墮於	-10.9399
書云	-10.94
我為	-10.9404
其身	-10.941
之令	-10.9411
滯於	-10.9413
上來破	-10.9416
體同	-10.9417
然矣	-10.9418
風俗	-10.942
依經	-10.9428
因果義	-10.9432
若唯	-10.9434
歸一	-10.944
復起	-10.944
所問	-10.9441
不息	-10.9447
既以	-10.9448
故非無	-10.9449
兩家	-10.9454
見道	-10.9458
冥寂	-10.9458
而恒	-10.9461
無識	-10.9462
令得	-10.9464
則不名	-10.9468
有定性	-10.9468
先明	-10.9471
汝之	-10.9475
有無二見	-10.9478
諸取	-10.9482
無定性	-10.9483
如因	-10.9483
見其	-10.9486
亦當	-10.949
天眼	-10.9494
之意也	-10.9497
辟支	-10.95
五部	-10.9501
如世	-10.9501
同法喻	-10.9505
同源	-10.9509
從緣生故	-10.9512
無所不為	-10.9516
所觀	-10.9518
法藏	-10.9518
先標	-10.9519
無如是	-10.9528
釋觀	-10.9531
至當	-10.9533
等覺	-10.9533
起迷	-10.9533
悉檀	-10.9535
則不見	-10.9538
說經	-10.9539
嘗	-10.9539
今釋	-10.9541
所以名	-10.9541
施者	-10.9541
答外人	-10.9542
彼義	-10.9543
名為正	-10.9543
具二	-10.9547
其旨	-10.9548
此用	-10.955
易見	-10.9554
說名為	-10.9556
境界故	-10.9563
利樂	-10.9564
前言	-10.9565
凡有三	-10.9566
無聲	-10.9569
而欲	-10.957
四德	-10.9575
在昔	-10.9576
以無為	-10.9581
民	-10.9583
有智	-10.9585
無別體	-10.9585
即是有	-10.9586
先已	-10.9587
此二種	-10.9592
口中	-10.9607
少有	-10.9608
就緣	-10.9611
迦毘羅	-10.9614
離色	-10.9614
是故我	-10.9617
亦然也	-10.9627
芥子	-10.963
三字	-10.9632
十二因緣不生不滅	-10.9632
即墮	-10.9634
玄妙	-10.9635
下品	-10.9637
若先無	-10.9638
為真實	-10.9644
此立	-10.9646
岸	-10.9646
逈	-10.9646
應同	-10.9648
極成	-10.9649
偈破	-10.9652
行處	-10.9652
雖云	-10.9652
延	-10.9658
莊周	-10.9658
限	-10.9662
一色	-10.9664
光宅	-10.9664
渾	-10.9665
初地巳上	-10.9666
脚	-10.9666
有七	-10.9667
壅	-10.9669
三無性	-10.9669
顧	-10.967
供	-10.967
繫辭	-10.9672
三輪	-10.9672
妄語	-10.9675
兔	-10.9676
問云何名	-10.9677
嬰兒	-10.968
沖	-10.9681
男	-10.9682
即同	-10.9682
地水火風	-10.9683
澤	-10.9683
破中	-10.9683
今先	-10.9684
我說即是空	-10.9685
有行	-10.9685
審察	-10.9685
法無我	-10.9685
與理	-10.9686
緣觀俱寂	-10.9686
招提	-10.9687
幽深	-10.9689
無量無邊	-10.9689
為主	-10.9691
為令	-10.9691
至極	-10.9694
無明初念	-10.9695
設許	-10.9696
取意	-10.9697
無分別慧	-10.9697
如意	-10.9697
自果	-10.9698
弘始	-10.9698
仙人	-10.9698
漸捨	-10.9702
遍滿	-10.9702
化物	-10.9703
滿字	-10.9703
貪欲	-10.9704
積集	-10.9705
身等	-10.9706
蔽	-10.9706
如兔角等	-10.9713
承上	-10.9714
若從	-10.9716
肇論	-10.9719
圓覺	-10.9719
無為無	-10.9719
佛弟子	-10.972
西方	-10.9721
四緣生	-10.9725
非空有	-10.9728
權用	-10.9729
諸法自性	-10.9743
融通	-10.9745
若是有	-10.9748
大乘論	-10.9752
空法	-10.9756
而體	-10.9758
香等	-10.9761
說真	-10.9767
常無	-10.9768
因果二法	-10.9768
此過	-10.9769
皆實	-10.9769
是大乘	-10.9769
之善	-10.9773
諸有為法	-10.9774
說涅槃	-10.9777
為是故	-10.9777
不求	-10.9777
受報	-10.9778
破相	-10.9781
正以	-10.9782
一一皆	-10.9785
便為	-10.9786
自性故	-10.9788
四忘	-10.9793
有無者	-10.9799
師等	-10.98
成人	-10.9801
外人立	-10.9802
自上已來破	-10.9804
有境	-10.9806
若取	-10.9807
則是無	-10.9809
今正	-10.981
故論主	-10.9813
化人	-10.9814
喻非也	-10.9818
破一切	-10.9819
物者	-10.9822
現觀	-10.9823
法身菩薩	-10.9827
二十五有	-10.9828
浮虛	-10.9828
相續假	-10.9829
無力	-10.9833
無所行	-10.9838
為聖	-10.9839
三地	-10.984
化之	-10.9843
方便慧	-10.9846
則與	-10.9849
無說	-10.9851
等四句	-10.9851
此責	-10.9855
眼所見	-10.9856
緣正	-10.9856
理內外	-10.9859
作瓶	-10.986
難明	-10.986
本意	-10.9861
如百論	-10.9862
亦即	-10.9862
亦不受	-10.9863
始自	-10.9864
皆依	-10.9864
三總結	-10.9864
界外	-10.9867
可立	-10.987
契真	-10.9872
不相因	-10.988
過者	-10.988
非一向	-10.9881
亦成	-10.9882
是立宗	-10.9882
名義	-10.9883
自下	-10.9885
有別異	-10.9889
其證	-10.9895
不異也	-10.9898
不決定	-10.9901
真際	-10.9901
即名為	-10.9902
。△	-10.9903
實權	-10.9905
不緣	-10.9906
正覺	-10.9909
此方	-10.991
前章	-10.9911
則無法	-10.9911
生天	-10.9915
有相無相	-10.9916
因緣假	-10.9918
多瓶	-10.9919
今次	-10.9921
入第一義	-10.9924
執言	-10.9924
覺體	-10.9926
正由	-10.9929
若眾生	-10.993
自分	-10.9936
然後方	-10.9939
無異也	-10.9941
汝若言	-10.9942
應捨	-10.9944
總名	-10.9944
而行	-10.9946
通明	-10.9952
則無因	-10.9955
於世	-10.9955
三種中道	-10.9958
就初又	-10.9959
涅槃道	-10.996
以知	-10.996
破三相	-10.9962
行苦	-10.9965
謂於	-10.997
真無	-10.9973
有苦	-10.9977
可作	-10.9977
就世俗	-10.998
後起	-10.9982
既一	-10.9982
亦遮	-10.9984
證無為	-10.9988
亦不離	-10.9989
開為三	-10.9989
所分別	-10.9994
我有	-10.9994
兩人	-10.9995
是邪見	-10.9996
非不有	-10.9997
而見	-11.0002
上以	-11.0005
隨眾生	-11.0009
是立因	-11.0011
即悟	-11.0012
彼如是	-11.0014
亦名為	-11.0017
行施	-11.0022
一標	-11.0022
性無性	-11.0023
結業	-11.0023
說無我	-11.0023
據此	-11.0024
應離	-11.0028
彼因	-11.0029
得涅槃者	-11.0031
所化	-11.0034
初中後	-11.0038
則唯	-11.0039
以第一義中	-11.0042
名第一義諦	-11.0042
位也	-11.0043
孤	-11.0043
門者	-11.0044
既失	-11.0047
在初	-11.0047
例之	-11.0051
例然	-11.0051
以世諦	-11.0056
心等	-11.0059
春	-11.006
上有	-11.0062
物不	-11.0063
現在法	-11.0064
義耳	-11.0067
說耶	-11.007
之表	-11.0072
智能	-11.0073
因緣假名	-11.0074
或時	-11.0074
知之	-11.0081
不遷者	-11.0084
不得生	-11.0085
待緣	-11.0085
就勝義諦	-11.0089
要由	-11.0091
此果	-11.0093
遣執	-11.0094
可度	-11.0095
應機	-11.0098
經義	-11.0098
舉喻	-11.0099
性空之理	-11.01
相待假	-11.0103
已上	-11.0106
方知	-11.0111
則不爾	-11.0113
何妨	-11.0113
依彼	-11.012
莊	-11.0121
極數	-11.0121
轉成	-11.0121
非復	-11.0126
唯得	-11.0126
初就	-11.0128
胎	-11.013
法輪	-11.013
同生	-11.013
既然	-11.0132
此兩	-11.0135
妙道	-11.0137
乘體	-11.014
形相	-11.0143
有壞	-11.0148
蕩	-11.015
三十二	-11.0151
七種	-11.0153
空有二諦	-11.0157
竟無	-11.0158
憶念	-11.0158
游	-11.0159
為定	-11.0159
邊無邊	-11.0162
自行	-11.0163
禪定	-11.0163
丘	-11.0163
毗	-11.0166
生法二空	-11.0166
婬	-11.0167
罔	-11.0167
劉	-11.0168
四大五根	-11.0168
川	-11.0169
府	-11.017
巳去	-11.017
均	-11.017
康	-11.017
翳	-11.0171
疑者	-11.0172
埿	-11.0173
慳	-11.0173
匠	-11.0173
綱	-11.0174
此下解釋也	-11.0175
髮	-11.0175
前句	-11.0175
不能作	-11.0176
米	-11.0176
今物自在今	-11.0176
維摩經	-11.0177
大乘義	-11.0179
則不能	-11.0179
癈	-11.0181
何也	-11.0182
酥	-11.0183
非境非智	-11.0183
明不二	-11.0185
單複	-11.0185
好醜	-11.0185
猶如兔角	-11.0185
是如來	-11.0186
盜	-11.0186
耀	-11.0187
萬象	-11.0188
何所以邪	-11.0189
三十二相	-11.0189
義引	-11.0189
善吉	-11.0189
十方三世諸佛	-11.0189
晝夜	-11.019
申經	-11.019
蓮華	-11.019
濫	-11.019
應常	-11.0192
當有	-11.0192
不稱	-11.0193
如乾闥婆城	-11.0195
自因	-11.0195
無自	-11.0196
增益	-11.0197
有二相	-11.0197
故來	-11.0198
譬如兔角	-11.0198
令他解	-11.0199
受苦	-11.02
身口業	-11.02
無差別差別	-11.02
論其	-11.0202
在其中	-11.0203
於今	-11.0206
智度論釋	-11.0207
釋不同	-11.0209
報因	-11.0209
無始來	-11.0211
必定	-11.0211
具四	-11.0213
既明	-11.0214
更說	-11.0214
此中意者	-11.0217
諸大乘經	-11.0217
相好	-11.0223
通者	-11.0224
初云	-11.0224
兩難	-11.0225
無生滅生滅	-11.0225
是以經云	-11.0226
得樂	-11.023
非所	-11.023
一毫	-11.023
真境	-11.0231
澄師	-11.0232
我不	-11.0235
異門	-11.0235
是滅	-11.0235
不二而二明之	-11.0236
諸天	-11.0239
是業	-11.024
寂而	-11.0241
初起	-11.0242
非獨	-11.0243
內無	-11.0247
豈容	-11.0248
眾聖	-11.0248
起等	-11.025
俱不成	-11.0252
與瓶	-11.0259
乃至云	-11.0262
本識	-11.0262
顯真	-11.0263
虗寂	-11.0264
何耶	-11.027
自滅	-11.0271
瓶有	-11.0272
性假	-11.0272
若未生	-11.0273
破戒	-11.0286
似如	-11.0287
法花	-11.0288
是皆不然	-11.0288
是色	-11.0289
呵責	-11.0289
須菩提言	-11.0291
自言	-11.0293
動作	-11.0293
水土	-11.0296
九者	-11.0296
惑業	-11.0299
思量	-11.0301
宗義	-11.0308
力用	-11.031
果果性	-11.0317
涅槃之	-11.0317
如來說	-11.032
難知	-11.0323
有所依	-11.0328
妙理	-11.0332
諸法皆空	-11.0334
斷除	-11.0334
盡故	-11.0336
法華經云	-11.0337
故舉	-11.0339
流來	-11.0339
為始	-11.0343
法生	-11.0344
其因	-11.0344
自體空	-11.0345
▁二釋	-11.0345
餘三	-11.0347
成聖	-11.035
物有	-11.0353
愚智	-11.0355
意言	-11.0356
權方便	-11.0359
住體	-11.0362
非無常	-11.0364
三大	-11.0364
非究竟	-11.0365
有始	-11.0366
眼見色	-11.0367
變壞	-11.0369
第一破	-11.0377
如地	-11.0377
別名	-11.0378
兩釋	-11.0381
通名	-11.0381
顯了	-11.0382
深義	-11.0387
大智	-11.039
自身	-11.0393
真則	-11.0399
智力	-11.0401
後結	-11.0401
破彼	-11.0402
離欲	-11.0402
不可執	-11.0403
頗	-11.0404
前品	-11.0406
破內	-11.0407
無所知	-11.0415
此之二	-11.0418
論義	-11.0423
是眾生	-11.0427
緣生故	-11.0427
故不可	-11.0427
無別故	-11.0427
之要	-11.0428
故立	-11.043
今之	-11.043
有為世諦	-11.0438
出莊子	-11.0443
教中	-11.0445
今古	-11.0446
之一	-11.0446
至果	-11.0447
於境	-11.0448
動而	-11.0451
結難	-11.0451
為之	-11.0454
是無記	-11.0457
已竟	-11.0463
是則無窮	-11.0465
見終	-11.0466
下論云	-11.0467
可捨	-11.0467
問若為	-11.0469
大同	-11.0469
談者	-11.047
盡智	-11.0471
自成	-11.0474
雙牒	-11.0475
初二	-11.0477
皆失	-11.0481
而求	-11.0482
所縛	-11.0483
菩薩道	-11.0483
事也	-11.0487
即不有	-11.0489
內曰下	-11.0489
緣具	-11.049
自性空	-11.049
若有人言	-11.0495
若過去	-11.0501
多用	-11.0501
福慧	-11.0503
真如性	-11.0504
緣起法	-11.0508
何者下	-11.0511
名之為有	-11.0513
為凡	-11.0514
難論主	-11.0516
以有為	-11.0516
有無二諦	-11.0517
不現	-11.052
唯心	-11.0521
涅槃耶	-11.0522
大劫	-11.0527
未是	-11.0531
如空	-11.0532
為別	-11.0538
疑難	-11.0539
空是	-11.0546
水火	-11.0549
二師	-11.0553
輩	-11.0556
等相	-11.0558
二際	-11.0559
既無有	-11.0564
非相	-11.0568
是故汝說	-11.0571
三節	-11.0576
則常	-11.058
名為真諦	-11.0583
即是我	-11.0583
亦有過	-11.0584
四難	-11.0589
違害	-11.0589
一門	-11.059
義則不然	-11.0592
釋經	-11.0594
應佛	-11.0595
此證	-11.0595
偏破	-11.0597
已去未去	-11.0603
應用	-11.0605
故復	-11.0609
遮故	-11.0614
不倒	-11.0614
中住	-11.0617
依二諦	-11.0617
因中先有果	-11.0618
因相	-11.0619
流轉者	-11.063
之上	-11.0631
為有為無	-11.0631
問此論	-11.0632
智無知	-11.0632
自己	-11.0636
馬鳴	-11.064
誓	-11.064
得此	-11.0644
無因果	-11.0656
身相	-11.0658
無累	-11.066
三時門破	-11.0661
題目	-11.0664
佛世尊	-11.0666
於三界	-11.0668
說彼	-11.0668
都不	-11.067
向有今無	-11.0671
進修	-11.0672
史	-11.0674
詩	-11.0676
皆無常	-11.0676
可聞	-11.0677
生未生	-11.0678
曇	-11.0681
老病死	-11.0686
豈可以	-11.0686
無所住	-11.0687
云何生	-11.0688
着	-11.0689
衡	-11.069
總攝	-11.0691
廓	-11.0693
開之	-11.0695
盖	-11.0696
蛇	-11.0701
寸	-11.0701
係	-11.0703
誑	-11.0704
恒沙	-11.0704
即上	-11.0706
露	-11.0706
南北	-11.0706
聖天菩薩	-11.0706
慨	-11.0707
莊老	-11.0708
逸	-11.0708
轉法輪	-11.0709
無差	-11.0709
果與果果	-11.0709
雪山	-11.071
外物	-11.071
挫	-11.0711
俯	-11.0711
輒	-11.0712
幽微	-11.0712
非大非小	-11.0712
萬善	-11.0713
世間顛倒謂有	-11.0713
熏習	-11.0713
為一為異	-11.0715
眼等諸根	-11.0715
動與事會	-11.0716
出二諦外	-11.0717
南方	-11.0717
正取	-11.0718
故復頌曰	-11.0718
有方便	-11.0721
畢竟清淨	-11.0721
果因	-11.0725
幽途	-11.0726
即是空	-11.0728
頌破	-11.0728
眼耳等	-11.073
舍那	-11.0731
出入觀	-11.0731
我心	-11.0732
緣生無性	-11.0734
近遠	-11.0737
安隱	-11.0738
如是則	-11.0739
彼論	-11.0741
歷然	-11.0741
冥會	-11.0743
即三	-11.0747
今論主	-11.0748
下第三總結	-11.075
在乎	-11.0751
無所生	-11.0751
空性	-11.0754
云何能	-11.0755
性是	-11.0755
蒼生	-11.0759
即時	-11.0762
第一句	-11.0764
凝然	-11.0765
此諸	-11.0766
淨穢	-11.0769
與物	-11.077
亦復然	-11.0771
文理	-11.0775
如化	-11.0776
偈意	-11.0776
止惡	-11.0778
真名	-11.0779
通三性	-11.0787
橫計	-11.0793
山門	-11.0793
汝自	-11.0798
五難	-11.0801
下釋下半	-11.0803
今求	-11.0807
無為者	-11.0807
雙絕	-11.0808
生滅斷常	-11.0809
之咎	-11.0814
不復更	-11.0814
以上	-11.0819
汝先說	-11.082
體應	-11.0823
正使	-11.0824
得無生忍	-11.0826
分際	-11.0827
而觀	-11.0828
此牒	-11.0829
斯即	-11.0831
無壞	-11.0831
亦作	-11.0832
彼經云	-11.0834
釋章門	-11.0838
是正因	-11.084
多少	-11.0841
十八空	-11.0841
於生死	-11.0847
為色	-11.0847
坦	-11.0849
非想	-11.0849
有兩種	-11.0853
欲令眾生	-11.0857
而明之	-11.0858
其餘	-11.0859
捨身命	-11.086
縱有	-11.0861
經曰下	-11.0861
未詳	-11.0864
豈謂	-11.0864
能顯	-11.0865
來出	-11.0866
以悟	-11.0867
中已有	-11.0868
十二入	-11.0869
墮在	-11.0873
智惠	-11.0874
此執	-11.0877
宗本義	-11.0877
苦樂等	-11.0877
成我義	-11.0878
如涅槃云	-11.0879
無為空	-11.088
注釋	-11.0881
不偏	-11.0884
楞伽經	-11.0884
妄情	-11.0885
無因生	-11.0892
梵天	-11.0893
為滅	-11.0894
我亦如是	-11.0894
非三世	-11.0897
是心	-11.0904
於勝義諦中	-11.0907
約人	-11.0907
能化	-11.0911
以中道	-11.0912
此處	-11.0913
生已生	-11.0913
實不實	-11.0915
又上來	-11.0915
各自	-11.0916
盡淨	-11.092
為傍	-11.092
之別	-11.0921
菩薩言	-11.0921
不具	-11.0923
緣成	-11.0923
本願	-11.0924
則俱	-11.0925
豈待	-11.0927
俱破	-11.0928
兩論	-11.0929
斷之	-11.0932
苦受	-11.0932
彼二	-11.0934
之殊	-11.094
亦壞	-11.0943
有異相	-11.0943
依之	-11.0943
若如	-11.0947
初總	-11.0948
而不取	-11.095
空中	-11.0954
總釋	-11.0958
欲成	-11.0966
因中無	-11.0966
受身	-11.0967
二理	-11.0967
有本	-11.0967
上三句	-11.0971
智名	-11.0971
之執	-11.0971
成前	-11.0973
合也	-11.0974
謂是	-11.0975
色體	-11.0975
天上	-11.0975
之慧	-11.0981
無寄	-11.0987
不能照	-11.0992
行道	-11.0992
根緣	-11.0993
約義	-11.0993
所因	-11.0996
佛所	-11.0998
即見	-11.0998
因中有	-11.1003
是作法	-11.101
流通	-11.1017
作此釋	-11.1019
理極	-11.1019
幻化人	-11.1021
所出	-11.1025
致問	-11.103
今當說	-11.1031
二業	-11.1033
未合	-11.1033
法施	-11.1036
則名為	-11.1038
不遷之	-11.1044
瓶是	-11.1047
二諦是教	-11.1047
名之	-11.1048
弟	-11.1049
三世諸佛	-11.105
著有	-11.105
離陰	-11.1051
初正破	-11.1052
界內	-11.1054
既除	-11.1057
斫	-11.106
業果報	-11.1065
不從緣	-11.1066
會釋	-11.1066
可去	-11.1071
之空	-11.1071
名第一義	-11.1074
於瓶	-11.1075
從境	-11.1077
人有	-11.1079
從因緣生	-11.1079
因是	-11.1085
釋曰若	-11.1088
取之	-11.1089
山中	-11.1095
趣向	-11.1098
起煩惱	-11.1099
何等為	-11.11
定是	-11.1101
此猶是	-11.1102
單中	-11.1105
色塵	-11.1106
共起	-11.1109
未來善	-11.111
令捨	-11.1112
今辨	-11.1112
寄名	-11.1114
惑取	-11.1116
信矣	-11.112
遠也	-11.112
方所	-11.1122
常過	-11.1124
即明	-11.1125
十品	-11.1126
去住	-11.1127
聲性	-11.1129
彼法	-11.113
二正破	-11.1132
無決定	-11.1135
入理	-11.1141
緣法	-11.1143
引之	-11.1144
對他	-11.115
並不	-11.1154
聲色	-11.1158
實理	-11.1159
色異	-11.116
之初	-11.1162
非思	-11.1164
起用	-11.1165
不有者	-11.1166
非能	-11.1166
於自	-11.1167
因緣中	-11.117
即是無	-11.1172
破耶	-11.1174
二字	-11.1174
一佛乘	-11.1175
廣略	-11.1177
物我	-11.1179
何者是	-11.118
妄境	-11.1183
世間現見	-11.1183
云何不	-11.1186
有能	-11.1188
若云	-11.1196
不關	-11.1197
無功用	-11.1199
為理	-11.12
相有故	-11.1201
善惡業	-11.1201
假有不名	-11.1201
三世佛	-11.1203
觀心	-11.1203
謂聖心	-11.1207
上人	-11.1212
亦不作	-11.1212
等事	-11.1213
意欲	-11.1215
若常	-11.1215
一事	-11.1222
有成壞	-11.1222
斯乃	-11.1223
言異	-11.1223
此性	-11.1224
不免	-11.1224
即無有	-11.1225
若不見	-11.1229
立難	-11.1229
智相	-11.1231
此師	-11.1233
法本	-11.1234
立於	-11.1235
時相	-11.1239
結前	-11.1239
行也	-11.1239
婉	-11.124
孰	-11.1243
深也	-11.1244
得佛之理	-11.1246
諸果	-11.1246
浪	-11.1246
閉	-11.1247
保	-11.1247
畢竟無生	-11.1249
為總	-11.1251
上座部	-11.1252
復說	-11.1252
寬	-11.1253
三分	-11.1254
始成	-11.1254
震旦	-11.1254
今借此語	-11.1255
阿那含	-11.1255
甚多	-11.1255
大乘明義	-11.1255
篇云	-11.1256
毘婆闍婆提	-11.1256
奔	-11.1256
救濟	-11.1256
允	-11.1257
本來寂滅	-11.1257
片	-11.1257
送	-11.1257
觀十二因緣	-11.1258
奢	-11.1259
房	-11.1261
如幻如夢	-11.1261
物各性住	-11.1263
到不到	-11.1263
阿耨多羅三藐三菩提	-11.1263
廬山	-11.1264
如鏡中像	-11.1264
因中發觀	-11.1264
非色非心	-11.1264
五逆	-11.1265
輕重	-11.1265
慎	-11.1265
磨	-11.1265
誹謗	-11.1267
枝末	-11.1268
吐	-11.1268
此執不然	-11.1268
第三重	-11.1269
師言	-11.1269
會三歸一	-11.1269
下第二釋	-11.127
八地巳上	-11.127
業因	-11.127
爰	-11.127
十二部經	-11.1271
秋	-11.1271
若一若異	-11.1271
亦為是假名	-11.1272
半有半無	-11.1272
今當更說	-11.1272
雖非	-11.1272
名無得物之功	-11.1273
糞	-11.1273
依他起	-11.1274
果不俱因	-11.1274
射	-11.1275
常故	-11.1275
大乘中觀釋論	-11.1276
亡不為無	-11.1277
夫人經云	-11.1278
今亦無滅	-11.1279
諸有智者	-11.1282
諸方等經	-11.1282
安慧菩薩造	-11.1282
譯經三藏朝散大夫試鴻臚卿	-11.1282
體不成	-11.1288
一切種	-11.1289
毛詩	-11.1289
後破救	-11.129
久矣	-11.1291
必依	-11.1291
大乘中觀釋論卷第十	-11.1292
故經	-11.1295
影像	-11.1296
畢竟不可得	-11.1298
性義	-11.13
從初發心	-11.1301
二正問	-11.1302
約用	-11.1303
是法身	-11.1303
增減	-11.1306
猶存	-11.1306
彼緣	-11.1308
二儀	-11.1308
品末	-11.1309
譬如瓶等	-11.131
漸次	-11.1312
是有無	-11.1314
為深	-11.1314
修因	-11.1315
彼一切法	-11.1315
勢力	-11.1316
初總標	-11.1316
體異	-11.1319
責其	-11.132
具縛	-11.1321
破人法	-11.1321
方便智	-11.1322
俗即真	-11.1323
今無	-11.1323
則長	-11.1328
火薪	-11.1329
解心	-11.1331
梵音	-11.1331
成壞二法	-11.1334
開境智	-11.1335
今難	-11.1339
絕無	-11.1339
法無去來	-11.1339
佗性	-11.1343
能縛	-11.1344
自壞	-11.1346
不自生	-11.1347
生不生	-11.1347
真也	-11.1348
明暗	-11.1352
不開	-11.1355
我與	-11.1358
如兔角	-11.136
不有故	-11.1374
可縛	-11.1374
略舉	-11.1375
之風	-11.1377
三中	-11.1382
安住	-11.1385
三師	-11.1385
問何	-11.1388
出於	-11.1388
有三意	-11.139
無差別故	-11.1392
離言	-11.1395
大小內外	-11.1399
是無因	-11.1399
即中道	-11.14
後偈	-11.14
悟道	-11.14
此部	-11.1403
證理	-11.1413
麁果	-11.1413
始覺	-11.1413
復更	-11.1416
心心法	-11.1417
諦也	-11.1419
更相	-11.1421
第四明	-11.1424
兩因	-11.1425
其法	-11.1426
謂言	-11.1428
全同	-11.1429
過去時中	-11.143
人說	-11.1432
次四句	-11.1433
前位	-11.1434
設難	-11.1435
攝故	-11.1436
若不因	-11.1437
時人	-11.1438
有表不有	-11.144
壞時	-11.1443
為解脫	-11.1445
四事	-11.1448
相破	-11.1452
大悲心	-11.1452
依正	-11.1453
而有差別	-11.1455
遷也	-11.1458
四名	-11.1459
攝一切法	-11.1462
難陀	-11.1462
說於	-11.1466
斷者	-11.1467
今借	-11.1468
亦不有	-11.147
其異	-11.1475
牒前	-11.1476
共位	-11.148
要待	-11.1483
六合	-11.1485
蓋以	-11.1488
名為常	-11.1492
二是	-11.1493
更無有	-11.1493
之士	-11.1506
論說	-11.1508
有過失	-11.1509
有實體	-11.1509
有執	-11.151
眾生及	-11.1511
與中論	-11.1512
汝上	-11.1515
無倒	-11.1515
亦不可說	-11.1516
不見佛性	-11.1519
並云	-11.152
之域	-11.1521
汝先	-11.1521
本自無	-11.1522
雖滅	-11.1529
答亦得	-11.1532
如是見	-11.1536
義意	-11.1538
如云	-11.154
皆是世諦	-11.1541
不無也	-11.1543
則無窮	-11.1549
何事	-11.1553
二十四	-11.1555
肉	-11.1556
亦多	-11.1558
名為解脫	-11.1559
苦惱	-11.1562
生可生	-11.1563
捨於	-11.1563
十門	-11.1563
合論	-11.1569
若前	-11.157
前雖	-11.1574
人空	-11.1576
人作	-11.1578
心相	-11.1581
若必	-11.1581
常是	-11.1582
因無	-11.1583
以有無	-11.1589
離斷常	-11.1589
小兒	-11.159
之所以也	-11.1593
俱失	-11.1594
往也	-11.1596
體上	-11.1597
知生	-11.1598
今云何	-11.1599
三年	-11.1607
成具	-11.1608
旨也	-11.1608
一體異體	-11.1608
如遮	-11.1613
乃曰	-11.1619
無由	-11.1621
顯相	-11.1633
謂因	-11.1636
著於	-11.1639
言迹	-11.164
無礙道	-11.1641
出處	-11.1644
無所有故	-11.1644
已生未生	-11.1645
先正破	-11.1646
諸德	-11.1646
而人	-11.1647
瓶衣等物	-11.1649
神心	-11.165
法塵	-11.1653
中復有	-11.1653
有四義	-11.1656
業用	-11.1659
空即是色	-11.1663
而汝	-11.1665
為己	-11.1665
明闇	-11.1668
無生者	-11.1672
邪因	-11.1674
為假	-11.1675
第二釋	-11.1678
生滅相	-11.1678
全無	-11.1688
不殊	-11.1691
無眼	-11.1692
攝受	-11.1696
即畢竟空	-11.1697
絕百非	-11.1699
易解	-11.1699
今觀	-11.1699
名為有	-11.1703
望聖	-11.1707
照實相	-11.1708
永斷	-11.1709
彼體	-11.1709
取故	-11.171
豈非是	-11.1711
共作	-11.1711
未說	-11.1711
果從	-11.1713
大菩薩	-11.1714
無佛	-11.1714
欲以	-11.1719
不空者	-11.173
驗無體	-11.1733
為眾生說	-11.1733
因明	-11.1734
法義	-11.1735
復何所	-11.1739
無理	-11.1745
絕於	-11.1749
亦常	-11.1751
悟也	-11.1752
是權	-11.1753
未嘗有	-11.1754
大教	-11.1757
同品	-11.1757
物理	-11.1758
津	-11.1761
如我	-11.1764
無起滅	-11.1765
可斷	-11.1768
又經云	-11.177
為目	-11.1773
名實	-11.1773
三科	-11.1774
生念	-11.1775
盡言	-11.1776
是智	-11.1778
菩薩悲心	-11.1783
不對	-11.1784
於空義	-11.1785
四宗	-11.1785
三難	-11.1786
上智	-11.1787
問汝	-11.1789
環	-11.1789
有佛	-11.179
示其	-11.1791
躡	-11.1794
亦隨	-11.18
受等	-11.1802
能燒	-11.1802
昔物不至今	-11.1806
若無自性	-11.1807
名方便	-11.181
妙盡冥符	-11.1815
先說	-11.1815
更立	-11.1817
自體有	-11.1818
若除	-11.1818
有彼	-11.182
之業	-11.1823
遮彼	-11.1824
初敘	-11.1824
之終	-11.1825
大苦	-11.1827
睿	-11.1829
我以	-11.183
婦	-11.1831
理之	-11.1832
葢	-11.1833
龜茲	-11.1833
直說	-11.1834
毗曇	-11.1834
須彌入芥子	-11.1834
邈	-11.1835
於向未嘗無	-11.1836
伽	-11.1837
騰	-11.1837
有三句	-11.1837
休	-11.1838
袪	-11.184
地攝兩論	-11.1841
宇	-11.1841
愈	-11.1842
如本	-11.1844
如說而行	-11.1844
看	-11.1844
卒	-11.1844
如行而說	-11.1846
濕	-11.1846
憐愍	-11.1846
瓶瓫	-11.1846
拙	-11.1846
乏	-11.1846
前四	-11.1846
地攝等四家	-11.1847
遁	-11.1847
無彼	-11.1847
巳盡	-11.1847
稍	-11.1848
有其所以不無	-11.1848
織	-11.1848
冶	-11.1848
誤	-11.1848
即無自性	-11.1849
是故言	-11.185
不物於物	-11.185
曜	-11.185
名為大	-11.185
驚	-11.185
訶梨	-11.1851
納	-11.1851
不窮	-11.1851
增上慢	-11.1851
壽命	-11.1851
所發	-11.1851
臺	-11.1851
漸漸	-11.1852
俗真	-11.1852
摩醯首羅	-11.1852
十八部	-11.1853
詶	-11.1853
虛誑	-11.1854
渴	-11.1856
猛	-11.1857
萬機	-11.1857
陰陽	-11.1857
學二諦失二諦	-11.1857
染及染者	-11.1858
復次僧佉人言	-11.1858
第二重	-11.1858
賤	-11.1858
九十六術	-11.1858
如佛所言	-11.186
翻譯	-11.1861
歟	-11.1861
人情	-11.1862
阿闍梨	-11.1863
有作用	-11.1864
旃陀羅	-11.1866
昭然	-11.1866
安置	-11.1866
即是佛性	-11.1867
幽玄	-11.1867
瞿曇	-11.1868
極細	-11.1869
進修三位	-11.187
用前後	-11.1871
脩慧	-11.1872
對緣假	-11.1872
此中應問	-11.1872
一性異性	-11.1873
中後假	-11.1873
何關	-11.1874
序主	-11.1874
已生位	-11.1875
十九	-11.1877
無有別	-11.1877
老少	-11.188
顯於	-11.1881
此亦是	-11.1882
龍樹出世	-11.1883
此所說	-11.1888
故前明	-11.1889
在未來	-11.1889
共有因	-11.189
我欲	-11.1891
諸世間	-11.1892
有人法	-11.1893
思者	-11.1894
令物解	-11.1894
無異性	-11.1895
外人謂	-11.1896
猶在	-11.1897
不分	-11.1899
過未	-11.1899
下第六	-11.1899
名假	-11.1905
見不見	-11.1906
會歸	-11.1907
為心	-11.1907
不二法門	-11.1909
此舉	-11.1911
二行	-11.1912
有前後	-11.1912
脩萬行	-11.1912
十者	-11.1915
極重	-11.1916
故有此門來	-11.1916
捨身	-11.1918
六句	-11.192
此身	-11.1921
四悉檀	-11.1921
中下	-11.1922
佛眼	-11.1923
於解脫	-11.1925
內入	-11.1927
和合生	-11.1927
妄計	-11.1928
不二之道	-11.1933
造論意	-11.1934
初句牒	-11.1938
今引	-11.1941
乃曰涅槃	-11.1942
斯文	-11.1942
不同故	-11.1944
有愛	-11.1946
反覆	-11.1947
縱關	-11.1948
迷者	-11.195
斷結	-11.1952
發生二智	-11.1952
盡則	-11.1953
此喻	-11.1954
而存	-11.1956
五求	-11.1958
無相故	-11.1958
中具	-11.1958
深遠	-11.1959
為苦	-11.1959
有多種	-11.1964
下兩句	-11.1966
非其	-11.197
無容	-11.1971
末世	-11.1973
謂心	-11.1976
非顛倒	-11.1977
而用	-11.1978
問前云	-11.1979
世師	-11.1979
都無所	-11.1979
諸行無常	-11.1983
今總	-11.1984
照理	-11.1985
雖是	-11.1985
即是果	-11.1986
無別有	-11.1986
說因	-11.1987
指前破	-11.1987
悲愍	-11.1989
雙泯	-11.199
單空	-11.199
能受	-11.1991
或曰	-11.1992
因過	-11.1992
乃得	-11.1994
有所取	-11.1995
自說	-11.1996
大人	-11.1997
作善業	-11.1999
實無有	-11.1999
當以	-11.2
二品	-11.2001
秦言	-11.2002
倒不倒	-11.2002
之方	-11.2004
諸識	-11.2007
涅槃體	-11.2008
若一切法	-11.2008
諸法性相	-11.201
可然	-11.2012
邊際	-11.2015
為實智	-11.2018
滅已	-11.202
隨俗	-11.202
無相門	-11.2023
開善等	-11.2024
塵識	-11.2024
起信云	-11.2027
必不	-11.203
六師	-11.2031
神相	-11.2033
大小乘經	-11.2035
因待	-11.2036
為末	-11.2037
失者	-11.2037
無知論	-11.2039
即常	-11.2039
經書	-11.204
菩提心	-11.2042
何失	-11.2045
等物	-11.2045
前無	-11.2046
識中	-11.2049
惡趣	-11.2051
所申	-11.2054
一言	-11.2057
所存	-11.2059
諦觀	-11.206
皆成	-11.206
有我者	-11.2061
涅槃為	-11.2063
之生	-11.2064
雖爾	-11.2071
不愛	-11.2072
謂從	-11.2074
終教	-11.2076
意業	-11.2079
如所	-11.2084
作老	-11.2087
有惡	-11.2088
無不盡	-11.2089
依空	-11.2091
著空	-11.2091
此四種	-11.2092
二科	-11.2093
不敢	-11.2093
二依	-11.2095
會之	-11.2096
世俗有	-11.2096
三果	-11.2097
正量	-11.21
五種求	-11.2106
於生	-11.211
後當	-11.211
空名	-11.2112
初二偈	-11.2113
此疑	-11.212
為六	-11.2122
何故但	-11.2123
有顛倒	-11.2124
破意	-11.2125
去去者	-11.2126
五陰和合	-11.2129
於顛倒	-11.2131
上半牒下半	-11.2133
無為之	-11.2139
為內	-11.214
而惑者	-11.215
文有三	-11.2151
四塵	-11.2151
四取	-11.2152
如是第一義中	-11.2153
虛實	-11.2153
智所	-11.2154
樂受	-11.2154
如幻化	-11.2155
即是世諦	-11.2156
明無生	-11.2161
復何用	-11.2162
流入	-11.2162
今品	-11.2164
無遺	-11.2166
得無生法忍	-11.2167
一總	-11.2168
初教	-11.2169
五見	-11.2172
無同喻	-11.2174
眾人	-11.2178
冥冥	-11.2179
則離	-11.2181
鞞世師人	-11.2182
合為	-11.2183
最為	-11.2187
善趣	-11.2187
難家	-11.2188
為不	-11.2188
若在	-11.2189
一源	-11.219
內義	-11.219
智之	-11.2192
有六道	-11.2193
為依	-11.2194
未生生	-11.2196
初是	-11.2199
言非有	-11.22
中陰	-11.2202
異端	-11.2205
唯在	-11.2214
即不生	-11.2215
下第五	-11.2215
四生	-11.2215
有二體	-11.2222
領前	-11.2231
經部	-11.2234
常無常等	-11.2236
地攝	-11.2237
於神	-11.2237
既成	-11.2238
或以	-11.224
故秤為	-11.2241
同法	-11.2242
八正	-11.2245
輪轉	-11.2251
之解	-11.2252
空行	-11.2254
生識	-11.2255
四緣中	-11.2261
因與果	-11.2261
所說法	-11.2263
已前	-11.2266
小乘教	-11.2269
觀門	-11.2269
故名為實	-11.2271
彼果	-11.2271
是別	-11.2272
故前破	-11.2272
虗實	-11.2274
謂能	-11.2278
真諦無	-11.2282
無縛	-11.2285
釋中二	-11.2287
十三	-11.2287
二諦體	-11.229
若有所	-11.2293
不廢	-11.2293
何因緣故	-11.2297
下第	-11.2297
生子	-11.2299
注中	-11.2299
今立	-11.2301
無惑取	-11.2304
變異故	-11.2306
之迹	-11.2315
石女	-11.2315
成熟	-11.2316
下結	-11.2316
可爾	-11.2319
不遠	-11.232
偈文	-11.2321
三雙	-11.2321
謂如來	-11.2322
故秤	-11.2322
結歸	-11.2324
近也	-11.2325
品明	-11.2326
師說	-11.2327
為去	-11.2328
有為有	-11.2329
大地	-11.2337
此據	-11.234
初問	-11.2342
語者	-11.2342
諸色	-11.2343
能有所	-11.2348
照俗	-11.235
呵之	-11.2351
悟理	-11.2355
身業	-11.2358
墮斷常	-11.2361
亦不異	-11.2361
引大品	-11.2362
初舉	-11.2363
複	-11.2363
小教	-11.2365
相待故	-11.2367
為妙	-11.237
中云	-11.237
盡見	-11.2372
如大	-11.2378
等過	-11.2378
因起	-11.2381
方生	-11.2386
俱起	-11.2387
契經	-11.2388
立教	-11.2389
眾生空	-11.2389
可為	-11.239
非假	-11.239
明諸法	-11.2391
先已破	-11.2393
百論云	-11.2396
苦者	-11.2398
是故知	-11.2399
性空也	-11.2401
諸物	-11.2403
次問	-11.2403
以二諦為宗	-11.2409
人多	-11.241
凝	-11.2412
亦無常	-11.2416
五陰身	-11.2421
總標	-11.2427
破一切法	-11.2429
自作苦	-11.2429
彼去	-11.243
問意云	-11.2431
待於	-11.2432
類破	-11.2433
為法身	-11.2434
對偏	-11.2438
僧佉人	-11.2439
賢首	-11.244
箭	-11.244
呈	-11.2444
色身	-11.2445
有不失	-11.2446
有老死	-11.2449
決定相	-11.245
若其無	-11.2451
郢人	-11.2451
今次破	-11.2453
無有一	-11.2454
噫	-11.2455
以智	-11.2455
即體	-11.2455
絕言	-11.2456
詐	-11.2456
因成假	-11.2457
英	-11.2458
李	-11.2458
之門	-11.2459
甘	-11.2461
偶	-11.2461
貪瞋	-11.2461
冲	-11.2461
品初	-11.2461
隆	-11.2462
施為	-11.2462
姚萇	-11.2463
銘	-11.2463
圖	-11.2464
怕	-11.2464
積聚	-11.2465
割	-11.2466
兆	-11.2466
敷	-11.2466
略標	-11.2468
杜	-11.2468
筆	-11.2469
翼	-11.2469
十家	-11.2469
聊	-11.2469
謝滅	-11.2469
泊	-11.2469
逢	-11.247
雷	-11.247
常人	-11.247
舍利	-11.247
釋頌文	-11.2471
醫	-11.2471
鐵	-11.2471
拳	-11.2472
萬端	-11.2472
闊	-11.2472
筌	-11.2473
校	-11.2473
早	-11.2473
扇	-11.2473
回	-11.2474
大鈔	-11.2474
從初至	-11.2474
互不相	-11.2475
抽	-11.2475
無去無來	-11.2475
無依無得	-11.2475
壽量	-11.2475
漫	-11.2476
薩	-11.2476
卑	-11.2476
非空非不空	-11.2477
契經言	-11.2477
纔	-11.2477
不動真際	-11.2477
如水中月	-11.2477
起邪見	-11.2478
了了見	-11.2479
火宅	-11.2479
侍	-11.248
中百二論	-11.2481
之實相	-11.2481
悞	-11.2481
絹	-11.2482
注釋為二	-11.2482
羊	-11.2484
遲	-11.2484
能證之人	-11.2484
不可壞	-11.2485
詠	-11.2485
於諸	-11.2485
勸學	-11.2486
婬欲	-11.2486
仗	-11.2487
無名無說	-11.2487
灰身滅智	-11.2489
能相所相	-11.2489
非無非不無	-11.2489
第十地	-11.249
遠離二邊	-11.2491
不相到	-11.2491
白牛	-11.2492
惡取空	-11.2492
有縛	-11.2493
姚嵩	-11.2493
大般涅槃	-11.2493
存不為有	-11.2494
如空花等	-11.2495
勝劣	-11.2495
無涯	-11.2496
漚和般若	-11.2498
其功	-11.2498
以般若	-11.2499
有起	-11.2499
捨罪福	-11.2501
本身	-11.2504
今此一品	-11.2505
生老病死	-11.2508
境為智	-11.2508
c	-11.2508
細分	-11.2511
鑒照	-11.2511
多羅	-11.2512
久住	-11.2514
㮈	-11.2515
偈為三	-11.2515
虗玄	-11.2517
大義	-11.2517
自謙	-11.2519
宗法	-11.2521
如來有	-11.2526
立論	-11.2529
超出	-11.253
旋	-11.2531
無異相	-11.2531
二善	-11.2532
問外人	-11.2534
破洗	-11.2535
故不可以	-11.2537
分二	-11.2537
是故非	-11.2537
語非也	-11.254
四禪	-11.2541
傍正	-11.2542
弘道	-11.2542
具含	-11.2542
己身	-11.2545
何故言	-11.2545
從四緣生	-11.2546
令我	-11.2546
設復	-11.2546
如是分別	-11.2547
隔別	-11.2548
五種佛性	-11.255
及餘	-11.2551
無本住	-11.2555
中有四	-11.2556
前二句	-11.2556
即二諦	-11.2557
香味	-11.2558
因云	-11.256
因有故	-11.256
始末	-11.2563
他云	-11.2564
無常相	-11.2564
但就	-11.2566
便滅	-11.2569
同喻不成	-11.2571
破法人	-11.2571
為略	-11.2575
與上	-11.2576
不二之	-11.2577
命根	-11.2579
此非道理	-11.2581
何以言	-11.2582
諸外道等	-11.2583
數論師	-11.2584
後三	-11.2584
破斥	-11.2585
▁No	-11.2586
如是五句	-11.2586
所修	-11.259
就勝義	-11.2591
眾生是	-11.2592
諸苦	-11.2596
神與	-11.2599
如下云	-11.26
群生	-11.2602
義亦不成	-11.2602
中十信	-11.2604
為新	-11.2604
想心	-11.2608
」《	-11.2609
佛與	-11.2609
若心	-11.261
若別	-11.2613
此因不成	-11.2613
空智	-11.2614
不縛	-11.2616
更須	-11.2616
極果	-11.2617
少多	-11.2619
無私	-11.262
故云無	-11.262
與論主	-11.2624
如餘	-11.2625
之數	-11.2627
對前	-11.2627
現起	-11.2633
之苦	-11.2635
三苦	-11.2638
是一物	-11.2638
遮破	-11.2638
自利	-11.2638
異熟	-11.2639
明大乘觀行	-11.2641
為第一義	-11.2644
無名相中	-11.2644
救眾生	-11.2652
便壞	-11.2655
有無二法	-11.2656
辨於	-11.2657
不遷之義	-11.2661
所以下	-11.2663
雖與	-11.2668
爾乃	-11.2669
運動	-11.2669
未去者	-11.2672
此不相應	-11.2672
縱其	-11.2674
非為	-11.2674
判二諦	-11.2676
合為一	-11.2678
還生	-11.2679
說非有非無	-11.2679
又何	-11.2686
應許	-11.2687
佛法身	-11.2689
無戲論	-11.269
菩薩藏	-11.2692
為行	-11.2692
異執	-11.2693
如虛空花	-11.2694
愛樂	-11.2695
二種俱	-11.2697
應在	-11.2699
即俗	-11.2699
內外大小	-11.2699
皆屬	-11.27
三車	-11.2702
大患	-11.2709
若色	-11.271
釋偈	-11.271
上中下	-11.2711
善感	-11.2711
旨歸	-11.2712
從多	-11.2714
無學	-11.2715
永無	-11.2717
現身	-11.2718
為正因體	-11.2718
者戲論	-11.2722
以此為	-11.2724
二諦一體	-11.2725
此計	-11.2727
佛則	-11.2733
文中初	-11.2736
盡理	-11.2738
真諦無相	-11.2743
無知無見	-11.2745
斷諸煩惱	-11.2752
所無	-11.2755
夫人	-11.2757
不在於	-11.2758
泥中	-11.2762
上雖	-11.2763
非內非外	-11.2765
虗心	-11.2765
四十	-11.2767
彼自性	-11.2768
因生果	-11.2769
已還	-11.277
護法	-11.2772
共許	-11.2779
是他	-11.278
定異	-11.278
壞者	-11.2781
屬於	-11.2786
內證	-11.2786
所待	-11.2786
同異性	-11.2791
則不須	-11.2793
但空	-11.2796
無常教	-11.2798
正感	-11.2799
思益經	-11.28
各執	-11.2801
前引	-11.2805
兩處	-11.2805
問經云	-11.2808
一道清淨	-11.2809
觀於	-11.281
諦者	-11.2814
止觀	-11.2814
如是所說	-11.2814
方便道	-11.2816
如是應知	-11.2824
復有何	-11.2824
不應以	-11.2825
所求	-11.2825
無知而知	-11.2827
他宗	-11.2835
作名	-11.2835
生則	-11.2836
餘四	-11.2838
有處	-11.284
神則	-11.2841
雙林	-11.2847
家之	-11.2847
所須	-11.285
若待	-11.285
名為無	-11.2853
之主	-11.2854
果則	-11.2856
此但	-11.2857
十二緣	-11.2858
有所無	-11.2862
於智	-11.2864
陰中	-11.2865
雙定	-11.2866
後位	-11.287
云何成	-11.2877
竪論	-11.2878
更無別	-11.2879
明實相	-11.288
未至	-11.2881
為法	-11.2885
只為	-11.2886
為究竟	-11.2891
是故如來	-11.2894
今即	-11.2896
於外	-11.2901
一切皆空	-11.2905
有十	-11.2906
以物	-11.2906
抱	-11.2914
取色	-11.2918
乃以	-11.292
業報	-11.2924
無佛性	-11.2929
一智	-11.2931
隨機	-11.2932
引喻	-11.2934
前世	-11.2934
過去現在	-11.2935
前人	-11.2936
破可破	-11.2936
是有為法	-11.2939
妙法	-11.2947
即是智	-11.2947
相資	-11.295
三因	-11.295
教化眾生	-11.2953
事中	-11.2954
但舉	-11.2956
後人	-11.2956
明菩薩	-11.2959
治道	-11.2961
無因無果	-11.2961
空為有	-11.2961
覽	-11.2963
逍遙園	-11.2964
亦應如是	-11.2966
八苦	-11.2967
不能得	-11.2971
三藏教	-11.2975
雙明	-11.298
答如	-11.2984
一時有	-11.2985
意同	-11.2986
有此義	-11.2988
有兩義	-11.2999
十年	-11.2999
而破	-11.2999
偏病	-11.3007
無此過	-11.3008
末後	-11.3014
未解	-11.3015
名目	-11.3016
非真有	-11.3017
燒時	-11.3017
初品	-11.3018
與不	-11.3025
結責	-11.3025
隨宜	-11.3025
捨之	-11.3026
乃明	-11.3027
理極同無	-11.3028
失道	-11.3028
常性	-11.3031
答之	-11.3036
說無常	-11.3037
同上	-11.3043
所生果	-11.3043
麥	-11.3044
不同時	-11.3045
而終	-11.305
天下之	-11.305
憶想分別	-11.3054
施主	-11.3056
就文	-11.3057
世諦有	-11.3059
今應	-11.306
得相	-11.3067
是道	-11.3068
即壞	-11.3069
兩物	-11.3074
五大	-11.308
方便者	-11.3084
是緣	-11.3086
又依	-11.3087
重空	-11.309
問若言	-11.309
所執我	-11.3091
顯明	-11.3092
至七地	-11.3094
有為波若	-11.3096
若言諸法	-11.3096
本論	-11.3099
即無生	-11.3101
缾	-11.3105
妄有	-11.3107
此中云何	-11.3108
畢竟不生	-11.3108
一切空	-11.3109
若悟	-11.3109
是諸佛	-11.311
逮	-11.311
讓	-11.3111
若一切	-11.3111
鴈	-11.3111
發智	-11.3112
有相續	-11.3113
三教	-11.3114
離彼	-11.3114
前陰	-11.3115
雪	-11.3115
武	-11.3115
沙彌	-11.3119
於今未嘗有	-11.3119
復須	-11.3122
陰界入	-11.3122
慰	-11.3124
春秋	-11.3124
第三總結	-11.3124
求向物於向	-11.3125
太子	-11.3125
尚書	-11.3126
嘿	-11.3127
調伏	-11.3127
就緣假	-11.3127
沉	-11.3128
若言無	-11.3128
二十二	-11.3129
躰	-11.3129
未嘗無	-11.3129
諦耶	-11.3129
虎	-11.3129
麗	-11.3129
舜	-11.313
於真	-11.3132
新新	-11.3132
壑	-11.3132
而執	-11.3133
無十方分	-11.3133
酒	-11.3133
逝	-11.3134
望前	-11.3134
朱	-11.3135
箇	-11.3136
歡	-11.3137
嚮	-11.3137
墮無因	-11.3137
宗致	-11.3138
財寶	-11.3138
薩衛	-11.3138
逕	-11.3138
苞	-11.3139
執異	-11.3139
觸事而真	-11.3139
污	-11.314
遷即不遷	-11.3141
不相往來	-11.3141
野馬	-11.3142
或體	-11.3142
不應復	-11.3143
非有為非無為	-11.3143
旦	-11.3143
眇	-11.3143
身口意	-11.3143
皇帝	-11.3143
前滅後生	-11.3144
聖應	-11.3144
鳩摩羅什	-11.3144
墜	-11.3144
斯意	-11.3144
執我	-11.3144
畔	-11.3145
文正爾	-11.3145
相續不斷	-11.3146
搜	-11.3147
非非有非非無	-11.3148
玄義	-11.3149
密嚴	-11.3149
入不二法門	-11.315
居士	-11.315
惚	-11.315
白首	-11.3151
如來滅後	-11.3151
三根	-11.3151
狗	-11.3153
兔馬	-11.3154
一塵	-11.3154
中求	-11.3154
佛告極勇猛	-11.3155
是名般若波羅蜜	-11.3155
此中說驗	-11.3155
如是等諸修多羅	-11.3155
乍	-11.3156
心行處滅	-11.3156
結盡	-11.3157
分別說三	-11.3157
下論	-11.3158
瓶時	-11.3158
作無作	-11.3158
三不三	-11.3159
物無不當	-11.316
已下	-11.3161
頓悟	-11.3161
八謬	-11.3162
向有	-11.3162
能得之人	-11.3162
玄門	-11.3164
若據	-11.3165
一實諦	-11.3166
十四難	-11.3167
四重	-11.3167
通漏無漏	-11.3168
將滅	-11.3168
有本作	-11.3168
究竟之道	-11.3168
絙	-11.3168
審實	-11.3169
道德	-11.3169
常與無常	-11.3169
謂聖人	-11.317
得戒	-11.3171
次兩偈	-11.3171
為表	-11.3171
申正涅槃	-11.3173
道門	-11.3173
積德	-11.3175
不遷之理	-11.3177
永盡	-11.3177
前後一時	-11.3179
難見	-11.3179
是義云何	-11.3182
不能起	-11.3183
財施	-11.3183
頓盡	-11.3186
心異	-11.3186
作如此說	-11.3186
又開三	-11.3187
無表不無	-11.3187
不朽	-11.3189
既異	-11.319
德王	-11.3192
施與	-11.3193
破上	-11.3193
梵云	-11.3193
廣如	-11.3195
道行云	-11.3195
如苦樂等	-11.3197
可待	-11.3197
法忍	-11.3199
青黃等	-11.3199
眾生心	-11.3199
是故名諦	-11.3202
若定有	-11.3204
十住菩薩	-11.3206
求其	-11.3211
一字	-11.3211
隨俗說	-11.3211
住持	-11.3211
合離	-11.3212
其間	-11.3212
先已遮故	-11.3212
今只	-11.3213
既不生	-11.3213
常自	-11.3213
猶如虛空	-11.3213
應信	-11.3214
染著	-11.3214
體不可得	-11.3215
有本住	-11.3216
佛是	-11.3218
次偈明	-11.3219
一切煩惱	-11.322
以我	-11.3221
因能生果	-11.3223
是龍樹	-11.3223
七地菩薩	-11.3224
通相	-11.3225
明因緣	-11.3225
非定	-11.3226
無塵	-11.3227
但隨	-11.3229
如實智	-11.3229
就真性	-11.323
盛行	-11.323
既見	-11.3234
不成過	-11.3234
雜心	-11.3235
下地	-11.3235
益物	-11.3237
如大品	-11.3237
俱得	-11.3237
故經言	-11.3239
偏邪	-11.3239
觀諸法	-11.324
女人	-11.324
非破	-11.3242
此比量	-11.3243
令識	-11.3245
二諦教門	-11.3245
去者去法	-11.3248
皆然	-11.3248
不能稱	-11.3249
往復	-11.325
逐近	-11.3253
內出	-11.3253
第三難	-11.3253
種等	-11.3257
有可生	-11.3258
人身	-11.3259
解脫門	-11.326
論人	-11.326
亦有此義	-11.3261
非昔人	-11.3262
第一家	-11.3262
類也	-11.3263
見人	-11.3263
行亦不受	-11.3263
齊觀	-11.3264
國王	-11.3264
諸大	-11.3264
不停	-11.3266
有名者	-11.3266
二涅槃	-11.3268
真金	-11.3269
是則無	-11.3271
方顯	-11.3274
大乘中	-11.3275
前來	-11.3276
舉一	-11.3277
亦不應言	-11.328
是因果	-11.3281
本自無生	-11.3283
二語	-11.3284
義壞	-11.3284
止善	-11.3285
破汝	-11.3285
行時	-11.3286
契理	-11.3286
一切諸法皆	-11.3288
有漏無漏	-11.3288
云何得有	-11.329
一用	-11.3291
不二二	-11.3296
實相故	-11.3296
空無相	-11.3299
還墮	-11.33
可證	-11.3301
異滅	-11.3307
神亦	-11.3308
境相	-11.3311
是同法喻	-11.3313
方見	-11.3316
情執	-11.3316
於聖人	-11.3317
誰當	-11.3321
斷過	-11.3321
眼不能見	-11.3322
引二經	-11.3325
而經云	-11.3328
容有	-11.3332
眾緣生	-11.3335
仁王	-11.3337
如指	-11.3341
中國	-11.3344
深重	-11.3347
可轉	-11.3347
有覺	-11.3349
如大品云	-11.3349
應信受	-11.3352
細果	-11.3352
此中所說	-11.3353
當於	-11.3355
無變	-11.3356
皆盡	-11.3356
名慧	-11.3357
目之	-11.3358
宜須	-11.3359
智諦	-11.336
依名	-11.3362
有無為	-11.3364
所釋	-11.3368
本對	-11.3368
是戲論	-11.3369
不可稱	-11.337
未來現在	-11.3371
初正釋	-11.3374
未聞	-11.3375
先立	-11.3377
反本	-11.3379
作不作	-11.3382
二周	-11.3382
和合中	-11.3383
而不動	-11.3385
分齊	-11.3385
兩理	-11.3389
梵本	-11.3391
諸家	-11.3391
義耶	-11.3395
故中論	-11.3397
如僧佉	-11.3398
立破	-11.3398
問曰下第二	-11.3406
而意	-11.3408
為他作	-11.3408
涅槃無名論	-11.3411
為遮	-11.3411
是有故	-11.3412
微言	-11.3414
證之	-11.3414
四失	-11.3419
之曰	-11.3421
而言有	-11.3422
小住	-11.3423
無有生	-11.3427
地持論	-11.3427
故名中道	-11.3427
不照	-11.3427
釋下半	-11.3428
言詮	-11.343
有一物	-11.3432
法滅	-11.3434
心想	-11.3438
名異	-11.3441
外凡夫	-11.3443
未曾有無	-11.3445
無有餘	-11.3447
法爾	-11.3447
凡有四	-11.3449
是故經云	-11.3452
而果	-11.3454
無自體者	-11.3456
標章門	-11.3457
不可斷	-11.346
違經	-11.346
動靜不二	-11.3461
觀義	-11.3462
悟不	-11.3464
成異	-11.3467
若起	-11.3467
無因有果	-11.3469
而轉	-11.3469
義利	-11.3469
不可說言	-11.3469
能破闇	-11.347
如是觀察	-11.3472
非二	-11.3472
二諦理	-11.3473
微塵等	-11.3473
斥破	-11.3476
釋破	-11.3476
異品	-11.3477
破闇	-11.3478
成論明	-11.3479
即無常	-11.3485
皆言	-11.3485
能感佛	-11.3486
第十一	-11.3487
外來	-11.3489
皆因	-11.349
無分位	-11.3492
執者	-11.3493
定有定無	-11.3497
信也	-11.3497
及諸	-11.3498
因微	-11.3502
攝大乘論	-11.3502
破塵	-11.3506
諸戲論	-11.3509
答此是	-11.3513
一切眾生皆	-11.3514
云何名為	-11.3515
還以	-11.3516
天地之	-11.3517
滅壞	-11.3518
時即	-11.3519
同真	-11.3524
成道	-11.3526
非所作	-11.3529
理本	-11.3529
為正因佛性	-11.3529
障中道	-11.353
八種	-11.3531
二失	-11.3531
有無是	-11.3532
一質	-11.3532
菩提果	-11.3533
出過	-11.3534
初約	-11.3537
若因中無果	-11.3539
為中道	-11.354
開三	-11.354
然則下	-11.3541
問上	-11.3542
世俗言說	-11.3543
實有性	-11.3545
小乘中	-11.3547
成實者	-11.3549
利根者	-11.3551
云何不成	-11.3551
下顯	-11.3554
別者	-11.3555
無漏法	-11.3558
涅槃義	-11.356
會理	-11.3561
合明	-11.3561
會教	-11.3561
所乘	-11.3564
名無名	-11.3565
不可以有無	-11.3566
此辨	-11.3569
所受用	-11.3571
則滅	-11.3576
即是二諦	-11.3576
正因佛性	-11.3577
心起	-11.3581
謂論主	-11.3581
異計	-11.3582
離緣	-11.3583
亦得是	-11.3584
惑也	-11.3589
而釋之	-11.359
人有法	-11.3591
如前釋	-11.3598
地大	-11.3599
泯絕	-11.3599
異宗	-11.3601
於凡有	-11.3602
人中	-11.3602
異自我耳	-11.3611
即是無生	-11.3611
處也	-11.3611
之跡	-11.3618
無生智	-11.3619
應現	-11.3624
三藏中	-11.3626
有三家	-11.3631
可會	-11.3631
地水	-11.3632
兩偈為	-11.3632
名滅	-11.3633
心緣	-11.3636
為火	-11.364
神道	-11.3649
名中道	-11.3651
者哉	-11.3657
法無生	-11.3661
總別一體	-11.3663
此中先	-11.3663
是常住	-11.3664
或人	-11.3666
悟非有非無	-11.3668
彼見	-11.3671
正說	-11.3671
非真實	-11.3672
穢土	-11.3673
故不常	-11.3674
何獨	-11.3678
生心	-11.3679
外道立	-11.3682
是用	-11.3684
福報	-11.3685
為通	-11.3685
四句皆	-11.3687
此出	-11.3691
無相也	-11.3696
皆滅	-11.3704
文旨	-11.3708
何以故下釋	-11.3709
自違	-11.3713
樂者	-11.3721
是而無是	-11.3722
成實義	-11.3722
十四	-11.3723
念生	-11.3724
二者上	-11.3728
何言	-11.3728
形色	-11.3728
業煩惱	-11.373
偈中	-11.3734
人之所	-11.3739
生善	-11.3739
釋僧肇	-11.3741
復應	-11.3742
言不有有	-11.3743
根等	-11.3744
直云	-11.3746
破因果	-11.3747
不忍	-11.3747
與智	-11.3753
俱成	-11.3754
自空	-11.3755
於昔	-11.3758
能入	-11.3759
通之	-11.376
入實相	-11.376
因緣義	-11.3763
妙智	-11.3763
名世諦	-11.3764
分中	-11.3767
長等	-11.3769
有別體	-11.3772
故次	-11.3773
能生他	-11.3776
分分	-11.3776
即為三	-11.3782
因無果	-11.3784
分別智	-11.3785
諸人	-11.3787
出生死	-11.3787
孫	-11.3787
不可令	-11.379
畢竟寂滅	-11.379
無行	-11.3791
知一切法	-11.3799
但用	-11.3799
所以稱	-11.38
五義	-11.38
應作	-11.3801
之作	-11.3801
以外	-11.3801
豈以	-11.3803
德也	-11.3804
申明	-11.3805
他義	-11.3805
義釋	-11.3806
自能	-11.3806
第二時	-11.3807
次難	-11.3809
二正答	-11.3812
魯	-11.3813
殘氣	-11.3814
正定	-11.3814
棄捨	-11.3818
亦未曾	-11.3819
環中	-11.3819
之地	-11.3825
是正	-11.3827
正因性	-11.3827
法既	-11.3827
證空	-11.383
於實相	-11.3831
彼業	-11.3832
官	-11.3834
洪	-11.3836
浴	-11.3837
丈	-11.3838
戴	-11.3839
遷去	-11.3841
自然有	-11.3841
為知	-11.3841
耳等	-11.3842
假真	-11.3842
泛	-11.3842
無罪福	-11.3842
墨	-11.3842
以神從覺	-11.3843
三歸一	-11.3843
晦	-11.3844
蔚	-11.3844
側	-11.3845
捐	-11.3846
盈	-11.3846
弘道終日	-11.3846
十六諦	-11.3847
悔	-11.3847
自性他性	-11.3847
假有假無	-11.3847
屋	-11.3848
是果非因	-11.3849
嘉	-11.385
十號	-11.385
昔物自在昔	-11.385
彖	-11.385
汝意	-11.385
井	-11.3851
是因非果	-11.3851
罔象	-11.3852
凡有心者	-11.3852
成毗二家	-11.3853
紀	-11.3853
奏	-11.3853
柔	-11.3853
世間相常住	-11.3853
打	-11.3853
陋	-11.3854
偈本龍樹菩薩釋論分別明菩薩	-11.3854
季	-11.3854
頑	-11.3854
居無不無	-11.3854
地攝兩論成毗二家	-11.3854
無始無終	-11.3855
暇	-11.3855
欲言其有	-11.3855
答曰下第三破救	-11.3855
素	-11.3855
匡山	-11.3856
少年	-11.3856
本傳	-11.3856
破顛倒	-11.3856
厥	-11.3856
侶	-11.3856
求生不得	-11.3857
十二年	-11.3857
恬淡	-11.3857
物我冥一	-11.3858
豐	-11.3858
黑白	-11.3858
色香味觸	-11.3858
爭	-11.3858
列名	-11.3858
欲言其無	-11.3859
恒河	-11.3859
輪迴	-11.3859
困	-11.3859
圖度	-11.386
恬	-11.386
既不得	-11.386
小劫	-11.3861
本有始有	-11.3861
一意	-11.3861
昧者不覺	-11.3862
緣盡於觀	-11.3862
從因生	-11.3862
陵	-11.3862
此則是	-11.3863
照不失虗	-11.3863
認	-11.3863
賜	-11.3863
復次偈	-11.3864
煙	-11.3864
世諦即第一義諦	-11.3864
累無不寂	-11.3865
億	-11.3865
懷抱	-11.3865
刻	-11.3866
言語道斷	-11.3866
貶	-11.3866
是故偈中說	-11.3867
瓔珞經云	-11.3867
法亦無	-11.3868
因謂之有	-11.3868
非謂是非	-11.3868
勇猛	-11.3868
緣會而生	-11.3868
注肇論疏	-11.3868
現在未來時	-11.3869
真諦破假	-11.3869
詳之	-11.3869
遍一切處	-11.3869
次半偈	-11.387
偃	-11.387
不知何以目之	-11.3871
隨之	-11.3871
樂苦癡	-11.3871
無如此義	-11.3871
下半正破	-11.3871
涅	-11.3872
所知之境	-11.3873
一中解無量	-11.3873
同疑因	-11.3873
即俗之真	-11.3873
無為波若	-11.3874
漏盡	-11.3874
唐捐	-11.3874
宗途	-11.3875
終歸於空	-11.3875
徃來	-11.3875
發願	-11.3875
而論	-11.3876
光宅云	-11.3879
相與而無	-11.3879
命終	-11.3879
錯亂	-11.388
萬里	-11.388
羣方	-11.388
處有不有	-11.3881
譬喻部	-11.3881
存亡	-11.3882
聖賢	-11.3884
不斷亦不常	-11.3884
設教	-11.3884
以何義故	-11.3884
不三三	-11.3886
三名	-11.3886
第一云	-11.3887
執法	-11.3888
[	-11.3889
荅言	-11.3889
f	-11.3889
是故佛	-11.389
心智寂滅	-11.3891
所應	-11.3891
猶如色等	-11.3891
過去未來現在	-11.3892
非有亦非無	-11.3893
此六	-11.3894
以有觀故	-11.3894
順釋	-11.3894
遷而不遷	-11.3895
生滅無常	-11.3895
四不四	-11.3895
此名為	-11.3895
畜生	-11.3896
諸佛世尊	-11.3896
並無	-11.3898
反責	-11.3901
建立諸法	-11.3903
次更	-11.3903
八計	-11.3903
明八不	-11.3904
悲心者	-11.3905
理性	-11.3905
譬如餘物	-11.3905
譬如有人	-11.3905
後一偈	-11.3906
學大乘	-11.3908
而言之	-11.3909
玄根	-11.391
滅則	-11.391
又說頌曰	-11.3912
異而同	-11.3913
功業	-11.3914
現相	-11.3914
合釋	-11.3914
自覺	-11.3915
覆疏	-11.3915
此論正	-11.3916
佛答云	-11.3916
非止	-11.3916
神用	-11.3917
化佛	-11.3918
明與無明	-11.3918
證上	-11.392
不獨	-11.3921
一闡提	-11.3922
二說	-11.3923
未忘	-11.3925
次舉	-11.3925
四句者	-11.3925
一地	-11.3926
故不斷	-11.393
不住無為	-11.393
違自宗	-11.3932
不煩	-11.3932
作解	-11.3932
云何能生果	-11.3935
半行	-11.3935
今略舉	-11.3936
煩重	-11.3937
真諦三藏	-11.3937
名真	-11.3938
諸佛如來	-11.3938
斷證	-11.3941
還同	-11.3942
廣辨	-11.3943
初三句	-11.3945
是故不得言	-11.3945
一法一時	-11.3949
妄分別	-11.3949
是故下	-11.3949
慈心	-11.395
何益	-11.3952
諸法無性	-11.3952
歸無	-11.3953
虛空是有	-11.3953
如空中	-11.3954
執常	-11.3956
佛子	-11.3956
有九	-11.3956
夫聖人	-11.3959
既許	-11.3962
當知是	-11.3964
煩惱障	-11.3964
恃	-11.3966
教者	-11.3967
如佛所說	-11.3971
隣人	-11.3973
未嘗不	-11.3973
誰復	-11.3975
於大乘	-11.3977
則為常	-11.3977
之子	-11.3979
橫論	-11.398
得知	-11.3981
墮負	-11.3983
以相	-11.3984
於一切時	-11.3985
異說	-11.3985
無動	-11.3985
三千	-11.3986
軌則	-11.3986
滅苦	-11.3986
二諦相即	-11.3987
六事	-11.399
若神	-11.3993
空無所有	-11.3995
八識	-11.3997
觸對	-11.3999
妄謂	-11.4001
除此	-11.4003
五地	-11.4005
成佛時	-11.4006
婆伽婆	-11.4008
時處	-11.4009
所迷	-11.4009
所以作此	-11.4009
理致	-11.401
離微	-11.4013
體成	-11.4013
所餘	-11.4013
不行中道	-11.4014
種性	-11.4016
為此義故	-11.4016
不遷之旨	-11.402
微者	-11.4022
數量	-11.4022
始於	-11.4023
覩變	-11.4024
周易	-11.4024
請問	-11.4026
一一別	-11.4026
無數	-11.4028
遂成	-11.403
於五陰	-11.4033
總身	-11.4035
六義	-11.4035
一剎那中	-11.4036
前已	-11.4039
總攝一切	-11.404
亦有三	-11.4048
從初	-11.4049
言非無	-11.4051
中已破	-11.4053
靈明	-11.4054
而不見	-11.4058
四章	-11.4059
空有俱	-11.4059
離四句	-11.4059
亦非實有	-11.406
攝論云	-11.4062
彼無	-11.4062
施作	-11.4063
稱謂	-11.4065
故大品	-11.4066
無方分	-11.4067
世諦第一義諦	-11.407
有觸	-11.4072
先已有	-11.4074
入滅	-11.4075
如向	-11.4075
外計	-11.4077
說有我	-11.4077
前已破	-11.4078
於世俗	-11.408
通因果	-11.4082
不唯	-11.4083
空處	-11.4084
徵問	-11.4088
歸依	-11.4088
而不得	-11.4089
事外	-11.4089
破緣	-11.4091
無所執	-11.4092
壞因	-11.4094
之甚	-11.4096
具四相	-11.4098
菩薩觀	-11.4098
彼計	-11.4102
外道所計	-11.4105
奧	-11.4106
有此品	-11.4107
若未有	-11.4109
非境	-11.4109
此二義	-11.4111
略同	-11.4111
何名為	-11.4112
十演之	-11.4112
平正	-11.4115
以相違故	-11.4116
百劫	-11.4118
奪其	-11.4119
中亦有	-11.4121
強說	-11.4122
意以	-11.4123
無垢	-11.4124
不往	-11.4127
別義	-11.4128
無極	-11.413
無緣緣	-11.4133
文句	-11.4133
為五	-11.4137
定知	-11.4139
今是初	-11.414
者矣	-11.414
第二兩偈	-11.414
但立	-11.4142
名為法身	-11.4143
唯是一	-11.4143
有遠近	-11.4144
有多門	-11.4144
施戒	-11.4146
顯不二	-11.4148
不得有	-11.4149
破世間	-11.4151
作世界	-11.4151
自相違	-11.4152
大象	-11.4153
我所欲	-11.4153
值佛	-11.4155
不樂	-11.4159
問為	-11.4166
如來者	-11.4167
之水	-11.417
故放光云	-11.4171
重玄	-11.4171
則不生	-11.4172
而滅	-11.4174
不諦	-11.4176
通義	-11.418
佛土	-11.4182
不能是	-11.4182
何得云	-11.4183
為道者	-11.4183
不虛	-11.4185
雙融	-11.4186
境界性	-11.4187
有子	-11.4188
是波若	-11.4189
取果	-11.419
之源	-11.4194
世俗法	-11.4194
動轉	-11.4195
去者不去	-11.4196
計人	-11.4197
他者	-11.42
異彼	-11.4202
次說	-11.4205
深淺	-11.4205
先牒	-11.421
性空者	-11.421
品品	-11.4211
若已有	-11.4213
不欲令	-11.4213
人云	-11.4213
乃能	-11.4218
證知	-11.4219
正破也	-11.422
未斷	-11.422
餘義	-11.4221
他體	-11.4222
立異	-11.4222
答有二種	-11.4225
若無自體	-11.4226
必由	-11.4226
世法	-11.4228
夫以	-11.4229
進也	-11.4229
即開	-11.4231
自稱	-11.4231
無體者	-11.4231
性無	-11.4232
義論	-11.4235
華嚴經	-11.4235
宗因	-11.4236
故次破	-11.4238
不熱	-11.4238
故不應	-11.424
明一乘	-11.4243
菩薩地	-11.4243
既盡	-11.4244
異解	-11.4246
空耶	-11.4247
又解	-11.4249
為外	-11.4254
出之	-11.4256
空病	-11.4259
如瓶衣等	-11.426
號為	-11.4261
立義過	-11.4261
無所不	-11.4264
人自	-11.4264
於不二	-11.4267
餘皆	-11.4267
重成	-11.427
能持	-11.4275
云何言無	-11.4279
對破	-11.4281
對之	-11.4284
若一切法空	-11.4287
無一物	-11.429
為何所	-11.429
即智	-11.429
無見者	-11.4291
即動	-11.4292
亦非涅槃	-11.4295
名為斷	-11.4295
為般若	-11.4296
本以	-11.4296
八事	-11.4298
無有自體	-11.43
非作者	-11.4301
彼等	-11.4305
可依	-11.4307
如先所說	-11.4308
無所相	-11.4308
影師	-11.4315
義說	-11.4319
不無者	-11.4319
不見佛	-11.4322
世間眾生	-11.4322
緣集	-11.4323
涅槃為果	-11.4324
死生	-11.4326
是故名	-11.4329
盲人	-11.433
亦有二	-11.4332
所屬	-11.4336
既非有	-11.4338
名有餘	-11.4338
以其不來	-11.4339
若離於	-11.434
獨空	-11.4346
欲釋	-11.4351
從大生	-11.4351
隣虛塵	-11.4352
初念	-11.4357
方便權	-11.4359
生身	-11.4359
開發	-11.4361
心有	-11.4365
無非無	-11.4365
第三卷	-11.4368
我於	-11.4369
為權智	-11.4372
受陰	-11.4373
申破	-11.4377
假名因緣	-11.4378
不生不滅等	-11.4379
不辨	-11.438
復成	-11.4381
皆說	-11.4382
通釋	-11.4382
諸門	-11.4384
大王	-11.4384
於此中	-11.4386
即陰	-11.4387
諸入	-11.4387
內心	-11.4387
不具足	-11.4389
此中明	-11.4389
責也	-11.4391
第三時	-11.4395
申教	-11.4395
將來	-11.4401
因喻	-11.4404
有涅槃	-11.4404
雙釋	-11.4405
心意	-11.4406
方可	-11.4408
同以	-11.441
不疾	-11.4411
一乘之	-11.4412
亦類	-11.4416
所以得	-11.4416
亦有二種	-11.442
即般若	-11.4422
無慮	-11.4423
轉者	-11.4424
外人義	-11.4424
三行	-11.4425
既能	-11.4426
今得	-11.4428
隅	-11.4434
有染者	-11.4434
若無體	-11.4434
兩言	-11.4438
為第一	-11.4441
諸法無生	-11.4445
度之	-11.4445
無人法	-11.4445
無所得故	-11.4448
礙故	-11.4448
次第生	-11.445
異時	-11.4456
中文	-11.4457
經等	-11.4459
所緣境	-11.4459
於常	-11.4461
二宗	-11.4461
惡人	-11.4462
求法	-11.4462
執情	-11.4466
為首	-11.4466
直言	-11.4468
皆具	-11.4469
靜而	-11.4471
能運	-11.4471
為自	-11.4474
談真	-11.4474
亦不名	-11.4475
應可得	-11.4475
去而	-11.448
凡人	-11.4481
第一偈	-11.4482
必得	-11.4483
果不生	-11.4484
分三	-11.4485
不二故	-11.4488
約理	-11.449
此識	-11.4492
果德	-11.4495
波若為	-11.4497
不著有	-11.4498
言論	-11.4499
喻說	-11.4499
斷德	-11.4501
此二諦	-11.4502
受稱	-11.4505
推徵	-11.4508
止也	-11.4508
謂二	-11.4509
文亦	-11.4511
未生法	-11.4518
故說名	-11.4523
繫屬	-11.4523
徐	-11.4525
得無生	-11.4526
此品中	-11.4526
問他	-11.4526
不異故	-11.4526
折之	-11.4526
大品明	-11.4527
合義	-11.4527
法王	-11.4528
餘無餘	-11.4535
諸惡	-11.4536
而出	-11.4539
般	-11.454
常燃	-11.4547
倉	-11.4549
內身	-11.4549
無思	-11.4555
二十五品	-11.4561
失世諦	-11.4562
無能破	-11.4566
撫	-11.4567
即是解脫	-11.4567
有為俗	-11.4569
涯	-11.4571
變動	-11.4572
巨	-11.4572
善道	-11.4573
正之	-11.4575
枝	-11.4578
第二章	-11.458
起愛	-11.458
許有	-11.458
初引經	-11.4581
雖合	-11.4581
猴	-11.4582
出三界	-11.4583
禹	-11.4583
欲取	-11.4583
尚不能	-11.4585
忘懷	-11.4586
第二總結	-11.4587
匠石	-11.4589
動而非靜	-11.459
堪	-11.459
演說	-11.4594
一世	-11.4595
如色等	-11.4595
幼	-11.4595
次別	-11.4595
六度等	-11.4598
北方	-11.4601
姚	-11.4603
次解	-11.4603
貧	-11.4604
斯陀含	-11.4604
三乘之人	-11.4605
溫	-11.4605
堯	-11.4607
責向物於今	-11.4608
旃延	-11.4608
五果	-11.4609
工	-11.4611
則應有	-11.4611
種種說	-11.4611
應當有	-11.4611
稽	-11.4612
十六知見	-11.4612
妙絕	-11.4612
結非	-11.4613
迭	-11.4613
庸	-11.4613
倫	-11.4613
健	-11.4613
泰	-11.4614
愧	-11.4615
不可得者	-11.4615
發生正觀	-11.4615
坐道場	-11.4616
坐禪	-11.4616
仲	-11.4617
閻浮提	-11.4619
嗔	-11.4619
伸	-11.4619
得解脫者	-11.4619
情見	-11.462
若提子	-11.462
豁	-11.462
災	-11.462
恂恂	-11.4622
能修	-11.4622
迴小入大	-11.4622
引說證成	-11.4622
不破暗	-11.4622
贊	-11.4623
外執	-11.4623
龍光傳開善	-11.4623
冬	-11.4623
別論	-11.4623
謂標釋結	-11.4624
真解	-11.4624
蕭然	-11.4625
物物斯照	-11.4625
故名之為	-11.4626
四義	-11.4626
竹	-11.4626
厲	-11.4626
電	-11.4626
成我所成	-11.4626
二障	-11.4627
故下文云	-11.4627
嶽	-11.4627
枯	-11.4628
不滅不來	-11.4629
滅盡定	-11.4629
雖在昔而不化	-11.4629
那忽	-11.4629
無因作	-11.4629
冀	-11.463
代謝	-11.463
假生假滅	-11.463
必求靜於諸動	-11.463
。」△	-11.4631
親友	-11.4631
如龜毛等	-11.4631
衍	-11.4631
一家相傳云	-11.4632
物非真物	-11.4632
為二諦攝	-11.4632
從本以來	-11.4632
性淨	-11.4632
快樂	-11.4633
班	-11.4633
本性清淨	-11.4633
寥	-11.4633
闍	-11.4633
金光明	-11.4633
真般若者	-11.4634
反質	-11.4634
德無不圓	-11.4634
生心動念	-11.4634
蹈	-11.4634
虗不失照	-11.4635
竅	-11.4635
毘	-11.4635
銀	-11.4635
方寸	-11.4635
斤	-11.4636
有邊無邊	-11.4636
應逾動	-11.4636
嶮	-11.4636
混融	-11.4637
物無當名之實	-11.4637
聾	-11.4637
舉法	-11.4637
理無不契	-11.4637
試論之曰	-11.4637
若因若果	-11.4638
苦集滅道	-11.4638
莖	-11.4638
田	-11.4638
今作	-11.4638
棗	-11.4639
操	-11.464
範	-11.464
男女等相	-11.464
耽	-11.464
譬如瓶	-11.4641
三惡道	-11.4642
有生有滅	-11.4642
稟教之流	-11.4642
不動等覺而建立諸法	-11.4642
既悟	-11.4643
薩婆多部	-11.4644
見有得道	-11.4644
生歡喜	-11.4645
既空	-11.4645
佛陀	-11.4645
門說	-11.4646
神體	-11.4646
勤勞	-11.4646
明四句	-11.4647
如契經	-11.4647
則空	-11.4648
精勤	-11.4649
新舊	-11.4649
於般若	-11.4652
去時有去	-11.4652
因中前有果	-11.4652
有因無因	-11.4653
如是等類	-11.4656
遍破一切	-11.4656
三部	-11.4657
不復更滅	-11.4657
能應	-11.4658
去不去	-11.4658
倒情	-11.4659
二世無義	-11.4662
火性	-11.4663
幻士	-11.4663
聖心無知	-11.4663
凡有三種	-11.4663
世間所解	-11.4663
徧計	-11.4664
識支	-11.4665
空無我理	-11.4665
隨順眾生	-11.4667
聖人之心	-11.4668
止其	-11.4668
真實相	-11.4668
四天下	-11.4669
卷第二	-11.4671
結習	-11.4672
頌文	-11.4672
我即無為	-11.4673
一經	-11.4674
內入等	-11.4675
摩訶衍論云	-11.4676
初如文	-11.4676
無隅	-11.4676
生死無始	-11.4677
一家云	-11.4678
為業	-11.4679
殊勝	-11.4679
三塗	-11.468
亦不同	-11.4681
常住佛果	-11.4681
為邪見	-11.4681
能淨	-11.4682
申大小	-11.4683
入地獄	-11.4684
是佛說	-11.4687
驗知	-11.4687
離二邊	-11.4689
苦聖諦	-11.4689
第二念	-11.469
後陰	-11.469
不了義	-11.4694
而有而無	-11.4694
故知有	-11.4695
出世法	-11.4696
得繩	-11.4697
亦除	-11.4697
十二門論云	-11.4702
血	-11.4703
如來性品	-11.4703
永絕	-11.4703
色根	-11.4704
照空有	-11.4705
能住	-11.4705
有無相生	-11.4706
執實	-11.4707
從無明	-11.4708
明二諦中道	-11.4712
之末	-11.4714
內教	-11.4715
利益眾生	-11.4715
過咎	-11.4715
以一切法	-11.4717
顯色	-11.4718
口業	-11.4718
散壞	-11.4718
已去未去去時	-11.4718
二世無	-11.4722
泥曰	-11.4722
無所著	-11.4723
常途	-11.4728
因行	-11.4728
是不思議	-11.4728
數數	-11.4729
不應爾	-11.473
起惡	-11.4731
有無之外	-11.4732
有無相	-11.4734
今詳	-11.4736
說不說	-11.4738
敵論	-11.4738
待義	-11.474
中品	-11.474
玄宗	-11.4742
二諦名	-11.4743
真諦無名	-11.4745
且約	-11.4746
注為	-11.4749
▁○	-11.475
以去	-11.4753
是作故	-11.4754
彼亦	-11.4756
如上說	-11.4757
彼起	-11.4757
滅諸煩惱	-11.4757
見瓶	-11.4762
如經中說	-11.4762
非聲	-11.4763
第三一偈	-11.4764
山林	-11.4765
一時俱	-11.4767
後秦	-11.4768
於法身	-11.4768
相待義	-11.4769
計度	-11.477
執有無	-11.477
不應作	-11.4771
徵責	-11.4773
所以云	-11.4775
已盡	-11.4776
決了	-11.4777
是故應知	-11.4778
悲心施	-11.4779
若無聖人	-11.4779
若第一義中	-11.4782
去者住	-11.4784
般若無知論	-11.4784
清淨故	-11.4784
所收	-11.4785
五欲	-11.4786
或見	-11.4786
為令眾生	-11.479
八法	-11.479
歷法	-11.479
明二智	-11.4791
乃知	-11.4792
偏明	-11.4793
顯體	-11.4793
迴心	-11.4795
諸賢聖真知顛倒性空	-11.4796
未待	-11.4796
此十二	-11.4796
有空為真諦	-11.4798
耳目	-11.4798
非方便	-11.4799
所遣	-11.4801
見眾生	-11.4802
故不名	-11.4802
所生故	-11.4804
住世	-11.4805
此引證	-11.4805
離合	-11.4806
則得	-11.4806
前已廣	-11.4807
既是無	-11.4808
初難	-11.4813
失因	-11.4813
六通	-11.4818
隨轉	-11.4819
法譬	-11.482
始教	-11.4822
觀法	-11.4823
執見	-11.4823
依毘曇	-11.4824
不壞假名	-11.4826
學教	-11.4827
敘之	-11.4827
壞相	-11.4827
之本意	-11.483
諸趣	-11.483
退轉	-11.4831
不識世諦	-11.4831
依他性	-11.4833
汝言有	-11.4834
於勝義	-11.4835
以二智為	-11.4835
有定	-11.4835
三相是	-11.4836
三宗	-11.4836
此亦如是	-11.4837
前過失	-11.484
有質礙	-11.484
約法	-11.4841
若常無常	-11.4843
名為實	-11.4844
世諦中有	-11.4847
一語	-11.4847
此句明	-11.4848
顯中道	-11.4849
舉事	-11.4851
元無	-11.4852
應是無常	-11.4853
名句	-11.4853
大德	-11.4859
剎那剎那	-11.486
又說	-11.486
不留	-11.4863
他相	-11.4867
而歸	-11.4868
既具	-11.4868
九折之	-11.4869
斷集	-11.4869
巳還	-11.4869
般若清淨	-11.487
菩提智	-11.4872
有三階	-11.4872
違理	-11.4872
不住故	-11.4873
起行	-11.4874
數法	-11.4874
則異	-11.4877
令信解	-11.4878
墮於常	-11.4878
不得名	-11.4884
今用	-11.4884
令物	-11.4884
無生義	-11.4884
所宜	-11.4884
不能說	-11.4885
抱一	-11.4885
如鏡	-11.4887
伏惑	-11.4889
真法身	-11.4889
明得失	-11.4889
此一偈	-11.4891
如經偈	-11.4891
凡物	-11.4894
以理推	-11.4895
色中	-11.4896
答中上半	-11.4896
問有二	-11.4905
火燒	-11.4907
所害	-11.4907
二實	-11.4907
四釋	-11.4908
通經	-11.4911
有量	-11.4912
前立	-11.4913
今第二破	-11.4913
初二句明	-11.4914
五指	-11.4916
如是解	-11.4917
摩訶波若	-11.4917
責破	-11.4919
夫人經	-11.4923
權也	-11.4923
為小	-11.4923
覺了	-11.4927
識心	-11.4929
問若然	-11.493
非二不二	-11.4934
緣由	-11.4934
是斷	-11.4936
起愛見	-11.4937
十二處	-11.4941
何不名	-11.4942
不來不去	-11.4942
何故偏	-11.4943
大利	-11.4946
斯皆	-11.4948
當現	-11.4948
反成	-11.4949
責異	-11.4949
妄取	-11.4951
故假	-11.4953
虛空是無	-11.4953
不覺知	-11.4954
之益	-11.4956
無三	-11.4957
陰等	-11.4958
即用	-11.4959
亦未	-11.496
上來明	-11.4963
勝鬘	-11.4967
迷執	-11.4968
異果	-11.4969
假號	-11.497
是語	-11.4971
七業	-11.4973
相傳	-11.4974
非無為	-11.4975
會也	-11.4975
業故	-11.4975
後四句	-11.4982
虗空無為	-11.4985
無聞	-11.4988
是故諸法	-11.499
在家	-11.499
成正覺	-11.4991
後文	-11.4992
寄言	-11.4993
般若之體	-11.4993
有因有果	-11.4996
則無滅	-11.4999
多果	-11.5002
心外	-11.5004
諸佛說法	-11.5006
前論	-11.5008
眾生是佛	-11.5009
妄智	-11.5011
論主云	-11.5011
▁釋曰	-11.5012
解中	-11.5014
一一根	-11.502
二十七品	-11.5022
二十一	-11.5023
所以破	-11.5026
今大乘	-11.5027
立已成	-11.5028
為凡夫	-11.5029
作難	-11.5029
起諸	-11.503
實相般若	-11.503
決定無	-11.5035
一宗	-11.5036
有有無	-11.5036
能表	-11.5037
故疏云	-11.5039
是小乘	-11.504
今對	-11.5042
八不是	-11.5043
成實明	-11.5046
亦不立	-11.5047
所愛	-11.5048
大用	-11.5051
義亦如是	-11.5052
猶是一	-11.5053
別說	-11.5054
皆不能	-11.5056
同處	-11.5062
則知有	-11.5068
公曰	-11.5069
大乘法	-11.5073
上二門	-11.5075
不可聞	-11.5076
意趣	-11.5076
之宗本	-11.5078
更開	-11.5079
自性涅槃	-11.5079
佛理	-11.5079
使一切眾生	-11.508
中道正觀	-11.5081
與之	-11.5085
論師等	-11.5087
答難	-11.5092
至得	-11.5092
有二門	-11.5092
業行	-11.5093
是因緣義	-11.5093
非定有	-11.5095
上求	-11.5096
離薪	-11.5096
此所	-11.5097
能生大	-11.5098
一通	-11.5099
多門	-11.51
獨立	-11.5103
心所	-11.5103
邪觀	-11.5104
無顛倒	-11.5107
盡滅	-11.5108
俱空	-11.5109
非般若	-11.511
常淨	-11.5111
有五種	-11.5111
是眼	-11.5114
自不成	-11.5115
定有性	-11.5116
又為	-11.5116
聽法	-11.5117
之形	-11.5118
自他共	-11.512
行般若波羅蜜	-11.5122
故下云	-11.5123
小乘義	-11.5124
即是佛	-11.5126
我無過	-11.5126
一約	-11.5127
若都	-11.5128
皆是無常	-11.5128
證有神	-11.5129
復次若謂	-11.5129
虛心	-11.5133
無味	-11.5133
人名	-11.5134
二人俱有	-11.5135
仁者	-11.514
異位	-11.5142
大小俱	-11.5146
初兩偈	-11.5148
得作	-11.5151
如長短	-11.5151
跋	-11.5151
失旨	-11.5153
妙體	-11.5153
壞滅	-11.5155
乃可	-11.5156
故不可言	-11.5163
以所	-11.5163
外道等	-11.5163
問云何為	-11.5164
假有無	-11.5165
墮斷滅	-11.5166
覺分	-11.5168
驗故	-11.517
通有	-11.5173
了不了	-11.5175
於道	-11.5177
不殺	-11.5177
亦如此	-11.5177
表非有非無	-11.5178
變成	-11.5178
能分別	-11.518
是神	-11.5181
初果	-11.5183
於四句	-11.5183
性生	-11.5183
出體	-11.5187
皆無所有	-11.5188
住無	-11.5188
雙亡	-11.5189
言非有非無	-11.5192
方分	-11.5193
即是因緣	-11.5194
四對	-11.5194
破此二	-11.5199
以對	-11.5199
無染	-11.5199
無有法	-11.5201
有無門	-11.5201
大住	-11.5206
即是真諦	-11.5208
難差	-11.521
如是生	-11.5211
取義	-11.5212
體用不二	-11.5213
一業	-11.5214
順忍	-11.5214
離去法	-11.5217
眾緣中	-11.5219
是善	-11.5223
九折	-11.5224
今從	-11.5225
知而無知	-11.5226
時未有	-11.5227
之德	-11.5231
待也	-11.5232
標指	-11.5232
假言	-11.5233
滅惡	-11.5234
望也	-11.5235
學道	-11.5235
同觀	-11.5236
中道為二諦體	-11.5239
已見	-11.524
為七	-11.5241
裂	-11.5245
無作業	-11.5246
此問	-11.5248
識知	-11.5251
對境	-11.5252
於世諦	-11.5254
中生	-11.5255
論大宗	-11.5256
外人聞	-11.5259
此間	-11.5263
彼去者	-11.5263
我所說	-11.5268
而能生	-11.5268
體絕	-11.527
不忘	-11.5271
即屬	-11.5272
一途	-11.5273
發言	-11.5274
隨滅	-11.5275
以四句	-11.5277
初文	-11.5278
乘也	-11.5279
如大經	-11.5281
是則非	-11.5281
顯然	-11.5282
用寂	-11.5285
四諦品	-11.5286
求此	-11.5286
能論	-11.5287
都是	-11.5289
已辨	-11.5289
故失	-11.5291
信之	-11.5291
遷而	-11.5291
章中	-11.5292
可壞	-11.5299
陰身	-11.53
即是顛倒	-11.5305
約境	-11.5305
本無者	-11.5309
十重	-11.5309
分別故	-11.5311
瓶初	-11.5312
說十二因緣	-11.5316
過現	-11.5316
今現見	-11.5317
何足	-11.5318
向者	-11.5319
餘分	-11.532
亦失	-11.532
大心	-11.5321
一異門破	-11.5324
一卷	-11.5326
行用	-11.5326
無為相	-11.5326
何所滅	-11.5326
以難	-11.5328
說常	-11.5329
如世間	-11.5332
故開	-11.5332
合上	-11.5337
九十六種	-11.5339
為求	-11.5342
絕相	-11.5343
生怖畏	-11.5345
六難	-11.5347
五百年	-11.5347
而明	-11.5352
巳見	-11.5359
更作	-11.5359
然二諦	-11.5361
作天	-11.5362
▁諦	-11.5364
智緣	-11.5364
第四偈	-11.5366
有三諦	-11.5368
第三結	-11.5369
設有	-11.537
空為空	-11.5371
還就	-11.5374
因果俱	-11.5374
說我	-11.5376
亦因	-11.5379
諸句	-11.5379
直非	-11.5381
次下	-11.5383
體既無	-11.5385
而不失	-11.5386
具在	-11.5387
有通別	-11.5391
明法空	-11.5392
除其	-11.5394
施時	-11.5395
有利鈍	-11.5395
禾	-11.5398
優樓迦	-11.5403
如來智	-11.5404
毘婆沙	-11.5405
又前破	-11.5408
法尚	-11.5409
悟實相	-11.5411
汝前	-11.5411
無不無	-11.5412
不感	-11.5414
先所	-11.5417
此標	-11.542
堂	-11.542
錄	-11.5422
孝	-11.5422
於聖心	-11.5423
說佛性	-11.5424
上就	-11.5424
盡不盡	-11.5428
殘	-11.5428
獸	-11.5428
有性者	-11.5428
着寂	-11.5429
安在	-11.543
詩云	-11.5431
若無常	-11.5431
非照	-11.5434
皮	-11.5434
能伏	-11.5435
暑	-11.5435
名為慧	-11.5436
果無	-11.5437
寡	-11.5437
楚	-11.5438
如華嚴	-11.5438
繼	-11.544
誨	-11.544
理無差	-11.544
汗	-11.544
故引	-11.5441
煮	-11.5441
岳	-11.5442
圍	-11.5442
披	-11.5442
採	-11.5443
優	-11.5443
槃	-11.5443
役	-11.5444
為如來	-11.5444
如陶師	-11.5444
爾耶	-11.5444
泉	-11.5445
巳有	-11.5446
一陰	-11.5446
自上以來	-11.5447
托	-11.5448
自然之	-11.5448
亦如前	-11.5449
羈	-11.5449
時法	-11.5449
碍	-11.545
如是如是	-11.545
入一乘	-11.545
文四	-11.545
祀	-11.5451
十萬偈	-11.5451
蹄	-11.5451
祛	-11.5452
無所得善	-11.5452
符堅	-11.5452
嵩	-11.5452
隣虛	-11.5452
方便用	-11.5453
聖無有無之知	-11.5453
辛	-11.5453
稻穀等	-11.5453
未來現在時	-11.5453
無如上過	-11.5453
臂	-11.5453
闍那	-11.5454
名實無當	-11.5454
心大歡喜	-11.5454
陰入界	-11.5454
靜而非動	-11.5455
推釋	-11.5455
於今未甞有	-11.5455
四悉壇	-11.5456
神而無功	-11.5456
論序	-11.5456
北土	-11.5456
塊	-11.5456
抱一湛然	-11.5456
宰	-11.5456
中道為佛性	-11.5457
循	-11.5457
弱喪	-11.5457
謹	-11.5458
瀑	-11.5458
故被破	-11.5459
魂	-11.5459
倣	-11.5459
道遠乎哉	-11.5459
兩言一會	-11.5459
金剛三昧	-11.5459
憂喜	-11.5459
不生亦不滅	-11.546
觀盡於緣	-11.546
話	-11.5461
趨	-11.5461
氷	-11.5462
四大所生色	-11.5462
放逸	-11.5462
釋卷第十	-11.5462
此一章	-11.5462
萬累	-11.5462
論初已來	-11.5463
善知識	-11.5463
妻	-11.5464
一有一無	-11.5464
得清淨	-11.5465
格	-11.5465
浩	-11.5465
於內	-11.5465
能緣所緣	-11.5465
深妙	-11.5466
百論疏卷	-11.5466
虛不失照	-11.5467
法性生身	-11.5467
有十方分	-11.5467
彼處	-11.5468
摩尼	-11.5468
立言	-11.5468
舞	-11.5468
徑	-11.5469
相異	-11.5469
褒貶	-11.547
聖智之無	-11.547
薩波若	-11.547
枝條	-11.547
剎	-11.5471
如來無一切智	-11.5471
闡提人無	-11.5471
半字	-11.5471
皮陀	-11.5471
撥無因果	-11.5471
惡止善行	-11.5472
譬如幻化人	-11.5472
本性空寂	-11.5472
非實非不實	-11.5473
一行半	-11.5473
色不自色	-11.5473
賓主	-11.5473
偷	-11.5473
似空花	-11.5474
實果	-11.5474
物莫之逆	-11.5475
為破彼執	-11.5476
瓶等諸物	-11.5476
性莫之易	-11.5476
撓	-11.5476
人法俱有	-11.5477
諦不諦	-11.5477
因中有果無果	-11.5477
塵勞	-11.5478
洽	-11.5478
但有名字	-11.5479
為水	-11.5479
二推釋	-11.548
陶	-11.548
非現	-11.548
斷心	-11.548
涅盤	-11.5481
除糞	-11.5481
借無以	-11.5481
損害	-11.5481
明不遷	-11.5482
亦例	-11.5482
生時亦不生	-11.5484
▁二推釋	-11.5484
總立	-11.5484
治病	-11.5485
無有定相	-11.5485
勸捨	-11.5485
此無過失	-11.5485
天女曰	-11.5485
汝不應言	-11.5485
知即無知	-11.5486
起盡法	-11.5486
十二相生	-11.5487
如汝所言	-11.5487
卷第四	-11.5488
於無相	-11.5488
一切行	-11.5489
長養	-11.5491
則已	-11.5491
信心	-11.5491
後則	-11.5491
默然	-11.5492
真即俗	-11.5493
諸比丘	-11.5493
聖旨	-11.5495
今所明者	-11.5495
善星	-11.5495
能破所破	-11.5495
最大	-11.5496
復次有作是	-11.5496
端正	-11.5499
凡有四義	-11.5499
三解脫門	-11.55
?「	-11.55
關內	-11.55
來現在	-11.5501
至長安	-11.5503
亦同此	-11.5503
他作苦	-11.5504
時無別體	-11.5505
非非有	-11.5506
佛性為	-11.5506
壞法	-11.5506
此因緣	-11.5508
人無我	-11.5508
始可	-11.5508
靈照	-11.5508
分有分	-11.5509
加行	-11.551
非非無	-11.5511
證時	-11.5511
推窮	-11.5511
受受者	-11.5512
學無所得	-11.5512
若能如是	-11.5512
三乘同觀	-11.5513
受法	-11.5514
此中應知	-11.5514
而住	-11.5514
略有二種	-11.5514
高僧傳	-11.5515
玅道	-11.5516
二迷	-11.5517
王宮生	-11.5518
能作所作	-11.5518
果空故	-11.5519
自性有	-11.552
四住	-11.552
無少法	-11.552
文勢	-11.5522
可稱	-11.5523
上座	-11.5523
具三	-11.5525
定惠	-11.5525
是故汝言	-11.5526
慧明	-11.5527
即是斷	-11.5529
思念	-11.553
諸法師	-11.553
▁二正答	-11.5531
假名為	-11.5531
化母	-11.5532
中道義	-11.5532
說世諦	-11.5534
猶未盡	-11.5534
古之	-11.5534
反照智	-11.5534
眼光	-11.5536
實生	-11.5536
只此	-11.5538
善根人有	-11.5538
問何故破	-11.5538
識相	-11.554
須破之	-11.5544
所了	-11.5545
致令	-11.5545
一日	-11.5548
其真	-11.5549
能破暗	-11.555
來世	-11.5551
禮佛	-11.5552
正解	-11.5554
諸有情	-11.5556
頓教	-11.5557
九種	-11.5559
陰攝	-11.5559
謂一切	-11.556
無同法喻	-11.5564
即波若	-11.5565
□□□□□	-11.5566
語云	-11.5567
機感	-11.5567
鑒有	-11.5568
正對	-11.5569
得無得	-11.557
兩字	-11.5572
此有何異	-11.5572
則無自性	-11.5573
有人云	-11.5573
利根人	-11.5576
罪業	-11.5577
若用	-11.5577
如佛說	-11.5578
今前	-11.558
愛著	-11.558
引經證成	-11.5581
一師	-11.5582
眼識等	-11.5582
之惑	-11.5583
於其中	-11.5586
於諸法	-11.5587
方曰	-11.5588
般若云	-11.5589
都無所有	-11.5589
喻如	-11.5589
理奪	-11.5591
未縛	-11.5594
依涅槃	-11.5595
皆名為	-11.5597
行等	-11.5597
道果	-11.5598
以之為	-11.5602
今悟	-11.5604
世智	-11.5605
前是	-11.5605
無無知也	-11.5608
聞思	-11.5608
半無	-11.5609
無復有	-11.561
反異	-11.561
有知無知	-11.561
不得解脫	-11.5611
常依二諦	-11.5612
塵想	-11.5612
久近	-11.5614
其義不成	-11.5616
相續故	-11.5616
因緣所生	-11.5617
是則為	-11.5617
竝觀	-11.5617
境空	-11.5617
數人云	-11.5618
以不生故	-11.562
還用	-11.5621
起起	-11.5622
合說	-11.5624
物類	-11.5626
同虗空	-11.5626
直就	-11.5628
又我	-11.563
無言說	-11.5634
語出	-11.5635
有無之境	-11.5637
未生而生	-11.5639
此善	-11.564
為凡說有	-11.564
呵外人	-11.5641
下三句	-11.5642
於小	-11.5645
深玄	-11.5647
無有決定	-11.5647
當來	-11.5647
破作作者	-11.5649
者有二種	-11.5651
於斯	-11.5652
歸敬	-11.5656
又一切法	-11.5656
若本有	-11.5657
佛言不	-11.5658
了出	-11.5658
凡所	-11.5659
息故	-11.566
四海	-11.5661
無分	-11.5661
則了	-11.5661
是中亦無	-11.5664
門外	-11.5665
橫破	-11.5668
我意	-11.5669
為因果	-11.567
既離	-11.567
心無義	-11.5671
四象	-11.5673
遷不遷	-11.5675
物外	-11.5676
依主	-11.5677
識體	-11.5677
而弗	-11.5677
下釋第二	-11.5677
難得	-11.5678
亦不可言	-11.5678
二智為	-11.5678
不到闇	-11.5679
相現	-11.5679
自樹	-11.5681
重救	-11.5682
為共	-11.5683
經初	-11.5683
緣感	-11.5683
亦盡	-11.5683
後說	-11.5684
改變	-11.5687
化他	-11.5687
答曰不	-11.5688
非神	-11.5688
不可言說	-11.5688
三一	-11.5688
虛通	-11.5689
如是有	-11.569
所及	-11.569
雙標	-11.569
四陰	-11.5691
應迹	-11.5692
無常性	-11.5692
學小乘	-11.5694
不應分別	-11.5694
不從他生	-11.5694
開為四	-11.5695
宛然而有	-11.5695
世諦之中	-11.5696
兩文	-11.5697
出意	-11.5698
例同	-11.5701
是凡夫	-11.5701
外緣	-11.5702
聲無常	-11.5704
聽者	-11.5705
眾緣合	-11.5705
書問	-11.5705
病人	-11.5706
第二云	-11.5706
以作	-11.5707
今穀	-11.5708
四方	-11.5712
皆無自性	-11.5712
四品	-11.5712
第二雙	-11.5715
亦從	-11.5715
迷惑	-11.5718
心無所依	-11.5721
雖通	-11.5723
略論	-11.5725
經稱	-11.5726
謂之無	-11.5728
有瓶生	-11.5731
苦因	-11.5732
難信	-11.5732
四流	-11.5734
世諦法	-11.5734
無淺深	-11.5735
息滅	-11.5735
冥符	-11.5736
故言無	-11.5737
之患	-11.5738
六諦	-11.574
今見	-11.574
如此則	-11.5741
數義	-11.5741
驗破	-11.5742
果義	-11.5743
答由	-11.5745
眾見	-11.5747
若無相	-11.5747
由前	-11.5749
隨一	-11.5752
我思	-11.5753
應失	-11.5753
有傍正	-11.5755
破毘曇	-11.5757
不除	-11.5758
分析	-11.5758
眾生與佛	-11.576
即法身	-11.5761
順理	-11.5765
欲使	-11.5766
合德	-11.5766
冥真	-11.5773
不可翻	-11.5776
豈同	-11.5776
云何而言	-11.5776
四字	-11.5777
果先有	-11.5779
謂空	-11.5782
異中	-11.5783
有廣略	-11.5787
不遮	-11.579
修多羅人	-11.5792
因為	-11.5792
藉緣	-11.5794
形量	-11.5795
入關	-11.5795
實爾	-11.5797
無所從來	-11.5798
授記	-11.5801
初地斷	-11.5802
為十	-11.5806
因時	-11.5807
一切皆是	-11.5808
之聲	-11.5808
不生而生	-11.5811
搖	-11.5816
眾流	-11.5816
大小兩教	-11.5816
兩殊	-11.5817
不欲得	-11.5819
本自不	-11.5824
不從他	-11.5824
何假	-11.5831
多聞	-11.5833
是所緣	-11.5834
若不滅	-11.5837
前就	-11.5838
大樂	-11.5839
現在未來	-11.584
性本	-11.5841
經論中	-11.5846
不從因緣生	-11.5847
得並觀	-11.5848
世有	-11.5852
悲智	-11.5856
只見	-11.5857
諸所作	-11.5859
內學	-11.586
燈明	-11.5865
非直	-11.5866
止之	-11.5867
有幾	-11.5867
應感	-11.587
至後	-11.587
上三門	-11.5875
卷第三	-11.5875
不久	-11.5876
之經	-11.5876
有為無	-11.5876
不更	-11.5877
又此是	-11.5883
而稱	-11.5892
生大	-11.5893
一神	-11.5894
兩異	-11.5896
般若方便	-11.5896
解脫道	-11.5902
既常	-11.5905
唯取	-11.5906
復作是	-11.591
決定無生	-11.5912
菩薩位	-11.5915
即令	-11.5916
空有兩	-11.5918
無明住地	-11.5922
無滯	-11.5923
玄理	-11.5925
又外道	-11.5925
自論	-11.5925
立空	-11.5927
此義故	-11.5929
有與無	-11.5929
但於	-11.5933
如數論	-11.5934
一大	-11.5936
後分	-11.5936
而墮	-11.5937
異物	-11.5937
在世	-11.5938
譬於	-11.5939
相害	-11.594
求解脫	-11.594
行布施	-11.5943
舉果	-11.5943
名為真	-11.5943
初句明	-11.5943
更互	-11.5944
不見其	-11.5946
非緣生故	-11.5948
是有見	-11.5949
就情	-11.5951
本有佛性	-11.5951
自類	-11.5954
不障	-11.5954
不可異	-11.5955
法無故	-11.5955
令解	-11.5956
無為法中	-11.5958
不二理	-11.5961
然即	-11.5962
學佛	-11.5962
雖得	-11.5962
非有非無為中	-11.5964
成斷常	-11.5966
略引	-11.5973
從於	-11.5974
四計	-11.5974
乃云	-11.5975
所悟	-11.5976
無空	-11.598
則攝	-11.5981
法自體	-11.5993
無三寶	-11.5993
應變	-11.5995
不長	-11.5995
成法	-11.5995
不二之旨	-11.5997
世諦破性	-11.6
據理	-11.6001
動搖	-11.6002
念言	-11.6007
問云何是	-11.6008
隨世俗	-11.6009
如是意	-11.601
如舍利弗	-11.6011
不無無	-11.6013
令生	-11.6013
而可成	-11.6015
三段	-11.6018
無三相	-11.602
須破	-11.6026
象師	-11.6032
宜以	-11.6034
巳生	-11.6035
彼意	-11.6036
今破其	-11.6037
即是法身	-11.6037
自性空故	-11.6038
之機	-11.6039
說俗	-11.6039
本處	-11.6042
引放光	-11.6047
照體	-11.6049
不明了	-11.6049
有非真有	-11.6049
下責	-11.6052
皆苦	-11.6053
不可說故	-11.6056
十演	-11.6058
車輪	-11.6059
而今有	-11.606
一切境	-11.6065
不相待	-11.6065
離身	-11.6066
開顯	-11.6068
即是生	-11.6069
悟無生	-11.6071
無量名	-11.6072
從上	-11.6072
答略明	-11.6075
無其	-11.6077
未來時	-11.6077
成得	-11.6078
相因而	-11.6079
動用	-11.608
二死	-11.6083
相助	-11.6088
相因待	-11.6089
自他俱	-11.609
方便實	-11.6093
聰	-11.6095
是斷常	-11.6096
虛言	-11.6097
二者欲	-11.61
言其非是	-11.6102
無生觀	-11.6104
不能用	-11.6104
真如為	-11.6104
問波若	-11.6105
耳聞	-11.6107
答論主	-11.6108
乃至非	-11.611
妄生	-11.6111
小智	-11.6111
是二邊	-11.6111
二物	-11.6115
若有性	-11.6115
第二難	-11.612
謂有無	-11.6122
卷上	-11.6123
方起	-11.6125
指後	-11.6127
歸一乘	-11.6129
次論	-11.6129
進之	-11.6133
可得故	-11.6135
互現	-11.6135
為煩惱	-11.6137
善也	-11.6139
問經	-11.6141
我亦不	-11.6142
不可破	-11.6143
往而	-11.6145
離法有	-11.6151
無所說	-11.6156
助成	-11.6156
深旨	-11.6157
中行	-11.6157
兩非	-11.6159
義亦爾	-11.6161
答一往	-11.6161
則屬	-11.6165
詮理	-11.617
此同	-11.6171
釋迦佛	-11.6172
不行於	-11.6172
內破	-11.6173
心智	-11.6174
正結	-11.6178
辨其	-11.6182
自苦	-11.6184
即非有	-11.6184
因緣二諦	-11.6185
下第七	-11.6186
云何見	-11.6188
多義	-11.6191
若爾則	-11.6195
為本有	-11.6201
名為佛	-11.6204
亦是無常	-11.6206
理相違	-11.6207
見生	-11.6208
疏釋	-11.6211
一異破	-11.6212
初序	-11.6213
即境	-11.6214
等諸因	-11.6215
此中如是	-11.6219
義邊	-11.6219
心與	-11.6219
善說	-11.6219
此之三	-11.6219
為息	-11.6219
依報	-11.6224
以彼為	-11.6225
去人	-11.6225
他論	-11.623
勝於	-11.6236
隨時	-11.6238
具說	-11.6239
名無為	-11.624
不計	-11.624
終無有	-11.6244
眼能見	-11.6246
破色	-11.6249
破眾生	-11.6251
如是諸法	-11.6252
佛國土	-11.6254
譯經	-11.6254
若識	-11.6256
謂真諦	-11.6261
念者	-11.6264
見真實	-11.6266
收入	-11.6266
若斷	-11.6272
有來	-11.6273
此分	-11.6275
故名為中	-11.6282
但從	-11.6284
種種因緣	-11.6284
定住	-11.6286
答若言	-11.629
一切外道	-11.6295
外相	-11.6296
不堪	-11.6297
假說為	-11.6298
慶	-11.63
今意	-11.63
一切法空故	-11.63
離有為	-11.6301
不續	-11.6304
可住	-11.6304
以假	-11.6305
正量部	-11.6307
待長	-11.6309
未滿	-11.631
不出人法	-11.6311
兼破	-11.6313
第二論	-11.6316
為先	-11.6319
三破救	-11.632
見思	-11.6321
維摩詰	-11.6322
如車	-11.6322
應須	-11.6322
欽	-11.6324
云何驗	-11.6324
作此論	-11.6326
姑臧	-11.6327
迷於	-11.6329
第二就	-11.6329
之謂也	-11.6331
有所得善	-11.6331
黃帝	-11.6334
名俗諦	-11.6335
即世諦	-11.6336
由心	-11.6339
皇	-11.6339
釋疑	-11.6339
凡迷	-11.6339
觀五陰	-11.6341
此位	-11.6341
冠	-11.6342
成病	-11.6343
善惡等	-11.6343
一曰	-11.6343
宛	-11.6344
勒	-11.6345
波羅	-11.6345
聰明	-11.6345
弘始三年	-11.6346
緒	-11.6347
襟	-11.6348
延促	-11.6349
魏	-11.635
諱	-11.635
剋	-11.635
不從非緣生	-11.6351
法自相相違	-11.6351
則無復	-11.6351
少壯	-11.6352
圜	-11.6352
鈔	-11.6352
瓶中	-11.6353
秀	-11.6353
三雙六句	-11.6354
鉤	-11.6354
甲	-11.6354
垢淨	-11.6354
孟	-11.6355
讚歎	-11.6355
創	-11.6355
蓮社	-11.6355
道慧道種慧	-11.6356
倚	-11.6356
因與因因	-11.6356
竺	-11.6357
老莊	-11.6357
璃	-11.6357
互相因待	-11.6358
猛利	-11.6358
企	-11.6359
希夷	-11.6359
訶	-11.636
洲	-11.636
浣	-11.636
苦無常	-11.636
大乘教	-11.636
曇無德	-11.636
要誓	-11.6361
醉	-11.6361
隨眠	-11.6361
黨	-11.6361
譯場	-11.6362
七地以上	-11.6362
雖處有名之中	-11.6362
柰	-11.6362
踰	-11.6362
須臾	-11.6363
紙	-11.6363
怨	-11.6364
靈鑒	-11.6364
三獸渡河	-11.6364
骨	-11.6364
苦樂癡	-11.6364
快	-11.6364
一切有無法	-11.6365
駕	-11.6365
羅睺羅	-11.6365
超越	-11.6366
性常自空	-11.6366
幽靈不竭	-11.6366
無來無去	-11.6366
肆	-11.6367
謂實有	-11.6367
禁	-11.6367
於向未甞無	-11.6367
挍	-11.6367
痛	-11.6367
焚燒	-11.6367
猥	-11.6368
祇	-11.6368
遐	-11.6368
誡	-11.6368
遭	-11.6368
無漏業	-11.6368
左右	-11.6369
能依所依	-11.6369
是事則不然	-11.6369
次有	-11.6369
玄之又玄	-11.6369
臥	-11.6369
墮頂	-11.6369
雲庵	-11.637
今直	-11.637
頻	-11.637
否	-11.637
瞖	-11.637
窺	-11.637
嫌	-11.637
施莫之廣	-11.637
拯	-11.637
晚	-11.637
吞	-11.6371
寂怕	-11.6371
匿	-11.6371
儒老	-11.6372
荷	-11.6372
王者	-11.6372
威儀	-11.6372
為莫之大	-11.6372
蘇酪	-11.6372
色性自空	-11.6372
瞻	-11.6372
祈	-11.6373
廣狹	-11.6373
縣	-11.6373
即事而真	-11.6373
擔	-11.6373
如前云	-11.6373
擾	-11.6373
汝不善說	-11.6374
若以無相為無相	-11.6374
不見空與不空	-11.6374
惑智之無	-11.6374
用即寂	-11.6375
愕	-11.6375
今此品者	-11.6375
以目品	-11.6375
落有所得	-11.6375
稟佛教	-11.6376
所乘不一	-11.6376
醜	-11.6376
雖靜而常往	-11.6376
體同時用前後	-11.6376
無不自無	-11.6377
童壽	-11.6377
三是故下結	-11.6378
非生死非涅槃	-11.6378
前果後因	-11.6378
離去有去	-11.6378
取及取者	-11.6378
習種性	-11.6378
伺察	-11.6378
撫會	-11.6379
十八界	-11.6379
恍	-11.6379
物莫之無	-11.638
根性不同	-11.638
誑惑	-11.638
補特伽羅	-11.6381
與物推移	-11.6381
有得有失	-11.6381
非本非始	-11.6381
言而無當	-11.6382
神彌靜	-11.6382
觀方知彼去	-11.6382
昔物在昔	-11.6382
生已更生	-11.6383
佛與菩薩	-11.6383
橫絕百非	-11.6383
所作因	-11.6383
遷與不遷	-11.6384
暨	-11.6384
聚散	-11.6385
檀越	-11.6385
諸善	-11.6385
去者不至方	-11.6385
應會之道	-11.6385
彼相	-11.6386
一亦無三	-11.6386
變現	-11.6386
以實為義	-11.6387
立義有過	-11.6387
二與不二	-11.6387
染法染者	-11.6389
芳	-11.6389
為二乘	-11.6389
亦有邊亦無邊	-11.6389
無為雖一	-11.639
能說是因緣善滅諸戲論	-11.639
若尒	-11.639
不盡有為	-11.6391
非有邊非無邊	-11.6391
俗亦諦亦非諦	-11.6392
兩門	-11.6392
最第一	-11.6392
初兩句	-11.6393
非無幻化人	-11.6393
師資	-11.6393
如上所說	-11.6394
於教二諦	-11.6394
空無相無作	-11.6394
如先已遮	-11.6394
無名者	-11.6396
所成法	-11.6397
非無體	-11.6397
謂眾生	-11.6397
因中先有	-11.6397
能生於果	-11.6398
末代	-11.6399
陰外	-11.6399
興皇大師	-11.6399
巳斷	-11.64
遍計所執自性	-11.64
四明	-11.6401
假無不名無	-11.6401
何勞	-11.6404
此說不然	-11.6405
靈覺	-11.6405
高尚	-11.6406
差殊	-11.6406
是法住法位	-11.6406
亦有亦無非有非無	-11.6407
神御	-11.6409
]	-11.6409
好尚	-11.641
佛不出世	-11.641
不取相	-11.641
穀牙	-11.6411
先舉	-11.6411
治也	-11.6412
如鳥	-11.6412
窮學	-11.6413
論本	-11.6413
明慧	-11.6413
次段	-11.6413
依名釋義	-11.6415
不極成	-11.6415
智即	-11.6416
遷變	-11.6417
暫住	-11.6417
一家意	-11.6418
文易知	-11.6419
一切法無生	-11.642
當生善	-11.642
下半呵	-11.6421
感應者	-11.6422
前後際	-11.6422
則巳	-11.6423
聲聞法中	-11.6423
羣生	-11.6425
但不但	-11.6427
百偈	-11.6427
性耶	-11.6429
遮止	-11.643
涅槃名	-11.643
但有言說	-11.643
眾糸	-11.6432
種種差別	-11.6433
互舉	-11.6433
略有三	-11.6433
例前	-11.6433
先際	-11.6434
猶尚	-11.6434
無依無得大乘四論玄義記卷第	-11.6435
且止	-11.6436
平等無二	-11.6437
已謝	-11.6438
世事	-11.644
正勤	-11.644
大秦	-11.644
睿師	-11.6442
相隨	-11.6445
正在	-11.6445
在論初	-11.6446
惑情	-11.6447
之鄉	-11.6447
五音	-11.6447
異學	-11.6448
不從因生	-11.6449
彼文	-11.6449
五偈	-11.645
有悲心者	-11.6451
有何所以	-11.6451
既滅	-11.6451
定是有	-11.6451
雙遮	-11.6453
強立	-11.6453
三推釋	-11.6453
牛馬	-11.6454
所住	-11.6455
我性	-11.6456
此並是	-11.6456
凡言	-11.6456
即不遷	-11.6456
心行滅	-11.6457
有相故	-11.6458
又欲	-11.6459
雖空而	-11.646
有所得義	-11.6461
莫過	-11.6464
能使	-11.6464
如契經言	-11.6466
第三家	-11.6466
諸結使	-11.6466
即無復	-11.6466
雙難	-11.6467
在人	-11.6471
因中果	-11.6471
以破於	-11.6472
明無有	-11.6473
一切法性空	-11.6475
取信	-11.6476
因果相生	-11.6477
聲聞乘	-11.6478
諸佛所說	-11.6478
有二釋	-11.6481
互相違故	-11.6482
成辦	-11.6482
展轉相續	-11.6482
品開為二	-11.6483
是火	-11.6483
是故偈言	-11.6485
窮極	-11.6485
是故釋云	-11.6486
是所破	-11.6489
歎美	-11.6489
不語	-11.649
聖人知	-11.649
作是念	-11.649
通而為	-11.6492
眼不見	-11.6492
佛法內	-11.6493
妙果	-11.6493
外事	-11.6495
所作性故	-11.6497
若先有果	-11.6498
彼執	-11.6498
一切成	-11.6498
非中	-11.6499
酬	-11.6499
我所立	-11.65
其辭	-11.6505
墮地獄	-11.6505
破除	-11.6505
以無自性故	-11.6507
故須破之	-11.6507
佛不說	-11.6507
五常	-11.6509
諸法有體	-11.6511
王言	-11.6511
是身	-11.6514
亦不起	-11.6514
普應	-11.6515
提婆菩薩	-11.6517
相承	-11.652
不從因緣	-11.652
立量破	-11.652
順通	-11.6522
始名	-11.6524
有三門	-11.6525
情計	-11.6525
神妙	-11.6526
有而不有	-11.6528
先成	-11.653
偈上半牒	-11.653
無有差別	-11.653
去聲	-11.653
同見	-11.6532
引論	-11.6533
立無	-11.6533
俱時	-11.6536
多途	-11.6537
終是一	-11.6537
起一念	-11.6539
經旨	-11.6539
諸義	-11.6539
常倒	-11.6539
不備	-11.654
謗法	-11.654
一切言說	-11.654
相異故	-11.654
是能相	-11.654
法住	-11.6542
修證	-11.6542
無二相	-11.6543
假使	-11.6547
申難	-11.6548
改易	-11.655
惑滅	-11.6552
一切皆無	-11.6552
如我所說	-11.6553
世尊說	-11.6553
二諦二智	-11.6553
緣生之法	-11.6553
悟者	-11.6554
更無餘	-11.6555
涅槃論	-11.6555
亦應云	-11.6555
以諸法	-11.6555
假有不有	-11.6555
巳成	-11.6556
初標宗	-11.6558
佛在	-11.6558
其照	-11.6561
假非實	-11.6561
以心為	-11.6561
世間出世間	-11.6562
勢破	-11.6563
破他法	-11.6563
依智度論	-11.6568
名為去者	-11.6569
二諦皆	-11.6571
終無	-11.6571
自害	-11.6571
故前云	-11.6572
法空故	-11.6573
過甚	-11.6575
受持	-11.6576
從緣故	-11.6577
滅於前	-11.6579
又汝言	-11.6579
餘相	-11.6582
二皆不成	-11.6582
度一切眾生	-11.6583
因有果	-11.6584
覩其	-11.6586
處生	-11.6587
為善	-11.659
真波若	-11.6591
入無餘	-11.6594
而不生	-11.6594
苦苦	-11.6595
有不成過	-11.6596
乃言	-11.6596
無來去	-11.66
益也	-11.6603
於聖是實	-11.6606
亦猶	-11.6607
同而異	-11.6609
應如色等	-11.6609
春時	-11.6609
既亡	-11.661
可不	-11.661
去世	-11.6612
前偈明	-11.6613
略解	-11.6613
所感	-11.6613
或有人	-11.6614
得度	-11.6614
破空品	-11.6616
能生諸法	-11.6616
既無自性	-11.6618
若不如是	-11.6618
反顯	-11.6624
答略	-11.6625
如幻夢	-11.6626
即釋	-11.6627
業道	-11.6629
無本際	-11.6629
一切事	-11.6631
以之而	-11.6636
故名為佛	-11.6637
如金剛	-11.6637
覺悟	-11.6638
名不思議	-11.6639
世俗諦中	-11.664
又破	-11.664
之貌	-11.6642
如涅槃經云	-11.6643
心慧	-11.6644
廣分別	-11.6644
我不言	-11.6645
例知	-11.6646
無出	-11.6647
具得	-11.6648
所云	-11.6648
皆與	-11.6648
然燈	-11.6648
深廣	-11.6649
必待	-11.6649
成事	-11.6649
乖理	-11.6651
非無知也	-11.6652
治之	-11.6653
斷一切	-11.6653
一解	-11.6655
正因者	-11.6656
不滅法	-11.6657
真宗	-11.6657
等業	-11.6657
若有生	-11.6662
不成問答	-11.6663
羅云	-11.6664
於俗	-11.6666
捨受	-11.6667
立理	-11.6667
非有性	-11.6669
壞苦	-11.667
唯我	-11.667
亦不無	-11.6671
心慧境	-11.6675
染等	-11.6675
證見	-11.6676
通為	-11.6677
國之	-11.6678
起信論	-11.6678
終不得	-11.6679
六十二	-11.6684
心念	-11.6684
學二諦	-11.6685
此則不然	-11.6687
明權實	-11.6687
此五陰	-11.6688
無病	-11.6688
二破救中	-11.6689
位體	-11.669
案	-11.6692
如父子	-11.6695
有餘涅槃	-11.6696
火體	-11.6697
貪求	-11.6697
業性	-11.6702
一時而有	-11.6706
大略	-11.6707
塵成	-11.6707
明三乘	-11.6711
去處	-11.6712
有得無得	-11.6713
生信	-11.6714
不能自見	-11.6714
取悟	-11.6715
如來性	-11.6719
因果相續	-11.6719
說不同	-11.6724
又此論	-11.6727
果從緣生	-11.6727
是三乘通教	-11.673
真實義	-11.673
三百	-11.673
即四	-11.6731
名家	-11.6735
所行處	-11.6735
是名涅槃	-11.6736
開悟	-11.6739
下根	-11.6741
何須更	-11.6742
可及	-11.6742
能捨	-11.6743
如大經云	-11.6745
淺智	-11.6746
無果因	-11.6746
翻成	-11.6747
答二義	-11.6748
論有無	-11.6748
是何等	-11.675
有深淺	-11.675
問何故明	-11.6752
莫之	-11.6755
俱泯	-11.6755
不虗	-11.6759
如牛	-11.6759
由其	-11.6761
照他	-11.6762
世所攝	-11.6763
四云	-11.6763
要前	-11.6763
入法性	-11.6765
殊異	-11.6766
天曰	-11.6766
現見世間	-11.6768
滅則無	-11.6769
古者	-11.6769
云何說	-11.6772
兩忘	-11.6773
善有	-11.6774
中應有	-11.6775
斷常見	-11.6776
之懷	-11.6776
六道眾生	-11.6779
若有自體	-11.6783
望道	-11.6785
故非常	-11.6786
三門破	-11.6788
既深	-11.6791
無住處	-11.6792
然由	-11.6793
教義	-11.6794
因緣門	-11.6797
實相論	-11.6798
進趣	-11.6799
說驗	-11.6799
了境	-11.68
無所得義	-11.6801
亦有四	-11.6801
之大意	-11.6802
皆無自體	-11.6803
合喻	-11.6804
願力	-11.6806
靈智	-11.6806
色應	-11.6807
總答	-11.6807
為住	-11.6808
是有是無	-11.6808
有所緣	-11.6808
前舉	-11.6808
常云	-11.6811
最初	-11.6815
之志	-11.6816
何故非	-11.6819
彼家	-11.6821
自然而	-11.6825
既竟	-11.6826
至論佛性	-11.6827
說如是	-11.683
令入	-11.6831
若有體	-11.6831
名號	-11.6836
復由	-11.6837
取境	-11.6838
以教	-11.6838
體無異	-11.684
此一句	-11.684
對此	-11.6847
即住	-11.6847
鈍故	-11.6849
直以	-11.6849
無定相	-11.6849
二俱是	-11.685
眼病	-11.6851
諸智	-11.6852
相由	-11.6854
無窮破	-11.6857
自體生	-11.6858
兩用	-11.6859
便同	-11.6865
離火	-11.6866
體非體	-11.6869
因為果	-11.6871
事法	-11.6873
不有有者	-11.6874
若諸	-11.6874
但可	-11.6875
若然	-11.6877
皆是方便	-11.6879
在彼	-11.6886
開因果	-11.6886
執一異	-11.6887
心意識	-11.6888
是有漏	-11.689
而可得	-11.6892
正知	-11.6894
六境	-11.6896
見倒	-11.6896
種種分別	-11.6896
此品初	-11.6897
通感應	-11.6898
作是難	-11.69
於如來	-11.6901
一無差	-11.6901
果上	-11.6902
分別戲論	-11.6904
思益	-11.6905
勝鬘經	-11.6905
相合	-11.6905
功德智慧	-11.6914
此二門	-11.6915
滅名	-11.6915
則於	-11.6918
無所破	-11.6923
未曾見	-11.6923
之動	-11.6925
大虛	-11.693
念佛	-11.6932
支道林	-11.6932
諸法不動	-11.6934
菩薩所行	-11.6935
水流	-11.6938
智證	-11.6938
破斷常	-11.6938
互有	-11.6939
是處	-11.694
不易	-11.694
三處	-11.6942
樹下	-11.6943
可知矣	-11.6945
廣也	-11.6947
是一法	-11.6949
為過去	-11.695
亦無因	-11.6951
非無知	-11.6951
二段	-11.6951
既壞	-11.6954
有起滅	-11.6958
顯本	-11.6965
此第三	-11.6967
遍知	-11.6968
但緣	-11.6972
滅智	-11.6975
唯依	-11.6975
至涅槃	-11.6976
眾行	-11.6977
能覺	-11.6977
而不能	-11.6978
前則	-11.6979
故不可說	-11.698
至今	-11.698
為虛妄	-11.698
證法	-11.6981
通稱	-11.6981
彼立	-11.6981
能觀	-11.6982
迷情	-11.6983
是故決定	-11.6983
四師	-11.6987
萬物皆	-11.6989
文殊問	-11.6991
涅槃亦爾	-11.6993
隨應	-11.6993
上已	-11.6994
論主既	-11.6996
而不去	-11.6996
序其	-11.6998
此直	-11.7002
聞見	-11.7008
與世	-11.7009
依前	-11.701
云何從	-11.7013
一切法不生	-11.7013
現世	-11.7016
色聲	-11.7016
一微	-11.7021
相待門	-11.7022
說般若	-11.7023
不可滅	-11.7025
迷真	-11.7025
竺法汰	-11.7028
非根境	-11.7028
假名方便	-11.703
已生生	-11.703
東晉	-11.703
攝大乘	-11.7031
不並	-11.7031
諸說	-11.7036
取意破	-11.7036
習果	-11.7041
以手	-11.7047
樂果	-11.7049
理同	-11.7049
定宗	-11.7054
眾義	-11.7054
帝釋	-11.7055
往來者	-11.7058
顛倒眾生	-11.7058
緣生性空	-11.706
汝破	-11.706
僧寶	-11.706
果成	-11.7063
各有體	-11.7063
著者	-11.7066
非無故	-11.7066
等分別	-11.7066
為因故	-11.7067
成山	-11.7067
是了因	-11.7069
漠	-11.7069
彼所取	-11.707
此應	-11.707
到彼	-11.7071
色可見	-11.7071
寧非	-11.7072
識滅	-11.7073
二諦相待	-11.7077
便非	-11.7077
先以	-11.7077
和合時	-11.708
三種中	-11.708
世間有邊	-11.7081
可令	-11.7082
巳滅	-11.7084
下至	-11.7085
不能令	-11.7085
今明二諦	-11.7086
菩薩乘	-11.7087
一時生	-11.7089
常無常義	-11.709
法自相	-11.7092
上根	-11.7092
惡業	-11.7093
問曰下第三	-11.7094
非虛	-11.7101
存乎	-11.7102
解脫因	-11.7103
其內	-11.7105
可領	-11.7105
橫生	-11.7107
復有異	-11.7109
顯矣	-11.7111
此二偈	-11.7118
諸法無自性	-11.7118
今始	-11.712
歸本	-11.7121
只以	-11.7123
得住	-11.7124
是作者	-11.7124
緣盡	-11.7125
無因邪因	-11.7128
後復	-11.7131
八十	-11.7132
為世	-11.7132
故須破	-11.7136
第二卷	-11.7136
如空華	-11.7139
其致一也	-11.7142
皆稱	-11.7142
何所論	-11.7143
明外人	-11.7148
定應	-11.7154
義亦同	-11.7155
無有去	-11.7156
如瓶等	-11.7159
為稱	-11.7159
影響	-11.7161
大數	-11.7162
以息	-11.7163
無所得也	-11.7165
牙相	-11.7165
畢竟無有	-11.7165
大菩提	-11.7166
一切分別	-11.7166
七品	-11.7168
四性	-11.717
二人俱無	-11.717
第二別	-11.717
破有為	-11.7179
相無相	-11.7181
運用	-11.7182
遯	-11.7183
有無兩	-11.7183
釋道安	-11.7184
強名相	-11.7187
令悟不	-11.7188
又並	-11.719
不似	-11.7192
聲聞法	-11.7194
作福	-11.7197
為了義	-11.7198
與舊	-11.7199
無縛解	-11.7204
解之	-11.7204
由因	-11.7207
無體破	-11.7212
無成壞	-11.7212
果即	-11.7216
遣之	-11.7217
分知	-11.7217
生義不成	-11.7219
湛	-11.7219
法報	-11.7221
因非因	-11.7224
何曾	-11.7225
如成實論	-11.7226
上辨	-11.7226
本寂	-11.7229
一義耳	-11.7229
經中言	-11.7229
解法	-11.7231
不得稱	-11.7231
由無故有	-11.7232
後釋下半	-11.7234
能盡	-11.7235
名正因	-11.7237
不能自有	-11.724
雖多	-11.724
若物	-11.7241
曾當	-11.7242
不借	-11.7242
王子	-11.7243
空無性	-11.7245
是俗義	-11.7249
了無	-11.725
陰相	-11.725
相違法	-11.7251
所明者	-11.7253
死者	-11.7253
日光	-11.7254
不能破	-11.7255
昔物住昔	-11.7256
真是俗	-11.7258
行業	-11.726
便墮	-11.7263
非聖	-11.7268
大乘觀行	-11.7269
破能破	-11.7269
若是無	-11.7271
答意	-11.7272
所願	-11.7274
亦與	-11.7275
為離	-11.7275
因而有	-11.7279
蒼	-11.728
無有方所	-11.7281
而興	-11.7282
同類因	-11.7283
非虗	-11.7287
之難也	-11.7287
非一時	-11.7289
美也	-11.7289
內外兩	-11.7289
後法	-11.7291
下半釋	-11.7294
名題	-11.7295
如是事	-11.7298
朽	-11.7298
破微塵	-11.7298
已有果	-11.7299
所以爾	-11.7299
法可說	-11.7301
一者就	-11.7301
大生生	-11.7303
邪說	-11.7304
小乘論	-11.7304
亦復非	-11.7309
若是中論	-11.731
破四緣生	-11.731
如來自體	-11.7312
或是	-11.7313
三時中	-11.7315
喻三乘	-11.7321
舉非緣決	-11.7323
伯	-11.7323
應是常	-11.7326
明其非有	-11.7326
本來不生	-11.7326
既通	-11.7329
㒵	-11.733
俱不說	-11.733
輔	-11.7333
知即	-11.7335
謂權智	-11.7336
譬如大	-11.7338
得報	-11.7339
有佛無佛	-11.7339
初結	-11.734
說有二諦	-11.734
小成	-11.7341
刃	-11.7342
兄	-11.7342
俱離	-11.7343
鬱	-11.7343
無未來	-11.7343
又由	-11.7343
說第一義	-11.7344
長為短	-11.7345
真諦絕假	-11.7345
為天	-11.7345
針	-11.7347
粗	-11.7347
魄	-11.7348
蟲	-11.7348
斧	-11.7349
幢	-11.7349
異處	-11.735
爛	-11.735
不得名為	-11.735
藥草	-11.735
既未有	-11.735
勇	-11.7351
旋嵐	-11.7352
舍主	-11.7352
苦陰	-11.7352
籠	-11.7352
三十四心	-11.7352
斗	-11.7352
熾盛	-11.7352
三十二相八十種好	-11.7353
既本有	-11.7353
毗婆沙	-11.7353
璣	-11.7353
正言似反	-11.7354
肩	-11.7354
怙	-11.7354
因及譬喻	-11.7354
妄知	-11.7354
誰當信者	-11.7354
奇特	-11.7354
前釋上半	-11.7354
炷	-11.7355
凡夫二乘	-11.7355
王弼	-11.7355
鏡像	-11.7355
窈	-11.7356
罷	-11.7356
二諦中	-11.7356
悠	-11.7357
於一時中	-11.7357
佛未出世	-11.7357
園林	-11.7357
梨	-11.7357
二來意者	-11.7357
軌轍	-11.7357
尸	-11.7358
由果有緣	-11.7359
有常樂我淨	-11.7359
候	-11.7359
缺	-11.736
緣起故不無	-11.736
鍊	-11.736
龜	-11.7361
辰	-11.7361
純陀	-11.7361
內外並冥	-11.7361
吹	-11.7361
不自不他	-11.7362
飾	-11.7362
訛	-11.7362
掩	-11.7362
輕薄	-11.7362
阿羅漢辟支佛	-11.7362
佇	-11.7363
無功	-11.7363
互為	-11.7364
混雜	-11.7364
研覈	-11.7364
補處	-11.7364
京	-11.7364
恚	-11.7364
入佛知見	-11.7364
於凡是有	-11.7364
斯過者	-11.7365
阿梨耶識	-11.7365
造論所由	-11.7365
養育	-11.7365
視聽	-11.7366
不生不滅是無常義	-11.7366
不知何因緣故空	-11.7366
俊	-11.7366
安穩	-11.7366
團	-11.7366
為可相	-11.7366
蘭	-11.7366
即實相	-11.7367
泥洹盡諦	-11.7367
八萬四千	-11.7367
聽之不聞	-11.7367
脩短	-11.7367
因不昔滅	-11.7367
拒	-11.7367
商	-11.7367
其性本空	-11.7367
二世有義	-11.7367
本護法菩薩釋三藏法師玄奘奉詔譯	-11.7367
構	-11.7367
叩	-11.7367
淵默	-11.7368
影闇	-11.7368
攻	-11.7368
孰能	-11.7368
疆	-11.7369
其中有精	-11.7369
鹿苑	-11.7369
譬如耶若達多	-11.7369
焦	-11.737
紐	-11.7371
七地巳上	-11.7371
森羅	-11.7371
從佛起	-11.7371
洗淨	-11.7371
危	-11.7371
是故此中	-11.7371
陸	-11.7371
省	-11.7371
窮理盡性	-11.7372
即動而靜	-11.7372
人柱	-11.7372
定慧之名	-11.7372
怗	-11.7372
完	-11.7372
未兆	-11.7372
擬議	-11.7372
以此而推	-11.7372
寂而常照	-11.7373
整	-11.7373
故滅身以歸無	-11.7373
非有非空	-11.7373
恐繁	-11.7373
境智義	-11.7374
疎而不漏	-11.7375
實如明詔	-11.7375
方外之	-11.7376
有作是	-11.7376
懼	-11.7376
此應思擇	-11.7376
生住異滅	-11.7376
栖	-11.7376
諸佛依二諦為眾生說法	-11.7376
丸	-11.7377
入菩薩位	-11.7377
男等相	-11.7377
郡	-11.7377
僻	-11.7377
如幻如化	-11.7377
念退	-11.7377
應而不為	-11.7377
迦夷	-11.7377
滋	-11.7377
剎利	-11.7378
念佛三昧	-11.7379
廁	-11.7379
道超名外	-11.7379
歌	-11.7379
得聲聞菩提	-11.738
末世鈍根	-11.738
惜	-11.738
明法	-11.738
上二界	-11.738
游刃	-11.7381
攝嶺	-11.7381
爻	-11.7381
無量中解一	-11.7381
性種性	-11.7381
闡	-11.7381
窮靈極數	-11.7381
無始已來	-11.7381
氣味	-11.7381
知與無知	-11.7381
是事亦不然	-11.7381
學士	-11.7382
萌	-11.7382
聖以之靈	-11.7382
如何可說	-11.7382
餘句	-11.7383
令知	-11.7383
此救	-11.7384
思擇	-11.7384
在於無	-11.7384
萬像	-11.7384
若是百論	-11.7384
毘曇人云	-11.7385
僧佉衛世	-11.7385
亦非是	-11.7385
所證之理	-11.7385
從體起用	-11.7385
必應	-11.7386
淺近	-11.7386
八聖道	-11.7386
成已復成	-11.7386
江南	-11.7386
九十六	-11.7387
憍尸迦	-11.7387
若色至識	-11.7387
精巧	-11.7387
如前已說	-11.7387
永息	-11.7387
今則無因待	-11.7388
無二之性	-11.7388
異亦無三	-11.7388
下第二別釋	-11.7389
能生觀智	-11.7389
不滯於無	-11.7389
已入	-11.7389
迦旃延子	-11.7389
一切皆非	-11.7389
無我無我所	-11.7389
三災	-11.7389
侔	-11.739
方名	-11.739
卷第六	-11.7391
幽旨	-11.7391
無有成	-11.7391
空不異色	-11.7391
不屬二乘	-11.7392
能如此	-11.7392
生死輪迴	-11.7392
八萬劫	-11.7393
三獸	-11.7393
寂然不動	-11.7393
雙彰	-11.7394
吉祥	-11.7394
四大造	-11.7396
唯有一諦	-11.7396
眾緣合時	-11.7396
金石	-11.7396
卷第五	-11.7396
是因是果	-11.7396
是假非真	-11.7396
雖動而常寂	-11.7396
此說畢竟	-11.7396
總持	-11.7399
親近	-11.7399
二者欲顯	-11.74
絕不絕	-11.7401
淨不淨顛倒	-11.7402
文字般若	-11.7402
因中先無果	-11.7402
餘並	-11.7402
是名世間第	-11.7402
非人非法	-11.7403
精麁	-11.7404
有異法	-11.7405
為聖說空	-11.7406
答亦有此義	-11.7406
如淨名	-11.7406
於一佛乘	-11.7407
玄機	-11.7407
未具足	-11.7408
生已亦有	-11.7409
中論四諦品	-11.7409
不敢自	-11.741
絕慮	-11.741
是則名為	-11.7411
實錄	-11.7411
行菩薩道	-11.7411
次一句	-11.7412
畢定	-11.7413
從果觀	-11.7413
復是一	-11.7413
求之不得	-11.7414
西天	-11.7415
問曰下第二救	-11.7416
言說因	-11.7417
鬼見	-11.7417
方便實慧	-11.7417
二十三	-11.7418
亦不從他生	-11.7419
善根人無	-11.742
安車	-11.7421
絕待大	-11.7421
世共知	-11.7423
從緣有	-11.7424
違於	-11.7424
▁初引經	-11.7425
下第四總結	-11.7426
而不可得	-11.7427
復得	-11.7427
以無因故	-11.7428
梵志曰	-11.7428
卷第一	-11.7428
待不待	-11.7428
違順	-11.7429
因過去時	-11.7429
不相關	-11.7429
有隱顯	-11.743
接引	-11.743
興世	-11.7431
方便說三	-11.7431
往來生死	-11.7432
從自體生	-11.7432
遣情	-11.7432
之語	-11.7433
佛婆伽婆	-11.7433
人法二空	-11.7435
彼識	-11.7436
一枝	-11.7436
無有知也	-11.7437
我所立義	-11.7438
四大種	-11.7439
苦是空	-11.7439
無礙解脫	-11.7441
名一切智	-11.7442
更起	-11.7443
兔角龜毛	-11.7445
捨生死	-11.7446
第二頭	-11.7446
若就勝義	-11.7447
彼言	-11.7447
含識	-11.7451
第一序	-11.7451
七覺	-11.7453
淺識	-11.7453
本性自空	-11.7454
如般若波羅蜜經中	-11.7454
所謂非無	-11.7455
有異人言	-11.7455
眼不見色	-11.7455
謂生死	-11.7455
然雖	-11.7456
通申	-11.7456
即是實性	-11.7457
入於涅槃	-11.7458
還同前	-11.7459
擊發	-11.7459
略出	-11.7459
於因	-11.746
注文	-11.746
受著	-11.7461
是故不得	-11.7461
信是	-11.7462
不能自起	-11.7463
本來自	-11.7463
廣示	-11.7464
國師	-11.7464
逆俗	-11.7466
終始	-11.7468
未圓	-11.7468
與有合	-11.7471
空即色	-11.7471
是義則不然	-11.7471
尋究	-11.7472
勤修	-11.7473
被斷	-11.7474
五戒	-11.7475
正受	-11.7476
和上	-11.7477
初正明	-11.7477
未亡	-11.7478
有所得大乘	-11.7478
三結成	-11.7479
戒取	-11.748
不見始	-11.7483
第二家	-11.7484
我能	-11.7484
法身父母	-11.7484
常沒	-11.7485
梁傳	-11.7485
我今說	-11.7486
二引證	-11.7487
豈復	-11.7491
是無所得	-11.7496
有法自相	-11.7496
從來云	-11.7497
實方便智	-11.7498
體位	-11.75
理奪破	-11.75
眾生之性	-11.7501
顯其	-11.7501
說曰	-11.7501
初禪	-11.7502
相傳云	-11.7503
住壽	-11.7504
數之	-11.7506
眼目	-11.7506
申佛教	-11.7507
違宗	-11.7507
為趣	-11.7507
可許	-11.7508
畢竟淨	-11.7512
當云何有	-11.7513
今此論	-11.7515
不得云	-11.7515
亦非作者	-11.7518
瓶非	-11.752
復次云何	-11.7522
妙之門	-11.7523
三才	-11.7524
理內外義	-11.7524
則易	-11.7525
諸法未曾	-11.7526
如來說法	-11.7527
迹身	-11.753
合譬	-11.7531
邪宗	-11.7533
不便	-11.7533
無果故	-11.7534
為次第	-11.7534
五情	-11.7534
人不知	-11.7535
摩訶衍論	-11.7537
有兩意	-11.7538
理必不	-11.7541
曾見	-11.7544
不可得而有	-11.7545
善心	-11.7546
冥一	-11.7547
佛寶	-11.7547
如來品	-11.7549
見在未來	-11.755
開道	-11.7551
學般若	-11.7552
尋文	-11.7554
不平等	-11.7554
為一類	-11.7554
眾分	-11.7557
豈唯	-11.7557
之玅	-11.7558
之正	-11.7558
元空	-11.7561
無縛無解	-11.7563
名一切種智	-11.7564
偈上半	-11.7564
三引證	-11.7565
第十二	-11.7565
二百年	-11.7566
神變	-11.7569
虗假	-11.7571
形現	-11.7571
於生死中	-11.7573
解二諦	-11.7573
乃成	-11.7574
脩善	-11.7574
諸極微	-11.7574
令人解	-11.7574
居後	-11.7574
如前釋之	-11.7576
四階	-11.7576
破神品	-11.758
處處皆	-11.758
垢心	-11.7581
具三義	-11.7581
寧言	-11.7581
為無知	-11.7583
之喻	-11.7587
光影	-11.7587
得佛時	-11.7589
阿僧祇劫	-11.7589
道通	-11.7593
牒彼	-11.7594
因感	-11.7595
此等皆	-11.7597
復有說	-11.7597
取空相	-11.7599
合不合	-11.7599
利物	-11.7601
法生時	-11.7602
無為無二	-11.7602
益眾生	-11.7602
成論等	-11.7604
眼異	-11.7605
不孤	-11.7605
餘緣	-11.7608
利益他	-11.7608
眾教	-11.761
故曰無知	-11.7612
無疑	-11.7612
手執	-11.7615
權實並	-11.7617
無所造	-11.7619
千萬	-11.7619
有無既	-11.7622
釋諦	-11.7622
在此	-11.7626
神常	-11.7627
大丈夫	-11.763
故說為	-11.7632
之一字	-11.7632
識其	-11.7634
形像	-11.7634
不記	-11.7635
不作法	-11.7637
知無我	-11.7637
宜當	-11.7638
與內	-11.7639
凡夫人	-11.764
答今明	-11.764
石女兒	-11.7641
餘方	-11.7643
如是正觀	-11.7644
無相違	-11.7645
名為果	-11.7646
如先偈	-11.765
至昔	-11.765
二種涅槃	-11.7655
冥然	-11.7655
凡情	-11.7655
體義	-11.7656
▁演	-11.7656
即無為	-11.7657
有餘無餘者	-11.7661
傍破	-11.7662
對邪	-11.7663
草木等	-11.7664
犢子計	-11.7664
為頂	-11.7665
五求破	-11.7667
或為	-11.7668
則非緣	-11.7668
便立	-11.7669
是故偈	-11.767
謂之涅槃	-11.7671
引教	-11.7671
縱奪	-11.7672
漠漠	-11.7672
諸因緣	-11.7673
陰體	-11.7674
緣於	-11.7674
為同喻	-11.7677
覺諦	-11.7677
五分	-11.7677
無僧寶	-11.7677
云何滅	-11.7678
一者上	-11.7678
淨行	-11.7679
之用也	-11.7679
目為	-11.7681
名為智慧	-11.7682
第三雙	-11.7683
用三去	-11.7687
何能生本生	-11.769
非謂是	-11.769
無所滅	-11.7691
已具	-11.7691
想謂	-11.7691
終歸	-11.7692
及至	-11.7692
當知有	-11.7695
既不立	-11.7698
虗而不	-11.7698
如似	-11.7698
有所知	-11.7699
有如是過	-11.7699
但欲	-11.77
摩訶衍經	-11.77
問龍樹	-11.7704
初句舉	-11.7704
如來所說	-11.7706
探	-11.7708
無我我所	-11.771
得人空	-11.7711
正翻	-11.7712
自此	-11.7712
深入	-11.7714
有時云	-11.7714
答既	-11.7715
則具	-11.7718
緣能生果	-11.7718
由斯	-11.7718
何但	-11.7721
二百	-11.7721
耳識	-11.7722
表非有	-11.7724
無常苦	-11.7724
解釋之	-11.7726
作義	-11.7727
一切諸佛	-11.7729
為了因	-11.773
上來諸	-11.7731
反難	-11.7733
即不去	-11.7734
正出	-11.7736
瓶亦應	-11.7737
難除	-11.7737
乃至識	-11.774
責迷	-11.774
牛相	-11.7743
火大	-11.7745
多體	-11.775
眾論	-11.7751
執心	-11.7754
五色	-11.7755
理數	-11.7755
一切眾生悉有	-11.7756
其能	-11.7757
修學	-11.7758
是斷見	-11.7759
天然	-11.7762
甘露法	-11.7765
而釋	-11.7772
譬如虛空	-11.7773
初引	-11.7773
為福	-11.7774
彼無體故	-11.7779
雜亂	-11.7779
以空有為世諦	-11.778
未作	-11.7781
不修	-11.7781
亦應自	-11.7782
性實生滅	-11.7782
為境界	-11.7782
是自然	-11.7785
過論主	-11.7787
處處有	-11.7787
水大	-11.7789
第二解	-11.7791
所許	-11.7791
又顯	-11.7793
論所明	-11.7794
為廣	-11.7796
圓相	-11.7796
成邪	-11.7797
證神	-11.7798
一切體	-11.7799
以苦	-11.7802
感報	-11.7803
故言不有有	-11.7803
本立	-11.7805
文有二義	-11.7805
三歸	-11.7806
無合義	-11.7807
有六家	-11.781
不傷	-11.7811
下半云	-11.7811
此可	-11.7816
有能破	-11.7818
亦在	-11.7818
覆相	-11.7821
不能取	-11.7822
汝向	-11.7822
如涅槃經	-11.7824
一年	-11.7824
第二縱破	-11.7825
即前云	-11.783
有見者	-11.7833
能以	-11.7838
又於	-11.7839
大集經	-11.784
已顯	-11.7845
等文	-11.7849
於苦	-11.7852
圓明	-11.7853
五住	-11.7853
變生	-11.7854
所說道理	-11.7855
在因中	-11.7855
凡有五	-11.7858
有二去	-11.7859
不知二諦	-11.7863
盡其理	-11.7867
如毘曇	-11.7867
多生	-11.7869
無去者	-11.787
故無自性	-11.7872
希有	-11.7873
般若波羅蜜中	-11.7874
有四難	-11.7875
五方便	-11.7877
則無常	-11.788
即解	-11.7881
須得	-11.7888
應修	-11.7889
內外並	-11.7892
不斷常	-11.7893
諸法實性	-11.7893
不收	-11.7894
今家	-11.7895
常靜	-11.7896
叡法師	-11.7898
一切因果	-11.79
兩體	-11.7903
乃至意	-11.7904
斷空	-11.7905
云何待	-11.7905
前序	-11.7906
非真非俗中道	-11.7906
施設故	-11.7907
接前	-11.7909
若合	-11.791
無故亦無	-11.7912
無二體	-11.7913
斷常二見	-11.7916
之想	-11.7916
滅滅	-11.7921
今亦不往	-11.7921
亦應得	-11.7924
問經中	-11.7925
釋通	-11.7926
曾無	-11.793
無作門	-11.7932
無諍	-11.7933
所依止	-11.7935
申大乘	-11.7936
得自在	-11.7938
緣而生	-11.7939
正用	-11.794
師宗	-11.794
多神	-11.7941
求涅槃	-11.7941
非淨	-11.7941
自性皆空	-11.7944
所生法	-11.7946
是滅相	-11.7947
覺苦樂	-11.795
離染	-11.795
舉例	-11.7952
發初	-11.7954
有二十	-11.7954
要因	-11.7961
十萬	-11.7962
為淺	-11.7964
無情	-11.7965
不應然	-11.7966
不應言無	-11.7968
聞法	-11.7968
能攝	-11.797
諸邪見	-11.7971
以智為	-11.7972
義釋之	-11.7972
此如是等	-11.7976
諸法是有	-11.7976
望之	-11.7977
此之謂	-11.7979
大法	-11.7981
生二智	-11.799
亦是有	-11.7991
出經論	-11.7996
今我	-11.7997
地位	-11.8001
欲辨	-11.8002
理雖	-11.8002
眾生佛性	-11.8003
機緣	-11.8003
但屬	-11.8005
心無者	-11.8007
宗論	-11.8009
波羅蜜多	-11.801
我已	-11.801
意樂	-11.8015
諸佛出世	-11.8018
之詞	-11.8019
問何故爾	-11.8023
得無上菩提	-11.8023
一切大乘經	-11.8029
復名	-11.8029
二智俱	-11.8029
體波若	-11.8031
具有四句	-11.8034
而實有	-11.8036
無吉	-11.8041
名大涅槃	-11.8042
中論序	-11.8043
作此問	-11.8044
極微等	-11.805
即是如來	-11.8051
以涅槃為	-11.8052
初地菩薩	-11.8053
未生位	-11.8053
甚可	-11.8057
大智論	-11.8058
已斷	-11.8058
持業	-11.8058
不可見故	-11.8058
終不能	-11.806
乃免	-11.8063
雖在	-11.8064
無解脫	-11.8067
其形	-11.8067
三者上	-11.8068
廣論	-11.8069
名為身	-11.807
餘可知	-11.8072
為自性	-11.8078
所欲義	-11.808
未來當	-11.8083
對二乘	-11.8083
今此文	-11.8084
說小	-11.8087
先敘	-11.8088
知覺	-11.8091
便言	-11.8095
故偏破	-11.8096
摩訶衍中	-11.8097
若捨	-11.8097
行化	-11.8098
若微塵	-11.8099
乃名為	-11.81
正道未曾	-11.8103
則無物	-11.8103
責相	-11.8104
唯遮	-11.8105
事盡	-11.8106
生成	-11.8106
俱不絕	-11.8107
是浮虛	-11.8109
無有定性	-11.811
別處	-11.8114
無作色	-11.8114
獨自	-11.8116
依二諦說	-11.8116
故說世諦	-11.8117
是因緣假名	-11.812
義如此	-11.812
品中說	-11.8125
此四論	-11.8131
無因法	-11.8132
法華明	-11.8134
已未生	-11.8135
說我無我	-11.8135
佛菩提	-11.8137
智光	-11.8138
內外法	-11.8138
有間	-11.8141
不觸	-11.8146
起過	-11.8148
又見	-11.8149
六種品	-11.8151
無性法	-11.8152
無餘者	-11.8154
有生相	-11.8154
今顯	-11.8154
故不別	-11.8155
而死	-11.8157
不可測	-11.8157
清淨者	-11.8159
其然矣	-11.816
感耶	-11.8161
前後破	-11.8161
外境	-11.8161
起貪	-11.8163
短者	-11.8163
誓願	-11.8164
為例	-11.8166
尋經	-11.8166
見無	-11.8166
通難	-11.8168
二者就	-11.8174
並同	-11.8175
淨心	-11.8177
今將	-11.8177
毒藥	-11.8178
之年	-11.8185
心有所	-11.8188
依勝義諦	-11.8189
有我所	-11.8189
說波若	-11.8189
此緣	-11.819
無有少法	-11.8191
尋此	-11.8192
云何可得	-11.8193
徵之	-11.8199
苦空	-11.8201
超四句	-11.8201
如上釋	-11.8204
今縱	-11.8205
是實法	-11.8209
邪教	-11.8211
師所說	-11.8212
智亦	-11.8214
釋言	-11.8216
有無之名	-11.8216
定實	-11.8217
又且	-11.8219
無為體	-11.8221
其後	-11.8222
通前	-11.8223
無明等	-11.8225
見取	-11.8225
無惑	-11.8226
名為波若	-11.8226
宗旨	-11.8228
終非	-11.8235
下半呵責	-11.8236
用何	-11.8236
謂真智	-11.8236
無餘涅槃者	-11.8237
然論	-11.8237
大乘宗	-11.8238
依中論	-11.8239
一向無	-11.8239
起種種	-11.8245
無為涅槃	-11.8245
亦義引	-11.8246
準此	-11.8248
是虛	-11.8252
萬世	-11.8252
假名字	-11.8256
無有顛倒	-11.8257
無二乘	-11.8259
能成立	-11.8265
非實無	-11.8265
我上	-11.8267
一切不生	-11.8268
常執	-11.8269
本無生	-11.8275
彼即無	-11.8276
能生本生	-11.8277
所離	-11.8278
有知也	-11.8279
而文	-11.8281
不中	-11.8282
有香	-11.8284
先定	-11.8287
或於	-11.8292
理無二	-11.8293
唯說	-11.8294
斥之	-11.8296
涉求	-11.8297
蓋言	-11.8297
上上	-11.8301
重說	-11.8302
開二關責	-11.8303
牛體	-11.8304
他心	-11.8306
若非有	-11.8306
為著	-11.8306
真諦義	-11.8307
能御	-11.8309
無所斷	-11.831
四節	-11.8312
三界繫	-11.8314
引出	-11.8316
如前破	-11.8316
自顯	-11.8317
因去法	-11.8319
此二智	-11.8323
瑤	-11.8327
為顯此	-11.8327
見真	-11.8332
本無義	-11.8333
入生死	-11.8334
續故不斷	-11.8335
亦不破	-11.8335
以明空	-11.8335
緣發	-11.8335
當破	-11.8337
言方	-11.8338
受假	-11.8341
乘義	-11.8341
為同	-11.8342
此有二	-11.8343
著心	-11.8343
領解	-11.8345
明俗	-11.8346
心境俱	-11.8348
上二句	-11.8351
歸空	-11.8355
不泯	-11.8356
因無故	-11.8358
尋求	-11.836
無作用	-11.8361
見滅	-11.8369
體無體	-11.837
之所歸	-11.8371
不滅不化	-11.8376
復何為	-11.8379
興難	-11.8382
門人	-11.8382
復無	-11.8383
或在	-11.8389
煩惱業	-11.8391
一釋名	-11.8397
無生理	-11.8402
未曾是	-11.8405
經論意	-11.8406
以無為為	-11.8406
不依於	-11.8407
應不名	-11.8408
神名	-11.841
體一故	-11.8412
法住法位	-11.8413
造業	-11.8416
悟不二	-11.8421
半滿	-11.8422
未識	-11.8425
豪	-11.8426
漏無漏	-11.8428
扶生	-11.8431
肯	-11.8432
場	-11.8432
細微	-11.8435
關也	-11.8436
他苦	-11.8437
農	-11.8437
刧	-11.8439
體悟	-11.8439
晝	-11.8439
八萬	-11.844
聖知	-11.8441
取外意	-11.8442
方等經	-11.8443
亦不住	-11.8444
軍林	-11.8444
覺非神相	-11.8445
緣所不能生	-11.8446
佛性耶	-11.8447
賞	-11.8447
道種慧	-11.8448
顏	-11.8448
展轉相	-11.8448
三類	-11.8449
夜半	-11.8449
蘇摩	-11.8449
赤縣	-11.8451
嗣	-11.8452
二言未始一	-11.8452
初二因微	-11.8453
區	-11.8453
因中先無	-11.8455
盛行天竺	-11.8456
若為是	-11.8458
盧	-11.8458
頹	-11.8458
司	-11.8459
欺	-11.8459
殿	-11.846
左見右識	-11.846
眠	-11.846
少踐大方	-11.8461
臭	-11.8461
迄	-11.8462
方始	-11.8463
誕	-11.8463
唐譯	-11.8463
大唐中印度三藏波羅頗蜜多羅譯	-11.8463
小頓悟	-11.8463
破如可破	-11.8463
僕	-11.8464
紫	-11.8464
䨱	-11.8464
彥	-11.8464
不二是	-11.8465
於凡是諦	-11.8465
歸于無二	-11.8465
忍辱	-11.8466
爾雅	-11.8466
能燒所燒	-11.8466
躍	-11.8467
不應言有	-11.8467
譬如色	-11.8467
翰	-11.8467
體之即神	-11.8467
一念之力權慧具矣	-11.8468
富樓那	-11.8468
一切智一切種智	-11.8469
數緣盡	-11.8469
虫	-11.8469
無道無果	-11.8469
為患	-11.847
壤	-11.847
無在無不在	-11.847
應物現形	-11.847
周旋	-11.847
草堂	-11.847
抗	-11.847
宏	-11.847
十八不共法	-11.8471
陀羅尼	-11.8471
秤之為	-11.8471
何位	-11.8471
霄	-11.8471
諮	-11.8472
肥	-11.8472
江河競注而不流	-11.8472
夾	-11.8473
乾慧地	-11.8473
姚主	-11.8473
樓	-11.8473
郭注云	-11.8473
問曰下生第二	-11.8473
盤	-11.8473
非推之使無	-11.8474
能表之教	-11.8474
惻	-11.8474
交謝	-11.8474
瞽	-11.8474
茂	-11.8474
謀	-11.8474
內執	-11.8475
門一偈	-11.8475
鳧	-11.8475
芻	-11.8475
知無所遺	-11.8475
銷	-11.8475
視聽之所不暨	-11.8476
逵	-11.8476
西國	-11.8476
大品經三慧品	-11.8476
稽首	-11.8476
宿命	-11.8476
復次經部師言	-11.8476
本自有之	-11.8476
亦是假	-11.8477
四空之所昏昧	-11.8477
即能涉有	-11.8477
彩	-11.8477
鎖	-11.8477
琰	-11.8477
囊括	-11.8477
秪	-11.8477
翻上	-11.8477
玩	-11.8478
實而不有	-11.8478
古譯	-11.8478
捨有入無	-11.8478
不釋動以求靜	-11.8478
今無依無得宗	-11.8478
有券	-11.8478
騁	-11.8478
亦為遮空所對治	-11.8479
各各不相知	-11.8479
既曰古今	-11.8479
尾	-11.8479
正同	-11.8479
四無所畏	-11.8479
飢	-11.8479
如何可言	-11.848
不受亦不受	-11.848
似不似	-11.848
杜口	-11.848
世與第一	-11.848
可施設	-11.848
永嘉	-11.848
感而後應	-11.848
均天人	-11.848
寂滅為樂	-11.848
離四句百非	-11.848
哀哉	-11.848
九流於是乎交歸	-11.8481
亦破亦收	-11.8481
不非物於物	-11.8481
於聖非諦	-11.8481
於世人為實	-11.8482
雖無而非無	-11.8482
廣雅云	-11.8482
至功常存	-11.8482
竺道生	-11.8482
照不失虛	-11.8482
由如此義	-11.8482
驚怖	-11.8482
杌	-11.8482
顛倒謂有	-11.8482
安公	-11.8483
湛寂	-11.8483
力士	-11.8483
叡公	-11.8483
又示	-11.8483
頭陀	-11.8483
會不失機	-11.8483
去亦無所至	-11.8484
去無所至	-11.8484
塔	-11.8484
丁	-11.8484
可以神會	-11.8484
目對真而莫覺	-11.8484
生生生時	-11.8484
天而不周	-11.8485
是法還成待	-11.8485
倦	-11.8486
如我立義	-11.8486
碑	-11.8486
與義相違	-11.8486
因而不施	-11.8486
黑疊	-11.8486
有名有實	-11.8486
鎔	-11.8486
不常亦不斷	-11.8486
推移	-11.8486
大分深義	-11.8487
經稱有餘涅槃	-11.8487
寂即用	-11.8487
雖往而常靜	-11.8487
竊	-11.8487
戢	-11.8487
極勇猛	-11.8487
㝡	-11.8487
乞求者	-11.8488
維	-11.8488
鎮	-11.8488
何以故下第三釋	-11.8488
所遇而順適	-11.8488
交絡	-11.8488
故曰動而非靜	-11.8488
藍	-11.8488
呂光	-11.8488
四大造色	-11.8488
怳	-11.8488
躊躇	-11.8488
熾然	-11.8489
故契經說	-11.8489
正使盡	-11.8489
僧肇言	-11.8489
眼耳等諸根	-11.8489
去無所去	-11.849
假不生假不滅	-11.849
窅	-11.849
借異破	-11.849
生相不能生	-11.849
非不能非	-11.849
中道發生正觀	-11.849
六神通	-11.8491
神無慮	-11.8491
入滅定	-11.8491
然則涅槃之道	-11.8491
空於聖實	-11.8491
出世無分別智	-11.8492
亦常亦無常	-11.8492
出生入死	-11.8492
任持	-11.8492
善巧方便	-11.8492
徒眾	-11.8492
有非真生	-11.8492
燈能自照	-11.8492
彌綸	-11.8492
謝過去	-11.8492
佳	-11.8492
踐	-11.8493
照而常寂	-11.8493
他有有可有	-11.8493
作種種	-11.8493
物莫之有	-11.8493
達磨	-11.8493
俯仰順化	-11.8493
物莫能一	-11.8493
眩	-11.8493
呪術	-11.8494
若法有待成	-11.8494
靈味	-11.8494
數以應之	-11.8494
諸國	-11.8494
修觀行者	-11.8494
敬三寶	-11.8495
辨有無	-11.8496
以此推之	-11.8496
不遷當俗	-11.8496
如來身者	-11.8496
有名無實	-11.8496
不知之知	-11.8496
不遷而遷	-11.8496
能詮所詮	-11.8496
生長	-11.8496
光梵大師賜紫沙門臣惟淨等奉詔譯	-11.8497
褒	-11.8497
員	-11.8497
初發心菩薩	-11.8498
象非真象	-11.8498
四依出世	-11.8498
色不異空	-11.8499
瓶與有	-11.8499
諸數	-11.8499
下智觀	-11.8499
偏釋	-11.8499
耶若達多	-11.85
今亦不滅	-11.85
若生是無為	-11.8501
下第二解釋	-11.8501
受想行識亦復如是	-11.8501
外人品初	-11.8501
去時亦無去	-11.8502
無名之道	-11.8502
鞞世師等	-11.8502
義中說	-11.8502
胡本	-11.8502
本性無生	-11.8503
不攝瓶	-11.8503
以其不動	-11.8503
肇公不遷	-11.8503
心想都滅	-11.8503
觀照般若	-11.8503
七星	-11.8503
有所住	-11.8503
大智論云	-11.8504
性淨涅槃	-11.8504
星紀	-11.8504
今大乘意	-11.8504
絕於靈照	-11.8504
譚	-11.8504
無是無當	-11.8505
同歸一乘	-11.8505
恐外人云	-11.8505
又汝所言	-11.8506
不一亦不異	-11.8506
詔	-11.8506
形勢	-11.8506
今此一章	-11.8507
但遮	-11.8507
外人便謂	-11.8508
皆上句	-11.8508
功高	-11.8508
製作	-11.8509
晉書	-11.851
被縛	-11.851
無三說三	-11.851
非無物也	-11.851
不欲爾	-11.8511
應物之假名耳	-11.8511
所言空者	-11.8511
靜慮	-11.8511
8	-11.8511
不即不離	-11.8511
相分	-11.8511
受多瓶	-11.8512
s	-11.8512
與思合	-11.8512
理智不二	-11.8512
忘懷用	-11.8513
甲辰歲高麗國大藏都監奉𠡠彫造	-11.8513
皆非真實	-11.8514
擇滅無為	-11.8514
譬如空華	-11.8514
何以故下第二釋	-11.8515
還源	-11.8515
聞畢竟空如刀傷	-11.8516
久習	-11.8516
緣會性空	-11.8517
相與而有	-11.8518
三約	-11.8518
白日	-11.8518
不能避	-11.8518
兩果	-11.8519
相似相續	-11.8519
何能生果	-11.8519
彼五陰	-11.852
但有假名	-11.852
維摩詰言	-11.8521
如涅槃法性	-11.8521
初敘計	-11.8522
不由無故有	-11.8522
應如現在	-11.8522
能見所見	-11.8522
四句並	-11.8522
真如法性	-11.8522
論主答云	-11.8522
次釋下半	-11.8522
有為法空故	-11.8522
不識二諦	-11.8523
百王	-11.8523
尋本	-11.8523
眾生無佛性	-11.8523
瓶與有合	-11.8523
比度	-11.8524
劫奪	-11.8524
明淨	-11.8524
利他樂	-11.8525
能障	-11.8526
雜心云	-11.8527
申明二諦	-11.8527
其義亦然	-11.8528
不聞其	-11.8528
令他	-11.8529
學大乘人	-11.8529
二諦為教	-11.853
悟入無為	-11.853
運轉	-11.853
說於佛性	-11.853
更無第三	-11.8531
審觀察	-11.8531
起心	-11.8531
無一法為說	-11.8532
下第二次破	-11.8533
乖違	-11.8536
所知障	-11.8536
第二節	-11.8537
自執	-11.8537
虛妄人法	-11.8537
如來無處所	-11.8538
斷煩惱障	-11.8538
不矜	-11.8538
學毘曇	-11.8538
實無所破	-11.8539
一者外道	-11.854
色無色界	-11.8541
遍常	-11.8542
與瓶合	-11.8542
此云覺	-11.8543
不善業	-11.8545
是我家	-11.8546
不肯	-11.8546
正念	-11.8546
居處	-11.8549
須廢	-11.8551
▁二引證	-11.8551
以無生故	-11.8552
尋夫	-11.8553
不空假	-11.8554
諸功德	-11.8555
四大和合	-11.8555
科文	-11.8556
此如是義	-11.8556
未生是有	-11.8557
二諦相即義	-11.8557
一切經	-11.8558
非擇滅	-11.8559
非有知也	-11.856
第二釋名	-11.8561
又難	-11.8561
前已具	-11.8561
更無有法	-11.8561
眾家	-11.8562
世間無邊	-11.8563
龍光云	-11.8563
自在所作	-11.8563
中論涅槃品	-11.8564
通達大乘	-11.8565
然般若	-11.8567
諸惡見	-11.8567
為止	-11.8568
始終俱	-11.8569
涅槃非有	-11.857
如前偈說	-11.8571
狂言	-11.8571
於薪	-11.8572
無量義經	-11.8573
毘曇成實	-11.8574
無心而	-11.8574
暫時	-11.8574
不相至	-11.8576
無動轉者	-11.8577
不得法空	-11.8577
此是般若波羅蜜	-11.8577
泥洹智	-11.8577
成實師云	-11.8579
云何乃言	-11.858
法身佛	-11.858
法性實相	-11.8581
更增	-11.8581
第四家	-11.8581
所說亦然	-11.8582
尚不可得	-11.8583
配之	-11.8583
為遣	-11.8583
非眼所見	-11.8584
文似	-11.8586
有少法	-11.8586
第三云	-11.8587
今此所說	-11.8588
正因緣	-11.859
不增	-11.8593
滅諸戲論	-11.8593
果位	-11.8594
胎生	-11.8595
且夫	-11.8595
如提婆達多	-11.8595
萬動	-11.8596
後三句	-11.8596
外人救義	-11.8596
大臣	-11.8596
如此之人	-11.8597
有為空故	-11.8597
不死	-11.8597
離過	-11.8597
師子吼文	-11.8597
則是中道	-11.86
上敘	-11.86
問何意	-11.86
所謂非有	-11.8602
同一味	-11.8603
二乘凡夫	-11.8604
偈意如	-11.8604
自相住	-11.8604
初偈上半牒	-11.8606
此之二諦	-11.8606
唐言	-11.8607
玄寂	-11.8609
大千	-11.8609
答曰下第二	-11.861
何等過	-11.861
而不取相	-11.8611
複義	-11.8612
如外道	-11.8612
勝德	-11.8613
權實不二	-11.8614
仁義	-11.8614
不念	-11.8615
得如是過	-11.8615
言無因果	-11.8616
是惡	-11.8617
無名無相	-11.8618
假名相	-11.8619
真諦之理	-11.8621
極難	-11.8622
求不可得	-11.8623
引類	-11.8623
隨類	-11.8624
四假	-11.8624
且置	-11.8625
虛妄顛倒	-11.8626
此歎	-11.8626
今何故復	-11.8627
次三偈	-11.8628
邪智	-11.8628
名此為	-11.8629
因為因緣	-11.8631
所行之道	-11.8631
終古	-11.8632
清淨無知	-11.8633
偏舉	-11.8635
有四重	-11.8637
曰希	-11.8637
初中三	-11.8638
有故有	-11.8638
何曾是	-11.8639
是物	-11.864
若一時生	-11.8643
謂內	-11.8645
謂一切法	-11.8645
之見也	-11.8647
詰難	-11.8647
縛所縛	-11.8648
等亦爾	-11.8649
初際	-11.8651
生住滅相	-11.8651
暗中	-11.8652
釋論中	-11.8653
性執	-11.8654
道體	-11.8656
無現見	-11.8657
都滅	-11.8658
又外人	-11.8659
照了	-11.8659
雖別	-11.866
定不定	-11.866
有無二教	-11.8661
圓教	-11.8663
不證空	-11.8663
則能所	-11.8663
唯應	-11.8665
為著有	-11.8665
離已去未去	-11.8666
所指	-11.8667
皆隨	-11.8668
上難云	-11.8669
五番	-11.867
即以此	-11.867
作此語	-11.8671
前約	-11.8673
若不生者	-11.8674
必具	-11.8674
自在天作	-11.8674
自部	-11.8676
大判	-11.8678
為上	-11.8678
縷等	-11.8679
亦非道理	-11.8685
照也	-11.8686
皆虛	-11.8687
成就眾生	-11.8687
從緣而生	-11.8687
為總相	-11.8688
有入無	-11.869
非我無我	-11.8691
無量一	-11.8691
悟入實相	-11.8691
不待餘	-11.8691
所以無	-11.8692
方便淨	-11.8692
種種不同	-11.8693
為眼所見	-11.8694
運載	-11.8694
無生滅觀	-11.8696
契合	-11.8696
照世	-11.8704
二禪	-11.8705
所染	-11.8706
三俱	-11.8706
錯解	-11.8711
說文云	-11.8712
正思惟	-11.8712
第二段	-11.8713
當學般若	-11.8714
解脫樂	-11.8715
聖人無心	-11.8715
問論主何故	-11.8716
如所說過	-11.8717
常照	-11.8718
若法自體	-11.872
迷故	-11.8724
今對此	-11.8725
成邪見	-11.8726
破內學	-11.8727
不能到	-11.8728
非陰相	-11.8728
無名之	-11.8728
師說不同	-11.8729
往昔	-11.8729
答具有二	-11.873
境寂	-11.8732
聞慧	-11.8732
正就	-11.8733
共利	-11.8734
又數論	-11.8734
著欲	-11.8735
不相因待	-11.8735
竝為	-11.8737
此有何過	-11.8739
以眾生為正因	-11.8741
足以	-11.8741
則應常	-11.8742
彼此俱	-11.8742
於無常	-11.8743
見惑	-11.8743
如來法身	-11.8745
莊嚴明	-11.875
何故云	-11.8751
已了	-11.8751
不須相	-11.8751
小異	-11.8753
述成	-11.8756
眾生作佛	-11.8757
此說即是	-11.8758
以燈	-11.8759
而有所成	-11.8761
障道	-11.8764
無暗	-11.8765
俱盡	-11.8766
能申	-11.8766
亦復非無	-11.8767
他緣	-11.8767
一切皆破	-11.8767
悟時	-11.8769
內凡夫	-11.8769
大夢	-11.877
有差	-11.8772
故不見佛性	-11.8772
是能化	-11.8775
靈知	-11.8777
因不生果	-11.8778
生我見	-11.8779
前後相生	-11.8779
面折	-11.8782
能至	-11.8783
前滅	-11.8783
五趣	-11.8785
至虗	-11.8786
是實智	-11.8786
前牒	-11.8787
七住	-11.8787
生愛	-11.8787
無礙智	-11.8788
明感應	-11.8791
妄識	-11.8791
世間現見故	-11.8791
八輩	-11.8792
所招	-11.8792
有而言無	-11.8794
上半牒而	-11.8794
是不可思議	-11.8797
不能生果	-11.8798
俗人	-11.8801
後破法	-11.8802
差也	-11.8802
上已明	-11.8803
略也	-11.8803
文借	-11.8808
皆能	-11.8808
入道之	-11.881
有不異故	-11.881
諸法無我	-11.881
宗因喻	-11.8811
卷下	-11.8812
俗非真	-11.8812
不得自在	-11.8812
無字	-11.8813
即違	-11.8814
通一切法	-11.8815
捲異	-11.8816
非有非無假說有	-11.8816
中假師	-11.8817
明二諦是教	-11.8819
覺相	-11.8819
名得解脫	-11.882
顯外人	-11.8822
說八不	-11.8825
行中道	-11.8825
正法涅槃	-11.8826
不礙於	-11.8826
其神	-11.8826
因不滅	-11.8827
成論人	-11.8828
斷習氣	-11.8828
既多	-11.883
說善行	-11.8832
無所緣	-11.8832
非關	-11.8832
法位	-11.8832
上卷	-11.8833
唯知	-11.8834
前生後	-11.8836
安法師	-11.8838
故楞伽	-11.8839
中道種子	-11.8839
為緣因	-11.884
解大乘	-11.8843
分為三	-11.8846
形質	-11.8848
無由得	-11.8853
有無相違	-11.8854
成有所得	-11.8856
成實云	-11.8857
今縱有	-11.8858
此三句	-11.886
疑惑	-11.8862
二諦異體	-11.8862
其要	-11.8863
前辨	-11.8868
罪過	-11.8869
五時教	-11.887
滅定	-11.8871
無行解	-11.8871
盡諦	-11.8872
非但無	-11.8873
死時	-11.8875
是有邊	-11.8883
百論破	-11.8883
在色	-11.8883
後見	-11.8884
緣境	-11.8885
單明	-11.8885
第三門	-11.8887
是法體	-11.8887
無有少法可	-11.8891
如海	-11.8896
為作者	-11.8896
便無有	-11.8899
不害	-11.89
曰無餘	-11.89
向無	-11.8903
所不及	-11.8903
如彼所說	-11.8905
弘誓	-11.8906
正可	-11.8913
所作性	-11.8914
一識	-11.8914
墮於斷	-11.8917
我所有	-11.8919
遣其	-11.8925
真不真	-11.8926
內空	-11.8929
阿毘曇中	-11.8931
無階級	-11.8931
過半	-11.8932
墮二邊	-11.894
二聽	-11.8946
不食	-11.8948
初偈上半	-11.8949
中先有	-11.895
自意	-11.8953
當止遣	-11.8957
眾具	-11.8957
▁折	-11.8959
於遷	-11.896
所緣法	-11.8964
諸分別	-11.8965
並皆是	-11.8972
開三門	-11.8972
可指示	-11.8973
無想	-11.8973
乃至一切智	-11.8973
非遍	-11.8974
六家	-11.8975
明不生不滅	-11.8975
由上	-11.8976
既遍	-11.8976
不名過去	-11.8979
故作此說	-11.8984
己體	-11.8985
若便	-11.8985
今略明	-11.8987
凡有十	-11.8989
親生	-11.8991
必應有	-11.8994
有身智	-11.8996
證解脫	-11.8997
平等不二	-11.8998
現緣	-11.8998
望後	-11.8999
然此三	-11.9
兼明	-11.9001
相相之	-11.9003
小乘明	-11.9005
斷常過	-11.9005
諸法非有非無	-11.9008
通理	-11.901
復謂	-11.901
強為	-11.901
見如來	-11.901
正涅槃	-11.9014
三相品	-11.9016
常無常二	-11.9017
果滿	-11.9017
曰道	-11.9018
巳來	-11.9021
改轉	-11.9022
邪道	-11.9024
放光經	-11.9025
所惑	-11.9025
安處	-11.9026
迷申	-11.903
即一切法	-11.903
可見有對	-11.9031
因因者	-11.9032
難思	-11.9033
之樂	-11.9033
依觸	-11.9035
斷善根	-11.9035
當分	-11.9042
第三節	-11.9044
如泥團	-11.9047
順中論	-11.9048
四根	-11.905
上忍	-11.905
正應	-11.9053
將何	-11.9053
不得言有	-11.9054
肉眼	-11.9058
不定破	-11.906
齊法	-11.9062
時滅	-11.9063
受定	-11.9071
若涅槃	-11.9071
猶若	-11.9073
不二中道	-11.9074
即不可得	-11.9074
一切境界	-11.9078
一論之	-11.9079
同一異	-11.9081
即菩提	-11.9087
常無常異	-11.909
而不通	-11.9092
亦捨	-11.9093
故不相違	-11.9093
一切法中	-11.9093
自體空故	-11.9094
相離性	-11.9095
所了知	-11.9095
去及	-11.9096
勝用	-11.9098
是何義	-11.9099
罪福報應	-11.9103
得勝	-11.911
有因故	-11.9111
自敘	-11.9112
下四句	-11.9113
問何故就	-11.9114
表示	-11.9119
直至	-11.9122
母生子	-11.9127
今須	-11.9127
自寂	-11.9128
一豪	-11.9128
三乘教	-11.9129
不和合故	-11.9132
形聲	-11.9138
無初中後	-11.9139
有異故	-11.914
不即真	-11.914
內經	-11.9143
毘曇明	-11.9144
有性無性	-11.9145
但據	-11.9146
頗有	-11.9149
三十一	-11.9151
非常住	-11.9153
牒經	-11.9159
以生為	-11.9162
若如是說	-11.9167
設使	-11.9169
有無二邊	-11.9169
無樂	-11.917
則乖	-11.9174
九住	-11.9174
以用也	-11.9176
謂之為	-11.9177
有二破	-11.9179
取定	-11.9182
不須破	-11.9183
願見	-11.9186
俱舍	-11.9186
不可解	-11.9187
無罪	-11.919
為始有	-11.9191
能現	-11.9191
悉應	-11.9193
大經師子吼	-11.9198
何等法	-11.9201
觀音	-11.9203
名為作者	-11.9203
或因	-11.9203
業體	-11.9204
無所依故	-11.9204
為來	-11.9205
為他說	-11.9207
不能了	-11.9208
一乘體	-11.9212
理絕	-11.9213
因非一向	-11.9213
斯人	-11.9214
六品	-11.9217
已壞	-11.9219
是相待假	-11.922
中已說	-11.922
許極微	-11.9226
惡法	-11.9227
說偈	-11.9228
眾中	-11.9231
實句	-11.9236
唯有二	-11.9236
不能成	-11.9237
有二分	-11.9239
多人	-11.9242
破一異	-11.9243
或言無	-11.9243
本不有	-11.9248
不說法	-11.9249
利鈍	-11.9255
三乘通教	-11.9259
推究	-11.9264
云何更	-11.9265
無之無	-11.9265
能起果	-11.9267
顛倒過	-11.9268
八相	-11.927
過去果	-11.9271
下生第二	-11.9271
真非緣	-11.9271
無因而有	-11.9272
答其	-11.9272
皆歸	-11.9275
權義	-11.9275
報果	-11.9276
地持	-11.9279
遮我	-11.9282
慧觀	-11.9282
此三門	-11.9287
得旨	-11.9291
永異	-11.9292
王宮	-11.9302
探大	-11.9302
意欲令	-11.9303
見始	-11.9305
諸緣生	-11.9308
不散	-11.9309
不離斷常	-11.9314
彼調達	-11.9314
生故生	-11.9316
有之空	-11.9316
曰無知	-11.9318
波若波羅蜜	-11.9319
如日	-11.9319
述之	-11.932
人牛	-11.9322
各體	-11.9323
度人	-11.9324
說其過	-11.9326
數云	-11.9327
緣而起	-11.9328
應可見	-11.9329
亦各	-11.9331
他方	-11.9332
無所為	-11.9334
成中道	-11.9336
有所著	-11.9337
共和合	-11.9337
答經云	-11.9339
真實法	-11.9339
此七	-11.934
重牒	-11.9344
了二諦	-11.9345
兩緣	-11.9349
里	-11.9349
於夢	-11.9349
無本無始	-11.935
譬如餘	-11.9353
向下	-11.9355
破有見	-11.9356
前列	-11.9357
絕有無	-11.9363
能善	-11.9365
第二正破	-11.9367
倒見	-11.9368
各有一	-11.9368
如盲	-11.9371
外道邪	-11.9371
得到	-11.9372
數等	-11.9372
雖以	-11.9373
如風	-11.9373
開三乘	-11.9375
見量	-11.9377
本無名	-11.9377
毘曇人	-11.9378
水等	-11.9385
曰神	-11.9387
迷理	-11.9387
四處	-11.9389
論主自	-11.9391
無動無	-11.9395
故名為一	-11.9397
於佛地	-11.9402
只說	-11.9402
二章門	-11.9403
得阿羅漢	-11.9404
下半就	-11.9405
有支	-11.9406
能迷	-11.9406
若別有	-11.9406
破內外	-11.941
俱寂	-11.9411
反釋	-11.9412
可觀	-11.9412
婆伽婆說	-11.9413
名之為實	-11.9415
妙慧	-11.9417
屬何	-11.9423
亦因亦果	-11.9426
無有生滅	-11.9429
真智無知	-11.9429
且依	-11.943
為易	-11.9431
有能受	-11.9432
者牒外義	-11.9432
緣慮	-11.9435
不假緣	-11.9441
並是方便	-11.9441
藉因	-11.9444
有三分	-11.9444
不須復	-11.9445
可得有	-11.9446
自證	-11.9447
亦無自性	-11.9452
名為境	-11.9454
為源	-11.9457
有同有	-11.9462
是常見	-11.9463
反為	-11.9465
主諦	-11.9467
約事	-11.9467
謂凡夫	-11.9468
顯無生	-11.9478
同疑	-11.9478
則有過	-11.9478
不圓	-11.9481
方處	-11.9483
無聽	-11.9486
未除	-11.9486
證入	-11.9489
先約	-11.9495
眾德	-11.9499
方便力	-11.95
雖有三	-11.9506
名數	-11.9506
毘曇云	-11.9507
巳知	-11.9509
入觀	-11.951
劫數	-11.9512
未及	-11.9516
表不有	-11.9517
於一切處	-11.9517
體是無常	-11.9518
聲聞等	-11.9518
說惡止	-11.9524
實相境	-11.9525
有無非有非無	-11.9525
如是有故	-11.9525
上地	-11.9526
等諸緣	-11.9531
所譯	-11.9532
雖盡	-11.9533
是教門	-11.9534
彼生法	-11.9538
何得以	-11.9539
見實相	-11.9541
緣中無	-11.9542
復以何	-11.9545
法印	-11.9547
初依	-11.9548
能聞	-11.9551
大集	-11.956
所持	-11.9566
明波若無知	-11.9569
如汝所	-11.9572
樂欲	-11.9575
玄悟	-11.9577
近生者	-11.9577
一柱	-11.9578
後舟	-11.958
辦	-11.9588
先已遮	-11.9592
不須更	-11.9597
無理不	-11.9598
味觸	-11.9599
既形	-11.9604
不能測	-11.9605
既顯	-11.9608
滅法人	-11.9609
失因緣	-11.9609
以色為	-11.9612
能遣	-11.9612
二鳥	-11.9613
表文	-11.962
還屬	-11.9623
其所見	-11.9623
復次毘婆沙	-11.9625
有起者	-11.9627
摩訶般若	-11.9629
先滅	-11.9632
俗非諦	-11.9633
作相違	-11.9634
有此法	-11.9636
具此二	-11.9638
無有是事	-11.964
因自體	-11.9641
互相違	-11.9645
莫非	-11.9647
能所見	-11.9652
理外無	-11.9653
大功德	-11.9656
明人法	-11.9657
逈破	-11.966
故偏引	-11.9664
畜	-11.9672
無漏慧	-11.9675
有一瓶	-11.9675
中已遮	-11.9676
一切有所得	-11.9676
以大悲	-11.9676
能開	-11.9677
墮淚	-11.9679
三法一體	-11.968
僧肇	-11.9684
動出	-11.9685
吳	-11.9687
有為法體	-11.9691
諸法畢竟空	-11.9692
智滅	-11.9692
十說	-11.9694
瓔珞經	-11.9694
同根	-11.9694
畢竟空寂	-11.9696
理事不二	-11.9697
彼地等	-11.9697
垂文作則	-11.9697
令其悟	-11.9699
相依	-11.9699
士聞道	-11.97
極遠	-11.97
踟	-11.9701
興皇	-11.9701
汙	-11.9701
璿璣	-11.9702
非真非應	-11.9703
各性住於一世	-11.9703
劉遺民	-11.9703
憙	-11.9703
規	-11.9705
電卷	-11.9705
开	-11.9705
無師智	-11.9705
知其不去	-11.9706
夕	-11.9707
何不用耳見	-11.9707
誘	-11.9707
而有而無為假	-11.9708
故不應執	-11.9708
諸方	-11.9708
各住自位	-11.9708
七十七	-11.9708
園	-11.9709
嗅	-11.971
與道通洞	-11.971
十住論	-11.9711
未窮	-11.9711
貴賤	-11.9711
道與神會	-11.9711
闡提有	-11.9712
巾	-11.9712
綿	-11.9713
交徹	-11.9713
銅	-11.9713
毒虫	-11.9713
必有所	-11.9713
讀之	-11.9714
甫	-11.9714
今而無古	-11.9714
相續生	-11.9714
反擲	-11.9715
觀門次第	-11.9715
曇摩	-11.9715
戰	-11.9715
瑣	-11.9715
剃	-11.9716
優婆掘多	-11.9716
則寂照之名	-11.9716
由有故無	-11.9716
但前	-11.9716
襲	-11.9716
逗	-11.9716
不離六法	-11.9716
啞	-11.9716
伊	-11.9717
下句反此	-11.9717
不疾而疾	-11.9717
懷德者	-11.9717
故是定慧之體	-11.9717
四釋文中	-11.9718
應緣而現	-11.9718
了達非有無	-11.9718
以明物不來	-11.9718
逼迫	-11.9718
効	-11.9718
故知物不去	-11.9718
簣	-11.9718
稱謂淪於外	-11.9719
亦無壞	-11.9719
八相成道	-11.9719
營	-11.9719
有於凡是實	-11.9719
邕邕	-11.972
兩雙四句	-11.972
瑜伽	-11.972
戾	-11.972
斯言有由矣	-11.972
往而弗遷	-11.972
照理達事	-11.9721
今此如是	-11.9721
太極	-11.9721
地得一以寧	-11.9721
寢疾	-11.9721
妖	-11.9722
乾坤	-11.9722
前因後果	-11.9722
破而不立	-11.9722
剖	-11.9722
別而為言	-11.9722
因滅果生	-11.9722
荖	-11.9722
忻	-11.9722
離欲地	-11.9722
雀	-11.9722
出現於世	-11.9722
侵	-11.9723
通其情	-11.9723
北天之運	-11.9724
震	-11.9724
而遠與無名同	-11.9724
真故俗	-11.9724
耆	-11.9724
伎	-11.9724
花嚴	-11.9724
坑	-11.9725
為諸法立處	-11.9725
可物於物	-11.9725
路伽	-11.9725
成山假就於始簣	-11.9725
毗婆沙師	-11.9725
有為作相	-11.9725
道絕群方	-11.9725
閱	-11.9725
勵	-11.9725
從單假入	-11.9725
相與俱無	-11.9725
從無住本立一切法	-11.9725
聖遠乎哉	-11.9725
渝	-11.9725
瓦	-11.9726
無惑取之知	-11.9726
不壞假名而說實相	-11.9726
百姓	-11.9726
離心緣相	-11.9726
勞勤莫先於有智	-11.9726
金七十論	-11.9726
牟尼	-11.9726
畢竟無遺	-11.9726
俗入真	-11.9726
言語道斷心行處滅	-11.9726
首尾	-11.9726
六道迴宗	-11.9726
虗伯獨感	-11.9726
談真有不遷之稱	-11.9726
首楞嚴三昧	-11.9727
汝等所行是菩薩道	-11.9727
宣之於口	-11.9727
百千萬	-11.9727
斯皆感往者之難留	-11.9727
言辭相寂滅	-11.9727
雖異而合	-11.9727
從淺至深	-11.9727
百家	-11.9727
絲	-11.9727
剛	-11.9728
對緣而照	-11.9728
推斥	-11.9728
飄	-11.9728
無幽不	-11.9728
諸論義師	-11.9728
非生滅非不生滅	-11.9729
極象外之談	-11.9729
悟心	-11.9729
膏明	-11.9729
不從昔以至今	-11.9729
具縛凡夫	-11.9729
眹	-11.9729
雖合而異	-11.9729
應病授藥	-11.9729
世間顛倒	-11.9729
決擇	-11.9729
等定慧地	-11.9729
豈曰排今而可往	-11.9729
􂎥􂎥	-11.9729
從複中出	-11.9729
然藉光明虛空顯了	-11.9729
燃燈佛	-11.9729
三百餘	-11.973
雖妙非無	-11.973
人命逝速	-11.973
轉輪聖王	-11.973
遲速	-11.973
杳	-11.973
比擬	-11.973
一切因緣故不應有	-11.973
昏昧	-11.9731
速於川流	-11.9731
正遍知	-11.9731
從單中出	-11.9731
麼	-11.9731
薪火二法	-11.9731
珍	-11.9731
賦	-11.9731
有於凡實	-11.9732
忘知遺會	-11.9732
虧	-11.9732
寂漠	-11.9732
無起無滅	-11.9732
目連	-11.9732
聆流動者	-11.9732
智則知矣	-11.9732
智者了達其性無二	-11.9732
豈曰必然	-11.9732
如其有	-11.9732
六門	-11.9733
陽焰	-11.9733
故曰靜而非動	-11.9733
植	-11.9733
與實相相應	-11.9733
升	-11.9733
則不遷之致明矣	-11.9733
日月歷	-11.9733
智有窮幽之鑒而無知焉	-11.9733
慳貪	-11.9733
從緣無性	-11.9734
儒僮	-11.9734
損減	-11.9734
胡吉藏撰	-11.9734
恍惚	-11.9734
欲求聖心之異	-11.9735
炳然	-11.9735
夭	-11.9735
一切因緣故應有	-11.9735
有無既已無	-11.9735
徽	-11.9735
至當可當	-11.9735
三乘賢聖	-11.9735
領納	-11.9735
僧伽	-11.9735
更無第五緣	-11.9735
不離諸法而得涅槃	-11.9735
宮商	-11.9735
開一為三	-11.9735
降伏	-11.9736
價	-11.9736
崖	-11.9736
渧	-11.9736
由旬	-11.9736
俟	-11.9736
所立能立	-11.9736
萬義皆	-11.9736
俗有真無	-11.9736
非色滅空	-11.9736
合掌	-11.9736
萬物與我一體	-11.9736
住而可留	-11.9736
真諦絕名	-11.9736
主宰	-11.9737
幽隱	-11.9737
來無所從	-11.9737
可不欣乎	-11.9737
見可見見者	-11.9737
寒暑迭遷	-11.9737
五華施佛	-11.9737
諸佛常依二諦說法	-11.9737
日損	-11.9737
貪瞋癡	-11.9737
必有會於可會	-11.9737
念念不住	-11.9738
縱橫	-11.9738
仲尼之所以臨川	-11.9738
結縛永除	-11.9738
包含	-11.9738
瓜	-11.9738
於其間哉	-11.9738
身及諸根	-11.9738
壞故不常	-11.9738
必有知於可知	-11.9738
無取無捨	-11.9739
初正答	-11.9739
今第二次破	-11.9739
曼殊室利	-11.9739
強為立名	-11.9739
空是有空	-11.9739
教轉名境	-11.9739
智度菩薩母	-11.9739
乃所以為至當	-11.9739
五取蘊	-11.9739
非權非實	-11.9739
玄室	-11.974
鼻舌身	-11.974
神與知合	-11.974
方便以為父	-11.974
初地以上	-11.974
所破立名	-11.974
竪超四句	-11.974
今世後世	-11.974
八萬法藏	-11.974
委曲	-11.974
悕望	-11.974
五眼不見	-11.9741
稱去而不遷	-11.9741
出真外	-11.9741
言象莫測	-11.9741
河傾	-11.9741
又復說言	-11.9741
韻	-11.9741
杜塞視聽	-11.9741
無所畏	-11.9741
僧那	-11.9741
離無無有	-11.9741
那羅延	-11.9741
歛	-11.9742
凡夫著有	-11.9742
入三解脫門	-11.9742
有分故無常	-11.9742
或有或無	-11.9742
福田	-11.9742
真如實際	-11.9743
理不可	-11.9743
桑	-11.9744
梁武	-11.9744
十一根	-11.9744
屬虗子	-11.9744
汝是破人	-11.9744
道無隱機	-11.9744
大分深義所謂空也	-11.9744
復次鞞世師言	-11.9744
知即不取	-11.9744
論云不取者	-11.9744
古今常存	-11.9744
不可以事相求之耳	-11.9744
煞	-11.9744
勝義理中	-11.9745
無心意而現行	-11.9745
燋	-11.9745
何況我耶	-11.9745
無心之心	-11.9745
相因可相	-11.9745
有無可無	-11.9745
物莫能二	-11.9745
因應而作	-11.9746
各各為人	-11.9746
度脫眾生	-11.9746
無為而無所不為	-11.9746
遊履	-11.9746
能知之智	-11.9746
在身內	-11.9746
宣揚	-11.9746
尤多	-11.9746
增長生死	-11.9746
境界法寶	-11.9747
義應爾	-11.9747
二十四諦	-11.9747
造此中論	-11.9748
損不可虧	-11.9748
益不可盈	-11.9748
亦得亦失	-11.9748
何處當有	-11.9748
好惡	-11.9748
前總後別	-11.9748
閻浮	-11.9749
通而言之	-11.975
無漏界	-11.975
還債	-11.975
開士	-11.975
依世諦說	-11.975
虛妄不實	-11.9751
何嘗	-11.9751
眾庶	-11.9751
泡	-11.9751
為所緣	-11.9752
屢	-11.9752
即為二別	-11.9752
為於無為	-11.9752
攝不攝	-11.9753
隱覆	-11.9753
無道理	-11.9753
難可了知	-11.9753
凡夫結使	-11.9754
梵文	-11.9754
負財	-11.9754
一切凡夫	-11.9754
如前廣說	-11.9754
無生亦無滅	-11.9754
亦實亦不實	-11.9754
篤	-11.9754
不緣色生識	-11.9755
希望	-11.9755
只可	-11.9755
以其異故	-11.9755
大小學人	-11.9755
作樂	-11.9755
釋梵	-11.9755
則同外道	-11.9755
無譬喻故	-11.9756
自性清淨心	-11.9756
以此而觀	-11.9756
重輕	-11.9756
此釋下半頌	-11.9756
迴轉	-11.9756
尊貴	-11.9756
械	-11.9757
行李	-11.9759
佛在世時	-11.9759
統攝	-11.9759
雖寂而常動	-11.9759
但破不收	-11.9759
淵深	-11.9759
所相能相	-11.976
谷神	-11.976
六麤	-11.9761
苦自作	-11.9761
具如前說	-11.9761
所見未甞同	-11.9763
尚書云	-11.9763
隨逐	-11.9763
二世有無	-11.9764
若干	-11.9764
四十四智	-11.9764
不備三相	-11.9765
可住子	-11.9765
互望	-11.9765
四緣生諸法	-11.9765
若復有人	-11.9765
6	-11.9766
由此道理	-11.9766
懷疑	-11.9766
通而為言	-11.9767
應有三相	-11.9767
位退	-11.9767
第二次破	-11.9768
燄	-11.9768
說四諦	-11.9769
復次有執	-11.9769
相躡	-11.9769
功力	-11.9769
▁157	-11.9769
到彼岸	-11.9769
眾生起見	-11.9769
有是空有	-11.977
善財	-11.977
不可破壞	-11.977
本經	-11.9771
猶如瓶等	-11.9771
天主	-11.9772
於是乎	-11.9772
此敘計	-11.9772
與神異	-11.9773
生滅不生滅	-11.9773
外典	-11.9773
指示	-11.9774
至於無損	-11.9775
不識第一義諦	-11.9775
無所不在	-11.9776
有無之數	-11.9776
師承	-11.9776
旨趣	-11.9776
第二偈上半	-11.9777
二諦攝法盡	-11.9777
分位差別	-11.9777
彌勒菩薩	-11.9777
所破之	-11.9777
物體有性	-11.9778
用不離體	-11.9778
學三論	-11.9778
兼亡	-11.9779
二藏	-11.9779
群方	-11.9779
無量句	-11.9779
所斫	-11.9779
初法說	-11.978
有無為教	-11.9781
故以為名	-11.9781
多端	-11.9782
為所觀之境	-11.9782
顯實相	-11.9783
雖生不生	-11.9783
對偏中	-11.9783
有不住有	-11.9785
十二月	-11.9785
離於斷常	-11.9785
假生不生	-11.9787
聲聞藏	-11.9787
三慧品	-11.9788
十二部	-11.9789
諸體有自體	-11.979
以假名說	-11.979
千化	-11.9791
設令	-11.9791
緣因緣果	-11.9792
不捨自體	-11.9793
返照	-11.9793
九部	-11.9793
去留	-11.9794
餘文可	-11.9794
譬喻不成	-11.9794
求佛道	-11.9795
法是常	-11.9796
既識	-11.9796
手足	-11.9797
如如智	-11.9797
有無共合	-11.98
瑤疏	-11.9801
緣緣增上緣	-11.9802
反推	-11.9803
譯出	-11.9803
呵論主	-11.9803
世間共許	-11.9803
種子相續	-11.9804
四句之中	-11.9805
今大乘明	-11.9806
下根人	-11.9806
妄念	-11.9807
精識	-11.9807
造此論	-11.9807
有無量種	-11.9807
愛敬	-11.9807
而有果	-11.9807
金剛般若經	-11.9807
我慢	-11.9808
具二諦	-11.9808
無我無法	-11.9808
不可得而無	-11.9809
不相應行	-11.9809
照空為實	-11.9809
注解	-11.9809
次三句	-11.9809
不知何以	-11.981
潛用	-11.981
生名有餘	-11.9811
改宗	-11.9812
諸婆羅門	-11.9813
所緣之境	-11.9813
不應更生	-11.9813
受屈	-11.9813
布施持戒	-11.9814
若因中先有果生	-11.9814
無自性故空	-11.9815
法住智	-11.9816
前生因	-11.9816
一總標	-11.9818
遮救	-11.9819
之國	-11.9819
不有無	-11.982
逆順	-11.982
取證	-11.9822
受決	-11.9822
人所乘	-11.9823
何所待	-11.9824
未出	-11.9824
方是涅槃	-11.9824
水想	-11.9825
諸有二者	-11.9825
文有二	-11.9825
不二為體	-11.9825
酬因	-11.9826
十使	-11.9826
餘相合	-11.9826
以昔物不至今	-11.9826
第一義中有如是	-11.9826
境智能所	-11.9827
因何而	-11.9827
凡論	-11.9828
大段	-11.9829
為釋疑	-11.9829
依第一義	-11.9831
體恒	-11.9832
遠離一切	-11.9832
眾病	-11.9832
成己	-11.9834
若為異	-11.9838
反之	-11.9839
小乘之人	-11.9839
當作佛	-11.9839
所共	-11.984
空解脫門	-11.984
寧起	-11.984
而無所不	-11.9841
有無斷常	-11.9843
上智觀故得	-11.9844
不能自異	-11.9844
只問	-11.9844
假十信	-11.9845
彼諸外道	-11.9845
二諦合明中道者	-11.9846
我我所見	-11.9846
如明鏡	-11.9847
論主申佛	-11.9847
體非實有	-11.9847
從母	-11.9848
徧行	-11.9848
得佛理	-11.9848
妙術	-11.9849
未燒	-11.9851
分權實	-11.9852
故非真諦	-11.9852
方域	-11.9852
故中觀云	-11.9852
猶屬	-11.9853
駁之	-11.9854
入山	-11.9855
五月	-11.9855
八部	-11.9856
古來	-11.9858
三乘之智	-11.9859
彼答云	-11.9859
謂諸眾生	-11.9859
眾惑	-11.986
內曰不然	-11.9863
一切佛法	-11.9864
無而不無	-11.9864
外書	-11.9867
必歸	-11.9867
得證	-11.9867
有此理	-11.9868
所不攝故	-11.9868
得初果	-11.9869
餘五	-11.9869
十里	-11.987
兩亡	-11.987
二諦所攝	-11.9871
萬事	-11.9873
有為諸法	-11.9873
超境	-11.9876
捨惡	-11.9878
問何人	-11.9878
已周	-11.9879
暫有	-11.9879
非相非	-11.9879
破不收	-11.9884
相容	-11.9884
一無量	-11.9885
何能生	-11.9887
初總明	-11.9888
欲拔	-11.9889
所立宗言	-11.989
都失	-11.9894
東南	-11.9894
穀種	-11.9894
下總結	-11.9895
答開善云	-11.9895
注人	-11.9895
問何故前	-11.9895
行六波羅蜜	-11.9897
非一向故	-11.99
之宅	-11.99
等諸物	-11.9902
無常門破	-11.9902
至忘	-11.9903
墮無用	-11.9904
罪滅	-11.9904
辭理	-11.991
斷伏義	-11.9913
難易	-11.9913
毘婆沙師	-11.9913
藏中	-11.9914
故曰實相	-11.9914
前二偈	-11.9915
與前異	-11.9915
已足	-11.9916
成風	-11.9918
若不待	-11.9918
謂之般若	-11.9918
第二偈明	-11.992
地正斷	-11.9921
行聚	-11.9922
用何物	-11.9922
遣除	-11.9923
初總非	-11.9924
一切經論	-11.9925
人民	-11.9925
乃能見	-11.9926
所遷	-11.9929
若言色等	-11.9931
三鳥	-11.9931
各有相	-11.9931
風動	-11.9932
自心變	-11.9933
二種生死	-11.9934
絕待中	-11.9934
遂令	-11.9936
一一地	-11.9936
不為四	-11.9938
汝云何言	-11.994
申大	-11.9941
轉時	-11.9943
被緣	-11.9944
是以論主	-11.9946
汎明	-11.9946
種種異	-11.9946
知塵	-11.9947
來往	-11.9947
光明等	-11.9947
半有	-11.9949
力遍	-11.995
既其無	-11.995
一貫	-11.9951
中途	-11.9951
色界思惟	-11.9951
通敘	-11.9952
合集	-11.9952
文可見	-11.9952
達多	-11.9952
教為理	-11.9956
遍法界	-11.9957
熱病	-11.9959
不起等	-11.996
在門外	-11.996
是故為異	-11.9961
一步	-11.9961
此兩句	-11.9962
是所生	-11.9962
順顯	-11.9962
會意	-11.9967
無生生	-11.9968
天然之	-11.9969
未曉	-11.9971
不曾有	-11.9971
一隅	-11.9972
性宗	-11.9977
前解	-11.9978
所謂無相	-11.9979
所覆	-11.998
為著空	-11.998
初題目	-11.9981
無相之相	-11.9981
鈍根人	-11.9982
此復何	-11.9983
性之性	-11.9983
可思	-11.9987
而不相違	-11.9988
菩薩捨身	-11.9989
知有神	-11.9989
逍遙	-11.999
樂等為性	-11.999
亦不應說	-11.9991
之本意也	-11.9991
萬法皆	-11.9992
推尋	-11.9992
總破一切法	-11.9992
是可相	-11.9993
洗之	-11.9993
己見	-11.9993
能趣	-11.9993
難無知	-11.9995
即無窮	-11.9995
題云	-11.9996
巧用	-11.9998
外道所執	-11.9998
發觀	-11.9999
得作佛	-12.0003
不見色	-12.0005
於一處	-12.0005
有何利	-12.0011
未息	-12.0013
相關	-12.0013
如種子	-12.0014
三世因果	-12.0015
不依空	-12.0016
為開示	-12.0018
汝受	-12.0019
照物	-12.002
凡有五義	-12.002
有縛解	-12.0021
智障	-12.0021
後正破	-12.0021
相可相異	-12.0021
從他起	-12.0021
非名非	-12.0024
亦不識	-12.0025
極苦	-12.0025
互用	-12.0026
滅為緣	-12.0028
而秤	-12.0028
是故智者	-12.0029
通古	-12.0031
先已破故	-12.0031
初段	-12.0035
心而應	-12.0035
解義	-12.0036
假立名	-12.0042
中忍	-12.0042
以無相故	-12.0045
是諸外道	-12.0046
可生之理	-12.0048
釋偈中	-12.0049
不勉	-12.0051
有礙故	-12.0052
雖各	-12.0053
煩惱無實	-12.0056
達事	-12.0059
大經中	-12.0059
則無瓶	-12.0059
直言有	-12.0059
有眼法	-12.006
答毘曇	-12.0061
歸大	-12.0063
此經云	-12.0063
圓應	-12.0065
空非色	-12.0065
既無生死	-12.0066
二諦亦爾	-12.0066
還自	-12.0068
若泥團	-12.0069
成壞品	-12.0071
上已破	-12.0072
能用法	-12.0074
如實知	-12.0075
一法成	-12.0076
下忍	-12.0077
力劣	-12.008
本有涅槃	-12.008
耳根	-12.008
此一品	-12.0084
如是無窮	-12.0084
問有人言	-12.0085
不欲滅	-12.0085
人御	-12.0085
起無見	-12.0086
實有常住	-12.0089
成毒藥	-12.009
釋名門	-12.0094
應有神	-12.0094
外塵	-12.0096
偏悟	-12.0097
容可	-12.0099
無礙色	-12.0099
所不攝	-12.0102
終不得成	-12.0102
邪徒	-12.0104
緣色	-12.0104
初燈	-12.0104
是菩薩行	-12.0105
常爾	-12.0105
成未來現在時	-12.0105
會異	-12.0105
一切法性	-12.0108
故言無知	-12.0109
可修	-12.0109
無異性故	-12.0109
一切法皆空	-12.011
後還	-12.011
答前明	-12.0113
破情	-12.0114
我樂	-12.0114
非是有無	-12.0115
水月	-12.0115
明白	-12.0117
使其	-12.0118
受果報	-12.0118
等至所緣境	-12.0121
或時說	-12.0122
入非有非無	-12.0124
虗空等	-12.0124
得一切種智	-12.0125
不能制	-12.0126
非是實	-12.0127
遣法自相	-12.0131
卷中	-12.0132
漭	-12.0133
不名為果	-12.0135
俱無體故	-12.0135
塵境	-12.0137
菩薩結使	-12.0139
必有異	-12.0142
復次執	-12.0142
八方	-12.0142
如手	-12.0143
界入	-12.0143
相融	-12.0145
智慮	-12.0149
據其	-12.015
緣中無果	-12.015
不順	-12.0151
法性如是	-12.0152
之端	-12.0154
然後始	-12.0154
修多羅中	-12.0154
自所依	-12.0155
若因中有果	-12.0155
二緣因	-12.0156
隨處	-12.0156
有法不成	-12.0156
名為無明	-12.0156
傍感	-12.0161
統之	-12.0162
若法未生	-12.0163
云何可說	-12.0166
未易言也	-12.0169
三相是有為	-12.017
既息	-12.0173
若有眾生	-12.0174
新疏	-12.0175
名為俗諦	-12.0175
如來出世	-12.0179
之惡	-12.018
極麁	-12.0181
能動	-12.0183
云何一時	-12.0184
而求之	-12.0184
相著	-12.0186
依小乘	-12.0191
如父	-12.0192
有無所有	-12.0194
作論之	-12.02
法已滅	-12.02
每以	-12.0202
釋曰此即	-12.0205
數論等	-12.0207
折法	-12.0211
全了	-12.0212
釋二章門	-12.0213
此意明	-12.0213
有無四句	-12.0214
四句百非	-12.0215
即無性	-12.0218
有三名	-12.0222
會真	-12.0223
遍體和合	-12.0227
少時	-12.0228
不可言有	-12.0229
更有異	-12.0233
十智	-12.0236
生而不生	-12.0241
覆障	-12.0245
心境界	-12.0245
能見他	-12.0245
如前引	-12.0246
以因緣故	-12.0248
老時	-12.025
無闇	-12.025
大夫	-12.0253
依勝義	-12.0253
如調達	-12.0258
無狀	-12.0258
指事	-12.0259
故云無知	-12.0259
泥中無	-12.0259
豈可言	-12.0261
四總結	-12.0262
更顯	-12.0264
勝義諦理	-12.0267
境所	-12.0268
有種種名	-12.0272
故名為斷	-12.0275
行世	-12.0275
諸餘	-12.0276
通會	-12.0278
之首	-12.0283
皆有此	-12.0292
受學	-12.0293
有分別故	-12.0294
無所因	-12.0294
於緣中	-12.0295
機宜	-12.0297
第二縱	-12.0298
佛果常	-12.0299
為八	-12.0305
故仁王經	-12.0306
他人作	-12.0307
又前是	-12.0307
未顯	-12.0312
豈成	-12.0313
波若方便	-12.0315
作酪	-12.0316
處有神	-12.0316
成種種	-12.0319
燃可燃品	-12.0319
汝宗中	-12.0324
此正破	-12.0326
迷失	-12.0326
起分別	-12.0326
無漏心	-12.0329
開佛性	-12.0331
廣解	-12.0334
彼取者	-12.0335
有餘難	-12.0336
有無門破	-12.0339
若是常	-12.034
業苦	-12.0341
悟無生忍	-12.0341
種種方便	-12.0342
已久	-12.0342
互無	-12.0345
大過失	-12.0345
致難	-12.0347
智證理	-12.0349
自常有	-12.035
後學	-12.0351
薩婆多等	-12.0353
行滿	-12.0359
二諦並	-12.036
今欲示	-12.0361
了因性	-12.0363
今責	-12.0363
亦應成	-12.0365
身覺	-12.0365
此三事	-12.037
二門破	-12.0372
更有餘	-12.0372
成一義	-12.0372
答不取	-12.0377
有作無作	-12.0378
未分	-12.0378
火能燒	-12.0381
諸法無體	-12.0382
第一卷	-12.0382
所發起	-12.0385
非能見	-12.0388
由空故	-12.039
計有我	-12.0392
先已廣	-12.0393
談論	-12.0397
以真為	-12.0397
而經說	-12.0398
十二緣河	-12.0398
則無用	-12.0402
縱汝	-12.0403
空之有	-12.0403
今龍樹	-12.0405
從顛倒	-12.0405
馬等	-12.0407
顛倒難	-12.0408
內外有無	-12.041
皆是世俗	-12.0412
得無餘	-12.0412
存之	-12.0415
意根	-12.0418
明得益	-12.0419
盡生死	-12.0422
眾生界	-12.0423
次偈破	-12.0425
所居	-12.043
八見	-12.043
體無生滅	-12.043
法皆無	-12.0431
菩薩法身	-12.0432
覆而求今	-12.0433
具二種	-12.0433
可求	-12.0436
何所斷	-12.0436
為聖說	-12.0437
長時	-12.0439
又若無	-12.0439
能契	-12.0439
於三有	-12.044
有一豪	-12.0445
經中明	-12.0446
外道所說	-12.0448
從因生果	-12.0449
第四結	-12.045
無相作	-12.0451
此是借	-12.0452
不可盡	-12.0453
五別	-12.0453
殊別	-12.0454
未會	-12.0457
可分析	-12.0463
是奪破	-12.0465
況於	-12.0466
不復生	-12.0471
前難者	-12.0471
求樂	-12.0478
已解	-12.048
△	-12.0486
地菩薩	-12.0486
在先	-12.0488
種勢	-12.0489
明人空	-12.0492
更就	-12.0493
則短	-12.0494
生時體	-12.0494
有果者	-12.0494
佛本意	-12.0495
生法師	-12.05
有所不知	-12.0501
因有力	-12.0501
不可改	-12.0502
於諦是	-12.0504
是不有有	-12.0506
不移	-12.0506
以何為體	-12.051
此中亦無	-12.0511
意釋之	-12.0511
但就有	-12.0511
理實無	-12.0513
別緣起	-12.0515
苦報	-12.0515
至妙	-12.0516
有七種	-12.0521
色處	-12.0522
聞空	-12.0529
作者品	-12.0536
非現量	-12.0536
理量	-12.0542
心境一	-12.0542
十喻	-12.0545
復不得	-12.0546
說此為	-12.0546
內外大小乘	-12.0548
是非諦	-12.0552
無見有	-12.0557
誰云	-12.0558
先示	-12.056
亦得云	-12.0562
利生	-12.0565
質礙	-12.0565
真諦自	-12.0568
四子	-12.0573
諸法空故	-12.0577
則不應言	-12.0582
乘運	-12.0583
赤色	-12.0585
不作有	-12.0586
不自起	-12.0588
美之	-12.0589
夫道	-12.059
象於	-12.0592
亦息	-12.0595
所成立	-12.0597
五住惑	-12.06
因緣功德	-12.06
中道正法	-12.0605
應先有	-12.0609
何所依	-12.061
無生性	-12.0618
永不	-12.0619
有果生	-12.062
兩望	-12.0625
捨我	-12.0625
若謂諸法	-12.0626
斷無明	-12.0628
有實時	-12.0628
流布	-12.0629
即為四	-12.0632
障外	-12.0637
符合	-12.0639
見有生滅	-12.0642
所作業	-12.0646
在山	-12.0648
初中二	-12.0648
其數	-12.0651
不現見	-12.0652
今復破	-12.0654
我倒	-12.0657
無因待	-12.0657
道絕	-12.0658
深奧	-12.0658
常以	-12.0661
無以成	-12.0662
常寂滅	-12.0662
其量	-12.0664
不逆	-12.0665
第三段	-12.0666
徵經	-12.0666
入無餘涅槃	-12.0666
如是說言	-12.0667
諸法本無	-12.0672
得神通	-12.0672
而得道	-12.0677
因果不成	-12.0677
但須	-12.0679
行止	-12.068
汝云何	-12.0685
二俱不生	-12.0687
俱融	-12.0687
不可得空	-12.0691
前已有	-12.0691
論中說	-12.0692
論又云	-12.0693
能作苦	-12.0694
中道實相	-12.0695
未來起	-12.0695
有三說	-12.0696
有相違故	-12.0697
有上中下	-12.0697
要先	-12.0699
如偈說	-12.0703
自立義	-12.0705
不該	-12.0707
蹤	-12.0708
計無為	-12.0708
十二種	-12.0711
成滿	-12.0712
相證有	-12.0713
悟不有無	-12.0717
因能起	-12.072
違比量	-12.0721
緣縛	-12.0722
此二法	-12.0724
不須生	-12.0725
若不受	-12.0727
身動	-12.0729
其末	-12.073
即色義	-12.0732
明不有有	-12.0733
名為諦	-12.0734
禪經	-12.0753
無生畢竟空	-12.0753
憂苦	-12.0759
初周	-12.0765
果有故	-12.0767
與一切眾生	-12.0767
辨差	-12.0771
依福捨罪	-12.0772
一切皆成	-12.0773
凡有八	-12.0774
五陰和合有	-12.0776
捨結	-12.0777
有體性	-12.0781
別意	-12.0783
即無所有	-12.0785
異薪	-12.0785
中百	-12.0785
不如實	-12.0786
未免	-12.0787
法有體	-12.079
果不與	-12.0793
今云何言	-12.0795
所作事	-12.0801
眾生顛倒	-12.0805
中假義	-12.0807
說三乘	-12.0807
然此義	-12.0809
又如人	-12.081
阿羅漢果	-12.0811
肇之	-12.0813
所趣	-12.0814
方滅	-12.0815
論所宗	-12.0816
之別名	-12.0818
一剎那時	-12.0818
地菩薩斷	-12.0823
解了	-12.0823
若是無常	-12.0826
凡夫顛倒	-12.083
俱不到	-12.0831
智度	-12.0831
無可為	-12.0832
酬前	-12.084
不共生	-12.0841
本來有	-12.0846
舉境	-12.0849
伹有	-12.0849
於觸	-12.085
無是則	-12.085
微塵是	-12.085
有二理	-12.0851
所滯	-12.0853
自餘	-12.0854
如一人	-12.0858
萬義	-12.0859
如幻化人	-12.0865
牒計	-12.0866
真諦之境	-12.0866
收取	-12.0867
邪行	-12.087
非無非有	-12.087
善根人	-12.0871
愚謂	-12.0873
三利	-12.0878
無思慮	-12.0881
其非有非無	-12.0887
相可解	-12.0892
天耳	-12.0899
至于	-12.0901
所緣緣	-12.0906
文中有四	-12.0918
但破其	-12.0926
或盡	-12.0927
紛綸	-12.0929
三藏法師	-12.0933
以法為	-12.0936
皆亦如是	-12.0939
化主	-12.0941
於中先	-12.0946
影現	-12.0946
不可具	-12.0948
名無餘	-12.0957
敘其	-12.0957
聖虛	-12.0958
淨眼	-12.0959
空非空	-12.0964
顛倒虛妄	-12.0966
不齊	-12.0968
龍樹提婆	-12.0971
求果不可得	-12.0974
結非論主	-12.0974
本經二十	-12.0978
兩慧	-12.0983
因果一時	-12.0984
至虗無生	-12.0985
相乖	-12.0988
貪愛	-12.0991
惡道	-12.0992
定有知	-12.0994
復還	-12.0995
至金剛心	-12.0998
此論明	-12.1003
不畏	-12.1004
如月	-12.1005
初生燈	-12.1005
境智俱	-12.1008
以破外	-12.1011
眼耳鼻舌身	-12.1012
非勝義	-12.1012
為別相	-12.1013
當而無當	-12.1015
蹤跡	-12.1016
心轉	-12.1017
教諦是	-12.1019
有標釋	-12.1031
泥團時	-12.1032
出四句	-12.1033
亦兼	-12.1033
通感	-12.1035
可起	-12.1039
出論義	-12.1045
無而謂有	-12.1047
若汝復	-12.1048
在東	-12.1049
總結破	-12.105
有大過	-12.1052
二諦合明中道	-12.1052
外人執有	-12.1053
有六種	-12.1061
次例	-12.1061
愛心	-12.1067
上半舉	-12.1068
燈喻	-12.107
十三卷	-12.1073
果乘	-12.1075
無之有	-12.1076
色聲香味觸	-12.1078
陰陰	-12.1084
無明支	-12.1084
榮	-12.1088
言色即空	-12.1094
如品初	-12.11
為車	-12.1102
最後論	-12.1105
令開解	-12.1105
假無不名	-12.1107
頴	-12.1107
亦不取	-12.1108
索之而不得	-12.1112
鼇	-12.1113
崩	-12.1114
十八賢	-12.1114
二俱不可得	-12.112
苦無常無我不淨	-12.112
趙	-12.1121
北天竺	-12.1122
三相前後	-12.1122
軀	-12.1122
詭	-12.1122
名為般若	-12.1123
淚	-12.1123
非苦非樂	-12.1124
始簣	-12.1124
映	-12.1125
無滯而不通	-12.1125
續假	-12.1126
極大	-12.1128
膠	-12.1129
俗諦絕實	-12.1129
爽	-12.1129
補	-12.1129
所觀之境	-12.113
卅	-12.113
得五神通	-12.113
偽號	-12.113
謂其不住	-12.1131
旬	-12.1131
何故不見	-12.1132
敘計	-12.1132
亦違汝	-12.1132
穴	-12.1132
釋迦牟尼	-12.1133
緩	-12.1133
叢	-12.1133
誠真一之無差	-12.1134
萬累都捐	-12.1134
驗之	-12.1135
技	-12.1135
碩	-12.1135
假伏中斷	-12.1135
潔	-12.1136
黎	-12.1136
奚	-12.1136
不矜不恃	-12.1136
說彼為	-12.1136
如是展轉	-12.1136
古而無今	-12.1137
何以得知	-12.1138
敏	-12.1138
長壽	-12.1138
派	-12.1139
瞋恚	-12.1139
物始	-12.1139
燒煮等	-12.114
有何物而可去來	-12.114
童	-12.1141
不徐而徐	-12.1141
灌	-12.1141
十八年	-12.1141
諫	-12.1141
第十六心	-12.1141
大都	-12.1141
毫微	-12.1141
卷第八	-12.1141
夙	-12.1142
天龍咸敬	-12.1142
即萬物之自虗	-12.1142
無謂不靜	-12.1142
恭	-12.1142
外難內	-12.1143
阿賴耶識	-12.1143
遍云何念	-12.1143
自語相違	-12.1143
名相靡因	-12.1143
排方外之談	-12.1143
水月鏡像	-12.1143
般若無所有相	-12.1143
不即六法	-12.1144
稻	-12.1144
邦	-12.1144
西涼	-12.1144
生滅滅已	-12.1144
凉	-12.1144
擲	-12.1144
時處決定	-12.1144
揀擇	-12.1144
分中有	-12.1144
寓	-12.1145
象手	-12.1145
勝趣非一	-12.1145
憩	-12.1145
禍	-12.1145
無成是成	-12.1145
薪有火	-12.1145
甘露味	-12.1145
鶴	-12.1145
迭遷	-12.1145
叔	-12.1145
卷第九	-12.1146
法花經	-12.1146
字林云	-12.1146
挺	-12.1146
緬	-12.1146
耆婆	-12.1146
優婆塞	-12.1146
刺	-12.1147
閇	-12.1148
離法無人	-12.1148
熾	-12.1148
滅而不滅	-12.1148
高而無上	-12.1148
猶如幻事	-12.1148
引經立	-12.1148
略鈔	-12.1149
休息	-12.1149
四弘誓願	-12.1149
三法異體	-12.1149
景	-12.1149
因以名之	-12.1149
是生相	-12.1149
嫉	-12.1149
利樂有情	-12.1149
祥	-12.1149
呂隆	-12.1149
涎	-12.1149
左眼見	-12.1149
逃	-12.1149
則名相異陳	-12.115
嬰	-12.115
十翼	-12.115
紛然久矣	-12.115
離繫外道	-12.115
導俗有流動之說	-12.115
實德業	-12.115
凡有兩	-12.1151
強弱	-12.1151
險	-12.1151
聖言量	-12.1151
尊卑	-12.1151
言其非有者	-12.1151
祕	-12.1151
二若謂下	-12.1152
五百聲聞	-12.1152
甚奇世尊	-12.1152
別總	-12.1152
極數故數以應之	-12.1152
弗顧	-12.1152
是法不可示	-12.1152
怏怏	-12.1152
俯提弱喪	-12.1152
法及有法	-12.1152
顏回	-12.1152
不從今以至昔	-12.1152
於外無數於內無心	-12.1152
曆	-12.1153
佉	-12.1153
明同異	-12.1153
動而常寂	-12.1153
翫	-12.1153
朴	-12.1153
不以為	-12.1153
修途託至於初步	-12.1153
歲月	-12.1153
通鑒不為有	-12.1153
辱	-12.1153
羯	-12.1153
有無既廢	-12.1153
有無絕於內	-12.1153
項	-12.1154
羽	-12.1154
三乘五教	-12.1154
莫逆	-12.1154
祠	-12.1154
謝公	-12.1154
而語聖心者乎	-12.1154
仰攀玄根	-12.1154
翅	-12.1154
恑	-12.1154
丑	-12.1155
金翅鳥	-12.1155
長夜	-12.1155
色陰所攝	-12.1155
莫知所之	-12.1155
自照照他	-12.1155
離有離無	-12.1155
弗若多羅	-12.1155
長行發起	-12.1155
各住一世	-12.1155
就法說門	-12.1155
六地巳下	-12.1155
去時中無發	-12.1155
空亦復空	-12.1155
汰	-12.1155
焚	-12.1156
發揮	-12.1156
鬪	-12.1156
生已復生	-12.1156
立巳成過	-12.1156
清虛	-12.1156
不因不果	-12.1156
道門未曾	-12.1156
愛非愛顛倒	-12.1156
燸	-12.1156
去未去去時	-12.1156
非因而因	-12.1156
我之所謂靜者	-12.1156
佛初成道	-12.1156
枚	-12.1156
獄	-12.1157
天竺國	-12.1157
安慰	-12.1157
殷	-12.1157
今物在今	-12.1157
四住地	-12.1157
討	-12.1157
十方佛土中	-12.1157
跋摩	-12.1157
象馬兔	-12.1157
憎	-12.1157
掩室	-12.1157
欣厭	-12.1158
馬角	-12.1158
色分等	-12.1158
藏山於	-12.1158
聞熏習	-12.1158
所依止處	-12.1158
活	-12.1158
果以功業不可朽故	-12.1158
得意毫微	-12.1158
無明緣行	-12.1158
覩斯論	-12.1158
非迹無以	-12.1158
故成具云	-12.1158
尋夫不動之作	-12.1159
撮	-12.1159
不面在昔	-12.1159
共離二門	-12.1159
眉	-12.1159
譬如燈滅	-12.1159
俗以真為義	-12.1159
隨聖說	-12.1159
支法詳	-12.1159
聞大乘法說畢竟空	-12.1159
頭中有足	-12.1159
佛告迦葉	-12.1159
雖速而不轉	-12.1159
實無所入	-12.1159
避苦求樂	-12.1159
譬彼真無	-12.1159
初節二諦	-12.116
百齡一質	-12.116
蒙利	-12.116
有及非有	-12.116
當有深證	-12.116
目擊道存	-12.1161
若常若無常	-12.1161
身口二業	-12.1161
無起亦無滅	-12.1161
先牒計總	-12.1161
知病識藥	-12.1161
鑿	-12.1161
良有以	-12.1161
宿習	-12.1161
不可以識識	-12.1161
寶珠	-12.1161
樊	-12.1161
愆	-12.1161
眾因緣生法	-12.1161
法無有無之相	-12.1161
卷第七	-12.1162
不著於有	-12.1162
輙	-12.1162
草堂寺	-12.1162
法身初建	-12.1162
鷄	-12.1162
用歸體	-12.1162
一一法上	-12.1162
是以梵志出家	-12.1162
極於相內	-12.1162
諸佛依二諦說法	-12.1162
觀發中	-12.1162
帛	-12.1163
世人知者名	-12.1163
果中說因	-12.1163
若稱生同外	-12.1163
為世諦中道	-12.1163
俱出火宅	-12.1163
醎	-12.1163
彼無相之	-12.1163
與此相違	-12.1163
亦合云	-12.1164
果有其所以不有	-12.1164
如瓶盆等	-12.1164
若有不即真	-12.1164
豈曰去而可遣	-12.1164
稱非我也	-12.1164
便違自宗	-12.1164
逆推	-12.1164
服膺	-12.1164
空所對治	-12.1164
苽	-12.1165
非生非不生	-12.1165
有者有於無	-12.1165
初長行發起	-12.1165
數有承問	-12.1165
疎密	-12.1165
統御	-12.1165
精舍	-12.1165
微弱	-12.1165
薄地	-12.1165
若都畢竟空	-12.1165
觸所攝	-12.1165
中吳	-12.1165
勞患	-12.1165
工巧	-12.1165
彼岸豈異	-12.1165
百萬	-12.1165
極於五陰之內	-12.1165
因法假名時	-12.1165
如牛二角	-12.1165
空無相無願	-12.1165
至第二步	-12.1165
浩然大均	-12.1165
同故無心於彼此	-12.1165
因變為果	-12.1165
昔人尚存乎	-12.1165
般舟三昧	-12.1165
有破不破	-12.1166
靈怕獨感	-12.1166
劫得到	-12.1166
服甘露	-12.1166
汝是破法人	-12.1166
善不善無記	-12.1166
非無為有三	-12.1166
吠	-12.1166
栗	-12.1166
稱住不必住	-12.1166
智非知也	-12.1166
隨自意語	-12.1166
立言之本意	-12.1166
不能救濟	-12.1167
有此品來者	-12.1167
聖默然	-12.1167
與波若相應	-12.1167
丹	-12.1167
五陰成人	-12.1167
果出有無之域	-12.1167
斯理之玄	-12.1167
領公	-12.1167
千載之下	-12.1167
更互相違	-12.1167
炭	-12.1167
內自免過	-12.1167
非三非一	-12.1167
檀波羅蜜	-12.1167
庭	-12.1167
當於無當	-12.1168
為心要	-12.1168
為破彼言	-12.1168
若以有為有	-12.1168
順俗則違真	-12.1168
處計常之中	-12.1168
一去來以成體	-12.1168
故能不取而知	-12.1168
非色不異色	-12.1168
無狀無名	-12.1168
不共不無因	-12.1168
眾緣所生法	-12.1168
端嚴	-12.1168
母子	-12.1168
結會	-12.1168
累無不寂德無不圓	-12.1168
慧行無分別	-12.1168
與前何異	-12.1168
化母所育	-12.1169
速疾	-12.1169
不可謂之有	-12.1169
永寂	-12.1169
巖	-12.1169
煩惱而得涅槃	-12.1169
不可以形名得	-12.1169
彊	-12.1169
感無不應	-12.1169
總六合以鏡心	-12.1169
群情	-12.1169
學徒	-12.1169
可得聞乎	-12.1169
一生一不生	-12.1169
亭毒蒼生	-12.1169
心非我生	-12.1169
即事契真	-12.1169
無色無見無對	-12.1169
空不自空	-12.1169
證道	-12.1169
由智故境	-12.117
江河	-12.117
𨷂	-12.117
請詰	-12.117
一體三寶	-12.117
無形不形	-12.117
無方便慧縛	-12.117
復次有說	-12.117
智為雜毒	-12.1171
此得在於神靜	-12.1171
不化故不遷	-12.1171
見緣起為見法	-12.1171
再往	-12.1171
實相自無	-12.1171
實智照理	-12.1171
乳中有酪	-12.1171
五百論師	-12.1171
瓶是現見	-12.1171
不苦不樂	-12.1171
而無知焉	-12.1171
為此人故	-12.1171
非斷非常	-12.1171
今牒之	-12.1171
而謂今物可至昔	-12.1171
物無彼此	-12.1171
稟二諦教發生二智	-12.1171
是生滅法	-12.1172
智有窮幽之鑒	-12.1172
而無慮焉	-12.1172
業謝過去	-12.1172
象馬等	-12.1172
不繫	-12.1172
又非不應	-12.1172
混而不渝	-12.1172
薄福鈍根	-12.1173
未始無事	-12.1173
汪洋無涯	-12.1173
七百年	-12.1173
本迹雖殊	-12.1173
去和合	-12.1173
現量境	-12.1173
為當唯照無相耶	-12.1173
令人信解	-12.1173
即偽即真	-12.1173
命初即	-12.1173
業與果合	-12.1173
龜茲王	-12.1173
不相違背	-12.1173
理外行心	-12.1173
菩薩得無生智	-12.1173
我樂淨	-12.1174
鑒有淺深	-12.1174
升降	-12.1174
不知佛意	-12.1174
中前假	-12.1174
津梁	-12.1174
我適無為	-12.1174
無二無三	-12.1174
故造斯論	-12.1174
敬禮	-12.1174
厝	-12.1174
螢	-12.1175
塵沙	-12.1175
善將生	-12.1175
忠	-12.1175
一念相應慧	-12.1175
隻	-12.1175
見他苦時	-12.1175
十師	-12.1176
通達是義	-12.1176
衣食	-12.1176
齊功	-12.1176
假無假不無	-12.1176
漢地	-12.1177
真偽之途	-12.1177
若法因待成	-12.1177
寶積曰	-12.1177
等流果	-12.1177
苦空無常	-12.1177
南天竺	-12.1177
指同前	-12.1177
此中止遣	-12.1177
不染塵累	-12.1177
求果無蹤	-12.1177
行不行	-12.1177
因緣所生法我說即是空	-12.1178
佛應眾生	-12.1178
能說是因緣	-12.1178
俗是浮虛	-12.1178
無為法亦空	-12.1178
俗於凡是諦	-12.1178
此說義成	-12.1178
債	-12.1178
輪王	-12.1178
眼能見色	-12.1179
則異乎無相	-12.1179
差別無差別	-12.1179
化城	-12.1179
得無我智	-12.1179
破散無體	-12.118
拓	-12.118
無此道理	-12.118
示是道	-12.118
心根身	-12.1181
▁185	-12.1181
一真法界	-12.1181
著故有得	-12.1181
還原	-12.1181
更無二體	-12.1182
但有是語	-12.1182
塵垢	-12.1182
是愚癡論	-12.1182
緣成非緣	-12.1182
有此文來	-12.1182
捐形	-12.1182
主張	-12.1182
圓音	-12.1182
不知諸法性空	-12.1182
怨憎	-12.1182
惑智有知	-12.1182
即須知	-12.1182
是故下結	-12.1183
如來在世	-12.1183
內凡夫位	-12.1183
本來已有	-12.1183
則有所不知	-12.1183
怖畏生死	-12.1183
觀性門	-12.1183
上更起	-12.1184
遷謝	-12.1184
夫至人	-12.1184
不累於有	-12.1184
並易見	-12.1184
此頌意	-12.1184
住滅亦爾	-12.1184
初句標	-12.1185
妄心妄境	-12.1185
應如空等	-12.1185
既以取捨為心	-12.1185
煩惱業苦	-12.1185
無言不盡	-12.1185
空為第一義諦	-12.1185
漫語	-12.1185
欲界繫	-12.1186
問不成問	-12.1186
指掌	-12.1186
萬殊	-12.1186
河中七	-12.1187
末世眾生	-12.1187
滅名無餘	-12.1187
若色受想行識	-12.1187
生而非有	-12.1187
嘿然	-12.1187
二諦為所說	-12.1187
成無量分	-12.1187
芽等相續	-12.1187
如十地	-12.1188
章句	-12.1188
而惑者不同	-12.1188
則不應有三	-12.1188
般若力也	-12.1189
舉體全	-12.1189
世間所無	-12.1189
非生非滅	-12.1189
有漏善	-12.1189
階位	-12.1189
十章	-12.1189
玄鑒	-12.1189
二十一品	-12.1189
三昧力	-12.1189
無窮之過	-12.1189
廓然	-12.119
四韋陀	-12.1191
出入息	-12.1191
依何立	-12.1191
入芥子	-12.1192
真諦離緣	-12.1192
方是真諦	-12.1192
高山	-12.1192
普遍	-12.1192
見道斷	-12.1193
亦無所成法	-12.1193
生死之始	-12.1193
諸愚夫	-12.1193
詳定	-12.1194
不成因過	-12.1194
盛水	-12.1194
無性法亦無	-12.1194
皆攝在	-12.1194
離言說	-12.1194
鬼神	-12.1194
亦可以言	-12.1195
亦以昔物不至今	-12.1195
以之為門	-12.1195
外道橫計	-12.1196
縛可縛	-12.1196
學佛教人	-12.1196
佛不答	-12.1197
以垂迹	-12.1197
鄰人	-12.1197
二因二果	-12.1197
勤精進	-12.1197
文字波若	-12.1197
不動不出	-12.1199
不能自巳	-12.1199
外人執	-12.1199
有無齊觀	-12.12
諸顯事	-12.12
所證之法	-12.12
經部師	-12.12
知所歸	-12.12
初偈上半明	-12.12
初釋偈本	-12.1201
則為是常	-12.1201
今無依無得	-12.1202
無是無非	-12.1202
說有說無	-12.1202
說第一義諦	-12.1203
所引實智	-12.1203
類相關	-12.1204
審諦	-12.1204
實無方分	-12.1204
身口意業	-12.1205
應名現在	-12.1206
天即是人	-12.1206
自誓	-12.1206
語默	-12.1206
汝經言	-12.1207
巳去未去	-12.1207
生滅心也	-12.1207
寺開	-12.1208
諸天子	-12.1208
非有非無是涅槃	-12.1208
不定聚	-12.1209
盡其言	-12.1209
就緣假破	-12.1209
初半偈	-12.1209
已如前說	-12.1209
言其非	-12.1209
七十七智	-12.121
損壞	-12.121
眾緣所成	-12.121
箇即是	-12.121
應如兔角	-12.121
玄微	-12.1211
尚不可	-12.1211
而可往	-12.1211
未熟	-12.1211
刈者	-12.1212
見多者著	-12.1212
有所得大乘人	-12.1212
教授	-12.1213
冥契	-12.1213
兩節	-12.1213
悟入性空	-12.1214
隨喜	-12.1215
今是第二	-12.1215
第二一偈	-12.1216
自朋	-12.1216
其體實有	-12.1216
若有說言	-12.1216
此義應知	-12.1216
實不當	-12.1218
本來清淨	-12.1219
兒曰	-12.1219
為真諦中道	-12.122
理而論之	-12.122
四儀	-12.122
則是常見	-12.122
二本文	-12.122
連環	-12.122
引接	-12.1221
經律	-12.1221
而駁之	-12.1221
不生果常	-12.1221
夫有所知	-12.1222
假後中	-12.1222
答他云	-12.1223
生死即涅槃	-12.1223
能成所成	-12.1223
俗物不遷	-12.1225
如何定	-12.1225
所以不出不在	-12.1225
散心	-12.1225
若無我者	-12.1225
若爾豈非	-12.1226
道理實無	-12.1226
緣生故因	-12.1227
不觀為	-12.1227
心心所	-12.1227
語言道	-12.1227
尋思	-12.1228
苦忍	-12.1228
破邪涅槃	-12.1229
如起信	-12.123
▁初正答	-12.123
乃至老死	-12.123
想倒	-12.123
尚存	-12.1231
為正果	-12.1231
即寂之	-12.1232
以無所得為	-12.1233
諸法從四緣生	-12.1233
三中不成	-12.1233
三箭	-12.1234
往往	-12.1234
遍五道	-12.1236
論議	-12.1237
十月	-12.1238
更無別法	-12.1238
影略	-12.1239
▁三結成	-12.124
非實法	-12.124
我亦不說	-12.1241
總談	-12.1242
中根人	-12.1242
圓寂	-12.1242
申正因緣	-12.1243
實相為本	-12.1243
滅我我所	-12.1243
體不成故	-12.1244
譬如住	-12.1244
比量道理	-12.1245
具足六波羅蜜	-12.1245
從因起	-12.1245
破次第緣	-12.1246
灾	-12.1247
反照知	-12.1247
道俗	-12.1247
識託	-12.1248
豈曰下	-12.1248
凡夫二乘有所得	-12.1249
日輪	-12.1252
何用緣	-12.1252
動靜不異	-12.1254
生不自生	-12.1254
罪福果報	-12.1254
一切有情	-12.1254
情陰	-12.1255
道種性	-12.1255
諸佛法身	-12.1256
變化無常	-12.1256
同是一	-12.1257
發菩提	-12.1258
苦樂等法	-12.1258
六十六	-12.1258
古德	-12.1259
生死往來	-12.1259
與理冥	-12.1259
次明二諦	-12.1261
亮師	-12.1261
斯可	-12.1262
開章	-12.1263
即真之義	-12.1264
隨俗言	-12.1265
合明中道	-12.1268
三世有法	-12.1268
下第三破	-12.1269
色等境界	-12.1271
有漏業	-12.1272
患累	-12.1272
不徐	-12.1274
無有定	-12.1275
而未顯	-12.1276
未來未有	-12.1276
名為無上	-12.1277
小名大	-12.1277
無明為因	-12.1278
諸行聚	-12.1278
自作他作	-12.1278
波若漚和	-12.1279
不知世諦	-12.1279
四卷	-12.1279
四結成	-12.1281
問但應	-12.1281
有無二事	-12.1281
一相無相	-12.1282
煖性	-12.1285
總萬法	-12.1285
如是推求	-12.1286
世人信	-12.1288
不識第一義	-12.1288
五味	-12.1291
不見不空	-12.1291
大品淨名	-12.1294
斷二障	-12.1294
先進	-12.1294
十二門入	-12.1294
不有於有	-12.1294
約情	-12.1295
自性清淨	-12.1296
對機	-12.1296
有觀故	-12.1296
無往來	-12.1296
都空	-12.1297
此即相違	-12.1297
行支	-12.1298
結宗	-12.1299
慧達	-12.1299
若在未來	-12.1299
我於過去世	-12.1299
標位	-12.13
萬物無生	-12.1301
實慧方便	-12.1303
三如是下	-12.1303
取而不破	-12.1304
信根	-12.1304
中論以二諦為宗	-12.1304
聞畢竟空	-12.1304
重病	-12.1305
此之有無	-12.1306
短長	-12.1308
並是有所得	-12.1309
相奪	-12.1309
無能照	-12.1309
殊方	-12.1311
皆從緣生	-12.1311
若言生時	-12.1311
定性有無	-12.1312
觸事	-12.1314
可到	-12.1314
故當而無當	-12.1314
妙極	-12.1314
結縛	-12.1315
翻對	-12.1315
萬境	-12.1315
餘世	-12.1315
虛空涅槃	-12.1316
兩實	-12.1317
因果若異	-12.1318
此如是說	-12.1318
如偈言	-12.1318
復次鞞婆沙	-12.132
義不相違	-12.1321
以此方便	-12.1323
異途	-12.1323
世出世一切	-12.1332
淪於	-12.1332
可眼見	-12.1334
於未來世	-12.1334
續生	-12.1334
重出論義	-12.1335
不淨觀	-12.1335
有縛解者	-12.1335
如是即應	-12.1335
汝法中	-12.1336
同一體	-12.1336
一切賢聖	-12.1337
善不善業	-12.1338
則減	-12.1339
以此義故	-12.1341
能生波若	-12.1341
綸	-12.1341
昔三乘	-12.1342
無知無慮	-12.1343
時方物類	-12.1344
注中為	-12.1345
是中云何	-12.1346
後得智	-12.1348
生死河	-12.135
業感	-12.135
如波	-12.1351
下半辨	-12.1351
若是常者	-12.1351
是共有因	-12.1352
遠望	-12.1354
詳論	-12.1355
上二經	-12.1355
音正	-12.1355
若色等法	-12.1356
生即滅	-12.1356
能令眾生	-12.1363
果則不生	-12.1364
二頭	-12.1365
能用去法	-12.1365
以明不遷	-12.1366
自然而有	-12.1368
進行	-12.1368
義意如	-12.1368
甚深佛法	-12.1369
有無之表	-12.1369
敘述	-12.1371
又大經云	-12.1371
妄說	-12.1371
同出生死	-12.1373
真為俗	-12.1374
前四句	-12.1374
善哉	-12.1374
般若有知	-12.1374
若非緣生	-12.1377
九十六種外道	-12.1378
有自性者	-12.1379
之大宗	-12.1381
今當復	-12.1381
以覺為	-12.1383
攀	-12.1384
文易	-12.1387
不比	-12.1389
兩情	-12.1389
又初是	-12.139
無他緣	-12.139
名滅法人	-12.1391
略有四	-12.1391
三結非	-12.1393
涅槃經文	-12.1393
樂著	-12.1393
大音	-12.1395
還歸	-12.1395
外人不解	-12.1398
色像	-12.14
有果生者	-12.1401
六觸	-12.1401
蓋由	-12.1402
有何法可	-12.1404
超然	-12.1406
是故造論	-12.1407
因緣生滅	-12.1407
若有體者	-12.1408
同此說	-12.1409
無生滅相	-12.141
世間悉	-12.1411
空破有	-12.1411
曾當有	-12.1411
徵宗	-12.1412
使令	-12.1416
能說人	-12.1416
深智	-12.1416
皆是有為	-12.1416
於龍	-12.1419
俗為真	-12.1419
現未	-12.1421
雖眾	-12.1422
道路	-12.1423
色非色	-12.1424
大虗	-12.1424
不曉	-12.1425
上界	-12.1425
無明滅	-12.1426
無為滅度	-12.1426
無處所	-12.1429
相符	-12.1429
所捨	-12.1429
亦不得成	-12.1429
斯事	-12.1429
更說六	-12.1431
應無差別	-12.1431
總唱	-12.1432
略陳	-12.1436
諸法亦如是	-12.1437
非中非	-12.1438
是故不受	-12.1441
神為主	-12.1444
作為果	-12.1447
非次第緣	-12.1448
答曰下第三	-12.1448
義亦不然	-12.1448
境無相	-12.1448
之妙理	-12.1449
亦是邪見	-12.145
復次汝言	-12.1451
故今破之	-12.1452
淨名曰	-12.1454
是以如來	-12.1455
故是而無是	-12.1459
更互相	-12.1462
離相離	-12.1463
對面	-12.1465
聖位	-12.1466
所量	-12.1471
夢覺	-12.1474
第四依	-12.1474
煩惱顛倒	-12.1475
固執	-12.1475
金性	-12.1475
皆是戲論	-12.1475
示過	-12.1476
因緣假生	-12.1478
五天	-12.1479
因果罪福	-12.1479
文王	-12.1479
未決	-12.1481
波若道	-12.1482
因緣故生	-12.1482
次句明	-12.1485
非所作故	-12.1487
如日月	-12.1488
我法中	-12.1489
境生智	-12.149
若因中先有果	-12.149
此四法	-12.1491
自然智	-12.1493
若言無者	-12.1493
大意如此	-12.1493
山中舊	-12.1495
此釋上半	-12.1495
今肇師	-12.1497
之路	-12.1499
比之	-12.15
每有	-12.1501
領受	-12.1501
分為兩	-12.1505
明三種中道	-12.1506
生死去來	-12.1507
巧方便	-12.1508
亦可然	-12.1509
亦不須	-12.151
相治	-12.151
即彼如是	-12.1511
為破眾生	-12.1511
本虗	-12.1511
不見眾生	-12.1512
問既言	-12.1514
聞香	-12.1516
前已遮故	-12.1517
諸苦惱	-12.152
方便實智	-12.1521
誠實	-12.1521
是諸煩惱	-12.1525
是橫論	-12.1527
靡不	-12.1528
有通有	-12.1529
作序	-12.1529
亦是中道	-12.1532
俱捨	-12.1535
第三師	-12.1538
唯除	-12.1538
悲苦	-12.1538
一切諸見	-12.1539
瓶等果	-12.1539
相因待故	-12.154
唯聖人	-12.1544
豈足	-12.1544
之差	-12.1544
身觸	-12.1547
法相說	-12.1547
能發生	-12.1553
三有為相	-12.1556
引般若	-12.1559
下第三正	-12.1561
應如是破	-12.1561
無而言有	-12.1562
覽之	-12.1563
今略示	-12.1563
識陰	-12.1564
六道三乘	-12.1565
是故不說	-12.1566
若是實有	-12.1567
行惡	-12.1568
說無始	-12.1569
喻況	-12.1569
凡愚	-12.157
為無餘	-12.1571
一切智人	-12.1573
難了	-12.1573
得羅漢	-12.1575
成實論師	-12.1575
但伏	-12.1575
不可分別	-12.1576
空為第一義	-12.1577
境智因緣	-12.1578
自下第二	-12.1578
本經二十一	-12.1578
作驗	-12.1581
以顯中道	-12.1584
通別兩	-12.1584
破三歸一	-12.1585
皆非實	-12.1586
未來果	-12.1588
放光下	-12.1591
立為空	-12.1593
不證涅槃	-12.1593
鏡中	-12.1594
希聲	-12.1596
慧數	-12.1596
上半結	-12.1598
忘相	-12.16
無有無無	-12.1603
論主引	-12.1604
析破	-12.1605
通三世	-12.1607
本無生滅	-12.1607
生是有為	-12.1609
一往對	-12.1609
能生大生	-12.161
非有非無之道	-12.1611
云何得成	-12.1611
力大	-12.1618
偏空	-12.1618
如此方	-12.162
等諸相	-12.162
中有果	-12.1623
生時位	-12.1624
遷流之	-12.1628
此三昧	-12.1628
世表	-12.1629
亦非是無	-12.1633
為度眾生	-12.1634
如是過	-12.1637
攝取	-12.1643
諸善法	-12.1644
宜應	-12.1647
四絕之理	-12.1648
一異不成	-12.1649
妄立	-12.165
法身無相	-12.1652
今責之	-12.1658
以此為因	-12.1663
若有知	-12.1663
疏引	-12.1665
人是能	-12.1665
四論宗	-12.1666
七方便	-12.1668
靜心	-12.1671
令誰	-12.1673
容受	-12.1676
能生牙	-12.1683
是所化	-12.1689
能斫	-12.169
為同法喻	-12.169
不藉緣	-12.1691
二縱	-12.1692
正破外道	-12.1693
則不得有	-12.1693
作此解	-12.1694
釋頌中	-12.1694
三乘共	-12.1694
力強	-12.1695
非色根境	-12.1696
本無宗	-12.1697
同寂	-12.1702
得為得	-12.1706
此一問	-12.1709
以是故知	-12.1709
佛家	-12.171
惑者多	-12.1711
五塵等	-12.1715
向涅槃	-12.1716
三界內外	-12.1716
明二空	-12.1719
汝上來	-12.1719
通指	-12.172
法性外	-12.1723
菩薩習	-12.1728
宣流	-12.1729
唯大乘	-12.173
諸法不空	-12.1731
欲度	-12.1737
過惡	-12.1738
思惟分別	-12.1739
修梵行	-12.1739
非謂是非有	-12.1739
未必是	-12.1739
相兼	-12.1742
馬相	-12.1742
清淨色	-12.1742
不斷煩惱	-12.1743
無有二乘	-12.1744
心為心	-12.1747
此論宗	-12.1747
成顛倒	-12.1749
人等相	-12.1752
召物	-12.1758
有生可生	-12.176
不能緣	-12.176
修萬行	-12.176
第四總結	-12.1762
非現見	-12.1762
人法俱無	-12.1762
豈當	-12.1765
故不應捨	-12.1766
莊嚴義	-12.177
既已有	-12.1772
體既常	-12.1774
報無記	-12.1776
能領受	-12.1778
則無合	-12.1782
常住佛	-12.1784
過去業	-12.1784
並失	-12.1787
正為破	-12.1791
願行	-12.1792
皆不可說	-12.1794
依第一義諦	-12.1794
差別分別	-12.1797
所變	-12.1799
屬因緣	-12.1799
涅槃經明	-12.18
其自性	-12.18
無一切智	-12.1802
非例	-12.1804
實相之理	-12.1806
一生二	-12.1807
境既無	-12.1809
想謂有	-12.181
解斷惑	-12.1811
終至	-12.1814
見一分	-12.182
摩羅	-12.1823
應是實	-12.1826
明二諦義	-12.1827
若無瓶	-12.1827
至佛果	-12.1827
為次第緣	-12.1836
前借	-12.1839
了作	-12.1841
生等相	-12.1847
其類	-12.1853
我今立	-12.1855
般若之心	-12.1855
相扶	-12.1856
直釋	-12.1859
別更有	-12.186
根利	-12.1861
差別功能	-12.1861
得三菩提	-12.1873
是當之	-12.188
含眾	-12.1881
兩師	-12.1882
得增長	-12.1885
文甚多	-12.1886
可以無名	-12.1886
義相違故	-12.1888
無漏善	-12.1889
合成一	-12.1889
一切時有	-12.1899
雖是一	-12.1906
發正觀	-12.1908
諸物體	-12.1911
次破其	-12.1914
此文意	-12.1917
大意云	-12.1921
問教諦	-12.1922
而無實	-12.1926
雙林滅	-12.1928
無明闇	-12.1929
依著	-12.1932
第十六	-12.1934
二千年	-12.1936
十方佛	-12.1938
此四義	-12.1939
如虛空華	-12.1939
成佛道	-12.1942
今答此	-12.1971
業力	-12.1973
使一切眾生得	-12.1974
二法破	-12.1976
應非眼	-12.1978
幻等	-12.1982
即智也	-12.1986
二正論	-12.1986
空與不空	-12.1988
而有異	-12.199
瓶柱	-12.1994
入水	-12.2001
二相俱	-12.2008
目人	-12.2015
為世尊	-12.2026
無為無有實	-12.2029
通偈	-12.2039
殺生	-12.2041
差別之相	-12.2047
六度為	-12.2048
明二善	-12.2048
舊宗	-12.2061
僧叡	-12.2063
不見自體	-12.207
異有之空	-12.207
是正因佛性	-12.2073
悉遮遣	-12.2074
幻人	-12.2075
十二倒	-12.2088
要在	-12.2089
以何因緣	-12.2097
三論師	-12.2098
無為之理	-12.2103
喻不成	-12.2104
妙旨	-12.2106
果若有得	-12.2109
無動轉	-12.2116
而能應	-12.2116
一不有有屬	-12.2119
究其	-12.2119
第一義中無有	-12.212
須廣破	-12.2121
來不來	-12.2122
立三相	-12.2126
何故不名	-12.2129
破內法	-12.2131
汝言我	-12.2136
暫對	-12.2138
理智相	-12.2146
空華無	-12.2146
推求諸法	-12.2147
彼去時	-12.2152
先頌	-12.2156
離性故	-12.2158
近從	-12.2159
則唯是	-12.2162
亦不著	-12.2166
豈更	-12.2176
若見有	-12.2177
得法空	-12.2178
大乘法中	-12.2181
能見佛	-12.2183
出何處	-12.2184
無為而為	-12.2186
故說無常	-12.2186
三支	-12.2186
樂報	-12.2194
今觀此	-12.2195
下句明	-12.2195
具攝	-12.2201
佛性者名	-12.2203
掌珍論	-12.2203
准此	-12.2203
若更有	-12.2207
勿謂	-12.2213
是般若波羅蜜	-12.2214
大小乘義	-12.2214
不一不二	-12.2215
成相違	-12.222
此經明	-12.2224
恐外人	-12.2227
待可燃	-12.2235
可了知	-12.2238
而有二諦	-12.224
凡虛	-12.2243
菩薩造論	-12.2246
微妙無相	-12.2251
引經文	-12.2255
牒其	-12.226
而不無	-12.2267
得象	-12.2271
總辨	-12.2271
在現在	-12.2271
互相破	-12.2273
位差別	-12.2276
為自利	-12.2278
汝等所	-12.228
速入	-12.228
生於後	-12.2281
有有有無	-12.2283
照闇	-12.2284
必欲	-12.2291
於中初	-12.2297
頂生	-12.2305
於酪	-12.2305
亦不說	-12.2308
破此三	-12.231
方便波若	-12.2312
身命	-12.2314
少分見	-12.2326
對聲聞	-12.2327
慧日	-12.233
從穀	-12.2333
初句中	-12.2341
取捨之	-12.2342
偈本中	-12.2346
終不離	-12.2347
佛乘為	-12.2351
天真	-12.2352
喜樂	-12.2355
失自相	-12.2357
十二因緣河	-12.2362
一切智智	-12.2372
名為正因	-12.2372
兩邊	-12.2374
色空不二	-12.2375
諸緣中	-12.2376
滌除	-12.2378
弘經	-12.2382
凡諦	-12.2384
今正破	-12.2384
所從來	-12.2392
無相無知	-12.2395
人證法	-12.2396
聖經	-12.2397
真諦四絕	-12.2398
迷倒	-12.2401
執因中無果	-12.2403
一念善	-12.2407
經卷	-12.2409
外道邪見	-12.241
實如所	-12.2417
動念	-12.2418
二智中道	-12.2419
非即離	-12.2426
凡有七	-12.2432
不失容	-12.2432
中亦二	-12.2433
心所現	-12.2439
無為無實	-12.2444
俱無生滅	-12.2448
以般若為	-12.2449
有無相待	-12.2451
不出斯二	-12.2453
汝何故	-12.2453
論師釋	-12.2456
直舉	-12.2462
得二空	-12.2463
汝出因	-12.2465
中道第一義	-12.2471
失待	-12.2474
前淺	-12.248
隨其所	-12.248
謗佛	-12.2483
非定無	-12.2488
恐人	-12.2492
上半正破	-12.2496
後念為	-12.251
以因為	-12.2524
法身實相	-12.2529
已有還無	-12.253
三世善	-12.2534
不即空	-12.2535
合境智	-12.2536
言性住	-12.2557
放捨	-12.2563
海水	-12.2566
立義出因	-12.2566
微隱難測	-12.257
具三相	-12.2576
理微	-12.2577
語義如	-12.2579
下第四明	-12.2579
執有我	-12.2583
桎梏	-12.2584
以此因緣	-12.2587
初破有	-12.2588
前周	-12.259
矜	-12.2598
問何故作此	-12.2612
是因因	-12.2613
常法無	-12.2618
青目釋	-12.2618
生死長遠	-12.2626
數論外道	-12.2628
間出	-12.2631
說諸法有	-12.2637
菩薩為眾生	-12.264
為凡說	-12.2641
佛來應	-12.2644
得失義	-12.2644
智為能	-12.2649
義則不成	-12.265
是中實	-12.266
詮顯	-12.2662
超度四流	-12.2667
是即為	-12.2681
有果性	-12.2682
責外人	-12.2683
三引經證成	-12.2683
例諸	-12.2685
所依於諦	-12.2685
入現在	-12.2687
生死及涅槃	-12.2687
鞞婆沙人	-12.2689
執一邊	-12.2694
損之	-12.27
是邪說	-12.2702
受諸苦	-12.2703
假有體	-12.2703
如汝意	-12.2704
初四偈	-12.2709
撫掌	-12.2711
復引	-12.2715
真俗一體	-12.2717
偏脩	-12.2717
我之自	-12.2717
有三雙	-12.2722
涅槃樂	-12.2722
謗言	-12.2722
所治	-12.2726
常隨逐	-12.2736
申因緣	-12.2737
於眾生有	-12.2742
干	-12.2746
鵽	-12.2746
垂迹	-12.2752
攝法盡	-12.2762
老書	-12.2763
問上云	-12.2766
盾	-12.2771
矛	-12.2776
因中前有	-12.2776
遊刃萬機	-12.2778
澡	-12.2781
滑	-12.2784
小後大	-12.2785
無心於內	-12.2785
往物不化	-12.2786
阿鞞䟦致	-12.2786
殉	-12.2787
來問婉切	-12.2789
萇	-12.2791
村	-12.2791
無有可有	-12.2791
本業經	-12.2792
況大乘	-12.2792
瓫	-12.2792
引曾見	-12.2793
名色支	-12.2793
諸經論	-12.2793
口不能言	-12.2793
沈沒	-12.2793
妙契環中	-12.2794
鞭	-12.2794
大亂	-12.2795
胸	-12.2795
臧否	-12.2795
蠱	-12.2795
嗟	-12.2797
所言大者	-12.2797
珍寶	-12.2797
吉凶	-12.2797
老君	-12.2797
阿順那	-12.2797
二階	-12.2798
其身而身	-12.2798
規矩	-12.2798
淨瑕穢	-12.2799
膚	-12.28
徤	-12.28
等無間緣	-12.28
迴向三有	-12.28
七十論	-12.28
譽	-12.28
以少從多	-12.28
前二論	-12.2801
微塵非現見	-12.2801
婆羅	-12.2801
白虎	-12.2801
憎背	-12.2801
愛佛地功德	-12.2801
曹	-12.2802
交臂	-12.2802
埃	-12.2802
排斥	-12.2802
今若至古	-12.2803
嘉遁	-12.2803
萬有參分	-12.2804
北山錄	-12.2804
二理未始殊	-12.2805
有其所以不有	-12.2805
即寂滅性	-12.2805
苻	-12.2805
論至日	-12.2805
果有無相之知	-12.2806
為凡說我無我	-12.2806
鵂	-12.2806
仞	-12.2807
乾乾宵夕	-12.2807
昂	-12.2807
破邪因緣	-12.2807
恣	-12.2807
不自有其知	-12.2808
良醫	-12.2808
枝流	-12.2808
階差	-12.2808
逝者如斯	-12.2808
即色遊玄論	-12.2808
法華實相之旨	-12.2808
若汝欲得	-12.2808
像法決疑經	-12.2808
剪	-12.2808
九折十演者	-12.2809
相續道中	-12.2809
空有並觀	-12.2809
豈待宰割以求通哉	-12.2809
廣博	-12.2809
復何惑於去留	-12.2809
所生實果	-12.2809
苑	-12.2809
糸	-12.2809
聦	-12.2809
然異端之論	-12.2809
第一義空名為智慧	-12.2809
紹	-12.2809
九年	-12.281
不遍同品	-12.281
頂戴	-12.281
晨	-12.281
巨細相容	-12.281
猪	-12.281
盡偏中	-12.2811
阿修羅	-12.2811
囑	-12.2811
理屈辭窮	-12.2811
堊	-12.2811
誠以不異於異	-12.2811
床	-12.2812
截	-12.2812
我則言其住	-12.2812
不從師得	-12.2812
恐是當之生	-12.2812
五陰永滅	-12.2812
莊子外篇	-12.2812
因去知去者	-12.2812
眼等五根	-12.2812
並決破	-12.2812
佛性真我	-12.2812
翫味	-12.2812
比丘白佛	-12.2812
松	-12.2812
草澤	-12.2813
融冶二儀	-12.2813
標說曰	-12.2813
正法五百年	-12.2813
惘	-12.2813
威被蒼生	-12.2813
[...]
