<unk>	0
<s>	0
</s>	0
之	-3.94802
也	-3.96028
而	-4.28486
者	-4.55348
以	-4.64028
則	-4.66216
(	-4.75272
)	-4.8057
為	-4.88112
其	-5.0691
有	-5.07481
是	-5.09759
於	-5.21892
不	-5.22985
言	-5.24192
曰	-5.2665
故	-5.54556
此	-5.55181
矣	-5.55821
與	-5.56251
○	-5.56527
人	-5.57414
無	-5.68789
然	-5.79235
如	-5.79409
非	-5.80105
自	-5.8185
一	-5.87321
謂	-5.89002
亦	-5.89077
乎	-5.93644
皆	-6.00427
在	-6.12892
若	-6.13544
至	-6.15405
得	-6.157
事	-6.16637
見	-6.17849
知	-6.18563
行	-6.20343
處	-6.2348
又	-6.23996
字	-6.25342
云	-6.25503
説	-6.2658
所	-6.2936
已	-6.32851
必	-6.33224
大	-6.33798
子	-6.34421
上	-6.34818
心	-6.36583
▁	-6.37778
所以	-6.38223
道	-6.39419
雖	-6.39599
問	-6.40045
中	-6.40141
爲	-6.41349
即	-6.42728
孟子	-6.44153
當	-6.44776
聖人	-6.44881
耳	-6.47431
所謂	-6.48178
能	-6.49992
下	-6.51271
反	-6.51937
時	-6.52306
欲	-6.52332
乃	-6.52806
用	-6.53432
孔子	-6.57404
使	-6.59053
意	-6.59288
正	-6.60047
可	-6.60625
明	-6.62079
焉	-6.62268
君子	-6.62305
禮	-6.62977
學	-6.6616
以為	-6.70085
義	-6.7053
猶	-6.7139
本	-6.71996
蓋	-6.72087
民	-6.75166
如此	-6.75523
不可	-6.75623
王	-6.75756
哉	-6.75822
夫	-6.77218
或	-6.77455
章	-6.77897
仁	-6.7804
而不	-6.78084
夫子	-6.78769
同	-6.79362
君	-6.79952
我	-6.80017
之意	-6.81931
者也	-6.82091
說	-6.82429
不能	-6.83968
出	-6.84599
便	-6.84635
生	-6.84775
作	-6.8493
去	-6.85741
從	-6.86963
相	-6.87476
既	-6.88401
但	-6.89088
樂	-6.89213
善	-6.90228
文	-6.90347
名	-6.91041
)○	-6.91526
天	-6.91792
而已	-6.91933
三	-6.9194
及	-6.93232
後	-6.93312
今	-6.94484
方	-6.97163
未	-6.97432
成	-6.97901
,	-6.99665
實	-7.00016
吾	-7.00753
易	-7.00976
/	-7.01258
盖	-7.017
惟	-7.01709
于	-7.02032
先	-7.02125
固	-7.02583
音	-7.03525
徳	-7.03562
何	-7.03682
立	-7.04817
論	-7.0521
理	-7.06731
國	-7.07003
來	-7.07678
天下	-7.10218
子曰	-7.10288
不知	-7.10891
公	-7.10894
命	-7.12183
物	-7.12232
己	-7.12894
小	-7.13087
多	-7.13604
之事	-7.13662
只是	-7.14067
且	-7.15795
因	-7.16685
盡	-7.1683
又曰	-7.17123
敬	-7.17396
將	-7.17487
取	-7.1763
二	-7.17898
信	-7.19815
惡	-7.20016
好	-7.20283
通	-7.20438
周	-7.21308
齊	-7.21616
節	-7.21934
安	-7.21935
氣	-7.22068
分	-7.22292
求	-7.23177
合	-7.23485
就	-7.24562
居	-7.24697
重	-7.25768
食	-7.25805
性	-7.26318
凡	-7.26846
由	-7.27623
語	-7.2763
始	-7.27732
不得	-7.28694
臣	-7.28978
外	-7.29123
思	-7.29557
誠	-7.29718
要	-7.29915
常	-7.30706
舜	-7.30851
他	-7.30861
長	-7.31218
世	-7.31509
學者	-7.31777
注	-7.31974
身	-7.32058
難	-7.3254
書	-7.32629
過	-7.3316
發	-7.3322
指	-7.33713
死	-7.3395
只	-7.34513
聞	-7.34667
便是	-7.3491
士	-7.35136
舉	-7.35331
此章	-7.35953
之心	-7.35984
至於	-7.36881
直	-7.37514
日	-7.37703
了	-7.37729
深	-7.3823
治	-7.38355
入	-7.39774
志	-7.40376
葢	-7.41236
故曰	-7.41276
可以	-7.41586
人之	-7.41975
復	-7.43001
註	-7.43294
地	-7.43582
法	-7.43793
止	-7.44894
之道	-7.44931
五	-7.45627
傳	-7.46288
彼	-7.46528
稱	-7.46709
去聲	-7.47671
主	-7.4796
德	-7.48097
諸侯	-7.49578
動	-7.49629
切	-7.49686
而後	-7.49703
獨	-7.49819
經	-7.50087
魯	-7.50125
前	-7.50494
師	-7.50545
甚	-7.50915
内	-7.50972
親	-7.51281
謂之	-7.51376
似	-7.51516
四	-7.52612
解	-7.52884
逺	-7.5342
子路	-7.5377
對	-7.5518
利	-7.55757
觀	-7.56134
聖	-7.56257
言之	-7.5639
亂	-7.56434
辭	-7.5693
賢	-7.57356
力	-7.57702
祭	-7.5777
兩	-7.58568
定	-7.5896
兼	-7.59058
爾	-7.59132
不同	-7.59613
遂	-7.59936
教	-7.61105
極	-7.61328
中庸	-7.61347
失	-7.6172
服	-7.61913
終	-7.62615
豈	-7.6306
全	-7.63156
政	-7.63201
著	-7.64276
孟子曰	-7.64469
之説	-7.65057
足	-7.65326
近	-7.65524
疑	-7.65928
宜	-7.66435
少	-7.6688
家	-7.67107
歸	-7.67872
而言	-7.67983
之間	-7.68099
却	-7.68157
數	-7.68537
和	-7.68564
然後	-7.6887
詩	-7.69513
諸	-7.69893
守	-7.69935
視	-7.70063
看	-7.70549
父	-7.7079
異	-7.71389
水	-7.7169
受	-7.7205
體	-7.72307
養	-7.72994
古	-7.73204
進	-7.73442
或問	-7.73849
尚	-7.73909
其所	-7.74419
存	-7.75309
致	-7.75631
髙	-7.7616
引	-7.76366
朱子曰	-7.76709
程子	-7.78872
變	-7.79126
朝	-7.79936
才	-7.80035
須	-7.80297
之所	-7.80717
小人	-7.80756
順	-7.80773
愛	-7.80943
推	-7.81802
是也	-7.82092
色	-7.82143
集註	-7.82186
斯	-7.82194
加	-7.82258
有所	-7.831
之言	-7.83419
各	-7.83612
大夫	-7.83806
而無	-7.84039
也故	-7.84111
尊	-7.84126
朱子	-7.84222
於此	-7.84264
)(	-7.84706
衆	-7.84807
工夫	-7.84978
子貢	-7.85984
位	-7.86326
是以	-7.86557
疏	-7.86734
制	-7.86793
無所	-7.87146
不足	-7.87269
氏	-7.8759
屬	-7.8778
情	-7.87815
文王	-7.87911
益	-7.89041
更	-7.89297
不是	-7.89396
輔氏曰	-7.89885
比	-7.90005
自然	-7.90145
唯	-7.90466
按	-7.90916
平	-7.90982
孝	-7.91464
殺	-7.91487
嘗	-7.91868
容	-7.92306
二字	-7.92385
告	-7.92842
智	-7.92842
喪	-7.92889
論語	-7.93402
不必	-7.9349
間	-7.93527
莫	-7.93744
篇	-7.93821
顔子	-7.94406
興	-7.94513
執	-7.94662
六	-7.94827
應	-7.9487
化	-7.95578
初	-7.95791
之中	-7.95795
達	-7.96281
之時	-7.96434
起	-7.96466
如何	-7.96659
釋	-7.97183
陳	-7.97294
忠	-7.9741
年	-7.97859
神	-7.97966
天子	-7.98029
恐	-7.98403
亡	-7.98795
山	-7.98872
官	-7.99553
之理	-7.99947
的	-8.00797
之義	-8.00928
病	-8.01369
門	-8.02102
天理	-8.02238
都	-8.02298
到	-8.02432
天地	-8.0307
備	-8.03097
以其	-8.03159
大學	-8.0321
九	-8.03246
别	-8.03309
仕	-8.03615
輕	-8.03861
勝	-8.04024
之說	-8.04185
據	-8.04289
苟	-8.04345
厚	-8.04383
改	-8.04723
强	-8.04762
宋	-8.05102
疾	-8.0546
任	-8.0589
原	-8.05941
邪	-8.05942
聖賢	-8.06163
俱	-8.06326
私	-8.06377
可見	-8.06398
其心	-8.06611
末	-8.06779
。	-8.06858
質	-8.07437
憂	-8.07492
之人	-8.08009
友	-8.08053
功	-8.0808
交	-8.08272
則是	-8.08428
適	-8.08438
為之	-8.08842
美	-8.08908
微	-8.08922
廣	-8.09596
不及	-8.10127
衣	-8.10316
害	-8.10991
特	-8.11027
精	-8.11322
程子曰	-8.11808
周公	-8.11897
辨	-8.12162
必有	-8.12297
權	-8.12348
等	-8.12767
車	-8.1307
考	-8.13219
田	-8.13379
放	-8.13388
施	-8.13446
徒	-8.13538
春秋	-8.13836
窮	-8.13937
不為	-8.1412
不敢	-8.14676
亦有	-8.15215
果	-8.156
詳	-8.15682
仁者	-8.15763
當時	-8.15833
絶	-8.16114
也然	-8.16384
扵	-8.16466
識	-8.16623
南	-8.16774
足以	-8.17229
元	-8.17413
令	-8.17429
真	-8.17852
右	-8.17877
專	-8.17912
人心	-8.18164
何以	-8.18282
之後	-8.18615
伐	-8.1874
底	-8.19069
尤	-8.19182
向	-8.19234
這	-8.19257
予	-8.19432
依	-8.19647
次	-8.19666
之功	-8.19669
天下之	-8.19787
百	-8.203
恕	-8.20415
做	-8.20437
怨	-8.20552
簡	-8.20906
虚	-8.21066
卒	-8.2141
子思	-8.215
習	-8.21578
貴	-8.21655
而已矣	-8.21789
東	-8.21808
察	-8.22311
章句	-8.2234
記	-8.2236
度	-8.22475
往	-8.2253
太	-8.22606
耶	-8.23182
仁義	-8.233
馬	-8.23434
木	-8.23525
夏	-8.23798
愚	-8.24001
不可以	-8.24413
:「	-8.24475
老	-8.24499
聲	-8.24624
待	-8.24673
廢	-8.2473
不以	-8.25109
射	-8.25346
責	-8.26025
見其	-8.26452
未嘗	-8.26501
序	-8.26599
愈	-8.27028
旣	-8.27314
行之	-8.27395
禮樂	-8.27661
勇	-8.2773
讀	-8.2776
務	-8.27974
之類	-8.28022
則其	-8.2806
㑹	-8.28206
請	-8.28229
修	-8.28348
皆是	-8.28669
風	-8.29902
無不	-8.30011
下文	-8.30435
恭	-8.30562
隠	-8.30563
偏	-8.30576
辟	-8.30709
久	-8.30878
隱	-8.31102
流	-8.31242
聖人之	-8.31563
類	-8.31723
具	-8.31928
盛	-8.31941
最	-8.32139
也若	-8.32559
也云	-8.3268
素	-8.32763
可謂	-8.33058
形	-8.3311
楚	-8.3333
開	-8.33712
器	-8.34046
目	-8.34365
室	-8.34446
見得	-8.34473
曽子	-8.34477
白	-8.34621
以下	-8.3489
富	-8.35141
未有	-8.35279
克	-8.3529
之謂	-8.35318
聽	-8.35413
句	-8.35648
一句	-8.35649
堯舜	-8.35737
載	-8.36126
弟子	-8.36581
巳	-8.36608
陽	-8.36746
十	-8.36748
知之	-8.37043
並	-8.37055
患	-8.37264
商	-8.3734
口	-8.37529
戒	-8.37955
宗	-8.37963
約	-8.37966
薄	-8.38008
以此	-8.38174
廟	-8.38482
高	-8.3876
知其	-8.39077
設	-8.39154
訓	-8.39297
象	-8.39501
此心	-8.39563
况	-8.3989
邑	-8.40054
舍	-8.4031
喜	-8.40312
新安陳氏曰	-8.4037
土	-8.40749
者亦	-8.40792
首	-8.41076
然則	-8.41173
道理	-8.41282
傷	-8.41306
謹	-8.41654
答	-8.41857
不過	-8.42173
曾子	-8.42843
此言	-8.42916
喻	-8.42993
八	-8.43067
弟	-8.43073
顯	-8.43162
計	-8.43242
賢者	-8.43397
共	-8.43454
出於	-8.43567
告子	-8.43805
萬	-8.44001
舊	-8.44033
斷	-8.44051
言其	-8.44057
衛	-8.44287
女	-8.44312
堯	-8.44334
賦	-8.44704
之禮	-8.44736
来	-8.44786
七	-8.44931
鬼神	-8.45238
望	-8.4527
武	-8.45349
帝	-8.45351
西	-8.45538
伯	-8.45644
新	-8.45694
隨	-8.45872
退	-8.45933
衰	-8.46149
道之	-8.46286
也夫	-8.46585
兵	-8.47133
亦是	-8.47247
謀	-8.47485
一事	-8.47767
禄	-8.47915
離	-8.48023
其實	-8.48226
里	-8.485
使之	-8.48567
於人	-8.48639
手	-8.48666
其言	-8.48688
武王	-8.48715
慮	-8.48762
清	-8.49162
勿	-8.4945
暴	-8.49623
管仲	-8.49673
可也	-8.49678
之實	-8.49732
有以	-8.49808
湯	-8.49816
敎	-8.49853
忘	-8.49879
積	-8.49879
卑	-8.50456
哀	-8.50687
即是	-8.50724
幾	-8.50725
箇	-8.50973
禹	-8.51011
餘	-8.51051
漢	-8.51122
路	-8.51405
端	-8.51828
将	-8.5205
父母	-8.52056
畏	-8.52243
財	-8.52249
為仁	-8.52264
費	-8.52363
不見	-8.52407
後世	-8.52414
之學	-8.52578
上下	-8.52697
逆	-8.52898
殷	-8.52961
玉	-8.53112
則有	-8.53158
不如	-8.5316
俗	-8.53167
顧	-8.53241
其意	-8.53333
萬物	-8.53424
讓	-8.53513
坐	-8.53641
之際	-8.53685
戰	-8.53713
講	-8.53902
上文	-8.53924
遺	-8.53954
之地	-8.54211
未能	-8.5431
總	-8.54486
味	-8.55008
卿	-8.55102
秦	-8.55127
季氏	-8.55203
君子之	-8.55319
曲	-8.55684
怒	-8.55698
張	-8.55779
不然	-8.5586
三年	-8.55885
而不知	-8.56005
量	-8.5601
者皆	-8.56561
通曰	-8.56569
罪	-8.56931
道也	-8.57007
助	-8.57071
違	-8.57253
覺	-8.57414
古人	-8.5743
擇	-8.57561
悦	-8.57591
承	-8.58518
嵗	-8.58972
博	-8.59207
耕	-8.59257
強	-8.59258
不待	-8.59395
晉	-8.59471
細	-8.59652
牛	-8.59921
息	-8.60206
此是	-8.60216
子夏	-8.60486
而不能	-8.60841
周禮	-8.61053
那	-8.61162
北	-8.61408
矣然	-8.61605
剛	-8.61687
頭	-8.61715
金	-8.61826
忠信	-8.61979
勉	-8.62063
包	-8.62293
嚴	-8.6236
胡氏曰	-8.62592
㣲	-8.62894
期	-8.63117
之法	-8.63178
之辭	-8.63208
為善	-8.63337
充	-8.63464
孫	-8.63549
冠	-8.63652
弗	-8.63692
熟	-8.6373
仲	-8.63813
格	-8.63898
所以為	-8.64127
孰	-8.64384
侯	-8.64384
條	-8.64499
其事	-8.64522
亦不	-8.64551
門人	-8.64686
勞	-8.64745
使人	-8.64932
雖有	-8.65017
為政	-8.65127
不善	-8.65128
徃	-8.6525
以爲	-8.6554
孝弟	-8.65728
語録曰	-8.65744
史	-8.65745
審	-8.65753
兄弟	-8.6578
也言	-8.65966
州	-8.66317
繼	-8.66426
鄭	-8.66568
許	-8.66886
自有	-8.66921
不足以	-8.67174
不仁	-8.67175
否	-8.67397
棄	-8.67399
藏	-8.67792
誤	-8.67854
人也	-8.67946
證	-8.68112
脩	-8.68186
刑	-8.68453
急	-8.68629
純	-8.68789
勢	-8.68801
左	-8.69029
得之	-8.69244
仲尼	-8.69535
也此	-8.69655
統	-8.69913
不當	-8.7
義理	-8.70064
持	-8.70086
祖	-8.70219
民之	-8.70252
召	-8.7028
二者	-8.70487
危	-8.70629
賤	-8.70674
封	-8.7092
歟	-8.71052
差	-8.71092
假	-8.71374
慎	-8.71829
遷	-8.7187
列	-8.72147
夫子之	-8.72187
之外	-8.72473
梁	-8.725
孔	-8.72531
至誠	-8.7261
恥	-8.72672
逹	-8.72678
述	-8.72731
君臣	-8.7275
為人	-8.72979
不言	-8.73324
庸	-8.73388
可知	-8.73675
一節	-8.73748
其身	-8.73806
則又	-8.73853
貫	-8.73868
孔子曰	-8.73991
之所以	-8.74142
爭	-8.74168
略	-8.74291
滅	-8.74313
接	-8.74401
感	-8.74482
用之	-8.74588
懼	-8.74588
鄉	-8.74596
而有	-8.74659
率	-8.74716
又有	-8.74824
眀	-8.74987
千	-8.74997
慶源輔氏曰	-8.75014
於是	-8.75258
升	-8.75401
乆	-8.75622
宫	-8.7574
決	-8.75751
乗	-8.75853
燕	-8.75873
移	-8.76195
好惡	-8.7629
何也曰	-8.76414
誠意	-8.76475
遇	-8.76513
須是	-8.76713
散	-8.76768
姓	-8.76867
子張	-8.76883
城	-8.7706
富貴	-8.77137
史記	-8.77182
忠恕	-8.77188
叔	-8.77379
天命	-8.77418
再	-8.77577
此意	-8.77611
蔽	-8.77734
救	-8.77764
䘮	-8.77893
惠	-8.7813
享	-8.78147
省	-8.78149
寡	-8.78166
妄	-8.78421
還	-8.78505
月	-8.78576
祀	-8.78657
補	-8.78806
縣	-8.78928
火	-8.79108
飾	-8.79196
之本	-8.79431
及其	-8.79454
抑	-8.79475
故云	-8.79481
兄	-8.79628
二句	-8.79677
故夫子	-8.79714
見於	-8.79784
借	-8.79882
乎曰	-8.79908
面	-8.80282
母	-8.80335
職	-8.80356
則不	-8.80558
每	-8.80635
語録	-8.80635
豈不	-8.80637
置	-8.80827
降	-8.80836
淺	-8.80858
者言	-8.80929
伊尹	-8.80963
一人	-8.80973
教人	-8.80981
造	-8.80985
賓	-8.81163
賜	-8.81169
矣故	-8.8126
議	-8.8139
得其	-8.81672
昭	-8.81672
𤼵	-8.81719
拜	-8.82015
遠	-8.82144
貌	-8.82228
楊氏	-8.82436
先生	-8.82612
申	-8.82718
朋友	-8.82897
至此	-8.8293
妙	-8.8325
忽	-8.83301
濟	-8.8332
陳氏曰	-8.83372
良	-8.83411
求之	-8.8344
人君	-8.83544
勸	-8.83586
厲	-8.83651
介	-8.8368
不忍	-8.83778
如此則	-8.8396
忍	-8.84086
寛	-8.8429
回	-8.84627
速	-8.84658
布	-8.84667
夷	-8.84677
業	-8.84692
不在	-8.84839
畧	-8.84884
纔	-8.84889
被	-8.85016
代	-8.85212
皆有	-8.85459
諫	-8.85629
念	-8.85671
與之	-8.85877
授	-8.85943
自是	-8.85974
與人	-8.86065
乘	-8.86097
而能	-8.86285
參	-8.86426
恩	-8.86467
専	-8.86475
亦非	-8.8676
徹	-8.86762
連	-8.86775
飲	-8.87014
舎	-8.87209
固有	-8.87214
一日	-8.87453
其理	-8.87516
而又	-8.87534
未必	-8.87587
則亦	-8.87599
不容	-8.87758
魏	-8.87774
者必	-8.87836
惑	-8.87838
雜	-8.8785
也蓋	-8.87963
井	-8.88005
附	-8.88008
者非	-8.88208
之分	-8.88496
敗	-8.88537
肉	-8.88548
此理	-8.8866
各有	-8.88683
有餘	-8.88872
歌	-8.88914
除	-8.88966
則無	-8.89053
學問	-8.89146
驕	-8.89163
聚	-8.89265
趨	-8.89278
百姓	-8.89317
或曰	-8.89462
羣	-8.89465
春	-8.8966
石	-8.89738
之於	-8.89973
空	-8.89995
堂	-8.90047
紂	-8.90121
偽	-8.90235
氣象	-8.90382
上聲	-8.90395
不行	-8.90453
避	-8.90537
汝	-8.90852
攻	-8.90899
其所以	-8.91141
私意	-8.91189
屈	-8.91256
犯	-8.91284
均	-8.91287
澤	-8.91293
轉	-8.91468
愚謂	-8.91605
賊	-8.91863
欲其	-8.91894
也今	-8.92222
古之	-8.92398
邦	-8.92449
臨	-8.9247
奉	-8.92689
黨	-8.9284
報	-8.92884
古者	-8.92891
儀	-8.92899
卷	-8.93224
保	-8.93229
況	-8.934
之事也	-8.93549
半	-8.93593
荅	-8.93625
如是	-8.93662
威	-8.93784
其君	-8.93839
越	-8.93929
何如	-8.93978
願	-8.94008
把	-8.9409
仁也	-8.94139
魚	-8.94151
修身	-8.94158
皆以	-8.94184
敢	-8.94235
在我	-8.94391
寧	-8.9458
破	-8.94716
君之	-8.94741
齊王	-8.94809
貧	-8.9491
何也	-8.94914
閒	-8.95314
大人	-8.95407
隂	-8.95472
種	-8.95656
所當	-8.95801
奪	-8.96061
不欲	-8.96126
正是	-8.96217
懐	-8.96293
顔淵	-8.96324
辯	-8.96746
操	-8.96965
非謂	-8.97138
先王	-8.9719
闕	-8.97247
則必	-8.97265
殊	-8.97381
大抵	-8.97395
留	-8.97495
虞	-8.97763
發明	-8.97857
祿	-8.9799
靜	-8.98328
無窮	-8.9835
覆	-8.98353
昏	-8.98397
乎此	-8.98407
事君	-8.98437
恱	-8.98497
術	-8.98504
説得	-8.98513
歴	-8.98676
新民	-8.9885
誅	-8.98857
之名	-8.99
靈	-8.99009
他人	-8.99107
酒	-8.99181
余	-8.99218
集	-8.9924
案	-8.99308
左傳	-8.99318
華	-8.99449
之士	-8.99489
效	-8.9951
儉	-8.99853
會	-8.9993
不肯	-9.00024
註云	-9.00042
禍	-9.00068
光	-9.00152
表	-9.00168
昔	-9.00231
衆人	-9.00343
善人	-9.00376
之道也	-9.00639
干	-9.00723
御	-9.00947
用力	-9.01202
自家	-9.01237
慕	-9.01269
畫	-9.01287
逐	-9.01305
畢	-9.01394
役	-9.01404
肆	-9.01746
根	-9.01857
其中	-9.01959
内外	-9.0201
野	-9.02069
唐	-9.02073
不用	-9.02203
二子	-9.02308
亦可	-9.02451
掌	-9.02451
不明	-9.02529
孟	-9.02564
是非	-9.02709
冕	-9.02722
河	-9.02835
其本	-9.02842
矜	-9.02972
不復	-9.03049
四者	-9.03168
三者	-9.0318
較	-9.03219
建	-9.03289
其道	-9.03466
豈有	-9.03483
循	-9.03607
虛	-9.03607
誰	-9.03731
氣質	-9.03744
無非	-9.03755
迹	-9.03796
之徒	-9.038
巧	-9.03806
免	-9.03819
儒	-9.03821
格物	-9.03921
典	-9.04078
妻	-9.04116
故以	-9.04262
翼註曰	-9.04359
該	-9.0439
并	-9.04429
帶	-9.04475
損	-9.04539
竊	-9.04565
本末	-9.04586
爵	-9.04637
决	-9.04707
静	-9.04715
言語	-9.04808
此則	-9.04881
知者	-9.04896
失其	-9.05143
征	-9.05249
游	-9.05487
丘	-9.05536
奚	-9.05675
輕重	-9.05693
失之	-9.05703
終身	-9.05749
工	-9.05787
性之	-9.05859
温	-9.05937
而為	-9.05983
而非	-9.06044
飲食	-9.06058
五十	-9.06061
其志	-9.06087
一貫	-9.06123
賔	-9.06154
第	-9.06186
結	-9.06248
之大	-9.06545
郊	-9.06649
事親	-9.06683
貪	-9.06698
致知	-9.06732
所言	-9.06952
言也	-9.06954
茍	-9.07014
平聲	-9.07031
者則	-9.07147
見之	-9.07201
縱	-9.07226
觀之	-9.07229
若是	-9.07358
音義	-9.07385
人欲	-9.07557
庶	-9.07865
姑	-9.0797
配	-9.08036
人皆	-9.08143
藝	-9.08177
胡	-9.08259
粗	-9.08283
不正	-9.08369
季	-9.08422
號	-9.0844
也盖	-9.0845
而行	-9.08537
不失	-9.08553
相似	-9.08725
;	-9.08787
海	-9.08806
人之所	-9.08847
分明	-9.0922
謝氏	-9.09318
葬	-9.09322
之謂也	-9.09496
故也	-9.09527
因其	-9.09711
一時	-9.09818
然而	-9.10024
天之	-9.1007
照	-9.10144
追	-9.10273
從之	-9.10298
有此	-9.10352
錯	-9.10357
人情	-9.10404
殆	-9.10427
毋	-9.10456
困	-9.10543
也曰	-9.11111
夫人	-9.11195
苦	-9.11245
本文	-9.11247
聘	-9.1142
禘	-9.11454
漸	-9.11485
形容	-9.11605
則知	-9.11776
履	-9.11805
在於	-9.11832
可知矣	-9.11871
欽定四庫全書	-9.11989
農	-9.12128
遜	-9.12243
先後	-9.12614
力行	-9.12698
父子	-9.12702
先生曰	-9.12804
懷	-9.12829
歎	-9.12874
之志	-9.13043
全體	-9.13188
之論	-9.13288
材	-9.13291
一章	-9.1332
敏	-9.13352
則為	-9.13443
辱	-9.13499
文公	-9.13588
在其中	-9.1381
君子之道	-9.14084
衞	-9.14116
矣此	-9.14123
黄	-9.14132
主於	-9.14192
言之則	-9.14367
有道	-9.14379
市	-9.14555
䟽	-9.1457
驗	-9.14597
者是	-9.14634
席	-9.14792
存心	-9.14798
紀	-9.14855
取其	-9.15069
於己	-9.15092
意思	-9.15153
此節	-9.152
玩	-9.15242
則非	-9.15249
圖	-9.153
不與	-9.15431
衡	-9.15491
今日	-9.15534
尺	-9.15557
毁	-9.15619
密	-9.15791
者謂	-9.15822
亦無	-9.15868
善惡	-9.1589
使民	-9.1606
篤	-9.16091
氏曰	-9.16115
平日	-9.16191
之性	-9.16254
二十	-9.16576
饒氏曰	-9.16667
事之	-9.16698
宰	-9.16832
於天下	-9.16971
乃是	-9.16986
心之	-9.17043
子之	-9.17104
秋	-9.1711
資	-9.17147
而自	-9.17173
仲弓	-9.17231
以見	-9.17306
以求	-9.17524
陵	-9.17554
階	-9.17615
悟	-9.17702
莫不	-9.17706
社	-9.17717
關	-9.17869
不至	-9.17897
重在	-9.17903
鄙	-9.1793
未嘗不	-9.17982
丁	-9.1812
王者	-9.18151
眞	-9.18168
泰	-9.1831
試	-9.18334
蒙引	-9.18369
孔子之	-9.18379
李	-9.18473
私欲	-9.18527
舜之	-9.18545
親親	-9.18598
遊	-9.18708
於我	-9.18815
天道	-9.1883
窮理	-9.18867
一般	-9.18873
禽獸	-9.18937
穀	-9.19052
云云	-9.19238
機	-9.19337
淫	-9.19371
夫音扶	-9.19453
堅	-9.19527
以至	-9.19703
其為	-9.19782
於民	-9.1981
至善	-9.19815
謬	-9.19838
者蓋	-9.19916
為主	-9.20017
元按	-9.20116
取之	-9.20202
人所	-9.20332
稍	-9.20376
一箇	-9.20377
告之	-9.20501
弱	-9.20518
也故曰	-9.20621
運	-9.20675
輔	-9.20696
尹氏	-9.20757
孟子言	-9.2095
塞	-9.20955
者以	-9.21037
教之	-9.21072
畝	-9.2115
冬	-9.21203
后	-9.21205
毎	-9.21214
學之	-9.21223
左右	-9.21237
分别	-9.21245
焉則	-9.2125
於心	-9.21335
觀其	-9.21434
徳之	-9.21454
其説	-9.21519
不若	-9.21577
角	-9.21581
如字	-9.21599
受之	-9.21995
此所謂	-9.22187
曉	-9.22211
譏	-9.22277
好學	-9.22422
方是	-9.22553
累	-9.22586
禮義	-9.22723
桓公	-9.22766
遽	-9.2281
今之	-9.2287
物之	-9.22889
㡬	-9.23008
世之	-9.23061
之至	-9.23152
曽	-9.23315
者乎	-9.23391
慢	-9.234
吳	-9.23501
不可不	-9.23635
也疏	-9.23789
倍	-9.23797
孟子之言	-9.23913
裘	-9.23949
又以	-9.24107
以禮	-9.24128
禁	-9.2428
注孔曰	-9.24313
謙	-9.24564
之妙	-9.24634
獻	-9.24699
冝	-9.24704
其餘	-9.24713
聴	-9.24725
只在	-9.24738
雙峯饒氏曰	-9.24767
狂	-9.2482
無所不	-9.24864
欺	-9.24868
脩身	-9.24915
草	-9.24946
僭	-9.24957
王道	-9.2501
無道	-9.25038
不相	-9.25067
此説	-9.253
國之	-9.25326
曾	-9.25369
闗	-9.25446
之語	-9.25605
之失	-9.25608
畜	-9.25741
自得	-9.25822
背	-9.25939
踐	-9.26045
皮	-9.26051
崇	-9.26057
註孔安國曰	-9.26124
己之	-9.26249
朱	-9.26357
便有	-9.26361
范氏	-9.2652
者又	-9.26821
蔡	-9.26957
徐	-9.26984
以明	-9.27014
争	-9.2714
之體	-9.27175
所為	-9.27225
尋	-9.27289
客	-9.27401
所行	-9.27598
發見	-9.27625
者以其	-9.27754
聞之	-9.27845
者矣	-9.27863
吕	-9.27948
拘	-9.27953
是就	-9.28008
四十	-9.28093
逸	-9.28117
防	-9.28134
揚	-9.28155
示	-9.28229
啓	-9.28308
今人	-9.28333
明徳	-9.2839
尹氏曰	-9.28446
一言	-9.28448
滿	-9.28498
四字	-9.28506
幸	-9.28555
祭祀	-9.28608
此亦	-9.2862
義也	-9.28748
絜矩	-9.28877
之問	-9.28893
詐	-9.28899
横	-9.28906
也孟子曰	-9.28919
司	-9.28935
宻	-9.29265
收	-9.29356
在此	-9.29423
襲	-9.29496
是亦	-9.29533
雲峯胡氏曰	-9.29585
以上	-9.29595
性善	-9.29604
㸔	-9.29679
自欺	-9.29686
在人	-9.29756
之徳	-9.29759
繫	-9.29807
貧賤	-9.29887
乾	-9.29932
託	-9.29959
之私	-9.30091
非禮	-9.30107
掩	-9.3011
究	-9.3013
為一	-9.30147
倫	-9.30193
之意也	-9.30206
泰伯	-9.3023
聖人之道	-9.30309
三子	-9.30372
云云者	-9.30385
恁地	-9.30412
推之	-9.30468
張子	-9.30493
這箇	-9.30644
無可	-9.30653
四書	-9.30721
笑	-9.3077
一也	-9.30801
飯	-9.30804
舞	-9.30842
想	-9.3092
子産	-9.30988
也又曰	-9.31021
仁義禮智	-9.31113
討	-9.31171
惟其	-9.31188
理之	-9.31265
甲	-9.31272
止於	-9.31305
體用	-9.31356
勤	-9.31385
十二	-9.31436
天地之	-9.31623
龍	-9.31633
未至	-9.31761
使其	-9.31857
完	-9.31871
去之	-9.31874
伯夷	-9.31944
人倫	-9.31987
攝	-9.32075
有司	-9.32132
仍	-9.32281
利害	-9.32286
三代	-9.32324
之行	-9.32402
雖不	-9.32442
旁	-9.32485
此又	-9.32495
如何曰	-9.32532
者有	-9.32563
慈	-9.32599
赤	-9.32605
人物	-9.32606
也如	-9.32648
而其	-9.32847
怪	-9.32918
枉	-9.32952
譽	-9.33088
首章	-9.33108
例	-9.33118
其親	-9.33128
負	-9.33172
又云	-9.33185
先儒	-9.33265
羊	-9.33268
悅	-9.3328
不息	-9.33322
吉	-9.33343
子孫	-9.33566
莊	-9.33582
進退	-9.33673
題	-9.33753
皇	-9.33933
納	-9.33958
孟子之	-9.33962
則曰	-9.33971
無以	-9.34061
冉有	-9.34201
為己	-9.34332
曰吾	-9.34332
不從	-9.34346
毛	-9.34378
者其	-9.34506
着	-9.34536
寒	-9.34594
於外	-9.34641
禮也	-9.34676
學而	-9.34705
國家	-9.34734
猶有	-9.34858
不合	-9.34938
反覆	-9.35023
禮記	-9.35079
至矣	-9.35083
大小	-9.35155
則民	-9.352
如之何	-9.35201
迎	-9.35211
與平聲	-9.35466
折	-9.35649
援	-9.35677
七十	-9.35746
一物	-9.3578
所見	-9.35808
却是	-9.35883
愛人	-9.35897
没	-9.36108
盈	-9.36142
賈	-9.36284
公孫丑	-9.36288
激	-9.36321
道者	-9.36322
否曰	-9.36323
必先	-9.36353
某	-9.36354
若不	-9.36411
必以	-9.3644
故孔子	-9.36444
日用	-9.36456
管	-9.36459
譬	-9.3648
也又	-9.36519
垂	-9.36566
君子小人	-9.36589
丗	-9.3663
人有	-9.3667
所欲	-9.3671
安得	-9.36766
故其	-9.36835
行道	-9.36877
政事	-9.3699
登	-9.37066
惡之	-9.37084
鄒	-9.37138
對曰	-9.37204
南軒張氏曰	-9.37253
之故	-9.37318
言行	-9.37377
其義	-9.37384
塗	-9.37439
楊	-9.37586
宰我	-9.37637
然其	-9.37919
哀公	-9.38005
不成	-9.38118
?」	-9.38133
范	-9.38191
則當	-9.38237
耳目	-9.38327
集曰	-9.38343
之過	-9.38443
帥	-9.38486
楊曰	-9.38594
出入	-9.38602
活	-9.38779
之極	-9.38806
吕氏	-9.38813
者此	-9.38815
詩云	-9.3883
悔	-9.3887
詞	-9.38991
文王之	-9.39148
之制	-9.39213
尸	-9.39214
虎	-9.39221
莫非	-9.39274
委	-9.39385
粟	-9.39509
前後	-9.3952
鼓	-9.3952
不信	-9.39647
不食	-9.39673
柔	-9.39736
理㑹	-9.39773
未見	-9.39777
罔	-9.39794
凶	-9.39891
克己	-9.40045
異端	-9.40092
歳	-9.40106
矣夫	-9.40139
天子之	-9.40241
固是	-9.40295
諌	-9.40325
敵	-9.40337
仁之	-9.40373
未發	-9.40465
僅	-9.40499
縁	-9.40532
宗廟	-9.40539
三月	-9.40674
亦曰	-9.40805
而實	-9.40942
也孟子	-9.41031
在外	-9.41086
歲	-9.41203
齒	-9.41272
書曰	-9.41408
聖人之心	-9.41426
宣王	-9.41472
黙	-9.4149
也然則	-9.41499
在内	-9.41591
福	-9.41686
三十	-9.41701
消	-9.41709
然亦	-9.41715
樹	-9.41786
是為	-9.41829
欲以	-9.42079
豈可	-9.42248
萬章	-9.42314
㸃	-9.42396
此皆	-9.42496
又言	-9.42714
軍	-9.4274
振	-9.42869
所能	-9.43034
佞	-9.43068
贊	-9.43117
事物	-9.43183
求其	-9.43185
尹曰	-9.43274
滕	-9.43279
賢人	-9.43371
甚矣	-9.43445
齊人	-9.43451
百里	-9.43643
鳥	-9.43658
短	-9.43701
故孟子	-9.43882
聖門	-9.43946
徇	-9.43951
上章	-9.44047
徴	-9.44047
歸於	-9.44087
源	-9.44137
其人	-9.44148
嘆	-9.44215
幽	-9.44218
吝	-9.44251
不動	-9.44283
律	-9.44283
𢎞	-9.44309
都是	-9.44404
不盡	-9.44471
恃	-9.44512
矯	-9.44516
鮮	-9.44527
豈非	-9.44612
故不	-9.44638
流行	-9.4466
未可	-9.44723
何為	-9.44736
生於	-9.44753
此句	-9.44772
個	-9.4486
霸	-9.449
潔	-9.44932
禦	-9.44965
齋	-9.44984
楊氏曰	-9.45087
而不可	-9.45088
者乃	-9.45154
沒	-9.45171
蒙	-9.452
此所以	-9.45238
舒	-9.45255
上説	-9.45256
極其	-9.45355
為君	-9.45366
胡氏	-9.45449
其徳	-9.45492
則雖	-9.45573
而言也	-9.4573
㫖	-9.45773
司馬	-9.45829
育	-9.45981
前章	-9.46003
此語	-9.46105
榖	-9.46144
貞	-9.46177
獲	-9.46182
故謂之	-9.46198
寢	-9.46257
索	-9.46292
下同	-9.46311
耻	-9.4643
語意	-9.46441
未知	-9.46508
二章	-9.46527
又何	-9.46611
程	-9.46633
語錄曰	-9.46753
夫婦	-9.46768
大國	-9.46774
顔	-9.46781
户	-9.46861
竟	-9.46878
也君子	-9.4693
亷	-9.46945
羽	-9.46953
側	-9.47281
境	-9.47299
樊遲	-9.47374
悉	-9.47382
者盖	-9.47406
太王	-9.47433
之詩	-9.47519
仁人	-9.47661
之樂	-9.47761
注云	-9.47848
府	-9.48089
悖	-9.48148
尊賢	-9.48188
之要	-9.48229
恒	-9.48237
羞	-9.48272
孤	-9.48289
恭敬	-9.48382
融	-9.48391
以自	-9.48457
采	-9.48491
貨	-9.4863
輒	-9.48646
存疑	-9.48692
地位	-9.48734
成徳	-9.48871
缺	-9.48873
故能	-9.48885
仁則	-9.48886
相反	-9.48894
桀	-9.4903
認	-9.49051
小學	-9.49165
裳	-9.49217
呼	-9.49407
物欲	-9.4943
宿	-9.49521
要之	-9.49525
革	-9.49619
古今	-9.49713
謂其	-9.49726
中和	-9.49894
而反	-9.49955
揖	-9.49959
然後可以	-9.50029
四方	-9.50042
夜	-9.50054
穆	-9.50165
王之	-9.50192
康	-9.5028
彊	-9.50344
逃	-9.50405
之病	-9.50534
大全	-9.50595
豐	-9.50618
有天下	-9.50635
讀書	-9.50638
之氣	-9.50664
凡人	-9.50688
之可	-9.50764
子游	-9.50786
而言之	-9.50863
之美	-9.50951
豫	-9.50959
淵	-9.51003
偶	-9.51077
於其	-9.51086
性也	-9.51116
人事	-9.51164
甘	-9.51231
一身	-9.51265
范氏曰	-9.51269
周之	-9.51296
一理	-9.5136
輿	-9.51442
做得	-9.5148
渾然	-9.51616
江	-9.51682
鄉黨	-9.51697
裏	-9.51793
莊子	-9.51835
無有	-9.5199
冉求	-9.51992
痛	-9.52007
慎獨	-9.5216
不易	-9.52225
之屬	-9.52263
其後	-9.52372
也子曰	-9.5238
亦不可	-9.5242
湯武	-9.52423
夫子之言	-9.52428
法度	-9.5253
之下	-9.52583
正義曰此章言	-9.52618
之情	-9.52676
有過	-9.52741
治國	-9.52897
緩	-9.52919
其間	-9.52941
尹	-9.53048
旅	-9.53086
始終	-9.53108
品	-9.5317
集義	-9.53198
仰	-9.53346
倚	-9.53381
未得	-9.53519
鬼	-9.53553
不免	-9.53618
人道	-9.53768
孔安國曰	-9.5387
不去	-9.53886
趙	-9.53907
許多	-9.53939
行事	-9.53969
丑	-9.54146
斂	-9.54184
以至於	-9.54217
含	-9.54224
或有	-9.54324
之内	-9.54414
雙峰	-9.54458
四海	-9.54548
殺人	-9.54582
有三	-9.5461
泥	-9.5467
非是	-9.54737
踰	-9.54743
弔	-9.54757
隂陽	-9.54799
則能	-9.54879
事也	-9.54884
若夫	-9.54919
次第	-9.54932
責之	-9.55023
聖人之言	-9.55173
大本	-9.55228
其民	-9.55235
三字	-9.5524
不但	-9.55324
税	-9.55324
格物致知	-9.55367
䖏	-9.55503
可得而	-9.55505
溺	-9.55534
也孔子	-9.55571
人者	-9.55578
此處	-9.55615
黄氏曰	-9.55698
南軒曰	-9.55789
則可	-9.55824
宣	-9.55838
無異	-9.55878
。」	-9.55952
伸	-9.5605
侵	-9.56057
招	-9.56077
减	-9.56171
范曰	-9.5618
所惡	-9.56192
為本	-9.56212
而欲	-9.5632
送	-9.56382
亦然	-9.56398
而民	-9.56514
警	-9.56525
譬如	-9.56614
之㫖	-9.56644
屋	-9.56692
則不可	-9.56767
之善	-9.56839
昬	-9.56853
子弟	-9.57027
羙	-9.5711
當以	-9.57133
一條	-9.57136
吾之	-9.57178
續	-9.57213
禮之	-9.5727
明白	-9.57306
以道	-9.57309
優	-9.57318
節文	-9.57325
之君	-9.57337
露	-9.57489
不違	-9.57583
之文	-9.57601
落	-9.57665
滯	-9.57673
為大	-9.57842
呉	-9.57884
耳若	-9.57885
何所	-9.579
之國	-9.57901
厭	-9.57911
庶幾	-9.57981
用功	-9.58141
亦可以	-9.58206
𤼵明	-9.58255
知言	-9.58259
廣大	-9.58403
不敬	-9.58422
吏	-9.58449
日月	-9.58451
恐其	-9.58561
自謂	-9.58593
不止	-9.58593
盡心	-9.58634
廉	-9.5874
其能	-9.58851
藉	-9.59024
非有	-9.5914
知覺	-9.59171
幼	-9.59208
中國	-9.59225
限	-9.59342
聖賢之	-9.59377
文章	-9.59388
實理	-9.5942
萌	-9.5948
不知其	-9.59553
世子	-9.59564
戚	-9.59669
貢	-9.59693
於天	-9.59733
也但	-9.5981
煩	-9.59875
得失	-9.59952
屏	-9.60015
而行之	-9.60042
之子	-9.60063
謹獨	-9.60099
誦	-9.60128
羿	-9.60133
體之	-9.60153
徳行	-9.60249
謝	-9.60289
未盡	-9.60368
之異	-9.60454
嘉	-9.60468
雅	-9.6052
卿大夫	-9.60593
過於	-9.60693
雍	-9.60696
暗	-9.60709
景	-9.60769
可為	-9.60794
稅	-9.60987
是故	-9.61071
其位	-9.61079
歸之	-9.61123
諒	-9.61202
精神	-9.61215
圭	-9.61268
不已	-9.61462
養之	-9.6147
其辭	-9.61505
本於	-9.61509
之弊	-9.61519
此章言	-9.61526
挾	-9.61549
萬世	-9.61589
之效	-9.61623
又問	-9.61713
三百	-9.6172
飬	-9.61759
是説	-9.61868
泛	-9.62028
不得已	-9.6224
厯	-9.62357
玄	-9.62417
三句	-9.62455
而復	-9.62466
矣而	-9.62497
混	-9.62658
王制	-9.62667
所得	-9.62863
不安	-9.62914
陋	-9.62938
雖欲	-9.62984
刺	-9.62986
牧	-9.63199
樂之	-9.63231
躬	-9.63291
故君子	-9.63436
語錄	-9.63543
明矣	-9.63551
觸	-9.63554
互	-9.63667
智者	-9.63678
而言則	-9.63813
千里	-9.6382
戒懼	-9.6385
血氣	-9.63891
校	-9.64031
本心	-9.64076
之前	-9.64079
畔	-9.64091
徵	-9.64126
而可	-9.64144
知止	-9.6416
析	-9.64215
夢	-9.64227
礼	-9.64263
太子	-9.6429
養氣	-9.64294
於齊	-9.64305
社稷	-9.64308
可使	-9.6431
於上	-9.64327
言者	-9.64511
死生	-9.64541
變化	-9.64602
有為	-9.64612
之難	-9.64639
無事	-9.64641
陶	-9.64668
傳之	-9.64683
不出	-9.64689
曰此	-9.64708
主人	-9.64721
、	-9.64733
不忘	-9.64741
博學	-9.65039
故有	-9.65155
不受	-9.6522
家語	-9.65285
快	-9.65308
不聞	-9.65338
盟	-9.65345
為學	-9.65452
矩	-9.65517
致其	-9.65567
其子	-9.6558
下句	-9.6559
確	-9.65598
汙	-9.65714
治天下	-9.6575
迫	-9.65777
一段	-9.65856
仲子	-9.65857
其功	-9.66137
驅	-9.66159
道義	-9.66181
者不	-9.66275
三家	-9.6637
刻	-9.66409
邊	-9.6643
従	-9.66441
何必	-9.66474
庭	-9.66519
孟子所謂	-9.6672
蹈	-9.66757
得以	-9.66809
者固	-9.66863
貼	-9.66947
録	-9.66968
淺深	-9.6698
楊墨	-9.67057
壊	-9.67061
鄉原	-9.67167
小大	-9.67217
與其	-9.67243
戎	-9.67306
榮	-9.6731
不義	-9.67317
有二	-9.67328
不得不	-9.67328
奔	-9.67393
景公	-9.6744
星	-9.67441
二節	-9.67476
四句	-9.67478
我之	-9.67523
看來	-9.67586
於道	-9.67602
禱	-9.67604
至于	-9.67776
公子	-9.67779
事理	-9.67798
浮	-9.67923
好善	-9.67924
趣	-9.67948
已矣	-9.67974
臺	-9.67984
先王之	-9.68009
不可得而	-9.68155
矢	-9.68183
稱之	-9.68283
且如	-9.68296
怠	-9.6853
濁	-9.68552
撰	-9.68563
牲	-9.68563
之所為	-9.68575
大道	-9.68624
也注	-9.68626
段	-9.68648
劉	-9.68656
之民	-9.68704
之仁	-9.68722
壞	-9.68821
嗜	-9.68824
甞	-9.6886
僣	-9.68861
侍	-9.68865
一字	-9.68899
何哉	-9.68923
行也	-9.68965
於仁	-9.6898
張彦陵曰	-9.69011
視之	-9.69087
永	-9.6909
也至於	-9.69092
本無	-9.69102
盜	-9.6913
有徳	-9.69263
近於	-9.69268
其可	-9.69322
是心	-9.69327
猶言	-9.69348
契	-9.69371
性情	-9.69447
此乃	-9.69467
朝廷	-9.69482
牆	-9.69517
韓	-9.69572
諡	-9.69646
其性	-9.69705
不可以不	-9.69724
措	-9.6973
成功	-9.69738
咸	-9.69748
即此	-9.6975
思之	-9.69898
而為之	-9.7002
奢	-9.70024
饒氏	-9.70045
毅	-9.70063
藥	-9.70075
下章	-9.70086
之序	-9.70142
入於	-9.70167
有一	-9.70174
他日	-9.70198
四端	-9.70312
希	-9.70314
不能無	-9.70329
荒	-9.7035
靣	-9.70356
之説曰	-9.7036
小人之	-9.70365
成人	-9.70402
式	-9.70441
休	-9.70458
十五	-9.70464
云爾	-9.70517
日新	-9.70578
以仁	-9.70607
庶人	-9.70619
於義	-9.7065
閑	-9.70651
名也	-9.70706
之用	-9.70743
墨	-9.70764
疎	-9.70786
飽	-9.70853
殺之	-9.70958
善而	-9.71075
去聲下同	-9.71158
者故	-9.7118
治人	-9.71208
知得	-9.71234
之始	-9.71235
則可以	-9.7127
經文	-9.7132
哭	-9.71329
以天下	-9.71359
威儀	-9.71406
者即	-9.71494
𫝊	-9.71556
所知	-9.71558
當然	-9.71591
併	-9.71609
談	-9.71616
歩	-9.71684
而發	-9.71709
忌	-9.71798
此說	-9.71799
定公	-9.71824
禪	-9.71904
諱	-9.71916
正義曰	-9.71992
不動心	-9.71995
文子	-9.72008
理也	-9.7202
其說	-9.72078
沈	-9.72128
可見矣	-9.72135
不勝	-9.72215
性命	-9.7228
襄	-9.72331
昧	-9.72355
此道	-9.72369
從容	-9.72373
後人	-9.72382
之位	-9.72549
黒	-9.72601
惟恐	-9.72631
訟	-9.72685
樂正子	-9.72742
大意	-9.72743
走	-9.72772
考之	-9.72794
之臣	-9.72834
叙	-9.72862
終始	-9.72928
圍	-9.72976
謝曰	-9.73026
之使	-9.73078
叛	-9.73162
一篇	-9.73313
亦必	-9.73363
十分	-9.7337
肅	-9.73407
周公之	-9.7351
是時	-9.73519
引詩	-9.73604
而得	-9.7362
能盡	-9.73688
預	-9.73714
總是	-9.73728
之所在	-9.73729
第二	-9.73743
瞽瞍	-9.73782
?	-9.73806
則不能	-9.73868
裁	-9.73915
中間	-9.7396
知也	-9.74068
囘	-9.74131
所引	-9.74157
於中	-9.74276
可以為	-9.74313
林	-9.74397
知人	-9.74458
之政	-9.74463
編	-9.74492
為惡	-9.74519
詩曰	-9.74611
鄉人	-9.74713
戾	-9.7473
欲使	-9.74763
之不同	-9.7479
雨	-9.74814
未有不	-9.74843
不特	-9.74903
陸	-9.74907
以致	-9.74909
也惟	-9.74944
省察	-9.75034
從而	-9.75056
為君子	-9.75077
之節	-9.75081
字與	-9.75097
雲	-9.75108
但以	-9.75211
公田	-9.75251
知行	-9.75324
之篇	-9.75344
問曰	-9.75417
單	-9.75476
涵養	-9.75492
之教	-9.75529
即所謂	-9.75529
受命	-9.75537
為我	-9.75544
泉	-9.75558
人人	-9.75618
常人	-9.75661
繹	-9.75721
亦以	-9.75726
一體	-9.75732
烈	-9.75734
文武	-9.75741
傅	-9.75766
正心	-9.75851
奥	-9.75958
而下	-9.75979
誣	-9.76005
大王	-9.76073
族	-9.76156
是知	-9.7626
諸侯之	-9.76274
竭	-9.76319
彌	-9.76375
亦何	-9.76378
在上	-9.7639
伏	-9.76397
存焉	-9.76409
匡	-9.76449
以成	-9.7652
顔子之	-9.7658
所在	-9.76591
魯人	-9.76601
若以	-9.76639
行而	-9.76672
者如	-9.76727
陽貨	-9.76747
兩端	-9.76807
於理	-9.76817
領	-9.76833
發於	-9.76851
以後	-9.76858
若此	-9.76905
不識	-9.76977
諂	-9.77033
稟	-9.77053
五者	-9.77065
崩	-9.77066
後來	-9.77071
不好	-9.77075
若有	-9.771
德之	-9.77162
之才	-9.77194
未免	-9.77292
說得	-9.77328
鼎	-9.77397
治之	-9.77405
之罪	-9.77408
陷	-9.77447
朝服	-9.77595
川	-9.77642
賛	-9.77702
隆	-9.77715
闢	-9.77731
鄰	-9.77803
中之	-9.77876
兩節	-9.77901
蕩	-9.77978
信之	-9.78012
人能	-9.78019
不暇	-9.78033
此事	-9.78055
下學	-9.78201
不逺	-9.78248
是謂	-9.78275
狀	-9.7828
土地	-9.78298
也且	-9.78376
猶未	-9.78583
之物	-9.7863
有不	-9.78639
中庸之	-9.78834
成王	-9.7888
出來	-9.78894
魯之	-9.78895
未及	-9.78929
氣之	-9.78983
而知	-9.79006
知天	-9.79009
妻子	-9.79059
畆	-9.79192
惜	-9.79216
皆非	-9.79223
知所	-9.79239
然後能	-9.79266
只就	-9.79286
用心	-9.79346
厥	-9.79366
涉	-9.79368
可乎	-9.79383
損益	-9.794
義之	-9.79437
而成	-9.79447
二人	-9.79523
邇	-9.79531
之盛	-9.79576
或人	-9.79665
亟	-9.79711
一邊	-9.7973
學也	-9.79748
無他	-9.79823
嗚呼	-9.79826
須要	-9.8007
止於至善	-9.80093
不惑	-9.80126
之甚	-9.80127
為是	-9.80242
也孔子曰	-9.80243
行者	-9.80261
出處	-9.80313
大臣	-9.8034
寄	-9.80378
稽	-9.80391
䇿	-9.80395
佐	-9.8041
之書	-9.80434
國人	-9.80461
於事	-9.80477
貫通	-9.80492
善者	-9.80502
誘	-9.80518
娶	-9.80656
有箇	-9.80705
終日	-9.80713
六十	-9.80776
伊川	-9.80885
於物	-9.80987
不誠	-9.8103
鳴	-9.81086
興起	-9.811
所聞	-9.81138
拒	-9.81143
於内	-9.81172
1	-9.8119
誠者	-9.81206
啟	-9.8121
指其	-9.81361
𤣥	-9.81362
此其	-9.81394
支	-9.814
所云	-9.81561
字是	-9.81596
草木	-9.81603
此等	-9.81611
髙明	-9.81644
雖是	-9.81656
為臣	-9.81657
當作	-9.8166
竹	-9.81752
精粗	-9.81795
也葢	-9.81847
無一	-9.82007
惰	-9.82043
此之謂	-9.82113
苗	-9.82147
徑	-9.82188
於君	-9.82232
久矣	-9.8225
制度	-9.82271
性者	-9.82394
不自	-9.82404
恵	-9.82419
遭	-9.82435
之至也	-9.82444
鑿	-9.82475
四時	-9.8256
皆同	-9.82589
朔	-9.82699
之末	-9.82699
於世	-9.82768
禀	-9.82768
飢	-9.8277
者言之	-9.82786
知有	-9.82792
其行	-9.82793
天下國家	-9.82814
之初	-9.82819
衍	-9.82877
肯	-9.82961
之上	-9.83031
凡事	-9.83078
而至於	-9.83156
之長	-9.83173
青	-9.83215
莫能	-9.83286
士之	-9.83338
規矩	-9.8346
嫌	-9.83487
為先	-9.83528
有功	-9.83528
季孫	-9.8353
濫	-9.83771
奏	-9.83804
不孝	-9.83851
不至於	-9.8394
七年	-9.83941
之貌	-9.8395
其才	-9.83974
一本	-9.84135
以告	-9.84138
渾	-9.84151
牽	-9.84154
遵	-9.84203
勉强	-9.84226
而不及	-9.84292
相應	-9.84292
既曰	-9.84317
不怨	-9.84419
一則	-9.84466
無間	-9.84539
相去	-9.8458
知禮	-9.84616
造化	-9.84661
言則	-9.84668
此以	-9.84685
不求	-9.8472
壽	-9.8484
薦	-9.84868
束	-9.84883
浩然之氣	-9.84889
太甲	-9.84921
烏	-9.84975
不通	-9.84997
明明徳	-9.85018
事而	-9.85042
父兄	-9.85163
則自	-9.85194
有異	-9.85205
愼	-9.85205
外物	-9.85211
逺矣	-9.85262
存之	-9.85269
誠身	-9.85337
科	-9.85351
資質	-9.85369
用人	-9.85392
愚案	-9.85419
而不敢	-9.85467
安於	-9.85495
囿	-9.8554
曹	-9.85556
而去	-9.85639
晦	-9.85669
僕	-9.85693
夷狄	-9.85937
一家	-9.85944
曲禮	-9.85947
幣	-9.85984
擊	-9.85993
不應	-9.86021
許行	-9.86028
提	-9.86094
全在	-9.86145
九經	-9.8622
而止	-9.86221
物也	-9.86266
不能盡	-9.86298
事事	-9.86304
渉	-9.86325
時中	-9.86328
媚	-9.86334
無過不及	-9.86352
佩	-9.86364
導	-9.86539
偃	-9.86643
良心	-9.86652
餒	-9.86656
云者	-9.8667
忿	-9.86674
餽	-9.86678
憚	-9.8668
童子	-9.86842
窺	-9.87017
寜	-9.87026
能知	-9.87042
好之	-9.87055
竒	-9.8706
明堂	-9.87097
此便是	-9.87112
人而	-9.87233
則心	-9.8728
葛	-9.87394
此與	-9.87424
達道	-9.87435
舉其	-9.87453
尚書	-9.87511
擯	-9.87585
中也	-9.87619
堯舜之道	-9.87619
命之	-9.87699
又謂	-9.87706
翼	-9.87713
殘	-9.87731
盗	-9.87753
弊	-9.8776
隅	-9.87768
之正	-9.87779
而未	-9.87887
以正	-9.87905
守之	-9.87953
臯陶	-9.87971
小國	-9.88015
而求	-9.88018
明之	-9.8802
憤	-9.88065
與夫	-9.88079
狹	-9.88128
可行	-9.88168
巻	-9.88171
俟	-9.88218
稱其	-9.88231
而出	-9.88264
其他	-9.88273
之命	-9.88281
此篇	-9.88291
衣服	-9.8839
身之	-9.88423
阿	-9.88488
桑	-9.88498
堯舜之	-9.88527
辰	-9.8857
而立	-9.88602
耳非	-9.88694
其次	-9.88704
監	-9.88715
隔	-9.88782
芟一條	-9.88805
桓	-9.88888
綏	-9.8899
也按	-9.88998
誠也	-9.89002
求仁	-9.89003
有常	-9.89108
是箇	-9.8913
不爲	-9.89197
遲	-9.89236
飛	-9.8925
昌	-9.89255
言君子	-9.8926
中有	-9.89273
賞	-9.89276
身上	-9.89288
觀之則	-9.89358
見孟子	-9.89369
屢	-9.89422
異於	-9.8946
夀	-9.89472
若無	-9.89512
三王	-9.89569
或以	-9.89583
詔	-9.89593
敬也	-9.89596
一説	-9.89613
子貢曰	-9.89624
染	-9.89645
矣若	-9.89676
馮氏曰	-9.89721
係	-9.8979
天命之性	-9.89825
盡性	-9.89829
者也故	-9.89861
之閒	-9.89871
以身	-9.89983
論其	-9.89997
死者	-9.90013
一念	-9.90018
陳氏	-9.90108
此一節	-9.90183
平天下	-9.90188
綱	-9.90236
血	-9.9026
乎哉	-9.90293
孔子之言	-9.9031
在位	-9.90345
之德	-9.90356
減	-9.90362
為天子	-9.9048
之不可	-9.90519
張子曰	-9.90565
必至於	-9.90575
曰君子	-9.90623
以來	-9.90639
徧	-9.9066
其父	-9.90716
維	-9.90761
之方	-9.90805
害於	-9.90879
所載	-9.90917
不離	-9.90932
相近	-9.90965
上達	-9.90997
以及	-9.91002
而遂	-9.91065
界	-9.91066
命也	-9.91095
兩句	-9.91192
不厭	-9.91402
豈能	-9.91407
以事	-9.91585
能行	-9.916
而死	-9.91632
恐懼	-9.91641
中節	-9.91646
兆	-9.91722
其曰	-9.91783
夷齊	-9.91812
添	-9.9186
五人	-9.9186
亦當	-9.91902
臭	-9.91916
必欲	-9.92012
雖曰	-9.9209
者所以	-9.9211
三章	-9.92118
寳	-9.92147
成就	-9.92174
而不為	-9.92211
所當然	-9.92223
存養	-9.92333
之别	-9.92382
鐘	-9.92405
昔者	-9.92415
厚薄	-9.92423
游氏	-9.9246
第一	-9.92476
安能	-9.92512
其大	-9.9252
成物	-9.92526
:『	-9.92559
道則	-9.92612
克己復禮	-9.92631
早	-9.92654
初無	-9.92656
道而	-9.92744
顔色	-9.9275
為不善	-9.92778
在下	-9.92781
步	-9.92804
若曰	-9.9283
一毫	-9.92867
此一章書是	-9.92874
故必	-9.92875
齊宣王	-9.9295
旋	-9.93002
物而	-9.93015
不可為	-9.93019
籍	-9.93052
靡	-9.93058
為貴	-9.93072
辨之	-9.93114
聰明	-9.93232
理而	-9.93256
其時	-9.93308
趙氏	-9.93313
生知	-9.9335
聼	-9.93401
其用	-9.93405
太極	-9.9341
是其	-9.93411
卦	-9.9342
災	-9.9345
侯氏	-9.93451
饋	-9.93504
告之以	-9.93545
饑	-9.93594
曰我	-9.93642
合乎	-9.93647
愚按	-9.93665
潛	-9.93698
惠王	-9.93708
相對	-9.93751
汚	-9.93791
徳者	-9.93797
存乎	-9.93803
慾	-9.93823
之害	-9.93877
其上	-9.93939
盡其	-9.93954
自古	-9.93968
子路之	-9.93972
項	-9.93973
随	-9.94163
家臣	-9.94196
聞見	-9.94243
旦	-9.94247
為義	-9.94272
爲之	-9.94387
大徳	-9.94392
一旦	-9.94499
寓	-9.9451
一以貫之	-9.94578
獸	-9.94589
兮	-9.94593
規模	-9.94597
未聞	-9.94638
程子所謂	-9.94728
自明	-9.94736
小子	-9.94745
在我者	-9.94786
文義	-9.94826
謝氏曰	-9.94854
梁惠王	-9.94951
岐	-9.9497
恤	-9.9505
亦自	-9.95079
而生	-9.95081
至徳	-9.95149
之誠	-9.95186
也聖人	-9.9522
齊之	-9.95233
三代之	-9.95237
貴賤	-9.95261
諸子	-9.95267
攷	-9.95336
之一字	-9.95345
兹	-9.95408
人心之	-9.9542
由是	-9.95437
以行	-9.95437
責人	-9.95555
野人	-9.9565
拂	-9.95779
毫	-9.95805
道徳	-9.95835
為去聲	-9.95852
之端	-9.95976
不重	-9.95982
並去聲	-9.95989
專以	-9.95996
之門	-9.96045
也或問	-9.96078
龜	-9.96124
愛之	-9.96128
矣故曰	-9.96193
婦	-9.96197
不由	-9.96229
弓	-9.96246
水火	-9.9628
亦未	-9.96372
之患	-9.96457
井田	-9.96499
此三者	-9.96553
斗	-9.96581
方可	-9.96613
自為	-9.9665
可畏	-9.96653
何謂	-9.96688
國君	-9.96699
趙氏曰	-9.96753
禹稷	-9.96754
者何	-9.96842
於孔子	-9.96851
心之所	-9.9695
先覺	-9.96995
手足	-9.97022
其國	-9.97041
進於	-9.97066
化之	-9.97068
宮	-9.97072
明善	-9.97088
氣禀	-9.97139
正與	-9.97167
靈公	-9.9717
人不	-9.97188
韶	-9.97245
合於	-9.97308
匿	-9.97341
之力	-9.97358
咎	-9.97381
匹夫	-9.97381
不亦	-9.97409
房	-9.97433
晦菴朱氏	-9.97433
更無	-9.97543
閉	-9.97684
此正	-9.97718
探	-9.97731
截	-9.97733
賴	-9.97755
傾	-9.97759
亦不能	-9.97905
班	-9.97917
立言	-9.97922
有序	-9.97967
微子	-9.97987
長者	-9.97987
測	-9.9799
五年	-9.98086
歛	-9.98102
未易	-9.98118
間斷	-9.98154
正也	-9.98161
可與	-9.98182
築	-9.98208
調	-9.98222
觚	-9.9823
艾	-9.98236
親切	-9.98241
之本也	-9.98246
但言	-9.98278
箕子	-9.98293
不順	-9.98295
記者	-9.98356
八十	-9.98469
無私	-9.98484
非特	-9.98489
不然則	-9.98509
須知	-9.98521
以此為	-9.98563
侈	-9.98575
磨	-9.98584
寡人	-9.98612
流於	-9.98636
嗣	-9.98643
於彼	-9.98677
禮者	-9.98762
其情	-9.9877
距	-9.98781
由也	-9.98865
栁下惠	-9.98924
公孫	-9.98942
淳	-9.98993
擴充	-9.99003
好勇	-9.99027
為能	-9.99089
明道	-9.9916
者不能	-9.99163
一語	-9.99226
斈	-9.99304
反之	-9.99324
無疑	-9.99338
及於	-9.99353
倒	-9.99369
貎	-9.99389
途	-9.99389
跡	-9.99394
祝	-9.99422
有罪	-9.99433
好色	-9.99447
知道	-9.99533
不改	-9.99549
有時而	-9.99562
住	-9.99688
者葢	-9.99753
恨	-9.99769
不失其	-9.99795
亦可謂	-9.99862
伐之	-9.99899
不學	-9.99911
以義	-9.99933
自反	-9.99958
道體	-9.99994
憲	-10.0001
去就	-10.0003
為國	-10.0006
在所	-10.0009
觧	-10.0017
於禮	-10.002
基	-10.0022
植	-10.0023
法也	-10.0026
自知	-10.0027
以示	-10.0032
不得其	-10.0033
侮	-10.0038
給	-10.0041
也夫子	-10.0044
告以	-10.0046
淺説	-10.0049
自修	-10.0056
牖	-10.0061
繁	-10.0064
不思	-10.0065
括	-10.0065
其名	-10.0066
貶	-10.0066
其所謂	-10.0067
丈	-10.0072
晏子	-10.0075
祥	-10.0082
百官	-10.0083
鍾	-10.0096
疑其	-10.0098
伊	-10.01
其體	-10.0104
緣	-10.011
易曰	-10.0112
孔門	-10.0112
大事	-10.012
之詞	-10.0121
稷	-10.0124
孔氏	-10.0128
誠之	-10.0136
全是	-10.0138
圓	-10.0141
樂音洛	-10.0146
皆當	-10.0152
為正	-10.0154
不顯	-10.0155
一切	-10.0159
惡惡	-10.0164
知仁	-10.0171
宅	-10.0179
過不及	-10.0179
有事	-10.018
亦只是	-10.0182
晝	-10.0183
深矣	-10.0185
㫁	-10.0187
之勢	-10.0189
無為	-10.0192
方能	-10.0196
精微	-10.0202
事上	-10.0207
什一	-10.0208
之賢	-10.0211
民心	-10.022
一心	-10.0223
無復	-10.0226
吾心	-10.0229
戴	-10.0231
禍福	-10.0231
之稱	-10.0235
之變	-10.0236
之家	-10.0239
者是也	-10.024
其有	-10.0241
先王之道	-10.0242
三節	-10.0243
其效	-10.0244
之辨	-10.0244
非義	-10.0251
徙	-10.0257
各有所	-10.0259
葉	-10.0267
知至	-10.0273
遏	-10.0273
區	-10.0274
為言	-10.0275
專指	-10.0275
頗	-10.0275
究其	-10.0279
固非	-10.0279
一百	-10.0285
動靜	-10.029
其文	-10.029
一件	-10.03
不患	-10.0302
讀者	-10.0304
三軍	-10.0305
其德	-10.0305
章指言	-10.0306
無過	-10.0309
躬行	-10.0313
節張彦陵曰	-10.0315
舟	-10.0317
居之	-10.032
在天	-10.0322
只説	-10.0322
而不知其	-10.0327
義理之	-10.033
所由	-10.0333
又如	-10.0335
不屑	-10.0338
之耳	-10.0343
諸人	-10.0355
吳因之曰	-10.0356
其罪	-10.0358
秀	-10.0361
上句	-10.0362
削	-10.0366
曰然則	-10.0368
所記	-10.0368
詩書	-10.0371
以理言	-10.0377
之所以為	-10.0377
不仁者	-10.0377
此類	-10.0384
根本	-10.0385
姦	-10.0401
集注	-10.0406
是指	-10.041
許之	-10.0437
誓	-10.0437
透	-10.0444
秉	-10.0445
館	-10.0445
凝	-10.0445
一端	-10.0445
孟子謂	-10.0453
仁知	-10.0458
符	-10.0473
言仁	-10.0478
子曰君子	-10.0484
増	-10.0486
自以為	-10.0488
便見	-10.049
酌	-10.0491
而後能	-10.0514
多少	-10.0518
三日	-10.0522
孔子弟子	-10.0523
杜	-10.0525
乙	-10.0525
昭公	-10.0528
虧	-10.0529
之深	-10.053
髙下	-10.0531
何如曰	-10.0533
唐虞	-10.0534
乎其	-10.0542
曰子	-10.0545
往往	-10.0557
輩	-10.056
矣曰	-10.0563
其失	-10.0567
之數	-10.0569
救之	-10.0572
乖	-10.0574
於前	-10.0574
不得已而	-10.0574
不齊	-10.0575
於魯	-10.0576
所論	-10.0579
暫	-10.0582
無益	-10.0582
就其	-10.0584
樂也	-10.0587
皆然	-10.059
無一毫	-10.0592
固不	-10.0592
及物	-10.0603
而必	-10.0605
神明	-10.0605
循理	-10.0606
不存	-10.0612
功夫	-10.0613
皆不	-10.0614
乞	-10.0623
瞽	-10.0633
孝子	-10.0636
些	-10.0638
行仁	-10.0639
道心	-10.0647
教民	-10.0658
而弗	-10.0662
譬之	-10.0663
環	-10.0666
十一	-10.0666
必不	-10.0667
其氣	-10.0667
註苞氏曰	-10.0668
本意	-10.0675
人之心	-10.0679
十年	-10.0682
之服	-10.0685
禽	-10.0688
在其中矣	-10.0691
人知	-10.0695
由之	-10.0703
始得	-10.0707
此時	-10.0707
論之	-10.0709
不顧	-10.071
大體	-10.071
杖	-10.0712
十六	-10.0713
陰	-10.0713
扶	-10.0719
豆	-10.072
心也	-10.0724
不使	-10.0727
萬事	-10.0729
閔子	-10.0729
其善	-10.0731
而何	-10.0735
而無所	-10.0744
者然	-10.0747
脱	-10.0749
吾身	-10.075
所好	-10.0752
委曲	-10.0755
裼	-10.0761
多能	-10.0762
不曰	-10.0766
皆可	-10.0767
誨	-10.0768
明德	-10.077
氣稟	-10.077
將以	-10.0775
不恭	-10.0777
2	-10.078
雖然	-10.0781
中道	-10.0785
滕文公	-10.0795
則無以	-10.0796
雉	-10.0798
之禍	-10.0804
比干	-10.0807
險	-10.0811
未至於	-10.0834
迂	-10.084
廹	-10.0841
在乎	-10.0843
曲折	-10.0843
公都子	-10.0844
乃能	-10.0848
真知	-10.085
泰山	-10.0853
輪	-10.0854
多聞	-10.0857
至聖	-10.0861
在己	-10.0866
自新	-10.0872
。』	-10.0874
者多	-10.0875
動而	-10.0878
漢書	-10.0878
亦猶	-10.0879
外面	-10.0881
注包曰	-10.0881
文集曰	-10.0882
其地	-10.0883
檢	-10.0883
奈何	-10.0895
一一	-10.0895
子謂	-10.0897
不死	-10.0902
天性	-10.0904
一國	-10.0906
中者	-10.0907
叚	-10.091
者或	-10.0917
灌	-10.0918
得人	-10.0922
輅	-10.0928
迷	-10.093
遁	-10.093
有所不	-10.093
之殊	-10.0932
也以其	-10.0933
是以君子	-10.0936
耳故	-10.0936
所守	-10.0937
之云	-10.0937
蒲	-10.0944
天下之事	-10.0945
已發	-10.0946
是乃	-10.0946
而終	-10.0947
者豈	-10.0948
不察	-10.095
其一	-10.0953
易之	-10.0954
虐	-10.0966
於身	-10.0967
去其	-10.0967
而後可以	-10.0973
盤	-10.0975
愠	-10.0985
音扶	-10.0986
陽虎	-10.0987
子張問	-10.0995
之偏	-10.0998
進而	-10.1
上帝	-10.1004
始於	-10.1005
所學	-10.1008
隘	-10.1017
何歟	-10.1019
罷	-10.1024
之義也	-10.1029
非其	-10.103
之心也	-10.1031
理義	-10.1034
慊	-10.1035
風俗	-10.1038
字子	-10.1041
承上文	-10.1042
不入	-10.1046
為難	-10.1053
相與	-10.1056
及此	-10.1062
言此	-10.1064
冇	-10.1067
天下之人	-10.1068
郷	-10.1068
脚	-10.1068
三人	-10.1069
則固	-10.1069
三年之喪	-10.1071
非聖人	-10.1072
内則	-10.1085
馳	-10.1086
誠則	-10.1091
上說	-10.1094
在彼	-10.1095
有定	-10.1104
為心	-10.1105
語之	-10.1107
人不知	-10.1109
何有	-10.1111
而卒	-10.1115
人主	-10.1116
規	-10.1119
此書	-10.1123
出而	-10.1124
狂者	-10.1131
上面	-10.1138
而不得	-10.1138
看得	-10.1138
何事	-10.1138
之意而	-10.1149
一分	-10.1151
沮	-10.1154
實有	-10.1156
犬	-10.1158
無禮	-10.1159
知所以	-10.116
獄	-10.116
局	-10.116
著力	-10.1161
牛羊	-10.1164
而猶	-10.1165
畢竟	-10.1169
文字	-10.1169
如今	-10.1172
如此説	-10.1172
不取	-10.1173
供	-10.1178
醬	-10.1182
為重	-10.1185
善之	-10.1191
鄰國	-10.1191
於其間	-10.1194
當如此	-10.1194
事業	-10.1194
天也	-10.1198
是之謂	-10.12
壯	-10.1213
矣又	-10.1227
無常	-10.1229
言人	-10.1231
大賢	-10.1235
大綱	-10.1236
施於	-10.1245
問孟子	-10.1252
戰國	-10.1258
不立	-10.1258
食之	-10.1261
臣之	-10.1264
之術	-10.1264
即其	-10.1267
一偏	-10.1268
以善	-10.1276
下面	-10.1278
時人	-10.1278
所宜	-10.1278
仁字	-10.1282
直是	-10.1291
親之	-10.1291
之類是也	-10.1296
別	-10.1296
苖	-10.1297
薛	-10.1303
惡人	-10.1304
侯曰	-10.1305
又是	-10.1309
之大者	-10.1313
舜禹	-10.1313
過也	-10.1317
者何曰	-10.1323
人為	-10.1324
施之	-10.1326
生死	-10.1329
則已	-10.1335
明其	-10.1339
乃以	-10.134
知此	-10.1345
苟且	-10.1346
厎	-10.1348
亦豈	-10.1349
而孟子	-10.1352
竈	-10.1353
庻	-10.1355
胥	-10.1357
之主	-10.1359
而天下	-10.1365
絶之	-10.1366
動静	-10.1368
同而	-10.1372
之資	-10.1377
骨	-10.1379
諸家	-10.1379
不曽	-10.1382
好去聲	-10.1383
義者	-10.1389
發之	-10.139
治民	-10.1393
竝	-10.1393
弘	-10.1394
峻	-10.1396
理會	-10.1397
古之人	-10.1401
容貌	-10.1403
異乎	-10.1404
人以	-10.1405
何嘗	-10.1406
桀紂	-10.1422
魯論	-10.1426
入徳	-10.1437
思慮	-10.1437
隙	-10.1443
礙	-10.1445
狎	-10.1446
孔孟	-10.1448
荀子	-10.1452
父母之	-10.1453
天理之	-10.1454
康子	-10.1455
耳然	-10.1466
其㫖	-10.1467
止至善	-10.1468
十章	-10.1471
大而	-10.1474
餓	-10.1478
死而	-10.1479
蘇	-10.1484
愛之理	-10.1485
不可得	-10.1487
錄	-10.1489
此即	-10.1497
此二	-10.151
是皆	-10.1519
不惟	-10.1522
能使	-10.1528
百畝	-10.1533
而用之	-10.1534
辛	-10.1535
只是一箇	-10.1537
孚	-10.1538
裕	-10.1539
逺近	-10.1545
大節	-10.155
在心	-10.1553
人臣	-10.1554
之心而	-10.1556
教化	-10.1561
周流	-10.1563
胷中	-10.1568
之處	-10.1569
以生	-10.1574
爲政	-10.1575
議論	-10.1576
或謂	-10.1582
滋	-10.1585
知仁勇	-10.1585
不肖	-10.1587
征伐	-10.1595
躍	-10.161
自己	-10.161
二事	-10.1622
察之	-10.1622
此一	-10.1628
敝	-10.1634
吉凶	-10.1637
豈得	-10.1637
芟一條减	-10.1641
物事	-10.1644
用也	-10.1648
些子	-10.1653
誠能	-10.1654
大槩	-10.1655
無罪	-10.166
只有	-10.1665
子曰至	-10.167
生物	-10.1672
非仁	-10.1673
猶云	-10.1677
當為	-10.1677
至誠無息	-10.1682
雞	-10.1684
平常	-10.1691
其勢	-10.1694
儒者	-10.1695
以待	-10.1696
心體	-10.17
陷於	-10.1711
逺者	-10.1716
隨時	-10.1717
言性	-10.1727
本是	-10.1728
郡	-10.1732
正義曰此章	-10.1733
以德	-10.1733
之勇	-10.1735
食色	-10.1736
两	-10.1737
倉	-10.1738
影	-10.1741
堯之	-10.1745
而已故	-10.1748
善也	-10.1758
君子之所	-10.1758
敎之	-10.1763
帝王	-10.1778
斯言	-10.1779
其下	-10.1781
仁矣	-10.1783
䝉引	-10.1784
二説	-10.1789
其仁	-10.1789
氣質之性	-10.1798
是仁	-10.1799
執中	-10.1802
産	-10.1802
二三子	-10.1803
大學之	-10.181
可不	-10.1814
儀禮	-10.1815
為天下	-10.1817
釋之	-10.1819
三分	-10.1821
齊國	-10.1822
天人	-10.1828
同一	-10.1829
托	-10.183
緫	-10.1831
醫	-10.1835
祗	-10.1836
亮	-10.1841
於下	-10.1843
徳性	-10.1848
而后	-10.1848
無惡	-10.1865
之本然	-10.1866
仁政	-10.187
表裏	-10.1877
中庸之道	-10.188
溢	-10.1883
絲	-10.1883
欲人	-10.1884
暢	-10.1885
君臣父子	-10.1886
閭	-10.1887
話	-10.1891
者惟	-10.1893
望之	-10.1896
徳也	-10.1897
中正	-10.1902
暇	-10.1905
喜怒哀樂	-10.1906
必須	-10.1908
其極	-10.191
為大夫	-10.1912
只為	-10.1912
貴於	-10.1913
天資	-10.1914
上言	-10.1916
季子	-10.1922
夷子	-10.1924
君臣之義	-10.1928
未達	-10.1929
墻	-10.1931
逢	-10.1931
麻	-10.1934
廬	-10.1935
則謂之	-10.1938
揜	-10.1945
次之	-10.1946
雖未	-10.1955
也所謂	-10.1956
莫不有	-10.1962
已之	-10.1963
王曰	-10.1966
詭	-10.1976
善道	-10.1978
頓	-10.1978
一夫	-10.1982
攘	-10.1983
人性	-10.199
有子	-10.1992
成德	-10.2005
由於	-10.2006
者雖	-10.2008
為聖人	-10.2014
吳氏曰	-10.2019
孔安國	-10.2024
曠	-10.2025
人之道	-10.2026
不得而	-10.2028
誠實	-10.2029
營	-10.2031
雷	-10.2036
妨	-10.2037
墓	-10.2037
天下之大	-10.2038
正名	-10.2043
敎人	-10.2046
五霸	-10.2048
存亡	-10.2053
改過	-10.2068
只要	-10.2068
君子不	-10.2076
率性	-10.2077
顓臾	-10.2078
何等	-10.2081
不睹不聞	-10.2082
猛	-10.2082
卜	-10.2082
筆	-10.2085
驚	-10.2085
伊川曰	-10.2086
播	-10.2088
所當為	-10.2091
正意	-10.2094
逺而	-10.2097
之迹	-10.2102
天下之理	-10.2105
不和	-10.2108
可知也	-10.2111
有德	-10.2115
專言	-10.212
無知	-10.2121
未安	-10.2123
太公	-10.2123
之人也	-10.2127
敢問	-10.2129
繆	-10.2129
占	-10.2133
而推之	-10.2134
一等	-10.2136
其政	-10.2146
義則	-10.2147
字上	-10.2149
非以	-10.215
而見	-10.2155
則天下	-10.2155
者多矣	-10.2157
緒	-10.2158
而後可	-10.2166
而夫子	-10.2171
何故	-10.2173
瑟	-10.2173
固不可	-10.2178
黜	-10.218
僻	-10.218
水之	-10.2181
英	-10.2183
欠	-10.2187
得志	-10.2187
天地萬物	-10.2195
捨	-10.2198
註文	-10.2199
無怨	-10.2201
四體	-10.2202
見聖人	-10.2211
不智	-10.2212
充之	-10.2215
其大者	-10.2217
無違	-10.2223
之目	-10.2226
則人	-10.2233
退而	-10.2235
光明	-10.2237
常存	-10.2238
孟子之意	-10.2239
以徳	-10.224
上節	-10.2251
而忘	-10.2252
得罪於	-10.2252
檀弓	-10.2254
用其	-10.2258
勉人	-10.226
則所謂	-10.2263
之流	-10.2266
.	-10.2267
不難	-10.2279
僖公	-10.2281
凖	-10.2286
子糾	-10.2286
講學	-10.2286
孝弟慈	-10.2291
不能行	-10.2295
栗	-10.2295
計較	-10.2298
舊説	-10.2298
邱	-10.2299
曾子曰	-10.2305
以利	-10.2306
功效	-10.2312
而巳	-10.232
已有	-10.2321
亦皆	-10.2321
緇	-10.2322
其初	-10.2325
人亦	-10.2327
相為	-10.2328
何其	-10.2329
反復	-10.233
之域	-10.2334
叔子	-10.2336
婦人	-10.2337
吿	-10.2337
鄭氏	-10.2338
名之	-10.2339
亦不是	-10.234
此一章書見	-10.2341
爾雅	-10.2346
非徒	-10.2355
自治	-10.2356
猶可	-10.2359
自言	-10.236
前日	-10.2362
皆在	-10.2363
司徒	-10.2366
之官	-10.2367
人之性	-10.2369
乃為	-10.2376
祭之	-10.2378
墮	-10.2379
之職	-10.238
頌	-10.2381
㓜	-10.2382
既有	-10.2383
孰能	-10.2388
此非	-10.2389
諭	-10.2392
弑	-10.2398
宫室	-10.2403
夫子之道	-10.2403
百年	-10.2407
底道理	-10.2411
言我	-10.2426
以是為	-10.2427
但知	-10.2429
理則	-10.2431
次序	-10.244
肥	-10.2442
此二句	-10.2443
豪	-10.2444
傲	-10.2444
敦	-10.2445
而不言	-10.2446
狥	-10.2449
者如此	-10.2451
湏	-10.2451
之機	-10.2452
狂狷	-10.2453
之説則	-10.2457
此論	-10.246
好仁	-10.2466
七篇	-10.2474
固當	-10.2474
紂之	-10.2475
生之	-10.2476
踈	-10.2481
不直	-10.2486
終不	-10.2491
王者之	-10.2496
莒	-10.25
而入	-10.2502
脫	-10.2503
膚	-10.2504
與孟子	-10.2504
不可無	-10.2504
不可謂	-10.2505
不變	-10.2512
不悦	-10.2522
時習	-10.2526
有命	-10.2527
不移	-10.2533
彼此	-10.2536
更不	-10.2536
之惡	-10.2537
有善	-10.2543
者當	-10.2543
未甞	-10.2544
而進	-10.2545
其始	-10.2546
行其道	-10.2547
特以	-10.2549
妾	-10.2549
以前	-10.255
也謝曰	-10.255
墜	-10.2551
未足	-10.2552
斟酌	-10.2554
諷	-10.2554
斬	-10.2555
自處	-10.2555
於其所	-10.2558
之誤	-10.2563
已甚	-10.2566
有恒	-10.2573
十二章	-10.2576
與我	-10.2581
治也	-10.2582
無形	-10.2588
不仕	-10.2588
天地間	-10.259
待之	-10.2595
所指	-10.2596
玉藻	-10.2599
故言	-10.2604
璧	-10.2606
戸	-10.2611
桓子	-10.2618
黙識	-10.2618
伯魚	-10.2618
惡而	-10.262
斯民	-10.2625
之世	-10.2626
節目	-10.2627
故為	-10.263
可得	-10.263
自盡	-10.2631
便自	-10.2632
裏面	-10.2643
此三	-10.265
親愛	-10.2653
言之也	-10.2654
善言	-10.2655
焚	-10.2657
其於	-10.2664
割	-10.2668
必得	-10.2669
本體	-10.2678
中心	-10.268
所蔽	-10.2681
所存	-10.2681
條目	-10.2684
功用	-10.2684
不窮	-10.2689
不可曉	-10.269
齊家	-10.2692
蔡氏曰	-10.2694
然非	-10.2698
别有	-10.2704
甫	-10.2709
仁而	-10.2709
拱	-10.2711
刃	-10.2711
九年	-10.2712
柳下惠	-10.2715
延	-10.2717
傳曰	-10.2724
米	-10.2725
不可行	-10.2727
之路	-10.2727
而心	-10.2728
羞惡	-10.2732
有可	-10.2733
士大夫	-10.2734
太宰	-10.2734
斥	-10.2744
元年	-10.2747
不能自	-10.2747
為道	-10.2748
南面	-10.2752
洪	-10.2753
分曉	-10.2753
賢而	-10.2753
以心言	-10.2757
文意	-10.2762
祫	-10.2763
眼	-10.2764
自此	-10.2766
拔	-10.2769
愧	-10.277
矣今	-10.2775
何不	-10.2775
孟氏	-10.278
二年	-10.2782
文質	-10.2792
所養	-10.281
副	-10.2823
躁	-10.2826
軌	-10.2829
饗	-10.283
様	-10.2831
信乎	-10.2832
貧富	-10.2835
所以爲	-10.2843
而可以	-10.2846
若能	-10.2852
按此	-10.2852
費隠	-10.2853
只管	-10.2858
匹	-10.2861
大德	-10.2861
保其	-10.2862
所固有	-10.2863
自任	-10.2867
惻隱	-10.2868
品節	-10.2873
自其	-10.2876
允	-10.2876
繆公	-10.2878
茅	-10.2878
協	-10.2882
下節	-10.2883
相類	-10.2885
故集註	-10.2887
禮則	-10.2887
不獨	-10.2888
觀人	-10.2889
東西	-10.289
則吾	-10.2902
魯大夫	-10.2904
山川	-10.2907
齊景公	-10.2913
慶	-10.2918
溺於	-10.2921
清明	-10.2926
第三	-10.2931
闊	-10.2932
儘	-10.2933
交際	-10.2934
讒	-10.2937
充塞	-10.2937
不同然	-10.2938
小者	-10.2942
之聲	-10.2944
與天地	-10.2946
其不	-10.2949
賜也	-10.2949
升堂	-10.2954
同姓	-10.2956
只是一	-10.2956
徳而	-10.2965
蘇氏	-10.2967
繼之以	-10.2981
末節	-10.2984
衛靈公	-10.2987
韻	-10.2987
哲	-10.2987
駕	-10.2991
鬭	-10.2991
髙逺	-10.2993
紫	-10.2994
先言	-10.2994
六經	-10.2995
善則	-10.3001
生而	-10.3004
者哉	-10.3007
丈人	-10.301
夾	-10.3012
德行	-10.3016
故又	-10.3019
條理	-10.3023
閔	-10.3024
也若夫	-10.3029
刪	-10.3032
邾	-10.3039
衽	-10.3041
収	-10.3042
能如此	-10.3046
豚	-10.3047
駁	-10.3047
菜	-10.3049
生民	-10.3057
呂	-10.3063
子賤	-10.3064
幅	-10.3064
及人	-10.3065
天之所	-10.3066
一意	-10.3072
德者	-10.3072
乎外	-10.3076
旨	-10.3079
耶曰	-10.3089
乎夫	-10.3091
是言	-10.3092
節翼註曰	-10.3093
佛	-10.3093
不如此	-10.3095
王天下	-10.3096
性與天道	-10.3096
其序	-10.3103
勉齋黄氏曰	-10.3105
一生	-10.3107
非惟	-10.3109
之事而	-10.3111
也凡	-10.3112
愚不肖	-10.312
之事則	-10.3122
判	-10.3123
在前	-10.3124
相因	-10.3131
禹之	-10.3137
孔子言	-10.3139
其過	-10.3141
之憂	-10.3142
必待	-10.3143
如在	-10.3148
明日	-10.3149
屨	-10.3158
問於	-10.3159
有一毫	-10.3159
鼻	-10.316
荆	-10.316
犬馬	-10.3161
而遽	-10.3161
藴	-10.3161
夫子以	-10.3167
卓	-10.317
蓋有	-10.3181
父之	-10.3183
不倦	-10.3187
因之	-10.3188
貳	-10.3189
聰	-10.319
由此	-10.3197
整	-10.3198
伊川解曰	-10.3209
創	-10.321
大學之道	-10.3211
囚	-10.3212
亦云	-10.3212
佚	-10.3213
春秋傳	-10.3214
鹿	-10.3214
縫	-10.3219
牢	-10.3219
為物	-10.3228
今乃	-10.3228
者正	-10.3245
體認	-10.3247
之君子	-10.3249
隨事	-10.3254
孟子以	-10.3258
真實	-10.3263
殊不知	-10.3269
是故君子	-10.3269
之常	-10.3269
騐	-10.327
推廣	-10.3274
發而	-10.3274
居敬	-10.3277
輙	-10.3278
鬼神之	-10.3278
形體	-10.3278
欲速	-10.329
於已	-10.3294
衛君	-10.33
邦有道	-10.3301
更有	-10.3304
之哉	-10.3305
亦須	-10.3307
世家	-10.3312
人生	-10.3319
文也	-10.3319
戮	-10.3327
頑	-10.333
箴	-10.333
可以見	-10.3333
似乎	-10.3343
有意	-10.3356
仁心	-10.3356
文之	-10.3358
敬之	-10.3359
直以	-10.336
所及	-10.3364
養其	-10.3366
無不盡	-10.3375
知性	-10.3381
視聽	-10.3381
枝	-10.3382
識其	-10.3384
揆	-10.3384
撫	-10.3385
俱是	-10.3386
優劣	-10.3388
栁	-10.3388
属	-10.3388
得天下	-10.3389
曾㸃	-10.339
者但	-10.3391
管叔	-10.3393
作為	-10.34
承上章	-10.3405
太廟	-10.3405
故聖人	-10.341
其惡	-10.3416
心存	-10.3418
之辭也	-10.3423
魯君	-10.3424
一定	-10.3424
傳云	-10.3435
朱子謂	-10.3436
有淺深	-10.3436
湯之	-10.3437
逮	-10.3437
吾心之	-10.3437
雖若	-10.3439
樂天齋翼註曰	-10.344
幹	-10.3442
也然而	-10.3444
冀	-10.3444
鼔	-10.3445
其樂	-10.3446
答之	-10.3446
不幸	-10.3447
此段	-10.3447
矣但	-10.3447
赴	-10.3447
庠	-10.345
一曰	-10.3454
固無	-10.3457
辭也	-10.3459
心之徳	-10.3463
由其	-10.3475
自棄	-10.3484
王政	-10.3488
惻隠	-10.3494
助長	-10.3494
在後	-10.3496
不要	-10.3497
姬	-10.3498
坤	-10.35
好樂	-10.3502
瞻	-10.3502
茂	-10.3504
汎	-10.3505
乎故	-10.3505
百里奚	-10.3507
姜	-10.3507
錢	-10.3508
接物	-10.3509
叩	-10.351
孺子	-10.3517
日用之間	-10.3517
不中	-10.3519
道不行	-10.3519
孰為	-10.3521
底人	-10.3524
其生	-10.3525
又當	-10.3529
己者	-10.3529
引之	-10.3532
此一章書是孔子	-10.3535
蓋以	-10.3537
人才	-10.3538
置之	-10.3538
不苟	-10.3542
是氣	-10.3543
志氣	-10.3544
不達	-10.3547
知命	-10.3548
易見	-10.3555
逝	-10.3557
投	-10.3559
使者	-10.3561
於夫子	-10.3563
詠	-10.3563
擬	-10.3563
悲	-10.3563
却不	-10.3564
結之	-10.3564
免於	-10.3569
守身	-10.357
成之	-10.3577
僖	-10.3577
以取	-10.3577
君命	-10.3579
襄公	-10.358
中行	-10.3581
辭氣	-10.3585
教以	-10.3585
天下之民	-10.3585
洞	-10.3589
枉道	-10.359
而樂	-10.359
為性	-10.3591
章首	-10.3593
玩味	-10.3594
從事於	-10.3594
必由	-10.3595
之次	-10.3599
非道	-10.3601
矣蓋	-10.3604
左氏	-10.361
準	-10.3611
經傳	-10.3612
曽子之	-10.3613
注馬曰	-10.3618
識得	-10.3618
程子之言	-10.3621
際	-10.3622
值	-10.3622
槩	-10.3624
熱	-10.3625
之理也	-10.3625
棄之	-10.3625
問答	-10.3626
也或曰	-10.3635
鄙夫	-10.3641
從其	-10.3642
為美	-10.3642
尊卑	-10.3643
爲善	-10.3643
超	-10.3647
故雖	-10.3647
順理	-10.365
志於道	-10.365
兼愛	-10.3659
急於	-10.3665
而使之	-10.3669
盖以	-10.3672
所居	-10.3672
洒掃應對	-10.3674
髪	-10.3675
刀	-10.3678
季康子	-10.3681
人之惡	-10.3681
戲	-10.3683
於國	-10.3685
而後有	-10.3686
罕言	-10.3687
盡善	-10.369
止之	-10.3691
之日	-10.3693
學者當	-10.3694
作亂	-10.3696
皆為	-10.3699
不平	-10.37
而歸	-10.3702
近而	-10.3702
其利	-10.3705
不同而	-10.3711
愛親	-10.3711
字指	-10.3717
篤實	-10.3722
以證	-10.3722
前篇	-10.3724
南子	-10.3725
天爵	-10.3727
乃可	-10.3728
公私	-10.3729
憂患	-10.3734
不以為	-10.3736
形甸反	-10.3737
汲汲	-10.3737
顛	-10.3737
亦將	-10.3737
饒氏謂	-10.3741
抱	-10.3742
承上	-10.3743
十二年	-10.3743
賽合註曰	-10.3744
沽	-10.3746
有疾	-10.3751
乆矣	-10.3755
難知	-10.3758
不如是	-10.3762
仁智	-10.3765
不假	-10.3766
識之	-10.3781
最為	-10.3784
者猶	-10.3784
是理	-10.3786
明道曰	-10.3787
世人	-10.3795
殉	-10.3798
翼註	-10.3798
乏	-10.3798
應之	-10.3801
選	-10.3805
件	-10.381
熊	-10.3811
比之	-10.3815
是性	-10.3817
必自	-10.3819
伐燕	-10.382
!	-10.3825
方百里	-10.3839
莫之	-10.3841
有許多	-10.3843
皆所以	-10.3843
之風	-10.3845
方得	-10.3846
苞氏曰	-10.3847
杞	-10.3854
赤子之心	-10.3856
生知安行	-10.3857
執一	-10.3861
五行	-10.3864
學文	-10.3864
倦	-10.3866
丹	-10.3868
也尹曰	-10.3868
溝	-10.3871
故知	-10.3876
不可易	-10.3877
自成	-10.3877
不貳	-10.3879
黄帝	-10.3881
但其	-10.3881
夜氣	-10.3885
久而	-10.3886
是從	-10.3888
於人者	-10.3888
在已	-10.389
可言	-10.3891
此其所以	-10.3897
做工夫	-10.3897
主忠信	-10.3899
邪正	-10.3903
先進	-10.3903
道字	-10.3907
即位	-10.3911
合當	-10.3912
或作	-10.3914
評	-10.3915
注同	-10.3918
於後	-10.3919
標	-10.3921
不專	-10.3922
秩	-10.3922
三桓	-10.3924
不可以為	-10.3925
問仁	-10.3926
胸中	-10.3931
受其	-10.3932
者自	-10.3933
不加	-10.3935
所以能	-10.3936
後章	-10.3936
矣又曰	-10.3937
新安	-10.3938
無實	-10.3938
十一年	-10.3941
子夏曰	-10.3943
言必	-10.3947
緊	-10.3953
聖學	-10.3956
可否	-10.3956
性分	-10.3956
有若	-10.3963
䝉	-10.3976
六章	-10.3978
者既	-10.3981
寅	-10.3982
記孔子	-10.3982
如有	-10.3983
之累	-10.3985
燭	-10.3985
接輿	-10.3987
敷	-10.3988
真氏曰	-10.3989
焉故	-10.3989
橫	-10.399
清濁	-10.3991
如云	-10.3992
十三	-10.3999
齊侯	-10.4
各得其	-10.4004
到得	-10.4006
於此而	-10.401
大過	-10.4012
命者	-10.4019
子路問	-10.4019
皆得	-10.4026
於家	-10.4029
可通	-10.4033
意誠	-10.4034
然後知	-10.4038
功業	-10.4039
所施	-10.4042
何處	-10.4043
夭	-10.4043
雄	-10.4044
寵	-10.4044
死於	-10.4049
禮而	-10.4049
無訟	-10.4056
如天	-10.4058
不害	-10.4059
一二	-10.4059
也音義	-10.406
尋常	-10.4063
其兄	-10.4072
論性	-10.4075
所受	-10.4077
自無	-10.4084
效驗	-10.4087
入門	-10.4089
有能	-10.409
天下之物	-10.4092
不同也	-10.4095
所樂	-10.4097
五百	-10.4099
事親從兄	-10.4103
闑	-10.4105
打	-10.4107
之權	-10.4108
人欲之私	-10.4109
賔客	-10.411
惡其	-10.4111
爲人	-10.4112
斯文	-10.4115
蜡	-10.4119
武子	-10.4122
六藝	-10.4122
武城	-10.4123
一個	-10.4128
子西	-10.4136
謙辭	-10.4137
固已	-10.4137
而去之	-10.4138
之實也	-10.4142
自能	-10.4144
財用	-10.4145
九十	-10.4152
終於	-10.4158
不修	-10.416
涵	-10.4161
大矣	-10.4167
滛	-10.4168
候	-10.4169
欣	-10.4169
返	-10.417
此四者	-10.4172
謟	-10.4173
孟子答	-10.4173
復禮	-10.4174
八字	-10.4175
歡	-10.4176
繩	-10.4176
首節	-10.4188
但當	-10.4188
后稷	-10.4194
患難	-10.4196
與此	-10.4198
而今	-10.4203
至極	-10.4208
舉之	-10.421
止也	-10.4212
也吾	-10.4212
潤	-10.4214
樂天	-10.4214
擴	-10.4216
朋	-10.4218
不作	-10.422
當是時	-10.4222
南軒	-10.4224
哉故	-10.4225
萬物之	-10.4226
排	-10.4226
有是心	-10.4228
之所存	-10.4229
毁譽	-10.4229
可取	-10.423
正大	-10.4232
故先	-10.4235
壁	-10.4235
而獨	-10.4235
邦無道	-10.4238
我者	-10.424
安得不	-10.424
相承	-10.4244
在這裏	-10.4252
盡矣	-10.4257
尤為	-10.4257
狷者	-10.4259
若使	-10.426
非獨	-10.4261
意在	-10.4262
公室	-10.4265
徙義	-10.4266
諸説	-10.427
帛	-10.427
之所謂	-10.4276
近之	-10.4278
未嘗有	-10.4279
如此而	-10.428
世道	-10.4281
子貢問	-10.4282
之本意	-10.4282
不外乎	-10.4286
人多	-10.4287
推而	-10.4289
洛	-10.4291
慝	-10.4293
莫如	-10.4295
如是則	-10.4297
蓄	-10.4298
區區	-10.4299
織	-10.4299
緩急	-10.4299
之宜	-10.43
五世	-10.4304
焉此	-10.4306
萬殊	-10.4309
國政	-10.4312
病痛	-10.4313
與道	-10.4317
有諸	-10.4318
考證	-10.4325
仁義之	-10.433
方見	-10.433
以見其	-10.4332
此一章	-10.4333
主宰	-10.4339
其終	-10.434
小註	-10.4343
進徳	-10.4345
萬理	-10.4349
自得之	-10.4357
狄	-10.4357
六年	-10.4363
噐	-10.4363
十四年	-10.4365
這裏	-10.4365
穿	-10.4365
付	-10.4368
同也	-10.437
而得之	-10.4371
信也	-10.4373
只言	-10.4373
又不	-10.4374
學者之	-10.4376
生者	-10.4376
志於仁	-10.4377
待人	-10.4378
綱領	-10.4383
臨事	-10.4383
於善	-10.4384
得之矣	-10.4389
從政	-10.4392
兵車	-10.4394
志於	-10.4396
大註	-10.4396
其力	-10.4397
説話	-10.4397
四子	-10.4399
子路曰	-10.4402
不實	-10.4411
以敬	-10.4412
逸民	-10.4416
有才	-10.442
雖無	-10.4423
汨	-10.4424
陳相	-10.4426
盡其道	-10.4426
之首	-10.4428
季桓子	-10.4429
書之	-10.443
域	-10.4433
以仁義	-10.4435
謂之仁	-10.4436
天所	-10.4437
物我	-10.4444
不得為	-10.445
出奔	-10.4454
公曰	-10.446
多矣	-10.4469
者若	-10.4471
之多	-10.4473
相傳	-10.4479
池	-10.4482
而知之	-10.4484
過而	-10.4484
黍	-10.4488
勵	-10.4488
如何先生曰	-10.4488
弛	-10.4489
推己	-10.4489
津	-10.4491
亦不過	-10.4492
旒	-10.4498
王子	-10.4499
赤子	-10.4501
其類	-10.4502
過矣	-10.4512
惟聖人	-10.4516
大凡	-10.4524
正義曰云	-10.4525
老者	-10.4528
無能	-10.4532
服之	-10.4535
心而	-10.4537
博施濟衆	-10.4549
無二	-10.4551
艱	-10.4551
巖	-10.4553
濶	-10.4554
伯子	-10.4554
琴	-10.4557
韋	-10.4557
縮	-10.4558
九章	-10.4558
策	-10.4558
首尾	-10.4565
千古	-10.4582
不能用	-10.4585
切於	-10.4586
所問	-10.4586
義而	-10.4591
作用	-10.4594
言不	-10.4596
尾	-10.4598
失於	-10.4602
天子諸侯	-10.4604
君也	-10.4606
一時之	-10.4606
能守	-10.461
讎	-10.4615
一說	-10.4618
謗	-10.4618
果何	-10.4619
罰	-10.462
增	-10.4621
當其可	-10.4621
有力	-10.4623
平時	-10.4625
和之	-10.4627
練	-10.4628
不徒	-10.4628
其進	-10.463
幾於	-10.4633
扶又反	-10.4637
往來	-10.4637
疾病	-10.464
貴乎	-10.4645
其末	-10.4646
果能	-10.4646
其常	-10.4648
之微	-10.4653
人之善	-10.4654
心術	-10.4658
合下	-10.4664
深造	-10.467
焉耳	-10.4676
稼	-10.4678
懈	-10.468
鎰	-10.4682
須臾	-10.4682
羅	-10.4683
千乘	-10.4683
莫大於	-10.4685
蒼	-10.4686
不外	-10.4687
無聲無臭	-10.4688
安排	-10.4691
宏	-10.4691
周旋	-10.4699
過之	-10.47
皆出於	-10.47
行則	-10.47
行仁政	-10.4701
正道	-10.4703
其所以為	-10.4708
小徳	-10.4713
有人	-10.4714
體也	-10.4718
拒之	-10.4725
豈以	-10.4726
止是	-10.473
合而言之	-10.473
世俗	-10.4733
人自	-10.4735
横渠曰	-10.4738
為孝	-10.474
而致	-10.4743
焉於䖍反	-10.4745
八佾	-10.4745
䙝	-10.4746
不親	-10.475
行王政	-10.4751
豕	-10.4752
枝葉	-10.4753
小而	-10.4754
也孟子言	-10.4756
奴	-10.4761
正月	-10.4761
自慊	-10.4766
詩人	-10.4771
則皆	-10.4772
具於	-10.4775
不偏	-10.4779
起於	-10.4793
不分	-10.4794
氣化	-10.4798
當在	-10.4802
目之	-10.481
噫	-10.4814
牙	-10.4815
庶㡬	-10.4816
殯	-10.4817
幾希	-10.4818
純粹	-10.4819
四章	-10.4824
百工	-10.4828
直道	-10.483
將去	-10.483
五穀	-10.4837
專為	-10.4841
篤信	-10.4841
復有	-10.4842
功利	-10.4843
所稱	-10.4843
必至	-10.485
民皆	-10.4855
如人	-10.4863
如孔子	-10.487
仁民	-10.4871
外而	-10.4872
君子所	-10.4872
學力	-10.4874
荘	-10.4875
不為也	-10.4878
本然之	-10.4879
然自	-10.488
殖	-10.4881
髮	-10.4883
無所不至	-10.4883
夲	-10.4884
釋氏	-10.4885
毫釐	-10.4886
所主	-10.4886
人爵	-10.4886
泄	-10.4886
天命之	-10.4887
脉	-10.489
黑	-10.4892
一世	-10.4892
乃所以	-10.4893
溫	-10.4897
對言	-10.4902
和而	-10.4903
見孔子	-10.4905
充滿	-10.4908
應事	-10.4909
天時	-10.491
足矣	-10.4912
不論	-10.4913
必能	-10.4913
不可知	-10.4918
書云	-10.492
與之言	-10.492
有云	-10.4922
事父母	-10.4924
三千	-10.4925
遂以	-10.4926
之所由	-10.493
男	-10.493
約而	-10.493
執之	-10.4934
此一句	-10.4934
盡其心	-10.4937
夕	-10.4939
立心	-10.4944
奪之	-10.4945
思無邪	-10.4947
三山陳氏曰	-10.4948
郤	-10.4948
郭	-10.4954
詖	-10.4955
抑揚	-10.4955
之田	-10.4957
愚者	-10.4958
底事	-10.4959
而易	-10.4965
則凡	-10.4966
習於	-10.4966
責善	-10.497
不備	-10.4972
周書	-10.4974
萬鍾	-10.4974
將有	-10.4976
諸儒	-10.498
也使	-10.498
大哉	-10.4982
方其	-10.4983
章張彦陵曰	-10.4984
之心則	-10.4987
廛	-10.4989
有不同	-10.4992
其論	-10.4994
欲為	-10.4995
生意	-10.4998
有得	-10.5
人雖	-10.5005
為非	-10.5006
擇善	-10.5007
奮	-10.5008
驩	-10.5012
彼之	-10.5014
不差	-10.5017
杜預	-10.5018
正理	-10.5021
圈外	-10.5021
便可	-10.5022
積累	-10.5022
不敢以	-10.5025
其長	-10.5027
尚有	-10.5029
自信	-10.5033
告朔	-10.5035
邦國	-10.5035
之容	-10.5037
而不見	-10.5041
尊者	-10.5042
用工	-10.5046
亦未嘗	-10.5047
意也	-10.5048
之全體	-10.5048
賢才	-10.505
輔氏	-10.5055
動之	-10.506
不須	-10.5061
無害	-10.5061
正謂	-10.5062
吾道	-10.5066
感動	-10.5067
盛德	-10.507
相合	-10.507
目前	-10.5075
念慮	-10.5076
自見	-10.5077
蓋亦	-10.5078
平生	-10.5079
之神	-10.5081
之言也	-10.5083
彰	-10.5083
甚於	-10.5085
曽晳	-10.5085
學詩	-10.5086
酬	-10.5088
人子	-10.5088
天地之間	-10.5088
誠心	-10.5089
歉	-10.5089
正之	-10.509
庶民	-10.5091
几	-10.5092
未可以	-10.5093
陰陽	-10.5094
何可	-10.5099
然此	-10.5101
女子	-10.5103
兩字	-10.5111
不服	-10.5112
恐人	-10.5114
大者	-10.5117
若只	-10.5119
曽子曰	-10.5122
於斯	-10.5123
不幸而	-10.5125
自道	-10.5127
之質	-10.5127
所以明	-10.5128
之而已	-10.5131
取友	-10.5132
羣臣	-10.5132
教之以	-10.5135
引此	-10.5138
北面	-10.5138
師也	-10.5143
焉得	-10.5145
學於	-10.5145
知新	-10.5148
可以無	-10.515
刑罰	-10.5152
柄	-10.5155
愿	-10.5158
恣	-10.5162
有諸己	-10.5163
大孝	-10.5163
顔回	-10.5165
奈何曰	-10.5166
樂則	-10.5174
意亦	-10.5174
人之所以	-10.5174
則一	-10.5175
孟子又	-10.5176
當日	-10.5181
相接	-10.5185
氣也	-10.5186
楚人	-10.5186
與物	-10.5187
皆無	-10.5191
闇	-10.5193
無遺	-10.5195
此五者	-10.5197
居處	-10.5201
便能	-10.5202
庶乎	-10.5208
十四	-10.5217
此詩	-10.5218
處事	-10.5221
天生	-10.5225
孝悌	-10.5226
七十里	-10.5228
淡	-10.5229
近者	-10.523
五字	-10.523
貉	-10.523
模	-10.5231
谷	-10.5231
不居	-10.5232
這便是	-10.5234
未定	-10.5235
且以	-10.5236
動其心	-10.5237
王驩	-10.5241
二百	-10.5244
也註	-10.5244
各得其所	-10.5248
行乎	-10.5249
三事	-10.5252
誠字	-10.5253
事皆	-10.5263
求諸	-10.5263
而巳矣	-10.5264
可觀	-10.5269
不能知	-10.5276
矣其	-10.5277
不到	-10.5279
者能之	-10.5281
通章	-10.5287
分之	-10.5289
利之	-10.529
譎	-10.5291
擾	-10.5291
治亂	-10.5292
註馬融曰	-10.5295
頒	-10.5296
錦	-10.5296
以事言	-10.53
非不	-10.53
阻	-10.53
不問	-10.53
匪	-10.5301
能改	-10.5302
難也	-10.5303
展	-10.5304
德也	-10.5304
亦可見	-10.531
也况	-10.5311
羮	-10.5313
從周	-10.5317
亡矣	-10.532
用其力	-10.5322
告之曰	-10.5324
初不	-10.5326
盛徳	-10.5328
王文憲曰	-10.5329
所用	-10.533
一國之	-10.5333
字對	-10.5333
列國	-10.5334
十八	-10.5336
實而	-10.5344
正義曰案	-10.5346
二子之	-10.5347
此所以為	-10.5351
大義	-10.5353
人力	-10.5354
忘其	-10.5354
此數	-10.5355
聞道	-10.5356
先有	-10.5357
誤矣	-10.5357
焉者	-10.5362
朝音潮	-10.5363
南軒張氏	-10.5367
擅	-10.5367
為賢	-10.5368
自足	-10.5371
誇	-10.5372
發出	-10.5377
心者	-10.5378
十五年	-10.5379
不免於	-10.5381
周制	-10.5381
貴者	-10.5382
故以為	-10.5386
般	-10.5386
則失	-10.5387
所以養	-10.5389
大舜	-10.5393
四年	-10.5396
此謂	-10.5406
意味	-10.5407
語類	-10.5407
其家	-10.5412
知字	-10.5412
方始	-10.5413
此條	-10.5416
反身	-10.5416
憎	-10.5418
又須	-10.5424
下愚	-10.543
農夫	-10.5433
可見其	-10.5434
上之人	-10.5434
此義	-10.5436
膏	-10.5438
時君	-10.5443
前言	-10.5445
不宜	-10.5445
詘	-10.5446
安之	-10.5447
不知禮	-10.5447
為邦	-10.5448
好義	-10.5448
聲音	-10.5449
時也	-10.5455
禮曰	-10.5455
孔顔	-10.5456
不務	-10.5457
曾子之	-10.5459
也雖然	-10.5461
子男	-10.5462
斯二者	-10.5469
的人	-10.5469
到此	-10.5469
思量	-10.547
至大	-10.5471
在中	-10.5479
憾	-10.5483
童	-10.5483
本自	-10.5487
推其	-10.5491
此特	-10.5493
浴	-10.5502
必有所	-10.5504
敬則	-10.5505
聽訟	-10.5506
亦多	-10.5506
雪	-10.5507
謨	-10.5509
寫	-10.551
以理	-10.551
也彼	-10.5511
懲	-10.5512
為二	-10.5513
穆公	-10.5513
殿	-10.5523
天理人欲	-10.5524
樞	-10.5524
飲酒	-10.5526
周子	-10.5527
又按	-10.5527
之喪	-10.5529
道問學	-10.5531
勇於	-10.5531
曰仁	-10.5532
兩事	-10.5533
也豈	-10.5535
焉是	-10.5536
大㫖	-10.5537
周官	-10.5537
王季	-10.5538
極言	-10.5539
天下無	-10.554
聘禮	-10.5541
最難	-10.5543
而况	-10.5545
志學	-10.5547
不許	-10.5548
為政者	-10.5549
昭昭	-10.5551
正人	-10.5551
墨子	-10.5553
戒之	-10.5556
何也曰此	-10.5558
行行	-10.5564
精義	-10.5567
伍	-10.5567
愛敬	-10.5568
訥	-10.5575
喪禮	-10.5576
於聖人	-10.5576
慧	-10.5577
莭	-10.558
盧	-10.558
婉	-10.5581
俯	-10.5584
而知其	-10.5585
菴	-10.5585
皆由	-10.5585
㕓	-10.5588
重於	-10.5588
近世	-10.5589
物物	-10.5591
備矣	-10.5597
未詳	-10.5598
所處	-10.5598
當如	-10.561
公劉	-10.5611
東南	-10.5611
夏商	-10.5613
詳矣	-10.5614
制作	-10.5632
從心	-10.5635
是道	-10.5636
是如此	-10.5637
物格	-10.564
許子	-10.564
覇	-10.5641
培	-10.5644
因此	-10.5646
純亦不已	-10.5646
右師	-10.5651
事事物物	-10.5651
嗇	-10.5653
之蔽	-10.5665
重而	-10.5665
天下平	-10.5667
以安	-10.5667
如此其	-10.5671
邪曰	-10.5673
直指	-10.5675
而難	-10.5676
是已	-10.5677
惡平聲	-10.568
於諸侯	-10.5682
所傳	-10.5683
而作	-10.5687
博厚	-10.5687
卻	-10.5688
為治	-10.5694
成章	-10.5694
行其	-10.5694
非所以	-10.5699
川流	-10.57
誅之	-10.5703
與人同	-10.5706
可疑	-10.5715
是說	-10.5716
於王	-10.5717
凡言	-10.5717
己之心	-10.5718
去做	-10.5718
惻	-10.5719
搏	-10.5722
糾	-10.5723
健	-10.5724
悠久	-10.5725
怕	-10.5727
而不失	-10.5729
陽明	-10.5729
將來	-10.573
醒	-10.5731
憑	-10.5732
或者	-10.5732
算	-10.5733
蟲	-10.5734
聞其	-10.5735
不治	-10.5735
伯玉	-10.5738
高明	-10.5738
註中	-10.5738
聖人之所	-10.5743
其弊	-10.5744
知其所	-10.5748
魯國	-10.5749
長短	-10.5752
周室	-10.5753
之久	-10.5754
然後可	-10.5755
正所謂	-10.5757
矣孟子	-10.5761
仕者	-10.5763
何爲	-10.5769
盍	-10.5769
得其正	-10.5773
不忠	-10.5774
致曲	-10.5774
主君	-10.5775
責其	-10.5777
性則	-10.5778
相逺	-10.5778
不覺	-10.5781
紛	-10.5781
好禮	-10.5783
二物	-10.5788
者孔子	-10.579
儻	-10.5798
者謂之	-10.5798
懇	-10.58
曾晳	-10.5801
博文約禮	-10.5801
料	-10.5802
獻子	-10.5806
字即	-10.5809
不著	-10.5811
知天命	-10.5812
使我	-10.5813
而先	-10.5813
孟軻	-10.5816
平公	-10.5819
懸	-10.5822
葉公	-10.5825
又非	-10.5825
詩之	-10.5826
之明	-10.5826
觀於	-10.583
自立	-10.5837
欲學者	-10.5839
導之	-10.5839
斷之	-10.584
邪說	-10.5842
然有	-10.5843
為體	-10.5844
推本	-10.5845
其職	-10.5845
以及人	-10.5846
也子路	-10.5847
也既	-10.5852
似亦	-10.5854
知之者	-10.5854
察其	-10.5856
所有	-10.5859
而安	-10.586
焉而	-10.586
所不能	-10.5862
得乎	-10.5865
只說	-10.5866
山之	-10.5867
体	-10.5867
必然	-10.5867
絜	-10.587
悪	-10.5872
四書脉曰	-10.5874
聚斂	-10.5875
寗	-10.5875
惡者	-10.5875
道是	-10.5876
儺	-10.5877
宗廟之	-10.5879
柱	-10.588
異也	-10.5881
成也	-10.5881
至是	-10.5884
不可及	-10.5887
疆	-10.5893
非但	-10.5894
醉	-10.5894
事物之理	-10.5895
天下皆	-10.5897
記之	-10.5899
以盡	-10.5899
雖多	-10.5899
氏云	-10.5901
見聞	-10.5902
逺之	-10.5908
底意思	-10.5908
哉此	-10.5909
不足於	-10.5909
不愛	-10.591
與仁	-10.591
至於此	-10.5915
南容	-10.5917
欲得	-10.5918
口氣	-10.5919
有未	-10.5919
推之則	-10.592
應物	-10.5921
楊子	-10.5926
於父母	-10.5926
絜矩之道	-10.5927
一息	-10.593
與他	-10.593
抑之	-10.5932
持守	-10.5933
取舍	-10.5935
行禮	-10.5937
善不善	-10.5937
之疑	-10.594
事功	-10.5945
臧文仲	-10.5946
一善	-10.5948
義利	-10.5948
司馬牛	-10.595
軒	-10.5953
所以成	-10.5955
少有	-10.5955
必不能	-10.5957
結上文	-10.5958
誠敬	-10.5959
叔孫	-10.5961
東陽許氏曰	-10.5961
孟子弟子	-10.5967
夏時	-10.5971
康誥	-10.5972
而取	-10.5973
醢	-10.5977
説到	-10.5984
守約	-10.5988
喜怒哀樂未發	-10.599
勇也	-10.5992
不願	-10.5993
循其	-10.5993
有本	-10.5995
兩章	-10.5996
凡有	-10.6006
之得失	-10.6007
為已	-10.6007
亦只	-10.6011
之學也	-10.6012
孟子論	-10.6012
今夫	-10.6012
而不自知	-10.6012
謂之性	-10.6016
臧	-10.6017
巧言	-10.6018
上有	-10.602
敘	-10.6022
諾	-10.6022
蕭	-10.6022
仁是	-10.6023
証	-10.6023
立於	-10.6024
停	-10.6026
庚	-10.6026
天命之謂性	-10.6026
為亂	-10.6026
北辰	-10.6026
於孟子	-10.6028
之中而	-10.6028
百畆	-10.6029
忿懥	-10.6029
也何	-10.6033
郎	-10.6036
夫子所以	-10.604
形氣	-10.604
世間	-10.6043
事實	-10.6044
之發	-10.6044
國中	-10.6045
故特	-10.6045
又引	-10.6045
之以禮	-10.6047
而孔子	-10.6049
正義	-10.6051
浩然	-10.6052
説出	-10.6052
處説	-10.6054
則不得	-10.6055
皆指	-10.6055
改之	-10.6055
不告	-10.6056
政教	-10.6057
秦楚	-10.6057
既得	-10.6058
救民	-10.6058
諸生	-10.6058
於外者	-10.6059
便見得	-10.606
相通	-10.6063
徒知	-10.6064
則易	-10.6065
自省	-10.6066
父子之	-10.6067
正義曰此	-10.6068
可恥	-10.6073
立而	-10.6078
助法	-10.608
文勢	-10.6081
聞而	-10.6083
太師	-10.6085
昭穆	-10.6091
藐	-10.6092
耆	-10.6093
天下歸仁	-10.6098
曉得	-10.6098
馮	-10.6098
徼	-10.6099
桓魋	-10.6099
亳	-10.6099
迭	-10.61
鄭𤣥	-10.6101
吐	-10.6102
所生	-10.6102
七章	-10.6103
耦	-10.6103
者何也	-10.6103
棺	-10.6104
溪	-10.6106
求也	-10.6108
不輕	-10.6109
宰予	-10.6112
緅	-10.6113
則將	-10.6115
十六章	-10.6119
不答	-10.6119
人之言	-10.612
無餘	-10.6124
者在	-10.6126
偏於	-10.6127
專主	-10.6128
精㣲	-10.6134
温故	-10.6135
言聖人	-10.6139
必求	-10.614
孟子所以	-10.6142
不止於	-10.6148
全無	-10.615
圃	-10.6152
豈可以	-10.6158
前説	-10.6161
霸者	-10.6163
沐浴	-10.6171
詰	-10.6171
吁	-10.6171
是要	-10.6172
正其	-10.6174
則仁	-10.6174
也楊曰	-10.6175
亥	-10.6175
未善	-10.6176
之色	-10.6176
亨	-10.6176
潜	-10.6176
時時	-10.6176
酉	-10.6177
此之謂也	-10.6177
羞惡之心	-10.6178
召之	-10.6178
惜乎	-10.6178
京	-10.6179
恭儉	-10.6179
庾	-10.6179
厚齋馮氏曰	-10.618
朱註	-10.618
三子之	-10.6181
還是	-10.6181
圗	-10.6182
後面	-10.6182
錫	-10.6183
説者	-10.6184
為説	-10.6185
及之	-10.619
繼之	-10.619
無少	-10.6198
芟二條	-10.6198
之念	-10.62
所遇	-10.6207
生也	-10.6213
不善者	-10.6213
賔主	-10.6215
為上	-10.6215
當有	-10.6215
者耳	-10.6216
害之	-10.6219
三公	-10.6219
居於	-10.622
不賢	-10.6223
也是以	-10.6223
於衆	-10.6229
有物	-10.6231
而我	-10.6233
皆曰	-10.6234
其爲	-10.6236
同然	-10.6237
其所為	-10.6242
亦不必	-10.6246
讀為	-10.6248
晚	-10.625
物格知至	-10.625
陳蔡	-10.6251
有仁	-10.6252
非常	-10.6253
詩大雅	-10.6255
濯	-10.6256
得民	-10.6256
鳥獸	-10.6257
經綸	-10.6258
貨殖	-10.6259
亦能	-10.626
鵠	-10.6261
矣盖	-10.6263
小異	-10.6263
袒	-10.6264
自我	-10.6264
一様	-10.6266
丁音	-10.6266
司敗	-10.6268
狐	-10.627
學則	-10.6271
率性之道	-10.6272
鉤	-10.6272
夫子之意	-10.6278
無不善	-10.6278
然猶	-10.6285
安在	-10.6286
桓文	-10.6289
禁止	-10.629
當其	-10.6291
得他	-10.6296
為禮	-10.6302
夫豈	-10.6302
正而	-10.6305
君父	-10.6309
與民	-10.631
之訓	-10.6315
不獲	-10.6315
然必	-10.6316
一截	-10.6318
民之所	-10.6323
壇	-10.6324
慟	-10.6325
琢	-10.6327
之孝	-10.6327
教也	-10.6328
行於	-10.6329
鏡	-10.633
欽	-10.6331
鬬	-10.6332
只重	-10.6332
邠	-10.6332
暮	-10.6333
者不過	-10.6334
洽	-10.6335
普	-10.6335
七人	-10.6337
柳	-10.6337
藻	-10.6337
忠厚	-10.6338
仲雍	-10.6339
其端	-10.6345
聖王	-10.6346
勉強	-10.6347
鄭聲	-10.6347
里仁	-10.6354
以立	-10.6356
説則	-10.6357
為諸侯	-10.6357
家之	-10.6358
匡章	-10.6364
以誠	-10.6371
而廢	-10.6372
其迹	-10.6378
達於	-10.6379
之差	-10.6381
有不善	-10.6383
謂孔子	-10.6387
位而	-10.6388
則道	-10.6389
皮弁	-10.6391
何用	-10.6392
有大小	-10.6395
未必能	-10.6397
心不	-10.6397
惟知	-10.6398
後學	-10.6399
自脩	-10.64
不曾	-10.6403
注鄭曰	-10.6404
淺說	-10.6404
以成其	-10.6405
於親	-10.6406
誥	-10.6408
躐等	-10.6409
咨	-10.6409
車馬	-10.641
赦	-10.641
萊	-10.6412
嫡	-10.6414
而與之	-10.6415
太祖	-10.6416
萬章曰	-10.6417
至公	-10.6419
大宰	-10.642
而仁	-10.6425
執圭	-10.643
可謂之	-10.6433
者而言	-10.6434
而食	-10.6438
如彼	-10.6441
臣也	-10.6445
見於外	-10.6445
意謂	-10.6445
習之	-10.6447
處便	-10.645
雖非	-10.6451
務本	-10.6454
李氏	-10.6457
聖人之意	-10.6464
而益	-10.6464
達徳	-10.6466
既已	-10.6467
以己	-10.6467
故問	-10.6474
明明德	-10.6475
為害	-10.6475
五章	-10.6477
弁	-10.6479
食音嗣	-10.648
耘	-10.6481
無意	-10.6482
麗	-10.6482
失其本心	-10.6482
學禮	-10.6483
通乎	-10.6484
無忌憚	-10.6484
瀆	-10.6486
泯	-10.6487
沈無回曰	-10.6489
蒯聵	-10.6489
愬	-10.6492
醜	-10.6494
桴	-10.6495
子華	-10.6495
所以行	-10.6496
周氏	-10.6498
郢	-10.6498
聖人所以	-10.6499
字意	-10.65
已而	-10.6501
磬	-10.6501
為王	-10.6502
而徒	-10.6502
為士	-10.6503
老子	-10.6503
不欺	-10.6507
道之不行	-10.6507
不廢	-10.6508
爲仁	-10.6508
愛民	-10.6509
原憲	-10.6516
去也	-10.6519
或疑	-10.6521
老而	-10.6525
誠其意	-10.6526
無息	-10.6531
以明之	-10.6531
方有	-10.6534
貧而	-10.6534
矣且	-10.6536
字亦	-10.6547
都不	-10.6547
實心	-10.655
自責	-10.6552
當理	-10.6552
百世	-10.6552
竊意	-10.6554
之器	-10.6557
繅	-10.656
隐	-10.6561
天下有道	-10.6561
翕	-10.6564
示之	-10.6565
如一	-10.6565
而告之	-10.6566
芻	-10.6567
第十	-10.6567
撥	-10.6569
麤	-10.6571
口腹	-10.6571
為知	-10.6573
不知也	-10.6573
鄭玄	-10.6577
音洛	-10.6579
之類也	-10.6582
樂道	-10.6582
一年	-10.6582
大夫士	-10.6584
異者	-10.6592
初非	-10.6593
無物	-10.6598
無愧	-10.6598
愛物	-10.6599
外之	-10.6599
狷	-10.66
難於	-10.6607
授受	-10.6607
一㸃	-10.6614
何足	-10.6618
以治	-10.6624
尚未	-10.6629
齊大夫	-10.663
一種	-10.663
當世	-10.663
知本	-10.6633
恐非	-10.6633
也苟	-10.6635
鳯	-10.664
豈無	-10.6641
價	-10.6643
傳者	-10.6643
嘗謂	-10.6644
睦	-10.6646
陪臣	-10.6646
學術	-10.6646
多寡	-10.6647
生之謂性	-10.6648
遍	-10.6651
祈	-10.6652
絞	-10.6652
賣	-10.6653
尊徳性	-10.6654
之驗	-10.6655
宗建曰	-10.6655
不懼	-10.6656
道之大	-10.6658
一有	-10.666
者可以	-10.6667
合而	-10.6668
無定	-10.6668
一層	-10.6671
冉子	-10.6672
古人之	-10.6673
者衆	-10.6674
八章	-10.668
與上文	-10.668
思誠	-10.668
無君	-10.6682
日進	-10.6683
視其	-10.6684
第四	-10.6687
不好學	-10.669
有成	-10.6691
疑之	-10.6694
者何也曰	-10.6699
則有以	-10.67
取人	-10.6701
泛言	-10.6702
亦作	-10.6704
不遇	-10.6705
天下後世	-10.6705
田獵	-10.6707
為事	-10.6708
政刑	-10.671
隨其	-10.671
大人者	-10.6711
從此	-10.6712
便不是	-10.6715
莊公	-10.6715
已是	-10.6718
屈伸	-10.6721
億	-10.6721
因以	-10.6721
鯉	-10.6721
哉蓋	-10.6723
篤恭而天下平	-10.6723
哂	-10.6726
伯夷叔齊	-10.6726
瑞	-10.673
人品	-10.6734
雅頌	-10.6736
成湯	-10.6738
難易	-10.6739
無心	-10.674
此孟子所以	-10.6746
商之	-10.6748
身心	-10.6752
又從而	-10.6755
長幼	-10.6756
辭以	-10.6757
處便是	-10.6757
無欲	-10.6758
粹	-10.6761
相見	-10.6762
蔽於	-10.6764
何以言	-10.6771
皆從	-10.6773
道德	-10.6776
何謂也	-10.6777
為利	-10.6778
然後為	-10.6782
樂者	-10.6783
良知	-10.679
盖有	-10.6793
視朝	-10.6793
个	-10.6798
之餘	-10.6799
魄	-10.68
淺近	-10.6805
俊	-10.6806
正言	-10.6806
釁	-10.6807
闔	-10.6807
巢	-10.6807
二意	-10.6807
樣	-10.6811
視朔	-10.6812
二者皆	-10.6815
棘	-10.6816
合一	-10.6817
沉	-10.6818
知去聲	-10.6819
一處	-10.6819
不害其為	-10.682
美之	-10.682
肩	-10.6821
已知	-10.6821
子禽	-10.6822
流俗	-10.6823
不可勝用	-10.6825
南北	-10.6826
為小人	-10.6828
八年	-10.683
邪説	-10.6835
不多	-10.6837
如此然	-10.6838
夫婦之	-10.6841
合義	-10.6849
當行	-10.6851
周人	-10.6853
之為言	-10.6855
辭命	-10.6856
也昔	-10.6859
見前篇	-10.6864
不忍之心	-10.6865
成己	-10.6873
之先	-10.6879
餼	-10.6879
未見其	-10.6879
譲	-10.6885
紊	-10.6885
者只是	-10.6885
主乎	-10.6885
轍	-10.6889
態	-10.6889
問政	-10.689
宣公	-10.689
朕	-10.6891
摩	-10.6892
戈	-10.6893
安仁	-10.6895
淮	-10.6895
斤	-10.6895
花	-10.6897
龜山	-10.6898
崔	-10.6898
勞之	-10.6898
功名	-10.6899
居室	-10.6899
片	-10.6903
亦不得	-10.6907
知其為	-10.691
若謂	-10.6918
國名	-10.6918
責己	-10.6918
偶然	-10.6918
治水	-10.6919
巍巍	-10.692
一是	-10.692
也范曰	-10.6924
過則	-10.6926
齊氏曰	-10.6927
二說	-10.6929
匡人	-10.6931
當與	-10.6932
有大	-10.6932
矣然則	-10.6937
事有	-10.6937
自然之	-10.6944
無妄	-10.6947
操存	-10.6949
朴	-10.695
孟子所	-10.695
其私	-10.6952
太過	-10.6956
其禮	-10.6957
語録曰問	-10.6961
聖道	-10.6963
有不可	-10.6964
数	-10.6967
有五	-10.6968
公侯	-10.6969
服也	-10.6969
是用	-10.697
遣	-10.6971
圉	-10.6972
之利	-10.6976
戀	-10.6978
門外	-10.6979
宇	-10.6979
字之義	-10.6981
敦厚	-10.6982
未到	-10.6986
變而	-10.6992
王氏曰	-10.6993
數也	-10.6994
不得其正	-10.6994
其學	-10.6996
後漢	-10.6998
以養	-10.6999
所可	-10.7002
四時之	-10.7003
二女	-10.7006
為可	-10.7006
因人	-10.7008
只得	-10.7013
所執	-10.7014
以仁為	-10.7016
射者	-10.7017
再拜	-10.702
何耶	-10.702
心無	-10.7021
不利	-10.7024
之説也	-10.7029
一作	-10.7029
不聽	-10.7031
言外	-10.704
一例	-10.704
不疑	-10.7042
驗之	-10.7044
十二月	-10.7044
地而	-10.7045
審其	-10.7046
冰	-10.7049
公孫丑曰	-10.7051
莫知	-10.7053
嚮	-10.7053
如此者	-10.7054
紳	-10.7054
乎天	-10.7056
舌	-10.7056
大率	-10.7057
四書家訓曰	-10.7057
仞	-10.7057
薪	-10.7058
皇皇	-10.7058
挽	-10.706
壤	-10.706
彫	-10.706
踐履	-10.7061
期於	-10.7061
厄	-10.7062
君子之於	-10.7062
能得	-10.7062
黃	-10.7063
所從	-10.7065
明徳新民	-10.7066
必無	-10.7066
楹	-10.7067
紺	-10.7067
血氣之	-10.7075
所發	-10.7077
求放心	-10.7079
甚明	-10.7081
公卿	-10.7081
權衡	-10.7082
又自	-10.7085
先知	-10.7091
馬融曰	-10.7094
欲往	-10.7094
十三章	-10.7095
以下皆	-10.7099
祖考	-10.71
齊其家	-10.7101
之治	-10.7108
懿	-10.7113
他人之	-10.7123
武王之	-10.7127
吕氏曰	-10.7127
未知其	-10.7128
而未能	-10.7133
微生	-10.7133
頼	-10.7137
顛倒	-10.7141
與天地同	-10.7142
懦	-10.7142
召忽	-10.7143
不妨	-10.7143
之意則	-10.7146
亦如	-10.7146
氣數	-10.7148
害其	-10.7148
國語	-10.7148
其害	-10.715
有兩	-10.715
五十里	-10.7151
夏后氏	-10.7154
纓	-10.7155
却又	-10.7156
所以深	-10.7161
辨其	-10.7161
横渠	-10.7161
反經	-10.7164
神農	-10.7165
䧟	-10.7172
為小	-10.7174
令人	-10.7176
字當	-10.7178
以警	-10.718
程子之説	-10.7182
立志	-10.7182
曰夫	-10.7183
難言	-10.7184
所止	-10.7185
有功於	-10.7185
昭著	-10.7186
許其	-10.7186
其書	-10.7192
有甚於	-10.7195
饒	-10.7195
概	-10.7198
時文	-10.7199
東周	-10.72
其所當	-10.7201
得於天	-10.7202
其賢	-10.7203
無倦	-10.7204
心中	-10.7204
不讓	-10.7209
害也	-10.7211
得其所	-10.7211
能充	-10.7212
聖人所	-10.7213
章總㫖	-10.7213
揚子	-10.7214
尚何	-10.7217
之精	-10.7217
禮以	-10.7218
所同	-10.7219
曽㸃	-10.722
二條	-10.7223
視聽言動	-10.7224
異矣	-10.7225
上去	-10.7225
臣子	-10.7227
伯夷伊尹	-10.7227
脈	-10.7227
惡去聲	-10.723
而求之	-10.7232
陷溺	-10.7233
哀矜	-10.7236
讀之	-10.7239
經界	-10.724
不知有	-10.7246
則自然	-10.7246
者孟子言	-10.7246
安知	-10.7252
亦得	-10.7258
不以禮	-10.7265
誠之者	-10.7266
趙註	-10.7267
註曰	-10.7267
時事	-10.7268
祭服	-10.727
不可考	-10.7274
身之所	-10.7274
無不可	-10.7275
必為	-10.7277
即在	-10.7277
時便	-10.7279
知我	-10.728
善政	-10.7283
也古者	-10.7283
使天下	-10.7284
和也	-10.7287
天下有	-10.7287
不一	-10.7287
古文	-10.7288
儲子	-10.7289
用事	-10.7292
自取	-10.7301
極於	-10.7301
齊桓	-10.7302
亦可見矣	-10.7303
鑑	-10.7306
揭	-10.7308
盡己	-10.7308
驟	-10.731
盡得	-10.7311
鑒	-10.7311
聖人之事	-10.7312
穿窬	-10.7313
正己	-10.7314
有所不為	-10.7316
涵泳	-10.7317
附庸	-10.7318
屋廬子	-10.7318
富貴貧賤	-10.732
無位	-10.732
斯道	-10.7325
千乗	-10.7328
以時	-10.7329
有限	-10.7335
有心	-10.7339
5	-10.7339
子罕	-10.734
孔子以	-10.7341
妄作	-10.7343
玉帛	-10.7343
苟不	-10.7345
六尺	-10.7347
醯	-10.7348
之象	-10.7349
修己	-10.735
之和	-10.7352
自天子	-10.7352
所貴	-10.7353
之頃	-10.7359
必如	-10.7359
皆以為	-10.736
不憂	-10.7364
德而	-10.7368
為聖	-10.7372
當先	-10.7377
本然	-10.7379
之喻	-10.7386
炙	-10.7387
不謹	-10.7392
惻怛	-10.7392
壹	-10.7392
臯	-10.7392
詆	-10.7393
注疏	-10.7393
邉	-10.7394
寶	-10.7395
永嘉陳氏曰	-10.7396
㝠	-10.7398
而不受	-10.74
不可復	-10.7401
甸	-10.7401
章這一章	-10.7401
木鐸	-10.7403
紐	-10.7404
珠	-10.7404
博文	-10.7408
低	-10.7408
情也	-10.7408
加於	-10.7408
人皆有	-10.7409
志道	-10.7411
原是	-10.7415
食也	-10.7418
不説	-10.7423
固然	-10.7424
學易	-10.7425
季氏之	-10.7427
寡欲	-10.7427
便不	-10.7429
之禄	-10.7434
衣食	-10.7435
異於人	-10.7436
所取	-10.744
亦謂	-10.7443
屢空	-10.7445
不精	-10.7446
疏云	-10.745
一鄉	-10.7465
居上	-10.7465
之為人	-10.7465
便要	-10.7468
仁義之道	-10.7473
告之以此	-10.7474
以知	-10.7476
記曰	-10.7476
窒	-10.7477
未為	-10.7478
㡳	-10.7479
故於	-10.7479
簒	-10.748
誤也	-10.748
儆	-10.7481
三樂	-10.7481
絶無	-10.7483
小白	-10.7483
技	-10.7483
莫先於	-10.7483
壬	-10.7484
愛其	-10.7484
震	-10.7484
性而	-10.7486
撓	-10.7487
暑	-10.7488
學道	-10.749
明而	-10.749
冒	-10.7491
每事	-10.7493
天道人道	-10.7493
天地之性	-10.7497
叢説	-10.7498
逺人	-10.7499
為用	-10.7503
其質	-10.7504
由是而	-10.7506
放心	-10.7507
西伯	-10.751
羔裘	-10.7511
物則	-10.7512
蒙引存疑	-10.7512
心之德	-10.7513
立身	-10.7514
因其所	-10.7515
利仁	-10.7515
輔氏曰此	-10.7515
獨言	-10.7516
道無	-10.7516
有不得	-10.7516
本領	-10.7517
乎人	-10.752
本原	-10.7522
凡民	-10.7527
為法	-10.7531
則在	-10.7531
辭讓	-10.7534
無不在	-10.7534
其不能	-10.7534
未足以	-10.7535
兩箇	-10.7538
是他	-10.7539
出乎	-10.7541
欲立	-10.7543
行此	-10.7545
銘	-10.7546
孟子引	-10.7546
不見諸侯	-10.7549
有諸已	-10.7554
難能	-10.7556
今以	-10.7559
廷	-10.7559
焉能	-10.7562
與天	-10.7565
之亂	-10.7569
泣	-10.757
裔	-10.757
仇	-10.757
始有	-10.7571
慙	-10.7571
奸	-10.7572
輟	-10.7572
偷	-10.7576
籩豆	-10.7576
漏	-10.7577
此蓋	-10.7577
情性	-10.7578
旌	-10.7578
固執	-10.7581
故謂	-10.7581
以心	-10.7581
尊之	-10.7583
不見其	-10.7584
自守	-10.7584
膳	-10.7584
惻隠之心	-10.759
程子謂	-10.759
不敢自	-10.7595
大全朱子	-10.7596
反求	-10.7596
其先	-10.7605
士師	-10.7606
謹之	-10.7607
》	-10.761
能盡其性	-10.7612
畏天	-10.7614
所安	-10.7616
而未嘗	-10.7618
浩	-10.7618
至若	-10.7621
不驕	-10.7621
為智	-10.7623
其本心	-10.7625
邦家	-10.7627
感發	-10.7634
從事	-10.7637
仁禮	-10.7637
則爲	-10.7639
有是理	-10.7639
何以為	-10.7641
失之矣	-10.7643
君子之學	-10.7646
之詳	-10.7649
荷蕢	-10.7651
若論	-10.7651
何能	-10.7652
不恱	-10.7652
毫髪	-10.7656
一書	-10.7656
千乗之國	-10.7657
善矣	-10.7658
叟	-10.7658
倘	-10.7658
無可無不可	-10.7659
碎	-10.7659
亂臣賊子	-10.7659
椁	-10.7661
靖	-10.7664
哉然	-10.7672
與民同樂	-10.7672
於人也	-10.7672
用舍	-10.7673
人道之	-10.7676
苟能	-10.7679
回也	-10.7679
而從	-10.7679
不遺	-10.768
此文	-10.7681
其詳	-10.7681
乃謂	-10.7682
3	-10.7686
申言	-10.7687
悠逺	-10.7687
冨	-10.7688
只以	-10.7688
小節	-10.769
未有能	-10.7692
無義	-10.7693
有别	-10.7697
無用	-10.7697
不以其道	-10.7697
成公	-10.7697
事父	-10.7698
利而	-10.7706
此豈	-10.7706
天下之善	-10.7715
而來	-10.7715
人若	-10.7716
其分	-10.7717
前面	-10.7721
禮文	-10.7725
一念之	-10.7728
敬字	-10.7731
不可謂之	-10.7733
天地之心	-10.7736
聲色	-10.7739
註鄭𤣥曰	-10.7741
既以	-10.7742
其聲	-10.7746
蘧伯玉	-10.7747
卧	-10.7748
本作	-10.7749
尼	-10.775
奠	-10.7751
蓋其	-10.7751
奄	-10.7752
誕	-10.7752
漫	-10.7753
和樂	-10.7753
鐘鼓	-10.7755
級	-10.7755
嫁	-10.7756
巨室	-10.7756
兒	-10.7757
麟士	-10.7759
賜之	-10.7761
豈不是	-10.7763
而起	-10.7763
須看	-10.7764
伯牛	-10.7765
於一	-10.7765
此二者	-10.7766
同異	-10.7766
甚大	-10.7766
其臣	-10.7766
喪服	-10.7771
月令	-10.7772
立教	-10.7773
喜怒	-10.7773
矣豈	-10.7775
為證	-10.7776
而後知	-10.7777
太宗	-10.7777
隱微	-10.7778
力量	-10.778
可與言	-10.7781
名實	-10.7786
所損益	-10.7789
舍之	-10.7791
字更定次序	-10.7791
晏	-10.7793
而不已	-10.7793
行得	-10.7794
所自	-10.7798
頃	-10.7799
乃知	-10.7801
不可離	-10.7811
天地之道	-10.7811
形而	-10.7813
二書	-10.7815
以喻	-10.7817
悠	-10.782
天徳	-10.7822
恥之	-10.7825
正君	-10.7825
存者	-10.7826
為學者	-10.7826
往者	-10.7829
篤志	-10.783
前定	-10.783
也大抵	-10.7831
常在	-10.7831
也哉	-10.7832
孔子對曰	-10.7833
聖賢之心	-10.7834
讐	-10.7834
穴	-10.7836
富而	-10.7837
公冶長	-10.784
弼	-10.784
中庸所謂	-10.7841
河東	-10.7841
朽	-10.7841
摇	-10.7842
為子	-10.7843
去齊	-10.7844
章集註	-10.7844
治國平天下	-10.7847
柴	-10.7849
生生	-10.7852
其難	-10.7856
舊說	-10.7858
三者皆	-10.7858
一向	-10.7859
無弊	-10.7865
正則	-10.7865
難以	-10.7866
道不可離	-10.7868
吾儒	-10.7871
恰好	-10.7872
宜其	-10.7876
二十章	-10.7876
以進	-10.7877
萬章問曰	-10.7878
理財	-10.7878
了又	-10.7879
總之	-10.788
方言	-10.7884
氣質之	-10.7885
在齊	-10.789
卷十	-10.7891
亞	-10.7891
空空	-10.7892
仁聖	-10.7897
得於心	-10.7898
河南	-10.7898
説文	-10.7901
董	-10.7901
欲見	-10.7904
不愠	-10.7905
所作	-10.7907
亦嘗	-10.7908
述之	-10.7912
大故	-10.7913
右以	-10.7913
門弟子	-10.7917
同類	-10.7918
不能忘	-10.7922
公西華	-10.7922
氷	-10.7924
擯者	-10.7926
有時	-10.7926
之責	-10.7927
一叚	-10.7927
以忠	-10.7928
不離乎	-10.7928
㳟	-10.7929
倪	-10.793
坦	-10.793
蚓	-10.7931
嬖	-10.7931
不可廢	-10.7931
詳見	-10.7932
正如	-10.7932
先祖	-10.7932
穿鑿	-10.7933
䕶	-10.7933
覩	-10.7934
巧言令色	-10.7936
寇	-10.7936
爰	-10.7937
郵	-10.7938
㳺	-10.7938
一而已矣	-10.7939
踵	-10.7942
則一也	-10.7942
季路	-10.7945
而後已	-10.7946
此人	-10.7946
朝夕	-10.7948
漆	-10.7949
論孟	-10.7952
兩意	-10.7953
譏之	-10.7955
正當	-10.7965
而推	-10.7967
心便	-10.7969
事天	-10.7972
本㫖	-10.7975
當然之則	-10.7977
故可以	-10.7977
文武之	-10.7977
可食	-10.7979
之具	-10.7984
近道	-10.7985
器也	-10.7986
卓然	-10.7986
有所未	-10.7987
周家	-10.7991
動也	-10.7998
天民	-10.7999
使知	-10.8001
集疏曰	-10.8005
理㑹得	-10.8008
也是故	-10.8009
麟	-10.8015
其言而	-10.8017
自然之理	-10.8018
曷	-10.8019
後生	-10.8021
謚	-10.8021
分上	-10.8021
西北	-10.8022
毒	-10.8023
或以為	-10.8023
方千里	-10.8024
沼	-10.8024
競	-10.8024
之所能	-10.8025
乃有	-10.8027
叅	-10.8027
晚年	-10.8028
皆可以	-10.8029
欲去	-10.8029
攷證	-10.8031
武仲	-10.8031
頂	-10.8035
有禮	-10.8036
信則	-10.8041
不先	-10.8045
今王	-10.8047
於朝	-10.8048
其知	-10.8048
利欲	-10.8053
差等	-10.8058
衆也	-10.8058
得一	-10.8062
緊要	-10.8063
於衛	-10.8063
亡也	-10.8065
蔽之	-10.8066
事物之	-10.8067
兼言	-10.8067
比於	-10.8067
乆而	-10.807
男女	-10.8072
聽之	-10.8072
獨以	-10.8074
深思	-10.8086
得聞	-10.809
非必	-10.809
當自	-10.8092
以示人	-10.8092
治其	-10.8093
不期	-10.8095
一家之	-10.8096
安行	-10.8096
樂樂	-10.8101
佞人	-10.8102
約禮	-10.8102
致中和	-10.8103
又豈	-10.8104
近仁	-10.8104
未是	-10.8107
怡怡	-10.811
非無	-10.811
凡三	-10.8111
三省	-10.8111
八音	-10.8112
憂懼	-10.8113
制之	-10.8114
巽	-10.8114
揖遜	-10.8114
他國	-10.8116
之言曰	-10.8116
淪	-10.8117
節用	-10.8117
互相	-10.8118
透徹	-10.8118
求諸人	-10.812
未敢	-10.8121
膠	-10.8121
此聖人	-10.8121
闡	-10.8122
匠	-10.8123
來見	-10.8123
障	-10.8125
父子兄弟	-10.8126
皆欲	-10.8128
都鄙	-10.8129
大行	-10.8129
寸	-10.8129
之㑹	-10.813
白圭	-10.8131
旗	-10.8132
漢儒	-10.8132
心上	-10.8134
不同故	-10.8134
子貢之	-10.8137
至道	-10.8139
使學者	-10.814
相須	-10.8142
是一	-10.8147
亡之	-10.8147
未免於	-10.8149
各自	-10.8153
中人	-10.8154
見夫子	-10.8155
天理流行	-10.8159
矣况	-10.8162
故欲	-10.8168
心正	-10.8171
北方	-10.818
不能絜矩	-10.8182
之水	-10.8186
之計	-10.8186
丁云	-10.8187
人無	-10.8187
學以	-10.819
仲由	-10.8191
也此言	-10.8193
其流	-10.8193
旱	-10.8195
哉夫	-10.8198
一朝	-10.8198
為主而	-10.8199
仁道	-10.8201
亦通	-10.8202
魋	-10.8203
千乘之國	-10.8205
吾之所	-10.8205
芟	-10.8206
言志	-10.8206
體道	-10.8207
羔	-10.8207
憲問	-10.8208
廩	-10.8208
卽	-10.8209
之所及	-10.8209
誾誾	-10.8209
冥	-10.821
辯之	-10.821
淳于髠	-10.8211
沙	-10.8211
一言而	-10.8212
洪水	-10.8213
丙	-10.8214
奕	-10.8214
以相	-10.8216
與子	-10.8217
揖讓	-10.8219
惻隱之心	-10.8219
申明	-10.8224
乎蓋	-10.8232
猶曰	-10.8233
第二節	-10.8233
充其	-10.8241
難矣	-10.8245
而失之	-10.8247
而改	-10.8247
畏之	-10.8248
文理	-10.8249
實事	-10.825
乃曰	-10.8257
古之君子	-10.8258
之法也	-10.826
而思	-10.8261
専以	-10.8262
諸弟子	-10.8265
度量	-10.8267
自覺	-10.8267
不過如此	-10.8268
矣乎	-10.8268
齊桓公	-10.8268
自相	-10.827
愛也	-10.8273
體而	-10.8274
二代	-10.8275
度之	-10.8276
其母	-10.8276
武成	-10.8276
季歴	-10.8276
箕	-10.8276
賢否	-10.8276
當從	-10.8277
姓名	-10.8279
不足為	-10.8281
就是	-10.8281
天意	-10.8282
雍也	-10.8284
乎然	-10.8284
不足以為	-10.8286
無足	-10.8288
張氏曰	-10.8292
並言	-10.8293
而歸之	-10.8293
衣裳	-10.8294
何獨	-10.8296
只是要	-10.8297
孺悲	-10.8298
憫	-10.8299
程氏	-10.83
理之當然	-10.83
學而知	-10.83
軰	-10.8301
過乎	-10.8301
偕	-10.8302
溝洫	-10.8302
志在	-10.8302
𦵏	-10.8302
西山真氏曰	-10.8303
凡此	-10.8303
不改其樂	-10.8304
之本體	-10.8305
木之	-10.8305
㢘	-10.8306
荀卿	-10.8306
狼	-10.8307
至理	-10.8309
望其	-10.8311
惟有	-10.8312
警之	-10.8313
顏子	-10.8317
采地	-10.8317
所至	-10.8318
欲求	-10.8319
必信	-10.8322
上聲下同	-10.8324
之倫	-10.8324
於行	-10.8326
誦詩	-10.8332
皆自	-10.8332
衆理	-10.8334
同意	-10.8334
深逺	-10.8335
與孔子	-10.8341
字正	-10.8342
襄王	-10.8344
之業	-10.8345
盖亦	-10.8348
地名	-10.8349
兄弟之	-10.835
者特	-10.8351
君民	-10.8354
以致其	-10.8356
而失其	-10.8358
相連	-10.8362
敬信	-10.8364
嗟	-10.8365
勉之	-10.8366
而不復	-10.8368
致知格物	-10.8369
猶是	-10.8369
為樂	-10.8369
之幾	-10.8369
為父	-10.837
孝也	-10.837
所共	-10.8375
之意故	-10.8378
叔齊	-10.838
睿	-10.838
罪人	-10.8384
主敬	-10.8385
深切	-10.8386
這道理	-10.8389
於是乎	-10.8393
逰	-10.8393
道在	-10.8396
改作	-10.8396
用之則	-10.8397
戕賊	-10.8398
採	-10.8399
忮	-10.84
縷	-10.84
戒謹恐懼	-10.84
知所先後	-10.8401
但有	-10.8401
吾聞	-10.8401
庠序	-10.8403
時有	-10.8403
洗	-10.8403
塵	-10.8404
與民同	-10.8404
終是	-10.8404
樊	-10.8407
趙岐	-10.841
則見	-10.8412
於天子	-10.8416
篇首	-10.8416
不可移	-10.8417
怨慕	-10.842
非我	-10.8421
包得	-10.8423
軫	-10.8425
獵較	-10.8426
韓子	-10.8428
之忠	-10.8433
爾汝	-10.8435
長上聲	-10.8437
之智	-10.8438
百世之	-10.8438
而深	-10.8439
能絜矩	-10.8441
所以然者	-10.8447
答問	-10.8447
者尤	-10.845
篤行	-10.8453
須先	-10.8459
便當	-10.8459
二十五	-10.846
所當止	-10.8461
教而	-10.8463
言之矣	-10.8464
孝友	-10.8471
欺人	-10.8474
軻	-10.8476
語黙	-10.8481
可據	-10.8484
真有	-10.8485
在外者	-10.8485
以全其	-10.8487
糧	-10.8488
根於	-10.8488
不自知其	-10.8489
貽	-10.849
擴而充之	-10.849
恁	-10.8492
倉廩	-10.8492
商鞅	-10.8494
研	-10.8494
侃侃	-10.8494
武丁	-10.8498
吿子	-10.8498
捐	-10.8498
夷惠	-10.8499
髠	-10.85
之言而	-10.8501
聞者	-10.8502
服人	-10.8503
干禄	-10.8503
繪	-10.8503
也程子曰	-10.8505
寂	-10.8507
可不慎	-10.8507
兩件	-10.8508
進之	-10.851
邢氏	-10.8511
虚靈	-10.8511
之遺	-10.8512
十一章	-10.8513
既知	-10.8515
情之	-10.8516
如顔子	-10.8517
養老	-10.8519
敖	-10.8519
者三	-10.8521
皆言	-10.8521
韓曰	-10.8521
何異	-10.8523
志也	-10.8523
遷善	-10.8524
流而	-10.8528
衆人之	-10.8534
新安陳氏	-10.8536
親戚	-10.8542
萬民	-10.8545
無此	-10.8546
言天	-10.8546
位育	-10.8547
悼	-10.8548
大師	-10.8549
超然	-10.855
天者	-10.8551
孟子乃	-10.8552
按史記	-10.8553
字義	-10.8555
大段	-10.8555
教他	-10.8556
誠明	-10.8561
舎之	-10.8566
能擇	-10.8566
其所以然	-10.8567
知識	-10.8567
下手	-10.8569
其形	-10.8573
行去聲	-10.8574
李氏曰	-10.8574
十人	-10.8574
者也然	-10.8581
攸	-10.8583
廓	-10.8586
廪	-10.8586
鈞	-10.8588
張彥陵曰	-10.8589
園	-10.8589
姚	-10.859
修徳	-10.859
李毅侯曰	-10.8591
多學而識	-10.8595
灼	-10.8595
本非	-10.8596
繋	-10.8596
惡乎	-10.8598
一名	-10.8599
之化	-10.86
衮	-10.8602
卷二	-10.8606
勇者	-10.8606
非真	-10.8608
此身	-10.8609
現	-10.861
孟子對曰	-10.8612
勉而	-10.8614
雖在	-10.8618
截然	-10.8618
大倫	-10.8622
冉	-10.8625
至德	-10.8627
可以言	-10.8631
未發之中	-10.8633
亦善	-10.8634
意者	-10.8634
又能	-10.8636
但曰	-10.8639
字不同	-10.864
盖謂	-10.8641
時則	-10.8649
而盡	-10.865
逺也	-10.8653
應之曰	-10.8658
歟曰	-10.8659
所以異於	-10.866
匠人	-10.8664
封人	-10.8666
上二句	-10.8667
之原	-10.8668
之於身	-10.8669
皆能	-10.867
闢之	-10.8672
封之	-10.8673
亦與	-10.8673
固自	-10.8676
於其中	-10.8676
宴	-10.8677
書傳	-10.8681
女音汝	-10.8681
仁人之	-10.8683
涖	-10.8685
驥	-10.8685
道矣	-10.8685
夫子所	-10.8687
暴虐	-10.8688
愆	-10.8689
此四	-10.869
逞	-10.869
臂	-10.8694
人惟	-10.8696
亦在	-10.8697
學不厭	-10.8699
他事	-10.87
如何是	-10.8703
夷之	-10.8703
行藏	-10.8703
言非	-10.8705
大夫之	-10.8712
佛氏	-10.8712
官名	-10.8712
之死	-10.8714
之祭	-10.8716
不違仁	-10.8716
舉一	-10.8723
第五	-10.8731
不能守	-10.8731
求知	-10.8732
豈容	-10.8734
起而	-10.8734
七字	-10.8736
嘗聞	-10.8738
故無	-10.874
敬者	-10.874
身體	-10.8742
衛侯	-10.8742
易也	-10.8742
而受	-10.8746
學校	-10.8747
從來	-10.8753
大經	-10.8753
之聖	-10.8757
己私	-10.8761
上篇	-10.8762
本來	-10.8763
呂氏	-10.8764
極至	-10.8764
不謂之	-10.8776
所不及	-10.8776
箋	-10.8778
盡也	-10.8781
羊棗	-10.8782
養志	-10.8782
果有	-10.8782
之言則	-10.8783
依舊	-10.8783
深衣	-10.8785
柯	-10.8786
四肢	-10.8788
蠻	-10.8789
䏻	-10.8789
抗	-10.8789
關雎	-10.879
靠	-10.879
死亡	-10.879
大而化之	-10.8791
成名	-10.8791
充實	-10.8791
鈍	-10.8793
斛	-10.8794
吴	-10.8795
蹙	-10.8797
支離	-10.8798
言舜	-10.8799
状	-10.88
贄	-10.8802
壅	-10.8802
儼然	-10.8803
豹	-10.8804
失禮	-10.8805
推原	-10.8805
十七	-10.8806
此以下	-10.8808
則似	-10.8809
之功也	-10.8812
而有天下	-10.8812
下民	-10.8813
明堂位	-10.8813
孝經	-10.8814
只此	-10.8815
不勝其	-10.8815
者不可	-10.8817
人之有	-10.8818
詳味	-10.8821
道統	-10.8824
馬融	-10.8828
至今	-10.8829
這是	-10.8829
門人記	-10.8831
得位	-10.8831
不傳	-10.8832
如是之	-10.8833
豈知	-10.8837
分量	-10.8842
後進	-10.8844
為魯	-10.8849
未始	-10.885
他説	-10.8851
之形	-10.8851
洋洋	-10.8854
故民	-10.8857
曰孔子	-10.8859
以俟	-10.8859
其孰能	-10.8861
而已哉	-10.8865
弑君	-10.8866
何以異	-10.8866
隨之	-10.8868
語辭	-10.8875
師友	-10.8875
並耕	-10.8876
請問	-10.8877
若是其	-10.8878
而論	-10.888
而已然	-10.888
敬叔	-10.8881
反身而誠	-10.8881
之類皆	-10.8882
見音現	-10.8882
釐	-10.8883
輯	-10.8886
難得	-10.8887
鳳	-10.8887
䕫	-10.8891
茫	-10.8892
㧞	-10.8892
要在	-10.8893
無人	-10.8893
一變	-10.8894
天下之達道	-10.8895
板	-10.8897
蔡氏	-10.8898
賀孫	-10.8899
其目	-10.8901
安有	-10.8902
延平	-10.8902
三仁	-10.8905
一氣	-10.8906
正位	-10.8907
之月	-10.8908
為民	-10.891
所愛	-10.891
精一	-10.8911
紛紛	-10.8914
提起	-10.8914
都無	-10.8917
哉曰	-10.8918
之弟	-10.8919
字作	-10.8924
謹於	-10.8926
九字	-10.8927
辭之	-10.8928
知其非	-10.8931
悦之	-10.8933
和順	-10.8934
以其所	-10.8937
何患	-10.8938
猶以為	-10.8942
三重	-10.8942
其不可	-10.8944
不能勝	-10.8945
盡已	-10.8946
性相近	-10.8947
仁者人也	-10.8952
什	-10.8953
葢以	-10.8954
之敎	-10.896
長而	-10.896
世俗之	-10.8961
以教	-10.8964
待其	-10.8967
不甚	-10.8973
三歸	-10.8975
而謂之	-10.8975
二氣	-10.8975
抑亦	-10.8977
有志	-10.8984
有理	-10.8985
亂世	-10.8985
良知良能	-10.8985
為季氏宰	-10.8986
問孔子	-10.8988
諛	-10.8989
倡	-10.899
界限	-10.899
折衷	-10.899
矯揉	-10.899
光輝	-10.8991
子羔	-10.8992
上見	-10.8992
南宫	-10.8994
助之	-10.8995
渠	-10.8997
以濟	-10.8997
之所至	-10.8999
芟二條减	-10.9
饌	-10.9
覽	-10.9002
下而	-10.9003
墨氏	-10.9003
前輩	-10.9005
黄氏	-10.9005
妾婦	-10.9007
齊宣	-10.9009
形而上者	-10.9013
語氣	-10.9013
在家	-10.9014
犯上	-10.9019
凡物	-10.9019
真箇	-10.902
今有	-10.9021
辭受	-10.9024
理義之	-10.9031
乎是	-10.9032
則氣	-10.9033
宋人	-10.9033
孟孫	-10.9034
進學	-10.9043
所向	-10.9043
一致	-10.9047
於陵	-10.9047
之大小	-10.9049
但能	-10.905
者今	-10.9055
致敬	-10.9056
則失之	-10.9056
未成	-10.9056
哀公問	-10.9057
知之矣	-10.9061
此固	-10.9065
亦如此	-10.9069
為下	-10.9069
程子以為	-10.907
未學	-10.9071
未盡善	-10.9072
了便	-10.9074
子敖	-10.9077
不可不知	-10.9078
言之耳	-10.9078
萬古	-10.9078
係於	-10.9079
既言	-10.9081
可及	-10.9083
心廣體胖	-10.9085
阼階	-10.9087
人不能	-10.9087
莘	-10.9088
晝夜	-10.9089
之真	-10.909
荷	-10.9092
煞	-10.9092
戚戚	-10.9092
乃其	-10.9092
程子之意	-10.9092
桮棬	-10.9093
□	-10.9093
之説亦	-10.9093
孔子於	-10.9096
佛肸	-10.9096
祧	-10.9097
宗族	-10.9098
亦足以	-10.9098
組	-10.9099
如此若	-10.9102
則兼	-10.9102
賓客	-10.9102
踐形	-10.9104
敺	-10.9104
子文	-10.9105
君子所以	-10.9108
非若	-10.9113
由求	-10.9116
畿内	-10.9117
不得以	-10.9124
著見	-10.9125
物理	-10.9125
器小	-10.9126
矣或問	-10.9127
之小者	-10.9127
保民	-10.9131
今之諸侯	-10.9137
無憂	-10.9138
其内	-10.914
曰聖人	-10.9141
上看	-10.9144
焉其	-10.9145
國之政	-10.9148
人皆知	-10.9153
而往	-10.9153
而理	-10.9155
做去	-10.9155
氓	-10.9164
吳氏	-10.9164
以告之	-10.917
則天下之	-10.9174
之大者也	-10.9175
推此	-10.9176
弗能	-10.9178
行簡	-10.9179
教者	-10.9185
亦有所	-10.9186
有位	-10.9187
巫	-10.9191
明則	-10.9191
荘子	-10.9191
節謂	-10.9191
版	-10.9194
夸	-10.9194
獧	-10.9194
因時	-10.9195
而不察	-10.9195
如好好色	-10.9196
必有事焉	-10.9197
傍	-10.9197
聖徳	-10.9198
究竟	-10.9199
樂記	-10.9199
了故	-10.9199
既無	-10.9199
妥	-10.9199
勿施	-10.9201
十六年	-10.9202
蒙引謂	-10.9203
愼獨	-10.9204
厚葬	-10.9206
筵	-10.9206
八尺	-10.9207
曰古	-10.921
耳豈	-10.9211
改本	-10.9211
斯須	-10.9212
本有	-10.9213
純乎	-10.9216
晉侯	-10.9219
深知	-10.922
不待言	-10.922
為徳	-10.9221
之意亦	-10.9222
張氏	-10.9222
執事	-10.9226
足以見	-10.9229
一於	-10.9231
是一箇	-10.9233
美惡	-10.9233
此其所以為	-10.9234
一身之	-10.9238
琴瑟	-10.9241
化而	-10.9243
又在	-10.9243
蘇氏曰	-10.9245
聖人之徳	-10.9247
鄭注	-10.9249
矣而又	-10.9252
有所不能	-10.9255
先務	-10.9255
耳夫	-10.9263
古語	-10.9264
有惡	-10.9264
八家	-10.9265
無一毫之	-10.9265
地方	-10.9267
各異	-10.9269
求道	-10.927
位也	-10.927
𦂳	-10.927
為堯舜	-10.9272
則可謂	-10.9275
再言	-10.9276
夫子嘗	-10.9276
而後行	-10.9276
尚可	-10.9277
中庸言	-10.9278
如此故	-10.9279
己也	-10.9281
師之	-10.9282
烝	-10.9284
史記云	-10.9284
又不可	-10.9285
但為	-10.9285
只看	-10.9286
不踰	-10.9287
觀聖人	-10.9288
見矣	-10.9289
也翼註曰	-10.9289
有無	-10.9289
畒	-10.929
未仁	-10.9292
精義入神	-10.9294
真實無妄	-10.9295
之正也	-10.9295
養生	-10.9295
道中庸	-10.9295
橋	-10.9295
黙而識之	-10.9296
硬	-10.9298
為忠	-10.9298
不亦宜乎	-10.9299
雕	-10.9299
旬	-10.9301
孔文子	-10.9301
顔路	-10.9302
蚤	-10.9302
鬻	-10.9303
効	-10.9303
之罪也	-10.9304
梏亡	-10.9304
殃	-10.9305
弑其君	-10.9306
未之有也	-10.9306
太平	-10.9307
毋自欺	-10.9307
不忍人之心	-10.9307
行義	-10.9308
謂性	-10.9308
只當	-10.931
考工記	-10.9311
篇云	-10.9312
或云	-10.9313
不才	-10.9313
卓爾	-10.9313
竭力	-10.9314
無不通	-10.9316
疑於	-10.9318
亦為	-10.9319
存誠	-10.9319
哉孟子	-10.932
立命	-10.9321
何由	-10.9322
其要	-10.9323
復問	-10.9323
有窮	-10.9324
安樂	-10.9327
之任	-10.9329
要看	-10.9333
何益	-10.9333
章末	-10.9333
之甚也	-10.9335
不稱	-10.934
信而	-10.9343
東方	-10.9344
如舜	-10.9344
宜乎	-10.9345
心有所	-10.9345
友之	-10.9352
不肖者	-10.9354
道路	-10.9356
否則	-10.9357
也特	-10.9358
人倫之至	-10.9361
不中節	-10.9362
必其	-10.9363
之禮也	-10.9366
務外	-10.9371
夏殷	-10.9376
有得於	-10.9378
又必	-10.938
正其心	-10.938
自私	-10.9381
禮儀	-10.9384
此性	-10.9386
馬氏	-10.9387
此夫子	-10.9388
可惡	-10.9388
故下文	-10.939
摯	-10.9392
閔子騫	-10.9396
逼	-10.9396
祠	-10.9399
切磋琢磨	-10.94
㤗	-10.9402
文集	-10.9402
鞭	-10.9403
戊	-10.9403
真能	-10.9403
不踰矩	-10.9404
紀綱	-10.9404
魂	-10.9405
夫子言	-10.9405
戌	-10.9405
驕泰	-10.9406
宛	-10.9408
欠缺	-10.9409
故其言	-10.9409
郊特牲	-10.9411
字最	-10.9411
於禮樂	-10.9412
民無	-10.9412
繡	-10.9413
袂	-10.9413
舍上聲	-10.9415
愛惡	-10.9416
所共由	-10.9418
事之宜	-10.9418
五常	-10.9419
何待	-10.942
無所容	-10.9426
本根	-10.9431
外也	-10.9431
道之所以	-10.9445
到底	-10.9446
而不去	-10.9446
寡過	-10.945
士君子	-10.9452
貨財	-10.9454
問孝	-10.9455
所不欲	-10.9457
音烏	-10.9457
最是	-10.9457
之歎	-10.9458
心之用	-10.9458
不孤	-10.9459
不然也	-10.946
鄉遂	-10.9463
之端也	-10.9464
只一	-10.9465
取諸	-10.9467
食於	-10.9473
共之	-10.9473
起下	-10.9474
其禍	-10.9475
前知	-10.9478
修道	-10.9479
辨惑	-10.9482
欲知	-10.9484
不異	-10.9484
而莫之	-10.9486
不仁之人	-10.9488
五句	-10.9488
學字	-10.9488
誠矣	-10.9489
常情	-10.9489
邵	-10.9492
原於	-10.9493
主皮	-10.9493
小人則	-10.9495
也子貢	-10.9496
人所同	-10.9498
尊親	-10.9499
此一段	-10.95
依仁	-10.9501
勲	-10.9502
觶	-10.9503
被其澤	-10.9505
彦	-10.9508
夫子答	-10.9509
豈特	-10.951
葉氏曰	-10.951
人之情	-10.9511
道不逺人	-10.9511
欲罷不能	-10.9512
績	-10.9514
不遜	-10.9514
是體	-10.9517
轉移	-10.9519
物者	-10.952
中央	-10.9522
必曰	-10.9522
長於	-10.9523
不雜	-10.9525
升降	-10.9526
悠乆	-10.9526
禹貢	-10.9526
通達	-10.9527
號令	-10.9531
三聖	-10.9532
美也	-10.9533
貢法	-10.9534
偏倚	-10.9534
篤恭	-10.9536
去了	-10.9538
6	-10.9539
誠意章	-10.954
可用	-10.9541
之名也	-10.9542
為師	-10.9544
之儀	-10.9546
便是仁	-10.9547
人字	-10.9548
類也	-10.955
左傳云	-10.9554
章子	-10.9555
上擯	-10.9557
内而	-10.9559
之量	-10.9559
不遷	-10.9559
格致	-10.9559
外朝	-10.9561
得中	-10.9562
三子者	-10.9562
權度	-10.9565
便説	-10.9568
已自	-10.957
文武之道	-10.9572
理之所	-10.9582
考其	-10.9584
持志	-10.9585
用力於	-10.9587
何人	-10.9593
天道也	-10.9596
作樂	-10.9596
去魯	-10.96
分明是	-10.9605
不知此	-10.9607
無所不在	-10.9607
著於	-10.961
此兩句	-10.9611
是誠	-10.9612
匹夫匹婦	-10.9612
駟	-10.9612
中則	-10.9612
範	-10.9613
明明徳於天下	-10.9614
正在	-10.9615
於利	-10.9616
時措之宜	-10.9617
釜	-10.9617
戒慎恐懼	-10.9617
先君	-10.9618
其為人也	-10.9619
怯	-10.9619
遏人欲	-10.962
丈夫	-10.962
樸	-10.9621
吾所	-10.9621
有意於	-10.9622
千萬	-10.9626
不仁而	-10.9626
言雖	-10.9626
欒	-10.9627
佛老	-10.9628
之根	-10.9629
脅	-10.9632
亦惟	-10.9634
亦謂之	-10.9634
自勉	-10.9636
仁人心也	-10.964
不樂	-10.9641
賤者	-10.9643
4	-10.9644
餘意	-10.9644
無失	-10.9644
其病	-10.9647
指出	-10.9647
無所用	-10.9647
故朱子	-10.9651
伊尹之	-10.9652
魯公	-10.9654
所禀	-10.966
中矣	-10.9661
受田	-10.9661
十七年	-10.9665
至於如此	-10.9665
病也	-10.9667
有差	-10.9668
害人	-10.9668
禮貌	-10.9672
輔相	-10.9674
歎之	-10.9676
受業	-10.9676
萬世之	-10.9677
時節	-10.9678
未𤼵	-10.9679
愚意	-10.9682
日日	-10.9682
下士	-10.9683
亦未嘗不	-10.9683
亦似	-10.9691
燕居	-10.9692
于此	-10.9692
須有	-10.9695
正命	-10.9697
力不足	-10.9697
賓主	-10.9698
人當	-10.9698
謂孟子	-10.9702
禮器	-10.9702
女樂	-10.9702
天下之心	-10.9703
萬變	-10.9705
五音	-10.9706
在物	-10.9706
齊衰	-10.9707
八百	-10.9707
動作	-10.9708
欲行	-10.9709
十三年	-10.9709
上蔡	-10.9711
費隱	-10.9715
章句曰	-10.9716
盛時	-10.9717
中立	-10.9718
己之所	-10.9718
出来	-10.9721
西南	-10.9721
毫髮	-10.9723
粥	-10.9723
凢	-10.9724
醇	-10.9725
眸子	-10.9725
浸	-10.9725
揚雄	-10.9727
贈	-10.9727
亦未必	-10.9729
乃欲	-10.9729
噲	-10.9729
芥	-10.9729
至親	-10.9729
蔬	-10.973
亭	-10.973
黎民	-10.9731
冺	-10.9732
桐	-10.9732
網	-10.9733
通鑑	-10.9733
俞	-10.9733
幽厲	-10.9734
唯其	-10.9735
天下之大本	-10.9736
有先後	-10.9738
腥	-10.9739
同於	-10.974
權也	-10.974
何如耳	-10.9742
加焉	-10.9742
守其	-10.9742
亦以為	-10.9743
之極功	-10.9743
法則	-10.9745
三黜	-10.9747
無恥	-10.9747
矣何	-10.9748
好貨	-10.975
以徳言	-10.9751
合之	-10.9752
不可見	-10.9756
7	-10.9759
推明	-10.976
無私心	-10.9763
徒以	-10.9765
當是	-10.9767
又安得	-10.9771
生而知之	-10.9772
好仁者	-10.9774
特舉	-10.9775
提出	-10.9778
禮字	-10.9778
為人所	-10.9781
養心	-10.9781
門之外	-10.9785
何物	-10.9788
判然	-10.9792
諸公	-10.9793
三十年	-10.9794
之食	-10.9796
不相似	-10.9797
而勿	-10.9799
可矣	-10.98
以供	-10.9806
得罪	-10.981
所難	-10.9811
又恐	-10.9816
彭	-10.9824
獵	-10.9826
不敢當	-10.9827
文仲	-10.9829
刋	-10.983
不絶	-10.9832
學問思辨	-10.9832
活潑潑地	-10.9832
亢	-10.9833
衞靈公	-10.9833
喚做	-10.9837
如惡惡臭	-10.9837
夫如是	-10.9837
訒	-10.9838
銖	-10.9838
蕩蕩	-10.9841
删	-10.9841
適齊	-10.9841
昆弟	-10.9842
熄	-10.9842
圭田	-10.9842
揣	-10.9843
軍旅	-10.9843
蒸	-10.9844
贅	-10.9844
你	-10.9845
收斂	-10.9846
蓋謂	-10.9847
於文	-10.9848
夫子所謂	-10.9849
只見	-10.9849
聖人教人	-10.985
聖人之教	-10.9855
覆載	-10.9861
而教之	-10.9862
禮之本	-10.9865
大成	-10.9866
也學者	-10.9867
公羊傳	-10.9869
其蔽	-10.9871
以曉	-10.9872
十八章	-10.9874
二語	-10.9879
何者為	-10.988
非指	-10.9883
無待於	-10.9885
之旨	-10.9886
所不當	-10.9886
也曰然則	-10.9887
藏於	-10.9888
武王周公	-10.9894
有偏	-10.9894
亡而	-10.9898
矣惟	-10.99
章尹曰	-10.9902
生焉	-10.9902
乎然則	-10.9903
自居	-10.9903
入德	-10.9905
古註	-10.9906
人君之	-10.9906
不祥	-10.9912
大雅	-10.9914
洪氏曰	-10.9914
得名	-10.9921
此孟子	-10.9922
不越	-10.9923
仁者之心	-10.9924
敬長	-10.9926
小小	-10.9928
有益	-10.9931
原無	-10.9931
以来	-10.9933
叢	-10.9934
姑以	-10.9934
裁之	-10.9935
未逹	-10.9936
這一	-10.9937
彭更	-10.9938
在上者	-10.9939
各因其	-10.994
也其曰	-10.9944
得之而	-10.9944
鑽	-10.9945
瑩	-10.9947
三綱五常	-10.9947
纁	-10.9948
綿	-10.9948
印	-10.9949
菑	-10.9949
是又	-10.995
俎	-10.9951
呉因之曰	-10.9951
鑄	-10.9951
下大夫	-10.9951
鼓瑟	-10.9951
匱	-10.9952
今日之	-10.9952
己意	-10.9953
袁	-10.9953
錮	-10.9955
各以	-10.9956
勉齋	-10.9958
之傳	-10.9959
索隠	-10.996
翔	-10.996
絳	-10.996
堪	-10.9961
視天下	-10.9962
齊王之	-10.9964
曰吾聞	-10.9966
者正以	-10.9968
謂何曰	-10.9969
名曰	-10.997
雖或	-10.9975
解之	-10.998
妙用	-10.9982
往見	-10.9982
王肅	-10.9987
詳之	-10.9988
幸而	-10.9989
自好	-10.9993
其制	-10.9994
有義	-10.9996
又為	-10.9996
上智	-10.9997
正指	-10.9998
得箇	-10.9999
亦在其中	-10.9999
並行	-10.9999
而始	-11.0001
故可	-11.0002
自已	-11.0003
只是箇	-11.0003
明辨	-11.0005
之序也	-11.0006
能用	-11.0006
異端之	-11.001
所出	-11.0014
之流行	-11.0014
權者	-11.0019
深味	-11.0023
原思	-11.0023
即所以	-11.0025
只因	-11.0027
有所得	-11.003
要人	-11.0033
未嘗無	-11.0033
春秋時	-11.0035
當務	-11.0036
有些	-11.0037
與下文	-11.0042
極其至	-11.0048
必有以	-11.0048
老彭	-11.0053
元氣	-11.0053
賢君	-11.0054
孔子之道	-11.0054
封於	-11.0056
溝壑	-11.0057
說到	-11.0058
慎其獨	-11.0058
有是言	-11.0058
半塗而廢	-11.0058
慰	-11.0058
必當	-11.0059
巷	-11.0059
囂囂	-11.0059
赫	-11.006
紹	-11.006
言文王	-11.0061
乎孟子	-11.0063
蔵	-11.0063
大受	-11.0064
牡	-11.0064
恪	-11.0065
夏后	-11.0065
等級	-11.0066
本諸身	-11.0066
曾西	-11.0067
㣲子	-11.0068
吾何	-11.0068
脯	-11.007
愉	-11.007
庳	-11.007
曹交	-11.0071
司冦	-11.0071
空言	-11.0072
日月之	-11.0074
王氏	-11.0074
用兵	-11.0078
不知其仁	-11.0078
塾	-11.0081
易知	-11.0082
便須	-11.0083
不均	-11.0084
之功用	-11.0085
此三句	-11.0086
大約	-11.0087
朱子以	-11.0089
沛然	-11.0089
君子則	-11.009
十有二	-11.009
無間斷	-11.009
下一	-11.0091
人得	-11.0092
和氣	-11.0094
同時	-11.0094
無時不	-11.0095
不消	-11.0095
耳順	-11.0098
為直	-11.0101
來者	-11.0105
以君命	-11.011
有容	-11.0116
助祭	-11.0116
也言人	-11.0117
與中庸	-11.0117
芟三條减	-11.0119
三等	-11.0121
在魯	-11.0123
司空	-11.0127
雖聖人	-11.0128
矣然其	-11.013
之説曰程子	-11.0132
髙宗	-11.0133
制禮	-11.0133
無憾	-11.0134
仲子之	-11.0134
無迹	-11.0135
問夫子	-11.0135
器之	-11.0136
部	-11.0137
有勇	-11.0142
甚多	-11.0142
不可從	-11.0146
疾也	-11.0147
用意	-11.0148
當於理	-11.0148
乃所以為	-11.0148
二國	-11.0152
抵	-11.0154
他求	-11.0156
附於	-11.0156
恕也	-11.0156
乎盖	-11.0157
二十四	-11.0158
未備	-11.0158
句句	-11.0161
任之	-11.0163
未當	-11.0164
好名	-11.0165
奉養	-11.0168
管晏	-11.0168
不在於	-11.0171
僞	-11.0172
換	-11.0172
麥	-11.0173
聖言	-11.0173
衷	-11.0173
仁賢	-11.0173
道即	-11.0174
喟然	-11.0175
諍	-11.0175
波	-11.0175
拙	-11.0175
為民父母	-11.0176
何以能	-11.0177
零	-11.0177
只作	-11.0179
夏禮	-11.018
通曰集註	-11.0181
史魚	-11.0181
堂堂	-11.0182
以此觀之	-11.0183
日月至焉	-11.0183
通謂	-11.0183
不怒	-11.0184
道之用	-11.0188
不往	-11.0189
讓國	-11.019
以實	-11.0191
十月	-11.0191
能養	-11.0198
假借	-11.0199
五榖	-11.0201
世臣	-11.0203
懿子	-11.0204
之不齊	-11.0205
而觀之	-11.0205
斯道之	-11.0208
無我	-11.0209
兼知行	-11.021
竊謂	-11.0212
博約	-11.0213
章此章	-11.0214
然後有	-11.022
所稟	-11.022
不解	-11.0222
四事	-11.0223
君賜	-11.0224
崇禮	-11.0229
另	-11.0232
曰予	-11.0233
從人	-11.0234
不豫	-11.0234
温公	-11.0237
可樂	-11.0239
後言	-11.0242
未免有	-11.0242
首篇	-11.0245
侯伯	-11.0248
六國	-11.0251
陸氏	-11.0256
所自出	-11.0256
程子以	-11.0256
只是説	-11.0261
也觀	-11.0261
懼其	-11.0263
並無	-11.0263
則同	-11.0263
易所謂	-11.0264
過此	-11.0264
容易	-11.0264
六十四	-11.0266
有待於	-11.0267
必使	-11.0267
難為	-11.027
上來	-11.027
者必有	-11.0271
則身	-11.0272
事長	-11.0273
黎	-11.0278
是欲	-11.0278
於此可見	-11.028
以觀	-11.028
反本	-11.0281
棖	-11.0281
之道而	-11.0282
人之身	-11.0285
用處	-11.0287
奇	-11.0287
追王	-11.0288
仁義之心	-11.0288
鎮	-11.0288
淑	-11.0289
之基	-11.0289
正心誠意	-11.0289
褒	-11.0291
豈若	-11.0291
鼓舞	-11.0292
報之	-11.0293
故稱	-11.0295
文帝	-11.0295
瓜	-11.0297
者此也	-11.0297
督	-11.0297
堂下	-11.0297
注曰	-11.0297
有何	-11.0299
兩人	-11.03
聖王之	-11.0301
俱有	-11.0301
所以立	-11.0301
驕吝	-11.0302
心之體	-11.0303
五寸	-11.0305
為長	-11.0309
形於外	-11.031
擇之	-11.0311
征之	-11.0312
者實	-11.0313
致廣大	-11.0313
陳良	-11.0316
七月	-11.0318
朱氏	-11.032
未之見	-11.0324
既能	-11.0325
注言	-11.0325
𦂳要	-11.0325
而論之	-11.0326
趨於	-11.0327
不能改	-11.0328
所以處	-11.0328
雜記	-11.033
耳今	-11.033
必將	-11.0332
則先	-11.0332
有此理	-11.034
主一	-11.0342
自謙	-11.0344
違之	-11.0344
孟子此章	-11.0348
孔子孔子	-11.0349
其心則	-11.0353
能無	-11.0355
避之	-11.036
時勢	-11.036
極是	-11.0363
性中	-11.0364
人必	-11.0366
之地也	-11.0368
和則	-11.0369
不篤	-11.0371
舉此	-11.0371
如是而	-11.0375
見夫	-11.0377
謂我	-11.0381
各以其	-11.0382
所以有	-11.0383
可以觀	-11.0384
進賢	-11.0385
何足以	-11.0386
數語	-11.0387
與聖人	-11.039
有四	-11.0393
守死	-11.0397
虎豹	-11.0398
他書	-11.0399
篡	-11.04
㓗	-11.0401
午	-11.0402
從容中道	-11.0402
詢	-11.0403
怠惰	-11.0404
忠臣	-11.0404
豪傑	-11.0406
斧	-11.0407
不忍人之政	-11.0407
渭按	-11.0408
萃	-11.0408
下學上達	-11.0409
墨翟	-11.041
喪祭	-11.0411
繳	-11.0412
陳亢	-11.0413
內	-11.0413
則異	-11.0415
邑宰	-11.0417
於心而	-11.0419
那裏	-11.0421
言此以	-11.0424
豈獨	-11.0424
的意思	-11.0425
雖以	-11.0426
章甫	-11.0426
十一月	-11.0429
安宅	-11.0429
斯世	-11.043
不知不能	-11.043
此盖	-11.0431
一原	-11.0432
有善惡	-11.0432
戰國時	-11.0434
又不能	-11.0436
不能自已	-11.0439
可求	-11.044
之境	-11.0441
轂	-11.0446
一部	-11.0448
不能及	-11.0449
未然	-11.045
南方	-11.0454
信者	-11.0456
衛大夫	-11.0456
昭然	-11.0457
乎且	-11.0457
通上下	-11.0457
修已	-11.0459
而動	-11.0461
者心之	-11.0462
為髙	-11.0465
泛説	-11.0466
好惡之	-11.0473
則天	-11.0473
存疑謂	-11.0474
其法	-11.0475
之表	-11.0475
為季氏	-11.0478
高下	-11.0479
盡力	-11.0479
者莫如	-11.0481
或不能	-11.0482
故舊	-11.0483
名分	-11.0483
弗擾	-11.0488
苟無	-11.0489
腹	-11.0491
謂夫子	-11.0493
問之曰	-11.0493
此可見	-11.0495
緯	-11.0501
以終	-11.0501
變也	-11.0501
而已此	-11.0502
入則	-11.0505
但見	-11.0505
四代	-11.0506
樂正	-11.0506
磋	-11.0509
生理	-11.0509
之交	-11.0512
一則曰	-11.0514
専指	-11.0515
劣	-11.0516
怵惕	-11.0517
鬯	-11.0518
拳拳	-11.0519
苞	-11.052
府庫	-11.052
隋	-11.052
堯曰	-11.052
祇	-11.0521
自暴自棄	-11.0521
不可奪	-11.0521
顓	-11.0521
緼	-11.0521
而言之則	-11.0521
訪	-11.0522
仔細	-11.0522
公孫丑問曰	-11.0522
和而不流	-11.0523
稻	-11.0523
仁之方	-11.0524
黝	-11.0524
諧	-11.0524
所長	-11.0525
渡	-11.0525
矣至於	-11.0526
闗雎	-11.0527
䆒	-11.0528
其幾	-11.0528
而不求	-11.053
公卿大夫	-11.0531
句踐	-11.0532
天理也	-11.0532
七寸	-11.0534
宗伯	-11.0537
其色	-11.0538
循環	-11.0539
所以致	-11.0541
而况於	-11.0542
其師	-11.0543
示人	-11.0543
形迹	-11.0543
道之體	-11.0543
隨處	-11.0543
獨知	-11.0544
無後	-11.0544
之妻	-11.0545
禮有	-11.0546
人之常情	-11.0546
行政	-11.0548
字同	-11.0548
字看	-11.0548
人皆有之	-11.055
高逺	-11.0552
先之以	-11.0556
而進之	-11.0558
這個	-11.0561
多言	-11.0563
恐未	-11.0564
天地之氣	-11.0567
念頭	-11.057
亦必有	-11.0572
而言耳	-11.0573
井地	-11.0574
盛大	-11.0576
明言	-11.0578
五祀	-11.0582
乎若	-11.0583
少間	-11.0587
今曰	-11.0589
同乎	-11.0592
何與	-11.0593
中和之	-11.0594
學焉	-11.0597
為得之	-11.0598
其欲	-11.06
罕	-11.06
認得	-11.0602
夫子既	-11.0603
於禽獸	-11.0606
其機	-11.0608
得民心	-11.0614
已成	-11.0615
君子有	-11.0616
莫若	-11.0617
要當	-11.0617
全不	-11.0618
得盡	-11.0618
又却	-11.0618
出門	-11.0621
非止	-11.0622
春秋之時	-11.0627
遂謂	-11.0628
自安	-11.0628
其或	-11.0628
之藴	-11.0632
之一端	-11.0633
晨門	-11.0635
苟得	-11.0636
國之君	-11.0636
秉彛	-11.0636
牀	-11.0636
梁恵王	-11.0637
函	-11.0639
簞	-11.0641
額	-11.0641
掃	-11.0642
諉	-11.0643
太公望	-11.0643
僥倖	-11.0644
股	-11.0645
皆稱	-11.0646
依乎中庸	-11.0646
天下無道	-11.0647
亦難	-11.0648
絺	-11.0649
盛衰	-11.0649
譬喻	-11.0649
膰	-11.065
簞食	-11.065
在聖人	-11.0651
語言	-11.0651
家國天下	-11.0652
大路	-11.0653
以知言	-11.0656
而設	-11.0657
詩傳	-11.066
禮云	-11.066
則以為	-11.0661
第三節	-11.0661
令尹	-11.0662
攷之	-11.0666
惡則	-11.0667
豈徒	-11.0668
欲殺	-11.0668
可欲	-11.0668
矣如	-11.067
不得其死	-11.0671
也仁者	-11.0672
陳仲子	-11.0672
所性	-11.0676
昭王	-11.0676
武伯	-11.0678
致中	-11.0678
安可	-11.0679
而言者	-11.0679
所立	-11.068
自然而然	-11.0681
薨	-11.0681
習俗	-11.0682
久也	-11.0684
正欲	-11.0685
再問	-11.0687
不同者	-11.0697
言動	-11.07
可以知	-11.0701
既不能	-11.0706
人之所欲	-11.0706
擇其	-11.0706
睹	-11.0709
夫子於	-11.0709
切近	-11.0711
太史	-11.0716
三卿	-11.0717
仲尼曰	-11.0718
其良心	-11.0719
焉夫	-11.072
在學者	-11.0722
安貧	-11.0722
此一事	-11.0722
奈	-11.0723
如此看	-11.0725
相關	-11.0727
中字	-11.0729
惜其	-11.0731
而已非	-11.0732
之過也	-11.0732
郷人	-11.0734
惡不仁者	-11.0734
力不足者	-11.0735
無傷	-11.0736
於義理	-11.0743
之時也	-11.0744
鄭玄曰	-11.0746
固可	-11.0746
减二十	-11.0747
晋	-11.0749
員	-11.0754
人民	-11.0755
公叔文子	-11.0755
示人以	-11.0756
其在	-11.0756
佑	-11.0757
公明儀	-11.0758
威而不猛	-11.0759
形而下者	-11.076
率性之謂道	-11.076
汪	-11.076
頃刻	-11.0764
枯	-11.0765
一步	-11.0765
應對	-11.0766
詭遇	-11.0766
人莫不	-11.0766
乎爾	-11.0768
嶽	-11.0768
絶糧	-11.0768
也惟其	-11.0769
籥	-11.0769
釣	-11.0773
人倫之	-11.0773
不誠則	-11.0775
季文子	-11.0776
長㓜	-11.0777
弋	-11.0779
直至	-11.0779
小弁	-11.078
智也	-11.0781
取法	-11.0783
得見	-11.0784
動心	-11.0789
死則	-11.0791
質直	-11.0793
在朝	-11.0793
親也	-11.0795
天下之公	-11.0798
等事	-11.0798
反坫	-11.0798
有言曰	-11.0799
有形	-11.0802
作春秋	-11.0804
要君	-11.0805
為末	-11.0805
出公	-11.0807
光景	-11.0808
有未盡	-11.0813
㸔來	-11.0813
王命	-11.0815
制行	-11.0822
其材	-11.0822
言哉	-11.0826
有餘而	-11.0827
正以	-11.0827
多見	-11.0829
小道	-11.0829
後説	-11.0829
極好	-11.0833
其憂	-11.0837
不類	-11.0837
三尺	-11.084
不容己	-11.0841
之全	-11.0845
君子之心	-11.0846
慨	-11.0848
自當	-11.085
以義為	-11.085
聖人之所以	-11.0851
爵禄	-11.0852
瞽者	-11.0853
齊楚	-11.0854
小雅	-11.0855
之側	-11.0856
意見	-11.0857
耳如	-11.0857
以求之	-11.0858
説是	-11.0858
致和	-11.0859
以實之	-11.086
無功	-11.0863
正相反	-11.0864
止言	-11.0868
遯	-11.087
說者	-11.0871
齊家治國平天下	-11.0871
居喪	-11.0872
才也	-11.0874
冡宰	-11.0875
至周	-11.0878
豳	-11.0878
侗	-11.0879
▁子	-11.0879
南宫适	-11.088
荀	-11.0881
慚	-11.0881
糞	-11.0881
遮	-11.0882
非正	-11.0882
朝覲	-11.0882
咈	-11.0883
歎其	-11.0883
必因	-11.0884
何以知	-11.0884
坎	-11.0885
群	-11.0885
訐	-11.0885
聰明睿知	-11.0885
汶	-11.0885
艮	-11.0886
鳶飛魚躍	-11.0886
纎	-11.0887
棲	-11.0887
内有	-11.0888
不若人	-11.0888
輸	-11.0888
度數	-11.0888
輯釋	-11.0888
突	-11.0889
凡此皆	-11.089
有甚	-11.089
正色	-11.089
私覿	-11.089
物有本末	-11.089
九月	-11.0892
其本也	-11.0893
濡	-11.0893
剖	-11.0894
切磋	-11.0894
上介	-11.0895
服事	-11.0896
故常	-11.0897
粉	-11.0898
與人為善	-11.0899
有之矣	-11.0901
之中有	-11.0901
纔有	-11.0902
不脩	-11.0903
九人	-11.0904
以是而	-11.0905
不致	-11.0906
於後世	-11.0909
陳恒	-11.0911
驂	-11.0912
不可勝	-11.0914
而喜	-11.0914
六月	-11.092
大丈夫	-11.0921
可復	-11.0922
學士	-11.0923
以禮樂	-11.0925
漸漸	-11.0928
而不可得	-11.0928
善心	-11.0929
隠微	-11.0929
相稱	-11.0933
墮於	-11.0935
而言之也	-11.0935
民生	-11.0942
之益	-11.0943
終無	-11.0943
其智	-11.0944
伯夷之	-11.0946
集註云	-11.0946
孔子稱	-11.0947
二十六章	-11.0948
可與權	-11.0948
莊周	-11.095
惕	-11.095
譬則	-11.0951
有疑	-11.0953
所謂道者	-11.0954
之用也	-11.0954
入大學	-11.0954
可貴	-11.0956
與㸃	-11.0959
當兼	-11.0961
未暇	-11.0961
四人	-11.0962
應接	-11.0964
虚心	-11.0966
諸説皆	-11.0971
之子也	-11.0971
為急	-11.0972
克復	-11.0975
自稱	-11.0977
切下	-11.0978
擔	-11.098
相親	-11.0981
鄭云	-11.0982
逹道	-11.0983
而不忘	-11.0983
過了	-11.0984
若但	-11.0986
禮運	-11.099
是則所謂	-11.099
勝人	-11.0993
和平	-11.0994
複	-11.0995
大端	-11.0996
施之於	-11.0996
自不同	-11.0997
蛇	-11.0999
則其為	-11.0999
配義與道	-11.1
蹠	-11.1001
本乎	-11.1002
誨人不倦	-11.1003
為人臣者	-11.1005
天地位萬物育	-11.1005
盡心知性	-11.1006
我之所	-11.1008
為桮棬	-11.1008
既是	-11.101
喭	-11.101
碩	-11.1011
韠	-11.1011
遯世	-11.1012
是如何	-11.1012
李曰	-11.1012
當今	-11.1013
騶	-11.1013
優游	-11.1013
此氣	-11.1014
下二句	-11.1014
孟施舍	-11.1015
無父無君	-11.1015
亦無所	-11.1016
公綽	-11.1017
祔	-11.102
相表裏	-11.102
之對	-11.1021
者也若	-11.1021
也故君子	-11.1023
將死	-11.1025
知人之	-11.1025
所造	-11.1025
雍容	-11.1027
這般	-11.1028
之由	-11.1029
作事	-11.1029
束脩	-11.103
何敢	-11.1032
天下莫	-11.1032
可勝	-11.1032
皆是也	-11.1036
祖述	-11.1037
着力	-11.1038
以開	-11.1042
不說	-11.1045
惟是	-11.1046
為宰	-11.1046
有守	-11.1047
於地	-11.1048
治其國	-11.1049
覺得	-11.1049
為學之	-11.1057
倣此	-11.1057
德性	-11.1057
得力	-11.1058
不熟	-11.106
間有	-11.1061
字重	-11.1064
節節	-11.1065
道學	-11.1067
事見	-11.1072
以利為	-11.1075
草木之	-11.1076
與氣	-11.1077
而不至於	-11.1082
所以然	-11.1082
以行言	-11.1084
聖賢之言	-11.1084
有國者	-11.1088
不可揜	-11.1088
大要	-11.109
今觀	-11.1091
不可須臾離	-11.1092
達者	-11.1093
從者	-11.1093
配天	-11.1094
前聖	-11.1095
四科	-11.1095
正所以	-11.1096
起居	-11.1098
横逆	-11.1099
誠意正心修身	-11.1105
乃所謂	-11.1105
明明	-11.1106
稱王	-11.1112
奔齊	-11.1116
正直	-11.1116
要知	-11.1117
如使	-11.1117
正樂	-11.1118
四世	-11.1118
養民	-11.112
正路	-11.1122
佾	-11.1123
冦	-11.1123
适	-11.1127
替	-11.1128
無益於	-11.1129
監本訛	-11.1129
凌	-11.113
絢	-11.113
孳孳	-11.113
俾	-11.113
動容周旋	-11.1132
今改正	-11.1132
鬱	-11.1132
天理之公	-11.1132
發政施仁	-11.1132
所繫	-11.1133
涕	-11.1133
苛	-11.1133
述而	-11.1133
適莫	-11.1134
濵	-11.1135
誼	-11.1135
釡	-11.1135
濱	-11.1136
黻	-11.1137
鐵	-11.1139
楊朱	-11.114
毀	-11.114
分貼	-11.1141
產	-11.1141
修其	-11.1141
貫革	-11.1141
鄭康成	-11.1141
甲兵	-11.1141
文之以禮樂	-11.1142
足以知	-11.1142
無邪	-11.1142
後儒	-11.1145
大亂	-11.1145
澮	-11.1146
仲孫	-11.1148
互鄉	-11.1149
坫	-11.1149
之說曰	-11.1149
路寢	-11.1152
而直	-11.1154
却只	-11.1155
『	-11.1157
鮮能	-11.1157
8	-11.1159
為貧	-11.1161
屑	-11.1162
廣居	-11.1165
言仁義	-11.1166
衛人	-11.1168
因而	-11.1169
下惠	-11.1169
東夷	-11.117
謂聖人	-11.1172
獨立	-11.1172
聲容	-11.1179
五典	-11.1179
雨露	-11.1182
趨進	-11.1182
亦且	-11.1184
吕曰	-11.1185
縱横	-11.1186
七十二	-11.119
欲人之	-11.119
最明	-11.1191
造道	-11.1194
之意同	-11.1194
求利	-11.1194
惟恐其	-11.1195
常行	-11.1195
如所謂	-11.1199
成已	-11.1199
為士者	-11.1199
路門	-11.1203
承順	-11.1206
先王之法	-11.1207
洞然	-11.121
往而	-11.1212
輕易	-11.1214
二三	-11.1215
古本	-11.1215
言孔子	-11.1217
行險	-11.122
不侮	-11.1221
神也	-11.1221
凡四	-11.1222
三月不違	-11.1223
事勢	-11.1224
為哉	-11.1226
所重	-11.1228
六反	-11.1229
我何	-11.123
心思	-11.1231
與否	-11.1232
先儒謂	-11.1237
卒子	-11.1237
而忽	-11.1238
得來	-11.124
此物	-11.1242
性是	-11.1243
扉	-11.1246
孰不	-11.1248
武帝	-11.1249
寡矣	-11.125
國子	-11.1251
等語	-11.1254
漆雕開	-11.1256
王良	-11.1256
慍	-11.1256
志士	-11.1257
辦	-11.1258
干戈	-11.1258
宇宙	-11.1259
白虎通	-11.1259
八條目	-11.1259
碍	-11.126
緝	-11.126
稼穡	-11.126
妃	-11.126
尓	-11.126
泰誓	-11.1262
嬴	-11.1262
明德新民	-11.1262
膾	-11.1262
厚而	-11.1262
陟	-11.1263
勘	-11.1263
獨舉	-11.1263
澆	-11.1263
挈	-11.1263
譖	-11.1264
畎	-11.1264
境界	-11.1264
但見其	-11.1266
僴	-11.1266
帝王之	-11.1266
榮辱	-11.1267
褐	-11.1267
討之	-11.1269
亦自有	-11.1269
能如是	-11.1271
甚善	-11.1274
辟世	-11.1275
上士	-11.1277
而已若	-11.1277
源頭	-11.128
依於仁	-11.128
兩言	-11.128
太史公	-11.1282
無以加	-11.1282
隨其所	-11.1283
伐紂	-11.1284
平陸	-11.1285
雖其	-11.1289
于天	-11.1293
其數	-11.1297
過失	-11.1297
三月不違仁	-11.1298
嗟乎	-11.13
九州	-11.13
不可分	-11.13
發揮	-11.1301
言誠	-11.1303
顔氏	-11.1304
終食	-11.1305
仰之	-11.1307
論之則	-11.1307
十九年	-11.1309
而己	-11.1313
又加	-11.1315
出於天	-11.1318
耳蓋	-11.1318
取其一	-11.1323
此章是	-11.1323
精矣	-11.1327
人而不仁	-11.1327
豈必	-11.1329
宜若	-11.1329
虞人	-11.1331
四節	-11.1333
欲令	-11.1336
性之善	-11.134
理而已	-11.1341
不出乎	-11.1344
嚴而	-11.1345
喜其	-11.1346
異姓	-11.1347
君有	-11.1352
不曉	-11.1353
徳業	-11.1353
當然也	-11.1353
而化	-11.1355
何嘗不	-11.1355
上論	-11.1356
終不能	-11.1357
周衰	-11.1358
識見	-11.1359
形色	-11.1361
又作	-11.1361
集註謂	-11.1361
誰與	-11.1365
無一物	-11.1366
有所不知	-11.1367
禮之用	-11.1368
記云	-11.137
是三者	-11.137
不妄	-11.1372
禮法	-11.1372
惑於	-11.1373
修己以敬	-11.1375
誨人	-11.1375
喜怒哀樂之	-11.1379
復扶又反	-11.138
犧牲	-11.1381
不似	-11.1381
跖	-11.1381
元亨利貞	-11.1382
酬酢	-11.1383
武王伐紂	-11.1383
皆有所	-11.1383
齊治平	-11.1385
鋭	-11.1385
於己者	-11.1386
饔	-11.1386
虧欠	-11.1386
爽	-11.1387
栁下恵	-11.1387
熊氏曰	-11.1388
駢	-11.1388
訓詁	-11.1389
折獄	-11.1389
械	-11.1389
熙	-11.1391
穢	-11.1391
十四章	-11.1391
三讓	-11.1391
蹶	-11.1391
管蔡	-11.1392
阨	-11.1392
孔悝	-11.1394
壑	-11.1394
閣	-11.1395
祐	-11.1396
寗武子	-11.1396
炎	-11.1398
丘陵	-11.1398
舊本	-11.1399
餂	-11.1399
薦之	-11.14
不倚	-11.14
困窮	-11.14
脩己	-11.1402
為一章	-11.1403
孝弟忠信	-11.1403
許多道理	-11.1405
可欺	-11.1405
保之	-11.1406
焉用	-11.1407
其視	-11.1407
也周禮	-11.1408
問學	-11.141
欲盡	-11.1411
楚之	-11.1411
身修	-11.1412
從先進	-11.1413
不倍	-11.1415
子曰吾	-11.1416
知其不可	-11.1417
嘆曰	-11.1419
後聖	-11.1419
大概	-11.1422
何晏	-11.1424
二曰	-11.1425
而有以	-11.1427
不足道	-11.1427
所能及	-11.1427
者歟	-11.1428
較之	-11.1428
豈惟	-11.143
在言外	-11.143
四月	-11.1435
如此說	-11.1437
不能安	-11.1437
化民	-11.1437
亦如之	-11.144
也於是	-11.1441
洪氏	-11.1443
崇德	-11.1444
得這	-11.1446
故以此	-11.1446
人身	-11.1448
最好	-11.1451
五月	-11.1452
存天理	-11.1453
舜之心	-11.1458
譏其	-11.1458
此一章書是言	-11.1459
平居	-11.1459
下工夫	-11.146
庶子	-11.146
其詞	-11.1462
未必然	-11.1465
無有不	-11.1466
専言	-11.1467
私心	-11.1469
忽然	-11.1469
難事	-11.1473
承之	-11.1473
了然	-11.1475
民亦	-11.148
求之於	-11.1481
動處	-11.1484
而吾	-11.1486
言之而	-11.1486
只説得	-11.1489
也故孟子	-11.149
舉世	-11.1492
亦甚	-11.1495
須從	-11.1495
夫人之	-11.1495
入室	-11.1496
者案	-11.1498
則此心	-11.1498
處置	-11.15
否乎	-11.1502
加以	-11.1504
之意蓋	-11.1507
瑚璉	-11.1508
霜	-11.151
愛無差等	-11.1512
二十八	-11.1513
誄	-11.1514
淇澳	-11.1514
是我	-11.1515
紏	-11.1515
覺軒蔡氏曰	-11.1516
易曉	-11.1516
填	-11.1518
其氣象	-11.1519
爲主	-11.152
五行之	-11.152
直道而行	-11.152
章總㫖張彦陵曰	-11.1521
無求	-11.1521
丹朱	-11.1522
勞而	-11.1522
陳臻	-11.1523
如見	-11.1527
所以謂之	-11.1527
章諸生	-11.1529
義之所在	-11.1529
善哉	-11.153
孟之反	-11.153
務實	-11.1531
如水之	-11.1533
路史	-11.1533
脩其身	-11.1534
放逸	-11.1536
無一息之	-11.1539
常常	-11.154
六律	-11.1544
執御	-11.1549
祭先	-11.1552
細微	-11.1553
有這	-11.1553
取之也	-11.1555
所親	-11.1557
帝堯	-11.1566
文學	-11.1568
曰君	-11.1571
二南	-11.1571
發動	-11.1571
才能	-11.1572
勿忘	-11.1573
田里	-11.1573
以氣言	-11.1574
之奥	-11.1576
便了	-11.1578
做出	-11.1581
後世之	-11.1582
本然之性	-11.1582
自卑	-11.1584
之當然	-11.1585
天地之大	-11.1586
也嗚呼	-11.1588
易去聲	-11.1589
遂以為	-11.159
討論	-11.1592
樂處	-11.1593
崇徳	-11.1595
也詩云	-11.1596
則雖有	-11.1599
不審	-11.1599
冨貴	-11.16
之極致	-11.1601
易事	-11.1604
施於人	-11.1604
得之但	-11.1604
消長	-11.1606
知及之	-11.1609
合宜	-11.161
不可不察	-11.161
見於事	-11.1612
五伯	-11.1613
窮達	-11.1615
所動	-11.1616
不出於	-11.1618
大指	-11.162
體物	-11.1621
推致	-11.1622
當如是	-11.1623
不可求	-11.1627
天下事	-11.1628
夷齊之	-11.1628
疵	-11.1632
說文	-11.1633
名之曰	-11.1635
為己任	-11.1635
化育	-11.1636
不辨	-11.1636
恐是	-11.1636
不可能	-11.1636
如之何其	-11.164
宋朱子撰	-11.1641
近似	-11.1642
輯釋亦引	-11.1642
自强	-11.1644
悉井反	-11.1644
俑	-11.1644
皆善	-11.1645
象先問	-11.1646
浪	-11.1647
贍	-11.1647
日用常行	-11.1647
褻	-11.1648
憤悱	-11.1648
滔滔	-11.1648
龜山楊氏曰	-11.1649
法制	-11.1651
戰國之時	-11.1651
弄	-11.1653
㓕	-11.1656
變易	-11.1657
有餘力	-11.1657
為人子者	-11.1658
曉然	-11.1658
紾	-11.166
林放	-11.166
斯可矣	-11.1661
河内	-11.1661
珍	-11.1661
康叔	-11.1662
蒯瞶	-11.1662
六字	-11.1663
由此觀之	-11.1663
在當時	-11.1663
三百篇	-11.1667
有闕文	-11.1672
至此則	-11.1676
千載	-11.1679
公共	-11.168
引孔子之言	-11.168
子之言	-11.1682
功利之	-11.1684
約之	-11.1688
初學	-11.1689
言人之	-11.1691
余曰	-11.1692
無勇	-11.1694
致其知	-11.1698
之事非	-11.1701
以位言	-11.1701
故復	-11.1705
祖廟	-11.1706
稱堯舜	-11.1708
氣質之偏	-11.1708
直言	-11.1709
入于	-11.171
不臣	-11.1712
善矣然	-11.1712
三十六	-11.1713
左氏傳	-11.1718
設施	-11.1719
無疆	-11.1722
者也故曰	-11.1723
孔子所以	-11.1726
兼内外	-11.1726
不屈	-11.1729
閒居	-11.1732
先立	-11.1733
又推	-11.1734
安百姓	-11.1737
要看得	-11.1742
齊魯	-11.1743
有味	-11.1744
順天	-11.1746
其輕重	-11.1747
盡其性	-11.1747
畏天命	-11.1748
可與立	-11.1751
臣下	-11.1753
慎子	-11.1755
今之世	-11.1757
事事皆	-11.1757
大射	-11.1758
初間	-11.1758
日至	-11.1763
未及乎	-11.1764
大功	-11.1773
不定	-11.1773
徳字	-11.1774
一卷	-11.1775
不偏不倚	-11.1778
不語	-11.1778
拯	-11.178
格致誠正	-11.1781
之失也	-11.1781
誠者天之道	-11.1781
卞	-11.1781
孔子之於	-11.1782
口之於味	-11.1782
枕	-11.1782
嬰	-11.1782
想像	-11.1783
香	-11.1783
烹	-11.1783
樓	-11.1783
熈	-11.1783
孟懿子	-11.1783
徐儆弦曰	-11.1784
天下之道	-11.1784
新安倪氏曰	-11.1784
大人之事	-11.1785
於文義	-11.1785
鶴	-11.1786
佳	-11.1786
湍水	-11.1786
滑	-11.1787
形於	-11.1788
臼	-11.1788
孽	-11.1789
閒暇	-11.1789
拾	-11.1789
敬止	-11.1789
造其極	-11.179
異同	-11.179
人之所以為人	-11.1792
者亦有	-11.1792
恬	-11.1793
四者皆	-11.1793
剛柔	-11.1794
仁之體	-11.1798
其變	-11.1799
闕文	-11.1801
人之生	-11.1802
上大夫	-11.1802
王公	-11.1804
如矢	-11.1805
矣葢	-11.1805
却有	-11.1805
受教	-11.1805
過人	-11.1806
:	-11.1807
主之	-11.1808
周徧	-11.1813
求所以	-11.1815
尤甚	-11.1815
不免有	-11.1818
斈者	-11.1819
否先生曰	-11.182
即有	-11.1825
者也此	-11.1826
惟君子	-11.1827
荅之	-11.1828
無可疑	-11.183
政令	-11.1831
切己	-11.1835
呉氏曰	-11.1842
好學者	-11.1842
敵國	-11.1843
家人	-11.1843
可信	-11.1847
數句	-11.1847
卷一	-11.1848
衣冠	-11.185
於衞	-11.1852
天理之自然	-11.1852
避世	-11.1857
而取之	-11.1857
正解	-11.1858
誘之	-11.186
交友	-11.1862
不以道	-11.1864
未信	-11.1868
之徳也	-11.1869
分而	-11.187
所以待	-11.187
象之	-11.187
之深也	-11.187
孝乎	-11.1871
出於此	-11.1871
傳文	-11.1871
於此矣	-11.1873
孔子答	-11.1874
次於	-11.1874
强為	-11.1875
則庶乎	-11.1878
云孔子	-11.1878
之謀	-11.1879
田賦	-11.1883
以下則	-11.1885
其可以	-11.1889
其父母	-11.1891
履祥	-11.1893
因論	-11.1894
美矣	-11.1894
之所得	-11.1896
陋巷	-11.1897
之貎	-11.1897
輔之	-11.1899
甚麽	-11.1905
二程	-11.1906
子桑伯子	-11.1907
臧倉	-11.191
梏	-11.1911
可使南面	-11.1912
忠信篤敬	-11.1912
郷黨	-11.1912
孟施舎	-11.1913
爛	-11.1913
擇乎中庸	-11.1913
犂	-11.1913
鏗	-11.1913
千駟	-11.1914
而有得	-11.1914
縛	-11.1914
豈但	-11.1914
皦	-11.1915
查滓	-11.1915
摘	-11.1915
敬以直内	-11.1915
仆	-11.1915
翁	-11.1916
翻	-11.1916
斷斷	-11.1916
斧斤	-11.1916
訕	-11.1916
則不然	-11.1916
衣之	-11.1917
恂慄	-11.1917
四書脈曰	-11.1917
綴	-11.1917
興於詩	-11.1918
尊德性	-11.1919
不義而	-11.1919
幣帛	-11.192
性之徳	-11.192
彛	-11.192
饜	-11.192
雙峰饒氏曰	-11.192
三思	-11.1921
僩	-11.1922
當時諸侯	-11.1923
存得	-11.1923
弓矢	-11.1924
理明	-11.1925
城郭	-11.1927
絃	-11.1929
無所不用其極	-11.1929
照管	-11.193
論仁	-11.1931
玉溪盧氏曰	-11.1931
蠡	-11.1931
天下之至	-11.1932
恆	-11.1932
之惑	-11.1932
其勇	-11.1933
諸已	-11.1934
次也	-11.1934
無時而不	-11.1936
切要	-11.1936
之工	-11.1937
末章	-11.1939
哉盖	-11.194
興邦	-11.194
東北	-11.1941
之例	-11.1942
於吾心	-11.1943
在己者	-11.1948
其容	-11.195
鳩	-11.1952
九河	-11.1953
又無	-11.1955
持敬	-11.1956
余謂	-11.1959
又音	-11.196
至扵	-11.1963
天吏	-11.1964
鄭註	-11.1964
由是觀之	-11.1967
變通	-11.1968
博施	-11.1969
而後為	-11.1971
已然	-11.1972
而有所	-11.1973
髙祖	-11.1973
然後有以	-11.1975
不仁則	-11.1976
文武周公	-11.1976
不合於	-11.1977
之方也	-11.1981
心裏	-11.1982
小事	-11.1982
一歩	-11.1984
而學之	-11.199
之萌	-11.1991
生財	-11.1992
䧟於	-11.1995
末句	-11.1995
如何得	-11.1997
中門	-11.1999
立本	-11.2
性字	-11.2002
見識	-11.2007
同歸	-11.2007
於外而	-11.2011
雲峰	-11.2011
而惟	-11.2013
夫子曰	-11.2015
無物不	-11.2016
在陳	-11.2017
盡心上	-11.2019
過位	-11.202
最重	-11.2021
之所同	-11.2021
至誠之道	-11.2027
質美	-11.2032
之時則	-11.2035
北極	-11.2038
未明	-11.2042
蠶	-11.2046
纂疏	-11.2046
不辱	-11.205
賊害	-11.205
綽	-11.205
不憂不懼	-11.205
人物之生	-11.2051
其源	-11.2051
鑚	-11.2051
勿忘勿助	-11.2052
其事也	-11.2052
騂	-11.2052
踧踖	-11.2053
謀食	-11.2053
獻公	-11.2053
無恒	-11.2054
不惰	-11.2054
烏獲	-11.2054
恂恂	-11.2054
過與不及	-11.2054
好善惡惡	-11.2055
似是而非	-11.2055
屋漏	-11.2056
内省不疚	-11.2056
伐顓臾	-11.2056
克去	-11.2056
殄	-11.2056
萬物之理	-11.2057
寒暑	-11.2057
汗	-11.2058
違道不逺	-11.2058
凱風	-11.2059
賢臣	-11.2059
巡	-11.2059
原壤	-11.206
為不義	-11.206
禮義之	-11.2061
分數	-11.2062
洫	-11.2064
明理	-11.2064
盡美	-11.2064
孔子嘗	-11.2065
疚	-11.2065
詩書禮樂	-11.2065
就心上	-11.2066
平王	-11.2066
劉向	-11.2066
鹽	-11.2066
方寸	-11.2068
字從	-11.207
何疑	-11.207
姑息	-11.2071
有人於此	-11.2072
離婁	-11.2072
强弱	-11.2075
各當其	-11.2076
天字	-11.2076
無論	-11.2077
誠意正心	-11.208
魯頌	-11.2082
矣乃	-11.2085
雖小	-11.2085
所獨	-11.2086
老氏	-11.2087
五等	-11.2088
始祖	-11.2093
好人	-11.2093
不可掩	-11.2099
别無	-11.21
繼之曰	-11.2104
逹於	-11.2106
之屬也	-11.2107
而不可以	-11.2109
各不同	-11.211
而不用	-11.2114
終之以	-11.2114
新安陳氏曰此	-11.2115
張敬夫曰	-11.2116
答曰	-11.2116
耳非謂	-11.2118
不避	-11.2118
之事皆	-11.2118
亦兼	-11.2118
入井	-11.2121
萬乗	-11.2122
小事大	-11.2122
如日月	-11.2124
室中	-11.2124
今之學者	-11.2124
之一言	-11.2126
距心	-11.2129
即今	-11.2131
不有天下	-11.2133
生出	-11.2133
者唯	-11.2138
無敢	-11.2143
萬章問	-11.2144
則不復	-11.2146
又要	-11.2148
均平	-11.2148
重耳	-11.2152
博士	-11.2153
無往而不	-11.2159
在於此	-11.2159
從兄	-11.2162
子㳺	-11.2166
卒章	-11.2166
猶在	-11.2166
紇	-11.2167
色莊	-11.2167
者常	-11.217
欽定四庫全書論語	-11.2172
各得	-11.2173
想見	-11.2174
賢大夫	-11.2175
放過	-11.2178
䘏	-11.218
覺其	-11.2183
文飾	-11.2185
能舉	-11.2185
徂	-11.2185
鐸	-11.2188
允執厥中	-11.2189
性之所有	-11.2189
無敵於天下	-11.2189
賚	-11.219
將至	-11.219
而朝	-11.2191
圎	-11.2191
冡	-11.2191
為政之道	-11.2192
杞栁	-11.2192
帷	-11.2192
造次顛沛	-11.2193
揠	-11.2193
慤	-11.2194
三分天下有其二	-11.2195
不告而娶	-11.2195
中人以下	-11.2196
澄	-11.2196
忤	-11.2196
靈臺	-11.2196
泚	-11.2197
鞅	-11.2197
聊	-11.2198
鄧	-11.2198
中人以上	-11.2198
己知	-11.2201
不相干	-11.2203
與己	-11.2204
鞠躬	-11.2204
勺	-11.2205
廣狹	-11.2205
湣王	-11.2207
一邉	-11.2208
十世	-11.2209
大廟	-11.2215
孔子之時	-11.2215
古之道	-11.2216
乎其間	-11.2218
附㑹	-11.2219
奮發	-11.2219
一己之	-11.2221
行仁義	-11.2222
章伊川曰	-11.2222
不知而作	-11.2224
飲食之人	-11.2225
已盡	-11.2225
勃然	-11.2229
髙大	-11.2229
為士師	-11.223
《	-11.223
亂徳	-11.2235
先後之序	-11.2236
優於	-11.2238
其是非	-11.2238
近思	-11.2238
於外也	-11.2241
以奉	-11.2241
其平日	-11.2242
其所以然者	-11.2243
的道理	-11.2245
私智	-11.225
終不可	-11.2251
人鬼	-11.2254
治道	-11.2255
沈同	-11.2256
因問	-11.2257
北海	-11.2257
得宜	-11.2257
汙下	-11.2258
進德	-11.2259
闇然	-11.226
病根	-11.2262
朱子集註	-11.227
謹言	-11.2272
怒而	-11.2273
與此同	-11.2274
忠清	-11.2279
天之生	-11.2279
讀詩	-11.228
乎孟子曰	-11.228
烏得	-11.2281
持身	-11.2281
此等人	-11.2284
衣也	-11.2285
原有	-11.2286
晉人	-11.2286
者焉	-11.2287
統體	-11.2287
則君	-11.2287
人所易	-11.2288
被他	-11.2289
子夏之言	-11.229
所以治	-11.2294
君親	-11.2298
倣	-11.2299
未必皆	-11.23
奪其	-11.2301
乍	-11.2305
我欲	-11.2308
之制也	-11.2314
體察	-11.2316
徐氏	-11.2318
愈深	-11.2319
將何以	-11.2321
硜硜	-11.2324
孔子時	-11.2326
臆	-11.2327
乂	-11.2328
相離	-11.2328
熾	-11.2329
素位而行	-11.2329
愁	-11.233
一尺	-11.233
所以教	-11.233
動容周旋中禮	-11.2332
眩	-11.2332
浹洽	-11.2333
以其有	-11.2334
渾淪	-11.2334
前說	-11.2334
臻	-11.2336
北溪陳氏曰	-11.2336
壓	-11.2337
辜	-11.2337
庶物	-11.2338
鯀	-11.2338
兩層	-11.2339
約之以禮	-11.2339
曽西	-11.2339
切切	-11.2341
不可徒	-11.2341
洒	-11.2341
固守	-11.2342
促	-11.2342
意氣	-11.2343
玄端	-11.2343
庾公之斯	-11.2344
十六字	-11.2344
後丗	-11.2344
進取	-11.2345
方見得	-11.2347
敦化	-11.2348
油然	-11.2349
非禮也	-11.2349
晉文公	-11.2349
説約	-11.235
須用	-11.2351
只如	-11.2353
壺	-11.2354
看他	-11.2356
狂簡	-11.2356
賤惡	-11.2358
無不正	-11.2359
既往	-11.2363
觀感	-11.2364
孟子云	-11.2364
所感	-11.2365
世教	-11.2366
莫知其	-11.2368
是四者	-11.2368
俟命	-11.2368
少者	-11.2369
爵位	-11.2371
矣然而	-11.2374
君道	-11.2376
考之則	-11.2377
第一節	-11.2377
矣又何	-11.2378
尹士	-11.2379
减十	-11.2381
不欲觀	-11.2381
天之所以	-11.2381
有間	-11.2383
集解	-11.2383
克治	-11.2384
不興	-11.2388
私恩	-11.2391
露出	-11.2391
敎民	-11.2392
之源	-11.2394
到那	-11.2394
亦異	-11.2395
明年	-11.2396
不同耳	-11.2397
非有所	-11.2397
師冕	-11.2397
弗去	-11.2397
不孫	-11.2399
反中庸	-11.2405
所以求	-11.2406
未逺	-11.2408
不習	-11.241
正顔色	-11.2413
四夷	-11.2413
於秦	-11.2414
無敵	-11.2417
本章	-11.2418
今世	-11.2423
為要	-11.2428
傷人	-11.2429
疑辭	-11.2429
孟子嘗	-11.2431
而不改	-11.2435
於師	-11.2438
此章之意	-11.2441
見南子	-11.2445
不勉而中	-11.2445
行怪	-11.2446
五聲	-11.2447
勃	-11.245
小德	-11.2452
與衆	-11.2454
非其人	-11.2455
通用	-11.2456
而輕	-11.2457
清和	-11.2459
不畏	-11.2461
愚謂此	-11.2466
無方	-11.2467
禮樂征伐	-11.2467
扵此	-11.247
不専	-11.247
無諂無驕	-11.2471
仁民愛物	-11.2471
孟賁	-11.2472
盻	-11.2472
不逮	-11.2472
萬物皆備於我	-11.2472
鳶	-11.2474
怡	-11.2476
集疏曰或問	-11.2476
隂陽之	-11.2476
予欲無言	-11.2476
大哉聖人之道	-11.2476
伏羲	-11.2477
得禄	-11.2478
江熙曰	-11.2478
諸己	-11.2479
夫子稱	-11.248
弦	-11.2481
緜	-11.2481
黍稷	-11.2481
五節	-11.2484
戒懼慎獨	-11.2484
不可使	-11.2485
跪	-11.2487
本文之意	-11.2488
雖能	-11.2488
師摯	-11.249
封建	-11.249
粲然	-11.2491
善與人同	-11.2492
執玉	-11.2494
正義曰此章論	-11.2499
宴樂	-11.25
純熟	-11.25
貴貴	-11.25
己矣	-11.25
二十三年	-11.2502
動容貌	-11.2503
而且	-11.2504
既明	-11.2504
理氣	-11.2506
章諸生問	-11.2512
夫何	-11.2514
天德	-11.2514
所習	-11.2515
盡道	-11.2518
其用心	-11.2518
也云子曰	-11.2519
只縁	-11.2521
徇人	-11.2524
平説	-11.2526
這些	-11.2529
天子之事	-11.253
如何便	-11.2531
要得	-11.2535
孔子所謂	-11.2537
朱子云	-11.2538
此問	-11.2538
便佞	-11.2539
合理	-11.2543
致治	-11.2544
天下之人皆	-11.2546
一月	-11.2548
方且	-11.255
失其正	-11.255
知者知	-11.2552
尤切	-11.2553
若此者	-11.2554
其本然之	-11.2554
卻之	-11.2555
節次	-11.2557
鮮矣	-11.2561
疑惑	-11.2563
正身	-11.2563
為不仁	-11.2564
不可及也	-11.2565
則必有	-11.2566
當如何	-11.2566
一件事	-11.2567
利口	-11.2568
之為道	-11.2569
無别	-11.257
而守之	-11.257
得其要	-11.2572
開口	-11.2572
於中而	-11.2573
顯然	-11.2573
多識	-11.2575
荅曰	-11.2576
是書	-11.2577
又如此	-11.2577
庸徳	-11.2579
親其親	-11.258
遂行	-11.2582
互相發	-11.2584
千百	-11.2587
君子之所以	-11.2589
俟其	-11.2589
人已	-11.259
主張	-11.2593
之本心	-11.2594
不我	-11.2595
又似	-11.2595
立法	-11.2601
古公	-11.2607
許氏	-11.2607
學者所當	-11.2607
其義則	-11.2607
何邪	-11.2611
廐	-11.2612
恰	-11.2614
三千三百	-11.2615
富之	-11.2616
殀	-11.2618
武公	-11.2618
是一意	-11.262
袍	-11.2621
詩小雅	-11.2623
㨗	-11.2623
不可則止	-11.2623
舛	-11.2623
意必固我	-11.2624
訛	-11.2624
諄諄	-11.2624
又案	-11.2624
膺	-11.2624
腦	-11.2625
仁義禮知	-11.2625
彈	-11.2626
蹴	-11.2627
彝	-11.2629
八人	-11.2629
卷三	-11.263
睡	-11.2631
唐棣	-11.2631
譜	-11.2631
聚歛	-11.2632
不器	-11.2636
室家	-11.2636
沃	-11.2636
但欲	-11.2639
况於	-11.2639
臨民	-11.2641
射御	-11.2642
充虞	-11.2642
燔	-11.2643
堂上	-11.2644
9	-11.2645
為人君者	-11.2645
楊氏之説	-11.265
稍有	-11.265
不悅	-11.2651
精密	-11.2652
為勇	-11.2657
東首	-11.266
適衛	-11.2661
不可不謹	-11.2662
天下歸之	-11.2664
外求	-11.2668
心性	-11.2669
面前	-11.2672
孟子去齊	-11.2674
盡之矣	-11.2674
尊周	-11.2674
脩徳	-11.2679
守道	-11.268
章内	-11.268
衍文	-11.2681
方纔	-11.2681
不受命	-11.2687
不知命	-11.2689
可謂善	-11.2692
我將	-11.2693
者則以	-11.2693
哉若	-11.2694
其為人	-11.2696
親見	-11.2698
常理	-11.2698
不可用	-11.27
有所未盡	-11.2701
其器	-11.2702
可考	-11.2702
而退	-11.2705
不美	-11.2705
動時	-11.2705
其所行	-11.2706
此亦是	-11.271
中來	-11.2718
察識	-11.272
者亦非	-11.2722
其神	-11.2725
達孝	-11.2725
而歌	-11.2729
九百	-11.273
必勝	-11.2732
事不成	-11.2733
沛	-11.2736
不佞	-11.2738
呉氏	-11.274
其所學	-11.2741
大畧	-11.2743
也故孔子	-11.2746
難處	-11.2751
男子	-11.2755
能化	-11.2755
賢於	-11.2757
田野	-11.2758
明命	-11.276
躩	-11.2761
恭而安	-11.2762
纂	-11.2762
冢宰	-11.2762
才徳	-11.2763
而不征	-11.2763
陶冶	-11.2764
然却	-11.2765
觳觫	-11.2765
秉彞	-11.2765
無適而非	-11.2766
而後得	-11.2766
而不以	-11.2766
憐	-11.2766
天地生物之心	-11.2766
講明	-11.2766
蠻貊	-11.2768
慘	-11.2768
沮溺	-11.2768
詣	-11.2769
大勇	-11.2769
㦸	-11.2769
提醒	-11.2769
騎	-11.277
游藝	-11.277
富而無驕	-11.2771
籠	-11.2771
筭	-11.2771
俯仰	-11.2771
歆	-11.2771
瑕	-11.2772
諺	-11.2772
樊遲問仁	-11.2772
濳	-11.2772
它	-11.2773
與物接	-11.2774
金氏曰	-11.2774
沿	-11.2775
程朱	-11.2775
與禽獸	-11.2778
聦明	-11.2781
反求諸己	-11.2781
感而	-11.2783
在人者	-11.2783
朱子所謂	-11.2792
大略	-11.2793
髙子	-11.2794
諡法	-11.2794
書所謂	-11.28
武叔	-11.2801
往而不	-11.2805
七十子	-11.2805
而言曰	-11.2806
之行也	-11.281
同是	-11.2811
形而上	-11.2811
篤厚	-11.2813
惑人	-11.2814
雲峰胡氏	-11.2814
不學則	-11.2815
所以為仁	-11.2816
緇衣	-11.2819
列於	-11.2822
入小學	-11.2823
章句云	-11.2824
可受	-11.283
九思	-11.283
乎此則	-11.2832
脩道	-11.2832
義合	-11.2833
二義	-11.2833
太伯	-11.2834
而食之	-11.2834
也吕曰	-11.2842
人掌	-11.2843
不昧	-11.2845
君臣上下	-11.2846
禮之實	-11.2849
斷然	-11.2851
然否曰	-11.2855
中庸也	-11.2857
孟子既	-11.2857
此夫子所以	-11.2859
善教	-11.2862
於廟	-11.2863
見而知之	-11.2864
常道	-11.2865
又何必	-11.2867
莊敬	-11.2868
諸書	-11.2871
無適	-11.2872
㑹同	-11.2873
濟人	-11.2875
可謂知	-11.2877
在官	-11.2879
養性	-11.2881
所以勸	-11.2882
書名	-11.2883
如今人	-11.2885
日益	-11.2886
就事上	-11.289
仁之事	-11.2895
之綱領	-11.2901
雩	-11.291
含蓄	-11.2912
蚳鼃	-11.2913
竄	-11.2914
浩浩	-11.2914
洪範	-11.2915
存心養性	-11.2916
縦	-11.2917
松	-11.2917
雙峯	-11.2917
羡	-11.2918
撻	-11.2918
賞罰	-11.2918
朞月	-11.2918
旦晝	-11.2919
未知孰是	-11.2919
應事接物	-11.292
芳	-11.2921
憶	-11.2921
其弟	-11.2922
司寇	-11.2922
也註孔安國曰至	-11.2922
虢	-11.2923
裹	-11.2925
兵食	-11.2925
袗	-11.2927
鴈	-11.2927
漁	-11.293
知言養氣	-11.293
縓	-11.293
修德	-11.2931
充積	-11.2932
薑	-11.2935
陳文子	-11.2936
雖善	-11.2936
專對	-11.2936
資禀	-11.2938
不相離	-11.2939
口耳	-11.2944
又何以	-11.2945
亦猶是也	-11.2946
傳道	-11.2947
做不得	-11.2948
庫門	-11.2949
鄭注云	-11.295
循序	-11.2951
裼衣	-11.2952
人皆可	-11.2953
五經	-11.2958
未可知也	-11.2958
造次	-11.296
又將	-11.296
義剛	-11.2963
矣故夫子	-11.2964
首言	-11.2965
三綱	-11.2967
所願	-11.2967
心與理	-11.2971
以己之	-11.2973
𤼵見	-11.2973
董子	-11.2976
竊取	-11.2978
感化	-11.298
而然也	-11.2982
隣	-11.2982
臨時	-11.2984
害義	-11.2987
不足以知	-11.2987
吾性	-11.2992
又問曰	-11.2993
前此	-11.2997
萬善	-11.2999
焉可也	-11.3003
蔽賢	-11.3003
之賊	-11.3005
專一	-11.3008
之中又	-11.3009
豈復	-11.301
天之命	-11.3013
相闗	-11.3014
一云	-11.3017
得國	-11.3017
國風	-11.3017
既沒	-11.3023
四方之	-11.3026
公族	-11.3031
慎言	-11.3037
大聖	-11.3039
庻人	-11.3041
所志	-11.3045
家齊	-11.3046
其小者	-11.3047
捷	-11.3047
五教	-11.305
文勝	-11.3051
上逹	-11.3051
合於義	-11.3056
合為一	-11.3056
不能免	-11.3059
碑	-11.3061
居天下之廣居	-11.3061
一類	-11.3061
惟義所在	-11.3063
笙	-11.3063
克伐怨欲	-11.3063
惴	-11.3063
王孫賈	-11.3065
而處之	-11.3067
時舉	-11.3069
俛	-11.3069
峯	-11.307
舊註	-11.307
寂然不動	-11.307
順乎親	-11.307
理勢	-11.3072
倖	-11.3072
博學於文	-11.3072
纊	-11.3072
無不實	-11.3072
叫	-11.3074
裡	-11.3074
可與適道	-11.3074
誨之	-11.3075
洩	-11.3075
程子之說	-11.3076
曷嘗	-11.3077
典籍	-11.3078
惟仁者	-11.3078
少康	-11.3079
致知力行	-11.308
京師	-11.3081
知其性	-11.3081
可以行	-11.3082
念念	-11.3083
禰	-11.3085
山林	-11.3089
不得於言	-11.309
真是	-11.3092
金玉	-11.3092
善士	-11.3092
與上章	-11.3094
無聲	-11.3098
以兵	-11.3099
狐裘	-11.31
否曰然	-11.31
仁之道	-11.3101
所居之	-11.3103
正人心	-11.3106
切實	-11.3107
交接	-11.3109
專就	-11.3111
得之於	-11.3112
足以盡	-11.3118
卷四	-11.3127
以漸	-11.313
義以為質	-11.3131
運用	-11.3131
二本	-11.3131
致仕	-11.3131
使之然	-11.3134
故引	-11.3137
悔過	-11.3137
西山	-11.3137
者必先	-11.3137
不拘	-11.3137
何以知其	-11.3138
甲子	-11.3139
祭義	-11.3142
正天下	-11.3148
夫仁者	-11.315
然其所以	-11.315
誦之	-11.3152
斯人	-11.3153
又以為	-11.3154
以處之	-11.3156
歎曰	-11.3156
兩截	-11.3157
學之序	-11.3164
則不待	-11.3164
同心	-11.3166
何害	-11.3168
之粟	-11.3169
名世	-11.3174
十九	-11.3177
淮南子	-11.3181
敬其事	-11.3185
行王道	-11.3188
可奪	-11.3191
湯文	-11.3192
能推	-11.3196
不堪	-11.3198
畢竟是	-11.3198
正以其	-11.3199
如漢	-11.3202
場	-11.3213
君君臣臣父父子子	-11.3214
看了	-11.3218
剛毅木訥	-11.3218
非理	-11.3219
膾炙	-11.3219
伺	-11.3219
彘	-11.3219
此謂知本	-11.322
樂與好禮	-11.322
以明其	-11.322
䖍	-11.322
阱	-11.322
泛然	-11.3221
不思而得	-11.3222
簿	-11.3223
捉	-11.3223
庖	-11.3224
桃應	-11.3224
緦	-11.3224
周南召南	-11.3224
鴻	-11.3225
葵丘	-11.3225
集義所生	-11.3225
胎	-11.3225
丕	-11.3225
者有以	-11.3226
可與共學	-11.3226
淨	-11.3228
偹	-11.3228
乎抑	-11.323
俎豆	-11.323
訂	-11.323
與天為一	-11.323
聖人之學	-11.3231
萬物各得其所	-11.3233
惡不仁	-11.3234
趙魏	-11.3234
循循	-11.3235
有不同者	-11.3236
深淺	-11.3236
勿欺	-11.3237
増益	-11.3237
至末	-11.3239
梅	-11.324
芒	-11.3242
互相發明	-11.3242
在下位	-11.3244
夫子告之	-11.3244
公羊	-11.3246
安頓	-11.3247
公山	-11.3249
空虚	-11.3251
陳賈	-11.3251
大匠	-11.3252
去國	-11.3257
失位	-11.3259
復其初	-11.3259
殷人	-11.326
靳	-11.3264
取舎	-11.3265
知此則	-11.3266
人之行	-11.3271
及門	-11.3271
周道	-11.3277
便辟	-11.3279
父子相	-11.328
賢不肖	-11.3281
知所止	-11.3281
玉藻云	-11.3282
熟讀	-11.3285
要他	-11.3286
聖人之門	-11.3292
讀作	-11.3295
得其道	-11.3295
毎事	-11.3298
真切	-11.3299
聞夫子之言	-11.33
誰能	-11.3301
之所發	-11.3301
乃可以	-11.3301
人之所同	-11.3305
而不顧	-11.3306
真心	-11.3306
張敬夫	-11.3306
衆人之所	-11.3309
離婁上	-11.3309
這様	-11.3311
盡仁	-11.3311
仁之至	-11.3312
繼世	-11.3313
反下同	-11.3313
顔曽	-11.3313
之篤	-11.3314
内省	-11.3318
孟子因	-11.332
因循	-11.3322
變化氣質	-11.3325
後篇	-11.3325
無有不善	-11.3331
是自家	-11.3333
公平	-11.3333
如愚	-11.3334
雖同而	-11.3337
雖聖人亦	-11.3338
偽為	-11.3344
無以異也	-11.3345
名義	-11.3347
不可得也	-11.3349
由此而	-11.3353
可以有為	-11.3354
耳故曰	-11.3354
莽	-11.3358
不得見	-11.3361
可繼	-11.3363
學至於	-11.3364
孔子世家	-11.3365
焉爾	-11.3365
願學	-11.3368
發出來	-11.3369
皆謂之	-11.337
而不行	-11.3373
鉞	-11.3375
入道	-11.3377
徐子	-11.3378
食肉	-11.3379
戕	-11.3379
處約	-11.3379
不念舊惡	-11.3379
虗	-11.338
擊磬	-11.338
蕃	-11.3381
所過者化	-11.3381
踞	-11.3381
維持	-11.3381
馴致	-11.3382
癸	-11.3382
乾坤	-11.3382
睢	-11.3383
左丘明	-11.3383
咏	-11.3383
秦誓	-11.3384
不測	-11.3384
槨	-11.3385
如有所立卓爾	-11.3385
鄙倍	-11.3386
侍坐	-11.3386
卯	-11.3387
囬	-11.3387
剛毅	-11.3387
旂	-11.3389
裨	-11.3392
田地	-11.3394
其室	-11.3397
厚者	-11.3397
飱	-11.3397
堯舜禹	-11.3398
宁	-11.3398
其所守	-11.3398
玄冠	-11.3399
0	-11.3399
索隱	-11.34
準則	-11.3401
自作	-11.3405
孝子之心	-11.3407
饒説	-11.3409
亦未有	-11.3411
何以異於	-11.3413
風氣	-11.3416
包氏	-11.3417
温厚	-11.3418
而人自	-11.3421
竊位	-11.3424
遇事	-11.3426
做事	-11.3428
不萌	-11.3428
又不可不	-11.3431
舉錯	-11.3433
復其性	-11.3433
能保	-11.3436
限量	-11.3437
不在此	-11.3437
斥之	-11.3438
稷下	-11.3439
水土	-11.3441
却不是	-11.3445
仁在其中矣	-11.3446
假之	-11.3449
所該	-11.345
子張曰	-11.345
或未	-11.3451
前所謂	-11.3451
先師	-11.3452
子貢之言	-11.3458
顔淵死	-11.3458
辨别	-11.3461
讀論語	-11.3463
幽王	-11.3463
指㸃	-11.3466
不恥	-11.3466
先王之制	-11.3466
吾夫子	-11.3468
感應	-11.3473
有不盡	-11.3473
其所得	-11.3476
有自然之	-11.3478
孟子之學	-11.3481
具此	-11.3486
保赤子	-11.349
無所歸	-11.3492
九分	-11.3493
不諫	-11.3498
不淫	-11.35
體段	-11.3501
性本	-11.3501
祖宗	-11.3504
窮究	-11.3508
畿	-11.3512
歸重	-11.3513
愈逺	-11.3518
當初	-11.3519
無偽	-11.3519
妻妾	-11.3523
閾	-11.3525
木為	-11.3527
爻	-11.3529
雲峯	-11.353
先難後獲	-11.3531
如其仁	-11.3532
實見得	-11.3532
意誠心正	-11.3533
其所好	-11.3533
擁	-11.3533
行夏之時	-11.3534
瓦	-11.3534
錘	-11.3535
荷蓧	-11.3536
鳶魚	-11.3536
齊桓晉文	-11.3536
著書	-11.3537
矣尹曰	-11.3537
綱紀	-11.3537
抄	-11.3537
参	-11.3538
桃	-11.3538
默	-11.3538
瀾	-11.3538
棗	-11.3539
愚嘗	-11.3539
無懼	-11.3539
顛沛	-11.354
埋	-11.354
麻冕	-11.354
𥘉	-11.354
該得	-11.354
買	-11.3541
覿	-11.3541
彞	-11.3541
具衆理	-11.3541
簣	-11.3542
勞而不怨	-11.3542
隂陽五行	-11.3543
當然之理	-11.3543
搜	-11.3543
學而時習之	-11.3543
袁了凡曰	-11.3544
不得志	-11.3544
無意於	-11.3544
勾	-11.3545
語孟	-11.3545
任重	-11.3545
弈	-11.3546
東郭	-11.3546
竦	-11.3546
暴慢	-11.3548
易簀	-11.3548
穎	-11.3548
應萬事	-11.355
絺綌	-11.3552
動以天	-11.3552
惺惺	-11.3553
小過	-11.3553
無隠	-11.3553
果敢	-11.3559
貫徹	-11.3562
民散	-11.3562
虞仲	-11.3563
瓠	-11.3566
稽首	-11.3568
所制	-11.3569
中自有	-11.357
亦此意也	-11.3572
那箇	-11.3572
「	-11.3572
篤於	-11.3574
不眀	-11.3575
乍見	-11.3576
而殺之	-11.3576
金聲	-11.3579
三寸	-11.3582
生平	-11.3583
晁氏	-11.3585
小體	-11.3588
這一箇	-11.3596
韶樂	-11.3596
少儀	-11.3604
强恕	-11.3605
不愧	-11.3606
安得有	-11.3611
一寸	-11.3611
去惡	-11.3611
夫子之所	-11.3615
安社稷	-11.3622
之意盖	-11.3624
禮制	-11.3625
治國家	-11.3626
如不得已	-11.3626
戒人	-11.3626
冕服	-11.3626
具於心	-11.3629
不易得	-11.3636
周禮司	-11.3636
天地之化	-11.3637
康誥曰	-11.3642
順親	-11.3645
言之則曰	-11.3657
太山	-11.3658
不可解	-11.3664
如舜之	-11.3665
教誨之	-11.3669
感人	-11.367
子聞之曰	-11.3671
而不失其	-11.3672
様子	-11.3672
無所不知	-11.3678
其妻	-11.3679
引書	-11.3685
孰謂	-11.3687
點	-11.369
掘	-11.3691
遯世不見知而不悔	-11.3692
學知利行	-11.3693
致知在格物	-11.3693
忒	-11.3693
蓼	-11.3694
飢餓	-11.3694
潜室陳氏曰	-11.3695
遑	-11.3695
非所以為	-11.3696
昜	-11.3697
拈	-11.3697
蔑	-11.3697
倨	-11.3697
盡人之性	-11.3697
乖戾	-11.3698
浮海	-11.3698
寮	-11.3698
孫臏	-11.3698
㡬希	-11.3699
冊	-11.37
迨	-11.37
㪯	-11.37
纎毫	-11.3701
穆穆	-11.3701
大徳之敦化	-11.3701
𨽻	-11.3701
訖	-11.3702
本性	-11.3702
觀過	-11.3702
屠	-11.3703
濮	-11.3704
梓	-11.3704
潤澤	-11.3704
父不得而子	-11.3704
麑	-11.3705
槁	-11.3705
吾道一以貫之	-11.3705
江河	-11.3706
動心忍性	-11.3706
犯而不校	-11.3706
嚭	-11.3706
為令尹	-11.3707
棣	-11.3707
商賈	-11.3709
行其所無事	-11.3709
拈出	-11.3712
方員	-11.3713
獨稱	-11.3713
以此推之	-11.3715
恩惠	-11.3716
樂師	-11.3717
永終	-11.3717
容貎	-11.3717
役於	-11.3718
而無以	-11.372
有益於	-11.3727
此一章書是孟子	-11.3729
蘓氏	-11.3732
趨向	-11.3735
學者於此	-11.3736
民鮮能	-11.3737
郊社	-11.3742
者鮮矣	-11.3743
雖殊	-11.3744
所能為	-11.3746
仁義之實	-11.3747
星辰	-11.3749
莫之能	-11.3749
害仁	-11.3752
鬼神之徳	-11.3753
諸說	-11.3755
長府	-11.3759
今天下	-11.3764
思所以	-11.3765
所尚	-11.3767
實有是	-11.3767
伯氏	-11.3771
時雨	-11.3772
一代	-11.3772
少師	-11.3774
管仲之功	-11.3777
取譬	-11.3778
歸宿	-11.378
不潔	-11.3785
潔身	-11.3791
以盡其	-11.3793
本分	-11.3794
兩段	-11.3794
立社	-11.3797
茍且	-11.3797
其所知	-11.3799
心之所同然	-11.3802
又不可以	-11.3803
古今之	-11.3803
豈復有	-11.3806
神化	-11.3807
不循	-11.3807
萬一	-11.3808
此等處	-11.3809
何也朱子曰	-11.3812
利物	-11.3812
南陽	-11.3812
有心於	-11.3816
也是則	-11.3816
無所疑	-11.3817
加損	-11.3818
其門人	-11.3819
冉有曰	-11.382
流出	-11.3826
好德	-11.3827
曲直	-11.3828
相形	-11.3835
以養其	-11.3841
達德	-11.3841
知之至	-11.3848
細玩	-11.3851
為仁由己	-11.3856
又復	-11.3857
勝殘去殺	-11.3857
至大至剛	-11.3857
沂	-11.3859
姒	-11.3859
悌	-11.3859
禮樂刑政	-11.3859
渾然天理	-11.386
大車	-11.386
坦蕩蕩	-11.3861
温故知新	-11.3861
裂	-11.3861
疫	-11.3861
煖	-11.3862
令尹子文	-11.3862
錯綜	-11.3863
呌	-11.3863
寝	-11.3863
蘖	-11.3863
凂	-11.3863
歇	-11.3863
子臣弟友	-11.3864
孩提	-11.3865
以道為	-11.3865
諸父	-11.3865
八月	-11.3865
塲	-11.3865
柏	-11.3865
心不在焉	-11.3866
公子荆	-11.3866
肇	-11.3866
寤	-11.3866
耳目口鼻	-11.3866
主一無適	-11.3867
董仲舒	-11.3868
悱	-11.3868
欠闕	-11.3869
聽言	-11.3869
莩	-11.387
世禄	-11.387
狃	-11.387
封疆	-11.3871
為仁之本	-11.3871
邀	-11.3874
八寸	-11.3875
喙	-11.3876
學記	-11.3879
。」13.	-11.3881
無二致	-11.3882
佩玉	-11.3884
國治	-11.3886
三達徳	-11.3888
吾友	-11.3889
期月	-11.3895
情狀	-11.3896
明乎善	-11.3896
體貼	-11.3899
下手處	-11.39
正義曰此章明	-11.3902
五者之	-11.3902
伯禽	-11.3902
恥辱	-11.3914
不恤	-11.3916
敬恕	-11.3918
歴山	-11.3919
孔氏曰	-11.3919
容色	-11.392
骨子	-11.392
自以為是	-11.3923
不入於	-11.3926
前段	-11.3932
行於天下	-11.3933
尚志	-11.3936
哉故曰	-11.3938
豈肯	-11.3942
尊敬	-11.3943
恒産	-11.3947
恒心	-11.3949
象山	-11.395
在是矣	-11.3952
先生曰此	-11.3954
等差	-11.3957
正朔	-11.396
何嘗有	-11.3961
用世	-11.3966
拜受	-11.3969
之云者	-11.397
學問之道	-11.3977
兼舉	-11.3984
淹	-11.3985
伊川程子	-11.3987
四寸	-11.3989
各具	-11.399
三揖	-11.399
有人焉	-11.3995
少異	-11.3996
直以為	-11.4001
知其必	-11.4002
直解	-11.4004
主意	-11.4006
城在	-11.4008
豈待	-11.4009
棠	-11.4011
自言其	-11.4012
固未嘗	-11.4015
衞君	-11.4017
致逺	-11.4018
二帝三王	-11.4021
晉國	-11.4022
心誠求之	-11.4023
無為而治	-11.4024
齊側皆反	-11.4024
效死	-11.4024
炳	-11.4024
制民之産	-11.4025
㐮	-11.4027
恍惚	-11.4027
勿正	-11.4027
戎狄	-11.4028
蕢	-11.4028
盡人物之性	-11.4028
讀法	-11.4028
詖淫邪遁	-11.4029
貸	-11.4029
喫	-11.403
奔走	-11.403
引而不發	-11.4031
匏	-11.4031
不由其道	-11.4031
四馬	-11.4031
狩	-11.4032
為政以徳	-11.4032
小徳之川流	-11.4032
莫不皆然	-11.4032
掲	-11.4032
緇布冠	-11.4033
昆夷	-11.4033
生熟	-11.4033
巨	-11.4033
需	-11.4033
以人治人	-11.4033
刼	-11.4033
脱然	-11.4033
頽	-11.4034
衣錦尚絅	-11.4035
頴	-11.4036
畱	-11.4036
彀	-11.4036
核	-11.4037
眞氏曰	-11.4038
舅	-11.4039
古書	-11.404
隨物	-11.4041
覲	-11.4042
江漢	-11.4042
漸次	-11.4043
晉文	-11.4044
唯恐	-11.4045
其誰	-11.4046
者其惟	-11.4046
百世之師	-11.4046
義外	-11.4047
中霤	-11.4047
瞷	-11.4048
取諸人	-11.4051
盛徳之至	-11.4052
推類	-11.4055
之文也	-11.4055
無所施	-11.4055
底意	-11.4056
月朔	-11.4058
此孔子所以	-11.406
毗	-11.406
堯典	-11.4061
這事	-11.4063
不奪	-11.4064
仁不仁	-11.4064
進道	-11.4066
於道路	-11.4068
不自知	-11.4069
可得聞	-11.4072
纔説	-11.4073
其全體	-11.4077
將軍	-11.4078
精宻	-11.408
人亦不	-11.4082
賔師	-11.4092
終條理	-11.4092
性之本	-11.4101
率爾	-11.4103
講習	-11.4104
仁愛	-11.4105
了這	-11.4105
常法	-11.4106
何傷	-11.4109
不滿	-11.4111
謂之和	-11.412
名譽	-11.4121
不慊	-11.4121
而射之	-11.4124
士庶人	-11.4124
視其所以	-11.4126
尭	-11.4126
諸夏	-11.4129
二尺	-11.4138
第二章	-11.4138
既葬	-11.4148
豈不能	-11.415
裁制	-11.4152
弗如	-11.4153
一味	-11.4153
本紀	-11.4156
惜哉	-11.4157
賢愚	-11.4157
開導	-11.416
極致	-11.4162
豈敢	-11.4164
所自來	-11.4165
天運	-11.4165
進於道	-11.4167
孔子聞	-11.4167
自致	-11.4173
私田	-11.4174
使之知	-11.4175
後段	-11.4176
胸	-11.4176
防其	-11.4178
人子之	-11.4179
堯之子	-11.418
付之	-11.4182
曰非也	-11.4186
五十而知天命	-11.4188
所以警	-11.4188
温而厲	-11.419
一路	-11.419
人而人	-11.419
若合符節	-11.4191
困知勉行	-11.4193
冶	-11.4194
㮣	-11.4194
日夜	-11.4194
㪚	-11.4194
要做	-11.4195
魚鼈	-11.4195
廵	-11.4196
哀公問政	-11.4196
賢於堯舜	-11.4197
垣	-11.4198
明善誠身	-11.4198
胄	-11.4198
焉用佞	-11.4198
荆蠻	-11.4199
貿	-11.4199
絹	-11.4199
弑父與君	-11.4199
長沮桀溺	-11.4199
性道教	-11.4199
此一節書是	-11.42
晏嬰	-11.42
燧	-11.4201
總纂官	-11.4201
菽	-11.4201
月恭校上	-11.4201
舉而措之	-11.4202
蒐	-11.4202
宋牼	-11.4202
忠恕違道不逺	-11.4202
顔閔	-11.4203
疇	-11.4204
銳	-11.4204
欲居九夷	-11.4205
撮	-11.4205
名物	-11.4206
二十七章	-11.4206
方伯	-11.4207
冷	-11.4208
響	-11.4209
末流	-11.4209
輈	-11.4209
中庸一書	-11.4211
丞	-11.4215
已具	-11.4215
鄭氏曰	-11.4215
話頭	-11.4215
柰何	-11.4215
明其明徳	-11.4217
補傳	-11.4218
之善者	-11.4219
良能	-11.4221
又其次	-11.4224
此誠	-11.4226
不足徴	-11.4226
引之以	-11.4228
勝負	-11.4228
仁讓	-11.4229
主於敬	-11.423
二十四章	-11.4234
又自有	-11.4239
也故謂之	-11.424
可稱	-11.4246
卿大夫士	-11.4247
子貢問曰	-11.4249
扶持	-11.4249
出辭氣	-11.4256
自不能已	-11.4258
首句	-11.4259
而達之	-11.4259
脩德	-11.4261
亦不為	-11.4262
致命	-11.4264
者也云	-11.4264
孝公	-11.4264
講義	-11.4271
氣習	-11.4273
而不與	-11.4273
已止也	-11.4276
事兄	-11.4283
理之常	-11.4288
盡心下	-11.4291
得其人	-11.4292
運行	-11.4296
可伐	-11.4296
盡精微	-11.4304
百物	-11.4309
春秋傳曰	-11.431
綱目	-11.4312
文獻	-11.4312
篇名	-11.4315
歸于	-11.4317
多端	-11.4318
看来	-11.4318
致力	-11.4321
純一	-11.4326
流通	-11.4326
無一不	-11.4328
朱子嘗	-11.4331
受禄	-11.4333
己身	-11.4333
四勿	-11.4339
説箇	-11.4339
知味	-11.4341
求備	-11.4342
心之發	-11.4342
四海之内	-11.4343
餘如	-11.4344
無所據	-11.4347
六百	-11.4347
此心常	-11.4355
序昭穆	-11.436
大音泰	-11.4364
簞食豆羮	-11.4365
晨	-11.4366
荼	-11.4366
必有事焉而勿正	-11.4367
狗	-11.4367
按翼註	-11.4367
芻豢	-11.4368
吞	-11.4368
孜孜	-11.4369
分而言之	-11.4369
由仁義行	-11.4369
發育萬物	-11.437
悴	-11.4371
顙	-11.4371
彬彬	-11.4371
公明賈	-11.4372
霍	-11.4373
圜	-11.4373
孫士毅總校官	-11.4374
獲上	-11.4374
膝	-11.4374
徐自溟曰	-11.4374
遥	-11.4374
二十五章	-11.4375
祼	-11.4375
飭	-11.4375
軀	-11.4377
漿	-11.4378
孟仲子	-11.4379
肺	-11.4379
廋	-11.438
獺	-11.438
人皆有不忍人之心	-11.438
矙	-11.438
矣雖然	-11.438
盤銘	-11.4381
衆善	-11.4382
日月星辰	-11.4382
懸絶	-11.4383
㝢	-11.4383
丁寧	-11.4384
吾見	-11.4384
滕薛	-11.4385
持其志	-11.4385
灑	-11.4386
潦	-11.4386
忠告	-11.4387
通釋	-11.4387
健順	-11.4389
委積	-11.439
仲虺	-11.439
二十八年	-11.4392
皷	-11.4392
其本體	-11.4396
在陋巷	-11.4397
使衆	-11.4397
承上章而言	-11.4397
有間矣	-11.44
勞民	-11.4402
徃徃	-11.4408
發憤	-11.4414
不與焉	-11.4415
殷周	-11.4417
注王曰	-11.4418
徃見	-11.4419
春秋書	-11.442
幾何	-11.4421
附益	-11.4422
君子所性	-11.4423
聞韶	-11.4423
尤重	-11.4423
程子曰此	-11.4424
餓死	-11.4424
三徳	-11.4428
財利	-11.4428
文王武王	-11.4433
窮理盡性	-11.4433
自誠明	-11.4436
樂堯舜之道	-11.4439
得許多	-11.4443
求飽	-11.4443
自反而	-11.4444
孟子所言	-11.4444
芟三條	-11.4451
躍如	-11.4464
焉則亦	-11.4466
親疎	-11.4471
典禮	-11.4472
所從來	-11.4473
寛廣	-11.4474
往拜	-11.4474
管子	-11.4474
所言者	-11.448
小惠	-11.4484
情實	-11.4488
精明	-11.4495
異耳	-11.4497
有多少	-11.4498
張子所謂	-11.4499
都要	-11.4504
兩項	-11.4505
亦在其中矣	-11.4508
同體	-11.451
何暇	-11.451
殺身	-11.4512
愛君	-11.4513
者言其	-11.4516
林氏	-11.4523
孟子之所	-11.4524
也云子曰云云者	-11.4526
單言	-11.4527
至善之所在	-11.4527
二十一章	-11.4534
世室	-11.4536
舞雩	-11.4538
眞知	-11.4538
何如哉	-11.4539
第九	-11.4539
芸	-11.454
相背	-11.454
𤓰	-11.4542
馭	-11.4543
溥博淵泉	-11.4543
其言也訒	-11.4543
腐	-11.4543
䛕	-11.4543
自强不息	-11.4544
朞	-11.4544
著實	-11.4544
黻冕	-11.4544
爵弁	-11.4545
請事斯語	-11.4545
鄹	-11.4545
夔	-11.4546
三年之䘮	-11.4546
遞	-11.4547
脉絡	-11.4547
遡	-11.4547
獨善其身	-11.4547
莫大乎	-11.4548
日知其所亡	-11.4548
王觀濤曰	-11.4548
萬方	-11.4549
疊	-11.4549
周霄	-11.4549
過化存神	-11.4549
宼	-11.4549
賢賢易色	-11.4549
枲	-11.4549
鋪	-11.455
壬申	-11.455
宦	-11.455
亘	-11.4551
初未嘗	-11.4551
琅邪	-11.4552
纎悉	-11.4552
𤣥端	-11.4553
暖	-11.4553
萌芽	-11.4553
轅	-11.4554
孟獻子	-11.4554
忿戾	-11.4554
翳	-11.4554
涓	-11.4555
悻悻	-11.4555
歠	-11.4555
休息	-11.4557
屛	-11.4558
大戴禮	-11.4558
弘毅	-11.4559
折枝	-11.4559
德之賊	-11.4561
教不倦	-11.4561
禾	-11.4561
人之大倫	-11.4562
而民不	-11.4564
猶可以	-11.4565
瓢	-11.4566
賢智	-11.4568
性之本善	-11.4569
參天地	-11.4569
求諸己	-11.4571
?』	-11.4573
朋來	-11.4574
横流	-11.4575
弗措	-11.4577
西方	-11.458
件事	-11.4582
卷六	-11.4582
迫切	-11.4583
十九章	-11.4584
亦安得	-11.4588
孔子作春秋	-11.4589
未能盡	-11.4591
能知能行	-11.4596
詳審	-11.4597
布衣	-11.4599
容儀	-11.4602
張音	-11.4602
説文云	-11.4604
集註引	-11.4604
伐楚	-11.4605
怨尤	-11.4606
法堯舜	-11.4606
引起	-11.461
詳盡	-11.4611
治天下國家	-11.4612
自畫	-11.4613
志仁	-11.4614
末條	-11.4614
而不敬	-11.4616
千二百	-11.4617
於此見	-11.462
尭舜	-11.4621
三條	-11.4625
朝諸侯	-11.4628
大學傳	-11.463
亞聖	-11.463
信友	-11.4631
推之以	-11.4632
性之所	-11.4634
可殺	-11.4634
有害於	-11.4639
遜國	-11.4641
無是理	-11.4643
正心修身	-11.4648
做到	-11.4651
一藝	-11.4651
十萬	-11.4652
是非之心	-11.4653
所寓	-11.4655
次國	-11.4656
賽合註	-11.4657
後来	-11.4659
五帝	-11.4667
可以為善	-11.467
臣事君	-11.467
天地鬼神	-11.4673
諸侯之國	-11.4676
辭遜	-11.4678
妄意	-11.4685
千萬人	-11.4686
亦不妨	-11.4693
十七章	-11.4695
存於中	-11.4697
舜之所以	-11.4697
思慕	-11.47
寢衣	-11.4701
善端	-11.4706
鲁	-11.4711
純一無偽	-11.4713
害己	-11.4713
棘子成	-11.4716
臧武仲	-11.4716
不莊	-11.4717
平易	-11.4717
未始不	-11.4718
兼備	-11.4719
未仕	-11.4721
朝聘	-11.4723
驩虞	-11.4723
愽	-11.4724
棺椁	-11.4724
北宫黝	-11.4724
用權	-11.4724
竭盡	-11.4724
松栢	-11.4725
翦商	-11.4725
乳	-11.4725
趙簡子	-11.4726
侃	-11.4727
握	-11.4727
汲	-11.4727
孟武伯	-11.4728
明季講家	-11.4728
妖	-11.4728
煦	-11.4728
浼	-11.4728
逺暴慢	-11.4728
顏淵	-11.4729
鎬	-11.4729
欽定四庫全書經部八	-11.473
腸	-11.473
血脉	-11.473
架	-11.4731
等謹案	-11.4731
矣若夫	-11.4731
心之所發	-11.4733
不覺其	-11.4733
孔疏	-11.4734
鬲	-11.4736
剥	-11.4736
費而隠	-11.4737
消息	-11.4739
知恥	-11.4741
富國	-11.4742
而不可易者	-11.4743
軍旅之事	-11.4743
以理言之則	-11.4743
前漢	-11.4744
無所成名	-11.4744
周頌	-11.4747
二十六年	-11.4749
體仁	-11.4749
這箇道理	-11.4752
散殊	-11.4752
爲貴	-11.4754
柔弱	-11.4754
不貳過	-11.4755
窮通	-11.4756
多怨	-11.4758
綱常	-11.476
兩様	-11.4761
張儀	-11.4761
病在	-11.4763
上下之分	-11.4763
各盡其道	-11.4764
二十五年	-11.4765
淫亂	-11.477
加諸	-11.4771
語録問	-11.4774
楚國	-11.4776
古制	-11.4779
先飯	-11.4783
師文王	-11.4785
衍義	-11.4786
至於仁	-11.4786
救時	-11.4793
儲	-11.48
二十九	-11.4801
設使	-11.4807
不止是	-11.4808
魯哀公	-11.4809
無得而	-11.4811
仁義禮智信	-11.4814
此正是	-11.4814
權謀	-11.4814
而不變	-11.4822
謀道	-11.4825
底物事	-11.4826
四分	-11.4827
深厚	-11.4831
監本	-11.4832
仁之端	-11.4835
非聖人不能	-11.4837
聞善	-11.4842
者皆是	-11.4843
告君	-11.4847
平地	-11.4849
召孔子	-11.4849
的工夫	-11.4852
今按	-11.4856
居位	-11.4861
學習	-11.4862
苟免	-11.4867
恰好處	-11.4872
違仁	-11.4873
並進	-11.4873
講論	-11.4874
註疏	-11.4877
問於子貢	-11.4883
才智	-11.4898
一言以蔽之	-11.4899
承當	-11.4901
其言則	-11.4901
灑掃應對	-11.4901
不可亂	-11.4902
把栁	-11.4902
修身以俟	-11.4902
無穿窬之心	-11.4903
下學而上達	-11.4904
不怨不尤	-11.4904
盎	-11.4905
巨細	-11.4905
侔	-11.4906
自誠而明	-11.4906
墟	-11.4906
驪	-11.4906
狭	-11.4907
何難之有	-11.4907
之有哉	-11.4908
節釋曰	-11.4908
沐	-11.4908
輯講	-11.4909
邁	-11.4909
駭	-11.4909
沾	-11.4909
盼	-11.491
褊	-11.4911
阡陌	-11.4911
佗	-11.4912
器用	-11.4912
季札	-11.4912
后妃	-11.4913
要見得	-11.4913
中流出	-11.4914
蔚	-11.4914
吟	-11.4914
離散	-11.4914
閲	-11.4914
未形	-11.4915
岑	-11.4915
笏	-11.4915
徹上徹下	-11.4916
宗廟朝廷	-11.4916
灰	-11.4917
執政	-11.4917
入公門	-11.4918
檮杌	-11.4918
表裏如一	-11.4918
賂	-11.492
郭璞	-11.492
細宻	-11.4923
衮冕	-11.4925
爼	-11.4925
四書集義精要	-11.4925
之所以然	-11.4927
石經	-11.4927
三件	-11.4928
皆在其中	-11.4929
學者宜	-11.493
潤身	-11.493
所求乎	-11.493
黄鍾	-11.4932
夕死	-11.4934
節吳因之曰	-11.4934
性情之正	-11.4936
門户	-11.4936
性命之理	-11.4937
箋云	-11.4939
可惜	-11.4943
擔當	-11.4946
十五章	-11.4951
龍斷	-11.4951
廟門	-11.4952
不啻	-11.4953
昭明	-11.4954
卑近	-11.4957
子羽	-11.4958
相繼	-11.4961
程張	-11.4961
喪邦	-11.4963
稱名	-11.4966
西階	-11.4968
使人知	-11.4968
闕疑	-11.497
亦不可以	-11.4974
所致	-11.4974
睹聞	-11.4977
梁王	-11.4977
所係	-11.4983
兼該	-11.4986
幾微	-11.4991
惕然	-11.4992
無如之何	-11.4992
請益	-11.4993
亂賊	-11.4994
心之本體	-11.5006
粹然	-11.501
百里之國	-11.5015
大全辨	-11.5018
出仕	-11.5021
幽明	-11.5022
其氣質	-11.5024
層	-11.5025
卷五	-11.5029
自負	-11.5033
勉焉	-11.5038
父子君臣	-11.5038
伐桀	-11.5039
二者之間	-11.5042
講求	-11.5042
信果	-11.5046
詩亡	-11.5051
只見得	-11.5052
疏食	-11.5056
漸進	-11.506
王畿	-11.5067
七百	-11.507
衣去聲	-11.5071
諸侯大夫	-11.5072
以道言	-11.5072
在邦	-11.5074
憂樂	-11.5081
巡狩	-11.5082
天之所以為天	-11.5083
做起	-11.5083
等殺	-11.5083
大夫大夫	-11.5083
繭	-11.5084
畎畝之中	-11.5086
恠	-11.5087
仁體	-11.5088
音潮	-11.5088
實未嘗	-11.5089
肫肫	-11.5089
渴	-11.5089
公冶	-11.5089
所以行之者一也	-11.509
從心所欲不踰矩	-11.5091
誠之不可揜	-11.5091
拓	-11.5091
磷	-11.5091
性即理也	-11.5091
窒礙	-11.5091
好貨好色	-11.5091
絰	-11.5092
嫉	-11.5092
潤色	-11.5094
到極處	-11.5094
戒愼恐懼	-11.5095
陸錫熊	-11.5095
郷原	-11.5096
瑣	-11.5096
庻幾	-11.5096
至誠惻怛	-11.5096
檢㸃	-11.5097
件件	-11.5097
射不主皮	-11.5097
委吏	-11.5098
冢	-11.5098
再拜稽首	-11.5098
貢助	-11.5099
集大成	-11.5099
㴱	-11.5099
滕國	-11.5099
不可小知	-11.5099
眉	-11.5099
愧怍	-11.5101
煥	-11.5101
蕭牆	-11.5102
誠者自成	-11.5102
何所不至	-11.5103
賁	-11.5105
細密	-11.5107
泗	-11.5108
藝文志	-11.5109
一介不	-11.5109
臘	-11.5109
不足觀	-11.511
非敢	-11.5112
所冝	-11.5112
』	-11.5113
眼前	-11.5114
七百里	-11.5116
先有司	-11.5117
不思不勉	-11.5123
曰諸説如何曰	-11.5124
心不正	-11.5125
無以異	-11.5126
為人師	-11.5127
存其心	-11.5128
厯數	-11.5129
十八年	-11.5129
杜氏	-11.513
時中之中	-11.513
殽	-11.513
武周	-11.5131
到這裏	-11.5131
放肆	-11.5132
得其情	-11.5132
古之聖人	-11.5132
仁術	-11.5133
邵子	-11.5135
不必如此	-11.5135
陳代	-11.5141
未必盡	-11.5144
不得其所	-11.5152
得其宜	-11.5153
父母之心	-11.5154
圈内	-11.5157
三近	-11.5159
不怍	-11.5161
修其身	-11.5162
無時不然	-11.5162
可驗	-11.5165
指示	-11.5166
結語	-11.5168
得所止	-11.5176
敬畏	-11.5179
端緒	-11.5179
六寸	-11.5184
所當知	-11.5188
奔魯	-11.5191
串	-11.5194
不給	-11.5194
子貢之問	-11.5194
之性也	-11.5201
所未發	-11.5204
因物	-11.5207
小補	-11.5207
其所長	-11.5208
人所不能	-11.5212
下流	-11.5216
豈止	-11.5219
不校	-11.5236
有志於	-11.5245
泰然	-11.525
謝楊	-11.5251
倫理	-11.5253
弗思	-11.5254
須著	-11.5254
天之生物	-11.5255
畏大人	-11.5259
可移	-11.526
西漢	-11.5266
三十三	-11.5268
體物而不可遺	-11.5269
鉏	-11.5269
其旨	-11.5271
成都范氏	-11.5272
無限	-11.5272
梓匠輪輿	-11.5274
賑	-11.5274
栽	-11.5274
皎	-11.5276
説音悦	-11.5276
醴	-11.5276
臧孫	-11.5277
王子比干	-11.5277
刑戮	-11.5278
武庚	-11.5279
派	-11.5279
矛盾	-11.5279
簞瓢陋巷	-11.5279
鹵	-11.528
洙泗	-11.528
衾	-11.528
孺子入井	-11.5281
糊	-11.5281
詎	-11.5282
賈誼	-11.5282
不遷怒	-11.5282
森	-11.5282
盥	-11.5283
包咸	-11.5283
栖栖	-11.5284
犬羊	-11.5284
三王之罪人	-11.5284
廵狩	-11.5284
淆	-11.5284
天地之化育	-11.5285
束帛	-11.5285
鄉愿	-11.5285
製	-11.5285
附蒙引曰	-11.5285
見善如不及	-11.5286
過猶不及	-11.5286
理無大小	-11.5286
見賢遍反	-11.5286
涸	-11.5287
肌膚	-11.5287
懸空	-11.5288
李衷一曰	-11.5288
不誠無物	-11.5288
餙	-11.5288
狐貉	-11.5288
史記世家	-11.5288
舉一隅	-11.5289
崔杼	-11.5289
丑問	-11.529
燾	-11.5291
養勇	-11.5291
謙遜	-11.5291
陽氣	-11.5294
斿	-11.5297
衆多	-11.5303
極髙明	-11.5304
東海	-11.5305
湛然	-11.5307
不知不覺	-11.5308
憂世	-11.5308
知與行	-11.531
逆理	-11.5311
精切	-11.5312
差失	-11.5313
烝民	-11.5315
拒父	-11.5318
吾輩	-11.5319
四境	-11.5319
四凶	-11.532
告之如此	-11.5321
經權	-11.5323
為寳	-11.5324
五常之	-11.5326
心術之	-11.5329
之説如何曰	-11.5329
各盡其	-11.5331
離婁下	-11.5335
當世之	-11.5337
患失	-11.534
夫子嘗曰	-11.5342
齊梁	-11.5351
東序	-11.5355
身脩	-11.5359
天之理	-11.536
天與之	-11.5361
並同	-11.5362
致思	-11.5363
祭肉	-11.5365
可憂	-11.5366
爾雅云	-11.537
這等	-11.5371
不能以自	-11.5377
未説到	-11.5377
王業	-11.5379
専主	-11.5384
誠信	-11.5386
孟子之書	-11.5387
善養	-11.5388
費力	-11.539
無厭	-11.5394
九男	-11.5396
襲取	-11.5397
堯舜禹湯文武	-11.54
東漢	-11.5402
思勉	-11.5404
可想見	-11.5407
不止此	-11.5407
有憾	-11.5412
危亡	-11.5415
馮氏	-11.5418
親賢	-11.5423
孟子之論	-11.5437
羣聖	-11.5438
盡其在我	-11.5439
徃來	-11.5439
生而知之者	-11.5441
何也蓋	-11.5445
不悟	-11.5449
曾氏	-11.5456
分言之則	-11.5456
龍子	-11.546
為萬世	-11.546
無疑矣	-11.5463
外本内末	-11.5465
者為其	-11.5466
不在其位不謀其政	-11.5467
反求諸已	-11.5467
大禹	-11.5467
方十里	-11.5467
有始有卒	-11.5468
對待	-11.5468
先事後得	-11.5469
繪事後素	-11.5469
惓惓	-11.5469
影響	-11.547
克已復禮	-11.547
無暴其氣	-11.5471
事物當然之理	-11.5471
溥博	-11.5471
範圍	-11.5471
烏能	-11.5472
人不知而不愠	-11.5472
三十而立	-11.5472
盲	-11.5473
胖	-11.5473
徳之盛	-11.5473
筋	-11.5474
集疏曰朱子曰	-11.5474
不遷怒不貳過	-11.5474
降衷	-11.5474
造詣	-11.5474
述而不作	-11.5474
逄	-11.5474
蜀	-11.5475
易地則皆然	-11.5475
寖	-11.5476
蒲盧	-11.5476
當此之時	-11.5476
篚	-11.5476
枉尺直尋	-11.5476
盪	-11.5476
售	-11.5476
自外至	-11.5477
松柏	-11.5478
正謂此也	-11.5478
衰世	-11.5478
小徳川流	-11.5479
大徳敦化	-11.548
見小利	-11.5482
號泣	-11.5482
可與言詩	-11.5482
尉	-11.5482
滓	-11.5484
特立	-11.5485
分殊	-11.5485
莫善於	-11.5486
何也盖	-11.5487
為政於天下	-11.5488
滄浪	-11.5491
行之者一	-11.5491
成於樂	-11.5491
楣	-11.5491
英才	-11.5492
此二事	-11.5493
鄉飲酒	-11.5494
皋	-11.5495
不睹	-11.5495
夫子所言	-11.5499
感格	-11.5502
孝慈	-11.5507
學者所宜	-11.5507
可離	-11.5509
報怨	-11.5515
節奏	-11.5516
不可一日	-11.5523
秦漢	-11.5523
流弊	-11.5525
以我為	-11.5535
慨然	-11.5537
徹法	-11.5542
班固	-11.5546
一日之間	-11.5547
大叚	-11.5549
此君子所以	-11.5549
總註	-11.5558
北山	-11.556
何也孟子曰	-11.5567
恵王	-11.5567
憂民	-11.5577
只一般	-11.5578
沒世	-11.558
注孟子言	-11.5581
無以異於	-11.5584
巍巍乎	-11.5585
覺悟	-11.5588
可以仕	-11.5588
魯衛	-11.5589
内朝	-11.5591
范氏之説	-11.5592
揮	-11.5606
也子思曰	-11.5609
語錄曰問	-11.5609
用力於仁	-11.5609
未曽	-11.561
一番	-11.562
具臣	-11.5623
易位	-11.5624
其所存	-11.5631
虞書	-11.5635
哀公十一年	-11.5643
己所不欲勿施於人	-11.5645
相發明	-11.5649
心之所存	-11.5649
趙孟	-11.5651
最切	-11.5653
相濟	-11.5653
甚嚴	-11.5655
騖	-11.5657
仁之本	-11.5659
渭	-11.5659
相貫	-11.5661
贊化育	-11.5662
炊	-11.5664
焉於虔反	-11.5665
仁敬孝慈信	-11.5666
静時	-11.5667
悠悠	-11.5667
二十七	-11.5667
雙	-11.5667
諮	-11.5668
子畏於匡	-11.5668
羲	-11.5668
司城貞子	-11.5668
寃	-11.5668
喚	-11.5668
父兄百官	-11.567
鈎	-11.567
遼	-11.567
諸矦	-11.567
放勲	-11.5671
寕	-11.5671
公山弗擾	-11.5672
鮀	-11.5672
懵	-11.5672
滋味	-11.5673
夫子之道忠恕而已矣	-11.5674
資之深	-11.5674
撃	-11.5674
䨇峯饒氏曰	-11.5676
誠者物之終始	-11.5676
把捉	-11.5677
喫緊	-11.5678
出門使民	-11.5679
不相悖	-11.568
宮室	-11.5682
人心道心	-11.5683
頤	-11.5683
桀溺	-11.5683
四十五十	-11.5686
不竭	-11.5691
麋	-11.5692
子騫	-11.5692
甚於水火	-11.5693
可以語上	-11.5694
班爵	-11.57
無大小	-11.5703
宰我子貢	-11.5707
天理之當然	-11.571
近裏	-11.5711
雉門	-11.5711
衞大夫	-11.5713
滕更	-11.5716
東面	-11.5719
洋洋乎	-11.5725
分寸	-11.5725
音預	-11.5726
直截	-11.5726
章㫖	-11.5729
㣲生	-11.5731
是要人	-11.5736
大司徒	-11.5737
任賢	-11.574
鄭大夫	-11.5742
走作	-11.5743
世家云	-11.575
數月	-11.5756
第二條	-11.5759
不足以盡	-11.5768
教養	-11.5769
講家	-11.5772
有所不通	-11.5772
交互	-11.5773
設教	-11.5778
寓於	-11.5779
此叚	-11.5781
不謂命	-11.5782
知之明	-11.5789
數十	-11.5799
做工夫處	-11.5801
甘心	-11.5802
邦君	-11.5806
子思之言	-11.5814
生之理	-11.5814
得罪於父	-11.582
擯相	-11.5824
豈可謂	-11.5838
也必矣	-11.5842
初年	-11.5843
禄在其中	-11.5846
得一分	-11.5852
升車	-11.5854
各自有	-11.5855
慈愛	-11.5855
鄰里鄉黨	-11.5857
餘力	-11.5857
年少	-11.5858
察其所安	-11.5859
結上	-11.5859
凉	-11.5861
杵	-11.5861
百世以俟聖人而不惑	-11.5862
天淵	-11.5862
一事而言	-11.5863
親親而仁民仁民而愛物	-11.5864
行法以俟命	-11.5865
渇	-11.5865
博我以文約我以禮	-11.5865
祚	-11.5865
騁	-11.5866
榦	-11.5866
聨	-11.5867
凟	-11.5867
有父兄在	-11.5867
貞而不諒	-11.5868
擇善固執	-11.5868
使於四方	-11.5868
休戚	-11.5869
是何言也	-11.5869
發而中節	-11.5869
霤	-11.5869
僑	-11.5869
鋒	-11.5869
剪	-11.587
距楊墨	-11.587
景春	-11.587
揉	-11.587
形諸外	-11.587
繩墨	-11.587
冐	-11.5871
穿踰	-11.5871
微之顯	-11.5872
博奕	-11.5872
服膺	-11.5872
骨肉	-11.5873
敖惰	-11.5873
眇	-11.5873
毫釐之差	-11.5874
嬖奚	-11.5874
紅	-11.5875
瞭	-11.5876
斬衰	-11.5876
酢	-11.5877
求則得之	-11.5877
涅	-11.5877
倒置	-11.5879
葵	-11.5879
孫奭	-11.588
文武之政	-11.588
之外别有	-11.5881
舎上聲	-11.5882
琴張	-11.5882
微妙	-11.5885
古字通用	-11.5887
執鞭	-11.5888
勞苦	-11.5888
不悔	-11.5889
譌	-11.5889
輻	-11.589
二尺二寸	-11.5891
曷為	-11.5891
勾踐	-11.5891
毁傷	-11.5893
太拘	-11.5898
致察	-11.5899
告子路	-11.5901
合而觀之	-11.5901
堯舜氣象	-11.5902
終身行之	-11.5904
達之天下	-11.5905
譛	-11.5905
反而求之	-11.5906
以發其	-11.5907
係乎	-11.5908
求仁之方	-11.5916
序爵	-11.592
敎誨	-11.5921
親踈	-11.5924
堅定	-11.5925
恐未然	-11.5927
上蔡謝氏	-11.5928
於吾身	-11.593
何忌	-11.5931
僅可	-11.5933
符節	-11.5935
求諸心	-11.5941
堅固	-11.5946
五采	-11.5948
經歴	-11.5949
丗子	-11.5952
芟四條减	-11.5955
君子不器	-11.596
身上説	-11.5961
小人儒	-11.5962
則可矣	-11.5972
晉楚	-11.5974
而力行之	-11.5982
謹厚	-11.5984
隣國	-11.5986
聖道之	-11.5992
風雨	-11.6009
凶年	-11.601
八士	-11.6015
警省	-11.6018
躬稼	-11.602
施諸	-11.6021
戒慎	-11.6021
接續	-11.6022
其有不	-11.6023
欺天	-11.6035
莫非天理	-11.6042
未喻	-11.6047
骸	-11.6057
絃歌	-11.6061
百乘之家	-11.6065
㤗伯	-11.6066
仕止久速	-11.6067
知覺運動	-11.6068
百乗之家	-11.6068
聞之師曰	-11.6068
杇	-11.6068
第八	-11.6069
祁	-11.6069
大中至正	-11.6069
餉	-11.607
驛	-11.6071
俊傑	-11.6071
歷	-11.6071
不屑之教誨	-11.6071
浹	-11.6071
為善去惡	-11.6071
殺身成仁	-11.6072
勇者不懼	-11.6072
斲	-11.6072
桎梏	-11.6072
睨	-11.6072
牝	-11.6073
反經合道	-11.6073
弗畔	-11.6073
躐	-11.6073
貧而無怨	-11.6073
箭	-11.6074
梃	-11.6074
泊	-11.6075
襜	-11.6075
尤難	-11.6075
聶	-11.6075
躋	-11.6076
雖欲從之末由也已	-11.6076
歐陽	-11.6076
視聴言動	-11.6076
跳	-11.6076
劄	-11.6076
非爾所及	-11.6076
舉直錯諸枉能使枉者直	-11.6076
孥	-11.6077
天何言哉	-11.6077
徽	-11.6077
粘	-11.6077
公孫丒	-11.6077
屑屑	-11.6077
七八月	-11.6077
尊君親上	-11.6078
鶩	-11.6078
迅	-11.6078
鹵莽	-11.6078
軾	-11.6079
頻	-11.608
挺	-11.6081
邢昺	-11.6081
收歛	-11.6081
墉	-11.6081
潛室陳氏曰	-11.6081
終身誦之	-11.6082
夙	-11.6083
坑	-11.6083
仁者不憂	-11.6083
正心脩身	-11.6084
包括	-11.6085
浄	-11.6085
岌	-11.6086
萬物育	-11.6087
羈	-11.6087
淇	-11.6088
宗國	-11.6089
斐	-11.6089
存養之功	-11.6091
虜	-11.6091
夏桀	-11.6094
赧王	-11.6094
脊	-11.6094
流蕩	-11.6095
湖南講曰	-11.6097
。」「	-11.6099
渾全	-11.61
!」	-11.6101
第四節	-11.6101
傳授	-11.6101
鼗	-11.6104
萬乘	-11.6105
闕黨	-11.6106
景子	-11.6106
荘公	-11.6108
憮然	-11.6108
闕里	-11.6112
存飬	-11.6112
隠㣲	-11.6113
憎惡	-11.6121
稼圃	-11.6126
東遷	-11.6126
刪詩	-11.6131
如保赤子	-11.6132
差了	-11.6134
不失其正	-11.6136
九夷	-11.614
把做	-11.6142
顔曾	-11.6143
謹守	-11.6148
坐視	-11.6152
百二十	-11.6153
學問之功	-11.6153
鄉大夫	-11.6157
失之過	-11.6174
動於中	-11.6176
條凑合	-11.6176
深省	-11.6178
推極	-11.6179
一槩	-11.618
所當得	-11.6193
之類皆是	-11.6201
理之自然	-11.621
邢	-11.6216
去上聲	-11.6219
虞舜	-11.6219
何自而	-11.6221
史官	-11.6225
無不敬	-11.6229
人所不知	-11.6229
顔子之樂	-11.624
記檀弓	-11.6241
事父兄	-11.6248
案史記	-11.6254
分配	-11.6261
二項	-11.6261
寂然	-11.6262
史氏	-11.6267
孔父	-11.627
張狀元孟子傳卷第	-11.627
切切偲偲	-11.6271
取之而燕民	-11.6271
隘與不恭	-11.6273
吾黨	-11.6275
世衰道微	-11.6276
莫之致而至	-11.6276
可欲之謂善	-11.6278
肎	-11.6279
礪	-11.6279
不忮不求	-11.6279
秘	-11.6279
豺	-11.628
禮樂射御書數	-11.628
凍餒	-11.628
人皆可以為堯舜	-11.628
全體大用	-11.628
無終食之間違仁	-11.628
不厭不倦	-11.628
自明而誠	-11.6281
戰兢	-11.6281
茹	-11.6281
好古敏求	-11.6281
月無忘其所能	-11.6281
𩔖	-11.6281
湊	-11.6281
兢兢業業	-11.6282
盆成括	-11.6282
合内外之道	-11.6282
以能問於不能	-11.6282
湖	-11.6282
以三隅反	-11.6283
睟	-11.6283
贈内閣學士陸隴其撰	-11.6283
倩	-11.6283
公伯寮	-11.6284
非禮勿視	-11.6285
豁	-11.6285
散宜生	-11.6285
胙	-11.6285
皮弁服	-11.6286
飢寒	-11.6286
臨事而懼	-11.6286
彀率	-11.6286
嫂溺	-11.6286
寐	-11.6287
弭	-11.6287
雀	-11.6287
徳輶如毛	-11.6287
篤信好學	-11.6287
伋	-11.6287
老佛之	-11.6287
盛徳至善	-11.6288
食色性也	-11.6288
遲速	-11.6288
咸丘蒙	-11.6288
傾覆	-11.6289
昆蟲	-11.6289
臆度	-11.6289
傑	-11.629
必以其道	-11.629
否朱子曰	-11.6291
帝乙	-11.6291
脛	-11.6291
仁者心之徳	-11.6292
日講四書解義	-11.6292
鸞	-11.6293
常人之情	-11.6297
三十里	-11.6299
不濟事	-11.6299
衢	-11.63
楚狂	-11.6301
深一層	-11.6301
巾	-11.6302
和而不同	-11.6302
有是物	-11.6302
九族	-11.6304
四十里	-11.6304
實用其力	-11.6304
埀	-11.6307
畢戰	-11.6307
救世	-11.6307
有二義	-11.6307
私情	-11.6309
父母之喪	-11.6311
勝平聲	-11.632
幾諫	-11.6321
困勉	-11.6331
靈公問陳	-11.6334
名不正	-11.6334
遺書	-11.6344
向背	-11.6346
繼述	-11.6347
不敢忽	-11.6348
程註	-11.6349
不好底	-11.6352
卷七	-11.6353
尺二寸	-11.6365
言外之意	-11.6365
在裏面	-11.6367
盍亦	-11.6369
良貴	-11.6372
兼體用	-11.6374
無不明	-11.6378
二十篇	-11.6381
孟子荅	-11.6384
萬化	-11.639
上做工夫	-11.6404
此章之㫖	-11.6404
拘拘	-11.6407
孔子之聖	-11.6412
一人之身	-11.6413
非有意於	-11.6415
官職	-11.6427
侯國	-11.6436
行先王之道	-11.6445
後之學者	-11.6445
不可不辨	-11.6448
儼	-11.6448
勢利	-11.6449
精察	-11.6455
固不待	-11.6455
伊川云	-11.6456
帝王之道	-11.6459
不安於	-11.6462
仁之實	-11.6462
曽氏	-11.6469
愛其親	-11.6469
故君子必	-11.6472
存於心	-11.6478
禄位	-11.6479
七尺	-11.6482
形色天性	-11.6484
僎	-11.6485
巫醫	-11.6486
四書或問卷	-11.6487
泰而不驕	-11.6487
然而不王者未之有也	-11.6487
坊	-11.6487
怎麽	-11.6488
施由親始	-11.6488
暨	-11.6489
彼善於此	-11.6489
鮑叔	-11.649
克伐怨欲不行	-11.649
反諸身	-11.6491
職事	-11.6491
恍	-11.6491
柔逺人	-11.6491
自反而縮	-11.6492
繚	-11.6492
倉廪	-11.6492
湍	-11.6492
感而遂通	-11.6493
生民以來	-11.6493
四書講義困勉録卷	-11.6493
女安則為之	-11.6493
唯天下至誠	-11.6493
至誠盡性	-11.6494
祝鮀	-11.6494
孑	-11.6494
晳	-11.6494
自始至終	-11.6494
六尺之孤	-11.6495
跂	-11.6495
深造之以道	-11.6495
有物有則	-11.6496
疢疾	-11.6497
怎	-11.6497
上焉者	-11.6498
孤竹	-11.6498
維天之命於穆不已	-11.6498
農隙	-11.6499
為國以禮	-11.6499
扣	-11.65
菲	-11.65
乗輿	-11.65
閻	-11.65
尺寸	-11.6501
宗楷	-11.6501
不為己甚	-11.6501
紅紫	-11.6501
墳	-11.6501
周禮春官	-11.6501
摸	-11.6502
湼	-11.6502
中庸不可能	-11.6503
夜之所息	-11.6503
甯	-11.6503
衒	-11.6503
蹊	-11.6504
尋繹	-11.6504
婢	-11.6504
啜	-11.6504
可兼用	-11.6506
采邑	-11.6508
韓愈	-11.6513
千餘	-11.6513
否宗建曰	-11.6515
僭竊	-11.6516
二十五家	-11.6517
易牙	-11.6521
要緊	-11.6525
引論語	-11.6527
漠然	-11.6527
五百年	-11.6527
出疆	-11.6533
畞	-11.6533
純乎天理	-11.6534
希聖	-11.6535
季氏家臣	-11.6537
利禄	-11.6537
師曠	-11.6538
内外交	-11.6538
轡	-11.6539
並稱	-11.654
風之自	-11.6542
西夷	-11.6546
既灌	-11.6548
有所不行	-11.6549
習熟	-11.6551
執持	-11.6564
賦予	-11.6569
門之内	-11.6572
吾從周	-11.6576
太虚	-11.6577
住不得	-11.6578
刑政	-11.6578
莫不各有	-11.6588
有所不足	-11.6589
虚器	-11.659
下焉者	-11.6591
淫辭	-11.6596
肖	-11.6598
流水	-11.6605
美質	-11.6609
始條理	-11.661
商書	-11.662
美玉	-11.6628
不敢盡	-11.6646
身不修	-11.6683
引夫子之言	-11.6687
窮困	-11.6697
天倫	-11.6698
百畒	-11.67
奡	-11.6703
舅犯	-11.6704
臧氏	-11.6705
夫子之得邦家	-11.6705
縣西北	-11.6706
行一不義殺一不辜而得天下	-11.6706
羨	-11.6708
尅	-11.6708
不亦君子乎	-11.6708
能近取譬	-11.6709
文質彬彬	-11.6709
峰	-11.6709
閽	-11.6709
人性皆善	-11.671
殛	-11.671
像	-11.671
葛伯	-11.671
齡	-11.671
切問近思	-11.6711
冩	-11.6711
肻	-11.6711
隳	-11.6711
赧	-11.6712
表而出之	-11.6713
博厚高明	-11.6713
不以三公易其介	-11.6714
東西南北	-11.6714
不言而信	-11.6714
掠	-11.6714
肝	-11.6714
黙契	-11.6715
專心致志	-11.6715
殁	-11.6716
貧富貴賤	-11.6716
逈	-11.6717
人之善惡	-11.6717
懽	-11.6717
温故而知新	-11.6717
相為用	-11.6718
勁	-11.6718
粟米	-11.6718
狹隘	-11.6718
並育並行	-11.6718
殘賊	-11.6719
夫里之布	-11.6719
蘊	-11.672
跌	-11.672
展轉	-11.6721
悶	-11.6722
敬事而信	-11.6723
格物窮理	-11.6725
磯	-11.6725
不相妨	-11.6725
戰國䇿	-11.6727
而極言之	-11.6728
謙退	-11.6728
不能使之	-11.6729
景帝	-11.673
紘	-11.6731
諒隂	-11.6732
誠之至	-11.6733
哀戚	-11.6733
姬姓	-11.6735
説苑	-11.6739
記誦	-11.6741
親迎	-11.6745
六卿	-11.6751
五達道	-11.6752
嵗月	-11.6752
傳寫	-11.6756
恝然	-11.6756
累其心	-11.6756
五倫	-11.676
石門	-11.6761
中牟	-11.6763
方圓	-11.6765
說話	-11.6766
難矣哉	-11.6767
自有箇	-11.6767
事物之間	-11.6768
畏懼	-11.6772
節賽合註曰	-11.6773
為己之學	-11.6773
之外又有	-11.6775
帥師	-11.6776
林氏曰	-11.6777
公薨	-11.6784
耕而食	-11.6788
慶父	-11.6794
要譽	-11.6802
愈甚	-11.6803
心得其正	-11.6804
降殺	-11.6808
有命焉	-11.6813
教誨	-11.6816
思索	-11.6819
何休	-11.6831
量度	-11.6832
持養	-11.6838
以孝弟為	-11.6841
豈真	-11.6852
亦多矣	-11.6854
二則曰	-11.6868
悖理	-11.6874
其可不	-11.6878
無所不盡	-11.6882
不得於言勿求於心	-11.6894
昆	-11.6899
同歸於	-11.6906
無宿諾	-11.6922
旅酬	-11.6922
陪	-11.6925
荑稗	-11.6925
順受其正	-11.6927
唱	-11.6928
麄	-11.6929
待洛反	-11.6929
與音餘	-11.6929
无	-11.693
糴	-11.6931
禮儀三百威儀三千	-11.6931
不願乎外	-11.6931
泛應曲當	-11.6931
蛟	-11.6931
膠鬲	-11.6932
没世而名不稱	-11.6932
劒	-11.6932
禎祥	-11.6933
搆	-11.6933
宥	-11.6933
謁	-11.6934
勿軒熊氏曰	-11.6934
觀其所由	-11.6934
溱洧	-11.6934
護	-11.6934
不嗜殺人	-11.6934
不出家而成教於國	-11.6934
其至矣乎	-11.6935
宛轉	-11.6935
摳	-11.6935
隕	-11.6935
秤	-11.6936
行有餘力則以學文	-11.6936
無伐善	-11.6936
夫音扶下同	-11.6936
涯	-11.6936
卜筮	-11.6936
四書類提要	-11.6937
郁	-11.6937
巧言令色鮮矣仁	-11.6937
我欲仁斯仁至矣	-11.6937
竇	-11.6937
蠱	-11.6938
盡物之性	-11.6938
發憤忘食	-11.6938
大扺	-11.6938
霍光	-11.6938
彪	-11.6938
臥	-11.6939
自衛反魯	-11.6939
有生之初	-11.6939
禓	-11.6939
穫	-11.6939
存乎人者	-11.6939
猛獸	-11.694
囊	-11.694
演	-11.694
腰	-11.6941
技藝	-11.6941
食稻衣錦	-11.6941
租	-11.6941
三復白圭	-11.6941
窺測	-11.6941
悔悟	-11.6942
性命之正	-11.6942
紛紜	-11.6943
伯夷之清	-11.6943
邪僻	-11.6944
無入而不自得	-11.6944
有虞氏	-11.6944
河圖	-11.6946
受女樂	-11.6946
韓魏	-11.6946
潔其身	-11.6946
撞	-11.6946
善惡混	-11.6947
水旱	-11.6947
竅	-11.6948
耨	-11.6948
有道無道	-11.6949
毳	-11.6949
不可勝食	-11.6949
討賊	-11.695
之通稱	-11.6952
袪	-11.6953
見於行事	-11.6955
嘐嘐然	-11.6955
博厚髙明	-11.6955
九寸	-11.6956
知其所以然	-11.6956
極其盛	-11.6957
恢	-11.6957
雍徹	-11.6959
藉口	-11.696
人之本心	-11.696
藍田吕氏曰	-11.6961
重複	-11.6961
未之思	-11.6962
老莊	-11.6966
金石	-11.6966
兵革	-11.6967
殊不思	-11.6973
短喪	-11.6974
無不該	-11.6977
尾生	-11.6988
得力處	-11.6989
以文為	-11.699
市朝	-11.6991
牛馬	-11.6991
西銘	-11.6996
道不可須臾離	-11.7008
二十年	-11.7026
取必於	-11.7027
無諸己	-11.7035
達天徳	-11.7038
二段	-11.7044
淵淵	-11.7046
請討	-11.7048
萌動	-11.7048
善柔	-11.7051
民鮮	-11.7053
二寸	-11.7058
工夫全在	-11.706
習其事	-11.7064
擇中庸	-11.7066
子路之勇	-11.7068
輔仁	-11.7068
首陽	-11.7104
以人言	-11.7114
欺世	-11.7119
適足以	-11.712
起念	-11.7133
不占而已矣	-11.7149
湣	-11.7151
可欲之善	-11.7153
允執其中	-11.7153
周生烈	-11.7155
丒	-11.7156
顔讎由	-11.7157
楯	-11.7157
不知命無以為君子	-11.7157
鞟	-11.7158
陣	-11.7158
義之與比	-11.7158
何必曰利	-11.7159
義以方外	-11.7159
縲絏	-11.7159
苐	-11.716
呈露	-11.716
嗜慾	-11.716
模様	-11.716
註王肅曰	-11.7161
窮而在下	-11.7161
勑	-11.7161
小人反是	-11.7161
羸	-11.7162
匹夫之勇	-11.7162
莫大焉	-11.7162
招虞人	-11.7162
糗	-11.7162
五覇	-11.7163
齧	-11.7163
陳善閉邪	-11.7163
私淑艾	-11.7164
樂以忘憂	-11.7164
鬰	-11.7164
訑訑	-11.7164
劉歆	-11.7164
市宅	-11.7164
岳	-11.7164
孟子道性善	-11.7164
溥	-11.7165
脈絡	-11.7166
學者讀這章書	-11.7166
梧	-11.7166
洲	-11.7166
斁	-11.7166
絡	-11.7166
札	-11.7166
其庶幾乎	-11.7167
媵	-11.7167
綸	-11.7167
甑	-11.7168
百五十	-11.7168
竿	-11.7168
中道而立	-11.7168
無所不通	-11.7169
噬	-11.717
庵	-11.717
銜	-11.7171
纒	-11.7171
孟敬子	-11.7171
葸	-11.7171
觀人之法	-11.7172
貪戾	-11.7172
非人之所能	-11.7172
櫝	-11.7172
有性焉	-11.7173
儉戚	-11.7173
能以禮讓	-11.7173
耰	-11.7173
抽	-11.7173
頸	-11.7173
危殆	-11.7175
弑逆	-11.7179
廣韻	-11.718
牽合	-11.7181
全体	-11.7183
四件	-11.7183
杞柳	-11.7186
下三句	-11.7187
酒肉	-11.7187
四海之内皆	-11.719
尹氏之説	-11.7198
堯舜性之	-11.7198
經緯	-11.7204
民之父母	-11.7208
尊爵	-11.7215
閨門	-11.7217
間隔	-11.7219
未發之前	-11.722
妄動	-11.722
居之安	-11.7221
立於禮	-11.7227
樂其樂	-11.7228
困苦	-11.7237
與之俱	-11.726
下兩句	-11.7261
形象	-11.7261
更定次序	-11.7275
有感於	-11.7286
與天同	-11.7296
保身	-11.7304
傷勇	-11.7313
春夏	-11.7315
非正命	-11.7327
聖之清	-11.7338
以及民	-11.7339
則一而已	-11.7349
顏	-11.7353
漠	-11.7359
不計其	-11.7359
一片	-11.736
古帝王	-11.7372
四十而不惑	-11.7378
十室之邑	-11.7382
顧諟天之明命	-11.7382
舍生取義	-11.7384
肺肝	-11.7385
窮理盡性以至於命	-11.7387
得志行乎中國	-11.7387
游於藝	-11.7387
巫馬期	-11.7387
庖厨	-11.7388
樊遲問知	-11.7388
此謂知之至也	-11.7388
達而在上	-11.7388
彼列反	-11.7389
盍何不也	-11.7389
砥	-11.7389
赦小過	-11.7389
割不正不食	-11.739
戍	-11.739
不動而敬不言而信	-11.7391
心之全徳	-11.7392
燦	-11.7393
率獸食人	-11.7393
刁蒙吉	-11.7393
以幣交	-11.7393
蘭	-11.7393
莠	-11.7395
天理之節文	-11.7395
卞莊子	-11.7395
事君事長使衆	-11.7395
先王制禮	-11.7396
偪	-11.7396
闞	-11.7396
非禮之禮非義之義	-11.7396
四時行百物生	-11.7396
柝	-11.7396
饐	-11.7396
知止能得	-11.7396
覸	-11.7396
明日遂行	-11.7397
吹	-11.7397
上無道揆	-11.7397
抹	-11.7398
義精仁熟	-11.7398
稜	-11.7399
諶	-11.7399
俯而就	-11.7399
墦	-11.74
潰	-11.74
旄	-11.7401
曲阜	-11.7401
救其失	-11.7401
邦畿	-11.7401
鄒肇敏曰	-11.7401
餔	-11.7402
信以成之	-11.7403
伐柯	-11.7403
下學人事	-11.7403
泛濫	-11.7403
千里之外	-11.7405
持循	-11.7406
士冠禮	-11.7406
至聖之徳	-11.7406
天理之流行	-11.7407
源源	-11.7407
推以及人	-11.7408
係累	-11.7408
誤認	-11.741
隄	-11.7412
哀痛	-11.7413
急遽	-11.7414
史記弟子傳	-11.7416
十餘年	-11.7416
開示	-11.742
也注孔曰至	-11.7423
測度	-11.7424
講究	-11.7424
一團	-11.7425
云子曰云云者	-11.7425
兩邊	-11.7429
聘享	-11.743
孔丘	-11.7431
錯簡	-11.7435
為之不厭	-11.7438
長沮	-11.744
幡然	-11.7441
范楊	-11.7444
面目	-11.7445
性本善	-11.7446
百歩	-11.745
道之費	-11.7452
乘車	-11.7452
耶抑	-11.7468
豈有二	-11.7469
不必泥	-11.7471
齊家治國	-11.7477
衞侯	-11.748
體叚	-11.7482
悼公	-11.7484
有是形	-11.7495
宋儒	-11.7505
充廣	-11.7517
年饑	-11.7522
鄒氏	-11.7524
分析	-11.7531
夏禹	-11.7538
分作兩	-11.7543
夫子告以	-11.7551
實際	-11.7564
貪利	-11.7577
無處不	-11.7581
詞氣	-11.7588
其死也	-11.7595
聦	-11.7601
恝	-11.7602
湛	-11.7603
塊	-11.7616
清濁厚薄	-11.7618
㩀	-11.7623
彌子瑕	-11.7623
以力假仁	-11.7624
聚斂之臣	-11.7625
先之勞之	-11.7626
避狄	-11.7626
眷	-11.7627
不踐迹	-11.7627
武王克商	-11.7627
篆	-11.7628
斗筲	-11.7628
畮	-11.7629
妖孽	-11.7629
守死善道	-11.763
蹉	-11.7631
盡事親之道	-11.7631
榆	-11.7631
田疇	-11.7631
不舍晝夜	-11.7631
夏禮吾能言之	-11.7631
公西赤	-11.7631
闢楊墨	-11.7632
垢	-11.7632
莫敢不	-11.7632
粒	-11.7632
致堂胡氏	-11.7633
摰	-11.7633
夘	-11.7634
恊	-11.7634
平旦之氣	-11.7634
槖	-11.7634
壮	-11.7635
昵	-11.7636
中道而廢	-11.7637
巧言令色足恭	-11.7637
從心所欲	-11.7637
言不及義	-11.7637
銷	-11.7637
曲能有誠	-11.7638
無適不然	-11.7638
秦穆公	-11.7638
魏文侯	-11.7638
仁與不仁	-11.7638
俟再定	-11.7638
藩	-11.7638
為人上者	-11.7638
黃氏曰	-11.7638
迂濶	-11.7638
聞一知十	-11.7639
操則存	-11.7639
三過其門而不入	-11.764
娶妻	-11.764
老聃	-11.764
蠻夷	-11.764
僚	-11.7641
仲孫氏	-11.7641
軛	-11.7641
杏	-11.7641
日用之常	-11.7642
嘑	-11.7642
斵	-11.7642
喧	-11.7643
不復夢見周公	-11.7646
藹然	-11.7646
仲壬	-11.7646
簋	-11.7647
底豫	-11.765
刻薄	-11.765
虐政	-11.7651
陳蔡之間	-11.7653
虛靈	-11.7653
市井	-11.7655
黼	-11.7658
義理無窮	-11.766
未見其止	-11.7661
一事一物	-11.7661
叔孫氏	-11.7662
衆星	-11.7663
欿然	-11.7664
塊然	-11.7664
岐山	-11.7665
不必拘	-11.7666
末如之何	-11.7666
以道事君	-11.7667
申之以	-11.7667
明道先生	-11.7667
箇甚麽	-11.7669
失伍	-11.767
說文云	-11.7673
。《	-11.7673
王霸之	-11.7674
孔子去魯	-11.7685
深潛	-11.7686
惟仁者能	-11.7686
古之聖賢	-11.7687
變詐	-11.7691
天下萬世	-11.7693
視聴	-11.7693
善養老	-11.7697
師旅	-11.7705
剛勇	-11.7711
人心之所同	-11.7718
與此不同	-11.7724
禹湯文武	-11.7725
知化育	-11.7725
厭倦	-11.7731
諸家之説	-11.7745
性之自然	-11.7752
問於孔子曰	-11.7757
外馳	-11.7772
義禮智	-11.7849
學如不及猶恐失之	-11.7866
旺	-11.7866
務民之義	-11.7866
七到反	-11.7867
禹吾無間然矣	-11.7867
齊明盛服	-11.7869
聞斯行之	-11.7869
脩己以敬	-11.7869
可以仕則仕可以止則止可以	-11.787
馮婦	-11.787
行已有恥	-11.7871
為仁由已	-11.7871
捍	-11.7872
啇	-11.7872
遷善改過	-11.7872
獲罪於天	-11.7872
畀	-11.7873
慄	-11.7874
妍	-11.7874
有恥且格	-11.7874
從大夫之後	-11.7874
子貢方人	-11.7874
荀息	-11.7874
仗	-11.7875
人焉廋哉	-11.7875
棟	-11.7876
按蒙引	-11.7876
齊梁之君	-11.7876
誘掖	-11.7876
仁能守之	-11.7876
聽朔	-11.7876
偉	-11.7876
餼羊	-11.7877
奢侈	-11.7877
無善無不善	-11.7877
尚書大傳	-11.7877
徐行後長	-11.7877
慿	-11.7877
翟	-11.7877
顧諟	-11.7878
媢嫉	-11.7878
惇	-11.7878
席不正不坐	-11.7878
懟	-11.7879
澹	-11.7879
樂而不淫	-11.788
幻	-11.788
粢盛	-11.788
亶	-11.788
絮	-11.7881
只恁地	-11.7881
濕	-11.7881
胷次	-11.7881
挫	-11.7882
鈔	-11.7882
草芥	-11.7882
飢而死	-11.7882
佯狂	-11.7882
鰥	-11.7883
似不能言	-11.7883
無所偏倚	-11.7883
聞其風	-11.7883
杯	-11.7883
阜	-11.7884
14	-11.7884
夫子之文章	-11.7884
呈	-11.7885
畦	-11.7885
口舌	-11.7886
揆度	-11.7886
媒	-11.7887
孟子之不動心	-11.7887
億度	-11.7887
繞	-11.7887
定静安	-11.7888
好謀而成	-11.7888
猶愈於	-11.7888
盾	-11.7889
泄泄	-11.789
文王之囿	-11.789
宵	-11.7891
藪	-11.7892
昏昧	-11.7892
韓詩外傳	-11.7893
有深意	-11.7893
潘	-11.7893
闈	-11.7894
一畨	-11.7897
衣帛	-11.7899
足與議	-11.79
死而後已	-11.7903
孟春	-11.7903
常棣	-11.7903
歎息	-11.7905
闗係	-11.7909
王莽	-11.7916
卿禄	-11.792
人之一心	-11.7921
著落	-11.7922
明睿	-11.7923
親炙	-11.7926
嚴厲	-11.7929
虚偽	-11.7931
惑之甚	-11.7942
假令	-11.7944
閒斷	-11.796
靷	-11.7964
孔子在陳	-11.797
各隨其	-11.7971
無所用心	-11.7973
禹臯陶	-11.7973
禀命	-11.7978
方其未	-11.7984
淮南	-11.7993
一串	-11.7995
凑合	-11.8009
未足以盡	-11.8009
仁義忠信	-11.8011
晦菴朱氏南軒張氏	-11.8033
顚	-11.8053
惟聖人能	-11.8055
求而得	-11.8074
盡其誠	-11.8075
志於學	-11.8087
犁	-11.8107
覬	-11.8116
草創	-11.8116
如有用我	-11.8119
窮不失義	-11.8119
自天子以至於庶人	-11.812
癢	-11.812
悾悾	-11.812
子莫執中	-11.8121
樂則韶舞	-11.8122
反求諸身	-11.8122
不怨天不尤人	-11.8122
生財有大道	-11.8122
維天之命	-11.8122
不求人知	-11.8122
居下位	-11.8122
三年無改於父之道可謂孝矣	-11.8123
司㓂	-11.8123
套	-11.8123
悞	-11.8123
無所取材	-11.8123
並行而不相悖	-11.8124
非助我	-11.8124
掊克	-11.8124
信道不篤	-11.8124
君子思不出其位	-11.8124
徳之賊也	-11.8124
瘠	-11.8125
使枉者直	-11.8125
待其人而後行	-11.8125
格君心之非	-11.8125
墨氏兼愛	-11.8125
桞	-11.8125
緑	-11.8125
顔師古	-11.8126
湯放桀	-11.8126
服周之冕	-11.8126
聲音笑貌	-11.8126
曰古之人古之人	-11.8127
㬰	-11.8127
寇讎	-11.8127
朝聞道夕死可矣	-11.8127
民無得而稱	-11.8127
祭神如神在	-11.8127
吾不與祭如不祭	-11.8127
蘇張	-11.8128
下無法守	-11.8128
僨	-11.8128
顏色	-11.8129
首陽山	-11.8129
一匡天下	-11.8129
曳	-11.813
五十而慕	-11.813
塟	-11.813
甥	-11.813
仁也者人也	-11.813
㓙	-11.813
叔孫武叔	-11.813
淵源	-11.8131
沂水	-11.8131
夭夭	-11.8132
贐	-11.8132
陷溺其心	-11.8132
修身為本	-11.8133
守之固	-11.8134
無以尚之	-11.8134
彖	-11.8134
蚩	-11.8135
戴不勝	-11.8136
兖	-11.8136
公行子	-11.8137
絲毫	-11.8138
急迫	-11.8139
笥	-11.8139
湯誓	-11.8141
雷澤	-11.8141
宓	-11.8143
珠玉	-11.8143
侑	-11.8144
軸	-11.8144
鷩	-11.8144
劍	-11.8145
袖	-11.8145
克己復禮為仁	-11.8148
有以異乎	-11.8149
開闢	-11.815
舉賢才	-11.8151
非有二也	-11.8151
私淑	-11.8152
有所為而為	-11.8153
平旦	-11.8155
較量	-11.8158
聖之和	-11.8159
魯昭公	-11.8163
三綱領	-11.8163
腹心	-11.8169
毛詩	-11.8173
章總㫖此章	-11.8173
兩般	-11.8175
懐土	-11.8176
推而至於	-11.818
疾痛	-11.8182
恐亦未	-11.8217
修身齊家	-11.8222
一介之	-11.8223
無適而不	-11.8234
泛泛	-11.8248
一定之理	-11.8285
百步	-11.8291
禀受	-11.8313
熟玩	-11.8356
五畝之宅	-11.8369
隷	-11.837
緝熈	-11.8372
以力服人	-11.8373
已然之迹	-11.8373
孟子曰否不然	-11.8375
危邦不入亂邦不居	-11.8375
寒浞	-11.8376
暮春	-11.8376
安人安百姓	-11.8376
髙堅前後	-11.8377
鍼	-11.8377
信而好古	-11.8377
喫𦂳	-11.8377
曲肱	-11.8378
誑	-11.8378
遲鈍	-11.8379
不可偏廢	-11.8379
不足與有為	-11.8379
墊	-11.8379
行可之仕	-11.8379
隨感而應	-11.838
臾	-11.838
推己及人	-11.8381
天之所以與我	-11.8381
拳拳服膺	-11.8381
罵	-11.8381
至精至	-11.8381
案吕氏曰	-11.8381
無適無莫	-11.8382
衣帛食肉	-11.8382
吾斯之未能信	-11.8382
渺	-11.8382
天命之謂性率性之謂道	-11.8382
求赤	-11.8382
戰戰兢兢	-11.8382
古之學者為己	-11.8382
㓂	-11.8383
淪胥	-11.8383
形骸	-11.8384
大徳小徳	-11.8384
降志辱身	-11.8384
若聖與仁則吾豈敢	-11.8384
逓	-11.8384
王弼曰	-11.8384
軀殻	-11.8385
顔淵問仁	-11.8385
蒯	-11.8385
季武子	-11.8385
蹇	-11.8385
賛化育	-11.8385
各有攸當	-11.8385
幕	-11.8385
捄	-11.8385
揺	-11.8386
亷潔	-11.8386
小徳大徳	-11.8386
穩	-11.8386
仁山金氏	-11.8386
不愧不怍	-11.8386
無一豪	-11.8387
紹堯	-11.8387
絀	-11.8388
昨日	-11.8388
不在其位	-11.8388
滅裂	-11.8388
趾	-11.8388
見危授命	-11.8389
洚水	-11.8389
西南隅	-11.8389
人之生也直	-11.8389
三以天下讓	-11.839
陛下	-11.839
居敬窮理	-11.839
憒	-11.8391
𢎞毅	-11.8391
涂	-11.8392
匏瓜	-11.8392
富貴利達	-11.8392
蕪	-11.8392
縞	-11.8393
口給	-11.8393
正此意也	-11.8394
荒唐	-11.8394
以義為利	-11.8394
刻刻	-11.8396
中天下而立	-11.8396
課	-11.8396
與天地參	-11.8397
願學孔子	-11.8399
六言六蔽	-11.84
謹其獨	-11.84
圭璋	-11.8401
棊	-11.8402
十有五	-11.8403
好仁惡不仁	-11.8404
脂	-11.8404
神農之言	-11.8405
曾參	-11.8405
堅忍	-11.8406
吉月	-11.8407
姑洗	-11.8408
愧恥	-11.8413
年六十	-11.8413
氣魄	-11.8414
天下之言性	-11.8416
身不脩	-11.8418
扈	-11.8418
而勿失	-11.842
魯繆公	-11.843
小邾	-11.8431
罟擭陷阱	-11.8439
整齊	-11.8439
無限量	-11.8463
履祥按	-11.8469
欲無言	-11.8483
足以當之	-11.8487
如禮何	-11.8489
之罪人也	-11.8493
所常言	-11.8527
鼓琴	-11.8565
得而見之	-11.8595
秋冬	-11.8602
堯舜禹湯	-11.8608
牟	-11.8631
脗合	-11.8632
言不必信行不必果	-11.8634
儀封人	-11.8634
扞格	-11.8635
麰麥	-11.8637
迄	-11.8637
避兄離母	-11.8637
萬乘之國	-11.8638
有王者作	-11.8638
嗅	-11.8639
任其責	-11.8639
聖而不可知	-11.8639
推己及物	-11.8639
有不期然而然者	-11.864
知及仁守	-11.864
反身而誠樂莫大焉	-11.8641
聰明睿智	-11.8641
榱	-11.8641
薛居州	-11.8641
剖析	-11.8641
見賢思齊	-11.8642
揀	-11.8642
造化之迹	-11.8642
禮樂征伐自諸侯出	-11.8642
皥皥	-11.8642
經綸大經	-11.8642
欲其自得之也	-11.8643
論語集註大全卷	-11.8643
逺人以為道	-11.8643
好惡與人相近	-11.8643
春夏秋冬	-11.8643
上天之載無聲無臭	-11.8644
攙	-11.8644
酷	-11.8644
可離非道	-11.8644
冉閔	-11.8644
林放問禮之本	-11.8644
行不掩	-11.8644
無餘藴矣	-11.8644
四書鏡曰	-11.8645
不使不仁者加乎其身	-11.8645
浞	-11.8645
𫝑	-11.8645
堯舜之道孝弟而已矣	-11.8645
多聞多見	-11.8646
凍	-11.8646
麽	-11.8646
遐	-11.8646
懾	-11.8646
無非教也	-11.8646
足用為善	-11.8647
樂天知命	-11.8648
頻顣	-11.8648
邦君之妻	-11.8648
廿	-11.8648
荏	-11.8648
色厲而内荏	-11.8648
紆	-11.8648
祖述堯舜	-11.8648
韍	-11.8649
豁然貫通	-11.8649
琢磨	-11.8649
犯上作亂	-11.8649
凋	-11.8649
吸	-11.865
絕	-11.865
規規	-11.865
晏平仲	-11.8651
以善服人	-11.8651
帷裳	-11.8652
啓手足	-11.8652
晰	-11.8652
誡	-11.8652
衝	-11.8652
為我兼愛	-11.8652
主癰疽	-11.8652
心之全德	-11.8653
猷	-11.8653
閎	-11.8654
程伯子	-11.8654
􁈭	-11.8654
䂓	-11.8655
酸	-11.8655
彩	-11.8656
戯	-11.8656
佚遊	-11.8656
極高明	-11.8657
穏	-11.8657
成已成物	-11.8657
公山不狃	-11.8658
左傳襄公	-11.8658
求為可知	-11.8658
上中下	-11.8659
學者之忠恕	-11.8659
老㓜	-11.8659
鄭衛之	-11.866
桐梓	-11.866
閉門	-11.8661
恰似	-11.8663
漬	-11.8664
滑釐	-11.8665
倚廬	-11.8666
修慝	-11.8666
發棠	-11.8666
經營	-11.8669
財貨	-11.867
朱張	-11.8671
征誅	-11.8672
摟	-11.8673
郊禘	-11.8673
勤勞	-11.8673
勇猛	-11.8674
楚莊	-11.8676
何有於我哉	-11.8677
不多食	-11.8678
東蒙	-11.868
逺之近	-11.8681
聖門之學	-11.8683
擇術	-11.8684
齊家以下	-11.8686
在上位	-11.869
威嚴	-11.869
爵祿	-11.8732
理之所在	-11.8741
道之不明	-11.8758
君薨	-11.8762
恤民	-11.8765
引此詩	-11.8785
扶又反下同	-11.8823
愛惜	-11.8827
得之於天	-11.8841
分為二	-11.8846
腔子	-11.885
可同日	-11.8856
分為兩	-11.8868
性之本體	-11.8877
苑	-11.8897
僇	-11.8898
璋	-11.8902
通功易事	-11.8904
涼	-11.8908
恒胡登反	-11.8908
非其君不事	-11.8909
嫂	-11.891
議禮制度考文	-11.891
地理志	-11.891
苑囿	-11.891
博學審問慎思明辨	-11.891
壝	-11.891
喪大記	-11.891
濯濯	-11.8911
不患人之不已知	-11.8911
不違農時	-11.8912
雍也仁而不佞	-11.8912
第一條	-11.8912
四書近指卷	-11.8912
比必二反	-11.8912
信道篤	-11.8912
艴	-11.8913
秉彝	-11.8913
社稷之臣	-11.8913
察乎天地	-11.8913
洒埽應對	-11.8914
居之不疑	-11.8914
濬	-11.8914
尊徳性而道問學	-11.8914
豎	-11.8915
所厚者薄	-11.8915
不能違天	-11.8915
居深山	-11.8916
淄	-11.8916
尺寸之膚	-11.8916
色取仁而行違	-11.8916
碌	-11.8916
亶父	-11.8916
存養省察	-11.8917
無往而非	-11.8917
麋鹿	-11.8917
司宼	-11.8917
峻極于天	-11.8917
食菜羮	-11.8918
襟	-11.8918
安於小成	-11.8918
以善養人	-11.8919
湮	-11.8919
用之則行舍之則藏	-11.8919
知愚賢不肖	-11.8919
瘁	-11.8919
親親尊賢	-11.8919
疲	-11.8919
徹頭徹尾	-11.892
賀	-11.892
左丘明恥之丘亦恥之	-11.892
表裏精粗	-11.892
事君盡禮	-11.892
見利思義	-11.892
仁逺乎哉	-11.8921
灾	-11.8921
莫非命也	-11.8921
成己成物	-11.8921
咻	-11.8922
如斯而已	-11.8922
喚醒	-11.8922
掉	-11.8923
企及	-11.8923
半截	-11.8923
如予何	-11.8923
見義不為	-11.8923
過則勿憚改	-11.8924
播種	-11.8924
爼豆	-11.8924
使民以時	-11.8924
食貨志	-11.8924
庇	-11.8925
大學一書	-11.8925
膚受之愬	-11.8926
三年有成	-11.8926
不害不悖	-11.8926
優優	-11.8926
巍	-11.8926
乞醯	-11.8926
郁郁	-11.8927
躓	-11.8927
先立乎其大者	-11.8927
善戰者	-11.8927
杞宋	-11.8927
燒	-11.893
腊	-11.893
焦	-11.8931
逺恥辱	-11.8933
兄弟妻子	-11.8934
蘇秦	-11.8935
粱	-11.8936
座	-11.8937
堯舜湯武	-11.8937
感悟	-11.8939
昌邑	-11.8941
濩	-11.8944
小疵	-11.8945
父母昆弟	-11.8945
裏靣	-11.8947
䙝服	-11.8948
第五節	-11.8948
是非得失	-11.8949
有是哉	-11.8957
直捷	-11.8957
芟五條减	-11.8967
不尤人	-11.8972
烏路切	-11.8972
所以然之故	-11.9059
兄之子	-11.9078
伊川先生	-11.9087
啻	-11.9123
蘓	-11.9128
紛擾	-11.9133
禆諶	-11.9178
辟廱	-11.9179
奭	-11.9181
媢	-11.9181
先慎乎徳	-11.9182
志至焉氣次焉	-11.9182
為貧而仕	-11.9182
辟與闢同	-11.9183
堯舜猶病	-11.9183
馴	-11.9185
継	-11.9185
百畝之田	-11.9185
齊必變食	-11.9186
省察克治	-11.9186
不愧屋漏	-11.9186
大畏民志	-11.9187
讀者詳之	-11.9187
壅塞	-11.9188
貧且賤	-11.9188
色勃如也	-11.9188
繒	-11.9189
凛	-11.9189
筮	-11.9189
蔡邕	-11.9189
踊	-11.919
不負戴於道路	-11.919
耒耜	-11.9191
薰	-11.9191
刑罰不中	-11.9191
掖	-11.9192
造次必於是顛沛必於是	-11.9192
鮮能知味	-11.9192
富於周公	-11.9192
蹲	-11.9192
鑑空衡平	-11.9192
熹	-11.9192
婚	-11.9193
血流漂杵	-11.9193
百鈞	-11.9193
凶荒	-11.9193
劑	-11.9194
汎愛	-11.9194
九合諸侯	-11.9194
飢渴	-11.9194
寔	-11.9194
覆幬	-11.9194
附存疑曰	-11.9194
襯貼	-11.9194
造端乎夫婦	-11.9194
睟面盎背	-11.9195
溝瀆	-11.9195
不逆不億	-11.9195
道統之傳	-11.9195
與平聲下同	-11.9195
構	-11.9195
鳥獸草木	-11.9195
雨蒼	-11.9196
孟公綽	-11.9196
修道之教	-11.9196
念念不忘	-11.9196
摧	-11.9197
異姓之卿	-11.9197
循序漸進	-11.9197
人而無信	-11.9197
喬木	-11.9197
子貢欲去告朔之餼羊	-11.9197
子游為武城宰	-11.9198
豳風	-11.9198
舉直錯枉	-11.9199
崖	-11.9199
問事鬼神	-11.9199
変	-11.9199
洒掃	-11.9199
避嫌	-11.9199
滌	-11.9199
㸃檢	-11.9199
撤	-11.9199
忖	-11.9199
知天知人	-11.92
子罕言利與命與仁	-11.92
勇而無禮	-11.9201
章之㫖	-11.9201
跟	-11.9201
求仁而得仁	-11.9202
朝祭之服	-11.9202
慶源	-11.9202
泳	-11.9203
受其賜	-11.9203
二千五百	-11.9203
知和而和	-11.9203
䧟溺	-11.9203
筆削	-11.9204
窟	-11.9204
知者不惑	-11.9204
與朋友交	-11.9204
庫	-11.9206
裴	-11.9207
負版	-11.9207
緡	-11.9208
朋友之交	-11.9208
昊天	-11.9208
使民戰栗	-11.9209
愠怒	-11.9209
由中出	-11.9209
不敢不勉	-11.921
尹公之他	-11.921
川澤	-11.921
盗賊	-11.9212
殘忍	-11.9212
孔門弟子	-11.9212
井田之法	-11.9213
斜	-11.9214
盜跖	-11.9214
狙	-11.9217
萊朱	-11.922
剰	-11.9224
坊記	-11.9226
榖梁	-11.9227
有國家者	-11.923
聖與仁	-11.9236
錯認	-11.9237
」9.	-11.9237
自絶於	-11.9248
這物事	-11.9266
質朴	-11.9282
均之為	-11.9309
無所不用其	-11.9317
尺四寸	-11.9322
晁	-11.9376
圈	-11.9384
何有於我	-11.9456
天地之道可一言而盡	-11.9463
兕	-11.9464
有翦商之志	-11.9467
企	-11.947
君仁莫不仁君義莫不義	-11.9471
一鄉之善士	-11.9471
非其有而取之	-11.9471
大而化之之謂聖	-11.9471
真積力久	-11.9471
春服既成	-11.9472
惠而不知為政	-11.9472
猜	-11.9472
訣	-11.9472
不可階而升	-11.9473
断	-11.9473
休休	-11.9473
袵	-11.9473
不素餐兮	-11.9474
放鄭聲逺佞人	-11.9474
鮑	-11.9474
孶	-11.9474
宰予晝寢	-11.9475
括地志	-11.9475
徒法不能以自行	-11.9475
敬以直内義以方外	-11.9476
駒	-11.9476
彦昇按	-11.9476
可與入堯舜之道	-11.9476
輗軏	-11.9476
無一物不得其所	-11.9476
梯	-11.9476
居仁由義	-11.9477
訾	-11.9477
惟精惟一	-11.9477
庶人在官者	-11.9477
劉上玉	-11.9477
拜而受之	-11.9477
萇	-11.9477
蕘	-11.9478
堯舜帥天下以仁	-11.9478
質勝文則野	-11.9478
鬱鬯	-11.9479
修道之謂教	-11.9479
以直養而無害	-11.9479
羹	-11.9479
申申夭夭	-11.9479
天命謂性	-11.9479
億兆	-11.9479
心不外馳	-11.948
迴	-11.948
有不可勝言者	-11.948
屯	-11.948
已見大意	-11.948
惟天下至誠	-11.948
羽旄	-11.948
及其成功一也	-11.948
蓍龜	-11.9481
割烹	-11.9481
擬議	-11.9481
槃	-11.9481
易子而教	-11.9481
渙	-11.9481
摹	-11.9481
釁鐘	-11.9481
貯	-11.9481
豈其然乎	-11.9481
有天下而不與	-11.9481
據於徳	-11.9482
所存者神	-11.9482
紙	-11.9482
稠	-11.9482
何文定曰	-11.9482
收拾	-11.9482
周雖舊邦其命維新	-11.9482
兢	-11.9482
素其位而行	-11.9483
彷彿	-11.9483
一朝之忿	-11.9483
不合則去	-11.9484
奬	-11.9484
無友不如己者	-11.9484
相率而	-11.9484
瞑眩	-11.9485
貴戚之卿	-11.9485
學而不思	-11.9485
誠意正心脩身	-11.9485
昩	-11.9485
作用是性	-11.9486
手舞足蹈	-11.9486
公子郢	-11.9487
周匝	-11.9487
犀	-11.9487
子貢問為仁	-11.9487
彦陵	-11.9487
無所往而不	-11.9487
褒貶	-11.9487
韶舞	-11.9488
精察力行	-11.9488
郯	-11.9489
因時制宜	-11.9489
緇衣羔裘	-11.949
元咺	-11.949
橐	-11.949
蝕	-11.949
纓冠	-11.949
鍾鼓	-11.949
贖	-11.9491
冗	-11.9491
耐	-11.9491
玩索	-11.9492
勉彊	-11.9492
夷恵	-11.9493
賛天地之化育	-11.9493
淮泗	-11.9494
曼	-11.9495
近乎仁	-11.9495
盛饌	-11.9496
兔	-11.9496
不遷不貳	-11.9496
汁	-11.9497
雛	-11.9498
獲麟	-11.9499
沓沓	-11.9499
敦篤	-11.9501
大全辯	-11.9502
時雨化	-11.9506
不可使知之	-11.951
弦歌	-11.9511
好事者	-11.9515
」8.	-11.9515
學者所當深	-11.954
范尹	-11.9547
亦足以發	-11.955
有似於	-11.9555
勝己者	-11.9568
注及下	-11.9571
淵泉	-11.9628
芟四條	-11.9654
芟二條减一百	-11.9657
盡性至命	-11.9672
二十九章	-11.9688
生知之聖	-11.9697
罟	-11.9705
東陽許氏	-11.9717
二畝半	-11.9754
焄	-11.9756
四體不言而喻	-11.9757
不能已者	-11.9758
諦	-11.976
天與賢則與賢天與子則與子	-11.9761
存焉者寡	-11.9761
惟天子得	-11.9762
文王之所以為文	-11.9764
禮樂不興	-11.9765
子張學干禄	-11.9765
盡善盡美	-11.9766
所識窮乏者得我	-11.9766
急親賢	-11.9766
定靜安	-11.9766
推而極之	-11.9767
邪說暴行	-11.9767
而由人乎哉	-11.9767
塗炭	-11.9768
晝寢	-11.9768
周有八士	-11.9768
孝者所以事君	-11.9768
君子去仁惡乎成名	-11.9769
三年無改	-11.9769
内自訟	-11.977
自天子達於庶人	-11.977
蘇秦張儀	-11.977
顔淵問為邦	-11.977
喜怒哀樂之未發謂之中	-11.977
蜚	-11.977
愛之欲其生	-11.977
扶問反	-11.977
剔	-11.977
大哉堯之為君	-11.977
加毫末	-11.9771
素餐	-11.9771
凡為天下國家有九經	-11.9771
窄	-11.9771
制度文為	-11.9771
尚絅	-11.9771
愛親敬長	-11.9771
前言往行	-11.9771
系	-11.9772
不辱君命	-11.9772
一簞食一	-11.9772
帝嚳	-11.9772
知者樂水	-11.9772
管登之曰	-11.9772
谿	-11.9772
悍	-11.9772
無時無處	-11.9772
錯行代明	-11.9773
犧	-11.9773
内省不疚夫何憂何懼	-11.9774
子行三軍則誰與	-11.9774
由教而入	-11.9775
灑埽應對	-11.9775
曰未之思也夫何逺之有	-11.9775
𬒳	-11.9775
纑	-11.9775
相師之道	-11.9776
不撤薑食	-11.9776
而不足以解憂	-11.9776
禆	-11.9776
隊	-11.9776
巽與之言	-11.9776
宫之竒	-11.9777
小弁之怨	-11.9777
鳯鳥	-11.9777
達巷黨人	-11.9777
閫	-11.9777
出門如見大賔使民如承大祭	-11.9778
大禹謨	-11.9778
患不知人	-11.9778
㣲之顯	-11.9779
喬	-11.9779
徐岩泉曰	-11.9779
繇	-11.9779
晉獻公	-11.9779
在邦無怨在家無怨	-11.9779
賄	-11.9779
韜	-11.9779
具衆理應萬事	-11.9779
滚	-11.978
公山氏	-11.978
色斯舉矣	-11.978
臨大節而不可奪	-11.9781
泄柳	-11.9781
婦人之仁	-11.9781
遇諸塗	-11.9782
羞惡辭讓是非	-11.9782
掃除	-11.9783
戒愼不睹恐懼不聞	-11.9783
閟	-11.9784
夢寐	-11.9784
羿奡	-11.9784
周顯王	-11.9784
窈	-11.9786
四岳	-11.9786
做將去	-11.9787
浸潤	-11.9787
謙詞	-11.9788
布帛	-11.9788
禹之行水	-11.9789
資稟	-11.9789
何足以臧	-11.9789
君臣父子兄弟	-11.9789
介甫	-11.979
羖	-11.979
苴	-11.9791
虎賁	-11.9791
翰林院	-11.9793
與民共	-11.9806
天縱之	-11.9806
翅	-11.9807
閏月	-11.9814
漢武帝	-11.9871
費之大	-11.989
為物欲所	-11.9897
樂道人之善	-11.9909
亦未可知	-11.9931
怍	-11.9938
物之終始	-11.9972
諸説如何曰	-11.9973
狂而不直	-12.0062
博學於文約之以禮亦可以弗畔矣夫	-12.0062
當仁不讓於師	-12.0063
講習討論	-12.0064
韎	-12.0064
人之所以異於禽獸者	-12.0064
卷而懷之	-12.0065
太王王季	-12.0065
博學而篤志切問而近思	-12.0065
此二節書是	-12.0066
以大事小	-12.0067
桓公殺公子糾	-12.0067
上好禮則民	-12.0069
乱	-12.0069
潘氏曰	-12.007
道之以政	-12.007
雍之言然	-12.007
鈇	-12.0072
雪宫	-12.0072
如切如磋	-12.0072
法制禁令	-12.0073
不見諸侯何義	-12.0073
厭飫	-12.0073
廣平游氏曰	-12.0074
邈	-12.0074
用我者吾其為東周乎	-12.0074
歸咎於	-12.0075
兢兢	-12.0075
兼氣質而言	-12.0075
得之為有財	-12.0075
虎狼	-12.0075
非徒無益而又害之	-12.0075
有教無類	-12.0076
舉斯心加諸彼	-12.0076
鳳鳥	-12.0076
犢	-12.0077
荀揚	-12.0077
正己而物正	-12.0077
不違如愚	-12.0077
既竭吾才	-12.0077
厚葬其親	-12.0077
有分辨	-12.0077
能好人能惡人	-12.0077
帖	-12.0078
亦可以為成人矣	-12.0078
其要只在	-12.0078
籩	-12.0078
騷	-12.0079
邢昺氏曰	-12.0079
盍歸乎來	-12.0079
祖之所自出	-12.0079
割烹要湯	-12.0079
楚昭王	-12.0079
自外入	-12.008
輕重長短	-12.008
旦夕	-12.008
雞鳴而起	-12.008
蹈水火	-12.008
鶃鶃	-12.008
好勇過我	-12.008
觳	-12.0081
鄕	-12.0081
獯鬻	-12.0081
誠之者人之道	-12.0081
參前倚衡	-12.0082
鴟鴞	-12.0082
規矩準繩	-12.0082
鴃	-12.0082
理之必然	-12.0082
以俟知者	-12.0082
義襲而取	-12.0082
率循也	-12.0083
佛肸之召	-12.0083
哺	-12.0083
非其鬼而祭之	-12.0083
裝	-12.0083
智仁勇	-12.0083
與道為體	-12.0084
失飪	-12.0084
窒塞	-12.0084
君子不以紺緅飾	-12.0084
寂滅	-12.0085
轍迹	-12.0085
水逆行	-12.0085
子服景伯	-12.0085
展禽	-12.0085
皜	-12.0085
孝弟為仁之本	-12.0086
夾谷	-12.0086
浚	-12.0086
夾雜	-12.0086
簫	-12.0087
寡小君	-12.0089
漸漬	-12.0089
歎美之	-12.0089
曵	-12.0094
鸇	-12.0095
痛惜	-12.0096
蔟	-12.0097
黄鐘	-12.0097
檐	-12.0098
喟然歎	-12.0099
孫叔敖	-12.0099
耆老	-12.0109
不私其	-12.0116
疑而問	-12.0117
杞梁	-12.0118
王道之始	-12.0122
顔冉	-12.0122
曰諸説如何曰程子	-12.0123
陸費墀欽定四庫全書	-12.0124
千四百	-12.0126
蔽於私	-12.015
稷契	-12.0165
過不及之差	-12.0178
大本達道	-12.0184
胷	-12.0194
修己以安百姓	-12.0249
第三條	-12.0279
倒懸	-12.03
論語注疏卷	-12.0317
慮以下人	-12.0359
遲遲	-12.0371
六十而耳順	-12.0376
蒞	-12.0377
瞽瞍底豫	-12.0377
斃	-12.0377
上行下效	-12.0379
𠂻	-12.0379
矦	-12.0379
扞	-12.0379
雞豚	-12.038
彥	-12.038
察言觀色	-12.0381
雖之夷狄不可棄也	-12.0381
觚不觚	-12.0381
尊徳樂義	-12.0382
識音志	-12.0382
陳成子弑簡公	-12.0382
居必遷坐	-12.0382
或問此一節曰	-12.0382
孔子對曰言不可以若是其幾也	-12.0383
祕	-12.0383
常目在之	-12.0384
君子有三樂而王天下不與存焉	-12.0384
饉	-12.0384
謾	-12.0384
與百姓同之	-12.0384
不時不食	-12.0384
炫	-12.0384
孔子曰以吾從大夫之後不敢不告也	-12.0385
孔子聖之時	-12.0385
仭	-12.0385
盈科而後進	-12.0385
所性不存焉	-12.0385
未之聞也	-12.0385
鑠	-12.0386
鎡	-12.0386
塵垢	-12.0386
販	-12.0386
盡窮天下之	-12.0386
貴貴尊賢	-12.0386
以辭害意	-12.0387
行下孟反	-12.0387
玉帛鐘鼓	-12.0387
不知老之將至	-12.0387
如日月之食	-12.0387
文質三統	-12.0387
今之從政	-12.0387
迸	-12.0387
取諸人以為善	-12.0387
欲平治天下	-12.0388
泆	-12.0388
喜怒憂懼	-12.0388
鰌	-12.0388
飦	-12.0388
誣罔	-12.0389
孰甚焉	-12.0389
授之以政	-12.0389
公伯竂	-12.0389
杜撰	-12.0389
唯聖者能之	-12.0389
𣏌	-12.039
逢迎	-12.039
晦翁	-12.039
五畆之宅	-12.039
狠	-12.039
幷	-12.039
少孔子四十	-12.039
放僻邪侈	-12.0391
弩	-12.0391
於穆不已	-12.0391
心徳之全	-12.0391
終亦必亡而已矣	-12.0391
釀	-12.0391
栽培	-12.0391
章總旨	-12.0391
襁	-12.0391
非禮勿視聽言動	-12.0391
天命之性率性之道	-12.0392
槐	-12.0392
渾融	-12.0392
養口體	-12.0392
濡滯	-12.0392
相為表裏	-12.0392
知我者其天乎	-12.0392
菹	-12.0393
饑渇	-12.0393
右第三十	-12.0393
天地之正氣	-12.0393
棁	-12.0393
仁者天地生物之心	-12.0393
恥惡衣惡食	-12.0394
其次致曲	-12.0394
涇	-12.0394
髓	-12.0394
仰事俯育	-12.0395
上智下愚	-12.0395
懈怠	-12.0395
不亦善乎	-12.0395
段干木	-12.0395
逆億	-12.0395
號泣于旻天	-12.0395
已所不欲勿施於人	-12.0396
為力不同科	-12.0396
甚矣吾衰也	-12.0396
怵	-12.0396
虚靈不昧	-12.0396
餲	-12.0396
坐如尸	-12.0396
卵	-12.0397
申棖	-12.0397
一理渾然	-12.0397
痒	-12.0397
縚	-12.0398
閱	-12.0398
到此地位	-12.0399
轅端	-12.0399
皮膚	-12.0399
盈科	-12.0399
莫我知也夫	-12.0399
分内事	-12.0399
鄉射禮	-12.04
侏	-12.04
匐	-12.04
匍	-12.0401
垤	-12.0401
感慨	-12.0402
縕	-12.0402
拖	-12.0402
檟	-12.0402
耿	-12.0402
章總㫖翼註曰	-12.0403
蕤	-12.0405
瞶	-12.0406
貍	-12.0407
浡	-12.0407
山節藻梲	-12.0408
孝子之至	-12.0409
譖愬	-12.0415
獲乎上	-12.042
執轡	-12.0421
糲	-12.0421
邢疏	-12.0434
鎛	-12.0434
有取焉	-12.0452
生物不測	-12.0469
以直養	-12.048
番	-12.0488
堯舜其猶病諸	-12.05
之如父母	-12.0511
王文憲	-12.0653
一治一亂	-12.0694
妬	-12.0696
璞	-12.0699
輝光	-12.0702
媚竈	-12.0703
霄	-12.0703
自天子至於庶人	-12.0704
冉牛閔子顔淵	-12.0704
實始翦商	-12.0704
肢	-12.0705
虎兕	-12.0705
原思為之宰	-12.0706
瞻之在前忽焉在後	-12.0706
聞一知二	-12.0706
切偲	-12.0706
鷹	-12.0706
賈逵	-12.0707
不可勝誅	-12.0707
孕	-12.0707
神明不測	-12.0707
舜有臣五人而天下治	-12.0707
說音恱	-12.0707
嘿	-12.0707
義者宜也	-12.0707
丘之禱久矣	-12.0707
若由也不得其死然	-12.0708
倚於一偏	-12.0708
移風易俗	-12.0708
文莫吾猶人也	-12.0708
㤀	-12.0708
牛山之木	-12.0708
不惡而嚴	-12.0708
狂者進取	-12.0708
瓘	-12.0708
温良恭儉讓	-12.0708
莫見乎隱莫顯乎微	-12.0709
斟	-12.0709
仁道至大	-12.0709
癩	-12.0709
從容不迫	-12.0709
壹是皆以修身為本	-12.0709
仁之於父子	-12.0709
蘆	-12.0709
執其兩端	-12.0709
伯夷太公	-12.071
戹	-12.071
天下可運於掌	-12.071
松陽講義	-12.071
尊徳性道問學	-12.071
見得思義	-12.071
蹝	-12.071
剝	-12.071
莊以涖之	-12.071
見幾而作	-12.0711
鷄	-12.0711
眷眷	-12.0711
誠者物之終始不誠無物	-12.0712
漂	-12.0712
以言舉人	-12.0712
葉公問政	-12.0712
無一毫人欲之私	-12.0713
盡於人心	-12.0713
豪傑之士	-12.0713
霄壤	-12.0713
緝熙	-12.0713
百家衆技	-12.0714
攜	-12.0714
忝	-12.0715
市㕓	-12.0715
㝷	-12.0715
寥	-12.0715
敬而無失	-12.0715
飽乎仁義	-12.0715
君子而時中	-12.0715
罹	-12.0715
称	-12.0716
所以立命也	-12.0716
忘人之勢	-12.0716
大司樂	-12.0716
離婁之明	-12.0716
狐貉之厚以居	-12.0716
巨擘	-12.0717
哀而不傷	-12.0717
自外來	-12.0717
無所為而為	-12.0717
浚井	-12.0717
慎終追逺	-12.0718
君子哉若人	-12.0718
𥙷	-12.0718
墮三都	-12.0718
郝	-12.0719
顧麟士曰	-12.0719
冲	-12.0719
車中不内顧	-12.0719
心統性情	-12.0722
膏粱	-12.0722
据	-12.0722
誰毁誰譽	-12.0722
鶻突	-12.0722
子濯孺子	-12.0723
聞見之知	-12.0723
簟	-12.0724
壙	-12.0724
寬	-12.0725
登東山	-12.0726
孟僖子	-12.0726
整齊嚴肅	-12.0726
翺	-12.0726
鏤	-12.0728
舂	-12.0728
淅	-12.0728
顓㬰	-12.0728
隴	-12.0729
惡可已	-12.0729
眂	-12.073
蕭墻	-12.073
殍	-12.0732
埤	-12.0732
於䖍切	-12.0736
」	-12.0738
戰國之君	-12.0746
嗛	-12.0746
之總名	-12.076
見知於人	-12.0764
論語注疏卷十	-12.0798
子謂顔淵曰	-12.0814
有一定之	-12.0865
尺六寸	-12.0937
各有條理	-12.094
不得於心勿求於氣	-12.0984
伎	-12.1029
楷	-12.103
敬鬼神而逺之	-12.103
天下有道則政不在大夫	-12.1032
受堯之天下	-12.1033
君不君臣不臣父不父子不子	-12.1033
范甯曰	-12.1034
體信達順	-12.1036
夫何使我至於此極也	-12.1036
事親事長	-12.1036
浙	-12.1037
樂民之樂	-12.1037
袷	-12.1037
謳歌	-12.1038
體物不遺	-12.1038
無欲害人之心	-12.1038
子曰聽訟吾猶人也必也使無訟乎	-12.1038
習與性成	-12.1038
險阻	-12.1038
䋲	-12.1039
葷	-12.1039
鵝	-12.1039
麓	-12.1039
物各付物	-12.1039
堕	-12.1039
斗柄	-12.1039
不俟駕	-12.1039
上下與天地同流	-12.104
周禮地官	-12.104
語助辭	-12.104
氣以成形	-12.104
仰不愧俯不怍	-12.104
人不足與適也	-12.104
鐡	-12.1041
虆	-12.1041
訝	-12.1041
子文文子	-12.1041
蟻	-12.1041
搖	-12.1041
勅	-12.1042
孔子曰殷有三仁焉	-12.1042
孚齋	-12.1042
一言一動	-12.1042
今也則亡	-12.1042
岐山之下	-12.1042
罅	-12.1042
制禮作樂	-12.1043
爨	-12.1043
夏小正	-12.1043
法語之言	-12.1043
大器問	-12.1043
敷救反	-12.1043
徒杠	-12.1044
岸	-12.1044
明明德於天下	-12.1044
栢	-12.1044
㢤	-12.1044
何莫由斯	-12.1044
上知與下愚不移	-12.1044
蠧	-12.1044
於人何所不容	-12.1045
麒	-12.1045
栘	-12.1045
劫	-12.1045
麾	-12.1045
株	-12.1045
志士仁人	-12.1045
罅隙	-12.1045
虞仲夷逸	-12.1045
孫以出之	-12.1045
滲漏	-12.1046
詩云永言配命自求多福	-12.1046
何逺之有	-12.1046
莅	-12.1046
自諸侯出	-12.1046
檗山黄氏	-12.1046
檀	-12.1046
義利之辨	-12.1046
三人行必有我師	-12.1047
惡紫之奪朱	-12.1047
朝不信道	-12.1047
謫	-12.1048
懲創	-12.1048
䳘	-12.1048
陸象山	-12.1048
耄	-12.1048
貟	-12.1048
水之就下	-12.1049
耜	-12.1049
襲水土	-12.1049
所謂誠其意者	-12.1049
願無伐善無施勞	-12.1049
脩身以俟	-12.1049
輯釋亦引此説	-12.1049
薫陶	-12.1049
燼	-12.1051
翔而後集	-12.1051
長君之惡	-12.1051
好色好貨	-12.1051
枯槁	-12.1052
亞飯	-12.1053
修己治人	-12.1053
管仲之器小哉	-12.1053
翦	-12.1053
也註鄭𤣥曰至	-12.1053
存諸心	-12.1053
稚	-12.1053
壬寅	-12.1053
矛	-12.1053
三分去一	-12.1054
唐棣之華	-12.1054
郉	-12.1054
用天子禮樂	-12.1054
邶	-12.1054
挑	-12.1054
聳	-12.1055
。」4.	-12.1055
鉅	-12.1055
鍵	-12.1055
関	-12.1056
列女傳	-12.1056
力役之征	-12.1056
行所無事	-12.1056
升成拜	-12.1057
皆自明也	-12.1057
不以禮節之	-12.1057
船	-12.1057
耽	-12.1058
足食足兵	-12.1058
舊染之汚	-12.1059
黄衣狐裘	-12.1059
綺	-12.106
罃	-12.106
人自不察	-12.106
。」11.	-12.1061
逄蒙	-12.1061
無一物之不	-12.1062
筏	-12.1063
刄	-12.1064
邃	-12.1067
綬	-12.107
勒	-12.1073
惻隠羞惡	-12.1098
可謂孝矣	-12.1109
所已能	-12.1139
另是一	-12.1214
有助於	-12.1235
問云云曰	-12.1254
對曰未也	-12.1342
施諸己而不願亦勿施於人	-12.1369
蒿	-12.137
駑	-12.1372
方一里者	-12.1373
糓	-12.1375
豈若匹夫匹婦之為諒也	-12.1376
三宿出晝	-12.1377
㢲	-12.1378
畜許六反	-12.1379
與之粟九百	-12.1379
以其所愛及其所不愛	-12.1379
以財發身	-12.138
規摹	-12.1381
公孫衍張儀	-12.1382
無加諸人	-12.1382
孟子對曰於傳有之	-12.1382
天下莫能載	-12.1382
本晦菴朱氏説	-12.1382
以羊易牛	-12.1382
徐子以告夷子	-12.1382
施於有政	-12.1383
鬼神之情狀	-12.1383
於從政乎何有	-12.1383
雖曰未學吾必謂之學矣	-12.1383
是心足以王矣	-12.1384
事其大夫之賢者友其士之仁者	-12.1384
放辟邪侈	-12.1384
妻妾之奉	-12.1384
曰得其所哉得其所哉	-12.1384
齊景公田招虞人以旌不至將殺之	-12.1384
謹權量	-12.1385
禹稷顔回同道	-12.1385
性相近也習相逺也	-12.1385
立則見其參	-12.1385
如用之則吾從先進	-12.1385
辭尊居卑辭富居貧	-12.1385
耑	-12.1385
南方之强	-12.1386
拔本塞源	-12.1386
範我馳驅	-12.1386
脩道以仁	-12.1386
與朋友交言而有信	-12.1386
知義理之無窮	-12.1387
子莫之執中	-12.1387
吉月必朝服而朝	-12.1387
宋趙順孫撰	-12.1387
秬	-12.1387
阮	-12.1388
軟	-12.1388
仲叔圉	-12.1388
深切著明	-12.1388
亦不外是	-12.1388
殺身以成仁	-12.1388
孩提之童無不知愛其親	-12.1388
嬉	-12.1388
杳	-12.1389
亾	-12.1389
屺瞻	-12.1389
三家者以雍徹	-12.1389
頎	-12.1389
自大夫出	-12.1389
觽	-12.139
象憂亦憂象喜亦喜	-12.139
周旋中禮	-12.139
閹	-12.139
以徳報怨	-12.139
九夫為井	-12.139
老安少懐	-12.139
好之者不如樂之者	-12.139
詩大雅文王之篇	-12.139
何晏集解	-12.1391
不願乎其外	-12.1391
吾聞西伯善養老者	-12.1391
翰	-12.1391
兾	-12.1391
莫我知	-12.1392
生而取義	-12.1392
惠而不費	-12.1392
熏	-12.1392
薫	-12.1392
詁	-12.1392
管夷吾	-12.1392
憧	-12.1392
魂魄	-12.1393
莧	-12.1393
竪	-12.1394
耗	-12.1394
定公十四年	-12.1394
禮之用和為貴	-12.1394
芑	-12.1394
蠢	-12.1394
可不謹哉	-12.1394
就事物上	-12.1394
王者之迹熄	-12.1394
猗	-12.1395
言近而指逺	-12.1395
金仁山	-12.1395
龎	-12.1395
癸亥	-12.1396
流風餘韻	-12.1396
鰥寡孤獨	-12.1397
據於德	-12.1397
禹平水土	-12.1397
掘井	-12.1397
鼃	-12.1398
見不善如探湯	-12.1398
視君如	-12.1398
引其君於	-12.1398
雎	-12.1398
逾	-12.1398
利者義之和	-12.1399
慱	-12.14
譚梁生	-12.14
少孔子三十	-12.1401
均無貧	-12.1401
不舎晝夜	-12.1401
格庵趙氏曰	-12.1401
煬	-12.1403
倐	-12.1404
陘	-12.1405
扁	-12.1405
論語類考	-12.1405
貧而無諂	-12.1406
綂	-12.1406
悝	-12.1407
不可相無	-12.1408
元劉因撰	-12.141
。」2.	-12.1417
蒍	-12.1418
本體之明	-12.142
疋	-12.1434
意既誠	-12.1443
滿腔	-12.1491
閏	-12.1693
何如斯可謂	-12.1701
嘐嘐	-12.1715
養心莫善於寡欲	-12.173
殀壽不貳	-12.1733
皇朝太師	-12.1733
閎夭	-12.1733
妣	-12.1734
爭民施奪	-12.1735
見危致命	-12.1736
余氏辨曰	-12.1736
優優大哉	-12.1737
扇	-12.1738
子張問十世可知也	-12.1738
仁之實事親是也	-12.1739
有終身之憂	-12.1739
也使先知覺後知使先覺覺後覺	-12.1739
惻隱羞惡辭讓是非	-12.174
提掇	-12.174
子路請禱	-12.174
而不繹從而不改	-12.174
蓁	-12.174
企而及	-12.174
子路問聞斯行諸	-12.174
盆	-12.1741
見諸行事	-12.1741
吕侍講曰	-12.1741
格其非心	-12.1741
人事之儀則	-12.1741
觚哉觚哉	-12.1741
本泰問	-12.1741
循循善誘	-12.1742
其淵其天	-12.1742
舜亦以命禹	-12.1742
定四海之民	-12.1742
疾沒世而名不稱	-12.1742
泄栁申詳	-12.1743
君子所貴乎道者三	-12.1743
夫音符	-12.1743
援而止之而止	-12.1743
物猶事也	-12.1743
芬	-12.1743
翣	-12.1743
人告之以有過則喜	-12.1743
必有事焉而勿正心勿忘勿助長也	-12.1743
縲	-12.1744
緘	-12.1744
杼	-12.1744
踖	-12.1744
不忮不求何用不臧	-12.1744
有不善未嘗不知知之未嘗復行	-12.1744
動静語黙	-12.1744
軏	-12.1744
予也有三年之愛於其父母乎	-12.1744
不如丘之好學也	-12.1744
摶	-12.1744
齊必有明衣布	-12.1744
軔	-12.1744
輗	-12.1745
孰大於是	-12.1745
阼	-12.1745
躬自厚而薄責於人	-12.1745
籩豆之事則有司存	-12.1745
村	-12.1746
嬰兒	-12.1746
耆炙	-12.1746
廣土衆民	-12.1746
子産有君子之道四焉	-12.1746
桷	-12.1747
四書疑節	-12.1747
先立乎誠	-12.1747
簞瓢	-12.1747
肘	-12.1748
縝密	-12.1748
四時行焉百物生焉	-12.1748
吾末如之何也已矣	-12.1748
茁	-12.1748
鋤	-12.1748
不受命而貨殖	-12.1748
懲忿	-12.1748
私淑諸人	-12.1749
薰陶	-12.1749
以意逆志	-12.1749
在邦必聞在家必聞	-12.1749
可以寄百里之命	-12.1749
孟子又答之曰	-12.1749
其義則丘竊取之矣	-12.1749
焦漪園曰	-12.1749
理一而分殊	-12.1749
守約而施博	-12.1749
黼黻	-12.1749
好呼報反	-12.175
可謂好學也已	-12.175
彛倫	-12.175
仁義禮智根於心	-12.175
燥	-12.175
權只是經	-12.175
放於利而行	-12.1751
四書辨疑卷	-12.1751
求生以害仁	-12.1751
三年無改於父之道	-12.1751
仰之彌高	-12.1752
饕	-12.1752
柙	-12.1752
盤庚	-12.1752
襞	-12.1752
溥博淵泉而時出之	-12.1752
茨	-12.1753
修徳凝道	-12.1753
周禮天官	-12.1753
叠	-12.1753
分田制禄	-12.1753
少正卯	-12.1753
鴟	-12.1753
短於才	-12.1753
享禮有容色	-12.1754
綯	-12.1754
旻	-12.1754
無忠做恕不出	-12.1754
逝者如斯	-12.1755
以德報怨	-12.1755
以知為先	-12.1755
入道之門	-12.1755
繢	-12.1755
薇	-12.1756
季平子	-12.1756
隧	-12.1757
夫道一而已矣	-12.1757
鴻鵠	-12.1757
畛	-12.1757
皡	-12.1758
未知是否	-12.1758
姊	-12.1758
莖	-12.1759
孔叢子	-12.1759
寺	-12.176
天將以夫子為木鐸	-12.176
耀	-12.176
黶	-12.176
梢	-12.176
物之所以自成	-12.176
雁	-12.1761
馳騖	-12.1761
俄	-12.1762
鼈	-12.1764
必如是而後	-12.1765
矇	-12.1765
色取仁	-12.1765
麛裘	-12.1768
剡	-12.1778
無往不	-12.1784
箱	-12.1786
擾擾	-12.1836
孺	-12.2061
柰	-12.2088
油	-12.2091
畨	-12.2094
正而不譎	-12.21
人之有技	-12.2101
譎而不正	-12.2102
崇國文忠公臨安府鹽官張九成子韶	-12.2104
修文徳	-12.2104
十目所視十手所指	-12.2105
生質之美	-12.2105
子張問政子曰居之無倦行之以忠	-12.2105
汩	-12.2106
以不賢人之招招賢人	-12.2106
癰疽	-12.2106
富有四海之内宗廟饗之子孫保之	-12.2106
好是懿徳	-12.2106
父子不相見兄弟妻子離散	-12.2106
古之人有行之者	-12.2107
得衆得國	-12.2107
繼志述事	-12.2107
庶人在官者同禄禄足以代其耕也	-12.2107
如琢如磨	-12.2108
孝弟也者其為仁之本與	-12.2108
質諸鬼神而無疑	-12.2108
蘄	-12.2108
眞實無妄	-12.2108
定宇陳氏曰	-12.2108
作者七人	-12.2109
趍	-12.2109
事理當然之極	-12.211
記問之學	-12.211
潁	-12.211
不義之富貴	-12.2111
浴沂	-12.2111
李九我曰	-12.2111
虚齋蔡氏曰	-12.2111
民徳歸厚	-12.2111
孟子集編卷	-12.2111
天生徳於予	-12.2112
卹	-12.2112
某在斯某在斯	-12.2112
功烈如彼其卑	-12.2112
子貢曰文武之道未墜於地在人賢者識	-12.2112
學問之道無他求其放心而已矣	-12.2112
塞乎天地之間	-12.2112
以正名為先	-12.2112
濱聞文王作興曰盍歸乎	-12.2113
天作孽猶可違自作孽不可活此之謂也	-12.2113
有如時雨化之者	-12.2113
知為君之難	-12.2113
鈞是人也	-12.2113
有為者亦若是	-12.2113
聵	-12.2113
疚病也	-12.2113
君子固窮小人窮斯濫矣	-12.2113
虔	-12.2114
得於心而不失	-12.2114
物有本末事有終始知所先後則近道矣	-12.2114
其大者不賢者識其小者莫不有文	-12.2114
天子不能以天下與人	-12.2114
陂	-12.2114
瞞	-12.2114
祓除	-12.2114
徒善不足以為政	-12.2114
出疆必載質	-12.2114
豉	-12.2115
聰明聖知	-12.2115
不言不笑不取	-12.2115
夫子之言性與天道不可得而聞也	-12.2115
取瑟而歌	-12.2115
婚姻	-12.2116
歸罪於	-12.2116
死生有命富貴在天	-12.2116
仁之至義之盡	-12.2116
疏食飲水	-12.2116
保民而王	-12.2116
生而知之者上也學而知之者次也	-12.2116
余氏辯曰	-12.2116
窬	-12.2116
志動氣	-12.2117
殫	-12.2117
夫子循循然善誘人	-12.2117
工不信度	-12.2117
汜	-12.2117
漓	-12.2117
當堯之時	-12.2117
枉尺而直尋	-12.2117
迅雷風烈必變	-12.2118
霆	-12.2118
慣	-12.2118
無所忌憚	-12.2118
請野九一而助國中什一使自賦	-12.2118
呼吸	-12.2118
經綸天下之大經	-12.2118
邦有道不廢邦無道免於刑戮	-12.2118
黙識心通	-12.2118
股肱	-12.2119
伹	-12.2119
岀	-12.2119
旦晝之所為	-12.2119
皆古聖人也	-12.2119
滔	-12.2119
摭	-12.2119
戴盈之	-12.2119
篡弑之	-12.2119
日新又新	-12.212
其斯之謂與	-12.212
不敢作禮樂	-12.212
匿怨而友其人	-12.212
衿	-12.212
誰能出不由户	-12.212
乾道變化各正性命	-12.212
莾	-12.2121
黨之小子狂簡斐然成章不知所以裁之	-12.2121
郈	-12.2121
難與並為仁	-12.2121
受以為過	-12.2121
紓	-12.2121
簠簋	-12.2122
必世而後仁	-12.2122
如不可求從吾所好	-12.2122
逢君之惡	-12.2122
孔穎達	-12.2122
無或乎王之不智	-12.2122
人心惟危	-12.2123
仁内義外	-12.2123
子路行以告	-12.2123
何莫學夫詩	-12.2123
孟子卷第	-12.2124
嵩	-12.2126
挟	-12.2126
頫	-12.2126
標凖	-12.2126
悛	-12.2127
恂	-12.2127
易大傳	-12.2128
攝行相事	-12.2128
很	-12.2128
葦	-12.2129
山梁雌雉	-12.213
身不行道	-12.213
子叔疑	-12.213
齕	-12.2131
蹯	-12.2131
劈	-12.2133
球	-12.2134
覈	-12.2135
眾	-12.2137
漯	-12.2139
桂	-12.2143
孟子通卷	-12.2154
。」3.	-12.216
寛則得衆	-12.2249
可坐而致	-12.24
陸費墀	-12.2448
麥丘邑人	-12.2486
臧紇	-12.2488
倍上士上士倍中士中士倍下士下士與	-12.2489
覜	-12.2489
文王治岐	-12.2489
若存若亡	-12.2489
面而征西夷怨南面而征北狄怨曰奚	-12.249
莫見莫顯	-12.249
流動充滿	-12.249
七十而從心所欲不踰矩	-12.249
雞豚狗彘之畜無失其時	-12.2491
纘	-12.2491
凜	-12.2491
閤	-12.2492
食饐而餲	-12.2492
承之以謙	-12.2493
孟氏使陽膚為士師	-12.2493
聞一善言見一善行	-12.2493
請益曰無倦	-12.2493
其本亂而末治者否矣	-12.2493
興於詩立於禮成於樂	-12.2494
䟽食飲水	-12.2494
餱	-12.2495
朋友切切偲偲兄弟怡怡	-12.2495
人莫不飲食也鮮能知味也	-12.2495
蓧	-12.2496
錐	-12.2496
季康子問政於孔子	-12.2496
憂勤惕厲	-12.2496
願為小相	-12.2496
姻	-12.2496
我則異於是無可無不可	-12.2497
未詳孰是	-12.2497
深耕易耨	-12.2497
家貧親老	-12.2497
志士不忘在溝壑勇士不忘喪其元	-12.2497
道其不行矣夫	-12.2497
曰可得聞與	-12.2497
周因於殷禮所損益可知也	-12.2497
白石錢氏	-12.2497
糟	-12.2498
今之大夫今之諸侯之罪人也	-12.2498
子不語怪力亂神	-12.2498
褐寛博	-12.2498
昂	-12.2498
必也使無訟乎	-12.2498
天喪予	-12.2498
子張書諸紳	-12.2498
姚承菴曰	-12.2498
躬行君子則吾未之有得	-12.2498
子曰必也正名乎	-12.2498
鄉人皆好	-12.2498
魯人為長府	-12.2498
季氏將伐顓臾	-12.2498
一隂一陽之謂道	-12.2499
鞠	-12.2499
闘	-12.2499
夜氣不足以存	-12.2499
隻	-12.2499
至誠如神	-12.2499
生知學知	-12.2499
澤梁無禁	-12.2499
簞食瓢飲	-12.25
大同小異	-12.25
周公謂魯公	-12.25
建諸天地而不悖	-12.25
加我數年	-12.25
耳目鼻口	-12.25
戒慎乎其所不睹恐懼乎其所不聞	-12.2501
乗殷之輅	-12.2501
江熙云	-12.2501
也註馬融曰至	-12.2501
殞	-12.2501
玷	-12.2502
袒裼裸裎	-12.2502
俚	-12.2502
中也養不中	-12.2502
帯	-12.2502
如天如淵	-12.2502
暘	-12.2502
酈	-12.2503
明善而復其初	-12.2503
明睿所照	-12.2504
不格姦	-12.2504
斆	-12.2504
仕於季氏	-12.2504
攻乎異端	-12.2504
墁	-12.2504
縝	-12.2504
彼白而我白之	-12.2504
沽酒市脯不食	-12.2504
民無能名	-12.2505
東溪劉氏	-12.2505
具體而微	-12.2505
公伯寮其如命何	-12.2505
禮者天理之節文	-12.2505
多識於鳥獸草木之名	-12.2505
不甚相逺	-12.2505
匏𤓰	-12.2505
語之而不惰	-12.2505
跋	-12.2506
不患無位患所以立	-12.2506
渝	-12.2507
蔽陷離窮	-12.2507
張侗初曰	-12.2507
虞芮	-12.2507
旃	-12.2507
所包者廣	-12.2507
仁孝誠敬之至	-12.2507
以其兄之子妻之	-12.2508
至大至剛以直	-12.2508
山徑之蹊	-12.2508
行道而有得於心	-12.2508
台	-12.2509
所令反其所好	-12.2509
銅	-12.2509
磽	-12.2509
擇不處仁	-12.2509
黔	-12.251
脾	-12.251
盡臣道	-12.251
籔	-12.251
瑚	-12.2512
雌雉	-12.2512
安無傾	-12.2512
民信之矣	-12.2513
放流之	-12.2513
駸駸	-12.2513
𥙿	-12.2513
捆	-12.2513
百工居肆	-12.2513
清任和	-12.2513
使門人為臣	-12.2514
活潑	-12.2514
燎	-12.2515
門屏之間	-12.2517
杭	-12.252
二王後	-12.2521
兠	-12.2522
璜	-12.2525
梗	-12.2527
軓	-12.2529
家者流	-12.2541
呼報切下	-12.2551
于偽切下	-12.2563
7.1	-12.2577
顚倒	-12.2609
悽愴	-12.2879
子貢曰管仲非仁者與	-12.2886
纂箋	-12.2887
自經於溝瀆而莫之知也	-12.2888
劵	-12.289
失衆失國	-12.2891
豢	-12.2891
果哉末之難矣	-12.2892
與天地合徳	-12.2892
炭	-12.2892
畧更次序	-12.2892
齊人伐燕勝之	-12.2893
皁	-12.2893
先正其心欲正其心者先誠其意	-12.2894
車馬輕裘	-12.2894
道不同不相為謀	-12.2894
雖有粟吾得而食諸	-12.2894
斯民也三代之所以直道而行也	-12.2894
仰鑚瞻忽	-12.2894
燔肉不至	-12.2894
隨事精察而力行之	-12.2894
菟	-12.2895
七容反	-12.2895
持其志無暴其氣	-12.2895
老者安之朋友信之少者懷之	-12.2895
仰之彌髙	-12.2895
取之左右逢其原	-12.2895
庠序學校	-12.2895
博學詳説	-12.2895
有罪不敢赦	-12.2895
有物必有則	-12.2895
有言者不必有徳	-12.2895
瘠環	-12.2895
富與貴是人之所欲也	-12.2895
有勇知方	-12.2895
珪	-12.2895
大舜有大焉	-12.2895
亹亹	-12.2896
幽暗之中	-12.2896
地方百里而可以王	-12.2897
誠哉是言也	-12.2897
與下大夫言	-12.2897
致中和天地位焉萬物育焉	-12.2897
亂臣十人	-12.2897
天之未喪斯文也匡人其如予何	-12.2897
然則從之者與	-12.2897
傚	-12.2898
鄭聲淫佞人殆	-12.2898
尢	-12.2898
拆	-12.2898
夫天未欲平治天下也	-12.2898
方五百里	-12.2898
不處不去	-12.2898
老吾老以及人之老幼吾幼以及人之幼	-12.2899
先行其言	-12.2899
不知言無以知人	-12.2899
王者之迹熄而詩亡詩亡然後春秋作	-12.2899
侍於君子有三愆	-12.2899
禹聞善言則拜	-12.2899
升車必正立執綏	-12.2899
道二仁與不仁而已	-12.2899
徴諸庶民	-12.2899
周季侯曰	-12.2899
仁者安仁知者利仁	-12.29
六斗四升	-12.29
可耕且為	-12.29
非存心無以致知	-12.29
以杖叩其脛	-12.29
杠	-12.29
肸	-12.29
知音智	-12.2901
斯人也而有斯疾也	-12.2901
可以為善可以為不善	-12.2901
憲章文武	-12.2901
老者衣帛食肉黎民不飢不寒	-12.2901
苙	-12.2901
收其放心	-12.2901
鵞	-12.2901
禘自既灌而往	-12.2901
告子之不動心	-12.2901
蔡虚齋曰	-12.2902
都鄙用助法	-12.2902
來朝走馬	-12.2902
址	-12.2902
好徳如好色	-12.2902
知止而后有定定而后能	-12.2902
愕	-12.2902
蔣	-12.2902
億則屢中	-12.2902
耕者九一	-12.2902
昨	-12.2902
文王之囿方七十里	-12.2902
際可之仕	-12.2903
王宇泰曰	-12.2903
被堯舜之澤	-12.2903
伯夷叔齊孤竹君之二子	-12.2903
盡其道而死者正命也	-12.2903
千變萬化	-12.2903
君召使擯	-12.2903
致意焉	-12.2903
樲棘	-12.2904
康子饋藥	-12.2904
妹	-12.2904
周而不比	-12.2904
一日用其力於仁矣乎我未見力不足者	-12.2904
鏘	-12.2904
由之瑟奚為於丘之門	-12.2904
聒	-12.2904
蔓	-12.2905
踏	-12.2905
存諸中	-12.2905
斷髪文身	-12.2905
非才之罪	-12.2905
不可以長處樂	-12.2905
見齊衰者	-12.2906
饘	-12.2906
㨿	-12.2906
中立而不倚	-12.2906
何陋之有	-12.2906
朝服而立於阼階	-12.2906
顧涇陽曰	-12.2907
孰誰也	-12.2907
揔	-12.2907
觴	-12.2907
可與立未可與權	-12.2907
小人閒居為不善	-12.2907
黈	-12.2907
孟子注疏卷十	-12.2907
籌	-12.2908
儕	-12.2908
描	-12.2908
矧	-12.2908
翩	-12.2908
患得患失	-12.2908
山林川澤	-12.2908
猥	-12.2909
洋溢	-12.2909
逡	-12.2909
滹	-12.291
遂事不諫	-12.291
栻	-12.291
以直報怨	-12.291
兀	-12.291
椎	-12.2911
約我以禮	-12.2911
劭	-12.2911
仙	-12.2911
忙	-12.2912
明陳士元撰	-12.2913
哇	-12.2913
由堯舜至於湯	-12.2914
璧琮	-12.2915
吾已矣夫	-12.2915
安知其不	-12.2916
民事不可緩	-12.2916
靮	-12.2916
。」6.	-12.2917
訴	-12.2917
蜼	-12.2918
盂	-12.2919
杜元凱	-12.2922
埽	-12.2923
壟	-12.2926
無徃而不	-12.2931
物格而后知至	-12.2994
喟	-12.3272
酧	-12.3297
可欺也不可罔也	-12.3299
責難陳善	-12.3299
恫	-12.33
𣏌栁	-12.3301
治民事神	-12.3301
讀者不以辭害意	-12.3303
辭受取予	-12.3305
師尚父	-12.3305
名不正則言不順言不順則事不成	-12.3306
孟子纂箋卷	-12.3306
禄去公室	-12.3307
當理而無私心	-12.3307
吕與叔	-12.3308
緌	-12.3308
其所厚者薄而其所薄者厚未之有也	-12.3308
庸徳之行庸言之謹	-12.3308
陥	-12.3308
生事之以禮死葬之以禮祭之以禮	-12.3308
所求乎子以事父未能	-12.3308
子路第十三	-12.3309
孔子沐浴而朝告於哀公	-12.3309
今之所謂良臣古之所謂民賊也君不	-12.3309
非其君不事非其民不使治則進亂則退	-12.3309
裸	-12.331
南山有臺	-12.331
欲誠其意者先致其知致知在格物	-12.331
禮樂征伐自天子出	-12.331
仕止乆速	-12.331
國君死社稷	-12.331
頑嚚	-12.331
敕	-12.331
季氏第十六	-12.3311
廓然大公	-12.3311
賊夫人之子	-12.3311
思知人不可以不知天	-12.3311
樂正雅頌各得其所	-12.3311
大國地方百里	-12.3311
有徳者必有言	-12.3311
上知下愚	-12.3311
唇	-12.3311
憲問第十四	-12.3311
紬繹	-12.3311
所謂平天下在治其國者	-12.3311
彜	-12.3312
有諸己之謂信	-12.3312
嚚	-12.3312
以是心至斯受之	-12.3312
吾未見能見其過而内自訟	-12.3312
胡炳文撰朱子集註	-12.3312
陜	-12.3312
洋	-12.3313
先難而後獲	-12.3313
三分天下有其二以服事殷	-12.3313
素以為絢	-12.3313
上老老而民興孝上長長而民興弟	-12.3313
們	-12.3313
天何言哉四時行焉百物生焉天何言哉	-12.3313
擇其善者而從之多見而識之知之次也	-12.3313
雖多亦奚以為	-12.3313
飯扶晚反	-12.3314
先仁後知	-12.3314
孟子為卿於齊	-12.3314
刑于寡妻至于兄弟以御于家邦	-12.3314
權然後知輕重	-12.3314
孟子見梁襄王	-12.3314
文不在兹	-12.3314
臟	-12.3314
事父母能竭其力事君能致其身	-12.3314
孟子集註大全卷	-12.3314
鄒與魯閧	-12.3314
子曰桓公九合諸侯	-12.3314
不泄邇不忘逺	-12.3314
以約失之者鮮	-12.3315
視民如傷	-12.3315
君子欲訥於言而敏於行	-12.3315
不能期月守	-12.3315
剋	-12.3315
考證欽定四庫全書孟子注疏卷	-12.3315
慢令致期謂之賊	-12.3315
可須㬰離	-12.3315
舍音捨	-12.3316
文之以禮樂亦可以為成人矣	-12.3316
天生蒸民	-12.3316
千條萬緒	-12.3316
抱闗擊柝	-12.3316
千里而見王	-12.3316
學者讀這章書要知	-12.3317
芟六條	-12.3317
誚	-12.3317
良人出則必饜酒肉而後反	-12.3317
君子喻於義小人喻於利	-12.3317
剽	-12.3317
尚書逸篇	-12.3317
無以復加	-12.3317
凑	-12.3317
躱	-12.3317
􁂯	-12.3318
無行而不與二三子	-12.3318
無施勞	-12.3318
好世俗之樂	-12.3318
原泉混混	-12.3318
俠	-12.3318
難乎免於今之世矣	-12.3318
及其長也無不知敬其兄	-12.3318
先進第十一	-12.3318
其揆一也	-12.3318
文行忠信	-12.3318
不遇故去	-12.3318
梲	-12.3318
蕩蕩乎民無能名焉	-12.3318
仁政必自經界始	-12.3318
以友輔仁	-12.3318
瞿	-12.3319
邸	-12.3319
贏	-12.3319
穪	-12.3319
莊忠甫曰	-12.3319
惟日不足	-12.3319
以堯舜之道要湯	-12.3319
朗	-12.3319
賾	-12.332
善繼善述	-12.332
弃	-12.332
私覿愉愉如也	-12.332
曾子曰吾聞諸夫子	-12.332
秀而不實	-12.332
陽貨第十七	-12.332
溷	-12.332
魯自文公	-12.3321
舘	-12.3321
色斯舉矣翔而後集	-12.3321
許子必種粟而後食乎	-12.3321
直諒多聞	-12.3322
何怨之有	-12.3322
皿	-12.3322
不可盡信	-12.3322
豈欺我哉	-12.3322
必也聖乎	-12.3322
錡	-12.3323
居是邦不非其大夫	-12.3323
昻	-12.3323
亞於浴沂	-12.3323
誌	-12.3323
學而不思則罔思而不學則殆	-12.3323
責難於君謂之恭	-12.3323
壻	-12.3324
道之將行也與命也道之將廢也與命也	-12.3324
竭目力	-12.3324
白馬白人	-12.3324
猝	-12.3324
鳯凰	-12.3324
珩	-12.3325
王滹南曰	-12.3325
一動一靜	-12.3325
一草一木	-12.3325
子夏之門人問交於子張	-12.3325
紲	-12.3325
大全辨芑山張氏曰	-12.3325
出則事公卿入則事父兄	-12.3326
殻	-12.3326
璉	-12.3326
兜	-12.3326
湯霍林曰	-12.3327
失其㫖矣	-12.3327
輢	-12.3327
不圖為樂之至於斯	-12.3327
糜	-12.3327
好仁不好學其蔽也愚	-12.3328
可不畏哉	-12.3329
濂	-12.3329
陬	-12.3329
和無寡	-12.3329
恙	-12.3329
䢵	-12.3329
從容不廹	-12.333
衎	-12.3331
惬	-12.3331
披	-12.3332
銀	-12.3332
闌	-12.3333
蜃	-12.3334
瞰	-12.3334
帑	-12.3335
堊	-12.3335
綢	-12.3335
痿痺	-12.3335
佃	-12.3337
伶	-12.3339
簇	-12.3339
湎	-12.3341
縐	-12.3341
讙	-12.3347
此章入要畧一之	-12.3347
」19.	-12.335
以多能為聖	-12.3352
下孟切下	-12.3393
張丈切	-12.3399
憮	-12.3681
燖	-12.373
好好之民之所惡惡之此之謂民之父母	-12.3738
悚	-12.374
無所不知無所不能	-12.3741
煌	-12.3742
賢哉回也	-12.3742
襃	-12.3743
治骨角	-12.3743
片言可以折獄	-12.3743
廚	-12.3743
元詹道傳撰	-12.3743
可不勉哉	-12.3744
堯曰第二十	-12.3744
勿求於氣	-12.3744
顔淵第十二	-12.3744
子張第十九	-12.3744
子見南子子路不	-12.3745
聦明睿知	-12.3745
吾十有五而志于學	-12.3745
烖	-12.3745
道之以徳齊之以禮	-12.3745
君命召不俟駕行矣	-12.3745
由氣化有道之名	-12.3745
智愚賢不肖	-12.3745
能近取譬可謂仁之方也已	-12.3745
疾首蹙頞而相告曰吾王之好	-12.3745
欲治其國者先齊其家欲齊其家者先	-12.3745
之三子告不可	-12.3746
則民莫敢不用情	-12.3746
雍也第六	-12.3746
明哲保身	-12.3746
充實之謂美	-12.3746
國不以利為利以義為利	-12.3746
無入不自得	-12.3746
齊景公問政於孔子	-12.3746
霓	-12.3746
如有政雖不吾以吾其與聞之	-12.3746
嶺	-12.3747
與上大夫言	-12.3747
餕	-12.3747
勞於王事而不得養	-12.3747
府史胥徒	-12.3747
忠信行不篤敬雖州里行乎哉	-12.3747
舜相堯二十有八載	-12.3747
撙	-12.3747
蹵	-12.3747
伊尹耕於有莘之野	-12.3747
見不賢而内自省	-12.3748
蟠	-12.3748
君子恥其言而過其行	-12.3748
如有所譽者其有所試矣	-12.3748
述而第七	-12.3748
康誥曰如保赤子	-12.3748
易牛之心	-12.3748
無乃為佞乎	-12.3748
不至阿其所好	-12.3748
寡人願安承教	-12.3748
規矩凖繩	-12.3748
善人信人	-12.3749
非其義也非其道也	-12.3749
惟聖者能之	-12.3749
各止其所	-12.3749
武王曰予有亂臣十人	-12.3749
淡而不厭簡而文温而理	-12.3749
小人學道則易使也	-12.3749
从	-12.3749
子畏於匡顔淵後	-12.3749
可使足民	-12.3749
公叔文子之臣大夫僎與文子同升諸公	-12.3749
孟子曰伯夷辟紂居北海之	-12.3749
凊	-12.3749
何足道哉	-12.3749
儔	-12.3749
愚夫愚婦	-12.375
親賢樂利	-12.375
聖人之於天道	-12.375
斑	-12.3751
人皆有所不忍	-12.3751
皇甫謐	-12.3751
色厲内荏	-12.3751
此箇道理	-12.3751
優優大哉禮儀三百威儀三千	-12.3751
寘	-12.3751
茶	-12.3751
如其禮樂以俟君子	-12.3751
並行而不悖	-12.3751
食不語寢不言	-12.3752
掇	-12.3752
言忠信行篤敬	-12.3752
三月無君則弔	-12.3752
勞之來之匡之直之輔之翼之	-12.3752
叔孫武叔毁仲尼	-12.3752
伐夏救民	-12.3752
植其杖而芸	-12.3752
求仁得仁	-12.3752
知徳者鮮	-12.3752
詩書執禮	-12.3752
聲聞過情	-12.3752
子曰作者七人矣	-12.3752
務民義	-12.3753
莫之為而為	-12.3753
濓溪	-12.3753
我必不忠	-12.3753
五就湯五就桀	-12.3753
食飲水曲肱而枕之樂亦在其中矣	-12.3753
縂	-12.3753
此不再述	-12.3753
仁且智	-12.3753
堂堂乎張也難與並為仁矣	-12.3753
人而不仁如禮何人而不仁如樂何	-12.3753
居處恭執事敬與人忠	-12.3754
忿懥恐懼好樂憂患	-12.3754
車馬衣輕裘與朋友共敝之而無憾	-12.3754
殀夀不貳	-12.3754
舉直錯諸枉	-12.3754
迤	-12.3754
過門不入	-12.3754
擇其善者而從之	-12.3754
志者心之所之	-12.3755
踴	-12.3755
岩	-12.3755
古者民有三疾今也或是之亡也	-12.3755
畎畆之中	-12.3755
好直不好學其蔽也絞	-12.3755
先進於禮樂野人也後進於禮樂君子也	-12.3755
吾未見好德如好色者也	-12.3756
任重而道逺	-12.3756
宜兄宜弟	-12.3756
居吾語女	-12.3756
以不忍人之心行不忍人之政	-12.3756
實與不實	-12.3756
侍食於君君祭先飯	-12.3756
耼	-12.3756
非帷裳必殺之	-12.3756
此謂知本此謂知之至也	-12.3756
唤	-12.3757
成己仁也成物知也	-12.3757
雌	-12.3757
尊徳樂道	-12.3757
膽	-12.3757
章參看	-12.3757
子以四教文行忠信	-12.3758
篤於親則民興於仁故舊不遺則民不偷	-12.3758
䜟	-12.3758
寤寐	-12.3758
樂善不倦	-12.3758
亂大謀	-12.3758
父母之不我愛於我何哉	-12.3758
鴆	-12.3759
胞	-12.3759
以善及人而信從者衆	-12.3759
甄	-12.3759
拳	-12.3759
攀	-12.376
叔梁紇	-12.376
跲	-12.376
鎧	-12.376
公輸子	-12.3761
致主於王道	-12.3761
出入無時莫知其鄉	-12.3761
眊	-12.3762
上智與下愚不移	-12.3762
孝子慈孫	-12.3763
皞	-12.3764
嘬	-12.3764
柴也愚	-12.3764
窮斯濫	-12.3764
舍之則藏	-12.3765
暴虎馮河	-12.3765
絅	-12.3765
針	-12.3766
泝	-12.3768
箸	-12.3768
蹄	-12.3769
恚	-12.3769
從吾所好	-12.3769
蹟	-12.3773
上律下襲	-12.3774
蚔	-12.3791
胾	-12.381
粲	-12.4167
斉	-12.4177
民無所措手足	-12.4185
灸	-12.4188
子曰不得中行而與之必也狂狷乎	-12.4188
所惡於上毋以使下所惡於下毋以事上	-12.419
賢遍反	-12.4192
其餘則日月至焉而已矣	-12.4193
十一月徒杠成十二月輿梁成	-12.4194
門人厚葬之	-12.4195
傾者覆之	-12.4195
達不離道	-12.4197
不講聞義不能徙不善不能改是吾憂也	-12.4197
不啻若自其口出	-12.4197
立不中門行不履閾	-12.4198
立賢無方	-12.4198
傒	-12.4198
一暴十寒	-12.4198
二氣之良能	-12.4198
牼	-12.4198
久則久可以速則速	-12.4198
之斯行綏之斯來動之斯和	-12.4199
亦悖而入貨悖而入者亦悖而出	-12.4199
瓚	-12.4199
徴招角招	-12.4199
無政事則財用不足	-12.4199
分崩離析	-12.4199
以其所不愛及其所愛也	-12.4199
厩	-12.4199
所藏乎身不恕而能喻諸人者未之有也	-12.4199
即之也温	-12.4199
孟子對曰昔者大王居邠狄人侵之	-12.4199
幽獨之中	-12.42
祛	-12.42
八口之家	-12.42
機變之巧	-12.42
懌	-12.4201
局量褊淺	-12.4201
果於忘世	-12.4201
鬨	-12.4201
為人父止於慈與國人交止於信	-12.4201
與上大夫言誾誾如也	-12.4201
言忠信行篤敬雖蠻貊之邦行矣言不	-12.4201
牧野之	-12.4201
君子有大道必忠信以得之驕泰以失之	-12.4202
行有不慊於心則餒矣	-12.4202
子見齊衰者冕衣裳者與瞽者	-12.4202
誠中形外	-12.4202
燕人畔	-12.4202
以文害辭	-12.4202
子曰是聞也非達也	-12.4202
囂	-12.4202
歸斯受之	-12.4202
躡	-12.4202
南宮适	-12.4202
非禮勿視非禮勿聽非禮勿言非禮勿動	-12.4202
謂夫莫之禁	-12.4202
見志不從又敬	-12.4203
可與適道未可與立可與立未可與權	-12.4203
關譏而不征	-12.4203
於予與何誅	-12.4203
逃墨必歸於楊	-12.4203
㒺	-12.4203
人受天地之中以生	-12.4203
安見方六七十如五六十而非邦也者	-12.4203
毛猶有倫上天之載無聲無臭至矣	-12.4203
韞	-12.4203
有事弟子服其勞有酒食先生饌	-12.4203
净	-12.4203
燕居獨處	-12.4204
猶之與人也出納之吝謂之有司	-12.4204
之將喪斯文也後死者不得與於斯文也	-12.4204
周有大賚善人是富	-12.4204
作一句讀	-12.4204
不患人之不己知	-12.4204
孟子致為臣而歸	-12.4204
有大人之事有小人之事	-12.4204
見賢而不能舉舉而不能先	-12.4205
凰	-12.4205
有盛饌必變色而作	-12.4205
葱	-12.4205
涼涼	-12.4205
鑽之彌堅	-12.4205
臨之以莊	-12.4206
齊之以刑	-12.4206
克伐怨欲不行焉可以為仁矣	-12.4206
言未及之而言謂之躁	-12.4206
惟大人為能格君心之非	-12.4206
欲潔其身而亂大倫	-12.4206
聽訟吾猶人也	-12.4206
单	-12.4206
我非生而知之者好古敏以求之者也	-12.4206
無物不有無時不然	-12.4206
克明峻徳	-12.4206
無一朝之患	-12.4206
聿	-12.4206
不咈乎愛之理	-12.4207
無情者不得盡其辭大畏民志此謂知本	-12.4207
此三節書是	-12.4207
陳代曰不見諸侯	-12.4207
先仲氏	-12.4207
仁則吾不知	-12.4207
天下之本在國國之本在家家之本在身	-12.4207
先行其言而後從之	-12.4207
君子之所以教者五	-12.4207
曰可者與之其不可者拒之	-12.4207
思過半矣	-12.4208
來者不拒	-12.4208
吾無隠乎爾	-12.4208
槀	-12.4208
久要不忘平生之言	-12.4208
大貉小貉	-12.4208
規模卑狹	-12.4208
子曰吾猶及史之闕文也	-12.4209
金聲而玉振之	-12.4209
苗而不秀	-12.4209
姪	-12.4209
詩書六藝之文	-12.4209
陽貨欲見孔子孔子不見	-12.4209
入孝出弟	-12.4209
不息則乆	-12.4209
有道則見無道則隠	-12.4209
今之從政者殆而	-12.4209
三知三行	-12.4209
吾無行而不與二三子者是丘也	-12.4209
邦人稱之曰君夫人	-12.4209
隰	-12.421
仁主於愛	-12.421
抑王興甲兵	-12.421
違道不遠	-12.421
體無不具	-12.421
遙	-12.421
於心目之間	-12.421
恔	-12.421
見之雖少必作過之必趨	-12.421
論性不論氣	-12.421
善推其所為	-12.4211
廸	-12.4211
拱把之桐梓	-12.4211
筆列反	-12.4211
慷	-12.4211
堅甲利兵	-12.4211
蜂	-12.4211
勿求於心	-12.4211
非禮勿動	-12.4211
詮	-12.4211
天地之所以為大	-12.4211
小役大弱役强	-12.4211
其爭也君子	-12.4211
未入於室	-12.4212
衣敝緼袍	-12.4212
子問公叔文子於公明賈曰	-12.4212
容光必照	-12.4212
凛凛	-12.4212
彼長而我長之	-12.4212
齊景公有馬千駟	-12.4213
黽	-12.4213
以人性為仁義	-12.4213
溢乎四海	-12.4213
在陳曰歸與歸與	-12.4213
以類而推	-12.4213
刖	-12.4213
挨	-12.4213
稱家之有無	-12.4214
猾	-12.4214
譚	-12.4214
過中失正	-12.4214
親之過大	-12.4214
子所雅言	-12.4215
四書講義困勉錄卷	-12.4215
醤	-12.4215
不王不禘	-12.4215
騰	-12.4215
狡	-12.4215
五世而斬	-12.4215
岱	-12.4215
柞	-12.4215
兩楹之間	-12.4215
舎生取義	-12.4215
瀹	-12.4215
聲色臭味	-12.4216
璟	-12.4216
婁	-12.4216
長馬長人	-12.4216
棬	-12.4216
成事不説	-12.4217
窶	-12.4217
我不欲人之加諸我也吾亦欲無加諸人	-12.4217
蘧瑗	-12.4217
非公事未嘗至於偃之室	-12.4217
昔者吾友嘗從事於斯矣	-12.4217
主敬行恕	-12.4218
博我以文	-12.4218
妁	-12.4219
鋸	-12.4219
不得中行而與之	-12.4219
肄	-12.4219
必也射乎	-12.4219
偏之為害	-12.422
由與猶同	-12.422
暱	-12.422
公儀子	-12.422
畷	-12.4222
山節藻棁	-12.4222
明無不照	-12.4222
家之本在身	-12.4223
父慈子孝	-12.4223
煑	-12.4223
遵道而行	-12.4224
廏	-12.4231
軹	-12.4236
脤	-12.4237
煎	-12.4237
丁張並	-12.4281
好問好察	-12.4413
子曰君子義以為	-12.4478
中抽出	-12.4523
如示諸掌	-12.4551
芟五條	-12.459
萬二千五百家	-12.4661
説大人則藐之	-12.4665
毋以交於左	-12.4666
哉抑亦可以為次矣	-12.4667
秦誓曰若有一个臣	-12.4668
君子於其言無所苟而已矣	-12.4668
天下有道則庶人不議	-12.4668
魯平公將出	-12.4669
毁瓦畫墁	-12.4669
天未欲平治天下	-12.4669
子曰弗如也吾與女弗如也	-12.4669
燠	-12.467
葛伯仇餉	-12.467
自明誠謂之教	-12.467
雝	-12.467
入公門鞠躬如也如不容	-12.467
事不成則禮樂不興禮樂不興則	-12.467
壹是皆以脩身為本	-12.4671
無憂者其惟文王乎	-12.4671
言必信行必果	-12.4672
學不厭智也教不倦仁也	-12.4672
季路問事鬼神子曰未能事人焉能事鬼	-12.4672
勿視其巍巍	-12.4673
在邦域之中	-12.4673
一萬八百年	-12.4673
峻極於天	-12.4673
帝臣不蔽簡在帝心	-12.4673
元按弟子傳云	-12.4674
搢	-12.4674
子謂公冶長可妻也	-12.4674
惟送死可以當大事	-12.4674
一家仁一國興仁一家讓一國興讓	-12.4674
子路有聞未之能行唯恐有聞	-12.4674
充實而有光輝之謂大	-12.4675
是集義所生者非義襲而取之也	-12.4675
孫綽云	-12.4675
巍巍乎舜禹之有天下也而不與焉	-12.4675
朝與下大夫言侃侃如也	-12.4675
仁者必有勇勇者不必有仁	-12.4676
莫敢不敬上好義則民莫敢不服上好信	-12.4676
勉勉循循	-12.4676
君子之道四丘未能一焉	-12.4676
孟子集疏卷	-12.4676
未若貧而樂富而好禮者也	-12.4677
於前也在輿則見其倚於衡也夫然後行	-12.4677
駮	-12.4677
子貢曰子如不言則小子何述焉	-12.4677
徯我后	-12.4677
啄	-12.4677
鵲	-12.4677
非天之降才爾殊	-12.4677
子貢問君子子曰先行其言而後從之	-12.4677
[...]
