<unk>	0
<s>	0
</s>	0
,	-1.85131
。	-3.34026
、	-3.34745
:「	-4.43659
!	-4.46623
。」	-4.8435
者	-4.91348
?	-4.99344
時	-5.26608
;	-5.37959
:『	-5.39751
爾時	-5.39794
有	-5.43722
不	-5.4665
彼	-5.51765
已	-5.53708
如是	-5.55891
為	-5.63907
。「	-5.65146
我	-5.65976
世尊	-5.75324
?」	-5.82664
。』	-5.85297
曰	-5.8543
言	-5.85827
:	-5.90611
行	-5.91062
比丘	-5.93127
若	-5.93869
諸比丘	-5.95809
故	-5.96578
於	-5.97202
此	-5.98648
是	-6.03204
以	-6.05122
法	-6.08166
生	-6.09792
之	-6.18007
身	-6.22675
見	-6.2608
也	-6.27197
而	-6.27425
無	-6.27945
人	-6.31876
得	-6.32548
耶	-6.35888
如	-6.36665
云何	-6.37523
心	-6.38049
所	-6.38996
中	-6.4086
阿難	-6.4145
▁	-6.42105
受	-6.43602
一時	-6.43935
便	-6.44439
其	-6.45327
當	-6.47802
及	-6.48121
說	-6.50741
汝	-6.5245
謂	-6.54121
欲	-6.54231
是時	-6.56377
王	-6.57532
如來	-6.60976
亦	-6.61534
即	-6.6205
知	-6.62382
何	-6.66253
意	-6.7258
樂	-6.74317
聞佛所說	-6.75449
一	-6.75903
諸	-6.76432
佛	-6.76958
想	-6.77105
復	-6.79468
或	-6.79583
自	-6.79637
住	-6.80829
從	-6.81311
非	-6.81384
食	-6.81878
名	-6.81941
復次	-6.83843
至	-6.84198
歡喜奉行	-6.85753
天	-6.87746
如是我聞	-6.88665
苦	-6.89213
與	-6.89386
婆羅門	-6.90011
在	-6.9201
出	-6.92461
色	-6.92829
盡	-6.93048
念	-6.93706
作	-6.94055
處	-6.94739
善	-6.95464
道	-6.96216
皆	-6.99124
來	-6.99326
大	-6.99619
梵志	-6.99995
令	-7.02497
相	-7.02705
乃至	-7.02862
無有	-7.05037
上	-7.05564
等	-7.06879
語	-7.10252
今	-7.10586
聞	-7.10721
是故	-7.11272
滅	-7.11549
能	-7.12685
問	-7.12712
識	-7.14447
於是	-7.15427
入	-7.15994
?』	-7.16764
一切	-7.16994
則	-7.1765
白佛言	-7.17656
眾	-7.18456
起	-7.18555
應	-7.18622
三	-7.19007
答曰	-7.19391
所以者	-7.1981
是謂	-7.21412
因	-7.23461
眾生	-7.24144
二	-7.24359
我今	-7.25312
世尊告諸比丘	-7.26648
施	-7.26726
世間	-7.26765
觀	-7.27286
沙門	-7.28123
四	-7.29202
常	-7.29216
白	-7.29376
事	-7.29747
多	-7.30318
可	-7.31544
使	-7.32115
取	-7.33124
斷	-7.33802
惡	-7.34432
所謂	-7.35062
死	-7.35256
捨	-7.36198
解脫	-7.37143
止	-7.37319
瞿曇	-7.37532
離	-7.38392
覺	-7.40572
持	-7.4132
善哉	-7.42268
求	-7.43775
清淨	-7.44545
是名	-7.45257
水	-7.46326
本	-7.47071
耳	-7.47217
著	-7.47405
習	-7.4883
(	-7.4891
地	-7.49794
愛	-7.50437
去	-7.50578
義	-7.51885
諸賢	-7.53588
然	-7.53842
經	-7.54663
供養	-7.55091
長者	-7.55103
戒	-7.55781
坐	-7.56369
報	-7.56824
修	-7.57513
大王	-7.5768
勝	-7.57708
我等	-7.5833
!」	-7.59211
下	-7.6021
俱	-7.61452
向	-7.61556
定	-7.61593
亦不	-7.62559
前	-7.62992
答	-7.63657
若有	-7.63794
佛言	-7.63807
正	-7.64382
隨	-7.65098
佛說此經已	-7.65324
子	-7.65755
佛住舍衛國祇樹給孤獨園	-7.66184
還	-7.66652
業	-7.67514
極	-7.68255
病	-7.68553
教	-7.69752
喜	-7.70575
又	-7.70666
。」「	-7.70684
口	-7.71969
世尊告曰	-7.72595
具足	-7.72925
不得	-7.72982
明	-7.73289
五	-7.73655
成就	-7.73663
火	-7.74129
思惟	-7.74206
猶如	-7.75846
過	-7.76021
亦復如是	-7.76062
後	-7.77503
汝等	-7.78476
沙門瞿曇	-7.78665
智	-7.78926
空	-7.79176
信	-7.79929
具	-7.79992
六	-7.8001
各	-7.80265
當知	-7.80721
成	-7.8106
但	-7.81235
是為	-7.8124
弟子	-7.81265
歡喜	-7.81341
因緣	-7.81669
答言	-7.82025
尊者	-7.83336
依	-7.83613
論	-7.84003
不能	-7.84243
不知	-7.84292
慧	-7.84335
諸天	-7.8449
無量	-7.85055
師	-7.85132
願	-7.85267
淨	-7.85688
)	-7.85824
悉	-7.86263
現	-7.86501
餘	-7.86703
共	-7.8685
世	-7.87149
佛在舍衛國祇樹給孤獨園	-7.8732
少	-7.87443
力	-7.87522
學	-7.88402
緣	-7.8877
》	-7.88853
衣	-7.89564
先	-7.89669
度	-7.89711
利	-7.90648
七	-7.90684
家	-7.90825
命	-7.9172
尊者阿難	-7.91835
瞋恚	-7.92408
除	-7.92606
聞如是	-7.93423
種	-7.93513
尊	-7.93756
國	-7.93985
聲	-7.94007
他	-7.94718
等正覺	-7.94995
智慧	-7.95051
譬如	-7.95458
乎	-7.95926
種種	-7.9777
說法	-7.9904
往	-7.99078
味	-7.99084
解	-7.9923
未	-7.9937
迦葉	-7.99583
。』」	-7.99718
憂	-7.99804
作是念	-7.99926
.	-8.00137
更	-8.00309
好	-8.00346
重	-8.00474
眼	-8.00527
必	-8.00725
佛告	-8.01001
居士	-8.01557
所以然者	-8.01724
由	-8.01864
所說	-8.01973
內	-8.02164
父母	-8.02634
舍利弗	-8.0285
飲食	-8.02966
賢者	-8.03214
身壞命終	-8.03363
異	-8.03665
難	-8.04725
第一	-8.04737
彼人	-8.05079
用	-8.05207
風	-8.05221
吾	-8.05626
。』「	-8.05635
涅槃	-8.06197
一者	-8.06951
實	-8.07644
香	-8.08182
生死	-8.08268
息	-8.08811
痛	-8.09437
八	-8.09925
果	-8.10014
不可	-8.10174
老	-8.10477
女	-8.1089
出家	-8.10987
觸	-8.11932
趣	-8.11975
名曰	-8.12335
將	-8.12418
莫	-8.12551
癡	-8.12822
何等為	-8.13524
分別	-8.13915
精進	-8.14261
二者	-8.1438
貪	-8.15514
轉	-8.15919
於彼	-8.15956
無常	-8.16016
稽首佛足	-8.16709
汝今	-8.17182
名為	-8.17273
分	-8.17363
立	-8.17979
足	-8.18244
小	-8.18374
樹	-8.18387
集	-8.18481
所有	-8.18519
設	-8.18604
乃	-8.19243
恒	-8.19427
妙	-8.19947
根	-8.20703
告	-8.21536
三者	-8.21853
到	-8.21991
問曰	-8.22118
唯	-8.22442
恚	-8.22489
鼻	-8.22905
詣	-8.2306
方便	-8.23074
數	-8.23114
日	-8.23281
外	-8.23937
猶	-8.24063
地獄	-8.2441
聚	-8.24452
愚癡	-8.24878
功德	-8.25047
對	-8.25502
比丘尼	-8.25892
雖	-8.25942
人民	-8.25982
廣	-8.26182
頭	-8.26197
此是	-8.26227
既	-8.26547
殺	-8.26659
或有	-8.26913
同	-8.27644
母	-8.27987
舌	-8.28203
見已	-8.28272
惱	-8.29099
律	-8.29566
觀察	-8.30053
護	-8.30218
梵行	-8.30495
界	-8.30544
命終	-8.31234
象	-8.31327
福	-8.31734
彼比丘	-8.31913
不樂	-8.32009
山	-8.32422
金	-8.32589
復問	-8.32592
初	-8.33132
之法	-8.33675
稱	-8.33793
於此	-8.33973
次	-8.34056
復有	-8.34228
十	-8.3452
壞	-8.34567
高	-8.34986
無所著	-8.35033
神	-8.35326
墮	-8.35582
壽	-8.35715
華	-8.36055
何等	-8.36343
失	-8.36458
長	-8.3664
車	-8.37023
佛告比丘	-8.37441
寶	-8.37699
邪見	-8.37871
當作是學	-8.38148
頭面禮足	-8.38367
過去	-8.38587
門	-8.38707
牛	-8.38763
皆悉	-8.38914
此人	-8.39234
聞已	-8.39257
光明	-8.39432
會	-8.39726
不見	-8.39854
梵	-8.39937
乘	-8.40178
安	-8.40447
梵天	-8.40529
增	-8.40708
退坐一面	-8.40736
請	-8.40762
形	-8.41673
亦復	-8.41864
沒	-8.41928
遠離	-8.42283
結	-8.43087
舍	-8.43841
滿	-8.45171
修習	-8.45298
亦無	-8.45594
邪	-8.45707
斯	-8.45791
馬	-8.46002
安隱	-8.46087
於中	-8.46095
:「『	-8.46339
三昧	-8.46359
亦有	-8.46611
帝釋	-8.46808
龍	-8.47017
魔	-8.47114
自然	-8.47165
布施	-8.47494
有一	-8.47572
往詣	-8.48102
第二	-8.48254
化	-8.48352
發	-8.48382
四者	-8.48578
離欲	-8.48601
花	-8.48659
思	-8.48923
摩	-8.49112
今日	-8.49172
城	-8.49739
梵行已立	-8.49814
流	-8.50238
意云何	-8.50377
正法	-8.50382
來詣佛所	-8.50445
方	-8.50573
而說偈言	-8.50854
患	-8.50948
聽	-8.51109
夫	-8.51644
如實知	-8.5173
德	-8.51823
不也	-8.52035
太子	-8.52327
又復	-8.52432
尊者舍梨子	-8.5283
所作	-8.53274
歡喜隨喜	-8.53346
出家學道	-8.53627
深	-8.53767
女人	-8.53879
天王	-8.54534
治	-8.54538
修行	-8.5477
要	-8.54901
唯然	-8.54937
忍	-8.55096
我當	-8.55269
便作是念	-8.5549
獲	-8.55622
不應	-8.55963
正見	-8.55975
害	-8.56241
恭敬	-8.56475
如此	-8.56634
羅	-8.57266
諦聽	-8.57563
善逝	-8.57679
不善	-8.57892
若比丘	-8.58156
誰	-8.58223
在一面坐	-8.58255
照	-8.58749
聖	-8.58795
竟	-8.59263
何以故	-8.59293
三十三天	-8.59664
轉輪聖王	-8.59828
歎	-8.60014
光	-8.60537
往詣佛所	-8.6082
獨	-8.61035
舉	-8.6105
千	-8.61066
復作是念	-8.6149
罪	-8.61582
悲	-8.61635
速	-8.6171
主	-8.61981
親	-8.62
正念	-8.62489
證	-8.62618
自在	-8.62877
摩納	-8.63184
劫	-8.63717
己	-8.63735
無明	-8.63923
九	-8.6435
合	-8.64577
縛	-8.64764
。』」「	-8.65396
佛說如是	-8.65491
疑	-8.65494
No	-8.6563
終	-8.65787
月	-8.66088
《	-8.66201
飲	-8.66209
久	-8.66231
宜	-8.66437
優婆塞	-8.66993
持戒	-8.67117
相應	-8.67167
却坐一面	-8.67516
不復	-8.67656
非法	-8.6793
甚	-8.68313
)。	-8.68501
僧	-8.68519
不淨	-8.68537
云何為	-8.68718
亦如是	-8.68744
之所	-8.68834
我所	-8.68936
遊	-8.6898
無所	-8.69107
財	-8.69208
歸	-8.69444
造	-8.69605
諦	-8.69997
邊	-8.70086
真實	-8.7009
五百	-8.70125
善法	-8.70502
知如真	-8.70707
致	-8.70805
棄	-8.70861
禪	-8.70881
婬	-8.71292
那	-8.71566
各各	-8.71632
物	-8.71683
守	-8.71739
疾	-8.72142
尊者舍利弗	-8.7274
今當	-8.7289
雨	-8.74426
默然	-8.75132
大臣	-8.75182
剃除鬚髮	-8.75271
無欲	-8.75321
之中	-8.7561
即便	-8.75665
即從坐起	-8.75891
而不	-8.76053
乞食	-8.76183
而去	-8.76259
勿	-8.76699
煩惱	-8.76721
波斯匿王	-8.76742
不生	-8.76841
此法	-8.76979
燒	-8.77044
畜生	-8.77081
其心	-8.77179
手	-8.77192
苾芻	-8.77343
不為	-8.77481
林	-8.77698
破	-8.77759
不著	-8.78028
須	-8.7836
說偈言	-8.78485
天下	-8.7866
佛告諸比丘	-8.7867
天子	-8.79034
往至	-8.79066
別	-8.79497
婆	-8.79596
覆	-8.7978
尋	-8.80011
婦	-8.80051
普	-8.80177
賢聖	-8.80337
若有比丘	-8.81338
身體	-8.81757
釋提桓因	-8.81883
童子	-8.82018
慢	-8.82117
然後	-8.82164
敬	-8.82273
執	-8.82511
貪欲	-8.82695
夜	-8.82812
覺知	-8.8314
放逸	-8.83144
佛說	-8.83324
陀	-8.83618
第三	-8.83893
恐怖	-8.84201
年	-8.8443
興	-8.8454
厭	-8.84708
剎利	-8.84712
迦	-8.84857
草	-8.84959
阿	-8.85037
五者	-8.85125
如法	-8.85192
遙見	-8.85625
臥	-8.85715
不如	-8.86034
終不	-8.8648
長夜	-8.8705
無上	-8.87091
輩	-8.87194
所作已辦	-8.87197
百	-8.87266
父	-8.87433
是我	-8.87455
到已	-8.87567
遠	-8.87909
柔軟	-8.87967
并	-8.88254
於我	-8.88259
計	-8.88305
何謂	-8.88448
奉	-8.88761
云	-8.88811
即說偈言	-8.89165
衣被	-8.89239
以此	-8.89479
財物	-8.8975
一心	-8.90138
熱	-8.90221
宮殿	-8.90478
彼天子	-8.90679
不起	-8.90805
壽命	-8.90839
目連	-8.90949
最上	-8.91274
及諸	-8.91528
阿羅漢	-8.91718
著衣持鉢	-8.91803
彼時	-8.92088
釋	-8.92098
一人	-8.92226
黑	-8.92365
何故	-8.92619
是名為	-8.9294
視	-8.93648
直	-8.93739
鉢	-8.94149
爾	-8.9415
令我	-8.94223
可得	-8.94269
親近	-8.94689
被	-8.94867
散	-8.94916
水精	-8.9518
其人	-8.95216
我聞如是	-8.95244
白世尊言	-8.95385
稅	-8.9541
藏	-8.95599
我亦	-8.95818
喻	-8.96254
睡眠	-8.96301
銀	-8.96432
禮	-8.96449
莊嚴	-8.96654
園	-8.96794
中有	-8.96973
夫人	-8.96977
近	-8.96993
無恚	-8.97178
學道	-8.972
調	-8.97601
多聞	-8.97673
居	-8.97702
告曰	-8.9815
受持	-8.98251
脫	-8.98376
汝當	-8.98836
捨家	-8.98929
作是言	-8.98954
天帝釋	-8.9897
最	-8.99225
之人	-8.99233
快樂	-8.99697
開	-8.99728
誦	-9.00005
白世尊	-9.00072
諸根	-9.00101
之處	-9.00161
宮	-9.00225
悉皆	-9.00321
陰	-9.00334
難陀	-9.00491
加	-9.00501
有人	-9.0059
比	-9.0061
面	-9.00854
現在	-9.00974
波	-9.01218
唯願世尊	-9.01426
所行	-9.01542
欲得	-9.01676
畏	-9.01713
自知	-9.0173
海	-9.02015
攝	-9.02044
惠施	-9.02174
修妬路	-9.02295
最勝	-9.0251
其身	-9.0284
天上	-9.02859
師子	-9.0292
究竟	-9.03187
間	-9.03191
雜	-9.03225
般涅槃	-9.03386
犯	-9.03493
賢	-9.03555
真	-9.03609
眷屬	-9.03628
示	-9.03683
有此	-9.03723
盛	-9.0389
遍	-9.0434
訖	-9.04431
極為	-9.04493
神足	-9.04497
如是說	-9.04526
次第	-9.04629
座	-9.04712
妄言	-9.04735
國王	-9.04817
後世	-9.05012
蓋	-9.05277
村	-9.05379
我於	-9.0554
姓	-9.05611
未來	-9.05801
白言	-9.05828
不離	-9.05902
佛告阿難	-9.06013
順	-9.06118
老死	-9.06182
調伏	-9.06227
滅盡	-9.06603
無為	-9.06604
池	-9.06733
虛妄	-9.0683
為是	-9.07075
世尊告	-9.07107
聚落	-9.07219
置	-9.07428
偈	-9.07446
亦當	-9.07456
阿修羅	-9.0749
遊行	-9.07768
端正	-9.0809
隨時	-9.08107
動	-9.08254
寧	-9.08326
告諸比丘	-9.08475
瞋	-9.08586
施設	-9.08662
若干	-9.08738
惡不善法	-9.08952
阿那律陀	-9.09025
安樂	-9.091
奉事	-9.09167
轉輪王	-9.0921
器	-9.09803
滿足	-9.09862
妄語	-9.09946
正智	-9.09984
若復	-9.1003
刺	-9.10066
我說	-9.10112
通	-9.10164
穢	-9.10228
菩薩	-9.10401
字	-9.10465
作是說	-9.1055
不信	-9.10744
進	-9.10756
舍梨子	-9.10888
漸	-9.10919
宿	-9.11142
亦非	-9.1134
說此偈已	-9.11415
堅固	-9.11429
服	-9.11516
寂滅	-9.11551
葉	-9.11884
苦痛	-9.12078
無想	-9.1213
體	-9.1233
如是見	-9.12505
名色	-9.12596
無家	-9.12697
於色	-9.12749
不受	-9.12888
教授	-9.12946
不苦不樂	-9.12949
增長	-9.13025
退	-9.13228
他人	-9.13352
至信	-9.13786
床	-9.13854
!』	-9.13956
聚落主	-9.1396
𧗪	-9.14025
北	-9.14172
至真	-9.14175
提	-9.14245
樹下	-9.14365
......」	-9.14459
我是	-9.14468
土	-9.14533
不解	-9.15
有漏	-9.15335
無餘	-9.154
矣	-9.15468
所見	-9.15584
一切眾生	-9.15607
遂	-9.15675
我不	-9.15751
走	-9.15759
更樂	-9.16016
摩訶男	-9.16099
王言	-9.16163
以為	-9.16174
殺生	-9.16277
苦行	-9.1637
了	-9.16404
人間	-9.16503
守護	-9.16581
捉	-9.16724
珍寶	-9.16739
骨	-9.17088
熟	-9.17248
佛住王舍城迦蘭陀竹園	-9.17273
輸汝	-9.17289
決定	-9.17354
比丘當知	-9.17403
若人	-9.17413
飯	-9.17492
捨離	-9.17494
毒	-9.17523
罪人	-9.17755
眾人	-9.17822
阿須倫	-9.17945
心解脫	-9.17963
四方	-9.18035
讚歎	-9.18281
稽首禮足	-9.18432
不住	-9.18572
今此	-9.18714
四天王	-9.18799
心穢	-9.19511
提婆達兜	-9.19601
智者	-9.19741
愛樂	-9.19814
出要	-9.19885
一向	-9.20055
伏	-9.2009
愚	-9.20269
諸有	-9.20333
至世尊所	-9.20946
青	-9.21131
拔	-9.21164
!」「	-9.21547
憶	-9.21875
木	-9.21913
慧解脫	-9.21924
經行	-9.2211
始	-9.22191
慈	-9.22235
著袈裟衣	-9.22564
一處	-9.22625
放	-9.22931
「	-9.23116
首	-9.23182
第四	-9.23208
節	-9.23245
漏	-9.2328
有四	-9.23327
大眾	-9.23368
十二	-9.2338
其中	-9.23443
有大	-9.2359
為我	-9.23603
即沒不現	-9.23736
五欲	-9.23761
或復	-9.2406
二人	-9.24111
怨	-9.2437
何所	-9.24412
亦爾	-9.24416
諍	-9.2449
生地獄中	-9.2455
作禮而去	-9.24603
隨意	-9.24621
畢	-9.24627
應當	-9.24639
目	-9.24856
鬼	-9.24905
聲聞	-9.25328
眾中	-9.25418
和	-9.25451
棄捨	-9.25508
善知識	-9.25542
減	-9.25597
永	-9.25906
天人	-9.26004
憂慼	-9.26147
路	-9.26363
肉	-9.26513
七寶	-9.26552
卿	-9.26632
是等正覺	-9.26654
適	-9.26722
河	-9.26842
我已	-9.26869
無畏	-9.26879
勅	-9.26884
知法	-9.26967
不放逸	-9.27463
止息	-9.27556
果報	-9.27672
兩	-9.27707
眾多比丘	-9.27715
饒益	-9.27745
心不	-9.27818
渴	-9.28023
呼	-9.2811
唯願	-9.28126
日月	-9.28177
於法	-9.28194
伽	-9.28346
何等為四	-9.28562
兒	-9.28682
鬼神	-9.2882
毀	-9.28823
懷	-9.28869
吹	-9.28884
平等	-9.2899
餓鬼	-9.29045
云何為四	-9.2907
東方	-9.29153
所作已作	-9.29262
類	-9.29335
甚奇	-9.29352
神通	-9.29401
微妙	-9.29459
怒	-9.29459
飯食	-9.2947
為人	-9.2951
得道	-9.2951
記	-9.29622
于	-9.29644
苦惱	-9.29697
便有	-9.29712
尊重	-9.29805
染著	-9.29898
一法	-9.29962
唯有	-9.29989
世人	-9.30052
住處	-9.30066
有所	-9.30219
却	-9.30251
鐵	-9.30349
反	-9.3042
半	-9.30538
石	-9.30753
又問	-9.3081
若無	-9.30911
七重	-9.30982
寂靜	-9.31211
愛欲	-9.31318
盜	-9.31452
遇	-9.31633
如上說	-9.31778
虛空	-9.31929
此比丘	-9.31983
彼等	-9.3199
世界	-9.32079
恐	-9.32286
無復	-9.32418
東	-9.32419
阿那律	-9.32427
懈怠	-9.3244
染	-9.32475
況復	-9.32478
大師	-9.325
從是	-9.32522
損	-9.32558
乳	-9.32702
嚴	-9.32748
志	-9.32885
赤	-9.32923
不以	-9.32923
能令	-9.32955
境界	-9.33006
此事	-9.33276
積	-9.33277
五陰	-9.33377
四種	-9.33558
性	-9.33968
何等為三	-9.34258
無數	-9.34313
在家	-9.34319
多聞聖弟子	-9.34352
聖弟子	-9.34552
皮	-9.34617
沙	-9.34657
繫	-9.34811
行者	-9.34898
如真	-9.3501
之時	-9.35082
報言	-9.35119
▁[	-9.35278
得解脫	-9.35539
晝夜	-9.35663
顏色	-9.35857
辟支佛	-9.35884
而生	-9.3591
七重欄楯	-9.35953
聖眾	-9.35954
若我	-9.35956
天人師	-9.35971
正定	-9.36151
無我	-9.36258
舍利弗言	-9.36262
大海	-9.36284
見佛	-9.3633
滅度	-9.36487
善思念之	-9.36547
無上士	-9.36649
世尊說偈答	-9.36697
如彼	-9.36751
即時	-9.37042
賊	-9.37175
鳥	-9.3734
外道	-9.37415
若不	-9.37608
世尊即說偈言	-9.37776
作是念已	-9.37778
林中	-9.37858
若見	-9.37928
犯戒	-9.3794
優婆夷	-9.37957
達	-9.37982
恩愛	-9.37988
復以	-9.38091
堂	-9.38194
髮	-9.38229
今者	-9.38284
有三	-9.38317
精勤	-9.38326
當為汝說	-9.38358
思想	-9.38462
慳	-9.38584
樓	-9.3866
當為	-9.38727
語言	-9.38741
兩舌	-9.38746
隨順	-9.38784
諸佛	-9.38837
際	-9.38862
之心	-9.39053
而得	-9.39059
衣服	-9.39063
一一	-9.3907
此處	-9.39073
或以	-9.39167
打	-9.39249
亦如是說	-9.39304
制	-9.39454
昔	-9.39517
二十	-9.39519
譬	-9.3968
為第一	-9.39841
因此	-9.39924
羅云	-9.39959
稱譽	-9.40105
於佛	-9.40146
聞法	-9.40203
亦如	-9.40813
亦然	-9.40855
毛	-9.40918
輪	-9.40998
是則	-9.41036
即是	-9.41096
作如是言	-9.41121
瘡	-9.41477
雲	-9.41492
我欲	-9.4161
尊者阿那律陀	-9.41776
是苦	-9.41813
世間解	-9.4183
奴婢	-9.4281
財寶	-9.42836
舍利	-9.42851
故曰	-9.42853
正命	-9.4287
有何	-9.42887
眾僧	-9.42946
正受	-9.43013
如是比丘	-9.4305
南	-9.43059
刀	-9.43074
不念	-9.43191
非我	-9.43352
造作	-9.43373
不可稱計	-9.43405
熾然	-9.43609
齋	-9.43728
倒	-9.43758
勸發渴仰	-9.43759
餘如上說	-9.43849
嫉妬	-9.43891
鬪諍	-9.43903
若彼	-9.44103
亂	-9.44132
教誡	-9.44143
皆是	-9.44172
有是	-9.44173
強	-9.44199
男女	-9.44201
男	-9.44227
望	-9.44377
心意	-9.44426
稽首	-9.44448
悔	-9.44493
梨	-9.44538
垢	-9.44551
之道	-9.44612
波旬	-9.44753
邪婬	-9.44852
淨戒	-9.44994
六者	-9.45104
修梵行	-9.45176
就	-9.45222
為首	-9.45328
其義	-9.4534
恩	-9.45614
頌	-9.45705
數數	-9.461
大仙人	-9.46137
我生已盡	-9.46192
稱說	-9.4622
云何為五	-9.46227
凡	-9.463
族	-9.46321
都	-9.46413
而行	-9.46648
。《	-9.46655
於諸	-9.46731
四大	-9.46783
瓔珞	-9.46885
支	-9.46902
是以	-9.47012
縱廣	-9.47114
情	-9.47122
養	-9.47127
士夫	-9.47135
毘	-9.47216
何者	-9.47242
白衣	-9.47297
未曾	-9.47374
其有	-9.47422
......	-9.47452
多有	-9.47544
而作是念	-9.47554
坐禪	-9.47607
白佛	-9.47653
北方	-9.47779
施與	-9.47792
降	-9.47861
問訊	-9.47925
有二	-9.47948
尼	-9.4808
魔波旬	-9.48117
微	-9.48122
歡悅	-9.48152
周那	-9.48253
頂禮佛足	-9.48267
即從座起	-9.48391
勤	-9.48534
憍慢	-9.48556
收	-9.4863
▁「	-9.48641
手執	-9.48662
央掘魔	-9.48671
破壞	-9.48897
熾盛	-9.48964
欲令	-9.48979
羅漢	-9.49115
知足	-9.49214
惡行	-9.49258
塵	-9.49283
不與取	-9.49305
文	-9.49345
當以	-9.49496
作是	-9.49533
身心	-9.49621
彼一切	-9.49743
愛念	-9.49757
授	-9.49792
當來	-9.49831
活	-9.50077
作如是說	-9.5017
增上	-9.50203
諸沙門	-9.50233
諸法	-9.50261
伺	-9.50413
讚	-9.50485
住住	-9.50579
鬪	-9.50697
戲	-9.50729
以其	-9.50832
變	-9.51008
麤	-9.51034
五蓋	-9.51068
以是因緣	-9.51169
彼天	-9.51291
人中	-9.51409
善男子	-9.515
善惡	-9.51542
降伏	-9.51967
美	-9.52076
第五	-9.52109
天女	-9.52139
生於	-9.52276
欲求	-9.52321
且	-9.52333
多人	-9.52363
未得	-9.52453
八萬四千	-9.52505
善說	-9.52718
勇猛	-9.52915
佛遊舍衛國	-9.52982
說偈	-9.52986
七日	-9.5299
西方	-9.53027
苦滅	-9.53048
名字	-9.53128
妻	-9.53348
虛	-9.53472
不與	-9.53611
受教	-9.53644
祇樹給孤獨園	-9.53708
拘薩羅王波斯匿	-9.53749
存	-9.53795
似	-9.53842
昇	-9.53907
軍	-9.53915
枝	-9.53926
雜色	-9.53953
法者	-9.53961
敷	-9.53972
氣	-9.5405
正語	-9.54082
所以	-9.54233
所知	-9.54257
四諦	-9.54372
自知不受後有	-9.54473
我見	-9.54596
共相問訊	-9.54734
長老	-9.54788
生天	-9.54874
歡喜踊躍	-9.54878
而住	-9.54883
消	-9.54993
違	-9.55065
藥	-9.55083
憶念	-9.55105
阿難言	-9.55147
黃	-9.5527
上下	-9.55313
貧窮	-9.55456
何法	-9.55792
理	-9.5592
正使	-9.56005
便得	-9.56082
忉利天	-9.56133
非為	-9.56144
有餘	-9.56181
今正是時	-9.5628
作如是	-9.56379
必當	-9.56387
拘	-9.56552
異我	-9.56556
問言	-9.56732
短	-9.56856
己身	-9.56993
不動	-9.57004
牟尼	-9.57079
仙人	-9.57129
若有人	-9.57192
是佛所說	-9.57196
若有沙門	-9.57261
末	-9.57364
跡	-9.57364
遮	-9.57419
離諸	-9.57676
我為	-9.57738
內外	-9.5781
西	-9.5795
正業	-9.58186
御	-9.5832
絕	-9.58375
量	-9.58394
種子	-9.58449
今我	-9.58514
從彼	-9.58566
十六	-9.58754
見之	-9.58767
像	-9.588
快	-9.58816
威儀	-9.58834
所問	-9.58846
正覺	-9.58896
妻子	-9.5895
不善法	-9.59079
知見	-9.59181
往來	-9.59299
不用	-9.59346
明行成	-9.59376
疑惑	-9.59602
承事	-9.59674
諸弟子	-9.59716
不更受	-9.59738
容色	-9.5977
和合	-9.59807
益	-9.59844
留	-9.5991
避	-9.59924
上座	-9.59952
善來	-9.5999
比丘者	-9.60013
意行	-9.60039
輕	-9.6006
越	-9.60148
逆	-9.60171
已知	-9.60283
眠	-9.60405
沐浴	-9.60449
羊	-9.60503
?』」	-9.60573
所為	-9.60577
無食	-9.60636
安隱快樂	-9.60663
珠	-9.60762
云何比丘	-9.60789
自念	-9.60805
民	-9.60856
如是知	-9.60898
或有一人	-9.60941
諸人	-9.60971
中間	-9.61005
增益	-9.61139
三種	-9.61155
善思	-9.61211
不喜	-9.6135
可愛	-9.61425
中阿含經	-9.61456
彼諸比丘	-9.61585
無所有	-9.61644
默	-9.61859
不久	-9.61984
群	-9.62007
最後	-9.6215
在此	-9.62165
比丘白佛	-9.62175
精舍	-9.62191
漏盡	-9.62222
湯藥	-9.62276
當復	-9.62315
眾多	-9.6236
焰	-9.62469
頗有	-9.62787
三界	-9.62939
易	-9.62958
飛	-9.62969
為彼	-9.6302
罵	-9.6305
禁戒	-9.63129
歲	-9.63181
法御	-9.632
眾祐	-9.63217
在勝林給孤獨園	-9.63223
尊者大目揵連	-9.63311
佛語	-9.63337
欲使	-9.63381
侍者	-9.63381
當念	-9.63532
室	-9.63758
福德	-9.63774
?」「	-9.6382
及以	-9.63835
云何名為	-9.6385
比丘是	-9.63916
品	-9.63927
惡業	-9.63939
嫉	-9.6394
如前	-9.63949
生已盡	-9.64029
音	-9.64044
道人	-9.64111
不能自勝	-9.64153
彼眾生	-9.64182
此名	-9.6427
諸眾生	-9.64302
塔	-9.64325
細	-9.6463
泥	-9.64644
佛說是	-9.6465
央掘魔羅	-9.6466
閻浮提	-9.64687
哀	-9.64806
負	-9.64817
無漏	-9.64883
利益	-9.6502
甚特	-9.65057
覩	-9.65125
猶如有人	-9.65189
已說	-9.65213
趣向	-9.65289
磨	-9.65318
何以	-9.65325
所欲	-9.65341
不食	-9.65351
無不	-9.65386
慧者	-9.65388
得阿羅漢	-9.65629
位	-9.65687
七者	-9.65738
啼哭	-9.6578
臣	-9.65784
周匝	-9.65804
東晉罽賓三藏瞿曇僧伽提婆譯	-9.65942
此天	-9.66074
血	-9.66085
講堂	-9.66153
世尊以偈答	-9.66173
有信	-9.66405
云何知	-9.6642
▁No	-9.66433
天神	-9.66449
障	-9.66481
不捨	-9.6653
身行	-9.66563
何為	-9.66612
漸漸	-9.66648
獄卒	-9.66691
遣	-9.66898
未曾有法	-9.66906
大人	-9.6692
所造	-9.66946
吐	-9.67026
若能	-9.67262
已斷	-9.67281
不愛	-9.67307
婆羅	-9.67407
以是	-9.6747
廣大	-9.67644
句	-9.67752
而作是說	-9.67802
明日	-9.67816
比丘僧	-9.6784
救	-9.67904
正方便	-9.67942
底	-9.67961
何因	-9.68047
作如是念	-9.68064
供	-9.68094
乞	-9.68147
猗	-9.68303
錢財	-9.68466
尚	-9.68494
是也	-9.68557
優陀夷	-9.68561
離於	-9.68584
喜樂	-9.68631
堅	-9.68651
光色	-9.68669
舊	-9.68678
念言	-9.68686
得法眼淨	-9.68762
若欲	-9.6877
化作	-9.6881
號佛	-9.68823
慚愧	-9.69127
意惡行	-9.69221
左右	-9.69242
見法	-9.69283
新	-9.69395
平	-9.69428
如是如是	-9.69442
四十	-9.69835
佛名	-9.69968
云何為三	-9.70037
我有	-9.70134
衰	-9.70198
貴	-9.70247
彌	-9.70384
則不	-9.70565
當有	-9.7061
多所饒益	-9.70635
敗壞	-9.70653
四面	-9.70701
稱歎	-9.70746
彼便	-9.70947
知識	-9.71176
王舍城	-9.7118
辭	-9.71182
謂之	-9.71338
濟	-9.71378
慈心	-9.71389
龍王	-9.7139
教化	-9.71431
訶	-9.71448
所生	-9.71451
賢者阿難	-9.71463
不作	-9.71568
於後夜時	-9.71627
雜阿含經	-9.71631
絕妙	-9.71686
記說	-9.71983
不如實知	-9.72007
當學	-9.72081
甘露	-9.72219
泥犁中	-9.72385
綺語	-9.72548
增壹阿含經	-9.72615
種姓	-9.72647
惡趣	-9.72671
)《	-9.72737
無間等	-9.72751
心念	-9.72756
欺誑	-9.72794
世尊便說此偈	-9.7285
纏	-9.7288
彼諸	-9.72955
此三	-9.7297
士	-9.73012
浮	-9.73325
惡法	-9.73333
能得	-9.73441
呵	-9.73461
無病	-9.73512
眾苦	-9.73537
豈	-9.73608
獄	-9.73658
有國名	-9.73755
無色	-9.73796
阿那含	-9.74105
遊戲	-9.74145
值	-9.74198
根本	-9.74307
辯	-9.74325
真諦	-9.74377
蛇	-9.74432
城郭	-9.74475
修習多修習	-9.74486
鹿	-9.74509
羅睺羅	-9.74511
我今寧可	-9.74583
晝	-9.746
幢	-9.74691
欲界	-9.74801
思念	-9.74839
非是	-9.74855
魔王	-9.7486
四禪	-9.74892
須陀洹	-9.74908
田	-9.7501
」	-9.75151
災患	-9.75162
呪	-9.75266
律中	-9.75307
三法	-9.75413
然彼	-9.75458
使人	-9.75641
手足	-9.75682
草木	-9.75691
怖	-9.75697
晨朝著衣持鉢	-9.75714
行道	-9.75715
側	-9.75732
一為	-9.75746
所言	-9.75802
富	-9.75809
因緣故	-9.75831
不殺	-9.75836
以此因緣	-9.75836
王子	-9.76127
君	-9.76156
眼識	-9.7628
流布	-9.76394
傷	-9.76463
苦樂	-9.76488
亦復不	-9.76616
無事	-9.76617
更有	-9.76733
不欲	-9.76795
而來	-9.76796
不失	-9.768
此實餘虛	-9.76822
了知	-9.76907
專	-9.76913
麁	-9.76944
王所	-9.76977
倍	-9.77033
空處	-9.77208
心得解脫	-9.77302
善處	-9.77343
於世間	-9.77355
工師	-9.77455
食已	-9.7748
渡	-9.77544
細滑	-9.77573
顛倒	-9.77609
入城乞食	-9.77651
演說	-9.77693
浴池	-9.77757
福田	-9.77785
出生	-9.77796
亦知	-9.77797
展轉	-9.77822
況	-9.77852
須彌山	-9.77863
在前	-9.77924
莫令	-9.77965
皆有	-9.77987
著衣	-9.78165
却住一面	-9.78268
仰	-9.78332
惡口	-9.78441
威德	-9.78485
禪思	-9.78555
彌勒	-9.78586
白王言	-9.78627
甚深	-9.78678
六入	-9.78689
怨家	-9.7869
脚	-9.78715
能知	-9.78755
不能得	-9.78786
岸	-9.78872
當求方便	-9.78933
諸苾芻	-9.78941
丈夫	-9.79033
入於	-9.79074
夜叉	-9.79131
諸惡	-9.79191
實爾	-9.7932
布	-9.79321
變易	-9.79428
狗	-9.79433
腹	-9.79447
曾	-9.79498
悅	-9.79533
必得	-9.79587
垂	-9.79611
常當	-9.79631
來至	-9.79738
不行	-9.79753
象寶	-9.79834
帝	-9.79891
索	-9.79969
心生	-9.80117
聖王	-9.80189
城中	-9.80281
有愛	-9.80292
無異	-9.8031
三為	-9.80313
正志	-9.80325
廣說	-9.80336
佛世尊	-9.80337
不斷	-9.80391
十一	-9.80395
則無	-9.80451
須臾	-9.80791
如人	-9.80841
永除	-9.80844
金銀	-9.80905
洗	-9.80919
俗	-9.81013
波羅	-9.81078
戰	-9.81087
此諸	-9.81195
步	-9.81271
正思惟	-9.81303
樂受	-9.81363
即以	-9.81402
不忍	-9.81415
清	-9.81487
已過	-9.81505
演	-9.81545
闇	-9.81577
汝可	-9.81664
知已	-9.81693
在於	-9.81721
佛在	-9.81734
莖	-9.81734
魚	-9.8182
蟲	-9.81846
】	-9.81861
刀杖	-9.81899
博聞	-9.81908
無量善修	-9.81982
須彌山王	-9.82034
父王	-9.82143
餘人	-9.82248
作如是見	-9.82283
得度	-9.82384
冥	-9.82395
淨除其心	-9.82414
若好	-9.82448
天宮	-9.8251
身見	-9.82524
已盡	-9.82528
復更	-9.82569
暫	-9.82624
奪	-9.82653
粳米	-9.82661
我今欲	-9.82666
於正法	-9.82675
薄	-9.82839
引	-9.82847
信心	-9.82856
若有眾生	-9.82888
傳	-9.8291
究竟苦邊	-9.82932
利養	-9.82942
作是語	-9.83068
優	-9.83079
汝央掘魔羅	-9.83106
是法	-9.83148
與我	-9.83286
咸	-9.83355
無知	-9.83373
馬寶	-9.83396
彼若	-9.83573
里	-9.8363
園中	-9.83669
惟	-9.83707
聞佛	-9.83757
各自	-9.83818
七寶所成	-9.83886
圍遶	-9.84013
迴	-9.84051
所得	-9.84087
滅法	-9.84157
辦	-9.84167
第七	-9.84385
已得	-9.84394
汝當住	-9.84404
見此	-9.84406
住於	-9.84437
憂苦	-9.84532
死者	-9.84664
不忘	-9.84708
極大	-9.84958
不說	-9.84958
一日	-9.85012
至彼	-9.85094
非常	-9.85103
污	-9.85125
汝今當速	-9.85142
共相	-9.85154
慧劍	-9.85172
再三	-9.85186
修行精勤	-9.85217
而汝不	-9.85243
恒河沙剎	-9.85257
無結無怨	-9.85259
及餘	-9.85279
是三	-9.85297
受生	-9.85357
相見	-9.85363
大地	-9.85508
之事	-9.85559
百歲	-9.8574
知時	-9.85771
抱	-9.85954
有四種	-9.86027
至誠	-9.86051
聞之	-9.86057
有五	-9.86067
而告之	-9.86109
驢	-9.86226
是人	-9.86244
惡不善之法	-9.86249
逼	-9.86285
無上善法	-9.86318
男子	-9.86365
齊	-9.8639
無恚無諍	-9.8639
曠野	-9.86437
幻	-9.86551
人所	-9.86569
信根	-9.86571
皆由	-9.86593
四法	-9.86604
蜱肆	-9.86642
給	-9.86675
瓶	-9.86745
寂	-9.8679
他化自在天	-9.86818
形體	-9.86862
則為	-9.86922
某	-9.8693
意識	-9.86955
或有人	-9.8697
作惡	-9.87002
不遠	-9.87105
忘	-9.87153
逐	-9.87233
第六	-9.87323
沙門婆羅門	-9.87323
其上	-9.87363
拘絺羅	-9.87427
出現於世	-9.87511
舉衣鉢	-9.87523
園林	-9.87545
若醜	-9.87628
極妙	-9.87643
往至世尊所	-9.87659
長者子	-9.87733
此身	-9.87741
臥具	-9.87771
正念正智	-9.87788
惡知識	-9.87841
不飲酒	-9.8786
世尊為	-9.87908
彼云何名為	-9.87971
尼拘陀	-9.87998
食之	-9.88001
南方	-9.88187
並	-9.88192
今世	-9.88195
自稱	-9.88204
導	-9.88212
慳貪	-9.88226
二為	-9.88394
我身	-9.88451
嚴飾	-9.88505
不貪	-9.88523
無邊	-9.88523
領	-9.88576
迦葉如來	-9.88584
極廣甚大	-9.88673
無有是處	-9.88674
佛為	-9.88675
備	-9.88886
如我	-9.88917
助	-9.88921
待	-9.88931
指	-9.88962
除去	-9.88981
不盜	-9.89074
空中	-9.89116
不敢	-9.89125
三十	-9.89147
以法	-9.8925
不同	-9.89291
大海水	-9.8931
十五日	-9.89375
二名	-9.89483
甚難	-9.89542
釋種	-9.89611
水中	-9.89658
應供	-9.89701
整衣服	-9.8973
羅網	-9.89759
轉增	-9.89808
當得	-9.89886
此非	-9.89893
有大威德	-9.89923
名稱	-9.89971
得須陀洹	-9.89987
便生	-9.90005
蒙	-9.90012
依無欲	-9.90088
一切世間	-9.90189
來者	-9.90295
諸方	-9.90297
屬	-9.90304
供給	-9.90339
不聞	-9.90383
何處	-9.90398
識亦復如是	-9.90427
密	-9.90542
生時	-9.9064
差	-9.90743
濁	-9.90766
馳走	-9.90807
調御	-9.90827
急	-9.90827
此亦如是	-9.90851
國土	-9.90868
送	-9.90884
結跏趺坐	-9.90932
許	-9.9099
彼於	-9.91075
隨其	-9.91099
幾	-9.91112
出世	-9.91243
繫著	-9.9141
差別者	-9.91427
八者	-9.91497
萬	-9.91514
建立	-9.91533
度世	-9.91712
無穢	-9.91714
風吹	-9.91718
笑	-9.91727
當知是	-9.91878
卑	-9.91921
諛諂	-9.91925
貪著	-9.91942
在彼	-9.91954
蜜	-9.92007
屈	-9.92017
未久	-9.92022
異學	-9.92045
猪	-9.92074
遍滿一切世間成就遊	-9.92205
而言	-9.92275
曉	-9.9236
兵	-9.92577
意念	-9.92578
為說	-9.92658
苦滅聖諦	-9.92669
如是受	-9.92889
常念	-9.92907
殿	-9.92943
作沙門	-9.9295
還宮	-9.92988
言語	-9.93
何等為五	-9.93163
筋	-9.93197
若干種	-9.93244
寂然	-9.93292
共論	-9.93316
便退而去	-9.93347
若汝	-9.9343
曾見	-9.93491
於其	-9.9355
安住	-9.93625
未生	-9.93656
一名	-9.93663
聞此語已	-9.93742
端	-9.93746
便為	-9.94016
親族	-9.94074
亡	-9.94109
奉行	-9.94194
六十	-9.94216
此中	-9.94289
不取	-9.94292
飲酒	-9.943
烏陀夷	-9.94396
依於	-9.94468
洗浴	-9.9449
苦受	-9.94504
或時	-9.94541
六情	-9.94555
諸漏已盡	-9.9459
宿命	-9.94613
求索	-9.94619
彼為	-9.94655
相在	-9.94685
愁	-9.9472
比丘眾	-9.9522
何者為	-9.95224
決	-9.95237
此沙門	-9.95269
如是等	-9.9528
無智	-9.95298
輪寶	-9.95323
自歸	-9.95461
諸王	-9.95521
曲	-9.95576
箭	-9.95639
玉女	-9.95683
地獄中	-9.9569
所應	-9.95779
見我	-9.95782
四部之眾	-9.95802
心無放逸	-9.95805
杖	-9.95806
億	-9.95828
隨所	-9.95839
恒河沙	-9.95861
有異比丘	-9.95866
而自	-9.95869
心與慈俱	-9.95874
詣佛所	-9.95977
有為	-9.95985
居士子	-9.95988
忽	-9.9601
身口意	-9.96024
何況	-9.96032
作禮	-9.96046
彼岸	-9.96124
善根	-9.96152
勸	-9.9624
遺	-9.96263
山中	-9.96273
以手	-9.96287
已滅	-9.96323
若近	-9.96324
御者	-9.96348
生天上	-9.96427
七法	-9.96564
或有一	-9.96629
還歸	-9.96763
尸	-9.96778
百千	-9.96833
所可	-9.96844
攝受	-9.96855
落	-9.96857
設有	-9.96929
愛敬	-9.96965
則知	-9.97071
作是思惟	-9.97105
冷	-9.97112
損減	-9.97176
胎	-9.97233
佛告婆羅門	-9.97264
若遠	-9.973
『	-9.97393
斷除	-9.97426
無惡	-9.97499
意欲	-9.97594
長養	-9.97596
所須	-9.97629
賢善	-9.97773
憙	-9.978
詣世尊所	-9.97879
隨喜	-9.97945
如實知之	-9.97979
復言	-9.98112
欄楯	-9.98117
阿羅訶	-9.98142
有覺	-9.98184
彼因	-9.98269
在一面立	-9.98279
堪能	-9.98316
入舍衛城乞食	-9.98343
投	-9.98444
阿闍世王	-9.98477
行梵行	-9.9867
此間	-9.98671
非人	-9.98745
為佛作禮	-9.98753
華鬘	-9.98849
皆當	-9.98954
婆羅門言	-9.98962
沙門婆羅門等	-9.99014
禪定	-9.99052
。「『	-9.99054
樹木	-9.99092
當自	-9.99098
處處	-9.99109
承	-9.9912
而作	-9.9926
樂痛	-9.99291
如意足	-9.99338
出離	-9.99378
有諸	-9.99462
歌舞	-9.99548
退住一面	-9.99559
群臣	-9.99656
割	-9.99663
純	-9.99726
頂	-9.99837
則便	-9.99838
若樂	-9.99946
諍訟	-9.99954
說之	-9.99968
最妙	-9.99971
來至此	-10
由旬	-10.0003
侍	-10.001
亦能	-10.0022
天地	-10.0024
彼已	-10.0026
園觀	-10.003
學道者	-10.0031
有一比丘	-10.0032
說言	-10.0034
彼沙門	-10.004
則有	-10.0041
侵	-10.0041
為有	-10.0048
此義	-10.0048
我今當	-10.0048
而為	-10.0059
獵師	-10.006
愚者	-10.0064
星	-10.0069
虫	-10.008
頗	-10.0082
伽彌尼	-10.0083
誹謗	-10.0084
生死已盡	-10.0095
或有眾生	-10.0101
已生	-10.0101
都無	-10.0104
汝等當知	-10.0105
自作證成就遊	-10.0107
自覺	-10.0116
彼亦	-10.0128
悟	-10.0132
令其	-10.0138
一切皆	-10.0139
網	-10.0145
悔過	-10.0151
云何名	-10.0152
彼作是念	-10.0155
精	-10.0166
我以	-10.0169
受法	-10.0174
輕慢	-10.0177
泥洹	-10.0187
酥	-10.0188
法眼	-10.019
此說	-10.0191
猶若	-10.0192
清涼	-10.0195
妙法	-10.0195
無諍	-10.02
正行	-10.02
而有	-10.0208
神力	-10.0208
我住	-10.0211
婆私吒	-10.0217
心中	-10.0217
結加趺坐	-10.0221
身惡行	-10.0224
大迦葉	-10.0225
大目揵連	-10.0228
於現法中	-10.0234
度世間愛	-10.0236
為何等	-10.024
為一	-10.0241
車𤦲	-10.0245
炎	-10.025
油	-10.0256
不妄語	-10.0259
喚	-10.0263
愁憂	-10.0265
為佛	-10.0283
煩	-10.0295
不息	-10.0296
不犯	-10.0298
若內	-10.0317
五根	-10.0322
色相	-10.0324
責	-10.0325
熱惱	-10.0342
逮	-10.0346
我聞	-10.0347
永超世	-10.0352
五法	-10.0353
察	-10.0353
識滅	-10.0354
病瘦醫藥	-10.0355
由此	-10.0358
靜	-10.0358
貢高	-10.0367
善趣	-10.0368
洗足	-10.0373
過去世時	-10.0382
是故名為	-10.0391
與彼	-10.0391
若當	-10.0399
是謂名為	-10.04
問佛	-10.0404
有如是	-10.041
若苦	-10.0429
屋	-10.0433
船	-10.0439
若於	-10.044
書	-10.044
此諸賢	-10.0449
四為	-10.0449
背	-10.0462
欲有所問	-10.0469
迦旃延	-10.0471
不須	-10.0475
便說此偈	-10.0475
識處	-10.0476
羅剎	-10.0476
當作	-10.048
厭離	-10.048
在遠離獨住	-10.0485
作證	-10.0488
懊惱	-10.0489
辯才	-10.0491
周匝圍遶	-10.0493
來下	-10.0495
往昔	-10.05
食訖	-10.0511
倍常	-10.0512
出現世間	-10.0517
疾病	-10.0518
答我	-10.0518
此二	-10.0519
不自	-10.0539
常行	-10.0541
見世尊	-10.0543
國中	-10.0544
房	-10.055
不壞	-10.0559
諸尊	-10.0561
於汝	-10.0565
可知	-10.057
之上	-10.0574
彼不	-10.0574
斷絕	-10.0587
自思惟	-10.059
軟	-10.0601
如是次第	-10.0605
力士	-10.0607
無也	-10.0607
有二種	-10.0609
亦無有	-10.0609
為善	-10.061
烏	-10.0616
逮得般涅槃	-10.0624
我於無量阿僧祇劫	-10.0634
叉手向佛	-10.0636
七重垣牆	-10.0636
雖復	-10.0642
復有聲聞	-10.0643
有時	-10.0649
非時	-10.065
有言	-10.065
邑	-10.0658
心善解脫	-10.066
至心	-10.0669
愚人	-10.067
忍辱	-10.0671
佛住	-10.0675
色界	-10.068
目乾連	-10.0692
小兒	-10.0697
苦集聖諦	-10.0708
善生	-10.0708
四念處	-10.0715
佛法	-10.0716
飾	-10.0719
闍	-10.0733
不婬	-10.0736
常住	-10.074
我自	-10.0746
叉手	-10.0747
當如是學	-10.0749
一切怖	-10.0753
十四	-10.0756
諸行	-10.0757
識住	-10.076
終無是處	-10.0763
毘沙門天王	-10.077
善行	-10.0771
雜色可觀	-10.0774
不令	-10.0774
五欲功德	-10.0782
乏	-10.079
仁	-10.0794
凡夫	-10.0798
至於	-10.0803
合掌	-10.0803
夢	-10.0804
於世	-10.0806
佛遊	-10.0812
久見	-10.0813
不害	-10.0815
彼處	-10.0815
聖所	-10.0822
而起	-10.0825
二種	-10.0826
生者	-10.0827
。」』	-10.0837
無過	-10.0851
集會	-10.0868
而坐	-10.0871
羅陀	-10.0871
王即	-10.0876
亦如上說	-10.0891
罵詈	-10.0892
碎	-10.0896
梵王	-10.0897
圓滿	-10.09
端嚴	-10.0903
熾燃	-10.0903
十二因緣	-10.0905
五種	-10.0906
難得	-10.0908
色味	-10.092
我今當說	-10.0923
消滅	-10.0929
為說法	-10.0935
得脫	-10.0939
海水	-10.0939
即於	-10.0956
)(	-10.0958
惡見	-10.096
議	-10.0965
犢子	-10.0965
說頌	-10.097
之所說	-10.097
馬瑙	-10.0971
乾	-10.0991
歸依	-10.1001
為惡	-10.1003
然復	-10.1003
不可意	-10.1005
知有	-10.1007
從坐起	-10.1011
臭	-10.1015
薪	-10.1026
尊者阿那律	-10.1028
堪任	-10.1032
族姓子	-10.1038
之德	-10.1039
非無習	-10.1039
鼓	-10.1041
澡浴	-10.1043
鬚閑提	-10.1044
七重行樹	-10.1047
第八	-10.1049
懺悔	-10.105
九者	-10.105
為身	-10.105
與大比丘眾五百人俱	-10.1052
截	-10.1055
寒	-10.1066
金翅鳥	-10.1067
周	-10.1072
當於爾時	-10.1084
不求	-10.1087
得此	-10.1089
殺害	-10.1098
時節	-10.1101
勞	-10.1106
不退	-10.1108
尊者大目犍連	-10.112
未曾有	-10.1137
受樂	-10.1139
得清淨	-10.1146
諸天子	-10.1147
前後圍遶	-10.1147
塗	-10.1149
哉	-10.1153
無厭足	-10.1156
十八	-10.116
於地	-10.1166
敗	-10.117
其所	-10.1177
舍衛國	-10.1179
遠塵離垢	-10.1187
壞敗	-10.1189
邊際	-10.119
賴吒惒羅	-10.1192
四維上下	-10.1194
何緣	-10.1211
壁	-10.1211
乃能	-10.1217
此世	-10.122
目揵連	-10.1223
年少	-10.1225
依止	-10.1225
十方	-10.1226
廣布	-10.1228
即為	-10.1231
競	-10.1234
成就歡喜已	-10.1238
聞此	-10.1244
是為三	-10.1256
產	-10.1261
宣說	-10.1266
我本	-10.1267
地界	-10.127
十法	-10.1274
』	-10.1278
諸婆羅門	-10.1279
穀	-10.13
豐	-10.1304
雞	-10.1305
變化	-10.1306
兜率天	-10.1308
善見	-10.1309
此四	-10.1311
飢	-10.132
相隨	-10.1323
音聲	-10.1325
苦滅道跡聖諦	-10.1326
臨	-10.1326
令得	-10.1328
合會	-10.1329
沸	-10.1329
有三種	-10.1332
所食	-10.1337
慈愍	-10.1337
諷誦	-10.1339
若復有人	-10.1339
佛在舍衛國	-10.134
愚癡無聞凡夫	-10.1341
有大威神	-10.1343
人間遊行	-10.1346
康強	-10.1351
受報	-10.1354
尊者難陀	-10.1357
息寂	-10.1361
略說乃至	-10.1376
衣食	-10.1377
精勤方便	-10.1382
我先	-10.1383
現法	-10.1384
真正	-10.1385
所念	-10.1392
生彼	-10.1396
無明者	-10.1402
無覺	-10.1402
為食	-10.1407
盡形壽	-10.1416
罰	-10.1418
生滅	-10.1424
令人	-10.1424
故說	-10.1429
於受	-10.1434
露	-10.1436
知之	-10.1441
十者	-10.1446
宣	-10.1455
珠寶	-10.1457
卿等	-10.1462
受苦	-10.1464
功	-10.1464
為優婆塞	-10.147
飢渴	-10.1473
實有	-10.1473
離殺	-10.1475
故名	-10.1477
斫	-10.1478
我於爾時	-10.1484
阿毘曇	-10.1486
專精思惟	-10.1489
若沙門	-10.1492
來至我所	-10.1493
佛說是經	-10.1493
於其中間	-10.1494
論議	-10.1495
下賤	-10.1502
我昔	-10.1507
得涅槃	-10.1511
酒	-10.1517
之行	-10.1533
難提	-10.1534
諸臣	-10.1539
聽法	-10.1543
以不	-10.155
大德	-10.1554
往昔已	-10.1555
不異	-10.156
周遍	-10.1562
是比丘	-10.1563
能自	-10.1571
右	-10.1579
於此法	-10.158
獸	-10.1582
生苦	-10.1586
得法	-10.1589
知是	-10.16
法中	-10.16
嚴駕	-10.1604
於一切	-10.1604
瞿	-10.1606
名聞	-10.1615
日出	-10.1617
繩	-10.1619
怖畏	-10.1621
交露	-10.1627
金剛	-10.1633
惡人	-10.1633
姊妹	-10.1636
呵責	-10.1638
尊者舍黎子	-10.1639
我慢	-10.1645
村邑	-10.165
尊者摩訶迦葉	-10.1651
?「	-10.1653
不現	-10.1658
竭	-10.1666
不定	-10.1667
即自	-10.1671
心中所念	-10.1673
於欲	-10.1676
從座起而去	-10.1681
然我	-10.1683
何因緣	-10.1689
不成	-10.1692
亦是	-10.1695
試	-10.17
正等正覺	-10.1701
是謂比丘	-10.1702
諸外道	-10.1703
說經	-10.1712
此則	-10.1722
境	-10.1723
號	-10.1737
日中	-10.1742
敬重	-10.1745
往彼	-10.1754
祀	-10.1756
髓	-10.1761
朝	-10.1766
勝妙	-10.1772
色滅	-10.1776
閉	-10.1781
尾	-10.1783
汝等比丘	-10.1786
移	-10.1789
譬如有人	-10.1789
瞻視	-10.1793
擲	-10.1799
我今問汝	-10.18
彼於後時	-10.1804
不還	-10.1805
婆羅門種	-10.1805
成阿羅漢	-10.1807
身觸	-10.181
天眼	-10.1812
生子	-10.1813
審	-10.1815
無學	-10.1817
是事	-10.1818
免	-10.1819
又有	-10.1826
顯	-10.1838
若細	-10.1838
可意	-10.1844
汝等當	-10.1846
惑	-10.1846
婇女	-10.1852
衣鉢	-10.1852
各有	-10.1855
是名比丘	-10.1874
影	-10.1875
出城	-10.1885
如是廣說	-10.1886
世尊說	-10.189
欲愛	-10.1893
六入處	-10.1895
桄	-10.19
甘	-10.1901
哀愍	-10.1908
連	-10.1909
其水	-10.191
沙彌	-10.1912
容	-10.1914
煮	-10.1916
從座起	-10.1922
有罪	-10.1923
如來弟子	-10.1926
現世	-10.1927
而無	-10.1927
但當	-10.1929
玉女寶	-10.1934
必有是處	-10.1942
定意	-10.1942
牆	-10.1943
出入	-10.1945
出家修道	-10.1949
流離王	-10.195
有何因緣	-10.1952
正道	-10.1953
礙	-10.1957
成就歡喜	-10.1958
身如身	-10.196
有子	-10.1961
正盡苦	-10.1967
賢聖弟子	-10.197
解脫知見	-10.1972
國界	-10.1976
若外	-10.1979
善知	-10.1984
戰鬪	-10.1994
兄弟	-10.1995
娛樂	-10.1996
此等	-10.1996
洲	-10.2006
斯陀含	-10.2011
住止	-10.2012
能使	-10.2023
氣力	-10.2026
何等為十	-10.2036
五為	-10.2038
欲想	-10.2038
謗	-10.2044
蓮華	-10.2045
塵垢	-10.2059
信樂	-10.2062
此眾生	-10.2064
受具足	-10.2066
即往	-10.2068
說戒	-10.2069
我亦如是	-10.2079
餘比丘	-10.2081
夜半	-10.2081
斷滅	-10.2082
澤	-10.2086
厚	-10.2086
道法	-10.2088
世尊歎	-10.2091
得見	-10.2091
善業	-10.2092
喪	-10.2098
擔	-10.2101
若得	-10.2107
當生	-10.2109
為最勝	-10.2109
易不難得	-10.211
譬喻	-10.2111
與汝	-10.2112
人民熾盛	-10.2112
大目乾連	-10.2115
還復	-10.2117
當觀	-10.2118
繫縛	-10.2132
如實	-10.2134
非我所	-10.214
共諍	-10.214
面前	-10.2141
障礙	-10.2147
為苦	-10.2147
成神通	-10.2151
為習	-10.2157
大福祐	-10.216
啟	-10.2167
我至誠	-10.2172
二法	-10.2187
為最	-10.2203
愍	-10.222
發露	-10.2223
佛即	-10.2226
住者	-10.2229
普照	-10.223
謂此	-10.223
慧羸	-10.2232
念佛	-10.2235
復生	-10.2237
三事	-10.224
大人之相	-10.2246
牽	-10.2253
奇	-10.2254
憎嫉	-10.2256
最尊	-10.2262
裂	-10.2264
寤	-10.2269
若過去	-10.2271
是義	-10.2272
名譽	-10.2273
速疾	-10.2274
一切行無常	-10.2276
大會	-10.2284
默然而住	-10.2285
刀劍	-10.2294
多少	-10.2297
時有一天	-10.2302
能為	-10.2309
已訖	-10.2312
地味	-10.2313
意業	-10.2314
四神足	-10.2317
我知	-10.2318
獨一靜處	-10.2325
當求	-10.2326
見有	-10.2328
受行	-10.2336
無疑	-10.2341
看	-10.2344
日夜	-10.2345
昔日	-10.2347
教人	-10.2352
來詣	-10.2359
難可	-10.2361
何因何緣	-10.2366
不能令	-10.2368
銅	-10.2375
律儀	-10.2389
如今	-10.2394
燃	-10.2397
睡	-10.2398
宜應	-10.24
喜已	-10.24
及與	-10.2402
充滿	-10.2407
於人	-10.2407
前世	-10.2407
畫	-10.2408
夏	-10.241
而復	-10.241
我即	-10.2411
良	-10.2411
汝是	-10.2412
我此	-10.2412
燋	-10.2417
任	-10.2422
富貴	-10.2422
橫	-10.2428
持此	-10.2431
諸人民	-10.2432
囉	-10.2434
牢固	-10.2435
於大眾中	-10.2435
導師	-10.2436
稽首作禮	-10.2437
如汝所言	-10.2444
無著	-10.2449
黠	-10.2456
居士寶	-10.2462
種種說法	-10.2465
祇洹	-10.2467
不肯	-10.2469
彼有	-10.2473
而彼	-10.2473
彼王	-10.2473
奉持	-10.2475
因是	-10.2478
亦為	-10.2485
汝於	-10.2495
結使	-10.2498
或復有	-10.25
我實	-10.25
言說	-10.2503
其子	-10.2504
殊勝	-10.2505
聚會	-10.2511
懼	-10.2518
我不見	-10.252
典	-10.252
徹	-10.2522
無礙	-10.2528
非梵行	-10.2538
善念	-10.2543
遭	-10.2549
受者	-10.255
柱	-10.2551
不知如真	-10.2557
天王釋	-10.2569
祠	-10.2571
無垢	-10.2581
於其中	-10.2584
尼揵	-10.2586
治生	-10.2587
文殊師利	-10.2588
懸	-10.2589
弗于逮	-10.2594
安慰	-10.2594
接	-10.2595
自今已後	-10.2596
泥犁	-10.2596
身諸光明遍照	-10.26
一日一夜	-10.26
長壽	-10.2603
有七	-10.2603
若有異道人	-10.2613
十種	-10.2619
樂於	-10.262
若使	-10.2628
有色	-10.2633
寧可	-10.2642
若現在	-10.2651
受之	-10.266
靖	-10.2671
彼國	-10.2679
法依	-10.2682
術	-10.2682
吾今	-10.2684
載	-10.2686
於他	-10.2687
至竟	-10.2693
無所有處	-10.2705
親友	-10.2706
之想	-10.2706
麻	-10.2706
得勝	-10.2709
我今當往	-10.271
雖有	-10.2711
得解	-10.272
付	-10.2737
我弟子	-10.2741
惡欲	-10.2742
而能	-10.2744
每	-10.275
糞	-10.2755
不敬	-10.2758
當云何	-10.276
諸生活具	-10.2762
樂著	-10.2765
積聚	-10.2767
給孤獨長者	-10.2767
嗚呼	-10.2768
遙見世尊	-10.277
受身	-10.2774
偏袒	-10.2774
有大如意足	-10.2774
有一人	-10.2774
而說	-10.2775
生此	-10.2776
塗香	-10.2776
有力	-10.2777
其餘者為癡	-10.2778
繞三匝而去	-10.2778
善能	-10.279
貪伺	-10.2791
施行	-10.2791
瞿曇彌	-10.2795
聰明智慧	-10.2803
惡色	-10.2803
無愧	-10.2805
所受	-10.2817
樂住	-10.2819
不可得	-10.2823
惡道	-10.2825
牀	-10.2839
遙	-10.2847
禮佛	-10.2848
略說	-10.2858
若未來	-10.286
即得	-10.2862
為王	-10.2873
如斯	-10.2875
法如法	-10.2877
聞者	-10.2881
非不	-10.2881
得生天上	-10.2882
日日	-10.2882
如來所說	-10.2882
令彼	-10.2885
尊者大迦旃延	-10.2894
在中	-10.2896
塚間	-10.2898
驚	-10.2898
色集	-10.2902
甚為	-10.2904
天子復	-10.2906
所在	-10.2913
遍滿	-10.2913
愛盡	-10.2918
寺	-10.292
所求	-10.2922
醫	-10.2928
床褥	-10.2935
靡不	-10.2936
雨勢	-10.2938
出已	-10.2939
浴	-10.2941
右膝著地	-10.2942
於如來	-10.2946
叉手向	-10.2948
隋言	-10.2952
說偈問佛	-10.2956
天復以偈讚	-10.2957
無煩	-10.2961
差別	-10.2962
得利	-10.2964
世間有	-10.2978
有觀	-10.2982
自身	-10.2983
顧	-10.2987
已來	-10.2989
邪命	-10.2991
火燒	-10.2994
休息	-10.3006
是我所	-10.3008
欲貪	-10.3013
大王當知	-10.3013
世間人	-10.3019
第四禪	-10.3022
膝	-10.3025
躬	-10.3028
攝持	-10.3036
使我	-10.3038
有常	-10.3043
城門	-10.3044
此事實	-10.3049
親屬	-10.3062
須深	-10.3066
劍	-10.3067
以彼	-10.3067
烟	-10.3074
佛告迦葉	-10.3078
旃陀羅	-10.309
而今	-10.309
善女人	-10.3091
頓	-10.3093
三百	-10.3094
其地	-10.3097
不實	-10.3097
弟	-10.3097
燈	-10.31
善住	-10.3102
少有	-10.3103
得自在	-10.3104
聚集	-10.3106
汁	-10.3107
自見	-10.3108
入處	-10.3113
而自娛樂	-10.312
宜知是時	-10.3122
須跋陀羅	-10.3122
甚可愛樂	-10.3126
必至惡處	-10.3126
不厭	-10.3128
護國	-10.3129
跋陀和利	-10.313
化生	-10.3131
顯現	-10.3138
人身	-10.3141
電	-10.3141
則生	-10.3145
共和合	-10.3145
妄	-10.315
當知此	-10.3152
別離	-10.3159
於未來世	-10.3162
欲斷	-10.3164
一切諸	-10.3167
何等法	-10.3177
知彼	-10.3182
便自	-10.3191
意不	-10.3194
出現	-10.3217
比丘所	-10.322
取滅度	-10.3225
暴	-10.3225
四寶	-10.3229
求方便	-10.3237
饒	-10.3241
佛告王	-10.3241
一切處	-10.3243
行慈	-10.3244
全	-10.325
時到	-10.3258
欝單曰	-10.3262
墮惡趣	-10.3262
鳴	-10.3263
緣起	-10.3263
為作	-10.327
亦莫	-10.327
伴	-10.327
逼迫	-10.3272
見彼	-10.3275
野	-10.3282
告言	-10.3283
揵	-10.3293
吒	-10.3294
麥	-10.3296
向者	-10.3297
共相娛樂	-10.3297
顯示	-10.3299
餘者	-10.3299
欲生	-10.3303
苦諦	-10.3304
剎利種	-10.3308
云何為六	-10.3308
繫念	-10.3324
金輪	-10.3327
色愛	-10.3328
是非	-10.3329
善心	-10.3331
自守	-10.334
入城	-10.3346
苦盡	-10.335
不正思惟	-10.3353
王波斯匿	-10.3358
經戒	-10.3359
在上	-10.3359
弊	-10.3365
或作	-10.3375
當修	-10.3385
憂惱	-10.3386
有因緣	-10.3409
▁爾時	-10.3416
其後	-10.3417
若以	-10.3419
我師	-10.3421
諸比丘尼	-10.3424
貧	-10.3425
佛告之	-10.3428
彼諸眾生	-10.3428
出世間	-10.3429
善護	-10.3434
殊	-10.3442
逢	-10.3442
豆	-10.3444
今已	-10.3445
不染	-10.3447
天使	-10.3447
得正見	-10.3453
內心	-10.3454
住彼	-10.3454
向佛	-10.3454
八十	-10.3458
種族	-10.3463
不修	-10.3463
有熱	-10.3464
知此	-10.3465
阿脩羅	-10.3466
潤	-10.3466
尼健子	-10.3467
咽	-10.3467
尸婆羅	-10.3467
灰	-10.3469
利刀	-10.3469
若生	-10.3475
死此生彼	-10.3479
宋天竺三藏求那跋陀羅譯	-10.3479
讚嘆	-10.348
亦說	-10.348
我心	-10.3481
金色	-10.3483
得大果報	-10.3484
彼不應來	-10.3485
正等覺	-10.3486
不覺	-10.3487
此地	-10.3487
汝若	-10.3496
齒	-10.3496
菩提	-10.3498
聖法	-10.35
長大	-10.3502
無色界	-10.3503
五十	-10.3504
思量	-10.3512
鞞	-10.3514
諸龍	-10.3523
優婆離居士	-10.3523
女寶	-10.3524
之身	-10.3526
a	-10.3528
念法	-10.353
摩尼	-10.3533
道者	-10.3535
十力	-10.3537
結縛	-10.3545
不計	-10.3545
之言	-10.3549
當行	-10.3564
諸結	-10.3564
受此	-10.3566
諸世間	-10.3569
我正法	-10.357
雙	-10.3581
一比丘	-10.3588
禮世尊足	-10.3591
婬欲	-10.3607
可久	-10.3618
頂生王	-10.3626
諸天眾	-10.3626
為我說	-10.363
六處	-10.3632
坐臥	-10.3633
意亦復如是	-10.3634
愚癡人	-10.3634
聰明	-10.3635
譽	-10.3635
千由旬	-10.3637
伎樂	-10.3643
若此	-10.3643
勇	-10.3645
須菩提	-10.3651
受極重苦	-10.3651
悲泣	-10.3655
衣裳	-10.3656
1	-10.3657
奇哉	-10.3657
聖戒成就	-10.3658
彼彼	-10.3658
晨朝	-10.3658
自致涅槃	-10.3664
宋	-10.3664
長短	-10.3665
由是	-10.3665
質直	-10.3665
戒取	-10.3666
不正	-10.3666
略說如前	-10.3666
頗梨	-10.3669
鴦掘魔	-10.3671
於苦	-10.3672
佛便告	-10.3674
是沙門	-10.3675
得生	-10.3677
不足	-10.3678
赫然大明	-10.3682
此摩牢	-10.3685
皮肉	-10.3686
穢污	-10.3696
射	-10.3699
甚多	-10.37
希有	-10.3702
牢	-10.3702
堪	-10.3707
華香	-10.3709
五百人	-10.372
得定心	-10.3721
已解	-10.3725
大天王	-10.3728
諸有沙門	-10.3729
應詣彼	-10.3729
鬘	-10.3732
憂愁	-10.3739
多羅樹	-10.3743
舍衛城	-10.3744
未起	-10.3745
安樂住	-10.3748
智者所	-10.375
喜心	-10.3753
掉	-10.3754
人民之類	-10.3754
一面	-10.3764
佛告梵志	-10.3764
止觀	-10.3774
二日	-10.3778
執持	-10.3778
我言	-10.3778
將來	-10.3779
滅道跡如實知	-10.3781
若色	-10.3792
如來說	-10.3793
之眾	-10.3794
非義	-10.3796
有想	-10.3799
態	-10.3806
左	-10.381
有天子	-10.3811
逝	-10.3811
無比	-10.3813
盲	-10.3816
得定	-10.3827
殃	-10.383
如上	-10.3832
彼婆羅門	-10.3836
駕	-10.3837
檀	-10.3839
質多羅長者	-10.3842
奇特	-10.3842
白王	-10.3849
人天	-10.3849
正信非家	-10.3851
4	-10.3855
尊者婆耆舍	-10.386
均頭	-10.3861
求安隱快樂	-10.3863
錢	-10.3865
以自	-10.3865
毘摩質多羅阿修羅王	-10.3867
從此	-10.387
不可計	-10.3871
不如施一	-10.3873
陀然	-10.3875
身中	-10.3875
得樂	-10.3879
禮拜	-10.388
自說	-10.3883
汝實	-10.3884
悉能	-10.3889
瞻	-10.3891
當共	-10.3899
明達	-10.39
隱	-10.3904
光音天	-10.3907
長跪	-10.3907
語已	-10.3907
觀此	-10.3914
大沙門	-10.3915
何者是	-10.3915
化樂天	-10.392
非無	-10.394
命盡	-10.394
是身	-10.3942
因此故	-10.395
禮敬	-10.3951
四千	-10.3953
教令	-10.3953
從是因緣	-10.3954
阿難白佛言	-10.3961
妙色	-10.3962
未盡	-10.3964
洗足已	-10.397
出於	-10.3971
大雨	-10.3974
狂	-10.3978
阿難白佛	-10.3979
為欲	-10.3985
眾寶	-10.3985
之物	-10.3988
恣	-10.3988
千世界	-10.3989
四兵	-10.3993
昔時	-10.3997
見也	-10.4002
經法	-10.4006
牙	-10.4008
常為	-10.4012
尊者阿難白	-10.4015
如世尊說	-10.4016
在世	-10.4019
?』「	-10.4021
汝自	-10.4023
誓	-10.4025
早	-10.4026
長老比丘	-10.4027
輸	-10.403
之後	-10.403
正見乃至正定	-10.4032
因緣生	-10.4033
交	-10.4035
譯	-10.4035
契經	-10.4035
擁護	-10.4036
僧不壞淨	-10.4042
彼一切非我	-10.4044
二俱	-10.4044
有生	-10.4052
從今日始	-10.4056
妙行	-10.4066
薩	-10.4072
無願	-10.4073
憎	-10.4073
家中	-10.408
不語	-10.4087
為我說法	-10.4092
邪業	-10.4093
須拔	-10.4098
坐已	-10.41
死後	-10.4104
虎	-10.4106
不苦不樂受	-10.4107
於如來所	-10.4108
求欲	-10.4109
五事	-10.411
迎	-10.4111
不在	-10.4115
毘舍	-10.4118
不相在	-10.4121
於後	-10.4128
意法	-10.4129
床榻	-10.4129
通達	-10.4129
彼女	-10.4136
歎說	-10.4136
少欲	-10.4138
有八萬四千	-10.4139
其福	-10.414
此見	-10.4145
醜	-10.4146
行施	-10.4146
乃至邪見	-10.4148
踊躍	-10.4158
寧有	-10.4158
已見	-10.4162
所縛	-10.4163
復有三法	-10.4165
偷盜	-10.4165
云何為二	-10.4172
見者	-10.4172
十五	-10.4176
合掌白佛	-10.418
釜	-10.4181
踰闍那	-10.4188
佛所	-10.419
3	-10.4191
蜱肆王	-10.4199
泉	-10.4201
猶豫	-10.4206
作此	-10.4211
於眾	-10.4212
無熱	-10.4214
是為四	-10.4215
福報	-10.4215
三禪	-10.422
為樂	-10.422
表	-10.4225
所依	-10.4225
返	-10.4226
禁	-10.4226
危	-10.4228
溫	-10.423
標	-10.423
元	-10.423
不墮	-10.4233
臂	-10.4234
注	-10.4234
清苦行苦行	-10.4238
東西	-10.4238
尊者大拘絺羅	-10.4241
勝者	-10.4242
常樂	-10.4244
當如	-10.4244
羅睺羅阿修羅王	-10.4245
村落	-10.4246
無量空處	-10.4246
異學箭毛	-10.4246
圍繞	-10.4246
尊者大目乾連	-10.4247
鞞摩質多羅阿修羅王	-10.4247
繫念在前	-10.4247
大典尊	-10.4247
比丘尼是	-10.4249
入村乞食	-10.425
部	-10.4252
說是	-10.4254
救護	-10.4254
略	-10.4257
世尊聞已	-10.4258
風界	-10.4262
威神	-10.4262
命根	-10.4264
阿那邠邸長者	-10.4265
正思	-10.4274
色是我	-10.4277
不煩熱	-10.4277
便滅	-10.4286
好色	-10.429
阿練若	-10.4291
是說	-10.4291
之福	-10.4292
精進力	-10.4296
客	-10.4297
十事	-10.4304
非一	-10.4307
苦覺	-10.4308
此婆羅門	-10.431
天帝	-10.4316
自有	-10.432
獨處	-10.4323
復語	-10.4325
二曰	-10.4328
生此念	-10.4329
人皆	-10.4329
之具	-10.433
由此因緣	-10.433
三十二相	-10.4339
便知	-10.4341
不識	-10.4344
或有沙門	-10.4351
不盡	-10.4354
一月	-10.4355
婢	-10.4356
阿難比丘	-10.4358
便往至	-10.4366
改	-10.4381
厭患	-10.4382
示現	-10.4383
可往	-10.4384
所趣	-10.4387
虛空中	-10.4388
如來藏	-10.439
又告	-10.439
誦習	-10.4396
劣	-10.4397
斯等	-10.4397
諦觀	-10.4398
前後	-10.4398
幾法	-10.4403
諸上座	-10.4404
窟	-10.441
居家	-10.4411
欲知	-10.4411
淚	-10.4412
得知	-10.4414
禮事	-10.4416
其法	-10.4421
爪	-10.4425
錄	-10.4427
作福	-10.4429
不依	-10.443
潤澤	-10.4436
清旦	-10.4437
慶	-10.4441
欲者	-10.4441
顏貌端正	-10.4441
以是義故	-10.4443
而作是語	-10.4444
童女	-10.4444
於其夜	-10.4444
樂住遠離	-10.4445
歸佛	-10.4446
床臥具	-10.4449
氣力如常	-10.4453
因此故說	-10.4455
還精舍	-10.4456
s	-10.4458
法及比丘眾	-10.4458
說此	-10.4461
第十	-10.4467
有情	-10.4468
意解	-10.4471
閻羅王	-10.4471
真珠	-10.4475
從坐起去	-10.4478
命終之後	-10.4487
四意止	-10.4488
持戒者	-10.449
經歷	-10.4495
而聽	-10.4495
亦不見	-10.4496
諸比丘白佛	-10.4496
還詣	-10.4499
口行	-10.4502
大山	-10.4506
三藏	-10.4508
當捨	-10.4512
止住	-10.4515
世尊知	-10.452
不虛	-10.452
行法	-10.4524
不亂	-10.453
諸善法	-10.4538
昔者	-10.4543
行布施	-10.4547
池水	-10.455
手長者	-10.4559
多所	-10.4563
閑居	-10.4566
亦不能	-10.4569
或說	-10.4571
若知	-10.4571
彼梵志	-10.4578
五比丘	-10.4581
尊者摩訶迦旃延	-10.4586
久住	-10.4596
若無常	-10.4599
毀呰	-10.4603
儀	-10.461
宗	-10.4616
嫌	-10.4618
處所	-10.4621
栴檀	-10.4629
玉耶	-10.4631
火然	-10.4633
健	-10.4634
遶	-10.4634
貫	-10.464
謗毀	-10.464
坐一樹下	-10.4642
麁澁	-10.4644
色患	-10.4646
行在祇樹給孤獨園	-10.4646
彼沙門瞿曇	-10.4647
我時	-10.4653
無令	-10.4657
口中	-10.4659
或食	-10.466
不畏	-10.4661
作不善業	-10.4664
無有量	-10.4666
靜處	-10.4669
鼻香	-10.4669
謂三	-10.4671
昇進	-10.4671
不悔	-10.4675
彼以	-10.4676
所聞	-10.4677
答我言	-10.468
亦名	-10.4686
諸梵行	-10.4695
我問	-10.4697
然此	-10.4699
癰	-10.4699
病人	-10.4701
云何見	-10.4702
此是實	-10.4706
眼觸	-10.4706
互相	-10.471
如是再三	-10.4719
忽然	-10.472
不移動	-10.4721
覺悟	-10.4733
或言	-10.4735
如是耳	-10.4738
汝莫	-10.4743
縱廣五十由旬	-10.4754
其事	-10.4754
繞	-10.4759
從佛受教	-10.4762
一曰	-10.4768
亦不知	-10.477
其意	-10.477
陀羅	-10.4778
設當	-10.4781
師長	-10.4784
法律	-10.479
設復	-10.4792
賤	-10.4794
盡已	-10.4796
善解	-10.4799
已後	-10.48
說者	-10.4808
跋	-10.481
淨修梵行	-10.4814
延	-10.4817
多羅	-10.4818
自作	-10.4822
剎帝利	-10.4822
自護	-10.4824
占	-10.4829
跋耆	-10.4829
私	-10.4831
所以稱	-10.4834
賜	-10.4834
象馬	-10.4835
含	-10.4838
國人	-10.4838
漿	-10.484
觸嬈	-10.484
優多羅	-10.4843
盧	-10.4843
【	-10.4846
梵志梵摩	-10.4847
何物	-10.4847
聞是語	-10.4851
】【	-10.4851
因此清苦行苦行	-10.4852
長跪叉手	-10.4853
以何等故	-10.4854
臭穢	-10.4855
一由旬	-10.4856
慧根	-10.486
學者	-10.4861
齊是不過	-10.4861
自恣	-10.4863
不隨	-10.4867
正盡覺	-10.4867
毘婆尸佛	-10.487
優婆私	-10.487
安快	-10.4872
後夜	-10.4872
疑蓋	-10.4872
大小	-10.4874
大海中	-10.4875
義者	-10.4879
無窮	-10.4882
寶車	-10.4882
還自	-10.4883
多諸	-10.4887
當受	-10.4889
不墮惡趣	-10.4893
有異	-10.4894
七覺意	-10.4895
當勤方便	-10.4896
是故我	-10.4903
色像	-10.4912
正觀	-10.4922
識集	-10.4924
等覺	-10.4933
施主	-10.4934
然後乃	-10.494
猛	-10.4954
威光	-10.4958
大將	-10.4961
婦女	-10.4964
榮	-10.4972
之曰	-10.4974
道跡	-10.4977
不殺生	-10.498
智慧者	-10.4983
要當	-10.4986
廢	-10.4986
世有	-10.5008
誠	-10.5008
彼言	-10.501
槃	-10.5015
所有眾生	-10.5015
限	-10.5019
炙	-10.5019
天及人	-10.5022
在虛空中	-10.5022
癡人	-10.5022
及其	-10.5027
出息	-10.5028
便當	-10.5032
便可	-10.5036
受於	-10.5036
六為	-10.5037
累	-10.5041
尼乾	-10.5043
當斷	-10.5044
斧	-10.5046
總	-10.5051
苦者	-10.5054
焉	-10.5056
之本	-10.5056
世尊是法根	-10.5057
樵	-10.5059
不起諸漏	-10.5062
孔雀	-10.5063
盡諸有漏	-10.5064
毒痛不可忍	-10.5065
若生人中	-10.5066
一劫	-10.5068
廁	-10.5068
敷座	-10.5072
盡其形壽	-10.5072
心無	-10.5077
為大	-10.5079
色具足	-10.5079
大智	-10.5088
金輪寶	-10.509
宮中	-10.509
善友	-10.5092
汝等諦聽	-10.5093
友	-10.5095
白淨	-10.5098
不放逸住	-10.51
一分	-10.5101
此經	-10.5102
彼行禪者	-10.5104
如似	-10.5105
見如實	-10.5114
更不	-10.5121
恨	-10.5124
議已	-10.5125
證法	-10.5128
三月	-10.513
坐具	-10.5143
唯願世尊受我	-10.5145
置於	-10.5145
施者	-10.5147
所覆	-10.5149
諸梵志	-10.5155
斷欲	-10.5159
悉知	-10.5167
依滅	-10.5173
亦可	-10.5174
諸天人	-10.5183
哭	-10.5183
恒水	-10.519
耳聲	-10.5194
有一天子	-10.5196
馳	-10.5197
逮得	-10.5201
世尊即	-10.5215
便得滅	-10.5215
治化	-10.522
身長	-10.5221
尊者賴吒惒羅	-10.5224
佛告舍利弗	-10.5225
慧力	-10.5227
以偈答	-10.5232
得安隱	-10.5232
有所說	-10.5232
五力	-10.5233
及諸比丘	-10.5235
得阿那含	-10.5235
貪愛	-10.5239
。『	-10.5244
師子吼	-10.5246
解說	-10.5248
還至	-10.5254
質	-10.5257
生諸	-10.5262
最為第一	-10.5263
色無常	-10.5265
罪未畢	-10.5266
色想	-10.5266
慕	-10.5266
我常	-10.5268
當於	-10.5268
初禪	-10.5272
物主	-10.5272
斷於	-10.5273
增伺	-10.5274
彼長者	-10.5275
相娛樂	-10.5276
掉悔	-10.5277
星宿	-10.5277
求義及饒益	-10.5281
無慙	-10.5285
波羅㮈	-10.5286
無諸	-10.5294
萬歲	-10.5297
乃至命盡	-10.5297
如是比	-10.5299
已起	-10.5301
更無	-10.5301
奢	-10.5302
諸尼乾	-10.5306
切	-10.5309
至佛所	-10.5313
故有	-10.5317
有六	-10.5318
知者	-10.5318
當受持	-10.532
推	-10.5327
大梵天王	-10.5331
即入	-10.5331
多修習	-10.5333
欲取	-10.5336
不精進	-10.5337
若麁	-10.5339
苦患	-10.5346
彼佛	-10.5347
吾欲	-10.5348
已復	-10.5353
阿那含果	-10.5353
長壽王	-10.5355
不相	-10.5356
則能	-10.5364
如實知見	-10.5376
生厭	-10.5376
補特伽羅	-10.5377
閻浮	-10.5378
識無常	-10.5384
佛教	-10.5388
而出	-10.5392
無能	-10.5393
鈴	-10.5405
得安樂	-10.5407
無量眾生	-10.5415
以是故	-10.5419
不復生	-10.5421
愛著	-10.5422
諸受	-10.5425
知其	-10.5427
諸門	-10.5427
我說彼	-10.5429
大力士	-10.5429
三明	-10.5435
如汝	-10.544
縱	-10.5443
更生	-10.5444
豫	-10.5446
我寧可	-10.5447
所願	-10.5448
窮	-10.5449
歸命	-10.547
彼尊者	-10.5486
離貪	-10.5489
諫	-10.5491
不可思議	-10.5492
苑	-10.5493
捨覺分	-10.5496
汝所	-10.5496
千歲	-10.5496
為行道	-10.5497
疲勞	-10.5497
為他	-10.5499
捷疾	-10.5499
如上廣說	-10.55
顏貌	-10.5502
長阿含經	-10.5504
洞然	-10.5507
如實觀察	-10.5507
彼斷	-10.5508
百年	-10.5511
婆悉咤	-10.5514
不受後有	-10.5515
伎	-10.5516
尼拘陀梵志	-10.5516
居士婦	-10.5522
怨憎	-10.5524
病苦	-10.5528
酪	-10.5532
摩訶	-10.5535
二事	-10.5537
我曹	-10.5539
羸	-10.554
子孫相承	-10.5541
動搖	-10.5541
自知自覺	-10.5543
若有一人	-10.5551
所纏	-10.5553
有勝	-10.5556
即與	-10.556
不護	-10.556
如汝所說	-10.5566
舌味	-10.557
當往	-10.5572
磨滅	-10.5576
勤修	-10.5576
化自在天	-10.558
無憂	-10.5583
敬禮	-10.559
是為二	-10.5591
謂有	-10.5602
三十二	-10.5616
非道	-10.5618
不可愛	-10.5619
用是故	-10.5621
枝葉	-10.5631
得無	-10.5633
共同	-10.5633
惡念	-10.5635
樂覺	-10.564
可樂	-10.5643
百由旬	-10.5655
八萬	-10.5657
即還	-10.5661
食者	-10.5663
奴	-10.5664
四事	-10.5665
賴吒和羅	-10.5667
斷五下分結	-10.5668
我所見	-10.5674
斷諸	-10.5679
而命終	-10.5681
說此偈	-10.5684
災	-10.5691
示教利喜	-10.5691
沫	-10.5695
中夜	-10.5701
彼色	-10.5705
生老病死	-10.5705
本末	-10.5705
嬈	-10.5706
二禪	-10.5707
誰能	-10.5708
栰	-10.571
覺法	-10.5711
淳	-10.5712
專精	-10.5713
相續	-10.5714
房舍	-10.5716
嶮	-10.5716
彼則	-10.5717
不了	-10.5718
暮	-10.5718
佉	-10.5719
鞭	-10.5724
枕	-10.5725
顧念	-10.5725
二正士共論	-10.5726
忉利諸天	-10.5726
稻	-10.5726
狐疑	-10.5727
折	-10.5728
不壞淨	-10.5728
愚惑	-10.5729
光澤	-10.5729
相違	-10.5729
我若	-10.573
尊者鳩摩羅迦葉	-10.5731
盜賊	-10.5734
三法衣	-10.5737
拘翼	-10.5737
是聖	-10.5739
此岸	-10.574
火焰	-10.5741
理家	-10.5742
減少	-10.5747
非有想非無想處	-10.5747
惡不善業	-10.5748
假	-10.5749
淨行	-10.575
使不死	-10.575
而取	-10.5751
亦不得	-10.5752
向彼	-10.5756
兜率陀天	-10.5763
如有	-10.5764
得漏盡	-10.5767
飛行	-10.577
即生	-10.5777
商人	-10.5783
心定	-10.5785
還家	-10.5788
不具	-10.5791
以何	-10.5792
為無常	-10.5793
念身	-10.5804
苦習	-10.5805
生善處	-10.5812
阿育	-10.5815
所施	-10.5821
為勝	-10.5824
仁者	-10.5836
彼法	-10.5837
死苦	-10.5841
受其	-10.5843
群生	-10.585
欲來	-10.5853
四聖諦	-10.5858
大力	-10.5859
從佛聞	-10.5869
修學	-10.5871
畜	-10.5878
專心	-10.5881
弊惡	-10.5883
為不	-10.5884
梵天王	-10.589
普周	-10.589
天眾	-10.5894
問我	-10.5897
黃金	-10.5899
水界	-10.5902
餘處	-10.5905
汝見	-10.5905
如是觀	-10.5907
撿	-10.5915
有十	-10.5917
欺	-10.5919
修善	-10.5921
須達	-10.5928
但有	-10.5931
嫌怖久	-10.5935
福利	-10.594
鉤	-10.5943
遍淨天	-10.5944
侍從	-10.5944
歌	-10.5946
螺	-10.5949
憍	-10.5953
鉢頭摩	-10.5953
輒	-10.5954
耕	-10.5957
醜陋	-10.5958
世中	-10.5959
人有	-10.596
邪念	-10.5961
=	-10.5962
於外	-10.5962
沙門果	-10.5968
少欲知足	-10.5968
成就此法者	-10.5969
摶食	-10.597
敷尼師檀	-10.5971
帝釋天王	-10.5972
轉法輪	-10.5972
善宿	-10.5973
彼等於中	-10.5974
起居輕	-10.5976
輔相婆羅門	-10.5976
若有一	-10.5977
仙	-10.5977
無事比丘行於無事	-10.5979
拘薩羅國	-10.5986
皆以	-10.5987
行滅	-10.5991
若如是者	-10.5993
為本	-10.6004
寶物	-10.6006
真人	-10.601
前進	-10.6011
轉減	-10.6017
威力	-10.6018
青色	-10.6022
過度	-10.6022
唱言	-10.6025
次復	-10.6031
此世間	-10.6035
故名為	-10.604
眾生之類	-10.6046
久遠	-10.6048
或能	-10.6049
祇	-10.605
如是生	-10.6053
無力	-10.6061
竹	-10.6065
七為	-10.6068
山林	-10.6068
聽受	-10.6074
非身	-10.6076
六法	-10.6076
今在	-10.6082
諸梵行者	-10.609
世尊與	-10.609
便習	-10.6097
比丘亦復如是	-10.6114
召	-10.6123
有疑	-10.6138
之義	-10.6143
所說法	-10.6145
毘舍離	-10.6148
梵行者	-10.6151
唱	-10.6156
耆闍崛山	-10.6162
三日	-10.6162
得歡喜	-10.6162
香氣	-10.6168
行非法	-10.6168
孝	-10.6169
欲見	-10.6173
沙門梵志	-10.6173
彼應	-10.6177
超	-10.6178
過是	-10.6179
諾	-10.618
優鉢羅	-10.6182
見如來	-10.6182
追	-10.6182
為諸比丘說	-10.6184
迦旃	-10.6186
最大	-10.6187
米	-10.6187
庶幾	-10.6192
困	-10.6193
更相	-10.6194
兄	-10.6196
大天	-10.6196
至無為處	-10.6197
緣生	-10.6198
暖	-10.6199
啼泣	-10.62
鷄	-10.6203
以是之故	-10.6203
欝	-10.6203
遍滿一方成就遊	-10.6208
得信	-10.6209
半月	-10.6209
然今	-10.621
念欲	-10.6211
七重鈴網	-10.6212
凡人	-10.6212
即告	-10.6213
若作	-10.6213
與大比丘眾俱	-10.6214
有知有見	-10.6214
且止	-10.6216
天主	-10.6217
薩遮尼犍子	-10.6218
感	-10.622
覆蓋	-10.6222
如月	-10.6225
不用處	-10.6226
為道	-10.6226
卷	-10.6227
是為七	-10.6227
作如是語	-10.6233
何等人	-10.6235
千子	-10.6238
盛滿	-10.624
觀已	-10.6242
外道異學	-10.6243
聖人	-10.6251
說偈答	-10.6251
惡心	-10.6251
收攝	-10.6252
諸比丘聞已	-10.6252
但為	-10.6255
彼女人	-10.6256
忘失	-10.6256
尊者摩訶拘絺羅	-10.6256
復有四	-10.6257
今有	-10.626
禮佛足	-10.626
不欺	-10.6262
無相	-10.6264
聞其	-10.627
王阿闍世	-10.627
獲得	-10.6271
斷殺	-10.628
若聖弟子	-10.6284
惡魔	-10.6284
遍受	-10.6285
即出	-10.629
十善	-10.6303
教示	-10.6303
種類	-10.6304
受罪	-10.6309
闇冥	-10.6309
若天	-10.6315
展轉相	-10.632
斷此	-10.632
詣彼	-10.6333
彼所	-10.6337
與人	-10.6347
於佛前	-10.6349
流轉	-10.6349
是則為	-10.635
良馬	-10.6351
黠慧	-10.6352
白狗	-10.6352
分布	-10.6353
人言	-10.6354
初夜	-10.6355
所致	-10.6357
問世尊	-10.6357
不變易	-10.6362
滅已	-10.6362
福業	-10.6364
往問	-10.637
復為	-10.637
四天下	-10.6372
而立	-10.6375
大樹	-10.638
汝為	-10.6381
皆得	-10.6385
佛復告	-10.6392
樓觀	-10.6404
七覺支	-10.6406
不堪	-10.6407
供養父母	-10.6408
迷	-10.6412
何以不	-10.6415
所成	-10.6418
赤真珠	-10.6418
令汝	-10.642
是無常	-10.6424
角	-10.6429
充	-10.643
買	-10.6432
運	-10.6434
蘇	-10.6435
大善見王	-10.6436
有身	-10.6436
離生喜	-10.6436
雷	-10.6437
到佛所	-10.6437
羅婆	-10.644
威	-10.644
曜	-10.6441
善無毒女	-10.6443
滿願子	-10.6444
雪山	-10.6445
小土城	-10.6446
檀越	-10.6446
還入	-10.6447
有道有	-10.645
即復	-10.645
周匝校飾	-10.6452
稱讚	-10.6452
為他所	-10.6454
與之	-10.6454
帝釋天主	-10.6455
若曹	-10.6455
優婆斯	-10.646
瞋恨	-10.6461
我生此法	-10.6463
月天子	-10.6466
皆來	-10.6468
意妙行	-10.647
六年	-10.6471
自害	-10.6474
此三法	-10.648
復有眾生	-10.648
遍覺	-10.6482
定根	-10.6483
謂為	-10.6483
純一	-10.6493
持鉢	-10.6497
便起	-10.6499
般泥洹	-10.6504
門外	-10.6504
法已	-10.6507
受請	-10.6517
至此	-10.6522
於虛空中	-10.6526
有緣	-10.653
成道	-10.6537
無得	-10.6538
閻浮洲	-10.6541
是故說	-10.6543
車乘	-10.6544
若時如來出	-10.6544
諸眾生輩	-10.6545
往至彼	-10.6548
其處	-10.6549
默然住	-10.655
如是行	-10.6551
憂悲	-10.6569
獨一	-10.6569
又不	-10.6574
受諸	-10.6577
王聞	-10.6578
諸比丘白	-10.658
貪婬	-10.6581
故來	-10.6582
我從	-10.6586
一意	-10.6588
識知	-10.659
戶	-10.6594
在內	-10.6597
之報	-10.6615
何義	-10.6615
入地獄	-10.6616
喜悅	-10.662
戒行	-10.662
歡	-10.6622
有取	-10.6623
謂聖弟子	-10.6623
於今	-10.6626
語我言	-10.6627
為轉輪王	-10.6628
汝本	-10.6629
之力	-10.664
無罪	-10.6641
莫不	-10.6644
第三禪	-10.665
解了	-10.6651
休	-10.6651
誡	-10.6651
諸塵垢盡	-10.6654
止宿	-10.6656
是誰	-10.6664
圍	-10.6666
或為	-10.6667
敢	-10.6673
辱	-10.6676
所居	-10.6677
欲往	-10.6679
冬	-10.6683
八萬四千歲	-10.6688
懷妊	-10.6688
舍利弗比丘	-10.6688
是勝	-10.669
有眾多比丘	-10.6691
偏袒右肩	-10.6691
郁伽長者	-10.6693
大富	-10.6695
天下人	-10.6698
優婆離	-10.67
就座而坐	-10.6701
閻摩王	-10.6702
形色	-10.6704
乃爾	-10.6705
歡喜頂禮	-10.6706
不死	-10.6707
摩訶迦葉	-10.6709
多羅行樹	-10.671
行故	-10.671
更不復受	-10.6712
苦集	-10.6712
經書	-10.6713
遍于祇洹	-10.6713
知義	-10.6714
七由旬	-10.6717
大小便	-10.6718
往至佛所	-10.672
念此相	-10.6722
何事	-10.6723
於一面坐	-10.6724
起於	-10.6724
又沙門瞿曇	-10.6728
床臥	-10.6729
變易法	-10.673
復重	-10.673
正知	-10.6736
不恭敬	-10.6739
擊	-10.674
樹間	-10.6744
不安	-10.6751
如是為	-10.6753
女曰	-10.6753
若干想	-10.6753
諸餘	-10.6754
心之所念	-10.676
閑靜	-10.6761
圓	-10.6765
佛時	-10.6766
便害	-10.677
香華	-10.6772
摩羅	-10.6772
終無	-10.6772
爛	-10.6776
諸佛世尊	-10.6776
心懷	-10.6784
并及	-10.6784
出種種	-10.6793
退轉	-10.6795
應與	-10.6796
不善行	-10.6813
而還	-10.6814
見是	-10.6832
最為	-10.6833
沙門道人	-10.6833
當知彼	-10.6835
我無	-10.6836
不及	-10.6836
舍那	-10.6837
八字	-10.6837
非沙門	-10.684
叉	-10.6853
佛亦	-10.6855
說此法	-10.6855
已辦	-10.6856
壯	-10.6861
獨住	-10.6866
迦羅	-10.6872
八法	-10.6872
七處	-10.6876
大苦	-10.6877
身業	-10.6879
道弟子	-10.6881
擲置	-10.6886
羅閱城	-10.6887
聖道	-10.6889
爾所	-10.69
當說	-10.6903
為汝說	-10.6905
池中	-10.6906
自行	-10.6906
那羅	-10.6911
低	-10.6913
作已	-10.6914
卵	-10.6917
身口	-10.6919
商主	-10.6921
谷	-10.6922
諸釋	-10.6922
如來出世	-10.693
期	-10.6931
無有我	-10.6934
9	-10.6938
漬	-10.6938
徑	-10.694
諸苦	-10.694
光焰	-10.6941
厄	-10.6941
虛偽	-10.6942
塞	-10.6944
世無	-10.6946
崇	-10.6946
尺	-10.6947
毘尼	-10.6948
盡知	-10.6948
離車	-10.695
曇彌	-10.6951
涕	-10.6952
天及魔	-10.6953
緣欲	-10.6955
說是法	-10.6956
光明照耀	-10.6956
法樂比丘尼	-10.6957
鴦崛髻	-10.6958
不清淨	-10.6958
生善處天上	-10.6958
賣	-10.6958
譏	-10.6959
歷	-10.696
拂	-10.696
伽藍	-10.696
阿攝惒邏延多那摩納	-10.6962
此事不然	-10.6963
有此四	-10.6963
第九	-10.6964
彼見色光明尋復滅	-10.6964
娑羅	-10.6968
白髮	-10.6968
受無量苦	-10.6968
殊妙	-10.6971
心樂	-10.6973
隨逐	-10.6976
田家	-10.6976
乃至自知不受後有	-10.6977
精進根	-10.6978
如是二三四	-10.698
於此處	-10.6985
無求	-10.6985
皆共	-10.6986
佛經	-10.6986
如來所	-10.6996
年少比丘	-10.6997
何用	-10.7001
常懷	-10.7004
漏盡阿羅漢	-10.7006
有大功德	-10.7008
道路	-10.7016
頂禮	-10.7017
精勤不懈	-10.7017
同一	-10.7023
南無	-10.7028
愧	-10.7028
梵志種	-10.703
為人所	-10.7031
是為五	-10.7032
大施	-10.7039
可見	-10.7045
捨此	-10.7048
上坐	-10.7049
我今已	-10.705
解脫處	-10.7051
遊於	-10.7051
吾等	-10.7051
之間	-10.7057
復告	-10.7057
念根	-10.7062
大乘	-10.7064
耆舊	-10.7065
不善業	-10.7071
成此法	-10.7072
過去事	-10.7081
信施	-10.7084
世尊告阿難	-10.7085
成佛	-10.7086
其餘	-10.7086
無生	-10.7088
耆	-10.7092
勢	-10.7102
墮惡道	-10.7104
驚怖	-10.7107
其頭	-10.711
一身	-10.7114
是三種	-10.7114
如意	-10.7116
聽許	-10.7118
識是我	-10.7122
兼	-10.7125
誨	-10.7126
便能	-10.7135
如我今日	-10.7135
眼根	-10.7136
當滅	-10.714
迷惑	-10.7144
復自念	-10.7149
大歡喜	-10.7155
今以	-10.7157
問訊已	-10.7161
於上	-10.7165
豈不	-10.7166
貪嫉	-10.7167
為上	-10.7168
子孫	-10.7168
高廣	-10.7168
2	-10.7172
會中	-10.7172
分別其義	-10.7177
慚	-10.7179
光照	-10.7181
三尊	-10.7192
遲	-10.7193
識止處	-10.7194
誑	-10.7195
輪迴	-10.7198
龜	-10.7198
瘦	-10.7199
行澡水	-10.72
清白	-10.7202
飢餓	-10.7203
從更復更	-10.7203
吉	-10.7206
作佛	-10.7209
謂八正道	-10.7209
廣長各二千里	-10.7209
五百比丘	-10.7209
燒炙	-10.7209
著地	-10.721
飢饉	-10.7211
白㲲	-10.7212
三摩竭	-10.7212
上天	-10.7213
摸	-10.7213
必有	-10.7213
假使	-10.7214
屋舍	-10.7214
再	-10.7214
即起	-10.7216
敷座而坐	-10.7218
斛	-10.7219
從人至	-10.722
尊者浮彌	-10.7221
得福	-10.7221
正身正意	-10.7222
過去久遠	-10.7227
一指	-10.7227
彼云何	-10.7227
壽終	-10.7229
應如是	-10.7231
膿血	-10.7231
依法	-10.7234
受奉行	-10.7244
雙樹間	-10.7244
彼雖	-10.7247
遊觀	-10.7249
日天子	-10.725
得出	-10.725
即問	-10.7253
此大地	-10.7253
審諦	-10.7254
法故	-10.7259
現身	-10.726
謂四	-10.7261
八解脫	-10.7263
是變易法	-10.7267
其形	-10.7269
共議	-10.7272
過去世	-10.7275
灑	-10.7279
無人	-10.7279
梵摩	-10.7281
是汝師	-10.7284
無所畏	-10.7285
無漏心解脫	-10.7292
豈非	-10.7295
善修	-10.7296
還生	-10.7298
熏	-10.7305
除諸亂	-10.7312
棺	-10.7316
學戒	-10.7319
我所說者	-10.732
毀謗	-10.7322
作善	-10.7323
一切智	-10.7325
法行	-10.7325
三毒	-10.7329
有法	-10.733
教勅	-10.7334
戒具足	-10.7336
為諸	-10.7337
得大	-10.7345
難提波羅陶師	-10.7349
所樂	-10.735
三業	-10.7352
令有	-10.7352
出家學道者	-10.7352
生法	-10.7357
闕	-10.7363
便以	-10.7369
傍	-10.737
以此緣	-10.7378
修行梵行	-10.7378
緣眼	-10.738
及比丘僧	-10.738
是為一	-10.7381
聞世尊所說	-10.7384
賢聖法	-10.7385
因緣此	-10.7397
有過	-10.7398
摩竭	-10.7404
三衣	-10.7405
三字	-10.7406
身命	-10.7409
中道	-10.7409
又彼	-10.7411
,『	-10.7412
嫁	-10.7412
營	-10.7413
不兩舌	-10.7416
佛問	-10.7417
此五	-10.742
便不	-10.7421
能斷	-10.7423
修身	-10.7429
聞世尊	-10.743
兵眾	-10.7431
愛喜	-10.7432
如應	-10.7434
復作	-10.7434
不能自	-10.7435
三十七品	-10.744
得大福	-10.7443
擾	-10.7446
擇	-10.7452
龍象	-10.7453
驅	-10.7457
灌頂	-10.7458
阿颰	-10.7463
勒	-10.7468
怪	-10.747
栽	-10.747
湯	-10.7471
闊	-10.7472
官	-10.7473
無量識處	-10.7475
腦	-10.7476
謂因	-10.7477
琴	-10.7477
敵	-10.7478
優波離	-10.7478
敬順	-10.7478
大愛道	-10.7479
剋	-10.7481
脇	-10.7481
阿奇	-10.7481
使不	-10.7482
墜	-10.7482
震動	-10.7483
偏	-10.7483
無能及者	-10.7485
跋迦梨	-10.7485
著三法衣	-10.7486
與大比丘眾千二百五十人俱	-10.7486
色陰	-10.7487
自相謂言	-10.7488
長苦行尼揵	-10.7488
自當	-10.7489
略說如上	-10.749
以七寶成	-10.749
心法	-10.7491
無量方便為彼說法	-10.7491
青蓮華	-10.7492
以何因緣	-10.7492
得離	-10.7493
云何為十	-10.7493
於現法中自知自覺	-10.7497
夫主	-10.7498
各各自鳴	-10.7498
譯聞如是	-10.7499
人乎	-10.7502
所起	-10.7502
以法治化	-10.7506
是彼	-10.7507
作頌	-10.751
斷不與取	-10.751
當思惟	-10.751
大象	-10.7511
白象	-10.7512
是故當知	-10.7512
不過	-10.7513
因欲	-10.7515
亦得	-10.7516
終後	-10.7518
未終	-10.7519
後復	-10.7524
所標	-10.7525
或生	-10.7527
無福	-10.7528
若其	-10.7529
教已	-10.7531
淨心	-10.7533
分明	-10.7533
王位	-10.7535
此女	-10.7544
無觀	-10.7553
好惡	-10.7554
捨身	-10.7557
五道	-10.7558
從佛	-10.7558
躬自	-10.7561
有苦	-10.7565
生天之	-10.7569
不出	-10.757
得大果	-10.7571
腹中	-10.7575
天身	-10.7577
惡聲	-10.7578
頂上	-10.7582
諸商人	-10.759
柔和	-10.759
如是觀者	-10.7597
是為八	-10.7598
王者	-10.7599
王復	-10.7599
能除	-10.7603
長者家	-10.7609
不堪任	-10.7613
有幾	-10.7614
無央數	-10.7625
能分別	-10.7626
徒	-10.7628
六師	-10.7629
應當知	-10.7636
須跋	-10.7638
諸阿修羅	-10.764
見他	-10.764
不絕	-10.7648
安處	-10.7652
床座	-10.7653
族姓	-10.7662
迦葉佛	-10.7663
從座起去	-10.7663
亦自	-10.7665
汝應	-10.7667
惡意	-10.7667
於眾生	-10.7669
我所說	-10.7674
不悅	-10.7678
苦聖諦	-10.7683
大家	-10.7686
入定	-10.7686
得至	-10.7687
有七寶	-10.7688
語彼	-10.7693
我悉	-10.7696
為沙門	-10.7698
弓	-10.77
七百	-10.7701
伽羅	-10.7704
不疑	-10.7705
可以	-10.7706
之子	-10.7707
能忍	-10.7724
漏盡智	-10.7725
所住	-10.773
卒	-10.7735
最第一	-10.7737
身證	-10.7737
裹	-10.7739
如所說	-10.774
能行	-10.7741
敗劫	-10.7743
當如是答	-10.7746
夷	-10.7746
濡	-10.7746
公	-10.7747
崩	-10.7748
6	-10.7749
頸	-10.775
飛鳥	-10.7753
宿命智	-10.7754
朽	-10.7754
登	-10.7756
印	-10.7756
比丘修習念身	-10.7757
耗	-10.7757
娑	-10.7758
呪願	-10.7759
雜阿含	-10.776
賢者大拘絺羅	-10.7762
謂彼	-10.7762
純一滿淨	-10.7763
增減	-10.7766
吉祥	-10.7767
盡滅	-10.7768
傷害	-10.7769
談論	-10.7769
世之希有	-10.7769
歡樂	-10.777
婆蹉種出家	-10.7771
趣至惡處	-10.7774
念覺分	-10.7774
清明	-10.7774
墮落	-10.7775
彼如是知	-10.7776
王前	-10.7777
到時	-10.7777
極精勤	-10.7777
香稻	-10.7778
尊敬	-10.7778
禮足	-10.7779
無為無求	-10.778
我便	-10.7781
本無	-10.7785
不苦不樂痛	-10.7786
智慧解脫	-10.7792
頭那	-10.7794
染污	-10.7796
諸所有色	-10.7803
取其	-10.7805
墮地獄	-10.7805
意止	-10.7812
共論議	-10.7812
何所起	-10.7812
天樂	-10.7814
自歸佛	-10.7814
授與	-10.7816
是謂第三	-10.7821
端政	-10.7821
邊有	-10.7826
減損	-10.7831
」《	-10.7836
之食	-10.7838
得無所畏	-10.7841
利根	-10.7842
與諸比丘	-10.7844
生已	-10.7845
不得自在	-10.7851
世尊復說偈	-10.7851
信解	-10.7851
苦因	-10.7854
斷受	-10.7858
正直	-10.786
火界	-10.786
此亦	-10.7864
法說	-10.7865
為弟子	-10.7872
行惡	-10.7872
具受	-10.7874
齋戒	-10.788
受滅	-10.7887
別知	-10.789
下至	-10.7893
不增	-10.7901
所有諸	-10.7904
增上慢	-10.7905
有邊	-10.7907
相似	-10.7916
我法	-10.7917
為從	-10.7919
見一	-10.7919
其口	-10.792
不習	-10.7923
得滅	-10.7926
觀視	-10.7932
有想無想處	-10.7934
戒律	-10.7939
復於	-10.7939
至于	-10.7939
眼見色	-10.7942
古	-10.7951
開解	-10.7956
至得第四禪成就遊	-10.7961
將欲	-10.7962
支節	-10.7965
停	-10.7966
然其	-10.7968
倚	-10.7968
道德	-10.7969
我今亦	-10.797
以鐵	-10.7978
便得安隱	-10.7978
不顛倒	-10.7986
次有	-10.7986
作諸	-10.7994
將諸	-10.7999
我非	-10.8
釋迦文	-10.8003
調御丈夫	-10.8006
為誰	-10.8006
能解	-10.8007
我今日	-10.8008
不獲	-10.8011
拭	-10.8014
緣此	-10.8015
如說	-10.8015
熾	-10.8017
顏	-10.802
此沙門瞿曇	-10.8021
頃	-10.8021
釋氏	-10.8022
道中	-10.8022
震	-10.8023
之類	-10.8023
阿耨達龍王	-10.8024
不審	-10.8024
廬	-10.8028
太	-10.8033
5	-10.8033
鑽	-10.8035
內覺	-10.8036
淫	-10.8036
深義	-10.8037
所出	-10.8037
七覺分	-10.8039
安立	-10.804
逸	-10.8041
三痛	-10.8042
超越	-10.8046
前後圍繞	-10.8046
汝師	-10.8046
低頭	-10.8047
婆羅邏	-10.8047
不孝父母	-10.8048
偽	-10.8048
不入	-10.8049
作是觀	-10.8049
代	-10.805
盡諸有結	-10.805
針	-10.805
昇上	-10.805
能度	-10.8051
彈琴	-10.8052
大神	-10.8056
他信施	-10.8058
來至佛所	-10.8059
目犍連	-10.8059
噉	-10.806
堪耐	-10.8062
比丘觀身如身	-10.8062
滿財長者	-10.8063
賢者迦旃延	-10.8063
聞其所說	-10.8064
無結	-10.8066
為天	-10.8066
於法得	-10.8067
頞波羅延	-10.8068
真淨王	-10.8069
不廣分別	-10.807
然不	-10.8071
為多	-10.8073
智慧成就	-10.8075
過失	-10.8075
相謂言	-10.8078
意知法	-10.8079
便生此念	-10.808
園苑	-10.8082
彼苦行者	-10.8082
孝順父母	-10.8083
世尊弟子	-10.8084
於佛法中	-10.8085
永盡	-10.8086
不瞋	-10.8086
修四念處	-10.8089
惡鬼	-10.8091
緣斯	-10.8095
不從	-10.8096
汝言	-10.8097
生喜	-10.8098
汝今可	-10.8098
以見	-10.8098
亦復然	-10.8099
為人說	-10.8099
食時	-10.8104
以教	-10.8105
帝王	-10.8114
水火	-10.8116
永滅	-10.8118
。』『	-10.8121
九十	-10.8123
重擔	-10.8126
是謂第二	-10.8126
在後	-10.8127
須摩提女	-10.8127
自手	-10.8127
樹枝	-10.8131
害心	-10.8133
於正法中	-10.8134
若世尊	-10.8134
身死	-10.8136
願佛	-10.8139
奉上	-10.8143
生欲	-10.8145
受此行	-10.8152
汝欲	-10.8152
晡時從禪	-10.816
花果	-10.8162
精進沙門	-10.8162
具足清淨	-10.8166
常在	-10.8169
海中	-10.8176
生恐怖	-10.8177
口意	-10.8179
請佛	-10.8179
建	-10.818
彼比丘應	-10.8181
後有	-10.8182
安般	-10.8183
未知	-10.8188
枯	-10.8191
地動	-10.8194
無缺	-10.8195
水上	-10.8197
佛弟子	-10.8198
婦人	-10.8199
得至涅槃	-10.8199
不為惡	-10.8206
務	-10.8209
所相	-10.8211
起增上	-10.8211
報之	-10.8213
身上	-10.8215
應時	-10.8216
為汝	-10.8218
無極	-10.8225
使者	-10.8226
閑	-10.823
受我	-10.8238
一切法	-10.824
死時	-10.8244
今現在	-10.8245
求利	-10.8252
三曰	-10.8256
人眾	-10.8257
十三	-10.8257
]《	-10.8265
之意	-10.8272
在一處	-10.8279
識味	-10.8283
寶藏	-10.829
持衣鉢	-10.829
三名	-10.8292
吾當	-10.8297
謙	-10.8298
婆羅門長者	-10.8303
煙	-10.8304
永盡無餘	-10.8307
毘婆尸如來	-10.8308
博	-10.8313
鈎	-10.8315
以偈問	-10.8321
僧伽梨	-10.8322
談	-10.8323
剎利頂生王	-10.8324
瑞	-10.8325
丘	-10.8326
醉	-10.8327
五樂	-10.8328
識界	-10.8328
荒	-10.833
踰	-10.833
依此林住	-10.8331
椎	-10.8332
修習於	-10.8333
謂我	-10.8334
指鬘	-10.8334
張	-10.8335
或在	-10.8335
復有叢樹名	-10.8335
問訊世尊	-10.8335
教法	-10.8337
欣悅	-10.8337
四十里	-10.8338
身自歸	-10.8339
壓	-10.8339
得甘露味	-10.8339
斂	-10.834
呪術	-10.8341
沙門鳩摩羅迦葉	-10.8342
極大富樂	-10.8342
踊躍歡喜	-10.8343
或一	-10.8343
殊特	-10.8344
惡者	-10.8345
樓閣	-10.8345
膏	-10.8345
地肥	-10.8346
縮	-10.8347
生不善念	-10.8347
拔絕	-10.8347
修無上梵行	-10.8348
別譯	-10.8349
有差別	-10.8349
長夜安樂	-10.8349
洗鉢	-10.835
生處	-10.8357
或為行道	-10.8358
覆藏	-10.8359
無量百千	-10.8362
尊者大迦葉	-10.8362
彼轉輪王	-10.8362
佛身	-10.8364
白色	-10.8368
事業	-10.8369
空閑	-10.8371
所愛	-10.8372
還于	-10.8372
末利	-10.8373
過患	-10.8373
堂上	-10.8377
是二	-10.8378
得斯陀含	-10.838
弊魔	-10.838
受用	-10.8381
住此	-10.8382
禮佛足已	-10.8389
皆為	-10.839
已知我心	-10.8395
我等今日	-10.8398
邪語	-10.8398
作嬈亂	-10.8399
當與	-10.8401
於內	-10.8403
勿復	-10.8403
今可	-10.8412
捨於	-10.8421
迦葉比丘	-10.8422
不復受	-10.8424
取著	-10.8425
長久	-10.8426
無色愛	-10.8427
是佛	-10.8428
乃得	-10.8433
欲心	-10.8434
如上所說	-10.8436
地中	-10.8437
便作是說	-10.8439
作王	-10.8447
一種	-10.8448
互	-10.8458
之論	-10.8463
剎利女	-10.8467
名德	-10.8474
訖已	-10.8475
緣覺	-10.8478
邏	-10.8479
若說	-10.848
彼見	-10.8486
日一食	-10.8488
邪定	-10.8489
多行	-10.8494
世尊所說	-10.8494
穢惡	-10.8496
平旦	-10.8497
意所	-10.85
若在	-10.8503
心清淨	-10.851
一切苦	-10.851
於眼	-10.8512
我本所	-10.8517
云何為一	-10.8522
知色	-10.8524
正信	-10.8525
眼觸因緣生	-10.8526
彼當	-10.8529
渧	-10.8533
不聽	-10.854
畏怖	-10.8543
已捨	-10.8546
頭上	-10.8552
珍	-10.8554
不順	-10.8558
法教	-10.8566
四天王天	-10.8577
故生	-10.8579
大龍	-10.8588
滅無餘	-10.8588
謂四念處	-10.8588
行於	-10.859
聽我	-10.8591
之明	-10.8596
惠	-10.8599
樂報	-10.86
妹	-10.8604
尊者阿難語	-10.8605
馬師	-10.8611
空無	-10.8617
聞聲	-10.862
生盲	-10.8623
孤	-10.8625
以欲為本	-10.8625
翳	-10.8625
此即是	-10.8626
伐	-10.8627
慇懃	-10.8628
心住	-10.8629
無怨	-10.8629
淨潔	-10.863
瑜誐	-10.8631
陛	-10.8631
愍傷	-10.8632
終不得	-10.8632
糞掃衣	-10.8634
以是緣故	-10.8635
8	-10.8636
慰勞	-10.8638
上中下	-10.8638
飽	-10.8639
威儀禮節	-10.8641
捨心	-10.8641
定生喜	-10.8642
八正道	-10.8642
咄	-10.8642
憐愍	-10.8642
盡當	-10.8643
無後死	-10.8644
佛在王舍城迦蘭陀竹林	-10.8646
以信堅固	-10.8647
早起	-10.8647
四正斷	-10.8648
男子女人	-10.8648
都不	-10.865
快得善利	-10.865
在閑靜之處	-10.8651
大聖	-10.8651
提婆達多	-10.8652
淳陀	-10.8652
其身光明遍照	-10.8653
安置	-10.8653
正說	-10.8653
有此法	-10.8654
入晝正受	-10.8655
當修行一法	-10.8656
無有厭足	-10.8656
杵	-10.8657
得十種功德	-10.8659
饒財多寶	-10.8659
命即是身	-10.8659
寒熱	-10.8661
若不爾者	-10.8663
憍慠	-10.8663
百阿那含	-10.8665
乞求	-10.8665
諸末羅	-10.8665
已住	-10.8669
百正見人	-10.867
欝單越人	-10.867
變悔	-10.8672
如是一切善法	-10.8673
後生	-10.8676
道士	-10.8679
高下	-10.8683
其色	-10.8684
五日	-10.8686
此賢	-10.8688
我能	-10.8689
有義有	-10.869
不宜	-10.8691
乞食已	-10.8692
不苦不樂覺	-10.8695
知佛	-10.87
餘眾生	-10.8702
唯除	-10.8704
心常	-10.8705
相與	-10.8711
蔭	-10.8711
苾芻眾	-10.8713
何等為七	-10.8713
汝能	-10.8715
慎莫	-10.8717
劇	-10.8721
城邑	-10.8727
護戒	-10.8732
象舍利弗	-10.8735
來入	-10.8739
緣故	-10.8741
一切悉	-10.8749
所覺	-10.875
見其	-10.875
敷床	-10.875
詣尊者阿難所	-10.8751
阿難曰	-10.8756
五戒	-10.8757
惡不善	-10.8757
沙門法	-10.8757
我聞世尊	-10.8759
中央	-10.8761
口惡行	-10.8769
開示	-10.8771
彼知此	-10.8772
即詣	-10.8774
若行	-10.8776
摩竭國	-10.878
其樹	-10.8785
三寶	-10.8786
相好	-10.8788
得力得	-10.8791
有病	-10.8792
國人民	-10.8793
有明	-10.8793
念天	-10.8794
大地獄	-10.88
世尊而說	-10.88
阿修羅王	-10.8802
無患	-10.8802
尊師	-10.8804
無因	-10.8805
是等	-10.8807
樹神	-10.881
是何	-10.8811
其行	-10.8817
東面	-10.882
而後	-10.882
明淨	-10.8822
謂八聖道	-10.8823
或至	-10.8836
云何為七	-10.8837
死人	-10.8837
我心中	-10.8838
欲念	-10.8838
有種種	-10.8839
佛所說	-10.8839
復至	-10.884
以此義	-10.884
周匝圍繞	-10.8842
非有	-10.8843
我不說	-10.8844
我復	-10.8845
成就遊	-10.8846
復入	-10.8848
得修梵行	-10.8848
為其	-10.8848
大火	-10.8848
語我	-10.8868
現神足	-10.8868
陳	-10.8871
不退轉	-10.8871
前行	-10.8882
有種種樹	-10.8887
不異我	-10.8889
之業	-10.8894
使令	-10.8895
往詣彼	-10.8896
便問	-10.891
三千	-10.8912
悔恨	-10.8918
蔽	-10.892
屠	-10.892
善者	-10.8926
自然粳米	-10.8928
過夜平旦	-10.8931
蚊虻	-10.8932
若魔	-10.8933
米穀	-10.8936
獼猴	-10.8938
其母	-10.8938
素	-10.8939
入彼	-10.8943
有也	-10.8944
疊	-10.8945
智慧人	-10.8946
謝	-10.8946
得道者	-10.8946
春	-10.8946
唾	-10.8947
7	-10.8947
擣	-10.8949
增廣	-10.8949
兵仗	-10.8951
從受復受	-10.8951
復有一	-10.8951
無見	-10.8952
不作是念	-10.8952
燕坐	-10.8952
識受陰	-10.8952
尼揵親子	-10.8953
髑髏	-10.8953
敷演	-10.8954
啄	-10.8954
萬物	-10.8954
臺	-10.8955
我於今者	-10.8955
國中有	-10.8955
有覺有觀	-10.8956
手自斟酌	-10.8956
舉身	-10.8956
成大果報	-10.8956
苦陰	-10.8957
偷	-10.8957
發起	-10.8958
頻毘娑羅王	-10.8959
族姓女	-10.896
沙門義	-10.896
隱覆	-10.896
捷疾具足	-10.896
輿	-10.8962
何所見我	-10.8963
翅	-10.8963
明行足	-10.8963
若無常者	-10.8964
得生天	-10.8965
衰退	-10.8965
我從今日	-10.8966
調笑	-10.8968
輸屢那	-10.897
腐敗	-10.8971
常有	-10.8971
應說	-10.8971
如餘沙門	-10.8971
長夜輪轉	-10.8972
獲福	-10.8973
和順	-10.8976
遍照	-10.8976
修諸善法	-10.8977
東向	-10.8981
誰為	-10.8983
斯陀含果	-10.8986
不具足	-10.8989
阿須倫王	-10.899
竪	-10.8995
依住	-10.8996
得無漏	-10.8996
婆提	-10.9
相連	-10.9001
即彼	-10.9001
有欲	-10.9005
以此方便	-10.9005
極廣	-10.9006
是亦	-10.9011
則於	-10.9012
以何為	-10.9012
三世	-10.9013
無義	-10.9014
家家	-10.9015
火坑	-10.9017
昔有	-10.9019
人心	-10.9019
種種諸	-10.9021
不如法	-10.9024
心結	-10.9028
坐起	-10.903
作是念言	-10.9031
此名為	-10.9033
若善男子	-10.9036
未來世	-10.9036
復念	-10.9036
戒者	-10.9039
為妙	-10.904
諸漏	-10.9042
口業	-10.9045
岸上	-10.9049
樹林	-10.9052
不習近	-10.9053
說微妙法	-10.9057
及後世	-10.9058
皆歡喜	-10.906
有著	-10.906
之衣	-10.9065
此兒	-10.9065
滅道跡	-10.9065
如佛所說	-10.9067
不可樂	-10.9068
亦各	-10.9077
愛法	-10.908
世尊在	-10.9089
斬	-10.9092
莫作	-10.9092
竟亦	-10.9093
離愛	-10.9096
是謂第一	-10.9097
無害	-10.91
滿中	-10.9102
具戒	-10.9104
日光	-10.9105
摩尼寶	-10.9112
王有	-10.9113
有比丘	-10.9116
為無有	-10.9116
六觸入處	-10.9118
諸經	-10.9119
惡言	-10.9135
為緣	-10.9138
八百	-10.9139
未至	-10.9139
熱鐵	-10.914
惡慧	-10.9146
其土	-10.9148
廣長	-10.9151
又如	-10.9152
觀內	-10.9153
道諦	-10.9153
所害	-10.9154
佛告長者	-10.9154
善調	-10.9155
及法	-10.9164
復問言	-10.9165
異見	-10.9167
緣彼	-10.9171
不能知	-10.9171
異人	-10.9171
謂言	-10.9174
于時	-10.9175
諸國	-10.9176
王有子	-10.9179
各異	-10.9181
與諸	-10.9183
有疑惑	-10.9184
一切諸法	-10.9186
履	-10.9192
共行	-10.9194
電光	-10.9195
乃至大	-10.9195
云何得	-10.9198
不稱	-10.9199
取之	-10.9204
此苦	-10.9206
以知	-10.9207
便入	-10.9207
從癡	-10.9208
見人	-10.921
有自然	-10.9213
於此正法	-10.9213
依離	-10.9214
殘	-10.9215
善現	-10.9218
令不	-10.9219
斯人	-10.9225
不空	-10.923
解脫已	-10.9232
手中	-10.9233
馬車	-10.9239
夫婿	-10.9241
欣	-10.9253
梵世	-10.9254
屍	-10.9256
慙	-10.9258
市	-10.9259
分衛	-10.9262
詐	-10.9265
行乞食	-10.9266
梯	-10.9266
剝	-10.9266
羞恥	-10.9268
四字	-10.9269
禍	-10.927
何所有故	-10.927
鬪戰	-10.927
棘	-10.9271
欲問	-10.9272
不滅	-10.9272
難陀比丘	-10.9273
稍	-10.9273
金銀珍寶	-10.9273
天耳	-10.9273
醫藥	-10.9274
豪貴	-10.9274
身身觀念住	-10.9274
形貌	-10.9277
披	-10.9278
習近	-10.9278
緩	-10.9279
便捨而去	-10.9279
復有諸	-10.928
豐饒	-10.928
不止	-10.928
〔	-10.9281
此色	-10.9281
神德	-10.9281
世尊說此頌	-10.9283
檀越施主	-10.9283
五百弟子	-10.9284
高百由旬	-10.9284
尼揵子	-10.9284
當廣布一法	-10.9284
於王	-10.9284
野干	-10.9285
財貨	-10.9286
誹謗賢聖	-10.9287
阿羅呵	-10.9287
主兵臣寶	-10.9287
甘露法	-10.9287
加赦國王梵摩達哆	-10.9287
捫摸	-10.9288
拘牢婆王	-10.9288
不得久住	-10.9289
毒箭	-10.9289
入王舍城乞食	-10.929
殺之	-10.929
卷上	-10.9291
夢見	-10.9291
不知苦之本際	-10.9291
汝當為諸年少比丘說	-10.9292
乃至無數眾鳥相和而鳴	-10.9292
不乎	-10.9295
皆大歡喜	-10.9295
顯現梵行	-10.9296
我當為汝	-10.9296
時王	-10.9298
所生之處	-10.9298
其家	-10.9298
於識	-10.93
說此語	-10.93
如之何	-10.93
兩手	-10.9303
從今	-10.9303
親親	-10.9303
摩納磨	-10.9305
眼滅	-10.9307
資	-10.9309
無餘涅槃	-10.931
二字	-10.931
我家	-10.9311
進止	-10.9325
美色	-10.9327
依遠離	-10.9329
有勝如	-10.9331
是智	-10.9331
白銀	-10.9331
一切諸行	-10.9332
說伽陀	-10.9333
成劫	-10.9337
大患	-10.9337
兇惡	-10.9338
何等為八	-10.9338
以此為	-10.934
莊嚴其身	-10.9341
種種界	-10.9346
佛住王舍城	-10.9352
樹下坐	-10.9352
遣使	-10.9352
厭惡	-10.9353
至涅槃	-10.9357
觀外	-10.9361
伽陀	-10.9361
停住	-10.9366
諸離車	-10.9367
慈悲	-10.9372
梵摩達王	-10.9374
各各相	-10.9374
更無餘	-10.9375
彼行	-10.938
行身惡行	-10.9382
樂滅	-10.9386
四名	-10.9393
今世後世	-10.9395
彼命終	-10.9398
欲樂	-10.9399
有沙門	-10.94
富樂	-10.9401
或復有時	-10.9403
騎乘	-10.9406
發心	-10.9407
可喜	-10.941
念處	-10.9411
相師	-10.9414
已竟	-10.9415
若因	-10.9419
放捨	-10.9419
默然受請	-10.9419
名曰善	-10.9424
有眾生	-10.9425
愛生	-10.9426
無有人民	-10.9427
言論	-10.9429
右手	-10.9431
無厭	-10.9432
所獲	-10.9437
不語結	-10.9437
餘罪	-10.9439
一生	-10.9439
諸比丘僧	-10.9446
瞿曇沙門	-10.9446
專一	-10.9447
致此	-10.9448
有八	-10.9455
若比丘眾	-10.9455
常法	-10.9463
滅訖	-10.9465
想念	-10.9469
曉了	-10.947
身光	-10.947
所止	-10.9473
阿修羅眾	-10.9479
正向	-10.9479
出現世	-10.9479
宮內	-10.948
道行	-10.948
在眾中	-10.9486
。」《	-10.9486
念力	-10.9487
彼天神	-10.9489
即勅	-10.9491
流出	-10.9493
於世尊	-10.9495
罪故	-10.9498
地獄諸眾生輩	-10.9503
恐懼	-10.9504
明了	-10.9505
有此三	-10.951
六百由旬	-10.9512
今欲	-10.9516
說此義	-10.9516
造立	-10.9517
光明照	-10.9517
見色	-10.9523
究竟梵行	-10.9524
識神	-10.9524
缺	-10.9526
彼眾	-10.9527
統	-10.9532
名阿	-10.9537
能滅	-10.9537
尊長	-10.9539
無限	-10.954
受快樂	-10.9543
口出	-10.9543
如是眾生	-10.9543
已度	-10.9546
若族姓子	-10.9547
無此	-10.9553
曇	-10.9554
彼愚癡人	-10.9555
恭敬供養	-10.9558
駕乘	-10.9561
迴轉	-10.9563
疲	-10.9564
義理	-10.9573
為世間	-10.9576
十九	-10.9578
來此	-10.9578
泥犁旁	-10.9581
濕	-10.9581
續	-10.9582
於汝等	-10.9584
原	-10.9586
即知	-10.9586
此二法	-10.9587
有兩	-10.9589
不得解脫	-10.9591
般	-10.9593
軀	-10.9594
生長	-10.9594
掘	-10.9596
痛痒	-10.9596
豪	-10.9596
於空	-10.9596
淵	-10.9597
㲲	-10.9598
諸家	-10.9598
踊	-10.9598
此言	-10.9599
繁茂	-10.96
撰	-10.9602
二邊	-10.9602
微細	-10.9603
輙	-10.9604
弱	-10.9605
啼	-10.9606
煑	-10.9607
毒蛇	-10.9608
比丘所行	-10.9609
法法觀念住	-10.9609
三千大千世界	-10.961
正士	-10.9611
八日	-10.9611
犁	-10.9612
〕-【	-10.9613
尼乾子	-10.9613
諦受	-10.9613
涉	-10.9614
爾許	-10.9617
鏡	-10.9617
良福田	-10.9618
稱量	-10.9619
利劍	-10.9619
斷疑度惑	-10.962
花實	-10.9621
諸根寂靜	-10.9621
且置	-10.9622
迦蘭陀竹園	-10.9622
四萬二千由旬	-10.9622
嚩	-10.9622
卷下	-10.9623
身體輕便	-10.9624
現法樂居	-10.9625
比丘起發牛角娑羅林	-10.9626
畢竟	-10.9626
能捨惡	-10.9627
分散	-10.9628
默然不答	-10.9628
苦哉	-10.9628
變異	-10.9629
夫婦	-10.963
贖命	-10.963
居止	-10.9631
不可恃怙	-10.9631
在大眾中	-10.9631
如律業	-10.9632
婆悉吒	-10.9632
想滅	-10.9633
卷第三十	-10.9634
不然	-10.9634
從其	-10.9634
佛告摩訶男	-10.9636
低舍	-10.9637
除滅	-10.9638
大明	-10.964
迫	-10.964
汝所修行	-10.9641
見王	-10.9641
寂無音	-10.9642
專念	-10.9643
不相應	-10.9644
愍念	-10.9647
為癡	-10.9647
是謂第五	-10.9648
咎	-10.965
不作惡業	-10.9651
通利	-10.9651
承受	-10.9653
大祀	-10.9654
色有	-10.9654
座上	-10.9655
穿	-10.9657
並皆	-10.966
亦應	-10.966
是謂第四	-10.9662
財產	-10.9662
作師子吼	-10.9662
風雨	-10.9667
今為	-10.9667
上妙	-10.9669
善說法	-10.968
於何	-10.968
奉施	-10.9681
田作	-10.9682
大目連	-10.9683
諸善	-10.9684
染著心	-10.9684
已除	-10.9686
是耳	-10.9689
比丘尼成就	-10.9689
受是	-10.969
赤色	-10.9694
甘美	-10.9698
身妙行	-10.9698
可畏	-10.97
食後	-10.9703
千六百	-10.9704
火中	-10.9704
少壯	-10.9704
勝法	-10.9708
乘車	-10.9708
深法	-10.9708
所記	-10.9709
是央掘魔	-10.971
命過	-10.9712
諸鬼神	-10.9716
如法說	-10.9717
有煩	-10.9717
於心	-10.9718
不顧	-10.9721
佛道	-10.9724
有禪	-10.9724
退法	-10.9725
是名如來	-10.9727
我於此	-10.9728
王女	-10.9731
取食之	-10.9735
縱廣五百由旬	-10.9744
實是	-10.9747
善法堂	-10.9756
邪方便	-10.9756
在地	-10.9757
彼於爾時	-10.976
還來	-10.9761
戒德	-10.9763
度一切	-10.9768
如是修	-10.9772
墮地	-10.9772
滅之	-10.9773
畏懼	-10.9777
音響	-10.9779
問汝	-10.978
身不	-10.9781
佛以	-10.9784
或持	-10.9785
說是偈	-10.9786
明智	-10.9799
彼罪人	-10.98
諸煩惱	-10.9801
老母	-10.9804
能修	-10.9805
現前	-10.9807
河水	-10.9808
二比丘	-10.9812
由何	-10.9813
告苾芻眾	-10.9817
淨信	-10.9818
妙好	-10.9818
事火	-10.9819
萬由旬	-10.9819
當令	-10.9819
無有能	-10.9824
住立	-10.9824
求自	-10.9825
大樂	-10.9828
須陀洹果	-10.983
四見中	-10.9831
有慧	-10.9833
封	-10.9834
不爾	-10.9836
極苦	-10.9836
平正	-10.9836
眾具	-10.9838
無常想	-10.9838
一人言	-10.9842
下車	-10.9842
大水	-10.9842
意所念	-10.9843
十惡	-10.9844
優鉢羅花	-10.9846
八為	-10.9851
大仙	-10.9855
若汝等	-10.9856
之罪	-10.9858
拜	-10.9859
馬王	-10.986
六界	-10.9862
分陀利	-10.9864
老苦	-10.9874
後誦	-10.9878
坑	-10.988
共坐	-10.9882
出種種香	-10.9887
三十六	-10.9889
巧	-10.9893
自然生	-10.9893
或於	-10.9894
氏	-10.9895
共鬪	-10.9895
於善法	-10.9897
恃	-10.9898
從坐起而去	-10.9899
誓願	-10.9901
遊化	-10.9905
生喜樂	-10.9905
口生	-10.9914
壽命延長	-10.9916
大聲聞	-10.9916
若有此	-10.9918
我得	-10.9918
大士	-10.9922
謂六	-10.9922
像類	-10.9922
地獄苦	-10.9923
頻	-10.9924
度彼岸	-10.9924
餘沙門	-10.9929
清信士	-10.9931
朋友	-10.9931
邪志	-10.9933
其命	-10.9933
炭	-10.9934
剎利王	-10.9934
閻浮車問舍利弗	-10.9937
戀	-10.9939
入三摩地	-10.9939
諸神	-10.9944
餅	-10.9945
受集	-10.9946
則法不衰	-10.9946
得成	-10.9946
當問	-10.9946
諸比丘等	-10.9947
欝多囉究留人輩	-10.9947
之樂	-10.9949
如上三經	-10.9949
闍維	-10.9949
鄙	-10.995
浮彌	-10.995
誤	-10.9952
罵辱	-10.9953
快哉	-10.9954
蘭	-10.9954
嬉戲	-10.9955
合掌向佛	-10.9955
邪行	-10.9955
十號具足	-10.9957
為非	-10.9957
意在	-10.9958
憍尸迦	-10.9958
步兵	-10.9959
好醜	-10.996
佛住波羅㮈國仙人住處鹿野苑中	-10.996
寡	-10.996
裸形	-10.9961
憐念	-10.9961
和雅	-10.9961
知漏	-10.9961
瞿耶尼	-10.9961
旨	-10.9962
三藐三佛陀	-10.9962
苦報	-10.9963
從燕坐起	-10.9965
亦善	-10.9966
來詣我所	-10.9967
長生太子	-10.9967
以義饒益	-10.9968
憂悲苦惱	-10.9968
三菩提	-10.9969
若為諸年少比丘說教此	-10.997
我本為汝說	-10.997
為弟子說法	-10.9971
舍宅	-10.9971
斯惒提	-10.9971
總持	-10.9971
有憂慼邪行	-10.9972
二千	-10.9973
生死長遠	-10.9974
斷一切	-10.9975
欲還	-10.9976
鬪訟	-10.9978
亦二岐道	-10.9978
最極	-10.9978
正謂此	-10.9979
慈悲心	-10.9979
離生喜樂	-10.998
他心智	-10.9981
轉相	-10.9983
徒眾	-10.9983
空地	-10.9986
其最後王	-10.9989
不能答	-10.999
或從	-10.9992
祠祀	-10.9998
為他說	-10.9999
歸法	-11.0001
得無上	-11.0002
謂八支聖道	-11.0009
身有	-11.001
大風起	-11.0011
天中	-11.0012
入定意	-11.0014
是常	-11.0017
如來說法	-11.0017
而問	-11.002
共會	-11.0021
猶故	-11.0021
如是法	-11.0022
長遠	-11.0026
心自念	-11.0028
供養沙門	-11.0028
當取	-11.0032
一向樂	-11.0034
甚善	-11.0036
隨其所	-11.0046
定心	-11.0046
月宮殿	-11.0048
三人	-11.0051
世世	-11.0052
與佛	-11.0053
於諸天	-11.0054
成就此	-11.0054
之日	-11.0055
我今可	-11.0057
終身行	-11.006
斷知	-11.0063
墮於	-11.0067
堪忍	-11.0069
經典	-11.0074
為彼說法	-11.0077
是處	-11.0079
八種	-11.0079
可厭患	-11.0079
日宮殿	-11.0082
共集	-11.0091
不久當	-11.0093
悅樂	-11.0096
明者	-11.0097
實為	-11.0098
眾惡	-11.0102
定力	-11.0103
力故	-11.0105
亦皆	-11.0105
亂想	-11.0112
應奉事	-11.0112
不離欲	-11.0118
而食	-11.0122
為最上	-11.0129
是真	-11.0135
善攝	-11.0135
增其	-11.0139
可說	-11.0139
斷者	-11.0143
取此	-11.0149
羅陀比丘	-11.0149
村中	-11.015
將詣	-11.0155
亦知彼天如是	-11.0156
應知	-11.0157
音樂	-11.0165
比丘成就	-11.0173
持是	-11.0174
騎	-11.0179
行欲	-11.0181
在一面住	-11.0187
尊貴	-11.019
是念	-11.0193
若受	-11.0195
散壞	-11.02
其間	-11.0205
不違	-11.021
三惡	-11.0212
禽獸	-11.0214
我父	-11.0217
欲相應	-11.0224
隨所欲	-11.0226
聞法已	-11.0228
恒河	-11.0237
獨坐	-11.024
來世	-11.0241
摩那	-11.0242
百六十	-11.0243
向於	-11.0246
即於座上	-11.0248
身更	-11.025
為賊	-11.025
樹葉	-11.0253
五百比丘尼	-11.026
心便	-11.0261
得入	-11.0262
叫喚	-11.0262
因此緣此	-11.0265
是故我今	-11.0265
得大利	-11.0268
有智	-11.027
婆羅門食	-11.0278
一面坐	-11.0281
閻浮提人	-11.0282
信力	-11.0282
捕	-11.0283
我等當	-11.0284
奈何	-11.0287
受人信施	-11.029
不可見	-11.0291
宅	-11.0293
戴	-11.0294
觀法	-11.0295
願王	-11.0295
琉璃及水精	-11.0296
若異	-11.0297
生三十三天	-11.0299
入內	-11.0299
無有空缺	-11.03
何集	-11.03
委	-11.0301
貨	-11.0302
羅雲	-11.0306
以一	-11.0307
騰	-11.0307
溝	-11.0307
有四事	-11.0308
獵師眷屬	-11.0308
諸善普至	-11.0309
其面	-11.0309
二十億耳	-11.0309
菴	-11.0309
毘舍離城	-11.0309
刃	-11.031
默然不對	-11.031
源	-11.0311
清徹	-11.0311
婬怒癡	-11.0311
強耆	-11.0312
隣	-11.0312
戲笑	-11.0312
我慢繫著使	-11.0313
食噉含消	-11.0314
毘摩質多羅	-11.0314
八十種好	-11.0314
比丘尼以	-11.0315
受持學戒	-11.0315
釋迦	-11.0315
役	-11.0315
即取	-11.0316
心生歡喜	-11.0316
不妄	-11.0316
作倡伎樂	-11.0317
割截	-11.0318
集在一處	-11.0318
剃髮	-11.0318
調戲	-11.0319
壽命極長	-11.0322
為自	-11.0322
猶如王及大臣有	-11.0322
講論	-11.0323
瞿曇彌大愛	-11.0323
弊魔波旬	-11.0323
以無	-11.0323
死屍	-11.0324
勤苦	-11.0326
梵身天	-11.0326
衰老	-11.0327
若諸梵行來問	-11.0328
皆是阿羅漢	-11.0329
佛告犢子	-11.0329
遍覆	-11.033
訓誨	-11.033
為眾	-11.0331
一坐食	-11.0332
死亡	-11.0332
浣	-11.0332
氣味	-11.0334
於彼處	-11.0334
諍事	-11.0335
仙餘財主	-11.0336
勇健	-11.0337
恒伽	-11.034
煩惱隨增	-11.034
香花	-11.034
無有猶豫	-11.0342
來生人間	-11.0343
還去	-11.0348
所思	-11.035
賴吒和羅言	-11.0355
念戒	-11.0357
起大	-11.0359
入第四禪	-11.0368
我於彼	-11.0369
澡洗	-11.0369
和上	-11.0371
隨心	-11.0373
生歡喜	-11.0374
真金	-11.0374
作此說	-11.0377
破戒	-11.0382
於己	-11.0384
少食	-11.0392
五日出	-11.0394
若言	-11.0398
身行惡	-11.0405
信解脫	-11.0408
入般涅槃	-11.0409
善觀	-11.0409
有五百	-11.041
既生	-11.0411
責數	-11.0413
受戒	-11.0416
復還	-11.0417
阿羅漢果	-11.0417
求出家	-11.0418
之名	-11.0419
復有十	-11.0419
意觸	-11.0421
一食	-11.0424
比丘聞佛所說	-11.0431
知不	-11.0431
一毛	-11.0433
正慧	-11.0433
欲何所	-11.0435
宮門	-11.0438
得天眼	-11.0438
此是我	-11.0446
取命終	-11.045
其數	-11.0451
離此	-11.0454
有何義	-11.046
地主	-11.046
當言	-11.0463
聞如來	-11.0464
往詣佛	-11.0466
諸見	-11.0467
無間	-11.0471
意生	-11.0474
善覺	-11.0477
不淨想	-11.0479
沈	-11.0481
成佛道	-11.0482
欲漏	-11.0485
不向	-11.0485
我亦不	-11.0489
國事	-11.0497
露地	-11.0498
諸阿須倫	-11.0499
內有	-11.0501
我受持	-11.0503
為有我	-11.0505
諸小王	-11.0511
來生此	-11.0513
王欲	-11.0515
令滅	-11.052
作業	-11.0521
過去諸佛	-11.0531
篤信	-11.0532
詣向	-11.0533
諸惡業	-11.0534
四部眾	-11.0536
地種	-11.054
慎	-11.0541
如是事	-11.0542
常安隱	-11.0545
四姓	-11.0545
猶不	-11.0547
千二百	-11.0547
息止	-11.0548
中有一	-11.055
得一心	-11.0553
須陀	-11.0559
清淨心	-11.0561
此非我	-11.0568
而歸	-11.0568
則是	-11.0571
露坐	-11.0574
共居	-11.0579
謂比丘	-11.0579
此閻浮提	-11.0582
可忍	-11.0582
不近	-11.0582
▁2	-11.0586
彼亦如是	-11.0589
修善行	-11.059
乃有	-11.0591
婆蹉	-11.0595
有喜	-11.0607
乃可	-11.0614
岸邊	-11.0614
往到	-11.0619
中妙	-11.062
來還	-11.0621
害他	-11.0622
有見	-11.0624
常以	-11.0625
是已	-11.0625
異道	-11.063
禮事彼	-11.0631
諸比丘聞	-11.0637
城內	-11.0638
地神	-11.0639
讀	-11.064
便取	-11.0641
與五百	-11.0642
此食	-11.0643
㮈	-11.0644
訶責	-11.0645
老病死	-11.0646
末羅	-11.0647
於身	-11.0649
欲入	-11.0649
見諸	-11.0653
於彼命終	-11.0654
不明	-11.0658
柱栿	-11.0658
輪王	-11.0658
傾	-11.066
掃	-11.0661
愈	-11.0663
麗	-11.0664
輔相	-11.0664
地大動	-11.0668
求於	-11.0668
復云何業	-11.0669
漸次	-11.0669
旋	-11.0669
橋	-11.067
刈	-11.0673
世間有常	-11.0673
項	-11.0673
整	-11.0673
汝從何來	-11.0673
鳩	-11.0674
玄	-11.0674
赤珠	-11.0675
蕩	-11.0675
伊	-11.0675
復有一種沙門婆羅門	-11.0676
固	-11.0676
彌醯	-11.0677
諂	-11.0677
姦	-11.0677
陵	-11.0678
說斯偈	-11.0678
闡陀	-11.0678
過惡未解故不死	-11.0679
宗親	-11.0679
寬	-11.068
見是相已	-11.068
去離	-11.068
轉向苦邊	-11.0681
諸聲聞	-11.0681
舌知味	-11.0681
唯世尊	-11.0682
抄	-11.0682
得光明而見色	-11.0682
周旋	-11.0682
三惡道	-11.0683
聾	-11.0684
肉段	-11.0685
鹽	-11.0685
作火	-11.0685
哆	-11.0685
露遮	-11.0685
唐	-11.0686
令不生	-11.0686
消息	-11.0687
毗舍佉優婆夷	-11.0687
兜術天	-11.0687
摩訶迦旃延	-11.0688
練	-11.0688
脂	-11.0689
願樂欲聞	-11.0689
善勝	-11.0689
五結	-11.0689
誠實	-11.0689
捨戒罷道	-11.069
獲沙門果	-11.069
間錯	-11.069
生聞梵志	-11.0691
往返	-11.0691
愍傷世間	-11.0695
善受善持	-11.0695
入滅盡定	-11.0695
皆悉知之	-11.0696
聖體	-11.0697
聞說	-11.0697
起居輕利	-11.0698
或著	-11.0699
是故汝等	-11.0699
園觀浴池	-11.0699
千一百	-11.0701
各各和鳴	-11.0701
乃至車𤦲馬瑙等寶	-11.0701
往詣長者家	-11.0702
多有人民	-11.0703
孤獨	-11.0703
定覺分	-11.0703
之相	-11.0703
不善根	-11.0704
沙門釋子	-11.0705
宮殿住處	-11.0708
作如是論	-11.0711
若在家者	-11.0711
梵志陀然	-11.0713
四門	-11.0713
臣佐	-11.0713
若坐	-11.0717
散亂	-11.0718
明燈	-11.0719
名之為	-11.0722
錯亂	-11.0736
舍羅	-11.0737
六月	-11.0739
去未久	-11.0742
而行布施	-11.0744
中後	-11.0745
巖	-11.0748
就座	-11.075
月八日	-11.0751
惜	-11.0753
王意	-11.0753
八難	-11.0753
法也	-11.0754
諸比丘眾	-11.0757
命既	-11.0757
給使	-11.0762
堅住	-11.0766
如是悲	-11.077
念者	-11.0781
以天眼觀	-11.0782
受歲	-11.0786
隨行	-11.0786
我在	-11.0787
曾聞	-11.0789
聖諦	-11.0792
消盡	-11.0794
恣意	-11.0794
極淨	-11.0795
遠來	-11.0796
師言	-11.0798
不欲令	-11.0803
覺觀	-11.0804
以是言	-11.0805
善法轉增	-11.0808
設我	-11.0812
比丘如是	-11.082
其有眾生	-11.0822
不善處	-11.0822
有如是等	-11.0827
持齋	-11.0828
斷生死	-11.0832
住舍衛國	-11.0833
心淨	-11.0835
諸眾生等	-11.0836
攝心	-11.0836
此為	-11.0836
江	-11.0838
得善利	-11.0838
及比丘眾	-11.0839
不沒	-11.0844
與其	-11.0845
散華	-11.0845
鉢中	-11.0845
流水	-11.0849
無所受	-11.0849
著意	-11.0852
阿育王	-11.0859
四大天王	-11.0859
法服	-11.0863
有眾多	-11.0868
自往	-11.0869
若眼見色	-11.0871
殿上	-11.0875
命終生天	-11.0877
中所有	-11.0878
向須陀洹	-11.0883
種種供養	-11.0883
取彼	-11.0885
以來	-11.0886
則無有	-11.0886
▁一時	-11.0886
現於世間	-11.0888
患故	-11.0889
彼即	-11.0895
中生	-11.0899
火種	-11.0901
㷿	-11.0901
亦從	-11.0902
果實	-11.0903
世尊復問	-11.0904
所因	-11.0907
備具	-11.0916
名色滅	-11.0917
行口	-11.0917
汝云何	-11.0918
汝父	-11.0919
」「	-11.092
恐畏	-11.0921
歸比丘僧	-11.0921
五百由旬	-11.0922
從何	-11.0927
若有惡	-11.0927
無惱	-11.0928
坐於	-11.0931
斷三結	-11.0932
住王舍城	-11.0932
釘	-11.0936
比丘對	-11.0937
語汝	-11.094
道說	-11.0945
七種	-11.0947
肘	-11.0947
如佛	-11.0949
覺意	-11.0951
法施	-11.0951
不復更	-11.0956
講	-11.0959
九為	-11.0969
即自念	-11.0969
故稱	-11.0975
狀	-11.0979
久久	-11.0979
灰河	-11.098
復起	-11.0984
不好	-11.0985
或二	-11.0989
纏縛	-11.0994
可捨	-11.0995
自樂	-11.1005
復能	-11.1005
自覺知	-11.1005
其罪	-11.1007
母胎	-11.1009
今得	-11.101
惱亂	-11.1013
想生	-11.1017
命異身異	-11.102
行此	-11.1022
第一也	-11.1028
得究竟智	-11.1028
受佛	-11.1029
無他	-11.1033
四曰	-11.1039
賓頭盧	-11.104
其婦	-11.1042
圖	-11.1044
此五受陰	-11.1044
慞惶	-11.1046
搏	-11.1048
迦尸	-11.105
弘	-11.1051
棄捐	-11.1052
拘薩羅	-11.1052
髻	-11.1053
㝹	-11.1053
城外	-11.1054
無念	-11.1054
脊	-11.1054
胞	-11.1055
就坐	-11.1055
跪	-11.1057
頭面	-11.1057
揚	-11.1057
欲食	-11.1057
孔	-11.1057
有天	-11.1057
汝何故	-11.1058
重生令增廣	-11.1058
鎧	-11.1058
採	-11.1059
有苾芻	-11.106
段	-11.106
列	-11.106
汙	-11.106
無事處	-11.106
溺	-11.1061
何由	-11.1061
犢	-11.1062
暗	-11.1062
未離	-11.1064
身猗息	-11.1064
而可	-11.1065
燥	-11.1066
非有想非無想	-11.1067
婆耆奢	-11.1067
寒氷地獄	-11.1067
犬	-11.1067
八千	-11.1068
繞佛三匝	-11.1069
侍衛	-11.1069
到彼	-11.107
逆風	-11.1072
坌	-11.1072
尼師壇	-11.1072
攝衣持鉢	-11.1073
清淨梵行	-11.1074
眼知色	-11.1074
騾	-11.1074
願無願	-11.1076
古昔	-11.1076
惒	-11.1077
世間眼滅	-11.1077
整御天下	-11.1079
僕從	-11.1079
娑羅林	-11.1079
輦	-11.1079
內懷憂慼	-11.1079
向於捨	-11.1079
]	-11.1079
佛在羅閱城迦蘭陀竹園所	-11.1079
疾病困篤	-11.108
盜竊	-11.108
五穀	-11.108
精進覺分	-11.1081
屠牛	-11.1081
鎖	-11.1081
依此	-11.1082
有大神力	-11.1083
所謂論者	-11.1083
惒破	-11.1083
若此眾生成就身	-11.1083
中阿含	-11.1083
修習滿足	-11.1083
大功德	-11.1084
為作留難	-11.1085
佛遊王舍城	-11.1085
設使	-11.1086
現在無常	-11.1086
欲詣	-11.1086
釋子	-11.1087
增進	-11.1088
洹	-11.1088
漸損	-11.1088
尊師阿蘭那為弟子說法	-11.1089
致比丘訶數詰責	-11.1089
長生	-11.109
當般涅槃	-11.109
如是受苦樂	-11.1091
空三昧	-11.1091
彼最後王	-11.1092
次第乞食	-11.1092
增多	-11.1092
不別	-11.1093
戒成就	-11.1093
所用	-11.1094
支提	-11.1094
階道	-11.1095
成正覺	-11.1097
疲極	-11.1098
奉敬	-11.1099
莫作是觀	-11.1099
三明婆羅門	-11.11
從生	-11.1101
維	-11.1104
相可	-11.1107
修此	-11.1107
除諸	-11.1109
止諍	-11.111
如是我	-11.1115
諸尼揵	-11.1116
身行善	-11.1116
可憙	-11.1119
護諸根	-11.1119
勝負	-11.1122
一子	-11.1123
等者	-11.1123
正欲	-11.1124
歸依佛	-11.1125
大梵	-11.1128
籌	-11.1129
如來正法	-11.1129
神變	-11.1131
出舍衛城	-11.1132
識陰	-11.1133
聖賢	-11.1133
觀彼	-11.1134
於諸善法	-11.1135
意故	-11.1136
相類	-11.1138
如是思惟	-11.1139
三昧成就	-11.114
入地	-11.1141
大善	-11.1141
統領	-11.1145
盡苦際	-11.1146
以得	-11.1149
數千萬	-11.115
難解	-11.1152
不觀	-11.1157
入息	-11.116
覺想	-11.1161
如斯之	-11.1162
為己	-11.1163
具說	-11.1165
同時	-11.1165
象力	-11.1171
閻浮地	-11.1175
光天	-11.1178
識患	-11.118
上虛空中	-11.1182
不可行	-11.1183
色受陰	-11.1196
聞有	-11.1198
我子	-11.1199
正為	-11.12
優陀耶	-11.1201
一切人民	-11.1202
不得食	-11.1204
尋時	-11.1204
觸因緣生受	-11.1205
問諸比丘	-11.1207
得供養	-11.1208
輪轉	-11.1209
毘羅	-11.1213
便得解脫	-11.1213
如有知	-11.1214
而般涅槃	-11.1217
舍梨子比丘	-11.1219
毀辱	-11.1224
如是展轉	-11.1228
念已	-11.1232
十為	-11.1234
乾闥婆	-11.1234
以刀	-11.1237
為是誰	-11.1237
山巖	-11.1239
四海	-11.1243
齊是	-11.1244
邪智	-11.1244
果證	-11.1245
欲作	-11.1245
遠離於	-11.1252
言教	-11.1254
他世	-11.1256
四大洲	-11.1257
身形	-11.1257
報我	-11.1259
周匝無量	-11.1259
為不善	-11.1261
此念	-11.1265
人亦	-11.1265
諸患	-11.1269
或依	-11.1271
五受陰	-11.1272
實無	-11.1273
心即	-11.1275
清淨無穢	-11.1275
此道	-11.1277
為病	-11.1277
詣此	-11.1288
耆闍崛山中	-11.1296
西面	-11.1299
有結	-11.13
能說	-11.1303
名何等	-11.1304
胎生	-11.1305
諸如來	-11.1308
縛著	-11.1309
樂欲	-11.1312
諸童子	-11.1317
請問	-11.1317
南面	-11.1317
心故	-11.1319
相習近	-11.132
天雨	-11.132
第一者	-11.1323
十由旬	-11.1326
者之所行	-11.1329
還出	-11.1331
無愛	-11.1336
清淨行	-11.1341
告阿難	-11.1342
得第一	-11.1346
釋迦文佛	-11.1349
田業	-11.135
彼比丘應如是	-11.1351
我因	-11.1356
分別法	-11.1356
無貪	-11.1357
彼心	-11.1357
身也	-11.1358
此語	-11.1364
無二	-11.1365
不惱	-11.1368
不免	-11.1369
王法	-11.1369
一切人	-11.1373
懈	-11.1379
▁6	-11.138
蓮花	-11.138
齊是為	-11.1381
世尊所	-11.1381
果樹	-11.1384
以此法	-11.1384
而不能	-11.1389
今汝	-11.1389
不妄言	-11.1391
宜速	-11.1393
向上	-11.1394
去來	-11.1395
人生	-11.1396
令起	-11.1397
器仗	-11.1399
無始生死	-11.1403
火災	-11.1407
澡	-11.1407
不改	-11.1407
論說	-11.141
稽首禮	-11.141
此五法	-11.141
便成	-11.1412
如此之	-11.1413
即復問	-11.1414
盡無餘	-11.1414
捨去	-11.1415
當用	-11.1415
食噉	-11.142
既見	-11.142
大熱	-11.1423
在一樹下	-11.1423
手捉	-11.1423
灌	-11.1425
阿含	-11.1427
法觀	-11.1428
但以	-11.1429
迹	-11.143
相觸	-11.143
前坐	-11.1433
尊者舍梨子復	-11.1434
欝單越	-11.1435
諸所有	-11.1435
無信	-11.1437
清淨法	-11.1438
滅除	-11.1442
蘊	-11.1442
何生	-11.1445
價	-11.1446
從本	-11.145
業故	-11.145
四人	-11.145
須達多	-11.1451
宛轉	-11.1451
升	-11.1452
別有	-11.1453
為刺	-11.1453
剌	-11.1453
豐樂	-11.1453
二分	-11.1455
善住象王	-11.1456
玉	-11.1456
賴	-11.1457
未解	-11.1457
擯	-11.1457
兇暴	-11.1458
斷之	-11.1459
王宮	-11.1459
出水	-11.146
胸	-11.146
世尊於	-11.1461
雹	-11.1463
步軍	-11.1464
剎	-11.1464
慮	-11.1465
垂珞	-11.1466
好者	-11.1466
侶	-11.1467
欝多羅	-11.1468
苦出要諦	-11.1468
鋸	-11.1468
赫	-11.1469
逮得己利	-11.147
東西南北	-11.1471
唯願尊者	-11.1471
懃	-11.1471
有三十三天	-11.1472
葉華實	-11.1472
食飲	-11.1472
大女人瞿曇彌	-11.1473
摩竭提國	-11.1474
日天宮殿	-11.1474
擾亂	-11.1474
外觀色	-11.1474
有漏盡	-11.1474
自身作證	-11.1476
此賢者	-11.1477
顏貌端政	-11.1478
等正覺所知所見	-11.1479
法法成就	-11.1479
集坐講堂	-11.1479
尊者尸婆羅	-11.1479
優鉢	-11.148
增上慧學	-11.148
與白衣共	-11.148
巷	-11.148
阿夷	-11.148
阿那毘羅大風	-11.1481
幻化	-11.1481
尊者金毘羅	-11.1482
修多羅	-11.1482
續受斯	-11.1482
今得此身	-11.1482
所持	-11.1483
復白	-11.1484
有大名稱	-11.1486
僧迦摩	-11.1486
誹謗聖人	-11.1487
阿濕貝	-11.1487
尊者阿難及諸比丘	-11.1487
有食	-11.1487
仙尼	-11.1488
欣樂	-11.1488
債	-11.1489
後世人	-11.149
他家	-11.149
意向	-11.1492
餘者虛妄	-11.1492
於肩上	-11.1494
叢林	-11.1495
諸仙人	-11.1495
心大歡喜	-11.1497
兩邊	-11.1499
恭敬圍繞	-11.1499
惡友	-11.15
度世解脫	-11.1501
得羅漢	-11.1503
所說者	-11.1505
如實法	-11.1505
有戒	-11.1505
世間無常	-11.1506
如是純大苦聚滅	-11.1507
人命	-11.1507
煩熱	-11.1508
舉聲	-11.1508
不使	-11.151
觀身	-11.1511
十七	-11.1514
穢濁	-11.1516
生人中	-11.1517
自饒益	-11.152
云何為八	-11.1521
不可量	-11.1525
我意	-11.1525
諸外道出家	-11.1527
梵志報	-11.1527
世有常	-11.1529
瓦石	-11.1529
觀見	-11.153
可敬	-11.1531
成敗	-11.1531
道從	-11.1532
內受	-11.1533
垢穢	-11.1533
無所取	-11.1533
此五盛陰	-11.1535
莫怖	-11.1536
初生	-11.154
竹園	-11.1543
黃色	-11.1545
梵天上	-11.1548
入水	-11.155
種種方便	-11.1551
如是久住	-11.1554
如理	-11.1555
種種葉	-11.1556
是四	-11.1558
有流	-11.1562
作意	-11.1564
五通	-11.1564
六千由旬	-11.1565
在其中	-11.1566
恩愛別離	-11.1566
斷愛	-11.1569
若至	-11.1585
汝知	-11.1592
怨結	-11.1593
遍觀	-11.1598
大國	-11.1599
能以	-11.1601
所犯	-11.1603
懷愁憂	-11.1605
於人間	-11.1607
恚念	-11.1607
而欲	-11.161
息滅	-11.1611
即持	-11.1611
不退法	-11.1612
防	-11.1613
來問我	-11.1617
如來法	-11.1618
淨水	-11.1621
何由而	-11.1623
諸欲	-11.1637
聞正法	-11.1638
成熟	-11.1638
喚呼	-11.1639
生瞋恚	-11.1639
瞋恚蓋	-11.1642
於虛空	-11.165
汝今云何	-11.1657
頭陀	-11.1658
欲有所說	-11.1658
最為勝	-11.1659
次第而	-11.166
欲試	-11.1662
無苦	-11.1662
大目犍連所見	-11.1664
欲為	-11.1666
解義	-11.1666
則於晡時	-11.1667
如前說	-11.1669
此山	-11.1669
共語	-11.1669
今復	-11.1672
敬待	-11.1673
不傾動	-11.1674
汝不	-11.1674
善解脫	-11.1674
是為六	-11.1675
由彼	-11.1677
當見	-11.1678
之數	-11.1679
更求	-11.1682
二龍王	-11.1685
來問	-11.1686
我今問	-11.1688
念過去	-11.1689
去地	-11.1691
諸小	-11.1692
猶有	-11.1692
第二禪	-11.1698
於戒	-11.17
最初	-11.1703
亂心	-11.1704
心生欲	-11.1705
施食	-11.171
入涅槃	-11.171
有本	-11.1712
彼鬼	-11.1712
已畢	-11.1727
佛知	-11.1728
彼比丘聞佛所說	-11.1729
有王名	-11.1731
有德	-11.1732
束	-11.1733
作人	-11.1737
是如來	-11.1738
道也	-11.174
可行	-11.1741
坐者	-11.1744
色者	-11.1746
生梵天	-11.1746
如病	-11.1747
中劫	-11.1748
於眾中	-11.1749
石室	-11.1749
母名	-11.175
無緣	-11.1751
生恚	-11.1753
於自	-11.1753
緣觸	-11.1754
所更	-11.1759
則以	-11.176
起想	-11.1762
去已	-11.1763
持用	-11.1763
其宮	-11.1764
一方	-11.1765
不如一	-11.1767
晡時	-11.1769
此城	-11.1772
釋種子	-11.1774
求學	-11.1774
扇	-11.1774
諸大	-11.1776
如是字	-11.1778
往見	-11.1778
此身中	-11.1784
大智慧	-11.1785
其主	-11.1786
如來終	-11.1786
四種兵	-11.1788
入正法	-11.179
燈明	-11.1791
月十五日	-11.1796
不毀	-11.1797
而受	-11.1802
無有餘	-11.1805
生何處	-11.1805
世尊遙見	-11.1806
善自	-11.1806
王告	-11.1807
床上	-11.1809
事者	-11.181
彼作是說	-11.1812
肥	-11.1814
更說	-11.1814
忉利天上	-11.1815
所患	-11.1815
小王	-11.1816
五盛陰	-11.1816
四德	-11.1818
於時	-11.1822
嬈亂	-11.1822
取般涅槃	-11.1822
謂正見	-11.1833
皆在	-11.1835
以成	-11.1836
極惡	-11.1836
之教	-11.1837
善教	-11.1838
和合者	-11.1839
扼	-11.1841
樂聞	-11.1843
令心	-11.1845
別異	-11.1846
甲	-11.1848
菩薩摩訶薩	-11.1848
百二十	-11.185
如是乃至	-11.185
煩勞	-11.1851
惡處	-11.1852
劫貝	-11.1853
邪見者	-11.1853
旦	-11.1854
何得	-11.1856
地平正	-11.1858
知苦	-11.1858
現在前	-11.1861
彈	-11.1862
謀	-11.1862
特	-11.1863
瞿迦梨	-11.1864
主兵寶	-11.1865
所學	-11.1865
拘隣	-11.1867
幡	-11.1868
約	-11.1869
行禪者	-11.1869
養育	-11.1869
摩牢	-11.187
我為多行	-11.1871
若如來	-11.1871
我盡恭敬	-11.1871
童	-11.1873
縣官	-11.1873
階	-11.1874
柔	-11.1876
雄	-11.1877
七有天人往	-11.1878
絃	-11.1878
鼠	-11.1878
了達	-11.1879
有禪三昧	-11.1879
羞	-11.1879
究	-11.188
關	-11.188
諸法法眼生	-11.188
我等寧可	-11.1881
摩訶卑耶和題俱曇彌	-11.1881
搖	-11.1881
羸瘦	-11.1882
苦痛辛酸	-11.1883
汝以	-11.1885
金銀琉璃	-11.1885
精勤舉心	-11.1885
正見乃至正定為八	-11.1885
百踰闍那	-11.1886
反復	-11.1886
忽然不現	-11.1886
百倍	-11.1887
如故	-11.1887
更不復受胎	-11.1888
超術梵志	-11.1888
鴦	-11.1888
首陀	-11.1888
有智慧	-11.1888
容貌	-11.1889
菓	-11.189
五髻乾闥婆王子	-11.189
乾竭	-11.189
觸而生	-11.189
不讚歎	-11.189
容貌端正	-11.189
住在	-11.1891
其異道人	-11.1891
年耆	-11.1892
閉塞	-11.1892
流注	-11.1892
經第四竟	-11.1893
見法得法	-11.1893
0	-11.1893
調伏欲貪	-11.1893
瞿陀尼洲	-11.1893
藕根	-11.1893
出家為道	-11.1894
習法	-11.1894
佛告婆蹉	-11.1894
剃頭	-11.1894
不放逸為其根本	-11.1894
鍮蘆吒	-11.1894
俱盧奢	-11.1895
善法轉減	-11.1895
初一日誦	-11.1895
入第二禪	-11.1895
迦羅越	-11.1895
共相問訊慰勞	-11.1896
以尼師檀著	-11.1896
人壽八萬歲時	-11.1896
凡夫之人	-11.1896
從何而生	-11.1896
朽壞	-11.1897
牛角娑羅林	-11.1897
拘尸城	-11.1898
出入息	-11.1898
那提迦	-11.1898
香塗身	-11.1898
▁14	-11.1899
樹提迦	-11.1899
牧牛人	-11.1899
謂聖所說	-11.1899
正念正智而身覺樂	-11.1899
於其晨朝	-11.19
諸仙	-11.19
如其像定	-11.1901
葢	-11.1901
更有餘	-11.1902
寂定	-11.1902
無有病痛	-11.1902
惋	-11.1902
供養禮事	-11.1904
炷	-11.1904
然我今日	-11.1905
棄家學道	-11.1906
向斯陀含	-11.1906
清淨無瑕穢	-11.1907
彼樹	-11.1907
因陀羅	-11.1907
▁丘	-11.1908
博聞誦習	-11.1909
夜摩天	-11.1909
上頭	-11.1909
即自莊嚴	-11.1909
譬如士夫	-11.1909
賴吒惒羅居士子	-11.191
成等正覺	-11.1912
繩床	-11.1912
祇洹精舍	-11.1912
終不能	-11.1914
向阿那含	-11.1914
受持五戒	-11.1915
所有穢污	-11.1915
有大威力	-11.1916
欲有	-11.1916
如此事	-11.1917
得大功德	-11.1918
持禁戒	-11.1919
此眾生類	-11.192
行苦行者	-11.1924
對治	-11.1925
復以偈報	-11.1925
諸山	-11.1925
尊者優陀夷	-11.1926
一千	-11.1926
人於世間	-11.1927
慧眼	-11.1931
變易之法	-11.1931
害覺	-11.1932
樂行	-11.1934
知是處	-11.1935
聞尊者	-11.1935
尸棄佛	-11.1936
斷妄言	-11.1936
大法	-11.1939
七反	-11.194
諸力士	-11.1941
不妙	-11.1944
眾生生	-11.1944
於世尊所	-11.1949
修福	-11.195
增上心	-11.195
最小	-11.195
乃至大海	-11.1951
侍人	-11.1951
燒其	-11.1952
左手	-11.1953
四如意足	-11.1955
美食	-11.1958
從事	-11.1959
之屬	-11.1959
若有問者	-11.196
給與	-11.1961
六日	-11.1963
至彼岸	-11.1964
無受	-11.1969
修道	-11.1971
提舍	-11.1972
行步	-11.1973
汝等頗見	-11.1973
與王	-11.1973
三時	-11.1974
修心	-11.1974
如是功德	-11.1974
廣說如上	-11.1975
十一字	-11.1976
苾芻尼	-11.1979
不脫	-11.1979
又言	-11.1979
已生善法	-11.1981
鐵丸	-11.1982
年歲	-11.1982
嚴身	-11.1983
悉見	-11.1984
不至	-11.1986
十歲	-11.1988
亦隨	-11.1988
佛已	-11.1989
水種	-11.199
命終者	-11.199
法相應	-11.1991
得甘露	-11.1995
大池	-11.1995
千踰闍那	-11.2001
聽汝	-11.2002
教訓	-11.2004
我等應共	-11.2008
善賢	-11.2008
沙門瞿曇所說	-11.2008
此女人	-11.2012
而令	-11.2012
令坐	-11.2014
行路	-11.2015
求道	-11.2019
我初	-11.2019
復詣	-11.2025
梵志女	-11.2025
聞我	-11.2026
不淨行	-11.203
祐	-11.203
所依住	-11.203
諸比丘受教	-11.203
能伏	-11.203
汝何	-11.2031
恒自	-11.2033
入此	-11.2034
天文	-11.2038
輕賤	-11.2039
隨從	-11.204
即是我	-11.204
法本	-11.2043
善受持誦	-11.2045
不縛	-11.2045
有想無想	-11.2045
復有餘	-11.2048
不懷	-11.205
處於	-11.2051
此眾	-11.2052
作是語已	-11.2054
食竟	-11.2055
餘事	-11.2056
興起	-11.2057
在王舍城	-11.206
其池	-11.2061
上有	-11.2062
義說	-11.2064
作此念	-11.2067
正心	-11.2078
眾事	-11.2079
▁時	-11.2083
可修	-11.2085
復非	-11.2088
生死智	-11.2091
行盡	-11.2093
牧	-11.2094
斯事	-11.2097
諸善業	-11.2098
勤方便	-11.2098
坐處	-11.2099
若多聞聖弟子	-11.21
移動	-11.2101
軍眾	-11.2102
盡力	-11.2105
世尊作是念	-11.2106
正解脫	-11.2106
勝人	-11.2108
見到	-11.2109
中者	-11.2109
樹上	-11.2111
行此法	-11.2113
何功德	-11.2115
我以此	-11.2118
又以	-11.2122
守獄者	-11.2122
記之	-11.2126
是為第一	-11.2127
焰天	-11.2128
繫心	-11.2138
病者	-11.2139
有三十二相	-11.2139
甚大	-11.2139
還白	-11.214
自生	-11.2142
上尊	-11.2143
受福	-11.2145
淨想	-11.2152
十二種	-11.2155
護持	-11.2156
捨之	-11.2158
三昧定	-11.2159
器樹	-11.2169
當歸	-11.2169
詣佛	-11.2169
五色	-11.2173
種德	-11.2175
彼必	-11.2179
至後世	-11.2181
世尊以	-11.2182
彼土	-11.2183
諸行無常	-11.2187
從是致	-11.2192
亦不說	-11.2193
九法	-11.2194
語長者	-11.2197
欲至	-11.2201
向涅槃	-11.2204
顧視	-11.2204
四日	-11.2205
清淨道	-11.2205
七寶具足	-11.2206
寂止	-11.2206
須彌	-11.2209
毘舍佉優婆夷	-11.221
靜默	-11.2215
出遊	-11.2216
復當	-11.2221
不雨	-11.2223
作大	-11.2224
薩羅	-11.2229
我及世間	-11.2233
正真	-11.2234
誦經	-11.2235
廟	-11.2239
皆能	-11.224
出家者	-11.224
或見	-11.2241
識食	-11.2242
大身	-11.2242
得錢財	-11.2245
喜覺分	-11.2252
唯佛	-11.2252
獄中	-11.2253
保	-11.2253
工	-11.2254
能壞	-11.226
自安	-11.2261
勤精進	-11.2263
毗	-11.2264
若比丘觀	-11.2268
能生	-11.2273
此三是	-11.2275
徐	-11.2275
自思念	-11.2276
為七	-11.2281
他有	-11.2282
生善趣	-11.2282
逝心理家	-11.2282
如來聖眾	-11.2284
三十六萬里	-11.2287
欲受	-11.2287
蹬	-11.2289
取水	-11.2292
汗	-11.2292
得無為	-11.2295
魔軍	-11.2295
丈	-11.2295
腸	-11.2295
憶念不忘	-11.2296
彼身	-11.2296
見聞	-11.2297
賞	-11.2299
利樂	-11.2299
澁	-11.2299
其本	-11.23
丸	-11.23
竊	-11.2302
彼捨	-11.2302
是無常法	-11.2304
久受苦	-11.2305
衛	-11.2306
我已知	-11.2306
千二百五十	-11.2307
朋	-11.2308
庶	-11.2309
諸佛常法	-11.2309
不數	-11.2309
稟	-11.231
哥	-11.231
弄	-11.2311
劍樹	-11.2312
醯	-11.2312
戱	-11.2312
滋	-11.2312
饌	-11.2313
療	-11.2314
金毘羅	-11.2315
衰耗	-11.2315
》、《	-11.2316
爭	-11.2316
鏁	-11.2316
之聲	-11.2316
善伴黨	-11.2316
怨憎會苦	-11.2316
秋	-11.2317
瞋怒	-11.2317
拍	-11.2317
而便	-11.2317
涕泣	-11.2318
於四聖諦未無間等	-11.2318
慰	-11.2319
蠅	-11.2319
真為	-11.2319
有滅則生滅	-11.232
匿	-11.2321
摧伏	-11.2322
心開意解	-11.2323
兩足	-11.2324
謂是	-11.2324
現法自知作證	-11.2324
非想非非想處	-11.2324
種種談譁	-11.2324
而語之	-11.2325
。」』」	-11.2325
說微妙之法	-11.2325
但欲	-11.2325
正身端坐	-11.2325
却後七日	-11.2326
高廣正等	-11.2327
人者	-11.2327
火燒頭	-11.2327
車軍	-11.2327
遙見佛來	-11.2327
北首	-11.2328
其味	-11.2328
無明漏心解脫	-11.2328
身毛皆竪	-11.2329
長幼	-11.2329
經第二竟	-11.2329
逼切	-11.2329
伸	-11.233
生者有者乃至住者	-11.233
立念在	-11.233
金錢	-11.233
得眼林	-11.233
增上意學	-11.2331
頻婆娑羅王	-11.2332
酷	-11.2332
七重壁	-11.2332
如是比丘觀內	-11.2333
藥叉女	-11.2333
此是無記	-11.2333
諸大眾	-11.2334
不以刀杖	-11.2334
聰慧	-11.2334
周聞十方	-11.2334
隨所解答	-11.2334
即我身是	-11.2334
有一大樹	-11.2335
車兵	-11.2335
若魔天	-11.2335
頰鞞王	-11.2336
舉體	-11.2336
多耆奢	-11.2337
弗那婆修	-11.2338
入安陀林	-11.2339
真實不異	-11.2339
修羅	-11.234
翼從	-11.234
往詣彼城	-11.234
先祖	-11.234
燈光如來	-11.234
多聞比丘	-11.234
工師種	-11.2341
如來不終	-11.2341
下劣	-11.2341
度一切色想	-11.2342
二百五十	-11.2342
異學無恚	-11.2344
歎譽	-11.2344
悅澤	-11.2344
彼亦得滅	-11.2345
世尊教	-11.2345
此不應詣彼	-11.2345
是故彼等作如是	-11.2347
無眾生生	-11.2347
難提波羅陶師離	-11.2347
非不如法	-11.2348
計我	-11.2348
朱利槃特比丘	-11.2349
四增上心	-11.2351
我等意	-11.2352
尸婆	-11.2353
世尊復告諸比丘	-11.2353
更苦	-11.2355
一伏婬	-11.2355
擇法	-11.2356
便從	-11.2356
人之所	-11.2356
聽我說	-11.2358
有名色	-11.2359
是謂比丘成就	-11.2359
離越	-11.236
瞋纏	-11.2361
終身	-11.2361
為內	-11.2363
如何	-11.2364
是為第三	-11.2365
慳嫉	-11.2366
及身口	-11.2366
有異道人	-11.2367
我聞法已	-11.2368
沙門瞿曇弟子	-11.2368
修戒	-11.2372
有四種軍	-11.2372
五欲之中	-11.2375
高大	-11.2375
不待時	-11.2376
或得	-11.2377
入初禪	-11.2377
其國	-11.2377
如說說	-11.2377
於我法中	-11.238
生憂	-11.238
此瞿曇	-11.2382
香美	-11.2383
三結盡	-11.2383
佛為說法	-11.2386
天上天下	-11.2389
彼諸天	-11.2391
如是三	-11.2393
謂善男子	-11.2394
即詣佛所	-11.2394
二生	-11.2398
梵行具足	-11.2399
靜室	-11.24
其聲	-11.2402
邊見	-11.2402
過七日	-11.2403
已至	-11.2406
焰摩天	-11.2408
於此命終	-11.2411
其次	-11.2412
呼阿難	-11.2414
愚夫	-11.2416
果實天	-11.2416
恒喜	-11.2416
乃從	-11.2417
身善行	-11.2419
若比丘於	-11.2419
華樹	-11.2423
所取	-11.2423
即語	-11.2423
同學	-11.2424
六念	-11.2425
過於人	-11.2426
化作年少	-11.2426
實語	-11.2427
僧伽	-11.2428
令諸眾生作如是	-11.2429
諸年少	-11.243
一向說	-11.2431
婆蹉白佛	-11.2431
昨夜	-11.2433
我曾	-11.2433
以偈	-11.2435
成阿那含	-11.2435
俱解脫	-11.2436
真說	-11.2437
斷截	-11.2442
麁言	-11.2443
集在	-11.2443
法句	-11.2446
此何因	-11.2447
不以為	-11.2449
受命	-11.2449
於前	-11.2451
尋即	-11.2451
從東方來	-11.2452
清淨戒	-11.2452
便捨	-11.2452
未成	-11.2453
世俗	-11.2454
行跡	-11.2457
我前	-11.2458
佛法中	-11.2458
八聖道	-11.2459
懷恐懼	-11.2468
無老	-11.2469
以是因緣故	-11.247
所趣向	-11.2471
根門	-11.2471
有是法	-11.2472
六通	-11.2473
使得	-11.2474
而問之	-11.2478
妄想	-11.2483
上者	-11.2485
願世尊	-11.2485
無濁	-11.2488
或自	-11.2488
害念	-11.249
不可稱	-11.2494
已離	-11.2496
用作	-11.2499
相離	-11.25
過此	-11.2502
如是此	-11.2504
白帝釋	-11.2509
其有比丘	-11.2509
是世間	-11.2512
便念	-11.2515
云何三	-11.2519
昨日	-11.2525
彼得	-11.2527
淨天	-11.2529
習行	-11.253
我應	-11.253
水災	-11.253
集一處	-11.2532
解脫成就	-11.2533
馬兵	-11.2533
生不可	-11.2536
劫數	-11.2537
往詣世尊所	-11.2539
受陰	-11.254
好喜	-11.2541
見地	-11.2543
知滅	-11.2544
雲集	-11.2546
無死	-11.2553
永斷	-11.2554
不憎惡	-11.2557
其德	-11.2564
大河	-11.2564
如日	-11.2565
漏盡比丘	-11.2567
能具	-11.2568
即共	-11.2568
覺道	-11.2568
他受	-11.2571
十二由旬	-11.2571
音響王	-11.2573
十四日	-11.2573
為知	-11.2573
為人時	-11.2575
多者	-11.2577
有事因此事	-11.2577
於此世	-11.2578
何等為六	-11.2581
身生	-11.2582
城名	-11.2584
其根	-11.2585
二十一	-11.2585
當語彼	-11.2587
無有智慧	-11.2588
得真實	-11.2591
集聚	-11.2596
所生處	-11.2598
佛前	-11.2601
燒然	-11.2601
女即	-11.2603
如是念	-11.2605
正治	-11.2606
淨者	-11.2612
無有異	-11.2612
有他世	-11.2615
所治	-11.2615
即從	-11.2618
善色	-11.262
當從	-11.2624
所不能	-11.2625
亦有此	-11.2626
修治	-11.2628
生是念	-11.2633
未有	-11.2635
耀	-11.2635
之難	-11.264
汝等可	-11.2645
得盡	-11.2647
此林	-11.2653
身分	-11.2653
當盡	-11.2655
吉凶	-11.2661
作方便	-11.2661
得其便	-11.2663
何故不	-11.2669
萬二千	-11.267
或有比丘	-11.2671
住世	-11.2675
在眾	-11.2678
舍衛城中	-11.2679
修禪	-11.2683
具大	-11.2684
見受	-11.2684
一歲	-11.2694
有識	-11.2695
受患	-11.2698
不恚	-11.2699
不樂彼	-11.2702
比丘必	-11.2704
持去	-11.2706
行來	-11.2708
受胎	-11.2711
可念	-11.2712
街巷	-11.2715
貌	-11.2718
露地經行	-11.2719
入已	-11.272
百阿羅漢	-11.2721
今來	-11.2722
得食	-11.2723
又其	-11.2726
有一類	-11.2726
懷恐怖	-11.2727
誣謗	-11.273
滯	-11.2732
在於此	-11.2732
生畜生中	-11.2734
有樂	-11.274
種種果	-11.274
掌	-11.2741
捨欲	-11.2741
晨	-11.2743
若梵	-11.2743
猶人	-11.2744
持來	-11.2746
惡露	-11.2748
癡薄	-11.2748
世尊復告	-11.2748
昧	-11.275
知味	-11.2751
廣長各	-11.2754
陸	-11.2755
牆壁	-11.2756
為得	-11.2756
其果	-11.2758
自由	-11.2758
最下	-11.2758
諸天天道	-11.2758
證得	-11.276
參	-11.276
三摩地	-11.2761
緣日光	-11.2761
命終時	-11.2761
兜	-11.2762
柔濡	-11.2762
有一行欲人	-11.2763
尚不	-11.2763
欄	-11.2764
盈	-11.2764
迸	-11.2764
逕	-11.2765
外道出家	-11.2765
省	-11.2765
典尊	-11.2766
鮮	-11.2766
秦言	-11.2767
補	-11.2767
已生者重生令增廣	-11.2768
妨	-11.2768
無明滅則行滅	-11.2768
汝速	-11.2768
說是語	-11.2769
獨靜思惟	-11.277
捨覺支	-11.277
終亡	-11.2771
多聞聖弟子於	-11.2771
千倍	-11.2772
復有說言	-11.2772
附	-11.2772
破裂	-11.2772
狹	-11.2772
黑闇	-11.2773
江河	-11.2773
禮佛而退	-11.2774
膚	-11.2774
里巷	-11.2774
形色轉好	-11.2774
自娛	-11.2774
二足尊	-11.2775
錯	-11.2775
後秦弘始年佛陀耶舍共竺佛念譯	-11.2775
在拘薩羅人間	-11.2775
八萬四千由旬	-11.2775
小腸	-11.2775
隥	-11.2775
嚕	-11.2776
南西北方	-11.2777
夏安居	-11.2777
觀此義已	-11.2777
群黨	-11.2779
魔身天	-11.278
行住坐臥	-11.278
飄	-11.2781
填	-11.2782
制外怨敵	-11.2782
入地獄中	-11.2782
自歸命	-11.2782
釋氏摩訶男	-11.2782
經第一竟	-11.2783
驅馳	-11.2783
等無有異	-11.2784
由己自在	-11.2784
諸小阿修羅王	-11.2784
拘娑羅國王長壽	-11.2784
和悅	-11.2785
梵行清白	-11.2785
戾	-11.2785
獲大利	-11.2786
ā	-11.2786
眼色	-11.2786
晝日	-11.2786
遶佛三匝	-11.2786
不離於	-11.2787
初始	-11.2787
香潔	-11.2788
重閣	-11.2789
謂女人不	-11.279
著糞掃衣	-11.279
非有邊非無邊	-11.279
入第三禪	-11.279
一梵行而遊人間	-11.279
悉皆大明	-11.2791
融消	-11.2791
須彌留山王	-11.2791
印可	-11.2792
難詰	-11.2792
尊者難提	-11.2792
於一面立	-11.2793
黑雲	-11.2793
而見	-11.2793
受佛教已	-11.2793
法相	-11.2793
女人奉持	-11.2794
得果	-11.2795
如來終不終	-11.2795
具白世尊	-11.2795
三結已盡	-11.2795
共論此事	-11.2796
未來無常	-11.2796
教訶	-11.2797
作何	-11.2797
無如此事	-11.2798
貪嗜	-11.2799
𠻬帝比丘	-11.28
尊者三彌提	-11.28
身身念	-11.2801
守門人	-11.2801
王莫恐	-11.2803
彼眾生等	-11.2804
微妙第一	-11.2804
當更	-11.2804
成就七寶	-11.2804
修諸梵行	-11.2805
竟日	-11.2805
尊者跋陀和利	-11.2806
欲意	-11.2806
在家者	-11.2806
相累	-11.2807
未生善法	-11.2807
無有常	-11.2808
便懷恐怖	-11.2808
立正念	-11.2809
𧗪家	-11.281
唯然世尊	-11.281
不觸	-11.2811
非義饒益	-11.2812
修安那般那念	-11.2814
觀覺	-11.2814
若有人來	-11.2817
牧牛者	-11.2818
姓字	-11.2819
於四聖諦	-11.2821
汝說	-11.2822
高座	-11.2823
白骨	-11.2825
為愛	-11.2827
王及	-11.2829
諸上座比丘	-11.2833
若學	-11.2836
便盡	-11.2836
何因緣故	-11.2836
一偈	-11.2837
尊者迦葉	-11.2841
我及	-11.2843
即往至	-11.2844
憎愛	-11.2845
如是姓	-11.2845
不能捨離	-11.2845
孫	-11.2845
所化	-11.2845
修梵行者	-11.2846
聞此語	-11.2846
於此眾中	-11.2848
有大智慧	-11.285
六萬	-11.285
無作	-11.2857
地上	-11.2858
意亦如是說	-11.2859
失念	-11.2859
盡形壽不殺	-11.2863
象王	-11.2865
善人	-11.2867
無實	-11.2871
為命異身異	-11.2873
其根本	-11.2875
入舍衛城	-11.2877
周行	-11.2878
天也	-11.2878
愛生已	-11.2881
諸漏盡	-11.2885
治之	-11.2886
汝今當知	-11.2886
教誨	-11.2887
我為汝說	-11.2887
於生	-11.2888
諸優婆塞	-11.2891
有過失	-11.2896
謂眼	-11.2898
而為說法	-11.29
不由他	-11.2903
正趣	-11.2906
有此二法	-11.2907
少多	-11.2908
開意	-11.2909
如是廣布	-11.2909
餓鬼中	-11.2911
受其教	-11.2915
觸生	-11.2915
無雜	-11.2917
如實知故	-11.2918
合掌恭敬	-11.2918
成無上	-11.2922
臣民	-11.2926
永離	-11.2928
是惡	-11.2929
於五受陰	-11.2932
趣覺	-11.2932
彼識	-11.2933
病法	-11.2935
得第四禪成就遊	-11.2937
當犯	-11.2937
願未來	-11.294
將護	-11.294
而走	-11.2941
即尋	-11.2941
陣	-11.2941
大鐵	-11.2942
而與	-11.2943
南北	-11.2947
阿難報	-11.2951
稱善	-11.2952
婆羅門白佛	-11.2953
不安隱	-11.2953
來集	-11.2958
若求	-11.2961
必生	-11.2962
欲聞	-11.2964
去後	-11.2966
憂畏	-11.2969
最好	-11.297
生厭離	-11.2971
不隨時	-11.2971
乃是	-11.2977
有穢	-11.2977
聞知	-11.2978
止者	-11.2978
入道	-11.2981
是真諦	-11.2982
勝前	-11.299
不解脫	-11.3
說如是	-11.3003
若識	-11.3003
種種飲食	-11.3007
政	-11.3019
歸命佛	-11.3024
著身	-11.3025
從是本	-11.3025
有命	-11.3025
終不能得	-11.3028
不轉	-11.3028
生愁慼	-11.3034
今且	-11.3035
不應作	-11.3035
作何等	-11.3035
亦不為	-11.3037
非智	-11.3039
相聚	-11.304
受味	-11.304
有一婆羅門	-11.3043
應得	-11.3045
入法	-11.3048
離喜	-11.3048
唯願世尊聽	-11.305
慙愧	-11.3053
悲號	-11.306
婆羅門居士	-11.3062
遺餘	-11.3063
!』」	-11.3064
與此	-11.3064
上首	-11.307
實如	-11.307
習於	-11.3072
念我	-11.3075
何足	-11.3076
四月	-11.3077
調順	-11.3078
世尊說此	-11.3078
自制	-11.3079
可共	-11.3081
正坐	-11.3082
臥起	-11.3083
若自	-11.3089
佛說經	-11.309
觸集	-11.3091
入海	-11.3092
多聞者	-11.3096
不知不見	-11.3096
耳鼻	-11.3096
乃為	-11.3099
恒在	-11.31
已樂中	-11.3106
彼受此	-11.3117
有婆羅門	-11.3118
智生	-11.312
之色	-11.312
汝等莫	-11.3121
彼林	-11.3125
在外	-11.3127
長者白佛	-11.3129
少分	-11.3129
於東方	-11.313
亦當知	-11.3133
汝今自	-11.3138
語尊者阿難	-11.3144
應真	-11.3145
長者婦	-11.3146
不達	-11.3148
數千	-11.3148
尚能	-11.315
▁7	-11.3153
是間	-11.3154
愛滅	-11.3156
復有二法	-11.3156
炬	-11.3161
樹者	-11.3163
第一義	-11.3166
婆羅門等	-11.317
惡比丘	-11.3171
汝往	-11.3173
婆羅門所	-11.3175
行善法	-11.3175
華實	-11.3176
離不與取	-11.3177
若眼	-11.3179
完具	-11.318
得心解脫	-11.3181
足下	-11.3185
於中起	-11.3185
能起	-11.3186
迦毘羅越	-11.3188
有一梵志	-11.319
美味	-11.3193
復從他	-11.3194
五百乘車	-11.3196
無與等	-11.3197
不移	-11.3199
葬	-11.3201
辨	-11.3202
響	-11.3205
儀容	-11.3212
彼地獄中諸眾生	-11.3212
得聞	-11.3214
不傷	-11.3214
律出家	-11.3214
所識	-11.3219
不進	-11.322
不復見	-11.3221
案	-11.3222
無故	-11.3222
行止	-11.3223
起塔	-11.3223
為從是	-11.3223
唯願如來	-11.3224
不成男	-11.3227
生眼識	-11.323
見色是我	-11.3231
右旋	-11.3232
有後世	-11.3235
幼	-11.3236
駛	-11.3236
將至	-11.3238
在人間	-11.3239
阿濕波誓	-11.324
吠	-11.324
齎	-11.3241
大悲	-11.3241
紹	-11.3241
一切所	-11.3241
三事和合觸	-11.3241
命亦未終	-11.3243
脈	-11.3243
更復	-11.3244
諸根寂定	-11.3244
盡於苦際	-11.3245
若有問	-11.3245
摩竭提	-11.3246
睹	-11.3246
藍	-11.3246
圓寂	-11.3246
親近善知識	-11.3246
均	-11.3247
暉	-11.3247
己利	-11.3247
諸智梵行者	-11.3248
三耶三佛	-11.3249
輪有千輻	-11.3249
申	-11.3249
此世彼世	-11.3249
未曾有之法	-11.325
若依	-11.325
恥	-11.325
貧賤	-11.3251
煩熱苦報	-11.3251
觀相	-11.3251
綩綖	-11.3252
見是事已	-11.3252
良田	-11.3252
睒	-11.3252
津	-11.3252
機	-11.3253
拘樓孫如來	-11.3253
波羅提木叉	-11.3253
鼻嗅香	-11.3253
過三月已	-11.3254
勸請	-11.3254
復有七法	-11.3255
服飾	-11.3255
來到	-11.3255
無處不遍	-11.3255
極有	-11.3255
孝順	-11.3256
鼓聲	-11.3256
如來死後	-11.3256
隨此眾生之所作業	-11.3256
普遍充滿	-11.3256
有何差別	-11.3256
豪族	-11.3256
羂	-11.3256
迦毘羅衛	-11.3257
沈沒	-11.3257
芥子	-11.3257
陰蓋	-11.3257
尼乾陀	-11.3257
塜間	-11.3257
見其如真	-11.3258
過中食	-11.3258
愚癡凡夫	-11.3259
七日之中	-11.3259
前後導從	-11.3259
天中天	-11.326
莊飾	-11.326
往來善處	-11.326
內無色想	-11.326
優頭槃	-11.326
空寂	-11.3261
?』」「	-11.3261
得不動心	-11.3261
十二月	-11.3261
如法法王成就七寶	-11.3262
般遮翼	-11.3262
凡諸有為甚	-11.3262
當勤	-11.3263
宗族	-11.3263
究牟陀	-11.3264
正智正繫念	-11.3264
富樓那	-11.3264
欝低迦	-11.3264
店肆	-11.3264
不可以	-11.3264
塵土	-11.3264
如是行者	-11.3264
乃至正見	-11.3264
得初禪成就遊	-11.3265
流轉生死	-11.3265
均頭沙彌	-11.3266
離於喜欲	-11.3266
彼如來	-11.3266
擇法覺分	-11.3266
波頭摩	-11.3267
默然而	-11.3267
集講堂	-11.3268
縱廣正等	-11.3268
淨居	-11.3269
正向涅槃	-11.327
香湯	-11.327
娑多耆利	-11.327
得證	-11.3271
常與	-11.3271
提頭賴吒天王	-11.3272
如實顯現	-11.3273
睡眠蓋	-11.3275
蹋	-11.3275
彼地獄中	-11.3275
惱害	-11.3275
卷第四	-11.3276
三塗	-11.3276
四不壞淨	-11.3277
頭髮	-11.3277
那羅陀	-11.3277
而問此義	-11.3277
一時佛在舍衛國祇樹給孤獨園	-11.3278
隨彼	-11.3279
來迦毘羅林	-11.3281
欲與	-11.3281
饒益他	-11.3283
災變	-11.3283
雪山王	-11.3283
一百由旬	-11.3284
無行	-11.3285
塗身	-11.3285
然後乃出	-11.3286
莫念	-11.3286
彼中	-11.3287
著色	-11.3288
安居	-11.3289
我與	-11.3289
斯須	-11.3291
離垢	-11.3291
隨法	-11.3292
今夜	-11.3292
迦花	-11.3294
問此義	-11.3295
汝今諦聽	-11.3297
而說此偈	-11.33
後必	-11.33
頗更有	-11.3308
善見王	-11.3308
哀愍故	-11.3308
磨滅法	-11.3311
墮地獄中	-11.3311
護世	-11.3315
諸國王	-11.3317
此是真實	-11.3318
燒燃	-11.3319
窟中	-11.3324
經第三	-11.3325
足足	-11.3325
老死滅	-11.3325
未曾見	-11.3327
比丘答言	-11.3327
自活	-11.3327
火出	-11.3329
我當云何	-11.333
水沫	-11.333
長者遙見	-11.3331
解知	-11.3332
告苾芻	-11.3333
自謂	-11.3335
惡性	-11.3336
衣廣	-11.3336
問訊佛	-11.3337
奉法	-11.3338
在世間	-11.3341
弓箭	-11.3343
汝等頗	-11.3344
諸水	-11.3344
趣智	-11.3344
學問	-11.3345
周迴	-11.3347
明照	-11.3348
即將	-11.3352
行無放逸	-11.3354
面色	-11.3356
經第五	-11.3356
是名第二	-11.3356
已作	-11.3358
如王	-11.3359
勿令	-11.3359
尊者阿難所說	-11.3361
麤言	-11.3362
應如是答	-11.3364
不斷絕	-11.3365
無反復	-11.3365
最後身	-11.3367
有福	-11.3367
心行	-11.3369
名者	-11.337
若婆羅門	-11.3375
正見成就	-11.3377
師云	-11.338
釜中	-11.3381
此衣	-11.3383
於後世	-11.3383
石上	-11.3385
當如是	-11.3386
閻浮利天下人	-11.3391
有山名	-11.3392
及天	-11.3392
無益	-11.3392
為常	-11.3397
隨生	-11.34
熏修	-11.3401
觀看	-11.3402
耳識	-11.3404
眾香	-11.3405
直見	-11.3405
薪草	-11.3406
火滅	-11.3407
從坐而	-11.3409
瑪瑙等七寶所成	-11.3409
舉手	-11.341
復觀	-11.3411
爾乃	-11.3413
其城	-11.3415
未曾聞	-11.3416
此樹	-11.3418
照明	-11.3418
有老	-11.3422
不綺語	-11.3425
有天神	-11.3427
佛出世	-11.3427
邪道	-11.3428
白蓮華	-11.3432
行人	-11.3435
第	-11.3435
譬如人	-11.3436
竹林	-11.3438
四事供養	-11.3439
癡者	-11.344
若斷	-11.3443
沙門不得	-11.3444
不自知	-11.3445
南行	-11.3447
如是名為	-11.3456
目連報	-11.3459
坐定	-11.3462
盛壯	-11.3464
死已	-11.3465
離苦	-11.3467
他方	-11.3472
汝意	-11.3474
本為人	-11.3478
無目	-11.3482
九字	-11.3486
佛塔	-11.3486
行慈心	-11.3487
無想天	-11.3488
梵童子	-11.3489
汝先	-11.3489
脂粉	-11.3491
若成就	-11.3492
眼生	-11.3493
開悟	-11.3495
瓦	-11.3496
何須	-11.3496
四王天	-11.3499
有諍	-11.3502
之寶	-11.3503
殺生者	-11.3504
於佛所	-11.3507
汝亦如是	-11.3508
此二人	-11.3509
於一切眾生	-11.3511
是偈已	-11.3514
若復比丘	-11.3516
婆羅門女	-11.3517
是其	-11.3521
是故言	-11.3522
人中尊	-11.3524
內身	-11.3533
結恨	-11.3534
七千	-11.3535
名號	-11.3539
欺餘	-11.3545
汝去	-11.3552
首陀羅	-11.3553
四千里	-11.3553
佛所說法	-11.3555
人來	-11.3558
不久住	-11.3559
如是等法	-11.3559
善哉善哉	-11.356
或有是時	-11.3564
無有人	-11.3566
現在苦	-11.3566
念僧	-11.3568
不復還	-11.3569
必能	-11.3572
持淨戒	-11.3573
此跡	-11.3573
為對	-11.3576
世間集	-11.3579
彼族姓子	-11.3582
無癡	-11.3583
如癰	-11.359
色離	-11.3591
我向	-11.3594
菩提樹	-11.3594
復見	-11.3595
樂中	-11.3597
等事	-11.3597
上至	-11.36
八千里	-11.3604
不歡喜	-11.3607
有百	-11.3609
解其義	-11.3609
汝勿	-11.361
福者	-11.3614
從一	-11.3614
我憶	-11.3616
度脫	-11.3618
下方	-11.3618
恒常	-11.3619
向下	-11.362
優鉢羅華	-11.3623
惡邪見	-11.3623
不下	-11.3624
無疑難	-11.3624
非梵志	-11.3624
消化	-11.3626
真實法	-11.3627
而退	-11.363
捐棄	-11.363
默自	-11.363
向如來	-11.3631
四分	-11.3632
國土人民	-11.3635
恒有	-11.3638
車聲	-11.3639
墮三惡趣	-11.3639
云何說	-11.3641
三佛	-11.3644
長老上尊比丘	-11.3649
籌量	-11.3649
苦法	-11.3649
於佛法	-11.3652
不教	-11.3656
道眼	-11.3661
於現法	-11.3661
於四念處	-11.3661
我等今	-11.3665
竟不	-11.3665
不必	-11.3668
復欲	-11.3669
各共	-11.3669
鸚鵡摩納	-11.367
滅止	-11.3671
聞彼	-11.3671
四種軍	-11.3671
四部	-11.3676
卒起	-11.368
若是	-11.368
無數百千	-11.3681
覲	-11.3682
執杖	-11.3682
便言	-11.3684
樂法	-11.3686
相向	-11.3687
前說	-11.3688
修正見	-11.3688
業報	-11.3688
及父母	-11.3693
或有一人心	-11.3698
謂如來	-11.3699
卷第三	-11.3705
令淨	-11.3706
無事處山林樹下	-11.3708
為法	-11.3709
信佛	-11.3715
善聽	-11.3715
手長者有	-11.3716
亦當如是	-11.3716
為先	-11.3716
我等今者	-11.3719
親厚	-11.3719
施人	-11.3719
如殺	-11.3719
彼城中	-11.372
不可說	-11.3721
明旦	-11.3722
章	-11.3723
僧伽羅摩	-11.3724
一切知	-11.3724
不染著	-11.3724
尊者薄拘羅	-11.3724
莫令餘比丘	-11.3725
佐	-11.3726
繒	-11.3726
冠	-11.3727
尊者烏陀夷	-11.3728
王太子	-11.3729
閡	-11.3729
究羅檀頭	-11.373
讓	-11.373
我觀	-11.3731
泡	-11.3733
勑	-11.3733
錦	-11.3735
廣解其義	-11.3735
焚燒	-11.3736
額	-11.3736
富蘭那	-11.3736
賢聖八品道	-11.3736
多欲	-11.3736
二處	-11.3736
洞	-11.3737
令歡喜	-11.3738
摶	-11.3738
澆	-11.3738
或時行者	-11.3739
鈍	-11.3739
起瞋恚	-11.3739
恕	-11.3739
挽	-11.3739
塔寺	-11.374
憒閙	-11.374
有好	-11.3741
晉	-11.3741
淨滅枝	-11.3742
酥油	-11.3742
拘耶尼	-11.3742
映	-11.3744
兜婆	-11.3744
𤺙	-11.3745
七日七夜	-11.3745
從空下	-11.3745
瑪瑙	-11.3745
無所有入處	-11.3745
俱致年	-11.3745
加陵伽波惒邏	-11.3746
世尊默然受請	-11.3746
􂌞	-11.3746
愚闇	-11.3747
匹	-11.3747
我非彼有	-11.3747
滿財	-11.3747
姉妹	-11.3747
共相慰勞	-11.3747
現法自知作證具足住	-11.3747
綵	-11.3747
祿	-11.3748
流淚	-11.3748
式詰如來	-11.3748
捐	-11.3749
赴	-11.3749
二萬一千由旬	-11.3749
自方便斷燕坐	-11.3749
頭面著佛足	-11.375
倍復	-11.375
寄	-11.375
彼必得果	-11.375
肌	-11.3751
惹	-11.3751
胡麻	-11.3751
鬘童子	-11.3752
卑賤	-11.3752
梵主天	-11.3752
茶	-11.3753
欲別知	-11.3753
如大地土	-11.3753
復有叢林名	-11.3753
閻浮里地	-11.3754
語諸比丘	-11.3755
不蘭迦葉	-11.3755
婚	-11.3755
耆婆伽	-11.3755
經第九竟	-11.3755
掩	-11.3755
溉灌	-11.3756
生善處天中	-11.3756
為慈愍故	-11.3756
欝單越洲	-11.3756
摩竭陀大臣雨勢	-11.3756
相繼之法	-11.3756
青黃赤白	-11.3757
是生滅法	-11.3757
涅槃者	-11.3757
與世尊面相問訊慰勞	-11.3757
生可意不可意	-11.3757
耆婆	-11.3758
發欲求方	-11.3758
護念清淨	-11.3759
宮牆七重	-11.3759
是謂欲別知	-11.376
猗覺分	-11.376
淫泆	-11.376
經第六竟	-11.376
鞞留羅大將	-11.376
邪盛大會	-11.376
意疾止	-11.376
親里	-11.376
牢獄	-11.376
入長者舍	-11.3761
住一林中	-11.3761
作轉輪聖王	-11.3762
多諸珍寶	-11.3763
可貴	-11.3763
增上戒學	-11.3763
砌	-11.3764
得第三禪成就遊	-11.3764
能伏他眾	-11.3764
婬亂	-11.3764
不擇	-11.3764
國中人民	-11.3765
彌羅摩	-11.3765
起世因本經	-11.3765
有此見	-11.3765
復有五法	-11.3765
生惡處地獄中	-11.3766
聖戒	-11.3767
禁制	-11.3767
知如真者	-11.3767
是則名為	-11.3767
汝曹	-11.3767
天冠	-11.3767
愁憂苦惱	-11.3767
。」』「	-11.3768
根莖	-11.3768
敗壞無餘	-11.3769
如來亦非終亦非不終	-11.377
乃至眾鳥	-11.377
緣愛	-11.377
受持跋地羅帝偈	-11.3771
甘露門	-11.3771
惡不善業盡	-11.3771
俱熾	-11.3772
正智正念	-11.3772
是謂欲斷	-11.3772
云何欲別知	-11.3773
法次法說	-11.3774
正理	-11.3774
欲有所行但有	-11.3774
不憂	-11.3774
為從何來	-11.3774
毀壞	-11.3775
遊行人間	-11.3776
卵生	-11.3776
住已而觀	-11.3776
聽我問	-11.3777
先所	-11.3777
納受	-11.3777
林木	-11.3778
意根	-11.3779
瞻波	-11.3779
欲不淨想	-11.3781
五欲悉虛	-11.3781
年老	-11.3783
是為第四	-11.3783
異道人	-11.3784
所住處	-11.3784
形容	-11.3786
離一切	-11.3786
乘於	-11.3789
空無所有	-11.3789
眾生生受	-11.3789
是名丈夫	-11.379
其前	-11.3791
次法	-11.3791
生大	-11.3793
無明所	-11.3793
隨意所欲	-11.3793
即於佛前	-11.3794
怨親	-11.3795
從是習	-11.3797
誣謗世尊	-11.3797
斷彼法	-11.3798
七人	-11.38
非法行	-11.38
善持	-11.3804
而行乞食	-11.3804
擊之	-11.3806
云何欲斷	-11.3807
經第	-11.3809
當來有	-11.3809
善道	-11.3809
當捨離	-11.381
好衣	-11.381
近在	-11.381
自證	-11.3811
不瞋恚	-11.3814
皆悉無常	-11.3815
種種香熏	-11.3816
是故我說	-11.3818
發往	-11.3819
是為第二	-11.3821
後善	-11.3823
精進方便	-11.3823
堂閣	-11.3824
大丈夫	-11.3827
未離欲	-11.3828
從後	-11.3829
今佛	-11.3829
隨後	-11.3831
奉侍	-11.3832
生世間	-11.3832
有漏心解脫	-11.3832
出聲	-11.3832
二月	-11.3832
調和	-11.3833
獨住遠離	-11.3834
阿難當知	-11.3835
為難	-11.3835
生可意	-11.3835
資生	-11.3837
復有一種	-11.3837
千三百	-11.384
生酥	-11.3845
執事	-11.3847
一類	-11.3848
以智慧	-11.3849
是行	-11.3852
勅左右	-11.3853
以供	-11.3857
本生	-11.386
我等聞已	-11.3861
出於世間	-11.3862
西天譯經三藏朝奉大夫試	-11.3862
無上正真	-11.3862
不可念	-11.3864
歸趣	-11.3865
諮問	-11.3867
盡壽	-11.387
不造	-11.3872
後時	-11.3873
來至世尊所	-11.3874
惡馬	-11.3875
如是說已	-11.3876
便告	-11.3877
一事	-11.3878
以熱鐵	-11.3878
善修梵行	-11.3882
色如	-11.3882
卷第五十	-11.3884
正念正知	-11.3885
王見	-11.3886
令斷	-11.3894
無放逸	-11.3899
他國	-11.3899
思惟已	-11.39
不如是說	-11.3902
有緣生	-11.3902
答彼	-11.3903
生於天上	-11.3903
從初	-11.3905
羅閱城中	-11.3907
心起	-11.3907
受教已	-11.3909
其轉輪王	-11.3909
眾會	-11.3913
恭敬問訊	-11.3914
不近食	-11.3915
除斷	-11.3916
復有六	-11.3917
自能	-11.3919
諸大臣	-11.3919
三歸	-11.3923
有一天	-11.3926
聖慧	-11.393
不勤	-11.3933
即受教	-11.3934
有三事	-11.3935
此居士	-11.3937
閻浮利	-11.3941
拘樓	-11.3941
先苦而後樂	-11.3942
離散	-11.3944
覺分	-11.3945
彼水聚	-11.3945
淨解脫	-11.3946
五下分結盡	-11.3946
於天上	-11.3947
火光	-11.3947
在樹下	-11.3948
於夜	-11.395
心識	-11.3952
所有光明	-11.3953
長者當知	-11.3955
是故如來	-11.3961
四王	-11.3962
當思	-11.3963
漂	-11.3964
五支	-11.3964
大利	-11.3965
從行	-11.3967
悲心	-11.3968
白尊者阿難	-11.3971
從剎利	-11.3972
令我得	-11.3972
增益諸天	-11.3974
世間人民	-11.3974
此長者	-11.3975
家業	-11.3976
諸比丘見已	-11.3978
現在樂	-11.398
令知	-11.3987
念覺支	-11.399
五百童子	-11.3993
欲盡	-11.3994
又此	-11.3995
人輩	-11.3995
其中有	-11.4001
三惡行	-11.4004
梵音	-11.4004
堅實	-11.4006
當還	-11.4007
彼處已	-11.4011
得三明	-11.4012
十萬	-11.4017
何等是	-11.4019
不合	-11.4021
遂至	-11.4023
便失	-11.4025
廣分別	-11.4026
有所犯	-11.4027
我不知	-11.403
如其	-11.403
為何所	-11.403
貪取	-11.4032
神通力	-11.4034
至七日	-11.4035
設不	-11.4038
千人	-11.4042
色出要	-11.4042
如是聖弟子	-11.4045
鼻識	-11.4048
轉復	-11.405
內外身	-11.405
乃至七	-11.4053
六種	-11.4055
意不忘	-11.4062
眾共	-11.4063
耶舍	-11.4063
隨身	-11.4064
念惡	-11.4066
金翅鳥王	-11.4066
▁9	-11.4066
摩呵男	-11.4067
著好衣	-11.4071
如我所	-11.4071
集諸	-11.4073
唯有一	-11.4076
以有	-11.408
之家	-11.408
得利養	-11.408
生眼	-11.408
能轉	-11.4082
四百	-11.4086
劫中	-11.4087
法門	-11.4088
▁是	-11.409
慧觀	-11.409
阿闍世	-11.4091
適意	-11.4094
與我等	-11.4107
修善法	-11.4109
於沙門	-11.411
大恐怖	-11.4113
風起	-11.4115
即白	-11.4115
於大眾	-11.4116
推求	-11.4116
極好	-11.4117
彼盡	-11.4121
能勝	-11.4122
大叫喚	-11.4123
梵摩達	-11.4127
卷第五	-11.4127
亦以	-11.4138
諮	-11.4139
山上	-11.4141
於五欲	-11.4141
乃知	-11.4142
供養佛	-11.4144
小便	-11.4145
歡喜園	-11.4146
是名世間	-11.4148
大城	-11.4152
而此	-11.4152
所說偈	-11.4154
樂想	-11.4154
雜華	-11.4156
為五	-11.4157
如是智慧	-11.4161
毘沙門王	-11.4164
▁8	-11.4164
房中	-11.4165
義饒益	-11.4167
舍中	-11.4167
多事	-11.4169
苦生	-11.417
何所求	-11.4173
善戒	-11.4173
各各自	-11.4179
斷壞	-11.4183
女人不得	-11.4189
汝今當	-11.4191
梵志族	-11.4193
師法	-11.4193
所護	-11.4193
俱行	-11.4194
善意	-11.4194
佛足	-11.4198
心修習	-11.4199
羅閱祇	-11.4201
鹹	-11.4201
巨	-11.4201
塔廟	-11.4201
中路	-11.4202
是一切	-11.4203
眾所	-11.4203
。』?」	-11.4203
亦作是念	-11.4203
車馬	-11.4203
若他	-11.4206
若干百	-11.4211
莊	-11.4211
擲著	-11.4211
𧂐	-11.4212
獲此	-11.4212
獲於	-11.4214
僕使	-11.4214
是世尊	-11.4215
滿其中	-11.4217
此石	-11.4221
用是	-11.4222
謂苦聖諦	-11.4222
百由延	-11.4225
寧當	-11.4225
王復告	-11.4225
七竟	-11.4226
念施	-11.4231
行如是大施	-11.4231
當解	-11.4231
有義	-11.4232
恭	-11.4233
求願	-11.4236
畜牧	-11.4239
五人	-11.4241
寶珠	-11.4242
詰	-11.4242
無增減	-11.4245
不曾	-11.4247
有三事勝	-11.4248
有比丘名	-11.4248
卷第二	-11.4249
殖	-11.4249
慢者	-11.425
黑繩	-11.4251
為衣	-11.4253
亦不可	-11.4253
鈍根	-11.4255
吏	-11.4255
粮	-11.4257
以鑽鑽	-11.4258
魂神	-11.4259
有愧	-11.4259
盲子	-11.4259
毛竪	-11.426
埀	-11.426
以是十業得	-11.426
斯言	-11.426
熟視	-11.4262
七匝	-11.4262
僮僕	-11.4263
悴	-11.4264
策	-11.4265
惡伴黨	-11.4266
恭敬禮事	-11.4267
告群臣	-11.4267
毾𣰆	-11.4267
長者報	-11.4267
庫藏	-11.4268
如天	-11.4268
踈	-11.4269
舞	-11.4269
袈裟	-11.4269
耆年	-11.427
斤	-11.427
而以	-11.427
復不	-11.427
矛	-11.427
口言善	-11.427
扶	-11.4271
三繞彼城	-11.4271
山澤	-11.4271
羹	-11.4272
0)	-11.4272
毘舍佉	-11.4272
端正姝好	-11.4273
掠	-11.4273
懷歡喜	-11.4273
墨	-11.4273
鬪亂	-11.4273
婬行	-11.4274
婬泆	-11.4274
穴	-11.4274
晚	-11.4275
俱耶尼	-11.4275
是此尊者	-11.4277
繞三匝	-11.4277
萬毒並至	-11.4277
執扇扇佛	-11.4277
調貢高	-11.4277
奉迎	-11.4277
宜當	-11.4277
四萬里	-11.4278
野象	-11.4278
所牽	-11.4278
至舍衛國祇樹給孤獨園	-11.4279
百千兩金	-11.4279
齊整	-11.4279
長吏	-11.428
放大光明	-11.428
懶惰	-11.428
荼	-11.428
乾沓和	-11.428
從何所來	-11.428
經無量時	-11.4281
從頭至足	-11.4281
腸胃	-11.4281
姝好	-11.4281
則解其義	-11.4282
衣毛皆竪	-11.4282
今為所在	-11.4283
入室燕坐	-11.4283
大風	-11.4283
非形體具足	-11.4284
凾	-11.4284
為主	-11.4284
諸佛世尊常所說法	-11.4285
其身上	-11.4285
筋骨	-11.4285
盡有漏成無漏	-11.4285
婆伽婆在舍衛城祇樹給孤獨園	-11.4286
歡喜而樂	-11.4286
堅牢	-11.4286
梵梵所化	-11.4286
菩提樹下	-11.4287
暢	-11.4287
摩伽陀國	-11.4287
常住不變	-11.4288
受諸苦惱	-11.4288
胞胎	-11.4289
多薩阿竭	-11.4289
守護諸根	-11.4289
兩頭	-11.429
受想行識	-11.429
未得欲得	-11.429
滅有對想	-11.4291
得第二禪成就遊	-11.4292
遠近	-11.4292
尊者勒叉那	-11.4293
妙與不妙	-11.4294
獲福無量	-11.4294
而令或一若男若女	-11.4295
都邑	-11.4295
此等名為	-11.4295
沒溺	-11.4296
泥犁勤苦	-11.4296
亦有中夭者	-11.4297
婬女	-11.4297
應答	-11.4297
難國王	-11.4297
意善行	-11.4298
奔茶梨迦	-11.4298
經道	-11.4298
種種眾鳥	-11.4299
自言	-11.4299
麁惡	-11.43
於過去	-11.43
尊者賓頭盧	-11.43
當詣	-11.43
諸天得勝	-11.4301
雷電	-11.4301
隨順燕坐	-11.4301
佛告央掘魔羅	-11.4303
相貌	-11.4303
即受	-11.4303
所得果報	-11.4303
鉢器	-11.4303
知我心	-11.4303
以兩手	-11.4305
焰摩迦比丘	-11.4305
打破	-11.4306
家屬	-11.4306
貪欲蓋	-11.4307
大正殿	-11.4308
聞佛說	-11.4308
為無有本	-11.4308
調悔	-11.4308
於異時	-11.4309
又且	-11.4309
不惡口	-11.4311
不得久存	-11.4311
我女	-11.4311
善法增長	-11.4314
不畜	-11.4314
形像	-11.4315
財主	-11.4315
轉移	-11.4315
知領群特	-11.4315
八千象	-11.4315
廣普	-11.4316
令得安隱	-11.4316
佛出	-11.4317
皆生天上	-11.4319
山谷	-11.432
?』『	-11.432
善言	-11.4321
唯願大王	-11.4321
佛告摩納	-11.4324
比丘應	-11.4325
神寺	-11.4325
是大	-11.4326
心受	-11.4326
上生	-11.4328
無量種	-11.4328
犢子梵志	-11.4331
緣生法	-11.4336
所染	-11.4337
何謂為	-11.4339
彼業	-11.4339
不共	-11.434
愛緣	-11.4343
即於彼處	-11.4343
亡失	-11.4344
無是處	-11.4344
白淨法	-11.4344
毘婆尸	-11.4345
能制	-11.4345
金師	-11.4345
此是汝師	-11.4348
即念	-11.4348
意行惡	-11.4349
作如是學	-11.4349
天輪寶	-11.4351
界俱	-11.4354
世尊便說斯	-11.4357
千光明	-11.4359
自憶	-11.436
算數	-11.4361
並作是	-11.4366
樂者	-11.4368
我種	-11.4368
當遠離	-11.4369
記念	-11.437
成其	-11.4371
解脫者	-11.4371
常欲	-11.4372
離殺生	-11.4373
諸比丘白世尊	-11.4374
眾比丘	-11.4374
妙音	-11.4374
尋復	-11.4375
斷心	-11.4377
防護	-11.438
歸依法	-11.438
甚難得	-11.4383
退減	-11.4384
以偈歎	-11.4385
是故彼	-11.4386
受入	-11.4386
從愛	-11.4389
謂十	-11.439
教我	-11.4393
與眾多比丘	-11.4393
三經	-11.4394
則知我	-11.4395
無所乏	-11.4398
得盡諸漏	-11.4399
患苦	-11.4399
七寶者	-11.44
彼頂生王	-11.44
既不	-11.44
法輪	-11.4401
以七寶作	-11.4401
雙樹	-11.4401
婆羅婆	-11.4401
退沒	-11.4405
世間常	-11.4405
有恐怖	-11.4406
自陳	-11.4406
福祐	-11.4407
閻浮樹	-11.4408
歸家	-11.4409
是謂此人	-11.4411
斷見	-11.4414
以水	-11.4415
佛如是說	-11.442
當其	-11.4423
斷貪欲	-11.4425
麻油	-11.4426
多聞聖弟子若	-11.4426
或臥	-11.4427
此正法	-11.4429
問之	-11.4429
若見沙門	-11.443
能離	-11.443
著水中	-11.443
以指	-11.4433
自歸於佛	-11.4433
心與	-11.4435
離貪欲	-11.444
神識	-11.444
斯由	-11.4442
莫生	-11.4442
即滅	-11.4442
無咎	-11.4445
自用	-11.4446
修慧	-11.4446
所熏	-11.4448
財施	-11.4448
此象	-11.4453
受此苦	-11.4459
隨汝所	-11.4459
即前	-11.4462
是道	-11.4464
飲食施	-11.4464
今不	-11.4466
得出家	-11.447
已下	-11.4473
往語	-11.4477
受他	-11.4478
不報	-11.4478
當善	-11.448
禮事於彼	-11.4483
不廢	-11.4484
起意	-11.4488
少時	-11.4491
施彼	-11.4492
黑白	-11.4492
復走	-11.4493
有死	-11.4493
見諦	-11.4495
為子	-11.4495
無一	-11.4497
無牢	-11.4498
歎言	-11.4499
以此句	-11.4499
恒以	-11.451
受王教	-11.4514
命清淨	-11.4516
我今已得	-11.4522
捨諸	-11.4523
憎惡	-11.4523
大精進	-11.4524
云何有人	-11.4528
衣長	-11.4528
能捨	-11.453
行處	-11.4531
化作五百	-11.4536
其王	-11.4537
四遠	-11.4538
善好	-11.4539
在人中	-11.454
有受	-11.4547
則不能	-11.4547
群牛	-11.4547
諂曲	-11.455
在一	-11.455
猶尚	-11.4556
得免	-11.4563
即告之	-11.4563
惱觸	-11.4563
不苦	-11.4566
研	-11.4569
諸夜叉	-11.4573
若彼比丘	-11.4574
大福	-11.4574
如無常	-11.4581
天上諸天	-11.4581
受五戒	-11.4583
為八	-11.4586
世尊知已	-11.4587
啟白	-11.4588
欲施	-11.4589
黑業	-11.4589
號曰	-11.4589
作於	-11.459
等見	-11.4591
應作	-11.4591
於我所	-11.4592
正住	-11.4595
不邪婬	-11.4597
味著	-11.46
世間滅	-11.4602
欲度	-11.4603
相去	-11.4607
苦故	-11.461
樂覺者	-11.4615
純白	-11.4616
婆伽婆	-11.4616
於死	-11.4616
不樂著	-11.4623
若臥	-11.4624
諸重擔	-11.4624
不二	-11.4625
花鬘	-11.4627
得善	-11.4627
不破	-11.4627
母難陀	-11.4628
生老死	-11.4631
求福	-11.4631
式	-11.4633
佛經戒	-11.4634
活命	-11.4639
至究竟	-11.4639
將無	-11.4639
梵志當知	-11.4641
當作是念	-11.4643
心所念	-11.4645
自造	-11.4649
善丈夫	-11.4653
鐵城	-11.4653
但念	-11.4657
相視	-11.4658
善本	-11.4659
有因	-11.4659
欲著	-11.4663
斷五蓋	-11.4664
娶	-11.4664
無染	-11.4665
隨轉	-11.4667
不信者	-11.4669
在何所	-11.4674
天色	-11.4675
以偈頌	-11.4675
深妙	-11.4677
於此法中	-11.4678
汝來	-11.468
本為	-11.4682
證知	-11.4686
自觀身	-11.4687
不怖	-11.4693
不得出	-11.4694
復有沙門	-11.47
有限	-11.4703
如是數	-11.4704
是謂如來	-11.4704
北方天下	-11.4705
深入	-11.4706
信法	-11.4707
法師	-11.4708
財業	-11.4711
優填王	-11.4714
問其	-11.4717
復有聲聞於	-11.4718
而說法	-11.4719
不污	-11.472
共集會	-11.472
我自知	-11.4724
婆羅門即	-11.4725
與他	-11.4725
入于	-11.4725
觀眾生類	-11.4728
▁法	-11.4729
我受	-11.4729
漏心解脫	-11.4734
行精進	-11.474
有恚	-11.4744
乃如是	-11.4748
受齋	-11.4749
當使	-11.4752
涼	-11.4753
踊躍無量	-11.4755
嘆	-11.4757
中門	-11.4761
兇	-11.4762
護之	-11.4762
皆令	-11.4763
身識	-11.4763
盡諸漏	-11.4764
罪人入	-11.4765
嗜	-11.4766
我恒	-11.4766
地獄眾生	-11.4767
當善受持	-11.4769
亦異	-11.477
說曰	-11.4772
毒痛	-11.4774
殺人	-11.4777
可與	-11.4777
今悉	-11.4778
駛流	-11.478
在所	-11.4781
七佛	-11.4781
為一切	-11.4781
所逼	-11.4782
不捨離	-11.4784
卑下	-11.4785
無施	-11.4785
不覩	-11.4786
辦具	-11.4788
咸共	-11.4789
㮈女	-11.4789
蹈	-11.4791
四足	-11.4792
有五種	-11.4792
聲聞眾	-11.4793
於斯	-11.4795
復以何因緣	-11.4796
離塵	-11.4797
氍氀	-11.4798
差降	-11.4798
枝葉華實	-11.4801
齋日	-11.4801
於僧	-11.4804
有九	-11.4805
希望	-11.4805
老人	-11.4805
何等為二	-11.4807
周利槃特	-11.4807
出家人	-11.4807
為他人說	-11.4807
無上尊	-11.4808
瑕穢	-11.4808
生活	-11.4808
夭	-11.4809
阿難邠坻	-11.4809
一切沙門	-11.4809
嘗	-11.4809
姿	-11.481
央掘魔羅以偈答	-11.481
摩多離	-11.4811
幸	-11.4811
阿須輪	-11.4812
基	-11.4813
葦	-11.4814
四寸	-11.4814
溪㵎	-11.4815
隨順法	-11.4815
可止	-11.4816
四輩弟子	-11.4816
穀米	-11.4816
觀察非我	-11.4817
吞	-11.4817
刀分	-11.4817
遮迦越羅王	-11.4818
黎	-11.4819
楚	-11.482
篋	-11.482
覓	-11.482
裏	-11.4821
祭祀	-11.4822
寢	-11.4822
儲	-11.4822
故也	-11.4822
懺	-11.4822
㮈林	-11.4822
鋒	-11.4822
為人說法	-11.4822
膿血流出	-11.4823
五結樂子	-11.4823
縷	-11.4824
竝	-11.4824
知上如真	-11.4824
輸迦長者	-11.4824
卷第一	-11.4824
此法有諍	-11.4824
陂	-11.4825
煎	-11.4825
告我	-11.4826
斯有是處	-11.4826
有妙	-11.4826
劒	-11.4827
慧者聞喻	-11.4827
男女大小	-11.4828
按	-11.4828
烏鳥	-11.4828
亦知從是沒	-11.4828
亦知是所樂	-11.4829
奔	-11.4829
匠	-11.4829
亦知是更苦	-11.4829
光顏	-11.4829
耕種	-11.4829
一切世間不可樂想	-11.483
剃鬚髮	-11.483
語亦善	-11.483
於七日中	-11.483
彷徉	-11.4831
峯	-11.4831
非有願非無願行	-11.4832
吼	-11.4832
十二部經	-11.4832
來生此間	-11.4832
乖	-11.4833
莫知所	-11.4833
頭面禮世尊足	-11.4833
佛告玉耶	-11.4833
以火燒	-11.4834
軛	-11.4835
內寂其心	-11.4835
難知	-11.4835
禮佛而去	-11.4835
斷此諍	-11.4835
從後說絕	-11.4836
准	-11.4836
瓜	-11.4836
綜	-11.4836
適悅	-11.4836
悲鳴	-11.4836
不牢要	-11.4837
遷	-11.4837
將五百比丘	-11.4837
則知上如真	-11.4837
摩訶拘絺羅	-11.4837
富蘭那迦葉	-11.4837
中夭	-11.4837
摩竭陀	-11.4837
彼身壞命終	-11.4838
如截多羅樹頭	-11.4838
婆梨	-11.4838
骸骨	-11.4838
塹	-11.4838
神止處	-11.4838
又於	-11.4839
七重交露	-11.4839
一意得定	-11.4839
婆耆舍	-11.484
不捨方便	-11.484
法次法向	-11.484
鬚	-11.484
觀興衰法	-11.484
我作剎利頂生王	-11.484
不恐怖	-11.484
無上福田	-11.484
日初出	-11.484
剎那	-11.4841
糧	-11.4841
無喜	-11.4842
羽	-11.4842
緣生有老死	-11.4842
所以族姓子	-11.4842
釋摩男	-11.4842
乘虛而行	-11.4842
四阿含	-11.4842
牛糞	-11.4842
拘牟陀	-11.4842
形體具足	-11.4842
歡娛	-11.4843
第四分別誦	-11.4843
▁12	-11.4843
床敷臥具	-11.4844
啼哭號呼	-11.4844
阿耨達多龍王	-11.4844
悅豫	-11.4844
佛住摩拘羅山	-11.4845
象兵	-11.4845
必受苦果地獄之報	-11.4845
一正見人	-11.4845
覺受樂	-11.4846
曇摩留支	-11.4846
非沙門稱沙門	-11.4846
莫恐	-11.4846
色白如	-11.4846
在其中甚	-11.4846
義味具足	-11.4847
腰	-11.4847
滿富城中	-11.4847
專念不忘	-11.4847
阿那邠祁長者	-11.4847
在閑靜處	-11.4847
不如有人以	-11.4848
必受苦果現法之報	-11.4848
尊者婆耆奢	-11.4849
有利	-11.4849
壽千歲	-11.4849
放牛人	-11.485
餘則虛妄	-11.485
知諸法	-11.485
無行般涅槃	-11.4852
鞞摩質多囉阿修囉王	-11.4852
不可稱量	-11.4853
悉是	-11.4853
後受苦報	-11.4853
變成	-11.4853
得阿耨多羅三藐三菩提	-11.4853
無病無上安隱涅槃	-11.4853
經營	-11.4853
不為他人之所輕毀	-11.4853
後受樂報	-11.4853
心靖得喜	-11.4854
色為常	-11.4855
無有遺餘	-11.4857
無愁憂慼	-11.4858
臭處	-11.4858
是故稽首禮	-11.4858
超出	-11.4859
火種居士	-11.486
心中不生	-11.4861
佛說此人	-11.4862
第二第三	-11.4862
用是因緣	-11.4862
驅出	-11.4862
最為上	-11.4863
具足而受	-11.4863
開門	-11.4863
妄說	-11.4863
以氍氀	-11.4863
鵄鵂	-11.4864
其體	-11.4864
苦滅道跡聖諦如實知	-11.4865
此為何義	-11.4866
平地	-11.4866
是佛弟子名	-11.4866
宣令	-11.4867
定生喜樂	-11.4867
正爾	-11.4867
當生何處	-11.4867
是謂三種	-11.4868
重法	-11.4869
天金	-11.487
根熟	-11.487
想知滅	-11.4871
七百由旬	-11.4871
彼於受	-11.4872
欲起	-11.4874
無如是事	-11.4876
有諸門	-11.4878
象首	-11.488
若有法	-11.488
愛憎	-11.4881
承事供養	-11.4882
成此	-11.4884
無有愛	-11.4884
持之	-11.4887
人非人身	-11.4887
過惡	-11.4889
意樂	-11.4889
佛告帝釋	-11.4889
此四事	-11.4891
在閑居	-11.4892
獵師食	-11.4892
得具足戒	-11.4893
退還	-11.4893
名某	-11.4894
入胎	-11.4902
四無所畏	-11.4903
是我師	-11.4904
汝亦	-11.4905
善觀察	-11.4906
五百歲	-11.4907
爾也	-11.4907
彼等眾生	-11.4909
俱薩羅國	-11.491
清泉	-11.4912
無量心	-11.4914
今如來	-11.4914
其音	-11.4914
此是如來	-11.4915
犯禁戒	-11.4915
兩岸	-11.4916
為諸聲聞	-11.4921
汝且	-11.4923
可聞法	-11.4924
以法教	-11.4928
為變易法	-11.4929
七子	-11.4932
與比丘眾	-11.4933
得捨	-11.4933
如來常	-11.4933
大堅固	-11.4933
斷欲貪	-11.4934
月光長者	-11.4934
因苦行	-11.4936
起迎	-11.4937
持法	-11.4937
以斯	-11.4939
便成阿羅漢	-11.494
未能	-11.494
不施	-11.4942
此界	-11.4943
汝頗	-11.4944
善作	-11.4944
無色有	-11.4948
皆悉具足	-11.4948
因本	-11.4949
五曰	-11.4949
阿須倫眾	-11.4951
三結	-11.4954
七字	-11.4955
由其	-11.4957
失利	-11.4963
以己	-11.4968
所疑	-11.4968
上說	-11.4969
不繫著	-11.497
始有	-11.4971
夏坐	-11.4972
不可輕	-11.4972
長老上尊	-11.4973
為最第一	-11.4974
於中所有	-11.4975
無明使	-11.4977
成須陀洹	-11.4979
天者	-11.4983
空閑處	-11.4983
於父母	-11.4983
眾多比丘聞	-11.4984
甚苦	-11.4984
不憙	-11.4985
但說	-11.4986
原本	-11.4986
斷諸煩惱	-11.4987
正殿	-11.4992
而過	-11.4993
愁慼	-11.4994
亦復不能	-11.4996
為淨	-11.4996
無記	-11.4997
從於	-11.4997
土地	-11.4998
如是長壽	-11.4998
欲見世尊	-11.4999
有男女	-11.5001
三乘	-11.5002
形相	-11.5002
求財物	-11.5005
我勝	-11.5006
何人	-11.5006
彼不知如真	-11.5008
常自	-11.5009
善巧	-11.5009
應當學	-11.5009
他作	-11.501
心歡喜	-11.501
族姓男	-11.5011
攝諸根	-11.5014
乃至天	-11.5015
放逸行	-11.5018
作種種	-11.5019
無瞋	-11.502
諸法本	-11.5023
即有	-11.5024
生染著	-11.5025
諸華	-11.5025
為明	-11.503
將去	-11.503
已得解脫	-11.5031
如是觀察	-11.5032
光音	-11.5032
發遣	-11.5033
還得	-11.5036
於彼時	-11.5042
作身	-11.5042
我已解	-11.5042
不生彼	-11.5043
見此比丘	-11.5044
華果	-11.5046
定者	-11.5048
能施	-11.5049
諸賢當知	-11.5052
所了	-11.5053
而得解脫	-11.5056
何所繫	-11.5056
心欲	-11.5057
相近	-11.5058
身作證	-11.5061
作此言	-11.5062
戒法	-11.5063
去此	-11.5063
皆出	-11.5064
當奉行	-11.5064
亦不著	-11.5065
當為說	-11.5066
等心	-11.5067
心不解脫	-11.5068
多種	-11.5073
斷絕離	-11.5073
少病	-11.5074
廣遠	-11.5074
非是我	-11.5077
當獨一靜處	-11.5078
於佛不壞淨成就	-11.5079
事因此事	-11.5083
度此	-11.5083
性行	-11.5085
自當知	-11.5086
既得	-11.5089
是有為	-11.5092
非天	-11.5092
不腐	-11.5094
以飲食	-11.5096
於聖法	-11.5096
而求	-11.5098
眾生類	-11.5098
宜可	-11.5099
行正法	-11.5101
是如法	-11.5101
則非	-11.5104
舉足	-11.5109
清淨信	-11.5109
梵迦夷天	-11.5109
勿得	-11.5111
有補特伽羅	-11.5113
血流	-11.5114
增一	-11.5116
奉事剎利	-11.5116
身著	-11.5117
身苦行	-11.5119
盡與	-11.5119
之智	-11.5122
若行者	-11.5123
善見天	-11.5125
手自	-11.5126
大道	-11.5126
知人	-11.5126
現法苦	-11.5127
行求	-11.5129
彼士夫	-11.5132
世間轉	-11.5132
不癡	-11.5132
所及	-11.5134
復用	-11.5141
持五戒	-11.5144
若作是說	-11.5145
閻浮洲中	-11.5146
入我法	-11.5146
能說法	-11.5147
世間貪	-11.515
取涅槃	-11.5151
共俱	-11.5152
三十三	-11.5155
於王舍城	-11.5158
持八關齋	-11.5158
諸有眾生	-11.5159
毒藥	-11.5164
然火	-11.5165
汝等應	-11.5168
梵志施設	-11.517
聚落中	-11.5171
彼比丘尼	-11.5172
為諸比丘說法	-11.5174
乘象	-11.5176
亦餘	-11.5177
止處	-11.518
身壞	-11.5182
自貢高	-11.5182
道迹	-11.5182
作事	-11.5182
汝諸比丘	-11.5183
而答	-11.5184
若爾	-11.5184
▁(	-11.5184
如是說法	-11.5185
為諸法	-11.5185
在彼住	-11.5189
為欲何	-11.519
彼聖弟子	-11.5191
於佛不壞淨	-11.5193
多財	-11.5194
訟	-11.5199
從下	-11.5199
使汝	-11.5203
初生時	-11.5204
惡龍	-11.5205
無過於	-11.5205
娑羅樹	-11.5206
何謂四	-11.521
生地獄	-11.5211
此偈	-11.5216
染欲	-11.5217
實非	-11.5219
有求欲	-11.5221
極受	-11.5224
那伽	-11.523
能降伏	-11.5231
我當為	-11.5231
中住	-11.5232
為我作	-11.5233
彼天帝釋	-11.5234
信者	-11.5237
是汝	-11.5239
以道	-11.524
弗	-11.524
阿羅漢者	-11.5241
汝等見	-11.5241
依彼	-11.5242
百生	-11.5244
捨壽	-11.5246
至王所	-11.5248
長者是	-11.5249
於三十三天	-11.5251
之患	-11.5252
隨意所	-11.5252
當般泥洹	-11.5252
離妄言	-11.5253
身色	-11.5254
不滿足	-11.5254
共住	-11.5258
乃至梵天	-11.526
悉當	-11.526
或學	-11.5261
為直念	-11.5262
一義	-11.5266
或坐	-11.5266
當至	-11.5267
盛陰	-11.5269
受信施食	-11.527
彼內	-11.5275
莫得	-11.5277
意行善	-11.5278
至今	-11.5281
共戰	-11.5282
無量諸	-11.5285
是見	-11.5289
▁5	-11.5289
一向記	-11.5289
成者	-11.529
此五根	-11.529
亦不應	-11.5292
千年	-11.5297
眾人所	-11.5299
是因緣	-11.5299
善惡業報	-11.5304
此四法	-11.5306
財利	-11.5313
然燈	-11.5314
舒	-11.5318
志求	-11.5319
▁11	-11.532
黑色	-11.532
知者當	-11.532
水流	-11.532
波梨子	-11.5321
村人	-11.5321
惱苦	-11.5321
蓮	-11.5323
使來	-11.5324
所修	-11.5328
閣	-11.5328
著欲	-11.5328
已壞	-11.5333
有斯	-11.5336
四辯	-11.5336
起諸	-11.5336
五納	-11.5345
賢士	-11.5347
見如真	-11.5348
歲數	-11.535
樓上	-11.5351
大眾中	-11.5351
無利	-11.5353
樂生	-11.5353
經第八竟	-11.5358
已受	-11.5358
其父	-11.5362
出家已	-11.5363
論者	-11.5365
六百	-11.5368
熱鐵丸	-11.5374
舉著	-11.5377
蚊蚋	-11.5377
句味	-11.5378
濕生	-11.5378
各相	-11.5379
佛者	-11.538
所觸	-11.538
力也	-11.5381
閻王	-11.5382
屏處	-11.5383
阿那邠邸	-11.5386
愛結	-11.5387
瘦弱	-11.5387
常喜	-11.5387
由愛	-11.5388
受具足戒	-11.5389
常無常	-11.5391
則斷	-11.5395
酸	-11.5396
彼山	-11.5396
有不善	-11.5396
告彼	-11.5396
又諸比丘	-11.5397
即捨	-11.5397
田宅	-11.5398
拘夷	-11.5398
向惡趣	-11.5399
若有人者	-11.54
殘害	-11.54
不記	-11.54
駈	-11.5403
曠	-11.5404
商佉	-11.5404
不還此世	-11.5404
肝	-11.5405
欺詐	-11.5405
抂	-11.5406
眴	-11.5407
王子孫相承	-11.5407
比丘尼眾	-11.5407
當莫	-11.5408
護心	-11.5408
斷故	-11.5409
雅	-11.5409
突	-11.5409
正見人不如施	-11.541
耨	-11.541
席	-11.541
成無漏	-11.541
斷結	-11.541
梵及餘世間	-11.5411
撾打	-11.5411
差摩比丘	-11.5411
劫盜	-11.5412
覺礫拘荀大	-11.5412
懸繒	-11.5412
清潔	-11.5412
受惡報	-11.5412
拘樓秦佛	-11.5413
細軟	-11.5413
被袈裟	-11.5413
片	-11.5413
主兵臣	-11.5413
當以五事	-11.5414
從三昧起	-11.5414
刻	-11.5414
若男若女	-11.5414
有所論說	-11.5415
諸業	-11.5415
路側	-11.5415
佛住拘睒彌國瞿師羅園	-11.5415
哩	-11.5416
有身集	-11.5416
為當來有本	-11.5416
神珠寶	-11.5416
撮	-11.5416
甚為難得	-11.5416
便持	-11.5417
驚懼	-11.5417
靈	-11.5417
無相心三昧	-11.5418
亦不從	-11.5418
墮負處	-11.5418
輕毀	-11.5418
賢良	-11.5418
須臾之間	-11.5419
井	-11.5419
捺	-11.5419
如是比丘隨其身行	-11.5419
勤加精進	-11.542
苦盡諦	-11.542
求歸依處	-11.542
石蜜	-11.5421
俟	-11.5421
所以善男子	-11.5421
宗奉	-11.5421
屎	-11.5421
觸緣受	-11.5421
膽	-11.5421
專念不亂	-11.5421
跋地羅帝偈	-11.5421
徧	-11.5422
波羅蜜	-11.5422
身作證具足住	-11.5422
典兵寶	-11.5422
毀罵	-11.5423
從宴坐起	-11.5423
莫與	-11.5423
鹿野苑中	-11.5423
夜闇中	-11.5424
陸地	-11.5424
駱駝	-11.5424
長壽博士	-11.5424
招	-11.5424
佛住迦毘羅衛國尼拘律園	-11.5425
良醫	-11.5425
如甲上土	-11.5425
各還本處	-11.5425
聲聞緣覺	-11.5425
板	-11.5426
歸依三寶	-11.5426
修於梵行	-11.5426
此識身及外境界一切相	-11.5426
中後彷徉	-11.5426
梵志國師	-11.5426
聞佛此語	-11.5427
大苦災患	-11.5427
搔揵提迦	-11.5427
速滅	-11.5427
有因有緣	-11.5427
修念覺分	-11.5427
去後不久	-11.5427
筏	-11.5428
長者給孤獨	-11.5428
調伏世間貪憂	-11.5428
鸚鵡摩牢兜羅子	-11.5428
是即名為佛最勝法	-11.5428
是說苦邊	-11.5429
口言惡	-11.5429
蠅蚤	-11.5429
懸繒幡蓋	-11.5429
i	-11.543
無憂慼正行	-11.543
嚴備	-11.543
如王邊城	-11.543
後漢安息國三藏安世高譯	-11.5431
▁10	-11.5431
城廓	-11.5431
博戲	-11.5431
浚輸	-11.5431
十五日說從解脫時	-11.5432
曩	-11.5432
咨嗟稱歎	-11.5432
日大城郭	-11.5432
其有人	-11.5432
北面	-11.5433
三十一劫	-11.5433
拏	-11.5433
墻	-11.5433
眾多異學	-11.5433
聽我所說	-11.5433
甜	-11.5433
如前所說	-11.5434
佛法僧	-11.5435
著僧伽梨	-11.5435
形類	-11.5435
九十一劫	-11.5435
城三匝	-11.5435
悉入	-11.5435
卷第六	-11.5435
毘沙門大天王	-11.5435
半由旬	-11.5436
月光	-11.5436
降雨	-11.5436
!』「	-11.5436
廣布無常想	-11.5436
是即名為	-11.5436
應懃修集	-11.5436
善義善	-11.5437
正勤	-11.5437
善眼大師	-11.5437
充足	-11.5437
野馬	-11.5437
結相隨	-11.5438
覺者	-11.5438
不自譽	-11.5439
合為一	-11.5439
或至樹下空安靜處	-11.5439
無穢污無上安隱涅槃	-11.5439
弗婆提洲	-11.5439
遮羅	-11.5439
嘿然	-11.5439
天地大動	-11.544
便走欲求解脫	-11.5441
高樓上	-11.5441
藥草	-11.5441
足蹈	-11.5441
普四方面各有	-11.5442
佛在拘薩羅人間	-11.5442
白象寶	-11.5443
碧	-11.5443
得具足	-11.5443
火燃	-11.5444
鹹苦	-11.5444
如法行	-11.5444
令不行惡	-11.5444
身口意業	-11.5444
為其說法	-11.5445
祭祀儀禮	-11.5445
此是何人	-11.5445
是無所有處成就遊	-11.5445
常隨不離	-11.5446
唯願天王	-11.5446
乃至未盡	-11.5446
未熟	-11.5447
非家	-11.5447
明日清旦	-11.5447
初生之時	-11.5448
亦在眾中	-11.5448
瑞應	-11.5448
尊者羅睺羅	-11.5448
近遠	-11.5448
趣涅槃	-11.5449
聞此正法	-11.5449
問訊聖體	-11.545
渡水	-11.545
迭相	-11.5451
集會聽法	-11.5451
有水生	-11.5452
種種經書	-11.5452
力士屈申臂頃	-11.5453
而無有異	-11.5453
一切有	-11.5453
善然可	-11.5453
於空靜處	-11.5453
不守	-11.5454
四指	-11.5457
而不見	-11.5459
尊者二十億耳	-11.546
隱沒	-11.5461
而取命終	-11.5462
不見不知	-11.5462
尊者舍梨子歎	-11.5462
馭者	-11.5463
能堪任	-11.5463
非無因緣	-11.5463
本處	-11.5463
起慈心	-11.5464
當以此方便	-11.5466
汝等今者	-11.5466
受王教已	-11.5467
惡戒	-11.5467
內無求欲	-11.5467
獲如斯	-11.5468
城壁	-11.5468
天及人民	-11.5469
流入	-11.5469
善語	-11.5471
地者	-11.5473
阿難言不	-11.5473
以此行	-11.5477
堪受	-11.5477
則滅	-11.5478
世間出生	-11.5478
聲聞弟子	-11.5478
有此功德	-11.5479
斷邪婬	-11.5479
獸王	-11.5479
恭敬承事	-11.5481
前為佛作禮	-11.5482
求其	-11.5484
唯一	-11.5484
其諸獄卒	-11.5484
如來死後有	-11.5484
亦復不知	-11.5486
增上戒	-11.5486
即於其夜	-11.5487
罪人報	-11.5487
可愛樂	-11.5489
修無常想	-11.5489
此閻浮洲	-11.5489
得大福祐	-11.549
善向	-11.5491
為非常	-11.5493
端心	-11.5493
為最妙	-11.5494
容受	-11.5495
長者女	-11.5495
巨富	-11.5496
守門者	-11.5496
常生	-11.5497
阿難聞佛所說	-11.5497
水草	-11.5499
能與	-11.55
七千由旬	-11.55
識生	-11.5502
觀察無常	-11.5504
便語	-11.5505
出於世	-11.5505
坐樹下	-11.5506
四體	-11.5507
觀法如法	-11.5507
萬端	-11.5507
中出	-11.5507
飛在虛空	-11.5508
迦遮延	-11.5508
無與等者	-11.5512
須摩提	-11.5512
滅想	-11.5514
便往至世尊所	-11.5515
賢死	-11.5516
云何為二法	-11.5517
有如此	-11.5517
口四	-11.5518
當念修行	-11.5518
大姓	-11.5518
麤食	-11.5519
四大海水	-11.552
是故當知是	-11.552
空界	-11.5522
如來之所說	-11.5522
諸義	-11.5522
一句	-11.5523
緣有有生	-11.5523
尊師法	-11.5525
遙聞	-11.5525
為大患	-11.5525
梵行著	-11.5527
為福	-11.5528
猶未	-11.553
律亦復如是	-11.553
長子	-11.5534
當從是	-11.5535
我之	-11.5535
明經	-11.5536
無所復	-11.5539
有六牙	-11.5539
治國	-11.5543
善受	-11.5546
能作	-11.5546
除盡	-11.5547
八見中	-11.5547
空入處	-11.5548
無量空	-11.5549
眾生無始生死	-11.555
自性	-11.5551
言辭	-11.5552
更樂滅	-11.5553
以此故	-11.5553
求解脫	-11.5554
經第十	-11.5554
色最勝	-11.5555
不惑	-11.5556
之味	-11.5557
開發	-11.5557
其邊	-11.5557
又曰	-11.5558
之士	-11.5561
既到	-11.5561
而食之	-11.5563
居士種	-11.5566
意識法	-11.5567
共往詣	-11.5569
若法	-11.5569
說已	-11.5572
越生	-11.5572
復再三	-11.5574
結盡	-11.5578
誰有	-11.5578
下意	-11.5579
命見	-11.558
空者	-11.5581
他人心	-11.5581
入室	-11.5581
義故	-11.5584
四子	-11.5585
是滅	-11.5586
乘船	-11.5587
梵行清淨	-11.5588
不律儀	-11.5589
受極苦	-11.559
王問	-11.5592
共聚集	-11.5592
勤加	-11.5592
諸苾芻眾	-11.5593
佛告大王	-11.5593
所知見	-11.5595
便自覺知	-11.5596
脫衣	-11.5599
世尊境界	-11.5599
拔出	-11.5599
為父母	-11.56
鬚髮	-11.5602
可法生	-11.5603
十速證	-11.5604
以慈心	-11.5604
便般涅槃	-11.5606
渧水	-11.5607
六事	-11.5609
輕慢於	-11.5609
眾中有	-11.5611
無放逸行	-11.5611
腐	-11.5612
沙門及婆羅門	-11.5614
波羅奈	-11.5617
鸚鵡摩納白	-11.5619
以神足	-11.5619
佛坐	-11.5619
守門	-11.5621
生彼中	-11.5625
慧明	-11.5627
如刺	-11.5628
為四	-11.563
意觀	-11.5635
與長者	-11.5638
毘沙門	-11.5639
苦聖諦如實知	-11.5639
中止	-11.5639
謂無明	-11.5643
我名	-11.5644
在前住	-11.5646
自修	-11.5648
不偷盜	-11.5649
彼大	-11.5658
能持	-11.5664
五字	-11.5665
在前行	-11.5669
便行	-11.5671
眼識色	-11.5673
空法	-11.5673
歸依僧	-11.5673
得佛	-11.5681
即於彼	-11.5682
有念	-11.5682
亦復無	-11.5684
未見	-11.5684
普集	-11.5689
流者	-11.5689
可觀	-11.5692
乃往	-11.5693
二萬	-11.5695
惡語言	-11.5702
滅沒	-11.5703
隨汝	-11.5704
入識處	-11.5704
悉共	-11.5705
滅界	-11.5706
作使	-11.5708
出外	-11.5709
外國	-11.5711
眾味	-11.5712
住一劫	-11.5713
字為	-11.5718
厭足	-11.5718
如師子	-11.5718
非苦	-11.572
漏失	-11.5726
善思惟	-11.5727
具行	-11.5727
放逸故	-11.573
度人	-11.5731
無形	-11.5731
生人間	-11.5731
定起	-11.5731
為真	-11.5733
尊者舍利弗語	-11.5734
坐上	-11.5734
十一法	-11.5736
歡喜心	-11.5736
諸婇女	-11.5738
奉事梵志	-11.5739
弟子眾	-11.5739
虛空之中	-11.5741
永無	-11.5742
不作惡	-11.5743
云何比丘知	-11.5743
集坐	-11.5743
說法要	-11.5744
有光	-11.5746
於諸世間	-11.5746
實不可	-11.5746
釋女	-11.5747
善御	-11.5747
敬法	-11.5749
五功德	-11.5752
即乘	-11.5753
各縱廣五十由旬	-11.5754
悔心	-11.5756
不滿	-11.5756
世尊重	-11.576
觸食	-11.5762
師教	-11.5764
去時	-11.5766
天壽	-11.5766
本有	-11.5771
非父母	-11.5774
不坐	-11.5777
又聞	-11.5778
減者	-11.5779
三摩耶	-11.578
一切皆是	-11.578
善學	-11.5786
地想	-11.5788
燋爛	-11.5793
脫一切苦	-11.5793
疑結	-11.5795
比丘來	-11.5796
惡名	-11.5797
器盛	-11.5798
金寶	-11.5798
若來	-11.5799
我說此	-11.5802
起雲	-11.5802
能了知	-11.5804
五王	-11.5805
之宜	-11.5808
趣向離	-11.5809
之變	-11.581
謂色	-11.5812
復以手	-11.5813
常存	-11.582
佛般泥洹	-11.5825
嫌怖久捨	-11.5827
人形	-11.583
將諸比丘	-11.583
所歸	-11.5833
受法現樂	-11.5834
當止	-11.5834
不知恩	-11.584
何名	-11.584
王童子	-11.5844
七事	-11.5844
五下分結	-11.5846
變為	-11.5848
曹	-11.5849
越祇	-11.585
此世界	-11.5851
受我請	-11.5851
涅槃道	-11.5851
二三	-11.5852
是故當	-11.5853
訓	-11.5854
家食	-11.5855
坐也	-11.5856
種金翅鳥	-11.586
生般涅槃	-11.5862
大威德	-11.5863
顯照	-11.5863
問經	-11.5864
從是得	-11.5868
俱生	-11.5869
此必	-11.587
不遠有	-11.5871
無乏	-11.5872
慧者見	-11.5873
滅定	-11.5873
於中住	-11.5874
以天眼	-11.5874
為斷	-11.5875
莫能	-11.5877
不能動	-11.588
四句	-11.5881
多病	-11.5884
此四諦	-11.5886
觸法	-11.5892
莫作是說	-11.5893
所有法	-11.5893
自知為	-11.5894
王家	-11.5896
七王	-11.5897
護念	-11.5907
行精勤	-11.5909
僧中	-11.591
與諸大眾	-11.5913
絡	-11.5919
本是	-11.5921
如來今日	-11.5926
極懷歡喜	-11.5928
熟時	-11.5929
民眾	-11.5933
與諸天	-11.5938
現在世	-11.5941
與善知識	-11.5943
亦不受	-11.5945
一邊	-11.595
此五事	-11.5951
世所	-11.5952
精勤修	-11.5952
為多行無	-11.5953
得息	-11.5955
其山	-11.5956
不思	-11.5957
阿耨達	-11.5959
具足住	-11.5959
千比丘	-11.5962
目連比丘	-11.5963
上流	-11.5963
希	-11.5966
具足戒	-11.5967
聽者	-11.5969
便生惡	-11.5969
至王舍城	-11.5969
及諸天	-11.5971
慎勿	-11.5973
深遠	-11.5974
彼受	-11.5975
經第十竟	-11.5976
作惡行	-11.5976
納	-11.5981
涌	-11.5982
般咃	-11.5982
廣長舌	-11.5986
膿	-11.5987
以何緣	-11.5988
肉血	-11.5992
何觸	-11.5993
諸群臣	-11.5993
2)	-11.5994
痛苦	-11.5995
是名第一	-11.5997
自莊嚴	-11.5999
齊限	-11.5999
宴坐思惟	-11.6007
轉壞	-11.6007
便不生	-11.6007
聰	-11.6008
從外	-11.6009
而自遊戲	-11.6009
一也	-11.6009
城中有	-11.601
御車	-11.6011
技	-11.6013
二百	-11.6014
已遠離此	-11.6017
淨法	-11.6019
共詣	-11.602
屈伸	-11.6022
此一補特伽羅	-11.6023
效	-11.6023
耐	-11.6025
求火	-11.6025
人獲安	-11.6027
故此補特伽羅	-11.6028
飛行皇帝	-11.6028
聚沫	-11.6028
囑累	-11.603
忿	-11.603
生火長養	-11.603
寂默	-11.6031
焦	-11.6031
為王者所識	-11.6032
茂	-11.6032
非想非非想入處	-11.6032
戀慕	-11.6033
疫	-11.6033
屈申臂頃	-11.6033
革屣	-11.6034
粗	-11.6034
竹林加蘭哆園	-11.6034
槨	-11.6034
鬱單曰	-11.6035
觀其	-11.6036
膠	-11.6036
萬二千由旬	-11.6036
有所答對	-11.6037
非有非無後死	-11.6037
殼自	-11.6037
是故此法則	-11.6037
獄亦廣五百由旬	-11.6037
紹王位	-11.6038
枉	-11.6038
鳩尸那城	-11.6038
慙愧羞厭	-11.6038
俱相類相聚相應相可	-11.6038
自以為樂	-11.6038
斷邪見	-11.6039
護眼根	-11.6039
自以為得脫	-11.6039
覆以錦綺羅	-11.6039
約勅	-11.6039
不寒不熱	-11.6039
脣舌	-11.6039
監	-11.6039
帶	-11.6039
我念往昔	-11.6039
指髻	-11.604
摧	-11.604
攀	-11.6041
生天長壽	-11.6041
習行不斷	-11.6041
無慚無愧	-11.6042
無漏法	-11.6042
天龍鬼神	-11.6042
四雙八輩	-11.6042
轉向善趣	-11.6042
覺樂	-11.6043
鷹	-11.6043
猛盛	-11.6043
說如來常恒不變如來之藏	-11.6043
恚恨	-11.6043
驗	-11.6043
詳	-11.6043
五欲自娛	-11.6043
生斯念	-11.6044
宗敬	-11.6044
自餘	-11.6044
饍	-11.6044
趣非品	-11.6044
善觀分別	-11.6044
彼作願行行	-11.6045
二十四萬里	-11.6045
轂	-11.6046
捷	-11.6046
必不得果	-11.6046
蹲	-11.6046
彼黑繩大地獄中	-11.6046
拘那含牟尼佛	-11.6046
我慢使繫著	-11.6047
輕慢自有財物	-11.6047
分散破壞	-11.6047
精懃	-11.6048
工巧	-11.6048
勝林給孤獨園	-11.6048
溢	-11.6048
慈仁	-11.6048
瞎	-11.6048
解脫見慧成就	-11.6049
行施修福	-11.6049
當來有愛	-11.6049
病瘦	-11.6049
修行一法	-11.6049
殊低沙迦利迦	-11.6049
摩得梨	-11.6049
壍	-11.6049
取緣有	-11.605
闍尼沙	-11.605
此國	-11.605
蘇摩那	-11.605
必有此處	-11.605
及諸智梵行人	-11.605
桓	-11.605
婆利師迦	-11.605
愁憂不樂	-11.605
遊提迦	-11.6051
矜	-11.6051
瞻仰	-11.6051
身知細滑	-11.6051
陷	-11.6051
融銅	-11.6052
捨於重擔	-11.6052
𤦲	-11.6052
共俱定	-11.6052
蹹	-11.6052
向法次法	-11.6052
曾於	-11.6052
彼此定樂欲住	-11.6052
新學	-11.6052
麤細	-11.6053
壽二萬歲	-11.6053
修多羅廣說	-11.6053
無明緣行	-11.6053
所謂阿提目多迦	-11.6053
頗梨赤珠	-11.6053
攀緣	-11.6053
猛焰	-11.6053
供辦	-11.6054
分別曉了	-11.6054
得大果大福利	-11.6054
縱廣二萬里	-11.6054
善惡之報	-11.6054
阿僧祇劫	-11.6054
漏盡心解脫	-11.6055
摩利迦	-11.6055
況欲出其上	-11.6055
有泥犁名	-11.6055
守護眼根	-11.6055
不壞信	-11.6055
大婆羅門	-11.6055
增一阿含	-11.6055
大如車輪	-11.6055
辛苦	-11.6056
如是等名為	-11.6056
律尊師	-11.6056
如前廣說	-11.6057
夜將向旦	-11.6057
恣汝所問	-11.6057
稻穀	-11.6058
六想身	-11.6058
故言	-11.6058
除愈	-11.6058
八關	-11.6058
梵釋	-11.6059
墮淚	-11.6059
引導	-11.6059
有侍者比丘名曰羅陀	-11.6059
未來色	-11.606
八萬小洲	-11.606
耻	-11.606
授決	-11.606
百須陀洹	-11.606
洪	-11.606
去佛不遠	-11.6061
妓樂	-11.6061
得出離清淨	-11.6061
勅已	-11.6061
欣然微笑	-11.6061
是我常所	-11.6062
二十一結	-11.6062
仰臥	-11.6062
財富	-11.6062
長生童子	-11.6062
閃電	-11.6063
逝心	-11.6063
少病少惱	-11.6063
癡惑	-11.6064
斷除諸有	-11.6064
工師族	-11.6064
善法講堂	-11.6064
若使一切眾生無有	-11.6064
真知識	-11.6064
有身滅	-11.6064
潔	-11.6064
翫習	-11.6065
多有錢財	-11.6065
利益安樂	-11.6065
現在泥洹	-11.6066
阿㝹羅度	-11.6066
流血	-11.6066
閻	-11.6066
離本相	-11.6067
來至此間	-11.6067
調適	-11.6067
而有差降安樂住止	-11.6067
難提波羅	-11.6067
宗重	-11.6068
降魔	-11.6068
遣信	-11.6068
是阿羅漢	-11.6068
王園比丘尼眾中	-11.6069
忍樂	-11.6069
從今已後	-11.6069
普遍	-11.6069
尊者阿難叉手向佛	-11.607
赤石	-11.607
無義相應	-11.607
徐行	-11.6071
著肩上	-11.6071
有長者名	-11.6071
增長善法	-11.6071
復有叢林名曰	-11.6071
阿梨	-11.6071
工師女	-11.6073
於彼岸	-11.6074
入正法耶	-11.6074
得度世	-11.6075
三千由旬	-11.6076
欲得食	-11.6076
屠殺	-11.6076
不停	-11.6076
不能污王	-11.6077
日大宮殿	-11.6077
大目犍連	-11.6077
壞亂	-11.6077
精勤修習	-11.6078
彼意恚	-11.6078
離慳貪	-11.6078
剎利眾	-11.6079
覺寤	-11.608
受其報	-11.6081
彼依此處	-11.6081
實說	-11.6081
牛羊	-11.6081
不煩熱命終	-11.6081
得生梵天	-11.6082
無母子畏	-11.6084
不真人法	-11.6084
葬法	-11.6085
非也	-11.6087
波利	-11.6087
無有狐疑	-11.6087
色習	-11.6088
之內	-11.6088
或為他	-11.6089
老病	-11.6089
風輪	-11.6089
是謂第六	-11.609
是謂第七	-11.609
為從何生	-11.6091
我悉知之	-11.6091
譬如國王	-11.6092
便與	-11.6092
為父母所	-11.6093
諸娑羅樹	-11.6093
有佛出世	-11.6094
更不受有	-11.6094
還活	-11.6095
作倡	-11.6095
無德	-11.6095
此之	-11.6096
復教他人使不	-11.6097
紅蓮華	-11.6097
是轉輪王	-11.6098
人所敬	-11.6099
世尊告彼比丘	-11.61
千二百由旬	-11.61
利故	-11.61
乃生天上	-11.6101
滅盡無餘	-11.6102
尊者闡陀	-11.6106
備諸	-11.6106
諸年少比丘	-11.6108
以神通力	-11.6109
非有非無	-11.611
聽出家	-11.611
為九	-11.611
法及比丘僧	-11.6111
心不移動	-11.6111
身心熱	-11.6112
又無	-11.6112
汝愚癡人	-11.6113
善調御	-11.6113
諸根具足	-11.6114
從父母	-11.6115
歸命法	-11.6116
中最為第一	-11.6116
怠	-11.6116
七年	-11.6117
娶婦	-11.6117
尊者須菩提	-11.6118
當來事	-11.6121
諸釋氏	-11.6121
中勝	-11.6124
為根本	-11.6125
此苦集聖諦	-11.6128
三達	-11.6129
發願	-11.613
苦如真	-11.613
是處不	-11.6131
得阿羅漢道	-11.6131
即入三昧	-11.6132
族姓子所為	-11.6133
生煩惱	-11.6135
山林樹下	-11.6137
令墮	-11.6138
害之	-11.6138
賢者法	-11.6139
依律	-11.614
如世尊所說	-11.614
謂貪欲	-11.614
不學	-11.6141
取泥洹	-11.6144
莫起	-11.6144
行善	-11.6144
新歲	-11.6145
呪說	-11.6145
在其	-11.6145
有樹	-11.6146
而不知	-11.6147
斷除一切	-11.6151
豫知	-11.6151
善治	-11.6155
法界	-11.6155
告語	-11.6155
復說	-11.6157
不知苦	-11.6158
轉成	-11.6159
山間	-11.6161
道𧗪	-11.6165
車𤦲馬瑙等	-11.6165
能致	-11.6166
增損	-11.6166
梵志如是見	-11.6171
最勝最妙	-11.6171
神足第一	-11.6174
風種	-11.6175
所污	-11.6176
順趣	-11.6178
小豆	-11.6186
異比丘	-11.6187
自殺	-11.6187
不正念	-11.619
何等類	-11.6191
以他心智	-11.6193
自觀	-11.6194
退失	-11.6194
此不可得	-11.6196
二方	-11.6197
三方	-11.6199
盡諦	-11.6201
皆言	-11.6201
害想	-11.6202
與樂	-11.6202
聲聞乘	-11.6202
無有後世	-11.6205
以何法	-11.6205
香好	-11.6206
隱形	-11.6207
學力	-11.621
無後世	-11.6213
生彼天	-11.6214
當離	-11.6214
光相	-11.6218
不礙	-11.6221
八經	-11.6224
冥中	-11.6226
罪福	-11.6231
得定意	-11.6231
尚不能	-11.6233
佛舍利	-11.6233
昨	-11.6234
成就者	-11.6237
與無數	-11.6237
為求	-11.6238
動轉	-11.6238
世尊與諸大眾	-11.6239
何故名為	-11.6239
若王	-11.6241
洞燃俱熾	-11.6242
設使離	-11.6244
盡漏	-11.6246
是謂此	-11.6247
苦際	-11.6248
直道	-11.6249
淨除	-11.6249
惡貪	-11.625
七十	-11.625
於彼中	-11.6252
不可數	-11.6258
其實	-11.6259
王夢	-11.6259
非清淨	-11.6264
界中	-11.6265
淨信心	-11.6265
無所有處想	-11.6265
勝智	-11.6266
國內	-11.6267
曼	-11.6267
心熱	-11.6268
并諸	-11.6268
三族姓子	-11.627
前已說	-11.6276
我行	-11.6277
為三	-11.6278
一萬	-11.628
諸尊長	-11.6281
威光顯	-11.6283
小事	-11.6283
羅摩	-11.6284
隨我	-11.6284
牧牛	-11.629
有多聞	-11.6291
知苦如真	-11.6292
習學	-11.6294
此三族姓子	-11.6296
是眼	-11.63
得清澄	-11.6301
為黑	-11.6301
心大	-11.6302
眾生因欲	-11.6307
彼天輪寶	-11.6308
身熱	-11.6309
四沙門果	-11.631
諸事	-11.6311
烟出	-11.6314
無亂	-11.6316
心得自在	-11.6316
知苦滅	-11.6318
法增長	-11.6318
經過	-11.6318
是一義	-11.6319
便往	-11.6321
等利	-11.6322
有所益	-11.6322
之座	-11.6323
戒受	-11.6326
外法	-11.6327
香樹	-11.6329
時與	-11.633
信戒	-11.6332
聞其言	-11.6333
觀之	-11.6334
若長者	-11.6338
能淨	-11.6338
我不堪任	-11.6339
三觀	-11.6339
首陀羅種	-11.6341
無量惡不善之法	-11.6343
明生	-11.6343
然後得	-11.6346
劫奪	-11.6346
佛之	-11.6346
汝等若	-11.6348
眼處	-11.6349
無懈怠	-11.635
壞法	-11.635
一切行	-11.6351
聽之	-11.6352
為法本	-11.6353
長者居士	-11.6354
金樓	-11.6354
一處坐	-11.6358
善來比丘	-11.6359
鉗	-11.6362
如鳥	-11.6369
不正智	-11.637
二足	-11.6371
句義	-11.6371
齊此	-11.6373
沒已	-11.6373
當來世	-11.6375
得應真	-11.6375
種種異	-11.6375
當正思惟	-11.6375
如是答	-11.6376
外有山	-11.6376
見災患	-11.6381
以上	-11.6381
持三衣	-11.6383
安隱得	-11.6384
入泥犁	-11.6386
住真諦	-11.6388
專意	-11.6389
佛報	-11.639
此苦聖諦	-11.6395
佛復	-11.6397
無定	-11.6398
亦盡	-11.6398
八部	-11.6401
或妙	-11.6402
為殺	-11.6405
無慳	-11.6405
莫復	-11.6408
多習	-11.6411
與相見	-11.6413
六識身	-11.6414
外門	-11.6418
他化自在	-11.6419
諸功德	-11.642
無足	-11.6423
無復有	-11.6423
於樹下	-11.6423
不眠	-11.6425
賢者諦	-11.6426
善調伏	-11.6428
生梵天上	-11.6428
隨佛	-11.643
恭敬禮拜	-11.6431
一其心	-11.6432
知出入	-11.6433
久存於世	-11.6433
得現法	-11.6433
深廣	-11.6434
是不善	-11.6439
所制	-11.6439
六觸	-11.6442
如初	-11.6443
所從生	-11.6443
欲鬪	-11.6444
無等	-11.6444
我等欲	-11.6447
吾今當	-11.6448
種種花	-11.6448
莫以非法	-11.645
先世	-11.645
或滅	-11.6451
諸天女	-11.6452
凶	-11.6455
入中	-11.6456
昇虛空	-11.6458
比丘復	-11.6459
生光音天	-11.6459
阿波	-11.646
處世	-11.6461
自解	-11.6464
有生死	-11.6466
我則	-11.6472
尊重恭敬	-11.6475
意處	-11.6477
或內	-11.6479
堪能離	-11.6479
五百優婆塞	-11.6483
行婬	-11.6483
園門	-11.6484
起世經	-11.6486
非餘	-11.649
他界	-11.6491
諸聖	-11.6496
世間便有	-11.6498
道果	-11.6498
可習法	-11.6499
身觀	-11.6501
施設斷	-11.6501
已生惡不善法	-11.6503
奉事供養	-11.6504
皆起	-11.6512
算	-11.6513
四非常	-11.6513
得淨	-11.6514
從禪覺	-11.6515
守攝	-11.6515
世間諸	-11.6516
為彼等	-11.6519
無為道	-11.6519
所知法	-11.652
二三四五六七	-11.6521
欲壞	-11.6523
三處	-11.6523
風災	-11.6527
復告言	-11.6529
盡苦	-11.6532
苦本	-11.6534
八戒	-11.6536
昔所	-11.6538
便斷	-11.654
蒙佛	-11.654
言有我	-11.6541
得力	-11.6541
擎	-11.6541
非律	-11.6545
忠	-11.6548
我亦當	-11.6549
一年	-11.6552
不得清淨	-11.6554
於是處	-11.6555
沙門瞿曇宗本	-11.6556
令諸	-11.6559
七頭	-11.6566
無盡	-11.6566
後來	-11.6566
乘馬	-11.6566
持慧	-11.6568
熱沸	-11.6569
怙	-11.6573
修行者	-11.6574
事事	-11.6579
苑中	-11.6582
可親	-11.6582
汝等當學	-11.6583
至舍衛國	-11.6583
八萬四千車	-11.6585
問者	-11.6585
自然有	-11.6587
居處	-11.6588
生草	-11.6589
其諸	-11.659
無道	-11.6592
非汝	-11.6593
今當說	-11.6597
其志	-11.6598
如是惠施	-11.6599
十念	-11.6599
如來不久	-11.6601
寧能	-11.6603
從口	-11.6603
大過	-11.6604
大林中	-11.6606
死法	-11.6607
石擲	-11.6608
彼城	-11.6608
與眾	-11.6609
上方	-11.661
視瞻	-11.6611
淨意	-11.6612
隨使死	-11.6613
至善處	-11.6613
何有	-11.6615
是即	-11.6617
便前	-11.6619
藏臣	-11.6619
令從是	-11.6623
尊者優婆離	-11.6625
賀	-11.6626
意常	-11.6627
謂彼人	-11.6627
阿梨吒	-11.6629
行邪婬	-11.6632
人道	-11.6632
十七字	-11.6635
我不聽	-11.6639
鐵圍山	-11.6643
行報	-11.6644
諦如	-11.6644
不願	-11.6644
所由	-11.6645
卷第四十	-11.6646
悉備	-11.6648
大梵王	-11.6648
諸釋種	-11.6648
如是說言	-11.6649
世尊默然受	-11.6649
大泥犁	-11.6651
不般涅槃	-11.6652
若行者向念	-11.6653
未斷	-11.6654
六人	-11.6656
使者言	-11.666
當速	-11.6661
八萬四千人	-11.6661
嫁娶	-11.6662
机	-11.6663
等智	-11.6665
非真	-11.6666
有孝順父母	-11.6668
迦葉復	-11.6669
當與我	-11.667
鍼	-11.667
蝕	-11.6672
佛皆離是	-11.6672
菴羅園	-11.6672
不侵	-11.6673
俱共	-11.6676
瞻波迦	-11.6676
心不生	-11.6677
墮負門	-11.6679
山頂	-11.6679
著鎧	-11.668
不得涅槃	-11.6682
拘那含	-11.6684
貢	-11.6685
不覺忽至	-11.6686
凝	-11.6688
世間所有	-11.6689
攻	-11.6689
無子	-11.6689
儉	-11.6689
香熏	-11.669
后	-11.6691
蜂	-11.6691
具白	-11.6692
四百八十里	-11.6693
才	-11.6693
九十日	-11.6693
放牛兒	-11.6693
諸法之本	-11.6693
有所疑	-11.6694
瞿師羅長者	-11.6694
征	-11.6695
矟	-11.6696
蘆	-11.6696
能自記說	-11.6696
還顧	-11.6697
脅	-11.6698
導從	-11.6698
寫	-11.6698
隨藍	-11.6698
搥	-11.6698
腎	-11.6698
姑	-11.6698
遍淨	-11.6699
優波先那	-11.6699
作是論	-11.6699
尊者盧夷強耆	-11.67
庫藏盈溢	-11.67
枯竭	-11.67
襯體	-11.6701
燃燈	-11.6701
傾臥	-11.6701
無瑕穢	-11.6701
我聲聞中第一比丘	-11.6702
朱	-11.6702
四衢	-11.6703
幢幡	-11.6703
鬪亂彼此	-11.6703
孝養父母	-11.6703
間廁	-11.6704
測	-11.6704
我今真為轉輪聖王	-11.6704
按摩	-11.6705
條	-11.6705
促	-11.6705
飽滿	-11.6706
光耀	-11.6706
駿疾	-11.6706
樂少苦多	-11.6706
欝瘦歌邏梵志	-11.6706
棄之	-11.6706
知其如真	-11.6707
斗	-11.6707
身知觸	-11.6707
有十種業	-11.6707
伊羅	-11.6707
二百由旬	-11.6707
怨敵	-11.6708
尼彌王	-11.6708
漫	-11.6709
苦習諦	-11.6709
寧有閑暇見答	-11.6709
刑	-11.6709
隔	-11.6709
幹	-11.671
鬚閑提異學	-11.671
請佛及比丘僧	-11.671
阿若拘隣	-11.671
三千大千剎土	-11.6711
狼	-11.6712
上味	-11.6712
踝	-11.6712
星中月	-11.6712
如來有後死	-11.6713
姊	-11.6713
湧	-11.6714
庠序	-11.6714
陰馬藏	-11.6714
高廣大床	-11.6714
當念奉行	-11.6715
塵土坌	-11.6715
瞋忿	-11.6715
過惡未盡故不死	-11.6715
之地	-11.6715
釋氏難提	-11.6716
神足之力	-11.6716
赤馬	-11.6716
冷暖	-11.6716
彼天眾	-11.6716
賢者目揵連	-11.6716
取兵仗	-11.6717
強健	-11.6717
器中	-11.6717
生滅則老	-11.6717
天竺	-11.6717
獲大果報	-11.6717
不失時節	-11.6718
+(	-11.6718
唯無上梵行訖	-11.6718
疾得	-11.6718
汝等共來	-11.6719
伺察	-11.6719
臨命終時	-11.6719
受苦無量	-11.6719
壽百歲	-11.672
無有想	-11.672
佛告文殊師利	-11.672
捨之而去	-11.672
經無量時長遠道中	-11.672
六千梵志	-11.6721
聰明黠慧	-11.6721
以淨天耳	-11.6721
妓女	-11.6721
鐵刺	-11.6722
誡勅	-11.6722
戒定慧	-11.6722
我所說法	-11.6722
字某	-11.6722
種種豐饒	-11.6722
拘牟陀花	-11.6722
招提僧	-11.6723
往見如來時	-11.6723
耕田	-11.6723
長衰	-11.6723
面目	-11.6723
飯佛及比丘僧	-11.6723
作諸惡行	-11.6723
安隱樂住	-11.6723
愛滅則取滅	-11.6724
世尊為法主	-11.6724
最在後	-11.6724
佯	-11.6725
離殺斷殺	-11.6725
歡喜信受	-11.6725
終始	-11.6726
生於天中	-11.6726
或心願效如是如是	-11.6726
說從解脫	-11.6726
一須陀洹不如施百須陀	-11.6726
舍羅步	-11.6726
盡有漏	-11.6726
麁手釋	-11.6727
黑婢	-11.6727
弗婆提人	-11.6727
轉還不得舒張	-11.6727
成阿耨多羅三藐三菩提	-11.6727
薄地	-11.6727
縈髻	-11.6727
羽寶之車	-11.6727
補治衣	-11.6727
廣演其義	-11.6728
最在前	-11.6728
從初禪起	-11.6728
乃至七世父母	-11.6728
彼必統領此一切地	-11.6728
或一若男若女	-11.6728
真法	-11.6729
塵穢	-11.6729
我及世間是常	-11.6729
輪圓山	-11.6729
高四千里	-11.6729
與晝無異	-11.673
深嶮	-11.673
相為何等為	-11.673
唯願說之	-11.673
障閡	-11.673
令從是致墮	-11.673
護口	-11.6731
是無量識處成就遊	-11.6731
還歸其家	-11.6731
狂惑	-11.6731
開導	-11.6731
世尊呼汝	-11.6731
所謂金銀琉璃	-11.6731
修摩提女	-11.6731
諸清信士	-11.6731
無數方便	-11.6731
)【	-11.6731
柯	-11.6731
乃至純大苦聚集	-11.6732
嫌責	-11.6733
於末劫末見	-11.6733
褥	-11.6733
織成	-11.6733
空野	-11.6733
之所稱譽	-11.6734
失定而滅	-11.6734
八萬四千夫人及女寶	-11.6734
尊者那伽達多	-11.6734
虎魄	-11.6734
白珂	-11.6735
垢膩	-11.6735
成道果	-11.6735
心不生惡	-11.6735
恒沙	-11.6735
唯願為說	-11.6735
從此安隱度至閻浮洲	-11.6736
誦習典經	-11.6736
我今歸依佛	-11.6736
必至善處	-11.6737
未生有漏	-11.6737
外道梵志	-11.6737
染汙	-11.6738
微妙法	-11.6739
六衰	-11.6739
端正無雙	-11.6739
有所照	-11.6739
無量無邊	-11.6739
說是經	-11.6739
得人上之法	-11.6739
觀已而渡	-11.6739
出要界	-11.6739
餘者不如	-11.6739
將諸比丘眾	-11.674
無有損	-11.6741
與說法	-11.6741
無量百千歲	-11.6742
皆從	-11.6742
長存	-11.6743
則有憂慼苦不樂	-11.6743
即於現法	-11.6744
惶怖	-11.6744
禮法	-11.6745
種種乘	-11.6745
日誦	-11.6745
以此事故	-11.6745
大梵天	-11.6746
立字	-11.6746
菴羅園中	-11.6747
受世尊教	-11.6747
結不斷	-11.6748
不變	-11.6748
惡罵	-11.6748
滿度摩城	-11.675
存命	-11.675
舉動	-11.6751
長生博士	-11.6751
生緣老	-11.6752
雖爾	-11.6754
聞經	-11.6756
怖取	-11.6757
悉達	-11.6758
內外俱	-11.6759
一踰闍那	-11.676
生金	-11.676
不飲	-11.676
頻來	-11.676
自相娛樂	-11.6761
有如是報	-11.6761
諸梵行人	-11.6761
此阿難	-11.6761
道品法	-11.6762
黑冥	-11.6764
有三因緣	-11.6764
須我	-11.6765
若干種想	-11.6765
彼或	-11.6765
尊者目揵連	-11.6766
高樓	-11.6766
有神足	-11.6767
甚深微妙大	-11.677
默然而坐	-11.6772
無慚	-11.6773
瞿陀尼人	-11.6773
貪樂	-11.6774
知出要如真	-11.6774
至無有命終	-11.6775
諸天及人	-11.6775
之態	-11.6776
遮止	-11.6776
相率	-11.6777
長夜之中	-11.6778
略說法	-11.6779
當以此	-11.678
正見者	-11.678
設汝	-11.678
母胎事	-11.6781
如實觀	-11.6782
四念處修習多修習	-11.6783
作此念已	-11.6784
日沒	-11.6784
心念善	-11.6785
我持	-11.6786
淨不淨	-11.6786
不思惟	-11.6788
何以故名為	-11.6788
行報故	-11.679
亦不堅固	-11.6791
其中眾生	-11.6792
志性	-11.6792
向阿羅漢	-11.6794
或住	-11.6796
及入	-11.6797
離兩舌	-11.6797
諸佛所	-11.6797
盜他物	-11.68
餘殘	-11.6801
成欲	-11.6802
天女復	-11.6802
欝單曰人	-11.6803
彌勒如來	-11.6805
二十二	-11.6805
少心	-11.6806
內結	-11.6807
我此定	-11.6807
得增上心	-11.6808
計有	-11.6808
若劣	-11.6808
梵天子	-11.6808
其影	-11.681
得勝妙	-11.6813
極重	-11.6815
利人	-11.6818
我住無	-11.682
人復	-11.682
及彼	-11.682
世尊亦說	-11.682
今沙門瞿曇	-11.6821
之所成就	-11.6821
解脫智	-11.6821
厭故	-11.6823
東出	-11.6824
望得	-11.6824
是謂有人	-11.6826
比丘行	-11.6826
勿生	-11.6827
心念惡	-11.6827
受安樂	-11.6828
持不忘	-11.6829
聞所說	-11.683
四洲	-11.6831
萬二千里	-11.6832
著睡眠	-11.6833
而笑	-11.6834
正受住	-11.6836
稱怨	-11.6838
我語彼	-11.6838
若觀	-11.6838
毘舍婆	-11.684
是名優婆塞	-11.6844
內法	-11.6845
住不放逸	-11.6845
護者	-11.6845
轉轉	-11.6847
非賢者法	-11.6848
釋迦牟尼佛	-11.6848
然可	-11.6849
作轉輪王	-11.6851
彼地獄	-11.6852
種種香	-11.6852
意清淨	-11.6854
大闇	-11.6856
大動	-11.6858
至沙門瞿曇所	-11.6858
名利	-11.6861
禪室	-11.6862
瞋恚心	-11.6863
六受身	-11.6864
迦葉佛時	-11.6866
或云	-11.6868
世尊便說偈	-11.6869
尊者阿那律所	-11.687
有十種	-11.687
彼云何為	-11.6871
聽聞	-11.6871
都不見	-11.6872
生天上者	-11.6873
飛來	-11.6875
安隱眠	-11.6879
縛結	-11.688
阿練若行	-11.6881
化為	-11.6882
彼觀此	-11.6886
廣演法	-11.6888
不多聞	-11.689
善樂	-11.6891
有黑	-11.6893
勸他	-11.6896
如夢	-11.6897
重說	-11.6898
識入處	-11.6899
汝今何故	-11.6901
毛髮	-11.6902
同聲	-11.6902
9)	-11.6902
種種華	-11.6902
速嚴駕	-11.6904
郡	-11.6905
復作是言	-11.6906
深信	-11.6906
有慚	-11.6908
即召	-11.6909
自思	-11.6909
定趣	-11.6911
而出家	-11.6911
即下	-11.6912
說苦聖諦	-11.6912
求解	-11.6913
以此偈	-11.6913
至長者家	-11.6913
天神復說偈	-11.6915
開覺	-11.6916
食堂	-11.6916
我今亦當	-11.6916
遠離一切	-11.6918
汝所言	-11.6919
於水	-11.6923
更不復	-11.6923
教他	-11.6923
謂緣無明行	-11.6924
難事	-11.6924
見四真諦	-11.6927
所應作	-11.6928
謂九	-11.6928
用此	-11.6928
難遇	-11.6929
恚使	-11.6929
意定	-11.6932
即向	-11.6935
自有財物	-11.6937
九種	-11.6939
復取	-11.6941
東門	-11.6944
佛從	-11.6946
知他心	-11.6946
緣者	-11.6947
大長者	-11.6947
喘息	-11.6949
彼方	-11.6949
妙香	-11.695
在生死	-11.695
此經名	-11.695
四生	-11.6953
長夜受苦	-11.6955
至無為	-11.6956
於三明	-11.6956
似如	-11.696
告長者	-11.6962
我佛世尊	-11.6964
非神	-11.6968
不真	-11.6969
供養衣被	-11.697
入村	-11.6971
樹影	-11.6971
不親近	-11.6973
集眾	-11.6973
答者	-11.6974
常見	-11.6974
或現	-11.6974
無有二	-11.6978
尚可	-11.698
更不受	-11.6982
寶山	-11.6983
是何法	-11.6985
淨妙	-11.6987
便生欲	-11.6988
十一為	-11.6988
我昔曾	-11.6989
中年	-11.699
一切善法	-11.6992
▁王	-11.6993
便具	-11.6994
吾我	-11.6994
牛王	-11.6996
於舍衛國	-11.6997
婆伽婆在	-11.7001
遺法	-11.7002
如是出生	-11.7005
乃至百千	-11.7005
共生	-11.7008
欲害	-11.7011
截耳	-11.7011
自娛樂	-11.7011
真子	-11.7016
其宮殿	-11.7019
故則有	-11.702
譬如世間	-11.7021
愁苦	-11.7023
說義	-11.7023
本從	-11.7025
舍衛	-11.7025
生地	-11.7025
後久久	-11.7026
十善業	-11.7027
高才	-11.7029
復何	-11.7034
二十四	-11.7035
作道	-11.7038
後日	-11.7039
恒念	-11.704
或墮	-11.7043
如來大師	-11.7043
唯此	-11.7048
二道	-11.7049
亦有二	-11.7049
中何因何緣	-11.705
悉令	-11.7052
以杖	-11.7053
以金	-11.7053
尊者舍利弗所	-11.7053
無所知	-11.7054
金棺	-11.7057
色香味	-11.7058
無覺無觀	-11.7061
中間有	-11.7062
八關齋法	-11.7063
及三十三天	-11.7068
婆羅門中	-11.7071
等等	-11.7071
苦出要	-11.7075
照彼	-11.7075
汝但	-11.7077
供養舍利	-11.7078
眾亦	-11.708
阿練	-11.7081
心生惡	-11.7082
既出	-11.7084
何如	-11.7084
謂有一人	-11.7084
入房	-11.7085
安隱涅槃	-11.7086
問尊者阿難	-11.7088
前人	-11.7089
當棄	-11.709
愛護	-11.7091
往取	-11.7093
害界	-11.7094
金山	-11.7096
而善法	-11.7097
無量識	-11.7097
困苦	-11.7097
跋陀	-11.7098
從受	-11.7101
父名	-11.7102
奉事我	-11.7103
不如也	-11.7104
小住	-11.7106
得正	-11.7107
令諸比丘	-11.7117
生淨信	-11.7122
自觀察	-11.7126
成就觀	-11.7126
使彼	-11.7128
除其	-11.7129
一切具足	-11.7133
由他	-11.7135
所從來	-11.7136
與如來等	-11.7137
其牛	-11.7149
受斯	-11.715
正受時	-11.7151
至園中	-11.7153
難及	-11.7154
欲以	-11.7155
之主	-11.7155
飲之	-11.7155
若眾生	-11.7155
在耆闍崛山	-11.7159
隨應	-11.7159
缺減	-11.7159
戒香	-11.7164
安隱處	-11.7165
罪業	-11.7165
具大神通	-11.7166
八萬人	-11.717
經曰	-11.717
可爾	-11.7173
奔走	-11.7174
不嫉妬	-11.7174
諍競	-11.7174
得義	-11.7175
出大	-11.7179
失信	-11.718
隨欲	-11.718
已足	-11.7182
其手	-11.7184
不墮惡	-11.7184
聞說法	-11.7187
不耶	-11.719
復以偈答	-11.7191
識法	-11.7192
千生	-11.7193
我今自歸於	-11.7195
不作是說	-11.7196
其下	-11.7196
賈客	-11.7199
何謂五	-11.7201
復云何	-11.7204
下過	-11.7205
我如是知	-11.7205
願聞	-11.7206
不善心	-11.7206
王今	-11.7206
業者	-11.7208
仙聖	-11.721
以偈報	-11.7211
次復入	-11.7211
然後當	-11.7211
無明漏	-11.7216
若身	-11.7218
當持	-11.7219
三分	-11.722
入三昧	-11.7224
同利	-11.7224
大喜	-11.7226
提婆	-11.7229
速往	-11.7232
在舍衛國	-11.7234
我等已	-11.7234
乞食時	-11.7234
之所得	-11.7238
為正說	-11.7238
斷捨	-11.7239
曠野中	-11.7241
天眼第一	-11.7242
使結	-11.7243
不熟	-11.7244
瓔珞樹	-11.7246
身亦	-11.7248
他化樂天	-11.725
撲	-11.7251
以慧	-11.7253
之原	-11.7253
生極苦	-11.7256
聖眾善趣	-11.7257
因彼	-11.7257
作具足	-11.7259
下種	-11.7261
住一	-11.7262
學遠離	-11.7262
愛別離苦	-11.7263
斷斷	-11.7264
彼色若	-11.7265
十人	-11.7266
為非法	-11.7269
或因	-11.7274
纏身	-11.7277
七有	-11.7278
將五百	-11.7279
乃出	-11.728
人出現於世	-11.7282
當何所	-11.7282
有八萬	-11.7296
其夫	-11.7296
漸漸至	-11.73
當奉持	-11.7301
隨流	-11.7301
令去	-11.7303
自下	-11.7304
頭摩	-11.7305
舌識	-11.7305
卷第十	-11.7306
亦滅	-11.731
八支聖道	-11.731
二者名	-11.7314
遙見世尊在	-11.7317
入空處	-11.7318
彼數	-11.732
好床	-11.7323
滿度摩	-11.7323
犯於	-11.7323
及念	-11.7329
喜俱	-11.7329
尊人	-11.7331
隨使使	-11.7335
於苦集聖諦	-11.7335
地大	-11.7337
以他心智觀	-11.7338
殺汝	-11.7339
現在色	-11.7344
前立	-11.7344
其香	-11.7344
菩薩行	-11.735
彼大眾	-11.7352
初不	-11.7354
法以何為	-11.7358
被燒	-11.7358
今日世尊	-11.736
已直	-11.7361
佛勅	-11.7362
有我見	-11.7362
怖懼	-11.7363
皆因	-11.7364
不可言	-11.7366
欲論	-11.7366
或死	-11.737
諸使	-11.7377
是為九	-11.738
身所作	-11.7381
人食	-11.7382
諸蟲	-11.7385
諍鬪	-11.7387
出房	-11.7388
生聞婆羅門	-11.739
流行	-11.7391
解脫生	-11.7391
陀驃摩羅子	-11.7392
有明月	-11.7392
賓	-11.7395
伏藏	-11.7395
鍑	-11.7395
究竟梵行訖	-11.7396
彼因餘比丘	-11.7396
不致	-11.7396
敷坐具	-11.7396
舍利弗所說	-11.7397
世尊所說法	-11.7398
究竟白淨	-11.7398
司	-11.7398
預	-11.7398
苦毒辛酸	-11.7399
施我	-11.7399
獻	-11.7401
倦	-11.7404
淨眼	-11.7404
校	-11.7405
二因二緣	-11.7405
牙齒	-11.7406
無因無緣	-11.7407
融	-11.7407
抑	-11.7408
苗	-11.7409
考	-11.7409
輔	-11.7409
怯	-11.741
誘	-11.741
義味	-11.7412
報故	-11.7412
織	-11.7412
摩訶衍	-11.7413
六思身	-11.7413
搆	-11.7414
繼	-11.7414
畔	-11.7414
塵勞	-11.7414
遜	-11.7414
波吒羅	-11.7414
若沙門瞿曇	-11.7414
貴賤	-11.7415
藪	-11.7415
閻王復問	-11.7415
波遮悉多羅那	-11.7416
脾	-11.7416
嗟	-11.7416
育	-11.7416
極大久遠	-11.7416
翻	-11.7417
離邪婬	-11.7417
縱橫	-11.7418
負債	-11.7418
峻	-11.7418
爐	-11.7419
山側	-11.7419
獵師眷屬境界	-11.7419
大臣雨勢	-11.7419
難見	-11.7419
諦觀思惟分別	-11.742
足已	-11.742
滅度後	-11.742
衣毛為竪	-11.742
生惡趣泥犁中	-11.742
其本縱廣	-11.7421
優劣	-11.7421
流馳	-11.7421
怯弱	-11.7421
屣	-11.7421
鮮潔	-11.7421
憂悲惱苦	-11.7421
胡	-11.7421
盈溢	-11.7421
憍陳如	-11.7422
亦無常	-11.7423
晃昱天	-11.7423
超度	-11.7423
權	-11.7423
少出多減	-11.7423
􂍃	-11.7423
下鬚髮	-11.7423
第一澡水	-11.7424
癡心	-11.7424
李	-11.7425
乘不具足	-11.7425
敬事師長	-11.7425
䏶	-11.7425
文殊	-11.7425
決所疑	-11.7425
綿	-11.7425
僂	-11.7426
困篤	-11.7426
遊步	-11.7426
謨尸羅長者	-11.7426
讒	-11.7426
有佛名	-11.7426
􂌶	-11.7426
自今以後	-11.7427
僧坊	-11.7427
求救護處	-11.7427
案行天下	-11.7427
義利	-11.7427
一身一想	-11.7427
猶去村不遠	-11.7427
二山中間	-11.7428
皰	-11.7428
丹	-11.7428
稽首足下	-11.7428
資財無量	-11.7428
有邊無邊	-11.7428
眾寶瓔珞	-11.7429
若有婆羅門道人	-11.7429
讖	-11.7429
癰本	-11.7429
於近處	-11.7429
幻偽	-11.7429
壽命長短	-11.7429
材	-11.7429
為斷無常	-11.7429
及眷屬	-11.7429
惓	-11.743
收攝衣鉢	-11.743
長身婆羅門	-11.743
如偈所說	-11.743
或有餘比丘	-11.743
彼色最上	-11.743
即於坐上	-11.743
唯願聽許	-11.743
受因緣	-11.7431
簡	-11.7431
憒亂	-11.7431
無量眾	-11.7431
鴈	-11.7431
觸滅則受滅	-11.7431
選擇	-11.7431
!「	-11.7431
到彼岸	-11.7431
苦滅道聖諦	-11.7431
正智心善解脫	-11.7431
卷第九	-11.7431
難陀浴池	-11.7432
茂盛	-11.7432
缺漏	-11.7432
沐浴澡洗	-11.7432
之所致也	-11.7432
瑩	-11.7432
於財	-11.7433
為水所漂	-11.7433
千輻	-11.7433
知苦滅道如真	-11.7433
取一芥子	-11.7434
心不捨瞋恚	-11.7434
所至到	-11.7434
生聞梵志復問	-11.7434
得內止	-11.7434
阿迦尼吒	-11.7434
如是修習念身	-11.7434
入室坐禪	-11.7435
定光如來	-11.7435
慈地比丘	-11.7435
於一面住	-11.7435
名稱遠聞	-11.7435
光所照	-11.7435
竺法護譯	-11.7435
尊者盧耶強耆	-11.7435
念如來事	-11.7436
善隨從	-11.7436
知此苦滅道如真	-11.7436
馳散	-11.7436
渴乏	-11.7436
七肘	-11.7436
隨三昧心	-11.7436
四十億眾	-11.7437
今附秦錄	-11.7437
往詣沙門瞿曇所	-11.7437
叉手合掌	-11.7437
不善與苦果受於苦報	-11.7437
知此苦習	-11.7437
拘牟陀華	-11.7437
如來之藏	-11.7437
級	-11.7437
各各自相謂言	-11.7437
同梵行者	-11.7437
宿罪	-11.7438
宿舊	-11.7438
鉢頭摩華	-11.7438
摩竭國王頻毘娑羅	-11.7438
以刀自殺	-11.7438
拳扠	-11.7438
一一諸門	-11.7438
復以何故名為	-11.7438
日大城郭之光明	-11.7439
知此苦滅	-11.7439
耳聞聲	-11.7439
母腹中	-11.7439
穌	-11.7439
尊者沙門二十億	-11.7439
嫌恨	-11.7439
於學地	-11.7439
花葉	-11.744
下車步進	-11.744
外六入處	-11.744
徐徐	-11.744
差降安樂住止	-11.744
根原	-11.744
維耶	-11.744
何緣男子女人	-11.7441
軸	-11.7441
得最上潔白	-11.7441
復有階道至	-11.7441
不染不著	-11.7441
或自見彼	-11.7441
壽四萬歲	-11.7441
得清淨真實中住	-11.7442
吹彼水沫	-11.7442
生生無惡	-11.7442
癡冥	-11.7442
我是彼所	-11.7442
惡魔波旬欲	-11.7443
習白衣行	-11.7443
從滅盡定起	-11.7443
思議	-11.7444
我今稽首禮	-11.7444
等說	-11.7444
道品	-11.7446
乃至於斯	-11.7446
熟酥	-11.7447
勿造斯觀	-11.7447
是無量空處成就遊	-11.7447
黑繩地獄	-11.7447
泉水	-11.7447
極重甚苦	-11.7448
呼呼婆	-11.7448
今此眾中	-11.7448
!』『	-11.7448
便失定	-11.7448
真人法	-11.7448
出入想知滅定	-11.7448
外有	-11.7449
三百由旬	-11.7449
行於無事	-11.7449
諸河流行	-11.7449
惟願	-11.7449
受三自歸	-11.745
東枝	-11.745
乃至不受後有	-11.745
外見色	-11.7451
寶蓋	-11.7451
開化	-11.7452
覺彼心而	-11.7452
默然不語	-11.7452
能善於大人相法	-11.7452
而於後時	-11.7452
色不具足	-11.7453
猶若如	-11.7453
故稱第一	-11.7454
入不用處	-11.7454
深達	-11.7454
發歡喜心	-11.7454
持此功德	-11.7454
華葉	-11.7454
能轉趣涅槃	-11.7455
輕重	-11.7455
誠如	-11.7455
不敬長老	-11.7455
雨舍	-11.7457
行十善	-11.7457
或有業能令眾生	-11.7458
諸仁者	-11.7458
當知是沙門	-11.7459
緣眾生清淨	-11.7459
有異婆羅門	-11.7462
心喜	-11.7463
最為妙	-11.7463
拘利	-11.7463
極樂	-11.7463
竟夜	-11.7464
無價	-11.7465
能斷貪欲	-11.7465
當起增上	-11.7465
端坐	-11.7466
侍從世尊	-11.7466
從是有	-11.7466
時已到	-11.7467
第十五	-11.7468
極小	-11.7468
而求出家	-11.7469
禘婆達兜	-11.7469
化作弟子	-11.7469
邪法	-11.7469
為四眾	-11.747
覆護	-11.7471
愛惜	-11.7472
兒息	-11.7472
高聲唱	-11.7473
見取	-11.7474
舉頭	-11.7474
道意	-11.7474
此道受	-11.7475
令得安樂	-11.7475
行法者	-11.7476
迴向	-11.7476
相逢	-11.7477
復還入	-11.7478
6)	-11.7479
欲為不淨	-11.7479
所從	-11.748
許可	-11.7481
乃至尊者大目犍連	-11.7482
之頃	-11.7482
種德婆羅門	-11.7482
▁1(1	-11.7483
彼等諸門	-11.7484
諸人等	-11.7484
方便修習	-11.7484
問阿難	-11.7485
以慧觀	-11.7486
熱惱大地獄	-11.7487
行不慢	-11.7487
合成	-11.7488
成辦	-11.7488
終日	-11.7489
修七覺分	-11.749
道當	-11.7492
八支	-11.7493
穢污心	-11.7493
於未來	-11.7494
精勤思惟	-11.7495
欲貪斷	-11.7495
有惡欲	-11.7495
我法中	-11.7496
當於是時	-11.7498
諸物	-11.7498
相續生	-11.7499
悉皆具足	-11.7499
則苦	-11.7503
善訶	-11.7505
無害念	-11.7507
異處	-11.7507
阿耨達池	-11.7509
取彼眾生	-11.7511
正法治化	-11.7511
我今自歸	-11.7512
少光	-11.7512
我不能	-11.7512
彼心修習	-11.7513
身不淨行	-11.7513
九眾生居	-11.7514
不隨使使	-11.7514
諸弟子等	-11.7515
世尊過夜平旦	-11.7516
不放逸者	-11.7516
師子長者	-11.7518
撲著	-11.7519
三部	-11.7522
怨恨	-11.7522
人面	-11.7522
人仙	-11.7524
念食	-11.7524
賢聖戒	-11.7524
豈能	-11.7525
。」「『	-11.7525
央掘魔羅復	-11.7525
諸有情	-11.7525
在上坐	-11.7527
猶不能	-11.7527
自滅	-11.7528
皆黑	-11.7528
汝當知	-11.7529
不隨使死	-11.7531
何益	-11.7531
因彼故	-11.7533
勸人	-11.7533
梵行之人	-11.7533
棄於	-11.7534
天人世間	-11.7535
無有疑	-11.7536
天魔波旬	-11.7536
佛復告曰	-11.7536
我此識身及外境界一切相	-11.7536
視之	-11.7536
學法	-11.7536
妻子奴婢	-11.7538
本心	-11.7541
為心結	-11.7543
是故汝今	-11.7543
為彼說	-11.7543
舒手	-11.7545
四等	-11.7545
唯此為	-11.7546
長者舍	-11.7546
紫金	-11.7548
作如是想	-11.7548
事佛	-11.755
彼比丘作是念	-11.755
頭痛	-11.7552
無有他	-11.7553
然不受	-11.7555
修七覺意	-11.7556
千二百五十人	-11.7558
城治化	-11.7558
正見業	-11.7558
夜則	-11.7558
作惡業	-11.7559
如是持戒	-11.7559
界異	-11.7562
觀如來	-11.7563
曇摩	-11.7564
此戒	-11.7566
彼弟子	-11.7568
不憍恣	-11.7569
今此世間	-11.7569
持水	-11.7569
四百由旬	-11.757
面相	-11.7571
欲破壞	-11.7574
亦不樂	-11.7576
依怙	-11.7581
能堪忍	-11.7581
亦同	-11.7582
而說偈	-11.7582
次生	-11.7583
無雲	-11.7583
覺了	-11.7583
可作	-11.7585
苦治	-11.7587
阿浮	-11.759
之像	-11.7592
汝波旬	-11.7594
十踰闍那	-11.7595
他物	-11.7595
無差別	-11.7596
出去	-11.76
離欲解脫	-11.7601
具知	-11.7601
亦生	-11.7602
明相	-11.7603
心正解脫	-11.7603
得善解	-11.7604
彼大天王	-11.7605
相殺	-11.7606
具分別	-11.7607
其光明	-11.7607
不休息	-11.7613
亦苦	-11.7614
不虛妄	-11.7614
離瞋恚	-11.7617
疑使	-11.7617
令致	-11.7617
當于	-11.7618
又更	-11.7618
若滅	-11.7618
離熾然	-11.7619
我足	-11.7621
又能	-11.7621
是謂初	-11.7622
等正覺說	-11.7623
心念言	-11.7624
不能復	-11.7626
為冷	-11.7627
隨風	-11.7627
善心解脫	-11.7627
第一禪	-11.7627
滅盡定	-11.7628
蓋覆	-11.7629
於後時	-11.7629
親近供養	-11.7633
地未	-11.7633
法法相	-11.7634
心意識	-11.7637
往世尊所	-11.7639
憶本	-11.7639
意著	-11.7639
自受	-11.764
夜起	-11.7642
如實見	-11.7642
兜率	-11.7642
下置	-11.7646
常隨	-11.7646
銅器	-11.7647
善利	-11.7648
不攝	-11.7649
7)	-11.7649
諸君	-11.7652
乾陀	-11.7652
毘舍佉優婆夷聞	-11.7652
之要	-11.7653
癡法	-11.7654
在無事處	-11.7659
今此所來	-11.7665
不少	-11.7666
得除	-11.7666
意界	-11.7666
無所有處天	-11.7668
空舍	-11.7674
我一向記	-11.7676
八萬四千馬	-11.768
生怖畏	-11.768
入母胎	-11.7682
飲食知節	-11.7682
世尊默然	-11.7683
美妙	-11.7684
不以此	-11.7684
至如來所	-11.7685
求財	-11.7687
不稱彼	-11.7689
河岸	-11.7689
得苦盡	-11.7692
日中時	-11.7693
豐熟	-11.7694
謂殺生	-11.7695
種種鳥	-11.7697
無慧	-11.7699
自境界	-11.77
足者	-11.7703
無常者是苦	-11.7706
其夜	-11.7707
唯見	-11.7708
兜羅	-11.771
不直	-11.7714
不調御	-11.7716
隨法行	-11.7721
同趣	-11.7721
却住一面已	-11.7722
有㷿	-11.7724
設彼	-11.7724
水邊	-11.7725
上廣	-11.7727
講堂中	-11.773
五百婆羅門	-11.7731
戒清淨	-11.7737
共往	-11.7739
并餘	-11.7739
樂閑居	-11.7741
佛請	-11.7741
初善	-11.7743
有大樹	-11.7745
此小兒	-11.7746
問難	-11.7746
諸魔	-11.7747
亦知彼天	-11.7753
知止足	-11.7755
住壽	-11.7759
於空中	-11.776
彼滅	-11.7761
乳母	-11.7769
之所行	-11.777
彼復	-11.7772
世尊食已	-11.7772
勿憂	-11.7772
得沙門	-11.7776
燒心	-11.7777
解此義	-11.7777
功德具足	-11.7778
不可修	-11.778
護己	-11.7781
行無事	-11.7782
到於	-11.7783
成就戒	-11.7789
得須陀洹果	-11.7793
般涅槃時	-11.7795
傾動	-11.7797
所欺	-11.7798
欲覺	-11.7799
如是當知	-11.78
說三受	-11.7802
天路	-11.7802
刺人	-11.7803
諸界	-11.7805
眼見色已	-11.7806
從智慧	-11.7807
有是處	-11.7807
施安	-11.781
皆自	-11.7811
受教誡	-11.7814
如是見已	-11.7816
腐壞	-11.7816
隨所知	-11.7818
精進行	-11.7819
無事不	-11.7819
眾人言	-11.782
花香	-11.7823
解脫門	-11.7824
無有出	-11.7825
純金	-11.7826
眾輩	-11.7827
無欲念	-11.7829
觀滅	-11.7829
便還	-11.7831
世尊知彼	-11.7835
手脚	-11.784
善守護	-11.7842
豈可	-11.7843
六根	-11.7843
而坐者	-11.7844
願求	-11.7845
境界故	-11.7845
鬘樹	-11.7848
知其意	-11.7848
為友	-11.7849
還歸本	-11.7858
佛及比丘僧	-11.7858
復有比丘	-11.786
極多	-11.7861
於中若有	-11.7862
愛者	-11.7863
意計	-11.7864
幼小	-11.7865
亦好	-11.7866
能破	-11.7866
捨棄	-11.787
大林	-11.7871
其處縱廣	-11.7877
少善	-11.7878
諸罪人	-11.788
所漂	-11.7883
現見	-11.7888
如是解脫	-11.7896
1)	-11.7898
至重	-11.7902
我自有	-11.7904
口自	-11.7906
即能	-11.7908
其門	-11.7915
得供養恭敬	-11.7917
有嫉	-11.7917
好處	-11.7918
無違	-11.7923
得般涅槃	-11.7923
至死	-11.7924
無恚心	-11.7926
厭已	-11.793
譬如大	-11.7931
所敬重	-11.7933
自養	-11.7935
而轉	-11.7937
復告比丘	-11.7944
又見	-11.795
若尊者阿難	-11.7952
行此道	-11.7953
不似	-11.7954
日增	-11.7955
發問	-11.7955
是真實	-11.7958
以三事	-11.7958
不憶	-11.7961
其舍	-11.7961
等正覺所	-11.7962
方面	-11.7962
華池	-11.7962
問義	-11.7962
法堂	-11.7964
脫生	-11.7964
眾花	-11.7965
不欺誑	-11.7968
五名	-11.7971
本所作	-11.7972
十日	-11.7972
百人	-11.7973
彼優婆塞	-11.7973
今此比丘	-11.7975
我如是見	-11.7975
尊者阿難復	-11.7975
因愛	-11.7976
中外	-11.7976
頭陀行	-11.7977
作如是知	-11.7978
我復問	-11.7979
是第一	-11.798
正法律	-11.7982
為後世	-11.7982
趣向彼	-11.7982
無主	-11.7983
命行	-11.7985
求實	-11.7986
還本	-11.7986
紅	-11.7987
佛住毘舍離	-11.7991
尊者阿難亦	-11.7992
不堅	-11.7993
已修	-11.7993
其園	-11.7995
請求	-11.7996
悉除	-11.7996
欲結	-11.7997
大王言	-11.7997
七月	-11.7999
諸疑惑	-11.8002
以施	-11.8004
法主	-11.8006
世尊今日	-11.8008
若信	-11.801
極自	-11.8011
皆以七寶	-11.8012
痛者	-11.8013
彼婦人	-11.8021
八萬四千象	-11.8021
諸論	-11.8021
彼所起	-11.8022
欲共	-11.8024
尸利掘	-11.8025
佛子	-11.8027
好食	-11.8031
貪欲瞋恚	-11.8044
得正念	-11.805
今現	-11.805
復何緣	-11.8052
悉來	-11.8052
不動搖	-11.8054
諸長老	-11.8055
得廣	-11.8058
技術	-11.8059
己者	-11.8065
與比丘僧	-11.8066
何等眾生	-11.8066
凡愚	-11.8068
諸惡法	-11.807
3)	-11.8074
自致	-11.8075
轉輪	-11.8075
彼梵天	-11.8076
阿浮陀	-11.8078
眾行	-11.8078
▁人	-11.8079
其信	-11.8081
被服	-11.8081
官屬	-11.8087
同彼	-11.809
亦作是說	-11.8091
不能使	-11.8092
閻羅	-11.8094
意志	-11.8096
有一人來	-11.8096
如是之人	-11.8098
譬如有	-11.8098
諸子	-11.8099
如來出現世	-11.8101
世界邊	-11.8104
外受	-11.8105
先與	-11.8106
彌薩羅	-11.8106
有四輩	-11.8107
諸女	-11.8108
有念有	-11.8108
不懈	-11.8109
修定	-11.8112
婆陀	-11.8112
無休息	-11.8122
受我教	-11.8125
魔境界	-11.8126
今聞	-11.8127
如是種種	-11.8129
叢	-11.813
意觸生受	-11.813
眾生故	-11.813
來往	-11.8131
貪欲心	-11.8133
其座	-11.8134
命自活	-11.8135
護覺意	-11.8135
此起	-11.8138
叫	-11.814
自力	-11.8142
欲流	-11.8144
安那般那念	-11.8145
色在	-11.8146
大果報	-11.8147
循	-11.8147
從苦	-11.8147
卷第七	-11.8149
結所繫	-11.8151
不善覺	-11.8152
有士夫	-11.8153
所壞	-11.8153
奈	-11.8154
朱利槃特	-11.8158
九十六	-11.8158
從想有終	-11.8159
彼於此間	-11.816
恐不	-11.816
兒子	-11.8162
有智慧者	-11.8162
捨世貪憂	-11.8162
賈	-11.8165
四意斷	-11.8166
祕	-11.8167
甞	-11.8167
其相	-11.8168
淺	-11.8168
可得久住	-11.817
嚴四兵	-11.817
蚊	-11.8173
獵	-11.8173
非想非非想	-11.8174
冤	-11.8175
佛在王舍城	-11.8176
忻	-11.8176
第十六	-11.8176
為諸比丘所	-11.8176
所攝	-11.8176
為原首	-11.8177
為善得善	-11.8178
豪姓	-11.8178
能令得沙門	-11.8178
漢	-11.8178
旬	-11.8178
川	-11.8179
棘刺	-11.818
不長不短	-11.818
謂有比丘知	-11.818
茲	-11.818
清信女	-11.818
曩昔	-11.8181
欝多囉究留洲	-11.8181
梵行久	-11.8181
亂念	-11.8181
十六分中	-11.8182
單	-11.8182
肺	-11.8182
金鈴	-11.8182
選	-11.8183
摩那婆	-11.8183
枝條	-11.8183
毘紐迦旃延氏婆羅門尼	-11.8183
三摩提	-11.8183
歌詠	-11.8184
叔	-11.8184
鉾	-11.8184
寒暑	-11.8184
甚可	-11.8184
自放恣	-11.8185
婆迦梨	-11.8185
精神	-11.8185
悲哭	-11.8185
姝	-11.8185
天光明不如	-11.8186
瞑	-11.8186
菴羅女	-11.8186
疲倦	-11.8187
縣	-11.8187
不得漏盡	-11.8187
街	-11.8187
紫磨金	-11.8188
炎熱	-11.8188
巴連弗邑	-11.8188
謬	-11.8188
從座而起	-11.8188
屈伸臂頃	-11.8188
盈滿	-11.8188
狐狼	-11.8188
亦煎亦	-11.8189
肌肉	-11.8189
拾	-11.8189
行滅則識滅	-11.819
剛強	-11.819
過去未來現在	-11.819
阿那含不如施	-11.819
隷	-11.819
色離如實知	-11.8191
栖	-11.8191
燒香	-11.8191
療治	-11.8192
銜	-11.8192
稗	-11.8192
識滅則名色滅	-11.8192
撫	-11.8192
團	-11.8192
阿闍梨	-11.8192
於大眾前敷座而坐	-11.8192
鼻知香	-11.8193
七日出時	-11.8193
涅盤	-11.8193
兜率哆天	-11.8193
聖八支齋	-11.8193
併	-11.8193
雷電霹靂	-11.8193
不增不減	-11.8193
意無憂慼	-11.8194
初夜後夜	-11.8194
拼度	-11.8194
欝鞞羅	-11.8194
耽	-11.8194
恤	-11.8195
寐	-11.8195
惟觀	-11.8195
廣博	-11.8195
後悔無益	-11.8195
默然受已	-11.8195
安詳	-11.8195
尼羅浮	-11.8196
脩	-11.8196
賢聖八道	-11.8196
銀粟	-11.8196
威神巍巍	-11.8196
若能爾者	-11.8196
既已	-11.8196
萎	-11.8197
巨海	-11.8197
以淨	-11.8197
硨𤦲	-11.8197
那羅聚落	-11.8197
不賤他	-11.8197
有一種人	-11.8197
獼猴池側重閣講堂	-11.8197
山野	-11.8197
隨魔自在	-11.8198
拄杖	-11.8198
相和而鳴	-11.8198
放蕩	-11.8198
此法無諍	-11.8198
良藥	-11.8198
猗覺意	-11.8198
帳	-11.8198
此大沙門不能消食	-11.8198
內所攝	-11.8198
乃至無數眾鳥相和	-11.8199
輔相大堅固婆羅門	-11.8199
緣自覺知	-11.8199
同伴	-11.8199
橋梁	-11.8199
潔淨	-11.8199
晝度樹	-11.8199
與此梵志	-11.8199
不由於他	-11.8199
大釜	-11.8199
拘摩羅	-11.8199
師子吼而吼	-11.8199
得人四種如意之德	-11.8199
西壁	-11.8199
須摩竭陀池側	-11.8199
一坐而食	-11.8199
尊者滿慈子	-11.8199
卷第八	-11.8199
稍減	-11.82
幻術	-11.82
現得報	-11.82
未生惡不善法	-11.82
有賊來	-11.82
出興于世	-11.82
歸命比丘僧	-11.82
針毛鬼	-11.82
憔悴	-11.82
無知無見	-11.82
轉輪王欲試	-11.82
我般涅槃後	-11.82
聖法印	-11.82
取滅則有滅	-11.82
從法化生	-11.8201
在彼眾中	-11.8201
脹	-11.8201
安徐	-11.8201
鵡	-11.8201
屎尿	-11.8201
知此漏	-11.8201
掣	-11.8202
提婆達兜愚人	-11.8202
迷亂	-11.8202
布薩	-11.8202
佛遊拘樓瘦	-11.8202
明行具足	-11.8202
釋迦文佛弟子	-11.8202
植	-11.8202
於世尊法得無所畏	-11.8202
臨終	-11.8203
乃至蜫蟲	-11.8203
我佛世尊有最	-11.8203
世間諦如有	-11.8203
娑婆世界主梵天王	-11.8203
陀驃比丘	-11.8203
不食肉	-11.8203
憎嫉惱	-11.8203
墮於惡趣	-11.8203
慳悋	-11.8203
法法觀念處	-11.8203
復以此偈報	-11.8203
亦常讚歎	-11.8204
聞斯語	-11.8204
旋轉	-11.8204
𦼇	-11.8204
從我學梵行	-11.8204
靈鷲山	-11.8204
受夏坐	-11.8205
殊異	-11.8205
大人八念	-11.8205
緣種種界生種種觸	-11.8205
n	-11.8205
宰	-11.8205
尸利沙	-11.8205
鹿頭	-11.8205
右脇而臥	-11.8205
夜過晨朝	-11.8205
逆順	-11.8205
弊宿	-11.8205
諷誦讀	-11.8206
質多	-11.8206
是謂聖弟子得	-11.8206
阿臈鬼	-11.8206
慳貪嫉妬	-11.8206
易染為色	-11.8206
▁13	-11.8206
竊盜	-11.8206
伺求其便	-11.8206
大腸	-11.8206
所從起	-11.8206
築	-11.8206
勤修齋戒	-11.8206
久不來此	-11.8206
下有園觀浴池	-11.8207
唯佛能知	-11.8207
入羅閱城乞食	-11.8207
智者之所	-11.8207
猶如有人欲得	-11.8207
瑟曇	-11.8207
家中居	-11.8207
施佛及隨佛大苾芻眾	-11.8207
遠來乞者	-11.8207
優多羅摩納	-11.8207
兜瑟哆天	-11.8207
屋宅	-11.8208
波羅牢伽彌尼	-11.8208
衰減	-11.8208
縫	-11.8209
一旦	-11.8209
骨節	-11.8209
佳	-11.8209
大天㮈林	-11.8209
揈	-11.8209
減損阿須倫眾	-11.821
違背	-11.821
其數無量	-11.821
斬截	-11.821
如其正受	-11.821
善住尼拘類樹王	-11.821
我實見之	-11.821
却敵	-11.821
可敬可	-11.8211
在如來前坐	-11.8211
其後亂風吹大	-11.8211
拔箭	-11.8212
呵罵	-11.8212
勇猛精進	-11.8212
如其像	-11.8212
耆域	-11.8212
敷床座	-11.8212
觸之猶如迦旃隣提衣	-11.8212
善住大龍象王	-11.8212
羸劣	-11.8212
乃至最後寒氷地獄	-11.8213
家家乞食	-11.8213
除去五飾	-11.8213
開敷	-11.8213
具受眾苦	-11.8213
眾亂想	-11.8213
豈當	-11.8213
以十五日月滿時	-11.8214
障蔽	-11.8214
於如來所出家修梵行	-11.8214
無母	-11.8214
白衣聖弟子	-11.8214
共愛敬	-11.8215
鉢陀摩	-11.8215
住無動	-11.8215
四部兵	-11.8215
壯熱	-11.8215
城邑聚落	-11.8216
優多羅童子	-11.8216
尊祐	-11.8216
劫波	-11.8216
著五納衣	-11.8216
羅闍	-11.8217
救頭	-11.8217
終不能捨	-11.8217
其水涼冷	-11.8217
亦當恭敬	-11.8217
賢者離越哆	-11.8218
色為大患	-11.8218
考掠處	-11.8218
尊者阿那律陀白	-11.8218
多知	-11.8219
卵生龍	-11.8219
謂五受陰	-11.8219
發言	-11.8219
紅色	-11.822
自他作	-11.822
世尊弟子眾善趣向	-11.822
莫令增長	-11.822
於如來法中	-11.8221
五百人俱	-11.8221
思惟此義	-11.8222
閻浮提洲	-11.8223
在佛前	-11.8224
善現苑	-11.8224
有色無色	-11.8225
於諸法中	-11.8225
有欲界人身四大諸根	-11.8226
梵輪	-11.8227
思惟死想	-11.8227
隨意自在	-11.8228
世尊告一比丘	-11.8228
於現在	-11.8229
而白我	-11.8229
懈慢	-11.8229
六觸身	-11.823
導首	-11.823
我於今日	-11.823
著袈裟	-11.8231
有守	-11.8231
出家法	-11.8231
性命	-11.8232
如是不久當得	-11.8232
覆面	-11.8232
亦當修習	-11.8233
白尊者摩訶迦旃延	-11.8233
頗見	-11.8233
教人不殺	-11.8233
乃得出	-11.8233
不知出要	-11.8234
生彼間	-11.8234
若有比丘如是	-11.8234
心終不著	-11.8234
說種種法	-11.8234
上士	-11.8234
棄結	-11.8235
濕生龍	-11.8235
說異	-11.8235
禮拜供養	-11.8235
苦處	-11.8235
惡露不淨	-11.8235
大幸	-11.8236
虛妄言	-11.8237
來白我	-11.8237
作諸功德	-11.8237
說偈問	-11.8237
共戰鬪	-11.8238
或截其	-11.8238
著新	-11.8238
垂下	-11.8238
行集	-11.8239
佛悲愍	-11.824
福貴	-11.824
非一義	-11.8241
離恚	-11.8241
具以	-11.8242
聞我所說	-11.8242
毘羅比丘尼	-11.8243
安隱之處	-11.8245
若梵志	-11.8245
經七日	-11.8245
染家	-11.8246
以是當知	-11.8247
食自然粳米	-11.8248
不離渴	-11.8248
用之	-11.8249
九月	-11.8249
阿頭	-11.8249
瞿迦梨比丘	-11.825
却後	-11.825
供養眾僧	-11.8252
欲令我得	-11.8253
大洲	-11.8253
大苦陰	-11.8253
當修四念處	-11.8254
廣說乃至	-11.8255
百分	-11.8256
悉知之	-11.8257
緣受有有	-11.8257
收取	-11.8258
為曲	-11.8258
佛告目連	-11.8258
此四種	-11.8259
知見清淨	-11.826
虛誑	-11.826
即嚴	-11.826
多聞聖弟子如是觀者	-11.8262
是為垢穢	-11.8265
廣為眾生	-11.8266
為因	-11.8267
勝彼	-11.8267
攝守	-11.8267
彼亦無常	-11.8267
臥地	-11.8269
世尊為彼	-11.8269
唯聖	-11.827
成就天眼	-11.8271
八方	-11.8272
在王	-11.8273
水性	-11.8275
諸相師	-11.8276
大善利	-11.8276
有五受陰	-11.8278
仰觀	-11.8279
以手摩	-11.8279
要令	-11.8279
眾鳥	-11.828
如汝所	-11.8281
此是何等	-11.8282
至再三	-11.8285
不視	-11.8286
說如是法	-11.8289
或習	-11.8289
亦應如是	-11.829
汝等苾芻	-11.8291
內懷	-11.8292
小千世界	-11.8292
思惟觀察	-11.8294
付授	-11.8295
悉了知	-11.8296
土石	-11.8296
眼觸生受	-11.8297
尊那	-11.8297
第四沙門	-11.8299
設方便	-11.8299
二子	-11.83
亦從是	-11.83
為三十三天	-11.83
五欲樂	-11.8301
婆羅門長者居士	-11.8301
於宮中	-11.8301
阿梨吒比丘	-11.8303
諸天等	-11.8303
於某處	-11.8303
志意	-11.8304
陸生花	-11.8307
未竟	-11.8307
作一	-11.8307
自貴	-11.8308
都盡	-11.8309
往生	-11.8309
八種道	-11.8309
亦不如是說	-11.831
無學人	-11.8312
可厭	-11.8312
憍慢婆羅門	-11.8314
不惑不	-11.8315
汝等應當如是	-11.8316
於現世	-11.8318
千萬	-11.8318
受如是苦	-11.832
瞋者	-11.8321
是名第三	-11.8322
無有堅固	-11.8323
無他世	-11.8324
侍佛	-11.8324
為他說法	-11.8326
此四聖諦	-11.833
適生	-11.8332
當觀是	-11.8333
不淨觀	-11.8333
未來事	-11.8335
講說	-11.8339
勿使	-11.834
降神	-11.8341
至無事處	-11.8343
是為初	-11.8343
我亦知	-11.8343
雖有此	-11.8344
彼比丘即	-11.8344
盲者	-11.8345
地獄罪	-11.8346
扇大海	-11.8346
伏婬	-11.8347
善不善	-11.8353
共相應	-11.8354
血塗	-11.8354
無學戒	-11.8355
欲令如是	-11.8356
如是我法	-11.8357
彼等諸	-11.8357
過其上	-11.8359
從世尊聞	-11.836
禮事我	-11.836
御心	-11.8362
無有虛妄	-11.8364
上道	-11.8365
大長者家	-11.8366
我獨一靜處	-11.8369
?」』	-11.837
未聞	-11.8371
疑難	-11.8372
履行	-11.8374
或誦	-11.8377
彼地獄眾生	-11.8379
從如來聞	-11.8381
七識住	-11.8383
熱時	-11.8384
婆羅門家	-11.8385
二沙彌	-11.8385
敬信	-11.8385
尚無	-11.8387
王與	-11.8389
各不相	-11.8389
等同	-11.8392
久存	-11.8394
少味	-11.8397
令住	-11.8398
教作	-11.8399
非聖	-11.8399
於善行	-11.84
為尊	-11.84
百千億	-11.8401
於瞋	-11.8405
各以	-11.8406
不墮三惡趣	-11.8406
正意	-11.8406
即是彼	-11.8407
當發心	-11.8408
悉具足	-11.8408
無如	-11.8408
大海之	-11.8408
求免脫	-11.8408
無學正見	-11.8409
諸支節	-11.841
營生	-11.8415
信敬	-11.8419
通徹	-11.842
曾為	-11.8421
我終不	-11.8422
王城	-11.8422
受欲樂	-11.8423
摩尼珠	-11.8425
非常想	-11.8425
而反	-11.8428
其邊際	-11.8431
此云何	-11.8432
如是諍訟	-11.8436
作功德	-11.8438
若於受	-11.8438
愛語	-11.8441
難勝	-11.8443
能降	-11.8445
善男子難陀	-11.8446
當知彼人	-11.8449
別說	-11.8452
不令如是	-11.8452
自存	-11.8452
婆羅門復	-11.8455
緣起法	-11.8456
若剎利	-11.8456
居在	-11.8458
都無有	-11.846
是見者	-11.8461
穌息	-11.8462
當取滅度	-11.8463
因故	-11.8467
斷酒	-11.8468
佛土	-11.8468
得道真	-11.8469
墮在	-11.847
所不喜	-11.8472
住四念處	-11.8474
中庭	-11.8475
若干身	-11.8476
祖	-11.8476
俱至	-11.8477
如此人	-11.8477
我見彼	-11.8478
杖捶	-11.8478
十一事	-11.8479
樂更樂	-11.8479
毘舍離國	-11.848
流河	-11.8481
悉來集	-11.8481
難值	-11.8481
三法度	-11.8483
敷妙	-11.8483
懷憂	-11.8485
逮得於	-11.8485
世尊說言	-11.8485
受取	-11.8485
乃於	-11.8485
比丘歎	-11.8486
苦毒	-11.8488
老法	-11.8488
如是觀已	-11.8488
善乘	-11.8492
知痛	-11.8497
福盡	-11.8499
所恭敬	-11.85
於正念	-11.85
▁子	-11.8502
三四	-11.8504
三惡趣	-11.8508
志在	-11.8509
力勢	-11.8509
一切無常	-11.851
得斯陀含果	-11.8511
諸法之	-11.8514
自覺成	-11.8514
意解脫	-11.8517
常修	-11.8518
自在天子	-11.8518
七覺	-11.8519
皆稱	-11.852
𧗪為	-11.8521
於諸法	-11.8523
異忍	-11.8523
沒不現	-11.8526
故彼起	-11.8528
於色生厭	-11.8528
其利	-11.853
四大身	-11.8537
此五百比丘	-11.8539
不得其便	-11.8542
其象	-11.8543
四果	-11.8543
生憂苦	-11.8544
復觀此	-11.8544
俱而受	-11.8546
無遺餘	-11.8546
之師	-11.8547
於靜室	-11.8549
聞此已	-11.8551
持律	-11.8551
造諸	-11.8553
之偈	-11.8556
目乾連比丘	-11.8556
多眾	-11.8559
石山	-11.8564
從禪	-11.8566
地皮	-11.8567
萬四千	-11.8569
更莫	-11.8569
為大祀	-11.8571
不得入	-11.8575
放光	-11.8576
相應法	-11.8576
善分別	-11.8577
正謂	-11.8578
可信	-11.8583
大慈	-11.8585
復有上	-11.8587
我今為汝說	-11.8588
諸結使	-11.8588
一千由旬	-11.8592
王又	-11.8595
便止	-11.8598
盜人	-11.8598
我因此	-11.8601
佛母	-11.8604
有所得	-11.8606
好飲食	-11.8608
生漏梵志	-11.8608
得作沙門	-11.861
入大海	-11.8612
作如是問	-11.8615
水洗	-11.8615
三學	-11.8618
受緣	-11.862
冷水	-11.8624
四邊	-11.8624
記彼	-11.8625
不放逸行	-11.8627
四流	-11.8632
五十由旬	-11.8636
去不久	-11.864
從佛受	-11.864
何等五	-11.8642
亦復知	-11.8646
不放逸故	-11.8647
諸菩薩	-11.8648
彼多聞聖弟子	-11.865
色力	-11.865
一切餘	-11.8652
皆盡	-11.8653
有刀杖	-11.8653
當不有	-11.8653
不知如真者	-11.8655
一切天人	-11.8657
悋	-11.8658
四未曾有法	-11.8659
相助	-11.8661
但使	-11.8661
離綺語	-11.8662
有善利	-11.8666
汝於今	-11.8667
聽其	-11.8668
如雲	-11.8669
之過	-11.8669
非人所造	-11.8671
修斷	-11.8673
二相	-11.8673
佛皆	-11.8684
念誦	-11.8684
一何	-11.8688
能救	-11.8689
閻浮利地	-11.869
若有來問	-11.869
不復有	-11.8699
力能	-11.8699
思惟分別	-11.8701
捨離欲	-11.8702
諸弟子恭敬	-11.8703
甚姝好	-11.8704
謂四聖諦	-11.8705
能開	-11.8705
亦無惡	-11.8707
不靖	-11.8707
遙見佛	-11.8708
四倒	-11.8708
近食	-11.871
螺聲	-11.8712
所敬	-11.8712
三善根	-11.8713
其因緣	-11.8714
有四大	-11.8718
當獲	-11.8721
往問訊	-11.8728
得法眼	-11.8729
自覺悟	-11.8732
善報	-11.8735
我亦如是說	-11.8735
作家	-11.8735
各別	-11.8737
倍增	-11.8739
竟不得	-11.8739
生主	-11.874
汝昔	-11.8741
從是起	-11.8741
化身	-11.8742
四種寶	-11.8743
善修習	-11.8748
不望	-11.875
圓光	-11.8752
多力	-11.8755
勝進	-11.8755
有智者	-11.8756
二萬里	-11.8757
依一林	-11.8758
當學如是	-11.8758
我聞已	-11.8761
來此間	-11.8764
正事	-11.8764
不忘失	-11.8767
一車	-11.8767
捶杖	-11.8769
其第二	-11.8772
有五因緣	-11.8775
波斯匿	-11.8775
即解	-11.8781
拔髮	-11.8785
噉食	-11.8789
不色無有量	-11.8789
起烟	-11.8793
之比	-11.8802
本起	-11.8805
七十二	-11.8814
林間	-11.8816
從今日	-11.8822
離不如實知	-11.8822
得四禪	-11.8823
念死	-11.8828
靡	-11.8829
吾當為汝分別	-11.8831
興兵	-11.8835
告諸比丘尼	-11.8837
遵	-11.8837
不自害	-11.8839
外為	-11.884
為是人	-11.8841
如來及比丘僧	-11.8843
之體	-11.8847
愁惱	-11.885
有百千	-11.885
成一	-11.8851
至三十三天	-11.8851
勿起	-11.8851
離渴	-11.8855
語尊者舍利弗	-11.8857
義同	-11.8858
眾生因	-11.8859
如阿羅漢	-11.886
紫	-11.8863
語帝釋	-11.8864
與取	-11.8865
樂聞法	-11.8866
或取	-11.8871
非常非無常	-11.8872
自足	-11.8874
外身	-11.8874
國富	-11.888
斯由精勤	-11.8887
是非人	-11.8891
漸至	-11.8894
菴婆羅	-11.8894
不增長	-11.8895
當發	-11.8896
為非人	-11.8898
如愚如	-11.8899
所作業	-11.8899
割其	-11.89
所傷	-11.89
身力	-11.8902
淨智	-11.8906
稚	-11.8908
等具	-11.8908
鑊中	-11.8908
又語	-11.8908
諦見	-11.8909
鬪時	-11.891
法集	-11.8912
陀那	-11.8914
是方便	-11.8917
勿怖	-11.8919
一心聽	-11.892
揩	-11.8921
城中人民	-11.8924
勤行	-11.8925
面訶	-11.893
ha	-11.8931
率	-11.8931
而學	-11.8932
有餘眾生	-11.8933
爛壞	-11.8934
問其所	-11.8935
從梵天	-11.8938
甚為難	-11.8938
有犯	-11.8947
受苦惱	-11.8947
至觀覺	-11.8952
雪	-11.8953
斷愛欲	-11.8953
廣演	-11.8954
之分	-11.8955
等七寶所成	-11.8955
意護	-11.8958
後不復	-11.896
阿難對言	-11.8962
瞿陀尼	-11.8963
自知自覺自作證	-11.8963
王勅	-11.8968
即化作	-11.8972
二由旬	-11.8972
先說	-11.8973
小床	-11.8981
精進覺意	-11.8982
子曹	-11.8985
於天下	-11.8988
藤	-11.8991
女色	-11.8998
跋地羅帝偈及其義	-11.9
梵摩渝	-11.9
二十五	-11.9002
有餘比丘	-11.9002
當修五力	-11.9002
汝聞越祇	-11.9003
上昇	-11.9004
焰摩迦	-11.9004
擬	-11.9006
豈有	-11.9006
朗	-11.9007
維耶離	-11.9008
不諍	-11.9008
差摩	-11.9008
不至心	-11.9008
有身滅道跡	-11.9008
流惱熱憂	-11.9009
膖脹	-11.9011
欲令熟者	-11.9011
思惟是	-11.9011
臼	-11.9011
當修五根	-11.9011
興四種軍	-11.9011
彼一切從愚癡	-11.9011
伎兒	-11.9012
策慮	-11.9012
對所牽	-11.9013
陶	-11.9013
乘虛	-11.9013
完	-11.9013
善知識共和合	-11.9014
心驚毛竪	-11.9014
禾	-11.9015
虧	-11.9015
而闍維之	-11.9016
當修七覺支	-11.9016
捫	-11.9016
無瑕	-11.9016
諸漏不盡	-11.9016
魔王眷屬所不至處	-11.9016
諷	-11.9017
兵杖	-11.9017
阿耆毘	-11.9017
三事和合生	-11.9017
般闍羅	-11.9017
吒鵂	-11.9017
緒	-11.9018
栴檀香	-11.9018
不得無上安隱涅槃	-11.9018
羅網懸	-11.9019
一由延	-11.9019
教人令行	-11.9019
今為鉢和蘭	-11.902
剛	-11.902
當來亦受樂報	-11.902
恭恪	-11.902
無苦無樂	-11.902
為我略說法要	-11.9021
後當說	-11.9021
勉	-11.9021
跳	-11.9021
否	-11.9021
現法樂住	-11.9022
無常苦想	-11.9022
如是名	-11.9022
彈指	-11.9022
芻	-11.9023
反覆	-11.9023
辛	-11.9023
費	-11.9023
堅強	-11.9023
屈伸低	-11.9023
若慧弟子	-11.9023
女妓	-11.9023
崖	-11.9023
漏盡意解	-11.9023
凶暴	-11.9023
妾	-11.9023
族姓之子	-11.9023
因色勝如	-11.9023
久住於世	-11.9024
若干種木	-11.9024
從黑雲沙	-11.9024
紺青色	-11.9024
藕	-11.9024
寂寞	-11.9024
決定正向	-11.9024
重一迦利沙	-11.9024
不白不黑	-11.9024
所求不得苦	-11.9024
詰責	-11.9025
其心不定	-11.9025
肪	-11.9025
伊沙陀羅山	-11.9025
如說修行	-11.9025
意思食	-11.9025
當來受樂報	-11.9025
其食少者	-11.9025
餉	-11.9025
皆由前世	-11.9025
真偽	-11.9026
婆迦梵	-11.9026
當來受苦報	-11.9026
伊沙陀羅	-11.9026
皮膚	-11.9026
水為之開	-11.9026
腳	-11.9026
戰慄	-11.9027
檢	-11.9027
內有色想	-11.9027
紺色	-11.9027
二百五十戒	-11.9027
險	-11.9027
二十五年	-11.9027
予	-11.9027
高七十里	-11.9027
祇桓	-11.9027
如至誠知	-11.9028
交通	-11.9028
婬妷	-11.9028
守護從解脫	-11.9028
鮮明	-11.9028
蜇	-11.9028
自貴賤他	-11.9028
號咷	-11.9028
阿僧祇	-11.9028
六畜	-11.9028
當修十無學法	-11.9028
識緣名色	-11.9028
在世尊後	-11.9028
見法自知作證	-11.9028
霧	-11.9028
以邪求	-11.9029
咽喉	-11.9029
埋	-11.9029
調柔	-11.9029
於諸世間都無所取	-11.9029
忍不令退	-11.9029
低沙	-11.9029
厥	-11.9029
充滿其中	-11.9029
交接	-11.9029
稱揚	-11.9029
大弟子等	-11.9029
精氣	-11.9029
娛樂其中	-11.903
吾當為汝廣分別	-11.903
所以族姓子剃除鬚髮	-11.903
拔刀	-11.903
即其日	-11.903
販賣	-11.903
磧	-11.9031
如力士屈伸臂頃	-11.9031
朽邁	-11.9031
出要為樂	-11.9031
何等為痛癢	-11.9031
恬	-11.9031
帛	-11.9031
不樂故解脫	-11.9031
有目之士	-11.9031
野狐	-11.9031
雞頭梵志	-11.9032
槍	-11.9032
而世尊今教我斷	-11.9032
點	-11.9032
八大人念	-11.9032
裁	-11.9032
無有窮盡	-11.9032
得度世道	-11.9032
緣無明有行	-11.9032
恭奉	-11.9032
帝穌嚕	-11.9032
萬民	-11.9033
映障	-11.9033
當修四如意足	-11.9033
大如車軸	-11.9033
而獲	-11.9033
則我身是	-11.9033
受極嚴苦	-11.9033
忿恨	-11.9033
怕	-11.9033
意觸入處	-11.9033
形體不具足	-11.9033
轡	-11.9033
我弟子中第一	-11.9033
成就於佛不壞淨	-11.9033
與衣鉢俱	-11.9034
當修四正斷	-11.9034
睡眠纏	-11.9034
無數劫	-11.9034
生長增廣	-11.9034
富隣尼	-11.9034
此人善法滅	-11.9034
眼觸入處	-11.9035
不住善相應捨	-11.9035
黃蓮華	-11.9035
錢寶	-11.9035
世雄	-11.9035
歌聲	-11.9035
黨	-11.9035
自出意治國	-11.9036
絲	-11.9036
以正求	-11.9036
頭生白髮	-11.9036
膊	-11.9036
詵陀迦旃延	-11.9036
無恨心	-11.9036
於何處	-11.9036
拘屢孫如來	-11.9036
將向	-11.9036
彼第二人	-11.9037
彈指頃	-11.9037
莊挍	-11.9037
此義於我	-11.9037
燒齗	-11.9037
修增上慈	-11.9037
無有瑕穢	-11.9037
作衣竟	-11.9037
守護意根	-11.9037
於所聞法	-11.9037
尻亦食	-11.9038
趣於涅槃	-11.9038
後脚	-11.9038
不熱	-11.9038
自然變成	-11.9038
昇正殿	-11.9038
俱薩羅	-11.9038
誠心	-11.9038
所居之處	-11.9038
強記	-11.9038
跋陀羅	-11.9038
稠林	-11.9038
祇夜	-11.9038
丹本	-11.9039
未滅未	-11.9039
無餘涅槃界	-11.9039
如來知一人意之所念	-11.9039
王子須菩提	-11.9039
有八未曾有法	-11.9039
作光明想	-11.9039
弗迦娑	-11.9039
當教	-11.9039
右脇著地	-11.9039
聽乃敢陳	-11.9039
椎胸	-11.9039
閻浮洲一智慧商人	-11.9039
鸚鵡摩納都提子	-11.904
於四城門	-11.904
給恤	-11.904
道場	-11.904
七世以來父母	-11.904
其林縱廣	-11.904
怛	-11.904
四維	-11.904
究竟邊際	-11.904
閙	-11.9041
愛緣取	-11.9041
閻浮里內	-11.9041
誰當信	-11.9041
當修四禪	-11.9041
悔過此說	-11.9041
歎未曾有	-11.9041
已得如是定心	-11.9041
其邊無際	-11.9041
隨順教	-11.9042
九孔	-11.9042
到已禮世尊足	-11.9042
導引	-11.9042
今我此身	-11.9042
沸伽羅娑羅婆羅門	-11.9042
有如無	-11.9043
雪山夜叉復	-11.9043
魯醯遮婆羅門	-11.9043
聽我於正法中為優婆塞	-11.9043
火㷿	-11.9043
參議	-11.9044
發歡喜之心	-11.9044
穢汙	-11.9044
緣取有	-11.9044
運集	-11.9044
倉庫	-11.9044
瘂	-11.9044
甚眾多	-11.9044
佛住毘舍離獼猴池側重閣講堂	-11.9045
富留那	-11.9045
寒冷	-11.9045
彼若欲得	-11.9045
寒地獄	-11.9045
大德大力	-11.9045
行已則受	-11.9045
憶彼	-11.9045
與善知識從事	-11.9045
若比丘有信	-11.9045
知此漏習	-11.9046
陶師	-11.9046
趣向滅戲道跡	-11.9046
上尊長老	-11.9047
師子座	-11.9047
摩佉	-11.9047
南枝	-11.9047
於沙門瞿曇所出家修梵行	-11.9047
其最小者	-11.9047
頗羅墮	-11.9047
到世尊所	-11.9047
背痛	-11.9047
燕坐思惟	-11.9047
執手	-11.9048
未曾憶	-11.9048
應儀	-11.9048
調達	-11.9048
莫不歡喜	-11.9048
無有怯弱	-11.9049
知此漏滅	-11.9049
提惒達哆	-11.9049
問彼比丘	-11.9049
自高	-11.9049
嗜欲	-11.9049
未生欲漏而	-11.9049
異學哺羅陀子	-11.9049
自稱姓名	-11.905
為人演說	-11.905
婆羅門於本劫本見	-11.9051
捨此住止	-11.9051
壽命延長至	-11.9051
息樂	-11.9051
澡豆	-11.9052
從根本治	-11.9052
與諸眷屬	-11.9052
有二岐道	-11.9052
掌中	-11.9052
當修八支聖道	-11.9052
色貌	-11.9052
之光明	-11.9052
佛在羅閱城	-11.9053
云何名優婆塞	-11.9053
三十日	-11.9053
斷一切欲愛	-11.9053
償	-11.9053
外敵	-11.9053
塼	-11.9053
謂信力	-11.9053
歸依於	-11.9054
追念	-11.9054
亦不有想亦不無想	-11.9054
猥多	-11.9055
陶屋	-11.9055
泥羅浮陀	-11.9056
豐足	-11.9056
真金色	-11.9056
以防	-11.9056
律儀斷	-11.9056
無有形相	-11.9056
在世尊前	-11.9056
隨汝意	-11.9056
乃至純大苦聚滅	-11.9057
半座	-11.9057
竪立	-11.9057
水精門	-11.9057
告御者	-11.9057
二十里	-11.9057
亦當知受何行令	-11.9058
田主	-11.9058
彼此定	-11.9058
如虛空	-11.9058
白珠	-11.9058
加害	-11.9058
著鎧持仗	-11.9058
令愛	-11.9058
耶若達梵志	-11.9058
漂沒	-11.9058
生極快樂	-11.9059
五里	-11.9059
不復殺生	-11.9059
徹聽	-11.9059
成就調御	-11.906
成陰陽	-11.9061
畫師	-11.9061
布現	-11.9061
自然出生	-11.9061
放光明	-11.9062
耶若達	-11.9062
有七種	-11.9062
復於後時	-11.9062
不能令得	-11.9063
皆悉了知	-11.9063
閻羅言	-11.9063
脫苦	-11.9063
尊者跋迦梨	-11.9063
智慧梵行者	-11.9064
自隱	-11.9064
觀覺興衰	-11.9064
緣起經	-11.9064
為自在王	-11.9064
老死集	-11.9064
定覺意	-11.9064
昇進得止息處	-11.9064
敬僧	-11.9065
當受我請	-11.9065
如來身者	-11.9066
在高樓上	-11.9066
若干種身	-11.9066
即辦	-11.9066
五髻	-11.9067
六字	-11.9067
當修十一切處	-11.9067
極為苦痛	-11.9067
有想無想處天身	-11.9067
現在無為	-11.9067
自知如法	-11.9067
不是不非	-11.9068
大眾之中	-11.907
是佛性	-11.907
施惠	-11.9071
盜他	-11.9071
生老病死因	-11.9072
變現	-11.9072
豔天	-11.9072
住於佛前	-11.9073
第十一	-11.9073
舉罪比丘	-11.9074
自然而有	-11.9074
無量識處想	-11.9075
色轉好	-11.9075
亦至再三	-11.9075
繫心住	-11.9075
惡朋友	-11.9076
皆燋	-11.9077
墮於地獄	-11.9077
欲設大祀	-11.9077
我曹種	-11.9078
教誡說法	-11.9078
共言語	-11.9078
必至	-11.9078
無量空處想	-11.9079
殺害眾生	-11.9079
食地味	-11.908
罪報	-11.908
起偷婆	-11.908
兩眼	-11.908
善能分別	-11.9081
貧苦	-11.9081
以無數方便	-11.9081
無難	-11.9082
無瞋心	-11.9082
出家之人	-11.9083
愚癡之人	-11.9083
能語	-11.9083
行法知如真	-11.9084
有諛諂	-11.9084
云何得滅	-11.9085
盡能分別	-11.9085
牛馬	-11.9087
乃至略說	-11.9087
慈哀	-11.9088
乃至馬瑙	-11.9088
諸邪見	-11.9088
何等為九	-11.9089
未獲	-11.9089
除却	-11.909
案行	-11.9091
陀驃摩羅子比丘	-11.9091
五逆	-11.9091
鼻入	-11.9091
汝等善思念之	-11.9092
不可親近	-11.9092
舍利子	-11.9092
棄家	-11.9093
無有邊際	-11.9094
不肥	-11.9096
不來此世	-11.9097
如尊師	-11.9098
於四方面	-11.9098
諸業盡	-11.9099
謂眾生	-11.91
漬身	-11.91
有大神足	-11.9101
緣更樂	-11.9101
取人	-11.9102
頭向下	-11.9103
戒盜	-11.9105
出煙	-11.9105
聞佛說法	-11.9107
隱藏	-11.9107
頭面禮足在一面坐	-11.9107
彼有智者作	-11.9107
十月	-11.9107
平等解脫	-11.9108
出家受戒	-11.9108
跋耆人	-11.9108
而語彼	-11.9109
復過其上	-11.9113
念不錯亂	-11.9113
其婢	-11.9113
汝等不應	-11.9114
不趣涅槃	-11.9114
心不變易	-11.9114
中千世界	-11.9114
便坐	-11.9114
妙華	-11.9115
乃至得阿羅漢	-11.9116
邪慢	-11.9117
若有比丘依	-11.9117
無量善法	-11.9118
若他說	-11.9118
如是最小	-11.9119
至千	-11.9122
二恒河沙剎	-11.9123
而取滅度	-11.9123
神通具足	-11.9124
覆蔽	-11.9124
我離受	-11.9125
謂五欲功德	-11.9127
獨在	-11.9129
之功德	-11.913
不隨他	-11.913
長息	-11.9131
不復生死	-11.9132
於禪定	-11.9133
甚少	-11.9133
自悔過	-11.9135
是二俱	-11.9137
諸阿修羅見	-11.9137
無有差別	-11.9138
闍耶	-11.9139
大樓	-11.9141
汝等亦當	-11.9143
復何因	-11.9144
五藏	-11.9144
不高	-11.9144
我答彼	-11.9145
不知也	-11.9146
此族姓子	-11.9146
著一面	-11.9147
若本有	-11.9147
或復有人	-11.915
是名想	-11.915
此間人	-11.9151
生地諸比丘	-11.9151
者馬瑙	-11.9154
受諸苦	-11.9155
無猶豫	-11.9155
況汝	-11.9156
城七重	-11.9158
納衣	-11.9158
取婦	-11.9159
以正盡苦	-11.9159
跋提	-11.916
行已足	-11.9161
眼耳鼻舌身	-11.9161
若不解脫	-11.9161
重病	-11.9164
得於正法	-11.9165
白黑	-11.9165
凡夫地	-11.9166
口行善	-11.9166
骨髓	-11.9166
能造	-11.9167
起欲心	-11.9171
邊地	-11.9171
永處	-11.9171
我之所	-11.9172
象師	-11.9173
命終之後生	-11.918
壽盡	-11.9181
因提	-11.9182
大雲	-11.9182
未可	-11.9183
端汝	-11.9185
勿懷	-11.9187
譬如一切	-11.9188
以譬喻得解	-11.9189
乃至七日	-11.9189
是羅漢	-11.9189
水器	-11.919
天人中	-11.9191
得快樂	-11.9195
毀害	-11.9196
自防護	-11.9196
下流	-11.9197
其中或有	-11.9199
何由得	-11.9199
生華實	-11.92
起貢高	-11.92
說三種	-11.9201
以何方便	-11.9205
色盛陰	-11.9207
賢劫	-11.9207
毘舍羅婆如來	-11.9208
衣重	-11.9214
當鑿山	-11.9214
清淨太子	-11.9216
族姓子剃除鬚髮	-11.9217
無所犯	-11.9217
像如	-11.9217
得聞法	-11.9221
如大海	-11.9224
大果	-11.9224
有五事	-11.9224
若愛	-11.9225
令退	-11.9226
不善聚	-11.9226
工師受信施	-11.9227
得上人法	-11.923
國邑	-11.9231
若彼心	-11.9232
身身觀念處	-11.9233
不牢	-11.9235
修齋戒	-11.9236
化成	-11.9237
天銀	-11.9242
從他	-11.9242
幾時	-11.9244
起貪	-11.9245
當知是人	-11.9246
行作沙門	-11.9246
密行	-11.9247
多聞聖弟子心	-11.9248
於過去世	-11.9248
痛不可言	-11.925
不全	-11.9253
善知識者	-11.9255
餘者不	-11.9255
兵法	-11.9255
棄惡	-11.9258
道而去	-11.9258
幾因緣	-11.9259
常觀	-11.9262
八事	-11.9262
必信	-11.9262
所不及	-11.9265
王復問	-11.9271
有惱	-11.9272
供養奉事	-11.9275
不犯戒	-11.9277
轉更	-11.9277
意無恚	-11.9278
晝夜常	-11.9278
智慧第一	-11.9279
此法有	-11.9279
羅山	-11.9281
善親	-11.9281
不正知	-11.9287
死想	-11.9287
一尋	-11.9292
懷慚愧	-11.9294
何等為本	-11.9294
得至彼岸	-11.9297
寧得	-11.9297
亦不味	-11.9298
不自護	-11.9298
不滅者	-11.93
從馬	-11.9301
8)	-11.9301
志願	-11.9303
趣向於	-11.9304
我獨	-11.9306
我知如是	-11.9307
吹彼	-11.9307
修行布施	-11.9308
化樂	-11.9308
汝等各	-11.9311
深著	-11.9313
師徒	-11.9313
行遮	-11.9314
願樂	-11.9314
修力	-11.9315
賢聖智慧	-11.9316
斯則	-11.932
及與彼	-11.9322
白父母	-11.9322
法由	-11.9324
彼作如是	-11.9324
狂亂	-11.9325
三萬	-11.933
十肘	-11.933
起憍慢	-11.9331
所集	-11.9331
持風	-11.9332
人身中	-11.9332
因此事	-11.9334
尊者目連	-11.9337
過夜	-11.9338
涅槃界	-11.9339
聽正法	-11.9339
在天上	-11.9345
幻法	-11.9345
1)]	-11.9347
頗曾	-11.935
有五根	-11.935
道力	-11.9351
所謂正見	-11.9352
是聖弟子	-11.9357
5)]	-11.9359
烟火	-11.9362
方宜	-11.9364
在虛空	-11.9365
極令	-11.9369
聞世尊遊	-11.937
獲安隱	-11.9372
種種莊嚴	-11.9375
同等	-11.9376
其妻	-11.9379
正赤	-11.9379
乃至命終	-11.9381
一切有為	-11.9385
覩佛	-11.9386
不曉	-11.9388
一定	-11.939
師子王	-11.939
身諍	-11.9393
若於色	-11.9394
過咎	-11.9395
不得定	-11.9396
相從	-11.94
如轉輪王	-11.9404
通證	-11.9404
作如是說言	-11.9407
好布施	-11.9408
沙門所說	-11.9409
著鐵	-11.9411
起想著	-11.9414
七力	-11.9419
正經	-11.942
施佛	-11.9423
法寶	-11.9427
於心解脫	-11.9431
妙樂	-11.9432
十二萬里	-11.9433
祇樹	-11.9433
自知證	-11.9434
立名	-11.9435
猛熱	-11.9437
宮殿中	-11.944
暫忘	-11.9441
存在	-11.9442
終不相	-11.9443
掘地	-11.9445
枯樹	-11.9446
悉斷	-11.9453
有梵志名	-11.9457
苦種	-11.9459
色是無常	-11.9462
若不見	-11.9465
百千年	-11.9466
是善法	-11.9468
相應偈	-11.947
大寶藏	-11.9472
禮事供養	-11.9474
入宮	-11.9475
難提波羅陶師離受	-11.9475
終不可	-11.9475
有何緣	-11.9476
無往	-11.9477
剎利大姓	-11.9477
彼獄中	-11.9479
若彼眾生	-11.948
當供給	-11.9484
非智慧	-11.9485
非常苦	-11.9488
國政	-11.9489
乃至五百	-11.9491
樂處	-11.9494
於惡道	-11.9494
惡子	-11.9496
法爾	-11.9497
無堅實	-11.9501
孔中	-11.9502
經中	-11.9503
我既	-11.9505
便舉	-11.9511
諸有比丘	-11.9514
所教勅	-11.9516
於彼色	-11.952
彼林中	-11.9521
帝釋復	-11.9523
侍臣	-11.9523
奉上如來	-11.9523
知苦習	-11.9525
而有一	-11.9526
掉心	-11.9527
百八	-11.9529
作罪	-11.9533
無我見	-11.9534
於長夜	-11.9535
優婆塞眾	-11.9536
不喜悅	-11.9536
城中治化	-11.9536
截手	-11.9538
施福	-11.9541
阿難白世尊	-11.9546
無智慧	-11.9546
外人	-11.9547
其狀	-11.9547
真道	-11.9549
坐已定	-11.9551
釋提桓因告	-11.9551
觸緣	-11.9552
內入	-11.9552
法業	-11.9553
投水	-11.9556
佛於是	-11.9556
純是	-11.9561
孫陀利	-11.9562
敬奉	-11.9563
向所說	-11.9564
而語我	-11.9566
行苦行	-11.9567
不和	-11.9569
無有愁憂	-11.9571
若能如是	-11.9574
識離	-11.9574
於淨戒	-11.9574
我今以此	-11.9575
得寂滅	-11.9576
緣有生	-11.9577
眾前	-11.9578
迦葉告	-11.9585
如來功德	-11.9586
不作福	-11.959
目揵連比丘	-11.9593
諍論	-11.9595
其過	-11.9598
是則生	-11.96
不起此	-11.9602
受苦痛	-11.9603
諸不善法	-11.9603
六入處滅	-11.9608
信本	-11.961
作是事	-11.9611
姓名	-11.9611
命存	-11.9617
無婬	-11.9618
天雨不	-11.962
佛戒	-11.9623
斯法	-11.9624
夫人言	-11.9627
火起	-11.9628
為却	-11.9628
不怒	-11.9629
舍衛城中有	-11.9632
破碎	-11.9632
共汝	-11.9633
謂不殺生	-11.9634
郡國	-11.9634
八萬四千眾	-11.9635
世尊即便	-11.9638
有慳	-11.9639
出母胎	-11.9642
鞞陀提	-11.9642
誰當	-11.9643
欲數	-11.9643
諸世界	-11.9644
出過	-11.9645
當吐	-11.9646
有一子	-11.9647
後身	-11.965
無上正真之道	-11.9655
於禪	-11.9656
止止	-11.9657
肉眼	-11.9657
我為有	-11.9658
令他	-11.966
相對	-11.9661
之情	-11.9665
後宮	-11.9666
資財	-11.9667
我今要當作	-11.9667
得人身	-11.9668
第一夫人	-11.967
如今世尊	-11.967
詣其所	-11.9673
云何而得	-11.9678
見是我	-11.968
今世人	-11.9681
得名稱	-11.9682
此苦滅聖諦	-11.9687
無失	-11.969
所來處	-11.9691
聞如是法	-11.9691
至命欲	-11.9693
皆坐	-11.9695
平等施	-11.9695
莫令我	-11.9699
麤惡	-11.9703
六名	-11.9703
十二為	-11.9704
增盛	-11.9706
華氏	-11.9706
雲中	-11.9706
「『	-11.9709
所應行	-11.971
世尊著衣持鉢	-11.9711
眼界	-11.972
是不異	-11.9723
此三受	-11.9724
諸行不	-11.9731
我聲聞中	-11.9732
彼彼眾生	-11.9735
於一切處	-11.9738
無際	-11.9738
如車輪	-11.974
他婬	-11.9742
我如是說	-11.9744
速捨	-11.9746
金幢	-11.9746
憂喜	-11.9747
皆屬	-11.9749
見風塵	-11.975
乃名	-11.975
僧事	-11.9752
誰是	-11.9752
河流	-11.9754
此二事	-11.9754
更不生	-11.9755
滅此法	-11.9758
雞頭	-11.9763
色究竟天	-11.9764
毗婆尸	-11.9769
長流	-11.9772
恚怒	-11.9776
啟王	-11.9783
迴還	-11.9785
佛陀	-11.9786
我為本	-11.9787
覺觸	-11.9791
即除	-11.9792
應器	-11.9794
蜱肆王復	-11.9795
終不捨	-11.9797
王復念	-11.9801
為希有	-11.9805
心如真	-11.9807
諸河	-11.9807
能辦	-11.9808
緣識有名色	-11.9808
自在行	-11.9809
我說是	-11.9811
得出要	-11.9811
此則為	-11.9813
日暮	-11.9813
生意業	-11.9819
兜率陀	-11.982
百種	-11.9821
說禁戒	-11.9832
尊者摩訶迦	-11.9836
昇堂	-11.9838
於我前	-11.9842
在舍衛	-11.9845
法殿	-11.9847
拔祇國	-11.9847
脣口	-11.9848
且當	-11.9849
當雨	-11.985
汝等勿	-11.985
無量苦	-11.9852
人眾中	-11.9853
癩	-11.9854
如來力	-11.9855
果林	-11.9859
七不衰法	-11.986
人命極	-11.9861
充實	-11.9862
五千	-11.9865
來請	-11.9867
尸棄	-11.9872
緣行識	-11.9875
何緣所生	-11.9883
今問	-11.9886
斷除於	-11.9887
汝等長夜	-11.9887
匝	-11.9888
我等宜	-11.9889
高聲	-11.989
和上尼	-11.989
照耀	-11.9891
四衢道	-11.9891
僉	-11.9891
與無央數	-11.9891
見流	-11.9892
由延	-11.9892
▁1(	-11.9894
以此事	-11.9896
燭	-11.9898
維耶梨國	-11.9898
正安	-11.99
自給活	-11.99
至何所	-11.9902
鑿	-11.9902
年二十	-11.9903
者作如是觀	-11.9904
𦟛	-11.9905
著右肩上	-11.9907
為剎利	-11.9907
翫	-11.9908
共鬪諍	-11.9909
出門	-11.9909
施滿閻浮場凡夫	-11.9909
黎民	-11.9909
五體投地	-11.9912
撾捶	-11.9913
把	-11.9913
凍	-11.9914
有五種事	-11.9914
幽	-11.9914
得休息	-11.9914
篤	-11.9914
此於彼施	-11.9915
洋	-11.9915
或有一人不	-11.9915
郡國縣邑	-11.9916
辟	-11.9916
猥	-11.9916
奧	-11.9916
人壽十歲時	-11.9917
紺	-11.9917
景	-11.9918
嚙	-11.9918
藝	-11.9919
擔負	-11.9919
慈孝	-11.9919
銀鈴	-11.9919
阿㝹樓駄	-11.9919
金欄銀	-11.9919
伴黨	-11.992
其食多者	-11.992
水精欄琉璃	-11.992
造業	-11.992
純大苦聚	-11.992
費迦沙	-11.992
摩頭揵	-11.9921
冀	-11.9921
膩	-11.9921
􂌤	-11.9923
樂寂靜之處	-11.9923
綖	-11.9923
三十六物	-11.9923
林樹	-11.9923
屏	-11.9923
紺馬寶	-11.9924
不近境界	-11.9924
住平等見	-11.9924
辜	-11.9924
壁火焰至	-11.9924
媚	-11.9925
長衰永失	-11.9925
咄哉	-11.9925
絞	-11.9925
剃	-11.9926
偃	-11.9926
為魔波旬	-11.9926
縈	-11.9926
鄰	-11.9926
除世貪憂	-11.9926
兄弟二人	-11.9926
質多羅	-11.9927
嚮	-11.9927
貸	-11.9927
阿羅漢不如施	-11.9927
厨	-11.9927
卜	-11.9927
屋舍牆壁皆崩壞盡	-11.9927
乾沓惒	-11.9928
現如是相入此舍者	-11.9928
已生者令退	-11.9929
隨護斷	-11.9929
非汝所應	-11.9929
象形如	-11.9929
是識所住	-11.9929
便著種種具莊	-11.9929
主藏臣	-11.993
薰	-11.993
屑	-11.993
囊	-11.993
編	-11.9931
肩	-11.9931
苦無我想	-11.9931
即成沙門	-11.9931
不多聞愚癡凡夫	-11.9931
婆羅豆婆遮婆羅門	-11.9931
渠	-11.9931
金鬘女	-11.9932
還本國	-11.9932
鏤	-11.9932
珓	-11.9932
亦為有本	-11.9932
未度者	-11.9932
戟	-11.9932
鶴	-11.9932
周圍	-11.9933
未來現在無常	-11.9933
封戶	-11.9933
𤻀	-11.9933
他化自轉天	-11.9933
如是過去無常	-11.9933
弗于逮天下人	-11.9933
巧師	-11.9933
百六十八萬里	-11.9933
善男子捷疾具足	-11.9933
寸	-11.9933
從冥入冥	-11.9933
門開	-11.9933
生滅則老死滅	-11.9933
得最上慧觀法	-11.9934
手指	-11.9934
有慚有愧	-11.9934
欝多羅僧	-11.9934
滓	-11.9934
罷	-11.9934
乃至受於極嚴重苦	-11.9934
慇懃方便時救令滅	-11.9934
可敬可貴	-11.9935
汲	-11.9935
當自得之	-11.9935
群盲	-11.9935
往見佛	-11.9935
法者應如是答	-11.9935
宣傳	-11.9936
無罣礙	-11.9936
強梁	-11.9936
耳知聲	-11.9936
拘物頭	-11.9936
眠睡	-11.9936
轉於梵輪	-11.9936
餓	-11.9936
縱廣一由旬	-11.9936
主藏臣寶	-11.9937
當來亦受苦報	-11.9937
其人平生	-11.9937
如實了知	-11.9937
市買	-11.9937
誐	-11.9937
賴吒	-11.9937
行澡水畢	-11.9937
諱	-11.9937
壽五百歲	-11.9937
皆正知之	-11.9937
眠寤語默	-11.9937
四正勤	-11.9938
躍	-11.9938
鞞舍	-11.9938
煖	-11.9938
住已解脫	-11.9938
計挍	-11.9938
成佛未久	-11.9939
喧閙	-11.9939
能成	-11.9939
苦習盡道	-11.9939
呻吟	-11.9939
林樹間	-11.9939
齧	-11.9939
施持戒人	-11.9939
少年	-11.9939
己身壞死	-11.9939
箭毛	-11.994
正遍知	-11.994
灰土	-11.994
色緣生眼識	-11.994
焚	-11.994
獲大果	-11.994
即如其像三昧	-11.994
悲憹	-11.994
偏露右肩	-11.994
有形之類	-11.994
隸	-11.994
皺	-11.994
頂戴	-11.9941
隆	-11.9941
梵志瞿默目揵連	-11.9941
輕軟	-11.9941
我不見於過去及今現在而有別異	-11.9941
息心靜默	-11.9942
價直	-11.9942
向於善趣	-11.9942
未知智	-11.9942
金幢二婆羅門	-11.9942
懊憹	-11.9942
諸等心天	-11.9942
遶三匝而去	-11.9942
施諸窮乏	-11.9942
往詣尊者舍梨子所	-11.9943
瀉	-11.9943
羯	-11.9943
究羅帝	-11.9943
序	-11.9943
住於天住	-11.9943
向涅槃之道	-11.9943
屈申	-11.9943
修念覺意	-11.9943
改往修來	-11.9943
滿呼王子	-11.9943
等正覺得先佛最勝處	-11.9943
八十年	-11.9944
比丘眾前敷座而坐	-11.9944
合掌問訊	-11.9944
擒	-11.9944
敷尼師壇	-11.9944
執刀自殺	-11.9944
為天為人	-11.9944
頭衣燒	-11.9944
熱鐵地上	-11.9944
人在其上結加趺坐	-11.9944
親覲	-11.9944
謂忿諍故	-11.9944
六入處集	-11.9944
修擇法覺分	-11.9944
不望其報	-11.9944
專注	-11.9944
深坑	-11.9944
生無不死	-11.9945
某甲	-11.9945
若干弊惡	-11.9945
枝葉四布五十由旬	-11.9945
捨心住正念正智	-11.9945
欠拏太子	-11.9945
壽命極短	-11.9945
四者識食	-11.9946
荷	-11.9946
一乘道淨	-11.9946
見此眾生死時	-11.9946
擿	-11.9946
金粟	-11.9946
輦輿	-11.9946
迦毘羅	-11.9946
於夏四月	-11.9946
盲無目	-11.9946
婆句梵天	-11.9946
阿支羅迦葉	-11.9946
以次	-11.9946
若干好法	-11.9947
須毘羅	-11.9947
我為其說	-11.9947
田地	-11.9947
摩睺羅伽	-11.9947
貧匱	-11.9947
施四方一切持鉢僧食	-11.9947
是謂真人法	-11.9947
牟	-11.9947
勸導	-11.9947
誦法句	-11.9947
㷿摩天	-11.9947
不癡律	-11.9948
六內入處	-11.9948
不饒益苦	-11.9948
瞿波離比丘	-11.9948
在如來前	-11.9948
我曾生彼	-11.9948
S	-11.9948
搏食	-11.9948
積至于膝	-11.9948
當廣演布	-11.9949
知此漏滅道如真	-11.9949
壽八萬歲	-11.9949
有人來問	-11.9949
垂覆五十由旬	-11.9949
繫閉	-11.9949
命終得生晃昱天中	-11.9949
娑婆世界	-11.9949
甚可畏	-11.9949
懷忿	-11.995
猶若天華	-11.995
優樓頻螺迦葉	-11.995
萬比丘皆得阿羅漢	-11.995
失譯人名	-11.995
為欲愛所	-11.995
謨	-11.995
如是正心解脫	-11.995
我不但有是法	-11.995
不可療治	-11.995
不可稱記	-11.995
高一由旬	-11.995
受生色像寶	-11.995
有異比丘來詣佛所	-11.995
此外更無	-11.995
澡浴遊戲	-11.995
演布	-11.9951
飛在空中	-11.9951
貪瞋癡	-11.9951
善見山	-11.9951
尊者弗迦邏娑利	-11.9951
故不如我	-11.9951
諳	-11.9951
我心中不生疑患	-11.9952
阿修囉	-11.9952
微劣	-11.9952
何所見	-11.9952
生死之海	-11.9952
無數劫事	-11.9952
詩	-11.9952
遍布	-11.9952
於現法中自身作證	-11.9953
修習安那般那念	-11.9953
從第四禪起	-11.9953
識住增長	-11.9953
隨順於法	-11.9953
巢	-11.9953
唯有一子	-11.9953
皮緩	-11.9953
齊此不過	-11.9953
雜色車園	-11.9953
諸小國王	-11.9953
必有二處真諦不虛	-11.9953
則得苦邊	-11.9953
輕躁	-11.9953
魔王眷屬	-11.9953
如理宣說	-11.9953
廣果天	-11.9953
如優曇鉢花	-11.9953
嫁女	-11.9954
翅甯梵志	-11.9954
說梵世法	-11.9954
不知厭足	-11.9954
調亂	-11.9954
輕舉	-11.9954
不羞不	-11.9954
五道大神	-11.9954
挍飾	-11.9955
隨所聞法	-11.9955
改過	-11.9955
尊者真迦旃延	-11.9955
非生彼非非生彼	-11.9955
以七寶	-11.9955
各次第坐	-11.9955
優毘迦葉	-11.9956
入滅正受	-11.9956
魔王波旬	-11.9956
前脚	-11.9956
不謗如來	-11.9956
枯死	-11.9956
師子大將	-11.9956
覺苦覺者	-11.9956
諸長老輩	-11.9956
諸有智者	-11.9956
食具	-11.9956
如來非終非不終	-11.9956
廣說如前	-11.9956
而不懈怠	-11.9956
極為端正	-11.9957
光明普照	-11.9957
生餘意生天中	-11.9957
斷惡不善	-11.9957
巾	-11.9957
河兩岸	-11.9958
識盛陰	-11.9958
道德弟子	-11.9958
令我失定而滅	-11.9958
提頭賴吒	-11.9958
澡罐	-11.9958
光曜	-11.9958
汝亦應爾	-11.9958
於國於身妻子皆無他	-11.9958
退走	-11.9958
貧乏	-11.9958
王頂生	-11.9958
污染	-11.9958
掃灑	-11.9958
無慙無愧	-11.9959
永無餘	-11.9959
四三二	-11.9959
到已在前	-11.9959
還捨法服	-11.9959
如是三請	-11.9959
宗主	-11.9959
飲食知量	-11.9959
大燒炙	-11.9959
六識	-11.9959
無有所乏	-11.9959
利斧	-11.996
破骨	-11.996
今在何處	-11.996
是謂尊者薄拘羅	-11.996
見聞疑罪	-11.996
瑁	-11.996
一日之中	-11.996
前禮佛足	-11.996
不移動心解脫	-11.996
南方去此過	-11.996
結所繫法	-11.9961
遠遊	-11.9961
能得出要	-11.9961
宣示	-11.9961
異學三部諷誦	-11.9961
時有天子名曰	-11.9961
如實不知	-11.9961
頞浮陀	-11.9962
地主大王	-11.9962
掉悔蓋	-11.9962
平滿	-11.9963
世尊默然而許	-11.9963
及四種軍	-11.9963
復聽我說	-11.9963
邦土	-11.9963
胎生龍	-11.9963
微雨	-11.9963
世已來父	-11.9963
還至佛所	-11.9964
漏盡阿羅漢終不	-11.9964
醉象	-11.9964
隨汝所問	-11.9965
供具	-11.9965
慈母	-11.9965
戒德具足	-11.9965
如實而知之	-11.9965
起沫	-11.9965
不復更求	-11.9966
一為直見	-11.9966
陀娑比丘	-11.9966
持僧伽梨	-11.9967
涼冷	-11.9967
將養	-11.9967
為新學	-11.9967
化生龍	-11.9967
幻師	-11.9968
傷歌邏摩納	-11.9968
愚癡憍慢	-11.9968
以自娛樂	-11.9968
慢無間等	-11.9968
三界知如真	-11.9969
將士	-11.9969
多聞聖弟子寧於中見我	-11.9969
轉增轉	-11.9969
眾多人	-11.997
受罪眾生	-11.997
即燒其	-11.997
成就十一法	-11.997
毛孔	-11.997
拔濟	-11.997
作此語已	-11.997
如屈伸臂頃	-11.9971
此則名為	-11.9971
信樂出家	-11.9971
而令眾生	-11.9971
或居高巖	-11.9971
明珠	-11.9972
如實知苦滅	-11.9972
求作沙門	-11.9973
終不得離	-11.9973
當於彼時	-11.9974
在佛前坐	-11.9974
證者證	-11.9974
當遠離之	-11.9974
色界天身	-11.9974
隨汝所欲	-11.9974
我亦知之	-11.9975
病差	-11.9977
占相	-11.9977
專正	-11.9977
福力	-11.9977
從因緣生	-11.9977
我於路中見一大身	-11.9977
於此五欲功德	-11.9977
尊卑	-11.9977
受籌	-11.9978
二正士	-11.9978
不調者	-11.9978
此得福多	-11.9979
若耳聞聲	-11.9979
佛住舍衛國	-11.998
復以何緣	-11.998
烟起	-11.9981
火神	-11.9981
自不殺生	-11.9982
精勤學	-11.9982
縛束	-11.9983
內自思惟	-11.9983
不害他	-11.9983
所作惡業	-11.9983
隱處	-11.9983
者所斷	-11.9983
唯畏	-11.9984
論士	-11.9984
以放逸故	-11.9985
大海之中	-11.9985
水灌	-11.9985
罪人在中	-11.9985
更不復生	-11.9986
難可救	-11.9987
常行乞食	-11.9988
離邪見	-11.9988
味甘	-11.9988
欲界天身	-11.9989
極堅	-11.9989
苦切	-11.9989
曼陀吉尼池	-11.9989
娑羅林中	-11.9991
空虛	-11.9991
觸嬈眾生	-11.9991
應須	-11.9992
暮食	-11.9992
內門	-11.9992
釋梵	-11.9992
纏裹	-11.9992
入其舍	-11.9993
入他家	-11.9994
便得光明而見色	-11.9994
沙門釋種子	-11.9994
了叫喚	-11.9995
西向	-11.9996
短命	-11.9996
善能說法	-11.9996
行於梵行	-11.9996
若尊者薄拘羅	-11.9997
不轉趣涅槃	-11.9997
六入滅	-11.9997
調馬師	-11.9997
以清淨心	-11.9998
七重牆壁	-11.9998
常求	-11.9998
洗手足	-11.9998
極知足	-11.9999
死怖	-11.9999
不善戒	-11.9999
不涌	-11.9999
短壽	-11.9999
著意命終	-12
依正思惟	-12
是謂第八	-12.0001
南向	-12.0001
記論	-12.0001
與汝共	-12.0002
地獄卒	-12.0002
往反	-12.0003
意入處	-12.0003
山石	-12.0003
佛告波斯匿王	-12.0004
神化	-12.0004
地理	-12.0006
於現在世	-12.0006
皆在是	-12.0006
若有善男子	-12.0007
溪水	-12.0008
不堪能離	-12.0009
尊者羅云	-12.0009
共阿修羅	-12.001
無量無數	-12.0011
作身業	-12.0011
上高	-12.0011
五句	-12.0011
養眾	-12.0012
無所著故	-12.0014
極盛	-12.0015
繫之	-12.0015
信心清淨	-12.0015
朝食	-12.0015
假令	-12.0018
須彌山上	-12.0019
雖小	-12.0021
供養承事	-12.0021
聞某	-12.0022
香𧂐	-12.0022
如當斷	-12.0023
如此之人	-12.0024
大宮殿	-12.0025
奉命	-12.0025
行如是道	-12.0026
金門	-12.0027
是名聖弟子	-12.0028
不愛樂	-12.0028
能忍之	-12.003
易得	-12.0031
異學梵志	-12.0031
志惟	-12.0031
昔我	-12.0031
儻能	-12.0032
諸賢聖	-12.0033
汝當受持	-12.0033
亦得涅槃	-12.0033
無利益	-12.0034
眼入	-12.0037
父子	-12.0037
無堅固	-12.0038
藥叉	-12.0038
得是處	-12.0039
堂觀	-12.0039
唯佛世尊	-12.0039
龍神	-12.004
彼菩薩摩訶薩	-12.0041
在中住	-12.0047
斯處	-12.0047
若行者有	-12.0048
便從坐起	-12.0049
便得生天上	-12.0049
相揩	-12.0049
𧗪也	-12.005
毗婆尸菩薩	-12.0057
善宿比丘	-12.0057
世間有邊	-12.0057
修習梵行	-12.0057
為何義	-12.0058
不得究竟智	-12.0058
語彼比丘	-12.0059
晝食	-12.0059
倍復瞋恚	-12.006
依倚	-12.0061
以此因緣具白	-12.0061
生忉利天	-12.0061
到佛	-12.0062
想陰	-12.0062
是謂成就第	-12.0063
一倍	-12.0063
此諸善功德	-12.0063
次到	-12.0063
於過去劫	-12.0064
胎生金翅鳥	-12.0066
從口出	-12.0068
若未生	-12.0068
便得歡喜	-12.0068
須陀味	-12.0069
或恐	-12.0071
供養恭敬	-12.0071
告尊者阿難	-12.0072
無上清淨	-12.0074
寶藏如來	-12.0074
得神通	-12.0075
無所依	-12.0077
雜穢	-12.0078
如是等事	-12.0078
盜心	-12.0078
見世尊默然受請	-12.0081
如斯等	-12.0081
別坐	-12.0082
能得消	-12.0083
此三種	-12.0083
有命終者	-12.0086
若愚癡人	-12.0087
頭面禮	-12.0088
令昇	-12.0089
汝今所說	-12.0091
欲見者	-12.0093
常好	-12.0095
給施	-12.0095
化樂諸天	-12.0096
七重寶	-12.0098
慢使	-12.0099
行慈比丘	-12.01
具足滿	-12.01
方等	-12.0102
瑙桄	-12.0103
苦是苦	-12.0104
慧之所	-12.0104
廣度	-12.0105
無餘滅	-12.0105
不可親	-12.0105
思欲	-12.011
安定	-12.0111
思惟無常想	-12.0111
遣人	-12.0114
叫喚大地獄	-12.0114
入有想無想處	-12.0114
賢聖法中	-12.0115
為佛弟子	-12.0116
於祇洹	-12.0117
乃至天人	-12.0119
散滅	-12.0121
墮三惡道	-12.0122
攻伐	-12.0123
此二俱	-12.0124
無慚愧	-12.0125
世尊坐已	-12.0125
梵志在無事處	-12.0129
者內為	-12.0132
前際	-12.0132
成立	-12.0133
四向	-12.0135
取要	-12.0135
作誓願	-12.0135
大火聚	-12.0141
相屬	-12.0141
各相謂	-12.0144
諸闇冥	-12.0144
頌其	-12.0146
白光	-12.0149
修不放逸	-12.0151
施羅	-12.0151
內淨	-12.0151
道弟子為	-12.0152
經行處	-12.0152
為微細	-12.0153
即放	-12.0155
雨七寶	-12.0156
常歡喜	-12.0156
水牛	-12.0157
道成	-12.016
婆羅門尼	-12.0161
五趣	-12.0161
老死滅道跡	-12.0162
當受教	-12.0163
如二十	-12.0164
語迦葉	-12.0164
諸夫人	-12.0165
無父	-12.0165
亦熟	-12.0165
殿前	-12.0167
捨置	-12.0169
彼如是行	-12.0171
鳥獸	-12.0173
毘沙	-12.0173
不離貪	-12.0173
鐵釘	-12.0174
二為不	-12.0179
捨離一切	-12.0181
沙門瞿曇所說如	-12.0182
止息說	-12.0186
我於彼時	-12.0189
善事	-12.0191
更互相	-12.0192
樹根	-12.0193
度疑	-12.0194
多饒益	-12.0197
說是言	-12.0199
聲聞中第一	-12.0202
6)]	-12.0203
都無所	-12.0203
可行者	-12.0205
有四聖諦	-12.0206
右脇生	-12.021
迦葉報	-12.021
俗人	-12.0217
既入	-12.0219
何等沙門	-12.0219
同義	-12.0224
皆如上說	-12.0225
一切入處	-12.0225
兩脚	-12.023
有洲	-12.0231
眾華	-12.0231
議論	-12.0231
解釋	-12.0232
常定	-12.0233
八道	-12.0234
我亦不見	-12.0234
以翅搏	-12.0235
白諸上座	-12.0238
在門外	-12.0238
慧具足	-12.0239
不可行者	-12.0239
行如是者	-12.024
受苦樂	-12.024
合集	-12.0241
忉利天人	-12.0242
絕此	-12.0243
一切世界	-12.0243
多足	-12.0247
三者多	-12.0248
蠕動之類	-12.0251
立戒	-12.0252
勝閻浮提	-12.0253
汝惡魔	-12.0253
能化	-12.0254
有鬼神	-12.0257
不復得	-12.0258
力成就	-12.0261
因他	-12.0263
如是南方	-12.0267
壘	-12.0271
而進	-12.0273
縛所縛	-12.0274
力具足	-12.0274
十八種	-12.0275
必定	-12.0276
六方	-12.0277
意甚	-12.0277
彼白狗	-12.0278
事務	-12.0279
斯皆	-12.0279
作善惡	-12.0283
習諦	-12.0283
若比丘自	-12.0283
我於一時	-12.0285
往見世尊	-12.0287
說正法	-12.0289
得通	-12.0289
謂邪見	-12.029
式佛	-12.029
諸師	-12.0294
有果報	-12.0297
由何而	-12.0297
汝等輩	-12.0297
屋中	-12.0298
六神通	-12.03
彼壽轉	-12.0302
生大歡喜	-12.0306
因果	-12.0306
與人說法	-12.0309
從此而	-12.0317
或截	-12.0319
無恐怖	-12.0319
兩法	-12.0319
如父	-12.0328
吹水	-12.0328
重於戒	-12.0329
至六	-12.0334
大驚怖	-12.0341
百千萬	-12.0342
叫喚地獄	-12.0345
為障	-12.035
所從來生	-12.0353
解悟	-12.0355
聞是事	-12.0355
如是句	-12.0355
唯作	-12.0356
善聚	-12.0364
如是趣向	-12.0367
非兄弟	-12.0368
所稱歎	-12.0368
況復餘	-12.0369
有漏法	-12.0374
已得須陀洹	-12.0375
適欲	-12.0375
故號	-12.0376
轉更增	-12.0376
十六字	-12.0382
復勅	-12.0382
還所止	-12.0384
末後	-12.0385
生苦惱	-12.0388
想是我	-12.0391
至舍衛城	-12.0393
入池	-12.0398
十想	-12.0399
自惟	-12.04
一乘	-12.0401
觸生愛	-12.0402
起惡心	-12.0404
復以何	-12.0405
乃至種種	-12.0409
是四事	-12.0414
順法	-12.0417
依戒	-12.0419
離欲貪	-12.0419
人物	-12.0423
謂有三	-12.0425
恚想	-12.0426
此法無	-12.0429
其第三	-12.0435
如所聞	-12.0436
起鬪諍	-12.0438
四諦法	-12.044
著衣裳	-12.0441
彼外道	-12.0443
吾聞	-12.0445
身是也	-12.0445
喻如	-12.045
離麤言	-12.0451
緣本	-12.0451
服食	-12.0452
不念欲	-12.0453
三十三天眾	-12.0454
惱熱	-12.0456
4)	-12.0458
不為色	-12.0463
與汝說	-12.0465
一切眾生皆	-12.0467
竭盡	-12.0467
永離於	-12.0468
便數	-12.047
六更	-12.047
奉佛	-12.0471
何等名為	-12.0475
世間無邊	-12.0475
不戲	-12.0476
爾所福	-12.0482
可愛念	-12.0482
最重	-12.0483
萬倍	-12.0485
作善行	-12.0488
日來	-12.049
於世尊前	-12.0493
在他	-12.0493
寧可更增	-12.0497
衣樹	-12.0498
四為直	-12.0499
母人	-12.0501
行般涅槃	-12.0503
近惡知識	-12.051
共相見	-12.0514
不漏	-12.0514
極難	-12.0521
諸龍王	-12.0521
於一日中	-12.0521
有慈心	-12.0522
作如此	-12.0523
火皆	-12.0523
儻	-12.0526
污戒	-12.0527
天界	-12.0528
行忍辱	-12.0531
神足飛	-12.0532
一童子	-12.0536
不衰	-12.0537
又起	-12.054
祖父	-12.054
母乳	-12.0543
愛己	-12.0543
中治化	-12.0543
復何因緣	-12.0544
憂悲苦	-12.0545
故云	-12.0548
還向	-12.0551
大慢	-12.0555
巧方便	-12.0562
結心	-12.0564
離染	-12.0566
為不衰	-12.0567
得真諦	-12.0568
當願我	-12.0568
子婦	-12.0571
域	-12.0574
念覺意	-12.0574
悉盡	-12.0574
癡盡	-12.0576
無欲心	-12.0576
集諦	-12.0577
天師	-12.058
廣解	-12.0586
除處	-12.0591
世有佛	-12.0592
火聚	-12.0592
而發	-12.0594
勿起是	-12.0597
終無此	-12.0607
義曰	-12.0611
欲聞法	-12.0612
諸天宮殿	-12.0613
敬佛	-12.0613
淨業	-12.0616
要當至	-12.0617
少智	-12.062
觀捨	-12.0622
起憂	-12.0622
盡智	-12.0624
飯佛	-12.0624
速證涅槃	-12.0624
縈髮目揵連	-12.0626
好樂	-12.063
草座	-12.063
苦更樂	-12.063
暫出	-12.0633
三界中	-12.0639
不類	-12.0644
不生如是	-12.0645
尚未	-12.0645
生取著	-12.0648
盡苦邊	-12.0653
在先	-12.066
第一之德	-12.0661
實有是	-12.0661
遊王舍城	-12.0664
自覆	-12.067
觀他	-12.0672
異學鞞摩那修	-12.0672
生其中	-12.0673
滅壞	-12.0673
賢劫中	-12.0673
波羅㮈㮈	-12.0676
顛倒想	-12.0681
所請	-12.0681
獲其福	-12.0684
若復見	-12.0686
十九字	-12.069
王聞此語	-12.0698
是名善男子	-12.0699
優婆	-12.0701
天尊	-12.0708
知彼法	-12.0708
遍身	-12.0714
當知此人	-12.0716
我今當以	-12.072
緣愛有受	-12.0724
十二年	-12.0726
一銅釜	-12.0729
觀諸法	-12.0732
不真正	-12.0736
能有所	-12.0738
十一者	-12.074
應得道	-12.0745
竪之	-12.0745
二種人	-12.0748
迦葉天子	-12.075
善法已生	-12.0751
所不愛	-12.0753
水底	-12.0753
阿摩勒	-12.0757
真實說	-12.0761
異欲	-12.0761
默自思	-12.077
彼上座	-12.0771
以何故	-12.0779
其腹	-12.0781
諸寶	-12.0781
著外	-12.0781
即日	-12.0782
轉輪聖王出現世	-12.0783
心存	-12.0788
聖默然	-12.0789
堅持	-12.0791
最上最勝	-12.0792
恭敬尊重	-12.0792
轉還	-12.0793
汝自知	-12.0797
令諸眾生	-12.0797
宮人	-12.0798
生男	-12.0798
等當善受持	-12.0799
畜生苦	-12.08
夜摩諸天	-12.08
世人所不	-12.0801
無欲想	-12.0802
大夫	-12.0803
拘尸那竭	-12.0804
有眾生生	-12.0805
上下遍	-12.0806
以致	-12.0806
大石	-12.0806
為大苦	-12.0806
為真諦	-12.0808
大闇冥	-12.0808
乃至枝葉	-12.081
有大力	-12.0816
根香	-12.0818
成就第一	-12.0819
會說經	-12.0825
右脇	-12.0825
七歲	-12.0828
相憎	-12.083
天光明	-12.083
知捨如真	-12.0831
住不遠	-12.0833
法緣生	-12.0834
王臣	-12.0836
二千里	-12.0836
長者本	-12.0837
各隨所	-12.0838
十五字	-12.0839
身心受	-12.084
能捨離	-12.0841
更增	-12.0843
我為汝等	-12.0848
稱一處知	-12.0848
外身身觀	-12.085
共更增行善	-12.0851
陰陽	-12.0854
鉢囉	-12.0856
慎無	-12.0858
毘摩質多羅阿修羅	-12.0858
自損	-12.086
母真正	-12.0864
過是已有	-12.0868
便以手	-12.087
稱一處見	-12.0871
自調伏	-12.0871
當來無	-12.0874
願令	-12.0876
唯有如來	-12.0877
衢	-12.0877
阿吒吒	-12.0878
帝釋答言	-12.0878
數力	-12.0879
受佛教	-12.088
多聞聖弟子作如是	-12.088
置鐵	-12.0881
具足修行	-12.0881
增伺而	-12.0888
斯非摩訶衍	-12.0888
數百	-12.089
何因得	-12.0892
阿那邠祁	-12.0892
閑靜之處	-12.0892
我與世	-12.0893
棺斂	-12.0894
偷婆	-12.0895
曀	-12.0896
如妹	-12.0896
捫象得	-12.0896
諸宮殿	-12.0896
5)	-12.0897
軟根	-12.0901
仗	-12.0902
癡愛	-12.0902
妓	-12.0904
佛弟子婆離	-12.0906
有何過	-12.0908
無有糠糩	-12.0908
從是本從是習從是因緣	-12.0908
能却	-12.0909
雄猛	-12.0911
痰	-12.0911
鐵臼	-12.0912
余	-12.0912
充遍	-12.0912
受集道跡	-12.0912
是不非	-12.0912
比丘方便所應	-12.0913
綺	-12.0913
婢婦	-12.0913
寇	-12.0914
檻	-12.0914
撓	-12.0915
入園	-12.0915
刀兵劫	-12.0915
偶	-12.0916
繁	-12.0916
暴雨	-12.0916
隨意而食	-12.0916
儒	-12.0917
喙	-12.0917
觝	-12.0917
號咷叫喚	-12.0917
救濟	-12.0917
實意居士	-12.0918
題	-12.0918
環	-12.0919
琉璃欄水精	-12.0919
銀欄金	-12.0919
一闡提	-12.0919
瓔	-12.0919
無量無限	-12.092
猴	-12.0921
年百二十	-12.0921
奕	-12.0921
釿	-12.0921
弗婆提	-12.0921
有此二	-12.0922
卑陋	-12.0922
收縛	-12.0922
以五繫縛	-12.0922
正身正念	-12.0923
比丘不放逸慧	-12.0923
堆壓	-12.0924
尼犍若提子	-12.0924
右脇臥	-12.0924
長阿含	-12.0924
得果報	-12.0924
滅盡作證	-12.0924
柔弱	-12.0924
在彼居止	-12.0924
拒	-12.0925
賓伽羅	-12.0925
正法殿	-12.0925
併取	-12.0925
亦知識	-12.0925
千兩金	-12.0925
眾多比丘集於食堂	-12.0925
賓自	-12.0925
意亦不在	-12.0925
長爪	-12.0926
威勢	-12.0926
等正覺出現於世	-12.0926
被法服	-12.0926
如法以道求	-12.0926
刀劒	-12.0926
水精鈴	-12.0926
為諸善本	-12.0927
副	-12.0927
月盛滿時	-12.0927
冬夏	-12.0927
芬馥	-12.0927
乃至離邪見	-12.0927
攝受心住	-12.0927
商主外道出家	-12.0928
第四群鹿	-12.0928
嗣	-12.0928
得上穌息	-12.0928
閑靜處	-12.0928
今為汝說	-12.0928
忌	-12.0928
祀場	-12.0929
聖輔臣	-12.0929
一一門	-12.0929
不欲見	-12.0929
月天宮殿	-12.0929
市易	-12.0929
壇	-12.0929
邦	-12.0929
瞋恚責數	-12.0929
般泥曰	-12.0929
第三群鹿	-12.093
從四方來	-12.093
一劫有餘	-12.093
佉提羅迦	-12.093
罽賓	-12.0931
撥	-12.0931
旃檀	-12.0931
四部之兵	-12.0931
如是純大苦聚集	-12.0931
少色行為身	-12.0931
數千萬歲乃竟	-12.0931
如影隨形	-12.0931
閱叉	-12.0931
嗚	-12.0931
沾	-12.0931
奉獻	-12.0932
穀貴	-12.0932
為魔所縛	-12.0932
妬	-12.0932
得多可噉食	-12.0932
仍	-12.0932
邁	-12.0932
四交道	-12.0932
七黑山	-12.0932
受滅則有滅	-12.0932
新學比丘	-12.0932
如實無我	-12.0933
維摩質阿須倫	-12.0933
施與沙門婆羅門	-12.0933
約誓	-12.0933
王童子耆婆先那	-12.0933
幡蓋	-12.0933
不愚不癡	-12.0933
當爾之時	-12.0933
慘	-12.0933
他方世界	-12.0933
敘	-12.0934
問已不知	-12.0934
種種淨美飲食	-12.0934
苦樂自作	-12.0934
億波提	-12.0934
六外入處	-12.0934
度疑彼岸	-12.0934
鏡面王	-12.0934
[...]
