<unk>	0
<s>	0
</s>	0
之	-4.26697
而	-4.68806
臣	-4.73305
以	-4.84639
者	-5.1153
(	-5.13
/)	-5.23556
其	-5.27335
於	-5.28998
則	-5.31133
為	-5.35503
有	-5.41762
也	-5.46632
不	-5.70444
一	-5.91789
自	-5.93361
無	-6.04068
等	-6.04388
及	-6.0707
今	-6.07344
與	-6.09176
人	-6.09524
至	-6.12332
此	-6.20681
事	-6.219
又	-6.2354
所	-6.25554
矣	-6.25937
將	-6.29492
大	-6.32393
行	-6.32409
如	-6.33975
在	-6.3473
或	-6.35886
上	-6.36147
官	-6.41293
若	-6.41404
使	-6.45249
亦	-6.46752
用	-6.47831
當	-6.4803
故	-6.5041
得	-6.50808
時	-6.51253
已	-6.51458
▁	-6.52695
可	-6.53456
雖	-6.54462
皆	-6.54905
王	-6.57564
各	-6.59155
令	-6.60215
言	-6.60875
是	-6.61258
非	-6.63129
即	-6.63516
必	-6.63613
然	-6.63848
兵	-6.64204
陛下	-6.64759
中	-6.65248
出	-6.68536
下	-6.69228
曰	-6.69922
知	-6.71246
見	-6.71411
復	-6.74201
朕	-6.74965
因	-6.75162
未	-6.76044
乎	-6.79902
内	-6.81879
公	-6.82029
天下	-6.8222
乃	-6.82621
民	-6.83288
明	-6.8354
正	-6.84052
日	-6.8457
應	-6.85328
且	-6.85454
欲	-6.85531
三	-6.85799
多	-6.85867
實	-6.8603
外	-6.86296
道	-6.87606
既	-6.91689
惟	-6.94689
分	-6.94769
安	-6.95686
二	-6.9781
同	-6.98426
文	-6.98456
朝廷	-6.98536
成	-7.00227
方	-7.01479
不能	-7.02542
地方	-7.02606
除	-7.02631
/	-7.02776
入	-7.0436
重	-7.05033
名	-7.05218
前	-7.06093
夫	-7.06186
但	-7.06225
并	-7.08718
相	-7.0904
本	-7.09786
以為	-7.09856
之人	-7.10585
後	-7.10929
宜	-7.11349
取	-7.11867
先	-7.12281
天	-7.13607
議	-7.13654
爲	-7.13669
州	-7.13909
于	-7.14014
請	-7.14254
守	-7.15133
爾	-7.15537
命	-7.15593
奏	-7.15605
生	-7.15669
所以	-7.15945
立	-7.16701
法	-7.17213
心	-7.17807
查	-7.17819
子	-7.18078
國	-7.1862
地	-7.18917
四	-7.20487
定	-7.20828
發	-7.20912
能	-7.21065
過	-7.21745
不可	-7.22062
開	-7.22071
經	-7.23001
從	-7.23509
聞	-7.23878
陳	-7.24802
進	-7.25296
盡	-7.26203
張	-7.26441
馬	-7.26585
兩	-7.26686
凡	-7.272
将	-7.27307
數	-7.27343
逺	-7.27553
常	-7.27767
長	-7.27973
據	-7.28019
舉	-7.28549
家	-7.286
去	-7.29429
難	-7.30017
深	-7.30282
縣	-7.30704
平	-7.31447
何	-7.31472
合	-7.31728
俱	-7.32242
著	-7.32546
思	-7.32722
遂	-7.33361
作	-7.33589
近	-7.34661
論	-7.35379
處	-7.35774
加	-7.36267
少	-7.36568
軍	-7.36882
制	-7.37016
再	-7.37215
水	-7.37379
通	-7.37463
理	-7.37486
計	-7.37519
尚	-7.3801
山	-7.38245
禮	-7.38574
謂	-7.39893
仍	-7.40654
五	-7.40672
李	-7.41374
稱	-7.41503
可以	-7.41941
書	-7.42315
止	-7.42501
我	-7.42627
任	-7.4287
年	-7.42917
)	-7.43045
親	-7.43525
小	-7.43586
居	-7.45352
河	-7.45523
致	-7.46214
更	-7.46329
到	-7.46659
治	-7.46791
來	-7.47002
巳	-7.47203
如此	-7.47336
共	-7.4742
扵	-7.48876
焉	-7.49456
歸	-7.49914
徳	-7.50328
備	-7.5057
主	-7.50574
報	-7.50777
求	-7.51324
易	-7.52451
並	-7.52491
奉	-7.52521
始	-7.53579
固	-7.53723
受	-7.54476
大臣	-7.54576
至於	-7.54581
原	-7.54583
問	-7.55074
衆	-7.55304
善	-7.5534
世	-7.55829
收	-7.56189
省	-7.56275
隨	-7.56771
哉	-7.5685
之事	-7.57069
由	-7.57117
州縣	-7.57172
司	-7.57766
髙	-7.57926
廣	-7.57961
係	-7.58186
意	-7.58202
甚	-7.58495
服	-7.59105
利	-7.59132
恐	-7.59398
不得	-7.5945
賊	-7.59625
諸	-7.59945
耳	-7.60366
城	-7.6068
間	-7.6099
府	-7.6128
不敢	-7.62281
是以	-7.62307
猶	-7.62404
起	-7.62475
彼	-7.63069
失	-7.63396
務	-7.64181
誠	-7.64306
置	-7.64472
屬	-7.64966
朝	-7.65289
差	-7.65404
益	-7.65655
周	-7.65658
身	-7.65866
興	-7.66865
新	-7.66893
修	-7.67145
力	-7.67518
改	-7.67684
清	-7.67691
私	-7.67832
直	-7.67879
之心	-7.68148
學	-7.68383
初	-7.68518
被	-7.68741
謀	-7.69045
每	-7.69083
兼	-7.69332
交	-7.69826
義	-7.70369
錢	-7.70606
而不	-7.70965
士	-7.71497
南	-7.71511
該	-7.71888
委	-7.72378
信	-7.72603
敵	-7.72814
動	-7.73538
之後	-7.73691
降	-7.74049
詔	-7.74335
六	-7.74582
君	-7.74953
功	-7.74998
保	-7.7518
國家	-7.75486
望	-7.75505
運	-7.75919
之時	-7.76253
元	-7.76468
謹	-7.76727
設	-7.77067
田	-7.77084
盖	-7.77129
便	-7.77165
罪	-7.77404
石	-7.78289
和	-7.7847
回	-7.7851
就	-7.78587
營	-7.78614
圖	-7.7883
政	-7.78935
之處	-7.78984
銀	-7.79305
選	-7.79709
給	-7.79922
之意	-7.80177
門	-7.80276
節	-7.80395
土	-7.80778
死	-7.80865
東	-7.81064
口	-7.81086
不知	-7.81151
要	-7.81373
全	-7.81803
師	-7.81928
職	-7.81937
存	-7.82087
輕	-7.82332
樂	-7.83177
流	-7.83238
嚴	-7.83483
路	-7.84523
留	-7.84621
食	-7.84693
豈	-7.84723
舊	-7.84935
物	-7.85134
西	-7.85167
漢	-7.8546
九	-7.85519
解	-7.85895
補	-7.85897
乞	-7.85904
聽	-7.85964
德	-7.86008
風	-7.86889
異	-7.8698
嵗	-7.87117
照	-7.87346
封	-7.87808
終	-7.88066
具	-7.88326
賜	-7.88707
坐	-7.8909
云	-7.8935
百姓	-7.89531
亂	-7.89648
告	-7.89719
納	-7.8981
恩	-7.89919
獨	-7.90055
承	-7.90105
劉	-7.90136
十	-7.90145
好	-7.90779
建	-7.90831
才	-7.91013
吏	-7.9125
引	-7.91326
觀	-7.91556
以來	-7.91862
變	-7.92148
武	-7.92555
度	-7.92689
鎮	-7.93179
而已	-7.94521
罷	-7.9461
比	-7.94745
特	-7.94766
往	-7.94857
還	-7.95047
賞	-7.95151
准	-7.95246
極	-7.95588
悉	-7.95589
情	-7.95917
聖	-7.95987
順	-7.9606
金	-7.96078
詳	-7.96082
然後	-7.9617
帝	-7.96594
海	-7.9682
許	-7.96964
錢糧	-7.97262
臣等	-7.97482
之間	-7.97532
志	-7.97769
廢	-7.98084
光	-7.98126
視	-7.98769
寧	-7.9897
免	-7.99027
送	-7.99667
賢	-7.99695
撫	-7.99753
懐	-7.99963
伊	-7.99976
察	-8.00094
造	-8.0029
權	-8.00299
領	-8.00383
皇上	-8.00422
北	-8.0047
貴	-8.005
傳	-8.00578
之地	-8.00675
之道	-8.00969
稍	-8.00998
俟	-8.01045
足	-8.01069
幸	-8.0117
耶	-8.01369
齊	-8.01532
禁	-8.02457
犯	-8.02519
位	-8.02754
獲	-8.03216
考	-8.03526
遣	-8.03558
調	-8.03646
楊	-8.04058
積	-8.04394
之所	-8.04619
神	-8.04806
工	-8.05032
之法	-8.05081
惡	-8.05247
刑	-8.05761
念	-8.05869
勢	-8.0629
永	-8.06566
久	-8.06703
現在	-8.06771
顧	-8.06822
容	-8.07098
濟	-8.07306
養	-8.0734
有司	-8.07486
厚	-8.07583
役	-8.07909
追	-8.07939
絶	-8.07972
餘	-8.0799
疏	-8.0812
氣	-8.0816
别	-8.08288
忠	-8.08306
慮	-8.08539
首	-8.08547
退	-8.08573
代	-8.09169
㑹	-8.09283
責	-8.09343
漸	-8.09411
施行	-8.09896
須	-8.09929
審	-8.10397
米	-8.10434
八	-8.10442
敬	-8.10469
都	-8.10495
古	-8.10777
依	-8.10796
黄	-8.10827
支	-8.10977
今日	-8.11271
體	-8.11333
宗	-8.11337
推	-8.11379
不足	-8.11514
官員	-8.11625
庶	-8.11933
資	-8.11954
戰	-8.12255
願	-8.12322
糧	-8.12372
者也	-8.12438
月	-8.12617
七	-8.1266
向	-8.13214
船	-8.13467
次	-8.13536
充	-8.1359
所謂	-8.13666
章	-8.13832
江	-8.13877
殺	-8.14777
百	-8.14806
陽	-8.14908
赴	-8.15199
召	-8.15262
待	-8.15305
况	-8.15513
教	-8.15788
移	-8.15822
克	-8.15945
均	-8.15961
減	-8.16003
反	-8.16041
專	-8.16228
例	-8.16288
臨	-8.16289
業	-8.16441
累	-8.16651
所有	-8.16904
放	-8.17252
轉	-8.17379
汝	-8.17442
唐	-8.17554
載	-8.17724
户	-8.17805
害	-8.179
俾	-8.17922
一切	-8.17926
良	-8.17962
諭	-8.18138
不過	-8.18335
白	-8.18481
憂	-8.18511
況	-8.18721
徒	-8.18754
約	-8.18877
衛	-8.19015
卒	-8.19134
闗	-8.19234
結	-8.19314
三年	-8.19696
吾	-8.19871
化	-8.20193
来	-8.2054
督	-8.2065
宣	-8.20673
邊	-8.21152
)(	-8.21363
兵丁	-8.21407
兹	-8.21571
有所	-8.21585
急	-8.22109
勞	-8.22236
以致	-8.22414
廟	-8.22522
萬	-8.22719
率	-8.229
勝	-8.2295
卿	-8.23024
科	-8.23061
傷	-8.23065
典	-8.23329
試	-8.23652
布	-8.23674
斷	-8.24032
爾等	-8.24035
威	-8.24117
繼	-8.24146
崇	-8.24159
監	-8.24312
辭	-8.24355
増	-8.24418
銀兩	-8.24475
等處	-8.24567
切	-8.2471
申	-8.24784
郡	-8.24796
商	-8.24855
仰	-8.25322
亡	-8.25326
毎	-8.25531
老	-8.25595
盛	-8.25999
屢	-8.26125
莫	-8.2618
人心	-8.26195
强	-8.26202
䝉	-8.26244
尊	-8.26557
趙	-8.26585
連	-8.26595
福	-8.26796
果	-8.26933
對	-8.27166
寛	-8.27424
決	-8.27507
仁	-8.28049
也今	-8.28222
病	-8.28288
遇	-8.2867
部	-8.28677
歴	-8.2878
尤	-8.28818
疑	-8.28944
之言	-8.29011
關	-8.2977
御	-8.29774
咸	-8.29924
辦理	-8.29927
患	-8.29973
期	-8.30328
擇	-8.30492
費	-8.3051
孝	-8.30647
量	-8.31572
斯	-8.31739
塞	-8.3176
簡	-8.31822
蓋	-8.31954
接	-8.31966
習	-8.31989
孫	-8.32111
嘗	-8.32143
宫	-8.32253
署	-8.32457
昔	-8.32504
微	-8.32569
敗	-8.32743
集	-8.32778
具奏	-8.33243
按	-8.33312
宋	-8.33529
遷	-8.3371
違	-8.34091
獻	-8.34122
散	-8.34163
聲	-8.34222
速	-8.34308
鹽	-8.34476
棄	-8.34558
列	-8.34563
防	-8.34727
官兵	-8.34782
夏	-8.3512
執	-8.35359
從前	-8.35582
一人	-8.35784
小人	-8.35796
供	-8.35858
伏	-8.36109
龍	-8.36113
竊	-8.36235
面	-8.36416
之日	-8.36594
怨	-8.36847
縁	-8.37015
右	-8.3706
之際	-8.37127
候	-8.37329
以上	-8.37457
闕	-8.37551
案	-8.37655
感	-8.38443
財	-8.38466
鄉	-8.38536
戒	-8.38683
中外	-8.38738
太	-8.39083
遺	-8.39108
恭	-8.39266
示	-8.39333
革	-8.39445
之士	-8.39535
無所	-8.39546
虚	-8.39552
買	-8.39557
素	-8.39722
邉	-8.39912
總	-8.39963
祖	-8.40023
曽	-8.40079
陜西	-8.40104
史	-8.40377
左右	-8.40533
乆	-8.40571
宻	-8.40572
其餘	-8.40695
隂	-8.40754
祖宗	-8.40897
精	-8.4098
逆	-8.41008
昭	-8.41012
疾	-8.41073
目	-8.41086
督撫	-8.41786
施	-8.42167
敢	-8.42449
天下之	-8.42578
如此則	-8.42665
題	-8.43159
其所	-8.43159
弊	-8.43472
指	-8.43528
美	-8.43784
息	-8.43902
招	-8.43921
御史	-8.44017
阿	-8.44162
真	-8.44164
愈	-8.4427
茍	-8.44356
邪	-8.44363
借	-8.44718
顯	-8.44952
不及	-8.44966
懼	-8.45104
陵	-8.45207
頗	-8.45293
隆	-8.4575
秦	-8.45942
官吏	-8.45965
羣	-8.46016
辦	-8.46045
條	-8.46752
垂	-8.46789
持	-8.4683
覆	-8.46865
縱	-8.46893
授	-8.47001
木	-8.47024
春	-8.47264
勿	-8.47389
允	-8.47415
完	-8.47456
登	-8.47729
端	-8.47804
臺	-8.47814
不必	-8.47943
徐	-8.47997
姦	-8.47999
勸	-8.48062
缺	-8.48074
薄	-8.48095
籍	-8.48177
早	-8.48298
祭	-8.48367
左	-8.48391
勤	-8.48667
額	-8.48773
員	-8.48847
之中	-8.48849
而後	-8.48981
川	-8.48986
聚	-8.49294
官軍	-8.49662
延	-8.4974
達	-8.4989
為之	-8.50123
等語	-8.50166
帶	-8.50463
語	-8.50662
臣聞	-8.50952
殊	-8.51225
頭	-8.51261
奏聞	-8.51403
父	-8.51923
令其	-8.52104
盜	-8.52236
上下	-8.52279
衙門	-8.52281
丁	-8.52297
唯	-8.52435
情形	-8.52582
危	-8.52585
逐	-8.52753
越	-8.529
等項	-8.52925
里	-8.53021
必有	-8.53022
楚	-8.53054
撥	-8.53066
㑹同	-8.53102
誤	-8.53112
管	-8.5317
號	-8.53212
京	-8.53254
車	-8.53381
之數	-8.53486
提	-8.53758
無不	-8.53818
未有	-8.5384
妄	-8.53928
皇	-8.54139
說	-8.54213
雖有	-8.54366
畏	-8.54451
遵	-8.54457
表	-8.54623
之弊	-8.5473
併	-8.54751
四方	-8.54754
損	-8.54771
折	-8.54802
陞	-8.54947
謹奏	-8.54988
足以	-8.55129
慶	-8.55186
夷	-8.55328
愛	-8.5552
何以	-8.55897
不許	-8.55918
君子	-8.56125
不為	-8.56126
言之	-8.56197
之計	-8.5676
字	-8.56836
内外	-8.5691
離	-8.5717
驗	-8.57272
窮	-8.57413
天地	-8.57576
效	-8.5771
優	-8.5778
之民	-8.57813
愚	-8.57847
文武	-8.58046
倘	-8.58403
殿	-8.5904
説	-8.5906
一時	-8.59255
欽此	-8.59371
材	-8.59521
氏	-8.5973
識	-8.59846
侵	-8.59951
晉	-8.60206
不以	-8.60209
罰	-8.60535
喜	-8.60537
他	-8.60582
負	-8.60591
假	-8.60755
人主	-8.60812
附	-8.6096
似	-8.61029
葢	-8.6115
天子	-8.61188
䇿	-8.61282
江南	-8.61423
密	-8.61431
雜	-8.61549
宰相	-8.61562
徃	-8.6157
拜	-8.61883
羣臣	-8.62184
二年	-8.62203
寨	-8.62252
料	-8.62354
之罪	-8.62573
抵	-8.62629
奏請	-8.62744
録	-8.62947
律	-8.63219
草	-8.63385
火	-8.63483
適	-8.635
救	-8.63548
己	-8.63765
肆	-8.63932
價	-8.63958
祀	-8.64066
詞	-8.64082
困	-8.64086
攻	-8.64091
配	-8.64198
禍	-8.6428
林	-8.64415
破	-8.64451
藏	-8.64704
只	-8.64723
色	-8.64739
誅	-8.64761
華	-8.6517
奪	-8.65481
俗	-8.65543
慎	-8.65774
築	-8.65824
抑	-8.65852
勉	-8.6597
訓	-8.6617
甲	-8.6628
畢	-8.6629
之患	-8.66353
質	-8.66444
未嘗	-8.66693
薦	-8.66703
勅	-8.66735
擬	-8.66754
中國	-8.6698
高	-8.6705
雨	-8.67258
指揮	-8.67268
料理	-8.67463
忽	-8.6752
一日	-8.68154
種	-8.6817
貪	-8.68175
可謂	-8.683
歲	-8.68387
得以	-8.68428
吳	-8.68981
侯	-8.69015
梁	-8.69043
黨	-8.69086
曾	-8.69096
脩	-8.6917
利害	-8.69492
於是	-8.69547
各官	-8.6955
預	-8.6957
京師	-8.69832
征	-8.69856
限	-8.70067
行之	-8.70176
不同	-8.70191
莫不	-8.70346
有餘	-8.70359
眀	-8.70552
格	-8.70646
榮	-8.70814
一事	-8.71063
滿	-8.71088
亦有	-8.71157
冊	-8.71168
各處	-8.71197
禄	-8.71329
手	-8.71406
富	-8.71557
市	-8.71636
濫	-8.71755
投	-8.71906
儀	-8.71923
幾	-8.72012
智	-8.72083
一面	-8.72101
倉	-8.7251
協	-8.72701
予	-8.7279
徴	-8.72886
狀	-8.72927
之外	-8.73182
記	-8.73367
畧	-8.73368
式	-8.7338
等官	-8.73637
謂之	-8.73755
賦	-8.73913
器	-8.73923
使之	-8.73991
統	-8.74
太宗	-8.74036
險	-8.74158
山東	-8.74203
勘	-8.74378
冒	-8.74634
聖人	-8.74652
人情	-8.74713
胡	-8.74718
玉	-8.74816
苦	-8.74992
捐	-8.75053
衰	-8.75054
第	-8.75078
若不	-8.7517
民間	-8.75441
性	-8.75493
所屬	-8.75565
邑	-8.75609
其事	-8.75633
不行	-8.75644
不當	-8.75719
房	-8.75808
寵	-8.75833
魏	-8.75899
博	-8.75903
干	-8.75932
助	-8.76096
靈	-8.76115
嗣	-8.7614
曹	-8.76229
農	-8.76307
等因	-8.76347
副	-8.76449
争	-8.76755
衣	-8.76851
紀	-8.77078
巡撫	-8.77467
惠	-8.77527
㣲	-8.7757
略	-8.78164
弱	-8.78312
先帝	-8.78314
荒	-8.78666
室	-8.78689
所奏	-8.78816
煩	-8.78829
操	-8.78994
雲	-8.79045
刻	-8.79191
細	-8.79273
朱	-8.79334
班	-8.79405
究	-8.79438
諫	-8.79823
吏部	-8.79856
避	-8.79907
暴	-8.7994
以此	-8.80139
或有	-8.8014
輔	-8.80217
熟	-8.80341
戎	-8.80475
滅	-8.8069
各屬	-8.80791
澤	-8.80945
空	-8.80957
毋	-8.81039
族	-8.81099
明白	-8.81145
賣	-8.81221
飭	-8.8126
羅	-8.81321
萬一	-8.81336
𩔖	-8.81337
揚	-8.81493
堂	-8.81616
伯	-8.81709
具題	-8.8176
尋	-8.81793
其人	-8.81811
聴	-8.81848
秋	-8.82099
派	-8.82153
循	-8.82188
河南	-8.82191
母	-8.82304
子孫	-8.82427
者亦	-8.82444
當時	-8.82558
一年	-8.82568
之員	-8.82659
景	-8.82713
随	-8.82718
竟	-8.82753
會	-8.82755
未能	-8.82765
政事	-8.82778
泰	-8.82803
最	-8.82808
享	-8.82851
遽	-8.82886
曲	-8.82945
院	-8.83203
竭	-8.83273
嘉	-8.83339
千	-8.83459
豐	-8.83466
堅	-8.836
振	-8.83929
之勢	-8.83948
懷	-8.84117
奸	-8.84119
呈	-8.84152
一二	-8.84162
厯	-8.84427
緩	-8.84525
者皆	-8.84769
徵	-8.84867
河北	-8.8491
㫖	-8.84912
將軍	-8.85041
昌	-8.85079
却	-8.85148
於此	-8.85212
看	-8.85444
辨	-8.85521
逃	-8.85577
謝	-8.85766
事竊	-8.8584
太祖	-8.85872
另	-8.85993
番	-8.86391
勇	-8.86434
之用	-8.86496
淮	-8.86626
戸	-8.86795
庫	-8.86938
寜	-8.86981
參	-8.87156
也夫	-8.87271
規	-8.87297
庸	-8.87322
添	-8.87549
乗	-8.87554
而無	-8.87612
豈不	-8.87639
堤	-8.87727
通行	-8.87797
淺	-8.87841
自古	-8.8802
守備	-8.88094
升	-8.8821
后	-8.88221
湖	-8.88226
咨	-8.88241
酌	-8.88471
竒	-8.88509
編	-8.88534
不勝	-8.88645
蒙	-8.88758
之兵	-8.88807
夜	-8.89225
覽	-8.89253
青	-8.89323
某	-8.89398
酌量	-8.89511
英	-8.8958
小民	-8.89923
講	-8.89976
住	-8.90001
屯	-8.90198
輙	-8.90352
寇	-8.90387
嗣後	-8.90539
付	-8.90625
之初	-8.90632
已經	-8.90645
獄	-8.90658
豫	-8.90782
尚書	-8.9079
伊等	-8.90909
之功	-8.90952
各省	-8.91025
謹奏為	-8.9114
強	-8.91253
之禮	-8.91288
界	-8.91537
以来	-8.91573
頃	-8.91777
星	-8.9181
皇帝	-8.919
歳	-8.9205
前來	-8.92322
赦	-8.92572
如何	-8.92615
沙	-8.92656
之徒	-8.92678
弗	-8.92745
尚未	-8.92793
將來	-8.9281
此等	-8.92873
又有	-8.92897
賤	-8.92959
半	-8.92961
盜賊	-8.93207
之内	-8.93299
其間	-8.93354
之理	-8.93456
機	-8.93554
增	-8.93608
蜀	-8.93613
占	-8.9389
鄭	-8.93972
工程	-8.93975
前後	-8.94114
總督	-8.94116
蘇	-8.94135
事宜	-8.94187
専	-8.94194
此事	-8.94197
課	-8.94408
怒	-8.94433
敵人	-8.94504
廷	-8.94547
𢎞	-8.94621
雲南	-8.94961
魯	-8.9502
至今	-8.95034
収	-8.95101
兵部	-8.95117
分别	-8.95283
不足以	-8.95316
休	-8.95345
之任	-8.95515
女	-8.95658
貢	-8.9571
鑒	-8.95956
帥	-8.9617
江西	-8.96256
豈可	-8.96348
伐	-8.96369
庭	-8.96452
查得	-8.96475
銷	-8.96494
寳	-8.96513
前項	-8.96573
不肯	-8.96687
飾	-8.96693
因循	-8.96757
近日	-8.9683
之制	-8.96862
掌	-8.97003
貫	-8.97031
末	-8.97037
憲	-8.97053
希	-8.97079
衞	-8.97137
春秋	-8.97201
知之	-8.97274
一體	-8.97458
以後	-8.97692
屈	-8.97799
邦	-8.97855
之費	-8.97881
宿	-8.97996
暫	-8.98015
寄	-8.98079
偏	-8.98238
類	-8.98346
每年	-8.98347
旗	-8.98453
郊	-8.98525
惑	-8.98616
三月	-8.98644
欺	-8.98694
人君	-8.98842
擢	-8.98868
提督	-8.99111
惟有	-8.99118
現	-8.99145
援	-8.99159
停	-8.99179
續	-8.99217
恤	-8.99292
㕘	-8.99355
大小	-8.99359
忘	-8.99403
卑	-8.99416
擊	-8.99425
監司	-8.99478
之恩	-8.99492
程	-8.99534
冬	-8.99556
堪	-8.99573
故事	-8.9985
太平	-8.99862
知府	-8.99903
繫	-8.99968
印	-9.00052
風俗	-9.00111
策	-9.00247
庶幾	-9.00267
如有	-9.00277
榖	-9.00338
人等	-9.00346
本部	-9.004
遠	-9.00495
决	-9.00497
之官	-9.00593
黜	-9.00752
叛	-9.00951
之至	-9.00995
以備	-9.01028
催	-9.01095
用之	-9.01173
確	-9.01304
否	-9.01304
襲	-9.01434
藩	-9.01445
災	-9.01456
的	-9.01511
耳目	-9.01524
了	-9.01648
諸臣	-9.01686
虧空	-9.01691
騎	-9.01733
燕	-9.01788
五年	-9.0184
出於	-9.01895
一帶	-9.01907
哀	-9.01976
冀	-9.02012
用兵	-9.02343
不致	-9.0239
元年	-9.02477
叅	-9.02575
之例	-9.02709
韓	-9.02713
人之	-9.0272
不復	-9.02778
虞	-9.02779
一員	-9.02829
聖明	-9.02873
爵	-9.03166
野	-9.03249
佐	-9.03325
吉	-9.03325
惜	-9.036
稅	-9.0371
茂	-9.0378
壊	-9.03969
逹	-9.04005
觧	-9.04068
者有	-9.04072
四海	-9.04111
季	-9.0414
在於	-9.04243
議者	-9.04265
乾	-9.0437
奉上諭	-9.04452
陸續	-9.04548
前往	-9.0459
爭	-9.04599
亟	-9.04644
厥	-9.04764
横	-9.0477
一旦	-9.04776
難以	-9.04889
寺	-9.05016
二十	-9.05236
寡	-9.05272
釋	-9.05303
杜	-9.05311
繁	-9.05402
不便	-9.05488
今年	-9.0551
寒	-9.05543
訪	-9.05567
校	-9.05691
耗	-9.05748
皇考	-9.05764
可也	-9.05809
巧	-9.0583
象	-9.0584
浮	-9.05968
上諭	-9.06006
其中	-9.06011
康	-9.06121
辦事	-9.06152
馬匹	-9.06234
僅	-9.06256
客	-9.06338
批	-9.06612
事務	-9.06705
其後	-9.06859
消	-9.06889
竝	-9.069
勲	-9.06979
不至	-9.07024
輸	-9.07089
術	-9.07104
酒	-9.07125
得人	-9.07237
之政	-9.07267
甞	-9.07279
囘	-9.07383
郭	-9.07518
不可以	-9.07567
二人	-9.07612
毁	-9.07721
禀	-9.07822
陸	-9.07859
契丹	-9.08009
尚有	-9.08022
趨	-9.08036
䘮	-9.08082
茶	-9.08266
錫	-9.08424
牛	-9.08477
照例	-9.08501
裁	-9.08615
米價	-9.08647
輒	-9.08673
靖	-9.08763
祥	-9.08882
其言	-9.08896
畫	-9.08965
賞罰	-9.0907
軍民	-9.09143
索	-9.09221
執政	-9.09251
布政司	-9.09267
符	-9.09278
之義	-9.09354
肅	-9.0939
我皇上	-9.09505
兵馬	-9.09514
以至	-9.09626
如是	-9.09664
旱	-9.10058
所在	-9.10303
人員	-9.10326
阻	-9.1033
欽	-9.1061
諸侯	-9.10861
藉	-9.10892
以下	-9.10952
覺	-9.10976
旣	-9.11053
十月	-9.11137
後世	-9.11185
然而	-9.11207
廣東	-9.11238
八月	-9.11457
輕重	-9.11461
懲	-9.11497
相應	-9.11501
福建	-9.11583
歟	-9.11703
諭㫖	-9.11723
苗	-9.11737
不可不	-9.1189
出入	-9.11921
之名	-9.11946
奉㫖	-9.12033
形	-9.12274
讀	-9.1231
虛	-9.12351
較	-9.12455
不忍	-9.12536
躬	-9.12677
彰	-9.12691
偽	-9.12711
場	-9.12722
若干	-9.1273
姑	-9.12822
往往	-9.12869
四年	-9.129
也臣	-9.12987
知其	-9.13006
奏稱	-9.13094
臣恐	-9.13112
内有	-9.13146
託	-9.133
户部	-9.13338
喪	-9.13464
是非	-9.13548
可否	-9.13669
此皆	-9.13701
旋	-9.13713
知縣	-9.13715
四月	-9.13997
亦不	-9.14047
據實	-9.14105
之家	-9.14171
穀	-9.14198
處分	-9.14233
擾	-9.14275
之利	-9.14485
屬員	-9.14674
捕	-9.14674
勒	-9.14725
孤	-9.14788
民力	-9.1484
舍	-9.14951
必須	-9.15055
盈	-9.15145
擅	-9.15151
詢	-9.15157
標	-9.15203
廣西	-9.15427
飛	-9.16075
盗	-9.16132
甘	-9.16184
耕	-9.16257
則有	-9.16332
述	-9.16373
所當	-9.16616
拘	-9.16671
檢	-9.16735
今後	-9.16746
啓	-9.16749
聖主	-9.16832
之職	-9.16919
倍	-9.16991
以爲	-9.17029
効	-9.17037
進士	-9.17062
銅	-9.17069
遭	-9.17078
討	-9.17091
通省	-9.17105
洪	-9.17129
恃	-9.1737
境	-9.17498
虜	-9.17558
並無	-9.17576
皆有	-9.17657
訖	-9.1779
殷	-9.17854
中書	-9.17899
隠	-9.17955
廵撫	-9.17958
詩	-9.17978
昨	-9.18142
朔	-9.18167
言者	-9.18409
家人	-9.18417
該部	-9.18464
也然	-9.18591
社稷	-9.18597
儒	-9.18598
四川	-9.18634
敕	-9.18779
痛	-9.19033
蔽	-9.19048
温	-9.19198
者必	-9.19206
稽	-9.19252
之故	-9.19261
迎	-9.19345
惟陛下	-9.19373
俸	-9.194
駕	-9.19414
蕃	-9.1947
膺	-9.19524
圗	-9.19543
漕	-9.1963
育	-9.19645
署理	-9.19691
無益	-9.19751
無以	-9.19787
属	-9.19813
原任	-9.19848
䟽	-9.19856
根	-9.19914
税	-9.19982
百官	-9.20057
不在	-9.20067
衝	-9.20093
遣使	-9.20134
舟	-9.20157
不然	-9.20324
綱	-9.20355
繳	-9.20399
夀	-9.20409
維	-9.20591
無事	-9.20782
斬	-9.20975
慈	-9.20992
禦	-9.21017
二月	-9.21042
册	-9.21134
宗廟	-9.21143
注	-9.21143
烈	-9.21155
呉	-9.21198
一一	-9.21213
落	-9.21248
判	-9.2127
源	-9.21335
乏	-9.21548
也陛下	-9.21558
貨	-9.21572
到任	-9.21606
之術	-9.21775
父母	-9.21799
局	-9.21953
士大夫	-9.21965
賴	-9.22108
然則	-9.22111
委員	-9.22145
乘	-9.22224
履	-9.22242
未免	-9.22278
兒	-9.22374
閲	-9.22375
荷	-9.22383
滋	-9.22573
六月	-9.22627
叙	-9.22642
倫	-9.22714
一併	-9.22742
不合	-9.2275
莊	-9.22856
以及	-9.22981
用人	-9.22989
禮部	-9.23091
也故	-9.23163
范	-9.23605
逸	-9.23625
正月	-9.23677
堡	-9.23695
雄	-9.2382
撫臣	-9.2396
沈	-9.24014
總兵官	-9.24015
侍	-9.24069
一路	-9.24111
願陛下	-9.24169
郡縣	-9.24257
辱	-9.24272
駐劄	-9.24681
餉	-9.24742
本年	-9.24754
諸路	-9.24874
則是	-9.24965
不堪	-9.25031
靡	-9.25052
布政使	-9.25109
緩急	-9.25253
仁宗	-9.25304
即行	-9.25321
貸	-9.25485
十年	-9.25524
震	-9.25545
子弟	-9.25732
十二	-9.25804
斟酌	-9.25908
同知	-9.25932
又曰	-9.26088
序	-9.26129
十分	-9.26168
與之	-9.26232
孔子	-9.2629
底	-9.26311
十一月	-9.26396
在京	-9.26518
數目	-9.26526
水旱	-9.26708
緣	-9.26722
十二月	-9.26935
為陛下	-9.27002
公議	-9.27205
鈔	-9.27213
道路	-9.27222
貧	-9.27231
凶	-9.274
浙江	-9.27471
縣知縣	-9.27498
七月	-9.27528
走	-9.27529
俱係	-9.27716
對曰	-9.27734
查明	-9.2783
鼎	-9.27931
堯	-9.2798
古之	-9.27994
戴	-9.28152
虧	-9.28218
奮	-9.28343
純	-9.28344
彊	-9.28344
收成	-9.28365
背	-9.28381
州郡	-9.28593
各有	-9.28654
郎	-9.28726
其心	-9.28841
忍	-9.28846
閱	-9.28899
産	-9.28936
五月	-9.28978
不如	-9.29091
卷	-9.29091
自然	-9.29112
沮	-9.29163
謬	-9.29201
湖南	-9.29205
篤	-9.29263
之則	-9.29283
之風	-9.29285
似此	-9.29328
露	-9.29332
措置	-9.29528
䝉皇上	-9.29537
感激	-9.29798
慰	-9.29835
進退	-9.29922
君臣	-9.3002
凡有	-9.30053
督臣	-9.30142
秩	-9.30258
普	-9.30266
逐一	-9.30275
甚多	-9.30422
汛	-9.3056
蔡	-9.30617
見在	-9.30659
冦	-9.30705
奔	-9.30727
誣	-9.30804
頒	-9.30822
父子	-9.30847
總兵	-9.30955
單	-9.30956
人民	-9.30973
士卒	-9.31002
激	-9.31183
静	-9.31191
恵	-9.31203
之論	-9.31357
替	-9.31424
蓄	-9.3162
閘	-9.31636
人材	-9.31695
在外	-9.31745
奏明	-9.31815
驕	-9.31911
伍	-9.31913
各州縣	-9.31985
採	-9.3217
儲	-9.32215
打	-9.32243
虎	-9.32274
塘	-9.32283
不時	-9.32354
孰	-9.32364
誘	-9.32378
任内	-9.32488
舜	-9.32492
粟	-9.32585
查勘	-9.32664
九月	-9.32673
不敷	-9.32695
通判	-9.32713
六年	-9.32903
隔	-9.32913
旁	-9.3292
㡬	-9.32938
所得	-9.32999
麥	-9.33
古者	-9.33003
為此	-9.33046
而為	-9.33144
南京	-9.33168
斥	-9.33263
聖心	-9.33337
之情	-9.33369
本官	-9.33398
不容	-9.33439
陷	-9.33443
者則	-9.33502
傾	-9.33506
而行	-9.33553
悔	-9.33562
之說	-9.33807
事理	-9.33941
警	-9.34091
斂	-9.34096
拏	-9.34251
烏	-9.34289
玩	-9.34351
孔	-9.34371
題請	-9.34476
欠	-9.34591
殘	-9.34678
聖徳	-9.34738
之至意	-9.348
祠	-9.34899
禹	-9.34964
而又	-9.35093
是也	-9.35229
項	-9.35361
廵	-9.35437
剛	-9.35468
事體	-9.3549
奏摺	-9.3552
以聞	-9.35582
議論	-9.35641
湖廣	-9.35653
聖意	-9.35753
賈	-9.35758
牧	-9.36087
倚	-9.36151
事件	-9.3616
再行	-9.36193
衡	-9.36242
地方官	-9.36265
生事	-9.3629
亦可	-9.36305
丈	-9.36523
之志	-9.36612
公私	-9.36655
拏獲	-9.36706
彌	-9.36717
内地	-9.36721
遲	-9.36747
以示	-9.36862
伏乞	-9.36896
事例	-9.3698
啟	-9.37026
紹	-9.37033
以謂	-9.37056
詐	-9.37214
仲	-9.3728
為國	-9.37283
以前	-9.3732
吕	-9.37326
兇	-9.37456
報稱	-9.37506
逺近	-9.37512
辯	-9.37602
裕	-9.37672
民之	-9.37682
泉	-9.37701
壩	-9.37779
國之	-9.3779
往來	-9.37802
行事	-9.37822
黙	-9.3785
冠	-9.37871
殆	-9.37903
恨	-9.37915
法度	-9.37997
厲	-9.38056
儉	-9.38112
加以	-9.3814
民生	-9.38149
雪	-9.38156
誰	-9.38175
古人	-9.38191
包	-9.38351
前日	-9.38355
徇	-9.38737
踈	-9.38781
臣下	-9.38797
前去	-9.38812
不得不	-9.38817
姓	-9.38835
一案	-9.38837
詔書	-9.38925
之下	-9.3893
品	-9.38984
之所以	-9.39044
東南	-9.39064
之議	-9.39085
之憂	-9.39262
有功	-9.39586
基	-9.39625
直隸	-9.39748
社	-9.39748
儻	-9.39774
奉行	-9.39898
懇	-9.39933
亦無	-9.40039
挑	-9.40047
懸	-9.40181
之説	-9.40192
𫝊	-9.40331
未經	-9.40379
叔	-9.40396
不宜	-9.40409
敷	-9.40444
頓	-9.40477
斗	-9.40504
踰	-9.40517
咎	-9.40528
朝夕	-9.4054
給事中	-9.40558
之責	-9.40569
刑部	-9.4058
至于	-9.40617
鄂爾泰	-9.4062
把總	-9.40691
旨	-9.40739
徑	-9.40792
贓	-9.40822
練	-9.40961
呼	-9.41037
鼓	-9.41046
賑濟	-9.41125
河東	-9.41147
留心	-9.4123
所宜	-9.41315
短	-9.41447
粮	-9.41571
紀綱	-9.4178
之謀	-9.41806
戍	-9.41889
各該	-9.41904
秀	-9.42021
秉	-9.42049
寧夏	-9.4205
渉	-9.42078
射	-9.42102
驛	-9.42132
舉行	-9.42134
邀	-9.42151
之資	-9.4219
公事	-9.42191
之變	-9.42216
清查	-9.42252
采	-9.42274
擒	-9.42301
千里	-9.42342
驟	-9.42369
愧	-9.42413
萬世	-9.42427
等情	-9.42491
加意	-9.42496
設法	-9.4251
憤	-9.42602
聖恩	-9.42721
聞之	-9.42734
超	-9.42753
之餘	-9.42827
田文鏡	-9.42831
若有	-9.43093
堯舜	-9.43125
刀	-9.43464
匹	-9.43504
臣愚	-9.43558
黄河	-9.43583
聖訓	-9.43599
幹	-9.43633
圍	-9.43679
瑞	-9.43732
巻	-9.43757
古今	-9.43796
遊擊	-9.4381
貽	-9.43853
將帥	-9.43898
三代	-9.43921
補授	-9.43938
苖	-9.43945
欵	-9.44021
現今	-9.44109
婦	-9.44114
寢	-9.44151
惟是	-9.44174
䕶	-9.44223
得雨	-9.44231
雍正六年	-9.44329
効力	-9.44416
祗	-9.44433
財用	-9.4459
庻	-9.44607
不用	-9.44739
伏念	-9.44955
馳	-9.45004
錯	-9.45048
即位	-9.45112
罔	-9.45187
在案	-9.45271
乖	-9.45275
亷	-9.45303
成功	-9.4535
也若	-9.45378
疲	-9.45429
蕭	-9.45467
無可	-9.45649
遊	-9.45762
状	-9.458
其實	-9.45816
不免	-9.45861
偶	-9.45924
抗	-9.45975
驅	-9.45976
豈有	-9.46117
導	-9.4624
驚	-9.46306
矣然	-9.46372
所言	-9.46377
不惟	-9.46385
冝	-9.46413
賑	-9.46425
之失	-9.46601
之實	-9.46698
貯	-9.4675
太子	-9.4676
有無	-9.46839
顔	-9.46865
慕	-9.46998
租	-9.47004
同日又奏為	-9.47161
夙夜	-9.47165
另行	-9.47209
交與	-9.47246
齎	-9.47259
弟	-9.4726
伸	-9.47308
従	-9.47334
捨	-9.47361
也且	-9.474
徙	-9.47413
妻	-9.47472
盤	-9.47579
音	-9.4758
諒	-9.47638
敏	-9.47646
艱難	-9.47699
南北	-9.47739
穆	-9.47825
割	-9.47832
閒	-9.479
生靈	-9.47967
展	-9.48016
尺	-9.48065
副將	-9.48087
迹	-9.48088
竭力	-9.48101
董	-9.48102
年羮堯	-9.48119
雍正五年	-9.48203
謙	-9.48293
朋黨	-9.48431
厭	-9.48433
弛	-9.48486
人才	-9.48508
未聞	-9.48526
大事	-9.48538
花	-9.48603
壯	-9.48669
藥	-9.48709
掩	-9.4871
徧	-9.48721
奏報	-9.48731
湯	-9.4874
本朝	-9.48787
探	-9.4883
號令	-9.48863
暗	-9.48874
雅	-9.48903
嚴飭	-9.49124
者乎	-9.49184
幽	-9.49403
創	-9.49425
潛	-9.4956
給與	-9.49575
勵	-9.49633
之重	-9.49768
階	-9.49904
僃	-9.50186
其罪	-9.50187
元昊	-9.50235
天意	-9.5025
甫	-9.50268
未必	-9.50336
不法	-9.50364
理合	-9.50421
魚	-9.50499
歩	-9.50561
誦	-9.50641
亮	-9.50643
井	-9.50733
游	-9.50745
之衆	-9.5078
今之	-9.50793
摺	-9.5083
厰	-9.50961
不等	-9.50964
可用	-9.51024
雷	-9.51076
委任	-9.51228
三省	-9.5123
蠻	-9.51271
聼	-9.51313
數年	-9.51435
村	-9.51462
屋	-9.51464
𤼵	-9.51648
公曰	-9.51679
明堂	-9.51697
情由	-9.5174
𤣥	-9.51745
不一	-9.51843
叨	-9.51912
之䇿	-9.51941
窺	-9.51962
見其	-9.52233
生民	-9.5241
人人	-9.5245
省城	-9.52544
敦	-9.52589
兵民	-9.52602
雍正七年	-9.52672
得失	-9.52679
河道	-9.52752
二三	-9.52829
七年	-9.52853
輩	-9.53002
所見	-9.53018
閣	-9.53026
矜	-9.53107
巡	-9.53136
安石	-9.53163
佞	-9.53166
處置	-9.53188
至公	-9.53192
各營	-9.53219
頻	-9.53219
以待	-9.53221
鍾	-9.5326
牌	-9.53267
遍	-9.53298
粗	-9.53334
知州	-9.53347
宗室	-9.53361
抱	-9.53363
遇有	-9.53509
之盛	-9.53552
雍正四年	-9.53558
中原	-9.53575
席	-9.53606
欽遵	-9.53616
伏望陛下	-9.53732
隱	-9.53755
排	-9.53779
實為	-9.53821
秉公	-9.53846
就近	-9.5389
弼	-9.53916
宏	-9.54009
三司	-9.54047
敢不	-9.54162
其意	-9.54218
今嵗	-9.54308
天恩	-9.54337
先後	-9.54346
葬	-9.54376
不無	-9.54465
上天	-9.54649
零	-9.5472
辰	-9.54796
稽查	-9.54917
巴	-9.55001
居官	-9.55021
宴	-9.55029
恒	-9.55047
又據	-9.55062
孟	-9.55068
矣今	-9.55087
而巳	-9.55203
皇太后	-9.55222
整	-9.55232
撰	-9.55275
曠	-9.55293
湏	-9.55313
方今	-9.55341
皇后	-9.55428
之路	-9.55526
無異	-9.55532
不相	-9.55614
欽此欽遵	-9.55641
自有	-9.55645
朕意	-9.55724
約束	-9.55755
兩省	-9.55783
閩	-9.55791
募	-9.55836
談	-9.5588
差遣	-9.55894
附近	-9.55948
算	-9.55964
一百	-9.56055
拔	-9.56076
而不能	-9.56118
準	-9.56126
軍士	-9.56156
隂陽	-9.56241
被水	-9.56247
務期	-9.56297
壞	-9.56463
狂	-9.56544
平日	-9.5655
之子	-9.56621
副使	-9.56682
㫁	-9.56698
日月	-9.56732
此乃	-9.56734
水勢	-9.56755
有以	-9.56798
次第	-9.56888
削	-9.56988
寸	-9.57004
其有	-9.57023
劾	-9.57054
那	-9.57093
再三	-9.57103
肯	-9.57115
甘肅	-9.57232
勑	-9.5726
彦	-9.57327
傅	-9.57378
大夫	-9.57383
換	-9.5739
渠	-9.5757
競	-9.57607
飬	-9.57623
未盡	-9.57723
俊	-9.5774
深入	-9.5789
疎	-9.57932
營伍	-9.57933
銜	-9.58008
上曰	-9.58109
懿	-9.58127
之才	-9.58154
扣	-9.58165
恱	-9.58209
帝王	-9.58254
逮	-9.58322
不但	-9.58353
之君	-9.58384
陛下之	-9.58417
溝	-9.58417
訴	-9.58477
管理	-9.58514
樹	-9.58518
介	-9.58602
忌	-9.58645
卜	-9.58676
元祐	-9.58693
豈能	-9.58799
蕩	-9.58857
跡	-9.5888
之物	-9.58881
枉	-9.58921
山西	-9.5894
角	-9.59106
眷	-9.59139
襄	-9.59256
祿	-9.59337
僭	-9.59407
海内	-9.5941
匪	-9.59421
辟	-9.59429
鄙	-9.59445
昏	-9.59464
庶㡬	-9.59516
宥	-9.59536
錄	-9.59583
艱	-9.59679
譽	-9.5975
貴州	-9.59751
鎭	-9.59762
治道	-9.59762
間有	-9.5977
柔	-9.59772
宰	-9.59785
互相	-9.59798
廉	-9.59805
蹈	-9.59886
緝	-9.59917
睿	-9.59975
刺	-9.60007
未及	-9.6008
朕心	-9.60231
寫	-9.60249
等事	-9.60353
硃批	-9.6038
雍正三年	-9.60389
仍令	-9.60507
區區	-9.60512
陶	-9.6052
稍有	-9.60523
合無	-9.60529
去年	-9.60557
夲	-9.60598
值	-9.60604
慢	-9.6062
一名	-9.60624
歌	-9.60643
崔	-9.60645
目前	-9.60729
之害	-9.60779
請㫖	-9.60789
藝	-9.60806
贊	-9.6086
隻	-9.60864
橋	-9.60892
以便	-9.61123
公卿	-9.61202
條奏	-9.61242
前代	-9.61246
曉諭	-9.6128
治罪	-9.61317
議處	-9.61343
馮	-9.61351
糴	-9.61391
至此	-9.61517
使人	-9.61529
需	-9.61548
兄弟	-9.61549
上司	-9.61556
甚屬	-9.61592
諸州	-9.61607
之禍	-9.61614
廢弛	-9.6167
逼	-9.61684
拒	-9.61729
者多	-9.61849
之命	-9.61956
覩	-9.62013
愛民	-9.62179
不肖	-9.62194
實在	-9.62265
萌	-9.62311
丹	-9.62345
按察使	-9.62364
大學士	-9.62369
屏	-9.62399
貶	-9.62475
之誠	-9.62493
健	-9.62561
覆奏	-9.62585
毒	-9.62587
大將軍	-9.62624
豪	-9.62749
飲	-9.62779
途	-9.62846
館	-9.62876
毛	-9.62907
纔	-9.62935
填	-9.63006
不言	-9.63008
之語	-9.63017
焚	-9.6306
僥倖	-9.63072
五十	-9.63085
侍從	-9.6314
伏望聖慈	-9.63191
府知府	-9.63325
壽	-9.63376
葉	-9.63471
官司	-9.63476
豫省	-9.63544
法令	-9.63669
憑	-9.63678
嚴加	-9.6383
緣由	-9.63845
近者	-9.63942
怠	-9.63954
矣臣	-9.63972
之上	-9.63975
故也	-9.6419
悉心	-9.64202
自當	-9.64216
敎	-9.64228
彼此	-9.6424
䖏	-9.64279
認	-9.6436
鎮守	-9.64379
吏治	-9.64507
有益	-9.64555
定例	-9.64699
先朝	-9.64823
立法	-9.64824
也而	-9.64928
峻	-9.64941
修理	-9.64946
醫	-9.64962
挾	-9.6503
友	-9.65116
革職	-9.65154
朕之	-9.65186
池	-9.65202
瀆	-9.65203
不若	-9.653
得其	-9.65311
俱各	-9.6534
如果	-9.65358
莫若	-9.65382
學士	-9.65408
以求	-9.6542
原係	-9.65423
洛	-9.65465
雍正二年	-9.65582
靣	-9.65686
斤	-9.65711
證	-9.65716
四夷	-9.65794
之𩔖	-9.65806
岳鍾琪	-9.65809
屯田	-9.65959
曉	-9.65969
仕	-9.65993
盡心	-9.66057
天下幸甚	-9.66076
籌	-9.66249
又復	-9.66254
環	-9.66371
向來	-9.66395
恥	-9.66481
安危	-9.66516
論列	-9.66541
天心	-9.66611
不應	-9.66749
恕	-9.66853
加恩	-9.66881
槩	-9.66908
賞給	-9.66925
不安	-9.6695
而不知	-9.66962
其弊	-9.66977
起至	-9.67007
不易	-9.67073
笑	-9.67106
臺諫	-9.67158
黎	-9.67173
若此	-9.67173
之不	-9.67205
業經	-9.67245
昧	-9.67266
訓練	-9.67373
防守	-9.67386
於上	-9.67483
國用	-9.675
護	-9.67544
其勢	-9.67561
或以	-9.6764
會同	-9.67682
為人	-9.67715
王者	-9.67735
籌畫	-9.67738
誠恐	-9.67762
虐	-9.67765
之期	-9.6778
賀	-9.67782
書曰	-9.67801
饑	-9.67826
𨽻	-9.67866
績	-9.67922
畨	-9.67935
先王	-9.67943
都司	-9.6805
訟	-9.68073
之美	-9.68096
詣	-9.68142
太后	-9.68178
粤	-9.68192
多寡	-9.68229
各項	-9.68272
於天下	-9.68279
二府	-9.68289
赤	-9.68334
束	-9.68334
八年	-9.68402
勾	-9.68417
簿	-9.68437
内閣	-9.6854
滯	-9.68553
今日之	-9.68631
姓名	-9.68638
操守	-9.68697
漏	-9.68743
臣謂	-9.68756
皆以	-9.68838
不加	-9.68917
糶	-9.6896
大體	-9.68967
再加	-9.68995
一道	-9.69143
土司	-9.69149
亦當	-9.69249
哨	-9.69252
駐	-9.69275
上年	-9.69306
祖宗之	-9.69309
貳	-9.69312
無窮	-9.69352
㢘	-9.69382
未見	-9.69398
多有	-9.69413
器械	-9.69434
迫	-9.69444
諌	-9.69448
㸃	-9.69453
雨澤	-9.69515
三十	-9.69518
攸	-9.69573
快	-9.69589
舎	-9.69594
之氣	-9.69631
寃	-9.69673
之力	-9.69689
其地	-9.69701
園	-9.69736
用心	-9.69738
大兵	-9.69743
宗社	-9.69798
不出	-9.69806
所請	-9.69835
陳奏	-9.69902
守令	-9.69914
浸	-9.69985
東西	-9.70027
矢	-9.70069
未敢	-9.70106
員缺	-9.70142
疆	-9.70163
縁由	-9.70206
以資	-9.7022
所用	-9.70224
一應	-9.70321
暨	-9.70325
截	-9.70398
起程	-9.70538
實有	-9.70566
爰	-9.70617
姑息	-9.70722
實心	-9.70774
答	-9.70792
縣令	-9.70916
壇	-9.70942
互	-9.70958
蘭	-9.70964
之要	-9.70965
馭	-9.70994
數月	-9.7102
减	-9.711
盡行	-9.71109
寶	-9.71123
疋	-9.71134
紙	-9.71201
船隻	-9.7123
謗	-9.71245
災異	-9.71252
板	-9.71282
黔	-9.71287
分數	-9.71346
保甲	-9.71483
可行	-9.71521
侍郎	-9.71569
估	-9.71717
不已	-9.71798
搜	-9.71803
潰	-9.71843
敝	-9.71935
未甞	-9.72005
不見	-9.72171
之典	-9.72209
旬	-9.72331
祝	-9.72332
扶	-9.72393
五百	-9.72428
由是	-9.72535
其身	-9.72604
措	-9.72648
之主	-9.72657
不欲	-9.7268
祚	-9.72752
之舉	-9.72963
鮮	-9.73088
契	-9.73098
兩零	-9.73116
柄	-9.73125
貟	-9.73142
筆	-9.73182
典禮	-9.7322
何如	-9.73281
舒	-9.73307
宅	-9.73312
終身	-9.73393
谷	-9.73426
之徳	-9.73427
紅	-9.73458
販	-9.73473
未知	-9.73474
閉	-9.73548
逢	-9.73551
貞	-9.73611
幸甚	-9.73639
河工	-9.73752
兄	-9.73769
掠	-9.73977
不下	-9.74014
畝	-9.74027
臣竊	-9.74081
運河	-9.74113
筭	-9.74128
欽定四庫全書	-9.74135
塗	-9.74144
之私	-9.74261
欲以	-9.74301
之大	-9.74329
保全	-9.74379
洽	-9.74478
隙	-9.74548
奈何	-9.7462
百萬	-9.74656
陣	-9.74673
冗	-9.74766
頂	-9.74767
男	-9.74775
混	-9.74789
差官	-9.74813
舊制	-9.74815
而天下	-9.74836
二麥	-9.74895
萬物	-9.75045
九年	-9.7505
添設	-9.75059
未完	-9.75071
盧	-9.75087
聰明	-9.75133
洞	-9.75144
商酌	-9.7517
匠	-9.75206
也又	-9.75268
因而	-9.75271
特賜	-9.75371
周公	-9.7538
攝	-9.75404
各員	-9.75419
之前	-9.75426
不聞	-9.75429
州刺史	-9.75443
三人	-9.75454
僻	-9.75458
遵行	-9.75485
塵	-9.75518
舉人	-9.75562
差人	-9.7562
事情	-9.75764
閩省	-9.75782
等日	-9.75813
而欲	-9.75828
鳴	-9.75911
鐵	-9.75949
腹心	-9.75949
引見	-9.75968
中間	-9.76035
尹	-9.76077
上言	-9.76096
之虞	-9.76164
不明	-9.76204
軍需	-9.76232
核	-9.76275
晚	-9.76407
之項	-9.76415
監察御史	-9.76446
何所	-9.7646
諡	-9.76545
東省	-9.76549
溢	-9.76568
六十	-9.76762
照舊	-9.76763
押	-9.76766
奬	-9.76845
動用	-9.76883
讓	-9.76912
近臣	-9.76916
岳	-9.76973
西北	-9.76975
有罪	-9.7698
羊	-9.76999
今若	-9.77011
修築	-9.77131
釁	-9.77198
為害	-9.77268
而下	-9.77302
三千	-9.77303
之治	-9.77375
隄	-9.77451
蠧	-9.77524
讎	-9.77588
九卿	-9.77597
豈非	-9.776
經理	-9.77621
摺奏	-9.77753
委官	-9.77757
貼	-9.77817
而有	-9.77927
之役	-9.77946
頼	-9.77958
臣寮	-9.77971
荆	-9.77982
之權	-9.78019
衛所	-9.78024
淵	-9.78123
祈	-9.78126
鄧	-9.7815
枝	-9.78165
指示	-9.78301
丞相	-9.78339
駭	-9.78343
使臣	-9.78346
設立	-9.78379
所司	-9.78399
司馬光	-9.78445
將士	-9.78446
文字	-9.78483
今陛下	-9.78513
近年	-9.78529
府屬	-9.78583
不顧	-9.78604
公論	-9.78693
八旗	-9.78776
褒	-9.788
毋得	-9.78824
自應	-9.78903
於民	-9.78908
前任	-9.79016
漫	-9.79045
播	-9.79061
庇	-9.79125
於下	-9.79189
何敢	-9.79199
正在	-9.79204
相度	-9.79204
誕	-9.79209
潜	-9.79246
此其	-9.79256
可為	-9.79261
賛	-9.79393
不待	-9.79429
不通	-9.7943
沒	-9.7945
浙	-9.79477
訪聞	-9.795
藩司	-9.79513
禮樂	-9.79517
戚	-9.79534
取之	-9.79555
逾	-9.7957
植	-9.79708
台	-9.79785
座	-9.79814
奉聖㫖	-9.79849
供職	-9.79933
矣夫	-9.80032
過於	-9.80079
為國家	-9.80097
是故	-9.80151
之本	-9.80156
查照	-9.80234
臺灣	-9.80261
確查	-9.80315
尤為	-9.80577
傑	-9.80661
肇	-9.80693
諫官	-9.80734
一言	-9.80773
一月	-9.8079
果能	-9.80814
大計	-9.8082
最為	-9.80937
衆人	-9.80976
一方	-9.80981
諱	-9.8103
事竊照	-9.81109
行令	-9.81223
未得	-9.81225
居民	-9.81231
採買	-9.81242
直言	-9.81378
分守	-9.81429
贈	-9.81512
舊例	-9.81561
翼	-9.81573
多方	-9.81608
猛	-9.81634
數十	-9.81712
篇	-9.81726
議奏	-9.81753
停止	-9.81755
形勢	-9.81885
反覆	-9.81985
者不	-9.82
誓	-9.82061
查出	-9.82131
償	-9.8215
看得	-9.82373
常平	-9.82402
職事	-9.82455
抄	-9.82486
何必	-9.8249
蠲免	-9.82498
廹	-9.82542
巨	-9.82565
仗	-9.82578
必欲	-9.82581
把	-9.82585
使其	-9.82594
竊見	-9.82641
岀	-9.82648
喻	-9.82649
悦	-9.8269
朋	-9.82693
靜	-9.82736
朝廷之	-9.82762
丘	-9.82833
之業	-9.82851
歴年	-9.82856
支給	-9.82869
臣僚	-9.82886
防禦	-9.82909
遏	-9.82946
制度	-9.82946
此時	-9.82962
之念	-9.8299
民情	-9.83024
舞	-9.83086
商人	-9.83101
衣食	-9.83138
也其	-9.83142
酬	-9.83142
二員	-9.83192
遵㫖	-9.83195
之文	-9.83208
受命	-9.83241
嚴行	-9.83253
帖	-9.83257
從事	-9.83415
水師	-9.83425
郎中	-9.83593
人户	-9.83656
猶有	-9.83673
察其	-9.83704
戮	-9.83836
黃	-9.83847
塩	-9.83863
諸軍	-9.83879
渡	-9.83898
天地之	-9.83987
先年	-9.84055
蠲	-9.84056
題㕘	-9.84085
旅	-9.84106
以圖	-9.84187
七十	-9.84207
留意	-9.84237
不與	-9.84362
盟	-9.84375
數日	-9.84397
刼	-9.84415
照依	-9.84479
未可	-9.8449
桑	-9.84522
哈	-9.84528
及其	-9.84567
臣伏見	-9.84569
鄰	-9.84632
又聞	-9.84653
陋	-9.84671
逆賊	-9.84696
揀選	-9.84722
嶺	-9.84747
戸部	-9.84767
已有	-9.84818
矣而	-9.8483
太監	-9.84848
者即	-9.84906
件	-9.84911
工部	-9.84932
忠義	-9.84938
其他	-9.84973
責成	-9.84978
大抵	-9.85007
踐	-9.85096
金人	-9.85139
而陛下	-9.85201
祇	-9.85309
邪正	-9.85362
難於	-9.85388
田地	-9.85388
諸道	-9.85416
想	-9.85484
嫌	-9.85491
劄	-9.85503
自行	-9.85515
調補	-9.85538
尾	-9.8559
銓	-9.85627
僕	-9.8563
情願	-9.85675
皆由	-9.85825
伏望	-9.85837
果有	-9.86007
無有	-9.86037
珍	-9.86041
没	-9.86099
人言	-9.86114
既已	-9.86147
岸	-9.8616
至誠	-9.86166
者非	-9.86253
日夜	-9.86326
隋	-9.86331
以成	-9.8635
文王	-9.8645
鳯	-9.86487
軫念	-9.86494
開元	-9.86532
巳經	-9.8668
不問	-9.86719
畜	-9.86771
選擇	-9.86791
十一	-9.86792
而用之	-9.86895
杖	-9.86918
聖諭	-9.8692
至意	-9.86921
根本	-9.86923
罹	-9.86951
長吏	-9.86952
既有	-9.86979
則必	-9.86989
諸將	-9.87024
禁止	-9.87026
𠞰	-9.87052
遜	-9.87058
勤勞	-9.87103
賔	-9.8711
天下之事	-9.87128
譏	-9.87135
相繼	-9.87149
紛紛	-9.8715
兆	-9.87193
中興	-9.87267
之吏	-9.87296
佛	-9.87434
本月	-9.87447
一節	-9.87508
脫	-9.87509
自今	-9.87536
公同	-9.87577
於人	-9.87588
仇	-9.87603
聞奏	-9.87665
涉	-9.87669
墩	-9.87786
西安	-9.87812
溪	-9.87816
之難	-9.87854
搶	-9.879
用度	-9.8793
僧	-9.8795
大義	-9.8798
而行之	-9.88022
牽	-9.88091
詳報	-9.88126
都御史	-9.88137
大有	-9.88179
賢者	-9.8822
姚	-9.88239
閑	-9.88324
務令	-9.88338
偷	-9.88424
並不	-9.88427
非所以	-9.88428
耻	-9.88434
糾	-9.88439
妃	-9.88459
奏事	-9.88494
是時	-9.88506
塲	-9.88516
齋	-9.88525
諸司	-9.886
務使	-9.88605
以安	-9.88637
而不可	-9.88715
去後	-9.88727
老成	-9.88739
不失	-9.88741
揆	-9.88751
學校	-9.88764
擢用	-9.88809
十五	-9.88837
該管	-9.88842
七八	-9.88858
誼	-9.88911
輿	-9.8901
胥	-9.89185
先生	-9.89289
則曰	-9.89435
六七	-9.89478
斃	-9.89506
天命	-9.89691
步	-9.89711
祐	-9.89757
不止	-9.89824
苟	-9.8983
饒	-9.89831
緒	-9.89833
俱有	-9.89851
都察院	-9.89886
節省	-9.89984
騰	-9.90007
不忘	-9.90036
作何	-9.90052
裏	-9.90057
日久	-9.90071
未至	-9.90141
而不敢	-9.90155
脱	-9.90159
無人	-9.90251
到日	-9.90315
土兵	-9.90336
臣願陛下	-9.90349
免其	-9.90513
刑名	-9.90536
旦	-9.90542
溺	-9.90548
從容	-9.9055
差役	-9.90551
淮南	-9.90564
檄	-9.90626
囚	-9.90644
直𨽻	-9.90691
他日	-9.90718
聖㫖	-9.90754
所能	-9.90775
疊	-9.90779
人馬	-9.90807
香	-9.90831
緊要	-9.90841
州府	-9.90852
窮民	-9.90881
津	-9.90903
以自	-9.90924
本省	-9.90995
殺人	-9.91055
國家之	-9.91108
骨	-9.91204
取其	-9.9121
為民	-9.91221
潮	-9.91226
整飭	-9.91236
賢能	-9.91271
再查	-9.91305
灾	-9.91428
匈奴	-9.91428
駁	-9.91431
不盡	-9.91451
惟恐	-9.91562
頑	-9.91574
雍正八年	-9.91578
必先	-9.91587
沿途	-9.91589
方可	-9.91633
重任	-9.91688
照數	-9.91705
洋	-9.91744
綏	-9.91749
湖北	-9.91751
致仕	-9.91768
莭	-9.91806
遵照	-9.91808
民心	-9.9184
苑	-9.91862
統領	-9.91876
贖	-9.91938
忿	-9.91974
皆得	-9.92001
上帝	-9.92047
鑄	-9.92125
士民	-9.92139
嚮	-9.9215
愆	-9.92172
定奪	-9.9227
含	-9.92326
者以	-9.92347
府州縣	-9.92351
之世	-9.92362
趣	-9.92384
務要	-9.92405
者盖	-9.92414
抽	-9.92447
因此	-9.92468
伏見	-9.92503
一項	-9.92528
其職	-9.92541
之使	-9.92551
任事	-9.92558
嵩	-9.92559
絲毫	-9.92569
京城	-9.92605
訊	-9.92685
萬里	-9.92718
不從	-9.92735
自是	-9.92816
珠	-9.92824
麗	-9.9287
僉	-9.92872
幼	-9.92885
自此	-9.92906
雍正元年	-9.92916
寖	-9.92969
毫無	-9.93063
牒	-9.93103
此則	-9.93131
着	-9.93133
畫一	-9.93173
又以	-9.9326
案内	-9.93351
之師	-9.93373
亦皆	-9.93388
不避	-9.93426
則天下	-9.93462
彼處	-9.93493
㨗	-9.93505
精神	-9.93659
可見	-9.93667
先行	-9.93724
騐	-9.93725
髙宗	-9.93749
此項	-9.93833
倒	-9.93875
三分	-9.93878
部議	-9.93897
夕	-9.93909
耀	-9.93937
歎	-9.93979
三日	-9.93981
姦邪	-9.94002
相與	-9.94002
侈	-9.94045
死者	-9.94125
三四	-9.94152
管轄	-9.94172
存留	-9.94196
行文	-9.94208
置之	-9.9421
民人	-9.94215
觀其	-9.94223
止有	-9.9424
㧞	-9.94248
之福	-9.94297
彭	-9.943
十萬	-9.94398
伏惟	-9.9442
因其	-9.9446
彼時	-9.94473
伏思	-9.94535
淹	-9.94566
無復	-9.9468
成化	-9.94761
匿	-9.94774
哲	-9.94798
封疆	-9.94851
去處	-9.94857
飢	-9.94866
欽差	-9.9487
竄	-9.94901
任使	-9.94915
自知	-9.94936
嵗月	-9.94988
之方	-9.95003
茍且	-9.95007
伏乞皇上	-9.95049
遁	-9.95052
江淮	-9.95139
尚可	-9.95169
為患	-9.95185
該縣	-9.95232
較之	-9.95278
幣	-9.95405
三百	-9.95414
之始	-9.95434
漕運	-9.95453
不得已	-9.95475
輪	-9.95482
佑	-9.955
怪	-9.95505
浚	-9.95626
札	-9.95662
閭閻	-9.95679
偉	-9.95686
不思	-9.95714
五千	-9.95766
踴躍	-9.95881
繩	-9.95913
更有	-9.95965
明詔	-9.96014
無由	-9.9603
豆	-9.96042
一次	-9.96098
者又	-9.96107
必得	-9.96133
奏曰	-9.96154
謁	-9.96173
千總	-9.96179
進呈	-9.96179
商賈	-9.96229
富貴	-9.96289
淳	-9.96289
悟	-9.96324
動支	-9.96354
人數	-9.96356
濬	-9.96385
罕	-9.96403
宣諭	-9.96407
依舊	-9.96459
𣲖	-9.96479
及至	-9.96481
頌	-9.96523
髙祖	-9.96527
相機	-9.96553
整理	-9.96582
誡	-9.96597
而去	-9.96606
十三	-9.96646
聖朝	-9.96665
内開	-9.9668
家口	-9.96688
盛徳	-9.96809
在位	-9.96821
神宗	-9.96821
鳳	-9.96835
軰	-9.96849
二百	-9.96887
跪	-9.96905
矯	-9.96914
之望	-9.96918
本州	-9.9702
事有	-9.97028
輔臣	-9.97056
在官	-9.97072
數人	-9.9712
易於	-9.97161
天道	-9.972
土官	-9.973
可知	-9.97315
講求	-9.97316
釐	-9.97363
交代	-9.97371
雨水	-9.97396
人犯	-9.97423
真宗	-9.975
其為	-9.97539
倡	-9.9754
軍人	-9.97555
必致	-9.97597
拾	-9.97614
此案	-9.97626
人皆	-9.97646
潔	-9.97707
御史中丞	-9.97756
屬之	-9.97769
水利	-9.9777
段	-9.97788
之苦	-9.97795
製	-9.97869
禮義	-9.979
壮	-9.97913
目下	-9.97959
刑罰	-9.98025
未有不	-9.98101
事事	-9.98118
黜陟	-9.98124
轉運使	-9.98131
觀望	-9.98221
皮	-9.98275
浙省	-9.98337
所為	-9.98398
偹	-9.98535
以濟	-9.98552
也昔	-9.98557
付之	-9.98576
造冊	-9.9861
隨即	-9.98611
俯	-9.98682
齒	-9.9875
歡	-9.9879
若以	-9.98799
丞	-9.98801
綿	-9.98884
人事	-9.9891
飭令	-9.98913
生員	-9.98936
做	-9.98948
來京	-9.99046
伏查	-9.99109
者矣	-9.99112
尤甚	-9.99197
噐	-9.99249
從來	-9.99287
平糶	-9.99296
題補	-9.99347
傳曰	-9.9939
見於	-9.99436
閏	-9.99504
囬	-9.99531
司庫	-9.99533
綱紀	-9.99552
徽	-9.99584
隣	-9.99632
側	-9.99741
滿洲	-9.99744
平時	-9.99814
公主	-9.99861
出身	-9.99883
固已	-9.9989
數多	-9.99932
親王	-10.0002
應行	-10.0004
今乃	-10.0005
未便	-10.001
無知	-10.0012
盗賊	-10.0014
樓	-10.002
妥協	-10.0023
在乎	-10.0025
攘	-10.0028
學者	-10.0029
韋	-10.003
不獨	-10.0033
垣	-10.0039
考試	-10.0045
情節	-10.0046
讀書	-10.0052
多事	-10.0054
言路	-10.0055
敵衆	-10.0057
膳	-10.006
聽其	-10.0061
之宜	-10.0074
事之	-10.0077
於外	-10.0079
譴	-10.0081
曰吾	-10.0093
票	-10.0096
一處	-10.0099
受其	-10.01
薦舉	-10.0101
聖人之	-10.0115
奠	-10.0119
可得	-10.0119
聦明	-10.012
壓	-10.012
㕔	-10.0127
苛	-10.0127
竊聞	-10.0128
節次	-10.0132
歸於	-10.0133
餘兩	-10.0141
緫	-10.0141
鑿	-10.0142
俱已	-10.0143
應否	-10.0146
鴻	-10.0152
遞	-10.0155
准其	-10.0155
前因	-10.0156
於前	-10.016
其家	-10.0162
不暇	-10.0163
㑹議	-10.0163
山川	-10.0163
者或	-10.0165
地震	-10.0167
雍	-10.0171
太學	-10.0172
堤工	-10.0174
同心	-10.0176
宼	-10.0177
教化	-10.018
人主之	-10.0181
無遺	-10.0181
亦必	-10.0182
奚	-10.0185
吴	-10.0186
膽	-10.0187
樞	-10.0187
戾	-10.019
碩	-10.019
著將	-10.019
一千	-10.0193
耕種	-10.0198
大同	-10.0199
而能	-10.02
敬謹	-10.0201
各衙門	-10.0202
價銀	-10.0202
豈無	-10.0215
帛	-10.0217
一嵗	-10.0218
欲乞	-10.0219
衍	-10.0223
有一	-10.0225
亦非	-10.0229
飽	-10.023
必不	-10.0231
不識	-10.0239
思之	-10.0242
不幸	-10.0243
郡王	-10.0251
更不	-10.0252
或因	-10.0254
澄	-10.0265
武帝	-10.0269
天下之人	-10.0271
之戒	-10.0271
定議	-10.0275
松	-10.0276
衷	-10.0284
䝉古	-10.0284
比之	-10.0285
軍政	-10.0286
遵守	-10.0292
今據	-10.0295
出自	-10.0301
紛	-10.0303
支用	-10.0303
無功	-10.0309
本路	-10.0309
滇	-10.0315
範	-10.0316
荅	-10.0317
調度	-10.0318
辜	-10.0321
除授	-10.0323
治之	-10.0323
旌	-10.0327
以防	-10.0335
帶領	-10.034
圖報	-10.034
下情	-10.0349
有言	-10.0356
軍馬	-10.0356
壹	-10.0359
肥	-10.0365
國朝	-10.0374
司道	-10.0374
門下	-10.0377
其利	-10.0378
為政	-10.0379
田禾	-10.0381
竹	-10.0387
深知	-10.039
甚為	-10.0392
之水	-10.0395
臣請	-10.0402
又不	-10.0405
闢	-10.041
外其餘	-10.041
移咨	-10.0416
國法	-10.0421
房屋	-10.0424
州軍	-10.0428
太皇太后	-10.0428
𣙜	-10.0432
接濟	-10.0435
訓誨	-10.0441
妖	-10.0442
寓	-10.0442
之勞	-10.0443
牙	-10.0446
無他	-10.0449
公費	-10.0453
㕘將	-10.0461
申明	-10.0462
臣言	-10.0463
仁義	-10.0464
倘有	-10.0466
誥	-10.0473
相同	-10.0475
二十七日	-10.0477
國體	-10.0478
洎	-10.0486
一分	-10.0488
惇	-10.0489
披	-10.0495
數百	-10.0495
墓	-10.0505
第一	-10.0509
按察司	-10.0513
王安石	-10.0514
彚	-10.0514
事竊查	-10.0521
浦	-10.0523
潤	-10.0526
前来	-10.0527
安民	-10.0528
居住	-10.0529
於本年	-10.0542
裴	-10.0548
故能	-10.0551
晝夜	-10.0553
撓	-10.0554
銳	-10.0563
臣子	-10.0564
止於	-10.0567
其才	-10.0568
之機	-10.0569
䘏	-10.0571
汝等	-10.0582
坊	-10.0586
督率	-10.0587
麟	-10.0588
該道	-10.059
毎年	-10.0592
詢問	-10.0593
禀稱	-10.0602
讒	-10.0603
一也	-10.0607
諸事	-10.0609
徹	-10.061
三路	-10.061
斛	-10.0615
暮	-10.0617
周禮	-10.0617
目今	-10.0618
吐	-10.0619
官民	-10.0626
將此	-10.0636
轍	-10.0636
茲	-10.0637
未易	-10.064
弓	-10.0649
羌	-10.065
廪	-10.0652
從之	-10.0652
成王	-10.0656
貧民	-10.0657
及時	-10.066
得之	-10.0665
卿等	-10.0668
黔省	-10.0675
本司	-10.0676
為名	-10.0679
䑓	-10.068
不善	-10.0687
非有	-10.0688
此奏	-10.0689
據實奏聞	-10.0697
十七日	-10.0698
叅奏	-10.0701
責其	-10.0703
忠臣	-10.0704
碑	-10.0707
觸	-10.0708
欺罔	-10.0713
刺史	-10.0724
必以	-10.0725
朕躬	-10.0726
隳	-10.0728
二十日	-10.073
臣竊見	-10.0731
擇其	-10.0734
五分	-10.0735
䝉聖恩	-10.0735
所議	-10.0735
降㫖	-10.0738
轉行	-10.0741
悖	-10.0742
一摺	-10.0747
汗	-10.0748
未嘗不	-10.0752
災傷	-10.0752
遼	-10.0756
正人	-10.0757
一官	-10.076
以正	-10.0763
有此	-10.0765
朕所	-10.0766
四十	-10.0767
箇	-10.0768
帑	-10.0772
科道	-10.0774
此外	-10.0776
羽	-10.078
駐防	-10.0781
聖慈	-10.0781
浩	-10.0782
陛下以	-10.0783
川省	-10.0787
擁	-10.0789
妨	-10.0792
柱	-10.0793
今又	-10.0793
即令	-10.0796
新任	-10.0798
不少	-10.0802
瞻	-10.0808
夥	-10.0809
使天下	-10.0809
慎重	-10.0811
沿海	-10.0813
必能	-10.0815
人臣	-10.0816
突	-10.0816
臻	-10.0816
墾	-10.0827
操練	-10.0828
天之	-10.084
㳺	-10.0842
前奏	-10.0844
都統	-10.0848
時有	-10.0851
亭	-10.0857
髙下	-10.086
在彼	-10.0862
此言	-10.0862
彈壓	-10.0864
處之	-10.087
撤	-10.0872
名器	-10.088
知人	-10.0891
買補	-10.0894
猶未	-10.0896
不服	-10.0898
必行	-10.09
赤子	-10.09
冐	-10.0905
踵	-10.091
搆	-10.0911
之慮	-10.0912
謫	-10.0912
並未	-10.0914
他人	-10.0915
萬全	-10.0919
二十一日	-10.0919
該員	-10.0919
天津	-10.0921
任用	-10.0928
盡力	-10.0928
以慰	-10.0928
栁	-10.0929
夷狄	-10.0934
皇太子	-10.0942
每嵗	-10.0945
司馬	-10.0948
距	-10.0951
帳	-10.0952
泥	-10.0958
固有	-10.096
勉之	-10.0962
詳議	-10.0963
機宜	-10.0963
我朝	-10.0971
奉旨	-10.0973
弁兵	-10.0975
始終	-10.0976
沉	-10.0978
唐太宗	-10.0985
有限	-10.099
故曰	-10.0992
好惡	-10.0993
矣此	-10.0998
公用	-10.0998
霑足	-10.1004
内臣	-10.1004
軍務	-10.1006
使者	-10.1011
用事	-10.1012
絲	-10.1014
臣竊謂	-10.1017
何者	-10.1018
贍	-10.102
邊事	-10.102
中有	-10.1024
夙	-10.1024
㢤	-10.1027
即將	-10.1028
上諭大學士等曰	-10.1032
處所	-10.1032
行走	-10.1035
稽察	-10.1035
淤	-10.1036
亦宜	-10.1038
更張	-10.1038
此誠	-10.1041
悲	-10.1045
可不	-10.1047
䧟	-10.1048
當即	-10.105
上時	-10.1051
憚	-10.1055
鄂	-10.1056
五六	-10.106
詰	-10.1061
復有	-10.1065
善惡	-10.1066
凖	-10.1067
染	-10.1067
劇	-10.1068
莫能	-10.1073
恢	-10.1077
血	-10.1077
控	-10.1079
勢必	-10.1079
九十	-10.1081
轉運司	-10.1084
任意	-10.1087
弭	-10.1087
財物	-10.109
售	-10.1093
軌	-10.1102
嚴禁	-10.1102
之節	-10.1112
級	-10.1117
感戴	-10.1119
恩澤	-10.112
所致	-10.1129
阜	-10.1131
稔	-10.1134
奢	-10.114
諭旨	-10.1143
迨	-10.1146
亦難	-10.1149
遵奉	-10.1151
外所有	-10.1153
元元	-10.1153
猥	-10.1153
數千	-10.1155
之具	-10.1158
為先	-10.116
刦	-10.116
㳟	-10.1161
孚	-10.1162
𥘉	-10.1163
翰林學士	-10.1167
将軍	-10.1174
重大	-10.1175
邁柱	-10.1183
與夫	-10.1183
米石	-10.1194
頭目	-10.1203
李衞	-10.1203
為重	-10.1204
戢	-10.1208
所行	-10.121
城池	-10.1211
不息	-10.1212
户口	-10.1216
雖欲	-10.1219
愛惜	-10.1219
彈	-10.1221
者其	-10.1221
揺	-10.1224
何人	-10.1225
而復	-10.1227
一半	-10.123
之門	-10.1235
必至	-10.1236
博士	-10.1238
飲食	-10.124
聖鑒	-10.1242
拯	-10.1244
江浙	-10.1247
言事	-10.125
佐領	-10.1257
迂	-10.1259
案件	-10.126
沛	-10.1261
今既	-10.1262
悍	-10.1264
初七日	-10.1264
可惜	-10.1266
雍正九年	-10.1279
逰	-10.128
童	-10.1284
不信	-10.1294
恢復	-10.1296
潘	-10.1302
諄諄	-10.1302
磨	-10.1302
臨時	-10.1304
失其	-10.1307
應用	-10.131
賢否	-10.1318
脚	-10.1318
上奏曰臣	-10.1319
肉	-10.1324
耗羡	-10.1326
卽	-10.1329
領兵	-10.1337
其可	-10.1341
洗	-10.1346
六百	-10.1347
凡事	-10.1349
沐	-10.1355
詔㫖	-10.1368
鎗	-10.1368
從此	-10.137
學習	-10.1372
日期	-10.1375
掣	-10.1375
豐收	-10.1376
元豐	-10.139
外其	-10.1396
無過	-10.1396
如故	-10.1397
等府	-10.1399
丕	-10.1401
遥	-10.1402
冒昧	-10.1408
固原	-10.1411
壅	-10.1417
情弊	-10.1417
祭祀	-10.1424
聖祖	-10.1424
之效	-10.1426
上奏曰臣聞	-10.1429
十三日	-10.1434
徃徃	-10.1434
各府	-10.1436
病故	-10.144
妥	-10.1442
幫	-10.1443
者為	-10.1445
鼓舞	-10.1446
闗係	-10.1449
兩淮	-10.145
節制	-10.1451
所聞	-10.1451
失所	-10.1452
不獲	-10.1454
矣陛下	-10.1458
孔毓珣	-10.1467
損益	-10.1469
陪	-10.1469
股肱	-10.1469
員名	-10.1472
繕	-10.1473
奔走	-10.1475
帝王之	-10.1476
貞觀	-10.148
歉	-10.1484
漢唐	-10.1484
奨	-10.1496
百里	-10.1496
見今	-10.1497
豐稔	-10.1497
之學	-10.15
與其	-10.1502
則為	-10.1503
收貯	-10.1504
十四	-10.1504
本末	-10.1505
一家	-10.1505
邊方	-10.151
兵備	-10.1511
倭	-10.1513
翰	-10.1516
今來	-10.1517
邊境	-10.1517
酌議	-10.1518
印務	-10.1521
倖	-10.1522
力行	-10.1524
弁	-10.1525
詭	-10.1528
刑獄	-10.1529
無虞	-10.1533
雇	-10.1533
其子	-10.1541
竊以	-10.1548
降指揮	-10.1549
詩曰	-10.1554
袁	-10.1558
必無	-10.156
捧	-10.156
墨	-10.1565
之策	-10.1566
錦	-10.157
暢	-10.1577
財賦	-10.1579
匡	-10.158
呈報	-10.1581
養廉	-10.1581
者乃	-10.1584
溥	-10.1586
淫	-10.1593
𦂳要	-10.1594
所至	-10.1603
保舉	-10.1609
遂使	-10.161
它	-10.1611
麻	-10.1616
所貴	-10.1617
預備	-10.1622
之曰	-10.1635
將官	-10.165
國公	-10.1651
萬民	-10.1655
職業	-10.1659
廷臣	-10.1664
汪	-10.167
臣竊惟	-10.1671
其本	-10.1672
英宗	-10.1674
二縣	-10.1675
竝無	-10.1678
甚至	-10.1679
由此	-10.1684
半年	-10.1688
狡	-10.1688
髙其倬	-10.1688
積弊	-10.169
周詳	-10.1699
太廟	-10.17
延綏	-10.1705
欽奉	-10.1709
恪	-10.171
鋪	-10.1713
凝	-10.1714
榜	-10.1716
君父	-10.1721
技	-10.1723
速行	-10.1724
孔子曰	-10.1725
府庫	-10.1727
被災	-10.1732
八十	-10.1734
寕	-10.1739
絹	-10.1741
神明	-10.1748
之類	-10.1751
八九	-10.1752
不分	-10.1756
委曲	-10.1761
無庸	-10.1762
礮	-10.1768
四五	-10.1769
明年	-10.1783
不令	-10.1786
給發	-10.1791
之體	-10.1795
等物	-10.1799
摧	-10.1799
判官	-10.1802
武備	-10.1802
一曰	-10.1803
則又	-10.1806
臣願	-10.1806
何也	-10.1807
巢	-10.1807
考之	-10.1808
歛	-10.1808
署撫	-10.1812
矧	-10.1814
格外	-10.1818
去嵗	-10.182
箭	-10.1835
廬	-10.1837
不使	-10.1839
鑑	-10.1842
陜	-10.1846
不特	-10.1848
仰體	-10.1861
李紱	-10.1864
天威	-10.1865
竊惟	-10.1866
倉卒	-10.1866
隨時	-10.1869
惰	-10.1871
事勢	-10.1872
數萬	-10.1876
荘	-10.1876
脅	-10.1876
洩	-10.1883
㓂	-10.1885
憫	-10.1892
經營	-10.1897
而言	-10.1904
昇	-10.1907
應援	-10.1907
牆	-10.1908
莫敢	-10.1911
稿	-10.1911
任其	-10.1912
安得	-10.1913
鬻	-10.1913
翰林	-10.1913
光武	-10.1915
聖德	-10.1918
進貢	-10.1922
存貯	-10.1924
庶政	-10.1925
之迹	-10.1927
無辜	-10.1927
委署	-10.1927
嘉靖	-10.1933
這	-10.1935
輝	-10.1941
嗚呼	-10.1942
臣嘗	-10.1945
有事	-10.1952
叅將	-10.1954
其害	-10.1956
港	-10.1958
充軍	-10.1959
捍	-10.1961
皆是	-10.1974
區	-10.1975
安能	-10.1977
和氣	-10.198
聖祖仁皇帝	-10.1981
霑	-10.1982
廼	-10.1987
至扵	-10.1994
河西	-10.1995
此亦	-10.1995
燒	-10.1996
而致	-10.1998
得雪	-10.1999
前徃	-10.2001
謹將	-10.2007
武職	-10.2015
括	-10.2016
噶爾丹	-10.2018
畆	-10.2018
法司	-10.2019
十九日	-10.2032
憂勤	-10.2032
堰	-10.2034
恐有	-10.2036
又論	-10.2036
太原	-10.2038
武王	-10.2038
不測	-10.204
灌	-10.204
雍正十年	-10.2041
羞	-10.2043
霸	-10.2051
既不	-10.2051
防範	-10.2056
又於	-10.2059
懋	-10.2059
以供	-10.206
恊	-10.2066
繇	-10.2068
臣雖	-10.208
召募	-10.2082
百年	-10.2084
後來	-10.2087
波	-10.2087
在上	-10.2087
為一	-10.2088
州知州	-10.2089
此心	-10.2091
而未	-10.2094
細加	-10.2098
宇	-10.2104
風雨	-10.2107
世之	-10.2108
無私	-10.2111
之位	-10.2111
俱經	-10.2112
等縣	-10.2112
饗	-10.2115
戰守	-10.2115
叶	-10.2115
皆為	-10.2119
南郊	-10.2123
堅固	-10.2126
司官	-10.2129
知所	-10.2133
舖	-10.2136
授以	-10.2138
伏乞睿鑒謹奏	-10.2138
一身	-10.2141
二千	-10.2144
款	-10.2153
四百	-10.2154
兩府	-10.216
計議	-10.2161
聖慮	-10.2162
余	-10.2165
闊	-10.2165
進用	-10.2165
網	-10.2169
熙	-10.217
江寧	-10.2172
猷	-10.2176
二者	-10.218
秋成	-10.2182
本處	-10.2182
天下之大	-10.2186
人命	-10.2187
二十年	-10.2187
十四日	-10.2193
農民	-10.2198
郡守	-10.2199
一例	-10.2207
照得	-10.2207
紹興	-10.2207
地勢	-10.2207
不勝幸甚	-10.2217
托	-10.2219
欲其	-10.222
伏惟陛下	-10.2222
自為	-10.2225
謨	-10.2228
皆可	-10.2231
宜令	-10.224
壘	-10.2241
别無	-10.2243
捷	-10.2245
侵蝕	-10.2246
竊恐	-10.225
為首	-10.225
又奉上諭	-10.2254
經費	-10.2256
不逮	-10.2261
不拘	-10.2271
九分	-10.2274
詔令	-10.2274
一心	-10.2277
等各	-10.2277
為善	-10.2281
物料	-10.2281
親戚	-10.2287
不立	-10.2288
副都統	-10.2291
實係	-10.2291
融	-10.2292
拖欠	-10.2295
奏銷	-10.2302
選用	-10.2302
妻子	-10.2307
四千	-10.2307
可乎	-10.2309
若非	-10.231
測	-10.231
夫人	-10.2315
詳細	-10.2316
漸次	-10.2321
拆	-10.2321
觀之	-10.2326
之仁	-10.2328
賠補	-10.2335
臣以為	-10.2342
祧	-10.2347
之㫖	-10.2349
政令	-10.235
開墾	-10.2352
窩	-10.2358
憐	-10.2359
朕思	-10.236
侮	-10.2362
夾	-10.2364
寛宥	-10.2364
即如	-10.2365
劣	-10.2366
不自	-10.2369
議覆	-10.2369
群	-10.2372
該督撫	-10.2374
怡親王	-10.2376
即可	-10.2378
妾	-10.2379
價值	-10.2387
殫	-10.2394
上書	-10.2397
芳	-10.2401
周知	-10.2404
賞賜	-10.2406
什	-10.2406
所費	-10.2406
亦未	-10.2413
建立	-10.2416
治天下	-10.2419
狹	-10.242
某人	-10.2422
正法	-10.2423
即有	-10.2425
揭	-10.2425
義理	-10.2425
小心	-10.243
哉臣	-10.2432
蘭州	-10.2432
日新	-10.2437
都督	-10.2438
刷	-10.2438
文帝	-10.244
若是	-10.2444
從而	-10.2445
既無	-10.2448
其情	-10.2448
關係	-10.2449
十八	-10.2453
亦以	-10.2454
仙	-10.2454
所知	-10.2458
多少	-10.2459
今天下	-10.246
歴代	-10.2464
非惟	-10.247
七分	-10.2471
招撫	-10.2475
迭	-10.2475
壤	-10.2479
論奏	-10.2482
套	-10.2483
為念	-10.2484
銘	-10.2486
其名	-10.2487
職任	-10.2492
在陛下	-10.2492
孟子	-10.2504
叩	-10.2505
讐	-10.2506
約有	-10.2506
貿易	-10.2508
臣工	-10.2508
拙	-10.2509
無非	-10.2512
蘇州	-10.2519
而民	-10.252
上聞	-10.2522
軍旅	-10.2525
大禮	-10.2527
攬	-10.2533
王師	-10.2536
站	-10.2536
纂	-10.2537
整頓	-10.2539
之流	-10.2542
夫以	-10.2543
隊	-10.2544
劄子	-10.2545
種種	-10.2545
其力	-10.2547
重地	-10.2549
治平	-10.2551
改為	-10.2554
五帝	-10.2557
上言曰	-10.2561
即以	-10.2563
西寧	-10.2564
冬至	-10.2565
伏覩	-10.2565
守禦	-10.2567
所載	-10.2569
孽	-10.2571
今春	-10.2571
曰朕	-10.2572
小臣	-10.2572
愚見	-10.2574
邸	-10.258
取士	-10.2583
日益	-10.2583
瓦	-10.2586
誌	-10.2586
邁	-10.2588
年間	-10.259
墊	-10.2591
蔣	-10.2592
易曰	-10.2593
新舊	-10.2594
忠誠	-10.2599
所轄	-10.2603
良民	-10.2604
二名	-10.2609
夏秋	-10.261
朽	-10.2612
之行	-10.2612
之端	-10.2613
凌	-10.2617
地畝	-10.2619
糧餉	-10.262
騾	-10.2622
規模	-10.2623
責之	-10.2625
二十四	-10.2625
不以為	-10.2627
莫如	-10.2627
揑	-10.263
已行	-10.2633
紫	-10.2636
本地	-10.2637
俞	-10.2639
治亂	-10.2644
猶可	-10.2648
沿邊	-10.2649
無一	-10.2651
傳諭	-10.2653
去訖	-10.2656
之道也	-10.2657
但恐	-10.2659
一時之	-10.2665
逺方	-10.2669
稱職	-10.267
俞允	-10.2672
宮	-10.2674
晏	-10.268
奉天	-10.2681
人力	-10.2681
十六	-10.2682
深為	-10.2683
也至於	-10.2686
皆係	-10.2686
兩月	-10.2686
田畝	-10.2689
今已	-10.269
發遣	-10.2695
粤東	-10.2696
柴	-10.2697
賂	-10.2697
所陳	-10.2704
䖍	-10.2712
實屬	-10.2712
為是	-10.2714
以副朕	-10.2715
之性	-10.2717
主事	-10.2718
賠	-10.2719
暑	-10.2722
楊文乾	-10.2723
之區	-10.2724
其君	-10.2725
前世	-10.2727
漢之	-10.2728
擒獲	-10.2729
遐	-10.2738
宰臣	-10.274
別	-10.2741
燭	-10.2745
非獨	-10.2748
異日	-10.2751
楚省	-10.2753
逞	-10.2753
倣	-10.2754
實情	-10.2758
當今	-10.276
今歲	-10.276
少有	-10.2765
具摺	-10.2773
蒙皇上	-10.2773
前事	-10.2773
黽勉	-10.2777
都指揮	-10.2781
則其	-10.2781
儆	-10.279
二曰	-10.2794
考其	-10.2798
即今	-10.2798
一經	-10.2799
泣	-10.28
佃	-10.2802
調遣	-10.2809
黒	-10.281
實難	-10.2811
瞻顧	-10.2811
縁係	-10.2813
悞	-10.2814
辛	-10.2815
直省	-10.2821
有警	-10.2823
矣又	-10.2829
逓	-10.2829
之明	-10.2829
仍乞	-10.2829
兩路	-10.2831
其志	-10.2837
漲	-10.2837
起於	-10.2838
急務	-10.284
非其人	-10.2841
何能	-10.2846
藩庫	-10.2849
二十八日	-10.2851
矣其	-10.2851
效力	-10.2851
天子之	-10.2854
外任	-10.2858
其說	-10.2866
嘉祐	-10.2866
具本	-10.2872
第二	-10.2873
糧草	-10.2875
十餘	-10.2875
為天下	-10.2876
覈	-10.2877
得其人	-10.2882
之末	-10.2889
窘	-10.2891
安撫	-10.2893
額外	-10.2894
乎此	-10.29
硃批諭㫖巻	-10.2907
朴	-10.2908
謹奏覽	-10.2911
申報	-10.2912
犬馬	-10.2915
近聞	-10.2931
其法	-10.2931
北敵	-10.2935
於朝	-10.2937
固守	-10.2938
剥	-10.2943
秋禾	-10.2944
收穫	-10.2946
亦屬	-10.2946
恐懼	-10.2949
腹	-10.2952
條陳	-10.2959
倉穀	-10.2959
者今	-10.2959
康熙	-10.2964
洪恩	-10.2969
水陸	-10.2971
仍行	-10.2972
酷	-10.2972
挺	-10.2974
前此	-10.2974
一槩	-10.2974
者雖	-10.2978
賑恤	-10.2978
近年以來	-10.2978
不逺	-10.2979
樁	-10.2979
風聞	-10.2982
何由	-10.2983
亦不能	-10.2987
之案	-10.2989
李衛	-10.2993
自來	-10.2994
司徒	-10.2994
迷	-10.2995
愚昧	-10.2997
句	-10.2998
拉	-10.2998
盤查	-10.3
文學	-10.3001
聖躬	-10.3002
考察	-10.3002
得罪	-10.3009
初五日	-10.301
勦	-10.3016
武臣	-10.302
紊	-10.3023
忠良	-10.3025
責任	-10.3026
之分	-10.3026
矣若	-10.3027
夢	-10.3027
河水	-10.3028
無幾	-10.303
墻	-10.303
晦	-10.3033
國事	-10.3034
稟	-10.3037
宸	-10.304
伏望皇上	-10.3048
未定	-10.3052
者不過	-10.3052
禮官	-10.3056
有㫖	-10.3056
設有	-10.3059
鈞	-10.306
致治	-10.306
逃亡	-10.307
查拏	-10.3077
墮	-10.3088
即於	-10.3093
三府	-10.3094
揀	-10.3101
府屬之	-10.3107
已上	-10.3113
箐	-10.3113
軍中	-10.3114
屠	-10.3114
姜	-10.3115
之年	-10.3115
扇	-10.3118
當日	-10.312
熈	-10.3123
徐州	-10.3128
為此謹奏	-10.3129
與否	-10.313
到任後	-10.3133
查議	-10.3134
隆恩	-10.3136
知制誥	-10.3141
不絶	-10.3143
收買	-10.3145
民欠	-10.3145
干戈	-10.3148
也自	-10.3158
輟	-10.3158
立功	-10.3158
丗	-10.3159
協同	-10.316
休息	-10.316
人也	-10.3162
謹奏為奏聞事竊	-10.3162
備禦	-10.3165
以次	-10.3166
炎	-10.317
淪	-10.3172
矣故	-10.3172
藴	-10.3173
言其	-10.3174
㸔	-10.3176
攷	-10.318
十八日	-10.318
全無	-10.3182
者衆	-10.3191
城垣	-10.3197
養亷	-10.3202
不疑	-10.3205
而自	-10.3209
帥臣	-10.322
求治	-10.3223
泛	-10.3224
呈稱	-10.3225
闔	-10.3225
守臣	-10.3225
天變	-10.3227
薛	-10.3228
開報	-10.3229
帶兵	-10.3229
之多	-10.3229
其國	-10.3229
繆	-10.323
亦不可	-10.3232
軍器	-10.3237
若夫	-10.324
亦不敢	-10.324
金帛	-10.3246
賄	-10.325
宫中	-10.325
土地	-10.3258
奏乞	-10.3258
之米	-10.3263
中國之	-10.3264
積貯	-10.3266
事君	-10.3266
雨雪	-10.3271
上殿	-10.3275
建昌	-10.3276
低	-10.3283
之極	-10.3286
教之	-10.329
文章	-10.3291
但以	-10.3293
民食	-10.3295
糧道	-10.3303
大業	-10.331
傍	-10.3313
樸	-10.3314
犯法	-10.3316
守之	-10.3317
跪讀之下	-10.3317
經筵	-10.332
甚明	-10.3326
鳥	-10.3326
臣竊以	-10.3329
活	-10.3332
三公	-10.3335
以副	-10.3337
其道	-10.3339
補用	-10.3341
安插	-10.3348
即便	-10.3348
費用	-10.3358
學問	-10.3359
伏乞皇上睿鑒謹奏	-10.3362
二分	-10.3365
為心	-10.3367
宗廟社稷	-10.3372
以充	-10.3372
節度	-10.3376
自謂	-10.3379
明日	-10.3379
隴	-10.3379
甚是	-10.3387
邵	-10.3387
才具	-10.3388
遂致	-10.339
萬石	-10.3392
戲	-10.3396
伏乞皇上睿鑒施行謹奏	-10.34
西路	-10.3401
經過	-10.3409
如是則	-10.341
一朝	-10.3411
有常	-10.3413
各犯	-10.3417
又何	-10.3418
此又	-10.3424
興工	-10.3424
連年	-10.3426
廟堂	-10.3427
聲明	-10.3428
岐	-10.343
甄	-10.3431
初九日	-10.3431
待罪	-10.3431
酌定	-10.3431
雖未	-10.3437
僚	-10.3438
安静	-10.344
為大	-10.3448
匱	-10.3448
裂	-10.3449
徃來	-10.3456
老弱	-10.3459
冕	-10.3459
灘	-10.3459
不敢不	-10.346
著落	-10.3461
協力	-10.3462
轄	-10.3463
而不為	-10.3464
本府	-10.347
迄今	-10.3472
河朔	-10.3475
本職	-10.3476
不受	-10.3478
萬國	-10.3479
其數	-10.348
勞苦	-10.3484
剿	-10.3488
欣	-10.3488
邱	-10.3488
窺伺	-10.3491
拂	-10.3492
甚大	-10.3494
寝	-10.3495
和平	-10.3496
山陵	-10.3501
二十四日	-10.3504
是用	-10.3506
而成	-10.3509
㓜	-10.3511
畏懼	-10.3521
萬人	-10.3521
京官	-10.3526
江省	-10.3526
詳悉	-10.3527
訓諭	-10.3528
城堡	-10.3537
誠為	-10.3537
裝	-10.3537
諸王	-10.3539
牢	-10.354
徵收	-10.354
三曰	-10.3544
氷	-10.3547
提舉	-10.355
軍前	-10.3551
查核	-10.3551
詆	-10.3553
之德	-10.3553
轉運	-10.3555
埽	-10.3561
原籍	-10.3564
其能	-10.3568
失之	-10.3569
鬼	-10.3569
可比	-10.3571
自新	-10.3576
耿	-10.3576
悼	-10.3579
地土	-10.3579
恭惟	-10.358
范時繹	-10.358
孜孜	-10.3581
不可以不	-10.3583
虚實	-10.3595
繕摺	-10.3596
於心	-10.3601
舉動	-10.3601
遣官	-10.3604
怯	-10.3605
店	-10.3608
流離	-10.3611
求之	-10.3611
方得	-10.3613
尚在	-10.3614
陋規	-10.3614
之輩	-10.3616
居心	-10.3618
王室	-10.362
未足	-10.3621
謹按	-10.3625
鋭	-10.3627
年正月	-10.3628
稽古	-10.3629
諸處	-10.363
為治	-10.363
一州	-10.3631
於萬一	-10.3634
崖	-10.3636
堯舜之	-10.3638
未幾	-10.3639
皇恩	-10.3639
之田	-10.3639
君子小人	-10.364
不治	-10.3641
進取	-10.3646
開封府	-10.3651
每石	-10.3654
等衙門	-10.3659
非特	-10.3662
所出	-10.3663
未獲	-10.3667
碎	-10.367
新法	-10.3671
者惟	-10.3673
茂盛	-10.3674
遂至	-10.3674
務在	-10.3675
又如	-10.3676
之過	-10.368
一定	-10.3682
殺死	-10.3686
建議	-10.3697
文書	-10.3697
於後	-10.3698
凍	-10.3699
經術	-10.3702
君之	-10.3703
奉命	-10.371
公忠	-10.3714
前進	-10.3722
醜	-10.3724
名色	-10.3724
朕以	-10.3726
帝曰	-10.3734
共計	-10.3736
各邊	-10.3739
深思	-10.3742
壁	-10.3742
亦多	-10.3745
諸郡	-10.3746
庶使	-10.3746
汴	-10.3746
懦	-10.3748
捉	-10.3752
十六日	-10.3753
等因到	-10.3755
織	-10.3758
禱	-10.3759
之咎	-10.3761
媚	-10.3761
馬政	-10.3762
盡言	-10.3763
奔競	-10.3765
欲使	-10.3768
凡遇	-10.3769
十二日	-10.3774
鋒	-10.3775
宫室	-10.3775
難得	-10.3775
際	-10.3775
計之	-10.3776
運送	-10.3782
萬幾	-10.3784
在内	-10.3784
之樂	-10.3789
有不	-10.379
詳加	-10.3793
期於	-10.3793
桂	-10.3803
五代	-10.381
近來	-10.3811
雖然	-10.3812
械	-10.3812
臨事	-10.3813
仍舊	-10.3819
也臣聞	-10.3822
書之	-10.3825
在任	-10.3827
完結	-10.3828
作弊	-10.3829
又將	-10.3831
為難	-10.3831
遷延	-10.3833
其時	-10.3834
數十萬	-10.3836
赴京	-10.3841
千把	-10.3846
欽奉上諭	-10.3848
漕糧	-10.385
其功	-10.3852
二十二日	-10.3852
斯民	-10.3854
今欲	-10.3855
是則	-10.386
口糧	-10.3864
崩	-10.3868
二十五	-10.3876
二十九日	-10.3876
萬餘	-10.3876
坤	-10.3877
一百二十	-10.3877
臣伏覩	-10.3878
詳稱	-10.3878
人夫	-10.3878
印信	-10.3879
要害	-10.3882
非常之	-10.3887
遼東	-10.3891
墜	-10.3896
以時	-10.3906
沾	-10.3906
䝉恩	-10.3907
監督	-10.391
遲延	-10.3915
汙	-10.3915
一萬	-10.3917
将帥	-10.3919
無罪	-10.3923
具摺奏聞	-10.3923
已久	-10.3924
不願	-10.3925
殊恩	-10.3926
職守	-10.3928
識見	-10.3928
妄行	-10.393
工食	-10.3934
又云	-10.3934
不和	-10.3936
瘠	-10.3939
衣服	-10.3939
大率	-10.394
軫	-10.3941
之令	-10.3941
外省	-10.3942
於陛下	-10.3943
現任	-10.3943
非常	-10.3944
庶人	-10.3945
賢才	-10.3946
頽	-10.3946
臣以謂	-10.3956
挑選	-10.396
下至	-10.3964
製造	-10.3965
吏部尚書	-10.3965
失於	-10.3969
求賢	-10.3973
至重	-10.3974
樞宻院	-10.3974
勁	-10.3974
之詔	-10.3976
節度使	-10.3977
萬方	-10.3981
大功	-10.3983
明主	-10.3988
調發	-10.3994
上柱國	-10.3999
至如	-10.4
泄	-10.4002
侵犯	-10.4003
職掌	-10.4003
所以為	-10.4007
竣	-10.4008
豈敢	-10.4009
汚	-10.4016
二字	-10.4021
提臣	-10.4022
太常	-10.4026
營私	-10.403
你	-10.4032
章奏	-10.4034
行下	-10.4034
有可	-10.4036
𢎞治	-10.4038
原有	-10.4041
而求	-10.4047
萬兩	-10.4049
聖賢	-10.405
隘	-10.405
其任	-10.4051
仍前	-10.4053
杭	-10.4057
兩次	-10.4058
開封	-10.406
隐	-10.4065
平定	-10.4068
實力	-10.407
威福	-10.4073
今月	-10.4075
唐之	-10.4076
保定	-10.4079
析	-10.4086
望陛下	-10.4093
漢人	-10.4097
戈	-10.4098
寘	-10.4098
獵	-10.4101
則民	-10.4104
副總兵	-10.4104
不至於	-10.411
域	-10.4115
請將	-10.4117
不曽	-10.4118
遣人	-10.412
屢次	-10.4122
暇	-10.4124
蟲	-10.4129
而反	-10.4129
曰此	-10.413
大河	-10.4131
駒	-10.4131
王道	-10.4133
韓琦	-10.4134
原額	-10.4134
之威	-10.414
則當	-10.4143
上奏曰	-10.4143
聖政	-10.4145
道員	-10.4146
者並	-10.4148
倉庫	-10.4149
男婦	-10.4149
未曽	-10.415
者甚多	-10.4151
逋	-10.4154
萬事	-10.4155
而止	-10.4156
人口	-10.4157
曷	-10.4159
傳聞	-10.416
哭	-10.4162
□	-10.4162
死亡	-10.4162
劫	-10.4165
更加	-10.4171
交結	-10.4174
邇	-10.4179
使民	-10.4181
時時	-10.4182
相沿	-10.4182
裔	-10.4183
巡按	-10.4187
寛大	-10.4188
營汛	-10.4189
有過	-10.4189
伺	-10.4189
所據	-10.419
具報	-10.4193
黑	-10.4193
寔	-10.4195
忠厚	-10.4195
言官	-10.4196
多士	-10.4198
蒼生	-10.4201
本色	-10.4202
樊	-10.4202
肅州	-10.4205
殿下	-10.4208
而已矣	-10.4209
不意	-10.4212
豈容	-10.4212
僉事	-10.4213
理應	-10.4217
長沙	-10.4217
眞	-10.4219
濶	-10.4221
將伊	-10.4222
諄切	-10.4223
郊祀	-10.4226
之深	-10.4227
骨肉	-10.4227
求其	-10.4229
不論	-10.4229
然臣	-10.423
嫉	-10.423
改正	-10.4233
分布	-10.4235
毅	-10.4236
為法	-10.4237
要地	-10.4237
雖無	-10.4238
紹聖	-10.4239
民田	-10.4239
矣一	-10.4241
為本	-10.4242
該府	-10.4243
以期	-10.4245
乎夫	-10.4249
宣布	-10.4249
聚衆	-10.425
奉公	-10.4252
以是	-10.4253
一縣	-10.4257
神考	-10.4258
通融	-10.4263
非不	-10.4264
陕西	-10.4268
兩制	-10.4269
監生	-10.4274
五日	-10.4275
政務	-10.4276
琦	-10.4281
不忠	-10.4284
命令	-10.4284
趕	-10.4285
以言	-10.4286
正當	-10.4286
吞	-10.4287
午	-10.4288
孰不	-10.4288
頗有	-10.4289
法制	-10.429
掃	-10.4293
士子	-10.43
先王之	-10.4303
親詣	-10.4306
禁中	-10.4311
弄	-10.4313
大員	-10.4313
㒺	-10.4315
於事	-10.4316
聰	-10.4317
仲淹	-10.4318
喀爾喀	-10.4319
功臣	-10.4319
不啻	-10.4321
以明	-10.4327
委之	-10.433
委用	-10.4332
此二	-10.4333
退而	-10.4336
訪察	-10.4336
誨	-10.4337
待之	-10.434
百司	-10.434
疾苦	-10.4346
自必	-10.4348
薨	-10.4349
沖	-10.4351
請託	-10.4361
梗	-10.4364
閫	-10.4365
情理	-10.4367
知道了	-10.437
舊章	-10.4371
迎合	-10.4372
部院	-10.4374
此非	-10.4376
茅	-10.4379
是皆	-10.4382
哲宗	-10.4383
蒸	-10.4383
也況	-10.4387
以禮	-10.4388
之聲	-10.4389
宰執	-10.4391
味	-10.4391
兩京	-10.4391
恭儉	-10.4392
遴選	-10.4392
軍國	-10.4393
才能	-10.4397
詩賦	-10.4397
掲	-10.44
難行	-10.4401
闈	-10.4401
責令	-10.4408
戀	-10.4411
䕃	-10.4413
有道	-10.4414
清理	-10.4416
之源	-10.4416
上時為	-10.4416
土木	-10.4417
聘	-10.4419
亦得	-10.4421
經義	-10.4424
所欲	-10.4425
諭令	-10.4427
其於	-10.4428
發兵	-10.4434
灣	-10.4435
又無	-10.4441
凢	-10.4444
該撫	-10.4444
列聖	-10.4446
以養	-10.4447
報到	-10.4447
稻	-10.4448
亦何	-10.4448
禁軍	-10.4449
王府	-10.4449
鞫	-10.4451
挫	-10.4451
有人	-10.4453
海口	-10.4457
往年	-10.4459
乂	-10.4463
髙厚	-10.4464
身為	-10.4465
貌	-10.4466
肆行	-10.4466
三十年	-10.4468
號為	-10.4469
便宜	-10.4469
執政大臣	-10.4472
拱	-10.4473
赫	-10.4477
即日	-10.4477
有何	-10.4479
騷擾	-10.4482
檢校	-10.4482
自昔	-10.4483
幸而	-10.4484
匪類	-10.4487
有天下	-10.4488
部落	-10.4489
故道	-10.4491
若果	-10.4498
能否	-10.4504
私意	-10.4504
前赴	-10.4508
皇子	-10.4511
於今	-10.4513
工料	-10.4514
之選	-10.4515
摺内	-10.4515
不實	-10.4516
輯	-10.4517
也如	-10.4518
據此	-10.4519
量加	-10.452
承平	-10.4522
無為	-10.4525
其所以	-10.4526
自首	-10.4528
盡忠	-10.4529
臬司	-10.4534
科舉	-10.4535
禁約	-10.4538
酋	-10.4538
而不得	-10.4538
鹿	-10.4542
宵旰	-10.4543
自可	-10.455
似應	-10.455
確實	-10.4553
需用	-10.4555
何則	-10.4555
累年	-10.4555
四路	-10.4556
二萬	-10.4558
幕	-10.4559
總理	-10.456
乎臣	-10.4573
順天	-10.4579
縦	-10.4582
八分	-10.4585
以報	-10.4589
離任	-10.4596
忤	-10.4598
之需	-10.4598
言而	-10.4601
或謂	-10.461
渾	-10.4615
不可復	-10.4617
蒲	-10.4619
也此	-10.4621
朕亦	-10.4625
臣不勝	-10.4627
終始	-10.4627
各府州縣	-10.463
不畏	-10.4635
内府	-10.4635
也盖	-10.4636
雖不	-10.4636
忝	-10.4639
兩宫	-10.4639
無疑	-10.464
之累	-10.464
兩浙	-10.464
聞見	-10.4646
即當	-10.4647
不甚	-10.4654
之備	-10.4654
豈得	-10.4656
忱	-10.4657
甲兵	-10.4658
皆謂	-10.4658
名實	-10.4659
樂業	-10.466
禀報	-10.466
正直	-10.4663
預為	-10.4665
者陛下	-10.4668
返	-10.467
此數	-10.4673
貝勒	-10.4673
無用	-10.4675
每月	-10.4679
熾	-10.468
善政	-10.4682
奮勇	-10.4682
先是	-10.4684
望其	-10.4684
必當	-10.4686
所管	-10.4687
成敗	-10.4691
起見	-10.4692
倦	-10.4696
國計	-10.4697
青苗	-10.4697
梟	-10.4703
死罪	-10.4704
𦵏	-10.4704
三萬	-10.4705
據報	-10.4706
固當	-10.471
冩	-10.4712
慘	-10.4712
修省	-10.4713
腹裏	-10.4713
視之	-10.4716
重兵	-10.4717
倉榖	-10.4718
並令	-10.472
不多	-10.4725
當以	-10.4728
亦應	-10.4728
不須	-10.4733
數十年	-10.4736
詳請	-10.4744
該司	-10.4744
妙	-10.4745
雍正十一年	-10.4745
知陛下	-10.4749
也朕	-10.4752
則天下幸甚	-10.4752
積欠	-10.4752
之請	-10.477
揚州	-10.477
生於	-10.4771
街	-10.4771
則無	-10.4773
渭	-10.4774
晋	-10.4775
獸	-10.4779
特諭	-10.4786
黎元	-10.4788
凡百	-10.4789
時政	-10.4789
髙麗	-10.479
為盜	-10.4791
飯	-10.4791
棍	-10.4796
下詔	-10.4797
上流	-10.4797
者有之	-10.4801
昔者	-10.4802
刁	-10.4805
有三	-10.4806
今則	-10.4809
行移	-10.4809
帯	-10.4813
之俗	-10.4815
益加	-10.4815
貴賤	-10.4816
裁革	-10.4816
弊端	-10.4818
劄子曰臣	-10.4826
不平	-10.4829
造册	-10.483
諳	-10.483
縣官	-10.4833
鉅	-10.4837
弩	-10.4842
塔	-10.4843
大理	-10.4845
何足	-10.4847
臨御	-10.485
境内	-10.4851
他省	-10.4851
弓馬	-10.4852
者亦有	-10.4858
之見	-10.4858
許其	-10.4862
襄陽	-10.4863
囑	-10.4866
自安	-10.4868
請旨	-10.487
大約	-10.4871
尸	-10.4874
我兵	-10.4874
發落	-10.4878
存亡	-10.4883
魁	-10.4884
以救	-10.4885
撫綏	-10.4885
者俱	-10.4885
裁減	-10.4889
兵革	-10.4891
坐視	-10.4892
紳	-10.4893
曽經	-10.4893
入官	-10.4896
推恩	-10.4902
勉强	-10.4904
每遇	-10.4905
御史臺	-10.4906
嶽	-10.4907
商量	-10.4907
才識	-10.4908
罪人	-10.491
杭州	-10.491
留神	-10.4913
殺之	-10.4914
公務	-10.4919
異時	-10.4921
又經	-10.4922
罄	-10.4922
惟在	-10.4925
行營	-10.4928
以杜	-10.4934
困苦	-10.4934
休戚	-10.4946
此臣所以	-10.4948
促	-10.4948
尉	-10.4953
千户	-10.4955
長安	-10.4959
刃	-10.4963
二處	-10.4966
天聽	-10.4967
視為	-10.4973
西南	-10.4973
侍御史	-10.4975
更改	-10.4977
二聖	-10.4981
鐸	-10.4982
别有	-10.4984
不才	-10.4985
總管	-10.4987
作速	-10.4989
聲勢	-10.4991
将來	-10.4994
敢言	-10.4995
猶恐	-10.4996
少卿	-10.4997
不能自	-10.4997
四分	-10.4998
未安	-10.4998
訪得	-10.5
誠心	-10.5003
年久	-10.5005
不聽	-10.5006
而為之	-10.5009
卸	-10.5009
嗟	-10.501
題明	-10.5018
通州	-10.5022
思所以	-10.5029
此所謂	-10.5034
道府	-10.5034
乎且	-10.5036
各縣	-10.5036
之由	-10.5037
史官	-10.5041
議得	-10.5042
詔曰	-10.5043
將弁	-10.5046
宣示	-10.5047
南方	-10.5048
保其	-10.5049
其在	-10.5053
審明	-10.5054
所繫	-10.5055
䟽曰臣	-10.5055
烏䝉	-10.5057
莫大於	-10.5057
萬邦	-10.5059
凡此	-10.5062
滇省	-10.5063
沿	-10.5066
愛養	-10.5068
名為	-10.5069
一夫	-10.5071
其次	-10.5073
急於	-10.5073
批示	-10.5073
然也	-10.5074
尚多	-10.5078
彬	-10.5082
駮	-10.5082
十七	-10.5084
明楊士竒等撰	-10.5088
所及	-10.5089
四時	-10.509
日食	-10.5094
業已	-10.5095
慶歴	-10.5097
尤宜	-10.5097
赴任	-10.5098
二也	-10.5104
功名	-10.5105
愛君	-10.5106
獲罪	-10.5108
乃是	-10.5108
夀皇	-10.5114
不給	-10.5119
朕聞	-10.512
以全	-10.5121
之寄	-10.5124
並非	-10.5127
將来	-10.5128
所需	-10.5129
方能	-10.5132
大典	-10.5136
鹽政	-10.5137
兵士	-10.5138
以重	-10.5139
所收	-10.5143
摘	-10.5144
姪	-10.5147
國勢	-10.515
設官	-10.5152
不惜	-10.5153
齊蘇勒	-10.5153
精兵	-10.5153
蔵	-10.5156
婚	-10.5157
而得	-10.5161
若使	-10.5162
豈宜	-10.5165
人多	-10.5166
積習	-10.5167
不禁	-10.5167
多矣	-10.5169
修造	-10.5173
可使	-10.5173
京東	-10.5174
天理	-10.5174
兵餉	-10.5175
經歴	-10.5177
禆	-10.518
宣王	-10.5185
挽	-10.5185
耗羨	-10.5186
宦	-10.5186
萬機	-10.5187
公言	-10.5187
熊	-10.5187
臣竊聞	-10.5188
伏願陛下	-10.5189
無多	-10.519
隱匿	-10.5192
覇	-10.5192
不修	-10.5194
理財	-10.5194
自取	-10.5195
蒼	-10.5196
兵力	-10.5196
行禮	-10.5198
𠡠	-10.5198
不職	-10.52
詳定	-10.5202
信任	-10.5203
兵部尚書	-10.5203
薪	-10.5213
圭	-10.5213
公正	-10.5215
特恩	-10.5215
不知其	-10.5215
其説	-10.522
穢	-10.5223
否則	-10.5224
篆	-10.5224
貽誤	-10.523
江蘇	-10.5232
可望	-10.5238
竇	-10.5238
蝗	-10.5244
草率	-10.5246
俱著	-10.5247
供給	-10.5248
者少	-10.525
不正	-10.5253
慚	-10.5253
開導	-10.5255
空虚	-10.5256
更為	-10.5256
無厭	-10.5257
何為	-10.5259
也然而	-10.526
為始	-10.5266
永逺	-10.527
為朝廷	-10.5274
鳥鎗	-10.5274
到京	-10.5275
後患	-10.5278
餘丁	-10.5278
敘	-10.5279
去之	-10.5279
計其	-10.528
大吏	-10.5281
萬姓	-10.5282
聖王	-10.5283
鉛	-10.5284
秋冬	-10.5284
恐其	-10.5285
則不	-10.5288
僣	-10.5292
泊	-10.5292
回籍	-10.5293
两	-10.5293
中書門下	-10.5295
為非	-10.5298
狥	-10.5301
題叅	-10.5302
全完	-10.5304
為急	-10.5307
泗	-10.5309
之儀	-10.5311
平常	-10.5313
歸公	-10.5314
一介	-10.532
睦	-10.5321
審理	-10.5321
透	-10.5323
之習	-10.5323
仍照	-10.5325
賫	-10.5325
雞	-10.5326
火耗	-10.5328
卑職	-10.5328
總之	-10.5328
又恐	-10.533
鄉村	-10.533
管事	-10.5332
終不	-10.5337
名曰	-10.5337
郡國	-10.5338
率領	-10.5339
一有	-10.5344
具疏	-10.5345
恣	-10.5347
之不可	-10.5353
六千	-10.5355
慿	-10.5357
齡	-10.5359
藻	-10.5361
得志	-10.5361
流民	-10.5362
如前	-10.5363
推諉	-10.5366
煥	-10.5368
是否	-10.5369
有大	-10.5374
無能	-10.5377
奉欽依	-10.538
此一	-10.5384
無從	-10.5388
遵旨	-10.5389
一百五十	-10.5393
則人	-10.5395
再四	-10.5395
蘓	-10.5397
徳音	-10.5397
四曰	-10.5402
陳世倌	-10.5402
二十五日	-10.5406
尋常	-10.5406
繁多	-10.5407
有意	-10.5413
於今日	-10.5414
一同	-10.5419
變通	-10.5424
條例	-10.5429
任之	-10.5429
夷人	-10.543
牲	-10.5432
上供	-10.5433
父兄	-10.5437
率皆	-10.5438
大雨	-10.5439
者何	-10.5443
禍亂	-10.5443
資格	-10.5443
畀	-10.5446
卓	-10.5447
疾病	-10.5449
供應	-10.5452
起解	-10.5455
罷之	-10.5457
太守	-10.5458
焦	-10.5462
以助	-10.5462
忠信	-10.5463
於朝廷	-10.5464
千古	-10.5465
此輩	-10.5465
玷	-10.5468
田土	-10.547
上仁宗論	-10.547
陰	-10.547
爛	-10.5471
日用	-10.5474
當此	-10.5476
聲名	-10.5477
絳	-10.5478
至矣	-10.5479
綸	-10.548
不遵	-10.5485
敵國	-10.5486
回奏	-10.549
自非	-10.5494
耆	-10.5502
蹙	-10.5504
一省	-10.5506
六分	-10.5506
以定	-10.5509
可憫	-10.551
桓	-10.5511
從公	-10.5512
應天	-10.5513
謝恩	-10.5513
每日	-10.5515
庸愚	-10.5522
具呈	-10.5531
宗愈	-10.5532
其民	-10.5534
定擬	-10.5534
請以	-10.5537
不由	-10.5542
太和	-10.5542
弔	-10.5545
本道	-10.5545
在此	-10.5547
再有	-10.5548
臣觀	-10.5549
覺察	-10.555
黎庶	-10.5551
利而	-10.5551
一則	-10.5552
若能	-10.5552
需索	-10.5552
負朕	-10.5553
不虞	-10.5554
礙	-10.5557
密奏	-10.5559
大舉	-10.556
無論	-10.5561
未到	-10.5561
贏餘	-10.5563
學政	-10.5565
得所	-10.5567
卹	-10.557
之善	-10.5572
毛文銓	-10.5575
閭	-10.5576
擔	-10.5578
太常寺	-10.5582
之甚	-10.5582
往返	-10.5583
忠賢	-10.5583
皆當	-10.5583
不稱	-10.5586
數千里	-10.5586
公道	-10.5587
職司	-10.5592
悛改	-10.5593
註	-10.5601
礦	-10.5601
起居	-10.5602
即時	-10.5603
其故	-10.5604
三品	-10.5607
今聞	-10.5608
淑	-10.5611
意見	-10.5612
蠶	-10.5612
千餘	-10.5613
優容	-10.5615
戰船	-10.5615
之化	-10.5615
實心任事	-10.5615
士庶	-10.5616
尹繼善	-10.5616
此意	-10.5619
閔	-10.562
何可	-10.562
騎射	-10.5622
問罪	-10.5622
奴	-10.5625
使得	-10.5627
大理寺	-10.5628
五萬	-10.5629
等第	-10.5633
職名	-10.5635
春夏	-10.5636
亦嘗	-10.5641
可畏	-10.5642
闇	-10.565
被其	-10.5651
頗多	-10.5653
明矣	-10.5653
恐非	-10.5658
而來	-10.5658
萬餘兩	-10.566
邊防	-10.5663
漢軍	-10.5663
推官	-10.5665
車駕	-10.5665
申飭	-10.5666
洵	-10.5668
隄防	-10.5669
人物	-10.567
可知矣	-10.567
所由	-10.567
亦須	-10.5672
東北	-10.5674
重輕	-10.5676
日以	-10.5676
跪讀	-10.5677
之積	-10.5682
盔甲	-10.5685
禘	-10.5685
掛	-10.5686
之書	-10.5688
債	-10.5688
之意也	-10.569
不次	-10.5693
合行	-10.5695
官弁	-10.5696
聽候	-10.5696
寮	-10.57
寅	-10.5701
議叙	-10.5706
徇私	-10.5708
國子監	-10.571
原無	-10.571
查有	-10.5714
年老	-10.5715
憲宗	-10.5715
引河	-10.5718
兩岸	-10.5721
其位	-10.5722
豁免	-10.5726
戶	-10.5726
奥	-10.5728
禽	-10.5728
出口	-10.5728
穿	-10.5729
謂宜	-10.573
清楚	-10.5731
四人	-10.5733
蘇松	-10.5736
思慮	-10.5736
至是	-10.5738
利病	-10.5739
有才	-10.5744
天下之士	-10.5748
有如	-10.5749
八千	-10.5752
梅	-10.5755
治體	-10.5757
貲	-10.5758
影	-10.5761
圓	-10.5764
天人	-10.5764
皇帝陛下	-10.5766
朝政	-10.5767
荆州	-10.5769
衣冠	-10.577
坦	-10.5773
訛	-10.5776
何不	-10.5777
聖學	-10.578
廵檢	-10.5781
不報	-10.5781
手足	-10.5782
十人	-10.5783
躬親	-10.5783
可得而	-10.5784
收成分數	-10.5787
靈州	-10.5787
安南	-10.5788
之賢	-10.5791
不覺	-10.5792
愚民	-10.5794
裘	-10.5795
完納	-10.5798
前古	-10.58
佩	-10.5801
額設	-10.5802
構	-10.5803
與人	-10.5807
之漸	-10.5816
謹奏為恭報	-10.5816
其私	-10.5816
得一	-10.5821
盡善	-10.5822
教官	-10.5823
亦已	-10.5823
元氣	-10.5824
逺人	-10.5828
有成	-10.5829
名下	-10.5831
昻	-10.5832
卧	-10.5834
本寺	-10.584
則可以	-10.5842
吾之	-10.5851
偃	-10.5852
軒	-10.5859
大將	-10.5863
久矣	-10.5864
北岸	-10.5865
報效	-10.5865
爾部	-10.5868
而進	-10.5871
憂國	-10.5876
者固	-10.5884
竊謂	-10.5899
事故	-10.5907
節儉	-10.5909
愼	-10.5909
可取	-10.5911
私鹽	-10.5913
蹤	-10.5913
雙	-10.5914
何謂	-10.5916
衆心	-10.5916
既而	-10.5916
營房	-10.5919
無地	-10.592
是謂	-10.5921
韶	-10.5924
賊衆	-10.5926
裨	-10.5929
以昭	-10.593
歴任	-10.5933
輸納	-10.5934
謂陛下	-10.5937
刋	-10.5941
艾	-10.5945
穴	-10.5947
府縣	-10.595
不均	-10.5951
旺	-10.5953
士氣	-10.5954
無故	-10.5956
各路	-10.5957
誠以	-10.5958
養之	-10.5961
之基	-10.5963
本無	-10.5963
之詞	-10.5964
之險	-10.5964
首領	-10.5964
義勇	-10.5964
成就	-10.5968
翻	-10.5969
止是	-10.5972
臣近	-10.5979
交通	-10.598
不恤	-10.5981
舅	-10.5983
無所不	-10.5983
而朝廷	-10.5984
歷	-10.5985
敢有	-10.5988
殖	-10.5989
聞其	-10.5992
者豈	-10.5996
標下	-10.6
曾經	-10.6
不能無	-10.6001
二十萬	-10.6002
論議	-10.6003
現有	-10.6007
朕自	-10.6009
提調	-10.6012
畿	-10.6013
恩賞	-10.6015
掖	-10.602
即為	-10.602
冲	-10.6021
握	-10.6021
糧船	-10.6023
恪遵	-10.6024
必使	-10.6025
困於	-10.6027
錢物	-10.6027
存心	-10.603
弃	-10.603
合於	-10.6031
于此	-10.6033
下流	-10.6034
陸路	-10.6034
去其	-10.6034
一錢	-10.6036
題報	-10.6036
天語	-10.6036
之異	-10.6036
臣愚以為	-10.6038
之務	-10.6041
瓊	-10.6043
一件	-10.6045
鹽課	-10.6046
執事	-10.6047
饋	-10.605
安得不	-10.6051
害民	-10.6054
而起	-10.6055
社倉	-10.6055
鬭	-10.6057
言語	-10.6057
三代之	-10.6059
既多	-10.606
陳時夏	-10.6061
渥	-10.6062
王國棟	-10.6062
范仲淹	-10.6063
虗	-10.6064
吝	-10.6069
天性	-10.6076
賊首	-10.6077
布衣	-10.608
徼	-10.6083
今雖	-10.6088
米穀	-10.6088
兼管	-10.6089
安可	-10.6089
剋	-10.6093
小事	-10.6093
吏民	-10.6093
亢	-10.6095
奇	-10.6095
州縣官	-10.6096
百户	-10.6098
饑饉	-10.6102
衆多	-10.6103
醇	-10.6104
固非	-10.6107
盡數	-10.6108
解送	-10.611
一府	-10.6112
廩	-10.6114
漳	-10.6116
於地方	-10.6118
紓	-10.6119
首尾	-10.6121
伏以	-10.6128
禪	-10.6131
論事	-10.6139
柳	-10.6143
卦	-10.6145
至有	-10.6146
上䟽	-10.6148
要務	-10.6148
㕘奏	-10.615
相去	-10.615
滿漢	-10.6152
而猶	-10.6154
剰	-10.6155
凛	-10.6155
萬世之	-10.6155
執法	-10.6159
急公	-10.6161
成都	-10.6163
仰祈睿鑒事竊	-10.6163
不准	-10.6163
困窮	-10.6164
千百	-10.6165
而終	-10.6168
俟其	-10.6168
斌	-10.6168
前件	-10.6173
亦未可定	-10.618
聨	-10.6181
鬱	-10.6181
蔑	-10.6181
輔弼	-10.6185
固不可	-10.6186
約計	-10.6188
十日	-10.6188
試用	-10.619
罷去	-10.6192
罷黜	-10.6192
告成	-10.6193
已來	-10.6195
一出	-10.6197
二十餘	-10.6199
乃以	-10.6202
寒心	-10.6204
見任	-10.6208
見之	-10.6212
撲	-10.6212
此豈	-10.6216
未曾	-10.6217
過失	-10.6221
之長	-10.6227
勉勵	-10.6231
特降	-10.6234
也但	-10.6238
日後	-10.624
仰惟	-10.6242
粤西	-10.6242
也然則	-10.6243
議擬	-10.6243
積年	-10.6248
不患	-10.625
單于	-10.6256
堵	-10.6258
詳察	-10.6258
他處	-10.6258
鞭	-10.6259
守僃	-10.6261
務須	-10.6261
仰祈	-10.6263
婦人	-10.6266
既經	-10.6268
之常	-10.6268
而歸	-10.6271
鬼神	-10.6274
以事	-10.6275
之規	-10.6276
王之	-10.6276
伏祈睿鑒謹奏	-10.6277
不難	-10.6281
三等	-10.6284
殊屬	-10.6288
廣南	-10.6288
之列	-10.6291
少而	-10.6292
總制	-10.6298
巡按御史	-10.63
操演	-10.63
尚書省	-10.6302
然猶	-10.6302
初十日	-10.6302
撫恤	-10.6305
演	-10.6305
矣且	-10.6306
覃	-10.6306
仁宗皇帝	-10.6308
祖父	-10.6309
惟以	-10.6311
祫	-10.6314
神武	-10.6316
伏讀	-10.6318
八百	-10.6321
成法	-10.6324
五人	-10.6325
幾何	-10.6328
夏人	-10.6329
屢經	-10.6329
時日	-10.6329
官制	-10.6331
商民	-10.6332
頋	-10.6334
奸邪	-10.6334
所舉	-10.6335
方為	-10.6335
功徳	-10.6338
毫	-10.6341
山林	-10.6342
不務	-10.6343
蔡京	-10.6347
而易	-10.635
之助	-10.635
中軍	-10.635
出納	-10.635
正項	-10.6353
偶有	-10.6355
錢榖	-10.6357
代為	-10.6361
如天	-10.6362
甚矣	-10.6363
者當	-10.6364
獨斷	-10.6365
亦不過	-10.6366
彞	-10.6366
直抵	-10.6367
詎	-10.6367
葺	-10.6368
也是以	-10.6368
經畧	-10.6368
永平	-10.6368
督責	-10.6369
尼	-10.637
汰	-10.637
周之	-10.6371
皇天	-10.6372
訐	-10.6372
中人	-10.6373
方許	-10.6375
雜處	-10.6375
布按二司	-10.6375
祻	-10.6382
俾得	-10.6382
即乞	-10.6386
而退	-10.6386
實用	-10.6386
之所致也	-10.6389
年二月	-10.639
災變	-10.6392
士人	-10.6398
諸生	-10.6398
侍中	-10.64
羙	-10.6403
近世	-10.6404
竭誠	-10.6405
嵇曾筠	-10.6411
嬰	-10.6412
詳明	-10.6413
慙	-10.6413
同列	-10.6414
富弼	-10.6418
千萬	-10.6419
不勝其	-10.6419
甚屬可嘉	-10.6423
敗露	-10.6424
悉皆	-10.6425
流移	-10.6425
姦人	-10.6432
皆知	-10.6434
曰臣聞	-10.6438
而上	-10.6438
於中	-10.6438
再為	-10.6439
陟	-10.6439
霜	-10.6441
盛京	-10.6444
大半	-10.6447
歡呼	-10.6448
回京	-10.6449
察之	-10.6452
話	-10.6452
衮	-10.6452
掌印	-10.6454
風化	-10.6455
晝	-10.6456
言也	-10.6457
三十六	-10.6459
邊臣	-10.6461
奉到	-10.6464
舊有	-10.6464
要在	-10.6466
不察	-10.6467
盤費	-10.6471
人無	-10.6475
之誅	-10.6475
聞知	-10.6476
僧道	-10.648
出師	-10.648
於國	-10.6483
奏准	-10.6483
所難	-10.6486
則陛下	-10.6487
悉行	-10.6487
埋	-10.6488
太尉	-10.6491
䜛	-10.6491
明知	-10.6491
翟	-10.6492
以盡	-10.6492
十五日	-10.6493
論之	-10.6494
海疆	-10.6498
胥吏	-10.65
極言	-10.6506
蠻夷	-10.6507
言責	-10.6508
裨益	-10.6511
愚以為	-10.6519
人有	-10.6521
又非	-10.6521
秋收	-10.6524
庶可	-10.6527
璧	-10.6527
亨	-10.6527
奕	-10.653
南陽	-10.6531
織造	-10.6531
劒	-10.6531
囊	-10.6532
壅蔽	-10.6533
物議	-10.6535
怠忽	-10.6538
平生	-10.6539
常有	-10.6545
石零	-10.6545
何事	-10.6548
譬如	-10.6552
出征	-10.6552
九百	-10.6556
事機	-10.6556
承襲	-10.6557
改過	-10.6558
知有	-10.656
挨	-10.6562
好生	-10.6562
世祖	-10.6562
有能	-10.6565
失職	-10.6566
叚	-10.6568
十數	-10.657
霍	-10.657
備用	-10.6571
報國	-10.6571
吹	-10.6571
二十六日	-10.6573
金銀	-10.6576
鐘	-10.6578
太宗皇帝	-10.6578
清明	-10.6582
即與	-10.6583
上䟽曰	-10.6584
二十八	-10.6587
轉輸	-10.6587
唐虞	-10.6587
送部	-10.6588
上意	-10.659
侵欺	-10.6591
嘆	-10.6593
武昌	-10.6593
感恩	-10.6596
鹽法	-10.6597
邊鄙	-10.6597
茍有	-10.6599
盖以	-10.6601
荷䝉	-10.6603
甚者	-10.6603
羸	-10.6606
也况	-10.6607
南岸	-10.6609
盛德	-10.6611
㤙	-10.6611
不爲	-10.6614
優劣	-10.6614
之比	-10.6617
皆在	-10.6618
初無	-10.6623
國帑	-10.6626
西戎	-10.6631
爾其	-10.6631
而使	-10.6635
感動	-10.6635
脚價	-10.6636
合用	-10.6638
而不言	-10.6638
時為	-10.6638
目擊	-10.664
既久	-10.6641
枯	-10.6645
岳濬	-10.6649
煙	-10.6651
道徳	-10.6651
取人	-10.6654
陛見	-10.6654
所部	-10.6658
之急	-10.6659
土民	-10.6662
濵	-10.6669
古州	-10.6669
緯	-10.6669
闕失	-10.6671
公項	-10.6671
大軍	-10.6672
子曰	-10.6673
五錢	-10.6673
該本部	-10.6677
土人	-10.6677
孝宗	-10.6679
報効	-10.668
人君之	-10.6681
諳練	-10.6683
於天	-10.6684
可保	-10.6685
特命	-10.6687
之黨	-10.6688
調用	-10.6688
菜	-10.6689
沴	-10.6689
詩書	-10.669
諧	-10.6693
一本	-10.6693
呂	-10.6695
久任	-10.6695
奏議	-10.6698
恤民	-10.6699
近習	-10.67
之材	-10.67
官爵	-10.67
所論	-10.6702
之設	-10.6702
豐年	-10.6703
不廢	-10.6711
無補	-10.6712
乎今	-10.6713
失業	-10.6715
不動	-10.6715
亦甚	-10.6715
風憲	-10.6723
人以	-10.6725
陽縣	-10.6726
二千石	-10.6726
敵騎	-10.6726
之所謂	-10.6727
兩河	-10.6727
鉞	-10.6729
獄訟	-10.673
夤縁	-10.6731
因事	-10.6733
人役	-10.6737
皇仁	-10.6737
視朝	-10.6741
何處	-10.6741
入境	-10.6742
二十三	-10.6744
天下之心	-10.6746
殊不知	-10.6746
晴	-10.6746
公家	-10.6747
偷安	-10.6749
各案	-10.6753
其上	-10.6755
一兩	-10.6757
賢員	-10.6757
雖經	-10.6759
革去	-10.676
二十二	-10.6761
咨部	-10.6762
況今	-10.6763
不改	-10.6765
士之	-10.6765
權宜	-10.6769
所存	-10.6769
與民	-10.6769
翰林院	-10.6772
諸務	-10.6775
是為	-10.6776
尤當	-10.678
凉	-10.6781
匹夫	-10.6782
之財	-10.6783
誅戮	-10.6785
必待	-10.6787
差委	-10.679
報部	-10.6794
無敢	-10.6797
惓惓	-10.6798
惕	-10.6801
二省	-10.6802
徑自	-10.6803
多係	-10.6804
估計	-10.6805
深慮	-10.6805
龜	-10.6806
無常	-10.6809
御批	-10.681
事關	-10.6811
大水	-10.6811
此番	-10.6811
何得	-10.6812
廕	-10.6812
所生	-10.6812
禾	-10.6813
豪傑	-10.6816
甚難	-10.6818
奏狀	-10.6819
繋	-10.6819
選差	-10.6819
殿中侍御史	-10.682
施於	-10.682
官職	-10.6821
臯陶	-10.6821
告竣	-10.6822
東川	-10.6824
恬	-10.6824
播種	-10.6827
此實	-10.6827
捍禦	-10.6828
化導	-10.6832
不妨	-10.684
可憂	-10.6841
餘石	-10.6851
安置	-10.6856
七百	-10.6857
蹟	-10.6857
教授	-10.6859
陵寢	-10.686
表裏	-10.686
必將	-10.6865
若謂	-10.6865
官府	-10.6865
勸懲	-10.6867
保固	-10.687
該地方官	-10.6871
沿河	-10.6874
牽制	-10.6875
一千五百	-10.6881
大槩	-10.6882
相承	-10.6884
聲息	-10.6888
兌	-10.6896
穗	-10.6896
内則	-10.6896
從重治罪	-10.6897
甚重	-10.69
月十一日	-10.6904
運司	-10.6905
則可	-10.6905
如此而	-10.6909
署督	-10.6911
殄	-10.6912
長官	-10.6913
顆	-10.6913
征伐	-10.6915
丁憂	-10.6917
饑民	-10.6918
百人	-10.6921
先於	-10.6921
其始	-10.6923
其下	-10.6925
不成	-10.6925
仰報	-10.6927
年來	-10.6928
初四日	-10.6929
天寳	-10.6929
兊	-10.6934
三軍	-10.6934
甘心	-10.6937
誠敬	-10.6942
情罪	-10.6946
石麟	-10.6946
可觀	-10.6946
天時	-10.6949
折色	-10.695
選人	-10.6953
概	-10.6955
貪婪	-10.6956
今者	-10.6956
草木	-10.6957
授之	-10.6957
將相	-10.696
爽	-10.696
司空	-10.6961
訪問	-10.6964
之夫	-10.6965
無所不至	-10.6965
民命	-10.6967
奉有	-10.6968
陞任	-10.697
以實	-10.697
代之	-10.6971
足矣	-10.6971
蘆	-10.6973
凟	-10.6976
縷	-10.6976
臣民	-10.6976
墳	-10.6977
熱	-10.6978
愚臣	-10.6979
不取	-10.6979
教習	-10.6981
俱令	-10.6981
架	-10.6983
姦宄	-10.6983
舊法	-10.6984
匱乏	-10.6985
賊人	-10.6986
望風	-10.6986
伏祈皇上睿鑒謹奏	-10.6987
紛紜	-10.699
堂官	-10.6997
罪惡	-10.7003
膏	-10.7003
䑓諫	-10.7004
虚名	-10.7004
宣帝	-10.7004
二十七	-10.7007
爵賞	-10.7009
既不能	-10.7011
也非	-10.7013
障	-10.7016
一靣	-10.7016
各寨	-10.7016
致祭	-10.7017
者十	-10.7017
繹	-10.7018
欲望	-10.7019
名節	-10.702
眼	-10.702
魂	-10.7021
漠	-10.7022
文移	-10.7022
石禮哈	-10.7024
近因	-10.7026
覬	-10.7027
用命	-10.7028
北方	-10.703
不求	-10.703
城内	-10.7031
東宫	-10.7034
故其	-10.7039
為事	-10.704
便於	-10.7042
治國	-10.7043
久逺	-10.7045
甚非	-10.7046
郝玉麟	-10.7048
凡所	-10.7052
養馬	-10.7053
員外郎	-10.7053
朕甚	-10.7054
恭謝天恩	-10.7054
相符	-10.7054
不能盡	-10.7055
觔	-10.7056
欲求	-10.7056
同日又奏為奏聞事竊	-10.7057
涼	-10.7058
懇切	-10.706
儘	-10.7064
藩籬	-10.7064
者哉	-10.7066
社稷之	-10.7067
河間	-10.7071
也凡	-10.7071
不舉	-10.7072
城郭	-10.7072
一毫	-10.7073
諸凡	-10.7074
夫役	-10.7078
流亡	-10.7078
從寛	-10.7082
早稻	-10.7083
多端	-10.7085
照常	-10.7085
未嘗有	-10.7089
初八日	-10.709
叅政	-10.7093
三十日	-10.7098
日乆	-10.7098
近嵗	-10.71
大患	-10.7101
職官	-10.7102
職分	-10.7103
坡	-10.7104
十三年	-10.7107
罵	-10.7108
怙	-10.7108
等州	-10.7109
妄言	-10.711
天縱	-10.711
臣又聞	-10.7112
者無	-10.7114
良善	-10.7116
有闕	-10.7117
懇請	-10.7117
固宜	-10.7117
出境	-10.7117
休致	-10.7118
購	-10.712
昧死	-10.712
漁	-10.7123
邊患	-10.7124
臣欲乞	-10.7125
意欲	-10.7127
珪	-10.7128
又況	-10.7131
按察	-10.7132
毆	-10.7132
或曰	-10.7135
數年以來	-10.7141
又言	-10.7146
鼔	-10.7146
移駐	-10.7147
數倍	-10.7147
悅	-10.7147
禍福	-10.7149
和議	-10.7151
欺隱	-10.7152
湖廣總督	-10.7152
省察	-10.7154
臧	-10.7156
之州縣	-10.7158
起身	-10.716
缺出	-10.7163
賦役	-10.7165
豈惟	-10.7168
在朝	-10.7169
悃	-10.717
以補	-10.7171
失事	-10.7175
手詔	-10.7177
培	-10.7182
而乃	-10.7183
正徳	-10.7183
謂其	-10.7185
陣亡	-10.7185
頃者	-10.7187
芻	-10.7188
徒以	-10.7196
勒限	-10.7198
十九	-10.7199
邊陲	-10.7199
皆非	-10.7199
甚於	-10.72
二十一	-10.7204
興修	-10.7205
河務	-10.7205
以固	-10.7206
至當	-10.7211
熈寧	-10.7213
進兵	-10.7215
者謂	-10.7216
諌官	-10.722
賢不肖	-10.7221
萬死	-10.7222
恩賜	-10.7222
都城	-10.7224
聽政	-10.7224
外則	-10.7225
姑容	-10.7225
解部	-10.7227
蔡珽	-10.7227
稷	-10.7228
夜不收	-10.7234
汲汲	-10.7235
納諫	-10.7238
民有	-10.7242
者宜	-10.7243
禮儀	-10.7244
勉力	-10.7245
一念	-10.7246
解到	-10.7246
米糧	-10.7246
侍衛	-10.7249
停當	-10.725
分析	-10.725
多而	-10.725
題准	-10.7252
不即	-10.7253
衆論	-10.7256
屬官	-10.7258
不知所	-10.726
永寧	-10.7262
出兵	-10.7262
乙	-10.7264
慶厯	-10.7264
向者	-10.7267
不作	-10.7268
五行	-10.7271
臣不敢	-10.7273
相望	-10.7274
修舉	-10.7275
知諫院	-10.7277
特加	-10.7278
棟	-10.7278
腐	-10.7279
一郡	-10.728
保障	-10.728
事闗	-10.7281
在我	-10.7283
愚忠	-10.7286
俱在	-10.729
斷不敢	-10.7291
流通	-10.7293
睿鑒	-10.7293
無名	-10.7293
喜怒	-10.7294
其失	-10.7294
賞賚	-10.7297
不振	-10.7298
嚴查	-10.7299
今以	-10.7299
主簿	-10.73
覽奏	-10.7303
不得已而	-10.7303
通計	-10.7303
不克	-10.7304
分給	-10.7306
善人	-10.7312
内帑	-10.7313
叢	-10.7313
稀	-10.7313
欲望聖慈	-10.7315
何患	-10.7315
三名	-10.7315
已定	-10.7316
空言	-10.7316
淮安	-10.7319
養兵	-10.732
牘	-10.732
已極	-10.7321
詳酌	-10.7325
太過	-10.7328
各省督撫	-10.7328
舉主	-10.7328
便可	-10.7329
此所以	-10.733
體恤	-10.7331
首惡	-10.7332
十一年	-10.7333
合先	-10.7334
千人	-10.7334
度支	-10.7338
不經	-10.7338
轉飭	-10.7339
批諭	-10.734
人倫	-10.7343
可以為	-10.7343
據稱	-10.7344
丁寧	-10.7345
是何	-10.7346
用其	-10.7348
之謂	-10.7353
責以	-10.7356
親往	-10.7357
始於	-10.7358
名口	-10.7359
往来	-10.7361
佳	-10.7362
諛	-10.7363
紳衿	-10.7363
夔	-10.7364
掣肘	-10.7365
伏願	-10.7365
卞	-10.7366
曩	-10.7366
扼	-10.7367
進京	-10.7369
異於	-10.7369
武弁	-10.737
不可勝	-10.7371
皆曰	-10.7371
雖已	-10.7373
陛	-10.7373
朋比	-10.7377
寃抑	-10.7377
濮王	-10.7378
九州	-10.7379
京畿	-10.7379
仍復	-10.738
二十六	-10.7383
承天	-10.7383
後因	-10.7383
乏食	-10.7385
聲色	-10.7386
簿書	-10.7388
天戒	-10.7392
交界	-10.7392
即是	-10.7395
入於	-10.7396
試之	-10.7396
瑕	-10.7398
分巡	-10.7398
方且	-10.7403
小大	-10.7403
革除	-10.7404
技藝	-10.7404
軀	-10.7405
道也	-10.7406
歴代名臣奏議卷	-10.7406
賓	-10.7406
詠	-10.7408
國史	-10.7409
感召	-10.741
忠孝	-10.7411
臺官	-10.7411
運至	-10.7411
自陳	-10.7413
晉省	-10.7414
武舉	-10.7416
口外	-10.7416
之心而	-10.7417
執奏	-10.742
可嘉	-10.7424
聦	-10.7426
之象	-10.7426
出力	-10.7428
尊卑	-10.743
則朝廷	-10.7431
處處	-10.7431
漢文	-10.7431
救之	-10.7435
檄行	-10.7437
督同	-10.7437
民兵	-10.7442
無力	-10.7442
太祖太宗	-10.7443
京西	-10.7445
攜	-10.7447
敇	-10.745
蚤	-10.745
之亂	-10.7451
所係	-10.7451
唱	-10.7453
搢紳	-10.7454
疎忽	-10.7456
用此	-10.7459
不憚	-10.746
到彼	-10.7462
求言	-10.7464
講讀	-10.7465
改作	-10.7466
賚	-10.7469
冨	-10.7469
待制	-10.747
南昌	-10.7473
内降	-10.7473
得宜	-10.7474
建康	-10.7474
是日	-10.7477
遇事	-10.7479
臂	-10.748
之先	-10.748
非敢	-10.748
起運	-10.7482
今將	-10.7482
保題	-10.7488
首級	-10.7489
兹據	-10.749
加謹	-10.7492
灰	-10.7492
嫡	-10.7494
應得	-10.7495
猖獗	-10.7497
公然	-10.7498
不計	-10.7499
黍	-10.7499
此舉	-10.7501
諸王大臣	-10.7501
有益於	-10.7502
懈	-10.7502
隠匿	-10.7503
俯賜	-10.7503
有犯	-10.7504
而況	-10.7509
繕摺奏聞	-10.751
勒索	-10.751
不可用	-10.7512
則彼	-10.7512
政治	-10.7514
諫諍	-10.7515
鄉里	-10.7518
奏陳	-10.7519
德音	-10.752
非一	-10.7522
亦乞	-10.7523
甚好	-10.7524
二州	-10.7524
忠言	-10.7525
百世	-10.7528
鞏	-10.753
竈	-10.7531
必然	-10.7533
緘黙	-10.7534
奎	-10.7535
濁	-10.7535
喬	-10.7536
盡其	-10.7539
實封	-10.7539
俄	-10.7539
將何	-10.754
據奏	-10.7542
小人之	-10.7544
足用	-10.7551
實力奉行	-10.7553
未為	-10.7553
必不能	-10.7559
喧	-10.7561
解任	-10.7561
已下	-10.7567
但有	-10.757
葛	-10.7572
不可行	-10.7577
綂	-10.7578
沃	-10.7578
洲	-10.7578
頴	-10.7581
歇	-10.7582
傲	-10.7583
朕實	-10.7584
仲尼	-10.7584
到部	-10.7585
周官	-10.7585
也乃	-10.7585
之柄	-10.7585
撫按	-10.7589
撃	-10.7589
奈	-10.7594
於其間	-10.7598
進𠞰	-10.7599
奏覆	-10.7606
又因	-10.7607
性命	-10.7609
樞宻	-10.7612
心腹	-10.7613
石文焯	-10.7616
深恩	-10.7618
例應	-10.7618
面諭	-10.7621
有備	-10.7623
䇿應	-10.7624
熒惑	-10.7625
吐蕃	-10.7626
所取	-10.7628
二事	-10.7629
滛	-10.7631
身家	-10.7631
佚	-10.7634
惶	-10.7634
於内	-10.7637
供出	-10.7638
之久	-10.7638
䏻	-10.764
並行	-10.7641
制置	-10.7643
以清	-10.7644
復行	-10.7645
是知	-10.7645
之形	-10.7645
建言	-10.7651
公爲	-10.7654
我之	-10.7655
事竣	-10.7657
然其	-10.7658
運道	-10.7658
四府	-10.7663
人戸	-10.7666
至大	-10.7666
之未	-10.7668
亞	-10.7668
斷不	-10.7671
民無	-10.7672
收受	-10.7672
漏網	-10.7674
提問	-10.7679
魏徴	-10.7682
爵禄	-10.7682
禁革	-10.7683
訓㫖	-10.7687
七千	-10.7687
勝負	-10.7687
一等	-10.7694
團	-10.7696
然後可以	-10.7698
主上	-10.7698
或可	-10.7699
因公	-10.7702
淮揚	-10.7703
允當	-10.7705
守法	-10.7707
十餘年	-10.7707
此法	-10.7709
之狀	-10.7709
堤岸	-10.771
涵	-10.7713
鄒	-10.7714
諉	-10.7716
恠	-10.7717
諷	-10.7717
大政	-10.7722
不輕	-10.7723
到官	-10.7723
尺寸	-10.7724
看守	-10.7724
莫非	-10.7725
不齊	-10.7726
謹慎	-10.7726
體國	-10.7727
我國家	-10.7727
一舉	-10.7728
虚文	-10.7728
然亦	-10.7729
糓	-10.7731
本人	-10.7738
議定	-10.7738
細查	-10.774
耳今	-10.7745
竝未	-10.7749
之所致	-10.7751
一遇	-10.7751
部文	-10.7751
剪	-10.7755
實無	-10.7756
若無	-10.7756
詳審	-10.7757
三縣	-10.7759
瑛	-10.7759
門外	-10.7764
險阻	-10.7766
疏濬	-10.7766
浮費	-10.7774
以彰	-10.7775
舊規	-10.7777
賄賂	-10.7782
上進	-10.7782
成憲	-10.7783
更換	-10.7783
志在	-10.7783
之訓	-10.7783
評	-10.779
示以	-10.779
等曰	-10.7791
復用	-10.7792
如遇	-10.7793
邉事	-10.7797
五名	-10.7797
之大者	-10.7798
府州	-10.7798
膠	-10.78
誤國	-10.78
璽	-10.78
知㑹	-10.78
親見	-10.7802
魏廷珍	-10.7802
祁	-10.7802
昂	-10.7803
慝	-10.7803
哈宻	-10.7805
臣切	-10.7806
湧	-10.7808
月二十三日	-10.7809
感激涕零	-10.781
無足	-10.781
疏題為	-10.7811
實録	-10.7811
小者	-10.7812
感格	-10.7813
徇情	-10.7814
狂妄	-10.7818
祀典	-10.782
以此為	-10.782
仍留	-10.7821
隨經	-10.7822
給以	-10.7825
兼理	-10.7827
民困	-10.7827
部議覆	-10.7828
許容	-10.7829
大明	-10.7829
忠直	-10.7831
而廢	-10.7831
數處	-10.7838
營遊擊	-10.7838
已成	-10.7841
後日	-10.7841
自信	-10.7842
乃有	-10.7842
又謂	-10.7844
降詔	-10.7845
不嚴	-10.7846
決口	-10.7847
五曰	-10.7847
鶴	-10.7852
豁	-10.7852
萬年	-10.786
在下	-10.7861
軍營	-10.7862
弓手	-10.7863
任人	-10.7863
上緊	-10.7864
嚴督	-10.7869
受恩	-10.7871
理合繕摺	-10.7873
借端	-10.7873
不可得	-10.7874
洪武	-10.7874
著令	-10.7875
遂以	-10.7878
而忘	-10.7878
許之	-10.788
有二	-10.7884
而不用	-10.789
今復	-10.7891
奮勉	-10.7892
時加	-10.7893
躁	-10.7895
侵漁	-10.7896
協副將	-10.7897
文職	-10.7898
雍正十二年	-10.7898
馳驛	-10.79
惟其	-10.79
熈寜	-10.79
接壤	-10.79
執中	-10.7902
殺傷	-10.7902
内侍	-10.7903
修葺	-10.7903
者此	-10.7912
生成	-10.7914
前經	-10.7919
勵精	-10.7919
成命	-10.7922
利也	-10.7926
誠能	-10.7926
有定	-10.7928
勤慎	-10.7928
私心	-10.7928
信之	-10.793
昭穆	-10.7932
跟	-10.7933
狂瞽	-10.7935
宦官	-10.7935
比者	-10.7936
亦係	-10.7937
寛免	-10.7938
張廣泗	-10.7939
問之	-10.7939
徳澤	-10.7939
伴	-10.7942
𤓰	-10.7947
以義	-10.7947
而出	-10.795
轉移	-10.795
養贍	-10.7953
所入	-10.7953
兵役	-10.7957
為君	-10.7958
仰惟陛下	-10.7958
以廣	-10.7962
純仁	-10.7962
河身	-10.7964
恭報	-10.7971
捌	-10.7973
希圖	-10.7974
靡不	-10.7974
見有	-10.7974
片	-10.7975
詩云	-10.7975
豈肯	-10.7976
不允	-10.798
題為	-10.7982
舊典	-10.7982
巖	-10.7983
四萬	-10.7989
寒暑	-10.799
有年	-10.799
翊	-10.799
郡邑	-10.7991
舛	-10.7991
喇嘛	-10.7992
琳	-10.7992
叩頭	-10.7993
傳之	-10.7993
奄	-10.7994
配天	-10.7994
中丞	-10.7995
部覆	-10.7996
心力	-10.8
黷	-10.8
亦曰	-10.8001
十五年	-10.8004
為戒	-10.8007
詳慎	-10.8007
敵之	-10.8009
報明	-10.801
用是	-10.8011
儲蓄	-10.8011
必勝	-10.8012
一石	-10.8013
國初	-10.8016
億兆	-10.8016
無窮之	-10.8019
天氣	-10.8022
縣地方	-10.8022
四名	-10.8023
平居	-10.8024
加之	-10.8025
究其	-10.8025
皆不	-10.8026
人亦	-10.8027
大畧	-10.8028
敵情	-10.8029
拓	-10.8031
此理	-10.8031
近侍	-10.8033
所闗	-10.8035
也臣願陛下	-10.8036
塗炭	-10.8038
丈量	-10.8038
奢侈	-10.8038
農桑	-10.804
𦂳急	-10.804
今朝廷	-10.8042
修防	-10.8042
誠有	-10.8044
事者	-10.8044
貼黄	-10.8047
該省	-10.805
至仁	-10.8058
哉今	-10.806
臣竊觀	-10.8062
詔有司	-10.8064
緝捕	-10.8064
不備	-10.8068
寛仁	-10.8069
無一人	-10.8069
以為非	-10.8069
有方	-10.8072
多人	-10.8075
有竒	-10.8075
併力	-10.8078
先事	-10.8082
以憑	-10.8082
明皇	-10.8083
郷	-10.8083
駐蹕	-10.8083
又諭	-10.8085
亦在	-10.8085
沿江	-10.8087
㦯	-10.8088
生計	-10.8088
年嵗	-10.8088
著於	-10.8089
推誠	-10.8089
及此	-10.8089
市井	-10.8089
不謹	-10.809
雲貴	-10.8091
且以	-10.8097
後宫	-10.81
第三	-10.8103
以免	-10.8104
羣下	-10.8104
廂	-10.8105
此弊	-10.8106
行人	-10.811
飛飭	-10.8112
將以	-10.8116
名臣	-10.8118
查考	-10.812
乞罷	-10.8123
幅	-10.8125
隸	-10.8125
遮	-10.8126
兑	-10.8129
祔	-10.8129
庶官	-10.8132
恐致	-10.8133
朕念	-10.8134
應副	-10.8135
涇	-10.8135
或係	-10.8135
九重	-10.8136
倉厫	-10.8139
躬行	-10.8145
十二年	-10.8147
熟悉	-10.8154
以奉	-10.8154
曰我	-10.8157
炳	-10.8157
畀以	-10.8161
減省	-10.8161
鸞	-10.8161
所獲	-10.8162
致有	-10.8162
以相	-10.8163
遂成	-10.8165
俱屬	-10.8169
無恥	-10.817
厥職	-10.817
相接	-10.8172
勛	-10.8173
陂	-10.8174
有裨益	-10.8175
迅	-10.8176
隨事	-10.8176
驛站	-10.8178
諫曰	-10.8178
率多	-10.8179
廣州	-10.8179
淮西	-10.818
今日之事	-10.818
九千	-10.8184
語言	-10.8184
所不能	-10.8188
也彼	-10.8189
又令	-10.819
元帝	-10.8191
其父	-10.8196
産業	-10.8197
仰見我皇上	-10.8198
元和	-10.8198
亦可以	-10.8202
州府知府	-10.8205
買馬	-10.8211
宣力	-10.8212
奉諭㫖	-10.8213
似屬	-10.8216
則雖	-10.8216
將見	-10.8221
七日	-10.8222
分兵	-10.8222
聽言	-10.8224
覧	-10.8225
鹽務	-10.8225
芻蕘	-10.8225
祈禱	-10.8226
維持	-10.8227
者蓋	-10.8227
江湖	-10.8227
洪範	-10.8231
景祐	-10.8231
該鎮	-10.8233
那移	-10.8236
管仲	-10.8241
䝉皇上天恩	-10.8242
天下後世	-10.8243
異議	-10.8249
項下	-10.8249
太平之	-10.825
孝經	-10.825
六經	-10.8251
畏天	-10.8252
若將	-10.8252
誤事	-10.8253
之忠	-10.8254
陳乞	-10.8255
於斯	-10.8256
不公	-10.8257
郊廟	-10.8257
差使	-10.8257
續據	-10.826
政府	-10.8261
掘	-10.8268
而弗	-10.8269
烝	-10.8269
億	-10.827
寬	-10.827
臣故曰	-10.8272
兩廣	-10.8276
以取	-10.8277
絞	-10.8279
權臣	-10.8279
臣謹按	-10.8282
十四年	-10.8283
逺慮	-10.8283
之舊	-10.8284
伏候	-10.8289
至今未	-10.8289
待其	-10.829
事發	-10.8291
然自	-10.8291
内稱	-10.8292
名目	-10.8292
奏謝	-10.8293
貢舉	-10.8295
諸色	-10.8295
虧損	-10.8296
此風	-10.8298
物力	-10.83
不滿	-10.8301
郎官	-10.8306
八錢	-10.8309
秦州	-10.831
始得	-10.831
股	-10.8312
猝	-10.8316
太倉	-10.8316
捜	-10.8317
去冬	-10.8317
杜絶	-10.8318
脉	-10.8318
諂	-10.8318
地名	-10.8321
憎	-10.8324
採訪	-10.8324
不入	-10.8325
專以	-10.8326
定議具奏	-10.8326
善者	-10.8329
亦恐	-10.833
巡察	-10.8332
伊尹	-10.8332
國恩	-10.8332
之教	-10.8333
勿以	-10.8339
人所	-10.8341
貨物	-10.8342
沽	-10.8345
嚴拏	-10.8346
各兵	-10.8347
下民	-10.8353
堂上官	-10.8353
之福也	-10.8356
有為	-10.8357
逼近	-10.8358
方面	-10.8359
内官	-10.8359
迄	-10.8361
忻	-10.8365
訓誡	-10.8366
萃	-10.8366
抒	-10.8368
楊名時	-10.8368
王公	-10.8369
紏	-10.837
邊備	-10.837
上以	-10.8371
統轄	-10.8372
疇	-10.8372
紀律	-10.8374
憂之	-10.8375
假以	-10.8375
貧者	-10.8379
莫先於	-10.8381
太祖皇帝	-10.8385
閤	-10.8387
當差	-10.8388
棄之	-10.8388
勘合	-10.839
以俟	-10.8391
多者	-10.8391
不專	-10.8393
為主	-10.8395
細故	-10.8396
先經	-10.8399
士風	-10.8404
查察	-10.8406
止令	-10.8409
圖之	-10.841
景徳	-10.8411
娶	-10.8413
兾	-10.8415
汎	-10.8416
并將	-10.8417
僖祖	-10.8419
劵	-10.8421
終無	-10.8422
形迹	-10.8423
成湯	-10.8423
之謂也	-10.8426
大凡	-10.8426
自守	-10.8427
枕	-10.843
視其	-10.8431
焦勞	-10.8432
勢難	-10.8433
多年	-10.8434
何益	-10.8435
不得其人	-10.8435
合宜	-10.8436
情實	-10.8437
像	-10.8438
倉糧	-10.8443
况今	-10.8446
餘銀	-10.8446
徴收	-10.8451
不遑	-10.8454
武藝	-10.8458
直至	-10.8459
曲直	-10.846
督令	-10.8461
爲之	-10.8461
而獨	-10.8461
可信	-10.8462
昭然	-10.8465
儒臣	-10.8465
行至	-10.8465
不任	-10.8467
所向	-10.8468
奪其	-10.8468
奉硃批	-10.8468
環慶	-10.8471
抑且	-10.8474
權勢	-10.8475
仰體皇上	-10.8477
者所以	-10.8478
聞風	-10.8479
許令	-10.8481
甲子	-10.8482
二日	-10.8483
姦民	-10.8484
事不	-10.8485
聚集	-10.8486
實非	-10.8486
為要	-10.849
不倦	-10.849
及今	-10.8494
接任	-10.8495
曰陛下	-10.8496
長驅	-10.8497
無任	-10.8499
上疏曰	-10.8504
三也	-10.8505
乞恩	-10.8506
漢中	-10.8507
聳	-10.8508
晨	-10.8511
修整	-10.8515
因時	-10.8518
縱有	-10.852
人臣之	-10.8522
直隸總督	-10.8524
造作	-10.8525
非徒	-10.8526
其理	-10.8527
糜費	-10.8528
聽之	-10.8528
改易	-10.853
體量	-10.8531
異同	-10.8532
甸	-10.8533
聖裁	-10.8534
五品	-10.8535
咸知	-10.8535
矣至於	-10.8536
次日	-10.8536
區處	-10.8537
教養	-10.8537
險要	-10.854
有名	-10.8541
粤省	-10.8542
此係	-10.8542
一軍	-10.8551
承辦	-10.8552
洛陽	-10.8555
受恩深重	-10.8556
諤	-10.8557
龔	-10.8558
黠	-10.856
經久	-10.8561
巷	-10.8562
在朝廷	-10.8563
洊	-10.8563
墩臺	-10.8563
謚	-10.8564
突厥	-10.8564
名分	-10.8565
秦漢	-10.8566
善後	-10.8567
欲令	-10.8569
學官	-10.8571
柰何	-10.8571
城縣	-10.8572
年八月	-10.8577
神道	-10.8582
負恩	-10.8583
勞績	-10.8585
一座	-10.8588
旬日	-10.859
臨朝	-10.8592
之序	-10.8593
邊疆	-10.8598
寧謐	-10.8599
訓示	-10.8601
無疆	-10.8603
者也今	-10.8604
俸工	-10.8604
大臣等	-10.8607
無損	-10.8609
既得	-10.861
營田	-10.8611
之限	-10.8611
者許	-10.8612
范純仁	-10.8612
自今以後	-10.8613
奏曰臣	-10.8614
分晰	-10.8614
西京	-10.8614
必由	-10.8617
經史	-10.8619
邉境	-10.862
正統	-10.862
徭役	-10.8622
錦衣衛	-10.8624
不樂	-10.8625
狼	-10.8626
教導	-10.8628
不唯	-10.863
至尊	-10.8633
擇人	-10.8634
東路	-10.8635
仍將	-10.8642
條貫	-10.8642
殃	-10.8642
伊父	-10.8648
台吉	-10.865
喇	-10.8651
財力	-10.8653
一二人	-10.8654
顛	-10.8656
外官	-10.8657
用者	-10.8657
幷	-10.8659
愍	-10.8662
捄	-10.8662
藏匿	-10.8664
不敢以	-10.8666
永樂	-10.8678
絶其	-10.8678
所關	-10.8681
多是	-10.8683
私恩	-10.8685
議曰	-10.8686
奉詔	-10.8687
庶乎	-10.8689
又奏	-10.8691
何故	-10.8694
生長	-10.8694
食糧	-10.8695
差員	-10.8695
未復	-10.8695
發覺	-10.8695
兩年	-10.8696
猺	-10.8696
孟子曰	-10.8697
叩謝天恩	-10.8702
摩	-10.8706
懽	-10.8706
盡職	-10.8707
屯兵	-10.8707
膚	-10.8708
立為	-10.8709
盜案	-10.8709
康熙五十	-10.8712
該督	-10.8712
吉凶	-10.8714
無愧	-10.8714
巡檢	-10.8714
二十九	-10.8717
火藥	-10.8717
興師	-10.8726
可疑	-10.8727
哉夫	-10.8727
制勝	-10.8732
地利	-10.8737
浪	-10.8737
書辦	-10.8738
萬四千	-10.874
擾害	-10.8743
仁孝	-10.8743
荷䝉皇上	-10.8747
來者	-10.8749
所犯	-10.875
値	-10.8751
未見其	-10.8751
羡餘	-10.8754
非陛下	-10.8755
比年	-10.8755
衆議	-10.8756
所長	-10.8758
滌	-10.8758
油	-10.8758
計也	-10.8758
飄	-10.8758
三尺	-10.8758
一百四十	-10.876
久而	-10.876
昆	-10.876
徹底	-10.8762
垂拱	-10.8763
不去	-10.8765
萬萬	-10.877
侵擾	-10.877
謹守	-10.8773
士馬	-10.8774
三錢	-10.8775
見聞	-10.8777
顯然	-10.8777
之處著	-10.8777
實效	-10.8779
愛之	-10.8779
逺者	-10.878
猓	-10.8781
臣之愚	-10.8782
叁	-10.8782
再照	-10.8789
早為	-10.8789
教訓	-10.8793
俱照	-10.8798
欲為	-10.8798
事皆	-10.8799
荆襄	-10.8804
数	-10.8805
自便	-10.8806
縉紳	-10.8806
秘	-10.8807
不可得也	-10.8808
師旅	-10.8812
靖康	-10.8813
家産	-10.8814
蔡確	-10.8816
詳議具奏	-10.8817
致死	-10.882
動揺	-10.8821
意在	-10.8823
竊發	-10.8826
送到	-10.8828
之屬	-10.8828
終日	-10.883
委的	-10.8831
勞費	-10.8832
朝鮮	-10.8834
諸子	-10.8835
追還	-10.8842
傷人	-10.8844
鈍	-10.8848
雖在	-10.8848
牧馬	-10.8848
准行	-10.8849
之缺	-10.8851
外國	-10.8854
向化	-10.8855
彩	-10.8855
悮	-10.8857
以陛下	-10.8858
竟不	-10.8859
蒞	-10.8859
浩繁	-10.8859
冰	-10.886
尚存	-10.8861
庶務	-10.8861
為言	-10.8862
賈誼	-10.8865
雖係	-10.8865
洞悉	-10.8868
輔導	-10.8868
之尊	-10.8869
巢穴	-10.8869
仰賴	-10.887
累朝	-10.8871
堪以	-10.8871
另疏	-10.8874
之暇	-10.8875
諸縣	-10.8875
才力	-10.8877
九江	-10.8879
查看	-10.888
萬八千	-10.8882
除將	-10.8883
罔不	-10.8885
賢愚	-10.8891
接到	-10.8892
政之	-10.8893
生擒	-10.8894
經手	-10.8897
後人	-10.8897
渡江	-10.8898
見錢	-10.8898
致令	-10.8898
様	-10.8899
惶悚	-10.89
至治	-10.8901
沈廷正	-10.8902
未敢擅便	-10.8903
及諸	-10.8905
當世	-10.8905
晚禾	-10.8906
剖	-10.8908
𥙷	-10.8908
滑	-10.8909
嫁	-10.891
神宗皇帝	-10.8911
有旨	-10.8914
江北	-10.892
無使	-10.892
以保	-10.892
經畫	-10.8922
孝子	-10.8925
察訪	-10.8926
乆矣	-10.8931
之可也	-10.8932
之國	-10.8933
自用	-10.8933
緣係	-10.8934
逭	-10.8934
嵗時	-10.8936
任賢	-10.8944
上諭内閣	-10.8945
私情	-10.8945
儒學	-10.8948
練兵	-10.895
鎮臣	-10.8951
乞賜	-10.8951
犒	-10.8952
内除	-10.8952
多不	-10.8953
先期	-10.8953
朕因	-10.8953
挾私	-10.8954
先儒	-10.8956
低窪	-10.8957
鱗	-10.8958
狗	-10.8962
及於	-10.8968
當先	-10.897
將領	-10.8973
所居	-10.8975
愈加	-10.8982
商旅	-10.8982
自立	-10.8983
回任	-10.8983
至若	-10.8984
生理	-10.8986
四員	-10.8986
無益於	-10.8987
躋	-10.8988
一丈	-10.8988
亦不得	-10.8988
二次	-10.8989
罪戾	-10.8989
朕懐	-10.8989
已將	-10.899
上下相	-10.8991
安慶	-10.8991
邦本	-10.8991
富民	-10.8992
揆之	-10.8993
朔方	-10.8994
差除	-10.8995
更易	-10.8995
平章事制	-10.8998
之科	-10.8999
鬬	-10.9002
又欲	-10.9004
實由	-10.9008
姻	-10.9009
羣議	-10.9009
撲滅	-10.901
皆然	-10.9012
臯	-10.9012
冶	-10.9012
梓宫	-10.9013
怠玩	-10.9014
塞責	-10.9014
三事	-10.9014
冠帶	-10.9017
亦令	-10.9018
就緒	-10.9019
章惇	-10.9021
肅清	-10.9022
以應	-10.9025
凛遵	-10.903
糧米	-10.9031
人望	-10.9031
者此也	-10.9033
行伍	-10.9038
極其	-10.904
極力	-10.9041
是亦	-10.9042
宜加	-10.9045
逐處	-10.9046
親身	-10.9047
臺諌	-10.9047
分不等	-10.9048
弓箭	-10.9052
積水	-10.9053
只得	-10.9056
便民	-10.9056
襟	-10.9057
產	-10.9059
塞楞額	-10.906
高其倬	-10.906
不精	-10.906
嵇曽筠	-10.906
未暇	-10.9061
等州縣	-10.9062
共知	-10.9064
旦夕	-10.9064
外有	-10.9066
治安	-10.9067
天下者	-10.9074
民財	-10.9074
重罪	-10.9076
又多	-10.9077
撤回	-10.9078
瑞雪	-10.9078
史冊	-10.9079
管見	-10.9082
人知	-10.9083
慣	-10.9083
三十餘	-10.9084
陳明	-10.9084
將前項	-10.9087
節用	-10.9088
無間	-10.9088
功業	-10.9092
赴部	-10.9096
有徳	-10.9099
等情到	-10.91
伏乞皇上睿鑒	-10.91
點	-10.9101
俱巳	-10.9102
失察	-10.9103
官中	-10.9103
邢	-10.9109
早賜	-10.9111
典刑	-10.9111
坍	-10.9112
屆	-10.9112
砥礪	-10.9114
搶掠	-10.9115
所屬之	-10.9115
偕	-10.9115
體統	-10.9116
苗疆	-10.9117
涯	-10.912
仁祖	-10.9123
施設	-10.9123
於兹	-10.9124
推之	-10.9125
李維鈞	-10.9126
入海	-10.9126
于今	-10.9127
無慮	-10.9127
從重	-10.9129
聊	-10.9129
本院	-10.9131
大名	-10.9132
檢㑹	-10.9133
御前	-10.9134
言及	-10.9135
别項	-10.9135
若欲	-10.9136
君子之	-10.9138
隨據	-10.9139
為利	-10.914
蝕	-10.914
變亂	-10.914
上皇	-10.9141
地方有	-10.9143
成風	-10.9145
者若	-10.9148
其舊	-10.9149
鎮撫	-10.9151
國人	-10.9151
由於	-10.9151
本鎮	-10.9152
二十餘年	-10.9152
奉聖㫖是	-10.9154
有零	-10.9155
不曾	-10.9155
等弊	-10.9158
臣惟	-10.9159
㪚	-10.916
神靈	-10.9161
琮	-10.9163
屍	-10.9163
𠂻	-10.9164
舟楫	-10.9164
中書舍人	-10.9165
適中	-10.9165
劄付	-10.9166
欝	-10.9167
皇祐	-10.9168
察吏	-10.9168
親征	-10.917
疵	-10.917
璋	-10.917
徳意	-10.9174
另有	-10.9174
月日	-10.9174
民瘼	-10.9175
安國	-10.9175
一字	-10.9176
中傷	-10.918
官錢	-10.9181
豐登	-10.9183
張皇	-10.9183
倉廪	-10.9185
巡撫都御史	-10.9186
時刻	-10.9187
髙明	-10.9191
應詔	-10.9192
經制	-10.9192
此地	-10.9194
遂為	-10.9195
海道	-10.9199
額徵	-10.9199
自以為	-10.9205
戒之	-10.9205
將原	-10.9208
即係	-10.9209
並用	-10.9211
供稱	-10.9216
諾	-10.9216
機務	-10.9216
自古帝王	-10.9216
應將	-10.9217
布蘭泰	-10.9217
○	-10.9217
疏内	-10.9217
昉	-10.9218
康熙四十	-10.9218
翔	-10.9219
究治	-10.9219
也今陛下	-10.922
綴	-10.922
督撫提鎮	-10.9221
指為	-10.9223
憾	-10.9223
歉收	-10.9225
鎮江	-10.9226
怨望	-10.923
勿使	-10.9232
一二年	-10.9233
謹奏知道了	-10.9233
之多寡	-10.924
百餘	-10.9242
稽遲	-10.9242
此一事	-10.9248
者多矣	-10.9251
莽	-10.9253
飲酒	-10.9255
安靜	-10.9256
等處地方	-10.9258
殊為	-10.9264
舉劾	-10.9264
苦累	-10.9265
尤重	-10.9265
不常	-10.9266
今歳	-10.9267
查驗	-10.9268
降諭㫖	-10.9268
勒令	-10.9268
勃	-10.9269
先將	-10.9269
塊	-10.927
奉法	-10.927
也伏望陛下	-10.927
簡用	-10.9275
施行謹奏	-10.9278
和衷	-10.9278
先聖	-10.928
優游	-10.9281
敕部	-10.9281
優恤	-10.9281
主之	-10.9283
咨稱	-10.9284
兵食	-10.9285
負陛下	-10.9285
有損	-10.9286
恭惟陛下	-10.9287
辭免	-10.9288
詢訪	-10.929
如或	-10.9291
之口	-10.9292
寺觀	-10.9292
右正言	-10.9294
逐路	-10.9294
分為	-10.9297
依違	-10.9297
兩司	-10.93
朝㫖	-10.9301
海洋	-10.9301
之興	-10.9306
智者	-10.9307
般	-10.931
初三日	-10.931
響	-10.9313
臨清	-10.9314
從其	-10.9314
固不	-10.9316
其不可	-10.9318
臣昨	-10.9318
標兵	-10.9319
買米	-10.9319
翁	-10.9319
宋名臣奏議巻	-10.9319
分管	-10.9319
運米	-10.9319
戌	-10.9319
敗事	-10.932
典章	-10.932
來年	-10.932
花馬池	-10.9321
為惡	-10.9323
竟有	-10.9323
扞	-10.9325
自後	-10.9328
暫行	-10.933
仰承	-10.9331
地界	-10.9333
能以	-10.9335
婦女	-10.9339
河防	-10.9346
老病	-10.9348
遲誤	-10.9349
懲治	-10.9349
千金	-10.935
欽承	-10.9353
糜	-10.9354
三次	-10.9357
亦復	-10.9359
其源	-10.9362
横行	-10.9362
臣所謂	-10.9362
瑣	-10.9372
姬	-10.9374
採擇	-10.9375
三十萬	-10.9376
素有	-10.9377
朕已	-10.9378
牓	-10.9378
典故	-10.9378
舊欠	-10.938
者是	-10.9381
道之	-10.9382
題奉欽依	-10.9383
數百人	-10.9388
其大	-10.9389
審擬	-10.9389
頒發	-10.939
兖	-10.9392
者著	-10.9392
心術	-10.9393
催科	-10.9393
狀曰臣	-10.9394
乃可	-10.9394
人不	-10.9395
有失	-10.9396
體察	-10.9397
更相	-10.94
之乎	-10.94
后稷	-10.9402
官一員	-10.9407
百端	-10.9409
頥	-10.9409
招募	-10.941
該部知道	-10.9412
謹奏覽奏	-10.9414
版	-10.9418
有差	-10.9419
擺	-10.9419
尚何	-10.942
釋放	-10.942
藩鎮	-10.9425
㨿	-10.9425
綽	-10.9426
尅	-10.9426
誇	-10.9427
彛	-10.9427
儉約	-10.9427
庾	-10.9427
以行	-10.9427
而論	-10.9427
蛇	-10.9428
法也	-10.9431
蘇軾	-10.9432
監禁	-10.9433
當是時	-10.9434
是實	-10.9434
相安	-10.9436
御筆	-10.9436
一舉而	-10.9438
元祐元年	-10.9438
邊務	-10.9438
涸	-10.944
莫之	-10.944
等十	-10.9442
於理	-10.9446
兩日	-10.945
利於	-10.9451
養㢘	-10.9451
甘霖	-10.9453
在案今	-10.9456
無害	-10.9457
分頭	-10.9458
羣情	-10.9462
被淹	-10.9468
誅求	-10.9468
穀石	-10.9469
以通	-10.9469
太僕寺	-10.947
問其	-10.9472
輦	-10.9475
旗人	-10.9477
搭	-10.9479
渡河	-10.9479
允禩	-10.948
形於	-10.948
漢武帝	-10.948
譯	-10.9481
無隠	-10.9481
尊號	-10.9481
提標	-10.9482
畔	-10.9482
沁	-10.9483
涇原	-10.9484
擾民	-10.9487
匣	-10.9487
三五	-10.9488
者悉	-10.9489
賢良	-10.949
缺少	-10.949
仁聖	-10.9492
留中	-10.9492
進獻	-10.9492
分撥	-10.9492
修徳	-10.9494
進言	-10.9496
三嵗	-10.9498
行而	-10.9499
軍興	-10.9499
賦斂	-10.9499
治民	-10.9505
論其	-10.9506
軍節度使	-10.9506
可守	-10.9506
表率	-10.9507
不解	-10.9509
戎狄	-10.9512
以告	-10.9513
漕米	-10.9513
四十五	-10.9514
審訊	-10.9514
督催	-10.9515
於衆	-10.9515
米榖	-10.9518
仰荷	-10.9519
無患	-10.9521
咸平	-10.9523
上納	-10.9523
外議	-10.9523
初二日	-10.9524
也惟	-10.9525
以利	-10.9527
厄魯特	-10.953
自任	-10.953
慎之	-10.953
踏勘	-10.9531
閻	-10.9531
如聞	-10.9532
馴	-10.9532
闡	-10.9532
司農	-10.9533
一尺	-10.9535
者不得	-10.9537
鵬	-10.9537
河流	-10.9539
肆其	-10.954
考滿	-10.954
折銀	-10.9541
之禁	-10.9542
卓異	-10.9543
稼	-10.9543
亦自	-10.9543
過多	-10.9543
不早	-10.9546
乎其	-10.9546
故敢	-10.9547
必多	-10.9548
而用	-10.955
之親	-10.9553
向有	-10.9554
銀一兩	-10.9558
反復	-10.9562
威武	-10.9565
皆出	-10.9569
提㸃刑獄	-10.957
濮	-10.9573
敷陳	-10.9577
效法	-10.9578
經由	-10.9579
身死	-10.9581
令各	-10.9581
指陳	-10.9581
言行	-10.9581
可免	-10.9581
不諳	-10.9582
選舉	-10.9582
纎	-10.9583
長子	-10.9588
司禮監	-10.9588
小利	-10.9588
只是	-10.9589
而入	-10.9589
斷不可	-10.9589
仁愛	-10.9589
定制	-10.959
事實	-10.959
層	-10.9591
吕誨	-10.9591
六錢	-10.9592
未久	-10.9594
餘黨	-10.9595
維新	-10.9595
佐貳	-10.9597
嘗謂	-10.9598
聽納	-10.9601
戰陣	-10.9602
丹江	-10.9603
事權	-10.9603
而知	-10.9604
寅畏	-10.9606
移文	-10.9607
且有	-10.9608
死而	-10.9609
精力	-10.961
不得巳	-10.9613
之卒	-10.9614
甚易	-10.962
得此	-10.9621
據實奏明	-10.9621
累聖	-10.9621
意者	-10.9622
宸衷	-10.9622
祥符	-10.9623
月糧	-10.9625
時雨	-10.9625
外廷	-10.9626
之災	-10.9628
之能	-10.9629
四海之	-10.963
分路	-10.9633
立國	-10.9634
枉法	-10.9636
挖	-10.9637
特以	-10.9637
不負	-10.9638
數十人	-10.9638
楮	-10.964
粉飾	-10.964
乃欲	-10.9645
影響	-10.9646
㤗	-10.9647
其用	-10.9648
自治	-10.965
方畧	-10.9651
乗輿	-10.9651
大略	-10.9652
疑其	-10.9654
撥給	-10.9655
不審	-10.9655
愁	-10.9659
浩蕩	-10.9659
既定	-10.9661
布政	-10.9663
手本	-10.9663
主張	-10.9664
而遽	-10.9664
可與	-10.9665
財利	-10.9666
朕惟	-10.9667
難矣	-10.9667
未備	-10.967
且如	-10.9673
殊非	-10.9674
而可	-10.9675
藉口	-10.9675
其生	-10.968
刑賞	-10.968
糴買	-10.9684
者莫不	-10.9685
科道官	-10.9686
講學	-10.9687
加倍	-10.9688
兵威	-10.9688
該犯	-10.9689
縮	-10.9692
官及	-10.9694
粹	-10.9695
因縁	-10.9695
靳	-10.9695
切惟	-10.9697
無餘	-10.9697
烟	-10.9698
隅	-10.9698
副将	-10.9698
虚心	-10.9699
燮	-10.9701
一番	-10.9702
不雨	-10.9702
剽	-10.9703
而輕	-10.9707
於彼	-10.9708
立即	-10.9708
疑之	-10.971
數少	-10.9711
也一	-10.9712
截殺	-10.9712
此三	-10.9715
揣	-10.9718
以禦	-10.9718
固執	-10.9722
據實陳奏	-10.9723
羨	-10.9723
怠惰	-10.9724
職在	-10.9724
常例	-10.9726
十餘萬	-10.9727
十八年	-10.9727
地形	-10.9729
亦著	-10.9732
陕	-10.9732
留守	-10.9733
其一	-10.9734
甚衆	-10.974
以威	-10.974
天下之勢	-10.9741
討論	-10.9742
事畢	-10.9742
合將	-10.9743
云云	-10.9744
仍有	-10.9746
府同知	-10.9747
本日	-10.9748
宫禁	-10.975
廓	-10.9752
當然	-10.9753
渙	-10.9753
館閣	-10.9755
和好	-10.9755
開具	-10.9756
情偽	-10.9758
新設	-10.9758
案牘	-10.976
赴闕	-10.9762
供億	-10.9763
銀米	-10.9765
四十年	-10.9765
看詳	-10.9768
廵察	-10.9771
講和	-10.9772
運糧	-10.9772
亦俱	-10.9773
缺乏	-10.9775
法者	-10.9777
熈河	-10.9779
之隆	-10.978
嗣位	-10.9783
㑹合	-10.9783
王珪	-10.9784
之工	-10.9784
援引	-10.9784
為天子	-10.9784
交易	-10.9785
假借	-10.9789
清河	-10.9792
夫婦	-10.9792
煎	-10.9794
百王	-10.9795
猾	-10.9797
依前	-10.9799
極矣	-10.9799
㳂	-10.9801
其子孫	-10.9801
發於	-10.9802
以勸	-10.9802
籲	-10.9803
北京	-10.9804
開銷	-10.9805
雨暘時若	-10.9805
混淆	-10.9807
挈	-10.9809
苛刻	-10.981
隆科多	-10.981
昊天	-10.9812
斧	-10.9813
閤門	-10.9814
笞	-10.9814
也至	-10.9818
邇者	-10.9824
宣府	-10.9825
一百六十	-10.9826
受之	-10.9828
全在	-10.9835
譬	-10.9837
勸農	-10.9838
潦	-10.9839
海塘	-10.984
大定	-10.9842
闗中	-10.9844
開國	-10.9849
畿輔	-10.9849
復以	-10.985
皆以為	-10.9851
大寳	-10.9852
于上	-10.9852
細民	-10.9854
交納	-10.9855
燾	-10.9857
勸諭	-10.9857
未甚	-10.9857
查訪	-10.9858
職銜	-10.9858
量為	-10.9858
滿保	-10.9859
悖逆	-10.9859
礪	-10.9863
筆帖式	-10.9863
挟	-10.9866
定其	-10.9866
穹	-10.9866
查郎阿	-10.9867
以為不可	-10.9867
上天之	-10.9869
消弭	-10.987
此後	-10.9871
姦臣	-10.9872
重寄	-10.9873
作為	-10.9874
專責	-10.9874
眞宗	-10.9875
既以	-10.9877
本於	-10.9879
視聽	-10.988
事也	-10.9882
某某	-10.9884
畏避	-10.9885
入内	-10.9886
牛羊	-10.9887
俱於	-10.9891
每有	-10.9891
大使	-10.9893
請於	-10.9895
矣但	-10.9899
靈武	-10.9899
㑹商	-10.9901
徭	-10.9907
員弁	-10.991
安定	-10.9911
候朕	-10.9914
君上	-10.9914
恭順	-10.9915
結黨	-10.9916
稼穡	-10.9917
聽斷	-10.9918
用刑	-10.9918
天下之民	-10.9918
前日之	-10.992
緊	-10.992
朂	-10.992
譚	-10.9921
豈可不	-10.9921
從官	-10.9922
不利	-10.9923
祕	-10.9923
徳行	-10.9923
上神宗論	-10.9925
雕	-10.9925
所遺	-10.9926
事該	-10.9927
先任	-10.9927
錯誤	-10.9928
大工	-10.9929
暢茂	-10.993
衞所	-10.993
近見	-10.9932
而遂	-10.9932
著該督撫	-10.9935
毋忽	-10.9935
和買	-10.9937
為姦	-10.9938
咨明	-10.9938
睿斷	-10.9938
庸劣	-10.994
孝友	-10.9942
上請	-10.9943
天下臣民	-10.9945
羨餘	-10.9948
噶	-10.9949
習俗	-10.995
堪任	-10.9951
緡	-10.9954
禮記	-10.9954
勝任	-10.9956
順治	-10.9956
雖非	-10.9958
在前	-10.9958
秋汛	-10.9959
裳	-10.9959
殺賊	-10.9962
防秋	-10.9963
身任	-10.9963
之榮	-10.9964
而非	-10.9966
瑾	-10.9968
依擬	-10.9969
流俗	-10.9969
聿	-10.9973
用過	-10.9973
十六年	-10.9974
翦	-10.9975
復業	-10.9976
臆	-10.9978
史貽直	-10.9978
縱使	-10.9978
搶奪	-10.9979
餽送	-10.9979
永順	-10.9979
向日	-10.9981
可恃	-10.9983
之勤	-10.9983
蹇	-10.9983
官人	-10.9984
所報	-10.9985
臨期	-10.9986
本意	-10.9986
之所為	-10.9987
有所未	-10.9989
惡習	-10.9989
故有	-10.999
率土	-10.999
聖斷	-10.999
跟隨	-10.999
康熈	-10.9992
異端	-10.9992
奏眀	-10.9994
恩㫖	-10.9996
贖罪	-10.9996
羣小	-10.9999
似可	-11
則知	-11.0001
而無所	-11.0004
四十餘	-11.0005
或至	-11.0006
四面	-11.0009
特㫖	-11.001
一語	-11.0011
虧缺	-11.0011
也是	-11.0017
將何以	-11.0017
提鎮	-11.0017
熟諳	-11.0018
汾	-11.0019
覆載	-11.0019
踈逺	-11.0023
相見	-11.0025
陡	-11.0026
市易	-11.0026
書生	-11.0026
凋	-11.0028
比較	-11.0029
深切	-11.003
三處	-11.0031
輔相	-11.0031
面奏	-11.0032
核實	-11.0033
擠	-11.0033
燈	-11.0034
人之所	-11.0034
主兵	-11.0036
善良	-11.0038
莊浪	-11.0038
異數	-11.0038
常賚	-11.004
遊兵	-11.004
所領	-11.0041
繕摺具奏	-11.0041
翕然	-11.0042
衙	-11.0042
言則	-11.0043
告示	-11.0044
之奏	-11.0045
一條	-11.0045
平民	-11.0047
甚有	-11.0048
吾民	-11.0049
登場	-11.0049
訓導	-11.0049
稽考	-11.0051
山東河南	-11.0053
復何	-11.0054
不爽	-11.0057
敵兵	-11.0058
不遺	-11.006
之司	-11.0061
該州	-11.0062
溜	-11.0064
大有為	-11.0068
行遣	-11.0072
昭示	-11.0075
百工	-11.0075
黎民	-11.0076
戡	-11.0076
肩	-11.0079
城守	-11.0079
正宜	-11.008
扎	-11.0083
悚	-11.0085
彌補	-11.0085
何時	-11.0086
刪	-11.0087
鈐轄	-11.0088
少年	-11.0089
喚	-11.0089
囂	-11.009
拳拳	-11.009
劉世明	-11.009
坑	-11.0091
以天下	-11.0091
䛕	-11.0091
言事者	-11.0092
乍	-11.0093
行則	-11.0094
陋習	-11.0098
必曰	-11.0098
失宜	-11.0098
磨勘	-11.0099
扵是	-11.01
河道總督	-11.0101
於上年	-11.0102
訓飭	-11.0102
其要	-11.0105
截留	-11.0105
議敘	-11.0105
我師	-11.0106
報復	-11.0114
之秋	-11.0114
入已	-11.0115
大者	-11.0115
忌諱	-11.0115
於法	-11.0116
但知	-11.012
庫銀	-11.012
若再	-11.012
原議	-11.012
旗下	-11.0121
清口	-11.0122
周旋	-11.0122
舉措	-11.0123
世襲	-11.0123
倍加	-11.0124
理宜	-11.0125
逺矣	-11.0126
陳言	-11.0128
視事	-11.0128
御史大夫	-11.0128
整齊	-11.0129
監候	-11.013
成例	-11.013
也臣等	-11.0131
臣無任	-11.0132
初六日	-11.0137
甘州	-11.0138
黄廷桂	-11.014
兮	-11.014
詢之	-11.0144
又不能	-11.0145
禦敵	-11.0145
九錢	-11.0146
上哲宗乞	-11.0148
将来	-11.015
天顔	-11.0152
忠邪	-11.0152
朕前	-11.0152
憂勞	-11.0152
大小官員	-11.0153
詞訟	-11.0154
状曰臣	-11.0154
諸儒	-11.0156
租賦	-11.0156
世世	-11.0157
衢	-11.0157
養民	-11.0159
臣之所	-11.0159
邦國	-11.0163
封駮	-11.0165
固無	-11.0165
定州	-11.0167
滇黔	-11.0169
竊念	-11.017
部下	-11.0171
入貢	-11.0171
犬馬之	-11.0173
諭以	-11.0175
外戚	-11.0177
知道	-11.0178
計算	-11.0178
盛時	-11.0179
水草	-11.0182
尺不等	-11.0182
支持	-11.0185
危亡	-11.019
事無	-11.0191
父老	-11.0191
是乃	-11.0192
之本也	-11.0192
而實	-11.0196
煩擾	-11.0197
而使之	-11.0197
在廷	-11.0197
運使	-11.0197
所共	-11.0198
修身	-11.0198
俾其	-11.0198
騙	-11.02
宛	-11.0201
萬厯	-11.0202
歸順	-11.0202
毎嵗	-11.0202
孤立	-11.0203
如之何	-11.0205
男女	-11.0206
不到	-11.0207
不順	-11.0208
掩飾	-11.0209
威權	-11.021
傷損	-11.0211
賜予	-11.0211
藝祖	-11.0212
厚薄	-11.0213
仰副	-11.0215
叛逆	-11.0216
本縣	-11.0218
竊思	-11.022
三司使	-11.0222
平凉	-11.0224
變異	-11.0224
如䝉	-11.0225
奉使	-11.0226
闗防	-11.0226
昔年	-11.0228
清議	-11.0228
諸人	-11.0231
以守	-11.0231
武宗	-11.0232
此人	-11.0232
施恩	-11.0233
繼遷	-11.0238
營兵	-11.0238
其義	-11.0238
數百里	-11.024
共銀	-11.0242
諸将	-11.0243
借給	-11.0244
寛貸	-11.0245
集議	-11.0246
不移	-11.0248
悉令	-11.0248
上疏	-11.0248
非其	-11.025
事功	-11.025
罷免	-11.0252
也臣愚	-11.0254
焉則	-11.0255
圜丘	-11.0256
陛下欲	-11.0256
未必不	-11.0257
不清	-11.0257
進賢	-11.0257
但當	-11.0258
究問	-11.0258
繪	-11.0261
函	-11.0261
政體	-11.0261
上哲宗論	-11.0263
竭盡	-11.0263
殁	-11.0264
羡	-11.0266
山海	-11.0267
被害	-11.0268
之儲	-11.0269
人者	-11.0272
分派	-11.0272
當今之	-11.0276
不守	-11.0278
反側	-11.0279
馬疋	-11.0285
備員	-11.0285
所稱	-11.0287
相傳	-11.0288
慶幸	-11.0288
伊子	-11.0288
群臣	-11.0289
不登	-11.029
私販	-11.0291
輕易	-11.0292
興化	-11.0292
强弱	-11.0293
不然則	-11.0293
自省	-11.0295
官物	-11.0296
蓄積	-11.0298
原非	-11.0299
充足	-11.0299
密訪	-11.03
不中	-11.03
補足	-11.0304
水患	-11.0305
愛人	-11.0305
祖訓	-11.0307
商販	-11.0309
之來	-11.0312
戸口	-11.0312
二十三日	-11.0313
合無將	-11.0313
乳	-11.0315
剝	-11.0315
舜之	-11.0316
是否有當	-11.0317
上仁宗乞	-11.0317
凑	-11.0318
譬之	-11.0321
邈	-11.0322
自餘	-11.0323
十萬石	-11.0323
成災	-11.0323
爾等可	-11.0324
萬一有	-11.0326
本以	-11.0328
原屬	-11.0329
諸國	-11.033
文彦博	-11.0334
紛更	-11.0335
國王	-11.0335
誅之	-11.0338
晏然	-11.0339
暫停	-11.034
給銀	-11.034
億萬	-11.0341
其來	-11.0341
上蒼	-11.0348
金石	-11.0351
公行	-11.0351
務為	-11.0353
之辭	-11.0355
乃敢	-11.0355
非禮	-11.0359
其官	-11.036
無失	-11.0362
猶不	-11.0365
竝不	-11.0366
等語朕	-11.0367
牟	-11.0367
至和	-11.0368
敬慎	-11.0368
易之	-11.0368
皇極	-11.0369
豈獨	-11.0369
毋使	-11.0371
不敬	-11.0371
犬	-11.0374
入朝	-11.0375
隕	-11.0375
賭博	-11.0376
宻奏	-11.0376
鎖	-11.0377
𦙍	-11.0378
咫尺	-11.0379
霖	-11.038
逰擊	-11.0381
十里	-11.0381
狎	-11.0382
尚屬	-11.0383
數内	-11.0383
大中	-11.0384
之慶	-11.0384
舍人	-11.0386
皆云	-11.0387
馬價	-11.0387
契勘	-11.0389
畋	-11.0389
文武官員	-11.039
雖曰	-11.0391
西域	-11.0392
近該	-11.0393
請給	-11.0394
糧儲	-11.0395
昔日	-11.0395
供奉	-11.0396
八萬	-11.0397
有所不	-11.0397
賜之	-11.0402
廣大	-11.0404
終不能	-11.0404
讞	-11.0406
管領	-11.0407
也哉	-11.0407
嚴審	-11.0409
之嫌	-11.041
比照	-11.041
百餘里	-11.0412
取具	-11.0412
扵此	-11.0412
皆因	-11.0413
緝拏	-11.0413
千戸	-11.0413
雖多	-11.0415
用銀	-11.0416
勘㑹	-11.0417
見陛下	-11.0417
宿衛	-11.0417
為上	-11.0419
違法	-11.0421
茍簡	-11.0422
插	-11.0422
軍功	-11.0423
謹繕摺	-11.0426
罪犯	-11.0429
備位	-11.043
江東	-11.043
在在	-11.0431
哈元生	-11.0431
直道	-11.0432
但能	-11.0432
行在	-11.0433
之所能	-11.0434
四也	-11.0434
王士俊	-11.0435
岱	-11.0435
髪	-11.0435
王曰	-11.0435
啇	-11.0436
贏	-11.0437
去就	-11.0438
挑濬	-11.044
息民	-11.0441
立政	-11.0442
炭	-11.0442
所不及	-11.0442
擒拏	-11.0443
安在	-11.0443
連日	-11.0444
寛厚	-11.0444
宰輔	-11.0447
鼓鑄	-11.0448
會議	-11.045
功成	-11.045
狄	-11.0451
年力	-11.0451
行間	-11.0452
亦足以	-11.0452
公卿大夫	-11.0454
各鎮	-11.0458
題奏	-11.0458
其半	-11.0459
若令	-11.0459
銅錢	-11.0459
半月	-11.046
如此其	-11.046
臣區區	-11.046
張浚	-11.0461
一百八十	-11.0463
脅從	-11.047
農夫	-11.0471
攻取	-11.0472
不預	-11.0473
未䝉	-11.0473
荆湖	-11.0479
罔上	-11.048
自相	-11.0481
天下事	-11.0485
顯著	-11.0487
損傷	-11.0487
勞而	-11.0488
農事	-11.0489
紛然	-11.0491
圖治	-11.0491
本欲	-11.0492
法紀	-11.0492
軍法	-11.0493
祖宗之法	-11.0494
應令	-11.0494
躍	-11.0495
迯	-11.0495
寤寐	-11.0495
齎捧	-11.0495
散給	-11.0496
考覈	-11.0499
繡	-11.0499
宫闈	-11.0505
莅任	-11.0507
不係	-11.0508
世道	-11.0511
但查	-11.0512
真偽	-11.0512
激勸	-11.0512
大王	-11.0513
消息	-11.0513
使知	-11.0513
伏自	-11.0514
無備	-11.0514
稟稱	-11.0516
尚且	-11.0517
共相	-11.0517
控制	-11.052
館職	-11.0521
公平	-11.0521
導之	-11.0523
有五	-11.0526
仰給	-11.0526
持重	-11.0537
宿遷	-11.0537
以觀	-11.0539
寛其	-11.054
創業	-11.054
而取	-11.054
通同	-11.0541
投誠	-11.0541
十餘人	-11.0541
無事之時	-11.0542
條具	-11.0543
銀一萬	-11.0543
相率	-11.0544
王氏	-11.0544
者謂之	-11.0549
地方事務	-11.0553
和糴	-11.0553
聖君	-11.0553
隨於	-11.0553
其衆	-11.0555
先務	-11.0557
校尉	-11.0557
泯	-11.0558
亦將	-11.056
䙝	-11.056
摇	-11.056
綬	-11.0561
吕公著	-11.0561
飯食	-11.0562
盡皆	-11.0563
奉職	-11.0563
兵夫	-11.0563
遂有	-11.0565
惟知	-11.0568
原擬	-11.0568
重困	-11.0569
山東廵撫	-11.0569
邦家	-11.057
分司	-11.057
名數	-11.057
何異	-11.0571
總河	-11.0573
此固	-11.0574
長短	-11.0575
為便	-11.0576
通飭	-11.0578
年三月	-11.0579
兇惡	-11.0581
興起	-11.0582
舉而	-11.0584
安樂	-11.0586
世宗	-11.0587
衙前	-11.0588
上章	-11.0589
敬陳	-11.059
倒死	-11.0591
患病	-11.0593
大學士等	-11.0593
堆	-11.0594
我軍	-11.0596
殿最	-11.0596
必不可	-11.0597
並宜	-11.0599
之神	-11.0602
朕觀	-11.0604
中庸	-11.0604
關中	-11.0605
過半	-11.0609
學術	-11.061
餽	-11.061
者如	-11.0611
獨不	-11.0612
愷	-11.0614
雷霆	-11.0615
而不行	-11.0615
候補	-11.0615
之澤	-11.0615
陞授	-11.0616
治河	-11.0617
軾	-11.0617
棲	-11.0619
調劑	-11.0619
之首	-11.0621
補報	-11.0621
通行曉諭	-11.0622
於是乎	-11.0627
一并	-11.0627
毋致	-11.0629
雖云	-11.063
變更	-11.063
激切	-11.0632
協營	-11.0635
若遇	-11.0635
輿論	-11.0637
指名	-11.0639
奏對	-11.0641
漢文帝	-11.0641
能使	-11.0642
上有	-11.0652
某事	-11.0658
之惡	-11.0658
改悔	-11.0659
亦知	-11.066
鄉試	-11.066
放免	-11.0662
之得失	-11.0662
行查	-11.0663
祖考	-11.0663
開陳	-11.0663
並進	-11.0667
保薦	-11.0668
以勵	-11.0668
年分	-11.0669
而卒	-11.0671
嬖	-11.0674
屬下	-11.0675
朦混	-11.0675
鞏昌	-11.0675
遯	-11.0676
鐡	-11.0677
區畫	-11.0679
其初	-11.0679
朱綱	-11.0679
飢寒	-11.0679
睿裁	-11.0679
㦸	-11.068
仍於	-11.0681
哉且	-11.0682
恣意	-11.0682
愛憎	-11.0683
上江	-11.0683
矣然而	-11.0684
經管	-11.0689
虧欠	-11.069
惻然	-11.0691
徳宗	-11.0692
出洋	-11.0694
朝廷之上	-11.0695
乃至	-11.0696
諸大臣	-11.0697
大有裨益	-11.0697
私自	-11.0699
歸併	-11.0702
或致	-11.0702
開列	-11.0704
小補	-11.0704
常平倉	-11.0705
民事	-11.0707
態	-11.0708
百度	-11.0708
安徽	-11.071
兆民	-11.071
安堵	-11.0711
之人皆	-11.0711
制之	-11.0711
昨日	-11.0712
其或	-11.0712
十名	-11.0714
巡視	-11.0715
年六月	-11.0715
官者	-11.0716
預先	-11.0718
水路	-11.0718
三百餘	-11.0718
之益	-11.072
拿	-11.0721
漢唐之	-11.0721
倉儲	-11.0724
衝決	-11.0725
者甚衆	-11.0725
免役	-11.0728
届	-11.0732
變故	-11.0734
淡	-11.0734
大學	-11.0734
黄帝	-11.0734
摯	-11.0734
𬒳	-11.0735
涼州	-11.0735
是否可行	-11.0735
厄	-11.0735
已完	-11.0735
桐	-11.0736
潢	-11.0737
繁劇	-11.0739
母后	-11.0739
貺	-11.0739
首報	-11.0739
之朝	-11.074
不可得而	-11.074
陸贄	-11.074
召還	-11.0741
為憂	-11.0742
文冊	-11.0743
松江	-11.0743
查審	-11.0744
地方情形	-11.0744
未當	-11.0745
家屬	-11.0746
廷尉	-11.0746
暴露	-11.0751
昇平	-11.0751
蕃部	-11.0751
自能	-11.0751
誠如	-11.0752
以寛	-11.0755
韓維	-11.0755
水火	-11.0756
矣昔	-11.0758
宣和	-11.0759
所過	-11.0761
取信	-11.0762
縱横	-11.0763
節文	-11.0764
恩威	-11.0764
南面	-11.0766
未明	-11.0769
者既	-11.0769
臣按	-11.077
省覽	-11.0772
黨與	-11.0773
𠞰撫	-11.0773
另摺	-11.0773
科目	-11.0774
敬天	-11.0776
挐	-11.0777
乎陛下	-11.0778
萬三千	-11.0779
大成	-11.078
應請	-11.0782
衰老	-11.0786
誠實	-11.0787
毫釐	-11.0788
田産	-11.0789
六部	-11.0789
一百七十	-11.079
而立	-11.0792
羣生	-11.0792
潞	-11.0793
入寇	-11.0793
修補	-11.0793
鑾	-11.0794
不可為	-11.0795
累月	-11.0795
韜	-11.0795
瀛	-11.0797
鏡	-11.0798
門户	-11.0798
廖	-11.0799
以上者	-11.0799
栽	-11.08
朗	-11.08
硃批諭㫖	-11.0801
棚	-11.0801
同日又奏爲	-11.0802
學臣	-11.0802
書吏	-11.0802
利弊	-11.0805
流涕	-11.0805
殆盡	-11.0807
祥瑞	-11.0809
朝野	-11.0809
亦是	-11.0809
明王	-11.0811
懲創	-11.0815
成熟	-11.0818
也蓋	-11.082
二道	-11.0821
恩命	-11.0821
乗間	-11.0823
親臨	-11.0823
利民	-11.0824
舊額	-11.0824
全省	-11.0825
邪說	-11.0825
不諱	-11.0828
其所長	-11.0829
考校	-11.083
者何也	-11.0831
兩漢	-11.0832
相宜	-11.0834
過當	-11.0835
發往	-11.0836
講論	-11.0837
門下侍郎	-11.0838
七錢	-11.0838
以收	-11.084
深信	-11.0842
致太平	-11.0843
其術	-11.0844
精選	-11.0848
䝉陛下	-11.0849
簽	-11.0849
穵	-11.0849
籠	-11.085
之過也	-11.0853
上官	-11.0855
政教	-11.0856
疏通	-11.0857
稠	-11.0858
以死	-11.0858
歐陽脩	-11.0859
縛	-11.0859
採辦	-11.0859
水災	-11.086
黄水	-11.086
衙署	-11.0861
額森	-11.0862
胄	-11.0863
經略	-11.0864
維艱	-11.0864
須至	-11.0866
沿邉	-11.0866
國威	-11.0866
百僚	-11.0867
及照	-11.0867
諸葛亮	-11.0868
飭行	-11.0868
切於	-11.0869
而治	-11.0877
命往	-11.0877
必求	-11.0877
張文	-11.0877
罷斥	-11.0881
堅守	-11.0882
不亦	-11.0882
大用	-11.0883
有缺	-11.0886
一人而	-11.0887
尊崇	-11.0888
召見	-11.0889
叅劾	-11.0891
卓然	-11.0893
中正	-11.0893
二尺	-11.0894
提解	-11.0895
著該部	-11.0896
一十二	-11.0896
已乆	-11.0898
推舉	-11.0902
死於	-11.0902
千載	-11.0904
展轉	-11.0904
岳州	-11.0904
太史	-11.0905
潁	-11.0908
串	-11.0909
小的	-11.0909
謀之	-11.091
淨	-11.0912
無時	-11.0914
支放	-11.0915
伏乞聖裁	-11.0915
錮	-11.0915
蝗蝻	-11.0916
張坦麟	-11.0917
轉對	-11.0917
誑	-11.092
各道	-11.092
彦博	-11.0921
欺君	-11.0923
醉	-11.0923
敕下	-11.0924
有不可	-11.0924
成效	-11.0925
畿甸	-11.0925
犯罪	-11.0927
浙西	-11.0927
不謂	-11.0927
更無	-11.0928
吏部侍郎	-11.0929
臣愚欲乞	-11.0929
捕盜	-11.093
則非	-11.0931
端拱	-11.0932
機㑹	-11.0932
今查	-11.0932
數百萬	-11.0933
諫議大夫	-11.0933
瞻徇	-11.0934
王者之	-11.0935
外人	-11.0936
召對	-11.094
者以其	-11.0943
至徳	-11.0944
淺陋	-11.0944
亢旱	-11.0946
西海	-11.0946
㑹審	-11.0947
各工	-11.0947
有負	-11.0948
樂於	-11.095
之祭	-11.0951
一隅	-11.0952
深察	-11.0952
保䕶	-11.0954
俵	-11.0954
聖賢之	-11.0954
受害	-11.0956
已見	-11.0959
㕘處	-11.096
派撥	-11.0961
客兵	-11.0961
禧	-11.0964
深憂	-11.0964
倍於	-11.0968
如舊	-11.0968
向来	-11.0971
子女	-11.0971
箴	-11.0972
謹奏為奏聞事	-11.0974
生民之	-11.0974
存案	-11.0978
造報	-11.098
以身	-11.0982
三州	-11.0982
寡人	-11.0983
渠魁	-11.0984
䆒	-11.0985
浹	-11.0987
疏曰臣	-11.099
㕘革	-11.0991
一概	-11.0992
當其	-11.0993
抵補	-11.0994
更化	-11.0994
陛下之所	-11.0995
熙寧	-11.0996
不可廢	-11.0997
難保	-11.0997
騷然	-11.0997
能知	-11.0999
具在	-11.1
大敗	-11.1001
稱其	-11.1002
巡捕	-11.1002
有誤	-11.1003
右侍郎	-11.1004
曰今	-11.1007
文辭	-11.1011
相近	-11.1011
後有	-11.1011
合祭	-11.1013
伏乞睿鑒	-11.1015
畿内	-11.1015
昊	-11.1015
此四	-11.1018
支領	-11.1019
第五	-11.102
購買	-11.1023
一營	-11.1025
縣丞	-11.1027
廵查	-11.1031
三邊	-11.1031
正言	-11.1032
且令	-11.1033
則易	-11.1033
者也臣	-11.1036
各舉	-11.1036
素無	-11.1037
也雖	-11.1039
森	-11.104
曜	-11.1041
卿士	-11.1042
與我	-11.1043
可封	-11.1043
桿	-11.1043
去則	-11.1044
㽞	-11.1046
嘯聚	-11.1047
薩	-11.1047
包攬	-11.1047
霈	-11.1048
夷民	-11.1049
咨爾	-11.1051
帑金	-11.1051
新命	-11.1052
疆界	-11.1054
從中	-11.1055
弓箭手	-11.1055
新進	-11.1055
於古	-11.1056
又查	-11.1057
悔過	-11.1057
與大臣	-11.1057
尤不可	-11.1058
本内	-11.1058
撥兵	-11.1058
成規	-11.1058
聞於	-11.106
朕於	-11.1062
於世	-11.1064
多故	-11.1066
無如	-11.1067
虞舜	-11.107
以戒	-11.107
窮困	-11.107
帝時	-11.1072
安邊	-11.1072
虛名	-11.1073
有害	-11.1074
等寨	-11.1075
良法	-11.1076
皆能	-11.1078
晚稻	-11.1079
五事	-11.1079
收拾	-11.108
復加	-11.108
擾累	-11.1081
牧守	-11.1085
營守備	-11.1085
盛衰	-11.1085
禦戎	-11.1085
非謂	-11.1086
質審	-11.1086
出示	-11.1087
六萬	-11.1087
乗機	-11.1087
乏人	-11.109
未行	-11.1091
聖聽	-11.1093
並依	-11.1094
違者	-11.1096
天聖	-11.1097
出而	-11.1097
之擾	-11.1098
箱	-11.1098
舌	-11.11
伏乞聖主睿鑒	-11.11
迪	-11.11
不減	-11.1102
上諭曰	-11.1103
昔漢	-11.1105
訥	-11.1106
一十五	-11.1107
巫	-11.1107
仰祈聖鑒事竊	-11.1108
殱	-11.1108
舉其	-11.111
不繼	-11.1111
枚	-11.1111
始知	-11.1111
不軌	-11.1112
兵弁	-11.1112
教職	-11.1112
蒐	-11.1112
功罪	-11.1113
安業	-11.1115
民壯	-11.1115
璘	-11.1115
其主	-11.1115
顛倒	-11.1115
於戲	-11.1115
臣不知	-11.1117
警戒	-11.1119
人為	-11.112
共有	-11.1121
可矜	-11.1123
之價	-11.1123
各自	-11.1128
商議	-11.1128
任其責	-11.113
亦各	-11.113
五十餘	-11.1132
勉為之	-11.1138
樞宻使	-11.1139
奉承	-11.1139
此正	-11.114
鹽規	-11.1141
非時	-11.1141
二等	-11.1145
方其	-11.1146
工匠	-11.1148
有異	-11.115
造就	-11.1151
該衙門	-11.1152
猜	-11.1153
本身	-11.1153
大利	-11.1154
年月	-11.1157
已於	-11.1159
政事之	-11.116
主客	-11.1162
有加	-11.1165
四縣	-11.1166
火器	-11.1166
劍	-11.1167
不前	-11.1167
祖宗以來	-11.1168
好學	-11.1168
蹤跡	-11.117
溫	-11.1171
而後已	-11.1171
拒捕	-11.1171
孰為	-11.1173
中書舎人	-11.1173
桀	-11.1173
暖	-11.1174
霽	-11.1175
為今之計	-11.1175
睹	-11.1176
以佐	-11.1176
曰卿	-11.1176
目覩	-11.1178
何暇	-11.1179
侍講	-11.1179
儆戒	-11.118
毎石	-11.118
軸	-11.118
是陛下	-11.1181
鼠	-11.1181
無容	-11.1181
哉此	-11.1181
十倍	-11.1182
侍衞	-11.1182
之正	-11.1184
澄清	-11.1184
唯恐	-11.1185
三者	-11.1186
散賑	-11.1187
狂悖	-11.1188
又當	-11.1189
大江	-11.119
舉官	-11.119
申嚴	-11.1193
布置	-11.1195
而死	-11.1196
交盤	-11.1196
彼之	-11.1202
前撫	-11.1206
自愛	-11.1208
敢於	-11.1209
故違	-11.1211
亦為	-11.1214
在人	-11.1215
莫可	-11.1215
些	-11.1216
臣甞	-11.1219
於我	-11.1219
戰則	-11.1219
其患	-11.1223
相通	-11.1224
光禄寺	-11.1227
御極	-11.1229
濡	-11.1231
之微	-11.1232
聆	-11.1232
人地相宜	-11.1232
阿克敦	-11.1233
萊	-11.1233
此等事	-11.1233
邠	-11.1235
企	-11.1235
曷勝	-11.1236
武功	-11.1237
詳查	-11.1237
彌縫	-11.1237
者無不	-11.1238
䕫	-11.1238
誚	-11.1238
朝臣	-11.1238
重而	-11.1238
勤於	-11.1239
帷幄	-11.1239
溝壑	-11.124
抗拒	-11.1241
如其	-11.1244
乃知	-11.1246
此臣所謂	-11.1246
已甚	-11.1249
憂懼	-11.1249
保安	-11.1249
督撫等	-11.125
斥逐	-11.1252
拔擢	-11.1253
臺省	-11.1255
愚誠	-11.1256
獻納	-11.1256
出外	-11.126
聖駕	-11.1261
其惡	-11.1261
自保	-11.1262
者三	-11.1262
之疑	-11.1264
復見	-11.1266
奮勵	-11.1267
又乞	-11.1269
致其	-11.1269
嗜	-11.1272
接受	-11.1273
臨安	-11.1273
罰俸	-11.1274
限以	-11.1275
可惡	-11.1277
分發	-11.1278
賜以	-11.1281
親親	-11.1281
宣化	-11.1282
對敵	-11.1282
知悉	-11.1283
黎平	-11.1284
九品	-11.1285
後效	-11.1286
憲章	-11.1289
貨財	-11.1291
斯言	-11.1292
使陛下	-11.1293
一任	-11.1294
親近	-11.1295
山之	-11.1296
爪牙	-11.1296
𤣥宗	-11.1297
軍職	-11.1299
不敢言	-11.13
優渥	-11.1301
者朕	-11.1301
無乃	-11.1301
安居	-11.1302
芝	-11.1302
檄飭	-11.1304
安瀾	-11.1305
一箇	-11.1307
體訪	-11.1311
等件	-11.1315
也豈	-11.1317
其材	-11.1317
聞得	-11.1319
往者	-11.1326
將各	-11.1328
非是	-11.1328
銓選	-11.1331
始行	-11.1332
日有	-11.1333
兩處	-11.1334
推行	-11.1335
禮也	-11.1337
不急	-11.1339
相仍	-11.1341
可任	-11.1341
為此繕摺	-11.1342
委令	-11.1342
安輯	-11.1343
備行	-11.1346
為數	-11.1346
力役	-11.1346
也又曰	-11.1347
何其	-11.1349
古制	-11.1349
漂	-11.1354
奸弊	-11.1355
軍伍	-11.1355
革退	-11.1355
今来	-11.1357
不仁	-11.1357
涕	-11.1357
以制	-11.1358
密行	-11.1359
佇	-11.1359
指實	-11.1361
砍	-11.1362
東漢	-11.1362
物件	-11.1363
副總河	-11.1363
禮之	-11.1363
仰懇聖恩	-11.1363
接准部咨	-11.1364
砌	-11.1364
給賞	-11.1365
二錢	-11.1365
師道	-11.1366
嚴加議處	-11.1367
恭請	-11.1368
銖	-11.1368
撙節	-11.1369
之條	-11.137
爐	-11.1371
據各屬	-11.1373
當有	-11.1379
未息	-11.138
乞行	-11.1381
唐大詔令集巻	-11.1382
氏之	-11.1382
委以	-11.1382
要將	-11.1383
所屬地方	-11.1387
宣慰	-11.139
考課	-11.1394
言曰	-11.1395
蠲除	-11.1395
憲德	-11.1398
所與	-11.1398
天下國家	-11.1406
西人	-11.1407
物價	-11.1407
恭繳	-11.1408
諸公	-11.1409
發回	-11.141
原摺	-11.1411
行於	-11.1411
七人	-11.1411
力不能	-11.1412
之號	-11.1415
計者	-11.1415
能員	-11.1417
延州	-11.1418
以南	-11.1419
至日	-11.142
通事	-11.142
度日	-11.1423
此議	-11.1424
埠	-11.1425
疆埸	-11.1425
一介庸愚	-11.1426
搖	-11.1428
禦之	-11.1428
一百三十	-11.1429
大小臣工	-11.1429
駿	-11.143
磚	-11.1431
侔	-11.1432
之所在	-11.1432
何至	-11.1433
一物	-11.1434
比年以來	-11.1435
其門	-11.1435
應於	-11.1435
兢兢業業	-11.1435
果係	-11.1436
民安	-11.1436
數事	-11.1437
惟新	-11.1438
輿情	-11.144
伏望聖明	-11.1441
足為	-11.1443
長乆	-11.1443
姦謀	-11.1444
前者	-11.1444
所失	-11.1445
本非	-11.1449
論者	-11.1449
去留	-11.1451
至明	-11.1451
上自	-11.1454
海運	-11.1455
如彼	-11.1456
始末	-11.1457
居其	-11.1459
拒敵	-11.1461
若係	-11.1461
理合繕摺奏聞	-11.1463
地丁	-11.1463
又稱	-11.1465
隆慶	-11.1466
永久	-11.1466
用為	-11.1467
田疇	-11.1471
治理	-11.1473
考驗	-11.1475
聞者	-11.1475
不達	-11.1477
鎮標	-11.1477
安於	-11.1479
資序	-11.148
尚能	-11.1483
全不	-11.1483
臘	-11.1487
帑藏	-11.1487
佟	-11.1487
蔚	-11.1489
器用	-11.1492
青苖	-11.1492
嘿	-11.1493
改元	-11.1493
漆	-11.1494
國課	-11.1494
蟻	-11.1495
實政	-11.1495
威逺	-11.1496
應照	-11.1496
按季	-11.1497
賔客	-11.1499
章疏	-11.1499
事多	-11.1499
先次	-11.15
一缺	-11.15
一統	-11.1501
毁譽	-11.1501
便利	-11.1501
可稱	-11.1501
兼并	-11.1501
恩信	-11.1503
神人	-11.1504
之事也	-11.1504
民風	-11.1505
乞勅	-11.1505
陛下既	-11.151
雍正	-11.1511
以臣言為	-11.1513
女真	-11.1515
二百五十	-11.1516
二兩	-11.1517
艱食	-11.1518
以北	-11.1519
捕役	-11.1519
强盜	-11.1521
星馳	-11.1523
十一日	-11.1523
而後可	-11.1523
損壊	-11.1523
城寨	-11.1528
皇皇	-11.1528
特與	-11.1528
果否	-11.153
不悛	-11.1532
以懲	-11.1534
大敵	-11.1535
定額	-11.1538
國政	-11.1538
食用	-11.1543
等俱	-11.1544
得實	-11.1544
之本意	-11.1544
惟當	-11.1544
小有	-11.1546
納忠	-11.1546
遵循	-11.1546
北路	-11.1549
設或	-11.155
三員	-11.1551
進者	-11.1552
督理	-11.1552
鷹	-11.1556
閹	-11.1557
餬口	-11.1557
至聖	-11.1558
鈎	-11.1558
所損	-11.1559
理藩院	-11.1559
黃河	-11.156
貽悞	-11.156
百計	-11.156
文員	-11.1562
寺監	-11.1562
查弼納	-11.1563
曽無	-11.1565
平章事	-11.1565
量其	-11.1565
起送	-11.1566
郢	-11.1567
精鋭	-11.1568
今國家	-11.1569
控告	-11.157
朝覲	-11.157
隣省	-11.1571
猶在	-11.1574
既往	-11.1574
懲戒	-11.1574
慨然	-11.1575
均屬	-11.1582
知遇	-11.1582
再議	-11.1583
隕越	-11.1583
積累	-11.1583
優長	-11.1586
臨陣	-11.1587
長寨	-11.1587
使令	-11.159
管内	-11.159
茍非	-11.1591
皆無	-11.1592
陛下自	-11.1592
之便	-11.1594
漢武	-11.1594
正道	-11.1596
乂安	-11.1596
正官	-11.1597
又皆	-11.1598
離間	-11.1599
但係	-11.16
成帝	-11.16
例該	-11.1601
此二人	-11.1605
長久	-11.1607
増添	-11.1607
文武官	-11.1608
制錢	-11.1608
為甚	-11.1608
而不顧	-11.1609
熟練	-11.161
堯之	-11.1611
在家	-11.1612
天降	-11.1612
此例	-11.1616
穫	-11.1616
謹奏為奏明事竊	-11.1621
銀内	-11.1622
日夕	-11.1622
其權	-11.1623
上奏曰臣伏見	-11.1624
所定	-11.1625
勉之勉之	-11.1625
世宗憲皇帝上諭内閣	-11.1627
捐軀	-11.1627
則無以	-11.163
天資	-11.1631
大國	-11.1631
掾	-11.1633
永為	-11.1634
甲寅	-11.1634
惡之	-11.1634
三鎮	-11.1635
原委	-11.1635
附和	-11.1636
無定	-11.1637
不足為	-11.1638
忘其	-11.164
餉銀	-11.1642
愛戴	-11.1643
輪流	-11.1643
之良	-11.1645
進見	-11.1647
富者	-11.1647
蓋以	-11.165
居多	-11.165
同日	-11.1651
高厚	-11.1652
邉鄙	-11.1652
未審	-11.1653
調兵	-11.1653
選任	-11.1654
刻薄	-11.1655
指使	-11.1656
以罪	-11.1658
惟陛下留神	-11.1658
邪佞	-11.1661
六合	-11.1663
統兵	-11.1664
所属	-11.1666
領軍	-11.1668
之廟	-11.1669
貴乎	-11.1672
於此時	-11.1673
具詳	-11.1675
之信	-11.1675
明經	-11.1676
以法	-11.1677
殺害	-11.1679
光明	-11.168
厯年	-11.1683
輅	-11.1685
六曹	-11.1686
覘	-11.1689
無弊	-11.1691
親自	-11.1691
驛遞	-11.1692
竦	-11.1692
粵	-11.1693
毀	-11.1693
禮部尚書	-11.1694
氛	-11.1695
粉	-11.1695
無賴	-11.1695
一律	-11.1696
謹奏為恭謝天恩事竊	-11.1696
葦	-11.1696
線	-11.1697
上封事	-11.1697
不寧	-11.1698
痛加	-11.1699
勾當	-11.17
閭里	-11.1701
料物	-11.1701
累日	-11.1703
以進	-11.1705
每名	-11.1705
六事	-11.1708
夏國	-11.1708
誰敢	-11.1709
裴度	-11.171
延安	-11.171
至深	-11.1711
時務	-11.1712
䝉蔽	-11.1712
安知	-11.1712
其親	-11.1713
於朕	-11.1714
不敢自	-11.1715
施之	-11.1716
無誤	-11.1717
竭忠	-11.1719
爲此	-11.1719
湖水	-11.1721
永昌	-11.1722
征討	-11.1724
用則	-11.1726
屢有	-11.1726
之手	-11.1729
臣聞之	-11.1729
胥役	-11.173
長史	-11.1733
流言	-11.1734
舉者	-11.1735
捐納	-11.1736
陛下若	-11.1737
無用之	-11.1738
萬餘石	-11.1738
盖亦	-11.174
言動	-11.174
而任之	-11.1741
儒者	-11.1742
為災	-11.1742
調治	-11.1743
親行	-11.1744
為貴	-11.1745
仰邀	-11.1746
比來	-11.1748
之固	-11.1748
難知	-11.175
應付	-11.1751
殞	-11.1753
不生	-11.1755
梓	-11.1756
中興之	-11.1756
誠意	-11.1757
曽不	-11.1757
馴致	-11.1758
覬覦	-11.1758
濠	-11.1759
作過	-11.176
迺	-11.1761
貎	-11.1762
但見	-11.1762
早禾	-11.1762
駑	-11.1763
彈劾	-11.1764
俯念	-11.1765
犒賞	-11.1765
為萬世	-11.1768
之公	-11.1768
十七年	-11.177
體朕	-11.1773
方鎮	-11.1773
遺漏	-11.1774
臣伏以	-11.1774
所患	-11.1776
太上皇	-11.1776
倒置	-11.1777
逺而	-11.1779
一十四	-11.1779
不惑	-11.178
六曰	-11.178
不貲	-11.1781
必加	-11.1783
中使	-11.1783
文景	-11.1784
勿令	-11.1784
亡國	-11.1786
提舉官	-11.1789
之所當	-11.1792
零星	-11.1792
神器	-11.1793
得免	-11.1793
鎮巡	-11.1796
而罷	-11.1798
厚恩	-11.1799
智勇	-11.1801
之事而	-11.1803
稱為	-11.1807
竊慮	-11.1807
覲	-11.1808
此盖	-11.1809
殺戮	-11.181
外夷	-11.181
奮發	-11.181
左右前後	-11.1811
之㑹	-11.1813
僱	-11.1814
令典	-11.1814
瑋	-11.1815
明示	-11.1816
定為	-11.1816
車馬	-11.1816
為可	-11.1816
精明	-11.1817
猶以為	-11.1817
齊集	-11.1817
不可輕	-11.1817
朝廷以	-11.1818
重加	-11.1819
陞補	-11.182
職等	-11.182
章䟽	-11.1821
豕	-11.1824
付以	-11.1825
三王	-11.1826
既行	-11.1826
藪	-11.1826
楊宗仁	-11.1826
餧養	-11.1827
柵	-11.1828
有濟	-11.1828
少者	-11.1828
著照	-11.183
樞宻副使	-11.183
不孝	-11.183
彫	-11.1831
五等	-11.1832
於雍正六年	-11.1832
時事	-11.1832
威寧	-11.1833
也國家	-11.1834
皆言	-11.1834
其大者	-11.1834
島	-11.1835
真宗皇帝	-11.1836
血氣	-11.1838
㑹題	-11.1839
欲行	-11.1841
山縣	-11.1847
乆而	-11.1848
黄鍾	-11.185
交部	-11.1852
竝非	-11.1852
防䕶	-11.1853
捏	-11.1854
年九月	-11.1855
旗丁	-11.1855
可成	-11.1856
密諭	-11.1857
宣徳	-11.1857
俘	-11.1857
抑或	-11.1858
賊勢	-11.186
陛下即位	-11.1861
正德	-11.1862
其應	-11.1862
草料	-11.1865
何哉	-11.1865
叅議	-11.1866
漢宣帝	-11.1866
終於	-11.1868
惜之	-11.187
臣竊以為	-11.187
頻年	-11.1871
百執事	-11.1871
居中	-11.1872
驍	-11.1872
或遇	-11.1872
准此	-11.1873
者常	-11.1873
之銀	-11.1874
五月内	-11.1875
保奏	-11.1876
專司	-11.1877
實數	-11.1878
分投	-11.1879
一帶地方	-11.1882
装	-11.1882
濕	-11.1883
薊鎮	-11.1883
欽若	-11.1883
始有	-11.1884
均平	-11.1885
諄	-11.1885
中書令	-11.1887
濱	-11.1887
之幸	-11.1888
亦經	-11.1888
鎮逺	-11.1889
取利	-11.1889
歴來	-11.1891
玖	-11.1891
蕩平	-11.1892
湊	-11.1892
素所	-11.1892
扆	-11.1893
澆	-11.1894
癸丑	-11.1894
前所	-11.1895
俱無	-11.1895
寂	-11.1896
豈不知	-11.1896
平穩	-11.1897
石工	-11.1898
查究	-11.1898
過人	-11.1898
多至	-11.1899
河東總督	-11.19
淮甸	-11.1901
指揮使	-11.1901
感悟	-11.1902
孟軻	-11.1903
率兵	-11.1904
讜言	-11.1904
者各	-11.1905
滚	-11.1905
秋審	-11.1905
大行	-11.1906
文册	-11.1907
或為	-11.1909
起科	-11.191
一十三	-11.191
正論	-11.191
慶陽	-11.1911
未協	-11.1911
根究	-11.1911
而已今	-11.1912
次年	-11.1912
軍糧	-11.1913
猶且	-11.1914
衆口	-11.1914
致使	-11.1915
之萬一	-11.192
三載	-11.1923
老臣	-11.1924
増置	-11.1926
未有如	-11.1927
以警	-11.1928
先帝之	-11.1928
為相	-11.1929
以塞	-11.1929
仁厚	-11.1929
異常	-11.193
邪説	-11.1931
福州	-11.1932
所上	-11.1936
徇庇	-11.1938
有志	-11.1938
審察	-11.1938
俱未	-11.1939
無逸	-11.1939
茍不	-11.194
則不然	-11.194
豐熟	-11.1941
識者	-11.1941
能者	-11.1942
蒙古	-11.1945
亦與	-11.1945
懾	-11.1948
䝉我皇上	-11.195
多所	-11.195
又見	-11.195
相為	-11.1951
原設	-11.1953
藩臬	-11.1954
毎遇	-11.1955
不煩	-11.1955
務從	-11.1955
宵	-11.1955
七廟	-11.1956
湘	-11.1956
大節	-11.1957
芒	-11.1957
究擬	-11.1957
綜	-11.1958
奭	-11.196
營中	-11.196
侍臣	-11.196
徒有	-11.1965
欲得	-11.1968
壬子	-11.1968
等皆	-11.1969
棘	-11.1971
若復	-11.1973
非一日	-11.1973
大聖	-11.1974
相兼	-11.1975
建炎	-11.1977
乎若	-11.1977
謹奏為奏聞事竊照	-11.1979
遴	-11.1979
當此之時	-11.198
不變	-11.1982
並與	-11.1984
用力	-11.1985
一端	-11.1987
外今	-11.1988
母子	-11.1989
各令	-11.199
行據	-11.199
著為	-11.1991
推廣	-11.1992
超擢	-11.1992
禮經	-11.1994
光景	-11.1997
為陛下言之	-11.1998
而動	-11.1998
非但	-11.1999
建造	-11.1999
賞之	-11.2001
而難	-11.2008
兵法	-11.2008
舉兵	-11.2008
邉方	-11.2009
二百餘	-11.2012
軍門	-11.2013
益深	-11.2014
宜乎	-11.2016
安設	-11.2018
聖世	-11.2021
大臣官員	-11.2025
禾苗	-11.2025
一千二百	-11.2026
失當	-11.2027
無忌	-11.2028
慶元	-11.2029
二司	-11.2029
燬	-11.2029
怡	-11.203
輾轉	-11.203
臣敢	-11.203
覓	-11.203
滋長	-11.2031
之愛	-11.2032
厦門	-11.2032
治亂之	-11.2032
眩	-11.2034
沸騰	-11.2035
黄炳	-11.2035
撿	-11.2035
三朝	-11.2036
瑗	-11.2037
跨	-11.2038
懇乞	-11.2039
乞休	-11.2041
開採	-11.2042
得其人則	-11.2044
若何	-11.2044
可勝	-11.2044
西藏	-11.2044
迴	-11.2045
聚斂	-11.2049
嚴明	-11.205
可期	-11.205
知朝廷	-11.2051
魏晉	-11.2053
矜全	-11.2055
寢食	-11.2056
工完	-11.2059
今當	-11.206
太多	-11.206
即使	-11.2062
前在	-11.2063
明文	-11.2063
者在	-11.2064
臣之言	-11.2067
旋即	-11.2068
流弊	-11.2068
額數	-11.207
管河道	-11.2073
髙帝	-11.2073
其禮	-11.2073
未立	-11.2073
太師	-11.2074
又為	-11.2074
載籍	-11.2076
兩人	-11.2076
之賢否	-11.2077
漢髙祖	-11.2077
君道	-11.2078
臣誠	-11.2078
欽恤	-11.2079
變而	-11.2084
照臨	-11.2085
餌	-11.2088
惠卿	-11.2089
桃	-11.2089
修德	-11.2089
可見矣	-11.2092
追賠	-11.2093
今世	-11.2095
恃其	-11.2095
講明	-11.2098
罪之	-11.2098
汛地	-11.21
庠	-11.21
攀	-11.2101
灌溉	-11.2101
秤	-11.2101
該旗	-11.2102
揖	-11.2102
旗軍	-11.2103
非輕	-11.2103
霧	-11.2103
敷奏	-11.2104
謡	-11.2105
文宗	-11.2105
髮	-11.2106
為盜賊	-11.2107
借支	-11.2107
壅滯	-11.2107
官無	-11.2107
下則	-11.2108
六里	-11.2108
疆場	-11.2109
其禍	-11.211
變易	-11.211
稀少	-11.2111
一鎮	-11.2111
大孝	-11.2111
歎息	-11.2112
姦匪	-11.2113
大罪	-11.2115
又䝉	-11.2115
自得	-11.2115
何人斯	-11.2117
草塲	-11.2117
廟堂之上	-11.2117
違例	-11.212
基業	-11.2121
諫臣	-11.2126
年七月	-11.2128
問擬	-11.2128
廬舍	-11.2128
國無	-11.2129
之身	-11.213
朕必	-11.213
戒飭	-11.213
親信	-11.2131
中宗	-11.2131
其性	-11.2133
𦂳	-11.2134
取㫖	-11.2135
徐徐	-11.2136
臣子之	-11.2138
不愧	-11.2139
遴委	-11.2139
每歲	-11.214
甚少	-11.2141
當否	-11.2141
天下之治	-11.2145
地分	-11.2145
故雖	-11.2146
今巳	-11.2148
理合繕摺奏聞謹奏	-11.2148
不可謂	-11.2149
不可不察也	-11.2149
大道	-11.215
去而	-11.215
之粟	-11.2152
金陵	-11.2156
現存	-11.2157
君親	-11.2158
親屬	-11.2158
妄為	-11.2161
非人	-11.2163
神主	-11.2165
重者	-11.2165
商船	-11.2166
三營	-11.2167
咽喉	-11.2168
櫃	-11.2169
辛亥	-11.2169
欽奉諭㫖	-11.2171
碍	-11.2172
臣庶	-11.2174
旒	-11.2174
允禵	-11.2176
宗族	-11.2178
由此觀之	-11.2179
協理	-11.2179
斛斗	-11.2179
畏威	-11.2182
齎摺	-11.2183
築堤	-11.2185
别立	-11.2185
上元	-11.2187
道德	-11.2187
可慮	-11.2188
罔極	-11.2189
之愆	-11.219
軫恤	-11.2191
兩江	-11.2193
其責	-11.2193
䕶軍	-11.2195
百倍	-11.2197
犯者	-11.2197
斷自	-11.2198
小過	-11.2199
振作	-11.22
耳若	-11.22
文武官弁	-11.2201
請命	-11.2202
謹奏竊	-11.2202
疑惑	-11.2209
不理	-11.221
伏秋	-11.2211
難免	-11.2212
不過數	-11.2212
小則	-11.2214
必為	-11.2214
狐	-11.2215
糧食	-11.2215
條目	-11.2215
營求	-11.2216
其黨	-11.2216
乃復	-11.2219
强敵	-11.2219
澳	-11.2219
三兩	-11.222
文公	-11.2221
應時	-11.2222
不敢輕	-11.2223
若乃	-11.2223
販賣	-11.2224
易為	-11.2224
皇城	-11.2224
行止	-11.2224
萬分	-11.2224
不充	-11.2225
業巳	-11.2225
相持	-11.2226
列於	-11.2226
惡者	-11.2228
素稱	-11.2228
兢兢	-11.2231
可復	-11.2232
儀注	-11.2233
多得	-11.2233
求去	-11.2235
栢	-11.2236
復為	-11.2236
以給	-11.2236
以輔	-11.2237
王制	-11.2237
入告	-11.2239
其氣	-11.2239
三道	-11.2239
稍稍	-11.224
方行	-11.224
千餘兩	-11.2242
兔	-11.2244
裹	-11.2244
有曰	-11.2244
孝悌	-11.2244
絀	-11.2245
勢要	-11.2246
詐偽	-11.2246
不幸而	-11.2246
鄉民	-11.2248
調理	-11.2248
張方平	-11.2249
三十四	-11.2249
特遣	-11.2252
庶績	-11.2253
省㑹	-11.2256
衆庶	-11.2257
聖懐	-11.2258
嘉納	-11.2258
方始	-11.2259
矣至	-11.2259
或者	-11.226
上件	-11.2261
難安	-11.2266
岡	-11.2267
引咎	-11.2269
安敢	-11.2269
不定	-11.227
通知	-11.2271
謹具	-11.2271
相濟	-11.2275
無得	-11.2279
安全	-11.228
面加	-11.2282
專一	-11.2284
伏祈	-11.2285
大害	-11.2289
道士	-11.229
未報	-11.229
茶馬	-11.2291
查報	-11.2292
所擬	-11.2292
五百餘	-11.2292
市價	-11.2293
英斷	-11.2293
未清	-11.2297
徒為	-11.2299
萬歴	-11.2299
察臣	-11.2299
幸得	-11.23
封爵	-11.23
田里	-11.2301
此道	-11.2302
慮其	-11.2302
司府	-11.2303
深恐	-11.2303
為照	-11.2303
不肖者	-11.2304
之罪也	-11.2305
灼	-11.2307
持節	-11.2307
三月内	-11.2309
生苗	-11.2311
奬勵	-11.2311
聖治	-11.2312
嶺南	-11.2312
桃源	-11.2313
扎薩克	-11.2313
帷	-11.2313
眉	-11.2313
可汗	-11.2313
丙午	-11.2314
􁞽	-11.2314
呌	-11.2315
乾坤	-11.2316
瘞	-11.2316
控扼	-11.2316
旭	-11.2317
惻	-11.2317
殫心	-11.2318
煽惑	-11.2319
封疆大臣	-11.2319
賊犯	-11.2323
事屬	-11.2323
大本	-11.2323
下江	-11.2324
大要	-11.2324
切責	-11.2324
遷徙	-11.2324
景泰	-11.2328
無㡬	-11.2329
内庫	-11.233
建中	-11.233
者已	-11.233
調任	-11.2331
不可失	-11.2334
誰不	-11.2334
貽患	-11.2334
無事則	-11.2335
前史	-11.2335
士習	-11.2336
六名	-11.234
事干	-11.234
欺隠	-11.2341
備禮	-11.2341
㡬何	-11.2342
以仰報	-11.2342
以足	-11.2342
及第	-11.2345
未平	-11.2345
匪人	-11.2347
循良	-11.2348
必有所	-11.2349
乃為	-11.2349
無告	-11.235
此軰	-11.2352
遂令	-11.2352
預行	-11.2355
於時	-11.2355
為務	-11.2357
簾	-11.2357
轉相	-11.2358
東平	-11.2359
於禮	-11.236
年四月	-11.2362
得天下	-11.2363
人衆	-11.2364
中等	-11.2368
荷䝉聖恩	-11.2372
矣朕	-11.2372
太皇太后陛下	-11.2373
唯陛下	-11.2373
勸勉	-11.2373
潮州	-11.2373
四十八	-11.2374
拏問	-11.2374
両	-11.2375
買辦	-11.2376
餘人	-11.2376
署事	-11.2376
贄	-11.2379
山澤	-11.238
􁱰	-11.238
宜兆熊	-11.2381
經國	-11.2382
蜀之	-11.2383
矩	-11.2383
雍正十三年	-11.2384
搏	-11.2384
律例	-11.2386
治者	-11.2386
於道	-11.2386
僞	-11.2387
猖狂	-11.2387
不乏	-11.2387
節該	-11.2388
南康	-11.239
第四	-11.2391
未足以	-11.2391
有成效	-11.2392
北郊	-11.2393
水手	-11.2393
張楷	-11.2394
年十月	-11.2395
陳請	-11.2396
當年	-11.2396
安縣	-11.2396
乆之	-11.2397
不存	-11.2397
博訪	-11.2399
無狀	-11.24
乃能	-11.24
頃刻	-11.2401
灼然	-11.2402
威靈	-11.2402
給由	-11.2403
身故	-11.2405
刑措	-11.2407
搶去	-11.2407
干犯	-11.2407
興利	-11.2408
致理	-11.2408
妥議	-11.2409
南海	-11.241
又查得	-11.241
仁政	-11.2412
之境	-11.2413
築城	-11.2413
富國	-11.2414
顧忌	-11.2415
不厭	-11.2416
五路	-11.2416
我皇考	-11.2417
昌言	-11.2418
一日之	-11.2418
查奏	-11.242
量給	-11.2423
者誠	-11.2423
分遣	-11.2423
於君	-11.2424
語曰	-11.243
治世	-11.243
録用	-11.2432
俾之	-11.2433
深悉	-11.2434
將備	-11.2435
折衝	-11.2436
接連	-11.2436
命之	-11.2439
二百四十	-11.2442
納之	-11.2443
未必能	-11.2444
而我	-11.2444
起復	-11.2445
荆公	-11.2447
已過	-11.2449
冀其	-11.2449
經年	-11.2452
土目	-11.2453
義倉	-11.2453
譲	-11.2453
下無	-11.2454
青州	-11.2454
費金吾	-11.2455
昌平	-11.2455
雨水調勻	-11.2455
鄂彌達	-11.2457
坍塌	-11.2457
粥	-11.2457
而况	-11.2458
䧏	-11.2458
在天之靈	-11.2461
事必	-11.2462
董仲舒	-11.2466
糶賣	-11.2467
擊之	-11.2467
平涼	-11.2467
書役	-11.2469
甲辰	-11.2469
未聞有	-11.2469
十九年	-11.2469
之警	-11.247
西夏	-11.247
京營	-11.247
宜有	-11.2475
保守	-11.2475
捧到	-11.2476
萬㡬	-11.2477
出扵	-11.2478
舊日	-11.2479
扶持	-11.2479
遵即	-11.248
限期	-11.248
國是	-11.2482
興國	-11.2482
凡人	-11.2483
嫌疑	-11.2484
驅逐	-11.2484
可致	-11.2485
冗食	-11.2486
警懼	-11.2488
到省	-11.249
端方	-11.2491
切齒	-11.2492
廂軍	-11.2492
兼顧	-11.2494
是宜	-11.2494
一十	-11.2495
以私	-11.2495
雜糧	-11.2495
昔人	-11.2498
二千餘	-11.2501
年終	-11.2502
上負	-11.2506
於公	-11.2507
無二	-11.2508
聖體	-11.2508
准兵部咨	-11.2509
昔之	-11.2509
之馬	-11.2509
還項	-11.2509
庶民	-11.2517
素著	-11.2519
抃	-11.2519
河口	-11.252
令伊	-11.2522
錠	-11.2523
攔	-11.2523
瘦	-11.2523
欽定四庫全書世宗憲皇帝上諭内閣卷	-11.2524
湮	-11.2525
抵任	-11.2525
窄	-11.2526
達於	-11.2527
寛裕	-11.2527
交趾	-11.2528
荀	-11.2528
也同日又奏為	-11.2528
缺額	-11.2528
庸人	-11.2529
既成	-11.2529
趂	-11.2529
咨覆	-11.253
愽	-11.2531
非為	-11.2531
雲貴總督	-11.2531
奏行	-11.2532
饌	-11.2532
歡欣	-11.2532
者實	-11.2533
過河	-11.2533
字様	-11.2533
甚盛	-11.2534
令有司	-11.2535
譴告	-11.2537
唯有	-11.2539
格天	-11.254
動衆	-11.2541
甄别	-11.2542
百辟	-11.2544
必在	-11.2544
九月内	-11.2545
中途	-11.2547
萬貫	-11.2549
一失	-11.255
未能盡	-11.255
之交	-11.2551
以獻	-11.2552
之厚	-11.2553
田野	-11.2553
具文	-11.2554
親加	-11.2559
允協	-11.2559
之怒	-11.2559
城外	-11.256
巳有	-11.256
不敢復	-11.2564
一代	-11.2564
務求	-11.2565
必湏	-11.2565
所進	-11.2565
河南山東	-11.2566
死生	-11.2566
留之	-11.2568
文理	-11.2569
竊觀	-11.2571
七十餘	-11.2574
崇明	-11.2574
去者	-11.2578
預防	-11.2579
鄉兵	-11.258
隄備	-11.258
常賦	-11.2581
考成	-11.2582
使用	-11.2583
下有	-11.2587
誠非	-11.2589
廢置	-11.2591
先因	-11.2593
模	-11.2594
水土	-11.2594
之遺	-11.2595
修建	-11.2595
隨宜	-11.2595
開府儀同三司	-11.2597
任重	-11.2597
攤	-11.2599
紛擾	-11.26
都指揮僉事	-11.2601
感應	-11.2601
恭呈御覽	-11.2601
失望	-11.2602
召公	-11.2602
鋤	-11.2602
封建	-11.2603
試以	-11.2604
陛下誠能	-11.2604
與敵	-11.2605
將有	-11.2605
居心行事	-11.2606
成周	-11.2606
鈐	-11.2606
教誨	-11.2608
法以	-11.261
又慮	-11.261
此處	-11.261
伎	-11.2611
灾傷	-11.2612
細事	-11.2613
存者	-11.2613
效尤	-11.2614
寘之	-11.2616
轉徙	-11.2617
聖化	-11.2618
騎操	-11.2621
倒失	-11.2621
勸導	-11.2621
者猶	-11.2622
法律	-11.2624
明晰	-11.2628
之賞	-11.2628
若陛下	-11.2629
盖有	-11.2629
狂愚	-11.263
規禮	-11.2635
不欺	-11.2636
冒濫	-11.2638
交相	-11.2638
考功	-11.264
實授	-11.2641
解體	-11.2648
凡在	-11.2649
仰遵	-11.2651
原為	-11.2652
當與	-11.2655
親賢	-11.2655
家莊	-11.2657
觀察使	-11.2657
權貴	-11.2658
臣愚以謂	-11.2658
以公	-11.2659
相當	-11.2659
之表	-11.2662
出沒	-11.2662
幇	-11.2663
而益	-11.2664
崇尚	-11.2664
無術	-11.2664
特降指揮	-11.2664
監司郡守	-11.2665
并令	-11.2665
照前	-11.2668
亦欲	-11.2669
畏之	-11.267
之隙	-11.267
闘	-11.2671
乃得	-11.2671
營㕘將	-11.2673
咸謂	-11.2673
湛	-11.2674
澗	-11.2674
六月内	-11.2675
犯人	-11.2675
特行	-11.2675
趙𢎞恩	-11.2676
不支	-11.2676
枷號	-11.2677
配享	-11.2678
情狀	-11.2678
以答	-11.2678
以治	-11.2678
㝎	-11.2678
人畜	-11.2678
前議	-11.2678
驚擾	-11.2679
壕	-11.268
應徵	-11.268
狼狽	-11.268
各部	-11.2682
揭報	-11.2682
畏憚	-11.2682
不朽	-11.2682
良吏	-11.2683
近於	-11.2687
設兵	-11.2687
恐難	-11.2688
又准	-11.2689
謂朝廷	-11.269
藏之	-11.269
前年	-11.2691
尚恐	-11.2693
故為	-11.2695
輔佐	-11.2696
天下有	-11.2698
不除	-11.27
加一	-11.27
之孝	-11.27
也雖然	-11.2701
姦雄	-11.2704
開濬	-11.2706
不巳	-11.2706
庶事	-11.2708
本營	-11.2709
何等	-11.2709
可通	-11.271
條制	-11.2711
餘剰	-11.2711
禾稼	-11.2712
范鎮	-11.2712
伏乞陛下	-11.2712
泗州	-11.2713
之休	-11.2714
役使	-11.2716
務本	-11.2717
城門	-11.2718
外尚有	-11.2722
天災	-11.2723
為我	-11.2724
朕諭	-11.2725
向後	-11.2729
入仕	-11.273
每見	-11.2731
僅有	-11.2732
年五月	-11.2732
者葢	-11.2732
刑部尚書	-11.2734
較前	-11.2736
主於	-11.2737
開復	-11.274
具摺奏明	-11.274
元江	-11.2741
開坐	-11.2742
一帯	-11.2742
救弊	-11.2742
邉防	-11.2743
宣宗	-11.2743
踏	-11.2744
瞽	-11.2745
必謂	-11.2745
滋擾	-11.2746
之願	-11.2747
遙	-11.2747
次之	-11.2748
丙	-11.2749
尤多	-11.2749
知此	-11.2749
孺	-11.2749
伊都立	-11.2751
筠	-11.2751
無疆之休	-11.2751
公文	-11.2752
孟浪	-11.2753
痛自	-11.2753
羈	-11.2754
饑寒	-11.2758
二項	-11.2758
近又	-11.2761
踰年	-11.2761
人品	-11.2762
非才	-11.2762
各以	-11.2763
歐陽修	-11.2765
招討	-11.2765
倘或	-11.2766
北人	-11.2767
題稱	-11.2768
糾㕘	-11.2769
痛心	-11.277
成康	-11.2779
寸不等	-11.2781
國有	-11.2781
打死	-11.2782
重臣	-11.2784
有違	-11.2784
王恕	-11.2784
患在	-11.2784
自處	-11.2784
就彼	-11.2785
為功	-11.2787
盡知	-11.2791
飛檄	-11.2791
咨㑹	-11.2793
八月内	-11.2794
典史	-11.2794
備細	-11.2795
悉知	-11.2796
也方今	-11.2796
即欲	-11.2798
海外	-11.2802
時價	-11.2802
殿前	-11.2803
粒	-11.2804
營造	-11.2805
工役	-11.2806
所望	-11.2807
守候	-11.2807
不可緩	-11.2808
和親	-11.2809
行取	-11.2809
以冀	-11.2814
來歸	-11.2815
日漸	-11.2815
欽遵在案	-11.2817
張耀祖	-11.2819
上等	-11.2819
擡	-11.2819
禎	-11.2821
瘡痍	-11.2823
脈	-11.2824
叵測	-11.2825
不納	-11.2825
剗	-11.2825
藍	-11.2825
㑹試	-11.2825
善為	-11.2826
喀	-11.2827
漫溢	-11.2827
未成	-11.2828
絃	-11.2829
同日又奏為奏聞事竊照	-11.283
𣣔	-11.283
安西	-11.2831
逵	-11.2831
媿	-11.2833
天下之望	-11.2835
倉廩	-11.2836
之耳目	-11.2837
棍徒	-11.2839
的確	-11.2839
持之	-11.2839
憫惻	-11.2842
仰見皇上	-11.2845
理合奏聞	-11.2845
科場	-11.2848
定限	-11.2848
該地方	-11.2849
上達	-11.2849
矢石	-11.285
接准	-11.285
寢罷	-11.285
河陽	-11.2852
劉向	-11.2852
更生	-11.2853
一司	-11.2854
明君	-11.2857
又上	-11.2857
都監	-11.2858
近代	-11.286
攻城	-11.2862
分賠	-11.2864
招集	-11.2865
數次	-11.2866
王子	-11.2866
不細	-11.2867
去秋	-11.2868
可無	-11.287
變賣	-11.287
罪已	-11.287
冗官	-11.2871
大亂	-11.2875
四月内	-11.2875
不食	-11.2881
不悟	-11.2884
重於	-11.2884
土府	-11.2884
為職	-11.2885
勘明	-11.2887
派出	-11.2887
率同	-11.2888
不可勝數	-11.2889
殷實	-11.2889
漕船	-11.2889
宗祀	-11.289
隨將	-11.289
已多	-11.2891
固難	-11.2891
陳情	-11.2893
坪	-11.2894
之西	-11.2895
凱	-11.2895
朞	-11.2895
燦	-11.2895
則已	-11.2896
專委	-11.2896
民不	-11.2897
賜物	-11.2898
撥運	-11.2898
深可	-11.2899
掊	-11.2899
均有	-11.29
太宗文皇帝	-11.2901
瓜	-11.2901
多難	-11.2902
正心	-11.2904
羲	-11.2904
之意而	-11.2906
七八分	-11.2906
廐	-11.2907
惑衆	-11.2908
銀共	-11.2909
聞有	-11.2909
辨之	-11.291
以絶	-11.2912
此朕	-11.2914
水漲	-11.2915
住牧	-11.2915
行糧	-11.2916
等奏	-11.2917
慶賀	-11.2919
始祖	-11.2919
明㫖	-11.2921
不可一日	-11.2921
一書	-11.2921
誤陛下	-11.2922
軍機	-11.2924
言職	-11.2925
上䟽曰臣聞	-11.2926
寜夏	-11.2927
重行	-11.2927
予奪	-11.2929
取諸	-11.293
生業	-11.2931
抑配	-11.2932
寧州	-11.2932
已然	-11.2934
後時	-11.2935
所有微	-11.2935
世俗	-11.2938
律令	-11.2938
疑似	-11.2938
頒賜	-11.2941
北流	-11.2942
詹事	-11.2944
丈尺	-11.2944
偶然	-11.2945
銀一千	-11.2946
因見	-11.2946
之南	-11.2949
裁損	-11.2949
盡矣	-11.2949
頭人	-11.2954
降調	-11.2954
愈多	-11.2954
應變	-11.2954
咨送	-11.2956
減等	-11.2956
役法	-11.2956
之繁	-11.2957
利則	-11.296
妄有	-11.296
戒懼	-11.2961
節年	-11.2963
中和	-11.2966
者止	-11.2968
至道	-11.2968
支吾	-11.2968
查豫省	-11.297
皇親	-11.297
軟	-11.297
為辭	-11.2971
察出	-11.2972
營務	-11.2972
株	-11.2973
之敗	-11.2973
河套	-11.2975
徽宗	-11.2976
來朝	-11.2976
戊申	-11.2976
同中書門下平章事	-11.2978
舘	-11.2978
剏	-11.2978
准令	-11.2979
媒	-11.298
惻怛	-11.298
硃批奏摺	-11.2981
妖言	-11.2981
所急	-11.2982
已為	-11.2983
哈密	-11.2985
睿㫖	-11.2986
豈特	-11.2988
深逺	-11.2988
我祖宗	-11.2989
齋戒	-11.299
番人	-11.2991
應如	-11.2994
所産	-11.2996
則不可	-11.2996
而可以	-11.2996
則亦	-11.2998
攻之	-11.2999
經乆	-11.3002
教育	-11.3003
塘汛	-11.3004
曲折	-11.3005
中官	-11.3005
封還	-11.3008
同時	-11.3009
人心之	-11.3009
工部尚書	-11.3011
過舉	-11.3013
下人	-11.3015
二丈	-11.3018
之煩	-11.3018
急則	-11.3019
操備	-11.302
自盡	-11.3021
在民	-11.3021
恩施	-11.3023
二鎮	-11.3025
解交	-11.3025
行者	-11.3026
若其	-11.3026
五城	-11.3028
之廣	-11.3029
先為	-11.3029
二三大臣	-11.303
制禮	-11.3034
充實	-11.3035
依律	-11.3035
安撫使	-11.3037
一聞	-11.3038
恩禮	-11.3038
以消	-11.3039
亦猶	-11.3039
改官	-11.3041
所以致	-11.3043
據實覆奏	-11.3044
相視	-11.3045
唐制	-11.3046
驅之	-11.3047
旗幟	-11.3048
初年	-11.3048
之心也	-11.3048
膏腴	-11.3049
韓良輔	-11.3049
禽獸	-11.3049
克復	-11.3049
村莊	-11.305
其政	-11.305
都布按三司	-11.3051
通共	-11.3051
潭	-11.3052
介甫	-11.3052
務必	-11.3053
范祖禹	-11.3054
狩	-11.3055
長䇿	-11.3055
條列	-11.3057
誰肯	-11.3057
地方有司	-11.3057
将士	-11.3058
参	-11.3058
僕射	-11.3058
愁苦	-11.3058
劾奏	-11.306
受事	-11.306
謀議	-11.306
安有	-11.306
率衆	-11.3064
大禹	-11.3065
借貸	-11.3067
必俟	-11.307
從寛免	-11.307
無禮	-11.3072
分貯	-11.3072
又得	-11.3074
戰而	-11.3075
臣伏聞	-11.3076
事無不	-11.3076
向背	-11.3076
選委	-11.3076
開納	-11.3077
鼓勵	-11.3077
謹題請㫖	-11.3077
完固	-11.3078
沂	-11.308
必需	-11.3082
關防	-11.3082
主將	-11.3084
山谷	-11.3085
奏討	-11.3085
不起	-11.3087
大猷	-11.3087
肅宗	-11.3088
四十餘年	-11.3089
何有	-11.309
寺丞	-11.3091
繫於	-11.3092
無隱	-11.3092
目前之	-11.3094
其過	-11.3094
遺詔	-11.3097
歸附	-11.3098
甚逺	-11.3098
明帝	-11.3099
縱容	-11.3099
孝思	-11.31
興作	-11.3101
者未必	-11.3102
按月	-11.3102
傾心	-11.3106
陛下有	-11.3107
里民	-11.3108
之賦	-11.3108
哉陛下	-11.3109
而生	-11.3109
之名而	-11.3112
聖謨	-11.3116
起而	-11.3116
追究	-11.3117
邊人	-11.3118
以儆	-11.3119
伏望聖慈特	-11.3119
君臨	-11.3119
奏章	-11.312
恂	-11.3121
婁	-11.3123
文維	-11.3123
蔓	-11.3124
如初	-11.3124
爵位	-11.3126
不恱	-11.3127
疚	-11.3127
内務府	-11.3127
長江	-11.3127
泰山	-11.3128
叅知政事	-11.3129
欣然	-11.3131
參知政事	-11.3131
廸	-11.3131
常在	-11.3131
以立	-11.3133
抑勒	-11.3134
所任	-11.3134
所辦	-11.3134
倪	-11.3135
咨商	-11.3136
壅塞	-11.3136
傅泰	-11.3137
簡易	-11.3137
移咨到	-11.3137
紂	-11.3138
地處	-11.3139
等議	-11.314
于兹	-11.3142
在工	-11.3145
上𦂳	-11.3148
至於此	-11.3148
一見	-11.3149
得賢	-11.315
山陽	-11.315
不限	-11.315
此語	-11.315
廣平	-11.3151
采納	-11.3156
何憂	-11.3156
用賢	-11.3157
民皆	-11.3157
一至於此	-11.3157
等省	-11.3157
緝獲	-11.3159
批行	-11.316
榖石	-11.3162
最多	-11.3165
哉然	-11.3168
僅存	-11.3168
借此	-11.3171
河中	-11.3172
子之	-11.3172
按伏	-11.3172
提刑	-11.3175
又該	-11.3175
部内	-11.3175
刑法	-11.3177
發帑	-11.3177
亦足	-11.3178
復舊	-11.3178
睢	-11.3179
収成	-11.3181
歸之	-11.3181
吾君	-11.3181
進則	-11.3181
浮言	-11.3182
膏血	-11.3183
㑹計	-11.3187
大宗	-11.3187
莅	-11.3187
永保	-11.3187
方平	-11.3187
逾格	-11.3188
何由而	-11.3189
勞民	-11.319
深厚	-11.3192
權要	-11.3196
四凶	-11.3197
大盜	-11.3199
先皇帝	-11.32
覿	-11.32
仰慰聖懐	-11.3201
者尚	-11.3201
沔	-11.3201
陳世倕	-11.3203
廻	-11.3204
若更	-11.3205
劣蹟	-11.3207
而望	-11.3207
荼毒	-11.3208
立廟	-11.3208
驩	-11.3208
則不能	-11.3208
鯀	-11.3208
汶	-11.3209
貞元	-11.3209
該本部題	-11.321
兵備副使	-11.321
瓚	-11.321
陛下即位以來	-11.321
太上皇帝	-11.3211
一十八	-11.3211
茹	-11.3212
斜	-11.3213
具見	-11.3213
驚駭	-11.3213
十月内	-11.3214
巡查	-11.3215
不勞	-11.3215
朕皆	-11.3216
順天府	-11.3216
之靈	-11.3216
同日又奏為奏聞事竊查	-11.3216
而勿	-11.3217
之犯	-11.3218
以道	-11.3219
斬獲	-11.3219
不可勝計	-11.3219
正典刑	-11.3222
毫不	-11.3223
再造	-11.3225
水脚	-11.3225
允行	-11.3225
修撰	-11.3226
學之	-11.3226
恣行	-11.3229
以興	-11.3229
攻守	-11.3232
陛下之心	-11.3232
軍威	-11.3232
所餘	-11.3234
魏徵	-11.3235
上尊號	-11.3236
三十五	-11.3236
湯武	-11.3237
盛世	-11.3237
冊籍	-11.3237
又况	-11.3238
今兹	-11.3238
逐年	-11.3243
則我	-11.3243
之歎	-11.3245
籍籍	-11.3245
驗之	-11.3246
一萬二千	-11.3253
厪	-11.3255
謹奏為恭謝天恩事	-11.3257
哉故	-11.3257
陞賞	-11.3259
行陣	-11.326
乞勑	-11.3261
慎擇	-11.3262
不習	-11.3263
若因	-11.3264
輓	-11.3264
或令	-11.3267
自京	-11.3268
一千名	-11.327
一味	-11.3273
二月内	-11.3274
張大	-11.3274
大則	-11.3276
即此	-11.3276
而去之	-11.3276
舉朝	-11.3277
如是而	-11.3278
非無	-11.3278
陞科	-11.3278
主者施行	-11.3279
數年之後	-11.3279
應有	-11.328
熹	-11.3282
困弊	-11.3282
不懼	-11.3283
累世	-11.3283
劑	-11.3284
臨御以來	-11.3285
兢	-11.3285
譁	-11.3285
舊人	-11.3286
狠	-11.3286
牖	-11.3286
精擇	-11.3286
慾	-11.3287
逃竄	-11.3287
行義	-11.3288
切勿	-11.3288
姧	-11.3289
皆欲	-11.3292
釘	-11.3292
木植	-11.3292
實心辦事	-11.3293
初政	-11.3293
技勇	-11.3293
奏請定奪	-11.3294
計日	-11.3295
合無今後	-11.3295
不符	-11.3296
嘉祥	-11.3298
宜從	-11.3298
焉夫	-11.3298
從来	-11.3298
皇上硃批	-11.3299
深自	-11.3299
寳元	-11.33
取勝	-11.33
為率	-11.3301
伏汛	-11.3302
百神	-11.3302
姿	-11.3305
天討	-11.3307
可省	-11.3308
大勢	-11.3308
逢迎	-11.3309
自足	-11.3309
乞要	-11.3312
城中	-11.3314
改設	-11.3315
繼述	-11.3315
奏聞謹奏	-11.3316
扵民	-11.3319
發明	-11.332
舉天下	-11.3322
隋唐	-11.3322
長發	-11.3324
孝文	-11.3324
等五	-11.3324
簡任	-11.3326
本心	-11.3329
防護	-11.3329
如法	-11.333
人丁	-11.3332
其中有	-11.3334
合詞	-11.3335
者即行	-11.3338
兵糧	-11.3342
井田	-11.3343
緡錢	-11.3348
臣愚欲望聖慈	-11.335
亦止	-11.3351
留任	-11.3352
蕩然	-11.3353
不䏻	-11.3354
其業	-11.3355
折價	-11.3355
歩兵	-11.3357
則宜	-11.3357
俱行	-11.3358
二帝	-11.3359
亥	-11.3359
彼地	-11.336
祉	-11.336
輳	-11.336
遐邇	-11.3362
棺	-11.3362
聲言	-11.3363
四錢	-11.3363
不得過	-11.3364
理合一併	-11.3365
無已	-11.3365
黥	-11.3366
㤀	-11.3366
諒祚	-11.3367
絶無	-11.3367
縝	-11.3367
皇祖	-11.3368
其徳	-11.3368
中道	-11.3368
寛縱	-11.3369
龎	-11.3369
近事	-11.3371
駕馭	-11.3371
兼之	-11.3371
囹圄	-11.3373
許以	-11.3373
諫官御史	-11.3373
惶懼	-11.3375
興舉	-11.3375
宗正	-11.3375
六軍	-11.3376
明徳	-11.3376
善於	-11.3377
錢文	-11.3377
賦性	-11.338
不遷	-11.338
則難	-11.338
之候	-11.3381
擁衆	-11.3383
兼領	-11.3384
一十九	-11.3385
出衆	-11.3385
同日又奏竊	-11.3386
禮法	-11.3387
小官	-11.3387
所不容	-11.3388
專任	-11.3389
王莽	-11.3389
所恃	-11.339
振舉	-11.339
于下	-11.3392
遵依	-11.3393
以西	-11.3393
每於	-11.3394
貪殘	-11.3394
宣撫	-11.3395
所重	-11.3397
此項銀兩	-11.3398
大位	-11.3399
豈以	-11.34
五經	-11.3401
其選	-11.3401
是豈	-11.3403
之耳	-11.3405
享國	-11.3407
當經	-11.3407
顔色	-11.3412
貢獻	-11.3412
之半	-11.3414
邕	-11.3415
二三年	-11.3416
有力	-11.3417
之詩	-11.3418
就便	-11.3418
伏聞	-11.3419
將安	-11.342
守宰	-11.3421
客商	-11.3422
方略	-11.3423
上命	-11.3424
附㑹	-11.3425
皇上天恩	-11.3425
斷無	-11.3426
各一員	-11.3428
功績	-11.3428
試看	-11.3428
恭候	-11.3429
具題外	-11.3431
民俗	-11.3431
武夫	-11.3431
毗	-11.3432
正額	-11.3433
以僃	-11.3433
一新	-11.3434
自漢	-11.3434
哥	-11.3435
調撥	-11.3436
卯	-11.3436
大徳	-11.3436
分外	-11.3439
吏治民生	-11.344
新政	-11.3441
牧放	-11.3441
疫	-11.3441
平江	-11.3441
西陲	-11.3441
而食	-11.3442
分作	-11.3442
員數	-11.3442
鎮巡等官	-11.3442
吏胥	-11.3443
摭	-11.3443
地廣	-11.3443
戮力	-11.3443
蹕	-11.3443
感召天和	-11.3444
莫此為甚	-11.3447
君徳	-11.3448
事業	-11.3449
震驚	-11.345
可用者	-11.3453
守道	-11.3454
俱應	-11.3455
凡屬	-11.3456
莫知	-11.3457
並許	-11.3458
練達	-11.346
可考	-11.3462
閏三月	-11.3463
天生	-11.3463
天和	-11.3464
仰懇	-11.3465
本章	-11.3465
下而	-11.3466
照此	-11.3466
乗時	-11.3467
干預	-11.3468
便殿	-11.3469
經綸	-11.3469
又上奏曰臣	-11.3471
應辦	-11.3471
先定	-11.3473
朝廷之意	-11.3475
日甚	-11.3477
鎗礮	-11.3477
官方	-11.3477
在邊	-11.348
無所用	-11.348
廢棄	-11.3481
曲為	-11.3481
禮文	-11.3483
載在	-11.3484
直陳	-11.3485
後悔	-11.3485
事親	-11.3486
三十七	-11.3487
指授	-11.3487
元帥	-11.3488
士論	-11.3488
乎故	-11.3489
該州縣	-11.3491
俯仰	-11.3491
米價每石	-11.3492
部郎中	-11.3492
為己	-11.3496
食之	-11.3496
在朕前	-11.3497
重慶	-11.3499
止可	-11.35
昨者	-11.3503
不念	-11.3506
敬畏	-11.3506
各宜	-11.3507
古昔	-11.3509
愚衷	-11.351
已故	-11.351
出錢	-11.3511
濤	-11.3512
温公	-11.3512
監臨	-11.3513
收糴	-11.3513
戕	-11.3515
後嗣	-11.3517
有素	-11.3518
踪	-11.3518
該管官	-11.3519
泌	-11.3519
弟子	-11.3519
霄	-11.352
亦然	-11.352
其謀	-11.3521
筦	-11.3521
夸	-11.3521
淚	-11.3521
抑亦	-11.3521
一摺奉有硃批	-11.3522
鳩	-11.3522
而重	-11.3522
正項錢糧	-11.3523
赫然	-11.3523
之悔	-11.3523
太甚	-11.3523
墳墓	-11.3523
颺	-11.3523
尚不能	-11.3523
宜先	-11.3524
卻	-11.3525
財貨	-11.3525
刋刻	-11.3525
謟	-11.3525
沙漠	-11.3525
一紙	-11.3525
銃	-11.3525
補外	-11.3526
巖疆	-11.3526
共事	-11.3527
藁	-11.3528
管糧	-11.3529
虛文	-11.353
盍	-11.353
嚴刑	-11.3531
掌印官	-11.3532
亟宜	-11.3532
逺圖	-11.3533
付託	-11.3534
論語	-11.3535
不虚	-11.3536
亦合	-11.3537
邉臣	-11.3537
其姦	-11.3538
而有司	-11.3539
驚疑	-11.3539
匪𩔖	-11.354
明道	-11.354
辦公	-11.354
修復	-11.3541
大為	-11.3542
貧富	-11.3543
弁員	-11.3544
衝要	-11.3545
言之則	-11.3545
貴於	-11.3547
之域	-11.3547
專管	-11.3547
以肅	-11.3547
黄門	-11.3548
被賊	-11.3548
南澳	-11.3551
漢官	-11.3551
戰國	-11.3552
皇上之	-11.3552
知識	-11.3552
原其	-11.3553
哨探	-11.3553
亦云	-11.3554
敢以	-11.3554
有司之	-11.3555
大辟	-11.3555
一邑	-11.3556
報銷	-11.3557
近在	-11.356
訪查	-11.3561
支河	-11.3563
每一	-11.3565
人自	-11.3565
何以言之	-11.3568
未已	-11.3569
之刑	-11.3569
未然	-11.3571
及查	-11.3573
眚	-11.3573
稍遲	-11.3574
批示遵行謹奏	-11.3574
事本年	-11.3574
青海	-11.3574
徳州	-11.3575
取用	-11.3575
歸結	-11.3578
市恩	-11.3578
王柔	-11.3578
條約	-11.3579
堂上	-11.3579
斬首	-11.358
養育	-11.3581
成全	-11.3582
以待之	-11.3583
短長	-11.3584
富庶	-11.3585
外患	-11.3585
之勇	-11.3586
庸材	-11.3586
即應	-11.3587
宣仁	-11.3587
所造	-11.3587
之時也	-11.3587
朕即	-11.3589
大将軍	-11.359
聽從	-11.359
一疋	-11.359
師古	-11.3592
彝	-11.3593
兵一千名	-11.3593
聖天子	-11.3593
馬步	-11.3595
百出	-11.3596
常徳	-11.3597
貝	-11.3597
踞	-11.3597
亦可謂	-11.3599
嘉定	-11.3599
管河	-11.3599
人神	-11.36
豢養	-11.3601
袍	-11.3601
叟	-11.3603
菲	-11.3603
准吏部咨	-11.3603
臂指	-11.3604
加勉	-11.3605
弓矢	-11.3605
堯佐	-11.3605
我們	-11.3605
歲月	-11.3606
遽行	-11.3606
之甚者	-11.3606
隘口	-11.3607
通查	-11.3607
庠序	-11.3607
以為然	-11.3607
三十三	-11.3608
鑽營	-11.3609
也若夫	-11.3609
䝉俞允	-11.3609
於國家	-11.361
甚厚	-11.361
張廷	-11.3612
舉事	-11.3613
四門	-11.3614
實多	-11.3616
收過	-11.3617
不擾	-11.3617
永無	-11.3617
該衙門知道	-11.3618
物情	-11.3619
一百餘	-11.362
貪利	-11.3621
空閒	-11.3622
私鑄	-11.3623
之報	-11.3624
幽州	-11.3626
陛下亦	-11.3628
男子	-11.3628
下悃	-11.3628
也朝廷	-11.3629
聴其	-11.3632
精銳	-11.3634
歴練	-11.3634
受賄	-11.3637
變價	-11.3638
擇日	-11.3638
臺諫官	-11.364
斯為	-11.3641
餘皆	-11.3646
他事	-11.365
謹遵	-11.3653
各府州	-11.3655
不辭	-11.3657
免致	-11.3657
韓信	-11.3657
城下	-11.3657
無以自	-11.3659
百餘萬	-11.3662
夷簡	-11.3662
邇來	-11.3663
師傅	-11.3663
年少	-11.3663
扣除	-11.3664
確議	-11.3666
茍安	-11.3667
知也	-11.3667
一貫	-11.3668
風俗之	-11.3668
南安	-11.3668
良由	-11.3669
方纔	-11.367
在所	-11.367
離散	-11.3671
之器	-11.3675
名糧	-11.3676
難逃	-11.3676
均沾	-11.3677
勤求	-11.3678
璉	-11.3678
塌	-11.3679
玠	-11.3681
功過	-11.3683
茍免	-11.3684
爪	-11.3685
古帝王	-11.3685
合併	-11.3686
栽插	-11.3686
榆林	-11.3686
洞鑒	-11.3687
豺狼	-11.3688
輪班	-11.3688
勅諭	-11.3688
價値	-11.3689
有所見	-11.369
伏乞聖明	-11.3691
其終	-11.3691
守邊	-11.3692
縁此	-11.3694
隨行	-11.3694
百姓之	-11.3695
輓運	-11.3698
入土	-11.3699
何憚	-11.37
度牒	-11.3701
者一也	-11.3706
前據	-11.3706
不決	-11.3706
乞令	-11.3707
協助	-11.3709
非若	-11.3711
何獨	-11.3711
榖價	-11.3713
不完	-11.3713
所未有	-11.3713
變法	-11.3713
兹於	-11.3715
一十六	-11.3716
庚戌	-11.3717
欽賜	-11.3718
至愚	-11.3719
安寧	-11.372
給還	-11.3721
固結	-11.3721
瞻仰	-11.3724
也是故	-11.3727
事變	-11.3729
鹽價	-11.3731
復命	-11.3732
汀	-11.3732
其善	-11.3733
亦照	-11.3733
何用	-11.3733
押解	-11.3735
茶鹽	-11.3735
之運	-11.3735
旗員	-11.3736
而南	-11.3739
王業	-11.374
採納	-11.374
官守	-11.374
事據	-11.3741
納糧	-11.3741
必用	-11.3742
亦由	-11.3744
民也	-11.3744
統制	-11.3745
七月内	-11.3746
凜	-11.3746
未必皆	-11.3746
一百一十	-11.3746
修治	-11.3749
各衛	-11.3749
之服	-11.375
守巡	-11.3751
通曉	-11.3751
回署	-11.3755
民怨	-11.3756
其忠	-11.3756
剩	-11.3757
之以為	-11.3757
以為不然	-11.3757
中心	-11.3758
亦不為	-11.3759
太重	-11.376
琪	-11.3763
信其	-11.3763
背公	-11.3764
蠱	-11.3765
綵	-11.3765
氓	-11.3765
務於	-11.3765
秦之	-11.3766
峽	-11.3766
冐昧	-11.3766
槽	-11.3766
騷動	-11.3766
晷	-11.3766
耽	-11.3767
再四思維	-11.3767
壑	-11.3767
日多	-11.3767
宫觀	-11.3769
詿誤	-11.377
常以	-11.377
止以	-11.3771
恭摺	-11.3771
悉心籌畫	-11.3771
退縮	-11.3771
峙	-11.3774
哀矜	-11.3774
束手	-11.3774
吏部知道	-11.3774
冗費	-11.3776
臺閣	-11.3776
仰見	-11.3776
聖聰	-11.3776
等因到臣	-11.3779
兵甲	-11.378
騾頭	-11.378
申奏	-11.3781
功利	-11.3782
有虧	-11.3782
加之以	-11.3783
驍勇	-11.3783
永言	-11.3783
陜省	-11.3784
諭大學士等	-11.3788
悚惶	-11.3789
收其	-11.3793
帶徵	-11.3794
去後今	-11.3794
務農	-11.3795
紊亂	-11.3796
厚賞	-11.3796
獻替	-11.3797
女子	-11.3798
同日又奏為恭報	-11.38
司道府	-11.3802
敕諭	-11.3802
不豫	-11.3803
偏執	-11.3803
從古	-11.3804
昵	-11.3807
聖母	-11.3807
呈請	-11.3811
之効	-11.3811
與天	-11.3811
州牧	-11.3812
自持	-11.3812
著九卿	-11.3812
免罪	-11.3813
養成	-11.3814
不足則	-11.3815
止許	-11.3816
要路	-11.3816
其端	-11.3817
推原	-11.3819
今次	-11.3819
其效	-11.3821
大旱	-11.3821
化之	-11.3821
何嘗	-11.3822
痊	-11.3822
無法	-11.3823
邉患	-11.3823
罪狀	-11.3824
勞逸	-11.3825
孝敬	-11.3826
中書省	-11.3829
兵部侍郎	-11.383
難測	-11.3831
以作	-11.3832
亦且	-11.3832
誠宜	-11.3833
累及	-11.3837
瀝	-11.3837
結案	-11.3837
精誠	-11.3839
鑲	-11.3843
証	-11.3843
薊州	-11.3844
驢	-11.3844
之不暇	-11.3845
公帑	-11.3845
豹	-11.3845
輕舉	-11.3846
仔	-11.3846
是其	-11.3847
既稱	-11.3847
踐阼	-11.3848
衙役	-11.3848
戊午	-11.3849
更有請者	-11.3849
有名無實	-11.385
太公	-11.3851
進對	-11.3851
䑕	-11.3852
婉	-11.3853
恭摺奏聞	-11.3853
京口	-11.3853
羽翼	-11.3854
燔	-11.3854
陛下所以	-11.3854
枝葉	-11.3854
夫豈	-11.3856
勝於	-11.3858
二子	-11.3859
制科	-11.386
三十二	-11.3861
倉場	-11.3862
一開	-11.3862
之忱	-11.3865
令地方官	-11.3866
不可使	-11.3867
人或	-11.3868
保送	-11.387
明春	-11.3871
所有奉到	-11.3872
餘鹽	-11.3874
不好	-11.3874
選將	-11.3875
官為	-11.3875
買賣	-11.3875
滿兵	-11.3875
敬之	-11.3875
來説	-11.3876
空文	-11.3878
危險	-11.3879
曰昔	-11.388
深惟	-11.388
貯庫	-11.3881
出此	-11.3881
河南廵撫	-11.3882
蕭何	-11.3882
𢎞治十八年	-11.3883
被人	-11.3886
文具	-11.3886
於三月	-11.3886
所以能	-11.3887
齎摺家人回	-11.389
道途	-11.389
在城	-11.389
奉先	-11.3892
也臣竊	-11.3892
誠可	-11.3894
殆非	-11.3896
所不免	-11.3896
固亦	-11.3896
南山	-11.3897
遷移	-11.3897
亦未嘗	-11.3898
生苖	-11.3898
以紓	-11.3899
㝠	-11.3899
為能	-11.3899
奸人	-11.39
論思	-11.3901
授官	-11.3901
以避	-11.3901
但聞	-11.3904
不能自已	-11.3904
為亂	-11.3906
六七分	-11.3907
底定	-11.391
風紀	-11.3911
府事	-11.3914
一起	-11.3914
若仍	-11.3915
萬務	-11.3915
權衡	-11.3915
中止	-11.3917
仰祈睿鑒事	-11.3918
又從而	-11.3918
罪名	-11.3923
瓘	-11.3925
而彼	-11.3925
歿	-11.3925
虛實	-11.3925
廊	-11.3926
十有二	-11.3926
假令	-11.3926
悚惕	-11.3928
風土	-11.3928
几	-11.3928
甦	-11.3929
頤	-11.3929
鎻	-11.393
丘濬	-11.393
繁簡	-11.393
數千人	-11.393
既非	-11.3931
繼以	-11.3931
鞠	-11.3931
褊	-11.3932
夭	-11.3932
瘴	-11.3933
㐮	-11.3933
准部咨	-11.3933
衝突	-11.3934
㝷	-11.3934
愜	-11.3935
斬獲首級	-11.3936
禮部侍郎	-11.3937
細務	-11.3938
膏澤	-11.3938
也惟陛下	-11.3939
倉猝	-11.394
衆人之	-11.394
違禁	-11.394
管軍	-11.3941
將校	-11.3942
公著	-11.3942
孰若	-11.3943
重事	-11.3944
欲將	-11.3945
欲用	-11.3945
藩邸	-11.3948
講究	-11.3949
日増	-11.3949
曰君	-11.3952
資其	-11.3955
謹奏為遵㫖	-11.3957
天錫	-11.3958
俱可	-11.3958
靡寧	-11.3959
接管	-11.3959
王化	-11.396
思維	-11.396
無甚	-11.3962
仁恩	-11.3962
慶雲	-11.3963
加増	-11.3965
中宫	-11.3966
盡歸	-11.3966
鹽商	-11.3967
玩好	-11.3969
稽之	-11.397
充裕	-11.397
所云	-11.397
其流	-11.3971
銀一十	-11.3971
河州	-11.3973
於官	-11.3974
五府	-11.3975
議之	-11.3975
仍以	-11.3975
猶以	-11.3976
飛報	-11.3977
又在	-11.3978
既知	-11.3979
邊民	-11.398
擄	-11.3982
廵按	-11.3982
門生	-11.3983
不講	-11.3983
百金	-11.3983
州屬	-11.3983
奏曰臣聞	-11.3986
皆屬	-11.3987
厯代	-11.3988
追補	-11.3989
五十年	-11.3991
一戰	-11.3992
無聞	-11.3992
或未	-11.3992
馬兵	-11.3995
勅下	-11.3996
接見	-11.3997
邊兵	-11.3998
於十一月	-11.4
大雪	-11.4001
委靡	-11.4002
姦徒	-11.4004
變化	-11.4004
眷佑	-11.4005
民庶	-11.4006
盖欲	-11.4007
此陛下	-11.4009
一勞永逸	-11.401
恭繳硃批	-11.4011
錢穀	-11.4011
據署	-11.4011
俶	-11.4012
鼐	-11.4013
者反	-11.4013
宗人府	-11.4013
招徠	-11.4014
泓	-11.4014
墟	-11.4016
雉	-11.4016
八日	-11.4017
襃	-11.4018
寤	-11.4018
歆	-11.4018
楊一清	-11.4018
遷善	-11.4018
絡繹	-11.4018
常事	-11.402
鏤	-11.4021
承審	-11.4021
消長	-11.4022
可立	-11.4023
大信	-11.4025
鞏固	-11.4026
明白回奏	-11.4026
至理	-11.4027
公與	-11.403
工作	-11.4031
威令	-11.4032
之譏	-11.4034
巧詐	-11.4035
不得而	-11.4036
或恐	-11.4038
且使	-11.4038
東都	-11.404
大統	-11.404
銀數	-11.4041
應俟	-11.4041
異論	-11.4041
聖神	-11.4042
有功者	-11.4042
乙未	-11.4042
相隔	-11.4043
未可知	-11.4045
事雖	-11.4047
英雄	-11.4048
一人之	-11.4048
軍儲	-11.4052
去邪	-11.4053
臣待罪	-11.4053
上諭兵部	-11.4053
足食	-11.4055
統計	-11.4055
暫留	-11.4058
勝之	-11.406
凶年	-11.406
作急	-11.406
又嘗	-11.406
它日	-11.406
軍餘	-11.4061
是猶	-11.4062
恐未	-11.4062
文詞	-11.4063
邊城	-11.4065
舜禹	-11.4066
帶往	-11.4067
于外	-11.4067
施為	-11.4072
大壊	-11.4072
君臣之間	-11.4072
總計	-11.4073
追捕	-11.4073
以徳	-11.4076
未滿	-11.4079
何難	-11.408
者不能	-11.4083
大治	-11.4083
羣言	-11.4084
不稱職	-11.4084
㕑役	-11.4084
而受	-11.4084
刺史縣令	-11.4084
安分	-11.4084
該營	-11.4084
開通	-11.4085
咸稱	-11.4088
莫知所	-11.409
出没	-11.409
此之謂也	-11.4091
獲利	-11.4092
一品	-11.4093
之次	-11.4094
㭍	-11.4095
丁未	-11.4095
三十九	-11.4097
冊内	-11.4098
慧	-11.4099
國計民生	-11.4099
松潘	-11.41
賁	-11.41
伏祈皇上	-11.41
刑政	-11.41
滕	-11.41
谿	-11.4101
含糊	-11.4101
虹	-11.4101
瘳	-11.4102
情事	-11.4102
殯	-11.4103
禁之	-11.4103
太常博士	-11.4103
藏於	-11.4103
窒	-11.4104
誹謗	-11.4104
人必	-11.4105
宇宙	-11.4106
桀紂	-11.4106
懈弛	-11.4107
仰惟皇上	-11.4107
所以待	-11.4108
停其	-11.4108
戰士	-11.4109
汛防	-11.4109
以代	-11.4113
十萬兩	-11.4114
者往往	-11.4114
三千餘	-11.4115
乃係	-11.4116
以為是	-11.4116
封樁	-11.4117
竄逐	-11.4117
皆已	-11.4118
所學	-11.4118
建官	-11.4118
清釐	-11.412
古今之	-11.412
軍裝	-11.4121
侵占	-11.4122
文徳	-11.4123
加罪	-11.4124
一百九十	-11.4125
善言	-11.4128
有時而	-11.413
協辦	-11.4132
元首	-11.4132
其末	-11.4132
淺深	-11.4134
三法司	-11.4136
禮曰	-11.4137
比於	-11.4137
乘機	-11.4137
所奏知道了	-11.4139
梧	-11.4139
訊據	-11.414
木石	-11.414
亂政	-11.414
隄岸	-11.4141
非朝廷	-11.4142
團營	-11.4142
厚利	-11.4144
那端	-11.4144
輙敢	-11.4144
事主	-11.4144
神祗	-11.4145
親丁	-11.4145
晰	-11.4146
縣民	-11.4146
此特	-11.4146
後又	-11.4146
或云	-11.4148
儒生	-11.4149
别省	-11.4149
以兵	-11.4149
統俟	-11.415
好問	-11.4153
令人	-11.4153
戎人	-11.4154
於萬一耳	-11.4154
鎮巡官	-11.4155
一代之	-11.4155
李綱	-11.4156
班行	-11.4156
土著	-11.4157
天文	-11.4158
艘	-11.416
物論	-11.4162
惟務	-11.4163
廷議	-11.4165
一子	-11.4165
天順	-11.4165
名位	-11.4166
若曰	-11.4167
有疾	-11.4169
思欲	-11.4173
拖	-11.4173
胸	-11.4174
樂從	-11.4174
不可不察	-11.4175
蒙聖恩	-11.4176
章獻	-11.4178
下有司	-11.4178
琰	-11.4179
䭾	-11.4179
皆稱	-11.418
切直	-11.4181
寛恤	-11.4182
南路	-11.4182
擿	-11.4183
燎	-11.4183
月令	-11.4184
烽	-11.4184
容臣	-11.4185
團練	-11.4185
精詳	-11.4186
多被	-11.4186
成造	-11.4187
囤	-11.4187
椿	-11.4187
不赦	-11.4188
堵塞	-11.4188
浮議	-11.4189
組	-11.419
内附	-11.4191
陛下之意	-11.4191
糾劾	-11.4192
取辦	-11.4192
貝子	-11.4192
逄	-11.4192
逋負	-11.4193
器皿	-11.4194
之不足	-11.4198
嵗入	-11.4199
之怨	-11.42
靖逆	-11.4201
不勞而	-11.4201
甲申	-11.4202
觀聽	-11.4203
勤惰	-11.4203
麥苗	-11.4204
俯從	-11.4204
改調	-11.4204
匪輕	-11.4205
兩府大臣	-11.4206
念其	-11.4206
降級	-11.4207
荆南	-11.4208
以謝	-11.4208
徒費	-11.4209
頂補	-11.421
頓首	-11.421
即位之初	-11.421
所敢	-11.421
江左	-11.421
乗此	-11.4211
公輔	-11.4211
黜之	-11.4211
謹奏為奏聞事竊查	-11.4214
勸課	-11.4218
前王	-11.4218
無識	-11.4219
教以	-11.422
於未	-11.4221
下户	-11.4221
立志	-11.4225
稷契	-11.4226
矣如	-11.4226
有四	-11.4228
宣大	-11.4231
險工	-11.4232
循例	-11.4233
之所由	-11.4233
奉聖㫖卿	-11.4233
朔望	-11.4235
大綱	-11.4235
每至	-11.4236
也必	-11.4236
制其	-11.4237
多言	-11.4237
理合奏聞謹奏	-11.4238
欲速	-11.4239
而先	-11.424
標營	-11.424
自無	-11.4241
不久	-11.4242
程元章	-11.4242
二臣	-11.4245
愈深	-11.4245
牧養	-11.4246
戰功	-11.4247
四出	-11.4247
生事端	-11.4249
以是為	-11.4251
僖	-11.4252
遷官	-11.4254
豈復	-11.4254
旣而	-11.4256
同日又奏為奏明	-11.4256
能自	-11.4258
之義也	-11.4259
於雍正五年	-11.4262
事上	-11.4262
一生	-11.4263
濯	-11.4266
者莫如	-11.4267
進入	-11.4267
种	-11.4269
人之情	-11.4269
砂	-11.427
其費	-11.427
未允	-11.427
庚辰	-11.427
擘畫	-11.4271
瀚	-11.4272
訂	-11.4272
彪	-11.4272
顓	-11.4272
到案	-11.4273
擲	-11.4273
名號	-11.4274
緬	-11.4275
備邊	-11.4275
雨暘	-11.4275
無益也	-11.4275
毓	-11.4276
量移	-11.4277
淩	-11.4277
刧	-11.4278
驚惶	-11.4278
御極以來	-11.4278
之利害	-11.4279
運到	-11.4279
堵築	-11.428
感泣	-11.428
警惕	-11.428
九廟	-11.4281
而莫之	-11.4282
羈縻	-11.4282
此臣之所	-11.4283
賢人	-11.4283
書云	-11.4283
輕視	-11.4284
吿	-11.4284
議事	-11.4284
山水	-11.4285
清軍	-11.4285
之譽	-11.4286
之圖	-11.4286
過矣	-11.4287
漢魏	-11.4288
示之以	-11.4288
不義	-11.429
商周	-11.4291
筵	-11.4293
竟無	-11.4294
兩便	-11.4298
興兵	-11.4298
革弊	-11.4299
奉聖旨	-11.4299
先有	-11.4299
庫項	-11.43
傳播	-11.43
失實	-11.43
繕摺奏聞謹奏	-11.4301
各邉	-11.4302
者凡	-11.4304
指稱	-11.4305
取於	-11.4305
之病	-11.4308
輸誠	-11.431
銀二萬	-11.4311
所差	-11.4313
貴近	-11.4313
也所謂	-11.4313
三十八	-11.4314
初即位	-11.4317
歴觀	-11.4317
巧為	-11.4318
陞遷	-11.4319
衆皆	-11.4321
頒行	-11.4322
復生	-11.4324
賊兵	-11.4326
吏目	-11.4327
滅亡	-11.4329
議行	-11.433
盜竊	-11.4332
儻有	-11.4334
赦書	-11.4334
裁抑	-11.4335
豈可以	-11.4336
其文	-11.4336
參差	-11.4336
職方	-11.4337
大矣	-11.4338
兵器	-11.4338
亦能	-11.4338
不堅	-11.4338
根株	-11.4338
河南府	-11.4339
縻	-11.4339
之易	-11.434
一千六百	-11.434
畏法	-11.434
不知何	-11.4342
撫標	-11.4343
除去	-11.4343
循理	-11.4344
景帝	-11.4345
則天	-11.4346
五榖	-11.4346
弱者	-11.4346
圖報效	-11.4346
湖南廵撫	-11.4346
劉氏	-11.4347
七十五	-11.4348
納銀	-11.4349
避嫌	-11.4349
江陵	-11.435
之地而	-11.435
亦即	-11.4351
平減	-11.4351
府城	-11.4351
本原	-11.4352
奄有	-11.4352
地方大吏	-11.4353
譴責	-11.4353
之兆	-11.4354
肘腋	-11.4355
並須	-11.4356
相逺	-11.4357
栗	-11.4358
户部侍郎	-11.4358
▁皇上	-11.4358
噬	-11.4359
大清聖祖合天𢎞運文武睿哲恭儉	-11.4359
漳州	-11.4359
等衛	-11.4359
撞	-11.4359
逝	-11.4361
厚禄	-11.4361
譛	-11.4362
青黄不接之時	-11.4362
秧	-11.4362
苞苴	-11.4362
送部引見	-11.4362
鮑	-11.4363
扈從	-11.4363
挨次	-11.4364
勿復	-11.4365
益州	-11.4365
磐石	-11.4365
朱熹	-11.4366
不可也	-11.4367
訓旨	-11.4367
予之	-11.4369
量與	-11.4369
比時	-11.4369
末年	-11.4373
擒捕	-11.4373
一萬五千	-11.4373
凡此皆	-11.4373
曠典	-11.4375
戎馬	-11.4375
者特	-11.4378
一城	-11.438
上䇿	-11.4382
崇徳	-11.4386
饒州	-11.4387
覺悟	-11.4387
官屬	-11.4387
斷然	-11.4388
遇敵	-11.4388
不親	-11.4389
各將	-11.4389
四十萬	-11.4389
卒伍	-11.4392
敵勢	-11.4392
不來	-11.4393
少加	-11.4394
具有	-11.4394
清江	-11.4395
何忍	-11.4397
微臣	-11.4398
沽名	-11.4398
封章	-11.4399
三班	-11.4399
得其要	-11.44
正軍	-11.44
清光	-11.4404
實深	-11.4407
錢粮	-11.4408
恩寵	-11.441
萬乗	-11.4411
既乆	-11.4416
嘗聞	-11.4416
者正	-11.4417
理當	-11.4417
治功	-11.4418
所習	-11.4418
繼之	-11.4419
之根本	-11.4419
諭部	-11.4421
對越	-11.4427
曉然	-11.4428
行軍	-11.4428
先正	-11.4429
之食	-11.443
德宗	-11.4432
今宜	-11.4432
自奮	-11.4432
勤儉	-11.4433
用武	-11.4433
營員	-11.4434
無怨	-11.4435
逐州	-11.4436
擬於	-11.4436
郵	-11.4437
欽此又	-11.4438
乎朕	-11.4438
因地制宜	-11.4439
莫大之	-11.4439
後来	-11.4441
矣臣等	-11.4441
之富	-11.4442
枷	-11.4442
肝	-11.4443
邉備	-11.4443
保民	-11.4444
戚繼光	-11.4444
以圗	-11.4444
儆惕	-11.4444
倒斃	-11.4445
柏	-11.4445
賍	-11.4445
鑰	-11.4445
家業	-11.4446
二十一年	-11.4446
不揣冒昧	-11.4446
失信	-11.4447
桂林	-11.4447
繕寫	-11.4448
澇	-11.4448
遲悞	-11.4448
壬辰	-11.4448
閒暇	-11.4448
中書侍郎	-11.4448
牲畜	-11.4448
規矩	-11.4449
丁亥	-11.4449
九卿詹事科道	-11.445
完補	-11.445
泛溢	-11.445
湍	-11.445
鎮筸	-11.4451
一寸	-11.4451
撒	-11.4451
交阯	-11.4451
奢靡	-11.4451
共該	-11.4453
種馬	-11.4453
如今日	-11.4456
節禮	-11.4456
兵勢	-11.4456
各具	-11.4457
彗星	-11.4457
嵗嵗	-11.4458
兩不等	-11.4459
具瞻	-11.4459
以省	-11.4459
泉州	-11.446
可虞	-11.446
從無	-11.446
之懐	-11.446
奉有硃批	-11.4461
告訐	-11.4461
過宫	-11.4462
亡命	-11.4463
日昃	-11.4463
以至於	-11.4464
降詔書	-11.4465
災害	-11.4466
亦因	-11.4467
不愛	-11.4469
之乆	-11.447
之敵	-11.447
積榖	-11.4471
掃除	-11.4472
不過三	-11.4472
寄信	-11.4473
西鄙	-11.4474
不恭	-11.4475
不力	-11.4476
灼見	-11.4477
所可	-11.4478
者曰	-11.4478
不免於	-11.4479
督撫二臣	-11.4479
阻滯	-11.448
出于	-11.4481
去歲	-11.4482
分明	-11.4482
全賴	-11.4483
正位	-11.4483
一向	-11.4483
實與	-11.4484
保明	-11.4485
仰請	-11.4487
追贈	-11.4487
以厚	-11.4488
之誼	-11.449
民多	-11.449
始初	-11.449
以天下為	-11.4492
出榜	-11.4493
上副	-11.4494
正則	-11.4496
謀國	-11.4497
好官	-11.4497
吏員	-11.4497
千把總	-11.4498
研	-11.45
專為	-11.4501
而失	-11.4502
縣尉	-11.4502
理合奏明	-11.4504
矣惟	-11.4504
家法	-11.4506
官銀	-11.4506
嗣據	-11.4507
太息	-11.4508
亦不必	-11.4509
死力	-11.451
文王之	-11.451
傳㫖	-11.451
未除	-11.4512
清平	-11.4512
救援	-11.4514
天下之財	-11.4514
者也夫	-11.4516
之最	-11.4516
謹将	-11.4517
展限	-11.4519
朕心深為	-11.4519
顧問	-11.452
㢘恥	-11.452
但念	-11.4524
每事	-11.4527
身體	-11.4527
勤加	-11.4528
朦朧	-11.4529
銀一千兩	-11.4529
深通	-11.453
繞	-11.453
纒	-11.453
取進止	-11.4532
療	-11.4532
未諳	-11.4533
存乎	-11.4533
洙	-11.4533
佔	-11.4533
貼黄臣	-11.4534
嬉	-11.4535
庥	-11.4535
尤難	-11.4535
何世璂	-11.4536
聲教	-11.4536
安東	-11.4536
憲徳	-11.4536
濮安懿王	-11.4538
品行	-11.4538
明敏	-11.4539
達賴喇嘛	-11.4539
苐	-11.454
金吾	-11.454
薰	-11.4542
厨	-11.4542
不旋踵	-11.4542
躐	-11.4543
滄	-11.4543
聖澤	-11.4543
者不必	-11.4545
在今日	-11.4545
禘祫	-11.4546
畏縮	-11.4546
庶免	-11.4547
屯戍	-11.4547
外委	-11.4547
不得與	-11.4549
劉摯	-11.4549
間諜	-11.4549
五百名	-11.4549
俸禄	-11.4549
要缺	-11.455
貪贓	-11.455
散官	-11.455
殘缺	-11.4551
孟春	-11.4552
永安	-11.4552
朕欲	-11.4552
淳化	-11.4552
荷蒙	-11.4553
覲天顔	-11.4554
武定	-11.4557
尚無	-11.4558
立朝	-11.4559
幹員	-11.4561
夏至	-11.4562
則例	-11.4563
惑於	-11.4563
恭捧	-11.4566
濟南	-11.4568
然以	-11.4568
諍	-11.4569
適當	-11.457
諮	-11.457
封疆大吏	-11.457
候㫖	-11.457
呈乞	-11.4572
逞其	-11.4573
堅執	-11.4574
確勘	-11.4575
往時	-11.4575
汀州	-11.4576
多在	-11.4576
大公	-11.4577
歸一	-11.4579
著革職	-11.458
無不可	-11.4581
及行	-11.4581
更當	-11.4581
之闕	-11.4583
卿大夫	-11.4583
兼程	-11.4585
舟師	-11.4585
遑	-11.4586
記曰	-11.4587
稱慶	-11.4587
國祚	-11.4587
㸔得	-11.4588
初任	-11.4589
非不知	-11.4589
樂善	-11.4589
戰勝	-11.4593
之鄉	-11.4593
追至	-11.4594
以承	-11.4594
事陛下	-11.4595
釋之	-11.4595
恭謝	-11.4598
而不以	-11.4598
八名	-11.4598
撥補	-11.4598
此三者	-11.4599
今冬	-11.46
理道	-11.46
伏望聖慈特賜	-11.4601
告之	-11.4602
諸科	-11.4602
也伏惟陛下	-11.4603
興亡	-11.4604
必至於	-11.4605
歸正	-11.4606
似非	-11.4607
而人心	-11.4609
多出	-11.4612
盖由	-11.4612
何待	-11.4612
一斗	-11.4613
四事	-11.4615
限内	-11.4615
不是	-11.4616
地方上	-11.4616
事天	-11.4616
常患	-11.4617
能盡	-11.4618
侂胄	-11.4619
黄國材	-11.462
携	-11.4621
書籍	-11.4621
致此	-11.4621
震動	-11.4622
攙	-11.4622
處事	-11.4622
纍纍	-11.4623
皆出於	-11.4623
綰	-11.4624
程如絲	-11.4624
馬一匹	-11.4625
儹	-11.4625
奏言	-11.4625
且恐	-11.4625
妹	-11.4626
堵禦	-11.4627
朱軾	-11.4628
五品以上	-11.4628
舛錯	-11.4628
品級	-11.4629
動經	-11.4629
則大	-11.4629
長蘆	-11.4629
豎	-11.4629
至再至三	-11.463
版圖	-11.4631
米貼	-11.4631
閫外	-11.4631
怯懦	-11.4631
個月	-11.4631
草茅	-11.4632
日月之	-11.4632
日聞	-11.4632
艱於	-11.4632
迂闊	-11.4632
蘇轍	-11.4633
滋蔓	-11.4634
有奇	-11.4634
迤西	-11.4635
三品以上	-11.4635
地方官員	-11.4636
重則	-11.4637
河北河東	-11.4637
御製	-11.4638
西賊	-11.4638
亦豈	-11.4639
解散	-11.464
銅觔	-11.464
闕下	-11.464
張大有	-11.464
毋庸	-11.4642
老幼	-11.4643
不違	-11.4645
守忠	-11.4648
王爵	-11.4649
用法	-11.4651
文武各官	-11.4651
俱稱	-11.4651
乆逺	-11.4652
要之	-11.4654
壯丁	-11.4654
欲乞今後	-11.4654
不日	-11.4655
成俗	-11.4655
振揚	-11.4657
足以為	-11.4658
盛事	-11.466
輕議	-11.4663
未㡬	-11.4663
挾制	-11.4665
講官	-11.4665
先皇	-11.4667
六品	-11.4668
以臨	-11.4668
就食	-11.4668
載之	-11.467
懐柔	-11.467
孝宗皇帝	-11.4673
知其非	-11.4675
減價	-11.4676
徳化	-11.4679
易以	-11.468
巳久	-11.4683
宗子	-11.4684
生息	-11.4686
容美	-11.4687
國論	-11.4687
嵩之	-11.4687
茫	-11.469
太宗曰	-11.4691
練習	-11.4691
州府屬之	-11.4691
如一	-11.4691
所開	-11.4693
或被	-11.4695
五寸	-11.4695
餓	-11.4696
取回	-11.4697
素行	-11.4697
一顆	-11.4697
稍為	-11.4699
彼必	-11.4699
瞭	-11.47
召試	-11.4702
内外文武	-11.4703
非朕	-11.4703
牛馬	-11.4703
庚子	-11.4705
累次	-11.4706
國本	-11.4706
雖復	-11.4706
伏請	-11.4707
七萬	-11.4707
乎昔	-11.4707
通和	-11.4709
五尺	-11.4709
䝉聖主	-11.4709
縀	-11.471
而忽	-11.4711
之輕重	-11.4711
樣	-11.4712
扁	-11.4713
賢而	-11.4713
𠫭	-11.4713
眀堂	-11.4713
衿	-11.4714
聖帝明王	-11.4714
無礙	-11.4715
辛丑	-11.4715
喫	-11.4715
共濟	-11.4716
忠臣義士	-11.4716
朱子	-11.4717
無忌憚	-11.4717
正是	-11.4718
父母妻子	-11.4719
廊廟	-11.4719
緊急	-11.472
巍巍	-11.472
但欲	-11.472
仁宗時	-11.472
官役	-11.472
功賞	-11.4721
粮草	-11.4721
臨洮	-11.4722
有以見陛下	-11.4722
薦之	-11.4722
盛典	-11.4723
不急之務	-11.4723
殘破	-11.4725
方物	-11.4726
帝堯	-11.4726
回還	-11.4726
六日	-11.4727
合計	-11.4728
正欲	-11.4732
侵掠	-11.4732
者如此	-11.4733
如斯	-11.4733
以快	-11.4735
然皆	-11.4739
任所	-11.474
猓賊	-11.4741
之思	-11.4741
申請	-11.4741
此即	-11.4741
政刑	-11.4742
輕動	-11.4742
浙江總督	-11.4744
河員	-11.4745
所賜	-11.4746
之求	-11.4746
東向	-11.4747
出知	-11.4747
出首	-11.4748
害人	-11.4752
耳夫	-11.4752
保護	-11.4753
問曰	-11.4754
都省	-11.4754
撫按官	-11.4754
務將	-11.4755
一萬四千	-11.4755
歳月	-11.4758
高下	-11.476
臣下之	-11.4763
莫有	-11.4764
臣伏讀	-11.4764
冗兵	-11.4766
厲精	-11.4766
外餘	-11.4766
之䖏	-11.4767
之月	-11.4769
詞頭	-11.4769
與天地	-11.477
劉豫	-11.477
元惡	-11.4771
招安	-11.4771
欲盡	-11.4773
寳應	-11.4774
朕㫖	-11.4776
則必有	-11.4777
詔下	-11.4778
所積	-11.4779
弭災	-11.4779
雷同	-11.4781
也使	-11.4781
調取	-11.4781
忠正	-11.4782
其為人	-11.4782
愁怨	-11.4782
如數	-11.4782
之軰	-11.4784
所立	-11.4784
集事	-11.4784
流官	-11.4785
現據	-11.4785
于朝	-11.4786
敢忘	-11.4787
出令	-11.4788
嘗有	-11.479
其死	-11.479
重鎮	-11.4791
正定	-11.4795
有謀	-11.4795
之時而	-11.4795
則恐	-11.4797
掄	-11.48
朕將	-11.48
於義	-11.48
者二也	-11.4801
經濟	-11.4801
獲安	-11.4803
寵榮	-11.4803
以仰副我皇上	-11.4803
毋令	-11.4803
聞命之下	-11.4803
帽	-11.4804
充公	-11.4804
窟	-11.4806
雋	-11.4807
諾岷	-11.4807
百餘人	-11.4807
水之	-11.4808
飼	-11.4808
垂簾	-11.4808
徹底清查	-11.4808
綺	-11.4808
當是之時	-11.4809
重典	-11.4809
自備	-11.481
阨	-11.481
忒	-11.481
奏疏	-11.481
顧惜	-11.481
清廟	-11.4812
河臣	-11.4812
為賊	-11.4813
實惠	-11.4813
累民	-11.4814
益甚	-11.4814
内外臣工	-11.4814
傳奉	-11.4815
乞陛下	-11.4815
公等	-11.4816
燒燬	-11.4816
選法	-11.4817
革心	-11.4818
堵截	-11.4818
商之	-11.4819
無心	-11.482
大祀	-11.4821
廟宇	-11.4821
五十萬	-11.4824
身受	-11.4824
員缺著	-11.4826
必資	-11.4826
於雍正四年	-11.4827
二千五百	-11.4827
溺職	-11.4829
大怒	-11.4831
而亡	-11.4831
出賣	-11.4831
不徒	-11.4833
貴戚	-11.4833
月上時為	-11.4833
為此具本	-11.4834
宣洩	-11.4835
建隆	-11.4838
羣盜	-11.4839
不勤	-11.4839
蠢	-11.484
貽害	-11.4841
不曉	-11.4841
四處	-11.4841
依例	-11.4842
二百名	-11.4842
陛下雖	-11.4842
保無虞	-11.4843
十五萬	-11.4843
徃年	-11.4846
誘之	-11.4847
欲自	-11.4849
建置	-11.4852
分防	-11.4853
千餘人	-11.4853
撫諭	-11.4853
涓埃	-11.4854
底止	-11.4854
禋	-11.4855
竭其	-11.4855
長於	-11.4855
不比	-11.4856
短少	-11.4859
同一	-11.4859
天眷	-11.4861
為期	-11.4861
今因	-11.4861
諸王大臣等	-11.4862
八人	-11.4862
賑給	-11.4865
鹽道	-11.4865
者委	-11.4866
之姿	-11.4868
詣闕	-11.4868
彈奏	-11.4868
也勉之	-11.4869
小麥	-11.4871
孰與	-11.4871
無赦	-11.4872
害也	-11.4874
之聖	-11.4874
有國	-11.4875
孝武	-11.4875
不得以	-11.4875
不可不慮	-11.4877
黄道	-11.4878
之切	-11.4879
藉以	-11.488
仰懇皇上	-11.488
剔	-11.4881
同城	-11.4881
池州	-11.4883
十二月内	-11.4884
瑀	-11.4887
有資	-11.4887
以歸	-11.4887
滄州	-11.4888
營兵丁	-11.4888
嚴密	-11.4889
十餘里	-11.489
殊不	-11.4891
軼	-11.4892
事迹	-11.4892
電	-11.4894
冷	-11.4894
之利也	-11.4894
四品	-11.4894
利其	-11.4895
蔬	-11.4895
顏	-11.4895
西山	-11.4895
骸	-11.4897
生財	-11.4897
豈止	-11.4898
袒	-11.4898
之罰	-11.4898
去歳	-11.4899
下及	-11.49
素知	-11.49
任官	-11.4901
大行皇帝	-11.4901
張鵬翮	-11.4901
繕摺奏謝	-11.4901
隰	-11.4902
其難	-11.4903
夤緣	-11.4903
六尺	-11.4903
搜捕	-11.4904
必死	-11.4904
自古人君	-11.4904
劣員	-11.4904
逐細	-11.4905
正身	-11.4905
中山	-11.4905
帳房	-11.4905
訕	-11.4906
内廷	-11.4906
知州知縣	-11.4906
題覆	-11.4906
彼既	-11.4907
因思	-11.4909
文武大臣	-11.4909
寃枉	-11.491
兆人	-11.491
作亂	-11.491
省費	-11.491
平原	-11.4911
將欲	-11.4912
旬月	-11.4912
非細	-11.4912
又加	-11.4913
平允	-11.4914
庻幾	-11.4914
獨任	-11.4914
銀二千	-11.4916
日至	-11.4916
安逸	-11.4916
糧運	-11.4917
陷於	-11.4917
又将	-11.4917
邇英	-11.4917
不協	-11.4918
定行	-11.4919
矣况	-11.492
章句	-11.492
從未	-11.4921
廵視	-11.4921
焉故	-11.4922
祖宗舊制	-11.4922
草束	-11.4922
糾察	-11.4922
清水	-11.4925
吏人	-11.4926
無恙	-11.4928
石塘	-11.4929
開闢	-11.4929
其徒	-11.493
貪吏	-11.4931
軍兵	-11.4933
知畏	-11.4933
治兵	-11.4934
給散	-11.4935
廣信	-11.4935
川陜	-11.4938
二十萬石	-11.4938
之土	-11.4938
頃年	-11.4939
拒之	-11.494
賊黨	-11.494
侍讀	-11.4941
夫子	-11.4942
公以	-11.4943
必自	-11.4944
動静	-11.4946
常調	-11.4947
為後	-11.4947
禍患	-11.4948
再令	-11.4951
如許	-11.4952
在天	-11.4952
曲賜	-11.4953
肆志	-11.4955
班師	-11.4955
加惠	-11.4956
可采	-11.4956
之别	-11.4956
禆益	-11.4956
衆寡	-11.4957
高祖	-11.4957
今秋	-11.4959
微員	-11.496
爲人	-11.4961
此㫖	-11.4963
六十年	-11.4964
則所謂	-11.4966
之糧	-11.4966
不救	-11.4967
至廣	-11.4967
無極	-11.497
登極	-11.4971
同知通判	-11.4971
上表	-11.4972
可喜	-11.4973
供報	-11.4974
數年之間	-11.4975
馬歩	-11.4977
批令	-11.4978
犯邊	-11.4979
文官	-11.498
改更	-11.4981
或稱	-11.4981
長城	-11.4982
三箇月	-11.4982
從長	-11.4984
之姦	-11.4984
煽	-11.4984
鹵	-11.4984
回報	-11.4984
康熙三十	-11.4985
出糶	-11.4985
不收	-11.4988
努力	-11.4988
敖	-11.4989
重惜	-11.499
嘉禾	-11.499
庶得	-11.4991
餒	-11.4992
𤨏	-11.4992
中書樞宻院	-11.4992
攄	-11.4992
阿其那	-11.4993
卵	-11.4993
丐	-11.4993
為御史中丞	-11.4994
夾帶	-11.4994
琢	-11.4994
荒歉	-11.4995
遭逢	-11.4995
稍加	-11.4995
以示朕	-11.4995
直隷	-11.4996
同心協力	-11.4996
無負	-11.4996
自去年	-11.4998
豆麥	-11.4998
貧乏	-11.5
農隙	-11.5001
博採	-11.5003
審其	-11.5003
仰頼	-11.5004
鄭𤣥	-11.5005
為奸	-11.5005
斷之	-11.5006
之祀	-11.5008
四裔	-11.5009
慶州	-11.5009
肉刑	-11.501
上之人	-11.5011
節經	-11.5011
慎選	-11.5014
六卿	-11.5014
工費	-11.5015
俱要	-11.5015
其如	-11.5015
事力	-11.5016
先以	-11.5017
姑以	-11.5018
連坐	-11.5018
吏典	-11.5018
安燾	-11.5019
大興	-11.502
尚書令	-11.5021
哉盖	-11.5021
歸入	-11.5021
著交與	-11.5022
科斂	-11.5022
硃批諭旨	-11.5023
似乎	-11.5024
謹具奏聞	-11.5026
又自	-11.5027
劄子曰臣聞	-11.5028
侵盜	-11.5028
事竊惟	-11.5028
制門下	-11.5028
追呼	-11.5028
自稱	-11.5029
所願	-11.503
大修	-11.503
詹	-11.503
綱常	-11.503
千餘里	-11.5032
兩廣總督	-11.5032
各種	-11.5033
㑹官	-11.5034
備辦	-11.5034
五色	-11.5035
至親	-11.5035
宜其	-11.5035
每多	-11.5035
不妄	-11.5036
口供	-11.5037
聲援	-11.5038
率由	-11.5038
不斷	-11.5044
固辭	-11.5044
三衛	-11.5044
隨其	-11.5046
同共	-11.5048
神聖	-11.5049
不死	-11.505
者唯	-11.505
二十名	-11.505
擾亂	-11.5051
自来	-11.5052
戍兵	-11.5052
異姓	-11.5053
三十餘年	-11.5054
臨敵	-11.5054
鑄錢	-11.5054
性情	-11.5055
深念	-11.5055
平陽	-11.5056
未遑	-11.5057
水次	-11.5058
與聞	-11.5059
也伏望聖慈	-11.5059
遊擊將軍	-11.5059
無聊	-11.5062
請嗣後	-11.5062
儼	-11.5064
或欲	-11.5064
衣糧	-11.5066
宴安	-11.5067
恩准	-11.5067
事題為	-11.5068
開除	-11.5069
修城	-11.5069
添兵	-11.507
帶管	-11.5071
今幸	-11.5074
猶能	-11.5075
從何	-11.5076
意外	-11.5076
同日又奏為奏明事竊	-11.5078
具存	-11.5078
殫竭	-11.5079
從諫	-11.508
渇	-11.508
痰	-11.5081
繒	-11.5081
頺	-11.5082
望闕叩頭謝恩	-11.5082
檢舉	-11.5082
圜	-11.5084
翹	-11.5084
絡	-11.5084
利便	-11.5085
工所	-11.5085
見得	-11.5085
繩墨	-11.5085
跌	-11.5085
凍餒	-11.5086
八九分	-11.5086
生殺	-11.5086
付託之重	-11.5086
瑜	-11.5087
淆	-11.5087
家給人足	-11.5087
何天培	-11.5087
髙家堰	-11.5087
婚姻	-11.5087
大營	-11.5088
所給	-11.5088
臧否	-11.5088
貪汚	-11.5089
使相	-11.5091
等並	-11.5091
得人而	-11.5091
髙斌	-11.5092
侈靡	-11.5092
有不可勝言者	-11.5093
裁去	-11.5093
征勦	-11.5095
𩔖皆	-11.5096
間隙	-11.5096
共成	-11.5097
六十餘	-11.5098
隂雨	-11.5099
髙堰	-11.51
固可	-11.5101
鳳陽	-11.5101
武官	-11.5102
父母之	-11.5102
嗟怨	-11.5103
俯察	-11.5104
抗違	-11.5104
閒散	-11.5105
仍委	-11.5105
孝弟	-11.5108
拾遺	-11.5108
鄰省	-11.5109
吉安	-11.5109
計處	-11.5111
奉到硃批	-11.5114
都指揮使	-11.5114
假使	-11.5114
三年一	-11.5114
重賞	-11.5115
奏要	-11.5115
方是	-11.5117
終嵗	-11.5121
也何謂	-11.5121
斯人	-11.5124
日進	-11.5125
五也	-11.5125
也於是	-11.5126
未周	-11.5127
極論	-11.5128
期㑹	-11.5128
為敵	-11.5128
兵丁等	-11.5129
不為不	-11.5131
奏為	-11.5134
四十九	-11.5138
適足	-11.514
萬緡	-11.5142
七百餘	-11.5143
躬自	-11.5143
之獄	-11.5143
請和	-11.5144
造完	-11.5144
包容	-11.5145
中路	-11.5147
正月内	-11.5147
昭著	-11.5147
種麥	-11.5148
分寸	-11.5153
瓊州	-11.5153
驛馬	-11.5154
其議	-11.5155
遷轉	-11.5156
魏公	-11.5157
之子孫	-11.5157
地方遼濶	-11.5157
五十名	-11.5159
前嵗	-11.516
有賴	-11.5161
撥亂	-11.5161
正色	-11.5161
用人之	-11.5162
祖宗時	-11.5163
搬	-11.5165
查革	-11.5165
由此而	-11.5165
亷恥	-11.5166
賊情	-11.5166
意謂	-11.5166
任子	-11.5168
朝貢	-11.5169
和而	-11.5169
州城	-11.517
税銀	-11.5171
腰	-11.5171
承受	-11.5171
議郎	-11.5172
可知也	-11.5172
大路	-11.5173
逆黨	-11.5173
子姪	-11.5173
下明詔	-11.5173
向因	-11.5173
巡撫巡按	-11.5174
覔	-11.5174
瘡	-11.5174
敞	-11.5175
倂	-11.5175
清吏司案呈奉本部送	-11.5176
故令	-11.5176
已至	-11.5177
袖	-11.5177
丙辰	-11.5178
吐魯番	-11.5178
西漢	-11.5178
慤	-11.5178
庚午	-11.5179
古北口	-11.5179
之㣲	-11.5179
戊寅	-11.518
倒塌	-11.518
葵	-11.5181
雀	-11.5181
為子	-11.5183
弦	-11.5183
藩屏	-11.5184
轡	-11.5185
車輛	-11.5185
屯駐	-11.5185
拊	-11.5185
此之謂	-11.5186
黙黙	-11.5186
下河	-11.5186
平章	-11.5187
之北	-11.5187
才者	-11.5187
興王	-11.5187
而居	-11.5188
卒以	-11.5188
恐不能	-11.519
疎縱	-11.5192
之言而	-11.5193
才幹	-11.5193
刁風	-11.5194
其勞	-11.5195
以嚴	-11.5195
星夜	-11.5197
遠近	-11.5199
完工	-11.5199
轉奏	-11.52
破格	-11.52
所加	-11.5203
回賊	-11.5203
觀此	-11.5205
邳州	-11.5205
危急	-11.5205
詳擇	-11.5206
與督臣	-11.5206
殊無	-11.5206
廵幸	-11.5208
亦要	-11.5208
者然	-11.5209
負皇上	-11.5209
迨至	-11.521
所種	-11.5211
此為	-11.5211
有心	-11.5211
流徙	-11.5211
某處	-11.5213
贓吏	-11.5213
田宅	-11.5214
公侯	-11.5214
震怒	-11.5214
從祀	-11.5216
禁絶	-11.5217
歡心	-11.5218
輒敢	-11.5219
化成	-11.5221
沅	-11.5221
之處亦	-11.5223
審官	-11.5223
親歴	-11.5226
釐革	-11.5226
利益	-11.5228
頗為	-11.5229
紳士	-11.523
協濟	-11.5232
之愚	-11.5233
赦之	-11.5234
非止	-11.5234
存恤	-11.5235
五兩	-11.5236
朕與	-11.5236
欽惟我皇上	-11.5237
進擬	-11.5238
好名	-11.5239
不重	-11.5241
臣所言	-11.5241
愿	-11.5242
似有	-11.5242
浮冒	-11.5242
有天下者	-11.5244
方敢	-11.5245
因以	-11.5245
私相	-11.5247
一空	-11.5247
必取	-11.5248
同日又奏為奏聞事	-11.5249
所供	-11.525
而不肯	-11.5252
宜於	-11.5253
也茍	-11.5254
妄作	-11.5255
無虧	-11.5257
百戸	-11.5259
有疑	-11.5259
自恃	-11.526
只有	-11.526
理亂	-11.5261
各該地方	-11.5262
羌人	-11.5263
謹奏據奏	-11.5264
舊習	-11.5265
何以為	-11.5265
預聞	-11.5266
欲陛下	-11.5266
李元	-11.5267
硃批諭旨巻	-11.5267
原情	-11.5268
待罪之至	-11.5268
六師	-11.5269
遊撃	-11.527
勅書	-11.527
彗	-11.527
毎月	-11.5271
柴薪	-11.5271
解京	-11.5271
首先	-11.5272
去後兹據	-11.5272
平人	-11.5273
庚申	-11.5274
灑	-11.5275
氣象	-11.5275
四字	-11.5275
鳳翔	-11.5275
細心	-11.5275
斧鉞	-11.5276
用之物	-11.5276
未合	-11.5276
愎	-11.5276
方欲	-11.5276
不歸	-11.5276
與朕	-11.5276
惴惴	-11.5277
連嵗	-11.5277
常若	-11.5278
百家	-11.5278
橫	-11.5278
惶恐	-11.5278
果如	-11.5279
忠讜	-11.5279
初一日	-11.528
巾	-11.528
馬文升	-11.5281
竊議	-11.5281
車服	-11.5282
以欺	-11.5283
亳	-11.5283
於後世	-11.5285
矜恤	-11.5285
之疾	-11.5287
據供	-11.5288
未可以	-11.5288
之是非	-11.5288
暫署	-11.5288
才堪	-11.5288
所指	-11.5289
朝綱	-11.5289
生番	-11.529
要犯	-11.529
奉文	-11.5292
然後能	-11.5293
叅領	-11.5294
本籍	-11.5295
車騎	-11.5295
呈送	-11.5296
工價	-11.5298
爭先	-11.5302
而謂	-11.5303
慄	-11.5303
銀一錢	-11.5304
耳然	-11.5304
用意	-11.5304
年限	-11.5306
九族	-11.5307
精熟	-11.5309
又奏曰臣	-11.531
處治	-11.5311
應試	-11.5311
不耕	-11.5312
經典	-11.5312
唐室	-11.5313
探報	-11.5313
進止	-11.5313
變則	-11.5314
在營	-11.5314
與督	-11.5314
田畆	-11.5315
入學	-11.5315
存庫	-11.5315
要當	-11.5315
開明	-11.5317
迫於	-11.532
實因	-11.532
聖眀	-11.5322
禹湯	-11.5322
以振	-11.5323
給舍	-11.5323
懼其	-11.5324
猶當	-11.5324
時宜	-11.5324
有云	-11.5325
纘	-11.5326
庫帑	-11.5326
官馬	-11.5326
皆所以	-11.5327
逐漸	-11.5327
相連	-11.5328
故意	-11.5329
後再	-11.5329
道里	-11.5329
山後	-11.533
一十七	-11.533
將前	-11.533
驗看	-11.5332
兵米	-11.5332
有裨	-11.5333
繼之以	-11.5333
大衆	-11.5335
領銀	-11.5335
境上	-11.5336
過犯	-11.5336
寛假	-11.5338
鹽引	-11.5339
地里	-11.5339
流行	-11.534
何如耳	-11.5341
陛下宜	-11.5343
開放	-11.5343
畏罪	-11.5346
輸將	-11.5347
心志	-11.5347
曽未	-11.535
制命	-11.5351
猶豫	-11.5351
曲盡	-11.5351
清冊	-11.5352
疑懼	-11.5352
得乎	-11.5353
之盛心	-11.5353
麾	-11.5354
按律	-11.5355
毎日	-11.5355
兩縣	-11.5356
責躬	-11.5356
就擒	-11.5357
乆安	-11.5361
師徒	-11.5361
晟	-11.5361
省事	-11.5361
授為	-11.5364
隷	-11.5364
直以	-11.5364
藐	-11.5365
銀錢	-11.5365
奉差	-11.5365
知情	-11.5367
實可	-11.5367
筋	-11.5367
曬	-11.5368
影射	-11.5368
緝熈	-11.5369
贅	-11.5369
綠旗	-11.5369
日滋	-11.5369
紘	-11.5369
則何以	-11.537
不慮	-11.537
有法	-11.537
都勻	-11.5371
勤政	-11.5371
址	-11.5371
緘	-11.5371
二百八十	-11.5371
澶淵	-11.5371
裒	-11.5372
洶洶	-11.5372
婢	-11.5372
詈	-11.5372
裁擇	-11.5373
烹	-11.5374
而後可以	-11.5374
徂	-11.5374
得無	-11.5374
悔悟	-11.5375
錡	-11.5375
宏逺	-11.5375
朋友	-11.5376
邊儲	-11.5377
㕘劾	-11.5377
阻撓	-11.5378
滋事	-11.5379
四十四	-11.5379
不侔	-11.538
未甞不	-11.5381
制作	-11.5382
竊以為	-11.5382
罔知	-11.5383
無違	-11.5383
歸心	-11.5384
速賜	-11.5386
詔命	-11.5386
不學	-11.5386
立事	-11.5387
鮮有	-11.5387
陞用	-11.5387
狄青	-11.5391
六十餘年	-11.5391
歎曰	-11.5391
大姦	-11.5392
戚里	-11.5392
唐虞三代	-11.5394
容易	-11.5397
之稱	-11.5397
無忘	-11.5398
私家	-11.5399
特頒	-11.5399
通詳	-11.54
口稱	-11.54
其何以	-11.5401
五百人	-11.5402
教閱	-11.5403
一千四百	-11.5403
打造	-11.5405
其勢必	-11.5406
印結	-11.5407
都䕶	-11.5409
臣不勝惓惓	-11.541
姦惡	-11.541
謹奏覽同日又奏為	-11.5411
辛未	-11.5412
弊政	-11.5415
出結	-11.5416
奮力	-11.5417
無偏	-11.5418
雖陛下	-11.5418
聖度	-11.5418
失守	-11.5419
依限	-11.542
相因	-11.542
得其宜	-11.542
圉	-11.5422
之跡	-11.5426
里甲	-11.5426
稱頌	-11.5427
旁求	-11.5428
千萬人	-11.5428
擬合	-11.543
一篇	-11.5432
撫字	-11.5433
救荒	-11.5435
時常	-11.5435
真定	-11.5436
不可不謹	-11.5438
未解	-11.5439
赴省	-11.5439
争先	-11.5441
自固	-11.5442
租稅	-11.5444
國子	-11.5444
逃遁	-11.5446
竊照	-11.5446
二營	-11.5446
山東巡撫	-11.5447
名教	-11.5447
著實	-11.5449
專權	-11.5449
輕授	-11.5449
禮制	-11.5449
各該衙門	-11.545
適足以	-11.545
之賜	-11.545
昭明	-11.545
提學	-11.5452
軍節度	-11.5453
得人則	-11.5453
苦於	-11.5454
往復	-11.5455
以為常	-11.5456
天下之公	-11.5456
謀殺	-11.5456
最重	-11.5456
更甚	-11.5457
三十里	-11.5459
不離	-11.5459
考官	-11.5459
作樂	-11.5461
不敢擅	-11.5462
前諭	-11.5462
科率	-11.5463
僧尼	-11.5463
勵精圖治	-11.5463
廡	-11.5463
悠悠	-11.5464
嗷嗷	-11.5464
金鉷	-11.5464
貴人	-11.5464
兇頑	-11.5466
慷慨	-11.5466
降旨	-11.5466
吁	-11.5466
招納	-11.5466
引鹽	-11.5466
圎	-11.5466
樞密院	-11.5467
訾	-11.5467
邉陲	-11.5467
薊	-11.5468
更始	-11.5468
寛嚴	-11.5468
騁	-11.5468
壻	-11.5468
山河	-11.5468
一視同仁	-11.5469
數州	-11.5469
别為	-11.5469
耄	-11.547
癸亥	-11.547
噫	-11.5471
咈	-11.5472
緑	-11.5473
孳生	-11.5473
盖自	-11.5474
礮臺	-11.5475
萬安	-11.5475
得其實	-11.5475
疆土	-11.5476
百寮	-11.5477
監察御史裏行	-11.5477
合食	-11.5477
孰肯	-11.5477
圩	-11.5478
搬運	-11.5478
㸃檢	-11.5478
光棍	-11.5479
别白	-11.5479
厚矣	-11.5479
大人	-11.548
一兩二錢	-11.548
兵數	-11.5481
清濁	-11.5482
牽連	-11.5482
王世	-11.5483
羣黎	-11.5483
初心	-11.5484
榮辱	-11.5485
鴻業	-11.5485
不能行	-11.5485
歸誠	-11.5486
全盛	-11.5488
利用	-11.5489
禁其	-11.549
為美	-11.5491
咨文	-11.5491
披甲	-11.5494
所薦	-11.5495
不急之	-11.5496
極邊	-11.5498
事理未敢擅便	-11.5499
成人	-11.5499
繼母	-11.5499
之産	-11.5499
莫先	-11.5501
祖宗故事	-11.5501
失利	-11.5502
邊外	-11.5504
治水	-11.5505
稍渉	-11.5505
乾道	-11.5506
前次	-11.5507
禮畢	-11.5507
一行	-11.5509
雜職	-11.5509
引用	-11.5511
矣乃	-11.5513
天下無事	-11.5514
聞而	-11.5514
尚少	-11.5516
振起	-11.5519
應如何	-11.552
數郡	-11.552
五六十	-11.552
此二者	-11.5521
廣西廵撫	-11.5521
則思	-11.5521
其愚	-11.5522
承㫖	-11.5523
兩四錢	-11.5523
有補	-11.5523
八十餘	-11.5526
不䝉	-11.5528
此數人	-11.5528
太上	-11.5529
以平	-11.5529
更屬	-11.553
内揀選	-11.5531
曰天	-11.5534
役錢	-11.5535
升降	-11.5535
上干	-11.5538
好事	-11.5538
四民	-11.554
終難	-11.5541
廵撫印務	-11.5541
賦税	-11.5541
忠勤	-11.5543
古禮	-11.5543
只如	-11.5547
四百餘	-11.5547
嚴催	-11.5548
患也	-11.5549
周人	-11.5551
於此而	-11.5552
也願陛下	-11.5552
或將	-11.5553
天之所	-11.5554
者不知	-11.5555
以為戒	-11.5556
輕率	-11.5556
也古者	-11.5557
益以	-11.5558
於學	-11.556
旱澇	-11.556
覊	-11.5561
唯是	-11.5561
都御史楊一清	-11.5562
嘴	-11.5562
永固	-11.5562
呈繳	-11.5562
賦稅	-11.5562
鋒鏑	-11.5563
餼	-11.5565
之衝	-11.5565
賢良方正	-11.5565
虢	-11.5566
僅能	-11.5569
又係	-11.557
以伸	-11.557
凋弊	-11.557
宸濠	-11.557
閎	-11.557
謹繕摺奏聞	-11.5571
擯	-11.5571
鳥獸	-11.5571
漢陽	-11.5571
珠玉	-11.5572
汛兵	-11.5572
感頌	-11.5572
各加	-11.5572
向前	-11.5573
遷就	-11.5573
建明	-11.5573
查嗣庭	-11.5574
士夫	-11.5574
得中	-11.5575
之一端也	-11.5576
亦曽	-11.5576
異域	-11.5576
送法司	-11.5578
二十里	-11.5578
三十一	-11.5578
精壯	-11.5579
在省	-11.5579
確議具奏	-11.5579
攻圍	-11.5579
什物	-11.5581
循環	-11.5582
豪强	-11.5583
厥後	-11.5584
得有	-11.5584
乖方	-11.5584
李絳	-11.5585
陵夷	-11.5585
本監	-11.5587
相距	-11.5588
為慮	-11.5588
不害	-11.5588
應天府	-11.5589
親民	-11.5589
未發	-11.559
同謀	-11.559
漢光武	-11.5591
路分	-11.5591
遣發	-11.5592
必有以	-11.5593
者故	-11.5593
備陳	-11.5593
報功	-11.5593
慈愛	-11.5594
逺邇	-11.5594
盜犯	-11.5594
考績	-11.5595
以仰副	-11.5595
有禆益	-11.5596
錢帛	-11.5596
多取	-11.5597
貪暴	-11.5597
私室	-11.5599
相顧	-11.5599
直省督撫	-11.5599
器具	-11.56
恬然	-11.5602
六人	-11.5603
碾	-11.5605
淤塞	-11.5606
所惡	-11.5607
百斤	-11.5607
進攻	-11.5608
容納	-11.5608
繼統	-11.561
又或	-11.561
補種	-11.5611
老人	-11.5612
銀二千兩	-11.5613
而還	-11.5613
右副都御史	-11.5616
漕運總督	-11.5616
小吏	-11.5616
修明	-11.5616
況於	-11.5616
原奏	-11.5617
畧無	-11.5617
捕獲	-11.5617
以崇	-11.5618
東流	-11.5619
奸民	-11.562
身先	-11.5621
乆任	-11.5625
不喜	-11.5626
未必盡	-11.5626
常川	-11.5626
收復	-11.5628
龍門	-11.5628
重務	-11.5628
靖邊	-11.5628
延寧	-11.5628
凉州	-11.5628
軍餉	-11.5631
焉今	-11.5632
善𩔖	-11.5632
空虛	-11.5633
斷難	-11.5633
已来	-11.5633
以示鼓勵	-11.5633
向使	-11.5636
忠貞	-11.5637
於雍正三年	-11.5637
不誅	-11.5639
俱得	-11.564
如此庶	-11.564
觀瞻	-11.564
已往	-11.5641
標中軍	-11.5642
不遂	-11.5643
其弟	-11.5644
章程	-11.5645
臨江	-11.5645
利息	-11.5647
議者謂	-11.5648
實能	-11.5649
究審	-11.5649
仁者	-11.5651
俱是	-11.5652
西事	-11.5652
風采	-11.5653
乎况	-11.5654
乃止	-11.5655
滙	-11.5655
減水壩	-11.5656
切加	-11.5658
萬不可	-11.5658
奸宄	-11.5658
實則	-11.5658
岩	-11.5658
此不可	-11.5658
俠	-11.5659
拮据	-11.566
智力	-11.566
一種	-11.566
存倉	-11.566
賖	-11.5662
忙	-11.5662
虔	-11.5663
上游	-11.5663
庄	-11.5663
責降	-11.5663
憊	-11.5663
咸使聞知	-11.5664
陛辭	-11.5664
鍳	-11.5664
數路	-11.5665
禳	-11.5665
堯舜禹湯文武	-11.5666
壬寅	-11.5666
獻言	-11.5666
私門	-11.5667
肝膽	-11.5667
鎬	-11.5668
愈難	-11.5668
差往	-11.5668
民物	-11.5668
備悉	-11.5668
有應行	-11.5669
平昔	-11.5669
儀禮	-11.567
所資	-11.567
親政	-11.567
棐	-11.5671
兼以	-11.5672
審結	-11.5672
子韶	-11.5672
礦徒	-11.5673
或在	-11.5673
重複	-11.5673
微忱	-11.5673
寘鐇	-11.5674
雖小	-11.5674
發生	-11.5675
就職	-11.5675
詔大臣	-11.5675
輕信	-11.5676
仰仗	-11.5676
河内	-11.5677
以降	-11.5677
甫經	-11.5677
月餘	-11.5678
入城	-11.5679
泗城	-11.5679
百代	-11.568
一千三百	-11.5682
詩人	-11.5684
謹奏朕	-11.5685
節級	-11.5685
紵絲	-11.5686
響應	-11.5686
者十居	-11.5687
知其不可	-11.5687
條件	-11.5687
奉上諭據	-11.5687
咨開	-11.5687
命官	-11.5687
果何	-11.5687
遣兵	-11.5687
應募	-11.5688
都知	-11.5688
天人之	-11.5688
之目	-11.5689
矣況	-11.5689
官給	-11.5689
株連	-11.5689
通好	-11.569
王命	-11.5692
百餘年	-11.5692
於上而	-11.5692
再拜	-11.5692
該兵部	-11.5693
毋以	-11.5693
詳覆	-11.5693
大法	-11.5695
於正月	-11.5695
資生	-11.5696
越獄	-11.5696
之途	-11.5696
正而	-11.5697
疎逺	-11.5698
来京	-11.5699
參酌	-11.5699
今古	-11.5701
君心	-11.5701
反為	-11.5702
田廬	-11.5702
藥石	-11.5703
常行	-11.5705
以貽	-11.5705
行禁止	-11.5706
者不可勝數	-11.5707
以和	-11.571
曠職	-11.5711
今觀	-11.5711
過計	-11.5711
興販	-11.5712
夷夏	-11.5712
漢土官兵	-11.5714
熟計	-11.5715
盡去	-11.5716
王元	-11.5716
為賢	-11.5717
采擇	-11.5717
有唐	-11.572
催督	-11.572
得行	-11.5721
后土	-11.5721
自勵	-11.5723
悔之	-11.5723
故地	-11.5725
懲惡	-11.5726
雖是	-11.5726
矣凡	-11.5727
教場	-11.5728
其欲	-11.5731
亦惟	-11.5733
十之三	-11.5735
嘉謀	-11.5736
安平	-11.5738
八兩	-11.5738
深戒	-11.5739
敷用	-11.5739
六國	-11.574
正值	-11.5742
去任	-11.5742
悞事	-11.5743
熟慮	-11.5743
未乆	-11.5744
進曰	-11.5745
兵備道	-11.5746
納賄	-11.5746
人才之	-11.5746
愚慮	-11.5747
不期	-11.5749
遇警	-11.5753
之原	-11.5754
土俗	-11.5754
輕者	-11.5756
將順	-11.5756
廵撫衙門	-11.5757
常恐	-11.5757
清心	-11.5757
似難	-11.5757
儔	-11.5759
立身	-11.5759
廢而	-11.576
繕疏	-11.576
缷	-11.5761
蓬	-11.5761
榆	-11.5761
瘝	-11.5762
冥	-11.5763
呼吸	-11.5763
俎	-11.5763
不自安	-11.5764
善後事宜	-11.5764
堕	-11.5764
荒蕪	-11.5764
卡	-11.5765
欽遵諭㫖	-11.5765
窵逺	-11.5765
登州	-11.5765
駢	-11.5765
沸	-11.5766
拖累	-11.5768
傅堯俞	-11.5768
馬㑹伯	-11.5768
歴代名臣奏議巻	-11.577
髙郵	-11.577
都虞候	-11.577
知兵	-11.5771
發銀	-11.5771
干求	-11.5772
嘉靖元年	-11.5772
子粒	-11.5773
指摘	-11.5773
河之水	-11.5773
豐歉	-11.5773
主帥	-11.5773
乖戾	-11.5775
優異	-11.5775
咨行	-11.5776
猶為	-11.5777
之效也	-11.5777
興復	-11.5779
未䝉施行	-11.5779
宗社之	-11.5779
兩得	-11.5779
猥以	-11.5779
先師	-11.578
右司諫	-11.578
堂除	-11.5782
甘雨	-11.5783
騰貴	-11.5783
月給	-11.5785
兩又	-11.5787
相慶	-11.5787
多為	-11.5787
規避	-11.5789
軍情	-11.5789
大防	-11.579
始則	-11.579
殃民	-11.5794
量力	-11.5794
初到	-11.5794
送納	-11.5795
無難	-11.5796
積粟	-11.5797
陛下試	-11.5798
則人心	-11.5798
勢力	-11.5798
協心	-11.58
三軍之	-11.58
常格	-11.58
漢祖	-11.58
如在	-11.5801
一切事宜	-11.5804
公心	-11.5804
入則	-11.5804
其一曰	-11.5804
應給	-11.5805
措辦	-11.5807
之至也	-11.5807
起發	-11.5807
中夏	-11.5808
俸糧	-11.5808
未加	-11.5808
質之	-11.5809
完竣	-11.5809
勇敢	-11.5809
停罷	-11.5809
特令	-11.581
瀘	-11.5811
恩典	-11.5812
異也	-11.5813
一匣	-11.5813
風教	-11.5814
覈實	-11.5816
該督撫等	-11.5816
分彼此	-11.5817
乎是	-11.5817
射利	-11.5818
之錢	-11.5819
墾田	-11.582
討賊	-11.5822
煩瀆	-11.5822
清出	-11.5823
審究	-11.5823
赦其	-11.5824
畏服	-11.5824
禁兵	-11.5826
懲勸	-11.5826
特為	-11.5826
外事	-11.5828
禁旅	-11.5829
盡絶	-11.5829
此次	-11.583
多費	-11.5831
一門	-11.5831
書奏	-11.5832
臣伏	-11.5833
退朝	-11.5835
未結	-11.5837
似為	-11.5837
注意	-11.5838
罄竭	-11.5839
審度	-11.584
安集	-11.5841
近古	-11.5843
行旅	-11.5843
足而	-11.5844
無忝	-11.5844
以陛下之	-11.5844
住居	-11.5845
邊將	-11.5845
逆順	-11.5849
箕	-11.5849
相合	-11.585
們	-11.585
奉勅	-11.5851
河底	-11.5851
孰能	-11.5851
之甚也	-11.5853
完日	-11.5853
庚	-11.5855
所求	-11.5855
欽定	-11.5855
大通	-11.5855
邀功	-11.5855
▁上諭	-11.5856
未孚	-11.5859
瑶	-11.5859
柬	-11.586
丙寅	-11.5861
諸侯之	-11.5861
本城	-11.5862
署都指揮僉事	-11.5863
工部侍郎	-11.5864
廵按御史	-11.5866
聯	-11.5866
齎送	-11.5866
横山	-11.5866
邦彦	-11.5866
應該	-11.5867
癸卯	-11.5867
鄜延	-11.5867
察焉	-11.5868
楊琳	-11.5869
闒茸	-11.5869
王璣	-11.5869
至死	-11.587
得雨日期	-11.587
千兩	-11.587
蠡	-11.5871
童貫	-11.5872
鑾輿	-11.5873
回空	-11.5873
罷兵	-11.5873
犀	-11.5873
等級	-11.5875
一得	-11.5875
命下	-11.5876
文義	-11.5876
營堡	-11.5878
交集	-11.5878
切聞	-11.588
超越	-11.5882
管束	-11.5882
有八分	-11.5884
擬斬	-11.5885
改造	-11.5885
闕廷	-11.5885
漕司	-11.5886
徳明	-11.5888
屈抑	-11.5889
有識	-11.5891
鞍	-11.5892
堂堂	-11.5892
同於	-11.5893
詰問	-11.5893
備咨	-11.5893
乘時	-11.5894
矣再	-11.5895
著行文	-11.5895
蜀人	-11.5895
具狀	-11.5897
率屬	-11.5897
愚謂	-11.5898
七十二	-11.5898
者一切	-11.5899
固為	-11.5901
確估	-11.5902
復古	-11.5902
暫且	-11.5904
開言路	-11.5904
有用	-11.5905
若止	-11.5906
難容	-11.5908
本根	-11.5908
不踰	-11.5909
生齒	-11.591
狃	-11.5912
之所欲	-11.5913
戯	-11.5916
其母	-11.5919
雹	-11.5919
民窮	-11.592
海寧	-11.5923
難辭	-11.5924
軍事	-11.5924
大變	-11.5925
而北	-11.5925
專差	-11.5926
初意	-11.5926
其𩔖	-11.5929
容受	-11.5929
塞下	-11.5929
公當	-11.5929
亦謂	-11.5929
斷不能	-11.593
才智	-11.593
勢不能	-11.593
弭盜	-11.5931
有所聞	-11.5933
試思	-11.5934
實行	-11.5934
是之謂	-11.5935
若輩	-11.5935
家丁	-11.5936
又能	-11.5936
户部尚書	-11.5938
之音	-11.594
文藝	-11.594
并州	-11.594
茶法	-11.594
鎮戎	-11.5941
逐一查	-11.5941
而與之	-11.5942
以觀其	-11.5944
依議	-11.5944
境土	-11.5944
為匪	-11.5947
文明	-11.5947
於西	-11.5947
容其	-11.5948
窮極	-11.5949
逃故	-11.595
十一月内	-11.595
先已	-11.5951
謹㑹同	-11.5952
即将	-11.5954
裕民	-11.5954
敗亡	-11.5954
孰敢	-11.5956
無道	-11.5956
百凡	-11.5956
貴陽	-11.5958
扈	-11.5958
四野	-11.5958
膝	-11.596
綾	-11.596
陛下親	-11.5961
今職	-11.5961
纓	-11.5963
戊戌	-11.5963
米麥	-11.5964
愚昧之見	-11.5964
頭緒	-11.5965
前已	-11.5966
妣	-11.5966
應作何	-11.5966
殉	-11.5967
雨澤愆期	-11.5967
設官分職	-11.5967
李林甫	-11.5967
大器	-11.5967
竊弄	-11.5968
分五釐	-11.5968
其奸	-11.5968
締	-11.5968
郝	-11.5969
本任	-11.5969
湖北廵撫	-11.5969
愚陋	-11.597
腸	-11.597
尚須	-11.5971
峒	-11.5973
向例	-11.5974
安矣	-11.5974
生人	-11.5975
父子兄弟	-11.5975
宫掖	-11.5977
裁處	-11.5977
化誨	-11.5978
儘可	-11.5979
以除	-11.5979
明賞罰	-11.598
米每石	-11.598
廣為	-11.5982
深究	-11.5982
不費	-11.5982
給領	-11.5984
犯顔	-11.5984
凶荒	-11.5984
鳯陽	-11.5984
承差	-11.5987
加增	-11.5987
陜西布政司	-11.5989
發賣	-11.5991
暴虐	-11.5992
不美	-11.5993
君臣之義	-11.5993
禹之	-11.5994
加耗	-11.5994
土豪	-11.5994
兖州	-11.5994
嘗以	-11.5996
誠信	-11.5997
孫覺	-11.5999
温州	-11.6
韓愈	-11.6002
充斥	-11.6002
日就	-11.6003
自全	-11.6004
必信	-11.6004
冬月	-11.6005
米貴	-11.6006
重難	-11.6007
者必曰	-11.6008
相離	-11.6008
朕命	-11.6009
逆耳	-11.6009
江河	-11.601
歐陽	-11.6011
不周	-11.6011
似亦	-11.6013
揮	-11.6013
大權	-11.6013
朕恩	-11.6015
取勘	-11.6015
敢為	-11.6017
竊盜	-11.6018
規畫	-11.6018
從實	-11.6022
之寵	-11.6022
洪惟	-11.6022
同年	-11.6023
周公之	-11.6023
水性	-11.6024
未寧	-11.6025
錢塘	-11.6025
信用	-11.6026
弊竇	-11.6026
若得	-11.6027
與衆	-11.6027
各地方	-11.6027
難易	-11.6027
内無	-11.6027
大概	-11.6027
者以為	-11.6028
大化	-11.6028
欽奉硃批	-11.603
本國	-11.603
諭之曰	-11.603
年深	-11.6031
仰見聖	-11.6035
不進	-11.6037
免於	-11.6038
十之二	-11.6038
功次	-11.6039
上諭大學士等曰朕	-11.6041
動以	-11.6041
元符	-11.6042
其書	-11.6043
費財	-11.6043
衛官軍	-11.6044
騎兵	-11.6044
借使	-11.6045
之妙	-11.6045
也今天下	-11.6045
監當	-11.6046
勤恤	-11.6046
五六分	-11.6048
盡除	-11.605
理合據實	-11.6051
地畆	-11.6052
嚴謹	-11.6053
人子	-11.6053
其是非	-11.6054
未有以	-11.6054
雖不能	-11.6056
通盤	-11.6057
重法	-11.6059
君臣上下	-11.6061
滋甚	-11.6062
田旻如	-11.6062
古人有言	-11.6063
添差	-11.6064
或失	-11.6064
三百五十	-11.6064
潭州	-11.6065
紬	-11.6065
盈餘	-11.6067
加意撫恤	-11.6067
旄	-11.6067
通商	-11.6068
通達	-11.6068
寰區	-11.6068
㩁	-11.6068
砲	-11.6069
知諌院	-11.6069
壬戌	-11.6069
藍廷珍	-11.607
恭請聖安	-11.607
封禪	-11.607
傳報	-11.607
資於	-11.6072
鰥寡	-11.6072
胎	-11.6072
弑	-11.6072
命將	-11.6073
垂訓	-11.6074
豈有不	-11.6074
功德	-11.6074
䟽曰臣聞	-11.6076
一百名	-11.6076
雍熈	-11.6077
禦侮	-11.6077
屢降諭㫖	-11.6078
用敢	-11.6078
窮黎	-11.6078
丁巳	-11.6078
辦料	-11.6079
反致	-11.6079
仰祈睿鑒事竊照	-11.608
其所欲	-11.608
艱苦	-11.608
二帝三王	-11.608
不勝惶悚	-11.6081
洪慈	-11.6081
美事	-11.6081
外理合	-11.6081
闗支	-11.6081
議及	-11.6082
終不可	-11.6082
坐營	-11.6084
賞功	-11.6085
冗濫	-11.6085
病民	-11.6086
施行等因	-11.6087
涵養	-11.6089
張勇	-11.609
近邊	-11.6091
遼濶	-11.6091
雖屬	-11.6093
府界	-11.6095
善則	-11.6095
宿弊	-11.6096
量事	-11.6096
而且	-11.6097
以漸	-11.6098
逃避	-11.6098
數百年	-11.6099
乃心	-11.61
子産	-11.6101
遲速	-11.6101
日給	-11.6102
肻	-11.6103
於一時	-11.6104
勞心	-11.6106
稽首	-11.6107
交部議	-11.6108
防閑	-11.6108
寸長	-11.6111
安用	-11.6112
仍然	-11.6113
稍存	-11.6114
不失其	-11.6114
兵興	-11.6116
授受	-11.6118
酌撥	-11.6119
開設	-11.6119
檄令	-11.6119
縣報稱	-11.612
秦王	-11.612
將及	-11.612
甚嚴	-11.612
所養	-11.6122
舉國	-11.6123
分任	-11.6124
科派	-11.6124
萬金	-11.6125
於此者	-11.6128
受其弊	-11.6129
頻仍	-11.6129
不渝	-11.6131
朕覽	-11.6131
總領	-11.6132
今陞	-11.6133
漢姦	-11.6134
有聲	-11.6135
故欲	-11.6136
妄議	-11.6136
憂慮	-11.6139
戎行	-11.6139
陞轉	-11.614
險易	-11.6141
以對	-11.6142
即照	-11.6142
賢俊	-11.6143
者未之有也	-11.6144
淮水	-11.6147
而作	-11.6147
路費	-11.615
被傷	-11.6151
什一	-11.6151
招商	-11.6153
四州	-11.6153
而後行	-11.6154
猶存	-11.6154
節義	-11.6154
支費	-11.6154
謹重	-11.6155
正其罪	-11.6155
立春	-11.6157
入冦	-11.6164
新附	-11.6164
勸善	-11.6164
欽天監	-11.6165
扛	-11.6166
贓私	-11.6166
賢君	-11.6166
未即	-11.6167
區宇	-11.6169
綸音	-11.617
洪澤湖	-11.617
歡忭	-11.6171
蘄	-11.6171
圃	-11.6172
一轉移間	-11.6172
揭帖	-11.6173
求直言	-11.6173
玩愒	-11.6174
太平興國	-11.6174
纎毫	-11.6174
袋	-11.6174
防微杜漸	-11.6175
百職	-11.6175
倬	-11.6175
新城	-11.6176
曏	-11.6177
各有所	-11.6177
裁定	-11.6177
右僕射	-11.6177
幫助	-11.6179
偏裨	-11.6179
戊子	-11.6179
至於如此	-11.618
付有司	-11.618
祀天	-11.6181
境外	-11.6182
有乖	-11.6184
掊克	-11.6184
祖禹	-11.6184
為有益	-11.6185
倚仗	-11.6185
而力行之	-11.6186
筋力	-11.6186
七名	-11.6186
禁錮	-11.6187
分委	-11.6188
大哉	-11.6188
等使	-11.6189
其詞	-11.6189
常人	-11.6189
監軍	-11.619
雨露	-11.6192
切見	-11.6192
世子	-11.6193
原題	-11.6194
㧞擢	-11.6195
賊巢	-11.6196
設使	-11.6196
任滿	-11.6196
臣愚欲望陛下	-11.6197
取於民	-11.6197
南渡	-11.6198
濟寧	-11.6199
命爾	-11.62
英武	-11.6203
公差	-11.6204
國典	-11.6204
以光	-11.6204
習於	-11.6206
捉獲	-11.6208
河一道	-11.6208
憚於	-11.6209
謀猷	-11.621
塞外	-11.6211
已具	-11.6213
慕義	-11.6213
爲陛下	-11.6214
台州	-11.6214
幽明	-11.6214
發出	-11.6215
嚴緝	-11.6216
陳之	-11.6217
空糧	-11.6217
繼嗣	-11.6217
自春	-11.6219
衛分	-11.6221
統率	-11.6222
各商	-11.6223
忠愛	-11.6223
謹先	-11.6224
奉上諭朕	-11.6225
福建廵撫	-11.6225
特授	-11.6227
復來	-11.6227
所以然者	-11.6229
一意	-11.623
貪功	-11.623
總期	-11.6231
辦集	-11.6233
以理	-11.6234
即加	-11.6235
所賴	-11.6235
未形	-11.6236
者為之	-11.6236
餘丈	-11.6236
死地	-11.6238
戰馬	-11.6238
倚任	-11.624
船户	-11.6241
漢興	-11.6241
閩廣	-11.6241
臣伏思	-11.6242
丁酉	-11.6242
曩者	-11.6242
題報在案	-11.6243
倉米	-11.6245
降黜	-11.6245
㫖意	-11.6248
不出於	-11.6248
親至	-11.6249
予以	-11.6249
援兵	-11.625
發給	-11.6251
酉	-11.6254
奬賞	-11.6255
自宜	-11.6255
概行	-11.6258
文臣	-11.6259
與伊	-11.6261
大堤	-11.6261
奪之	-11.6261
之嵗	-11.6261
在套	-11.6262
或由	-11.6263
務獲	-11.6263
官貟	-11.6266
應設	-11.6267
外而	-11.6267
日蝕	-11.6267
請照	-11.6267
灾異	-11.6268
始以	-11.6268
此皆我皇上	-11.6268
嗣後凡	-11.6269
慨	-11.6269
刑辟	-11.6271
崇政殿	-11.6273
睠	-11.6273
塹	-11.6274
布在	-11.6275
朕當	-11.6275
渰	-11.6275
如䝉乞勅	-11.6276
做工	-11.6277
皂	-11.6277
雨水過多	-11.6277
阮	-11.6278
疏入得㫖	-11.6278
宵衣旰食	-11.6278
混一	-11.6278
動輒	-11.628
剴切	-11.628
均沾實惠	-11.628
特簡	-11.628
諌議大夫	-11.6281
既不可	-11.6282
改過不吝	-11.6282
放還	-11.6282
金門	-11.6283
幸其	-11.6285
鍋	-11.6285
速為	-11.6285
整肅	-11.6285
由是觀之	-11.6286
驕惰	-11.6287
同日又奏為遵㫖	-11.6288
彦愽	-11.6288
謹案	-11.6288
八寨	-11.6289
建築	-11.6291
譬猶	-11.6294
城邑	-11.6295
在後	-11.6296
所感	-11.6297
遵諭	-11.6297
二十人	-11.6299
䝉聖慈	-11.6299
送至	-11.63
已前	-11.63
更新	-11.6301
知朕意	-11.6301
似覺	-11.6302
欽定四庫全書歴代名臣奏議卷一百	-11.6302
盡得	-11.6302
轉官	-11.6302
耳目之官	-11.6303
庶無	-11.6303
之弊也	-11.6304
定罪	-11.6305
夷情	-11.6305
戍卒	-11.6305
苖疆	-11.6305
留在	-11.6306
早賜施行	-11.6306
舉職	-11.6306
徒使	-11.6306
面商	-11.6307
銅斤	-11.6307
莫肯	-11.6308
力田	-11.6308
志氣	-11.6309
歸化	-11.6312
分毫	-11.6314
給假	-11.6314
損壞	-11.6315
寄養	-11.6315
減去	-11.6316
其辭	-11.6317
矣臣聞	-11.6318
責在	-11.6318
職事官	-11.6318
衛指揮	-11.6318
貽累	-11.6322
民居	-11.6323
同異	-11.6327
於雍正二年	-11.6328
立定	-11.6328
起自	-11.6329
辛酉	-11.6331
苗民	-11.6332
力戰	-11.6332
問安	-11.6333
副朕	-11.6333
裁察	-11.6333
有田	-11.6334
著即	-11.6337
行李	-11.6337
㕘政	-11.6337
誥命	-11.6338
不止於	-11.6338
年乆	-11.6341
縁邊	-11.6341
城壁	-11.6341
癸酉	-11.6342
養士	-11.6342
所好	-11.6342
鄉黨	-11.6344
例皆	-11.6345
道理	-11.6345
祖宗朝	-11.6346
謹飭	-11.6347
恩詔	-11.6349
明聖	-11.635
量才	-11.6351
僧人	-11.6352
賞銀	-11.6352
水田	-11.6353
之階	-11.6353
更定	-11.6353
首出	-11.6354
康節	-11.6355
而言之	-11.6355
具奏定奪	-11.6355
本軍	-11.6356
至京	-11.6357
與撫臣	-11.6357
攻擊	-11.6357
蒲州	-11.6358
憸	-11.6359
在於此	-11.6359
貪官	-11.6361
直屬	-11.6361
行宫	-11.6361
至孝	-11.6362
限滿	-11.6363
大恩	-11.6364
潔已	-11.6368
有守	-11.6368
仰祈睿鑒事竊查	-11.6369
有言曰	-11.6371
十疋	-11.6371
鯁	-11.6371
中都	-11.6372
奏朕	-11.6372
浄	-11.6373
以為憂	-11.6374
邊地	-11.6375
又奏曰	-11.6377
上書曰	-11.6378
闥	-11.6378
邪人	-11.6379
故常	-11.638
緑旗	-11.638
唆	-11.6382
毫髮	-11.6383
彀	-11.6384
䓁	-11.6385
向無	-11.6385
始封	-11.6386
地丁錢糧	-11.6386
之後即	-11.6386
押班	-11.6386
得其道	-11.6386
自居	-11.6386
分理	-11.6387
芟	-11.6387
劉師恕	-11.6387
虚費	-11.6387
馱	-11.6387
灝	-11.6388
吕大防	-11.6389
晴霽	-11.6389
克敵	-11.6389
甘凉	-11.639
為身謀	-11.639
霖雨	-11.6391
魄	-11.6391
荐	-11.6391
房𤣥齡	-11.6391
充國	-11.6391
謄	-11.6392
自兹	-11.6392
綦重	-11.6393
海隅	-11.6394
拱手	-11.6394
好生之徳	-11.6394
失人心	-11.6395
知人之明	-11.6395
威儀	-11.6396
陳瓘	-11.6397
殄滅	-11.6397
布帛	-11.6397
大赦	-11.6398
不同而	-11.64
海宇	-11.64
可謂至矣	-11.64
自愧	-11.6401
延齡	-11.6404
地方寧謐	-11.6404
中選	-11.6405
懇求	-11.6406
福敏	-11.6407
前人	-11.6407
日前	-11.6409
而来	-11.6409
鎮守太監	-11.6412
取索	-11.6415
一倍	-11.6416
之艱難	-11.6416
火災	-11.6416
開化	-11.6416
制置司	-11.6417
昌衡	-11.6418
重囚	-11.6419
任責	-11.642
署印	-11.642
倉皇	-11.6421
必不肯	-11.6421
曰不然	-11.6421
一張	-11.6422
非法	-11.6423
十之一	-11.6424
更乞	-11.6424
一千八百	-11.6425
容留	-11.6425
也臣謂	-11.6426
遭遇	-11.6426
貧弱	-11.6426
至情	-11.6427
行刦	-11.6427
如日月	-11.6427
非所謂	-11.6427
有以見	-11.6428
自揣	-11.6428
號稱	-11.6429
無處	-11.643
曰爾	-11.6431
銀一萬兩	-11.6432
仁夀	-11.6432
一如	-11.6433
欲治	-11.6436
提刑司	-11.6436
也故曰	-11.6437
已是	-11.6438
守制	-11.6438
專用	-11.6438
甚善	-11.644
以言事	-11.6441
将相	-11.6441
厚風俗	-11.6442
論功	-11.6443
各守	-11.6444
均係	-11.6444
科條	-11.6445
釐正	-11.6445
高宗	-11.6445
所屬州縣	-11.6446
陞職	-11.6446
六員	-11.6447
公在	-11.6447
中甸	-11.6448
本等	-11.6451
行法	-11.6451
事端	-11.6452
愛身	-11.6452
略無	-11.6454
心服	-11.6454
䇿論	-11.6455
知開封府	-11.6456
非可	-11.6456
立限	-11.6459
海潮	-11.646
半載	-11.6463
所奏是	-11.6464
不負朕	-11.6465
擬罪	-11.6467
復令	-11.6467
小國	-11.6468
崇文	-11.6471
一兩零	-11.6472
習為	-11.6475
縣人	-11.6479
給咨	-11.6479
臕	-11.648
又須	-11.6482
陛下即位之初	-11.6484
倘遇	-11.6486
江西廵撫	-11.6486
攅	-11.6487
蕪	-11.6488
審問	-11.6488
十事	-11.6488
以至誠	-11.6488
尚書右丞	-11.6488
汲	-11.6489
秪	-11.6489
垜	-11.649
以至公	-11.649
肝腦塗地	-11.649
籐牌	-11.6491
馬爾賽	-11.6491
都邑	-11.6492
伏候聖裁	-11.6493
果斷	-11.6493
合併陳明	-11.6493
破敵	-11.6493
竢	-11.6493
門下省	-11.6494
版籍	-11.6494
開寳	-11.6494
餧	-11.6494
乙丑	-11.6494
跋扈	-11.6495
恐懼修省	-11.6496
包拯	-11.6496
深宫	-11.6496
大公至正	-11.6497
事出	-11.6497
足見	-11.6497
更多	-11.6497
躡	-11.6498
平地	-11.6499
上下交	-11.6499
噶爾泰	-11.6501
㳂邊	-11.6501
安挿	-11.6501
一載	-11.6502
癸未	-11.6502
妄意	-11.6503
字號	-11.6503
吏卒	-11.6503
倉塲	-11.6503
鎮定	-11.6503
仍照舊例	-11.6503
與他	-11.6504
元良	-11.6506
非如	-11.6507
一世	-11.6507
冢宰	-11.6507
賑貸	-11.6507
唐虞之	-11.651
以害	-11.6513
景象	-11.6513
揺動	-11.6513
兆庶	-11.6514
南河	-11.6514
遲緩	-11.6515
嚴切	-11.6515
著追	-11.6517
巡歴	-11.6517
通衢	-11.6519
凜遵	-11.6519
中材	-11.6519
幸免	-11.6519
二部	-11.6519
撫之	-11.652
告陛下	-11.652
儒術	-11.6521
相攻	-11.6521
樞府	-11.6522
必盡	-11.6522
照管	-11.6524
俱為	-11.6525
二百年	-11.6526
欺蔽	-11.6526
智識	-11.6526
至京師	-11.6527
趙普	-11.6527
赦宥	-11.6527
於未然	-11.6527
流入	-11.6528
多用	-11.6528
同日又奏	-11.6528
進勦	-11.6528
恩例	-11.6528
陳平	-11.6528
乾元	-11.653
天禧	-11.653
聽命	-11.6531
治矣	-11.6531
賢相	-11.6532
必令	-11.6533
西川	-11.6533
良弼	-11.6535
横流	-11.6535
自我	-11.6537
覽之	-11.6537
聞命	-11.6538
也昔者	-11.6539
恩綸	-11.654
北伐	-11.6541
天朝	-11.6541
實繁	-11.6541
討之	-11.6542
既立	-11.6542
西邊	-11.6543
乏絶	-11.6543
必不敢	-11.6543
遣大臣	-11.6543
接續	-11.6544
割地	-11.6545
廵防	-11.6545
設備	-11.6547
赤心	-11.6548
必是	-11.6548
爾諸臣	-11.6549
禁斷	-11.6553
狃於	-11.6554
元旦	-11.6555
扶同	-11.6555
建武	-11.6556
下逮	-11.6557
部臣	-11.6558
昭格	-11.6559
御書	-11.656
具劄子	-11.6565
特進	-11.6567
訛言	-11.6567
心懐	-11.6568
事理未敢擅便謹題請㫖	-11.6568
水長	-11.6569
偏私	-11.6569
攻戰	-11.6571
非理	-11.6571
難治	-11.6571
久在	-11.6572
念切	-11.6573
計慮	-11.6573
兵卒	-11.6573
書寫	-11.6573
乃伊	-11.6574
遞年	-11.6574
熟思	-11.6575
萬數	-11.6576
共為	-11.6577
千里之外	-11.6577
前言	-11.6577
淤淺	-11.6577
殺人者	-11.6578
醫藥	-11.658
無令	-11.6581
莫及	-11.6582
嚴㕘	-11.6583
向去	-11.6585
同官	-11.6585
辨其	-11.6585
出産	-11.6585
其間有	-11.6586
承大統	-11.6586
故也今	-11.6586
非臣所	-11.6587
三千人	-11.6587
伐之	-11.6588
已盡	-11.6588
未決	-11.6589
予曰	-11.659
瘁	-11.659
本衛	-11.6591
從政	-11.6593
多以	-11.6593
琛	-11.6594
淸	-11.6594
入覲	-11.6596
之術也	-11.6598
等銀	-11.6598
幄	-11.6598
亶	-11.6599
運道民生	-11.6599
任情	-11.66
無所容	-11.66
鏞	-11.66
在任守制	-11.6601
自勉	-11.6601
法禁	-11.6601
不得人	-11.6601
暈	-11.6602
槍	-11.6602
正徳十六年	-11.6602
一疏	-11.6602
稚	-11.6602
膠州	-11.6602
興利除害	-11.6603
諺	-11.6603
獨有	-11.6604
屬吏	-11.6605
釋奠	-11.6606
而更	-11.6606
余靖	-11.6607
兢惕	-11.6607
仰䝉皇上	-11.6607
庻㡬	-11.6607
冉	-11.6607
頑苗	-11.6608
煦	-11.6608
二三十	-11.6609
克濟	-11.6609
性桂	-11.6609
礮位	-11.6609
黯	-11.661
稍寛	-11.661
分廵	-11.6612
既為	-11.6612
既可	-11.6612
將吏	-11.6612
願為	-11.6613
隱諱	-11.6613
漢書	-11.6613
斡	-11.6614
戍守	-11.6614
宸斷	-11.6615
送司	-11.6615
與撫	-11.6616
次則	-11.6618
與一子	-11.6619
國學	-11.6619
以仁	-11.662
辦理軍需	-11.662
需人	-11.6621
循黙	-11.6621
擢為	-11.6621
奏論	-11.6622
纎悉	-11.6622
孤寒	-11.6623
乙酉	-11.6624
錢價	-11.6624
嵗終	-11.6624
民隠	-11.6627
樂舞	-11.6627
生徒	-11.6629
秋後	-11.6629
草野	-11.663
肆赦	-11.6631
不謬	-11.6631
二百七十	-11.6633
勉強	-11.6634
屈已	-11.6634
神功	-11.6636
有礙	-11.6639
崇奉	-11.6639
之母	-11.6639
可令	-11.6639
易行	-11.6639
減免	-11.6639
教閲	-11.6641
原欲	-11.6642
溺於	-11.6643
生發	-11.6643
所施	-11.6643
京邑	-11.6644
分別	-11.6645
任職	-11.6645
年例	-11.6646
王廷	-11.6646
自責	-11.6646
樂聞	-11.6646
聖王之	-11.6647
成都府	-11.6647
臣忝	-11.6649
奔潰	-11.665
憂民	-11.665
史記	-11.665
之實也	-11.6651
等差	-11.6652
害政	-11.6652
韓公	-11.6653
所知者	-11.6653
有急	-11.6653
傾耳	-11.6654
富户	-11.6658
四尺	-11.6658
無欺	-11.6658
求所以	-11.6658
缺官	-11.666
建國	-11.6661
案呈到部	-11.6661
至德	-11.6662
督兵	-11.6662
地理	-11.6663
一身之	-11.6666
來春	-11.6666
也自古	-11.6669
若朝廷	-11.667
為人所	-11.6674
細訪	-11.6676
守衛	-11.6677
脂	-11.6678
由來	-11.6679
十丈	-11.668
講筵	-11.6682
伏祈皇上睿鑒	-11.6683
過此	-11.6684
三時	-11.6685
以弭	-11.6685
漕臣	-11.6687
固屬	-11.6689
五十八	-11.6689
後代	-11.6691
使天下之人	-11.6692
不吝	-11.6693
編修	-11.6693
北狄	-11.6693
逐之	-11.6694
額徴	-11.6695
呈詳	-11.6695
潼	-11.6698
為限	-11.67
四五分	-11.6701
生變	-11.6701
請勅	-11.6701
守城	-11.6701
之賤	-11.6702
所以重	-11.6703
血誠	-11.6705
蜂	-11.6705
甚廣	-11.6705
辦納	-11.6705
坎	-11.6706
候選	-11.6707
諫者	-11.6707
王朝恩	-11.6709
纉	-11.6709
駑鈍	-11.671
瀆奏	-11.671
壌	-11.6711
覆稱	-11.6711
椒	-11.6711
㝢	-11.6711
鳯翔	-11.6712
丸	-11.6712
移風易俗	-11.6713
堙	-11.6713
陛下何不	-11.6713
佈	-11.6714
喙	-11.6714
惶惑	-11.6715
用人行政	-11.6715
毫髪	-11.6715
悉以	-11.6716
紆	-11.6717
汲黯	-11.6717
思奮	-11.6717
天譴	-11.6717
三省樞宻院	-11.6717
縣之	-11.6719
求退	-11.6719
不憂	-11.672
團結	-11.672
索取	-11.672
翳	-11.6721
耆老	-11.6722
為皇太子	-11.6722
居處	-11.6723
受傷	-11.6723
守土	-11.6723
罪當	-11.6724
各照	-11.6724
據布政使	-11.6725
策妄阿喇布坦	-11.6725
災沴	-11.6726
收管	-11.6726
仰酬	-11.6728
不辨	-11.6729
銀二十	-11.6729
該管官員	-11.6731
維揚	-11.6732
中夜	-11.6732
之職也	-11.6734
惑亂	-11.6735
京兆府	-11.6736
太府	-11.6736
不如意	-11.6736
詔天下	-11.6736
三十兩	-11.6737
廟社	-11.6739
奉諭旨	-11.6739
東方	-11.674
新河	-11.674
勿得	-11.6741
結怨	-11.6741
親故	-11.6742
匠役	-11.6742
園陵	-11.6743
抽分	-11.6744
尊嚴	-11.6744
案查先	-11.6744
眷顧	-11.6745
不熟	-11.6745
五斗	-11.6745
桓公	-11.6748
姦佞	-11.6751
樞機	-11.6752
疾速	-11.6754
請留	-11.6754
本錢	-11.6754
朕親	-11.6755
今則不然	-11.6756
糾合	-11.6756
賞格	-11.6756
使持節	-11.6756
拯救	-11.6756
痛惜	-11.6756
人皆知	-11.6758
曰天子	-11.6758
西北二	-11.6761
五里	-11.6762
侵奪	-11.6762
為父	-11.6765
侯伯	-11.6765
同夥	-11.677
已後	-11.6771
日深	-11.6771
畏其	-11.6771
昩	-11.6772
部中	-11.6773
早晚	-11.6774
瀆天聽	-11.6775
堅實	-11.6775
不勝感激	-11.6776
共需銀	-11.6778
帶領官兵	-11.678
成羣	-11.6781
古先	-11.6782
夏稅	-11.6783
特詔	-11.6784
奏舉	-11.6786
以嵗月	-11.6787
本為	-11.6788
危亂	-11.6788
萬餘人	-11.6789
不可勝言	-11.6789
外藩	-11.679
到於	-11.6791
到時	-11.6792
治化	-11.6792
事簡	-11.6792
有傷	-11.6793
抄出	-11.6794
續報	-11.6794
細察	-11.6795
界連	-11.6795
萬夀	-11.6795
係是	-11.6796
議照	-11.6796
之幸也	-11.6797
無憂	-11.6798
文物	-11.68
焉有	-11.68
清河縣	-11.6801
每人	-11.6803
尤須	-11.6803
役人	-11.6803
朝賀	-11.6804
内中	-11.6805
之妻	-11.6805
聖聦	-11.6806
無度	-11.6807
為陛下陳之	-11.6809
科甲	-11.6809
士竒	-11.681
恐後	-11.6811
奏繳	-11.6811
優待	-11.6811
制勅	-11.6812
水深	-11.6814
田文鏡謹奏為	-11.6814
亳州	-11.6816
莽鵠立	-11.6816
楷	-11.6817
至愚極陋	-11.682
瞞	-11.682
請令	-11.682
孫國璽	-11.6821
米價平減	-11.6821
二世	-11.6821
等公同	-11.6822
燥	-11.6822
肺腑	-11.6822
分屯	-11.6822
晏子	-11.6823
㢘耻	-11.6823
剽掠	-11.6824
驛鹽道	-11.6824
斥堠	-11.6825
裁之	-11.6825
總理事務王大臣	-11.6825
斯乃	-11.6825
之至謹奏	-11.6825
難制	-11.6826
杞	-11.6826
袒䕶	-11.6826
方興	-11.6827
枷責	-11.6827
甚屬不合	-11.6827
媮	-11.6827
鐫	-11.6828
白馬	-11.6828
馳騁	-11.683
閏四月	-11.6831
兵戎	-11.6831
奴僕	-11.6831
九重之	-11.6832
睿覽	-11.6832
之東	-11.6832
扳	-11.6832
朝士	-11.6833
經厯	-11.6834
以為可	-11.6835
莫重於	-11.6837
處決	-11.684
蔡襄	-11.684
小醜	-11.6841
取民	-11.6842
用之則	-11.6843
茫然	-11.6845
糧艘	-11.6847
陛下當	-11.6847
各賜	-11.6848
進身	-11.6848
黙然	-11.6849
房杜	-11.685
干冒	-11.6851
已試	-11.6852
漸至	-11.6852
清問	-11.6852
歸徳	-11.6852
源源	-11.6854
之弟	-11.6854
同姓	-11.6854
可不慎	-11.6855
祖宗以来	-11.6855
帶徴	-11.6858
王政	-11.6859
不料	-11.6859
遥逺	-11.6859
欽定四庫全書歴代名臣奏議卷二百	-11.6859
熟知	-11.6861
屯聚	-11.6861
規制	-11.6861
授任	-11.6862
設施	-11.6862
在庫	-11.6863
提舉司	-11.6863
滿日	-11.6865
張氏	-11.6866
查據	-11.6866
書稱	-11.6867
宣揚	-11.6867
海州	-11.6867
應對	-11.6868
猶懼	-11.6868
相等	-11.6869
羣吏	-11.687
考古	-11.6873
備查	-11.6876
分散	-11.6876
君臣相	-11.6877
四海之内	-11.6878
銀七千	-11.6878
稱賀	-11.6879
翻然	-11.6879
妄費	-11.6879
臣愚竊	-11.6881
竒兵	-11.6881
憫念	-11.6881
増益	-11.6882
親赴	-11.6882
則莫若	-11.6882
巳將	-11.6882
婪贓	-11.6883
忠勇	-11.6883
冬春	-11.6884
將此項	-11.6884
就令	-11.6884
急為	-11.6884
縣主簿	-11.6886
擒斬	-11.6886
濟運	-11.6887
三面	-11.6888
智慮	-11.6888
四十三	-11.6888
承認	-11.6888
丙子	-11.689
兵五百名	-11.6892
曹操	-11.6893
竈户	-11.6894
工本	-11.6894
莫不以	-11.6894
於百姓	-11.6894
回稱	-11.6895
省部	-11.6896
亦易	-11.6897
地丁銀	-11.6897
鹽鐵	-11.6898
興衰	-11.6898
有勞	-11.69
可久	-11.6901
假若	-11.6901
常法	-11.6902
只令	-11.6903
何足以	-11.6907
歸咎	-11.6907
有未盡	-11.6907
有妨	-11.6907
一犯	-11.6908
将何	-11.691
廣東總督	-11.6911
有罪者	-11.6912
大惡	-11.6912
部屬	-11.6914
萬計	-11.6915
朝堂	-11.6916
謹據實奏聞	-11.6916
無涯	-11.6918
恭設香案望闕叩頭謝恩訖	-11.6919
巳行	-11.6919
乘此	-11.692
有秋	-11.6921
並將	-11.6921
忠實	-11.6922
室家	-11.6923
嗇	-11.6923
惠澤	-11.6924
船一隻	-11.6924
請行	-11.6927
肆為	-11.6927
其利害	-11.6929
驅使	-11.6931
竭盡駑駘	-11.6932
齋醮	-11.6932
八九分不等	-11.6932
古之人	-11.6932
定數	-11.6933
靠	-11.6933
桑植	-11.6933
地方事宜	-11.6934
餙	-11.6934
蟄	-11.6934
煖	-11.6935
錙銖	-11.6935
暫時	-11.6935
愬	-11.6935
叢脞	-11.6935
固不足	-11.6936
案驗	-11.6936
誕謾	-11.6937
砥	-11.6937
顧此失彼	-11.6939
繪圖	-11.6939
萬分之一	-11.694
用錢	-11.694
臭	-11.6941
佟吉圖	-11.6941
應加	-11.6941
夥黨	-11.6942
仰答	-11.6942
樞密	-11.6943
賊盜	-11.6943
直隸各省	-11.6943
善治	-11.6946
内省	-11.6946
量行	-11.6947
備至	-11.6947
國之大事	-11.6948
將伊等	-11.6949
節據	-11.6949
為小人	-11.6949
繕摺奏明	-11.695
休養	-11.6951
公捐	-11.6951
五員	-11.6953
傅說	-11.6954
迤北	-11.6955
舎人	-11.6955
逃匿	-11.6956
米一石	-11.6956
大任	-11.6956
一片	-11.6957
玉帛	-11.6957
守正	-11.6958
於無窮	-11.6958
密雲	-11.6959
諸貝勒	-11.6959
災黎	-11.696
若云	-11.6962
中牟	-11.6963
邉民	-11.6964
上通	-11.6966
茍能	-11.6969
乃所以	-11.6969
致君	-11.697
淮北	-11.697
遂行	-11.6971
恩徳	-11.6971
形勝	-11.6972
盡廢	-11.6973
少緩	-11.6975
宻院	-11.6975
挑河	-11.6976
其變	-11.6976
為樂	-11.6978
之力也	-11.6978
一言而	-11.6978
另議	-11.6978
故凡	-11.6979
臣等竊	-11.6981
應舉	-11.6981
致身	-11.6981
御賜	-11.6981
永興	-11.6982
智謀	-11.6982
西方	-11.6983
反掌	-11.6983
皆用	-11.6983
之賊	-11.6985
幾至	-11.6987
以邀	-11.6991
凡可以	-11.6993
隴右	-11.6993
過慮	-11.6995
遵化	-11.6996
此任	-11.6997
兩朝	-11.6998
核算	-11.6999
乎抑	-11.7
星變	-11.7
前摺	-11.7
謂侍臣曰	-11.7001
遵例	-11.7001
有德	-11.7003
年年	-11.7003
釁端	-11.7003
星速	-11.7005
解赴	-11.7005
不肅	-11.7006
力量	-11.7006
之辨	-11.7007
八達	-11.7008
乃命	-11.7008
又念	-11.7008
本兵	-11.7008
保任	-11.7009
可懼	-11.701
原衛	-11.7011
金玉	-11.7012
受賜	-11.7012
如無	-11.7013
藉此	-11.7014
周世宗	-11.7015
治天下者	-11.7015
千秋	-11.7017
假如	-11.7018
金錢	-11.7018
頃以	-11.7018
不果	-11.7019
已出	-11.7019
年榖	-11.702
七品	-11.7022
宫殿	-11.7022
重責	-11.7023
范公	-11.7024
恪守	-11.7024
大異	-11.7025
按其	-11.7027
自息	-11.7028
之日即	-11.7029
復職	-11.7029
得㫖	-11.7029
之色	-11.703
先該	-11.7032
營制	-11.7032
金城	-11.7033
量留	-11.7037
怨嗟	-11.7037
復還	-11.7038
推擇	-11.704
區區之	-11.704
大户	-11.704
峝	-11.704
佞人	-11.704
厮	-11.7041
后妃	-11.7042
侑	-11.7042
雩	-11.7043
一萬一千	-11.7044
密摺	-11.7044
書讀	-11.7045
之以禮	-11.7045
趙向奎	-11.7045
天聴	-11.7046
擕	-11.7046
玊	-11.7046
何啻	-11.7047
迥	-11.7047
四郊	-11.7048
寥寥	-11.7048
聶	-11.7049
所遣	-11.7049
之事則	-11.7051
不可枚舉	-11.7051
梯	-11.7051
楊天縱	-11.7052
脆	-11.7053
刑部等衙門	-11.7054
斛㪷	-11.7054
上奏曰臣伏覩	-11.7054
狡獪	-11.7054
而取之	-11.7054
應修	-11.7055
㳙	-11.7055
傷和氣	-11.7055
盪	-11.7055
即位以来	-11.7055
瀋	-11.7056
臨安府	-11.7057
不可測	-11.7057
十員	-11.7057
武徳	-11.7057
尊親	-11.7058
至多	-11.7059
階級	-11.706
踴	-11.706
均霑	-11.706
睿智	-11.706
貪酷	-11.706
指日	-11.706
君恩	-11.706
參將	-11.706
以此觀之	-11.7061
果然	-11.7061
伺候	-11.7061
之謗	-11.7062
錢米	-11.7062
隆興	-11.7062
一隻	-11.7063
麥苖	-11.7063
應追	-11.7063
差撥	-11.7063
制國用	-11.7064
玩法	-11.7068
以臣觀之	-11.7069
擅自	-11.7069
闔省	-11.707
部署	-11.707
乘間	-11.7072
信服	-11.7072
公孫	-11.7072
料敵	-11.7073
至一兩	-11.7073
之速	-11.7075
和碩	-11.7075
四十七	-11.7077
有虞	-11.7077
末流	-11.7078
元勲	-11.7079
於道路	-11.708
又按	-11.708
追改	-11.7081
依法	-11.7081
文法	-11.7082
殘害	-11.7082
諸部	-11.7082
恩意	-11.7083
同罪	-11.7083
留滯	-11.7083
親徃	-11.7083
摺匣	-11.7088
贑	-11.7089
並不得	-11.709
民貧	-11.7092
大役	-11.7092
茍得	-11.7092
傾覆	-11.7092
刑者	-11.7092
照所請	-11.7092
自求	-11.7093
充盈	-11.7094
細數	-11.7094
無藉	-11.7096
㑹稽	-11.7097
逐日	-11.7097
由是而	-11.7099
歳次	-11.7099
貢院	-11.7099
其為害	-11.71
深加	-11.71
留心訪察	-11.71
前愆	-11.7102
士心	-11.7102
所共知	-11.7105
如式	-11.7106
左氏	-11.7107
明係	-11.7108
曲加	-11.7109
政績	-11.711
鑒察	-11.7112
削平	-11.7112
徃来	-11.7112
此書	-11.7113
數十里	-11.7113
也臣以為	-11.7113
也臣又聞	-11.7113
也古之	-11.7114
秋糧	-11.7116
切至	-11.7118
必難	-11.7118
發徳音	-11.7119
題本	-11.7121
標員	-11.7122
尚堪	-11.7122
奪獲	-11.7123
奏摺内	-11.7125
等項俱	-11.7125
又不合	-11.7126
十惡	-11.7127
要隘	-11.7128
鞍馬	-11.7128
十餘丈	-11.7129
頗知	-11.7129
預定	-11.7129
罕聞	-11.7129
物故	-11.713
解司	-11.7131
㑹奏	-11.7131
老疾	-11.7132
[...]
