<unk>	0
<s>	0
</s>	0
。	-1.71174
者	-4.42286
,	-4.4917
故	-4.50911
謂	-4.9521
有	-5.12783
、	-5.18014
非	-5.26015
是	-5.28014
若	-5.29206
名	-5.38422
.	-5.47674
彼	-5.48332
此	-5.50575
為	-5.55877
如	-5.56468
生	-5.58679
於	-5.59115
以	-5.62951
及	-5.65786
無	-5.69567
等	-5.70816
法	-5.71437
不	-5.72254
說	-5.76119
中	-5.77809
云何	-5.82244
二	-5.83444
得	-5.84348
一	-5.85604
或	-5.89741
至	-5.89837
?	-5.90121
心	-5.90796
時	-5.91252
也	-5.92143
耶	-5.95248
答	-6.01626
言	-6.02466
三	-6.07674
因	-6.10925
答曰	-6.11975
緣	-6.13722
亦	-6.149
即	-6.15239
論	-6.15767
起	-6.18503
問	-6.26886
由	-6.27304
諸	-6.27496
與	-6.27532
如是	-6.28244
行	-6.29219
義	-6.29914
定	-6.32799
▁	-6.34574
受	-6.36628
:	-6.39205
色	-6.41133
唯	-6.41396
身	-6.42887
四	-6.43142
見	-6.43276
依	-6.43398
餘	-6.45893
攝	-6.46315
斷	-6.46809
是名	-6.525
已	-6.53023
一切	-6.54233
業	-6.55332
而	-6.56843
後	-6.56878
相	-6.58686
果	-6.62376
滅	-6.63986
道	-6.65846
人	-6.71998
善	-6.72779
除	-6.7307
智	-6.73088
乃至	-6.73291
又	-6.73665
從	-6.73988
住	-6.74159
復次	-6.74613
處	-6.75492
皆	-6.76449
五	-6.78088
相應	-6.78111
修	-6.78357
能	-6.78975
捨	-6.81836
明	-6.83696
識	-6.83927
雖	-6.83967
欲	-6.85076
我	-6.85444
應	-6.85747
」	-6.86169
所	-6.86485
觀	-6.86868
性	-6.8692
作	-6.87897
觸	-6.93091
成	-6.93849
知	-6.94671
多	-6.94711
上	-6.9552
欲界	-6.95806
想	-6.96964
前	-6.97194
意	-6.98612
苦	-6.99502
成就	-6.99531
之	-6.99569
。「	-6.9962
離	-6.99629
體	-7.00682
樂	-7.00754
事	-7.02124
根	-7.02476
(	-7.03881
入	-7.04826
自	-7.05348
俱	-7.05634
有說	-7.05646
然	-7.05657
問曰	-7.06711
名為	-7.079
通	-7.08701
釋	-7.11062
佛	-7.11263
立	-7.11743
盡	-7.11914
此中	-7.1213
煩惱	-7.13475
故名	-7.1357
是故	-7.13713
六	-7.1449
同	-7.14726
亦爾	-7.15066
隨	-7.1554
勝	-7.16253
取	-7.16547
愛	-7.17546
令	-7.1809
無漏	-7.18373
初	-7.19406
則	-7.2067
顯	-7.21291
七	-7.21707
下	-7.22383
在	-7.23412
先	-7.24805
未來	-7.2518
別	-7.25436
由此	-7.2565
解脫	-7.26002
界	-7.26626
差別	-7.26771
地	-7.26967
八	-7.27115
境	-7.2941
現在	-7.30677
位	-7.31662
異	-7.32011
大	-7.34261
聲	-7.34776
力	-7.35441
色界	-7.36246
分	-7.36652
所以者何	-7.36769
慧	-7.36873
未	-7.3959
是謂	-7.41499
其	-7.41512
)	-7.42208
復	-7.42946
過去	-7.42978
今	-7.43106
轉	-7.43143
結	-7.43587
分別	-7.44825
思	-7.45633
但	-7.45861
戒	-7.46404
幾	-7.46829
現	-7.47051
出	-7.47181
便	-7.47589
無明	-7.47672
有漏	-7.48694
異熟	-7.49203
有情	-7.49368
中有	-7.49594
天	-7.5296
貪	-7.53594
即是	-7.53815
十	-7.54805
具	-7.55936
無色	-7.56341
證	-7.56878
釋曰	-7.58245
眼	-7.58859
可	-7.58973
當	-7.59763
頌曰	-7.59885
不善	-7.59943
相續	-7.6001
用	-7.60547
眾生	-7.61699
難	-7.61906
淨	-7.62345
加行	-7.62477
食	-7.62977
正	-7.63226
念	-7.63421
何	-7.63502
覺	-7.64035
復有說者	-7.64282
;	-7.64516
解	-7.65114
不能	-7.65357
類	-7.67114
無有	-7.67515
世尊	-7.67683
外	-7.67849
次第	-7.67932
經	-7.6847
過	-7.69822
少	-7.69984
亦有	-7.70196
疑	-7.70337
語	-7.7091
各	-7.70917
如何	-7.71727
他	-7.71732
學	-7.71943
執	-7.72197
理	-7.72466
云	-7.73383
退	-7.73541
隨眠	-7.73714
空	-7.73765
種	-7.74057
無間	-7.74357
必	-7.74375
總	-7.74729
邪見	-7.74846
自性	-7.75234
對	-7.75446
引	-7.75615
無學	-7.75813
九	-7.75926
內	-7.76304
既	-7.76365
趣	-7.77819
本	-7.77973
方	-7.78132
涅槃	-7.78567
諸法	-7.78966
所依	-7.79209
聖	-7.79785
無色界	-7.799
無記	-7.80515
所緣	-7.80567
增上	-7.80617
乃至廣說	-7.81037
惑	-7.81405
喜	-7.81571
極	-7.82047
信	-7.82299
亦如是	-7.83407
或有	-7.83597
數	-7.85301
遍	-7.85897
何故	-7.86149
現在前	-7.86416
使	-7.86459
增	-7.87531
思惟	-7.87901
為因	-7.8889
偈曰	-7.89008
壞	-7.89048
蘊	-7.89272
染	-7.89476
世	-7.89981
造	-7.90338
重	-7.90472
約	-7.9053
破	-7.90645
常	-7.90865
集	-7.91163
所攝	-7.91643
順	-7.92004
決定	-7.92179
故說	-7.92966
無為	-7.93049
次	-7.93156
無量	-7.9325
或作是說	-7.93438
聖道	-7.93532
如說	-7.93652
惡	-7.93753
忍	-7.93885
見道	-7.94599
論曰	-7.94905
於彼	-7.9508
共	-7.96046
不得	-7.96144
無表	-7.96426
文	-7.96429
第二	-7.96505
不生	-7.96677
行相	-7.97057
世間	-7.97595
對治	-7.9797
三界	-7.98266
持	-7.98397
大種	-7.98497
不同	-7.99445
當言	-7.99847
設	-8.00466
品	-8.00906
應知	-8.01072
境界	-8.01184
報	-8.01503
方便	-8.01887
門	-8.01949
善根	-8.02137
若爾	-8.0251
不應	-8.02619
王	-8.02821
剎那	-8.03202
施	-8.03818
實	-8.04006
於中	-8.04738
所有	-8.0513
他心智	-8.05521
所說	-8.05821
因緣	-8.05938
少分	-8.05949
解云	-8.06527
味	-8.07149
二種	-8.07432
失	-8.07548
三種	-8.07612
於此	-8.0776
意識	-8.07791
汝	-8.08043
者謂	-8.08283
何謂	-8.0832
阿羅漢	-8.08726
命	-8.08892
水	-8.08893
聞	-8.09306
眼識	-8.09359
第三	-8.09725
》	-8.09729
菩薩	-8.10707
現前	-8.10763
眾	-8.10876
法智	-8.11327
求	-8.11953
物	-8.12402
何以故	-8.12407
許	-8.12578
異生	-8.13256
火	-8.14127
不相應	-8.14138
慢	-8.14777
死	-8.15024
不說	-8.1521
亦非	-8.15481
合	-8.15716
如來	-8.15753
能生	-8.1598
支	-8.16068
故知	-8.16372
繫	-8.18324
不可	-8.18458
邊	-8.18873
發	-8.19496
爾時	-8.1977
聚	-8.20259
四大	-8.20415
律儀	-8.20423
還	-8.20543
遠	-8.21114
不定	-8.21842
不成就	-8.22344
欲界繫	-8.22641
亦名	-8.23414
第四	-8.23502
風	-8.24395
近	-8.24421
廣	-8.24508
俱生	-8.24716
若有	-8.24897
補特伽羅	-8.258
五蘊	-8.25951
來	-8.26723
教	-8.26752
道智	-8.26967
種種	-8.26997
縛	-8.27133
建立	-8.27825
量	-8.2791
當知	-8.28199
此是	-8.28373
如此	-8.28531
一一	-8.28833
何緣	-8.2892
不爾	-8.28981
故名為	-8.29434
此二	-8.29964
眼根	-8.30336
遮	-8.30752
更	-8.31044
色無色界	-8.31417
諦	-8.31442
頌	-8.31874
有餘師說	-8.32249
瞋	-8.3247
和合	-8.32523
亦是	-8.33052
諸根	-8.33541
猶如	-8.33744
厭	-8.33754
曰	-8.34123
且	-8.34138
無常	-8.34182
比丘	-8.34298
師	-8.34958
障	-8.34975
世第一法	-8.35207
亦不	-8.35273
表	-8.35399
盡智	-8.35541
清淨	-8.35849
善心	-8.36175
根本	-8.36406
尋	-8.36419
究竟	-8.3656
善法	-8.36731
據	-8.36813
說名	-8.36841
)。	-8.36919
要	-8.36951
纏	-8.37033
靜慮	-8.37281
自在	-8.37942
上地	-8.38647
相應法	-8.38671
唯有	-8.38896
心所	-8.38916
香	-8.3927
等者	-8.39592
形	-8.3976
初靜慮	-8.39986
功德	-8.4005
違	-8.40093
世俗	-8.40984
所以	-8.41434
正理	-8.4159
四種	-8.42167
經說	-8.42425
并	-8.42908
有二種	-8.43489
恒	-8.43548
第一	-8.43586
子	-8.43828
妙	-8.43949
地獄	-8.44414
隨順	-8.44643
雖有	-8.44989
麁	-8.45033
陰	-8.45151
壽	-8.45199
有為	-8.45262
劣	-8.4527
辨	-8.45275
有二	-8.4578
中間	-8.46309
諸行	-8.4662
此即	-8.46793
略	-8.47238
同分	-8.47866
殺	-8.48076
問何故	-8.48092
感	-8.4811
喻	-8.48233
聖者	-8.48544
滿	-8.48876
皆是	-8.48974
豈不	-8.49652
所起	-8.49702
所生	-8.49812
小	-8.50063
癡	-8.50178
自地	-8.50584
而不	-8.50714
不知	-8.5096
福	-8.5133
此法	-8.51383
自體	-8.51415
害	-8.51594
舉	-8.51607
計	-8.51678
流	-8.51961
下地	-8.52321
足	-8.52336
《	-8.52363
不成	-8.52554
命根	-8.52733
已說	-8.52745
非想非非想處	-8.52877
彼法	-8.52897
故言	-8.534
十二	-8.53558
染污	-8.53609
論曰至	-8.54186
論云	-8.54296
向	-8.54385
未斷	-8.54467
習	-8.5465
身見	-8.54784
生死	-8.54902
作用	-8.54933
相似	-8.54953
若法	-8.54969
禪	-8.55515
諸有	-8.55545
所作	-8.55842
就	-8.55879
修道	-8.55971
遍知	-8.56149
不起	-8.56186
施設	-8.5632
三世	-8.56387
色界繫	-8.56462
化	-8.5721
女	-8.5741
或曰	-8.57654
所得	-8.57761
作如是說	-8.57852
應說	-8.57853
非餘	-8.57942
生時	-8.58395
第四靜慮	-8.58435
心心所法	-8.58692
名色	-8.58768
息	-8.5881
種子	-8.58989
長	-8.59059
巳	-8.59439
相違	-8.59798
擇滅	-8.60343
如契經說	-8.60384
業道	-8.60453
護	-8.60823
亦應	-8.61134
將	-8.61218
初禪	-8.613
增長	-8.61835
自相	-8.62045
望	-8.62045
正見	-8.62092
非得	-8.62128
聖人	-8.62335
墮	-8.62906
修所斷	-8.63005
極微	-8.63248
經部	-8.63795
說名為	-8.64168
句	-8.64268
苾芻	-8.64705
心不相應行	-8.64773
意根	-8.65047
全	-8.65224
正理論云	-8.65427
家	-8.65441
如前	-8.65754
利	-8.65769
同類	-8.6591
外道	-8.6593
可得	-8.66386
婆沙	-8.66419
去	-8.66516
為體	-8.66782
所餘	-8.67275
又解	-8.67529
減	-8.67577
細	-8.67693
有三	-8.67701
德	-8.67801
契經	-8.67893
似	-8.67939
論主	-8.68238
緣起	-8.68652
度	-8.6867
世俗智	-8.68748
僧	-8.68902
前後	-8.69079
衣	-8.69116
已生	-8.69421
離欲	-8.69484
等流	-8.69496
身中	-8.69524
部	-8.69595
微	-8.69678
如前說	-8.69913
作意	-8.69991
生故	-8.70198
命終	-8.70787
謂彼	-8.71213
亦無	-8.7136
不見	-8.7172
阿毘達磨	-8.72699
十一	-8.72856
復有	-8.73219
虛空	-8.7344
非有	-8.73639
等無間緣	-8.73801
若言	-8.73808
著	-8.73822
樂受	-8.73879
漏	-8.74035
誰	-8.74149
不淨	-8.74162
動	-8.74242
現觀	-8.74341
字	-8.74354
往	-8.74551
罪	-8.74569
述	-8.747
辯	-8.74725
無想	-8.75314
能緣	-8.75602
各別	-8.75641
未得	-8.75927
速	-8.76121
猶	-8.7614
若依	-8.76305
何等	-8.76341
白	-8.76502
山	-8.76522
頗有	-8.76546
熟	-8.76725
彼說	-8.76784
此論	-8.7682
劫	-8.76983
不斷	-8.77109
已斷	-8.77252
樂根	-8.77407
因果	-8.77567
無別	-8.77611
顛倒	-8.77642
諸餘	-8.77743
解脫道	-8.77858
有四	-8.77997
邪	-8.78107
若無	-8.78209
記	-8.78281
具足	-8.78285
不名	-8.78399
簡	-8.78576
了	-8.78757
愚	-8.78813
治	-8.79014
漸	-8.79025
頗	-8.7924
已得	-8.79313
謂於	-8.79456
屬	-8.79661
若謂	-8.79797
有作是說	-8.79853
展轉	-8.79941
五根	-8.79963
蓋	-8.79969
光	-8.80006
現在前時	-8.80256
苦智	-8.80452
未生	-8.80538
此說	-8.80792
譬如	-8.81182
實有	-8.81226
無所有處	-8.81453
第六	-8.8148
等智	-8.815
假	-8.81592
親	-8.81608
功能	-8.8161
恚	-8.81626
不與	-8.82017
離染	-8.827
五種	-8.82886
四蘊	-8.8356
種類	-8.83848
聲聞	-8.83854
過去未來	-8.83993
苦諦	-8.84088
念住	-8.8441
止	-8.84425
容	-8.84478
若於	-8.84911
說為	-8.84987
所引	-8.85016
可知	-8.85265
一分	-8.85299
竟	-8.85466
二者	-8.85651
五識	-8.85771
圓滿	-8.85943
願	-8.85944
色等	-8.86263
無間道	-8.86421
覆	-8.86586
若說	-8.86621
最	-8.86829
日	-8.87055
類智	-8.8728
瞋恚	-8.87323
若人	-8.87503
勝解	-8.8786
永斷	-8.87903
一者	-8.88121
眼等	-8.88419
能令	-8.88421
遠離	-8.88452
寂靜	-8.88557
不共	-8.88639
乃	-8.88684
第二靜慮	-8.8869
有頂	-8.88698
有異	-8.8883
非是	-8.8893
若以	-8.89193
怖	-8.89312
沒	-8.89707
尊者	-8.89833
無覆無記	-8.89862
廣說	-8.9018
現行	-8.90188
母	-8.90458
心心所	-8.90694
最後	-8.90771
此云	-8.90978
無色界繫	-8.91151
復次若	-8.9118
三昧	-8.91222
果故	-8.91228
觀察	-8.91684
十六	-8.91698
。】「	-8.91897
能起	-8.92202
隨轉	-8.92305
居	-8.92346
憂根	-8.92464
見苦所斷	-8.92589
有餘	-8.92663
勢力	-8.92706
第五	-8.92902
見取	-8.93051
皆有	-8.93194
兩	-8.93246
。」【	-8.93259
身根	-8.93392
能為	-8.93644
而生	-8.9375
兼	-8.93927
雜	-8.94196
像	-8.94198
俱起	-8.94273
痛	-8.94408
輕	-8.94498
亦然	-8.94612
此三	-8.94777
諸煩惱	-8.94986
現見	-8.9499
樹	-8.95082
生者	-8.95355
此定	-8.95464
慈	-8.95668
喜根	-8.95732
耳	-8.96116
無漏法	-8.96335
行者	-8.96458
或有說者	-8.9651
等持	-8.96603
遍行	-8.9679
由彼	-8.96828
易	-8.96996
謂除	-8.97171
前說	-8.97283
稱	-8.97332
好	-8.97472
阿羅漢果	-8.97866
不動	-8.9787
應作是說	-8.98277
曾	-8.98295
頂	-8.98391
第三靜慮	-8.98456
威儀	-8.98504
若不	-8.98845
修習	-8.99195
憂	-8.9921
亦得	-8.99259
無相	-8.99381
最勝	-8.99609
得果	-8.99676
半	-8.9973
而非	-9.00136
宗	-9.00398
沙門	-9.00506
精進	-9.00523
異熟果	-9.0061
修斷	-9.00809
此義	-9.0088
長養	-9.00935
及餘	-9.00989
答有	-9.01029
有為法	-9.01173
道諦	-9.01755
受等	-9.02076
悲	-9.02373
謂此	-9.02422
一向	-9.02529
散	-9.02799
有色	-9.02966
十八界	-9.03048
起故	-9.03118
法故	-9.03288
眾同分	-9.03362
意業	-9.03563
上界	-9.03586
熱	-9.03603
藏	-9.03968
一時	-9.0405
勝義	-9.04721
受生	-9.04722
有學	-9.0474
病	-9.04797
問若	-9.05232
被	-9.05441
一識識	-9.05544
應言	-9.05774
應知亦爾	-9.05785
十八	-9.05788
並	-9.05836
開	-9.05838
五陰	-9.05889
婆羅門	-9.06141
隨增	-9.06148
問若爾	-9.06242
非學非無學	-9.06424
從此	-9.06454
非擇滅	-9.06593
四諦	-9.066
所斷	-9.06691
貪等	-9.07108
為性	-9.07117
同類因	-9.07134
無願	-9.07148
初定	-9.07297
評曰	-9.07998
能斷	-9.08034
前生	-9.08218
即此	-9.08374
真	-9.08394
別有	-9.08408
諸天	-9.08572
伏	-9.08609
煖	-9.09011
如是等	-9.09294
無生智	-9.0936
處所	-9.09613
深	-9.09658
主	-9.09807
不言	-9.10134
伺	-9.10266
性故	-9.10494
如人	-9.10568
自身	-9.10654
為境	-9.10694
等無間	-9.10735
惡趣	-9.10844
無邊	-9.10949
空無邊處	-9.10991
:「	-9.11197
尋伺	-9.11294
三摩地	-9.1132
獨	-9.11372
離繫	-9.11582
心所法	-9.11729
此經	-9.11836
雖無	-9.11863
垢	-9.11885
謗	-9.12016
塵	-9.12076
准	-9.1209
豈	-9.12318
依止	-9.12428
越	-9.12557
近分	-9.12626
器	-9.12649
弟子	-9.12715
手	-9.12824
見斷	-9.1299
能引	-9.13049
不退	-9.13289
造色	-9.13428
唯是	-9.13486
凡夫	-9.1368
不然	-9.13919
強	-9.14107
顯示	-9.14119
己	-9.14199
加	-9.14306
有三種	-9.14345
平等	-9.1457
滅定	-9.14692
覺支	-9.14751
所造	-9.14885
一剎那	-9.14989
二定	-9.15058
唯說	-9.15349
礙	-9.15369
無想定	-9.15569
亦說	-9.15592
般涅槃	-9.15593
憶	-9.15627
一切法	-9.15652
況	-9.15658
財	-9.15678
不緣	-9.15684
勿	-9.15835
義故	-9.15926
獨覺	-9.15944
惡作	-9.15982
爾	-9.15989
十二處	-9.16017
答應作四句	-9.1616
而得	-9.16215
有漏無漏	-9.16326
亦能	-9.1648
不作	-9.16558
闕	-9.16567
苦受	-9.16896
損	-9.16932
隨其所應	-9.16977
苦集	-9.16993
等至	-9.17211
飲食	-9.17362
空處	-9.1739
為緣	-9.17393
思惟斷	-9.17447
出家	-9.17612
輪	-9.17629
眠	-9.17731
戒禁取	-9.17771
同時	-9.17775
皆名	-9.17793
青	-9.17852
故立	-9.17886
所言	-9.17953
有身見	-9.17956
餘法	-9.1803
已滅	-9.18149
受用	-9.18181
謂欲界	-9.18202
法界	-9.18354
悔	-9.18384
不立	-9.18464
染心	-9.18518
佛說	-9.18675
滅智	-9.18802
進	-9.19096
見道所斷	-9.1911
但說	-9.19215
影	-9.19305
後起	-9.19446
安住	-9.1948
羅	-9.19767
等起	-9.19791
所行	-9.19852
生欲界	-9.1993
未知智	-9.19935
一種	-9.20024
敬	-9.20141
段食	-9.20228
變	-9.20245
鼻	-9.20305
能知	-9.20467
安	-9.20522
而說	-9.20662
謂諸	-9.20846
超	-9.20852
寶	-9.21035
但由	-9.21134
無我	-9.21305
迦	-9.21322
而有	-9.21334
不為	-9.21553
見所斷	-9.21598
總名	-9.21658
故無	-9.21739
所謂	-9.21762
國	-9.22059
或復	-9.22084
男	-9.2212
准此	-9.22191
此中說	-9.22318
問此	-9.22486
彼一切	-9.225
不繫	-9.22641
異熟因	-9.22645
意樂	-9.22647
是故說	-9.22775
是則	-9.22836
以彼	-9.22874
。《	-9.2304
悉	-9.23058
乘	-9.23176
俱有	-9.23226
棄	-9.23275
色處	-9.2335
不攝	-9.23362
正法	-9.23392
夜	-9.2348
語業	-9.2351
不修	-9.23528
勤	-9.23578
須	-9.23589
而起	-9.23697
一心	-9.23757
不淨觀	-9.23852
苦法忍	-9.23864
位中	-9.23981
諸蘊	-9.24034
為顯	-9.24036
故作是說	-9.24045
對法	-9.2408
別故	-9.24122
惱	-9.24208
老死	-9.24397
苦根	-9.24893
凡夫人	-9.24916
十四	-9.24991
諸色	-9.25029
象	-9.25109
五部	-9.25134
有法	-9.25276
有一	-9.25331
歸	-9.25426
廣說乃至	-9.25509
惡行	-9.25571
我見	-9.25617
果報	-9.25645
此釋	-9.25668
口	-9.25684
例	-9.25814
能作	-9.25845
終	-9.25862
入正性離生	-9.26175
善業	-9.26193
欲令	-9.26216
答也	-9.26282
如是說者	-9.2655
輕安	-9.26631
二十	-9.26742
意界	-9.26896
生得	-9.2709
同一	-9.27109
未至	-9.27307
有時	-9.27605
如世尊說	-9.27626
緣識	-9.27765
非無	-9.27924
那	-9.27932
因故	-9.2815
路	-9.28166
間	-9.28171
十五	-9.28213
此文	-9.28235
諸有情	-9.28251
即彼	-9.28381
於欲界	-9.2853
無記心	-9.28564
舌	-9.28709
能作因	-9.28741
月	-9.2885
若成就	-9.28929
於諸	-9.2893
摩	-9.29093
燒	-9.29133
置	-9.29275
身識	-9.29319
見諦	-9.29344
最初	-9.29347
不捨	-9.29368
無知	-9.29461
是時	-9.29496
說一切有部	-9.29631
如實知	-9.29855
亂	-9.29937
有別	-9.29996
答言	-9.30122
智慧	-9.30169
四句	-9.30196
欣	-9.30252
所見	-9.30285
猛利	-9.30343
立為	-9.3051
大毘婆沙	-9.30545
一法	-9.30592
四靜慮	-9.30669
倒	-9.30951
故非	-9.31109
應無	-9.31156
增上緣	-9.31205
永	-9.31219
天眼	-9.31219
比智	-9.31225
所修	-9.31355
以此	-9.31407
四禪	-9.31505
種性	-9.31667
待	-9.31673
不許	-9.31678
經言	-9.31832
此四	-9.31844
有四種	-9.31866
不受	-9.31942
彼成就	-9.32242
有報	-9.32284
親近	-9.32355
空三昧	-9.32484
過失	-9.32518
此智	-9.32539
目	-9.32563
不律儀	-9.32651
答如是	-9.3279
不還果	-9.32897
生有	-9.32902
怨	-9.32998
化生	-9.33004
此言	-9.33017
一類	-9.33108
第八	-9.33202
現起	-9.33238
能造	-9.33337
俱時	-9.33355
斯	-9.33368
闇	-9.33624
有漏法	-9.33703
處中	-9.33815
身業	-9.33826
無漏道	-9.33846
出離	-9.33881
此人	-9.34111
非我	-9.34187
我等	-9.34434
欲色界	-9.34566
總說	-9.34615
牛	-9.3467
知他人心智	-9.34843
轉故	-9.34872
依此	-9.35466
智者	-9.35482
非色	-9.35522
百	-9.35586
助	-9.35658
有五	-9.35678
色蘊	-9.36051
以何等故	-9.36092
不善心	-9.36312
第四禪	-9.36354
預流果	-9.36417
俱有因	-9.3642
得解脫	-9.36421
殺生	-9.36504
見道斷	-9.36565
見苦斷	-9.36675
田	-9.36706
不還	-9.36894
續	-9.37047
所造色	-9.37061
九品	-9.37066
六處	-9.37135
得生	-9.3735
識住	-9.37577
信等五根	-9.37717
第七	-9.37794
佛世尊	-9.37796
睡眠	-9.37817
招	-9.37834
真實	-9.37858
識無邊處	-9.37883
眼界	-9.38152
容有	-9.38402
與彼	-9.38447
眷屬	-9.387
眾多	-9.38819
益	-9.38901
安立	-9.38939
相故	-9.39009
增益	-9.39098
獲	-9.39117
勝故	-9.3928
二明	-9.3936
非因	-9.39372
非常	-9.39415
力故	-9.39518
滅盡定	-9.39733
隨一	-9.39793
供養	-9.39804
老	-9.39917
何者	-9.39936
為一	-9.39957
得阿羅漢果	-9.39979
凡	-9.40094
未來現在	-9.40103
有部	-9.4011
婆	-9.40144
前二	-9.40368
所知	-9.40417
非聖	-9.40441
上品	-9.40642
無餘	-9.40653
見集所斷	-9.4068
大地	-9.40728
而無	-9.40782
穢	-9.40893
作是說	-9.4106
問也	-9.41317
故作斯論	-9.41359
士用果	-9.41364
欲貪	-9.41565
彼亦如是	-9.41586
憶念	-9.41649
頭	-9.41742
依身	-9.41832
為同類因	-9.41873
是也	-9.42143
法處	-9.42231
事故	-9.42377
別說	-9.42498
如彼	-9.425
是說	-9.42578
海	-9.42651
障礙	-9.42732
內外	-9.42759
去來	-9.42837
不復	-9.43195
等故	-9.43209
此心	-9.43364
亦復如是	-9.4351
尊	-9.43531
等流果	-9.43533
他心	-9.43568
梵志	-9.43668
如次	-9.4372
說法	-9.44183
高	-9.44196
沙門果	-9.44268
非唯	-9.44335
無為法	-9.44345
此業	-9.44533
千	-9.44547
與果	-9.44579
制	-9.44797
有對	-9.44984
上下	-9.45048
父母	-9.45119
為依	-9.45136
若得	-9.45179
異生性	-9.45431
慚	-9.45457
令心	-9.45524
異故	-9.45569
理實	-9.45729
一處	-9.45821
入定	-9.45877
犯	-9.46049
有何差別	-9.46077
已知根	-9.4617
體性	-9.46236
六識	-9.46286
骨	-9.46358
諸佛	-9.46429
花	-9.46432
中無	-9.46458
靜	-9.46464
不善法	-9.46498
若然者	-9.46543
三明	-9.46556
陀	-9.46637
須陀洹	-9.46761
三根	-9.46855
則有	-9.46855
身語業	-9.46987
過患	-9.47018
不現在前	-9.47044
餘處	-9.47422
年	-9.47448
必無	-9.47457
生無色界	-9.47661
必有	-9.47962
金	-9.4811
攝故	-9.48135
不離	-9.48184
輪王	-9.48232
無慚	-9.48418
黑	-9.4849
作因	-9.48662
上流	-9.48707
有何	-9.48736
調	-9.48748
法中	-9.48765
色無色	-9.48801
一明	-9.48861
苦法智忍	-9.49018
願智	-9.49161
光明	-9.49202
遂	-9.49227
前三	-9.49315
增上果	-9.49331
無心	-9.49402
五趣	-9.49568
是善	-9.49604
善不善	-9.49631
此亦	-9.49674
若心	-9.49823
唯一	-9.50012
境故	-9.50176
又如	-9.50237
共相	-9.50345
諸結	-9.50391
修行	-9.50514
既無	-9.50539
九地	-9.50663
識處	-9.50692
能感	-9.50813
異熟生	-9.5082
無漏緣	-9.50847
標	-9.50847
軟	-9.50863
緣緣識	-9.50872
云何非	-9.50895
濁	-9.50931
必定	-9.50932
在欲界	-9.51035
傳	-9.51068
責	-9.51101
救	-9.51169
無礙	-9.51312
轉變	-9.51455
說有	-9.51479
堅	-9.51573
證得	-9.5163
彼得	-9.51664
不善根	-9.51813
中陰	-9.52055
而住	-9.52234
掉舉	-9.52318
面	-9.52363
後生	-9.52477
養	-9.52551
善惡	-9.52556
問何故作此論	-9.52619
滅諦	-9.52697
愛結	-9.52801
正受	-9.52847
微細	-9.52919
神	-9.52937
貪欲	-9.52939
有緣	-9.53001
菩提	-9.53137
無因	-9.53142
父	-9.53181
則無	-9.53229
法念住	-9.53384
昔	-9.53418
此名	-9.53432
身心	-9.5345
章	-9.53522
染污心	-9.53626
所不攝	-9.53665
生已	-9.5371
梵	-9.53711
方得	-9.53946
以為	-9.53965
十三	-9.54005
互相	-9.54182
有覆無記	-9.54262
坐	-9.54302
惡戒	-9.54341
經中	-9.5445
反	-9.54511
是名非	-9.54585
答彼	-9.5478
讚	-9.54964
方能	-9.55102
聖種	-9.55144
掉	-9.55222
四相	-9.55297
生滅	-9.55307
脫	-9.5532
城	-9.5533
迷	-9.55365
故曰	-9.55378
此身	-9.55448
有差別故	-9.555
尚	-9.55674
殊勝	-9.55695
無漏智	-9.55704
已上論文	-9.55713
作是念	-9.55747
自然	-9.55804
此事	-9.55849
斷故	-9.55891
所成	-9.55917
唯緣	-9.55945
各有	-9.55948
心王	-9.55951
但言	-9.56025
誦	-9.56072
於他	-9.5608
妙行	-9.56125
世尊說	-9.56162
心心數法	-9.56328
於餘	-9.56346
發起	-9.56362
述曰此	-9.56392
後有	-9.56397
苦樂	-9.56397
始	-9.56537
壽量	-9.56547
略說	-9.56622
勝處	-9.56715
斷惑	-9.56739
女人	-9.56978
迴轉	-9.57097
不失	-9.57195
出世	-9.573
請	-9.57311
練根	-9.57311
是彼	-9.57335
味相應	-9.57336
五見	-9.5736
未來世	-9.57414
歸依	-9.57482
久	-9.57497
然後	-9.57501
頓	-9.57597
阿難	-9.57612
則應	-9.57806
或說	-9.58285
是故不說	-9.58392
有六	-9.58406
如所說	-9.58451
滅道	-9.58464
三十六	-9.58475
告	-9.58634
大悲	-9.58683
喜樂	-9.58698
夫	-9.58702
盜	-9.58936
何因	-9.58946
聖教	-9.58971
學心	-9.59049
彼非	-9.5915
復說	-9.59192
所受	-9.5932
一切眾生	-9.59374
暫	-9.59449
色陰	-9.59629
心等	-9.59727
諍	-9.59736
能持	-9.59813
雖復	-9.59959
情	-9.59987
翻	-9.59995
能治	-9.60041
遇	-9.60072
集智	-9.60219
隨眠隨增	-9.60313
所立	-9.6034
無色定	-9.60398
三結	-9.60424
俗	-9.60574
達	-9.60619
恐	-9.6069
六識識	-9.6071
一來果	-9.60742
尼	-9.60772
謂若	-9.60842
是無記	-9.60844
勝進	-9.60874
金剛喻定	-9.60938
不依	-9.61088
龍	-9.61102
一切皆	-9.61126
若生	-9.61192
短	-9.61238
超越	-9.61252
表業	-9.61453
無想天	-9.6147
生等	-9.61483
我所	-9.61485
第九	-9.61503
利根	-9.61505
而言	-9.61628
河	-9.61819
一切有情	-9.61905
數數	-9.61945
見結	-9.61958
我今	-9.61982
照	-9.61996
今當說	-9.62015
次第生	-9.62154
此明	-9.6218
後二	-9.62233
身受	-9.62319
飲	-9.62449
寧	-9.62527
棄捨	-9.62541
遊	-9.62706
興	-9.62762
得非擇滅	-9.62789
斷煩惱	-9.62834
入胎	-9.62889
心法	-9.62913
歡喜	-9.62931
二禪	-9.6294
捨根	-9.63043
得正決定	-9.63063
應有	-9.63234
後說	-9.63331
諸業	-9.63334
又彼	-9.63379
無諍	-9.63388
漸次	-9.63436
無上	-9.63552
燈	-9.63632
於境	-9.63719
四大種	-9.63882
會	-9.63885
嗔	-9.63933
指	-9.63943
未來修	-9.64088
應名	-9.64118
或時	-9.64146
又云	-9.64369
執我	-9.64432
妄	-9.64638
多分	-9.64793
鬼	-9.64834
世俗道	-9.65006
復次以	-9.65014
餘三	-9.65047
斷善根	-9.65059
便有	-9.65099
答無	-9.65118
後三	-9.65159
大種所造	-9.65163
別相	-9.6518
都無	-9.6524
更無	-9.65403
三品	-9.65604
立名	-9.65789
正念	-9.6587
姓	-9.65886
舍	-9.65889
彼地	-9.65962
俱舍	-9.65976
退法	-9.66082
先說	-9.66115
勸	-9.66118
明知	-9.66126
至得	-9.66329
二根	-9.66346
愚癡	-9.66418
何所	-9.66487
過去未來現在	-9.6649
五百	-9.6662
多少	-9.66634
故不名	-9.66727
之所	-9.66745
偏	-9.66758
六種	-9.66817
有多	-9.66844
三禪	-9.66872
逆	-9.66922
過去現在	-9.66999
互	-9.67226
若作是說	-9.67303
受持	-9.67347
若是	-9.67365
無間生	-9.67445
行蘊	-9.67452
業果	-9.67486
應成	-9.67656
三業	-9.67665
謂善	-9.67675
引生	-9.67683
有差別	-9.67821
一切應分別	-9.67892
隨煩惱	-9.67894
為名	-9.68027
分明	-9.68064
相應因	-9.68093
說曰	-9.68106
異類	-9.68395
毒	-9.68507
所緣緣	-9.68518
緣欲界	-9.68561
二智	-9.68562
十九	-9.68565
生處	-9.68586
人中	-9.68707
名曰	-9.68738
二界	-9.68745
四聖諦	-9.68787
預流	-9.68788
上座	-9.68981
舊	-9.69223
四無色	-9.69313
不由	-9.69328
聚中	-9.69337
顯色	-9.69456
近事	-9.69627
遍處	-9.69672
能取	-9.69681
如其次第	-9.69704
可愛	-9.69731
畢竟	-9.69851
由斯	-9.69915
無所	-9.69964
未盡	-9.69989
一生	-9.70149
非理	-9.70158
皆得	-9.70301
入出息	-9.70308
阿毘曇	-9.70374
緣故	-9.70473
不行	-9.70541
能見	-9.70608
婬	-9.70762
諸惑	-9.70763
彼亦	-9.70856
是我	-9.70939
成立	-9.70998
正思惟	-9.71072
無愧	-9.7108
現世	-9.71191
馬	-9.71241
能了別	-9.71372
如實	-9.71389
無畏	-9.71393
若業	-9.714
其體	-9.71431
第三禪	-9.71449
不住	-9.71486
彼無	-9.71519
於前	-9.71624
有人	-9.71679
石	-9.71699
定有	-9.71863
邊見	-9.72019
皆能	-9.72037
聚集	-9.72158
汝等	-9.72316
無學心	-9.72365
虛誑語	-9.72527
晝	-9.72621
無智	-9.7279
隨行	-9.72901
此復云何	-9.72903
阿	-9.7293
歿	-9.72949
非業	-9.72984
漏盡	-9.73082
戒取	-9.73254
是苦	-9.73278
疾	-9.73289
別立	-9.73298
及與	-9.73335
變壞	-9.7345
作四句	-9.73524
得故	-9.73571
不樂	-9.73584
彼於	-9.73586
耳識	-9.73694
道支	-9.73725
六因	-9.73772
無也	-9.73775
四緣	-9.73876
二緣	-9.74032
若不爾者	-9.74105
彼心	-9.74124
四念住	-9.74176
枝	-9.7418
修道所斷	-9.74216
就中	-9.74266
五識身	-9.74298
阿那含	-9.74326
但是	-9.74342
復次此	-9.7435
等三	-9.74477
隱	-9.74526
徵	-9.74581
慳	-9.7481
難也	-9.74843
異相	-9.74856
此非	-9.74884
明了	-9.74895
若彼	-9.74924
世界	-9.74933
無常想	-9.7497
正知	-9.74977
非見	-9.74983
已下	-9.74992
道類智	-9.75044
然彼	-9.75048
後時	-9.75136
自界	-9.7522
愧	-9.75236
無容	-9.7527
流轉	-9.75292
如文可解	-9.75336
無學法	-9.75406
二處	-9.75457
生因	-9.75468
如比丘	-9.7549
答諸	-9.75535
身證	-9.75556
恭敬	-9.75636
有因	-9.75652
二因	-9.75704
本論	-9.75744
第四句	-9.75802
起時	-9.75866
生起	-9.75912
傍生	-9.75926
一果	-9.76053
化心	-9.76062
覺分	-9.7617
十七	-9.7623
惡業	-9.76239
見滅所斷	-9.76242
此地	-9.76266
如理	-9.76309
生於	-9.76328
從彼	-9.76429
故正理云	-9.76708
殊	-9.76748
無貪	-9.76751
宮	-9.76762
與此相違	-9.76793
我當	-9.76848
相應故	-9.76876
是何	-9.76899
諸地	-9.769
為自性	-9.76939
亦通	-9.77017
須陀洹果	-9.77165
為是	-9.77175
造作	-9.77199
尸羅	-9.77212
無礙道	-9.77299
慧解脫	-9.77362
為我	-9.77364
無對	-9.77494
又說	-9.77546
謂從	-9.77682
是不善	-9.77756
不壞	-9.77904
無漏心	-9.77983
藥	-9.77984
見至	-9.78017
了別	-9.78061
不具	-9.78075
俱行	-9.78118
遍行因	-9.78169
了知	-9.78208
但有	-9.78235
鈍	-9.78271
道法智	-9.783
遍行隨眠	-9.78316
無異	-9.78324
無流	-9.7838
林	-9.78415
法爾	-9.78431
為先	-9.7851
誑	-9.7864
能證	-9.78683
經主	-9.78691
心不	-9.78715
上二界	-9.7876
也問	-9.78786
何故名	-9.7886
相望	-9.78882
於一	-9.78899
取果	-9.7892
復作是說	-9.78925
冷	-9.79017
又此	-9.79018
非不	-9.79066
無教	-9.79077
末	-9.7915
覺觀	-9.79172
一念	-9.79199
遣	-9.79235
二法	-9.79277
故彼	-9.79344
色入	-9.79397
三者	-9.79411
二果	-9.79516
晝夜	-9.79518
種姓	-9.79524
眼觸	-9.79545
八智	-9.79588
色無色界繫	-9.79605
順決擇分	-9.79627
二心	-9.79725
阿那含果	-9.79837
於一切	-9.79938
不淨想	-9.80041
梵行	-9.80045
色法	-9.80214
有八	-9.80285
應非	-9.80385
有漏緣	-9.80402
問何等法	-9.80457
第二句	-9.80544
不信	-9.80546
人趣	-9.80555
獲得	-9.80611
是名為	-9.80671
脩	-9.80776
死生	-9.80795
形色	-9.8088
諸所有	-9.80907
集諦	-9.80923
有幾	-9.80966
唯依	-9.8108
行陰	-9.81174
又世尊言	-9.8125
有尋有伺	-9.81253
正智	-9.81255
當生	-9.81273
草	-9.81307
時解脫	-9.81365
洲	-9.81398
無用	-9.81438
見色	-9.81447
苦法智	-9.81651
不放逸	-9.81819
第四定	-9.81838
退失	-9.81853
憍	-9.82007
無報	-9.82021
學無學	-9.8206
勢	-9.82078
當說	-9.82234
赤	-9.8225
念處	-9.82283
潤	-9.82294
若起	-9.823
作如是言	-9.82316
離繫得	-9.82324
示	-9.82352
無差別	-9.82386
為勝	-9.82411
穢污	-9.8245
生相	-9.82454
新	-9.82463
別釋	-9.82484
梵王	-9.82547
此亦如是	-9.82636
為幾緣	-9.82696
乎	-9.82909
未知當知根	-9.82966
於自	-9.83012
大師	-9.83038
神通	-9.83076
男女	-9.83153
一切煩惱	-9.83273
下品	-9.83294
一人	-9.83353
人天	-9.8342
身念住	-9.83485
三地	-9.83511
有覺有觀	-9.83585
十智	-9.83637
作者	-9.83674
留	-9.83678
刀	-9.83712
隔	-9.83747
必不	-9.83877
具壽	-9.8392
有見	-9.84001
第三句	-9.84071
廣大	-9.84205
一切使使	-9.84208
懷	-9.84263
不應說	-9.84462
中說	-9.84475
偈	-9.8448
收	-9.84534
應知此中	-9.84569
為所緣	-9.84604
撥	-9.84649
不以	-9.84692
未知根	-9.84722
眾苦	-9.84777
作業	-9.8478
愛樂	-9.84835
報法	-9.84888
或無	-9.85015
說亦如是	-9.85092
死有	-9.85138
謂前	-9.8514
增故	-9.85175
彼有	-9.85193
背	-9.85206
夢	-9.85255
薪	-9.85377
八種	-9.85388
可說	-9.85399
聖諦	-9.85471
三受	-9.85527
何法	-9.85627
我說	-9.85647
義是	-9.85684
便生	-9.85806
池	-9.8584
圓	-9.85842
續生	-9.85852
盛	-9.85893
異名	-9.85896
若作	-9.85909
調伏	-9.85913
眼見	-9.85968
定心	-9.8598
之時	-9.85992
盡無生智	-9.86064
所化	-9.8608
等見	-9.86174
未曾得	-9.86192
六根	-9.86216
應作四句	-9.86292
靜慮中間	-9.86322
隨相	-9.86406
一切處	-9.8644
極成	-9.86461
唯於	-9.86469
怖畏	-9.86501
其相	-9.8651
梵天	-9.86517
俱解脫	-9.86544
如有	-9.86554
不待	-9.86556
不染污	-9.86612
神足	-9.86878
當有	-9.87001
法入	-9.87153
現在世	-9.87195
恩	-9.8723
唯除	-9.87238
五蓋	-9.87314
無退	-9.87314
一切隨眠隨增	-9.87342
無記法	-9.87342
破僧	-9.87409
十種	-9.8748
甚	-9.87567
非受	-9.87568
謂有	-9.8758
邊際	-9.87583
體是	-9.8759
八地	-9.87674
近行	-9.87766
相應心	-9.87879
不善業	-9.87916
六地	-9.87949
眼識界	-9.88023
然此	-9.88031
諸見	-9.88201
印	-9.8829
也言	-9.88293
謂色	-9.8835
資糧	-9.88456
貪瞋癡	-9.88478
四行	-9.8852
釋也	-9.88596
時得	-9.88599
有愛	-9.88652
滅時	-9.88661
當來	-9.88732
此下	-9.88754
齊	-9.88758
道理	-9.888
何況	-9.88873
苦行	-9.88878
得名	-9.89002
意識相應	-9.89014
苾芻當知	-9.89022
又契經說	-9.89036
工巧	-9.89185
不可說	-9.89193
已辯	-9.89249
普	-9.89279
之中	-9.89357
睡	-9.8942
一地	-9.89446
取蘊	-9.89452
設成就	-9.89456
不了	-9.8953
初得	-9.89755
有七	-9.89793
放逸	-9.89807
莫	-9.8981
者何	-9.90022
除餘法	-9.90026
意處	-9.90101
第十	-9.90102
依何	-9.90159
亦名為	-9.90181
亦攝	-9.90228
差別故	-9.9026
託	-9.9027
何不	-9.90322
未來四	-9.90358
天中	-9.90388
思擇	-9.90547
第二禪	-9.90568
或依	-9.90734
不盡	-9.90846
之言	-9.90872
更有	-9.90993
首	-9.91002
妄語	-9.91024
鈍根	-9.91041
初句	-9.91043
雲	-9.91198
九種	-9.91229
對治故	-9.91314
或由	-9.91331
能發	-9.91344
不通	-9.91347
雙	-9.91358
倍	-9.91397
三不善根	-9.9141
彼人	-9.91563
善色	-9.91624
無失	-9.91674
過未	-9.91725
敘	-9.91756
迹	-9.91756
說一切有部發智	-9.91767
雖是	-9.91849
便作是念	-9.91907
經中說	-9.91958
意近行	-9.92
本有	-9.92055
盡智無生智	-9.92101
生得善	-9.92138
現在無	-9.9214
亦復	-9.92141
安隱	-9.92147
證知	-9.92157
毀	-9.92259
此五	-9.92299
或以	-9.92311
初起	-9.92317
華	-9.92331
無表色	-9.92381
初二	-9.92417
如先說	-9.92447
問答	-9.92456
非定	-9.92489
魔	-9.92562
有所	-9.92596
止息	-9.92706
攝受	-9.92777
大德	-9.9283
復次比丘	-9.92856
是無漏	-9.92894
直	-9.92901
修慧	-9.92926
除何等法	-9.92954
以是事故	-9.92996
若生色界	-9.93028
相雜	-9.93086
損減	-9.93178
所證	-9.93332
和	-9.93391
依彼	-9.93415
身行	-9.93478
四沙門果	-9.93485
非於	-9.93527
何處	-9.93541
他身	-9.93585
等法	-9.93635
正覺	-9.9371
緣彼	-9.93716
若斷	-9.93738
二義	-9.93813
二十二根	-9.93817
二生	-9.93924
更樂	-9.93925
不異	-9.93948
木	-9.93951
二俱	-9.94035
何用	-9.94135
心生	-9.94208
修所成	-9.94402
我慢	-9.94437
五地	-9.94502
畜生	-9.94561
忿	-9.94563
頌曰至	-9.94564
亦與	-9.94613
此處	-9.94634
何謂非	-9.94657
與心	-9.9466
或是	-9.94675
則不	-9.94688
六識身	-9.94722
為欲	-9.94768
此道	-9.94769
不相應行	-9.94864
不苦不樂受	-9.94943
已上	-9.94963
為正	-9.94986
已盡	-9.95054
心解脫	-9.95092
非情	-9.95119
於法	-9.95133
餘皆	-9.95179
四陰	-9.9519
此等	-9.95223
學位	-9.95241
衰	-9.95268
所繫	-9.9536
積集	-9.95389
有成就	-9.95425
百千	-9.95456
梵世	-9.95457
生色界	-9.95506
車	-9.95611
前所說	-9.95735
無欲	-9.95805
非報非報法	-9.95857
謂除前相	-9.95914
能了	-9.95945
非如	-9.95989
為說	-9.96041
畏	-9.96098
前際	-9.96171
俗智	-9.96178
無尋無伺	-9.96417
業感	-9.96487
是有為	-9.96491
為有	-9.96547
四果	-9.96551
言說	-9.96616
諸阿羅漢	-9.96653
】【	-9.9666
比	-9.96676
是色	-9.96789
極少	-9.96833
修道斷	-9.96889
生長	-9.96925
家家	-9.97105
可見	-9.97172
自下	-9.97196
名之為	-9.97216
有業	-9.97234
離染得	-9.97256
法性	-9.97409
三十三天	-9.97422
雜亂	-9.97442
染著	-9.97498
身口業	-9.97593
得成	-9.97599
故得	-9.97616
不欲	-9.97627
相續中	-9.9764
義者	-9.97646
若緣	-9.97659
餘如前說	-9.97747
無能	-9.97778
受想行識	-9.97803
問云何	-9.97841
慚愧	-9.97848
未離欲染	-9.97851
果者	-9.97962
嫉	-9.98105
黃	-9.98114
心故	-9.98121
未離	-9.98122
轉根	-9.98213
羅漢	-9.98227
若生欲界	-9.98238
唯此	-9.98362
若定	-9.98492
學法	-9.98494
假立	-9.98571
資	-9.98598
不應道理	-9.98632
如契經言	-9.98814
斷善	-9.98854
若觸	-9.98899
到	-9.98987
云何為	-9.99024
未曾	-9.99065
無漏根	-9.99089
狹	-9.99224
謂之	-9.99232
諸有情類	-9.99248
若無漏	-9.99255
得自在	-9.99344
虛	-9.99395
繫縛	-9.99406
通達	-9.99529
卵	-9.99536
無緣	-9.99539
隨信行	-9.99586
常住	-9.9965
雜染	-9.99676
受樂	-9.99693
令彼	-9.99759
簡擇	-9.99846
受者	-9.99887
九智知除滅	-9.99889
喜覺支	-9.99921
未起	-10.0007
彼作是說	-10.001
言顯	-10.0016
分位	-10.0019
所緣境	-10.0031
受報	-10.0033
廣說如上	-10.0035
言依	-10.0035
持戒	-10.0039
皆無	-10.0047
自部	-10.0048
所依身	-10.0054
不時解脫	-10.0054
者即	-10.0059
斷滅	-10.0062
疑結	-10.0063
六界	-10.0063
雨	-10.0066
即名	-10.0068
別解脫律儀	-10.007
正理云	-10.0078
此根	-10.0086
大梵	-10.0086
覺知	-10.0093
增盛	-10.0097
無異熟	-10.0097
有異熟	-10.0103
次第緣	-10.0112
決	-10.0118
諂	-10.012
書	-10.0124
一說	-10.0128
地界	-10.0137
所發	-10.0144
有餘師言	-10.0145
地中	-10.0149
積	-10.0153
心心法	-10.0166
由是	-10.0168
若據	-10.0173
惛沈	-10.0176
答若	-10.0185
為果	-10.0186
總相	-10.0189
百大阿羅漢等造三藏法師玄奘奉詔譯	-10.0195
災	-10.021
迴	-10.0215
應果	-10.0224
三無漏根	-10.0225
皆悉	-10.0228
為加行	-10.0228
今詳	-10.0228
雖不	-10.0233
色想	-10.0239
如是名為	-10.0242
七種	-10.0245
與前	-10.0246
不共無明	-10.0256
】	-10.0267
三蘊	-10.0267
具有	-10.0278
如是思惟	-10.0284
淨解脫	-10.0291
仙人	-10.0308
變異	-10.0308
缺	-10.031
亦成就	-10.0313
差別者	-10.032
能招	-10.0323
假名	-10.0323
竝	-10.0325
是有漏	-10.0331
信勝解	-10.0335
是故偏說	-10.0338
及諸	-10.0339
說言	-10.0342
契經說	-10.0347
謂依	-10.0349
一緣	-10.0354
身語	-10.0355
現有	-10.0355
上來	-10.036
其義	-10.0363
滅故	-10.0364
彼行	-10.0373
曲	-10.0376
雜修	-10.0379
等言	-10.0398
於色	-10.0407
餘四	-10.0407
有覆無記心	-10.0417
南	-10.0419
鳥	-10.0426
漸漸	-10.0436
犯戒	-10.0441
答此	-10.0442
而轉	-10.0445
有退	-10.0447
焰	-10.046
餘二	-10.0471
頌中	-10.0483
能憶	-10.0487
轉輪王	-10.0489
唯在	-10.0492
悅	-10.0516
不善無記	-10.0518
定中	-10.0521
生彼	-10.0521
以諸	-10.0525
加行善	-10.054
即以	-10.0542
一劫	-10.0543
患	-10.0547
彼經	-10.0548
自他	-10.0548
設有	-10.0552
一切遍	-10.0559
不取	-10.0562
純	-10.0563
從此第二	-10.0563
有用	-10.057
餓鬼	-10.057
無執受	-10.0572
實義	-10.0574
薄	-10.0588
勝果道	-10.0592
於我	-10.0598
勢用	-10.06
濕	-10.061
習智	-10.0622
定無	-10.0624
曾得	-10.0636
是因	-10.0638
希求	-10.0641
惡不善法	-10.0645
相應無明	-10.0646
或非	-10.0647
禮	-10.0654
不遍	-10.0676
見苦	-10.0677
若智	-10.0681
意行	-10.0687
視	-10.0687
今此	-10.0688
守護	-10.0688
非實	-10.069
修定	-10.0699
久住	-10.0711
有五種	-10.0716
為等無間	-10.0726
是故彼	-10.0727
是其	-10.0728
有非	-10.0729
佛經說	-10.0735
八智知除滅	-10.0741
可意	-10.0742
然非	-10.0745
疏	-10.0746
與餘	-10.075
業力	-10.0755
擇	-10.0769
已知	-10.0773
地等	-10.0776
善行	-10.0777
此見	-10.0777
彼根	-10.0778
能障	-10.0779
可爾	-10.078
是常	-10.0782
知見	-10.0785
彼不	-10.0785
無學道	-10.0787
波	-10.0791
尊者舍利弗	-10.0792
應許	-10.0802
布施	-10.0808
初禪地	-10.0808
變化心	-10.0826
謂佛	-10.0828
我執	-10.0836
能依	-10.0837
欲界中	-10.0842
酒	-10.0844
生天	-10.0858
同故	-10.0864
無生	-10.0869
不相離	-10.0876
正理論	-10.0878
毘	-10.0881
習氣	-10.0883
意入	-10.0888
三定	-10.0888
三藏	-10.0892
通果心	-10.0893
聽	-10.0895
遲	-10.0895
饒益	-10.0901
誹謗	-10.0904
佛教	-10.0911
言無	-10.0913
傍	-10.0915
已離欲染	-10.0917
劣故	-10.0917
五因	-10.0932
常見	-10.0934
五支	-10.0937
三緣	-10.0939
二人	-10.0941
都	-10.0941
壽命	-10.0949
義也	-10.0954
見滅斷	-10.0955
斷結	-10.0956
起者	-10.0966
爾所	-10.0966
方名	-10.0968
幾根	-10.0977
一行	-10.098
雖非	-10.0982
律	-10.0989
依處	-10.0992
釋云	-10.0992
長者	-10.0995
無過	-10.1001
女根	-10.1003
非一切	-10.1004
心相應	-10.1004
擇法	-10.1006
苦聖諦	-10.1007
一品	-10.1011
即便	-10.1016
色愛盡	-10.1018
相應耶	-10.1023
喜足	-10.1024
作如是	-10.1027
但緣	-10.1029
八解脫	-10.1035
現在一	-10.1037
皆通	-10.1042
六入	-10.1042
唯修所斷	-10.1043
毘婆沙師	-10.1053
未來法	-10.1055
忍智	-10.1056
是人	-10.1059
有心	-10.1061
既言	-10.1066
別明	-10.1077
七日	-10.1078
不隱沒無記	-10.1079
故應	-10.1092
命者	-10.1094
無所有	-10.1097
能滅	-10.1098
彼宗	-10.1104
釋頌	-10.1106
雜穢語	-10.1107
品類	-10.1107
專	-10.1116
而不說者	-10.1117
而作此論	-10.1119
葉	-10.112
業異熟	-10.1121
以是故	-10.1125
作是言	-10.1125
二形	-10.1127
天上	-10.1135
眼入	-10.1137
令其	-10.114
不生法	-10.1144
不染無知	-10.1145
非心	-10.115
全無	-10.1156
謂由	-10.1156
聖法	-10.1157
二十二	-10.1169
莊嚴	-10.1169
惠	-10.1171
謂欲界繫	-10.1178
不相應法	-10.1182
頌言	-10.119
無礙解	-10.1198
段	-10.1201
誰成就	-10.1209
不可得	-10.1215
撥無	-10.1218
厭離	-10.1221
先起	-10.1233
總緣	-10.1239
有執受	-10.1239
三因	-10.1256
對治道	-10.1258
於苦	-10.1258
不可見	-10.1265
香味	-10.1272
但名	-10.1275
懈怠	-10.1279
男根	-10.1279
鐵	-10.1279
是有	-10.1283
無故	-10.1284
惡道	-10.129
麤	-10.1291
淨無漏	-10.1293
善等	-10.1298
受蘊	-10.13
微妙	-10.1302
出要	-10.1303
質	-10.1309
所應	-10.1312
得涅槃	-10.1314
謂生欲界	-10.1325
導	-10.1325
為遮	-10.133
猶豫	-10.1334
彼定	-10.1335
無學正見	-10.1347
能得	-10.1356
無漏慧	-10.1358
欲顯	-10.1359
所執	-10.1364
根本地	-10.1365
士	-10.1371
我於	-10.1374
無見	-10.1374
福業	-10.138
大地法	-10.139
彼作是念	-10.1393
天趣	-10.1395
名身	-10.1395
五取蘊	-10.1401
能離	-10.1401
為令	-10.1402
隨法行	-10.1403
八根	-10.1404
非異熟	-10.1407
慧根	-10.1415
結盡	-10.1416
相違故	-10.1445
是以	-10.1457
於後	-10.1461
緣色	-10.1461
契經中說	-10.1467
造業	-10.1471
前四	-10.1483
所取	-10.1487
無二	-10.1497
於所緣	-10.1498
是何義	-10.1502
所長養	-10.1511
具知根	-10.1515
佛告	-10.1518
有勝	-10.1519
無慚無愧	-10.1519
別解脫	-10.1521
入見道	-10.1525
勝劣	-10.1525
同前	-10.1526
難可	-10.154
捨受	-10.154
道故	-10.1545
初剎那	-10.1549
邪命	-10.1551
體非	-10.1552
盡故	-10.1556
土	-10.1557
別者	-10.1557
賢聖	-10.1558
冥	-10.1569
有殊	-10.1571
渴	-10.1572
瓶	-10.1588
正定	-10.1589
近住	-10.1591
名也	-10.1596
結使	-10.1603
等事	-10.1608
其義云何	-10.1608
如前釋	-10.1614
隨應	-10.162
麁細	-10.1622
賊	-10.163
唯取	-10.163
俱轉	-10.1631
親友	-10.1631
學者	-10.1632
列	-10.1632
其中	-10.1634
見苦集所斷	-10.1635
一界	-10.1635
信根	-10.1637
復言	-10.1639
有流	-10.1642
肉	-10.1643
起欲	-10.1654
傳說	-10.166
餘地	-10.1665
隨心轉	-10.1678
可言	-10.1683
斯陀含果	-10.1685
飢	-10.1688
堅固	-10.1694
際	-10.1694
滅者	-10.1713
愛盡	-10.1719
空界	-10.1721
問彼	-10.1731
判	-10.1731
何以	-10.1731
一由	-10.1736
理亦不然	-10.1748
節	-10.1759
一切地	-10.1759
舍利子	-10.1763
見道中	-10.1768
根者	-10.1789
縷	-10.1789
謂欲	-10.179
寬	-10.1791
牽	-10.1792
引起	-10.1792
又問	-10.1792
已起	-10.1793
諸心	-10.1795
顯了	-10.1802
三性	-10.1805
信等	-10.1805
存	-10.181
有為緣	-10.1811
善取法相善思惟善解	-10.1812
非法	-10.1814
成故	-10.1815
熏	-10.1815
如是乃至	-10.1816
順正理論	-10.1816
謂心	-10.182
香等	-10.1824
有情居	-10.1824
令他	-10.1826
應是	-10.1826
法相	-10.1827
引發	-10.1843
功用	-10.1844
彼尊者	-10.185
散亂	-10.1856
答以	-10.1858
皮	-10.1862
未滅	-10.1868
威儀路	-10.1872
於佛	-10.1873
有如是	-10.1874
端嚴	-10.1878
二地	-10.1879
不順	-10.1881
非緣	-10.1882
滅盡	-10.1884
十智知	-10.1888
此因	-10.1889
故說為	-10.189
芽	-10.1891
自類	-10.1892
其心	-10.1892
欲愛	-10.1893
非遍行	-10.1894
周	-10.1895
有四句	-10.1899
無覆	-10.1905
凡夫性	-10.1913
但依	-10.1915
已辨	-10.1921
法念處	-10.1925
失念	-10.1927
邪智	-10.1931
曾聞	-10.1934
為止	-10.1938
若有漏	-10.1938
防護	-10.1942
受苦	-10.1945
福田	-10.1948
非無漏	-10.1952
前五	-10.1964
如前所說	-10.1968
尊重	-10.1976
定成	-10.1977
四無量	-10.198
沙	-10.1983
以無	-10.1984
學處	-10.1986
牒	-10.1987
防	-10.1997
學人	-10.1997
四大造	-10.1998
而能	-10.1999
簡別	-10.2004
他人	-10.2009
有果	-10.2027
拔	-10.2035
得定	-10.2037
猶有	-10.2043
還生	-10.2046
之法	-10.2048
氣	-10.2054
色身	-10.2057
退時	-10.2057
若先	-10.2059
諸得	-10.2067
問何故名	-10.2073
若執	-10.2073
四智	-10.2076
又若	-10.2077
意說	-10.2077
謂三界	-10.208
薩婆多	-10.2084
可有	-10.2092
風界	-10.2095
等四	-10.211
化作	-10.2113
餘煩惱	-10.2114
牟尼	-10.2115
別緣	-10.2118
謂不善	-10.2124
施主	-10.2127
為俱有因	-10.2128
雜修靜慮	-10.2138
受陰	-10.2138
過現	-10.2144
利益	-10.2144
而未	-10.215
無明使	-10.2154
見結繫	-10.216
未至定	-10.2161
二由	-10.2169
不違	-10.2177
如是已說	-10.2182
有為相	-10.2184
修惑	-10.2184
有此	-10.2185
斷見	-10.2191
音聲	-10.2193
不滅	-10.2195
故不立	-10.2199
辟支佛	-10.2211
增上慢	-10.2211
非數滅	-10.2226
不苦不樂	-10.2236
在定	-10.2236
善不善無記	-10.2244
三諦	-10.225
時分	-10.2252
見諦斷	-10.2259
何故不說	-10.2262
後念	-10.2265
用故	-10.2267
恃	-10.2268
若修	-10.227
增減	-10.2271
授	-10.2276
為食	-10.2277
其相云何	-10.2277
謂阿羅漢	-10.2278
守	-10.2283
為苦	-10.2285
不應言	-10.2287
非所斷	-10.2289
園	-10.2291
及相應法	-10.2291
髮	-10.2292
無覆無記心	-10.2296
安樂	-10.2297
於所	-10.2298
二乘	-10.23
功力	-10.23
非彼	-10.2308
通果	-10.231
而彼	-10.2315
為證	-10.2319
義成	-10.2338
貪愛	-10.2341
念覺支	-10.2347
品中	-10.2347
見集斷	-10.2355
舊云	-10.2356
取境	-10.2357
恨	-10.2358
心數	-10.2358
即有	-10.236
自知	-10.2368
諸漏	-10.2374
寂	-10.2385
工巧處	-10.2386
未能	-10.2388
何故說	-10.2389
欲漏	-10.239
過去世	-10.2393
意識界	-10.2395
三乘	-10.2397
言我	-10.2402
變化	-10.241
八品	-10.2411
離繫果	-10.2412
密	-10.2416
可名	-10.2421
客	-10.2424
所住	-10.2424
或於	-10.2428
入滅定	-10.2438
行人	-10.2443
心起	-10.2443
此顯	-10.2447
佛法	-10.2453
卷	-10.2457
胎	-10.2462
因此	-10.2466
所觸	-10.2474
修得	-10.2475
皆不	-10.2475
苦集諦	-10.248
訶	-10.2482
又諸	-10.2483
非理作意	-10.2496
一切智	-10.2498
出定	-10.2502
何義	-10.2503
觸處	-10.2506
心亂	-10.2507
今時	-10.2508
緣起法	-10.2508
隨彼	-10.2512
變易	-10.2519
伽	-10.2523
狂	-10.2523
縱	-10.2537
北	-10.2539
論文	-10.2541
次說	-10.2542
族	-10.2545
皆具	-10.2549
初生	-10.2549
定是	-10.255
能對治	-10.2551
得修	-10.2552
軍	-10.2554
臣	-10.2556
故成	-10.2561
斷遍知	-10.2561
事業	-10.2564
滿足	-10.2568
離欲界染	-10.257
能修	-10.2572
攝在	-10.2576
境界緣	-10.2586
不染	-10.2586
非善	-10.2591
號	-10.2593
彼是	-10.2598
通三界	-10.2599
萬	-10.2599
士用	-10.2605
無間業	-10.2615
大海	-10.2619
擊	-10.2623
天授	-10.2626
十二入	-10.2626
一切有為	-10.2628
假說	-10.2632
若見	-10.2635
無漏律儀	-10.2642
義准	-10.2651
如是所說	-10.2653
恚結	-10.2655
是見	-10.2657
師說	-10.2665
世尊弟子	-10.2665
作證	-10.2667
勝者	-10.267
當云何通	-10.267
然諸	-10.268
死時	-10.2681
語表	-10.2684
逼	-10.269
審	-10.2693
梵云	-10.2695
故不說	-10.2696
相似因	-10.2696
若受	-10.2698
善趣	-10.2702
故唯	-10.2709
斯陀含	-10.2715
云何不	-10.2716
不護	-10.272
廣說如前	-10.2721
彼色	-10.2722
俱是	-10.2727
!	-10.2736
處起	-10.2737
無知根	-10.2741
若異此者	-10.2743
雖亦	-10.2746
亦同	-10.2753
乃至非想非非想處	-10.2763
長等	-10.2767
損害	-10.2768
七支	-10.2772
彼結	-10.2774
未離欲	-10.2782
唯與	-10.2785
我我所	-10.2788
持息念	-10.2791
無學位	-10.2793
後位	-10.2794
三事	-10.2796
不相似	-10.2815
何故不	-10.282
自害	-10.2821
各各	-10.2821
界地	-10.2825
領	-10.2829
領納	-10.283
無作	-10.2835
非一	-10.284
刺	-10.2843
法輪	-10.2853
推	-10.2862
九結	-10.2862
生中	-10.2863
等取	-10.2867
已斷已遍知	-10.2868
破壞	-10.2868
具二	-10.2869
憍慢	-10.287
身壞命終	-10.2879
有漏道	-10.2882
善通	-10.2882
通二	-10.2886
名等	-10.2887
苦痛	-10.2898
內法	-10.2908
便起	-10.2918
斷智	-10.292
行故	-10.292
是無常	-10.2926
在色界	-10.2928
六智	-10.2934
謂根	-10.2937
提	-10.2938
所捨	-10.294
希望	-10.2941
讚歎	-10.2947
如是說	-10.2958
是欲界	-10.2958
眼見色	-10.2961
亦生	-10.2965
轉法輪	-10.2966
無漏戒	-10.2967
室	-10.2979
理故	-10.2979
或無處所	-10.2987
前已說	-10.2993
二道	-10.2995
定故	-10.2997
無違	-10.3007
四者	-10.3012
欲色	-10.302
眼耳	-10.3026
終不	-10.3026
又正理云	-10.3029
依初靜慮	-10.3032
彼業	-10.3034
五境	-10.3034
若許	-10.3037
耳根	-10.3038
後際	-10.3039
通慧	-10.304
亦緣	-10.3042
一字	-10.3043
而般涅槃	-10.3048
因何	-10.3049
二分	-10.3051
說此	-10.3052
有覆	-10.3052
身表	-10.3055
思惟所斷	-10.3056
無明結	-10.3059
如是一切	-10.3061
佛經	-10.3063
眼色	-10.3064
數習	-10.3066
過去法	-10.3069
善有漏	-10.307
却	-10.3072
婆沙云	-10.3079
眼等五根	-10.3086
三果	-10.3091
觸界	-10.3091
是道	-10.3092
既不	-10.3092
問如	-10.3098
名有	-10.3099
無尋唯伺	-10.3099
在身	-10.31
清	-10.311
諸有為法	-10.3116
智見	-10.3118
大乘	-10.3119
法類	-10.3123
既有	-10.3129
杖	-10.3141
外法	-10.3146
若在	-10.3146
三界繫	-10.3147
此類	-10.3149
雜心	-10.3152
亦可	-10.3155
所治	-10.3159
不觀	-10.3162
得不還果	-10.3166
受戒	-10.3168
語言	-10.317
不動法	-10.3172
非隨眠隨增	-10.3179
諸眾生	-10.3187
此緣	-10.32
西	-10.3203
邊執見	-10.3204
避	-10.3207
甚深	-10.3208
有我	-10.321
非離	-10.3211
善巧	-10.3215
西方	-10.3215
一界一處一蘊攝	-10.3216
炎	-10.3217
是處	-10.3217
各異	-10.3225
一物	-10.3226
證淨	-10.3233
九根	-10.3233
已成	-10.3236
勤修	-10.324
應不	-10.3248
憎	-10.3255
若能	-10.3255
且如	-10.3269
無明緣行	-10.3272
由何	-10.3275
衣服	-10.3275
發生	-10.3276
之人	-10.3278
法體	-10.3289
七智知	-10.3291
必應	-10.3291
受想	-10.3292
而立	-10.3293
若住	-10.3324
宜	-10.3329
有支	-10.3331
為所依	-10.3337
心次第生	-10.3339
無癡	-10.3342
總名為	-10.3343
引經	-10.3345
有九	-10.3348
意地	-10.3352
三有	-10.3355
一切種	-10.3357
賢	-10.3357
箭	-10.3368
非諸	-10.3371
許有	-10.3379
定者	-10.3382
依地	-10.3391
義如前說	-10.34
住處	-10.3401
在家	-10.3404
擇法覺支	-10.341
一來	-10.341
在未來	-10.3413
沈	-10.3417
金剛	-10.3424
士夫	-10.3425
伹	-10.3426
身形	-10.3429
日月	-10.3435
為難	-10.3436
無有是處	-10.3436
次生	-10.3439
處故	-10.3443
鉢	-10.3443
謂無漏	-10.3446
皆以	-10.3454
答如	-10.346
彼言	-10.3461
是業	-10.3463
無窮	-10.3464
染法	-10.3464
非由	-10.3465
具縛	-10.3466
又於	-10.3468
識界	-10.3476
扼	-10.3476
有體	-10.3481
出息入息	-10.3483
設爾何失	-10.3483
生上	-10.3484
牙	-10.3484
何名	-10.3485
致	-10.3487
色者	-10.3488
二部	-10.3493
一切時	-10.35
芽等	-10.3503
報因	-10.3503
非我行相	-10.3503
無斷	-10.3503
四明	-10.3506
色有	-10.3511
云何通	-10.3517
皆應	-10.3521
彼執	-10.3522
如斯	-10.3522
起緣	-10.3523
不轉	-10.3526
謬	-10.3527
初念	-10.353
不必	-10.3533
正勤	-10.3533
不相	-10.3539
一云	-10.3544
無記根	-10.3546
佛身	-10.355
心受	-10.3552
期心	-10.3556
餘文可知	-10.3561
心中	-10.3563
四處	-10.3565
戒盜	-10.3567
所覺	-10.3571
當知已說	-10.3572
理應	-10.3578
唯得	-10.3579
隨所	-10.3584
有作用	-10.3588
為門	-10.3591
四生	-10.3596
行苦	-10.3597
二業	-10.3601
斷已	-10.3603
一名	-10.3613
念覺意	-10.3617
少欲	-10.362
灰	-10.3622
遭	-10.3624
喜受	-10.3626
能遮	-10.3627
亦成	-10.3628
活	-10.3632
陰界入攝	-10.3634
俱非	-10.3635
受業	-10.3647
詞	-10.3649
得遍知	-10.365
何所攝	-10.3652
無別體	-10.3657
法耶	-10.3657
入母胎	-10.3658
有為無為	-10.3665
無所緣	-10.3666
佛於	-10.3668
然於	-10.367
八支	-10.3671
違害	-10.3672
離欲染	-10.3672
諸相	-10.3675
為他	-10.3678
非愛	-10.3681
決擇	-10.3689
繫屬	-10.3692
奪	-10.3693
離生喜樂	-10.3695
不從	-10.3695
十八界十二入五陰	-10.3695
有言	-10.3696
除上爾所事	-10.3697
未離色界貪	-10.3699
鏡	-10.37
亦由	-10.371
極多	-10.3713
得戒	-10.3717
見滅	-10.3719
識蘊	-10.3723
二見	-10.3727
諸位	-10.3731
無勝	-10.3737
已離	-10.3741
是何耶	-10.3746
應如	-10.3747
六十	-10.3763
修所斷法	-10.3764
五戒	-10.3766
如何可說	-10.3773
所顯	-10.3777
一切入	-10.3788
示現	-10.3789
若由	-10.3792
我宗	-10.3793
入涅槃	-10.3796
三識	-10.3809
一趣	-10.3815
述曰	-10.382
三法	-10.3821
唯修	-10.3824
此有	-10.3825
【	-10.3825
或無記	-10.3828
緣生	-10.383
二諦	-10.383
百年	-10.3833
但為	-10.3835
發語	-10.3847
此亦非理	-10.3849
色相	-10.3851
第一義	-10.3853
十一處	-10.3854
是慧	-10.386
無差別故	-10.3861
體相	-10.3861
心數法	-10.3865
七生	-10.3868
隨逐	-10.387
現在法	-10.388
覺慧	-10.388
方成	-10.3881
詳	-10.3881
分齊	-10.3882
退者	-10.3888
諸比丘	-10.3889
後後	-10.3903
及彼	-10.3904
未有	-10.3905
毛	-10.3906
三分	-10.3906
聞慧	-10.3909
村	-10.3911
纏所纏	-10.3914
乳	-10.3918
隱沒	-10.3919
速疾	-10.3925
七智	-10.3925
歲	-10.3926
二結	-10.3929
謂緣	-10.3933
通三性	-10.3938
亦以	-10.394
此則	-10.3944
財物	-10.3948
謂契經說	-10.395
何為	-10.3952
中般	-10.3954
不隨	-10.3957
若當	-10.396
三十七	-10.3961
句義	-10.3963
辦	-10.3966
二十八	-10.3968
色貪	-10.3969
而作論	-10.398
耽	-10.3981
謂無	-10.3981
為其	-10.3981
若離	-10.3981
諸智	-10.3982
彼所	-10.3983
誠	-10.3984
珠	-10.3986
令不	-10.3988
作意相應	-10.3995
彼斷	-10.3996
有所緣	-10.3999
欲樂	-10.4002
精勤	-10.4002
是實	-10.4008
處得	-10.4008
得不律儀	-10.4012
若於此事	-10.4015
此與	-10.4024
有差別者	-10.4028
悟	-10.4029
無明漏	-10.4032
富	-10.4033
相對	-10.4044
數滅	-10.4049
有情數	-10.4054
計我	-10.4061
彼由	-10.4061
底	-10.4062
或名	-10.4064
苦因	-10.4064
故說名	-10.4065
仍	-10.4068
寒	-10.4068
能為因	-10.407
音	-10.407
欲邪行	-10.4072
因義	-10.4075
喜覺意	-10.4076
暫時	-10.4083
穀	-10.4086
此約	-10.409
尋求	-10.4099
無漏者	-10.4102
薄伽梵	-10.4106
前文	-10.4111
破戒	-10.4113
口行	-10.4116
此依	-10.4126
經部師	-10.4129
見集	-10.413
是非學非無學	-10.413
聲處	-10.413
諸趣	-10.4132
臥具	-10.4134
鹿	-10.4137
優婆塞	-10.4142
所滅	-10.4144
界者	-10.4147
有能	-10.4148
梵眾	-10.4154
問言	-10.4155
三見	-10.4157
成就現在	-10.416
八萬	-10.4163
憙	-10.4167
斷者	-10.4169
隨所應	-10.4174
不現行	-10.4178
長時	-10.4187
亦應爾	-10.4187
他地	-10.419
隨念	-10.42
正斷	-10.4202
斷對治	-10.4208
齋	-10.4209
作是	-10.421
能除	-10.421
與樂	-10.4215
欲染	-10.4218
帝釋	-10.4224
得起	-10.4226
無義	-10.4228
初二靜慮	-10.4232
今應	-10.4234
二十四	-10.4239
應理	-10.4242
佛為	-10.4245
而於	-10.4254
唯有一	-10.4255
所依止	-10.4264
立根	-10.4265
二釋	-10.4265
類智品	-10.4266
能燒	-10.4272
若欲	-10.4276
非想	-10.4282
悕望	-10.4282
何等名為	-10.4287
作如是念	-10.429
三洲	-10.4295
謂有漏	-10.4301
彼處	-10.4303
更不	-10.4303
能破	-10.4305
俱得	-10.4313
下劣	-10.4318
色根	-10.433
除入	-10.4334
相者	-10.4338
諸外道	-10.4341
身量	-10.4345
云何名	-10.4351
身觸	-10.4353
定非	-10.4353
四念處	-10.4355
十六行	-10.4356
詣	-10.4356
有六種	-10.4361
飢渴	-10.4362
上上品	-10.4366
何故作此論	-10.4378
現前故	-10.4384
香味觸	-10.4387
三行	-10.439
別名	-10.4406
有十	-10.4407
唯善	-10.4409
展轉相	-10.4409
品類足論	-10.4412
諸有漏法	-10.4414
一身	-10.4418
二門	-10.4422
成就過去	-10.4423
如上	-10.4425
者正理云	-10.4426
及無漏	-10.4428
加行得	-10.4432
服	-10.4445
無障	-10.4448
嫉結	-10.4457
希	-10.4458
以是	-10.4461
慳結	-10.4466
諸定	-10.4468
於心	-10.4474
增廣	-10.4482
見疑	-10.4482
滅界	-10.4485
非蘊攝	-10.4487
若色	-10.4492
經文	-10.4493
生喜	-10.4493
暖	-10.4495
理趣	-10.4496
尚不	-10.4497
於欲	-10.4499
善業道	-10.4499
座	-10.4503
所使	-10.4504
自分	-10.4513
虫	-10.4517
生緣	-10.4519
異者	-10.4523
九十八隨眠	-10.4524
餘心	-10.4526
是無為	-10.4526
不相違	-10.4526
此即問也	-10.4527
相生	-10.4528
不能生	-10.453
比量	-10.4531
法智品	-10.4532
業生	-10.4535
相應者	-10.4537
一切有為法	-10.4538
則說	-10.454
地大	-10.4542
定地	-10.4543
往來	-10.4545
此識	-10.4545
貪瞋	-10.4551
等志	-10.4554
宿住隨念智	-10.4554
順退分	-10.4562
不名為	-10.4566
墮惡趣	-10.4568
有礙	-10.4576
歡	-10.4576
或不繫	-10.4576
四行相	-10.4578
意觸	-10.4582
有漏者	-10.4586
火界	-10.4593
此復	-10.4594
羸劣	-10.4594
烟	-10.4595
留難	-10.4598
身力	-10.46
*	-10.4603
有大	-10.4604
善無記	-10.4605
諸師	-10.4606
地獄中	-10.4608
何故但說	-10.4609
一根	-10.461
幾非	-10.4611
當得	-10.4613
既說	-10.4615
多種	-10.462
不求	-10.4623
所緣者	-10.4624
瞋恚結	-10.4626
依未至定	-10.4633
取結	-10.4639
猗	-10.4639
識身	-10.4652
所緣故	-10.4656
若干	-10.466
本性	-10.4669
於身	-10.4669
若未	-10.4669
生疑	-10.467
不用處	-10.4684
復云何通	-10.4688
若餘	-10.4689
緣欲界繫	-10.4692
心品	-10.47
眾緣	-10.4705
非實有	-10.4707
一切遍使	-10.4715
即說	-10.4715
不入	-10.4717
是一	-10.4719
四食	-10.4725
識陰	-10.4728
臥	-10.4729
靜慮支	-10.4734
彼同分	-10.4734
八十	-10.4735
不須	-10.4735
後心	-10.4737
是故此	-10.4737
佛出世	-10.4741
貪著	-10.4742
贍部洲	-10.4742
無有愛	-10.4744
勝妙	-10.4746
不與取	-10.4748
不現	-10.4748
傷	-10.4755
有種種	-10.4756
中品	-10.4756
造作增長	-10.4758
譯	-10.4759
釋言	-10.476
毘婆沙	-10.4761
恒時	-10.4762
為根	-10.4766
非過去	-10.4766
如文可知	-10.477
彼時	-10.4775
極光淨	-10.4789
入出	-10.4792
性罪	-10.4792
重說	-10.4793
是心	-10.4793
便得	-10.4793
故論云	-10.4793
無形	-10.4796
難知	-10.4797
正命	-10.4799
堪忍	-10.4799
宿住	-10.4812
舌識	-10.4824
此上	-10.4828
投	-10.4841
此亦不然	-10.4841
謂一切	-10.485
非苦	-10.4851
從何	-10.4857
最上	-10.486
卑	-10.4867
宿	-10.4872
即於	-10.4874
見已	-10.4875
後方	-10.4878
一因	-10.4881
心無間	-10.4881
佛弟子	-10.4884
犢子部	-10.4885
第九解脫道	-10.4888
得得	-10.489
聖弟子	-10.4894
勝論	-10.49
二受	-10.4901
處處	-10.4906
轉輪聖王	-10.4907
打	-10.491
結生	-10.4911
餘殘	-10.4911
總而言之	-10.4915
大德說曰	-10.4916
思所成	-10.4917
煖等	-10.4919
以世俗道	-10.4921
眼處	-10.4922
勤策	-10.4922
諸使	-10.4922
空三摩地	-10.4922
十八界十二處五蘊攝	-10.4923
人間	-10.4924
第一句	-10.4927
非識識	-10.493
差別相	-10.493
非根	-10.4931
即前	-10.4933
左	-10.4934
此果	-10.494
何者為	-10.4942
隣近	-10.4946
使所使	-10.4953
勝進道	-10.4958
諸隨眠	-10.4959
遮罪	-10.496
非所	-10.4962
得阿羅漢	-10.4969
三善根	-10.4974
所居	-10.4978
別解脫戒	-10.4985
罵	-10.4987
詮	-10.4987
汝今	-10.499
有何義	-10.4991
多聞	-10.4994
呪	-10.4994
有多種	-10.4997
若爾何故	-10.5
不可意	-10.5002
但應	-10.5005
七處善	-10.5006
盲	-10.501
五識相應	-10.5012
此位	-10.5014
四定	-10.5014
諸行滅	-10.5015
伽他	-10.5019
意止	-10.5026
合成	-10.5027
我已	-10.5028
未知	-10.5029
橫	-10.5035
幾是	-10.5039
世第一	-10.5039
方有	-10.5045
歎	-10.5057
軛	-10.5059
三和	-10.506
此諸	-10.5063
他化自在天	-10.5066
何差別	-10.5067
成一	-10.507
曾無	-10.507
乃至廣作四句	-10.5073
腹	-10.5075
得有	-10.5077
泥	-10.5078
閉	-10.508
呵責	-10.5082
可解	-10.5083
弱	-10.5085
亦如	-10.5086
煩	-10.5104
諸世間	-10.5107
羊	-10.5107
頓得	-10.5111
緣緣	-10.5114
未知欲知根	-10.5117
四識住	-10.512
唯有漏	-10.512
故亦名	-10.513
苦等	-10.513
因力	-10.5135
修道中	-10.5136
近對治	-10.5145
有教	-10.5145
有漏心	-10.5147
無始	-10.5155
須臾	-10.5156
亦應說	-10.5156
二事	-10.5156
但以	-10.5157
阿毘曇毘婆沙論	-10.5163
或復有執	-10.5167
我語取	-10.5168
永盡	-10.5169
為何等	-10.5173
離欲界欲	-10.5173
若從	-10.5174
資具	-10.5175
異地	-10.5176
無色中	-10.5179
積聚	-10.5181
卵生	-10.5186
於上	-10.5189
退分	-10.5203
問諸	-10.5216
有過去	-10.5216
十八界中	-10.522
功	-10.5221
於三	-10.5223
即緣	-10.5225
斷道	-10.5233
亦從	-10.5236
蘊處界	-10.5236
多故	-10.5236
欲使	-10.5239
北洲	-10.524
道果	-10.5241
信勝解練根作見至	-10.5241
蟲	-10.5243
學見迹阿羅漢	-10.5245
尊者眾賢造三藏法師玄奘奉詔譯	-10.5248
一智	-10.5248
各三	-10.5251
雖同	-10.5254
便能	-10.5254
有欲	-10.5255
出現	-10.5258
應作	-10.5258
歸趣	-10.5261
此之	-10.5266
有根	-10.5266
彼相應	-10.5268
有無	-10.5269
婦	-10.5273
能行	-10.5285
此善根	-10.5285
能與	-10.5286
以上	-10.5287
知他心智	-10.5288
滅法智	-10.529
非智知	-10.5293
及遍行隨眠隨增	-10.5305
九智	-10.5309
性者	-10.5311
二世	-10.5322
重擔	-10.5323
濫	-10.5323
實體	-10.5329
提婆達多	-10.5329
串習	-10.5331
推度	-10.5331
惡法	-10.5332
見滅道所斷	-10.5332
猶未	-10.5333
異此	-10.5336
入息	-10.5339
五品	-10.5342
何得	-10.5343
有十八	-10.5344
般	-10.5354
俱有法	-10.5357
展轉為因	-10.5358
四根	-10.5365
若成就過去法智	-10.5365
踰繕那	-10.5378
觸入	-10.5379
男子	-10.5379
如前應知	-10.538
廣說如	-10.5382
正明	-10.5382
已去	-10.5384
三十二	-10.5393
彼岸	-10.5394
證滅	-10.5395
二通	-10.5396
美	-10.5398
為斷	-10.5405
是義不然	-10.5415
無表業	-10.5416
依未至	-10.5423
難云	-10.5423
能捨	-10.5424
於二	-10.5427
此八	-10.5439
論師	-10.5441
九十八	-10.5442
先有	-10.5444
以慧	-10.5445
青等	-10.5446
志	-10.545
延	-10.545
緣未來	-10.545
煩惱障	-10.5451
欲界有	-10.5453
無倒	-10.5453
所依大種	-10.5456
禁	-10.5458
四法	-10.5462
經義	-10.5463
無處所	-10.5465
瀑流	-10.5469
預流者	-10.5469
等中	-10.5471
菩提分法	-10.5487
九十八使	-10.5488
業有	-10.5492
無覺無觀	-10.5498
異說	-10.5498
設有而失	-10.5499
彌	-10.5501
設許	-10.5504
勝德	-10.5509
生老死	-10.551
云何知然	-10.5516
宣說	-10.5521
應斷	-10.5523
揵度	-10.5527
時捨	-10.5529
受念住	-10.5533
謂諸有情	-10.5533
色香味觸	-10.5533
惱害	-10.5533
可立	-10.5541
根故	-10.5541
是無學	-10.5546
苦集滅道	-10.5553
非時	-10.5553
疎	-10.5565
與識	-10.5569
是真	-10.5571
三十	-10.5573
學見迹若阿羅漢	-10.5576
使使	-10.5577
心念住	-10.5581
梵眾天	-10.5582
緣識及緣緣識	-10.5584
彼因	-10.5584
善知	-10.5585
有情類	-10.5586
第二明	-10.5587
所逼	-10.5587
能於	-10.5589
女身	-10.559
於義	-10.559
耽著	-10.5595
本得	-10.5598
在過去	-10.56
愛結繫	-10.56
內身	-10.5602
云何無學	-10.5603
以有	-10.561
無體	-10.5612
能詮	-10.5613
根本業道	-10.5619
如是諸	-10.5622
仙	-10.5623
邪定	-10.5624
於未來	-10.5625
麁惡語	-10.5627
在前	-10.5628
如理應思	-10.5628
有事	-10.563
聖慧	-10.5632
受果	-10.5635
絕	-10.5638
答依	-10.564
成就未來	-10.5642
或可	-10.565
落	-10.5654
四支	-10.5656
作論	-10.5657
無明觸	-10.567
太	-10.5671
慢結	-10.5672
濟	-10.5672
相依	-10.5673
唯無漏	-10.5673
惡心	-10.5673
若觀	-10.5681
現身	-10.5687
十六行相	-10.569
任持	-10.5691
下界	-10.5693
苦果	-10.5694
得律儀	-10.5696
三寶	-10.5702
威勢	-10.5703
譬喻	-10.5705
執受	-10.5706
見惑	-10.5707
八勝處	-10.5708
彼果	-10.5709
五通	-10.571
半月	-10.5712
平	-10.5714
體也	-10.5715
如是類	-10.5715
伴	-10.5719
大眾部	-10.5722
破云	-10.5725
尊者阿難	-10.5727
界中	-10.5729
生名	-10.573
又言	-10.5735
必依	-10.5741
世間第一法	-10.5747
鼓	-10.5751
互為因	-10.5756
曾見	-10.5758
三摩提	-10.576
魚	-10.576
謂先	-10.5765
加行道	-10.5765
准此論文	-10.5766
無數	-10.5766
有漏善	-10.5768
四聖種	-10.577
經所說	-10.577
於道	-10.5772
九無間道	-10.5774
行相轉	-10.5774
緣境	-10.5778
纔	-10.578
別異	-10.578
心俱	-10.5789
隨意	-10.5789
耶答	-10.5792
佛言	-10.5792
應生	-10.5795
與此	-10.5802
淨信	-10.5808
思惟斷因	-10.5809
業報	-10.5815
思慧	-10.5821
在彼	-10.5829
不害	-10.5832
五法	-10.5835
契經中	-10.5836
苦類智	-10.5837
無漏行	-10.584
是異熟	-10.5842
蜜	-10.5848
呼	-10.5849
尊者世友作如是說	-10.5852
於識	-10.5853
經云	-10.5853
是法	-10.5854
已顯	-10.5854
豈非	-10.5858
沙門婆羅門	-10.5858
青色	-10.5863
若餘法	-10.5865
初二解脫	-10.5873
無色法	-10.5873
出息	-10.5873
他界緣	-10.5875
意惡行	-10.5877
不障	-10.5879
三相	-10.5883
謂身	-10.5884
現量	-10.5886
隨欲	-10.5889
趣向	-10.5891
非修	-10.5894
第三定	-10.5895
盡壽	-10.5896
受異熟	-10.5903
作緣	-10.5905
四地	-10.5907
道中	-10.5908
不壞淨	-10.5908
表無表	-10.5909
苦集智	-10.5926
等諸	-10.5927
若此	-10.5928
隨身	-10.5932
畫	-10.5934
飛	-10.5935
殺等	-10.5936
或生	-10.5936
是學	-10.594
說能為緣	-10.5941
十法	-10.5941
謂意	-10.5942
翻此	-10.5944
廣果	-10.5952
者則	-10.5953
三三摩地	-10.5953
憂苦	-10.5954
七地	-10.5955
隨應現修	-10.5956
新云	-10.5958
彼界	-10.5959
五受	-10.5964
便為	-10.5966
依第四靜慮	-10.5966
意識法	-10.5967
二字	-10.5968
大小	-10.597
善士	-10.5973
淨色	-10.5976
前已	-10.5977
一相續	-10.5979
然有	-10.5982
成熟	-10.5984
於爾時	-10.5986
無恚	-10.5989
天耳	-10.5992
染汙	-10.5993
前八	-10.5994
寂滅	-10.5995
所作因	-10.6003
所聞	-10.6004
處界	-10.6007
緣過去	-10.6008
現在耶	-10.6011
通有漏無漏	-10.6011
要由	-10.6012
眼等根	-10.6012
所許	-10.6014
不忍	-10.6015
欲生	-10.6016
無願三昧	-10.6018
如何說	-10.6019
實無	-10.6022
舍利弗	-10.6023
非顛倒	-10.6027
作此	-10.603
吒	-10.6032
滅法	-10.6032
不決定	-10.6033
捨根相應	-10.6035
退墮	-10.6035
謂餘	-10.6036
別解	-10.6037
不雜	-10.6039
實我	-10.6052
多法	-10.6053
無染	-10.6055
無量等	-10.606
勞	-10.606
一剎那頃	-10.6062
七覺支	-10.6068
不能斷	-10.6068
所成就	-10.607
如是比丘	-10.6074
識緣	-10.6074
根境	-10.6083
四神足	-10.6083
是假	-10.6083
欲取	-10.6088
東	-10.6089
三由	-10.6089
不至	-10.609
不可言	-10.6091
但於	-10.6091
更相	-10.6092
皆同	-10.6094
婬欲	-10.6098
剎那滅	-10.6101
別義	-10.6105
布	-10.6105
文中	-10.6106
端	-10.6107
總結	-10.6109
或善	-10.611
未來三	-10.611
離欲惡不善法	-10.6114
狗	-10.6116
非食	-10.6117
見所斷法	-10.6117
莖	-10.6118
衰損	-10.6118
諸弟子	-10.6121
熾然	-10.6121
身語二業	-10.6124
盡無生	-10.6124
因生	-10.6128
於餘處	-10.6129
糞	-10.6131
或欲界繫	-10.6131
謂我	-10.6135
成業道	-10.6136
餘師	-10.6137
能斷煩惱	-10.6137
本相	-10.6138
鈍根者	-10.6142
餘部	-10.6143
見斷因	-10.6144
如言	-10.6147
無間等	-10.6154
十二支	-10.6156
或起	-10.6157
畢竟無	-10.616
無間緣	-10.6162
為大	-10.6162
二蘊	-10.6165
非所緣故隨增非相應故	-10.6165
一諦	-10.6166
第二句者	-10.6168
復次彼	-10.6173
污	-10.6176
若行	-10.6178
身惡行	-10.6178
准前	-10.6182
令生	-10.6184
猛	-10.6187
報生	-10.619
三妙行	-10.6194
誤	-10.6197
不相應故	-10.6201
羯磨	-10.6203
等方便	-10.6204
承	-10.6204
不可轉	-10.6207
謂色界	-10.6209
先得	-10.621
三時	-10.6214
二說	-10.6216
生法	-10.6221
非道	-10.6223
黑白	-10.6223
自有	-10.6224
故今	-10.6224
無瞋	-10.6226
具三	-10.6227
與心相應	-10.623
異生聖者	-10.623
此中有	-10.6231
事中	-10.6232
二類	-10.6233
上生	-10.6237
緣有漏	-10.6242
業所引	-10.6244
智力	-10.6245
諸欲	-10.6247
能成	-10.625
行道	-10.6251
無事	-10.6252
互為果	-10.6254
是無明	-10.6259
能繫	-10.6261
七心界	-10.6263
真諦	-10.6266
後得	-10.6267
力強	-10.6269
意趣	-10.6269
三三昧	-10.6272
行捨	-10.6273
唯欲界	-10.6275
住相	-10.6275
如經說	-10.6276
以何	-10.6285
於此中	-10.6291
有想無想	-10.6291
果生	-10.6292
疑惑	-10.6295
佛所說	-10.6296
今得	-10.6297
道比智	-10.6298
答若已滅不失則成就	-10.63
彼滅已不失	-10.6302
鄔波索迦	-10.6302
次第者	-10.6302
執為	-10.6306
此執	-10.6307
所染	-10.6309
以明	-10.6309
無果	-10.6318
風輪	-10.6319
得成就	-10.6319
作是語	-10.6319
二支	-10.6319
色聲	-10.6324
不受後有	-10.6327
境中	-10.6328
既爾	-10.6329
知苦	-10.6329
或有說	-10.6333
更生	-10.6334
喜根相應	-10.6336
信解脫	-10.6337
等生	-10.6341
離間語	-10.6342
未來有	-10.6345
苦苦	-10.6346
義無礙解	-10.6351
析	-10.6356
道斷	-10.6358
成滿	-10.6359
善品	-10.6361
斷彼	-10.6367
不遮	-10.6369
恐怖	-10.6372
四方	-10.6372
手足	-10.6373
尋思	-10.6375
顯現	-10.6388
貴	-10.6388
無色界中	-10.6389
而行	-10.639
中般涅槃	-10.6396
毘鉢舍那	-10.6396
即無	-10.6396
改	-10.6396
彼相應法	-10.6398
名見	-10.6399
停	-10.6401
展轉相望	-10.6401
作是思惟	-10.6401
衣等	-10.6403
誰不成就	-10.6406
定生	-10.6408
無貪善根	-10.6409
各一	-10.641
順下分結	-10.6415
修未來	-10.6415
熾盛	-10.6416
為三	-10.6418
麥	-10.6419
此不應理	-10.6419
緣現在	-10.6423
則不應言	-10.6424
論主破	-10.6425
第四句者	-10.6427
一識	-10.643
五者	-10.6431
知有	-10.6434
無心位	-10.6434
所宗	-10.6434
緣無漏	-10.6435
空中	-10.6445
利根者	-10.6449
意顯	-10.645
正義	-10.6451
如是如是	-10.6453
何以故說	-10.6454
緣三種	-10.6459
不增	-10.646
道類智時	-10.6466
無解脫	-10.647
或應	-10.6472
得勝	-10.6473
故婆沙云	-10.6473
慮	-10.6476
二云	-10.6477
血	-10.648
所作已辦	-10.6488
順受	-10.6491
生上地	-10.6491
漂	-10.6495
意故	-10.6495
狹小	-10.6497
解釋	-10.6497
梵福	-10.6498
果耶	-10.6503
不動心解脫	-10.6506
頌文	-10.6507
他相續	-10.6508
諦理	-10.6509
欲界修所斷	-10.6509
要期	-10.6509
以故爾	-10.6511
昧	-10.6512
訛也	-10.6513
何別	-10.6513
想陰	-10.6514
二名	-10.6514
獨立	-10.6514
皆非	-10.6518
答應言	-10.6521
餘八	-10.6529
無覺有觀	-10.653
數法	-10.6531
生欲色界	-10.6535
欲界中有	-10.6536
如其	-10.6537
有十二	-10.654
增語	-10.6542
他部	-10.6542
大劫	-10.6543
諸心所法	-10.655
國王	-10.6556
通緣	-10.6558
法類智	-10.6561
問何	-10.6561
忘失	-10.6565
已正當	-10.6568
中除	-10.6571
不自	-10.6575
增上者如前說	-10.6576
當辯	-10.658
覩	-10.6581
易了	-10.6582
果實	-10.6583
二十一	-10.6584
天神	-10.6587
出世間	-10.6587
蘊中	-10.6588
增上緣故	-10.659
加行故	-10.6591
夢中	-10.6592
不隨增	-10.6595
頓斷	-10.6596
再	-10.6596
境界故	-10.66
知彼	-10.6603
前念	-10.6604
器世間	-10.6605
有餘師說至	-10.6608
一色	-10.6608
諸論	-10.6609
體類	-10.6613
謂初	-10.6614
趣涅槃	-10.6615
答應作是說	-10.6622
正生	-10.6623
云何知	-10.6625
多生	-10.6626
出體	-10.6626
二句	-10.6628
相攝	-10.6629
便於	-10.6634
想等	-10.6635
有分	-10.6636
因也	-10.6637
諸大種	-10.6638
不過	-10.6639
為善	-10.6642
大種造	-10.6645
反難	-10.6645
識依	-10.6649
多時	-10.6651
惡見	-10.6652
所問	-10.6653
妨	-10.6654
盡漏	-10.6657
謂無記	-10.6658
眾具	-10.6658
正起	-10.6661
言詞	-10.6662
諸異生	-10.6663
復生	-10.6665
齊此	-10.6667
復有二種	-10.6672
及修所斷	-10.6677
船	-10.668
多人	-10.6681
過故	-10.6683
乾	-10.6683
角	-10.6683
大梵王	-10.6684
巧	-10.6687
於四	-10.6687
怨家	-10.6689
一有情	-10.6692
滅作證	-10.6696
己身	-10.6702
正解脫	-10.6707
非見斷非思惟斷因	-10.6709
餘趣	-10.6711
謝	-10.6713
未來八	-10.6715
捨離	-10.6724
有實	-10.6726
聖言	-10.6731
此相	-10.6731
非現在	-10.6732
順解脫分	-10.6743
有力	-10.6744
四事	-10.6746
等業	-10.6747
無根	-10.675
此契經	-10.6751
不定業	-10.6755
心一境性	-10.6756
智果	-10.6758
塗	-10.6759
名得	-10.6762
偏說	-10.6764
卷第五	-10.6766
交	-10.6767
四業	-10.6768
不還者	-10.6769
消	-10.6771
所覆	-10.6772
知法	-10.6772
得預流果	-10.6773
得須陀洹果	-10.6774
澁	-10.6776
不定故	-10.6776
二眼	-10.6777
緣三世	-10.6777
未斷未遍知	-10.6779
十力	-10.6793
攝一切	-10.6797
無二結繫	-10.6798
時有	-10.6798
諸識	-10.6803
為得	-10.6804
無明隨眠	-10.6813
鼻識	-10.6814
隨觀	-10.6815
已失	-10.6817
方可	-10.6817
第三句者	-10.6818
不越	-10.682
樂故	-10.6832
方便道	-10.6835
盡是	-10.6835
世人	-10.6839
居士	-10.6848
無定	-10.685
上上	-10.6851
擔	-10.6855
果法	-10.6859
戰	-10.6864
恒有	-10.6865
所依故	-10.6868
摩訶	-10.6871
滅盡三昧	-10.6873
外人	-10.6875
摽	-10.6876
為緣生	-10.6877
威	-10.6879
本無	-10.6893
斷一切	-10.6893
是謂非	-10.6893
淨定	-10.6896
災患	-10.6897
其事云何	-10.6897
然此不	-10.6898
欲界善心	-10.6902
名義	-10.6902
滅道智	-10.6904
應更	-10.6904
非所緣	-10.6908
於其	-10.6909
以欲界	-10.6909
先已	-10.691
道聖諦	-10.6915
不死	-10.6932
此於	-10.6934
障故	-10.6935
亦依	-10.6935
信解	-10.6944
越界	-10.6948
定成就	-10.6949
事者	-10.695
前七	-10.6954
心便	-10.6958
五欲	-10.696
何法名	-10.696
相似故	-10.6961
所觀	-10.6962
如佛	-10.6965
見修所斷	-10.6968
滅相	-10.697
前因	-10.6971
無他心智	-10.6972
實事	-10.6972
先觀	-10.6972
現在前故	-10.6972
無漏得	-10.6973
御	-10.6973
厭患	-10.6978
耳鼻舌身	-10.6987
亦無有失	-10.6989
今當	-10.6989
若已	-10.699
世尊為	-10.6992
無癡善根	-10.6995
定力	-10.7
所欲	-10.7
若諸	-10.7
執有	-10.7001
由此因緣	-10.7003
得遍知時	-10.7005
亦許	-10.7006
人所	-10.7007
非人	-10.7012
餘者	-10.7015
阿毘達磨藏	-10.7015
無疑	-10.7017
不亂	-10.7019
知足	-10.7021
是實有	-10.7021
及欲界	-10.7022
皆成就	-10.7035
不應作是說	-10.7035
餘界	-10.7036
即應	-10.7036
或取	-10.7036
微劣	-10.7038
此生	-10.7039
體雖	-10.7041
不如	-10.7044
或應說	-10.7048
地故	-10.7051
連	-10.7053
一切遍因	-10.7053
總標	-10.7055
非見斷非思惟斷	-10.7056
忘	-10.7059
第二定	-10.7059
義中	-10.7061
此間	-10.7061
亦捨	-10.7062
其餘	-10.7063
唯佛	-10.7066
胎生	-10.7068
知他心	-10.7071
關	-10.7075
彼依	-10.7077
世俗正見	-10.7078
三歸	-10.7078
欲愛未盡	-10.708
齒	-10.708
比丘思惟法生	-10.708
無我行	-10.7081
一百	-10.7081
薩迦耶見	-10.7082
不令	-10.7082
不能起	-10.7083
稍	-10.7084
此何所	-10.7087
諸聖者	-10.7088
亦為	-10.7088
由二	-10.709
識生	-10.7092
永離	-10.7099
我是	-10.7105
不寂靜	-10.7109
正語	-10.7114
諸受	-10.7114
具足住	-10.7115
解脫心	-10.7115
以無漏道	-10.7118
現觀邊	-10.712
造論	-10.7121
能伏	-10.7121
彼盡	-10.7123
而現在前	-10.7126
故無有失	-10.7127
身念處	-10.7129
厭背	-10.7133
違經	-10.7135
戲	-10.7138
無病	-10.7143
內心	-10.7143
床	-10.7146
由先	-10.7148
彼所緣	-10.7148
自力	-10.7148
得二	-10.7149
於四聖諦	-10.715
若有因	-10.7159
各自	-10.7159
異門	-10.716
彼心與	-10.7161
之心	-10.7161
皆為	-10.7163
斷欲	-10.7165
眾中	-10.7171
不墮惡趣	-10.7171
理教	-10.7173
噉	-10.7177
訖	-10.7177
此二種	-10.718
奢摩他	-10.718
彼道	-10.7182
寺	-10.7182
攝益	-10.7184
八支聖道	-10.7184
勇猛	-10.7184
乃至無所有處	-10.7184
思量	-10.7185
發戒	-10.7188
見聞	-10.7188
相觸	-10.7191
此中所說	-10.7192
諸惡	-10.7194
有生	-10.7195
境界有對	-10.7196
前位	-10.7198
樂想	-10.7199
無色界繫法	-10.72
諸善	-10.72
勝解作意	-10.721
問佛	-10.7222
三生	-10.7223
遍淨天	-10.7227
非異	-10.723
三無色	-10.7232
三惡行	-10.7233
現法	-10.7233
身繫	-10.7235
謂法智	-10.7236
一晝夜	-10.7236
殺害	-10.7237
善者	-10.7238
有身	-10.7239
乃至第四靜慮	-10.7242
合說	-10.725
退故	-10.7253
時解脫阿羅漢	-10.7255
集法智	-10.7257
道者	-10.7257
不聞	-10.726
巧便	-10.7265
應以	-10.7265
三惡趣	-10.7266
女男	-10.7266
本論說	-10.727
生般	-10.727
如前已說	-10.7271
丈夫	-10.7273
藉	-10.7274
樂欲	-10.7275
性類	-10.7276
壞時	-10.7276
以能	-10.7277
非斷	-10.7277
所以今當說	-10.728
之處	-10.7281
煗	-10.7282
闍	-10.7282
思法	-10.7282
或成就	-10.7284
或為	-10.7289
依緣	-10.7293
生愛	-10.7294
謂過去	-10.7296
愚夫	-10.7298
不正	-10.7301
無量無邊	-10.7301
先後	-10.7307
一是	-10.731
何者是	-10.7312
又應	-10.7317
相攝者	-10.7317
亦言	-10.732
漸增	-10.7322
信等五	-10.7322
由前	-10.7324
四十	-10.7324
果名	-10.7324
聞已	-10.7333
已見	-10.7334
言有	-10.7335
乃至有頂	-10.7336
五明	-10.7339
住異	-10.734
飲酒	-10.7341
或二	-10.7342
亦容	-10.7344
此亦應爾	-10.7346
餘智	-10.7347
我所見	-10.735
轉成	-10.735
施者	-10.7353
生老病死	-10.7353
可轉	-10.7357
現法樂	-10.7359
不明了	-10.736
適	-10.7366
生識	-10.7366
見處	-10.7367
心意識	-10.7368
謂學	-10.737
本質	-10.7374
成佛	-10.7375
敘異說	-10.7375
降伏	-10.7378
次後	-10.7379
為增上	-10.7381
暗	-10.7381
染污法	-10.7382
機	-10.7382
愛敬	-10.7387
申	-10.7389
無此	-10.7391
滅作證時	-10.7391
長夜	-10.7393
因緣故	-10.7396
成就過去法智	-10.7397
隨其	-10.7398
相應俱有	-10.7398
非不善	-10.7398
或色界繫	-10.7402
何地	-10.7402
一眼	-10.7403
非全	-10.7405
略有二種	-10.7406
歷	-10.7407
三漏	-10.741
身等	-10.7412
因名	-10.7413
心狂	-10.742
古	-10.7423
修所斷結	-10.7424
彼類	-10.7425
了義	-10.7426
緣法	-10.7428
之義	-10.7428
彼不應作是說	-10.7429
婆娑	-10.7431
已後	-10.7433
業障	-10.7433
壞故	-10.7433
空行	-10.7433
當斷	-10.7437
無不	-10.7442
分中	-10.7444
定應	-10.7452
非想非非想	-10.7457
若與	-10.7458
有染	-10.746
欲界繫法	-10.7469
得罪	-10.747
不能知	-10.7473
淨居	-10.7474
於何處	-10.7475
加行位	-10.7476
不能修	-10.7476
文句	-10.7478
思等	-10.7481
無漏識	-10.7484
毘婆闍婆提	-10.7484
云何成就	-10.7486
柔軟	-10.7488
星	-10.7489
是果	-10.7492
修多羅	-10.7494
離貪	-10.7495
復次欲界	-10.7495
第二剎那	-10.7497
一切有	-10.7501
四道	-10.7501
同處	-10.7505
見到	-10.7505
變礙	-10.7505
非一切遍	-10.7506
如何可言	-10.751
初說	-10.7511
如理作意	-10.7512
第二念	-10.7517
舌根	-10.7517
在現在	-10.752
意界意識界	-10.7525
樂痛	-10.7525
不獲	-10.7529
不別	-10.7532
汝宗	-10.7534
不繫法	-10.7535
三無為	-10.7538
三無數劫	-10.7539
云何無記	-10.754
見所斷惑	-10.7541
廣說亦爾	-10.7542
識食	-10.7545
論說	-10.7549
有樂	-10.7551
我有	-10.7551
智耶	-10.7553
所更	-10.756
正觀	-10.7563
非處	-10.7563
所趣	-10.7564
亦知	-10.7569
如上所說	-10.7571
二三	-10.7572
二品	-10.7575
昇	-10.7575
無愛	-10.7579
欲界繫善心	-10.7587
內無色想	-10.759
毘柰耶	-10.7591
浮	-10.7598
此難不然	-10.7598
邪行	-10.7603
即成	-10.7609
醉	-10.7609
第二師	-10.761
是勝義	-10.761
三義	-10.7615
所說當云何通	-10.7617
苦忍	-10.7617
彼二	-10.7619
廣說四句	-10.7619
不覺	-10.7622
無漏定	-10.7625
想異	-10.7626
此觀	-10.7629
不久	-10.7631
剎那等起	-10.7633
思業	-10.7634
慈悲	-10.7635
實物	-10.7636
從此第三	-10.7637
非俱有因	-10.7637
若識	-10.7638
可然	-10.7639
謂無色界	-10.7641
除此	-10.7641
如一	-10.7643
臨	-10.7651
而不能	-10.7651
釋第四句	-10.7652
佛所	-10.7658
或不善	-10.7658
為二	-10.7659
無實	-10.7662
由業	-10.7663
可生	-10.7667
第九品	-10.7668
應知此	-10.7669
之因	-10.7669
所害	-10.7669
所增隨眠	-10.767
最勝故	-10.7671
有他心智	-10.7671
三心	-10.7671
彼天	-10.7673
謂諸異生	-10.7673
色時	-10.7675
折	-10.7676
上得	-10.7679
極遠	-10.768
有三句	-10.7695
勇	-10.7696
尊者妙音作如是說	-10.7697
我生已盡	-10.7698
示導	-10.7698
餘色	-10.7699
觀外色	-10.7699
拘	-10.77
永滅	-10.7701
旨	-10.7702
天處	-10.7703
緣一切法	-10.7704
眼識乃至意識	-10.7704
欲有	-10.7705
如水	-10.7706
如本	-10.7707
五十	-10.7708
苦諦所斷	-10.7714
彼過去	-10.7714
若不成就	-10.7719
令我	-10.7721
此中依	-10.7722
又非	-10.7723
見道位	-10.7723
故不別說	-10.7724
七句	-10.7726
有功能	-10.7727
是謂差別	-10.7727
七有	-10.7732
堪	-10.7734
七識住	-10.7735
共業	-10.7736
或在	-10.7739
非斷智知	-10.7739
斷知	-10.7743
由旬	-10.7744
護根	-10.7745
非色法	-10.7745
無間起	-10.7746
緣無色界繫	-10.7749
作方便	-10.7752
一切結	-10.7757
堪能	-10.7758
薩	-10.7768
法師	-10.7768
靜慮律儀	-10.7768
已解脫	-10.777
忍果	-10.7771
入滅盡定	-10.7772
微塵	-10.7772
除非	-10.7773
諸根因	-10.7778
釋迦	-10.7783
所得法	-10.7783
三念住	-10.7786
頃	-10.7789
所求	-10.7791
無色界無	-10.7799
非遍	-10.78
元	-10.7801
接	-10.7801
共有	-10.7802
既許	-10.7803
縛所縛	-10.7803
內無色想觀外色	-10.7803
迦葉	-10.7805
不平等	-10.7806
尊弟子	-10.7807
蘊界處	-10.7807
一切有漏	-10.7809
行滅	-10.7812
自性斷	-10.7814
下下品	-10.7814
解脫者	-10.7814
一以	-10.7815
見者	-10.7815
已離色染	-10.7816
有增上用	-10.7818
不能緣	-10.7818
戒禁	-10.7819
幾種	-10.7819
根義	-10.7819
先時	-10.782
因見苦斷	-10.782
受相應	-10.7821
羞	-10.7823
總明	-10.7824
不造	-10.7826
有想	-10.7828
如有一類	-10.7832
爾時世尊	-10.7845
如眼	-10.7846
無相三昧	-10.7846
那落迦	-10.7847
便無	-10.7852
聞所成	-10.7853
無明等	-10.7855
心無	-10.7859
忍位	-10.7862
嗅	-10.7863
是故世尊	-10.7863
大造	-10.7869
其身	-10.7869
觀身	-10.7869
之與	-10.7871
五事	-10.7872
毘奈耶	-10.7876
波羅	-10.7877
四境	-10.7877
一部	-10.7882
入定心	-10.7887
善戒	-10.789
四部	-10.7891
由因	-10.7892
於三界	-10.7892
雖說	-10.7892
譬	-10.7894
現在修	-10.7895
一業	-10.7896
下下	-10.7896
若如理所引了別	-10.7897
應思	-10.7898
第一有	-10.7899
籌	-10.7904
或作	-10.7905
一支	-10.7906
觀諦	-10.7908
=	-10.7908
為障	-10.7911
梵行已立	-10.7911
咸	-10.7913
射	-10.7915
蘇	-10.7916
彼便	-10.7918
鹽	-10.7918
則不成就	-10.7919
僧破	-10.7925
捨故	-10.7926
不在	-10.7929
天子	-10.793
身異	-10.7933
深生	-10.7934
畜	-10.7936
一世	-10.7939
非心數	-10.7943
作惡	-10.7946
勝定	-10.7949
俱無	-10.7951
於欲界中	-10.7952
結斷	-10.7963
為初	-10.7969
方起	-10.797
四因	-10.7971
亦起	-10.7971
故說名為	-10.798
一切是	-10.798
是第二	-10.7984
世尊亦說	-10.7984
相屬	-10.7986
通五部	-10.7989
前師	-10.7991
皆成	-10.7994
世尊所說	-10.7994
大王	-10.7997
皆容	-10.7999
嚴	-10.7999
第一句者	-10.8001
最為	-10.8006
滑	-10.8015
犍度	-10.8019
起貪	-10.8019
敷	-10.802
磨	-10.8021
及修斷使使	-10.8022
瘡	-10.8023
未得世俗智現在前	-10.8024
有貪	-10.8024
青黃赤白	-10.8026
無垢人	-10.8027
如見	-10.8028
此六	-10.8031
諸功德	-10.8031
自業	-10.8032
沙門性	-10.8033
明淨	-10.8035
還得	-10.8037
得道	-10.8038
鬼趣	-10.8039
異緣	-10.804
八道支	-10.8043
復有苾芻	-10.8045
命終時	-10.8045
無有差別	-10.8052
疑蓋	-10.8054
及彼相應	-10.8057
欣樂	-10.8059
唯能	-10.806
既是	-10.8062
便違	-10.8063
善思	-10.8063
此所說	-10.8063
後果	-10.8063
亦不能	-10.8064
於中有	-10.8065
不解	-10.8069
有德	-10.8072
不定者	-10.8072
無一	-10.8074
住果	-10.8079
身口	-10.8082
五無間業	-10.8086
顯宗論	-10.8086
此境	-10.809
隱沒無記	-10.809
彼所說	-10.8091
初師	-10.8093
一極微	-10.81
道類忍	-10.8105
謂得	-10.8107
生地獄中	-10.8107
先所	-10.8108
沒生	-10.8111
即顯	-10.8111
識所緣	-10.8112
為樂	-10.8113
名有隨眠	-10.8114
不得生	-10.8115
緣下	-10.8117
損益	-10.8118
是事	-10.8122
覺意	-10.8122
支節	-10.8122
鬘	-10.8122
三十一	-10.8124
識等	-10.8126
所愛	-10.813
截	-10.813
負	-10.8131
瞿曇	-10.8132
復云何	-10.8133
急	-10.8137
任運	-10.8137
後世	-10.8138
此實餘虛妄	-10.8141
若見圓滿世	-10.8142
邪婬	-10.8142
共生	-10.8143
遍緣	-10.8147
若有是事	-10.815
威儀心	-10.8151
遮遣	-10.8153
諸善法	-10.8156
滅道法智	-10.8159
釋第二句	-10.816
妻	-10.8166
非有情數	-10.8166
化身	-10.8169
如是等類	-10.8173
亦有差別	-10.8175
蔽	-10.8176
心相續	-10.8182
邪性	-10.8184
名說	-10.8186
遊戲	-10.8187
違理	-10.8191
體即是	-10.8194
引經證	-10.8196
如種	-10.8203
住故	-10.8205
通行	-10.8205
亦見	-10.8206
不清淨	-10.8209
煩惱斷	-10.8212
出離依	-10.8215
色界繫法	-10.8218
行報	-10.8219
何故世尊	-10.8222
初靜慮中	-10.8226
樂住	-10.8229
所為	-10.8232
不現前	-10.8233
前心	-10.8234
謂能	-10.8234
方生	-10.8236
害他	-10.8237
億	-10.8239
五果	-10.8241
於現	-10.8242
時解脫練根作不動	-10.8244
含	-10.8244
步	-10.8245
有法是	-10.8246
念前世智	-10.8248
朋	-10.825
根本靜慮	-10.8251
已得不失	-10.8252
云何學	-10.8253
一界一入一陰攝	-10.8255
師子	-10.8256
房	-10.8257
愛恚	-10.8258
故契經說	-10.8259
住時	-10.8266
高舉	-10.8268
邪慢	-10.8269
譬喻者	-10.8272
若有是處	-10.8278
欲界法	-10.8278
貪瞋慢	-10.8282
已捨	-10.8286
止觀	-10.8287
法智類智	-10.8289
此色	-10.8289
其量	-10.8291
證法	-10.8292
頂法	-10.8295
有未來	-10.8296
於過去	-10.8296
恚結繫	-10.8297
相離	-10.8297
中唯	-10.83
不俱	-10.8301
諸所有色	-10.8301
運	-10.8302
能轉	-10.8306
得非得	-10.8307
貪不善根	-10.8309
天眼通	-10.8316
非智	-10.8321
煩惱垢	-10.8322
自宗	-10.8327
業煩惱	-10.8328
若比丘	-10.8332
未熟	-10.8334
所緣隨增	-10.8336
不忘	-10.8336
此中何故不說	-10.8338
壽行	-10.8341
相似法	-10.8342
護法	-10.8343
色受想行識	-10.8344
是謂成就	-10.8345
於果	-10.8347
增者	-10.8351
修行者	-10.8352
我為	-10.8353
相續故	-10.8353
或因	-10.8354
十五心	-10.8354
無願相應	-10.8355
無量有情	-10.8356
利養	-10.836
毘婆沙師說	-10.8361
六境	-10.8361
佉	-10.8361
大煩惱地法	-10.8362
均	-10.8363
餘經	-10.8366
繁	-10.8367
今應思擇	-10.8367
起欲界	-10.8368
無如是事	-10.8372
通三世	-10.8372
一間	-10.8373
上三靜慮	-10.8375
苦智已生	-10.8375
餘人	-10.838
道智未生	-10.8381
僧伽	-10.8381
十六心	-10.8382
易可	-10.8382
觸食	-10.8384
應辯	-10.8385
亦應然	-10.8387
十遍處	-10.8388
且據	-10.839
及無為	-10.8391
名生	-10.8392
身故	-10.8394
中劫	-10.8399
諸加行道	-10.8399
餘位	-10.8399
於中有二	-10.84
得滅定	-10.8403
何須	-10.8405
卷第三十	-10.8407
曾有	-10.8407
問頗有	-10.8411
外處	-10.8417
此滅	-10.8418
若有起	-10.8421
誰能	-10.8425
因性	-10.8425
我體	-10.8428
此下第二	-10.8428
異熟生心	-10.8432
水界	-10.8436
得六	-10.8448
時即	-10.8449
想心	-10.8453
述曰此下	-10.8457
起煩惱	-10.8458
不有	-10.8458
厭捨	-10.8461
愁	-10.8461
受三歸	-10.8468
然無	-10.8472
呵	-10.8472
其性	-10.8472
創	-10.8473
有過	-10.8474
向道	-10.8476
除色想	-10.8477
所以也	-10.8478
隨信隨法行	-10.8482
此難	-10.8483
可取	-10.8487
富貴	-10.8488
中間禪	-10.8492
第	-10.8494
生下	-10.8496
三識識	-10.8497
識所識	-10.8497
彼所有	-10.85
生身	-10.8507
福業事	-10.8512
欲界沒	-10.8516
彼滅	-10.8516
慢類	-10.8516
見滅斷有漏緣	-10.8518
攝持	-10.8521
不貪	-10.8521
此念	-10.8522
是緣	-10.8524
彼加行道時	-10.8524
三災	-10.8532
由得	-10.8533
修等智	-10.8536
善慧	-10.8537
諸預流者	-10.8538
無漏他心智	-10.8542
同異	-10.8545
皆由	-10.8546
奉	-10.8549
宿命	-10.8551
其理	-10.8554
無知他人心智	-10.8555
十一界	-10.8557
外物	-10.8558
自說	-10.856
轉生	-10.8561
增進	-10.8561
及根	-10.8564
欲貪隨眠	-10.8565
起惑	-10.8566
一體	-10.8572
畢竟斷	-10.8572
便成	-10.8573
猗覺意	-10.8575
心現在前	-10.8575
見諦所斷	-10.8578
若就	-10.8578
還滅	-10.8581
無障礙	-10.8584
外難	-10.8588
未來耶	-10.8588
問若爾何故	-10.8589
明利	-10.859
有執	-10.8592
蛇	-10.8592
涉	-10.8593
為因故	-10.8594
是所	-10.8594
復起	-10.8595
近遠	-10.8596
對法諸師	-10.8597
釋頌本	-10.8598
何相	-10.8599
除前	-10.8601
四心	-10.8601
斷智知	-10.8602
彼過去法智耶	-10.8603
身中有	-10.8608
廣釋	-10.8609
或無處	-10.8609
斷欲界	-10.8612
究竟故	-10.8612
此想	-10.8614
無罪	-10.8618
如今	-10.8619
觀待	-10.862
或不	-10.8622
未來造色	-10.8625
波羅蜜多	-10.8629
若我	-10.8633
入處	-10.8634
彼中	-10.8635
緣四諦	-10.8636
釋初句	-10.8638
得一	-10.8638
過去造色	-10.864
如實知見	-10.8644
因苦法智斷	-10.8644
正行	-10.8645
難言	-10.8648
退果	-10.8651
五人	-10.8653
有其	-10.8653
及無為法	-10.8655
色生	-10.866
作事	-10.8661
所隨	-10.8663
有二十	-10.8663
此經中	-10.8668
且初	-10.8669
實非	-10.8675
謂自	-10.8675
煩惱故	-10.8677
種族	-10.8677
相應使	-10.8679
持心	-10.8683
名身等	-10.8685
神境	-10.8689
十歲	-10.8691
隨界	-10.8691
威勢緣	-10.8693
為對治	-10.8695
有別法	-10.8695
盛陰	-10.8698
同地	-10.8699
法蘊	-10.8701
應當	-10.8702
死後	-10.8703
有爾所	-10.8704
十處	-10.8707
第二釋	-10.8708
乞食	-10.8713
發聲	-10.8713
跡	-10.8714
聰慧	-10.8715
現觀邊世俗智	-10.8715
苦故	-10.8716
通釋	-10.8717
堅信堅法	-10.8719
前言	-10.8721
過去耶	-10.8722
虗空	-10.8723
多諸	-10.8724
此唯	-10.8725
六欲天	-10.8725
若爾何緣	-10.8729
濕生	-10.8729
性相	-10.8734
後一	-10.8736
隨其事	-10.8737
是他聚故	-10.8738
緣不繫	-10.8739
合故	-10.8747
色界中有	-10.8748
漸得	-10.8748
自在天	-10.8756
即能	-10.8756
此亦應然	-10.8759
欲愛盡	-10.8761
可樂	-10.8766
心轉	-10.8767
道品	-10.877
則不如是	-10.8772
力劣	-10.8774
未說	-10.8775
諸苾芻	-10.8775
或多	-10.878
色故	-10.8783
眼觸所生受	-10.8785
品類足說	-10.8786
若諸有情	-10.8786
斷善根者	-10.8786
或執為	-10.8788
一切色	-10.8788
等相	-10.8789
唯受	-10.879
惟	-10.8794
受念處	-10.8795
有邊	-10.8796
於善	-10.8802
安布	-10.8806
論主答	-10.8808
天眼耳	-10.8812
彼身	-10.8813
若爾云何	-10.8814
離欲界	-10.8818
此品	-10.8824
欲界苦	-10.8824
修所成慧	-10.8827
右	-10.8829
諸界	-10.8831
後四	-10.8832
順住分	-10.8833
正量部	-10.8835
默然	-10.8836
所識	-10.8837
當觀	-10.8838
身分	-10.8843
解脫故	-10.8844
滅類智	-10.8844
其果	-10.8846
及心	-10.8849
五行	-10.8851
能觀	-10.8855
聲界	-10.8857
謂無學	-10.8858
苦滅	-10.8858
得聖	-10.8858
亦不應理	-10.886
他性	-10.8864
背捨	-10.8865
答不爾	-10.8865
彼亦是	-10.8866
說彼	-10.8866
具說	-10.887
樂根相應	-10.8875
云何不善	-10.8875
諸靜慮	-10.8875
善報	-10.8878
心得解脫	-10.8878
而為	-10.8879
昧劣	-10.8884
壞劫	-10.8886
出定心	-10.8887
根性	-10.8887
比知	-10.8889
唯攝	-10.8893
習修	-10.8896
六心	-10.8897
唯生	-10.8897
一切隨眠	-10.8898
能盡	-10.89
色聲香味觸	-10.8903
十七界	-10.8906
正說	-10.8911
地者	-10.8913
已斷故	-10.8913
為治	-10.8914
必起	-10.8917
遮止	-10.8917
具四	-10.8919
於色界	-10.892
欲知	-10.8933
師云	-10.8934
索	-10.8936
聲說	-10.8942
正釋	-10.8942
總立	-10.8944
不墮	-10.8945
阿素洛	-10.8946
忿等	-10.8947
一一皆	-10.8948
於無色界	-10.8948
攝一切法	-10.8949
一切世間	-10.8949
如是諸法	-10.895
梨	-10.895
一入	-10.8951
彼比丘	-10.8952
呪術	-10.8952
諸瑜伽師	-10.8952
無始時來	-10.8953
成劫	-10.8954
如是次第	-10.8954
見苦集滅道及修所斷	-10.8955
漏處攝	-10.8956
促	-10.8957
修加行	-10.8958
三義觀	-10.896
黑闇	-10.8961
卷第二十	-10.8965
非學非無學法	-10.8965
苦惱	-10.8968
信受	-10.8971
同一果	-10.8972
除無明	-10.8973
由此故說	-10.8974
誓	-10.8975
威德	-10.8975
愛未盡	-10.8977
離諸	-10.8979
有一類	-10.898
念慧	-10.8982
二取	-10.8988
不正知	-10.8989
無色貪	-10.899
不能引	-10.899
此頌	-10.8993
故不相違	-10.8993
形量	-10.8997
學見	-10.8997
妙法	-10.9
異處	-10.9001
如意	-10.9001
此四種	-10.9004
所纏	-10.9004
見法	-10.9005
此二法	-10.9006
聖語	-10.9008
若無者	-10.9011
謂愛	-10.9012
長短	-10.9013
不隱沒無記色	-10.9013
所緣故隨增非相應故	-10.9016
第三明	-10.9016
聲聞獨覺	-10.9017
輕重	-10.9017
察	-10.9018
廣說如經	-10.9018
自作	-10.9021
至教	-10.9022
已滅不失	-10.9027
三慧	-10.9029
散心	-10.903
岸	-10.903
但約	-10.9032
有喜	-10.9032
定得	-10.9038
於有情	-10.9039
有法非	-10.9039
見使	-10.9048
下文	-10.9049
迦濕彌羅國	-10.905
契經所說	-10.9051
逼迫	-10.9051
順現法受業	-10.9052
人壽	-10.9058
行處	-10.9065
不破	-10.9067
〔	-10.9067
斷時	-10.9069
在於	-10.9069
跋	-10.907
多住	-10.9074
死想	-10.9077
東方	-10.9077
今說	-10.9078
評曰應作是說	-10.908
等物	-10.908
初盡智	-10.9084
勝行	-10.9084
相待	-10.9085
不別立	-10.9089
未已生	-10.9091
有漏行	-10.9092
時彼	-10.9094
緣闕	-10.9095
能顯	-10.9096
中生	-10.9101
發業	-10.9101
彼加行道	-10.911
亦修	-10.9111
威儀工巧	-10.9112
遠近	-10.9112
得彼	-10.9113
淨初靜慮	-10.9113
能順	-10.9115
依主釋也	-10.9115
三道	-10.9115
若善	-10.9117
身不	-10.9117
有苦	-10.9118
又論云	-10.9118
色中	-10.9119
第三果	-10.9119
又無	-10.9127
立支	-10.913
既非	-10.9132
若現在前	-10.9132
已作	-10.9134
問何緣	-10.9134
想蘊	-10.9138
語惡行	-10.9143
報業	-10.9145
五心	-10.9149
由根	-10.9149
破也	-10.9149
離色	-10.915
剎那剎那	-10.9152
精	-10.916
彼雖	-10.916
堅實	-10.916
定業	-10.9161
未至地	-10.9162
亦斷	-10.9165
謂若法	-10.9166
如何得	-10.9168
此無表	-10.9168
不同故	-10.9168
隨心	-10.917
於是	-10.9171
已復	-10.9174
入聖	-10.9174
無記業	-10.9175
有記	-10.9179
下中上	-10.9181
仁	-10.9183
黠	-10.9184
色究竟天	-10.9186
慶喜	-10.9188
選擇	-10.9189
如何名	-10.919
侵	-10.9191
寄	-10.9191
貪嗔	-10.9192
油	-10.9193
四無色定	-10.9193
餘九	-10.9194
生非想非非想處	-10.9194
可為	-10.9195
色無為心不相應行	-10.9197
矣	-10.9198
或先有不失	-10.9198
皆名為	-10.9199
夏	-10.9199
了達	-10.92
染淨	-10.9201
離一切	-10.9201
不應作	-10.9202
結中	-10.9205
唯立	-10.9214
頌答	-10.9217
隨義	-10.9217
非正	-10.9217
九十	-10.922
以何為	-10.922
一釋	-10.9228
為四	-10.923
無結盡	-10.923
唯見	-10.9232
及住	-10.9233
最極	-10.9233
別法	-10.9236
諸得俱起	-10.924
餘根	-10.9245
出觀	-10.9247
樂淨	-10.9251
與未來	-10.9251
如王	-10.9254
無力	-10.9254
若取	-10.9256
壁	-10.9258
顯彼	-10.9259
執取	-10.926
不相觸	-10.926
應受	-10.9263
此據	-10.9265
二滅	-10.9268
所明	-10.9271
不能令	-10.9278
二解脫	-10.9283
宣	-10.9286
若色界	-10.9288
於世	-10.9288
供	-10.9289
如以	-10.9293
住非律儀非不律儀	-10.9294
正見等	-10.9294
復以	-10.9294
我應	-10.9295
其事	-10.9296
麁顯	-10.9297
心與	-10.93
六通	-10.9306
分為	-10.9307
羯剌藍	-10.931
餘一切	-10.9312
生無色	-10.9314
宋	-10.9315
復有餘	-10.9315
未來十	-10.9316
有對觸	-10.9322
起已	-10.9322
於世間	-10.9324
壞敗	-10.9325
快樂	-10.9326
從多分說	-10.9327
不也	-10.9329
鼻根	-10.9331
中亦有	-10.9334
母胎	-10.934
心所念法	-10.934
對法者	-10.9342
身語表	-10.9346
即名為	-10.9347
起下	-10.9348
二以	-10.9356
異於	-10.9359
高下	-10.936
自心	-10.9363
能斷善根	-10.9363
巳上	-10.9368
佛語	-10.9388
助伴	-10.9388
應當知	-10.9388
於後時	-10.9392
名沙門果	-10.9392
所詮	-10.9393
二三四	-10.9394
餘蘊	-10.9395
唯不善	-10.9395
耶解云	-10.9397
不犯	-10.9401
以三事故	-10.9404
若未得	-10.9406
無中有	-10.9406
下兩句	-10.9409
離非想非非想處染	-10.9413
通三	-10.9416
無學人	-10.9417
能入	-10.9418
卷第七	-10.9425
釋第三句	-10.9425
一切心	-10.9427
則為	-10.9432
得滅盡定	-10.9436
慈心	-10.9436
犯重	-10.9439
應立	-10.944
生緣老死	-10.944
兒	-10.9442
網	-10.9443
鄙	-10.9444
開示	-10.9444
疲	-10.9444
不分別	-10.9445
知根	-10.9446
惛	-10.9448
世尊告曰	-10.9449
謂或有執	-10.9451
尊者舍利子	-10.9452
演說	-10.9453
差別云何	-10.9455
力用	-10.946
或有過去愛結繫	-10.9461
彼於此道	-10.9461
空非我	-10.9461
三云	-10.9461
名何法	-10.9461
應修	-10.9461
善性	-10.9464
「	-10.9466
亦當	-10.9466
口業	-10.9467
今言	-10.9467
適意	-10.9468
至生相	-10.9468
以一	-10.9471
相續緣	-10.9477
正性	-10.9477
十二緣起	-10.9485
欲界結	-10.9486
為求	-10.9487
修善	-10.9488
有色有情	-10.9488
非因緣	-10.9489
身見邊見	-10.9491
滅已	-10.9491
空界色	-10.9492
無願三摩地	-10.9497
若知	-10.9501
如眼識	-10.9501
最為勝	-10.9502
雖於	-10.9506
不斷善根	-10.9506
謂有一類	-10.9509
而是	-10.9515
九結中	-10.9519
在此	-10.9521
等覺	-10.9522
觀見	-10.9524
由有	-10.9529
勝利	-10.9534
於自身	-10.9535
名想	-10.9539
希有	-10.9541
不斷者	-10.9544
有行	-10.9545
證不還果	-10.9547
俱害	-10.955
藏中	-10.955
修所斷心	-10.9557
為境界	-10.9557
嫉慳	-10.9559
問此說	-10.9562
集聖諦	-10.9562
非即	-10.9564
共心	-10.9566
一頌	-10.9567
甘露	-10.9569
鴿	-10.957
是故名為	-10.957
緣義	-10.9571
心定	-10.9571
大眾	-10.9572
中際	-10.9572
此中但說	-10.9577
吉祥	-10.9577
聚落	-10.9579
行世	-10.958
由此因故	-10.958
解了	-10.9582
淨妙	-10.9585
又契經言	-10.9586
可得故	-10.9587
治道	-10.9592
薪等	-10.9592
成時	-10.9593
已熟	-10.9595
不息	-10.9598
二俱繫	-10.9599
總有四種	-10.9599
修者	-10.96
盡不失	-10.9601
熱惱	-10.9604
是智	-10.9607
從他	-10.9607
心不相應	-10.9608
除欲	-10.9608
十業道	-10.9609
見道所斷法	-10.9612
三根相應	-10.9612
偏增	-10.9614
三門	-10.9615
疑使	-10.9618
無漏四靜慮	-10.9618
在初	-10.9628
百劫	-10.9629
即於彼	-10.9629
遣他	-10.963
卑慢	-10.9632
引業	-10.9633
生在	-10.9638
一少分	-10.964
堅牢	-10.9645
有無量	-10.9648
諸有為	-10.9649
斷末摩	-10.9649
笑	-10.965
盡諦	-10.965
除一切法	-10.9651
身作證	-10.9651
當知此義有餘	-10.9652
法門	-10.9654
是修道斷	-10.9656
周遍	-10.9657
若不盡	-10.9657
所施	-10.9662
中間定	-10.9662
威力	-10.9663
八界	-10.9665
初明	-10.9668
是因緣	-10.9669
為道	-10.967
緣苦集	-10.9673
非業緣	-10.9678
寂默	-10.9683
非見性	-10.9683
理成	-10.9687
有結	-10.9687
九處	-10.9688
此行	-10.9689
預	-10.9695
非身	-10.9696
定戒	-10.9698
七使	-10.9698
及無色界	-10.9698
答由	-10.9698
尊者佛陀提婆說曰	-10.9698
貪欲瞋恚	-10.97
邪語	-10.9701
業緣	-10.9701
更有說者	-10.9701
正業	-10.9702
汝說	-10.9703
剎帝利	-10.9707
國土	-10.9709
無學見	-10.9709
師釋	-10.971
得是時修	-10.971
上中下	-10.9712
欲界三部	-10.9712
隔越	-10.9714
通依	-10.9714
自性與自性不相應	-10.9715
二識	-10.9716
生後	-10.9717
邪方便	-10.972
是共	-10.9721
福德	-10.9729
本所	-10.973
見智慧	-10.9734
亂心	-10.974
所因	-10.9742
緣諦	-10.9743
便捨	-10.9743
不顛倒	-10.9743
餘惑	-10.9747
意妙行	-10.9747
漏盡通	-10.9748
淨相	-10.9749
窮	-10.9751
六句	-10.9757
分析	-10.9758
彼師	-10.976
決斷	-10.976
無學慧	-10.9761
此能	-10.9762
今欲	-10.9767
有作是言	-10.9769
不能取	-10.9769
唯應	-10.9769
非業道	-10.977
彼復	-10.9775
分為二	-10.9776
緣滅諦	-10.9779
及一切	-10.978
般涅槃者	-10.978
八解脫道	-10.9781
中云	-10.9782
無依	-10.9788
所緣斷	-10.9788
解脫障	-10.9792
學慧	-10.9793
在何位	-10.9794
初無漏	-10.9796
此眾生	-10.9796
不相續	-10.9797
於一切時	-10.9801
於下	-10.9802
通於	-10.9803
彼於爾時	-10.9805
遍淨	-10.9806
等覺支	-10.9807
支體	-10.9808
過慢	-10.9808
無慚愧	-10.9809
無相三摩地	-10.981
未來生	-10.9811
云何法入	-10.9813
因等起	-10.9815
無分別	-10.9815
獄	-10.9815
在意地	-10.9817
如上說	-10.9822
三位	-10.9822
此中不說	-10.9822
聞聲	-10.9824
放	-10.9824
相應不相應	-10.9828
爛	-10.9828
奢	-10.983
或復有	-10.983
如其所應	-10.983
若約	-10.9832
經部答	-10.9832
自相續	-10.9832
罰	-10.9833
牢固	-10.9834
仰	-10.9834
謂如有一	-10.9834
此時	-10.9835
推求	-10.9837
喜等	-10.9838
宮殿	-10.9839
取果與果	-10.9839
愛取	-10.984
集智未生	-10.9842
後釋	-10.9844
觀彼	-10.9845
初無漏心	-10.9848
離第四靜慮染	-10.9848
無明結未斷	-10.9852
別解律儀	-10.9853
所對	-10.9856
不復生	-10.9857
得阿那含果	-10.9858
所須	-10.9861
詰	-10.9862
即生	-10.9863
難得	-10.9864
於緣	-10.9866
故佛	-10.9875
近分地	-10.9878
已度	-10.9878
道類智忍	-10.9881
空無願	-10.9882
此應	-10.9886
相續生	-10.9889
彼文	-10.9891
遍滿	-10.9893
通經	-10.9894
見所斷結	-10.9895
期	-10.9897
習諦	-10.9898
切	-10.9898
其人	-10.9899
與後	-10.9901
集類智	-10.9903
不共心	-10.9903
牽引	-10.9903
不約	-10.9905
有身見邊執見	-10.9906
隨所應當	-10.9906
云何法界	-10.9906
廣辯	-10.9913
准知	-10.9913
制伏	-10.9916
此我	-10.9917
已有	-10.9917
假有	-10.9917
地獄趣	-10.9919
州	-10.992
有依	-10.9921
以下	-10.9921
毀壞	-10.9922
鬪諍	-10.9925
其所	-10.9937
後師	-10.9939
所持	-10.994
佛契經	-10.994
問起	-10.9943
惱亂	-10.9943
成三	-10.9946
敗	-10.9946
彼諸	-10.995
餘因	-10.9953
諸沙門婆羅門	-10.9954
盧	-10.9957
竊	-10.9961
入無想定	-10.9962
尸	-10.9963
徒	-10.9963
彼所起心不相應行	-10.9965
為彼	-10.9965
有得	-10.9965
共相作意	-10.9966
擇法覺意	-10.9966
無過去	-10.9967
臭	-10.9968
納息	-10.9969
因不相應	-10.9969
眾生數	-10.9969
自境	-10.9969
初後	-10.997
理不成故	-10.9971
此通	-10.9972
集滅	-10.9973
謂於此事	-10.9975
決定別有	-10.9976
貪欲蓋	-10.9978
本無今有	-10.998
十年	-10.9982
自稱	-10.9983
下三無色	-10.9985
美妙	-10.9986
若成	-10.9986
不一切遍	-10.9991
此後	-10.9992
答一增上	-10.9992
無想異熟	-10.9994
大善地法	-11
此意	-11.0002
分二	-11.0002
順上分結	-11.0003
不續	-11.0003
慧眼	-11.0007
謂未來	-11.001
多行	-11.001
細滑	-11.0012
名異生性	-11.0016
無前後	-11.0018
四識	-11.0018
一想	-11.0018
依於	-11.0025
十二心	-11.0026
是名法入	-11.0026
謂眼	-11.0029
慢等	-11.0029
為能作因	-11.0033
未至中間	-11.0036
云云	-11.0041
恥	-11.0042
以於	-11.0044
為此	-11.0048
有心位	-11.0051
起加行	-11.0052
不自在	-11.0056
若諸聖者	-11.0058
依之	-11.0058
下分	-11.0059
遠故	-11.0059
四云	-11.006
相應思	-11.0062
雜緣	-11.0065
此中說之	-11.0069
能受	-11.0073
思惟法	-11.0075
吾	-11.0075
限	-11.0076
形相	-11.0077
何果攝	-11.0077
色識	-11.0078
樂等	-11.008
惡業道	-11.0084
等名	-11.0084
二相	-11.0087
非決定	-11.0089
相別	-11.0091
本法	-11.0091
定生喜樂	-11.0099
漸減	-11.0099
滿業	-11.01
非過去非未來非現在	-11.01
見盜	-11.01
弘	-11.0101
齊何	-11.0101
餘或成就或不成就	-11.0103
乖	-11.0103
苑	-11.0104
於人	-11.0105
摧	-11.0106
開避	-11.0106
割	-11.0108
容受	-11.0109
入見諦者	-11.011
良	-11.011
此三種	-11.011
園林	-11.0111
勢力劣故	-11.0112
上所說	-11.0113
廢立	-11.0115
言論	-11.0117
違逆	-11.0117
隣虛	-11.0119
此既	-11.0119
女男根	-11.0122
作論者	-11.0125
作三句	-11.013
不等	-11.013
如大	-11.0133
緣苦	-11.0134
義言	-11.0135
定慧	-11.0135
化事	-11.0136
令身	-11.0141
有頂地	-11.0142
如何成	-11.0143
用增	-11.0143
此十	-11.0144
不應理	-11.0146
四月	-11.015
四大所造	-11.015
先斷	-11.0152
彼想	-11.0153
資益	-11.0156
者不然	-11.0158
諸道	-11.0161
現在大種	-11.0161
非證	-11.0164
此問	-11.0165
合緣	-11.0165
隨生	-11.0166
但可	-11.0166
未了	-11.0167
聞法	-11.017
必當	-11.0171
如是已說至	-11.0171
無行	-11.0171
是故先說	-11.0171
六明	-11.0174
彼法非	-11.0176
得決定	-11.0181
論主難	-11.0182
鼻舌	-11.0184
三心頃	-11.0188
是故不立	-11.019
修梵行	-11.0194
如應	-11.0196
是結	-11.0198
設法	-11.0198
心如實知	-11.0199
加行後起	-11.02
難陀	-11.0205
緣滅	-11.0206
滅位	-11.0207
若有人	-11.0211
為十	-11.0213
是名法界	-11.0218
文義	-11.0219
如燈	-11.0221
隨轉色	-11.0222
餘生	-11.0223
證阿羅漢果	-11.0225
色無色界苦	-11.0227
續善	-11.0228
質直	-11.023
謂或有	-11.023
露	-11.0231
十一種	-11.0232
乙	-11.0232
受心	-11.0232
不障礙	-11.0233
色界死	-11.0233
天帝釋	-11.0236
說一切	-11.0237
慼	-11.0238
解脫得	-11.0239
食者	-11.0239
升	-11.0241
餘不定	-11.0244
引果	-11.0245
免	-11.0245
說亦爾	-11.0246
蔭	-11.0246
追悔	-11.0247
乃至若	-11.0247
謂異生	-11.0249
地法	-11.0249
隨從	-11.0251
障礙有對	-11.0253
聲入	-11.0255
不耶	-11.0256
類故	-11.0258
顯宗	-11.0259
一句	-11.0263
三和合	-11.0264
現法樂住	-11.027
離欲貪	-11.0271
妙高山	-11.0272
二趣	-11.0274
緣見滅斷	-11.0277
佛作是說	-11.0278
無煩惱	-11.0279
即滅	-11.0288
如應當知	-11.0289
教化	-11.0291
獨名	-11.0293
唯無記	-11.0293
九十八隨眠中	-11.0306
降	-11.0306
六者	-11.0307
未離欲界貪	-11.031
由三	-11.0318
他界	-11.0321
共生因	-11.0325
復問	-11.0327
何理	-11.0327
有是處	-11.0328
界品	-11.0329
分別論者	-11.033
有十種	-11.0334
論主釋	-11.0337
四受	-11.0337
業故	-11.0337
有聲	-11.034
顯形	-11.0342
應同	-11.0343
慧者	-11.0344
婆沙一百三十	-11.0346
非無記	-11.0351
欲界善	-11.0351
無益	-11.0351
於此處	-11.0351
轉時	-11.0352
集聚	-11.0352
有少	-11.0356
有常	-11.0362
正生時	-11.0366
決定故	-11.0369
一來者	-11.037
通二種	-11.0372
善說	-11.0373
沙門瞿曇	-11.0373
離欲染時	-11.0374
於定	-11.0374
生位	-11.0377
彼即是彼	-11.0378
鉤	-11.0378
教誡	-11.0378
拔濟	-11.0379
何妨	-11.0381
肘	-11.0383
十二種	-11.0384
以何為自性	-11.0384
擲	-11.0384
起染	-11.0385
半超	-11.0386
相應縛	-11.0387
數行	-11.0388
黃門	-11.0388
無復	-11.0388
日光	-11.0389
慧力	-11.039
成就四大	-11.0391
諸忍	-11.0391
力能	-11.0391
生報	-11.0392
謂過去現在	-11.0392
有眾多	-11.0394
是名身念處	-11.0396
愛結未斷	-11.0398
唐言	-11.0401
報果	-11.0404
虛妄	-11.0405
離下染	-11.0407
見中	-11.041
諸有欲令	-11.041
兩說	-11.041
名有執受	-11.0411
必具	-11.0412
善處	-11.0413
預流向	-11.0415
作第四句	-11.0417
不勝法	-11.0417
一處少分	-11.0419
諸心所	-11.0426
愛著	-11.0428
別有體	-11.0428
其因	-11.0429
或緣	-11.0434
皆依	-11.0437
聲等	-11.0442
依第二靜慮	-11.0442
此為	-11.0443
除去	-11.0444
是世	-11.0444
非要	-11.0445
餘師說	-11.0446
聚義	-11.0446
如法	-11.0448
不善業道	-11.0449
苦類智已生	-11.045
於何	-11.045
諸無漏	-11.0456
非眾生數	-11.0457
得果時	-11.0458
能牽	-11.0458
業用	-11.0467
故無有過	-11.0471
非無學	-11.0471
簡異	-11.0473
緣自	-11.0475
五蘊為體	-11.0476
自果	-11.0478
順下分	-11.0479
二行	-11.048
乃至未	-11.0482
不能見	-11.0486
鏡等	-11.0489
分別意識	-11.049
有九種	-11.049
計度	-11.0491
色耶	-11.0493
釋種	-11.0494
喜無量	-11.0495
邪見等	-11.0496
無垢	-11.0497
第二生	-11.0499
吐	-11.0501
復次若法	-11.0502
學智	-11.0504
者即是	-11.0505
默	-11.0508
不更	-11.0508
見彼	-11.0509
彼聚	-11.0509
密意	-11.051
序	-11.051
品類足	-11.0512
與上相違	-11.0513
墮負	-11.0514
旋	-11.0514
廢	-11.0515
將欲	-11.0515
如實見	-11.0516
及過去現在	-11.0518
念等覺支	-11.0518
遍身	-11.0518
捷疾	-11.0519
即知	-11.052
經部宗	-11.052
詞無礙解	-11.052
甘	-11.0521
如我	-11.0522
縱廣	-11.0522
陳	-11.0524
慈氏	-11.0524
苾芻尼	-11.0525
利樂	-11.0525
香界	-11.0527
所說義	-11.0528
豆	-11.0528
愁憂	-11.0529
可欣	-11.0529
水等	-11.0529
二無心定	-11.0529
緣欲	-11.0532
亦定	-11.0533
無學智	-11.0533
連續	-11.0534
自相共相	-11.0536
大文第	-11.0537
為餘	-11.0537
合會	-11.0541
於此義中	-11.0543
問答分別	-11.0543
緒	-11.0543
由此證知	-11.0544
無間地獄	-11.0551
等流性	-11.0551
云何非學非無學	-11.0551
能引起	-11.0552
初果	-11.0557
或從	-11.0558
要待	-11.0559
更加	-11.0561
皆從	-11.0562
而實	-11.0562
損壞	-11.0566
不喜足	-11.0569
等皆	-11.0574
一心頃	-11.0575
而名	-11.0579
相差別	-11.0579
多名身	-11.0585
巳生	-11.0586
何等為	-11.0587
彼答言	-11.059
從因生	-11.0591
外緣	-11.0596
云何欲界繫	-11.0601
無漏初靜慮	-11.0601
復次為	-11.0601
謂有為法	-11.0603
便壞	-11.0606
廣略	-11.0607
不減	-11.0609
三無漏	-11.0612
餘七	-11.0613
施設論	-11.0614
日夜	-11.0621
得般涅槃	-11.0626
謂住	-11.0629
緣使	-11.0629
應說而不說者	-11.063
議	-11.0634
如色	-11.0635
答有說	-11.0635
結法	-11.0638
隨所得	-11.0639
欲界死	-11.064
正見相應	-11.064
謂無明	-11.0641
為五	-11.0642
加行善心	-11.0642
前攝後	-11.0645
如經言	-11.0645
或復有說	-11.0646
圓德	-11.0648
且說	-11.0648
百歲	-11.065
增一	-11.0651
各二	-11.0651
違越	-11.0651
殘	-11.0651
定根	-11.0652
緣色界繫	-11.0653
是見性	-11.0658
非業相應	-11.0658
但能	-11.0659
數論	-11.0659
險	-11.0662
哀愍	-11.0663
飯	-11.0663
集類智未生	-11.0665
怛	-11.0666
瞿	-11.0666
名色緣識	-11.0667
觀此	-11.0667
減少	-11.0668
為遮彼執顯	-11.0669
怨敵	-11.0669
由加行	-11.0676
使性	-11.0677
近住律儀	-11.0678
俱滅	-11.0678
以色	-11.068
徵也	-11.0682
建	-11.0684
更無餘	-11.0686
利他	-11.0689
十大	-11.069
無間滅	-11.069
非等無間緣	-11.069
別也	-11.0695
出入息	-11.0701
學無學法	-11.0702
繫心	-11.0702
有貪心	-11.0705
別顯	-11.0706
無色者	-11.0706
有十六	-11.0708
已壞	-11.0709
如世尊言	-11.0709
不用	-11.071
則不爾	-11.071
在後	-11.0711
三智	-11.0711
諸陰	-11.0713
起滅定	-11.0714
瞋等	-11.0716
欲尋	-11.0719
相貌	-11.072
即得	-11.072
經論	-11.0722
與一切	-11.0722
及一切遍	-11.0725
復有一類	-11.0726
便斷	-11.0728
非愛果	-11.0733
得也	-11.0733
不願	-11.0735
非法智	-11.0735
尊者世友	-11.0736
必成就	-11.0738
而不說	-11.0739
有三品	-11.0744
妻子	-11.0748
入聖道	-11.0749
文身	-11.0751
諸聖	-11.0751
繫故	-11.0752
分別行	-11.0752
起愛	-11.0754
纏退時	-11.0754
或無色界繫	-11.0754
諸善根	-11.0755
智知	-11.0756
相續轉	-11.076
非心相應	-11.0761
持業釋	-11.0762
於內	-11.0762
未捨	-11.0762
巳下	-11.0763
能自	-11.0764
唯約	-11.0764
無記耶	-11.0767
泉	-11.0767
淨不淨	-11.0768
不記	-11.0772
得盡智時	-11.0776
一義	-11.0777
十隨眠	-11.0779
當分別	-11.0779
諸無間道	-11.0786
欲說	-11.0788
乃至第四禪	-11.0789
立一	-11.0793
亦唯	-11.0793
由見	-11.0795
轉增	-11.0796
應問彼言	-11.0797
一切有漏法	-11.0797
非擇滅得	-11.0797
婆羅	-11.0798
評	-11.0798
所燒	-11.0798
悶	-11.0799
弟	-11.0799
起現在前	-11.0801
幾智	-11.0803
酬	-11.0804
矯	-11.0804
祠祀	-11.0804
繩	-11.0805
隙	-11.0806
必由	-11.0806
尊者和須蜜說曰	-11.0806
所對治	-11.0807
男根女根	-11.081
無相無相	-11.081
親近勝法不	-11.0811
此即初也	-11.0811
獄卒	-11.0812
此難非理	-11.0812
死屍	-11.0813
理不應然	-11.0813
名同分	-11.0814
竪	-11.0815
典	-11.0815
順勝進分	-11.0819
不可知	-11.082
意成	-11.0821
通局	-11.0823
體即	-11.0824
遣使	-11.0827
及除	-11.083
若無記	-11.083
已來	-11.083
受緣愛	-11.0831
是識	-11.0836
何為餘	-11.0839
二應分別	-11.0842
中所有	-11.0843
不和合	-11.0845
不重	-11.085
力令	-11.085
得非數滅	-11.0852
苦集滅道智	-11.0853
隨轉戒	-11.0854
或學	-11.0855
於一切法	-11.0864
云何名為	-11.0868
過去者	-11.0869
非想非非想處繫	-11.0872
身內	-11.0873
轉者	-11.0875
所隨增	-11.0878
非增上緣	-11.088
果也	-11.088
好聲	-11.0883
外器	-11.0883
中住	-11.0883
多念	-11.089
辭	-11.089
以種種	-11.0891
各別故	-11.0893
得此	-11.0893
引證	-11.0893
命終捨	-11.0895
佛世尊說	-11.0897
於三世	-11.0897
過此	-11.0901
由此故知	-11.0903
住者	-11.0903
體性是	-11.0905
而可	-11.0906
中初	-11.0908
所依所緣	-11.091
不退法	-11.0911
苦比智	-11.0914
愛等	-11.0917
非報	-11.092
所造業	-11.093
五結	-11.0932
斷治	-11.0938
自在故	-11.0938
中定	-11.0939
或執	-11.0939
法得起	-11.0944
燋	-11.0947
惑業	-11.0947
阿含	-11.0949
則繫	-11.0949
屈	-11.0949
謂此俱有相應	-11.095
待因	-11.0951
浴	-11.0951
因法	-11.0952
任	-11.0952
侍	-11.0952
逮	-11.0953
復有過去愛結繫耶	-11.0953
住不律儀	-11.0953
四洲	-11.0954
有增減	-11.0954
以自	-11.0955
審慮	-11.0958
頻	-11.0959
不命終	-11.0959
營	-11.096
不增不減	-11.096
無上菩提	-11.096
訶責	-11.0961
如是相	-11.0962
二無礙解	-11.0963
逢	-11.0963
不修身	-11.0963
法智比智	-11.0964
謂見	-11.0964
是一切遍	-11.0965
第三解脫	-11.0965
近事律儀	-11.0965
有諸有情	-11.0966
耽嗜依	-11.0967
若阿羅漢	-11.0968
印度	-11.097
色聚	-11.0972
非報緣	-11.0974
亦無有過	-11.0974
以身	-11.0976
有所作	-11.0976
互不相攝	-11.0976
為首	-11.098
八萬劫	-11.0981
種種差別	-11.0982
彼經說	-11.0983
共有法	-11.0983
以此故知	-11.0984
緣力	-11.0986
假想	-11.0987
勝用	-11.0987
有漏無明漏	-11.0988
逼切	-11.099
欲天	-11.0992
得擇滅	-11.0994
少故	-11.0995
煩惱相應	-11.0996
唯顯	-11.0997
陀羅	-11.0998
一來向	-11.0999
退住	-11.1
愛盡上愛未盡	-11.1001
逼惱	-11.1004
所相	-11.1005
諸無漏法	-11.1005
所釋	-11.1005
無漏業	-11.1005
力等	-11.1009
密意說	-11.1011
覺悟	-11.1014
一心中	-11.1015
四取	-11.1018
當知亦如是	-11.1019
寧知	-11.102
無漏故	-11.1024
法無礙解	-11.1025
非異緣	-11.1027
法生時	-11.1028
欲止	-11.1028
誑語	-11.1029
無想三昧	-11.1029
在三界	-11.1031
不合	-11.1031
無漏五蘊	-11.1033
尊者妙音說	-11.1033
多剎那	-11.1033
大法	-11.1034
緣修斷	-11.1037
合為	-11.1038
所食	-11.1039
教他	-11.1041
如理所引	-11.1042
三界見所斷	-11.1046
身業語業	-11.1046
為等無間緣	-11.1048
不愛	-11.1049
邊際定	-11.105
阿羅漢果攝	-11.1052
至涅槃	-11.1053
是世俗	-11.1054
如是見	-11.1054
知他	-11.1061
此解	-11.1062
癡不善根	-11.1062
以契經說	-11.1064
生老住無常	-11.1066
非觸	-11.1067
不可以	-11.1068
處說	-11.1068
唯四	-11.1071
陸	-11.1073
十方	-11.1074
唯欲界繫	-11.1076
於一時	-11.1076
欲界二	-11.1077
或無漏	-11.1079
由心	-11.1079
欲等	-11.1079
及法處	-11.1083
修學	-11.1084
現在前者	-11.1084
已便	-11.1087
若捨	-11.1088
意欲	-11.1088
云何色陰	-11.1088
色界法	-11.109
性是	-11.1093
別觀	-11.1093
餘方	-11.1094
是遍行	-11.1095
阿羅漢向	-11.1095
祠	-11.1098
身語意	-11.1099
譬喻者說	-11.1099
厚	-11.11
若法非	-11.1101
前八遍處	-11.1101
覩史多天	-11.1103
毛孔	-11.1103
其體是何	-11.1104
空定	-11.1104
途	-11.1106
如說云何	-11.1106
捨戒	-11.1107
有漏身口戒無教	-11.1107
獸	-11.1109
酢	-11.1109
聞所成慧	-11.111
無常滅	-11.1112
為最勝	-11.1112
如偈說	-11.1112
那羅延力	-11.1113
從初	-11.1114
代	-11.1115
法生	-11.1116
及色界	-11.1116
煗等	-11.1117
身命	-11.1119
聞說	-11.1124
故此不說	-11.1125
經主於此	-11.1127
無同類因	-11.1128
若汝言	-11.1129
而復	-11.113
根相應	-11.113
二分別	-11.1131
福行	-11.1131
餘六	-11.1132
一應分別	-11.1133
功能差別	-11.1136
智現在前	-11.1138
以愛	-11.114
生般涅槃	-11.1142
初三	-11.1143
彼捨	-11.1143
得一來果	-11.1143
死者	-11.1144
結集	-11.1144
皆可	-11.1146
廣分別	-11.1148
非結	-11.1151
復次依	-11.1151
得住	-11.1155
)?	-11.1156
四正斷	-11.1156
佛不	-11.1157
異師	-11.1162
諸惡行	-11.1164
夜摩天	-11.1164
法界攝	-11.1168
觸等	-11.117
此戒	-11.1171
煗法	-11.1175
苦相	-11.1177
二緣生	-11.1177
必是	-11.1179
三四	-11.1179
當見	-11.1179
淨者	-11.1181
未見	-11.1183
即前所說	-11.1183
因明	-11.1188
廣如	-11.1189
如先	-11.1191
幾隨眠隨增	-11.1195
愛果	-11.1197
八者	-11.1199
可以	-11.12
是顛倒	-11.1203
依主釋	-11.1204
於母	-11.1204
或有漏	-11.1206
此下第二明	-11.1207
久遠	-11.1208
無色有	-11.1209
逐	-11.1209
其形	-11.1211
禪枝	-11.1211
造惡	-11.1213
無覆無記色	-11.1213
然不	-11.1215
如受	-11.1215
謂虛空	-11.1216
定蘊	-11.1217
等義	-11.1218
斷善根時	-11.1221
見盡斷	-11.1221
慢結繫	-11.1223
天眾	-11.1224
無別故	-11.1224
生梵世	-11.1226
在無色界	-11.1227
能令心	-11.1227
生受	-11.123
定當	-11.1231
貪故	-11.1233
離彼	-11.1233
十界	-11.1233
色無為	-11.1235
或一	-11.1236
所止	-11.1237
非梵行	-11.1241
或修所斷	-11.1244
若入	-11.1245
或非學非無學	-11.1247
所遮	-11.1248
無現在	-11.1249
甚為	-11.1249
是心所	-11.125
乞	-11.125
忍所斷	-11.1251
無用故	-11.1252
宅	-11.1253
懸	-11.1253
汁	-11.1255
阿僧祇	-11.1255
育多婆提	-11.1255
吉	-11.1255
休息	-11.1255
委	-11.126
同此論	-11.126
健達縛	-11.1261
苦智已生集智未生	-11.1261
帶	-11.1261
墜	-11.1262
樓	-11.1263
可成	-11.1264
集智已生	-11.1267
發勤精進	-11.1269
除苦根	-11.1269
智緣盡	-11.127
救護	-11.127
次觀	-11.1271
欲界心	-11.1273
身語意業	-11.1274
天人	-11.1276
立解脫	-11.1276
道路	-11.1279
緣不斷	-11.1282
色界中	-11.1283
傍生趣	-11.1283
依欲界身	-11.1284
未至禪	-11.1287
方處	-11.1287
唯一剎那	-11.1289
云何一	-11.129
通一切	-11.129
受異熟果	-11.1291
又彼所說	-11.1293
捨前	-11.1295
及彼相應法	-11.1295
總有三	-11.1296
外無別	-11.1297
一月	-11.1298
乃得	-11.1299
此在何位	-11.1301
強盛	-11.1301
非他心智	-11.1304
非但	-11.1307
得四沙門果	-11.1307
定知	-11.1308
不明	-11.1309
外別有	-11.1309
正精進	-11.1311
隨一現前	-11.1311
無願無相	-11.1312
加行時	-11.1314
所餘一切	-11.1315
不戒律處	-11.1316
解脫果	-11.1317
若法入	-11.1318
從欲界	-11.1319
染時	-11.1319
總有二種	-11.132
心行	-11.1321
一分別	-11.1326
雖俱	-11.1328
或思惟	-11.1329
四品	-11.1331
習盡道	-11.1332
有相	-11.1336
問為	-11.1338
體故	-11.1339
必同	-11.1339
復次諸	-11.134
此理	-11.134
云何色界繫	-11.1346
親近多修學	-11.1348
或不斷	-11.1351
明觸	-11.1354
他物	-11.1355
進根	-11.1357
依上地	-11.1358
異前	-11.1364
一味	-11.1364
一增上	-11.1365
由業力	-11.1366
住分	-11.1368
有處	-11.137
語表業	-11.1371
欲界色界	-11.1373
復為	-11.1373
移	-11.1376
法智相應	-11.1379
復從	-11.1381
異生位	-11.1381
色界繫善心	-11.1382
審思	-11.1382
自見	-11.1382
男身	-11.1383
復次行者	-11.1383
欲界三種	-11.1388
謂已得	-11.1389
善惡業	-11.139
緣非學非無學	-11.1392
長益	-11.1395
施設論說	-11.1396
除色	-11.1397
一剎那中	-11.14
伎	-11.14
三種業	-11.14
無餘依涅槃界	-11.1409
津	-11.1409
前四勝處	-11.141
草木	-11.141
答為欲分別契經	-11.1411
未離無色界貪	-11.1411
脇尊者言	-11.1413
答因增上	-11.1415
身口非戒無教	-11.1415
引彼	-11.1415
登	-11.1416
復作此論	-11.1416
下三靜慮	-11.1417
法及定不生法	-11.1417
尺	-11.1418
思所成慧	-11.1419
應供	-11.142
此忍	-11.1421
北俱盧洲	-11.1423
蘊滅	-11.1423
少入	-11.1424
塵垢	-11.1425
中有身	-11.1425
一陰	-11.1427
得果故	-11.1429
命根眾同分	-11.1434
九法	-11.1434
色愛未盡	-11.1434
出離尋	-11.1435
類中	-11.1435
法身	-11.1436
諸處	-11.1437
少有	-11.1441
以前	-11.1443
若欲界	-11.1443
戲論	-11.1443
彼境	-11.1443
現在造色	-11.1447
其事如是	-11.1448
不是	-11.145
不得此無表	-11.1452
便應	-11.1453
已受	-11.1457
第三第四靜慮	-11.1457
不穢污	-11.1458
生無想天	-11.1458
斷諸煩惱	-11.146
四顛倒	-11.1461
問此中	-11.1464
先已說	-11.1468
勤精進	-11.1469
不調	-11.1471
結現在前	-11.1474
出時	-11.1476
欲界天	-11.1478
非真	-11.1479
夢見	-11.148
故云	-11.1481
根本禪	-11.1484
依下地	-11.1484
世親	-11.1485
境界智	-11.1487
極光淨天	-11.1488
佛知	-11.1489
修心	-11.1489
淨居天	-11.1492
斷律儀	-11.1493
如餘	-11.1494
隣	-11.1495
遍六識	-11.1497
道力	-11.1498
總集	-11.1499
汝應	-11.1506
離欲得	-11.1506
次復	-11.1507
所能	-11.1512
亦於	-11.1512
堅住	-11.1512
命等	-11.1515
一相	-11.1516
答雖	-11.1516
發智論	-11.1517
緣何	-11.1518
亦如前說	-11.1523
故婆沙	-11.1524
無色染	-11.1524
三十三	-11.1525
增損	-11.1526
憂喜	-11.1528
則能	-11.1528
小相	-11.153
學心者	-11.153
必生	-11.153
外境	-11.1531
諸緣	-11.1534
一事	-11.1535
及修所斷隨眠隨增	-11.1536
意思惟相應	-11.1541
苦性	-11.1541
算	-11.1541
為生	-11.1542
句身	-11.1542
虛空界	-11.1542
未名	-11.1552
為增上緣	-11.1554
坑	-11.1554
為上首	-11.1555
有阿羅漢	-11.1555
餘身	-11.1556
後復	-11.1557
幾欲界繫	-11.1557
無喜樂	-11.1557
野	-11.1559
觀行者	-11.156
修彼道時	-11.1561
走	-11.1562
凝	-11.1563
方所	-11.1564
忍法	-11.1564
正語正業正命	-11.1564
城邑	-11.1565
鬼神	-11.1566
隨業轉	-11.1567
行相故	-11.1567
解脫門	-11.1568
童子	-11.1568
摶食	-11.1569
傷害	-11.157
及緣	-11.1571
閻浮提	-11.1571
攬	-11.1572
於現在	-11.1573
床座	-11.1573
一境	-11.1573
非無間緣	-11.1573
諸門分別	-11.1574
俱胝	-11.1576
名句文身	-11.1576
滅智已生	-11.158
是行	-11.1581
無見無對	-11.1581
麻	-11.1583
此方	-11.1584
如理思惟	-11.1587
有幾種	-11.1588
離生	-11.1588
息風	-11.1589
族姓	-11.159
眼識生	-11.1591
彼眾生	-11.1592
不生故	-11.1593
眼識等	-11.1594
剎那頃	-11.1597
俱聚中	-11.1598
動身	-11.1598
八忍	-11.1602
云何說	-11.1604
故意	-11.1606
流至	-11.1606
生欲界梵世	-11.1606
三際	-11.1606
強故	-11.1611
銅	-11.1612
受身處	-11.1616
復作是念	-11.1625
樹下	-11.163
正生位	-11.1638
趣中	-11.1638
對向	-11.1639
淨故	-11.1642
初禪二禪	-11.1643
隨根	-11.1643
未來七	-11.1644
亦在	-11.1646
不多	-11.1647
欲境	-11.1648
果義	-11.165
受想思觸思惟覺觀	-11.1651
捨覺支	-11.1656
正解	-11.1657
現在二	-11.1657
本來	-11.166
可厭	-11.1663
散壞	-11.1664
一切皆是	-11.1675
亦隨	-11.1677
憂慼	-11.1677
觸為緣	-11.1679
必無有	-11.1679
所有隨眠	-11.1679
領受	-11.168
作所依	-11.1681
復有說	-11.1682
學道	-11.1684
前行	-11.1684
即由	-11.1685
是集	-11.1686
離貪心	-11.1691
不了義	-11.1696
苦行相	-11.1699
▁論	-11.17
則不能	-11.1709
有剎那	-11.171
尚無	-11.1712
忽	-11.1713
現行故	-11.1713
邑	-11.1715
而自	-11.1716
無為緣	-11.1718
層級	-11.1719
殺生等	-11.1719
堂	-11.1721
醜陋	-11.1722
正等覺	-11.1723
如欲界	-11.1723
自餘	-11.1724
當言為緣而不為因	-11.1725
使所不使	-11.1725
煞	-11.1727
答若前生未斷則繫	-11.1729
道時	-11.1731
意所念	-11.1731
欲界身	-11.1731
宿業	-11.1731
義是根義	-11.1732
前說為善	-11.1733
里	-11.1734
也正理論云	-11.1734
中根	-11.1736
安置	-11.1736
五下分結	-11.1736
一問	-11.1738
煩惱業	-11.1739
此師意說	-11.1741
則是	-11.1742
更有餘	-11.1743
故契經言	-11.1746
敵	-11.1747
般若	-11.1752
身輕安	-11.1754
三字	-11.1756
不隱沒無記心	-11.1758
或有欲令	-11.1759
而命終	-11.1759
彼既	-11.176
三十四	-11.176
婆沙評家	-11.1762
若爾應	-11.1763
為所緣增上	-11.1763
畢竟不生	-11.1764
生等相	-11.1765
作欲界化	-11.1765
男女根	-11.1766
二靜慮	-11.1769
無染心	-11.1772
善無色	-11.1772
及彼同分	-11.1773
六愛身	-11.1773
三處	-11.1775
未斷為因	-11.1776
心之	-11.1778
乃至意	-11.1779
如前廣說	-11.178
有十一	-11.1781
九解脫道	-11.1783
或云	-11.1784
所樂	-11.179
念覺	-11.1791
或觀	-11.1792
心頃	-11.1797
者論云	-11.1798
凡夫聖人	-11.1801
四類	-11.1808
不攝不相應	-11.1808
無想有情	-11.1809
名勝	-11.1812
評家	-11.1812
謂初靜慮	-11.1814
施福	-11.1816
見有	-11.1816
自性善	-11.182
迴向	-11.1821
水中	-11.1823
百二十	-11.1823
何時	-11.1825
易知	-11.1827
言音	-11.1827
生欲	-11.183
是定	-11.1831
勝法	-11.1831
以後	-11.1832
未成	-11.1833
云何得知	-11.1833
不爾云何	-11.1833
堅執	-11.1836
界繫	-11.1837
是樂	-11.1837
八十九	-11.1838
天道	-11.1841
味界	-11.1841
後文	-11.1845
必先	-11.1846
無滯	-11.1846
總攝	-11.1846
斫	-11.1846
依因	-11.185
妙欲	-11.185
見修所斷法	-11.1853
向涅槃	-11.1853
遺	-11.1853
行法	-11.1857
如何言	-11.1858
住劫	-11.1858
為緣故	-11.1863
煖法	-11.1865
有性	-11.1865
或餘	-11.187
解義	-11.1871
依前	-11.1871
飾	-11.1874
自在等	-11.1875
空空	-11.188
從癡生	-11.1881
儀	-11.1882
自體不應自體	-11.1883
若無漏為加行	-11.1883
護覺意	-11.1884
阿笈摩	-11.1885
㮈落迦	-11.1885
後四勝處	-11.1885
又正理	-11.1886
順後句	-11.1886
二俱有過	-11.1886
非理所引	-11.1887
束	-11.1887
來詣佛所	-11.1887
無色界繫善心	-11.1888
集類智已生	-11.189
攝彼	-11.189
生地獄	-11.1892
擬	-11.1893
已具	-11.1894
緣身慧	-11.1895
灾	-11.1896
地獄畜生餓鬼	-11.1896
▁說	-11.1896
不成故	-11.1897
法蘊足論	-11.1897
俱通	-11.1898
已修	-11.19
若法界	-11.1901
反問	-11.1904
斷集	-11.1904
趣入	-11.1905
已還	-11.1905
緣道	-11.1908
不爾故	-11.1914
不往	-11.1914
於五	-11.1915
不發	-11.1915
惡意樂	-11.192
法證淨	-11.192
空無願無相	-11.192
化語	-11.1921
相續不斷	-11.1922
堅等	-11.1925
有義	-11.1926
此云何	-11.1927
作是念言	-11.193
害尋	-11.1935
生欲界中	-11.1935
有漏慧	-11.1936
不修心	-11.1939
彼行者	-11.1939
餘道	-11.1943
稱讚	-11.1943
已說自性	-11.1945
受用退	-11.1945
發識	-11.1946
增語觸	-11.1946
三禪地	-11.1947
大士	-11.1948
釋名	-11.1951
前八品	-11.1953
勝果	-11.1954
慧為體	-11.1955
出心	-11.1956
是名色陰	-11.1959
亦令	-11.1959
通說	-11.196
悅意	-11.196
分位差別	-11.1961
亦應如是	-11.1962
具二種	-11.1964
智所知	-11.1967
無行般涅槃	-11.1971
於五取蘊	-11.1973
如是展轉	-11.1974
是愛	-11.1975
虛空非擇滅	-11.1978
生大	-11.1981
准此釋	-11.1983
有實體	-11.1986
餘緣	-11.1987
世尊言	-11.1988
及色	-11.199
現觀時	-11.199
斷常	-11.1991
謂隨	-11.1994
謂受	-11.1994
行蘊攝	-11.1997
能化	-11.1998
有境	-11.2001
最後解脫道	-11.2001
見四諦	-11.2001
斷壞	-11.2002
釋下兩句	-11.2002
依定	-11.2006
曾未	-11.2006
現在時	-11.2008
云何行陰	-11.2009
雖能	-11.2009
會釋	-11.201
如此等	-11.201
住律儀	-11.2013
果道	-11.2016
告言	-11.2019
有罪	-11.202
令得	-11.202
復有何	-11.2023
善學色	-11.2023
有八種	-11.2023
亦得名	-11.2024
阿毗達磨	-11.2025
正方便	-11.2026
說二	-11.2026
重釋	-11.2028
此所	-11.2028
賤	-11.203
有宗	-11.203
為一增上	-11.2031
唱	-11.2031
纏心	-11.2032
此洲	-11.2034
離染時	-11.2034
即於此	-11.2034
仗	-11.2036
數起	-11.2036
膩	-11.204
使緣使非相應使	-11.2041
色界善心	-11.2042
同性	-11.2042
先見	-11.2043
能遍	-11.2044
行緣識	-11.2044
懃	-11.2047
術	-11.2048
幾緣緣	-11.2048
一界一處	-11.2049
如意足	-11.205
豐	-11.2051
有漏身進	-11.2052
盡不失則成就	-11.2053
前解	-11.2053
邏	-11.2054
一切諸法	-11.2054
象馬	-11.2054
體性是何	-11.2054
不攝何等	-11.2055
博	-11.2055
或唯	-11.2055
此二十二根	-11.2056
空無我	-11.206
是故不	-11.2061
生苦	-11.2062
殊勝功德	-11.2063
成辦	-11.2063
等時	-11.2064
離煩惱	-11.2067
依色	-11.2068
念根	-11.2069
正理釋云	-11.207
乃至阿羅漢果	-11.2072
名現在	-11.2073
苦未知智	-11.2073
復由	-11.2074
雖斷	-11.2076
不誤	-11.2078
無色界遍行	-11.2079
得知	-11.2082
合立	-11.2083
隨得	-11.2084
纏退	-11.2086
又復	-11.2086
便失	-11.2086
行解	-11.2086
六十二見	-11.2088
陰中	-11.2089
就勝說	-11.209
種等	-11.209
已永斷	-11.2091
契經言	-11.2094
棄背	-11.2096
禪中間	-11.2097
第六句	-11.2098
是麁	-11.2102
有形	-11.2102
初解脫	-11.2105
為何果攝	-11.2106
為所緣故	-11.2107
無間解脫	-11.2108
三千	-11.2109
是佛	-11.211
法隨法行	-11.2112
能益	-11.2112
是名行陰	-11.2113
唯以	-11.2116
謂意根	-11.2123
除欲界	-11.2124
於四諦	-11.2129
以無漏	-11.2129
文證	-11.2129
故於此中	-11.213
六觸處	-11.213
一期	-11.2131
亦應名	-11.2132
入正性離生者	-11.2132
當果	-11.2134
耳等	-11.2135
漏盡智	-11.2139
可說為	-11.2141
契經說故	-11.2142
他故	-11.2142
無損	-11.2145
如下	-11.2148
此界	-11.2148
九無礙道	-11.2152
五力	-11.2152
為過患	-11.2154
心次第	-11.2155
欲界所繫	-11.2157
如世間說	-11.216
今於此中	-11.2162
有一種	-11.2163
於如是	-11.2163
此師	-11.2165
治生	-11.2165
至此	-11.2166
返	-11.2167
義便	-11.2168
經生	-11.2169
未斷故	-11.217
欲得	-11.217
當受	-11.2171
復能	-11.2171
見行	-11.2174
若唯	-11.2184
流通	-11.2188
對治修	-11.219
起慢	-11.2197
未來無	-11.2198
未來所修	-11.2199
是食	-11.2199
煩惱使	-11.22
答若法	-11.22
若無常若苦若空若無我	-11.2202
一日	-11.2202
然由	-11.2204
十八界攝	-11.2206
有表業	-11.2207
結所繫	-11.2207
說也	-11.2208
說之	-11.221
四大王眾天	-11.2211
閑	-11.2212
識相應	-11.2214
調達	-11.2214
無因無緣	-11.2218
北涼天竺沙門浮陀跋摩共道泰等譯	-11.2218
有過去愛結	-11.2218
緣識及緣緣識所增隨眠	-11.2218
迦旃延子造五百羅漢釋	-11.2219
廣如彼釋	-11.2219
次前	-11.2219
滅類智已生	-11.222
非陰攝	-11.2222
風吹	-11.2222
類釋	-11.2223
身表業	-11.2223
親里	-11.2223
教法	-11.2224
▁15	-11.2225
善逝	-11.2225
識緣名色	-11.2227
全超	-11.2227
於諦	-11.2227
堅信人	-11.2228
五種斷	-11.2229
智體	-11.2229
滅智未生	-11.223
於一切眾生	-11.2232
病者	-11.2235
欲為	-11.2237
難了	-11.2237
諸所	-11.2239
於現法中	-11.2241
諸不善心	-11.2243
諸色界繫善心	-11.2244
解脫道時	-11.2246
應爾	-11.2247
諸欲界繫善心	-11.2247
法要	-11.2249
嫉慳結	-11.225
經部師說	-11.2251
食等	-11.2251
毗婆沙師	-11.2252
能厭	-11.2254
毘婆沙師至	-11.2254
若成就過去	-11.2254
不應修	-11.2257
門也	-11.2258
邪思惟	-11.2261
復作是言	-11.2261
苦集滅智	-11.2262
名修所斷	-11.2264
緣無為	-11.2265
亦然者	-11.2265
婆沙一百一十	-11.2267
其名	-11.2268
斷界	-11.227
雜故	-11.227
諸聖弟子	-11.2271
是名苦聖諦	-11.2272
已起滅法智	-11.2272
更說	-11.2273
財寶	-11.2273
佛獨覺	-11.2273
況復	-11.2275
內等淨	-11.2277
不應正理	-11.2278
離散	-11.2278
同依	-11.2278
處非處	-11.228
而由	-11.2282
命終已	-11.2283
俱時生	-11.2283
制多	-11.2284
名內	-11.2285
而問	-11.2287
顧	-11.2288
無尋	-11.2291
則成就	-11.2291
神境通	-11.2293
七寶	-11.2295
厭惡	-11.2297
退已	-11.2297
離欲時	-11.2298
謂預流果	-11.2298
色名	-11.2298
自行	-11.2299
能覺	-11.23
前前	-11.2302
聖教中	-11.2304
已斷因	-11.2305
根力	-11.2306
苦盡	-11.2309
五色根	-11.2309
同是	-11.231
而作是說	-11.231
但據	-11.2312
生等生	-11.2313
廣果天	-11.2315
增上故	-11.2316
復更	-11.2316
云何苦聖諦	-11.2317
五見中	-11.2317
善五蘊	-11.2318
隨所依	-11.2322
捨成就得不成就	-11.2324
辯無礙解	-11.2325
八法	-11.2328
故名無間	-11.2328
住彼	-11.2331
離此	-11.2332
為何所	-11.2334
兩釋	-11.2335
七隨眠	-11.2335
應觀	-11.2335
緣苦諦	-11.2336
能續	-11.2338
金輪	-11.2338
知識	-11.2342
散善	-11.2344
秦	-11.2344
今見	-11.2345
離界	-11.2345
根本定	-11.2347
亦爾耶	-11.2347
盡無餘	-11.2348
出過	-11.2348
稻	-11.2352
并前	-11.2353
極為	-11.2353
預流一來	-11.2353
第九無間道	-11.2354
人等	-11.2354
如實覺	-11.2354
問如是	-11.2354
種種想	-11.2355
是四智	-11.2356
依四靜慮	-11.2361
則不應說	-11.2362
不實	-11.2363
得色界善心	-11.2364
染污慧	-11.2365
二十三	-11.2366
大種造色	-11.2367
有二義	-11.2368
能進	-11.2369
有覆無記色	-11.2369
日出	-11.237
阿世耶	-11.2372
幻	-11.2376
伺察	-11.2377
所以不	-11.2378
及生	-11.238
慈等	-11.238
洗	-11.2381
渡	-11.2383
摧伏	-11.2383
堪任	-11.2383
於地獄	-11.2383
所除	-11.2384
若習若修若多所作	-11.2384
尊者世友說曰	-11.2385
焚燒	-11.2386
梵住	-11.2386
健	-11.2386
近因	-11.2387
團	-11.2387
惑得	-11.2388
孔	-11.2389
能分別	-11.239
觀色	-11.239
是前	-11.2391
能識	-11.2393
設成就現在	-11.2394
聰明	-11.2396
樂因	-11.2398
正道	-11.2398
見道所斷結	-11.2399
法界一分	-11.2399
當辨	-11.2401
未滿	-11.2404
大生	-11.2405
三靜慮	-11.2405
僧眾	-11.2406
所化有情	-11.2407
緣見	-11.2409
異學	-11.2409
入五陰	-11.2409
我及世間	-11.241
下上	-11.241
本事	-11.2413
火焰	-11.2414
應一向記	-11.2416
必不生	-11.2417
言為顯	-11.2418
眼等識	-11.2418
有想無想處	-11.2419
唯在欲界	-11.242
地繫	-11.2421
唯意識	-11.2422
謂離	-11.2423
譽	-11.2423
親屬	-11.2424
有別體	-11.2425
見集滅道	-11.2426
當為	-11.2428
從此第四	-11.2431
二問	-11.2431
退阿羅漢果	-11.2433
所依者	-11.2436
除他心智	-11.2437
行施	-11.244
無漏耶	-11.244
能引發	-11.2441
苦集滅	-11.2442
契	-11.2442
有無明結繫	-11.2445
唯是善	-11.2446
不爾者	-11.2446
有對法	-11.2447
持業釋也	-11.2448
五順下分結	-11.2449
不如實知	-11.2449
為淨	-11.2452
六垢	-11.2453
學見現在前	-11.2454
應分別	-11.2457
六法	-11.2457
婆沙一百五十	-11.2466
故非識住	-11.2467
三人	-11.2467
思願	-11.247
就明	-11.2471
五云	-11.2474
除通果心	-11.2475
樂著	-11.2476
文中初問	-11.2476
順現法受	-11.2478
總觀	-11.2478
所縛	-11.2479
能長養	-11.2482
能往	-11.2482
應思擇	-11.2482
於自相續	-11.2486
是名外	-11.2488
能解	-11.2488
答因	-11.2488
即為	-11.2488
則不然	-11.2489
行緣	-11.2491
不復更	-11.2492
一切遍使使	-11.2493
成六	-11.2494
或彼	-11.2495
不可得故	-11.2496
識所依	-11.2498
受行	-11.2498
是阿羅漢	-11.25
起增上慢	-11.25
此七	-11.25
通難	-11.2503
不還向	-11.2503
在身中	-11.251
緣修所斷	-11.2516
五妙欲	-11.2516
少時	-11.2516
愛語	-11.2519
亦作是說	-11.2521
墮地獄	-11.2522
陰界入	-11.2523
彼上座	-11.2523
盡未知智斷	-11.2524
能修未來	-11.2526
嘗	-11.2526
眾人	-11.2527
婆沙三十	-11.2527
亦無有	-11.2528
已離欲	-11.2532
如何知	-11.2534
於修所斷法	-11.2534
非明非無明觸	-11.2535
一入少分	-11.2535
緣三諦	-11.2536
思相應	-11.2538
一時得	-11.2539
因論生論	-11.2542
內入	-11.2543
方得生	-11.2543
皆如前說	-11.2544
可了	-11.2546
八十八	-11.2547
設當	-11.2551
為作	-11.2552
分為三	-11.2553
歌	-11.2553
注	-11.2554
何事	-11.2554
謂處卵㲉	-11.2556
見習斷	-11.2556
道現觀三心頃	-11.2557
能辦	-11.2557
願力	-11.2557
為簡	-11.2558
嶮	-11.2558
其理極成	-11.2559
彰	-11.2559
無色界沒	-11.256
扶	-11.256
釋迦牟尼	-11.2561
彼結盡非果攝	-11.2561
卷第九	-11.2561
畢	-11.2563
常有	-11.2563
述曰此釋	-11.2563
無有能過	-11.2565
諂曲	-11.2566
焉	-11.2568
苦智耶	-11.2571
此義云何	-11.2571
理亦應然	-11.2573
如依	-11.2574
靜慮地	-11.2575
白色	-11.2575
成就過去未來	-11.2578
諸無漏道	-11.258
所得果	-11.2582
惑故	-11.2584
自此已下	-11.2585
修不淨觀	-11.2586
多耶	-11.2586
及滅道智	-11.2588
過去色	-11.2595
有求	-11.2596
非福	-11.2597
也又	-11.2597
諸無為法	-11.2597
立為根	-11.26
無缺	-11.2601
此三結	-11.2603
時定	-11.2605
生本	-11.261
作所緣	-11.2611
是身	-11.2612
四大種所造	-11.2613
有隨眠	-11.2618
是道諦	-11.2618
壞者	-11.2619
定不定	-11.262
根品	-11.262
捨命	-11.2621
作是釋	-11.2627
為住	-11.2628
心力	-11.2628
見苦集	-11.2628
無餘斷	-11.2628
謂貪	-11.263
千年	-11.2632
眼見色已	-11.2633
彼必	-11.2636
記別	-11.2636
八云	-11.2639
所緣有對	-11.2641
大眾部等	-11.2642
念念	-11.2643
重性	-11.2643
大仙	-11.2644
隨縛	-11.2645
緣見苦斷	-11.2649
瑜伽師	-11.2651
必須	-11.2652
十纏	-11.2653
身壞	-11.2658
欲界相應	-11.2658
修法	-11.266
此中有說	-11.2661
智生	-11.2663
三障	-11.2664
一切結盡	-11.2665
受想等	-11.2667
修練根	-11.2668
此行相	-11.2669
憶知	-11.2671
一切法皆	-11.2672
於六	-11.2672
七慢	-11.2673
行修	-11.2674
執有我	-11.2674
非異生	-11.2675
滅聖諦	-11.2677
修身	-11.2678
執持	-11.2682
光音	-11.2682
諸心心所	-11.2687
二入	-11.2688
猶如有一	-11.2688
生初靜慮	-11.2688
因謂因	-11.269
體已斷	-11.2691
不立根	-11.2691
相應義	-11.2691
餘事	-11.2692
覆藏	-11.2692
地攝	-11.2694
等念	-11.2694
離苦	-11.2694
是眼	-11.2695
謂諸隨眠	-11.2695
無遮	-11.2696
禪定	-11.2696
量等	-11.2697
相應觸	-11.27
無色地	-11.2701
山頂	-11.2701
異熟障	-11.2702
不但	-11.2702
四分	-11.2703
色愛	-11.2704
能了知	-11.2704
至究竟	-11.2704
損惱	-11.2705
無記者	-11.2705
乃名	-11.2705
勝道	-11.2705
繫耶	-11.2705
此種	-11.2706
增上忍	-11.2708
寂靜勝	-11.2708
力所引	-11.271
如是觀	-11.271
學見迹	-11.2714
謂聖者	-11.2716
徹	-11.2719
千世界	-11.272
犢子	-11.2724
幾法相應	-11.2724
此後於彼復起	-11.2726
起用	-11.2727
心所起去來屈申迴轉身教	-11.2727
名劣	-11.2728
耆	-11.273
自品	-11.273
枯	-11.273
尊者瞿沙說曰	-11.273
不緣下	-11.273
焚	-11.2731
設盡便失則不成就	-11.2732
亦得名為	-11.2733
頞部曇	-11.2733
類別	-11.2734
如是不放逸觀	-11.2734
擾亂	-11.2734
貧	-11.2735
米	-11.2735
於前所說	-11.2735
衣鉢	-11.2736
除其自性	-11.2736
識身足論	-11.2737
目連	-11.2737
層	-11.2737
餘識	-11.2738
得定心住正住	-11.2738
答云	-11.2739
禽獸	-11.2739
觀智具足	-11.274
迦葉波	-11.2741
無得	-11.2743
道類智未生	-11.2744
已離無所有處染	-11.2749
於中間	-11.275
知過去	-11.275
非律儀非不律儀	-11.275
或三界繫或不繫	-11.2752
說識	-11.2752
緣緣識所增隨眠	-11.2753
非界非處	-11.2754
未來五	-11.2754
梵音	-11.2756
謂己	-11.2756
決擇分	-11.2758
因緣者	-11.2759
或依未至滅	-11.2759
復次欲	-11.2762
強力	-11.2767
多羅	-11.2767
卷第四十	-11.277
或即	-11.277
諸字	-11.2771
定障	-11.2773
就勝	-11.2773
彼則	-11.2774
彼所執	-11.2774
頓生	-11.2775
云何無漏	-11.2775
比智分	-11.2776
如譬喻者	-11.2778
彼識	-11.2781
非識	-11.2782
緣此	-11.2783
異部	-11.2786
知是	-11.2786
無雜亂	-11.2786
方便善心	-11.2788
雖皆	-11.2788
謂捨	-11.2791
不具足	-11.2794
道未知智	-11.2796
害母	-11.2797
長壽	-11.2798
最重	-11.2801
無間罪	-11.2801
法智斷	-11.2801
知故	-11.2803
死生智	-11.2804
地獄等	-11.2804
未至定靜慮中間	-11.2807
總別	-11.2809
有何意耶	-11.281
色心不相應行	-11.2813
以見	-11.2813
二十種	-11.2814
緣道諦	-11.2814
如是已辯	-11.2814
心所中	-11.2816
彼修	-11.2817
名稱	-11.2817
毗婆沙	-11.2817
滅耶	-11.2818
手等	-11.2818
順生	-11.2818
異生法	-11.2819
或四	-11.2822
令住	-11.2823
念力	-11.2824
是過去	-11.2825
身妙行	-11.2825
所領	-11.2826
是名第二	-11.2827
為支	-11.2828
彼計	-11.2829
之果	-11.2831
四無礙解	-11.2834
於己	-11.2836
初靜慮地	-11.2836
得好	-11.2837
所斷法	-11.2838
世法	-11.2839
已離欲界貪	-11.2841
與他	-11.2842
對觀	-11.2842
漸捨	-11.2843
彼意	-11.2847
九遍知	-11.2847
彼應	-11.2849
作是念已	-11.285
立宗	-11.285
此愛	-11.2852
如世間	-11.2854
體應	-11.2855
乃能	-11.2856
欲覺	-11.2857
然於此中	-11.2858
同一所緣	-11.2858
劫初	-11.286
是有對	-11.286
無第二	-11.286
七覺	-11.2861
非識住	-11.2862
王位	-11.2862
有上	-11.2863
至現在	-11.2866
多欲	-11.2867
意言	-11.2867
故偏	-11.2867
如過去	-11.2871
一蘊	-11.2873
別類	-11.2873
堪達	-11.2874
並生	-11.2874
謂色界繫	-11.2875
別因	-11.2875
無嗔	-11.2875
修道所斷法	-11.2881
說如此	-11.2882
又婆沙	-11.2882
諸法相	-11.2884
所依根	-11.2886
要有	-11.2886
正滅	-11.2887
與身	-11.2887
依心	-11.289
故別立	-11.2891
癰	-11.2891
緣滅道	-11.2891
輕安樂	-11.2894
得無為	-11.2896
各具	-11.2898
事現觀	-11.2898
現在有	-11.2898
所感異熟	-11.2899
得與	-11.29
所斷結	-11.2902
謂契經中世尊善語善詞善說	-11.2903
盡法智斷	-11.2905
杌	-11.2905
類忍	-11.2906
塚間	-11.2907
下苦	-11.2907
煮	-11.2908
義利	-11.2908
屍	-11.291
清涼	-11.291
白佛言	-11.291
色無色界結	-11.2911
伐	-11.2911
汝作是言	-11.2911
脚	-11.2911
必與	-11.2911
勤求	-11.2912
通餘章義准此應知	-11.2912
聲聞辟支佛	-11.2912
受欲有	-11.2913
小兒	-11.2914
答此中	-11.2914
臍	-11.2914
二俱不繫	-11.2915
吹	-11.2915
諸有漏	-11.2915
等引	-11.2916
穿	-11.2917
皰	-11.2918
各有四	-11.2918
亦不可說	-11.2919
第一義諦	-11.2921
顛倒想	-11.2921
若退法者	-11.2922
多求	-11.2922
如於	-11.2923
此下釋	-11.2925
羅剎	-11.2925
能斷惑	-11.2925
骨瑣	-11.2926
餘物	-11.2926
第十一	-11.2928
無法	-11.2928
法智未知智	-11.293
如是四種	-11.293
邪念	-11.2933
求生	-11.2935
到彼岸	-11.2936
二識識	-11.2936
爾者	-11.2937
自識	-11.2939
最後心	-11.2939
於自地	-11.2939
遍知苦	-11.294
扇搋等	-11.2941
放逸處	-11.2942
後邊	-11.2945
及彼相應無明	-11.2946
聖位	-11.2948
表無表業	-11.2948
或此	-11.2948
諸根大種	-11.2948
彼由此	-11.2951
見滅所斷邪見	-11.2953
唯三	-11.2953
梵輔天	-11.2954
外入	-11.2955
遍一切	-11.2955
如觀	-11.2959
俱名	-11.2959
合立一	-11.296
不善善有漏	-11.2962
定量	-11.2963
無學果	-11.2966
有九品	-11.2968
餘有為法	-11.2968
味著	-11.297
無色解脫	-11.2971
或八	-11.2973
為所緣境	-11.2974
為等流果	-11.2975
同一果故	-11.2977
差	-11.2978
何異	-11.2982
非學	-11.2984
勝於	-11.299
彼有情	-11.2991
比丘如是思惟	-11.2994
為集	-11.2994
欲界見道所斷	-11.2994
已入	-11.2997
資助	-11.2997
所感	-11.2999
業因	-11.3001
彼煩惱	-11.3005
且依	-11.3005
發無表	-11.3005
已離染	-11.3006
過去大種	-11.3008
順現	-11.3012
先滅	-11.3016
說一	-11.3016
出家者	-11.3017
初入	-11.3018
第二第三靜慮	-11.3018
已離色界貪	-11.3021
麁重	-11.3022
云何善	-11.3026
此唯攝	-11.3027
身生	-11.3027
喜相應	-11.3029
識法	-11.303
不應許	-11.3031
精進覺支	-11.3031
更起	-11.3032
自界緣	-11.3033
俱有相應	-11.3034
攝法	-11.3034
觀苦	-11.3036
不染污心	-11.3037
重得	-11.3039
是名內	-11.304
於染	-11.3042
依六地	-11.3045
狂亂	-11.3045
而滅	-11.3045
為相	-11.3048
見苦時	-11.3048
欲界初靜慮	-11.3052
彼事	-11.3054
得名為	-11.3055
亦不成就	-11.3057
緣滅類智斷	-11.3058
彼於此	-11.3058
已至	-11.3059
器故	-11.3059
受化者	-11.3061
治故	-11.3061
若成就過去空	-11.3062
名有隨眠心	-11.3068
于	-11.307
盡時	-11.307
豈得	-11.3073
生上界	-11.3073
茲	-11.3074
隨增故	-11.3074
同婆沙	-11.3075
內有	-11.3075
怯弱	-11.3077
共許	-11.3077
來至	-11.3077
意思	-11.3078
因者一因	-11.3082
非學非無學見	-11.3082
人身	-11.3082
三苦	-11.3083
為三果	-11.3084
未知當知	-11.3086
引眾同分	-11.3087
本有教不失	-11.3088
是見道斷	-11.3088
餘五	-11.3089
墮一世	-11.3089
災橫	-11.309
生眼識	-11.3092
醎	-11.3092
揣食	-11.3092
而作	-11.3092
泥洹	-11.3093
善不善無記者	-11.3093
見苦集斷不一切遍	-11.3093
旦	-11.3093
載	-11.3094
正念正定	-11.3095
由貪	-11.3095
悉皆	-11.3096
汝聽	-11.3097
看	-11.3097
藥草	-11.3097
有離	-11.3099
率	-11.3099
被燒	-11.3099
遍淨愛盡	-11.31
􂌞	-11.3101
異也	-11.3105
故彼所言	-11.3105
義是界義	-11.3105
彈	-11.3106
苦類智忍	-11.3107
經意	-11.3107
端正	-11.3108
對法藏	-11.3109
伴性	-11.3109
時愛心解脫	-11.3109
大地獄	-11.3109
息故	-11.3109
不應成	-11.311
以手	-11.3112
得捨	-11.3113
還與	-11.3113
能取果	-11.3114
成就幾不成就幾	-11.3114
不名增長	-11.3118
不別說	-11.3119
力勝	-11.3119
佛僧	-11.312
准此應知	-11.312
禪者	-11.3122
順樂受業	-11.3122
微廣	-11.3122
修道所滅	-11.3124
無漏作意相應	-11.3125
於眼	-11.3127
義說	-11.3127
名利	-11.3128
禁戒	-11.3129
然其	-11.313
隨其所	-11.3131
無學者	-11.3131
必俱	-11.3132
乃至識	-11.3133
歸依佛	-11.3133
善染	-11.3134
應知亦然	-11.3134
說在	-11.3138
又婆沙云	-11.3138
生歡喜	-11.3138
之差別	-11.314
無厭	-11.314
為異	-11.3141
染故	-11.3142
苾芻律儀	-11.3143
妙色	-11.3144
無漏心心所法	-11.3146
何故唯說	-11.3148
癡人	-11.3148
不散	-11.3149
滅雙因	-11.3151
三昧修	-11.3151
知想	-11.3153
未得故	-11.3153
彼緣	-11.3155
火等	-11.3155
云何想陰	-11.3158
滅離	-11.3158
正現在前	-11.3158
疑隨眠	-11.3158
有識	-11.3159
此岸	-11.316
一正明	-11.316
如汝	-11.3161
鬪	-11.3162
隨轉身口業	-11.3162
苦下	-11.3163
命意捨	-11.3164
善法報	-11.3165
而受	-11.3165
若有者	-11.3166
共住	-11.3169
可令	-11.3171
增上心	-11.3171
標名	-11.3173
問何等	-11.3174
非無色界	-11.3174
不識	-11.3175
十五界	-11.3176
如色界	-11.3176
是根	-11.3178
堅性	-11.3179
欲界煩惱	-11.3179
是解脫	-11.3182
見欲界色	-11.3183
第四禪地	-11.3184
為遍行因	-11.3184
小惑	-11.3185
有覺	-11.3186
下釋	-11.3187
皆唯	-11.3187
住此	-11.3188
彼根非	-11.3189
若不得	-11.319
菩提分	-11.319
先離欲	-11.3191
釋第二	-11.3195
依義	-11.3196
或無學	-11.3196
不出	-11.3197
下八地	-11.3199
復觀	-11.3201
慈定	-11.3201
堅法	-11.3204
是所隨增	-11.3206
謂無為法	-11.3206
力起	-11.3206
諸結使	-11.3206
如世	-11.3206
有何過	-11.3206
無記性	-11.3209
又佛	-11.3209
是現在	-11.321
事用	-11.321
名預流	-11.321
▁界	-11.3211
色是	-11.3211
優	-11.3212
諸不善	-11.3212
十二行	-11.3216
婆沙七十	-11.3217
見相應法	-11.3217
戒等	-11.3218
雖多	-11.322
此剎那	-11.3222
身長	-11.3223
增上義	-11.3225
得斷	-11.3226
是名意界	-11.3228
味身	-11.3229
四句分別	-11.323
慈無量	-11.3234
易得	-11.3234
味故	-11.3236
能礙	-11.324
所引經	-11.3244
四面	-11.3245
中立	-11.3246
故偏說之	-11.3247
准上	-11.325
有諸	-11.325
頓緣	-11.3252
別別	-11.3254
樂報	-11.3255
於此間	-11.3257
欲愛已盡	-11.3259
已了別今了別當了別	-11.326
恣	-11.3265
敬禮	-11.3265
如實了知	-11.3266
一一別	-11.3266
聞思所成	-11.3267
三識身	-11.3267
根本故	-11.3269
人也	-11.3271
〕-【	-11.3273
故作此論	-11.3273
滅類智未	-11.3273
此惑	-11.3274
穢污心	-11.3275
能善	-11.3276
當於爾時	-11.3277
追	-11.3277
須彌山	-11.3278
有餘依涅槃界	-11.3278
是因義	-11.3278
應如是	-11.3278
曉了	-11.3279
受律儀	-11.328
復有二法	-11.328
乏	-11.328
捺落迦	-11.3282
起世俗心	-11.3282
配	-11.3282
競	-11.3282
剎那定	-11.3283
逸	-11.3284
集異門足論	-11.3284
所緣故隨增亦相應故	-11.3284
空行相	-11.3285
起等起	-11.3285
下賤	-11.3285
見言不見	-11.3286
拏	-11.3286
或見	-11.3287
見苦諦時	-11.3287
於其中間	-11.3287
又彼所言	-11.3288
有過去法智	-11.3289
惠施	-11.329
猴	-11.3291
智名	-11.3291
欲漏有漏	-11.3291
譬如有人	-11.3292
有取結繫	-11.3292
一面	-11.3292
誰復	-11.3293
繫念	-11.3294
一界一入	-11.3294
謂未知當知根	-11.3295
無明為	-11.3295
無所依	-11.3296
俱舍論	-11.3297
行動	-11.3298
彼未來	-11.3299
不退法者	-11.33
十善業道	-11.33
說之為	-11.33
由斯故說	-11.3301
不用定	-11.3305
數量	-11.3308
分段	-11.3314
各有二	-11.3315
是名想陰	-11.3316
此即第一	-11.3316
無覺	-11.3318
煩惱盡	-11.332
故彼所說	-11.332
修所斷隨眠	-11.3323
千歲	-11.3324
等定	-11.3328
名近	-11.3329
名解脫	-11.333
闇中	-11.3331
惑斷	-11.3332
答若現在前	-11.3332
地神	-11.3333
過也	-11.3334
眼等五識	-11.3334
蘊攝	-11.3336
如實知色	-11.3339
唯成就	-11.334
富樂	-11.3343
就初	-11.3343
唯自	-11.3345
故思	-11.3346
不墮界	-11.3349
若法是	-11.335
更互	-11.335
道諦所斷	-11.335
苦集道	-11.3351
若住非律儀非不律儀	-11.3351
火燒	-11.3352
眼識相應	-11.3352
佛契經說	-11.3352
鼻等	-11.3354
一形	-11.3356
且約	-11.3357
受入	-11.3358
容起	-11.3359
纏垢	-11.336
非色界	-11.3361
身見等	-11.3363
去來世	-11.3363
喜處	-11.3366
云何受陰	-11.3367
能壞	-11.3367
而死	-11.3368
礙故	-11.3369
瀑流軛	-11.3369
復次世尊	-11.3371
身界	-11.3372
信樂	-11.3372
謂集	-11.3373
知受	-11.3375
隨時	-11.3375
非樂	-11.3377
次第起	-11.3383
尚不能	-11.3384
由隨	-11.3388
從三	-11.3388
是第一	-11.3389
答眼根	-11.3389
親愛	-11.3389
依經	-11.339
如眼根	-11.339
第十六心	-11.3391
水火	-11.3392
等種種	-11.3394
相似相續	-11.3395
欲界有情	-11.3407
隨地	-11.3407
道法忍	-11.341
世中	-11.3414
便般涅槃	-11.3415
無色界死	-11.3415
依此地	-11.3416
定感	-11.3417
但應說	-11.3423
異熟法	-11.3423
四天王	-11.3425
生天上	-11.3428
至彼	-11.3428
以佛	-11.3428
不共業	-11.3429
一受	-11.3432
有一人	-11.3433
不立蓋	-11.3433
糞穢	-11.3433
非無願	-11.3434
不得言	-11.3434
報緣	-11.3439
是無對	-11.344
麁心	-11.344
勿有	-11.3442
若不爾	-11.3443
一二分或	-11.3445
云何四	-11.3447
香入	-11.3447
不善身表	-11.3447
能任持	-11.3449
法也	-11.3449
我亦	-11.3449
帝	-11.345
無漏離繫得	-11.345
所作事	-11.3452
首盧	-11.3454
作意等	-11.3456
兩句	-11.3457
尊者瞿沙	-11.3457
緣使亦相應使者	-11.3457
非所隨增	-11.3457
故世尊說	-11.3457
疑心	-11.3457
及不繫	-11.3458
異熟大種	-11.346
此二俱	-11.3461
譏	-11.3461
本性念生智	-11.3461
喪	-11.3463
價	-11.3464
謂諸聖者	-11.3464
由如是等種種因緣	-11.3465
塔	-11.3465
驅	-11.3465
云何有漏	-11.3465
愍	-11.3465
所應作	-11.3466
蚊	-11.3466
若未滅設滅已失則不成就	-11.3466
智相應	-11.3467
精血	-11.3467
有兩	-11.3467
怯	-11.3467
房舍	-11.3467
次第非次第緣緣	-11.3468
見修	-11.3468
又由	-11.3468
得須陀洹果乃至阿羅漢果	-11.3468
充	-11.3469
馳	-11.3469
達分善根	-11.3469
若不如理所引了別	-11.3469
霧	-11.3469
不攝者何	-11.3469
伴侶	-11.347
除世貪憂	-11.347
嚴飾	-11.347
先以	-11.3471
五業	-11.3471
二成就	-11.3471
阿修羅	-11.3471
靜慮中	-11.3471
好色非好色	-11.3472
亦不應	-11.3473
及彼生等	-11.3473
如諸	-11.3473
伊	-11.3474
此文初也	-11.3474
穴	-11.3474
辛	-11.3474
春	-11.3475
此皆	-11.3476
源	-11.3476
亦不得	-11.3476
前之	-11.3478
地水火風	-11.3478
語妙行	-11.3479
欲界一切	-11.348
世間道	-11.348
觀行	-11.3482
沙彌	-11.3483
若謂此	-11.3484
還起	-11.3485
舍利弗阿毘曇論	-11.3485
彼心俱有	-11.3487
何等未斷	-11.3488
喜捨	-11.3488
依第四禪	-11.3491
獨處	-11.3491
知已根	-11.3494
勝功德	-11.3495
得作證	-11.3496
上分結	-11.3498
說諸	-11.3499
答諸法	-11.3502
異時	-11.3502
諸色法	-11.3503
趣體	-11.3504
無境界	-11.3509
無常等	-11.351
是名受陰	-11.3511
入見道者	-11.3511
大欲	-11.3511
無容起	-11.3513
因相應	-11.3513
依自	-11.3513
熟變	-11.3513
有異故	-11.3514
此相違	-11.3514
其力	-11.3514
想行蘊	-11.3515
一道	-11.3515
得俱起	-11.3516
能遍知	-11.3517
從下	-11.3519
名業道	-11.3521
餘想	-11.3522
設難	-11.3523
增上者	-11.3525
體別	-11.3526
離虛誑語	-11.3528
往彼	-11.3529
成實	-11.353
定不成就	-11.3531
定覺意	-11.3531
神力	-11.3533
何界	-11.3533
器中	-11.3535
通云	-11.3536
七返	-11.3538
更不復	-11.3541
取結繫	-11.3542
欲界見苦所斷	-11.3542
是總	-11.3543
順後次受業	-11.3546
果滿	-11.3546
諸佛世尊	-11.3546
緣非所斷	-11.3546
六品	-11.3553
能觸	-11.3553
大梵天	-11.3553
與過去	-11.3553
相狀	-11.3554
生善	-11.3555
諸部	-11.3555
所依性	-11.3556
時便	-11.3558
語律儀	-11.3559
設彼	-11.356
論宗	-11.3561
成就三	-11.3561
一不成就	-11.3563
是意識	-11.3564
彼結非	-11.3564
無著	-11.3567
四證淨	-11.3567
耳鼻舌身意識	-11.3569
解脫蘊	-11.3569
五類	-11.3569
無始來	-11.357
中各	-11.357
如是種類	-11.3573
盡當知	-11.3573
論意	-11.3574
其數	-11.3574
眾聖	-11.3578
世智	-11.358
淨慧	-11.3581
離喜	-11.3582
此中無	-11.3583
退捨	-11.3585
有二事	-11.3586
章義	-11.3589
和合故	-11.3594
為常	-11.3597
行迹	-11.3597
計有	-11.3597
還生欲界	-11.36
梵天上	-11.3602
是名色界	-11.3603
彼作是言	-11.3605
所了	-11.3605
入聖道者	-11.3606
隨何	-11.3609
謗因	-11.3611
果性	-11.3611
佛以	-11.3614
當知是	-11.3614
身處	-11.3614
相擊	-11.3615
三釋	-11.3617
除滅智	-11.3618
雜穢	-11.3618
增上力故	-11.3619
不由加行	-11.3621
相續者	-11.3622
身及	-11.3623
六云	-11.3624
斷德	-11.3624
非因計因	-11.3626
問云	-11.3626
必待	-11.3627
故不立根	-11.3629
共相應	-11.363
親教	-11.363
是無畏	-11.363
有表	-11.363
依欲界	-11.3631
倒想	-11.3631
三句	-11.3634
故作是言	-11.3635
生色無色界	-11.3639
本論言	-11.3639
是根本	-11.364
六十二	-11.3641
十一根	-11.3642
而無有	-11.3645
業品	-11.3646
無漏色	-11.3648
生老無常	-11.3649
有十四	-11.3649
為受	-11.365
緣使非相應者	-11.365
餘行相	-11.365
前難	-11.3651
為境界故	-11.3651
令有情	-11.3652
等別	-11.3654
如有頌言	-11.3655
設得	-11.3657
順上分	-11.3657
血肉	-11.3658
懼	-11.3658
五緣	-11.3658
說彼為	-11.3659
一切世間不可樂想	-11.366
讀	-11.366
秋	-11.3661
諸如是等	-11.3662
錄	-11.3662
筏	-11.3662
修無常想	-11.3663
乃至離	-11.3664
彼見	-11.3664
單	-11.3664
衣服飲食	-11.3664
相應故隨增非所緣故	-11.3665
肩	-11.3666
下分結	-11.3667
滅已不捨	-11.3669
此語	-11.3669
遍行隨眠相應識	-11.3669
取緣有	-11.367
業法煩惱所生報我分攝	-11.367
諂誑	-11.3673
壞苦	-11.3674
外道執	-11.3675
理無	-11.3677
得離繫	-11.3678
十位	-11.3678
不應為難	-11.3679
若爾此	-11.3684
不立為	-11.3684
初禪枝	-11.3685
自分因	-11.3686
何勞	-11.3688
非淨	-11.369
燈焰	-11.369
無緣法	-11.3691
於此位	-11.3693
而轉根者	-11.3694
憎惡	-11.3694
第九解脫	-11.3697
色界繫無覆無記心	-11.3697
眾僧	-11.37
惡慧	-11.3703
貪瞋等	-11.3704
成就遊	-11.3704
義同	-11.3704
應如是說	-11.3711
無分別故	-11.3711
又見	-11.3712
瞋癡	-11.3713
非緣使亦非相應使者	-11.3713
二行相	-11.3714
假說為	-11.3714
定無有	-11.3715
一身中	-11.3718
所辯	-11.3718
第八解脫	-11.3719
唯許	-11.3722
作種種	-11.3722
三類	-11.3723
龍王	-11.3724
名成就	-11.3726
趣道	-11.3726
云何意界	-11.3728
此中意說	-11.3728
餘一切法	-11.3728
順樂受觸	-11.373
佛證淨	-11.3731
學無學非學非無學	-11.3731
生也	-11.3731
通與	-11.3732
為境故	-11.3735
六觸	-11.3735
由如是	-11.374
欲色二界	-11.3741
乘前	-11.3743
所壞	-11.3744
義如前釋	-11.3746
下中	-11.3747
諸解脫道	-11.3747
離殺	-11.3747
所斷結種斷	-11.3753
相異	-11.3754
極妙	-11.3758
五道	-11.3761
名須陀洹	-11.3764
憂惱	-11.3765
我受	-11.3766
般涅槃時	-11.3768
准正理	-11.3769
佛法僧	-11.3769
此由	-11.3775
非相續	-11.3777
但得	-11.3777
名斷	-11.3778
林中	-11.3778
名譽	-11.3779
世所	-11.378
自性解脫	-11.378
諸諦	-11.3782
滅因	-11.3782
自性故	-11.3783
無間道中	-11.3787
無亂	-11.3787
誰有	-11.3787
能越	-11.3788
發智	-11.3788
云何得	-11.3789
色界者	-11.3789
有補特伽羅	-11.3791
非親	-11.3792
忍斷	-11.3796
同類因生	-11.3798
於理	-11.3798
非勝	-11.3798
若法有	-11.3799
身入	-11.3801
中受	-11.3801
能正	-11.3802
隨流	-11.3804
盡諸漏	-11.3804
俱能	-11.3805
命行	-11.3808
苾芻等	-11.3809
如來力	-11.3814
共有因	-11.3815
成道	-11.3815
此二智	-11.3815
得殺罪	-11.3816
名細	-11.3819
三名	-11.382
盡知	-11.3821
欺	-11.3822
非常等	-11.3822
中有二	-11.3824
有情同分	-11.3825
羸	-11.3825
生得善心	-11.3828
無色界修所斷	-11.3828
為根本	-11.3829
所入	-11.3831
有尋伺	-11.3831
亦不可	-11.3831
七八	-11.3831
彼等起	-11.3831
者為說	-11.3834
苦智相應	-11.3837
所緣縛	-11.3839
於其中	-11.3839
移轉	-11.384
第二解脫	-11.384
抱	-11.3843
應時	-11.3844
無表耶	-11.3845
於所緣境	-11.3848
生果	-11.3848
私	-11.3849
如理應知	-11.3849
毘尼	-11.3849
若世俗為加行	-11.3851
若作此解	-11.3851
極重	-11.3852
羯	-11.3852
欲界繫造色	-11.3853
傷歎	-11.3855
如來應正等覺	-11.3856
無漏緣隨眠	-11.3856
出水	-11.3857
現無	-11.3857
六結所繫	-11.3857
發心	-11.3857
卒	-11.3857
見苦集滅所斷	-11.3858
徑	-11.3858
爪	-11.3858
緩	-11.3859
頞	-11.3859
酥	-11.3859
召	-11.3861
躁動	-11.3861
此生故彼生	-11.3861
數習數修數多所作	-11.3861
答當言	-11.3862
救濟	-11.3863
流注	-11.3863
決判	-11.3864
復有三業	-11.3864
無時非因	-11.3865
長老	-11.3865
無斯過失	-11.3865
屠	-11.3865
非學非無學慧	-11.3867
那含	-11.3868
自成	-11.3869
若想	-11.3869
無對法	-11.387
小煩惱地法	-11.3871
前三無色	-11.3873
具攝	-11.3873
樂行	-11.3873
圓滿者	-11.3874
身邊二見	-11.3874
當知總說	-11.3876
即同	-11.3879
文中有二	-11.3879
染污不染污	-11.3884
如是三種	-11.3884
世尊告	-11.3886
種善根	-11.3887
所歸依	-11.3889
得一果	-11.389
二種業	-11.3894
令起	-11.3898
五順上分結	-11.3899
成十八	-11.3899
初釋	-11.3899
即心	-11.3901
假使	-11.3906
三支	-11.3907
此中應說	-11.3908
緣聲	-11.3909
互為因果	-11.3912
語具	-11.3913
又經中說	-11.3914
等緣	-11.3916
復還	-11.3917
隨有	-11.3917
城中	-11.3917
初心	-11.3918
救也	-11.392
如火	-11.3921
是名意入	-11.3921
法界中	-11.3921
所待	-11.3922
與苦	-11.3923
由定	-11.3926
有隨眠心	-11.3928
是色界	-11.3928
謂見苦所斷	-11.3928
誰為	-11.3932
毗	-11.3934
亦具	-11.3934
五義	-11.3937
隨眠品	-11.3938
諍根	-11.3941
智人	-11.3941
有貪隨眠	-11.3941
俱盧舍	-11.3942
若住不律儀	-11.3942
更受	-11.3942
云何色界	-11.3942
聖者生無色界	-11.3945
世者	-11.3946
亦不相違	-11.3949
見耶	-11.3949
靜慮無色	-11.3949
復有三	-11.3951
於上地	-11.3951
不應為	-11.3953
過失故	-11.3955
初靜慮眼識	-11.3956
五無間	-11.3957
一一極微	-11.396
本宗	-11.396
是誰	-11.3962
無勞	-11.3962
諸纏	-11.3963
是修所斷	-11.3965
名遍知	-11.3965
諸愛	-11.3966
前釋	-11.3966
他心通	-11.3967
相隨	-11.3967
具戒	-11.3967
行善	-11.3968
如是補特伽羅	-11.3972
不因	-11.3974
可退	-11.3974
智遍知	-11.3975
邪道	-11.3976
應亦	-11.3978
日輪	-11.3978
云何意入	-11.3979
集故	-11.3981
求解脫	-11.3981
力生	-11.3985
次起	-11.3986
二結繫	-11.3986
謂心心所	-11.3986
作善	-11.3988
色界大種	-11.3989
謂一切法	-11.3992
一切善法	-11.3993
無願耶	-11.3993
覺法	-11.3993
成就不成就	-11.3993
合為一	-11.3994
見道修道所斷	-11.3996
經證	-11.3998
全分	-11.4
想受	-11.4002
有是事	-11.4003
?」	-11.4003
世尊於	-11.4005
壯	-11.4015
熏習	-11.4016
分別故	-11.4018
所殺	-11.402
策	-11.402
心悅	-11.4021
由慧	-11.4022
惑滅	-11.4023
苦未知智斷	-11.4025
能覆	-11.4028
卷第四	-11.4028
能染	-11.4028
阿羅漢最後心	-11.4031
欲求	-11.4031
於戒	-11.4032
此即第二	-11.4033
七者	-11.4035
故先	-11.4036
根律儀	-11.4037
能緣一切法	-11.4038
應為	-11.4039
此如前	-11.4039
禪中	-11.4041
無色界無色	-11.4041
一切不善	-11.4043
修習多修習	-11.4047
非戒	-11.4048
心相應法	-11.4049
本有教便失	-11.405
亦不說	-11.4051
陵	-11.4053
一日一夜	-11.4053
亡	-11.4054
求覓	-11.4055
脇尊者曰	-11.4055
酪	-11.4056
厭食想	-11.4056
莊嚴身	-11.4056
遠分對治	-11.4057
降雨	-11.4058
審諦	-11.4059
相續一趣繫念一境	-11.406
蒙	-11.406
有漏身進有漏身除	-11.406
兵	-11.406
三有為相	-11.406
喬答摩	-11.4061
心所起集聲音句言語口教	-11.4061
若法勝非勝能生	-11.4062
不能一趣繫念一境	-11.4062
散動馳流	-11.4062
力士	-11.4062
相應隨增	-11.4062
若思惟法不生	-11.4062
集智已生滅智未生	-11.4062
鄔陀夷	-11.4063
有諸外道	-11.4064
青瘀	-11.4064
無常苦想	-11.4065
理必不然	-11.4065
除類滅道智	-11.4065
定覺支	-11.4067
氏	-11.4067
弊惡	-11.4067
白法	-11.4067
通異熟	-11.4068
輔佐	-11.4068
有死生	-11.4068
軌範師	-11.4068
三學	-11.4068
是有餘說	-11.4069
諸有此見	-11.407
愛恚慢	-11.407
見滅見道所斷	-11.4072
等也	-11.4074
齊此名為	-11.4075
而白佛言	-11.4075
大不善地法	-11.4076
正勝	-11.4077
說如是言	-11.4079
證成	-11.4079
隨滅	-11.4079
有漏故	-11.4079
以心	-11.4081
欲受	-11.4083
為因等無間所緣增上	-11.4083
六足	-11.4083
幾無記	-11.4084
要須	-11.4085
戒者	-11.4086
自地味相應	-11.4086
義邊	-11.4086
俱行心	-11.4086
等者等取	-11.4087
此位中	-11.4088
相去	-11.4088
是名第一	-11.4089
十色入	-11.4089
有對無對	-11.409
第四明	-11.4091
七善士趣	-11.4091
總釋	-11.4094
見所斷心	-11.4094
世尊何故	-11.4096
法處所攝	-11.4096
無色界一	-11.4098
識故	-11.41
是諸	-11.41
令諸有情	-11.4101
自根	-11.4101
阿難陀	-11.4102
是相應義	-11.4103
所說云何通	-11.4104
緣無記	-11.4105
答曰或有說者	-11.4106
無學正智	-11.4108
依果	-11.4109
相順	-11.411
釋第三	-11.4113
起惡	-11.4113
眠時	-11.4113
無為解脫	-11.4113
俱心	-11.4114
修觀	-11.4116
各四	-11.4116
了了	-11.4116
反詰	-11.4116
逆次	-11.4117
有情名	-11.4118
燈明	-11.4119
展轉相緣	-11.412
印可	-11.4123
廣明	-11.4123
謗果	-11.4123
及受	-11.4123
有處說	-11.4124
唯聖者	-11.4126
世道	-11.4127
當勝解	-11.4128
釋上兩句	-11.4128
五比丘	-11.413
心迴	-11.4131
輪轉	-11.4132
此居第	-11.4134
第二念等	-11.4143
可施設	-11.4144
所障	-11.4144
引後	-11.4145
貌	-11.4145
名數	-11.4147
可了知	-11.4147
末摩	-11.4148
與受	-11.4149
由自	-11.4149
活命	-11.4151
謂有身見	-11.4152
上中	-11.4153
四界	-11.4157
兩解	-11.4157
故稱	-11.416
法處攝	-11.4161
有諍	-11.4162
靜慮等	-11.4162
味定	-11.4164
道所斷	-11.4165
無處	-11.4165
受為	-11.4165
非汝	-11.4168
諦現觀	-11.4169
是我所	-11.4172
取像	-11.4173
無常行相	-11.4177
心相生	-11.4178
卷第一	-11.4179
是即	-11.4179
決定無	-11.418
真解脫	-11.4183
卷第二	-11.4184
論言	-11.4185
正宗	-11.4185
於中有三	-11.4185
有何別	-11.4188
作等無間緣	-11.4189
住等	-11.4189
自力起	-11.4189
恚尋	-11.419
通有漏	-11.419
說此為	-11.419
是苦諦	-11.419
謂在	-11.4193
緣滅法智斷	-11.4195
六十五	-11.4195
不遠	-11.4196
得清淨	-11.4199
無減	-11.4201
是故不應	-11.4202
無窮過	-11.4203
不生欲界	-11.4203
於父母	-11.4206
無我觀	-11.4206
眾妙聲	-11.4207
色界無色界	-11.4208
三分別	-11.421
等住	-11.421
受名	-11.421
由多	-11.4212
成近事	-11.4212
教戒	-11.4212
第三師	-11.4212
有愛結繫	-11.4212
相是	-11.4213
相顯	-11.4215
於因	-11.4215
說此名	-11.4215
慳嫉	-11.4216
入無想	-11.422
於彼相應法	-11.4222
顯說	-11.4222
習未知智	-11.4225
草等	-11.4226
先來	-11.4229
無心定	-11.4229
思惟道	-11.4229
醫	-11.4232
為本	-11.4237
或過去或未來或現在	-11.4238
欲界繫大種	-11.424
無明慢掉	-11.4242
故唯說	-11.4243
飲諸酒	-11.4243
諸方	-11.4244
經是此論所依根本	-11.4244
習法智	-11.4246
如何可	-11.4247
經久	-11.4247
謂無緣法身分	-11.425
是有情	-11.4252
樂變化天	-11.4253
為喻	-11.4254
見隨眠	-11.4254
驚	-11.4257
灑	-11.4257
擾惱	-11.4257
九十一劫	-11.4258
若於此	-11.4258
邪業	-11.4258
苦無我想	-11.4258
說我	-11.4259
瞻	-11.426
古昔	-11.426
膝	-11.426
若別說者	-11.4261
碎	-11.4262
若意入	-11.4262
垂	-11.4262
彼作經者	-11.4262
取至境	-11.4262
猪	-11.4264
得俱生	-11.4265
不得自在	-11.4265
淨戒	-11.4265
而去	-11.4265
半行頌	-11.4266
審察	-11.4266
劬勞	-11.4266
未得無色界善心	-11.4267
順流	-11.4268
多有	-11.4269
從貪生	-11.427
作加行	-11.4274
皆不成就	-11.4274
如前說者好	-11.4274
無不皆	-11.4275
非律儀	-11.4278
擇滅無為	-11.4278
若依未至	-11.4278
梵本	-11.4278
掉悔	-11.4278
三百	-11.428
容有退	-11.428
惡友	-11.4281
苦滅聖諦	-11.4282
由他	-11.4282
稱譽	-11.4283
未曾有	-11.4284
巳斷	-11.4284
意觸樂受	-11.4284
離下地染	-11.4284
如是等法	-11.4285
無戒	-11.4285
彼云何斷	-11.4288
相續轉變差別	-11.4288
七十五法中	-11.4288
類智品道	-11.4289
諍論	-11.4289
是名第三	-11.4289
別處	-11.4292
北方	-11.4293
無所緣故	-11.4293
過重	-11.4293
在何處	-11.4293
中攝	-11.4293
我已知苦	-11.4294
由一	-11.4294
證故	-11.4298
煗頂	-11.4299
略去	-11.43
除異熟	-11.43
執著	-11.4302
思食	-11.4303
奉行	-11.4305
離彼染	-11.4306
業相應	-11.4307
十想	-11.4308
現見世間	-11.4308
或三	-11.4312
亦明	-11.4314
說一切有部答	-11.4315
審觀	-11.4317
是故此法	-11.432
及未來現在	-11.4324
生住滅	-11.4324
他心智通	-11.4329
修厭	-11.4331
道下	-11.4331
此結	-11.4332
調柔	-11.4334
相妨	-11.4334
唐捐	-11.4334
成阿羅漢	-11.4334
於父	-11.4334
復有別	-11.4336
者意	-11.4337
近治	-11.4339
四倒	-11.434
於何時	-11.434
如意根	-11.4341
為方便	-11.4341
此願智	-11.4341
相近	-11.4343
一因生	-11.4343
煩惱大地	-11.4344
不相離故	-11.4347
與無漏	-11.4348
勝因	-11.4349
勝樂	-11.4349
初修	-11.435
成滿時	-11.4352
雖與	-11.4352
而依	-11.4352
闕緣	-11.4356
我語	-11.4357
某	-11.4358
成就四	-11.4362
歸敬	-11.4362
施與	-11.4362
次第說	-11.4363
立遍知	-11.4367
古師	-11.4368
非時解脫	-11.4368
永不生	-11.4369
欲使彼	-11.4369
可愛果	-11.4369
謂世俗智	-11.437
緣他	-11.4371
魔王	-11.4371
相應慧	-11.4373
覆蔽	-11.4376
請問	-11.4377
有取	-11.4378
樂覺	-11.4378
亦有二種	-11.4379
修戒	-11.4379
樂苦	-11.438
於涅槃	-11.438
四見	-11.4389
立因	-11.439
地獄中有	-11.439
色界繫大種	-11.439
入初靜慮	-11.4392
若遇	-11.4392
一解	-11.4396
想名	-11.44
有垢	-11.4402
順捨	-11.4402
五識識	-11.4406
少多	-11.441
第三釋	-11.441
釋前	-11.441
問豈不	-11.4411
漸斷	-11.4413
得阿耨多羅三藐三菩提	-11.4413
觸對	-11.4417
此經說	-11.4417
弟子眾	-11.4418
此四無量	-11.4419
謂知	-11.442
無喜	-11.4421
是集諦	-11.4421
無取	-11.4421
約世	-11.4422
過去業	-11.4423
四通行	-11.4425
對餘	-11.4429
為誰	-11.443
受得	-11.4431
緣善	-11.4431
法救	-11.4432
經部釋	-11.4434
第六明	-11.4434
符	-11.4435
有過去愛結繫	-11.4438
由二緣	-11.4439
離第三靜慮染	-11.4439
虛誑	-11.444
欲心	-11.4444
初兩句	-11.4446
如經	-11.4446
現在四大	-11.4447
無遍處	-11.4448
見苦所斷法	-11.4448
四位	-11.4449
哉	-11.4449
當知亦爾	-11.4449
長行	-11.4451
離於	-11.4451
是不共	-11.4453
法前	-11.4453
三聚	-11.4454
月輪	-11.4455
何故不立	-11.4456
答諸法彼心相應	-11.4456
餘業	-11.4457
裹	-11.4457
亦無失	-11.4457
已勝解	-11.4458
無願無願	-11.4458
一見	-11.4459
甞	-11.446
彼法得生老住無常	-11.446
或二或三	-11.446
於彼色起無覆無記眼識	-11.4461
定品	-11.4461
念相應	-11.4463
喚	-11.4463
若退若生	-11.4464
作如是釋	-11.4464
色非色	-11.4465
為自	-11.4466
飄	-11.4467
閑居	-11.4467
嬈亂	-11.4468
談	-11.447
四禪枝	-11.447
出佛身血	-11.447
巳說	-11.447
有智	-11.4472
兄	-11.4472
窟	-11.4473
同類遍行	-11.4473
色界善	-11.4474
生住異滅	-11.4474
菓	-11.4475
滅受想定	-11.4476
應得	-11.4476
不說自成	-11.4476
共生共住共滅	-11.4476
曲穢濁	-11.4476
賢聖弟子	-11.4477
村落	-11.4478
展轉乃至	-11.4478
及得	-11.4478
捨得	-11.4479
薰	-11.4481
所說復云何通	-11.4482
無顛倒	-11.4484
異熟果故	-11.4486
互相望	-11.4487
名隨信行	-11.4488
內處攝	-11.449
正慧	-11.449
皆共	-11.449
多緣	-11.4491
異心	-11.4492
亦不違理	-11.4494
及不定受	-11.4494
二禪枝	-11.4495
為攝	-11.4495
此諸法	-11.4495
苦根憂根	-11.4497
滅想	-11.4497
五淨居	-11.4497
就中有二	-11.4497
能治彼	-11.4498
教理	-11.4499
緣縛斷	-11.4501
立蓋	-11.4502
八日	-11.4503
不學	-11.4503
苦集聖諦	-11.4504
嫉妬	-11.4505
便住	-11.4506
敬重	-11.4508
三應分別	-11.4508
馬勝	-11.4509
斷欲界結	-11.451
餘有情	-11.451
為遮彼意顯	-11.4511
所增	-11.4511
但立	-11.4513
不淨觀持息念	-11.4522
能施	-11.4526
功用果	-11.4527
章中	-11.4528
上有	-11.453
若能了別	-11.4531
順次生受業	-11.4531
為後	-11.4532
有別物	-11.4532
汝意	-11.4534
等用	-11.4535
業能感	-11.4538
思種	-11.4541
欲界色	-11.4543
生初禪	-11.4544
苦法智斷	-11.4544
果因	-11.4545
若諸異生	-11.4549
麁等三行	-11.455
無漏信	-11.455
云何識陰	-11.4551
能遍緣	-11.4551
已斷遍知	-11.4554
分三	-11.4556
命終心	-11.4556
不定中	-11.4556
相應受	-11.4557
於生死	-11.4558
離殺等	-11.4559
若佛	-11.456
一結	-11.4562
翻為	-11.4562
尊作是說	-11.4563
唯觀	-11.4563
苦報	-11.4564
是煩惱	-11.4564
若實人若趣若	-11.4564
未離貪	-11.4566
唯異生	-11.4566
故但說	-11.4568
能如實知	-11.457
餘義	-11.4571
善見	-11.4571
無學心者	-11.4572
喻顯	-11.4579
能與果	-11.4581
六智知	-11.4582
依靜慮中間	-11.4583
或未來	-11.4587
八聖道	-11.459
增時	-11.459
信心	-11.4596
闕一	-11.4597
心無間生	-11.4598
彼成就此	-11.4598
有變礙	-11.46
工巧處心	-11.46
七十三	-11.4601
頓起	-11.4601
非自	-11.4601
證一來果	-11.4602
六種性	-11.4602
未證	-11.4602
增上法	-11.4602
滅壞	-11.4604
彼諸外道	-11.4605
愛生	-11.4607
類不同	-11.4608
若智生	-11.4609
以方便	-11.4609
八萬歲	-11.4611
唯有二	-11.4614
未得退	-11.4616
色漏有漏	-11.4617
是第三	-11.4617
無貪性	-11.4618
▁法	-11.4623
修所斷惑	-11.4623
雖然	-11.4623
二月	-11.4624
云何修所斷	-11.4624
此有二種	-11.4625
不恭敬	-11.4626
數復	-11.4627
味等	-11.4628
唯緣欲界	-11.4629
與我	-11.4629
而便	-11.4631
同也	-11.4632
出息入息覺知	-11.4632
皆捨	-11.4635
般涅槃故	-11.4635
二十五	-11.4635
色無色界煩惱	-11.4637
感果	-11.4637
先辯	-11.4637
佛告阿難	-11.4637
為自性故	-11.4638
七十二	-11.464
何以不	-11.4641
依無色定	-11.4641
是名第四	-11.4642
昔云	-11.4642
現修	-11.4642
非慧	-11.4649
染不染	-11.4649
誰言	-11.4651
當廣說	-11.4653
順彼	-11.4654
前來	-11.4656
更無別	-11.4657
淨四靜慮	-11.466
是不繫	-11.466
如文	-11.4662
結前	-11.4663
空無相	-11.4664
或有眾生	-11.4665
觀四諦	-11.4666
勳	-11.4667
阿毘曇八犍度論	-11.4668
四諦智	-11.4669
天中有	-11.4669
掘	-11.467
涼	-11.467
應於	-11.467
大覺	-11.467
非過去現在	-11.4672
此滅盡定	-11.4673
出入	-11.4673
問世尊說	-11.4675
尊者波奢說曰	-11.4676
集法忍	-11.4677
薩迦耶	-11.4677
胎中	-11.4678
現法涅槃	-11.4678
電	-11.4678
謂四靜慮	-11.4679
於欲界修所斷法	-11.4679
勇健	-11.4679
輕躁	-11.468
納	-11.468
幾智現在前	-11.4681
支分	-11.4681
塞	-11.4681
當知此說有	-11.4681
幾學	-11.4681
維	-11.4681
履	-11.4682
刀杖	-11.4682
比丘思惟	-11.4683
隨煩惱纏	-11.4683
憍逸	-11.4684
小乘	-11.4684
轉至	-11.4684
斯有何失	-11.4684
於理無違	-11.4685
狼	-11.4685
何法為	-11.4685
鮮	-11.4686
諸結盡	-11.4686
往詣	-11.4687
無明結繫	-11.4688
及見集所斷遍行隨眠隨增	-11.4688
事成	-11.4688
如前已辯	-11.4688
儒童	-11.469
暢	-11.469
已說體性	-11.4691
俱時而生	-11.4692
如是說者好	-11.4692
起結	-11.4695
愛相應	-11.4698
緣非境界緣	-11.4698
彼相	-11.4699
理實應言	-11.47
學無學心	-11.4701
憍慢結	-11.4701
緣下地	-11.4702
內淨	-11.4703
是空	-11.4703
一界少分	-11.4704
斷絕	-11.4705
此受	-11.4705
後當廣	-11.4705
復應	-11.4706
不壞信	-11.4707
僧伽藍	-11.4707
得樂	-11.4709
別生	-11.471
問誰	-11.471
空相應	-11.471
若自	-11.4711
所依處	-11.4712
不現見	-11.4712
無相耶	-11.4716
方便得	-11.472
勢分	-11.4723
助道法	-11.4723
能憶知	-11.4723
是名識陰	-11.4725
又如經說	-11.4728
涅槃者	-11.4728
下根	-11.4728
色性	-11.4729
三世法	-11.4733
此力	-11.4736
謂欲色界	-11.4736
一方	-11.4739
息念	-11.474
等越次取證	-11.4741
與一	-11.4743
正滅時	-11.4744
離飲酒	-11.4744
得靜慮	-11.4745
超一切	-11.4748
究竟斷	-11.4748
若更	-11.4748
相云何	-11.4748
若復	-11.4749
無求	-11.4751
淨及無漏	-11.4753
所緣已斷	-11.4754
名目	-11.4755
先作是說	-11.4756
四無畏	-11.4757
有前後	-11.4758
愚惑	-11.4758
一切行	-11.4759
諍訟	-11.4759
入初禪	-11.476
依他	-11.4768
所攝受	-11.4772
前世	-11.4772
緣和合	-11.4772
非欲界	-11.4773
捨異生性	-11.4774
深入	-11.4775
互不相	-11.4778
與法	-11.478
身口意	-11.4781
不俱時	-11.4781
墮在	-11.4782
白佛	-11.4783
相合	-11.4783
觀法	-11.4786
喜故	-11.4786
二百五十	-11.4786
不依無色	-11.4787
以欲	-11.4791
起定	-11.4792
眼能見	-11.4794
細分	-11.4798
諸聖道	-11.4799
多心	-11.48
先已得	-11.4801
頓現觀	-11.4801
名異	-11.4807
三德	-11.4807
知已	-11.4807
二得	-11.4808
惑中	-11.4809
不了知	-11.4809
是見道	-11.4811
非恒	-11.4812
或有人	-11.4816
離非梵行	-11.4817
非苦智	-11.4818
愛觸	-11.4821
擇滅得	-11.4823
水輪	-11.4827
釋頌文	-11.4828
有尋	-11.4828
生芽	-11.4829
中不說	-11.4829
於中初	-11.4831
七根	-11.4831
集滅道智	-11.4835
由道	-11.4838
八事	-11.4841
約地	-11.4844
彼隨眠	-11.4847
他有情	-11.4847
於諸法	-11.4847
重緣	-11.4847
護持	-11.4852
於諸有情	-11.4852
無想眾生	-11.4852
生死中	-11.4852
淨想	-11.4853
實法	-11.4855
身行口行	-11.4855
是眾生	-11.4855
盡未知智	-11.4856
逆罪	-11.4856
順取	-11.4858
通善	-11.4859
由因力	-11.486
七云	-11.4861
為無	-11.4861
唯住	-11.4862
於文	-11.4864
亦可言	-11.4865
法後	-11.4866
像色	-11.4866
行轉	-11.4874
滅作證九結盡	-11.4874
更立	-11.4876
得阿羅漢果時	-11.4876
可名為	-11.4877
乃至命終	-11.4877
無妨	-11.4879
一一剎那	-11.4882
無害	-11.4883
起位	-11.4883
未來禪	-11.4884
修行廣布	-11.4886
愛喜適意	-11.4886
有七種	-11.4886
別標	-11.4886
產	-11.4887
結縛	-11.4887
義是相應義	-11.4887
我愛	-11.4888
阿練若	-11.4888
稟	-11.4888
諸愚夫	-11.4888
響	-11.4889
津液遍滿	-11.489
貧賤	-11.4891
不善耶	-11.4891
迎	-11.4891
三禪枝	-11.4892
聽聞正法	-11.4892
身體	-11.4892
順不苦不樂受業	-11.4893
分限	-11.4894
等流異熟	-11.4895
附	-11.4895
身口無教	-11.4895
偽	-11.4895
著色	-11.4896
備	-11.4896
綺語	-11.4896
錢	-11.4896
立一遍知	-11.4896
解脫道中	-11.4898
六思身	-11.4898
忍辱	-11.4898
修知他人心智	-11.4898
諸漏永盡	-11.4898
順逆	-11.4898
因斯	-11.4898
入第四靜慮	-11.4899
若依正理	-11.4899
後二遍處	-11.4899
貧窮	-11.4899
憑	-11.49
十結眠沒	-11.49
得不動	-11.49
二依	-11.49
屋	-11.49
中上	-11.4901
拒	-11.4901
珍寶	-11.4902
憐愍	-11.4902
淳	-11.4902
推徵	-11.4903
有財釋	-11.4903
素怛纜	-11.4903
豈不此	-11.4904
得滅	-11.4904
色心	-11.4904
靜妙離	-11.4904
慢過慢	-11.4905
略而不論	-11.4905
逮解脫戒	-11.4905
是別	-11.4906
所以然者	-11.4907
邪精進	-11.4907
有餘復言	-11.4908
諸異生類	-11.4908
戾	-11.491
充滿	-11.491
素	-11.4912
已觀	-11.4912
有勢力	-11.4913
有如此	-11.4913
內處	-11.4914
靜慮果	-11.4916
說意	-11.4916
亦現在前	-11.4917
自利	-11.4919
無處無容	-11.4919
謂有苾芻	-11.4919
隨闕一	-11.4919
從此第五	-11.492
未離初靜慮染	-11.492
今復	-11.492
正理破云	-11.4921
內外法	-11.4922
體亦	-11.4923
不可施設	-11.4923
頗成就	-11.4923
意樂故	-11.4924
化主	-11.4926
而得生故	-11.4928
堅信	-11.4928
為因生	-11.4929
非學非無學智	-11.4931
三十六隨眠	-11.4931
在九地	-11.4931
鳴	-11.4935
外處攝	-11.4935
然契經說	-11.4938
勝緣	-11.4939
非所緣縛	-11.494
此中偈曰	-11.4941
煩惱現在前	-11.4942
述經部	-11.4943
除自性	-11.4943
由此道理	-11.4946
有所依	-11.4946
聖道故	-11.495
增勝	-11.4951
能速	-11.4951
以顯	-11.4955
如所	-11.4956
咎	-11.4958
學根	-11.4959
有對色	-11.4959
退法種性	-11.496
不定聚	-11.4964
唯據	-11.4965
至阿羅漢	-11.4966
彼定成就	-11.4966
隣次	-11.4967
言語	-11.4967
諸律儀	-11.4973
釋經	-11.4974
若於彼	-11.4975
缺減	-11.4975
異性	-11.4976
幾善	-11.4977
而取	-11.4978
何處說	-11.4978
緣已生法	-11.4979
云何不繫	-11.4984
九界	-11.4985
雖亦有	-11.4985
二千	-11.4986
若汝	-11.4987
本論中	-11.4987
自覺	-11.4987
宿住智	-11.4988
謂瑜伽師	-11.4989
明無明	-11.4989
如本論說	-11.4991
不善有覆無記	-11.4991
名一剎那	-11.4997
貪生	-11.4999
生惡趣	-11.5
十入	-11.5001
苦邊	-11.5001
及數滅	-11.5002
有恚結繫	-11.5003
若異生	-11.5006
諸惡趣	-11.5006
他害	-11.5015
有覺有觀定	-11.5016
非世	-11.5016
順樂受	-11.5016
欲界見滅所斷	-11.5016
非分故	-11.5017
根法	-11.5017
我能	-11.5019
以說	-11.502
及色無色界	-11.5024
七明	-11.5025
而與	-11.5029
離身	-11.5029
散地	-11.503
上立	-11.5032
但起	-11.5032
不善心俱	-11.5034
意法	-11.5034
調象	-11.5035
金銀	-11.5035
入離生	-11.5038
所稱	-11.5039
感得	-11.5039
後觀	-11.5042
從果	-11.5042
起此見	-11.5043
和合生	-11.5043
猶為	-11.5043
結繫	-11.5044
處定	-11.5047
經但說	-11.5048
此破	-11.5049
為六	-11.5049
及虛空	-11.5049
十三界	-11.5051
無貪等	-11.5051
若成就身	-11.5057
於見道	-11.5058
有情數攝	-11.5058
於此位中	-11.5061
赤色	-11.5062
故此識	-11.5064
遠者	-11.5064
遊行	-11.5065
門中	-11.5065
勅	-11.5066
復次於	-11.5069
如樹	-11.5069
相同	-11.5072
夜分	-11.5072
心差別	-11.5073
無漏智現在前	-11.5074
向上	-11.5075
上妙	-11.5075
四十四	-11.5076
有漏定	-11.5077
後明	-11.5077
如是應知	-11.5079
是何法	-11.508
不善色	-11.508
初二定	-11.5081
修義	-11.5081
外道計	-11.5082
能淨	-11.5084
過惡	-11.5084
非有身見為因非有身見因	-11.5085
異身	-11.5087
定說	-11.509
若滅	-11.5092
越次	-11.5096
如從	-11.5096
死已	-11.5097
謂空無邊處	-11.5097
如佛說	-11.5098
澤	-11.5099
辱	-11.5101
十千	-11.5103
無異故	-11.5104
有增上	-11.5105
起此定	-11.5107
起上	-11.5108
此即總	-11.5108
上句	-11.5108
真道	-11.5112
處母胎卵膜漸厚	-11.5114
五受根	-11.5114
除自體	-11.5115
不正義	-11.5116
世友	-11.5117
髻	-11.5117
固	-11.5117
欲色界繫	-11.5117
盡作證	-11.5117
不修戒	-11.5117
成就初禪行	-11.5118
俱生品	-11.5119
於此地	-11.5119
能趣	-11.5119
群	-11.5119
太子	-11.5119
慶	-11.512
圍繞	-11.5122
眼根乃至無色界	-11.5123
此事不然	-11.5123
夷	-11.5123
若不生不思惟	-11.5123
救云	-11.5124
第二第三第四禪	-11.5124
不相雜亂	-11.5126
具正勤正知正念	-11.5126
除過去現在	-11.5126
慇懃	-11.5126
窣堵波	-11.5126
良田	-11.5126
便為無用	-11.5127
掌	-11.5127
已能	-11.5129
滅智已生道智未生	-11.5129
五識身相應	-11.513
非根法	-11.5134
調適	-11.5134
善友	-11.5134
法住智	-11.5135
二性	-11.5135
世俗正智	-11.5136
二十中劫	-11.5136
預流果攝	-11.5136
之外	-11.5136
已下一行頌	-11.5137
若意界	-11.5137
昔有	-11.5138
謂異熟因	-11.5142
鼻舌身	-11.5143
所引發故	-11.5143
色界無	-11.5144
由此應知	-11.5144
加行心	-11.5147
現在若現在前	-11.5147
共一	-11.5148
我作	-11.5149
證預流果	-11.5149
種種苦	-11.5149
故有差別	-11.5151
不顯	-11.5152
如何得知	-11.5152
修世俗智	-11.5153
約處	-11.5153
立以	-11.5154
不修慧	-11.5155
四由	-11.5155
墮落	-11.5156
無邊空處	-11.5157
聞思	-11.5159
謂或有說	-11.5159
離殺生	-11.5161
阿毘曇說	-11.5161
答應說而不說者	-11.5162
色等境	-11.5163
欲界凡夫	-11.5166
麁動	-11.5168
三界四部	-11.517
而知	-11.5172
發願	-11.5173
進退	-11.5173
種果	-11.5174
現在識	-11.5174
安布差別	-11.5175
悲心	-11.5175
色之	-11.5175
有緣法	-11.5177
處少分	-11.5177
執我我所	-11.5179
有如是想	-11.5179
以過去	-11.518
何性	-11.518
所收	-11.518
若於是處	-11.5181
總有三種	-11.5181
正直	-11.5182
因苦類智斷	-11.5182
謂無施	-11.5183
念住等	-11.5185
大地法十	-11.5185
於意	-11.5188
經不說	-11.5189
是異生	-11.519
為蓋	-11.5192
有勝劣	-11.5193
是則應	-11.5193
法施	-11.5193
一境性	-11.5193
羸劣故	-11.5195
及得預流果	-11.5201
互相攝	-11.5203
愛行者	-11.5205
故不別	-11.5205
上忍	-11.5209
相也	-11.521
等活	-11.521
染污者	-11.5211
分分	-11.5212
不堅	-11.5212
云何意根	-11.5213
見趣	-11.5213
不斷煩惱	-11.5213
不極成	-11.5213
化者	-11.5215
若外	-11.5215
相資	-11.5215
欲界貪	-11.5216
能取境	-11.5216
乃至是名	-11.5217
非隨眠	-11.5217
圓滿故	-11.522
禪戒	-11.5222
最麁	-11.5224
情非情	-11.5225
善不善法	-11.5226
隨增者	-11.5227
不動行	-11.5229
後因	-11.5231
五蘊為性	-11.5231
安住法	-11.5234
眼所見	-11.5236
故名大悲	-11.5236
法智忍	-11.5237
用功	-11.5239
未久	-11.524
離欲者	-11.5241
上緣	-11.5242
無巧便	-11.5242
麥等	-11.5244
云何捨根	-11.5244
大地法中	-11.5245
法藏	-11.5248
體各別	-11.5248
非色界繫無覆無記心	-11.525
妄執	-11.525
後識	-11.525
位說	-11.5253
七處	-11.5253
先捨	-11.5255
不敬	-11.526
轉計	-11.5261
已捨故	-11.5261
是故說為	-11.5261
云何不斷	-11.5265
無邊行相	-11.5269
卷第三	-11.5269
因緣生	-11.5269
俱時起	-11.527
娑	-11.5271
一切功德	-11.5271
名捨根	-11.5273
為約	-11.5274
亦不成	-11.5276
覆障	-11.5276
處名	-11.5277
所攝故	-11.5278
耳鼻舌身意	-11.5279
相續法	-11.5282
各有三	-11.5282
亦立	-11.5282
此宗	-11.5282
勝義諦	-11.5284
非無差別	-11.5284
不決定故	-11.5286
淨心	-11.5287
三結盡	-11.5287
及後	-11.5288
眼識所依	-11.5288
六中	-11.5289
命過	-11.5289
從業生	-11.5289
故不應責	-11.5289
如此義	-11.529
於佛法	-11.529
能憶念	-11.5291
名句	-11.5293
幾心	-11.5293
九種結	-11.5296
無色有情	-11.5301
第二解	-11.5302
苦所逼	-11.5303
非無色界繫善心	-11.5303
若成就未來	-11.5304
意生	-11.5304
威儀路心	-11.5305
何故言	-11.5306
後攝前	-11.5307
曾起	-11.5308
計為	-11.5311
此物	-11.5311
大千	-11.5314
此句	-11.5316
無有退	-11.5316
尊勝	-11.5316
是無漏故	-11.5317
自住	-11.5317
頓捨	-11.5319
見處非見	-11.532
之業	-11.5321
曇摩	-11.5323
第一明	-11.5323
彼諸得	-11.5323
二不成就	-11.5323
於下地	-11.5323
名喜根	-11.5323
應起	-11.5323
緣餘法	-11.5326
命終生	-11.5329
有漏他心智	-11.5329
慰	-11.533
斷想	-11.5334
非共	-11.5336
新生	-11.5336
則生	-11.5336
離心	-11.5337
六受身	-11.5339
前三句	-11.5339
煙	-11.5342
恚界	-11.5342
異想	-11.5342
部多	-11.5343
第八有	-11.5343
輩	-11.5344
五處	-11.5344
樂速通行	-11.5345
二十九	-11.5345
檀	-11.5346
遷	-11.5347
傾動	-11.5348
舒	-11.5348
不得是時修	-11.5349
身業口業	-11.5349
攀	-11.5349
於道思惟道	-11.5349
斷生命	-11.5349
食之	-11.535
親附	-11.5351
自界地	-11.5351
烏	-11.5352
揵	-11.5352
無覆無記法	-11.5352
阿毘達磨俱舍釋	-11.5353
此證	-11.5354
都無有	-11.5354
曇	-11.5355
母腹	-11.5355
哀	-11.5355
厭生死	-11.5355
彼說非理	-11.5355
先辨	-11.5355
奇	-11.5356
撿	-11.5356
苦類智未生	-11.5356
竭	-11.5358
斷修惑	-11.5358
補	-11.5358
未離色染	-11.5359
西方諸師	-11.5359
名彼同分	-11.5361
色等五境	-11.5361
觸緣受	-11.5362
為己	-11.5362
調御	-11.5363
忍許	-11.5365
通所依	-11.5366
亦應許	-11.5367
信戒	-11.5367
若依初禪	-11.5367
為令已生惡不善法斷故	-11.5367
女寶	-11.5369
復次佛	-11.5371
易滿	-11.5371
世八法	-11.5372
壽盡	-11.5372
依未來	-11.5373
佗心智	-11.5373
暴惡	-11.5377
望於	-11.5377
善來	-11.5378
異趣	-11.5378
善不善色	-11.5379
謂聖弟子	-11.5379
汝於	-11.5379
學戒	-11.538
二無記	-11.538
應唯	-11.538
總相說	-11.538
是境界緣	-11.5381
諸極微	-11.5383
無覺無觀定	-11.5384
害父	-11.5384
欲想	-11.5386
無漏慧根	-11.5386
非後	-11.5386
身在欲界	-11.5388
世現見	-11.5389
修他心智	-11.539
嚴身	-11.5392
由田	-11.5392
唯名	-11.5392
何有	-11.5393
後更	-11.5397
果體	-11.5398
善見天	-11.5398
修所斷煩惱	-11.5399
未離欲貪	-11.5401
善修習	-11.5402
得斯陀含果	-11.5403
色等五蘊	-11.5406
一境轉	-11.5407
上大	-11.5407
非空	-11.5408
苦具	-11.5409
無相現在前	-11.5412
斷九品	-11.5413
中間靜慮	-11.5416
滯	-11.5417
一種子	-11.5417
善通達	-11.5418
謂若有	-11.5418
名體	-11.542
義辯	-11.542
住於	-11.5423
品類差別	-11.5423
涅槃寂靜	-11.5425
理亦	-11.5428
無有異	-11.5429
諸行無常	-11.5429
法應爾	-11.543
已遮	-11.5431
火災	-11.5432
修治	-11.5435
強勝	-11.5435
是未來	-11.5437
樂斷	-11.5437
作如此	-11.5439
猗樂	-11.544
則成	-11.544
亦受	-11.544
令成	-11.544
見滅所斷有漏緣及遍行隨眠	-11.5441
身無	-11.5442
名沙門	-11.5442
卷第六	-11.5443
何行相	-11.5444
次明	-11.5447
能引生	-11.5449
性相違故	-11.545
各異故	-11.5454
無記性攝	-11.5454
非前	-11.5454
起邪見	-11.5457
非欲界繫	-11.546
及現在	-11.5461
不繫心	-11.5461
感異熟	-11.5462
神變	-11.5464
從前	-11.5465
七心	-11.5466
各各相	-11.5469
立善士趣	-11.547
若實	-11.5475
得離欲	-11.5477
在第四靜慮	-11.5478
阿僧企耶	-11.5478
第三生	-11.5482
作大	-11.5483
為第一	-11.5484
是故一切	-11.5485
將生	-11.5487
字緣	-11.5489
證也	-11.5489
六門	-11.549
天宮	-11.5491
彼繫	-11.5494
為四緣	-11.5497
自共相	-11.5498
時人	-11.5498
內道	-11.5499
恚心	-11.5499
離欲人	-11.5501
彼根緣	-11.5503
應隨	-11.5503
復次有	-11.5504
受想行	-11.5506
非可	-11.5508
雖具	-11.5509
過難	-11.5509
所知境	-11.5511
以來	-11.5511
名識住	-11.5512
一等智	-11.5512
彼外道	-11.5514
何容	-11.5514
栽	-11.5515
名斷智	-11.5516
有情世間	-11.5518
立此名	-11.5522
燃	-11.5522
餘十	-11.5523
行苦行	-11.5524
但應言	-11.5525
生信	-11.5527
隨增性	-11.5527
久時	-11.5529
有益	-11.5532
無苦	-11.5533
勝生	-11.5533
謂善不善	-11.5535
必得	-11.5535
境起	-11.5536
所等起故	-11.5538
流類	-11.5541
由無明	-11.5544
擇滅非擇滅	-11.5549
皆言	-11.5554
於僧	-11.5554
今世	-11.5555
俱有諸法	-11.5555
色界繫有覆無記心	-11.5557
能護	-11.5557
兩種	-11.5558
乳等	-11.556
與定	-11.5563
精進覺意	-11.5563
自種	-11.5563
同彼	-11.5564
遠性	-11.5565
有因有果	-11.5566
復作	-11.5568
初位	-11.5568
下一頌	-11.557
麟角喻	-11.5571
隨眠之所隨增	-11.5571
無熱	-11.5572
牆	-11.5572
正學	-11.5572
證者	-11.5574
設已滅而失	-11.5574
祇	-11.5575
翅	-11.5575
實有物	-11.5575
此根何果攝	-11.5576
彌勒	-11.5576
如金剛	-11.5576
修苦行	-11.5577
在欲色界	-11.5577
天壽	-11.5578
想受滅解脫	-11.5579
給孤獨	-11.5579
占相	-11.558
此章願具	-11.558
有俱不修	-11.558
片	-11.5581
拘礙	-11.5581
叫	-11.5581
無餘依	-11.5581
如何乃言	-11.5581
崇	-11.5581
良藥	-11.5582
謂自界四	-11.5582
化地部	-11.5582
採	-11.5582
筋	-11.5582
此責不然	-11.5583
答是作論者意欲爾故	-11.5583
謂他心智	-11.5584
奔	-11.5584
叉	-11.5584
苦法	-11.5584
船筏	-11.5584
現有身表	-11.5584
稱歎	-11.5585
寒熱	-11.5585
人民	-11.5586
捉	-11.5586
三界二處五蘊攝	-11.5586
騰	-11.5587
不違法相	-11.5587
若法與彼法	-11.5587
謂色蘊	-11.5588
軌則	-11.5588
心隨轉非受相應	-11.5588
計常	-11.5588
前後際	-11.5589
無因緣	-11.559
菩提樹下	-11.559
孔雀	-11.5591
取結未斷	-11.5591
軟中上	-11.5591
意思食	-11.5592
兔	-11.5593
始生	-11.5594
善根斷	-11.5594
正理三十	-11.5594
慧見	-11.5594
斷何界	-11.5594
無罣礙智	-11.5597
自性受	-11.5597
不應名	-11.5598
是盡智	-11.56
復次若有	-11.5602
時量	-11.5603
離色染	-11.5604
有為無漏	-11.5604
於色界中	-11.5605
比丘當知	-11.5605
速疾迴轉	-11.5605
答為止他宗顯正	-11.5605
轉行	-11.561
是淨	-11.5611
最大	-11.5612
未來修七	-11.5612
修習圓滿	-11.5612
是正義	-11.5612
兼顯	-11.5613
勝知見	-11.5614
然實	-11.562
彼不成就	-11.5621
便滅	-11.5622
五受陰	-11.5624
善眼識	-11.5624
餘境	-11.5625
無變礙	-11.5626
則非	-11.5626
不隨順	-11.5627
亦應有	-11.5628
是勝	-11.5629
堅著	-11.5634
之名	-11.5634
云何喜根	-11.5635
非同類因	-11.5636
報心	-11.5636
有十三	-11.5636
本處	-11.564
獨行	-11.564
此業能感	-11.564
頌說	-11.564
非眾妙聲	-11.5641
是則應說	-11.5641
見他	-11.5642
相隣	-11.5643
業盡	-11.5643
彼同分眼	-11.5644
為地	-11.5644
名為色	-11.5644
餘三諦	-11.5645
分量	-11.5647
瓶等	-11.5648
已斷為因	-11.5649
見軛	-11.5649
八智知	-11.565
能見色	-11.5651
細故	-11.5657
則不生	-11.5659
今依	-11.5661
經也	-11.5661
法念住現在修	-11.5662
願具	-11.5662
如緣	-11.5665
光音天	-11.5665
皆說	-11.5666
天女	-11.5667
水火風	-11.5669
愛行	-11.567
緣生法	-11.5672
苾芻眾	-11.5673
及三無為	-11.5673
流出	-11.5674
此即第一明	-11.5674
後報	-11.5674
對法宗	-11.5674
超定	-11.5675
且應	-11.5676
聖智	-11.5677
令不生	-11.5678
兩眼	-11.5678
此等皆	-11.5679
令有相續	-11.568
阿毘曇者	-11.5681
緣見修所斷	-11.5682
五十二	-11.5683
先未得	-11.5684
初生時	-11.5685
而見	-11.5688
學等	-11.5688
通三種	-11.5689
善士趣	-11.5695
上兩句	-11.5696
相翻	-11.5696
謂見所斷	-11.5698
種性根	-11.5698
不燒	-11.5699
由延	-11.5702
欲界繫無覆無記心	-11.5702
復次如	-11.5704
現相	-11.5706
有四相	-11.5712
品別	-11.5714
則知	-11.5714
無情	-11.5717
或有覺有觀	-11.5718
捨壽行	-11.5718
化人	-11.5718
大善地	-11.572
邪解脫	-11.572
施食	-11.5727
不生者	-11.5727
但作	-11.5728
色界遍行	-11.573
是覺支	-11.573
十色界	-11.573
色界繫造色	-11.5737
今日	-11.5738
應無有	-11.5738
設諸根緣	-11.5741
利鈍	-11.5742
未來得	-11.5743
花果	-11.5744
為非理	-11.5746
成過去	-11.575
唯修斷	-11.5751
所由	-11.5751
於地	-11.5752
覺了	-11.5753
為名者	-11.5753
工巧心	-11.5754
此律儀	-11.5758
如是廣說	-11.5758
未離染	-11.5762
病人	-11.5762
有太過失	-11.5763
能攝	-11.5763
已離欲者	-11.5765
於未來世	-11.5766
便知	-11.5769
聖眾	-11.577
慧耶	-11.577
說少分	-11.5771
繫不繫	-11.5771
形狀	-11.5771
暴	-11.5772
如是有情	-11.5773
不知足	-11.5774
等字	-11.5775
能損	-11.5775
大種為因	-11.5776
一異	-11.5779
非等無間	-11.578
捨念	-11.5782
一切煩惱皆	-11.5785
百福	-11.5785
聖行	-11.5786
四諦所斷	-11.5787
解脫知見	-11.5789
遇緣	-11.5789
因大種	-11.579
異界	-11.5792
謂諸外道	-11.5792
共得	-11.5793
教無教	-11.5796
謂彼有情	-11.5797
次第緣者	-11.5797
謂涅槃	-11.5799
二十二根中	-11.5804
亦顯	-11.5806
不可說言	-11.5806
塹	-11.5808
色界四部	-11.5808
五界	-11.5808
七人	-11.5809
無慚無愧相應	-11.581
集諦繫法	-11.581
必定應	-11.5811
臺	-11.5811
甲	-11.5812
滅諦繫法	-11.5812
痛想行識	-11.5813
究	-11.5814
不同分	-11.5814
㸦	-11.5814
生得慧	-11.5814
深心	-11.5814
順樂受等	-11.5815
諸大論師	-11.5815
髓	-11.5816
蔑	-11.5816
作次第	-11.5816
頗胝迦	-11.5817
保	-11.5817
所謂此見	-11.5817
在欲	-11.5818
非異熟生	-11.5818
孫	-11.5818
若前未生設生已斷則不繫	-11.5818
無間道時	-11.5819
軟聲非軟聲	-11.5819
虎	-11.5819
劍	-11.5819
義准已成	-11.582
飲噉	-11.582
吞	-11.582
正斷神足	-11.582
云何外	-11.582
無如是失	-11.5821
妍膚非妍膚	-11.5821
來生此間	-11.5821
智知除苦集智	-11.5821
第二說	-11.5822
不成就眼界	-11.5822
融	-11.5822
乖違	-11.5822
於理為善	-11.5822
不成就色界繫善心	-11.5822
正語正業正命正身進正身除	-11.5823
及染污無覆無記識	-11.5823
半擇迦	-11.5823
具見世尊弟子	-11.5824
於彼等起心不相應行	-11.5824
昏	-11.5825
空解脫門	-11.5825
牆壁	-11.5825
有俱修	-11.5825
順退	-11.5826
愛緣取	-11.5826
大富	-11.5826
以是義故	-11.5826
亦作	-11.5826
翳	-11.5827
臂	-11.5827
乃至時解脫轉根作不動	-11.5828
憤恚	-11.5829
□	-11.5829
寬狹	-11.583
暴流	-11.583
傍生鬼趣	-11.5831
依根	-11.5831
白骨	-11.5831
謂二相應法	-11.5832
顯宗云	-11.5832
願我	-11.5833
順後受業	-11.5834
復次若人無慧無明未斷	-11.5834
若餘心不相應行	-11.5834
冬	-11.5835
緣無斷	-11.5835
俱見	-11.5836
能發起	-11.5837
便明	-11.5837
及果	-11.5837
煩惱得	-11.5837
依下	-11.5838
有住	-11.5838
見滅斷邪見	-11.5839
見道所斷有漏緣	-11.5839
即由此故	-11.5841
四天下	-11.5841
法同分	-11.5842
一切染污心	-11.5843
無斯過	-11.5846
餘經說	-11.5847
幾非心	-11.5847
於見道中	-11.5847
為其自性	-11.5848
等想	-11.5848
說此言	-11.585
為我說	-11.5851
界退還	-11.5852
欲現	-11.5853
無常行	-11.5853
淨四無色	-11.5854
婆娑云	-11.5854
得四相	-11.5854
所斫	-11.5855
天眼天耳	-11.5856
有因法	-11.5856
幾隨眠	-11.5857
而食	-11.5858
勝事	-11.5858
已轉	-11.5858
無色界繫有覆無記心	-11.5858
一趣道	-11.586
慈心定	-11.586
依彼地	-11.586
諸不善業	-11.586
決定當	-11.586
空無邊處近分	-11.5861
舍利子等	-11.5864
云何未來	-11.5864
有漏心心所法	-11.5864
聲顯	-11.5865
彼身中	-11.5865
表示	-11.5866
於先時	-11.5867
言之	-11.5868
去來今	-11.5872
流轉生死	-11.5872
此第一	-11.5873
有餘於此	-11.5875
超過	-11.5876
及過去未來	-11.5877
非欲	-11.5877
法亦爾	-11.5879
堪達法	-11.5879
以其	-11.588
六十四	-11.5881
戒禁取疑	-11.5882
色界有為緣	-11.5883
我以	-11.5885
四字	-11.5886
一所緣	-11.5886
謂眼根	-11.5886
是名共	-11.5886
教授	-11.5889
與慧	-11.589
未來世中	-11.5891
又經說	-11.5891
入非想非非想處	-11.5892
要依	-11.5892
不善思	-11.5893
寧不	-11.5893
留住	-11.5894
唯見所斷	-11.5898
但成就	-11.5898
雖起	-11.5898
詮表	-11.59
及淨	-11.5901
纏縛	-11.5902
隨法	-11.5902
或見所斷	-11.5903
餘支	-11.5906
未作	-11.5908
謂樂	-11.5909
便自	-11.5914
四通	-11.5915
雖得	-11.5917
影像	-11.5918
易地	-11.5921
本不得	-11.5922
以餘	-11.5922
當言成就	-11.5924
上坐	-11.5926
種故	-11.5927
不苦不樂捨	-11.5928
入根本	-11.5928
火大	-11.5929
漏無漏	-11.5931
十八種	-11.5931
現在未來	-11.5933
理證	-11.5935
唯無記性	-11.5936
八戒	-11.5937
能至	-11.5937
應分別記	-11.5939
能相	-11.5941
今者	-11.5942
聖性	-11.5942
謂未離欲界貪	-11.5945
轉根者	-11.5946
體無	-11.5946
不相應無明	-11.5947
為顯示	-11.5951
云何無色界繫	-11.5957
無色無	-11.5958
無勝處	-11.5958
同一行相	-11.596
得漏盡	-11.596
熏成	-11.5964
應捨	-11.5966
生彼處	-11.5966
一切聖者	-11.5967
餘五因	-11.5969
故所以	-11.597
謂契經言	-11.5972
不極	-11.5973
不同也	-11.5973
受中	-11.5974
隨屬	-11.5974
謂眼耳鼻舌身	-11.5974
是名三	-11.5975
百五十	-11.5976
麁惡	-11.5978
皆與	-11.5978
恐彼	-11.598
同喻	-11.5984
同聚	-11.5984
越次取證	-11.5985
雖知	-11.5985
五識界	-11.5985
謂意界意識界	-11.5986
上定	-11.5987
卷第八	-11.5987
是無相	-11.5988
後之	-11.599
成就色界繫善心	-11.5992
釋通	-11.5993
婆沙一百	-11.5993
取餘	-11.5993
有同類因	-11.5996
過去生	-11.5998
子等	-11.5998
頌明	-11.5998
何以言	-11.5999
能害	-11.6002
唯有四	-11.6004
除戒道	-11.6005
隱沒無記心	-11.6005
聖道無間	-11.6008
所集	-11.6009
如後當	-11.6011
梵輔	-11.6012
體實有	-11.6013
種種身	-11.6013
見滅所斷有漏緣	-11.6014
所用	-11.6017
共因	-11.6017
異體	-11.6018
況有	-11.6019
次應	-11.6019
所緣境故	-11.602
等諦	-11.6021
唯由	-11.6022
非先	-11.6027
聖道現前	-11.6029
非色界繫善心	-11.6031
生義	-11.6032
以念	-11.6032
忍可	-11.6033
此下第	-11.6043
善意樂	-11.6044
不成就色界繫無覆無記心	-11.6047
超入	-11.6047
淨第四靜慮	-11.6048
阿毘	-11.6051
染定	-11.6051
善利	-11.6052
六想身	-11.6052
邪性定聚	-11.6052
幾成就	-11.6052
盡理	-11.6053
修道位	-11.6054
於是處	-11.6055
非增上	-11.6055
顏	-11.6056
有學異生	-11.6058
涌	-11.6059
義是入義	-11.6059
疑惑猶豫	-11.606
往詣佛所	-11.6061
隨斷	-11.6061
有愛結前生未斷	-11.6061
花鬘	-11.6061
刧	-11.6062
初三解脫	-11.6064
盡諦所斷	-11.6064
輻	-11.6064
鎮	-11.6064
毒箭	-11.6064
准上論文	-11.6065
揚	-11.6065
學人離結使	-11.6065
道共戒	-11.6065
能生初禪地眼識	-11.6065
針	-11.6066
死後有想	-11.6066
披	-11.6066
意入法入	-11.6066
賴	-11.6066
與喜覺支相應	-11.6067
道比忍	-11.6067
猶預	-11.6067
見道邊等智	-11.6068
變吐	-11.6068
朋黨	-11.6068
從彼歿	-11.6068
雪	-11.6069
十不善業道	-11.6069
舍利	-11.6069
覺隨轉非觀相應	-11.6069
解脫涅槃	-11.607
佛告苾芻	-11.607
不殺	-11.607
雜緣法念住	-11.6071
時心解脫	-11.6071
專注	-11.6071
三摩跋提	-11.6072
汎	-11.6072
於樂受	-11.6072
三部	-11.6073
薩婆多宗	-11.6074
墮諸惡趣	-11.6075
五盛陰	-11.6075
無二無量	-11.6075
若初	-11.6075
聞等	-11.6076
搆	-11.6076
安足處	-11.6077
領解	-11.6077
緣縛	-11.6077
隨信行隨法行	-11.6078
餘文	-11.6079
入無想三昧	-11.6079
有嫉結繫	-11.608
如上所言	-11.608
入正決定	-11.6082
五上分結	-11.6082
逆流	-11.6083
已離初靜慮染	-11.6083
法供養	-11.6083
云何內	-11.6083
無尋伺	-11.6084
依此有彼有	-11.6084
前境	-11.6085
所念	-11.6085
從一切	-11.6085
四大幾緣緣	-11.6088
是故無有	-11.6089
序分	-11.6091
學見迹修所斷	-11.6092
我於此	-11.6092
表色	-11.6094
離法	-11.6095
定相應	-11.6096
上愛未盡	-11.6099
近住戒	-11.6099
但與	-11.6101
觸時	-11.6101
生門	-11.6104
先受	-11.6104
答欲界	-11.6106
後當說	-11.6108
妙欲境	-11.6109
眼識緣	-11.6109
巳去	-11.6109
令知	-11.611
亦復然	-11.6112
都盡	-11.6113
色聲等	-11.6113
最多	-11.6116
於誰	-11.6116
九斷智	-11.6116
正教	-11.6117
四緣生	-11.6118
緣無學	-11.6121
而不捨	-11.6122
殺業	-11.6122
問曰若然者	-11.6123
不應立	-11.6123
善現	-11.6123
乃是	-11.6124
非阿羅漢	-11.6125
經行	-11.6129
生人中	-11.6133
觀之	-11.6133
生處得智	-11.6134
作相似因	-11.6134
是名解脫	-11.6134
來世	-11.6135
最初得	-11.6136
前門	-11.6137
有分限	-11.6138
無理	-11.6139
疑結繫	-11.614
愛欲	-11.614
時解脫道	-11.6144
此最	-11.6144
迷亂	-11.6144
色等五	-11.6145
滅作證無結	-11.6145
於境界	-11.6146
眷屬故	-11.6146
處胎	-11.6146
及相應	-11.6147
繫事	-11.615
四軛	-11.6157
十使	-11.6159
最細	-11.6162
為一因	-11.6164
想顛倒	-11.6164
異熟故	-11.6165
謂已離欲界貪	-11.6165
所繫事	-11.6166
一千	-11.6167
久習	-11.6167
請佛	-11.6169
成就欲界繫無覆無記心	-11.6169
偏多	-11.6169
緣苦法智斷	-11.6169
生滅故	-11.6169
法俱得	-11.6171
能通達	-11.6171
忍非智	-11.6171
世間法	-11.6174
▁論曰	-11.6175
離滅	-11.6175
一時俱	-11.6177
入第二靜慮	-11.6178
若事	-11.6178
無過去現在	-11.618
身中可得	-11.618
幾過去	-11.6182
諸煩惱中	-11.6182
依初禪	-11.6182
第二果	-11.6182
向果	-11.6185
為義	-11.6186
間隔	-11.6188
諸餘未來	-11.6188
即時	-11.6189
餘善	-11.6194
由行	-11.6195
毘婆沙說	-11.6195
方便求	-11.6195
色蘊攝	-11.6195
生陰	-11.6196
無色界法	-11.6198
類智時	-11.6199
狀	-11.6199
還復	-11.6201
無增減	-11.6201
既得	-11.6201
由與	-11.6203
時不定	-11.6208
二根相應	-11.6208
出胎	-11.6209
一補特伽羅	-11.621
若作是言	-11.621
彼先	-11.6211
作如是問	-11.6212
與煩惱	-11.6213
觀不淨	-11.6218
色無色界無	-11.6219
是相應因	-11.6219
自下第二	-11.622
名滅	-11.622
方便善	-11.6221
非一剎那	-11.6222
不猛利	-11.6224
知一切法	-11.6225
順後次受	-11.6225
中熟	-11.6226
十六種	-11.6227
離愛	-11.6228
欣求	-11.6229
所往	-11.623
名俱解脫	-11.623
故說此言	-11.6231
有漏五蘊	-11.6233
文中初	-11.6235
修集	-11.6236
害界	-11.6236
緣苦類智斷	-11.6236
成四	-11.6239
苦道	-11.6241
名大地法	-11.6241
若爾何故至	-11.6244
不隨心轉	-11.6244
類同故	-11.6245
理必	-11.6248
是修道	-11.6249
從此無間	-11.6249
斷三結	-11.625
苦憂根	-11.6255
永斷智	-11.6255
緣見苦所斷	-11.6255
復次若法是	-11.6258
有色法	-11.6258
謂色無色界	-11.6259
除喜	-11.6262
微微	-11.6262
法外	-11.6265
若生欲界住律儀	-11.6265
士用增上	-11.6265
見道位中	-11.6268
此即是	-11.6273
有如是相	-11.6274
不安隱	-11.6276
最後身	-11.6276
瞋恚使	-11.6276
非時食	-11.6277
佛轉法輪	-11.6277
以一切法	-11.6277
無想定滅盡定	-11.6278
取陰	-11.628
不更生	-11.628
要先	-11.628
所緣行相	-11.6281
成佛時	-11.6284
能入見道	-11.6289
名未來	-11.629
色界凡夫	-11.629
分故	-11.6291
不食	-11.6291
體實	-11.6292
有十五	-11.6292
於彼無	-11.6293
七眾	-11.6294
唯染	-11.6294
不見色	-11.6294
怒	-11.6297
色聲觸	-11.6297
若如病若如癰若如箭若	-11.6297
於正法	-11.6299
滅比智	-11.6299
無量眾生	-11.63
雖別	-11.63
為所依故	-11.6301
句中	-11.6302
短促	-11.6302
覆此想此忍此見此	-11.6302
互相違故	-11.6303
八萬四千	-11.6305
身口有教	-11.6305
上下縱廣	-11.6307
親近善士	-11.6307
有緣生	-11.6307
憍陳如	-11.6307
倦	-11.6307
欝	-11.6309
見諦所滅	-11.6309
乃至道智	-11.631
喉	-11.631
求得	-11.6311
槃	-11.6311
一邊	-11.6311
破法輪僧	-11.6311
謂法智已滅不失	-11.6312
原	-11.6312
若前未生	-11.6313
續起	-11.6314
設生已斷	-11.6314
藥叉	-11.6314
見集滅道及修所斷	-11.6315
具五	-11.6315
嚴淨非嚴淨	-11.6315
近分定	-11.6316
錯亂	-11.6316
扇	-11.6316
二律儀	-11.6316
錯	-11.6317
雪山	-11.6317
流布	-11.6317
惛沈掉舉	-11.6318
唯感	-11.6319
徒眾	-11.6319
入定時	-11.6319
不可思議	-11.6319
馳流	-11.632
如實人若想憶想	-11.632
問若爾云何	-11.632
剌	-11.632
一智知謂	-11.632
井	-11.6321
理必應爾	-11.6321
身中有過去愛結繫	-11.6322
審觀察	-11.6322
苦智集智	-11.6322
於無色	-11.6322
界故	-11.6323
謂隨算數漸次順次相續次第	-11.6324
有行般涅槃	-11.6324
於色無色界法	-11.6325
五逆	-11.6325
豈有	-11.6325
類同	-11.6326
提婆	-11.6326
常我	-11.6326
惡口	-11.6326
答欲令疑者得決定故	-11.6326
是無為法	-11.6327
若成就現在	-11.6328
初念無表	-11.6328
亦得此無表	-11.6329
此即第二明	-11.633
幾使所使	-11.6331
法前非得	-11.6332
十大地	-11.6333
未來修八智	-11.6333
除遣修	-11.6335
邪見攝	-11.6335
法智現在前	-11.6335
證圓寂	-11.6335
觀內	-11.6336
攝也	-11.6338
不共事	-11.6339
卷云	-11.6341
執受大種為因	-11.6341
何等為五	-11.6345
欲界四部	-11.6347
性類差別	-11.6347
二邊	-11.6349
無漏初禪	-11.6351
慢使	-11.6352
二禪地	-11.6352
如是比	-11.6354
未來修四	-11.6355
解說	-11.6357
豈不相違	-11.6359
受法	-11.6361
為因者	-11.6362
業所生	-11.6364
滅智道智	-11.6365
慧蘊	-11.6366
應不名	-11.637
施果	-11.6376
彼後	-11.6377
有處有	-11.6377
信佛	-11.6377
其量云何	-11.6381
邪覺	-11.6383
樂修	-11.6384
寂靜故	-11.6384
而不名	-11.6385
側	-11.6387
集比智	-11.6387
如行	-11.6387
者舊云	-11.639
如是語	-11.6395
水災	-11.6398
苦習	-11.6398
入第四禪	-11.6399
能解脫	-11.6401
境識	-11.6401
恩德	-11.6403
故名聖	-11.6405
佛眼	-11.6405
內六處	-11.6406
觸證	-11.6408
世俗智現在前	-11.641
六通中	-11.6411
起現前	-11.6412
定能	-11.6412
石等	-11.6413
斷有頂	-11.6413
滅法智忍	-11.6413
此國	-11.6415
必無退	-11.6415
)、	-11.6417
見蘊	-11.6419
使中	-11.642
山林	-11.642
一總	-11.642
於經中說	-11.642
各有三種	-11.6421
證智	-11.6421
故須	-11.6421
及起	-11.6424
謂俱有	-11.6425
麁故	-11.6426
不離根	-11.6427
四種行相	-11.643
識支	-11.643
立為支	-11.643
明因	-11.6431
無學正思惟	-11.6431
地染	-11.6431
滅則	-11.6432
是故此中	-11.6432
亦有四種	-11.6433
隔故	-11.6434
恚觸	-11.6438
非心法	-11.6439
世路	-11.644
不愛果	-11.644
合集	-11.6443
自在起	-11.6443
更無異	-11.6444
類性	-11.6446
有增	-11.6447
更得	-11.645
婆沙四十	-11.645
愚人	-11.6452
著欲	-11.6453
謂喜	-11.6453
非可意	-11.6456
亦應無	-11.6457
有恩	-11.6458
辨差別	-11.6458
能有所作	-11.646
亦滅	-11.6462
各各別	-11.6467
是道支	-11.6467
不善性	-11.647
所習	-11.6471
問世尊	-11.6478
正破	-11.6478
無是事	-11.6482
別物	-11.6485
陰者	-11.6486
遍因	-11.6486
化生有情	-11.6487
道支現在前	-11.6487
心住	-11.6488
所棄	-11.6488
界善見智慧	-11.6488
下句	-11.6489
意同	-11.6491
歷六	-11.6491
非纏	-11.6491
則顯	-11.6492
將死	-11.6492
轉根時	-11.6494
豈成	-11.6495
聞思修	-11.6497
慧故	-11.6497
欲界修道所斷	-11.6498
長行釋	-11.6499
依未至地	-11.65
空處近分	-11.6502
問世尊何故	-11.6503
隨所欲	-11.6504
能永	-11.6506
左右	-11.6506
加行無間解脫道時	-11.6507
答初問	-11.6507
在家者	-11.6508
四釋	-11.6508
同一剎那	-11.6509
喜樂一心	-11.6509
於外	-11.6509
所轉	-11.651
慧為性	-11.6511
此義應	-11.6515
是凡夫	-11.6516
而今	-11.6516
非聖語	-11.6517
離惡	-11.6517
煩惱力	-11.6519
不能觀	-11.6519
宿住通	-11.652
所餘諸	-11.6523
無常相	-11.6524
扇搋	-11.6526
等智耶	-11.6527
中勝	-11.6529
墮惡道	-11.653
共緣	-11.6534
侵惱	-11.6534
緣合	-11.6534
未曾得道	-11.6537
位故	-11.654
二二分或	-11.6542
長養眼	-11.6544
離初禪欲	-11.6544
未來色	-11.6546
劫中	-11.6547
墮於	-11.6548
無記為因	-11.6549
別離	-11.6553
快	-11.6555
住本性	-11.6555
龍象	-11.6555
是增上果	-11.6556
北俱盧	-11.6557
從緣生	-11.6557
辯才	-11.6557
染慧	-11.6557
二念	-11.6558
王言	-11.656
封	-11.656
名有貪心	-11.656
有所緣法	-11.6563
歡喜踊躍	-11.6563
通果心品諸得俱起	-11.6563
信根相應	-11.6564
不悅	-11.6565
弊	-11.6565
不共因	-11.6566
總有十	-11.6567
務	-11.6567
那庾多	-11.6568
所可用	-11.6569
苦遲通行	-11.6569
教誨	-11.6569
翼	-11.657
悋	-11.657
不適意	-11.657
加行中	-11.657
聽法	-11.6571
蘇尸摩	-11.6572
身好聲非	-11.6572
輒	-11.6572
殷重	-11.6572
處盡	-11.6572
九無間道九解脫道	-11.6572
每	-11.6573
洛叉	-11.6575
施設足論	-11.6575
除法滅道智	-11.6576
率爾	-11.6576
有爾所隨眠隨增	-11.6576
往生	-11.6577
根境識	-11.6577
離非想非非想處欲	-11.6577
名異義同	-11.6578
得無學果	-11.658
作此論已	-11.6582
止住	-11.6582
正語業命	-11.6582
但取	-11.6583
五取陰	-11.6584
世俗等見	-11.6584
緣自地	-11.6585
戒律	-11.6585
正理救云	-11.6586
謂先未曾得	-11.6587
欲貪瞋恚	-11.6588
依如是義	-11.6588
和集	-11.6589
無貪為性	-11.659
能照	-11.6591
意云	-11.6592
作留難	-11.6592
得無間罪	-11.6593
上分	-11.6593
現在者	-11.6594
欲瀑流	-11.6596
意樂喜捨	-11.6598
而於其中	-11.6599
俱生聚中	-11.6601
居家	-11.6604
無漏三無色	-11.6606
聖道起	-11.6607
現在未來一	-11.6607
教證	-11.6608
所化者	-11.6608
有十二種	-11.661
名異熟生	-11.6611
四大洲	-11.6611
勝慧	-11.6612
黃等	-11.6613
所不能	-11.6616
此中言	-11.6617
謂自界三	-11.6617
亦云	-11.6617
能滿	-11.6617
是法智	-11.6619
問幾是	-11.6621
除法智	-11.6622
俱在	-11.6625
是以不說	-11.6626
名意根	-11.6626
應知即是	-11.6627
愛取有	-11.6627
饒益他	-11.6628
若依未至定	-11.6628
應辨	-11.663
能表示	-11.6633
倍增	-11.6635
能超	-11.6637
有四行相	-11.6638
以界	-11.6639
出界	-11.664
彼命終生	-11.664
道戒	-11.6643
風起	-11.6645
唯加行得	-11.6646
意處法處	-11.6647
幾無色界繫	-11.6648
約體	-11.6648
眼耳鼻舌身	-11.6648
俱舍師救云	-11.6649
依第三靜慮	-11.665
起惡心	-11.6651
及諸異生	-11.6653
例此應	-11.6653
准此文	-11.6653
所相法	-11.6656
信法	-11.6656
學耶	-11.6657
然有差別	-11.6657
受想思	-11.6657
以自體	-11.6658
非界非入	-11.6659
十支	-11.6659
中有位	-11.666
是應理論者	-11.6661
通名	-11.6661
梵宮	-11.6661
有三世得	-11.6663
二解脫道	-11.6663
說是語	-11.6664
依男身	-11.6667
明闇	-11.6668
為例	-11.6668
等起故	-11.6668
即令	-11.6669
心隨轉法	-11.667
劫壞	-11.667
依初定	-11.6672
了者	-11.6672
續善根	-11.6672
謂生欲色界	-11.6673
相應受想行識	-11.6673
阿羅漢等	-11.6674
而不可說	-11.6676
非離染得	-11.6677
後分	-11.6678
不應責	-11.668
起煩惱現在前	-11.6681
由此勢力	-11.6681
偏立	-11.6682
識滅	-11.6682
內門轉	-11.6683
在心	-11.6683
為異熟因	-11.6684
如瓶	-11.6685
無明行	-11.6685
)。「	-11.6685
行時	-11.6686
幾色界繫	-11.6686
通三界繫	-11.6687
名色為緣	-11.6688
已謝	-11.6689
所餘諸法	-11.6691
有問言	-11.6691
所等起	-11.6692
滅處	-11.6692
胎藏	-11.6693
為不淨	-11.6693
非擇滅故	-11.6693
在見道	-11.6694
有覆心	-11.6694
法智苦智	-11.6695
者三因	-11.6696
幾根滅	-11.6696
得果已	-11.6697
雜蘊	-11.6697
明無	-11.6702
一解脫道	-11.6705
是最勝	-11.6706
見不相應法	-11.6707
能永斷	-11.6707
習諦所斷	-11.6708
總顯	-11.6711
已分別	-11.6713
修聖道	-11.6714
門人	-11.6717
緣三界	-11.6718
如聲	-11.672
靜慮無漏	-11.6722
具緣	-11.6725
謗因邪見	-11.6725
此十二處	-11.6729
苦蘊	-11.6729
卷第六十	-11.673
信敬	-11.6732
告他	-11.6733
如身見	-11.6734
得體	-11.6734
不共法	-11.6736
引例	-11.6737
諦所攝	-11.6737
故不可說	-11.6738
已破	-11.6738
一業引	-11.6739
漸命終	-11.6741
亦異	-11.6743
中有生有	-11.6743
能攝益	-11.6746
內門轉故	-11.6747
非欲界繫善心	-11.6748
一切法無我	-11.675
所著	-11.6751
品惑	-11.6752
多起	-11.6756
故又解	-11.6756
勤策律儀	-11.6756
故不名為	-11.6757
大種為幾緣	-11.6758
諸句	-11.6759
有情名聲	-11.6759
屠羊	-11.6763
慢隨眠	-11.6764
不堪	-11.6764
二十七	-11.6767
得是時	-11.6767
不定心	-11.6768
便謂	-11.6773
不殺生	-11.6775
二少分	-11.6775
復有餘師說	-11.6776
顯形色	-11.6779
若聖者	-11.678
所證擇滅	-11.6781
不著	-11.6782
及眷屬	-11.6785
對治者	-11.6786
五學處	-11.6786
身根極微	-11.6787
云何見所斷	-11.6789
是能作因	-11.6792
持對治	-11.6792
准婆沙	-11.6795
所造觸	-11.6797
何人	-11.6797
入佛法	-11.6798
集法智忍	-11.68
念言	-11.6803
暖等	-11.6803
後世感苦異熟	-11.6804
樹等	-11.6805
順次	-11.6805
形顯	-11.6806
立誓	-11.6806
為益	-11.6806
俱生法	-11.6807
初發	-11.6809
為煩惱所	-11.681
見滅道	-11.6811
不成就性	-11.6814
業果故	-11.6815
所作業	-11.6815
或執第一	-11.6817
其體未斷	-11.6817
眾生數非眾生數	-11.6817
果退	-11.6818
製	-11.6821
谷	-11.6821
是無生智	-11.6822
目揵連	-11.6822
幾界	-11.6823
謗道邪見	-11.6824
幢	-11.6825
由此故言	-11.6825
詐	-11.6825
之道	-11.6826
契經中言	-11.6826
離第二靜慮染	-11.6826
所更事	-11.6826
化生者	-11.6826
心及心法	-11.6827
孤	-11.6827
設劬勞	-11.6827
故先說	-11.6828
七智知除比智	-11.6829
僮僕	-11.6829
𨵗	-11.683
無相違失	-11.683
及過去非現在	-11.683
若未已滅設已滅而失則不成就	-11.6831
容得	-11.6831
童	-11.6831
設生已斷則不繫	-11.6831
非業非業異熟	-11.6832
勵	-11.6833
繞	-11.6833
學無學練根已	-11.6833
心所念	-11.6833
於苦思惟苦	-11.6834
於集思惟集	-11.6834
於滅思惟滅	-11.6834
未得已失	-11.6834
非有想非無想	-11.6834
苾芻苾芻尼等	-11.6835
諸契經中	-11.6835
有三世	-11.6835
淺	-11.6836
喜憂捨	-11.6836
澡浴	-11.6836
若於此事有過去愛結繫	-11.6837
斥	-11.6838
速進道	-11.6838
剡浮洲	-11.6838
緣名緣義者	-11.6838
如事知見	-11.6838
非道計道	-11.6839
鑽	-11.6839
無相定	-11.6839
所在	-11.6839
瑞相	-11.6839
傍布	-11.684
雖已	-11.684
所以得知	-11.6841
不分明	-11.6841
此下大文第	-11.6841
無色界三	-11.6841
斷他命	-11.6841
眼觸所生愛	-11.6842
舉罪	-11.6842
識見家	-11.6842
六隨眠	-11.6843
無明分觸	-11.6844
雖爾	-11.6844
勝身	-11.6844
觸思識	-11.6845
詩	-11.6845
貢高	-11.6845
牟呼栗多	-11.6845
彼阿羅漢	-11.6846
所說偈	-11.6846
有四事	-11.6846
無間獄	-11.6847
欲流	-11.6847
隨喜	-11.6848
相應等持	-11.6849
往昔	-11.6849
苦諦斷	-11.685
持雙	-11.6851
發言	-11.6851
無善法	-11.6852
謂苦聖諦	-11.6852
六恒住	-11.6852
種類同故	-11.6853
萬六千	-11.6853
天下	-11.6853
法忍	-11.6855
有成就大種	-11.6855
非據	-11.6855
皆緣	-11.6856
壞僧	-11.6856
同分彼同分	-11.6858
立不善根	-11.6859
現觀邊忍所	-11.686
名對法藏	-11.686
此法是何	-11.686
二無漏	-11.6861
遍行非遍行	-11.6866
堅牢故	-11.6867
智證通	-11.6868
或過去	-11.6869
名隨法行	-11.6869
意勢	-11.6869
前六品	-11.687
解脫分	-11.6871
名知根	-11.6871
九無間道八解脫道	-11.6872
非凡夫	-11.6872
惡事	-11.6873
斷三	-11.6874
若身	-11.6874
離欲邪行	-11.6877
由此義故	-11.6877
彼非得	-11.6877
現等覺	-11.688
器世界	-11.6883
不成就欲界繫善心	-11.6884
受色界有	-11.6885
非極	-11.6885
不淨相	-11.6885
法智品道	-11.6886
不染心	-11.6888
總取	-11.6889
東西	-11.6889
此下第一	-11.689
略舉	-11.6892
文中有三	-11.6892
心栽	-11.6893
無記無色	-11.6896
或無覺無觀	-11.6896
非無色界繫無覆無記心	-11.6896
經於	-11.6897
相續而轉	-11.6899
不成就不善心	-11.69
五順下分結中	-11.69
釋第五	-11.6903
傳生	-11.6903
彼一切盡	-11.6904
妙智	-11.6904
法生住老無常	-11.6906
何者是耶	-11.6906
餘有漏法	-11.6908
聖無漏	-11.691
了法	-11.6912
能出離	-11.6912
彼聞	-11.6913
此偈	-11.6914
各七	-11.6914
四取中	-11.6915
幾有漏	-11.6917
違正理	-11.6918
次下	-11.6919
之理	-11.692
覺故	-11.6922
於生死中	-11.6924
更無有	-11.6928
覺支道支	-11.6928
情數	-11.6928
何獨	-11.6929
辭辯	-11.693
總攝一切	-11.6932
隨世	-11.6932
不恚	-11.6933
總說為	-11.6934
是名色入	-11.6936
此四善根	-11.6938
論中說	-11.6938
別建立	-11.6939
應求	-11.6941
離色愛	-11.6941
不成業道	-11.6941
還來	-11.6941
令現前	-11.6942
唯意地故	-11.6942
無餘涅槃界	-11.6942
設成就未來	-11.6945
難滿	-11.6946
於彼起	-11.6946
修十六行相	-11.6948
要具	-11.695
增上所生	-11.695
方般涅槃	-11.6954
有染污	-11.6954
七隨眠中	-11.6955
非蘊	-11.6956
無染污	-11.6956
不為他	-11.6956
了義經	-11.696
若本不得	-11.6961
順信	-11.6962
非無色界繫有覆無記心	-11.6962
離第四靜慮	-11.6963
修智	-11.6967
第二釋也	-11.6968
有上中下	-11.6969
識隨	-11.697
多物	-11.6971
次第人	-11.6975
謂無色界生長	-11.6976
緣上界	-11.6976
餘所有	-11.698
是名第五	-11.6981
前經	-11.6984
餘結	-11.6985
若實人若趣	-11.6986
云何可爾	-11.6987
轉隨轉	-11.6987
彼所宗	-11.6987
無學身中	-11.699
門竟	-11.699
復何所	-11.699
諸仙	-11.6991
有因果	-11.6991
如婆沙	-11.6992
業引	-11.6993
巳得	-11.6994
一切法中	-11.6998
在六地	-11.6999
極大	-11.7
不能作	-11.7001
對法中	-11.7002
斷見惑	-11.7003
名身證	-11.7003
俱說	-11.7006
具二義	-11.7007
俱緣	-11.7008
諸慢	-11.701
徵問	-11.701
由惑	-11.701
差別說	-11.7011
貪等煩惱	-11.7011
先無	-11.7011
為量	-11.7012
現前時	-11.7013
從五	-11.7016
重罪	-11.7017
幾見所斷	-11.7018
與後生	-11.7018
契經雖作是說	-11.702
肉眼	-11.7021
復有三種	-11.7023
三少分	-11.7023
入此定	-11.7028
若具	-11.7029
依根本地	-11.7029
六識相應	-11.7034
是善性	-11.7034
而不成就	-11.7036
八等至	-11.7038
是初禪	-11.7038
云何色入	-11.7038
厭心	-11.7039
是涅槃	-11.704
何世	-11.7042
見滅見道	-11.7044
不簡	-11.7044
即是前	-11.7046
等聲	-11.7046
法想	-11.7048
在五識	-11.7048
自下地	-11.7049
色取蘊	-11.7049
來去	-11.705
微聚	-11.7051
彼得亦	-11.7052
而猶	-11.7056
前無想定	-11.7059
劫初時	-11.7061
得入	-11.7061
如苦	-11.7061
於色等	-11.7061
由愛	-11.7063
知智	-11.7063
業隨轉	-11.7065
入過去	-11.7067
非學非無學心俱	-11.707
名無想定	-11.7074
是受	-11.7074
釋上	-11.7075
不成就色界繫有覆無記心	-11.7076
遙	-11.7076
無聖道	-11.7078
所獲	-11.7079
下三句	-11.7081
剎	-11.7082
或約	-11.7082
耽嗜	-11.7083
或執為尊	-11.7085
喜樂捨	-11.7085
法竟	-11.7086
說名成就	-11.7087
以彼劣故	-11.7091
胎卵	-11.7093
正性定聚	-11.7093
眾名	-11.7093
枝葉	-11.7094
能得得	-11.7094
醫藥	-11.7094
若本不得世俗智現在前	-11.7094
集下	-11.7094
若汝不說	-11.7096
有部宗	-11.7096
彼不得無教	-11.7096
等意解脫	-11.7096
相異熟業	-11.7096
摶	-11.7098
法寶	-11.7098
瑜伽	-11.7098
誘	-11.7098
非佛	-11.7099
疾疫	-11.71
為同	-11.71
偷盜	-11.71
集聲音句言語口教	-11.7101
雖通	-11.7101
斛	-11.7101
材	-11.7102
緣不善	-11.7102
非學非無學無色	-11.7102
怨親	-11.7103
脩習多脩習	-11.7104
無漏緣使	-11.7104
離俱繫	-11.7105
紅	-11.7106
此不決定	-11.7106
初說為善	-11.7106
盡法智	-11.7106
能有所	-11.7106
梵淨行	-11.7106
祖	-11.7107
似自因	-11.7107
骨節	-11.7109
行相者	-11.7109
謂無色	-11.7109
下半頌	-11.7109
憎背	-11.7109
正現前位	-11.711
苗	-11.711
此三昧	-11.7111
鄔波	-11.7111
離空無邊處染	-11.7111
汝等苾芻	-11.7111
三界遍行及修所斷隨眠隨增	-11.7111
隨眠異熟眼識	-11.7111
故偏說	-11.7111
輕安覺支	-11.7112
還入	-11.7112
見斷法報	-11.7115
出現世間	-11.7115
況能	-11.7115
彼契經	-11.7115
決度	-11.7115
必應有	-11.7115
若過去若未來若現在	-11.7116
細滑入	-11.7117
有別意趣	-11.7117
無邊識處	-11.7117
總有四	-11.7117
食時	-11.7118
赴	-11.7118
已了別非今了別非當了別	-11.712
已得無色界善心	-11.7121
方域	-11.7122
極熱	-11.7122
乃至離無所有處欲	-11.7123
緣是業緣	-11.7123
先未	-11.7124
能防	-11.7124
厭逆	-11.7125
唯言	-11.7125
六內處	-11.7126
喜足少欲	-11.7126
或有生疑	-11.7126
應成無用	-11.7127
能說	-11.7127
列名	-11.7129
即通	-11.7129
身受心法	-11.713
剎那相續	-11.713
屬主	-11.7132
以二事故	-11.7133
諸餘心心所法	-11.7133
來者	-11.7134
答應說	-11.7135
答亦應說	-11.7135
諸無色界繫善心	-11.7135
由如是理	-11.7138
捨心	-11.714
十六字	-11.714
除盡智	-11.7141
或言	-11.7142
善染無記	-11.7144
好香	-11.7145
舉頌答	-11.7145
常樂	-11.7145
想受滅	-11.7146
香處	-11.7149
上地無	-11.7149
無雜	-11.7149
從多	-11.715
大德說	-11.7151
於此經中	-11.7152
緣是起緣	-11.7153
修空	-11.7154
唯目	-11.7154
彼不得	-11.7154
憶法	-11.7156
何心	-11.7157
法應如是	-11.7157
具見	-11.7159
或無覺有觀	-11.716
如是二種	-11.7161
經部難	-11.7162
為一切	-11.7164
造無間業	-11.7165
樂具	-11.7165
緣已生	-11.7167
有作用故	-11.7169
答若得	-11.7171
世俗心	-11.7171
體無異	-11.7172
及法入	-11.7173
數也	-11.7174
別立為	-11.7174
生未滅	-11.7176
欲界一切隨眠隨增	-11.7176
遍一切處	-11.7176
起滅法智	-11.7176
生等五因	-11.7178
人天中	-11.718
義不定故	-11.718
所得自體	-11.718
九云	-11.718
衰退	-11.7182
說偈	-11.7183
前雖	-11.7184
作諸	-11.7186
有漏色	-11.7188
餘隨所應	-11.7188
聖道力	-11.7189
此樂	-11.7191
已起滅	-11.7192
▁何	-11.7192
想微細	-11.7192
所詮義	-11.7193
是故應知	-11.7195
現在得	-11.7196
寧說	-11.7199
極細	-11.7201
不說餘	-11.7202
無常性	-11.7203
或有尋有伺	-11.7204
影顯	-11.7207
破法輪	-11.7207
未聞法	-11.7208
何故此中	-11.7209
無間而生	-11.7209
上地煩惱	-11.7211
此九	-11.7211
故名無記	-11.7211
又世尊說	-11.7212
論主答也	-11.7213
四瀑流	-11.7214
他宗	-11.7219
大天	-11.7219
嗅香	-11.7219
前品	-11.7224
而體非	-11.7226
解脫道攝	-11.7227
一切生死	-11.7227
如欲界繫	-11.7227
唯現在	-11.7229
都不	-11.7229
所化生	-11.723
五無間道	-11.7231
若聲界	-11.7232
昔時	-11.7232
所斷惑	-11.7233
此贍部洲	-11.7235
三界善根	-11.7236
非遍行因	-11.7239
各有二種	-11.724
有四行	-11.7241
非滅	-11.7241
同許	-11.7242
不以此	-11.7244
勝業	-11.7245
雜心論	-11.7245
先世	-11.7246
聚同分	-11.7246
為依止	-11.7249
所說法	-11.725
有愛使	-11.7252
名外	-11.7259
發表	-11.7259
決定者	-11.726
可見法	-11.7261
餘生中	-11.7262
色香味	-11.7263
以諸聖者	-11.7265
與心俱	-11.7267
語聲	-11.7268
諸入	-11.7269
計也	-11.7271
得三摩地	-11.7272
不癡	-11.7272
食已	-11.7275
經亦說	-11.7282
合時	-11.7283
諸作是說	-11.7284
無想事	-11.7285
戒證淨	-11.7285
令無	-11.7285
謂彼先	-11.7285
由別	-11.7285
練根時	-11.7285
相好	-11.7287
見修道	-11.7287
越度	-11.729
謂擇滅	-11.7291
多說	-11.7293
等流者	-11.7293
西方師	-11.7295
成二十	-11.7297
由身	-11.7298
根本四禪	-11.73
等起善	-11.73
及識	-11.73
貪所起	-11.7301
實相	-11.7301
得菩提	-11.7301
本論文	-11.7301
或無或一二三四	-11.7303
下地煩惱	-11.7303
耳鼻舌	-11.7306
使我	-11.7306
色界修所斷善	-11.7306
異熟色	-11.7307
說法者	-11.731
如苦諦	-11.7312
得未曾得	-11.7315
根少分相應	-11.7317
順次生受	-11.7317
從彼生	-11.7318
若聖人	-11.7319
令他知	-11.7321
衣服等	-11.7321
餘無漏慧	-11.7321
諸經	-11.7321
真實作意	-11.7322
而入	-11.7326
結眠沒	-11.7331
唯是有漏	-11.7335
不滿	-11.7337
養因	-11.7338
手執	-11.7339
不還果攝	-11.7339
謂初二	-11.7339
有頂天	-11.7339
風災	-11.7339
無覆心	-11.734
所學	-11.7342
勝義善	-11.7344
動轉	-11.7344
於此法	-11.7345
起四無量	-11.7346
評家云	-11.7346
非端嚴	-11.7348
若無色界	-11.7349
三十二相	-11.7349
問何故此中	-11.735
如是至	-11.7351
故言少分	-11.7352
斷障	-11.7353
無無量	-11.7353
又許	-11.7356
色界通一切及思惟所斷	-11.7358
無漏功德	-11.7358
三界見道所斷	-11.7358
能表	-11.736
覺時	-11.7362
不成就無色界繫無覆無記心	-11.7363
練	-11.7364
珞	-11.7366
命清淨	-11.7366
驢	-11.7366
冠	-11.7367
唾	-11.7368
善識	-11.7369
食體	-11.7369
幾非陰界入攝	-11.737
無量住	-11.7372
二萬劫	-11.7373
無明流	-11.7373
苦速通行	-11.7373
渧	-11.7373
以成	-11.7374
隨心轉非受相應	-11.7374
因不善	-11.7374
怪	-11.7375
萎	-11.7375
不苦不樂痛	-11.7377
若眾生	-11.7377
犯一	-11.7378
擯	-11.7379
謂聖種所攝	-11.7379
若智地若觀解脫心	-11.738
善一蘊染四蘊無記二蘊	-11.738
倉	-11.7381
惛眠	-11.7382
能住	-11.7382
幼	-11.7383
衛	-11.7383
非想非非想處解脫	-11.7383
無間解脫道	-11.7383
玄	-11.7383
精舍	-11.7384
未離第三靜慮染	-11.7384
是見所斷	-11.7384
倚	-11.7384
嬰兒	-11.7384
我身	-11.7385
猛焰	-11.7385
阿毘達磨俱舍論	-11.7385
斷何繫結	-11.7386
貝	-11.7386
幾隨眠所緣故隨增亦相應故	-11.7386
歇	-11.7386
應反詰記	-11.7386
為男	-11.7386
八聖道支	-11.7386
思已業	-11.7387
裂	-11.7387
彼梵志	-11.7387
此喻	-11.7387
當言善耶	-11.7387
隨依何地	-11.7389
應捨置	-11.7389
緣色界繫無色界繫	-11.7389
廣如彼說	-11.7389
不成就欲界繫無覆無記心	-11.739
借	-11.739
妻妾	-11.739
思惟斷法報	-11.7391
能以	-11.7392
舞	-11.7392
辦事	-11.7392
不得別解脫律儀	-11.7392
惛沈睡眠	-11.7392
之事	-11.7393
滅有對想	-11.7393
相續解脫	-11.7394
麤細	-11.7395
果攝義	-11.7395
已了別非今了別當了別	-11.7395
非無相	-11.7395
捨而不得	-11.7396
隨其次第	-11.7396
所不得法	-11.7397
後兩句	-11.7397
語二業	-11.7397
令生相續	-11.7397
防守	-11.7397
白言	-11.7398
境界力	-11.7398
即此勝行及前所說	-11.7398
滅盡涅槃	-11.74
黑黑	-11.74
乃至非想非非想處染	-11.74
意觸所生受	-11.7401
答色界繫	-11.7402
如理師	-11.7402
悟入	-11.7402
已起已	-11.7402
為等無間所緣增上	-11.7402
達羅	-11.7403
行相差別	-11.7404
名阿毘曇	-11.7404
四禪地	-11.7405
時解脫者	-11.7407
摩羅	-11.7407
生死法	-11.7408
善律儀	-11.741
緣是異緣	-11.741
修果	-11.741
法智分	-11.7411
誦持	-11.7412
海中	-11.7412
輪寶	-11.7413
得初果	-11.7414
滅沒	-11.7416
答如有一類	-11.7417
下別釋	-11.7418
汝若	-11.7418
此經意說	-11.742
謂有漏法	-11.742
類智現在前	-11.7422
是細	-11.7422
從他聞	-11.7425
非色界繫有覆無記心	-11.7425
運身	-11.7426
所斷遍知	-11.7426
必不起	-11.7428
具知	-11.7428
不善行	-11.743
念親近多修學	-11.7431
而不得	-11.7434
所計	-11.7434
之相	-11.7435
見流	-11.7437
舉喻	-11.7437
下一行頌	-11.7439
不違理	-11.7442
無遺	-11.7442
無無色	-11.7443
樂喜捨	-11.7445
答第二問	-11.7445
復次此中	-11.7445
乃至最後	-11.7446
瞋纏	-11.7448
未知智現在前	-11.7449
彼一切加行無間解脫道	-11.745
八解脫道中	-11.745
曰有	-11.7453
大河	-11.7455
亦觀	-11.7455
施等	-11.7456
最妙	-11.7458
此邪見	-11.7458
緣是增上緣	-11.7458
法俱	-11.7459
上首	-11.7459
無障住	-11.7459
若依無色定	-11.7459
不據	-11.746
具縛者	-11.746
云何聲界	-11.7461
問意	-11.7463
餘類	-11.7464
自身他身	-11.7464
一切聖法	-11.7465
眾事	-11.7465
名非擇滅	-11.7466
世間正見	-11.7469
皆等	-11.747
滅類智斷	-11.747
亦可知	-11.7471
一自性	-11.7472
天等	-11.7472
所緣緣者	-11.7473
有欲心	-11.7475
染無記	-11.7476
殺加行	-11.7478
妙高	-11.7478
行殺	-11.748
煖頂	-11.7482
除善非	-11.7483
當來世	-11.7486
離雜穢語	-11.7487
自釋	-11.7495
共相應故	-11.7495
於慧	-11.7499
而出	-11.7503
異義	-11.7504
終時	-11.7504
稱說	-11.7505
集遍知	-11.7506
到已	-11.7506
有二類	-11.7506
壁等	-11.7507
如法智	-11.7507
麁色	-11.7508
為成	-11.751
雖彼	-11.7513
心等相續	-11.7516
一切聖道	-11.7516
何故唯	-11.7516
見諦道	-11.752
有學位	-11.752
非明	-11.7521
生有頂	-11.7521
不成就眼識界	-11.7521
不得解脫	-11.7522
那伽	-11.7522
釋難	-11.7525
能說者	-11.7525
如眼界	-11.7525
云何為五	-11.7525
此是我	-11.7525
亦不戒律	-11.7529
不成就欲界繫有覆無記心	-11.7529
性羸劣故	-11.753
為解脫道	-11.7531
無色界耶	-11.7534
用勝故	-11.7535
入無色定	-11.7535
所繫縛	-11.7537
已生者	-11.7537
一時生	-11.7539
寧有	-11.754
不問	-11.7542
異釋	-11.7543
依餘地	-11.7543
四塵	-11.7543
彼過去耶	-11.7544
未離欲者	-11.7544
於未得	-11.755
施物	-11.7553
正定聚	-11.7553
有色界	-11.7554
問如所說	-11.7555
四門	-11.7555
當更	-11.7555
成就六	-11.7556
諸因	-11.7556
無色界繫無覆無記心	-11.7559
智蘊	-11.7561
可斷	-11.7562
恒成就	-11.7562
是聖人	-11.7562
道法智忍	-11.7567
對彼	-11.7569
隨語	-11.757
為知	-11.7572
有五品	-11.7573
現樂	-11.7573
是假名	-11.7574
瞋隨眠	-11.7575
大地十	-11.7576
色是我	-11.7577
以是故說	-11.7578
有餘師釋	-11.7581
出家人	-11.7582
不可見法	-11.7583
彼成就色界繫	-11.7583
應亦名	-11.7584
稱為	-11.7585
受戒時	-11.7586
有十七	-11.7589
友	-11.7594
唯法念住	-11.7596
欲令彼	-11.7598
脇	-11.7598
地獄眾生	-11.7599
至應知亦爾	-11.7599
謂生色界	-11.7599
或經	-11.7599
見倒	-11.7599
讚佛	-11.76
樂果	-11.7602
三十一使	-11.7603
王所	-11.7605
天眼見	-11.7605
大海中	-11.7607
法辯	-11.7608
異滅	-11.7609
敘異	-11.7609
不應理故	-11.7614
得此定	-11.7615
至親	-11.7618
此不淨觀	-11.762
諸人	-11.762
障聖道	-11.7621
非見所斷	-11.7621
由自性	-11.7624
間雜	-11.7624
耳鼻舌身根	-11.7625
常無常	-11.7625
被損	-11.7626
後句	-11.7627
緣覺	-11.7628
名字	-11.7629
緣色無色界繫	-11.763
生欣	-11.7631
有定不定	-11.7632
是故世尊說	-11.7633
未曾見	-11.7633
本生	-11.7633
不相應行蘊	-11.7634
故立為根	-11.7634
名戒禁取	-11.7635
沙門婆羅門等	-11.7636
即此攝	-11.7637
勤勇	-11.7638
斷命	-11.7638
若不許	-11.7638
別起	-11.7641
迦旃延子造	-11.7642
世俗智相應	-11.7643
軌範	-11.7643
生覺	-11.7644
便止	-11.7644
必還	-11.7644
舉數	-11.7646
戒類	-11.7646
眼根乃至無色界修所斷無明隨眠	-11.7647
名即差別	-11.7647
邪志	-11.7649
戒定慧	-11.765
並起	-11.7651
捶	-11.7651
命根等	-11.7653
修七智	-11.7655
色有相續	-11.7655
此三皆	-11.7656
應遍知	-11.7656
不能得	-11.7656
煩惱縛	-11.7656
阿伽	-11.7657
見集所斷法	-11.7657
為他說	-11.7657
設緣已斷	-11.7658
是盡或無生	-11.7659
憤	-11.7659
進修	-11.7659
二禪三禪四禪	-11.7659
是心垢	-11.7661
欲界繫有覆無記心	-11.7661
屈伏	-11.7661
安穩	-11.7662
厄	-11.7662
貯	-11.7662
非欲界繫無覆無記心	-11.7662
惜	-11.7663
諸貪等貪	-11.7663
焦	-11.7664
異生斷	-11.7664
鮮白	-11.7665
付	-11.7665
嬰孩	-11.7665
斧	-11.7666
是凡夫性	-11.7666
體用	-11.7666
有覺有觀離生喜樂	-11.7666
淡	-11.7667
六處緣觸	-11.7668
作四行相中隨一行相	-11.7668
多界	-11.7668
轂	-11.7668
露形	-11.7669
稼	-11.7669
心住正住	-11.7669
阿毘達磨諸論師	-11.7669
十一地	-11.767
捨根亦爾	-11.767
謂已入正性離生	-11.7671
足前為	-11.7671
見道諦時	-11.7671
通六識身	-11.7671
荼	-11.7672
螺	-11.7672
平等受受所攝	-11.7672
寫	-11.7672
能殺	-11.7672
幾隨眠相應故隨增非所緣故	-11.7672
者顯彼自性	-11.7672
五門	-11.7672
未來現前正起	-11.7673
戚	-11.7673
差降	-11.7673
加行無間	-11.7673
幾隨眠所緣故隨增非相應故	-11.7673
離此地染	-11.7673
但有虛言	-11.7674
臨命終時	-11.7674
施戒修	-11.7675
黃色	-11.7675
眼不見	-11.7675
𤏙	-11.7675
受緣	-11.7675
兔角	-11.7676
已了別今了別非當了別	-11.7676
死生智力	-11.7677
准前應知	-11.7678
渚	-11.7678
及過去未來現在	-11.7678
非一切智	-11.7679
推尋	-11.7679
彼境界	-11.7679
靈	-11.7679
連縛	-11.7679
欣慰	-11.768
通三界九地	-11.768
雜亂失	-11.768
何謂三	-11.7681
唯願	-11.7681
骨鎖	-11.7681
順苦受業	-11.7681
減行	-11.7682
發欲界語	-11.7683
凡聖	-11.7683
三事故	-11.7684
第二靜慮近分	-11.7684
欲若勤若信	-11.7685
廣說乃至為令已生善法堅住乃	-11.7685
愛斷	-11.7685
因無明	-11.7688
不為障	-11.7688
非味相應耶	-11.7688
若外色眼識所知	-11.7689
入出息地	-11.7689
作是問言	-11.7689
失願結	-11.7689
五部法	-11.769
靜息	-11.7691
受想行蘊	-11.7691
色為所緣	-11.7691
除無色染	-11.7692
修觀行者	-11.7694
能障礙	-11.7694
無漏聖道	-11.7697
謂無漏法	-11.7697
相應起故	-11.7697
前果	-11.7698
勤策戒	-11.7699
是名聲入	-11.7699
為所緣繫	-11.7699
和合性	-11.7699
業為生因	-11.7702
名不成就	-11.7703
勝進分	-11.7703
無有見	-11.7703
生彼間	-11.7703
共所	-11.7705
汝所執	-11.7705
異熟何處	-11.7706
殺業道	-11.7707
愛非愛	-11.7708
一向無漏	-11.7709
意解	-11.771
於諸欲	-11.771
為生因	-11.771
但有一	-11.7711
出血	-11.7711
決定無有	-11.7711
故非異熟	-11.7715
無色界通一切及思惟所斷	-11.7715
菩薩母	-11.7716
內色想	-11.7717
近事女	-11.7718
大慈	-11.7719
財施	-11.7719
何等時成就過去法智	-11.7719
劫減	-11.772
無記心命終	-11.772
增進根	-11.772
失願	-11.7721
如色等	-11.7721
正決定	-11.7723
問若法是	-11.7729
由加行得	-11.7729
見道修道斷	-11.7729
違教	-11.773
不進	-11.7731
同一所依	-11.7731
福生	-11.7731
此下明	-11.7732
云何聲入	-11.7733
字界	-11.7734
下地法	-11.7737
無有是事	-11.7738
律儀不律儀	-11.7738
令眾生	-11.774
一坐	-11.7741
無間滅意	-11.7741
妙好	-11.7743
自性無記	-11.7744
佛亦	-11.7744
佛意	-11.7744
加行道時	-11.7748
有失	-11.7748
出滅定	-11.775
義得成	-11.775
四種業	-11.7751
諸勝進道	-11.7751
不善安住	-11.7753
及無漏法	-11.7753
根本煩惱	-11.7754
受七生	-11.7754
人同分	-11.7754
非心所	-11.7756
無學位中	-11.7756
得聖果	-11.7758
幾不善	-11.7758
八行相	-11.7759
頌云	-11.7759
佛生身	-11.776
有二十一	-11.776
勝根	-11.7761
名阿毘達磨	-11.7765
一中劫	-11.7773
聽聞	-11.7773
諸物	-11.7774
無流法	-11.7775
而答	-11.7778
相續起	-11.7779
其母	-11.7779
常定	-11.778
若聲入	-11.7783
結生心	-11.7784
幾思惟斷	-11.7784
望前	-11.7784
不執	-11.7784
招後有	-11.7784
無衣	-11.7787
苦諦習諦	-11.7787
意法意識	-11.7787
相應共有法	-11.7787
離非時食	-11.7792
容可	-11.7794
善無表	-11.7795
覺天	-11.7796
可壞	-11.7797
識境	-11.7799
無見結繫	-11.78
精進根	-11.7803
若人得	-11.7805
即此復從	-11.7807
業招	-11.7808
義門	-11.7809
不得律儀	-11.7809
具根	-11.7811
口惡行	-11.7815
無記心俱	-11.7815
二者謂	-11.7817
當作	-11.7817
上下地	-11.7818
卷第十	-11.7819
非依	-11.7824
法類智品	-11.7824
十六識內十	-11.7824
煖頂忍	-11.7826
是異生性	-11.783
六月	-11.783
成四句	-11.783
復有言	-11.7833
根非根	-11.7834
有對故	-11.7834
或無尋無伺	-11.7836
近事等	-11.7836
無憂	-11.7836
如箭	-11.7836
佛法中	-11.7837
行惡	-11.784
無如是過	-11.7841
名無執受	-11.7841
除其	-11.7843
定不生	-11.7844
六種姓	-11.7844
六更樂	-11.7846
皆是無常	-11.7846
息求	-11.7848
非味相應	-11.785
苦智現在前	-11.7851
外門轉	-11.7851
別果	-11.7852
色界沒生無色界	-11.7853
是故前說	-11.7855
不定地	-11.7855
在色無色界	-11.7856
定應許	-11.7856
正住	-11.7861
此下第三明	-11.7862
第二第三	-11.7864
若未來世	-11.7867
識想	-11.7867
色界天	-11.7868
學練根	-11.7869
例同	-11.787
與彼相應	-11.787
緣自相續	-11.7872
見聖諦	-11.7875
至世尊所	-11.7876
重起	-11.7878
此位名	-11.7878
幾不成就	-11.7878
繫法	-11.7884
往至	-11.7884
是有為相	-11.7885
為二果	-11.7885
不現起	-11.7885
身口行	-11.7886
離初靜慮染	-11.7886
不正思惟	-11.7887
前三果	-11.7887
是分別論者	-11.7888
曾得未曾得	-11.7889
非可愛	-11.7889
萬踰繕那	-11.7891
退轉	-11.7892
此中但依	-11.7893
成就色界繫無覆無記心	-11.7893
若望	-11.7894
有漏緣使	-11.7895
果向	-11.7895
法為境	-11.7896
僧寶	-11.7897
如實觀	-11.7898
本文	-11.7898
義理	-11.7899
彼所得	-11.7901
不能自	-11.7903
能入正性離生	-11.7905
戒道	-11.7906
自下第三	-11.7907
息不轉	-11.7907
不得名	-11.791
分成	-11.7913
染無知	-11.7914
離初靜慮	-11.7914
所以不說	-11.7917
為隨轉	-11.7918
答此說	-11.7919
論主述	-11.7919
通其	-11.7919
有漏及無漏	-11.7919
聚色	-11.7921
即異生	-11.7921
退不退	-11.7921
蘊相續	-11.7922
彼業果	-11.7923
他妻	-11.7923
所起煩惱	-11.7923
品說	-11.7924
無色界二部	-11.7925
釋妨	-11.7925
宗義	-11.7926
以眼	-11.7928
堅相	-11.793
或現在	-11.7931
得證淨	-11.7934
若施	-11.7935
四向	-11.7936
見結未斷	-11.7939
如是五種	-11.7941
見滅所斷疑	-11.7942
道迹	-11.7944
善不善業	-11.7944
令不散	-11.7945
逆超	-11.7946
異品	-11.7947
四諦理	-11.7947
八字	-11.7949
無祠祀者	-11.7951
一滅不起	-11.7951
從瞋生	-11.7951
荷	-11.7951
剃	-11.7953
蘇迷盧	-11.7953
不信者	-11.7953
是異熟果	-11.7954
叢林	-11.7955
局	-11.7955
非淨非無漏耶	-11.7956
空一顯色	-11.7956
三杖	-11.7956
𣣋	-11.7956
或不善或無記	-11.7957
謂諸聖者住胎	-11.7957
剎利	-11.7957
柯	-11.7957
離色界染	-11.7957
老時	-11.7957
豪	-11.7957
銀	-11.7958
腐	-11.7958
基	-11.7958
追求	-11.7959
已滅名過去	-11.7959
唯欲	-11.796
已離無色界貪	-11.796
試	-11.796
除北俱盧	-11.796
時解脫阿羅漢練根作不動	-11.796
三界二入五陰	-11.7961
溺	-11.7961
依何定滅	-11.7961
應理論者	-11.7961
輸	-11.7961
結縛隨眠隨煩惱纏	-11.7962
爭	-11.7962
讀誦	-11.7963
何以知之	-11.7963
信解脫轉根作見到	-11.7963
牛貨	-11.7965
有餘部說	-11.7965
洗浴	-11.7965
餘文可解	-11.7966
起我見	-11.7966
幾使使	-11.7966
諸聲聞	-11.7967
齋支	-11.7967
方隅	-11.7968
滅受想解脫	-11.7968
合名	-11.7968
書分	-11.7968
王舍城	-11.7968
蟻	-11.7968
數取趣	-11.7969
因果相屬	-11.7969
又准	-11.797
為恚結所繫	-11.797
色染無色染	-11.797
道俱生戒	-11.797
蓮花	-11.797
結跏趺坐	-11.797
復以何緣	-11.7971
相雜念住	-11.7971
味相應初靜慮	-11.7972
結前問起	-11.7973
可依	-11.7973
眼等六根	-11.7973
輕性	-11.7973
身語意惡行	-11.7974
顯有過去愛結	-11.7974
短壽	-11.7975
從此以後	-11.7975
所餘法	-11.7975
除去色想	-11.7975
此即第三明	-11.7975
無所畏	-11.7976
行義	-11.7976
無色界命終	-11.7976
今欲分別	-11.7976
五下分結盡	-11.7977
銷	-11.7978
體未斷	-11.7979
本惑	-11.7979
大海水	-11.7979
漏盡智力	-11.798
與意識	-11.798
有餘復說	-11.798
謂苦法智忍	-11.798
伽羅	-11.798
俱時而起	-11.7982
遙見	-11.7983
念定慧	-11.7984
無量種	-11.7984
意觸苦受	-11.7984
應不成	-11.7985
幾無學	-11.7987
夜增	-11.7988
已吐	-11.7988
令入	-11.7989
堅強	-11.7989
有對造色	-11.7992
名見所斷	-11.7994
非相應法	-11.7995
諸結斷	-11.7997
地味	-11.7997
必不成就過去未來	-11.7998
分離	-11.7998
唯意地	-11.7999
例釋	-11.8
像現	-11.8
難養	-11.8001
此實	-11.8001
審知	-11.8002
標也	-11.8002
二百	-11.8002
生遍淨	-11.8002
滑性	-11.8003
應習	-11.8003
非六生	-11.8004
有覆無記無覆無記色	-11.8004
便與	-11.8005
非得為體	-11.8005
色愛盡遍知	-11.8009
伏除	-11.801
是名聲界	-11.801
幾時	-11.801
依未至滅	-11.8011
集會	-11.8012
若生無色界	-11.8014
吾我	-11.8016
極速	-11.8018
由所依	-11.8019
短長	-11.8019
傳聞	-11.8019
位差別	-11.802
思所不攝	-11.8024
或撥無	-11.8025
緣三界繫及不繫	-11.8025
名增上慢	-11.8027
行相猛利	-11.8027
諸如來	-11.8029
名淨	-11.8031
自己	-11.8032
一踰繕那	-11.8034
一切有情皆	-11.8035
已前	-11.8036
與彼相違	-11.8036
體同	-11.8036
幾有為	-11.8038
非世第一法	-11.8038
獨一	-11.8041
彼定不成就	-11.8042
根蘊	-11.8044
敘異說也	-11.8046
名時解脫	-11.8049
八解脫道時	-11.8049
心展轉相緣	-11.805
此門	-11.805
能生長	-11.8051
彼過去未來	-11.8052
順苦	-11.8052
不自在故	-11.8052
名多名身	-11.8055
彼對治	-11.8057
感異熟果	-11.8062
五枝	-11.8063
欲界眾生	-11.8064
故獨名	-11.8066
淨初禪	-11.8066
往趣	-11.8069
踰繕那量	-11.8069
得預流	-11.8071
足指	-11.8072
由彼力	-11.8072
捨無量	-11.8078
傍論	-11.808
諸染污法	-11.808
象馬等	-11.8081
或無尋唯伺	-11.8082
盡無生智二	-11.8082
內門	-11.8083
復次或有	-11.8083
慧非見	-11.8087
無色有相續	-11.8088
修所斷無明隨眠	-11.8089
不了別	-11.8092
彼現在耶	-11.8092
非他	-11.8097
當取	-11.8097
但隨	-11.8097
恒住	-11.8098
無善	-11.8101
人趣中	-11.8103
無評家	-11.8104
自性念住	-11.8104
之過	-11.8105
彼未來耶	-11.8106
種種相	-11.8106
具支	-11.8108
攝入	-11.8109
亦應是	-11.8109
受化	-11.8112
於靜慮	-11.8113
未來有身見	-11.8113
離世	-11.8118
先作	-11.8118
身識界	-11.8118
毀犯	-11.812
)。《	-11.8121
散無表	-11.8121
無漏無所有處	-11.8122
他界地	-11.8124
財位	-11.8128
不應執	-11.8137
僧證淨	-11.8138
是利根	-11.8138
為善說	-11.8138
故名之為	-11.814
初中後	-11.8141
若在欲界	-11.8141
餘十七界	-11.8145
謂未離欲染	-11.815
少分相應	-11.8152
復次若心	-11.8154
憂處	-11.8155
無色愛	-11.816
應反詰	-11.8161
墮三世	-11.8167
位建立	-11.8167
諸聖諦繫根法	-11.8168
無量境界	-11.8168
既見	-11.8169
見道及修	-11.817
我不復	-11.8171
無不成就	-11.8171
生色界中	-11.8172
作無間業	-11.8175
今已	-11.8176
根少入	-11.8177
他世	-11.8179
若此法	-11.818
出無想	-11.8181
耳聞	-11.8182
諸梵眾	-11.8183
現受	-11.8186
由三緣	-11.819
如欲	-11.8192
或無報	-11.8195
中夭	-11.8195
火合	-11.8198
我已知	-11.8201
謂異熟生	-11.8202
法前得	-11.8202
鬼界	-11.8204
順生受	-11.8205
而有差別	-11.8206
恚使	-11.8207
此不相違	-11.8207
發身識	-11.8207
應常	-11.8209
縛著	-11.821
望彼	-11.821
行相所緣	-11.8212
第二第三第四靜慮	-11.8214
解脫想	-11.8215
云何建立	-11.8215
惱心	-11.8216
力勢	-11.8219
色境	-11.8219
苦樂受	-11.8219
此四大種	-11.822
有餘師	-11.8223
預流果能作證向	-11.8225
勢力所引	-11.823
謂佛世尊	-11.8231
有軛	-11.8232
如見道中	-11.8232
當廣分別	-11.8233
地水	-11.8235
如實知之	-11.8236
能具	-11.8236
即目	-11.8237
內災	-11.8239
無雲	-11.8242
觸生受	-11.8244
正辨	-11.8245
集異門	-11.8247
十八界十二處五蘊	-11.825
殖	-11.8251
有心定	-11.8251
療	-11.8253
故佛唯說	-11.8253
先有身表不失	-11.8255
若內	-11.8255
不安	-11.8255
可證	-11.8255
金剛喻	-11.8255
無愛樂者	-11.8257
作亦名增長	-11.8257
嗜	-11.8257
嫌	-11.8258
如實人念憶念	-11.8259
耳鼻舌根	-11.826
此就	-11.826
既然	-11.826
此則總說	-11.826
何見攝	-11.826
得獲成就	-11.8261
傲逸	-11.8261
良醫	-11.8261
映奪	-11.8261
漬	-11.8262
梁	-11.8262
聲香味觸法	-11.8262
周圍	-11.8262
矩	-11.8262
金剛座	-11.8263
化法調伏	-11.8263
無學人欲得阿羅漢	-11.8264
疲勞	-11.8264
色無色界一切	-11.8265
次對現在	-11.8265
令心高舉	-11.8265
為目何義	-11.8265
檢	-11.8265
瓦	-11.8265
名色緣六處	-11.8265
準	-11.8266
合掌	-11.8267
告曰	-11.8267
內無色想觀外諸色	-11.8268
堤塘	-11.8268
剛強	-11.8268
朝	-11.8268
正等正覺	-11.8268
比丘定親近多修學已	-11.8268
此文應如是說	-11.8269
未證欲證	-11.8269
斬	-11.8269
緣是相續緣	-11.8269
商人	-11.8269
策勵	-11.8269
無常苦空無我	-11.8269
商侶	-11.8269
若兼	-11.827
無諍願智	-11.827
即取	-11.827
明非其因	-11.827
都無所	-11.8271
定俱生戒	-11.8272
唯佛能知	-11.8272
安足	-11.8272
諦聽	-11.8272
三十五	-11.8272
未得欲得	-11.8272
亦如此	-11.8272
結生時	-11.8272
可積集	-11.8272
老年	-11.8272
梵福量	-11.8272
戶	-11.8273
欲色界遍行及修所斷隨眠隨增	-11.8274
希奇	-11.8274
俱生品諸根	-11.8274
無別有	-11.8275
羯剌藍位	-11.8275
幽	-11.8276
光影	-11.8277
安靜	-11.8277
瀑流軛取	-11.8277
古德	-11.8277
重觀	-11.8279
審決	-11.828
見集所斷遍行隨眠	-11.8281
無學智現在前	-11.8281
欲色界三部	-11.8281
四根相應	-11.8283
改易	-11.8284
六觸身	-11.8284
有轉變	-11.8284
自思惟	-11.8285
從此第六	-11.8285
唯用	-11.8285
此說非理	-11.8285
習法智斷	-11.8285
香象	-11.8286
應證	-11.8286
初出	-11.8289
方立	-11.8289
先立	-11.829
未來所造色	-11.829
體既	-11.829
不見言見	-11.829
諸欲界繫有覆無記心	-11.8291
故無過	-11.8291
苾芻戒	-11.8293
頂墮	-11.8294
集諦亦如是	-11.8294
漸略	-11.8294
餘則不爾	-11.8295
卷第十一	-11.8296
俱成	-11.8297
修類	-11.8297
眾賢	-11.8298
我從今	-11.8299
盡作證時	-11.8299
第二靜慮色	-11.8301
是見斷	-11.8301
有人云	-11.8302
皆不應理	-11.8302
食所食	-11.8303
諸經中	-11.8303
欲界諸煩惱	-11.8303
本論師	-11.8304
准正理論	-11.8305
一生中	-11.8305
微微心	-11.8307
身受樂	-11.8307
何等為四	-11.8308
苦類忍	-11.8309
作是釋言	-11.831
一切佛	-11.831
為他說法	-11.8311
依未至定滅	-11.8312
初品	-11.8314
定前心	-11.8315
不引	-11.8316
後法	-11.8317
皆無有	-11.8319
第三第四	-11.8319
徵難	-11.832
捨受相應	-11.8321
迴轉戒	-11.8322
三界貪	-11.8322
顯己	-11.8322
所得擇滅	-11.8324
至道類智	-11.8324
如是分別	-11.8325
眼及色	-11.8326
次辨	-11.8327
同品	-11.8328
如無間道	-11.8328
捨心定	-11.8329
唯是無漏	-11.8331
異色	-11.8331
畜生餓鬼	-11.8332
先入	-11.8333
此等名為	-11.8336
未來六	-11.8337
無施與者	-11.8337
如日	-11.8337
現報	-11.8338
五塵	-11.8339
有為解脫	-11.8339
唯佛世尊	-11.8339
初剎那後	-11.8339
論議	-11.8341
色界耶	-11.8343
比丘尼	-11.8343
先所得	-11.8345
無損害	-11.8346
下中上品	-11.8346
俱時起故	-11.8346
」「	-11.8347
阿羅漢成就	-11.8347
欲界命終	-11.8349
來入	-11.8349
所緣念住	-11.835
幾非學非無學	-11.8351
總以	-11.8354
欲軛	-11.8356
舉心	-11.8357
成就無色界繫有覆無記心	-11.8357
三不成就	-11.8357
生已滅	-11.8357
壽果	-11.8359
無恥	-11.8361
無瞋恚	-11.8363
以慧為體	-11.8363
此中意	-11.8363
無利	-11.8364
供養恭敬	-11.8364
眾行	-11.8365
練根得	-11.8368
故婆沙一百	-11.8371
便說	-11.8373
類智相應	-11.8374
二萬	-11.8376
欲貪纏	-11.8378
比丘以	-11.8378
唯有二種	-11.838
幾界幾處幾蘊攝	-11.838
愛使	-11.8381
諸像	-11.8381
界趣	-11.8382
主因	-11.8385
有障	-11.8386
後有愛	-11.8386
正理論師	-11.8389
知量	-11.8389
已立	-11.8389
處轉故	-11.8392
毘婆沙者	-11.8393
加行云何	-11.8395
未必	-11.8396
而坐	-11.8397
味處	-11.8398
謂盡智	-11.8401
乃至無所有處染	-11.8404
百踰繕那	-11.8406
淨行	-11.8408
殊妙	-11.8408
無差	-11.8409
羊等	-11.8409
義不成	-11.841
有二釋	-11.841
大果	-11.841
不移動	-11.8411
兩義	-11.8411
所牽	-11.8412
從有漏	-11.8412
異執	-11.8412
名不放逸	-11.8412
何以說	-11.8413
事為自性	-11.8415
善男子	-11.8417
下一句	-11.8417
明記	-11.8419
亦無退	-11.842
有伺	-11.8423
謂命意捨	-11.8424
如彼說	-11.8425
俱舍師破	-11.8429
四十八	-11.8432
彼種類	-11.8434
風大	-11.8435
說名為斷	-11.8436
所顯義	-11.8437
於見滅所斷	-11.8439
及遍行	-11.844
身教	-11.8441
從強	-11.8443
由因緣	-11.8445
過去諸佛	-11.8445
四善根	-11.8446
動作	-11.8447
作是問	-11.8447
若不起	-11.8449
又釋	-11.845
無身表	-11.8452
第五明	-11.8453
此智生	-11.8454
捨眾同分	-11.8454
經主此中	-11.8456
劫數	-11.8457
未永斷	-11.846
十九根	-11.8463
是故但說	-11.8465
屬於	-11.8465
無學練根	-11.8466
見行者	-11.8467
害覺	-11.8469
欲有漏	-11.847
有餘師言至	-11.847
無實體	-11.8471
苦邊際	-11.8475
無所有處解脫	-11.8476
無比	-11.848
所目	-11.8482
因無記	-11.8482
謂同類因	-11.8483
謂法處	-11.8486
通見	-11.8487
於有頂	-11.8488
彼相應無明	-11.8489
持令	-11.8495
依意	-11.8496
無間同類	-11.8497
十事	-11.8498
虛空無為	-11.85
有斯	-11.8503
臘縛	-11.8505
退法阿羅漢	-11.8511
一向記	-11.8513
食香	-11.8515
女等	-11.8516
無色繫	-11.8521
不相違故	-11.8523
是性罪	-11.8524
文中有三初	-11.8524
論主意	-11.8525
是假有	-11.8526
若生遍淨	-11.8527
因果性	-11.853
唯是異熟	-11.853
九智知	-11.8532
真實義	-11.8533
識見	-11.8534
以何因	-11.8537
地中有	-11.8537
尋伺俱	-11.8539
因所生	-11.8541
阿羅	-11.8542
思法等	-11.8543
小四相	-11.8545
其過	-11.8546
見亦見處	-11.8546
大煩惱地	-11.8547
能資	-11.8549
舉頌	-11.855
准論	-11.8551
▁種	-11.8551
異大種	-11.8552
謂一切有為法	-11.8553
四隨相	-11.8555
依內	-11.8555
相應品	-11.8557
覓	-11.8557
竅隙	-11.8561
養育	-11.8562
何名為	-11.8562
樂遲通行	-11.8565
六百	-11.8565
起欲界纏退時	-11.8565
如是等事	-11.8565
稽首	-11.8565
斷色無色界結	-11.8567
聖所愛戒	-11.8567
則不應	-11.8567
立識住	-11.8567
十二界	-11.8568
修所斷貪	-11.8568
熾	-11.8569
威光	-11.8569
色界三部	-11.857
圍遶	-11.857
巖	-11.857
筆	-11.857
迷悶	-11.8571
參	-11.8571
吞噉	-11.8573
生得眼	-11.8573
次對過去未來	-11.8574
臭穢	-11.8574
迦濕彌羅	-11.8575
前三解脫	-11.8575
鑒	-11.8575
無學若智若見現在前	-11.8576
峯	-11.8576
嬈	-11.8576
麟角	-11.8577
有見無見	-11.8577
周匝	-11.8577
嗣	-11.8577
玉	-11.8577
造此論	-11.8577
無記非我分攝	-11.8577
婆羅痆斯	-11.8578
頸	-11.8579
生彼天	-11.8579
少境界	-11.8579
威勢緣者	-11.8581
潔	-11.8581
腦	-11.8582
各據一義	-11.8582
幾結所繫	-11.8582
順不苦不樂受觸	-11.8582
傍生餓鬼	-11.8582
畦	-11.8582
苦忍苦智	-11.8582
次對未來現在	-11.8583
次對過去現在	-11.8583
四意斷	-11.8583
由風	-11.8583
皷	-11.8585
修所斷有覆無記心	-11.8586
得修習修	-11.8586
不可為例	-11.8586
歡慼	-11.8586
猗覺支	-11.8587
同時因果	-11.8587
智攝一切智	-11.8587
終不能	-11.8587
依三界身	-11.8587
已見諦者	-11.8587
泰法師	-11.8587
聚集出現	-11.8588
反責	-11.8588
彼得無教	-11.8589
煩惱等斷	-11.8589
財富	-11.8589
調戲	-11.8589
靜等三行	-11.8589
苦空無我	-11.859
內有色想觀外色	-11.859
清妙	-11.859
未嘗	-11.8591
皮肉	-11.8591
住時勢分	-11.8591
非所許故	-11.8592
三界三部	-11.8592
罽賓國	-11.8592
生初禪識	-11.8594
惑生	-11.8594
標宗	-11.8594
與法智相應	-11.8595
坐禪	-11.8595
若內若外	-11.8596
耳觸	-11.8596
影光	-11.8597
七火災	-11.8598
眉間	-11.8598
猶如有人	-11.8598
四根本靜慮	-11.8598
巳滅	-11.8599
是彼類故	-11.8599
能斫	-11.86
諸無色界繫無覆無記心	-11.86
復應思擇	-11.8601
)【	-11.8601
見滅所斷有漏緣隨眠	-11.8603
八人	-11.8603
諸色界繫有覆無記心	-11.8603
從無始來	-11.8605
何所緣	-11.8608
欺誑	-11.8609
問記	-11.861
諸色界繫無覆無記心	-11.8612
復次諸瑜伽師	-11.8612
謂苦法智	-11.8612
諸力士	-11.8612
有警覺	-11.8612
可愛異熟	-11.8613
眼等五	-11.8614
或不成就	-11.8614
論者作如是言	-11.8614
能隨順	-11.8615
復次此法	-11.8618
若成就大種	-11.8619
遠續	-11.8621
信解脫人	-11.8621
何緣不許	-11.8621
聲聞乘	-11.8622
眼不見色	-11.8622
自言	-11.8622
乃至九十八使	-11.8623
靜行相	-11.8624
一聚	-11.8624
等正覺	-11.8624
彼心心法	-11.8624
非想非非想處諸行滅	-11.8625
既生彼巳	-11.8625
聞他	-11.8626
次上	-11.8628
俱舍師	-11.8628
諸論皆	-11.8629
一切心心所法	-11.863
既知	-11.8631
定果	-11.8636
有為法中	-11.8636
無上法	-11.8637
開解	-11.8637
不飲酒	-11.8637
親近多修學已	-11.8637
不善煩惱	-11.8639
隨心轉法	-11.8639
前分	-11.864
差別之相	-11.8645
何所不攝	-11.8649
依五根	-11.865
四諦境	-11.8651
右脇	-11.8652
無色善	-11.8653
非四大造	-11.8653
獨得	-11.8656
相別云何	-11.8656
殺心	-11.8657
引婆沙	-11.8658
能為轉	-11.8661
離間	-11.8661
由是因緣	-11.8662
如先已說	-11.8663
之異名	-11.8664
一向不善	-11.8664
感身	-11.8665
於內身	-11.8666
如章	-11.8666
互為緣	-11.8666
得無漏離繫得	-11.8666
調心	-11.8667
更不受	-11.8668
無邊際	-11.8668
順不定受	-11.8668
因作論	-11.8673
善有漏慧	-11.8674
王聞	-11.8675
不好	-11.8679
心狂亂	-11.8679
謝滅	-11.868
月等	-11.8682
相應隨眠	-11.8683
此經所說	-11.8683
為菩提分法	-11.8684
業所感	-11.8685
十二行相	-11.8685
名身受	-11.8688
增上戒	-11.8688
自地煩惱	-11.869
此二因	-11.8692
必成	-11.8693
五結中	-11.8694
破闇	-11.8695
助道	-11.8695
自了知	-11.8696
既成	-11.8696
乃至梵世	-11.8697
能斷道	-11.8698
學業	-11.8698
德田	-11.8699
智非見	-11.87
災起	-11.8703
世品	-11.8703
曾聞有	-11.8704
諸學處	-11.8705
釋初兩句	-11.8706
再說	-11.8707
力所引起	-11.8708
義不相應故	-11.8709
不絕	-11.8709
勤方便	-11.8709
諸有漏行	-11.8713
能雜修	-11.8713
捨惡戒	-11.8715
無常觀	-11.8716
則不繫	-11.8717
外心	-11.8718
非見斷	-11.8718
二種俱	-11.8719
非不善色	-11.872
難意	-11.8721
彼成就欲界繫	-11.8721
遮防	-11.8721
已遍知	-11.8723
一來果攝	-11.8725
諸學者	-11.8726
具大	-11.8727
自高	-11.8729
依經部宗	-11.8729
已過	-11.873
有退義	-11.8731
於一切處	-11.8731
所誦	-11.8731
所屬	-11.8731
已離欲界染	-11.8732
七界	-11.8734
空無邊處解脫	-11.8734
別破	-11.8735
名法隨法行	-11.8735
苦想	-11.8736
初勝處	-11.874
諸餘心	-11.8745
時節	-11.8748
名住異	-11.8749
名緣已生	-11.875
但見	-11.8752
邪論	-11.8754
第三定中	-11.8754
正理四十	-11.8755
或說為	-11.8756
意識身	-11.8757
因中因	-11.8758
大煩惱	-11.8759
勤行	-11.8762
見佛	-11.8762
世羅	-11.8763
十二使	-11.8764
順後	-11.8766
九有情居	-11.8767
五陰性	-11.8768
長短等	-11.8768
過去法智耶	-11.8768
福增長	-11.8771
隨信	-11.8772
力無畏	-11.8774
常行	-11.8778
此下大文第二	-11.8779
作是執	-11.8779
欣厭	-11.8781
能助	-11.8781
成就色界繫有覆無記心	-11.8785
入彼定	-11.8788
為現法樂住	-11.8789
餘心所	-11.879
壞滅	-11.8793
心品中	-11.8794
幾見斷	-11.8796
妙義	-11.8796
思求	-11.88
離欲愛	-11.8805
得聞	-11.8805
大苦	-11.8805
未來果	-11.8806
相應俱有法	-11.8812
約剎那	-11.8814
亦同此	-11.8815
三等持	-11.8815
非當取	-11.8818
隨眠是所隨增	-11.8818
學無學非學非無學者	-11.8819
已與果	-11.8826
具有三	-11.8827
眾生居	-11.8827
何故但言	-11.8828
未見諦	-11.883
離不與取	-11.883
男女等	-11.8831
亦非所緣	-11.8838
已曾得	-11.8839
說一切法	-11.8841
水上	-11.8843
不利	-11.8844
勝能	-11.8846
他聚故	-11.8847
根所取	-11.8848
與無慚無愧相應	-11.8849
餘四蘊	-11.8851
作次第緣	-11.8851
更增	-11.8852
於人中	-11.8853
通六識	-11.8855
有根身	-11.8856
能斷結	-11.8859
事轉	-11.8861
餘心所法	-11.8862
或有成就	-11.8862
經云何通	-11.8863
因相應法	-11.8866
類智忍	-11.8866
熏修	-11.8871
國人	-11.8873
我昔	-11.8874
占	-11.8874
亦應同	-11.8875
則無有	-11.8875
成就得不成就	-11.8875
若惑若疑若猶豫	-11.8878
拘隣	-11.888
滅道諦	-11.8881
苦諦繫非根法	-11.8882
色界命終	-11.8882
所生果	-11.8882
今欲說	-11.8883
復有餘師	-11.8883
極多十九	-11.8884
加行成滿	-11.8885
先未曾侵惱	-11.8886
住持	-11.8886
肉團	-11.8888
亡失	-11.8889
若依初靜慮	-11.889
非數緣盡	-11.889
而許	-11.889
苦諦繫根法	-11.889
休	-11.889
結加趺坐	-11.889
君	-11.8891
憍陣那	-11.8892
白髮	-11.8892
有身見結	-11.8893
苦智習盡道智	-11.8893
但一增上	-11.8893
殞	-11.8894
亦非相應縛者	-11.8894
雷	-11.8894
悕求	-11.8894
次對未來	-11.8894
即由此	-11.8894
糠	-11.8895
有為相應縛非所緣縛	-11.8895
現有善身語表	-11.8895
器等	-11.8895
殿	-11.8895
捷利	-11.8895
若非此所增隨眠	-11.8896
易解	-11.8897
廛	-11.8897
等三業	-11.8898
愈	-11.8898
為止如是說者意	-11.8898
乃至即得阿羅漢果	-11.8898
釋提桓因	-11.8898
不成就得成就	-11.8899
送	-11.8899
五根相應	-11.8899
何繫結滅	-11.89
為得未得而學	-11.89
三千大千世界	-11.89
非住分	-11.89
無漏忍時	-11.89
不成就無學心	-11.89
此責非理	-11.8901
髮毛等	-11.8901
而不作是說者	-11.8901
死後無想	-11.8902
熊	-11.8902
根相應者	-11.8902
即由此理	-11.8902
便違契經	-11.8902
鞞	-11.8903
緣起支	-11.8903
值	-11.8903
若時菩薩	-11.8903
眼觸所生想	-11.8903
理必應然	-11.8903
村邑	-11.8903
述異說也	-11.8903
業非業報	-11.8903
毫	-11.8903
未解欲解	-11.8904
解分智	-11.8904
外國諸師	-11.8904
順前句	-11.8904
㲲	-11.8905
幾結繫	-11.8905
發露	-11.8906
自性於自性	-11.8906
興者已盡則不繫	-11.8906
巡	-11.8907
鄔	-11.8907
菩提樹	-11.8907
離有頂染	-11.8908
三界一切遍使使	-11.8908
貫	-11.8908
定受業	-11.8908
諸天眾	-11.8908
兩舌	-11.8908
念住現在一	-11.8908
泄	-11.8909
智能知	-11.8909
無餘涅槃	-11.8909
略釋	-11.8909
不成就學心	-11.8909
謂若麁若苦若障	-11.891
替	-11.8911
諸菩薩	-11.8911
月白半第八日	-11.8911
伽陀	-11.8912
末劫末見	-11.8912
若外聲耳識所知	-11.8913
易養	-11.8913
能了別不繫法	-11.8914
八十八隨眠	-11.8914
未得聖法	-11.8915
若爾至	-11.8916
釋迦菩薩	-11.8916
牛等	-11.8916
生憂	-11.8916
設成就過去現在	-11.8917
復有二	-11.8917
忿覆	-11.8917
三界繫及不繫	-11.8917
契約	-11.8917
今欲說之	-11.8918
錦	-11.8918
斯有何過	-11.8918
五結眠沒	-11.8918
戒蘊	-11.8919
猛火	-11.8919
少光天	-11.892
功德田	-11.892
現在唯修世俗	-11.892
空處識處	-11.8921
無想正受	-11.8922
集聖諦亦爾	-11.8924
約界	-11.8924
則不定	-11.8925
是等流	-11.8925
無量識處	-11.8925
若盡智無生智	-11.8925
中隨一	-11.8926
卷第十二	-11.8926
受近事律儀	-11.8926
并無為法	-11.8927
經偏說	-11.8927
二形生	-11.8928
善業為眷屬	-11.893
專念	-11.893
自活	-11.8931
阿那	-11.8932
六十劫	-11.8934
隨增耶	-11.8934
勤三摩地	-11.8936
念法師	-11.8937
亦有異	-11.894
總有六	-11.8941
香氣	-11.8941
當來有	-11.8944
欲愛使	-11.8945
非過去未來	-11.8946
三性分別	-11.8946
聞思修所成	-11.8949
惡處	-11.895
少年	-11.895
除離繫	-11.8951
受樂受	-11.8951
屬我	-11.8952
第六轉	-11.8952
非倒	-11.8954
眼等諸根	-11.8954
有味	-11.8954
幾有對	-11.8955
有欲令	-11.8956
▁「	-11.8958
能為緣	-11.8958
終無	-11.896
教勅	-11.8962
加行善根	-11.8965
三解脫門	-11.8965
非餘煩惱	-11.8966
大梵天王	-11.8968
無學正勤	-11.8968
於經中	-11.8969
得與所得	-11.897
此舉	-11.8971
四十四智	-11.8971
無覺有觀定	-11.8976
緣無境	-11.8977
薄伽梵說	-11.8979
心三摩地	-11.8981
田器	-11.8981
法後得	-11.8982
何殊	-11.8982
然契經中	-11.8983
此中唯說	-11.8984
受苦樂	-11.8985
集滅道	-11.8987
更互相	-11.8987
指事	-11.8988
善惡無記	-11.8988
老病死	-11.8989
苦集類智	-11.899
下三定	-11.8991
決定相	-11.8992
是道果	-11.8992
婆沙八十	-11.8992
業增上力	-11.8993
唯有一種	-11.8994
不墮惡道	-11.8994
謂意處	-11.8994
無常苦	-11.8995
問何故世尊	-11.8997
除遣	-11.8999
觸生愛	-11.9
則止	-11.9
及無色界生長	-11.9005
取捨	-11.9006
此三法	-11.9006
十一切入	-11.9006
三緣故	-11.9009
准彼	-11.9012
修道位中	-11.9013
因善	-11.9013
從此生	-11.902
與三根相應	-11.9023
義宗	-11.9023
非見非見處	-11.9026
引本論	-11.9027
上親	-11.9028
愛非愛果	-11.9029
不壞法	-11.9029
眾生居處	-11.9031
對曰	-11.9033
復有四種	-11.9034
獄中	-11.9036
學無色	-11.9037
不礙	-11.9038
後法樂	-11.9039
餘諦	-11.9041
見瀑流	-11.9044
現未	-11.9045
妙行惡行	-11.9046
汝若謂	-11.9047
我倒	-11.9047
與婆沙	-11.9054
廣破	-11.9055
此中總說	-11.9056
差別不同	-11.9057
取前	-11.9066
相應故言少分	-11.9069
無有過	-11.9072
勝類	-11.9072
無諍行	-11.9073
誓願	-11.9074
一俱盧舍	-11.9075
與念覺支相應	-11.9078
眾相	-11.9079
界趣生	-11.908
無因義	-11.9081
不緣下地	-11.9082
劇苦	-11.9083
觀三摩地	-11.9083
聲非異熟	-11.9084
無明為因	-11.9085
色界三種	-11.9089
復次欲現	-11.9098
或色無色界繫	-11.9101
諸染	-11.9102
第四果	-11.9103
能縛	-11.9104
七百	-11.9105
成逆罪	-11.911
然後乃	-11.9112
等無間所緣增上	-11.9114
離麁惡語	-11.9116
之身	-11.9117
無羞	-11.912
謂無明行	-11.9121
通四念住	-11.9122
設成就過去	-11.9123
欲三摩地	-11.9126
大過	-11.9126
有何相	-11.9128
不善隱沒無記	-11.9132
為識住	-11.9136
造逆	-11.9137
諸聖諦繫非根法	-11.9137
能忍	-11.914
自性分別	-11.914
因緣性	-11.9144
誓受	-11.9145
餘心心所法	-11.9145
前已說故	-11.915
雖有多	-11.9159
能止	-11.916
雜毒	-11.9161
三十六使	-11.9162
緣自身	-11.9165
我所說	-11.9166
色究竟	-11.9168
從此後	-11.917
假實	-11.9173
道未知忍	-11.9173
異方	-11.9174
見非智	-11.9176
非法智相應	-11.9176
苦集法智	-11.9181
依此義	-11.9182
若處所有	-11.9182
後乃	-11.9186
助力	-11.9186
見道修道	-11.9187
不相似法	-11.9189
假非實	-11.919
分為四	-11.9193
欲界初禪	-11.9196
無恚結	-11.9198
彼於如是	-11.9199
次第緣緣	-11.92
取其	-11.9211
二心俱生	-11.9213
成無用	-11.9214
知解受	-11.9214
若未離欲	-11.9215
不能了	-11.9215
及餘一切	-11.9216
欲盡	-11.9216
糧	-11.9217
是等流性	-11.9219
即彼愛未盡	-11.9219
道諦繫非根法	-11.922
陷	-11.922
瓶衣	-11.9221
諸根長養大種增益	-11.9221
下分中	-11.9221
緣是報緣	-11.9222
名色緣觸	-11.9222
那羅延	-11.9222
咽喉	-11.9224
尊貴	-11.9224
懈	-11.9225
彼作是答	-11.9226
順不逆	-11.9226
一切皆有	-11.9227
尊者婆須蜜說	-11.9228
泛	-11.9228
怨憎	-11.9229
三轉十二行相	-11.9229
眼色為緣生眼識	-11.9229
樂根喜根捨根	-11.9229
凡夫人到	-11.923
飽	-11.923
事究竟	-11.923
理定不然	-11.9231
諸界諸趣諸生	-11.9231
剋	-11.9231
擁護	-11.9231
官	-11.9231
謂入現觀苦	-11.9231
居處	-11.9231
忌	-11.9232
謂欲界生長已離欲界貪	-11.9232
聰叡	-11.9232
異生三十一隨眠	-11.9233
四二分或	-11.9234
士用及增上	-11.9234
超昇離生	-11.9234
苦比忍	-11.9234
集滅現觀各四心頃	-11.9235
善哉善哉	-11.9235
無始已來	-11.9235
輞	-11.9235
最為殊勝	-11.9236
獵	-11.9236
次兩句	-11.9236
迷謬	-11.9236
九上緣惑	-11.9236
楚	-11.9236
界二處四蘊攝	-11.9237
虧	-11.9237
三結乃至九十八隨眠	-11.9238
最後位	-11.9238
觀涅槃寂滅	-11.9239
是非法	-11.9239
炭	-11.9239
忻	-11.9239
資財	-11.9239
尊者世親造三藏法師玄奘奉詔譯	-11.9239
環	-11.9239
讚美	-11.924
彼則有	-11.924
說一切有部俱舍論	-11.924
但名造作	-11.924
如病如癰	-11.9241
見道十五心頃	-11.9241
是貪等流	-11.9241
歡行轉	-11.9241
孔隙	-11.9242
映	-11.9242
恩田	-11.9242
於彼諸色勝知勝見	-11.9242
依何義說	-11.9242
有為所緣縛亦相應縛	-11.9242
自在而轉	-11.9243
勢力強故	-11.9243
訓釋	-11.9243
柱	-11.9244
由一事故	-11.9244
心所法中	-11.9244
十智為性	-11.9245
幾因相應	-11.9245
萬歲	-11.9245
聖道一時俱斷	-11.9245
火聚	-11.9246
意觸所生愛身	-11.9247
諸法自相共相	-11.9248
經生聖者	-11.9248
白黑	-11.9249
設成就未來現在	-11.925
遲速	-11.925
由二事故	-11.925
稟性	-11.9251
如理應說	-11.9251
凡位	-11.9251
彼法是何	-11.9253
滿七	-11.9254
光法師	-11.9254
不假	-11.9254
長者子	-11.9254
思慮	-11.9254
而得解脫	-11.9255
依靜慮	-11.9255
初安足	-11.9255
習未知智斷	-11.9256
此下第一明	-11.9258
彼成就無漏初靜慮	-11.9258
非前非後二心	-11.9259
能仁	-11.9259
聖者三隨眠	-11.926
意識依	-11.926
現報業	-11.9263
故彼論云	-11.9264
但從	-11.9265
上座部	-11.9266
諸欲界繫無覆無記心	-11.9266
所招	-11.9266
九品惑	-11.9266
度界	-11.9267
復有欲令	-11.9267
從煩惱生	-11.9269
非五識身	-11.9269
悲心定	-11.927
毛等	-11.927
上昇	-11.9273
可畏	-11.9273
有其二	-11.9274
顧戀	-11.9274
行相微細	-11.9275
五有漏處	-11.9275
決定安立	-11.9275
道未知智斷	-11.9276
幾結盡	-11.9276
七識界	-11.9276
是舊	-11.9278
理亦應	-11.9278
及學無學心	-11.9279
問因論生論	-11.9279
深廣	-11.9279
伺相應	-11.9279
緣色等	-11.9279
七八品	-11.9279
不能感	-11.9281
不斷無色	-11.9282
始終	-11.9282
有色無色	-11.9282
道諦攝	-11.9282
令增長	-11.9283
名心受	-11.9283
斷對治故	-11.9283
有瀑流	-11.9285
無漏樂根	-11.9285
軟根	-11.9286
能稱	-11.929
是假非實	-11.9291
智德	-11.9291
南方	-11.9292
如佛契經說	-11.9292
隱顯	-11.9295
不斷心俱	-11.9298
展轉相攝	-11.9298
法陰	-11.9299
極難	-11.93
若入此定	-11.9301
所記	-11.9302
緣他相續	-11.9302
今更	-11.9303
六天	-11.9304
起如是心	-11.9305
違宗	-11.9306
外事	-11.9307
後漸	-11.9311
婆羅門言	-11.9312
難得故	-11.9314
如佛世尊	-11.9314
雙因	-11.9314
餘使	-11.9314
諸法無我	-11.9315
欲善	-11.9317
九地聖道	-11.9318
信愛	-11.932
糞掃衣	-11.9321
眼識依	-11.9321
准前說	-11.9321
牛羊	-11.9323
非情數	-11.9329
伽他言	-11.933
如是行者	-11.933
非一果	-11.9332
當言法智	-11.9333
千踰繕那	-11.9334
一切隨眠相應識	-11.9335
由此二因	-11.9336
燈光	-11.934
以無用故	-11.9341
於初靜慮	-11.9342
如施設論說	-11.9343
成辨	-11.9343
天王	-11.9344
可量	-11.9345
繫地	-11.9348
劫初時人	-11.9348
不妨	-11.9349
極簡擇	-11.9351
恚癡	-11.9354
領觸	-11.9357
三科	-11.936
色界繫善心捨成就得不成就	-11.9361
田業	-11.9362
惡香	-11.9363
在未來世	-11.9363
有四十	-11.9364
有別意	-11.9365
佛弟子眾	-11.9366
起諸煩惱	-11.9366
未除	-11.9367
十一入	-11.9367
外道說	-11.9368
分別契經義	-11.9374
非撥	-11.9374
以事故	-11.9374
立世	-11.9375
謬也	-11.9379
及見苦所斷遍行隨眠隨增	-11.938
名為對法	-11.9381
若有苾芻	-11.9382
如梵眾天	-11.9385
界別	-11.9386
因見滅斷	-11.9386
謂世尊說	-11.9387
凡夫共	-11.9389
非學非無學心	-11.939
應果性	-11.939
礙色	-11.9391
能引眾同分	-11.9392
如車	-11.9392
實語	-11.9394
芽生	-11.9395
非大種	-11.94
善無記心	-11.94
識住處	-11.9401
過量	-11.9401
捨律儀	-11.9402
謂見道中	-11.9403
見道現前	-11.9404
緣有為	-11.9404
見道所斷邪見	-11.9404
待餘	-11.9405
現在煩惱	-11.9405
長大	-11.9407
除棄	-11.9407
時舍利子	-11.941
於自所緣	-11.941
成就色無色界	-11.9411
成善等	-11.9412
或非業	-11.9414
若有為	-11.9415
見非見處	-11.9415
能生後	-11.9416
生盲	-11.9417
波伽羅那	-11.9419
相續住	-11.9419
除見滅所斷	-11.9422
略攝	-11.9425
何緣不說	-11.9426
於何位	-11.9429
展轉相因	-11.943
少有所	-11.943
獨住	-11.9432
諸蓋	-11.9433
能緣行相	-11.9434
隨他	-11.9436
舉身	-11.9437
部中	-11.9439
贍部洲人	-11.9439
心懷	-11.944
執為勝	-11.944
非了義	-11.9443
第三第四禪	-11.9444
能招異熟	-11.9444
聽受	-11.9445
於身等	-11.9445
見斷法	-11.9445
具成	-11.9448
行蘊中	-11.9449
覆蓋	-11.945
從加行	-11.9453
觀照	-11.9453
四句中	-11.9453
苦集下	-11.9455
相礙	-11.9458
十八物	-11.946
妄計	-11.9462
戒取疑	-11.9463
此十二入	-11.9464
不可害	-11.9464
一來不還	-11.9466
修無想定	-11.9468
無行動	-11.9469
是有漏故	-11.947
婆沙師	-11.9473
無惱害	-11.9474
能為障	-11.948
身有教	-11.948
為助伴	-11.9483
不得起	-11.9483
無學無色	-11.9484
空相	-11.9487
以無間道	-11.9488
三無色定	-11.9488
八千	-11.9488
二有中間	-11.949
正在	-11.949
若如是者	-11.949
能生果	-11.9492
無恚結繫	-11.9492
四法智	-11.9494
後解	-11.9494
識為緣	-11.9495
唯非學非無學	-11.9495
尋伺等	-11.9496
一切阿羅漢	-11.9498
修羅	-11.9498
遍照	-11.9499
為結所繫	-11.9499
花香	-11.9499
及餘心	-11.95
妬	-11.95
現其	-11.9501
何趣	-11.9504
青黃	-11.9506
生眼智明覺	-11.9508
射分定	-11.9512
已滿	-11.9514
大七	-11.9517
非前非後	-11.9517
應無差別	-11.952
發身語業	-11.9522
通取	-11.9525
果異熟	-11.9526
有緒	-11.9528
入正法	-11.9529
八無記	-11.9529
五順下分	-11.9529
集諦繫根法	-11.9532
處處說	-11.9532
雜修定	-11.9533
依九地	-11.9534
已生法	-11.9537
所引意識	-11.9537
陰想陰	-11.9539
三縛	-11.954
稱量	-11.954
▁漏	-11.9542
別劫	-11.9542
行邪行	-11.9544
修所斷染	-11.9545
如來無所著等正覺	-11.9546
今觀	-11.955
無有中愛	-11.9555
多用功	-11.9558
一起一住一滅	-11.9558
入息出息	-11.9558
符秦罽賓三藏僧伽提婆共竺佛念譯	-11.9561
隻	-11.9561
汝可	-11.9561
所破	-11.9561
名為同分	-11.9563
自上地	-11.9563
四類智	-11.9564
匱	-11.9565
四三二一	-11.9565
即彼隨眠緣此未斷	-11.9565
七十七智	-11.9566
名句文	-11.9568
傲	-11.9568
離欲法	-11.9568
燋熱	-11.9569
苦類智未已生	-11.957
毘舍佉	-11.957
一切忍現在前	-11.957
見色眼	-11.9571
橋	-11.9571
遶	-11.9571
胡	-11.9571
滅諦繫根法	-11.9571
乃至幾纏所纏	-11.9572
道諦繫根法	-11.9572
法為能作因	-11.9572
餓	-11.9572
共感一果	-11.9572
竹	-11.9572
我當說	-11.9572
謂空已滅不失	-11.9573
本得無漏智現在前	-11.9573
尤重	-11.9573
淚	-11.9573
當作是觀	-11.9573
而於此非所緣縛	-11.9573
織	-11.9574
外國師	-11.9574
液	-11.9574
羸弱	-11.9574
除上爾所	-11.9574
囊	-11.9575
牟	-11.9575
汝何所欲	-11.9575
階	-11.9575
非見亦非見處	-11.9575
及現在非過去	-11.9576
涅	-11.9576
兜	-11.9576
寤	-11.9576
一切不善法	-11.9577
此中有愛結前生未斷者	-11.9577
朽	-11.9577
曼馱多	-11.9577
寸	-11.9577
謂諸具縛補特伽羅	-11.9577
五不善處	-11.9578
不俱起	-11.9578
任運轉故	-11.9578
漸次順次相續次第數為第	-11.9578
撥為無	-11.9578
徐	-11.9579
滅盡正受	-11.958
除異熟及離繫	-11.958
見所斷修所斷	-11.958
一起便住	-11.958
姚秦罽賓三藏曇摩耶舍	-11.958
匠	-11.958
場	-11.9581
形貌	-11.9581
無相違過	-11.9581
研	-11.9581
慼行轉	-11.9581
瑟	-11.9581
輿	-11.9582
黑繩	-11.9582
通據	-11.9582
與慈	-11.9582
迅速	-11.9582
麟喻	-11.9582
珊	-11.9582
無記性故	-11.9583
正念正知	-11.9584
起他心智現在前	-11.9584
尊上彼	-11.9584
清淨品	-11.9584
如先所說	-11.9585
此有三種	-11.9585
為分別慧	-11.9585
更求	-11.9585
從果為名	-11.9586
廣說乃至勵意不息	-11.9586
心平等性	-11.9586
眼觸所生思	-11.9586
餘位不爾	-11.9586
已生今生當生不定	-11.9587
取非至境	-11.9587
吸	-11.9587
有為沙門果	-11.9587
能引後	-11.9587
例亦應然	-11.9588
江	-11.9588
第九品惑	-11.9588
有為所緣縛非相應縛	-11.9588
沙門釋光述	-11.9588
秤	-11.9589
現法受	-11.9589
富春沙門遁麟述	-11.959
執受大種為因聲	-11.959
惡意	-11.959
心向彼	-11.9591
皆是苦	-11.9592
次舉頌答	-11.9593
脩習	-11.9593
觀他	-11.9594
不可樂	-11.9594
便生喜足	-11.9594
劫盜	-11.9594
爛壞	-11.9595
一向倒	-11.9595
無如是義	-11.9596
有部答也	-11.9596
獨覺菩提	-11.9596
若遠若近	-11.9597
無願定	-11.9597
此眾生若根成就	-11.9597
欲染瞋恚	-11.9598
近緣	-11.9598
我今應	-11.9598
與他心智相應	-11.9598
欲有相續	-11.9599
上正決定	-11.9599
得果滅盡定	-11.96
三十四念	-11.96
是以不	-11.96
然無評家	-11.96
眼觸不苦不樂受	-11.9601
由一切因	-11.9601
不可見無對	-11.9602
苦類智斷	-11.9603
忘念	-11.9603
出母胎	-11.9604
散動	-11.9604
此釋不然	-11.9605
意觸不苦不樂受	-11.9606
見苦見集所斷	-11.9606
隨念分別	-11.9606
釋後兩句	-11.9607
天雨	-11.9607
已離第三靜慮染	-11.9608
鼓聲	-11.9609
若成就法智	-11.961
有四支	-11.9611
無煩天	-11.9611
無所顧	-11.9611
第一師	-11.9615
大臣	-11.9617
集異門論	-11.9617
爾時名為	-11.9618
且初明	-11.9618
貪所繫	-11.9622
三和合觸	-11.9623
靜慮無漏律儀	-11.9624
於已得	-11.9625
善說法中	-11.9626
眾同分中	-11.9626
具四緣	-11.9626
禪果	-11.9626
彼地無	-11.9626
餘不定如前	-11.9627
假我	-11.9627
諸染污心	-11.9627
有中夭	-11.9628
被縛	-11.9628
來生此	-11.9629
於今時	-11.9629
樂喜捨根	-11.9629
牽後有	-11.9631
顯彼對治	-11.9631
心定不成就	-11.9631
學者生無色界	-11.9633
喜心定	-11.9635
無斷法	-11.9636
漸現觀	-11.9637
有覺觀	-11.9637
王宮	-11.964
取為緣	-11.964
動搖	-11.9641
名世俗諦	-11.9642
唯緣自地	-11.9643
無慚無愧不相應	-11.9643
下中品	-11.9644
邪見撥無	-11.9644
處中無表	-11.9645
增長廣大	-11.9645
當言為緣	-11.9646
法界所攝	-11.9647
師子吼	-11.9648
修四行相	-11.9648
能得清淨	-11.9651
近事戒	-11.9651
所厭	-11.9652
過去未來現在法	-11.9653
四意止	-11.9653
或樂根相應	-11.9654
受不律儀	-11.9654
上三句	-11.9654
經律	-11.9654
正在定	-11.9655
無熱天	-11.9655
神用	-11.9656
遍沒	-11.9657
智作證	-11.9658
等言為顯	-11.966
有情相續	-11.9662
為愛結所繫	-11.9662
無中夭	-11.9663
四天王天	-11.9667
得現法樂住	-11.9668
方名為	-11.9669
有二說	-11.9669
現在未來五	-11.9672
滅類智忍	-11.9674
眼識所識	-11.9677
千劫	-11.9678
五不還	-11.968
云何應修	-11.9681
始從	-11.9682
尋伺相應	-11.9682
成就過去現在	-11.9683
分別記	-11.9683
一切染污法	-11.9685
於他有情	-11.9685
速證	-11.9685
欲界化	-11.9687
殺罪	-11.9688
諸佛皆	-11.9688
曾習	-11.9689
而闕	-11.969
慈滿	-11.9694
不可稱	-11.9696
云何知根	-11.9696
通果心俱	-11.9697
能到	-11.9698
善染污	-11.9698
相遠	-11.9699
故名同分	-11.97
第九品染	-11.9701
不見色眼	-11.9702
修八智	-11.9706
謂眼處	-11.9706
最後剎那	-11.9708
巳知	-11.9708
一師	-11.9709
受教	-11.9709
皆通二種	-11.971
行相轉故	-11.9713
自然因	-11.9713
耳界	-11.9714
靜慮各二種	-11.9715
欲界色界無色界	-11.9716
殖順解脫分	-11.9717
第三解	-11.972
須陀洹斯陀含	-11.9721
及出定心	-11.9722
四沙門果攝	-11.9724
有色等	-11.9724
五濁	-11.9725
是故名	-11.9725
或無者	-11.9726
無一補特伽羅	-11.9726
須陀洹果攝	-11.9727
相無差別	-11.9729
八月	-11.9729
色界見集所斷	-11.973
若色入	-11.973
佛正法	-11.9733
答前說	-11.9736
與此相應	-11.9736
准釋	-11.9738
識宿命智	-11.9739
得大果	-11.974
一縷	-11.9741
緣他身	-11.9743
戲笑	-11.9743
嗔恚	-11.9744
以不定故	-11.9745
有情數法	-11.9753
難知故	-11.9753
現法果	-11.9753
緣學	-11.9754
互相依	-11.9756
三界五部	-11.9757
處轉	-11.9762
展轉因	-11.9764
能牽引	-11.977
諸不還者	-11.9774
非應理	-11.9774
不立為根	-11.9775
無有失	-11.9775
故不應言	-11.9777
三節	-11.9782
答四沙門果	-11.9783
淨等至	-11.9784
此二俱是	-11.9785
在意識	-11.9787
不相應行陰	-11.979
是沙門果	-11.979
捨近行	-11.9791
聖戒	-11.9792
生住老無常	-11.9792
於五見	-11.9793
胎時	-11.9795
有一類補特伽羅	-11.9795
捨意近行	-11.9796
別分	-11.9799
說六界	-11.9801
欲界生得	-11.9803
資生	-11.9805
別緣故	-11.9805
色界繫法現在前	-11.9807
謂四大種	-11.9807
何處起	-11.9808
禮敬	-11.9808
十大地法	-11.9808
是色相	-11.9809
極少八	-11.981
無間斷	-11.9811
見苦集斷	-11.9811
驚怖	-11.9812
由有此	-11.9817
所熏	-11.9817
不受異熟	-11.9818
欲饒益	-11.9821
聖道現在前	-11.9821
不相雜	-11.9824
他勝	-11.9827
王臣	-11.983
已下一頌	-11.9831
是聖種	-11.9833
色聲香味	-11.9836
堅持	-11.9838
作障礙	-11.984
之物	-11.9841
成就無色界繫善心	-11.9845
修慈	-11.9847
諸異熟果	-11.9847
勸學	-11.9847
名為擇滅	-11.9849
同類遍行因	-11.9854
將入	-11.9856
無教戒	-11.9857
住律儀者	-11.9857
非所斷法	-11.9857
所生處	-11.986
轉作	-11.986
彼根或緣	-11.9861
身痛	-11.9861
不染著	-11.9862
從此大文第	-11.9863
詰問	-11.9864
名阿	-11.9865
他種	-11.9866
娑羅	-11.9869
尊者婆	-11.9869
妙觸	-11.9869
戀	-11.987
十萬	-11.9873
假法	-11.9877
最廣	-11.9881
二十一種	-11.9883
眼耳等	-11.9883
疑無明	-11.9886
間住	-11.9887
不能害	-11.989
相應使非緣者	-11.9892
等等取	-11.9893
異熟相續	-11.9894
為主	-11.9895
有二十八	-11.9895
無明瀑流	-11.9895
隨煩惱中	-11.9896
對觸	-11.9898
不必須通	-11.9899
及根見集	-11.9899
是彼對治	-11.9902
思念	-11.9902
密說	-11.9904
謀害	-11.9905
於三諦	-11.9906
謗無	-11.9906
善五陰	-11.991
逝	-11.9911
此心復從	-11.9915
也又解	-11.9915
弄	-11.9917
是有情數	-11.9917
或執出離	-11.9918
謂根見苦斷	-11.9919
無此事	-11.9921
離欲地	-11.9921
無為沙門果	-11.9923
微薄	-11.9924
琉璃	-11.9924
因不相應法	-11.9925
鞞婆沙論	-11.9925
無垢人生無色界	-11.9925
但顯	-11.9925
欻	-11.9925
欲界繫見苦所斷心	-11.9926
受罪	-11.9927
牢獄	-11.9927
植	-11.9927
咽	-11.9927
盈	-11.9928
若成就善色	-11.9929
善染污無覆無記	-11.9929
不可說彼或彼或異	-11.9929
摸	-11.9929
已修已息	-11.993
是謂此處略毘婆沙	-11.993
奢摩他毘鉢舍那	-11.993
三阿僧祇劫	-11.993
無善身語表	-11.993
總相別相	-11.993
欣慕	-11.993
法為體	-11.9931
閑靜	-11.9931
若生極光淨	-11.9931
何繫心心所滅	-11.9931
所修未來麁等三行相	-11.9931
住不律儀及非律儀非不律儀	-11.9931
頂位	-11.9931
九結所繫	-11.9932
如前已釋	-11.9932
鏡面	-11.9933
校	-11.9933
成就眼界	-11.9933
愚於	-11.9934
剃除鬚髮	-11.9934
訓	-11.9934
一起不滅	-11.9934
造色色非可見色	-11.9934
煩惱諍	-11.9935
福非福	-11.9935
非次第亦非次第緣緣	-11.9935
此中義意	-11.9935
固執	-11.9936
親近善知識	-11.9936
復次此四果位	-11.9936
多諸過患	-11.9936
發出度	-11.9936
瘦	-11.9936
卑賤	-11.9937
此例不然	-11.9937
閡	-11.9937
〕	-11.9937
過去空耶	-11.9937
煗頂忍世第一法	-11.9938
可愛境	-11.9938
非無記非無記為因	-11.9938
見聞覺知	-11.9938
丈	-11.9938
薩埵	-11.9938
此是佛經	-11.9938
遍知所緣故斷	-11.9938
推度性故	-11.9939
艱辛	-11.9939
七智知除苦集滅智	-11.9939
相似善根	-11.9939
瑠璃	-11.9939
諸大聲聞	-11.9939
生上三定	-11.9939
類此應知	-11.9939
不一不異	-11.9939
如順正理	-11.9939
傾向彼	-11.994
非極成故	-11.994
欻然	-11.994
何意	-11.9941
又六因中	-11.9941
白白異熟業	-11.9941
富異熟果	-11.9941
沈沒	-11.9943
作威勢緣勝	-11.9943
毛端	-11.9943
咸作是說	-11.9943
可意不可意	-11.9944
觀欲界苦	-11.9944
若言為我說	-11.9945
盤	-11.9945
極增上	-11.9945
俱舍頌疏記論本第	-11.9946
言非苾芻	-11.9946
令不起	-11.9946
非有邊非無邊	-11.9947
敷演	-11.9947
●	-11.9947
離三界染	-11.9947
案	-11.9947
地種	-11.9948
以因緒緣故	-11.9948
修妙相業	-11.9949
誑惑	-11.9949
聖者以世俗道	-11.995
無漏斷得	-11.995
十二有支	-11.9951
幾根現前	-11.9951
百八受	-11.9952
云何當令	-11.9952
巨	-11.9952
苦智習智	-11.9954
設成就過去未來	-11.9954
金剛喻定現在前時	-11.9955
諸無色界繫有覆無記心	-11.9956
於一剎那	-11.9957
身口意業	-11.9958
黠慧	-11.9958
下文云	-11.9958
并學無學	-11.9959
曾當	-11.9959
而不廣分別	-11.996
容預	-11.996
雜心云	-11.9961
戒執取	-11.9962
爾時阿難	-11.9962
無盡智無生智	-11.9962
東南	-11.9962
見滅道斷	-11.9963
斷一切及一切遍	-11.9963
十地	-11.9966
經幾時	-11.9966
為遣	-11.9969
證擇滅	-11.997
文字	-11.997
犯重人	-11.997
軟軟	-11.9971
若謂不然	-11.9972
四身繫中	-11.9974
有三十二	-11.9974
伴類	-11.9975
一行半頌	-11.9975
三垢	-11.9976
見初靜慮	-11.9976
得生住老無常	-11.9978
汝等應	-11.9978
貪慢結	-11.9978
不移	-11.9978
憍陳那等	-11.9979
如彼論說	-11.9979
遍行惑	-11.998
被障	-11.9984
相續久住	-11.9985
體未斷所緣未斷	-11.9985
作斯	-11.9985
如是八種	-11.9987
勝論師	-11.9987
且止	-11.9988
前後相違	-11.999
有漏無漏法	-11.999
善現天	-11.9992
秦言	-11.9995
九隨眠隨增	-11.9996
出生死	-11.9996
依無所有處	-11.9997
標釋	-11.9998
有多剎那	-11.9999
金色	-12.0003
淨穢	-12.0004
轉轉	-12.0004
非不善心	-12.0005
賢聖品	-12.0006
說一切有部難	-12.0006
非相應縛	-12.0006
現在未來四	-12.0007
眾生想	-12.0009
於此八智	-12.0011
初無學心	-12.0012
憶持	-12.0012
畜生趣	-12.0013
欲界一切使使	-12.0013
非相應繫	-12.0013
受具戒	-12.0015
思惟觀察	-12.0017
見斷法斷	-12.0023
於如是時	-12.0023
心不相應法	-12.0023
獨覺乘	-12.0023
得生老住無常	-12.0028
自性不善	-12.0029
互相似	-12.0031
如是契經	-12.0032
諸慧	-12.0032
修神足	-12.0033
依心轉	-12.0034
上加	-12.0035
樂支	-12.0036
亦如上說	-12.0036
諦境	-12.0037
云何無癡善根	-12.0039
如次應知	-12.0039
是故無過	-12.0041
慼行相轉	-12.0042
婆沙一百八十	-12.0045
釋女	-12.0047
多語	-12.0048
云何為六	-12.0049
世俗諦	-12.0049
照明	-12.0049
為依因	-12.0049
何以知	-12.0052
根境識三	-12.0052
不緣無漏	-12.0053
俱有等	-12.0055
不染污法	-12.0055
口中	-12.0055
順苦受觸	-12.0055
如色說	-12.0056
有覆無覆	-12.0056
見道生時	-12.0057
未說者	-12.0058
又於此中	-12.0058
勝義苾芻	-12.0058
及遍行隨眠	-12.0061
四無色解脫	-12.0062
現在前位	-12.0063
無明為緣	-12.0063
所餘隨眠	-12.0064
是則不應	-12.0064
違順	-12.0068
明昧	-12.0068
是彼同分	-12.007
不變	-12.007
生無所有處	-12.0072
知他有漏心	-12.0074
斷智時	-12.0075
超越人	-12.0076
正見正智	-12.0076
忍亦爾	-12.008
非一果故	-12.008
得別解脫戒	-12.0081
暖法	-12.0082
第三剎那	-12.0085
二眼見色	-12.0087
作此論	-12.0088
名勝義諦	-12.0089
能頓	-12.009
六善處	-12.009
詳其	-12.0091
三清淨	-12.0091
色界繫心俱	-12.0093
是倒	-12.0095
當地	-12.0095
苦際	-12.0097
臨入	-12.0099
亦修未來	-12.0102
不圓滿	-12.0104
如是所說至	-12.0105
幾修所斷	-12.0105
過去諸法	-12.0106
全離染	-12.0106
是何義耶	-12.0107
不善為因	-12.0108
無威德	-12.011
設有現在	-12.011
十門	-12.0111
雖殊	-12.0111
犢子部答	-12.0112
十二因緣	-12.0116
能殺者	-12.0117
可意聲	-12.0118
迷理	-12.012
忍相應	-12.0121
他財	-12.0123
設復	-12.0124
惡魔	-12.0125
此論文	-12.0125
憂根相應	-12.0126
非欲界繫有覆無記心	-12.0127
通五蘊	-12.0128
彼由如是	-12.0129
恚結繫耶	-12.0129
離染道	-12.0131
與此論	-12.0137
無限	-12.0139
智自遍知	-12.014
更不生	-12.0147
不修上	-12.0148
其文	-12.015
高廣	-12.0153
作苦邊際	-12.0155
當言為因	-12.0156
調順	-12.0158
色界身見	-12.0158
無漏無表	-12.0163
謂順現法受	-12.0163
無有功能	-12.0163
習近	-12.0165
有三事	-12.0167
善受持	-12.0171
法捨意近行	-12.0171
無色界繫心	-12.0172
我許	-12.0175
類智耶	-12.0177
決了	-12.0178
非緣使亦非相應使	-12.0178
間斷	-12.0179
修四念住	-12.018
苦法智生	-12.0186
彼論說	-12.0188
約所依	-12.019
一一有情	-12.0192
無想有情天	-12.0192
財供養	-12.0198
法二俱解脫	-12.0203
前進	-12.0204
具顯	-12.0205
劫量	-12.0205
退分定	-12.0206
心進	-12.0208
金等	-12.021
四大造色	-12.0213
善有報	-12.0217
善意識	-12.0219
半劫	-12.0219
戒禁取攝	-12.0219
無量空處	-12.022
彼根或因	-12.0221
纔生	-12.0221
無漏果耶	-12.0222
魔軍	-12.0225
修道所斷使	-12.023
一切律儀	-12.023
此即第三	-12.023
有非有	-12.0231
此六因	-12.0231
有漏緣使使	-12.0232
前後次第	-12.0232
夫言	-12.0235
非執受	-12.0235
水大	-12.0239
所顯故	-12.024
轉異	-12.0241
聲聞道	-12.0242
過去四大	-12.0245
能制	-12.0247
永無	-12.0249
修斷法	-12.0249
欲界有漏緣	-12.026
留捨	-12.0266
晝增	-12.0266
為諸弟子	-12.0268
他相續中	-12.0269
引自果	-12.027
外種	-12.027
成就欲界繫有覆無記心	-12.027
有善巧作意	-12.0271
名士用果	-12.0278
起不淨觀	-12.0278
此經意	-12.0279
羅國	-12.0281
未得無漏智現在前	-12.0282
齊是	-12.0284
外門	-12.0285
若前不生	-12.0285
若空若無我	-12.0285
灌	-12.0285
色等蘊	-12.0286
無量光天	-12.0291
遍淨愛未盡	-12.0292
使斷智三結永盡	-12.0293
因者二因	-12.0294
佐	-12.0294
當言為因當言為緣	-12.0295
發律儀	-12.0295
次舉頌答後釋頌本	-12.0296
謂生欲界住律儀	-12.0296
莊飾	-12.0296
煩惱現行	-12.0296
藕	-12.0297
姊妹	-12.0297
怠	-12.0297
所修行苦法智	-12.0297
藍	-12.0298
不說業相應非業相應	-12.0298
等無間耶	-12.0298
無上正等菩提	-12.0298
稠林	-12.0299
彼異於彼	-12.0299
空三摩地已起滅不失	-12.03
如伽他說	-12.03
蘭	-12.03
於被障色	-12.03
漏盡智證明	-12.03
澡	-12.0301
何繫心心所現前	-12.0301
諸思等思	-12.0301
母胎中	-12.0302
鷄	-12.0302
人若想憶想	-12.0303
果非有果	-12.0303
非不善亦非不善因	-12.0303
天帝	-12.0303
未滅設滅已失	-12.0303
剪剃	-12.0303
二欲界見集所斷	-12.0304
誨	-12.0304
蓮華	-12.0304
勞倦	-12.0304
瞋恚愚癡	-12.0305
隨流非流	-12.0305
九根少分相應	-12.0305
日初分	-12.0305
鐘	-12.0305
捕	-12.0305
依無覺無觀三昧	-12.0306
踊躍	-12.0306
軌	-12.0306
攝種性諸根	-12.0306
心知分別	-12.0306
今次應辯	-12.0306
不招異熟	-12.0307
嚴具	-12.0307
四向四果	-12.0307
所緣已斷其體未斷	-12.0307
共曇摩崛多等譯	-12.0307
式	-12.0308
弓	-12.0308
有五事	-12.0308
浪	-12.0308
處非處智力	-12.0308
所緣已斷其體已斷	-12.0308
昇進	-12.0308
見解射方便	-12.0309
諸餘染污苦諦	-12.0309
半擇	-12.0309
雞	-12.031
極微細故	-12.031
淳熟	-12.031
所起於法簡擇乃至毘鉢舍那	-12.031
見道所斷有漏緣隨眠	-12.031
是次第緣	-12.031
理且可然	-12.0311
一晝一夜	-12.0311
有心無心	-12.0311
砂	-12.0311
法智比智等智	-12.0311
身語意妙行	-12.0311
慶慰	-12.0311
不善心捨不成就得成就	-12.0312
及見苦集所斷非遍行	-12.0312
奇哉	-12.0312
欝單越	-12.0312
特	-12.0312
蒲桃	-12.0312
論意各別	-12.0312
癈	-12.0312
番	-12.0312
舊隨界	-12.0313
心隨轉心不相應行	-12.0313
津漏	-12.0314
純黑	-12.0314
沒欲界生時	-12.0314
如種子法	-12.0314
黨	-12.0314
如餘處說	-12.0315
見所斷業	-12.0315
慈悲喜捨	-12.0315
至色究竟	-12.0315
又若爾者	-12.0316
潤益	-12.0316
依果報果	-12.0317
色十一中	-12.0318
法入中	-12.0319
頭痛	-12.0319
欲界善業	-12.032
卷第十四	-12.032
釋第一句	-12.0321
由二因緣	-12.0321
學六覺支	-12.0321
理亦不成	-12.0321
我已修道	-12.0322
[...]
