<unk>	0
<s>	0
</s>	0
。	-2.33998
,	-2.74438
、	-2.91839
!	-4.45936
者	-4.93833
故	-4.9742
?	-4.9984
若	-5.02738
;	-5.0618
也	-5.26248
。「	-5.39613
:「	-5.48028
何以故	-5.49014
是	-5.49491
以	-5.63359
世尊	-5.65741
善現	-5.71291
為	-5.71477
行	-5.787
有	-5.82822
)	-5.84291
(	-5.87009
不	-5.8974
即	-5.91899
無	-5.95597
之	-5.96649
法	-5.97249
而	-5.99549
如	-6.00748
中	-6.07474
此	-6.08713
二	-6.10064
於	-6.10141
空	-6.11443
心	-6.11769
。」	-6.11985
如是	-6.12295
須菩提	-6.1305
相	-6.15729
菩薩	-6.1607
身	-6.18389
說	-6.18536
非	-6.1872
等	-6.18899
▁	-6.19827
言	-6.2501
無二	-6.25174
一	-6.27221
無別	-6.29907
謂	-6.33745
名	-6.33747
無二分	-6.3447
無斷故	-6.35379
得	-6.35757
則	-6.38328
時	-6.39897
生	-6.40397
佛	-6.41497
復次	-6.42487
受	-6.49176
人	-6.50722
:	-6.51157
三	-6.51796
想	-6.52295
若一切智智清淨	-6.5348
?」	-6.55421
亦	-6.5575
▁*	-6.58646
見	-6.59121
色	-6.6189
。】「	-6.6312
我	-6.63749
明	-6.63881
經	-6.64495
及	-6.65483
。」【	-6.65962
」	-6.66924
識	-6.70657
如來	-6.71485
應	-6.72438
皆	-6.73146
義	-6.73645
?」「	-6.75217
其	-6.75449
觀	-6.76507
眾生	-6.78545
滅	-6.83329
:『	-6.83405
下	-6.83614
至	-6.85435
住	-6.86487
乃至	-6.89621
一切	-6.90034
自	-6.90802
無相	-6.90852
云	-6.91633
耳	-6.91835
諸	-6.93224
不也	-6.93789
「	-6.94156
彼	-6.94939
舌	-6.95047
離	-6.95985
鼻	-6.9673
與	-6.9677
四	-6.97225
能	-6.98202
舍利子	-6.98619
大	-6.98765
又	-6.99595
佛言	-7.00061
因	-7.00447
已	-7.00651
起	-7.01161
後	-7.01228
云何	-7.04974
上	-7.05132
真如	-7.05263
入	-7.06082
性	-7.06153
初	-7.07603
所	-7.08014
處	-7.0937
憍尸迦	-7.09952
般若波羅蜜多	-7.10553
般若	-7.10592
或	-7.10659
智	-7.10834
觸	-7.11015
作	-7.11569
當	-7.12333
知	-7.12935
從	-7.13855
雖	-7.15227
今	-7.15725
所以者何	-7.16362
由	-7.16593
耶	-7.17349
修	-7.18058
前	-7.18414
道	-7.18445
】	-7.19201
精進	-7.20993
欲	-7.22102
清淨故一切智智清淨	-7.22192
然	-7.2271
曰	-7.22878
取	-7.23566
!」「	-7.23672
多	-7.2474
在	-7.26507
成	-7.26738
意	-7.26787
問	-7.27374
常	-7.28921
即是	-7.29489
令	-7.2975
解	-7.30462
果	-7.30466
般若波羅蜜	-7.3157
。』	-7.31601
求	-7.31717
事	-7.32031
香	-7.32108
爾時	-7.32187
味	-7.33866
法性	-7.34585
菩薩摩訶薩	-7.34726
但	-7.34851
依	-7.35121
法界	-7.36566
清淨	-7.36592
出	-7.36677
聲	-7.37464
疏	-7.38776
五	-7.38956
是故	-7.40868
集	-7.41222
釋	-7.43211
不見	-7.44178
諸法	-7.44741
。」「	-7.44963
分	-7.45041
定	-7.45792
故云	-7.45994
念	-7.46068
水	-7.46283
苦	-7.46916
來	-7.48214
盡	-7.48435
名為	-7.48671
火	-7.49585
既	-7.50435
答	-7.51232
諸佛	-7.52052
功德	-7.52074
不得	-7.53078
斷	-7.53168
教	-7.53903
善	-7.54072
同	-7.5417
乃	-7.54436
靜慮	-7.54985
淨	-7.55022
正	-7.553
布施	-7.55416
聞	-7.55504
本	-7.56376
天	-7.56426
證	-7.56785
地	-7.5681
論	-7.57218
安忍	-7.57296
一切智	-7.57726
顯	-7.57797
所謂	-7.57944
矣	-7.58145
不能	-7.5865
可	-7.5884
是菩薩摩訶薩	-7.5912
風	-7.59823
無量	-7.6013
一切相智	-7.60515
復	-7.60753
通	-7.61893
道相智	-7.62022
用	-7.63686
一切法	-7.64691
勝	-7.6497
學	-7.65781
眾	-7.66564
.	-7.66643
是名	-7.66752
樂	-7.67631
具	-7.67667
便	-7.68348
緣	-7.68487
三昧	-7.68743
著	-7.69488
於意云何	-7.69488
淨戒	-7.69506
真	-7.69637
施	-7.69681
九次第定	-7.6996
。【	-7.70292
實	-7.70565
因緣	-7.70783
具足	-7.71046
無明	-7.71384
難	-7.71498
分別	-7.71631
巳	-7.71874
汝	-7.72322
四無色定	-7.72383
破	-7.72719
四無量	-7.73205
隨	-7.73369
語	-7.73507
體	-7.73729
▁|	-7.74815
六	-7.75005
文	-7.75018
供養	-7.75522
智慧	-7.76003
大悲	-7.76239
修行	-7.77009
亦無	-7.77048
慧	-7.77199
先	-7.77398
世間	-7.77577
次	-7.77793
異	-7.77984
現	-7.78031
受持	-7.78325
無有	-7.78629
王	-7.79033
不可得	-7.79247
有情	-7.79707
理	-7.7979
所以	-7.79839
引	-7.81266
菩提	-7.81408
可得	-7.81483
信	-7.81815
字	-7.82273
布施波羅蜜多	-7.82296
唯	-7.82321
善女人等	-7.834
合	-7.83652
攝	-7.84414
五眼	-7.85037
持	-7.85536
一切智智清淨故	-7.85807
成就	-7.86051
門	-7.86184
聲聞	-7.8648
無願解脫門	-7.86582
實際	-7.86936
捨	-7.87287
涅槃	-7.88614
俱	-7.8874
忍	-7.89102
亦不	-7.89428
愛	-7.89983
。△	-7.90165
餘	-7.90329
若菩薩摩訶薩	-7.90543
廣	-7.90849
種種	-7.91138
》	-7.91338
道聖諦	-7.91436
增語是菩薩摩訶薩不	-7.91604
六神通	-7.91796
何	-7.91857
煩惱	-7.91893
未	-7.92206
方便	-7.92319
轉	-7.92679
別	-7.92901
力	-7.93487
不生	-7.94089
覺	-7.94214
不可	-7.94396
外	-7.94774
品	-7.94812
甚深般若波羅蜜多	-7.9554
境	-7.95889
業	-7.96049
疑	-7.96172
執	-7.96451
遠離	-7.96589
不著	-7.96858
諸菩薩摩訶薩	-7.97481
除	-7.97752
八	-7.97873
四靜慮	-7.98207
八勝處	-7.98361
化	-7.98725
七	-7.98844
度	-7.98883
答曰	-7.99705
舍利弗	-8.00143
第二	-8.00507
大慈	-8.00788
自性空	-8.00837
不還	-8.01061
自性	-8.01064
舉	-8.01184
平等	-8.01267
當知	-8.01437
四無所畏	-8.01458
大喜	-8.02014
迴向一切智智	-8.02408
解脫	-8.03129
此是	-8.0341
深	-8.0347
五根	-8.03504
是為	-8.03622
!」	-8.03778
記	-8.03826
戒	-8.03889
大捨	-8.04022
位	-8.04119
無所得為方便	-8.04562
四無礙解	-8.04914
喻	-8.05254
過	-8.05261
乎	-8.05834
十遍處	-8.06001
去	-8.06119
譬如	-8.06227
佛十力	-8.06865
問曰	-8.06999
畢竟空	-8.07012
故名	-8.07085
不住	-8.07734
此中	-8.08028
恒住捨性	-8.08466
十	-8.08489
數	-8.08759
一切智智	-8.09402
無生為方便	-8.10034
須菩提言	-8.10201
福	-8.10249
法身	-8.11631
四念住	-8.11686
。○	-8.12198
內空	-8.12255
內	-8.12954
願	-8.13042
於此	-8.13111
大乘	-8.13292
善男子	-8.13339
發	-8.13584
生死	-8.14039
立	-8.14076
五力	-8.14148
實相	-8.14312
等者	-8.14358
此經	-8.14602
十八佛不共法	-8.15262
福德	-8.15489
善女人	-8.15744
金剛	-8.16154
無生	-8.16171
無二為方便	-8.16187
所有	-8.16305
方	-8.16569
本性空	-8.16714
師	-8.17177
是菩薩	-8.17435
世界	-8.17598
四神足	-8.17632
正等覺	-8.18608
若善男子	-8.18747
必	-8.18967
法處	-8.19219
說法	-8.19468
他	-8.19574
第一	-8.20461
八解脫	-8.20483
小	-8.205
第三	-8.20543
重	-8.20823
總	-8.20823
界	-8.20937
眼	-8.21028
悉	-8.21142
意處	-8.21573
是善男子	-8.21622
照	-8.21649
會	-8.22095
不應	-8.22247
佛告善現	-8.2286
無我	-8.23424
示	-8.23632
一切法空	-8.23866
要	-8.24147
了	-8.24151
七等覺支	-8.24327
所說	-8.24429
還	-8.24904
《	-8.25054
無所有	-8.25117
佛法	-8.25187
亦如是	-8.25412
對	-8.25495
讀誦	-8.25576
識界	-8.25638
略	-8.25936
平等性	-8.2641
無忘失法	-8.2657
就	-8.26932
空空	-8.27527
一切陀羅尼門	-8.27721
空解脫門	-8.2773
悟	-8.28115
巳下	-8.28115
不行	-8.28328
惡	-8.2861
物	-8.28708
色界	-8.28718
意界	-8.28793
自相空	-8.28972
凡夫	-8.29081
結	-8.29258
德	-8.29632
更	-8.29831
兩	-8.30114
妙	-8.30659
報	-8.30718
世	-8.30996
慶喜	-8.31225
各	-8.31445
少	-8.31818
約	-8.32029
法住	-8.32062
一切眾生	-8.32427
內外空	-8.32431
寶	-8.32486
自在	-8.32751
根	-8.32807
思惟	-8.33296
共	-8.33367
一來	-8.34124
過去	-8.34629
日	-8.34668
阿羅漢果	-8.347
大空	-8.34717
三摩地	-8.34812
四正斷	-8.35376
現在	-8.35501
一切三摩地門	-8.35534
不知	-8.35732
不為	-8.35995
利	-8.36023
無所	-8.36477
無常	-8.36496
無為空	-8.37006
甚多	-8.37159
是人	-8.3739
不可得空	-8.37475
無為	-8.37568
有為空	-8.37718
不可得故	-8.37727
將	-8.37903
八聖道支	-8.38123
苦聖諦	-8.38148
善根	-8.38632
二者	-8.38648
莊嚴	-8.38992
子	-8.39289
勝義空	-8.40076
指	-8.40128
障	-8.4051
究竟	-8.40629
眼處	-8.40876
相應	-8.41072
終	-8.41345
無邊	-8.41375
眼界	-8.4141
獨覺	-8.41431
無性空	-8.41485
使	-8.41578
開	-8.41795
食	-8.41943
而不	-8.42191
無際空	-8.42235
一者	-8.42455
二乘	-8.42611
亦復如是	-8.4263
佛告須菩提	-8.42636
散空	-8.42824
失	-8.42919
極	-8.43008
不同	-8.43456
趣	-8.43458
之法	-8.43476
塵	-8.43715
順	-8.43972
種	-8.44037
華	-8.44065
法定	-8.44135
未來	-8.44728
三界	-8.44998
不應觀	-8.45003
不變異性	-8.45031
光	-8.45265
虛空界	-8.45605
不虛妄性	-8.46145
。』「	-8.46332
外空	-8.46405
離生性	-8.465
屬	-8.46724
?「	-8.46826
九	-8.46851
須	-8.47239
名色	-8.47309
色處	-8.47349
差別	-8.47638
共相空	-8.47643
宗	-8.47942
畢竟淨故	-8.47993
無變異空	-8.48064
聖	-8.48068
不應住	-8.48689
若有	-8.48692
凡	-8.49028
眼觸為緣所生諸受	-8.49028
習	-8.49066
須菩提白佛言	-8.49679
向	-8.49926
善現當知	-8.50101
圓滿	-8.50158
諸佛無上正等菩提	-8.50435
修習	-8.50881
阿羅漢	-8.50976
之心	-8.51002
由此	-8.51385
無漏	-8.51711
阿難	-8.51793
地界	-8.52405
不離	-8.52733
諸天	-8.5312
故言	-8.5317
歎	-8.53286
邪	-8.53682
好	-8.53727
滿	-8.53982
諸天子	-8.55283
僧	-8.5556
設	-8.557
無性自性空	-8.55758
二合	-8.56093
故曰	-8.56123
意觸為緣所生諸受	-8.56755
況	-8.57055
到	-8.57319
神	-8.57418
藏	-8.57506
獨覺菩提	-8.57795
甚深	-8.57857
豈	-8.58067
五陰	-8.582
非離	-8.58345
以是故	-8.58415
安	-8.58419
且	-8.58443
性空	-8.58986
皆是	-8.59219
讚	-8.59595
假	-8.59741
止	-8.59992
不可思議	-8.60014
妄	-8.60197
散	-8.60231
論云	-8.60435
國	-8.60498
病	-8.61601
辟支佛	-8.6191
大般若波羅蜜多經	-8.62305
斯	-8.62543
猶	-8.62558
安住	-8.62678
五蘊	-8.62704
蓋	-8.62984
顛倒	-8.63128
持戒	-8.63249
山	-8.6341
類	-8.63562
稱	-8.63715
善哉	-8.63762
夫	-8.63969
家	-8.64525
死	-8.64608
乘	-8.64635
果報	-8.64648
因果	-8.65027
句	-8.6507
達	-8.65252
故說	-8.65436
六處	-8.65495
不思議界	-8.66039
虛空	-8.66538
波羅蜜多	-8.66622
遠	-8.66636
遍	-8.6689
發心	-8.67055
之義	-8.67181
波羅蜜	-8.67339
壞	-8.67594
辨	-8.67615
尚	-8.67867
始	-8.67898
無上	-8.68221
無所得	-8.68411
足	-8.68431
近	-8.68496
動	-8.68818
歸	-8.69721
何況	-8.70002
有為	-8.70018
預流果	-8.70175
一切有情	-8.70249
月	-8.70655
無住	-8.70655
應求	-8.70778
印	-8.71119
之人	-8.71471
名字	-8.71704
哉	-8.71843
似	-8.72138
善法	-8.72654
舍利子言	-8.72765
真實	-8.72797
喜	-8.73041
真空	-8.73526
亦不可得	-8.73793
我當	-8.73863
諸菩薩	-8.73884
生滅	-8.74344
如此	-8.74374
魔	-8.74694
何故	-8.74708
次第	-8.7483
十方	-8.74938
迴向	-8.75215
迷	-8.75265
皆不可得	-8.75579
護	-8.7576
坐	-8.7589
如是等	-8.76086
▁初	-8.76103
亦非	-8.76872
惑	-8.76884
主	-8.77392
於一切法	-8.77953
一切菩薩摩訶薩行	-8.78073
無礙	-8.78154
受想行識	-8.78198
第四	-8.78618
寂靜	-8.78919
所作	-8.78957
請	-8.79314
佛說	-8.79503
於中	-8.79534
往	-8.79839
圓	-8.79865
是時	-8.80144
波若	-8.80206
貪	-8.80317
偈	-8.80657
此云	-8.80716
頭	-8.80763
▁二	-8.80952
一一	-8.81305
無著	-8.81494
誰	-8.8168
長	-8.81701
以為	-8.82306
益	-8.83174
莫	-8.83324
邊	-8.83603
歡喜	-8.83646
自然	-8.83843
執著	-8.83949
十地	-8.83996
流	-8.84286
三世	-8.84341
云何菩薩摩訶薩	-8.84344
供養恭敬	-8.84381
命	-8.84423
阿耨多羅三藐三菩提	-8.84708
高	-8.84751
情	-8.84775
得阿耨多羅三藐三菩提	-8.84839
神通	-8.85095
絕	-8.85135
口	-8.85139
形	-8.85163
寂	-8.85368
離相	-8.8554
善現答言	-8.85583
直	-8.85614
復有	-8.85709
不異	-8.8586
決定	-8.85919
思	-8.86479
利益	-8.86485
遣	-8.87022
禪定	-8.87172
以此	-8.87255
竟	-8.87319
經云	-8.87405
法相	-8.87474
是法	-8.87558
無生無滅	-8.87651
獨	-8.87736
罪	-8.87741
諦	-8.8781
一切如來	-8.88064
外道	-8.88072
不淨	-8.88242
空故	-8.88456
離故	-8.88565
如是般若波羅蜜多	-8.89008
禪	-8.89245
之中	-8.89348
造	-8.89427
目	-8.90461
金	-8.90881
有漏	-8.90892
六波羅蜜	-8.90987
法門	-8.90992
無得	-8.91113
非有	-8.9122
兼	-8.91421
白	-8.91444
遂	-8.91979
花	-8.92018
反	-8.92276
和合	-8.92341
一切種智	-8.92541
標	-8.92549
靜慮波羅蜜多	-8.9273
亦名	-8.92737
本無	-8.92771
本性	-8.92853
並	-8.9288
超	-8.92978
有相	-8.93174
墮	-8.93374
勸	-8.93572
何以	-8.93598
無所有故	-8.93601
鼻界	-8.9364
舌界	-8.93719
劫	-8.93797
微塵	-8.93911
樹	-8.94034
是為菩薩摩訶薩	-8.94067
恒	-8.94106
三乘	-8.94221
身界	-8.94238
不取	-8.94247
音	-8.94259
文字	-8.94283
卷	-8.94448
大王	-8.94529
耳界	-8.9459
意識界	-8.94647
普	-8.95037
百	-8.95162
不起	-8.95192
尊重讚歎	-8.9523
釋曰	-8.95374
攝受	-8.95482
注	-8.95586
不生不滅	-8.95841
二種	-8.95858
弟子	-8.96034
瞋	-8.96048
四句	-8.96218
聽	-8.96416
恐	-8.96521
光明	-8.96737
表	-8.96813
如幻	-8.97004
小乘	-8.97222
方便善巧	-8.97272
久	-8.97294
頌	-8.97373
四正斷乃至八聖道支	-8.97566
存	-8.97591
之所	-8.97617
一心	-8.97721
尊	-8.97814
法中	-8.97882
欲界	-8.98008
土	-8.98016
計	-8.9808
幻	-8.981
中道	-8.98106
應觀	-8.9829
爾	-8.98495
海	-8.98701
忍辱	-8.98745
何等	-8.98786
正法	-8.9894
蘊	-8.98955
作是念	-8.99356
色身	-8.99358
三摩地門	-8.99428
外空乃至無性自性空	-8.9949
尚畢竟不可得	-8.99611
經文	-8.99654
▁|(	-8.99674
惟	-8.99698
寂滅	-8.99732
比丘	-8.99742
之相	-8.99826
云何以	-9.00034
不受	-9.0027
不動	-9.00913
?』	-9.00995
無願	-9.01055
境界	-9.01059
書寫	-9.01245
以無所得而為方便	-9.01354
無二無二分故	-9.01372
無盡	-9.01861
三種	-9.02007
虗空	-9.02043
慈	-9.02591
千	-9.02688
安忍波羅蜜多	-9.02743
是學一切智智不	-9.03271
有所	-9.03473
易	-9.03847
增	-9.03893
俗	-9.03994
廣大	-9.0415
書	-9.04163
邪見	-9.04307
意觸	-9.04329
▁「	-9.04395
頌曰	-9.04633
嚴淨佛土	-9.04644
其心	-9.04664
若菩薩	-9.04822
夢	-9.05185
所得	-9.05296
細	-9.05563
出家	-9.05592
恭敬	-9.05606
聖人	-9.05696
亦是	-9.05803
母	-9.05967
如何可言	-9.06208
義也	-9.06248
傳	-9.06257
我等	-9.06358
一念	-9.06505
被	-9.06641
居	-9.06902
遮	-9.07005
誦	-9.07079
行者	-9.07358
女	-9.07542
加	-9.07649
可知	-9.07767
顯示	-9.07818
量	-9.07819
有所得	-9.07965
眼識界	-9.08133
悲	-9.08254
如汝所說	-9.08544
真性	-9.08739
聚	-9.08851
昔	-9.09309
相故	-9.09492
降伏	-9.09515
具壽善現復白佛言	-9.09544
無所有不可得	-9.0967
性非有故	-9.09727
謂之	-9.0983
無色	-9.10174
故知	-9.1026
以是	-9.10411
亦不見	-9.10438
最勝	-9.1058
無上正等菩提	-9.10604
手	-9.10671
不與	-9.10981
無法	-9.11025
有二種	-9.11167
只	-9.11245
眼識界及眼觸	-9.11351
耳識界及耳觸	-9.11621
身識界及身觸	-9.11902
舌識界及舌觸	-9.12168
善逝	-9.12246
全	-9.12266
意識界及意觸	-9.12268
鼻識界及鼻觸	-9.12304
染	-9.12315
獲	-9.12318
陀羅尼門	-9.12341
無分別	-9.12347
息	-9.12361
萬	-9.12472
是行般若波羅蜜多	-9.12554
終不	-9.12643
無作	-9.12674
善知	-9.12721
色相	-9.12738
我今	-9.12751
亦有	-9.12765
見者	-9.12994
希有	-9.13004
如何	-9.13044
根本	-9.13164
經中	-9.13344
漸	-9.13457
伏	-9.13788
薩婆若	-9.138
解曰	-9.13933
如實知	-9.1401
空生	-9.14251
成佛	-9.14313
七寶	-9.14394
精進波羅蜜多	-9.14749
諸有情類	-9.14788
三十二相	-9.14944
脫	-9.15014
是諸菩薩	-9.15017
▁後	-9.15145
有人	-9.152
不說	-9.15296
無性	-9.15357
三者	-9.15366
法界乃至不思議界	-9.15599
成熟有情	-9.15647
有二	-9.15764
於彼	-9.16092
中有	-9.16094
觀察	-9.16344
雖有	-9.16389
眼觸	-9.16654
若淨若不淨	-9.16854
若我若無我	-9.16965
法故	-9.17014
四相	-9.17199
則為	-9.17313
淨戒波羅蜜多	-9.17378
那	-9.1744
無異	-9.1755
云云	-9.1778
信解	-9.17847
彼岸	-9.18608
所言	-9.18789
不退	-9.18791
而有	-9.18865
于	-9.18892
慶喜當知	-9.19294
不可說	-9.19445
而生	-9.19449
像	-9.19525
虗	-9.19639
據	-9.19873
阿	-9.20078
一時	-9.20087
部	-9.201
老死愁歎苦憂惱	-9.20232
輪	-9.20376
善勇猛	-9.20393
觸界	-9.20479
未得	-9.20517
并	-9.20558
則無	-9.20744
此增語既非有	-9.2079
龍	-9.20875
隨順	-9.20912
又云	-9.20978
菩薩摩訶薩行般若波羅蜜	-9.21043
香界	-9.21062
味界	-9.21075
堅	-9.21507
諸相	-9.21509
發起	-9.21542
能生	-9.21549
地獄	-9.2166
而為	-9.21735
而無	-9.21807
受者	-9.21812
親	-9.21928
內外	-9.22023
永	-9.22049
三千大千世界	-9.22105
檀波羅蜜	-9.22232
焉	-9.22269
何況有彼	-9.22285
感	-9.22288
菩薩摩訶薩行般若波羅蜜多時	-9.2253
不以	-9.22573
若樂若苦	-9.22667
如理思惟	-9.22723
有三	-9.22738
無不	-9.2284
羅	-9.22885
國土	-9.22931
當說	-9.22967
無數	-9.23073
答言	-9.2316
第五	-9.23165
汝善男子應修	-9.23319
葢	-9.23449
若無	-9.23512
比	-9.23786
退	-9.23916
汝等	-9.24114
故名為	-9.24146
天中天	-9.24257
讚歎	-9.24288
即非	-9.24288
預流	-9.24317
對治	-9.24591
行乃至老死愁歎苦憂惱	-9.2468
城	-9.24722
堅固	-9.24782
衣	-9.24858
置	-9.24893
十二	-9.25076
癡	-9.25088
不信	-9.25174
應知	-9.25494
變	-9.25562
雙	-9.25777
亦爾	-9.25842
自性即非自性	-9.26059
彰	-9.26098
甚	-9.26225
言說	-9.26267
摩	-9.26381
有無	-9.26387
都	-9.26394
治	-9.26476
示現	-9.26523
復作是言	-9.2654
聲界	-9.26599
亡	-9.26627
無等等	-9.2688
四念處	-9.26915
汝復觀何義言	-9.26982
是般若波羅蜜	-9.27039
機	-9.27171
微	-9.27214
路	-9.27303
雲	-9.27318
無為法	-9.27402
不捨	-9.27476
翻	-9.27531
於汝意云何	-9.27656
五眾	-9.2767
證得無上正等菩提	-9.27909
云何名為	-9.27946
告	-9.2802
若人	-9.2807
不作	-9.28158
如如	-9.28191
精勤修學	-9.28261
影	-9.28376
不如	-9.285
年	-9.28555
所行	-9.28563
法空	-9.28821
不可以	-9.29048
輕	-9.29054
不二	-9.29076
亦不以	-9.29297
一切相智清淨	-9.29328
夜	-9.29404
大眾	-9.29522
列	-9.29544
吾	-9.29584
非法	-9.29606
敬	-9.29619
佛道	-9.29633
如來說	-9.29642
支	-9.29787
二諦	-9.30003
進	-9.30101
疾	-9.30118
梵語	-9.30173
住處	-9.30634
不空	-9.30722
却	-9.30781
實有	-9.30793
)(	-9.31226
譯	-9.3128
須陀洹	-9.31295
無量無邊	-9.31353
廣說	-9.31546
述	-9.31644
倒	-9.31745
宣說	-9.31912
法師	-9.31941
是修般若波羅蜜多	-9.32093
釋提桓因	-9.32319
授	-9.32369
四種	-9.32774
我所	-9.33019
有菩薩摩訶薩	-9.33075
衣服	-9.33131
出世	-9.33252
初明	-9.33575
此中尚無	-9.33704
忘	-9.3391
最上	-9.3392
若行	-9.33977
四無所畏乃至十八佛不共法	-9.34005
自性亦非自性	-9.34089
害	-9.34225
一句	-9.3432
講	-9.34345
六度	-9.3453
父母	-9.34571
而言	-9.34854
末	-9.35094
沒	-9.35171
畢竟	-9.35451
皆悉	-9.35472
現前	-9.35507
一切諸法	-9.35712
通達	-9.3575
隨喜	-9.3611
」【	-9.36186
由此因緣	-9.36478
得道	-9.36481
密	-9.36625
垢	-9.36633
取相	-9.36896
清	-9.36927
摩訶衍	-9.36935
如虛空	-9.37001
曾	-9.37056
辯	-9.37119
不可稱量	-9.37344
舍	-9.37599
是故名為	-9.37732
呪	-9.37873
四諦	-9.38
何所	-9.38041
而得	-9.38143
阿羅漢果清淨	-9.38339
十遍處清淨	-9.38344
道聖諦清淨	-9.38365
無色界	-9.38476
得菩提	-9.38548
羅漢	-9.38638
八十隨好	-9.38665
第六	-9.38732
四無色定清淨	-9.3874
真諦	-9.38825
無願解脫門清淨	-9.38857
不壞	-9.38911
遇	-9.38928
興	-9.38928
出世間	-9.39041
耳觸為緣所生諸受	-9.39422
身觸為緣所生諸受	-9.39441
施設可得	-9.39482
周	-9.39869
於諸	-9.39987
初地	-9.40175
科	-9.40203
間	-9.40228
經言	-9.40228
汝若能修如是	-9.40434
菩薩十地	-9.40696
波	-9.40718
若非自性即是	-9.4083
財	-9.40852
受持讀誦	-9.40917
天眼	-9.40945
聲聞乘	-9.40977
其中	-9.41009
度眾生	-9.41061
可以	-9.41266
微妙	-9.41341
欲得	-9.41345
所依	-9.41352
四大	-9.41428
具壽善現白佛言	-9.41553
於法	-9.41622
佛果	-9.41651
修學	-9.41674
而說	-9.41705
最	-9.41834
四禪	-9.41856
例	-9.41873
不爾	-9.42172
礙	-9.42233
然此	-9.4234
殊勝	-9.42433
故有	-9.42441
因緣故	-9.42621
極喜地	-9.42788
三十七品	-9.43006
若不	-9.43039
法施	-9.4313
惡魔	-9.43261
三寶	-9.43317
徧	-9.4336
演說	-9.43464
我見	-9.43493
此二	-9.43505
行般若波羅蜜	-9.43623
亦復	-9.43644
色空	-9.43736
愚	-9.43859
此法	-9.43897
縛	-9.43967
劣	-9.44091
有為法	-9.44101
嚴	-9.44197
佛土	-9.44292
若常若無常	-9.44634
亂	-9.44722
各各	-9.44746
石	-9.44772
則是	-9.44792
香界乃至鼻觸為緣所生諸受	-9.449
望	-9.45047
云何菩薩	-9.45186
佛告	-9.45284
有法	-9.45289
本來	-9.45295
若諸菩薩	-9.45378
見佛	-9.45475
六塵	-9.45483
聲界乃至耳觸為緣所生諸受	-9.45489
讀	-9.45528
及諸	-9.45581
謂若住此三摩地時	-9.45603
色等	-9.45794
此即	-9.45804
觸界乃至身觸為緣所生諸受	-9.45833
致	-9.4603
首	-9.46165
藥	-9.46213
鼻觸為緣所生諸受	-9.46484
飲食	-9.46755
頓	-9.46815
尋	-9.46822
淨土	-9.46837
白佛言	-9.46876
玄	-9.47021
許	-9.47029
此明	-9.47142
行相	-9.47206
羼提波羅蜜	-9.47208
偏	-9.47378
辟支佛道	-9.47459
施設	-9.47568
□	-9.47775
觀照	-9.47947
勿	-9.48026
如夢	-9.48221
問答	-9.48329
呼	-9.48411
解釋	-9.48461
詮	-9.48602
是也	-9.48615
識清淨	-9.48616
人天	-9.48783
增長	-9.48828
!「	-9.48848
註	-9.48894
知見	-9.48978
是事	-9.4906
非是	-9.49094
皆空	-9.49166
懈怠	-9.4918
舌觸為緣所生諸受	-9.49248
味界乃至舌觸為緣所生諸受	-9.49319
不作是念	-9.49338
珠	-9.49523
半	-9.49565
第一義	-9.49594
校量	-9.49711
視	-9.49754
雜	-9.49762
不出	-9.49786
第八	-9.49837
前後	-9.49925
色界乃至眼觸為緣所生諸受	-9.50034
常住	-9.50138
阿那含	-9.50275
法界乃至意觸為緣所生諸受	-9.50284
頂	-9.50357
窮	-9.50428
違	-9.50532
法者	-9.5059
然後	-9.50626
亦能	-9.5066
降	-9.50701
所見	-9.50705
化身	-9.50772
猶如	-9.5097
一法	-9.51023
宜	-9.51041
令其	-9.51058
所證	-9.51174
無上菩提	-9.51181
意云	-9.51183
序	-9.51386
號	-9.51415
作意	-9.51476
為說	-9.51582
沙	-9.51616
章	-9.51801
梵	-9.52005
沙門	-9.52056
如佛	-9.52385
各有	-9.52391
勝義	-9.52507
覆	-9.52773
中說	-9.52853
悉皆	-9.52881
出生	-9.52891
功	-9.52901
而能	-9.52982
廣說乃至	-9.52998
元	-9.53142
雨	-9.53183
性空故	-9.53206
慧眼	-9.53214
假名	-9.53282
即耳	-9.53297
第七	-9.5333
能得	-9.53476
變化	-9.53479
底	-9.53538
此人	-9.53641
言之	-9.53655
尊者	-9.53675
守	-9.53682
瞋恚	-9.53797
若欲	-9.53825
十八	-9.54017
如實	-9.54179
相續	-9.54179
特	-9.5422
安立	-9.54325
識界清淨	-9.54586
面	-9.54647
身心	-9.54695
亦無所有	-9.54836
於色	-9.54992
陰	-9.54998
無畏	-9.5504
佛眼	-9.55117
器	-9.55131
非行般若波羅蜜多	-9.55149
空中	-9.55259
真如清淨	-9.55341
不實	-9.55381
了知	-9.55403
老	-9.5548
脩	-9.55533
虛妄	-9.55544
靜	-9.55734
諸有情	-9.55734
靈	-9.55812
。」【【	-9.55852
所修	-9.55895
斷疑	-9.55936
的	-9.56061
等持	-9.56206
囉	-9.56224
空相	-9.56285
安樂	-9.56415
彌勒	-9.56484
於是	-9.56502
阿素洛等	-9.56504
慢	-9.56608
無染無淨	-9.5669
不念	-9.56781
棄	-9.56898
座	-9.57237
滅度	-9.57357
▁三	-9.57368
尸羅波羅蜜	-9.57375
拘翼	-9.57414
斯陀含	-9.5758
此言	-9.57603
配	-9.57692
強	-9.57853
速	-9.57857
淺	-9.57928
增上緣	-9.57939
法處清淨	-9.57943
不善	-9.5804
厭	-9.58141
意處清淨	-9.58342
依止	-9.58367
待	-9.58381
三十二大士相	-9.58437
證得	-9.58488
釋迦	-9.58515
種子	-9.58596
無記	-9.58638
自性空故	-9.58723
亦應	-9.58911
譬	-9.5895
諸佛無上正等菩提清淨	-9.59095
相空	-9.5913
疾證無上正等菩提	-9.59137
固	-9.59147
不定	-9.5924
燈	-9.59396
轉法輪	-9.59397
尊重	-9.59496
徹	-9.59523
云何名	-9.59555
力故	-9.59574
齊	-9.59735
再	-9.59764
預流果清淨	-9.60003
內空清淨	-9.60023
應當	-9.6005
有人言	-9.60165
隱	-9.60188
度生	-9.60213
含	-9.60254
佛性	-9.60259
如是乃至	-9.60293
欲令	-9.60321
內空乃至無性自性空	-9.60436
大士	-9.60454
之時	-9.60546
布施波羅蜜多清淨	-9.60627
菩薩十地清淨	-9.60661
不思議	-9.60709
五眼清淨	-9.61026
提	-9.6108
當學般若波羅蜜	-9.61081
即為	-9.61109
授記	-9.61128
四念住清淨	-9.6113
譬喻	-9.61224
精	-9.61247
無滅	-9.61277
原	-9.61305
落	-9.61306
淨戒乃至般若波羅蜜多	-9.61317
八解脫清淨	-9.61356
判	-9.61363
獨覺菩提清淨	-9.61453
名之為	-9.6146
是佛	-9.61469
毘梨耶波羅蜜	-9.61555
恒住捨性清淨	-9.61557
能所	-9.61594
契	-9.61663
佛十力清淨	-9.61714
禪波羅蜜	-9.61752
義故	-9.61793
一切陀羅尼門清淨	-9.61833
苦聖諦清淨	-9.61954
薩云若	-9.61984
無數量	-9.62024
奉	-9.62047
一切菩薩摩訶薩行清淨	-9.62111
六神通清淨	-9.62136
所知	-9.62193
不滅	-9.6221
親近	-9.62282
語言	-9.62353
談	-9.62387
一切三摩地門清淨	-9.62393
無忘失法清淨	-9.62501
四靜慮清淨	-9.62598
相好	-9.62738
自他	-9.62743
世間便有	-9.62754
殺	-9.62767
河	-9.63021
十六	-9.6305
詳	-9.63054
等可得	-9.63256
空解脫門清淨	-9.63279
簡	-9.63296
緣起	-9.63322
大小	-9.63324
為有	-9.6341
為體	-9.63462
三藏	-9.63475
慈悲	-9.63476
無自性	-9.6349
由此故說	-9.63593
陀	-9.63615
由此般若波羅蜜多祕密藏中所說法故	-9.6368
象	-9.63784
之意	-9.63816
如人	-9.63817
若能	-9.63866
十四	-9.6389
由是	-9.63895
之處	-9.63896
建立	-9.63914
諸法實相	-9.63974
寧	-9.63992
佛所	-9.64002
三藏法師玄奘奉詔譯	-9.64021
不失	-9.64192
正見	-9.64195
如經	-9.64402
旨	-9.64448
魔事	-9.64481
世諦	-9.64523
相似	-9.64745
實無	-9.64752
志	-9.6487
陳	-9.64875
舍利	-9.64881
無實	-9.64957
佛答	-9.6498
和	-9.64984
從此	-9.65317
毒	-9.65362
為一	-9.65368
承	-9.65392
四念住乃至八聖道支	-9.65519
際	-9.6553
自相	-9.6554
凡聖	-9.65671
發阿耨多羅三藐三菩提心	-9.65892
有異	-9.65898
即是空	-9.65901
佛身	-9.65967
遊	-9.65977
又復	-9.66081
當得	-9.66085
能證	-9.66274
壽	-9.66287
皆得	-9.665
安隱	-9.66658
冥	-9.66691
無自性故	-9.66812
眷屬	-9.66852
於佛	-9.66916
經曰	-9.66937
古	-9.66943
辭	-9.66965
今明	-9.66981
鉢	-9.67148
所攝	-9.67183
三業	-9.67274
怖	-9.67324
行深般若波羅蜜多	-9.67426
調伏	-9.6744
菩提心	-9.67452
一日	-9.67484
或有	-9.67491
福田	-9.67494
徵	-9.67555
而住	-9.67676
不可戲論故不應戲論	-9.67902
盖	-9.67924
今此	-9.68007
音聲	-9.68221
其義	-9.68231
新	-9.68341
等無間緣	-9.68362
檀	-9.68374
收	-9.68612
之言	-9.68867
是空	-9.6891
日月	-9.68988
十一	-9.69005
以其	-9.6902
所緣緣	-9.69134
則不	-9.6914
但以	-9.69145
善吉	-9.69166
菩薩摩訶薩行深般若波羅蜜多時	-9.69245
誠	-9.69254
氣	-9.6929
皆有	-9.6929
歲	-9.69319
平	-9.69346
瓔珞	-9.69442
一相	-9.69649
所生	-9.69682
發菩提心	-9.69714
狀	-9.69773
大德	-9.69782
若遠離若不遠離	-9.69819
滿慈子	-9.69849
作佛	-9.69884
可見	-9.69892
申	-9.69955
十力	-9.70017
推	-9.70022
乃是	-9.70035
修道	-9.70233
守護	-9.70265
非實	-9.70327
迦	-9.70447
不斷	-9.70461
歷	-9.70511
領	-9.7055
亦空	-9.70626
為欲	-9.70685
四者	-9.70835
無相解脫門	-9.70842
婆	-9.70996
獨覺乘	-9.70997
心不	-9.71029
十二因緣	-9.71051
既無	-9.71311
之理	-9.71345
愚癡	-9.7135
謗	-9.71392
付囑	-9.71396
者謂	-9.71474
此則	-9.71485
切	-9.71526
智者	-9.71646
殊	-9.71651
若有善男子	-9.71782
行六波羅蜜	-9.71935
我於	-9.71944
放	-9.72002
毀	-9.72019
得果	-9.72021
下文	-9.72033
二明	-9.72197
離垢地	-9.72258
法也	-9.72425
般若波羅蜜多清淨	-9.7262
能知	-9.72771
減	-9.72837
無說	-9.72861
法雲地	-9.72886
無邊故	-9.72947
不解	-9.73006
看	-9.73056
到彼岸	-9.73088
身相	-9.73141
善惡	-9.73317
熱	-9.73547
為離	-9.73622
阿修羅	-9.73811
乃至一切種智	-9.74012
而巳	-9.74065
不在	-9.7412
能令	-9.74175
是中	-9.74366
婆羅門	-9.74371
中間	-9.74515
此心	-9.74675
法眼	-9.74725
『	-9.74729
但有	-9.7474
補特伽羅	-9.74742
不應離	-9.74765
相者	-9.74838
恩	-9.74851
能斷	-9.74893
之福	-9.74901
五百	-9.74947
萬行	-9.74992
備	-9.75031
若寂靜若不寂靜	-9.75048
自行	-9.75142
妄想	-9.75152
此文	-9.75278
辟支佛地	-9.75281
禮	-9.75387
牛	-9.75393
又如	-9.75397
所緣	-9.75405
。《	-9.75468
發光地	-9.75486
十八不共法	-9.75719
解說	-9.75946
老死	-9.75997
權	-9.76098
帝	-9.76204
名相	-9.76205
都無	-9.76209
而修	-9.76289
聞法	-9.7633
闇	-9.76347
正覺	-9.76396
能行	-9.76405
令得	-9.76434
敘	-9.76512
南	-9.76596
諸行	-9.76637
無所住	-9.76637
現前地	-9.76851
如化	-9.76869
釋云	-9.76918
句義	-9.76919
尚不可得	-9.76949
遠行地	-9.77027
實無有法	-9.77131
付	-9.77343
以一切法	-9.77421
准	-9.77432
賊	-9.77479
薄	-9.77669
無餘	-9.77756
是真	-9.77821
陀羅尼	-9.77828
如是如是	-9.77933
是則	-9.77971
不復	-9.77976
若復有人	-9.78087
世俗	-9.78158
而起	-9.78244
行施	-9.78361
畏	-9.78361
不見有	-9.7838
諸如來	-9.78397
大師	-9.78579
○	-9.78631
制	-9.78666
作如是言	-9.78745
痛痒思想生死識	-9.78765
患	-9.78837
六根	-9.78906
無所從來	-9.78958
不動地	-9.78958
是以	-9.79063
菩薩行	-9.79076
節	-9.79124
二字	-9.79137
【	-9.79145
信受	-9.79225
不過	-9.79357
諸菩薩摩訶薩修行般若波羅蜜多時	-9.79417
一切世間	-9.79792
助	-9.7981
逐	-9.79953
戲論	-9.79967
亦如	-9.79986
相違	-9.80076
畢	-9.80105
若離	-9.80106
導	-9.80323
異生	-9.80659
有此	-9.80696
便是	-9.80699
滿足	-9.80719
四果	-9.80805
饒益	-9.80829
大身	-9.80832
天上	-9.80834
名曰	-9.80871
」?	-9.8096
燒	-9.80997
善慧地	-9.81095
關	-9.81141
分明	-9.81269
菩薩摩訶薩修行般若波羅蜜多時	-9.81471
有三種	-9.81512
露	-9.81536
唯有	-9.81605
女人	-9.81728
解云	-9.81745
菩薩行般若波羅蜜	-9.81751
由斯	-9.81869
化作	-9.8187
至心聽聞	-9.82004
▁(	-9.82005
相也	-9.82255
諸有	-9.8231
依此	-9.82555
怖畏	-9.82707
不及	-9.82747
教化	-9.82756
諸根	-9.82786
菩薩摩訶薩所行般若波羅蜜多	-9.82875
如是菩薩	-9.82878
無所著	-9.82879
亦無有	-9.82901
不名	-9.82916
夢中	-9.83047
心也	-9.83075
亦云	-9.83178
乞食	-9.83183
亦然	-9.83185
否	-9.8319
救	-9.83221
受用	-9.83342
色蘊	-9.83445
舍利弗言	-9.83499
流通	-9.83542
不言	-9.83573
後世	-9.83871
亦不離	-9.83895
互	-9.83958
見有	-9.84034
可說	-9.84058
天子	-9.84065
清淨故	-9.84119
惱	-9.84128
無心	-9.84194
怛薩阿竭	-9.84204
萬法	-9.84283
於諸法	-9.84296
當知是人	-9.84308
生者	-9.84341
無量無數	-9.8442
則有	-9.84538
微細	-9.84544
當來	-9.84566
美	-9.84609
心中	-9.84625
未曾	-9.84754
無生忍	-9.84759
何因緣故	-9.84799
略說	-9.84808
端	-9.84862
無想	-9.84884
積	-9.84926
麁	-9.84928
消	-9.85003
五欲	-9.85051
諸佛世尊	-9.85071
三解脫門	-9.85122
不久	-9.85225
無見	-9.8525
亦得	-9.85259
破壞	-9.85326
十八界	-9.85375
不可見	-9.85447
乞	-9.85503
諸菩薩摩訶薩行深般若波羅蜜多時	-9.85634
若言	-9.85743
染淨	-9.85764
布	-9.85855
亦不能	-9.85871
成就眾生	-9.85898
資	-9.85956
鬼神	-9.86011
人中	-9.86065
馬	-9.86068
天王	-9.86107
作是	-9.86113
知者	-9.86154
及餘	-9.86174
說者	-9.86197
現行	-9.86205
為趣	-9.86222
十方諸佛	-9.86291
縱	-9.86382
色處清淨	-9.86383
畜生	-9.86418
字門	-9.8658
眼處清淨	-9.86583
能作	-9.866
地界清淨	-9.86686
肉眼	-9.86987
玅	-9.86993
持說	-9.86998
懷	-9.87084
林	-9.87138
意界清淨	-9.87154
皆從	-9.87384
演	-9.874
入涅槃	-9.87402
無能	-9.87407
耳界清淨	-9.87444
非真	-9.87458
於離	-9.87486
人法	-9.87518
段	-9.87652
眼界清淨	-9.87738
聽受	-9.87751
身界清淨	-9.87794
豈不	-9.87806
神力	-9.87885
展轉	-9.87981
菩薩摩訶薩行	-9.87996
於此般若波羅蜜多	-9.88002
無明清淨	-9.88056
舌界清淨	-9.88075
菩薩摩訶薩行般若波羅蜜時	-9.88092
鼻界清淨	-9.88105
諸三昧	-9.88299
貴	-9.88309
諍	-9.88332
報身	-9.88333
修行般若波羅蜜多	-9.88391
勤	-9.88412
唯識	-9.88437
容	-9.88442
虛	-9.88546
宮	-9.88559
性故	-9.88618
上來	-9.88678
骨	-9.88682
持經	-9.8871
非住非不住	-9.88755
善知識	-9.88886
布施波羅蜜多乃至般若波羅蜜多	-9.88904
或說	-9.88922
自心	-9.88998
濟	-9.8901
為因	-9.89131
哩	-9.89158
不聞	-9.89331
何法	-9.89392
二十	-9.89448
之事	-9.8947
見如來	-9.89487
非不	-9.89594
漏	-9.89664
薩芸若	-9.89694
總結	-9.89713
不應於	-9.89716
越	-9.89747
伎樂	-9.89915
非相應非不相應	-9.89958
傍生	-9.90035
我能	-9.90074
真如乃至不思議界	-9.90144
化眾生	-9.90287
不了	-9.9034
焰	-9.90385
說法者	-9.90452
舊	-9.90498
東方	-9.90653
單	-9.90654
代	-9.90665
利樂	-9.90697
有何	-9.90701
東	-9.90723
焰慧地	-9.90756
其福	-9.90823
源	-9.90824
無形	-9.90845
諸煩惱	-9.90907
無知	-9.90988
行人	-9.90994
隨喜迴向	-9.911
。」《	-9.9114
一切諸佛	-9.91145
豈有	-9.91186
隨意	-9.9119
今世	-9.91286
金剛經	-9.91313
聞說	-9.9142
若耳	-9.91543
空寂	-9.91559
何等是	-9.91587
無染	-9.91598
所詮	-9.9161
知一切法	-9.91651
增益	-9.91679
之體	-9.9176
況有	-9.91771
斷滅	-9.91793
心故	-9.91819
賢聖	-9.91824
審	-9.91839
空有	-9.91938
自身	-9.91959
運	-9.91998
開示	-9.92034
畢竟不生	-9.9205
離諸	-9.92148
莫作是念	-9.92152
己	-9.92273
眾生相	-9.92306
遠離故	-9.92311
憂	-9.92369
泯	-9.92391
若空若不空	-9.92391
心生	-9.92415
參	-9.92469
西	-9.92487
天人	-9.9255
十八佛不共法清淨	-9.92565
善業	-9.92578
麤	-9.92583
檀那波羅蜜	-9.92628
不思議界清淨	-9.92671
明度	-9.92692
如前	-9.92768
更有	-9.92785
得名	-9.92807
不也世尊	-9.92857
之名	-9.92879
濁	-9.93028
淨佛國土	-9.93037
空也	-9.93073
自有	-9.93106
八聖道支清淨	-9.93116
帝釋	-9.93144
伽	-9.93159
即此	-9.93178
後際	-9.93339
常無常	-9.93381
教化眾生	-9.93492
如來十力乃至十八佛不共法	-9.93498
佛地	-9.93529
有一	-9.93598
是心	-9.93621
須菩提於意云何	-9.93738
暗	-9.93785
無性自性空清淨	-9.93856
等法	-9.93871
犯	-9.93941
若有人	-9.93943
唐	-9.94077
揀	-9.94173
之身	-9.94272
仍	-9.94299
極難勝地	-9.94346
已得	-9.9448
泥	-9.945
珍寶	-9.94518
意識	-9.946
蓮華	-9.94665
善友	-9.94677
有四	-9.94692
今言	-9.94733
鬼	-9.94837
散亂	-9.94866
是諸	-9.94906
為大	-9.94969
何緣	-9.94982
盛	-9.95012
菩薩摩訶薩無所有不可得	-9.95215
無差別	-9.95299
色乃至識	-9.95314
拔	-9.95389
說般若	-9.95409
逮	-9.95438
若以	-9.95453
棄捨	-9.95454
所成	-9.95478
決	-9.95649
深般若波羅蜜	-9.95656
專	-9.95694
虗妄	-9.95778
不盡	-9.95792
寺	-9.95879
以是因緣故	-9.95882
若見	-9.96023
三事	-9.96175
次明	-9.96182
增語	-9.96208
前說	-9.96219
諸佛法	-9.96343
假使	-9.96363
若爾	-9.96423
不共	-9.96498
護念	-9.96504
我相	-9.9651
熟	-9.96663
星	-9.96726
偈云	-9.96772
能說	-9.96786
壽命	-9.96807
利他	-9.96817
若一切法	-9.96887
一切法皆	-9.96961
俗諦	-9.97089
愛樂	-9.97142
信心	-9.97168
而行	-9.97199
所執	-9.97206
彼常無常亦不可得	-9.97313
太	-9.97321
彼我無我亦不可得	-9.9733
公	-9.97357
作者	-9.9737
尼	-9.97476
徒	-9.9756
此名	-9.97596
彼淨不淨亦不可得	-9.97639
無所生	-9.97681
此為	-9.97822
曉	-9.97853
二義	-9.97885
咸	-9.97958
青	-9.98003
五種	-9.98028
天帝釋言	-9.98178
當釋	-9.98231
該	-9.98233
供	-9.98249
賢	-9.98307
念念	-9.98395
妙法	-9.98422
弘	-9.98463
彼樂與苦亦不可得	-9.98583
無諍	-9.98818
大海	-9.98989
損	-9.9912
三世諸佛	-9.99149
二句	-9.99206
二相	-9.99264
流轉	-9.99287
諸眾生	-9.99362
贊曰	-9.99379
樂說	-9.99528
無非	-9.99529
作是言	-9.99685
我法	-9.99692
善入	-9.99708
皆為	-9.99787
財施	-9.99863
太子	-9.99864
離欲	-9.99927
二障	-9.9994
長者	-10.0003
緣覺	-10.0005
三毒	-10.0008
何者	-10.0009
如實了知	-10.0009
不退轉	-10.001
妄心	-10.0028
此義	-10.0031
少分	-10.0046
色心	-10.0053
登	-10.0058
初禪	-10.0062
若菩薩摩訶薩修行般若波羅蜜多時	-10.0063
誡	-10.0069
當知是為菩薩魔事	-10.0085
室	-10.0089
法執	-10.0107
阿僧祇	-10.0126
祖	-10.0135
之因	-10.0142
說也	-10.0143
或時	-10.0143
第一義諦	-10.0144
天親	-10.0148
轉輪聖王	-10.015
華嚴	-10.0163
聽聞	-10.0164
漏盡	-10.0165
之行	-10.0175
鏡	-10.0175
如彼	-10.0176
十善	-10.0183
威力	-10.0202
其身	-10.0204
下第二	-10.0222
何處	-10.0226
一人	-10.023
仁	-10.0233
能見	-10.0233
十三	-10.024
如上	-10.0251
故得	-10.0255
百千	-10.026
至於	-10.0275
若相應若不相應	-10.0277
此等	-10.0281
先世	-10.0289
善現對曰	-10.029
受記	-10.0292
題	-10.0295
稱量	-10.03
住於	-10.0306
可謂	-10.0307
二法	-10.0308
增上	-10.031
悔	-10.0314
成熟	-10.0316
數量	-10.0333
一分	-10.0335
純	-10.0336
能破	-10.0339
第十	-10.0341
宿	-10.0351
生疑	-10.0362
彌	-10.0364
但是	-10.0366
奪	-10.037
六道	-10.037
佛以	-10.0384
復以	-10.0393
正憶念	-10.0399
驚	-10.0401
準	-10.0406
真俗	-10.0408
前際	-10.041
無人	-10.0412
所起	-10.0421
畫	-10.0422
何等為	-10.0423
迴	-10.0424
非但	-10.043
具壽	-10.0434
之性	-10.0441
草	-10.0446
三明	-10.0455
儀	-10.0466
他人	-10.0467
響	-10.0468
之道	-10.0472
是謂	-10.048
此三	-10.0481
西方	-10.0487
訖	-10.049
說般若波羅蜜	-10.0501
鳥	-10.0516
雖復	-10.0519
真心	-10.0519
貪著	-10.0526
臺	-10.0526
今日	-10.0527
謬	-10.0532
即得	-10.0535
此般若波羅蜜多	-10.0542
五神通	-10.0551
無漏法	-10.0551
仙人	-10.0567
園	-10.058
若一切智清淨	-10.0582
一切法皆以	-10.0588
其所	-10.0592
不求	-10.0598
怨	-10.0601
則非	-10.0609
摩訶	-10.0615
菩薩道	-10.063
亦無所住	-10.0632
北	-10.0652
非無	-10.0654
上品	-10.0655
巧	-10.0655
差	-10.0655
威儀	-10.0658
留	-10.0665
但說	-10.0672
不隨	-10.0688
無有是處	-10.069
如我	-10.0696
護國	-10.0701
二釋	-10.0701
為眾生	-10.0702
笑	-10.0703
恒沙	-10.0706
遍知	-10.0707
又曰	-10.0708
生故	-10.0709
善巧	-10.0722
佛為	-10.0725
施與	-10.0726
亦無所	-10.0726
施者	-10.0728
無間	-10.0734
葉	-10.0734
不可取	-10.0736
不增不減	-10.0743
加行	-10.0752
國王	-10.0753
無著云	-10.0767
幻化	-10.0768
不依	-10.0776
碎	-10.0781
種性	-10.0781
任	-10.0785
不能得	-10.0786
即有	-10.0793
令彼	-10.0793
非相	-10.0806
所聞	-10.082
非色	-10.0833
累	-10.0836
適	-10.0838
木	-10.0838
覩	-10.0839
文殊師利	-10.0841
無學	-10.0849
融	-10.0855
深心	-10.0856
野	-10.0859
橫	-10.0861
所住	-10.0861
勤修	-10.0861
世人	-10.0863
宣	-10.0868
諸法相	-10.087
誓	-10.0872
釋上	-10.0878
能於	-10.0893
不樂	-10.0901
勢力	-10.091
所說法	-10.0916
般若波羅蜜者	-10.0919
引發	-10.0931
諸餘	-10.0937
十五	-10.0941
短	-10.0943
空學	-10.0947
預流向預流果	-10.095
諸惡	-10.0951
是為菩薩	-10.0959
忽	-10.096
幾	-10.0968
亦為	-10.0973
等也	-10.0977
亦無所去	-10.0984
不覺	-10.0985
心無	-10.0986
逆	-10.0993
不來	-10.0993
父	-10.0994
是故說	-10.1002
正明	-10.101
第九	-10.1013
為他人說	-10.1015
無念	-10.1027
車	-10.1028
迴向阿耨多羅三藐三菩提	-10.1037
一切處	-10.1038
若修	-10.1062
不墮	-10.1065
有得	-10.1075
天地	-10.1077
或以	-10.1082
佛之	-10.1083
四無量心	-10.1084
點	-10.1084
雖行	-10.1084
六波羅蜜多	-10.1084
無智	-10.1096
麼	-10.1102
。』」	-10.1103
懸	-10.1107
多聞	-10.1111
修多羅	-10.1113
多少	-10.1114
不怖	-10.1116
惡業	-10.1121
則知	-10.1133
調	-10.1139
輪迴	-10.114
文二	-10.114
瑜伽	-10.1143
清淨故般若波羅蜜多清淨	-10.1144
威德	-10.1145
如來所說	-10.1146
波羅	-10.116
肉	-10.1164
皆以	-10.1168
迹	-10.1169
若依	-10.1171
不有	-10.1175
於一切	-10.1177
錯	-10.1183
雜染	-10.1186
背	-10.1207
修除遣	-10.1218
如來者	-10.1223
憶念	-10.1224
所化	-10.1228
以明	-10.1246
真理	-10.1247
不和合	-10.125
諸法空	-10.1255
應如是	-10.1259
師子	-10.1265
闓士	-10.1278
財物	-10.1286
正觀	-10.1286
貪欲	-10.1288
當機	-10.1292
所謂無相	-10.1293
無縛無解	-10.1296
作是思惟	-10.1301
】【	-10.1305
勢	-10.1306
諸佛菩薩	-10.1316
如如不動	-10.132
亦以	-10.1321
幡蓋	-10.1327
箇	-10.1336
有我	-10.1345
較量	-10.1349
漸次	-10.1352
休	-10.1355
佛意	-10.1357
災	-10.1358
無二分故	-10.1365
今初	-10.1369
總持	-10.137
往來	-10.1377
一向	-10.1387
五波羅蜜	-10.1388
不須	-10.1393
我執	-10.1393
能信	-10.1399
云何言	-10.1401
非一	-10.1402
苦惱	-10.1407
化生	-10.1409
舍利弗白佛言	-10.141
何謂	-10.1417
若於	-10.1425
打	-10.1437
諸功德	-10.1441
一來向一來果	-10.1444
即無	-10.1447
餓鬼	-10.1453
般	-10.1454
至此	-10.1455
無取無捨	-10.146
若受	-10.1461
其人	-10.1464
一切佛法	-10.1475
無戲論	-10.1477
之果	-10.1479
妙慧	-10.1482
是色	-10.1483
傷	-10.15
虛誑	-10.1512
此菩薩	-10.1516
供養諸佛	-10.1523
灌頂	-10.1524
須陀洹果	-10.1524
演曰	-10.1525
謂此是	-10.1525
倍	-10.1526
為二	-10.1529
是謂般若波羅蜜多	-10.1531
士夫	-10.1532
緣生	-10.1539
跡	-10.1539
非謂	-10.1545
故也	-10.1545
期	-10.1549
佛教	-10.1555
阿羅漢向阿羅漢果	-10.1557
本空	-10.1558
文云	-10.1559
池	-10.156
知諸法	-10.1566
見道	-10.1568
眾中	-10.1571
利益眾生	-10.1584
上文	-10.1586
天帝釋	-10.159
纔	-10.1593
載	-10.1593
能為	-10.1594
闕	-10.1596
自體	-10.1601
福聚	-10.1612
諸菩薩摩訶薩行深般若波羅蜜多	-10.1613
仰	-10.1627
乃至意觸為緣所生諸受	-10.1631
所求	-10.1632
諸善男子	-10.1634
著相	-10.164
不成	-10.164
請問	-10.164
生起	-10.1643
意業	-10.1645
答云	-10.1651
臥具	-10.1659
索	-10.1667
惡趣	-10.1668
淨故	-10.1677
念佛	-10.1687
過失	-10.1697
之旨	-10.1698
色等法	-10.1712
勝解	-10.1713
是有	-10.172
廣釋	-10.1726
為人	-10.1726
人相	-10.1727
連	-10.1728
不證	-10.1729
於空	-10.173
人也	-10.1748
未能	-10.1749
初標	-10.1754
三十三天	-10.1754
即時	-10.1764
妄念	-10.1774
貫	-10.1776
諸菩薩眾	-10.178
於一切法如實了知略廣之相	-10.1783
得聞	-10.1784
發阿耨多羅三藐三菩提心者	-10.1786
但有名	-10.1788
無取	-10.179
地前	-10.1792
恭敬供養	-10.1793
亦不得	-10.1794
初分	-10.1797
大地	-10.1801
皆無	-10.1804
姓	-10.1805
不分別	-10.1813
應住	-10.1815
茲	-10.1818
借	-10.1821
嚩	-10.1826
十住	-10.1827
無生法忍	-10.183
纏	-10.183
是實	-10.1833
不但	-10.1837
之曰	-10.1837
而非	-10.1837
為宗	-10.1842
▁【	-10.1852
皆名	-10.1857
六種	-10.1858
諸佛如來	-10.1863
極喜地乃至法雲地	-10.1886
刀	-10.1892
潤	-10.1892
法寶	-10.19
學者	-10.1907
苦樂	-10.1918
無窮	-10.1922
改	-10.1924
中際不可得	-10.1929
而自	-10.193
是故菩薩	-10.1933
禪那波羅蜜	-10.1934
。●	-10.1941
之智	-10.1946
空者	-10.1955
法體	-10.196
命者	-10.1971
色處乃至法處	-10.1973
上下	-10.1978
不還向不還果	-10.1982
即空	-10.1988
岸	-10.1991
一切善法	-10.2005
眼觸乃至意觸	-10.201
應以	-10.2016
真如相	-10.2018
相貌	-10.2019
船	-10.2019
是經	-10.2021
等覺	-10.203
亦勸他	-10.2036
文義	-10.2043
他方	-10.2046
不行色	-10.2049
皆應	-10.2055
悉知	-10.2056
苦行	-10.2058
聞說如是甚深般若波羅蜜多	-10.2062
說名	-10.2066
凡夫人	-10.2069
天下	-10.2076
▁一	-10.2076
質	-10.2077
自利	-10.208
無生滅	-10.208
有善男子	-10.2086
眼識界乃至意識界	-10.209
執有	-10.2095
每	-10.2096
法華	-10.2097
於耳	-10.2104
隨其	-10.2108
真如求	-10.2116
無眾生	-10.2118
聞者	-10.2124
此說	-10.213
觀一切法	-10.2147
修證	-10.2148
何有	-10.2151
性相	-10.2156
即以	-10.2158
薩	-10.2165
是非	-10.2166
能除	-10.2169
眼處乃至意處	-10.2172
穢	-10.2173
不合不散	-10.2175
第	-10.2175
應學般若波羅蜜多	-10.2177
其實	-10.2179
三義	-10.218
障礙	-10.2181
餘人	-10.2182
心境	-10.2188
統	-10.2191
薩陀波崙	-10.2197
繫	-10.2198
一乘	-10.2203
以無	-10.2209
正是	-10.2209
必有	-10.2211
寔	-10.2213
憍慢	-10.2216
不學	-10.2219
二地	-10.2235
非縛非解	-10.2237
是眾生	-10.224
出離	-10.224
寶幢	-10.2253
於我	-10.2257
嘆	-10.2258
身命	-10.2268
以有所得為方便故	-10.2269
不染	-10.2272
即是非相	-10.2275
晝夜	-10.2279
返	-10.2281
真如可得	-10.2285
如來地	-10.2286
釋也	-10.2292
不從	-10.2295
見性	-10.2297
觀空	-10.2302
得解脫	-10.2303
正智	-10.2309
奉持	-10.2322
法性求	-10.2325
曲	-10.2328
究	-10.2334
爾時世尊	-10.2334
生心	-10.2336
然則	-10.2336
不然	-10.2337
輩	-10.234
無來無去	-10.2343
如是甚深般若波羅蜜多	-10.2357
用是	-10.2358
誑	-10.2358
能行般若波羅蜜多不	-10.2358
格量	-10.2364
第二明	-10.2366
佛國	-10.2368
服	-10.2368
取著	-10.2371
色界乃至法界	-10.2376
不入	-10.2376
希	-10.238
十信	-10.2384
恐怖	-10.2387
塔	-10.2388
男女	-10.2392
諸經	-10.2395
續	-10.2397
以顯	-10.2399
林子曰	-10.2401
應學	-10.2415
眼界乃至意界	-10.2419
接	-10.242
蒙	-10.2422
不由	-10.2425
破戒	-10.2426
有說	-10.2433
衰	-10.2434
亦當	-10.2446
八萬四千	-10.2451
若干	-10.2456
是名菩薩摩訶薩	-10.2457
顯現	-10.2461
歡喜讚歎	-10.2461
永斷	-10.2466
法無我	-10.247
壽者相	-10.2472
四生	-10.2476
入菩薩位	-10.2478
常行	-10.2484
恚	-10.2485
而成	-10.2488
此身	-10.249
投	-10.2493
皆由	-10.2494
菩薩摩訶薩眾	-10.2497
寶施	-10.2497
或復	-10.2497
正說	-10.2501
八地	-10.2502
所取	-10.2503
汝今	-10.2505
若聲	-10.2507
十七	-10.251
法界乃至不思議界清淨	-10.2517
色起	-10.2531
No	-10.2533
心經	-10.2535
無為界	-10.2535
乃至十八不共法	-10.2537
仙	-10.2538
八解脫乃至十遍處	-10.2543
之本	-10.2543
以應一切智智心	-10.2544
若四無量	-10.2555
三句	-10.2557
由此因緣得福多不	-10.2558
未盡	-10.2558
雖無	-10.2559
疏二	-10.256
軍	-10.2562
佛語	-10.2576
應身	-10.2577
若菩薩摩訶薩欲	-10.2579
見聞	-10.2579
慮	-10.2581
大慈大悲	-10.2583
身子	-10.2585
證菩提	-10.2585
依他	-10.2591
菩薩地	-10.2596
順忍	-10.2598
得佛	-10.2603
毛	-10.2605
不執	-10.2624
逢	-10.2628
證法	-10.2628
非人	-10.2634
又以	-10.2639
不是	-10.264
痛	-10.2649
』	-10.265
一切皆	-10.2652
兩不和合	-10.2653
或生	-10.2653
無可	-10.2653
田	-10.2674
而行布施	-10.2686
閻浮提	-10.2688
慈氏	-10.2693
諸善法	-10.2698
發趣無上正等菩提	-10.2701
令住	-10.2701
惠	-10.2701
速得圓滿	-10.2709
未來世	-10.2711
大智	-10.2713
前云	-10.2717
覺知	-10.2721
雖多	-10.2728
受生	-10.2734
深入	-10.2735
佛告舍利弗	-10.2737
大乘亦爾	-10.2744
如響	-10.2746
如說	-10.275
諸善根	-10.2753
自修	-10.2763
如前所說	-10.2773
四天王	-10.2792
若諸有情	-10.2794
由此緣故我作是說	-10.2795
豈非	-10.2799
以無所得為方便	-10.28
初句	-10.2805
若道相智	-10.281
中際菩薩摩訶薩不可得	-10.2831
瓶	-10.2834
春	-10.2838
佛所說	-10.2838
世間空	-10.2844
二空	-10.2854
寂靜故	-10.2856
持誦	-10.2858
結使	-10.2859
般若波羅蜜中	-10.2865
然燈	-10.2866
隨所	-10.2875
俱空	-10.2875
】「	-10.2877
如是說	-10.2878
滯	-10.2883
菩薩亦如是	-10.2893
實智	-10.2894
能滅	-10.2903
輪王	-10.2909
渡	-10.2911
譬如有人	-10.2913
迦葉	-10.2916
但為	-10.2916
正知	-10.2917
無二無別	-10.2921
下明	-10.2923
清涼	-10.2924
偈言	-10.2925
之文	-10.2926
法輪	-10.2928
不自	-10.2933
亦可	-10.2941
四句偈	-10.2943
中無	-10.2946
次釋	-10.2949
與佛	-10.2951
共相	-10.2952
令速圓滿	-10.2963
得是	-10.2965
當學般若波羅蜜多	-10.2967
者即	-10.2968
而來	-10.297
長夜	-10.297
有五	-10.2971
有願	-10.2974
不畏	-10.2975
慳貪	-10.2978
朝	-10.2978
我為	-10.2981
利根	-10.2985
當知是菩薩	-10.2987
故以	-10.2988
如來真如	-10.2996
二執	-10.2998
遺	-10.3002
形相	-10.3003
具壽善現	-10.3009
臨	-10.3011
若八勝處	-10.3011
心者	-10.3012
人心	-10.3013
不用	-10.3019
實法	-10.3021
無垢	-10.3022
注此	-10.3032
教人	-10.3033
三千	-10.3035
說有	-10.3043
為實	-10.3045
不令	-10.3047
燈明	-10.3047
金剛般若波羅蜜經	-10.3052
習氣	-10.3062
世間法	-10.3066
亦遣此修	-10.3074
▁四	-10.3078
認	-10.3079
勇猛	-10.3094
天子當知	-10.3097
飛	-10.31
頗	-10.3102
恒河	-10.3107
譬如虛空	-10.3121
居士	-10.3124
無我相	-10.3128
尾	-10.3129
五者	-10.3129
寒	-10.313
正念	-10.3136
也問	-10.3141
於受	-10.3143
中生	-10.3145
非身	-10.3158
無對	-10.3158
得成	-10.316
正釋	-10.3162
所為	-10.3165
如是諸法	-10.318
七地	-10.3183
處處	-10.3184
藉	-10.3186
急	-10.3186
能與	-10.3187
士	-10.3189
更無	-10.3195
二事	-10.3197
知是	-10.3198
無上乘	-10.3201
無所有不可得故	-10.3208
出世間法	-10.3209
白佛	-10.3212
法界乃至意觸為緣所生諸受清淨	-10.3212
於般若波羅蜜多	-10.3216
黃	-10.3218
眾生見	-10.3224
皆能	-10.323
捨身	-10.3237
貧窮	-10.3248
造作	-10.3248
甘露	-10.3249
剎那	-10.3255
波羅蜜是般若波羅蜜	-10.3256
有為無為	-10.326
得一切種智	-10.3264
深般若波羅蜜多	-10.3266
五忍	-10.3268
了達	-10.3269
廣令流布	-10.327
寄	-10.3273
亦不生	-10.3277
之見	-10.3278
得入	-10.3284
恒河沙	-10.3292
經說	-10.3293
道理	-10.3301
地中	-10.3312
六識	-10.3312
從此第二	-10.3319
二邊	-10.3323
作如是念	-10.3326
菩薩摩訶薩中有	-10.3328
事故	-10.333
別釋	-10.3337
生信	-10.3339
六種波羅蜜多	-10.3343
詣	-10.3344
狂	-10.3348
下二	-10.3353
意謂	-10.3357
此乃	-10.3358
非我	-10.3359
洲	-10.3367
不驚	-10.3369
人見	-10.337
如是我聞	-10.3377
金剛般若	-10.3379
能詮	-10.3383
免	-10.3383
於諸有情	-10.3385
本覺	-10.3386
別相	-10.3386
億	-10.3388
色界乃至眼觸為緣所生諸受清淨	-10.3393
聲界乃至耳觸為緣所生諸受清淨	-10.3394
觸界乃至身觸為緣所生諸受清淨	-10.3396
今經	-10.34
所願	-10.3406
得自在	-10.3411
四天下	-10.3411
堪	-10.3414
隨緣	-10.3416
謂於	-10.3422
所問	-10.3426
招	-10.3429
比丘尼	-10.3434
正行	-10.3439
身觸為緣所生諸受清淨	-10.344
鈔	-10.3443
香界乃至鼻觸為緣所生諸受清淨	-10.3443
放光	-10.3447
若一來	-10.3448
空性亦空	-10.3449
論主	-10.3451
歡喜踊躍	-10.3457
便能	-10.3459
眼觸為緣所生諸受清淨	-10.347
何用	-10.3475
本有	-10.3475
有四種	-10.3478
法王	-10.3479
老死愁歎苦憂惱清淨	-10.3484
味界乃至舌觸為緣所生諸受清淨	-10.3484
耳觸為緣所生諸受清淨	-10.3484
意觸為緣所生諸受清淨	-10.3485
我說	-10.3488
行乃至老死愁歎苦憂惱清淨	-10.3495
化佛	-10.3495
驗	-10.3498
為此	-10.3506
當以	-10.3511
勝處	-10.3515
染著	-10.3519
體性	-10.3525
一切煩惱	-10.3525
幽	-10.3527
鼻觸為緣所生諸受清淨	-10.353
某	-10.3531
應供	-10.3532
攝受壞滅故學	-10.3542
曼殊室利	-10.3547
)「	-10.3547
不取著	-10.3548
為本	-10.355
君	-10.3554
外空乃至無性自性空清淨	-10.3555
乃至無上正等菩提	-10.3557
二智	-10.3559
文中	-10.3561
故不	-10.3567
華言	-10.3568
臥	-10.3572
昧	-10.3573
舌觸為緣所生諸受清淨	-10.3575
不識	-10.3578
無有法	-10.3585
因中	-10.3585
諸菩薩摩訶薩修行般若波羅蜜多	-10.3587
無疑	-10.3587
之後	-10.3592
折	-10.3595
辯才	-10.3597
度脫	-10.3598
百分不及一	-10.36
一來果	-10.3602
別明	-10.3607
濕	-10.3615
便得	-10.3619
聖道	-10.3622
有漏法	-10.3624
若水	-10.363
其意	-10.3633
明菩薩	-10.3642
如來可得	-10.3642
。」【△	-10.3643
萬物	-10.3645
不可計	-10.3648
此事	-10.3648
皆不	-10.3651
不取相	-10.3652
陽	-10.3653
無斷	-10.3656
不觀	-10.3659
空不空	-10.367
即聲	-10.3673
三十二	-10.3674
有實	-10.3674
一切有為法	-10.3675
前二	-10.3677
增減	-10.3679
垂	-10.3679
一云	-10.3696
若住	-10.3696
諸聲聞	-10.3699
觀行	-10.3703
不執著	-10.3709
也又	-10.371
無體	-10.3713
既是	-10.3722
無始	-10.3724
愈	-10.3725
說此	-10.3725
圓成	-10.3731
四無所畏乃至十八佛不共法清淨	-10.3734
便有	-10.3736
無相故	-10.3741
得福多不	-10.3744
塗	-10.3748
難得	-10.3749
心念	-10.375
三空	-10.375
皆令	-10.3753
淨戒乃至般若波羅蜜多清淨	-10.3754
以是義故	-10.3759
是知	-10.3762
吾我	-10.3765
無縛無脫	-10.3766
得無生法忍	-10.3779
復說	-10.378
這	-10.378
一字	-10.3787
誹謗	-10.3791
赤	-10.3794
四正斷乃至八聖道支清淨	-10.3801
大千	-10.3803
拘	-10.3804
境智	-10.3808
寧為多不	-10.381
文別有	-10.3812
有大	-10.3812
作禮	-10.3813
勸助	-10.3813
不相	-10.3817
異本性空	-10.3819
施福	-10.382
乖	-10.3821
讚說	-10.3827
十善業道	-10.3829
是我	-10.3831
不現	-10.3834
若無相	-10.3837
論曰	-10.3838
能修	-10.3853
有其	-10.3867
身業	-10.3869
苾芻	-10.3871
須彌	-10.3875
一切聲聞	-10.3877
十二入	-10.3883
不可思議故	-10.3889
流出	-10.3892
亦能圓滿	-10.3894
過去未來現在	-10.3896
眾苦	-10.3902
初發心	-10.3908
不可稱	-10.391
行般若	-10.3911
師云	-10.3914
觀諸法	-10.3915
客	-10.3917
故能	-10.3918
富	-10.3921
能以	-10.3924
菩薩法	-10.3929
鐵	-10.3929
發明	-10.3942
果也	-10.3945
他化自在天	-10.3949
皆如	-10.3956
若集	-10.396
能成	-10.396
互相	-10.3968
交	-10.3969
能取	-10.3974
在家	-10.3975
頌云	-10.3977
符	-10.3982
得無上正等菩提	-10.3983
一體	-10.3983
男	-10.3983
大品	-10.3985
彼論	-10.3986
一異	-10.3986
無增無減	-10.3987
不修	-10.3988
念處	-10.3989
初中	-10.3992
乃至四句偈等	-10.3993
後明	-10.3996
啟	-10.4001
非常非無常	-10.4001
離於	-10.4001
較	-10.4002
復問	-10.4003
何得	-10.4004
色即是空	-10.4005
建	-10.401
活	-10.4011
妙智	-10.4012
觀之	-10.4012
我身	-10.4012
說為	-10.4015
無受	-10.4026
應修	-10.4029
異熟	-10.4033
中有二	-10.4039
繇	-10.4039
今以	-10.4039
正道	-10.4043
淨心	-10.4047
飲	-10.4048
辦	-10.4051
云何為	-10.406
得大	-10.4061
舍利子問善現言	-10.4063
如來真如可得	-10.4068
故此	-10.4079
錄	-10.408
意生	-10.4084
十種	-10.4088
暫	-10.4092
此初也	-10.4093
合掌	-10.4097
常樂	-10.4098
聞是	-10.41
校	-10.4101
呵	-10.4104
酬	-10.4108
後五百歲	-10.411
如來十力	-10.4111
初問	-10.4119
獨覺地	-10.412
地界乃至識界	-10.4123
一味	-10.4123
非如來中	-10.413
一切種	-10.4137
頗有	-10.4142
已下	-10.4162
上言	-10.4173
無明乃至老死	-10.4176
是菩薩摩訶薩不	-10.418
一偈	-10.4181
限	-10.4183
深法	-10.4184
善實	-10.4184
其福勝彼	-10.4185
能忍	-10.4186
即色	-10.4188
黑	-10.419
不名為	-10.4194
前文	-10.4196
一處	-10.42
所得功德	-10.4203
之義也	-10.4204
我無我	-10.4205
入定	-10.4213
明了	-10.4217
一切法性	-10.4218
乃能	-10.4219
自知	-10.4222
三十	-10.4225
如文	-10.423
不垢不淨	-10.4232
是無	-10.4235
試	-10.4238
清淨故一切智清淨	-10.4238
事業	-10.4243
不合	-10.4247
今說	-10.4247
故佛	-10.4257
無法可說	-10.4265
三藐三佛陀	-10.427
書持	-10.4274
無分別故	-10.428
稱讚	-10.4281
別有	-10.429
菩	-10.4295
顧	-10.4296
故須	-10.4301
兵	-10.4301
缺	-10.431
十方世界	-10.4314
與諸有情平等共有迴向無上正等菩提	-10.4318
總相	-10.4322
一合相	-10.4325
知其	-10.4325
得此	-10.4325
一義	-10.4336
無緣	-10.4338
令人	-10.434
四眾	-10.434
所斷	-10.4342
多有	-10.4345
即能	-10.4353
分中	-10.4355
人非人等	-10.4363
意也	-10.4367
步	-10.4385
證無上正等菩提	-10.4386
生於	-10.4393
皆依	-10.4405
即真如	-10.4407
無量無數無邊	-10.4416
無故	-10.4418
性中	-10.442
州	-10.4425
廢	-10.4425
不礙	-10.4428
蓮花	-10.4429
而後	-10.443
若色清淨	-10.4432
此理	-10.4435
阿耨多羅三耶三菩	-10.4439
無等	-10.445
性不可得故	-10.4451
此地	-10.4453
述曰	-10.4459
中際	-10.4473
疏云	-10.4474
諸王	-10.4476
釋成	-10.4476
血	-10.4479
降心	-10.4482
善現便白佛言	-10.4487
祇	-10.4487
疑云	-10.449
怛	-10.4491
慈心	-10.4493
以是因緣	-10.4494
乃至阿耨多羅三藐三菩提	-10.4495
非心	-10.4496
當學	-10.4498
筏	-10.45
此約	-10.4506
擁護	-10.4509
不還果	-10.4513
圓明	-10.4514
如是法	-10.4522
煩惱障	-10.4522
而觀	-10.4524
口業	-10.4526
經卷	-10.4532
以無相	-10.4534
過去諸佛	-10.4536
出現世間	-10.4548
道中	-10.4551
聞已	-10.4551
空即是色	-10.4556
如來藏	-10.4558
誤	-10.456
非有非無	-10.4561
良	-10.4568
不應以	-10.4569
僧寶	-10.457
□□	-10.4573
論釋	-10.4576
斯則	-10.4579
優婆塞	-10.4588
不可量	-10.4603
實性	-10.4606
此岸	-10.4611
不具足	-10.4615
按	-10.4617
勝劣	-10.4621
玉	-10.4621
薩埵	-10.4625
慳	-10.4628
方能	-10.4628
人間	-10.4632
成道	-10.4634
是畢竟淨	-10.4637
應引發般若波羅蜜多	-10.4638
敢	-10.4638
牒	-10.4643
不立	-10.4644
欲求	-10.4651
余	-10.4653
識蘊	-10.4655
命終	-10.4665
鬼界	-10.4667
一劫	-10.4673
如理	-10.4674
常不遠離	-10.4676
所引	-10.4676
有法可得	-10.468
罪業	-10.4682
斷惑	-10.4682
摩訶薩	-10.4688
責	-10.47
設有	-10.4705
顯了	-10.4706
如是等種種	-10.471
)。】「	-10.4711
種善根	-10.4712
如先說	-10.4713
護持	-10.4714
都不可得	-10.4715
聞此	-10.4717
繁	-10.4718
應如是住	-10.4719
無法可得	-10.4725
而去	-10.4728
熏	-10.4735
離色	-10.4741
此下	-10.4744
實無所有	-10.4745
得見	-10.4747
如是般若波羅蜜多是	-10.4748
是菩薩不能修	-10.475
智力	-10.4754
廣明	-10.4755
淨信	-10.4758
若菩薩摩訶薩行般若波羅蜜多時	-10.4761
之者	-10.4762
非空	-10.4763
負	-10.4764
能觀	-10.4765
八部	-10.4766
之妙	-10.4777
資具	-10.4782
作證	-10.4785
清淨故法界	-10.4792
網	-10.48
或云	-10.4803
是諸法	-10.4808
非實有	-10.4817
生時	-10.482
身中	-10.482
四無礙智	-10.4825
能學	-10.483
行布施	-10.4831
所念	-10.4832
滅故	-10.4842
與彼	-10.4845
以下	-10.4845
默	-10.4853
能照	-10.4859
殿	-10.4861
翳	-10.4866
亦令	-10.4866
法忍	-10.4867
無動	-10.4868
經意	-10.4878
道場	-10.4879
以上	-10.488
帶	-10.4881
空中空尚不	-10.4882
行也	-10.4883
如是一切皆無所有	-10.4891
惜	-10.4894
覺悟	-10.4904
斯陀含果	-10.4904
能如是	-10.4905
三性	-10.491
種姓	-10.4918
紙	-10.4924
問佛	-10.4924
證真	-10.4928
一如	-10.493
人民	-10.4936
有情類	-10.494
阿鞞跋致	-10.4943
安住苦	-10.4944
但言	-10.4944
文殊	-10.4947
照見	-10.4948
釋之	-10.4954
是名為	-10.4955
不顛倒	-10.4956
既有	-10.4964
御	-10.497
若聞	-10.4975
謝	-10.4978
方便力	-10.498
變易	-10.4985
我聞	-10.4993
經典	-10.4994
此釋	-10.4997
故無	-10.4997
是一	-10.5004
無行	-10.5005
毘	-10.5016
曇無竭菩薩	-10.5017
亦無所得	-10.5018
修行般若波羅蜜多時	-10.5023
為性	-10.5026
省	-10.5028
法界相	-10.5033
去來	-10.5034
四事	-10.5039
亦離	-10.5039
之也	-10.5044
及以	-10.505
之說	-10.5051
三心	-10.5056
種諸善根	-10.5058
亦不能修	-10.5066
不待	-10.5067
菩薩摩訶薩如是學時	-10.5067
飾	-10.507
亦名甚深	-10.5074
以般若	-10.5075
諸比丘	-10.5082
故今	-10.5084
胎	-10.5084
無生故	-10.5091
佛智	-10.5094
以空	-10.5096
諸人	-10.5098
聽者	-10.5098
即法界	-10.5106
於前	-10.5109
臣	-10.5112
業因緣	-10.5112
此意	-10.5116
有漏無漏	-10.5116
是如來	-10.5124
贊	-10.5126
狹	-10.5127
佛語須菩提	-10.5134
當於	-10.5141
十八空	-10.5143
思量	-10.5148
即便	-10.5149
奉行	-10.5149
尚不	-10.5151
意樂	-10.5154
色受想行識	-10.5155
勝義諦	-10.5157
天主	-10.5161
如相	-10.5164
可取	-10.5167
因此	-10.5168
毀謗	-10.517
不明	-10.5172
詞	-10.5174
阿那含果	-10.5178
擊	-10.5179
三身	-10.5181
以色	-10.5185
此之	-10.5186
防	-10.5189
煩	-10.5195
般若之	-10.5196
證果	-10.5197
等故	-10.52
妙覺	-10.5205
留難	-10.5207
亦同	-10.5212
鈍根	-10.5217
亦非相應非不相應	-10.5222
菩薩摩訶薩欲	-10.5223
遍滿	-10.5224
住是三昧	-10.5227
眾人	-10.523
為喻	-10.523
言教	-10.5234
攝取	-10.5234
報恩	-10.5237
大意	-10.5241
總名	-10.5243
氏	-10.5244
斷見	-10.5246
所現	-10.5255
方得	-10.5266
威神	-10.5269
須菩	-10.5271
大法	-10.5281
背捨	-10.5282
歸依	-10.5287
銷	-10.529
髮	-10.5291
依法	-10.5293
諸波羅蜜	-10.5294
塵勞	-10.53
佛菩提	-10.5312
何義	-10.5316
等義	-10.5317
所護	-10.532
同一	-10.5326
值	-10.5334
是名大身	-10.5337
訶	-10.5337
議	-10.5338
不必	-10.5343
六十	-10.535
不欲	-10.5352
怒	-10.5355
三品	-10.5362
如我解佛所說義	-10.5363
乳	-10.5364
實際相	-10.5369
諸法性	-10.537
長行	-10.5375
之多	-10.5378
讚曰	-10.5383
優婆夷	-10.5387
緒	-10.5387
釋提桓因白佛言	-10.5389
謂此	-10.5389
厚	-10.5397
離我	-10.5398
有餘	-10.5399
大菩薩	-10.5406
喪	-10.5406
其有	-10.5407
名為菩薩	-10.5408
則能	-10.5413
於其	-10.5416
修習甚深般若波羅蜜多	-10.5419
什	-10.542
都無自性	-10.5426
文三	-10.5427
後二	-10.5434
而作	-10.5437
於諸如來	-10.544
二禪	-10.5443
得度	-10.5449
四法	-10.5457
三惡道	-10.5459
忍辱波羅蜜	-10.5461
下品	-10.5463
菩提薩埵	-10.5463
不生故	-10.5472
昏	-10.5473
世世	-10.5484
有情清淨	-10.5484
佛十八法	-10.5485
念言	-10.5487
白言	-10.549
如是一切	-10.5491
見者清淨	-10.5492
勤苦	-10.5492
生法	-10.5498
為人解說	-10.55
從初發心	-10.5503
之境	-10.5504
謂有	-10.5507
離一切相	-10.5507
」;	-10.5508
無方便	-10.5509
修慧	-10.5519
速證無上正等菩提	-10.5532
行檀波羅蜜	-10.5535
未有	-10.5539
藥叉	-10.5542
復作是說	-10.5547
報言	-10.5558
悟入	-10.5561
然燈佛	-10.5562
無量功德	-10.5566
有二義	-10.557
佛事	-10.5575
不可施設思議	-10.5576
無佛	-10.5579
所應	-10.558
角	-10.5587
魚	-10.5587
漢	-10.5589
不見有法	-10.5592
妙行	-10.5595
妄語	-10.5599
不轉	-10.5604
為人演說	-10.5604
心數法	-10.5607
十二處	-10.5608
薩陀波崙菩薩	-10.5611
蕩	-10.5627
有佛	-10.5629
炎	-10.563
唯是	-10.5631
得福	-10.5631
非異	-10.5632
中住	-10.5638
同時	-10.5641
增上慢	-10.5654
唯一	-10.5654
淺深	-10.5659
憐愍	-10.566
即是本性空	-10.5662
以有	-10.5671
一經	-10.5673
以畢竟空	-10.5674
先明	-10.5678
當知是	-10.5682
恐人	-10.5683
之二	-10.5684
因故	-10.5688
為我	-10.5696
驚怖	-10.5697
本性空即是	-10.57
一身	-10.5705
遍計	-10.5709
信者	-10.571
須知	-10.571
天王當知	-10.5712
於諸法中	-10.5714
以彼	-10.5716
若一切法真如	-10.5716
常與無常	-10.5718
彼於是趣不可超越	-10.5719
阿僧祇劫	-10.572
餘法	-10.572
以無所得故	-10.5722
敷	-10.5724
攝持	-10.5724
自說	-10.5735
履	-10.5742
勤精進	-10.5743
俱生	-10.5746
不遠離	-10.5749
凡有	-10.575
迴向無上正等菩提	-10.5751
有菩薩	-10.5753
是般若	-10.5753
無所住亦非不住	-10.5754
尸波羅蜜	-10.5761
彼人	-10.5762
妄見	-10.5768
善女人等作此等說	-10.5776
上明	-10.5777
若增若減	-10.5778
如是求	-10.5781
垢淨	-10.5781
如是名為	-10.5785
寂靜不寂靜	-10.5791
定慧	-10.5791
性不可得	-10.5793
不見色	-10.5795
淨不淨	-10.5798
於無上正等菩提	-10.5801
隔	-10.5802
即是一切智智	-10.5805
空性	-10.5808
秦言	-10.5809
遠離不遠離	-10.5813
三耶三佛	-10.5816
儒童	-10.5816
無所分別	-10.5817
伏忍	-10.5818
於聲	-10.582
欣	-10.5824
復能攝受	-10.5827
善女人等為發無上菩提心者	-10.5829
四義	-10.5831
總是	-10.5832
意生清淨	-10.5833
之念	-10.5834
尚無	-10.5834
清淨故預流果清淨	-10.5837
甚大	-10.5837
前三	-10.5837
清淨故佛十力清淨	-10.5837
一切諸	-10.5839
不忘	-10.584
一部	-10.5842
非菩薩摩訶薩	-10.5843
截	-10.5845
曼拏羅	-10.5851
爾所	-10.5854
途	-10.5856
宋	-10.5857
避	-10.586
學般若波羅蜜	-10.5866
亦不可思議	-10.587
受苦	-10.5871
亦不著	-10.5871
住者	-10.5873
清淨故苦聖諦清淨	-10.5874
菩薩以	-10.5875
非我非無我	-10.5879
經義	-10.5881
淨觀地乃至如來地	-10.5881
大明	-10.5881
不思惟分別	-10.5881
清淨故六神通清淨	-10.5884
貧	-10.5891
之德	-10.5892
所須	-10.5892
如虗空	-10.5893
清淨故布施波羅蜜多清淨	-10.5894
割	-10.5895
清淨故五眼清淨	-10.5896
殊勝功德	-10.59
清淨故一切陀羅尼門清淨	-10.59
生處	-10.5901
清淨故四念住清淨	-10.5905
無縛	-10.5907
遙	-10.5907
清淨故菩薩十地清淨	-10.591
深妙	-10.592
儒童清淨	-10.5924
之大	-10.5924
生者清淨	-10.5926
即名	-10.5927
當得阿耨多羅三藐三菩提	-10.593
唵	-10.5933
說經	-10.5933
梵天	-10.5934
補特伽羅清淨	-10.5936
不可施設	-10.5937
謂佛	-10.5943
實相般若	-10.5944
言無	-10.5944
只是	-10.5947
命者清淨	-10.5947
嗔	-10.5947
清淨故空解脫門清淨	-10.5948
一切菩薩	-10.5949
受者清淨	-10.595
淨與不淨	-10.5951
清淨故真如清淨	-10.5958
言語	-10.596
清淨故無忘失法清淨	-10.5961
無復	-10.5962
清淨故四靜慮清淨	-10.5964
之上	-10.5967
無起	-10.5967
禪師	-10.5969
信解受持	-10.5971
?』「	-10.5971
即非菩薩	-10.5974
竝	-10.5975
洞	-10.5978
清淨故恒住捨性清淨	-10.5983
明此	-10.5988
川禪師云	-10.5989
經者	-10.599
成正覺	-10.599
如來如實覺為無相	-10.5996
士夫清淨	-10.5998
始終	-10.6
報佛	-10.6001
當言與般若波羅蜜多相應	-10.6001
清淨故一切菩薩摩訶薩行清淨	-10.6005
贍部洲	-10.6007
無生智	-10.6009
是為宣說真正	-10.6009
我與無我	-10.601
引發般若波羅蜜多	-10.6016
為緣	-10.6019
養	-10.602
清淨故一切三摩地門清淨	-10.602
如法	-10.6021
頌言	-10.6021
秦	-10.6025
虛空界清淨	-10.603
菩薩摩訶薩住	-10.6032
功德善根	-10.6032
作者清淨	-10.6035
是名菩薩	-10.6036
如來應正等覺	-10.604
福報	-10.6042
著心	-10.6043
清淨故獨覺菩提清淨	-10.6043
民	-10.6045
沉	-10.6046
云何應住	-10.6047
豈可	-10.605
意者	-10.605
清淨故內空清淨	-10.6051
仁王	-10.6052
脩行	-10.6053
見之	-10.6053
下第三	-10.6055
於深般若波羅蜜多	-10.6057
畢竟空故	-10.6057
清淨故諸佛無上正等菩提清淨	-10.606
能持	-10.6062
時節	-10.6064
我以	-10.6064
當知皆是說有所得相似	-10.6064
我說名為行有所得相似	-10.6064
之教	-10.6067
樂之與苦	-10.6067
究竟涅槃	-10.6069
無餘涅槃	-10.6072
草木	-10.608
非菩薩	-10.6081
慧命	-10.6082
能起	-10.6082
儒	-10.6082
所觀	-10.6082
予	-10.609
法藏	-10.6092
修習布施	-10.6093
勝故	-10.6093
寂然	-10.6094
亦無分別	-10.6097
清淨故八解脫清淨	-10.6097
孤	-10.6097
是有為	-10.61
無所有性	-10.6104
洗	-10.6105
無分別智	-10.6105
回	-10.6107
薩云然	-10.6111
心法	-10.6116
知者清淨	-10.6118
於一切智	-10.6123
七寶布施	-10.6124
三時	-10.6125
令眾生	-10.6128
皆同	-10.6129
心心數法	-10.6139
都無所有	-10.6146
實義	-10.6147
之有	-10.6151
菩薩住	-10.6157
在於	-10.6165
憶	-10.6167
有差別	-10.6167
早	-10.6169
而以	-10.6175
我清淨	-10.6175
離垢地乃至法雲地	-10.6179
若一切智智真如	-10.618
普照	-10.6183
無壞	-10.6196
論文	-10.6196
不於	-10.6201
六情	-10.6202
福慧	-10.6202
舍利子白佛言	-10.6203
梵志	-10.6204
此段	-10.6204
見眾生	-10.6205
一佛	-10.621
眼識	-10.621
不攝受	-10.6216
愚夫	-10.6216
聖教	-10.6216
典	-10.6217
養育者清淨	-10.622
箭	-10.6221
化他	-10.6222
出現	-10.6224
須彌山	-10.6224
摧	-10.6227
功用	-10.6227
教誡教授	-10.6234
有為界	-10.6234
剎	-10.6238
疑惑	-10.6239
不達	-10.6239
汝當	-10.624
此即初也	-10.6242
即真	-10.6244
盲	-10.6247
以有所得為方便	-10.6248
今云	-10.6268
祕密	-10.6269
裏	-10.6269
契經	-10.627
當知是菩薩摩訶薩	-10.6276
作是說	-10.6283
兒	-10.6284
色不異空	-10.6284
為是	-10.6284
之類	-10.6288
十方佛	-10.6289
伹	-10.6291
賢者	-10.6291
不敢	-10.6298
三地	-10.63
法智	-10.63
別異	-10.6301
聽法	-10.6311
退失	-10.6314
若有人言	-10.6318
輕賤	-10.6319
初果	-10.6323
婬	-10.6324
快樂	-10.6326
無法可	-10.6327
此義云何	-10.6329
二門	-10.6333
於無相	-10.6333
為眾生故	-10.6334
相見	-10.6337
是即	-10.6343
為諸有情	-10.6343
無倒	-10.6344
亦不可	-10.6345
故經云	-10.6346
而於	-10.6348
行道	-10.635
一明	-10.6356
內空乃至無法有法空	-10.6358
有是	-10.6359
皆一真如無二無別	-10.6361
金剛手	-10.6366
分別義趣令其易解	-10.6367
悟一切法	-10.637
性無知即是清淨	-10.637
等事	-10.6374
群	-10.6376
○)	-10.6379
之力	-10.6384
云何得	-10.6384
故名示	-10.6385
有十	-10.6386
此四	-10.6388
律	-10.6388
無所得故	-10.6394
任運	-10.6398
為菩薩	-10.6405
人身	-10.6406
沈	-10.6407
攝心	-10.6409
當生	-10.641
則為欲令	-10.6417
由彼	-10.642
信忍	-10.6421
衍	-10.6421
真智	-10.6423
如佛所說	-10.6425
集聖諦	-10.6427
無染污故般若波羅蜜多清淨	-10.6433
一生	-10.6433
見其	-10.6433
蔽	-10.6437
化人	-10.6437
滅聖諦	-10.6442
何異	-10.6443
若有菩薩	-10.6443
異相	-10.6443
戲	-10.6443
十九	-10.6444
掃	-10.6444
亦無所有不可得	-10.6445
猶未	-10.6445
初心	-10.6449
布施乃至般若波羅蜜多	-10.6452
苟	-10.6453
諸見	-10.6458
作是念言	-10.6459
眾妙	-10.6461
入於	-10.6463
鉢囉	-10.647
三假	-10.6472
有智	-10.6475
品中	-10.6477
非樂非苦	-10.6479
住菩薩乘諸善男子	-10.6481
漚惒拘舍羅	-10.6482
如夢所見	-10.6482
如有	-10.6482
又諸菩薩如實了知所有	-10.6484
無定	-10.6484
故稱	-10.6485
佛弟子	-10.6487
如實了知所有	-10.6489
神足	-10.6494
觀自在菩薩	-10.6496
等諸	-10.6496
貌	-10.6498
殘	-10.6508
義趣	-10.6511
徵釋	-10.6514
耶答	-10.6516
是深般若波羅蜜	-10.652
後時	-10.6525
佛剎	-10.6525
娑	-10.653
安住真如	-10.6531
富貴	-10.6532
初釋	-10.6534
章句	-10.6535
阿惟越致	-10.6535
塗散等香	-10.6536
夜摩天	-10.6539
聚落	-10.655
一切智智清淨故法界	-10.6558
有生	-10.656
不緣	-10.656
色清淨	-10.6561
大心	-10.6563
得之	-10.6564
菩提道	-10.6564
不起分別	-10.6565
蛇	-10.6571
行處	-10.6572
菩薩於	-10.6574
精勤	-10.6582
了悟	-10.6584
妙生	-10.6585
自性清淨	-10.6593
勝前	-10.6602
聖者	-10.6608
六者	-10.6612
二人	-10.6615
兩句	-10.6615
四聖諦	-10.662
預流果乃至獨覺菩提	-10.6622
唱	-10.6627
。」【(	-10.6628
。】「【	-10.6629
又此	-10.6629
清淨故色清淨	-10.6635
他心智	-10.6638
皮	-10.6639
色聲	-10.6639
其相	-10.664
莊嚴佛土	-10.6641
稍	-10.6643
無法相	-10.6644
八十	-10.6647
無所畏	-10.6654
為他	-10.6657
此般若	-10.6658
眾生心	-10.6659
能度	-10.6664
是諸眾生	-10.6665
不足	-10.6665
財寶	-10.6668
惡友	-10.6669
凡人	-10.6669
想著	-10.6672
十行	-10.6674
照明	-10.6674
或見	-10.6675
一種	-10.6676
甚為希有	-10.6677
蜜	-10.6682
我是	-10.6683
屈	-10.6684
勝於	-10.6685
見諸有情	-10.6691
手足	-10.6692
鈍	-10.6693
復作是念	-10.6696
無文字	-10.6698
九地	-10.6699
不可思量	-10.67
禮拜	-10.6703
波斯匿王	-10.6706
堂	-10.6706
一切賢聖	-10.671
訓	-10.6711
體相	-10.6712
得法	-10.6719
涉	-10.6723
不當	-10.6724
護法	-10.6724
謂如來	-10.6726
如金剛	-10.674
薄伽梵	-10.6747
論議	-10.6757
為空	-10.676
若大乘	-10.6761
非眾生	-10.6764
苦諦	-10.6764
能具足	-10.6766
所知障	-10.6768
發菩提心者	-10.6777
諦聽	-10.6777
浮	-10.6777
有色	-10.6779
雖不	-10.6781
唯佛	-10.6783
佛也	-10.6788
此論	-10.6788
又言	-10.6791
佛告天帝釋言	-10.6792
所施	-10.6795
利益安樂	-10.6796
不貪	-10.6797
體用	-10.6797
勞	-10.6798
巳上	-10.6802
見色	-10.6814
最大	-10.6816
一剎那	-10.682
住相	-10.6822
應有	-10.6825
乾	-10.6827
析	-10.6828
官	-10.6835
張	-10.6835
我亦	-10.6842
鹿	-10.6846
空三昧	-10.6848
七日	-10.6855
住持	-10.6858
輪轉	-10.686
右	-10.686
真佛	-10.686
罪福	-10.6865
不疑	-10.6866
二果	-10.6871
侍	-10.6873
當有	-10.6874
左	-10.6874
願力	-10.6877
理事	-10.6884
法無所有不可得	-10.6886
有六	-10.6887
竭	-10.6889
未知	-10.6891
得涅槃	-10.6891
云何降伏其心	-10.6892
恨	-10.6893
觀自在	-10.6899
若合若散	-10.6903
常見	-10.6906
修福	-10.691
應化	-10.6917
學人	-10.6917
佛心	-10.692
柔軟	-10.692
盡智	-10.6921
非淨非不淨	-10.6922
九十	-10.6924
愚夫異生	-10.6924
無所有處	-10.6929
唯然	-10.6933
猛	-10.6934
理智	-10.6938
悅	-10.6941
雖然	-10.695
無上正等正覺	-10.6955
北方	-10.696
以喻	-10.6961
泉	-10.6962
刻	-10.6968
會中	-10.6976
愍	-10.6979
體也	-10.6981
獨覺向獨覺果	-10.6984
不變	-10.6985
色法	-10.6989
眾會	-10.6993
將欲	-10.6997
無此	-10.6997
惡道	-10.7
已來	-10.7002
分別開示	-10.7004
里	-10.7004
割截	-10.7007
云何應於	-10.7009
一百	-10.7011
揚	-10.7013
梵行	-10.7014
但見	-10.7015
不沒	-10.7015
所有眾生	-10.702
都無所得	-10.7027
覓	-10.7028
下釋	-10.7029
聞之	-10.703
三相	-10.7031
梁	-10.7035
為三	-10.7038
法喻	-10.7039
見已	-10.704
大菩提	-10.7048
嚴淨	-10.7052
後二句	-10.7052
菩薩所	-10.7061
是為戲論	-10.7065
由是因緣	-10.7066
明其	-10.7073
分齊	-10.7074
尸	-10.7079
應作是念	-10.7084
愛著	-10.7084
是無為	-10.7089
真如平等	-10.7093
於其中間	-10.7093
能行深般若波羅蜜多	-10.7093
分別諸法	-10.7094
婬欲	-10.7094
透	-10.7099
欲知	-10.7108
本自	-10.7109
無罪	-10.7114
說之	-10.7115
珍奇	-10.7115
無去亦復不住	-10.7118
說言	-10.7121
〔	-10.7122
珍	-10.7124
薄地	-10.7128
不生則非	-10.7129
泥洹	-10.7131
。】「○	-10.7133
遭	-10.7133
廣說乃至一切相智	-10.7134
所明	-10.7135
於內	-10.7138
成阿耨多羅三耶三菩	-10.7138
令諸有情	-10.7139
如說修行	-10.714
聞佛所說	-10.7141
以一切智智相應作意	-10.7142
與前	-10.7142
乏	-10.7142
本性空故	-10.7143
所獲福聚	-10.7146
偽	-10.7147
一來向乃至阿羅漢果	-10.7153
若能如是	-10.7155
信受奉行	-10.7157
有無量	-10.7165
是相	-10.7169
大故	-10.717
立名	-10.7171
於過去	-10.7172
良以	-10.7173
若爾者	-10.7173
遍照	-10.7178
終日	-10.718
懼	-10.7181
獨覺等地	-10.7183
勝行	-10.7185
畢竟不可得故	-10.7189
人所	-10.719
誓願	-10.7198
諸世間	-10.7201
無有異	-10.7202
充滿	-10.7203
釋疑	-10.7204
聽法者	-10.7207
於人	-10.7213
齋	-10.7217
如來法	-10.722
先說	-10.7222
觀色	-10.7226
見也	-10.7227
自巳	-10.723
善巧方便	-10.723
於此經中	-10.723
消滅	-10.7231
名聲	-10.7231
為斷	-10.7232
應云	-10.7233
菩薩乘	-10.7238
退轉	-10.725
集散	-10.7251
現身	-10.7253
最初	-10.7253
苦果	-10.7254
菩薩摩訶薩法	-10.726
宣示開演顯了	-10.7263
總明	-10.7264
舍利子復白佛言	-10.7266
梵音	-10.7268
為難	-10.727
文字般若	-10.7274
廣略	-10.7275
教法	-10.7279
欲以	-10.7283
磨	-10.7285
持是	-10.7292
菩薩心	-10.7295
色等諸法	-10.7296
本心	-10.7296
釋經	-10.7297
不違	-10.7302
八聖道分	-10.7303
為行	-10.7305
下劣	-10.7306
末世	-10.7311
有如是	-10.7314
何謂菩薩	-10.7317
如意	-10.7317
第四禪	-10.7319
令離	-10.732
非常非壞	-10.732
蓮	-10.7322
昇	-10.7326
起如是想	-10.7326
等相	-10.7333
從此第二明	-10.7339
無異分別	-10.7339
而知	-10.734
擇	-10.7343
善現言	-10.7346
此顯	-10.7347
地位	-10.7348
如上說	-10.7349
吉	-10.7357
預	-10.7357
實語	-10.7359
而復	-10.7361
我之	-10.7362
潛	-10.7365
圓融	-10.7371
甚深法	-10.7374
以佛	-10.7375
修布施波羅蜜多	-10.7377
一卷	-10.7379
故問	-10.738
忿恚	-10.7384
若生	-10.7386
則不能	-10.7387
即生	-10.7387
此疑	-10.7395
委	-10.7397
其功德	-10.74
無覺知故	-10.74
能發	-10.74
一切功德	-10.7402
常修	-10.7407
天耳	-10.7408
為世間	-10.7408
為義	-10.741
惡心	-10.7412
大道	-10.7418
若生若滅	-10.7419
名號	-10.7421
不妨	-10.7421
又問	-10.7422
條	-10.7426
人我	-10.7426
當作	-10.7426
即前	-10.7427
心住	-10.7431
圓教	-10.7435
起信	-10.7437
我人	-10.7438
污	-10.7441
具說	-10.7441
你	-10.7441
非常	-10.7443
正答	-10.7443
是其	-10.7445
有眾生	-10.7452
故修行般若波羅蜜多	-10.7465
問也	-10.7471
觀門	-10.7473
分段	-10.7476
成辦	-10.7479
我應	-10.7481
人空	-10.7482
佛於	-10.7487
欲使	-10.7494
爭	-10.7496
慶	-10.7499
不可盡	-10.7499
三德	-10.7501
本願	-10.7506
若在	-10.751
得無生忍	-10.751
從緣所生諸法	-10.751
無央數	-10.7513
所不能	-10.7516
色中	-10.7516
善現白佛言	-10.7519
當為	-10.7525
無相法	-10.7528
是故須菩提	-10.7529
聲聞人	-10.7534
最後	-10.7535
能成辦	-10.7535
佛神力故	-10.7543
男子	-10.7543
空即是	-10.7547
嘗	-10.7548
經論	-10.7549
弗	-10.7553
其性	-10.7555
修一切善法	-10.7555
來者	-10.7556
之則	-10.7559
逮得	-10.756
得預流果	-10.7564
庶	-10.7564
熏習	-10.7566
所由	-10.7569
復能	-10.7576
壽者	-10.7576
善女人等於此般若波羅蜜多	-10.7581
未生	-10.7587
但有假名	-10.7589
不住相	-10.7593
心所	-10.7594
佛在	-10.7595
能化	-10.7597
假立	-10.76
思議	-10.76
之所以	-10.7612
出三界	-10.7613
重說	-10.7615
不見諸法	-10.7616
修習八解脫	-10.7617
)『	-10.7618
為無	-10.7625
積聚	-10.7631
無盡故	-10.7631
即知	-10.7632
所獲功德甚多於前	-10.7638
位中	-10.7643
我心	-10.7644
今欲	-10.7651
一合	-10.7652
以眾生	-10.7653
樂若苦	-10.7655
無所見	-10.7661
醫藥	-10.7662
不滅則非	-10.7662
是名莊嚴	-10.7664
所可	-10.7667
令我	-10.7668
修行六種波羅蜜多	-10.7669
百億	-10.767
若作是念	-10.767
修習菩薩摩訶薩行	-10.7671
漸漸	-10.7671
功能	-10.7672
修習佛十力	-10.7673
修習四念住	-10.7673
個	-10.7674
雖說	-10.7683
術	-10.7688
遵	-10.769
修習四靜慮	-10.7691
三觀	-10.7694
添	-10.7694
即法身	-10.7694
說此經	-10.7696
聖賢	-10.7701
以來	-10.7701
後釋	-10.7712
發生	-10.7712
天竺	-10.7715
若我	-10.7722
行菩薩行	-10.7723
重言	-10.7724
無所執著	-10.7726
且道	-10.7728
必須	-10.7736
不作廣不作狹	-10.7736
不相應	-10.7738
我者	-10.7739
俱胝	-10.7739
依此等法	-10.7742
若有能求如是等法修行	-10.7742
能成就	-10.7743
我若無我	-10.7746
總標	-10.7747
勅	-10.7753
修習五眼	-10.7753
之外	-10.7755
妨	-10.7759
相對	-10.776
信樂	-10.776
如大	-10.776
羣	-10.7762
此方	-10.7762
自相空故	-10.7764
聖法	-10.7767
為真	-10.7767
現觀	-10.7768
何等法	-10.777
最為	-10.777
所受	-10.7772
託	-10.7774
五戒	-10.7774
無記法	-10.7775
不具	-10.7775
孰	-10.7778
法性可得	-10.778
超勝一切世間天	-10.778
無際空故	-10.7781
弟	-10.7781
之用	-10.7781
故非	-10.7781
非佛	-10.7789
對曰	-10.7791
若約	-10.7791
能入	-10.7792
捨離	-10.7795
非法相	-10.7798
難解	-10.7799
現世	-10.7803
由前	-10.7804
不作集不作散	-10.7806
淨若不淨	-10.7806
般若波羅蜜多心經	-10.7807
修習無忘失法	-10.781
發願	-10.7815
畢竟不可得	-10.7825
聞般若波羅蜜	-10.7825
而見	-10.7827
修習一切智	-10.7828
修習一切陀羅尼門	-10.7829
為相	-10.783
樂苦	-10.7831
求佛	-10.7842
獲得	-10.7843
疎	-10.7844
勝也	-10.7846
問言	-10.7848
福德聚	-10.7849
」。「	-10.7853
承事	-10.7857
觀者	-10.786
起者	-10.7865
復言	-10.7866
我不欲令生	-10.7869
一性	-10.7872
因緣乃至增上緣	-10.7873
以成	-10.7875
前明	-10.7881
不住於相	-10.7882
聞經	-10.7883
前言	-10.7883
有性	-10.7884
勿取	-10.7888
得清淨	-10.7891
於中有二	-10.7892
長老	-10.7892
等正覺	-10.7896
生老病死	-10.7902
華香	-10.7904
念住	-10.7904
安住內空	-10.7905
為正	-10.7906
非非法	-10.791
中分二	-10.7912
幻有	-10.7913
走	-10.7916
所獲功德	-10.7921
發意	-10.7923
供養佛	-10.7925
果故	-10.7929
之功	-10.793
全經	-10.793
眼見	-10.7932
過去世	-10.7932
有想	-10.7936
正宗	-10.7936
附	-10.7942
如是諸	-10.795
二十四	-10.7952
何不	-10.7955
前際諸菩薩摩訶薩無所有不可得	-10.7955
即般若	-10.7957
第一義中	-10.7957
無名	-10.7958
初二	-10.796
等至	-10.796
以智慧	-10.7961
佛菩薩	-10.7962
常隨	-10.7968
察	-10.7971
唯假說故般若波羅蜜多清淨	-10.7972
為名	-10.7974
真如甚深	-10.7975
故隨如來生	-10.7977
過去未來現在諸佛	-10.7981
真際	-10.7982
離障	-10.7984
修安忍波羅蜜多	-10.7985
復次須菩提	-10.7992
不當於中住	-10.7993
三諦	-10.7994
皆當	-10.7997
正解	-10.8002
以一	-10.8004
是名世界	-10.8007
二十五	-10.8008
受樂	-10.8009
斷諸	-10.8011
當知菩薩摩訶薩亦無邊	-10.8016
其名	-10.8017
遷	-10.8021
誐	-10.8024
菩薩句義亦復如是實無所有	-10.8024
受持此經	-10.8025
善住	-10.8032
儞	-10.8032
正使	-10.8032
自念	-10.8034
行乃至老死	-10.8034
引證	-10.8035
散華	-10.804
飢渴	-10.8046
彼何謂	-10.8052
以前	-10.8056
十善道	-10.8057
諸善	-10.8059
迎	-10.8059
若色	-10.806
有見	-10.8066
安置	-10.8067
為彼	-10.8068
第四靜慮	-10.807
如是世尊	-10.8072
積集	-10.8073
一切獨覺菩提	-10.8074
。「『	-10.8075
修淨戒波羅蜜多	-10.8076
亦不受	-10.808
作是願	-10.8081
鎧	-10.8082
文也	-10.8083
恃	-10.8086
斷障	-10.8087
大莊嚴	-10.8089
常勤修學	-10.8091
不作有力不作無力	-10.8092
非如來法性中	-10.8094
天眾	-10.8096
雖是	-10.8101
修習無上正等菩提	-10.8102
所學	-10.8103
如次	-10.8104
上妙	-10.8105
隨眠	-10.8107
非真實	-10.8109
真如故隨如來生	-10.811
能護	-10.8111
結成	-10.8112
宿命	-10.8116
能住	-10.8117
侵	-10.812
義理	-10.812
禁	-10.8122
不息	-10.8123
彼此	-10.8123
覺性	-10.8123
即非莊嚴	-10.8126
空虛	-10.8127
修靜慮波羅蜜多	-10.8127
如影	-10.8129
包	-10.8129
心行	-10.8133
亦皆	-10.8135
因緣生	-10.8142
奧	-10.8148
喜樂	-10.8151
難可	-10.8152
二約	-10.8152
!』	-10.8153
不應執著	-10.8154
不作有量不作無量	-10.816
是學	-10.8162
本性爾故	-10.8162
超越	-10.8167
諸阿羅漢	-10.817
乘大乘者亦不	-10.8171
放逸	-10.8173
問意	-10.8174
道人	-10.8175
四蘊	-10.8179
人人	-10.818
釋迦牟尼佛	-10.8182
月光	-10.8186
此問	-10.8186
若有善男子善女人	-10.8188
於無	-10.819
粗	-10.8194
說是	-10.8195
悲智	-10.8195
稽首	-10.8196
能示諸佛	-10.8199
是有漏	-10.8203
夏	-10.8203
佛知	-10.8206
樓	-10.8207
均	-10.8214
即成	-10.8215
斷故	-10.8216
令知	-10.8222
不行受	-10.8225
無法有法空	-10.8226
為他說	-10.8227
真如非相應非不相應	-10.8228
▁○	-10.8233
空理	-10.8234
大般若	-10.8237
非如來真如中	-10.8241
此品	-10.8242
引攝	-10.8243
令善通利	-10.8243
明之	-10.8244
宣說如是甚深般若波羅蜜多	-10.8245
有信	-10.8246
猶有	-10.8247
為行般若波羅蜜	-10.825
知有	-10.825
則能圓滿	-10.8251
以要言之	-10.8252
指示	-10.8256
破之	-10.8257
久住	-10.8259
如水	-10.8262
銀	-10.8262
枝	-10.8262
即同	-10.8271
無邊際故	-10.8272
亦不見有	-10.8275
修精進波羅蜜多	-10.8276
即說	-10.8276
此一	-10.8278
常在	-10.829
無過	-10.8294
證得一切智智	-10.8296
壽者見	-10.8302
聞佛	-10.8307
犯戒	-10.8308
不一	-10.8309
曠野	-10.8311
滅盡	-10.8315
應生	-10.8316
斷除	-10.8318
得成佛	-10.8323
諸弟子	-10.8324
中之	-10.8324
宅	-10.8327
妙理	-10.833
遊戲	-10.8332
三昧者	-10.8332
刺	-10.8334
自性皆空	-10.8336
優劣	-10.8336
為顯	-10.8336
修習空解脫門	-10.8337
隨順般若波羅蜜多	-10.834
既不	-10.8341
法爾	-10.8344
四門	-10.8348
形像	-10.8348
觀心	-10.8351
豐	-10.8351
第八地	-10.8352
而為說法	-10.8352
瞋恨	-10.8353
務	-10.8354
應如是學	-10.8358
一切法中	-10.8358
作大	-10.8358
蘇	-10.8358
塞	-10.8362
送	-10.8364
以法	-10.8367
何者是	-10.8368
內心	-10.8368
顯示涅槃	-10.8374
非作非不作	-10.8375
諸天人	-10.8376
眾生故	-10.8376
是為住習	-10.8387
非寂靜非不寂靜	-10.8389
住心	-10.8389
長者女	-10.8392
性空中	-10.8405
食時	-10.8406
生死涅槃	-10.8406
凡所有相	-10.8407
於其中	-10.8408
非彼	-10.8409
作用	-10.841
不應觀耳	-10.8413
宮殿	-10.8416
聖凡	-10.8417
行住坐臥	-10.8418
教令	-10.8421
四見	-10.8424
一段	-10.8425
拈	-10.8427
既云	-10.8433
孝	-10.8433
鼓	-10.8434
此句	-10.8435
之與	-10.8436
非如	-10.8436
我想	-10.8438
修行布施	-10.8439
佛告阿難	-10.8442
此法門	-10.8443
第十一	-10.845
此初	-10.845
大人	-10.8454
若菩薩摩訶薩修行般若波羅蜜多	-10.8456
作法	-10.8456
尸羅	-10.8461
若得	-10.8462
有三昧名	-10.8468
中如來可得	-10.8478
下至	-10.8478
無有一法	-10.8479
以用布施	-10.848
有情界	-10.8485
六祖	-10.8485
為佛	-10.849
不假	-10.849
今者	-10.8493
此亦	-10.8495
本末	-10.8496
邊際	-10.8497
鑒	-10.8499
真如是菩薩摩訶薩不	-10.85
云何住	-10.85
菩薩摩訶薩以	-10.8502
氷	-10.8508
亦不行	-10.8512
下第二明	-10.8512
行菩薩道	-10.8513
一切人	-10.8519
了了	-10.8522
隨機	-10.8523
香華	-10.8523
未嘗	-10.8528
心地	-10.8532
至一切智智中住	-10.8535
於心	-10.8539
非遠離非不遠離	-10.854
不曾	-10.8546
而無所	-10.8546
得受記	-10.8551
趣向	-10.8552
隨其所應	-10.8552
賣	-10.8553
有量	-10.8556
菩薩如是	-10.8557
勝定	-10.8558
理趣	-10.8558
勇	-10.8558
』(	-10.8561
指疑起處	-10.8561
即見如來	-10.8563
令生	-10.8566
法性非相應非不相應	-10.8567
菩薩也	-10.8569
頗有眾生	-10.8575
菩薩為	-10.8576
為破	-10.8577
大經	-10.8578
紅	-10.8579
後三	-10.858
方便力故	-10.858
般涅槃	-10.8581
真如亦非相應非不相應	-10.8583
果德	-10.8595
釋意云	-10.8597
菩提分法	-10.8599
古今	-10.8605
無際	-10.8605
無上道	-10.8607
猶豫	-10.8608
四念處乃至八聖道分	-10.861
為證	-10.861
若說	-10.8612
此處	-10.862
是菩薩摩訶薩由起此想	-10.8622
若菩薩摩訶薩於	-10.8624
給	-10.8631
即受	-10.8631
中如來法性可得	-10.8632
皆大歡喜	-10.8634
苦海	-10.8634
重罪	-10.8635
聲聞法	-10.8637
生也	-10.8638
五通	-10.8638
二百	-10.8639
斷常	-10.864
飯	-10.864
之地	-10.8642
不取於相	-10.8643
塵界	-10.8645
利樂有情	-10.8645
信心清淨	-10.865
怪	-10.8652
有種種	-10.8653
身見	-10.8654
無苦	-10.8655
歌	-10.8657
不恐	-10.8668
分之	-10.8672
或執	-10.8674
不繫	-10.8674
於未來世	-10.8677
三千世界	-10.8678
生長	-10.8678
太虗	-10.8682
咸同一相	-10.8684
非有對非無對	-10.8684
非有見非無見	-10.8684
轉妙法輪	-10.8687
或作	-10.8689
獸	-10.8689
了義	-10.8689
不作大小	-10.869
九種	-10.8693
亦不住	-10.8693
能通達	-10.8694
說名為	-10.8698
不為棄捨	-10.8699
其福甚多	-10.8704
更不	-10.8704
作是願言	-10.8704
道者	-10.8704
佛號	-10.8706
無上覺	-10.8707
妻子	-10.8708
別說	-10.8708
法性亦非相應非不相應	-10.8712
饒益有情	-10.8713
格	-10.8715
無諸	-10.8717
直至	-10.8722
南方	-10.8726
買	-10.8728
覺觀	-10.8728
六入	-10.8729
是法平等	-10.873
惡法	-10.8731
清淨心	-10.8732
階	-10.8734
有盡	-10.8735
具足色身	-10.8735
是菩薩摩訶薩於	-10.8739
寫	-10.8742
宣說般若波羅蜜多	-10.8742
三禪	-10.8743
一行	-10.8744
本體	-10.875
金剛三昧	-10.8753
以布施	-10.8755
而取無上正等菩提	-10.876
非有色非無色	-10.8761
空不異色	-10.8761
解脫智見蘊	-10.8762
賀	-10.877
戒蘊	-10.8772
有八	-10.8778
麻	-10.8778
三門	-10.878
良由	-10.8784
及所	-10.8785
大千世界	-10.8786
作集散	-10.8787
而彼	-10.8791
及彼	-10.8791
不作廣狹	-10.8792
之異	-10.8793
不作集散	-10.8793
大智度論	-10.8794
憑	-10.8796
四念處乃至十八不共法	-10.8797
哀	-10.8797
異生地	-10.8799
輕慢	-10.88
般若也	-10.88
後一	-10.88
無生法	-10.8801
現在諸佛	-10.8803
言其	-10.8803
闡	-10.8804
尤	-10.8805
自下	-10.8812
教他	-10.8813
着	-10.8814
二俱	-10.8817
所欲	-10.8817
真如即	-10.8819
能捨	-10.8822
於阿耨多羅三藐三菩提	-10.8827
無礙智	-10.883
所造	-10.8834
癡清淨	-10.8835
善男子善女人	-10.8837
若作大小	-10.8838
甚深故此法甚深	-10.8838
以諸	-10.884
心性	-10.884
無失	-10.884
其言	-10.884
倚	-10.8844
厭離	-10.8846
異故	-10.8854
阿含	-10.8863
牽	-10.8863
龍王	-10.8865
而為方便	-10.8867
乃至正憶念	-10.8867
觀菩薩句義無所有不可得亦	-10.8871
聚集	-10.8872
作此	-10.8873
▁五	-10.8876
稟	-10.8878
上至	-10.8881
傅大士	-10.8883
李文會	-10.8883
疑也	-10.8884
妄執	-10.8884
當得作佛	-10.8887
即於	-10.8887
充	-10.8888
便作是念	-10.8889
領納	-10.8889
妙用	-10.8892
局	-10.8893
召	-10.8893
又解	-10.8896
何緣故說	-10.8898
所有功德	-10.8903
為令	-10.8903
無虗	-10.8906
三百	-10.8908
三慧	-10.8908
度者	-10.891
增減故學	-10.8918
無量百千	-10.8918
軟	-10.8919
非餘	-10.8922
成立	-10.8926
而不得	-10.8928
六趣	-10.8928
空義	-10.8928
離欲地	-10.8928
發心者	-10.8931
冷	-10.8933
不墮欲界	-10.8933
由此般若波羅蜜多	-10.8934
可解	-10.8936
▁次	-10.894
若作	-10.8941
我不	-10.8941
有罪	-10.8941
嚩日囉	-10.8944
無極	-10.8945
惡知識	-10.8948
琉璃	-10.895
欲為	-10.8952
佛與	-10.8953
三賢	-10.8957
朗	-10.896
是真如	-10.8961
慧蘊	-10.8964
不住色	-10.8967
釋經中	-10.8968
為用	-10.897
擬	-10.8971
如來說法	-10.8975
時也	-10.8977
下句	-10.8978
一切相	-10.8981
素	-10.8981
於餘	-10.8981
作廣狹	-10.8985
三結	-10.8988
觀耳	-10.8991
河沙	-10.8992
內身	-10.9
為實有	-10.9001
覩史多天	-10.9001
持此	-10.9005
是淨	-10.9007
一切法真如	-10.9011
於一	-10.9018
生天	-10.9021
無益	-10.9021
無限	-10.9022
劍	-10.9032
人皆	-10.9035
即無相	-10.9038
末後	-10.9039
疊	-10.904
俱無	-10.9041
相待	-10.9041
於佛十力	-10.9043
旋	-10.9043
浪	-10.9043
毗	-10.9046
者明	-10.9047
為得	-10.905
婆沙	-10.905
此分	-10.9056
是菩薩耶	-10.9062
菩薩得	-10.9063
而此	-10.9066
常若無常	-10.9068
解脫蘊	-10.9069
我若	-10.9074
爾時須菩提白佛言	-10.9074
其理	-10.9079
根塵	-10.908
世界中	-10.908
得生	-10.9081
諸外道	-10.9082
無物	-10.9084
滅故學	-10.9084
淨佛世界	-10.9087
為方便	-10.9087
盡故學	-10.9088
如言	-10.9089
遠離一切	-10.9097
應行	-10.91
得聞是經	-10.91
自住	-10.9102
故名如來	-10.9104
竹	-10.9113
具有	-10.9117
日出	-10.9117
取捨	-10.912
睡	-10.912
震	-10.9121
如來法身	-10.9121
中有三	-10.9124
王舍城	-10.9124
以何義故	-10.9125
惡不善法	-10.9125
功德勝利	-10.9126
納	-10.9129
若不攝受	-10.9129
從初	-10.913
果位	-10.9131
其體	-10.9132
應作如是觀	-10.9132
得益	-10.9133
空不壞	-10.9134
是故佛說	-10.9134
無差	-10.9135
天魔	-10.9136
自覺	-10.9137
三釋	-10.9141
中品	-10.9143
為作	-10.9145
識相	-10.9146
梵王	-10.9147
非為	-10.9151
利眾生	-10.9151
之真	-10.9153
測	-10.9153
若般若波羅蜜多	-10.9154
若起	-10.9155
福勝	-10.9156
不自在性	-10.9159
一千	-10.916
影像	-10.9161
不壞空	-10.9162
論說	-10.9168
作有力作無力	-10.917
應無所住	-10.9171
三分	-10.9172
六地	-10.9173
別教	-10.9176
甚深故	-10.9176
亦無性為性	-10.9177
大悲心	-10.9177
三問	-10.918
右膝著地	-10.9189
利養	-10.9202
移	-10.9202
不退轉菩薩摩訶薩	-10.9204
度一切苦厄	-10.9205
即無明	-10.9207
法性清淨	-10.9207
正定	-10.9211
併	-10.9212
處所	-10.9212
教授	-10.9213
正等正覺	-10.9214
抑	-10.9215
業障	-10.9222
能緣	-10.9224
修遣	-10.9228
辱	-10.9231
慚愧	-10.9231
欲證無上正等菩提	-10.9232
非當可得	-10.9232
無邊功德	-10.9234
為非	-10.9238
如是見	-10.9239
一合相者	-10.9241
三昧門	-10.9242
諷誦	-10.9252
作有量作無量	-10.9252
飢	-10.9254
能引	-10.9258
意明	-10.9258
云何知	-10.9269
那由他	-10.9271
諸菩薩摩訶薩眾	-10.9271
皆是虗妄	-10.9273
是身	-10.9275
持經功德	-10.9275
善現復白佛言	-10.9282
彌陀	-10.9283
須菩提問	-10.9286
何名	-10.9293
准此	-10.9298
相即	-10.9301
修般若波羅蜜多	-10.9301
謂以	-10.9303
能如實知	-10.9304
因位	-10.9304
空無所有	-10.9304
不當住	-10.9306
以方便力故	-10.9309
是我是我所	-10.931
須達	-10.9312
精舍	-10.9313
想空為不二	-10.9314
四緣	-10.9314
非現可得	-10.9314
大臣	-10.9318
今既	-10.9318
亦復不	-10.9318
頃	-10.932
般若中	-10.9323
迷悟	-10.9323
不異法界	-10.9323
不作有力無力	-10.9324
己身	-10.9329
人之	-10.933
能證得一切智智	-10.9332
雖觀	-10.9336
業果	-10.9338
離垢	-10.934
其文	-10.9341
不應住色生心	-10.9345
應於	-10.9345
欲令眾生	-10.9349
佛者	-10.935
為勝	-10.9351
勝彼	-10.9354
非已	-10.9354
臂	-10.9355
畜	-10.9357
火燒	-10.9358
今則	-10.9361
諸趣	-10.9367
虛妄分別	-10.9367
之門	-10.9372
得失	-10.9374
無有少法	-10.9375
亂心	-10.9377
能治	-10.9381
染心	-10.9381
或可	-10.9381
上中下	-10.9382
弊	-10.9385
佛自	-10.9392
不及一	-10.9393
種種因緣	-10.9393
若作有力無力	-10.9395
泡	-10.9398
於眾生	-10.9404
或為	-10.941
雪	-10.9411
生空	-10.9417
為他廣說	-10.9418
入無餘涅槃	-10.9418
於世	-10.9418
不還果清淨	-10.9422
傍	-10.9422
無比	-10.9425
斷絕	-10.9428
阿鞞	-10.943
諸法皆	-10.9431
淨名	-10.9433
想為二	-10.9435
彌勒菩薩	-10.9436
忿	-10.9436
不善法	-10.9437
智相	-10.9437
五度	-10.9438
不示現	-10.9438
是行	-10.9441
救護	-10.9441
本際	-10.9444
虫	-10.9444
混	-10.9447
定蘊	-10.9447
欲樂	-10.9449
謂我	-10.945
馳	-10.9451
心相	-10.9453
二利	-10.9454
趣無上正等菩提	-10.9455
滅聖諦清淨	-10.9457
囑	-10.9458
無有二	-10.9463
若復	-10.9463
尋香城	-10.9465
中流	-10.9465
善能	-10.947
當一一釋	-10.9473
行時	-10.9477
長時	-10.948
大樂	-10.9487
如常	-10.9489
彼菩薩摩訶薩	-10.9489
三菩提	-10.9492
之間	-10.9494
聲色	-10.9495
梵眾天	-10.9495
世間出世間	-10.9496
勤修學	-10.9496
修菩薩行	-10.9497
勝妙	-10.9497
嚴飾	-10.9502
如來常說	-10.9504
而白佛言	-10.9505
於諸佛所	-10.9506
異也	-10.9508
而證	-10.9508
佛乘	-10.9509
趣入	-10.9509
牢固	-10.9514
與之	-10.9516
不作有量無量	-10.9518
隨逐	-10.9519
何須	-10.952
圍繞	-10.9522
二十八	-10.9523
是無漏	-10.9524
喚	-10.9526
論中	-10.9527
幸	-10.9529
有時	-10.9529
第三明	-10.953
是處	-10.9531
丹	-10.9533
補	-10.9533
法義	-10.9535
譬如人	-10.9536
律儀	-10.954
法界清淨	-10.9543
捉	-10.9544
度人	-10.9544
為學	-10.9546
不增	-10.9548
愛敬	-10.955
萬德	-10.955
根性	-10.955
無因	-10.9551
尊貴	-10.9553
求之	-10.9554
有能	-10.9556
上說	-10.9557
一來果清淨	-10.9558
拏	-10.956
皆言	-10.9561
善學	-10.9565
然而	-10.9565
法華經	-10.9565
若有相若無相	-10.9566
惡人	-10.9567
□□□	-10.9573
從一佛國至一佛國	-10.9575
疾能證得一切智智	-10.9575
平等不平等性	-10.9576
勝義諦中	-10.9576
餘處	-10.9576
真常	-10.9578
知識	-10.9579
行深般若波羅蜜多時	-10.9579
能圓滿	-10.9579
清淨故眼界清淨	-10.9579
清淨故舌界清淨	-10.9581
憶想分別	-10.9584
證道	-10.9585
清淨故身界清淨	-10.9586
於真如	-10.9587
之空	-10.9589
中來	-10.9592
集聖諦清淨	-10.9593
自此	-10.9594
少有	-10.9596
諸菩薩摩訶薩亦復如是	-10.96
超過	-10.9603
大捨清淨	-10.9603
清淨故耳界清淨	-10.9604
不見法	-10.9605
如來悉知	-10.9606
同前	-10.9607
拳	-10.9612
於法界	-10.9613
清淨故意界清淨	-10.9613
得阿羅漢	-10.9614
水中	-10.9616
追	-10.9617
生歡喜	-10.9617
清淨故無明清淨	-10.9619
十二部經	-10.962
常應	-10.962
自下第二	-10.9622
為眾生說法	-10.9622
各自	-10.9626
陽焰	-10.9626
於五眼	-10.9627
不作大不作小	-10.9627
射	-10.9632
得是三昧	-10.9632
內有	-10.9633
所入	-10.9637
聞慧	-10.9638
瞻	-10.9642
號釋迦牟尼	-10.9643
般若波羅蜜經	-10.9645
於四靜慮	-10.9647
文言	-10.965
不虛	-10.9651
文句	-10.9653
若取	-10.9653
莫不	-10.9656
上句	-10.9656
布施等	-10.9657
若菩薩摩訶薩行深般若波羅蜜多時	-10.9657
種姓地	-10.9661
令入	-10.9665
餘者	-10.9667
不許	-10.9669
行布施波羅蜜多	-10.9675
道也	-10.9675
其餘	-10.9675
佛世界	-10.968
若見諸相非相	-10.968
孔	-10.968
汝於	-10.9683
楞嚴	-10.9683
於是中	-10.9684
應無所住而生其心	-10.9685
噉	-10.9688
即滅	-10.9692
若虛空	-10.9693
我於爾時	-10.9697
無相解脫門清淨	-10.9698
無等等性	-10.9699
罵	-10.9701
道諦	-10.9701
遍計所執	-10.9702
灰	-10.9703
寬	-10.9703
杖	-10.9705
諸欲	-10.9705
同事	-10.9709
無四相	-10.971
清淨故色處清淨	-10.9711
虎	-10.9715
作有量無量	-10.9718
無量故	-10.9721
皆共	-10.9724
道法	-10.9726
無住無不住	-10.9727
則不信	-10.9727
清淨故眼處清淨	-10.9727
既不可得	-10.9729
名言	-10.973
應無	-10.9731
真淨	-10.9734
十種力	-10.9736
即是佛	-10.9736
忘失	-10.9737
非即	-10.9737
靜慮波羅蜜多清淨	-10.9738
於須菩提意云何	-10.9739
不可施設不可思議	-10.9741
般泥洹	-10.9742
現在世	-10.9747
前來	-10.9747
隨應	-10.9748
體故	-10.9751
自悟	-10.9752
如是學者	-10.9755
五百歲	-10.9757
於無明	-10.9761
真如是謂無上正等菩提	-10.9761
自作	-10.9762
品竟	-10.9768
是道	-10.9773
大願	-10.9775
嚴土	-10.978
四正斷清淨	-10.9784
佛因	-10.9784
有兩	-10.9785
眠	-10.9785
發無上正等覺心	-10.9785
名義	-10.9787
端正	-10.9797
如是住	-10.9798
散心	-10.9802
明矣	-10.9803
虛空無所有故	-10.9806
於內空	-10.9807
離故學	-10.9808
可度	-10.9809
何也	-10.9811
和尚	-10.9811
久遠	-10.9812
如其	-10.9812
都無所	-10.9812
之謂	-10.9814
應圓滿	-10.9817
事理	-10.9819
難思	-10.982
不離散	-10.982
如斯	-10.9824
般若者	-10.9826
番	-10.9827
之極	-10.9829
不觀一切智與	-10.983
清淨故鼻界清淨	-10.9831
清淨故地界清淨	-10.9831
牒前	-10.9831
此以	-10.9838
七等覺支清淨	-10.984
不惜身命	-10.9841
非善	-10.9841
舍衛	-10.9845
2	-10.9846
則曰	-10.9849
蟲	-10.9849
到此	-10.985
分二	-10.9853
無實無虗	-10.9853
禮敬	-10.9854
非道	-10.9854
梵云	-10.9856
上界	-10.9858
為四	-10.986
溺	-10.9862
瞋清淨	-10.9864
汝所	-10.9865
與此	-10.9866
諸菩薩摩訶薩應	-10.9867
為行相	-10.9868
讚佛	-10.9873
拔濟	-10.9874
證智	-10.9874
除遣	-10.9875
之辭	-10.9875
自性故	-10.9875
麁重	-10.9876
須菩提至	-10.9877
無所取	-10.9878
作是念已	-10.9878
五道	-10.9881
王子	-10.9881
幻色	-10.9883
俱不可得	-10.9883
養者	-10.9885
不異本性空	-10.9886
當云何	-10.9886
諸定	-10.989
皆非	-10.9891
貪清淨	-10.9893
義者	-10.9894
非善法	-10.9899
平等中	-10.99
從此第三	-10.9903
理實	-10.9904
正義	-10.9907
諸菩薩摩訶薩前	-10.9908
來世	-10.9909
若有若無	-10.991
宗旨	-10.9915
遍淨天	-10.9916
諸菩薩摩訶薩於如是	-10.9921
不無	-10.9921
解者	-10.9921
亦名麁重	-10.9923
無滅故	-10.9924
淨戒波羅蜜多清淨	-10.9925
空無	-10.9929
若有能依如是等法修行	-10.9929
持此善根	-10.9929
普明	-10.9932
後際不可得	-10.9932
一切行	-10.9937
四無所畏清淨	-10.9938
不生法相	-10.9939
若在內若在外若在兩間增語	-10.9939
外空清淨	-10.994
之一字	-10.994
便生	-10.9942
常為	-10.9943
為異	-10.9944
辟支佛法	-10.9945
於世間	-10.9946
於此淨戒波羅蜜多	-10.9948
二行	-10.9948
危	-10.9949
問之	-10.9951
是故言	-10.9952
實信	-10.9954
者何	-10.9955
自性空清淨	-10.9959
尋思	-10.9959
萬劫	-10.9959
畢竟空清淨	-10.9961
稱歎	-10.9965
其法	-10.9966
記云	-10.9967
是因	-10.9969
床	-10.9969
在此	-10.997
色究竟天	-10.997
不悔	-10.9971
堅實	-10.9978
覺支	-10.9986
不二法	-10.9993
威	-10.9996
答之	-10.9997
住著	-11.0001
廣果天	-11.0002
離一切	-11.0004
貪等	-11.0005
等心	-11.0007
處故	-11.0007
不貴	-11.0009
無所不	-11.0012
慈氏菩薩	-11.0013
寂滅忍	-11.0016
若菩薩摩訶薩以應一切智智心	-11.0023
若菩薩摩訶薩如是學時	-11.0023
九次第定清淨	-11.0024
可名	-11.0025
無減	-11.0028
曠	-11.0029
是菩提	-11.0029
後有	-11.003
能證無上正等菩提	-11.0031
所在之處	-11.0035
其事	-11.0037
乃名	-11.004
湛然	-11.0041
所著	-11.0041
行於布施	-11.0043
繫縛	-11.0043
三果	-11.0044
無菩薩	-11.0046
弱	-11.0047
慕	-11.0047
問云	-11.005
烏	-11.0051
迴向心	-11.0051
雖修	-11.0053
穿	-11.0054
此間	-11.0054
佛有	-11.0054
大慈清淨	-11.0059
非非	-11.0061
吽	-11.0063
百年	-11.0066
本性空不異	-11.0066
之法也	-11.0067
忽然	-11.0067
染污	-11.0073
本淨	-11.0073
亦不應住	-11.0074
如來之	-11.0076
滅時	-11.0078
▁淨	-11.0079
八背捨	-11.0079
第二句	-11.008
無作三昧	-11.008
五法	-11.0082
得阿羅漢果	-11.0084
百千俱胝那庾多	-11.0087
安忍波羅蜜多清淨	-11.0087
有二意	-11.0088
不思惟	-11.0089
預流向	-11.009
善心	-11.0092
為主	-11.0095
之內	-11.0095
自性涅槃故學	-11.0095
義非義	-11.0096
能說法者	-11.0097
此皆	-11.0099
與人	-11.01
一切世間天	-11.0102
稱譽	-11.0104
以無量門巧妙文義	-11.0105
無生故學	-11.0108
一切法空清淨	-11.0108
鬪諍	-11.0108
即佛	-11.0111
中行	-11.0113
即水	-11.0115
世尊告	-11.0115
用心	-11.0118
自證	-11.0118
皆無所有	-11.0121
佛告舍利子	-11.0121
如是知	-11.0122
畢竟淨法	-11.0125
百千萬億	-11.0129
四無礙解清淨	-11.0131
難也	-11.0131
吼	-11.0132
實無眾生得滅度者	-11.0132
為除	-11.0134
澄	-11.0134
第一義空	-11.0135
得阿耨菩提	-11.0136
離此	-11.0136
能如實	-11.014
彼於	-11.0141
經初	-11.0142
色無色界	-11.0145
即一切智	-11.0149
乃至十八佛不共法	-11.015
無變異空清淨	-11.0151
三千界	-11.0151
散空清淨	-11.0153
各別	-11.0158
為求	-11.0163
不變異性清淨	-11.0163
大梵天	-11.0163
已辦地	-11.0165
如來所得	-11.0167
於菩薩	-11.0168
無性空清淨	-11.0169
內外空清淨	-11.017
五趣	-11.0172
十八不共諸佛之法	-11.0172
大空清淨	-11.0177
以何	-11.0179
假說	-11.0182
一切智清淨	-11.0185
本來寂靜故學	-11.0186
相應作意	-11.0188
亦不為	-11.0188
薩芸若慧	-11.0189
身口意	-11.0196
復有三昧名曰	-11.0197
世諦故	-11.0198
歡喜讚歎修	-11.0199
枝葉	-11.02
為第一	-11.02
五力清淨	-11.02
無量阿僧祇	-11.0204
修因	-11.0206
凝	-11.0206
莊嚴佛土者	-11.0206
五塵	-11.0207
作如是說	-11.0211
江	-11.0212
多羅	-11.0213
曩	-11.0214
無事	-11.0216
無眾生相	-11.0219
大喜清淨	-11.0219
無滅故學	-11.022
無有高下	-11.0221
永無	-11.0221
卷第十	-11.0223
伸	-11.0224
勉	-11.0224
汝若能修如是般若	-11.0226
學般若波羅蜜多	-11.0233
謂彼	-11.0233
拂	-11.0235
福業	-11.0236
是大	-11.0236
於三界	-11.0237
樹下	-11.0239
言有	-11.0239
如光影	-11.024
嚴淨一切智	-11.0241
無不皆	-11.0243
法定清淨	-11.0244
此正	-11.0244
悲心	-11.0245
無際空清淨	-11.0246
若諸	-11.0246
一名	-11.0248
云何能	-11.0248
精進波羅蜜多清淨	-11.025
勝義空清淨	-11.0254
諸三昧門	-11.0256
不可得空清淨	-11.0256
餘經	-11.0257
雖得	-11.0258
神通力	-11.0259
亦能學	-11.0259
初約	-11.0261
無為空清淨	-11.0264
法住清淨	-11.0265
實際清淨	-11.0266
諸佛所	-11.0267
識亦	-11.0267
初舉	-11.027
自相空清淨	-11.027
丈夫	-11.0271
大悲清淨	-11.0273
若有願若無願	-11.0273
法生	-11.0274
無空過者	-11.0281
學不增不減	-11.0282
無實故	-11.0283
嚕	-11.0284
佛十力乃至十八佛不共法	-11.0285
作如是	-11.0287
平等性清淨	-11.0287
苦集	-11.0287
者乎	-11.0289
以智	-11.029
本性空清淨	-11.029
即是如來	-11.0291
損減	-11.0294
結前	-11.0294
若非自性即是精進波羅蜜多	-11.0294
阿耨菩提	-11.0294
無自性不可得	-11.0296
王言	-11.03
於四念住	-11.0303
淨觀地	-11.0304
攀緣	-11.0306
有疑	-11.0307
識空	-11.0309
枯	-11.0311
竪	-11.0313
雖未	-11.0315
所度	-11.0315
門中	-11.0316
」「	-11.0316
卒	-11.0317
若干種心	-11.0318
甲	-11.0318
是諸佛	-11.0318
以方便力	-11.0318
便謂	-11.0322
此非	-11.0324
共相空清淨	-11.0328
離生性清淨	-11.033
普賢	-11.033
閑	-11.033
能離	-11.0331
不虛妄性清淨	-11.0333
名為佛	-11.0335
清淨故味界	-11.0336
所顯	-11.0338
菩薩字	-11.0339
是實有	-11.0339
不受福德	-11.034
是苦	-11.034
九品	-11.0342
一切智智即是	-11.0347
清淨故香界	-11.0349
應自	-11.035
知眾生	-11.035
有為空清淨	-11.035
智度論	-11.035
翻譯	-11.0351
化一切眾生	-11.0352
得無障礙	-11.0353
八萬	-11.0355
量不可得	-11.0356
略明	-11.0359
亦不有	-11.0359
無去來	-11.036
為法	-11.0363
況觀一切智與	-11.0363
際自性故	-11.0364
空空清淨	-11.0364
何以不	-11.0366
是故如來	-11.0366
樂受	-11.0369
求趣無上正等菩提	-11.0369
非顛倒	-11.0369
不虗	-11.0373
不去	-11.0373
而今	-11.0373
有限	-11.0374
能信解	-11.0376
種種差別	-11.0376
於道相智	-11.0376
能伏	-11.0377
勸持	-11.0377
聖智	-11.0378
難量	-11.0378
四神足清淨	-11.038
清淨故聲界	-11.038
慈悲心	-11.038
如來不以具足相故	-11.0382
因緣和合	-11.0385
降伏其心	-11.0386
百萬	-11.0386
也次	-11.0388
般若是	-11.0388
菩薩摩訶薩亦無所有不可得	-11.039
顏	-11.0393
法身也	-11.0393
撰	-11.0393
當知此處	-11.0398
無依	-11.0398
不可得故般若波羅蜜多清淨	-11.0401
如是人等	-11.0401
同異	-11.0403
而求	-11.0403
羊	-11.0404
濫	-11.0405
何因	-11.0408
新注	-11.0409
秋	-11.0411
述成	-11.0413
智母	-11.0413
我所說	-11.0414
計我	-11.0414
隨念	-11.0415
心所法	-11.0416
能聞	-11.0418
滿慈子言	-11.0419
諸佛世界	-11.042
四方	-11.0421
▁初釋	-11.0421
賢首	-11.0422
所不	-11.0422
之物	-11.0424
寧有	-11.0425
是果	-11.0428
千萬	-11.0432
二別	-11.0435
求阿耨多羅三藐三菩提	-11.0435
真如中有菩薩摩訶薩	-11.0436
方是	-11.0443
七者	-11.0445
實語者	-11.0448
二十一	-11.0449
勝德	-11.045
智故	-11.0451
二十三	-11.0452
及餘無量無邊佛法	-11.0453
苦厄	-11.0454
燃燈佛	-11.0454
智也	-11.0454
希求	-11.0458
終不離	-11.0459
與我	-11.0461
渴	-11.0462
諸法皆空	-11.0462
若有為若無為	-11.0463
清淨故觸界	-11.0465
不寂靜	-11.0467
此土	-11.0468
通教	-11.0468
微笑	-11.0469
當如	-11.0469
利物	-11.0469
修行般若波羅蜜多菩薩摩訶薩	-11.0471
舍衛國	-11.0475
真如亦不可得	-11.0475
不染不淨故般若波羅蜜多清淨	-11.0481
呼須菩提曰	-11.0484
植	-11.0485
第三句	-11.0486
甚深般若	-11.0487
隨喜心	-11.0487
為眾生說	-11.0489
白衣	-11.049
微塵眾	-11.0491
正以	-11.0493
又說	-11.0495
真言	-11.0506
亦無邊	-11.0508
相中	-11.051
倫	-11.0512
非智	-11.0513
證入	-11.0515
一也	-11.0517
與空相應	-11.0521
地上	-11.0522
空觀	-11.0523
第一波羅蜜	-11.0523
攝一切	-11.0523
一切相智道	-11.0525
十八法	-11.0525
俱舍	-11.0525
修定	-11.0528
諸苦	-11.0529
如像	-11.0529
所云	-11.053
悟解	-11.0531
豈得	-11.0536
是我清淨與	-11.0538
是虛妄	-11.054
是知者清淨與	-11.0542
非有想非無想處	-11.0542
是有情清淨與	-11.0544
欲顯	-11.0548
甚奇	-11.0548
之語	-11.0549
是命者清淨與	-11.055
是士夫清淨與	-11.055
求佛道	-11.0552
而不能	-11.0554
諸心	-11.0555
髓	-11.0558
不可稱計	-11.0558
佛母	-11.0558
三千大千	-11.0561
菩薩摩訶薩應引般若波羅蜜多	-11.0562
離言	-11.0562
之功德	-11.0563
總別	-11.0564
欲明	-11.0564
亦無窮盡	-11.0565
花香	-11.0567
不可見故	-11.0569
流布	-11.0569
不可說故般若波羅蜜多清淨	-11.057
執取	-11.0573
谷	-11.0575
前二句	-11.0576
在內	-11.0576
於大眾中	-11.0577
掌	-11.0579
悉見是人	-11.0582
掉	-11.0583
乃至無性自性空	-11.0583
邪行	-11.0586
大品云	-11.0586
業報	-11.0587
法假	-11.0588
前之	-11.059
體空	-11.059
彼善男子	-11.0591
佛出世	-11.0591
即彼	-11.0592
非菩薩摩訶薩中有	-11.0595
心無罣礙	-11.0597
作諸	-11.06
兄弟	-11.06
其數	-11.0602
崇	-11.0602
淨佛土	-11.0603
不能知	-11.0605
正理	-11.0606
色清淨故一切智智清淨	-11.061
現見	-11.0612
因也	-11.0613
大乘者	-11.0616
得阿耨多羅三耶三菩	-11.0617
報化	-11.0621
無礙解	-11.0625
未免	-11.0626
未來現在	-11.0627
是誰	-11.0628
不退轉地	-11.0629
是作者清淨與	-11.0631
為多	-11.0632
非不眾生	-11.0632
是受者清淨與	-11.0633
由此緣故	-11.0635
惟逮波羅蜜	-11.0635
不生不滅故學	-11.0636
不唯	-11.0637
淨天	-11.064
是生者清淨與	-11.064
修般若波羅蜜	-11.0641
即入	-11.0641
所居	-11.0642
不分	-11.0643
是養育者清淨與	-11.0643
無住處	-11.0644
彼諸菩薩	-11.0644
是補特伽羅清淨與	-11.0644
大劫	-11.0645
如所	-11.0645
勝天王	-11.0645
二名	-11.0648
第二十	-11.065
故舉	-11.065
若五根清淨	-11.0655
無罣礙	-11.0656
天人師	-11.0656
於四無量	-11.066
資糧	-11.0662
破法	-11.0664
諸法如	-11.0666
魔軍	-11.0666
利生	-11.0666
而取	-11.0668
云何如來	-11.0669
見者清淨即	-11.067
無無明	-11.0671
諸字	-11.0673
如陽焰	-11.0673
快	-11.0674
吹	-11.0676
謂諸菩薩	-11.068
繩	-11.0681
自性空中若	-11.0682
皆因	-11.0685
真如非菩薩摩訶薩	-11.0686
把	-11.0689
空相應故	-11.0691
二問	-11.0693
若諸如來	-11.0694
種種方便	-11.0694
法非法	-11.0696
而言之	-11.0697
不見耳	-11.0702
分限	-11.0704
於八解脫	-11.0704
色如	-11.0706
但云	-11.071
無取無執	-11.0716
不住涅槃	-11.0718
能聽法者	-11.072
在前	-11.0721
電	-11.0725
四等	-11.0725
金色	-11.0727
前世	-11.0729
空色	-11.073
是見者清淨與	-11.0731
多也	-11.0732
於菩提	-11.0733
全體	-11.0733
法無	-11.0734
是儒童清淨與	-11.0735
具壽善現白言	-11.0735
著於	-11.0737
果者	-11.074
與眾生	-11.0741
翻為	-11.0742
有生滅	-11.0745
作念	-11.0746
彼故	-11.0749
所言菩薩摩訶薩者	-11.075
後心	-11.075
則以	-11.0751
是名阿耨多羅三藐三菩提	-11.0754
十地菩薩	-11.0755
如是思惟	-11.0755
而又	-11.0756
眼耳鼻舌身意	-11.0757
受報	-11.0758
是修般若波羅蜜	-11.076
於一切陀羅尼門	-11.0763
畢定	-11.0764
甞	-11.0764
其本	-11.0765
是行般若波羅蜜	-11.0765
三有	-11.0766
博	-11.0767
修諸	-11.0767
皆從此經出	-11.0767
臭	-11.0768
亦不思惟	-11.0768
直下	-11.077
戀	-11.0773
假令	-11.0774
闍	-11.0775
易得	-11.0775
坑	-11.0776
」】「	-11.0778
深生信解	-11.0782
七難	-11.0783
一二	-11.0784
保	-11.0786
苦受	-11.0792
加持	-11.0801
見故	-11.0809
界等可得	-11.081
此上	-11.0813
魏	-11.0813
正當	-11.0821
二答	-11.0822
是意生清淨與	-11.0823
修行者	-11.0824
為上為無上	-11.0824
不堅實性能行般若波羅蜜多	-11.0825
不墮聲聞及獨覺地	-11.0825
發弘誓願	-11.0828
我不應行	-11.0828
勸修	-11.083
眾多	-11.0831
不可壞	-11.0833
變為	-11.0833
汝若作是念	-11.0834
既言	-11.0835
變現	-11.0837
擐	-11.0838
所解	-11.0838
習種性	-11.0839
懃	-11.0843
是念	-11.0844
受身	-11.0845
一切皆空	-11.0846
養育者清淨即	-11.0847
北藏作	-11.0848
深般若	-11.085
初二句	-11.0851
所感	-11.0851
內法	-11.0853
儒童清淨即	-11.0853
諸菩薩行	-11.0854
但有名字	-11.0856
觀照般若	-11.0856
若善男子善女人	-11.0858
涌	-11.0858
眾寶莊嚴	-11.0861
擔	-11.0862
揭	-11.0863
道智	-11.0864
雖能	-11.0865
安住內空乃至無性自性空	-11.0867
私	-11.0868
云何菩薩摩訶薩行深般若波羅蜜多時	-11.0871
為五	-11.0873
意生清淨即	-11.0874
無漏心	-11.0875
傅大士頌	-11.0878
顛倒故	-11.0878
在外	-11.088
披	-11.0883
諸法實性	-11.0886
命者清淨即	-11.0888
士夫清淨即	-11.0889
同體	-11.089
最上乘	-11.0891
頓悟	-11.0892
一切相智清淨故一切智智清淨	-11.0892
般涅槃後	-11.09
三千大千國土	-11.0903
作者清淨即	-11.0903
當如是	-11.0908
受諸	-11.0908
無退	-11.091
蘊空	-11.0912
非有故	-11.0912
曇無竭	-11.0916
知者清淨即	-11.0916
法亦	-11.0916
為妙為微妙	-11.092
亦於	-11.092
來也	-11.0921
我當精勤	-11.0927
即指	-11.0928
作加行	-11.0929
熾然精進	-11.093
者此云	-11.093
生死苦	-11.0931
豈不應於	-11.0934
有所說	-11.0934
性也	-11.0934
狐疑	-11.0935
摩賀	-11.0935
相應之法	-11.0935
世事	-11.0936
佛讚	-11.0936
即色界	-11.0937
能受持	-11.0938
是福德	-11.0939
汝當於此甚深般若波羅蜜多	-11.094
貢高	-11.0941
以是故說	-11.0945
滅諦	-11.0945
斷煩惱	-11.0946
以般若波羅蜜	-11.0946
供養般若波羅蜜	-11.0947
能證得	-11.0947
者即是	-11.095
心清淨	-11.095
既得	-11.0953
競	-11.0955
祖師	-11.0958
以一切法皆	-11.096
二分	-11.0961
須臾	-11.0964
即菩提	-11.0965
咄	-11.0965
希有世尊	-11.0966
種類	-11.0967
何故不	-11.0968
蘊處界	-11.0969
般若波羅蜜亦	-11.0969
暢	-11.0973
不被	-11.0973
照見五蘊皆空	-11.0974
或現	-11.0975
出入	-11.0978
受者清淨即	-11.0979
香花	-11.0979
破相	-11.0979
知之	-11.0981
依般若	-11.0983
法不可得故	-11.0984
左右	-11.0985
所能	-11.0986
無障礙	-11.0987
阿惟越致菩薩摩訶薩	-11.0988
龍樹	-11.0988
答中	-11.0989
依正	-11.0989
師子座	-11.0989
彼法	-11.099
不住法	-11.099
如來於離	-11.0991
寂滅相	-11.0993
不貴重	-11.0994
轉輪王	-11.0996
阿闍梨	-11.0998
下界	-11.1002
即五眼	-11.1007
何能	-11.1011
於水	-11.1013
無來去	-11.1015
為諸	-11.1015
十迴向	-11.1017
空處	-11.1017
師曰	-11.1017
常有	-11.1021
是諸有情	-11.1021
性者	-11.1026
與解脫等	-11.1028
能自	-11.103
常無常相不可得	-11.1031
勸學	-11.1032
無有定法	-11.1032
則非過去未來現在	-11.1034
正顯	-11.1035
及一切法	-11.1036
有緣	-11.1037
後人	-11.1037
深信	-11.1044
次句	-11.1044
但假名	-11.1046
生者清淨即	-11.1046
諸惡魔	-11.1048
有心	-11.105
戰	-11.1051
應受	-11.1051
佛告舍利子言	-11.1052
天親論	-11.1054
我得	-11.1055
逼	-11.1056
阿惟越致菩薩	-11.1059
體即	-11.106
六通	-11.1063
既空	-11.1068
坐道場	-11.1072
吒	-11.1072
山中	-11.1073
佛寶	-11.1075
所在	-11.1076
云何有	-11.1078
五義	-11.1081
▁初標	-11.1083
成就如是	-11.1083
始得	-11.1084
於布施波羅蜜多	-11.1086
如來無所說	-11.1087
如是所說	-11.1088
毫	-11.1088
以見	-11.1089
求法	-11.1092
撥	-11.1094
即非一切法	-11.1094
為供養	-11.1099
劫數	-11.1099
菩薩摩訶薩摩訶衍	-11.11
尊者須菩提	-11.111
一切智人	-11.1122
住是定意	-11.1123
雖知	-11.1123
頂禮佛足	-11.1123
我清淨即	-11.1124
山王	-11.1125
補特伽羅清淨即	-11.1129
不來不去	-11.113
無有邊	-11.1132
愁	-11.1132
非二	-11.1133
名假	-11.1134
如說行	-11.1135
初後	-11.1136
心淨	-11.1137
無字	-11.1137
比丘僧	-11.1138
佛不	-11.1138
為首	-11.1138
湏菩提	-11.1138
憂惱	-11.114
得記	-11.114
第十二	-11.1141
天龍	-11.1142
為有所得	-11.1144
名唯客所攝	-11.1145
今為	-11.1146
皆具	-11.1147
熾盛	-11.1148
通名	-11.1151
名中無	-11.1151
肩	-11.1152
貪瞋癡	-11.1156
完	-11.1159
一世界	-11.1163
醫	-11.1165
則應	-11.1165
舟	-11.1166
於外	-11.1167
不淨觀	-11.1167
即從座起	-11.1169
不施設	-11.1169
之慧	-11.1169
空法	-11.1172
故下	-11.1174
圓覺	-11.1175
敷座而坐	-11.1177
入菩薩正性離生	-11.1177
直指	-11.1183
不能攝受	-11.1186
有情清淨即	-11.1188
癡心	-11.1188
言我	-11.1189
即非佛法	-11.119
於眼界	-11.1191
經也	-11.1196
能解	-11.1199
可證	-11.1201
墮落	-11.1203
無增減	-11.1206
亦說	-11.1207
住是	-11.1208
觀也	-11.121
小兒	-11.1212
不二則非	-11.1214
既思惟已	-11.1217
刀杖	-11.1218
千分不及一	-11.122
阿耨	-11.1223
一一皆	-11.1224
是名善法	-11.1224
即色處	-11.1227
偈曰	-11.1229
於後末世	-11.1231
無變異	-11.1233
放大光明	-11.1234
緣故	-11.1235
誰當	-11.1235
前四	-11.1236
入不二無妄法數	-11.1238
卵	-11.1241
常得	-11.1245
結勸	-11.1245
道品	-11.1246
無為性	-11.1247
不相違	-11.125
如是學	-11.1251
復於	-11.1251
一箇	-11.1251
信根	-11.1255
一事	-11.1256
油	-11.1257
釋迦牟尼	-11.1257
為斷此疑	-11.1258
長短	-11.1259
解脫知見	-11.1259
用之	-11.126
牙	-11.1261
身命布施	-11.1263
採	-11.1263
甘	-11.1263
聲聞道	-11.1264
經名	-11.1266
說聽	-11.1267
雷	-11.1268
三輪	-11.1272
默然	-11.1273
案	-11.1273
清淨故色界	-11.1276
般若波羅蜜相	-11.1277
無脫	-11.1281
多不	-11.1283
即眼處	-11.1284
群生	-11.1289
不悟	-11.1289
上上	-11.129
依經	-11.1291
道相智清淨	-11.1292
而可	-11.1293
二十九	-11.1293
四智	-11.1294
不能見如來	-11.1295
二十七	-11.1295
諸法無	-11.13
止觀	-11.1305
神變	-11.1305
正等覺依深般若波羅蜜多	-11.1305
名大	-11.1306
已說	-11.1306
故論云	-11.1306
尚不得	-11.1312
能滿	-11.1314
及法	-11.1315
今佛	-11.1316
我得阿羅漢道	-11.1316
非造非不造	-11.1318
而於其中	-11.1318
三三昧	-11.1322
色是	-11.1323
趣不可超越	-11.1324
佛告釋提桓因	-11.1324
於眼處	-11.1324
以一切法自性空故	-11.1327
此智	-11.1328
異處	-11.1329
無壽者相	-11.1329
吉祥	-11.133
決定不退	-11.1335
明佛	-11.1336
則生	-11.1336
熱惱	-11.1337
初一	-11.1338
▁二釋	-11.1341
權實	-11.1346
果報亦不可思議	-11.1347
熾然	-11.1347
發大心	-11.135
國土中	-11.1351
來去	-11.1353
濡首	-11.1359
然也	-11.1359
陵	-11.136
腹	-11.136
導師	-11.136
不容	-11.1362
釋前	-11.1369
發趣	-11.1371
佛及	-11.1374
瞋心	-11.1378
修善	-11.1385
永離	-11.1387
是諸法空相	-11.1388
有所作	-11.139
即集	-11.139
初總標	-11.1394
不獲教授	-11.1395
謂由	-11.1396
所作功德	-11.1402
中無名	-11.1404
此善男子	-11.1404
明般若	-11.1409
其處	-11.141
盡故	-11.1412
見此事已	-11.1415
敬禮	-11.1416
諸天眾	-11.1418
無也	-11.1419
不見受	-11.1422
八者	-11.1422
不屬	-11.1426
無本	-11.1428
等名皆	-11.1428
其心不驚不恐不怖	-11.1429
定有	-11.1432
於色處	-11.1432
出現於世	-11.1433
俱是	-11.1433
施諸有情	-11.1434
一切法相	-11.1434
因行	-11.1438
所趣	-11.1438
令他	-11.1444
無倒稱揚	-11.1446
未必	-11.1447
大聖	-11.1451
旦	-11.1452
潔	-11.1452
承上	-11.1453
爾許	-11.1453
欲學	-11.1453
又何	-11.1454
無方便善巧	-11.1454
二處	-11.1458
無人相	-11.1459
日用	-11.1459
第十地	-11.1459
王日休曰	-11.1461
大者	-11.1462
諸聖	-11.1462
戶	-11.1464
無智亦無得	-11.1464
五逆	-11.1469
大城	-11.1469
龍首	-11.147
誰能	-11.1472
以內空	-11.1472
伊	-11.1472
能受	-11.1473
圖	-11.1474
斥	-11.1474
五蓋	-11.1475
說故	-11.1476
即八勝處	-11.1476
以不	-11.1476
汝若	-11.148
無量劫	-11.1482
名利	-11.1484
燃燈	-11.1485
無量眾生	-11.1486
羅什	-11.1487
得證	-11.1488
亦入於	-11.1489
十方殑伽沙等諸佛世界	-11.1489
可施設	-11.149
甚多世尊	-11.1491
幢幡	-11.1494
捨身命	-11.1498
比智	-11.1498
妙有	-11.1505
實際為有異不	-11.1505
般若波羅蜜亦如是	-11.1508
人無我	-11.1508
是名微塵	-11.1509
有煩惱	-11.151
若畢竟不生則不名	-11.1511
之色	-11.1513
▁初依	-11.1515
從彼	-11.1515
惡世	-11.1516
復白佛言	-11.1516
瘡	-11.1517
當知是為魔事	-11.1518
是名說法	-11.152
發問	-11.1522
無厭	-11.1523
與如是法相應故	-11.1529
大覺	-11.1529
即顯	-11.153
本生	-11.153
若集若散	-11.1531
〉	-11.1531
〈	-11.1531
非空非不空	-11.1534
合說	-11.1535
無所作	-11.1538
四無所畏乃至一切相智	-11.1539
夜叉	-11.1543
蔭	-11.1543
供具	-11.1547
大經云	-11.1547
前六	-11.1548
於他	-11.1551
覺心	-11.1552
是名為心	-11.1552
能攝	-11.1552
事相	-11.1553
最極	-11.1554
好醜	-11.1554
利行	-11.1556
使人	-11.1558
唯除	-11.1559
經意云	-11.1559
可得不	-11.156
非一非異	-11.1561
亦應於	-11.1561
即八解脫	-11.1564
尚不能	-11.1564
大乘無所有故	-11.1564
入道	-11.1565
修行布施波羅蜜多	-11.1566
如幻士	-11.1567
以示	-11.1568
巨	-11.1568
即四念住	-11.1569
即著我人眾生壽者	-11.157
似有	-11.157
漚	-11.157
所治	-11.1572
竊	-11.1572
是何	-11.1576
亦不應	-11.1578
渾	-11.1578
即無忘失法	-11.1579
堅利	-11.158
即眼界	-11.1581
沙彌	-11.1583
以如來	-11.1586
即道相智	-11.1588
八勝處清淨	-11.159
即地界	-11.1592
後得	-11.1593
行般若波羅蜜多	-11.1595
至誠	-11.1595
即眼識界	-11.1597
清淨故受	-11.1597
終無	-11.1601
色痛痒思想生死識	-11.1602
言如來	-11.161
此中說	-11.1611
不堪	-11.1612
聞聲	-11.1613
福多	-11.1615
佛法中	-11.1616
智論	-11.1619
一切有情皆	-11.162
勤求	-11.1621
作集作散	-11.1622
忉利天	-11.1623
羼波羅蜜	-11.1623
諸法鈍故	-11.1624
阿素洛等供養恭敬	-11.1625
滅者	-11.1625
於無忘失法	-11.1627
法身故	-11.1628
支節	-11.1632
實事	-11.1635
為其	-11.1635
擾亂	-11.1635
莫念	-11.1636
能依	-11.1638
於無上正等菩提有退屈不	-11.1638
意在	-11.164
種智	-11.164
解義	-11.1641
領解	-11.1642
答曰巳下	-11.1642
見種種色	-11.1643
住此	-11.1645
依之	-11.1646
印可	-11.1647
為發最上乘者說	-11.1648
不如是善男子	-11.165
貪愛	-11.165
阿毘曇	-11.1652
妙樂	-11.1654
壽量	-11.1655
若有漏若無漏	-11.1656
清淨故外空	-11.1656
不應住此是	-11.1658
畢竟離	-11.166
初文	-11.1661
三際	-11.1664
從他	-11.1664
吐	-11.1665
斬	-11.1666
奇	-11.1667
明空	-11.1668
云何菩薩摩訶薩修行般若波羅蜜多時	-11.1668
法平等性	-11.1669
如空	-11.1669
諸大菩薩	-11.1669
無所說	-11.1672
逼迫	-11.1675
無情	-11.1676
即四無所畏	-11.1676
無忘失法清淨故一切智智清淨	-11.1676
何等名為	-11.1679
不能圓滿	-11.1681
合成	-11.1681
四攝	-11.1682
騰	-11.1683
動轉	-11.1684
於中分三	-11.1685
不可取說	-11.1685
世智	-11.1686
梵天王	-11.1686
其猶	-11.1687
今但	-11.1689
又恐	-11.1692
乃得	-11.1695
光影	-11.1695
同於	-11.1697
歸於	-11.1698
即眼觸	-11.17
當知是為	-11.1701
初正	-11.1702
利鈍	-11.1702
即六神通	-11.1705
道故	-11.1705
深義	-11.1705
以神通力	-11.1705
清淨故水	-11.1705
大事	-11.1706
聖諦	-11.1708
欲願	-11.1713
自見	-11.1714
一品	-11.1715
下第四	-11.1718
修得	-11.1725
是菩薩摩訶薩行深般若波羅蜜多	-11.1726
作廣作狹	-11.1728
乃至無	-11.1729
無方	-11.173
長大	-11.1731
梵輔天	-11.1731
城邑	-11.1731
即空解脫門	-11.1736
常啼菩薩摩訶薩	-11.1737
變異	-11.1737
故不可說	-11.1737
未斷	-11.1738
自空	-11.1738
復持如是	-11.174
八十種好	-11.1743
得福甚多	-11.1744
當知大乘亦無所有	-11.1745
大慈悲	-11.1747
思念	-11.1748
變化事	-11.1749
不應住聲香味觸法生心	-11.1751
道種智	-11.1752
合掌恭敬	-11.1753
至于	-11.1754
所攝受故	-11.1756
相應善根	-11.1756
深經	-11.1756
謂菩薩摩訶薩	-11.1756
極微	-11.1756
諸法真如	-11.1758
不除	-11.176
佛問	-11.1761
異名	-11.1762
盡是	-11.1763
墜	-11.1763
雖在	-11.1763
又有	-11.1764
百劫	-11.1765
而未	-11.1766
若四靜慮	-11.1767
由此般若波羅蜜多清淨	-11.1771
畢竟淨	-11.1772
閉	-11.1773
方成	-11.1773
伴	-11.1773
第一明	-11.1773
錢	-11.1774
正報	-11.1774
無言	-11.1774
皆不可取	-11.1776
即四靜慮	-11.1776
清淨故一來	-11.1777
懺悔	-11.1777
此翻	-11.1778
清淨故四正斷	-11.1779
釋義	-11.1779
宛然	-11.1781
不應思惟	-11.1782
便為	-11.1784
係	-11.1785
退屈	-11.1785
道果	-11.1786
峰	-11.1788
無量諸佛	-11.179
萬億	-11.179
殊勝善根	-11.1792
說色	-11.1793
功德施	-11.1797
動靜	-11.1798
不可知	-11.1801
常自	-11.1801
金銀	-11.1801
今現在	-11.1804
即四無量	-11.1804
幻事	-11.1805
無貪	-11.1805
窮盡	-11.1806
照了	-11.1807
不墮聲聞	-11.1816
非有為	-11.1817
若魔	-11.182
經中說	-11.182
諸禪	-11.1825
出過	-11.1828
此第二	-11.183
於一切時	-11.183
為最為勝	-11.1832
即內空	-11.1835
信般若波羅蜜多時	-11.1839
推求	-11.184
著有	-11.1842
復何	-11.1843
無性為性	-11.1845
應作	-11.1846
當知虛空亦無所有	-11.185
應捨	-11.1852
大菩提心	-11.1854
無為法身	-11.1855
且初第一	-11.1855
廣為人說	-11.1858
最第一	-11.1858
世親	-11.1859
依報	-11.1859
憂愁	-11.186
周遍	-11.1861
惡慧	-11.1864
安住真如乃至不思議界	-11.1864
善男子等	-11.1868
往生	-11.1869
丈	-11.1874
見是	-11.1874
所以然者	-11.1875
乃至知者	-11.1876
修行般若波羅蜜多諸菩薩摩訶薩	-11.1878
幻人	-11.1878
忍者	-11.1878
即布施波羅蜜多	-11.1881
無由	-11.1882
清淨故四無所畏	-11.1883
次下	-11.1884
疑者	-11.1885
地水火風	-11.1886
畢竟離故	-11.1887
▁初明	-11.1887
夷	-11.1888
轉依	-11.1888
罔	-11.1889
智見	-11.1889
辰	-11.189
必當	-11.1892
三千大千世界中	-11.1894
鷲	-11.1894
是我所	-11.1897
不亂	-11.1902
普為	-11.1902
即佛十力	-11.1903
何如	-11.1904
如恒河沙等	-11.1905
墮於	-11.1913
無義	-11.1913
當作佛	-11.1914
不存	-11.1915
於當來世	-11.1916
令修	-11.1917
而出	-11.1918
罣礙	-11.192
見趣	-11.192
即恒住捨性	-11.1922
說偈	-11.1922
即極喜地	-11.1924
於有	-11.1924
及菩薩	-11.1924
徑	-11.1925
墮地獄	-11.1925
諸結使	-11.1926
勝事	-11.1926
菩提涅槃	-11.1927
大苦	-11.193
真法界	-11.1932
諸所有	-11.1935
國中	-11.1935
生實相	-11.1936
無道	-11.1936
二初	-11.1938
即眼觸為緣所生諸受	-11.1938
而不棄捨	-11.194
受假	-11.1944
作業	-11.1944
一切法趣	-11.1945
自度	-11.1945
空中過去	-11.1945
不可數	-11.1946
二十二	-11.1948
了不可得	-11.1949
於六神通	-11.195
與名俱自性空故	-11.1951
菩薩摩訶薩不見	-11.1953
四無量清淨	-11.1954
外法	-11.1954
不著耳	-11.1956
怯弱	-11.1957
嫉妬	-11.1957
菩薩摩訶薩所行般若波羅蜜多亦無量	-11.196
將無	-11.1965
即一切菩薩摩訶薩行	-11.1966
法尚應捨	-11.1968
各異	-11.1971
寸	-11.1975
空見	-11.1976
攝取眾生	-11.1976
諸漏	-11.1976
云何有生	-11.1978
有智慧	-11.1978
眾生之	-11.1978
紛	-11.198
無功用	-11.1981
生身	-11.1982
即苦聖諦	-11.1984
如是功德	-11.1986
午	-11.1988
天台	-11.1989
延	-11.1991
是名眾生	-11.1992
冤	-11.1993
清淨故八勝處	-11.1995
諸色	-11.1997
脚	-11.1998
勘	-11.1998
」、「	-11.1999
清淨故淨戒	-11.2002
托	-11.2004
總說	-11.2008
踰	-11.2009
時眾	-11.2009
證實際	-11.2009
謂空	-11.2011
教導	-11.2012
從是	-11.2013
是所	-11.2017
師子吼	-11.2021
當為汝說	-11.2021
凡夫二乘	-11.2025
空華	-11.2031
於此中	-11.2033
況復	-11.2038
分為	-11.2039
豈能	-11.204
斷三界	-11.2041
方知	-11.2041
既爾	-11.2041
下三	-11.2041
悉見	-11.2044
可住	-11.2045
普能	-11.2046
善人	-11.2049
卵生	-11.2049
起心	-11.2049
樂變化天	-11.205
善付囑諸菩薩	-11.205
色蘊乃至識蘊	-11.205
身分	-11.2052
文意	-11.2053
當知一切法亦無所	-11.2053
四意止	-11.2054
以種種	-11.2056
心印	-11.2057
味著	-11.2057
有所住	-11.2057
甚深般若波羅蜜多方便善巧	-11.2057
光讚	-11.2066
行願	-11.2066
復為	-11.2068
由無所有不可得故	-11.2069
炬	-11.2069
三脫門	-11.207
若菩薩摩訶薩如實了知	-11.2074
三無性	-11.2075
三障	-11.2078
擾	-11.2084
恒正稱揚	-11.2085
〕	-11.2085
何由	-11.2085
之一	-11.2087
偈中	-11.2089
覽	-11.2089
之詞	-11.2092
筆	-11.2092
津	-11.2094
諸大	-11.2094
謹	-11.2094
無執著	-11.2094
仁者	-11.2095
𦦨	-11.2099
多故	-11.2102
六十二見	-11.2103
即淨戒	-11.2104
此定	-11.2104
未曾有	-11.2105
但作是念	-11.2105
率	-11.2107
塵沙	-11.2108
以證	-11.2109
城中	-11.2112
能到	-11.2113
府	-11.2115
此就	-11.2117
依於	-11.2117
說空	-11.2118
阿素洛	-11.2118
三塗	-11.2118
清淨故集	-11.2118
乃至算數譬喻所不能及	-11.212
捨心	-11.2121
應儀	-11.2125
六度萬行	-11.2128
心常	-11.2129
用是故	-11.213
三法	-11.2131
而曰	-11.2134
十千	-11.2135
義中	-11.2136
取證	-11.2136
諸法自性	-11.2137
如實智	-11.2138
菩薩所行	-11.214
當知般若波羅蜜多亦	-11.2142
我昔	-11.2142
合為一	-11.2143
此科	-11.2144
不破	-11.2147
巳竟	-11.2147
勝法	-11.2152
極光淨天	-11.2154
若不得	-11.2161
求菩提	-11.2163
一切時	-11.2165
斷想不	-11.2167
西域	-11.2169
怨賊	-11.217
與幻有異不	-11.217
淨居天	-11.217
何以言	-11.2172
神呪	-11.2172
〕-【	-11.2174
過於	-11.2174
寶物	-11.2175
菩薩言	-11.2176
敗壞	-11.2181
目連	-11.2183
三十六	-11.2184
有何差別	-11.2184
過聲聞	-11.2186
童	-11.2189
非法非非法	-11.2189
稱性	-11.2189
如是等無量	-11.2189
應如是布施	-11.2195
幢	-11.2195
無聞	-11.2197
聰明	-11.2197
心即	-11.2199
歌利王	-11.22
有相無相	-11.2202
法於無上正等菩提有退屈不	-11.2202
正遍知	-11.2203
是假法	-11.2203
千佛	-11.2204
五十	-11.2206
當知般若波羅蜜多亦無邊	-11.2207
授與	-11.2207
人說	-11.2208
淵	-11.2208
心體	-11.2209
禍	-11.2213
回向	-11.2214
澤	-11.2215
五千	-11.2215
非多	-11.2215
叉	-11.2216
束	-11.2216
捨去	-11.2218
世間天	-11.2219
亦通	-11.222
從前	-11.2224
如來所得法	-11.2226
諸法中	-11.2226
可言	-11.223
地獄中	-11.2231
於苦聖諦	-11.2235
一往	-11.2241
巧便	-11.2241
出生死	-11.2241
答也	-11.2242
即諸佛無上正等菩提	-11.2249
亦不可見	-11.2253
所作事	-11.2256
蘊等	-11.2258
四分別辯	-11.226
何曾	-11.2261
八種	-11.2263
智證	-11.2263
為尊為高	-11.2264
亦不見空與	-11.2266
色不可得	-11.2267
未悟	-11.2268
大雲	-11.227
真空實相	-11.2271
眾生空	-11.2271
清淨故道相智	-11.2273
令諸	-11.2273
異於	-11.2274
晝	-11.2274
不免	-11.2274
若諸菩薩能如是行	-11.2275
普令	-11.2275
帝釋天主	-11.2278
三字	-11.2279
不減	-11.228
不可得故說不可得	-11.2281
邪道	-11.2281
即一來	-11.2282
識清淨故一切智智清淨	-11.2284
汝於來世	-11.2284
不相捨離	-11.2286
說大乘	-11.2288
能正	-11.2289
諸魔	-11.229
此三千大千世界	-11.2291
證成	-11.2291
行位	-11.2293
得須陀洹果	-11.2294
處也	-11.2299
井	-11.23
即八十隨好	-11.2305
卿	-11.2307
名菩薩	-11.2311
克	-11.2313
扶	-11.2313
封	-11.2313
俾	-11.2315
不惟	-11.2316
鈴	-11.2317
無始空	-11.2318
觀受	-11.2318
為希有	-11.2318
後說	-11.2319
清淨故四無量	-11.232
前五	-11.2321
既非	-11.2322
無常等	-11.2323
應云何住	-11.2325
事也	-11.2328
謂為	-11.233
十惡	-11.233
於此經	-11.2333
二段	-11.2333
若菩薩摩訶薩能	-11.2336
中不可得	-11.234
後得智	-11.2341
覺了	-11.2346
相應故	-11.2346
假合	-11.235
徧計	-11.2351
乃為	-11.2352
曳	-11.2352
是學一切智智	-11.2356
斷之	-11.2357
播	-11.2359
片	-11.2359
根本智	-11.2359
今問	-11.236
即預流果	-11.236
於空解脫門	-11.2362
無底	-11.2362
若人言	-11.2365
取其	-11.2368
作是觀	-11.2369
具足故	-11.2369
為他演說	-11.2372
無處所	-11.2372
舍利弗問須菩提	-11.2372
知是不退轉菩薩摩訶薩	-11.2376
即陀羅尼門	-11.2378
當知是為不退轉菩薩摩訶薩	-11.2381
有七	-11.2382
即三十二大士相	-11.2383
說彼	-11.2384
四如意足	-11.2384
法界非	-11.2386
即大慈	-11.2387
尋伺	-11.2388
又二	-11.2392
佛告文殊師利	-11.2395
等皆	-11.2396
摶取	-11.2396
況有趣非趣	-11.2396
憎愛	-11.24
論師	-11.2401
住世	-11.2403
若著	-11.2403
苦智	-11.2404
語業	-11.2404
十法	-11.2406
因般若波羅蜜	-11.2407
佛又	-11.2407
能現	-11.2408
於般若	-11.2408
隱沒	-11.2408
不了知	-11.2408
所致	-11.2409
於生死	-11.2409
聲聞地	-11.2411
攝受一切	-11.2415
牟尼	-11.2417
為一切眾生	-11.2421
云何可	-11.2421
主宰	-11.2422
第四句	-11.2423
湛	-11.2423
義利	-11.2424
亦除	-11.2425
不住生死	-11.243
若我乃至見者	-11.2431
正信	-11.2431
想念	-11.2434
中起	-11.2435
如來也	-11.2437
於八勝處	-11.2439
辟支佛心	-11.244
願我	-11.244
生佛	-11.2441
自性離故	-11.2444
彼菩薩	-11.2445
圓寂	-11.2446
是無常	-11.2447
復見	-11.2448
依教	-11.2449
身體	-11.245
不誑	-11.2452
無處	-11.2453
大涅槃	-11.2454
難及	-11.2455
以能	-11.2456
入諸法	-11.2457
無壽者	-11.2457
新發意菩薩	-11.2458
最尊	-11.2459
精進力	-11.2461
從一	-11.2461
佛亦如是	-11.2464
等無有異	-11.2465
世俗諦	-11.2468
不喜	-11.247
離苦	-11.2472
薩哩嚩	-11.2474
此是諦實	-11.2474
一切皆非相應非不相應	-11.2476
我已	-11.2476
餘事	-11.2478
無願相	-11.248
唯客所攝	-11.2481
經旨	-11.2481
無相無為	-11.2481
不肯	-11.2482
常無	-11.2482
八十隨形好	-11.2484
若菩薩摩訶薩成就如是諸行	-11.2488
故復	-11.249
觀佛	-11.2491
無自性中	-11.2492
能轉	-11.2494
此菩薩摩訶薩	-11.2497
作種種	-11.2498
殖	-11.2498
軌	-11.25
囑累	-11.2503
無所有法	-11.2504
八識	-11.2505
始從	-11.2508
穀	-11.2508
亦不壞	-11.2509
詐	-11.2512
不行耳	-11.2512
商	-11.2512
而於中學	-11.2513
如尋香城	-11.2514
賤	-11.2514
禽獸	-11.2514
之要	-11.2515
一切智智清淨故聲	-11.2515
欲入	-11.2515
在在處處	-11.2516
醜	-11.2517
此也	-11.2517
若取法相	-11.2524
換	-11.2525
梨	-11.2527
大論	-11.2531
即緣所生法	-11.2535
▁薩	-11.2536
平等故	-11.2536
坐禪	-11.2537
)。【	-11.2537
是常	-11.2537
當觀	-11.2537
跋	-11.2538
初標章	-11.2539
教中	-11.254
歡喜讚歎行	-11.254
未除	-11.2541
鄣	-11.2542
名也	-11.2542
之謂也	-11.2544
合云	-11.2545
無性故	-11.2545
佛說般若波羅蜜	-11.2546
清淨故無相	-11.2546
直說	-11.2547
羅剎	-11.2547
清淨法身	-11.2549
乃至無法有法空	-11.255
有空	-11.2553
淨法	-11.2556
四字	-11.2556
最妙	-11.2559
無咎	-11.2559
佛陀	-11.256
即因緣	-11.2561
十萬	-11.2566
憂苦	-11.2566
受戒	-11.2567
以釋	-11.2571
亦不作大不作小	-11.2571
無閡	-11.2572
福德多	-11.2575
方為	-11.2576
雖殊	-11.2577
捺	-11.2577
別解	-11.2577
度一切眾生	-11.2578
於理	-11.2579
聖果	-11.258
具此	-11.258
命根	-11.2581
形色	-11.2583
行十善	-11.2585
餘三	-11.2587
法本	-11.2596
無覺	-11.2596
能施	-11.2596
即大悲	-11.2596
具見地	-11.2598
不在兩間	-11.2598
有五種	-11.2598
以真如	-11.26
眾生根	-11.2601
不知不見	-11.2603
時分	-11.2606
高下	-11.2606
少光天	-11.2608
之前	-11.2608
無知者	-11.2609
真如中	-11.2609
句義無所有不可得	-11.261
皆屬	-11.2611
非有相非無相	-11.2611
恒作是念	-11.2612
如實了知當於中學	-11.2612
如來以	-11.2613
都無和合自性	-11.2613
向下	-11.2614
如實觀察	-11.2617
法及	-11.2624
不問	-11.2626
於一切三摩地門	-11.2627
更說	-11.2627
因生	-11.2628
呪術	-11.2629
當來之世	-11.263
得福多	-11.2632
但能	-11.2633
盜	-11.2634
即三摩地門	-11.2637
我慢	-11.2639
敵	-11.264
以三十二相觀如來	-11.264
於地界	-11.2641
醒	-11.2642
之別	-11.2642
非虛妄	-11.2643
道行	-11.2645
六百卷	-11.2647
巳得	-11.2647
秘密	-11.2648
匿王	-11.2653
何況非法	-11.2654
若論	-11.2654
尺	-11.2654
四無色	-11.2656
能壞	-11.2657
獲益	-11.2659
佉	-11.2662
非世界	-11.2663
序分	-11.2666
同歸	-11.2666
昔日	-11.2666
為二初	-11.2666
一問	-11.2669
無煩惱	-11.267
今依	-11.2673
我言	-11.2674
諸有情故	-11.2674
五百年	-11.2675
行於	-11.2676
他心	-11.2678
供佛	-11.2682
妻	-11.2685
常說	-11.2685
無色定	-11.2685
一月	-11.2688
隨眾生	-11.269
而入	-11.269
下二句	-11.2691
菩薩者	-11.2691
或言	-11.2692
此偈	-11.2693
如是等種種因緣	-11.2694
十方界	-11.2695
是名法相	-11.27
不論	-11.2702
愚人	-11.2702
學般若	-11.2706
摩訶般若波羅蜜經	-11.2706
甚難	-11.2708
阿難陀	-11.2711
無彼	-11.2712
光天	-11.2712
以我	-11.2719
經宗	-11.272
獲福	-11.2724
苾芻當知	-11.2726
無瞋	-11.2726
如所說	-11.2726
如前說	-11.2726
我作佛時	-11.2729
即外空乃至無性自性空	-11.273
執持	-11.2731
汝觀何義言	-11.2732
從佛	-11.2732
卷下	-11.2736
我乃至見者無所有故	-11.2737
解脫門	-11.2739
何人	-11.2739
世出世	-11.2739
難知	-11.274
憎	-11.274
具足六波羅蜜	-11.2742
諸菩薩摩訶薩如實了知	-11.2742
此解	-11.2743
名真	-11.2744
二見	-11.2746
篇	-11.2748
知此	-11.2749
耀	-11.275
疏主	-11.275
有住	-11.2757
大乘與虛空等	-11.2757
餘皆	-11.2758
非唯	-11.2758
愛語	-11.2759
何必	-11.2759
以此為實	-11.2759
持用布施	-11.276
所被	-11.276
頻	-11.2761
即獨覺菩提	-11.2762
菩薩摩訶薩於	-11.2764
法位	-11.2765
剛	-11.2766
魔王	-11.2766
荷	-11.2766
非化	-11.2766
嫌	-11.2768
現相	-11.2768
不能自	-11.2769
三根	-11.2769
常啼	-11.2772
經文也	-11.2772
得無上菩提	-11.2775
說我	-11.2778
現起	-11.2778
一大	-11.2778
開合	-11.2778
灾	-11.2781
生生	-11.2783
未聞	-11.2785
達磨	-11.2785
雙照	-11.2786
無我法	-11.2788
五蘊皆空	-11.2788
末法	-11.2792
之相也	-11.2797
無相之	-11.2801
即離垢地乃至法雲地	-11.2801
散花	-11.2805
世間解	-11.2807
諸賢聖	-11.2807
以無所得為方便故	-11.2808
多分	-11.2818
得佛道	-11.2819
一切佛	-11.2825
日日	-11.283
是菩薩摩訶薩平等性	-11.2831
如是迴向	-11.2832
自已	-11.2834
誰為	-11.2836
四大王眾天	-11.2837
前後際斷	-11.2839
得圓滿	-11.2841
日光	-11.2841
門也	-11.2842
求如是	-11.2845
當依	-11.2845
大悲為上首	-11.2845
大智度論釋	-11.2846
如今	-11.2846
七種	-11.2847
遠離不遠離相不可得	-11.2847
普能容受無量無數無邊有情	-11.2847
無所依	-11.2848
若一切智	-11.2848
二依	-11.2853
多者	-11.2854
不異語者	-11.2854
理也	-11.2855
化度	-11.2855
會要	-11.2856
證知	-11.2861
於法實無所得	-11.2861
我人眾生壽者	-11.2866
幡	-11.2866
俱有	-11.2867
即非身相	-11.2868
深生	-11.2868
悉能	-11.2872
反覆	-11.2875
算	-11.2875
所照	-11.2876
和合故	-11.2876
流轉生死	-11.2879
川禪師曰	-11.288
若諸法	-11.288
登彼岸	-11.288
據此	-11.2881
若據	-11.2881
行住	-11.2882
諸法亦爾	-11.2883
還至本處	-11.2884
絲	-11.2884
非無想	-11.2885
般若乃至布施波羅蜜多	-11.2887
而心	-11.2887
薩陀波倫菩薩	-11.2888
彼云	-11.289
壁	-11.289
隆	-11.2892
及諸菩薩	-11.2892
酒	-11.2894
乃至一切相智	-11.2895
作阿耨多羅三耶三菩	-11.2895
住地	-11.2895
自念言	-11.2896
裂	-11.2896
未來世中	-11.29
古德云	-11.2901
卷五百	-11.2904
攝一切法	-11.291
於此甚深般若波羅蜜多	-11.2913
如來所說法	-11.2915
故不說	-11.2916
色者	-11.2916
亦勸他修	-11.2919
非微塵	-11.2919
眼根	-11.2924
歎般若	-11.293
獻	-11.2931
名聞	-11.2932
欲證	-11.2938
總攝	-11.2938
佛智慧	-11.294
過去佛	-11.294
如是事	-11.2941
修般若	-11.2942
何況空中有過去	-11.2943
妄生	-11.2946
造業	-11.2946
請佛	-11.2948
涅槃經	-11.2948
非趣非不趣	-11.2951
不超一切世間天	-11.2952
籌量	-11.2953
見法	-11.2954
釋此	-11.296
婬怒癡	-11.2961
菩薩眾	-11.2962
有三義	-11.2963
用也	-11.2964
平等性尚不可得	-11.2966
如來真如平等	-11.2967
欲為有情宣說開示	-11.2967
秤	-11.2968
習應	-11.2969
云何行	-11.297
識亦如是	-11.2972
不順	-11.2972
即四正斷乃至八聖道支	-11.2974
=	-11.2975
慈氏菩薩摩訶薩	-11.2976
今此中	-11.2976
是二	-11.2978
成阿惟三佛	-11.2981
無漏智	-11.2982
必得	-11.2983
度之	-11.2983
以自	-11.2985
故成	-11.2987
灑	-11.2988
本源	-11.299
猶是	-11.2994
秪	-11.2995
過患	-11.2995
真體	-11.2995
沙數	-11.2997
常能	-11.2997
偏袒右肩	-11.2998
惑業	-11.3002
汎	-11.3004
少許	-11.3004
自謂	-11.3005
卑	-11.3005
不離般若波羅蜜多	-11.3007
安立第一義	-11.3008
乞士	-11.3009
敷座	-11.301
非趣	-11.3012
轉故名不退轉	-11.3012
入此	-11.3018
尚不見	-11.3022
而現	-11.3024
唯願	-11.3028
西天	-11.3028
常以	-11.3032
為之	-11.3032
人得	-11.3034
若念有	-11.3035
如幻事	-11.3039
無來	-11.3042
既知	-11.3045
如佛說	-11.3047
無實體	-11.3048
懈	-11.3049
如去	-11.3049
識亦復如是	-11.3051
於恒住捨性	-11.3053
令不	-11.3054
無我人	-11.3055
親近供養	-11.3056
深奧	-11.3059
體者	-11.3061
於集	-11.3061
尊重讚歎諸佛世尊	-11.3061
三教	-11.3061
人等	-11.3067
此語	-11.3067
無熱天	-11.3069
之主	-11.3069
汝見	-11.307
色聲香味觸法	-11.3073
菩薩摩訶薩不為引發	-11.3075
一地	-11.3076
少淨天	-11.3076
亦不與	-11.3078
娛樂	-11.308
七覺分	-11.308
福業事	-11.3081
九者	-11.3082
方名	-11.3082
怨敵	-11.3083
莖	-11.3085
內外法	-11.3087
四地	-11.3093
法合	-11.3094
為問	-11.3095
當生如是心	-11.3096
菩薩雖	-11.3099
胎生	-11.3102
是名第一波羅蜜	-11.3103
今當	-11.3106
疾得	-11.3107
維	-11.3107
宿世	-11.311
亦無老死盡	-11.3112
四天王天	-11.3113
不落	-11.3114
赴	-11.3114
所不能及	-11.3115
自利利他	-11.3116
綱	-11.3116
如實觀	-11.3116
云何為人演說	-11.3117
觀世音	-11.3117
無有邊際	-11.3118
如來得阿耨多羅三藐三菩提	-11.3121
循	-11.3123
珍財	-11.3124
清淨故行	-11.3126
修羅	-11.3129
繼	-11.3131
極大	-11.3133
如來所	-11.3137
信敬	-11.3138
派	-11.3143
智照	-11.3144
常啼菩薩	-11.3149
不得菩提	-11.3151
敬重	-11.3153
即法界乃至不思議界	-11.3157
心數	-11.3159
菩薩行六波羅蜜	-11.3159
尚有	-11.3159
已上	-11.3159
不忍	-11.3161
修空	-11.3166
智斷	-11.3167
俱行之心	-11.317
於諸法無所	-11.3171
往昔	-11.3172
三聚	-11.3177
是大神呪	-11.3177
已盡	-11.3179
初住	-11.318
清淨法	-11.3182
停	-11.3186
分三	-11.3189
從初發意	-11.319
頑	-11.3196
一物	-11.3196
唐言	-11.3199
無量淨天	-11.32
親友	-11.3202
不殺	-11.3202
舍利弗語須菩提	-11.3203
一切不退轉菩薩摩訶薩	-11.3203
其福德	-11.3204
不得言	-11.3204
是化	-11.3204
知苦	-11.3206
皆是般若波羅蜜多所流出故	-11.3207
無量光天	-11.3207
初發意	-11.3207
通別	-11.3207
無所從生	-11.3209
應薩婆若心	-11.3212
於一來	-11.3212
一家	-11.3213
為可得不	-11.3214
鴿	-11.3215
苦相	-11.3216
圍遶	-11.3216
用此	-11.3216
)。」【	-11.3216
端嚴	-11.3219
聞思修	-11.322
初標章敘疑	-11.322
無違	-11.3221
上首	-11.3221
有四相	-11.3221
常念	-11.3222
正語	-11.3223
所發	-11.3225
此喻	-11.3225
狗	-11.3225
世出世間	-11.3226
健	-11.3227
諸教	-11.3227
說法時	-11.3229
巳來	-11.3232
鑑	-11.3233
非無相	-11.3233
易解	-11.3234
虧	-11.3234
隨其所	-11.3236
佛滅度後	-11.3236
自致	-11.3239
冀	-11.3239
初學	-11.324
婆伽婆	-11.3241
空門	-11.3243
盤	-11.3244
奔	-11.3244
定心	-11.3244
善慧	-11.3245
而不知	-11.3246
初三	-11.3246
劒	-11.3249
妙義	-11.325
百分	-11.3252
來生	-11.3252
是大明呪	-11.3253
於佛無上正等菩提	-11.3253
受決	-11.3254
樣	-11.3255
是無記	-11.3255
佛得阿耨多羅三藐三菩提	-11.3256
是輩	-11.3258
觀身	-11.3261
善哉善哉	-11.3262
三惡趣	-11.3262
即行乃至老死	-11.3264
諸天子言	-11.3264
▁第二百	-11.3266
自高	-11.3267
得薩婆若	-11.3273
及諸天	-11.3273
然其	-11.3278
之實	-11.3278
彼非眾生	-11.3278
若世間若出世間	-11.3281
皆名為	-11.3282
所變	-11.3282
三科	-11.3283
廣大心	-11.3283
則無有	-11.3283
百千萬	-11.3286
有對	-11.3287
平等心	-11.3287
一切智智清淨故色界	-11.3291
除滅	-11.3295
不應取非法	-11.3296
了因	-11.3297
所樂	-11.3297
二十六	-11.3298
增彼對治	-11.3298
定性	-11.3298
定當	-11.33
十智	-11.3302
多生	-11.3306
不能從三界中出	-11.3307
各得	-11.3307
剎土	-11.3307
眾生也	-11.3307
行布施者	-11.3307
身住循身觀	-11.3309
無顛倒	-11.3309
死生	-11.331
眾行	-11.3312
為眾	-11.3312
三十七菩提分法	-11.3315
修諸菩薩摩訶薩行	-11.3316
雜毒	-11.3316
正等	-11.3317
名為大	-11.3317
般若波羅蜜清淨	-11.332
所修行	-11.332
佛功德	-11.3323
淨不淨相不可得	-11.3325
之勝	-11.3325
慇懃	-11.3325
四明	-11.3326
大論云	-11.3326
珊瑚	-11.3327
不著色	-11.3327
結上	-11.3328
修行般若波羅蜜多速得圓滿	-11.3329
佛知見	-11.333
反顯	-11.333
如來說名真是菩薩	-11.3333
我當圓滿	-11.3333
彼所	-11.3337
誦經	-11.3339
大悲為首	-11.334
從緣	-11.3341
就此	-11.3342
雜染清淨	-11.3342
五識	-11.3343
性無故	-11.3345
得一切智智	-11.3345
重釋	-11.3346
阿耨多羅	-11.3347
無常增語是菩薩摩訶薩不	-11.3347
便白佛言	-11.3349
晚	-11.3349
淚	-11.335
真珠	-11.335
莫作是說	-11.335
開悟	-11.3351
有為相	-11.3351
常當	-11.3351
四重	-11.3352
是菩薩摩訶薩修行般若波羅蜜多	-11.3353
小品	-11.3354
不及持經	-11.3356
法而	-11.3356
胡	-11.3359
說一切法	-11.3359
童子	-11.3359
心之	-11.336
不起作諸行若有若無故學	-11.3362
魏譯	-11.3362
微塵世界	-11.3364
開士大士	-11.3364
執我	-11.3365
能盡	-11.3365
非修般若波羅蜜多	-11.3366
賜	-11.3368
風吹	-11.337
景	-11.337
行深般若	-11.3371
甚麼	-11.3372
善護念	-11.3372
即應	-11.3374
護念付囑	-11.3376
畢竟清淨	-11.3378
成就法	-11.3378
京	-11.338
名非	-11.3381
滅罪	-11.3382
上義	-11.3385
今得	-11.3386
但明	-11.3386
如是有情	-11.3387
族	-11.3387
塵垢	-11.3389
由於	-11.3389
不能見	-11.339
不妄	-11.339
善非善	-11.3392
多時	-11.3395
常增語是菩薩摩訶薩不	-11.3396
云何修行	-11.3397
慈愍	-11.3397
非住	-11.3399
厄	-11.34
現在法	-11.34
幻師	-11.3401
一切智智清淨故耳	-11.3401
所種善根	-11.3402
是善	-11.3402
常樂我淨	-11.3406
故說大乘	-11.3407
果中	-11.3407
趣菩提	-11.3407
以後	-11.341
諸家	-11.341
那庾多	-11.3411
滅定	-11.3413
不住相布施	-11.3416
難見	-11.3416
能善	-11.3417
餘皆愚妄	-11.3418
亦名為	-11.3419
二護	-11.3421
起滅	-11.3422
知恩	-11.3422
等無異	-11.3426
我從	-11.3429
勝進	-11.3433
不可攝受故	-11.3433
逮覺	-11.3433
迷真	-11.3435
有少	-11.3437
須彌山王	-11.3438
不可言	-11.344
法有	-11.3441
令勤修學	-11.3442
般若故	-11.3442
境故	-11.3446
敗	-11.3447
我無我相不可得	-11.3448
除其	-11.3449
入流	-11.3449
寂靜不寂靜相不可得	-11.3449
加害	-11.345
無所至去亦無所住	-11.345
於十方三世無所從來	-11.3451
亦常	-11.3451
一切智智清淨故道相智	-11.3451
無成無壞	-11.3452
住內空	-11.3452
之意也	-11.3452
一塵	-11.3457
不驚不怖不畏	-11.3459
可信	-11.346
今謂	-11.3461
如人有目	-11.3462
祐	-11.3462
與法	-11.3463
哀愍	-11.3463
供給	-11.3464
睡眠	-11.3464
名句	-11.3465
印三昧	-11.3465
誘	-11.3466
應生無所住心	-11.3467
置是	-11.3467
皆云	-11.3468
即當	-11.3469
佛欲	-11.3469
不應起	-11.3471
無邊際	-11.3471
函	-11.3472
性地	-11.3473
求聲聞	-11.3473
如是種種	-11.3478
陳雄	-11.3479
營	-11.348
一切智智清淨故四無量	-11.3481
時有	-11.3481
一切智智清淨故四正斷	-11.3481
洗足	-11.3481
在大眾中	-11.3482
以偈	-11.3484
便成	-11.3484
而不住	-11.3485
厭捨	-11.3486
亦知	-11.3488
以何為	-11.3488
婦	-11.3489
外護	-11.3492
當念	-11.3492
祇陀	-11.3492
屋	-11.3493
值佛	-11.3493
空行菩薩行	-11.3493
乃至佛	-11.3493
實無所得	-11.3494
圍	-11.3498
絕待	-11.35
若知	-11.3501
本性清淨	-11.3502
際菩薩摩訶薩有異	-11.3502
有菩薩摩訶薩不	-11.3504
如語者	-11.3504
為說法	-11.3505
晉	-11.3505
定相	-11.3509
一切智智清淨故八勝處	-11.3512
一切智智清淨故四無所畏	-11.3515
證真如	-11.3516
界中	-11.3517
且初第一明	-11.3518
所得福德	-11.3519
善於	-11.3519
如病	-11.3519
後之	-11.352
精勤修學甚深般若波羅蜜多	-11.3521
如解脫	-11.3522
之下	-11.3525
無一	-11.3525
成佛道	-11.353
無差別故	-11.3531
若就	-11.3536
非法界	-11.3536
一切智智清淨故一來	-11.3536
難信	-11.3536
受持讀誦此經	-11.3537
文有二	-11.354
牒經	-11.3546
具德	-11.3547
於後	-11.3555
先舉	-11.356
有力	-11.3561
方盡殑伽沙等世界	-11.3562
則墮	-11.3563
天帝釋復白佛言	-11.3566
若有眾生	-11.3566
眾惡	-11.3567
鬪	-11.3568
法想	-11.3569
二依經斷疑	-11.3569
稻	-11.357
非過去非未來非現在	-11.357
無有實	-11.3572
東勝身洲	-11.3574
諸蘊	-11.3576
最尊最勝	-11.3576
兄	-11.3576
唯心	-11.3579
若菩薩作是言	-11.3582
慈悲喜捨	-11.3582
於法不說斷滅相	-11.3583
譬如人身長大	-11.3583
真身	-11.3584
因地	-11.3585
遠近	-11.3586
離般若波羅蜜	-11.3587
周匝	-11.3589
菩薩學	-11.3589
樂具	-11.3591
一切智智清淨故外空	-11.3591
而不見	-11.3593
繞	-11.3594
杜	-11.3595
圓通	-11.3597
未至	-11.36
謂諸	-11.36
寶藏	-11.3601
或令安住	-11.3601
如一	-11.3602
妄識	-11.3602
忻	-11.3602
並是	-11.3602
遲	-11.3603
一切智智清淨故淨戒	-11.3603
大也	-11.3605
謂即	-11.3606
所持	-11.3608
如來善護念諸菩薩	-11.361
此顯示	-11.361
其德	-11.3613
真妄	-11.3614
曉了	-11.3615
寒熱	-11.3615
針	-11.3616
皇	-11.3618
別故	-11.3621
施設言說	-11.3624
求無上正等菩提	-11.3625
製	-11.3628
墮聲聞	-11.3629
如是乃至一切智	-11.363
斑足	-11.363
此二句	-11.3631
亦不取著	-11.3634
可有	-11.3635
十者	-11.3635
何可	-11.3635
著我	-11.3636
無因緣	-11.3637
由如是義	-11.3638
性都不可得	-11.3639
有邊	-11.3639
若婆羅門	-11.364
結集	-11.3643
陀羅	-11.3644
非合非離但假施	-11.3647
福德性	-11.3648
得樂	-11.3648
這箇	-11.365
融通	-11.3652
修此	-11.3652
從來	-11.3653
我無邊故	-11.3656
如是觀	-11.3657
唯說	-11.3658
佛所說法	-11.3659
行淨戒波羅蜜多	-11.366
法名	-11.366
不聽	-11.366
在其中	-11.3661
心外	-11.3665
有取	-11.3667
菩薩位	-11.3667
成滿	-11.3668
愛重	-11.367
其上	-11.367
眾事	-11.3671
惡口	-11.3671
實不可得	-11.3674
及與	-11.3675
心與語	-11.3678
深重	-11.3678
無定相	-11.3679
瑞	-11.3679
入空	-11.368
此經之	-11.3681
場	-11.3684
波若波羅蜜	-11.3684
無所行	-11.3685
如來法性可得	-11.3685
當作是	-11.3686
實相也	-11.3686
謗毀	-11.3686
善見天	-11.3687
皆入	-11.3687
是趣不過	-11.3688
本事	-11.3688
心得	-11.369
受之	-11.3691
如是念	-11.3691
化之	-11.3691
諸妙	-11.3692
一切聖人	-11.3693
廣天	-11.3693
讚言	-11.3693
不共法	-11.3694
佛雖	-11.3696
今是	-11.3697
永盡	-11.3697
名為於界善巧	-11.3701
名俱無所有不可得故	-11.3702
真如無生無滅	-11.3703
事者	-11.3704
分為二	-11.3705
無能所	-11.3716
施設有	-11.3716
工	-11.372
頂上	-11.372
獄	-11.372
恣	-11.3721
願樂欲聞	-11.3723
汝今諦聽	-11.3724
一切波羅蜜多	-11.3724
自生	-11.3727
獵	-11.3727
起於	-11.3728
猶如虛空	-11.3728
乃至非	-11.3728
問訊	-11.373
至極	-11.3731
策	-11.3731
廓	-11.3734
更求	-11.3734
原無	-11.3734
兔	-11.3735
有方便善巧故	-11.3735
編	-11.3736
燒香	-11.3736
未明	-11.3736
說受	-11.3736
升	-11.3737
觀法	-11.3737
亦不念	-11.3738
驅	-11.3739
市	-11.3742
古德	-11.3744
大力	-11.3746
有苦	-11.3746
即非眾生	-11.3746
是世間	-11.3747
觀音	-11.3748
於自	-11.375
歸去來	-11.3754
依義	-11.3756
應依	-11.3757
是名三十二相	-11.3757
卷上	-11.3758
由有	-11.3759
是諸菩薩摩訶薩	-11.3759
不攝	-11.3761
亦如實知	-11.3762
無福	-11.3763
之經	-11.3766
諸佛土	-11.3768
是人以是因緣	-11.3773
▁初解	-11.3774
為即	-11.3776
生天上	-11.3776
是凡夫	-11.3778
隨彼	-11.3779
如是信解	-11.3782
大地獄中	-11.3782
一切智智清淨故集	-11.3783
今文	-11.3791
劫中	-11.3793
眾生可度	-11.3794
三十一	-11.3794
下半偈	-11.3796
大智慧	-11.3797
歸命	-11.3799
還生	-11.38
科家	-11.3801
修行甚深般若波羅蜜多	-11.3802
菩薩作是念	-11.3803
聽許	-11.3803
生彼	-11.3806
發言	-11.3806
無常相	-11.3808
之數	-11.3809
我我所	-11.3809
資生	-11.3812
善本	-11.3813
是一切法	-11.3813
以七寶	-11.3815
問何故	-11.3815
非所	-11.3815
學道	-11.3816
二引	-11.3818
諸神通	-11.3818
修漸次學	-11.3819
七賢	-11.3819
如先	-11.3824
為色	-11.3825
離生喜樂	-11.3825
慧根	-11.3827
不善業	-11.3829
解脫道	-11.3829
寂靜不寂靜相	-11.383
大乘法	-11.3831
報應	-11.3834
友	-11.3834
若染若淨	-11.3836
修習般若波羅蜜多	-11.3837
福智	-11.384
非般若	-11.3841
日光明照	-11.3842
非有非空	-11.3844
得如是	-11.3847
諸法平等	-11.3848
得勝	-11.3849
達一切法	-11.385
坐臥	-11.3851
二身	-11.3852
無出	-11.3852
稱我	-11.3852
不難	-11.3852
經法	-11.3853
方可	-11.3853
有去來	-11.3854
四邊	-11.3854
相攝	-11.3855
智慧力	-11.3856
講說	-11.3856
能引發	-11.3856
能辦	-11.3859
而常	-11.386
百歲	-11.3861
真如有菩薩摩訶薩不	-11.3861
閻浮	-11.3861
如幻化	-11.3861
膝	-11.3863
檢	-11.3863
皆如幻化	-11.3864
毛孔	-11.3864
無高下	-11.3864
覔	-11.3865
纖毫	-11.3867
是顛倒	-11.3868
及佛	-11.3869
貪嗔	-11.3869
呈	-11.3869
恭	-11.387
逈	-11.3871
自受用	-11.3872
收衣鉢	-11.3873
遷流	-11.3873
眾德	-11.3874
共住	-11.3878
十方無量	-11.3878
無邊無所有故	-11.3878
楞嚴云	-11.388
捨命	-11.3881
生相	-11.3882
後方	-11.3882
虗名	-11.3882
惡行	-11.3883
所出	-11.3885
明波若	-11.3887
思慧	-11.3888
布施時	-11.3889
合為	-11.3889
由此善根	-11.3891
菩薩摩訶薩安住布施波羅蜜多	-11.3893
乃至如來	-11.3894
不可思議功德	-11.3894
證信	-11.3895
第一希有	-11.3899
諦觀	-11.3899
▁二明	-11.3901
了無	-11.3903
自得	-11.3904
出體	-11.3906
不可破壞	-11.3908
在佛	-11.3908
本識	-11.3911
夫人	-11.3911
聞般若	-11.3911
當體	-11.3912
斷不	-11.3913
天女	-11.3915
善道	-11.3915
說正法	-11.3916
壇	-11.3916
眾寶	-11.3917
於相	-11.392
得般若波羅蜜	-11.3923
無障	-11.3924
位也	-11.3924
住中	-11.3927
一切智智清淨故無相	-11.3927
註解	-11.3928
以得	-11.3928
依彼	-11.3929
作惡	-11.3929
將來	-11.393
明如來	-11.393
如是義	-11.3935
初門	-11.3936
從座起	-11.3936
有所得為方便	-11.3938
名示	-11.3939
斷證	-11.3941
應淨	-11.3942
不可攝受則非	-11.3943
學菩提道	-11.3944
隨佛生	-11.3944
實相者	-11.3945
阿須倫	-11.3947
假實	-11.3949
諸地	-11.3952
可於中學	-11.3954
亦教他人	-11.3954
智淨	-11.3956
速證	-11.3958
後結	-11.3958
有形	-11.3961
但名	-11.3961
性種性	-11.3962
五取蘊	-11.3964
但取	-11.3964
此諸菩薩	-11.3964
算數	-11.3967
若異	-11.3967
未來心不可得	-11.3968
若菩薩摩訶薩修遣	-11.3968
內證	-11.3971
翅	-11.3973
是名具足色身	-11.3975
不能壞	-11.3975
亦教他修	-11.3975
拜	-11.398
任持	-11.398
憍	-11.3982
有遣此修	-11.3989
衛	-11.3991
而為上首	-11.3993
證時	-11.3997
除障	-11.3997
乾坤	-11.3998
不到	-11.3999
奚	-11.3999
閒	-11.4002
不惜	-11.4002
一切三昧	-11.4004
當一一說	-11.4006
於聲聞	-11.4006
三段	-11.4006
後四	-11.4009
供養者	-11.4017
貪嗔癡	-11.4017
在心	-11.4017
諸相非相	-11.4019
普遍	-11.4021
之稱	-11.4022
光照	-11.4025
意念	-11.4026
無量心	-11.4029
深也	-11.4033
與虛空等	-11.4034
數數	-11.4035
三十七	-11.4036
不散	-11.4036
施等	-11.4037
度無極	-11.4039
集諦	-11.4047
盡滅	-11.4047
▁是	-11.4047
度脫眾生	-11.4052
至今	-11.4053
是故菩薩摩訶薩	-11.4054
之方	-11.4054
汝善男子	-11.4061
業因緣故	-11.4063
涅槃者	-11.4064
所獲	-11.4067
不雜	-11.4069
諸業	-11.407
二乘人	-11.4071
轉增	-11.4071
忍位	-11.4071
如下	-11.4072
皆無自性	-11.4074
文四	-11.4076
本性皆空	-11.4078
教授教誡	-11.4079
居士大族	-11.4079
使作者	-11.4079
化導	-11.408
如來有	-11.408
無願故	-11.4081
安住般若波羅蜜多	-11.4081
如是菩薩摩訶薩	-11.4081
究竟通利	-11.4082
而發	-11.4082
虛空處	-11.4082
七覺意	-11.4083
復次善現	-11.4083
最上最妙	-11.4085
阿羅呵	-11.4086
調和	-11.4086
假想	-11.4091
喻也	-11.4091
用無所得而為方便	-11.4091
放光明	-11.4092
心為	-11.4093
必不	-11.4097
我能修行	-11.4097
法印	-11.4098
著衣	-11.4098
共有	-11.4099
如來是真語者	-11.41
諸大眾	-11.4102
人能	-11.4102
甚深義	-11.4104
見此	-11.4105
佛即	-11.4107
從因緣生	-11.4107
善修	-11.4109
無量無邊阿僧祇	-11.4111
得解	-11.4112
畢竟無所有	-11.4112
我欲	-11.4115
稱揚	-11.4116
滅法	-11.4116
佛說非身	-11.4119
蘭	-11.4119
一念淨信	-11.412
如來說非眾生	-11.4121
所用	-11.4123
奏	-11.4123
外國	-11.4123
出於	-11.4126
生清淨心	-11.4128
智度論云	-11.4129
所讚	-11.4129
僧祇	-11.4129
窟	-11.4131
作佛事	-11.4132
探	-11.4132
眾善	-11.4133
銅	-11.4134
此有	-11.4134
信行	-11.4137
人有	-11.4138
作是學	-11.4138
可為	-11.4144
難行	-11.4146
無示	-11.4146
無量福德	-11.4147
經書	-11.4147
有之	-11.415
是菩薩摩訶薩雖	-11.4153
與法界	-11.4153
入初地	-11.4156
如來滅後	-11.4156
三疑	-11.4158
所說之法	-11.4159
所求無上正等菩提	-11.4159
心緣	-11.4161
樂欲	-11.4162
如來於然燈佛所	-11.4163
執相	-11.4163
四十	-11.4167
空慧	-11.4167
獨覺作意	-11.4168
出家人	-11.4169
第四明	-11.4169
惹	-11.4172
如大海	-11.418
口說	-11.418
於所	-11.4182
邪正	-11.4183
中求	-11.4183
而論	-11.4183
百萬億	-11.4184
魏本	-11.4186
由畢竟空	-11.4189
但應	-11.4189
伽陀	-11.4191
欲聞	-11.4196
捨無量	-11.4197
人王	-11.4199
瑜伽論	-11.42
是能	-11.4201
常淨	-11.4201
有分別	-11.4205
無耳	-11.4206
聲聞獨覺	-11.4207
一般	-11.4207
彩	-11.4207
今時	-11.4207
聲聞緣覺	-11.4208
發趣大乘	-11.421
三藏法師玄奘奉詔譯初分	-11.4212
都無實事	-11.4213
迴向趣求一切智智	-11.4216
隨說	-11.4222
論云下	-11.4223
深解	-11.4223
有益	-11.4224
學佛	-11.4226
令無	-11.4227
有別	-11.4228
若取若捨	-11.4232
本業	-11.4232
夢中見	-11.4233
即非具足色身	-11.4234
阿難白佛言	-11.4235
此諸	-11.4236
過去心不可得	-11.4236
觀智	-11.4236
與其	-11.4236
能攝受	-11.4237
是為菩薩摩訶薩修行般若波羅蜜多時	-11.4237
川	-11.4237
是名諸相具足	-11.4239
挍量	-11.4241
法要	-11.4242
本來清淨	-11.4245
為初	-11.4245
識性	-11.4245
遶	-11.4245
淳	-11.4246
疲	-11.4247
應用	-11.4248
峯	-11.4249
是真實	-11.425
近阿耨多羅三藐三菩提	-11.425
欺	-11.425
爛	-11.4251
般若波羅蜜多甚深義趣	-11.4251
上有	-11.4253
寤	-11.4253
而立	-11.4256
泛	-11.4257
助道法	-11.4257
應如是知	-11.4257
現在前	-11.4258
傾	-11.4258
做	-11.4259
宰	-11.426
愧	-11.4261
甚深理趣	-11.4261
此義故	-11.4261
發此	-11.4261
霜	-11.4261
證涅槃	-11.4263
飯食訖	-11.4263
佛隨念	-11.4266
即離	-11.4267
金剛般若經	-11.4268
菩薩摩訶薩觀	-11.4269
警	-11.4269
▁初總	-11.4272
之業	-11.4273
上之	-11.4273
不依止	-11.4273
七歲	-11.4274
何事	-11.4274
乃至意	-11.4275
無我所	-11.4277
菩薩摩訶薩得阿耨多羅三藐三菩提時	-11.4278
華嚴經云	-11.4279
異者	-11.4279
世法	-11.428
顯其	-11.428
有名	-11.4281
施主	-11.4281
云爾	-11.4285
須菩提白佛	-11.4294
如是降伏其心	-11.4295
助道	-11.4295
半偈	-11.4295
哆	-11.4296
實理	-11.4297
四無畏	-11.4298
優	-11.4299
王位	-11.4301
畢竟無	-11.4301
得不退轉	-11.4304
非見	-11.4309
弊魔	-11.4309
分位	-11.4312
金剛寶	-11.4313
云何習	-11.4313
是故名	-11.4314
此四句	-11.4314
彼諸	-11.4315
諸佛國土	-11.4315
故云非	-11.4315
施物	-11.4318
凡夫法	-11.4318
恒河沙等	-11.432
放下	-11.432
常心	-11.432
不懈	-11.4323
依前	-11.4325
大圓	-11.4325
此通	-11.4327
佛國土	-11.4327
而有差別	-11.4328
堪受一切世間	-11.4328
難事	-11.4328
若執	-11.433
應觀耳	-11.4332
菩薩欲	-11.4332
清淨故一切相智清淨	-11.4333
以此經	-11.4333
悉得	-11.4335
此道	-11.4336
色起至	-11.4336
釋所以	-11.4338
金剛般若波羅蜜	-11.4338
般若為	-11.4338
不離空	-11.4343
問曰巳下	-11.4346
之福德	-11.4348
問須菩提	-11.4348
方便智	-11.4349
阿羅訶	-11.435
轉變	-11.4352
却住一面	-11.4352
是不生法	-11.4353
非有願非無願	-11.4354
富樓那	-11.4358
房舍	-11.4359
置贍部洲	-11.436
摩尼珠	-11.4363
十八住	-11.4366
不為引發	-11.4367
䟽	-11.4368
如經云	-11.4368
乃知	-11.4369
所住處	-11.4372
信心不逆	-11.4372
菩提樹	-11.4373
僕	-11.4373
善事	-11.4374
成上	-11.4376
亦依	-11.4376
從上	-11.4376
為能	-11.4379
欣樂	-11.4382
阿耨多羅三藐三菩提心	-11.4382
中初	-11.4383
徵意云	-11.4383
初總	-11.4385
刊	-11.4385
法愛	-11.4386
映	-11.4387
饒	-11.4387
但聞	-11.4388
亦無非法相	-11.4389
灌	-11.439
勇猛精進	-11.439
洪	-11.4391
復生	-11.4393
應現	-11.4396
歟	-11.4397
本云	-11.4398
胸	-11.4398
摩尼寶	-11.4399
自能	-11.4399
由旬	-11.44
括	-11.44
二藏	-11.44
讚嘆	-11.4403
不別	-11.4407
肅	-11.4407
不生執著	-11.4408
佛恐	-11.4409
甚深般若波羅蜜多亦復如是	-11.4411
規	-11.4413
已生	-11.4413
起行	-11.4414
無著下	-11.4415
界等	-11.4419
章門	-11.4419
是實相者	-11.4424
若實有	-11.4427
次第緣	-11.4428
菩薩及	-11.4437
非有想非無想	-11.4437
受持般若波羅蜜	-11.4439
化為	-11.444
得真	-11.4443
妙色	-11.4444
亦無增無減	-11.4444
福相	-11.4446
意根	-11.4449
住相布施	-11.4449
不見我	-11.445
為果	-11.445
得無礙	-11.445
滿三千大千世界	-11.4453
佛無上正等菩提	-11.4454
隱顯	-11.4454
得成於忍	-11.4454
一相無相	-11.4454
佛說法	-11.4456
雪山	-11.4457
但得	-11.446
五地	-11.4462
至菩提	-11.4462
即非般若波羅蜜	-11.4467
在世	-11.4467
當知此	-11.4468
殺生	-11.4468
諸道	-11.4469
定無	-11.4471
住修	-11.4471
更無別	-11.4472
後學	-11.4472
不應觀聲	-11.4472
喻如	-11.4474
答前	-11.4474
如夢乃至如化	-11.4476
高座	-11.4476
謗佛	-11.4481
由是菩薩摩訶薩故	-11.4484
瞋忿	-11.4484
如中	-11.4485
非甚深非微細	-11.4485
長者大族	-11.4485
入無二法數	-11.4488
速能圓滿	-11.449
荷擔	-11.4492
皆成	-11.4494
不二不別	-11.4494
般若波羅蜜多祕密藏中	-11.4495
深淺	-11.4497
乃至云	-11.4497
此人以是因緣	-11.4497
與一切有情同共迴向	-11.4497
無得無捨	-11.4497
道種性	-11.4497
大乘中	-11.4498
性自爾	-11.4499
不為攝取	-11.45
便得無上正等菩提	-11.4501
深解義趣	-11.4501
断	-11.4502
即是菩提	-11.4503
老病死	-11.4504
故彼	-11.4507
是亦	-11.4509
愛欲	-11.4509
為真實	-11.4509
復有二	-11.451
通於	-11.451
昭	-11.451
般若波羅蜜多亦	-11.451
即為謗佛	-11.4511
鮮	-11.4511
一真	-11.4514
粟	-11.4517
但於	-11.4518
震動	-11.4518
如是修行	-11.4519
轉教	-11.4521
後文	-11.4522
僅	-11.4523
舉喻	-11.4525
題目	-11.4525
氣力	-11.4526
冠	-11.4528
如經中說	-11.4528
般若波羅蜜經卷	-11.453
嚮	-11.453
又前	-11.4531
三乘法	-11.4533
盧	-11.4533
功德智慧	-11.4534
亦無所見	-11.4535
我無所有故	-11.4537
大義	-11.4538
軀	-11.4538
彼時	-11.4538
增進	-11.4539
六祖曰	-11.454
第八識	-11.4541
見我	-11.4544
或令	-11.4544
無數無量無邊	-11.4545
飯食	-11.4545
兩忘	-11.4547
假名為	-11.4547
二世	-11.4548
範	-11.4548
輔	-11.4548
勿謂	-11.4554
為上首	-11.4557
如涅槃	-11.4558
三十心	-11.456
觀其	-11.4561
出沒	-11.4563
淨名云	-11.4563
神我	-11.4564
告之	-11.4565
則成	-11.4566
今生	-11.4566
要由	-11.4567
離一切諸相	-11.4568
法不可得	-11.4573
壞故	-11.4574
能成辦一切智智	-11.4579
以無我	-11.458
五果	-11.4581
煖	-11.4583
四行	-11.4583
更相	-11.4584
能了	-11.4585
次答	-11.4588
苦故	-11.4592
以至	-11.4594
尚畢竟無所有	-11.4598
之疑	-11.46
咎	-11.4601
雖大	-11.4602
何因緣	-11.4603
乃至受持四句偈等	-11.4605
如疏	-11.4608
悟道	-11.4608
思之	-11.4609
此五	-11.461
是菩薩不能證	-11.4614
小乘人	-11.4614
有多	-11.4615
生因	-11.4616
正受	-11.4617
是則名為	-11.4617
干	-11.4618
佛地論	-11.4619
亦勝	-11.4619
菩薩前際不可得	-11.4619
生如是心	-11.462
無繁天	-11.4621
無聞無見	-11.4621
是菩薩摩訶薩由此六種波羅蜜多	-11.4622
有菩薩摩訶薩具修六種波羅蜜	-11.4622
菩薩有	-11.4623
若天	-11.4623
金剛手菩薩	-11.4624
彌勒菩薩偈	-11.4625
為父為母	-11.4626
印證	-11.4626
無憂	-11.4627
佛境界	-11.4627
善付囑	-11.4627
毀呰	-11.4627
苾芻尼	-11.4628
身口	-11.4629
利益安樂一切有情	-11.463
無諍三昧	-11.4632
反釋	-11.4634
之心也	-11.4634
心有	-11.4635
充足	-11.4635
修行一切智	-11.4636
在內在外在兩間	-11.4638
四正勤	-11.4638
有方便	-11.4638
所覆	-11.464
我緣此意	-11.4641
涕淚悲泣	-11.4641
色乃至法	-11.4642
結跏趺坐	-11.4642
梵本	-11.4644
諸世界	-11.4644
即非具足	-11.4645
是字	-11.4651
逆順	-11.4651
入城	-11.4651
餘本	-11.4653
五句	-11.4653
塗香	-11.4653
何為	-11.4654
分別空不空	-11.4655
林中	-11.4656
從初發心乃至	-11.4658
菩薩摩訶薩所行般若波羅蜜多亦無邊	-11.4659
度也	-11.4659
知彼	-11.4659
說是經	-11.466
滋	-11.4662
真實不虗	-11.4664
賴	-11.4665
覺者	-11.4665
大火	-11.4666
閱	-11.4666
卷第六	-11.4669
施為	-11.4669
習行	-11.467
眾生界	-11.4671
具念	-11.4674
常無常相	-11.4674
其地	-11.4674
前所說	-11.4674
大仙	-11.4676
慧光	-11.4679
創	-11.4679
聲聞及獨覺地	-11.468
木石	-11.468
著衣持鉢	-11.4681
即名諸佛	-11.4682
如燈	-11.4685
已前	-11.4685
詔	-11.4685
般若波羅	-11.4687
寶珠	-11.4687
比邱	-11.4689
隨喜福德	-11.4689
或曰	-11.4691
具大	-11.4691
聞是深般若波羅蜜	-11.4691
依般若波羅蜜多	-11.4695
翁	-11.4696
極樂	-11.4696
何況有	-11.4698
此於	-11.4699
無苦集滅道	-11.4699
有分	-11.4701
異色	-11.4701
動搖	-11.4701
復云	-11.4702
但約	-11.4705
觀眾生	-11.4708
隨業	-11.471
言非	-11.4711
惟其	-11.4712
無不趣	-11.4713
無遺	-11.4718
不應住色	-11.4722
於身界	-11.4723
乃至不見	-11.4724
所說義	-11.4726
增語非菩薩摩訶薩	-11.4726
於鼻界	-11.4727
一約	-11.473
根熟	-11.473
作大作小	-11.4733
於耳界	-11.4733
三災	-11.4733
中出	-11.4734
人趣	-11.4735
耳鼻舌身意	-11.4738
得成就	-11.4738
故不可得	-11.4739
記別	-11.4741
上二句	-11.4743
自取	-11.4743
頂禮	-11.4745
一切法故	-11.4745
如所有性	-11.4746
也然	-11.4748
自受	-11.4749
乃至老死	-11.4749
亦不起作諸行若有若無故學	-11.4749
上云	-11.4749
我空	-11.4751
體非	-11.4751
齊此	-11.4751
為度	-11.4753
不相應行	-11.4755
降住	-11.4756
巳前	-11.4756
如何是	-11.4757
雜心	-11.4758
無間道	-11.4761
法上菩薩摩訶薩	-11.4762
菩薩摩訶薩行六波羅蜜時	-11.4762
無等無等等	-11.4765
隨所生處	-11.4768
為樂	-11.4768
空寂清淨句義是菩薩句義	-11.4771
慳悋	-11.4773
意說	-11.4774
彼經	-11.4778
此空	-11.4779
無去無來	-11.4779
生淨信	-11.4779
樂苦相不可得	-11.478
如是行	-11.478
無相有相相不可得	-11.478
空不空相不可得	-11.478
不以有相無相分別	-11.4782
不以遠離不遠離分別	-11.4782
不以生不生分別	-11.4782
不以寂靜不寂靜分別	-11.4782
不以滅不滅分別	-11.4782
修集	-11.4784
欲見	-11.4785
假有	-11.4786
如恒河中所有沙數	-11.4786
釋論	-11.4786
不可以身相得見如來	-11.4787
黃金	-11.4787
汝應	-11.4789
我相即是非相	-11.479
何緣而說我清淨故	-11.4791
鄙	-11.4791
無作者	-11.4792
則得	-11.4792
初靜慮	-11.4795
無淨	-11.4797
何物	-11.4798
已滅	-11.4799
即為有佛	-11.4801
退轉故名不退轉	-11.4802
尋常	-11.4802
無聲	-11.4802
應言	-11.4803
擲	-11.4804
如來說非	-11.4804
䟦	-11.4808
盈	-11.4808
鄉	-11.4809
全無	-11.481
嘉	-11.481
請問如來	-11.4811
菩薩藏	-11.4811
隨覺	-11.4812
破執	-11.4812
甚深微妙	-11.4814
偶	-11.4814
如來所說身相	-11.4815
三佛	-11.4815
一世	-11.4816
諸異生	-11.4818
於舌界	-11.4821
告言	-11.4825
雖住	-11.4827
明淨	-11.4828
菩提終	-11.4828
答以	-11.4835
至佛	-11.4836
菩提樹下	-11.4838
最為第一	-11.4839
無明盡	-11.4844
秦本	-11.4845
不應取法	-11.4846
不增減	-11.4846
現等覺	-11.4848
其間	-11.4849
十四忍	-11.4857
正等覺甚深般若波羅蜜多	-11.4858
勝福	-11.4861
疾病	-11.4862
般若波羅蜜多離	-11.4862
如是隨喜迴向	-11.4865
以漚惒拘舍羅	-11.4866
尚不見有	-11.4867
一標	-11.4871
如如來	-11.4871
觀此	-11.4873
貪心	-11.4873
三衣	-11.4874
非非有	-11.4876
行精進波羅蜜多	-11.4876
乃至廣說	-11.4876
令諸眾生	-11.4878
退墮	-11.488
詰	-11.4881
為住	-11.4881
復由	-11.4883
天樂	-11.4885
歸敬	-11.4888
明鏡	-11.4888
之可	-11.4889
勝果	-11.489
於眼	-11.489
有樂	-11.489
之流	-11.4894
法教	-11.4896
是般若波羅蜜多	-11.4896
分也	-11.4897
不離一切智智心	-11.4901
相學	-11.4901
為習	-11.4905
之聲	-11.4905
梵會天	-11.4906
若動若住不可得故	-11.4907
十方各如殑伽沙界	-11.4907
是已生法	-11.4908
空中無趣	-11.4909
離染	-11.491
相應法	-11.491
然雖	-11.491
無所顧戀	-11.4911
及壞滅者	-11.4914
亦不見有能攝受	-11.4915
觀如來	-11.4916
宗泐	-11.4917
有學	-11.4917
表示	-11.492
淨不淨相	-11.4922
無願有願相不可得	-11.4923
有願無願	-11.4923
不以有願無願分別	-11.4924
是名與般若波羅蜜相應	-11.4924
分別滅不滅	-11.4924
與汝	-11.4925
以恒河沙等身命布施	-11.4926
分別生不生	-11.4927
別顯	-11.4928
清淨與	-11.4929
四句偈等	-11.4929
分別故	-11.4929
以一切種	-11.4929
分別有相無相	-11.493
滅度眾生	-11.4931
二佛	-11.4932
無作解脫門	-11.4933
遙見	-11.4936
分別遠離不遠離	-11.4937
巍巍	-11.4938
決擇	-11.4938
顯勝	-11.4939
食之	-11.4939
如佛塔廟	-11.494
相好身	-11.4941
塔廟	-11.4942
顯理	-11.4942
修行精進波羅蜜多	-11.4943
子真說	-11.4944
善說	-11.4945
不死	-11.4945
離有無	-11.4946
四魔	-11.4947
王等	-11.4947
辛	-11.4948
祗	-11.4949
怕	-11.4949
無得無說	-11.4953
考	-11.4953
而實無	-11.4955
七重	-11.4956
即諸法如義	-11.4956
柱	-11.4957
天華	-11.4957
不放逸	-11.4959
識處	-11.496
不遠	-11.4961
善攝	-11.4963
亦不從	-11.4963
菩提者	-11.4964
今復	-11.4964
相望	-11.4965
此二種	-11.4967
嗔恨	-11.4969
戒定慧	-11.4972
增語是菩薩摩訶薩	-11.4974
心則	-11.4976
是菩薩摩訶薩由	-11.4976
諸所	-11.4978
斷集	-11.4979
龍神	-11.4979
不二故	-11.498
諸相具足	-11.498
不依勝義	-11.4982
亦無所生	-11.4982
入聖	-11.4983
一道	-11.4983
無空	-11.4991
根器	-11.4992
妙果	-11.4992
便於	-11.4993
隨心	-11.4993
綱要	-11.4995
得作佛	-11.4997
慧也	-11.4999
當時	-11.5001
無量有情	-11.5001
行般若波羅蜜者	-11.5001
我所執	-11.5005
下文云	-11.5005
能具	-11.5005
不名菩薩	-11.5007
行法	-11.5008
得陀羅尼	-11.5008
雜香	-11.5008
要須	-11.5008
無退轉	-11.5009
依真	-11.501
無執	-11.5012
先已	-11.5013
諸事	-11.5013
古云	-11.5014
無去	-11.5014
無身	-11.5017
問難	-11.5018
大同	-11.5019
四釋	-11.5019
此福	-11.502
此一段	-11.5021
夢幻	-11.5022
諸國王	-11.5022
若行色	-11.5023
無相三昧	-11.5025
遠離不遠離相	-11.5026
今解	-11.5026
列名	-11.5031
住降	-11.5033
諸緣	-11.5034
相異	-11.5035
敬愛	-11.5036
已後	-11.5037
終歸	-11.5037
不可得見	-11.5038
廣如	-11.504
皈	-11.5041
同彼	-11.5043
釋名	-11.5048
大小乘	-11.5049
若佛	-11.5051
若由此真如施設	-11.5052
中國	-11.5053
為師為導	-11.5054
沈沒	-11.5056
若菩薩摩訶薩無方便善巧	-11.5057
十號	-11.5057
故學	-11.5057
富樂	-11.5058
法說	-11.5058
有所得故	-11.506
非想非非想處定	-11.506
即如	-11.506
嬈	-11.506
來意	-11.5061
實無有	-11.5063
合釋	-11.5063
勸人	-11.5065
而不取	-11.507
五明	-11.5071
依世俗	-11.5073
是無上呪	-11.5073
分別有願無願	-11.5074
僧問	-11.5074
如是言	-11.5074
車乘	-11.5074
大光明	-11.5074
二因	-11.5075
淨潔	-11.5076
是故如來說名	-11.5076
不苦不樂受	-11.5076
是人行邪道	-11.5079
天帝	-11.5079
若以色見我	-11.508
不應貪著	-11.5081
分別寂靜不寂靜	-11.5081
不染不淨	-11.5082
是第一	-11.5082
見諸	-11.5082
入初靜慮	-11.5082
隨法行	-11.5083
此章	-11.5084
易知	-11.5086
以是行	-11.5087
障道	-11.5088
無信	-11.5088
所有一切眾生之類	-11.5088
真我	-11.5089
如意珠	-11.5089
育	-11.5089
青黃赤白	-11.5092
滅相	-11.5093
萌	-11.5093
於五陰	-11.5094
無有能	-11.5095
不造	-11.5096
為物	-11.5096
秘	-11.5097
夢境	-11.5097
總為	-11.5098
寶積	-11.5098
於意界	-11.5099
泰	-11.51
為菩提	-11.5102
盡也	-11.5102
忠	-11.5102
而學	-11.5105
▁初總標	-11.5105
纂	-11.5106
域	-11.5107
使受者	-11.5108
教門	-11.511
得無所得	-11.511
雖同	-11.5111
山河	-11.5111
八苦	-11.5112
等中	-11.5112
無量無所有故	-11.5113
本經	-11.5115
修行安忍波羅蜜多	-11.5117
中亦	-11.5117
皆與	-11.5118
菩薩摩訶薩名亦復如是	-11.5119
行安忍波羅蜜多	-11.5119
使我	-11.5121
速疾	-11.5121
又能	-11.5127
亦不入	-11.5129
現成	-11.5129
體是	-11.5129
經之	-11.513
衣食	-11.513
同證	-11.5132
此甚深般若波羅蜜多	-11.5136
五色	-11.5139
宗趣	-11.5139
真如如來可得	-11.514
佛言須菩提	-11.5143
因義	-11.5144
當來世	-11.5145
如來如	-11.5146
正思惟	-11.5146
自無	-11.5147
一門	-11.515
說耳	-11.515
是布施	-11.5152
肯	-11.5156
欲往	-11.5156
名等	-11.5156
不安	-11.5157
何則	-11.5157
若無想	-11.5158
故今明	-11.5159
引經	-11.5159
聖位	-11.516
異類	-11.5163
諸佛無上正等菩提離	-11.5164
煩惱盡	-11.5165
如電	-11.5165
教之	-11.5167
深廣	-11.5167
於何	-11.5168
於無量	-11.5169
信力	-11.5169
後後	-11.517
不示	-11.517
一切智智離	-11.5172
皆是佛法	-11.5174
實相故	-11.5175
幻法	-11.5175
皆爾	-11.5176
入位	-11.5177
釋文	-11.5177
通利	-11.5179
因緣者	-11.518
初正釋	-11.518
可求	-11.5182
故又	-11.5182
住是三昧者	-11.5185
淨穢	-11.5186
彼諸有情	-11.5188
聲聞法中	-11.5189
實可得	-11.5189
清淨即果清淨	-11.5193
住法	-11.5194
四意斷	-11.5194
十八種	-11.5196
少廣天	-11.5198
遠離般若波羅蜜	-11.5199
天帝釋白佛言	-11.5201
無量廣天	-11.5201
像法	-11.5201
以有所得而為方便	-11.5202
不在內不在外	-11.5202
入禪定	-11.5203
常共相應	-11.5205
入初禪	-11.5205
證之	-11.5206
價	-11.5207
六十二	-11.5209
▁法	-11.5209
修學般若波羅蜜多	-11.521
聲香味觸法	-11.5211
解行	-11.5211
安慰	-11.5212
有罪無罪	-11.5212
分別執著	-11.5213
不驚不怖	-11.5214
薩婆訶	-11.5216
聽聞正法	-11.5216
人中最為第一	-11.5217
我當滅度無量眾生	-11.5217
般若波羅蜜多甚深經典	-11.5218
於三	-11.5219
虛空中	-11.522
如來說第一波羅蜜	-11.522
可以身相見如來不	-11.5222
解之	-11.5223
二顯	-11.5224
諸佛功德	-11.5224
諸菩薩摩訶薩為	-11.5227
若取非法相	-11.5229
知已	-11.5229
一多	-11.5229
分別說	-11.523
菩薩應離一切相	-11.523
療	-11.523
三摩	-11.5232
不能動	-11.5233
隨從	-11.5233
從諸佛	-11.5234
慚	-11.5234
法不	-11.5236
闓士大士	-11.5236
示導	-11.5238
此位	-11.5238
楚	-11.524
無色相	-11.524
不見少法	-11.5242
無相相	-11.5242
無上法	-11.5243
信也	-11.5243
以是名字	-11.5245
陷	-11.5245
或由	-11.5246
星宿	-11.5247
論之	-11.5247
冬	-11.5247
進退	-11.5248
未具足	-11.5248
縱橫	-11.5251
昌	-11.5253
一曰	-11.5253
未見	-11.5253
萬里	-11.5254
是乘	-11.5255
區	-11.5255
▁界	-11.5255
成佛時	-11.5257
文分為	-11.5258
真如中如來可得	-11.5259
上根	-11.5261
莊嚴也	-11.5263
滅色	-11.5265
修行人	-11.5268
品明	-11.527
即見	-11.5272
之苦	-11.5272
終不能	-11.5273
復作	-11.5274
善利	-11.5275
如來有肉眼不	-11.5275
即是涅槃	-11.5275
宿住	-11.5279
如是一切法	-11.5282
一切諸相	-11.5282
可愛	-11.5284
破其	-11.5284
巳證	-11.5285
無所取著	-11.5286
此又	-11.5287
四心	-11.5289
俱名	-11.5292
後來	-11.5294
我無我相	-11.5296
教菩薩	-11.5298
樂聞	-11.5298
結也	-11.5298
求其	-11.5299
音樂	-11.5299
之位	-11.5302
濟拔	-11.5307
不清淨	-11.5307
上乘	-11.5307
此是空	-11.5309
異相為可得不	-11.5311
道種	-11.5311
哥	-11.5312
是故甚深	-11.5314
具如	-11.5314
四十二	-11.5316
果證	-11.5319
於斯	-11.5319
黠	-11.5325
然佛	-11.5325
然以	-11.5325
為成	-11.5326
能除一切苦	-11.5327
功德故	-11.5327
非正	-11.5328
不瞋	-11.5331
觀見	-11.534
解也	-11.5341
千年	-11.5343
是真空	-11.5344
誦持	-11.5344
即由此真如施設	-11.5348
誨	-11.5348
不苦不樂	-11.5348
健達縛	-11.5349
右繞	-11.5349
是如	-11.535
為歸為趣	-11.535
入無餘依般涅槃界	-11.535
示之	-11.535
無垢無淨	-11.5351
觀聲	-11.5351
變動	-11.5352
十卷	-11.5352
是可攝受	-11.5355
空無邊處定	-11.5356
種種功德	-11.5356
菩薩摩訶薩如是學	-11.5357
天神	-11.5358
有頂	-11.5358
非習非不習	-11.5358
如是語	-11.5359
三苦	-11.536
重重	-11.5362
喻之	-11.5362
即為著我人眾生壽者	-11.5363
況有趣非趣可得	-11.5365
以菩薩	-11.5369
何緣而說我無邊故	-11.5369
所言善法者	-11.5369
遮遣	-11.537
是無等等呪	-11.5371
若心有住	-11.5372
聞是章句	-11.5374
佛祖	-11.5374
我亦不	-11.5375
不應以三十二相觀如來	-11.5375
為遣此疑	-11.5377
發阿耨多羅三耶三菩	-11.5377
凡夫者	-11.5378
亦教人	-11.5378
貪著其事	-11.5384
而反	-11.5384
獨覺菩提離	-11.5386
無上正等覺	-11.5388
對法	-11.5389
我不作是念	-11.539
卷第二十	-11.5391
之初	-11.5391
俱非	-11.5392
孫	-11.5392
於淨戒	-11.5393
顛	-11.5394
不寂靜增語是菩薩摩訶薩	-11.5394
生著	-11.5395
集智	-11.5396
才	-11.5396
無有恐怖	-11.5396
難測	-11.5398
故說菩薩	-11.5398
悉為	-11.5398
菩薩摩訶薩若	-11.5399
謂得	-11.5399
大功德	-11.5399
異熟果	-11.54
縣	-11.5402
無量阿僧祇劫	-11.5403
不離般若波羅蜜	-11.5406
雖現	-11.5407
滅智	-11.5411
同學	-11.5412
一切菩薩摩訶薩行離	-11.5412
雖常	-11.5413
觀一切	-11.5414
是名一合相	-11.5415
如來有所說法不	-11.5417
各隨	-11.5418
名阿羅漢	-11.5419
一邊	-11.5419
無邊是畢竟淨	-11.5421
總顯	-11.5421
佛自說	-11.5424
第十四	-11.5426
相隨	-11.5426
馱	-11.543
於是處	-11.543
頭頭	-11.543
之矣	-11.5432
成其	-11.5434
皆發無上正等覺心	-11.5435
將謂	-11.5436
不應生	-11.5439
如經說	-11.5439
正教	-11.544
前中有二	-11.5445
得不還果	-11.5447
引導	-11.5448
下地	-11.5452
巳悟	-11.5452
得一來果	-11.5454
則失	-11.546
是空性不	-11.546
欲作	-11.5461
是義	-11.5466
非實有性	-11.5466
炷	-11.5471
生苦	-11.5471
疑悔	-11.5471
因是	-11.5472
離分別	-11.5473
諸法如義	-11.5474
第十三	-11.5475
周徧	-11.5477
其所以	-11.5479
是妄	-11.5481
此相	-11.5481
無所礙	-11.5483
百八	-11.5485
四面	-11.5491
安得	-11.5491
而實	-11.5493
為王	-11.5494
墮惡道	-11.5494
歡喜地	-11.5494
有云	-11.5499
以無所住為方便故	-11.55
為洲為渚	-11.5501
為明為炬	-11.5502
舍宅	-11.5504
以此為	-11.5504
法身佛	-11.5505
不住不習	-11.5508
舍利弗謂	-11.5508
於事	-11.5509
不昧	-11.551
諸法空相	-11.5511
若菩薩摩訶薩起如是想	-11.5511
空不離	-11.5512
欲得無上正等菩提	-11.5512
行靜慮波羅蜜多	-11.5513
澤香	-11.5513
本來無	-11.5513
或於	-11.5514
前問	-11.5514
順逆	-11.5515
入三昧	-11.5515
能作是念	-11.5517
生死中	-11.5518
是假名	-11.5518
大利益	-11.5519
變化身	-11.5519
不止	-11.5519
四倒	-11.552
不可盡故	-11.552
為我說	-11.5521
已斷	-11.5521
纓絡	-11.5522
現在心不可得	-11.5523
佛名	-11.5523
堅牢	-11.5524
剎利	-11.5524
如來說得福德多	-11.5524
若梵	-11.5525
結歸	-11.5525
雖云	-11.5525
我應滅度一切眾生	-11.5525
是故名一切法	-11.5526
不得自在	-11.5527
以法界	-11.5529
佛告慶喜	-11.5529
摩訶般若	-11.553
百由旬	-11.5531
執故	-11.5531
有忍	-11.5532
常不	-11.5533
怠	-11.5533
方廣	-11.5537
薰	-11.5537
問此	-11.5537
方所	-11.5537
世間純空相	-11.5538
不欲令	-11.5539
所有善根	-11.554
慎	-11.5541
破有	-11.5541
我有	-11.5542
紹	-11.5544
設使	-11.5544
未成佛	-11.5546
舒	-11.5547
理中	-11.5547
緩	-11.5548
所教	-11.5549
死後	-11.555
利他行	-11.555
式	-11.5551
識真如	-11.5551
布施起	-11.5552
書般若波羅蜜	-11.5553
仗	-11.5553
都無所住	-11.5555
識得	-11.556
二慧	-11.5562
▁空	-11.5562
譬若	-11.5562
如幻如化	-11.5563
能摧	-11.5563
障故	-11.5563
房	-11.5564
求索	-11.5564
若八解脫	-11.5565
悲願	-11.5565
無證	-11.5567
所疑	-11.5567
八百	-11.5568
水月	-11.5569
見諸佛	-11.557
及聲聞	-11.557
真如理	-11.5572
無所得心	-11.5573
安住如是	-11.5573
一切眾生皆	-11.5574
科判	-11.5574
不久當	-11.5575
故而現在前	-11.5575
諸法無所有	-11.5576
有滅	-11.5578
之報	-11.5578
具足檀波羅蜜	-11.5579
般若波羅蜜多方便善巧	-11.5579
是菩薩摩訶薩安住	-11.558
見一切法	-11.558
於色界	-11.5581
形容	-11.5581
常生	-11.5582
無作無為	-11.5583
中有四	-11.5584
應墮惡道	-11.5584
意顯	-11.5586
可忍	-11.5589
如是相	-11.5591
乃真	-11.5591
明度無極	-11.5594
汝言	-11.5595
真性中	-11.5595
終始	-11.5596
一切色	-11.5596
如應	-11.5601
不厭	-11.5605
亦不取	-11.5607
謂一	-11.5608
密意	-11.5608
法華云	-11.5609
間雜	-11.5609
時時	-11.5611
行檀那波羅蜜	-11.5612
旨趣	-11.5612
永不	-11.5614
亂意	-11.5617
生善	-11.5617
是三昧	-11.562
釋中	-11.5622
實想	-11.5622
餘二	-11.5623
世尊所說	-11.5624
於如來	-11.5624
眼等	-11.5626
眾生者	-11.5626
生法二空	-11.5626
汝意云何	-11.5629
是菩薩摩訶薩修行般若波羅蜜多時	-11.5634
則此大乘非尊非勝	-11.5637
巳盡	-11.5637
能了知	-11.5638
不二相	-11.5639
法身如來	-11.5641
如來有佛眼	-11.5642
善現隨如來生	-11.5644
不起空	-11.5645
起空想著	-11.5645
所行處	-11.5646
之際	-11.5649
:「『	-11.565
無上正真道	-11.565
轉妙法輪度無量眾	-11.565
甚深般若波羅蜜多亦	-11.5651
肉身	-11.5653
如汝所言	-11.5654
於真如如是學	-11.5655
為救為護	-11.5655
為智為慧	-11.5655
佛子	-11.5655
內外空及有無空	-11.5656
為燈為照	-11.5656
為解為覺	-11.5656
識心	-11.5657
加護	-11.5657
真如即如來真如	-11.5658
為不退轉地菩薩摩訶薩遮遣	-11.5659
名身	-11.5662
不住於	-11.5662
遍學	-11.5664
十億	-11.5664
五行	-11.5664
憙	-11.5665
人道	-11.5667
諸受	-11.5668
屬生死	-11.5668
變成	-11.5668
轉正法輪	-11.5668
屬生死屬涅槃	-11.567
因名	-11.567
沮	-11.5672
便能證得一切智智	-11.5672
今時應學不應作證	-11.5673
有佛無佛	-11.5673
疾疫	-11.5675
當知般若波羅蜜多亦無生	-11.5675
無所得法	-11.5675
實無有法名為菩薩	-11.5676
我亦不見	-11.5676
若作是言	-11.5677
諸天等	-11.5679
毒蛇	-11.5679
餘妄語	-11.5681
奇特	-11.5682
法性如來可得	-11.5682
我行於	-11.5684
如來有所說法耶	-11.5684
而坐	-11.5685
滅道	-11.5686
愁憂	-11.5686
三世平等	-11.5687
便證無上正等菩提	-11.5687
如諸佛	-11.5688
住空	-11.5688
六衰	-11.569
示以	-11.5691
說波若	-11.5691
下賤	-11.5692
不可思議性	-11.5693
須菩提語舍利弗	-11.5694
恒河沙數	-11.5696
則非菩薩	-11.5696
非凡夫	-11.5699
嗟	-11.5699
忿怒	-11.5699
乃至無老死	-11.5699
是第二	-11.57
眾生眾生者	-11.5701
涼	-11.5703
管	-11.5705
精進波羅蜜	-11.5708
乍	-11.5708
說其	-11.5708
領悟	-11.5709
能生信心	-11.571
包含	-11.571
於一切眾生	-11.5711
若樂小法者	-11.5711
爐	-11.5712
忍波羅蜜	-11.5712
補處	-11.5712
復置	-11.5712
鎮	-11.5712
遠離法	-11.5713
且初第一標	-11.5715
則不得	-11.5716
湛然清淨	-11.5716
若尊重弟子	-11.5716
華嚴云	-11.5717
維摩	-11.5719
▁初引	-11.572
應爾	-11.5723
佛世	-11.5724
酪	-11.5725
今所	-11.5725
善現天	-11.5727
師長	-11.5727
是名般若波羅蜜	-11.5729
如諸如來	-11.5729
新發意	-11.573
答上	-11.573
本性無縛無脫	-11.5732
▁後釋	-11.5733
六法	-11.5733
俱時	-11.5734
一切苦	-11.5735
言下	-11.5741
皆成就	-11.5742
真如如來真如可得	-11.5742
止遣	-11.5746
通序	-11.5746
長老須菩提	-11.5747
又如虛空	-11.5747
海中	-11.5748
薄福	-11.5749
及弟子	-11.575
知諸法實相	-11.5753
示世間	-11.5754
能聽	-11.5754
所得果	-11.5756
教者	-11.5756
是彼	-11.576
如來有肉眼	-11.5763
種性地	-11.5764
眾生想	-11.5764
乃至一切	-11.5767
八難	-11.5767
初解	-11.5767
隨喜迴向無上正等菩提	-11.5768
不執受	-11.5771
比量	-11.5774
菩提法	-11.5775
行深般若波羅蜜多方便善巧	-11.5775
無取著	-11.5775
清淨故道相智清淨	-11.5776
即心	-11.5778
大段	-11.578
實非	-11.578
不易	-11.5783
次問	-11.5783
即自	-11.5784
離耳	-11.5787
第十六	-11.5787
勝慧	-11.5788
可斷	-11.5792
不可分別	-11.5793
說無相	-11.5794
若無忘失法	-11.5796
等觀	-11.5796
證理	-11.5796
從佛聞	-11.5798
迷心	-11.58
及彼因果	-11.5804
勿動	-11.5804
無有量	-11.5804
為二第一	-11.5805
無見無得	-11.5806
作是行	-11.5806
若時若時	-11.5808
為諸有情宣說開示	-11.5809
而得生故	-11.5809
婆羅門大族	-11.5809
於無上正等菩提得不退轉	-11.581
殑伽沙數世界	-11.581
如是行者	-11.5811
壞法界耶	-11.5812
於諸等持	-11.5813
自歸	-11.5813
我取	-11.5813
乃有	-11.5814
無相之法	-11.5814
若無色	-11.5815
等經	-11.5815
道支	-11.5815
不自在	-11.5816
此經文	-11.5816
及所壞滅	-11.5817
是無相	-11.5817
超出	-11.5817
人壽	-11.5817
三約	-11.5818
從本已來	-11.5819
恍忽	-11.5819
類智	-11.5819
法性如來法性可得	-11.5822
當知無數亦無所有	-11.5824
當知無邊亦無所有	-11.5824
中不應住	-11.5824
心起	-11.5824
求證無上正等菩提	-11.5825
乾闥婆	-11.5825
是阿耨多羅三藐三菩提	-11.5825
有生有滅	-11.5825
別有法界	-11.5825
唯在	-11.5826
不可取故無染污	-11.5827
無染無淨故清淨	-11.5828
是人不解我所說義	-11.5828
無厭足	-11.5829
我當有所說法	-11.583
金剛喻	-11.583
進修	-11.5832
板	-11.5833
手持	-11.5836
汝當奉持	-11.5837
無數無所有故	-11.5838
之我	-11.5839
流通分	-11.584
天等	-11.5841
從此以下	-11.5842
為諸菩薩說	-11.5842
吾今	-11.5842
此經中	-11.5842
開士	-11.5842
四部弟子	-11.5844
一念中	-11.5846
捐	-11.5846
祕	-11.5847
翼	-11.5847
人法俱空	-11.5847
屢	-11.5848
色性	-11.5848
緣一覺	-11.5848
雖具	-11.585
趨	-11.5852
離聲	-11.5853
從何	-11.5853
今約	-11.5856
而說偈言	-11.5856
居家	-11.5857
更無餘	-11.5858
屬彼	-11.5859
駕	-11.5859
見地	-11.586
於一切處	-11.586
眉	-11.586
四處	-11.586
效	-11.586
令此	-11.586
迦羅	-11.586
絲毫	-11.5861
無所依止	-11.5862
都無所見	-11.5862
起諸	-11.5863
覺分	-11.5864
內護	-11.5864
有如是分別	-11.5867
寂默	-11.5867
出世法	-11.5867
若有想	-11.5868
佛法僧	-11.5868
歎人	-11.5869
如云	-11.5869
著空	-11.587
聞是法	-11.5873
去處	-11.5874
般若波羅蜜多甚深	-11.5874
得一切智	-11.5874
起後	-11.5875
耳識	-11.5876
聞正法	-11.5878
是慧	-11.5878
若五眼	-11.588
人多	-11.588
教體	-11.588
如來有所說法	-11.588
未甞	-11.5881
少欲	-11.5882
大用	-11.5884
如虛空無盡	-11.5884
圓成實性	-11.5886
觀諸	-11.5887
宣說正法	-11.5887
俱泯	-11.5888
娜	-11.5888
莫作	-11.5895
離受	-11.5896
界外	-11.5899
若有色	-11.5901
聞深般若波羅蜜	-11.5901
疏文	-11.5902
亦不分別	-11.5903
智德	-11.5908
云何說	-11.5908
皆應供養	-11.5909
如是沙等恒河	-11.5911
初正明	-11.5911
亦甚深	-11.5913
金剛薩埵	-11.5914
不成就	-11.5914
長安	-11.5914
與般若波羅蜜多清淨	-11.5914
此據	-11.5915
於一切眾生中	-11.5916
行業	-11.5917
於汝	-11.592
惱害	-11.5921
然彼	-11.5923
妄計	-11.5924
知根	-11.5924
羣生	-11.5925
此即是	-11.5926
千里	-11.5927
隨處	-11.5928
聖眾	-11.5928
明法身	-11.5929
現法	-11.5929
結云	-11.593
出其	-11.5932
於境	-11.5932
菩薩亦爾	-11.5933
名稱	-11.5934
修智慧	-11.5937
誰迴向	-11.5938
證得所求無上正等菩提	-11.5938
天中	-11.5939
及諸弟子	-11.594
得也	-11.594
為彼岸	-11.5941
不殺生	-11.5942
修行四靜慮	-11.5942
道聖諦離	-11.5946
為他人	-11.5946
力用	-11.5947
勝出	-11.5949
品云	-11.5952
無性是	-11.5953
著想	-11.5955
問意云	-11.5955
千分	-11.5958
此既不生則非	-11.5961
修善法	-11.5962
不取不捨為方便故	-11.5963
獲大	-11.5964
別序	-11.5964
六神通離	-11.5964
未出	-11.5965
是初	-11.5965
或令住	-11.5967
法界亦	-11.5967
不恐不怖	-11.5967
實是	-11.5967
乃成	-11.5967
今何以	-11.5968
隨生	-11.5968
真空無相	-11.5968
平等法性	-11.5973
理故	-11.5976
東北方	-11.5976
窣堵波	-11.5978
二論	-11.5978
初分校量功德品第三十之	-11.5978
與如來	-11.5978
以不可得故	-11.5978
往詣	-11.5979
譽	-11.598
流出何法	-11.5981
十遍處離	-11.5981
皆說	-11.5982
清淨即一切智智清淨	-11.5982
當知無量亦無所有	-11.5983
勿生	-11.5983
智度	-11.5983
奢摩他	-11.5985
若時菩薩摩訶薩行深般若波羅蜜多	-11.5987
無有差別	-11.5987
5	-11.5987
當知般若波羅蜜多亦無自性	-11.5987
當何名此經	-11.5988
資財	-11.5988
所作事業	-11.5988
摩訶薩般若波羅蜜多名大波羅蜜多	-11.5989
淨命	-11.599
我是離欲阿羅漢	-11.599
當知般若波羅蜜多亦不可思議	-11.5991
當知般若波羅蜜多亦遠離	-11.5991
不證漏盡	-11.5992
之首	-11.5994
之機	-11.5994
真金	-11.5995
損害	-11.5995
象馬	-11.5995
不施	-11.5998
奈	-11.6
乃至無有少法可得	-11.6001
阿羅漢果離	-11.6001
一貫	-11.6001
未了	-11.6002
後分	-11.6003
疲乏	-11.6003
與他	-11.6005
整	-11.6005
皆自	-11.6006
貧賤	-11.6006
產	-11.6007
不能令	-11.6007
秦譯	-11.6008
如偈說	-11.6008
非真如	-11.6008
尚未	-11.6011
躍	-11.6011
未證	-11.6012
言詞	-11.6012
行空	-11.6015
低	-11.6016
齒	-11.6016
醉	-11.6017
基	-11.6019
汝等不能	-11.6019
無少	-11.6024
是事實	-11.6024
般若理趣	-11.6025
聞其	-11.6026
乃至般若波羅蜜多	-11.6027
非理	-11.6027
是般若波羅蜜中	-11.6028
之喻	-11.6031
為善	-11.6031
善不善	-11.6031
釋者	-11.6033
隨信行	-11.6033
線	-11.6035
法處亦	-11.6036
正業	-11.6039
▁六	-11.6039
破諸	-11.604
是法身	-11.604
了別	-11.6043
諸三摩地	-11.6047
不堅實	-11.6047
空花	-11.6048
若念	-11.6051
此時	-11.6051
則不可	-11.6052
七空	-11.6055
受福	-11.6056
攝故	-11.6058
而已	-11.6059
不為一切	-11.606
出現世間能成辦事	-11.6062
無有分別	-11.6062
大迦葉	-11.6063
是菩薩摩訶薩住	-11.6063
為根本	-11.6067
始是	-11.6067
亦復然	-11.607
即是法身	-11.6071
加行位	-11.6071
不見佛	-11.6071
起故	-11.6072
求水	-11.6072
故偈云	-11.6075
諸菩薩摩訶薩以	-11.6075
疑曰	-11.6076
莫能	-11.6077
此忍	-11.6078
學無學	-11.6078
分文	-11.6079
相成就	-11.608
生福	-11.608
若無數	-11.6081
以經	-11.6082
聲聞眾	-11.6083
故言無	-11.6083
謂菩薩	-11.6085
當從	-11.6087
先有	-11.6087
一切法平等性	-11.6088
本師	-11.609
智慧故	-11.6091
初品中	-11.6092
我佛	-11.6099
▁後依	-11.61
可取可著	-11.6102
心既	-11.6102
一切物	-11.6105
以為依附	-11.6106
我先	-11.6107
難處	-11.6108
限量	-11.6109
布施者	-11.6112
十六心	-11.6113
▁切	-11.6114
說諸法斷滅	-11.6116
莊	-11.6116
罪過	-11.6117
實慧	-11.6118
閡	-11.6119
中第一	-11.612
即相	-11.612
三名	-11.612
而行施	-11.612
除去	-11.6121
法無生	-11.6121
亦令解脫無	-11.6122
水火	-11.6122
未說	-11.6123
乃至安坐妙菩提座	-11.6124
五位	-11.6124
般若體	-11.6124
於五	-11.6124
善達	-11.6126
心不沈沒	-11.6126
釋迦文佛	-11.6127
復還	-11.6128
爾時爾時	-11.6128
依內依外依兩中間不可得故	-11.6128
恒住捨性離	-11.6128
相即非相	-11.6129
無上丈夫	-11.613
成就故	-11.6132
阿難言	-11.6132
前際不可得	-11.6133
護佛果	-11.6133
所歸	-11.6133
第十八	-11.6134
邊見	-11.6134
勝空	-11.6134
隨喜迴向亦應如是	-11.6135
廣為有情宣說流布	-11.6136
說彼甲冑不屬	-11.6137
發光	-11.6138
於中有三	-11.614
後際無所有性	-11.614
有所得心	-11.6141
施他讀誦	-11.6142
菩薩摩訶薩云何	-11.6142
與一切智智清淨	-11.6143
住菩薩不退轉地	-11.6144
況能	-11.6145
可比	-11.6146
得無生	-11.6146
轉故	-11.6147
如來說有我者	-11.6148
當知般若波羅蜜多亦無滅	-11.6148
波羅蜜多是般若波羅蜜多	-11.6148
舍利弗問	-11.6149
災難	-11.615
如是般若波羅蜜多甚深經典	-11.615
以福德無故	-11.615
扇	-11.6151
第十七	-11.6152
是上	-11.6152
當知般若波羅蜜多亦無所有	-11.6152
狐疑不信	-11.6152
如是展轉	-11.6153
攝諸有情	-11.6154
慈恩	-11.6155
同此	-11.6155
我當莊嚴佛土	-11.6157
而生於識	-11.6158
大旨	-11.6158
行般若波羅蜜菩薩	-11.6159
黨	-11.6159
無明滅	-11.6159
豐樂	-11.6161
奉請	-11.6162
忍也	-11.6163
一切法無我	-11.6165
菩薩但應如所教住	-11.6167
當作是知	-11.6169
四無色定離	-11.6169
上三	-11.6171
何相	-11.6172
非可貪	-11.6172
識性空	-11.6173
能令眾生	-11.6173
不應取	-11.6173
牢	-11.6173
阿脩羅	-11.6174
院	-11.6174
於虛空中	-11.6174
研	-11.6175
教他修	-11.6175
殺害	-11.6176
奉施	-11.6177
非受	-11.6178
開演	-11.6178
役	-11.6179
巳斷	-11.6181
話	-11.6182
英	-11.6182
多矣	-11.6183
夢想	-11.6186
不絕	-11.6186
溪	-11.6188
三人	-11.6189
於此般若波羅蜜多甚深經典	-11.6189
持是功德	-11.6189
悲愍	-11.6189
工夫	-11.619
化者	-11.6191
卷第九	-11.6191
之士	-11.6192
□□□□	-11.6192
惑障	-11.6194
諸境	-11.6195
觀禮	-11.6196
無願解脫門離	-11.6197
疾近	-11.6197
師資	-11.6198
見思	-11.6201
極喜	-11.6201
所傳	-11.6206
得脫	-11.6209
清淨即般若波羅蜜多清淨	-11.621
故重	-11.6212
解悟	-11.6212
儀軌	-11.6214
德行	-11.6215
得道者	-11.6216
學六波羅蜜	-11.6216
當受	-11.6218
菩薩摩訶薩所有	-11.6222
四王	-11.6225
所以為	-11.6226
應得	-11.6226
邊地	-11.6228
如雲	-11.6229
不見性	-11.623
就初	-11.623
淨心地	-11.6231
是名真	-11.6234
離邪見	-11.6236
不沈	-11.6238
為一切	-11.6238
一切相智真如	-11.6239
若滅	-11.6239
猶存	-11.6239
舉其	-11.6239
更問	-11.6243
非有相	-11.6244
此與	-11.6249
一音	-11.625
別名	-11.625
偈釋	-11.6252
不相屬	-11.6253
具明	-11.6255
金剛者	-11.6256
依般若波羅蜜多故	-11.6257
亦不知	-11.6258
心心所法	-11.626
思想	-11.6262
乃爾	-11.6265
皆離	-11.6266
聾	-11.6266
善法故	-11.6268
無染故	-11.6272
如焰	-11.6273
五品	-11.6273
上座	-11.6274
亦不執	-11.6275
不獨	-11.6278
先釋	-11.6278
下經	-11.6279
非虗	-11.6279
無願亦無散失	-11.6279
識種	-11.6281
能仁	-11.6283
佛既	-11.6283
非樂亦無散失	-11.6284
不見相	-11.6285
清淨與果清淨	-11.6285
發心修行	-11.6287
結成疑	-11.6287
中際無所有性	-11.6287
未離	-11.6288
調御士	-11.6288
寂靜亦無散失	-11.6289
非聖	-11.629
明行圓滿	-11.629
頓教	-11.6291
一言	-11.6292
無為亦無散失	-11.6292
知法	-11.6292
非我亦無散失	-11.6292
不以二故攝受	-11.6293
初生	-11.6293
非常亦無散失	-11.6293
水陸	-11.6293
不縛不解	-11.6295
念法	-11.6295
由有菩薩摩訶薩故	-11.6296
自性可得	-11.6297
諸國	-11.6298
解脫智見	-11.6298
護果	-11.6298
至菩薩所	-11.6298
真遠離行	-11.6299
修一切智	-11.6299
之為	-11.6301
千萬億	-11.6301
非菩薩非甲冑	-11.6301
有增有減	-11.6302
有覺有觀	-11.6302
紫	-11.6302
無雜	-11.6303
正因	-11.6303
於預流	-11.6304
疾得阿耨多羅三藐三菩提	-11.6304
修四靜慮	-11.6304
無轉	-11.6304
引論	-11.6304
先以	-11.6305
摩尼	-11.6307
於此中學	-11.6307
罵詈	-11.6308
菩薩摩訶薩所行般若波羅蜜多亦大	-11.6309
若新學大乘菩薩摩訶薩不依般若	-11.6309
化樂天	-11.631
斷滅相	-11.631
離諸戲論	-11.6311
!」【	-11.6311
邪法	-11.6312
下半	-11.6312
何況其沙	-11.6312
當知般若波羅蜜多亦無覺知	-11.6313
住也	-11.6314
我今實言告汝	-11.6314
一切相智離	-11.6314
當知般若波羅蜜多亦無願	-11.6315
當知般若波羅蜜多亦寂靜	-11.6316
如來昔在然燈佛所	-11.6316
迴向薩婆若	-11.6317
如來為發大乘者說	-11.6318
是故如來說福德多	-11.6318
十二緣起	-11.6318
一切世間天人阿修羅	-11.632
等法性	-11.6324
不遠離增語是菩薩摩訶薩	-11.6324
三摩提	-11.6325
見法身	-11.6325
若彼	-11.6326
猛利	-11.6327
是智慧	-11.6327
不通	-11.6328
菩提資糧	-11.6328
折伏	-11.6329
其旨	-11.633
歡	-11.633
彼何所	-11.6331
纖	-11.6331
慧解脫	-11.6331
果清淨即	-11.6332
顏丙	-11.6333
艱	-11.6334
於上	-11.6334
煩惱故	-11.6336
自稱	-11.6338
不空想	-11.6339
科釋	-11.634
我人等相	-11.6341
▁蜜多	-11.6342
燭	-11.6344
武	-11.6345
萬歲	-11.6345
和合故有	-11.6345
祥	-11.6346
抱	-11.6346
當知般若波羅蜜多亦空	-11.6346
異生法	-11.6347
中際自性故	-11.6347
恁麼	-11.6347
證信序	-11.6348
故說為	-11.6348
諾	-11.635
略舉	-11.6351
金剛輪	-11.6351
此一節	-11.6352
顯說	-11.6352
忍苦	-11.6352
亦不能證	-11.6352
能如是行	-11.6352
成菩提	-11.6353
二別顯	-11.6354
乃至識	-11.6354
是鳥	-11.6355
而無所入	-11.6356
等諸法	-11.6358
佛已	-11.6358
況有念	-11.6362
目前	-11.6364
意處亦	-11.6364
之想	-11.6365
陰陽	-11.6366
應說	-11.6366
勝利	-11.6367
令心	-11.6368
有淺深	-11.6372
有為性	-11.6373
此節	-11.6373
報得	-11.6374
真如法身	-11.6374
有礙	-11.6375
解了	-11.6378
身心精進	-11.638
般若波羅蜜為	-11.6382
善士	-11.6382
無所起	-11.6385
妙身	-11.6386
有情離故	-11.6388
知佛	-11.639
此云覺	-11.639
如是布施	-11.6393
不敬	-11.6394
諸菩薩等	-11.6395
視之	-11.6395
及此	-11.6396
說法界	-11.6398
斷一切	-11.6402
菩薩云何	-11.6402
眼目	-11.6402
夢見	-11.6402
離慢	-11.6402
惠施	-11.6403
既悟	-11.6407
次云	-11.6407
莎訶	-11.6407
之解	-11.6409
佛像	-11.6409
以相	-11.6411
蜜多	-11.6413
離法	-11.6414
有德	-11.6416
含受	-11.6418
為受	-11.642
亦非離	-11.6421
中云	-11.6422
閻浮提人	-11.6424
言佛	-11.6425
會得	-11.6427
行安忍者	-11.6429
明也	-11.6431
如實覺	-11.6434
無水	-11.6434
搖	-11.6437
空中無	-11.6438
當於一切有情起	-11.6443
過罪	-11.6444
雖非	-11.6445
不思	-11.6445
無數劫	-11.6447
空亦有出住	-11.6449
深密	-11.645
堪受	-11.6451
空即色	-11.6452
不謗	-11.6452
本處	-11.6453
見諦	-11.6453
遠離亦無散失	-11.6454
不等	-11.6457
令悟	-11.6457
皆不可行	-11.6458
唯取	-11.6459
必無	-11.6459
不滯	-11.646
念般若波羅蜜	-11.6462
心心	-11.6464
退坐一面	-11.6465
雖於先世得聞	-11.6468
住無所住	-11.6469
非合非散	-11.6469
有記法	-11.647
無一法	-11.6471
諸如是等	-11.6471
無法空	-11.6471
勝者	-11.6472
離故一切智智亦離	-11.6472
善女人等書寫如是甚深般若波羅蜜多	-11.6472
菩薩所作福德	-11.6472
知一切	-11.6473
大歡喜	-11.6474
無相之理	-11.6474
經一晝夜	-11.6474
若有漏若無漏增語非菩薩摩訶薩	-11.6474
祝	-11.6474
劫盡	-11.6475
若空若不空增語是菩薩摩訶薩	-11.6475
若可得若不可得增語是菩薩摩訶薩	-11.6475
若生若滅增語非菩薩摩訶薩	-11.6475
若有相若無相增語非菩薩摩訶薩	-11.6475
或有人	-11.6475
若有為若無為增語是菩薩摩訶薩	-11.6475
若善若非善增語非菩薩摩訶薩	-11.6476
能顯	-11.6476
我等云何奉持	-11.6477
四大洲	-11.6477
若善若非善增語是菩薩摩訶薩	-11.6477
若有煩惱若無煩惱增語非菩薩摩訶薩	-11.6477
若可得若不可得增語非菩薩摩訶薩	-11.6477
若有罪若無罪增語是菩薩摩訶薩	-11.6477
行精進者	-11.6478
出息	-11.6478
若屬生死若屬涅槃增語是菩薩摩訶薩	-11.6478
若世界實有者	-11.6478
若屬生死若屬涅槃增語非菩薩摩訶薩	-11.6478
在兩間增語是菩薩摩訶薩	-11.6478
若寂靜若不寂靜增語是菩薩摩訶薩	-11.6479
若新學大乘菩薩摩訶薩依般若	-11.6479
若有相若無相增語是菩薩摩訶薩	-11.6479
若正信解	-11.648
若世間若出世間增語是菩薩摩訶薩	-11.648
若寂靜若不寂靜增語非菩薩摩訶薩	-11.648
若雜染若清淨增語非菩薩摩訶薩	-11.648
勢力不成就故	-11.648
當知般若波羅蜜多勢力亦不成就	-11.648
不憂	-11.6481
無依處	-11.6481
菩薩聞是	-11.6481
少惱	-11.6482
心識	-11.6483
五百世	-11.6484
六萬	-11.6486
以今世人輕賤故	-11.6486
圓滿及不圓滿	-11.6486
業緣	-11.6486
當知般若波羅蜜多亦不可得	-11.6487
巳說	-11.6487
菩薩摩訶薩所行般若波羅蜜多亦說	-11.6488
義釋	-11.6488
求道	-11.6488
名住	-11.6488
過去未來	-11.6489
摩訶衍亦如是	-11.649
乃至般若波羅蜜	-11.6491
生實信不	-11.6493
一切法不可得故	-11.6494
使之	-11.6495
休息	-11.6495
若我若無我增語是菩薩摩訶薩	-11.6496
若樂若苦增語是菩薩摩訶薩	-11.6497
若我若無我增語非菩薩摩訶薩	-11.6497
大部	-11.6497
教眾生	-11.6498
初唱經	-11.6499
外有	-11.6499
不見法界	-11.6499
信之	-11.6499
此依	-11.6499
若樂若苦增語非菩薩摩訶薩	-11.65
隣	-11.65
苗	-11.65
多種	-11.6501
無眼耳鼻舌身意	-11.6501
裡	-11.6502
怨家	-11.6502
若淨若不淨增語是菩薩摩訶薩	-11.6502
複	-11.6503
種種莊嚴	-11.6505
不思惟一切相	-11.6506
若常若無常增語是菩薩摩訶薩	-11.6506
隨類	-11.6508
姑	-11.6509
朱	-11.651
尊者善現	-11.651
若佛十力	-11.6512
冰	-11.6513
上忍	-11.6515
酥	-11.6516
槃	-11.6518
修佛十力	-11.6519
以無所得	-11.6524
流注	-11.6526
修故	-11.6527
凡情	-11.6531
謂無	-11.6531
涅槃經云	-11.6533
觀諸法空	-11.6537
多劫	-11.6537
癡法	-11.6538
寂光	-11.6538
其說	-11.6538
要見	-11.6541
來至此	-11.6541
一毫	-11.6544
後解	-11.6544
身語	-11.6544
一切智智清淨	-11.6545
自性無故	-11.6549
苦難	-11.655
非前	-11.6552
二千	-11.6555
見一	-11.6555
過去當來今現在	-11.6561
雖異	-11.6562
者巳下	-11.6563
在後	-11.6564
具足相	-11.6565
承上文	-11.6566
乃至八聖道支	-11.6567
破惡	-11.6569
向佛	-11.6573
十界	-11.6573
皆本性空故	-11.6573
亦隨	-11.6574
是有法	-11.6576
能信受	-11.6577
玄妙	-11.658
蒙佛	-11.6583
自性無所有不可得	-11.6586
此十	-11.6588
謂前	-11.6588
正言	-11.6589
不惱	-11.6589
眾緣	-11.6591
我不見	-11.6592
死時	-11.6592
有物	-11.6593
名金剛	-11.6594
皆然	-11.6595
廣為	-11.6597
分為三	-11.6598
菩提心者	-11.6598
諸經法	-11.66
有體	-11.6601
百千萬億分	-11.6602
有六種	-11.6602
大般若經	-11.6603
不觀色	-11.6603
於然燈佛所	-11.6604
菩薩名	-11.6607
如日	-11.6608
如來真如即	-11.6608
次歎	-11.6609
證者	-11.661
佛設利羅	-11.661
立於	-11.6613
不度	-11.6614
皆如實知	-11.6614
觀故	-11.6614
并餘	-11.6614
執著有性	-11.6617
持說此經	-11.6621
滿中	-11.6622
菩薩摩訶薩學般若波羅蜜	-11.6623
能如是學	-11.6624
所得法	-11.6625
阿惟三佛	-11.6626
親見	-11.6626
總釋	-11.6627
利故	-11.6628
漸次圓滿	-11.6628
為耳	-11.6628
若無邊	-11.6633
二無我	-11.6633
甲冑	-11.6635
前際無所有性	-11.6635
而不請問甚深義趣	-11.6636
欲界繫	-11.6637
可得若不可得	-11.6638
阿閦佛	-11.6639
從緣生	-11.664
而於此事無所取著	-11.6641
即是菩薩	-11.6642
於般若波羅蜜	-11.6642
不可得故作者不可得	-11.6644
今我	-11.6644
若有漏若無漏增語是菩薩摩訶薩	-11.6644
若復有人得聞是經	-11.6645
處於	-11.6645
眼乃至意	-11.6645
若空若不空增語非菩薩摩訶薩	-11.6645
若生若滅增語是菩薩摩訶薩	-11.6646
有煩惱無煩惱	-11.6646
得授記	-11.6646
則一	-11.6646
若世間若出世間增語非菩薩摩訶薩	-11.6646
若有煩惱若無煩惱增語是菩薩摩訶薩	-11.6647
應起	-11.6647
若遠離若不遠離增語非菩薩摩訶薩	-11.6647
是為魔事	-11.6648
若雜染若清淨增語是菩薩摩訶薩	-11.6649
若有願若無願增語非菩薩摩訶薩	-11.6649
若有願若無願增語是菩薩摩訶薩	-11.6649
經教	-11.6649
佛述	-11.665
於菩薩摩訶薩	-11.665
罪人	-11.665
不入色聲香味觸法	-11.665
相非相	-11.665
千萬億分	-11.665
若是經典所在之處	-11.6654
諸禪定	-11.6654
可也	-11.6655
修學此法	-11.6655
隨意所	-11.6656
十度	-11.6656
蘆	-11.6658
罪故	-11.6658
凌	-11.6658
如來得阿耨多羅三藐三菩提耶	-11.6659
而實無往來	-11.6659
甚多於彼無量無邊	-11.666
我當度眾生	-11.666
於有情	-11.6661
屬涅槃增語是菩薩摩訶薩	-11.6661
迴向無上菩提	-11.6662
聞說是經	-11.6664
暴	-11.6664
如來悉知是人	-11.6664
惡事	-11.6665
四維	-11.6667
當知彼	-11.6667
若淨若不淨增語非菩薩摩訶薩	-11.667
貴賤	-11.667
悶	-11.667
緊	-11.667
徵也	-11.6671
徐	-11.6672
諸方	-11.6672
業識	-11.6673
餘殘	-11.6674
心便	-11.6676
譏	-11.6678
適悅	-11.6678
知色	-11.6679
今於	-11.668
此三種	-11.668
纂要	-11.668
我人等見	-11.6682
若常若無常增語非菩薩摩訶薩	-11.6682
溫	-11.6683
逕	-11.6686
明有	-11.6687
究竟即非	-11.6687
標名	-11.6687
常不離	-11.6687
焚	-11.6687
滅度者	-11.6688
今略	-11.669
勝餘	-11.6691
亦作大作小	-11.6692
四十四	-11.6693
緣緣	-11.6694
大海水	-11.6694
羯磨	-11.6694
國人	-11.6694
有常	-11.6694
以金剛	-11.6695
其母	-11.6695
皆畢竟空	-11.6696
不動故	-11.6697
眾緣和合	-11.6698
四德	-11.6698
能降伏	-11.6699
空不空相	-11.6701
㸦	-11.6705
乃至諸佛	-11.6705
輕重	-11.6707
第十五	-11.6707
可畏	-11.6708
一經之	-11.6709
亦從	-11.6709
是不名菩薩	-11.6709
雖少	-11.6711
器界	-11.6712
即非世界	-11.6712
於獨覺	-11.6713
亦不可取	-11.6715
法本無	-11.6716
須菩提所說	-11.6718
即生實相	-11.6719
諸師	-11.6721
總有	-11.6721
親近諸佛	-11.6722
水劫	-11.6723
只在	-11.6727
天眼見	-11.6727
攝也	-11.673
定實	-11.673
華嚴經	-11.673
捨法	-11.6735
住般若波羅蜜	-11.6735
常作是念	-11.6737
所譯	-11.6738
不墮惡趣	-11.6738
功德藏	-11.6739
除諸	-11.6739
次說	-11.6741
異耳	-11.6741
其心不驚	-11.6741
終至	-11.6742
等種種	-11.6743
諸微塵	-11.6743
以慧	-11.6744
是故般若波羅蜜多	-11.6745
入禪	-11.6748
法利	-11.6748
無二相故	-11.6748
性尚無所有	-11.6749
般若等	-11.6749
寂照	-11.675
不能解	-11.6751
非耳	-11.6752
明暗	-11.6752
阿鞞跋致菩薩	-11.6752
是功德	-11.6752
▁初問	-11.6754
乞者	-11.6756
因者	-11.6756
佛可	-11.6756
以何因緣	-11.6757
總言	-11.6757
強名	-11.6758
空自性空故	-11.676
解脫生死	-11.676
之執	-11.6762
堪能	-11.6763
為棄捨	-11.6764
所依止	-11.6767
清淨故無相解脫門清淨	-11.6768
際是名	-11.6768
本性空中	-11.6771
一片	-11.6772
多亦離	-11.6773
菩薩未	-11.6776
汝能	-11.6779
天宮	-11.6779
無常無恒	-11.6782
緣所生法	-11.6783
若法本性空則	-11.6784
波羅密	-11.6784
斯經	-11.6784
安住布施	-11.6785
而欲	-11.6786
如須彌山	-11.6787
行漸次行	-11.6787
依論	-11.6788
五濁	-11.6788
畢竟都無所有	-11.679
般若經	-11.6793
若菩薩摩訶薩不思惟	-11.6794
獨覺等	-11.6794
得阿羅漢道	-11.6796
相入	-11.6796
清淨故四無量清淨	-11.6797
佛亦	-11.6797
乃以	-11.6799
具三	-11.6799
亦不退失	-11.68
▁第	-11.68
隨喜俱行諸福業事	-11.6801
兜率陀天	-11.6802
不虛妄	-11.6803
轉妙法輪度有情眾	-11.6804
住菩薩乘善男子等	-11.6805
令獲究竟常樂涅槃	-11.6806
轉還	-11.6806
釋迦如來	-11.6807
既聞	-11.6807
說是清淨不轉不續	-11.6809
行於非處	-11.681
非所作故	-11.6811
令學	-11.6811
說是清淨本性光潔	-11.6812
靡不	-11.6812
謙	-11.6812
勸導	-11.6813
佛可以具足色身見不	-11.6814
而無二想	-11.6814
皆來	-11.6815
無作無止	-11.6816
舍利子便白佛言	-11.6816
令其易了	-11.6816
如來說是沙	-11.6816
此一句	-11.6817
勝因	-11.6817
若有為若無為增語非菩薩摩訶薩	-11.6817
說是清淨最為甚深	-11.6818
是為不見	-11.6818
若有罪若無罪增語非菩薩摩訶薩	-11.6819
說是清淨本無雜染	-11.6819
但隨	-11.682
由心	-11.6821
未成	-11.6821
若能證得一切智法	-11.6821
乃能具足修諸菩薩摩訶薩行	-11.6822
則能證得一切智法	-11.6822
若四念住	-11.6822
與我授記	-11.6822
閣	-11.6822
心不動	-11.6823
大地獄	-11.6823
者哉	-11.6824
見相	-11.6824
純淨	-11.6825
汝勿謂如來作是念	-11.6825
憂悲苦惱	-11.6825
不起不思議想	-11.6827
十二年	-11.6828
或一來果	-11.6829
柔	-11.683
魏經	-11.683
隙	-11.683
如筏喻者	-11.683
阿蘭那	-11.683
無可說事	-11.6831
還復	-11.6831
云何菩薩摩訶薩常	-11.6831
階級	-11.6832
無可得事	-11.6832
二喻	-11.6832
無二無二分	-11.6833
心源	-11.6834
若心取相	-11.6836
輒	-11.6837
全是	-11.6838
是名微塵眾	-11.6838
當知般若波羅蜜多亦無相	-11.6838
薪	-11.6839
惡鬼	-11.684
有所得者	-11.684
我人知見	-11.684
滴	-11.684
墮三惡道	-11.6841
見聞覺知	-11.6841
遍一切處	-11.6841
墮聲聞或獨覺地	-11.6841
恩德	-11.6841
行布施時	-11.6842
將此	-11.6842
要知	-11.6842
令眾生得	-11.6843
我作是說	-11.6844
槩	-11.6844
樂苦相	-11.6845
云何當學	-11.6845
筌	-11.6845
故立	-11.6846
拔出	-11.6846
思惑	-11.6846
麗	-11.6847
行淨戒者	-11.6847
練	-11.6848
綿	-11.6849
初文二	-11.6849
取相故	-11.685
不退轉記	-11.685
其國	-11.685
無度	-11.685
某甲	-11.685
煉	-11.6851
妄起	-11.6851
掛	-11.6852
色像	-11.6852
墨	-11.6854
真如平等故	-11.6854
歇	-11.6854
踐	-11.6855
▁初約	-11.6856
曜	-11.6856
清淨故法界清淨	-11.6858
豁	-11.6858
定者	-11.6859
如夢幻泡影	-11.6859
如來身	-11.686
暮	-11.6863
史	-11.6863
可得不可得	-11.6863
入無餘	-11.6864
釋氏	-11.6867
鋒	-11.6868
而不可	-11.6868
皆本性空	-11.6868
黎	-11.6869
受學	-11.687
相傳	-11.6872
名摩訶薩	-11.6873
文二初	-11.6873
普明王	-11.6874
亦不行於	-11.6874
爾乃	-11.6875
明白	-11.6875
如是觀察	-11.6877
呪者	-11.6877
婆羅	-11.6877
能使	-11.6877
以是故言	-11.6877
教誡	-11.6881
五情	-11.6881
佛出	-11.6882
以聲	-11.6887
第二時	-11.6887
海水	-11.6887
上半	-11.6888
文有三	-11.6889
江河	-11.689
無所執	-11.689
不至	-11.6891
語菩薩	-11.6894
集會	-11.6895
沙等	-11.6896
答意	-11.69
至薩云若	-11.69
欲住	-11.6901
深遠	-11.6902
習忍	-11.6902
不自在故	-11.6905
所染	-11.6905
如實知色	-11.6906
不行聲	-11.6907
所聞法	-11.6911
先言	-11.6912
娑婆	-11.6912
中論	-11.6913
三智	-11.6913
無所罣礙	-11.6916
是故如來說	-11.6916
令汝	-11.6919
結歎	-11.6922
理性	-11.6922
傳法	-11.6926
東西	-11.6927
要人	-11.693
修福德	-11.6932
亦非無相	-11.6932
空無我	-11.6933
有諸菩薩	-11.6933
平等不平等性故	-11.6935
則不應	-11.6936
▁後引	-11.6936
覺滿	-11.6936
等義也	-11.6939
可滅	-11.694
所縛	-11.694
若卵生	-11.6941
亦清淨	-11.6943
若菩薩摩訶薩能如是行	-11.6944
皆可	-11.6944
一切智智相應作意	-11.6945
平等智	-11.6945
等諸煩惱	-11.6948
滅後	-11.6948
雖言	-11.6949
文略	-11.6949
阿修羅等	-11.6951
出時	-11.6952
無性自性無動	-11.6952
離故六波羅蜜	-11.6954
樂故	-11.6954
作功德	-11.6954
則心	-11.6956
疑故	-11.6958
義同	-11.6958
大會	-11.6959
慈無量	-11.696
新學	-11.6961
見空	-11.6962
無願有願相	-11.6967
故作	-11.6967
證也	-11.697
二十七疑	-11.697
識無邊處	-11.697
八由行	-11.6972
學一切法	-11.6973
異故性亦應異	-11.6974
散無散空	-11.6976
故起	-11.6976
與諸有情作大饒益	-11.6977
無邊不可思議清淨佛法	-11.6977
不見聲	-11.6978
腦	-11.6979
居輕利	-11.6981
心之所念	-11.6981
無文字是	-11.6982
兩字	-11.6984
是菩薩摩訶薩能與六種波羅蜜多	-11.6984
如是般若波羅蜜多甚深理中	-11.6985
清淨故四無色定清淨	-11.6986
清淨故集聖諦清淨	-11.6987
▁清淨	-11.6987
清淨故一來果清淨	-11.6988
讀者	-11.6989
若轉書寫	-11.6989
既不墮三界	-11.6989
應是	-11.6989
初引	-11.699
金剛定	-11.699
謂是	-11.699
雖能示現	-11.699
清淨故淨戒波羅蜜多清淨	-11.699
修菩薩道	-11.6991
如是菩薩摩訶薩修行般若波羅蜜多時	-11.6992
定力	-11.6993
大有	-11.6995
離即一切智智離	-11.6995
若遠離若不遠離增語是菩薩摩訶薩	-11.6995
渧	-11.6995
照空	-11.6997
若福德有實	-11.6997
慢心	-11.6997
護十地行	-11.6998
亦無住異而可施設	-11.6998
應如是生清淨心	-11.6998
今且	-11.7
作者不可得故	-11.7002
識生	-11.7003
行六度	-11.7004
樹木	-11.7004
怯	-11.7004
清淨故無願解脫門清淨	-11.7005
清淨故八勝處清淨	-11.7005
始覺	-11.7006
若是所遍知若非所遍知	-11.7006
業故	-11.7006
過也	-11.7007
前巳	-11.7007
是名凡夫	-11.7007
異畢竟不生	-11.7008
層	-11.7009
殃	-11.7009
先世罪業	-11.701
清淨故外空清淨	-11.701
而生貪愛	-11.7011
▁南無	-11.7012
清淨故四正斷清淨	-11.7012
無不盡	-11.7012
一切世界	-11.7012
諍論	-11.7012
聞說是法	-11.7014
三世佛	-11.7016
是清淨	-11.7017
給侍	-11.7019
難勝地	-11.7019
只為	-11.702
皆得自在	-11.702
清淨故四無所畏清淨	-11.7021
頭陀	-11.7021
得須陀洹	-11.7021
幼	-11.7023
南北	-11.7024
斫	-11.7024
渠	-11.7024
無容	-11.7026
穴	-11.7027
為護	-11.7028
施寶	-11.7028
仲	-11.7028
掩	-11.703
逸	-11.703
申明	-11.7031
三總結	-11.7031
祀	-11.7032
乃至如來地	-11.7032
不誑語者	-11.7033
亦自	-11.7033
乃至涅槃	-11.7035
奴	-11.7035
涅	-11.7037
名修般若波羅蜜多	-11.7038
多百千	-11.7038
通明	-11.7041
伐	-11.7042
敬信	-11.7043
八正道	-11.7043
惡獸	-11.7044
一切法者	-11.7046
色無縛無解	-11.705
或依	-11.7051
佛說微塵眾	-11.7051
所習	-11.7051
斯事	-11.7051
以是故知	-11.7052
亦非有	-11.7055
入地	-11.7056
是故佛	-11.7057
非後	-11.7058
語也	-11.7058
去聲	-11.7059
諸有為法	-11.7059
濕生	-11.7061
結成疑也	-11.7062
摧伏	-11.7062
至心	-11.7062
一切諸法皆	-11.7073
如火	-11.7073
欲滅	-11.7073
供養如來	-11.7074
三十二分	-11.7074
十心	-11.7074
萬象	-11.7075
有為之法	-11.7077
復告	-11.7077
無住相	-11.7078
及眾生	-11.7079
分四	-11.7079
能生諸佛	-11.7079
心顛倒	-11.708
進趣	-11.7081
幾時	-11.7083
然有	-11.7083
如來真如平等故	-11.7083
心之所	-11.7084
一切眾	-11.7084
微塵數	-11.7085
何別	-11.7087
無為相	-11.7088
所因	-11.7094
西來	-11.7097
後五	-11.7097
為諸菩薩	-11.7101
云何是	-11.7104
能障	-11.7104
我常	-11.7105
見得	-11.7108
此所	-11.711
益物	-11.711
生死之	-11.7111
福也	-11.7111
到岸	-11.7113
瓔珞經	-11.7113
不堅固	-11.7113
之表	-11.7113
義句	-11.7113
領受	-11.7115
為十	-11.7116
諸識	-11.7116
持鉢	-11.7117
無定法	-11.7119
虛實	-11.712
第三十	-11.7122
何意	-11.7125
欲斷	-11.7126
自為	-11.7126
一切法如	-11.7127
離貪欲	-11.7127
法雲	-11.7127
恭敬尊重讚歎	-11.7127
一切智智清淨即	-11.713
結之	-11.713
過一切	-11.7131
往彼	-11.7132
心無所著	-11.7132
趣求	-11.7132
以方便	-11.7134
有九	-11.7135
有實性者	-11.7137
都無實性	-11.7137
欲人	-11.7138
賢劫	-11.714
須陀洹道	-11.714
險	-11.7141
非離色	-11.7141
持淨戒	-11.7142
諦理	-11.7143
無相有相相	-11.7143
倦	-11.7146
相相應之心	-11.7147
云何可言此是	-11.7148
若施	-11.7149
佛說如是	-11.715
當知即是	-11.7152
明真	-11.7152
非佛法	-11.7153
而受	-11.7154
經疏	-11.7154
四無礙慧	-11.7155
堪忍	-11.7156
長壽	-11.7157
永斷一切煩惱習氣相續	-11.7158
根未熟	-11.7159
譬如大	-11.716
得般若	-11.7161
了然	-11.7161
如華嚴	-11.7161
捨施	-11.7163
修行般若波羅蜜多觀諸法時	-11.7165
非大身	-11.7165
諸聖人	-11.7167
亦不思惟一切所緣	-11.7167
造作諸業	-11.7168
是為菩薩摩訶薩常	-11.717
本非	-11.7171
清淨故五根清淨	-11.7173
如來說人身長大	-11.7174
疲倦	-11.7175
不可取不可說	-11.7176
所言法相者	-11.7177
而實無不來	-11.7179
以音聲求我	-11.718
破無明	-11.718
合掌恭敬而白佛言	-11.7181
或有人聞	-11.7183
行靜慮者	-11.7183
一類	-11.7185
令行	-11.7185
性輪故	-11.7185
相具足	-11.7188
童真	-11.7188
劇	-11.7188
困	-11.7189
菩薩摩訶薩般若波羅蜜多	-11.7189
經題	-11.7189
愚癡人	-11.7189
刊定記	-11.719
菩薩無住相布施	-11.719
三處	-11.719
不以為	-11.7192
生下	-11.7192
汝以	-11.7193
有義	-11.7195
周圓	-11.7195
開發	-11.7195
古人	-11.7196
可取可著不	-11.7196
耆	-11.7197
邑	-11.7199
欲說	-11.7201
費	-11.7201
菴	-11.7201
湯	-11.7202
腰	-11.7203
苦因	-11.7203
無所得而為方便	-11.7203
清淨故法定清淨	-11.7204
飽	-11.7204
清淨故大悲清淨	-11.7204
清淨故空空清淨	-11.7205
昭然	-11.7205
清淨故共相空清淨	-11.7205
清淨故無際空清淨	-11.7205
曇	-11.7205
清淨故散空清淨	-11.7206
悞	-11.7206
清淨故大慈清淨	-11.7207
清淨故離生性清淨	-11.7207
清淨故有為空清淨	-11.7207
清淨故大空清淨	-11.7207
清淨故不可得空清淨	-11.7208
所護念	-11.7208
清淨故自相空清淨	-11.7209
清淨故無性空清淨	-11.7209
下二明	-11.7209
大千界	-11.7209
清淨故平等性清淨	-11.721
滌	-11.7211
清淨故四神足清淨	-11.7211
清淨故四無礙解清淨	-11.7211
無名相	-11.7212
清淨故法性清淨	-11.7213
豆	-11.7213
清淨故大捨清淨	-11.7213
清淨故無變異空清淨	-11.7214
清淨故七等覺支清淨	-11.7214
精進修行	-11.7214
清淨故九次第定清淨	-11.7214
清淨故無為空清淨	-11.7215
清淨故畢竟空清淨	-11.7215
清淨故自性空清淨	-11.7215
清淨故靜慮波羅蜜多清淨	-11.7216
清淨故精進波羅蜜多清淨	-11.7216
清淨故不還果清淨	-11.7217
料簡	-11.7218
得菩提者	-11.7219
除佛	-11.7219
未發	-11.7221
諸山	-11.7221
是菩薩不	-11.7223
若無菩薩	-11.7225
教理	-11.7227
四十二字	-11.7228
布施波羅蜜多乃至般若波羅蜜多離	-11.7232
得神通	-11.7233
若菩薩摩訶薩行深般若波羅蜜多	-11.7235
其功	-11.7237
彼岸到	-11.7237
大利	-11.7239
此第三	-11.7239
事中	-11.7241
之情	-11.7242
善巧智	-11.7245
或十	-11.7246
此即第一	-11.7247
一切法皆是佛法	-11.7248
有菩薩摩訶薩耶	-11.7248
悟者	-11.7249
不念有	-11.7249
三藐	-11.7249
感應	-11.725
摩訶般若波羅蜜	-11.7251
覺已	-11.7252
七十二	-11.7253
轉身	-11.7253
中亦有	-11.7255
相與	-11.7257
寂靜散亂	-11.7258
容受	-11.7258
復有無量	-11.7259
自言	-11.7259
於夢中	-11.7259
二乘之人	-11.7259
右手	-11.7264
自不	-11.7265
我本	-11.727
勝功德	-11.7272
若不能	-11.7272
眾僧	-11.7273
應勤修學	-11.7273
有我相	-11.7274
得一切	-11.7276
未熟	-11.7277
無現觀	-11.7277
對待	-11.7278
應佛	-11.7283
卷第三	-11.7283
清淨故無性自性空清淨	-11.7285
順釋	-11.7287
如舍利弗	-11.7287
全身	-11.7288
不著相	-11.7288
無嗔	-11.7288
清淨故十八佛不共法清淨	-11.7289
清淨故八聖道支清淨	-11.7291
相狀	-11.7292
從事	-11.7292
真解脫	-11.7292
清淨故不思議界清淨	-11.7292
入滅	-11.7292
真實法	-11.7294
聞佛說	-11.7294
四住	-11.7299
彼國	-11.7301
離故有情離	-11.7302
證滅	-11.7308
用無所得為方便	-11.7309
為先	-11.731
究其	-11.7312
菩薩句義無所有	-11.7313
有變有易	-11.7315
求福	-11.7316
無相亦無散失	-11.7317
非名	-11.7317
空亦無散失	-11.732
愛法	-11.732
時人	-11.7321
覺也	-11.7321
無礙解脫	-11.7323
凡愚	-11.7323
能出	-11.7323
涅槃樂	-11.7324
不證實際	-11.7324
無見者	-11.7324
普度	-11.7326
出世間亦無散失	-11.7328
可捨	-11.7329
是智	-11.733
王宮	-11.7331
無惑無疑	-11.7333
若了	-11.7333
無漏亦無散失	-11.7334
足迹不可得故	-11.7335
都不見有	-11.7335
常不捨離	-11.7336
約法	-11.7337
時處	-11.7338
速圓滿	-11.7339
佛乃	-11.734
布施等六波羅蜜多	-11.7341
我但廣稱讚般若波羅蜜多	-11.7341
病者	-11.7342
無染亦無散失	-11.7343
甚為	-11.7343
乃至一切法	-11.7344
淨妙	-11.7345
鄔波索迦	-11.7345
願智	-11.7346
歎未曾有	-11.7346
九喻	-11.7347
彈指頃	-11.7347
誠如所說	-11.7347
全空	-11.7347
正等覺皆依般若波羅蜜多	-11.7347
承佛威神	-11.7348
富貴自在	-11.7349
發生隨喜迴向無上正等菩提	-11.7349
無諍行	-11.735
攝入	-11.735
亦與	-11.7351
度一切	-11.7352
說是清淨無生無顯	-11.7352
教誡教授諸菩薩摩訶薩	-11.7354
是說	-11.7355
如恒河中所有沙	-11.7355
當知作意亦非有	-11.7355
因其	-11.7356
如來說為非	-11.7358
藐	-11.7358
萬二千	-11.7358
應觀諸法自相皆空故學	-11.7358
4	-11.7358
無邊世界	-11.7359
說是清淨無得無觀	-11.736
▁生	-11.736
飄	-11.736
可以三十二相見如來不	-11.7361
真如性	-11.7361
想退轉故名不退轉	-11.7361
於獨覺菩提	-11.7361
為道	-11.7362
碎為微塵	-11.7362
或不還果	-11.7362
十年	-11.7363
中有菩薩摩訶薩不	-11.7363
信行地	-11.7364
癡清淨即	-11.7364
於十方	-11.7366
外無	-11.7366
然我	-11.7368
割截身體	-11.7369
故名般若波羅蜜多	-11.737
句也	-11.737
禁戒	-11.7371
所以也	-11.7371
項	-11.7371
為所依止	-11.7372
滅盡定	-11.7373
雅	-11.7374
支體	-11.7374
輝	-11.7374
實智慧	-11.7374
諮	-11.7376
噫	-11.7376
般若波羅蜜是	-11.7376
菩薩摩訶薩亦復如是	-11.7376
以諸菩薩	-11.7377
幟	-11.7379
清淨故十遍處清淨	-11.7379
無明緣行	-11.738
通釋	-11.7381
即今	-11.7381
憫	-11.7383
第二靜慮	-11.7384
無暇	-11.7385
雖聞	-11.7385
一切天	-11.7385
清淨故內外空清淨	-11.7385
練磨	-11.7386
搏取	-11.7386
五事	-11.7386
如是行是行般若波羅蜜多	-11.7386
山河大地	-11.7386
倘	-11.7387
非本性空	-11.7388
得悟	-11.7389
千二百五十人	-11.739
清淨故大喜清淨	-11.739
懺	-11.739
羯	-11.739
上求	-11.7391
清淨故法住清淨	-11.7391
丈六	-11.7391
如來說一合相	-11.7391
展	-11.7392
清淨故實際清淨	-11.7392
隨俗	-11.7393
清淨故道聖諦清淨	-11.7393
持者	-11.7394
去者	-11.7394
皆非實有	-11.7395
踏	-11.7395
清淨故阿羅漢果清淨	-11.7396
清淨故本性空清淨	-11.7396
即智	-11.7396
清淨故不變異性清淨	-11.7396
清淨故安忍波羅蜜多清淨	-11.7397
於此三千大千世界	-11.7397
論意	-11.7397
清淨故勝義空清淨	-11.7398
清淨故一切法空清淨	-11.7398
智體	-11.7399
受五欲	-11.7401
故名為佛	-11.7402
無生滅故	-11.7403
三學	-11.7403
力勢	-11.7404
衣鉢	-11.7404
手執	-11.7406
悟真空	-11.7407
有一法	-11.741
非一異	-11.7411
彼論云	-11.7412
同真際	-11.7412
道聖諦集	-11.7414
四洲	-11.7414
王者	-11.7415
眾色	-11.7416
來至	-11.7416
耳聞	-11.7418
於一切法皆	-11.7421
山林	-11.7421
印三摩地	-11.7421
證此	-11.7426
二類	-11.7426
三十五	-11.7426
若內空	-11.7427
多說	-11.7429
實地	-11.7429
猶尚	-11.743
且如	-11.7431
善覺	-11.7432
釋意	-11.7433
真如中有菩薩摩訶薩不	-11.7433
是故汝等	-11.7433
結經	-11.7436
戍	-11.7438
親承	-11.7439
平等相	-11.744
是名須陀洹	-11.744
大丈夫	-11.7443
成阿耨多羅三藐三菩提	-11.7443
若不二	-11.7444
生人中	-11.7446
品類	-11.7448
說譬喻	-11.7449
或執有	-11.7449
是諸菩薩摩訶薩眾	-11.7451
若常	-11.7452
何者為	-11.7454
行苦	-11.7455
以求	-11.7457
二乘地	-11.746
亦不執著	-11.7461
性常空	-11.7462
應行布施	-11.7462
於道	-11.7464
故名為大	-11.7466
此般若波羅蜜多法門	-11.7466
喻般若	-11.7467
其為	-11.7469
當復	-11.747
行深	-11.7473
人無	-11.7474
七十	-11.7474
虗空界	-11.7475
色即空	-11.7478
退沒	-11.748
福德因緣	-11.7481
無所有中	-11.7483
無畏施	-11.7483
如泡	-11.7483
肉眼見	-11.7484
如金	-11.7486
無少法	-11.7486
空界	-11.7487
為化	-11.749
隨宜	-11.7492
可度者	-11.7493
座上	-11.7493
栴檀	-11.7494
卷云	-11.7496
為人輕賤	-11.7496
觸處	-11.7497
盡矣	-11.7497
小王	-11.7497
智慧第一	-11.7497
無與等	-11.7498
為阿耨多羅三耶三菩	-11.7499
無變無易	-11.7499
解空	-11.7499
今取	-11.75
鬘	-11.75
又非	-11.75
現有	-11.75
十二種	-11.75
心所念	-11.75
無願解脫門無相	-11.7502
取之	-11.7503
引生	-11.7505
不毀	-11.7506
亦不施設為	-11.7506
照破	-11.7507
婆羅門等	-11.7508
清淨亦無散失	-11.7509
兜率天	-11.7509
亦無量	-11.7512
四段	-11.7512
禮佛	-11.7513
如來有天眼	-11.7514
正命	-11.7514
若使	-11.7515
得淨	-11.7516
善亦無散失	-11.7516
色聲香味細滑法	-11.7518
眾生易度	-11.7519
如海	-11.7519
是癡清淨與	-11.7519
是貪清淨與	-11.752
之深	-11.7521
能感	-11.7521
若增若減不知不得	-11.7521
識受	-11.7521
無罪亦無散失	-11.7522
一語	-11.7524
無所受	-11.7525
是瞋清淨與	-11.7525
之問	-11.7528
重問	-11.7528
修靜慮時	-11.7528
▁初舉	-11.7529
非莊嚴	-11.7529
菩薩摩訶薩亦如是	-11.753
是菩薩摩訶薩所擐甲冑不屬	-11.7531
凡所	-11.7532
本文	-11.7532
般若心經	-11.7533
若寂靜若不寂靜是為戲論	-11.7534
若遠離若不遠離是為戲論	-11.7534
不起著不	-11.7534
等文	-11.7535
既以	-11.7535
之殊	-11.7535
今生人中	-11.7535
智藏	-11.7535
善女人等所獲福聚甚多於前	-11.7536
不能盡	-11.7536
是故說不受福德	-11.7537
佛說是沙不	-11.7537
持戒等	-11.7537
受諸苦惱	-11.7538
嫉	-11.7538
無量種	-11.7539
毀罵	-11.7539
不墮三界	-11.754
無所倚	-11.754
真如無量故般若波羅蜜多無量	-11.754
而無有一眾生實滅度者	-11.7542
七覺	-11.7542
須陀洹能作是念	-11.7542
踊躍	-11.7542
三合	-11.7542
為無所得耶	-11.7543
如是修學	-11.7544
躡	-11.7544
無有作者	-11.7544
若坐若臥	-11.7544
甚深性則非	-11.7544
實無有眾生如來度者	-11.7544
答三問	-11.7544
甚深性是行般若波羅蜜多	-11.7545
無量性則非	-11.7545
無量性是行般若波羅蜜多	-11.7545
更生	-11.7546
乾慧地	-11.7546
難測量性則非	-11.7547
難測量性是行般若波羅蜜多	-11.7547
如來所說三千大千世界	-11.7547
是故如來說名實相	-11.7547
未曾得聞如是之經	-11.7548
於然燈佛前	-11.7548
著不著相是行般若波羅蜜多	-11.7548
下第三明	-11.755
圓滿及不圓滿俱不名	-11.755
我人眾生壽者四相	-11.7551
是法非	-11.7553
綺	-11.7554
耽	-11.7556
卷第二	-11.7557
遠行	-11.7557
無量阿僧祇眾生	-11.7558
詎	-11.7558
反問	-11.7559
此破	-11.7559
非波羅蜜	-11.7561
有幾	-11.7562
純熟	-11.7562
波羅蜜多得圓滿故	-11.7563
毋	-11.7563
鑛	-11.7563
到處	-11.7564
五分法身	-11.7565
豈是	-11.7566
祇園	-11.7566
入一切	-11.7567
顯法	-11.7567
悲泣	-11.7567
米	-11.7567
彌勒云	-11.7568
廟	-11.7569
真如甚深故般若波羅蜜多甚深	-11.7569
如上所說	-11.7569
煙	-11.757
游	-11.757
付屬	-11.7571
無著菩薩	-11.7572
不相屬即	-11.7572
▁二依經斷疑	-11.7573
榮	-11.7574
弓	-11.7574
誰受	-11.7574
闊	-11.7574
心本	-11.7575
》、《	-11.7576
應念	-11.7576
檀越	-11.7576
是菩薩摩訶薩能於	-11.7576
清淨故五力清淨	-11.7577
所破	-11.7579
唐譯	-11.7579
在人	-11.758
芥	-11.758
少病	-11.758
見分	-11.758
是名斯陀含	-11.7581
然今	-11.7582
虔	-11.7582
舉體	-11.7583
吞	-11.7583
於如是甚深般若波羅蜜多	-11.7583
清淨故滅聖諦清淨	-11.7584
生信心	-11.7585
聞而	-11.7585
性本空	-11.7586
菩提也	-11.7586
長養	-11.7586
李	-11.7587
之具	-11.7587
舍婆提	-11.7588
本性空異	-11.7588
推之	-11.7589
阿鞞跋致相	-11.7589
假觀	-11.7589
復得	-11.759
過諸	-11.759
修持	-11.7591
證無為	-11.7591
如來度者	-11.7592
永斷一切	-11.7593
都不	-11.7594
盡知	-11.7595
智論云	-11.7596
若空解脫門	-11.7597
無上正等菩提不退轉記	-11.7597
身如須彌山王	-11.7597
自共相空	-11.7598
入地獄	-11.7601
以菩提	-11.7601
寂靜相	-11.7604
生忍	-11.7604
無眼界	-11.7606
則無所見	-11.7607
妙相	-11.7608
乃至一切智	-11.7609
指出	-11.7611
故出現世間能成辦事	-11.7612
過去法	-11.7614
世樂	-11.7619
淨者	-11.762
如文可知	-11.762
三界中	-11.7623
得諸法實相	-11.7624
滅壞	-11.7624
聽說	-11.7624
菩薩摩訶薩如是行般若波羅蜜多	-11.7626
般若波羅蜜甚深	-11.7627
二云	-11.7629
化物	-11.763
何以但說	-11.763
欲度	-11.7631
一切如來應正等覺	-11.7633
八千	-11.7634
言說法身	-11.7634
成就阿耨多羅三藐三菩提	-11.7634
饒益眾生	-11.7637
修四念處	-11.7637
斷界	-11.7638
閻浮提中	-11.7639
於一切智智	-11.7644
佛慧	-11.7649
卷第一	-11.7651
經二	-11.7653
未足	-11.7654
言音	-11.7654
會通	-11.7654
於預流向預流果	-11.7654
佛問須菩提	-11.7654
證處	-11.7656
若胎生	-11.7658
是佛法	-11.7659
無力	-11.7659
死苦	-11.7661
竟不可得	-11.7662
亦未	-11.7663
不正	-11.7663
廣分別	-11.7663
復起	-11.7665
集因	-11.7666
令一切	-11.7667
謂般若	-11.7667
佛力	-11.7669
雙結	-11.7669
若干種	-11.767
第二偈	-11.7671
縱廣	-11.7673
智波羅蜜多	-11.7674
無色聲香味觸法	-11.7674
佛與眾生	-11.7679
令諸菩薩	-11.7681
取相分別	-11.7681
名智	-11.7682
同也	-11.7682
攝論	-11.7682
法空也	-11.7683
諸物	-11.7686
如義	-11.7687
護正法	-11.7689
所證法	-11.769
真見	-11.769
極果	-11.7693
▁後解	-11.7696
師言	-11.7697
繫心	-11.7698
說摩訶衍	-11.7698
求阿耨多羅三耶三菩	-11.7699
相而不執著	-11.7699
不發	-11.7699
亦無所著	-11.7701
曾無	-11.7702
為諸菩薩摩訶薩眾	-11.7703
讚勵	-11.7704
乃至意識界	-11.7704
耳根	-11.7705
佛前	-11.7705
能為難事	-11.7706
無量世界	-11.7706
外緣	-11.7707
不測	-11.7707
無知無見	-11.7707
成實論	-11.7707
二施	-11.7707
若我若無我是為戲論	-11.7708
若樂若苦是為戲論	-11.7709
我亦應學	-11.7709
未忘	-11.7709
能入一切	-11.771
此世界	-11.7712
諸障	-11.7712
百千分不及一	-11.7712
者龍樹造後秦龜茲國三藏鳩摩羅什譯	-11.7712
證故	-11.7713
能過	-11.7713
未入	-11.7714
無智慧	-11.7717
不有不無	-11.7717
鄔波斯迦	-11.7719
用故	-11.7719
非有性故	-11.772
感得	-11.7722
相似般若波羅蜜	-11.7723
值遇	-11.7726
當知作意亦無覺知	-11.7727
當知作意亦寂靜	-11.7728
當知作意亦遠離	-11.7728
當知作意亦空	-11.7728
真如盡	-11.7729
輕蔑	-11.7729
隨此法門應	-11.7729
有人持用布施	-11.7729
性無相故無縛無解	-11.7729
當知作意亦無實	-11.773
令一切眾生	-11.773
有法得阿耨多羅三藐三菩提不	-11.773
見佛性	-11.773
既明	-11.7731
著處	-11.7732
承佛神力	-11.7733
如來不說得福德多	-11.7733
譯者	-11.7734
菩薩莊嚴佛土不	-11.7736
不受不取	-11.7736
勤勇懈怠	-11.7736
六界	-11.7737
堪任	-11.7738
三十三	-11.7738
生信心不	-11.7738
不可思議故如來所說不可思議	-11.7738
或謂	-11.7739
是為多不	-11.7739
非生	-11.774
合離相	-11.7741
▁初隨章敘疑	-11.7741
有退轉	-11.7741
汝莫	-11.7742
占	-11.7742
》(	-11.7743
乃至十地	-11.7743
有持戒修福者	-11.7744
當令	-11.7745
始教	-11.7746
須菩提曰	-11.7748
至涅槃	-11.7748
豪	-11.7749
侶	-11.775
言語道斷	-11.7751
不一不異	-11.7752
無量無數無邊有情	-11.7753
以辨	-11.7753
但舉	-11.7753
可入	-11.7754
普施	-11.7755
不應觀受	-11.7756
說法之	-11.7757
烟	-11.7757
離諸相	-11.7757
而有可得	-11.7758
俱白佛言	-11.7758
菩薩戒	-11.7759
排	-11.7759
方等	-11.776
名譽	-11.776
鄰	-11.7761
皎	-11.7761
五乘	-11.7761
楞伽經	-11.7762
亦不作集不作散	-11.7763
知諸	-11.7763
鳴	-11.7765
若常若無常是為戲論	-11.7765
清淨故不虛妄性清淨	-11.7766
為微塵	-11.7767
麁細	-11.7767
阿彌陀佛	-11.7769
逾	-11.7771
性本	-11.7771
般若波羅蜜多清淨即	-11.7773
解經	-11.7774
千億	-11.7774
應如是降伏其心	-11.7775
撿	-11.7776
示故	-11.7776
晦	-11.7777
稱為	-11.7778
我若作是念	-11.778
盡苦	-11.778
而云	-11.7784
為諸眾生	-11.7784
有欲	-11.7784
佛滅後	-11.7784
四無色定四無量	-11.7785
受持淨戒	-11.7786
第一心	-11.7786
上二界	-11.7786
論釋云	-11.7786
依何	-11.7787
還滅	-11.779
相應者	-11.779
無量無邊功德	-11.779
無妄	-11.7791
何容	-11.7791
眾生性	-11.7792
帝釋天主白	-11.7797
有上	-11.7797
三千大千世界諸有情類	-11.7801
與他人	-11.7801
止息	-11.7802
如是不思惟	-11.7802
【△	-11.7803
法相者	-11.7803
譬如大海	-11.7805
須菩提白佛言世尊	-11.7805
未圓滿	-11.7805
修四念住	-11.7806
流支	-11.7807
四陰	-11.7811
徵起	-11.7813
覺意	-11.7814
明慧	-11.7815
老病	-11.7815
阿惟越致地	-11.7816
二意	-11.7819
業用	-11.7821
若菩薩摩訶薩遠離	-11.7823
世第一法	-11.7824
佛曰	-11.7824
智慧愚癡	-11.7824
初地菩薩	-11.7825
七寶塔	-11.7825
三摩地門離	-11.7825
其罪	-11.7825
法亦空	-11.7827
常存	-11.7831
諸論	-11.7831
等流	-11.7831
相應行	-11.7833
隨世俗	-11.7834
現在佛	-11.7835
一切所有	-11.7837
為利益眾生	-11.7837
甚深義趣	-11.7841
外財	-11.7842
地地	-11.7847
記莂	-11.7849
百味	-11.7849
四十八	-11.7852
無亂	-11.7852
住本性空	-11.7852
心量	-11.7854
我當云何	-11.7856
大品經	-11.7856
無生無滅故	-11.7857
即是法界	-11.7859
合之	-11.786
具足諸相	-11.786
能學無量	-11.7863
之真性	-11.7864
長水	-11.7865
一番	-11.7867
如變化事	-11.7868
至菩提終	-11.7868
或名	-11.7869
徧照	-11.7872
性命	-11.7872
五陰空	-11.7872
菩薩摩訶薩般若波羅蜜	-11.7873
聲聞或獨覺地	-11.7874
示人	-11.7875
寡	-11.7875
觀想	-11.7875
復有菩薩摩訶薩	-11.7875
所從	-11.7878
本清淨	-11.7879
本尊	-11.788
轉少分人	-11.7881
名香	-11.7881
明曰	-11.7881
等苦	-11.7882
相亦不可得	-11.7883
無罣礙故	-11.7883
非無法	-11.7884
見自性	-11.7888
二死	-11.7888
獨覺法	-11.7889
散佛上	-11.7889
甚深故般若波羅蜜多甚深	-11.7889
今就	-11.789
四顛倒	-11.7891
如來有慧眼	-11.7893
如來有法眼	-11.7894
不證無上正等菩提	-11.7894
受苦樂	-11.7895
九相	-11.7895
謂諸如來	-11.7896
心不清淨	-11.7897
▁初正	-11.7897
未來諸佛	-11.7898
戒定	-11.7898
住想勝解	-11.7898
一生補處	-11.7899
以寄世尊而為	-11.79
此深妙法不為攝取	-11.79
由加行故	-11.7901
是菩薩摩訶薩由此	-11.7903
若淨若不淨是為戲論	-11.7903
誼	-11.7904
凌辱	-11.7904
成壞	-11.7905
知一切法無我	-11.7905
皆令安住十善業道	-11.7905
清淨句義是菩薩句義	-11.7908
福寧多不	-11.7909
養育	-11.791
覆心	-11.791
一向無	-11.791
修淨戒時	-11.7912
無斷無別而可施設	-11.7913
合掌向佛	-11.7913
若是所遍知若非所遍知是為戲論	-11.7914
菩薩住是	-11.7914
此性空中無生無	-11.7915
彼內空乃至無性自性空無二無二分	-11.7916
法身無相	-11.7917
總以	-11.7918
非前非後皆得人身	-11.7919
行中	-11.792
性寂靜故無縛無解	-11.792
不執不著	-11.792
性無願故無縛無解	-11.792
性無生故無縛無解	-11.792
性遠離故無縛無解	-11.792
性無所有故無縛無解	-11.792
如是等七寶聚	-11.7921
瑕	-11.7921
持戒修福	-11.7922
當知作意亦無自性	-11.7922
若菩薩摩訶薩作如是念	-11.7922
佛說我得無諍三昧	-11.7923
不足為難	-11.7923
是身為大不	-11.7923
燋	-11.7924
真如難測量故般若波羅蜜多難可測量	-11.7924
世間人	-11.7924
別觀	-11.7925
重擔	-11.7925
無所有處天	-11.7926
四維上下	-11.7928
欲破	-11.7929
即與	-11.793
慈悲忿恚	-11.7931
班足	-11.7931
藥草	-11.7932
脈	-11.7932
苦忍	-11.7934
眾聖	-11.7934
不住聲香味觸法布施	-11.7936
金剛喻定	-11.7936
徵問	-11.7936
狂亂	-11.7936
性無淨故無縛無解	-11.7936
死人	-11.7937
遠離顛倒夢想	-11.7937
救濟	-11.7938
所有諸	-11.7938
住不退轉地	-11.7938
如來不可得	-11.7939
之徒	-11.794
具戒	-11.7942
平等真法界	-11.7944
則不然	-11.7944
則不名菩薩	-11.7946
乙	-11.7946
科文	-11.7947
促	-11.7947
漂	-11.7948
如來有佛眼不	-11.7948
無量殑伽沙等世界	-11.7948
躬	-11.795
欲界中	-11.795
不能得一切智智	-11.795
亦不作廣不作狹	-11.7951
生貪愛	-11.7951
為誰	-11.7953
欽	-11.7953
生老死	-11.7953
宴坐	-11.7954
諸部	-11.7955
鳩摩羅什	-11.7956
抄	-11.7958
豎	-11.7959
未起	-11.7959
或阿羅漢果	-11.7962
無變	-11.7963
轍	-11.7963
終不取著	-11.7964
使其	-11.7964
見彼	-11.7965
薩婆多宗	-11.7966
些	-11.7966
養育者清淨故	-11.7967
得三菩提	-11.7967
量等	-11.7968
潭	-11.7968
隋	-11.7969
靈山	-11.7969
若準	-11.7969
亦由	-11.797
不答	-11.7971
喝	-11.7971
起時	-11.7974
離彼	-11.7975
衰損	-11.7976
作此說	-11.7976
先生	-11.7979
諸菩薩摩訶薩從初發心	-11.7979
本寂	-11.798
奉事	-11.7983
虗假	-11.7983
各一	-11.7983
安樂住不	-11.7985
所語	-11.7985
為明	-11.7985
何益	-11.7985
逮薩云若	-11.7986
相不可得	-11.7986
卷第四	-11.7987
益眾生	-11.7987
邪命	-11.7987
皆在	-11.7988
五教	-11.7988
而眾生	-11.7989
不信受	-11.7989
道慧	-11.7989
阿鞞跋致菩薩摩訶薩	-11.7989
從此第四	-11.799
於涅槃	-11.799
自思惟	-11.7994
佛言如是如是	-11.7995
普光	-11.8001
即答	-11.8001
故護念是菩薩摩訶薩	-11.8003
若為人輕賤	-11.8004
先問	-11.8005
謂作是念	-11.8007
智印	-11.8007
園中	-11.8007
知我	-11.8007
從此第三明	-11.8008
之難	-11.8009
此福德	-11.8012
甚深性	-11.8012
是定	-11.8013
次就	-11.8013
輪寶	-11.8015
菩薩摩訶薩不為	-11.8016
亦不於	-11.8017
染法	-11.8019
分分	-11.8023
天道	-11.8023
釋經文	-11.8025
修行無忘失法	-11.8029
菩薩乘諸善男子	-11.8031
八人	-11.8033
不住六塵	-11.8033
疏中	-11.8033
華蓋	-11.8034
日夜	-11.8034
之眾生	-11.8036
求佛果	-11.8036
乃至一切種智亦如是	-11.8037
熱時	-11.8039
但知	-11.8043
復更	-11.8044
文有四	-11.8046
之眾	-11.8046
共成	-11.8046
明知	-11.8048
菩薩淨戒波羅蜜多	-11.805
一切相智道相智	-11.8052
內空真如	-11.8061
六義	-11.8061
慧者	-11.8062
遣此修	-11.8062
釋言	-11.8064
現入	-11.8064
有如是等	-11.8064
生滅相	-11.8065
此是如來	-11.8067
所遣	-11.8068
於諸定	-11.8072
伺	-11.8072
菩薩義不	-11.8072
菩提故	-11.8074
名都	-11.8076
非他	-11.8076
爾時須菩提	-11.808
之時也	-11.808
一切法自性皆空	-11.8081
僧伽	-11.8081
一切有為	-11.8081
并諸	-11.8082
何況餘	-11.8083
無上菩提之	-11.8083
一時者	-11.8083
恒河沙等世界	-11.8088
為人說	-11.8088
未滿	-11.8089
六百	-11.8089
性宗	-11.8089
定也	-11.8091
餘五	-11.8092
況餘	-11.8093
法涌菩薩	-11.8095
阿耨多羅三耶三菩阿惟三佛	-11.8095
二百五十	-11.8096
若化生	-11.8096
此果	-11.8097
燈明而為供養	-11.8097
莫呼洛伽	-11.8097
是名菩薩摩訶薩摩訶衍	-11.8098
復以種種上妙花鬘	-11.8098
一步	-11.8099
地種	-11.81
涅盤	-11.8101
真實義	-11.8101
由此業故施設	-11.8101
不稱	-11.8103
而於其中都無所住	-11.8103
鈔云	-11.8104
踊	-11.8104
為欲饒益諸有情故	-11.8105
變易生死	-11.8108
修安忍時	-11.8109
界虛空界是名	-11.811
非想非非想處天	-11.8111
不可取故	-11.8113
滅度一切眾生巳	-11.8115
小千界	-11.8115
置此	-11.8115
性無滅故無縛無解	-11.8116
性無染故無縛無解	-11.8116
無常想	-11.8118
教主	-11.8118
瞋清淨即	-11.8119
離過	-11.8119
若菩薩摩訶薩作是思惟	-11.8119
篋	-11.8119
我若具說者	-11.812
無量無邊有情	-11.8121
無所為	-11.8121
上界呼	-11.8121
皆得成就無量無邊功德	-11.8121
柔和	-11.8121
可以三十二相觀如來不	-11.8122
六句	-11.8122
非斷非常	-11.8124
習氣相續	-11.8124
皆阿羅漢	-11.8124
舉須菩提	-11.8125
須菩提答	-11.8127
持於此經	-11.8127
於爾所世	-11.8127
不見菩薩	-11.8129
不迷	-11.8129
善惡業	-11.8129
知我說法	-11.8131
若菩薩摩訶薩欲得	-11.8131
工巧	-11.8131
摩訶迦葉	-11.8131
病苦	-11.8132
以五眼	-11.8134
乃言	-11.8134
而死	-11.8134
當作是念	-11.8136
愆	-11.8137
無自相	-11.8138
合故	-11.8141
實為	-11.8141
佛於然燈佛所	-11.8142
無業	-11.8142
淨相	-11.8142
復有人言	-11.8143
巖	-11.8143
無相為方便	-11.8144
謀	-11.8144
殆	-11.8145
窺	-11.8146
念佛三昧	-11.8146
精進根	-11.8149
四十九年	-11.8149
乃云	-11.8149
斷盡	-11.8149
季	-11.815
刑	-11.815
龜	-11.8151
本來面目	-11.8151
欲得色身	-11.8151
五重	-11.8152
須菩提意	-11.8153
諸菩薩作是思惟	-11.8154
為尊為導故	-11.8155
深著	-11.8155
淪	-11.8155
應機	-11.8156
百非	-11.8157
皆無所有不可得故	-11.8157
自地	-11.8157
丁	-11.8159
次有	-11.816
白雲	-11.816
下根	-11.8163
喚作	-11.8163
我乃至見者	-11.8163
躡前	-11.8163
驢	-11.8164
依他起性	-11.8164
數中	-11.8164
證無上菩提	-11.8165
如我解佛所說義者	-11.8165
於般若波羅蜜多甚深經典	-11.8165
?』」	-11.8166
雙泯	-11.8167
如是降伏	-11.8168
火宅	-11.8168
四結	-11.8168
即是無生滅	-11.8171
亦不減	-11.8172
第二第三	-11.8175
近無上正等菩提	-11.8177
菩薩行般若波羅蜜時	-11.8178
世界微塵	-11.818
已復	-11.818
司	-11.8182
實則	-11.8184
金剛杵	-11.8184
有殊	-11.8185
般若之法	-11.8185
因有	-11.8188
無果	-11.8194
亦不作是念	-11.8194
真法身	-11.8195
是外	-11.8195
我淨故	-11.8198
相句義無所有不可得	-11.8198
尊敬	-11.82
即事	-11.8201
中際非縛非	-11.8201
自利行	-11.8203
百倍	-11.8203
佛因般若波羅蜜	-11.8204
是出世間	-11.8206
是亦不可得	-11.8206
上方	-11.8206
如來悉知悉見	-11.8209
有情想	-11.821
如是如來	-11.8212
定根	-11.8213
十方虗空	-11.8215
佛德	-11.8217
謗法	-11.8217
頗見	-11.8218
求教授	-11.8218
是無明	-11.8218
皆同一	-11.8219
起疑	-11.8219
應行般若波羅蜜多	-11.822
墮在	-11.8222
不停	-11.8224
菩提果	-11.8224
不見事	-11.8227
二別釋	-11.8229
善趣	-11.8229
眾也	-11.823
第六十	-11.8231
難了	-11.8232
彼處	-11.8232
瞻禮	-11.8232
不謬	-11.8236
為阿耨多羅三藐三菩提	-11.8236
次第行	-11.8237
者為說	-11.8237
彼間	-11.8237
定中	-11.8238
以無性為自性	-11.8239
第一義故	-11.8239
亦勸他行	-11.824
一實	-11.8241
觀無相	-11.8241
救度	-11.8241
在何處	-11.8243
致問	-11.8243
庸	-11.8244
一切法無生	-11.8244
當自	-11.8245
餘四	-11.8245
既離	-11.8246
無非般若	-11.8247
一切惡魔	-11.8249
無生法中	-11.8252
不生滅	-11.8255
相空故學	-11.8258
眾生等	-11.8259
起信論	-11.826
護念是菩薩摩訶薩	-11.826
得般涅槃	-11.8261
與樂	-11.8261
修諸善法	-11.8262
不能迴向一切智智	-11.8263
乃至薩云若	-11.8264
能受持讀誦此經	-11.8265
具足般若波羅蜜	-11.8265
所有一切	-11.8266
復欲	-11.8267
此門	-11.8268
所益	-11.8272
此示	-11.8273
根本無明	-11.8274
本是	-11.8275
於四正斷	-11.8276
聖王	-11.8276
小千	-11.8278
虛妄不實	-11.8278
即如來	-11.8279
來詣佛所	-11.828
未離欲	-11.8281
亦不可說	-11.8282
欲度眾生	-11.8284
行忍	-11.8285
各各有	-11.8286
為諸有情說	-11.8287
小千世界	-11.8288
大慧	-11.8288
成就如是方便善巧	-11.8288
筋	-11.8289
集成	-11.8289
菩薩摩訶薩遠離般若波羅蜜多	-11.829
無為之法	-11.8292
彼非	-11.8292
所依器故	-11.8292
禪中	-11.8295
亦勿以	-11.8296
遍處	-11.8297
他性	-11.8297
菩薩發心	-11.8297
亦大	-11.8297
見顛倒	-11.8299
無造無作	-11.8299
實觀	-11.8299
巳知	-11.83
常寂	-11.8301
十方三世諸佛	-11.8302
顯正	-11.8302
為諸有情宣說正法	-11.8303
應須	-11.8303
書是深般若波羅蜜	-11.8304
婆羅門大姓	-11.8304
居士大家	-11.8305
約教	-11.8306
復名摩訶薩	-11.8307
轉勝	-11.8308
三行	-11.8308
宣說法要	-11.8308
隨時	-11.8312
虛空無盡	-11.8312
入般若波羅蜜中	-11.8313
實無眾生	-11.8313
諸菩薩摩訶薩住第	-11.8313
東行	-11.8314
汝等勿謂如來作是念	-11.8315
云何不思惟	-11.8316
佛說如是甚深經典	-11.8316
貪清淨即	-11.8316
書深般若波羅蜜乃至正憶念	-11.8317
頗梨	-11.8317
爾所國土中	-11.8318
由是因緣所獲功德	-11.8318
六事	-11.8318
1	-11.8319
c	-11.8319
說四諦	-11.832
之寶	-11.832
若菩薩有我相人相眾生相壽者相	-11.832
不異無生滅	-11.8321
是諸菩薩摩訶薩道	-11.8321
性空故無縛無解	-11.8321
欺誑	-11.8321
正勤	-11.8321
如來所得阿耨多羅三藐三菩提	-11.8321
當知是經義不可思議	-11.8322
葢以	-11.8322
不能解我所說故	-11.8322
門者	-11.8323
薩云若慧	-11.8323
如來說非忍辱波羅蜜	-11.8324
是經名為金剛般若波羅蜜	-11.8324
為自性	-11.8324
功德也	-11.8324
不妄語	-11.8324
得聞如是言說章句	-11.8325
六門	-11.8325
聞此經典	-11.8326
於法有所得不	-11.8327
色無常	-11.8327
若眾生	-11.8327
以是事故	-11.8328
矯	-11.8328
相分	-11.8329
一會	-11.833
若菩薩不住相布施	-11.833
調御	-11.833
諦者	-11.833
二忍	-11.8331
黑闇	-11.8332
雲峯說	-11.8333
圓成實	-11.8333
名菩提	-11.8337
啼	-11.8337
疲極	-11.8338
尋求	-11.8339
斗	-11.834
穢惡	-11.834
剖	-11.834
大雲云	-11.834
嗅	-11.8341
恥	-11.8341
入者	-11.8341
如來有慧眼不	-11.8343
略疏	-11.8344
六十四	-11.8345
進止	-11.8346
刃	-11.8346
久久	-11.8348
愛念	-11.8348
無分別耶	-11.8348
遣相	-11.835
之樂	-11.835
環	-11.8351
若善若非善	-11.8352
什麼	-11.8352
廣說乃至一切智智	-11.8353
比丘比丘尼	-11.8354
無生滅即是	-11.8355
金剛藏	-11.8355
識無縛無解	-11.8355
汗	-11.8355
其前	-11.8356
訣	-11.8358
呌	-11.836
一沙	-11.8361
程	-11.8361
本來空寂	-11.8361
求解脫	-11.8362
得忍	-11.8362
內財	-11.8362
汝所問	-11.8363
康	-11.8364
明於	-11.8365
知足	-11.8365
有法空	-11.8365
䭾	-11.8366
振	-11.8366
語默	-11.8367
者矣	-11.8367
此呪	-11.8367
殊不知	-11.8368
宏	-11.8369
境也	-11.837
二示	-11.837
掃除	-11.837
畔	-11.8371
為無量	-11.8371
側	-11.8371
菩薩神通	-11.8372
猶如虗空	-11.8378
所覺	-11.8378
發菩提	-11.8378
憶想	-11.8379
形迹	-11.8382
大德善現	-11.8382
所有布施	-11.8384
▁二約	-11.8385
一往來	-11.8386
於諸菩薩	-11.8389
疑網	-11.8389
所謂無上正等菩提	-11.8389
但欲	-11.8391
施時	-11.8393
其形	-11.8393
未度	-11.8394
法身非相	-11.8395
修行淨戒波羅蜜多	-11.8396
一切智慧	-11.8396
於四無所畏	-11.8397
三道	-11.8397
如是菩薩摩訶薩眾	-11.8398
發阿耨	-11.84
一切相智亦	-11.8401
七年	-11.8402
不可執	-11.8404
則又	-11.8404
是阿羅漢	-11.8405
圓照	-11.8405
唯為	-11.8405
依怙	-11.8406
非有無	-11.8406
當以何	-11.8407
決斷	-11.8407
即現	-11.8408
異時	-11.841
異見	-11.841
化眾	-11.8412
巳後	-11.8413
更無異	-11.8416
現量	-11.8417
六波羅蜜中	-11.842
依舊	-11.8422
天地之	-11.8422
有差	-11.8424
於此法門	-11.8424
為遮	-11.8427
審諦	-11.8428
之所攝受	-11.8428
即是般若	-11.8428
念者	-11.8429
大梵天王	-11.843
滅除	-11.8431
二年	-11.8432
而生其心	-11.8434
不能忍	-11.8436
極圓滿	-11.8439
覺慧	-11.844
能隨	-11.844
舉一	-11.8441
顯德	-11.8442
起惡	-11.8445
道云	-11.8449
之宗	-11.8451
於佛前	-11.8452
以水	-11.8452
違順	-11.8459
新學菩薩	-11.8461
智人	-11.8462
此舉	-11.8464
捨諸	-11.8467
我及我所	-11.8467
盡其	-11.8469
無染著	-11.847
方說	-11.847
體無	-11.847
開導	-11.8472
三藐三菩提	-11.8472
若我若無我是行般若波羅蜜多	-11.8474
若淨若不淨是行般若波羅蜜多	-11.8476
若樂若苦是行般若波羅蜜多	-11.8476
不獲說聽	-11.8477
三世等	-11.8479
如是甚深	-11.8479
離著	-11.8479
勸令	-11.848
開口	-11.8481
呼須菩提而	-11.8482
二辨	-11.8483
習種	-11.8484
盡皆	-11.8484
此意云	-11.8485
實性而得遠到	-11.8487
施他	-11.8487
非淨	-11.8487
以法身	-11.8488
欲天	-11.849
覺時	-11.8491
惡見	-11.8493
有毀	-11.8493
正位	-11.8494
供養曇無竭菩薩	-11.8494
大分有	-11.8494
十方無邊世界	-11.8495
正斷	-11.8498
難見難覺	-11.8499
心精進	-11.85
須陀洹等	-11.85
妙善	-11.85
於欲界	-11.85
科家意	-11.85
如彼應學	-11.8501
一真法界	-11.8501
波羅蜜中	-11.8501
二界	-11.8501
大神呪王	-11.8501
有染有淨	-11.8501
緊捺洛	-11.8502
為苦	-11.8502
來至其所	-11.8503
不應觀法界	-11.8505
耳識界	-11.8505
稱理	-11.8506
菩提分	-11.8506
善思	-11.8506
佛說佛母出生三法藏般若波羅蜜多	-11.8507
晝夜精勤	-11.8507
作漸次業	-11.8507
諸宿住事	-11.8509
散亂心	-11.8509
徵云	-11.8511
乃至鄔波尼殺曇分亦	-11.8511
發勤精進	-11.8513
本性空非	-11.8513
有四句	-11.8513
覺他	-11.8514
兩足	-11.8515
得定	-11.8516
如來說即非法相	-11.8518
如是一切皆無二	-11.8518
用無所得故	-11.8518
悉知是人	-11.8519
若是微塵眾實有者	-11.8519
▁薩摩訶薩	-11.852
如來可以具足諸相見不	-11.852
三輪清淨	-11.8521
無生滅不異	-11.8521
勇健	-11.8522
或有菩薩	-11.8522
少故	-11.8522
此經典	-11.8522
繒	-11.8522
▁訶薩	-11.8522
▁羅蜜多	-11.8523
f	-11.8523
欲取	-11.8523
我得須陀洹果不	-11.8524
其心有驚有恐有怖	-11.8524
施設建立分別	-11.8525
陣	-11.8525
悉皆供養承事	-11.8525
何所迴向	-11.8526
若色界	-11.8526
則為有佛	-11.8526
乃至一念生淨信者	-11.8527
是人所得福德	-11.8529
無眼界乃至無意識界	-11.8532
於大乘	-11.8534
一為	-11.8534
此法無實無虗	-11.8534
何迴向	-11.8534
有所恃	-11.8535
真化	-11.8535
說無常	-11.8536
第四十	-11.8536
其福德不可思量	-11.8536
能遍	-11.8536
內無	-11.8537
依深般若波羅蜜多	-11.8537
極多	-11.8538
涕	-11.8538
下第五	-11.8538
饑	-11.8539
相續不斷	-11.8541
如露亦如電	-11.8542
血肉	-11.8542
獨覺道	-11.8542
毘尼	-11.8542
即非第一波羅蜜	-11.8546
芽	-11.8547
▁後辨	-11.8549
鹽	-11.855
無能壞者	-11.8551
捷	-11.8552
湖	-11.8552
力也	-11.8552
三種般若	-11.8554
佛位	-11.8555
有相若無相	-11.8555
五無間	-11.8556
外色	-11.8556
曷	-11.8558
兔角	-11.8558
日輪	-11.8558
隨分	-11.8559
能覺	-11.8561
不捨眾生	-11.8561
即非一合相	-11.8561
難云	-11.8561
亦學	-11.8562
此一段經	-11.8563
那含	-11.8563
惱亂	-11.8563
鉤	-11.8563
壤	-11.8563
集諸功德	-11.8565
無一物	-11.8565
六欲天	-11.8567
廬	-11.8568
性空無生滅故	-11.8568
如別章	-11.8569
成大	-11.8569
安處	-11.857
祈	-11.8572
我於阿耨多羅三藐三菩提	-11.8574
受想行識亦如是	-11.8575
未始	-11.8575
佛號釋迦牟尼	-11.8575
依文	-11.8576
決了	-11.8576
神通變化	-11.8577
信般若	-11.8577
安立有情	-11.8578
等言	-11.8578
是一切智	-11.8579
亦滅	-11.858
般若力	-11.8582
菩薩於法	-11.8582
誑惑	-11.8583
三界外	-11.8583
是有為法	-11.8583
妄情	-11.8584
具四	-11.8584
可厭	-11.8585
遍觀	-11.8585
一切法自性	-11.8587
餘文	-11.8588
二結	-11.859
毒藥	-11.859
未久	-11.8591
非同	-11.8591
即墮	-11.8593
無倦	-11.8593
是菩薩摩訶薩行般若波羅蜜	-11.8594
諸波羅蜜多	-11.8597
總舉	-11.8597
隨力	-11.8598
不可動	-11.8598
義意	-11.8598
說是般若波羅蜜	-11.8598
徒眾	-11.86
真經	-11.8602
無願三摩地	-11.8605
無自他相	-11.8605
幻妄	-11.8605
愚癡者	-11.8606
歡喜讚歎住	-11.8607
會解	-11.8608
顯是	-11.8609
得無諍三昧	-11.8612
若當來世	-11.8614
佛十力不可得	-11.8614
不顯	-11.8615
元來	-11.8616
利益故	-11.8618
有愛	-11.8619
若有為	-11.862
斷結	-11.862
論義	-11.8621
心著	-11.8625
若菩薩摩訶薩為色	-11.8626
有作	-11.8629
假者	-11.863
欲生	-11.863
方乃	-11.8631
若雜染若清淨	-11.8631
一解	-11.8633
非法者	-11.8635
上人	-11.8636
身識界	-11.8636
先後	-11.8637
便起	-11.8637
即是不可說	-11.8639
為論	-11.864
是受	-11.8642
無想天	-11.8643
性平等	-11.8643
鼻識界	-11.8645
倍為勝	-11.8646
說法人	-11.8648
大神	-11.8649
不食	-11.865
觀三界	-11.865
所經	-11.8652
一切相智性空	-11.8653
以少	-11.8654
文三初	-11.8654
知是菩薩	-11.8656
有道	-11.8656
欲得阿耨多羅三藐三菩提	-11.8659
即理	-11.8659
身外	-11.866
已圓滿	-11.8661
由斯故說	-11.8666
當作是學	-11.8669
於佛法中	-11.8669
展轉相	-11.867
善通達	-11.8671
修行五眼	-11.8672
欲盡	-11.8672
國名	-11.8674
與菩薩	-11.8674
亦無縛無脫	-11.8674
心內	-11.8676
便言	-11.8676
小乘法	-11.868
所行法	-11.8681
無所入	-11.8682
都是	-11.8682
無我等相	-11.8683
如實見	-11.8685
通前	-11.8687
著樂	-11.8687
甚可愛樂	-11.8689
如來性	-11.8691
盡其形壽	-11.8692
若聲聞法	-11.8695
我即	-11.8695
則此大乘非尊非妙	-11.8696
教興	-11.8697
此大乘是尊是妙	-11.8698
憐愍眾生	-11.8698
聞思	-11.8699
以生	-11.87
迷人	-11.8701
信般若波羅蜜	-11.8702
阿毘跋致	-11.8702
無受想行識	-11.8703
三際平等中	-11.8705
耆闍崛山	-11.8708
訛	-11.8709
初略	-11.8709
具念正知	-11.8711
與不滅無二無二分	-11.8711
起高心	-11.8711
菩薩摩訶薩於色法中	-11.8711
十六行	-11.8712
三十七助道法	-11.8713
具壽善現即白佛言	-11.8713
諸佛說法時	-11.8713
即是真如	-11.8714
不樂觀察論說	-11.8714
福因	-11.8715
生憍逸	-11.8715
一一世界無量菩薩	-11.8715
殑伽河	-11.8716
三藏法師玄奘奉詔譯第二分	-11.8716
若智若斷	-11.8716
與不生無二無二分	-11.8716
能淨	-11.8717
何等為五	-11.8718
葦	-11.8719
若人欲使	-11.8719
由來	-11.8719
大誓莊嚴	-11.872
及其	-11.872
毀傷	-11.872
頓斷	-11.8721
修精進時	-11.8721
殊妙	-11.8722
忍受	-11.8722
有來有去	-11.8723
具壽舍利子言	-11.8723
威勢	-11.8723
其有欲令無相之法有出有至者	-11.8724
有出有至	-11.8725
善思念之	-11.8725
正辨	-11.8725
野馬	-11.8726
若阿羅漢作是念	-11.8727
此性空中無滅無	-11.8727
眾疑	-11.8727
大施	-11.8728
若有眾生如來度者	-11.8729
▁多	-11.8729
是第一離欲阿羅漢	-11.8729
若不出世	-11.8729
寂靜若不寂靜	-11.8729
菩薩摩訶薩欲行般若波羅蜜	-11.8729
修布施	-11.873
十二分教	-11.8731
故淨名云	-11.8731
隣近	-11.8731
有願若無願	-11.8731
皆如化不	-11.8731
十里	-11.8732
如來不應以具足色身見	-11.8732
我今得聞如是經典	-11.8732
發無上菩提心	-11.8733
殊勝善法	-11.8734
所言一切法者	-11.8734
阿蘭若	-11.8734
於何處	-11.8734
則修般若波羅蜜多增益圓滿	-11.8735
坦	-11.8735
焚燒	-11.8735
非常非滅故	-11.8736
或從	-11.8736
無眼	-11.8736
燃	-11.8737
穩	-11.8737
花果	-11.8738
以三十二相	-11.8738
移轉	-11.8738
信等五根	-11.874
無有少法可得	-11.874
佛法者	-11.8742
皆以無為法而有差別	-11.8743
是第三	-11.8744
節節支解	-11.8744
墮斷滅	-11.8744
轉轉	-11.8745
泣	-11.8746
作忍辱仙人	-11.8747
大果	-11.8747
不取不捨	-11.8747
於諸三昧	-11.8748
受持般若	-11.8748
所謂佛法者	-11.8748
皆由般若波羅蜜多	-11.8749
注云	-11.8749
雖似	-11.8751
拙	-11.8751
修般若時	-11.8751
佛說是經巳	-11.8752
寐	-11.8753
欠	-11.8754
彈	-11.8754
扣	-11.8756
所化有情	-11.8756
菩薩摩訶薩應如是	-11.8758
膽	-11.8758
過去如來	-11.876
大分	-11.876
所應供養	-11.876
雄	-11.876
若諸菩薩摩訶薩眾	-11.876
政	-11.8761
襲	-11.8761
即證	-11.8761
於其城中	-11.8762
三賢十聖	-11.8762
夙	-11.8762
明月	-11.8764
自性無	-11.8765
含容	-11.8766
不照	-11.8767
所惱	-11.8767
其道	-11.8768
嶺	-11.8768
不一不二	-11.877
模	-11.8771
滅諸	-11.8772
給孤獨園	-11.8773
啟請	-11.8773
賓	-11.8773
僻	-11.8773
金華	-11.8773
布施波羅蜜多不可得	-11.8774
此般若波羅蜜	-11.8774
十門	-11.8774
不逆	-11.8775
體同	-11.8778
準此	-11.8778
假號	-11.8779
全彰	-11.878
化有情	-11.8782
菩薩應如是布施	-11.8783
從心	-11.8784
接引	-11.8785
夢中所見	-11.8787
般若波羅蜜多乃至布施波羅蜜多	-11.8787
是中無	-11.8788
福德也	-11.8788
而巳矣	-11.8788
魔怨	-11.8789
此但	-11.8793
如實知受	-11.8794
滿月	-11.8794
斷一切煩惱習	-11.8795
契合	-11.8795
知一切眾生	-11.8796
侍者	-11.8796
肇公	-11.8797
莊嚴淨土	-11.8797
疑情	-11.8798
示其	-11.8801
調柔	-11.8804
性非住非不住	-11.8804
是菩薩摩訶薩如是	-11.8804
力能	-11.8805
梵世	-11.8806
所無	-11.8808
末香	-11.8808
王臣	-11.8809
初說	-11.8811
今人	-11.8812
為此岸	-11.8813
別列	-11.8814
願生	-11.8817
生欲界	-11.8817
境中	-11.8818
無明等	-11.8819
供養恭敬尊重讚歎	-11.8819
若於是處	-11.8821
字關	-11.8822
無為者	-11.8823
若濕生	-11.8823
妙花	-11.8824
諸法性相	-11.8828
甚希有	-11.8828
亦無變異	-11.883
為兩	-11.883
當得菩提	-11.8831
▁No	-11.8836
相應因	-11.8836
若有此經	-11.8837
仁王般若	-11.8837
但由	-11.8838
􂏕	-11.8838
不與不捨	-11.8838
如須彌	-11.8842
還去	-11.8843
離不與取	-11.8843
有法可	-11.8844
妄有	-11.8845
是諸如來	-11.8846
常照	-11.8847
卷第五	-11.8848
亦令他	-11.885
是幻	-11.885
以諸法	-11.8851
毀壞	-11.8852
誦讀	-11.8852
前約	-11.8853
自家	-11.8853
西北	-11.8854
有捨	-11.8857
菩薩如是行	-11.8858
廣辨	-11.8858
五受眾	-11.8859
受教	-11.8859
下忍	-11.886
不重	-11.8861
求不可得	-11.8862
其所說	-11.8863
不見諸法有	-11.8863
無我想	-11.8864
可修	-11.8864
也二者	-11.8864
作是問	-11.8865
遍十方	-11.8866
行成	-11.8866
超諸	-11.887
芥子	-11.8871
王曰	-11.8871
於中學	-11.8872
惡師	-11.8872
以虛空為所趣	-11.8873
意識界亦	-11.8876
四念住不可得	-11.8878
就前	-11.8878
人物	-11.8881
為對治	-11.8881
正為	-11.8885
真如法界	-11.8887
勝智	-11.8887
不殊	-11.8887
其福多不	-11.8888
菩薩摩訶薩於般若波羅蜜多	-11.8889
勿於	-11.889
於六波羅蜜	-11.8891
我施	-11.8893
無數如來	-11.8893
亦無戲論	-11.8894
必定	-11.8896
況於	-11.8897
變壞	-11.8899
勿令	-11.89
中人	-11.89
亦在	-11.8901
持經之福	-11.8902
恒河沙世界	-11.8903
初標位	-11.8909
入理	-11.8911
差別故	-11.8912
分量	-11.8912
可爾	-11.8914
無所滅	-11.8916
十王	-11.8916
三千大千剎土	-11.8919
若天魔梵	-11.8919
少時	-11.8921
習近	-11.8921
遠離般若波羅蜜多	-11.8922
生喜	-11.8923
不翻	-11.8923
摩睺羅伽	-11.8923
極難信解	-11.8924
實無所行	-11.8925
大悟	-11.8925
燈燭	-11.8926
色處不可得	-11.8926
為最	-11.8928
從本	-11.893
調伏高心	-11.8931
有尋有伺	-11.8931
!』「	-11.8931
當習行般若波羅蜜	-11.8931
種種色光	-11.8932
或生異解	-11.8932
天上天下	-11.8933
其心迷悶	-11.8933
南西北方四維上下	-11.8933
與般若波羅蜜相應	-11.8934
是故問	-11.8936
偏袒右肩右膝著地	-11.8936
宿命智	-11.8937
供養多佛	-11.8938
四大天王	-11.8938
我得阿那含果不	-11.8939
而不證	-11.894
不離諸佛	-11.8941
於燃燈佛所	-11.8941
求般若波羅蜜	-11.8941
以三乘法	-11.8941
傷害	-11.8942
者梵語	-11.8943
是人不解如來所說義	-11.8943
及諸眷屬	-11.8943
應生瞋恨	-11.8945
入滅受想定	-11.8945
別立	-11.8945
我於往昔節節支解時	-11.8946
非法身	-11.8947
我佛土中得無如是	-11.8947
非學非無學	-11.8948
若修般若波羅蜜多增益圓滿	-11.8948
秋露子	-11.8948
因緣法	-11.8948
二宗	-11.8949
書持讀誦	-11.8949
杵	-11.895
所稱讚	-11.8951
有四義	-11.8951
無煩惱增語是菩薩摩訶薩	-11.8952
裹	-11.8952
我皆令入無餘涅槃而滅度之	-11.8953
心行差別	-11.8953
爛壞	-11.8953
若不取	-11.8954
一點	-11.8955
與一切有情同共迴向一切智智	-11.8955
為度眾生故	-11.8955
無說無示	-11.8956
心不相應諸行	-11.8956
□□□□□□□	-11.8956
地塵	-11.8956
六道眾生	-11.8957
乃至無有	-11.8958
化也	-11.8958
諸有所作	-11.8958
法身者	-11.8959
當證無上正等菩提	-11.896
執情	-11.896
法性生身	-11.8965
菓	-11.8966
次舉	-11.8967
般若波羅蜜多能示世間諸法實相	-11.8967
當證	-11.8968
轉識	-11.8968
起七寶塔	-11.8969
今更	-11.8969
隨說是經	-11.897
持業釋	-11.8971
不以具足相	-11.8971
兆	-11.8972
剋	-11.8972
佛語舍利弗	-11.8973
)」	-11.8973
唯言	-11.8973
▁初敘	-11.8974
如鏡	-11.8974
不能得其便	-11.8975
橋	-11.8975
深故	-11.8975
發大	-11.8975
此後	-11.8976
▁爾時	-11.8976
恠	-11.8976
無取捨	-11.8977
正示	-11.8978
鑽	-11.8979
無住行施	-11.8979
碧	-11.898
闡提	-11.898
外求	-11.898
廓然	-11.8983
方便道	-11.8983
亦不作有力不作無力	-11.8984
非空非有	-11.8984
未來法	-11.8984
筏喻	-11.8985
諸說不同	-11.8985
多福	-11.8987
福處	-11.8987
菩薩摩訶薩大乘相者	-11.8988
臆	-11.8989
洗足巳	-11.8992
若常若無常是行般若波羅蜜多	-11.8994
親屬	-11.8995
疏鈔	-11.8996
比知	-11.8997
諸界	-11.8997
常來	-11.8997
消息	-11.8997
攬	-11.8997
為大事	-11.8997
理教	-11.8998
十歲	-11.8999
歷劫	-11.9
假施設	-11.9
不習色	-11.9
夕	-11.9001
正路	-11.9001
諸難	-11.9002
根源	-11.9002
勸發	-11.9003
不和合即	-11.9003
利益一切眾生	-11.9004
無性自性	-11.9004
流傳	-11.9005
得食	-11.9005
離生死	-11.9007
雖知諸法	-11.9008
斷滅見	-11.9009
離繫	-11.9009
修斷	-11.901
三十四	-11.9011
如王	-11.9012
不出三界	-11.9012
空中無色	-11.9012
自現	-11.9012
去來今	-11.9016
願樂	-11.9018
一切法平等	-11.9019
遠離若不遠離	-11.902
一四句偈	-11.902
能作如是	-11.9021
自種	-11.9023
誦者	-11.9026
論其	-11.9026
無滅即	-11.9027
恒住	-11.9027
從何處	-11.9028
如是等諸	-11.9028
▁二引	-11.9028
寶華	-11.9028
風雨	-11.903
故次	-11.9031
所動	-11.9033
若諸菩薩欲	-11.9034
歎佛	-11.9036
始行	-11.9037
苦集滅道	-11.9037
以有所得故	-11.9038
今乃	-11.9038
亦具	-11.904
三途	-11.904
離文字	-11.9041
極惡	-11.9044
影響	-11.9046
者為作	-11.9047
五門	-11.905
即是般若波羅蜜	-11.9052
無我無人	-11.9056
無我我所	-11.9059
無自他	-11.906
幻相	-11.906
初發	-11.9061
於外空	-11.9062
其色	-11.9063
雜色	-11.9063
偈云下	-11.9065
聞是事	-11.9065
熏修	-11.9066
妙體	-11.9066
諸沙門	-11.9068
別義	-11.9069
當知是善男子	-11.9069
經從	-11.9071
乃至此是	-11.9073
次解	-11.9074
此頌	-11.9075
身念處	-11.9076
尚能	-11.9077
屬於	-11.908
口言	-11.9081
此當	-11.9081
痛想行識	-11.9082
假不生不滅	-11.9086
順理	-11.9086
可生	-11.9086
盛滿	-11.9088
修行布施乃至般若波羅蜜多	-11.909
正問	-11.909
舌識界	-11.9091
不住色等	-11.9092
亦不言	-11.9093
人俱	-11.9093
行般若波羅蜜多時	-11.9095
入胎	-11.9098
諸子	-11.91
本性空理	-11.91
傳授	-11.9101
不能破壞	-11.9101
相好莊嚴	-11.9101
即涅槃	-11.9104
今之	-11.9108
王舍	-11.9108
▁性	-11.9109
不相離	-11.9112
下經文	-11.9115
為教體	-11.9117
若如是者	-11.9117
直示	-11.9118
前生	-11.9118
如實知彼諸有情類	-11.912
見淨	-11.9124
好惡	-11.9124
若法自性無	-11.9126
況得	-11.9126
感果	-11.9127
元無	-11.9127
重明	-11.9128
向說	-11.9129
不應作	-11.913
得供養	-11.913
何時	-11.9131
異義	-11.9133
中乘	-11.9134
今亦	-11.9135
既曰	-11.9135
可著	-11.9136
非器	-11.9137
得獨覺菩提	-11.9137
如是法門	-11.9139
是水	-11.9139
爾所劫	-11.9139
虗空之	-11.914
羼提	-11.9141
無上正等菩提無二為方便	-11.9141
修行靜慮波羅蜜多	-11.9141
審諦觀察	-11.9141
亦不失	-11.9142
為菩薩乎	-11.9142
無常故	-11.9143
盲人	-11.9143
非想非非想處	-11.9144
亦不異	-11.9145
乃至意觸因緣生受	-11.9145
聞見	-11.9146
四攝法	-11.9148
此諸假名	-11.9149
為室為宅	-11.915
當得無上正等覺時	-11.915
魅	-11.9151
空無邊處天	-11.9152
禪師云	-11.9152
亦復不為	-11.9153
廣為他說	-11.9153
轉施他	-11.9154
我涅槃後	-11.9155
如是般若波羅蜜多最為甚深	-11.9156
如來不應以具足諸相見	-11.9157
隨義	-11.9157
之路	-11.9157
阿羅漢能作是念	-11.9159
伎	-11.916
堅持	-11.916
行非處	-11.9161
是故名阿那含	-11.9161
不可以三十二相得見如來	-11.9162
人眾	-11.9163
是事不然	-11.9163
第十九	-11.9164
則能修學如是般若波羅蜜多	-11.9165
不移	-11.9166
成就第一希有功德	-11.9166
是諸佛母	-11.9166
炤	-11.9166
形貌	-11.9167
宛	-11.9169
暫捨	-11.9169
鞞	-11.9169
希望	-11.9169
祠	-11.9171
不斷絕	-11.9173
心行處滅	-11.9174
垢穢	-11.9174
有菩薩乘補特伽羅	-11.9175
乃至八聖道分	-11.9175
不計	-11.9176
熾	-11.9177
亦不捨	-11.9177
化利	-11.9178
是菩薩道	-11.9178
以身布施	-11.9179
脫門	-11.9179
令得圓滿	-11.918
所謂不住色布施	-11.918
隅	-11.918
廣長舌	-11.9182
大本經	-11.9182
耨多羅	-11.9182
住時	-11.9183
沾	-11.9184
少法	-11.9184
與色	-11.9184
寢	-11.9185
咦	-11.9186
以理	-11.9186
狼	-11.9186
既滅	-11.9187
慰	-11.9187
諸法法性	-11.9187
通達無礙	-11.9188
入門	-11.9189
菩薩摩訶薩安住靜慮波羅蜜多	-11.919
欝	-11.919
空三摩地	-11.919
改變	-11.9193
十二部	-11.9193
所及	-11.9193
慧觀	-11.9194
魔民	-11.9195
不異大乘	-11.9195
至薩婆若	-11.9196
大乘不異	-11.9196
麤重	-11.9196
棒	-11.9196
說經之	-11.9197
二舉	-11.9199
發心菩薩	-11.9199
能變	-11.92
諸法性空	-11.92
間斷	-11.9201
有餘涅槃	-11.9201
咸共	-11.9202
▁初辨	-11.9203
席	-11.9204
若實	-11.9205
圓頓	-11.9205
)【	-11.9205
丘	-11.9206
不取證	-11.9206
學已	-11.9207
葛	-11.9208
剌	-11.9209
無為法中	-11.9209
色非色	-11.9211
親證	-11.9211
修布施時	-11.9212
』」	-11.9216
轉釋	-11.9217
如應者言	-11.9219
朕	-11.922
隨文	-11.9221
皆盡	-11.9221
乃至阿羅漢果	-11.9221
還來	-11.9222
非聲	-11.9222
不願	-11.9224
復有菩薩	-11.9224
此翻為	-11.9225
此謂	-11.9227
隨相	-11.9229
不應觀色界	-11.9229
經部	-11.923
三乘道	-11.9231
虛假	-11.9233
大藏	-11.9233
亦應如是	-11.9235
意欲	-11.9239
應時	-11.924
孔子	-11.924
普緣	-11.924
如來述成	-11.9241
豈無	-11.9243
分別知	-11.9243
制多	-11.9243
諸法無有	-11.9243
兩頭	-11.9244
諸佛及弟子	-11.9244
故答	-11.9244
斷欲界	-11.9245
無與等者	-11.9245
凡夫之人	-11.9246
▁波羅蜜多	-11.9246
於戒	-11.9247
善解	-11.9248
威光	-11.9249
如所說行	-11.9249
呂	-11.925
圓證	-11.925
有相之	-11.925
四眼	-11.925
多佛	-11.9251
無學道	-11.9252
無所不知	-11.9252
亦畢竟離故	-11.9252
慢等	-11.9252
以受	-11.9252
依世俗說	-11.9253
四十五	-11.9253
第三果	-11.9253
亦不作	-11.9255
從他方	-11.9256
既為	-11.9257
鑁	-11.9258
天親云	-11.926
契理	-11.926
如其所	-11.9261
地動	-11.9261
毀犯	-11.9261
成就一切	-11.9262
器世間	-11.9262
無主	-11.9264
若色處	-11.9265
無差別相	-11.9267
其有眾生	-11.9267
界塵	-11.9268
自然空	-11.927
其量	-11.9271
字句	-11.9272
異道	-11.9277
虛誑不實	-11.9278
故行般若波羅蜜	-11.928
如來之相	-11.9281
福盡	-11.9284
非如來	-11.9284
阿羅漢向	-11.9285
有所為	-11.9289
一方	-11.929
下結	-11.929
白佛言世尊	-11.9293
有失	-11.9293
相不可得故	-11.9294
顯佛	-11.9295
亦不可得故	-11.9296
住故	-11.9299
空若不空	-11.9302
是故當知	-11.9302
法華經云	-11.9302
王城	-11.9303
斷諸煩惱	-11.9304
亦有二	-11.9304
若苦聖諦	-11.9305
等取	-11.9305
所餘	-11.9307
隨佛	-11.9307
現生	-11.9311
生死海	-11.9315
難勝	-11.9317
非二乘	-11.9318
當下	-11.9323
德也	-11.9324
千倍為勝	-11.9325
不好	-11.9325
外物	-11.9325
證如	-11.9326
分為四	-11.9328
於何法	-11.9328
為言	-11.9329
之異名	-11.9329
顯揚	-11.9331
而得菩提	-11.9333
修忍	-11.9333
初發意菩薩	-11.9334
心意識	-11.9334
成實	-11.9335
為障	-11.9339
足下	-11.9341
所轉	-11.935
無來無去亦復不住	-11.9351
意言	-11.9351
若菩薩摩訶薩修	-11.9352
便見	-11.9352
義通	-11.9358
僧那僧涅	-11.9358
除世貪憂	-11.9359
得好	-11.9361
若死	-11.9361
道聖諦性空	-11.9361
不顧身命	-11.9363
亦能具攝	-11.9363
高大	-11.9364
日中	-11.9365
至理	-11.9365
盡諸所有供養恭敬	-11.9365
無所得者	-11.9365
殑伽沙	-11.9366
曼殊室利童子	-11.9366
寧可	-11.9367
不實故	-11.9368
說法也	-11.9369
識界性空	-11.9369
說聲	-11.937
直明	-11.9371
搗香	-11.9371
所薰	-11.9371
使起者	-11.9372
當覺知是為魔事	-11.9373
諸位	-11.9373
常無厭倦	-11.9375
不著故	-11.9376
難行苦行	-11.9377
識無邊處天	-11.9377
如一恒河中所有沙	-11.9378
從座而起	-11.9378
都非實有	-11.9378
雖通	-11.9379
我得斯陀含果不	-11.9379
永滅	-11.9379
細滑	-11.938
稍稍	-11.938
一切心	-11.9381
天隨念	-11.9381
生滅故	-11.9381
若人以此般若波羅蜜經	-11.9382
迴心	-11.9382
瓦石	-11.9383
咸作是念	-11.9383
譬如幻士	-11.9383
以須菩提實無所行	-11.9384
如來所說不可思議	-11.9385
此女	-11.9386
如我昔為歌利王割截身體	-11.9387
若能修學如是般若波羅蜜多	-11.9388
旬	-11.9388
如來在然燈佛所	-11.9388
波若也	-11.9392
眼處不可得	-11.9393
愍念	-11.9394
當知已	-11.9396
代歡喜	-11.9397
有此疑	-11.9398
妙吉祥曰	-11.9398
循環	-11.94
花鬘	-11.9401
悉當	-11.9401
顛倒夢想	-11.9401
若菩薩有我相	-11.9403
破彼	-11.9403
以彰	-11.9403
三輪體空	-11.9405
當知般若波羅蜜亦如是	-11.9405
諸龍	-11.9406
智光	-11.9406
所觀之境	-11.9407
糞	-11.9407
我人等四相	-11.9407
長跪	-11.9408
亦無所倚	-11.9408
已去	-11.9408
行善	-11.9408
次文	-11.9409
級	-11.9409
如幻如夢	-11.9409
宗者	-11.9409
東南	-11.941
目之	-11.941
戴	-11.9411
中所說	-11.9411
梯	-11.9414
偈頌	-11.9414
訪	-11.9415
瓦	-11.9416
不著受	-11.9416
悉空	-11.9416
耨	-11.9416
便自	-11.9417
所對	-11.942
勒	-11.942
無有法得阿耨多羅三藐三菩提	-11.9421
䇿	-11.9421
亦無無明盡	-11.9421
喧	-11.9422
革	-11.9422
如是等事	-11.9424
別行	-11.9425
秤歎	-11.9425
捧	-11.9426
預流等	-11.9426
嶽	-11.9426
如人入闇	-11.9426
茶	-11.9426
具足而住	-11.9426
流轉苦	-11.9428
諸菩薩摩訶薩所學般若波羅蜜多	-11.9428
菩提之心	-11.9428
入曼拏羅	-11.9428
如山	-11.9429
面目	-11.9429
法隨念	-11.9431
籠	-11.9432
告之曰	-11.9432
心無所住	-11.9433
譯經	-11.9434
不偏	-11.9434
有受持讀誦此經	-11.9435
施已	-11.9436
妄取	-11.9436
吠	-11.9436
他受用	-11.9438
釋梵	-11.9441
隨法	-11.9441
所愛	-11.9442
意處性空	-11.9442
亦不作有量不作無量	-11.9443
與般若波羅蜜	-11.9443
一切善根	-11.9443
世間樂	-11.9444
對面	-11.9444
所應學	-11.9444
念力	-11.9445
三昧王三昧	-11.9445
作福田	-11.9447
活命	-11.9447
得阿惟三佛	-11.9449
八十八	-11.9449
徵詰	-11.9449
宮中	-11.9449
初牒	-11.9449
善現復言	-11.9452
得福德	-11.9453
法處性空	-11.9458
若有我相	-11.9459
經福	-11.9459
答問	-11.946
尊者舍利子	-11.946
□□□□□	-11.9461
四無色定性空	-11.9462
據實	-11.9463
下方	-11.9467
信等	-11.9471
百姓	-11.9471
云何應修	-11.9471
三位	-11.9472
謂從	-11.9473
謨	-11.9474
無始來	-11.9478
復應	-11.948
婆伽	-11.9484
即非凡夫	-11.9485
而顯	-11.9487
攝彼	-11.9488
不能成辦	-11.9489
既見	-11.949
世間無性自性空相	-11.949
功德無量	-11.9494
爾故	-11.9495
是摩訶衍	-11.9496
若菩薩摩訶薩住	-11.9497
實見	-11.9497
久修	-11.9497
亦不在	-11.9498
分段生死	-11.9499
言辭	-11.95
正迴向	-11.95
可以三十二相	-11.9501
舊云	-11.9502
菩薩行般若	-11.9502
論者	-11.9502
心相應	-11.9503
法座	-11.9503
當知皆是	-11.9504
遍行	-11.9504
未達	-11.9505
法身菩薩	-11.9507
讚般若	-11.9507
青色	-11.9507
學處	-11.9508
寶山	-11.951
厭生死	-11.9511
乃至夢中	-11.9514
故次明	-11.9515
皆令安住	-11.9516
遊戲神通	-11.9517
界內	-11.9518
妙願	-11.9518
甚深經典	-11.9519
四威儀	-11.9521
此戒	-11.9524
斷無明	-11.9524
若無量	-11.9528
▁得	-11.9529
未圓	-11.9529
惑盡	-11.9532
色聲等	-11.9534
同佛	-11.9535
俱遣	-11.9538
證所求無上正等菩提	-11.9538
稱名	-11.9538
而不受	-11.9539
世間無性空相	-11.9539
念僧	-11.9542
行般若者	-11.9542
乘此	-11.9542
破滅	-11.9542
皆以無為法	-11.9543
如是之人	-11.9544
相應三昧	-11.9545
之恩	-11.9547
所宗	-11.9547
無實者	-11.9548
十地論	-11.955
過此	-11.9553
設教	-11.9556
▁三結	-11.9557
於一切法都無所	-11.9557
實相觀照	-11.9559
金剛心	-11.9559
一問答	-11.956
假設	-11.956
首陀	-11.9561
及諸佛	-11.9562
皆無有	-11.9562
果上	-11.9562
平等性智	-11.9563
故下文云	-11.9564
無惑	-11.9565
亦無所作	-11.9567
能安住	-11.9567
從何所來	-11.9568
即屬	-11.9569
既盡	-11.9571
義無所有故	-11.9572
無惱	-11.9573
舉此	-11.9574
為菩薩說	-11.9574
是名為有	-11.9575
有解	-11.9576
應觀諸法	-11.9576
並無	-11.9578
唯此	-11.9579
喧雜	-11.9582
復有疑	-11.9585
所有安忍	-11.9586
之土	-11.9586
福樂	-11.9587
能出生	-11.9589
洲渚	-11.959
展轉乃至	-11.959
起信云	-11.959
性空法	-11.9591
攝在	-11.9591
能與有情	-11.9592
與般若波羅蜜多相應	-11.9593
無明不可得	-11.9593
眼識乃至意識	-11.9595
不同故	-11.9595
乃至火劫	-11.9596
摩訶波羅蜜	-11.9596
二諦品	-11.9596
端坐	-11.9597
求佛道善男子	-11.9598
無能及者	-11.9599
離欲惡不善法	-11.96
趺	-11.96
眼界乃至眼觸為緣所生諸受	-11.9601
眾流	-11.9602
而度脫之	-11.9606
命說	-11.9606
目揵連	-11.9607
學是般若波羅蜜	-11.9609
亦應是真無漏不墮三界	-11.9609
以斯	-11.9609
得法眼淨	-11.9611
諂	-11.9611
本性無來無去亦復不住	-11.9611
自性無來無去亦復不住	-11.9611
於無上正等菩提有退轉	-11.9611
是人解我所說義不	-11.9611
毘奈耶	-11.9612
▁後方解	-11.9612
勤行精進	-11.9612
五十七	-11.9613
緣生故	-11.9613
隨喜功德	-11.9613
二十五有	-11.9614
腳	-11.9614
若人言如來有所說法	-11.9615
▁菩提	-11.9616
得值八百四千萬億那由他諸佛	-11.9616
迷謬	-11.9616
險難	-11.9617
崖	-11.9617
展轉亦無所有	-11.9617
發大莊嚴	-11.9617
無我相無人相無眾生相無壽者相	-11.9618
須菩提問佛	-11.9619
宣示	-11.962
意界乃至意觸為緣所生諸受	-11.962
若合若離	-11.962
以諸華香而散其處	-11.962
則便	-11.9621
結加趺坐	-11.9621
明法空	-11.9621
六種震動	-11.9621
如是滅度無量無數無邊眾生	-11.9622
不可以相見	-11.9623
菩薩摩訶薩欲得	-11.9624
希有者	-11.9625
無懈怠	-11.9625
或令修行	-11.9625
猗	-11.9625
壞相	-11.9626
梓	-11.9627
承當	-11.9628
狐	-11.9628
佛不度眾生	-11.963
相成	-11.963
姊	-11.9631
總持門	-11.9631
羞	-11.9632
皆亦如是	-11.9632
朽	-11.9632
印定	-11.9633
摸	-11.9633
爪	-11.9633
來生是間	-11.9633
安詳	-11.9633
如來有法眼不	-11.9634
真如無來無去亦復不住	-11.9636
遠離聲聞	-11.9636
得阿耨多羅三藐三菩提時	-11.9636
緣事	-11.9636
耐	-11.9636
之根本	-11.9637
若見有情	-11.9637
以為有我	-11.9637
不動搖	-11.9638
如來有天眼不	-11.9638
唯佛一人	-11.9638
略答	-11.9638
不黠	-11.9638
村	-11.9639
効	-11.9639
是故菩薩摩訶薩眾	-11.964
教義	-11.9641
至究竟	-11.9641
飜	-11.9641
須陀洹果乃至阿羅漢果	-11.9643
憐	-11.9644
逆流	-11.9644
諸有所說	-11.9645
貞	-11.9645
眷	-11.9645
眼界不可得	-11.9648
爰	-11.9648
色心二法	-11.9649
可思議	-11.965
辟支佛乘	-11.9652
無疑惑	-11.9652
得大菩提	-11.9652
獨露	-11.9653
不離於法界	-11.9653
豁然	-11.9653
唯識論云	-11.9654
為方便故	-11.9654
貫穿	-11.9654
如其次第	-11.9655
合會	-11.9655
罵辱	-11.9655
經首	-11.9655
秉	-11.9656
叮嚀	-11.9657
只此	-11.9657
云何般若波羅蜜多	-11.9658
巳去	-11.9658
是間	-11.9659
智慧光明	-11.966
無數菩薩	-11.9661
以色界	-11.9662
於佛法	-11.9663
無邊三摩地	-11.9664
王即	-11.9665
返照	-11.9665
為欲圓滿	-11.9666
有諍	-11.9667
我得阿羅漢道不	-11.9668
忉利天上	-11.9668
若有罪若無罪	-11.9669
勝空者言	-11.967
清辨	-11.967
靡	-11.9671
師說	-11.9672
上下界	-11.9673
乃可	-11.9674
福資糧	-11.9676
作此觀	-11.9677
何等心	-11.9678
難以	-11.9679
無生死	-11.9682
諸法亦如是	-11.9682
不犯	-11.9682
然於	-11.9684
出胎	-11.9689
作福	-11.969
兜率天上	-11.9691
斷德	-11.9692
圓極	-11.9693
於何等法	-11.9694
惟有	-11.9694
起大悲心	-11.9694
除疑	-11.9695
運用	-11.9697
倍復	-11.9697
怛囉	-11.9697
甚清淨	-11.9698
修萬行	-11.9698
▁摩訶薩	-11.9698
雜染若清淨	-11.97
無等等心	-11.97
行深般若波羅蜜	-11.97
皆非相應非不相應	-11.9705
當果	-11.9706
四向	-11.9706
廣說三乘	-11.9707
住內空乃至無性自性空	-11.9707
難言	-11.9709
歎德	-11.971
約義	-11.9711
不滿	-11.9711
或聞	-11.9712
段中	-11.9712
便知	-11.9713
不習	-11.9714
非別	-11.9717
功行	-11.9718
前七	-11.972
無忘失	-11.972
除斷	-11.9723
平聲	-11.9723
能以無相	-11.9724
是菩薩法	-11.9724
然燈如來	-11.9724
多人	-11.9725
疑意	-11.9726
無量阿僧祇世界	-11.9727
不能得便	-11.9728
甫	-11.9729
二時	-11.9733
前義	-11.9735
為諸有情宣說	-11.9738
修所斷	-11.9738
無病	-11.9739
動亂	-11.974
無涅槃	-11.9741
法本性無縛無脫	-11.9742
無所證	-11.9743
生死大苦	-11.9743
自當	-11.9743
意界不可得	-11.9743
流行	-11.9744
於般若波羅蜜中	-11.9745
勝善根	-11.9745
我不得	-11.9746
何故說	-11.9747
方有	-11.9747
即云	-11.9747
名華	-11.9748
妙香	-11.9749
故法華云	-11.9749
本具	-11.9753
最上乘者	-11.9753
失念	-11.9754
是故不應取法	-11.9758
一章	-11.9758
仁王經	-11.976
諸陀羅尼門	-11.9761
轉復	-11.9763
唯識論	-11.9763
以此法	-11.9764
求涅槃	-11.9766
速能	-11.9766
相應經典	-11.9768
土地	-11.9769
眼耳	-11.977
無滯	-11.9771
動相	-11.9771
有限量	-11.9771
之辭也	-11.9772
色界繫	-11.9773
勝用	-11.9777
佛說我見	-11.9778
十二緣	-11.9778
故爾	-11.9782
得無漏	-11.9783
𠰥	-11.9783
迴向大菩提	-11.9784
諸菩薩地	-11.9785
般若波羅蜜無邊	-11.9787
品中說	-11.979
自淨	-11.9792
超一切世間天	-11.9794
名阿耨多羅三藐三菩提	-11.9795
依此經	-11.9795
例此	-11.9796
登地	-11.9798
世間寂靜相	-11.9799
世間畢竟空相	-11.9799
因果也	-11.9799
至矣	-11.98
承事供養	-11.98
往往	-11.9801
趣涅槃	-11.9801
時會	-11.9802
退還	-11.9802
速得	-11.9802
如是無量	-11.9802
當得無上正等菩提	-11.9802
風界	-11.9804
約人	-11.9804
諸如來應正等覺	-11.9804
世間遠離相	-11.9806
般若真空	-11.9806
所不及	-11.9806
見境	-11.9806
我於此	-11.9806
又如虛空非	-11.981
依他性	-11.9811
或勸修學	-11.9812
成就如是諸行	-11.9813
布施等五波羅蜜多	-11.9813
肇	-11.9817
非一切法	-11.9818
勸勵	-11.9819
菩薩摩訶薩作如是行	-11.9819
照曜	-11.982
相合	-11.982
遠離此彼岸是	-11.9821
錯解	-11.9822
見是事已	-11.9824
勇猛正勤	-11.9824
緊那羅	-11.9825
啟咨世尊	-11.9825
能示如來	-11.9826
相而無所執	-11.9827
魔波旬	-11.9827
不復退轉	-11.9827
作此事已	-11.9829
假使充滿	-11.9829
若夫	-11.9829
斷界乃至無為界	-11.983
如心無變異	-11.983
所變化者	-11.9831
非合非散但假施設	-11.9831
失度	-11.9832
生成辦不可得	-11.9832
聞是般若波羅蜜	-11.9833
第三靜慮	-11.9834
或獨覺菩提	-11.9834
捨隨念	-11.9834
如月	-11.9834
毀訾	-11.9835
大弟子	-11.9835
趣入菩薩正性離生	-11.9835
心不亂	-11.9837
是諸恒河所有沙數	-11.9837
必具	-11.9837
可知也	-11.9838
不那中住	-11.9838
自相無來無去亦復不住	-11.9839
能悟入	-11.9839
善法者	-11.9839
皆來集會	-11.9839
四種兵	-11.984
供養承事	-11.9841
斯陀含名一往來	-11.9841
久種善根	-11.9842
所作已辦	-11.9842
佛具	-11.9842
後日分	-11.9843
良醫	-11.9843
初日分	-11.9844
離執	-11.9844
能於此經受持讀誦	-11.9844
超諸聲聞	-11.9844
有何等異	-11.9844
若菩薩摩訶薩欲證無上正等菩提	-11.9845
欲論	-11.9845
蕉	-11.9845
說到	-11.9845
剎利大姓	-11.9846
實無有法名阿羅漢	-11.9846
但從	-11.9847
無處不	-11.9847
隨此般若波羅蜜多所說法門應正信	-11.9848
佗	-11.9848
貧乏	-11.9848
竅	-11.9849
境界故	-11.9849
漏盡智	-11.985
對前	-11.9851
瑩	-11.9851
皆為非心	-11.9852
無實無虛	-11.9852
自行化他	-11.9853
三年	-11.9853
妙心	-11.9853
臭穢	-11.9853
揵	-11.9854
內空乃至	-11.9854
鎖	-11.9854
過去心	-11.9855
隨諸有情	-11.9855
屠	-11.9856
不如有人	-11.9858
為正覺	-11.9859
如應說法	-11.9859
處非處	-11.986
即實相	-11.9861
制伏	-11.9863
所詮義	-11.9863
東西南北	-11.9863
是為行般若波羅蜜	-11.9863
往到	-11.9864
無著論	-11.9864
色即是空空即是色	-11.9864
者何也	-11.9864
若有法	-11.9864
置於	-11.9865
麁惡	-11.9865
皆如幻故	-11.9866
汝可	-11.9866
洛	-11.9866
是菩薩摩訶薩行	-11.9867
壯	-11.9867
煩惱習	-11.9869
淫	-11.9869
不能出離	-11.9869
徵意	-11.9869
自恣	-11.987
在彼	-11.987
若三千大千世界中	-11.987
君子	-11.987
得無上道	-11.9872
袈裟	-11.9872
斯義	-11.9873
心王	-11.9873
善現告言	-11.9874
語言文字	-11.9875
妙吉祥	-11.9875
來往	-11.9876
安穩	-11.9877
若無常	-11.9877
怨親	-11.9878
孟	-11.9879
律儀戒	-11.9879
軸	-11.988
芳	-11.988
去來坐臥	-11.9882
字某	-11.9882
如須彌山王	-11.9882
有垢	-11.9883
枉	-11.9884
入證道	-11.9887
煞	-11.9888
閻	-11.9889
即是道	-11.989
俱盡	-11.989
佛本	-11.989
沙界	-11.989
不能行	-11.9891
作此念	-11.9891
一切菩薩摩訶薩眾	-11.9891
玄奘	-11.9891
吳	-11.9892
何故言	-11.9893
貫通	-11.9894
中央	-11.9895
若不以	-11.9896
桃	-11.9897
於色等	-11.9897
慧性	-11.9897
而滅度之	-11.9899
信經	-11.9899
后	-11.99
法器	-11.9902
不動轉	-11.9902
是比丘	-11.9904
實無生	-11.9904
四威儀中	-11.9904
摩訶衍中	-11.9907
須陀	-11.9908
已集	-11.9909
達摩	-11.9911
晝日	-11.9911
長劫	-11.9911
而謂之	-11.9912
□□□□□□	-11.9913
慧命須菩提	-11.9914
若然者	-11.9915
而般涅槃	-11.9916
離言說相	-11.9916
亦因	-11.9918
入菩薩正性離生位	-11.9919
然諸有情	-11.992
寶聚	-11.9921
攝伏	-11.9922
五逆罪	-11.9922
及弟子眾	-11.9924
遣之	-11.9925
我從佛聞	-11.9928
五眼不可得	-11.9928
除却	-11.9929
無有相	-11.993
有為無為法	-11.9931
先已說	-11.9932
皆歸	-11.9932
安心	-11.9933
歎法	-11.9933
一切障	-11.9933
依世俗故	-11.9934
故名菩薩	-11.9936
或住	-11.9937
頑空	-11.9942
神通波羅蜜多	-11.9942
名為如來	-11.9943
開善	-11.9946
智眼	-11.9947
下乘	-11.9947
說呪	-11.9947
以慈	-11.9948
亦不相違	-11.9949
大神通	-11.9949
佛現	-11.995
所以說	-11.9952
希有也	-11.9952
生住滅	-11.9952
如幻人	-11.9953
意行	-11.9953
卷四百	-11.9953
所應住	-11.996
顯經勝	-11.9964
前境	-11.9966
非有漏	-11.9966
之施	-11.9969
無相三摩地	-11.9969
段經文	-11.9969
為世間作	-11.9972
心得解脫	-11.9972
是微塵眾	-11.9973
遠離行	-11.9974
為別	-11.9975
初總明	-11.9977
非善增語是菩薩摩訶薩	-11.9977
障於	-11.9978
修行般若波羅蜜	-11.9978
甚深般若波羅蜜	-11.9982
自顯	-11.9983
得菩提耶	-11.9984
不越	-11.9984
是菩薩句義	-11.9986
一歲	-11.9986
佛又呼須菩提	-11.9988
雙修	-11.999
五時	-11.999
》《	-11.9992
白色	-11.9993
同凡夫	-11.9994
性體	-11.9995
無量佛所	-11.9996
等物	-11.9996
何疑	-11.9997
今是初	-11.9997
有增減	-11.9998
▁第二十	-11.9999
若有人能受持讀誦	-12.0003
無癡	-12.0008
不驚怖	-12.001
願聞	-12.0012
世間不可思議相	-12.0013
無損	-12.0017
非有盡法	-12.0019
所證無上正等菩提	-12.002
如來出世	-12.0024
作是施	-12.0024
法性空故	-12.0026
方始	-12.0026
謂真性	-12.0028
還得	-12.0028
若見有	-12.0028
顯法身	-12.0029
亦無生	-12.0031
何言	-12.0034
摩羅	-12.0035
刀箭	-12.0035
久修令滿	-12.0036
然上	-12.0036
今何故	-12.0037
道路	-12.0041
六神通不可得	-12.0042
離四相	-12.0042
能持法者	-12.0043
墮惡趣	-12.0044
聞是經	-12.0049
諸法無生	-12.0051
或勸修行	-12.0051
新學大乘	-12.0051
入大海	-12.0051
妙觀	-12.0052
太虗空	-12.0052
尚不能得	-12.0053
最上成就	-12.0057
令起	-12.0058
諸寶	-12.0058
代其歡喜	-12.0058
所度之	-12.0059
剎帝利大族	-12.006
菩薩殊勝神通	-12.0061
由所造業或墮	-12.0062
利刀	-12.0064
慳心	-12.0066
能救	-12.0067
復云何	-12.0068
坐妙菩提座	-12.0068
以佛眼見	-12.0069
於四衢道	-12.007
懶惰	-12.007
僧隨念	-12.007
若菩薩法	-12.0071
善女人等教贍部洲	-12.0072
作轉輪聖王	-12.0073
中千界	-12.0073
此中佛自說因緣	-12.0074
真如無盡	-12.0074
身界乃至身觸為緣所生諸受	-12.0074
無形相	-12.0075
今舉	-12.0076
無著無縛無脫	-12.0076
耳界乃至耳觸為緣所生諸受	-12.0077
鼻界乃至鼻觸為緣所生諸受	-12.0077
令速	-12.0078
六品	-12.0078
不行般若波羅蜜	-12.0078
云何菩薩不受福德	-12.0079
汝頗見	-12.0079
我從昔來所得慧眼	-12.0079
當知是人甚為希有	-12.008
諸法實相中	-12.008
廣狹	-12.008
若行受	-12.008
逼切	-12.0082
好樂	-12.0082
牢獄	-12.0083
地界不可得	-12.0083
盡未來際	-12.0085
而不作證	-12.0085
即非有我	-12.0085
人執	-12.0086
如來說非微塵	-12.0086
能學如是三解脫門	-12.0086
暇	-12.0087
論頌云	-12.0087
不滅法非一	-12.0088
識若常若無常	-12.0089
渺	-12.009
一心念	-12.0091
迦旃延	-12.0094
我滅度後	-12.0094
測量	-12.0094
了諸法	-12.0095
亦能修	-12.0095
五住	-12.0096
得大自在	-12.0097
未成就	-12.0098
大圓鏡智	-12.0099
繫念	-12.01
無成	-12.01
愛憎	-12.0101
揭諦	-12.0102
蹤	-12.0102
渴愛	-12.0102
阻	-12.0102
一切國王	-12.0103
四靜慮不可得	-12.0104
刀兵	-12.0105
享	-12.0107
漫	-12.0109
臻	-12.011
乃至於佛無上正等菩提	-12.011
眾生壽者	-12.0111
二乘無	-12.0111
剝	-12.0111
百千劫	-12.0113
瞞	-12.0114
俯	-12.0115
六十八	-12.0115
誕	-12.0115
畢竟空中	-12.0115
文勢	-12.0117
世間自性空相	-12.0118
諸文	-12.0118
字法	-12.0119
詰之	-12.012
激	-12.012
鈎	-12.012
心動	-12.0122
答意云	-12.0123
之緣	-12.0125
殞	-12.0126
徧滿	-12.0127
應化非真	-12.0127
為求無上正等菩提	-12.0128
寶冠	-12.0129
教誨	-12.013
跪	-12.013
七寶施福	-12.013
鶴	-12.0131
解其義	-12.0132
能修學甚深般若波羅蜜多	-12.0133
電光	-12.0133
上地	-12.0133
發起種種	-12.0134
次觀	-12.0134
不異幻	-12.0134
為境	-12.0134
一切菩薩摩訶薩	-12.0135
每日	-12.0135
我等當	-12.0135
能取所取	-12.0137
願行	-12.0138
妙好	-12.0139
厭患	-12.014
度苦	-12.014
姚秦	-12.0142
貞觀	-12.0143
離諸分別	-12.0144
昔有	-12.0144
檀波羅蜜乃至般若波羅蜜	-12.0145
莎	-12.0147
所立	-12.0147
頭上	-12.0147
亦復無	-12.0149
悉無所有	-12.015
生淨土	-12.015
可了	-12.0152
十二分	-12.0152
)』「	-12.0154
不住非色	-12.0156
亦無得	-12.0156
跛	-12.0156
此是科家	-12.0157
千倍	-12.0159
若屬生死若屬涅槃	-12.016
彼何	-12.016
自恃	-12.0161
與諸有情	-12.0161
大水	-12.0163
依他起	-12.0163
凡小	-12.0166
欲境	-12.0168
緣所生諸受自性空	-12.017
比丘眾	-12.017
人法二空	-12.0171
五祖	-12.0171
六因	-12.0172
不能成辦一切智智	-12.0176
不現前	-12.0176
無方便善巧故	-12.0176
我都不見	-12.0177
若法無	-12.0177
四天	-12.0177
之說也	-12.0178
除我執	-12.018
十遍處性空	-12.0181
來求	-12.0181
是妙	-12.0182
悉知悉見	-12.0184
四問	-12.0184
者是也	-12.0184
說色界	-12.0185
是不名	-12.0187
願求	-12.019
▁後明	-12.019
檀度	-12.019
聞持	-12.0192
貪瞋	-12.0192
聞此法	-12.0193
有如是沙等恒河	-12.0194
初發心菩薩	-12.0196
開覺	-12.0196
熏心	-12.0197
不可破	-12.0197
汝意	-12.0198
時遠離	-12.0202
無恐怖	-12.0203
若菩薩摩訶薩於一切法	-12.0204
喜足	-12.0205
作願	-12.0206
指經	-12.0211
當教	-12.0212
各於	-12.0215
影略	-12.0216
幾所	-12.0217
乃至十八不共法亦如是	-12.0219
一切境界	-12.0219
無漏道	-12.022
不得其便	-12.022
何緣菩薩摩訶薩	-12.0221
汝所說	-12.0224
空解脫門不可得	-12.0224
復有二種	-12.0224
云何降伏	-12.0225
施果	-12.0228
諸德	-12.023
此因	-12.023
提婆	-12.023
)。(	-12.0231
恒為	-12.0232
心懷	-12.0232
得生長	-12.0232
入海	-12.0234
壞苦	-12.0234
受請	-12.0236
如癰	-12.0236
是魔	-12.0236
三卷	-12.0236
不得不見	-12.0236
聲聞藏	-12.0241
故戒	-12.0242
違逆	-12.0242
後別	-12.0243
亦不說	-12.0246
為尊為導	-12.0247
鏡像	-12.0249
亦屬	-12.0249
不壞相	-12.0249
有無空	-12.0249
能示	-12.0249
乃至法雲地	-12.025
起念	-12.0253
神通波羅蜜	-12.0253
皆依般若波羅蜜多	-12.0254
次顯	-12.0255
自性離	-12.0258
其所得	-12.0259
下云	-12.0262
入山	-12.0263
一切法無性	-12.0263
遠離相	-12.0265
眼界空	-12.0265
地前菩薩	-12.0266
兜率	-12.0267
智障	-12.0269
今何	-12.0271
教示	-12.0271
第四果	-12.0272
隨好	-12.0273
障盡	-12.0273
邪定	-12.0273
降魔	-12.0275
骨髓	-12.0277
初中後	-12.028
入是三昧	-12.0281
思惟耳	-12.0282
化事	-12.0284
住真如乃至不思議界	-12.0284
不可說故	-12.0284
求大菩提	-12.0284
思業	-12.0286
天衣	-12.0287
之餘	-12.0288
現集善根	-12.0289
是故經言	-12.029
以福德	-12.029
非心性	-12.0291
進入	-12.0291
白法	-12.0292
無上正等覺心	-12.0293
皆稱	-12.0294
佛設利羅是極圓滿	-12.0297
無色界中	-12.0297
三般若	-12.0297
若復餘眾	-12.0297
但當	-12.0298
得見如來	-12.0299
阿素洛等最尊最勝	-12.0301
四百	-12.0302
離散	-12.0302
菩薩摩訶薩於識法中	-12.0304
則必	-12.0304
前段	-12.0305
離斷生命	-12.0306
物類	-12.0307
修遠離行	-12.0307
以無量種上妙	-12.0307
不可說義無增無減	-12.0308
樂著	-12.0308
為欲利樂諸有情故	-12.0309
乃名為	-12.031
自性無所有	-12.0311
遇佛	-12.0311
窮未來際	-12.0311
所逼	-12.0312
之罪	-12.0312
忘言	-12.0315
唯有想等想	-12.0315
中千界諸有情類	-12.0316
不會	-12.0316
戒隨念	-12.0317
業果報	-12.0317
發菩薩心者	-12.0317
略示	-12.0317
耽著	-12.0317
唯假施設	-12.0318
愁毒	-12.0319
修行六波羅蜜多	-12.0319
所緣無邊故	-12.0319
非染非淨	-12.032
在初	-12.0321
南西北方	-12.0321
如來說即非凡夫	-12.0322
斯陀含能作是念	-12.0322
聞已受持	-12.0322
▁若波羅蜜多	-12.0323
愁惱	-12.0324
疏列	-12.0325
當成	-12.0325
迷悶	-12.0326
7	-12.0326
何況有人盡能受持讀誦	-12.0326
以一切法無	-12.0326
妙高山	-12.0326
檀那波羅蜜乃至般若波羅蜜	-12.0327
巧方便	-12.0328
慼	-12.0328
悅樂	-12.0329
我皆	-12.0331
在處	-12.0331
僊	-12.0331
是菩薩行	-12.0331
無所有處定	-12.0332
所求一切智智	-12.0332
喻顯	-12.0333
黑白	-12.0333
末尼	-12.0334
多諸	-12.0336
亦勸他圓滿	-12.0336
相續隨順趣向臨入一切智智	-12.0336
不能聽受讀誦	-12.0336
佛語阿難	-12.0337
皆於無上正等菩提得不退轉	-12.0338
即說呪曰	-12.0338
愚癡顛倒	-12.0339
不顛倒心	-12.0339
畢竟淨相句義無所有不可得	-12.034
或念	-12.034
聞深般若波羅蜜多	-12.0341
除愈	-12.0341
唾	-12.0342
良藥	-12.0342
譬如大地	-12.0342
斯為	-12.0344
解言	-12.0344
得安樂	-12.0345
幢相	-12.0346
串	-12.0346
料揀	-12.0346
躭	-12.0347
外別有	-12.035
而散佛上	-12.0352
權智	-12.0352
盡能	-12.0352
明珠	-12.0353
菩薩如是學	-12.0353
暴惡	-12.0353
塵境	-12.0353
皆有佛性	-12.0353
到菩薩所	-12.0354
現在十方諸佛	-12.0354
是故我說	-12.0354
唎	-12.0355
有其三	-12.0355
亦能成辦	-12.0356
[...]
