<unk>	0
<s>	0
</s>	0
之	-4.2823
而	-4.89532
/	-4.90624
以	-5.09076
(	-5.14096
)	-5.23083
也	-5.38157
有	-5.41271
其	-5.45096
者	-5.4963
於	-5.64767
為	-5.65096
一	-5.73928
爲	-5.80879
不	-5.81043
人	-5.81657
自	-5.93481
)(	-5.94049
則	-5.98507
與	-6.01373
無	-6.02968
如	-6.07733
中	-6.08526
公	-6.11156
時	-6.13324
行	-6.21061
在	-6.21206
山	-6.24745
大	-6.26383
至	-6.26728
此	-6.2842
子	-6.31164
書	-6.31395
得	-6.32243
曰	-6.32516
亦	-6.32821
上	-6.34968
▁	-6.3612
于	-6.36785
作	-6.369
見	-6.38085
生	-6.39176
文	-6.41253
三	-6.42211
是	-6.43923
又	-6.46699
事	-6.4705
所	-6.48377
君	-6.49193
天	-6.49568
水	-6.49963
已	-6.52791
日	-6.52901
出	-6.53452
心	-6.54114
矣	-6.54156
言	-6.54161
同	-6.55154
成	-6.57043
王	-6.57347
長	-6.58986
皆	-6.59641
後	-6.59651
入	-6.60108
多	-6.60194
名	-6.6287
詩	-6.63176
故	-6.63322
下	-6.63861
非	-6.64529
及	-6.64682
來	-6.65082
然	-6.6717
今	-6.68293
復	-6.68909
可	-6.69281
風	-6.70569
相	-6.71631
明	-6.72553
二	-6.73547
未	-6.74177
傳	-6.74208
重	-6.74368
我	-6.74636
當	-6.75054
道	-6.75794
過	-6.75825
乃	-6.75965
歸	-6.76524
正	-6.77075
方	-6.78996
去	-6.79055
春	-6.79592
石	-6.79602
花	-6.79768
將	-6.8152
前	-6.81894
因	-6.82872
知	-6.83647
若	-6.83712
雲	-6.84168
用	-6.85173
聲	-6.85761
家	-6.85844
欲	-6.86466
乎	-6.86876
地	-6.91416
新	-6.94106
臣	-6.94872
先生	-6.94952
分	-6.96717
惟	-6.98067
經	-6.98098
小	-6.98152
開	-6.98389
思	-6.98404
本	-6.98605
四	-6.9898
題	-6.99499
應	-6.99967
官	-7.00239
月	-7.00554
盡	-7.00724
古	-7.01119
五	-7.0159
或	-7.02477
且	-7.02715
即	-7.0277
從	-7.03357
秋	-7.04076
初	-7.04327
清	-7.0452
先	-7.05454
字	-7.05501
意	-7.05688
稱	-7.06237
南	-7.06803
聞	-7.07064
金	-7.07222
望	-7.07348
焉	-7.07545
更	-7.07907
雖	-7.07968
玉	-7.08135
安	-7.09374
命	-7.09495
雨	-7.0966
實	-7.10606
深	-7.11024
難	-7.11209
圖	-7.12074
何	-7.12166
猶	-7.13107
能	-7.13156
處	-7.14282
合	-7.14674
云	-7.14942
兩	-7.16029
平	-7.16363
世	-7.16532
等	-7.17026
學	-7.17593
吾	-7.17601
必	-7.18256
諸	-7.18529
數	-7.18614
居	-7.18757
問	-7.19034
東	-7.19367
白	-7.20113
近	-7.20125
好	-7.20156
城	-7.20366
謂	-7.20851
觀	-7.2104
張	-7.21205
西	-7.21546
還	-7.21723
令	-7.22125
元	-7.22294
予	-7.22734
門	-7.23023
流	-7.2309
志	-7.24073
老	-7.24206
夫	-7.24376
始	-7.24624
民	-7.24668
獨	-7.25393
年	-7.25773
空	-7.25921
通	-7.26081
州	-7.26125
余	-7.26941
論	-7.26978
馬	-7.27111
定	-7.27217
髙	-7.27323
客	-7.27475
逺	-7.27687
起	-7.27982
法	-7.28865
外	-7.29169
六	-7.29219
少	-7.30036
發	-7.30067
陳	-7.30106
集	-7.30957
使	-7.30965
國	-7.31068
似	-7.3125
間	-7.31305
江	-7.31376
易	-7.31411
立	-7.31729
兵	-7.31793
遂	-7.32057
耳	-7.33392
香	-7.33433
師	-7.3382
身	-7.34602
和	-7.3492
語	-7.35139
舊	-7.35381
樂	-7.3655
情	-7.36822
神	-7.37325
九	-7.37434
周	-7.38146
光	-7.38376
取	-7.39252
興	-7.4004
向	-7.4026
林	-7.4067
寒	-7.41168
序	-7.41253
/)	-7.41478
義	-7.41559
歌	-7.41574
爾	-7.4173
尚	-7.42122
氣	-7.4225
高	-7.42404
河	-7.43425
宜	-7.44719
常	-7.44727
飛	-7.45074
各	-7.45169
李	-7.45836
既	-7.46141
餘	-7.4646
士	-7.46604
禮	-7.47394
記	-7.47727
共	-7.48233
坐	-7.48248
堂	-7.49099
夜	-7.4947
閒	-7.4962
益	-7.49766
黄	-7.49927
海	-7.50368
善	-7.50446
龍	-7.5054
北	-7.51061
舉	-7.51178
死	-7.51321
雪	-7.51373
路	-7.51977
田	-7.52507
樹	-7.52587
兮	-7.53054
朝	-7.53416
賦	-7.53704
漢	-7.53763
紅	-7.53994
斯	-7.54594
請	-7.552
畫	-7.55439
足	-7.55779
致	-7.56545
看	-7.56639
酒	-7.56765
真	-7.57538
守	-7.57846
解	-7.58057
親	-7.58725
喜	-7.60072
登	-7.60242
次	-7.60299
報	-7.60439
手	-7.60568
卽	-7.60637
衣	-7.60997
著	-7.61315
首	-7.6134
縣	-7.61535
留	-7.61595
色	-7.61689
臨	-7.61886
節	-7.62086
原	-7.62491
信	-7.62881
都	-7.62927
哉	-7.62951
寺	-7.63003
来	-7.63077
華	-7.63555
並	-7.63692
陽	-7.63749
送	-7.64678
理	-7.64922
齊	-7.65056
到	-7.65067
不能	-7.65113
仍	-7.65326
女	-7.65674
莫	-7.65978
進	-7.66036
物	-7.6617
滿	-7.66438
景	-7.66444
直	-7.66465
氏	-7.6732
甚	-7.67365
内	-7.67516
久	-7.67525
竹	-7.67572
凡	-7.68037
宗	-7.68144
落	-7.68211
修	-7.68438
母	-7.6849
顧	-7.68662
别	-7.68702
不可	-7.68727
樓	-7.68732
亭	-7.68761
萬	-7.68769
奏	-7.6877
誠	-7.69489
草	-7.69834
土	-7.69944
勝	-7.6999
青	-7.70147
求	-7.70151
八	-7.7079
百	-7.7085
木	-7.70883
度	-7.70902
引	-7.71248
半	-7.71274
由	-7.71603
德	-7.72124
治	-7.72315
任	-7.72775
曲	-7.73132
口	-7.7321
吳	-7.73439
七	-7.7352
屬	-7.73605
識	-7.73851
唐	-7.74177
敬	-7.74177
對	-7.74266
誰	-7.74675
食	-7.75068
讀	-7.75228
徳	-7.75286
齋	-7.75326
淸	-7.75487
彼	-7.75546
主	-7.75591
孫	-7.75647
力	-7.75669
兹	-7.75743
終	-7.75955
兼	-7.76263
異	-7.76318
寄	-7.76467
奉	-7.7672
載	-7.76811
葉	-7.7694
交	-7.77019
宋	-7.77416
松	-7.77484
辭	-7.77503
十	-7.77555
固	-7.77648
連	-7.77798
魚	-7.77944
臺	-7.7822
頭	-7.78594
泉	-7.78635
寧	-7.78896
夏	-7.79048
韻	-7.79143
動	-7.7965
轉	-7.79674
存	-7.80164
疑	-7.8029
全	-7.80772
愁	-7.80825
再	-7.81037
失	-7.81125
受	-7.8119
武	-7.81284
每	-7.81304
巳	-7.81333
㑹	-7.81341
游	-7.81661
說	-7.82116
贈	-7.82151
章	-7.82159
工	-7.82456
早	-7.82504
止	-7.82962
史	-7.83058
隨	-7.83512
輕	-7.83516
豈	-7.8352
遊	-7.83662
詞	-7.83702
微	-7.83762
車	-7.83787
賊	-7.83816
期	-7.84569
孤	-7.84854
幾	-7.85324
教	-7.85604
衆	-7.85665
視	-7.87089
幸	-7.8728
許	-7.87303
賜	-7.87373
溪	-7.87412
弗	-7.87435
念	-7.87604
俱	-7.87655
嵗	-7.88039
園	-7.88148
夢	-7.88804
永	-7.89034
絶	-7.89202
劉	-7.89232
便	-7.89781
廣	-7.8992
就	-7.8992
賢	-7.90048
試	-7.90196
體	-7.90348
朱	-7.90424
以爲	-7.90445
幽	-7.90483
比	-7.90501
目	-7.90522
計	-7.90623
湖	-7.9064
嘗	-7.91071
垂	-7.91252
笑	-7.91409
移	-7.91506
封	-7.91619
旣	-7.91734
仙	-7.91766
宫	-7.92356
閣	-7.92463
待	-7.92504
聖	-7.93029
服	-7.93295
省	-7.93307
祖	-7.93627
病	-7.93999
議	-7.94202
星	-7.94357
照	-7.94617
素	-7.94628
父	-7.94808
謝	-7.94987
懐	-7.95385
越	-7.95705
遇	-7.95771
指	-7.95851
影	-7.95927
聽	-7.96122
列	-7.96537
却	-7.96579
吟	-7.96838
極	-7.96845
承	-7.96963
曾	-7.97033
歲	-7.97293
注	-7.9731
忽	-7.97321
遠	-7.97913
才	-7.98296
卒	-7.98307
右	-7.98617
要	-7.98632
徐	-7.98734
感	-7.98773
刻	-7.98848
不知	-7.99023
加	-7.9907
接	-7.99384
伯	-7.99426
具	-7.99489
野	-7.99918
愛	-7.99959
性	-7.99968
功	-7.99971
收	-8.00007
秦	-8.0003
適	-8.00329
散	-8.00645
錢	-8.00809
種	-8.0095
亂	-8.00998
火	-8.01058
千	-8.01128
考	-8.01147
軒	-8.01234
被	-8.01323
苦	-8.01643
靈	-8.01743
建	-8.01867
置	-8.02049
帝	-8.02707
據	-8.02786
特	-8.02826
容	-8.0295
楚	-8.02959
但	-8.0313
音	-8.03575
雙	-8.037
殊	-8.03776
軍	-8.03852
室	-8.03873
府	-8.04
尋	-8.04401
仁	-8.04495
塵	-8.04501
漸	-8.04611
窮	-8.04653
良	-8.04656
徒	-8.0495
者也	-8.05003
遺	-8.0505
澤	-8.0549
關	-8.05509
所謂	-8.0551
改	-8.05526
往	-8.05961
政	-8.06022
精	-8.06058
變	-8.06076
利	-8.0642
露	-8.06537
尤	-8.06979
鳴	-8.07029
天下	-8.07129
波	-8.0745
驚	-8.07467
葢	-8.07689
燕	-8.07764
破	-8.07928
梅	-8.08041
依	-8.08118
詠	-8.0825
斷	-8.08642
推	-8.08999
表	-8.09659
繼	-8.09725
羣	-8.09733
羅	-8.09734
疏	-8.10005
翠	-8.10123
設	-8.10138
楊	-8.10206
代	-8.10305
御	-8.10342
隂	-8.10351
黃	-8.10588
篇	-8.10671
貴	-8.10692
蓋	-8.10766
堪	-8.10845
達	-8.11221
烟	-8.11288
願	-8.1129
廟	-8.11352
兒	-8.1156
布	-8.1172
調	-8.11902
句	-8.11952
梁	-8.11953
率	-8.11961
筆	-8.12114
嚴	-8.12156
放	-8.12206
紀	-8.12494
宿	-8.12593
結	-8.12672
撫	-8.12675
端	-8.12864
裏	-8.1287
藏	-8.13272
以為	-8.1347
積	-8.13856
尊	-8.1444
蘭	-8.14442
偏	-8.1447
昔	-8.14497
曽	-8.14537
細	-8.14545
浮	-8.14769
持	-8.14769
補	-8.14781
懷	-8.15118
眞	-8.15366
不得	-8.15384
部	-8.15636
所以	-8.15673
竒	-8.15773
荒	-8.1591
營	-8.15943
邊	-8.16032
左	-8.16479
船	-8.1653
碧	-8.1658
降	-8.16615
里	-8.17009
橋	-8.17224
逰	-8.17463
逢	-8.17633
銀	-8.17643
仲	-8.17748
最	-8.17764
雅	-8.17941
静	-8.18132
司	-8.18195
慶	-8.18199
沙	-8.18206
覺	-8.18245
汝	-8.18254
陵	-8.18495
克	-8.18737
憶	-8.19073
化	-8.19079
號	-8.19088
俗	-8.19407
美	-8.19625
恩	-8.19645
朕	-8.19669
霜	-8.1967
施	-8.19887
擬	-8.1995
侯	-8.20127
佳	-8.20223
遲	-8.203
含	-8.20376
象	-8.20421
晉	-8.20425
而不	-8.20505
偶	-8.20559
延	-8.20692
備	-8.20843
曉	-8.20949
盛	-8.2106
舟	-8.21222
總	-8.2127
靑	-8.21326
急	-8.21592
池	-8.21647
将	-8.21826
珠	-8.21918
扵	-8.22107
弟	-8.22239
郡	-8.22405
罷	-8.22426
晴	-8.22602
殘	-8.22639
孝	-8.22732
切	-8.22868
庭	-8.22979
除	-8.23015
勞	-8.23146
離	-8.23332
佛	-8.23357
示	-8.23462
制	-8.23961
資	-8.24075
反	-8.24254
紫	-8.24401
趙	-8.24502
呼	-8.24545
芳	-8.24696
惜	-8.24727
簡	-8.24782
薄	-8.24812
鄉	-8.25146
果	-8.25252
負	-8.2537
憂	-8.25674
運	-8.25727
勢	-8.25745
嘉	-8.25873
類	-8.26013
川	-8.26272
面	-8.26419
并	-8.26436
授	-8.26665
翁	-8.2691
回	-8.2694
殿	-8.27131
太	-8.27173
竟	-8.27336
詳	-8.27371
休	-8.27373
形	-8.27418
祭	-8.27806
醉	-8.27999
枝	-8.28002
卷	-8.28161
沈	-8.28347
鶴	-8.28601
村	-8.2877
僧	-8.28862
懸	-8.28883
養	-8.29325
疾	-8.29747
例	-8.30018
陸	-8.30176
祠	-8.30201
可以	-8.30288
遣	-8.30418
倚	-8.30599
濟	-8.30758
巻	-8.30996
鳥	-8.31193
遷	-8.31343
如此	-8.31531
屋	-8.31572
折	-8.32071
須	-8.32205
鄭	-8.32494
厚	-8.32559
恐	-8.32615
吏	-8.33033
福	-8.33225
某	-8.33332
緑	-8.33357
耶	-8.33521
冬	-8.33703
頻	-8.33778
謀	-8.33829
按	-8.33976
告	-8.34198
戒	-8.34374
英	-8.34455
辨	-8.34519
悲	-8.34528
江南	-8.34547
市	-8.34758
春秋	-8.34904
迎	-8.35231
勤	-8.35304
拜	-8.35404
寫	-8.35778
保	-8.36069
皇	-8.36088
阿	-8.36291
友	-8.3642
會	-8.36483
虎	-8.36485
惡	-8.36533
附	-8.3697
屢	-8.3707
翻	-8.37221
雜	-8.37573
哀	-8.37767
廢	-8.37939
曹	-8.37997
傷	-8.3809
程	-8.38111
他	-8.38116
巖	-8.38269
爭	-8.38336
墨	-8.38338
隱	-8.38448
烏	-8.38521
崇	-8.38553
業	-8.38738
徵	-8.38969
賞	-8.38987
之所	-8.39343
追	-8.39376
悉	-8.39414
横	-8.39502
恒	-8.3981
殺	-8.40086
宮	-8.40277
境	-8.40381
栁	-8.40404
典	-8.40435
圍	-8.40445
盤	-8.40626
隔	-8.40688
蘇	-8.40698
甫	-8.407
谷	-8.40726
峯	-8.40895
昭	-8.40983
順	-8.41039
虚	-8.41077
約	-8.41336
釋	-8.41429
位	-8.41609
伏	-8.41692
塞	-8.41791
習	-8.41846
商	-8.41936
君子	-8.42398
帶	-8.42501
旋	-8.42915
冠	-8.42938
維	-8.43173
闗	-8.43301
魯	-8.43309
獲	-8.43328
卿	-8.43635
秀	-8.43636
慰	-8.43801
嶺	-8.43931
碑	-8.44
申	-8.44021
宣	-8.4419
綠	-8.44367
銘	-8.44495
邑	-8.44915
息	-8.44987
投	-8.4507
獻	-8.45213
索	-8.45243
潤	-8.45298
亡	-8.45351
晩	-8.45546
舍	-8.45775
揚	-8.46235
敎	-8.46308
頗	-8.46389
忠	-8.46526
私	-8.46649
燈	-8.46667
敢	-8.467
讀書	-8.46873
煙	-8.47044
絲	-8.47288
奇	-8.47352
忘	-8.47363
詔	-8.47443
較	-8.47478
盖	-8.47548
累	-8.4755
飲	-8.47827
陰	-8.47882
勿	-8.48153
選	-8.48341
戰	-8.48351
錄	-8.48363
均	-8.48373
質	-8.48419
禁	-8.48433
胡	-8.48434
欣	-8.48517
雄	-8.48583
稍	-8.48618
魏	-8.48629
咸	-8.48744
訓	-8.48891
説	-8.4899
舞	-8.49098
源	-8.49208
丁	-8.49429
遥	-8.49445
牛	-8.49763
訪	-8.49989
諭	-8.50014
恨	-8.50044
寳	-8.50172
別	-8.50337
述	-8.50412
妙	-8.50646
器	-8.50753
豐	-8.50944
蒼	-8.5107
吉	-8.51092
殷	-8.51124
歴	-8.51164
只	-8.51238
支	-8.513
徑	-8.51391
博	-8.51511
房	-8.51543
靜	-8.51744
夀	-8.51765
鏡	-8.52118
二首	-8.52326
婦	-8.5267
漫	-8.52698
柳	-8.52813
胥	-8.5314
誤	-8.53173
射	-8.53175
仰	-8.53375
根	-8.53646
榮	-8.53816
昌	-8.53858
律	-8.53942
角	-8.53951
兄	-8.53984
免	-8.54198
畢	-8.5423
叔	-8.5438
季	-8.54486
借	-8.54568
吹	-8.54664
晚	-8.54698
抱	-8.54879
執	-8.54903
略	-8.55
錦	-8.55046
顯	-8.55091
走	-8.55492
聚	-8.55497
壽	-8.55535
荷	-8.55541
披	-8.55661
井	-8.5567
峰	-8.55798
冷	-8.55971
丹	-8.56036
闕	-8.56075
於是	-8.5616
儀	-8.56206
升	-8.56292
甲	-8.56408
館	-8.56502
今日	-8.56503
格	-8.5654
慮	-8.56649
那	-8.56811
鮮	-8.56864
甘	-8.56877
消	-8.5706
職	-8.57391
避	-8.57397
鴻	-8.57432
况	-8.57485
續	-8.57516
壁	-8.57525
采	-8.57593
歎	-8.57603
祀	-8.57924
藉	-8.58068
渡	-8.58071
恭	-8.58153
造	-8.58285
郎	-8.5857
韓	-8.5857
編	-8.58715
納	-8.58743
駐	-8.58844
候	-8.59165
㡬	-8.59368
憐	-8.59549
額	-8.59571
寛	-8.59812
莊	-8.59927
富	-8.60003
乗	-8.60005
招	-8.60737
逐	-8.60799
増	-8.61236
姑	-8.61322
衰	-8.61464
之後	-8.61468
歡	-8.61599
天子	-8.61639
務	-8.61657
印	-8.61717
談	-8.61719
農	-8.61988
符	-8.62042
杜	-8.62156
覆	-8.6216
赴	-8.62384
管	-8.62392
差	-8.62403
僕	-8.62681
鼓	-8.62789
條	-8.62814
岸	-8.62826
傍	-8.62829
狂	-8.62976
傾	-8.63279
乾	-8.63562
逸	-8.63567
三年	-8.63802
盈	-8.63848
麗	-8.63926
琴	-8.63943
給	-8.64186
禪	-8.64234
古人	-8.64244
骨	-8.64322
背	-8.6476
謹	-8.64955
機	-8.65141
展	-8.65481
麥	-8.6555
末	-8.65572
不敢	-8.65668
强	-8.65742
退	-8.65795
俾	-8.65901
惠	-8.66001
眼	-8.66069
席	-8.6614
繁	-8.66199
頌	-8.66242
京	-8.66397
底	-8.66418
攻	-8.66759
竊	-8.6682
參	-8.66824
耕	-8.66872
占	-8.66976
熟	-8.67142
孟	-8.67317
響	-8.67501
菴	-8.67593
威	-8.67761
眀	-8.67934
宅	-8.68247
庶	-8.68395
聊	-8.68562
米	-8.68621
短	-8.68841
環	-8.68896
衛	-8.69051
院	-8.69242
鎮	-8.69314
顔	-8.6932
棄	-8.69454
之事	-8.6947
跋	-8.6957
十年	-8.69578
祗	-8.6981
愚	-8.70031
供	-8.70045
萬里	-8.70693
儒	-8.7075
泥	-8.70873
侍	-8.71073
製	-8.71205
陶	-8.71797
毛	-8.71817
築	-8.71823
假	-8.7183
迴	-8.71874
步	-8.72197
薦	-8.72262
斜	-8.72454
兄弟	-8.72598
十二	-8.72635
縱	-8.72761
領	-8.7281
寶	-8.72865
閱	-8.72929
豫	-8.73133
赤	-8.73158
貧	-8.7317
昨	-8.73207
夕	-8.73257
夫人	-8.73294
匪	-8.73371
葬	-8.73566
乘	-8.73584
怨	-8.73638
費	-8.73682
逆	-8.73904
文章	-8.74109
答	-8.74176
謂之	-8.74208
想	-8.74244
扶	-8.74421
鹿	-8.7452
希	-8.74708
族	-8.74736
跡	-8.74843
馳	-8.74919
征	-8.7504
住	-8.75084
洞	-8.75086
覽	-8.75115
社	-8.75227
振	-8.75301
畧	-8.75441
滋	-8.75453
三月	-8.75594
康	-8.75608
騎	-8.7571
裁	-8.76209
圗	-8.76236
履	-8.76251
增	-8.76335
貞	-8.76341
紛	-8.76353
充	-8.76404
閲	-8.76404
案	-8.76451
虞	-8.76457
鼎	-8.76531
優	-8.76545
返	-8.76836
危	-8.76863
藥	-8.77008
慈	-8.77048
郭	-8.77095
堅	-8.77229
淚	-8.77268
錫	-8.77286
氷	-8.77895
暗	-8.779
嗣	-8.78025
界	-8.7837
辰	-8.78513
千里	-8.78586
纔	-8.7863
添	-8.78653
孔	-8.78775
凉	-8.78821
祝	-8.78931
介	-8.79048
趨	-8.79097
敗	-8.79216
察	-8.79272
乞	-8.79366
是以	-8.79481
廷	-8.7952
而後	-8.79587
毎	-8.79716
卜	-8.79847
姓	-8.80136
召	-8.8022
低	-8.80288
浪	-8.80299
豪	-8.80311
羽	-8.80421
旁	-8.80546
之言	-8.80647
瑞	-8.80868
品	-8.80869
喪	-8.80914
虛	-8.80947
痛	-8.80952
啟	-8.80967
而已	-8.81123
孺人	-8.81162
權	-8.81212
鳳	-8.81268
助	-8.81445
側	-8.81477
圓	-8.81528
擊	-8.81647
桂	-8.81714
詎	-8.81844
泰	-8.8186
科	-8.81961
輪	-8.81995
夷	-8.82139
謁	-8.82269
效	-8.82309
乍	-8.82385
邉	-8.8239
茶	-8.82523
屏	-8.82555
罪	-8.82618
值	-8.82888
舒	-8.83152
孔子	-8.83228
瞻	-8.83286
一時	-8.83384
鐘	-8.83488
無不	-8.83553
催	-8.83758
宴	-8.83807
公之	-8.83922
之間	-8.83975
縁	-8.84025
署	-8.84028
墓	-8.84167
畏	-8.84189
憑	-8.84249
暮	-8.8438
防	-8.84423
其所	-8.84517
撰	-8.84676
託	-8.84743
何處	-8.84753
階	-8.849
標	-8.85023
牧	-8.85151
籍	-8.85174
温	-8.85234
隆	-8.85393
霞	-8.856
呉	-8.85656
壯	-8.85721
涼	-8.8573
哭	-8.85731
羊	-8.85789
何以	-8.85793
奔	-8.8584
亦有	-8.85843
潮	-8.86025
量	-8.86036
統	-8.86103
雷	-8.86165
乆	-8.86221
駕	-8.86291
眠	-8.86517
役	-8.86529
不足	-8.86534
材	-8.86561
聴	-8.86703
妻	-8.86739
疎	-8.86789
趣	-8.86906
專	-8.86943
淺	-8.87042
户	-8.87043
銅	-8.87081
勒	-8.87106
岀	-8.87544
糧	-8.87622
尚書	-8.87663
鄕	-8.87703
旗	-8.87736
抵	-8.87745
輿	-8.87794
以來	-8.88027
躬	-8.88144
滅	-8.88259
否	-8.88282
倍	-8.88309
烈	-8.88348
勸	-8.88506
尾	-8.88518
愧	-8.88603
尙	-8.88625
不見	-8.88742
掌	-8.888
厯	-8.88845
宇	-8.88933
速	-8.89173
將軍	-8.89195
譜	-8.89501
凝	-8.8977
祥	-8.89779
天地	-8.89875
㸔	-8.89916
繞	-8.90041
第	-8.90076
輩	-8.90399
貢	-8.90426
內	-8.90483
齒	-8.9052
味	-8.90585
停	-8.90637
蕭	-8.90658
慕	-8.90676
拂	-8.90722
叶	-8.90779
宻	-8.90858
浦	-8.90858
排	-8.9096
一日	-8.91004
督	-8.91045
查	-8.91146
地方	-8.91203
至於	-8.91238
翼	-8.91437
隠	-8.91461
今年	-8.91547
偕	-8.9159
密	-8.91732
聖人	-8.91753
沒	-8.91767
逮	-8.91828
掩	-8.91856
肅	-8.91858
衡	-8.91904
刑	-8.91945
減	-8.92187
險	-8.92206
爰	-8.9226
洪	-8.92314
不及	-8.92381
愈	-8.92444
委	-8.92485
映	-8.92543
蜀	-8.92576
之學	-8.9273
操	-8.92759
奪	-8.92767
叢	-8.92776
雞	-8.9321
誦	-8.93258
迷	-8.93285
允	-8.93295
嗚呼	-8.93301
循	-8.93311
董	-8.9349
校	-8.9357
艱	-8.93725
於此	-8.93736
班	-8.93739
戴	-8.93742
干	-8.93814
呈	-8.93984
澄	-8.94002
斗	-8.94128
㫖	-8.94143
茂	-8.94267
漏	-8.94432
至今	-8.94627
妄	-8.94815
徧	-8.94836
繫	-8.94928
争	-8.94969
懼	-8.95036
規	-8.95075
探	-8.95126
彌	-8.95145
吐	-8.9521
禽	-8.95238
敦	-8.95438
究	-8.95707
雁	-8.95795
伊	-8.95802
融	-8.95854
淵	-8.96118
枕	-8.96158
之意	-8.96188
童	-8.96191
學士	-8.96195
慎	-8.96237
諱	-8.96291
輒	-8.96311
䝉	-8.96582
鍾	-8.9664
輸	-8.96646
卧	-8.96681
繡	-8.96711
畱	-8.96943
徴	-8.97114
穿	-8.97225
蒙	-8.97412
棲	-8.97676
式	-8.978
際	-8.97841
脫	-8.98022
奚	-8.98158
歩	-8.98254
當時	-8.98553
註	-8.98642
䕶	-8.98742
僅	-8.98949
暖	-8.99097
谿	-8.99185
絕	-8.99211
煩	-8.99263
湯	-8.99496
畔	-8.99515
洗	-8.99558
困	-8.99597
狀	-8.99694
刺	-8.99776
塘	-8.99859
録	-8.99959
付	-9.00099
遵	-9.00331
怒	-9.00376
配	-9.00421
遍	-9.00473
桑	-9.00531
責	-9.00842
完	-9.00926
州縣	-9.00952
審	-9.0108
智	-9.01157
盧	-9.01216
侵	-9.01282
弱	-9.01398
之文	-9.01502
悟	-9.01519
寓	-9.01573
寜	-9.0166
鬼	-9.0167
午	-9.01745
把	-9.02045
倫	-9.02227
言之	-9.0229
徃	-9.02492
講	-9.02506
朱子	-9.02612
禹	-9.02739
亟	-9.02752
監	-9.02773
擁	-9.02905
巧	-9.03019
戸	-9.03213
抑	-9.03232
枯	-9.03301
爽	-9.03435
鐵	-9.03472
之說	-9.03638
䇿	-9.03652
暢	-9.03825
其後	-9.03894
冊	-9.03925
京師	-9.03926
孰	-9.04023
衞	-9.04045
爵	-9.04049
菊	-9.04203
泛	-9.04274
○	-9.04312
左右	-9.04314
頓	-9.04558
厥	-9.04562
人之	-9.04584
尺	-9.04613
窺	-9.04669
丘	-9.04674
風雨	-9.04708
晨	-9.04761
硯	-9.04826
藻	-9.05166
震	-9.05192
鄰	-9.05225
渠	-9.05308
朗	-9.05395
山水	-9.05701
蓮	-9.05787
故人	-9.05924
缺	-9.06015
燭	-9.06031
霑	-9.06103
無所	-9.06109
綺	-9.06171
奴	-9.0618
悔	-9.06329
疊	-9.06389
眉	-9.06435
窗	-9.06624
庸	-9.06805
東南	-9.06806
祇	-9.06894
珍	-9.0698
苗	-9.07001
塔	-9.07027
然而	-9.07047
范	-9.07127
不如	-9.072
唱	-9.07253
學者	-9.07257
怪	-9.07364
簾	-9.07365
淮	-9.07395
邀	-9.07513
鳯	-9.0763
買	-9.07777
蔵	-9.07856
欽	-9.07928
決	-9.07939
府君	-9.08196
春風	-9.08215
憲	-9.08303
互	-9.08323
厲	-9.08383
牽	-9.08395
佐	-9.08533
炎	-9.08631
倒	-9.08655
橫	-9.08912
邦	-9.09003
剛	-9.09022
救	-9.09062
刀	-9.09115
錯	-9.09162
二月	-9.0951
風流	-9.09556
讓	-9.09558
以後	-9.09603
郊	-9.09654
植	-9.09792
姿	-9.09844
潛	-9.09855
勇	-9.09916
協	-9.09925
巢	-9.09963
饒	-9.09982
濃	-9.10161
己	-9.10167
之義	-9.10246
緩	-9.10322
其人	-9.10331
不同	-9.10479
有所	-9.10481
粉	-9.10485
誇	-9.10529
援	-9.10632
霧	-9.10687
廬	-9.10767
蔡	-9.10882
暫	-9.10903
皇上	-9.10914
古今	-9.10937
長安	-9.11123
黨	-9.11161
苑	-9.11163
屯	-9.11384
然則	-9.11389
啓	-9.11477
邪	-9.11635
之地	-9.11638
採	-9.11838
俯	-9.11987
康熙	-9.1205
騰	-9.12078
賈	-9.12085
違	-9.12185
冰	-9.12563
之人	-9.12599
桃	-9.12699
矢	-9.12805
柔	-9.12821
㣲	-9.12853
大夫	-9.12868
崖	-9.1287
廻	-9.13048
仕	-9.13188
途	-9.13415
子孫	-9.13421
契	-9.13426
酬	-9.13428
進士	-9.13436
貫	-9.13459
銜	-9.13499
渾	-9.13546
之中	-9.13593
血	-9.13669
課	-9.13679
預	-9.13717
賴	-9.13727
靡	-9.1375
澗	-9.13861
犯	-9.13918
不必	-9.13994
策	-9.14118
沉	-9.14159
兆	-9.1419
澹	-9.14238
囘	-9.14411
随	-9.14516
淡	-9.14517
柱	-9.14517
幼	-9.14564
襲	-9.14575
擇	-9.14631
第一	-9.14642
篤	-9.14756
塗	-9.14935
弄	-9.14967
遭	-9.14973
上下	-9.15099
巨	-9.15125
贊	-9.15197
人間	-9.15282
漁	-9.15294
乾隆	-9.15299
壇	-9.15308
爲之	-9.15363
戲	-9.15497
汪	-9.15738
鹽	-9.15863
未嘗	-9.15918
一人	-9.15959
忍	-9.1605
千秋	-9.16091
其事	-9.16097
有餘	-9.1617
諸生	-9.16306
術	-9.1685
曰吾	-9.16873
肆	-9.17029
貽	-9.17033
緣	-9.17101
籌	-9.17283
勉	-9.17309
即事	-9.17346
雕	-9.17368
為之	-9.17639
係	-9.17666
阻	-9.17711
之書	-9.17712
巴	-9.17783
白雲	-9.17834
患	-9.17924
必有	-9.18029
五月	-9.18132
劍	-9.18254
朔	-9.1834
㸃	-9.18442
也夫	-9.18579
湘	-9.18598
驛	-9.18614
鑒	-9.18837
津	-9.18845
今嵗	-9.18871
牀	-9.18946
逾	-9.18998
歳	-9.19215
染	-9.19228
毋	-9.1927
山東	-9.19273
六月	-9.19284
紙	-9.19376
獄	-9.19403
詣	-9.19499
帖	-9.19523
層	-9.19554
宵	-9.19591
凌	-9.19758
稽	-9.19865
南北	-9.19921
山中	-9.20284
敵	-9.20576
昏	-9.20835
況	-9.20861
飄	-9.20903
倉	-9.20989
快	-9.20994
肯	-9.21077
俟	-9.211
鎭	-9.21104
畵	-9.21126
苟	-9.2126
也其	-9.21302
䖍	-9.21325
災	-9.21334
洲	-9.21402
璧	-9.2146
脩	-9.21539
竝	-9.21628
旌	-9.21685
牙	-9.21691
▁(	-9.21731
壓	-9.21805
話	-9.21848
提	-9.21863
桐	-9.21916
座	-9.21929
泣	-9.21976
旅	-9.22002
如何	-9.22019
不過	-9.22029
算	-9.22051
魂	-9.22126
咏	-9.22314
厭	-9.22381
貯	-9.22451
垣	-9.22547
害	-9.22609
逃	-9.22676
之士	-9.22703
瓦	-9.22738
之道	-9.22741
禍	-9.22763
啼	-9.22944
以此	-9.2303
健	-9.2305
未有	-9.23061
輔	-9.23169
可謂	-9.2322
吴	-9.23351
普	-9.23371
平生	-9.23433
闢	-9.23611
削	-9.23719
如是	-9.23799
足以	-9.23812
派	-9.23858
蕩	-9.24223
盜	-9.24294
墜	-9.24297
堯	-9.24382
蠻	-9.24432
霽	-9.24447
伐	-9.24517
晝	-9.24556
酌	-9.24563
國家	-9.2461
驅	-9.24627
穆	-9.24642
嫌	-9.24662
馮	-9.2481
練	-9.24895
是也	-9.24994
百年	-9.25034
冀	-9.25068
籠	-9.25174
寸	-9.25251
當年	-9.2537
逹	-9.25414
杖	-9.25703
伴	-9.25933
稀	-9.2608
之心	-9.26404
弓	-9.26436
蒲	-9.26482
者亦	-9.26608
屈	-9.26612
恰	-9.26632
了	-9.26681
隄	-9.26693
攜	-9.26896
藩	-9.27136
四月	-9.27326
傅	-9.27423
八月	-9.27461
純	-9.27562
窓	-9.27689
激	-9.2769
何如	-9.27706
寡	-9.27783
飾	-9.27855
導	-9.27877
岡	-9.27946
産	-9.27959
祈	-9.28008
大臣	-9.28042
曠	-9.28055
腹	-9.28056
誌	-9.28088
袁	-9.281
奮	-9.28134
超	-9.28171
鸞	-9.28177
未能	-9.28466
丗	-9.28467
束	-9.28526
距	-9.28528
杯	-9.28799
穀	-9.28901
掃	-9.28933
卦	-9.28973
閩	-9.28994
瓊	-9.29231
司馬	-9.2924
限	-9.29266
篆	-9.29293
競	-9.29307
嗟	-9.29328
従	-9.29403
桃花	-9.29465
其中	-9.29843
也今	-9.29867
粟	-9.29918
卑	-9.29984
膏	-9.30014
飯	-9.3015
唯	-9.30219
有司	-9.30304
囊	-9.3036
二十	-9.30372
徙	-9.30488
巡	-9.30527
日月	-9.30576
肉	-9.30592
貪	-9.30597
殆	-9.30597
飽	-9.30725
秉	-9.30795
後人	-9.30803
二年	-9.30897
享	-9.30923
衝	-9.30925
肥	-9.31086
靖	-9.31157
之時	-9.31203
叅	-9.3121
圃	-9.3123
觸	-9.31287
價	-9.31452
扇	-9.3147
副	-9.31534
誅	-9.31581
孟子	-9.31599
之日	-9.3168
是日	-9.31853
梅花	-9.31876
濕	-9.31876
没	-9.31881
旦	-9.31945
鬱	-9.31957
項	-9.32043
者皆	-9.32166
歟	-9.32221
熱	-9.32285
慙	-9.32294
郞	-9.32333
夫子	-9.324
頒	-9.3252
其言	-9.3256
賔	-9.32563
遽	-9.32664
堤	-9.32842
四首	-9.32858
茅	-9.32964
三日	-9.33111
潔	-9.33313
然後	-9.3334
后	-9.3335
嘆	-9.33405
䖏	-9.33456
單	-9.33531
叟	-9.33601
不以	-9.33818
不復	-9.33872
現	-9.33935
擅	-9.3394
劇	-9.3408
墻	-9.34199
證	-9.34322
鑑	-9.34342
穴	-9.34375
該	-9.34448
蟲	-9.34623
點	-9.34663
捐	-9.34679
寢	-9.34933
革	-9.35037
之法	-9.35219
迹	-9.35219
父母	-9.35273
網	-9.3551
絃	-9.35513
辦	-9.35646
育	-9.35698
邱	-9.3573
踰	-9.35798
員	-9.35851
牆	-9.3591
蔽	-9.36158
緒	-9.36235
七月	-9.36303
紹	-9.3634
敏	-9.36473
奏報	-9.3667
賀	-9.36684
河南	-9.3673
態	-9.36734
之名	-9.36739
庵	-9.36743
麟	-9.36754
寅	-9.36796
玩	-9.36815
銷	-9.3683
後世	-9.36899
暑	-9.36994
徹	-9.36995
創	-9.37
亦不	-9.37092
之作	-9.37256
弟子	-9.37258
涉	-9.37277
彈	-9.37319
攷	-9.37349
岳	-9.37484
幻	-9.37531
帳	-9.37541
鞭	-9.37549
凍	-9.37722
可憐	-9.37725
姚	-9.38181
中有	-9.38206
以下	-9.38219
矜	-9.38257
姬	-9.38337
潭	-9.38404
十三	-9.38799
乳	-9.38897
衍	-9.38919
恵	-9.38956
晦	-9.39183
歷	-9.39263
筵	-9.39279
而無	-9.39302
墮	-9.39429
輝	-9.39465
詢	-9.39475
臥	-9.39495
簷	-9.39859
謬	-9.39877
什	-9.39924
賣	-9.40041
鑿	-9.40259
宏	-9.40261
何必	-9.40407
七十	-9.40444
芝	-9.40446
綴	-9.40541
依然	-9.40571
踈	-9.40765
彭	-9.4081
損	-9.40884
壑	-9.4105
喻	-9.41053
主人	-9.41064
暨	-9.41113
西山	-9.41135
繩	-9.41165
績	-9.41197
餉	-9.414
㫁	-9.41462
東西	-9.41543
得雨	-9.41609
焚	-9.41683
夙	-9.41701
換	-9.41711
輯	-9.41751
古文	-9.41879
佩	-9.42018
所云	-9.42054
夜雨	-9.42087
織	-9.42124
俊	-9.42197
頂	-9.42284
踏	-9.42334
十月	-9.42336
羞	-9.4234
其子	-9.42398
之際	-9.42647
姜	-9.42653
縈	-9.42763
財	-9.42798
五年	-9.42809
御史	-9.42924
閑	-9.42982
鄙	-9.4302
帆	-9.4306
漲	-9.4308
雀	-9.4314
喧	-9.43196
韋	-9.43207
壘	-9.43217
儲	-9.4327
閉	-9.43309
足下	-9.43325
皆有	-9.43386
賑	-9.43391
浙江	-9.4347
磨	-9.43482
諸臣	-9.43763
鋪	-9.43774
沿	-9.4389
史記	-9.43966
基	-9.44041
淨	-9.44201
辟	-9.44266
翰	-9.44304
苔	-9.44421
西南	-9.44627
疆	-9.44632
繪	-9.44653
五十	-9.44654
槐	-9.44738
撥	-9.44744
逼	-9.44751
勲	-9.44757
欽定四庫全書	-9.44772
敘	-9.44941
藝	-9.44947
尹	-9.44997
架	-9.44999
草堂	-9.45025
料	-9.4504
包	-9.45085
正月	-9.45157
廉	-9.45178
十六	-9.45179
蹟	-9.45231
十一	-9.45254
太守	-9.45304
属	-9.45459
襟	-9.45517
熊	-9.45545
倣	-9.45551
知其	-9.45552
一切	-9.45623
周公	-9.45638
榖	-9.45748
六十	-9.4581
十五	-9.45824
旱	-9.46053
戍	-9.46116
九月	-9.46154
塲	-9.462
飮	-9.4628
荆	-9.46298
之外	-9.46418
活	-9.46427
腰	-9.46465
髪	-9.46499
挂	-9.46605
丈	-9.46615
山川	-9.46748
玄	-9.46942
覩	-9.47022
叩	-9.47027
戎	-9.47048
搆	-9.47176
痕	-9.47178
浄	-9.47217
之曰	-9.47374
陣	-9.47468
往往	-9.4767
像	-9.47756
娶	-9.47911
文字	-9.47928
討	-9.48169
觴	-9.48197
溝	-9.48199
朝廷	-9.48205
揚州	-9.48245
之詩	-9.48287
賓	-9.48505
輙	-9.48717
襄	-9.48788
繇	-9.48976
千古	-9.48978
芙蓉	-9.4902
肩	-9.49057
堆	-9.49104
邨	-9.49109
零	-9.49238
汗	-9.4936
灰	-9.49444
是時	-9.49453
擢	-9.49486
几	-9.49518
不忍	-9.49533
整	-9.49565
幕	-9.49608
也而	-9.49633
賤	-9.4965
前後	-9.4978
局	-9.49799
寂	-9.49867
庶幾	-9.49925
蔚	-9.49967
菜	-9.49969
天下之	-9.49993
遙	-9.50042
口號	-9.50056
秋風	-9.50075
迥	-9.50099
諫	-9.50313
摩	-9.50316
譽	-9.50405
其間	-9.50522
貌	-9.50587
荅	-9.50641
何人	-9.50662
佑	-9.50703
憩	-9.50753
隴	-9.50861
坊	-9.50882
官兵	-9.50885
打	-9.50896
寵	-9.50917
拔	-9.51002
樸	-9.5105
尚未	-9.51096
巡撫	-9.51254
决	-9.51319
饑	-9.51385
獵	-9.51444
十八	-9.51467
醫	-9.51468
浙	-9.51516
黙	-9.51526
研	-9.51564
鴉	-9.51723
灑	-9.5183
人心	-9.51881
箋	-9.51898
戀	-9.51933
漕	-9.51963
逕	-9.52005
飭	-9.52005
公子	-9.52018
大學士	-9.52026
敷	-9.52053
燒	-9.52088
裝	-9.5212
濤	-9.5215
諸公	-9.52168
觧	-9.52204
誓	-9.52274
羡	-9.52284
徘徊	-9.5238
幷	-9.52406
千載	-9.5241
洛	-9.52482
尚有	-9.52535
驗	-9.52596
四方	-9.52599
夕陽	-9.52601
竄	-9.52729
阮	-9.52746
勵	-9.52902
一片	-9.52979
舎	-9.53085
以示	-9.53138
崔	-9.53227
斬	-9.53393
去嵗	-9.53444
遮	-9.53492
三首	-9.53521
淳	-9.5356
割	-9.53572
隣	-9.53718
明年	-9.53729
旬	-9.53773
西北	-9.54113
百里	-9.54191
埋	-9.54227
風吹	-9.54299
截	-9.54519
蓬	-9.54594
寨	-9.54699
髮	-9.54832
謙	-9.54867
皇帝	-9.54906
旨	-9.54945
妾	-9.54985
蔣	-9.55005
書屋	-9.55009
翔	-9.55013
綿	-9.55069
得其	-9.55086
警	-9.55093
皮	-9.55118
茲	-9.55152
一二	-9.55212
巷	-9.55242
渥	-9.55263
黍	-9.55362
奸	-9.55451
太夫人	-9.55489
者乎	-9.55492
妍	-9.55493
雍	-9.55588
剪	-9.55605
潘	-9.55714
生平	-9.55802
欺	-9.55923
愼	-9.55932
葛	-9.55967
諸子	-9.56018
奠	-9.56026
宛	-9.56201
不為	-9.56246
蓄	-9.56392
世之	-9.5645
蟬	-9.56468
吿	-9.56504
頃	-9.56543
不勝	-9.56626
畨	-9.56672
靣	-9.56686
挾	-9.56814
辛	-9.56917
評	-9.57024
之子	-9.57027
先後	-9.57034
板	-9.57083
陪	-9.57148
捕	-9.57233
其地	-9.57321
駐蹕	-9.57347
又曰	-9.57592
君之	-9.57594
不然	-9.57617
無人	-9.57677
揮	-9.57806
忩	-9.57839
也故	-9.57877
東風	-9.57884
攀	-9.57902
遜	-9.57945
攬	-9.58021
壺	-9.58027
溢	-9.5813
㳺	-9.58142
醒	-9.58151
蝶	-9.58166
八十	-9.58293
桓	-9.58305
竿	-9.58316
郷	-9.58342
泊	-9.58406
倘	-9.58466
蒸	-9.58487
侍郎	-9.58528
暴	-9.58593
暇	-9.58596
御園	-9.5882
宰	-9.58939
之句	-9.58947
勅	-9.58949
行宫	-9.58993
總督	-9.59007
則有	-9.59036
砌	-9.59057
摹	-9.59289
毁	-9.59416
三十	-9.59575
灘	-9.59622
坡	-9.59624
涵	-9.59743
薛	-9.59758
之故	-9.59775
梵	-9.59786
漢書	-9.59861
舌	-9.59878
誰能	-9.5991
十里	-9.5993
少年	-9.59933
倦	-9.59938
析	-9.60111
弊	-9.60155
次第	-9.6018
人也	-9.60202
自是	-9.60228
灌	-9.60349
裂	-9.60351
誣	-9.60405
齡	-9.60551
其文	-9.60661
遐	-9.60704
恤	-9.60872
耀	-9.60944
綵	-9.61009
鱗	-9.61018
裕	-9.61061
十日	-9.61065
檄	-9.61173
諸侯	-9.61186
香山	-9.6123
以上	-9.61368
強	-9.61406
鼔	-9.6141
江西	-9.61672
詩以誌事	-9.6169
此時	-9.61691
遼	-9.61716
先生之	-9.61743
僞	-9.61797
舜	-9.61819
慧	-9.61862
陋	-9.61915
夾	-9.6195
千年	-9.6199
辱	-9.62064
韶	-9.62194
斥	-9.62202
㴱	-9.62203
安得	-9.62291
嶽	-9.62318
函	-9.62339
促	-9.62446
臯	-9.62481
膺	-9.62551
坤	-9.62572
挽	-9.62849
慚	-9.6294
臂	-9.62941
雨後	-9.62942
又有	-9.6296
處士	-9.62979
出於	-9.62985
禾	-9.6301
藴	-9.63185
樵	-9.6328
訟	-9.63374
咨	-9.6339
者其	-9.63431
渚	-9.6349
片	-9.63594
陟	-9.63643
之徒	-9.63643
海内	-9.63692
需	-9.63743
鈎	-9.63788
圭	-9.63811
明月	-9.63925
搜	-9.63936
確	-9.6415
叙	-9.64243
仗	-9.6429
錢糧	-9.64377
溯	-9.64454
一帶	-9.64489
核	-9.64519
恥	-9.64703
叠	-9.64715
豆	-9.64877
笛	-9.64888
陷	-9.65071
禄	-9.65173
倡	-9.65254
釣	-9.6533
眺	-9.65429
睡	-9.65475
子弟	-9.65533
訝	-9.65595
盼	-9.65635
床	-9.65741
捧	-9.65778
𢎞	-9.65874
其餘	-9.65959
今朝	-9.6598
瓜	-9.66171
去年	-9.66225
祿	-9.66228
殁	-9.66274
者則	-9.66351
迨	-9.66435
瑶	-9.66461
醇	-9.66471
逝	-9.6655
恃	-9.66554
故曰	-9.66863
峻	-9.66882
抗	-9.66923
摘	-9.66931
妃	-9.66951
各有	-9.6697
大小	-9.67003
斂	-9.67024
纎	-9.6707
摧	-9.6716
元年	-9.67231
番	-9.67253
喬	-9.67318
携	-9.67335
區	-9.67417
飢	-9.67419
豈不	-9.67443
喚	-9.67448
萬物	-9.67453
帥	-9.67546
父子	-9.67574
鶯	-9.67617
洋	-9.67642
抽	-9.67712
舫	-9.67735
渉	-9.67744
摇	-9.67786
熙	-9.67841
榻	-9.6785
棹	-9.68021
滴	-9.68142
藤	-9.68182
乏	-9.68275
札	-9.68321
之所以	-9.68353
弔	-9.68363
粤	-9.6841
蚤	-9.68428
脱	-9.68639
蘆	-9.687
六年	-9.68725
亦可	-9.6882
皇祖	-9.68856
絮	-9.68884
庫	-9.6898
所見	-9.68987
恣	-9.69153
儉	-9.69155
聞之	-9.69158
即景	-9.69215
秩	-9.69224
護	-9.69258
腸	-9.69277
檢	-9.69304
障	-9.69312
擾	-9.69403
玊	-9.69552
媚	-9.69681
此地	-9.69743
冶	-9.69747
敝	-9.69762
漾	-9.69772
之功	-9.69856
灣	-9.69907
牕	-9.70087
彦	-9.70166
黑	-9.70202
裘	-9.70218
捷	-9.70266
嫁	-9.70293
衷	-9.70321
士大夫	-9.70325
毫	-9.70352
釐	-9.70459
攝	-9.70485
偉	-9.70561
突	-9.70662
廊	-9.70711
梧	-9.70735
麻	-9.70782
蠲	-9.70822
柏	-9.70904
肇	-9.70915
西湖	-9.70918
峙	-9.70931
龜	-9.70976
沛	-9.71017
山莊	-9.71073
往來	-9.71179
巾	-9.712
稻	-9.71225
韵	-9.71235
流水	-9.71346
沐	-9.7136
亮	-9.71424
不盡	-9.71474
幅	-9.7162
二人	-9.71654
自有	-9.71696
淑	-9.71699
天涯	-9.71716
牖	-9.7176
之餘	-9.71764
戚	-9.71765
浸	-9.71866
托	-9.71876
青山	-9.71877
驕	-9.71886
四十	-9.7191
邵	-9.72086
西風	-9.72093
阜	-9.72109
一卷	-9.7215
彩	-9.72218
不可以	-9.7225
莫不	-9.72539
弦	-9.7268
一年	-9.72698
勘	-9.7271
其二	-9.7281
黎	-9.72925
滯	-9.72973
鈔	-9.73083
匿	-9.73084
十四	-9.73163
黒	-9.73184
四年	-9.73293
可知	-9.73415
盟	-9.73587
惕	-9.736
焦	-9.73621
諧	-9.73648
眷	-9.73666
場	-9.73667
一字	-9.73669
箭	-9.73839
鵲	-9.73941
歛	-9.73983
崇禎	-9.74052
其時	-9.74061
拙	-9.7417
鴈	-9.74188
杏	-9.74253
宦	-9.74312
以致	-9.74427
于是	-9.74465
檻	-9.7456
不用	-9.7461
吕	-9.74652
拉	-9.74692
此日	-9.74694
朋	-9.74698
徽	-9.74713
浴	-9.74741
人生	-9.74767
門外	-9.74831
相思	-9.74868
岑	-9.74989
判	-9.75055
五日	-9.75055
九日	-9.75093
十二月	-9.75112
不在	-9.75122
播	-9.75133
不爲	-9.75174
忌	-9.75236
嬌	-9.75241
遁	-9.753
賦得	-9.75309
江上	-9.75383
盆	-9.75464
碎	-9.75495
街	-9.75588
雉	-9.7565
樞	-9.75669
哈	-9.75852
着	-9.75856
懿	-9.75871
刋	-9.7598
太平	-9.76013
餐	-9.76016
擒	-9.76041
沾	-9.76051
魄	-9.7613
訂	-9.7616
䟽	-9.76209
城南	-9.76235
吏部	-9.76281
湛	-9.7629
得句	-9.76345
不相	-9.76442
未必	-9.76542
惑	-9.76544
歇	-9.7661
傲	-9.76655
褒	-9.76663
孝子	-9.76775
拒	-9.7679
卉	-9.76799
聨	-9.76957
洽	-9.76975
不肯	-9.77076
等語	-9.77157
認	-9.77259
版	-9.77408
之於	-9.77427
竭	-9.77599
豁	-9.77773
眾	-9.77896
中丞	-9.77901
準	-9.77903
金陵	-9.77908
曰此	-9.77915
楹	-9.78092
壞	-9.781
訛	-9.78151
叛	-9.78168
草木	-9.78175
劒	-9.78213
緯	-9.78316
枉	-9.78335
者以	-9.78347
帷	-9.78356
三千	-9.78448
爛	-9.78465
銘曰	-9.78484
一首	-9.78498
文武	-9.78596
扉	-9.78779
見於	-9.78802
以前	-9.78815
絳	-9.78948
域	-9.78949
聘	-9.78988
滌	-9.79011
柯	-9.79029
肖	-9.79069
秘	-9.79109
說文	-9.79117
江湖	-9.79143
周禮	-9.79156
肰	-9.79175
翦	-9.79213
之盛	-9.79299
今之	-9.79347
拈	-9.79374
禦	-9.79395
黔	-9.79423
使君	-9.79431
二十年	-9.79435
甲子	-9.79526
何事	-9.79529
茗	-9.7955
數年	-9.79667
廵	-9.79692
洵	-9.79716
者必	-9.79752
冒	-9.79788
不足以	-9.79797
邁	-9.79807
卓	-9.79833
之志	-9.79862
掠	-9.79912
也然	-9.79949
男	-9.79969
寕	-9.79982
掛	-9.80041
晏	-9.80061
濯	-9.80104
内外	-9.80166
烹	-9.80261
侍御	-9.80272
隊	-9.80272
分明	-9.80373
淫	-9.8039
壩	-9.80426
屠	-9.80442
隅	-9.80587
偃	-9.80597
幹	-9.80598
册	-9.80598
天上	-9.80626
蠶	-9.80628
豈非	-9.80723
無事	-9.80907
誕	-9.80947
書院	-9.81037
暎	-9.81089
翰林	-9.81232
欄	-9.81389
杭	-9.8144
悦	-9.81448
十一月	-9.81467
鑄	-9.81512
罕	-9.81566
脚	-9.81734
彰	-9.81748
冩	-9.81773
毒	-9.81901
檐	-9.81994
見其	-9.8207
魁	-9.82113
古之	-9.8214
年年	-9.82179
瀑	-9.82405
淪	-9.82533
驟	-9.82668
溫	-9.82842
王氏	-9.82907
凶	-9.82928
同時	-9.83002
莽	-9.83055
墳	-9.83064
紗	-9.83114
呂	-9.83123
鬢	-9.83144
忙	-9.83301
譏	-9.83314
沃	-9.83323
四時	-9.83332
一笑	-9.83371
未嘗不	-9.8343
閏	-9.83453
昧	-9.83577
歸來	-9.83611
詩人	-9.83634
薪	-9.83807
藍	-9.83847
隋	-9.83871
家人	-9.83878
三百	-9.83898
苞	-9.83909
踐	-9.8391
相逢	-9.83946
從容	-9.83968
譚	-9.84013
自古	-9.84025
霏	-9.84034
出入	-9.84041
綱	-9.84052
霖	-9.84078
誥	-9.84078
亦無	-9.84126
皆以	-9.84277
嘯	-9.84332
所得	-9.84364
演	-9.84426
紛紛	-9.84474
相見	-9.84615
栖	-9.84623
稿	-9.84643
慿	-9.8472
羨	-9.84734
矣而	-9.84816
鐙	-9.84825
瘦	-9.84851
渭	-9.84911
他日	-9.8494
嗜	-9.84957
批	-9.84987
獸	-9.85052
戈	-9.85071
台	-9.85188
斧	-9.8532
蕃	-9.85371
十七	-9.85432
榜	-9.85438
籬	-9.85459
莭	-9.85478
鐫	-9.85495
因之	-9.85597
虹	-9.85599
之説	-9.85688
鄂	-9.85715
相與	-9.85807
搖	-9.85826
崩	-9.85834
酣	-9.859
弁	-9.8594
是非	-9.85984
鳩	-9.85999
疇	-9.86023
亷	-9.86059
潰	-9.86083
騐	-9.86221
伍	-9.86239
綏	-9.86385
臘	-9.86467
怡	-9.86519
君臣	-9.86543
從此	-9.86562
恬	-9.86573
捲	-9.86607
淹	-9.86609
傑	-9.86661
得之	-9.86687
者有	-9.86764
汲	-9.86806
樊	-9.86808
則又	-9.86968
裳	-9.87108
撲	-9.87178
諒	-9.87221
䘮	-9.87304
蹤	-9.87313
七年	-9.87364
自然	-9.87379
躍	-9.87489
筠	-9.87494
道中	-9.87601
春雨	-9.87677
浩	-9.87786
之氣	-9.87975
握	-9.88016
著書	-9.88076
未可	-9.88122
東坡	-9.88127
此書	-9.88151
二子	-9.88198
鷹	-9.88281
誼	-9.88368
媿	-9.8839
顏	-9.88398
六經	-9.88467
亞	-9.88484
者矣	-9.88499
技	-9.88522
軌	-9.88697
纂	-9.88784
上元	-9.88792
袖	-9.88798
不易	-9.88851
峽	-9.88882
太祖	-9.88985
雖有	-9.89041
卻	-9.89056
團	-9.89133
牡丹	-9.89175
濶	-9.89207
荘	-9.89293
至于	-9.89382
厪	-9.89564
金石	-9.89571
衣冠	-9.89607
牢	-9.89627
螺	-9.89655
之上	-9.89665
岐	-9.89697
人皆	-9.89724
豈有	-9.89744
萃	-9.89863
惟有	-9.89874
猷	-9.89944
未及	-9.8999
猶未	-9.90011
透	-9.90019
駿	-9.90114
明堂	-9.90147
匹	-9.90188
咫尺	-9.90196
軸	-9.90208
孚	-9.90225
哲	-9.90289
寇	-9.90413
緬	-9.90435
椒	-9.90457
八年	-9.90505
狐	-9.90589
滑	-9.90666
其意	-9.90722
畜	-9.90732
之處	-9.90875
四海	-9.90882
輦	-9.90961
雖然	-9.91002
其說	-9.91019
梓	-9.91043
踵	-9.91078
怕	-9.91094
稔	-9.91109
槩	-9.91139
老人	-9.91279
不須	-9.91282
拾	-9.91334
株	-9.91442
尸	-9.91447
曷	-9.91537
屐	-9.91646
海上	-9.91659
欵	-9.91686
湧	-9.91722
人情	-9.91739
襍	-9.91748
扁舟	-9.91756
等處	-9.91817
之不	-9.91861
無以	-9.91867
庚	-9.91913
精神	-9.91957
劾	-9.92003
培	-9.92086
瓶	-9.92221
康熈	-9.92297
衢	-9.92298
郵	-9.92314
其名	-9.92676
詩書	-9.9281
未得	-9.92828
訊	-9.92838
㧞	-9.92859
而又	-9.92893
詭	-9.92905
數十	-9.92927
匡	-9.93019
侍郞	-9.93059
鬬	-9.93154
濁	-9.93181
百姓	-9.93236
蹈	-9.93272
茫茫	-9.93281
花開	-9.93344
相對	-9.93368
詩序	-9.93404
訖	-9.93444
人物	-9.93523
竇	-9.9355
中外	-9.93638
碩	-9.9365
萬年	-9.9366
刪	-9.93661
之下	-9.93679
江山	-9.93714
仿	-9.93729
知之	-9.93852
子之	-9.9389
臻	-9.94043
洞庭	-9.94053
一枝	-9.94132
偶然	-9.94196
嚮	-9.94249
一一	-9.94279
不當	-9.94347
戯	-9.94379
也余	-9.94382
其義	-9.94413
拘	-9.94419
嗟乎	-9.94467
參差	-9.94521
賦詩	-9.94599
亾	-9.94607
混	-9.94618
檀	-9.94731
迫	-9.94763
小人	-9.94816
森	-9.94837
由來	-9.94851
偽	-9.94903
不至	-9.9495
何時	-9.95159
所有	-9.95183
平原	-9.95215
不覺	-9.95244
繹	-9.95299
伸	-9.95347
靄	-9.9537
千金	-9.9537
神仙	-9.95371
編修	-9.95396
以其	-9.9547
欠	-9.95482
之爲	-9.95504
綸	-9.95524
公以	-9.95598
丸	-9.95611
収	-9.95636
霈	-9.95671
蕪	-9.95701
山西	-9.95754
闌	-9.95775
𤣥	-9.95785
縷	-9.95833
測	-9.95881
擲	-9.95942
陞	-9.95975
嬰	-9.96019
覲	-9.96034
不言	-9.96071
樽	-9.96084
壤	-9.9609
顛	-9.96098
謨	-9.96104
淮南	-9.96129
不忘	-9.96161
耳目	-9.96217
鮑	-9.96242
乖	-9.96376
其家	-9.9644
騷	-9.96574
何所	-9.96644
擕	-9.96659
鴨	-9.96725
所作	-9.96764
也又	-9.96785
禮部	-9.96799
㱕	-9.96869
居然	-9.96942
鼻	-9.96965
督撫	-9.96974
一旦	-9.9712
瀾	-9.97121
葵	-9.9713
栽	-9.9714
租	-9.9718
也若	-9.97244
二麥	-9.97347
至此	-9.97405
蔬	-9.97416
粧	-9.97429
不成	-9.97476
迂	-9.97478
閭	-9.97532
暄	-9.97549
儒者	-9.97666
斜陽	-9.97765
𠞰	-9.97783
猿	-9.97802
尙書	-9.97865
棟	-9.97957
敞	-9.98009
嵩	-9.98052
不識	-9.98079
粗	-9.98148
蛇	-9.98182
濬	-9.98225
併	-9.98241
楓	-9.98252
迅	-9.98292
紋	-9.98295
爐	-9.98308
乾坤	-9.98314
鳬	-9.98374
有序	-9.98399
範	-9.98419
𥿄	-9.98534
之則	-9.98541
所稱	-9.98545
隙	-9.98645
仇	-9.98648
見之	-9.98698
一言	-9.98714
儼	-9.98806
富貴	-9.98866
不是	-9.98871
斑	-9.98892
何妨	-9.98914
倪	-9.98956
現在	-9.98972
民之	-9.98988
濡	-9.99099
咎	-9.99129
用之	-9.99183
以及	-9.99407
文學	-9.99417
中原	-9.99427
裙	-9.99459
矯	-9.99503
故事	-9.99534
不與	-9.9954
段	-9.99622
順治	-9.99678
柴	-9.997
不出	-9.99714
太史	-9.99716
誰知	-9.99754
罔	-9.99788
侣	-9.99799
禱	-9.99805
左傳	-9.99811
栗	-9.99815
厓	-9.99823
風俗	-9.99825
丞相	-9.99842
閨	-9.99856
爾雅	-9.99861
仙人	-9.9989
歉	-9.99898
湖上	-9.99911
貨	-9.99975
憤	-10.0005
漿	-10.0009
控	-10.0013
㕔	-10.002
情形	-10.0021
山荘	-10.0026
十九	-10.0033
慢	-10.0034
大兵	-10.0039
惟是	-10.0045
吞	-10.0049
㕘	-10.0052
祚	-10.0053
其心	-10.0057
悠悠	-10.0064
潦	-10.0064
美人	-10.0065
丞	-10.0065
之禮	-10.0077
南山	-10.008
無可	-10.0082
朶	-10.0085
酉	-10.0085
山人	-10.0089
偷	-10.0091
艶	-10.0094
白日	-10.0094
釀	-10.0104
三十年	-10.0104
芬	-10.0109
詩文	-10.011
勁	-10.0119
一篇	-10.0122
白頭	-10.0125
廣陵	-10.0134
抛	-10.0134
上年	-10.0139
所居	-10.0139
者非	-10.0146
翳	-10.0151
猛	-10.0154
二十四	-10.0157
彚	-10.0164
棗	-10.0165
躋	-10.0166
概	-10.0174
懶	-10.0178
窻	-10.0179
未免	-10.0187
以自	-10.0201
何須	-10.0203
畦	-10.0207
級	-10.0211
云云	-10.0211
辯	-10.0212
而有	-10.0216
鼠	-10.0221
霄	-10.0221
流傳	-10.0229
縛	-10.0235
同年	-10.0238
聖賢	-10.0244
枚	-10.0249
榭	-10.025
數日	-10.025
鋒	-10.0251
籟	-10.0256
尢	-10.0264
疲	-10.0265
闈	-10.0267
萬古	-10.0268
僻	-10.0269
二字	-10.0273
梢	-10.0274
宐	-10.0283
蕭蕭	-10.0283
之閒	-10.0298
及其	-10.0298
不聞	-10.0308
不免	-10.0311
久矣	-10.0313
𤓰	-10.032
惆悵	-10.0322
癡	-10.0337
䟦	-10.034
尉	-10.034
麓	-10.034
島	-10.0352
侈	-10.0355
拱	-10.0359
溜	-10.0361
筍	-10.0364
當日	-10.0372
先是	-10.0378
鬚	-10.0378
跳	-10.0378
隸	-10.038
㨗	-10.038
相傳	-10.0386
文王	-10.0389
又云	-10.0397
尼	-10.04
挈	-10.0402
各省	-10.0403
禮樂	-10.0405
未知	-10.0409
之理	-10.041
霍	-10.0411
奥	-10.0416
蜂	-10.0421
更有	-10.0423
鉅	-10.0427
専	-10.0431
成功	-10.0432
名山	-10.0437
雨中	-10.0444
鄒	-10.0448
三代	-10.0449
膠	-10.0453
雛	-10.0454
葺	-10.0464
墟	-10.0468
所至	-10.0471
笠	-10.0476
十分	-10.0476
公諱	-10.0487
填	-10.0491
紆	-10.0496
既而	-10.0498
溥	-10.0501
三十六	-10.0501
汀	-10.0505
夣	-10.0511
涕	-10.0525
准	-10.0537
陂	-10.0538
聖人之	-10.054
至是	-10.0541
裴	-10.0557
括	-10.0572
從來	-10.0575
墓誌銘	-10.0581
黄金	-10.0585
賛	-10.0586
相望	-10.0586
遂以	-10.0587
八分	-10.0588
無一	-10.0589
大義	-10.0592
又以	-10.0603
畆	-10.0608
駢	-10.0619
之才	-10.0633
攸	-10.0635
滇	-10.0636
題句	-10.064
堡	-10.0642
無端	-10.0657
𥘉	-10.0659
䦨	-10.066
之例	-10.0664
耽	-10.0665
之語	-10.0666
由是	-10.0667
而巳	-10.0674
而下	-10.0675
太孺人	-10.0675
不應	-10.0676
馴	-10.0677
者曰	-10.0689
俄	-10.0689
償	-10.0692
聼	-10.0692
熈	-10.0692
民生	-10.0693
徼	-10.0693
嵐	-10.0696
姓名	-10.0697
一朝	-10.0699
岱	-10.0702
妖	-10.0708
弘	-10.0709
之數	-10.0711
黄河	-10.0711
巫	-10.0717
親王	-10.0721
稅	-10.0721
鄧	-10.0722
一家	-10.0722
稠	-10.0724
奄	-10.073
福建	-10.0731
名曰	-10.0734
友人	-10.0735
覔	-10.0738
渡江	-10.0744
電	-10.076
畝	-10.0765
慣	-10.077
寂寞	-10.0779
慷慨	-10.0786
行之	-10.0787
灾	-10.0789
蕉	-10.0789
沼	-10.0792
區區	-10.0795
萬事	-10.0797
怯	-10.0798
所載	-10.0799
東北	-10.0799
新正	-10.0807
於斯	-10.0812
値	-10.0814
揭	-10.0815
消息	-10.0832
周官	-10.084
溺	-10.0841
無窮	-10.0843
聳	-10.0844
饗	-10.0845
不朽	-10.0845
落日	-10.085
罰	-10.0857
駭	-10.0858
不少	-10.0858
洩	-10.0859
箴	-10.0859
其父	-10.0861
逋	-10.0864
其志	-10.0875
荀	-10.0891
毅	-10.0891
庾	-10.0897
本朝	-10.0914
䝉古	-10.092
煥	-10.0922
甯	-10.0923
以詩	-10.0935
嬉	-10.0935
此則	-10.0935
龔	-10.0936
颺	-10.0937
一事	-10.0943
蹙	-10.0949
亦以	-10.0951
諾	-10.0959
五色	-10.096
閘	-10.0967
之制	-10.0969
其實	-10.0969
鷗	-10.0973
若此	-10.0973
祁	-10.0975
九年	-10.0977
陜西	-10.0978
不自	-10.0981
鏤	-10.0981
細雨	-10.0993
不欲	-10.0997
爻	-10.1002
杭州	-10.1005
詩以誌慰	-10.1006
磬	-10.1011
古者	-10.1013
若夫	-10.1017
蘿	-10.1021
瀛	-10.1022
湖南	-10.1024
榆	-10.1027
朝夕	-10.1028
曙	-10.1039
勾	-10.105
論語	-10.1056
誘	-10.1063
天津	-10.1064
瑟	-10.1069
暉	-10.1075
匠	-10.1085
昆	-10.109
國之	-10.1091
幢	-10.1092
䕫	-10.1092
頑	-10.1096
脂	-10.1105
覈	-10.1109
炳	-10.1112
梯	-10.1115
譌	-10.1117
絡	-10.1119
太君	-10.1121
坦	-10.1121
霸	-10.1123
七日	-10.1125
經史	-10.1132
笙	-10.1135
太子	-10.1138
太常	-10.114
詰	-10.1145
婢	-10.1152
跨	-10.1154
勃	-10.1157
東山	-10.1158
先君	-10.1161
臺灣	-10.1166
蟠	-10.1174
望雨	-10.1186
趂	-10.1188
禮記	-10.1198
遞	-10.1202
隘	-10.1202
坎	-10.1204
闡	-10.1204
君不見	-10.1206
䑓	-10.1215
姪	-10.1218
而其	-10.1224
芽	-10.1234
一身	-10.1236
布衣	-10.1261
缾	-10.1266
尋常	-10.1272
丈夫	-10.1273
功名	-10.1274
栢	-10.1278
贏	-10.1278
港	-10.1282
提督	-10.1284
昌黎	-10.1287
𨽻	-10.1291
甸	-10.1292
瑤	-10.1298
春光	-10.1307
若干	-10.1308
羲	-10.1308
有二	-10.131
衫	-10.1312
諸家	-10.1312
挹	-10.1315
糾	-10.1325
嫩	-10.1327
讌	-10.1327
懇	-10.1331
馨	-10.1336
虧	-10.134
耆	-10.1344
牌	-10.1346
駁	-10.1348
企	-10.1349
天之	-10.1363
羮	-10.1364
直𨽻	-10.1367
堰	-10.1376
棘	-10.1377
題詩	-10.1383
繋	-10.1395
又何	-10.14
時時	-10.1401
亨	-10.1406
元氣	-10.1406
䕃	-10.1409
唐人	-10.1412
中秋	-10.1414
無恙	-10.1415
者而	-10.142
措	-10.1423
剖	-10.1427
抒	-10.143
牘	-10.1431
吾友	-10.1441
講學	-10.1447
公卿	-10.1449
募	-10.1457
的	-10.1459
㝡	-10.1463
太宗	-10.1469
篋	-10.1471
陌	-10.1503
一月	-10.1504
人事	-10.1507
挑	-10.1515
經營	-10.1517
聯	-10.1517
其一	-10.1521
南巡	-10.1521
岫	-10.1523
槎	-10.1524
馭	-10.1524
鎖	-10.1525
明日	-10.1527
凛	-10.1536
求之	-10.1538
賊匪	-10.1543
窟	-10.1545
耗	-10.1554
其書	-10.1557
叨	-10.1557
而非	-10.156
以是	-10.1561
恭人	-10.1562
妥	-10.1562
此事	-10.1571
慘	-10.1571
諳	-10.1571
邇	-10.1577
山下	-10.1577
舘	-10.1593
多少	-10.1594
而今	-10.1599
不合	-10.1603
膚	-10.1604
瀉	-10.1604
時有	-10.1605
葦	-10.1606
氏之	-10.1607
之論	-10.1623
黛	-10.1623
艷	-10.1637
諡	-10.164
捨	-10.164
将軍	-10.1643
犬	-10.1644
賡	-10.1646
帯	-10.1652
則以	-10.1662
以至	-10.1669
刼	-10.1671
乙	-10.1673
不待	-10.1678
而不能	-10.1686
不堪	-10.1692
艸	-10.1695
所著	-10.1703
勦	-10.1704
王公	-10.1707
春色	-10.1707
豈無	-10.1708
濫	-10.1718
萌	-10.1725
經過	-10.1725
縮	-10.174
胸	-10.1741
木蘭	-10.1743
釵	-10.1751
髙下	-10.1752
抄	-10.1756
雍正	-10.1759
門人	-10.1765
亦非	-10.1765
不死	-10.1773
刑部	-10.1779
未敢	-10.1784
犀	-10.1786
俞	-10.1788
沸	-10.179
舉人	-10.1793
綜	-10.18
江東	-10.1809
日夜	-10.1813
與君	-10.1816
棺	-10.182
孝廉	-10.1823
悼	-10.1836
皇考	-10.184
潜	-10.1841
稼	-10.1844
悵	-10.1847
不妨	-10.1852
或有	-10.1855
柄	-10.1866
姊	-10.1866
豔	-10.1868
髻	-10.1871
嗤	-10.1873
逓	-10.1875
一書	-10.1878
昔人	-10.1878
三寸	-10.188
猶有	-10.1882
大田	-10.1884
圜	-10.1885
文集	-10.189
性情	-10.1895
恪	-10.1906
塢	-10.1907
上人	-10.1908
芒	-10.1911
樂府	-10.1913
構	-10.1914
天地之	-10.1915
二日	-10.192
牋	-10.1922
訴	-10.1923
春日	-10.193
壻	-10.193
杳	-10.1932
蟻	-10.1939
懋	-10.1944
籲	-10.1944
詩韻	-10.1946
山色	-10.1951
一例	-10.1953
琢	-10.1955
一律	-10.1956
它	-10.1957
貲	-10.1959
錢塘	-10.196
山房	-10.1964
漆	-10.1966
箇	-10.1969
矣然	-10.197
五經	-10.1972
髩	-10.1982
俯仰	-10.1984
東海	-10.1986
人所	-10.1989
纓	-10.199
六朝	-10.1993
觀其	-10.1995
醜	-10.2001
牒	-10.2005
有感	-10.2007
沖	-10.2012
各屬	-10.2013
蔓	-10.2016
袍	-10.2018
軰	-10.2025
不肖	-10.2031
三人	-10.2032
拓	-10.2033
入海	-10.2038
皇太后	-10.2041
鈴	-10.2044
鬼神	-10.2046
彊	-10.2047
賚	-10.205
㝠	-10.206
从	-10.2067
娥	-10.2073
穫	-10.2075
紀事	-10.2077
鄭氏	-10.2085
五行	-10.2088
九十	-10.2088
奈何	-10.2088
萊	-10.2091
睿	-10.2092
無異	-10.2097
以来	-10.2105
則其	-10.211
撤	-10.213
帽	-10.2131
忠孝	-10.2131
墅	-10.2143
冥	-10.2144
弼	-10.2145
分别	-10.2145
閔	-10.215
逞	-10.215
終日	-10.2152
揆	-10.2154
軫	-10.2156
甕	-10.216
系	-10.216
渺	-10.2163
頼	-10.2163
峭	-10.2166
揖	-10.2168
先儒	-10.2173
㓜	-10.2174
旭	-10.2182
粥	-10.2183
尖	-10.2184
其身	-10.2185
福康安	-10.2189
仲春	-10.2192
未見	-10.2195
太白	-10.2197
父老	-10.2198
泛舟	-10.2199
芸	-10.2202
苐	-10.2209
之難	-10.2211
濳	-10.2216
太息	-10.2216
汎	-10.2225
者多	-10.2228
裔	-10.2231
舍人	-10.2233
挺	-10.2235
相國	-10.2243
乃知	-10.2247
不可不	-10.225
懲	-10.2252
拖	-10.2254
同心	-10.2256
刃	-10.227
孝友	-10.2271
一百	-10.2281
拍	-10.2282
所屬	-10.2285
亥	-10.2286
其詩	-10.2293
艾	-10.23
冦	-10.2304
赦	-10.2305
不受	-10.2309
閭閻	-10.2309
子曰	-10.231
清明	-10.2314
欲以	-10.2315
有以	-10.2321
不獨	-10.2321
鉤	-10.2323
冬至	-10.2326
者又	-10.2341
女子	-10.2343
用兵	-10.2344
晝夜	-10.2351
奈	-10.2354
有時	-10.2354
是故	-10.2355
鷺	-10.2356
顚	-10.2356
蠧	-10.2356
埽	-10.2356
轍	-10.2358
是年	-10.2358
登臨	-10.2369
書之	-10.2371
簇	-10.2378
年來	-10.238
謫	-10.2383
之内	-10.2384
濟南	-10.2393
四川	-10.2396
悅	-10.2397
安能	-10.2399
以待	-10.2404
十載	-10.2405
秋色	-10.2406
詩云	-10.2413
之役	-10.2413
簿	-10.2416
廣東	-10.2419
久之	-10.242
呌	-10.2431
不止	-10.2434
購	-10.2436
娛	-10.2437
墩	-10.2437
本無	-10.2447
乙酉	-10.245
門前	-10.245
轡	-10.2464
雨雪	-10.2475
讀之	-10.2477
也以	-10.2479
膳	-10.2483
凖	-10.2485
鬻	-10.2485
意氣	-10.2486
别有	-10.2487
諸書	-10.2488
繭	-10.2491
而爲	-10.2494
橘	-10.2497
狗	-10.2501
三江	-10.2504
降㫖	-10.2509
行人	-10.2514
進退	-10.2516
江水	-10.2521
誡	-10.2521
葩	-10.2522
則是	-10.2537
諸儒	-10.2545
隂陽	-10.255
廓	-10.2551
簪	-10.2552
庚子	-10.2556
依舊	-10.2557
慨	-10.2558
秋水	-10.256
宜人	-10.2564
矩	-10.2571
咽	-10.2574
中書	-10.2576
者不	-10.258
拳	-10.2583
豹	-10.259
以求	-10.2592
倩	-10.2593
擔	-10.2594
四面	-10.26
依稀	-10.2603
効	-10.2605
曁	-10.2607
年少	-10.2608
冡	-10.261
悶	-10.2611
娘	-10.2617
插	-10.262
則曰	-10.2629
囚	-10.2629
唐宋	-10.263
或曰	-10.2631
始知	-10.2634
鵠	-10.2634
一曲	-10.264
袂	-10.2641
漳	-10.2646
產	-10.2648
無復	-10.2658
得此	-10.2658
棠	-10.2661
之官	-10.2663
白居易	-10.2669
之大	-10.2671
芳草	-10.2674
翹	-10.2681
俸	-10.2682
奢	-10.2686
宸	-10.2688
邸	-10.2693
也自	-10.2697
小民	-10.2699
總兵	-10.27
玲瓏	-10.2701
丑	-10.2704
落花	-10.2705
昨嵗	-10.2708
精舍	-10.2709
于此	-10.2712
鴛鴦	-10.2713
睂	-10.2716
河東	-10.2722
瀆	-10.2723
赫	-10.2723
河北	-10.2724
鑾	-10.2733
煖	-10.2735
使人	-10.2738
耐	-10.2741
朂	-10.2742
不宜	-10.275
堦	-10.2754
終身	-10.2757
緝	-10.2763
是書	-10.2768
道之	-10.277
妻子	-10.2771
夜半	-10.2774
亦何	-10.2774
㝷	-10.2775
之遺	-10.2776
二三	-10.2779
揺	-10.2781
㦸	-10.2794
嶠	-10.2798
平定	-10.28
春水	-10.2819
豈知	-10.282
不禁	-10.2821
嘉靖	-10.2821
經義	-10.2823
生於	-10.2824
冕	-10.2833
昇	-10.284
矧	-10.2852
逺近	-10.2859
鎗	-10.2869
宋人	-10.287
蹇	-10.2871
我皇上	-10.2871
豕	-10.2872
替	-10.2875
不可得	-10.2876
虜	-10.2883
第二	-10.2885
何其	-10.2896
蹕	-10.2896
所在	-10.2896
歐陽	-10.2897
金山	-10.2898
塡	-10.29
曦	-10.29
觀察	-10.2905
之變	-10.2906
軟	-10.2907
凋	-10.2909
箕	-10.2909
燦	-10.2913
長者	-10.2916
而不知	-10.2917
衾	-10.2922
淤	-10.2925
劫	-10.2927
惬	-10.2928
愆	-10.2942
裹	-10.2943
帙	-10.2952
巒	-10.2958
日日	-10.296
童子	-10.2961
僃	-10.2965
豈可	-10.2967
無定	-10.2971
清風	-10.2971
左氏	-10.2974
之民	-10.2974
公曰	-10.2979
戌	-10.298
恕	-10.2983
蠟	-10.2983
跪	-10.2986
竈	-10.2987
作者	-10.2988
今古	-10.2988
得失	-10.2991
奕	-10.2992
之初	-10.2996
可也	-10.2997
不致	-10.2997
曩	-10.2999
廿	-10.3
盛京	-10.3002
觀之	-10.3006
婦人	-10.301
阡	-10.3011
昨日	-10.3018
太原	-10.3027
不啻	-10.3028
蘭亭	-10.3029
大吏	-10.303
城中	-10.3034
髯	-10.3036
頽	-10.3036
廵撫	-10.3041
之世	-10.3045
俠	-10.3046
憾	-10.3048
之年	-10.3052
家法	-10.3052
乎其	-10.3054
蕙	-10.3054
英雄	-10.3057
酸	-10.3058
儘	-10.3058
今春	-10.3059
滙	-10.306
漪	-10.3068
江寧	-10.3073
銓	-10.3095
故其	-10.3096
其為	-10.3099
豈能	-10.31
綬	-10.3101
諸君	-10.3112
慨然	-10.3117
扣	-10.3134
奬	-10.3135
泰山	-10.3139
由来	-10.3143
簫	-10.3146
神明	-10.3149
舂	-10.3151
冲	-10.3152
麥收	-10.3153
戾	-10.3155
蘓	-10.3156
使者	-10.3161
得雪	-10.3162
中庸	-10.317
零落	-10.317
鞠	-10.3173
弛	-10.3173
漂	-10.3173
怠	-10.3176
得以	-10.3176
帛	-10.3189
貸	-10.3191
繆	-10.3192
茵	-10.3193
鬭	-10.3196
曜	-10.3197
視之	-10.3197
王孫	-10.3199
一體	-10.3199
之用	-10.32
落落	-10.3203
膝	-10.3207
歎息	-10.3207
不改	-10.3212
姦	-10.3215
流涕	-10.3218
踞	-10.322
未盡	-10.3222
蓮花	-10.3228
須臾	-10.3233
經術	-10.3235
也此	-10.3238
之辭	-10.3244
而能	-10.3246
㫄	-10.3251
詐	-10.3255
張氏	-10.3255
處處	-10.3263
未至	-10.3264
其下	-10.3265
摺	-10.3267
道路	-10.3269
斃	-10.3272
詩有	-10.3273
乃以	-10.3277
暝	-10.328
作詩	-10.3281
纖	-10.3286
所言	-10.3287
殷勤	-10.3288
厨	-10.3288
臧	-10.3289
儔	-10.3289
另	-10.3289
擎	-10.3293
龍門	-10.3295
油	-10.3297
寒食	-10.33
鉢	-10.3301
卒於	-10.3303
夏日	-10.3304
矣夫	-10.3305
作歌	-10.3305
也公	-10.3308
不得不	-10.3311
傷心	-10.3311
取其	-10.3312
㢤	-10.3312
岩	-10.3313
張公	-10.3317
二百	-10.3325
壬午	-10.3332
天然	-10.3333
雲山	-10.3339
民間	-10.3341
甌	-10.3342
佇	-10.3343
鷄	-10.3344
故國	-10.3345
之類	-10.3346
逈	-10.3347
數十年	-10.335
也吾	-10.3358
炙	-10.3358
嶂	-10.3359
所為	-10.3363
擘	-10.3365
其爲	-10.3368
執事	-10.337
蛟	-10.3373
者爲	-10.3373
三尺	-10.3375
熱河	-10.3377
譯	-10.3379
婚	-10.3386
不許	-10.3388
此中	-10.3391
其三	-10.3392
屈指	-10.34
䑕	-10.3406
舟中	-10.3406
頤	-10.3407
店	-10.3408
罵	-10.3417
司空	-10.3417
諸人	-10.3428
昔年	-10.343
學問	-10.3432
嘉慶	-10.3435
之前	-10.3445
海棠	-10.3465
甲申	-10.3465
襄陽	-10.3466
蕊	-10.3469
中國	-10.3474
大抵	-10.3477
祕	-10.3481
太僕	-10.3484
佚	-10.3485
彤	-10.349
昬	-10.3491
蒐	-10.3491
我亦	-10.3495
博士	-10.3496
或以	-10.3498
罏	-10.35
風塵	-10.3502
餅	-10.3502
倐	-10.3503
有作	-10.3506
冐	-10.3507
李氏	-10.3508
湖山	-10.3508
丙辰	-10.351
羈	-10.3511
氛	-10.3513
杏花	-10.3516
檢討	-10.352
雲中	-10.3531
白首	-10.3538
歸去	-10.3541
天道	-10.3544
劣	-10.3544
九卿	-10.3554
知縣	-10.3557
數百	-10.356
鋤	-10.3566
落葉	-10.3567
前此	-10.3567
隻	-10.3567
九分	-10.3567
覃	-10.3568
不幸	-10.3577
十二年	-10.3578
噶	-10.3584
白石	-10.3584
耿	-10.3584
吳中	-10.3595
居士	-10.36
縱横	-10.3602
秋日	-10.3605
始於	-10.3616
凄	-10.3619
奔走	-10.362
始終	-10.362
渴	-10.3627
牲	-10.3627
苖	-10.3629
邈	-10.363
武王	-10.3635
熏	-10.3644
涸	-10.3652
仁義	-10.3655
道人	-10.3658
燈火	-10.3661
㡌	-10.3666
宰相	-10.3666
而卒	-10.3667
衮	-10.3667
謡	-10.3667
蘋	-10.3673
盪	-10.3686
儻	-10.3687
因以	-10.3687
有言	-10.3688
有此	-10.3689
噫	-10.369
模	-10.369
何有	-10.3692
五百	-10.3693
次韻	-10.3694
何足	-10.3694
狼	-10.3704
東方	-10.3704
聖祖	-10.3712
太公	-10.3712
不容	-10.372
他人	-10.372
上有	-10.372
粒	-10.3723
罹	-10.373
遏	-10.373
陜	-10.3736
微雨	-10.3736
線	-10.3737
雨過	-10.3739
君家	-10.3739
有三	-10.3744
酷	-10.3746
覓	-10.3747
黜	-10.375
大節	-10.3751
除夕	-10.3752
何年	-10.3753
也然則	-10.3758
議論	-10.3761
湖北	-10.3762
組	-10.3762
緘	-10.3767
禾黍	-10.3767
宋史	-10.3767
城西	-10.3768
國史	-10.3778
將以	-10.3779
不信	-10.3787
開元	-10.3789
惹	-10.379
儂	-10.3792
求其	-10.3794
䘏	-10.3799
嘲	-10.3805
之屬	-10.3806
武帝	-10.381
宥	-10.3812
此間	-10.3812
閟	-10.3813
孝經	-10.3825
相應	-10.3825
相繼	-10.3826
世祖	-10.3827
諷	-10.3828
雖不	-10.3832
一心	-10.3832
衙	-10.3834
新詩	-10.3835
先世	-10.3836
複	-10.3838
當是時	-10.3841
空山	-10.3849
死者	-10.3853
被災	-10.3856
方伯	-10.3859
家居	-10.3867
艱難	-10.387
然其	-10.3871
行館	-10.3872
未幾	-10.3873
風雅	-10.3874
遺書	-10.3875
而成	-10.3877
汛	-10.3877
爲人	-10.3884
寮	-10.389
雲南	-10.389
幔	-10.3891
遶	-10.3893
嵗月	-10.3898
宛轉	-10.3901
之本	-10.3904
矦	-10.3909
兔	-10.391
幣	-10.3913
貼	-10.3914
贖	-10.3914
於今	-10.3915
吾母	-10.3916
不知其	-10.3917
輓	-10.3923
盗	-10.3927
是則	-10.3932
脈	-10.3936
第三	-10.3937
世間	-10.3946
夫婦	-10.3948
淑人	-10.3951
鄞	-10.3954
六韻	-10.3955
其在	-10.3958
所藏	-10.3959
晶	-10.3975
湏	-10.398
之勢	-10.398
長沙	-10.3982
軼	-10.3987
不孝	-10.399
京兆	-10.3993
可惜	-10.3996
具奏	-10.3996
此亦	-10.3996
巘	-10.4
五湖	-10.4003
丙	-10.401
言其	-10.4013
通省	-10.4013
梗	-10.4014
吾師	-10.4015
敕	-10.4016
鎻	-10.4017
廽	-10.4018
先王	-10.4019
婉	-10.4021
如意	-10.4021
艇	-10.4021
亦未	-10.4024
社稷	-10.4026
之樂	-10.4028
之謂	-10.4032
喇	-10.4033
狎	-10.4038
碣	-10.404
緜	-10.404
之風	-10.4044
雲氣	-10.4048
近日	-10.4049
祐	-10.4054
窈窕	-10.4059
踪	-10.406
實為	-10.4062
匣	-10.4063
十萬	-10.4066
優渥	-10.4068
君子之	-10.407
覊	-10.4078
鐡	-10.408
謚	-10.4081
睦	-10.4082
稚	-10.4086
沽	-10.4086
金川	-10.4092
蕭然	-10.4095
憫	-10.4096
鵞	-10.4102
斟	-10.4104
避暑	-10.4109
聖主	-10.4109
聞道	-10.4117
即今	-10.4119
戸部	-10.4119
薫	-10.4125
簮	-10.4125
山隂	-10.4139
回首	-10.414
人家	-10.4142
三四	-10.4148
聰	-10.4148
雨澤	-10.4149
名士	-10.415
珊瑚	-10.4164
塟	-10.4164
蒼茫	-10.4168
上書	-10.4172
前輩	-10.4172
莖	-10.4176
大學	-10.4179
曾祖	-10.4188
夲	-10.419
帑	-10.4192
蛾	-10.4196
迄	-10.4199
股	-10.4199
磴	-10.4203
丕	-10.4209
楷	-10.4209
南陽	-10.4218
餞	-10.4227
樓臺	-10.4228
両	-10.423
辛丑	-10.4234
省城	-10.4235
桃李	-10.4241
百尺	-10.4242
御製	-10.4242
失其	-10.425
趁	-10.4252
膽	-10.4254
年七十	-10.4256
堵	-10.4274
剔	-10.4275
一夜	-10.4275
一名	-10.4275
陡	-10.4276
日暮	-10.4282
失之	-10.4282
礙	-10.4287
遘	-10.429
欹	-10.429
城東	-10.4297
妝	-10.4299
一面	-10.43
殫	-10.4312
桞	-10.4315
禹貢	-10.4315
薩	-10.4316
里中	-10.4317
􁀙	-10.4318
新月	-10.4318
也且	-10.432
郡縣	-10.4324
妹	-10.4327
衣食	-10.4333
堯舜	-10.434
之水	-10.4341
賢者	-10.4344
蟾	-10.4354
稷	-10.4355
参	-10.4356
明府	-10.4356
萬曆	-10.4362
廣西	-10.4364
再題	-10.4365
十三年	-10.4375
大江	-10.4378
芻	-10.438
未成	-10.4385
壊	-10.4386
貺	-10.4389
濱	-10.4393
而死	-10.4398
廑	-10.4403
長子	-10.4405
山之	-10.4406
之至	-10.4409
江左	-10.441
四明	-10.4413
百世	-10.4414
集序	-10.4416
故園	-10.4423
减	-10.4424
髙士	-10.4432
牟	-10.4435
斯人	-10.4438
浮雲	-10.4439
而已矣	-10.444
簟	-10.444
陽明	-10.4441
挿	-10.4443
徂	-10.4446
脉	-10.4447
無逸	-10.4447
滄海	-10.4447
士民	-10.4455
甲辰	-10.446
一曰	-10.4463
昨夜	-10.447
也乃	-10.4472
徵君	-10.4477
炊	-10.4478
鯉	-10.448
而去	-10.4481
駒	-10.4482
轅	-10.4484
甚矣	-10.4489
九州	-10.4489
胎	-10.4489
布政使	-10.4489
花落	-10.4491
旃	-10.4491
琳	-10.4494
顔色	-10.4496
十餘年	-10.45
蕭條	-10.4502
集中	-10.4504
陳氏	-10.4507
飬	-10.4512
謂其	-10.4527
花下	-10.4528
玉泉	-10.453
茹	-10.4532
鬟	-10.4537
臨風	-10.4543
無他	-10.4543
流連	-10.455
風光	-10.4556
猶在	-10.4559
剏	-10.456
松風	-10.456
腐	-10.4562
令其	-10.4569
者乃	-10.4575
圎	-10.458
薰	-10.4587
不作	-10.4587
騁	-10.4587
工部	-10.4591
以成	-10.4592
様	-10.4595
壮	-10.4596
糜	-10.4598
繕	-10.4598
澆	-10.4599
和尚	-10.4601
贍	-10.4603
洛陽	-10.4606
隷	-10.4617
道士	-10.4618
月明	-10.4619
大人	-10.4621
職方	-10.4625
屛	-10.4625
饌	-10.4626
若是	-10.4629
而止	-10.4631
并序	-10.4634
闔	-10.4634
歸於	-10.4635
不到	-10.4637
間有	-10.464
拏	-10.4644
椎	-10.4646
躡	-10.4648
丙申	-10.465
遯	-10.4651
涇	-10.4654
有一	-10.466
太學	-10.4661
剰	-10.4669
頴	-10.467
殉	-10.4671
目前	-10.4671
歙	-10.4674
磯	-10.4675
丹青	-10.4677
出門	-10.4679
譬	-10.4686
其上	-10.4692
幽人	-10.4693
豎	-10.4693
其四	-10.4694
之力	-10.4697
而未	-10.4703
有㑹	-10.4715
穎	-10.4716
無非	-10.4722
恢	-10.4725
山林	-10.4725
伎	-10.4734
朽	-10.4735
暈	-10.4737
沮	-10.4738
㳟	-10.4739
恱	-10.4739
翰墨	-10.4743
珮	-10.4747
二十五	-10.4755
猜	-10.4758
蘇州	-10.4759
詩曰	-10.4765
臆	-10.4777
無有	-10.4779
勑	-10.4779
其母	-10.4782
吳越	-10.4784
杜甫	-10.4785
云爾	-10.4791
無言	-10.4794
人才	-10.4797
囬	-10.48
琉璃	-10.4803
使之	-10.4804
熾	-10.4805
戮	-10.4805
鈞	-10.4812
掖	-10.4816
弆	-10.4819
焉而	-10.482
禧	-10.4829
榦	-10.4829
妬	-10.483
吾家	-10.484
兎	-10.4841
十四年	-10.4841
不若	-10.4842
大事	-10.4842
所能	-10.4842
輟	-10.4848
可見	-10.4849
卯	-10.485
恍	-10.4854
才子	-10.4858
隕	-10.4858
萬一	-10.486
如斯	-10.4866
俘	-10.4869
掣	-10.4869
士之	-10.4871
酋	-10.4874
陀	-10.488
只有	-10.488
五六	-10.4881
盤山	-10.4884
萬世	-10.4885
歐	-10.4896
秀才	-10.4899
綃	-10.49
太傅	-10.4902
死而	-10.4912
歸里	-10.4913
四日	-10.4917
囂	-10.492
一路	-10.4922
恭紀	-10.4926
桃源	-10.4927
從前	-10.4928
十五年	-10.4929
斤	-10.4933
篷	-10.4934
貳	-10.4937
殤	-10.4942
紳	-10.4948
喜晴	-10.495
白馬	-10.4955
山陽	-10.4956
猶存	-10.4959
五字	-10.4959
世家	-10.4962
迭	-10.4963
爪	-10.4963
始得	-10.4968
小學	-10.4968
舅	-10.4969
歲月	-10.4972
祔	-10.4978
箱	-10.4979
㑹同	-10.498
不負	-10.4985
之交	-10.4993
前代	-10.5003
者或	-10.5005
而行	-10.5005
潁	-10.5006
復有	-10.5006
禘	-10.5008
七夕	-10.501
有人	-10.5017
也哉	-10.5019
湖廣	-10.502
荆州	-10.502
不動	-10.5022
詡	-10.5023
江都	-10.5024
夭	-10.5032
西域	-10.5034
濵	-10.5037
銳	-10.5038
之禍	-10.5039
本末	-10.504
何當	-10.5049
八日	-10.5052
當世	-10.5054
詩以	-10.5065
天人	-10.5066
一巻	-10.5066
一門	-10.5072
西安	-10.5074
六日	-10.5078
扈	-10.5079
萬民	-10.5079
虗	-10.5082
晤	-10.5082
龕	-10.5084
此皆	-10.5085
蕆	-10.5085
政事	-10.5086
少陵	-10.5087
成王	-10.5088
不惜	-10.5092
變化	-10.5094
群	-10.5101
輕重	-10.5101
鐸	-10.5103
貶	-10.5104
本年	-10.5105
彞尊	-10.5109
艮	-10.5111
吳門	-10.5115
告成	-10.5117
無多	-10.5124
湖水	-10.5125
郢	-10.5128
九江	-10.5136
雲間	-10.5137
玉泉山	-10.5138
看花	-10.5139
行事	-10.5143
中流	-10.5147
車馬	-10.5148
此意	-10.5153
奎	-10.5154
節婦	-10.5154
帝王	-10.5155
流離	-10.5161
絶句	-10.5162
憶昔	-10.5166
受命	-10.517
琵琶	-10.517
厄	-10.5171
滄浪	-10.5173
縦	-10.5173
剝	-10.5174
反覆	-10.5175
㪅	-10.5178
互相	-10.5179
何也	-10.518
煎	-10.5183
貴州	-10.5184
蘄	-10.5187
婁	-10.5193
攘	-10.5197
汙	-10.5197
殱	-10.5199
夸	-10.52
愜	-10.5201
泮	-10.5203
何用	-10.5203
讐	-10.5203
五更	-10.5207
也是	-10.5208
轂	-10.5212
莫能	-10.5219
無心	-10.522
晰	-10.5223
其有	-10.5228
大雅	-10.5232
不一	-10.5236
者如	-10.5236
妓	-10.5238
詮	-10.5239
而復	-10.5241
歸政	-10.5242
其道	-10.5242
綽	-10.5243
崑山	-10.5245
天命	-10.5246
瞻禮	-10.5251
之流	-10.5254
者為	-10.5255
翅	-10.5265
門下	-10.5267
儀禮	-10.5268
針	-10.5269
悖	-10.527
其他	-10.527
一生	-10.5271
堂堂	-10.5272
之計	-10.5275
一見	-10.5277
於世	-10.5279
官員	-10.528
重修	-10.5281
風月	-10.5287
之臣	-10.529
何日	-10.529
大功	-10.5291
如故	-10.5292
亦復	-10.5293
穉	-10.5294
豫省	-10.5295
辛未	-10.5295
周旋	-10.5304
侍衛	-10.5305
新安	-10.5306
大師	-10.5307
扈從	-10.5308
不特	-10.5309
畿	-10.531
腴	-10.5312
為文	-10.5312
荷花	-10.5313
彷彿	-10.5313
靳	-10.5318
墀	-10.5319
嬴	-10.5319
茍	-10.532
章句	-10.5329
蟹	-10.5332
加恩	-10.5332
塞外	-10.5337
羙	-10.5339
蓬萊	-10.534
箸	-10.534
二十一	-10.5341
歌舞	-10.5341
兇	-10.5341
敲	-10.5342
成龍	-10.5345
癸未	-10.5351
天氣	-10.5354
周易	-10.5355
未足	-10.5356
鄴	-10.5358
人以	-10.5362
柴門	-10.5364
安徽	-10.5364
捫	-10.5365
噶爾丹	-10.5365
陰陽	-10.5365
為君	-10.5365
河間	-10.5369
所爲	-10.5373
遑	-10.5373
者惟	-10.5374
内地	-10.5379
迄今	-10.538
何異	-10.5381
城下	-10.5384
閉門	-10.5386
程子	-10.5388
兵部	-10.5391
天恩	-10.5393
造物	-10.5395
那得	-10.5396
僚	-10.5407
昊	-10.541
噪	-10.5413
生死	-10.5414
鯨	-10.542
杪	-10.5427
寒山	-10.543
下有	-10.5435
㝛	-10.5436
矗	-10.5437
與其	-10.544
逄	-10.5446
犢	-10.545
有云	-10.5454
僊	-10.5457
宵旰	-10.5464
御書	-10.5465
湍	-10.5467
不克	-10.5469
碉	-10.5472
四十年	-10.5473
韜	-10.5476
昇平	-10.5478
民情	-10.548
眸	-10.5481
厰	-10.5482
重來	-10.5484
僮	-10.5484
百家	-10.5485
之詞	-10.5485
涯	-10.5486
太古	-10.549
僉	-10.5492
攻克	-10.5495
洪武	-10.5496
前朝	-10.5496
雨水	-10.5498
吏治	-10.5499
自此	-10.55
軀	-10.5505
裡	-10.5507
曰是	-10.5508
呵	-10.5508
瑩	-10.5509
蜃	-10.551
甥	-10.5511
忤	-10.5511
埃	-10.5517
武昌	-10.5517
有子	-10.552
公孫	-10.5521
螢	-10.5521
冢	-10.5532
蹊	-10.5533
彥	-10.5533
四五	-10.5536
詒	-10.5539
石渠	-10.5541
二十八	-10.5542
南昌	-10.5542
無能	-10.5547
想見	-10.5551
曳	-10.5553
躭	-10.5555
偈	-10.5556
一代	-10.556
不獲	-10.556
詆	-10.556
椀	-10.5561
數月	-10.5563
先人	-10.5564
其親	-10.5572
佳人	-10.5574
渡河	-10.5578
𧖟	-10.5578
槖	-10.5579
之末	-10.558
久而	-10.558
蔭	-10.5581
刊	-10.5583
癖	-10.5584
明朝	-10.5584
姓氏	-10.5586
其才	-10.5596
往事	-10.5598
諸君子	-10.5599
尔	-10.5599
秧	-10.56
桺	-10.5605
証	-10.5606
泯	-10.5606
似此	-10.5609
迺	-10.5609
鵝	-10.561
推之	-10.561
萍	-10.5626
未聞	-10.5631
隐	-10.5632
再拜	-10.5635
畿輔	-10.5635
南海	-10.5639
必以	-10.5642
與人	-10.5644
詩集	-10.5649
宋元	-10.5649
實有	-10.5651
風前	-10.5655
盎	-10.5656
雋	-10.5658
於其	-10.5662
豫章	-10.5664
巔	-10.5665
異同	-10.5665
閻	-10.5675
有聲	-10.5678
嬾	-10.5679
中人	-10.568
髣髴	-10.568
盍	-10.5682
甄	-10.5682
謾	-10.5684
忝	-10.5689
液	-10.569
當其	-10.5691
李公	-10.5697
王子	-10.5697
蟄	-10.5698
鸚鵡	-10.5702
肌	-10.5703
庻	-10.5706
税	-10.5707
藁	-10.5707
所當	-10.5708
皆可	-10.5708
秋月	-10.5714
之罪	-10.5715
成進士	-10.5721
今人	-10.5724
碑文	-10.5724
航	-10.5724
較之	-10.5724
五言	-10.5727
我來	-10.5728
崑崙	-10.5729
三更	-10.5732
内府	-10.5732
迓	-10.5733
吳江	-10.5735
而言	-10.5737
而為	-10.5739
天台	-10.5744
蠲免	-10.5746
相同	-10.5748
憇	-10.5749
經年	-10.5751
舛	-10.5753
瘴	-10.5755
年六十	-10.5757
題名	-10.5758
扼	-10.5762
嘉定	-10.5772
則必	-10.5776
筐	-10.5777
秋禾	-10.5779
千人	-10.578
窩	-10.5781
相如	-10.5783
終不	-10.5783
為詩	-10.5786
無過	-10.5786
置之	-10.5789
矣其	-10.5789
此言	-10.5791
誰與	-10.5792
優霑	-10.5795
齋居	-10.5798
之賢	-10.58
而不可	-10.5802
磵	-10.5802
書生	-10.5805
做	-10.5805
甚多	-10.5815
藕	-10.5815
大士	-10.5821
賁	-10.5824
固有	-10.5827
鬯	-10.5833
實錄	-10.5833
汰	-10.5833
盛事	-10.5835
者一	-10.5838
八首	-10.5838
繼之	-10.5844
鈿	-10.5848
四百	-10.5849
不善	-10.5854
有功	-10.5858
蛩	-10.5858
得一	-10.5858
西成	-10.5859
諸將	-10.5863
收成	-10.5869
山僧	-10.5874
梳	-10.5877
狹	-10.5883
菱	-10.5888
其學	-10.5894
王師	-10.5895
保定	-10.5896
感激	-10.5898
莅	-10.5907
也曰	-10.5908
烝	-10.5909
茁	-10.5909
不厭	-10.5909
經學	-10.5911
不遇	-10.5916
所聞	-10.592
饋	-10.5926
圖書	-10.5926
滄	-10.593
登樓	-10.593
賽	-10.5933
籖	-10.5934
不失	-10.5936
丁丑	-10.5937
亦必	-10.5942
再三	-10.5943
之矣	-10.5944
粲	-10.5945
之始	-10.5948
起居	-10.5948
南渡	-10.5949
六十年	-10.5951
正義	-10.5951
指揮	-10.5955
恆	-10.5955
有竒	-10.5958
縹緲	-10.5962
亦自	-10.5964
□	-10.5964
東林	-10.5965
太極	-10.5967
十一年	-10.5972
大有	-10.5987
國朝	-10.5991
從之	-10.5996
有詩	-10.5997
訣	-10.6003
臚	-10.6007
景物	-10.6011
􁔪	-10.6017
太倉	-10.6019
登髙	-10.6022
屑	-10.6025
啄	-10.6027
惟恐	-10.6029
十五日	-10.6033
誰家	-10.6034
已而	-10.6034
故云	-10.6036
釁	-10.6036
乎此	-10.6043
北方	-10.6049
虞山	-10.6051
五代	-10.6051
汴	-10.6052
與夫	-10.6058
戢	-10.6059
娱	-10.6062
憔悴	-10.6062
冺	-10.6063
黄花	-10.6067
不得已	-10.6072
何能	-10.6074
一編	-10.6076
十三日	-10.6082
六首	-10.6085
故有	-10.6089
等日	-10.6091
有無	-10.6096
淀	-10.61
未易	-10.6102
南歸	-10.6106
蝕	-10.611
山陰	-10.6112
庚戌	-10.6115
喀	-10.6115
兵丁	-10.6116
不解	-10.6117
之典	-10.6121
之㫖	-10.6125
書法	-10.6129
之失	-10.6135
懽	-10.6136
汚	-10.6138
山居	-10.6147
溪山	-10.6147
安人	-10.6151
也予	-10.6152
重陽	-10.6153
苕	-10.6159
愍	-10.616
瘠	-10.6161
拊	-10.6164
曾孫	-10.6164
山河	-10.6167
依依	-10.6167
秋雨	-10.617
石經	-10.6172
太湖	-10.6173
江陵	-10.6179
成都	-10.6179
王母	-10.6184
紹興	-10.6184
曼	-10.6186
六七	-10.6188
虐	-10.6189
戊戌	-10.6194
凱	-10.6194
風景	-10.6197
鞍	-10.6199
嘉興	-10.62
亭亭	-10.6201
令人	-10.6209
縣令	-10.6213
悍	-10.6215
池上	-10.6215
販	-10.6218
而自	-10.622
即以	-10.6221
於時	-10.6223
無數	-10.6223
十餘	-10.623
焚香	-10.6235
江蘇	-10.6236
億	-10.6237
之師	-10.6238
壬子	-10.6246
書曰	-10.6247
十二日	-10.6251
李白	-10.6254
衙門	-10.6255
祖宗	-10.6259
一聲	-10.6262
綻	-10.6265
功成	-10.6271
不起	-10.6272
副使	-10.6274
曡	-10.6276
粹	-10.6282
五人	-10.6284
羣臣	-10.6284
之門	-10.6284
髙樓	-10.6285
出其	-10.6285
即此	-10.6285
而公	-10.6286
好事	-10.629
塍	-10.629
炤	-10.6293
老子	-10.6298
㳒	-10.6299
之命	-10.6301
爲文	-10.6302
顒	-10.6311
濠	-10.6315
太和	-10.6317
芍藥	-10.6321
漠漠	-10.6322
丙午	-10.6323
先公	-10.6325
其説	-10.6327
誨	-10.6333
餓	-10.6333
上林	-10.6334
穹	-10.6342
罄	-10.6347
半月	-10.6347
弩	-10.6348
無限	-10.6349
莎	-10.6349
屆	-10.6351
於人	-10.6353
遣使	-10.6353
丁酉	-10.6354
無何	-10.6355
浣	-10.6358
慟	-10.636
南國	-10.6367
三載	-10.6367
朴	-10.6369
縫	-10.637
明史	-10.6373
朋友	-10.6374
燃	-10.6374
萬頃	-10.6384
茅屋	-10.6389
而得	-10.6391
壬	-10.6391
甲乙	-10.6392
以告	-10.6394
論文	-10.6395
歿	-10.64
㠶	-10.6401
坂	-10.6401
為人	-10.6415
為我	-10.642
鉛	-10.642
以次	-10.6421
以備	-10.6423
七字	-10.6423
龎	-10.6423
腕	-10.6424
松江	-10.6424
蒼蒼	-10.6428
翎	-10.6429
戊辰	-10.643
一經	-10.6431
庇	-10.6431
玆	-10.6431
開府	-10.6436
想像	-10.6437
春來	-10.6439
自昔	-10.6442
吾聞	-10.6443
虬	-10.6445
死生	-10.6446
加以	-10.6449
不行	-10.645
捉	-10.645
幀	-10.6456
頰	-10.6458
試問	-10.6461
颯	-10.6461
㑹稽	-10.6462
余與	-10.6462
丙子	-10.6466
不入	-10.6467
故鄉	-10.6468
回部	-10.6468
功臣	-10.6468
若何	-10.6469
一夕	-10.6474
八九	-10.6476
其所以	-10.6476
之德	-10.6476
秋成	-10.648
兌	-10.648
歆	-10.6481
南京	-10.6482
二十二	-10.6482
城郭	-10.6483
也則	-10.6486
方寸	-10.6486
十六年	-10.6487
愴	-10.6488
後先	-10.6488
貝	-10.6489
孽	-10.6491
櫂	-10.6492
千百	-10.6493
到處	-10.6499
終始	-10.6503
亦云	-10.6505
吁	-10.6505
姻	-10.6505
江淮	-10.6506
贅	-10.6506
曲折	-10.6506
邢	-10.651
鞏	-10.6511
伺	-10.6511
宫中	-10.6519
上官	-10.6519
月令	-10.6521
之思	-10.6521
嗣後	-10.6522
必先	-10.6526
巵	-10.6531
老夫	-10.6532
他年	-10.6535
聿	-10.6535
苛	-10.6536
積雪	-10.6538
長洲	-10.654
楊柳	-10.6541
不逮	-10.6543
攫	-10.6558
鵬	-10.6559
晷	-10.656
闇	-10.6561
靡不	-10.6561
庚寅	-10.6564
寃	-10.6564
爲詩	-10.6565
一室	-10.6567
為一	-10.6568
夢中	-10.6574
稽古	-10.658
知已	-10.6583
竹林	-10.6586
纒	-10.6587
翟	-10.6587
洒	-10.6588
寂寂	-10.6589
何為	-10.6589
不問	-10.659
何曾	-10.659
霑足	-10.6592
孜孜	-10.6592
歸田	-10.6593
乙未	-10.6597
佈	-10.6598
幕府	-10.6603
給事	-10.6606
兒童	-10.6611
之區	-10.6612
口占	-10.6615
厠	-10.6616
多有	-10.6617
諌	-10.6618
河水	-10.662
滕	-10.6622
起家	-10.6624
彼此	-10.6624
夙夜	-10.6639
亢	-10.664
砥	-10.6641
侶	-10.6641
矣今	-10.6642
秊	-10.6642
曵	-10.6644
不離	-10.6645
西河	-10.6646
琬	-10.6647
小憩	-10.6649
白髪	-10.665
安南	-10.6654
後來	-10.6658
北海	-10.6661
灼	-10.6664
檣	-10.6666
裾	-10.6669
不辭	-10.6669
前人	-10.6673
款	-10.6674
憎	-10.6675
元旦	-10.6676
發明	-10.6679
聰明	-10.6689
古寺	-10.6689
未經	-10.6689
薊	-10.6692
萬夀	-10.6695
文獻	-10.6697
婆	-10.67
謗	-10.67
誚	-10.6701
貝勒	-10.6704
程朱	-10.6708
十六日	-10.6709
徃徃	-10.671
之術	-10.671
多士	-10.6711
七言	-10.6717
阿桂	-10.6721
闊	-10.6725
鍼	-10.6725
者謂	-10.6727
覇	-10.6727
好古	-10.6728
捜	-10.6728
寒暑	-10.6728
十八日	-10.6733
三世	-10.6733
自得	-10.6739
次日	-10.6747
螭	-10.6748
㓂	-10.6749
經傳	-10.675
因命	-10.6752
無盡	-10.6752
驥	-10.6752
殯	-10.6753
之兵	-10.6753
北山	-10.6754
人人	-10.6756
廩	-10.6756
此際	-10.6758
風雪	-10.6758
武功	-10.6763
於後	-10.6765
笏	-10.6766
一行	-10.6772
八旬	-10.6774
蘚	-10.6775
雌	-10.6775
園中	-10.678
祉	-10.678
届	-10.6782
羃	-10.6783
暮春	-10.6785
五首	-10.6791
肝	-10.6792
九重	-10.6797
▁臣	-10.68
辛苦	-10.6803
弧	-10.6804
自謂	-10.6807
譁	-10.6808
山谷	-10.6808
迸	-10.6809
瑕	-10.6809
斯文	-10.681
憚	-10.6811
都督	-10.6813
形勢	-10.6815
刹	-10.682
二卷	-10.6823
相近	-10.6828
事也	-10.6829
同人	-10.6833
一官	-10.6834
霰	-10.6834
過雨	-10.6835
在此	-10.6836
炬	-10.6836
已成	-10.6837
耄	-10.6839
十七年	-10.6842
不暇	-10.6843
寥	-10.6846
老矣	-10.6851
趾	-10.6854
會稽	-10.6861
不傳	-10.6862
胄	-10.6862
者哉	-10.6867
南望	-10.6872
晨夕	-10.6873
之情	-10.6877
瓣	-10.6887
鈍	-10.689
旂	-10.6892
此其	-10.6893
不甚	-10.6893
時節	-10.6893
舊有	-10.6894
七十二	-10.6895
甘霖	-10.6896
不下	-10.6898
及此	-10.69
爲我	-10.6904
之音	-10.6906
太史公	-10.6909
古人之	-10.6913
珍重	-10.6914
漬	-10.6916
鍊	-10.6917
穢	-10.6919
若有	-10.6919
風雲	-10.6919
隈	-10.692
沁	-10.6921
前往	-10.6922
三分	-10.6924
淮安	-10.693
不顧	-10.6933
注云	-10.6935
學術	-10.6936
其能	-10.6941
雞鳴	-10.6941
既已	-10.6943
脣	-10.6944
蕚	-10.6945
蓼	-10.6945
盃	-10.6946
蠅	-10.6947
貞觀	-10.6949
之弊	-10.6949
京口	-10.6951
睹	-10.6951
民力	-10.6954
搏	-10.6955
朔日	-10.6956
二公	-10.6964
祖父	-10.6966
禀	-10.6968
湮	-10.697
搴	-10.6974
天心	-10.6974
行狀	-10.6976
瓢	-10.6976
壬寅	-10.6976
生計	-10.6978
鼐	-10.6979
紓	-10.6979
性命	-10.6981
通鑑	-10.6982
肩輿	-10.6983
有道	-10.6989
羸	-10.699
攢	-10.7002
平陽	-10.7003
兩人	-10.7005
百餘	-10.7005
被水	-10.7009
馬上	-10.7009
千尺雪	-10.7011
識者	-10.7012
地方官	-10.7014
從事	-10.7016
姚江	-10.7019
我欲	-10.7024
著述	-10.7026
運河	-10.7026
凭	-10.703
笥	-10.7032
嶼	-10.7032
狥	-10.7034
矣故	-10.7037
相公	-10.7041
兒女	-10.7041
翩	-10.7045
翠微	-10.7048
愷	-10.7054
鳶	-10.706
清河	-10.7061
壹	-10.7063
璽	-10.7064
悠然	-10.7078
因思	-10.7081
錢唐	-10.7082
駝	-10.7087
凢	-10.709
傳曰	-10.7091
名家	-10.7094
胸中	-10.7095
中間	-10.7096
固已	-10.7096
尚可	-10.7096
其可	-10.7096
老成	-10.7096
無論	-10.7102
甘肅	-10.7105
而况	-10.711
氊	-10.7115
默	-10.7116
婆娑	-10.7117
飲酒	-10.712
春山	-10.712
廼	-10.7121
庚辰	-10.7121
世人	-10.7125
蛟龍	-10.7127
之精	-10.7129
四字	-10.713
亘	-10.713
兩月	-10.713
浹	-10.7131
盂	-10.7132
盜賊	-10.7137
夏至	-10.7138
烟波	-10.7138
斫	-10.7142
枋	-10.7142
安知	-10.7143
寔	-10.7145
頥	-10.7146
畫圖	-10.7146
居民	-10.7147
攅	-10.7147
縣知縣	-10.7147
原韻	-10.715
同日	-10.715
珪	-10.7151
般	-10.7153
旣而	-10.7155
甲寅	-10.7157
右軍	-10.7157
余曰	-10.7158
此心	-10.7158
竺	-10.7162
之體	-10.7163
孺	-10.7164
荔	-10.7165
訾	-10.7176
流光	-10.7179
忠義	-10.718
汾	-10.7183
楊栁	-10.7184
遺民	-10.7187
年八十	-10.719
唐書	-10.7192
忠臣	-10.7194
爲一	-10.7196
愛民	-10.7198
惱	-10.7198
光明	-10.7201
禎	-10.7201
同知	-10.7202
燄	-10.7203
淋漓	-10.7206
生民	-10.7206
國語	-10.7207
穗	-10.7207
瞿	-10.7209
吾民	-10.7215
以資	-10.7218
治之	-10.7221
名臣	-10.7222
大儒	-10.7225
人者	-10.723
非所	-10.723
齎	-10.7232
入山	-10.7232
相去	-10.7233
泠泠	-10.7234
烘	-10.7234
渇	-10.7235
馥	-10.7235
洊	-10.7236
沅	-10.7252
記得	-10.7254
辛巳	-10.7254
終古	-10.7255
君王	-10.7256
奏請	-10.7257
貂	-10.7265
昔者	-10.7266
園林	-10.7267
不惟	-10.7268
三十里	-10.7268
道也	-10.7268
水經	-10.7268
又復	-10.727
以死	-10.7272
何不	-10.7275
蹄	-10.7276
相似	-10.7277
書畫	-10.728
藜	-10.7283
剡	-10.7285
墓表	-10.7285
無私	-10.7287
垂楊	-10.7287
孤城	-10.7289
夥	-10.7291
些	-10.7291
唘	-10.7294
多矣	-10.7295
皴	-10.7295
如有	-10.73
言者	-10.7302
不已	-10.7304
石門	-10.7305
門戸	-10.7306
墾	-10.7306
天子之	-10.7313
南苑	-10.7314
言也	-10.7316
取之	-10.7319
犂	-10.732
庭前	-10.732
壅	-10.7321
頺	-10.7322
臣等	-10.7323
時文	-10.7326
四書	-10.7326
之先	-10.7327
文公	-10.733
文選	-10.7332
周之	-10.7333
大將軍	-10.7333
太行	-10.7334
西園	-10.7335
者三	-10.7339
以文	-10.7341
䰟	-10.7347
泐	-10.7348
賸	-10.7349
秃	-10.7349
此語	-10.7349
正當	-10.7352
侍讀	-10.7353
十四日	-10.7358
稱其	-10.7362
不絶	-10.7363
甲午	-10.7364
棧	-10.7365
分數	-10.7365
也嗚呼	-10.7368
事之	-10.7369
笋	-10.7375
綰	-10.7375
叱	-10.7376
五十年	-10.7377
亦曰	-10.7377
城北	-10.7382
海內	-10.7385
無子	-10.739
立秋	-10.7396
禮成	-10.7398
宗伯	-10.7401
昂	-10.7401
男子	-10.7404
髓	-10.7405
為此	-10.7408
晋	-10.7411
萬人	-10.7411
和闐	-10.7412
舟行	-10.7423
聖母	-10.7426
户部	-10.7426
瑣	-10.7429
徐州	-10.743
其辭	-10.7432
漢魏	-10.7433
侍從	-10.7434
數千	-10.7434
此次	-10.7434
翩翩	-10.7435
璞	-10.7436
日以	-10.7438
萼	-10.7439
少時	-10.7439
仄	-10.7439
剥	-10.7439
宣和	-10.744
癸丑	-10.744
抹	-10.7441
有情	-10.7443
无	-10.7444
甘泉	-10.7444
便是	-10.7447
悽	-10.7453
往還	-10.7454
一方	-10.7458
林下	-10.7459
載酒	-10.746
經筵	-10.7461
秦漢	-10.7465
司徒	-10.7466
孫子	-10.7467
三春	-10.7468
閃	-10.7468
膩	-10.7469
轟	-10.747
一道	-10.7472
字子	-10.7473
之患	-10.7474
張子	-10.7475
而上	-10.7477
斯言	-10.748
永樂	-10.7483
瀛臺	-10.7486
煮	-10.7492
與余	-10.7492
瀟湘	-10.7495
不食	-10.7495
萱	-10.7496
奏聞	-10.7497
丙戌	-10.7497
状	-10.7497
時若	-10.7499
先師	-10.75
廹	-10.7502
藪	-10.7505
竣	-10.7506
靈巖	-10.7509
身後	-10.7514
者何	-10.7516
源流	-10.7516
經文	-10.7516
靑山	-10.752
事者	-10.7521
然亦	-10.7523
窄	-10.7525
装	-10.7526
頸	-10.7526
飄零	-10.7527
槃	-10.7529
樓閣	-10.7529
其本	-10.7536
太師	-10.7536
烈婦	-10.7537
兀	-10.7543
無遺	-10.7547
飲食	-10.755
蒿	-10.7551
有志	-10.7553
諦	-10.7554
其年	-10.7555
西陵	-10.7556
溼	-10.7556
主事	-10.7557
慵	-10.7558
瀟灑	-10.756
雨暘	-10.7562
儒林	-10.7563
奉命	-10.7564
丁未	-10.7565
數人	-10.7567
長河	-10.7568
垢	-10.757
子姓	-10.7574
山寺	-10.7575
燕子	-10.7576
造化	-10.7577
大家	-10.7579
有大	-10.7581
猶是	-10.7583
衣裳	-10.7584
拆	-10.7587
不樂	-10.7588
驂	-10.759
而知	-10.7593
盈尺	-10.7596
生子	-10.7597
雪後	-10.7597
深處	-10.7598
之利	-10.7605
硯銘	-10.7608
月下	-10.761
天門	-10.7611
芥	-10.7612
水流	-10.7613
狄	-10.7614
賖	-10.7614
各属	-10.7615
聆	-10.7617
於天	-10.762
鄭康成	-10.7621
雖未	-10.7621
賔客	-10.7623
此非	-10.7627
北斗	-10.7629
盈盈	-10.7631
入土	-10.7635
琅	-10.7635
理學	-10.7637
寐	-10.7645
予以	-10.7646
匆匆	-10.7648
惰	-10.765
立言	-10.7652
天竺	-10.7653
甲戌	-10.7653
日出	-10.7655
二十三	-10.7655
家世	-10.7657
可望	-10.7658
事宜	-10.7659
花枝	-10.7663
不通	-10.7663
醴	-10.7667
人言	-10.7669
愉	-10.7671
三間	-10.7672
無所不	-10.7674
浚	-10.7674
脆	-10.7674
溷	-10.7676
翡翠	-10.7676
刷	-10.7677
兹據	-10.7677
漢人	-10.768
况復	-10.768
忻	-10.7682
不辨	-10.7682
即位	-10.7684
忱	-10.769
卽以	-10.7694
石橋	-10.7696
孔氏	-10.7698
城外	-10.7698
鉞	-10.7699
目錄	-10.77
曰我	-10.77
榛	-10.7701
知有	-10.7702
千尺	-10.7703
薨	-10.7704
林泉	-10.7706
皋	-10.7706
笻	-10.7707
曺	-10.7709
出處	-10.771
渙	-10.7711
廓爾喀	-10.7714
當以	-10.7715
秋收	-10.7716
庚午	-10.7716
論詩	-10.7719
不載	-10.7728
甘膏	-10.7729
禪師	-10.7731
有意	-10.7737
考之	-10.7738
彛	-10.7739
入都	-10.7744
武陵	-10.7747
舉行	-10.7748
祈年	-10.7749
有事	-10.775
其先	-10.775
四子	-10.7752
亦多	-10.7753
刺史	-10.7754
可得	-10.7757
吾鄕	-10.7757
平日	-10.7758
豈必	-10.7759
門生	-10.7759
戶	-10.776
是為	-10.7762
淵源	-10.7762
難得	-10.7763
天啓	-10.7764
石城	-10.7766
中央	-10.7766
噴	-10.7767
海外	-10.7769
懈	-10.777
而歸	-10.7772
儆	-10.7772
世事	-10.7776
連朝	-10.7781
公與	-10.7784
一等	-10.7788
及時	-10.7793
竟日	-10.7793
淒	-10.7794
知君	-10.7794
乃得	-10.7794
騶	-10.7794
漠	-10.7796
今已	-10.7797
坼	-10.7797
笳	-10.7797
我聞	-10.7802
徇	-10.7803
篁	-10.7804
每嵗	-10.7805
長城	-10.7805
四人	-10.7809
集卷	-10.7817
花朝	-10.7818
欣然	-10.7818
我朝	-10.7819
脅	-10.782
底事	-10.7823
山左	-10.7823
蜜	-10.7824
綘	-10.7825
不數	-10.7826
賄	-10.7828
瑜	-10.7828
䧟	-10.7829
迪	-10.7831
伊犁	-10.7832
之任	-10.7834
甡	-10.7836
十首	-10.7836
官吏	-10.7838
兩家	-10.784
出于	-10.7841
千餘	-10.7843
假借	-10.7852
華亭	-10.7852
吾子	-10.7854
好學	-10.7856
筆墨	-10.7856
長歌	-10.7859
壬辰	-10.7861
駮	-10.7861
疵	-10.7862
月上	-10.7864
上帝	-10.7867
不能自	-10.7871
列傳	-10.7872
百萬	-10.7872
乂	-10.7875
則無	-10.7883
藏書	-10.7886
皆不	-10.7889
諮	-10.7891
已過	-10.7892
閎	-10.7892
讎	-10.7892
祭酒	-10.7893
明之	-10.7894
臨川	-10.7895
古來	-10.7898
及之	-10.7898
白玉	-10.7898
一寸	-10.7903
十七日	-10.7905
元日	-10.7908
衲	-10.7914
涌	-10.7918
丹陽	-10.7923
有異	-10.7923
所知	-10.7924
抉	-10.7925
未央	-10.7926
詩句	-10.7927
佞	-10.793
同里	-10.7932
乃有	-10.7933
皎	-10.7935
之節	-10.7936
卡	-10.7936
正是	-10.7937
南方	-10.7939
全書	-10.7942
三十二	-10.7942
之勝	-10.7946
宋儒	-10.7946
所傳	-10.7947
囑	-10.7954
蘇軾	-10.7956
幾何	-10.7956
妨	-10.7957
蛾眉	-10.796
陛下	-10.7962
有四	-10.7962
金門	-10.7963
孤山	-10.7968
一錢	-10.7976
我心	-10.7976
爾等	-10.7976
殺賊	-10.7976
韶光	-10.7976
徒以	-10.7977
售	-10.7978
特諭	-10.7978
人知	-10.7979
彝	-10.7981
療	-10.7982
哨	-10.7982
翮	-10.7982
寥寥	-10.7983
傭	-10.7983
押	-10.7985
芟	-10.7985
尤為	-10.7986
幄	-10.7986
春草	-10.7991
而出	-10.7991
聨句	-10.7992
千萬	-10.7994
馬蹄	-10.7996
也葢	-10.8002
試看	-10.8007
孝弟	-10.8008
近世	-10.8009
記曰	-10.801
驢	-10.8013
魚龍	-10.8013
撒	-10.8015
之使	-10.8016
人倫	-10.8016
皆在	-10.8017
邇日	-10.8021
梨	-10.8024
何由	-10.8028
者故	-10.803
孝亷	-10.8034
宗室	-10.8038
夜月	-10.8038
松柏	-10.8038
平湖	-10.8043
玉堂	-10.8045
郎中	-10.8048
殺之	-10.805
嫡	-10.8051
清和	-10.8061
乎曰	-10.8065
十丈	-10.8066
望澤	-10.8067
柬	-10.8072
必不	-10.8075
記之	-10.8076
所生	-10.8076
犁	-10.8076
不明	-10.8078
牐	-10.8079
潄	-10.808
舊事	-10.8082
猶然	-10.8085
三公	-10.8085
親見	-10.8086
惻	-10.8086
京城	-10.8087
撫臣	-10.8097
於朝	-10.8098
家傳	-10.8102
余之	-10.8106
公羊	-10.8108
在兹	-10.8108
遄	-10.8111
朝來	-10.8114
世宗	-10.8118
三山	-10.8121
第五	-10.8122
遺文	-10.8125
知我	-10.8128
一葉	-10.8133
雲林	-10.8133
不異	-10.8133
十卷	-10.8137
不意	-10.8138
鑰	-10.8139
弭	-10.8141
閙	-10.8141
三五	-10.8141
巽	-10.8142
天際	-10.8143
蹉跎	-10.8144
萬石	-10.8145
悠	-10.8148
也先生	-10.8151
自言	-10.8153
之可	-10.8155
前年	-10.8155
潞	-10.8163
躬行	-10.8165
而反	-10.8166
秋山	-10.8169
穠	-10.817
明矣	-10.8171
中山	-10.8172
粘	-10.8173
迢迢	-10.8174
氣象	-10.8174
悞	-10.8176
燠	-10.8177
連日	-10.818
西京	-10.8185
而先生	-10.8187
蒼生	-10.8192
曲江	-10.8193
穩	-10.8194
江浙	-10.8195
葱	-10.8195
据	-10.82
所宜	-10.8201
咲	-10.8202
文帝	-10.8204
彞	-10.8205
庖	-10.8205
譙	-10.8207
夜深	-10.8208
棚	-10.8208
幾時	-10.8212
至誠	-10.8213
不寐	-10.8215
子夏	-10.8216
未有不	-10.8217
直隸	-10.8218
封疆	-10.8222
三朝	-10.8223
今宵	-10.8227
朝鮮	-10.8235
楣	-10.8235
顆	-10.8235
净	-10.8235
蠡	-10.8236
二十七	-10.8239
礟	-10.8239
唾	-10.824
㤗	-10.824
淙	-10.8241
軍營	-10.8242
入門	-10.8244
書堂	-10.825
碑記	-10.8252
爾時	-10.8255
小樓	-10.8258
隨時	-10.8262
矣又	-10.8262
獨坐	-10.8263
墉	-10.8266
雲霞	-10.8267
君諱	-10.8267
袒	-10.8268
餌	-10.8269
詘	-10.827
我兵	-10.8271
壠	-10.8271
第四	-10.8274
黯	-10.8277
歸而	-10.8277
君以	-10.8282
一水	-10.8283
者多矣	-10.8284
落成	-10.8284
二寸	-10.8288
華山	-10.829
長江	-10.8294
其弟	-10.8297
於天下	-10.8299
昉	-10.8299
纍纍	-10.83
捍	-10.8301
炭	-10.8301
昆明	-10.8302
沂	-10.8302
窘	-10.8304
兩岸	-10.8305
曾子	-10.8305
學之	-10.8312
韓愈	-10.8313
師友	-10.8313
癸	-10.8314
也雖然	-10.8315
後有	-10.8318
之期	-10.8319
今昔	-10.8321
寄語	-10.8322
已有	-10.8322
是謂	-10.8324
大都	-10.8325
叔父	-10.8328
㝎	-10.8331
我師	-10.8333
水旱	-10.8334
吝	-10.8334
江流	-10.8336
筭	-10.8336
刦	-10.8337
八旗	-10.8339
中州	-10.8341
劉氏	-10.8344
淮揚	-10.8345
萬樹	-10.8346
名之曰	-10.8348
詞臣	-10.8349
不廢	-10.8351
仁和	-10.8352
鄉試	-10.8352
不知何	-10.8354
之旨	-10.836
鼇	-10.8362
㟁	-10.8365
僵	-10.8365
飛來	-10.8367
生意	-10.8367
宇宙	-10.8367
無益	-10.8368
安民	-10.837
喇嘛	-10.8371
白髮	-10.8372
花前	-10.8374
壁間	-10.8375
八百	-10.8375
畿南	-10.8375
以歸	-10.8378
其功	-10.838
假山	-10.8386
裒	-10.8387
之家	-10.8388
秋光	-10.8391
賓客	-10.8392
廷臣	-10.8393
更無	-10.8394
楮	-10.8395
當前	-10.8398
之性	-10.8402
亦當	-10.8408
以慰	-10.8408
近代	-10.8411
出而	-10.8414
鬛	-10.8418
㢘	-10.8419
件	-10.8419
昔日	-10.8421
𬒳	-10.8424
自知	-10.8427
誄	-10.8428
之傳	-10.8429
仲子	-10.843
磔	-10.8433
搶	-10.8435
具在	-10.8436
磊落	-10.8436
將士	-10.8443
以俟	-10.8446
漢唐	-10.8448
絲竹	-10.845
男女	-10.845
幸而	-10.8451
訃	-10.8451
杉	-10.8454
葆	-10.8454
也非	-10.8455
予之	-10.8456
皇后	-10.846
戊午	-10.8462
波濤	-10.8463
恠	-10.8463
曝	-10.8465
癸卯	-10.8466
風物	-10.8467
杜牧	-10.8471
應知	-10.8472
歎曰	-10.8472
之母	-10.8473
而弗	-10.8475
京華	-10.8478
也蓋	-10.8481
而外	-10.8481
皓	-10.8482
陸續	-10.8489
世俗	-10.8491
暘	-10.8492
稽首	-10.8492
可知矣	-10.8494
匏	-10.8497
稜	-10.8497
麤	-10.8497
二十六	-10.8501
中興	-10.8507
滿洲	-10.8508
後漢書	-10.851
取士	-10.8512
者固	-10.8513
玉樹	-10.8517
播種	-10.852
王父	-10.852
樓上	-10.8523
紈	-10.8524
寸心	-10.8529
劵	-10.8531
弋	-10.8531
上方	-10.8532
輕輿	-10.8535
非有	-10.8536
南宋	-10.854
人主	-10.8541
人閒	-10.8542
四寸	-10.8543
獨立	-10.8546
石壁	-10.8548
有神	-10.855
皇子	-10.8554
斌	-10.8555
楫	-10.8555
極目	-10.8559
拭	-10.856
窪	-10.8562
郁	-10.8565
展轉	-10.8566
立春	-10.8566
所由	-10.8566
司農	-10.8566
泗	-10.8567
昆弟	-10.8568
供奉	-10.8569
於心	-10.8571
長發	-10.8571
復何	-10.8574
予嘗	-10.8577
卓然	-10.8579
一作	-10.8579
弱冠	-10.8579
閣下	-10.8579
宣城	-10.8579
眼前	-10.8581
軍中	-10.8587
深透	-10.859
裊	-10.8592
屍	-10.8593
僭	-10.8595
摭	-10.8597
侮	-10.8598
外藩	-10.8599
部議	-10.86
漢儒	-10.8602
二十九	-10.8603
詩成	-10.8603
或謂	-10.8607
對酒	-10.8611
山田	-10.8613
則不	-10.8618
形容	-10.8618
吾心	-10.8618
有明	-10.862
罨	-10.8623
畊	-10.8628
然也	-10.8629
攄	-10.863
雖云	-10.863
眩	-10.863
而獨	-10.8633
位置	-10.8634
二者	-10.8636
洪範	-10.8636
家有	-10.8642
二千	-10.8645
春夏	-10.8647
多情	-10.8649
匝	-10.8651
之治	-10.8656
施行	-10.8657
冤	-10.8658
譲	-10.8661
樣	-10.8662
幾人	-10.8662
扎	-10.8662
寂寥	-10.8663
雖無	-10.8663
卒于	-10.8665
支離	-10.8665
能無	-10.8666
初度	-10.8666
庚申	-10.8672
秋聲	-10.8672
十數	-10.868
長生	-10.8682
有年	-10.8682
中年	-10.8684
世界	-10.8685
孺子	-10.8688
児	-10.869
燎	-10.8694
糓	-10.8695
前嵗	-10.8695
鏡中	-10.8696
掲	-10.8698
一尺	-10.8701
之美	-10.8702
勤政	-10.8703
何曽	-10.8709
千山	-10.8714
遺事	-10.8719
媒	-10.872
餘姚	-10.8723
豈易	-10.8724
燼	-10.8726
賑濟	-10.8727
紐	-10.8727
芃	-10.8728
䄂	-10.8729
璫	-10.8729
泉石	-10.8729
肘	-10.873
摩挲	-10.873
悲歌	-10.873
炫	-10.873
柵	-10.8731
剩	-10.8732
淩	-10.8732
邃	-10.8733
脊	-10.8736
異日	-10.8739
濛濛	-10.8743
也君	-10.8745
可乎	-10.8745
容易	-10.875
過此	-10.8752
昻	-10.8752
烟霞	-10.8753
水經注	-10.8754
駟	-10.8754
那能	-10.8755
舉其	-10.8758
个	-10.8759
變而	-10.876
瑾	-10.876
莫如	-10.8764
規模	-10.8764
公主	-10.8765
蕭瑟	-10.8765
素心	-10.8766
而不得	-10.8767
戊申	-10.8767
諸王	-10.8771
正值	-10.8772
傳聞	-10.8773
底須	-10.8774
悚	-10.8775
疇昔	-10.8775
也有	-10.8779
戊子	-10.8779
且以	-10.8788
典禮	-10.8789
猗	-10.8791
來往	-10.8795
嵌	-10.8799
鐘聲	-10.88
頻年	-10.8807
觀者	-10.8808
季子	-10.8812
高祖	-10.8813
諭㫖	-10.882
青天	-10.8823
京畿	-10.8824
闥	-10.8826
蹋	-10.8826
不無	-10.8827
觚	-10.8829
瘞	-10.883
痩	-10.883
南湖	-10.8831
招提	-10.8832
三徑	-10.8835
按察使	-10.8835
以行	-10.8839
家貧	-10.8839
浙東	-10.884
所司	-10.8843
明季	-10.8846
青雲	-10.8847
謙益	-10.8849
事而	-10.885
猶可	-10.8852
之暇	-10.8855
竹垞	-10.8856
水仙	-10.8857
杜陵	-10.8861
飼	-10.8863
輈	-10.8863
不能盡	-10.8864
吾父	-10.8864
無疑	-10.8865
頋	-10.8866
㢲	-10.8867
亦知	-10.8868
承恩	-10.8868
五福	-10.8869
兩年	-10.8873
著作	-10.8873
詹事	-10.8877
吁嗟	-10.8879
有客	-10.888
三秋	-10.8881
文正	-10.8882
並無	-10.8884
僉事	-10.8886
無極	-10.8886
原本	-10.8887
流俗	-10.8888
之習	-10.8889
中夜	-10.8892
蛙	-10.8893
蓴	-10.8895
耒	-10.8897
光武	-10.8897
嵇	-10.8898
戕	-10.89
於中	-10.8901
綾	-10.8901
官軍	-10.8902
吳興	-10.8903
之南	-10.8904
嵗時	-10.8905
頗有	-10.8907
晉書	-10.891
浮屠	-10.8911
忠介	-10.8912
合龍	-10.8915
或可	-10.8916
緇	-10.892
白雪	-10.8927
知音	-10.8929
今夕	-10.8929
紅葉	-10.8929
引河	-10.8929
臣子	-10.8929
城市	-10.8929
倖	-10.893
坑	-10.893
弑	-10.8931
仆	-10.8932
卵	-10.8932
懦	-10.8933
至尊	-10.8934
迤邐	-10.8935
辛亥	-10.8937
癸巳	-10.8939
土人	-10.894
居官	-10.8942
或云	-10.8951
水火	-10.8951
為民	-10.8953
非無	-10.8961
與子	-10.8963
碑跋	-10.8964
新秋	-10.8965
屨	-10.8967
腳	-10.8967
覧	-10.8968
何似	-10.8968
水利	-10.8971
見者	-10.8972
潺湲	-10.8973
離騷	-10.8977
附近	-10.8979
彖	-10.8979
實録	-10.898
江漢	-10.898
西苑	-10.8989
週	-10.899
時則	-10.899
春寒	-10.8991
無聲	-10.8995
未發	-10.8996
人世	-10.8999
蕋	-10.8999
肻	-10.9
辛卯	-10.9004
之要	-10.9005
王者	-10.9006
恧	-10.9007
玉女	-10.9008
者與	-10.9009
之業	-10.9011
東漢	-10.9016
闕里	-10.9018
以相	-10.902
聖天子	-10.9024
烽	-10.9025
初六日	-10.9033
致仕	-10.9037
二十餘年	-10.9038
則亦	-10.9039
監察御史	-10.9039
詫	-10.904
釡	-10.904
者今	-10.9041
承平	-10.9042
聞其	-10.9053
順天	-10.9054
農民	-10.9055
矣此	-10.9055
歲在	-10.9056
驪	-10.9061
者葢	-10.9062
奉㫖	-10.9065
筞	-10.9066
耦	-10.9066
風波	-10.9069
腦	-10.907
夔	-10.9074
侑	-10.9074
莫敢	-10.9078
豈獨	-10.908
崑	-10.9083
清口	-10.9089
花間	-10.9092
野老	-10.9093
四壁	-10.9096
山靈	-10.9097
瞽	-10.9097
次年	-10.9099
之舊	-10.91
勻	-10.9102
啖	-10.9103
年五十	-10.9104
縠	-10.9105
青蓮	-10.911
妣	-10.911
吹簫	-10.9112
天性	-10.9112
亦已	-10.9116
南廵	-10.9117
山雲	-10.9118
豳	-10.912
郡王	-10.9121
他時	-10.9121
知者	-10.9123
躬親	-10.9124
尙有	-10.9125
格物	-10.9126
石刻	-10.9126
酹	-10.9126
公爲	-10.9129
庶㡬	-10.9132
識其	-10.9132
石上	-10.9132
爲君	-10.9134
中和	-10.9136
以正	-10.9137
柩	-10.9138
繙	-10.9139
嗔	-10.9139
用以	-10.914
义	-10.914
焉其	-10.9141
剽	-10.9143
固不	-10.9143
以禮	-10.9149
元稹	-10.9153
微風	-10.9157
喬木	-10.9157
之稱	-10.9163
有五	-10.9167
穰	-10.9168
琯	-10.917
武林	-10.9171
舊時	-10.9171
幃	-10.9172
西江	-10.9175
丙寅	-10.9176
撼	-10.9176
擷	-10.9176
械	-10.9179
癸亥	-10.918
相從	-10.9185
無情	-10.9185
大雨	-10.9186
所撰	-10.9187
江北	-10.9189
椽	-10.9191
水勢	-10.9193
金錢	-10.9194
聖祖仁皇帝	-10.9198
已久	-10.92
友朋	-10.9201
退而	-10.9202
春雲	-10.9208
蝗	-10.9209
江右	-10.921
笑語	-10.921
洎	-10.9211
尚在	-10.9211
睇	-10.9212
穏	-10.9212
舸	-10.9212
渝	-10.9213
關中	-10.9214
宗廟	-10.9216
宋之	-10.9216
生擒	-10.9217
華嚴	-10.9221
天風	-10.9228
北地	-10.9228
不果	-10.9228
只今	-10.9229
指示	-10.9233
口糧	-10.9235
廿年	-10.9239
劉向	-10.9239
褐	-10.9243
氤氲	-10.9246
用是	-10.9248
廬山	-10.9249
都統	-10.9249
两	-10.9249
干戈	-10.925
沿途	-10.9253
一語	-10.9255
蒙古	-10.9255
骨肉	-10.9256
部落	-10.9259
之職	-10.926
一千	-10.9261
今夜	-10.9262
何敢	-10.9263
塞上	-10.9266
此去	-10.9266
用此	-10.9268
扁	-10.927
無餘	-10.927
掘	-10.9272
名園	-10.9272
鷓鴣	-10.9276
者蓋	-10.9277
猶能	-10.9277
拚	-10.9279
天理	-10.928
估	-10.928
帶兵	-10.9283
鬰	-10.9286
轄	-10.9287
提要	-10.9288
視其	-10.9288
豐稔	-10.9299
已經	-10.9301
比之	-10.9302
大父	-10.9303
球	-10.9307
塾	-10.9309
千頃	-10.9309
信宿	-10.9311
此又	-10.9313
地勢	-10.9315
流泉	-10.9315
仁者	-10.9316
砲	-10.9316
葭	-10.9316
猥	-10.9316
訶	-10.932
燥	-10.9321
思之	-10.9325
小子	-10.9326
江城	-10.9327
歲星	-10.9332
無足	-10.9333
在天	-10.9334
杜詩	-10.9335
義理	-10.9337
檜	-10.9337
長嘯	-10.9338
於民	-10.9339
圖畫	-10.9344
嚢	-10.9347
者雖	-10.9347
淵明	-10.9348
唇	-10.9349
剿	-10.9349
邏	-10.9352
杵	-10.9352
秦淮	-10.9352
文殊	-10.9355
河流	-10.9356
哈薩克	-10.9356
各州縣	-10.9358
經濟	-10.9358
屯田	-10.9359
大同	-10.936
之東	-10.9362
時雨	-10.9362
偶成	-10.9364
譬如	-10.9367
雒	-10.9368
塊	-10.9371
小山	-10.9371
葉前	-10.9373
手書	-10.9373
不息	-10.9374
上天	-10.9376
惶	-10.9382
毓	-10.9386
可不	-10.9386
蔑	-10.9387
羌	-10.9389
而終	-10.939
㒺	-10.9394
金華	-10.94
父兄	-10.9408
詳見	-10.9409
明珠	-10.941
者即	-10.9411
鑪	-10.9417
奩	-10.9418
不愧	-10.9418
一章	-10.9419
逍遥	-10.9423
址	-10.9423
麝	-10.9424
瓷	-10.9426
曉行	-10.9427
史館	-10.9428
風日	-10.9428
雷雨	-10.9431
雨露	-10.9444
光祿	-10.9446
之善	-10.9452
勤民	-10.9457
種種	-10.9457
砧	-10.9458
盻	-10.9458
尚存	-10.9458
遒	-10.946
寝	-10.946
狡	-10.9461
縑	-10.9461
唐虞	-10.9461
乙丑	-10.9462
琅玕	-10.9465
咨嗟	-10.9466
甞	-10.9469
菽	-10.9475
之感	-10.9481
精舎	-10.9481
安在	-10.9483
不遑	-10.9485
和平	-10.9491
老而	-10.9493
勳	-10.9495
泌	-10.9495
聖學	-10.9496
四庫	-10.9498
將來	-10.95
小兒	-10.9501
感慨	-10.9505
譬之	-10.9506
新城	-10.9508
睢	-10.951
經理	-10.9511
監司	-10.9514
生而	-10.9515
席上	-10.9515
成書	-10.9522
萬方	-10.9523
斜日	-10.953
浩浩	-10.9531
知府	-10.9531
時事	-10.9531
畫舫	-10.9532
多所	-10.9533
杞	-10.9534
槪	-10.9534
卞	-10.9535
乙卯	-10.9535
吼	-10.9536
嗇	-10.954
筮	-10.954
嘆曰	-10.9541
東省	-10.9542
藐	-10.9542
殺人	-10.9544
矣余	-10.9546
無愧	-10.9548
天池	-10.9549
同學	-10.9551
可信	-10.9551
離離	-10.9552
不加	-10.9553
使其	-10.9563
難忘	-10.9564
其理	-10.9566
氓	-10.9567
債	-10.9568
曆	-10.9568
逵	-10.9568
紺	-10.9569
日夕	-10.9569
䨇	-10.9569
脯	-10.957
注疏	-10.9572
麾	-10.9572
雪中	-10.9572
少卿	-10.9577
之死	-10.9584
去其	-10.9585
賊巢	-10.9589
幡	-10.9589
齋中	-10.9591
之訓	-10.9593
而余	-10.9596
因而	-10.9596
棋	-10.9598
不屑	-10.9601
非也	-10.9602
万	-10.9602
威儀	-10.9604
相接	-10.9604
齊魯	-10.9606
豚	-10.9608
凜	-10.9609
𣺌	-10.961
倭	-10.961
以南	-10.961
梟	-10.9611
相看	-10.9614
不可復	-10.9614
亦不能	-10.9616
獨有	-10.9619
偉業	-10.962
臨水	-10.9622
山梁	-10.9625
其門	-10.9626
河工	-10.9629
今則	-10.9629
人有	-10.9633
陣雨	-10.9635
駱	-10.9635
自成	-10.9636
乕	-10.9637
無用	-10.9639
縞	-10.9642
毀	-10.9644
余以	-10.9645
釋文	-10.9646
覘	-10.9647
朱氏	-10.9648
詹	-10.965
仕宦	-10.965
相期	-10.9651
莊子	-10.9655
維摩	-10.9659
即席	-10.9659
廡	-10.966
燕市	-10.9661
毛詩	-10.9663
其於	-10.9664
謳	-10.9667
正學	-10.9668
數萬	-10.9668
飛鳥	-10.9672
太液	-10.9672
囿	-10.9673
喉	-10.9674
魔	-10.9678
牽牛	-10.9678
有名	-10.9678
皷	-10.9679
昨年	-10.9679
七八	-10.9679
癸酉	-10.9679
於前	-10.9679
舶	-10.968
宼	-10.9682
冗	-10.9683
㤀	-10.9683
諛	-10.9684
敢不	-10.9687
至若	-10.9691
風氣	-10.9695
櫻桃	-10.9697
表章	-10.9702
掌故	-10.9702
梧桐	-10.9703
借問	-10.9704
積水	-10.9704
萬餘	-10.9706
存者	-10.9709
之議	-10.9709
庥	-10.9709
本是	-10.9711
敖	-10.9711
五里	-10.9713
缶	-10.9715
濺	-10.9715
之西	-10.9715
拯	-10.9716
月夜	-10.9717
緊	-10.9717
芷	-10.972
滄桑	-10.972
公車	-10.9721
門户	-10.9723
皆得	-10.9725
于今	-10.9725
嘗謂	-10.9725
時人	-10.9725
南江	-10.9726
軍務	-10.9732
青青	-10.9733
先生以	-10.9734
農功	-10.9736
之所謂	-10.9739
阮亭	-10.9739
一念	-10.9741
是處	-10.9742
犖	-10.9744
孫氏	-10.9749
事業	-10.9751
萬象	-10.9751
旄	-10.9752
之責	-10.9752
醪	-10.9753
陛	-10.9753
挫	-10.9754
人日	-10.9756
揀	-10.9758
揚子	-10.9759
優游	-10.976
開國	-10.9762
功徳	-10.9762
之實	-10.9773
一種	-10.9774
有加	-10.9775
上舍	-10.9779
髙閣	-10.978
湖光	-10.9782
其兄	-10.9783
菰	-10.9784
酥	-10.9786
却是	-10.9786
巗	-10.9788
聖恩	-10.9789
未識	-10.9791
與我	-10.9791
坪	-10.9793
班固	-10.9795
谷口	-10.9799
之請	-10.9802
如許	-10.9804
七尺	-10.9805
是爲	-10.9805
一分	-10.9807
惇	-10.9807
無疆	-10.9807
萬厯	-10.9809
汶	-10.9813
夜夜	-10.9817
田家	-10.9818
無算	-10.9821
秋夜	-10.9823
是編	-10.9824
伯仲	-10.9825
竅	-10.9826
最是	-10.9826
識之	-10.9829
可與	-10.9829
叚	-10.9829
笈	-10.983
罍	-10.983
彬	-10.9833
夹	-10.9834
土司	-10.9834
三家	-10.9837
六旬	-10.9839
茫然	-10.9841
今來	-10.9843
報國	-10.9845
貢生	-10.9848
學校	-10.9849
康成	-10.9851
人多	-10.9853
東門	-10.9854
來者	-10.9857
一半	-10.9859
欒	-10.986
清秋	-10.9861
微言	-10.9862
利害	-10.9862
眇	-10.9862
一條	-10.9863
刈	-10.9865
盞	-10.9865
於是乎	-10.9866
圻	-10.9867
旻	-10.9867
棣	-10.9867
入夜	-10.9869
高下	-10.9869
起而	-10.987
知名	-10.9873
陸氏	-10.9874
旌旗	-10.9875
物也	-10.9876
向來	-10.9876
督臣	-10.9877
虎丘	-10.9878
誰識	-10.9879
歸路	-10.988
也如	-10.9883
生員	-10.9884
至意	-10.9886
兩日	-10.9889
之誤	-10.9891
死於	-10.9891
送客	-10.9897
騫	-10.9898
誰為	-10.9898
囘首	-10.9899
萬壑	-10.99
河源	-10.9901
蹶	-10.9903
晞	-10.9904
亦得	-10.9905
毬	-10.9906
淆	-10.9906
手自	-10.9907
菩薩	-10.9911
由此	-10.9917
一本	-10.9917
大海	-10.992
貴人	-10.9924
先期	-10.9925
片時	-10.9929
閒情	-10.993
中宵	-10.9934
腥	-10.9939
耿耿	-10.9939
蘂	-10.994
斟酌	-10.9943
觀音	-10.9949
尺寸	-10.9952
之極	-10.9954
興亡	-10.9954
幾度	-10.9958
詞賦	-10.996
耆舊	-10.9961
得名	-10.9964
金粟	-10.9965
子也	-10.9965
其閒	-10.9967
後進	-10.9968
無塵	-10.9968
置酒	-10.9969
易之	-10.9971
氷雪	-10.9972
則為	-10.9974
悃	-10.9978
北風	-10.9981
詩集序	-10.9982
從而	-10.9982
開封	-10.9982
夏秋	-10.9983
科名	-10.9993
又如	-10.9996
至矣	-10.9996
劉公	-10.9999
先聖	-11.0001
春膏	-11.0003
麥苗	-11.0003
先朝	-11.0004
歲時	-11.0005
疊舊作韻	-11.0005
自當	-11.0009
吸	-11.0014
􁁊	-11.0015
蓑	-11.0017
膏澤	-11.0017
煌煌	-11.0017
高陽	-11.0018
之喪	-11.0018
煦	-11.0019
鳳凰	-11.0019
難為	-11.0019
煞	-11.002
巋然	-11.0022
讞	-11.0024
本紀	-11.0024
亦可以	-11.0025
藉以	-11.0025
趙氏	-11.0028
未到	-11.0031
行旅	-11.0037
田地	-11.0038
翕	-11.004
内閣	-11.004
快晴	-11.0042
君父	-11.0044
老去	-11.0046
驄	-11.0046
先生曰	-11.0047
彭蠡	-11.0047
銀河	-11.005
糶	-11.0051
而起	-11.0052
缸	-11.0055
諭内閣	-11.0056
摶	-11.0056
也昔	-11.0057
楨	-11.0057
漣	-11.0057
瞰	-11.0058
所引	-11.0061
白露	-11.0061
甘露	-11.0064
大道	-11.0067
前一日	-11.0069
為政	-11.007
彈指	-11.0073
荷葉	-11.0078
而予	-11.008
百餘年	-11.0081
不謂	-11.0087
如水	-11.0088
未許	-11.0091
哺	-11.0091
櫛	-11.0092
飈	-11.0092
郤	-11.0093
勤勞	-11.0094
掄	-11.0094
大宗	-11.0094
忿	-11.0095
禅	-11.0096
滄洲	-11.0096
燬	-11.0098
王君	-11.0098
清流	-11.01
逺山	-11.01
斯民	-11.0102
以故	-11.0102
到此	-11.0105
乙巳	-11.0105
繁華	-11.0107
賊衆	-11.0109
在昔	-11.0113
祖母	-11.0113
堂上	-11.0118
其勢	-11.0121
州府	-11.0122
五寸	-11.0125
筝	-11.0125
陳公	-11.0129
也然而	-11.013
最為	-11.0132
五世	-11.0132
葬於	-11.0133
傳之	-11.0133
輅	-11.0133
見于	-11.0133
而猶	-11.0133
纈	-11.0135
内有	-11.0136
布政司	-11.0138
以文章	-11.0138
千林	-11.0141
年譜	-11.0143
登山	-11.0143
初十日	-11.0148
生于	-11.0148
稟	-11.0149
不分	-11.015
與予	-11.0151
直上	-11.0152
扶桑	-11.0152
人力	-11.0153
宗子	-11.0155
先帝	-11.0155
過之	-11.0155
大河	-11.0159
穂	-11.0163
自號	-11.0163
突兀	-11.0171
通志	-11.0172
天半	-11.0173
之主	-11.0174
湄	-11.0174
兩字	-11.0177
山頭	-11.0177
辛酉	-11.0178
不等	-11.0182
祀典	-11.0184
禮義	-11.0184
踰年	-11.0187
鴛	-11.0188
頃刻	-11.0188
緩急	-11.0191
山樓	-11.0193
士子	-11.0195
漕糧	-11.02
蕭山	-11.0202
損益	-11.0202
孔子曰	-11.0203
埭	-11.0204
也因	-11.0205
閫	-11.0206
之孫	-11.0207
煑	-11.0208
唐之	-11.0208
峩	-11.0209
夕照	-11.0213
各處	-11.0217
同異	-11.0218
此處	-11.0222
縱橫	-11.0226
握手	-11.0226
未完	-11.0227
以養	-11.0227
書與	-11.0228
儼然	-11.0229
有奇	-11.0229
旬日	-11.023
豐年	-11.023
唱和	-11.0233
題壁	-11.0236
忠貞	-11.0238
此等	-11.024
鋭	-11.0241
摛	-11.0243
鄉人	-11.0243
喙	-11.0247
埀	-11.0247
掇	-11.0252
其詞	-11.0256
旺	-11.0257
文人	-11.026
督師	-11.0261
紫陽	-11.0261
萬壽	-11.0262
不稱	-11.0262
書成	-11.0262
徙倚	-11.0264
孤舟	-11.0265
江海	-11.0268
者是	-11.0268
設法	-11.027
閩中	-11.027
二十餘	-11.0271
一節	-11.0273
麋	-11.0287
撓	-11.0288
窈	-11.029
㺯	-11.0291
入覲	-11.0292
綦	-11.0292
山堂	-11.0298
特命	-11.03
都尉	-11.0303
不平	-11.0304
以明	-11.0306
萬夀山	-11.0309
諭户部	-11.0314
在上	-11.0315
菊花	-11.0317
星辰	-11.032
見聞	-11.0321
吾兄	-11.0322
旛	-11.0325
非常	-11.0327
世有	-11.0327
隱居	-11.0328
聾	-11.0329
疾苦	-11.0329
鎬	-11.0332
滛	-11.0332
日久	-11.0333
逥	-11.0333
摯	-11.0333
張君	-11.0334
元和	-11.0335
六藝	-11.0338
家學	-11.0342
不去	-11.0342
出自	-11.0343
一氣	-11.0349
時方	-11.0351
而君	-11.0352
祜	-11.0355
燕山	-11.0357
金剛	-11.0359
餽	-11.0362
者此	-11.0362
韭	-11.0362
可觀	-11.0362
超然	-11.0366
有不	-11.0368
繄	-11.037
颿	-11.0371
所自	-11.0372
拮据	-11.0373
臨清	-11.0375
那知	-11.0375
一再	-11.0375
石鼓	-11.0375
歴代	-11.0377
戊	-11.0379
守之	-11.038
故能	-11.038
酒酣	-11.0381
泉聲	-11.0381
之教	-11.0382
同官	-11.0388
孟陽	-11.039
山行	-11.0391
釋氏	-11.0393
彪	-11.0395
受業	-11.0398
獨行	-11.0398
此後	-11.0402
古木	-11.0402
首尾	-11.0403
聞者	-11.0403
通州	-11.0405
江天	-11.0406
撐	-11.0407
荻	-11.0407
梭	-11.0408
十八年	-11.0408
娯	-11.0409
戊寅	-11.041
喀爾喀	-11.041
訓詁	-11.0411
乎哉	-11.0413
綂	-11.0414
罅	-11.042
有如	-11.0422
道德	-11.0423
儕	-11.0425
始有	-11.0425
先王之	-11.0427
孔子之	-11.0428
無已	-11.0431
觸目	-11.0432
其始	-11.0433
搨	-11.0435
真蹟	-11.0438
家之	-11.0438
兩朝	-11.0443
茟	-11.0444
有成	-11.045
逡巡	-11.045
忠信	-11.0451
自笑	-11.0452
失所	-11.0452
杜鵑	-11.0453
丁亥	-11.0454
余言	-11.0455
不似	-11.0456
泓	-11.0457
一則	-11.0458
閒居	-11.0467
年正月	-11.0473
紅塵	-11.0477
科舉	-11.048
辦理	-11.0481
搗	-11.0483
德之	-11.0484
髙低	-11.0486
厄魯特	-11.0486
汁	-11.0487
余嘗	-11.0487
窠	-11.0487
曰汝	-11.0487
途中	-11.0488
蔥	-11.0488
邇來	-11.049
湔	-11.049
感舊	-11.049
牛羊	-11.0492
幫	-11.0493
一隅	-11.0493
厺	-11.0495
根本	-11.0499
之恩	-11.05
胷	-11.0505
卽位	-11.0506
貧賤	-11.0507
之篇	-11.0509
是何	-11.0511
古稀	-11.0514
一望	-11.0516
乎夫	-11.0518
㑹心	-11.0518
讀史	-11.0519
可稱	-11.052
薇	-11.052
發其	-11.0521
不期	-11.0525
戦	-11.0526
閤	-11.0526
戯題	-11.0526
鏗	-11.0528
州刺史	-11.0528
涖	-11.0529
諄諄	-11.0533
兾	-11.0534
可為	-11.0535
各官	-11.0536
折衷	-11.0538
㸃綴	-11.054
仲尼	-11.0541
五千	-11.0542
碧雲	-11.0543
茫	-11.0544
之誼	-11.0544
書來	-11.0549
部院	-11.0553
而至	-11.0557
祥符	-11.0557
徐公	-11.0559
其不	-11.0565
白衣	-11.0566
此是	-11.0566
斛	-11.0566
纏	-11.0567
閹	-11.0568
㾗	-11.0568
白沙	-11.0569
壬戌	-11.0572
神廟	-11.0573
該督撫	-11.0573
亶	-11.0575
題畫	-11.0576
如今	-11.0577
夫以	-11.0579
俱有	-11.0581
無礙	-11.0582
萬山	-11.0583
杜門	-11.0585
本於	-11.0588
果然	-11.059
無知	-11.0594
五臺	-11.0595
年二十	-11.0599
此詩	-11.0599
画	-11.0602
耘	-11.0604
無力	-11.0606
薑	-11.0607
文昌	-11.061
近年	-11.0611
繚	-11.0611
伯兄	-11.0611
駛	-11.0613
來歸	-11.0618
庠	-11.0626
傳諭	-11.0627
男兒	-11.0629
其罪	-11.0634
尊者	-11.0636
殖	-11.0639
無妨	-11.064
啟蹕	-11.064
嘶	-11.0641
之目	-11.0642
奏稱	-11.0643
具題	-11.0644
梅村	-11.0645
最後	-11.0647
梨花	-11.0648
可識	-11.0648
幽居	-11.0653
以見	-11.0655
庄	-11.0656
太廟	-11.0661
惜其	-11.0662
所及	-11.0664
之不可	-11.0664
疑是	-11.0665
南華	-11.0669
濛	-11.0674
者當	-11.0675
石室	-11.0675
遣人	-11.0677
料理	-11.0677
銖	-11.0688
泪	-11.0688
五嶽	-11.0689
應是	-11.0689
軾	-11.0689
肄	-11.0689
水雲	-11.0689
𦵏	-11.069
安瀾	-11.069
絀	-11.0691
寤	-11.0692
才名	-11.0692
觥	-11.0693
郝	-11.0694
努力	-11.0695
彼時	-11.0695
歸舟	-11.0697
入城	-11.0697
往復	-11.0702
老僧	-11.0702
此身	-11.0705
太歲	-11.0705
均霑	-11.0706
其情	-11.0711
數千里	-11.0711
作賦	-11.0712
多事	-11.0714
行而	-11.0715
子雲	-11.0718
諺	-11.0722
璇	-11.0724
水月	-11.0724
榴	-11.0725
善長	-11.0726
諸山	-11.0727
𥙷	-11.0728
勉之	-11.0728
㸑	-11.0729
甎	-11.0729
學政	-11.0732
澣	-11.0732
已見	-11.0732
緡	-11.0733
赭	-11.0734
挐	-11.0734
甃	-11.0735
嶺南	-11.0736
㪚	-11.0736
却笑	-11.0737
神宗	-11.0737
絶勝	-11.0739
情形詩以誌慰	-11.074
太尉	-11.074
師之	-11.0742
之私	-11.0749
復得	-11.0749
又見	-11.0751
然自	-11.0751
不逺	-11.0752
世逺	-11.0756
於古	-11.0759
不能不	-11.0764
無聊	-11.0765
國事	-11.0769
賭	-11.0771
無由	-11.0772
副都統	-11.0773
萎	-11.0773
嚼	-11.0773
舄	-11.0773
儷	-11.0774
石林	-11.0776
前賢	-11.0776
與公	-11.0777
烽火	-11.0781
孫女	-11.0781
三百年	-11.0784
絶頂	-11.0789
承歡	-11.0789
別有	-11.0795
風起	-11.0795
屬之	-11.08
在焉	-11.08
盛衰	-11.0802
三百篇	-11.0806
七旬	-11.0807
故以	-11.0809
花發	-11.081
又謂	-11.081
嫂	-11.081
稍稍	-11.0811
𧺫	-11.0812
故里	-11.0812
幟	-11.0815
可無	-11.0816
漉	-11.0816
紀年	-11.0816
赤子	-11.0816
中朝	-11.0818
彈琴	-11.0823
額手	-11.0824
貞女	-11.0824
匡廬	-11.0825
則已	-11.0825
旦夕	-11.0826
北上	-11.0828
不窮	-11.083
惜哉	-11.0831
四卷	-11.0839
不能無	-11.0841
難以	-11.0844
一幅	-11.0849
公事	-11.0849
溟	-11.0849
百官	-11.0849
無意	-11.085
何物	-11.0852
文成	-11.0853
初九日	-11.0853
篠	-11.0855
冉冉	-11.0855
惓惓	-11.0855
知公	-11.0856
樂天	-11.0857
亦然	-11.0858
槁	-11.0858
翫	-11.086
教之	-11.086
乙亥	-11.0861
疊前韻	-11.0864
斯世	-11.0868
而欲	-11.0869
而東	-11.087
臨江	-11.0873
辜	-11.0877
殘月	-11.0878
闋	-11.0883
遂至	-11.0883
不亦	-11.0885
丈人	-11.0887
之君子	-11.0889
桐城	-11.0889
士卒	-11.0891
治亂	-11.0893
鶻	-11.0894
璜	-11.0894
檠	-11.0895
謠	-11.0896
之資	-11.0896
賫	-11.0898
銀兩	-11.0898
厎	-11.0898
櫺	-11.0898
應時	-11.0899
翰林院編修	-11.0899
𣲖	-11.0899
人等	-11.09
之道也	-11.0901
恭奉皇太后	-11.0902
改元	-11.0905
遂有	-11.0905
雲霄	-11.0905
四庫全書	-11.0906
紱	-11.091
長短	-11.0911
才人	-11.0912
學道	-11.0913
宋玉	-11.0914
國初	-11.0915
貧民	-11.0917
始祖	-11.0923
朝陽	-11.0925
野人	-11.0925
者吾	-11.0928
彎	-11.093
分寸	-11.0931
僖	-11.0932
自今	-11.0932
柝	-11.0934
其故	-11.0934
噉	-11.0935
掉	-11.0936
之能	-11.0936
疴	-11.0937
丹砂	-11.0938
鰲	-11.0938
給事中	-11.0939
茸	-11.0939
而入	-11.0939
邂逅	-11.0939
擒獲	-11.094
明初	-11.0941
雲容	-11.0941
對月	-11.0942
冬日	-11.0945
封侯	-11.0946
徐氏	-11.0948
等奏	-11.0948
過於	-11.0949
枝頭	-11.0956
合葬	-11.0959
留心	-11.0963
博學	-11.0968
奉使	-11.0968
漢之	-11.0969
里人	-11.0969
絹	-11.0972
顰	-11.0976
亦足	-11.0977
惟此	-11.0979
撞	-11.0979
行禮	-11.098
讒	-11.098
孕	-11.098
稾	-11.0982
椘	-11.0984
之言曰	-11.0989
禮也	-11.0989
二十七日	-11.0991
不煩	-11.0991
可爲	-11.0991
人意	-11.0992
拾遺	-11.0993
萬卷	-11.0995
數里	-11.0997
士女	-11.0998
今世	-11.1001
小雅	-11.1002
農田	-11.1002
凡有	-11.1004
石湖	-11.1006
甚至	-11.1006
不書	-11.1012
牽連	-11.1012
鄉里	-11.1014
之分	-11.1015
行行	-11.1015
一舉	-11.1019
彭城	-11.1022
見示	-11.1023
媪	-11.1023
黽勉	-11.1024
無錫	-11.1025
耻	-11.1025
紛紜	-11.1026
拾級	-11.1028
甘省	-11.103
於外	-11.103
入於	-11.1031
獅	-11.1037
曰子	-11.1038
何限	-11.1039
衆生	-11.1039
制度	-11.1039
要之	-11.1041
垂老	-11.1043
個	-11.1046
寧夏	-11.1046
其力	-11.1049
何意	-11.105
還宫	-11.105
故也	-11.1053
果有	-11.1055
然且	-11.1056
加意	-11.106
礪	-11.1061
洞天	-11.1062
遡	-11.1062
賊人	-11.1063
一嵗	-11.1063
能言	-11.1066
翊	-11.1066
父之	-11.1066
不苟	-11.1067
原有	-11.1067
者耶	-11.1068
水面	-11.1074
汝南	-11.1075
田盤	-11.1077
看山	-11.1077
原無	-11.1078
清溪	-11.108
皆非	-11.1081
一樹	-11.1081
可考	-11.1083
深山	-11.1085
大典	-11.1085
一綫	-11.1086
之墓	-11.1089
相識	-11.1092
詩卷	-11.1093
亭子	-11.1094
山澤	-11.1095
之仁	-11.1096
六書	-11.1097
高士	-11.1098
道學	-11.1098
黃金	-11.1098
治天下	-11.1099
本傳	-11.1101
一世	-11.1103
一杯	-11.1106
教化	-11.1108
逭	-11.1111
纘	-11.1112
揮毫	-11.1113
相顧	-11.1114
壬申	-11.1114
波光	-11.1116
萬國	-11.1123
事務	-11.1125
則非	-11.1126
不計	-11.1126
光景	-11.1126
峪	-11.1133
之敎	-11.1135
廬陵	-11.1136
不屈	-11.1138
應制	-11.114
先君子	-11.114
之亂	-11.1141
𬗋	-11.1142
徳州	-11.1142
人臣	-11.1146
稍有	-11.1147
圉	-11.1147
斾	-11.1148
别業	-11.1149
筒	-11.115
漢志	-11.1152
沓	-11.1152
繾	-11.1153
訥	-11.1155
冝	-11.1156
第十	-11.1156
天外	-11.116
母之	-11.1163
三卷	-11.1165
晩年	-11.117
食之	-11.118
亦皆	-11.1186
泛月	-11.1186
行圍	-11.1187
惜乎	-11.1188
狩	-11.1188
修竹	-11.1189
僅存	-11.119
魏公	-11.1193
盲	-11.1194
二十六日	-11.1194
廟堂	-11.1197
徬徨	-11.1197
周子	-11.1198
孫士毅	-11.1199
疉	-11.1199
詩中	-11.1201
以進	-11.1203
釋奠	-11.1208
浩蕩	-11.1208
河西	-11.1209
石梁	-11.1214
所出	-11.1215
多年	-11.1216
孫男	-11.1217
韓偓	-11.1218
臨安	-11.1221
或問	-11.1222
學使	-11.1224
玉蘭	-11.1225
笑曰	-11.1225
揣	-11.1226
揚雄	-11.1227
農事	-11.1227
瘁	-11.1229
溪上	-11.123
諸葛	-11.123
東籬	-11.1231
即可	-11.1232
六合	-11.1234
無此	-11.1236
撮	-11.1236
太陰	-11.1237
躅	-11.1238
即用其韻	-11.1238
泝	-11.1239
二十五日	-11.1242
登高	-11.1242
不安	-11.1243
纂修	-11.1243
汲汲	-11.1244
盥	-11.1245
山光	-11.1247
松下	-11.1249
稱之	-11.1249
鄧尉	-11.1251
次之	-11.1254
復以	-11.1254
李商隱	-11.1257
碧玉	-11.1259
可能	-11.1265
東京	-11.1267
常州	-11.1268
啜	-11.1268
萬家	-11.1269
地下	-11.1272
子美	-11.1275
兩浙	-11.1275
詶	-11.1275
那堪	-11.1276
樾	-11.1276
始末	-11.1276
錐	-11.1277
對曰	-11.1278
其次	-11.1279
擴	-11.128
面目	-11.128
該撫	-11.1281
扆	-11.1281
籜	-11.1282
邯鄲	-11.1282
討論	-11.1283
伽	-11.1284
受其	-11.1289
懐古	-11.129
者自	-11.1292
黄帝	-11.1293
歡喜	-11.1294
原非	-11.1295
之列	-11.1295
窮理	-11.1298
庾信	-11.1298
氣候	-11.1299
還家	-11.13
藹	-11.1301
寓意	-11.1302
短長	-11.1303
節次	-11.1305
羅浮	-11.131
所奏	-11.1311
春花	-11.1314
則知	-11.1315
湖州	-11.1315
臭	-11.132
峡	-11.1322
中郎	-11.1323
逗	-11.1326
釜	-11.1327
黄門	-11.1331
瑛	-11.1331
王道	-11.1334
不斷	-11.1334
元孫	-11.1337
府屬	-11.134
不利	-11.1342
我軍	-11.1344
侍中	-11.1345
行間	-11.1348
聞而	-11.135
知也	-11.1351
御極	-11.1361
太學生	-11.1363
家語	-11.1363
潑	-11.1364
扃	-11.1365
堞	-11.1366
南郊	-11.1367
如來	-11.1368
晃	-11.1373
鬱鬱	-11.1373
因循	-11.1374
後學	-11.1376
終於	-11.1376
奏到	-11.1377
勺	-11.1378
可傳	-11.1379
楊氏	-11.1381
無間	-11.1386
燈前	-11.1388
天意	-11.1392
無際	-11.1394
制府	-11.1396
數百年	-11.1397
刻石	-11.1398
非是	-11.1399
而我	-11.14
固非	-11.14
古意	-11.1401
向年	-11.1403
矣乃	-11.1403
茨	-11.1404
不著	-11.1405
槳	-11.1405
殞	-11.1406
之物	-11.1407
聲名	-11.1409
訐	-11.141
婺	-11.141
豈徒	-11.141
啣	-11.1411
描	-11.1412
以供	-11.1413
人語	-11.1416
焦山	-11.1418
相合	-11.1419
三府	-11.142
顧氏	-11.1421
設使	-11.1422
天章	-11.1423
别離	-11.1423
能以	-11.1425
明經	-11.1425
言語	-11.1428
故知	-11.143
箇中	-11.1431
遭逢	-11.1433
某氏	-11.1434
重華	-11.1437
忽然	-11.1441
使臣	-11.1442
不學	-11.1445
憂患	-11.1445
如此則	-11.1447
哦	-11.1447
道上	-11.1448
秋來	-11.145
冉	-11.1451
陽春	-11.1452
欝	-11.1452
花影	-11.1453
至京師	-11.1456
卜居	-11.1457
陳子	-11.1459
堂前	-11.146
南朝	-11.146
亦如	-11.1461
大司馬	-11.1462
六人	-11.1463
存亡	-11.1465
得罪	-11.1471
之謂也	-11.1472
巳而	-11.1473
披襟	-11.1474
瓠	-11.1476
語曰	-11.1482
乃復	-11.1484
不從	-11.1484
之女	-11.1485
歴歴	-11.1486
次子	-11.1487
頭白	-11.1488
䡖	-11.1492
一變	-11.1497
真是	-11.1497
燔	-11.1498
筦	-11.1499
擣	-11.1499
河山	-11.1499
豈其	-11.15
花香	-11.1501
太初	-11.1501
叫	-11.1503
初四日	-11.1503
胡氏	-11.1503
禮成述事	-11.1505
實心	-11.1506
後生	-11.1507
書齋	-11.1509
當事	-11.151
此外	-11.1515
維揚	-11.1515
同志	-11.1518
召見	-11.152
天邊	-11.1521
烏衣	-11.1521
而作	-11.1525
道者	-11.1529
農夫	-11.1529
請以	-11.153
日用	-11.1533
若無	-11.1535
水中	-11.1535
故道	-11.1537
蝴蝶	-11.1538
夢裏	-11.1539
驀	-11.1541
㑹試	-11.1541
引見	-11.1542
人士	-11.1542
琦	-11.1543
鳯凰	-11.1543
棊	-11.1543
臼	-11.1544
碁	-11.1545
夜來	-11.1546
七人	-11.1546
北望	-11.1548
人君	-11.1549
己酉	-11.155
縣學生	-11.1551
應有	-11.1552
推官	-11.1552
都御史	-11.1553
不知所	-11.1554
所學	-11.1558
五帝	-11.1563
少保	-11.1563
也惟	-11.1565
過從	-11.1569
元史	-11.157
考功	-11.1573
不藉	-11.1578
之位	-11.1578
得意	-11.1581
多方	-11.1583
毳	-11.1585
萬幾	-11.1585
北極	-11.1587
黠	-11.1589
不求	-11.1591
台吉	-11.1591
畀	-11.1591
祭祀	-11.1591
相依	-11.1592
芳菲	-11.1592
非徒	-11.1593
避暑山荘	-11.1593
必欲	-11.1594
桀	-11.1596
西來	-11.1597
龍眠	-11.1597
至性	-11.1601
佳句	-11.1601
二分	-11.1602
建安	-11.1604
參軍	-11.1608
臣民	-11.1608
宻雲	-11.1611
無暇	-11.1614
平地	-11.1614
樓船	-11.1614
而來	-11.1615
往年	-11.1616
之憂	-11.162
移居	-11.1625
笙歌	-11.1626
籌畫	-11.1626
砂	-11.1628
珂	-11.163
問之	-11.1631
屏風	-11.1631
命之	-11.1632
埒	-11.1632
􁢃	-11.1633
黄葉	-11.1635
廪	-11.1635
蘆花	-11.1635
彫	-11.1635
董其昌	-11.1636
飛泉	-11.1637
髦	-11.1637
勛	-11.1637
范氏	-11.1639
霔	-11.1639
生徒	-11.1642
奮勇	-11.1645
論曰	-11.1646
地理	-11.1647
若斯	-11.1649
大雪	-11.1649
有聞	-11.1651
佳話	-11.1654
督學	-11.1661
宋時	-11.1662
羽林	-11.1666
柑	-11.1666
守備	-11.1667
數典	-11.1668
即有	-11.1669
安國	-11.167
擇其	-11.1671
於道	-11.1671
山麓	-11.1672
以事	-11.1672
凡三	-11.1675
逶迤	-11.1677
佃	-11.1677
常年	-11.1677
江河	-11.1678
欲問	-11.1678
古樹	-11.1678
云何	-11.1679
老樹	-11.1679
得免	-11.1681
灤	-11.1682
山海	-11.1682
八分有餘	-11.1684
又得	-11.1685
覃恩	-11.1685
婦女	-11.1685
屬予	-11.1687
在東	-11.1687
相親	-11.1688
古松	-11.1689
子瞻	-11.169
軫念	-11.1691
經世	-11.1691
江村	-11.1691
嘉禾	-11.1692
賜宴	-11.1693
相憶	-11.1693
霄漢	-11.1696
屬余	-11.1697
古書	-11.17
百丈	-11.17
此圖	-11.1702
禋	-11.1702
得透雨	-11.1702
椿	-11.1702
能使	-11.1703
新春	-11.1703
臨池	-11.1704
積素	-11.1709
在位	-11.1709
焉能	-11.1712
之夫	-11.1713
知是	-11.1713
潯	-11.1714
柘	-11.1715
三禮	-11.1716
欲其	-11.1717
崧	-11.1718
皇極	-11.1721
古詩	-11.1721
半生	-11.1722
朱顔	-11.1723
聮	-11.1723
無如	-11.1724
都門	-11.1725
蘧	-11.1725
譴	-11.1725
文辭	-11.1725
處分	-11.1725
初八日	-11.1726
莾	-11.1726
眄	-11.1726
十有八	-11.1727
煌	-11.1727
髙祖	-11.1727
其用	-11.1727
豐碑	-11.1727
寖	-11.1728
保甲	-11.1728
餘生	-11.1729
兢兢	-11.173
有六	-11.1731
不變	-11.1732
河上	-11.1733
體仁	-11.1739
從子	-11.1742
震澤	-11.1742
十有二	-11.1742
之北	-11.1744
有待	-11.1745
未曾	-11.1746
三十五	-11.1748
退之	-11.175
木葉	-11.1753
子長	-11.1754
奏報得雨	-11.1755
熹	-11.1755
人民	-11.1755
東臯	-11.1756
羅漢	-11.1756
夢寐	-11.1757
或者	-11.1764
綆	-11.1764
桃葉	-11.1765
渟	-11.1767
娟	-11.1769
五十里	-11.1769
聚散	-11.177
雯	-11.1772
劈	-11.1774
田園	-11.1775
今以	-11.1775
待詔	-11.1782
戰國	-11.1782
枝葉	-11.1782
物之	-11.1784
雨餘	-11.1787
七分	-11.1789
小閣	-11.1791
敎之	-11.1792
鄭注	-11.1794
世所	-11.1796
大令	-11.1796
三字	-11.1797
飛瀑	-11.1802
請於	-11.1802
大理	-11.1802
之政	-11.1803
麥田	-11.1804
廣平	-11.1806
晴霽	-11.1807
避暑山莊	-11.1812
滹沱	-11.1814
吾道	-11.1814
拄	-11.1815
其性	-11.1816
阨	-11.1816
蝸	-11.1817
卹	-11.1817
肺	-11.1817
口外	-11.1818
暇日	-11.1819
嵯峨	-11.1819
恊	-11.182
臨流	-11.1821
㕔州縣	-11.1821
以通	-11.1821
題額	-11.1822
家家	-11.1823
而民	-11.1826
盡心	-11.1826
遂成	-11.1829
題王	-11.183
天寒	-11.1832
桂林	-11.1832
詩篇	-11.1833
能知	-11.1833
又據	-11.1835
吾所	-11.1835
聲聞	-11.1838
十人	-11.1838
玉山	-11.1839
南浦	-11.1841
取次	-11.1842
人材	-11.1844
許之	-11.1844
聖賢之	-11.1847
之福	-11.1849
皇甫	-11.1851
骸	-11.1851
諸部	-11.1855
書史	-11.1857
長春	-11.1857
霾	-11.1859
霙	-11.1861
雲生	-11.1862
燧	-11.1862
學官	-11.1862
忽忽	-11.1864
騖	-11.1865
國士	-11.1865
里居	-11.1866
勞苦	-11.1867
太恭人	-11.187
地也	-11.1872
曉起	-11.1872
却憶	-11.1872
而為之	-11.1872
兵部尚書	-11.1879
四十八	-11.1879
少而	-11.1879
彭澤	-11.1881
工夫	-11.1883
意在	-11.1884
今又	-11.1885
不雨	-11.1885
棲遲	-11.1886
則爲	-11.1886
所遇	-11.1889
敢忘	-11.189
穡	-11.1891
今歲	-11.1892
吳山	-11.1893
明鏡	-11.1893
僑	-11.1894
不道	-11.1898
舅姑	-11.19
卒以	-11.19
盾	-11.1903
八韻	-11.1904
鈐	-11.1905
者誰	-11.1905
羔	-11.1905
錮	-11.1906
箐	-11.1906
鎔	-11.1907
平時	-11.1908
麽	-11.1909
綢繆	-11.191
今觀	-11.1911
若不	-11.1911
然後知	-11.1912
豪傑	-11.1915
四十里	-11.1921
不願	-11.1925
罷官	-11.1925
瓣香	-11.1925
别墅	-11.1927
不礙	-11.1927
軍民	-11.1928
先賢	-11.1928
下馬	-11.193
深入	-11.1932
所致	-11.1932
力行	-11.1933
身心	-11.1934
聽其	-11.1934
當爲	-11.1937
黃帝	-11.1937
日下	-11.1939
遺跡	-11.1939
何况	-11.1941
園賦	-11.1943
匱	-11.1945
榼	-11.1945
書中	-11.1945
湖海	-11.1947
之源	-11.1947
心事	-11.1947
之象	-11.195
任其	-11.195
戛	-11.1951
茆	-11.1952
聫	-11.1952
而立	-11.1952
興起	-11.1953
薄暮	-11.1953
如雲	-11.1953
嶙峋	-11.1954
頷	-11.1954
稼穡	-11.1955
恰似	-11.1956
扈蹕	-11.1957
絜矩	-11.1958
忘其	-11.1959
長松	-11.1959
遂使	-11.1961
朔風	-11.1963
儀封	-11.1964
其形	-11.1964
如雪	-11.1967
未定	-11.1967
異於	-11.1969
泠	-11.197
鶯花	-11.1977
厥後	-11.1978
不倦	-11.1979
無從	-11.1983
不減	-11.1984
二十一日	-11.1987
我國家	-11.1987
王維	-11.1988
松竹	-11.1988
㕍	-11.199
錢氏	-11.199
亦惟	-11.1991
匀	-11.1998
冰雪	-11.2001
雜詠	-11.2003
琛	-11.2006
道徳	-11.2007
諸經	-11.2008
翰林院	-11.2009
老翁	-11.2011
黄鐘	-11.2011
薩載	-11.2013
正色	-11.2015
傳云	-11.2018
片刻	-11.2019
百餘里	-11.2019
不但	-11.202
盡日	-11.2022
東郊	-11.2025
紅豆	-11.2026
江干	-11.2027
乎余	-11.2027
黃河	-11.2028
祖諱	-11.2028
予曰	-11.203
精微	-11.2031
片石	-11.2031
輕舟	-11.2032
臣工	-11.2034
誰是	-11.2037
從軍	-11.2038
風土	-11.2039
票	-11.2041
三子	-11.2042
蹲	-11.2044
䋲	-11.2045
迴蹕	-11.2045
于世	-11.2045
問安	-11.2045
祺	-11.2045
撃	-11.2046
鬪	-11.2048
贈君	-11.205
煉	-11.205
蔗	-11.205
圮	-11.2051
已覺	-11.2054
經緯	-11.2054
無地	-11.2059
聊以	-11.206
元夕	-11.2061
機宜	-11.2061
海門	-11.2062
日新	-11.2062
何幸	-11.2062
中心	-11.2063
重重	-11.2064
所属	-11.2066
之父	-11.2067
韓子	-11.2068
和琳	-11.2071
四十九	-11.2073
二十里	-11.2075
凌雲	-11.2075
徃來	-11.2076
文士	-11.2076
功德	-11.2076
然以	-11.2077
居人	-11.2078
畢沅	-11.208
其氣	-11.2081
夜分	-11.2084
月照	-11.2085
百嵗	-11.2085
方丈	-11.2085
查明	-11.2088
懷古	-11.2089
闘	-11.209
聖朝	-11.209
制曰	-11.2091
未曽	-11.2091
煙霞	-11.2092
花時	-11.2092
伶	-11.2093
榕	-11.2093
語言	-11.2093
史家	-11.2094
芋	-11.2095
東陵	-11.2096
踴躍	-11.2096
者然	-11.2097
十餘里	-11.2097
豐收	-11.2099
丁卯	-11.21
楊花	-11.2101
夫子之	-11.2101
物外	-11.2102
次序	-11.2104
省方	-11.2105
月十九日	-11.2105
鍾山	-11.2105
逸興	-11.2105
自稱	-11.2106
攷之	-11.2106
江聲	-11.2107
洋洋	-11.2107
之狀	-11.2108
空谷	-11.2108
大府	-11.2108
將歸	-11.2109
誰云	-11.2111
雖非	-11.2112
清泉	-11.2119
覆奏	-11.2124
通籍	-11.2125
漢武	-11.2126
暮雨	-11.2128
月二十日	-11.2131
首夏	-11.2133
菁	-11.2133
園亭	-11.2137
泣下	-11.2137
長年	-11.2137
前題	-11.2139
城頭	-11.214
簸	-11.214
不敢以	-11.2142
貎	-11.2143
參政	-11.2144
夘	-11.2145
列於	-11.2146
猶自	-11.2146
金風	-11.2146
詩歌	-11.2149
中正	-11.2151
豈惟	-11.2151
軍前	-11.2157
一雙	-11.2158
相視	-11.2158
辟雍	-11.2159
日得雨	-11.2159
倉卒	-11.2164
一徑	-11.2164
傍晚	-11.2165
東陽	-11.2165
其子孫	-11.2167
寸餘	-11.2169
豳風	-11.2169
正直	-11.217
孟子曰	-11.2176
未了	-11.2176
蕆事	-11.2178
進攻	-11.2178
公所	-11.218
不教	-11.2182
行在	-11.2185
瀨	-11.2185
永嘉	-11.2186
遅	-11.2191
碧天	-11.2192
燕京	-11.2192
須㬰	-11.2193
千峰	-11.2193
結習	-11.2195
不使	-11.2198
一物	-11.22
進兵	-11.2204
唐太宗	-11.2204
和之	-11.2205
修身	-11.2208
入室	-11.2208
對雨	-11.2209
三輔	-11.221
驟雨	-11.221
之㑹	-11.2211
吳氏	-11.2211
天生	-11.2213
數語	-11.2213
流風	-11.2216
所用	-11.2216
佳處	-11.2216
故舊	-11.2218
何在	-11.2219
循吏	-11.222
松栢	-11.222
御製詩	-11.2221
生日	-11.2221
只在	-11.2221
其官	-11.2222
皆由	-11.2224
師古	-11.2224
識語	-11.2226
朱門	-11.2227
古道	-11.2227
法也	-11.2228
荼	-11.2229
雲外	-11.2229
送君	-11.2229
聖明	-11.2232
疑其	-11.2233
鞋	-11.2233
絡繹	-11.2237
糞	-11.2237
楞	-11.2239
也凡	-11.2239
殄	-11.224
兖	-11.2241
前身	-11.2241
泄	-11.2242
石泉	-11.2243
覽奏	-11.2244
子女	-11.2245
虎豹	-11.2245
通判	-11.2245
酌量	-11.2246
南下	-11.2252
宗之	-11.2253
王家	-11.2253
因緣	-11.2254
會試	-11.2255
悵望	-11.226
史官	-11.226
而南	-11.2263
劄	-11.2265
持盈	-11.2269
寸不等	-11.2273
璘	-11.2274
此本	-11.2276
官舍	-11.2277
米價	-11.2277
蜿蜒	-11.2281
避地	-11.2282
扶風	-11.2282
町	-11.2282
紀載	-11.2285
曇	-11.2285
濮	-11.2285
偹	-11.2285
褚	-11.2286
甬上	-11.2288
清江	-11.2289
蠱	-11.229
何可	-11.229
君恩	-11.2291
何來	-11.2293
否則	-11.2294
長句	-11.2295
家風	-11.2296
水師	-11.2297
倡和	-11.2298
侍臣	-11.2298
質之	-11.2299
每年	-11.2299
不乏	-11.2299
晴雨	-11.2302
易曰	-11.2304
精藍	-11.2304
乎且	-11.2304
對此	-11.2304
魏晉	-11.2305
可通	-11.2307
有光	-11.2308
西望	-11.2308
綱目	-11.2309
樹杪	-11.2313
塵埃	-11.2316
烟火	-11.2316
人亦	-11.2316
但見	-11.2317
笑我	-11.2318
日落	-11.2319
邑之	-11.2319
十九年	-11.232
萬㡬	-11.232
豈是	-11.2325
有定	-11.2329
所重	-11.233
勝地	-11.233
勒石	-11.2331
吻	-11.2331
圯	-11.2332
箏	-11.2332
陬	-11.2332
鐺	-11.2333
河臣	-11.2333
講求	-11.2333
飛去	-11.2334
石田	-11.2335
能詩	-11.2336
有常	-11.2337
因其	-11.2338
行者	-11.234
進取	-11.234
咸陽	-11.2345
一般	-11.2345
忘言	-11.2346
同一	-11.2347
可期	-11.2347
敬亭	-11.2348
珠簾	-11.235
六寸	-11.2352
不經	-11.2354
九分者	-11.2355
其源	-11.2356
南都	-11.2359
凄凉	-11.2359
何期	-11.2361
橈	-11.2363
錦繡	-11.2364
著於	-11.2366
又言	-11.2368
孝宗	-11.2368
披圖	-11.237
夫豈	-11.237
可疑	-11.2371
東流	-11.2371
頓首	-11.2372
謐	-11.2373
題和闐玉	-11.2377
翥	-11.2378
書後	-11.2379
民艱	-11.2379
故不	-11.238
巴圖魯	-11.238
躁	-11.2381
堕	-11.2381
壙	-11.2381
是亦	-11.2383
杯酒	-11.2386
霜雪	-11.2387
二十四日	-11.2388
而進	-11.2391
文采	-11.2392
承明	-11.2392
大軍	-11.2392
近體	-11.2393
龍泉	-11.2393
丁巳	-11.2394
名實	-11.2395
因風	-11.2395
詢問	-11.2396
聲音	-11.2396
戲題	-11.2397
温庭筠	-11.2397
定例	-11.2401
於余	-11.2401
使我	-11.2404
已是	-11.2406
性也	-11.2406
是皆	-11.2408
日長	-11.241
伯玉	-11.241
姑蘇	-11.241
總裁	-11.2413
不立	-11.2413
後漢	-11.2414
元韻	-11.2415
涎	-11.2416
雜詩	-11.2417
其職	-11.2418
年華	-11.2421
皖	-11.2421
雅頌	-11.2422
懾	-11.2425
黄州	-11.2427
莫若	-11.2427
手足	-11.2428
緫	-11.2428
蓍	-11.2429
不取	-11.2429
黏	-11.243
春深	-11.2431
諭兵部	-11.2433
澷	-11.2435
楞嚴	-11.2436
其生平	-11.2441
未嘗有	-11.2442
能不	-11.2445
吉祥	-11.2448
不遺	-11.245
草色	-11.245
棲霞	-11.245
白水	-11.2451
收拾	-11.2454
元人	-11.2456
日影	-11.2457
自憐	-11.2459
錦衣	-11.2461
論之	-11.2461
文者	-11.2461
繼以	-11.2463
南來	-11.2463
于時	-11.2464
金人	-11.2465
幸得	-11.2467
羽翼	-11.2467
車駕	-11.2467
八景	-11.2468
靈臺	-11.2469
像贊	-11.247
紅粉	-11.247
佛法	-11.247
荃	-11.2471
田疇	-11.2471
進而	-11.2471
遨	-11.2472
所欲	-11.2473
磧	-11.2473
窅	-11.2476
糴	-11.2477
賂	-11.2477
殃	-11.248
甓	-11.248
怵	-11.2483
性之	-11.2485
曬	-11.2487
府屬之	-11.2488
詞章	-11.2488
又嘗	-11.249
相知	-11.2493
藏之	-11.2497
圖經	-11.2498
百花	-11.2499
波瀾	-11.2504
落照	-11.2508
雲漢	-11.2509
前日	-11.251
弟兄	-11.2512
何也曰	-11.2514
農桑	-11.2517
子思	-11.2517
誠有	-11.2517
不置	-11.2523
當代	-11.2523
不住	-11.2523
山在	-11.2524
淮水	-11.2524
颸	-11.2524
䧏	-11.2525
蠢	-11.2526
地丁	-11.2526
與否	-11.2527
硏	-11.2527
矣公	-11.2528
文章之	-11.2533
若干卷	-11.2534
羣從	-11.2535
主之	-11.2537
花鳥	-11.2539
行路	-11.2539
此一	-11.254
侔	-11.2541
亦在	-11.2541
儒學	-11.2543
愛之	-11.2543
可知也	-11.2544
圖中	-11.2546
其法	-11.2549
水陸	-11.255
侍講	-11.2556
風動	-11.2558
之異	-11.2559
新晴	-11.256
死矣	-11.256
而實	-11.2563
樊榭	-11.2565
清水	-11.2565
篙	-11.2565
不畏	-11.2565
二縣	-11.2566
生涯	-11.2568
黼	-11.2572
謔	-11.2573
闖	-11.2573
臘月	-11.2573
哥	-11.2575
撑	-11.2577
䓁	-11.2577
寺僧	-11.2577
瑰	-11.2578
丐	-11.2579
庋	-11.2579
慟哭	-11.258
嫉	-11.2581
且有	-11.2581
英英	-11.2587
惟應	-11.2592
東閣	-11.2592
閶	-11.2594
四圍	-11.2596
古有	-11.2601
安危	-11.2602
至其	-11.2602
而爲之	-11.2603
爲大	-11.2606
辨之	-11.2606
合於	-11.2607
之譌	-11.2608
加之	-11.2611
未詳	-11.2611
層樓	-11.2612
前進	-11.2612
風味	-11.2613
登舟	-11.2614
槍	-11.2618
兩省	-11.2618
者猶	-11.2618
漢家	-11.2619
不察	-11.2623
新聲	-11.2624
招同	-11.2625
民瘼	-11.2625
極為	-11.2625
戞	-11.2627
笄	-11.2627
睫	-11.2627
踪跡	-11.2627
祛	-11.2627
蓬蒿	-11.2627
一部	-11.2627
俱已	-11.2628
所未	-11.2629
板橋	-11.2629
合而	-11.2631
月色	-11.2632
遲遲	-11.2633
自在	-11.2634
益切	-11.2638
闗山	-11.264
物理	-11.2641
明白	-11.2642
曲阜	-11.2646
人之所	-11.2647
闌干	-11.2647
西洋	-11.2648
曩時	-11.2649
不輟	-11.2649
長樂	-11.2649
而益	-11.265
長老	-11.2655
史冊	-11.2655
嘗以	-11.2655
館閣	-11.2656
一縷	-11.266
八卦	-11.2661
自信	-11.2661
摩詰	-11.2664
亳	-11.2665
新舊	-11.2666
吾生	-11.2667
病中	-11.2667
禊	-11.2669
膓	-11.2671
據實	-11.2673
縳	-11.2673
纛	-11.2675
㩦	-11.2675
數百里	-11.2675
囀	-11.2676
樗	-11.2677
猝	-11.2677
澀	-11.2677
淋	-11.2677
齧	-11.2677
蹴	-11.268
四山	-11.268
屢經	-11.2682
廖	-11.2682
一員	-11.2684
一晌	-11.2685
睢陽	-11.2686
更為	-11.2686
事親	-11.2687
用心	-11.2688
最髙	-11.2689
痛哭	-11.2692
加賑	-11.2695
龍蛇	-11.2696
其難	-11.2698
必無	-11.27
道旁	-11.2702
諸弟	-11.2703
網羅	-11.2703
北岸	-11.2706
夙昔	-11.2707
幽蘭	-11.2709
諭大學士伊桑阿阿蘭泰	-11.2714
不測	-11.2715
沔	-11.2719
酒人	-11.272
㽞	-11.272
徤	-11.2721
奉行	-11.2722
雞犬	-11.2722
槽	-11.2722
海寧	-11.2722
伏生	-11.2724
濆	-11.2724
下流	-11.2725
獨是	-11.2725
立身	-11.2725
國公	-11.2726
言詩	-11.2727
森森	-11.2728
層層	-11.2728
嵓	-11.2729
坳	-11.273
百戰	-11.273
大體	-11.2731
山雨	-11.2731
姒	-11.2731
溪水	-11.2731
各自	-11.2732
不歸	-11.2733
伯克	-11.2733
多寡	-11.2734
足矣	-11.2734
者凡	-11.2735
太后	-11.2736
數行	-11.2737
固無	-11.2738
行樂	-11.2739
髙山	-11.2739
益深	-11.2741
成立	-11.2743
正法	-11.2744
諸天	-11.2745
相遇	-11.2748
扵此	-11.2751
此生	-11.2752
出師	-11.2754
自立	-11.2755
室中	-11.2755
裨	-11.2756
於上	-11.2758
以言	-11.2758
異常	-11.276
二十三日	-11.276
後之人	-11.276
麥秋	-11.2761
滿地	-11.2762
我今	-11.2764
諭大學士	-11.2764
綺羅	-11.2765
皆能	-11.2766
鄕試	-11.2767
溪橋	-11.2767
科道	-11.2769
副將	-11.277
淇	-11.2771
皂	-11.2771
作何	-11.2771
麒麟	-11.2771
躑躅	-11.2774
鍵	-11.2775
在京師	-11.2779
窰	-11.2779
白鶴	-11.278
▁天	-11.278
之靈	-11.278
成化	-11.278
牝	-11.2781
之徳	-11.2785
清凉	-11.2786
以昭	-11.2786
留别	-11.2788
逆賊	-11.2789
舊日	-11.2789
名字	-11.2794
瀑布	-11.2795
南還	-11.2796
極其	-11.2796
追隨	-11.2798
三十餘年	-11.2798
悄	-11.2799
天水	-11.2801
名賢	-11.2802
髙人	-11.2803
公在	-11.2803
伊川	-11.2803
漢中	-11.2805
不便	-11.2806
之原	-11.2808
非其	-11.2809
劃	-11.2811
乃在	-11.2814
不齊	-11.2814
御筆	-11.2814
近逺	-11.2816
馳驛	-11.2817
而致	-11.2817
目録	-11.2819
目之	-11.2819
文弨	-11.2821
隳	-11.2822
槿	-11.2823
有收	-11.2823
伊人	-11.2823
孔孟	-11.2825
異數	-11.2825
諉	-11.2826
諄	-11.2826
流入	-11.2826
永平	-11.2827
也當	-11.2829
栝	-11.2829
矚	-11.283
覯	-11.283
伊等	-11.283
初五日	-11.2831
者卽	-11.2831
枕上	-11.2835
不休	-11.2837
公墓誌銘	-11.2839
宜其	-11.2843
玉河	-11.2847
行世	-11.2848
迤	-11.2848
山東巡撫	-11.2853
西方	-11.2853
得詩	-11.2855
蒼松	-11.2858
日益	-11.2859
遺蹟	-11.2859
偶爾	-11.2859
烏程	-11.2859
本色	-11.286
祖考	-11.2861
以降	-11.2863
逺矣	-11.2864
杓	-11.2864
後儒	-11.2864
詢之	-11.2864
也是故	-11.2865
松隂	-11.2865
一代之	-11.2866
甲第	-11.2868
諸賢	-11.2868
百川	-11.2869
中天	-11.287
敎授	-11.287
莊嚴	-11.287
瞥	-11.287
飱	-11.2871
璋	-11.2871
太宜人	-11.2873
郡邑	-11.2874
緗	-11.2874
譔	-11.2874
硬	-11.2875
轉運	-11.2875
褁	-11.2876
劔	-11.2876
題宋	-11.2877
樓頭	-11.2877
世祖章皇帝	-11.2877
見天	-11.2877
薤	-11.2878
封禪	-11.2879
前明	-11.2879
俶	-11.288
▁皇祖	-11.2881
何謂	-11.2881
之工	-11.2881
月中	-11.2882
有懷	-11.2882
月初	-11.2883
付之	-11.2885
吟詩	-11.2887
大業	-11.2888
胡為	-11.2888
祝釐	-11.2888
初夏	-11.2889
乎抑	-11.289
罨畫	-11.2893
噶爾	-11.2893
衆人	-11.2896
陌上	-11.2896
相得	-11.29
一歲	-11.2902
執手	-11.2903
賜之	-11.2903
也故曰	-11.2907
漫漫	-11.2908
堂集	-11.2911
作此	-11.2911
徹夜	-11.2911
艘	-11.2912
書其	-11.2912
㸃筆	-11.2914
上流	-11.2914
黄昏	-11.2916
書傳	-11.2918
郡守	-11.292
鏡裏	-11.292
鶉	-11.2925
卸	-11.2925
循環	-11.2925
何堪	-11.2925
毘	-11.2926
鸛	-11.2926
鶩	-11.2927
嗚咽	-11.2928
芹	-11.2929
以外	-11.293
蹤跡	-11.2931
欲去	-11.2932
蒼苔	-11.2932
兵民	-11.2934
幾日	-11.2936
必得	-11.2936
所書	-11.2943
正在	-11.2943
之什	-11.2944
乎吾	-11.2945
岷	-11.2946
移家	-11.2946
立朝	-11.2946
者二	-11.2947
未竟	-11.2949
古今體一百	-11.295
吹笛	-11.295
花紅	-11.2951
内廷	-11.2951
興廢	-11.2952
所存	-11.2954
遠近	-11.2957
此二	-11.2957
尔等	-11.296
行吟	-11.2963
空庭	-11.2967
國子	-11.2968
北宋	-11.2968
空中	-11.2968
達於	-11.2969
題曰	-11.297
照例	-11.2971
西溪	-11.2971
賑恤	-11.2972
讀者	-11.2972
少師	-11.2973
惟其	-11.2974
𫾣	-11.2974
成就	-11.2974
土膏	-11.2975
琮	-11.2975
薙	-11.2977
蒼然	-11.2979
怙	-11.2979
進𠞰	-11.298
釣魚	-11.298
聲色	-11.2981
三省	-11.2982
循名	-11.2983
明道	-11.2984
給諫	-11.2989
蒼梧	-11.2989
禮之	-11.299
當在	-11.2991
然猶	-11.2992
滇南	-11.2994
前有	-11.2996
患難	-11.2996
秉燭	-11.2999
當春	-11.2999
暢茂	-11.3003
精力	-11.3005
漁父	-11.3006
髙堂	-11.3007
望中	-11.3007
瀕	-11.3009
二十日	-11.301
中道	-11.3011
湖中	-11.3012
祀之	-11.3013
赤城	-11.3016
則雖	-11.3018
君墓誌銘	-11.3018
騎馬	-11.302
者是也	-11.302
逆旅	-11.3021
未全	-11.3021
水上	-11.3021
只是	-11.3022
鱠	-11.3022
鯤	-11.3024
丹靑	-11.3025
雩	-11.3025
名其	-11.3026
珥	-11.3028
簒	-11.3029
我行	-11.3029
元明	-11.3029
絢	-11.3029
授受	-11.303
帕	-11.3031
惲	-11.3031
為善	-11.3033
怖	-11.3033
宕	-11.3033
名也	-11.3033
不嫌	-11.3033
寥廓	-11.3033
碧落	-11.3034
詬	-11.3035
己亥	-11.3037
廣文	-11.3041
偏宜	-11.3042
南中	-11.3042
我有	-11.3042
入夏	-11.3044
雲霧	-11.3045
伊尹	-11.3049
等十	-11.3051
兵馬	-11.3052
吾鄉	-11.3053
與物	-11.3059
以報	-11.306
常熟	-11.3061
國子監	-11.3062
仲夏	-11.3063
竟以	-11.3064
守令	-11.3066
桓公	-11.3066
府属	-11.3066
極盛	-11.3068
山南	-11.3069
宜興	-11.3073
苦心	-11.3076
文定	-11.3078
蟋蟀	-11.3078
非吾	-11.3078
虀	-11.3079
聶	-11.3079
庶常	-11.308
衿	-11.308
蒂	-11.308
蒔	-11.3081
舊史	-11.3081
談笑	-11.3082
佔	-11.3083
尊前	-11.3084
不多	-11.3084
其初	-11.3085
時聞	-11.3086
耑	-11.3086
己丑	-11.3087
忒	-11.3088
當作	-11.3088
走馬	-11.3089
紂	-11.309
事事	-11.3091
五分	-11.3093
萬松	-11.3095
報雨	-11.3095
規矩	-11.3097
邇来	-11.31
紅燭	-11.3101
也若夫	-11.3103
不仕	-11.3106
不爽	-11.3109
無量	-11.3113
民食	-11.3113
山村	-11.3114
雲烟	-11.3115
而不敢	-11.3115
所願	-11.3116
至則	-11.3121
所以為	-11.3121
郡城	-11.3122
經書	-11.3123
鴟	-11.3125
之妙	-11.3127
三十三	-11.3127
成敗	-11.3127
斯為	-11.3128
亦豈	-11.3129
兩漢	-11.313
鞵	-11.3132
乙夘	-11.3135
珠玉	-11.3136
早春	-11.3137
浩然	-11.3138
事君	-11.3139
月十一日	-11.314
絜	-11.3142
迅速	-11.3145
斷腸	-11.3146
掩映	-11.3146
何地	-11.3146
之誠	-11.3146
盤桓	-11.3148
鮫	-11.3148
鄕里	-11.3149
名流	-11.315
宛然	-11.315
聊復	-11.3152
東都	-11.3158
經行	-11.3159
大成	-11.3159
棄之	-11.3162
無不可	-11.3164
天下事	-11.3165
志在	-11.3165
可比	-11.3166
科第	-11.3167
鼓吹	-11.3168
武進	-11.3168
可用	-11.3168
侍衞	-11.3169
草草	-11.3171
之歲	-11.3171
詔書	-11.3173
金谷	-11.3173
即行	-11.3173
身世	-11.3175
各一	-11.3175
僦	-11.3177
用其	-11.3177
萬姓	-11.3179
兢	-11.3179
莫非	-11.3179
爾乃	-11.318
蜚	-11.318
之意也	-11.3181
南樓	-11.3182
有若	-11.3182
遥望	-11.3183
肴	-11.3184
牎	-11.3184
墊	-11.3185
大梁	-11.3185
稲	-11.3186
得見	-11.3186
爽氣	-11.3186
䏻	-11.3186
縟	-11.3186
人在	-11.3188
洮	-11.3188
泳	-11.3189
之宗	-11.3189
深林	-11.319
自序	-11.3194
翠華	-11.3196
幷序	-11.3196
善惡	-11.3202
道光	-11.3207
渥澤	-11.3207
雲起	-11.3207
赤壁	-11.3208
北門	-11.3208
稱爲	-11.3209
天文	-11.3209
那更	-11.321
喜雨	-11.3212
不殊	-11.3214
復命	-11.3215
大約	-11.3221
客來	-11.3222
望之	-11.3223
掞	-11.3225
午夜	-11.3225
秋林	-11.3227
之碑	-11.3232
廣大	-11.3232
飜	-11.3235
傾城	-11.3238
籙	-11.3239
讙	-11.324
但以	-11.3241
沫	-11.3241
嬗	-11.3243
踐阼	-11.3245
兼之	-11.3246
傳經	-11.3246
舉進士	-11.3247
忠節	-11.325
示之	-11.3251
柰	-11.3254
魯公	-11.3257
制科	-11.3257
相送	-11.3259
乞食	-11.326
誰復	-11.3261
國家之	-11.3262
改正	-11.3269
半夜	-11.3271
該省	-11.3273
在京	-11.3273
相隨	-11.3275
行也	-11.3277
追憶	-11.3278
地名	-11.3278
舊制	-11.3279
而求	-11.3281
祧	-11.3281
畢竟	-11.3282
之以爲	-11.3283
詩情	-11.3284
諭吏部	-11.3284
近於	-11.3285
翠羽	-11.3286
三品	-11.3286
幌	-11.3286
畫裏	-11.3288
邕	-11.3289
空翠	-11.3289
天下後世	-11.3289
爇	-11.3291
春雪	-11.3292
滄溟	-11.3292
啞	-11.3293
甚為	-11.3293
諏	-11.3294
根柢	-11.3294
下河	-11.3296
睠	-11.3297
金吾	-11.3297
世世	-11.3299
李杜	-11.3305
管絃	-11.3305
之季	-11.3306
者不過	-11.3307
龍山	-11.3307
功令	-11.3307
計日	-11.3307
自爲	-11.3307
几席	-11.3308
史氏	-11.331
原任	-11.3311
月落	-11.3311
溪流	-11.3311
墓志銘	-11.3312
効力	-11.3312
倉皇	-11.3313
罔不	-11.3313
文正公	-11.3314
清暉	-11.3318
少壯	-11.3319
其五	-11.3321
衡山	-11.3322
牡	-11.3323
關山	-11.3323
相沿	-11.3329
天成	-11.333
正氣	-11.333
仁人	-11.3336
甘雨	-11.3336
沉吟	-11.3339
元祐	-11.3339
黨人	-11.3341
又聞	-11.3341
不具	-11.3341
㓕	-11.3342
三歎	-11.3342
瑟瑟	-11.3343
碧海	-11.3344
蘸	-11.3344
尤甚	-11.3345
何爲	-11.3345
掀	-11.3345
大笑	-11.3345
所難	-11.3345
嚙	-11.3346
瀹	-11.3346
羣公	-11.3347
新年	-11.3347
爨	-11.3347
蕎	-11.3348
抑亦	-11.3348
知己	-11.3349
於家	-11.335
莫愁	-11.3351
西路	-11.3353
太乙	-11.3355
放翁	-11.3357
族人	-11.3359
所經	-11.3359
為學	-11.336
各報	-11.3361
碑銘	-11.3361
一雨	-11.3362
河漢	-11.3362
浥	-11.3363
賦此	-11.3364
自喜	-11.3371
曾經	-11.3374
向東	-11.3375
其徒	-11.3376
縣南	-11.3377
享年	-11.3377
雖欲	-11.3378
北平	-11.3378
碣石	-11.338
禮法	-11.3381
祠堂	-11.3383
候選	-11.3384
知所	-11.3384
璣	-11.3385
白蓮	-11.3387
相率	-11.3388
一石	-11.3389
重九	-11.339
滿庭	-11.3391
三軍	-11.3391
粱	-11.3391
偪	-11.3394
今日之	-11.3394
繽紛	-11.3397
荆棘	-11.3398
小臣	-11.3398
縹	-11.3398
㵼	-11.3399
嘻	-11.34
汜	-11.3401
漳浦	-11.3401
義也	-11.3404
桑麻	-11.3404
傳神	-11.3407
之事也	-11.3407
梁園	-11.3409
楚人	-11.341
督率	-11.3411
見憺	-11.3412
一色	-11.3413
吉凶	-11.3414
高宗	-11.3414
吾輩	-11.3415
止於	-11.3415
琴書	-11.3416
爛漫	-11.3417
大率	-11.3417
大略	-11.3418
為主	-11.3421
兵火	-11.3422
老農	-11.3422
夷齊	-11.3423
傳後	-11.3423
奏章	-11.3423
䇿馬	-11.3423
茂陵	-11.3424
對時	-11.3426
待月	-11.3428
屹	-11.3429
不喜	-11.3432
卅	-11.3432
藩司	-11.3433
責之	-11.3436
父諱	-11.3436
三章	-11.3439
據奏	-11.344
西直門外	-11.3441
宣王	-11.3442
必不可	-11.3442
所過	-11.3442
鬂	-11.3444
所不能	-11.3445
臬	-11.3446
以傳	-11.3447
家門	-11.3447
賠	-11.3448
𦂳	-11.345
秦人	-11.345
秣陵	-11.3451
禮部尚書	-11.3453
删	-11.3454
覿	-11.3454
通行	-11.3458
此數	-11.3459
存焉	-11.3461
御製詩四集巻	-11.3461
不生	-11.3462
視此	-11.3462
國藩	-11.3464
辨其	-11.3464
山容	-11.3465
書室	-11.3467
賊首	-11.3467
廟碑	-11.3468
庶子	-11.3471
萬户	-11.3471
墓誌	-11.3472
也至於	-11.3476
下車	-11.3478
遺經	-11.348
要害	-11.3482
賊勢	-11.3482
等閒	-11.3482
江夏	-11.3483
吳人	-11.3484
庠生	-11.3485
大喜	-11.3485
烏鵲	-11.3486
緩徵	-11.3486
在人	-11.3487
舟次	-11.3487
一區	-11.3487
言曰	-11.3487
興化	-11.349
行省	-11.3491
不遠	-11.3494
山前	-11.3495
首逆	-11.3497
串	-11.3499
囷	-11.35
二萬	-11.35
以名	-11.3501
郊外	-11.3501
荀子	-11.3503
十畝	-11.3505
滓	-11.3505
斵	-11.3505
后稷	-11.3505
庶吉士	-11.3506
鹵	-11.3506
垂垂	-11.3506
髠	-11.3508
甍	-11.3509
是誰	-11.351
紉	-11.351
涕泣	-11.3512
坍	-11.3513
出塞	-11.3513
古法	-11.3517
軒轅	-11.3517
禆	-11.3519
即為	-11.3521
夜宿	-11.3521
藝文志	-11.3522
積欠	-11.3523
公言	-11.3523
以濟	-11.3523
心情	-11.3525
世無	-11.3527
知此	-11.3527
吏部尚書	-11.3529
塵土	-11.3531
賢良	-11.3531
說法	-11.3535
時已	-11.3537
三十四	-11.3537
丹楓	-11.354
此景	-11.354
皆爲	-11.3543
池塘	-11.3543
樂善	-11.3543
生長	-11.3548
謂此	-11.355
年老	-11.3553
而吾	-11.3555
糢糊	-11.3556
守成	-11.3556
唐詩	-11.3558
踊	-11.3559
荏苒	-11.356
子貢	-11.356
酪	-11.3562
扺	-11.3563
怪石	-11.3563
載之	-11.3563
縣北	-11.3563
慳	-11.3563
崔嵬	-11.3564
徜徉	-11.3564
皇太子	-11.3564
潯陽	-11.3565
儒臣	-11.3566
舟楫	-11.3566
噬	-11.3567
暢春園	-11.3567
太皇太后	-11.3567
者歟	-11.3567
翛然	-11.357
絲綸	-11.3572
經旬	-11.3572
哂	-11.3574
議者	-11.3575
所取	-11.3575
喟然	-11.358
峴	-11.3581
南宫	-11.3582
論者	-11.3582
之選	-11.3583
用事	-11.3583
五雲	-11.3585
水村	-11.3585
即是	-11.3586
緑雲	-11.3587
畫像	-11.3587
金碧	-11.3588
吾儕	-11.359
以補	-11.359
前來	-11.3591
滿目	-11.3591
紀之	-11.3592
舊聞	-11.3593
畫中	-11.3595
整齊	-11.3597
原是	-11.3597
漁舟	-11.3598
忽聞	-11.3599
下注	-11.36
櫓	-11.36
之害	-11.3602
饑寒	-11.3602
三白	-11.3602
禍福	-11.3603
好生	-11.3603
志士	-11.3605
七百	-11.3606
等官	-11.3608
渰	-11.3609
詩賦	-11.361
學宫	-11.3611
塌	-11.3613
帚	-11.3615
奉和	-11.3617
苴	-11.3617
清涼	-11.3617
開門	-11.3618
雖曰	-11.3619
溝壑	-11.3619
平沙	-11.362
皺	-11.362
先天	-11.362
晁	-11.3621
所請	-11.3622
瞥眼	-11.3624
山泉	-11.3626
麻姑	-11.3627
秋花	-11.3628
奏報得雨詩以誌慰	-11.3632
年四十	-11.3634
蘇門	-11.3636
相宜	-11.3637
殉難	-11.3638
簿書	-11.3639
察其	-11.364
别後	-11.3643
恢復	-11.3646
曉諭	-11.3649
劉君	-11.365
以謂	-11.3652
淺深	-11.3655
之所為	-11.3655
闕下	-11.3659
浮圖	-11.366
受知	-11.3661
吠	-11.3661
齊梁	-11.3662
水西	-11.3663
如是則	-11.3664
五載	-11.3665
時所	-11.3666
烟水	-11.3666
初七日	-11.3668
眀月	-11.3668
冥冥	-11.3668
玷	-11.3669
世系	-11.3671
春江	-11.3671
數十人	-11.3672
偁	-11.3672
神靈	-11.3672
冽	-11.3672
軍士	-11.3673
攪	-11.3673
蹔	-11.3673
譎	-11.3673
而必	-11.3674
為國	-11.3674
高樓	-11.3675
漁樵	-11.3677
禮經	-11.3679
相向	-11.3681
深知	-11.3681
篋中	-11.3682
愼行	-11.3683
以安	-11.3683
白門	-11.3684
二部	-11.3686
一丈	-11.3688
自應	-11.3689
其要	-11.369
農家	-11.3695
少長	-11.3695
長吏	-11.3699
過午	-11.37
表裏	-11.3701
處所	-11.3702
命也	-11.3702
修葺	-11.3704
且喜	-11.3704
清光	-11.3704
公公	-11.3704
與世	-11.3705
八尺	-11.3706
到門	-11.3706
筑	-11.3709
不留	-11.3709
擊之	-11.3709
一死	-11.3712
方外	-11.3713
其行	-11.3714
元案	-11.3714
見寄	-11.3714
其端	-11.3716
四分	-11.3716
相距	-11.3717
又一	-11.3719
壯士	-11.372
安居	-11.3721
蕺山	-11.3722
愿	-11.3723
泚	-11.3723
䜟	-11.3724
餘杭	-11.3724
㤙	-11.3724
跂	-11.3725
甜	-11.3726
小字	-11.3726
作客	-11.3727
庀	-11.3727
兩三	-11.3727
經師	-11.3727
幘	-11.3728
燮	-11.3728
琰	-11.3728
服官	-11.3729
詠古	-11.3729
取義	-11.3731
者且	-11.3731
聞君	-11.3733
軍需	-11.3733
不難	-11.3734
焉則	-11.3734
有過	-11.3736
荒唐	-11.3737
無幾	-11.3738
新詞	-11.3738
爲諸生	-11.374
不聽	-11.374
多病	-11.3741
必致	-11.3744
親臨	-11.3746
九曲	-11.3748
蕩平	-11.375
移時	-11.3756
不定	-11.3756
冬雪	-11.3756
連年	-11.3761
廬江	-11.3762
諸孫	-11.3763
京洛	-11.3767
婦子	-11.3767
奉天	-11.377
謝公	-11.3771
其體	-11.3772
曽經	-11.3772
拂衣	-11.3773
嶧	-11.3774
山亭	-11.3775
階前	-11.3778
挟	-11.378
閣部	-11.3781
三十餘	-11.3781
御製詩三集巻	-11.3782
脛	-11.3783
實在	-11.3784
縹緗	-11.3785
古音	-11.3785
自持	-11.3788
俛仰	-11.3788
也至	-11.379
考其	-11.3793
知道	-11.3796
志也	-11.3806
史之	-11.3806
龍鱗	-11.381
好惡	-11.3812
亂後	-11.3812
吾將	-11.3814
祭文	-11.3818
五尺	-11.3822
秀水	-11.3826
形勝	-11.3828
半年	-11.3828
汨	-11.3828
徴君	-11.3828
暮雲	-11.3829
遠矣	-11.383
稗	-11.383
朝宗	-11.3831
此行	-11.3831
誰憐	-11.3832
舁	-11.3832
武夷	-11.3832
萇	-11.3832
罥	-11.3832
于公	-11.3834
者所	-11.3835
之勞	-11.3836
長史	-11.3836
上疏	-11.3836
嬪	-11.3837
溉	-11.3837
糊	-11.3839
總兵官	-11.3839
窶	-11.384
蒞	-11.384
瓌	-11.3841
棐几	-11.3841
露華	-11.3843
視事	-11.3843
顛倒	-11.3845
贑	-11.3846
九經	-11.3847
舅氏	-11.3848
壚	-11.3851
殊不	-11.3851
耕種	-11.3852
驚心	-11.3852
驅車	-11.3853
恵山	-11.3854
紅旗	-11.3854
遂與	-11.3855
指日	-11.3855
等項	-11.3858
然非	-11.386
發之	-11.3861
披衣	-11.3864
以孝	-11.3867
雲散	-11.3867
六百	-11.3868
亦與	-11.3868
饑民	-11.3869
用意	-11.3869
蒼龍	-11.3871
百人	-11.3872
寄題	-11.3875
者無不	-11.3876
含情	-11.3876
隱隱	-11.3878
興安	-11.3878
隔年	-11.3879
編年	-11.3883
之序	-11.3883
數十萬	-11.3884
聖心	-11.3886
竹枝	-11.3887
東壁	-11.3887
瞑	-11.3889
諍	-11.3892
是否	-11.3893
安定	-11.3893
矣吾	-11.3894
憊	-11.3894
早稻	-11.3894
廸	-11.3894
紊	-11.3895
不孤	-11.3899
中式	-11.39
清蹕	-11.39
第六	-11.39
吾邑	-11.3901
大名	-11.3903
忠烈	-11.3904
不可得而	-11.3904
長蘅	-11.3905
深意	-11.3906
曰惟	-11.3907
大計	-11.3907
朝暮	-11.3912
也顧	-11.3912
瀝	-11.3913
尚能	-11.3914
粤西	-11.3914
下旬	-11.3915
淸明	-11.3916
而可	-11.3918
怡情	-11.3922
忽見	-11.3923
無須	-11.3924
卓午	-11.3924
樂事	-11.3926
贈公	-11.3926
之章	-11.3926
風霜	-11.3928
下筆	-11.3929
驛路	-11.3929
爲此	-11.393
事蹟	-11.393
物而	-11.3932
其生	-11.3935
放歌	-11.3935
今文	-11.3935
今復	-11.3937
本草	-11.394
已矣	-11.3941
風度	-11.3943
一株	-11.3944
薔薇	-11.3945
嘘	-11.3945
纜	-11.3945
鷁	-11.3947
扄	-11.3948
猶記	-11.3949
生事	-11.3949
具官某	-11.395
磚	-11.395
檝	-11.395
小亭	-11.3951
萬斛	-11.3952
焰	-11.3952
秋氣	-11.3952
篇章	-11.3952
緬甸	-11.3956
諭令	-11.3956
乃至	-11.3957
侵尋	-11.3957
如雨	-11.3957
一統志	-11.3957
自漢	-11.3958
俎	-11.3959
未開	-11.3962
遂致	-11.3962
連天	-11.3963
非不	-11.3964
流落	-11.3964
愛惜	-11.3964
講堂	-11.3965
觀瀑	-11.3965
登臺	-11.3968
何氏	-11.3969
許氏	-11.397
山城	-11.397
戎馬	-11.3974
德尹	-11.3975
二尺	-11.398
皇皇	-11.3983
林木	-11.3984
雲龍	-11.3985
知人	-11.3986
花木	-11.3986
片言	-11.3988
髭	-11.3989
何殊	-11.3989
焉故	-11.399
西施	-11.3991
而行之	-11.3992
平安	-11.3996
家山	-11.3997
卭	-11.3997
光禄	-11.3998
貰	-11.4004
觜	-11.4005
蚓	-11.4005
這	-11.4005
灝	-11.4006
颯颯	-11.4008
祲	-11.4008
賃	-11.4008
雨勢	-11.4008
華陽	-11.4009
纍	-11.4009
盌	-11.401
意欲	-11.401
蘊	-11.401
佳景	-11.401
田廬	-11.4011
落木	-11.4012
先民	-11.4014
不論	-11.4014
何益	-11.4014
亦稱	-11.4015
而西	-11.4015
西臺	-11.4017
詠和闐玉	-11.4017
古蹟	-11.4019
附於	-11.4019
李君	-11.402
重過	-11.4021
十九日	-11.4022
得所	-11.4022
御前	-11.4024
備矣	-11.4027
方言	-11.4028
所指	-11.4031
㣲雨	-11.4033
執政	-11.4038
亦因	-11.4038
道心	-11.4039
之賊	-11.4039
心力	-11.404
存之	-11.4041
同遊	-11.4041
顔子	-11.4042
高堂	-11.4042
厯年	-11.4044
代之	-11.4045
花飛	-11.4045
眼中	-11.4049
最愛	-11.4053
進呈	-11.4054
治平	-11.4055
之神	-11.4056
化工	-11.4058
劑	-11.4059
都下	-11.4059
徃事	-11.406
䜿	-11.406
馬匹	-11.406
氐	-11.4061
締	-11.4062
馳驅	-11.4062
畞	-11.4062
涓	-11.4062
喘	-11.4064
偵	-11.4064
果能	-11.4066
親切	-11.4066
府城	-11.4066
舊遊	-11.4066
縂	-11.4066
柴桑	-11.4066
琪	-11.4067
瑪	-11.4067
十有五	-11.4067
則可	-11.4067
朕心	-11.4068
夫人之	-11.4069
矣且	-11.4069
當是	-11.407
海口	-11.4071
之次	-11.4072
前事	-11.4074
獅子林	-11.4075
庶可	-11.4075
黄山	-11.408
酒徒	-11.4082
業已	-11.4083
天寶	-11.4084
杜預	-11.4084
虎邱	-11.4084
下士	-11.4084
世居	-11.4085
古學	-11.4085
於戲	-11.4086
訓導	-11.4088
東觀	-11.4088
以身	-11.4088
者夫	-11.4088
接踵	-11.409
以便	-11.409
昭陽	-11.409
月初二日	-11.409
弗能	-11.4091
不衰	-11.4091
名花	-11.4092
南路	-11.4093
聖人之道	-11.4094
大地	-11.4094
長吟	-11.4095
終無	-11.4097
東望	-11.4098
卿大夫	-11.4098
撫軍	-11.41
莫道	-11.4105
得人	-11.4105
朱子之	-11.4106
於焉	-11.4108
如之何	-11.4109
春秋之	-11.4109
制義	-11.411
死之	-11.4111
蜨	-11.4112
鬚眉	-11.4112
樽前	-11.4114
邑人	-11.4114
而始	-11.4114
名者	-11.4114
爲主	-11.4114
予謂	-11.4115
一端	-11.4116
桂樹	-11.4117
孩	-11.4118
緐	-11.4119
孱	-11.4119
玉壺	-11.4119
毘陵	-11.4121
竪	-11.4121
霏霏	-11.4122
岱宗	-11.4122
述其	-11.4122
大祀	-11.4123
皥	-11.4123
筏	-11.4124
鼉	-11.4124
金沙	-11.4125
門庭	-11.4125
千峯	-11.4126
卓犖	-11.4128
者豈	-11.4128
俚	-11.4128
閬	-11.4129
祫	-11.413
家事	-11.413
正統	-11.4131
漁陽	-11.4132
攤	-11.4132
有八	-11.4134
昨宵	-11.4137
夜泊	-11.414
巡幸	-11.414
各府	-11.4142
淹留	-11.4144
敢言	-11.4144
延年	-11.4145
肅然	-11.4145
了了	-11.4146
之衆	-11.4147
統兵	-11.4149
法華	-11.415
神功	-11.4153
以予	-11.4153
國子監生	-11.4154
山館	-11.4156
沽酒	-11.4156
非一	-11.4158
塋	-11.416
比於	-11.4165
大官	-11.4166
嵗嵗	-11.4167
陽城	-11.4167
堂中	-11.4167
東平	-11.4168
臉	-11.417
豈敢	-11.417
腸斷	-11.417
不事	-11.4171
醸	-11.4171
一泓	-11.4172
苓	-11.4174
妒	-11.4176
蛤	-11.4176
而天下	-11.4176
愕	-11.4178
太保	-11.4178
死事	-11.4178
雲門	-11.4179
養心殿	-11.4179
鏃	-11.418
琬琰	-11.4183
髙宗	-11.4183
矛	-11.4183
其妻	-11.4185
自明	-11.4185
月出	-11.4185
無憾	-11.4185
芸編	-11.4187
此固	-11.4189
題詠	-11.4189
子厚	-11.419
薊門	-11.419
其國	-11.419
登堂	-11.4194
靑天	-11.4196
平糶	-11.4197
安石	-11.4198
今本	-11.42
未歸	-11.42
相通	-11.42
可得而	-11.4201
矣予	-11.4202
聞見	-11.4202
藍田	-11.4203
永安	-11.4204
創業	-11.4205
無成	-11.4205
史傳	-11.4205
舊游	-11.4206
淮隂	-11.4208
望見	-11.4208
取道	-11.4208
宫詞	-11.4209
鳥道	-11.4209
分兵	-11.4209
居之	-11.4211
山頂	-11.4214
大用	-11.4216
晚年	-11.4219
則自	-11.4223
蕭寺	-11.4224
鑱	-11.4224
惠山	-11.4225
艱致	-11.4225
建立	-11.4226
嘗讀	-11.4226
安樂	-11.4228
無煩	-11.4229
九原	-11.423
郞中	-11.423
醖	-11.4231
之祀	-11.4231
經籍	-11.4232
丰	-11.4234
趺	-11.4234
不返	-11.4234
涙	-11.4234
啇	-11.4234
萬兩	-11.4236
脾	-11.4237
亦弗	-11.4237
漢時	-11.4238
遴	-11.4239
睨	-11.4239
籥	-11.424
孟氏	-11.424
五子	-11.424
圓明園	-11.4241
設如	-11.4245
者十	-11.4246
里門	-11.4248
東皇	-11.4248
瞻仰	-11.4251
暝色	-11.4251
史臣	-11.4252
豈得	-11.4253
適可	-11.4256
所記	-11.4257
未逮	-11.4257
誤也	-11.4258
平王	-11.4261
淮海	-11.4261
在南	-11.4261
璿	-11.4262
於詩	-11.4262
吾言	-11.4265
良友	-11.4265
過訪	-11.4266
元配	-11.4266
唐寅	-11.4266
潢	-11.4267
通典	-11.4268
之義也	-11.4268
在外	-11.4269
疑之	-11.427
石榴	-11.4272
忘機	-11.4272
景光	-11.4275
成於	-11.4277
則皆	-11.4277
子胥	-11.4285
約收	-11.4285
其語	-11.4286
伯夷	-11.4286
無忘	-11.4287
富春	-11.4289
菌	-11.4289
娃	-11.429
筋	-11.4291
雲根	-11.4295
襯	-11.4295
離宫	-11.4296
竦	-11.4297
山路	-11.4298
有遺	-11.4298
辛夘	-11.4298
橅	-11.4299
天籟	-11.4302
沉沉	-11.4302
詈	-11.4302
內外	-11.4302
丘壑	-11.4303
兵燹	-11.4303
銅雀	-11.4303
而況	-11.4303
兑	-11.4304
石舫	-11.4305
霖雨	-11.4305
三縣	-11.4306
科目	-11.4308
思量	-11.4309
茅茨	-11.4309
封事	-11.4312
總是	-11.4314
津逮	-11.4314
泫然	-11.4314
六月初	-11.4315
臺上	-11.4316
良知	-11.4316
大半	-11.4316
來朝	-11.4316
籬落	-11.4316
陳君	-11.4317
受之	-11.4317
大風	-11.4317
醉後	-11.4318
樹下	-11.4321
心期	-11.4322
一縣	-11.4323
與諸	-11.4324
王莽	-11.4325
亦宜	-11.4326
竹杖	-11.4326
陪臣	-11.4327
相承	-11.4328
謝客	-11.4328
接濟	-11.4328
都城	-11.4329
◍	-11.4333
風來	-11.4333
一燈	-11.4335
小院	-11.4337
九百	-11.4337
有心	-11.4337
皇天	-11.4339
俯視	-11.4339
以定	-11.4339
之辰	-11.434
出郭	-11.434
一任	-11.4342
廂	-11.4343
雲物	-11.4347
帖子	-11.4348
盼望	-11.4348
道而	-11.4349
誰謂	-11.4351
身在	-11.4351
糧價	-11.4351
煽	-11.4352
蘖	-11.4352
碓	-11.4352
躊躇	-11.4353
四野	-11.4353
炯	-11.4353
欣慰	-11.4354
亹	-11.4354
之謬	-11.4356
停止	-11.4356
始見	-11.4357
股肱	-11.4357
閶闔	-11.4358
刮	-11.436
白晝	-11.4361
黄雲	-11.4361
佀	-11.4364
二十一年	-11.4368
也於是	-11.4369
贏得	-11.4372
將相	-11.4374
其數	-11.4377
往来	-11.438
便宜	-11.438
花月	-11.438
儒生	-11.4383
在彼	-11.4383
普霑	-11.4383
大畧	-11.4384
無主	-11.4385
昔賢	-11.4386
二句	-11.4386
愾	-11.4387
昭穆	-11.4388
壽序	-11.4388
二曰	-11.4389
馬氏	-11.4389
南風	-11.439
亦不可	-11.439
竭力	-11.439
晏子	-11.4393
文廟	-11.4395
迎鑾	-11.4397
春明	-11.4397
滿眼	-11.4398
◍◍	-11.4398
臨御	-11.4399
懷抱	-11.4399
公亦	-11.44
野花	-11.4404
種樹	-11.4404
天香	-11.4405
近來	-11.4406
俎豆	-11.4407
遇之	-11.4407
繅	-11.4409
蛻	-11.4409
棉	-11.4409
每日	-11.4409
信之	-11.441
袪	-11.441
嘿	-11.4411
嘆息	-11.4411
之規	-11.4412
韞	-11.4412
亦嘗	-11.4412
持節	-11.4412
南屏	-11.4412
菲	-11.4412
躓	-11.4413
羗	-11.4414
齋先生	-11.4415
妻孥	-11.4416
澁	-11.4416
直抵	-11.4416
中書舍人	-11.4416
入畫	-11.4417
讚	-11.4417
釘	-11.4417
㫺	-11.4417
鋟	-11.4417
舉業	-11.4418
不思	-11.4418
揜	-11.4419
不徒	-11.4419
以紀	-11.4421
烟雲	-11.4424
野水	-11.4425
之深	-11.4425
昔時	-11.4425
合之	-11.4426
能文	-11.4426
大觀	-11.4428
云是	-11.4428
者余	-11.4429
服之	-11.4429
郭外	-11.443
鳥獸	-11.443
告之	-11.4431
兒孫	-11.4431
神人	-11.4432
塞山	-11.4436
幾年	-11.4438
遺老	-11.4438
文以	-11.4439
出沒	-11.4439
時日	-11.444
河之	-11.4441
雲開	-11.4442
東園	-11.4442
九龍	-11.4442
三生	-11.4443
物色	-11.4446
軍書	-11.4446
相尋	-11.4447
行至	-11.4449
法度	-11.445
行役	-11.4453
之首	-11.4455
奉母	-11.4456
三十一	-11.4457
因即	-11.4458
三里	-11.4458
兩次	-11.4458
長干	-11.446
畹	-11.4462
不詳	-11.4462
李賀	-11.4462
者謂之	-11.4462
斷續	-11.4463
不憚	-11.4463
老屋	-11.4465
西東	-11.4465
俛	-11.4465
絶無	-11.4466
飴	-11.4467
先憂	-11.4467
其字	-11.4468
在前	-11.4469
崢嶸	-11.4469
嘔	-11.447
鱸	-11.447
俄羅斯	-11.4471
秦王	-11.4471
致身	-11.4471
過江	-11.4471
天佑	-11.4472
靚	-11.4472
匍匐	-11.4472
團圞	-11.4472
去國	-11.4473
漕船	-11.4473
曰某	-11.4474
雜記	-11.4475
所必	-11.4475
而巳矣	-11.4476
松楸	-11.4477
耜	-11.4477
颷	-11.4477
寰	-11.4478
辛夷	-11.4478
已無	-11.4478
行走	-11.4481
向人	-11.4481
自傷	-11.4482
封建	-11.4483
以病	-11.4484
東湖	-11.4488
五星	-11.4488
催科	-11.449
尙未	-11.449
臯陶	-11.4491
年来	-11.4492
儒術	-11.4492
方知	-11.4493
閭里	-11.4493
員外	-11.4494
總河	-11.4496
香雪	-11.4496
雨足	-11.4497
義士	-11.4498
二月初	-11.4499
誠意	-11.4499
歸順	-11.4499
之費	-11.4499
漕運	-11.4499
不類	-11.45
東華	-11.4502
千門	-11.4505
六代	-11.4505
同歸	-11.4505
士君子	-11.4509
一朶	-11.451
者以爲	-11.451
今来	-11.4511
竟無	-11.4512
休息	-11.4512
叔子	-11.4515
烟雨	-11.4516
鄭重	-11.4518
小坐	-11.4522
西漢	-11.4522
縣人	-11.4522
澧	-11.4524
楊公	-11.4524
異之	-11.4526
過眼	-11.4526
玉門	-11.4527
至元	-11.453
者咸	-11.453
滂	-11.4531
愛其	-11.4532
所建	-11.4533
贓	-11.4533
瑚	-11.4533
未暇	-11.4534
凱旋	-11.4534
終朝	-11.4534
從今	-11.4535
㵎	-11.4536
蓂	-11.4536
静室	-11.4539
永定河	-11.4539
近畿	-11.4541
縶	-11.4542
大昕	-11.4543
考證	-11.4546
制作	-11.4546
歌詩	-11.4547
盡力	-11.4548
月餘	-11.4548
誰道	-11.4549
及見	-11.4552
冬夜	-11.4552
正定	-11.4553
㡬度	-11.4553
交遊	-11.4556
濟寧	-11.4556
者何也	-11.4558
紅藥	-11.4559
孰與	-11.456
存其	-11.456
依例	-11.4562
叅政	-11.4562
時復	-11.4563
文明	-11.4565
行營	-11.4565
昊天	-11.4566
林巒	-11.4567
光隂	-11.4569
可喜	-11.4571
十全	-11.4571
無涯	-11.4575
既以	-11.4579
通經	-11.4579
之會	-11.458
文靖	-11.4581
不避	-11.4581
一峯	-11.4587
楓葉	-11.4589
騾	-11.459
西銘	-11.459
甦	-11.4592
凹	-11.4592
嬋娟	-11.4592
艤	-11.4592
鑣	-11.4592
荇	-11.4593
輪囷	-11.4594
寘	-11.4594
軋	-11.4594
駑	-11.4595
即用	-11.4595
沮洳	-11.4596
噐	-11.4596
飫	-11.4596
掾	-11.4596
窆	-11.4596
硃	-11.4596
河橋	-11.4597
隙地	-11.4597
户口	-11.4598
王肅	-11.4598
大全	-11.4598
幛	-11.4599
一堂	-11.46
曽無	-11.4602
正供	-11.4603
閉户	-11.4604
澹泊	-11.4604
田禾	-11.4606
亦同	-11.4607
喬松	-11.4607
浙西	-11.4608
南岸	-11.4608
伏羲	-11.4608
王郎	-11.4609
疾病	-11.4609
宫商	-11.461
千樹	-11.4612
小雨	-11.4613
四部	-11.4614
旗亭	-11.4615
盛典	-11.4615
不移	-11.4616
無賴	-11.4619
神武	-11.4622
龍井	-11.4624
不違	-11.4626
予心	-11.4626
往者	-11.4627
一線	-11.4629
必須	-11.4629
亦猶	-11.4629
蕪湖	-11.463
憶舊	-11.4631
視學	-11.4633
北征	-11.4635
無忝	-11.4637
午日	-11.4638
巍	-11.464
武侯	-11.464
曉日	-11.4641
銘銘曰	-11.4641
縉	-11.4644
忽憶	-11.4646
也又曰	-11.4646
聽之	-11.4646
遇雨	-11.4649
杲	-11.4649
憨	-11.4651
􁈁	-11.4651
金馬	-11.4651
一子	-11.4652
曽祖	-11.4652
彴	-11.4653
霆	-11.4654
蓀	-11.4655
江鄉	-11.4655
紏	-11.4656
何哉	-11.4656
合計	-11.4656
起於	-11.4657
飇	-11.4659
之念	-11.466
過客	-11.466
諸史	-11.4661
程氏	-11.4661
南征	-11.4661
自從	-11.4663
青門	-11.4664
城隍	-11.4664
重臣	-11.4664
潞河	-11.4665
以誌	-11.4667
吳郡	-11.4668
非禮	-11.4669
余亦	-11.467
事理	-11.4673
杜氏	-11.4674
予與	-11.4675
詞客	-11.4677
慈寧	-11.4678
世子	-11.4679
不因	-11.468
春月	-11.4684
司馬遷	-11.4684
今秋	-11.4685
樓前	-11.4685
即目	-11.4688
吾意	-11.4688
祈雨	-11.4688
難矣	-11.4689
易也	-11.4689
校書	-11.469
農務	-11.4691
愛此	-11.4695
暘雨	-11.4697
不存	-11.4697
府属之	-11.4699
千餘里	-11.4703
之弟	-11.4705
毗	-11.4706
永寧	-11.4706
余爲	-11.4709
茭	-11.471
嫓	-11.471
餼	-11.4711
賞給	-11.4713
屈原	-11.4713
煙波	-11.4713
鑠	-11.4714
犧	-11.4715
蒹葭	-11.4715
急雨	-11.4715
尅	-11.4715
三代之	-11.4715
同姓	-11.4716
莘	-11.4717
䦨干	-11.4717
澈	-11.4717
玉局	-11.4717
滚	-11.4717
唘蹕	-11.4718
澳	-11.4718
因成	-11.4719
之國	-11.4719
諸軍	-11.472
林爽文	-11.472
亭臺	-11.4721
毫釐	-11.4722
人傳	-11.4723
所述	-11.4723
他鄉	-11.4724
捷音	-11.4724
頗覺	-11.4724
三千里	-11.4726
不可勝	-11.4728
也已	-11.4728
毋乃	-11.473
千仞	-11.4731
水晶	-11.4732
州之	-11.4732
夜雪	-11.4732
空言	-11.4732
還朝	-11.4732
班氏	-11.4732
滿漢	-11.4733
北至	-11.4734
烹茶	-11.4734
諸事	-11.4735
但有	-11.4735
服闋	-11.4737
者若	-11.4738
有能	-11.4739
權衡	-11.474
舍利	-11.4743
而易	-11.4744
喜而	-11.4744
高郵	-11.4744
此夕	-11.4745
仞	-11.4746
躔	-11.4749
北郊	-11.4749
碧水	-11.4751
說者	-11.4752
莫問	-11.4753
若乃	-11.4755
大者	-11.4756
全無	-11.4759
交情	-11.4759
四顧	-11.476
小舟	-11.4763
九華	-11.4763
本意	-11.4765
鶚	-11.4766
箔	-11.4767
粉本	-11.4768
生生	-11.4768
匯	-11.4769
調御	-11.4769
閥	-11.477
方今	-11.4772
堯典	-11.4773
早已	-11.4773
豢	-11.4774
撾	-11.4774
其師	-11.4775
團扇	-11.4776
久不	-11.4776
霓裳	-11.4778
繳	-11.4778
朢	-11.4778
一度	-11.478
奨	-11.4781
歷歷	-11.4782
廨	-11.4782
廿四	-11.4784
琴瑟	-11.4785
荀卿	-11.4786
築室	-11.4788
公者	-11.4789
其弊	-11.479
郊原	-11.4791
養生	-11.4792
得無	-11.4793
初年	-11.4793
祝融	-11.4795
億萬	-11.4795
遂爲	-11.4796
紀綱	-11.4798
旁午	-11.4799
直至	-11.48
所據	-11.48
實難	-11.4801
庶人	-11.4802
吾弟	-11.4805
國有	-11.4805
漸次	-11.4805
漫口	-11.4805
殆盡	-11.4807
第七	-11.4807
天公	-11.4808
兩度	-11.4808
上客	-11.4811
漢陽	-11.4813
三百里	-11.4813
如在	-11.4815
東萊	-11.4816
勝國	-11.4817
往嵗	-11.4817
編次	-11.4818
何嘗	-11.4818
天山	-11.4819
王䝉	-11.4822
劉禹錫	-11.4824
交游	-11.4825
兖州	-11.4825
今天下	-11.4826
成什	-11.4829
無雙	-11.4829
新建	-11.483
孟夏	-11.483
皆無	-11.483
歸于	-11.483
帝京	-11.4831
舊本	-11.4834
貴賤	-11.4834
經綸	-11.4835
佯	-11.4835
之表	-11.4836
溶溶	-11.4838
莓苔	-11.4838
溶	-11.4839
爼	-11.4839
者不能	-11.4839
小像	-11.484
磁	-11.484
于天	-11.484
呼吸	-11.484
驩	-11.484
明德	-11.4841
創得齋	-11.4841
碌碌	-11.4842
而思	-11.4843
世道	-11.4844
授以	-11.4845
閏月	-11.4846
者莫如	-11.4846
稱觴	-11.4847
取諸	-11.4848
客有	-11.4848
風生	-11.4852
平山	-11.4852
自取	-11.4853
以達	-11.4853
出水	-11.4853
山齋	-11.4853
相待	-11.4853
黄水	-11.4854
列國	-11.4855
南枝	-11.4856
所向	-11.4856
天壤	-11.4857
與先生	-11.4857
不令	-11.4857
往返	-11.486
京邸	-11.4862
叩頭	-11.4867
及於	-11.4869
舟車	-11.4869
不得志	-11.487
亂離	-11.4871
雲棲	-11.4872
敢云	-11.4872
晉陽	-11.4877
入直	-11.4878
偶一	-11.4879
神物	-11.4879
致祭	-11.4884
九分有餘	-11.4884
萬歲	-11.4885
切切	-11.4886
閣臣	-11.4887
幸甚	-11.4887
七里	-11.4888
相過	-11.4888
鹿鳴	-11.4889
吾黨	-11.489
縣東	-11.4893
不給	-11.4894
四世	-11.4894
車騎	-11.4895
僕射	-11.4895
怳	-11.4897
向南	-11.4897
熒	-11.4897
弹	-11.4897
載道	-11.4897
賒	-11.4898
向西	-11.4898
登場	-11.4898
不以爲	-11.4899
涂	-11.4899
天末	-11.4899
看得	-11.49
菘	-11.49
洄	-11.49
癢	-11.4901
餘暇	-11.4901
乗時	-11.4901
薌	-11.4902
殘碑	-11.4903
觀民	-11.4903
報恩	-11.4904
春園	-11.4905
司主事	-11.4907
精誠	-11.4907
以奉	-11.4907
歐陽公	-11.4908
前度	-11.4909
俗學	-11.4911
和風	-11.4911
問誰	-11.4912
而使	-11.4914
相類	-11.4915
其位	-11.4916
保障	-11.4917
嚴飭	-11.4917
無時	-11.4918
章奏	-11.4918
貞元	-11.4918
自來	-11.4919
歲寒	-11.4922
堂下	-11.4922
水漲	-11.4924
離合	-11.4924
天語	-11.4926
飛揚	-11.4927
獅子	-11.4929
入夢	-11.4931
哉余	-11.4931
端陽	-11.4934
附㑹	-11.4934
先生諱	-11.4935
雪山	-11.4935
其六	-11.4936
不可以不	-11.4937
連山	-11.4937
關河	-11.4939
自愛	-11.494
無負	-11.4941
歴年	-11.4943
道傍	-11.4944
化爲	-11.4945
不幸而	-11.4946
汪氏	-11.4948
一句	-11.495
上聞	-11.4952
鄕人	-11.4952
忠厚	-11.4953
孤臣	-11.4953
有文	-11.4954
殘雪	-11.4956
恐其	-11.4956
始以	-11.4957
輻	-11.4958
帝子	-11.4958
可矣	-11.4959
墖	-11.4959
况乎	-11.4959
九五	-11.496
寬	-11.496
嗚呼哀哉	-11.4961
筌	-11.4962
禆益	-11.4962
侃	-11.4962
我生	-11.4962
瀦	-11.4963
么	-11.4963
乎是	-11.4963
書名	-11.4963
圅	-11.4963
小園	-11.4964
氣節	-11.4964
羣書	-11.4966
日食	-11.4966
盒	-11.4966
德州	-11.497
微茫	-11.4971
詩話	-11.4971
宗族	-11.4971
都無	-11.4972
大禹	-11.4972
銀燭	-11.4973
十一日	-11.4973
舊作韻	-11.4974
之效	-11.4975
事實	-11.4975
頁	-11.4975
和闐玉	-11.4976
離别	-11.4978
蘇氏	-11.4979
初日	-11.4979
與同	-11.4981
商賈	-11.4982
刻本	-11.4984
勞勞	-11.4986
目擊	-11.4987
留連	-11.4988
孤負	-11.4989
紅橋	-11.4989
秋霖	-11.4989
不可見	-11.4991
結實	-11.4992
繪事	-11.4992
釋之	-11.4992
三萬	-11.4992
問學	-11.4993
無為	-11.4994
志氣	-11.4995
誦之	-11.4995
古今體	-11.4996
較量	-11.4996
詞人	-11.4997
宿雨	-11.4997
從公	-11.4998
定論	-11.4998
空明	-11.4998
扶杖	-11.4998
一飯	-11.4999
性命之	-11.4999
仲冬	-11.5
徳之	-11.5001
其君	-11.5001
三十九	-11.5002
歌聲	-11.5005
六尺	-11.5006
從其	-11.5008
紳士	-11.5008
不讓	-11.5009
海水	-11.5009
召公	-11.5012
三楹	-11.5015
詩思	-11.5016
名言	-11.5019
兩先生	-11.5019
以視	-11.502
其首	-11.502
花滿	-11.5021
越王	-11.5021
流隂	-11.5022
慤	-11.5022
濟濟	-11.5022
國王	-11.5023
者已	-11.5023
此所謂	-11.5024
碾	-11.5024
柁	-11.5024
御製詩二集巻	-11.5024
河陽	-11.5024
室家	-11.5025
掬	-11.5025
欷歔	-11.5026
輭	-11.5026
阪	-11.5026
爍	-11.5027
字句	-11.5029
羇	-11.5029
片雲	-11.503
鉉	-11.503
序之	-11.5031
府知府	-11.5032
涕淚	-11.5033
大清	-11.5033
直𨽻總督	-11.5034
空林	-11.5035
諸篇	-11.5035
路便	-11.5035
其詳	-11.5036
曽孫	-11.5037
見贈	-11.5038
聽雨	-11.5038
亦如之	-11.5039
之學者	-11.5039
三十七	-11.5041
過半	-11.5042
鳥語	-11.5042
益増	-11.5042
一如	-11.5044
方略	-11.5046
是用	-11.5047
御苑	-11.5047
蘭若	-11.5048
池上居	-11.5048
片片	-11.5051
親戚	-11.5054
其半	-11.5055
有如此	-11.5057
家聲	-11.5058
水田	-11.5059
治河	-11.5059
佳氣	-11.5059
胡不	-11.5061
其聲	-11.5062
保泰	-11.5063
織女	-11.5063
千百年	-11.5064
流沙	-11.5064
老母	-11.5066
明明	-11.5066
冨	-11.5069
竹樹	-11.5069
風雷	-11.507
不輕	-11.5071
把酒	-11.5071
同調	-11.5072
一往	-11.5072
主於	-11.5072
非獨	-11.5073
一何	-11.5073
玠	-11.5073
從祀	-11.5075
陲	-11.5075
垂釣	-11.5076
良辰	-11.5076
風露	-11.5077
發於	-11.5078
從来	-11.5078
君者	-11.5078
輕薄	-11.5079
詩意	-11.5079
善政	-11.508
邳	-11.508
始于	-11.5081
莫可	-11.5081
羹	-11.5082
謝家	-11.5084
轆轤	-11.5085
老病	-11.5085
嘗曰	-11.5086
翺翔	-11.5087
瓚	-11.5088
嚴禁	-11.5089
實政	-11.5089
開霽	-11.5089
睛	-11.509
此理	-11.509
竟不	-11.5091
瑯琊	-11.5091
父母之	-11.5091
袴	-11.5092
窖	-11.5093
斚	-11.5093
風送	-11.5094
嘗與	-11.5095
曝書亭集卷第	-11.5095
焉夫	-11.5096
筋力	-11.5099
監生	-11.5099
晨昏	-11.51
宿遷	-11.51
山鬼	-11.51
春秋傳	-11.51
之助	-11.5102
地氣	-11.5103
倐忽	-11.5103
夜坐	-11.5105
嶺外	-11.5105
二十二年	-11.5106
玉臺	-11.5108
禁中	-11.5109
一段	-11.5109
為重	-11.5112
洛下	-11.5113
懐抱	-11.5114
後書	-11.5119
史稱	-11.5119
等州縣	-11.512
則云	-11.5121
隋唐	-11.5122
自我	-11.5124
自矜	-11.5124
識字	-11.5124
白蘋	-11.5129
都司	-11.513
東昌	-11.5131
本自	-11.5131
兩路	-11.5131
七十里	-11.5132
當筵	-11.5133
書目	-11.5133
定州	-11.5133
其祖	-11.5134
比肩	-11.5136
保全	-11.5136
致知	-11.5137
三冬	-11.5137
黃氏	-11.5141
元老	-11.5141
四十餘	-11.5141
滋擾	-11.5143
之田	-11.5144
明亮	-11.5145
十有九	-11.5147
堠	-11.5148
升降	-11.5149
不曾	-11.515
全集	-11.5151
偃蹇	-11.5151
鉏	-11.5152
出山	-11.5152
情事	-11.5153
座主	-11.5153
刁	-11.5154
㡳	-11.5154
愬	-11.5154
㦯	-11.5155
勢必	-11.5157
廕	-11.5157
楞伽	-11.5159
疋	-11.5159
附之	-11.516
名勝	-11.5162
拈毫	-11.5162
有懐	-11.5162
不疑	-11.5163
月光	-11.5164
無聞	-11.5166
發帑	-11.5169
晚晴	-11.517
四十五	-11.5171
旋即	-11.5172
革職	-11.5173
名節	-11.5173
爲善	-11.5173
二十三年	-11.5175
也按	-11.5176
厯厯	-11.5176
泰安	-11.5178
玉盤	-11.5179
集解	-11.5181
者所以	-11.5182
月影	-11.5184
行慶	-11.5184
何心	-11.5186
到日	-11.5186
五卷	-11.5189
缺雨	-11.519
長空	-11.519
三等	-11.5191
塹	-11.5192
無功	-11.5192
不滿	-11.5192
石磴	-11.5193
節義	-11.5194
之迹	-11.5194
不備	-11.5194
二篇	-11.5194
固守	-11.5195
不可解	-11.5196
膝下	-11.5196
涵養	-11.5197
無敢	-11.5197
始也	-11.5198
二王	-11.5199
風節	-11.52
而北	-11.5202
序余	-11.5203
益以	-11.5205
著錄	-11.5207
工程	-11.5208
閽	-11.5208
孑	-11.5211
凑	-11.5214
主客	-11.5214
朦朧	-11.5216
峩峩	-11.5216
喫	-11.5216
霪	-11.5216
銀米	-11.5217
怡然	-11.5219
署中	-11.5219
塔影	-11.5219
當有	-11.522
飮酒	-11.522
已盡	-11.522
者莫不	-11.5221
綉	-11.5221
所好	-11.5222
盛世	-11.5223
沈氏	-11.5223
世襲	-11.5223
兩世	-11.5225
南宮	-11.5226
長卿	-11.5227
余讀	-11.5228
深思	-11.5229
主簿	-11.523
翁洲	-11.523
能自	-11.5233
荆公	-11.5233
花信	-11.5236
聖訓	-11.5236
月朔	-11.524
三農	-11.524
尊人	-11.524
秋麥	-11.524
供養	-11.5241
所著有	-11.5241
風拂	-11.5242
當此	-11.5242
十笏	-11.5243
亡國	-11.5243
速行	-11.5244
水部	-11.5244
我皇	-11.5245
立廟	-11.5247
由於	-11.5248
猶憶	-11.5249
意者	-11.5256
關係	-11.5256
二十五年	-11.526
實非	-11.5261
金縷	-11.5262
有宋	-11.5265
疏請	-11.5265
春歸	-11.5265
去後	-11.5266
天花	-11.5267
獨憐	-11.5268
鶯啼	-11.5269
指顧	-11.527
酈	-11.5271
長水	-11.5272
監國	-11.5272
城上	-11.5276
博物	-11.5276
顥	-11.5276
湖口	-11.5277
菴先生	-11.5278
撩	-11.5278
袠	-11.5279
耨	-11.5279
踟蹰	-11.5279
秪	-11.5279
舉世	-11.5279
捐軀	-11.528
畸	-11.528
麯	-11.5281
葡萄	-11.5281
元宵	-11.5282
扞	-11.5282
之側	-11.5282
江樓	-11.5283
三傳	-11.5284
垓	-11.5284
象山	-11.5284
鞫	-11.5285
吾廬	-11.5286
渺渺	-11.5286
攔	-11.5288
孰謂	-11.5289
孝陵	-11.529
本非	-11.5292
唐時	-11.5293
所思	-11.5294
如玉	-11.5295
該處	-11.5296
避人	-11.5297
白楊	-11.5297
諭刑部	-11.5298
政治	-11.5299
恐後	-11.53
水閣	-11.53
三兩	-11.5302
賢人	-11.5302
終其身	-11.5303
飛花	-11.5304
殉節	-11.5305
因題	-11.5306
西峪	-11.5306
秋深	-11.5307
頭目	-11.5308
在今	-11.5308
快意	-11.531
對瀑	-11.5311
白鷺	-11.5313
白下	-11.5315
動靜	-11.5316
余所	-11.5316
雨聲	-11.5317
福寧	-11.5319
銀漢	-11.532
亦未嘗	-11.5322
一併	-11.5322
者如此	-11.5322
既成	-11.5322
以從	-11.5324
文義	-11.5325
義門	-11.5327
廣寒	-11.5327
曰若	-11.533
心知	-11.533
敎諭	-11.533
母子	-11.533
之病	-11.5331
林間	-11.5332
府志	-11.5333
同雲	-11.5334
天光	-11.5335
上苑	-11.5335
非謂	-11.5336
埜	-11.5337
人或	-11.5338
爲國	-11.5338
周氏	-11.5339
盛時	-11.534
型	-11.5341
貍	-11.5342
平泉	-11.5342
欲使	-11.5342
積雨	-11.5343
倂	-11.5343
而不知其	-11.5344
餙	-11.5345
宗周	-11.5345
滃	-11.5345
松花	-11.5346
糝	-11.5346
猾	-11.5347
邾	-11.5347
䭾	-11.5347
千六百	-11.5347
在西	-11.5348
長夜	-11.5348
沚	-11.5348
不假	-11.5349
澇	-11.5349
蔡邕	-11.5349
襃	-11.5352
築城	-11.5352
麋鹿	-11.5353
特以	-11.5353
曲宴	-11.5354
陵谷	-11.5358
且夫	-11.5359
立傳	-11.536
天眷	-11.536
悲夫	-11.5361
四十三	-11.5361
孤亭	-11.5362
君今	-11.5363
重来	-11.5364
空濛	-11.5365
爲余	-11.5365
天宇	-11.5365
異姓	-11.5365
趙孟頫	-11.5366
藝林	-11.5368
墓在	-11.5368
性理	-11.5369
天街	-11.537
言行	-11.537
入告	-11.5373
五百年	-11.5374
馬融	-11.5374
文詞	-11.5375
未就	-11.5376
楊子	-11.5376
皆是	-11.5379
吾亦	-11.5379
伏乞	-11.5379
閨中	-11.5379
闐	-11.538
維時	-11.5381
陸子	-11.5381
話舊	-11.5382
田功	-11.5383
良可	-11.5384
入朝	-11.5388
飛龍	-11.5389
于朝	-11.539
泉流	-11.5391
今夫	-11.5392
幙	-11.5392
旋蹕	-11.5393
頗多	-11.5395
無二	-11.5397
百歲	-11.5399
以居	-11.5399
此豈	-11.5401
未獲	-11.5401
弇	-11.5403
日照	-11.5408
螯	-11.5408
糟	-11.5408
菰蒲	-11.5409
麴	-11.541
颭	-11.541
秣	-11.5411
佟	-11.5411
康熙三十五年	-11.5412
魚鳥	-11.5413
胃	-11.5413
月二十八日	-11.5415
媵	-11.5415
然予	-11.5415
慝	-11.5415
宸翰	-11.5416
軍機	-11.5416
孫公	-11.5417
仿彿	-11.5418
遼東	-11.5418
玉帶	-11.5418
及今	-11.5422
青海	-11.5422
屬國	-11.5425
率兵	-11.5425
監軍	-11.5428
黄公	-11.5428
客子	-11.5429
卽事	-11.5429
若以	-11.5429
關外	-11.543
蔓草	-11.5431
升堂	-11.5432
清音	-11.5433
横塘	-11.5433
曲徑	-11.5435
黄庭	-11.5436
二十八年	-11.5438
惟公	-11.5439
別爲	-11.5439
公卒	-11.5439
無常	-11.5439
言性	-11.544
澤國	-11.5444
不得已而	-11.5445
浣花	-11.5445
承天	-11.5445
故居	-11.5447
百折	-11.5452
國恩	-11.5455
投誠	-11.5459
千家	-11.5461
嫗	-11.5462
溪亭	-11.5463
三吳	-11.5463
鳥雀	-11.5464
勸君	-11.5466
側室	-11.5468
己未	-11.5468
山深	-11.5469
半日	-11.5469
四十二	-11.5469
人歸	-11.5472
隴其	-11.5473
江州	-11.5473
座中	-11.5473
那可	-11.5475
扵是	-11.5475
邠	-11.5476
逰山	-11.5476
玻璃	-11.5476
煒	-11.5478
籃輿	-11.5478
智者	-11.5478
與王	-11.5479
吭	-11.5481
日中	-11.5481
潦倒	-11.5482
沿革	-11.5482
碧山	-11.5484
紅杏	-11.5484
伊犂	-11.5486
詠漢玉	-11.5486
記云	-11.5487
蒼翠	-11.549
撫綏	-11.5492
公自	-11.5493
三曰	-11.5493
汗漫	-11.5493
報稱	-11.5494
敬天	-11.5494
學行	-11.5494
亡命	-11.5494
於兹	-11.5495
就其	-11.5496
如常	-11.5496
玉人	-11.5497
淸風	-11.5498
結搆	-11.5503
安撫	-11.5504
舊例	-11.5504
田間	-11.5507
不治	-11.5511
平蕪	-11.5511
蝦	-11.5512
喪服	-11.5512
留題	-11.5513
大端	-11.5514
初一日	-11.5517
恵齡	-11.5519
笑他	-11.5519
淮徐	-11.552
海鹽	-11.552
千尋	-11.5521
年三十	-11.5522
初生	-11.5522
泥塗	-11.5523
無乃	-11.5523
養之	-11.5524
百篇	-11.5525
二律	-11.5526
數百人	-11.5526
古稱	-11.5526
再世	-11.5527
竊謂	-11.5527
吉甫	-11.5527
仲秋	-11.5528
上言	-11.553
所未有	-11.5531
𨳩	-11.5534
何從	-11.5535
朱公	-11.5535
說經	-11.5536
曩者	-11.5536
問字	-11.5537
不足信	-11.5538
秋草	-11.5538
你	-11.5539
竢	-11.554
載籍	-11.554
惟一	-11.5541
燾	-11.5542
又稱	-11.5544
一帯	-11.5544
鍳	-11.5545
佳節	-11.5545
遣官	-11.5545
闚	-11.5545
者四	-11.5545
儗	-11.5546
毖	-11.5547
倜儻	-11.5547
吹笙	-11.5548
狷	-11.5549
異端	-11.5549
俄頃	-11.555
亦難	-11.5552
安慶	-11.5555
襍詠	-11.5556
孰能	-11.5558
山上	-11.5558
眼底	-11.5558
一天	-11.556
風聲	-11.5561
燕趙	-11.5564
馬頭	-11.5565
爲之序	-11.5566
置身	-11.5566
西陂	-11.5566
墓志	-11.5568
必能	-11.5568
有知	-11.5569
可勝	-11.5569
霽景	-11.5569
先人之	-11.5569
本義	-11.5572
見此	-11.5572
般若	-11.5574
舊作	-11.5576
范公	-11.5577
天王	-11.5577
廣州	-11.5581
陽羡	-11.5583
飄然	-11.5584
終老	-11.5585
可不謂	-11.5586
自為	-11.5587
亭午	-11.5587
仰天	-11.5587
蘇松	-11.5588
山北	-11.559
代有	-11.559
非敢	-11.5591
凡所	-11.5592
寒林	-11.5593
之謀	-11.5594
清曉	-11.5595
攤書	-11.5595
能盡	-11.5595
等事	-11.5596
其神	-11.56
雲水	-11.56
雲樓	-11.5601
生前	-11.5601
書云	-11.5602
蚊	-11.5602
壌	-11.5603
成災	-11.5603
天下士	-11.5603
刳	-11.5604
薈	-11.5604
兕	-11.5605
其民	-11.5605
府州縣	-11.5605
逖	-11.5605
事畢	-11.5606
頡	-11.5606
桂花	-11.5607
急難	-11.5607
芙蕖	-11.561
法師	-11.561
落筆	-11.5611
作書	-11.5611
棱	-11.5611
𣏌	-11.5611
壕	-11.5612
不仁	-11.5612
謖謖	-11.5613
至理	-11.5613
餅餌	-11.5613
二十卷	-11.5614
而謂	-11.5615
齟齬	-11.5615
虢	-11.5616
而返	-11.5616
香草	-11.5617
彌望	-11.5617
避世	-11.5618
所喜	-11.5619
修築	-11.5619
此山	-11.5619
滄波	-11.5619
致逺	-11.5619
先大夫	-11.5621
最多	-11.5622
餘事	-11.5622
再過	-11.5625
本府	-11.5628
八人	-11.5628
一夫	-11.5629
循良	-11.5629
授經	-11.563
春愁	-11.563
宿草	-11.5633
紅顔	-11.5637
禰	-11.5637
餘年	-11.5637
矣哉	-11.5638
小憇	-11.5638
者獨	-11.5638
以至於	-11.5642
林壑	-11.5644
此乃	-11.5644
黯然	-11.5645
凉風	-11.5645
誥封	-11.5646
問訊	-11.5647
山髙	-11.5649
未覺	-11.5649
向陽	-11.5652
得力	-11.5654
髙齋	-11.5655
玉露	-11.5656
其長	-11.5657
傳者	-11.5657
前月	-11.5657
花氣	-11.5657
長至	-11.5657
不得與	-11.5658
可笑	-11.5659
迷離	-11.566
山巔	-11.5661
之竒	-11.5663
其失	-11.5664
之權	-11.5664
芭	-11.5665
大賢	-11.5666
立功	-11.5666
乾元	-11.5666
而退	-11.5666
隨意	-11.5671
蚌	-11.5672
謝恩	-11.5672
七首	-11.5674
有益	-11.5674
杼	-11.5675
箠	-11.5676
國風	-11.5676
一出	-11.5677
可行	-11.5678
澂	-11.5679
勗	-11.568
亦是	-11.5681
蘇子瞻	-11.5683
樁	-11.5683
韙	-11.5683
上頭	-11.5683
此夜	-11.5683
沈約	-11.5685
竆	-11.5685
仰見	-11.5686
元帝	-11.5686
騷人	-11.5687
孔雀	-11.5688
歲暮	-11.569
羣山	-11.5691
而忘	-11.5691
墨蹟	-11.5691
延陵	-11.5691
老幼	-11.5694
皆然	-11.5694
之卒	-11.5696
其流	-11.5697
晉人	-11.5697
衛輝	-11.5699
其友	-11.5701
低頭	-11.5703
夢魂	-11.5705
浮沉	-11.5705
廳	-11.5706
翕然	-11.5706
諭戸部	-11.5707
松陵	-11.5708
令子	-11.5709
不驚	-11.5711
卽今	-11.5712
詎可	-11.5713
勝事	-11.5714
相連	-11.5716
四尺	-11.5717
家言	-11.5717
事物	-11.5718
徐子	-11.5718
髙峯	-11.5718
連宵	-11.5719
也或曰	-11.572
絶壁	-11.5721
請余	-11.5722
光輝	-11.5722
佛寺	-11.5724
窮經	-11.5724
武成	-11.5725
非人	-11.5725
飢寒	-11.5725
絶倫	-11.5726
自相	-11.5726
無庸	-11.5726
明帝	-11.5727
但知	-11.573
典籍	-11.573
吟咏	-11.5731
梁溪	-11.5732
屏山	-11.5733
名姓	-11.5735
只合	-11.5736
不報	-11.5737
唫	-11.5737
獮	-11.5737
罌	-11.5739
所望	-11.5739
其私	-11.574
㕑	-11.5741
搘	-11.5742
當今	-11.5743
管仲	-11.5744
别駕	-11.5745
北來	-11.5745
待澤	-11.5746
盛名	-11.5747
之隆	-11.5747
紫光閣	-11.5747
幸有	-11.5748
玻瓈	-11.5748
大矣	-11.5748
箬	-11.5748
春曉	-11.5748
夐	-11.5749
石渠寳笈	-11.5749
無語	-11.5749
與此	-11.5749
赫赫	-11.5751
世宗憲皇帝	-11.5751
盡矣	-11.5751
遷延	-11.5753
六卷	-11.5754
也及	-11.5755
神祠	-11.5756
會同	-11.5756
不愛	-11.5756
易水	-11.5757
謂是	-11.5757
京國	-11.576
善者	-11.5762
困於	-11.5764
主者	-11.5764
題錢維城	-11.5766
絶塵	-11.5767
海潮	-11.5768
實無	-11.5768
所可	-11.5771
向日	-11.5771
樹色	-11.5771
二十六年	-11.5772
甚於	-11.5772
韻二首	-11.5774
節物	-11.5776
綫	-11.5778
述之	-11.5779
暮年	-11.5779
南城	-11.578
苗匪	-11.578
三面	-11.5781
爾其	-11.5782
奉詔	-11.5783
又將	-11.5789
生母	-11.5789
日午	-11.5789
偶題	-11.5791
昭陵	-11.5791
公獨	-11.5791
管子	-11.5791
請命	-11.5792
迎人	-11.5792
松濤	-11.5793
讀其	-11.5794
而愈	-11.5794
縣志	-11.5795
碧雲寺	-11.5796
書籍	-11.5796
橋下	-11.5796
絕句	-11.5797
不可知	-11.5801
風急	-11.5802
直指	-11.5802
無形	-11.5803
宛平	-11.5803
諸水	-11.5804
自西	-11.5806
矣若	-11.5807
緱	-11.5808
若為	-11.5809
持論	-11.581
于後	-11.581
嶷	-11.5811
擯	-11.5811
廚	-11.5811
直省	-11.5812
縻	-11.5812
大母	-11.5813
團團	-11.5813
世爲	-11.5813
趕	-11.5813
疫	-11.5814
葢其	-11.5815
殪	-11.5815
焉是	-11.5815
乆矣	-11.5815
帨	-11.5815
天府	-11.5815
然此	-11.5816
雷霆	-11.5818
惄	-11.5818
所以爲	-11.5819
海蘭察	-11.5819
之儀	-11.5823
五老	-11.5825
矣雖然	-11.5826
士氣	-11.5826
正史	-11.5826
詎止	-11.5828
土木	-11.5828
盛德	-11.583
守禦	-11.5831
文筆	-11.5833
桑乾	-11.5834
齋戒	-11.5835
究其	-11.5835
周書	-11.5836
秋冬	-11.5836
聖王	-11.5837
酹酒	-11.5838
無生	-11.5839
好事者	-11.5839
最憐	-11.5841
俱在	-11.5842
苦吟	-11.5843
燈花	-11.5843
義山	-11.5844
寒梅	-11.5846
辦事	-11.5846
手澤	-11.5846
司寇	-11.5846
為念	-11.5848
奪其	-11.585
去官	-11.585
因得	-11.5851
向隅	-11.5852
七寸	-11.5854
二章	-11.5856
神之	-11.5857
晴光	-11.5858
之甚	-11.5861
權輿	-11.5862
逢人	-11.5863
箕子	-11.5863
憲臺	-11.5864
為大	-11.5865
胥吏	-11.5867
不云乎	-11.5872
人員	-11.5874
葉落	-11.5875
櫟	-11.5876
之祖	-11.5877
崚嶒	-11.5879
井田	-11.5879
蕩蕩	-11.5879
逡廵	-11.5879
砭	-11.5879
巍巍	-11.588
坐對	-11.588
今年春	-11.5881
悴	-11.5881
滔滔	-11.5881
澍	-11.5881
䧺	-11.5881
邪教	-11.5882
禫	-11.5882
韓退之	-11.5883
淛	-11.5883
􁎘	-11.5884
泖	-11.5884
彬彬	-11.5884
阡陌	-11.5885
虚名	-11.5885
成名	-11.5885
而彌	-11.5885
沈周	-11.5886
香氣	-11.5889
之妻	-11.5892
在北	-11.5893
蒿目	-11.5894
之苦	-11.5895
其大者	-11.5896
斯則	-11.5896
無計	-11.5896
豁免	-11.5896
人稱	-11.5896
最爲	-11.5898
民物	-11.5898
理也	-11.5899
故城	-11.5901
矣是	-11.5901
虞氏	-11.5902
慈母	-11.5902
以佐	-11.5903
剛柔	-11.5903
厪念	-11.5904
不踰	-11.5904
曽聞	-11.5904
治道	-11.5905
太宰	-11.5905
人謂	-11.5907
定其	-11.5909
輕寒	-11.5909
平章	-11.591
學古	-11.591
安期	-11.5911
條理	-11.5911
日星	-11.5912
晦日	-11.5913
發憤	-11.5913
親詣	-11.5915
緑隂	-11.5915
放舟	-11.5915
㡬人	-11.5916
一時之	-11.5917
讀易	-11.5919
講席	-11.5921
東巡	-11.5921
二家	-11.5922
未肯	-11.5922
綴景	-11.5922
時行	-11.5923
所遺	-11.5926
隧	-11.5927
水石	-11.593
海中	-11.593
刻之	-11.5932
稼軒	-11.5932
紅樹	-11.5935
被旱	-11.5936
浮名	-11.5937
兹復	-11.5937
九秋	-11.5939
訪求	-11.5939
衡門	-11.5939
前因	-11.5941
示我	-11.5942
四季	-11.5942
故名	-11.5942
多時	-11.5944
媛	-11.5944
瀧	-11.5944
襦	-11.5944
姝	-11.5945
重建	-11.5945
殽	-11.5946
之戰	-11.5947
似有	-11.5948
土爾扈特	-11.5949
放晴	-11.5949
多故	-11.5949
鬲	-11.595
砥礪	-11.595
肱	-11.595
再行	-11.5951
參議	-11.5951
忭	-11.5951
雞豚	-11.5952
壁上	-11.5953
淥	-11.5953
晡	-11.5953
明知	-11.5953
石塘	-11.5955
桴	-11.5955
菑	-11.5955
洙泗	-11.5957
滋事	-11.5957
龍潭	-11.5957
櫝	-11.5958
百王	-11.5959
彤管	-11.5959
客至	-11.5959
廣川	-11.5959
固然	-11.596
雲煙	-11.596
涿州	-11.5961
樊川	-11.5961
曉發	-11.5961
夾岸	-11.5962
悉心	-11.5962
穿鑿	-11.5962
睢州	-11.5964
也雖	-11.5965
合肥	-11.5965
載筆	-11.5965
地理志	-11.5966
此巻	-11.5966
浮生	-11.5967
不妄	-11.5967
羲皇	-11.5968
篤行	-11.5968
年十月	-11.597
露布	-11.5972
一家之	-11.5972
絶域	-11.5973
此為	-11.5974
魚鱗	-11.5975
匹馬	-11.5978
遺風	-11.5978
也嗟乎	-11.5978
迤南	-11.598
白鹿	-11.5981
之祭	-11.5982
陳生	-11.5982
天馬	-11.5984
枝上	-11.5985
舊題	-11.5985
古之人	-11.5985
外傳	-11.5985
詁	-11.5988
撰述	-11.5989
為天下	-11.5994
絲絲	-11.5994
巻之	-11.5995
未忘	-11.5996
問津	-11.6005
酒旗	-11.6005
為誰	-11.6005
固宜	-11.6007
論交	-11.6007
詎惟	-11.6008
奉常	-11.6008
六分	-11.6008
於文	-11.6009
異時	-11.601
坐客	-11.6012
非我	-11.6014
隖	-11.6014
一觴	-11.6014
益加	-11.6015
之勤	-11.6016
也使	-11.6016
婿	-11.6016
櫬	-11.6016
未消	-11.6017
月日	-11.6017
高閣	-11.6017
殮	-11.6019
贄	-11.6019
溪堂	-11.602
哉夫	-11.602
膏雨	-11.602
劚	-11.602
豸	-11.602
諜	-11.602
岧嶤	-11.6021
去冬	-11.6021
復見	-11.6022
霓	-11.6022
賾	-11.6022
便可	-11.6022
先兄	-11.6024
倬	-11.6024
蒯	-11.6025
北闕	-11.6026
寺門	-11.6026
桑梓	-11.6028
公家	-11.6028
曼殊	-11.6029
道中作	-11.6029
鏡光	-11.603
文淵閣	-11.6032
所部	-11.6035
魂魄	-11.6035
車輪	-11.6036
從頭	-11.6038
廿載	-11.604
指點	-11.6041
校勘	-11.6042
則謂	-11.6042
詔獄	-11.6043
已極	-11.6044
寒泉	-11.6044
具有	-11.6044
閣學	-11.6046
施於	-11.6047
可愛	-11.6049
不講	-11.605
盤谷	-11.605
十有六	-11.6051
毛氏	-11.6053
星衍	-11.6054
之辨	-11.6054
文忠	-11.6055
吾祖	-11.6055
白鳥	-11.6056
載在	-11.6059
裨益	-11.6059
補之	-11.6059
苟非	-11.606
僅得	-11.606
朝朝	-11.6061
記憶	-11.6063
自唐	-11.6063
誌銘	-11.6064
文苑	-11.6064
比似	-11.6065
射虎	-11.6066
南行	-11.6067
流通	-11.6067
者實	-11.6068
酒杯	-11.6069
應徵	-11.6072
老臣	-11.6073
湖心	-11.6073
而乃	-11.6074
照耀	-11.6075
皆曰	-11.6077
不可無	-11.608
者也其	-11.608
序註	-11.608
荔支	-11.6083
春隂	-11.6083
一萬	-11.6083
西清	-11.6083
王國	-11.6085
高明	-11.6085
醅	-11.6085
悵然	-11.6085
擺	-11.6086
疚	-11.6087
夫何	-11.6087
丹徒	-11.6087
淘	-11.6087
維崧	-11.6088
龍舟	-11.6089
扳	-11.6089
蓺	-11.609
神女	-11.609
襆被	-11.609
問其	-11.6091
經畧	-11.6091
入京	-11.6091
米芾	-11.6092
平居	-11.6095
之內	-11.6095
即當	-11.6096
滇黔	-11.6096
字字	-11.6097
雪澤	-11.6098
亂山	-11.6099
在案	-11.6099
並令	-11.6099
盡善	-11.61
未遑	-11.61
於禮	-11.6101
恭和御製	-11.6102
十行	-11.6103
号	-11.6103
華林	-11.6103
以北	-11.6105
追陪	-11.6105
浙省	-11.6105
萬歴	-11.6106
聖徳	-11.6106
三十八	-11.6106
天啟	-11.6107
一貫	-11.6107
城門	-11.6108
来往	-11.6109
和氣	-11.6109
黄梅	-11.6109
微雪	-11.611
棃	-11.6111
水木	-11.6111
哀哉	-11.6111
巖壑	-11.6111
節度	-11.6113
風清	-11.6113
雪霽	-11.6113
縣西	-11.6113
朅來	-11.6114
耕耤	-11.6114
望雲	-11.6115
昆明湖	-11.6115
堪憐	-11.6116
寺中	-11.6116
鳳陽	-11.6117
惟以	-11.6117
要其	-11.6118
孰非	-11.6118
關門	-11.6118
墓門	-11.6121
劉郎	-11.6123
應行	-11.6124
嘉樹	-11.6125
中庭	-11.6125
肅宗	-11.6126
松山	-11.6128
乃自	-11.6128
者甚多	-11.613
新水	-11.6133
隰	-11.6133
星斗	-11.6133
雙雙	-11.6134
福州	-11.6135
安仁	-11.6135
誌事	-11.6135
不及見	-11.6136
未審	-11.6136
温泉	-11.6138
公於	-11.6139
適當	-11.614
勝於	-11.614
授之	-11.6142
化為	-11.6143
春帖子	-11.6144
先生者	-11.6146
躬耕	-11.6146
蓋其	-11.6147
年已	-11.6147
珊	-11.6147
白社	-11.6148
石齋	-11.6149
二老	-11.6149
淸流	-11.6151
動静	-11.6152
馳諭	-11.6153
簧	-11.6153
桁	-11.6154
楓林	-11.6154
司業	-11.6154
蛺蝶	-11.6154
皇父	-11.6155
時見	-11.6156
廣厦	-11.6156
河朔	-11.6156
與李	-11.6157
繖	-11.6158
鷙	-11.6158
莱	-11.6158
之號	-11.6159
詩以紀事	-11.616
术	-11.616
攖	-11.616
撿	-11.6162
菰蘆	-11.6162
芭蕉	-11.6163
逆奄	-11.6163
右丞	-11.6163
孳	-11.6163
振衣	-11.6163
永言	-11.6165
盆梅	-11.6165
吳公	-11.6166
司理	-11.6166
馬首	-11.6166
明皇	-11.6167
卽是	-11.6167
黍禾	-11.6168
纒綿	-11.6168
銷魂	-11.6168
北江	-11.6171
無那	-11.6171
卿士	-11.6173
感而	-11.6173
招魂	-11.6174
遲暮	-11.6175
碧空	-11.6176
明兵	-11.6176
奕葉	-11.6177
傾倒	-11.6177
兩公	-11.6178
行宮	-11.6178
亦欲	-11.6179
陽和	-11.618
詩名	-11.6181
上海	-11.6181
祠下	-11.6183
金玉	-11.6184
出城	-11.6184
凡四	-11.6186
屬吏	-11.6189
人爭	-11.6191
諸老	-11.6191
林中	-11.6192
穀梁	-11.6193
何忍	-11.6196
雖多	-11.6197
蘭臺	-11.6198
中江	-11.6198
篇什	-11.6199
精義	-11.62
大行	-11.62
之境	-11.6202
公祠	-11.6202
座上	-11.6203
問曰	-11.6203
思君	-11.6204
其尤	-11.6205
班師	-11.6206
其德	-11.6207
以往	-11.6207
頒賜	-11.6208
十五里	-11.6208
不比	-11.6209
春波	-11.621
須知	-11.6211
北路	-11.6211
文忠公	-11.6211
君與	-11.6212
廿五	-11.6215
四章	-11.6216
文安	-11.6217
東來	-11.6218
民心	-11.6221
一處	-11.6221
分爲	-11.6222
一宿	-11.6224
民事	-11.6224
不可及	-11.6226
蜀道	-11.6226
蒼山	-11.6226
捎	-11.6227
廐	-11.6227
悲風	-11.6228
薫風	-11.6228
莢	-11.6228
枰	-11.6229
忠定	-11.623
我公	-11.623
及門	-11.623
以立	-11.6231
簽	-11.6231
窒	-11.6231
挍	-11.6232
﨑嶇	-11.6232
砦	-11.6232
范蠡	-11.6233
有所思	-11.6233
遂為	-11.6234
鳧	-11.6234
正人	-11.6234
日月之	-11.6235
董仲舒	-11.6236
燿	-11.6236
乾清宫	-11.6238
月滿	-11.6239
其外	-11.6239
抗拒	-11.6241
在乎	-11.6241
埴	-11.6242
於京師	-11.6242
其族	-11.6242
月初三日	-11.6243
忘憂	-11.6244
可使	-11.6245
白華	-11.6245
具區	-11.6246
又非	-11.6247
慙愧	-11.6248
死則	-11.6253
志云	-11.6253
昭然	-11.6253
摛詞	-11.6253
出土	-11.6255
三月初	-11.6255
紈扇	-11.6256
四聲	-11.6256
來此	-11.6257
家藏	-11.626
郡國	-11.6262
却喜	-11.6264
其墓	-11.6264
善本	-11.6265
羣小	-11.6265
雪浪	-11.6269
九人	-11.627
劄子	-11.627
吏民	-11.6273
就中	-11.6275
蓬瀛	-11.6275
晨起	-11.6276
廣韻	-11.6279
柰何	-11.6279
二府	-11.628
慶典	-11.628
與民	-11.6281
建炎	-11.6282
聲中	-11.6282
加贈	-11.6282
沙門	-11.6283
起舞	-11.6284
屢次	-11.6285
未解	-11.6285
山之麓	-11.6286
崇祀	-11.6286
留京王大臣	-11.6286
安排	-11.6288
身家	-11.6288
圜丘	-11.6289
宵衣	-11.6291
大敗	-11.6296
封章	-11.6296
相將	-11.6296
清齋	-11.6297
無路	-11.6297
麈	-11.6297
正與	-11.6297
舊雨	-11.6298
雝	-11.6299
沈沈	-11.63
葑	-11.63
兵革	-11.63
永樂大典	-11.63
一人之	-11.63
鏞	-11.6302
跽	-11.6302
北固	-11.6302
在下	-11.6303
菀	-11.6303
隴西	-11.6304
寫生	-11.6305
雜文	-11.6305
套	-11.6306
淙淙	-11.6306
歧	-11.6307
以道	-11.6307
西州	-11.6307
指授	-11.6308
八卷	-11.6308
峭蒨	-11.6308
堵築	-11.6312
授簡	-11.6313
夏侯	-11.6313
藝苑	-11.6314
在朝	-11.6314
繪圖	-11.6314
下至	-11.6314
禽獸	-11.6316
題詞	-11.6316
漢文	-11.6317
今上	-11.6317
游戲	-11.6317
定鼎	-11.6317
雜著	-11.6319
成均	-11.6319
在手	-11.632
宛在	-11.632
春官	-11.632
紅袖	-11.6327
奏疏	-11.6328
餘閒	-11.633
折節	-11.6331
掃除	-11.6332
文子	-11.6333
藏弆	-11.6335
可嘉	-11.6335
防守	-11.6337
齋宫	-11.6338
天工	-11.634
池水	-11.6342
鄭公	-11.6342
友愛	-11.6344
傳語	-11.6347
君爲	-11.6348
諸侯之	-11.635
誰爲	-11.6351
必待	-11.6353
欲得	-11.6354
發揮	-11.6358
女兒	-11.6358
來京	-11.6359
道塲	-11.636
濁酒	-11.636
作雨	-11.6361
也遂	-11.6362
或因	-11.6363
了無	-11.6364
軍興	-11.6364
何礙	-11.6364
忠誠	-11.6364
賢而	-11.6365
因縁	-11.6365
客心	-11.6367
之累	-11.6367
競渡	-11.6367
萬邦	-11.6367
大書	-11.6367
直廬	-11.6367
斗酒	-11.6367
塜	-11.6368
枳	-11.637
昭明	-11.637
兠	-11.637
癭	-11.6371
南村	-11.6372
前期	-11.6372
繒	-11.6372
無慮	-11.6372
昨朝	-11.6373
平樂	-11.6373
靨	-11.6373
蕤	-11.6374
腆	-11.6374
玦	-11.6374
棼	-11.6375
山陵	-11.6375
兜	-11.6375
垂虹	-11.6376
孃	-11.6376
有約	-11.6378
曰予	-11.6378
有差	-11.6379
之鄉	-11.6379
姊妹	-11.638
宣尼	-11.6382
天顔	-11.6383
窮愁	-11.6386
蔡氏	-11.6386
理之	-11.6386
河圖	-11.6386
毅然	-11.6387
青松	-11.6389
還應	-11.639
大字	-11.639
內閣	-11.6391
固知	-11.6392
逆首	-11.6393
特賜	-11.6394
宫闕	-11.6399
韓公	-11.6399
陳言	-11.64
葉葉	-11.64
家庭	-11.6401
兵備	-11.6401
一老	-11.6401
寒夜	-11.6404
數聲	-11.6404
停雲	-11.6406
朝野	-11.6407
繫辭	-11.6407
公等	-11.6407
江頭	-11.6408
鴻雁	-11.6408
禀報	-11.6409
大將	-11.6409
以表	-11.6409
於公	-11.6409
旁及	-11.641
韶華	-11.6411
百畝	-11.6412
即如	-11.6414
之族	-11.6415
異哉	-11.6416
相持	-11.6418
縣治	-11.6422
先正	-11.6422
少宰	-11.6424
實則	-11.6424
無名	-11.6425
稚子	-11.6426
喟	-11.6426
日得雪	-11.6427
新漲	-11.6428
耳而	-11.6428
終南	-11.6428
俾得	-11.6428
力學	-11.6429
寰宇	-11.643
設立	-11.643
落月	-11.6432
上已	-11.6432
於其間	-11.6433
土地	-11.6435
異人	-11.6436
母序	-11.6438
倚樓	-11.6439
諸國	-11.6439
璅	-11.644
皐	-11.644
一軍	-11.6441
厤	-11.6442
連城	-11.6442
罇	-11.6444
分眀	-11.6444
伏波	-11.6445
涕泗	-11.6445
善也	-11.6445
清暇	-11.6446
詩酒	-11.6446
漚	-11.6446
復出	-11.6446
殿試	-11.6446
前調	-11.6446
起兵	-11.6447
謄	-11.6447
无咎	-11.6447
鴿	-11.6447
蠟屐	-11.6447
褰	-11.6448
暌	-11.6448
光祿大夫	-11.6449
撻	-11.645
其徳	-11.6451
委曲	-11.6451
貓	-11.6452
長官	-11.6452
期於	-11.6453
福康安和琳	-11.6454
棍	-11.6454
先生所	-11.6455
如一日	-11.6456
俄而	-11.6456
尺幅	-11.6458
語錄	-11.6458
望風	-11.6459
迴鑾	-11.6459
翼日	-11.6459
用人	-11.646
年月	-11.6461
之微	-11.6462
建文	-11.6462
去聲	-11.6464
貽上	-11.6465
可據	-11.6465
樹影	-11.6465
邇年	-11.6466
考古	-11.6466
分別	-11.6468
所進	-11.6469
二百里	-11.647
題請	-11.647
無害	-11.6471
泉源	-11.6471
教諭	-11.6472
詩巻	-11.6475
之所能	-11.6475
成詩	-11.6476
橋邊	-11.6476
三唐	-11.6477
未艾	-11.6477
以獻	-11.648
之戒	-11.6483
惡之	-11.6484
於義	-11.6484
所欣	-11.6485
遂初	-11.6486
之險	-11.6487
騁望	-11.6488
粤東	-11.6488
一過	-11.6488
康樂	-11.6491
須彌	-11.6492
守節	-11.6492
不來	-11.6493
何況	-11.6494
其精	-11.6495
月華	-11.6496
如海	-11.6497
南史	-11.6498
就近	-11.6501
耳今	-11.6502
斐	-11.6502
敢以	-11.6503
數十里	-11.6504
己巳	-11.6504
草廬	-11.6504
女也	-11.6505
余於	-11.6505
良民	-11.6505
清吟	-11.6506
秘書	-11.6506
然矣	-11.6511
湖西	-11.6512
醢	-11.6514
籃	-11.6516
各以	-11.6517
薜蘿	-11.6518
初冬	-11.6518
汲古	-11.6519
沴	-11.6519
老大	-11.652
擬議	-11.652
荆榛	-11.652
隼	-11.652
鹿門	-11.6521
篝燈	-11.6521
婚嫁	-11.6521
髥	-11.6522
倪瓉	-11.6523
始皇	-11.6524
稊	-11.6524
翬	-11.6524
況復	-11.6525
𠂻	-11.6525
異也	-11.6525
紫薇	-11.6526
疇咨	-11.6527
劉歆	-11.6532
雙闕	-11.6533
東至	-11.6534
公私	-11.6534
海天	-11.6536
知巳	-11.6537
至聖	-11.6537
分為	-11.6538
㨗音	-11.6539
十二卷	-11.6542
黄鵠	-11.6543
武子	-11.6543
縣官	-11.6543
西師	-11.6544
花底	-11.6545
錫山	-11.6545
角巾	-11.6547
公論	-11.6547
之所在	-11.6548
一點	-11.6548
逢迎	-11.655
考亭	-11.655
峭壁	-11.6554
不染	-11.6555
九天	-11.6557
名氏	-11.6557
雨晴	-11.6559
朅	-11.6561
一日之	-11.6562
金波	-11.6562
畫屏	-11.6562
肎	-11.6563
青陽	-11.6563
然如	-11.6566
書樓	-11.657
非闗	-11.657
薄海	-11.6571
飛鴻	-11.6571
王生	-11.6572
者不可	-11.6572
此即	-11.6572
所親	-11.6573
試之	-11.6574
倒影	-11.6577
無稽	-11.6577
節制	-11.6578
人去	-11.6579
以祀	-11.6581
綠楊	-11.6581
堇	-11.6582
偉人	-11.6584
楸	-11.6585
罕有	-11.6588
地畝	-11.6588
玳瑁	-11.6588
咄咄	-11.659
羿	-11.659
慄	-11.659
葢以	-11.659
而用之	-11.6591
沱	-11.6591
趙州	-11.6592
涪	-11.6592
蠭	-11.6593
太子太保	-11.6594
誑	-11.6594
兪	-11.6594
為心	-11.6595
絞	-11.6595
張玉書	-11.6596
而居	-11.6596
欹枕	-11.6596
皎皎	-11.6596
腔	-11.6597
晳	-11.6597
縣界	-11.6597
翰林院檢討毛竒齡撰	-11.6597
櫽括	-11.6597
梁肯堂	-11.6597
苦辛	-11.6598
贋	-11.6598
忡	-11.6599
之裔	-11.6599
懵	-11.6599
本作	-11.6599
之口	-11.6599
庭中	-11.66
祝嘏	-11.6601
渤海	-11.6602
一品	-11.6602
貿易	-11.6603
繕寫	-11.6603
賈誼	-11.6604
之形	-11.6604
文敏	-11.6604
昭王	-11.6605
成例	-11.6605
具疏	-11.6605
某某	-11.6606
先妣	-11.6606
鄱陽	-11.6607
縣丞	-11.6608
高人	-11.6608
音義	-11.6609
出守	-11.6609
採藥	-11.661
衣服	-11.661
直隷	-11.661
司官	-11.6612
紅樓	-11.6614
煙雲	-11.6614
而哭	-11.6614
一統	-11.6616
堯舜之	-11.6616
寥落	-11.6617
涇陽	-11.6618
長途	-11.6618
節鉞	-11.6618
月二十二日	-11.6618
翠㣲	-11.662
其居	-11.662
王制	-11.6621
層巒	-11.6622
江口	-11.6622
導之	-11.6623
葬于	-11.6626
生物	-11.6627
見園	-11.6628
瀛洲	-11.6628
最著	-11.6629
時當	-11.6629
不祥	-11.6629
二百餘	-11.6632
故老	-11.6632
一派	-11.6633
張衡	-11.6633
可以無	-11.6633
階下	-11.6634
至大	-11.6635
初開	-11.6635
已足	-11.6636
數椽	-11.6637
歸心	-11.6637
燈下	-11.6639
稍長	-11.664
宣公	-11.664
也朕	-11.6641
能為	-11.6641
小者	-11.6642
治行	-11.6645
之機	-11.6647
之左	-11.6647
江潮	-11.6648
貢士	-11.6651
該督	-11.6651
吉士	-11.6651
墓碑	-11.6652
居此	-11.6653
手植	-11.6654
言官	-11.6654
每以	-11.6656
周公之	-11.6658
耳食	-11.6659
子三人	-11.6659
約束	-11.666
榷	-11.6661
追思	-11.6661
四十六	-11.6662
茂才	-11.6662
茗椀	-11.6662
南飛	-11.6663
不再	-11.6664
諤	-11.6664
湜	-11.6665
馘	-11.6666
城守	-11.6667
付與	-11.6667
湊	-11.6668
謖	-11.667
不就	-11.667
庭樹	-11.6671
雪滿	-11.6673
暵	-11.6673
如絲	-11.6674
記取	-11.6675
先行	-11.6676
要在	-11.6676
江陰	-11.6677
有秋	-11.6678
吾徒	-11.6679
帖括	-11.6679
和碩	-11.6679
眉山	-11.668
所自出	-11.668
馬嘶	-11.668
中軍	-11.6682
日内	-11.6684
宣徳	-11.6685
爲師	-11.6685
草書	-11.6685
道家	-11.6686
百金	-11.6686
金蓮	-11.6687
廿二	-11.6689
相度	-11.6689
小景	-11.6689
而何	-11.6691
喪亂	-11.6692
益都	-11.6692
人來	-11.6693
制舉	-11.6694
樂業	-11.6696
力田	-11.6696
僧舍	-11.6697
雍容	-11.6697
以治	-11.6699
此志	-11.6699
河梁	-11.67
南園	-11.67
為本	-11.67
必當	-11.67
險阻	-11.6701
禁止	-11.6702
收穫	-11.6702
綱常	-11.6703
滿城	-11.6703
先輩	-11.6703
至京	-11.6704
南嶽	-11.6704
飛流	-11.6706
何獨	-11.6707
無據	-11.6707
八分者	-11.6708
故址	-11.6708
之志也	-11.671
隔岸	-11.6711
栁條	-11.6712
小人之	-11.6712
未安	-11.6713
比部	-11.6714
六十里	-11.6716
二語	-11.6719
歐公	-11.6719
其末	-11.672
又東	-11.6721
無風	-11.6722
鐘鼓	-11.6722
西子	-11.6722
諭議政大臣	-11.6723
其音	-11.6726
哀辭	-11.6731
亦即	-11.6732
三百六十	-11.6734
予所	-11.6734
搔	-11.6735
淬	-11.6735
嘉其	-11.6735
翼翼	-11.6736
先祖	-11.6737
每見	-11.6737
驍	-11.6738
九章	-11.6738
思歸	-11.6738
礎	-11.6739
八寸	-11.6739
安可	-11.6739
就擒	-11.6739
琱	-11.674
萬馬	-11.674
其旁	-11.6741
祓	-11.6741
衎	-11.6741
坌	-11.6741
嫻	-11.6743
愽	-11.6745
嗣子	-11.6745
大年	-11.6745
藺	-11.6745
其利	-11.6746
文林郎	-11.6746
節度使	-11.6748
路轉	-11.6749
賈生	-11.6749
感動	-11.6749
春暮	-11.675
王建	-11.6752
四句	-11.6753
面面	-11.6754
芳樹	-11.6754
亭口號	-11.6755
各異	-11.6755
一瞬	-11.6756
分守	-11.6759
襄公	-11.6759
豈足	-11.6759
松杉	-11.6761
貴妃	-11.6761
領兵	-11.6761
查勘	-11.6763
靈隱	-11.6764
交相	-11.6765
之雄	-11.6766
自覺	-11.6767
自宋	-11.6768
神州	-11.6769
駐防	-11.677
深為	-11.6771
碧血	-11.6772
如君	-11.6774
二書	-11.6775
曰善	-11.6775
古昔	-11.6775
寰區	-11.6776
虧空	-11.6777
講筵	-11.6777
其孫	-11.6778
常山	-11.6779
烈士	-11.6779
金銀	-11.678
虚無	-11.678
宜暘	-11.678
諸矦	-11.6782
之大者	-11.6782
飛絮	-11.6782
大定	-11.6782
惻然	-11.6783
蘭舟	-11.6783
景福	-11.6783
截留	-11.6783
長楊	-11.6784
何許	-11.6785
河道	-11.6787
山桃	-11.6787
筆削	-11.6788
菜花	-11.6788
山有	-11.679
南州	-11.6791
近臣	-11.6791
廷敬	-11.6791
清芬	-11.6791
望雪	-11.6791
已甚	-11.6792
辭曰	-11.6792
匹夫	-11.6793
雲雨	-11.6795
運米	-11.6798
秋江	-11.6798
早晚	-11.6799
名儒	-11.6801
山翠	-11.6802
長公	-11.6805
合一	-11.6805
雲臺	-11.6805
閣中	-11.6805
孰為	-11.6805
泉林	-11.6806
晨星	-11.6807
之子孫	-11.6807
合歡	-11.6808
自愧	-11.6809
可畏	-11.681
師道	-11.6811
聞風	-11.6812
存乎	-11.6813
蕨	-11.6815
輞川	-11.6815
叠前韻	-11.6816
平明	-11.6817
爛熳	-11.6817
芊	-11.6818
志衍	-11.6818
奕奕	-11.6818
北面	-11.6819
覬	-11.6819
賢能	-11.6819
故山	-11.6819
縵	-11.682
其父母	-11.682
瀏	-11.6821
無殊	-11.6821
議奏	-11.6821
無奈	-11.6821
䜛	-11.6822
亦將	-11.6822
瓏	-11.6824
于斯	-11.6824
丙舍	-11.6825
無虞	-11.6826
重華宫	-11.6826
六師	-11.6827
石頭	-11.683
容與	-11.683
不同而	-11.6831
優劣	-11.6831
亦不過	-11.6831
以義	-11.6832
舉子	-11.6832
行誼	-11.6835
香光	-11.6837
司命	-11.6838
欲盡	-11.6838
而還	-11.6839
性善	-11.6839
雕蟲	-11.684
議叙	-11.684
學詩	-11.684
西樵	-11.6843
解衣	-11.6844
漢宫	-11.6844
諱某	-11.6847
私心	-11.6847
陟降	-11.6849
帶領	-11.6849
勅諭	-11.685
欲求	-11.6853
海塘	-11.6856
無邊	-11.6856
自分	-11.6856
村居	-11.6856
自非	-11.6857
東下	-11.6858
水邊	-11.6859
立法	-11.6859
遂得	-11.686
家園	-11.686
已定	-11.6861
終身不	-11.6861
大塊	-11.6862
以觀	-11.6862
公墓	-11.6865
之榮	-11.6865
文定公	-11.6866
兩山	-11.6866
守道	-11.6867
屈曲	-11.6867
保其	-11.6868
如昨	-11.6869
長日	-11.687
之舉	-11.687
浮橋	-11.687
道里	-11.6872
夀序	-11.6872
▁命	-11.6873
之悲	-11.6873
如夢	-11.6874
乞降	-11.6874
文史	-11.6874
秋雲	-11.6875
之報	-11.6876
仙家	-11.6876
即令	-11.6878
益勵	-11.6879
釭	-11.688
礫	-11.688
感恩	-11.6881
知非	-11.6882
從君	-11.6883
較前	-11.6885
於後世	-11.6885
北郭	-11.6885
宜乎	-11.6886
松雪	-11.6887
猶恐	-11.6887
屧	-11.6887
裊裊	-11.6887
桑田	-11.6887
胤	-11.6888
螘	-11.6889
坏	-11.6889
天地間	-11.6889
落盡	-11.6889
園居	-11.689
中孚	-11.689
漑	-11.6891
爬	-11.6891
簾櫳	-11.6891
爆竹	-11.6892
九卿詹事科道	-11.6892
治理	-11.6892
永定	-11.6893
送春	-11.6895
歘	-11.6895
歸来	-11.6895
甲兵	-11.6896
素尚齋	-11.6896
熄	-11.6896
竽	-11.6897
招集	-11.6897
溽	-11.6898
漫漶	-11.6898
聲律	-11.6899
矯矯	-11.6901
耳然	-11.6901
停車	-11.6901
白帝	-11.6902
就道	-11.6903
冢宰	-11.6903
家無	-11.6903
鳳翔	-11.6904
徒步	-11.6907
忠恕	-11.6909
與天	-11.691
詰戎	-11.691
大法	-11.6911
傾心	-11.6911
過多	-11.6911
教授	-11.6911
曹氏	-11.6911
青葱	-11.6911
留客	-11.6913
也知	-11.6913
不可爲	-11.6913
攬景	-11.6915
張照	-11.6915
門巷	-11.6916
譜牒	-11.6916
户外	-11.6918
水源	-11.6919
至正	-11.692
屐齒	-11.692
鳩工	-11.6921
行春	-11.6922
自守	-11.6922
名世	-11.6922
休養	-11.6925
小艇	-11.6925
誤以	-11.6926
後一日	-11.6928
大宛	-11.6929
則當	-11.693
光華	-11.693
文書	-11.693
早卒	-11.6931
民風	-11.6932
晚坐	-11.6932
救之	-11.6932
聲華	-11.6933
伊誰	-11.6934
征南	-11.6936
北省	-11.6936
閨門	-11.6938
攝山	-11.6938
與天地	-11.694
相機	-11.6941
下視	-11.6943
了不	-11.6944
春耕	-11.6946
蟲魚	-11.6946
其爲人	-11.6946
本來	-11.6947
遭遇	-11.6948
之具	-11.6948
不可為	-11.695
伯父	-11.6951
玉樓	-11.6951
泗水	-11.6952
淮西	-11.6953
今兹	-11.6953
語也	-11.6955
曾無	-11.6955
學生	-11.6956
三王	-11.6956
水災	-11.6957
知交	-11.6957
國人	-11.6957
貴陽	-11.6958
焉余	-11.6958
曾見	-11.6959
灑然	-11.6959
仰視	-11.6959
之言也	-11.696
僇	-11.6961
河洛	-11.6961
劬	-11.6961
杰	-11.6962
君才	-11.6963
阿誰	-11.6963
癯	-11.6964
船頭	-11.6964
橐	-11.6965
賙	-11.6966
之倫	-11.6966
蓊	-11.6967
单	-11.6968
福康安等	-11.6968
獺	-11.697
揣摩	-11.6971
滂沱	-11.6971
醯	-11.6971
集賢	-11.6971
體物	-11.6972
鉦	-11.6972
惟餘	-11.6974
駸駸	-11.6974
藳	-11.6975
底用	-11.6975
蒜	-11.6975
衝寒	-11.6976
奧	-11.6976
錫宴	-11.6976
山西巡撫	-11.6976
敺	-11.6977
定海	-11.6978
客路	-11.6978
欲上	-11.6979
者尚	-11.6979
甘棠	-11.6979
子文	-11.698
貽書	-11.698
可否	-11.6981
大理寺	-11.6981
神聖	-11.6983
方山	-11.6983
以聞	-11.6984
也宋	-11.6984
積翠	-11.6985
吐蕃	-11.6986
之爲人	-11.6987
火樹	-11.6987
如見	-11.6988
吳楚	-11.6988
海宇	-11.6989
大興	-11.6989
法司	-11.699
何煩	-11.6991
其黨	-11.6992
六十四	-11.6992
竹罏	-11.6993
與兄	-11.6994
巨石	-11.6995
心性	-11.6997
之遊	-11.6998
千丈	-11.6998
傳寫	-11.7
者宜	-11.7001
交於	-11.7001
佳音	-11.7005
服膺	-11.7005
率以	-11.7005
邦國	-11.7006
三昧	-11.7007
西門	-11.7007
如舊	-11.7007
寛大	-11.7011
不二	-11.7011
方正	-11.7011
清波	-11.7012
萬騎	-11.7012
翩然	-11.7012
守其	-11.7012
成周	-11.7013
一輪	-11.7013
虹橋	-11.7014
故郷	-11.7015
徵士	-11.7015
則大	-11.7015
飮食	-11.7016
何難	-11.7018
如山	-11.7018
墓田	-11.7019
方畧	-11.7019
始信	-11.7022
同居	-11.7022
濃隂	-11.7022
郊祀	-11.7023
陸機	-11.7024
論定	-11.7024
愁人	-11.7025
盛開	-11.7026
願言	-11.7027
暗香	-11.7027
舟過	-11.703
額爾	-11.7031
以廣	-11.7031
叩門	-11.7035
袤	-11.7036
公嘗	-11.7036
歳月	-11.7037
家訓	-11.7038
紫雲	-11.7038
篔	-11.7039
鉄	-11.7042
大哉	-11.7042
將至	-11.7043
彂	-11.7043
帝曰	-11.7044
薺	-11.7044
嵬	-11.7044
山腰	-11.7045
氣韻	-11.7045
凡此	-11.7046
盱	-11.7046
菩提	-11.7047
畚	-11.7047
琳瑯	-11.7047
呶	-11.7048
亦既	-11.7049
崕	-11.7049
摸	-11.7049
隨地	-11.705
金臺	-11.705
七月初	-11.705
小集	-11.705
君獨	-11.7051
董子	-11.7051
丹鉛	-11.7051
任之	-11.7051
初春	-11.7051
辛勤	-11.7052
史公	-11.7053
天髙	-11.7053
而得之	-11.7054
家大人	-11.7055
再見	-11.7055
典型	-11.7056
考工記	-11.7057
遊擊	-11.7058
宋本	-11.7059
文皇	-11.706
額勒登保	-11.7061
者衆	-11.7062
大指	-11.7066
固辭	-11.7067
又不能	-11.7067
芰荷	-11.7068
信也	-11.7069
分路	-11.707
士庶	-11.707
木石	-11.7071
旣成	-11.7072
統領	-11.7074
抵掌	-11.7077
榴花	-11.7078
同邑	-11.7078
商量	-11.7078
杜宇	-11.7078
雲端	-11.708
召對	-11.708
逢君	-11.708
以私	-11.7082
懷人	-11.7082
非關	-11.7084
呼童	-11.7085
亡也	-11.7086
任事	-11.7088
兵餉	-11.7089
君亦	-11.7089
良久	-11.7091
細細	-11.7092
巨源	-11.7092
秋霜	-11.7094
因此	-11.7095
信乎	-11.7096
伏惟	-11.7097
赤松	-11.7099
烏啼	-11.7099
澄懐	-11.71
周人	-11.71
雙飛	-11.7101
必不能	-11.7102
西郊	-11.7102
二十七年	-11.7103
千總	-11.7103
過嶺	-11.7105
荆門	-11.7106
青州	-11.711
古義	-11.711
戒滿	-11.711
家譜	-11.7111
吾郷	-11.7112
如聞	-11.7113
念此	-11.7113
宗社	-11.7114
爾許	-11.7114
開花	-11.7116
薦紳	-11.7117
流行	-11.7117
保舉	-11.7117
天空	-11.7117
堇浦	-11.7117
吉林	-11.7119
嘴	-11.7119
燐	-11.712
花事	-11.712
大驚	-11.712
抺	-11.712
列仙	-11.7121
餒	-11.7121
沆	-11.7121
小草	-11.7121
之宜	-11.7121
南唐	-11.7122
瀘	-11.7122
楠	-11.7122
千七百	-11.7122
四十餘年	-11.7122
壼	-11.7122
筮仕	-11.7123
楯	-11.7124
珣	-11.7125
都察院	-11.7125
掉頭	-11.7126
我昔	-11.7127
酲	-11.7128
滁	-11.7128
擠	-11.7128
開放	-11.7128
十家	-11.7129
咀	-11.7129
洞口	-11.713
盤中	-11.713
煇	-11.713
兩江總督	-11.7131
而論	-11.7131
蘉	-11.7131
改爲	-11.7132
配享	-11.7132
圃序	-11.7132
四座	-11.7132
髙陽	-11.7132
以當	-11.7132
蠲租	-11.7134
忠毅	-11.7136
風騷	-11.7136
我友	-11.7139
上游	-11.7139
其視	-11.7139
諭大學士伊桑阿	-11.714
景州	-11.714
三十八年	-11.7143
池館	-11.7143
終不能	-11.7143
奉皇太后	-11.7143
且復	-11.7144
並未	-11.7145
十二首	-11.7146
平野	-11.7148
于闐	-11.7148
王侯	-11.7149
予亦	-11.715
策馬	-11.715
以救	-11.715
願得	-11.7151
豐臺	-11.7151
司道	-11.7152
漸覺	-11.7154
四千	-11.7154
不墜	-11.7155
大政	-11.7155
等府	-11.7155
緋	-11.7157
必至	-11.7158
種花	-11.7158
意外	-11.7159
八家	-11.716
康强	-11.716
忠肅	-11.7161
求賢	-11.7161
懸崖	-11.7163
閒雲	-11.7164
澄觀	-11.7164
天威	-11.7165
風輕	-11.7167
畫眉	-11.7167
王勃	-11.7168
莫知	-11.7169
阿母	-11.7171
爲言	-11.7171
青黄	-11.7172
還自	-11.7173
謫仙	-11.7173
之廟	-11.7173
葢自	-11.7173
令節	-11.7174
奕世	-11.7175
老莊	-11.7175
後即	-11.7175
官至	-11.7176
盛於	-11.7176
未已	-11.7176
五月初	-11.7177
所貴	-11.7179
而逝	-11.7179
十倍	-11.718
朝日	-11.7182
乎故	-11.7183
江淹	-11.7183
曽子	-11.7184
而讀之	-11.7185
米石	-11.7186
吳子	-11.7186
有天下	-11.7188
于鱗	-11.7189
日進	-11.7189
諸方	-11.7189
坐久	-11.719
仍在	-11.7191
證之	-11.7191
道周	-11.7191
舩	-11.7192
茘	-11.7193
濂	-11.7194
生辰	-11.7195
朝天	-11.7195
况是	-11.7196
頭上	-11.7197
應真	-11.7199
陳迹	-11.7199
踣	-11.7199
莒	-11.72
北堂	-11.7201
贛	-11.7201
佗	-11.7201
尚餘	-11.7201
檀弓	-11.7201
耋	-11.7202
更誰	-11.7202
騎驢	-11.7202
璉	-11.7202
儁	-11.7203
其謬	-11.7203
畬	-11.7203
不佞	-11.7203
考試	-11.7203
嶔	-11.7204
山先生	-11.7204
北行	-11.7204
踔	-11.7205
把總	-11.7205
武英殿	-11.7205
毆	-11.7206
鴻臚	-11.7206
也彼	-11.7206
滸	-11.7206
釋褐	-11.7206
後世之	-11.7207
胸臆	-11.7207
亦俱	-11.7208
朱鳥	-11.7209
縱目	-11.7209
言旋	-11.7209
白骨	-11.721
兩地	-11.7211
長風	-11.7213
嗟夫	-11.7213
舊名	-11.7215
若非	-11.7217
離羣	-11.7219
我輩	-11.7219
其夫	-11.7221
自天	-11.7221
英華	-11.7223
道左	-11.7223
東風吹	-11.7225
弔古	-11.7227
之興	-11.7228
長虹	-11.7228
闗外	-11.7228
倘有	-11.7229
危坐	-11.723
衆皆	-11.723
清宵	-11.7231
初晴	-11.7232
宫殿	-11.7233
冬月	-11.7235
不拘	-11.7235
君君	-11.7236
朕躬	-11.7237
千八百	-11.7237
尺素	-11.7237
乃可	-11.7237
災黎	-11.7237
上巳	-11.7238
玉衡	-11.7238
心神	-11.724
之旁	-11.724
液池	-11.7241
短歌	-11.7241
每一	-11.7241
莫向	-11.7242
燕喜	-11.7243
之忱	-11.7244
提學	-11.7244
注之	-11.7246
將帥	-11.7246
詩題	-11.7247
回頭	-11.7251
歸途	-11.7252
又與	-11.7252
豁然	-11.7255
約略	-11.7255
嗜好	-11.7255
軍門	-11.7256
孟冬	-11.7257
斥之	-11.7258
如彼	-11.7258
西嶺	-11.7258
紫翠	-11.7259
固當	-11.7261
萬木	-11.7261
失守	-11.7263
六龍	-11.7266
善人	-11.7267
分得	-11.7268
收藏	-11.7268
節孝	-11.7269
復雨	-11.727
以盡	-11.727
者正	-11.7271
太華	-11.7272
所刻	-11.7273
不記	-11.7274
軍事	-11.7274
嗟哉	-11.7275
是月	-11.7275
篝	-11.7275
奚必	-11.7276
虞書	-11.7276
醬	-11.7277
未嘗以	-11.7277
中官	-11.7277
左氏傳	-11.7278
收成分數	-11.7278
終焉	-11.7279
月中旬	-11.7279
桮	-11.7279
教人	-11.7279
婪	-11.7279
匈奴	-11.728
涴	-11.728
元龍	-11.728
渺茫	-11.7281
峒	-11.7281
嫠	-11.7281
輕雲	-11.7281
𤨏	-11.7281
坻	-11.7282
趨庭	-11.7282
熒熒	-11.7282
孔安國	-11.7283
濘	-11.7284
圏	-11.7285
獻之	-11.7285
筯	-11.7285
服其	-11.7285
謹按	-11.7286
孝子之	-11.7289
羊腸	-11.729
夏初	-11.729
合計通省	-11.7291
分付	-11.7293
野史	-11.7293
傳餐	-11.7295
夜郎	-11.7295
老友	-11.7296
情形詩以誌事	-11.7296
五岳	-11.7296
經略	-11.7297
不語	-11.7297
六國	-11.7297
蕪城	-11.7298
則不能	-11.7298
動而	-11.7299
且曰	-11.7299
花宫	-11.7299
莫之	-11.7302
驚起	-11.7302
宗人	-11.7303
臨岐	-11.7303
繢	-11.7304
何䖏	-11.7304
該部	-11.7304
甘心	-11.7304
猶子	-11.7305
詞以	-11.7305
進講	-11.7306
彌月	-11.7306
飛章	-11.7306
圖二首	-11.7309
寒風	-11.731
淮上	-11.731
督兵	-11.7311
秦皇	-11.7313
青春	-11.7314
孟堅	-11.7314
楚辭	-11.7315
内大臣	-11.7315
遊人	-11.7316
前路	-11.7317
直欲	-11.7318
雲梯	-11.7319
宜有	-11.7319
一致	-11.732
嗣昌	-11.732
里巷	-11.7321
亦甚	-11.7322
伏讀	-11.7324
及諸	-11.7325
皆與	-11.7326
乃大	-11.7326
豈復	-11.7328
揮手	-11.7329
一次	-11.7331
經解	-11.7331
即日	-11.7332
命名	-11.7333
七十餘	-11.7333
東歸	-11.7333
纔過	-11.7335
明時	-11.7335
號曰	-11.7336
三桂	-11.7336
罩	-11.7337
年逾	-11.7338
也謂	-11.734
舊志	-11.7341
臨軒	-11.7341
乗興	-11.7342
其術	-11.7343
又是	-11.7343
言志	-11.7344
子男	-11.7345
羙人	-11.7346
無罪	-11.7346
三歲	-11.7346
濩	-11.7347
有賢	-11.7348
隂晴	-11.7348
秋意	-11.7348
規制	-11.735
入春	-11.735
竊惟	-11.735
曛	-11.7351
曉晴	-11.7352
大澤	-11.7352
于成龍	-11.7353
隱君	-11.7353
閼	-11.7353
天龍	-11.7353
烈女	-11.7354
􁇐	-11.7354
莞	-11.7355
民命	-11.7355
巉	-11.7357
黃公	-11.7357
翺	-11.7358
考終	-11.7359
芾	-11.736
荄	-11.736
前軰	-11.7361
簏	-11.7361
橙	-11.7361
箑	-11.7362
指掌	-11.7362
驃騎	-11.7362
崆峒	-11.7362
既得	-11.7362
香火	-11.7363
諸羅	-11.7363
猶見	-11.7363
房山	-11.7363
以貽	-11.7364
初地	-11.7365
朝士	-11.7365
端倪	-11.7366
午熱	-11.7367
王賦	-11.737
民田	-11.7371
汪洋	-11.7372
州城	-11.7372
始至	-11.7375
候補	-11.7376
恰值	-11.7376
百代	-11.7377
直下	-11.7377
豈為	-11.7377
以東	-11.738
一意	-11.7382
南面	-11.7384
異而	-11.7385
霜天	-11.7385
安用	-11.7386
此義	-11.7387
主恩	-11.7387
嵗久	-11.7388
逸少	-11.7388
花卉	-11.739
卜築	-11.7392
緑樹	-11.7393
如是者	-11.7395
兼以	-11.7395
元吉	-11.7395
地志	-11.7396
王事	-11.7397
卽有	-11.7397
平分	-11.7398
太監	-11.7398
渾河	-11.7399
院長	-11.7399
流賊	-11.74
示余	-11.74
本有	-11.74
八音	-11.7401
矣嗚呼	-11.7403
忘年	-11.7403
書於	-11.7403
亡而	-11.7403
四十七	-11.7403
彼其	-11.7406
世傳	-11.7407
入座	-11.7407
刻畫	-11.7408
四出	-11.7408
矣然而	-11.7408
古佛	-11.7408
博聞	-11.7409
雪景	-11.7409
分韻	-11.741
按狀	-11.741
全家	-11.7411
晩節	-11.7411
天貺	-11.7412
春分	-11.7412
日本	-11.7413
貧者	-11.7413
賢豪	-11.7413
十餘人	-11.7413
欽承	-11.7413
十有七	-11.7414
石罅	-11.7416
無一人	-11.7416
以期	-11.7417
其害	-11.7417
酌酒	-11.7417
夜色	-11.7417
明代	-11.7418
霏微	-11.7418
元元	-11.7418
龍尾	-11.7419
樂章	-11.742
西川	-11.742
為最	-11.742
以迄	-11.7421
别號	-11.7421
雲飛	-11.7421
之心而	-11.7422
入閩	-11.7422
及至	-11.7423
及第	-11.7426
者往往	-11.7428
斯時	-11.743
比鄰	-11.7431
不能得	-11.7431
滋潤	-11.7432
唳	-11.7432
中途	-11.7433
歸期	-11.7433
官司	-11.7434
欽哉	-11.7434
復社	-11.7434
猶龍	-11.7435
途次	-11.7435
娟娟	-11.7436
體例	-11.7436
濁醪	-11.7437
礦	-11.7438
笞	-11.7438
雹	-11.7438
眎	-11.7438
瘳	-11.7438
是歲	-11.7439
鶱	-11.744
𣙜	-11.7441
跌	-11.7441
頡頏	-11.7441
汝等	-11.7442
讖	-11.7442
喝	-11.7442
爲最	-11.7443
臙脂	-11.7443
必有所	-11.7443
嶺表	-11.7444
治罪	-11.7444
羣賢	-11.7445
先生與	-11.7446
夾道	-11.7447
畫一	-11.7449
炎蒸	-11.745
丹梯	-11.745
典故	-11.745
荔枝	-11.745
逾年	-11.7451
恩澤	-11.7451
邵子	-11.7452
望日	-11.7452
連綿	-11.7454
吾宗	-11.7454
而言之	-11.7455
隔嵗	-11.7456
雪色	-11.7459
􁈍	-11.7459
窮蹙	-11.746
者將	-11.7461
已自	-11.7461
空自	-11.7461
早知	-11.7462
何與	-11.7462
文集序	-11.7463
定交	-11.7464
遥遥	-11.7465
虞夏	-11.7465
筆札	-11.7465
用力	-11.7466
天下無	-11.7466
羲經	-11.7466
子之言	-11.7467
定國	-11.7468
益甚	-11.7468
春夜	-11.7471
小吏	-11.7473
贈别	-11.7473
村落	-11.7473
或疑	-11.7474
羽毛	-11.7474
弗敢	-11.7474
所需	-11.7474
異乎	-11.7476
固陋	-11.7477
台州	-11.7478
生成	-11.7479
當門	-11.7481
子輿	-11.7481
不得而	-11.7484
不支	-11.7484
爲壽	-11.7487
忠憲	-11.7487
猶得	-11.749
飄飄	-11.749
洗心	-11.7491
商人	-11.7492
狂歌	-11.7493
恰如	-11.7493
先生爲	-11.7494
船隻	-11.7497
再至	-11.7498
人烟	-11.7498
寓目	-11.7502
一川	-11.7502
庭院	-11.7506
偶作	-11.7506
萬嵗	-11.7507
不淺	-11.7509
竄入	-11.751
斯須	-11.7511
君親	-11.7511
農諺	-11.7512
子皇帝	-11.7512
㙮	-11.7512
詳悉	-11.7513
偶有	-11.7515
軹	-11.7515
􁁬	-11.7516
溧陽	-11.7516
陕	-11.7517
裵	-11.7517
雇	-11.7517
麻城	-11.7518
誾	-11.7518
愚山	-11.7518
㐮	-11.7518
僱	-11.7519
漕項	-11.7519
苻	-11.7519
焙	-11.752
罽	-11.7521
書序	-11.7521
何如也	-11.7521
稜稜	-11.7522
二千石	-11.7522
入關	-11.7522
胭脂	-11.7523
奉旨	-11.7523
不誣	-11.7524
尠	-11.7524
蘗	-11.7524
窑	-11.7525
癸夘	-11.7525
二十韻	-11.7526
奉公	-11.7526
甑	-11.7526
此類	-11.7526
敉	-11.7527
可尋	-11.7527
其先世	-11.7527
小試	-11.7527
如此其	-11.7528
狼籍	-11.7528
䆒	-11.7528
百餘人	-11.7528
白傅	-11.7529
黻	-11.7531
文藻	-11.7531
計之	-11.7531
達賴喇嘛	-11.7531
五陵	-11.7533
更喜	-11.7533
未備	-11.7534
弓矢	-11.7535
更生	-11.7536
後主	-11.7536
至於今	-11.7536
河干	-11.7537
天所	-11.7538
難言	-11.7538
樓下	-11.7539
雷塘	-11.7539
者在	-11.754
最宜	-11.7541
祖徳	-11.7542
紅雨	-11.7542
轉移	-11.7545
被淹	-11.7545
依韻	-11.7546
吾知	-11.7547
客舍	-11.7549
乎若	-11.755
寒光	-11.7551
世上	-11.7551
千官	-11.7552
欲爲	-11.7552
也但	-11.7552
丹書	-11.7554
大夫之	-11.7554
輕隂	-11.7554
宜春	-11.7555
歲歲	-11.7556
前驅	-11.7556
截漕	-11.7556
不媿	-11.7558
尚多	-11.7558
之常	-11.756
每當	-11.756
再來	-11.756
也後	-11.7561
漢玉	-11.7561
有法	-11.7562
圖題	-11.7562
舎人	-11.7562
執筆	-11.7564
記事	-11.7565
功業	-11.7567
史局	-11.7567
綠雲	-11.7568
頓覺	-11.7569
把筆	-11.7571
哀樂	-11.7573
天南	-11.7574
天與	-11.7575
黎庶	-11.7576
不時	-11.7576
毛公	-11.7576
南軒	-11.7581
淖	-11.7581
相屬	-11.7582
廟貌	-11.7583
可作	-11.7583
以還	-11.7583
幽棲	-11.7584
累世	-11.7584
疏通	-11.7585
者也故	-11.7586
欲知	-11.7588
黄教	-11.7589
蘭陵	-11.7589
向誰	-11.7589
霞標	-11.7589
最高	-11.759
遼陽	-11.7591
記載	-11.7591
不隨	-11.7591
全體	-11.7592
是真	-11.7592
長麟	-11.7593
百步	-11.7594
𫀆	-11.7595
㕓	-11.7596
最喜	-11.7597
者率	-11.7597
悸	-11.7597
酈道元	-11.7597
旦暮	-11.7598
苦節	-11.7598
評事	-11.7598
天女	-11.7598
爼豆	-11.7599
去住	-11.7599
涿鹿	-11.7599
嫵	-11.7599
黝	-11.7599
沈公	-11.7601
四望	-11.7602
入市	-11.7602
霜露	-11.7603
神御	-11.7603
拂拭	-11.7603
殊恩	-11.7603
皁	-11.7605
成章	-11.7605
神道	-11.7605
黃山	-11.7605
文恪公	-11.7605
蹏	-11.7606
駐劄	-11.7608
氏族	-11.7609
賊目	-11.761
天下之大	-11.761
旌門	-11.761
亦應	-11.7611
所受	-11.7611
七星	-11.7611
紀元	-11.7614
屋角	-11.7614
鄂輝	-11.7614
叔孫	-11.7614
朋黨	-11.7614
稍慰	-11.7615
騎射	-11.7616
遺山	-11.7616
無憂	-11.7619
登朝	-11.762
國門	-11.762
卷帙	-11.7623
恩賜	-11.7625
雪花	-11.7625
湯泉	-11.7627
推恩	-11.7627
神道碑	-11.7628
義例	-11.7628
告竣	-11.7629
小飲	-11.7629
不竭	-11.7632
西直門外作	-11.7633
山東河南	-11.7633
天柱	-11.7634
几案	-11.7636
山花	-11.7636
入雲	-11.7637
小宗	-11.7638
兵戈	-11.7639
忽有	-11.764
明湖	-11.7641
蕭疎	-11.7641
昭示	-11.7642
神農	-11.7643
入地	-11.7643
嘗有	-11.7643
入蜀	-11.7644
錄之	-11.7645
題陳	-11.7645
坐看	-11.7645
門下士	-11.7646
孰知	-11.7646
内史	-11.7647
宗法	-11.7647
絶塞	-11.7648
披覽	-11.7649
年間	-11.7649
肅肅	-11.7652
好友	-11.7654
之儒	-11.7656
繼母	-11.7657
爲序	-11.7661
諸詩	-11.7665
沿海	-11.7666
隨處	-11.7666
不敏	-11.7666
必求	-11.7667
何至	-11.7667
所恃	-11.7668
同行	-11.7668
轉覺	-11.7669
鄣	-11.7672
渦	-11.7673
言之則	-11.7673
讀如	-11.7673
法門	-11.7674
殷殷	-11.7674
説文	-11.7675
千言	-11.7675
病起	-11.7676
五夜	-11.7676
我来	-11.7677
黄鸝	-11.7678
三老	-11.7679
瀬	-11.768
數尺	-11.7681
聲聲	-11.7681
綈	-11.7681
煜	-11.7682
礀	-11.7683
而遽	-11.7683
顧影	-11.7684
窳	-11.7684
鑽	-11.7685
璠	-11.7685
名義	-11.7686
繼室	-11.7688
行矣	-11.7692
支硎	-11.7692
鑿空	-11.7692
十有一	-11.7692
肫	-11.7693
麥苖	-11.7694
延佇	-11.7694
摛藻	-11.7695
忠愍	-11.7695
靄靄	-11.7696
者可以	-11.7697
同聲	-11.7697
所行	-11.7698
慰勞	-11.7699
正好	-11.7699
賞罰	-11.77
貝葉	-11.7702
少婦	-11.7703
太室	-11.7703
白金	-11.7704
命駕	-11.7704
烟花	-11.7705
賢母	-11.7707
行李	-11.7707
立志	-11.7708
玩物	-11.7708
重光	-11.7709
孝思	-11.7709
若使	-11.7709
希有	-11.7709
從父	-11.771
金匱	-11.7711
吳縣	-11.7712
典試	-11.7712
拈花	-11.7715
退食	-11.7716
東征	-11.7716
牛馬	-11.7716
五百里	-11.7716
人咸	-11.7717
平聲	-11.7717
困苦	-11.7718
望海	-11.7718
簡而	-11.7718
從事於	-11.7719
之虞	-11.7719
禩	-11.772
全盛	-11.7721
無補	-11.7722
奏議	-11.7722
問答	-11.7724
不第	-11.7725
虎頭	-11.7725
因憶	-11.7725
震川	-11.7727
獄中	-11.7729
人跡	-11.7729
風濤	-11.773
從兄	-11.773
一㸃	-11.7731
瞻拜	-11.7731
遺像	-11.7732
南書房	-11.7733
金元	-11.7734
恐有	-11.7734
之衰	-11.7735
鼓舞	-11.7735
禁近	-11.7737
三國	-11.7738
長夏	-11.7738
等皆	-11.7741
一覽	-11.7742
右文	-11.7742
清濁	-11.7743
送王	-11.7744
寧知	-11.7745
蠲賑	-11.7745
不勞	-11.7745
中堂	-11.7747
津門	-11.7748
無存	-11.7749
水亭	-11.7749
婁東	-11.7749
去來	-11.7752
髙風	-11.7754
淮陰	-11.7754
百五十	-11.7755
再疊	-11.7755
利病	-11.7756
山公	-11.7757
勢甚	-11.7758
三篇	-11.7758
入貢	-11.7759
登岸	-11.7761
潼	-11.7761
至公	-11.7762
淑氣	-11.7762
旒	-11.7763
縣事	-11.7763
鬆	-11.7763
緑楊	-11.7763
皆為	-11.7763
天禄	-11.7764
艦	-11.7764
莫漫	-11.7764
藉此	-11.7764
家塾	-11.7765
斲	-11.7765
厝	-11.7765
賦贈	-11.7766
我家	-11.7766
灌溉	-11.7767
凖噶爾	-11.7767
隨風	-11.7768
怍	-11.7768
穹窿	-11.7768
常侍	-11.7769
晟	-11.7769
肺腑	-11.7769
漓	-11.7769
收復	-11.7769
校尉	-11.777
蒨	-11.777
形骸	-11.777
斸	-11.777
是誠	-11.7771
而且	-11.7771
郭璞	-11.7773
曰臣	-11.7774
丁香	-11.7774
列聖	-11.7774
憂國	-11.7774
夏時	-11.7775
卒業	-11.7776
信陵	-11.7778
萬巻	-11.7778
閒有	-11.7778
髙年	-11.7778
之端	-11.7779
問景	-11.7779
二絶句	-11.778
曰君子	-11.778
窮民	-11.778
者盖	-11.7781
故宫	-11.7781
焉知	-11.7781
師儒	-11.7783
浙江巡撫	-11.7783
荆南	-11.7783
穆穆	-11.7784
公乃	-11.7785
抱膝	-11.7785
香風	-11.779
申飭	-11.779
千重	-11.779
澄清	-11.779
平津	-11.7791
傑閣	-11.7791
恨不	-11.7791
疏濬	-11.7794
瀚海	-11.7794
白鷗	-11.7797
無方	-11.7797
底定	-11.7797
水出	-11.7797
二等	-11.7797
迤西	-11.7798
是宜	-11.7799
異代	-11.78
七千	-11.7801
寒烟	-11.7801
髙堰	-11.7802
歴官	-11.7802
河渠	-11.7804
碩人	-11.7804
近人	-11.7805
但覺	-11.7805
仁孝	-11.7805
逆匪	-11.7806
有靈	-11.7807
海山	-11.7808
相符	-11.781
數載	-11.781
而無所	-11.781
月二十九日	-11.7811
孤忠	-11.7811
沂州	-11.7812
猶傳	-11.7812
曲水	-11.7813
澤州	-11.7813
嘉名	-11.7813
虚堂	-11.7815
平山堂	-11.7816
當世之	-11.7817
梅雨	-11.782
是豈	-11.782
而可以	-11.7821
五馬	-11.7822
語云	-11.7825
半壁	-11.7826
談經	-11.7827
煙雨	-11.7828
六月十	-11.7828
一自	-11.7829
雖已	-11.7831
海隅	-11.7832
之色	-11.7833
而歎	-11.7834
厯代	-11.7835
率衆	-11.7835
髙臺	-11.7836
瞳	-11.7836
寉	-11.7837
民無	-11.7838
髙枕	-11.7839
川原	-11.7842
数	-11.7843
老年	-11.7843
都是	-11.7845
坰	-11.7845
令名	-11.7846
成熟	-11.7847
平反	-11.7847
箧	-11.7847
龍虎	-11.7847
搃	-11.7847
夏正	-11.7848
栁色	-11.7848
浙之	-11.7849
跛	-11.7849
澄泥	-11.7849
朕惟	-11.785
吟詠	-11.785
均有	-11.785
還山	-11.785
朕所	-11.785
門内	-11.7852
叠舊作韻	-11.7853
倏	-11.7853
浙中	-11.7853
重加	-11.7853
爕	-11.7853
悰	-11.7853
濟水	-11.7854
怦	-11.7855
廛	-11.7855
謂當	-11.7856
人口	-11.7856
桑榆	-11.7857
平臺	-11.7857
永年	-11.7857
石栁鄧	-11.7858
正大	-11.7858
緑水	-11.7858
哉然	-11.7859
衰病	-11.7859
之策	-11.786
春来	-11.786
吟興	-11.7861
偃仰	-11.7862
以防	-11.7862
翰苑	-11.7863
大慶	-11.7864
書卷	-11.7864
休沐	-11.7865
憶昨	-11.7865
繾念	-11.7866
祈穀	-11.7866
結廬	-11.7866
芃芃	-11.7868
詳議	-11.7868
羣生	-11.787
客中	-11.7871
今晨	-11.7871
新書	-11.7873
渡口	-11.7873
號為	-11.7874
並稱	-11.7875
錄序	-11.7875
山勢	-11.7876
建業	-11.7877
三度	-11.7877
羣芳	-11.7877
講論	-11.7877
率土	-11.7878
忠賢	-11.7878
又作	-11.7878
和韻	-11.7879
學使者	-11.7879
嵩山	-11.788
雲夢	-11.7881
仍是	-11.7881
十韻	-11.7881
根株	-11.7882
月初旬	-11.7882
陛見	-11.7884
曽有	-11.7885
耳若	-11.7886
古今之	-11.7886
人影	-11.7888
物情	-11.7888
中使	-11.7889
雲巖	-11.7893
喪禮	-11.7893
颯然	-11.7893
復來	-11.7894
賢否	-11.7896
消長	-11.7896
縱有	-11.7899
異者	-11.79
上㳺	-11.7901
四十四	-11.7903
府同知	-11.7904
之兆	-11.7904
此說	-11.7905
最深	-11.7906
工詩	-11.7907
拓本	-11.7907
鷗鷺	-11.7907
祀事	-11.7909
行雲	-11.7909
鄉黨	-11.791
故於	-11.791
獻賦	-11.7911
王粲	-11.7912
兄子	-11.7913
興師	-11.7913
大呼	-11.7914
豈意	-11.7914
大悲	-11.7916
凡事	-11.7916
勅諭諭	-11.7918
福地	-11.7918
不自知	-11.7918
營兵	-11.792
必死	-11.792
什一	-11.7921
潺潺	-11.7923
言歸	-11.7924
地僻	-11.7924
無與	-11.7925
那有	-11.7926
當國	-11.7926
酒食	-11.7926
經畫	-11.793
木城	-11.7931
立祠	-11.7932
多難	-11.7932
奭	-11.7932
檇李	-11.7932
纚	-11.7934
竚	-11.7934
溝洫	-11.7934
商周	-11.7935
㨿	-11.7935
思陵	-11.7936
罪人	-11.7937
𪷟	-11.7937
實與	-11.7938
鱸魚	-11.7938
匄	-11.794
王謝	-11.794
縉紳	-11.794
三復	-11.7941
無失	-11.7941
今始	-11.7941
寒花	-11.7941
宣化	-11.7942
坡公	-11.7942
宴坐	-11.7943
昊蒼	-11.7943
▁皇上	-11.7945
豈以	-11.7945
輿情	-11.7945
無日不	-11.7946
買山	-11.7946
逮今	-11.7946
九河	-11.7947
流鶯	-11.7947
公侯	-11.7947
屢豐	-11.7948
相因	-11.7949
永昌	-11.7949
盛徳	-11.795
問俗	-11.7951
世守	-11.7951
王氣	-11.7951
碑版	-11.7952
古今體詩	-11.7952
之材	-11.7952
真堪	-11.7953
隔江	-11.7953
盤旋	-11.7954
磐石	-11.7954
一戰	-11.7955
之至意	-11.7956
遵行	-11.7956
自警	-11.7956
半載	-11.7958
職掌	-11.7958
慈恩	-11.7958
春城	-11.7958
所無	-11.7959
所希	-11.7961
閩人	-11.7961
芝蘭	-11.7962
經典	-11.7962
日就	-11.7963
相忘	-11.7965
萬籟	-11.7966
老親	-11.7967
送張	-11.797
齊名	-11.7971
樂利	-11.7971
詞林	-11.7972
城闉	-11.7972
塞北	-11.7972
者以其	-11.7974
百物	-11.7974
烟樹	-11.7974
何知	-11.7974
易簡	-11.7975
欲與	-11.7978
可以爲	-11.7978
配天	-11.798
越人	-11.7981
欣逢	-11.7984
淮南子	-11.7984
降而	-11.7984
謁選	-11.7985
畫家	-11.7985
廓然	-11.7986
主敬	-11.7987
豈如	-11.7987
姑息	-11.7988
鳴琴	-11.7988
既無	-11.7988
送李	-11.7989
迤北	-11.7989
向来	-11.799
則與	-11.799
州郡	-11.7992
名為	-11.7993
灌園	-11.7994
米家	-11.7995
如前	-11.7995
泫	-11.7995
難於	-11.7995
賴以	-11.7995
耆定	-11.7998
離披	-11.7999
紛綸	-11.7999
峰頭	-11.8
戴記	-11.8001
此篇	-11.8002
炷	-11.8003
央	-11.8005
之詳	-11.8006
涿	-11.8008
殘年	-11.8009
以吿	-11.8009
於理	-11.8009
也是以	-11.8009
二百年	-11.8011
小姑	-11.8011
粮	-11.8012
直言	-11.8012
特簡	-11.8013
悳州	-11.8013
嘗爲	-11.8013
老眼	-11.8013
絺	-11.8014
豊	-11.8014
隗	-11.8014
本月	-11.8014
窺其	-11.8014
灼灼	-11.8015
桷	-11.8015
帘	-11.8017
物力	-11.8017
■	-11.8017
余家	-11.8018
斡	-11.8018
槎枒	-11.8018
神禹	-11.8018
遺言	-11.8018
醵	-11.8018
仁也	-11.8019
一洗	-11.8019
壖	-11.8019
臭味	-11.8019
揷	-11.802
身爲	-11.802
四載	-11.802
娣	-11.8021
孟春	-11.8021
孺人之	-11.8021
不可易	-11.8021
糠	-11.8021
佻	-11.8022
金盤	-11.8024
千章	-11.8024
可數	-11.8024
假令	-11.8026
僮僕	-11.8026
膚寸	-11.8027
圖即用其韻	-11.8027
重刻	-11.8027
之右	-11.8027
兩端	-11.8028
陳廷敬	-11.8029
始自	-11.8029
紫氣	-11.803
落英	-11.8031
䝉恩	-11.8031
久已	-11.8031
治經	-11.8033
將使	-11.8034
捐納	-11.8034
泊舟	-11.8035
舊業	-11.8035
易為	-11.8036
隄防	-11.8036
長堤	-11.8036
身名	-11.8039
所造	-11.8039
題金廷標	-11.8039
自負	-11.8039
嘉䕃	-11.804
何則	-11.8041
據此	-11.8043
毫無	-11.8043
雒陽	-11.8043
泰伯	-11.8044
雅集	-11.8045
乃命	-11.8045
孝㢘	-11.8045
則在	-11.8046
南極	-11.8047
雲樹	-11.8047
之由	-11.8047
百世之	-11.8047
在其中	-11.8048
崇文	-11.8048
某年月日	-11.8049
臘雪	-11.8049
雷同	-11.8049
採蓮	-11.805
者不知	-11.805
細草	-11.8053
日期	-11.8053
討賊	-11.8054
端居	-11.8054
高山	-11.8054
庶民	-11.8054
不外	-11.8055
何等	-11.8055
方澤	-11.8056
天機	-11.8056
十萬石	-11.8057
墨池	-11.8058
林端	-11.806
亦名	-11.806
性靈	-11.8061
夜行	-11.8062
禮器	-11.8062
天中	-11.8062
致治	-11.8063
山鳥	-11.8063
未遂	-11.8064
不可謂	-11.8065
建康	-11.8066
西海	-11.8067
一遇	-11.8067
惟謹	-11.8071
方圓	-11.8071
滿院	-11.8072
深秋	-11.8073
為是	-11.8074
舉頭	-11.8074
從古	-11.8075
古北口	-11.8075
正德	-11.8075
金湯	-11.8076
何言	-11.8079
之曲	-11.8079
我思	-11.8081
之事而	-11.8081
譬諸	-11.8081
牧仲	-11.8081
重地	-11.8082
呉中	-11.8084
死後	-11.8084
變幻	-11.8086
内則	-11.8087
觀望	-11.8088
渭水	-11.8089
返照	-11.809
深淺	-11.809
皆從	-11.8093
耐可	-11.8094
嘉平	-11.8094
小橋	-11.8096
三十一年	-11.8096
探梅	-11.8097
鳥啼	-11.8097
屬車	-11.8097
提舉	-11.8097
碍	-11.8098
誰言	-11.8098
棨	-11.8099
詳加	-11.8099
七葉	-11.81
嘗聞	-11.81
視朝	-11.81
淸江	-11.8101
錡	-11.8101
貟	-11.8103
之文而	-11.8103
矻矻	-11.8104
顦顇	-11.8104
七分有餘	-11.8105
僣	-11.8105
霅	-11.8105
已知	-11.8105
韓詩	-11.8105
臠	-11.8106
婉孌	-11.8106
龍沙	-11.8106
水落	-11.8106
奐	-11.8106
惋	-11.8106
餬口	-11.8107
極矣	-11.8108
貝子	-11.8108
懼其	-11.8108
参差	-11.8109
剞劂	-11.8111
卽此	-11.8112
祈禱	-11.8112
死于	-11.8112
爲政	-11.8112
津梁	-11.8112
周秦	-11.8112
仍以	-11.8112
憑欄	-11.8113
發源	-11.8114
其一也	-11.8114
以副朕	-11.8115
投壺	-11.8115
錦瑟	-11.8115
雕漆	-11.8115
飛騰	-11.8116
見說	-11.8116
題辭	-11.8116
時作	-11.8117
耕作	-11.8117
考成	-11.8117
親故	-11.8117
一峰	-11.8117
蘇公	-11.8118
漁洋	-11.8118
北齊	-11.812
烽烟	-11.812
祕書	-11.8122
仰體	-11.8122
兵法	-11.8123
大夫士	-11.8125
舉於鄉	-11.8125
元時	-11.8126
㑹議	-11.8126
被灾	-11.8128
州知州	-11.8128
鐘磬	-11.8129
予言	-11.813
積習	-11.813
金焦	-11.8131
高臺	-11.8132
仁宗	-11.8132
十三經	-11.8133
全行	-11.8133
此物	-11.8134
荷香	-11.8134
哀公	-11.8135
生氣	-11.8136
萋萋	-11.8139
憲副	-11.8139
本院	-11.8139
抗疏	-11.8141
前席	-11.8143
各有所	-11.8144
中大夫	-11.8145
采石	-11.8148
古本	-11.8148
登眺	-11.8149
曽見	-11.815
於我	-11.815
石馬	-11.8151
作記	-11.8155
瞭	-11.8157
節儉	-11.8158
二里	-11.8159
勿以	-11.8159
喜見	-11.8159
一斗	-11.816
氷霜	-11.816
青溪	-11.816
招隱	-11.816
屏營	-11.8162
氣質	-11.8162
文王之	-11.8162
好在	-11.8163
本文	-11.8163
又豈	-11.8164
出世	-11.8165
加封	-11.8165
直到	-11.8165
情深	-11.8166
惟見	-11.8166
布政	-11.8167
星河	-11.8167
著于	-11.8168
異物	-11.8168
此畨	-11.8168
子婦	-11.8169
請予	-11.8169
題李	-11.817
筆法	-11.817
道府	-11.8172
中條	-11.8173
而去之	-11.8175
言事	-11.8175
黎元	-11.8176
要務	-11.8176
項王	-11.8177
嘉言	-11.8178
二十四年	-11.8178
幸逢	-11.8178
鄖	-11.8181
十餘萬	-11.8182
心目	-11.8183
子晉	-11.8184
風人	-11.8184
不審	-11.8185
不登	-11.8186
令我	-11.8186
豬	-11.8187
海州	-11.8187
痊	-11.8187
行藏	-11.8188
小序	-11.8189
琉球	-11.8189
纊	-11.8189
九夏	-11.8189
婪尾	-11.819
輻輳	-11.819
開口	-11.8191
故交	-11.8191
中允	-11.8191
諗	-11.8192
毎嵗	-11.8193
向背	-11.8193
糗	-11.8193
草野	-11.8194
蜩	-11.8195
各殊	-11.8195
何代	-11.8195
討源書屋	-11.8196
器械	-11.8198
近者	-11.8198
吟成	-11.8199
碧波	-11.8199
進宫	-11.82
崇朝	-11.82
犒	-11.8201
趺坐	-11.8202
鎮江	-11.8202
員外郞	-11.8202
碧峯	-11.8202
古禮	-11.8203
最盛	-11.8203
誦讀	-11.8204
西陲	-11.8204
也抑	-11.8205
谷林	-11.8206
藕花	-11.8207
易傳	-11.8212
三河	-11.8212
戲作	-11.8213
流年	-11.8213
衰老	-11.8214
論學	-11.8214
儒者之	-11.8214
闔門	-11.8215
感歎	-11.8216
其根	-11.8216
節母	-11.8216
漫言	-11.8217
無疑也	-11.8217
絶學	-11.8218
暑氣	-11.8219
寓齋	-11.8219
佐領	-11.822
望其	-11.822
収成	-11.8221
五十餘	-11.8221
四十二年	-11.8221
康熙三十六年	-11.8223
盖以	-11.8223
人道	-11.8224
澹蕩	-11.8224
前據	-11.8224
畫師	-11.8226
吳下	-11.8227
時晴	-11.8228
闗係	-11.8228
伏枕	-11.8229
旌表	-11.823
因念	-11.8231
雪夜	-11.8232
有才	-11.8234
民人	-11.8235
治水	-11.8235
一亭	-11.8235
燕雀	-11.8236
榆林	-11.8236
宣帝	-11.8237
已非	-11.824
報得雨	-11.8241
送别	-11.8241
下第	-11.8242
仍舊	-11.8242
衡陽	-11.8242
卷首	-11.8243
簡編	-11.8244
曉風	-11.8244
苟且	-11.8245
縣有	-11.8245
牀頭	-11.8246
乾惕	-11.8247
采蓮	-11.8247
葢有	-11.8247
穆公	-11.8248
祖妣	-11.8248
余謂	-11.8248
賢臣	-11.8248
雖在	-11.8249
口授	-11.825
甘州	-11.8252
皇祖御	-11.8252
等因	-11.8254
秀色	-11.8256
如鏡	-11.8258
湛露	-11.8259
眷佑	-11.8259
黄岡	-11.826
不知有	-11.826
然若	-11.8262
金仙	-11.8262
花光	-11.8262
各項	-11.8264
一醉	-11.8265
荳	-11.8265
拂水	-11.8266
血氣	-11.8266
敷陳	-11.8266
欽此	-11.8267
之域	-11.8268
之化	-11.8268
湫	-11.827
不費	-11.827
九歌	-11.8272
㶑	-11.8272
俳	-11.8272
去歲	-11.8273
六度	-11.8273
等縣	-11.8274
貿	-11.8275
嗅	-11.8275
時勢	-11.8275
可紀	-11.8275
白駒	-11.8276
有功於	-11.8277
山之陽	-11.8278
澮	-11.8278
瓊島	-11.8279
站	-11.828
駰	-11.8281
燕臺	-11.8281
雲影	-11.8281
傚	-11.8281
寧須	-11.8282
滑稽	-11.8283
翰林院庶吉士	-11.8284
昴	-11.8285
浦陽	-11.8285
新豐	-11.8285
杜老	-11.8286
渡海	-11.8286
地靈	-11.8286
攀龍	-11.8286
御史大夫	-11.8286
部覆	-11.8286
篇中	-11.829
境内	-11.8291
知遇	-11.8291
阮籍	-11.8293
窮年	-11.8293
梵宇	-11.8294
荒城	-11.8294
常雩	-11.8294
碧桃	-11.8294
為之序	-11.8295
句讀	-11.8296
故雖	-11.8296
厚齋	-11.8296
四照	-11.8297
耶抑	-11.8298
猿鶴	-11.8299
勉强	-11.8302
凡幾	-11.8302
上古	-11.8303
初心	-11.8304
五十八	-11.8304
伏念	-11.8304
亦能	-11.8304
漫溢	-11.8305
天孫	-11.8305
陽縣	-11.8305
乞假	-11.8307
遣興	-11.8307
何湏	-11.8308
訓練	-11.8308
建昌	-11.831
頭陀	-11.831
謂非	-11.831
契丹	-11.8311
合乎	-11.8311
勞人	-11.8312
國學	-11.8313
似乎	-11.8313
萬萬	-11.8314
積貯	-11.8314
才力	-11.8316
竟陵	-11.8316
雨歇	-11.8316
皆稱	-11.8317
輿地	-11.8318
諸峯	-11.8318
子羽	-11.8321
河伯	-11.8322
周詳	-11.8323
山青	-11.8325
髙郵	-11.8325
廢興	-11.8325
者輒	-11.8325
分巡	-11.8325
三層	-11.8326
實用	-11.8326
滔	-11.8326
指㸃	-11.8327
懌	-11.8327
嚴加	-11.8327
青郊	-11.8327
史遷	-11.8328
其七	-11.8329
前史	-11.8329
親友	-11.8331
香林	-11.8332
登第	-11.8334
誤矣	-11.8334
前溪	-11.8336
所著書	-11.8337
爰命	-11.8339
使天下	-11.8339
詩禮	-11.834
墨妙	-11.834
我獨	-11.8341
易州	-11.8341
予小子	-11.8342
恭惟	-11.8342
近在	-11.8342
三峰	-11.8342
援筆	-11.8343
兩行	-11.8343
憺	-11.8344
瀋	-11.8345
清興	-11.8347
天時	-11.8348
其狀	-11.8348
軍旅	-11.8357
十洲	-11.8357
郭氏	-11.8357
端溪	-11.8358
申明	-11.8358
在堂	-11.836
之所由	-11.8362
嚇	-11.8362
聖駕	-11.8362
頎	-11.8363
之中而	-11.8364
舖	-11.8364
憂勤	-11.8364
琥珀	-11.8364
煤	-11.8365
寧無	-11.8365
捕魚	-11.8365
巫山	-11.8366
匙	-11.8366
貞珉	-11.8368
片帆	-11.8368
即命	-11.8368
瀲	-11.837
精於	-11.8371
事狀	-11.8371
綈几	-11.8371
無閒	-11.8372
登陴	-11.8372
到來	-11.8372
黼黻	-11.8372
府州属	-11.8373
執法	-11.8373
適以	-11.8376
聲氣	-11.8376
之所爲	-11.8378
未可以	-11.8378
其業	-11.8379
逺道	-11.838
百城	-11.838
物華	-11.8381
三次	-11.8383
弇州	-11.8383
千五百	-11.8384
名教	-11.8384
外家	-11.8385
甚大	-11.8385
實力	-11.8386
樓口號	-11.8387
含毫	-11.8388
卷中	-11.8388
十有四	-11.8389
意為	-11.8389
仍復	-11.839
非常之	-11.839
指南	-11.8391
傅恒	-11.8393
常在	-11.8393
錯落	-11.8393
家廟	-11.8394
仍令	-11.8394
枝枝	-11.84
自任	-11.8404
負薪	-11.8404
地利	-11.8405
班荆	-11.8405
也盖	-11.8405
劉子	-11.8406
灌木	-11.8406
世父	-11.8407
示以	-11.8408
錦州	-11.8408
忘情	-11.8409
後之君子	-11.8409
列子	-11.8411
黃花	-11.8412
祖宗之	-11.8413
李唐	-11.8413
耆老	-11.8415
也况	-11.8417
見滕	-11.8418
西樓	-11.8418
獨自	-11.8418
或作	-11.8419
雖小	-11.8421
藝文	-11.8422
之室	-11.8424
仍用	-11.8424
劭	-11.8425
又按	-11.8425
順天府	-11.8425
所輯	-11.8425
更定	-11.8426
髙秋	-11.8427
到家	-11.8429
拒之	-11.8431
酒家	-11.8432
十指	-11.8432
力戰	-11.8432
黄塵	-11.8432
李子	-11.8433
所期	-11.8433
蘭州	-11.8433
荆山	-11.8435
觀燈	-11.8437
神龍	-11.8437
里許	-11.8438
别館	-11.8438
晩來	-11.8439
送之	-11.8443
襪	-11.8443
好是	-11.8444
而與之	-11.8446
在望	-11.8446
六義	-11.8446
秋思	-11.8447
文肅公	-11.8447
繾綣	-11.8447
維舟	-11.8447
而知其	-11.8448
風定	-11.8448
礼	-11.8448
東作	-11.8449
頳	-11.8449
畫意	-11.8449
篡	-11.8449
南郡	-11.8451
最重	-11.8451
渫	-11.8452
精靈	-11.8452
讋	-11.8453
熖	-11.8453
建置	-11.8453
餳	-11.8454
敢曰	-11.8454
節候	-11.8455
之賦	-11.8455
阿睦爾撒納	-11.8455
痕都斯坦	-11.8456
百九十	-11.8456
要領	-11.8456
窣	-11.8456
筴	-11.8457
家室	-11.8457
惴惴	-11.8458
奪之	-11.8458
子房	-11.8458
清舒山館	-11.8458
同作	-11.8458
紿	-11.8459
顚倒	-11.8459
沐浴	-11.8461
懐柔	-11.8462
含經堂	-11.8462
傳注	-11.8462
觔	-11.8463
惜别	-11.8464
亭林	-11.8464
二水	-11.8465
少小	-11.8465
慚愧	-11.8465
亡矣	-11.8466
新婦	-11.8466
不絕	-11.8467
糧餉	-11.8467
劉峩	-11.8469
百千	-11.8472
之信	-11.8472
後魏	-11.8473
賞賚	-11.8474
貫穿	-11.8475
多聞	-11.8475
聖門	-11.8475
一言以	-11.8476
翹首	-11.8479
稽察	-11.848
一榻	-11.8481
承乏	-11.8481
外戚	-11.8481
身先	-11.8482
神鬼	-11.8483
物物	-11.8483
幽谷	-11.8484
對面	-11.8485
日斜	-11.8485
塔銘	-11.8485
宋公	-11.8485
自處	-11.8485
固不可	-11.8488
達人	-11.8488
閒人	-11.8488
如龍	-11.8488
維艱	-11.8491
紫禁	-11.8492
復起	-11.8493
百道	-11.8493
村村	-11.8495
歉收	-11.8495
羲和	-11.8496
不赴	-11.8497
至善	-11.8497
爲宗	-11.8497
如畫	-11.8498
不亡	-11.8498
大德	-11.8499
明太祖	-11.8499
明滅	-11.85
子産	-11.8501
百口	-11.8501
先事	-11.8503
養性	-11.8504
精廬	-11.8504
惟我	-11.8504
真定	-11.8506
乞休	-11.8507
楚王	-11.8509
濤聲	-11.8511
傳家	-11.8511
分手	-11.8512
大如	-11.8512
焉然	-11.8512
好句	-11.8515
才華	-11.8516
分司	-11.8517
不匱	-11.8518
乎今	-11.8518
正始	-11.8519
講官	-11.852
詩人之	-11.8522
其目	-11.8522
四十六年	-11.8522
相聞	-11.8523
萬戸	-11.8523
長林	-11.8524
竟何	-11.8525
守土	-11.8525
㡬暇	-11.8526
莫怪	-11.8527
滿堂	-11.8528
蒼水	-11.8529
奏對	-11.8529
聒	-11.8532
慈雲	-11.8532
並據	-11.8532
經始	-11.8533
然諾	-11.8533
凸	-11.8534
朞	-11.8535
滄江	-11.8536
文貞	-11.8536
鞅	-11.8536
棄置	-11.8536
日光	-11.8537
可忘	-11.8537
題張	-11.8537
焉爾	-11.8537
稱善	-11.8537
列女傳	-11.8538
朙	-11.854
至明	-11.854
柿	-11.854
忼慨	-11.854
恂	-11.854
筩	-11.8541
焜	-11.8541
雉堞	-11.8541
者久之	-11.8541
鈕	-11.8542
我愛	-11.8542
金粉	-11.8542
惘然	-11.8542
有罪	-11.8543
聖祖仁皇帝御製文第三集巻	-11.8543
塑	-11.8544
傖	-11.8544
汪君	-11.8544
元亮	-11.8545
彀	-11.8546
西北風	-11.8546
因悟	-11.8547
沾衣	-11.8547
目下	-11.8547
功利	-11.8547
雖是	-11.8548
涓涓	-11.8548
明徳	-11.8548
誰得	-11.8549
勿替	-11.855
揖讓	-11.855
萋	-11.855
嘗言	-11.855
潘岳	-11.8551
師承	-11.8551
率多	-11.8551
清且	-11.8551
天河	-11.8551
含笑	-11.8551
紅衣	-11.8552
以證	-11.8552
逆酋	-11.8553
政府	-11.8554
壁壘	-11.8555
仙源	-11.8555
下逮	-11.8557
書記	-11.8557
馮公	-11.8558
所幸	-11.8558
繞砌	-11.8559
不巳	-11.8559
非所以	-11.8559
之陋	-11.856
籌辦	-11.8561
書懐	-11.8563
雅宜	-11.8564
雨霽	-11.8564
按察	-11.8566
乾道	-11.8566
稿序	-11.8567
七十子	-11.8568
朕意	-11.8569
名蹟	-11.8569
何疑	-11.857
因名	-11.857
時和	-11.857
詩四首	-11.8572
䘮亂	-11.8573
分流	-11.8575
應節	-11.8576
重輕	-11.8577
金壇	-11.8577
海東	-11.8578
迎春	-11.8579
程朱之	-11.8579
開創	-11.8581
八千	-11.8582
題趙	-11.8582
對客	-11.8583
新句	-11.8583
曰昔	-11.8584
五十六	-11.8584
予惟	-11.8584
廣寧	-11.8585
兩兩	-11.8585
刑名	-11.8585
天寳	-11.8588
未若	-11.8588
文物	-11.8588
之器	-11.8589
中路	-11.859
䝉古語	-11.8591
民安	-11.8591
殘燈	-11.8593
夢醒	-11.8593
與爾	-11.8596
垠	-11.8596
告之曰	-11.8597
曉露	-11.8597
曽未	-11.8598
名位	-11.8599
奉慈	-11.86
睡起	-11.8601
入江	-11.8602
多暇	-11.8603
以是為	-11.8605
泰州	-11.8605
重開	-11.8605
隨行	-11.8607
中土	-11.8608
愛日	-11.8608
風格	-11.8609
神京	-11.8609
曾聞	-11.8609
典謨	-11.8609
意謂	-11.8609
大千	-11.8612
世變	-11.8613
黄龍	-11.8613
執友	-11.8613
聮句	-11.8614
盛年	-11.8615
晏然	-11.8616
花雨	-11.8619
亦足以	-11.8622
作傳	-11.8622
漢代	-11.8623
附會	-11.8623
寒雲	-11.8623
紛然	-11.8623
招撫	-11.8624
奉化	-11.8625
後昆	-11.8626
巫峽	-11.8628
瓦礫	-11.8628
察吏	-11.8629
嚬	-11.8629
張鵬翮	-11.8629
髙樹	-11.863
仝	-11.8631
嶄	-11.8631
愠	-11.8632
鸕鷀	-11.8632
永和	-11.8632
黽	-11.8632
洪澤湖	-11.8633
博山	-11.8633
遺命	-11.8634
自題	-11.8634
愛養	-11.8635
潼關	-11.8635
月三十日	-11.8636
籀	-11.8636
各路	-11.8636
乃能	-11.8638
諭大學士馬齊等	-11.8638
左都御史	-11.8638
高帝	-11.8639
賴有	-11.8639
不以為	-11.864
風帆	-11.864
臞	-11.864
情知	-11.8641
木棉	-11.8641
良夜	-11.8642
浹旬	-11.8643
􁇾	-11.8643
溫公	-11.8644
卜筮	-11.8644
地形	-11.8646
静寄	-11.8647
孔明	-11.8648
荒村	-11.8648
鷄鳴	-11.8648
囬首	-11.8648
知言	-11.8649
雲海	-11.8649
清夜	-11.865
所畫	-11.8651
来此	-11.8652
論世	-11.8652
清晨	-11.8653
殘夢	-11.8653
袁氏	-11.8654
西堂	-11.8656
繫之	-11.8656
法界	-11.8658
詞序	-11.8658
採買	-11.8659
麥色	-11.8659
希夷	-11.866
慈谿	-11.866
寧有	-11.8661
大帥	-11.8663
達者	-11.8663
芬芳	-11.8664
毛羽	-11.8664
聞聲	-11.8665
其誤	-11.8666
掃地	-11.8667
恰當	-11.8667
在官	-11.8668
不可行	-11.8669
帑金	-11.8669
康王	-11.867
嘗熟	-11.867
今天子	-11.8673
勒保	-11.8673
古文辭	-11.8674
璿璣	-11.8676
逆苗	-11.8678
諸勝	-11.8678
爲學	-11.8679
春華	-11.868
玉京	-11.8681
甚難	-11.8682
碧雞	-11.8682
設以	-11.8682
齊衰	-11.8683
瑶池	-11.8685
全活	-11.8686
之䇿	-11.8686
江表	-11.8687
漁人	-11.8687
形似	-11.8687
墨子	-11.8688
寢食	-11.8692
西林	-11.8692
叢桂	-11.8692
慮其	-11.8693
漢軍	-11.8694
無色	-11.8695
省城於	-11.8695
東家	-11.8695
不修	-11.8697
伐木	-11.8698
霽色	-11.8698
吉日	-11.8701
嵗暮	-11.8701
吳王	-11.8703
淪落	-11.8703
萬八千	-11.8703
者尤	-11.8704
原官	-11.8704
叔夜	-11.8704
長揖	-11.8705
不允	-11.8706
泣血	-11.8708
之說也	-11.8708
天都	-11.8708
賔主	-11.8709
聖德	-11.8711
臺下	-11.8711
此之謂	-11.8711
虚空	-11.8713
秋毫	-11.8713
名利	-11.8714
未明	-11.8714
雲錦	-11.8714
統計	-11.8716
風和	-11.8716
隨之	-11.8717
畤	-11.8717
之意而	-11.8717
鮓	-11.8717
登封	-11.8717
卽爲	-11.8718
熨	-11.8719
通計	-11.8721
醺	-11.8722
第九	-11.8722
獰	-11.8722
求仙	-11.8722
遹	-11.8723
顓	-11.8723
殢	-11.8723
婀娜	-11.8723
李奉翰	-11.8724
楗	-11.8724
荑	-11.8724
戱	-11.8725
狃	-11.8725
恫	-11.8725
七子	-11.8725
閴	-11.8725
籤	-11.8726
鞾	-11.8726
將安	-11.8726
拳拳	-11.8726
耄耋	-11.8727
暢春	-11.8727
撇	-11.8727
逺人	-11.8727
徯	-11.8728
扵斯	-11.8728
馳騁	-11.8728
毛甡	-11.8728
己卯	-11.8728
有象	-11.8728
春澤	-11.873
摳衣	-11.873
順流	-11.8732
世外	-11.8732
慶元	-11.8733
民依	-11.8734
紛如	-11.8735
筆力	-11.8737
耦耕	-11.8737
平江	-11.8739
聯句	-11.8739
長庚	-11.874
静觀	-11.874
九齡	-11.874
聚訟	-11.8741
五代史	-11.8741
中稔	-11.8742
號令	-11.8744
笠澤	-11.8745
生靈	-11.8745
序云	-11.8746
自珍	-11.8746
屢見	-11.8747
昭昭	-11.8748
莫教	-11.8748
之半	-11.8748
夏四月	-11.8748
城内	-11.8748
陶潛	-11.875
露氣	-11.875
忽驚	-11.8752
縣學	-11.8752
麰	-11.8752
凌晨	-11.8752
馬鬛	-11.8753
四十三年	-11.8753
靈均	-11.8754
為文章	-11.8755
原委	-11.8756
春衣	-11.8757
邪正	-11.8758
遂令	-11.8759
得毋	-11.8759
别來	-11.876
朝霞	-11.8761
年十七	-11.8764
皇仁	-11.8764
其類	-11.8765
每至	-11.8765
其室	-11.8766
偶來	-11.8768
可卜	-11.877
萬泉	-11.877
南康	-11.8771
峯頂	-11.8772
閒愁	-11.8772
百倍	-11.8772
詳矣	-11.8773
四柱	-11.8775
子建	-11.8776
嬰兒	-11.8777
岐路	-11.8778
利弊	-11.8779
薰風	-11.878
踰月	-11.8782
諭以	-11.8783
㸔花	-11.8784
霑膏	-11.8784
此邦	-11.8786
長孫	-11.8789
金甌	-11.8789
求諸	-11.879
語及	-11.8792
猶堪	-11.8793
馳赴	-11.8794
而未嘗	-11.8794
責成	-11.8794
不越	-11.8795
不才	-11.8796
祠宇	-11.8797
頻仍	-11.8798
年光	-11.8798
句容	-11.8798
已丑	-11.8798
矣顧	-11.8798
客到	-11.8799
不敷	-11.88
畫壁	-11.88
即看	-11.8801
聖製	-11.8804
再四	-11.8804
世情	-11.8805
茉莉	-11.8805
徭	-11.8807
温室	-11.8807
淳風	-11.8808
黎城	-11.8808
蝉	-11.881
之言而	-11.881
秫	-11.881
日侍	-11.8811
餔	-11.8811
拿	-11.8812
濼	-11.8812
橘柚	-11.8813
溘	-11.8814
婚姻	-11.8814
埏	-11.8814
耉	-11.8814
凡六	-11.8815
善後	-11.8815
嵗寒	-11.8815
䆳	-11.8815
天開	-11.8816
鴟夷	-11.8816
府事	-11.8816
敢懈	-11.8816
恚	-11.8817
窀穸	-11.8817
蕩漾	-11.8817
磅礴	-11.8818
帔	-11.8818
聖祖仁皇帝御製文第二集巻	-11.8818
吮	-11.8819
艫	-11.8819
二集	-11.8821
老氏	-11.8822
攬轡	-11.8822
牓	-11.8822
文房	-11.8822
蓮華	-11.8823
▁恩	-11.8823
二氏	-11.8823
懴	-11.8825
臣下	-11.8825
合圍	-11.8825
雨花	-11.8825
立秋日	-11.8825
鼎元	-11.8826
兹山	-11.8826
以疾	-11.8828
悼亡	-11.8829
始覺	-11.883
唯有	-11.8831
迴廊	-11.8831
釣臺	-11.8833
長橋	-11.8835
祗有	-11.8835
僖公	-11.8835
一介	-11.8836
鄒魯	-11.8837
難尋	-11.8838
普天	-11.8838
解嘲	-11.8839
改觀	-11.884
倚檻	-11.8841
傳㫖	-11.8841
紫芝	-11.8843
轉眼	-11.8843
四巻	-11.8843
宋氏	-11.8844
蹕路	-11.8844
大火	-11.8846
兵事	-11.8846
韜光	-11.8847
憑誰	-11.8848
諸郡	-11.8848
復古	-11.8851
乗勝	-11.8851
索倫	-11.8852
無勞	-11.8852
又引	-11.8854
岷山	-11.8854
紛披	-11.8854
誠以	-11.8854
快霽	-11.8856
髙帝	-11.8856
畿甸	-11.8856
得全	-11.8856
遺集	-11.8857
縣城	-11.8857
諭禮部	-11.8857
鯉魚	-11.8857
成詠	-11.886
軼事	-11.886
山東廵撫	-11.8862
呉門	-11.8862
易名	-11.8863
士習	-11.8865
乂安	-11.8865
手持	-11.8867
牛衣	-11.8867
臨行	-11.8868
何来	-11.8869
山半	-11.8871
平疇	-11.8872
盈虚	-11.8872
澄波	-11.8873
恩深	-11.8874
矣昔	-11.8874
更衣	-11.8875
逸民	-11.8877
可樂	-11.8877
文淵	-11.8878
有限	-11.8878
勤王	-11.888
汪子	-11.8881
所推	-11.8881
此實	-11.8884
總管	-11.8884
安足	-11.8885
胡爲	-11.8885
止此	-11.8885
緑野	-11.8887
未甞	-11.8887
顧我	-11.8888
浮家	-11.8888
余余	-11.8889
九老	-11.889
水態	-11.889
我皇考	-11.8893
觀書	-11.8894
繁露	-11.8897
六行	-11.8897
龍象	-11.8897
方塘	-11.8901
木落	-11.8901
詠歌	-11.8902
小小	-11.8902
抃	-11.8903
一案	-11.8904
獨樂	-11.8906
以代	-11.8906
御殿	-11.8906
矮	-11.8906
但使	-11.8906
傳記	-11.8906
某月日	-11.8906
壟	-11.8907
承光殿	-11.8907
不宣	-11.8907
戡	-11.8907
松枝	-11.8908
從弟	-11.8908
琅琅	-11.8909
蝟	-11.891
焉今	-11.891
尺餘	-11.8911
喑	-11.8912
郅	-11.8912
所製	-11.8913
如右	-11.8913
忖	-11.8913
枯槁	-11.8913
自命	-11.8914
每逢	-11.8914
南至	-11.8915
熊羆	-11.8915
若論	-11.8915
邱壑	-11.8915
空齋	-11.8915
沿河	-11.8916
鳥鳴	-11.8916
飄泊	-11.8917
數千人	-11.8917
腐儒	-11.8918
行路難	-11.8918
潁川	-11.892
亭下	-11.8921
公旣	-11.8921
百二十	-11.8922
不停	-11.8923
染翰	-11.8924
可待	-11.8925
重見	-11.8925
荆楚	-11.8926
前行	-11.8926
律吕	-11.8926
相約	-11.8926
何辭	-11.8927
證明	-11.893
至德	-11.8931
作亂	-11.8931
始出	-11.8932
墳墓	-11.8932
類此	-11.8932
臺省	-11.8933
厚薄	-11.8933
書局	-11.8935
其制	-11.8935
太液池	-11.8935
祭田	-11.8936
專以	-11.8937
小心	-11.8937
詮次	-11.8937
未有如	-11.8938
講義	-11.8942
所紀	-11.8942
心折	-11.8943
無一事	-11.8943
無欲	-11.8943
行且	-11.8944
並命	-11.8946
待之	-11.8949
殿前	-11.8949
翠竹	-11.8951
徽宗	-11.8952
斯亦	-11.8952
初九	-11.8953
親朋	-11.8953
色相	-11.8953
不常	-11.8954
民欠	-11.8955
學博	-11.8957
矣然則	-11.8958
丈餘	-11.8959
不任	-11.896
麥隴	-11.896
舟人	-11.8961
落魄	-11.8962
卿雲	-11.8964
僧房	-11.8964
龍文	-11.8969
焉得	-11.897
古制	-11.8972
雨絲	-11.8972
高門	-11.8972
不法	-11.8974
分校	-11.8976
萬金	-11.8976
四鄰	-11.8977
實爲	-11.8977
不繫	-11.8978
何得	-11.8978
㑹合	-11.8979
恭奉	-11.8981
去路	-11.8982
晨光	-11.8983
古香	-11.8983
靖康	-11.8986
瑞雪	-11.8986
賢士大夫	-11.8987
鄙人	-11.8988
聞說	-11.8988
崛	-11.8989
廟祀	-11.8989
鉅公	-11.899
死節	-11.8991
明末	-11.8991
題字	-11.8993
未幾而	-11.8994
三友	-11.8994
罾	-11.8994
趙公	-11.8994
雕龍	-11.8996
薜荔	-11.8996
脰	-11.8996
塚	-11.8997
哩	-11.8997
之路	-11.8998
亭畔	-11.8998
診	-11.8998
綠陰	-11.8999
謂我	-11.8999
婣	-11.8999
門第	-11.8999
空餘	-11.9
兒子	-11.9
怦怦	-11.9
堊	-11.9
瘡	-11.9
奏銷	-11.9
苫	-11.9
名宦	-11.9001
洶洶	-11.9001
能辨	-11.9001
曖	-11.9001
集傳	-11.9002
甚明	-11.9002
度曲	-11.9002
𣪚	-11.9002
疑義	-11.9002
佺	-11.9003
滎陽	-11.9003
準噶爾	-11.9004
殲	-11.9004
初秋	-11.9005
埸	-11.9005
凟	-11.9006
誰其	-11.9007
五十餘年	-11.9008
錢陳羣	-11.9009
水患	-11.9009
簣	-11.9009
入林	-11.9011
廷議	-11.9011
腹心	-11.9012
東江	-11.9012
學宮	-11.9013
修復	-11.9013
仙館	-11.9013
長隄	-11.9013
臨淮	-11.9013
皇州	-11.9014
眼看	-11.9014
一番	-11.9015
舊逰	-11.9015
昔我	-11.9016
國是	-11.9018
武定	-11.9018
為宗	-11.9018
大戴禮	-11.9018
望月	-11.9018
季札	-11.9019
河南巡撫	-11.9019
庠序	-11.902
董誥	-11.9022
方壺	-11.9024
橋上	-11.9024
改為	-11.9025
厚幸	-11.9025
逃竄	-11.9026
舉趾	-11.9026
三伏	-11.9026
時代	-11.903
廊廟	-11.903
加餐	-11.903
以申	-11.903
水草	-11.9031
兼有	-11.9031
貫休	-11.9032
首章	-11.9033
積弊	-11.9034
七律	-11.9038
種麥	-11.9038
見祖	-11.904
烏什	-11.9041
羅列	-11.9044
三疊	-11.9045
直前	-11.9046
預備	-11.9046
王大臣	-11.9046
漢武帝	-11.9046
未嫁	-11.9047
而上之	-11.9049
寶應	-11.905
尤難	-11.905
兩京	-11.9052
間道	-11.9052
勿使	-11.9053
斗柄	-11.9055
儒家	-11.9055
種植	-11.9056
留滯	-11.9056
使民	-11.9056
阻風	-11.9056
起程	-11.906
沭	-11.906
終難	-11.9061
甚衆	-11.9062
一絲	-11.9062
宛如	-11.9062
遇有	-11.9064
扶持	-11.9065
古訓	-11.9066
揆之	-11.9067
漢水	-11.9069
誠恐	-11.9069
一邑	-11.907
留得	-11.9071
上谷	-11.9073
太過	-11.9073
以副	-11.9075
未休	-11.9078
碧樹	-11.9078
自給	-11.9078
噩	-11.9078
見素	-11.908
尊親	-11.908
放鶴	-11.9081
峨	-11.9083
春事	-11.9084
黷	-11.9085
念我	-11.9085
甲科	-11.9085
出力	-11.9086
望逺	-11.9086
比于	-11.9086
淞	-11.9088
未改	-11.9089
二南	-11.909
闗河	-11.909
切已	-11.909
圩	-11.9091
珍珠	-11.9092
未亡	-11.9092
軺	-11.9092
尺牘	-11.9093
武臣	-11.9094
三條	-11.9094
茜	-11.9095
諭大學士勒徳洪明珠	-11.9096
䍐	-11.9096
瀼	-11.9096
恁	-11.9096
不患	-11.9097
籓	-11.9097
卬	-11.9097
不渝	-11.9097
㮄	-11.9098
散館	-11.9098
芳華	-11.9098
約有	-11.9098
未收	-11.9099
磷	-11.9099
䂓	-11.91
弃	-11.91
􁄭	-11.91
蕭森	-11.91
家國	-11.91
昊貺	-11.9101
低徊	-11.9101
次適	-11.9101
相映	-11.9101
帆檣	-11.9102
卄	-11.9102
持此	-11.9102
轉輸	-11.9103
鳴珂	-11.9103
駐此	-11.9105
而後可	-11.9105
炊烟	-11.9106
吾謂	-11.9106
錢謙益	-11.9106
明發	-11.9107
犬吠	-11.9107
邸舍	-11.9108
者悉	-11.9109
黄鶴	-11.9109
問夜	-11.9109
萬仞	-11.911
十嵗	-11.911
回鑾	-11.911
潺	-11.911
遮莫	-11.9111
什襲	-11.9112
卜葬	-11.9112
近聞	-11.9113
几筵	-11.9114
唱酬	-11.9116
聖經	-11.9116
更覺	-11.9117
普被	-11.9118
暑雨	-11.9119
萬四千	-11.9121
淳于	-11.9121
春酒	-11.9124
振旅	-11.9126
曙色	-11.9127
而不及	-11.9128
冀州	-11.9128
垂簾	-11.9129
聖慈	-11.9129
無忌	-11.913
繼娶	-11.9131
一角	-11.9132
象數	-11.9132
翠屏	-11.9132
維新	-11.9133
幾回	-11.9134
文肅	-11.9134
松石	-11.9136
愚謂	-11.9136
力不能	-11.9136
薄命	-11.9137
呉江	-11.9137
大明	-11.9137
彌勒	-11.914
齊豫	-11.914
開闢	-11.9143
塞垣	-11.9145
新亭	-11.9145
明亮等	-11.9145
髙卧	-11.9147
于焉	-11.9148
良朋	-11.9148
永久	-11.9149
賜金	-11.915
天目	-11.9151
有用之	-11.9152
也其後	-11.9152
明禋	-11.9152
留意	-11.9153
不服	-11.9154
麥秀	-11.9154
檻外	-11.9157
攜手	-11.9159
卧病	-11.9159
可攷	-11.9159
韓非	-11.916
相訪	-11.916
建武	-11.916
敢辭	-11.9161
璣賦	-11.9162
揺落	-11.9162
寸許	-11.9168
正變	-11.9168
之候	-11.9168
黄氏	-11.9169
最上	-11.9169
二月十	-11.9169
道統	-11.9169
共事	-11.917
節後	-11.917
不向	-11.9171
凄然	-11.9171
但得	-11.9171
横江	-11.9172
稱壽	-11.9173
正月初	-11.9174
理宗	-11.9174
設色	-11.9175
橋頭	-11.9175
蕭閒	-11.9175
二千餘	-11.9175
而論之	-11.9178
累朝	-11.9178
遺愛	-11.9178
三十六年	-11.9179
陳留	-11.918
善事	-11.918
羅衣	-11.9181
夜夢	-11.9181
之獄	-11.9181
燕齊	-11.9182
塩	-11.9182
菖蒲	-11.9182
不設	-11.9183
四門	-11.9184
㽔	-11.9184
吾儒	-11.9184
博雅	-11.9184
顯然	-11.9184
居多	-11.9184
可恃	-11.9184
殻	-11.9185
洞中	-11.9185
知否	-11.9185
鰕	-11.9187
萬峰	-11.9187
南雷	-11.9188
菡萏	-11.9188
旃檀	-11.9188
濊	-11.9188
㝠㝠	-11.9189
翠雲	-11.9189
瑞應	-11.919
茱萸	-11.919
同舟	-11.9191
菟	-11.9192
猩	-11.9192
喧豗	-11.9192
兹因	-11.9192
灔	-11.9192
鼂	-11.9193
簋	-11.9193
忠毅公	-11.9193
秋景	-11.9193
庳	-11.9194
秋七月	-11.9194
淒涼	-11.9195
捲簾	-11.9196
史書	-11.9196
䌫	-11.9196
遁去	-11.9197
崎嶇	-11.9197
廷尉	-11.9197
為諸生	-11.9197
悠揚	-11.9197
二君	-11.9198
太平之	-11.9198
年十二	-11.9199
整飭	-11.9199
缷	-11.9199
猴	-11.9199
濫觴	-11.92
千騎	-11.92
倍加	-11.92
觀海	-11.92
昔有	-11.9202
水榭	-11.9202
東西南北	-11.9203
羣言	-11.9203
題鄒一桂	-11.9205
誅茅	-11.9206
奎章	-11.9206
又恐	-11.9207
通顯	-11.9207
案牘	-11.9207
文治	-11.921
紅雲	-11.921
無俗	-11.9211
承謨	-11.9211
穿穴	-11.9213
陽氣	-11.9214
便教	-11.9217
先生之學	-11.9217
歌詠	-11.9218
展賑	-11.9219
或以爲	-11.9219
封爵	-11.922
摇落	-11.922
春郊	-11.9223
晉宋	-11.9223
重到	-11.9223
龍池	-11.9224
東注	-11.9225
自奮	-11.9227
輕風	-11.9228
最古	-11.9228
照影	-11.923
汾陽	-11.9231
西去	-11.9232
瞬息	-11.9232
百計	-11.9233
樂毅	-11.9233
盛漲	-11.9236
嶺上	-11.9236
許渾	-11.9237
星星	-11.9237
達旦	-11.9237
世臣	-11.9237
挑燈	-11.9237
徐陵	-11.9238
花外	-11.9239
信然	-11.9239
之名而	-11.924
大亂	-11.924
華表	-11.9241
冬十月	-11.9242
第八	-11.9242
作霖	-11.9243
往時	-11.9244
飄蓬	-11.9245
肅州	-11.9245
飽食	-11.9247
彈丸	-11.9247
數子	-11.9248
便道	-11.925
平陵	-11.9252
御舟	-11.9253
講明	-11.9254
裔孫	-11.9254
題跋	-11.9255
廬舍	-11.9256
湛然	-11.9257
火器	-11.9258
瞿然	-11.9265
泣曰	-11.9265
浩歌	-11.9265
過橋	-11.9265
則不然	-11.9265
靖節	-11.9266
大宗伯	-11.9268
蘅	-11.9271
愛戴	-11.9272
萬全	-11.9275
荆溪	-11.9275
翠色	-11.9275
自娛	-11.9276
有暇	-11.9276
東晉	-11.9277
蒲州	-11.9278
川省	-11.9278
烟光	-11.9279
入神	-11.928
釃	-11.928
甲長	-11.928
烱	-11.9281
虯	-11.9281
務使	-11.9283
膏肓	-11.9283
顙	-11.9284
翰林院檢討	-11.9285
槊	-11.9285
僨	-11.9285
畛	-11.9285
㩁	-11.9285
𥪡	-11.9286
𬞞	-11.9286
豈在	-11.9287
是役也	-11.9287
不羣	-11.9287
瑋	-11.9288
寒色	-11.9288
市上	-11.9288
奚啻	-11.9289
度嶺	-11.9289
枌榆	-11.9289
織錦	-11.9289
四十一	-11.9289
霤	-11.929
自以爲	-11.929
沉淪	-11.929
樷	-11.9291
薄寒	-11.9292
何裕城	-11.9292
揑	-11.9292
哆	-11.9292
克復	-11.9292
叉	-11.9293
給與	-11.9293
文津閣	-11.9293
醮	-11.9294
淳化	-11.9295
縈紆	-11.9296
雨暘時若	-11.9296
异	-11.9296
相憐	-11.9296
見璿	-11.9298
不盈	-11.9298
宣力	-11.9299
徽州	-11.93
調度	-11.93
佳辰	-11.9303
僅以	-11.9303
鉛華	-11.9304
他如	-11.9304
陕西	-11.9304
酒樓	-11.9305
通侯	-11.9307
委巷	-11.9307
駕言	-11.9307
斯道	-11.9307
[...]
