<unk>	0
<s>	0
</s>	0
也	-3.80855
之	-4.07102
而	-4.17221
/	-4.32943
者	-4.53283
以	-4.55926
則	-4.64403
為	-4.76008
)(	-4.92372
)	-4.98709
(	-4.98944
有	-5.06193
故	-5.06999
其	-5.1324
曰	-5.42815
言	-5.45185
不	-5.47764
是	-5.48329
矣	-5.5965
於	-5.64494
此	-5.73314
上	-5.73916
一	-5.85438
與	-5.86218
易	-5.89585
皆	-5.9027
非	-5.92706
于	-5.96397
自	-5.97409
如	-5.99803
謂	-6.01935
二	-6.02066
象	-6.02119
三	-6.02558
亦	-6.04418
人	-6.05026
乎	-6.06147
然	-6.0718
下	-6.08663
得	-6.09786
四	-6.1262
在	-6.12685
五	-6.13502
无	-6.14722
至	-6.19567
○	-6.19865
當	-6.24236
陽	-6.25729
又	-6.27199
中	-6.27242
故曰	-6.31067
▁	-6.31073
之象	-6.32787
大	-6.32944
明	-6.36566
乃	-6.38053
用	-6.39019
雖	-6.3979
即	-6.3983
正	-6.39873
者也	-6.40478
隂	-6.41948
處	-6.43043
所以	-6.4319
必	-6.43896
初	-6.44067
乾	-6.46472
能	-6.47342
已	-6.47558
坤	-6.47632
若	-6.52158
見	-6.5336
所	-6.53557
卦	-6.5431
行	-6.57234
無	-6.58385
事	-6.63365
君子	-6.63732
時	-6.64453
説	-6.64739
義	-6.65233
道	-6.65265
天	-6.65678
復	-6.65779
居	-6.66607
本	-6.66619
合	-6.67816
作	-6.6863
可	-6.69382
云	-6.69409
字	-6.69908
成	-6.71683
知	-6.72386
說	-6.72538
離	-6.73258
從	-6.74283
同	-6.74285
聖人	-6.74407
變	-6.75856
之義	-6.76123
物	-6.76775
反	-6.78284
夫	-6.78964
焉	-6.80292
剛	-6.81406
動	-6.82404
所謂	-6.82988
既	-6.84406
生	-6.85703
震	-6.87102
爲	-6.87682
惟	-6.87887
心	-6.88767
之道	-6.893
主	-6.89814
坎	-6.90033
猶	-6.91382
柔	-6.92983
方	-6.93524
或	-6.94456
耳	-6.95043
終	-6.95567
六	-6.96457
止	-6.96521
未	-6.96687
體	-6.9722
出	-6.97379
巽	-6.97934
取	-6.98455
不能	-6.98595
不可	-6.98823
/)	-6.99449
位	-6.99907
始	-7.00092
觀	-7.00255
欲	-7.00605
來	-7.02673
子	-7.0416
爻	-7.05974
吉	-7.05984
外	-7.0628
九	-7.08324
相	-7.08694
應	-7.10001
益	-7.10432
何	-7.10701
水	-7.11167
數	-7.11261
日	-7.11308
傳	-7.11504
分	-7.11803
進	-7.12095
象曰	-7.12131
通	-7.12171
小人	-7.12264
君	-7.12712
後	-7.12813
而已	-7.13107
文	-7.13439
地	-7.13609
而不	-7.1393
艮	-7.14554
徳	-7.16508
過	-7.17889
去	-7.18411
順	-7.18572
小	-7.20005
之時	-7.20067
實	-7.20645
解	-7.20983
哉	-7.21029
今	-7.21549
極	-7.2177
天下	-7.22984
先	-7.23663
九五	-7.24395
如此	-7.24762
民	-7.25155
天地	-7.25485
兩	-7.25738
以為	-7.26724
盡	-7.27434
隨	-7.27891
凡	-7.28182
内	-7.28272
蓋	-7.28467
且	-7.28489
意	-7.29028
王	-7.29607
固	-7.29844
求	-7.30376
利	-7.31472
善	-7.31516
因	-7.31884
亨	-7.32365
多	-7.3303
九二	-7.33203
節	-7.34051
難	-7.36595
宜	-7.3715
隂陽	-7.37242
遇	-7.37512
貞	-7.37692
凶	-7.38024
將	-7.38395
比	-7.39278
常	-7.39326
理	-7.39687
使	-7.39921
入	-7.40103
乾坤	-7.41266
氣	-7.41917
六五	-7.42275
上九	-7.43028
可以	-7.43643
也故	-7.44067
否	-7.45092
及	-7.45655
葢	-7.45848
九三	-7.46001
損	-7.47124
六二	-7.47519
安	-7.48111
往	-7.49518
獨	-7.50086
上六	-7.50198
八	-7.50556
而後	-7.50582
志	-7.5063
火	-7.50984
九四	-7.51105
无咎	-7.51179
德	-7.51583
之意	-7.52751
由	-7.52931
元	-7.52936
重	-7.53112
臣	-7.53213
盖	-7.53329
信	-7.5372
升	-7.5377
是以	-7.53796
身	-7.53832
我	-7.53847
失	-7.5522
長	-7.55274
履	-7.55501
本義	-7.56117
尚	-7.56441
交	-7.56514
陰	-7.56849
指	-7.57094
六三	-7.57375
但	-7.5804
困	-7.58193
治	-7.58265
稱	-7.58914
萬物	-7.58925
立	-7.59468
禮	-7.60227
泰	-7.60377
之象也	-7.60509
法	-7.60975
險	-7.61034
革	-7.61164
辭	-7.61398
初九	-7.62756
神	-7.62843
前	-7.63015
便	-7.63628
名	-7.64646
師	-7.66197
木	-7.6639
注	-7.6669
井	-7.68399
命	-7.684
六四	-7.68726
上下	-7.6971
釋	-7.69803
山	-7.70021
論	-7.70037
性	-7.70083
問	-7.70087
是也	-7.70243
謙	-7.70405
臨	-7.71061
經	-7.7115
謂之	-7.71266
足	-7.71318
訟	-7.71534
濟	-7.7171
定	-7.72282
衆	-7.7243
句	-7.72461
澤	-7.73056
世	-7.73223
風	-7.73475
歸	-7.73604
又曰	-7.73624
恒	-7.73917
逺	-7.7398
直	-7.74341
之事	-7.74591
占	-7.75718
言之	-7.7588
虚	-7.76766
近	-7.77045
疑	-7.77293
舉	-7.7761
深	-7.78166
不知	-7.78212
書	-7.78226
之中	-7.78319
各	-7.79212
公	-7.79501
亂	-7.79632
就	-7.79922
咸	-7.80563
平	-7.8063
漸	-7.80824
起	-7.81268
畜	-7.81459
全	-7.81956
初六	-7.82103
鼎	-7.82358
遯	-7.82417
女	-7.82447
惡	-7.82621
文王	-7.82645
彖	-7.82971
至於	-7.83002
化	-7.83743
豫	-7.83972
家	-7.83978
唯	-7.84498
之理	-7.84549
蒙	-7.84649
和	-7.85009
豈	-7.85586
養	-7.8574
人之	-7.86017
不得	-7.86227
周	-7.86258
七	-7.8628
致	-7.86338
發	-7.87071
仁	-7.87813
受	-7.87827
遂	-7.87857
感	-7.88193
窮	-7.88444
國	-7.8867
故為	-7.89147
兼	-7.89417
萃	-7.90399
剥	-7.90827
兊	-7.91576
屯	-7.91676
危	-7.91999
似	-7.92243
盛	-7.92601
六爻	-7.92886
樂	-7.9291
吾	-7.93344
兌	-7.93634
守	-7.93756
俱	-7.94269
彼	-7.94467
圖	-7.95057
孚	-7.95148
己	-7.95194
情	-7.95915
在上	-7.96715
渙	-7.96869
異	-7.9688
首	-7.97158
也然	-7.97252
一陽	-7.97371
之所	-7.97464
八卦	-7.97722
然後	-7.98026
誠	-7.98301
著	-7.98345
力	-7.98408
晉	-7.98691
斯	-7.98705
少	-7.99237
需	-7.99257
形	-7.99656
睽	-7.99895
思	-7.99923
據	-7.99947
對	-8.00306
貴	-8.00607
蠱	-8.00633
制	-8.00877
土	-8.00997
剛柔	-8.01015
旅	-8.01073
聚	-8.02157
備	-8.02211
承	-8.02311
天下之	-8.0252
學	-8.02551
夬	-8.0258
退	-8.02666
月	-8.03218
髙	-8.03744
要	-8.03771
諸	-8.03906
悔	-8.04973
畫	-8.05297
而為	-8.05339
只是	-8.05397
孔子	-8.0557
賁	-8.0562
馬	-8.06449
豐	-8.06545
功	-8.06641
甚	-8.0682
積	-8.08348
食	-8.08373
在下	-8.08375
十	-8.08464
次	-8.08564
害	-8.0899
而言	-8.09016
㢲	-8.09089
更	-8.09704
尊	-8.0983
无妄	-8.10015
之間	-8.10233
只	-8.10436
他	-8.10467
▁(	-8.10539
故有	-8.11189
存	-8.11239
敬	-8.11465
便是	-8.11595
則為	-8.11621
施	-8.11718
音	-8.12171
不同	-8.1251
原	-8.12963
爾	-8.13385
壯	-8.13671
之極	-8.13681
蹇	-8.14902
其所	-8.1505
雷	-8.1522
大過	-8.15241
切	-8.15273
了	-8.15419
好	-8.15463
屬	-8.15627
兑	-8.15992
古	-8.16088
戒	-8.16263
之心	-8.16462
勝	-8.16541
決	-8.16846
賢	-8.17231
必有	-8.17294
引	-8.17372
中正	-8.1785
之道也	-8.17865
動而	-8.18199
也夫	-8.18211
須	-8.1881
徃	-8.19107
視	-8.19153
類	-8.19655
金	-8.20082
吉凶	-8.20563
邪	-8.20598
亡	-8.20682
加	-8.20834
莫	-8.21162
别	-8.21224
而无	-8.21325
推	-8.21547
姤	-8.21685
未濟	-8.21954
死	-8.22604
不言	-8.22735
以其	-8.22755
光	-8.22956
而成	-8.23844
服	-8.23886
有孚	-8.23997
興	-8.24195
散	-8.24531
矣故	-8.25009
右	-8.25605
伏	-8.25637
聖	-8.25646
語	-8.25671
龍	-8.26191
親	-8.26363
之義也	-8.2692
爻辭	-8.27308
足以	-8.2759
健	-8.27708
聲	-8.27897
之辭	-8.28102
則有	-8.28227
憂	-8.28335
藏	-8.2844
消	-8.29005
包	-8.29108
二陽	-8.29404
静	-8.29664
變化	-8.29828
教	-8.30644
程子曰	-8.30727
也故曰	-8.30741
微	-8.308
任	-8.31129
精	-8.31203
无所	-8.31221
配	-8.31364
間	-8.31522
之位	-8.3175
之主	-8.31756
此爻	-8.318
有所	-8.31962
具	-8.32306
章	-8.32393
私	-8.32619
中孚	-8.32995
勢	-8.33499
厚	-8.33508
克	-8.33682
而能	-8.33736
所以為	-8.33811
刑	-8.33955
之卦	-8.34102
之初	-8.34324
令	-8.34496
適	-8.34501
小過	-8.34697
附	-8.34924
利貞	-8.34933
氏	-8.3515
互	-8.35178
息	-8.35259
至于	-8.35632
父	-8.35938
而有	-8.3611
之徳	-8.36124
之數	-8.36154
太極	-8.36219
開	-8.36284
不足	-8.36919
易之	-8.3709
何以	-8.37214
却	-8.37434
專	-8.37451
斷	-8.37633
之後	-8.37652
既濟	-8.378
按	-8.3797
幾	-8.38854
乗	-8.38992
看	-8.39209
来	-8.39311
傷	-8.3951
齊	-8.39512
乾之	-8.39654
顯	-8.39886
故云	-8.40176
其義	-8.40178
疾	-8.40207
一隂	-8.4032
流	-8.40329
不可以	-8.40361
辨	-8.40588
左	-8.40751
萬	-8.408
餘	-8.40888
之上	-8.40973
逆	-8.41285
同人	-8.41355
帝	-8.41402
歸妹	-8.41424
厲	-8.4203
質	-8.42158
改	-8.42419
自然	-8.42591
口	-8.43124
錯	-8.4334
夫子	-8.4364
大有	-8.4367
靜	-8.43783
特	-8.43916
君子之	-8.44133
廣	-8.44519
待	-8.44528
容	-8.44891
㑹	-8.44908
二五	-8.45044
程傳	-8.45088
妄	-8.45188
載	-8.45303
執	-8.45384
喜	-8.45506
大人	-8.45765
威	-8.45888
剝	-8.46018
竒	-8.46144
敗	-8.46151
者皆	-8.46215
序	-8.46679
之功	-8.46797
吝	-8.47187
統	-8.47224
尤	-8.4723
頤	-8.47409
隂柔	-8.47696
周易	-8.47773
大壯	-8.47934
進退	-8.48101
輔	-8.48104
人心	-8.48115
絶	-8.48118
依	-8.48544
度	-8.48604
亦有	-8.48627
乘	-8.48685
小畜	-8.4873
宗	-8.48731
才	-8.48755
不正	-8.48881
久	-8.49156
之用	-8.4931
故能	-8.49401
為主	-8.49889
之説	-8.49922
慎	-8.49929
其道	-8.5008
未有	-8.50512
卑	-8.50768
美	-8.51013
南	-8.51092
朱子曰	-8.5128
雨	-8.5134
案	-8.51463
可見	-8.51869
東	-8.51994
目	-8.5203
噬嗑	-8.52069
二隂	-8.52116
最	-8.52432
共	-8.5259
達	-8.52608
懼	-8.52695
田	-8.52734
陸	-8.52915
降	-8.52957
器	-8.52972
雜	-8.5298
修	-8.53024
望	-8.53026
並	-8.53391
牛	-8.53403
𫝊	-8.537
士	-8.53925
也若	-8.53986
向	-8.54042
習	-8.54199
陳	-8.54307
大畜	-8.54498
婦	-8.54498
之地	-8.54591
强	-8.54642
聖人之	-8.54958
偶	-8.55228
白	-8.55413
聞	-8.5567
車	-8.5577
之始	-8.56024
舍	-8.56175
不敢	-8.5622
訓	-8.56458
獲	-8.56652
底	-8.56846
矣然	-8.56852
彖曰	-8.56983
貞吉	-8.56984
彖辭	-8.57154
何也	-8.57494
坤之	-8.57549
謹	-8.576
真	-8.57952
也此	-8.58012
陽剛	-8.58362
恐	-8.58686
總	-8.58869
之人	-8.59093
盈	-8.59111
嚴	-8.59131
簡	-8.59268
太	-8.59282
漢	-8.59311
不必	-8.59439
陰陽	-8.59489
𤼵	-8.59547
明夷	-8.59585
不過	-8.59593
愈	-8.59725
六十四卦	-8.59869
相應	-8.59956
夏	-8.60229
門	-8.60372
智	-8.60459
之謂	-8.60501
之下	-8.60518
坎離	-8.60531
果	-8.60675
巳	-8.60835
設	-8.6089
者以	-8.61005
朱子	-8.61209
繫	-8.61368
耶	-8.61545
百	-8.61547
其心	-8.61595
張	-8.6163
卦之	-8.61709
除	-8.61773
年	-8.61852
飛	-8.61913
災	-8.62025
患	-8.62132
覆	-8.62304
之德	-8.62398
不為	-8.625
羣	-8.62668
資	-8.63196
申	-8.63451
慮	-8.63471
不當	-8.63596
天道	-8.63676
咎	-8.63777
麗	-8.63787
而得	-8.63923
决	-8.6394
連	-8.6401
皆以	-8.64246
繫辭	-8.64721
兵	-8.65111
背	-8.65248
西	-8.65481
不以	-8.65638
滅	-8.65906
違	-8.65929
其徳	-8.65963
卦爻	-8.6619
其志	-8.66262
伏羲	-8.6631
得中	-8.66557
告	-8.66586
得其	-8.66644
母	-8.66777
之類	-8.6687
征	-8.66979
不及	-8.66987
政	-8.66997
再	-8.67018
日月	-8.67087
末	-8.67327
一爻	-8.67407
三四	-8.67519
都	-8.67861
謀	-8.67949
之所以	-8.68069
愛	-8.68124
天地之	-8.68159
畏	-8.68177
此卦	-8.68248
之際	-8.68335
苟	-8.68336
男	-8.68722
考	-8.68738
如何	-8.68745
等	-8.69404
權	-8.69524
十二	-8.69853
助	-8.69863
剛中	-8.69988
喪	-8.70005
夷	-8.70005
列	-8.70103
讀	-8.70191
晦	-8.70205
朝	-8.70581
於上	-8.70759
皆有	-8.70806
詳	-8.70818
家人	-8.70942
内外	-8.70948
高	-8.70969
轉	-8.71286
如是	-8.71325
禍	-8.71553
係	-8.71681
這	-8.71858
亢	-8.71973
故以	-8.71983
筮	-8.71993
道也	-8.72066
蓍	-8.72249
衰	-8.72282
往來	-8.72306
况	-8.72447
无不	-8.72466
學者	-8.7247
以下	-8.72512
進而	-8.72875
正應	-8.72936
陵	-8.73458
以明	-8.73508
而又	-8.7365
色	-8.7383
雖有	-8.73929
元吉	-8.74185
周公	-8.7444
石	-8.74784
享	-8.75096
悔亡	-8.75099
北	-8.75829
彖傳	-8.75939
鄭	-8.75962
勞	-8.76567
陷	-8.76876
雲	-8.76942
愚	-8.77177
老	-8.77242
一卦	-8.77256
四時	-8.77318
而行	-8.77322
幽	-8.7741
虞	-8.77487
徒	-8.77534
手	-8.77656
之志	-8.77754
也象曰	-8.77759
運	-8.77842
天之	-8.78127
君臣	-8.78197
三陽	-8.78218
二字	-8.78229
二之	-8.78362
伐	-8.7837
弱	-8.78682
人君	-8.78697
堅	-8.78757
虛	-8.78772
然則	-8.78784
黄	-8.78801
繼	-8.78887
取其	-8.80055
福	-8.80249
於此	-8.80547
眀	-8.80616
噬	-8.80665
照	-8.8075
半	-8.80806
君子以	-8.80858
敵	-8.81156
商	-8.81224
觀之	-8.8128
李	-8.81281
潛	-8.81358
得位	-8.81647
則不	-8.8192
象也	-8.82153
祭	-8.82186
上之	-8.82432
䝉	-8.82498
識	-8.82566
中爻	-8.8263
録	-8.82671
卦辭	-8.82749
,	-8.82779
泥	-8.83149
宫	-8.83168
武	-8.83245
塞	-8.83372
則是	-8.83454
遷	-8.83491
之才	-8.83581
鬼神	-8.8363
含	-8.83946
五之	-8.84025
邑	-8.84047
未嘗	-8.84053
輕	-8.84179
誤	-8.84292
介	-8.8467
偏	-8.84764
而不能	-8.84775
男女	-8.84781
侯	-8.84968
官	-8.84984
以柔	-8.85037
不見	-8.85227
之謂也	-8.85358
勿	-8.85439
屈	-8.86054
春	-8.8624
以此	-8.8702
而無	-8.8707
詩	-8.87079
血	-8.8711
伊川曰	-8.87203
察	-8.8721
不利	-8.873
取象	-8.8773
爭	-8.87743
隠	-8.87764
戰	-8.87923
人事	-8.88028
可謂	-8.88155
泉	-8.88215
悦	-8.88547
富	-8.8857
水火	-8.88604
保	-8.88671
之世	-8.88755
虎	-8.88778
嘗	-8.88782
蔽	-8.88965
者言	-8.88976
歟	-8.89077
旣	-8.8911
物之	-8.89146
滿	-8.89165
将	-8.89192
不足以	-8.89254
䇿	-8.89322
卒	-8.89555
言其	-8.89635
舊	-8.89656
之體	-8.89675
元亨利貞	-8.89677
可知	-8.90071
一作	-8.90097
防	-8.9036
於下	-8.90497
納	-8.90639
知其	-8.90683
速	-8.90698
之說	-8.90766
限	-8.90776
宋	-8.90844
頥	-8.90864
淵	-8.90949
不然	-8.91043
元亨	-8.91093
代	-8.9117
何也曰	-8.91376
務	-8.91439
又有	-8.91446
諸侯	-8.91585
㣲	-8.91586
持	-8.91814
文明	-8.91865
做	-8.92026
例	-8.92164
嵗	-8.92301
魚	-8.92335
疏	-8.92648
折	-8.93111
用之	-8.93128
之物	-8.93159
而下	-8.933
為義	-8.93327
先天	-8.9335
根	-8.93522
子曰	-8.93583
殺	-8.93684
新	-8.93758
約	-8.93775
纂註	-8.93906
居中	-8.93934
坤為	-8.94032
之外	-8.94117
隱	-8.94227
忘	-8.94322
儀	-8.94354
三之	-8.94559
註	-8.94608
見其	-8.94688
假	-8.9471
初之	-8.94716
以剛	-8.94769
文言	-8.94918
避	-8.94919
三爻	-8.95134
以正	-8.9547
率	-8.95616
四之	-8.95733
羊	-8.95904
卦變	-8.95929
陽氣	-8.96108
業	-8.96145
乆	-8.96216
審	-8.96246
秋	-8.96405
歴	-8.96488
撰	-8.96519
序卦	-8.96544
到	-8.96655
五行	-8.96723
其位	-8.96774
寒	-8.96799
茍	-8.96888
集解	-8.96942
是故	-8.96963
號	-8.97003
嘉	-8.97278
甲	-8.97306
飾	-8.97439
従	-8.97492
廢	-8.97587
陽爻	-8.97703
抑	-8.9805
剛而	-8.98141
震動	-8.98155
相與	-8.98271
建	-8.98494
占者	-8.98584
忠	-8.98597
病	-8.9861
均	-8.98617
氏曰	-8.98682
之終	-8.98897
四隂	-8.9905
置	-8.99095
白雲郭氏曰	-8.99202
出於	-8.99208
則吉	-8.99418
弗	-8.99473
其事	-8.99479
艮止	-8.99492
而上	-8.99531
不失	-8.9995
清	-9.00193
益之	-9.00201
唐	-9.00281
鳴	-9.00523
寧	-9.00736
之法	-9.0074
矣故曰	-9.00756
其中	-9.00841
罪	-9.00882
端	-9.01044
柔順	-9.01104
剛健	-9.01288
造	-9.01325
祖	-9.01334
者亦	-9.0136
輿	-9.01402
暗	-9.0141
角	-9.01479
其身	-9.01557
亦不	-9.0157
夜	-9.01685
者也故	-9.01944
故言	-9.02135
以成	-9.02291
河圖	-9.02491
遠	-9.02509
隔	-9.02509
是為	-9.02752
之氣	-9.02752
五陽	-9.02867
朱	-9.02924
則无	-9.02936
龜	-9.03021
仍	-9.0312
于上	-9.03227
坎為	-9.03303
阻	-9.03535
寡	-9.03943
參	-9.03946
結	-9.04013
造化	-9.04049
得正	-9.04096
接	-9.04287
於是	-9.04417
暴	-9.04438
不相	-9.0446
伊川先生曰	-9.04465
在内	-9.0448
小人之	-9.04541
後世	-9.04612
者非	-9.0481
則其	-9.05053
顧	-9.05291
上行	-9.05292
之變	-9.05346
每	-9.05377
或曰	-9.05553
而動	-9.05783
純	-9.05844
賤	-9.05898
傳曰	-9.0594
在外	-9.05945
二爻	-9.0596
伯	-9.06114
無所	-9.06132
空	-9.06186
棄	-9.06253
不用	-9.06263
有功	-9.0634
救	-9.06344
揲	-9.06355
布	-9.06422
此言	-9.06456
失位	-9.06576
正也	-9.06634
恭	-9.06696
干	-9.067
律	-9.06753
一日	-9.06786
應之	-9.07004
奉	-9.07163
于此	-9.07231
言之則	-9.07259
草	-9.07473
并	-9.07577
移	-9.07667
各有	-9.07686
乾為	-9.07701
示	-9.07788
春秋	-9.07802
故謂之	-9.08034
朋	-9.08286
者必	-9.08502
卦體	-9.08537
野	-9.08544
衍	-9.08553
素	-9.08594
則知	-9.08634
良	-9.08648
又為	-9.08713
六子	-9.08745
使之	-9.08924
室	-9.08941
辰	-9.0909
冝	-9.09388
未能	-9.0944
流行	-9.09461
舎	-9.0948
之君	-9.09742
居上	-9.10251
二卦	-9.1033
震為	-9.10336
之情	-9.1046
失其	-9.10538
互體	-9.1055
有悔	-9.10594
紀	-9.10804
以求	-9.10823
冬	-9.11036
緩	-9.11281
計	-9.113
遺	-9.1133
變而	-9.11436
西南	-9.1147
先儒	-9.11517
之大	-9.11709
苦	-9.11732
薄	-9.11781
象傳	-9.11955
虞翻曰	-9.12121
往而	-9.12223
俗	-9.12327
甘	-9.1238
之勢	-9.12454
之妙	-9.12496
扵	-9.1253
四象	-9.12537
終始	-9.12682
則必	-9.1274
聽	-9.12952
夫婦	-9.12996
記	-9.13066
箇	-9.13268
那	-9.13362
效	-9.13394
无應	-9.13403
集	-9.13405
當位	-9.13682
利有攸往	-9.13714
耦	-9.13796
其德	-9.13822
星	-9.13971
楊	-9.13977
變通	-9.14191
面	-9.14199
篇	-9.1434
之至	-9.14385
而生	-9.14393
止於	-9.14571
不在	-9.14632
趾	-9.14754
之正	-9.14924
鳥	-9.15156
胡	-9.15186
生於	-9.15424
専	-9.15439
況	-9.15501
被	-9.15504
厯	-9.15594
貫	-9.15698
策	-9.15734
艱	-9.15795
負	-9.16201
矣此	-9.16246
吉也	-9.16334
坤上	-9.16372
初爻	-9.16408
然而	-9.16803
昏	-9.16973
自守	-9.17028
譽	-9.17091
也今	-9.17105
躁	-9.17172
隨之	-9.17306
而未	-9.1732
自有	-9.17452
天理	-9.17559
妙	-9.17694
逐	-9.1779
傾	-9.17924
卜筮	-9.17934
卜	-9.18243
卷	-9.18431
道理	-9.18461
后	-9.18474
先生	-9.18552
之吉	-9.18581
予	-9.18671
量	-9.18819
動則	-9.18917
舜	-9.18938
不待	-9.19014
不如	-9.19038
闕	-9.19055
免	-9.19168
不善	-9.19212
之時也	-9.19218
坎水	-9.19264
行之	-9.19288
三隂	-9.19381
強	-9.19781
大象	-9.1979
卦名	-9.1985
又以	-9.19963
利見大人	-9.19996
差	-9.20227
庚	-9.20266
而已矣	-9.20408
取諸	-9.20414
犯	-9.20531
急	-9.20544
究	-9.20658
損益	-9.20712
下卦	-9.2075
故受之以	-9.20811
獄	-9.2083
至誠	-9.21025
索	-9.2104
仲	-9.21051
之性	-9.21056
至此	-9.21338
)○	-9.21439
故稱	-9.21613
補	-9.21638
五十	-9.21663
艮上	-9.21808
其理	-9.2211
㡬	-9.22391
則可以	-9.22529
崇	-9.22664
王者	-9.22802
離下	-9.22843
之戒	-9.22889
還	-9.22988
莫不	-9.231
無不	-9.23185
殊	-9.23347
迷	-9.23387
三才	-9.23411
機	-9.23423
亦可	-9.23589
正義	-9.23591
附録	-9.23853
下經	-9.23911
於人	-9.23915
圗	-9.23936
而不知	-9.24102
東北	-9.24134
綜	-9.2422
不息	-9.24283
有終	-9.24328
者乎	-9.24375
幹	-9.24712
路	-9.24732
陽之	-9.24743
薦	-9.24878
御	-9.24932
也聖人	-9.25178
光明	-9.2521
惕	-9.25307
而曰	-9.25358
誅	-9.25391
見於	-9.25418
地之	-9.25462
豕	-9.25513
用事	-9.25542
以見	-9.25633
兩儀	-9.25646
得之	-9.25812
期	-9.25814
在中	-9.25842
靈	-9.25887
亨也	-9.25952
于下	-9.26043
相遇	-9.26067
乾上	-9.26109
居下	-9.26421
細	-9.26484
比之	-9.26532
它	-9.26722
飲食	-9.26735
離上	-9.2696
上經	-9.27102
禽	-9.27104
昧	-9.2711
願	-9.27154
𩔖	-9.27169
四陽	-9.27297
密	-9.27348
忽	-9.27357
偽	-9.27397
五為	-9.27417
邦	-9.27552
河	-9.27659
其用	-9.27778
而復	-9.27794
從之	-9.28047
隂爻	-9.28171
者以其	-9.28176
坎下	-9.2819
劉	-9.28194
尾	-9.28284
。	-9.28302
左右	-9.28423
不變	-9.28467
之事也	-9.28566
悔吝	-9.28569
事之	-9.287
收	-9.28711
父母	-9.28713
之名	-9.2876
隂陽之	-9.28792
秦	-9.28924
援	-9.28941
大抵	-9.29048
巽順	-9.29077
反對	-9.29145
豈能	-9.29177
裕	-9.29178
華	-9.29188
可也	-9.29296
變為	-9.29318
潤	-9.29406
九六	-9.29439
不明	-9.29481
覺	-9.29607
不動	-9.29611
取義	-9.29677
其辭	-9.29745
柔而	-9.29836
後天	-9.2986
三變	-9.30019
坎上	-9.30109
皆是	-9.30208
責	-9.30242
易簡	-9.30352
永	-9.30356
程	-9.30444
及其	-9.30462
曲	-9.3058
不應	-9.30617
用九	-9.30906
史	-9.30912
亦曰	-9.3098
𧰼	-9.30987
徳之	-9.31266
程子	-9.31381
休	-9.31439
乾下	-9.31528
玩	-9.31642
道之	-9.31718
顛	-9.31748
坤下	-9.31793
徐	-9.31797
辯	-9.31829
也又	-9.31854
欽定四庫全書	-9.31877
此章	-9.3188
喻	-9.32071
也二	-9.32194
懐	-9.32209
凶也	-9.32465
牽	-9.32494
惠	-9.32625
人道	-9.32638
股	-9.32692
黨	-9.32784
充	-9.32805
而反	-9.32906
三畫	-9.32943
不已	-9.33076
議	-9.33272
並易	-9.33311
衣	-9.33595
豈不	-9.33628
艮下	-9.33706
不中	-9.33722
晝	-9.33726
妹	-9.33779
争	-9.34175
下文	-9.34195
本卦	-9.34247
格	-9.34258
怨	-9.34278
也凡	-9.34306
天子	-9.344
𤣥	-9.34536
者謂	-9.34562
寛	-9.34585
天命	-9.34774
十六	-9.34828
六爻皆	-9.34845
其時	-9.3492
易中	-9.3511
其象	-9.35151
而止	-9.35201
而不可	-9.35222
而居	-9.35269
翼	-9.3541
也君子	-9.35427
孰	-9.3546
累	-9.35499
行也	-9.35515
拘	-9.35523
藉	-9.3554
悉	-9.35721
丘	-9.35766
矢	-9.35881
六畫	-9.35911
贊	-9.36006
无悔	-9.36025
於五	-9.36075
孟子	-9.36137
也三	-9.36279
二四	-9.36347
攻	-9.36355
仰	-9.36416
故其	-9.36472
扐	-9.3657
財	-9.36583
維	-9.367
上爻	-9.36848
是謂	-9.36952
險難	-9.3702
越	-9.37117
固有	-9.37182
征凶	-9.3726
與之	-9.3733
落	-9.37517
林	-9.37562
明之	-9.37613
下之	-9.37704
二十	-9.3784
伊川	-9.3786
離明	-9.37991
庶	-9.38021
川	-9.38065
述	-9.38081
見得	-9.38084
愚謂	-9.38117
相似	-9.38123
腹	-9.38132
宣	-9.38166
不窮	-9.38167
卦象	-9.38323
震下	-9.38377
少女	-9.38382
震上	-9.38548
躍	-9.38608
笑	-9.38626
无窮	-9.3865
革之	-9.38689
勿用	-9.38723
凝	-9.38845
畢	-9.38861
五隂	-9.38867
神明	-9.3909
求之	-9.39149
頭	-9.39193
亦以	-9.39199
擇	-9.39246
大者	-9.39288
不至	-9.39303
可知矣	-9.39461
會	-9.39608
則凶	-9.39724
淺	-9.39744
於外	-9.39916
舟	-9.39935
其實	-9.39992
大事	-9.40055
不與	-9.40173
䘮	-9.40278
錫	-9.40308
趨	-9.40362
過於	-9.40462
伸	-9.40594
禄	-9.40627
涉	-9.40643
孤	-9.40721
六位	-9.40801
正義曰	-9.40838
以至	-9.40864
隂之	-9.40908
順而	-9.40942
人情	-9.41005
坎險	-9.41037
義理	-9.41046
慶	-9.41117
巽下	-9.41144
振	-9.4117
始於	-9.41316
幸	-9.41728
諸卦	-9.41744
横渠先生曰	-9.41759
此以	-9.41759
者有	-9.41768
隆	-9.41933
殷	-9.42049
也又曰	-9.42079
天地之道	-9.42153
則曰	-9.42199
而進	-9.42221
不是	-9.42278
職	-9.42319
也如	-9.42384
循	-9.42408
上有	-9.42467
暌	-9.42492
以象	-9.42599
也蓋	-9.42601
味	-9.42615
不合	-9.42695
其勢	-9.4291
於天	-9.42946
極而	-9.43098
昭	-9.43098
省	-9.4315
惑	-9.4319
諸爻	-9.43405
垂	-9.4341
丁	-9.43468
洛書	-9.43503
闇	-9.43657
未有不	-9.43701
内卦	-9.43822
義也	-9.43865
禹	-9.43922
棟	-9.43992
康	-9.44037
三十	-9.44102
之學	-9.44168
上卦	-9.44177
見之	-9.44181
自是	-9.44214
則不能	-9.44215
敢	-9.44358
使人	-9.44369
坎之	-9.44457
際	-9.44512
膚	-9.44643
无不利	-9.44746
脩	-9.44811
不復	-9.44854
極則	-9.44933
逹	-9.44944
飬	-9.44947
欲其	-9.44991
不通	-9.45041
悖	-9.45068
脱	-9.45076
之於	-9.45127
初上	-9.45217
腓	-9.45348
楚	-9.45353
不安	-9.45449
孟	-9.45463
安得	-9.4547
厥	-9.45506
而終	-9.45589
四方	-9.4566
千	-9.45688
寵	-9.45844
随	-9.45893
恐懼	-9.45944
拂	-9.46007
往則	-9.46077
也五	-9.4636
放	-9.46373
表	-9.46422
侵	-9.46558
射	-9.4656
而自	-9.46573
四五	-9.46639
出險	-9.46698
外卦	-9.46727
縱	-9.4676
中之	-9.4706
恃	-9.47098
下體	-9.4717
艮為	-9.47177
為善	-9.47204
圓	-9.47246
在人	-9.47278
變也	-9.4728
觸	-9.47319
人所	-9.47399
相反	-9.47637
早	-9.47804
二體	-9.47811
羣隂	-9.47825
勉	-9.47896
古人	-9.4797
之文	-9.48102
郊	-9.48289
之凶	-9.48333
六十四	-9.48353
毁	-9.48405
於中	-9.48481
離之	-9.48594
動静	-9.48657
不成	-9.48755
未必	-9.48943
鬼	-9.49069
四爻	-9.49104
地道	-9.4913
損之	-9.49172
泰之	-9.49253
先王	-9.49257
孝	-9.49277
育	-9.49334
王弼	-9.49403
友	-9.49452
初為	-9.49581
横	-9.49677
許	-9.49792
相感	-9.49914
榮	-9.50008
其體	-9.5002
濡	-9.50031
午	-9.50074
則能	-9.50108
嗟	-9.50147
位不當也	-9.50267
也然則	-9.50378
愚案	-9.50412
城	-9.50496
潔	-9.50535
宻	-9.50538
召	-9.50603
利涉大川	-9.50638
守正	-9.50645
失之	-9.50721
聖賢	-9.50795
君之	-9.50979
竊	-9.5103
又何	-9.51087
在於	-9.51098
乖	-9.51395
一句	-9.51416
刻	-9.51477
於初	-9.51526
之言	-9.51554
怒	-9.51575
存乎	-9.51585
象傳曰	-9.5175
陽也	-9.51818
旋	-9.51821
揚	-9.51882
有餘	-9.52065
此則	-9.52245
于外	-9.52258
奪	-9.52263
憂患	-9.52291
易道	-9.52307
之爻	-9.52394
詞	-9.52411
魏	-9.52494
三十六	-9.52505
坐	-9.52549
貪	-9.52623
四徳	-9.52721
為一	-9.52781
熟	-9.52831
所歸	-9.52856
不容	-9.52857
中有	-9.52861
離為	-9.5288
惟其	-9.52883
正而	-9.52901
晝夜	-9.52979
不出	-9.53049
作易	-9.5307
念	-9.53086
中虚	-9.53113
安能	-9.53148
於内	-9.53156
不當位	-9.53161
大臣	-9.53227
志在	-9.53314
箕子	-9.53391
本作	-9.53408
乾元	-9.53413
巽上	-9.53438
不行	-9.53484
亦是	-9.53491
遽	-9.5363
易曰	-9.53646
以隂	-9.53668
少陽	-9.537
吕	-9.53713
之臣	-9.53744
寅	-9.53779
豈非	-9.53798
第	-9.53806
奇	-9.53857
旁	-9.53943
相得	-9.5396
終吉	-9.53975
其情	-9.54013
初二	-9.54052
始終	-9.54061
該	-9.54076
消息	-9.54178
為大	-9.5423
震之	-9.54258
出而	-9.54297
擊	-9.54309
推之	-9.54348
季	-9.54363
成功	-9.54386
十五	-9.54405
恩	-9.54546
日中	-9.54553
艮之	-9.54629
靡	-9.54685
中行	-9.54752
某	-9.54771
黙	-9.54935
妻	-9.54954
忌	-9.54997
君子之道	-9.55042
則可	-9.55043
穴	-9.55124
之分	-9.55132
小者	-9.55179
出于	-9.55198
故聖人	-9.55299
孫	-9.55326
為陽	-9.55334
民之	-9.55415
玉	-9.55478
肆	-9.55507
中庸	-9.55542
即是	-9.55543
之序	-9.55571
賢人	-9.556
正位	-9.55825
牀	-9.55868
州	-9.56056
忠信	-9.56067
擬	-9.56078
因其	-9.56086
二三	-9.56111
儉	-9.56141
四為	-9.56204
逸	-9.56243
孔	-9.56444
獻	-9.56499
其數	-9.56517
一人	-9.56557
之㫖	-9.56634
未可	-9.56648
隨時	-9.56668
卦中	-9.5672
狐	-9.56765
爻之	-9.56787
勸	-9.56849
□	-9.56963
賔	-9.57089
以自	-9.57114
仁義	-9.57247
有以	-9.57264
為用	-9.57319
其間	-9.57379
利用	-9.57419
酒	-9.57424
魯	-9.57429
則又	-9.57469
不易	-9.57713
卦畫	-9.57748
不勝	-9.57765
逼	-9.57904
所當	-9.57959
生物	-9.58042
辟	-9.58193
誰	-9.58198
繋	-9.58237
乾卦	-9.58239
證	-9.58294
畧	-9.58327
匪	-9.58393
得其正	-9.58463
試	-9.58504
在我	-9.58547
遲	-9.58572
相交	-9.58675
觀其	-9.58683
其性	-9.58785
叔	-9.58828
不能自	-9.58844
止也	-9.58889
㫖	-9.58903
掛	-9.58928
上進	-9.58958
或以	-9.58993
賞	-9.59215
谷	-9.59227
勇	-9.59247
聖人作易	-9.59296
弊	-9.59313
水之	-9.59324
一陰	-9.59324
之交	-9.59334
之至也	-9.59345
司	-9.59358
一也	-9.59422
世之	-9.59426
略	-9.59458
于人	-9.59459
入於	-9.59504
上文	-9.5951
庸	-9.59571
或問	-9.59624
亥	-9.59698
上體	-9.59704
鴻	-9.59728
以上	-9.59755
行而	-9.59887
其行	-9.59923
不食	-9.59953
户	-9.60019
之利	-9.60041
衆隂	-9.60095
廟	-9.6013
矣夫	-9.60211
得失	-9.60303
成卦	-9.60352
卦以	-9.6045
也或曰	-9.60451
中也	-9.60576
虧	-9.6064
震巽	-9.60684
又云	-9.60687
之機	-9.60712
卿	-9.60713
倚	-9.60762
出入	-9.60877
七日	-9.60878
漢上朱氏曰	-9.60883
其君	-9.60946
也盖	-9.60983
乾坤之	-9.61037
豈有	-9.61093
竟	-9.61145
萌	-9.61149
廣大	-9.61163
畫卦	-9.61176
一无	-9.61259
之過	-9.61291
變而為	-9.6139
尊位	-9.61408
而來	-9.61536
故无咎	-9.61542
倒	-9.61681
歸之	-9.61696
亦非	-9.61767
其意	-9.61889
敎	-9.61927
拇	-9.6195
行師	-9.61956
順也	-9.62006
爻象	-9.6207
客	-9.62083
二十四	-9.62105
兩卦	-9.62124
不若	-9.62334
大亨	-9.62348
耕	-9.62376
有為	-9.62422
其為	-9.6246
其説	-9.62559
義曰	-9.62673
其能	-9.62759
授	-9.62775
如是則	-9.62903
巽為	-9.62908
禁	-9.62953
鉉	-9.63126
草木	-9.63127
謹按	-9.63145
數之	-9.6322
居尊	-9.63225
斗	-9.63236
有應	-9.63261
在天	-9.63302
集說	-9.63315
全體	-9.63357
大矣	-9.63506
冬至	-9.6354
取之	-9.63602
壊	-9.63723
二為	-9.63829
在其中	-9.63853
寓	-9.63933
鄰	-9.64112
極其	-9.64132
僅	-9.64208
軍	-9.64231
稍	-9.64233
爻言	-9.64234
瀆	-9.6424
云云何也曰	-9.6426
封	-9.64283
缺	-9.6435
怠	-9.64367
有常	-9.64377
終於	-9.6439
用也	-9.64416
相比	-9.64419
亦然	-9.64435
以順	-9.64539
雜卦	-9.64613
術	-9.64614
諸儒	-9.64648
鮮	-9.64649
於天下	-9.64652
去其	-9.6468
操	-9.64692
懲	-9.64706
小象	-9.64712
屋	-9.64785
拯	-9.64795
本爻	-9.64959
此所以	-9.64977
庭	-9.64983
賛	-9.65141
部	-9.65226
爻義	-9.65269
滋	-9.65384
吉者	-9.65413
九五之	-9.6542
借	-9.65455
源	-9.65539
三年	-9.65597
發明	-9.66016
不可不	-9.6604
皇	-9.66078
留	-9.66095
五爻	-9.66144
而非	-9.66215
也葢	-9.66225
而求	-9.66289
滯	-9.66446
觧	-9.66458
奮	-9.6648
鼓	-9.66612
之難	-9.6665
象數	-9.66662
循環	-9.66681
相易	-9.66699
變動	-9.66703
焚	-9.66722
乎此	-9.66754
戎	-9.66785
三十二	-9.66867
互坎	-9.6691
而知	-9.66997
娣	-9.67007
協	-9.67025
辱	-9.67029
之運	-9.6706
温	-9.67122
之美	-9.67167
有事	-9.67185
善惡	-9.67288
人臣	-9.67303
其功	-9.67306
以陽	-9.67307
陽而	-9.67326
者蓋	-9.67339
進也	-9.67359
三為	-9.67402
役	-9.67536
邵子	-9.67595
利見	-9.67612
材	-9.67636
變易	-9.6765
不宜	-9.67665
之應	-9.67685
非有	-9.67815
大明	-9.68083
海	-9.68084
彰	-9.68155
所以能	-9.68205
脫	-9.68243
的	-9.68333
韓	-9.68439
如此則	-9.68444
故雖	-9.6845
其明	-9.6848
也初	-9.68559
博	-9.68563
失道	-9.68616
驗	-9.68623
旡	-9.68786
此理	-9.68797
肉	-9.688
賊	-9.68818
閉	-9.68825
正則	-9.68837
言語	-9.68923
回	-9.6896
閑	-9.69006
上為	-9.69053
祥	-9.69129
牧	-9.69163
艱難	-9.69217
溺	-9.69388
姑	-9.694
貌	-9.69436
詩曰	-9.69463
物也	-9.69474
躬	-9.69475
反復	-9.69493
先後	-9.69517
燕	-9.69535
止于	-9.69539
之本	-9.69542
自處	-9.69622
无攸利	-9.6966
中實	-9.6968
恱	-9.69697
消長	-9.69769
也四	-9.69793
乙	-9.69831
其上	-9.69911
之内	-9.70015
䧟	-9.70018
八月	-9.70066
故必	-9.70133
敝	-9.70152
紂	-9.70155
十年	-9.70156
動靜	-9.70225
兹	-9.70293
闗	-9.70392
之禮	-9.70458
一物	-9.70464
梁	-9.70521
信之	-9.70555
未嘗不	-9.70774
與二	-9.70817
大夫	-9.70825
掩	-9.70862
奔	-9.70878
露	-9.70978
未得	-9.71054
其類	-9.71091
閒	-9.71266
集疏	-9.71281
時也	-9.7148
先生曰	-9.7149
利渉大川	-9.71601
貞固	-9.71675
而致	-9.71675
咸恒	-9.71676
符	-9.71709
懷	-9.71752
止之	-9.71759
則非	-9.71766
天徳	-9.71818
登	-9.71834
巽之	-9.71848
破	-9.72004
長子	-9.72041
君子小人	-9.7209
不得不	-9.72105
于五	-9.72154
一事	-9.72183
骨	-9.7226
闢	-9.72265
渉	-9.72311
事業	-9.72368
不曰	-9.72377
事也	-9.7239
剛明	-9.72411
揜	-9.72478
不免	-9.72577
也惟	-9.72616
不違	-9.72622
條	-9.7263
皆言	-9.7263
一身	-9.72721
為正	-9.72773
龜山楊氏曰	-9.72817
為吉	-9.72836
敦	-9.72866
趙	-9.72923
動也	-9.72931
迹	-9.73202
其下	-9.73206
輪	-9.7327
一時	-9.73298
知之	-9.73305
天下之事	-9.73351
離火	-9.73364
君位	-9.73395
否泰	-9.73408
婦人	-9.73443
罔	-9.73504
重卦	-9.73522
此又	-9.73609
在前	-9.73627
殆	-9.73762
招	-9.73781
説卦	-9.73802
報	-9.74013
恁地	-9.74043
居尊位	-9.74139
》	-9.74186
故吉	-9.74203
乎故	-9.74258
徃來	-9.74259
以濟	-9.7432
所為	-9.74325
毒	-9.74339
講	-9.74513
而後有	-9.74687
乾道	-9.74694
相對	-9.74697
則當	-9.74703
為君	-9.74746
鼎之	-9.74814
不中不正	-9.74827
吉凶悔吝	-9.74865
賢者	-9.749
下有	-9.74967
性情	-9.75018
之使	-9.75171
他卦	-9.75212
為隂	-9.75223
㐫	-9.75234
猶言	-9.75308
上下皆	-9.75362
相合	-9.75375
所能	-9.75521
此義	-9.75551
虚中	-9.75592
三五	-9.75614
六十	-9.75625
一箇	-9.75712
明矣	-9.75713
其占	-9.75741
泰否	-9.75869
而外	-9.76037
確	-9.761
猶有	-9.76125
市	-9.76191
藴	-9.76197
卦有	-9.76222
乾體	-9.76319
減	-9.76322
丑	-9.76327
種	-9.76424
必以	-9.76462
繇	-9.76497
天地間	-9.76579
之實	-9.7662
校	-9.76633
祭祀	-9.76635
委	-9.76657
契	-9.76665
蔡氏曰	-9.76684
而用	-9.76795
甚矣	-9.76817
繁	-9.7685
光大	-9.7693
危厲	-9.76997
荒	-9.77017
利於	-9.77038
日新	-9.77081
在下而	-9.77096
无所不	-9.77112
祗	-9.77131
百姓	-9.7715
酉	-9.77179
不自	-9.77238
賓	-9.77249
萬物之	-9.77253
中而	-9.77369
之賢	-9.77373
以待	-9.774
不盡	-9.77506
聴	-9.77512
貴賤	-9.77518
也是故	-9.77526
其所以	-9.77572
賴	-9.77626
毛	-9.77658
其餘	-9.77729
景	-9.77733
君道	-9.77818
卦徳	-9.77872
而吉	-9.7789
所處	-9.77942
賦	-9.77949
順從	-9.78128
之日	-9.7816
尊卑	-9.78272
險阻	-9.78348
貞也	-9.78357
伊川程子曰	-9.78437
牙	-9.78443
括	-9.78481
不取	-9.78512
用刑	-9.78572
无疆	-9.7861
其才	-9.78615
易者	-9.78628
利有攸徃	-9.7867
汝	-9.78675
寄	-9.78833
所由	-9.78846
之患	-9.7887
其可	-9.78899
注云	-9.78924
二者	-9.78929
後人	-9.7894
歸於	-9.79035
可見矣	-9.79191
過剛	-9.79201
永貞	-9.79207
少隂	-9.79267
蔡	-9.79276
占也	-9.79314
乎曰	-9.79329
其氣	-9.79388
之首	-9.79438
稽	-9.79455
變則	-9.79469
當作	-9.79518
壮	-9.79539
故其象占如此	-9.79572
竒偶	-9.79608
𫉬	-9.79644
新安朱氏曰	-9.7966
辛	-9.79662
是非	-9.79771
坤順	-9.79935
易以	-9.79935
舒	-9.80091
六二之	-9.80109
析	-9.80296
之失	-9.8036
𧰼曰	-9.8037
雷風	-9.80382
女子	-9.80441
古者	-9.80457
于是	-9.80471
文王之	-9.80584
赤	-9.80644
此所謂	-9.80671
大吉	-9.80678
正是	-9.80685
同體	-9.80707
祀	-9.80714
一隂一陽	-9.80717
豈可	-9.80796
之盛	-9.80856
小亨	-9.80885
在上而	-9.80983
正中	-9.81023
節之	-9.81023
窒	-9.81073
而天下	-9.81267
支	-9.81372
无咎也	-9.81385
貞厲	-9.81398
茅	-9.81414
古之	-9.81785
圖書	-9.81868
昔	-9.81899
候	-9.81961
之禍	-9.81998
營	-9.82044
之行	-9.82132
其始	-9.82188
臨之	-9.82196
大君	-9.82269
位不當	-9.8227
周禮	-9.82313
齋	-9.82366
數也	-9.82408
父子	-9.82441
說卦	-9.82478
何咎之有	-9.82532
而出	-9.82574
从	-9.82575
爵	-9.82586
見于	-9.82593
隂也	-9.82627
為貞	-9.82668
堯舜	-9.82692
旦	-9.82796
之前	-9.82862
嫁	-9.82869
而往	-9.82994
也本義	-9.82998
在初	-9.83024
觀象	-9.83092
不交	-9.83121
亦无	-9.83242
不順	-9.8329
返	-9.83317
以陽剛	-9.83368
之主也	-9.83369
渝	-9.83384
四卦	-9.83419
七八	-9.83477
二句	-9.83597
衛	-9.83605
肅	-9.83628
閏	-9.83671
為君子	-9.83681
増	-9.83707
彖言	-9.83805
富貴	-9.83839
典	-9.83942
矯	-9.84027
聖人以	-9.84064
武王	-9.84098
應五	-9.84106
柔中	-9.84156
汲	-9.84204
大也	-9.84258
固守	-9.84283
驕	-9.84299
竭	-9.84389
飛鳥	-9.84421
繩	-9.84498
盜	-9.84575
西北	-9.84591
所得	-9.84635
勤	-9.84642
冦	-9.84888
而四	-9.84911
第一	-9.84918
否之	-9.84934
山澤	-9.85068
萬民	-9.85105
一畫	-9.8512
正道	-9.85195
對待	-9.85206
思慮	-9.85289
勿恤	-9.85336
卦義	-9.85392
若不	-9.85434
寇	-9.85576
者葢	-9.8559
謂其	-9.85614
若能	-9.85627
性命	-9.85656
已成	-9.85665
者所以	-9.85731
之䇿	-9.85745
較	-9.85817
彌	-9.85843
暢	-9.85867
無窮	-9.85927
宗廟	-9.85943
初四	-9.86072
巽木	-9.86075
悟	-9.86125
古文	-9.86173
處之	-9.86221
荀	-9.86223
焉則	-9.86292
此意	-9.86503
亦為	-9.86557
坤體	-9.86615
者乃	-9.86676
五以	-9.86682
寒暑	-9.86747
􁁆	-9.86767
者也然	-9.86768
於地	-9.86846
人之所	-9.86934
於物	-9.87181
其本	-9.87212
一變	-9.87289
輹	-9.87348
佐	-9.87429
迫	-9.8743
位而	-9.8743
遭	-9.87439
猶未	-9.87518
不進	-9.87534
以動	-9.87555
用其	-9.87568
云云	-9.87607
所云	-9.87644
暑	-9.87703
易之道	-9.87725
則無	-9.87729
中心	-9.87818
曉	-9.88003
没	-9.88008
則亦	-9.88021
者矣	-9.8805
則雖	-9.88089
哀	-9.8811
妾	-9.88123
戒之	-9.88172
基	-9.88192
擬議	-9.88229
恤	-9.88286
余	-9.88296
養人	-9.88314
止而	-9.88328
湏	-9.88334
天行	-9.88335
陽卦	-9.88363
先儒曰	-9.88398
天位	-9.88442
者如	-9.88496
若是	-9.88595
不中正	-9.88706
亦猶	-9.88715
歌	-9.88725
叶	-9.88766
藥	-9.88786
本於	-9.88806
􁁇	-9.88833
朔	-9.88857
无非	-9.8887
无首	-9.88876
本義云	-9.88881
進則	-9.89007
裳	-9.89011
丈人	-9.89031
者盖	-9.8908
在其中矣	-9.89138
逢	-9.89177
從上	-9.89221
衆陽	-9.89224
過中	-9.89326
十八	-9.89343
鼻	-9.89343
酒食	-9.89357
兩爻	-9.89385
之所以為	-9.89403
合而	-9.89461
以陽居隂	-9.89527
逃	-9.89632
塗	-9.89662
於陽	-9.89712
二剛	-9.89715
乾乾	-9.89805
不一	-9.89905
老陽	-9.89908
有凶	-9.89974
而不敢	-9.89991
匹	-9.90002
混	-9.90047
无位	-9.90068
着	-9.9009
於四	-9.90097
一體	-9.90152
以致	-9.90178
湯	-9.90198
與四	-9.90273
允	-9.90274
之占	-9.90315
也是以	-9.90322
于内	-9.90377
井之	-9.90679
分明	-9.90689
京房	-9.90697
乃能	-9.90713
互艮	-9.90753
浸	-9.90884
有此	-9.90898
童	-9.91133
江	-9.9115
農	-9.91215
非謂	-9.91301
習坎	-9.91313
日之	-9.91382
虞翻	-9.91394
扶	-9.91409
跡	-9.91419
以中正	-9.91477
大小	-9.91597
㓙	-9.91602
愼	-9.91617
有咎	-9.91642
旬	-9.91703
羸	-9.91718
小子	-9.91723
時之	-9.918
之先	-9.91826
禦	-9.91859
牝馬	-9.91911
體用	-9.91931
柔弱	-9.92059
學易	-9.92063
其終	-9.9213
不失其	-9.92133
爻位	-9.92138
須是	-9.92153
正曰	-9.92159
其後	-9.92161
兆	-9.9218
其變	-9.922
雖不	-9.9222
電	-9.92222
上則	-9.92297
妄動	-9.92388
无咎者	-9.92405
陰柔	-9.92541
亨者	-9.92586
起於	-9.92597
陸氏曰	-9.92653
號令	-9.92709
猛	-9.92789
所用	-9.92912
忿	-9.93005
二陰	-9.9309
其言	-9.93145
明其	-9.93212
之書	-9.93213
合於	-9.93217
大矣哉	-9.93217
而實	-9.93319
託	-9.93347
故象	-9.93467
便有	-9.93481
凖	-9.93567
柔得中	-9.93599
厭	-9.93688
不止	-9.93774
莫非	-9.93794
師之	-9.93803
嗚呼	-9.93803
也乾	-9.93986
關	-9.9401
有形	-9.94064
繋辭	-9.94119
纔	-9.94152
貳	-9.94256
請	-9.94314
于中	-9.94316
象言	-9.94331
儒	-9.94347
女歸	-9.94355
四德	-9.94373
在此	-9.94392
潜	-9.9447
至矣	-9.94484
同也	-9.94493
未至	-9.94517
自養	-9.94573
有慶	-9.94606
剛正	-9.94619
㡳	-9.94663
驚	-9.9469
退而	-9.94947
徳行	-9.94993
訟之	-9.95058
以行	-9.95065
感應	-9.95072
悅	-9.95079
十月	-9.95086
志行	-9.95161
下應	-9.95174
无常	-9.95201
所行	-9.95211
逺近	-9.9523
游	-9.95267
激	-9.95281
必先	-9.95302
謂五	-9.95333
之深	-9.95362
同心	-9.9537
獸	-9.95385
者何	-9.95506
理也	-9.95508
不從	-9.95521
遏	-9.95547
坎中	-9.95569
與人	-9.95629
自古	-9.95645
入于	-9.95647
族	-9.95653
不信	-9.95722
貴乎	-9.95729
何所	-9.95744
人皆	-9.95886
討	-9.95898
未光	-9.95912
京	-9.96013
三日	-9.96017
所見	-9.96019
蘇	-9.9602
升降	-9.96032
伊尹	-9.96047
兄	-9.96048
愚按	-9.96107
乎上	-9.96137
備矣	-9.96213
不測	-9.96253
同類	-9.9627
采	-9.96307
婚媾	-9.9632
于天	-9.96447
青	-9.96456
沒	-9.965
安於	-9.96508
所有	-9.96619
皆非	-9.9662
圓圖	-9.96687
誠信	-9.96695
全卦	-9.96707
无有	-9.96886
述曰	-9.96907
宜其	-9.96917
含章	-9.96983
與三	-9.96998
㫁	-9.97018
浮	-9.97031
韻	-9.97037
解之	-9.97067
篤	-9.97067
堂	-9.9709
必至	-9.97133
雉	-9.97135
易傳	-9.97203
不求	-9.97286
時而	-9.97344
眚	-9.97358
可久	-9.97403
利也	-9.97478
可用	-9.97484
巽體	-9.97506
三上	-9.97524
不亦	-9.97537
九二之	-9.97586
完	-9.97657
建侯	-9.97766
吕音訓	-9.97794
與五	-9.97898
東南	-9.97973
履虎尾	-9.98003
渾	-9.98033
不可見	-9.98074
自下	-9.9809
剛中而應	-9.9821
既有	-9.98213
女之	-9.98323
而不得	-9.98359
萊按	-9.98413
易知	-9.98456
羞	-9.98497
為象	-9.98508
則失	-9.9851
教人	-9.98516
一義	-9.98542
太陽	-9.98678
歲	-9.98678
見易曰	-9.98697
艮其背	-9.98722
行則	-9.9873
。《	-9.98789
尋	-9.98798
衡	-9.98879
中則	-9.98902
以爲	-9.98915
此亦	-9.98953
健而	-9.98981
衆人	-9.9899
誠意	-9.99036
復之	-9.99092
應乎	-9.99103
蓍龜	-9.99104
掛一	-9.9913
壞	-9.9916
之徒	-9.99268
乗剛	-9.99301
之形	-9.99316
管	-9.99389
郭	-9.99409
漏	-9.99413
烈	-9.99426
上九之	-9.99499
木之	-9.99534
貞正	-9.99586
貞者	-9.99648
宿	-9.99677
隂氣	-9.99706
之資	-9.99712
裁	-9.99741
其一	-9.99749
把	-9.99753
之始也	-9.99791
而欲	-9.99792
象之	-9.99828
缶	-9.99889
无妄之	-9.99914
尚賢	-9.99958
慢	-10.0005
遜	-10.0009
亨通	-10.0009
同徳	-10.0011
像	-10.0012
倫	-10.0014
至五	-10.0016
于初	-10.0028
也九二	-10.0033
判	-10.0038
國之	-10.0038
未成	-10.0038
生焉	-10.0043
來者	-10.005
段	-10.0051
利建侯	-10.0051
堯	-10.0051
小事	-10.0053
工夫	-10.0054
失正	-10.0057
大衍	-10.0059
天運	-10.0078
此聖人	-10.0087
此是	-10.0088
洛	-10.0089
純陽	-10.0091
生于	-10.0098
竹	-10.0102
吉而	-10.0109
伊	-10.0115
生生	-10.0117
乾健	-10.0119
震艮	-10.0121
貨	-10.0121
為天	-10.0122
追	-10.0127
橈	-10.0128
无過	-10.0132
沈	-10.0135
古今	-10.0139
之陽	-10.0141
天地之心	-10.0145
去聲	-10.0147
溢	-10.0152
故不	-10.0154
也且	-10.0155
歎	-10.0155
承之	-10.0157
甫	-10.0158
于天下	-10.0162
尺	-10.0165
何如	-10.0168
能止	-10.0169
羽	-10.0171
翕	-10.0174
夕	-10.0182
猶可	-10.0189
之善	-10.0192
卯	-10.0204
天下之理	-10.0204
單	-10.0206
在五	-10.0207
治之	-10.0207
嗑	-10.0207
讓	-10.0208
警	-10.0209
之𧰼	-10.0218
叛	-10.0227
羲	-10.023
互離	-10.0233
理之	-10.024
編	-10.0242
言行	-10.0246
釋卦辭	-10.0253
然後能	-10.0259
心之	-10.026
烏	-10.0265
自取	-10.0274
益下	-10.0275
書曰	-10.0277
主於	-10.0278
之象然	-10.0279
用六	-10.0281
乘剛	-10.0283
窮極	-10.0283
受其	-10.0291
盗	-10.0305
天德	-10.0306
坤土	-10.0306
仕	-10.031
覩	-10.0312
近於	-10.0313
揲蓍	-10.0323
第二	-10.0323
變者	-10.0327
反覆	-10.0328
或謂	-10.0333
而應	-10.0337
通曰	-10.0345
信也	-10.0346
費	-10.035
若夫	-10.0354
一氣	-10.0355
而至	-10.0355
過而	-10.0359
歸藏	-10.0363
工	-10.037
曽	-10.0375
二十八	-10.0375
矜	-10.0377
亦無	-10.0377
居四	-10.0378
浸長	-10.0383
之剛	-10.0388
臣道	-10.039
而可	-10.0395
二變	-10.0406
之質	-10.0411
盛而	-10.0413
自家	-10.0414
而至於	-10.0415
若以	-10.0415
歸于	-10.0416
莫如	-10.0428
孔子曰	-10.043
十三	-10.0432
天地萬物	-10.0438
而无咎	-10.044
為人	-10.0447
仲尼	-10.0464
㝠	-10.0464
運行	-10.0464
未盡	-10.0469
旁通	-10.047
則謂之	-10.0476
五上	-10.0476
畜之	-10.0478
乾剛	-10.0486
事物	-10.0487
以隂柔	-10.0494
驅	-10.0496
終必	-10.0526
离	-10.0528
戸	-10.0534
寜	-10.0534
坎體	-10.054
去之	-10.0541
也上六	-10.0545
之意也	-10.0545
測	-10.0546
否曰	-10.0546
矣又	-10.0547
顔子	-10.0547
倡	-10.0551
處下	-10.0563
之辭也	-10.0566
諸家	-10.0566
淫	-10.0569
不得其	-10.0575
之大者	-10.0582
莊	-10.0586
窺	-10.0586
六五之	-10.059
之例	-10.0591
始生	-10.0593
廬	-10.0596
盡其	-10.0599
之稱	-10.06
斂	-10.0601
前後	-10.0602
也九三	-10.0602
剥之	-10.0605
鄙	-10.0606
其應	-10.0606
居五	-10.0606
捨	-10.0607
經綸	-10.0609
中道	-10.0609
癸	-10.0612
而後可	-10.0619
之象焉	-10.0625
煩	-10.0627
諂	-10.0629
文字	-10.0631
杜	-10.0636
束	-10.0636
定位	-10.0639
祐	-10.064
次第	-10.0645
長女	-10.0646
為貴	-10.0648
撓	-10.065
行事	-10.0651
乾陽	-10.0652
為卦	-10.0653
西方	-10.0655
魄	-10.0659
跛	-10.067
一一	-10.0673
洪範	-10.0675
也六二	-10.0686
巧	-10.0688
无可	-10.0692
穆	-10.0693
釋之	-10.0694
絲	-10.0707
然後可以	-10.0714
不至於	-10.0718
上居	-10.0721
之用也	-10.0727
媚	-10.0737
由是	-10.0738
也按	-10.0743
告之	-10.0755
樹	-10.076
枯	-10.0761
而見	-10.0762
有厲	-10.0764
致其	-10.0765
未及	-10.0767
十一	-10.0775
蔀	-10.0777
恥	-10.078
不欲	-10.0793
何哉	-10.0798
音義	-10.08
乎其	-10.0802
三百八十四爻	-10.0806
互震	-10.0817
為乾	-10.0822
童蒙	-10.0826
於君	-10.0834
生成	-10.0834
是之謂	-10.0844
能以	-10.0844
紫陽朱子曰	-10.0847
以道	-10.0849
險而	-10.0852
此皆	-10.0854
知幾	-10.0854
醜	-10.0854
坤道	-10.086
无心	-10.0862
孚信	-10.0865
有喜	-10.087
本无	-10.0875
凡言	-10.0877
桓	-10.0877
利害	-10.0882
鑿	-10.0885
盥	-10.0887
象辭	-10.089
盛大	-10.0907
人以	-10.091
礙	-10.0914
也六五	-10.0916
五剛	-10.0916
來復	-10.0921
與上	-10.0922
乃為	-10.0927
莫能	-10.093
之精	-10.0934
順乎	-10.0935
艮體	-10.0936
之象故	-10.0937
卽	-10.0938
徹	-10.0941
嫌	-10.0954
吳	-10.0955
求其	-10.0956
始于	-10.0959
屯之	-10.096
交而	-10.0964
以應	-10.097
此心	-10.0978
隂卦	-10.0978
之甚	-10.0982
而順	-10.0983
為小人	-10.0986
霜	-10.0986
艱貞	-10.0989
毋	-10.0994
普	-10.0994
為應	-10.0995
得乎	-10.1
則不可	-10.1007
康節	-10.1008
不服	-10.101
使民	-10.101
人欲	-10.1012
鄭氏	-10.1013
蹈	-10.1014
也坤	-10.1023
今日	-10.1028
聰明	-10.1031
一節	-10.1032
輻	-10.1032
戒懼	-10.1034
不克	-10.1037
預	-10.1044
順以	-10.1049
棟橈	-10.1049
貞凶	-10.1052
之隂	-10.1053
故取	-10.1057
措	-10.1062
終日	-10.1063
答	-10.1065
未濟之	-10.1069
掛扐	-10.1075
長男	-10.1077
者此	-10.1082
虗	-10.1086
乃得	-10.1089
而明	-10.1094
為利	-10.1103
非正	-10.1112
沙	-10.1113
元永貞	-10.1117
自得	-10.1129
柄	-10.1131
者也故曰	-10.1132
與天地	-10.1134
成數	-10.1138
昌	-10.1141
三則	-10.1148
以示	-10.1149
徧	-10.1155
无私	-10.1161
遯之	-10.1165
既成	-10.1166
無所不	-10.1174
示人	-10.1176
也六三	-10.1181
所畜	-10.1189
其說	-10.1198
平易	-10.1202
所以次	-10.1205
沛	-10.1206
於二	-10.121
天人	-10.121
天地之間	-10.1212
可為	-10.1212
縁	-10.1214
諸爻皆	-10.1214
三居	-10.1216
故君子	-10.1218
神也	-10.1221
之策	-10.1222
之私	-10.1222
此説	-10.1228
知來	-10.1229
豚魚	-10.1233
㤗	-10.1236
國家	-10.1238
在二	-10.1242
亦不能	-10.1244
奸	-10.125
掌	-10.1252
併	-10.1252
倍	-10.1257
研	-10.1271
意思	-10.1278
相通	-10.1278
不濟	-10.1282
不肯	-10.1283
欺	-10.1289
患難	-10.129
時當	-10.1294
相求	-10.1295
氣化	-10.1297
冇	-10.1297
非其	-10.1301
而言則	-10.1304
貝	-10.1307
合也	-10.1311
是其	-10.1312
之餘	-10.1318
其大	-10.1318
九四之	-10.1321
錯綜	-10.1323
鄉	-10.1325
走	-10.1326
側	-10.1327
迭	-10.1328
成物	-10.133
值	-10.1331
酌	-10.1331
剛則	-10.1332
恐其	-10.1333
邇	-10.1333
蔵	-10.1342
徴	-10.1342
无事	-10.1342
弓	-10.1352
宅	-10.1353
得志	-10.136
貞則	-10.1363
與初	-10.1364
藩	-10.1367
逺而	-10.1372
自此	-10.1372
抱	-10.1376
之屬	-10.1377
承上	-10.1378
緯	-10.1379
而從	-10.1385
得其所	-10.1387
修身	-10.1393
億	-10.1399
讀易	-10.1411
大有之	-10.1411
上應	-10.1413
一説	-10.1415
禮樂	-10.1416
如字	-10.1418
之極也	-10.1418
鹿	-10.142
毎	-10.1424
而巳	-10.1424
有時而	-10.1427
豫之	-10.1432
終于	-10.1436
凡事	-10.1439
範	-10.144
之動	-10.1443
𢎞	-10.1445
之士	-10.1446
過乎	-10.145
徐氏曰	-10.145
又言	-10.1453
擾	-10.1459
制之	-10.1461
準	-10.1462
而言也	-10.1466
未免	-10.1467
為臣	-10.1467
故知	-10.1475
臀	-10.1476
荀爽曰	-10.148
也九五	-10.1481
或有	-10.1483
往往	-10.1487
和順	-10.149
謙之	-10.1498
竒耦	-10.1504
是已	-10.1508
申命	-10.1509
所言	-10.1513
人身	-10.1516
此其所以	-10.1523
離體	-10.1529
物而	-10.153
有不	-10.1533
事君	-10.1534
亨利貞	-10.1545
之明	-10.1546
綱	-10.1549
截	-10.1549
夬之	-10.1553
也九四	-10.1556
蟲	-10.156
而變	-10.1561
之命	-10.1563
十一月	-10.1566
痛	-10.1569
而亨	-10.1576
德之	-10.1579
者惟	-10.1581
子夏	-10.1581
用剛	-10.1584
未見	-10.1585
人心之	-10.1586
以時	-10.1587
可行	-10.1592
九三之	-10.1597
之宜	-10.1607
以來	-10.1612
這箇	-10.1614
第三	-10.1615
不特	-10.1615
辭也	-10.1615
焉故	-10.1617
萬世	-10.1618
矣象曰	-10.1623
之為言	-10.1627
惜	-10.163
何為	-10.1632
損下益上	-10.1634
必得	-10.1635
漸進	-10.1639
飲	-10.1644
之卦也	-10.1644
三百六十	-10.1644
已有	-10.1645
許多	-10.1647
過于	-10.1653
此之謂	-10.1653
天下之動	-10.1654
一心	-10.1655
四者	-10.166
三百	-10.1663
憧憧	-10.167
聘	-10.167
然亦	-10.1671
啟	-10.1677
可不	-10.1679
隂陽相	-10.1683
枝	-10.1689
胥	-10.1691
之任	-10.1692
未定	-10.1693
泛	-10.1694
二柔	-10.1696
履之	-10.1699
出乎	-10.17
出門	-10.171
上下之	-10.1712
鄭𤣥	-10.1714
二氣	-10.1714
大川	-10.1715
所應	-10.1716
帝乙	-10.1717
命之	-10.1721
也既	-10.1722
明而	-10.1723
魂	-10.1725
不貞	-10.1727
大傳	-10.1727
以生	-10.1727
續	-10.1729
風雷	-10.1741
之中而	-10.1743
希	-10.1748
利在	-10.1754
至大	-10.1755
之類是也	-10.176
之神	-10.1763
二五皆	-10.1763
穫	-10.1768
終則	-10.1771
者多	-10.1779
可與	-10.1779
階	-10.1781
天地之數	-10.1782
保其	-10.1784
極言	-10.1784
冠	-10.1788
伍	-10.1791
然其	-10.1792
彖傳曰	-10.1793
易書	-10.1794
朋友	-10.1795
當時	-10.1801
居柔	-10.1809
剛長	-10.1811
乃可	-10.1814
未知	-10.1816
相錯	-10.1818
矣若	-10.1826
分之	-10.1827
房	-10.1827
為泰	-10.1828
分别	-10.1829
陽在下	-10.183
炎	-10.1831
也初九	-10.1832
己之	-10.1834
咎也	-10.1835
應初	-10.1838
四海	-10.184
能自	-10.1841
之來	-10.1841
四十九	-10.1842
曳	-10.1847
頗	-10.1847
陽為	-10.1853
自我	-10.1857
而後能	-10.1862
其人	-10.1875
軌	-10.1881
仇	-10.1881
九卦	-10.1885
項氏曰	-10.1885
溪	-10.1888
萬事	-10.1888
所養	-10.1888
濡尾	-10.1891
為體	-10.1891
委曲	-10.1892
自下而上	-10.1896
養賢	-10.1902
一卦之	-10.1905
坎象	-10.1907
養之	-10.1908
二與五	-10.191
氣之	-10.192
雞	-10.1921
居之	-10.1922
弟	-10.1924
合乎	-10.1928
俟	-10.193
位也	-10.1935
為正應	-10.1939
皮	-10.1944
三嵗	-10.1945
王肅	-10.1956
於心	-10.1958
四四	-10.1963
坤卦	-10.1964
必待	-10.1966
精神	-10.1971
以一陽	-10.1976
則无咎	-10.1977
生意	-10.1979
皆為	-10.1993
靜而	-10.1999
肥	-10.2
戒其	-10.2006
秉	-10.2007
隂而	-10.2008
彊	-10.201
在乎	-10.2012
為坎	-10.2013
困而	-10.2016
相因	-10.2017
寳	-10.2018
之月	-10.2019
成王	-10.202
啓	-10.2033
隂盛	-10.2036
生數	-10.2041
之本也	-10.2043
守其	-10.2045
恆	-10.2054
一家	-10.2055
天文	-10.2058
治亂	-10.2059
融	-10.2062
奚	-10.2069
下而	-10.207
大而	-10.2072
亦未	-10.2077
復生	-10.208
四以	-10.208
同義	-10.2081
戾	-10.2086
汚	-10.2088
震體	-10.209
地中	-10.2093
十二月	-10.2099
論之	-10.21
明徳	-10.2101
祇	-10.2102
聰	-10.2105
行乎	-10.2107
致用	-10.211
冥	-10.2112
仁者	-10.2123
葉	-10.2128
而得中	-10.2136
易位	-10.2149
朱子語	-10.2154
雲峰胡氏曰	-10.2156
則陽	-10.2157
之助	-10.2157
貞而	-10.2163
于四	-10.2167
我之	-10.2172
」、	-10.2172
静而	-10.2178
二以	-10.218
故凶	-10.218
周子	-10.218
乎天	-10.218
壬	-10.218
剛柔之	-10.2181
成之	-10.2184
日用	-10.2184
形容	-10.2185
用易	-10.2185
貢	-10.2186
東方	-10.2189
象占	-10.2199
存焉	-10.2203
庶幾	-10.2205
從陽	-10.2209
之末	-10.221
荅	-10.221
謬	-10.2211
皆在	-10.2215
彖象	-10.2216
終身	-10.222
人君之	-10.2221
幹蠱	-10.2221
左傳	-10.2224
宮	-10.2226
家之	-10.2228
用柔	-10.2231
困於	-10.2231
隂為	-10.2233
發之	-10.2235
无形	-10.2235
出來	-10.2239
善也	-10.2239
不獨	-10.2241
董	-10.2244
蒙謂	-10.2245
耳目	-10.2246
探	-10.2253
人主	-10.2253
曷	-10.2254
頻	-10.2257
道者	-10.2259
㸔	-10.226
過則	-10.2262
安得不	-10.2265
不富	-10.2267
迎	-10.2268
夾	-10.2272
:	-10.2272
得吉	-10.2274
濟險	-10.2275
既濟之	-10.2276
以禮	-10.2277
丈夫	-10.2285
卦言	-10.2285
此虞義也	-10.229
之時而	-10.229
洞	-10.2292
于地	-10.2293
汗	-10.2293
雖欲	-10.2294
有定	-10.23
以盡	-10.2301
而民	-10.2302
中和	-10.2303
相承	-10.231
以隂居陽	-10.231
為坤	-10.2318
行者	-10.232
下三爻	-10.2321
聚而	-10.2325
者何也	-10.2327
雖然	-10.2331
大同	-10.2335
而處	-10.2335
主之	-10.2339
於理	-10.2341
同而	-10.2355
之端	-10.2359
旅之	-10.2361
相生	-10.2362
也上九	-10.2367
宼	-10.2368
本體	-10.2376
皆由	-10.2379
有道	-10.2386
天下之大	-10.239
相濟	-10.2393
通也	-10.2394
少男	-10.2398
而去之	-10.2419
唱	-10.2419
故其占	-10.2432
尸	-10.2436
之權	-10.2436
於義	-10.2439
無非	-10.2445
燥	-10.2453
戌	-10.2453
本末	-10.2462
之所由	-10.2465
德行	-10.2468
武人	-10.2472
近而	-10.2472
以從	-10.2478
于二	-10.248
死生	-10.2485
牝	-10.2488
卦氣	-10.2489
所以致	-10.2489
王氏	-10.249
應上	-10.2499
三以	-10.2499
延	-10.2502
亦必	-10.2504
道徳	-10.2506
乃所以	-10.2509
孟子曰	-10.251
必有所	-10.2513
喪其	-10.2517
以後	-10.2519
於乾	-10.2521
經文	-10.2525
為本	-10.2527
甃	-10.2528
但以	-10.2529
不好	-10.2531
之貞	-10.2535
兊上	-10.2537
而已故	-10.2538
四字	-10.254
里	-10.2542
處困	-10.2545
應而	-10.2547
得中道	-10.255
黃	-10.2551
能盡	-10.2552
寸	-10.2557
物物	-10.2566
相從	-10.2568
所居	-10.2571
此時	-10.2574
而隂	-10.2575
快	-10.2575
折獄	-10.2592
一定	-10.2592
小而	-10.2592
以至於	-10.2595
相孚	-10.2595
如何曰	-10.2596
太過	-10.2597
者即	-10.2601
日月之	-10.2603
不終	-10.2604
不知其	-10.2606
闡	-10.261
而凶	-10.2626
途	-10.2627
文王周公	-10.2628
呼	-10.2628
眇	-10.2629
皆取	-10.2629
諫	-10.2633
匪人	-10.2645
則吉也	-10.2646
賾	-10.2648
戴	-10.2649
不疑	-10.265
上六之	-10.2653
而獨	-10.2653
老隂	-10.2655
自復	-10.2658
資始	-10.2664
凡卦	-10.2667
侈	-10.2671
君子觀	-10.2671
邑人	-10.2672
變革	-10.2679
鍾	-10.269
驟	-10.2694
暫	-10.2694
悲	-10.2695
交於	-10.2704
然必	-10.2705
在下者	-10.2706
非能	-10.2707
五月	-10.2711
必須	-10.2714
以柔順	-10.2717
創	-10.2719
通論	-10.2724
所履	-10.2724
困窮	-10.2727
交錯	-10.2733
未發	-10.2733
六三之	-10.2742
一有	-10.2745
圍	-10.2746
司馬	-10.2753
其初	-10.2754
人能	-10.276
窮理	-10.2763
優	-10.2764
髙宗	-10.2767
此釋	-10.2769
純隂	-10.2777
囚	-10.2778
不惟	-10.2781
之力	-10.2784
括囊	-10.2786
有二	-10.2787
項	-10.2789
凡人	-10.2793
大業	-10.2793
情偽	-10.2796
者三	-10.2796
賜	-10.2802
故爲	-10.2804
可貞	-10.2813
此一節	-10.2815
有箇	-10.2822
聼	-10.2823
洪	-10.2823
植	-10.2829
用壯	-10.2848
何咎	-10.2849
朝廷	-10.2849
逺矣	-10.2853
昃	-10.2853
正理	-10.2856
為害	-10.286
孔氏	-10.2862
范	-10.2862
今人	-10.2863
有言	-10.2868
演	-10.2871
之正也	-10.2871
盛徳	-10.2879
殘	-10.2888
亦可以	-10.2889
個	-10.2892
之功也	-10.2892
彼此	-10.2896
之常	-10.2898
知所	-10.2907
剛健中正	-10.2909
乾為天	-10.2916
十七	-10.2917
震坎艮	-10.2926
之地也	-10.293
損上益下	-10.2935
屈伸	-10.2936
有序	-10.2938
肯	-10.2944
要之	-10.2945
凶者	-10.2949
麗乎	-10.2951
寂	-10.2951
自治	-10.2954
學易者	-10.2956
王公	-10.2959
但言	-10.2964
近君	-10.2971
隙	-10.2978
之處	-10.298
皆然	-10.2982
以立	-10.2983
所宜	-10.2984
兊下	-10.2985
威如	-10.2986
岐	-10.2993
曰此	-10.2995
槩	-10.3
然非	-10.3003
卦爻之	-10.3006
蠱之	-10.3011
皆隂	-10.3013
一則	-10.3015
以養	-10.3015
方是	-10.3018
摧	-10.3019
陋	-10.3022
而入	-10.3023
改過	-10.3023
行險	-10.3032
受命	-10.3039
而不已	-10.3041
陽明	-10.3041
之異	-10.3042
都是	-10.3046
切近	-10.3051
脢	-10.3066
不可得而	-10.3067
競	-10.3071
之節	-10.3082
以中	-10.3082
任重	-10.3088
十翼	-10.3089
過之	-10.3097
説文	-10.3099
視之	-10.3101
動者	-10.3114
以前	-10.3116
於易	-10.3116
剛也	-10.312
狀	-10.3121
感之	-10.3127
之吉也	-10.3134
蕩	-10.3134
無應	-10.3143
反為	-10.3144
五位	-10.3144
隣	-10.315
是就	-10.3151
陽生	-10.3156
帶	-10.3157
姓	-10.3159
焉此	-10.3165
一嵗	-10.3167
需之	-10.3168
得其中	-10.3168
受福	-10.317
疎	-10.3173
物事	-10.3174
何也葉子曰	-10.3175
横渠	-10.3178
蔑	-10.318
上承	-10.3181
身之	-10.3183
盡矣	-10.3185
之大人	-10.3188
之可	-10.3188
正當	-10.3189
之治	-10.3192
為戒	-10.3196
理㑹	-10.3196
看來	-10.3196
踰	-10.3197
征吉	-10.32
之不可	-10.32
狗	-10.3203
危懼	-10.3203
將以	-10.3207
在上者	-10.3208
之方	-10.321
為水	-10.3214
獲吉	-10.3214
黒	-10.3215
隂長	-10.3217
陽實	-10.3218
凶矣	-10.3219
却是	-10.3222
亟	-10.3222
其凶	-10.3223
瞻	-10.3223
旣濟	-10.3226
吉而无咎	-10.3227
反身	-10.3229
歳	-10.324
而遇	-10.3243
上帝	-10.3243
為艮	-10.3256
子之	-10.3256
孔子之傳	-10.3257
也六四	-10.3258
健順	-10.326
其家	-10.3262
四十	-10.3262
宜矣	-10.3268
在于	-10.327
不克訟	-10.3274
步	-10.3274
不期	-10.3275
發揮	-10.3277
巽為木	-10.3279
命令	-10.3279
之柔	-10.328
兩體	-10.3286
朋來	-10.3287
四居	-10.3295
合志	-10.3295
時行	-10.33
莫之	-10.3302
无以	-10.3303
拂經	-10.3305
大哉	-10.3305
弼	-10.3308
想	-10.3314
詔	-10.3315
以剛中	-10.3315
涉川	-10.3317
雖未	-10.3318
品	-10.3319
說得	-10.332
附麗	-10.3322
附於	-10.3322
守之	-10.3323
學問	-10.3323
小大	-10.3325
童僕	-10.3329
蒙之	-10.333
以剛居柔	-10.3335
為天下	-10.3335
胡氏	-10.3338
不正則	-10.3339
河圗	-10.3343
而不為	-10.3344
過也	-10.3346
也坎	-10.3346
在後	-10.3355
譬	-10.3358
可得而	-10.3363
且如	-10.3366
易有	-10.3367
既已	-10.3367
北方	-10.3372
六卦	-10.3373
之畫	-10.3373
此節	-10.3375
蓄	-10.3376
臣之	-10.3378
而况	-10.3381
互巽	-10.3381
以益	-10.3381
山之	-10.3392
夫人	-10.3397
而不言	-10.3398
正則吉	-10.3399
斧	-10.3403
淳	-10.3408
所以成	-10.3408
中女	-10.3408
時位	-10.3409
舉其	-10.3417
鳴謙	-10.3419
不盈	-10.3419
與陽	-10.342
傅	-10.3421
八卦之	-10.3422
成形	-10.3422
為心	-10.3425
受之	-10.3433
坎為水	-10.3438
四變	-10.3442
局	-10.3444
有大	-10.3446
害也	-10.3447
府	-10.3453
極矣	-10.3454
不改	-10.3455
主爻	-10.346
君子體而用之	-10.3461
柔順中正	-10.3466
謂三	-10.3467
繫以	-10.3469
皆自	-10.3469
无一	-10.3474
合之	-10.3476
言易	-10.3477
徵	-10.3479
性之	-10.3479
剛徳	-10.3481
有一	-10.3487
為徳	-10.3491
无疑	-10.3491
故亨	-10.3492
應四	-10.3492
文章	-10.3492
艮為山	-10.3501
語録	-10.3503
為離	-10.3504
決之	-10.351
濡首	-10.351
上下經	-10.3515
李鼎祚	-10.3516
膏	-10.3517
罰	-10.3521
凶之道也	-10.3522
抗	-10.3524
廹	-10.3526
潛龍	-10.3537
一字	-10.3539
兌為	-10.3541
雷雨	-10.3544
雄	-10.3544
小畜之	-10.3546
同人之	-10.3546
上古	-10.3546
見矣	-10.3556
為衆	-10.3556
而用之	-10.3565
世道	-10.3566
而利	-10.3567
泣	-10.3568
隼	-10.3569
其民	-10.3572
濡其尾	-10.3575
也但	-10.3576
須知	-10.3579
所主	-10.3586
甲子	-10.3594
煦	-10.3595
桑	-10.3596
牿	-10.3598
生萬物	-10.3602
終之	-10.3602
以義	-10.3603
爻皆	-10.3606
故其象如此	-10.361
未形	-10.361
瓶	-10.3619
之咎	-10.3626
提	-10.3627
其常	-10.3628
功業	-10.3632
爻有	-10.3638
拔	-10.3641
命也	-10.3647
二簋	-10.3647
荀爽	-10.3653
弦	-10.3658
剛得中	-10.3659
比五	-10.3661
相親	-10.3663
哉故	-10.3664
彭	-10.3669
者不能	-10.3675
法度	-10.3677
用以	-10.3678
地上	-10.3681
濁	-10.3681
而謂之	-10.3684
隕	-10.3686
之所在	-10.3687
踐	-10.3688
上篇	-10.3688
體之	-10.3692
四則	-10.3693
陽長	-10.3697
於是乎	-10.3698
浚	-10.3705
夲	-10.3709
氷	-10.371
而不窮	-10.371
嚮	-10.3711
免於	-10.3711
遇之	-10.3712
夫易	-10.3714
孔子之	-10.3714
又自	-10.3716
噐	-10.3718
自以為	-10.3718
所從	-10.3719
又當	-10.3719
考之	-10.372
以乾	-10.3725
亦當	-10.373
私意	-10.3731
其利	-10.3732
誥	-10.3735
枉	-10.3739
兑上	-10.3743
十四	-10.3746
冰	-10.3748
其進	-10.3749
娶	-10.375
爻變	-10.3751
賁之	-10.3752
有可	-10.3754
各得其	-10.3754
重剛	-10.3758
鄭康成	-10.3764
在四	-10.3764
能知	-10.3766
始也	-10.3766
制器	-10.3768
不利有攸往	-10.3771
人者	-10.3776
有待	-10.3783
弟子	-10.3783
罷	-10.3784
承五	-10.3784
從而	-10.3785
盛衰	-10.379
為恒	-10.3791
之漸	-10.3795
相連	-10.3797
佞	-10.3799
貴於	-10.3804
飭	-10.3805
鶴	-10.3805
至四	-10.381
亦何	-10.381
之㑹	-10.3812
離日	-10.3813
是亦	-10.3814
帥	-10.3815
河圖洛書	-10.382
不害	-10.3821
此象	-10.3821
班	-10.3824
詩云	-10.3826
削	-10.3828
丹	-10.3829
渫	-10.3829
闔	-10.383
者自	-10.3831
西山	-10.3837
之𩔖	-10.3838
明夷之	-10.3839
慈	-10.384
狹	-10.3846
未光也	-10.3846
中間	-10.3849
俯	-10.3852
主宰	-10.3856
凶咎	-10.3857
而无所	-10.3867
圭	-10.3867
君徳	-10.387
至健	-10.3871
止則	-10.3873
觀之則	-10.3876
不至于	-10.3878
騐	-10.388
有所往	-10.3885
神物	-10.3885
其力	-10.3885
黄帝	-10.389
而去	-10.3891
苦節	-10.3891
卑下	-10.3892
治天下	-10.3894
及於	-10.3897
南方	-10.3899
梗	-10.3902
:「	-10.3902
即此	-10.3903
先言	-10.3903
昬	-10.3905
不和	-10.3905
上説	-10.3919
人人	-10.392
卦位	-10.3923
已日	-10.3923
兌下	-10.3927
又問	-10.394
類也	-10.3941
乎下	-10.3942
不可以不	-10.3947
茀	-10.3948
徃而	-10.3948
突	-10.395
者二	-10.3951
有位	-10.3952
恵	-10.3953
之理也	-10.3954
陽剛中正	-10.3956
未變	-10.3962
圖之	-10.3962
為地	-10.3962
戊	-10.3963
乾坤坎離	-10.3965
時中	-10.3966
明白	-10.3969
至善	-10.397
是如此	-10.3972
異也	-10.3972
以俟	-10.3974
下交	-10.3976
俾	-10.3977
與時偕行	-10.3979
夬夬	-10.3981
忍	-10.3981
聚也	-10.3981
此即	-10.3983
中節	-10.3986
皆得	-10.3987
非正應	-10.3988
交孚	-10.3988
而且	-10.3993
磐	-10.3996
次序	-10.3998
敷	-10.4002
不然則	-10.4002
言乎	-10.4003
之詞	-10.4004
而失	-10.4005
杞	-10.4005
嫡	-10.4006
而升	-10.401
之義故	-10.4012
何由	-10.402
無咎	-10.4024
祿	-10.4025
化之	-10.4028
不得已	-10.4033
為首	-10.4035
境	-10.404
深矣	-10.4046
居三	-10.4048
初與四	-10.4049
未為	-10.405
環	-10.4051
之器	-10.4053
以一隂	-10.4055
尊而	-10.4057
逮	-10.4062
李氏	-10.4073
其在	-10.4073
非聖人	-10.4077
乎陽	-10.4078
停	-10.4078
相接	-10.408
精義	-10.408
即所謂	-10.4085
巢	-10.4095
在卦	-10.4096
何其	-10.4096
而歸	-10.4101
道則	-10.4101
一理	-10.4102
口舌	-10.4103
題	-10.4103
皆陽	-10.4104
君也	-10.4106
康侯	-10.4108
坤隂	-10.411
一月	-10.4113
正者	-10.4113
夏至	-10.4113
號咷	-10.4114
為雨	-10.4115
説得	-10.4116
吉凶之	-10.4118
包荒	-10.4121
文之	-10.4123
皆可	-10.4124
既濟未濟	-10.4132
欲以	-10.4133
為益	-10.4134
周公之	-10.4147
功成	-10.4149
挾	-10.415
不見其	-10.4151
能使	-10.4155
履霜	-10.4156
三者	-10.4161
以定	-10.4165
相違	-10.4168
自然之	-10.4169
造化之	-10.4169
為能	-10.4172
亨矣	-10.4173
不生	-10.4181
懸	-10.4197
也雖然	-10.4198
渙散	-10.42
桎梏	-10.42
為震	-10.42
以隂居隂	-10.4202
相推	-10.4203
渙之	-10.4205
監	-10.4205
法也	-10.4214
未詳	-10.4214
不得已而	-10.4217
富有	-10.4218
周之	-10.4225
裂	-10.4226
之貌	-10.4231
一柔	-10.4233
怪	-10.424
其名	-10.4241
濟難	-10.4244
本義謂	-10.4248
歩	-10.4249
爻曰	-10.4254
雷動	-10.4257
分為	-10.4259
以一	-10.4262
楊氏曰	-10.4264
復有	-10.4268
无為	-10.4269
同志	-10.4269
不雨	-10.4269
者是也	-10.427
大衍之數	-10.4274
蜀	-10.4275
炎上	-10.4275
柔進而上行	-10.4279
冒	-10.4279
可通	-10.4279
之甚也	-10.428
論語	-10.4286
可以无咎	-10.4287
其文	-10.4288
始交	-10.429
不憂	-10.4294
墨	-10.4296
人位	-10.4296
故不言	-10.4299
机	-10.4301
王假有廟	-10.4303
於隂	-10.4305
人有	-10.4307
發生	-10.431
剛來	-10.4312
教之	-10.4315
中孚之	-10.4317
利西南	-10.4317
所遇	-10.4319
利貞者	-10.4319
兮	-10.4323
惟有	-10.4325
蕃	-10.4326
攸	-10.4329
天也	-10.4336
麗於	-10.4336
下篇	-10.4337
无與	-10.4341
云者	-10.4342
至順	-10.4344
乎五	-10.4345
拒	-10.4348
顯比	-10.4349
其序	-10.4349
用獄	-10.4351
慕	-10.4352
相為	-10.4354
自為	-10.4356
未當	-10.4356
又如	-10.4359
錢	-10.4363
亦自	-10.4364
與乾	-10.4367
窮而	-10.4369
咥	-10.4371
則人	-10.438
𨼆	-10.4382
剛而不中	-10.4382
故特	-10.4383
故得	-10.4386
萬物皆	-10.4391
在地	-10.4393
矣是	-10.4394
受益	-10.4394
吉无咎	-10.4398
集説	-10.4398
𫝑	-10.4399
王輔嗣	-10.4401
先天圖	-10.4403
嘆	-10.4405
九二剛中	-10.441
之誠	-10.4411
位之	-10.4412
界	-10.4418
改命	-10.4418
發蒙	-10.4419
事理	-10.4421
亦如	-10.4422
天一	-10.4423
交易	-10.4424
於事	-10.4426
遵	-10.4429
熊	-10.443
陂	-10.4431
當以	-10.4431
時義	-10.4435
所感	-10.4437
感通	-10.4443
居二	-10.4445
陰陽之	-10.4448
其卦	-10.4451
獨言	-10.4452
必欲	-10.4456
征伐	-10.4456
上三爻	-10.446
得无咎	-10.4466
為主而	-10.4468
二畫	-10.4468
得衆	-10.4469
敬慎	-10.4471
離為日	-10.4472
誡	-10.4473
陽位	-10.4474
困之	-10.4476
主乎	-10.4476
穀	-10.4476
汙	-10.448
十九	-10.4482
之術	-10.4486
也所謂	-10.4486
天下之至	-10.4486
重險	-10.449
與天	-10.449
繫之	-10.4498
鼠	-10.4501
極於	-10.4507
誣	-10.4509
以巽	-10.4511
漢書	-10.4513
疇	-10.4517
有家	-10.4518
之道而	-10.4522
兊為	-10.4526
戚	-10.4527
不免於	-10.4528
匡	-10.4529
卦皆	-10.4531
拆	-10.4532
盪	-10.4535
所利	-10.4538
有時	-10.4545
可乎	-10.4547
茂	-10.4547
兌上	-10.4549
三月	-10.4554
不但	-10.4555
趣	-10.4558
過揲	-10.456
之為道	-10.4561
馬融	-10.4561
同德	-10.4562
與物	-10.4562
坎艮	-10.4563
之位也	-10.4568
此道	-10.4572
皆曰	-10.4572
皆指	-10.4573
也為卦	-10.4574
涵	-10.4574
為民	-10.4577
馴	-10.4579
者此也	-10.458
賈	-10.4583
沉	-10.4584
謂二	-10.4585
中正之道	-10.459
承天	-10.4596
常也	-10.46
虞氏	-10.4601
比於	-10.4604
之微	-10.4605
自信	-10.4608
所在	-10.4608
有過	-10.4609
之象以	-10.4609
離坎	-10.461
談	-10.461
以陽居	-10.461
本無	-10.4612
使其	-10.4613
太𤣥	-10.4615
爻以	-10.4616
憊	-10.4617
正固	-10.4619
失得	-10.4621
則民	-10.4621
於民	-10.4624
所取	-10.4631
者又	-10.4632
不正而	-10.4633
吉无不利	-10.4635
顔	-10.4636
今以	-10.4641
莫大於	-10.4644
近之	-10.4647
往也	-10.4653
周公之象	-10.4654
以柔居	-10.4655
二曰	-10.4658
洽	-10.4663
擅	-10.4663
為順	-10.4663
卻	-10.4667
蹇之	-10.4671
艮為手	-10.4672
巫	-10.4673
而起	-10.4675
茹	-10.4677
辨正	-10.4677
湯武	-10.4678
上升	-10.4683
竝	-10.4687
晚	-10.4688
不齊	-10.4689
復卦	-10.4691
一卷	-10.4697
一二	-10.4698
聖人所以	-10.47
害之	-10.4702
範圍	-10.4704
謂初	-10.4704
成其	-10.4705
莽	-10.4708
篤實	-10.4708
也若夫	-10.4709
如之何	-10.4714
簋	-10.4714
僭	-10.4715
之道故	-10.4717
握	-10.4726
及物	-10.473
災也	-10.4733
若此	-10.4734
太隂	-10.4736
二則	-10.4737
謝	-10.4738
順之	-10.4738
贊曰	-10.474
証	-10.474
算	-10.4741
三與上	-10.4744
亦通	-10.475
雷電	-10.4756
小利貞	-10.4758
潰	-10.4763
則得	-10.4764
有行	-10.4766
邊	-10.4767
蟄	-10.4767
民心	-10.4768
明道	-10.4768
此其	-10.4769
而退	-10.4769
能順	-10.4772
有三	-10.4773
𥘉	-10.4776
所以然者	-10.4777
雖非	-10.4779
▁朱子曰	-10.4779
不使	-10.4783
徑	-10.4783
𫝊曰	-10.4788
綸	-10.479
得以	-10.4792
天道之	-10.4793
所欲	-10.4797
卦之下	-10.4803
用師	-10.4805
指五	-10.4807
乗之	-10.481
姤之	-10.4812
領	-10.4815
翰	-10.4822
襲	-10.4823
羙	-10.4824
連山	-10.4827
者在	-10.483
神農	-10.4834
短	-10.4836
以及	-10.4836
成也	-10.4837
可觀	-10.4839
有此象	-10.484
自外來	-10.4842
相雜	-10.4842
戒也	-10.4845
以漸	-10.485
故有此象	-10.4855
爻則	-10.486
兄弟	-10.4861
上言	-10.4865
道義	-10.4868
澤之	-10.487
縣	-10.4872
不能无	-10.4875
其過	-10.4876
自内	-10.4877
兼山郭氏曰	-10.4881
者衆	-10.4888
之為物	-10.4889
屯蒙	-10.489
則天下	-10.4893
道而	-10.4898
姦	-10.4899
用力	-10.49
墜	-10.4904
萃之	-10.4909
之君子	-10.491
益上	-10.4916
通變	-10.4917
者莫如	-10.492
徳也	-10.492
不偏	-10.492
能用	-10.4923
嗣	-10.4923
馳	-10.4926
攝	-10.493
而行之	-10.4932
艮止也	-10.4932
二物	-10.4933
矣何	-10.4934
之為卦	-10.4936
繼以	-10.494
占辭	-10.4944
曾	-10.4945
天地定位	-10.4946
坤為衆	-10.4946
雖无	-10.4947
不假	-10.4954
天下之人	-10.4957
躁動	-10.496
皆從	-10.4966
處中	-10.4966
物理	-10.4967
屬陽	-10.4969
以位言	-10.4969
得朋	-10.4969
聖人之道	-10.497
天之道	-10.4971
徳而	-10.4972
成性	-10.4972
錄	-10.4973
各得	-10.4976
初九之	-10.4982
叙	-10.4984
不吉	-10.4985
本義曰	-10.4986
貞吉悔亡	-10.4989
至三	-10.4991
雷之	-10.4992
輔嗣	-10.4995
下卦之	-10.4999
於己	-10.5008
騰	-10.5009
而為之	-10.5011
氣也	-10.5012
不往	-10.5013
言之也	-10.5013
而立	-10.5013
不可用	-10.5015
雍	-10.5017
感人	-10.5018
居中得正	-10.5023
六陽	-10.5027
匪正	-10.5029
可濟	-10.503
也以其	-10.503
惻	-10.503
認	-10.5034
法象	-10.5035
燭	-10.5038
所作	-10.504
鼔	-10.504
闚	-10.5045
貞吝	-10.5052
生矣	-10.5052
故戒以	-10.5058
釋卦名	-10.5063
此正	-10.5063
壅	-10.5063
咸之	-10.5065
當其	-10.5066
有得	-10.5068
不去	-10.5069
其動	-10.5069
之元	-10.5071
有疾	-10.5074
不可過	-10.5076
否則	-10.5077
於道	-10.5078
先儒謂	-10.5078
是說	-10.5081
横圖	-10.5082
濕	-10.5084
昔者	-10.5085
剛陽	-10.5089
不忘	-10.5089
元氣	-10.5089
劓	-10.5091
六四之	-10.5093
于心	-10.5094
正與	-10.5095
彚	-10.5095
周流	-10.5098
於三	-10.5098
居貞	-10.5098
為金	-10.51
至是	-10.5101
輕重	-10.5105
愆	-10.5117
用此	-10.5121
以誠	-10.5125
有攸往	-10.5128
安于	-10.5128
非一	-10.5128
可知也	-10.5132
陽動	-10.5135
來而	-10.5138
其子	-10.5139
為道	-10.5142
薛	-10.5145
巷	-10.5146
各有所	-10.5148
十二卦	-10.5152
利往	-10.5163
宰	-10.517
不立	-10.5172
為功	-10.5178
乎夫	-10.5179
成卦之主	-10.5179
獨行	-10.5182
龍徳	-10.5186
者聖人	-10.5189
聖人於	-10.519
大難	-10.5191
之制	-10.5192
有濟	-10.5195
山川	-10.5196
宇	-10.52
方來	-10.52
鎮	-10.5201
遊	-10.5201
萃聚	-10.5202
易之為書	-10.5204
舜之	-10.5215
巽風	-10.5215
利者	-10.5218
此句	-10.5225
我者	-10.5226
弧	-10.5232
艮山	-10.5233
失其正	-10.5236
此說	-10.5238
屢	-10.5238
初六之	-10.5243
當然	-10.525
利艱貞	-10.525
家道	-10.5251
戒以	-10.5252
感而	-10.5252
詐	-10.5255
變之	-10.5256
誨	-10.5256
中故	-10.5257
南北	-10.5259
禽獸	-10.526
子思	-10.5266
所安	-10.5269
坤為地	-10.527
一剛	-10.5271
所載	-10.5272
張子	-10.5274
導	-10.5284
一百	-10.5286
李子思曰	-10.5286
張子曰	-10.5287
而爲	-10.5288
乃是	-10.529
也初六	-10.5294
火之	-10.5299
又在	-10.5304
八十	-10.5308
六隂	-10.5309
統天	-10.531
舞	-10.5312
而不見	-10.5312
十日	-10.5317
項平甫曰	-10.5318
聖人因	-10.5321
本文	-10.5321
朱氏附録	-10.5323
初與二	-10.5324
皆不	-10.5325
坎坎	-10.5325
損下	-10.5326
知者	-10.5329
有徳	-10.5333
名卦	-10.5337
臭	-10.5338
活	-10.5341
奢	-10.5342
穉	-10.5344
未至於	-10.5344
禍福	-10.5344
其分	-10.5346
文言曰	-10.535
馮	-10.5353
丈	-10.5358
翼傳曰	-10.5362
咸臨	-10.5363
巽而	-10.5365
為无咎	-10.5365
也至於	-10.5366
中四爻	-10.5367
之所為	-10.5369
亦不可	-10.5371
漢儒	-10.5372
二象	-10.5373
器也	-10.5377
實有	-10.5384
尚有	-10.5384
之數也	-10.5384
疑也	-10.5385
臧	-10.5387
墉	-10.539
名之曰	-10.5393
䷠	-10.5394
銖	-10.5395
秋冬	-10.5396
七八九六	-10.5397
乎外	-10.5399
難知	-10.5405
能濟	-10.5405
而不用	-10.5409
而後可以	-10.5414
則自	-10.5417
萬國	-10.5418
之嫌	-10.5419
䷋	-10.5421
初三	-10.5421
濳	-10.5421
䷊	-10.5422
是説	-10.5423
天子之	-10.5428
而使之	-10.5429
風雨	-10.5429
為六	-10.543
去小人	-10.5431
三字	-10.5431
疑其	-10.5432
窮也	-10.5433
失其所	-10.5437
一端	-10.544
其形	-10.5443
易言	-10.545
彖所謂	-10.5451
濫	-10.5452
者正	-10.5452
黄裳	-10.5459
濟蹇	-10.5462
動物	-10.5466
黑	-10.5469
常理	-10.5471
不能濟	-10.5472
成坎	-10.5472
陷於	-10.5473
乾坤二卦	-10.5473
而安	-10.5473
遷國	-10.5476
灌	-10.5481
犯難	-10.5483
以五	-10.5485
似乎	-10.5487
之徳也	-10.5489
然以	-10.549
調	-10.5496
穢	-10.5498
在人則	-10.55
羅	-10.5506
磐桓	-10.5508
六龍	-10.5509
之水	-10.551
故名	-10.5515
笑言啞啞	-10.5519
春夏	-10.552
各正	-10.5521
二二	-10.5529
正月	-10.553
者多矣	-10.5532
歸妹之	-10.5533
収	-10.5539
徳業	-10.5542
雖不當位	-10.5544
行止	-10.5545
洗心	-10.5546
隨人	-10.5547
不可為	-10.5547
失時	-10.5547
分而	-10.5547
一例	-10.5554
疑於	-10.5557
一般	-10.5566
歛	-10.5566
凌	-10.5567
示人以	-10.5568
有象	-10.5568
闔闢	-10.5569
休息	-10.5577
六爻之	-10.5579
文義	-10.5582
已具	-10.5587
始有	-10.5588
式	-10.559
人物	-10.5591
之悔	-10.5591
齒	-10.5591
祉	-10.5593
于陽	-10.5595
毫	-10.5596
二雖	-10.5596
䷒	-10.5597
撫	-10.5597
遁	-10.5599
雲峯胡氏曰	-10.5601
於身	-10.5603
无眚	-10.5606
成象	-10.5607
巽入	-10.5609
而言之	-10.5611
凡物	-10.5612
上卦之	-10.5614
秀	-10.5622
戕	-10.5624
之本體	-10.5624
大徳	-10.5629
隅	-10.5634
初則	-10.5634
終不	-10.5636
不獲	-10.5639
无方	-10.5644
以四	-10.5646
非徒	-10.5647
動於	-10.5649
三女	-10.5651
暇	-10.5652
致一	-10.5653
初以	-10.5653
筆	-10.5653
為難	-10.5654
禀	-10.5656
寂然不動	-10.5656
遍	-10.5656
終則有始	-10.5657
治蠱	-10.5661
謂乾	-10.5661
非是	-10.5662
是能	-10.5664
也朱子曰	-10.5665
而不失	-10.5667
之自然	-10.5667
孕	-10.5667
微而	-10.5671
有慶也	-10.5676
成離	-10.5676
或作	-10.5676
其象為	-10.5681
駕	-10.5682
不遇	-10.5683
三男	-10.5685
鬯	-10.5685
地而	-10.5688
險中	-10.569
立象	-10.5693
欲進	-10.5697
遷善	-10.5705
傷也	-10.5706
從容	-10.5707
然後可	-10.5713
熱	-10.5713
方其	-10.5713
愚曰	-10.5715
以柔居柔	-10.5717
久而	-10.5718
剛中正	-10.5719
乎故曰	-10.5721
九家	-10.5724
之害	-10.5725
一段	-10.5728
筮得	-10.5731
為卦主	-10.5731
幼	-10.5732
之所能	-10.5733
順承	-10.5738
上面	-10.5738
粹	-10.574
憑	-10.5741
明者	-10.5744
山澤通氣	-10.5744
揆	-10.5745
中正之徳	-10.5751
正故	-10.5753
不妄	-10.5755
七十二	-10.5756
帛	-10.5762
全在	-10.5763
可疑	-10.5764
位乎	-10.5767
碩	-10.577
林黄中曰	-10.5771
有物	-10.5773
之福	-10.5773
所止	-10.5779
緼	-10.578
相類	-10.5785
天氣	-10.5788
柔也	-10.5788
生民	-10.5792
而猶	-10.5793
崩	-10.5795
以謙	-10.5797
歡	-10.5797
包承	-10.5798
再三	-10.5798
天下後世	-10.5799
様	-10.5799
王者之	-10.5803
也哉	-10.581
求養	-10.581
或者	-10.5815
方能	-10.5816
然後有	-10.5819
崔憬曰	-10.5821
一竒	-10.5822
圜	-10.5822
相須	-10.5824
鬼方	-10.5825
二與四	-10.5826
從此	-10.5828
正應而	-10.5832
見大人	-10.5842
而必	-10.5848
異矣	-10.5848
利用獄	-10.585
大率	-10.585
耳故	-10.5851
䷀	-10.5852
相繼	-10.5855
以隂居	-10.586
以陽居陽	-10.5864
既未濟	-10.5865
位在	-10.5865
七十	-10.5866
而至于	-10.5867
係之	-10.5868
多寡	-10.5869
休否	-10.5869
於其間	-10.587
陽居	-10.5872
旨	-10.5877
則止	-10.588
辨之	-10.5884
播	-10.5887
也而爻辭云爾者	-10.589
藍田吕氏曰	-10.5891
變卦	-10.5892
居正	-10.5895
得一	-10.5896
寛裕	-10.5897
王道	-10.59
陽故	-10.5902
既曰	-10.5902
上窮	-10.5906
之責	-10.591
而吉也	-10.5915
王之	-10.5916
利于	-10.5917
恒也	-10.5919
幽人	-10.5923
甚大	-10.5927
不同也	-10.593
四陰	-10.593
乎然	-10.5931
專以	-10.5935
禮義	-10.5935
已之	-10.5938
震為足	-10.5941
丘園	-10.5943
羲皇	-10.5945
之迹	-10.5945
㢲為	-10.5948
宏	-10.5948
下比	-10.5949
无喪	-10.5952
盡性	-10.5954
合于	-10.5958
不相得	-10.596
重巽	-10.5961
條理	-10.5963
初在下	-10.5963
亨而	-10.5965
剛上	-10.5966
他人	-10.5967
得位而	-10.5968
誠敬	-10.5969
性也	-10.5971
使天下	-10.5973
止其所	-10.5977
添	-10.5977
投	-10.5978
鋭	-10.5979
為巽	-10.5981
係於	-10.5983
變乾	-10.5983
層	-10.5985
皆謂	-10.5987
行矣	-10.5991
易傳曰	-10.5991
天下事	-10.5991
納甲	-10.5992
淺深	-10.5998
入而	-10.5999
之疾	-10.6001
從人	-10.6003
離為目	-10.6003
而得其	-10.6003
鬱	-10.6004
又能	-10.6005
居内	-10.6007
曹	-10.6007
乏	-10.6007
豐之	-10.6008
圎	-10.6008
又不	-10.601
文明之	-10.6011
无大咎	-10.6012
卦德	-10.6013
一世	-10.6015
岐山	-10.6016
繫辭曰	-10.6018
黄中	-10.6021
重明	-10.6023
得正故	-10.6024
天地之氣	-10.6027
脉	-10.603
粗	-10.6034
交感	-10.6035
蒸	-10.6036
中者	-10.6036
逺之	-10.6039
頻復	-10.6039
虩虩	-10.6045
剛過	-10.6046
升之	-10.6047
如是而	-10.6047
以剛居	-10.6051
太和	-10.6054
為人所	-10.6058
帝乙歸妹	-10.6059
五變	-10.6064
不犯	-10.6065
順天	-10.6074
施之	-10.6075
終日乾乾	-10.6078
在已	-10.6085
居下之上	-10.6086
故可	-10.6092
頼	-10.6094
為小	-10.6096
三三	-10.6097
爾雅	-10.6098
鮒	-10.6099
嗃嗃	-10.61
勿用取女	-10.61
翩翩	-10.6102
繼之	-10.6106
之所謂	-10.6108
於其	-10.6109
水流	-10.611
四十八	-10.6114
獨立	-10.6114
牖	-10.6122
腊	-10.6123
知此	-10.6125
規	-10.613
訟者	-10.613
䷥	-10.6131
通乎	-10.6133
體而	-10.614
而可以	-10.6141
兑為	-10.6147
事事	-10.615
王輔嗣曰	-10.615
花	-10.6152
髪	-10.6152
之憂	-10.6153
慮其	-10.6155
未安	-10.6157
過剛不中	-10.6158
得時	-10.6158
厄	-10.616
東萊吕氏曰	-10.6161
無可	-10.6164
之變化	-10.6164
成矣	-10.6167
晦其明	-10.6169
凶事	-10.6169
至正	-10.6174
享帝	-10.6177
直方	-10.6177
應天	-10.6178
老少	-10.6182
頑	-10.6185
二百	-10.6187
何謂	-10.6194
其剛	-10.6195
太平	-10.6196
在下之	-10.6197
所以有	-10.62
一曰	-10.6201
女壯	-10.6202
三句	-10.6208
聞之	-10.6213
同於	-10.6214
夤	-10.6217
濟之	-10.6219
之罪	-10.622
為事	-10.6224
為剛	-10.6224
網罟	-10.6226
髙明	-10.623
已過	-10.6234
方位	-10.6235
也唯	-10.6236
大中	-10.6238
以隂柔居	-10.6243
稼	-10.6244
賁飾	-10.6247
婚	-10.6248
大學	-10.6249
不外	-10.625
聖人之意	-10.6251
相近	-10.6253
其次	-10.6256
重變	-10.6259
之孚	-10.6259
涉大川	-10.6262
牝牛	-10.6262
少陰	-10.6265
无間	-10.6266
利涉	-10.6268
者當	-10.6272
易説	-10.6275
兑下	-10.6275
狂	-10.6277
挽	-10.628
三與四	-10.6286
因而重之	-10.6286
可吝	-10.6288
睽之	-10.629
應二	-10.6293
以往	-10.6293
時有	-10.6294
以相	-10.6296
也傳曰	-10.6298
四句	-10.6298
動之	-10.6298
書契	-10.6302
吾之	-10.6302
人亦	-10.6303
大通	-10.6306
不可大事	-10.6309
者然	-10.6309
未明	-10.631
隐	-10.6311
刺	-10.6311
四正	-10.6311
衆也	-10.6315
无成	-10.6316
何可	-10.6325
愧	-10.6326
知險	-10.6328
陽剛之	-10.633
散而	-10.633
恒久	-10.6332
靖	-10.634
小人之道	-10.6342
占法	-10.6344
帝出乎震	-10.6345
而萬物	-10.6346
於後	-10.6347
相同	-10.6347
不入	-10.6349
之人也	-10.6349
丙	-10.635
底意思	-10.6351
為三	-10.6351
為二	-10.6352
盤	-10.6355
卦主	-10.6358
于民	-10.6359
戮	-10.6367
程朱	-10.6367
姚	-10.6369
鄭云	-10.6373
乃以	-10.6375
舟楫	-10.6375
之材	-10.6378
大過之	-10.638
之成	-10.6382
不雜	-10.6389
之生	-10.6394
交際	-10.6395
也觀	-10.6397
得尊位	-10.6402
冀	-10.6403
英	-10.6403
疆	-10.6405
其誠	-10.6405
所以明	-10.6406
之論	-10.6406
天數	-10.6406
噫	-10.6407
爻為	-10.6412
能致	-10.6412
上巽	-10.6413
成就	-10.6415
有功也	-10.6416
譬之	-10.6416
小事吉	-10.6418
摩	-10.642
而在下	-10.6421
焉是	-10.6422
百里	-10.6425
革也	-10.6429
釐	-10.6429
翔	-10.6431
蹇難	-10.6431
遇雨	-10.6432
頤之	-10.6432
往者	-10.6435
欽	-10.6437
訛	-10.6437
蒼	-10.6439
後儒	-10.644
取女	-10.6445
為木	-10.6446
其質	-10.6453
求益	-10.6459
恃其	-10.646
而弗	-10.6463
補過	-10.6463
禪	-10.6464
羑里	-10.6465
叅	-10.6467
三歲	-10.647
一本	-10.6471
䷪	-10.6472
䷂	-10.6476
卑巽	-10.6479
先王以	-10.6485
為句	-10.6486
以此為	-10.649
釋文	-10.649
而取	-10.6494
變故	-10.6497
平聲	-10.6498
峻	-10.6501
其吉	-10.651
君臣之	-10.651
得君	-10.6513
陽消	-10.6515
所生	-10.6518
功用	-10.6518
大凡	-10.6519
白雲曰	-10.6522
左次	-10.6522
㑹通	-10.6526
頓	-10.6527
由此	-10.6529
初變	-10.653
行道	-10.653
中順	-10.6533
不可得	-10.6534
迷復	-10.6537
䷝	-10.6538
䷖	-10.6539
亦皆	-10.6549
而從之	-10.655
非所	-10.655
不失其正	-10.655
莧	-10.6551
道之大	-10.6551
棲	-10.6555
曰吾	-10.6556
處險	-10.6556
攸往	-10.6556
穿	-10.6558
占得	-10.6558
䷫	-10.6561
䷗	-10.6565
云爾	-10.6568
何必	-10.6574
是聖人	-10.6576
者哉	-10.6578
能行	-10.658
必然	-10.6584
謂四	-10.6585
屯難	-10.6587
直方大	-10.6588
是箇	-10.659
拜	-10.6591
阿	-10.6593
傳云	-10.6598
毁折	-10.6598
五曰	-10.6599
牲	-10.66
人事之	-10.6611
為否	-10.6617
而不變	-10.662
此之謂也	-10.6621
徤	-10.6625
遘	-10.6628
上交	-10.663
亦云	-10.6631
初剛	-10.6633
乘之	-10.6633
之小人	-10.6639
遯而	-10.6644
隂隂	-10.6644
下則	-10.6645
應乎天	-10.6649
超	-10.6656
邱	-10.6656
緒	-10.6657
无功	-10.6658
輿尸	-10.6659
無一	-10.6659
于野	-10.666
有心	-10.6661
噬膚	-10.6665
與其	-10.6666
應剛	-10.6667
方圖	-10.6667
䷓	-10.6668
吉矣	-10.6669
卦下	-10.667
柔順而	-10.6672
炁	-10.6673
釋卦名義	-10.6674
舊説	-10.6678
間之	-10.6682
其吉凶	-10.6682
僻	-10.6685
樞	-10.6687
蓍之	-10.6687
修徳	-10.6688
卦惟	-10.6692
包犧	-10.6692
者以此	-10.6694
老婦	-10.6699
合徳	-10.6699
三陰	-10.6704
㸃	-10.6705
不顧	-10.6708
庻	-10.6709
四月	-10.6709
吐	-10.6719
剛而得中	-10.672
弛	-10.6721
文周	-10.6722
可大	-10.6723
至上	-10.6723
敦厚	-10.6725
安靜	-10.6726
尚未	-10.6728
不獲其身	-10.6729
隂位	-10.6734
地也	-10.6735
大畜之	-10.6744
下賢	-10.6749
菑	-10.6752
陽徳	-10.6754
方得	-10.6755
因之	-10.676
生育	-10.676
大亨以正	-10.6762
一分	-10.6765
生之	-10.6768
變坤	-10.6769
奥	-10.6771
裏	-10.6772
位則	-10.6778
震雷	-10.6778
之狀	-10.6779
无復	-10.678
衝	-10.6782
三曰	-10.6785
告公	-10.6792
也故為	-10.6793
䷐	-10.6794
矣是以	-10.6796
其罪	-10.6799
䷜	-10.6799
不能盡	-10.6801
上下相	-10.6802
整	-10.6803
不受	-10.6805
排	-10.6808
所比	-10.6809
主人	-10.681
尚往	-10.681
四分	-10.6811
為復	-10.6812
貼	-10.6813
必至於	-10.6814
矣今	-10.6815
脚	-10.6816
諸陽	-10.6818
顛倒	-10.6821
愆期	-10.6822
貧賤	-10.6823
二居	-10.6825
于君	-10.6827
所以吉也	-10.6827
不識	-10.6829
䷎	-10.6831
豹	-10.6832
後之	-10.6832
何能	-10.6838
應故	-10.6841
防之	-10.6842
險在前	-10.6848
哲	-10.6848
托	-10.6851
赤紱	-10.6854
男下女	-10.6855
方長	-10.6855
濡其首	-10.6855
不云	-10.6857
非特	-10.6858
爻也	-10.6858
非應	-10.6859
于物	-10.686
乎人	-10.686
䷲	-10.6862
可得	-10.6862
䷁	-10.6863
意也	-10.6863
故初	-10.6871
非禮	-10.6876
猶之	-10.6876
於坤	-10.6876
來居	-10.6878
而受	-10.688
恕	-10.688
以卦體	-10.6881
易學	-10.6882
勉之	-10.6882
影	-10.6882
姬	-10.6884
彖𫝊	-10.6886
两	-10.6886
不定	-10.6887
皆當	-10.6888
文飾	-10.689
成文	-10.6891
陰爻	-10.6891
者如此	-10.6894
所隨	-10.6897
有他	-10.6898
所麗	-10.6901
體也	-10.6904
以徳	-10.6905
恒之	-10.6906
自知	-10.6906
不可復	-10.6907
人生	-10.6912
寔	-10.6913
自上	-10.6914
斥	-10.6915
居位	-10.6918
在田	-10.6919
逆數	-10.6919
而忘	-10.6921
有理	-10.6922
叢	-10.6924
於前	-10.6926
不論	-10.6926
九月	-10.6927
二五之	-10.6929
不移	-10.693
四雖	-10.693
五雖	-10.6934
上章	-10.6934
增	-10.6937
以制	-10.6941
遇毒	-10.6942
為火	-10.6942
縮	-10.6944
瓜	-10.6946
與下	-10.6947
磨	-10.6948
大槩	-10.6949
庇	-10.695
文公	-10.695
不可為典要	-10.6951
忤	-10.6952
互相	-10.6953
故无	-10.6954
何有	-10.6957
䷰	-10.6958
无咎矣	-10.6959
以卦	-10.6959
」	-10.696
䷆	-10.6961
䷨	-10.6962
徃則	-10.6963
信而	-10.6965
无他	-10.6965
施於	-10.6968
桷	-10.6978
飽	-10.698
者也夫	-10.698
虚而	-10.6981
崔	-10.6982
是以君子	-10.6984
此所以為	-10.6988
相資	-10.699
䷴	-10.6992
七月	-10.6993
爻之辭	-10.6995
䷦	-10.6998
朱氏曰	-10.7
陸績	-10.7001
四體	-10.7002
安静	-10.7005
取於	-10.7006
相見	-10.7007
二十五	-10.7008
資斧	-10.7009
之化	-10.701
澤中	-10.7011
無形	-10.7015
赦	-10.7015
通天下之志	-10.7015
再扐	-10.7017
朕	-10.7017
引之	-10.7023
助之	-10.7024
䷇	-10.7028
晏	-10.703
見天地之心	-10.703
下面	-10.7037
比于	-10.704
逵	-10.7044
禴	-10.7046
利而	-10.7047
隋	-10.705
不居	-10.7054
而難	-10.7054
不可測	-10.7055
之别	-10.7057
只管	-10.7058
䷟	-10.7058
物者	-10.7059
利女貞	-10.706
䷚	-10.7061
䷶	-10.7062
三才之道	-10.7063
斯為	-10.7068
有實	-10.7073
近于	-10.7075
付	-10.7077
供	-10.708
天下皆	-10.7082
徇	-10.7084
以利	-10.7087
得民	-10.7088
剝之	-10.7088
可以知	-10.7089
不寧	-10.7089
危而	-10.7089
收斂	-10.7089
兩句	-10.7093
其㫖	-10.7094
應在	-10.7095
順理	-10.7095
和樂	-10.7097
異乎	-10.7097
二爻皆	-10.7099
剛柔相推	-10.7102
涸	-10.7104
無私	-10.7105
乾一	-10.7107
其咎	-10.7107
之半	-10.7108
至神	-10.7108
一念	-10.711
而遂	-10.711
寫	-10.7115
靣	-10.7116
畬	-10.7117
七日來復	-10.7121
盡善	-10.7122
兊澤	-10.7123
言聖人	-10.7123
宫室	-10.7125
而益	-10.7126
抵	-10.7126
坎陷	-10.7127
為文	-10.7128
豐大	-10.7132
易卦	-10.7135
之弊	-10.7137
不忍	-10.714
夢	-10.7144
往来	-10.7144
卦為	-10.7146
属	-10.7148
重隂	-10.7154
䷺	-10.7157
夬姤	-10.7158
䷩	-10.7159
發其	-10.716
䷸	-10.7161
䷄	-10.7161
交相	-10.7161
資生	-10.7162
䷑	-10.7162
不勝其	-10.7164
䷭	-10.7164
䷳	-10.7165
矣惟	-10.7167
凶而	-10.7168
正其	-10.7168
孚于	-10.7169
卦之名	-10.7169
奈何	-10.7171
聖賢之	-10.7174
衞	-10.7175
觀我生	-10.7175
守貞	-10.7175
長而	-10.7176
皆所以	-10.7177
不相應	-10.7179
貧	-10.718
割	-10.7182
時用	-10.7182
以剛居剛	-10.7182
侮	-10.7183
卵	-10.7183
赴	-10.7183
苞	-10.7186
明堂	-10.7189
而得之	-10.719
最下	-10.7191
風行	-10.7192
、	-10.7193
二義	-10.7195
六日	-10.7196
䷮	-10.7196
明出地上	-10.7197
䷬	-10.7199
盈虚	-10.7201
居隂	-10.7204
懼其	-10.7211
有兩	-10.7211
愬愬	-10.7214
各以	-10.7214
離象	-10.7216
奏	-10.7216
或云	-10.7217
用九用六	-10.7218
程正叔曰	-10.722
而合	-10.7222
應也	-10.7224
夫婦之道	-10.7225
䷞	-10.7228
二篇	-10.7232
憂虞	-10.7235
之益	-10.7238
見幾	-10.7239
形體	-10.7239
唯其	-10.724
舌	-10.7244
上下交	-10.7245
此一	-10.7246
墮	-10.7249
狩	-10.725
非其位	-10.725
􁁇(	-10.7252
也然而	-10.7253
未失	-10.7254
𤼵明	-10.7254
者豈	-10.7255
可乆	-10.7255
推易	-10.7258
純乎	-10.7258
此一爻	-10.7259
不思	-10.727
胡仲虎曰	-10.727
王母	-10.7273
大壮	-10.7275
居下而	-10.7277
以示人	-10.7279
欠	-10.7279
另	-10.7283
繘	-10.7285
也天地	-10.7285
不覺	-10.7285
標	-10.7286
仁也	-10.7287
治獄	-10.7287
自上而下	-10.7287
重在	-10.7289
開物成務	-10.7289
蕭	-10.7293
人倫	-10.7295
上說	-10.7296
在位	-10.7297
變坎	-10.7298
䷏	-10.7299
䷯	-10.73
六十四卦之	-10.7301
與人同	-10.7307
處於	-10.7308
此語	-10.7308
天下之民	-10.7309
其孚	-10.731
自反	-10.7311
渉大川	-10.7312
為八	-10.7318
摇	-10.7319
聖人之心	-10.7319
程𫝊	-10.7321
教化	-10.7321
乎中	-10.7323
屬隂	-10.7331
之業	-10.7333
無事	-10.7335
五則	-10.7336
君臣相	-10.7339
需訟	-10.734
本于	-10.7342
者明	-10.7342
洊	-10.7344
不以正	-10.7344
憂之	-10.7345
已上	-10.7347
為六十四卦	-10.7348
正矣	-10.7349
懿	-10.7353
始而	-10.7354
雲行雨施	-10.7355
枕	-10.7355
慾	-10.7356
狠	-10.7356
觀民	-10.7358
又居	-10.7358
艮手	-10.7363
紛	-10.7366
做得	-10.7369
䷃	-10.737
誘	-10.7371
流通	-10.7371
升而	-10.7378
坤地	-10.7381
自然之理	-10.7381
无害	-10.7383
吏	-10.7384
苗	-10.7386
網	-10.7386
巽在牀下	-10.7386
專言	-10.7387
其所以然	-10.7389
詳見	-10.7394
序卦曰	-10.7397
悔也	-10.7397
為物	-10.7403
也彖曰	-10.7403
未甞	-10.7403
晁氏	-10.7405
弋	-10.7406
氣質	-10.7421
攷	-10.7424
恐人	-10.7425
得五	-10.7426
人自	-10.7429
偕	-10.7433
是知	-10.7433
為虎	-10.7433
以貞	-10.7435
玉鉉	-10.7436
地勢	-10.7437
䷕	-10.7437
䷧	-10.7438
敦復	-10.7438
矣其	-10.744
辨物	-10.744
配合	-10.7441
䷢	-10.7441
功也	-10.7442
則利	-10.7445
多矣	-10.7446
之幾	-10.7448
治也	-10.7452
字與	-10.7452
所施	-10.7452
又謂	-10.7452
三公	-10.7454
不輕	-10.7455
肖	-10.7457
坦	-10.7461
得其道	-10.7461
之類皆	-10.7462
中溪張氏曰	-10.7462
兌澤	-10.7463
濟屯	-10.7476
也巽	-10.7479
亡也	-10.7481
擊之	-10.7482
順動	-10.7485
牢	-10.7489
醫	-10.7489
動以	-10.7491
不誠	-10.7491
擬之	-10.7491
日月星辰	-10.7493
天心	-10.7493
􁁆(	-10.7496
剛柔分	-10.7498
弗過	-10.75
有命	-10.75
而卒	-10.7503
志不	-10.7505
䷉	-10.7505
䷹	-10.7508
知止	-10.7508
東西	-10.7509
則已	-10.7511
天地之化	-10.7513
此數	-10.7514
本非	-10.752
極必	-10.7523
初畫	-10.7523
則必有	-10.7525
極盛	-10.7526
幹父之蠱	-10.7529
鼓舞	-10.7531
緫	-10.7531
𤣥黄	-10.7535
惡人	-10.7537
萬邦	-10.7539
陸氏	-10.754
能勝	-10.7542
其善	-10.7544
「	-10.7545
刑罰	-10.7553
畜止	-10.7553
玄	-10.7553
五居尊位	-10.7554
之原	-10.7554
已甚	-10.7554
懦	-10.7555
頂	-10.7555
姜	-10.7556
庖	-10.7557
化成	-10.7563
進徳	-10.7566
中男	-10.7567
十三卦	-10.7567
大義	-10.7572
不可貞	-10.7572
以觀	-10.7574
其書	-10.7578
兩端	-10.7579
坤坤	-10.758
正大	-10.7584
不亂	-10.7586
本有	-10.7587
髙而	-10.7588
第四	-10.7591
雜卦曰	-10.7592
其失	-10.7592
无初有終	-10.7594
人之道	-10.7597
震來	-10.7598
見傷	-10.7603
此非	-10.7604
月令	-10.7607
蓋取諸	-10.7607
名曰	-10.7608
以通	-10.7608
伐鬼方	-10.7611
䷻	-10.7613
止言	-10.7613
一息	-10.7615
在彼	-10.7623
五與二	-10.7624
可羞	-10.7625
有節	-10.7627
逞	-10.763
爻詞	-10.763
臺	-10.7631
透	-10.7632
喪朋	-10.7633
所求	-10.7633
先迷	-10.7636
成徳	-10.7638
攣	-10.7638
而无咎也	-10.7638
正以	-10.7642
似之	-10.7643
中直	-10.7646
至精	-10.7649
䷅	-10.765
之終也	-10.7653
小吝	-10.7654
髙位	-10.7655
繼明	-10.7657
岸	-10.7662
内而	-10.7664
相薄	-10.7664
居於	-10.7665
約象	-10.7665
臣位	-10.7666
顚	-10.7666
非人	-10.7667
以卦體言	-10.7669
逸豫	-10.7674
多凶	-10.7675
李氏曰	-10.7675
終也	-10.7679
未足	-10.768
莧陸	-10.768
亂也	-10.768
當從	-10.7681
孔疏	-10.7681
斷之	-10.7681
吉亨	-10.7682
專一	-10.7683
變而成	-10.7685
别有	-10.7692
乾鑿度	-10.7693
是以謂之	-10.7697
得坤	-10.7699
霸	-10.7701
凢	-10.7702
尚可	-10.7703
泰卦	-10.7703
地數	-10.7705
又按	-10.7705
蘇氏曰	-10.7706
蘭	-10.7706
龍德	-10.7707
得中而	-10.7708
此書	-10.7709
劉牧	-10.7712
譬如	-10.7713
隂陽之氣	-10.7714
飲酒	-10.7716
説者	-10.7717
既濟之時	-10.7717
君子之所	-10.7717
位當	-10.7718
之會	-10.7719
上出	-10.7726
彖爻	-10.7726
不孤	-10.7733
此一爻是言	-10.7734
二女	-10.7734
宥	-10.7735
棘	-10.7736
以治	-10.7738
簪	-10.7738
不逺	-10.7739
而何	-10.774
耒耜	-10.7741
止而不	-10.7742
肇	-10.7742
能畜	-10.7745
始雖	-10.7745
䷷	-10.7753
盈滿	-10.7756
成務	-10.7756
孰能	-10.7759
千里	-10.776
下句	-10.7761
挂	-10.7763
為觀	-10.7763
卦之上	-10.7769
有險	-10.7769
雷震	-10.7769
翻	-10.7771
囘	-10.7772
昵	-10.7773
焦	-10.7774
止是	-10.7775
自任	-10.7778
以斷	-10.778
故於	-10.778
禮也	-10.7782
者若	-10.7788
欲人	-10.7788
承陽	-10.7791
過矣	-10.7792
小人勿用	-10.7793
終不能	-10.7794
六月	-10.7801
畫之	-10.7801
卦自	-10.7806
只為	-10.7807
名之	-10.7808
風之	-10.781
柔得位	-10.7812
一身之	-10.7815
不常	-10.7816
於險	-10.7816
寂然	-10.7816
君子所以	-10.7819
不厭	-10.782
血氣	-10.782
晉之	-10.782
能亨	-10.7822
而不進	-10.7824
應爻	-10.7824
士夫	-10.7825
大作	-10.7826
自乾坤	-10.7828
䷱	-10.7828
於已	-10.7828
一隂一陽之謂道	-10.783
為凶	-10.7832
四與初	-10.7834
法則	-10.7834
占者如是則	-10.7834
不逺復	-10.7834
制度	-10.7835
矣哉	-10.7836
而不通	-10.7841
見乎	-10.7842
四時之	-10.7848
穿鑿	-10.7848
之過也	-10.7848
集䟽	-10.7849
莫若	-10.785
異於	-10.7852
為悔	-10.7852
之物也	-10.7859
有漸	-10.7859
生也	-10.7861
實理	-10.7862
用兵	-10.7865
風俗	-10.7866
夫子之	-10.7866
邵	-10.7873
人臣之	-10.7874
雅	-10.7875
動體	-10.7878
積之	-10.7878
瓦	-10.7878
確然	-10.7878
楊氏	-10.7878
叢棘	-10.7881
包羞	-10.7883
不可亂	-10.7884
今按	-10.7884
故二	-10.7885
兩象	-10.7886
為明	-10.7887
行有尚	-10.7889
中虛	-10.789
不稱	-10.7895
如人	-10.7895
之險	-10.7896
此乃	-10.7897
來則	-10.7902
臨觀	-10.7903
者或	-10.7904
襍	-10.7905
為賁	-10.7907
參伍	-10.7909
以成其	-10.7909
九十	-10.7909
十卷	-10.791
故其辭	-10.7912
以柔居剛	-10.7913
陸徳明	-10.7915
隂居	-10.7915
張氏	-10.7917
人之心	-10.7918
齧	-10.7918
黄帝堯舜	-10.7923
存之	-10.7926
中孚小過	-10.7927
則隂	-10.7932
白賁	-10.7933
不果	-10.7934
為節	-10.7935
二應五	-10.7936
坤元	-10.7939
正家	-10.7939
九家易曰	-10.7943
兊口	-10.7944
子孫	-10.7946
為我	-10.7946
元者	-10.7949
稊	-10.795
陶	-10.7951
致逺	-10.7952
齋戒	-10.7954
為馬	-10.7954
同功	-10.7955
而不及	-10.7955
之次	-10.7955
作為	-10.7956
二月	-10.7956
隂虚	-10.7956
光輝	-10.7957
作樂	-10.7958
故可以	-10.7959
各正性命	-10.7959
為九	-10.7959
烹	-10.7966
可以見	-10.7967
義同	-10.7967
言君子	-10.7969
生氣	-10.7969
勞謙	-10.7972
不徒	-10.7976
乎哉	-10.7977
而與之	-10.7977
媵	-10.7978
卦才	-10.798
加一	-10.798
渾然	-10.7984
逺害	-10.7984
得所	-10.7988
翟	-10.799
无尤	-10.7991
不離	-10.7992
初曰	-10.7993
牡	-10.7994
不仁	-10.7994
而不復	-10.7994
侵伐	-10.7995
與夫	-10.7995
夫婦之	-10.7996
自用	-10.7998
立而	-10.8001
天五	-10.8002
則宜	-10.8004
五爻皆	-10.8008
柔則	-10.8008
六五之君	-10.8012
曲直	-10.8012
輔之	-10.8012
右手	-10.8014
天地人	-10.8016
䟽	-10.8023
師比	-10.8024
為孚	-10.8024
古易	-10.8024
榖	-10.8025
爛	-10.8025
天下之道	-10.8026
莫不有	-10.8027
大善	-10.8028
以喻	-10.8029
夘	-10.8029
四隅	-10.803
起于	-10.8031
其卦為	-10.8032
純坤	-10.8034
蔡氏	-10.8035
精氣	-10.8036
靈龜	-10.8036
困于	-10.8037
離麗也	-10.804
利居貞	-10.8041
剛者	-10.8042
總論	-10.8042
也此爻	-10.8045
得其位	-10.8045
無有	-10.8049
戀	-10.8049
未可以	-10.805
非可	-10.8053
稱龍	-10.8053
同上	-10.8054
君子處	-10.8055
只有	-10.806
初陽	-10.8061
淪	-10.8062
上曰	-10.8062
㳺	-10.8064
躋	-10.8066
於世	-10.8066
出處	-10.8068
月幾望	-10.8069
多言	-10.807
第十	-10.8073
未易	-10.8075
安也	-10.8076
易有太極	-10.8076
終凶	-10.8077
不可易	-10.808
是皆	-10.8081
以説	-10.8081
親比	-10.8086
成震	-10.8089
吾身	-10.809
居中而	-10.809
信乎	-10.8091
隂生	-10.8095
天時	-10.8097
几	-10.8097
君心	-10.8099
呂	-10.81
裒	-10.8101
門闕	-10.8106
精微	-10.8107
堅氷	-10.8107
觀變	-10.8108
一言	-10.8108
之長	-10.8109
從五	-10.8109
變離	-10.8111
今乃	-10.8111
乾元亨利貞	-10.8113
不來	-10.8117
而巽	-10.8119
原本	-10.8119
雖在	-10.812
乃吉	-10.8121
撝	-10.8123
危也	-10.8125
初隂	-10.8127
齋曰	-10.8128
盛德	-10.8129
之民	-10.8129
于易	-10.8131
本意	-10.8135
臨下	-10.8135
諭	-10.8135
其惡	-10.8136
暮	-10.8136
之語	-10.8137
侍	-10.8137
蒺藜	-10.8137
𤯝	-10.8138
卑而	-10.8138
危矣	-10.8144
兑之	-10.8148
者凡	-10.8151
无陽	-10.8151
最為	-10.8154
月之	-10.8155
大人之	-10.8157
養正	-10.8158
丘氏曰	-10.816
自天	-10.816
終无尤也	-10.8164
烹飪	-10.8165
由於	-10.8166
之亨	-10.8166
之中有	-10.8167
西郊	-10.8169
之象故曰	-10.8173
方可	-10.8173
繻	-10.8174
經曰	-10.8176
眼	-10.8176
囊	-10.8176
叚	-10.8177
出也	-10.8178
不可行	-10.8179
共濟	-10.8179
禮之	-10.8179
以止	-10.8182
之閒	-10.8182
於正	-10.8184
以六	-10.8184
夙	-10.8185
吉之道也	-10.8187
卦之主	-10.8187
竒數	-10.8188
成於	-10.8194
吉㐫	-10.8196
御天	-10.8199
曠	-10.82
渉川	-10.8201
自坤	-10.8204
龔	-10.8205
視其	-10.8208
又必	-10.821
龍之	-10.8211
郡	-10.8213
化而	-10.8218
事有	-10.822
素履	-10.8221
臣妾	-10.8223
定體	-10.8231
不恒	-10.8236
一二三四	-10.824
其害	-10.8241
三爻皆	-10.8244
金鉉	-10.8244
給	-10.8248
蹢躅	-10.8249
鳥獸	-10.825
行人	-10.8251
實而	-10.8252
戒辭	-10.8255
終亂	-10.8258
豈得	-10.8258
知有	-10.826
晁	-10.8262
通其變	-10.8263
隂中	-10.8264
離散	-10.8265
又是	-10.8266
得此	-10.8266
之所生	-10.8266
待時	-10.8266
疑而	-10.8267
之仁	-10.8273
中央	-10.8275
君德	-10.8276
天衢	-10.8276
初與三	-10.8276
善處	-10.8278
利矣	-10.8279
雖曰	-10.828
脊	-10.8283
社稷	-10.8285
釁	-10.8285
繼之者善	-10.8285
亨字	-10.8287
泉峰龔氏曰	-10.8288
十有二	-10.8289
之主而	-10.8289
既得	-10.829
弗損	-10.829
為柔	-10.8294
之候	-10.8294
春分	-10.8295
自其	-10.8295
焉耳	-10.8295
居于	-10.8297
之辨	-10.8297
品物	-10.8298
存疑	-10.8302
在淵	-10.8305
之性情	-10.8307
宜有悔	-10.831
兩剛	-10.8314
不遺	-10.8317
利貞也	-10.8319
事而	-10.8321
光大也	-10.8322
附于	-10.8324
粟	-10.8324
之反也	-10.833
建安丘氏曰	-10.8331
漸之	-10.8334
之中也	-10.8335
王註	-10.8335
小疵	-10.8337
而化	-10.8337
任其	-10.8338
其生	-10.8341
不言吉	-10.8342
勿逐	-10.8343
上畫	-10.8344
自外	-10.8345
典禮	-10.8346
敬之	-10.8352
本自	-10.8353
偶然	-10.8353
而吉凶	-10.8355
道以	-10.8355
剛强	-10.8355
觀其所	-10.8356
一章	-10.8357
居初	-10.8358
為主故	-10.836
澄	-10.8361
而承	-10.8361
之變也	-10.8361
為止	-10.8363
無心	-10.8363
銳	-10.8364
乃有	-10.8365
有求	-10.8367
遂以	-10.8371
不肖	-10.8373
必能	-10.8374
之光	-10.8374
當此之時	-10.8376
亡矣	-10.838
謙謙	-10.8383
之教	-10.8387
者雖	-10.8391
之色	-10.8392
曰天	-10.8392
而通	-10.8392
以身	-10.8393
周官	-10.8393
而後動	-10.8393
科	-10.8394
絶之	-10.8395
柔巽	-10.8396
水而	-10.8397
安貞	-10.8399
初筮	-10.84
為龍	-10.84
无所容	-10.8402
離為火	-10.8406
只在	-10.8407
六日七分	-10.8407
失中	-10.8409
結繩	-10.8409
中正而	-10.8411
崇徳	-10.8413
反目	-10.8414
原筮	-10.8418
顛頤	-10.8419
兑説	-10.8419
曰君子	-10.8419
生死	-10.842
在三	-10.8423
行權	-10.8423
不見其人	-10.8424
養民	-10.8431
非獨	-10.8432
比初	-10.8432
无咎象曰	-10.8434
存亡	-10.8434
也案	-10.8442
一年	-10.8443
水也	-10.8445
于三	-10.8446
利於貞	-10.845
者歟	-10.8451
之常也	-10.8452
既以	-10.8452
朱震	-10.8454
此處	-10.8456
木為	-10.8457
未敢	-10.8459
遇險	-10.8459
為美	-10.8459
四剛	-10.846
設教	-10.8462
也况	-10.8462
或疑	-10.8464
更有	-10.8466
此等	-10.8466
天地交	-10.847
可進	-10.847
襄	-10.8474
距	-10.8475
曵	-10.8477
也艮	-10.8477
未見其	-10.8477
臣子	-10.8479
乃亨	-10.8479
噬之	-10.848
為姤	-10.8481
兩箇	-10.8483
小人則	-10.8484
尚書	-10.8488
寒泉	-10.8489
進故	-10.849
故又	-10.8491
猶云	-10.8491
凡有	-10.8491
非道	-10.8491
所守	-10.8493
不專	-10.8493
革而	-10.8494
皆因	-10.8497
皆同	-10.8498
各得其所	-10.8498
小有言	-10.8499
有失	-10.8501
之小	-10.8503
能久	-10.8503
若有	-10.8503
日進	-10.8505
陽在	-10.8505
帝王	-10.8507
陽主	-10.8507
憂懼	-10.8508
在險中	-10.8511
傲	-10.8512
夲義	-10.8513
不聞	-10.8514
一切	-10.8515
於其中	-10.8515
械	-10.8515
郎	-10.8516
則成	-10.8516
隍	-10.8516
于義	-10.8518
幽明	-10.8519
生於下	-10.8522
以安	-10.8524
於時	-10.8526
住	-10.8532
交也	-10.8533
光武	-10.8534
天地不交	-10.8534
象㫖	-10.8535
其法	-10.8536
左手	-10.8538
致亨	-10.8539
五居	-10.8539
邪正	-10.8539
人文	-10.8546
陽來	-10.8548
人不	-10.8548
行其	-10.8548
與此	-10.8549
不可曉	-10.8549
薪	-10.855
无定	-10.8551
之一字	-10.8552
妄也	-10.8552
饗	-10.8553
鑒	-10.8553
八八	-10.8554
知懼	-10.8554
而不失其	-10.8555
為雲	-10.8559
縱横	-10.8559
者固	-10.856
顯諸仁	-10.8563
蓍卦	-10.8563
又非	-10.8564
過者	-10.8568
終无	-10.8572
善者	-10.8573
時則	-10.8575
濟矣	-10.8576
孔子釋	-10.8577
三代	-10.8578
貞則吉	-10.8578
起而	-10.8579
君而	-10.8579
古之人	-10.858
函	-10.8585
君子所	-10.8587
讒	-10.8591
謨	-10.8592
本是	-10.8592
羣陽	-10.8592
繹	-10.8592
自謂	-10.8595
因時	-10.8596
南狩	-10.8598
麗于	-10.86
常道	-10.8602
任之	-10.8604
剛直	-10.8609
門庭	-10.8609
士之	-10.861
陽畫	-10.8613
安有	-10.8614
禴祭	-10.8615
自成	-10.8617
動極	-10.8617
不能行	-10.862
之上而	-10.862
必大	-10.8622
則爲	-10.8627
邵子曰	-10.8629
副	-10.8629
譏	-10.863
膠	-10.863
堪	-10.863
盍	-10.8631
貽	-10.8631
常人	-10.8633
袁	-10.8634
弗損益之	-10.8634
君子當	-10.8634
志在外	-10.8635
剛上柔下	-10.8637
所尚	-10.8637
所觀	-10.8638
之心也	-10.864
物皆	-10.8642
變震	-10.8642
一偶	-10.8644
繼之以	-10.8645
推廣	-10.8645
乎内	-10.8647
孟子所謂	-10.8648
小狐	-10.8648
剛反	-10.8651
之圖	-10.8651
威嚴	-10.8651
雜亂	-10.8654
者夫	-10.8656
矣葢	-10.8656
將有	-10.8657
今觀	-10.8658
陷于	-10.8659
大衍之數五十	-10.8663
五陰	-10.8667
當為	-10.8668
就下	-10.8669
立卦	-10.8669
饒	-10.8669
屏	-10.867
旱	-10.8671
踈	-10.8671
膏澤	-10.8671
艮為門闕	-10.8675
蓍數	-10.868
充實	-10.8682
能成	-10.8683
不幸	-10.8683
福慶	-10.8684
一元	-10.8685
繫於	-10.8685
六二柔順中正	-10.8687
之道以	-10.8687
以進	-10.8691
輩	-10.8691
乎地	-10.8693
髙下	-10.8694
可免	-10.8697
朋亡	-10.8697
以是而	-10.8697
而在上	-10.8699
困也	-10.8703
无失	-10.8704
孚者	-10.8706
震動也	-10.8707
初動	-10.8708
說文	-10.871
後有	-10.8711
臆	-10.8711
罹	-10.8711
之疑	-10.8711
吝嗇	-10.8712
成乾	-10.8713
故其象為	-10.8713
推原	-10.8716
希夷	-10.8716
火傳曰	-10.8719
坤象	-10.8721
奪之	-10.8723
治家	-10.8725
固結	-10.8732
於上而	-10.8736
五行之	-10.874
香	-10.8744
蒙者	-10.8748
隂陽和	-10.8749
光亨	-10.8749
廉	-10.8749
而治	-10.8749
亦惟	-10.8749
自失	-10.8749
憲	-10.8751
法天	-10.8753
𧰼傳	-10.8754
敵應	-10.8754
為六十四	-10.8757
推而	-10.8759
不親	-10.876
處上	-10.8761
童牛	-10.8761
大正	-10.8762
天下之心	-10.8766
兌說	-10.8766
得乾	-10.8766
初雖	-10.8769
而徃	-10.8769
隂極	-10.8771
次之	-10.8771
理而	-10.8771
郭氏	-10.8773
重之	-10.8778
按此	-10.8779
生而	-10.8783
六居	-10.8784
指九五	-10.8785
如天	-10.8787
易象	-10.8787
甕	-10.8788
必當	-10.8788
未然	-10.8789
行其志	-10.8789
在下位	-10.8793
如乾	-10.8794
八卦之象	-10.8794
剛故	-10.8797
且以	-10.8798
以九	-10.88
必自	-10.8801
猶曰	-10.8801
觀我	-10.8801
非其人	-10.8801
異而	-10.8802
自安	-10.8804
養其	-10.8804
艮兊	-10.8805
筮者	-10.8805
自四	-10.8806
終而	-10.8809
剛上而柔下	-10.8809
未出	-10.881
以人事	-10.881
者猶	-10.881
甚明	-10.8813
逺也	-10.8814
知得	-10.8814
則反	-10.8816
可畏	-10.8818
何嘗	-10.882
盈而	-10.882
地位	-10.882
成艮	-10.8821
九五剛中	-10.8822
為比	-10.8822
隂消	-10.8824
隂柔不中正	-10.8824
髮	-10.8825
犬	-10.8826
萬變	-10.8826
恣	-10.8828
闚觀	-10.8828
蔓	-10.8828
陽盛	-10.8831
勿用有攸往	-10.8832
所以爲	-10.8836
有限	-10.8838
可以為	-10.884
設卦	-10.884
皆主	-10.8842
胡氏曰	-10.8843
不習	-10.8848
大有為	-10.885
感物	-10.885
康成	-10.885
兊之	-10.885
節者	-10.8851
小過之	-10.8852
老子	-10.8853
堯舜之	-10.8853
亦得	-10.8854
其外	-10.8854
特以	-10.8855
置之	-10.8856
遯者	-10.8856
傷害	-10.8856
也以此	-10.8857
剛柔相	-10.8858
順則	-10.8859
无所不利	-10.886
大過之時	-10.8862
經緯	-10.8863
有獲	-10.8863
眞	-10.8867
僕	-10.8867
則无咎也	-10.8867
枯楊	-10.8869
稟	-10.887
離中	-10.8874
不處	-10.8874
物生	-10.8875
心亨	-10.8876
性善	-10.8877
凟	-10.8877
至柔	-10.8878
失前禽	-10.8879
大觀在上	-10.8879
及于	-10.8881
或益之	-10.8881
至明	-10.8882
剛柔相濟	-10.8883
當止	-10.8884
而發	-10.8886
上來	-10.8886
易理	-10.8889
三四皆	-10.889
治人	-10.8891
截然	-10.8891
也孔子	-10.8893
太極也	-10.8894
成而	-10.8895
難而	-10.8898
矣蓋	-10.8898
睽而	-10.8898
利渉	-10.89
初生	-10.8902
志於	-10.8904
復為	-10.8904
動作	-10.8904
吁	-10.8907
必曰	-10.8907
久矣	-10.8907
胡雲峯曰	-10.891
體仁	-10.8911
五五	-10.8911
不變者	-10.8911
不亦宜乎	-10.8913
而後言	-10.8913
虛中	-10.8913
顛趾	-10.8914
天道也	-10.8915
十六卦	-10.8916
為風	-10.8916
固是	-10.8917
在隂	-10.8917
地下	-10.892
正所謂	-10.8921
畜陽	-10.8925
七九	-10.8926
而加	-10.8927
作易者	-10.8928
智者	-10.8929
當革	-10.8929
耳非	-10.8932
手足	-10.8933
濟渙	-10.8934
之最	-10.8937
盛也	-10.8938
利永貞	-10.8941
之威	-10.8942
隨蠱	-10.8942
筐	-10.8944
一陽在上	-10.8944
頄	-10.8945
思之	-10.8948
遂其	-10.8948
田獵	-10.8951
柔剛	-10.8952
獨以	-10.8954
而不中	-10.8958
至徳	-10.8962
兊說	-10.8965
震震	-10.8967
三四五	-10.8971
大蹇	-10.8973
志剛	-10.8975
或為	-10.8975
方有	-10.8976
祖考	-10.8977
德也	-10.8977
其來	-10.898
當有	-10.8982
觀乎	-10.8984
各自	-10.8985
理則	-10.8986
四營	-10.8987
浩	-10.8988
中畫	-10.8988
臲卼	-10.8991
後來	-10.8991
天下有	-10.8992
二五相應	-10.8994
不同而	-10.8995
所不能	-10.8997
有眚	-10.8998
辨其	-10.8999
免咎	-10.8999
聚則	-10.9001
同一	-10.9002
於時為	-10.9002
復則	-10.9003
終不可	-10.9004
而我	-10.9006
自明	-10.901
舍之	-10.9011
亦謂	-10.9012
與時	-10.9017
雖是	-10.9022
為常	-10.9022
效法	-10.9023
所係	-10.9024
衷	-10.9024
次且	-10.9025
盟	-10.903
踐履	-10.903
竊謂	-10.9031
九宫	-10.9031
則所謂	-10.9031
合一	-10.9035
終焉	-10.9035
改邑不改井	-10.9035
形而下者	-10.9036
所論	-10.9037
畫八卦	-10.9039
震陽	-10.9039
山下	-10.904
才徳	-10.9041
南征	-10.9043
占筮	-10.9044
内有	-10.9045
无思	-10.9046
謙也	-10.9046
百官	-10.9048
為重	-10.9049
退也	-10.9049
簡易	-10.9049
動故	-10.9053
四曰	-10.9056
易於	-10.9056
致之	-10.9057
有終也	-10.9057
由中	-10.9058
六七八九	-10.9067
席	-10.9069
遣	-10.9069
塵	-10.9069
能履	-10.907
乾以	-10.9074
語録曰	-10.9075
五君位	-10.9075
下降	-10.9079
寶	-10.908
自外而	-10.908
愁	-10.9082
胏	-10.9082
戒占者	-10.9083
乃无咎	-10.9083
固不	-10.9086
放此	-10.9086
程氏	-10.909
損己	-10.9091
終之以	-10.9091
則物	-10.9096
涕	-10.9096
失其道	-10.9096
志窮	-10.9097
三分	-10.91
亦取	-10.91
又取	-10.9101
不能違	-10.9102
老陰	-10.9103
孚誠	-10.9103
偃	-10.9104
所致	-10.9105
䷛(	-10.9106
䑕	-10.9108
染	-10.911
迅	-10.911
妣	-10.9111
穆姜	-10.9113
孚於	-10.9113
艮為止	-10.9114
佑	-10.9115
堅冰	-10.9115
龍戰	-10.9116
嘻嘻	-10.9116
暉	-10.912
禍患	-10.9121
義者	-10.9125
睽孤	-10.9129
自初	-10.9132
變體	-10.9134
隂過	-10.9134
左旋	-10.9134
裁制	-10.9137
吝也	-10.9137
誠實	-10.9137
柔者	-10.9142
長久	-10.9143
而内	-10.9148
脈	-10.9149
乂	-10.9152
皆是也	-10.9157
乾始	-10.9157
消息盈虚	-10.9158
這裏	-10.9158
從王事	-10.9159
上下之交	-10.9159
男女之	-10.916
三陽之	-10.9161
才弱	-10.9162
勿憂	-10.9162
繫辭傳	-10.9162
竄	-10.9163
窮矣	-10.9168
聖人所	-10.9169
之序也	-10.9174
矣且	-10.9175
五日	-10.9176
之謂乎	-10.9176
位雖	-10.9177
䷘(	-10.9178
以待之	-10.9179
九疇	-10.9181
之徳而	-10.9183
天下之物	-10.9185
趨避	-10.9186
䷡(	-10.9186
為之主	-10.9187
展	-10.919
倉	-10.919
朱紱	-10.9191
吾心	-10.9194
雙	-10.9194
隂道	-10.9201
焉故曰	-10.9202
制作	-10.9203
氣象	-10.9203
止有	-10.9205
指二	-10.9205
兌口	-10.9205
朱漢上曰	-10.9206
自下而	-10.9209
前有	-10.9213
于乾	-10.9213
一陰一陽	-10.9214
服之	-10.9216
零	-10.9222
敦臨	-10.9222
也不然	-10.9226
尹	-10.9228
自居	-10.9228
無以	-10.9229
廷	-10.9229
洩	-10.9233
者莫	-10.9233
是以吉也	-10.9236
佚	-10.9236
呉	-10.9237
箕子之	-10.924
平菴項氏曰	-10.9242
生生之謂易	-10.9245
正邦	-10.9246
之多	-10.9246
陽為大	-10.9247
惠棟	-10.9249
上達	-10.9251
元也	-10.9254
利乎	-10.9255
已盡	-10.9257
窮則	-10.9258
弗克	-10.9259
卦本	-10.9259
一陽生	-10.9261
三揲	-10.9263
進德	-10.9264
係于	-10.9265
全是	-10.9272
陳氏	-10.9273
自求口實	-10.9275
熹	-10.9276
耀	-10.9276
貶	-10.9278
之吉凶	-10.9281
虞義也	-10.9283
奉上	-10.9284
豶	-10.9284
伏羲畫卦	-10.9285
道德	-10.9286
安排	-10.9287
震主	-10.9288
不正也	-10.9289
毅	-10.9291
所同	-10.9294
及之	-10.9296
屈信	-10.9297
雜而	-10.9298
取新	-10.9299
定矣	-10.93
以象言之	-10.9302
體之中	-10.9303
成雨	-10.9303
順乎剛	-10.9306
為寇	-10.9307
千萬	-10.9309
近比	-10.931
柅	-10.9311
解散	-10.9313
刀	-10.9315
居上而	-10.9315
畜乾	-10.9316
恨	-10.9316
十朋之龜	-10.9318
之㣲	-10.932
兼山	-10.9321
之師	-10.9322
大意	-10.9323
以承	-10.9324
為之也	-10.9325
孰為	-10.9327
其内	-10.9328
相配	-10.9328
究其	-10.9329
而不知變	-10.9331
嘉美	-10.9332
一貫	-10.9332
後夫	-10.9334
無不利	-10.9334
化育	-10.9335
危亡	-10.9335
此三者	-10.9336
已極	-10.9337
惟恐	-10.9339
三歳	-10.934
在險	-10.9341
善而	-10.9343
同歸	-10.9345
䷙(	-10.9347
能動	-10.9348
以類	-10.9348
應于	-10.9349
過乎中	-10.9352
其聲	-10.9353
比而	-10.9357
輒	-10.9357
蹄	-10.9358
十卦	-10.9359
保合	-10.936
卦之中	-10.936
飛龍在天	-10.9361
參之	-10.9362
稱名	-10.9364
好惡	-10.9364
天尊地卑	-10.9366
不喪匕鬯	-10.9366
六爻之義	-10.9367
其𩔖	-10.9367
此與	-10.9369
刑獄	-10.9371
女子之	-10.9371
無常	-10.9373
學蒙	-10.9374
貞正也	-10.9375
一說	-10.9378
《	-10.9379
无交	-10.938
濟而	-10.9381
天下之難	-10.9381
地氣	-10.9382
和而	-10.9383
此四者	-10.9387
不興	-10.9387
四九	-10.9388
誠之	-10.9389
䷌(	-10.9389
无實	-10.9391
讀為	-10.9392
誠心	-10.9398
其他	-10.9398
匿	-10.9399
不察	-10.94
甘節	-10.9401
動乎險中	-10.9403
灼	-10.9403
成巽	-10.9405
離離	-10.9406
者由	-10.9407
為仁	-10.9407
乃所以為	-10.9409
並語	-10.9409
隂故	-10.941
漢上	-10.941
如人之	-10.9412
离為	-10.9414
在坎	-10.9416
進之	-10.9419
只得	-10.9428
天一地二	-10.943
居外	-10.9436
經傳	-10.9439
昭然	-10.9443
其私	-10.9443
不習无不利	-10.9444
震木	-10.9444
𤓰	-10.9444
哉故曰	-10.9445
家人之	-10.9445
玩辭	-10.9445
妃	-10.9447
此圖	-10.9448
兩地	-10.9451
彖辭曰	-10.9454
䇿數	-10.9464
百四十	-10.9466
參兩	-10.9469
庶乎	-10.947
大行	-10.9472
以明之	-10.9479
剛德	-10.948
炳	-10.9482
震足	-10.9482
長也	-10.9483
已見	-10.9483
袂	-10.9484
道心	-10.9487
百八十	-10.9487
萬物之所	-10.9493
也如是則	-10.9493
澤下	-10.9496
不可言	-10.9496
老夫	-10.9499
委任	-10.9501
親切	-10.9501
大功	-10.9503
不離乎	-10.9503
門人	-10.9503
之流	-10.9503
險也	-10.9505
之體也	-10.9507
之累	-10.9509
斯民	-10.951
立廟	-10.9511
二十七	-10.9511
謂九五	-10.9513
又何咎	-10.9513
饋	-10.9515
䷼(	-10.9519
必反	-10.9519
相克	-10.9521
遂成	-10.9523
大成	-10.9529
行故	-10.953
恊	-10.953
貞悔	-10.9531
劓刖	-10.9531
育萬物	-10.9531
記曰	-10.9531
矣豈	-10.9533
巽為繩	-10.9539
純一	-10.9539
之路	-10.954
陽極	-10.9542
非常之	-10.9547
自二	-10.9548
䷈(	-10.9553
郭京	-10.9555
啟蒙	-10.9556
名義	-10.9558
不流	-10.9559
自立	-10.9561
無位	-10.9562
勞而	-10.9562
荷	-10.9563
有它	-10.9564
域	-10.9566
爻中	-10.9569
夫以	-10.9569
孽	-10.9571
先有	-10.9572
不解	-10.9573
懈	-10.9573
婚姻	-10.9574
鴻之	-10.9576
兼言	-10.9577
不可勝	-10.9578
而志	-10.9582
其難	-10.9584
疏云	-10.9584
下生	-10.9584
震而	-10.9585
也故以	-10.9588
遇剛	-10.9588
成湯	-10.9589
以木	-10.9595
順以巽	-10.9597
尚何	-10.9604
互坤	-10.9605
不由	-10.9606
安處	-10.9607
復於	-10.9609
贅	-10.9611
女妻	-10.9615
胡氏炳文曰	-10.9617
受之以	-10.9617
朋友講習	-10.9618
朋類	-10.9618
葢取諸	-10.9619
為先	-10.9619
近五	-10.9619
丁寧	-10.9621
應於上	-10.9621
漸漸	-10.9621
在事	-10.9621
急於	-10.9624
聽之	-10.9625
乎乾	-10.9625
二七	-10.9626
得宜	-10.9627
利牝馬之貞	-10.9627
為中	-10.9627
純乾	-10.9628
艮象	-10.9628
㧞	-10.963
難矣	-10.9631
吉占	-10.9633
小者過	-10.9633
後夫凶	-10.9634
吉而悔亡	-10.9638
進於	-10.9639
以卦變	-10.9642
解者	-10.9642
純粹	-10.9643
逺於	-10.9643
崇髙	-10.9645
生長	-10.9646
一語	-10.965
殊不知	-10.9654
聨	-10.9655
是言	-10.9655
瑣瑣	-10.9656
前進	-10.9658
低	-10.9658
遯之時	-10.9659
周公繫	-10.9659
正如	-10.966
之才而	-10.9663
退聽	-10.9664
安身	-10.9666
莫大乎	-10.9666
雲雷	-10.9673
推而行之	-10.9674
首尾	-10.9674
好遯	-10.9674
並行	-10.9675
動必	-10.9676
而獲	-10.9677
參天	-10.9678
剛爻	-10.9678
傾否	-10.9678
承上文	-10.9679
推其	-10.9684
二年	-10.9685
離目	-10.969
從道	-10.9691
牝馬之貞	-10.9693
績	-10.9694
狄	-10.9695
之重	-10.9698
響	-10.97
湛	-10.9701
升也	-10.9702
悔可亡	-10.9703
仰觀俯察	-10.9705
致福	-10.9706
二三四五	-10.9706
出則	-10.9707
然有	-10.9709
五柔	-10.9709
大觀	-10.9709
藏諸用	-10.971
為臨	-10.9712
心而	-10.9716
隂陽老少	-10.9716
巽為風	-10.9719
弑	-10.9719
險陷	-10.9719
解之時	-10.972
濟天下之	-10.972
以避	-10.9721
配天	-10.9723
乾為首	-10.9723
旅人	-10.9724
三人	-10.973
古本	-10.973
或言	-10.9731
出否	-10.9734
而有功	-10.9738
蛇	-10.9739
徐氏	-10.9739
疑之	-10.974
緣	-10.9742
憤	-10.9743
束帛	-10.9743
天之所	-10.9746
與時行	-10.9746
隂陽交	-10.9746
跛能履	-10.9747
待其	-10.9747
乾象	-10.9747
不可謂	-10.9748
文王所	-10.9749
而分	-10.9752
出地	-10.9756
為惡	-10.9763
以益下	-10.9767
婦道	-10.977
生蓍	-10.9771
噬嗑之	-10.9773
取象於	-10.9775
矣盖	-10.9778
有二義	-10.9778
之積	-10.9779
自上而	-10.9779
無疑	-10.978
既平	-10.9781
渡	-10.9781
幾微	-10.9782
故孔子	-10.9783
與上六	-10.9783
久也	-10.9783
欲速	-10.9784
誓	-10.9784
利字	-10.9785
絡	-10.9786
程可久曰	-10.9786
用之以	-10.9789
公侯	-10.9791
倣此	-10.9791
相為用	-10.9791
棟隆	-10.9791
性命之理	-10.9792
已日乃孚	-10.9794
其神	-10.9798
剥復	-10.9798
復自道	-10.9799
下順	-10.98
君命	-10.98
為險	-10.9804
以事	-10.9808
此章言	-10.9809
之盛也	-10.9811
在旅	-10.9815
見惡人	-10.9817
有妄	-10.9818
加之	-10.9818
震象	-10.982
八十一	-10.9821
无虞	-10.9822
參同契	-10.9827
徙	-10.9829
之具	-10.9829
不得而	-10.9829
不懼	-10.983
泄	-10.9831
渙其羣	-10.9831
剛決	-10.9832
所以无咎	-10.9833
咥人	-10.9833
三十日	-10.9836
大公	-10.9838
以陰	-10.9838
不暇	-10.984
六二中正	-10.9841
每卦	-10.9844
一行	-10.9845
定吉凶	-10.9845
所值	-10.9849
換	-10.985
項氏	-10.985
乃成	-10.9851
然猶	-10.9851
更无	-10.9851
之象又	-10.9854
冐	-10.9855
亦不過	-10.9855
不留	-10.986
止健	-10.986
四亦	-10.9861
龜山	-10.9861
將至	-10.9862
䷍(	-10.9862
柔居	-10.9863
方始	-10.9864
宴	-10.9864
无用	-10.9864
可言	-10.9865
豆	-10.9867
照臨	-10.9867
之極而	-10.9872
葛	-10.9873
畔	-10.9874
紫	-10.9876
當如	-10.9876
謂之神	-10.9877
株木	-10.9878
動動	-10.9878
履霜堅氷	-10.9879
為説	-10.9883
之要	-10.9884
入地	-10.9886
二少	-10.9889
澤上	-10.989
三品	-10.9892
以陰柔	-10.9892
兩畫	-10.9894
皆吉	-10.9898
全其	-10.9899
出震	-10.99
殃	-10.9902
能謙	-10.9903
應於	-10.9905
三隂三陽	-10.9908
之慶	-10.9909
焉夫	-10.991
未濟之時	-10.9911
䷔(	-10.9911
堅固	-10.9912
遄	-10.9912
直以	-10.9913
得中故	-10.9914
以知	-10.9915
漫	-10.9916
處震	-10.9917
障	-10.992
㓜	-10.9921
人知	-10.9921
可喜	-10.9921
僣	-10.9922
可信	-10.9922
䷽(	-10.9923
屬之	-10.9923
乾為馬	-10.9924
固已	-10.9925
登天	-10.9927
申言	-10.9928
宫人	-10.993
无悶	-10.9933
註云	-10.9935
陽變隂	-10.9936
隂方	-10.9936
處事	-10.9937
五十五	-10.9937
明明	-10.9938
程氏曰	-10.9939
望之	-10.994
則明	-10.994
震為雷	-10.9941
生出	-10.9943
大易	-10.9944
行於	-10.9944
人之情	-10.9945
食之	-10.9945
盛極	-10.9945
矣聖人	-10.9946
陽數	-10.9946
匪孚	-10.9946
過盛	-10.9949
正所以	-10.9953
始得	-10.9953
出師	-10.9954
則亨	-10.9954
明乎	-10.9955
䷵(	-10.9956
上下不交	-10.9957
隱伏	-10.9958
本乎	-10.9958
朴	-10.9959
不須	-10.9959
故夫子	-10.9961
童觀	-10.9961
為治	-10.9962
駁	-10.9962
縻	-10.9964
飲食宴樂	-10.9966
窮神知化	-10.9966
六經	-10.9967
初无	-10.9967
酬酢	-10.9968
德業	-10.9969
幸其	-10.997
萬有一千五百二十	-10.997
未嘗有	-10.9971
積而	-10.9976
一意	-10.9977
四上	-10.9986
遐	-10.9987
一而已	-10.9989
之小者	-10.9995
不外乎	-10.9998
三在	-10.9998
但當	-10.9999
字義	-11.0001
就其	-11.0003
致養	-11.0003
之基	-11.0006
物有	-11.0011
拱	-11.0012
剛居	-11.0013
无妄之災	-11.0013
其知	-11.0017
各一	-11.0018
之地而	-11.0018
贊之	-11.0019
去而	-11.0021
可推	-11.0021
馮氏椅曰	-11.0022
睽乖	-11.0022
不自失	-11.0022
恬	-11.0023
剥陽	-11.0024
不快	-11.0028
有子	-11.0028
而求之	-11.0029
損上	-11.0031
多懼	-11.0036
无人	-11.0037
得名	-11.0038
徳者	-11.0039
隂陽消長	-11.004
於人也	-11.0041
耳若	-11.0043
不能以	-11.0043
䷾(	-11.0047
聖人之所	-11.0048
下繫	-11.0049
之大用	-11.0049
濟也	-11.0049
致寇	-11.0052
籍	-11.0052
現	-11.0053
天上	-11.0054
峙	-11.0054
下流	-11.0055
為陰	-11.0056
化生	-11.0058
將何	-11.0061
兊為口	-11.0064
而論	-11.0064
多少	-11.0065
焉然	-11.0065
潘氏曰	-11.0066
矣是故	-11.0067
看得	-11.0068
之易也	-11.0072
貞字	-11.0072
主于	-11.0077
作用	-11.0077
不倦	-11.0079
一人之	-11.008
重坎	-11.0081
故悔亡	-11.0082
貴于	-11.0083
下動	-11.0083
坤為牛	-11.0086
占之	-11.0086
終有	-11.0088
象又	-11.0091
欣	-11.0095
雙湖先生曰	-11.0095
蹇蹇	-11.0096
迨	-11.0099
胎	-11.0099
解難	-11.0101
難也	-11.0103
聽訟	-11.0105
三與五	-11.0109
而今	-11.011
才不足	-11.011
致知	-11.0114
否之時	-11.0116
安其	-11.0117
為冦	-11.0117
上下之分	-11.0119
晁氏曰	-11.0119
於卦為	-11.0125
多以	-11.0128
載物	-11.0128
火炎上	-11.013
易說	-11.0133
鳴豫	-11.0133
君子有終	-11.0134
包之	-11.0135
為鬼	-11.0135
二三四	-11.0141
順行	-11.0142
義亦	-11.0142
寢	-11.0143
非若	-11.0145
進徳修業	-11.0147
未分	-11.0147
之事而	-11.0148
消陽	-11.015
憧憧往來	-11.015
豈惟	-11.0151
氏云	-11.0152
止其	-11.0153
爲主	-11.0156
夬決	-11.0157
太甲	-11.016
坎爲	-11.0161
鹵	-11.0162
者陽之	-11.0163
盛則	-11.0163
父之	-11.0164
明於	-11.0164
十數	-11.0164
君父	-11.0164
可以有為	-11.0165
无體	-11.0166
事上	-11.017
則小人	-11.0171
文武	-11.0173
者天之	-11.0176
極數	-11.0177
與地	-11.0179
釋之曰	-11.0183
以六爻	-11.0183
之比	-11.0184
乾徳	-11.0184
寘	-11.0186
艮兌	-11.0187
腎	-11.0189
固不可	-11.019
不能成	-11.0192
不利君子貞	-11.0194
體乾	-11.0194
萬物之情	-11.0196
敦艮	-11.0196
翰音	-11.0198
五亦	-11.0199
神化	-11.02
姚信	-11.0201
春秋傳	-11.0201
直言	-11.0205
不正之	-11.0209
居剛	-11.0211
也因	-11.0211
輔相	-11.0216
史記	-11.0217
三雖	-11.0219
他爻	-11.022
義則	-11.022
分曉	-11.022
卷十	-11.0225
也豈	-11.0226
鳥之	-11.0227
閉塞	-11.0229
歸竒	-11.023
不死	-11.0231
只就	-11.0232
滛	-11.0236
地十	-11.0236
勲	-11.0236
在上則	-11.0237
鄭作	-11.0238
乃得无咎	-11.0239
不可无	-11.0242
俞琰	-11.0245
好爵	-11.0245
陽陽	-11.0245
是也有	-11.0248
个	-11.0248
有悔也	-11.0249
其歸	-11.0249
蓋言	-11.025
養也	-11.0251
元年	-11.0252
而已故曰	-11.0252
孚之	-11.0252
可醜	-11.0253
也故有	-11.0253
涵養	-11.0253
於乾坤	-11.0254
朱子云	-11.0254
制其	-11.0255
在乾	-11.0255
類而	-11.0256
周旋	-11.0256
執之	-11.0257
此豈	-11.026
爽	-11.0261
柔爻	-11.0261
矣又曰	-11.0265
清明	-11.0266
不敗	-11.0266
也通曰	-11.0267
革之時	-11.0271
蒙昧	-11.0273
君子能	-11.0273
為少隂	-11.0274
為之戒	-11.0276
䷣(	-11.0276
之厲	-11.0276
定也	-11.0278
暱	-11.0278
以至于	-11.0278
煥	-11.0279
所以得	-11.028
神道	-11.028
成列	-11.0281
瘠	-11.0281
最逺	-11.0282
自能	-11.0282
冽	-11.0282
溥	-11.0283
于己	-11.0284
以氣言	-11.0284
故利有攸往	-11.0284
此二句	-11.0285
所向	-11.0286
易之理	-11.0287
雙湖胡氏曰	-11.0287
曳其輪	-11.029
柔暗	-11.0294
索索	-11.0295
无所往	-11.0296
左氏	-11.0297
一六	-11.0297
謂陽	-11.0301
耳然	-11.0303
皇極	-11.0307
止乎	-11.0308
无所利	-11.0311
乎二	-11.0312
不孚	-11.0315
求賢	-11.0317
誠齋曰	-11.0318
苟能	-11.0318
能通	-11.0319
失於	-11.0319
利物	-11.0322
四畫	-11.0322
不節	-11.0325
其動也	-11.0328
茫	-11.033
心之所	-11.033
表裏	-11.0331
莊子	-11.0336
節制	-11.0336
其道窮也	-11.0336
反生	-11.0336
震懼	-11.0338
趨時	-11.034
六十四卦三百八十四爻	-11.0341
掣	-11.0343
二者皆	-11.0344
先甲後甲	-11.0344
變化之	-11.0345
為五	-11.0345
守其正	-11.0346
所以行	-11.0347
朱氏	-11.0348
因而	-11.0349
生物之	-11.0349
皆稱	-11.035
得九	-11.035
衆所	-11.035
者因	-11.0352
謂五也	-11.0354
也此卦	-11.0355
隠伏	-11.0359
異者	-11.0359
道窮	-11.0363
志應	-11.0364
小人而	-11.0365
五十有五	-11.0368
而始	-11.037
輸	-11.0371
彦	-11.0371
廓	-11.0373
之由	-11.0374
右明爻義	-11.0375
其命	-11.0377
筮之遇	-11.0377
漁	-11.0377
悔者	-11.0377
成之者性	-11.0377
入于坎窞	-11.0379
於小人	-11.0379
而不息	-11.0385
居君位	-11.0389
八卦相錯	-11.039
天地之中	-11.0395
功名	-11.0396
㓂	-11.0397
有孚而	-11.0399
為政	-11.0401
飛而	-11.0405
所繫	-11.0406
之道矣	-11.0407
以天下	-11.0407
不敢自	-11.041
上下兩	-11.0411
九二之剛	-11.0411
秋分	-11.0411
建侯行師	-11.0413
易從	-11.0414
猶是	-11.0415
聲色	-11.0415
恒者	-11.0417
介于石	-11.0419
咨	-11.042
黄鍾	-11.0422
以辨	-11.0422
互兌	-11.0423
爻為主	-11.0424
以卦象	-11.0425
筮之	-11.0426
志未得	-11.0428
公子	-11.0431
以察	-11.0432
吕氏	-11.0432
一家之	-11.0432
不勞	-11.0433
曰乾	-11.0434
而推	-11.0436
邦國	-11.0436
到那	-11.0438
柔在下	-11.0441
貞勝	-11.0443
下同	-11.0444
先儒以	-11.0445
初在	-11.0447
子夏傳	-11.0447
當如此	-11.0451
大臣之位	-11.0451
易見	-11.0453
鼎耳	-11.0453
居險	-11.0454
為少陽	-11.0456
情之	-11.0458
得意	-11.046
見斗	-11.0461
䷤(	-11.0461
時節	-11.0463
則愈	-11.0463
也苟	-11.0463
著見	-11.0464
榦	-11.0464
區	-11.0464
矩	-11.0464
池	-11.0465
兒	-11.0466
夭	-11.0468
變爻	-11.0468
以處之	-11.0469
四在	-11.0469
何事	-11.0471
水性	-11.0471
不慎	-11.0472
則難	-11.0474
不屈	-11.0474
其所以為	-11.0474
亢龍	-11.0479
所貴	-11.0479
兌為口	-11.0479
故乾	-11.048
矣而又	-11.0483
二亦	-11.0483
及乎	-11.0484
於進	-11.0484
同然	-11.0485
不能勝	-11.0486
見龍	-11.0487
概	-11.049
體之下	-11.0491
則失其	-11.0493
壯而	-11.0494
事物之	-11.0494
而不自	-11.0496
從事	-11.0497
以和	-11.0499
蓋以	-11.0499
足以盡	-11.05
不速	-11.05
䷿(	-11.0501
防其	-11.0502
應於五	-11.0502
曰吉	-11.0504
謙者	-11.051
伐之	-11.051
交于	-11.051
無間	-11.0511
亘	-11.0511
只是一箇	-11.0511
技	-11.0512
由于	-11.0513
坤初	-11.0514
吉象曰	-11.0514
見龍在田	-11.0514
間斷	-11.0514
謟	-11.0514
狥	-11.0515
之木	-11.0517
數十	-11.0517
滅鼻	-11.0518
物不可以終	-11.0523
之信	-11.0524
處此	-11.0525
百九十二	-11.0525
忘其	-11.0526
順徳	-11.0528
與民	-11.0529
以卦變言	-11.053
凡三	-11.0532
以養人	-11.0532
无應而	-11.0532
一旦	-11.0536
其正	-11.0539
産	-11.0541
雷雨作	-11.0541
曲成	-11.0542
也嗚呼	-11.0542
與衆	-11.0545
遇坎	-11.0547
之成卦	-11.0548
逋	-11.0548
逺者	-11.0552
上變	-11.0552
諧	-11.0552
以中道	-11.0553
有害	-11.0553
一周	-11.0556
㬊淵録	-11.0557
動于	-11.0557
壁	-11.0559
檢	-11.056
者唯	-11.0561
偹	-11.0563
用大牲	-11.0563
鑄	-11.0565
萬物之生	-11.0566
所願	-11.0567
京氏	-11.0568
享祀	-11.057
臣下	-11.0572
得亨	-11.0573
而不相	-11.0573
故先	-11.0574
孟喜	-11.0574
潛龍勿用	-11.0576
也人之	-11.0576
賢才	-11.0578
終不可用	-11.0579
而得吉	-11.0581
九五之君	-11.0589
字從	-11.059
從其	-11.0593
隂類	-11.0593
變巽	-11.0594
常久	-11.0594
於一	-11.0595
相背	-11.0597
人道之	-11.06
害君子	-11.0603
蘇蘇	-11.0603
之不同	-11.0604
仁義禮智	-11.0607
効	-11.0608
孚號	-11.0611
觀彖	-11.0614
即有	-11.0615
震來虩虩	-11.0615
説則	-11.0616
舉正	-11.0616
易道之	-11.0617
之故也	-11.0619
无所用	-11.062
之效	-11.062
至極	-11.0624
中正之位	-11.0629
則君子	-11.0633
所自	-11.0634
萬古	-11.0636
救之	-11.0638
以前民用	-11.0641
世俗	-11.0643
而觀之	-11.0643
躁進	-11.0645
本諸	-11.0648
儒者	-11.0648
三爻變	-11.0649
之衆	-11.065
送	-11.065
息矣	-11.0653
困于酒食	-11.0653
翁	-11.0655
剛實	-11.0655
誤矣	-11.0658
苞桑	-11.0661
相隨	-11.0662
柔故	-11.0663
化為	-11.0663
齊家	-11.0664
之計	-11.0665
所以養	-11.0667
)□	-11.0669
不耕	-11.0669
書之	-11.067
神之所為	-11.0676
一生	-11.0676
在心	-11.0678
䷽	-11.0678
于坤	-11.0679
最難	-11.068
也大抵	-11.0685
要終	-11.0686
相信	-11.0687
學之	-11.0689
故止	-11.069
隂柔而	-11.0696
善用	-11.0697
足以當之	-11.0698
一定之	-11.07
静也	-11.07
覽	-11.07
易之用	-11.0703
畏懼	-11.0703
沮	-11.0703
居近君之位	-11.0704
體柔	-11.0704
枝葉	-11.0704
隂主	-11.0704
揚于王庭	-11.0705
天地之大	-11.0705
鼫鼠	-11.0705
崇德	-11.0706
止矣	-11.0713
卦之所以為	-11.0713
貫魚	-11.0714
五爻變	-11.0717
不著	-11.0718
小成	-11.072
時勢	-11.072
蘇子瞻曰	-11.0721
各以其	-11.0721
必求	-11.0723
欲進而	-11.0724
合德	-11.0725
南面	-11.0725
大師	-11.0726
䷾	-11.0727
皆欲	-11.0728
形器	-11.0729
是道	-11.0729
隂陽各	-11.073
不貳	-11.073
方且	-11.0731
已定	-11.0733
借為	-11.0734
取象于	-11.0735
散之	-11.0735
艮巽	-11.0735
般	-11.0738
而失其	-11.0739
下无	-11.0742
則危	-11.0742
不備	-11.0744
即次	-11.0744
兌之	-11.0746
卦爻之辭	-11.0746
妙用	-11.0749
无由	-11.0749
先天之	-11.075
臣民	-11.0752
是以凶也	-11.0752
孚也	-11.0753
之理故	-11.0754
不以為	-11.0754
與小人	-11.0754
言動	-11.0755
假廟	-11.0756
亹亹	-11.0756
益人	-11.0757
行健	-11.0758
三八	-11.0761
謂九二	-11.0761
兑口	-11.0761
曰易	-11.0762
雍曰	-11.0763
免于	-11.0764
勉强	-11.0765
居上位	-11.0765
變艮	-11.0766
故利	-11.0771
卓	-11.0771
所傳	-11.0772
能无	-11.0772
潤下	-11.0773
求濟	-11.0774
免乎	-11.0776
禍亂	-11.078
以陽剛居	-11.0782
至理	-11.0782
者謂之	-11.0782
之窮	-11.0784
對曰	-11.0785
順以動	-11.0788
豈知	-11.0788
惟能	-11.0788
之念	-11.0788
神之	-11.0789
攣如	-11.079
澤水	-11.0791
安而	-11.0793
纎	-11.0795
勝之	-11.0796
為成卦之主	-11.0797
逖	-11.0797
夀	-11.0797
誕	-11.0798
得中道也	-11.0798
金柅	-11.0799
也紫陽朱子曰	-11.0799
必不能	-11.0799
別	-11.08
綂	-11.0801
冨	-11.0801
之源	-11.0801
或躍	-11.0804
所不及	-11.0804
尅	-11.0806
牀下	-11.0807
旅之時	-11.0807
治道	-11.0809
憚	-11.081
觀此	-11.081
不言所利	-11.0819
不相悖	-11.082
不爲	-11.0821
事皆	-11.0825
在下故	-11.0827
與之同	-11.0828
不作	-11.0829
變化之道	-11.0834
易經	-11.0837
在己	-11.084
蜀才	-11.0841
也易曰	-11.0842
一個	-11.0843
正言	-11.0844
有君	-11.0847
饑	-11.0848
盥而不薦	-11.0849
近取諸身	-11.085
大道	-11.0851
刲羊	-11.0852
當損	-11.0855
隂在下	-11.0855
雲雨	-11.0856
弧矢	-11.0856
天地設位	-11.0857
不得其正	-11.0858
應則	-11.0861
其端	-11.0862
何以為	-11.0865
中庸曰	-11.0865
能守	-11.0867
之大也	-11.0868
飛龍	-11.087
以下皆	-11.087
相攻	-11.0873
餘論	-11.0874
于理	-11.0874
化成天下	-11.0876
各得其正	-11.0876
居天位	-11.0876
蒙引	-11.0879
正人	-11.088
從程氏	-11.0881
莫知其	-11.0882
得喪	-11.0883
柔來	-11.0885
得其宜	-11.0886
劉氏	-11.0888
潤澤	-11.0889
復言	-11.0889
班如	-11.0894
其國	-11.0894
巨	-11.0895
黎	-11.0896
不可長	-11.0897
一致	-11.0898
奴	-11.0899
固非	-11.09
牽連	-11.0902
臣也	-11.0904
外比	-11.091
某卦	-11.0912
乾三	-11.0913
則无以	-11.0915
汲汲	-11.092
䷡	-11.0921
正而吉	-11.0921
當是時	-11.0923
无益	-11.0924
深入	-11.0924
嫌於	-11.0927
守中	-11.0929
以心	-11.093
有亨道	-11.0931
禦冦	-11.0932
矣然則	-11.0933
離為戈兵	-11.0934
漸歸妹	-11.0937
无終	-11.094
轉移	-11.094
上下應之	-11.0941
禾	-11.0941
蚤	-11.0944
天地萬物之情	-11.0944
百物	-11.0944
善之長	-11.0945
自强不息	-11.0945
非正也	-11.0946
二卦皆	-11.0946
巽巽	-11.0947
蘓	-11.0949
毛伯玉曰	-11.0949
詰	-11.095
配天地	-11.0951
之勇	-11.0953
兩相	-11.0953
大壯之	-11.0953
易之道也	-11.0956
神而明之	-11.0957
小利有攸往	-11.0957
節則	-11.096
天祐	-11.0961
至臨	-11.0961
上句	-11.0961
則剛	-11.0964
失也	-11.0966
和平	-11.0968
䷛	-11.0969
體巽	-11.0971
當位而	-11.0973
失律	-11.0976
言乎其	-11.0976
成坤	-11.0978
受畜	-11.0979
君民	-11.0981
當否	-11.0981
復反	-11.0982
二上	-11.0983
或以為	-11.0984
為兑	-11.0986
具於	-11.0986
安行	-11.0987
天下治	-11.099
六五以	-11.099
不字	-11.0991
攘	-11.0992
節也	-11.0993
齡	-11.0995
極深	-11.0995
初居	-11.0996
柔以時升	-11.0996
湖	-11.0998
志行也	-11.0998
紂之	-11.0999
嘉遯	-11.1
之純	-11.1001
春夏秋冬	-11.1001
之道也故	-11.1002
異同	-11.1003
紛紛	-11.1004
附之	-11.1005
出乎險	-11.1007
大明終始	-11.1007
三驅	-11.1008
開物	-11.1008
伯夷	-11.1009
剛中之才	-11.1009
葢以	-11.1012
睽之時	-11.1013
順逆	-11.1022
不足以盡	-11.1022
説易	-11.1026
其宜也	-11.1026
其鄰	-11.1028
人力	-11.103
射之	-11.103
模	-11.103
立本	-11.103
石經	-11.1033
䘮其	-11.1034
為變	-11.1036
勾	-11.1037
知臨	-11.1038
宜下	-11.1039
包蒙	-11.104
為七	-11.104
災眚	-11.1042
四與五	-11.1042
濟時	-11.1043
在上故	-11.1043
柱	-11.1044
阜	-11.1044
精義入神	-11.1045
史巫	-11.1045
憂也	-11.1046
疑于	-11.1047
降而	-11.1047
孔仲達曰	-11.1047
陰之	-11.1049
黄中色	-11.105
有隕自天	-11.1051
下坎上	-11.1053
觀國之光	-11.1054
許之	-11.1054
乾初	-11.1054
衣裳	-11.1054
剛陽之	-11.1054
憂其	-11.1056
上比	-11.1058
自泰	-11.1058
失矣	-11.1058
致凶	-11.1061
顯而	-11.1062
變成	-11.1064
所以吉	-11.1066
盖以	-11.1069
不直	-11.107
其終也	-11.1073
也君子觀	-11.1074
能保其	-11.1075
下應九二	-11.1075
俱有	-11.1076
使不	-11.1078
不曽	-11.1078
千古	-11.1079
然自	-11.108
啓蒙	-11.1082
戈兵	-11.1085
是那	-11.1087
震㢲	-11.1088
貞疾	-11.1088
土之	-11.1091
灾	-11.1091
百年	-11.1093
紹	-11.1094
卦辭言	-11.1094
逐爻	-11.1094
渾淪	-11.1094
頃	-11.1094
以理言	-11.1096
日以	-11.1097
輯	-11.1097
敬以直内	-11.1098
自五	-11.1098
進齋徐氏曰	-11.1102
足矣	-11.1103
為父	-11.1103
柔履剛	-11.1105
正秋	-11.1106
歟曰	-11.1106
亦如此	-11.1107
應三	-11.1109
實則	-11.1109
自姤	-11.1111
不免于	-11.1111
形而	-11.1112
蘇氏	-11.1112
雷聲	-11.1117
夏商	-11.1118
先生云	-11.1118
則害	-11.1118
聲音	-11.112
若无	-11.1121
之為義	-11.1121
不能無	-11.1123
失所	-11.1125
信其	-11.1126
則衆	-11.113
是猶	-11.1131
之久	-11.1132
籌	-11.1133
非其所	-11.1135
件	-11.1136
論其	-11.1136
誠以	-11.1137
柔之	-11.1137
幾望	-11.1138
處之則	-11.114
鞶帶	-11.1142
中國	-11.1144
即為	-11.1146
必不	-11.1148
孔頴達	-11.1148
能視	-11.1148
能受	-11.1148
柔來文剛	-11.1149
得人	-11.1149
外物	-11.1151
得陽	-11.1155
於天地	-11.1155
亂之	-11.1157
是從	-11.1157
凡此皆	-11.1157
大衍之	-11.1158
為君子謀	-11.1161
上九居	-11.1161
納之	-11.1161
極于	-11.1164
無他	-11.1164
甞	-11.1165
此便是	-11.1166
剝復	-11.1167
故皆曰	-11.1168
未生	-11.1169
知時	-11.117
有廟	-11.117
馮河	-11.117
萬里	-11.1174
行其道	-11.1176
立心	-11.1177
有所疑	-11.1177
以不正	-11.1178
是乃	-11.1179
其所有	-11.1179
相綜	-11.118
復者	-11.1181
陽在上	-11.1181
卦之體	-11.1183
三卷	-11.1184
非必	-11.1186
盱	-11.1187
論易	-11.1191
培	-11.1193
鄧	-11.1193
葛藟	-11.1195
程傳曰	-11.1198
羸豕	-11.1198
導之	-11.1199
君子道長	-11.12
凡四	-11.12
上下應	-11.1201
交通	-11.1202
象焉	-11.1202
明德	-11.1204
食也	-11.1204
兩字	-11.1208
所以立	-11.1211
火在天上	-11.1213
底道理	-11.1214
革命	-11.1214
首章	-11.1217
由此而	-11.1218
則亂	-11.1219
柔外	-11.1224
而不出	-11.1225
大傳曰	-11.1227
也惟其	-11.1229
蔑貞	-11.123
之感	-11.1231
未有能	-11.1232
無疆	-11.1234
乎天地	-11.1235
能安	-11.1235
之類也	-11.1242
疾也	-11.1242
繆	-11.1242
獵	-11.1243
坎窞	-11.1243
妖	-11.1244
哉此	-11.1244
疊	-11.1245
猜	-11.1245
將來	-11.1245
中正之	-11.1245
而後成	-11.1246
其畫	-11.1246
亮	-11.1248
耽	-11.125
中徳	-11.125
為子	-11.1251
餘皆	-11.1253
莫大于	-11.1253
雷在地中	-11.1257
下震上	-11.1258
安危	-11.1259
也古者	-11.1259
退則	-11.126
髙大	-11.1261
八卦成列	-11.1262
發而	-11.1263
兩陽	-11.1263
前章	-11.1266
指三	-11.1267
與我	-11.1267
觀其生	-11.1269
求於	-11.1269
故其占如此	-11.127
四當	-11.127
天下无	-11.1271
既不	-11.1275
故戒	-11.1276
為朋	-11.1279
羝羊	-11.1283
故占者	-11.1284
失實	-11.1284
一篇	-11.1286
是以有	-11.1287
之子	-11.1288
革者	-11.1291
牽復	-11.1292
四十五	-11.1293
伺	-11.1293
飾也	-11.1293
于時	-11.1294
窞	-11.1295
有異	-11.1297
選	-11.1297
易之書	-11.1298
需者	-11.13
參天兩地	-11.1301
並受其福	-11.1302
韓康伯	-11.1303
順天命	-11.1305
自此而	-11.1305
鼎實	-11.1306
避之	-11.1308
常存	-11.131
復姤	-11.131
卦之終	-11.1312
陽性	-11.1312
故象曰	-11.1312
信任	-11.1315
專指	-11.1317
二女同居	-11.1319
通氣	-11.132
剛中而	-11.132
辭之	-11.1322
樂天	-11.1324
為遯	-11.1324
則吝	-11.1326
矣非	-11.1327
有何	-11.1328
之家	-11.1329
不家食	-11.1329
由是而	-11.133
為澤	-11.1331
所適	-11.1335
畜君	-11.1338
一徳	-11.1338
三十二卦	-11.1339
大亨而	-11.134
幸而	-11.134
以二體	-11.1341
是理	-11.1343
徐徐	-11.1344
征則凶	-11.1344
滅耳	-11.1344
險而止	-11.1345
鐘	-11.1345
則安	-11.1345
不分	-11.1346
碩果	-11.1347
童䝉	-11.1347
澤中有火	-11.1347
稚	-11.1348
屢遷	-11.1351
匕鬯	-11.1351
非易	-11.1351
者言其	-11.1351
曳輪	-11.1352
安在	-11.1352
木上有水	-11.1353
有其位	-11.1353
冲	-11.1354
而心	-11.1355
匪其彭	-11.1357
謂上	-11.1357
麗澤	-11.1361
不絶	-11.1362
健行	-11.1363
各止其所	-11.1363
卦外	-11.1364
庶人	-11.1368
其首	-11.1369
不可逺	-11.137
而遽	-11.137
小過之時	-11.1371
因以	-11.1373
字是	-11.1373
三極	-11.1375
䷣	-11.1376
之流行	-11.1378
聚散	-11.138
吉㓙	-11.1383
沬	-11.1384
遯世	-11.1385
不我	-11.1385
山林	-11.1386
漸長	-11.1387
唐虞	-11.1388
天下而	-11.1388
詭	-11.1393
三狐	-11.1393
朱子發曰	-11.1394
淮	-11.1397
衆允	-11.1397
孔穎達	-11.1399
以仁	-11.14
保合太和	-11.14
城復于隍	-11.14
不貴	-11.1401
聞言不信	-11.1402
知至至之	-11.1403
明日	-11.1406
有孚攣如	-11.1406
善鳴	-11.1406
亨飪	-11.1406
元吉也	-11.1407
卦之象	-11.1408
不先	-11.1408
劉氏曰	-11.1409
必致	-11.1409
已著	-11.1409
于一	-11.141
小人亦	-11.1412
否臧	-11.1412
天下國家	-11.1413
不正故	-11.1413
以剛居中	-11.1414
順其	-11.1419
興起	-11.1419
下人	-11.1421
神妙	-11.1421
與九五	-11.1422
大車	-11.1422
擊蒙	-11.1423
根本	-11.1423
卿大夫	-11.1424
字之義	-11.1428
于是乎	-11.1431
斯人	-11.1432
為解	-11.1432
木生	-11.1433
固執	-11.1436
先王之	-11.1438
竊意	-11.1438
傷於	-11.1439
否卦	-11.1439
亦因	-11.1441
而占	-11.1441
大㫖	-11.1442
无禽	-11.1444
而位	-11.1444
不伐	-11.1444
損其	-11.1444
而歸之	-11.1445
失則	-11.1445
嫉	-11.1446
改革	-11.1446
矣君子	-11.1446
亷	-11.1447
再變	-11.1453
為日	-11.1453
者常	-11.1455
居業	-11.1457
自天祐之	-11.1459
通用	-11.146
在坤	-11.146
以言乎	-11.146
九二以	-11.1462
二十一	-11.1464
不可久	-11.1465
兑澤	-11.1465
又從而	-11.1466
和説	-11.1466
在易	-11.1466
外内	-11.1467
所隔	-11.1468
一毫	-11.1468
所稱	-11.1468
也如此則	-11.1468
在地上	-11.1469
者隂陽之	-11.1471
議之	-11.1473
无血	-11.1475
知㡬	-11.1476
修省	-11.1478
餘數	-11.1479
克己	-11.1479
乾行	-11.1483
所據	-11.1483
盧	-11.1485
為兊	-11.1486
於下而	-11.1487
其方	-11.1488
王居	-11.1494
其悔	-11.1496
用譽	-11.1497
天之道也	-11.1499
女歸吉	-11.15
而況	-11.1501
浹	-11.1503
支離	-11.1504
時乎	-11.1506
躡	-11.1506
夫妻反目	-11.1507
庖犧	-11.1507
上去	-11.1507
震驚百里	-11.1507
盱豫	-11.1508
正在	-11.1509
天地之數五十有五	-11.1509
下下	-11.1509
人者也	-11.151
大得志	-11.1513
動而上	-11.1513
之風	-11.1513
傷之	-11.1514
之功用	-11.1515
則萬物	-11.1519
至變	-11.152
不失正	-11.1521
震兊	-11.1521
以正道	-11.1522
形而上者	-11.1523
肱	-11.1524
從二	-11.1524
之象夫	-11.1524
撝謙	-11.1524
考其	-11.1525
四八	-11.1525
公之	-11.1526
第五	-11.1531
而就	-11.1534
諸人	-11.1536
賛之	-11.1537
在上為	-11.1539
常道也	-11.154
非其正	-11.154
而後已	-11.1542
惡之	-11.1544
黜	-11.1549
所及	-11.1549
仰觀	-11.1551
呈	-11.1552
蹇解	-11.1553
祝	-11.1553
諛	-11.1554
溺於	-11.1555
要其終	-11.1555
其交	-11.1555
遷善改過	-11.1556
如日之	-11.1556
口實	-11.1557
歉	-11.1557
則行	-11.1557
其行次且	-11.1558
廣漢張氏曰	-11.1558
根於	-11.1558
不致	-11.1558
㦲	-11.1559
以情	-11.1563
比吉	-11.1564
在下為	-11.1565
在天地	-11.1569
至靜	-11.1569
良馬	-11.157
則見	-11.1571
教民	-11.1573
化也	-11.1575
下畫	-11.1575
總是	-11.1576
失之矣	-11.1577
一㸃	-11.1577
陰也	-11.1578
由豫	-11.1579
之事故	-11.158
四柔	-11.1582
必矣	-11.1582
若使	-11.1583
剛而能柔	-11.1586
䷔	-11.1588
䷵	-11.1588
不謂之	-11.1588
此論	-11.1589
卦之初	-11.1589
一三五	-11.159
通則	-11.1591
三剛	-11.1591
初往	-11.1593
指間	-11.1594
日昃	-11.1595
今本	-11.1595
則乾坤	-11.1595
成萬物	-11.1597
亦豈	-11.1597
而使	-11.1598
時時	-11.1599
不加	-11.1601
邅	-11.1602
澗	-11.1602
不廢	-11.1602
處于	-11.1603
珍	-11.1606
慝	-11.1606
為雷	-11.1607
此類	-11.1607
之理而	-11.1608
冶	-11.1608
利天下	-11.1609
不足而	-11.1609
砥	-11.1609
大德	-11.1611
陽大隂小	-11.1611
之所及	-11.1613
吳澄	-11.1613
艮兑	-11.1613
閣	-11.1613
開國承家	-11.1614
盈則	-11.1614
爻者	-11.1617
中分	-11.1618
乾坤者	-11.1618
苟不	-11.1621
則无咎矣	-11.1622
无不利也	-11.1623
指其	-11.1623
僅能	-11.1624
為天子	-11.1624
雉膏	-11.1625
養而不窮	-11.1625
易緯	-11.1627
揲四	-11.1628
上繫	-11.1628
至此而	-11.1629
植物	-11.1631
頤養	-11.1631
蓍䇿	-11.1631
乎四	-11.1633
之災	-11.1634
合則	-11.1634
嚴君	-11.1634
外而	-11.1634
懼而	-11.1636
所餘	-11.1639
䷿	-11.1639
上无	-11.164
大人者	-11.1643
也音義	-11.1643
日出	-11.1645
洗	-11.1646
趙氏曰	-11.1648
到得	-11.1656
復以	-11.1656
桀	-11.1656
以分	-11.1657
革言三就	-11.166
八月有凶	-11.166
揭	-11.1661
前言	-11.1661
耒	-11.1661
无疾	-11.1662
居其所	-11.1664
利用侵伐	-11.1665
為婦	-11.1668
故其占為	-11.1668
本末弱	-11.1669
自觀	-11.167
水火之	-11.1672
者能之	-11.1672
柔進	-11.1672
用中	-11.1674
重而	-11.1675
雷霆	-11.1676
協力	-11.1676
循理	-11.1681
居下體	-11.1682
巽為命	-11.1683
不告	-11.1685
一度	-11.1686
守常	-11.1687
於經	-11.1687
陽道	-11.1687
初非	-11.1688
欲求	-11.169
艮震	-11.169
矣如	-11.1691
體之上	-11.1692
可无咎	-11.1695
至坤	-11.1696
之志也	-11.1696
三動	-11.1697
散也	-11.1698
薰	-11.1699
來反	-11.17
孰不	-11.17
難解	-11.1701
徒以	-11.1705
終訟	-11.1709
藝	-11.1709
敬義	-11.171
象變	-11.1711
遇主于巷	-11.1714
原始	-11.1714
右明象占	-11.1715
甚微	-11.1715
時便	-11.1715
熾	-11.1715
顯然	-11.1717
乾道成男坤道成女	-11.1717
以理	-11.1718
其心不快	-11.172
不妨	-11.1721
變化而	-11.1721
坤衆	-11.1722
相間	-11.1722
升階	-11.1723
即其	-11.1723
休復	-11.1724
故當	-11.1725
其前	-11.1726
男子	-11.1727
天地之情	-11.1729
之政	-11.1731
咸感也	-11.1734
盡於	-11.1735
任事	-11.1736
朱子謂	-11.1736
侯果曰	-11.1737
得吉也	-11.1737
得八	-11.1738
修德	-11.1741
之藴	-11.1742
䷤	-11.1743
大得志也	-11.1743
之朋	-11.1743
書云	-11.1744
非不	-11.1745
計之	-11.1748
如云	-11.1749
善端	-11.1752
衆人之	-11.1754
以盡其	-11.1755
七爻	-11.1755
不義	-11.1756
自損	-11.1757
甲胄	-11.1757
至尊	-11.1759
相去	-11.1759
否而	-11.176
太子	-11.1761
掇	-11.1761
遄往	-11.1761
絪緼	-11.1761
善則	-11.1762
雖無	-11.1765
柔變剛	-11.1766
小人道長	-11.1766
甘臨	-11.1767
晋	-11.1767
朱紱方來	-11.1768
文徳	-11.1768
利用祭祀	-11.1771
得臣	-11.1773
馬壯	-11.1775
禮記	-11.1778
所附	-11.1779
自昭	-11.1779
節節	-11.1782
修其	-11.1783
車之	-11.1788
體剛	-11.1788
三四五互	-11.1788
知至	-11.1792
奇偶	-11.1792
卑者	-11.1794
見於外	-11.1795
惕厲	-11.1797
䷼	-11.18
箕	-11.1803
損而	-11.1803
上剛	-11.1805
然後為	-11.1806
也愚曰	-11.1807
得主	-11.1808
度其	-11.1812
渠	-11.1813
所成	-11.1814
刪	-11.1815
敏	-11.1816
乎隂	-11.1817
所存	-11.1817
猷	-11.1818
明入地中	-11.1818
竅	-11.1819
履霜堅冰	-11.1819
因此	-11.1821
纒	-11.1821
君子體	-11.1821
折其右肱	-11.1821
蝕	-11.1822
而善	-11.1823
矣但	-11.1824
决之	-11.1825
本坤	-11.1825
之名也	-11.1827
訟而	-11.1828
巽為股	-11.1828
無為	-11.183
不固	-11.1831
發見	-11.1833
所執	-11.1833
何氏	-11.1838
而後行	-11.1838
得正位	-11.184
益者	-11.1841
巽伏	-11.1843
天地隂陽	-11.1846
)○(	-11.1846
使知	-11.1847
䷌	-11.1852
也易之	-11.1855
交坤	-11.1856
善補過	-11.1857
震驚	-11.1857
勢必	-11.1857
豈特	-11.1858
其象如此	-11.1859
十八變	-11.1859
應乎乾	-11.1861
太王	-11.1861
出征	-11.1862
十分	-11.1862
安知	-11.1864
詳審	-11.1864
其節	-11.1865
漢之	-11.1866
第六	-11.1866
徳則	-11.1868
之大者也	-11.187
羣龍	-11.1871
誦	-11.1871
築	-11.1872
之門	-11.1872
形也	-11.1873
李季辨曰	-11.1873
包有魚	-11.1874
有咎也	-11.1877
王昭素	-11.1877
隆山李氏曰	-11.1877
馬匹亡	-11.188
分剛上而文柔	-11.188
朋黨	-11.1882
其親	-11.1882
省方	-11.1883
以卦才言	-11.1883
成器	-11.1885
昏暗	-11.1885
兩者	-11.1888
虎尾	-11.1888
在下卦之上	-11.1892
不終日	-11.1893
積累	-11.1895
天下之志	-11.1896
成既濟	-11.1898
為豫	-11.1899
上六居	-11.1899
聖學	-11.1901
必凶	-11.1901
隂雖	-11.1902
反下	-11.1904
為安	-11.1905
金車	-11.1906
私欲	-11.1907
所以謂之	-11.1908
兼取	-11.1911
馬云	-11.1912
于後	-11.1912
居大臣之位	-11.1918
下離	-11.1918
包容	-11.1919
何足	-11.1919
有親	-11.192
志未得也	-11.192
賛曰	-11.1921
所以凶也	-11.1923
態	-11.1927
雲峯	-11.1927
以貴下賤	-11.1927
以柔居中	-11.1928
能乆	-11.1929
申明	-11.1929
莭	-11.1929
參天兩地而倚數	-11.193
以初為	-11.1931
有聲	-11.1934
亦言	-11.1935
未通	-11.1936
易有聖人之道四焉	-11.1936
獲其	-11.1939
亦已	-11.1941
事變	-11.1942
從乾	-11.1943
若曰	-11.1946
不堪	-11.195
日在	-11.1952
其根	-11.1952
欲行	-11.1955
此君子	-11.1956
渙者	-11.1957
无極	-11.1959
于行	-11.196
又因	-11.1962
無過	-11.1964
為老陽	-11.1964
之心而	-11.1966
無極	-11.1967
察其	-11.1967
上臨下	-11.1969
此本	-11.1969
悶	-11.1969
在我者	-11.197
一奇	-11.1971
執一	-11.1971
韋	-11.1971
來氏	-11.1971
不得中	-11.1972
成章	-11.1973
者宜	-11.1973
命者	-11.1973
自生	-11.1974
逆順	-11.1975
立法	-11.1975
然當	-11.1976
卦爻辭	-11.1977
贏	-11.1977
虐	-11.1977
有善	-11.1978
取于	-11.1979
如一	-11.1979
苐	-11.198
諒	-11.198
三處	-11.198
異位	-11.198
至剛	-11.1982
僴	-11.1983
陷於險	-11.1983
屨校滅趾	-11.1983
无遺	-11.1983
仁知	-11.1983
其孰能	-11.1985
形象	-11.1985
不可知	-11.1986
故以為	-11.1987
退避	-11.1988
堯之	-11.1988
愛惡	-11.199
與天地相似	-11.199
求諸	-11.1994
始凝	-11.1994
比者	-11.1995
久則	-11.1996
同人大有	-11.2
雖處	-11.2
互兑	-11.2
雜卦傳	-11.2
褫	-11.2002
名也	-11.2003
獨不言	-11.2007
又得	-11.2009
亦多	-11.2012
不問	-11.2012
亦與	-11.2013
盛矣	-11.2013
吉孰大焉	-11.2014
革面	-11.2016
艮陽	-11.2019
隨其	-11.202
形質	-11.202
在地中	-11.202
損者	-11.2022
不亨	-11.2022
震坎	-11.2023
一於	-11.2023
至二	-11.2024
涣	-11.2024
有數	-11.2025
者釋	-11.2025
用心	-11.2026
也詩曰	-11.2029
寺	-11.2031
正而固	-11.2032
志意	-11.2034
為老隂	-11.2034
能生	-11.2034
鑑	-11.2035
天之氣	-11.2035
宻雲不雨	-11.2036
津	-11.2036
得四	-11.2036
揚雄	-11.2037
不失中	-11.2037
巖	-11.2037
中興	-11.2038
不私	-11.2038
雙湖	-11.2038
正謂	-11.2039
六十卦	-11.204
以中正之道	-11.204
大禹	-11.2042
欲動	-11.2042
釋卦	-11.2042
發於	-11.2043
故乾乾因其時而惕雖危无咎矣	-11.2044
以亨	-11.2044
河洛	-11.205
合訂	-11.205
郭子和曰	-11.2051
太一	-11.2051
上與三	-11.2051
非常	-11.2055
廣矣	-11.2057
地六	-11.2058
義曰夫	-11.206
之職	-11.206
太公	-11.2062
情狀	-11.2062
辭以	-11.2064
羣小	-11.2066
乃可以	-11.2066
帥師	-11.207
不平	-11.2071
三位	-11.2073
皆謂之	-11.2073
進而上	-11.2074
宣王	-11.2074
不甚	-11.2077
其施	-11.2078
得之矣	-11.208
外有	-11.208
變陽	-11.2081
而不安	-11.2082
大體	-11.2083
安其位	-11.2085
如水之	-11.2089
一百九十二	-11.2089
熙	-11.2089
飢	-11.2089
固然	-11.2089
幕	-11.209
俊	-11.209
河圖之	-11.2091
讀書	-11.2095
吉凶與民同患	-11.2095
浪	-11.2095
㛰媾	-11.2096
下觀而化	-11.2096
以是為	-11.2097
聖人之情見乎辭	-11.21
汔	-11.2101
未順命	-11.2101
之分也	-11.2109
則動	-11.2112
隨時而	-11.2113
臨川	-11.2113
恒乆	-11.2114
也故云	-11.2116
而相	-11.2116
自泰來	-11.2119
其要	-11.212
之思	-11.2121
苟非	-11.2123
為長	-11.2126
謙豫	-11.2127
艮卦	-11.2129
湯武之	-11.213
亢而	-11.2131
處旅	-11.2133
脩身	-11.2133
這便是	-11.2136
為既濟	-11.2138
不戒	-11.214
波	-11.214
黍	-11.2142
柔邪	-11.2142
順者	-11.2142
複	-11.2143
吹	-11.2143
軸	-11.2145
挺	-11.2146
其所當	-11.2147
食舊徳	-11.2147
豚	-11.2147
天則	-11.2147
各具	-11.2147
首出庶物	-11.2148
灰	-11.2148
一書	-11.2148
為神	-11.215
謂隂	-11.2153
至如	-11.2153
傳所謂	-11.2154
在這裏	-11.2155
以二為	-11.2155
於我	-11.2155
衍文	-11.2156
倚數	-11.2157
相保	-11.2158
十有八變	-11.2161
夷主	-11.2161
者也若	-11.2162
不足以濟	-11.2162
指四	-11.2165
而止之	-11.2166
不下	-11.2167
近世	-11.217
三卦	-11.217
三四為	-11.2172
子午	-11.2173
皆剛	-11.2174
互卦	-11.2176
以陽剛之才	-11.2181
者天地之	-11.2181
一國	-11.2182
不出門庭	-11.2184
合體	-11.2187
位正當	-11.2188
下坎	-11.219
以起	-11.2193
士君子	-11.2193
立誠	-11.2194
豈徒	-11.2195
艱險	-11.2198
惰	-11.22
所説	-11.2201
止者	-11.2202
毫釐	-11.2202
與否	-11.2203
咎矣	-11.2203
隘	-11.2204
入于左腹	-11.2206
彖之	-11.2207
未大	-11.2207
子貢	-11.2207
天有	-11.2209
乾之健	-11.2209
也其曰	-11.221
女貞	-11.2211
終吉也	-11.2211
理勢	-11.2212
先見	-11.2212
雖小	-11.2212
西南得朋	-11.2213
主利	-11.2215
將盡	-11.2216
左股	-11.2216
君臣上下	-11.2217
詳矣	-11.2218
于已	-11.2219
所往	-11.2219
五數	-11.2223
以存	-11.2223
盡其道	-11.2224
生者	-11.2225
下巽	-11.2225
不行也	-11.2227
彖以	-11.223
而取之	-11.2231
當此	-11.2232
甚於	-11.2234
莖	-11.2235
處説	-11.2237
義曰言	-11.2238
隂陽剛柔	-11.2238
而盡	-11.2238
者存	-11.2244
是以无咎	-11.2246
名為	-11.2247
荆	-11.2248
要在	-11.225
百二十	-11.2252
分上下	-11.2253
如所謂	-11.2254
既不能	-11.2255
汎	-11.2256
系	-11.2256
三竒	-11.2256
亦同	-11.2258
同而異	-11.2258
總之	-11.2258
而知其	-11.2258
同人于野	-11.2259
其事而	-11.2259
許其	-11.226
為井	-11.226
据	-11.226
羸其瓶	-11.2261
東坡	-11.2263
外之	-11.2264
荀氏	-11.2264
无譽	-11.2265
不動則	-11.2266
畢竟	-11.2267
剛柔始交	-11.2267
為月	-11.2268
六十四卦皆	-11.227
各異	-11.2272
如屯	-11.2273
以斯	-11.2275
然後知	-11.2275
絶句	-11.2276
之位而	-11.2277
君子有	-11.2278
能如是	-11.2278
于上而	-11.2278
以漸而	-11.2281
為隂所	-11.2282
畜徳	-11.2282
平日	-11.2282
不可咎	-11.2283
為元	-11.2283
為損	-11.2284
於上則	-11.2284
往吝	-11.2284
相取	-11.2285
一念之	-11.2286
无妄也	-11.2287
一時之	-11.229
為師	-11.2293
文蔚	-11.2295
䷘	-11.2296
䷍	-11.2296
六合	-11.2296
裁成	-11.2297
陽息	-11.2298
天下大	-11.23
庶物	-11.23
坡	-11.2302
无凶	-11.2304
承乾	-11.2305
得中正	-11.2307
雀	-11.2309
師保	-11.2311
六八	-11.2311
自止	-11.2312
倘	-11.2312
不可犯	-11.2313
佳	-11.2315
風行地上	-11.2315
徂	-11.2315
下濟	-11.2318
父母之	-11.232
其居	-11.232
中古	-11.2321
進修	-11.2322
便能	-11.2322
在外而	-11.2322
初未	-11.2323
頤大過	-11.2324
以柔中	-11.2324
揲蓍之法	-11.2324
大善而吉	-11.2327
吉字	-11.2328
不同者	-11.2328
而乘	-11.2329
微子	-11.233
秩	-11.2332
這般	-11.2332
同乎	-11.2333
大塗	-11.2339
乎象曰	-11.2343
之心則	-11.2345
二陽之上	-11.2346
只是一	-11.2347
用享	-11.2347
用數	-11.2348
履正	-11.2349
宜若	-11.2352
陽在内	-11.2353
荀子	-11.2353
震為行	-11.2356
矣雖	-11.2357
上順	-11.236
多懼之地	-11.2361
得正而	-11.2361
无訟	-11.2362
謂六五	-11.2363
錫命	-11.2363
物之所	-11.2364
欲使	-11.2366
釡	-11.2366
可以濟	-11.2366
六五為	-11.2367
不露	-11.2367
並進	-11.2367
之速	-11.2367
剛在上	-11.2367
往蹇	-11.2367
入于幽谷	-11.2369
天命之	-11.237
衣袽	-11.237
幹事	-11.2371
以形	-11.2371
曷之用二簋可用享	-11.2371
辭曰	-11.2371
珠	-11.2372
區區	-11.2372
誠齋楊氏曰	-11.2375
損其疾	-11.2377
廣平游氏曰	-11.2378
三畫卦	-11.2378
未著	-11.2378
指初	-11.2379
易解	-11.2381
五言	-11.2381
通之	-11.2382
也虞翻曰	-11.2382
必見	-11.2382
隂陽相應	-11.2384
疑者	-11.2384
自致	-11.2385
天人之	-11.2387
滅趾	-11.2387
原有	-11.2388
聖人之情	-11.2389
而已此	-11.239
秘	-11.2391
乃其	-11.2393
惟聖人	-11.2393
天地自然之	-11.2397
通達	-11.2398
所當止	-11.24
千三百	-11.2402
有罪	-11.241
威武	-11.241
卷四	-11.241
戒之以	-11.2412
惕號	-11.2413
質柔	-11.2417
與比	-11.2417
也蒙謂	-11.2417
巽而止	-11.2418
移易	-11.2421
惟君子	-11.2421
以二五	-11.2421
巽而動	-11.2422
紱	-11.2423
不有其	-11.2423
比也	-11.2424
揉	-11.2425
剖	-11.2426
小往大來	-11.2427
碩果不食	-11.2427
亦能	-11.2427
之學也	-11.2428
稼穡	-11.2428
復初	-11.2428
鷄	-11.2429
履虎尾不咥人亨	-11.243
陽物	-11.243
耜	-11.243
雷風相薄	-11.243
恐懼修省	-11.2432
何以能	-11.2434
通矣	-11.2434
為說	-11.2434
弱而	-11.2435
可亨	-11.2436
二三四互	-11.2437
平地	-11.2437
所依	-11.2437
善道	-11.244
豈可以	-11.2442
不祥	-11.2442
觀頤	-11.2443
如山	-11.2444
伏戎	-11.2444
浚恒	-11.2445
自无	-11.2446
其大者	-11.2448
邑國	-11.2448
待之	-11.2448
而不動	-11.2449
象中	-11.245
初九之剛	-11.2451
于隂	-11.2451
亨小	-11.2453
時已	-11.2454
處便是	-11.2455
无妄之疾	-11.2455
同于	-11.2456
有其徳	-11.246
衆心	-11.246
自己	-11.2463
何則	-11.2465
二之五	-11.2465
振恒	-11.2469
配主	-11.2471
悠	-11.2475
誠也	-11.2476
嗜	-11.2477
二爻變	-11.2477
雖得	-11.2478
柔遇剛	-11.2479
求我	-11.2479
人多	-11.2481
宇宙	-11.2482
之主爻	-11.2482
凛	-11.2482
而不知其	-11.2482
辨也	-11.2483
之義矣	-11.2483
理財	-11.2483
二分	-11.2483
徽	-11.2484
升者	-11.2484
二往	-11.2485
再扐而後掛	-11.2485
睦	-11.2486
豐其蔀	-11.2487
蠧	-11.2487
屯其膏	-11.2488
不謹	-11.2488
中正之德	-11.2489
皆无	-11.249
之域	-11.2493
井以	-11.2493
敬則	-11.2499
為占	-11.2499
道夫	-11.2501
大來	-11.2501
上位	-11.2503
而無所	-11.2503
所恃	-11.2504
流而	-11.2505
殺牛	-11.2505
近者	-11.2509
語錄	-11.2509
止而止	-11.2511
乾之初九	-11.2513
故其象	-11.2514
艮之止	-11.2514
虎變	-11.2516
二卷	-11.2517
推移	-11.2517
二隂之間	-11.2517
惡也	-11.2518
當升	-11.2519
上二爻	-11.2522
不能安	-11.2523
窮則變	-11.2524
變矣	-11.2526
以天	-11.2528
錯雜	-11.2528
旁行	-11.2531
牽引	-11.2531
所受	-11.2532
為德	-11.2532
厚下	-11.2534
者天	-11.2537
巽以行權	-11.2537
藏於	-11.2538
多白眼	-11.2538
鈎	-11.2539
餙	-11.2539
之德也	-11.254
薄而	-11.2541
馬之	-11.2541
沈守約曰	-11.2541
㓕	-11.2542
一隂生	-11.2542
張紫巖曰	-11.2542
立言	-11.2543
于木	-11.2543
河圖之數	-11.2544
匕	-11.2544
今之	-11.2545
莫大焉	-11.2547
哉然	-11.2547
至當	-11.2549
節齋蔡氏曰	-11.2549
无正應	-11.255
它卦	-11.2552
畫為	-11.2552
三就	-11.2553
棄之	-11.2553
動以天	-11.2553
中正之君	-11.2554
以奉	-11.2555
夫豈	-11.2555
象天	-11.2557
以善	-11.2558
旡咎	-11.2558
適當	-11.2559
是道也	-11.2563
質素	-11.2564
自相	-11.2569
天理之	-11.2569
兩隂	-11.2571
言亨	-11.2571
无咎无譽	-11.2572
悔矣	-11.2576
用蓍	-11.2576
其先	-11.2577
包含	-11.2578
不達	-11.2578
専以	-11.2578
元亨也	-11.2579
天以	-11.2579
以律	-11.258
徃蹇	-11.2582
兊為澤	-11.2582
安矣	-11.2583
志也	-11.2584
謂二也	-11.2585
妨	-11.2586
君子之光	-11.2586
危者	-11.2586
七百	-11.2586
所說	-11.2586
宜有	-11.2586
乎剛	-11.2588
禦寇	-11.2589
是書	-11.2596
恰	-11.2596
羔	-11.2596
臯陶	-11.2597
逆而	-11.2598
頌	-11.2599
遯世无悶	-11.2599
勵	-11.2599
四近君	-11.26
行地	-11.26
用晦而明	-11.2602
利君子貞	-11.2605
以告	-11.2605
啞啞	-11.2607
水中	-11.2608
論曰	-11.2608
一竒一偶	-11.2608
而思	-11.2609
能變	-11.2609
蔡虚齋曰	-11.2611
至微	-11.2612
斯道	-11.2612
否塞	-11.2612
神者	-11.2612
為娣	-11.2613
山上	-11.2616
決去	-11.2617
但能	-11.2618
乾五	-11.2619
經營	-11.262
肥遯	-11.262
但有	-11.2621
震兑	-11.2621
之歸	-11.2624
更不	-11.263
前人	-11.2631
失位故	-11.2634
二隂之中	-11.2634
剛動	-11.2638
得其吉	-11.2638
持之	-11.2639
亦作	-11.264
之難也	-11.264
胸中	-11.2642
爻爻	-11.2642
䷈	-11.2642
皆乾	-11.2645
䷙	-11.2646
離為雉	-11.2646
荀作	-11.2647
五年	-11.2649
問易	-11.2651
以防	-11.2652
于險	-11.2652
出自穴	-11.2654
尤為	-11.2655
以隂陽	-11.2656
田獲三品	-11.2657
為兌	-11.2657
撃	-11.2658
折獄致刑	-11.2658
勅	-11.2658
苖	-11.2659
失得勿恤	-11.2659
天在山中	-11.266
未足以	-11.266
知終終之	-11.266
利用安身	-11.2661
宴樂	-11.2661
髙而无民	-11.2662
一條	-11.2662
為一卦之主	-11.2662
在物	-11.2663
朶頤	-11.2664
項安世	-11.2664
邑人不誡	-11.2666
宜乎	-11.2666
以至誠	-11.2666
在坎中	-11.2668
何得	-11.2671
閑邪	-11.2672
九家易	-11.2673
流於	-11.2675
其極	-11.2675
也若以	-11.2676
而不過	-11.268
前知	-11.2681
震亨	-11.2683
而稱	-11.2683
著於	-11.2683
極至	-11.2684
頻巽	-11.2685
湯之	-11.2691
九三九四	-11.2692
此其所以為	-11.2692
觸藩	-11.2693
儆	-11.2694
助也	-11.2695
孤立	-11.2699
大號	-11.27
可食	-11.27
為妾	-11.2701
大有得	-11.2703
以威	-11.2704
所變	-11.2705
之病	-11.2706
卦曰	-11.2709
之謀	-11.2709
閭	-11.2713
狎	-11.2714
變為柔	-11.2715
其常也	-11.2715
元者善之長	-11.2715
陽復	-11.2715
岳	-11.2716
恰好	-11.2717
方見	-11.2717
山下有火	-11.2718
自我西郊	-11.2718
羡	-11.2718
泯	-11.2719
西鄰	-11.2719
量力	-11.272
原是	-11.2722
乾剛坤柔	-11.2722
相離	-11.2722
也此言	-11.2724
无所疑	-11.2724
以釋	-11.2724
者不可	-11.2725
同人于宗	-11.2725
蹇也	-11.2726
之表	-11.2727
下卦為	-11.2728
為革	-11.2728
交則	-11.2728
其舊	-11.273
二老	-11.2732
一偏	-11.2733
所以示	-11.2734
復于	-11.274
亦只是	-11.2741
之正位	-11.2742
有自然之	-11.2742
吴	-11.2743
為屯	-11.2744
為憂	-11.2747
之行也	-11.2747
其占為	-11.2748
百一十	-11.2749
後漢	-11.275
位尊	-11.2753
又不能	-11.2754
乾胏	-11.2754
始則	-11.2755
不事	-11.2757
不得以	-11.2759
有所不	-11.276
動乎	-11.2765
不治	-11.2765
故又曰	-11.2766
巽艮	-11.2766
負且乗	-11.2772
戔戔	-11.2772
不知所	-11.2772
拯之	-11.2773
歸奇	-11.2774
柔下	-11.2776
與五同	-11.2777
互兊	-11.2778
密雲不雨	-11.2778
大輿	-11.2779
皆具	-11.2779
情也	-11.278
王假有家	-11.2781
剛暴	-11.2781
窒塞	-11.2781
何天之衢	-11.2782
有恒	-11.2782
存心	-11.2783
于前	-11.2783
此明	-11.2784
隨時之義	-11.2784
不失其時	-11.2784
美在其中	-11.2785
天之命	-11.2786
之君也	-11.2787
不動而	-11.2788
餘卦	-11.2788
之傷	-11.279
著矣	-11.2791
於彼	-11.2793
在穴	-11.2794
髙者	-11.2795
之女	-11.2796
與隂	-11.2796
中正也	-11.28
天行健	-11.28
合而成	-11.2803
居陽位	-11.2803
子産	-11.2804
順事	-11.2805
不患	-11.2811
大人也	-11.2812
地二	-11.2815
馮氏曰	-11.2818
志在内	-11.2821
亾	-11.2821
須待	-11.2824
觀於	-11.2824
筮法	-11.2826
之大義	-11.2827
易之所	-11.2827
居東	-11.2828
于身	-11.2829
如是也	-11.283
披	-11.2831
織	-11.2832
核	-11.2835
猶可以	-11.2836
養賢以及萬民	-11.2836
郭白雲曰	-11.2836
以九居四	-11.2838
宴息	-11.2839
濟世	-11.284
由其	-11.2843
牽羊	-11.2843
非但	-11.2843
國家之	-11.2844
育徳	-11.2844
夬履	-11.2845
萬化	-11.2846
毛竒齡	-11.2846
歸魂	-11.285
者可以	-11.285
顛頥	-11.285
以徳言	-11.2851
得黄金	-11.2852
坎為月	-11.2853
向之	-11.2854
勝而	-11.2855
未合	-11.2855
者事之	-11.2856
曰无咎	-11.2858
象義	-11.2859
是以能	-11.2862
卦詞	-11.2862
養天下	-11.2864
而不食	-11.2864
子克家	-11.2865
非止	-11.2865
而知之	-11.2866
而已非	-11.2867
應陽	-11.2868
守道	-11.287
則凡	-11.2871
艮艮	-11.2872
三聖	-11.2873
此獨	-11.2874
二與初	-11.2875
以信	-11.2875
著其	-11.2877
不同故	-11.2877
既立	-11.2878
備於	-11.288
為國	-11.2881
未孚	-11.2882
離兊	-11.2883
其禍	-11.2884
所引	-11.2884
於人者	-11.2886
傷而	-11.2886
遯則	-11.2887
季氏	-11.2887
其勞	-11.289
亞	-11.2891
淑	-11.2891
歸而逋	-11.2891
謗	-11.2892
儲	-11.2892
理之常也	-11.2892
取女吉	-11.2892
梅	-11.2893
少者	-11.2893
需于血	-11.2893
兩間	-11.2893
親之	-11.2893
諱	-11.2894
雲行雨施品物流形	-11.2894
不知有	-11.2895
諌	-11.2895
多疑	-11.2895
頽	-11.2896
包括	-11.2896
勿逐七日得	-11.2896
上動	-11.2898
江河	-11.2898
近臣	-11.2898
感動	-11.29
有不同	-11.2901
但曰	-11.2905
震為動	-11.2906
何疑	-11.2906
安樂	-11.2909
變而通之	-11.2911
勿疑	-11.2911
用禴	-11.2912
必亨	-11.2912
巽以	-11.2912
聖人之言	-11.2916
本位	-11.2917
者也二	-11.2918
藏之	-11.2919
隂在上	-11.2921
也君子之	-11.2921
孔孟	-11.2924
艮爲	-11.2925
乾元之	-11.2926
象故曰	-11.2928
繫之以	-11.293
矣乃	-11.293
順而止之	-11.2931
又各	-11.2936
而无應	-11.2937
本又作	-11.2938
象地	-11.2938
謂坤	-11.2939
為十	-11.2939
訂	-11.294
不利東北	-11.294
吉凶者	-11.2941
貞而吉	-11.2943
无色	-11.2944
乆而	-11.2947
渥	-11.2948
多譽	-11.2948
向上	-11.2948
諸侯之	-11.295
為己	-11.295
社	-11.295
屨	-11.2951
幣	-11.2951
其危	-11.2951
有剛中之徳	-11.2951
纂	-11.2952
爐	-11.2952
而莫	-11.2953
昩	-11.2953
也故无咎	-11.2953
離爲	-11.2953
奠	-11.2953
以上下	-11.2953
嗛	-11.2954
而信	-11.2955
媾	-11.2955
㪚	-11.2956
艮其身	-11.2956
滅頂	-11.2959
龍戰于野	-11.2959
孰能與於此	-11.2959
原始要終	-11.2959
求小得	-11.2961
離羣	-11.2962
皆順	-11.2964
萃升	-11.2964
日月寒暑	-11.2966
臣道也	-11.2967
彼之	-11.2971
則不然	-11.2972
健體	-11.2973
以守	-11.2973
公曰	-11.2974
聖人有	-11.2974
健也	-11.2975
而已哉	-11.2975
繫辭焉	-11.2976
葢言	-11.2976
之蓍	-11.2977
若濡	-11.2977
内明	-11.2978
不可以為	-11.2984
以爻言	-11.2986
矣或曰	-11.2986
必用	-11.2987
已下	-11.2988
民志	-11.2989
成兊	-11.2989
安可	-11.299
聖人體	-11.2993
多故	-11.2994
自來	-11.2994
易之所以	-11.2996
宜日中	-11.2996
執言	-11.2997
不虞	-11.3001
復還	-11.3001
下民	-11.3001
四十有九	-11.3003
明體	-11.3003
之時故	-11.3004
與坤	-11.3004
惡其	-11.3004
疵	-11.3005
牽於	-11.3006
以文	-11.3007
威儀	-11.3007
課	-11.301
馭	-11.3011
不事王侯	-11.3011
瑞	-11.3012
郤	-11.3012
乗馬班如	-11.3013
何待	-11.3015
冒天下之道	-11.3015
之象故為	-11.3016
而有所	-11.3016
皆出於	-11.3016
相應而	-11.3018
無復	-11.3018
而亨也	-11.302
七日得	-11.302
在井	-11.3021
五卦	-11.3023
坤順也	-11.3024
交相愛	-11.3024
為偶	-11.3024
一件	-11.3024
而獲吉	-11.3026
而乗	-11.3026
為卜筮	-11.3026
乾六爻	-11.3031
則心	-11.3033
但知	-11.3034
于郊	-11.3039
有所徃	-11.3039
説卦曰	-11.3041
剝陽	-11.3042
與上九	-11.3042
處說	-11.3043
上下二體	-11.3044
中天	-11.3045
出焉	-11.3047
則凶矣	-11.3048
可否	-11.3048
震四	-11.305
何異	-11.3053
不能止	-11.3053
為竒	-11.3054
生生之	-11.3055
是以聖人	-11.3057
有體	-11.3057
亦猶是也	-11.306
禘	-11.306
固宜	-11.3061
私心	-11.3062
四動	-11.3063
識之	-11.3065
其道窮	-11.3066
卦言之	-11.3071
上同	-11.3071
比三	-11.3072
之宗	-11.3075
象同	-11.3075
牆	-11.3075
腰	-11.3076
旺	-11.3077
其凶可知	-11.3077
而不居	-11.3079
深戒	-11.3079
比應	-11.3085
幽明之故	-11.3085
質也	-11.3086
剛浸而長	-11.3087
從貴	-11.3087
左腹	-11.3087
不可動	-11.3088
傾覆	-11.3089
為土	-11.3089
亦未嘗	-11.3092
可羞吝	-11.3092
伐邑	-11.3094
蔚	-11.3095
可矣	-11.3097
於木	-11.3097
不審	-11.3097
晦而	-11.3098
或擊之	-11.31
不遷	-11.31
猶在	-11.3101
者乾之	-11.3102
之妙也	-11.3103
各居	-11.3104
三接	-11.3105
三百八十四	-11.3105
物以	-11.3106
雷風相與	-11.3106
裏面	-11.3107
謙徳	-11.3109
輝光	-11.311
九五陽剛中正	-11.311
何可長也	-11.3112
莫益之	-11.3114
惟以	-11.3115
陽剛之才	-11.3115
上卦為	-11.3116
太極圖	-11.3119
傳義	-11.3121
釋彖	-11.3122
未來	-11.3123
滿盈	-11.3124
上止	-11.3125
羣陰	-11.3125
亦可謂	-11.3126
能如是則	-11.3126
頰	-11.3127
乾之元	-11.3127
上坎	-11.3128
必至于	-11.3128
三往	-11.3128
止而不進	-11.3129
以受	-11.3129
軒	-11.3131
木也	-11.3131
晨	-11.3131
斬	-11.3133
夫子曰	-11.3134
肩	-11.3134
正其志	-11.3134
彌綸	-11.3135
不可以有為	-11.3135
難於	-11.3135
違之	-11.3136
以隂變陽為	-11.3137
如此説	-11.3137
結之	-11.3139
六五以柔	-11.314
這是	-11.3143
朱子語類云	-11.3143
戒備	-11.3144
之卦而	-11.3144
宗之	-11.3145
見前	-11.3145
是指	-11.3148
木火	-11.3151
假借	-11.3152
以取	-11.3153
餘二	-11.316
神道設教	-11.316
得金矢	-11.316
之根	-11.3161
坤徳	-11.3164
火火	-11.317
始進	-11.3171
二在	-11.3172
六年	-11.3173
以其有	-11.3173
亦在	-11.3173
目之	-11.3173
感人心	-11.3174
妄行	-11.3175
井道	-11.3179
為五十	-11.3179
尋常	-11.3179
寓於	-11.3181
自然而然	-11.3182
覿	-11.3182
為母	-11.3182
羣賢	-11.3183
卦之外	-11.3183
獨於	-11.3185
六五柔中	-11.3187
仍是	-11.3188
有難	-11.3188
之道則	-11.3188
合二	-11.3189
之聲	-11.319
麟	-11.3191
屯之時	-11.3191
何也蓋	-11.3193
困于石	-11.3194
餘三	-11.3194
不陷	-11.3195
䕶	-11.3195
交乾	-11.3195
四位	-11.3196
而其占	-11.3197
聖人用易	-11.3197
乾肉	-11.3197
於上下	-11.3197
兊體	-11.3198
復何	-11.3198
位居	-11.3199
上坎下	-11.32
不明也	-11.3201
期於	-11.3201
雷在天上	-11.3202
也孔子曰	-11.3205
久於其道	-11.3206
愠	-11.3209
大君之宜	-11.3209
自新	-11.3213
晦菴	-11.3213
固當	-11.3214
乾道變化	-11.3214
必合	-11.3217
形氣	-11.3219
初筮告	-11.3219
今曰	-11.322
聖人于	-11.322
刑人	-11.3221
相助	-11.3221
天三	-11.3222
乾鑿度曰	-11.3226
藏往	-11.3227
之寵	-11.3228
典常	-11.3229
上承九五	-11.3231
所指	-11.3232
正心	-11.3232
亦不必	-11.3233
以八卦	-11.3235
錯簡	-11.3235
逐逐	-11.3235
審其	-11.3236
任賢	-11.3239
弓矢	-11.3239
重剛不中	-11.3242
可見者	-11.3245
屯者	-11.3247
為志	-11.3247
觀卦	-11.3252
居貞吉	-11.3254
渙其血	-11.3255
極乎	-11.3255
卦之徳	-11.3255
耿	-11.3255
間隔	-11.3255
筭	-11.3255
因循	-11.3256
㕘	-11.3256
射雉	-11.3257
醉	-11.3257
矣况	-11.3257
頤中有物	-11.3258
薫	-11.3258
變化者	-11.3259
隂邪	-11.326
先天八卦	-11.326
斟酌	-11.3262
剛陽之才	-11.3262
故无咎也	-11.3265
上應九五	-11.3266
體本	-11.3268
既分	-11.3268
至髙	-11.3271
大國	-11.3275
少而	-11.3279
亦欲	-11.328
在天上	-11.328
禮以	-11.328
履道	-11.3282
震動而	-11.3283
不惑	-11.3283
九九	-11.3284
入乎	-11.3286
諸卦之	-11.3287
克之	-11.3289
則生	-11.3291
嘉㑹	-11.3291
必无	-11.3295
六六	-11.3297
得乾之	-11.3298
陽過	-11.3301
以四為	-11.3301
物情	-11.3301
以二體言之	-11.3303
為蠱	-11.3304
者今	-11.3306
白茅	-11.3307
於此矣	-11.331
九五中正	-11.331
健者	-11.3311
聖人之徳	-11.3313
二陽之下	-11.3313
轍	-11.3315
有司	-11.3315
防閑	-11.3317
壯也	-11.3317
附㑹	-11.3317
睹	-11.3317
之訓	-11.3318
耋	-11.3318
液	-11.3319
搏	-11.3319
袽	-11.332
𦂳	-11.3321
駭	-11.3321
罟	-11.3321
參天地	-11.3322
大車以載	-11.3323
氣機	-11.3323
不永所事	-11.3323
幹母之蠱	-11.3324
理義	-11.3326
畜道	-11.3326
窮理盡性	-11.3326
不可不知	-11.3327
有中徳	-11.3327
退藏	-11.3327
王童溪曰	-11.3328
不宜上宜下	-11.3328
五居中	-11.3331
與六二	-11.3331
知禮	-11.3335
有變	-11.3335
不變則	-11.3336
之象此	-11.3336
井井	-11.3336
與九二	-11.3338
四應初	-11.3341
剛柔交錯	-11.3341
慎之	-11.3343
應乾	-11.3343
百世	-11.3347
為女	-11.3348
之旨	-11.3348
日入	-11.3349
相摩	-11.3349
有禮	-11.3351
容保	-11.3354
所聚	-11.3355
王弼曰	-11.3356
之亨也	-11.3356
只言	-11.3357
故吉也	-11.3357
朱子語問	-11.336
水上	-11.3365
養萬物	-11.3365
之官	-11.3371
超然	-11.3375
以柔居尊	-11.3377
遡	-11.3378
必由	-11.3379
無定	-11.3379
徽纆	-11.338
有攸徃	-11.338
于其中	-11.338
果蓏	-11.3381
樽	-11.3381
隂暗	-11.3381
烝	-11.3382
畜聚	-11.3382
沿	-11.3382
順天應人	-11.3385
綿	-11.3385
而不去	-11.3387
人民	-11.3388
艮其限	-11.3389
立春	-11.3396
誠則	-11.3397
獨復	-11.3398
者異矣	-11.3402
在焉	-11.3403
以此而	-11.3403
而名	-11.3403
未至于	-11.3404
養生	-11.3404
所自來	-11.3405
憂恤	-11.3406
明照	-11.3406
干寳曰	-11.3407
至公	-11.3407
重濁	-11.3408
萬物資始	-11.3409
良馬逐	-11.341
乎險	-11.341
何所不	-11.3414
逺去	-11.3414
至上九	-11.3416
有似	-11.3416
安節	-11.3418
自修	-11.342
而終於	-11.342
也此以	-11.342
相息	-11.3421
治蒙	-11.3422
五畫	-11.3426
未動	-11.3428
以見其	-11.3428
一耦	-11.3429
聖王	-11.343
更無	-11.3431
所傷	-11.3433
和也	-11.3435
與二同	-11.3436
居尊而	-11.3436
美之	-11.3437
六者	-11.3437
示之	-11.3439
傳言	-11.3439
郭璞	-11.344
無方	-11.3441
警戒	-11.3441
歆	-11.3442
壯于	-11.3442
璧	-11.3442
樸	-11.3443
處憂患	-11.3443
餗	-11.3443
初吉	-11.3444
兌説	-11.3444
行其庭不見其人	-11.3444
閑之	-11.3445
項氏安世曰	-11.3445
盤桓	-11.3447
先君	-11.3447
噬嗑賁	-11.3448
與日	-11.3448
剛柔相推而生變化	-11.3449
剛柔相易	-11.3449
貎	-11.3449
風自火出	-11.345
韓康伯曰	-11.3451
天下雷行	-11.3451
兼三才而兩之	-11.3452
之戒也	-11.3452
校官	-11.3452
否之匪人	-11.3452
禦之	-11.3453
或從王事	-11.3454
養徳	-11.3454
富而	-11.3454
各爻	-11.3455
之殊	-11.3455
泰之時	-11.3457
不覿	-11.3458
无所不至	-11.346
以實	-11.3461
同異	-11.3463
道貴	-11.3466
一索	-11.3471
反易	-11.3472
居西北	-11.3472
然哉	-11.3474
唐之	-11.3474
不能進	-11.3475
為夬	-11.3476
有取於	-11.3476
明于	-11.3476
照天下	-11.3479
即在	-11.3479
大亨貞	-11.348
二十四氣	-11.3483
乃知	-11.3485
則何	-11.3487
王事	-11.3488
圍三	-11.3488
非聖人之	-11.3491
貫通	-11.3492
甲乙	-11.3492
當然也	-11.3492
釋氏	-11.3493
正字	-11.3493
禹之	-11.3494
一歲	-11.3494
孔明	-11.3495
而趨	-11.3495
如今	-11.3496
下仁	-11.3499
終以	-11.3502
之正道	-11.3502
狼	-11.3503
離三	-11.3503
有孚者	-11.3505
慘	-11.3506
為進退	-11.3507
状	-11.3507
為四所	-11.3508
永終	-11.3509
倖	-11.3509
盤庚	-11.351
替	-11.351
輔頰	-11.351
貞吉者	-11.3514
有不善	-11.3515
承順	-11.3515
河出圖洛出書聖人則之	-11.3515
八卦而小成	-11.3516
肅殺	-11.3516
曲折	-11.3517
政教	-11.3517
是小人	-11.3518
為吉也	-11.352
巽隂	-11.352
定分	-11.352
二陽在上	-11.3521
志行正	-11.3521
以兩	-11.3522
後笑	-11.3522
過極	-11.3523
柔道	-11.3524
於山	-11.3525
已是	-11.3528
至此則	-11.3528
動止	-11.3529
十干	-11.3529
何者	-11.353
章美	-11.353
在他卦	-11.3532
下體之	-11.3534
各當其	-11.3535
一邊	-11.3537
盡去	-11.3537
二當	-11.3538
之妙用	-11.354
象曰君子	-11.354
鴻漸	-11.3541
忽然	-11.3542
至德	-11.3543
利有所往	-11.3544
訂詁曰	-11.3545
有德	-11.3546
徳之盛	-11.3547
常行	-11.3549
安貞吉	-11.3549
上六處	-11.3552
陽下	-11.3552
兩手	-11.3554
伏於	-11.3557
初與四應	-11.3558
合為一	-11.3559
易之體	-11.3559
水澤	-11.356
亦異	-11.3561
震為大塗	-11.3561
方者	-11.3561
為諸侯	-11.3562
頥之	-11.3562
初三五	-11.3562
純剛	-11.3563
在陽	-11.3564
坎月	-11.3566
使物	-11.3567
亦凶	-11.3567
傍	-11.3567
嬰	-11.3568
掃	-11.3569
利於正	-11.357
綴	-11.3572
儘	-11.3572
栗	-11.3572
孫士毅	-11.3572
滕	-11.3573
宋儒	-11.3574
免矣	-11.3574
之慮	-11.3576
綱領	-11.3576
欽定四庫全書經部一	-11.3578
再閏	-11.3578
之説也	-11.3578
終止	-11.3578
爻之變	-11.3583
動而明	-11.3584
配乾	-11.3584
之誤	-11.3585
章句	-11.3586
濟物	-11.359
應變	-11.359
為始	-11.359
既言	-11.3591
來徐徐	-11.3591
來居二	-11.3592
用罔	-11.3592
出其	-11.3592
以孚	-11.3592
變則為	-11.3593
履中	-11.3593
既能	-11.3594
其迹	-11.3597
剛柔皆應	-11.3598
者言之	-11.3599
不敬	-11.3599
近乎	-11.3605
紊	-11.3607
程子云	-11.3607
順理而	-11.3608
可小事	-11.361
恐未	-11.3611
指九二	-11.3611
合而言之	-11.3612
之福也	-11.3612
五與上	-11.3612
生木	-11.3612
感者	-11.3615
通卦	-11.3615
交互	-11.3616
繫于	-11.3617
其位則	-11.3618
交泰	-11.3618
用之則	-11.362
可成	-11.3621
震為長子	-11.3622
即天地	-11.3624
故爻辭	-11.3625
之全體	-11.3625
由頤	-11.3626
臨卦	-11.3627
感也	-11.3629
小篆	-11.363
不苟	-11.3631
當其位	-11.3632
不待言	-11.3632
喙	-11.3632
之和	-11.3633
睽也	-11.3633
朝夕	-11.3633
之萌	-11.3635
倣	-11.3636
泣血漣如	-11.3637
升虚邑	-11.3637
􁀅	-11.3638
納婦	-11.3638
睿	-11.3639
竆	-11.364
進德修業	-11.364
吉之先見	-11.364
策數	-11.3641
以有為	-11.3641
古文作	-11.3641
以中正也	-11.3643
出入无疾	-11.3643
明哲	-11.3643
徳盛	-11.3644
无異	-11.3644
所揜	-11.3645
皆不可	-11.3645
衡水孔氏曰	-11.3645
同人于郊	-11.3645
可无	-11.3645
亦謂之	-11.3647
而已然	-11.3647
斯有	-11.3647
不畏	-11.3648
聽命	-11.3648
人必	-11.3656
以開	-11.366
以乾坤	-11.3664
者必有	-11.3664
失身	-11.3665
升上	-11.3667
代終	-11.3668
專主	-11.3668
三索	-11.3669
卦辭曰	-11.367
其勢必	-11.3671
堅剛	-11.3672
又處	-11.3672
往有功	-11.3673
以保	-11.3674
之偏	-11.3674
所信	-11.3675
載之	-11.3675
接物	-11.3675
初應四	-11.3677
非其道	-11.3678
存其	-11.3679
而愈	-11.368
運動	-11.3681
而孚	-11.3682
克家	-11.3683
象故明	-11.3683
盡神	-11.3685
正合	-11.3685
草木之	-11.3689
能需	-11.3691
洊雷	-11.3691
在上卦	-11.3693
過中則	-11.3694
詩書	-11.3695
有用	-11.3695
振民	-11.3696
无號	-11.3696
合矣	-11.3697
束帛戔戔	-11.3697
俱作	-11.3698
溝	-11.3699
利用刑人	-11.3699
暗主	-11.3699
遞	-11.37
天下之所	-11.37
王三錫命	-11.3701
從來	-11.3701
昀	-11.3701
為山	-11.3702
些子	-11.3703
中行獨復	-11.3703
一以貫之	-11.3704
隨卦	-11.3706
参	-11.3706
剛陽中正	-11.3707
十年勿用	-11.3707
肆其	-11.3708
小心	-11.3708
而不亂	-11.3709
在師	-11.371
其始也	-11.3711
朱氏附録問	-11.3711
乗馬	-11.3713
左右之	-11.3714
往有尚	-11.3714
逆也	-11.3714
孚而	-11.3715
不詳	-11.3716
為客	-11.3716
密雲	-11.3717
乖離	-11.3717
不言而信	-11.3717
為訟	-11.3718
是一箇	-11.3723
方成	-11.3723
其躬	-11.3725
效之	-11.3726
覆卦	-11.3728
卦之才	-11.3729
倦	-11.3729
為巫	-11.373
讀如	-11.3732
處卑	-11.3734
自否來	-11.3734
未得位	-11.3735
高宗	-11.3738
言天	-11.374
動用	-11.3741
動爻	-11.3741
容之	-11.3742
因象	-11.3742
以二體言	-11.3742
餘四	-11.3743
來章	-11.3743
指六五	-11.3745
通志	-11.3745
得其時	-11.3748
祭祀之	-11.3748
居下卦之上	-11.3749
艮坎	-11.3749
厲无咎	-11.3749
言當	-11.3753
亦可見	-11.3753
人謀	-11.3753
莫可	-11.3758
得其友	-11.3759
力行	-11.3761
有咎矣	-11.3761
之主故	-11.3762
為需	-11.3762
各不同	-11.3762
刋	-11.3763
苛	-11.3764
梏	-11.3764
涉險	-11.3764
需于泥	-11.3765
損剛益柔	-11.3767
一卦之中	-11.3767
爰	-11.3767
輙	-11.3767
字當	-11.3768
往吉	-11.3769
後得主而有常	-11.3769
既極	-11.3769
乾元用九	-11.377
有言不信	-11.377
所蔽	-11.377
萌芽	-11.3771
蘊	-11.3772
而處之	-11.3774
化而裁之	-11.3775
觀象玩辭	-11.3775
貞夫一	-11.3777
衢	-11.3778
中吉	-11.3779
也故聖人	-11.378
夷狄	-11.378
豫者	-11.3781
亦稱	-11.3782
欲及時	-11.3782
牛馬	-11.3782
不相與	-11.3783
望其	-11.3784
奇耦	-11.3785
卦内	-11.3788
㝠升	-11.379
邉	-11.3791
利見之	-11.3793
誰能	-11.3793
其機	-11.3795
心位	-11.3799
安之	-11.38
咸卦	-11.38
巽爲	-11.3801
除之	-11.3802
先迷後得	-11.3803
四爻變	-11.3803
君子之人	-11.3804
直是	-11.3805
安得有	-11.3808
剛為柔	-11.3814
序卦傳曰	-11.3814
小有悔	-11.3814
和則	-11.3815
靜也	-11.3816
至哉	-11.3816
老氏	-11.3816
高而	-11.3816
浸而長	-11.3818
甚難	-11.3819
乾天也	-11.382
辭占	-11.3821
據于蒺藜	-11.3826
定而	-11.3826
主卦	-11.3827
詣	-11.3828
不可移	-11.383
本心	-11.383
所安也	-11.3831
溺于	-11.3831
剛上文柔	-11.3831
履帝位	-11.3832
壓	-11.3832
所可	-11.3833
初柔	-11.3833
勿幕	-11.3833
既雨既處	-11.3833
鷙	-11.3834
故不曰	-11.3834
離之明	-11.3834
二四六八十	-11.3835
合訂刪補大易集義粹言	-11.3838
而上下	-11.3838
无難	-11.3839
紀綱	-11.3839
也昔	-11.3839
家人利女貞	-11.384
去就	-11.3841
以剛健	-11.3841
有間	-11.3842
離中虚	-11.3844
坤爲	-11.3847
傷于	-11.3849
生華	-11.3852
者隂之	-11.3852
又豈	-11.3852
之利也	-11.3853
舜禹	-11.3854
自三	-11.3854
為足	-11.3858
只説	-11.3858
又作	-11.3859
所以生	-11.3864
乾上九	-11.3865
其趾	-11.3865
衆皆	-11.3868
罔孚	-11.3869
得當	-11.3869
凶象曰	-11.3871
見吝	-11.3873
作事	-11.3873
使小人	-11.3876
井田	-11.3877
也周公繫	-11.3877
剛柔相應	-11.3877
通于	-11.3878
坎之中	-11.3879
而言之也	-11.3879
有譽	-11.3881
柔而得中	-11.3882
只作	-11.3882
也況	-11.3883
以養其	-11.3884
其色	-11.3886
位正當也	-11.3888
非如	-11.3888
互為	-11.3892
涕洟	-11.3893
喜怒哀樂	-11.3893
板	-11.3895
黷	-11.3896
月恭校上總纂	-11.3896
遊魂	-11.3896
以配	-11.3897
修辭立誠	-11.3897
以順而	-11.3897
屨校	-11.3898
而不行	-11.3899
困于葛藟	-11.3899
施而	-11.3899
孚乃利用禴	-11.39
沾	-11.3901
剛自外來而為主於内	-11.3901
伏戎于莽	-11.3902
畜極	-11.3903
乃曰	-11.3903
曰利貞	-11.3907
故次之以	-11.3908
身雖	-11.3909
定天下	-11.3912
馴致	-11.3914
晉侯	-11.3919
五六	-11.3919
有别	-11.3923
所居之位	-11.3925
為四象	-11.3925
益卦	-11.3927
本義以	-11.3929
離兑	-11.393
何也葢	-11.3933
坎卦	-11.3934
論之則	-11.3935
繇辭	-11.3935
説文作	-11.3936
終无咎	-11.3936
不煩	-11.3937
不可踰	-11.3937
坎為耳	-11.3937
汲之	-11.394
此例	-11.394
曉然	-11.3943
在本爻	-11.3946
止於下	-11.3948
頤中	-11.3949
曷為	-11.3949
吝道也	-11.3951
大臣之	-11.3952
征行	-11.3953
互見	-11.3954
萃之時	-11.3954
屬乎	-11.3955
自震	-11.3955
法之	-11.3957
枉道	-11.3957
不出户庭	-11.3958
後面	-11.3958
朽	-11.3959
罪大	-11.3959
无咎之道也	-11.396
无我	-11.3961
趨下	-11.3962
膺	-11.3963
以别	-11.3964
竇	-11.3964
雖正	-11.3964
復來	-11.3965
一三五七九	-11.3966
推行	-11.3966
克己復禮	-11.3966
終无咎也	-11.3966
大有元亨	-11.3967
來之坎坎	-11.3968
黄牛之革	-11.3968
乖戾	-11.3968
日昃之離	-11.3968
上天下澤	-11.3969
賢人在下位而无輔是以動而有悔也	-11.397
太虚	-11.397
幽谷	-11.3972
卷五	-11.3974
于其間	-11.3975
虚心	-11.3975
三言	-11.3978
許多道理	-11.3979
隂數	-11.3979
明辨	-11.3981
文明之主	-11.3982
平時	-11.3982
及人	-11.3983
有文	-11.3987
盈也	-11.399
有感	-11.3991
者也三	-11.3991
才力	-11.3991
過甚	-11.3992
十二年	-11.3993
自當	-11.3993
柔麗乎中正	-11.3994
之道當	-11.3995
心思	-11.3996
以隂居柔	-11.3998
水土	-11.3999
盡利	-11.4001
巽離兊	-11.4002
亂矣	-11.4002
及時	-11.4003
其權	-11.4004
之能事	-11.4005
文王之易	-11.4007
後甲三日	-11.4007
以卦徳言	-11.4007
得无咎也	-11.4009
不恤	-11.4009
睽者	-11.401
畜牝牛	-11.4012
同道	-11.4012
邵氏	-11.4013
隨風	-11.4019
所著	-11.4019
萑葦	-11.4025
綏	-11.4025
偷	-11.4026
貞觀	-11.4026
絜	-11.4027
乎其中	-11.4027
何時	-11.4027
釋彖辭	-11.4027
頥大過	-11.4028
僥倖	-11.4028
腊肉	-11.4029
山下出泉	-11.403
陷溺	-11.4031
坦坦	-11.4031
為玉	-11.4031
九陵	-11.4031
自强	-11.4032
卧	-11.4032
日中見斗	-11.4032
善入	-11.4033
初吉終亂	-11.4033
勃	-11.4033
反是	-11.4035
弗過遇之	-11.4035
剛長乃終	-11.4035
以六居五	-11.4035
髙祖	-11.4036
楊誠齋曰	-11.4036
易簡而天下之理得	-11.4036
感於	-11.4039
戰乎乾	-11.404
本同	-11.404
粲然	-11.4041
術數	-11.4041
下從	-11.4041
九年	-11.4042
為木果	-11.4042
萬物生	-11.4044
所知	-11.4046
有疑	-11.4048
為多	-11.4048
莫測	-11.4048
能制	-11.4049
未有與	-11.405
四多懼	-11.405
陽始	-11.4055
修辭	-11.4055
賢人君子	-11.4055
咸感	-11.4055
來連	-11.4058
居室	-11.4061
下求	-11.4062
則不至於	-11.4062
俞氏	-11.4062
先聖	-11.4062
以氣	-11.4062
分而為二	-11.4063
因時而	-11.4063
煦按	-11.4064
无憂	-11.4065
雨澤	-11.4065
今既	-11.4068
不驕	-11.4073
為主於内	-11.4075
重於	-11.4076
説出	-11.4077
其半	-11.4077
萬物之理	-11.4079
將去	-11.4079
十朋	-11.4079
而樂	-11.4081
乃見	-11.4081
之詩	-11.4083
必行	-11.4085
相當	-11.4086
有危	-11.4086
其妙	-11.4087
處便	-11.4087
需待	-11.4091
坤為土	-11.4092
需于酒食	-11.4093
往必	-11.4094
不越	-11.4095
為利也	-11.4097
蒙引曰	-11.4098
圈	-11.4099
與九三	-11.4099
噬乾肉	-11.4099
垂其翼	-11.41
長子帥師	-11.41
眩	-11.41
箕子之明夷	-11.4101
多有	-11.4101
時方	-11.4103
王假之	-11.4104
庶㡬	-11.4104
吉凶悔吝生乎動	-11.4104
形迹	-11.4105
其光	-11.4105
不尚	-11.4109
三極之道	-11.4112
豈容	-11.4113
徑一	-11.4114
合而為	-11.4114
實體	-11.4115
以其鄰	-11.4115
相敵	-11.4116
震爲	-11.4116
何物	-11.4117
凡物之	-11.4119
三四兩爻	-11.412
終能	-11.4121
養物	-11.4121
萬殊	-11.4123
政事	-11.4123
攻之	-11.4124
王明	-11.4124
而應之	-11.4127
亦无咎	-11.4127
勉而	-11.4127
獨能	-11.4127
上水	-11.4128
凡六	-11.4128
焉其	-11.4129
各得其宜	-11.413
兊説	-11.4132
隂畫	-11.4132
同其	-11.4134
二圖	-11.4134
致命	-11.4134
多眚	-11.4134
羞吝	-11.4135
為壯	-11.4139
其用也	-11.4139
而未能	-11.414
往无咎	-11.4142
勢之	-11.4142
豫也	-11.4143
而又有	-11.4144
後言	-11.4148
之法也	-11.4148
専言	-11.415
予之	-11.415
有容	-11.415
折足	-11.4151
於斯	-11.4152
日日	-11.4152
有所為	-11.4153
即鹿	-11.4153
圗書	-11.4154
之地故	-11.4157
字下	-11.4157
巽離	-11.4158
水水	-11.416
園	-11.416
著明	-11.416
斯義	-11.4161
不悖	-11.4161
无息	-11.4161
為尾	-11.4162
三千	-11.4162
壽	-11.4162
淡	-11.4162
剛自外來	-11.4163
馮當可曰	-11.4164
溫	-11.4164
乍	-11.4165
鈞	-11.4165
揲蓍求卦	-11.4167
公孫	-11.4168
而莫之	-11.4168
弗遇過之	-11.4169
藉用白茅	-11.417
號呼	-11.4172
内難	-11.4172
常在	-11.4172
外卦之	-11.4173
覆公餗	-11.4173
以備	-11.4176
天體	-11.4178
於此而	-11.4178
故不能	-11.4179
不樂	-11.4181
離震	-11.4181
汲引	-11.4181
若無	-11.4182
以發	-11.4183
最先	-11.4187
典要	-11.4188
共成	-11.4193
見聖人	-11.4193
易之辭	-11.4195
難進	-11.4197
畜牝牛吉	-11.4198
得位故	-11.4198
邪心	-11.4199
疾之	-11.4201
天下和平	-11.4203
誤也	-11.4203
聖人作	-11.4203
五與十	-11.4204
天生	-11.4207
未𤼵	-11.4207
以大終	-11.4209
元亨者	-11.421
重離	-11.421
何謂也曰	-11.4213
剛柔皆	-11.4213
即乾之	-11.4213
殺之	-11.4213
甚易	-11.4214
為逆	-11.4215
以剛陽	-11.4217
為序	-11.4217
無體	-11.4218
茍能	-11.4218
為謙	-11.4218
未嘗无	-11.4219
易𫝊	-11.4219
道路	-11.4221
揮	-11.4222
王肅作	-11.4223
震行	-11.4223
禮卑	-11.4224
只見	-11.4225
以象變言之	-11.4226
以制之	-11.4228
處尊	-11.4229
初九九二	-11.423
或躍在淵	-11.423
者莫若	-11.423
悔吝者	-11.4232
金矢	-11.4232
沖	-11.4232
詎	-11.4232
刖	-11.4233
渙其躬	-11.4233
斁	-11.4233
喪羊于易	-11.4234
夕惕	-11.4234
耑	-11.4234
先甲三日	-11.4234
風行天上	-11.4236
坤艮	-11.4237
巽坎艮坤	-11.4237
震初	-11.4238
決小人	-11.4239
隂陽不測之謂神	-11.424
以剛處	-11.4241
困者	-11.4243
亦將	-11.4244
感則	-11.4245
上應六五	-11.4248
譽命	-11.4249
邪媚	-11.4249
危地	-11.425
之正應	-11.425
存者	-11.4251
居下卦之中	-11.4254
然後得	-11.4254
知阻	-11.4254
在天下	-11.4254
二得中	-11.4255
分二	-11.4255
意在	-11.4257
止而巽	-11.4258
小畜履	-11.4259
柔柔	-11.426
皆屬	-11.426
有水	-11.4261
何處	-11.4262
不可如何	-11.4262
與他卦	-11.4265
亂世	-11.4267
心體	-11.4267
志未變	-11.4271
高位	-11.4273
其成	-11.4273
保泰	-11.4278
禄位	-11.4279
之事非	-11.4281
養身	-11.4285
豐旅	-11.4285
下來	-11.4286
吳氏曰	-11.4286
未光大也	-11.4287
其所處	-11.4287
易本	-11.4289
婦人之	-11.429
推本	-11.429
造作	-11.429
欽定四庫全書周易	-11.4291
折中	-11.4291
革道	-11.4294
无敢	-11.4295
先天後天	-11.4296
大首	-11.4296
雪	-11.4299
象形	-11.4299
縛	-11.4299
先庚後庚	-11.43
感而遂通	-11.43
耿睎道曰	-11.43
鄭康成曰	-11.43
无魚	-11.4301
而居尊位	-11.4302
賀	-11.4302
下三爻皆	-11.4302
怯	-11.4302
雲峰	-11.4302
閔	-11.4303
陸希聲	-11.4303
哭	-11.4303
劣	-11.4304
汨	-11.4305
不恒其徳	-11.4305
艮其輔	-11.4305
天地生物之心	-11.4306
比二	-11.4307
髙尚	-11.4307
汲水	-11.4307
義以方外	-11.4307
制事	-11.4308
斷天下之疑	-11.4308
正位居體	-11.4309
之情也	-11.431
其所為	-11.431
坎陽	-11.431
雖不能	-11.4311
多陽	-11.4312
無二	-11.4313
有喜也	-11.4317
二言	-11.4318
不幸而	-11.4318
衆多	-11.4319
隤然	-11.4321
以自養	-11.4322
寡過	-11.4323
以一柔	-11.4324
推明	-11.4326
每爻	-11.4328
老而	-11.4329
合睽	-11.4329
又皆	-11.4329
无不通	-11.4332
為家	-11.4334
俟時	-11.4335
大寳	-11.4336
求萃	-11.4336
以行其	-11.4339
通理	-11.434
卦彖	-11.4341
其辭曰	-11.4342
虞仲翔曰	-11.4345
為敵	-11.4346
伏坎	-11.4346
或取	-11.4349
而夫子	-11.435
安土	-11.435
其吉可知	-11.4351
大有慶	-11.4353
日行	-11.4354
明吉凶	-11.4354
道行	-11.4355
説卦傳	-11.4355
𤼵之	-11.4356
泰也	-11.4358
九二以剛	-11.4358
天九	-11.4359
无患	-11.4361
賔客	-11.4363
萬物化生	-11.4363
卦終	-11.4363
方盛	-11.4364
臻	-11.4364
正直	-11.4365
義理之	-11.4366
其究也	-11.4366
鄒	-11.4366
倐	-11.4366
於家	-11.4368
鄭注	-11.4368
故卦名	-11.4368
優游	-11.4368
自卑	-11.4369
十五日	-11.4369
能止健	-11.437
庶民	-11.437
悍	-11.437
處柔	-11.437
艾	-11.4371
困井	-11.4372
銷	-11.4372
祚	-11.4372
天地鬼神	-11.4373
一截	-11.4375
此夫子	-11.4375
以木巽火	-11.4375
餘一	-11.4376
自二至五	-11.4376
水火不相射	-11.4376
又復	-11.4376
可使	-11.4377
為太極	-11.4377
氣運	-11.4378
朶頥	-11.4379
成于	-11.4381
訟也	-11.4381
有中正之徳	-11.4382
之兆	-11.4383
若論	-11.4383
之義焉	-11.4384
由已	-11.4388
所自出	-11.4389
繫傳	-11.439
義命	-11.439
相傳	-11.4391
𤼵生	-11.4392
足以致	-11.4393
又誰咎也	-11.4394
下爻	-11.4395
其究	-11.4395
賢而	-11.4397
得正而吉	-11.4401
其謙	-11.4401
守正而	-11.4403
震東	-11.4404
能改	-11.4406
二偶	-11.4408
㧞茅	-11.4408
用晦	-11.4409
其羣	-11.4411
些	-11.4414
水下	-11.4415
指上九	-11.4415
其末	-11.4416
人之性	-11.4417
凶可知矣	-11.4418
亢龍有悔	-11.442
故吝	-11.442
動闢	-11.4421
何用	-11.4421
則自然	-11.4423
黄離	-11.4424
而徒	-11.4424
志在於	-11.4425
輝	-11.4425
只是說	-11.4425
有愠	-11.4425
是以自天祐之吉无不利	-11.4427
臨民	-11.4428
為咎	-11.4429
語曰	-11.443
可保	-11.4431
一千	-11.4433
出矣	-11.4434
魁	-11.4435
宛	-11.4438
為圜	-11.4438
必信	-11.4438
國君	-11.4439
硬	-11.4439
輔頰舌	-11.4439
所動	-11.4439
臀无膚	-11.444
在下卦	-11.4441
大者過	-11.4442
負且乘	-11.4442
水火相	-11.4442
數七	-11.4442
易之門	-11.4443
樞機	-11.4443
失節	-11.4444
如此說	-11.4445
利己	-11.4445
厥孚交如	-11.4446
互乾	-11.4446
光也	-11.4446
虎豹	-11.4447
豶豕	-11.4448
誤作	-11.445
不虚	-11.4451
成天下之務	-11.4451
臨事	-11.4452
制也	-11.4453
下柔	-11.4453
雖使	-11.4454
底物事	-11.4455
矣雖然	-11.4458
非義	-11.4458
皤	-11.4459
存誠	-11.4459
以剛居上	-11.446
百五十	-11.446
焉得	-11.4461
危道也	-11.4461
輕清	-11.4464
乘馬	-11.4464
故厲	-11.4464
古作	-11.4465
牽合	-11.4465
告命	-11.4465
動植	-11.4465
終日戒	-11.4466
春秋傳曰	-11.4467
既雨	-11.4468
右肱	-11.4468
時而動	-11.4469
知命	-11.4473
得中也	-11.4474
吝者	-11.4476
莫敢	-11.4476
中正相應	-11.4477
五來	-11.4478
説文云	-11.4478
則異	-11.4479
之柄	-11.448
上巽下	-11.448
在山上	-11.4481
初上二爻	-11.4482
王庭	-11.4482
異體	-11.4482
從夫	-11.4483
故得无咎	-11.4484
蓍策	-11.4486
知其為	-11.4486
巽兌	-11.4487
未始	-11.4489
底事	-11.4491
不以道	-11.4493
非真	-11.4494
終无尤	-11.4494
臨人	-11.4494
事之始	-11.4497
以剛中也	-11.4497
施之於	-11.45
極則必	-11.4501
難生	-11.4502
爻畫	-11.4503
方生	-11.4504
二本	-11.4504
東漢	-11.4505
何思何慮	-11.4505
墳	-11.4506
乎且	-11.4506
法地	-11.4506
君臣之義	-11.4506
豪傑	-11.4506
䏻	-11.4507
相重	-11.4508
率性	-11.4509
韜	-11.451
一向	-11.451
致飾	-11.4512
如水	-11.4512
未深	-11.4518
易逆數也	-11.4518
比干	-11.4519
語黙	-11.452
震一陽	-11.4521
於内而	-11.4522
天地相遇	-11.4522
逺小人	-11.4522
者物之	-11.4522
體艮	-11.4524
過揲之數	-11.4525
和說	-11.4525
各有其	-11.4525
之道焉	-11.4526
之差	-11.4527
故須	-11.4528
在下卦之中	-11.4529
内險	-11.4531
目前	-11.4533
悔咎	-11.4534
物之始生	-11.4534
逸樂	-11.4535
之度	-11.4535
衆君子	-11.4536
髙亢	-11.4537
孟子之	-11.4537
見險	-11.454
聖人則之	-11.454
不能制	-11.4542
无所往而	-11.4543
先甲	-11.4545
幽贊	-11.4547
苟合	-11.4547
則隂陽	-11.4547
是心	-11.4548
善俗	-11.4549
首出	-11.455
▁雙湖先生曰	-11.4552
烏能	-11.4553
成泰	-11.4554
案此	-11.4557
好生	-11.4558
在上位	-11.4561
理數	-11.4562
所乗	-11.4563
思其	-11.4564
果行	-11.4567
盡之矣	-11.4569
艮剛	-11.4569
隨陽	-11.457
兌為澤	-11.457
而各	-11.4571
天三地四天五地六天七地八天九地十	-11.4571
處非其位	-11.4572
從初	-11.4572
遂有	-11.4573
䧟於	-11.4574
加於	-11.4575
文帝	-11.4575
相成	-11.4576
十年乃字	-11.4577
舊說	-11.4578
隂陽之變	-11.4578
誼	-11.4579
舍車而徒	-11.4579
與坎	-11.458
喪其資斧	-11.458
阨	-11.458
楊廷秀曰	-11.4581
盖言	-11.4582
而不止	-11.4582
而信之	-11.4583
弗能	-11.4583
酬	-11.4584
歐陽	-11.4584
有事也	-11.4584
格物	-11.4584
羣臣	-11.4584
不可疾貞	-11.4584
有應而	-11.4586
明動相資	-11.4586
之中故	-11.4586
自益	-11.4587
順時	-11.4588
而更	-11.4591
中心願	-11.4591
固如此	-11.4591
行其庭	-11.4593
拾遺	-11.4594
内體	-11.4595
有國	-11.4595
蹇之時	-11.4597
於剛	-11.4598
後學	-11.4599
首言	-11.46
係遯	-11.46
南征吉	-11.4602
決躁	-11.4603
巽柔	-11.4603
舉鼎	-11.4603
咎不長	-11.4604
自見	-11.4604
以寛	-11.4604
二以剛中	-11.4604
欽定四庫全書易	-11.4604
而後吉	-11.4605
乾爲	-11.4605
繋之	-11.4606
龔氏曰	-11.4607
察之	-11.4609
生理	-11.461
已過中	-11.4611
聖功	-11.4612
何也盖	-11.4613
而後見	-11.4614
剛健之才	-11.4614
未始不	-11.4615
陽方	-11.4615
退處	-11.4616
始出	-11.4618
天道人事	-11.4622
有小大	-11.4622
順性命之理	-11.4624
也萊按	-11.4626
者人也	-11.4629
蔽之	-11.4631
不如是	-11.4633
比上	-11.4633
卦唯	-11.4634
三偶	-11.4634
豈獨	-11.4636
隂性	-11.4638
九四以陽居隂	-11.4642
文在中	-11.4644
為小人所	-11.4645
盡心	-11.4645
朗	-11.4645
賁于丘園	-11.4646
而理	-11.4646
繪	-11.4647
澤无水	-11.4647
瑣	-11.4648
厎	-11.4648
儻	-11.465
不計	-11.465
掘	-11.465
規模	-11.4651
確乎	-11.4651
禦宼	-11.4652
施為	-11.4652
日光	-11.4652
萬事萬物	-11.4654
㢲順	-11.4654
其欲逐逐	-11.4654
黄中通理	-11.4655
洋	-11.4655
不耕穫不菑畬	-11.4655
被其	-11.4656
其黨	-11.4656
眇能視	-11.4656
而後得	-11.4658
變化云為	-11.4659
窮困	-11.4659
生生不窮	-11.4662
其精	-11.4662
元吉无咎	-11.4664
觀其所養	-11.4665
為心病	-11.4666
莫夜	-11.4666
患其	-11.467
而居下	-11.4671
六十有四	-11.4672
誰咎	-11.4677
无違	-11.4677
則吉矣	-11.4677
班固	-11.4678
逺于	-11.4679
巽入也	-11.468
見信	-11.4685
使人知	-11.4686
得敵	-11.4687
立君	-11.4687
得這	-11.4689
將軍	-11.4691
分隂陽	-11.4694
議論	-11.4694
也愚按	-11.4699
不比	-11.4699
大无功	-11.47
之良	-11.4701
在人事	-11.4703
无往而不	-11.4703
和氣	-11.4709
趙氏	-11.4711
為上所	-11.4713
説體	-11.4713
入神	-11.4714
在身	-11.4716
飲食衎衎	-11.4716
一圖	-11.4718
既濟之初	-11.4718
否者	-11.4718
壤	-11.4719
離兌	-11.4719
閽	-11.472
慊	-11.472
其誰	-11.4721
堅多節	-11.4721
亦須	-11.4721
卑髙	-11.4722
四能	-11.4723
籠	-11.4723
不可使	-11.4724
二用	-11.4724
棺槨	-11.4724
吳幼清	-11.4724
碍	-11.4725
自髙	-11.4725
拔茅	-11.4725
立不易方	-11.4726
壯于趾	-11.4726
羨	-11.4727
泰小往大來吉亨	-11.4728
其亡其亡	-11.4729
神農氏	-11.473
以柔乗剛	-11.473
一卦六爻	-11.4731
傷矣	-11.4731
乾為金	-11.4731
无交害	-11.4732
物莫	-11.4732
乾坤交	-11.4732
享上帝	-11.4733
字作	-11.4735
反其類	-11.4736
理於義	-11.4738
流形	-11.4739
維持	-11.4739
王臣	-11.4739
九五剛健中正	-11.474
菴	-11.4741
幽暗	-11.4742
皆作	-11.4743
持守	-11.4743
容心	-11.4746
於外也	-11.475
便見	-11.475
為无妄	-11.4751
治矣	-11.4751
茍不	-11.4751
未極	-11.4751
䷊(	-11.4752
无所容也	-11.4752
昭明	-11.4752
互坎為	-11.4752
異端	-11.4753
何憂	-11.4755
位卑	-11.4756
不咥人	-11.4757
通塞	-11.4759
逼近	-11.476
剛決柔	-11.476
舉之	-11.476
天地之大義	-11.4762
互換	-11.4763
所以通	-11.4763
柔在内	-11.4764
當萃之時	-11.4766
君子小人之	-11.4766
巽兊	-11.4767
自藏	-11.4767
鼎之用	-11.4768
今從	-11.4768
承乘	-11.4769
到底	-11.477
立矣	-11.4772
係乎	-11.4773
誠能	-11.4774
不利涉大川	-11.4774
卦圖	-11.4774
自求	-11.4778
為八卦	-11.4786
壯于頄	-11.4788
賢臣	-11.4788
身心	-11.4789
於終	-11.4789
學士	-11.4789
所定	-11.4789
見幾而作	-11.479
罔不	-11.4791
不差	-11.4792
即鹿无虞	-11.4792
杵臼	-11.4795
立象以盡意	-11.4795
小狐汔濟	-11.4796
人惟	-11.4798
介如石	-11.4799
不戒以孚	-11.4801
介然	-11.4802
不可掩	-11.4802
弗克攻	-11.4802
引而伸之	-11.4802
之意深矣	-11.4805
曲盡	-11.4805
未出中	-11.481
曰貞吉	-11.481
初登于天	-11.4812
之時乎	-11.4812
來矣鮮曰	-11.4814
象山	-11.4814
維之	-11.4817
三亦	-11.482
窮盡	-11.482
便成	-11.482
乾健也	-11.4821
郭雍	-11.4822
得位得中	-11.4822
卷六	-11.4822
摩盪	-11.4828
亦止	-11.483
數九	-11.483
方知	-11.483
方為	-11.483
下乾上	-11.4832
先後天	-11.4834
為大有	-11.4834
曽子	-11.4834
為徑路	-11.4838
及逺	-11.4838
而為震	-11.4839
大略	-11.484
令人	-11.484
天下何思何慮	-11.4847
可憂	-11.4847
兩義	-11.485
所由生	-11.485
不拘	-11.4851
此下	-11.4851
彼此相	-11.4854
不出於	-11.4856
不能相	-11.4857
一類	-11.4862
陰卦	-11.4862
以致其	-11.4863
含𢎞	-11.4864
二四上	-11.4865
乘馬班如	-11.4867
變占	-11.4867
風行水上	-11.4868
於外者	-11.4868
一剛一柔	-11.4869
聰明睿知	-11.4869
井泥	-11.4869
含𢎞光大	-11.4869
煇	-11.487
夷于左股	-11.487
此二者	-11.4872
闔户	-11.4872
遏惡揚善	-11.4872
詘	-11.4873
占得此爻	-11.4873
既无	-11.4874
王命	-11.4874
輿説輹	-11.4874
反復其道	-11.4875
天地之大義也	-11.488
總言	-11.4881
長養	-11.4883
不孕	-11.4883
豫之時	-11.4892
多難	-11.4892
所資	-11.4895
君臣之分	-11.4896
易有太極是生兩儀兩儀生四象四象生	-11.4897
果何	-11.4897
來碩	-11.4898
動直	-11.4898
明庶政	-11.4899
虞云	-11.4899
坎為加憂	-11.49
彖傳所謂	-11.4902
未離乎	-11.4903
十八卦	-11.4904
大易之道	-11.4905
皆云	-11.4906
與八	-11.4906
民之所	-11.4906
心志	-11.491
剛决	-11.491
能通天下之志	-11.4911
美利	-11.4912
宜待	-11.4914
時舍	-11.4918
黄牛	-11.4921
之實也	-11.4923
之虞	-11.4923
其義一也	-11.4923
除害	-11.4924
以象言	-11.493
以五為	-11.493
凍	-11.4932
朶	-11.4933
二與五應	-11.4937
言性	-11.4938
鱗	-11.4939
之中畫	-11.4939
綽	-11.4939
芳	-11.4939
槁	-11.4939
裘	-11.494
雖多	-11.494
震東方	-11.4941
戢	-11.4942
財成	-11.4944
不純	-11.4944
偶數	-11.4946
二十九	-11.4947
六位時成	-11.4947
乎是故	-11.4947
變動不居	-11.4948
莫不皆然	-11.4949
象其物宜	-11.4949
正辭	-11.495
羲文	-11.495
羞惡	-11.4951
垂翼	-11.4952
正體	-11.4952
包犧氏	-11.4954
那裏	-11.4954
以隂居下	-11.4955
與六三	-11.4956
趣時	-11.4957
二節	-11.4957
則身	-11.496
不能及	-11.4961
也孟子曰	-11.4964
孟子言	-11.4965
无傷	-11.4966
大全	-11.4967
全身	-11.4968
盛之時	-11.4969
不能久	-11.4971
往有功也	-11.4971
征之	-11.4972
同人之道	-11.4972
占者如是	-11.4973
晉進也	-11.4975
惟知	-11.4975
到此	-11.4975
不殺	-11.4977
尚口	-11.4977
坤二	-11.4978
皤如	-11.4979
之所為也	-11.498
洛書之	-11.498
隨其所	-11.498
三嵗不覿	-11.4981
巽象	-11.4983
恐是	-11.4983
其事也	-11.4984
二之剛	-11.4987
亨乎	-11.4993
離麗	-11.4994
見乎外	-11.4996
安其居	-11.4997
不育	-11.4998
為實	-11.4999
之靈	-11.4999
長少	-11.5
之象占者	-11.5001
用之於	-11.5002
二與三	-11.5004
為不善	-11.5005
有所待	-11.5006
易之為道	-11.5007
連山歸藏	-11.5009
不永	-11.5009
不妄動	-11.501
覲	-11.501
腐	-11.501
升進	-11.5011
居上體	-11.5011
採	-11.5013
致命遂志	-11.5013
鵠	-11.5013
急于	-11.5014
以剛柔	-11.5014
貴其	-11.5014
來就	-11.5015
卦序	-11.5015
厥宗噬膚	-11.5016
修治	-11.5017
童溪王氏曰	-11.5017
然終	-11.5019
焚如	-11.5019
正位凝命	-11.502
往來井井	-11.502
復加	-11.5022
障蔽	-11.5022
卑順	-11.5023
改正	-11.5025
酌損之	-11.5028
而後无咎	-11.5029
中備	-11.5029
順乎天	-11.5029
震蘇蘇	-11.5035
之所以亨也	-11.5036
用大牲吉	-11.5037
伊川説	-11.5038
天下無	-11.5038
君子法之	-11.5039
屯卦	-11.504
大約	-11.5043
者時也	-11.5043
䷋(	-11.5044
易外	-11.5044
幾於	-11.5045
斯時也	-11.5046
大要	-11.5047
道濟天下	-11.5049
天地之理	-11.505
以隂柔處	-11.505
乎若	-11.505
徃而不	-11.5054
三與上應	-11.5056
尊嚴	-11.5059
程子語	-11.506
何以言	-11.506
積善	-11.5063
兩儀生四象	-11.5067
知終	-11.5069
躁妄	-11.5071
養聖賢	-11.5072
幾何	-11.5073
隂為主	-11.5075
勞民	-11.5076
芒	-11.5076
只取	-11.5079
上九處	-11.508
只以	-11.5081
說到	-11.5081
不可輕	-11.5083
兩儀四象八卦	-11.5084
僞	-11.5084
損卦	-11.5085
驩	-11.5087
戚嗟	-11.5087
為人臣	-11.5087
收歛	-11.5088
得臣无家	-11.5088
巽繩	-11.5089
䋲	-11.509
憾	-11.509
右行	-11.509
嶽	-11.5091
非禮弗履	-11.5091
為狐	-11.5091
君子夬夬	-11.5092
游魂	-11.5092
須臾	-11.5092
明兩作	-11.5092
厚徳載物	-11.5092
所以戒	-11.5093
大吉无咎	-11.5093
示以	-11.5093
整齊	-11.5094
鐵	-11.5094
用大牲吉利有攸往	-11.5095
不可廢	-11.5096
行而未成	-11.51
百四十有四	-11.5101
前遇	-11.5102
非大人	-11.5102
中五	-11.5103
何獨	-11.5104
艮其趾	-11.5104
有渝	-11.5105
夜半	-11.5106
无偏	-11.5106
制禮	-11.5107
最上	-11.5107
五百	-11.5109
各卦	-11.5109
在東	-11.511
遯也	-11.5112
凡例	-11.5115
貞大人吉	-11.5116
成終	-11.5116
幹之	-11.5117
亦只	-11.5118
下巽上	-11.5121
再揲	-11.5122
四象生八卦	-11.5123
使不得	-11.5124
不能以自	-11.5125
義之和	-11.513
奮發	-11.5131
以别之	-11.5131
矣按	-11.5132
趨於	-11.5132
鳥飛	-11.5133
設險	-11.5134
故戒之	-11.5135
直曰	-11.5136
已生	-11.5136
之始終	-11.5137
愁如	-11.5139
以健	-11.514
馮氏	-11.5142
居北	-11.5142
不利有攸徃	-11.5144
王肅本	-11.5146
不利於	-11.5146
隨之義	-11.5153
人不知	-11.5157
乾金	-11.5159
陟	-11.5159
舛	-11.516
申命行事	-11.5162
巡	-11.5162
滌	-11.5163
藩決不羸	-11.5163
自剥	-11.5163
鋒	-11.5163
豐其屋	-11.5163
維心亨	-11.5163
揚子雲	-11.5164
地中有水	-11.5164
何校滅耳	-11.5164
貴陽	-11.5164
初終	-11.5165
主人有言	-11.5165
知來者逆	-11.5165
而為雨	-11.5166
為衆所	-11.5166
月㡬望	-11.5167
官有渝	-11.5168
思所以	-11.5169
天文也	-11.517
剛躁	-11.517
于上下	-11.517
故曰利貞	-11.517
二陽之間	-11.5171
晳	-11.5171
廣生	-11.5171
自序	-11.5173
親附	-11.5176
衆陰	-11.5178
勿藥	-11.5179
汲井	-11.518
生成萬物	-11.5181
又加	-11.5181
朱先生	-11.5182
未達	-11.5184
在人為	-11.5187
道大行	-11.5188
以隂柔之質	-11.5188
者不過	-11.5188
君子體之	-11.5191
小人之道也	-11.5192
比乎	-11.5194
利哉	-11.5197
豐亨	-11.52
利于貞	-11.52
于飛	-11.5201
疑若	-11.5202
漸盛	-11.5204
而不反	-11.5206
八百	-11.5207
説見	-11.5208
初無	-11.5208
于小人	-11.521
十四卦	-11.5211
喜其	-11.5211
而吉矣	-11.5213
亨通也	-11.5214
傷其	-11.5214
九五爻	-11.5218
僅可	-11.5218
以其彚	-11.522
仲氏易	-11.5222
在君	-11.5222
五帝	-11.5223
匪冦婚媾	-11.5224
八字	-11.5227
為次	-11.5227
為富	-11.5227
永貞吉	-11.5227
惕然	-11.5231
有才	-11.5231
俞	-11.5233
人物之	-11.5233
趙復齋曰	-11.5234
是要	-11.5235
縶	-11.5235
囿	-11.5236
淹	-11.5236
九州	-11.5236
耻	-11.5236
又將	-11.5237
筮遇	-11.5237
而上同	-11.5237
敘	-11.5238
禦㓂	-11.5238
天一生水	-11.5239
桀紂	-11.5239
栁	-11.524
愚竊謂	-11.524
數往者順	-11.5241
鉤	-11.5241
而不可以	-11.5242
文明以止	-11.5242
頥中有物	-11.5242
藏于	-11.5243
無餘	-11.5243
所疑	-11.5243
凡益之道與時偕行	-11.5244
漢唐	-11.5244
郭氏雍曰	-11.5245
光顯	-11.5245
以是知	-11.5246
未失道也	-11.5246
隨事	-11.5246
注同	-11.5246
莫之勝	-11.5246
十二辰	-11.5247
贊化育	-11.5249
求婚媾	-11.5249
李氏舜臣曰	-11.525
志在君	-11.5254
同人于野亨	-11.5255
蒙也	-11.5256
欲往	-11.5256
有所係	-11.5257
遯而亨	-11.5257
謂之通	-11.526
輕動	-11.5261
聖人之作易	-11.5261
也二之	-11.5264
不敵	-11.5266
坤八	-11.5266
動而健	-11.5267
合禮	-11.5267
上體為	-11.527
者心之	-11.5272
十有八	-11.5274
隂柔小人	-11.5274
師卦	-11.5276
而居上	-11.5276
會通	-11.5277
以求其	-11.5278
為人君	-11.5279
荀九家	-11.528
興師	-11.528
陸績曰	-11.5281
戈	-11.5282
无餘	-11.5288
最近	-11.5289
三十卦	-11.5289
牛掣	-11.5291
坤六	-11.5292
為一卦	-11.5294
損一人	-11.5296
六變	-11.5297
君子觀象	-11.5297
本亦作	-11.5298
則誠	-11.5298
天地聖人	-11.5298
四維	-11.5299
明年	-11.5299
爻而言	-11.5299
養道	-11.5299
之所行	-11.5299
告自邑	-11.5299
吉且无咎	-11.5303
萬象	-11.5306
黄裳元吉	-11.5307
不擇	-11.5307
兔	-11.5307
蓏	-11.5308
蟹	-11.531
楷	-11.5311
彛	-11.5312
祐之	-11.5312
其於木也	-11.5312
鄭氏曰	-11.5312
喚	-11.5314
畜養	-11.5314
之具也	-11.5314
既明	-11.5315
无家	-11.5315
大往小來	-11.5316
相比而	-11.5317
都聖與曰	-11.5318
陽為隂	-11.5318
至于八月有凶	-11.5319
有成	-11.5319
无思无為	-11.532
云耳	-11.532
豈必	-11.5321
君子居	-11.5321
贊易	-11.5323
元首	-11.5324
君道也	-11.5324
未備	-11.5324
迭運	-11.5325
斷金	-11.5326
非我	-11.5326
㢲上	-11.5327
而為艮	-11.5328
守之以	-11.5328
亂邦	-11.533
未聞	-11.533
上下順	-11.5331
以三為	-11.5332
萃有位	-11.5333
不専	-11.5333
文王八卦	-11.5334
其源	-11.5334
聽其	-11.5334
不撓	-11.5336
避難	-11.5336
之所宜	-11.5336
故元吉	-11.5336
卦名義	-11.5337
反常	-11.5337
在中饋	-11.5338
不顯	-11.5338
至若	-11.5339
坎為豕	-11.5339
治世	-11.5342
勝負	-11.5343
太卜	-11.5344
在外卦	-11.5344
欲上進	-11.5346
革鼎	-11.5348
豐盛	-11.535
于下而	-11.5351
則无所	-11.5353
其父	-11.5353
六爻皆變	-11.5353
感格	-11.5355
所好	-11.5355
封建	-11.5356
安平	-11.5357
施于	-11.5359
而待	-11.536
育德	-11.536
在内卦	-11.5361
之臣也	-11.5362
居尊位而	-11.5363
七年	-11.5364
有許多	-11.5364
圍四	-11.5365
説到	-11.5366
天下之賾	-11.5367
居東南	-11.5368
在師中吉	-11.5368
恐非	-11.5369
不可過也	-11.5369
之宜也	-11.537
者至矣	-11.5371
求養于	-11.5373
用賢	-11.5374
便見得	-11.5375
才柔	-11.5376
亦各	-11.5377
九五之剛	-11.5383
臯	-11.5383
得其情	-11.5383
九變	-11.5385
狃	-11.5385
葦	-11.5385
沱	-11.5386
嗇	-11.5387
亭	-11.5387
取災	-11.5387
與小畜	-11.5388
瀦	-11.5388
閎	-11.5389
矣故有	-11.5389
而强	-11.5389
耗	-11.5389
繼世	-11.5389
賁其趾	-11.539
示之以	-11.539
剛強	-11.5391
斾	-11.5391
剛來而得中	-11.5392
戲	-11.5392
麻	-11.5392
之言曰	-11.5394
数	-11.5394
艮其腓	-11.5395
大過之時大矣哉	-11.5395
有不善未嘗不知知之未嘗復行	-11.5395
自化	-11.5396
成男	-11.5396
初六藉用白茅无咎	-11.5397
管仲	-11.5398
以次	-11.5399
䷓(	-11.5399
身安	-11.5399
在上卦之下	-11.5399
羸角	-11.5399
武帝	-11.54
中位	-11.54
止息	-11.5402
將帥	-11.5403
桓公	-11.5404
以人事言之	-11.5408
而不顧	-11.5409
可以進	-11.5409
下而上	-11.5409
䷀(	-11.541
□(	-11.5411
无咎而已	-11.5412
人鬼	-11.5414
一握	-11.5419
觀示	-11.542
有憂患	-11.5422
是如何	-11.5422
三十有六	-11.5422
者也故為	-11.5423
振作	-11.5424
昭昭	-11.5424
无應故	-11.5425
若小人	-11.5425
三倍	-11.5426
小小	-11.5427
有吉凶	-11.5427
自遯	-11.5427
履錯然	-11.5429
故又有	-11.5429
謂初也	-11.5432
為疾	-11.5434
道之正	-11.5434
自此以下	-11.5434
如天之	-11.5437
親下	-11.5438
吳氏	-11.5439
不得行	-11.544
只說	-11.5441
虞作	-11.5442
我心	-11.5442
不當位而	-11.5443
治國	-11.5443
謂二五	-11.5444
首乾	-11.5445
同人曰	-11.5445
而不以	-11.5445
由之而	-11.5447
六三隂柔	-11.5448
故曰貞吉	-11.5448
成六十四卦	-11.5449
故終吉	-11.5451
象閏	-11.5451
相逺	-11.5451
顒	-11.5451
隂物也	-11.5452
二隂之下	-11.5454
具此	-11.5454
離之中	-11.5455
用此道	-11.5456
敬以直内義以方外	-11.5457
流水	-11.5457
无不利矣	-11.5457
上无正應	-11.5458
蠃	-11.5459
圖説	-11.546
難處	-11.5462
雖凶	-11.5463
楫	-11.5463
不俟終日	-11.5463
不易乎世	-11.5463
打	-11.5464
而无悔	-11.5465
二百一十有六	-11.5466
彚征	-11.5466
蘭惠卿曰	-11.5467
三柔	-11.5467
䷚(	-11.5468
大中至正	-11.5468
君子不以	-11.5468
李去非曰	-11.5469
可用汲	-11.5469
建立	-11.547
則其道	-11.5471
同居	-11.5471
綱紀	-11.5471
膂	-11.5471
可致	-11.5472
䷁(	-11.5473
艮為少男	-11.5474
觀盥而不薦有孚顒若	-11.5475
大壯利貞	-11.5475
物无不	-11.5476
故君子以	-11.5476
遇乾	-11.5477
動者也	-11.5477
邪僻	-11.5479
强梗	-11.5479
費氏	-11.5481
繫之以辭	-11.5481
居之則	-11.5482
不可易也	-11.5484
既定	-11.5485
許慎	-11.5486
垂象	-11.5486
順承天	-11.5487
起義	-11.5488
居下位	-11.5488
神明其徳	-11.5488
河南	-11.5488
察來	-11.5491
䷒(	-11.5491
乾德	-11.5493
何等	-11.5493
字書	-11.5494
碩大	-11.5494
聖人以此	-11.5496
相賁	-11.5498
進得位	-11.5498
巽離兌	-11.5498
得益	-11.5499
䷠(	-11.5501
三居下之上	-11.5502
信從	-11.5503
行不順	-11.5504
林中	-11.5504
過咎	-11.5509
而能止	-11.5511
所發	-11.5513
時宜	-11.5513
醇	-11.5517
七卦	-11.5517
其素	-11.5517
生息	-11.5519
无物不	-11.5519
則見其	-11.5519
六畫卦	-11.552
三畫之卦	-11.552
于世	-11.5521
悔厲	-11.5523
言易者	-11.5524
上震下	-11.5525
旉	-11.5529
用圭	-11.5531
固守其	-11.5532
十二篇	-11.5532
天下之賢	-11.5532
豈无	-11.5533
専一	-11.5534
五君位也	-11.5535
既處	-11.5536
刃	-11.5537
雨露	-11.5538
肺	-11.5538
東西南北	-11.5538
以九居五	-11.5539
則一也	-11.5539
五以柔中	-11.554
可與存義	-11.554
濬	-11.5541
員	-11.5541
得尚于中行	-11.5542
森	-11.5542
焚巢	-11.5542
糾	-11.5542
納約自牖	-11.5543
踵	-11.5543
熈	-11.5543
壺	-11.5543
告戒	-11.5543
王用出征	-11.5544
女子貞不字十年乃字	-11.5544
无敢折獄	-11.5545
以為安	-11.5545
殻	-11.5545
不久	-11.5545
歸妹以娣	-11.5546
䷩(	-11.5546
剛過而中	-11.5546
閑輿衛	-11.5546
惟變所適	-11.5546
尊賢	-11.5546
地中生木	-11.5546
觸類而長之	-11.5547
修辭立其誠	-11.5547
剛中之徳	-11.5547
虞翻曰謂	-11.5548
龍馬	-11.5548
妙萬物	-11.5549
南軒張氏曰	-11.5549
君側	-11.555
殖	-11.5551
成性存存道義之門	-11.5552
天下之動貞夫一者也	-11.5553
示戒	-11.5553
聰不明	-11.5553
在中故	-11.5553
順而麗乎大明	-11.5554
是以元亨	-11.5554
之甚者	-11.5554
黄耳	-11.5554
立地之道曰柔與剛立人之道曰仁與義	-11.5554
防患	-11.5555
徃有功	-11.5555
恭敬	-11.5556
草昧	-11.5556
履非其位	-11.5557
體卦	-11.5557
不易者	-11.5559
便自	-11.556
引易	-11.556
不可終	-11.5561
自然之理也	-11.5562
所賴	-11.5565
名分	-11.5566
白虎	-11.5566
只是説	-11.5567
仁人	-11.5569
劉向	-11.557
紛若	-11.5576
上聲	-11.5579
二中正	-11.558
同患	-11.5581
坤之初六	-11.5583
一位	-11.5585
而成卦	-11.5586
有不正	-11.5586
莫之與	-11.559
同徳相	-11.5591
巽主	-11.5591
焉能	-11.5592
其正應	-11.5593
甚多	-11.5594
成天下之	-11.5595
則不可以	-11.5595
張氏曰	-11.5595
讀易者	-11.5596
所出	-11.5597
說出	-11.5597
憂危	-11.5597
其用四十有九	-11.5598
一層	-11.5599
積小	-11.5599
何以謂之	-11.5599
乾爻	-11.5599
其羽	-11.5602
當知	-11.5602
既生	-11.5602
豫防	-11.5603
所重	-11.5604
以言其	-11.5605
由己	-11.5609
二語	-11.5611
不可為首	-11.5611
仰之	-11.5613
離卦	-11.5615
其威	-11.5616
聖人立	-11.5617
荘	-11.5617
發也	-11.5619
蒲	-11.5619
血去惕出	-11.562
丕	-11.5621
人才	-11.5622
日長	-11.5622
妥	-11.5622
二動	-11.5623
位乎天位	-11.5623
曵其輪	-11.5624
俞石澗曰	-11.5624
之辨也	-11.5624
群	-11.5625
老成	-11.5626
柝	-11.5626
上无其應	-11.5626
近而不相得	-11.5626
以待時	-11.5627
隨元亨利貞无咎	-11.5627
豫利建侯行師	-11.5629
言利貞	-11.563
明道先生曰	-11.5632
為大塗	-11.5632
交接	-11.5633
以一卦	-11.5634
摧如	-11.5635
惕懼	-11.5635
易中言	-11.5636
至上而	-11.5637
一卦之義	-11.5639
害民	-11.564
繫之辭	-11.564
亢極	-11.5644
不知節	-11.5646
渙節	-11.5648
九五一爻	-11.5656
上之人	-11.5656
六七	-11.5657
遯卦	-11.5658
其道上行	-11.5658
也不曰	-11.5659
戒之也	-11.566
富以其鄰	-11.5661
至命	-11.5662
不長	-11.5663
其美	-11.5664
厚事	-11.5664
艮山之	-11.5668
二千	-11.5669
全數	-11.567
中正以觀天下	-11.5672
幹父	-11.5673
㢲下	-11.5673
人之辭	-11.5674
終朝	-11.5676
為用故	-11.5676
无適	-11.5676
度量	-11.5677
初九曰	-11.5677
高大	-11.5678
實事	-11.5679
或得	-11.5681
以人言	-11.5682
元善	-11.5683
易簡之理	-11.5685
而不忘	-11.5686
發此義	-11.5686
親寡	-11.5688
功夫	-11.569
何以知	-11.5691
運轉	-11.5691
其器	-11.5691
同意	-11.5691
其成功	-11.5692
填	-11.5693
艮男	-11.5695
䖏	-11.5696
何為哉	-11.5696
軀	-11.5697
困于赤紱	-11.5697
𨽻	-11.5697
罕	-11.5698
眷	-11.5699
麗乎明	-11.5699
三應上	-11.5699
柯	-11.5699
童溪曰	-11.5701
祈	-11.5702
大哉乾元	-11.5703
所乘	-11.5703
吉也象曰	-11.5704
裕父之蠱	-11.5704
馬鄭	-11.5705
此爻之義	-11.5706
品物咸亨	-11.5706
文明以止人文也	-11.5707
需于郊	-11.5707
者也今	-11.5708
吕祖謙	-11.5708
不寧方來	-11.5708
賤者	-11.5709
而不自知	-11.571
䷫(	-11.571
究竟	-11.5712
充塞	-11.5712
䷗(	-11.5713
用四十九	-11.5714
莫先	-11.5716
其義則	-11.5716
之别也	-11.5717
明動	-11.5718
太史	-11.5718
九二貞吉	-11.5719
後入于地	-11.572
牽强	-11.572
神明之徳	-11.5725
六爻之中	-11.5725
與之俱	-11.5726
不拒	-11.5729
内剛	-11.5729
何如哉	-11.573
者天也	-11.573
君臣父子	-11.573
亦不得	-11.5731
未畫	-11.5733
奉天	-11.5734
而人不	-11.5737
盡變	-11.5738
地理	-11.5738
為大人	-11.5738
兑為口	-11.574
加于	-11.574
火澤	-11.574
責之	-11.5741
不中故	-11.5742
乗木	-11.5742
其進也	-11.5745
互有	-11.5745
二剛中	-11.5746
唯有	-11.575
六爻之位	-11.575
坤為順	-11.5753
觸類	-11.5753
有此理	-11.5753
程先生	-11.5754
者人之所	-11.5754
九四之剛	-11.5757
自天祐之吉无不利	-11.5759
无恒	-11.5759
藏器	-11.576
有力	-11.5761
所噬	-11.5762
安民	-11.5763
九五以剛	-11.5763
之方也	-11.5765
於下則	-11.5765
變剛	-11.5766
詳之	-11.5766
便只	-11.5767
解悖	-11.5767
滅息	-11.577
于我	-11.577
錮	-11.5772
先知	-11.5773
徃来	-11.5773
這處	-11.5775
讎	-11.5775
鏡	-11.5776
以陽居柔	-11.5776
不利即戎	-11.5777
宦	-11.5779
天下之治	-11.5779
愚又按	-11.5779
其學	-11.5779
斯世	-11.578
嘻	-11.578
諄諄	-11.578
乾隆四十	-11.578
僖	-11.578
股肱	-11.5781
稷	-11.5781
田有禽	-11.5782
品物流形	-11.5783
樂天知命	-11.5783
逺取諸物	-11.5783
欲明	-11.5784
内卦之	-11.5784
莫知	-11.5784
質卿曰	-11.5784
不見其妻	-11.5785
動而以順行	-11.5785
射隼	-11.5785
大吉也	-11.5786
時止則止時行則行	-11.5787
𤼵揮	-11.5787
同人先號咷而後笑	-11.5788
躬行	-11.5788
大賢	-11.5789
不決	-11.579
十有五	-11.579
迭用	-11.579
白馬	-11.579
不量	-11.5791
大人吉	-11.5791
増益	-11.5792
詩所謂	-11.5793
施未行	-11.5793
可革	-11.5794
得黄矢	-11.5795
五十六	-11.5795
適中	-11.5797
相臨	-11.5798
純是	-11.5798
宻雲	-11.5798
諸卦皆	-11.5799
剥牀	-11.58
之成也	-11.58
在西	-11.5801
為羣	-11.5803
至静	-11.5803
未遽	-11.5804
微顯	-11.5804
禁止	-11.5806
欲去	-11.5808
凶悔吝	-11.581
虞仲翔	-11.5811
卜筮之書	-11.5812
有嘉	-11.5813
不言吉凶	-11.5814
如乾之	-11.5815
南軒	-11.5817
心病	-11.5817
真實	-11.5821
非其應	-11.5822
雖不同	-11.5823
不早	-11.5824
備物	-11.5825
肆而	-11.5828
注疏	-11.5828
一名	-11.583
天之命也	-11.5831
乾坤之後	-11.5831
實心	-11.5834
可以无咎矣	-11.5834
師出	-11.5834
或失	-11.5835
始而亨	-11.5835
此因	-11.5835
人性	-11.5836
不必言	-11.5838
毒天下	-11.5838
如何先生曰	-11.5839
可安	-11.5839
如前	-11.584
坤六二	-11.584
非惟	-11.584
舊本	-11.5842
金夫	-11.5843
何患	-11.5845
衆志	-11.5846
序卦傳	-11.5849
之期	-11.585
以拯	-11.5851
蚌	-11.5853
之得失	-11.5854
晉明夷	-11.5854
易之序	-11.5855
孝子	-11.5857
順剛	-11.5857
止止	-11.5858
入坤	-11.5859
咸其脢	-11.5859
无端	-11.5859
質本	-11.586
何不利之有	-11.586
成變化	-11.5861
乃復	-11.5861
非中正	-11.5861
從正	-11.5861
見輿曳	-11.5861
大本	-11.5862
十有八變而成卦	-11.5862
館	-11.5862
也四之	-11.5863
冊	-11.5863
免於咎	-11.5863
寕	-11.5864
被其澤	-11.5864
木道乃行	-11.5864
以長	-11.5864
之大臣	-11.5865
絮	-11.5865
進而上行	-11.5865
其亨	-11.5866
兢兢	-11.5866
蘇軾	-11.5867
可盡	-11.5868
闡幽	-11.5868
廣大悉備	-11.5872
君子之心	-11.5874
胷中	-11.5874
井鼎	-11.5874
物之功	-11.5874
而孔子	-11.5879
證之	-11.5879
此就	-11.588
相次	-11.5881
於外而	-11.5882
中正而應	-11.5884
安其身	-11.5885
而不知止	-11.5886
東鄰	-11.5888
而忽	-11.5889
最好	-11.5891
伊周	-11.5891
强暴	-11.5897
隂小	-11.5897
故子曰	-11.5897
一不用	-11.5898
益之道	-11.59
初與上	-11.5902
不疚	-11.5903
也何謂	-11.5904
乃始	-11.5905
授之	-11.5906
輕進	-11.5908
甚㣲	-11.5912
无過咎	-11.5915
今夫	-11.5916
天性	-11.5916
語意	-11.5919
求進	-11.592
足以濟	-11.5921
進退不果	-11.5923
致冦	-11.5925
筴	-11.5927
其有不	-11.5928
旗	-11.5931
享其	-11.5933
本㫖	-11.5933
的顙	-11.5934
由之以	-11.5935
☷	-11.5935
為吝	-11.5935
後世聖人	-11.5935
搆	-11.5937
濶	-11.5937
以娣	-11.5937
上下卦	-11.5937
利者義之和	-11.5938
床	-11.5938
水在火上	-11.5939
形而上	-11.5939
反身修徳	-11.5941
両	-11.5941
鳳	-11.5941
朋從爾思	-11.5942
入于穴	-11.5943
言辭	-11.5943
初本	-11.5944
曾子	-11.5945
弟子輿尸	-11.5947
紛紜	-11.5949
文王與紂之事	-11.5949
吾道	-11.595
也書曰	-11.595
變變	-11.5951
鼎有實	-11.5952
乗墉	-11.5952
不任	-11.5953
其亡	-11.5953
不踰	-11.5954
者鮮矣	-11.5955
䰟	-11.5956
髙卑	-11.5957
亡其悔	-11.5957
註曰	-11.5957
稱之	-11.5958
周天	-11.5961
俯仰	-11.5962
萬民服	-11.5962
剛而得正	-11.5962
戒深矣	-11.5963
坎為志	-11.5964
過差	-11.5968
无時不	-11.5968
千六百	-11.5972
有是徳	-11.5972
動而説	-11.5974
三代之	-11.5975
憂勤	-11.5976
二子	-11.5976
九四以剛	-11.5979
反歸	-11.598
生機	-11.598
離合	-11.598
程子謂	-11.5981
揲之餘	-11.5983
有一箇	-11.5986
入坎	-11.5987
外巽	-11.5988
艮東北	-11.5989
而論之	-11.5989
卷二	-11.5991
為之防	-11.5993
亦如之	-11.5993
之𧰼也	-11.5996
莫過	-11.5996
於西南	-11.5999
其正也	-11.6
京作	-11.6003
顔子之	-11.6007
行中	-11.6007
開國	-11.6008
以中行	-11.6009
其任	-11.6013
二十有四	-11.6013
庸人	-11.6015
得童僕	-11.6016
虞翻作	-11.6016
讐	-11.6019
什	-11.602
剥盡	-11.6021
猶豫	-11.6021
咸其股	-11.6022
不惡而嚴	-11.6023
殿	-11.6023
剛壯	-11.6023
家道正	-11.6024
山下有險	-11.6025
分隂分陽	-11.6025
樽酒簋貳	-11.6025
俞氏琰曰	-11.6025
不自用	-11.6026
繫辭云	-11.6026
觀其所感而天地萬物之情可見矣	-11.6026
敕	-11.6026
䷨(	-11.6026
三至上	-11.6027
彭山曰	-11.6027
父子兄弟夫婦	-11.6028
行地无疆	-11.6029
上乾下	-11.6029
不拯其隨	-11.6029
祕	-11.6031
利幽人之貞	-11.6032
到這裏	-11.6033
遇元夫	-11.6035
幾乎	-11.6037
變為剛	-11.6038
主器	-11.6039
拯救	-11.6041
方圓	-11.6042
設戒	-11.6043
太極生兩儀	-11.6044
元夫	-11.6045
小字	-11.6046
上之三	-11.6046
夫道	-11.6046
變者也	-11.6047
知識	-11.6049
在地下	-11.6049
所喪	-11.6052
奈	-11.6052
諸身	-11.6052
不散	-11.6054
故孔子曰	-11.6054
居髙	-11.6055
六百	-11.6055
統言	-11.6055
伏羲之易	-11.6055
適然	-11.6056
以為用	-11.6056
以剛中之徳	-11.6056
相續	-11.6056
畜臣妾吉	-11.6058
獄訟	-11.6059
自否	-11.606
知其所	-11.6062
即位	-11.6063
占事	-11.6066
亦如是	-11.6067
未受命	-11.6068
占卜	-11.607
謂六二	-11.607
故又為	-11.6071
乾初九	-11.6072
人之所以	-11.6075
子雲	-11.6075
失正故	-11.6076
勇於	-11.6077
其職	-11.6079
可貴	-11.6083
得輿	-11.6085
進退皆	-11.6085
時事	-11.6087
以入	-11.6089
女之歸	-11.6089
為大赤	-11.6091
其事則	-11.6092
六虚	-11.6093
已往	-11.6093
性命之	-11.6094
而得其正	-11.6094
豐大也	-11.6095
箇物事	-11.6096
壹	-11.6096
用明	-11.6097
䷅(	-11.6098
葬	-11.61
飛鳥遺之音不宜上宜下大吉	-11.6101
即上文	-11.6101
咈	-11.6101
藻	-11.6101
王室	-11.6102
始作八卦	-11.6104
告公用圭	-11.6104
何氏楷曰	-11.6105
再言	-11.6105
専指	-11.6106
偪	-11.6106
逝	-11.6106
艸	-11.6107
輿說輹	-11.6108
屯難之世	-11.6108
旅小亨旅貞吉	-11.6109
大者壯也	-11.611
喬	-11.611
東北喪朋	-11.6111
類族辨物	-11.6111
摶	-11.6111
剛中而應行險而順	-11.6112
乘墉	-11.6112
相逮	-11.6114
為蹇	-11.6115
不可解	-11.6116
之出入	-11.6116
金木	-11.6116
何耶	-11.6117
暴客	-11.6118
坎不盈	-11.6118
不竭	-11.612
彖象文言	-11.612
陛下	-11.6122
無端	-11.6122
成卦之義	-11.6123
撥亂	-11.6124
故利貞	-11.6124
來比	-11.6126
不容不	-11.6127
是也然	-11.613
陸徳明曰	-11.6131
存存	-11.6132
四與上	-11.6133
門内	-11.6133
之境	-11.6134
拘係之	-11.6134
乾三陽	-11.6135
居西	-11.6136
居南	-11.6136
不能自立	-11.6137
故曰无咎	-11.6137
藴畜	-11.6137
曉得	-11.6138
是也夫	-11.6138
致宼	-11.6141
而繼之以	-11.6142
慮患	-11.6142
以益上	-11.6144
互根	-11.6146
所當損	-11.6148
折首	-11.6149
所繫之辭	-11.6149
可以免	-11.6151
為邪	-11.6152
正相反	-11.6155
大有上九	-11.6156
老子曰	-11.6157
非為邪	-11.6158
揆之	-11.6158
為盜	-11.6164
風化	-11.6166
相勝	-11.6167
其配	-11.6168
富家	-11.617
無異	-11.6171
者也是以	-11.6174
理會	-11.6174
井甃	-11.6175
大寶	-11.6178
睽極	-11.6178
朞	-11.6179
喪牛于易	-11.6179
介於	-11.618
有光	-11.618
彖云	-11.618
迥	-11.6182
有飛鳥之象	-11.6183
制義	-11.6183
九五飛龍在天利見大人	-11.6184
二與四同功	-11.6184
並同	-11.6184
否否	-11.6185
□□	-11.6186
无成有終	-11.6186
迂	-11.6187
貴而无位	-11.6187
見險而能止	-11.6188
虩	-11.6189
震遂泥	-11.6189
而有之	-11.619
自上下下其道大光	-11.619
唯變所適	-11.619
中饋	-11.619
師貞丈人吉无咎	-11.619
舉動	-11.6191
地中有山	-11.6191
无喪无得	-11.6192
山下有雷	-11.6193
豶豕之牙	-11.6193
天地之大徳曰生	-11.6193
加憂	-11.6194
用九六	-11.6196
機㑹	-11.6196
室家	-11.6198
王申子	-11.6198
泰初	-11.6198
本然之	-11.6199
立秋	-11.6199
䷪(	-11.62
為二所	-11.62
掛扐之數	-11.62
開闢	-11.6201
之通例	-11.6202
漸近	-11.6204
解經	-11.6204
郭京曰	-11.6204
變兊	-11.6205
信志	-11.6207
往求	-11.6208
上下之間	-11.6208
利用禴	-11.6208
辨别	-11.6209
相符	-11.621
不相射	-11.6211
近也	-11.6214
春生	-11.6214
物既	-11.6215
上九亢龍有悔	-11.6215
女正	-11.6216
斯之謂	-11.622
㑹合	-11.6223
不敢輕	-11.6224
无位之地	-11.6224
於地上	-11.6226
以柔而	-11.6226
適足以	-11.6226
二十有五	-11.6227
是也故	-11.6228
内外卦	-11.6228
又如此	-11.6229
二位	-11.6229
處尊位	-11.6233
自無	-11.6235
雖危而	-11.6235
自然之數	-11.6238
屈於	-11.6238
觀諸	-11.624
之可也	-11.6242
而畜之	-11.6243
和豫	-11.6248
化醇	-11.6249
益益	-11.6251
驗之	-11.6252
涯	-11.6255
卦之變	-11.6258
有孚信	-11.6259
幽不明	-11.626
不得其所	-11.626
當其時	-11.6261
所以亨也	-11.6261
以陰居	-11.6262
謂文王	-11.6263
觀其象	-11.6264
悞	-11.6266
天數五	-11.6266
鹽	-11.6267
弔	-11.6268
互變	-11.6268
斜	-11.6269
者也此	-11.627
札	-11.627
苴	-11.627
之事乎	-11.6272
道之成	-11.6274
所包	-11.6275
百六十	-11.6275
擴	-11.6276
觀變玩占	-11.6276
伏羲八卦	-11.6277
孚于嘉	-11.6278
係應	-11.6279
震來虩虩恐致福也笑言啞啞後有則也	-11.6279
草廬	-11.6279
改邑不改井乃以剛中也	-11.6279
䷴(	-11.6279
其福	-11.6279
匪正有眚	-11.6281
精氣為物	-11.6281
文言傳	-11.6282
陽在外	-11.6282
䷖(	-11.6283
之謂歟	-11.6283
分明是	-11.6283
卷三	-11.6284
日月四時	-11.6287
外柔	-11.6287
其所行	-11.6289
牽牛	-11.629
引重	-11.6291
之象也卦變為	-11.6291
水行	-11.6292
乆矣	-11.6292
既盡	-11.6292
拂頤	-11.6292
不能成雨	-11.6294
有為而	-11.6294
相親比	-11.6294
故戒之曰	-11.6296
易者象也	-11.6297
千四百	-11.6297
此一句	-11.6299
又音	-11.6301
戎器	-11.6303
能保	-11.6306
變更	-11.6308
原非	-11.6308
豈止	-11.6308
疚	-11.6309
初九變	-11.631
未有所	-11.631
未善	-11.6312
曲而	-11.6312
䘮朋	-11.6313
可出	-11.6313
水洊至	-11.6314
入險	-11.6314
與之合	-11.6316
程傳云	-11.6318
匹夫	-11.6318
謂之器	-11.6321
以陽居剛	-11.6322
徃徃	-11.6325
而往則	-11.6325
和同	-11.6325
一步	-11.6327
濟之以	-11.6329
九數	-11.633
立心勿恒	-11.6333
遂泥	-11.6334
成德	-11.6334
但取	-11.6335
未可知	-11.6335
兆民	-11.6338
天際	-11.6338
果決	-11.6339
視履	-11.634
六卷	-11.6341
姤遇也柔遇剛也	-11.6345
法律	-11.6346
訪	-11.6347
命名	-11.6347
壑	-11.6348
銘	-11.6348
元始	-11.6349
閡	-11.635
昆	-11.6351
類聚	-11.6351
震兌	-11.6352
不亢	-11.6352
孚號有厲	-11.6352
孩	-11.6352
訖	-11.6353
剛而能	-11.6353
鬭	-11.6354
人而人	-11.6355
第七	-11.6355
趙汴水曰	-11.6355
能容	-11.6355
如石	-11.6356
噬嗑亨利用獄	-11.6356
坤柔	-11.6356
以作易	-11.6356
蔡墨	-11.6357
恪	-11.6357
慙	-11.6358
内柔而外剛	-11.6358
議獄緩死	-11.6359
突如	-11.6359
日往則月	-11.6359
无祗悔	-11.6359
爪	-11.636
䷶(	-11.636
往蹇來譽	-11.636
具有	-11.6361
飛鳥以凶	-11.6361
亦可醜也	-11.6361
郭子儀	-11.6361
牽羊悔亡	-11.6362
弗違	-11.6362
自外来	-11.6363
用拯馬壯吉	-11.6365
犯上	-11.6365
二多譽	-11.6365
聖人之於	-11.6368
未甚	-11.6368
復復	-11.6368
能幹	-11.6369
應之故	-11.637
重複	-11.6371
研幾	-11.6371
應物	-11.6371
之積也	-11.6371
統體	-11.6372
可見其	-11.6372
飛鳥遺之音	-11.6373
自試	-11.6374
幽賛	-11.6374
允升	-11.6376
聚以正	-11.6376
乾西北	-11.6377
一隂始生	-11.6379
疑疾	-11.6386
天地交泰	-11.6391
自樂	-11.6392
吾心之	-11.6393
今從之	-11.6393
重乾	-11.64
居隂位	-11.6406
不能退	-11.6408
合宜	-11.6408
而不能自	-11.6409
上六隂柔	-11.6412
偶畫	-11.6415
以中為	-11.6417
不中正而	-11.6417
所生之	-11.642
上合志	-11.642
也坤之	-11.642
立身	-11.6422
欲止	-11.6422
於人事	-11.6422
七分	-11.6425
具焉	-11.6426
聞見	-11.643
盛多	-11.6431
勁	-11.6432
觀天下	-11.6432
陣	-11.6433
子路	-11.6434
畀	-11.6435
媒	-11.6435
奔走	-11.6435
潮	-11.6435
定天下之吉凶成天下之亹亹者	-11.6436
説文曰	-11.6437
淆	-11.6437
䷞(	-11.6438
臂	-11.6438
此特	-11.6438
不遐遺	-11.6439
醴	-11.644
蠶	-11.644
漸女歸吉利貞	-11.644
䷢(	-11.6441
婦子嘻嘻	-11.6441
師出以律	-11.6442
齎咨涕洟	-11.6442
山下有風	-11.6442
綆	-11.6443
自西	-11.6443
孔子之言	-11.6444
水火相息	-11.6446
各從其類	-11.6446
䷰(	-11.6447
何尤	-11.6447
用九見羣龍无首吉	-11.6448
得志也	-11.6449
分量	-11.6449
生稊	-11.645
未可遽	-11.6451
從違	-11.6451
亦足以	-11.6452
䷝(	-11.6453
非理	-11.6454
澤火	-11.6455
以上為	-11.6455
於天地之間	-11.6457
七七	-11.6457
向下	-11.6457
一陽在下	-11.6459
處險而	-11.6459
耦數	-11.6461
艮其止	-11.6462
睽小事吉	-11.6462
乘陽	-11.6463
乾惕	-11.6464
巽為進退	-11.6465
不止於	-11.6466
首坤	-11.6467
又别	-11.6467
三隂皆	-11.6467
君子得輿	-11.6467
戒之曰	-11.6468
姤之時	-11.647
故无不利	-11.647
相盪	-11.6471
戒慎	-11.6472
九三變	-11.6473
小人長	-11.6479
見諸	-11.6481
其憂	-11.6483
踰越	-11.6484
不可得而見	-11.6488
當睽之時	-11.6488
以九居二	-11.6489
安定	-11.649
天降	-11.6491
而无咎矣	-11.6492
哉盖	-11.6493
陰位	-11.6495
博厚	-11.65
无輔	-11.6502
遲疑	-11.6502
為蕃鮮	-11.6503
分屬	-11.6507
公卿	-11.6508
深思	-11.651
幽深	-11.6516
故彖曰	-11.6517
版	-11.6519
以順動	-11.652
鼫䑕	-11.652
羇旅	-11.652
孚信也	-11.652
龍虎	-11.6521
劑	-11.6521
均平	-11.6523
减	-11.6523
罔罟	-11.6523
十五年	-11.6523
芽	-11.6523
曵輪	-11.6523
上三爻皆	-11.6523
不言凶	-11.6523
閲	-11.6524
天地之文	-11.6524
火性炎上	-11.6524
火珠林	-11.6524
王用亨于岐山	-11.6525
䷭(	-11.6525
往蹇來連	-11.6525
不中則	-11.6525
䷯(	-11.6525
咸亨利貞取女吉	-11.6525
陽爻皆	-11.6525
獨立不懼	-11.6526
苦節不可貞	-11.6526
不可謂之	-11.6527
柔上剛下	-11.6527
成言乎艮	-11.6528
上六變	-11.6528
蠱壞	-11.6532
巽而耳目聰明	-11.6532
豐多故	-11.6533
自上下下	-11.6534
來往	-11.6535
孚于剥	-11.6535
再索	-11.6535
不害其為	-11.6536
中而不正	-11.6537
從善	-11.6537
不宜上	-11.6538
存乎其人	-11.654
胸	-11.6541
燦然	-11.6541
進退存亡	-11.6541
之象也君子以	-11.6544
妻子	-11.6545
類萬物之情	-11.6545
智力	-11.6546
東北喪朋乃終有慶	-11.6549
无有不	-11.6552
初二兩爻	-11.6553
往復	-11.6555
變兑	-11.6557
歸宿	-11.656
陽始生	-11.656
不家食吉	-11.656
居卦之上	-11.6561
隔絶	-11.6562
者有以	-11.6565
嫌于	-11.6565
賛易	-11.6566
而兩之	-11.6567
爻變為	-11.6567
閑有家	-11.6569
用缶	-11.6573
之所同	-11.6575
四象八卦	-11.6576
以利天下	-11.6576
未富	-11.6577
金水	-11.6577
純陰	-11.6577
其心志	-11.6578
者謂其	-11.6579
須要	-11.6581
四聖	-11.6583
易類	-11.6583
剛揜	-11.6584
承乗	-11.6587
天七	-11.6587
王業	-11.6594
困之時	-11.6595
泰極	-11.6597
濟天下	-11.6597
朱子本義	-11.6597
株	-11.66
諸心	-11.66
合之為	-11.6601
引此	-11.6603
南蒯	-11.6604
大始	-11.6604
精誠	-11.6604
乳	-11.6605
商旅	-11.6606
洌	-11.6607
以養之	-11.6607
麓	-11.6609
處順	-11.6609
頷	-11.6609
蹟	-11.661
下嫁	-11.661
乞	-11.661
峰	-11.6611
䷕(	-11.6611
首出庶物萬國咸寧	-11.6612
為腹	-11.6612
恢	-11.6612
而推之	-11.6613
磐石	-11.6613
列其夤	-11.6613
明盛	-11.6613
獨得	-11.6614
柔來而文剛	-11.6614
自内而	-11.6614
其唯聖人乎	-11.6615
䷟(	-11.6615
征邑國	-11.6616
二五正應	-11.6617
小過亨利貞可小事不可大事	-11.6617
鼔舞	-11.6618
汔至亦未繘井羸其瓶凶	-11.6619
利武人之貞	-11.6619
為一章	-11.6622
申之曰	-11.6624
三徳	-11.6624
重出	-11.6624
勉勉	-11.6625
三居下卦之上	-11.6626
七八九六之數	-11.6626
姑息	-11.6627
成八卦	-11.6627
應援	-11.6627
而後亨	-11.6628
匪咎	-11.663
夫子於	-11.6633
焚次	-11.6634
生物之功	-11.6634
无能為	-11.6635
者道也	-11.6635
罪人	-11.6636
陽剛得正	-11.6637
片	-11.6645
柔在上	-11.6646
之次序	-11.6646
釋經	-11.6647
内實	-11.6648
于宗	-11.665
何校	-11.6651
倫理	-11.6652
判然	-11.6653
慢易	-11.6655
用馮河	-11.6655
未能出	-11.6656
有以見天下之動而觀其㑹通以行其	-11.6657
何如耳	-11.6658
而出之	-11.6658
圖象	-11.6659
知来	-11.666
五為君位	-11.666
重巽以申命	-11.6667
生金	-11.6667
可變	-11.6669
器用	-11.6671
畜臣妾	-11.6671
九五居尊	-11.6671
卦綜	-11.6672
知吉凶	-11.6673
有是理	-11.6673
功利	-11.6674
山中	-11.6675
應於二	-11.6676
開通	-11.6677
而安之	-11.6677
列於	-11.6677
與天同	-11.6678
新安	-11.6681
求勝	-11.6684
成敗	-11.6685
動而有悔	-11.6686
下注	-11.6688
高明	-11.6689
下卦之中	-11.6689
升五	-11.6692
數往	-11.6693
剛剛	-11.6693
潘	-11.6695
石守道曰	-11.6695
墻	-11.6695
樣	-11.6696
冕	-11.6696
居其上	-11.6698
巽為入	-11.6699
推之則	-11.6699
黄離元吉	-11.67
弭	-11.67
濵	-11.67
程傳謂	-11.67
平庵項氏曰	-11.67
䷄(	-11.6701
墓	-11.6701
莘	-11.6701
柔得尊位	-11.6701
䷺(	-11.6701
晅	-11.6702
觀其所聚而天地萬物之情可見矣	-11.6702
習坎有孚維心亨行有尚	-11.6702
近而相得	-11.6702
宦官	-11.6702
王用亨	-11.6703
雲上於天	-11.6703
虞人	-11.6705
以六居三	-11.6705
有孚在道	-11.6705
國邑	-11.6705
䷇(	-11.6706
順之至也	-11.6706
並用	-11.6707
盈缶	-11.6708
也方其	-11.6708
諸説	-11.6708
䷐(	-11.6711
坎為盜	-11.6711
可與幾	-11.6711
兑體	-11.6711
婦貞厲	-11.6712
之善也	-11.6713
上下之際	-11.6713
昔之	-11.6713
履卦	-11.6713
守位	-11.6714
主祭	-11.6715
逼於	-11.6715
賢徳	-11.6716
壯盛	-11.6716
易簡之善	-11.6717
外體	-11.6717
五而成	-11.6718
不厚	-11.6719
君子之道也	-11.6722
眀夷	-11.6722
幽隠	-11.6722
之色也	-11.6722
䷥(	-11.6722
明主	-11.6723
稱君子	-11.6724
六五變	-11.6724
者氣之	-11.6726
唯能	-11.6728
安溪李氏曰	-11.6729
先動	-11.6731
義曰此	-11.6731
下體為	-11.6733
不足於	-11.6733
盈虛	-11.6734
是三者	-11.6736
二十六	-11.6737
其尾	-11.6738
外順	-11.674
猶人之	-11.6741
未行	-11.6741
人之生	-11.6742
所困	-11.6742
以行之	-11.6743
得友	-11.6745
更始	-11.6749
至於命	-11.6753
節文	-11.6754
深逺	-11.6755
其志得行	-11.6756
前禽	-11.6756
必濟	-11.6757
初九潛龍勿用	-11.6758
无自而	-11.6761
无所施	-11.6761
權臣	-11.6767
成其功	-11.677
向明	-11.6771
不可得也	-11.6771
紛然	-11.6772
太初	-11.6774
權勢	-11.6774
依附	-11.6775
翰林院	-11.6778
巽兑	-11.6779
杌	-11.678
䷉(	-11.678
坤之中	-11.6782
牝牡	-11.6783
鴻漸于陸	-11.6783
變之正	-11.6783
武人為于大君	-11.6783
四年	-11.6784
治厯明時	-11.6784
胡雙湖曰	-11.6784
輟	-11.6784
何吉如之	-11.6784
乃亂乃萃	-11.6785
叩	-11.6785
親寡旅也	-11.6786
僧	-11.6786
寐	-11.6786
但見其	-11.6787
不續終	-11.6787
噬乾胏	-11.6787
以剛而	-11.6788
鼓動	-11.6788
氣數	-11.6788
趨吉避凶	-11.6789
也易傳曰	-11.6789
諺	-11.6789
棟撓	-11.679
安貞之吉應地无疆	-11.679
剛中正履帝位而不疚光明也	-11.679
他日	-11.6791
上合志也	-11.6791
剛來而下柔	-11.6793
聖人以此洗心	-11.6793
雷風山澤	-11.6793
之所當	-11.6793
煩擾	-11.6794
以六居二	-11.6794
合乎天	-11.6795
水火木金	-11.6796
時義大矣哉	-11.6796
勑	-11.6797
震來厲	-11.6798
一半	-11.6799
二十三	-11.68
不出户庭无咎	-11.6801
故戒占者	-11.6802
天地定位山澤通氣	-11.6804
主静	-11.6805
長幼	-11.6805
王莽	-11.6809
害于	-11.6809
衆之所	-11.6809
咸九四	-11.6813
户庭	-11.6814
明夷之時	-11.6815
天之所以	-11.6815
而不失其正	-11.6815
无咎者以	-11.6816
甲辰	-11.6817
庚子	-11.682
而天下治	-11.6821
自持	-11.6821
安分	-11.6822
崔憬	-11.6824
井谷	-11.6826
晝日	-11.6827
昭公	-11.6827
三百六十日	-11.6828
隨物	-11.6829
事功	-11.6829
既盛	-11.683
其究為躁卦	-11.6832
一人行	-11.6833
坤為腹	-11.6835
未免有	-11.6836
而合之	-11.6836
妻道	-11.6837
待時而動	-11.6837
將復	-11.6839
天下平	-11.684
未信	-11.6841
得行其志	-11.6844
得賢	-11.6845
陽剛得中	-11.6845
之所以成	-11.6847
中宫	-11.6851
何謂也	-11.6854
者其惟	-11.6864
以正邦也	-11.6867
君子征凶	-11.6868
遂其生	-11.6868
犧	-11.6869
麻衣	-11.687
一歳	-11.6871
物欲	-11.6871
碎	-11.6871
怕	-11.6872
柔得中而上行	-11.6872
䷮(	-11.6872
下三陽	-11.6872
蘖	-11.6873
邁	-11.6873
詮	-11.6874
廵	-11.6875
筌	-11.6875
震之初	-11.6875
比之匪人	-11.6875
逰	-11.6875
橫	-11.6875
利貞者性情也	-11.6876
利用享祀	-11.6877
於天子	-11.6877
團	-11.6877
謙亨君子有終	-11.6878
剛上而尚賢	-11.6878
无妄大畜	-11.6878
一閏	-11.6879
王用享于帝吉	-11.6879
蹙	-11.6879
烜	-11.688
賀孫	-11.688
丞	-11.6881
隂在内	-11.6882
天地人物	-11.6882
以發明	-11.6882
六二爻	-11.6883
吉事有祥	-11.6883
雖正亦凶	-11.6883
䷜(	-11.6884
少隂少陽	-11.6884
暗昧	-11.6884
和合	-11.6886
參差	-11.6888
當依	-11.6888
突如其來如	-11.6889
終莫之勝	-11.689
四肢	-11.689
非其時	-11.6891
九五六二	-11.6891
六爻惟	-11.6892
振動	-11.6892
殺人	-11.6894
之貞也	-11.6895
相附	-11.6897
道不行	-11.6898
陽並進	-11.6898
後甲	-11.6898
始畫八卦	-11.69
其𧰼	-11.6904
乾坤成列	-11.6905
柔順之徳	-11.6909
又互	-11.691
》。	-11.6912
凡陽	-11.6913
變乾為	-11.6914
世變	-11.6914
見羣龍	-11.6914
否曰然	-11.6915
革而當	-11.6917
安居	-11.6918
以陽處	-11.692
莫之能	-11.692
吉凶之理	-11.692
自考	-11.692
狹矣	-11.6921
地卑	-11.6925
巽離兑	-11.6925
所同者	-11.6927
其徳行	-11.6928
艱則吉	-11.6931
衰世	-11.6932
師道	-11.6935
未到	-11.6936
所自有	-11.6936
過越	-11.6937
終始萬物	-11.6937
不振	-11.6937
子夏作	-11.6938
於朝	-11.6938
世儒	-11.6939
演易	-11.6942
成其為	-11.6942
誠齋	-11.6942
嘗謂	-11.6944
勿問	-11.6945
相麗	-11.6948
在南	-11.6948
額	-11.6948
相聚	-11.6951
米	-11.6954
䷻(	-11.6956
拾	-11.6956
沃	-11.6957
六爻之動	-11.6958
𤼵蒙	-11.6958
古之聖人	-11.6958
大畧	-11.6958
惻怛	-11.6959
屠	-11.696
跋	-11.6961
摘	-11.6961
君子之進	-11.6962
刳	-11.6963
往蹇來反	-11.6964
天施地生	-11.6964
荑	-11.6965
大耋之嗟	-11.6965
出門交有功	-11.6965
勿憂宜日中	-11.6965
惟其時	-11.6965
笑言	-11.6966
三人行	-11.6966
勞乎坎	-11.6966
習教事	-11.6967
耨	-11.6967
咸其腓	-11.6967
姤女壯勿用取女	-11.6967
懲忿窒慾	-11.6968
射鮒	-11.6968
立教	-11.6968
松	-11.6968
鼓缶而歌	-11.6968
童牛之牿	-11.6968
得其資斧	-11.6968
八卦以象告	-11.6969
有孚顒若	-11.6969
何利之有	-11.6969
覆餗	-11.6969
鼎祚	-11.697
剥牀以足	-11.697
易有四象所以示也	-11.697
閨門	-11.6971
水流而不盈行險而不失其信	-11.6971
何益	-11.6971
䷎(	-11.6972
理之常	-11.6972
家人之道	-11.6974
可以致	-11.6975
尚徃	-11.6976
月之卦也	-11.6978
兩儀四象	-11.6979
與初應	-11.6981
端倪	-11.6982
之明也	-11.6985
長短	-11.6987
易无體	-11.6988
與上文	-11.6988
四爻皆	-11.6993
尊尚	-11.6994
王位	-11.6994
顯明	-11.6994
不能有為	-11.6994
柔中之君	-11.6996
人誰	-11.6996
民生	-11.6996
鼎耳革	-11.6998
原其始	-11.7
中且正	-11.7001
不能自主	-11.7001
陽剛之徳	-11.7003
不可通	-11.7003
義无咎也	-11.7003
為洛書	-11.7005
序卦雜卦	-11.7005
不遑	-11.7008
免禍	-11.7008
下二隂	-11.7009
衆正	-11.7012
危疑	-11.7013
發聲	-11.7014
衆賢	-11.7015
順命	-11.7016
不富以其鄰	-11.7018
含容	-11.7019
未解	-11.7021
聖人有以見天下之賾	-11.7021
話	-11.7022
凝聚	-11.7024
虚已	-11.7025
為大君	-11.7026
氣盈	-11.7027
何以見	-11.7031
謀始	-11.7032
明其義	-11.7033
易例	-11.7033
以卦象言	-11.7034
只要	-11.7035
門户	-11.7036
又似	-11.7037
无一物	-11.7037
變坤為	-11.704
廣顙	-11.7043
以陰居陽	-11.7044
與初同	-11.7046
佛	-11.7049
醒	-11.7049
治家之道	-11.7049
其詞	-11.7049
蹶	-11.7049
攀	-11.705
褒	-11.705
匪寇婚媾	-11.7051
䷏(	-11.7051
邀	-11.7051
三百户	-11.7051
赫	-11.7051
夫征不復	-11.7051
疇離祉	-11.7052
直遂	-11.7052
動之微	-11.7053
六二直方大不習无不利	-11.7054
喚做	-11.7056
勿用永貞	-11.7056
䷬(	-11.7057
不節之嗟	-11.7057
當期之日	-11.7057
五之柔	-11.7057
熄	-11.7058
觀天之神道而四時不忒	-11.7058
遇合	-11.706
反復其道七日來復天行也	-11.706
孰有	-11.706
精粗	-11.7061
蹇之時用大矣哉	-11.7061
剛下柔	-11.7061
正不正	-11.7061
水氣	-11.7062
故亦曰	-11.7063
居西南	-11.7064
不明晦	-11.7064
嚮晦	-11.7064
君子於此	-11.7064
以人事言	-11.7066
比之无首	-11.7067
正北	-11.707
天命之性	-11.7073
于上則	-11.7074
麗乎正	-11.7075
随時	-11.7075
不唯	-11.7077
土地	-11.7078
八卦方位	-11.708
逆行	-11.7082
教之以	-11.7082
若此者	-11.7083
建安	-11.7084
曰悔亡	-11.7084
有其象	-11.7084
不到	-11.7086
居東北	-11.7086
九六七八	-11.7087
六四變	-11.7089
以觀其	-11.709
天地變化	-11.709
從之則	-11.7092
太陰	-11.7092
發越	-11.7092
首乾坤	-11.7093
與天合	-11.7096
係小子	-11.7096
三十五	-11.7097
文辭	-11.7099
自然之象	-11.71
知覺	-11.7101
有是象	-11.7101
鶴鳴	-11.7102
太宗	-11.7103
之𩔖是也	-11.7103
為股	-11.7103
傷財	-11.7104
所從出	-11.7104
自保	-11.7105
主敬	-11.7109
下卦之終	-11.7111
淮南	-11.7111
不能免	-11.7112
不當其位	-11.7116
汔至	-11.7116
只是這	-11.7119
而不妄	-11.7119
三陽三隂	-11.7119
有未盡	-11.7121
臨遯	-11.7122
九三以剛	-11.7122
成卦曰	-11.7124
處不當位	-11.7127
隂與陽	-11.7127
五為君	-11.7129
失其義	-11.7129
假象	-11.7131
何可長	-11.7133
時運	-11.7134
先難	-11.7134
无往不	-11.7134
晷	-11.7135
子和	-11.7135
見利	-11.7136
井泉	-11.7137
垢	-11.7137
邵子所謂	-11.714
慰	-11.714
先事	-11.7141
未占有孚	-11.7142
仲翔	-11.7142
垣	-11.7143
無息	-11.7143
有攸往夙吉	-11.7143
丙丁	-11.7144
䷃(	-11.7144
桎	-11.7144
九二九四	-11.7144
已備	-11.7145
履帝位而不疚	-11.7145
或得其桷	-11.7146
臨川吳氏曰	-11.7146
坼	-11.7146
萬國咸寧	-11.7147
䷑(	-11.7147
歸妹征凶无攸利	-11.7147
感而萬物化生聖人感人心而天下和平	-11.7147
自訟	-11.7147
晰	-11.7147
閑邪存誠	-11.7148
互相發	-11.7148
飄	-11.7149
震為長男	-11.7149
動而以順行是以出入无疾朋來无咎	-11.7149
乾為君	-11.715
立冬	-11.715
井渫不食	-11.715
澤上有地	-11.7151
傅㑹	-11.7152
之本然	-11.7152
六分	-11.7153
清濁	-11.7154
中含	-11.7155
二隂浸長	-11.7155
上下之情	-11.7155
衰世之意	-11.7155
而不流	-11.7158
艮少男	-11.7158
陽剛中正以居尊位	-11.716
因之以	-11.716
其例	-11.7161
付之	-11.7161
利出否	-11.7161
仲氏	-11.7162
提要	-11.7162
大象傳	-11.7164
外面	-11.7165
雖殊	-11.7166
運用	-11.7166
能愛	-11.7167
也其在	-11.7168
坎為險	-11.7168
未失常也	-11.7171
知崇	-11.7172
閉闗	-11.7172
顯著	-11.7175
得遂其	-11.7176
君子豹變	-11.7177
君子之所以	-11.7178
全用	-11.7178
幽隱	-11.7181
錢氏	-11.7181
祖宗	-11.7182
晝夜之道	-11.7182
可止	-11.7184
接下	-11.7189
无所不通	-11.7192
各自為	-11.7196
頻失	-11.7196
伏羲氏	-11.7198
示天下	-11.7203
則妄矣	-11.7204
九二爻	-11.7206
王肅云	-11.7208
知其不可	-11.7209
甚逺	-11.721
盡意	-11.7211
可常	-11.7212
坤為邑	-11.7213
虚其中	-11.7216
木木	-11.7218
天地之用	-11.7218
不得位	-11.722
用拯	-11.722
本義以為	-11.7221
鞏	-11.7222
䷱(	-11.7225
知進退存亡	-11.7225
舊井	-11.7225
熏	-11.7226
好動	-11.7226
沫	-11.7227
伊川說	-11.7229
䷧(	-11.7229
節飲食	-11.723
凝命	-11.7232
夫人之	-11.7232
積數	-11.7233
恭順	-11.7233
峯	-11.7234
九居二	-11.7234
隄防	-11.7235
困于金車	-11.7236
為妻	-11.7236
金石	-11.7236
謙退	-11.7237
塊	-11.7237
漠	-11.7237
天數五地數五五位相得而各有合	-11.7239
自勝	-11.724
成亹亹	-11.7241
唐太宗	-11.7241
金木水火	-11.7241
千變萬化	-11.7242
以宫人寵	-11.7243
䷆(	-11.7245
或從王事无成	-11.7245
剛柔相摩	-11.7246
困而不失其所亨	-11.7246
也又如	-11.7247
仕進	-11.7248
言聖人作易	-11.7251
不可以言	-11.7251
講習	-11.7251
博士	-11.7253
為堅多心	-11.7255
為戈兵	-11.7255
物我	-11.7261
過涉	-11.7261
議獄	-11.7262
不能固	-11.7262
失其位	-11.7263
順巽	-11.7263
多功	-11.7265
小衍	-11.7267
虚受	-11.7267
剥之時	-11.7267
其道光明	-11.727
錯然	-11.727
外明	-11.7271
太祖	-11.7271
上下无常	-11.7272
承剛	-11.7274
廣業	-11.7274
為工	-11.7276
動不窮	-11.7277
不茍	-11.7278
見險而止	-11.7279
下乘	-11.7279
疾病	-11.728
者為其	-11.728
這道理	-11.728
六甲	-11.7281
南方之卦	-11.7283
以卜筮	-11.7283
除間	-11.7284
光華	-11.7284
未寧	-11.7284
之效也	-11.7286
益民	-11.7288
女正位乎内	-11.7289
井養	-11.7289
得所安	-11.729
濡如	-11.729
未必能	-11.7292
之後受之以	-11.7293
夫妻	-11.7294
四居大臣之位	-11.7295
終吝	-11.7296
無遺	-11.7297
邪惡	-11.7298
而不遷	-11.7298
竊按	-11.7298
不薦	-11.73
隂變陽	-11.7303
止畜	-11.7303
可據	-11.7303
彖傳言	-11.7303
太柔	-11.7305
在天為	-11.7306
後得主	-11.7308
莫知所	-11.7314
萬一千	-11.7315
並立	-11.7316
䷷(	-11.7318
位正中	-11.732
天禄	-11.7321
有之矣	-11.7321
我生	-11.7322
冷	-11.7322
八純卦	-11.7323
濟否	-11.7323
指上六	-11.7323
飲食之道	-11.7324
泮	-11.7324
山髙	-11.7326
東萊	-11.7326
二耦	-11.7326
无一毫	-11.7326
二陽爻	-11.7327
熯	-11.7327
大蹇朋來	-11.7327
豪	-11.7327
駟	-11.7328
事之幹	-11.7328
串	-11.7328
右明占	-11.7328
蔡氏清曰	-11.7328
燒	-11.7329
三日不食	-11.7329
終而復始	-11.7329
菜	-11.733
有孚盈缶	-11.733
離利貞亨畜牝牛吉	-11.733
上无應	-11.7331
慨	-11.7331
二篇之䇿	-11.7331
豹變	-11.7332
公用亨于天子	-11.7332
瑕	-11.7332
厚齋馮氏曰	-11.7333
陽實隂虚	-11.7333
過於剛	-11.7333
得妾	-11.7334
民民	-11.7334
裁成輔相	-11.7335
很	-11.7335
不交則	-11.7335
履信思順	-11.7335
俟其	-11.7335
輔相天地之宜以左右民	-11.7335
徳性	-11.7335
居相應之地	-11.7336
聖人設	-11.7336
掛之一	-11.7337
以隂畜陽	-11.7337
與民同患	-11.7338
承筐	-11.734
如風之	-11.7341
八物	-11.7341
經卦	-11.7341
司徒	-11.7343
小雪	-11.7343
贊其	-11.7343
致刑	-11.7344
天下有風	-11.7346
于天子	-11.7346
功臣	-11.7346
以順為正	-11.7348
全無	-11.7349
以辟咎	-11.7351
分為二	-11.7351
自遯來	-11.7352
竭力	-11.7352
娣媵	-11.7354
君子之貞	-11.7354
西伯	-11.7355
居其位	-11.7355
即戎	-11.7356
以隂居尊	-11.7358
在下之賢	-11.7358
之當然	-11.7359
千載	-11.7361
上為首	-11.7364
上六以隂柔	-11.7365
自具	-11.7365
離為飛鳥	-11.7366
邪佞	-11.7369
喪馬	-11.7369
大雪	-11.7371
順應	-11.7375
九四變	-11.7375
无以加	-11.7377
待人	-11.7381
者然也	-11.7381
无所疑也	-11.7382
其鼻	-11.7383
又須	-11.7383
無實	-11.7384
有些	-11.7389
凡八	-11.739
風氣	-11.739
文眀	-11.7391
震之動	-11.7391
謙順	-11.7391
治安	-11.7393
亦必有	-11.7393
吉道也	-11.7394
霆	-11.7397
不可窮	-11.7398
専主	-11.74
之終始也	-11.7402
統衆	-11.7403
不通矣	-11.7405
所以繼	-11.7405
海内	-11.7409
恁	-11.7409
若是者	-11.7409
坤之上六	-11.7412
仙	-11.7413
轂	-11.7415
旌	-11.7415
一叚	-11.7419
馵足	-11.742
上下之位	-11.7421
迪	-11.7423
澤上有水	-11.7424
嚴厲	-11.7424
厚下安宅	-11.7424
王侯	-11.7425
分而為	-11.7425
彌綸天地之道	-11.7425
未為失	-11.7426
蹇利西南不利東北利見大人貞吉	-11.7426
无攸遂	-11.7427
甕敝漏	-11.7427
三人行則損一人	-11.7428
三年克之	-11.7429
一道也	-11.7429
因物	-11.743
程氏附録	-11.743
豈不大哉	-11.7431
紹興	-11.7433
清潔	-11.7434
分之則	-11.7434
无過不及	-11.7434
艮為鼻	-11.7434
經世	-11.7435
一朝	-11.7435
感而遂通天下之故	-11.7436
致孝享	-11.7436
驚懼	-11.7438
正法	-11.7438
揲右	-11.7439
烏得	-11.7439
徒知	-11.7442
變坎為	-11.7443
言致一也	-11.7443
有孚中行	-11.7444
不聽	-11.7445
坤之順	-11.7445
潔齊	-11.7446
足以有為	-11.7446
應於四	-11.7448
比於五	-11.7449
其弊	-11.7455
至著	-11.7455
變氣	-11.7458
世界	-11.7459
居其中	-11.746
小星	-11.746
受刑	-11.746
夫是之謂	-11.746
剛中之賢	-11.7463
厚薄	-11.7463
大人之徳	-11.7464
聖心	-11.7466
乾之四徳	-11.7467
五以柔	-11.7469
物之性	-11.747
於地中	-11.7471
姤卦	-11.7471
其形渥	-11.7472
如舜	-11.7472
周公爻辭	-11.7473
與之相	-11.7474
之常理	-11.7477
九二變	-11.7477
恒亨无咎利貞	-11.7479
欲人之	-11.748
下民之	-11.7483
生六子	-11.7485
誰與	-11.7486
徒行	-11.7486
向來	-11.7486
得其道則	-11.7486
以陽居陰	-11.7488
天下萬事	-11.7491
俞氏曰	-11.7491
正對	-11.7492
圓而	-11.7493
動於下	-11.7493
三變成	-11.7493
无係應	-11.7495
尤甚	-11.7495
難既解	-11.75
道之常	-11.7501
解釋	-11.7504
縫	-11.7507
稱物	-11.7509
莫不由	-11.7509
太少	-11.751
姻	-11.7511
盛長	-11.7511
朱子發	-11.7512
西南坤	-11.7512
渺	-11.7512
䜛	-11.7514
噬膚滅鼻	-11.7515
同人于門	-11.7515
我仇有疾	-11.7516
揣	-11.7517
九四或躍在淵无咎	-11.7517
搜	-11.7517
二百一十六	-11.7517
昊	-11.7517
凱	-11.7518
喪其童僕	-11.7518
男正位乎外	-11.7518
進以正	-11.7518
載鬼一車	-11.7519
足以長人	-11.7519
冺	-11.7519
龍蛇	-11.752
其血𤣥黄	-11.752
九二見龍在田利見大人	-11.752
當萬物之數	-11.752
荀九家有為	-11.7521
朝覲	-11.7521
忌憚	-11.7521
謂四也	-11.7522
賞罰	-11.7522
所以斷	-11.7523
六爻之義易以貢	-11.7524
脩徳	-11.7524
婦人之道	-11.7524
六爻之動三極之道也	-11.7525
无所歸咎	-11.7525
中心得	-11.7525
隂柔不能	-11.7525
鳴鶴在隂其子和之我有好爵吾與爾靡	-11.7526
必決	-11.7527
伊川先生	-11.7528
舊解	-11.7529
所固有	-11.7529
兊巽	-11.753
不息之貞	-11.7532
當如是也	-11.7533
乾九三	-11.7534
王天下	-11.7535
六五之吉	-11.7536
極好	-11.754
如木之	-11.7541
動之極	-11.7546
且夫	-11.7549
衣服	-11.7552
剝牀	-11.7552
温公	-11.7552
蓍法	-11.7552
反下同	-11.7555
為作足	-11.7556
最大	-11.7557
為長子	-11.7557
受其福	-11.7558
於人為	-11.7559
虞翻謂	-11.7559
承家	-11.7564
趙汝楳	-11.7565
厲吉	-11.7567
不悟	-11.7567
天下之至動	-11.757
荅曰	-11.7573
太甚	-11.7574
内三爻	-11.7578
千九百	-11.7579
為何如	-11.758
耦畫	-11.7584
變例	-11.7585
專制	-11.7585
難見	-11.7589
乾之上九	-11.759
比輔	-11.7592
久而不	-11.7592
止水	-11.7593
庶政	-11.7593
其誠意	-11.7595
其本心	-11.7596
並無	-11.7599
知其非	-11.76
隂之長	-11.7603
雌	-11.7605
止於上	-11.7606
彖詞	-11.7606
𫉬吉	-11.7607
泊	-11.7607
既往	-11.7607
剛果	-11.7608
自下訟上	-11.7608
腸	-11.7609
肝	-11.7609
觀此則	-11.761
猥	-11.761
至暗	-11.761
未免於	-11.761
翳	-11.7611
䷸(	-11.7611
山上有木	-11.7612
佃	-11.7612
成變化而行鬼神	-11.7612
雷雨之動滿盈	-11.7613
而治之	-11.7614
丘行可曰	-11.7614
升虛邑	-11.7614
獨行遇雨	-11.7614
艮其背不獲其身行其庭不見其人无咎	-11.7614
呼吸	-11.7614
係小子失丈夫	-11.7615
大人虎變	-11.7615
莫甚焉	-11.7615
觀其所恒而天地萬物之情可見矣	-11.7615
童子	-11.7616
不爭	-11.7618
飛龍在天大人造也	-11.7619
張弧	-11.762
在北	-11.762
天地以順動故日月不過而四時不忒	-11.762
汲而	-11.7625
蒙大難	-11.7626
羣疑	-11.763
水流而不盈	-11.763
䷂(	-11.763
有他吉	-11.7632
應在四	-11.7632
至賾	-11.7633
所任	-11.7636
説諸心	-11.7637
五應二	-11.7637
錯離	-11.7639
取其象	-11.7641
初六隂柔	-11.7642
商度	-11.7646
重震	-11.7647
等夷	-11.7647
卷七	-11.7647
所以居業	-11.7648
不曾	-11.7649
錫馬	-11.765
稱大人	-11.7651
不慮	-11.7652
命將	-11.7652
乖異	-11.7653
國語	-11.7653
朋從	-11.7654
朋來无咎	-11.7655
變離為	-11.7657
四千九十六卦	-11.7657
後天八卦	-11.7658
已日乃革之	-11.7665
敎人	-11.7666
其所守	-11.7667
可久之道	-11.7668
則無以	-11.7668
變為陽	-11.7669
德之盛	-11.7674
敬畏	-11.7675
一百八十	-11.7676
萬物之始	-11.7677
繼善	-11.7679
級	-11.768
一而已矣	-11.7681
當此時	-11.7683
上九變	-11.7684
順數	-11.7687
有大小	-11.7688
坤之徳	-11.7691
因卦	-11.7691
三多凶	-11.7695
鴈	-11.7699
叠	-11.77
錯坎	-11.7701
番	-11.7703
三以剛居剛	-11.7704
尉	-11.7705
孰甚焉	-11.7706
匪夷所思	-11.7706
藝文志	-11.7707
頤中有物曰噬嗑	-11.7707
侔	-11.7708
旅于處	-11.7708
於東南	-11.7709
當渙之時	-11.7709
取類	-11.7709
料	-11.771
而為巽	-11.771
一卦之體	-11.771
匪躬	-11.7711
爵禄	-11.7711
闊	-11.7711
特立	-11.7712
䷳(	-11.7712
窮則變變則通	-11.7713
兢	-11.7714
夔	-11.7715
者正以	-11.7715
等謹案	-11.7715
先甲三日後甲三日終則有始天行也	-11.7715
居中履正	-11.7716
道義之門	-11.7716
八卦相盪	-11.7716
自牖	-11.7717
潛龍勿用陽在下也	-11.7717
山陽王氏曰	-11.7717
之途	-11.7718
姤遇也	-11.772
之君子也	-11.772
未萌	-11.772
䷲(	-11.772
卦徳卦體	-11.7721
假至也	-11.7723
明罰	-11.7724
流動	-11.7728
履危	-11.7729
所以告	-11.7729
一卦之主	-11.7734
小象曰	-11.7737
旅貞吉	-11.7738
小人弗克	-11.7739
豫樂	-11.774
久照	-11.774
天地設位而易行乎其中矣	-11.7742
也卦變為	-11.7743
係丈夫	-11.7743
省察	-11.7743
故戒之以	-11.7743
為赤	-11.7744
正志	-11.775
果能	-11.775
氣候	-11.7753
終不可長	-11.7754
除去	-11.7755
持盈	-11.7755
趙汝楳曰	-11.7758
茍合	-11.7759
得亨通	-11.776
天地萬物之情可見	-11.7761
大人之事	-11.7761
安宅	-11.7761
相值	-11.7761
苟无	-11.7765
惑亂	-11.7766
只用	-11.7767
發育	-11.7768
故名為	-11.7768
有孚之象	-11.7769
伊川云	-11.7771
互震為	-11.7772
先天之學	-11.7773
矣而猶	-11.7775
此二爻	-11.7779
故利涉大川	-11.7779
坎為血卦	-11.7781
為加憂	-11.7782
失上下	-11.7783
屯膏	-11.7785
上逮	-11.7787
行鬼神	-11.7788
篆	-11.7788
鼎象也	-11.7789
未悖	-11.7791
乗陽	-11.7791
一爻變	-11.7793
敬仲	-11.7795
為大臣	-11.7795
齎	-11.7799
三十四卦	-11.78
譌	-11.78
䙝	-11.7801
王用亨于西山	-11.7801
摹	-11.7803
界限	-11.7803
禹稷	-11.7804
揲左	-11.7804
王臣蹇蹇	-11.7804
斵	-11.7804
勿用有攸徃	-11.7805
未濟亨小狐汔濟濡其尾无攸利	-11.7806
不可惡	-11.7806
吳草廬曰	-11.7806
揲之以四	-11.7807
渙王居	-11.7807
陰氣	-11.7808
剛來而不窮	-11.7808
柔得中而上行雖不當位利用獄也	-11.7809
无所徃	-11.7809
含章可貞	-11.7809
中庸所謂	-11.7809
物畜然後有禮故受之以履	-11.7809
赤子之心	-11.781
民之心	-11.7811
冥豫	-11.7811
六五帝乙歸妹以祉元吉	-11.7811
天與火	-11.7812
文明以健中正而應君子正也	-11.7812
唯聖人	-11.7812
弟夫夫婦婦而家道正正家而天下定矣	-11.7813
何自而	-11.7813
劉絢	-11.7813
焦氏	-11.7813
言不勝其任也	-11.7813
數度	-11.7814
極天下之賾者存乎卦	-11.7815
與人同者物必歸焉故受之以大有	-11.7815
仁者見之謂之仁知者見之謂之知	-11.7816
懼以終始	-11.7816
小人革面	-11.7816
惟恐其	-11.7817
已發	-11.7818
五君也	-11.7822
以治之	-11.7823
竒畫	-11.7827
明以動	-11.7827
四陽二隂	-11.7829
私邑	-11.783
初之四	-11.7831
羝羊觸藩羸其角	-11.7831
三十四	-11.7832
為大吉	-11.7832
家國	-11.7834
一隅	-11.7834
費直	-11.7835
四十四	-11.7836
下順從	-11.7837
渉險	-11.7837
不爽	-11.7838
五刑	-11.7841
自天子	-11.7842
精㣲	-11.7845
嫌疑	-11.785
可考	-11.785
乾之初	-11.7852
各隨	-11.7853
士大夫	-11.7854
位不當者	-11.7855
酌損	-11.7857
常度	-11.7858
可以无悔	-11.7858
於此乎	-11.7859
易林	-11.7859
重門	-11.7861
九三之剛	-11.7861
柔順利貞	-11.7862
直指	-11.7862
不忒	-11.7864
三五皆	-11.7864
所不容	-11.7866
亦自有	-11.7867
重艮	-11.787
也朱子發曰	-11.787
坤西南	-11.7871
彰往	-11.7872
外篇	-11.7874
十九年	-11.7878
損損	-11.7879
貞貞	-11.788
上下二篇	-11.7882
相換	-11.7882
而况於	-11.7882
用其剛	-11.7884
賁其須	-11.7888
五與四	-11.7889
取禍	-11.789
漸次	-11.7891
所當然	-11.7894
親賢	-11.7894
隂剥陽	-11.7894
上下二陽	-11.7895
辟卦	-11.7895
之可言	-11.7898
初揲	-11.79
婉	-11.79
䷹(	-11.79
㨿	-11.7901
昇	-11.7902
遮	-11.7902
有孚惠心	-11.7902
志未平	-11.7905
山下有澤	-11.7905
李仲永曰	-11.7905
頒	-11.7905
玩味	-11.7905
王景孟曰	-11.7907
聖人作而萬物覩	-11.7907
胡一桂	-11.7908
先甲三日後甲三日	-11.7908
骨肉	-11.7908
縕	-11.7908
柔麗乎中正故亨是以畜牝牛吉也	-11.7909
告之以	-11.7909
棟宇	-11.7909
泣血	-11.7909
原筮元永貞无咎以剛中也	-11.7909
大君有命	-11.7909
自邑告命	-11.7909
何往不	-11.791
以合禮利物足以和義貞固足以幹事	-11.791
資之以	-11.791
有天地然後有萬物有萬物然後有男女	-11.7913
伏犧	-11.7913
》、	-11.7913
中原	-11.7915
右第一章	-11.7915
物不可窮也故受之以未濟終焉	-11.7915
消不久	-11.7915
乾坤之道	-11.7917
五十六卦	-11.7918
四季	-11.7918
過柔	-11.792
為小人謀	-11.792
動其心	-11.7921
宴安	-11.7921
來知徳曰	-11.7922
不留獄	-11.7923
初二三	-11.7924
足以見	-11.7924
以濟其	-11.7927
法制	-11.793
巽東南	-11.7931
上九自天祐之吉无不利	-11.7933
喪失	-11.7937
周孔	-11.7937
天地日月	-11.794
大中之道	-11.7941
千八百	-11.7946
如唐	-11.7946
位不正	-11.7947
六十二卦	-11.7948
天下之至健	-11.7949
重習	-11.7949
成賁	-11.7949
新民	-11.7949
初陽在下	-11.7952
四五皆	-11.7953
君子觀其象	-11.7953
古語	-11.7956
困蒙	-11.7958
難曉	-11.7958
節齋	-11.7959
而論則	-11.7959
興利	-11.796
說而動	-11.796
未當位	-11.7961
陰陰	-11.7963
以貞為	-11.7964
遯大壯	-11.7965
敦化	-11.7968
鬼神之情狀	-11.7968
兩截	-11.797
者陽也	-11.7971
宋人	-11.7971
只是要	-11.7971
志末	-11.7972
之象也夫	-11.7974
乾坤之體	-11.7977
其中有	-11.7977
初居下	-11.7981
政令	-11.7981
指二五	-11.7981
生八卦	-11.7982
孰知	-11.7983
文勢	-11.7983
九五在上	-11.7983
來求	-11.7984
陽陷	-11.799
車馬	-11.799
止而不行	-11.7991
物之情	-11.7992
道已成	-11.7992
變震為	-11.7993
文炳	-11.7994
衎衎	-11.7994
志氣	-11.7994
枚	-11.7997
介乎	-11.7999
亊	-11.7999
得其人	-11.7999
難明	-11.7999
抄	-11.8
鼎元吉亨	-11.8
慿	-11.8
脅	-11.8001
坊	-11.8002
凉	-11.8002
潜龍勿用	-11.8002
懋	-11.8003
之貎	-11.8003
邵康節	-11.8003
汪	-11.8003
固志	-11.8004
水火相逮	-11.8004
陽也陽	-11.8004
蒙亨匪我求童蒙童蒙求我	-11.8005
千五百	-11.8005
空虚	-11.8006
天命之謂性	-11.8006
何哉曰	-11.8006
貞吉升階	-11.8006
乾之九二	-11.8007
豐亨王假之勿憂宜日中	-11.8007
大哉乾乎剛健中正純粹精也	-11.8007
作事謀始	-11.8007
歸妹以須	-11.8008
包无魚	-11.8008
一竒一耦	-11.8008
知者觀其彖辭則思過半矣	-11.8008
躋于九陵	-11.8008
惻隱	-11.8008
甲寅	-11.8009
冩	-11.801
不恒其德	-11.801
兼三才而兩之故易六畫而成卦	-11.8011
制數度	-11.8012
右第二章	-11.8013
坤以藏之	-11.8013
過而不過	-11.8013
易之緼	-11.8014
處困之道	-11.8015
㝠豫	-11.8016
巽為長女	-11.8018
二以中正	-11.8022
常分	-11.8022
成天下之亹亹	-11.8022
致冦至	-11.8023
鮮不	-11.8023
虚實	-11.8024
餘從程氏	-11.8025
扶陽抑隂	-11.8027
錯艮	-11.8028
所具	-11.8031
說文云	-11.8032
兌體	-11.8033
止而麗乎明	-11.8034
不掛	-11.8034
語類	-11.8035
復其見天地之心乎	-11.8035
難通	-11.8035
直内	-11.8036
之奥	-11.8038
理之正	-11.8038
之有哉	-11.8041
得童僕貞	-11.8042
大寒	-11.8049
文王之彖	-11.805
從口	-11.805
以質言	-11.8051
安其分	-11.8053
本乎天	-11.8053
位髙	-11.8055
不失其常	-11.8056
四千九十六	-11.8057
六畫之卦	-11.8057
六五爻	-11.8059
腹心	-11.8061
化邦	-11.8061
人傑	-11.8064
得其心	-11.8067
章首	-11.8068
六五之柔	-11.8071
為閽寺	-11.8071
貨財	-11.8071
剛克	-11.8072
待時而	-11.8072
正南	-11.8073
謂之變	-11.8073
益深	-11.8073
高下	-11.8075
顙	-11.8081
太剛	-11.8082
大雅	-11.8086
蕃庶	-11.8089
守成	-11.809
之象其占	-11.8091
所存者	-11.8092
呉氏	-11.8094
慧	-11.8095
兊兊	-11.8095
孔氏穎達曰	-11.8097
盛滿	-11.8098
曹操	-11.8098
處險之道	-11.8099
鬬	-11.8099
雲上于天	-11.81
辦	-11.8101
初九履錯然敬之无咎	-11.8101
壬癸	-11.8102
㨗	-11.8102
柴	-11.8102
信及豚魚	-11.8103
覬	-11.8103
一元之	-11.8103
參伍以變	-11.8104
自二至上	-11.8104
四時不忒	-11.8105
大過顛也	-11.8105
夬揚于王庭孚號有厲	-11.8105
制器尚象	-11.8106
駁馬	-11.8106
十篇	-11.8106
初九无交害匪咎艱則无咎	-11.8106
乾道變化各正性命	-11.8107
四與初為正應	-11.8107
寒泉之食中正也	-11.8108
天地交而萬物通也上下交而其志同也	-11.8108
代謝	-11.8108
九三幹父之蠱小有悔无大咎	-11.8109
禍福之	-11.8109
與四時合其序與鬼神合其吉凶	-11.811
坤至柔而動也剛	-11.811
九五王假有家勿恤吉	-11.811
終日乾乾反復道也	-11.811
上九有孚威如終吉	-11.811
有男女然後有夫婦有夫婦然後	-11.8111
鼎折足	-11.8112
乎天文以察時變觀乎人文以化成天下	-11.8113
無所用	-11.8113
管蔡	-11.8114
二陽浸長	-11.8118
天下有山	-11.8123
撰下經	-11.8123
怙終	-11.8123
朱義	-11.8124
氣交	-11.8126
不接	-11.8131
上九一爻	-11.8139
地八	-11.8142
楚子	-11.8142
化生萬物	-11.8143
之生也	-11.8145
去做	-11.8149
不逮	-11.8153
與上合志	-11.8156
百慮	-11.8156
文王繫	-11.8157
一百六十	-11.8158
未盛	-11.8158
及天下	-11.8159
君子之正道	-11.816
而无間	-11.816
而動者也	-11.8162
四與初應	-11.8164
覆載	-11.8164
無偏	-11.8166
通暢	-11.8169
君子觀此	-11.817
乾純陽	-11.8173
善類	-11.8173
繫詞	-11.8174
隂從陽	-11.8175
豫備	-11.8176
易之取象	-11.8177
此爻變	-11.8179
靜止	-11.818
比卦	-11.8181
不可恃	-11.8182
其故何也	-11.8183
為美脊	-11.8184
剛中之德	-11.8184
天下莫不	-11.8184
泛言	-11.8185
近君之位	-11.8188
董氏	-11.8189
柔乗剛	-11.8191
前趾	-11.8191
麥	-11.8194
黔	-11.8194
凑	-11.8197
佩	-11.8198
駢	-11.8198
不滯	-11.8199
以陽處隂	-11.8199
容民畜衆	-11.8199
不禦	-11.8199
上經首乾坤	-11.82
庵	-11.8201
繡	-11.8201
何𤣥子曰	-11.8202
辜	-11.8202
聯	-11.8203
捐	-11.8203
執其隨	-11.8203
訓詁	-11.8204
豁	-11.8204
弗克違	-11.8205
初六不永所事小有言終吉	-11.8205
九二履道坦坦幽人貞吉	-11.8206
險且枕	-11.8206
六二或益之十朋之龜弗克違永貞吉	-11.8206
辭變象占	-11.8206
順天休命	-11.8207
天造草昧	-11.8207
剛中而柔外	-11.8207
觀盥而不薦有孚顒若下觀而化也	-11.8207
未濟男之窮也	-11.8207
明夷利艱貞	-11.8207
六二王臣蹇蹇匪躬之故	-11.8208
行有嘉	-11.8208
天道虧盈而益謙地道變盈而流謙	-11.8208
陳摶	-11.8209
嘖	-11.8209
觀其自養	-11.821
在天成象在地成形變化見矣	-11.821
憫	-11.821
或躍在淵進无咎也	-11.821
柔進而上行得中而應乎剛是以元亨	-11.8211
不養則不可動故受之以大過	-11.8211
自臨來	-11.8211
右第七章	-11.8211
出可以守宗廟社稷以為祭主也	-11.8212
右第八章	-11.8212
洊至	-11.8213
河圗洛書	-11.8213
値	-11.8214
右第三章	-11.8214
億兆	-11.8214
右第五章	-11.8214
成象之謂乾效法之謂坤	-11.8215
柔脆	-11.8215
十有六	-11.8215
健而巽剛中而志行乃亨	-11.8216
火性	-11.8216
言語飲食	-11.8216
陷于險	-11.8216
无𤯝	-11.8217
大有之時	-11.8218
謙尊而光	-11.8219
為祭主	-11.8219
故其象占	-11.822
黄金	-11.8221
昏迷	-11.8222
艮土	-11.8223
天下之善	-11.8225
重剛而不中	-11.8227
不啻	-11.8227
天地男女	-11.8228
故无攸利	-11.8228
言之耳	-11.8228
來兊	-11.8231
震動之極	-11.8231
有先後	-11.8233
蜀才作	-11.8233
上下二隂	-11.8234
弗敢	-11.8235
思過半矣	-11.8235
修業	-11.8239
當豫之時	-11.8242
忠臣	-11.8243
歸咎	-11.8245
占決	-11.8246
見沬	-11.8249
賔主	-11.825
坎在下	-11.826
宋衷	-11.826
厚之至也	-11.8261
五色	-11.8263
求比	-11.8263
五居君位	-11.8267
設敎	-11.8267
晦明	-11.8268
威福	-11.8271
主張	-11.8275
君子之志	-11.8279
不遽	-11.8292
一一二	-11.8293
所掩	-11.8293
箋	-11.8297
意氣	-11.8298
稻	-11.8298
桃	-11.8298
舎車而徒	-11.8298
困亨貞大人吉无咎有言不信	-11.8299
絳	-11.83
先庚三日	-11.83
而不疑	-11.8301
好事	-11.8302
後庚三日	-11.8302
婦孕不育	-11.8303
張舜元曰	-11.8305
擔	-11.8305
小人得志	-11.8305
六五或益之十朋之龜弗克違元吉	-11.8306
私情	-11.8306
叔孫	-11.8306
直其正也方其義也	-11.8306
敬慎不敗	-11.8306
壯于前趾	-11.8306
奔其机	-11.8306
數語	-11.8306
說輹	-11.8307
變體為	-11.8307
革已日乃孚元亨利貞悔亡	-11.8307
雷電皆至	-11.8307
五嵗再閏	-11.8307
陸德明	-11.8308
上六大君有命開國承家小人勿用	-11.8308
到極處	-11.8308
亨貞	-11.8308
噬而嗑	-11.8309
勸相	-11.8309
一動一静	-11.8309
上下交而其志同	-11.8309
行險而順	-11.831
九四歸妹愆期遲歸有時	-11.831
者乾也	-11.831
是故居上位而不驕在下位而不憂	-11.831
懇	-11.831
之本體異焉	-11.831
緯書	-11.8311
䆒	-11.8311
升元亨用見大人勿恤南征吉	-11.8311
剛上而尚賢能止健大正也	-11.8312
不出戸庭	-11.8312
孔安國	-11.8312
澤澤	-11.8312
此一章	-11.8313
成位乎其中	-11.8313
剛失位而不中是以不可大事也	-11.8313
有大者不可以盈故受之以謙	-11.8313
往得中	-11.8313
故象言	-11.8314
所居而安	-11.8314
卦變自	-11.8314
大綱	-11.8314
大易粹言	-11.8315
右第六章	-11.8316
右第四章	-11.8317
䷦(	-11.8317
漢髙	-11.8318
喪貝	-11.832
二居中	-11.8321
豚魚吉	-11.8322
仲春	-11.8323
於西北	-11.8323
天地養萬物	-11.8325
地之下	-11.8325
静止	-11.8328
乾之剛	-11.8329
最處	-11.8331
侯果	-11.8333
上下内外	-11.8333
深切	-11.8334
不失其中	-11.8335
為婚媾	-11.8337
畜賢	-11.8338
往吉无不利	-11.8339
卷一	-11.8341
道成矣	-11.8343
五陽一隂	-11.8345
理之所	-11.8346
在下卦之下	-11.8348
居其所而	-11.8348
從革	-11.8349
勿用取	-11.8349
坎在上	-11.8349
僅得	-11.8353
分辨	-11.8355
期于	-11.8356
方雨	-11.8359
於神明	-11.8361
親近	-11.8365
謙恭	-11.837
過渉	-11.8373
有亨之道	-11.8375
成兌	-11.8378
明卦義	-11.8381
便都	-11.8384
建子	-11.8384
能載	-11.8385
居无位之地	-11.8387
以上皆	-11.8388
乃終有慶	-11.8389
離為明	-11.8391
韓信	-11.8392
之善者也	-11.8392
居得其正	-11.8395
文王卦辭	-11.8395
時之宜	-11.8396
矣故吉	-11.8397
無害	-11.8398
翰如	-11.8399
无不備	-11.8399
威震	-11.8402
朢	-11.8403
逓	-11.8403
告子	-11.8404
湯武革命	-11.8404
旤	-11.8405
黔喙之屬	-11.8405
需于沙	-11.8405
皥	-11.8406
捷	-11.8406
乃徐有説	-11.8406
邑人三百户	-11.8406
富以其隣	-11.8407
麤	-11.8407
秦漢	-11.8407
宄	-11.8408
王秋山曰	-11.8408
損有孚元吉无咎可貞利有攸往	-11.8408
動衆	-11.8408
未開	-11.8409
此聖人所以	-11.8409
羸其角	-11.8409
得妾以其子	-11.8409
初六進退利武人之貞	-11.841
掲	-11.841
斃	-11.841
愬	-11.841
九五貞吉悔亡无不利无初有終先庚三	-11.841
應乎上	-11.841
告自邑不利即戎利有攸往	-11.8411
艮為門	-11.8412
九四好遯君子吉小人否	-11.8412
議徳行	-11.8412
君子之器	-11.8412
九二幹母之蠱不可貞	-11.8412
未判	-11.8413
退藏於密	-11.8413
懿文徳	-11.8413
窒惕	-11.8413
九三勞謙君子有終吉	-11.8413
上古結繩而治後世聖人易之以書契	-11.8414
劉歆	-11.8414
山上有澤	-11.8414
六二无攸遂在中饋貞吉	-11.8414
初與四為正應	-11.8415
柔進而上行得中而應乎剛是以小事吉	-11.8415
胡安定	-11.8415
㣲子	-11.8415
已日乃孚革而信之	-11.8415
大有柔得尊位大中而上下應之曰大有	-11.8416
柔皆順乎剛	-11.8416
萃亨王假有廟利見大人亨利貞	-11.8416
九五无妄之疾勿藥有喜	-11.8417
明傷	-11.8417
物不可以終否故受之以同人	-11.8417
六五貞疾恒不死	-11.8417
滯於	-11.8419
以六居四	-11.8419
知變化之道	-11.8419
以隂居剛	-11.8423
剛在下	-11.8426
聦明	-11.8426
有心於	-11.8426
履得其位	-11.8428
能斷	-11.843
雷風相薄水火不相射八卦相錯	-11.843
天下之公	-11.8432
過其祖	-11.8432
狐疑	-11.8433
无應於上	-11.8433
二五剛中	-11.8434
艱則无咎	-11.8435
事親	-11.8435
處置	-11.8435
正西	-11.8437
陽儀	-11.8437
極其數	-11.8438
雖過而	-11.8438
之所聚	-11.8441
自蔽	-11.8442
五嵗	-11.8443
為溝瀆	-11.8445
陽為實	-11.8445
而不可解	-11.8446
出地上	-11.8449
弑君	-11.845
彖之所謂	-11.8453
蓍卦之	-11.8455
當其可	-11.8456
雖小有言	-11.8456
方以知	-11.8456
龜筮	-11.8459
隂陽二氣	-11.846
與五應	-11.846
同乎人	-11.8465
不出乎	-11.8466
治蠱之道	-11.8467
顧慮	-11.8468
此條	-11.8471
不及其君	-11.8472
備豫	-11.8474
兩爻皆	-11.8474
晦藏	-11.8475
尚存	-11.8476
乾之徳	-11.848
隂為小	-11.848
觀玩	-11.8481
大有之世	-11.8482
見于外	-11.8483
孰謂	-11.8484
用而柔	-11.8488
豈復有	-11.8494
使天下之人	-11.8496
乘木	-11.8498
不勝其任	-11.8498
勝其任	-11.8499
謹慎	-11.8499
咸其輔頰舌	-11.8504
之咎也	-11.8505
憎	-11.8505
自牧	-11.8506
糧	-11.8506
受服	-11.8507
多吉	-11.8507
坎之險	-11.8508
召公	-11.8508
嘘	-11.8508
方以類聚物以羣分	-11.8509
為純乾	-11.851
節度	-11.8511
燄	-11.8511
梯	-11.8511
不安於	-11.8511
莅衆	-11.8511
九三賁如濡如永貞吉	-11.8512
杪	-11.8512
六三噬腊肉遇毒小吝无咎	-11.8513
財成輔相	-11.8513
公用射隼	-11.8513
臨元亨利貞至于八月有凶	-11.8514
六二包承小人吉大人否亨	-11.8514
𠖇	-11.8514
知進而不知退	-11.8514
濳龍勿用	-11.8515
直方大不習无不利則不疑其所行也	-11.8515
出門同人	-11.8515
享于帝	-11.8515
遥	-11.8516
三百有六十	-11.8516
山上有水	-11.8516
裒多益寡	-11.8516
九四豐其蔀日中見斗遇其夷主吉	-11.8516
蕩蕩	-11.8516
開口	-11.8516
六三三人行則損一人一人行則得其友	-11.8517
九五大人虎變未占有孚	-11.8517
知險知阻	-11.8517
羝羊觸藩不能退不能遂无攸利艱則吉	-11.8517
錯震	-11.8517
從一而終也夫子制義從婦凶也	-11.8517
初登于天照四國也後入于地失則也	-11.8518
庚辛	-11.8518
通乎晝夜之道而知	-11.8518
其至矣乎	-11.8518
止而不動	-11.8518
初九官有渝貞吉出門交有功	-11.8518
為小石	-11.8519
地上有水	-11.8519
初六井泥不食舊井无禽	-11.8519
以此毒天下而民從之吉又何咎矣	-11.8519
利用為大作	-11.8519
細玩	-11.8519
天險不可升也地險山川丘陵也	-11.852
大扺	-11.852
震一索而得男故謂之長男	-11.852
初六童觀小人无咎君子吝	-11.8521
六二過其祖遇其妣不及其君遇其臣	-11.8521
生生不已	-11.8524
養育	-11.8524
窮大者必失其居故受之以旅	-11.8524
吉凶者貞勝者也	-11.8525
􁀉􁀉	-11.8525
九四臀无膚其行次且	-11.8525
小人之害	-11.8527
况於人乎	-11.8528
漸之進	-11.8528
順乎天而應乎人	-11.853
九三過剛不中	-11.8534
斯時	-11.8534
撰上經	-11.8534
分配	-11.8535
為毁折	-11.8536
井渫	-11.8536
剛勝	-11.8536
周徧	-11.8536
初未嘗	-11.8538
艮背	-11.854
沙隨	-11.8546
之生數	-11.8546
文王箕子	-11.8548
積善之家必有餘慶	-11.855
亦不可以	-11.8551
第二章	-11.8556
志大行	-11.8557
止而説	-11.8558
各得其分	-11.8559
大牲	-11.8559
心惻	-11.8565
典禮繫辭焉以斷其吉凶是故謂之爻	-11.8566
剛亢	-11.8567
之本意	-11.857
離為牛	-11.857
六三變	-11.8574
兌金	-11.8575
千百	-11.8575
食貨	-11.8575
為臭	-11.8581
入穴	-11.8581
係累	-11.8588
威權	-11.8588
何往而不	-11.8591
便不是	-11.8594
有剛明之才	-11.8595
人為之	-11.8595
錯綜其數	-11.8598
髙陵	-11.8599
自恃其	-11.86
最切	-11.86
化裁	-11.86
初六變	-11.8601
二陽之卦	-11.8602
不屑	-11.8604
卦之爻	-11.8605
鄙吝	-11.8606
聲聞	-11.8607
田獲三狐	-11.8609
右明象	-11.8611
履謙	-11.8611
☵	-11.8611
化育之功	-11.8612
咸其拇	-11.8612
坎為血	-11.8612
不速之客	-11.8613
渙有丘	-11.8613
其所欲	-11.8613
在本爻以隂變陽為	-11.8614
☰	-11.8614
彷彿	-11.8614
飯	-11.8615
縦	-11.8615
騎	-11.8615
愎	-11.8615
過以相與	-11.8617
殺身	-11.8617
天地生物	-11.8617
自三至五	-11.8617
行於天下	-11.8617
俎	-11.8618
而然也	-11.8618
干戈	-11.8618
作聖之功	-11.8618
六二引吉无咎孚乃利用禴	-11.8619
畋	-11.8619
溉	-11.862
九二在師中吉无咎王三錫命	-11.862
三嵗不孕	-11.862
上剛下險	-11.862
見大人則	-11.8621
行險而不失其信	-11.8621
晝日三接	-11.8621
至于十年不克征	-11.8622
孔聖	-11.8622
用行師終有大敗以其國君凶	-11.8622
禠	-11.8623
謙尊而光卑而不可踰君子之終也	-11.8623
九五曰飛龍在天利見大人	-11.8623
其初難知其上易知本末也	-11.8624
革水火相息二女同居其志不相得曰革	-11.8624
無敢	-11.8624
初九鞏用黄牛之革	-11.8624
起凶	-11.8625
易之興也	-11.8625
右第九章	-11.8626
隂陽消息	-11.8626
有大而能謙必豫故受之以豫	-11.8627
於其上	-11.8627
柔懦	-11.8627
楊氏時曰	-11.8628
送死	-11.8628
震為龍	-11.8628
六五一爻	-11.863
堅確	-11.8631
自乾來	-11.8633
惡積	-11.8634
二五得中	-11.8636
從禽	-11.8636
第六章	-11.8637
復亨剛反	-11.8637
宜有咎	-11.8637
各安其	-11.8638
怨尤	-11.8638
不宜上宜下大吉上逆而下順也	-11.864
北辰	-11.8641
賁亨	-11.8641
齊桓	-11.8643
内卦之中	-11.8644
係戀	-11.8648
王氏曰	-11.8648
祭享	-11.865
隂陽相薄	-11.8651
當困之時	-11.8652
扶持	-11.8652
當大有之時	-11.8655
不足道	-11.8655
分布	-11.8663
剥落	-11.8664
輔助	-11.8664
與天地同	-11.8667
何者為	-11.867
三軍	-11.8671
所列	-11.8676
勿用師	-11.8676
私係	-11.8677
所以亨者	-11.8678
者五也	-11.8682
革革	-11.8683
先號咷	-11.8684
者四也	-11.8686
蠱壊	-11.869
為所畜	-11.8695
動之始	-11.8698
在師中	-11.87
生兩儀	-11.8703
憂樂	-11.8708
敵剛	-11.8708
戰國	-11.8712
餘爻	-11.8712
耄	-11.8712
上下篇	-11.8713
倚伏	-11.8714
一箇道理	-11.8714
天人合一	-11.8716
僚	-11.8716
嘉之㑹	-11.8717
去逖出	-11.8717
賈誼	-11.8719
瑩	-11.872
齎咨	-11.872
自昭明徳	-11.8721
捕	-11.8721
萬二千	-11.8722
九二咸臨吉无不利	-11.8722
中以行願	-11.8723
六五射雉一矢亡終以譽命	-11.8723
終止則亂	-11.8724
利有攸往終則有始也	-11.8725
卦爻之變	-11.8725
恒亨无咎利貞利有攸往	-11.8725
柔上而剛下	-11.8725
爼	-11.8726
包荒得尚于中行以光大也	-11.8726
六五出涕沱若戚嗟若吉	-11.8726
卑而不可踰	-11.8726
相見乎離	-11.8726
莊氏	-11.8726
許嫁	-11.8726
暨	-11.8727
六爻發揮旁通情也	-11.8727
初六幹父之蠱有子考无咎厲終吉	-11.8727
六四損其疾使遄有喜无咎	-11.8727
火在水上	-11.8727
徳合无疆	-11.8727
六二介于石不終日貞吉	-11.8727
俄	-11.8728
屯䝉	-11.8728
初六師出以律否臧凶	-11.8728
飛龍在天上治也	-11.8728
其稱名也雜而不越	-11.8729
九五屯其膏小貞吉大貞凶	-11.8729
愛惡相攻	-11.873
鬼神害盈而福謙人道惡盈而好謙	-11.873
上六震索索視矍矍征	-11.873
榮辱	-11.8731
上九視履考祥其旋元吉	-11.8731
以德言	-11.8731
右第十章	-11.8731
日月麗乎天	-11.8732
其匪正有眚不利有攸往	-11.8732
乗木有功	-11.8732
也故子曰	-11.8733
非聖人不能	-11.8733
只是箇	-11.8733
有父子有父子然後有君臣有君臣	-11.8733
蔀其家	-11.8734
甲庚	-11.8735
乾三爻	-11.8736
神也者妙萬物而為言者也	-11.8737
者萬物之	-11.8737
以卦體釋卦辭	-11.8738
金火	-11.8738
以卦體釋卦名義	-11.8739
大吉无不利	-11.8739
伊尹周公	-11.874
无䘮	-11.8741
潛龍勿用下也	-11.8742
卦下之辭	-11.8743
繼體	-11.8744
指六三	-11.8745
致治	-11.8746
而應乎乾	-11.8747
隨有獲	-11.8748
如初之	-11.8748
行其典禮	-11.8749
盧氏	-11.8751
四隂二陽	-11.8752
陰盛	-11.8753
以止為	-11.8754
皆在其中	-11.8755
何嘗有	-11.8758
語辭	-11.8761
事勢	-11.8764
休美	-11.8765
時未可	-11.8773
與天地參	-11.8774
見於事	-11.8774
非君位	-11.8778
是其義也	-11.8779
川流	-11.878
動動則	-11.8781
興衰	-11.8787
變艮為	-11.8788
雷氏曰	-11.879
下接	-11.8794
口體	-11.8794
君子體此	-11.8795
不自安	-11.8797
類族	-11.8799
説以動	-11.88
卿士	-11.8805
偕行	-11.8809
常守	-11.881
所處之位	-11.8811
天下歸	-11.8814
坎為通	-11.8815
見存	-11.8818
而忘其	-11.8822
保其終	-11.8822
不與焉	-11.8824
督	-11.8825
寃	-11.8826
獨存	-11.8826
芾	-11.8827
棺	-11.8827
勒	-11.8827
促	-11.8828
帖	-11.8828
琴	-11.883
九二需于沙小有言終吉	-11.883
白馬翰如	-11.883
六四當位	-11.8831
敬之終吉	-11.8831
訟有孚窒惕中吉終凶利見大人不利	-11.8831
㒺	-11.8831
九四不克訟復即命渝安貞吉	-11.8832
履道坦坦	-11.8832
惻隠	-11.8832
六四鴻漸于木或得其桷无咎	-11.8832
九三君子終日乾乾夕惕若厲无咎	-11.8832
一畨	-11.8832
六三不節若則嗟若无咎	-11.8832
六四有孚血去惕出无咎	-11.8833
上六鳴謙利用行師征邑國	-11.8834
六三含章可貞或從王事无成有終	-11.8834
六五田有禽利執言无咎	-11.8834
其要无咎	-11.8834
省文	-11.8834
涉難	-11.8834
寛以居之	-11.8835
翰音登于天	-11.8835
萬物出乎震	-11.8835
仲虎曰	-11.8835
得其大首	-11.8835
帝王之	-11.8836
濕火就燥雲從龍風從虎	-11.8836
髙宗伐鬼方	-11.8836
九三臀无膚其行次且厲无大咎	-11.8837
既久	-11.8837
神明而生蓍	-11.8837
乾以易知坤以簡能	-11.8837
利用出入民咸用之謂之神	-11.8837
[...]
