<unk>	0
<s>	0
</s>	0
之	-4.02033
也	-4.29641
而	-4.39483
以	-4.66121
/	-4.70323
者	-4.77478
(	-4.85189
則	-4.86989
為	-4.9612
其	-5.07987
有	-5.08472
)	-5.10832
曰	-5.28435
不	-5.3267
於	-5.35007
是	-5.4888
人	-5.54026
言	-5.63963
無	-5.67937
故	-5.71118
如	-5.71384
一	-5.73675
與	-5.7749
)(	-5.79349
自	-5.79352
矣	-5.84044
此	-5.84373
得	-6.01216
然	-6.0593
亦	-6.09069
謂	-6.09736
皆	-6.10594
事	-6.12598
大	-6.12862
至	-6.15088
上	-6.16258
非	-6.18481
中	-6.18871
在	-6.19463
問	-6.21056
若	-6.23658
乎	-6.23859
行	-6.24618
時	-6.24623
見	-6.25611
所	-6.27494
子	-6.28182
又	-6.28872
/)	-6.30078
處	-6.32768
道	-6.33231
心	-6.33644
用	-6.36696
必	-6.40138
知	-6.44753
▁	-6.45716
下	-6.45856
乃	-6.46233
所以	-6.46638
説	-6.4853
正	-6.51851
當	-6.52012
于	-6.52045
臣	-6.52347
使	-6.53044
雖	-6.53578
已	-6.59141
作	-6.60101
及	-6.60397
明	-6.60398
今	-6.60649
生	-6.61272
即	-6.6183
可	-6.61891
○	-6.63402
出	-6.63567
焉	-6.64303
云	-6.64307
去	-6.64607
公	-6.65088
欲	-6.65876
便	-6.66007
書	-6.68421
學	-6.68782
王	-6.69115
三	-6.7051
天	-6.71264
說	-6.71943
日	-6.73344
易	-6.7339
所謂	-6.75484
或	-6.75586
能	-6.75804
相	-6.77068
民	-6.77132
禮	-6.77135
多	-6.77618
本	-6.79424
夫	-6.79463
成	-6.80104
後	-6.80447
方	-6.81665
義	-6.82212
文	-6.82451
字	-6.84278
以為	-6.8607
爲	-6.86229
耳	-6.86362
惟	-6.86402
君	-6.86602
從	-6.87541
立	-6.87937
如此	-6.89057
聖人	-6.90227
既	-6.9052
將	-6.92483
同	-6.92911
分	-6.93084
官	-6.93495
二	-6.93781
未	-6.9416
先	-6.94222
論	-6.95613
不可	-6.95639
名	-6.95666
合	-6.9574
理	-6.95768
實	-6.97007
善	-6.9903
來	-6.99075
只是	-6.99702
地	-6.99925
復	-7.00062
氣	-7.00442
意	-7.00487
命	-7.00624
天下	-7.0164
我	-7.01864
猶	-7.02397
因	-7.02401
法	-7.02623
盡	-7.02727
哉	-7.03493
入	-7.04929
物	-7.05612
仁	-7.06487
四	-7.07353
且	-7.07627
但	-7.078
數	-7.08346
始	-7.08504
不能	-7.09232
他	-7.0967
常	-7.09919
居	-7.10027
徳	-7.10101
反	-7.10159
樂	-7.10531
何	-7.11726
而不	-7.12817
主	-7.1287
安	-7.13245
取	-7.1454
國	-7.1581
長	-7.16839
求	-7.17334
五	-7.18179
敬	-7.20296
過	-7.20665
定	-7.20788
外	-7.21053
好	-7.21309
吾	-7.21546
要	-7.22319
令	-7.22389
者也	-7.22675
通	-7.2273
治	-7.22774
重	-7.22896
凡	-7.23337
遂	-7.2356
便是	-7.24225
士	-7.24737
水	-7.24796
陽	-7.25117
了	-7.25565
家	-7.26457
小	-7.26774
性	-7.27661
而已	-7.27976
不得	-7.27986
固	-7.28533
死	-7.29196
動	-7.29495
舉	-7.29686
身	-7.29796
思	-7.29872
君子	-7.30315
兵	-7.30415
却	-7.30503
只	-7.30905
音	-7.30972
世	-7.31039
不知	-7.31043
周	-7.31202
觀	-7.33457
極	-7.33672
服	-7.33827
親	-7.34757
師	-7.35759
聞	-7.37159
經	-7.37302
爾	-7.37463
歸	-7.37781
蓋	-7.37857
食	-7.39227
信	-7.39306
陳	-7.39593
教	-7.40596
内	-7.41016
元	-7.41854
語	-7.42067
利	-7.42129
先生	-7.42228
之意	-7.42496
孔子	-7.42617
前	-7.42831
稱	-7.42995
難	-7.43493
止	-7.44099
盖	-7.44511
詩	-7.44705
著	-7.44798
志	-7.44867
進	-7.44911
體	-7.4558
深	-7.45597
初	-7.4563
某	-7.46432
神	-7.46823
直	-7.46861
發	-7.47137
少	-7.47542
守	-7.48524
更	-7.48567
終	-7.48784
節	-7.48948
齊	-7.49166
平	-7.49645
宜	-7.50096
誠	-7.50146
都	-7.50232
諸	-7.50371
制	-7.52316
甚	-7.52321
之道	-7.52505
起	-7.53149
六	-7.53211
和	-7.53586
學者	-7.5362
惡	-7.54162
變	-7.55182
德	-7.55336
力	-7.55362
兩	-7.55412
受	-7.55824
又曰	-7.55862
祭	-7.56086
聲	-7.56747
看	-7.57571
傳	-7.58109
位	-7.59053
逺	-7.59171
底	-7.59334
亂	-7.59395
隂	-7.5954
可以	-7.59566
如何	-7.59783
衆	-7.59955
就	-7.60592
年	-7.6073
帝	-7.6076
近	-7.60787
髙	-7.60953
異	-7.6147
父	-7.62
由	-7.62013
山	-7.6208
失	-7.62165
致	-7.63169
尚	-7.63587
氏	-7.63934
切	-7.64561
政	-7.6463
應	-7.64988
孟子	-7.65105
獨	-7.65268
九	-7.65285
各	-7.65456
然後	-7.65735
順	-7.66384
天地	-7.66883
請	-7.67741
章	-7.67752
田	-7.6796
之事	-7.68007
謂之	-7.68799
彼	-7.68865
古	-7.68997
廣	-7.69272
州	-7.69387
解	-7.6948
須	-7.69701
葢	-7.70077
聖	-7.70343
至於	-7.70466
養	-7.71513
風	-7.71616
等	-7.71878
㑹	-7.72021
而後	-7.72131
朝	-7.72374
辭	-7.72599
月	-7.73074
似	-7.73333
卒	-7.73597
功	-7.73614
間	-7.73696
益	-7.73773
賢	-7.7466
才	-7.75201
諸侯	-7.75414
之心	-7.75556
馬	-7.75822
興	-7.75843
視	-7.76668
到	-7.76874
人之	-7.77017
備	-7.77257
殺	-7.77623
宋	-7.77835
孝	-7.78202
恐	-7.7849
全	-7.78815
門	-7.78954
别	-7.79256
指	-7.79892
讀	-7.80011
秦	-7.80374
漢	-7.80539
比	-7.80986
張	-7.81353
存	-7.81563
己	-7.81595
母	-7.8198
類	-7.82054
嘗	-7.83121
女	-7.83128
疑	-7.83762
對	-7.84498
愛	-7.85644
土	-7.85653
任	-7.863
軍	-7.86399
十	-7.86998
度	-7.87193
足	-7.87291
南	-7.87413
修	-7.87602
亡	-7.88303
化	-7.88559
象	-7.89028
加	-7.89073
情	-7.89537
豈	-7.89634
尊	-7.90069
做	-7.90152
告	-7.90919
私	-7.91369
次	-7.91505
交	-7.91609
東	-7.91844
開	-7.92003
精	-7.92021
金	-7.92245
推	-7.93167
勝	-7.9388
坐	-7.93912
之間	-7.93928
釋	-7.94015
八	-7.94565
引	-7.94814
按	-7.94926
具	-7.95299
武	-7.95507
兼	-7.95765
春秋	-7.95865
貴	-7.96115
屬	-7.96121
故曰	-7.9636
刑	-7.96847
病	-7.96874
清	-7.97585
置	-7.97668
夫子	-7.98089
輕	-7.98135
之言	-7.98277
絶	-7.98353
記	-7.98403
首	-7.98435
火	-7.98548
隂陽	-7.98576
是以	-7.9865
晉	-7.98666
容	-7.98885
老	-7.99374
窮	-7.99377
天子	-7.99605
忠	-7.99736
石	-7.99817
車	-7.99955
西	-7.99984
執	-8.00048
伯	-8.00128
斯	-8.00455
之義	-8.00467
不敢	-8.00801
載	-8.00882
計	-8.00912
邪	-8.01472
莫	-8.01613
形	-8.01633
其所	-8.0184
之所	-8.0203
篇	-8.02305
流	-8.02395
百	-8.02469
之理	-8.02497
盛	-8.0256
夏	-8.02684
卦	-8.02763
自然	-8.02901
魯	-8.02997
廢	-8.03066
這	-8.03209
李	-8.0322
古人	-8.03572
不同	-8.0359
唐	-8.04069
城	-8.04118
設	-8.04468
宗	-8.05191
将	-8.05325
光	-8.05341
七	-8.0582
真	-8.05848
之法	-8.0603
木	-8.06545
来	-8.06868
務	-8.06906
小人	-8.06964
謀	-8.07106
而無	-8.07335
强	-8.07344
口	-8.07403
之説	-8.07632
之時	-8.07655
厚	-8.07679
識	-8.08183
史	-8.08572
言之	-8.08598
不是	-8.0863
白	-8.08744
權	-8.08762
序	-8.08895
議	-8.08922
宫	-8.08983
楚	-8.0907
疾	-8.0929
適	-8.09627
也故	-8.0977
色	-8.09963
後世	-8.10025
離	-8.10207
有所	-8.10215
鄭	-8.10276
道理	-8.10322
積	-8.10361
罪	-8.10379
望	-8.10522
北	-8.11223
剛	-8.11498
司	-8.11505
耶	-8.11847
工夫	-8.11985
改	-8.12261
虚	-8.12437
嚴	-8.12471
子曰	-8.12947
封	-8.12989
萬物	-8.13064
太	-8.13422
省	-8.13715
每	-8.13941
考	-8.1405
除	-8.14084
習	-8.14241
智	-8.14533
美	-8.14859
右	-8.15026
散	-8.1525
辨	-8.15295
器	-8.15721
乾	-8.15753
錢	-8.16029
祖	-8.16983
衣	-8.17426
達	-8.17637
新	-8.17718
隨	-8.17735
敗	-8.18346
喪	-8.18451
退	-8.18678
餘	-8.18836
憂	-8.19081
之後	-8.19104
目	-8.19122
不足	-8.19178
父母	-8.19522
廟	-8.19638
察	-8.19658
無所	-8.1972
戒	-8.2014
縣	-8.20163
那	-8.2039
朱子曰	-8.20711
嵗	-8.20712
之類	-8.20756
當時	-8.20756
之中	-8.20788
還	-8.20856
奉	-8.20986
職	-8.21024
幾	-8.21033
專	-8.21063
聽	-8.21135
吏	-8.21983
共	-8.22264
人心	-8.22332
舊	-8.22808
讀書	-8.22822
放	-8.22825
克	-8.23218
施	-8.2339
簡	-8.23396
害	-8.23618
果	-8.23767
大夫	-8.23891
徒	-8.23906
文王	-8.23906
遇	-8.23958
原	-8.24096
須是	-8.2411
往	-8.24202
降	-8.24381
承	-8.2444
微	-8.24485
萬	-8.24622
尤	-8.24665
敵	-8.2534
訓	-8.25391
謹	-8.25588
是也	-8.26144
春	-8.26147
感	-8.26207
朱子	-8.26393
雜	-8.26511
孫	-8.26545
高	-8.26784
為之	-8.26999
天下之	-8.27115
並	-8.27247
待	-8.274
舜	-8.27735
傷	-8.27891
扵	-8.28398
息	-8.2844
必有	-8.28487
戰	-8.28641
自是	-8.28911
弗	-8.28945
率	-8.292
愈	-8.29243
圖	-8.29258
㸔	-8.29521
賜	-8.2962
吉	-8.29784
喜	-8.29802
業	-8.29807
路	-8.30265
於此	-8.30347
鄉	-8.30459
向	-8.30647
詔	-8.30899
依	-8.31194
周公	-8.31272
特	-8.31454
許	-8.31798
被	-8.3186
天理	-8.31929
手	-8.32282
亦有	-8.32533
拜	-8.32571
黄	-8.32845
臨	-8.32994
未有	-8.33044
斷	-8.33129
據	-8.33219
之人	-8.33355
伐	-8.33524
聖賢	-8.33665
保	-8.33737
勿	-8.33821
最	-8.3383
或問	-8.33907
建	-8.34126
静	-8.34146
再	-8.34151
不及	-8.34221
申	-8.34607
一日	-8.34779
見得	-8.34942
久	-8.35187
否	-8.35313
后	-8.35517
怨	-8.35523
卿	-8.35793
詳	-8.35801
侯	-8.35917
危	-8.36177
端	-8.36219
上下	-8.36236
質	-8.36301
足以	-8.36315
衛	-8.36342
劉	-8.36383
慮	-8.36639
良	-8.36747
奏	-8.36834
顯	-8.37126
律	-8.3725
御	-8.37423
禁	-8.37458
約	-8.37517
繼	-8.3758
未嘗	-8.37615
遺	-8.37626
集	-8.37971
俗	-8.38018
怒	-8.3809
於是	-8.38203
靜	-8.38208
威	-8.38266
差	-8.38405
朝廷	-8.38577
伊川	-8.38763
顔子	-8.3889
叔	-8.3901
衰	-8.39077
皆是	-8.39154
遷	-8.39445
婦	-8.39446
太極	-8.39473
府	-8.39521
藏	-8.39641
之說	-8.39673
河	-8.40063
獻	-8.40181
否曰	-8.40419
勞	-8.4043
鬼神	-8.40521
滅	-8.40591
代	-8.40644
舍	-8.40673
魏	-8.41088
義理	-8.41217
之學	-8.41825
勢	-8.41849
布	-8.41893
頭	-8.42212
造	-8.42503
賊	-8.42511
不過	-8.42647
卷	-8.42699
逆	-8.42824
其心	-8.42896
統	-8.43163
程子	-8.43193
愚	-8.43229
不為	-8.43651
役	-8.43809
趙	-8.43996
澤	-8.44205
覺	-8.44275
仲	-8.44444
免	-8.44566
何以	-8.44585
急	-8.44602
顧	-8.44735
而言	-8.44824
俱	-8.44881
注	-8.44905
闕	-8.45029
召	-8.45239
紀	-8.45413
恭	-8.45486
答	-8.4566
收	-8.45717
三年	-8.45794
富	-8.45809
末	-8.45876
漸	-8.45942
予	-8.46041
唯	-8.46043
薄	-8.46055
空	-8.46077
左	-8.46192
禮樂	-8.46353
夜	-8.46414
素	-8.46518
秋	-8.46573
講	-8.46704
無不	-8.46969
納	-8.4699
之功	-8.47468
友	-8.47672
臣按	-8.47822
不以	-8.4797
賦	-8.48039
寛	-8.48177
財	-8.48223
棄	-8.48235
中庸	-8.48302
如何曰	-8.48331
脩	-8.48356
胡	-8.48476
念	-8.4859
總	-8.48776
列	-8.48936
畏	-8.48993
聚	-8.49209
者皆	-8.49243
商	-8.49348
則是	-8.49842
附	-8.49927
酒	-8.50035
爭	-8.50109
誅	-8.50187
報	-8.50205
不可以	-8.50322
移	-8.50344
此心	-8.50465
濟	-8.50494
責	-8.50559
期	-8.5066
半	-8.50882
昭	-8.50943
况	-8.51378
汝	-8.51453
也夫	-8.51467
恩	-8.51825
妄	-8.51986
患	-8.52092
哀	-8.52181
弟	-8.52236
量	-8.52419
祀	-8.52445
柔	-8.52493
又問	-8.52577
宣	-8.52586
升	-8.52697
箇	-8.52783
華	-8.53093
懼	-8.53367
擇	-8.53383
畫	-8.53646
文字	-8.5379
以下	-8.5389
今日	-8.54036
細	-8.54108
人君	-8.54238
破	-8.54438
百姓	-8.54484
兄弟	-8.54632
室	-8.54748
儀	-8.54908
寧	-8.54989
持	-8.55
自家	-8.5501
玉	-8.55597
費	-8.55601
茍	-8.55667
熟	-8.55669
先生曰	-8.55754
幸	-8.56017
忽	-8.56278
羣	-8.56425
假	-8.56727
大學	-8.57008
恁地	-8.57166
咸	-8.57222
慎	-8.57373
崇	-8.57441
之地	-8.57729
左右	-8.57791
諫	-8.57949
可謂	-8.57996
願	-8.58117
一人	-8.58564
燕	-8.586
試	-8.58721
運	-8.58722
亦是	-8.58802
行之	-8.59016
邑	-8.59068
補	-8.5924
貞	-8.59271
福	-8.59299
禍	-8.5932
偏	-8.59924
眀	-8.60747
凶	-8.60819
略	-8.60821
格	-8.60899
出於	-8.60903
曲	-8.61038
不如	-8.61163
寒	-8.61216
抑	-8.61256
坤	-8.61411
表	-8.61697
之禮	-8.61821
客	-8.61918
以其	-8.6195
不必	-8.62
葬	-8.6201
可見	-8.62043
星	-8.62124
陵	-8.62124
理㑹	-8.62248
越	-8.62445
塞	-8.62492
博	-8.62516
伏	-8.62609
純	-8.62842
則有	-8.63405
雨	-8.63437
苦	-8.6353
冬	-8.63591
其言	-8.63645
吳	-8.63795
永	-8.64023
龍	-8.64303
掌	-8.64331
革	-8.64527
里	-8.64722
太子	-8.64995
千	-8.6532
庶	-8.65337
竊	-8.65389
使人	-8.65402
罷	-8.65433
均	-8.65777
賞	-8.65786
之際	-8.65812
敎	-8.65854
辟	-8.66033
典	-8.66138
朱	-8.6614
林	-8.6621
爵	-8.66293
履	-8.66446
審	-8.66486
違	-8.66649
結	-8.66869
昔	-8.66933
攻	-8.67327
轉	-8.67364
江	-8.67446
郡	-8.67499
不然	-8.67634
暴	-8.6783
卑	-8.6787
畢	-8.67976
䘮	-8.682
射	-8.68312
冠	-8.6839
梁	-8.68411
以上	-8.68419
隠	-8.68445
救	-8.68495
勸	-8.68503
十二	-8.68591
妻	-8.68606
弱	-8.68653
的	-8.68728
號	-8.6893
子孫	-8.68935
忘	-8.68937
也然	-8.6915
資	-8.69192
選	-8.69364
毋	-8.69415
仁義	-8.69737
面	-8.69755
雖有	-8.69816
監	-8.69833
不見	-8.6986
録	-8.69909
留	-8.70006
今人	-8.70042
意思	-8.7008
知其	-8.70092
畧	-8.70213
誤	-8.70401
歟	-8.70474
工	-8.70527
充	-8.70585
犯	-8.70688
參	-8.70881
農	-8.7093
且如	-8.71059
海	-8.71321
恕	-8.71578
乆	-8.71923
損	-8.71949
累	-8.72041
讓	-8.72065
魚	-8.72082
民之	-8.7212
管	-8.72161
會	-8.7248
逐	-8.7278
夷	-8.72922
條	-8.73092
悉	-8.73094
句	-8.73108
薦	-8.73301
敢	-8.73368
楊	-8.73441
儒	-8.73488
邊	-8.73718
朕	-8.73759
陰	-8.73849
纔	-8.73884
險	-8.73895
之所以	-8.73937
周禮	-8.74234
決	-8.74528
堅	-8.74725
堂	-8.74762
歌	-8.74861
㣲	-8.74992
臣若水通曰	-8.75057
之士	-8.75063
以此	-8.75266
而為	-8.75302
不當	-8.75409
授	-8.75421
草	-8.75755
知之	-8.75883
巧	-8.75949
决	-8.76147
虞	-8.76241
大抵	-8.76343
堯	-8.76346
自有	-8.76437
縱	-8.76614
兄	-8.76657
禹	-8.76779
勇	-8.76792
亦不	-8.77139
給	-8.77175
接	-8.77324
者亦	-8.77459
揚	-8.77575
輔	-8.7759
并	-8.77761
論語	-8.77801
使之	-8.77972
連	-8.78057
偽	-8.78138
閒	-8.78141
避	-8.78149
竒	-8.78419
術	-8.78611
却是	-8.78785
震	-8.78853
用之	-8.78926
巳	-8.7895
配	-8.78992
屈	-8.79098
説得	-8.79293
惠	-8.79439
助	-8.79566
野	-8.798
種	-8.79836
姑	-8.79919
滿	-8.79988
勤	-8.80009
乞	-8.80044
虛	-8.80102
殊	-8.80141
旣	-8.80167
照	-8.80199
之數	-8.80253
户	-8.80267
天之	-8.80484
負	-8.80533
牛	-8.80545
不用	-8.80549
懐	-8.80665
困	-8.80727
昏	-8.80783
寡	-8.8085
乗	-8.80915
靈	-8.81309
淵	-8.8134
韓	-8.81462
景	-8.81561
明道	-8.81769
追	-8.81866
皆有	-8.8187
市	-8.8239
荅	-8.8241
防	-8.82521
此言	-8.82549
游	-8.83043
享	-8.83076
材	-8.83103
然則	-8.83187
曾	-8.83334
雲	-8.83351
此理	-8.8346
程	-8.83473
䝉	-8.83489
堯舜	-8.83522
之謂	-8.8373
其後	-8.83908
示	-8.83998
一事	-8.84239
國家	-8.84266
嘉	-8.84415
陛下	-8.84458
而已矣	-8.84519
䖏	-8.84543
述	-8.84692
獄	-8.84717
弊	-8.84726
孤	-8.84761
賤	-8.85001
其事	-8.85008
余	-8.85091
消	-8.85162
徃	-8.85211
禄	-8.85503
歲	-8.85613
奪	-8.85672
日月	-8.85677
泰	-8.8606
佛	-8.86156
湯	-8.86162
又云	-8.86248
無窮	-8.86255
厥	-8.86357
登	-8.864
大臣	-8.86442
覆	-8.86642
飾	-8.86747
悔	-8.86772
征	-8.8687
又有	-8.86932
井	-8.86962
荒	-8.87012
刻	-8.87036
其實	-8.87099
族	-8.87231
貪	-8.87465
君臣	-8.87618
飲	-8.87713
稍	-8.87738
根	-8.8783
丘	-8.879
吕	-8.87978
甲	-8.8815
謝	-8.88233
背	-8.88394
内外	-8.8861
邦	-8.88732
道也	-8.88765
徐	-8.88777
仕	-8.88894
夫人	-8.88921
不足以	-8.89349
對曰	-8.89443
古者	-8.89471
武王	-8.89902
厲	-8.90263
季	-8.90421
調	-8.90537
後來	-8.90557
人主	-8.90639
許多	-8.90695
尋	-8.90836
欽定四庫全書	-8.91097
孟	-8.91366
各有	-8.91384
獲	-8.91607
曹	-8.91794
借	-8.91842
莫不	-8.91842
擊	-8.91886
驕	-8.91897
也若	-8.919
専	-8.91929
聖人之	-8.92092
淳	-8.92153
庸	-8.92227
如此則	-8.92253
肆	-8.92431
米	-8.92458
䇿	-8.92717
子路	-8.92719
營	-8.92745
郊	-8.92795
見其	-8.92804
有司	-8.92973
教人	-8.9301
横	-8.93174
便有	-8.93177
孔	-8.93245
疏	-8.93259
占	-8.93411
操	-8.93613
先王	-8.93638
蔽	-8.93713
耕	-8.93755
豈不	-8.9382
遊	-8.93927
折	-8.94067
若是	-8.94091
殷	-8.94126
不待	-8.94171
之氣	-8.94236
姦	-8.9433
誰	-8.9441
者必	-8.94521
皇	-8.94829
貧	-8.94858
窮理	-8.95071
一箇	-8.95076
包	-8.95089
休	-8.95342
惑	-8.95555
以爲	-8.95627
是非	-8.95679
賢者	-8.95703
這箇	-8.95708
遣	-8.95788
五行	-8.95832
淫	-8.96124
速	-8.96186
也今	-8.96365
君之	-8.96452
不肯	-8.96601
氣象	-8.96806
天道	-8.96876
之外	-8.96914
争	-8.97237
厯	-8.97349
效	-8.97351
賔	-8.97373
闗	-8.97434
歴	-8.97501
豐	-8.97576
可也	-8.97617
无	-8.97724
曰此	-8.97937
湏	-8.9809
其身	-8.9815
之書	-8.98192
苟	-8.98211
而不能	-8.98518
言語	-8.98536
垂	-8.98604
之於	-8.98644
怪	-8.98717
富貴	-8.98752
乘	-8.98771
丁	-8.98988
古今	-8.99072
不成	-8.99078
之制	-8.99177
則其	-8.99238
淺	-8.99258
循	-8.99287
徵	-8.99356
𫝊	-8.99752
鬼	-8.99777
喻	-8.99914
落	-8.99916
貫	-9.00024
毁	-9.0007
干	-9.00092
恒	-9.00177
送	-9.00218
較	-9.00255
分明	-9.00264
四方	-9.00351
孔子曰	-9.00408
屋	-9.00441
然而	-9.00477
之象	-9.00541
詞	-9.0068
仰	-9.00843
以來	-9.01043
榮	-9.01109
逹	-9.01109
四時	-9.01403
學問	-9.01436
談	-9.01808
振	-9.01857
角	-9.02035
程子曰	-9.02186
謙	-9.02255
曽	-9.02426
而有	-9.02508
浮	-9.02537
太宗	-9.02665
早	-9.02706
科	-9.02738
索	-9.02911
此是	-9.02976
孰	-9.03041
侵	-9.03131
戎	-9.03238
偶	-9.03286
父子	-9.03307
之本	-9.03371
豫	-9.03458
曾子	-9.03478
則為	-9.03545
盈	-9.03627
▁(	-9.03631
矣然	-9.0394
走	-9.03977
幽	-9.04041
妙	-9.04058
成王	-9.04236
支	-9.04329
一時	-9.04644
天地之	-9.04653
仁者	-9.04729
黨	-9.04945
宻	-9.0497
不復	-9.05028
古之	-9.05151
卜	-9.05159
趨	-9.05197
註	-9.05235
遠	-9.05838
相似	-9.05955
延	-9.0598
勉	-9.06186
繫	-9.06307
旁	-9.0645
機	-9.06674
隱	-9.07158
牧	-9.07523
辱	-9.07545
采	-9.07563
笑	-9.07642
隆	-9.07673
回	-9.07818
朋友	-9.07969
緩	-9.08147
圍	-9.08149
錯	-9.08241
所以為	-9.0842
諭	-9.08452
如是	-9.08636
都是	-9.08738
爻	-9.08848
歳	-9.08914
得其	-9.08956
儉	-9.09013
味	-9.09196
領	-9.0928
此意	-9.09292
殿	-9.09369
毎	-9.09398
維	-9.09444
帥	-9.09478
是故	-9.09571
強	-9.09715
仲尼	-9.10141
帶	-9.10464
蔡	-9.10466
而能	-9.10561
臺	-9.10606
它	-9.10718
其中	-9.10732
未能	-9.10769
善惡	-9.10793
㡬	-9.108
飛	-9.1096
莊	-9.11127
人欲	-9.11181
而不知	-9.11189
一物	-9.11237
横渠	-9.11271
亨	-9.1128
衡	-9.11444
中國	-9.11552
聴	-9.11721
迎	-9.11755
部	-9.11791
尚書	-9.11798
尸	-9.1185
雅	-9.12069
把	-9.12135
為善	-9.12285
人也	-9.12342
為學	-9.12382
流行	-9.12395
竟	-9.12571
悟	-9.12593
生於	-9.12666
之實	-9.127
一般	-9.12727
氣質	-9.12942
天命	-9.12947
篤	-9.12953
不明	-9.13082
席	-9.13233
誦	-9.13259
而行	-9.13426
呼	-9.13496
其間	-9.13571
川	-9.13723
之子	-9.13761
其人	-9.13762
温	-9.13922
慈	-9.14116
出入	-9.14209
不行	-9.14285
第	-9.14291
之初	-9.14371
痛	-9.14399
委	-9.14594
言其	-9.14649
慶	-9.14686
忠信	-9.14692
不至	-9.14861
不相	-9.14978
有以	-9.15044
減	-9.1506
仍	-9.15188
者非	-9.15458
做得	-9.15463
之徒	-9.1551
粗	-9.15512
貌	-9.15543
不善	-9.15581
畜	-9.15626
想	-9.15679
即是	-9.1569
其意	-9.15708
泉	-9.15775
罰	-9.16003
以至	-9.16019
豈有	-9.16053
沒	-9.16089
門人	-9.16105
逸	-9.16126
侍	-9.1616
無非	-9.16254
於人	-9.16293
夢	-9.16554
發明	-9.16567
聞之	-9.16572
主人	-9.16627
關	-9.16677
姓	-9.16701
藥	-9.16825
變化	-9.16948
人情	-9.17
齋	-9.17003
及其	-9.1717
青	-9.1718
式	-9.1724
輕重	-9.17438
亦無	-9.17438
祝	-9.17467
求之	-9.17566
狀	-9.17579
子貢	-9.17587
曰吾	-9.17622
佐	-9.17654
辯	-9.17747
災	-9.17785
密	-9.17852
編	-9.17945
至于	-9.17969
國之	-9.18024
釋氏	-9.18072
不在	-9.18122
有餘	-9.18161
之名	-9.18394
議論	-9.18452
欺	-9.1848
昌	-9.1849
杜	-9.18551
矣故	-9.18563
縁	-9.18601
玩	-9.18608
哭	-9.18715
着	-9.18744
例	-9.18973
不若	-9.19016
賈	-9.19074
不曾	-9.19111
恥	-9.19167
短	-9.19297
宿	-9.19418
未必	-9.19526
庭	-9.19637
羽	-9.19674
或曰	-9.19721
介	-9.19785
謹按	-9.19923
利害	-9.20335
襲	-9.20357
殆	-9.20492
得之	-9.20495
鹽	-9.20545
巽	-9.20907
元年	-9.20949
悦	-9.21058
舟	-9.21116
預	-9.21164
文章	-9.21186
子弟	-9.21256
之文	-9.21264
樹	-9.21272
規	-9.21297
一句	-9.21316
書曰	-9.21378
忍	-9.21467
二年	-9.21509
討	-9.21526
詐	-9.21552
盜	-9.21584
二字	-9.21807
范	-9.21834
慕	-9.21977
繁	-9.2208
壊	-9.22207
奔	-9.22236
徴	-9.22279
叙	-9.22351
三代	-9.22573
頗	-9.22718
刺	-9.22804
寵	-9.22823
故其	-9.22926
說得	-9.23261
私意	-9.23498
之用	-9.23818
盟	-9.24236
康	-9.24243
則不	-9.24464
之道也	-9.24489
筆	-9.24495
貢	-9.24555
太祖	-9.24705
蘇	-9.24731
妾	-9.25112
肅	-9.25115
而又	-9.25153
陸	-9.2521
乾坤	-9.2525
衞	-9.25489
他人	-9.25691
之體	-9.25738
亦可	-9.2577
兮	-9.25896
究	-9.25897
賀	-9.25958
不合	-9.2601
税	-9.26015
鼓	-9.26026
虎	-9.26039
宰	-9.26051
限	-9.26219
則無	-9.26232
彊	-9.26414
朔	-9.2646
鄙	-9.26488
寢	-9.26506
曉	-9.26533
云云	-9.26747
寳	-9.26845
皆以	-9.26865
五十	-9.2693
陰陽	-9.27096
不言	-9.27099
粟	-9.27131
𤣥	-9.27169
貨	-9.27275
煩	-9.27555
則又	-9.27629
二十	-9.27919
之物	-9.28056
訟	-9.2808
厭	-9.28093
撫	-9.28145
祠	-9.28292
遽	-9.28471
周子	-9.28543
事親	-9.28583
増	-9.28665
見於	-9.2868
没	-9.28762
其義	-9.28844
道之	-9.28849
人物	-9.28882
毛	-9.28927
其理	-9.28963
不容	-9.29047
於外	-9.29049
優	-9.29147
譬如	-9.29183
某云	-9.29284
婦人	-9.29362
取之	-9.295
候	-9.29523
僴	-9.29568
分别	-9.29591
慢	-9.29625
倫	-9.2977
老子	-9.2979
尺	-9.29821
坎	-9.29837
而成	-9.29885
之屬	-9.30024
咎	-9.30195
宰相	-9.30197
舞	-9.30292
其志	-9.30315
涵養	-9.30321
辰	-9.3054
動静	-9.30626
斂	-9.30645
𢎞	-9.30776
社稷	-9.30805
者則	-9.30837
不正	-9.30876
故能	-9.30892
何也	-9.30911
羣臣	-9.31022
幼	-9.31023
禮義	-9.31061
倍	-9.31065
祭祀	-9.31104
徑	-9.31106
嗚呼	-9.31118
雷	-9.31132
不可不	-9.31143
靡	-9.31169
格物	-9.31176
聰明	-9.31536
穆	-9.31633
今之	-9.31678
孝弟	-9.31829
鳥	-9.31963
錄	-9.32031
之故	-9.32262
飲食	-9.32275
事君	-9.32294
之論	-9.32399
賀孫	-9.32535
夲	-9.32537
罔	-9.32539
之徳	-9.32547
籍	-9.32653
忌	-9.32724
風俗	-9.32902
之謂也	-9.32938
證	-9.32977
贊	-9.33014
招	-9.33097
其餘	-9.33154
㫖	-9.33166
舎	-9.3317
躬	-9.33199
管仲	-9.33274
豈可	-9.33299
育	-9.33371
至此	-9.33689
不忍	-9.33691
為人	-9.3401
壯	-9.3402
精神	-9.34023
烈	-9.3404
蜀	-9.34103
若不	-9.34112
終身	-9.34184
與人	-9.34269
有箇	-9.34321
其説	-9.34366
之君	-9.34416
京	-9.34419
魄	-9.34422
扶	-9.34482
榖	-9.34629
之辭	-9.34755
允	-9.34794
其道	-9.35073
此語	-9.35177
沈	-9.35241
諌	-9.35244
源	-9.35309
之性	-9.35336
之弊	-9.35381
其君	-9.35385
倉	-9.35521
夀	-9.35615
與之	-9.35648
乃是	-9.35678
歎	-9.3571
詩曰	-9.35805
出來	-9.35819
張子	-9.3583
男	-9.35857
致知	-9.3587
嗣	-9.3588
甘	-9.35972
社	-9.36096
三月	-9.36123
禪	-9.3616
英	-9.36212
不好	-9.36312
有功	-9.36344
看得	-9.36396
宅	-9.36494
為主	-9.36509
懷	-9.36617
不盡	-9.36739
弟子	-9.36983
在於	-9.37157
晦	-9.37212
所見	-9.37277
祥	-9.37374
斗	-9.37379
艮	-9.37514
徹	-9.37519
啓	-9.37578
觀之	-9.37639
觀其	-9.37676
取其	-9.37797
不仁	-9.37806
思慮	-9.37939
武帝	-9.37947
之情	-9.38069
進退	-9.38234
欲其	-9.38254
故也	-9.38331
禮記	-9.38382
逃	-9.38493
也此	-9.38629
露	-9.38649
其子	-9.38725
壽	-9.38851
也是	-9.3897
伸	-9.39011
叛	-9.39116
杖	-9.39218
固有	-9.39284
憲	-9.39475
傾	-9.39512
所當	-9.39598
無以	-9.39621
後人	-9.39695
者以	-9.39708
符	-9.39744
方是	-9.39824
藝	-9.39838
鼎	-9.3991
物之	-9.39949
公子	-9.40177
投	-9.40239
班	-9.40306
用力	-9.40309
側	-9.40312
三十	-9.40313
先儒	-9.40451
況	-9.40501
郎	-9.40546
輩	-9.40562
供	-9.40647
知得	-9.40779
子思	-9.40837
迹	-9.40838
産	-9.40851
譽	-9.40874
之患	-9.40876
而下	-9.40976
之政	-9.40995
未發	-9.41069
只管	-9.41093
士大夫	-9.41161
如今	-9.41201
品	-9.41244
潔	-9.41364
二者	-9.41428
所言	-9.41456
衍	-9.41468
州縣	-9.41535
葉	-9.41601
圓	-9.41612
在此	-9.41613
萬世	-9.41988
赤	-9.42008
之變	-9.4207
赴	-9.42087
京師	-9.42274
倚	-9.4234
不失	-9.42362
者為	-9.42372
奠	-9.42551
王者	-9.42564
肉	-9.42626
者有	-9.42683
誠意	-9.42695
鳴	-9.42802
人皆	-9.42864
耳目	-9.42866
此章	-9.43001
墨	-9.43019
則必	-9.43036
者乎	-9.4317
案	-9.43179
羊	-9.43248
齒	-9.43257
司馬	-9.43261
隔	-9.43318
以後	-9.43332
續	-9.43488
希	-9.43596
象曰	-9.43612
濁	-9.43669
託	-9.43815
甫	-9.43841
誘	-9.43844
失其	-9.43897
之妙	-9.43947
蕩	-9.44
人有	-9.44012
為一	-9.44027
擾	-9.44053
黙	-9.44102
三日	-9.44104
寄	-9.44172
幹	-9.44277
墓	-9.44289
之志	-9.44293
尹	-9.44334
羅	-9.44411
暗	-9.44477
性命	-9.44494
輒	-9.44531
仁義禮智	-9.44703
孟子曰	-9.44709
至誠	-9.4474
鎮	-9.4487
一段	-9.44974
於天下	-9.45027
不識	-9.45115
夫婦	-9.45138
校	-9.45168
策	-9.45272
竹	-9.45344
動靜	-9.45369
以求	-9.45374
於天	-9.45494
驗	-9.45501
之要	-9.45525
六經	-9.45626
其所以	-9.45668
者其	-9.45761
則知	-9.45779
不從	-9.45976
綱	-9.46015
誣	-9.46074
惜	-9.46119
何如	-9.46134
奚	-9.46152
拘	-9.46175
塗	-9.46206
之民	-9.46241
從之	-9.46403
係	-9.46413
祕曰	-9.46609
自古	-9.4663
千里	-9.46686
祿	-9.46834
舒	-9.46935
一切	-9.46948
顔	-9.47004
教之	-9.47035
旦	-9.47045
旋	-9.47081
好惡	-9.47105
吉凶	-9.47126
十五	-9.47151
敦	-9.47156
敏	-9.47157
人事	-9.47215
百官	-9.4731
可知	-9.47466
世之	-9.47615
之語	-9.47682
穀	-9.47692
斬	-9.47717
平日	-9.4773
何故	-9.47826
不出	-9.47866
八卦	-9.47882
竭	-9.47906
即位	-9.47921
在上	-9.4803
買	-9.48048
傅	-9.48084
疎	-9.48108
之位	-9.48312
政事	-9.48381
觧	-9.48384
眞	-9.48456
此事	-9.48572
殺之	-9.48644
矢	-9.48658
君子之	-9.48692
造化	-9.487
桑	-9.48731
聘	-9.48796
弔	-9.48805
之罪	-9.48806
悲	-9.48808
何也曰	-9.4896
渠	-9.49009
不與	-9.49053
恤	-9.49154
相與	-9.49192
糧	-9.49204
伊尹	-9.49207
壞	-9.49401
呉	-9.49456
愚按	-9.49456
所為	-9.49524
不動	-9.49529
事之	-9.49569
在人	-9.49633
十六	-9.49686
之分	-9.49701
詩云	-9.49723
判	-9.49787
中有	-9.49904
該	-9.49922
蒙	-9.50022
不免	-9.50029
激	-9.50039
亦然	-9.50084
段	-9.50101
文帝	-9.50164
導	-9.50208
郭	-9.50214
往往	-9.50256
戴	-9.50382
之上	-9.50574
未嘗不	-9.50589
奸	-9.50592
六十	-9.50702
衆人	-9.50706
恃	-9.50706
祖宗	-9.50715
桓	-9.508
然其	-9.50826
西銘	-9.50856
屢	-9.51171
髙祖	-9.51255
雍	-9.51278
絲	-9.51279
必先	-9.51455
雄	-9.51532
文公	-9.51546
失之	-9.51645
頌	-9.51651
明白	-9.51685
安得	-9.51729
也又曰	-9.51746
傳曰	-9.51768
晝	-9.51802
固是	-9.51897
無事	-9.51936
嫁	-9.52036
泥	-9.52059
基	-9.52078
之極	-9.5209
花	-9.52105
步	-9.52111
性情	-9.52192
㸃	-9.52195
之臣	-9.52384
宗廟	-9.52396
有一	-9.52434
或有	-9.52482
其為	-9.52519
見之	-9.52567
知覺	-9.52603
啟	-9.52755
俾	-9.52795
房	-9.52829
缺	-9.52841
活	-9.53005
為仁	-9.53101
理㑹得	-9.53176
曽子	-9.53268
者不	-9.53425
有此	-9.53475
兹	-9.53564
谷	-9.53643
未知	-9.53726
由是	-9.53771
撰	-9.53809
矜	-9.53825
非是	-9.5383
男女	-9.53879
徧	-9.53904
秩	-9.53972
影	-9.53973
麗	-9.54159
飯	-9.54227
寺	-9.54272
攝	-9.54276
一心	-9.54279
其本	-9.54417
怠	-9.54486
併	-9.54571
遜	-9.54622
快	-9.5467
歩	-9.54696
太后	-9.54698
四十	-9.5471
以明	-9.54805
不欲	-9.54829
侈	-9.55216
性之	-9.55232
猶有	-9.55234
死生	-9.55449
僕	-9.55458
掩	-9.55477
不勝	-9.55511
中間	-9.55536
住	-9.55536
池	-9.55553
其他	-9.55563
十年	-9.55671
又如	-9.55674
大事	-9.55716
豪	-9.55728
桓公	-9.55746
藉	-9.55761
訪	-9.55827
驚	-9.55836
隋	-9.55858
裏	-9.55918
従	-9.55923
匪	-9.55948
闢	-9.5598
以成	-9.55983
不易	-9.56051
僅	-9.56079
一也	-9.56083
其徳	-9.5613
奇	-9.56215
寫	-9.56338
亭	-9.56486
削	-9.56491
盗	-9.56501
為政	-9.56595
秀	-9.56609
之教	-9.5663
豈非	-9.56697
鮮	-9.56702
推之	-9.56778
異端	-9.56791
中正	-9.56897
裁	-9.5696
第一	-9.5701
史記	-9.57014
閣	-9.57065
烏	-9.571
無所不	-9.57218
皇帝	-9.57239
之官	-9.57345
矣夫	-9.57505
先王之	-9.57551
狂	-9.57603
徙	-9.57621
神明	-9.57629
諱	-9.5768
二人	-9.57715
增	-9.57853
也言	-9.57858
旅	-9.57895
禦	-9.57918
者矣	-9.57956
思之	-9.57958
矯	-9.58046
之始	-9.58092
之詩	-9.5815
抱	-9.58176
不曽	-9.58194
庶幾	-9.58226
遵	-9.58316
之大	-9.58498
治之	-9.58514
牲	-9.58524
之禍	-9.58543
而非	-9.5862
赦	-9.58622
底意思	-9.58665
去聲	-9.58674
奮	-9.58698
陶	-9.58936
之事也	-9.59044
制度	-9.59136
諸公	-9.59172
晝夜	-9.59202
為本	-9.59255
先後	-9.59303
含	-9.59342
植	-9.59344
萬事	-9.59393
第二	-9.59439
其功	-9.59443
警	-9.59467
殘	-9.59483
體用	-9.5954
援	-9.59565
以禮	-9.59576
而今	-9.596
因其	-9.59628
屏	-9.59648
儒者	-9.5969
反覆	-9.59693
於上	-9.59694
霸	-9.59736
一旦	-9.59778
文武	-9.59789
融	-9.59907
之前	-9.59925
艱	-9.59954
冦	-9.6005
者乃	-9.60054
宮	-9.60064
草木	-9.60123
不信	-9.6017
克己	-9.60178
朱熹曰	-9.60239
随	-9.60257
檢	-9.6032
算	-9.60342
遭	-9.60386
光曰	-9.60605
康節	-9.60613
次第	-9.60643
錫	-9.60688
不息	-9.60774
之失	-9.6079
只在	-9.60808
必以	-9.60821
而生	-9.6085
性也	-9.60852
吝	-9.60917
譏	-9.60932
虧	-9.6094
兒	-9.61008
排	-9.61013
龜山	-9.6103
階	-9.61061
死者	-9.61082
學之	-9.61133
寓	-9.61146
氣之	-9.61154
多少	-9.61205
胥	-9.61248
肯	-9.61407
些	-9.61408
靣	-9.61432
歛	-9.61489
止於	-9.61568
阿	-9.61715
枉	-9.61744
在外	-9.61768
䟽	-9.61866
之術	-9.61883
健	-9.61908
互	-9.61911
龜	-9.61921
之職	-9.61929
是謂	-9.62043
亦非	-9.62136
更無	-9.62182
佞	-9.62193
使其	-9.62216
溺	-9.62223
終始	-9.62362
之下	-9.62426
本末	-9.62451
思量	-9.62455
院	-9.62536
寜	-9.626
㓜	-9.62626
用兵	-9.6263
不已	-9.62654
凝	-9.62671
築	-9.62713
只有	-9.62739
脱	-9.62758
一貫	-9.62845
茂	-9.63035
翼	-9.63098
無有	-9.6312
一篇	-9.63256
一章	-9.6327
始得	-9.63273
饑	-9.63286
大人	-9.63452
貶	-9.63481
之世	-9.63511
以正	-9.63526
事物	-9.63531
亷	-9.63535
幣	-9.63626
此則	-9.63674
遲	-9.6374
血	-9.63743
誓	-9.63763
題	-9.63788
焚	-9.63791
銖	-9.63792
斥	-9.63846
而不可	-9.63888
禘	-9.63927
陷	-9.63993
輿	-9.6418
所得	-9.6431
潛	-9.64504
其說	-9.64523
廬	-9.64531
禽獸	-9.64686
兆	-9.64816
付	-9.64835
法度	-9.64839
提	-9.65004
閉	-9.65077
也臣按	-9.6508
貳	-9.65121
惟其	-9.65129
而反	-9.65144
磨	-9.65158
之至	-9.65159
魂	-9.65208
五年	-9.65259
鑿	-9.65328
入於	-9.65355
踰	-9.65377
得以	-9.65472
萌	-9.65605
醫	-9.65631
羞	-9.65693
頃	-9.65733
滯	-9.65743
輸	-9.65758
宏	-9.65791
彌	-9.65838
山川	-9.66012
子之	-9.66092
奈何	-9.66096
賣	-9.66114
以待	-9.66226
近世	-9.66313
以道	-9.66373
此書	-9.66387
諸子	-9.66504
倒	-9.66598
凖	-9.66619
邉	-9.66682
韻	-9.66813
戚	-9.66899
孔氏	-9.66904
未盡	-9.66937
之日	-9.6697
直是	-9.66992
朋	-9.67022
力行	-9.67025
四海	-9.67087
丈	-9.67146
骨	-9.67153
方可	-9.6733
孚	-9.67351
之盛	-9.6736
協	-9.6743
皮	-9.67535
要之	-9.67553
於民	-9.67606
完	-9.67614
鄭氏	-9.67655
不聞	-9.67669
四年	-9.6776
文集	-9.67894
終日	-9.68016
稽	-9.68035
天子之	-9.68077
帝王	-9.68087
乎曰	-9.68193
欲以	-9.68397
戾	-9.68455
則民	-9.68615
小學	-9.68648
始終	-9.68686
夕	-9.68735
治天下	-9.68853
忠恕	-9.68867
添	-9.69088
者又	-9.69138
一書	-9.69213
創	-9.69224
淮	-9.69225
其氣	-9.69329
受命	-9.6936
只要	-9.69535
歸於	-9.69653
孝子	-9.69659
洛	-9.69705
丞相	-9.69793
之私	-9.698
脚	-9.69848
境	-9.69909
一理	-9.69919
講學	-9.69933
踐	-9.7004
詣	-9.70052
鑒	-9.70092
賓	-9.70216
乖	-9.7031
擬	-9.70326
上蔡	-9.70531
事業	-9.70534
捨	-9.70548
前後	-9.70623
禀	-9.70692
不通	-9.7076
人才	-9.70843
三者	-9.7085
廣大	-9.70914
易曰	-9.70943
飬	-9.71004
只為	-9.711
此亦	-9.71104
易之	-9.71182
未得	-9.71206
大小	-9.71235
謬	-9.71238
做工夫	-9.71338
之利	-9.71381
單	-9.71465
十三	-9.71601
此説	-9.71608
曰然	-9.71641
一二	-9.71857
蕭	-9.7197
曠	-9.7197
董	-9.71983
是箇	-9.71997
亦自	-9.7208
閑	-9.7214
者謂	-9.72151
一節	-9.72176
之德	-9.72226
騎	-9.72275
也蓋	-9.72315
雖是	-9.72405
教化	-9.72415
道者	-9.72447
萬民	-9.72468
鍾	-9.72518
價	-9.72523
矣此	-9.72694
一一	-9.72697
僧	-9.72742
監察御史	-9.72804
徇	-9.72836
之樂	-9.72877
而死	-9.72978
屯	-9.73058
言之則	-9.73064
伊	-9.73084
二子	-9.73089
渾	-9.73143
剛柔	-9.73156
子夏	-9.73216
敷	-9.73267
於心	-9.73324
話	-9.73411
而民	-9.73495
私欲	-9.73519
无咎	-9.73545
蓄	-9.73608
致其	-9.73627
呂	-9.73645
所在	-9.73759
然亦	-9.73762
驅	-9.73835
諸儒	-9.73957
而知	-9.74011
彰	-9.74037
亮	-9.74073
從容	-9.74106
莫非	-9.74168
俊	-9.74209
動而	-9.74244
滋	-9.74256
趣	-9.74355
嘆	-9.74404
酌	-9.74415
練	-9.7447
謨	-9.74499
禮之	-9.74523
在天	-9.74596
尾	-9.74654
底道理	-9.74655
不忘	-9.74677
是時	-9.74691
朝夕	-9.74761
主於	-9.74801
覽	-9.74856
之使	-9.74881
學校	-9.74902
銘	-9.74986
壁	-9.75024
是如此	-9.75026
故謂之	-9.75096
則亦	-9.75107
又以	-9.75137
始於	-9.75227
紂	-9.75278
項	-9.75291
弓	-9.75385
在這裏	-9.75403
嫌	-9.75468
上帝	-9.75531
秉	-9.75564
此等	-9.7558
底人	-9.75674
在其中	-9.75685
焉則	-9.75722
長者	-9.75755
本朝	-9.75768
旱	-9.75779
戸	-9.75858
混	-9.75902
恵	-9.75903
根本	-9.75917
只得	-9.75963
輪	-9.75997
説話	-9.76013
世子	-9.7602
一家	-9.76033
卓	-9.76048
生物	-9.76074
不受	-9.76095
不應	-9.76158
之勢	-9.76158
割	-9.76192
飢	-9.76365
文義	-9.7638
其性	-9.76388
義剛	-9.76398
髙宗	-9.7654
獸	-9.76546
欠	-9.76575
俟	-9.76582
未至	-9.76589
之餘	-9.7661
之主	-9.76657
日用	-9.76668
儲	-9.76675
悖	-9.76677
契	-9.76719
有道	-9.76771
其民	-9.76801
有常	-9.76854
貴賤	-9.76918
襄	-9.76969
之内	-9.77027
以見	-9.77223
温公	-9.77223
以告	-9.7724
謁	-9.77284
以自	-9.77301
其親	-9.77346
懸	-9.77365
陋	-9.77406
而復	-9.77408
司徒	-9.77514
須要	-9.77714
王道	-9.77726
束	-9.7776
告子	-9.77781
未見	-9.77787
不知其	-9.77941
輙	-9.77953
光明	-9.77954
黜	-9.77955
荆	-9.78064
為大	-9.78111
而立	-9.78214
洪	-9.78323
矣而	-9.78397
而止	-9.78417
威儀	-9.78428
毒	-9.7848
僭	-9.78518
欽	-9.78566
以致	-9.78575
崩	-9.78575
不食	-9.78614
囚	-9.7866
之行	-9.78671
盤	-9.78821
得失	-9.78868
額	-9.78953
昧	-9.78971
析	-9.79026
不去	-9.79096
十一	-9.79099
狄	-9.79131
又何	-9.79163
裕	-9.79282
匈奴	-9.79366
苗	-9.79369
寶	-9.79393
辛	-9.7942
之命	-9.79474
渉	-9.79508
其情	-9.79593
在我	-9.79618
截	-9.7966
者多	-9.79682
沙	-9.79699
駕	-9.79855
東坡	-9.79869
人倫	-9.80105
懲	-9.80107
稅	-9.80118
人所	-9.80186
丹	-9.80228
左傳	-9.80345
不安	-9.80384
之計	-9.80385
自得	-9.80401
事事	-9.80445
之治	-9.80575
於下	-9.80609
匹	-9.80637
故君子	-9.80754
禮也	-9.80784
鄰	-9.80817
虐	-9.81
恨	-9.81013
則不可	-9.81061
使民	-9.81082
無可	-9.81102
亟	-9.81144
庶人	-9.81156
冀	-9.8123
徳之	-9.81247
遏	-9.81292
為己	-9.81391
修身	-9.81485
仁也	-9.81514
墜	-9.81562
妃	-9.81598
水火	-9.81642
事也	-9.817
逢	-9.81726
不止	-9.81816
故有	-9.81842
可為	-9.81897
實理	-9.8191
在下	-9.81932
賴	-9.82006
七十	-9.82018
親切	-9.82129
未及	-9.82172
馳	-9.82196
柄	-9.82205
競	-9.8222
饗	-9.82275
宗子	-9.82287
以示	-9.82357
道徳	-9.82382
賛	-9.82428
甚矣	-9.82483
之才	-9.82484
迫	-9.82504
祗	-9.82561
打	-9.82569
若此	-9.82734
此皆	-9.82773
料	-9.82797
則曰	-9.82818
釐	-9.82877
他日	-9.82886
之序	-9.82948
不須	-9.82992
是他	-9.83188
伍	-9.83217
道心	-9.83231
周官	-9.83257
韋	-9.83309
館	-9.83309
宴	-9.83359
而天下	-9.83389
上面	-9.83474
而欲	-9.83484
曉得	-9.83486
香	-9.83515
盡心	-9.83555
南北	-9.83656
往來	-9.83667
馮	-9.83714
正是	-9.83864
戍	-9.83864
謂其	-9.83928
歸之	-9.83935
為先	-9.84001
下面	-9.84007
行事	-9.84161
義也	-9.84169
緣	-9.84306
言也	-9.84382
溪	-9.84408
準	-9.84431
猛	-9.84451
七年	-9.84454
頓	-9.84474
透	-9.84478
其用	-9.84486
是為	-9.84541
詩書	-9.84583
其初	-9.84605
有三	-9.84637
所載	-9.84647
自此	-9.84661
天下之事	-9.84662
其勢	-9.84664
大槩	-9.84736
惰	-9.84739
寅	-9.84784
正月	-9.84837
刀	-9.84839
一字	-9.84919
裏面	-9.8496
天地間	-9.84992
迷	-9.85004
寒暑	-9.85028
廷	-9.85065
卜筮	-9.85131
上文	-9.85254
一身	-9.85286
百里	-9.85298
無私	-9.85344
渾然	-9.85369
觸	-9.85427
湖	-9.85516
伏羲	-9.85542
於君	-9.8557
皇后	-9.85604
視之	-9.85746
為君	-9.8578
不要	-9.85823
四端	-9.85838
者是	-9.85845
麻	-9.85884
確	-9.85905
天人	-9.8594
刑罰	-9.85948
左氏	-9.85952
所行	-9.86012
一年	-9.86038
在内	-9.8605
於中	-9.8611
副	-9.8621
乎此	-9.86295
所論	-9.86325
張預曰	-9.86408
戮	-9.86434
也如	-9.86463
周之	-9.86548
忿	-9.86626
發見	-9.8663
之難	-9.86642
環	-9.86902
則不能	-9.86905
未有不	-9.86951
督	-9.86951
其家	-9.86963
人臣	-9.86969
則雖	-9.86999
弛	-9.87033
之方	-9.87053
賢人	-9.87074
下文	-9.87089
薛	-9.87103
諡	-9.8711
童	-9.87156
將去	-9.87178
必欲	-9.87191
翁	-9.87228
所能	-9.87252
則可	-9.87276
九二	-9.87315
到得	-9.87367
廉	-9.87408
)○	-9.87473
姜	-9.87575
損益	-9.87602
耗	-9.87638
克己復禮	-9.87639
形容	-9.87647
敝	-9.87672
哲	-9.8768
神宗	-9.87709
十分	-9.87727
者如	-9.87729
太平	-9.87735
甞	-9.87826
可乎	-9.8786
踈	-9.8791
三百	-9.87936
饒	-9.87938
有二	-9.87951
弑	-9.88001
非有	-9.88005
奢	-9.88029
属	-9.88031
寸	-9.88066
無益	-9.88207
誕	-9.88242
亦當	-9.88276
衣食	-9.88304
若有	-9.88339
眼	-9.88343
公卿	-9.88415
當以	-9.88452
窺	-9.88573
収	-9.88661
物也	-9.88664
拒	-9.88788
若夫	-9.88794
冕	-9.88805
隙	-9.88834
而自	-9.88945
辦	-9.8903
雖不	-9.89083
編修	-9.89105
界	-9.89116
畝	-9.89274
蕃	-9.89283
其罪	-9.8931
未可	-9.89315
三公	-9.89317
泣	-9.89396
之家	-9.894
衣服	-9.89473
僻	-9.89479
不肖	-9.89617
途	-9.897
之善	-9.89715
何必	-9.89738
道夫	-9.8976
將軍	-9.89864
亦只是	-9.89872
而不敢	-9.89925
而實	-9.89927
在乎	-9.89954
船	-9.89981
孝經	-9.89991
過於	-9.90087
飽	-9.90138
三分	-9.90185
起於	-9.90189
養之	-9.90274
人道	-9.90321
九五	-9.90326
其辭	-9.90349
自記	-9.90381
裘	-9.90414
整	-9.90425
之端	-9.90464
場	-9.90607
戲	-9.90613
莊子	-9.90676
午	-9.90751
讒	-9.90803
於是乎	-9.9086
如之何	-9.90901
沉	-9.90978
跡	-9.91007
以前	-9.91022
心之	-9.91025
員	-9.91059
存心	-9.91111
也然則	-9.91158
得人	-9.91192
也故曰	-9.91213
則非	-9.91244
尉	-9.9128
或以	-9.91352
乏	-9.9137
墮	-9.91397
枝	-9.91418
物事	-9.91479
明日	-9.91524
挾	-9.9158
文王之	-9.91596
九年	-9.91739
牽	-9.91786
繩	-9.91797
王氏	-9.91807
不許	-9.91816
而為之	-9.91984
峻	-9.91986
醉	-9.91988
亦須	-9.91988
非禮	-9.92001
之義也	-9.92025
於己	-9.92138
愧	-9.92146
無形	-9.92182
宇	-9.92239
不立	-9.92365
無極	-9.92388
用功	-9.92499
太學	-9.9251
而行之	-9.92532
至善	-9.92548
阻	-9.92566
括	-9.92566
集義	-9.92593
聼	-9.92605
季氏	-9.92678
禽	-9.92741
有罪	-9.92778
諸生	-9.92829
更不	-9.92867
湏是	-9.92893
而出	-9.9291
恭敬	-9.92935
洪範	-9.9298
一分	-9.92984
與其	-9.93003
所生	-9.93055
女子	-9.93099
儀禮	-9.93107
成就	-9.93108
覺得	-9.93117
是就	-9.9315
以至於	-9.93165
藩	-9.93196
覩	-9.9321
祈	-9.93227
其名	-9.93263
此又	-9.93264
聖人之道	-9.93314
規模	-9.93356
低	-9.93397
以上語	-9.93483
至今	-9.93487
羙	-9.93581
四者	-9.93592
理也	-9.93622
受之	-9.93665
其位	-9.93808
此所謂	-9.93828
豈能	-9.93851
前日	-9.93884
省察	-9.93902
庻	-9.93925
光武	-9.93994
捕	-9.94223
亦以	-9.9424
故以	-9.94365
揖	-9.94383
親親	-9.94403
孔孟	-9.94405
贈	-9.94438
汙	-9.94439
莒	-9.94461
而得	-9.94477
大率	-9.94592
然後能	-9.94608
不得已	-9.9463
這裏	-9.94767
如此説	-9.94784
者所以	-9.94789
逺矣	-9.948
陽氣	-9.9481
何所	-9.94889
不幸	-9.94918
雪	-9.94962
却不	-9.9498
本無	-9.95055
以義	-9.95085
御史	-9.9512
地位	-9.95122
何為	-9.95147
得他	-9.9516
不求	-9.95371
遍	-9.95412
之門	-9.95487
天性	-9.95597
帛	-9.95655
其父	-9.9566
安能	-9.95667
彦	-9.95668
壇	-9.95677
而歸	-9.95691
考之	-9.95723
吾之	-9.95764
中和	-9.95794
章句	-9.95821
頒	-9.95873
濫	-9.95883
洽	-9.95914
理之	-9.95936
伯夷	-9.95969
若無	-9.96027
之本也	-9.96031
閭	-9.96046
之風	-9.9607
様	-9.96072
剥	-9.96087
之病	-9.96111
非謂	-9.96115
靖	-9.96188
採	-9.96299
攸	-9.96343
其文	-9.96367
一言	-9.96436
亦不可	-9.9645
用心	-9.96469
性善	-9.96511
臯陶	-9.96546
可以為	-9.96653
又言	-9.96692
然後可以	-9.96695
畢竟	-9.96749
聰	-9.96874
極其	-9.96887
猶言	-9.96914
莫能	-9.9694
貧賤	-9.97012
誨	-9.97013
自謂	-9.97041
晚	-9.97075
不能無	-9.97083
已發	-9.9711
雖欲	-9.97134
有過	-9.97171
人之所	-9.97174
侮	-9.9719
不如此	-9.97357
程先生	-9.9737
恱	-9.97458
蹈	-9.9751
探	-9.97557
之爲	-9.97622
諸侯之	-9.97661
方能	-9.97774
只説	-9.97797
井田	-9.9781
夷狄	-9.97906
珠	-9.97954
於道	-9.97971
溢	-9.98013
平生	-9.98077
之㫖	-9.9809
曰我	-9.98149
元亨利貞	-9.98224
其國	-9.98227
去其	-9.98229
當然	-9.98274
暑	-9.9832
何謂	-9.98341
仁宗	-9.98363
邇	-9.98363
至矣	-9.98363
大段	-9.98363
者蓋	-9.9837
範	-9.98419
只是一箇	-9.98431
好學	-9.98482
本於	-9.98515
之過	-9.98517
王之	-9.98532
也哉	-9.98554
超	-9.9858
之美	-9.98594
識得	-9.98596
潜	-9.98624
你	-9.98635
之節	-9.98643
是如何	-9.98654
地之	-9.9867
其體	-9.98717
此其	-9.98719
言者	-9.98727
愛之	-9.98805
此處	-9.98866
礙	-9.9896
方得	-9.98991
冬至	-9.99036
貸	-9.99059
蹇	-9.9908
知者	-9.99085
恣	-9.99088
認	-9.99103
也是故	-9.99106
太守	-9.99111
第三	-9.9941
印	-9.99665
此所以	-9.99708
殺人	-9.99712
日新	-9.99723
局	-9.99753
宣王	-9.99795
者何	-9.99821
夭	-9.99891
之末	-10.0001
書之	-10.0001
擅	-10.0005
於内	-10.0011
䕶	-10.0012
所作	-10.0013
冒	-10.0014
詭	-10.0018
蒲	-10.0045
脩身	-10.0049
此乃	-10.0054
吕氏	-10.0058
塵	-10.0058
懿	-10.0059
東南	-10.0062
所用	-10.0078
主宰	-10.0083
賞罰	-10.0087
闇	-10.0088
貫通	-10.0091
氷	-10.0103
通書	-10.0104
又謂	-10.0105
道義	-10.0105
僣	-10.0105
逺近	-10.0106
功夫	-10.0106
無復	-10.0109
不敬	-10.011
東西	-10.0121
以養	-10.014
父兄	-10.0142
園	-10.0148
人自	-10.0149
覇	-10.0151
莫是	-10.0153
六月	-10.0155
遺書	-10.0155
可畏	-10.016
人能	-10.0161
己之	-10.0164
漏	-10.0168
状	-10.0169
則能	-10.017
岐	-10.0171
公曰	-10.0172
子産	-10.0181
百年	-10.0186
可行	-10.0189
際	-10.019
六年	-10.019
身心	-10.0193
泛	-10.0195
乎其	-10.02
若以	-10.0205
其能	-10.021
無間	-10.0215
瞻	-10.0215
潤	-10.0217
不惟	-10.0217
其法	-10.0218
胡氏	-10.0219
周易	-10.0224
有言	-10.0226
十八	-10.0227
不入	-10.0234
仇	-10.0237
頑	-10.0238
全體	-10.0238
大綱	-10.024
佳	-10.0249
十月	-10.0253
然也	-10.0255
耻	-10.0256
之至也	-10.0257
西北	-10.0262
箴	-10.0265
盡其	-10.0271
狹	-10.0275
梅堯臣曰	-10.0278
圗	-10.0278
與夫	-10.0283
誼	-10.0283
脫	-10.0287
藴	-10.0292
存養	-10.0295
其次	-10.0298
臣良勝曰	-10.03
大本	-10.0302
鄧	-10.0305
而求	-10.031
大體	-10.0317
皆可	-10.0319
一條	-10.0321
南軒	-10.0323
棺	-10.033
不得不	-10.0339
弼	-10.0352
禮者	-10.0354
卿大夫	-10.0361
熱	-10.0368
傳之	-10.0368
播	-10.0371
此說	-10.0378
書云	-10.0379
疆	-10.038
裳	-10.0383
不暇	-10.0391
勲	-10.0394
命也	-10.0398
安排	-10.0401
封建	-10.0403
或謂	-10.0411
成功	-10.0414
戰國	-10.0415
之别	-10.0416
課	-10.0418
租	-10.0423
則當	-10.0435
黒	-10.0435
看來	-10.0446
求其	-10.0454
大義	-10.0454
圭	-10.0455
守之	-10.0459
浸	-10.0462
𦵏	-10.0462
惡之	-10.047
實有	-10.0472
聖人之心	-10.0473
行而	-10.0475
不違	-10.0476
髪	-10.0483
勵	-10.0485
禱	-10.0485
一向	-10.0486
與他	-10.0488
般	-10.0491
無他	-10.05
涉	-10.0503
家人	-10.0504
鼔	-10.0506
其有	-10.0513
尊卑	-10.0524
唐太宗	-10.0528
媚	-10.0535
所云	-10.0535
妨	-10.0537
無一	-10.0543
愛人	-10.0554
譬之	-10.0554
底事	-10.0557
聖門	-10.0563
荀	-10.0575
晏	-10.0575
頼	-10.0578
一曰	-10.0583
其弊	-10.0595
無異	-10.0599
後来	-10.0601
顔淵	-10.0604
行也	-10.0604
徳行	-10.061
燭	-10.0613
溫	-10.0616
也又	-10.0619
宥	-10.0626
都無	-10.0631
萬物之	-10.0631
腹	-10.0635
牢	-10.0636
自己	-10.0638
膳	-10.0645
之異	-10.0649
愚謂	-10.0657
不義	-10.0664
潮	-10.0666
逮	-10.0667
澄	-10.067
醇	-10.067
○/	-10.0673
告之	-10.0683
故云	-10.0688
珍	-10.0694
氣禀	-10.07
尚有	-10.0708
吾儒	-10.0708
嚮	-10.0714
其書	-10.0715
外面	-10.0716
不自	-10.0718
牙	-10.072
太虚	-10.0745
舜之	-10.075
詩人	-10.0751
奥	-10.0762
貽	-10.0762
𨽻	-10.0764
汚	-10.0764
妖	-10.0764
倡	-10.0764
侍郎	-10.0764
有人	-10.0765
徽	-10.0771
銅	-10.0784
是理	-10.0786
方始	-10.0803
隨時	-10.0804
喫	-10.0807
有不	-10.0812
人人	-10.0814
人多	-10.0814
所欲	-10.0815
盡性	-10.0817
乙	-10.0825
諸家	-10.0829
王制	-10.083
咨	-10.0837
不使	-10.0837
也凡	-10.0843
十四	-10.0854
板	-10.0854
子細	-10.0855
弦	-10.0857
者即	-10.0872
之害	-10.0874
便自	-10.0875
黑	-10.0875
存乎	-10.0876
至是	-10.0879
也子曰	-10.09
繇	-10.0901
歡	-10.0903
紫	-10.0903
弄	-10.0904
匡	-10.0905
凡事	-10.0906
聖王	-10.0908
佚	-10.0908
丞	-10.0919
不惑	-10.0926
不死	-10.0927
拂	-10.0928
可學	-10.0932
郡縣	-10.0934
如人	-10.0939
次序	-10.0939
說話	-10.0943
盧	-10.0955
得一	-10.0956
用人	-10.0957
分曉	-10.0963
之權	-10.0968
桀	-10.0977
灌	-10.0977
清明	-10.0985
風雨	-10.0988
也盖	-10.099
少間	-10.099
寃	-10.1002
鈔	-10.1008
閏	-10.1012
旌	-10.1023
繆	-10.1024
傲	-10.1025
故為	-10.1026
妻子	-10.1028
合於	-10.1029
咸曰	-10.1034
士卒	-10.1037
而用之	-10.1039
荘	-10.1039
大凡	-10.1039
皆然	-10.1044
狐	-10.1049
學士	-10.1061
太公	-10.1063
畔	-10.1073
洞	-10.1073
君子以	-10.1074
氣質之性	-10.1078
蠶	-10.1079
十七	-10.108
㳺	-10.1081
精微	-10.1081
體之	-10.1082
鑑	-10.1084
程氏	-10.1087
於前	-10.1088
都不	-10.109
佛氏	-10.1092
如是則	-10.1096
汪	-10.1097
寡人	-10.11
其母	-10.1101
讎	-10.1103
法也	-10.1108
這道理	-10.1109
旗	-10.1111
既有	-10.1114
□	-10.1116
人者	-10.1119
暮	-10.112
為治	-10.1122
冝	-10.1122
尋常	-10.1126
之機	-10.1131
又却	-10.1134
愼	-10.1142
停	-10.1143
茅	-10.1143
祔	-10.1143
燾	-10.1144
樓	-10.1146
子厚	-10.115
蟲	-10.1151
可知矣	-10.1152
帝曰	-10.1153
噐	-10.1154
簿	-10.1164
也君子	-10.1166
躬行	-10.1167
猶未	-10.1173
杞	-10.1176
小大	-10.1184
雖然	-10.1188
也非	-10.1189
麥	-10.1194
之賢	-10.1199
為天下	-10.1207
録云	-10.1208
漸漸	-10.1208
褒	-10.1218
撓	-10.1221
仙	-10.1221
吴	-10.1222
不學	-10.1224
升降	-10.1229
二程	-10.123
間斷	-10.1232
者也故	-10.1234
亦曰	-10.1236
績	-10.1243
匿	-10.1246
姬	-10.1246
則可以	-10.1252
相應	-10.1252
又不	-10.1256
娶	-10.126
而未	-10.126
堪	-10.1265
世俗	-10.1265
孟子言	-10.1266
則心	-10.1269
殯	-10.1274
不可以不	-10.1282
而弗	-10.1283
不察	-10.1288
憚	-10.1291
黃	-10.1292
惻隠	-10.1293
二百	-10.1296
宫室	-10.1299
八年	-10.1306
不亦	-10.1311
遁	-10.1314
這般	-10.1329
也是以	-10.1332
章問	-10.1332
治道	-10.1333
竇	-10.1336
漢儒	-10.1344
之力	-10.1344
迭	-10.1345
多矣	-10.1345
雉	-10.1347
發於	-10.1347
亦未	-10.1351
正如	-10.1353
應之	-10.1356
初無	-10.136
察其	-10.1361
施之	-10.1365
穿	-10.1366
土地	-10.1377
一體	-10.1377
莫若	-10.1388
臧	-10.139
臨事	-10.1392
彭	-10.1392
氏曰	-10.1392
六二	-10.1394
自以為	-10.1395
飲酒	-10.14
善人	-10.1402
人生	-10.1404
河南	-10.1406
不疑	-10.1408
無過	-10.141
氣也	-10.1411
不由	-10.1419
巫	-10.142
如何是	-10.1423
公孫	-10.1432
黄帝	-10.1432
而致	-10.1434
諸人	-10.1439
二十四	-10.144
稱其	-10.144
博士	-10.144
可得而	-10.1444
知言	-10.1445
莫大於	-10.1447
九月	-10.1451
展	-10.1457
四象	-10.1464
也葢	-10.1467
糴	-10.1484
崔	-10.1488
枯	-10.1494
滛	-10.1496
虜	-10.1497
庫	-10.1497
閔	-10.1509
本義	-10.1509
死而	-10.1513
多是	-10.1514
技	-10.1515
時舉	-10.1515
粹	-10.1519
朴	-10.1519
知所	-10.1526
一件	-10.1536
像	-10.1541
一本	-10.1542
有此理	-10.1543
退而	-10.1546
者固	-10.1547
晏子	-10.1553
三代之	-10.1553
州郡	-10.1555
九三	-10.1556
銀	-10.1558
湯武	-10.1562
伊川曰	-10.1563
人以	-10.1563
憤	-10.1566
染	-10.157
所宜	-10.157
受其	-10.1571
言性	-10.1578
讐	-10.1579
問曰	-10.1582
攷	-10.1583
為惡	-10.1583
治亂	-10.1585
筭	-10.1587
訴	-10.1591
不至於	-10.1591
能知	-10.16
天地之心	-10.161
䏻	-10.161
人心之	-10.1612
悅	-10.1618
偷	-10.1619
不變	-10.1621
織	-10.1623
隂陽之	-10.1633
孔門	-10.1634
男子	-10.164
冊	-10.1642
抗	-10.1646
已有	-10.1646
是亦	-10.1648
者以其	-10.1649
長短	-10.1651
善者	-10.1651
傑	-10.1658
蠱	-10.1665
儘	-10.1668
其可	-10.1672
沮	-10.1676
臣下	-10.1677
波	-10.1678
便不是	-10.1681
以生	-10.1682
紀綱	-10.1682
無疑	-10.1683
理會	-10.1683
所知	-10.1684
主一	-10.1691
旬	-10.1694
換	-10.1698
綏	-10.1698
噫	-10.17
不然則	-10.1702
樂之	-10.1702
一作	-10.1704
又是	-10.1704
水旱	-10.1706
洗	-10.1707
於世	-10.171
戒之	-10.171
莽	-10.1712
荆公	-10.172
乂	-10.1721
遯	-10.1721
髙明	-10.1728
善而	-10.1729
生意	-10.1731
之所在	-10.1731
返	-10.1741
一陽	-10.1755
父母之	-10.1763
言行	-10.1763
可見矣	-10.1769
暢	-10.1772
鑄	-10.1773
獵	-10.1774
存亡	-10.1774
也惟	-10.1785
軰	-10.1792
知人	-10.1794
有事	-10.1795
繫辭	-10.18
本原	-10.1809
所聞	-10.1817
久矣	-10.182
淡	-10.1821
繹	-10.1824
此篇	-10.1826
牆	-10.1831
上九	-10.1833
凡人	-10.1841
未聞	-10.1841
祫	-10.1841
二曰	-10.1843
則自	-10.1849
於其	-10.185
時便	-10.1851
更有	-10.1852
故不	-10.1855
韶	-10.1858
大意	-10.1858
是心	-10.1859
士之	-10.1866
此詩	-10.1866
故聖人	-10.1875
二句	-10.1876
六五	-10.1876
官司	-10.188
舅	-10.188
者盖	-10.1881
跪	-10.1881
齊侯	-10.1881
謗	-10.1883
長安	-10.1886
因言	-10.1892
五月	-10.1892
巨	-10.1901
䕫	-10.1905
血氣	-10.1905
畆	-10.1907
是知	-10.1911
體認	-10.1913
嫡	-10.1927
葛	-10.1928
資質	-10.193
不孝	-10.1931
愆	-10.1931
琴	-10.1932
無道	-10.1933
嬰	-10.1936
坊	-10.1949
㫁	-10.195
杜牧曰	-10.195
飭	-10.1958
讀之	-10.1959
睦	-10.1962
躁	-10.1963
八月	-10.1964
敬也	-10.197
髙下	-10.1974
當初	-10.1978
之正	-10.1979
者哉	-10.198
從而	-10.198
到此	-10.1982
囘	-10.1988
用也	-10.1994
叚	-10.1997
紙	-10.2002
鼻	-10.2012
其行	-10.2025
相對	-10.2033
者雖	-10.2038
吹	-10.2042
硬	-10.2044
手足	-10.2044
明徳	-10.2063
㝢	-10.2063
無心	-10.2068
偃	-10.2069
反復	-10.2082
嗟	-10.2083
近於	-10.2086
黍	-10.2091
贖	-10.2093
吁	-10.2093
淑	-10.2095
輯	-10.2096
能盡	-10.2108
禍福	-10.2109
之戒	-10.2115
相去	-10.2118
不能盡	-10.2118
祖考	-10.2118
箕子	-10.2118
可與	-10.2122
皇極	-10.2123
上有	-10.2123
鏡	-10.2126
形體	-10.2127
三人	-10.2128
終不	-10.2135
監司	-10.2136
知道	-10.2138
博學	-10.2143
所以能	-10.2144
格物致知	-10.2144
愛民	-10.2145
之具	-10.215
盜賊	-10.2151
於我	-10.2152
祭之	-10.2152
暇	-10.2153
不能自	-10.2159
道路	-10.2162
自為	-10.2163
不逺	-10.2163
亦不能	-10.2164
不獨	-10.2166
明矣	-10.2168
有定	-10.2169
天下之大	-10.2171
之辨	-10.2171
水之	-10.2174
曰子	-10.2179
父之	-10.2184
漢唐	-10.2184
誥	-10.2189
召公	-10.2191
饋	-10.2191
之資	-10.2192
晦庵	-10.2198
語録	-10.2201
性者	-10.2202
之所為	-10.2206
僖	-10.2212
一念	-10.2213
兩句	-10.2222
不齊	-10.2224
八十	-10.2224
以利	-10.2225
樸	-10.2228
訖	-10.223
此之謂也	-10.2231
一月	-10.2234
相見	-10.224
有許多	-10.224
喜怒哀樂	-10.224
則謂之	-10.2247
有無	-10.2247
非獨	-10.2251
亦必	-10.2253
自欺	-10.2255
薪	-10.2255
人君之	-10.2257
醜	-10.2257
黄鍾	-10.2259
三軍	-10.2263
者惟	-10.2264
民間	-10.2265
此段謂	-10.2268
裂	-10.2269
晩	-10.2275
下同	-10.2277
委曲	-10.2278
帖	-10.2279
瑞	-10.228
筮	-10.2282
溝	-10.2282
前代	-10.2283
常人	-10.2285
其地	-10.2291
後面	-10.2294
以身	-10.2296
三曰	-10.2297
而動	-10.2301
數十	-10.2303
集註	-10.2305
不覺	-10.231
必須	-10.2311
賔客	-10.2318
生民	-10.2322
若能	-10.2325
事天	-10.2326
去之	-10.2329
騐	-10.2331
進士	-10.2336
將來	-10.2337
躍	-10.2337
不和	-10.234
糾	-10.2344
此之謂	-10.235
此便是	-10.2351
漢書	-10.2363
注云	-10.2364
恐其	-10.2367
其下	-10.2369
只是要	-10.2371
在位	-10.2375
敬則	-10.2379
世間	-10.2384
民心	-10.2389
耦	-10.2389
鄒	-10.2391
毫	-10.2392
方其	-10.2392
玩味	-10.2393
邵子	-10.2403
聖祖	-10.2404
天地萬物	-10.2406
其始	-10.2406
浩	-10.2406
本意	-10.2407
了又	-10.2416
而言之	-10.2417
絃	-10.2417
賁	-10.2421
是仁	-10.2421
乾之	-10.2422
迂	-10.2425
僖公	-10.2425
堯夫	-10.2427
黎	-10.243
蒼	-10.2432
只就	-10.2434
李筌曰	-10.2437
朱熹	-10.2443
萃	-10.2443
是説	-10.2446
劉氏	-10.2447
其職	-10.2452
竊謂	-10.2453
無人	-10.246
不宜	-10.2462
其上	-10.2467
之流	-10.2472
佩	-10.2474
為義	-10.2475
紛	-10.2484
明年	-10.2496
昭公	-10.2497
之大者	-10.2497
紹	-10.2497
之效	-10.25
一邊	-10.2504
逼	-10.2506
之宜	-10.2513
皆當	-10.2524
相反	-10.2524
閲	-10.253
不中	-10.2532
便見	-10.2535
甚好	-10.2535
之師	-10.2551
詰	-10.2557
十一月	-10.2557
暫	-10.256
驟	-10.2562
臭	-10.2562
及於	-10.2566
施行	-10.2568
任之	-10.2569
親之	-10.2572
聖人之言	-10.2576
區	-10.2579
處事	-10.258
犬	-10.2581
刃	-10.2583
大道	-10.2585
其學	-10.2588
區區	-10.2589
興起	-10.2597
持敬	-10.2597
去做	-10.26
肥	-10.2614
一生	-10.2616
從此	-10.2621
外物	-10.2624
乃能	-10.2625
正心	-10.264
拙	-10.2642
司空	-10.265
聞見	-10.2657
高祖	-10.2659
煞	-10.2663
固已	-10.2674
其德	-10.2682
生而	-10.2685
萬一	-10.2686
也聖人	-10.2691
何處	-10.2693
平易	-10.2696
夾	-10.2697
於朝	-10.2697
件	-10.27
璧	-10.2703
而卒	-10.2703
胸中	-10.2704
於事	-10.2704
瞽	-10.2706
熊	-10.2706
惟恐	-10.2714
科舉	-10.2714
人亦	-10.2723
需	-10.2725
今世	-10.2727
因問	-10.2728
慰	-10.273
勅	-10.273
嘗言	-10.2733
太和	-10.2735
天地之間	-10.2743
邵	-10.2749
流於	-10.2751
正直	-10.2753
掠	-10.2757
之國	-10.2757
刋	-10.2759
邦國	-10.2764
者當	-10.277
撥	-10.2771
智者	-10.2771
也且	-10.2775
皆在	-10.2776
以及	-10.2777
何哉	-10.2781
中道	-10.2782
處便	-10.2782
紅	-10.2782
壻	-10.2784
而至於	-10.2785
之長	-10.2785
而後有	-10.2787
經文	-10.2788
道體	-10.2789
正則	-10.279
孟子所謂	-10.2791
之憂	-10.2803
喜怒	-10.2805
七月	-10.2807
人傑	-10.281
上説	-10.2813
慾	-10.2815
替	-10.2816
必待	-10.2817
出来	-10.282
立志	-10.2821
鄉黨	-10.2823
信之	-10.2824
無常	-10.2835
有些	-10.2837
所記	-10.2842
襄公	-10.2842
生者	-10.2843
隅	-10.2846
循環	-10.2848
此道	-10.2848
也至於	-10.2851
元祐	-10.2857
久之	-10.2864
抵	-10.2875
俯	-10.2876
不顧	-10.2883
為陽	-10.2885
便要	-10.2885
一處	-10.2892
與我	-10.2893
别有	-10.2898
些子	-10.2899
夫子之	-10.2899
栁	-10.2899
巾	-10.29
比之	-10.2901
軒	-10.2902
專以	-10.2902
不可得而	-10.2903
矣又	-10.2905
亦猶	-10.2905
蘭	-10.2908
未免	-10.2909
已是	-10.291
措	-10.2912
勉强	-10.2914
莫如	-10.2922
减	-10.293
漁	-10.2932
劒	-10.2933
不離	-10.2935
忠臣	-10.2949
而去	-10.2953
行者	-10.2958
不特	-10.296
中也	-10.2966
不可為	-10.2972
譬	-10.2974
為國	-10.2985
兩端	-10.2988
竝	-10.2989
姤	-10.2992
卧	-10.2993
此類	-10.2997
月令	-10.3001
若只	-10.3005
施於	-10.3013
㢘	-10.3015
刺史	-10.3017
之任	-10.3017
正而	-10.3017
詢	-10.3019
綴	-10.3019
巖	-10.302
穴	-10.3023
大矣	-10.3024
祚	-10.3028
子張	-10.3036
其一	-10.3036
不服	-10.3038
皆為	-10.3041
前輩	-10.3041
鹿	-10.3046
九四	-10.305
橋	-10.3051
天下之人	-10.3051
亦多	-10.3051
存焉	-10.3054
於其間	-10.3055
天下無	-10.3056
知此	-10.3059
可觀	-10.3069
屨	-10.3074
攘	-10.3075
顛	-10.3075
馭	-10.3076
孔子之	-10.3077
榜	-10.3079
瀆	-10.308
托	-10.3083
罵	-10.3083
巢	-10.3084
至如	-10.3089
唱	-10.3092
吾心	-10.3096
三王	-10.3096
不誠	-10.31
河圖	-10.3103
常存	-10.3105
脉	-10.3111
之迹	-10.3117
變易	-10.312
事而	-10.3128
何其	-10.3129
言仁	-10.3129
遂以	-10.313
主之	-10.3137
鴻	-10.3138
莊公	-10.3138
依舊	-10.3144
茶	-10.3145
以備	-10.3146
綱紀	-10.315
易傳	-10.3152
及至	-10.3154
王曰	-10.3155
者謂之	-10.3157
五聲	-10.3159
製	-10.3164
本文	-10.3164
民者	-10.3169
曾㸃	-10.3171
不可曉	-10.3171
五百	-10.3178
立法	-10.3178
征伐	-10.318
天下國家	-10.3183
為民	-10.3184
不窮	-10.3188
䧟	-10.3188
不可行	-10.3193
個	-10.3193
催	-10.3201
柱	-10.3201
而無所	-10.3202
國人	-10.3208
處如	-10.3212
非特	-10.3214
本是	-10.3221
這便是	-10.3221
濓溪	-10.3224
亦可以	-10.3224
天下事	-10.3227
濶	-10.3228
軌	-10.323
表裏	-10.3234
於身	-10.3239
矣若	-10.3243
官吏	-10.3249
艱難	-10.325
闊	-10.3251
程朱	-10.3251
臣若水通曰此	-10.3252
不問	-10.3255
冗	-10.3255
大雅	-10.3257
敖	-10.3259
恬	-10.326
物而	-10.3275
消長	-10.3279
其利	-10.3281
數年	-10.3286
駭	-10.3287
閱	-10.3288
將以	-10.3288
舅姑	-10.3289
禾	-10.329
斧	-10.3293
蔵	-10.3293
異於	-10.3296
小人之	-10.3297
未易	-10.3298
而發	-10.3309
而不為	-10.331
睿	-10.3316
功名	-10.3316
滕	-10.3322
這是	-10.3323
諒	-10.3325
孔明	-10.3328
其數	-10.333
否曰然	-10.334
明堂	-10.334
最為	-10.3341
菜	-10.3342
億	-10.3342
皆不	-10.3344
毅	-10.3349
皆非	-10.3349
叅	-10.335
纂	-10.3351
天下之理	-10.3352
矣今	-10.3356
三子	-10.336
不測	-10.336
倦	-10.3363
公私	-10.3376
縮	-10.3376
募	-10.3377
刼	-10.3381
一時之	-10.3382
日月星辰	-10.3382
兩儀	-10.3385
善則	-10.3389
其時	-10.3394
不改	-10.3398
浩然之氣	-10.3405
是要	-10.3405
於物	-10.3409
著力	-10.3409
十二月	-10.3409
牒	-10.341
擢	-10.3411
何事	-10.3413
鈞	-10.3413
察之	-10.3418
兩字	-10.342
不思	-10.3423
后稷	-10.3423
生死	-10.3427
域	-10.3434
之形	-10.3441
為能	-10.3442
亢	-10.3443
隐	-10.3444
必不	-10.3452
伯恭	-10.3452
可用	-10.3453
何不	-10.3454
周公之	-10.3455
曰天	-10.3457
以行	-10.3457
齊人	-10.3458
不失其	-10.3462
千古	-10.3464
何嘗	-10.3465
命之	-10.3466
初九	-10.3467
距	-10.3471
曷	-10.3481
賢才	-10.3493
長子	-10.3494
人不	-10.3495
老氏	-10.3502
化之	-10.3503
熹	-10.3503
楊氏	-10.3505
艾	-10.3506
治國	-10.3507
鄉里	-10.3514
苖	-10.3518
唐虞	-10.3519
天徳	-10.3522
萊	-10.3523
太極圖	-10.3525
所及	-10.3525
其才	-10.3528
十九	-10.3531
墻	-10.3534
終是	-10.3536
恐懼	-10.3536
僚	-10.3536
曰夫	-10.3537
者葢	-10.3538
和平	-10.3538
之業	-10.3544
之微	-10.3553
彼此	-10.3566
雞	-10.3566
之類是也	-10.3577
測	-10.3583
但以	-10.3586
中原	-10.3588
良心	-10.359
南軒曰	-10.3592
翻	-10.3594
於理	-10.3596
之化	-10.3597
桀紂	-10.3599
下工夫	-10.36
嗜	-10.3605
曰君	-10.3605
蔡沈曰	-10.3616
事理	-10.362
傍	-10.362
非其	-10.3623
道而	-10.3623
故事	-10.3625
而退	-10.3626
也但	-10.3636
炎	-10.3637
緒	-10.3639
誠敬	-10.3642
方有	-10.3642
仁之	-10.3646
便不	-10.3648
即所謂	-10.365
漫	-10.3656
償	-10.3659
只是箇	-10.3663
舉其	-10.3665
之詞	-10.3669
用其	-10.367
衣冠	-10.3671
用事	-10.3672
有大	-10.3673
之費	-10.3676
五帝	-10.3681
旨	-10.3681
清濁	-10.3681
一等	-10.3682
時有	-10.3683
之精	-10.3684
敵人	-10.3686
道德	-10.3688
天資	-10.3691
人為	-10.3692
講論	-10.3703
財用	-10.3706
木之	-10.371
祧	-10.3712
義者	-10.3714
乃以	-10.3719
二十五	-10.372
俸	-10.372
一以貫之	-10.3721
捐	-10.3722
册	-10.3723
奴	-10.3724
潘	-10.3726
㸔得	-10.373
之聲	-10.3733
之神	-10.3734
成湯	-10.3735
或者	-10.3736
所説	-10.374
再拜	-10.3741
匹夫	-10.3743
拔	-10.375
豆	-10.3753
㧞	-10.3754
未成	-10.3756
成人	-10.3757
不備	-10.376
山林	-10.3762
乎哉	-10.3771
變而	-10.3771
食之	-10.3771
不聽	-10.3775
為害	-10.3779
人知	-10.3782
其失	-10.3783
膏	-10.3785
版	-10.3787
賈誼	-10.3787
仲弓	-10.3789
二三	-10.3794
精粗	-10.3795
齊王	-10.3797
晉侯	-10.3797
之衆	-10.3802
曰某	-10.3806
賂	-10.3807
王晳曰	-10.3808
正也	-10.3815
有限	-10.3815
訛	-10.3816
鬻	-10.3817
上曰	-10.3827
哀公	-10.3827
通鑑	-10.383
為難	-10.3835
不取	-10.3838
蒸	-10.3846
骨肉	-10.3852
三十六	-10.3854
殤	-10.3854
主敬	-10.3856
救之	-10.3858
二條	-10.3864
江南	-10.3869
而終	-10.3875
吾身	-10.3875
普	-10.3878
昔者	-10.3882
董仲舒	-10.3882
某人	-10.3887
亦何	-10.3891
貼	-10.3897
/○	-10.39
曲折	-10.3901
於後	-10.3909
為心	-10.391
逰	-10.3912
詠	-10.3914
䜛	-10.3914
頤	-10.3915
有益	-10.3915
本體	-10.3918
考其	-10.3919
之可	-10.3928
西南	-10.3934
氏之	-10.3935
我之	-10.3937
百工	-10.3942
屈伸	-10.3945
漆	-10.3945
條理	-10.395
執事	-10.3961
之不可	-10.3962
之常	-10.3964
荀子	-10.3966
所居	-10.3973
亥	-10.3975
疇	-10.3977
吐	-10.3979
乎天	-10.398
處便是	-10.3987
之深	-10.399
凡有	-10.3995
此非	-10.3999
敬之	-10.4
備矣	-10.4001
巡	-10.4005
隘	-10.401
勒	-10.4011
昬	-10.4011
宦官	-10.4015
矩	-10.4015
浪	-10.4016
極好	-10.4021
親戚	-10.4022
聲色	-10.4022
伐之	-10.4025
耳若	-10.4028
從事	-10.4031
以立	-10.4034
五代	-10.4035
規矩	-10.4039
揆	-10.4041
上書	-10.4043
居之	-10.4044
凌	-10.4045
安得不	-10.4047
臯	-10.4047
知也	-10.4048
恐是	-10.4054
自立	-10.4064
大功	-10.4066
海内	-10.407
阜	-10.4076
薨	-10.4077
少陽	-10.4083
有形	-10.4084
皆得	-10.4089
中節	-10.4097
而不得	-10.41
以相	-10.4103
後學	-10.4105
兑	-10.4106
却有	-10.4107
不甚	-10.4107
突	-10.4108
乃可	-10.4109
之月	-10.4109
徃徃	-10.4112
開元	-10.4114
緩急	-10.4114
本心	-10.4116
在前	-10.4117
於義	-10.4118
下學	-10.4125
宣公	-10.4127
專一	-10.4129
之謀	-10.4133
柴	-10.4139
卽	-10.414
燒	-10.4143
足矣	-10.4147
制之	-10.4147
人之性	-10.415
以治	-10.4151
由此	-10.4164
天理人欲	-10.4165
槩	-10.4165
四句	-10.4169
徳者	-10.4171
常常	-10.4172
知至	-10.4174
恪	-10.4174
倣	-10.4176
揚雄	-10.4177
誡	-10.4178
生之	-10.4179
豈得	-10.4184
則天下	-10.4187
秋冬	-10.4188
方氏	-10.4189
二氣	-10.4191
在其中矣	-10.4196
事上	-10.4196
祐	-10.4197
稷	-10.42
也朱子曰	-10.4204
五事	-10.4204
札	-10.4206
者正	-10.4207
出處	-10.4207
被他	-10.421
一叚	-10.4211
庶子	-10.4215
所至	-10.4225
邾	-10.4225
殊不知	-10.4226
云爾	-10.4229
心不	-10.4231
斯民	-10.4233
不加	-10.4234
如何得	-10.4236
而後能	-10.4237
教他	-10.4238
胷中	-10.4239
使者	-10.4239
四夷	-10.4239
两	-10.424
之甚	-10.424
郷	-10.4242
責之	-10.4244
得中	-10.4245
物欲	-10.4247
而言也	-10.426
養氣	-10.4271
麄	-10.4272
灰	-10.4275
所由	-10.4276
曰今	-10.4277
不存	-10.4283
自知	-10.4284
溺於	-10.4285
如云	-10.4291
鐘	-10.4293
不著	-10.4293
墳	-10.4301
戈	-10.4302
晨	-10.4306
苛	-10.4308
饌	-10.4308
豕	-10.4308
聖學	-10.4308
詆	-10.4309
聖賢之	-10.4317
曰君子	-10.4319
不濟事	-10.4319
三千	-10.432
不妨	-10.4321
王安石	-10.4323
堯之	-10.4327
之所以為	-10.433
中者	-10.4335
碑	-10.4341
潰	-10.4342
黄鐘	-10.4343
柩	-10.4345
三十二	-10.4345
非徒	-10.4354
有異	-10.4357
蘇氏	-10.4361
不到	-10.4365
无妄	-10.4365
學而	-10.4367
身上	-10.4368
熙	-10.437
而作	-10.4378
而用	-10.4383
不曉	-10.4383
士人	-10.4389
安於	-10.4394
是之謂	-10.4398
處之	-10.44
屠	-10.4405
語孟	-10.441
於彼	-10.4411
一百	-10.4413
九十	-10.4414
漢之	-10.4415
正當	-10.4416
其善	-10.4419
甚多	-10.4424
許多道理	-10.443
而必	-10.4432
有四	-10.4439
髮	-10.4442
為隂	-10.4444
令人	-10.4449
為正	-10.4461
東方	-10.4464
得箇	-10.4468
盍	-10.448
韓子	-10.4485
以事	-10.4487
義之	-10.4487
之器	-10.449
太甲	-10.4491
未嘗有	-10.4496
一定	-10.4496
為法	-10.4497
羞惡	-10.4498
有天下	-10.4501
便見得	-10.4505
則無以	-10.4508
為貴	-10.451
埋	-10.4511
置之	-10.4512
即此	-10.4512
歉	-10.4512
斤	-10.4513
惇	-10.4513
其害	-10.4515
棘	-10.4516
惟是	-10.4516
亦如之	-10.4519
文學	-10.4519
詔曰	-10.4529
稟	-10.4531
底物事	-10.4532
象山	-10.4543
曰昔	-10.4543
惕	-10.4543
翰	-10.4543
障	-10.4543
綂	-10.4544
虚心	-10.4547
守令	-10.4552
掛	-10.4552
東北	-10.4552
簒	-10.4553
透徹	-10.4554
而入	-10.4555
之處	-10.4557
為性	-10.4558
值	-10.4558
昨	-10.4567
異乎	-10.4568
以敬	-10.457
當世	-10.4575
狎	-10.4576
多有	-10.4576
時節	-10.4577
其生	-10.4578
鞭	-10.4582
狗	-10.4583
楊墨	-10.4585
首尾	-10.4589
不絶	-10.459
曰若	-10.4594
渙	-10.4601
心也	-10.4604
其政	-10.4608
可不	-10.4608
多寡	-10.4608
文子	-10.4609
㽦	-10.461
怯	-10.4611
焦	-10.4613
肇	-10.4614
中興	-10.4622
治民	-10.4627
文中子	-10.4628
莫之	-10.4629
庚	-10.4629
固非	-10.4633
不作	-10.4633
二月	-10.4634
上達	-10.4637
只說	-10.4638
同姓	-10.4639
漕	-10.4643
酬	-10.4645
梅	-10.4647
行道	-10.465
牀	-10.465
論其	-10.4652
袁	-10.4654
而可	-10.4654
踐履	-10.4654
其聲	-10.4654
六十四	-10.4657
彖	-10.466
難得	-10.4663
一氣	-10.4674
敬字	-10.4675
可得	-10.4677
那裏	-10.468
粥	-10.4681
枝葉	-10.4682
百世	-10.4684
陽明	-10.4688
相傳	-10.4688
于此	-10.4689
收斂	-10.4689
君子之道	-10.469
糶	-10.4693
各自	-10.4704
有疑	-10.4705
終於	-10.4706
不治	-10.471
可否	-10.4711
堯舜之	-10.4714
不似	-10.4716
徳性	-10.4717
兊	-10.4721
洪武	-10.4721
甸	-10.4724
而言則	-10.4731
次之	-10.4732
無罪	-10.4735
教者	-10.4735
酉	-10.4739
伯淳	-10.474
一卷	-10.474
公羊	-10.4741
泰山	-10.4751
衝	-10.4751
看他	-10.4752
偶然	-10.4755
為上	-10.4755
見聞	-10.4756
熟讀	-10.4758
按此	-10.4759
李氏	-10.4762
文言	-10.4763
研	-10.4767
臣子	-10.4769
何用	-10.477
之仁	-10.4774
絰	-10.4775
求仁	-10.4778
村	-10.4782
魏公	-10.4783
蛇	-10.4785
標	-10.4788
膚	-10.479
一語	-10.4795
翕	-10.4796
以此為	-10.4802
物物	-10.4804
涵	-10.481
仁則	-10.4811
駁	-10.4813
知天	-10.4815
只如	-10.4815
仁人	-10.482
蓍	-10.482
効	-10.4823
之所謂	-10.4826
竈	-10.4827
之意也	-10.4828
太過	-10.4835
教民	-10.4837
之役	-10.484
萬里	-10.4845
善也	-10.4846
集注	-10.4847
不爲	-10.4851
聞其	-10.4851
纎	-10.4858
隣	-10.4858
銷	-10.4859
者多矣	-10.4861
殖	-10.4861
安石	-10.4862
忽然	-10.4862
訓曰	-10.4863
不順	-10.4868
臣按此	-10.4868
不差	-10.487
蠲	-10.4871
相近	-10.4871
人性	-10.4875
誠能	-10.4875
雖曰	-10.4878
未到	-10.4878
所學	-10.488
掃	-10.4881
便可	-10.4882
不害	-10.4883
持守	-10.4885
宣帝	-10.4889
狥	-10.4889
岸	-10.4891
浚	-10.4892
鬱	-10.4894
𤼵	-10.4895
湛	-10.4897
鳳	-10.49
利而	-10.4902
處置	-10.4908
甚麽	-10.491
豈無	-10.491
曰固是	-10.4912
但當	-10.4913
今以	-10.4914
君子小人	-10.4915
國語	-10.4916
岳	-10.4918
揲	-10.4923
卻	-10.4934
商量	-10.4943
也若夫	-10.495
南方	-10.4959
立言	-10.4961
所受	-10.4964
蠧	-10.4966
尊賢	-10.4968
六爻	-10.4971
起居	-10.4971
一則	-10.4973
三十年	-10.4978
惜乎	-10.4982
不解	-10.4982
不一	-10.4984
感動	-10.4988
於禮	-10.499
曰聖人	-10.499
病痛	-10.4994
皆無	-10.4994
與天	-10.4995
古禮	-10.4996
禍亂	-10.4998
形氣	-10.5
存之	-10.5
嶽	-10.5001
怕	-10.5003
此句	-10.5003
分為	-10.5008
明其	-10.501
中書	-10.5014
安危	-10.5014
如此說	-10.5017
先生云	-10.5018
烝	-10.502
之訓	-10.5021
姚	-10.5026
人之心	-10.5027
兌	-10.5029
賑	-10.5032
功業	-10.5032
泄	-10.5034
愛敬	-10.5044
盛徳	-10.5053
五刑	-10.5054
合當	-10.506
為此	-10.5061
之誠	-10.5068
斟酌	-10.507
羮	-10.5071
又自	-10.5075
作詩	-10.5082
陽也	-10.5086
可使	-10.5087
有所不	-10.5092
上六	-10.5099
理則	-10.5102
聲音	-10.5104
壹	-10.5105
之㑹	-10.5106
淺深	-10.5107
津	-10.5107
及此	-10.5107
懋	-10.5109
五日	-10.5113
之交	-10.5116
有徳	-10.5119
名曰	-10.512
義利	-10.5125
了便	-10.5131
武侯	-10.5133
四曰	-10.5137
壅	-10.514
無欲	-10.514
憑	-10.5144
公主	-10.5155
答曰	-10.5158
焉故	-10.5161
壤	-10.5163
然後可	-10.5167
大要	-10.5175
冩	-10.5177
要做	-10.5178
内則	-10.5179
非聖人	-10.5179
寂然不動	-10.518
几	-10.518
之類皆	-10.5181
扇	-10.5181
祇	-10.5182
固不	-10.5182
穢	-10.5183
頥	-10.5184
厚薄	-10.5189
做去	-10.5195
乎夫	-10.5199
棄之	-10.5199
無用	-10.5205
三才	-10.5205
郡國	-10.5207
心之所	-10.5209
順理	-10.521
稱之	-10.521
否則	-10.521
自守	-10.5211
巷	-10.5217
三章	-10.5217
鬬	-10.5217
是性	-10.5218
諂	-10.5222
患難	-10.5228
一國	-10.523
正理	-10.5231
真實	-10.5234
皆自	-10.5236
于天	-10.5249
不生	-10.5254
塲	-10.5254
劇	-10.5254
亦得	-10.5255
夙夜	-10.526
斯言	-10.526
先聖	-10.5264
有時而	-10.5265
太常	-10.527
千載	-10.5271
不務	-10.5271
之中而	-10.5273
天也	-10.5275
誠心	-10.5276
爽	-10.5276
支離	-10.5281
利貞	-10.5285
絹	-10.5286
顔色	-10.5288
陳氏	-10.5291
諷	-10.5291
偉	-10.5291
作文	-10.5294
鄉人	-10.5295
太史	-10.5296
中外	-10.5298
雖未	-10.53
中心	-10.5307
四徳	-10.5308
不得已而	-10.5308
氣化	-10.5317
模	-10.5327
以仁	-10.5327
不利	-10.5328
無二	-10.5333
眉	-10.5333
成徳	-10.5334
便能	-10.5337
有意	-10.5339
法令	-10.5345
未安	-10.5346
人言	-10.5347
做事	-10.5348
最好	-10.5349
無餘	-10.5352
民生	-10.536
亦皆	-10.5364
季孫	-10.5364
腐	-10.5366
達於	-10.5366
雙	-10.5368
之所由	-10.5368
許之	-10.537
之稱	-10.5371
嘗謂	-10.5374
其力	-10.5375
和而	-10.5378
世人	-10.5386
釋之	-10.5394
江西	-10.5395
合下	-10.5397
乃知	-10.5398
為文	-10.5398
後世之	-10.5399
衷	-10.54
碎	-10.5401
藻	-10.5402
擁	-10.5405
接物	-10.5407
已自	-10.5415
底是	-10.5416
皆由	-10.5416
從其	-10.5416
軍旅	-10.5417
者或	-10.5418
天時	-10.5426
寇	-10.5427
時也	-10.5438
網	-10.5439
舌	-10.5439
匠	-10.5439
遣使	-10.544
諸賢	-10.5441
勁	-10.5441
佗	-10.5443
䘏	-10.5443
曲禮	-10.5446
曰朕	-10.5454
正叔	-10.5458
周旋	-10.5459
家語	-10.5465
家之	-10.5466
四方之	-10.5467
雖多	-10.5468
官府	-10.5469
義理之	-10.5469
諸將	-10.5474
能使	-10.5475
嬖	-10.5476
紹興	-10.5477
至公	-10.5479
人之道	-10.548
者何也	-10.5481
全無	-10.5481
鐵	-10.5481
尊者	-10.5483
先天	-10.5484
之原	-10.5485
而上	-10.5486
自今	-10.5487
二千石	-10.5489
消息	-10.549
樂也	-10.549
辨之	-10.5491
自見	-10.5494
不可謂	-10.55
戒懼	-10.5504
至徳	-10.5506
什	-10.5506
五經	-10.5507
則已	-10.5509
所存	-10.551
貞觀	-10.551
節文	-10.5513
一毫	-10.5515
麟	-10.5517
二十八	-10.552
東萊	-10.552
為利	-10.5528
心術	-10.5528
古文	-10.5534
五常	-10.5534
宗室	-10.5538
而起	-10.5541
者豈	-10.5542
非但	-10.5542
正其	-10.5542
忠厚	-10.5543
不平	-10.5546
感應	-10.5547
廵	-10.5548
至大	-10.555
乾道	-10.5556
小民	-10.5557
以天下	-10.556
六十四卦	-10.5563
某嘗	-10.5564
上言	-10.5565
所取	-10.5566
公之	-10.5571
君命	-10.5572
進而	-10.5573
第四	-10.5576
操存	-10.5583
緯	-10.5585
日月之	-10.5587
誌	-10.5589
雕	-10.559
能為	-10.5592
近日	-10.5597
遇事	-10.5599
布衣	-10.5606
簡易	-10.5609
行則	-10.561
因以	-10.5612
只是説	-10.5613
而進	-10.5614
因舉	-10.5619
昭穆	-10.5621
斛	-10.5623
唐之	-10.5624
無一毫	-10.5624
其大	-10.5627
殃	-10.5629
望之	-10.5629
誇	-10.5632
出而	-10.5633
兩箇	-10.5633
之象也	-10.5634
仲舒	-10.5635
萬理	-10.5639
而况	-10.5642
藏之	-10.5643
葉氏曰	-10.5646
以象	-10.5647
不修	-10.5651
之服	-10.5654
一爻	-10.5656
得此	-10.5658
疲	-10.5665
敕	-10.5665
泳	-10.5667
鳥獸	-10.5667
䙝	-10.5667
零	-10.5671
德之	-10.5675
惡者	-10.5676
易簡	-10.5678
此其所以	-10.5678
三百六十	-10.5679
此段	-10.5684
師友	-10.5689
不妄	-10.569
固當	-10.569
道則	-10.5697
子游	-10.5697
謹獨	-10.5698
姓名	-10.5699
憐	-10.5701
宗族	-10.5705
僞	-10.5705
不可得	-10.5707
幕	-10.5708
晦翁	-10.5714
其私	-10.5716
知止	-10.5716
莫不有	-10.572
十有二	-10.5723
然有	-10.5727
得其正	-10.5728
君也	-10.5729
而不知其	-10.5729
不知如何	-10.5729
計較	-10.5732
固不可	-10.5732
不但	-10.5732
一念之	-10.5735
國家之	-10.5736
洛書	-10.5736
於地	-10.574
曰不然	-10.574
見識	-10.5741
丑	-10.5743
義則	-10.5745
河東	-10.5746
盥	-10.5747
冰	-10.5752
此三者	-10.5756
大國	-10.5759
之殊	-10.576
成物	-10.5774
已成	-10.578
功臣	-10.578
演	-10.578
貎	-10.5782
耆	-10.5782
六卿	-10.5784
冲	-10.5784
居中	-10.5787
不可知	-10.579
先君	-10.5795
必自	-10.5796
此即	-10.5799
間有	-10.5799
復有	-10.5803
一嵗	-10.5804
積累	-10.5805
何足	-10.5808
寂	-10.5808
者衆	-10.581
其惡	-10.581
邪正	-10.5814
景公	-10.5817
四月	-10.5817
險阻	-10.582
乃為	-10.5822
促	-10.5824
四字	-10.5829
自當	-10.5833
春夏	-10.5834
無疆	-10.5834
釋此	-10.5835
有五	-10.5837
職事	-10.5838
程子謂	-10.5839
語意	-10.5843
相生	-10.5845
之明	-10.5846
既已	-10.5854
不厭	-10.5855
不欺	-10.5856
卯	-10.5857
佛老	-10.5858
何有	-10.5861
劄	-10.5861
便説	-10.5862
慘	-10.5863
執政	-10.5863
爲之	-10.5863
冢宰	-10.5864
初學	-10.5866
經義	-10.5867
濯	-10.5867
各有所	-10.587
事者	-10.5872
我朝	-10.5872
正道	-10.5872
二公	-10.5875
小子	-10.5876
改過	-10.5879
導之	-10.588
所有	-10.5881
惟有	-10.5883
太史公	-10.5884
天地之氣	-10.5888
三家	-10.5894
捉	-10.5895
曰公	-10.5896
此義	-10.5898
柳	-10.5899
一夫	-10.5899
慝	-10.5904
生生	-10.5905
脅	-10.5906
一齊	-10.5909
利用	-10.591
荀卿	-10.5911
祕	-10.5912
止之	-10.5916
其終	-10.5917
語言	-10.5921
不忠	-10.5926
入于	-10.5928
去處	-10.5929
不遺	-10.5929
六四	-10.5931
樞	-10.5932
勃	-10.5936
閩	-10.5937
是乃	-10.5939
明王	-10.594
鋭	-10.594
仁是	-10.594
凢	-10.5941
婚	-10.5942
作樂	-10.5944
四書	-10.5946
鄭伯	-10.5952
弩	-10.5957
理氣	-10.5962
幅	-10.597
於斯	-10.597
難矣	-10.5973
張子曰	-10.5974
醴	-10.5977
亦只	-10.5978
伺	-10.5978
鋒	-10.5982
牖	-10.5982
涵泳	-10.5983
蚤	-10.5985
居敬	-10.5987
必大	-10.5991
行禮	-10.5996
天德	-10.5997
陷於	-10.5999
个	-10.6001
七日	-10.6002
不可勝	-10.6004
之閒	-10.6005
之源	-10.6009
節目	-10.601
宋人	-10.6014
求諸	-10.6016
㒺	-10.6019
紛紛	-10.6019
丕	-10.6026
揚子	-10.6026
那箇	-10.6026
庶民	-10.6027
延平	-10.603
以俟	-10.6034
矣其	-10.6034
不克	-10.6035
到那	-10.6035
童子	-10.604
隨事	-10.6042
得志	-10.6045
當如此	-10.6048
大故	-10.6056
得來	-10.6057
以時	-10.6059
遮	-10.6059
鈍	-10.6059
勑	-10.6059
㪚	-10.606
絳	-10.606
必得	-10.6066
也或曰	-10.6074
盛衰	-10.6075
驗之	-10.6077
為臣	-10.6079
北方	-10.6082
和氣	-10.6082
若使	-10.6083
因論	-10.6083
權衡	-10.6086
甚大	-10.6088
分數	-10.609
門外	-10.6092
儆	-10.6096
箕	-10.6099
松	-10.61
有得	-10.6101
一世	-10.6103
笞	-10.6104
當為	-10.6108
理而	-10.6109
不樂	-10.6111
在心	-10.6113
情也	-10.6113
伊川先生	-10.6115
級	-10.6116
程子所謂	-10.6119
勉之	-10.612
加以	-10.612
然非	-10.6122
是一箇	-10.6122
非所以	-10.6125
位而	-10.6128
不倦	-10.613
東漢	-10.6135
廹	-10.6137
居喪	-10.6137
著書	-10.6137
摩	-10.6138
桃	-10.6139
丙	-10.6139
禮以	-10.6141
稼穡	-10.6141
臂	-10.6141
迨	-10.6142
而亡	-10.6143
發之	-10.6143
枕	-10.6145
山之	-10.6146
精義	-10.6147
芳	-10.6149
填	-10.6149
稼	-10.6151
少隂	-10.6151
後生	-10.6153
也孔子曰	-10.6154
穆公	-10.6155
之發	-10.6156
本州	-10.6159
明也	-10.6159
天地之性	-10.616
惟聖人	-10.6163
之理也	-10.6165
伊川云	-10.6165
全不	-10.6166
其流	-10.6167
謝氏	-10.6167
此數	-10.617
乎故	-10.6177
劾	-10.6179
昆弟	-10.6179
邀	-10.618
睽	-10.6183
渭	-10.6184
握	-10.6186
前面	-10.6187
不獲	-10.6189
樊	-10.6189
無妄	-10.6192
為我	-10.6193
欲使	-10.6195
此時	-10.6198
十日	-10.6208
本司	-10.6211
之亂	-10.6216
大有	-10.6217
國君	-10.6218
以徳	-10.6219
也孔子	-10.6219
無知	-10.622
當其	-10.6221
有甚	-10.6222
廩	-10.6225
動作	-10.6225
郤	-10.6226
不可復	-10.6227
常在	-10.623
若干	-10.6234
無怨	-10.6237
代之	-10.6239
未甞	-10.6248
非惟	-10.625
擊之	-10.6255
身之	-10.6256
不可及	-10.6258
優劣	-10.626
麤	-10.6261
㕔	-10.6262
平時	-10.6263
不逮	-10.6263
鋪	-10.6263
高宗	-10.6266
牟	-10.6267
之喪	-10.627
之言也	-10.6274
曲直	-10.6277
記得	-10.6278
周人	-10.6279
一部	-10.6282
亦云	-10.6292
霜	-10.6293
之兵	-10.6295
之偏	-10.6297
王者之	-10.6297
養民	-10.6304
吞	-10.6305
無遺	-10.6305
穿鑿	-10.6305
不見其	-10.6306
字是	-10.6306
愛親	-10.6307
所養	-10.6314
到這裏	-10.6316
視其	-10.6321
或云	-10.6327
嘗見	-10.6328
所以致	-10.6334
之責	-10.6334
云者	-10.6336
一路	-10.6337
無害	-10.6337
不雜	-10.6339
之可也	-10.6344
汲	-10.6344
王室	-10.6345
乃有	-10.6346
無功	-10.6349
知識	-10.6353
庶㡬	-10.6353
又須	-10.6354
鞅	-10.6354
雖無	-10.6355
也然而	-10.6356
誅之	-10.636
綱目	-10.6362
來朝	-10.6366
既得	-10.6369
隨之	-10.6374
錦	-10.6376
有云	-10.6377
服之	-10.6377
有可	-10.6379
片	-10.6379
膠	-10.6382
待之	-10.6383
而后	-10.6386
胎	-10.6386
綿	-10.6388
其禮	-10.6392
二十年	-10.6393
禮法	-10.6396
不稱	-10.6399
須有	-10.6402
為二	-10.6404
由於	-10.6407
何益	-10.6407
未敢	-10.6421
此二	-10.6426
騰	-10.6427
静而	-10.643
在後	-10.6435
究其	-10.6436
號令	-10.6442
如一	-10.6443
陣	-10.6451
太王	-10.6457
分眀	-10.6463
榦	-10.6464
捷	-10.6464
肩	-10.6466
芻	-10.6466
溥	-10.6467
沃	-10.6469
又非	-10.6469
曹操曰	-10.6478
徳業	-10.6482
易也	-10.6484
徳而	-10.6488
不廢	-10.6492
疾病	-10.6493
發生	-10.6498
以安	-10.6499
遼	-10.65
意味	-10.6505
將帥	-10.6505
汎	-10.651
栗	-10.6511
衮	-10.6512
冷	-10.6513
只見	-10.6514
而外	-10.6515
感通	-10.6521
是聖人	-10.6524
季子	-10.6537
逺而	-10.6537
辨其	-10.6542
指揮	-10.6545
莫敢	-10.6547
君臣之義	-10.6551
裴	-10.6552
穫	-10.6552
欲為	-10.6552
法制	-10.6554
有物	-10.6555
齊衰	-10.6556
爰	-10.6556
在裏面	-10.6556
有命	-10.6561
人材	-10.6564
合而	-10.6564
好處	-10.6565
神也	-10.6567
識其	-10.6569
於國	-10.658
定公	-10.6583
時中	-10.6584
之先	-10.6589
繼之者善	-10.6589
尤為	-10.659
空言	-10.659
以来	-10.6594
本領	-10.6595
為相	-10.6598
視聽	-10.6599
自然之理	-10.66
不下	-10.6601
與民	-10.6601
不可易	-10.6603
物理	-10.6605
後漢	-10.6605
經書	-10.6605
君臣父子	-10.6606
泰伯	-10.661
久而	-10.6611
河北	-10.6612
元氣	-10.6616
猷	-10.6617
而見	-10.6621
能以	-10.6622
之首	-10.6622
哉故	-10.6623
一息	-10.6623
先有	-10.6625
天王	-10.6625
下手	-10.6627
周流	-10.6627
合一	-10.6627
聽之	-10.6628
有序	-10.6629
二十七	-10.663
擯	-10.6632
瓦	-10.6634
磬	-10.6635
酷	-10.6635
何由	-10.6636
閎	-10.6636
㝠	-10.6636
烹	-10.6639
諸州	-10.6639
▁問	-10.664
幸而	-10.664
濡	-10.6641
五行之	-10.6643
裔	-10.6643
貧者	-10.6645
之儀	-10.6645
他説	-10.6645
孰為	-10.6646
前軰	-10.6647
諾	-10.665
必至	-10.665
必能	-10.6653
始祖	-10.6657
補訓	-10.6661
以濟	-10.6662
懈	-10.6664
不定	-10.6665
為非	-10.6666
拱	-10.6671
歆	-10.6674
自私	-10.6676
心者	-10.6677
可知也	-10.6677
致知格物	-10.6679
論之	-10.668
所以明	-10.668
遐	-10.668
贍	-10.6681
数	-10.6682
扈	-10.6684
失於	-10.6684
周室	-10.6686
敎之	-10.6688
難以	-10.6691
天生	-10.6694
道學	-10.6694
反之	-10.6698
恰好	-10.6699
其所謂	-10.67
蔡氏	-10.6702
隊	-10.6704
車馬	-10.6704
固無	-10.6706
直言	-10.6707
愛其	-10.6709
不可見	-10.6711
敬以直内	-10.6713
鳩	-10.6715
少而	-10.6715
桂	-10.6718
至極	-10.6721
濕	-10.6722
不親	-10.6724
之路	-10.6725
可疑	-10.6726
運行	-10.6726
為不善	-10.6732
政令	-10.6734
之運	-10.6737
擔	-10.674
和樂	-10.6742
第五	-10.6744
易中	-10.6748
所傳	-10.6749
好人	-10.676
推其	-10.676
鬭	-10.6762
吟	-10.6765
要得	-10.6768
指其	-10.6768
丈夫	-10.6772
看文字	-10.6774
無不善	-10.6779
若論	-10.678
攻之	-10.6782
大賢	-10.6784
洛陽	-10.6786
禹之	-10.679
又為	-10.679
牝	-10.6797
此氣	-10.6799
而謂之	-10.6802
誠之	-10.6802
錯了	-10.6803
正大	-10.6804
以知	-10.6805
銳	-10.6805
核	-10.6805
衢	-10.6806
臻	-10.6809
著實	-10.6811
大過	-10.6818
渡	-10.6818
静坐	-10.6819
異同	-10.6824
者猶	-10.6831
不祭	-10.6832
民無	-10.6835
如今人	-10.6836
坦	-10.6839
轍	-10.6843
虗	-10.6843
以制	-10.6844
羸	-10.6846
釁	-10.685
寐	-10.685
奔走	-10.6854
人之所以	-10.6855
此豈	-10.6855
而安	-10.6858
髙帝	-10.6865
有力	-10.687
小事	-10.6872
便都	-10.6872
一㸃	-10.6877
心性	-10.6877
記曰	-10.6878
故雖	-10.6889
卓然	-10.689
首章	-10.6893
未足	-10.6894
再三	-10.6894
亦豈	-10.6894
逞	-10.6894
俞	-10.69
為天子	-10.6902
亦難	-10.6902
小國	-10.6904
盗賊	-10.6904
因此	-10.6904
蠻	-10.6905
陽之	-10.6907
誠實	-10.6908
之恩	-10.691
無所不至	-10.6918
上之人	-10.6922
真知	-10.6922
明道先生	-10.6923
乆矣	-10.6923
難知	-10.6925
無禮	-10.6929
聖賢之言	-10.6929
二世	-10.6932
為天	-10.6934
瑕	-10.6935
不審	-10.6936
所引	-10.6937
碩	-10.6938
而後可以	-10.6941
文辭	-10.6947
韓愈	-10.6949
立於	-10.6952
既無	-10.6958
當作	-10.696
先儒謂	-10.6962
於齊	-10.6969
有差	-10.6974
思無邪	-10.6979
壘	-10.6979
憂患	-10.6985
鯀	-10.6985
教以	-10.6991
大徳	-10.6991
害於	-10.6992
太師	-10.6994
而理	-10.6995
人必	-10.6997
成性	-10.6998
要人	-10.6998
大節	-10.7
惡而	-10.7001
聚散	-10.7007
果何	-10.7014
古之人	-10.7017
相合	-10.7017
羲	-10.7017
今年	-10.7018
六三	-10.7018
百物	-10.7018
豳	-10.702
不㑹	-10.7021
不實	-10.7027
竄	-10.7027
民力	-10.7027
初六	-10.7028
則自然	-10.7029
沿	-10.703
相承	-10.7031
尹氏	-10.7036
死於	-10.7036
山東	-10.7039
黄道	-10.7051
生焉	-10.7054
曰凡	-10.7055
繋	-10.7058
事事物物	-10.7061
名也	-10.7062
猶可	-10.7062
有病	-10.7064
生氣	-10.7065
隂氣	-10.7065
四時之	-10.7067
泯	-10.7068
緊	-10.7068
利也	-10.7071
睡	-10.7072
同異	-10.7073
動則	-10.7074
數日	-10.7078
矣又曰	-10.708
之欲	-10.7081
十一年	-10.7082
日夜	-10.7083
爵禄	-10.7084
尤甚	-10.7084
人之情	-10.7085
大宗	-10.7088
人家	-10.7091
二事	-10.7095
介甫	-10.7099
各以其	-10.71
呈	-10.7101
己者	-10.7101
安知	-10.7101
之不同	-10.7102
只此	-10.7103
小雅	-10.7105
蘓	-10.7107
鄭氏曰	-10.711
今乃	-10.7114
不貳	-10.7114
天心	-10.7114
君父	-10.7121
然猶	-10.7122
将去	-10.7124
不得而	-10.7125
各得其	-10.7127
形而上者	-10.7133
相繼	-10.7134
舜禹	-10.7139
南面	-10.7139
其過	-10.7139
新民	-10.714
之孝	-10.7141
相接	-10.7145
也昔	-10.7145
茍且	-10.7147
囿	-10.7151
補訓此	-10.7153
無極而太極	-10.7153
不可無	-10.7154
汗	-10.7155
貯	-10.7155
之貌	-10.7155
之田	-10.7155
孟氏	-10.7156
不祥	-10.716
叟	-10.7161
議者	-10.7166
欲立	-10.7168
其制	-10.717
須先	-10.7171
論孟	-10.7171
已具	-10.7173
其形	-10.7174
萬人	-10.7176
是用	-10.7177
國有	-10.7179
天地之道	-10.7185
急於	-10.7186
取士	-10.7188
器用	-10.7194
敘	-10.7194
乳	-10.7195
須臾	-10.7196
有理	-10.7198
先生謂	-10.7199
壮	-10.72
流通	-10.7201
日日	-10.7203
濬	-10.7203
稻	-10.7204
具於	-10.7205
頃刻	-10.7205
明而	-10.7207
無為	-10.7209
國朝	-10.7209
小宗	-10.721
日用之間	-10.7211
晉人	-10.7211
純粹	-10.7212
此論	-10.7215
之䇿	-10.7216
竊意	-10.722
者言之	-10.7222
人主之	-10.7226
隨其	-10.7228
去理㑹	-10.7228
萬世之	-10.7229
吏部	-10.7232
諧	-10.7236
果能	-10.7238
緝	-10.7239
圜	-10.7241
脈	-10.7242
復生	-10.7244
知有	-10.7245
使天下	-10.7245
不能以	-10.7246
然後知	-10.7246
所守	-10.7247
醒	-10.7247
搜	-10.7247
訓詁	-10.7248
暨	-10.7249
異也	-10.7249
為君子	-10.725
因而	-10.7253
利之	-10.7257
不移	-10.7258
安國	-10.726
經傳	-10.7266
説道	-10.7266
性理	-10.7273
有時	-10.7273
西山	-10.7277
安在	-10.7278
行於	-10.7285
帷	-10.7286
疑其	-10.729
仁字	-10.729
私心	-10.7291
不敢以	-10.7298
郡守	-10.7299
出于	-10.73
帝王之	-10.7301
隂也	-10.7306
三四	-10.7306
成敗	-10.7309
有孚	-10.7312
幾何	-10.7312
這事	-10.7315
責其	-10.7317
學術	-10.7317
則不然	-10.7318
相為	-10.7325
五曰	-10.7326
悠悠	-10.7333
成形	-10.7334
無足	-10.7335
取人	-10.7335
太極之	-10.7335
狩	-10.7336
荷	-10.7339
事有	-10.7341
隕	-10.7342
行乎	-10.7346
交於	-10.7347
相因	-10.7349
為用	-10.7352
禮則	-10.7354
信也	-10.7356
元帝	-10.7361
上生	-10.7362
也愚按	-10.7364
者是也	-10.7364
刪	-10.7365
相通	-10.7367
未定	-10.7367
亦嘗	-10.7368
二物	-10.7375
以實	-10.7376
纓	-10.738
堯舜之道	-10.738
今日之	-10.7383
陂	-10.7383
之盟	-10.7385
五者	-10.7386
苑	-10.7387
十五年	-10.739
耳非	-10.739
愛之理	-10.739
一度	-10.7391
亦可謂	-10.7398
天下後世	-10.7399
擇其	-10.7403
十萬	-10.7407
貴於	-10.7409
收拾	-10.7415
自明	-10.7416
有兩	-10.742
有才	-10.7423
性與天道	-10.7427
只看	-10.7427
弭	-10.7428
形而下者	-10.7428
以教	-10.7428
魂魄	-10.7429
贏	-10.7429
之祭	-10.7431
踵	-10.7431
股肱	-10.7431
也臣若水通曰	-10.7433
成周	-10.7438
長進	-10.7443
六藝	-10.7446
嶺	-10.7447
既而	-10.7448
而不及	-10.7452
之基	-10.7455
可取	-10.7455
道是	-10.7458
者三	-10.7459
班固	-10.7461
孺子	-10.7462
不書	-10.7462
秦漢	-10.7463
變也	-10.7463
所好	-10.7465
故必	-10.7466
數也	-10.7466
夬	-10.7467
豹	-10.7467
懦	-10.7469
座	-10.7469
有能	-10.7471
乍	-10.7471
幻	-10.7472
翔	-10.7472
曰汝	-10.7472
邱	-10.7473
七八	-10.7473
壓	-10.7474
寔	-10.7476
物則	-10.7476
蔑	-10.7477
真箇	-10.7479
體察	-10.7483
屯田	-10.7486
是指	-10.7487
能如此	-10.7489
上去	-10.7489
耳然	-10.749
利於	-10.7493
問仁	-10.7495
深思	-10.7499
之全體	-10.75
曰是	-10.7503
始有	-10.7505
踊	-10.7508
百萬	-10.751
大者	-10.7511
後又	-10.7512
治人	-10.7512
漢文帝	-10.7512
良知	-10.7516
悍	-10.752
縫	-10.7521
闡	-10.7523
觀書	-10.7523
始生	-10.7525
台	-10.7529
予之	-10.7535
不起	-10.7539
既成	-10.754
汲汲	-10.7542
繼之	-10.7544
心中	-10.7545
之令	-10.7546
安民	-10.7549
截然	-10.755
矣臣按	-10.7552
有一毫	-10.7553
問伊川	-10.7557
之典	-10.7561
天子諸侯	-10.7561
洩	-10.7562
耀	-10.7564
起而	-10.7564
叢	-10.7564
鄭𤣥曰	-10.7565
其妻	-10.7566
贄	-10.7566
便了	-10.7568
且以	-10.7568
易知	-10.757
溫公	-10.7573
恁	-10.7574
不謹	-10.7581
禮部	-10.7587
君道	-10.7589
易見	-10.7591
六百	-10.7591
西方	-10.7592
曾子曰	-10.7594
語曰	-10.7601
闔	-10.7601
三句	-10.7603
聖人所以	-10.7603
不假	-10.7604
其要	-10.7607
本乎	-10.7608
公事	-10.7608
其難	-10.761
容貌	-10.761
燈	-10.7611
宛	-10.7612
頻	-10.7612
溝洫	-10.7612
鳯	-10.7614
故夫子	-10.7614
祁	-10.7615
䖍	-10.7621
前人	-10.7621
不講	-10.7625
楚人	-10.7625
恭儉	-10.7626
萬古	-10.7627
所發	-10.7628
便須	-10.7629
不專	-10.7639
多言	-10.764
無一物	-10.7642
赤子	-10.7643
可惜	-10.7643
是說	-10.7645
王命	-10.7647
平居	-10.7648
精㣲	-10.7649
尚可	-10.765
孟子説	-10.7651
有未	-10.7652
養其	-10.7654
㨗	-10.7657
夫豈	-10.7658
萬殊	-10.7659
罕	-10.766
不愛	-10.7661
學也	-10.7661
故孔子	-10.7662
經筵	-10.7664
曰古者	-10.7664
靈公	-10.7668
叔孫	-10.7677
者此也	-10.768
奪之	-10.7682
並行	-10.7683
卦之	-10.7684
十二年	-10.7687
而已故	-10.7687
縣令	-10.7694
順之	-10.7694
主張	-10.7697
恢	-10.7698
兆民	-10.77
頂	-10.7705
礪	-10.7706
不徒	-10.7708
立而	-10.7708
自任	-10.771
在中	-10.771
之目	-10.771
五人	-10.7711
曰仁	-10.7713
檜	-10.7713
也或問	-10.7715
萬邦	-10.7721
曰只是	-10.7721
氣稟	-10.7732
之心而	-10.7734
君子不	-10.7737
這箇道理	-10.7739
后妃	-10.774
吾子	-10.7741
歸于	-10.7743
有疾	-10.7745
以次	-10.7746
始皇	-10.7746
此一	-10.7749
袒	-10.7749
君心	-10.775
陸氏	-10.775
居處	-10.7751
得這	-10.7753
無敢	-10.7754
披	-10.7755
鉅	-10.7756
由是而	-10.7757
保其	-10.7758
諸王	-10.7759
大明	-10.776
無由	-10.7765
憾	-10.7768
與天地	-10.7771
明則	-10.7772
過之	-10.7773
太廟	-10.7774
所致	-10.7775
是自家	-10.7777
平王	-10.7781
去了	-10.7782
形於	-10.7789
商賈	-10.7791
層	-10.7792
得許多	-10.7792
徳也	-10.7794
穏	-10.7797
㓕	-10.78
羌	-10.7803
孝悌	-10.7803
箭	-10.7804
之累	-10.7804
禆	-10.7807
是故君子	-10.7808
無過不及	-10.781
項羽	-10.781
之言曰	-10.7812
而應	-10.7812
向來	-10.7814
其臣	-10.7815
其所以為	-10.7815
於一	-10.7816
大禹	-10.7816
又説	-10.7819
而食	-10.782
其端	-10.7821
古史	-10.7821
理義	-10.7821
義而	-10.7823
為父	-10.7825
一朝	-10.7826
小者	-10.7829
必至於	-10.7831
豈是	-10.7832
不患	-10.7832
德行	-10.7832
則失	-10.7834
盡得	-10.7836
上說	-10.7837
王季	-10.7842
函	-10.7843
雷霆	-10.7845
熈	-10.7847
剪	-10.7847
慙	-10.7848
卦爻	-10.7851
逾	-10.7855
求放心	-10.7855
作為	-10.7857
長幼	-10.7857
農夫	-10.7858
王公	-10.7861
問先生	-10.7861
也歟	-10.7864
正文	-10.7866
者不過	-10.7877
始也	-10.7879
無逸	-10.7881
今且	-10.7882
罪人	-10.7887
春秋書	-10.789
戊	-10.7891
得天下	-10.7893
田地	-10.7894
前此	-10.7896
别人	-10.7897
参	-10.7901
不傳	-10.7902
子思曰	-10.7905
肅宗	-10.7906
蕭何	-10.7913
念慮	-10.7914
經界	-10.7915
而後可	-10.7917
不能行	-10.7921
申明	-10.7922
也後世	-10.7923
必使	-10.7925
生出	-10.7932
何異	-10.7933
一變	-10.7934
天命之謂性	-10.7938
養老	-10.7938
行下	-10.7941
一截	-10.7942
十二律	-10.7942
鄭康成	-10.7948
而猶	-10.7952
不以為	-10.7952
主乎	-10.7958
賜之	-10.796
明理	-10.796
彖曰	-10.7964
特以	-10.7966
逺者	-10.7966
體也	-10.7967
忠孝	-10.7967
是如何曰	-10.7967
絜矩	-10.7968
恐亦	-10.7968
遂為	-10.7972
而取	-10.7974
有志	-10.7978
盡矣	-10.7979
明皇	-10.798
不勝其	-10.7981
署	-10.7983
樣	-10.7984
常平	-10.7986
則凡	-10.7987
貴乎	-10.7987
十餘年	-10.7988
現	-10.7993
政教	-10.7993
浮屠	-10.7997
舉之	-10.7997
而廢	-10.7998
之水	-10.7998
請問	-10.7998
邁	-10.7999
緊要	-10.8
未詳	-10.8001
以順	-10.8006
少者	-10.8007
禹貢	-10.8014
其在	-10.8025
而化	-10.8026
漢武帝	-10.8026
生長	-10.8027
之久	-10.803
不恤	-10.8031
仗	-10.8033
非禮也	-10.8036
利者	-10.8036
流俗	-10.8038
翟	-10.8038
涕	-10.8039
乆之	-10.8039
巴	-10.8039
派	-10.804
貲	-10.8042
駟	-10.8043
以理言	-10.8045
淮南	-10.8046
責人	-10.8046
之重	-10.8049
時時	-10.806
楚子	-10.8061
出門	-10.8062
十餘	-10.8065
有感	-10.8066
若曰	-10.8067
近而	-10.8067
歐陽	-10.8069
以供	-10.8074
自得之	-10.8074
爛	-10.8076
因循	-10.8077
最難	-10.8078
其弟	-10.8084
繞	-10.8087
所以不	-10.8087
誠也	-10.8092
埶	-10.8093
事勢	-10.8093
隂陽五行	-10.8094
措置	-10.8095
付之	-10.8097
當是時	-10.8098
無物	-10.8098
動也	-10.8099
尼	-10.8099
世有	-10.8107
無所用	-10.8108
假借	-10.8108
柔順	-10.8111
毫釐	-10.8114
互相	-10.8117
焉而	-10.8118
此正	-10.8119
休息	-10.8119
則所謂	-10.812
不舉	-10.8121
相感	-10.8125
也又問	-10.8126
剛中	-10.8126
上天	-10.8129
樂者	-10.813
憎	-10.813
極是	-10.8131
卒哭	-10.8133
滚	-10.8133
小過	-10.8134
押	-10.8134
民也	-10.8135
十里	-10.8136
靠	-10.8136
同體	-10.8136
晋	-10.8138
銜	-10.8138
志氣	-10.8139
詩序	-10.814
帳	-10.814
運用	-10.814
淺近	-10.8141
邢	-10.8142
忤	-10.8143
之議	-10.8145
鞠	-10.8146
譜	-10.8146
顏子	-10.8146
後之	-10.8148
渾淪	-10.8149
惻隠之心	-10.815
安之	-10.8152
三條	-10.8153
曰他	-10.8157
之差	-10.816
所稱	-10.816
七十二	-10.816
景帝	-10.8162
仲子	-10.8163
師之	-10.8165
善矣	-10.8173
膺	-10.8176
也須	-10.8177
王子	-10.8182
虚實	-10.8182
抄	-10.8182
鮑	-10.8184
戯	-10.8184
人力	-10.8184
天文	-10.8185
張氏	-10.8185
有是理	-10.819
讀者	-10.8193
日以	-10.8193
自信	-10.8194
不消	-10.8194
過失	-10.8196
者歟	-10.8196
實事	-10.8198
志在	-10.8198
是道	-10.8198
敎人	-10.8198
也嗚呼	-10.8207
自無	-10.8208
亂世	-10.8213
走作	-10.8215
分殊	-10.8215
須用	-10.822
篤實	-10.8221
欲求	-10.8222
馴	-10.8222
今欲	-10.8223
須著	-10.8223
齊之	-10.8225
用此	-10.8227
物我	-10.8227
亡矣	-10.8229
二女	-10.8229
章曰	-10.8232
給事中	-10.8233
至其	-10.8233
愿	-10.8234
祖廟	-10.8234
諛	-10.8235
浙	-10.8236
紊	-10.8237
自外	-10.8239
孟軻	-10.8239
已而	-10.8239
在彼	-10.824
彛	-10.824
耿	-10.8242
論性	-10.8242
日益	-10.8245
韓信	-10.8246
過而	-10.8246
中央	-10.8246
下民	-10.8248
之域	-10.8248
非其人	-10.8248
成而	-10.825
姑息	-10.8252
治也	-10.8258
事父母	-10.8259
明帝	-10.8263
惡人	-10.8268
難曉	-10.827
亦不是	-10.827
求賢	-10.8271
劉向	-10.8275
以和	-10.8276
而後已	-10.8277
難行	-10.8278
春夏秋冬	-10.8284
壬	-10.8287
批	-10.8287
涼	-10.8289
而忘	-10.829
最是	-10.8291
司馬光	-10.8292
歐公	-10.8295
而獨	-10.8297
和也	-10.8299
和靖	-10.8303
宫中	-10.8304
句句	-10.8309
成公	-10.8314
行得	-10.8314
度量	-10.8319
意者	-10.8322
睹	-10.833
不少	-10.8332
弁	-10.8332
不願	-10.8333
御定孝經衍義卷	-10.8333
大學衍義補卷	-10.8335
擴充	-10.8337
謂之性	-10.8338
售	-10.834
佛家	-10.8341
夜氣	-10.8341
不堪	-10.8342
孝友	-10.8342
文明	-10.8342
大哉	-10.8345
以奉	-10.8346
心則	-10.8349
十三年	-10.8349
如天	-10.8349
不䏻	-10.8356
觀之則	-10.836
為體	-10.8363
物者	-10.8366
之䘮	-10.8366
其㫖	-10.8367
經世	-10.8368
兄弟之	-10.8368
固然	-10.837
所以然者	-10.8375
仁義之	-10.8375
又别	-10.8375
地上	-10.8379
歎曰	-10.838
近者	-10.8381
刑法	-10.8381
叩	-10.8382
立為	-10.8382
疵	-10.8383
餒	-10.8385
聊	-10.8385
拯	-10.8388
之次	-10.8389
之賦	-10.839
為事	-10.839
相親	-10.8393
嵗月	-10.8394
縱横	-10.8397
不便	-10.8403
過了	-10.8405
天命之性	-10.8405
徃來	-10.8406
綱領	-10.8408
用工	-10.8409
城郭	-10.841
目之	-10.8411
易曉	-10.8414
得那	-10.8415
蔚	-10.8417
之心也	-10.8417
無定	-10.842
之所能	-10.842
群	-10.842
之根	-10.842
亦好	-10.8426
望其	-10.8426
所不及	-10.8426
何以為	-10.8428
心體	-10.8433
曹操	-10.8433
三品	-10.8434
也况	-10.8435
胄	-10.8436
詘	-10.8436
誠者	-10.8436
敬者	-10.8437
膝	-10.8437
𤓰	-10.8438
餌	-10.8438
厄	-10.844
勝之	-10.8441
汨	-10.8442
陟	-10.8442
屬陽	-10.8445
沐	-10.8445
非不	-10.8446
三字	-10.8448
一意	-10.845
以死	-10.8452
以聞	-10.8452
態	-10.8455
范氏	-10.8456
揺	-10.8457
比干	-10.8459
通乎	-10.846
其極	-10.8464
以理	-10.8465
不亂	-10.8466
四分	-10.8471
平聲	-10.8477
之篇	-10.8477
事皆	-10.8479
法者	-10.8482
交相	-10.8483
耐	-10.8483
擒	-10.8483
金人	-10.8483
二分	-10.8484
每日	-10.8484
未幾	-10.8485
戌	-10.8485
是皆	-10.8485
徳宗	-10.8486
熾	-10.8489
易以	-10.8489
雀	-10.849
滌	-10.8491
梓	-10.8492
賓客	-10.8493
在地	-10.8495
和之	-10.8495
以文	-10.8496
唐人	-10.8499
憲宗	-10.8505
之耳	-10.8505
不輕	-10.8506
人民	-10.8506
作一	-10.8507
存者	-10.851
既是	-10.851
立教	-10.8513
入門	-10.8513
為重	-10.8515
而使之	-10.8519
執中	-10.8519
宦	-10.8519
專言	-10.8521
有子	-10.8523
典禮	-10.8526
制禮	-10.8528
者只是	-10.853
無不在	-10.8531
也孟子曰	-10.8532
四體	-10.8533
疊	-10.8533
腰	-10.8534
淹	-10.8536
在官	-10.8537
成於	-10.8538
㳟	-10.8538
倖	-10.8539
浹洽	-10.8541
婢	-10.8541
煖	-10.8543
猶是	-10.8545
刑之	-10.8546
賢而	-10.8547
要在	-10.8548
源頭	-10.8551
元吉	-10.8552
極於	-10.8552
神化	-10.8554
所以立	-10.8555
説到	-10.8556
正人	-10.8556
思索	-10.8559
盡其心	-10.8559
了方	-10.856
不動心	-10.8563
天下之物	-10.8565
刑名	-10.8567
如水	-10.857
全是	-10.8572
木訥曰	-10.8578
根於	-10.8579
同而	-10.858
焉此	-10.8581
格物通卷	-10.8581
取諸	-10.8582
必然	-10.8584
經營	-10.8586
一隂一陽	-10.8587
冐	-10.8587
乃所以	-10.8588
矣故曰	-10.8589
敬天	-10.8589
銓	-10.8589
習之	-10.8591
府庫	-10.8591
評	-10.8592
一層	-10.8595
奕	-10.8595
免於	-10.8595
生理	-10.8601
之質	-10.8601
也彼	-10.8604
其禍	-10.8606
揜	-10.8608
自能	-10.8609
時人	-10.8609
以孝	-10.8612
此四者	-10.8616
則彼	-10.862
萬物皆	-10.8621
朽	-10.8626
之妻	-10.8626
其徒	-10.8627
中孚	-10.8628
此性	-10.8629
李先生	-10.8629
自治	-10.863
於此而	-10.8632
嗇	-10.8634
所不能	-10.8634
既不	-10.8635
第二十	-10.8635
圏	-10.8636
利欲	-10.8639
又當	-10.8642
跋	-10.8644
通貫	-10.8645
冶	-10.8646
乾卦	-10.8649
終身不	-10.8651
深矣	-10.8652
是氣	-10.8652
正䝉	-10.8653
皆出於	-10.8658
易者	-10.8664
縣官	-10.8667
多而	-10.8669
𦂳	-10.8669
肖	-10.867
朱子語類卷	-10.8688
到底	-10.8689
之一字	-10.8689
其類	-10.8692
覈	-10.8693
贓	-10.8693
五祀	-10.8695
勾	-10.8695
因説	-10.8696
長而	-10.8696
辜	-10.8698
喚做	-10.8698
濂溪	-10.8699
力量	-10.87
小序	-10.8701
琢	-10.8702
貴人	-10.8704
金石	-10.8706
者不能	-10.871
可勝	-10.8711
令尹	-10.8712
大約	-10.8712
無此	-10.8717
喪禮	-10.872
主簿	-10.8724
知禮	-10.8725
又不可	-10.8726
國子	-10.8731
焉耳	-10.8733
欲速	-10.8734
見人	-10.8737
四十八	-10.8739
今之學者	-10.874
是無	-10.8741
體而	-10.8742
而知之	-10.8742
勘	-10.8745
矧	-10.8745
訊	-10.8747
凉	-10.8747
狼	-10.8747
剖	-10.8748
而爲	-10.8749
誠則	-10.8753
不先	-10.8753
不憂	-10.8754
收歛	-10.8755
變則	-10.8756
亦不過	-10.8758
少年	-10.8759
用處	-10.8759
不幸而	-10.8759
太宰	-10.876
之卦	-10.8762
歴代	-10.8765
此謂	-10.8767
以通	-10.8769
以下皆	-10.8773
眀道	-10.8774
必無	-10.8777
以定	-10.8785
所感	-10.8787
此三	-10.8791
實則	-10.8792
湛然	-10.8792
窒	-10.8792
惻隱	-10.8792
模様	-10.8795
摯	-10.8796
而明	-10.8798
婉	-10.8799
不説	-10.8799
今觀	-10.8799
經史	-10.8799
挽	-10.88
隳	-10.8801
叔向	-10.8804
譎	-10.8804
愚按此	-10.8805
澹	-10.8805
奄	-10.8808
夏至	-10.8809
又按	-10.8812
止是	-10.8813
天下之至	-10.8816
否曰是	-10.8817
然自	-10.8818
國用	-10.8822
則吉	-10.8825
卿士	-10.8828
妙用	-10.883
經術	-10.8832
做不得	-10.8832
於家	-10.8832
以進	-10.8832
皆從	-10.8834
忘其	-10.8834
日食	-10.8837
禮文	-10.8837
災異	-10.8838
慤	-10.8839
何人	-10.8841
凡此	-10.8842
加於	-10.8843
伐鄭	-10.8844
宗廟之	-10.8845
禪學	-10.8846
又要	-10.8848
而易	-10.8848
慎獨	-10.8848
頴	-10.8848
摧	-10.8849
黜陟	-10.8849
寝	-10.8851
貧富	-10.8852
之誤	-10.8855
所惡	-10.8855
砥	-10.8855
天下之民	-10.8856
近臣	-10.8857
道家	-10.8858
不知所	-10.8859
如何便	-10.8859
所以教	-10.8861
相類	-10.8862
節儉	-10.8864
上下相	-10.8864
應物	-10.8869
其分	-10.887
萬變	-10.8874
秘	-10.8874
之母	-10.8876
順天	-10.8878
也雖然	-10.8878
之過也	-10.888
幾於	-10.8881
得罪於	-10.8882
武王之	-10.8885
制作	-10.8886
當先	-10.8893
之女	-10.8896
只縁	-10.8898
志於	-10.8899
可以見	-10.8899
怒而	-10.8899
吏民	-10.8899
但有	-10.89
千萬	-10.8901
乎子曰	-10.8902
挈	-10.8903
切要	-10.8904
盛而	-10.8904
迪	-10.8904
之福	-10.8905
婁	-10.8905
江河	-10.8905
其大者	-10.8908
命者	-10.8909
為宫	-10.891
附於	-10.891
之勇	-10.8914
淪	-10.8921
取舍	-10.8924
這處	-10.8925
好生	-10.8925
姪	-10.8926
一卦	-10.8927
之吏	-10.8929
載之	-10.8931
一種	-10.8934
一項	-10.8937
可考	-10.8937
程傳	-10.8938
無益於	-10.8939
甚明	-10.8941
治世	-10.8947
人無	-10.8949
鉤	-10.8952
慧	-10.8952
㦸	-10.8953
粒	-10.8954
宋公	-10.8954
鶴	-10.8955
未形	-10.8956
推而	-10.8957
吾道	-10.8957
垢	-10.8957
蝕	-10.8958
有何	-10.8958
孫子	-10.8958
廪	-10.8958
講明	-10.896
不同而	-10.896
坑	-10.896
頽	-10.896
之興	-10.8961
無能	-10.8963
底心	-10.8965
夏商	-10.8966
與物	-10.8966
平天下	-10.897
孰能	-10.8971
州刺史	-10.8972
平常	-10.8975
説得好	-10.8977
未是	-10.8978
也吾	-10.898
所向	-10.8984
北面	-10.8985
人子	-10.8988
好仁	-10.8989
原道	-10.8991
與此	-10.8994
字子	-10.8999
禁止	-10.9001
不精	-10.9003
人身	-10.9004
之動	-10.9006
鴈	-10.9007
䆒	-10.901
舛	-10.901
紛擾	-10.9011
土之	-10.9012
單于	-10.9013
垣	-10.9014
怎生	-10.9014
檢討	-10.9014
為戒	-10.9015
流涕	-10.9015
之舊	-10.9016
退之	-10.9016
但知	-10.9019
顛倒	-10.9019
甚至	-10.9021
昭王	-10.9021
也豈	-10.9023
一人之	-10.9024
以從	-10.9024
咸淳	-10.9028
不殺	-10.9029
地而	-10.903
只是這	-10.9032
只以	-10.9033
則止	-10.9035
日中	-10.9039
甚難	-10.9039
仁義禮智信	-10.9044
高明	-10.9045
管子	-10.9045
配天	-10.9046
循理	-10.9046
極至	-10.9047
不難	-10.9048
推廣	-10.9051
有功於	-10.9053
法則	-10.9055
得乎	-10.9056
譲	-10.9059
其效	-10.906
貞吉	-10.9061
王莽	-10.9061
善言	-10.9062
卵	-10.9062
寘	-10.9063
不分	-10.9063
灾	-10.9067
蒐	-10.9068
虢	-10.907
弓矢	-10.907
也君	-10.9072
通於	-10.9072
生子	-10.9072
之傳	-10.9072
二先生	-10.9077
禰	-10.9078
之實也	-10.9084
秀才	-10.9084
先祖	-10.9086
見他	-10.9089
番	-10.9091
同一	-10.9095
九族	-10.9097
出乎	-10.91
之念	-10.91
餓	-10.9101
有節	-10.9103
其常	-10.9105
峯	-10.9108
大業	-10.9109
教授	-10.9111
還是	-10.9112
餉	-10.9113
九分	-10.9117
眷	-10.9121
有成	-10.9121
則吾	-10.9124
優游	-10.9125
一隂	-10.9126
之本然	-10.9126
親見	-10.9126
如此然	-10.9132
四岳	-10.9133
季通	-10.9133
賢良	-10.9135
姑洗	-10.9135
有心	-10.9136
得力	-10.9136
為太子	-10.9139
法而	-10.9142
曰善	-10.9143
二五	-10.9144
皇祖	-10.9144
盡力	-10.9146
意也	-10.9148
數之	-10.915
其論	-10.9151
天神	-10.9151
而何	-10.9151
想見	-10.9156
以取	-10.916
也只是	-10.9163
既知	-10.9163
仔細	-10.917
此條	-10.917
茹	-10.9173
而難	-10.9174
盟于	-10.9174
蓋以	-10.9175
庇	-10.9176
三尺	-10.9177
欠闕	-10.9177
事則	-10.9178
一端	-10.9179
故言	-10.9179
萬化	-10.9179
不進	-10.918
去就	-10.9181
安有	-10.9183
治平	-10.9183
則思	-10.9188
如前	-10.9189
節用	-10.919
約而	-10.9191
文理	-10.9192
又無	-10.9194
神之	-10.9197
有善	-10.9198
自見得	-10.9198
地利	-10.9199
小兒	-10.92
愚者	-10.9203
無方	-10.9204
諸書	-10.9204
宋儒	-10.9205
師道	-10.9208
先人	-10.921
事實	-10.9213
志也	-10.9214
徒以	-10.9214
或以為	-10.9218
瘠	-10.9218
十人	-10.922
推行	-10.9221
容易	-10.9223
過則	-10.9224
庠	-10.9225
其序	-10.9227
亦如此	-10.9228
節制	-10.9229
聨	-10.9229
其源	-10.923
皆謂	-10.923
蘇軾	-10.9231
掘	-10.9233
趙公	-10.9234
滋味	-10.9235
不恭	-10.9235
所以爲	-10.9235
申生	-10.9236
其仁	-10.9239
弑君	-10.9239
樂記	-10.924
焉其	-10.924
慈愛	-10.9241
亂也	-10.9243
史官	-10.9244
正義	-10.9249
秦之	-10.9252
死則	-10.9252
喚	-10.9254
不避	-10.9255
武公	-10.9255
今學者	-10.9257
便是仁	-10.9258
老莊	-10.9259
放下	-10.9262
認得	-10.9264
恐未	-10.9266
於時	-10.9267
之罪也	-10.9269
也程子曰	-10.9273
籥	-10.9275
一半	-10.9277
而益	-10.9278
孝宗	-10.9278
恠	-10.9278
以成其	-10.9279
當自	-10.9279
少有	-10.928
而去之	-10.9282
徼	-10.9283
羡	-10.9283
殽	-10.9284
憫	-10.9284
之為言	-10.9285
做出	-10.9285
全在	-10.9288
家法	-10.9289
胡氏曰	-10.9289
必是	-10.9289
待其	-10.9292
却似	-10.9292
之積	-10.9293
為鬼	-10.9294
民有	-10.9295
功利	-10.9296
而不見	-10.9297
也所謂	-10.9299
不滿	-10.93
子貢曰	-10.93
而遂	-10.9301
天之道	-10.9303
好色	-10.9304
是何	-10.9305
也何	-10.9306
於仁	-10.9307
人雖	-10.9307
老陽	-10.9309
世家	-10.9312
而使	-10.9313
聖人則	-10.9322
惡也	-10.9324
鬼神之	-10.9324
曰然則	-10.9325
此一段	-10.9325
妹	-10.9326
教之以	-10.9329
錯綜	-10.9331
後方	-10.9331
樵	-10.9335
於其中	-10.9336
斜	-10.9337
二章	-10.9339
偕	-10.934
挺	-10.9342
彖辭	-10.9342
汴	-10.9343
駿	-10.9343
經綸	-10.9344
異者	-10.9346
欲得	-10.9347
語類	-10.9349
學於	-10.9352
于民	-10.9357
十數	-10.9357
感而	-10.9358
危亡	-10.9359
己私	-10.9359
發出	-10.9361
而不言	-10.9363
曰此是	-10.9367
喜怒哀樂未發	-10.9368
人户	-10.9369
處皆	-10.937
各以	-10.937
又豈	-10.9372
将軍	-10.9373
如孔子	-10.9373
居上	-10.9375
顔子之	-10.9375
使臣	-10.9377
方好	-10.9378
情性	-10.938
世祖	-10.9381
當如	-10.9386
甚善	-10.9387
把捉	-10.9392
笄	-10.9393
眩	-10.9393
焉是	-10.9394
其外	-10.9397
小而	-10.9397
終也	-10.94
隴	-10.9404
輅	-10.9405
其末	-10.9405
性字	-10.9405
之宗	-10.9405
守其	-10.9406
故孟子	-10.9408
至正	-10.9408
曉然	-10.941
教也	-10.9411
樂天	-10.9412
天命之	-10.9415
識之	-10.9417
成帝	-10.942
亞	-10.942
度數	-10.9421
思其	-10.9424
概	-10.9424
官人	-10.9426
須知	-10.9427
内有	-10.943
易言	-10.943
先帝	-10.9431
是以君子	-10.9431
勞苦	-10.9432
故人	-10.9434
用刑	-10.9435
新法	-10.9437
炳	-10.9439
也孟子	-10.9443
應事	-10.9445
應事接物	-10.9446
明君	-10.9447
在那裏	-10.9447
人之有	-10.9449
安定	-10.945
書中	-10.9451
籠	-10.9451
大夫士	-10.9452
極而	-10.9453
寖	-10.9453
蔓	-10.9454
其兄	-10.9456
人鬼	-10.9456
變通	-10.9457
在朝	-10.9458
吾心之	-10.946
圖之	-10.9462
曰王	-10.9463
公田	-10.9465
立身	-10.9465
直以	-10.9465
等事	-10.9466
復為	-10.9467
晚年	-10.9467
以盡	-10.9467
亦未嘗	-10.9468
以觀	-10.9471
下有	-10.9474
文定	-10.9477
只恁地	-10.9477
然此	-10.9479
過矣	-10.9479
而得之	-10.9485
順也	-10.9486
而徒	-10.9489
伊川謂	-10.9489
培	-10.949
然後為	-10.9493
出奔	-10.9493
情之	-10.9496
恁地説	-10.9501
璘	-10.9503
柯	-10.9503
搏	-10.9505
而輕	-10.9505
劍	-10.9506
錄云	-10.9506
轂	-10.9506
戀	-10.9507
盎	-10.9509
魯之	-10.9509
贅	-10.9509
問於	-10.9511
響	-10.9511
太𤣥	-10.9511
呂氏	-10.9513
有别	-10.9513
有禮	-10.9514
書經	-10.9515
目前	-10.9518
甚於	-10.9518
合乎	-10.952
屬隂	-10.9525
有德	-10.9527
本自	-10.953
老者	-10.9532
初間	-10.9537
甲子	-10.9541
所當為	-10.9541
本作	-10.9541
以報	-10.9544
未見其	-10.9545
輟	-10.9547
害事	-10.9547
之極也	-10.9549
願陛下	-10.9551
試之	-10.9553
下生	-10.9556
正矣	-10.9557
鸞	-10.9561
他說	-10.9561
摘	-10.9562
帝舜	-10.9563
股	-10.9564
鈎	-10.9564
酬酢	-10.9566
著於	-10.9567
却不是	-10.9567
所以成	-10.9568
之廟	-10.9571
虞書	-10.9572
來者	-10.9575
似乎	-10.9576
剛健	-10.9583
極矣	-10.9585
為中	-10.9586
一千	-10.9592
宜其	-10.9592
非若	-10.9593
六國	-10.9599
寡欲	-10.9601
元豐	-10.9606
終不能	-10.9609
他便	-10.9609
勝則	-10.961
譚	-10.9612
不可用	-10.9614
非所	-10.9614
之惡	-10.9616
朞	-10.9618
孜孜	-10.9618
肺	-10.962
蘇子	-10.962
肝	-10.9621
剝	-10.9621
無愧	-10.9625
幽明	-10.9626
之尊	-10.9626
不離乎	-10.9629
得盡	-10.963
户部	-10.963
一偏	-10.963
財賦	-10.963
生知	-10.9634
於已	-10.9635
維持	-10.9638
聞之曰	-10.9639
皆所以	-10.9639
耳目之	-10.9647
造化之	-10.9647
明主	-10.9648
昔人	-10.9651
内史	-10.9651
必當	-10.9655
焉夫	-10.9657
亦不敢	-10.9658
以應	-10.9659
講習	-10.966
悼	-10.9661
要理㑹	-10.9661
炙	-10.9666
政治	-10.9666
亦如	-10.9672
揣	-10.9673
躋	-10.9673
瑩	-10.9674
以歸	-10.9677
奬	-10.9678
黄老	-10.9678
郢	-10.9678
北極	-10.9679
子謂	-10.9679
翦	-10.968
四百	-10.9681
中人	-10.9684
亂之	-10.9684
適子	-10.9687
在己	-10.9687
五峯	-10.9688
耶曰	-10.9688
太傅	-10.9689
設官	-10.969
善之	-10.9693
不能用	-10.9693
之習	-10.9693
是言	-10.9696
一代	-10.9702
於今	-10.9707
逺方	-10.9707
撫州	-10.9708
自别	-10.971
之漸	-10.9711
之助	-10.9713
必曰	-10.9716
從事於	-10.9717
仁愛	-10.9717
他書	-10.9719
篤行	-10.972
者尚	-10.9724
東向	-10.9725
遷善	-10.9726
與天地同	-10.9727
公卿大夫	-10.9729
必有所	-10.973
侍中	-10.9731
所舉	-10.9732
遞	-10.9733
燥	-10.9734
敢問	-10.9736
大略	-10.9738
寤	-10.9738
難於	-10.9742
玩索	-10.9742
便當	-10.9746
笙	-10.9746
闗中	-10.9747
浩然	-10.9749
𤣥宗	-10.9751
兵法	-10.9751
精氣	-10.9753
皇太子	-10.9753
彈	-10.9754
者不可	-10.9755
四面	-10.9756
害也	-10.9757
則生	-10.9759
之遺	-10.9759
形而	-10.9759
理財	-10.976
而可以	-10.9761
所蔽	-10.9763
於魯	-10.9768
條目	-10.9768
所疑	-10.9768
見處	-10.9769
雖以	-10.977
而不用	-10.977
困於	-10.9777
老成	-10.9778
程子云	-10.9779
緑	-10.9779
説性	-10.978
上古	-10.9783
姊	-10.9785
萬石	-10.9785
愁	-10.9785
而逺	-10.9787
則易	-10.9788
告于	-10.9789
泊	-10.979
理一	-10.9791
既立	-10.9791
棟	-10.9792
之比	-10.9792
芒	-10.9794
欒	-10.9797
於天子	-10.9797
一面	-10.9797
谿	-10.9799
百家	-10.9799
廷尉	-10.9801
盡善	-10.9801
别無	-10.9802
是一	-10.9804
若謂	-10.9805
風化	-10.9806
此人	-10.9806
而遽	-10.9809
牛羊	-10.9809
先生問	-10.9814
各得	-10.9815
為賢	-10.9816
其門	-10.9817
獻公	-10.9819
惡惡	-10.9822
則亂	-10.9829
有不善	-10.9831
就其	-10.9833
乃得	-10.9837
太陽	-10.9838
文蔚	-10.9839
齊桓公	-10.984
問學	-10.9841
販	-10.9845
齡	-10.985
霍	-10.985
釣	-10.9852
庶乎	-10.9853
蹙	-10.9854
司冦	-10.9854
循其	-10.9855
齊家	-10.9856
也古者	-10.9857
功成	-10.9857
田獵	-10.9857
弗能	-10.986
多聞	-10.9861
有一箇	-10.9861
則必有	-10.9863
其子孫	-10.9863
亦是如此	-10.9866
通判	-10.9867
易得	-10.9868
哉然	-10.9869
先主	-10.9869
長也	-10.987
陽剛	-10.9871
異日	-10.9875
九州	-10.9876
當日	-10.9883
有這	-10.9883
長㓜	-10.9886
害之	-10.9888
陽而	-10.9888
可矣	-10.9889
讀詩	-10.989
不可謂之	-10.9892
文武之	-10.9893
而不失	-10.9895
理明	-10.9895
盖以	-10.9895
只如此	-10.9895
是已	-10.9896
婦女	-10.9896
無失	-10.9899
衫	-10.99
佑	-10.9905
㤗	-10.9907
大王	-10.9908
諸臣	-10.9908
膽	-10.9909
譴	-10.9909
醮	-10.991
不遇	-10.991
上疏	-10.9911
洲	-10.9911
瓊	-10.9913
燔	-10.9914
四寸	-10.9915
十四年	-10.9917
意誠	-10.9917
小功	-10.9921
此法	-10.9921
節度	-10.9921
士民	-10.9924
茍能	-10.9925
宗之	-10.9927
天之所	-10.9928
之俗	-10.9929
申韓	-10.9929
之倫	-10.993
大亂	-10.9933
于外	-10.9936
六七	-10.9938
以復	-10.9943
孟子之言	-10.9945
朝服	-10.9945
順而	-10.9947
不免於	-10.9951
子之言	-10.9951
亦謂	-10.9953
獨立	-10.9957
楹	-10.9958
之食	-10.9958
豈特	-10.9959
説出	-10.9961
不好底	-10.9962
成之者性	-10.9963
粉	-10.9964
向前	-10.9965
匱	-10.9967
為三	-10.9968
窟	-10.9969
塟	-10.997
為神	-10.9973
益之	-10.9973
此等處	-10.9975
如齊	-10.9976
治者	-10.9977
真宗	-10.9978
常有	-10.9979
字上	-10.9981
心下	-10.9982
以養其	-10.9984
詩之	-10.9985
同心	-10.9989
以防	-10.9993
璽	-10.9994
何物	-10.9994
輔相	-10.9997
篇名	-11.0001
墨子	-11.0004
所安	-11.0005
倫理	-11.0005
兼愛	-11.0009
者常	-11.0013
功用	-11.0014
律令	-11.0016
六合	-11.002
彚	-11.0021
戒謹恐懼	-11.0022
斃	-11.0022
昆	-11.0023
其樂	-11.0024
性中	-11.0024
囊	-11.0027
許多事	-11.003
為孝	-11.003
兩事	-11.0033
明於	-11.0034
難也	-11.0034
之應	-11.0036
酒食	-11.0037
無弊	-11.0038
了却	-11.0038
以是為	-11.0038
進徳	-11.004
不多	-11.0044
皆能	-11.0047
雖在	-11.005
隂柔	-11.005
語錄	-11.0055
非一	-11.0056
即以	-11.0058
此物	-11.006
下士	-11.0062
不知有	-11.0064
過也	-11.0064
此一節	-11.0067
為小人	-11.007
自處	-11.0074
擴	-11.0077
後有	-11.008
然必	-11.0081
儻	-11.0084
宇宙	-11.0084
撻	-11.0085
縛	-11.0086
謟	-11.0087
棲	-11.0087
䕫孫	-11.0088
周書	-11.0088
居官	-11.0089
泗	-11.0091
四人	-11.0091
喪服	-11.0097
好事	-11.0098
何氏曰	-11.0099
之忠	-11.0101
從來	-11.0101
豈惟	-11.0103
養心	-11.0103
太尉	-11.0103
上看	-11.0104
乆而	-11.0104
眼前	-11.0106
穀梁	-11.0106
而勿	-11.0108
易所謂	-11.0108
侍講	-11.0109
又答	-11.0109
小小	-11.0112
告以	-11.0119
致仕	-11.012
亡也	-11.0121
未至於	-11.0122
則下	-11.0122
事不	-11.0123
養生	-11.0124
舜典	-11.0126
一畨	-11.013
賢否	-11.013
文侯	-11.0131
作易	-11.0132
是從	-11.0132
而求之	-11.0136
修徳	-11.0136
與否	-11.0138
但見	-11.0138
何可	-11.0139
天而	-11.0139
為萬世	-11.014
筵	-11.014
等語	-11.0141
天以	-11.0141
者未之有也	-11.0141
三事	-11.0142
所以有	-11.0143
掖	-11.0143
脊	-11.0143
其長	-11.0144
伋	-11.0144
崖	-11.0145
戕	-11.0146
潦	-11.0146
矣然則	-11.0146
苐	-11.0148
渝	-11.0151
訂	-11.0152
一方	-11.0152
秦王	-11.0154
平正	-11.0154
蟄	-11.0155
深逺	-11.0158
坤之	-11.0159
程頥曰	-11.0161
英宗	-11.0164
器之	-11.0167
慊	-11.0167
形勢	-11.0167
所係	-11.0168
堯典	-11.0169
各具	-11.017
此只是	-11.0174
我心	-11.0178
近之	-11.0187
居下	-11.0188
舉而	-11.0192
便無	-11.0193
爾雅	-11.0193
而推	-11.0194
神仙	-11.0195
哉夫	-11.0196
百餘	-11.0199
綜	-11.0199
作用	-11.0202
籩豆	-11.0202
芝	-11.0202
鶻突	-11.0204
曰先生	-11.0205
繼之以	-11.0206
偹	-11.0206
正統	-11.0206
轅	-11.0208
書院	-11.0208
聖人之意	-11.0212
得如此	-11.0212
譖	-11.0212
者如此	-11.0214
為物	-11.0219
三爻	-11.0219
韓文公	-11.022
深入	-11.0221
在裏	-11.0224
而樂	-11.0224
所說	-11.0225
天地之化	-11.0227
必由	-11.0227
不外乎	-11.0228
無别	-11.0229
曰這	-11.0233
者必有	-11.0234
方見得	-11.024
思所以	-11.024
者但	-11.0242
亦能	-11.0242
告之以	-11.0242
無射	-11.0243
甚事	-11.0244
示人	-11.0244
所主	-11.0245
以誠	-11.0247
月之	-11.0248
迄	-11.0248
精一	-11.0249
者也然	-11.025
祖父	-11.025
勤勞	-11.0252
至理	-11.0255
無此理	-11.0256
絶之	-11.0258
人之善	-11.0258
自在	-11.026
便與	-11.026
趾	-11.0261
放過	-11.0262
紳	-11.0263
高下	-11.0263
揀	-11.0263
炭	-11.0264
乃欲	-11.0265
之哉	-11.0266
醢	-11.0266
徳明	-11.0268
靜坐	-11.0268
世俗之	-11.0269
程門	-11.027
之始也	-11.0271
其死	-11.0272
若何	-11.0272
必不能	-11.0273
發揮	-11.0274
杜佑曰	-11.0276
為急	-11.0276
如所謂	-11.0277
親愛	-11.0286
粲然	-11.0288
列子	-11.0289
得到	-11.029
於學	-11.0292
門户	-11.0294
賔主	-11.0295
八十一	-11.0297
斯人	-11.0298
臣竊	-11.0298
荘子	-11.0301
何如曰	-11.0301
不知何	-11.0304
常理	-11.0304
之弟	-11.0306
元亨	-11.0307
也於是	-11.0307
純一	-11.0308
底意	-11.0309
習俗	-11.0309
之由	-11.0312
美惡	-11.0313
未可知	-11.0313
明明徳	-11.0313
而知其	-11.0315
者宜	-11.0315
不踰	-11.0318
軟	-11.0319
不悦	-11.0324
以救	-11.0324
曰吾聞	-11.0324
也茍	-11.0325
訾	-11.0326
本然之	-11.0326
幽王	-11.0327
繕	-11.033
藏於	-11.0331
軀	-11.0331
寕	-11.0331
奢侈	-11.0331
之功也	-11.0332
終無	-11.0333
事物之	-11.0336
四五	-11.0337
庾	-11.0338
外戚	-11.0338
物皆	-11.0339
不期	-11.034
雖非	-11.0343
已定	-11.0347
𦂳要	-11.0348
為子	-11.035
非無	-11.0351
尊長	-11.0351
必求	-11.0354
提舉	-11.0359
之得失	-11.0365
所指	-11.0366
為名	-11.037
亦惟	-11.037
繡	-11.037
此固	-11.0371
却只	-11.0372
之威	-11.0373
之法也	-11.0373
語黙	-11.0373
冢	-11.0374
太原	-11.038
重於	-11.038
室家	-11.0381
悌	-11.0381
魯人	-11.0383
本也	-11.0383
是那	-11.0385
皆言	-11.0386
橫渠	-11.0387
夙	-11.0388
次曰	-11.0388
字字	-11.0388
浦	-11.0389
襟	-11.0389
二十二	-11.0389
恊	-11.0389
媿	-11.039
稽古	-11.0393
豪傑	-11.0393
契丹	-11.0394
疑之	-11.0394
知所以	-11.0395
有所得	-11.0395
却又	-11.0395
失道	-11.0397
持之	-11.0397
杜預	-11.0397
一件事	-11.0398
異姓	-11.0403
蔽於	-11.0403
這様	-11.0411
而隂	-11.0411
昨日	-11.0411
父子君臣	-11.0413
屬之	-11.0414
皆用	-11.0416
授之	-11.0417
一番	-11.0422
五等	-11.0423
歐	-11.0424
聞道	-11.0427
大儒	-11.0428
不畏	-11.043
列於	-11.043
萬國	-11.0431
衆人之	-11.0439
空虚	-11.0439
矣况	-11.0439
入道	-11.0441
賢能	-11.0442
塘	-11.0442
昭昭	-11.0443
流出	-11.0443
撞	-11.0443
壺	-11.0445
寨	-11.0447
心存	-11.0448
賢不肖	-11.0448
僥倖	-11.0449
電	-11.0449
陳澔曰	-11.045
此一句	-11.045
但言	-11.0451
孽	-11.0451
先王之道	-11.0452
畨	-11.0453
燠	-11.0455
百畝	-11.046
或言	-11.0466
九疇	-11.0467
是恁地	-11.0468
治家	-11.0472
慨然	-11.0474
乃謂	-11.0474
誠以	-11.0477
亦不得	-11.0481
甚詳	-11.0488
一家之	-11.0491
莊敬	-11.0491
勞而	-11.0492
得之矣	-11.0494
他那	-11.0494
非道	-11.0494
無我	-11.0497
武后	-11.0497
軍中	-11.0497
豈可以	-11.0498
好善	-11.0501
以興	-11.0502
秦人	-11.0503
動處	-11.0503
所施	-11.0504
組	-11.0505
誠信	-11.0507
涇	-11.0509
阡陌	-11.051
殫	-11.051
分上	-11.0511
腸	-11.0512
安可	-11.0512
皇皇	-11.0513
如是而	-11.0513
輦	-11.0513
即今	-11.0514
菑	-11.0514
嫉	-11.0514
桐	-11.0516
尚未	-11.0518
不聴	-11.0518
五章	-11.0519
柰何	-11.0519
人説	-11.052
壊了	-11.0522
先知	-11.0522
分司	-11.0524
取象	-11.053
衣裳	-11.053
義禮智	-11.0531
所以養	-11.0536
初生	-11.0539
琴瑟	-11.0545
承天	-11.055
此五者	-11.0552
五六	-11.0552
不偏	-11.0552
為首	-11.0553
便成	-11.0556
百人	-11.0561
死亡	-11.0564
知性	-11.0566
日進	-11.0566
講求	-11.0568
亾	-11.057
一片	-11.0571
非義	-11.0571
嬪	-11.0571
六曰	-11.0572
不可使	-11.0572
魁	-11.0572
勺	-11.0572
梗	-11.0573
中宗	-11.0573
以寛	-11.0573
如孟子	-11.0574
心之徳	-11.0575
䟦	-11.0577
釋老	-11.0578
言動	-11.0579
比於	-11.0582
自殺	-11.0583
數萬	-11.0587
什一	-11.0589
理㑹不得	-11.0591
改之	-11.0597
其術	-11.0597
身體	-11.0599
窮究	-11.06
留意	-11.0601
釋奠	-11.0602
他底	-11.0602
得其所	-11.0604
吉也	-11.0606
尚何	-11.0608
以善	-11.0609
天下而	-11.061
惑於	-11.0615
敬以	-11.0616
矣且	-11.0617
為人所	-11.0619
自反	-11.0622
無實	-11.0623
未明	-11.0625
四代	-11.0629
三綱	-11.0631
雖或	-11.0633
總論	-11.0635
暌	-11.0636
愠	-11.0636
隻	-11.0637
達道	-11.0637
涖	-11.0638
畀	-11.0638
罹	-11.0639
况於	-11.064
𫝊曰	-11.0642
之狀	-11.0643
出一	-11.0643
懇	-11.0643
珠玉	-11.0644
不犯	-11.0645
郵	-11.0645
此身	-11.0647
過乎	-11.0648
心裏	-11.0649
註云	-11.0649
伊川説	-11.065
非常	-11.0651
學者當	-11.0653
孔子之言	-11.0653
以己	-11.0653
豈不是	-11.0654
農事	-11.0657
官職	-11.0658
數百	-11.0658
無主	-11.0658
重而	-11.0659
正心誠意	-11.066
不知是	-11.0661
時事	-11.0664
同也	-11.0666
世道	-11.0668
日行	-11.0668
姦邪	-11.0672
孝子之	-11.0675
自天子	-11.0681
㸔來	-11.0681
衛侯	-11.0683
君徳	-11.0685
為宗	-11.0686
不怨	-11.0686
然皆	-11.0688
地方	-11.0688
性是	-11.069
朋友之	-11.069
不告	-11.0693
南吕	-11.0694
信乎	-11.0695
沾	-11.0696
撃	-11.0697
賄	-11.0697
之吉	-11.0699
籌	-11.0701
欵	-11.0701
俯仰	-11.0702
東宫	-11.0703
拳拳	-11.0705
宦者	-11.0707
正以	-11.0708
神農	-11.071
曰禮	-11.0712
自安	-11.0713
者可以	-11.0716
萬善	-11.0717
計其	-11.0717
復禮	-11.0718
恐非	-11.072
安樂	-11.072
只是說	-11.0721
古制	-11.0721
精明	-11.0722
茍非	-11.0723
者以為	-11.0725
者既	-11.0726
一身之	-11.0728
出則	-11.0729
楊時	-11.073
五穀	-11.0731
㑹稽	-11.0731
後天	-11.0732
水利	-11.0734
本來	-11.0735
之親	-11.0736
之刑	-11.074
虚明	-11.074
于是	-11.0741
方知	-11.0742
一歲	-11.0743
法以	-11.0743
陪	-11.0743
教養	-11.0745
明乎	-11.0747
報之	-11.0749
又從而	-11.0751
升堂	-11.0753
厲王	-11.0756
富者	-11.0758
何患	-11.0762
不脩	-11.0764
以四	-11.0767
縷	-11.0768
一畫	-11.0768
要去	-11.0769
象數	-11.077
一様	-11.077
夸	-11.0771
初不	-11.0771
齎	-11.0774
三百篇	-11.0776
親者	-11.0776
致治	-11.0776
而還	-11.0777
祖宗之	-11.0777
夏四月	-11.0777
聞而	-11.0781
魏徵	-11.0784
正色	-11.0784
下至	-11.0786
孟子之	-11.0788
但是	-11.0789
父子兄弟	-11.079
帥師	-11.079
舊説	-11.0791
敵國	-11.0793
但其	-11.0796
誠有	-11.0797
在我者	-11.0799
不相似	-11.0799
一個	-11.0799
謹於	-11.08
於衆	-11.0802
至尊	-11.0803
勇者	-11.0805
其目	-11.0806
彖傳	-11.0808
然後有	-11.0808
其舊	-11.0814
舍之	-11.0815
以輔	-11.0816
禮儀	-11.0816
嵩	-11.0818
公侯	-11.0819
綽	-11.082
天下者	-11.082
底便是	-11.0823
韜	-11.0826
逝	-11.0827
自相	-11.0827
窒礙	-11.0828
黄氏日抄卷	-11.0829
節次	-11.0829
繒	-11.0831
放心	-11.0832
不顯	-11.0832
社倉	-11.0833
事功	-11.0834
南康	-11.0836
器也	-11.0836
怠惰	-11.0837
春王正月	-11.0838
生則	-11.0838
諸司	-11.0839
矣蓋	-11.0846
是書	-11.0852
無不通	-11.0855
郊祀	-11.0857
肉刑	-11.086
㓂	-11.0862
敦厚	-11.0862
謂之仁	-11.0863
五世	-11.0864
好底	-11.0866
嗜欲	-11.0867
時已	-11.0868
不論	-11.087
納之	-11.087
方寸	-11.0871
禮而	-11.0871
春秋傳	-11.0871
使知	-11.0873
金玉	-11.0876
上文集	-11.088
何耶	-11.0881
哉此	-11.0883
充塞	-11.0885
中山	-11.0886
雖若	-11.0887
立政	-11.0887
臆	-11.0887
証	-11.0889
所出	-11.0889
如彼	-11.089
動物	-11.0891
不出於	-11.0893
能言	-11.0893
酢	-11.0893
有淺深	-11.0894
字和	-11.0895
仁智	-11.0896
無邪	-11.0896
囬	-11.0897
照管	-11.0897
噬	-11.0898
撤	-11.0898
所繫	-11.0899
未必能	-11.09
却無	-11.09
郎中	-11.0901
其所當	-11.0902
清植	-11.0906
審其	-11.0908
正與	-11.0909
通透	-11.0911
古注	-11.0911
正者	-11.0911
辭以	-11.0913
則難	-11.0914
學者之	-11.0914
殺其	-11.0917
即有	-11.0919
了然	-11.092
之和	-11.0924
曰臣	-11.0925
無時	-11.0926
去看	-11.0926
各得其所	-11.0926
之色	-11.0927
之勞	-11.0927
夫子曰	-11.0933
之事則	-11.0933
堂上	-11.0934
有志於	-11.0935
自成	-11.0936
臣聞	-11.094
自言	-11.0941
乾元	-11.0944
而後行	-11.0945
不拘	-11.0946
同然	-11.095
大家	-11.0953
避之	-11.0954
天氣	-11.0956
踏	-11.0956
裝	-11.0958
諸君	-11.0958
何者	-11.0959
無時不	-11.096
先師	-11.096
䑕	-11.0961
不茍	-11.0961
婚姻	-11.0962
飄	-11.0962
莫先於	-11.0962
方子	-11.0966
以私	-11.0967
實心	-11.0967
羿	-11.0972
反為	-11.0972
公劉	-11.0973
行義	-11.0974
美之	-11.0975
與聖人	-11.0976
大成	-11.0979
無惡	-11.0983
必死	-11.0989
伊川先生曰	-11.0989
聚而	-11.099
周家	-11.0994
上聲	-11.0997
嘆曰	-11.0997
無服	-11.0999
止也	-11.0999
為樂	-11.0999
王政	-11.1003
這些子	-11.1008
說道	-11.1012
充之	-11.1016
心便	-11.1018
拾	-11.1019
至扵	-11.1021
滯於	-11.1022
繳	-11.1022
理一分殊	-11.1023
忙	-11.1024
嘗以	-11.1024
是自	-11.1025
襄王	-11.1026
為人君者	-11.1026
僉	-11.1026
豎	-11.1026
遥	-11.1029
顓	-11.1029
古今之	-11.103
蔡京	-11.103
曰陛下	-11.1031
霍光	-11.1031
楚王	-11.1031
不給	-11.1031
感發	-11.1032
如此而	-11.1032
法天	-11.1033
有味	-11.1034
不直	-11.1034
助長	-11.1034
地中	-11.1036
朋黨	-11.1038
魏徴	-11.1038
嘗有	-11.1043
集解	-11.1043
於王	-11.1044
孺	-11.1044
公共	-11.1045
亦甚	-11.1046
奏事	-11.1048
二南	-11.1048
一而已	-11.1049
竭力	-11.1056
四章	-11.1057
勝負	-11.1057
要知	-11.106
處却	-11.1061
而不已	-11.1061
西漢	-11.1061
家貧	-11.1072
誘之	-11.1074
不可廢	-11.1075
極則	-11.1077
則天	-11.1078
仲尼曰	-11.1078
所愛	-11.1082
文皇	-11.1083
淨	-11.1084
耘	-11.1085
正位	-11.1085
無聲無臭	-11.1086
於人者	-11.1088
之死	-11.1089
韓退之	-11.1091
慚	-11.1091
鼓舞	-11.1094
玄	-11.1095
謾	-11.1095
嬴	-11.1095
其象	-11.1098
善政	-11.1099
相須	-11.11
自有箇	-11.11
被人	-11.11
徽宗	-11.1103
得罪	-11.1103
以九	-11.1104
從心	-11.1106
如何曰此	-11.1114
雖小	-11.1116
靜而	-11.1118
事長	-11.1118
人不能	-11.112
爲人	-11.1121
何獨	-11.1122
豈獨	-11.1122
轉移	-11.1123
二書	-11.1126
曹公	-11.1127
天理之	-11.1129
湊	-11.113
聖明	-11.1133
學易	-11.1136
灼	-11.1136
做底	-11.1137
時文	-11.1139
君以	-11.114
禁之	-11.114
生之謂性	-11.1154
戢	-11.1154
脂	-11.1154
妬	-11.1155
精義入神	-11.1155
整頓	-11.1155
知幾	-11.1156
獄訟	-11.1157
惟知	-11.1157
俠	-11.1158
待人	-11.1165
方見	-11.1166
如晉	-11.1166
秦檜	-11.1168
雨露	-11.117
不如是	-11.1172
山谷	-11.1173
數語	-11.1173
未然	-11.1173
約之	-11.1173
其先	-11.1176
聽其	-11.1178
發出來	-11.1179
之益	-11.118
由之	-11.1184
臨時	-11.1185
上章	-11.1185
天下之心	-11.1186
之心則	-11.1187
親也	-11.1187
漠	-11.1188
天地生物之心	-11.1189
學記	-11.119
寂然	-11.1193
其業	-11.1194
邪僻	-11.1195
黙識	-11.1197
恐人	-11.1199
裡	-11.1201
於氣	-11.1202
化而	-11.1203
民不	-11.1203
處多	-11.1204
於義理	-11.1204
南山	-11.1204
嘗聞	-11.1205
使學者	-11.1207
博文	-11.1207
軍士	-11.1207
者誠	-11.1208
劄子	-11.1212
精宻	-11.1213
處若	-11.1213
以兵	-11.1215
便說	-11.1215
只當	-11.1216
惡其	-11.1217
劑	-11.1218
名實	-11.1219
自棄	-11.122
慿	-11.122
近思録	-11.1221
芥	-11.1223
自我	-11.1223
閎祖	-11.1223
謫	-11.1223
有偏	-11.1224
笏	-11.1225
暖	-11.1225
汰	-11.1225
不能得	-11.1226
而加	-11.1227
變為	-11.1228
淵源	-11.1229
中行	-11.1229
宋之	-11.123
作春秋	-11.1231
推明	-11.1232
要道	-11.1232
布帛	-11.1232
第六	-11.1236
五色	-11.1236
賢愚	-11.1237
反是	-11.124
合而言之	-11.124
只一	-11.1241
德者	-11.1244
朱子謂	-11.1247
能守	-11.1248
聖人作易	-11.1248
仕者	-11.1248
魏晉	-11.1248
胡文定	-11.1249
蓋有	-11.1249
而與之	-11.1249
豈容	-11.1249
瑟	-11.1251
變動	-11.1252
作亂	-11.1253
辭曰	-11.1255
存其	-11.1256
不習	-11.1257
又似	-11.1261
入學	-11.1263
隨處	-11.1265
有數	-11.1268
亡者	-11.1268
而國	-11.1274
仁之體	-11.1274
是甚	-11.1275
何時	-11.1276
而居	-11.1277
舉業	-11.128
髙逺	-11.128
𦙍	-11.1283
闔闢	-11.1284
律吕	-11.1284
其材	-11.1285
篇曰	-11.1286
子房	-11.1287
之本體	-11.1287
㤀	-11.1289
澗	-11.129
引之	-11.129
興師	-11.1291
天理流行	-11.1292
有先後	-11.1293
翰林	-11.1294
三五	-11.1295
者莫不	-11.1296
盡其道	-11.1297
天下皆	-11.1299
五伯	-11.1299
未曾	-11.1304
冬十月	-11.1306
而通	-11.1309
明辨	-11.131
祭於	-11.1312
以及人	-11.1313
之表	-11.1314
交而	-11.1315
邪説	-11.1315
看来	-11.1317
數千	-11.1318
大吕	-11.1319
知行	-11.132
皆以為	-11.1322
却説	-11.1323
不貴	-11.1323
成也	-11.1324
處是	-11.1325
性命之	-11.1327
明善	-11.1328
都督	-11.1328
事如	-11.1329
夫是之謂	-11.1332
全書	-11.1335
魯君	-11.1337
架	-11.1338
而愈	-11.1339
能自	-11.134
無外	-11.134
不任	-11.1341
夏時	-11.1341
又嘗	-11.1345
今若	-11.1346
乎若	-11.1347
能致	-11.1347
昏禮	-11.1347
而治	-11.1347
拊	-11.1348
先立	-11.1351
未知其	-11.1351
學道	-11.1353
歇	-11.1354
視聽言動	-11.1354
因時	-11.1354
感而遂通	-11.1355
國中	-11.1356
止於至善	-11.1359
宰我	-11.136
也既	-11.136
揭	-11.136
昻	-11.1361
盾	-11.1362
時習	-11.1362
有得於	-11.1364
除之	-11.1365
自足	-11.1365
盛德	-11.1366
各一	-11.1367
農桑	-11.1367
一致	-11.1368
便只是	-11.1369
發處	-11.1369
外事	-11.1371
九經	-11.1375
一周	-11.1375
於諸侯	-11.1378
奉行	-11.1379
有竒	-11.138
天者	-11.138
流而	-11.1382
五典	-11.1385
八百	-11.1386
儘有	-11.1387
大夫之	-11.1393
人皆有	-11.1395
天理也	-11.1396
孝公	-11.1396
有義	-11.1397
言人	-11.14
始于	-11.1402
果有	-11.1402
聚也	-11.1402
纔有	-11.1403
曰寡人	-11.1408
雖至	-11.1415
者由	-11.1418
無一不	-11.142
助之	-11.142
吸	-11.1422
過人	-11.1422
聖人教人	-11.1423
庖	-11.1424
之粟	-11.1426
太隂	-11.1427
伐齊	-11.1427
緫	-11.1428
鄫	-11.1428
扐	-11.1431
小臣	-11.1433
皮弁	-11.1436
之期	-11.1438
示之	-11.1438
者天之	-11.1442
物有	-11.1443
莫知	-11.1444
李斯	-11.1447
若非	-11.1447
微而	-11.1448
故無	-11.1449
為美	-11.1449
異時	-11.1449
足為	-11.1451
善端	-11.1454
即其	-11.1454
矣至於	-11.1456
之以禮	-11.1457
國事	-11.1458
愚意	-11.1459
至孝	-11.1461
將有	-11.1462
之時也	-11.1465
豈知	-11.1465
畏之	-11.1469
諸心	-11.1469
以威	-11.147
四凶	-11.1472
也春秋	-11.1473
其半	-11.1473
忒	-11.1474
事父	-11.1477
舊說	-11.1477
是否曰	-11.1478
何嘗不	-11.148
事無	-11.1481
讀易	-11.1481
又能	-11.1481
自省	-11.1483
一歩	-11.1484
功徳	-11.1484
大畧	-11.1485
但恐	-11.1486
學則	-11.1486
卿等	-11.1487
説箇	-11.149
甚者	-11.149
深切	-11.1491
天下歸仁	-11.1492
麓	-11.1492
這物事	-11.1492
綦	-11.1492
博文約禮	-11.1493
折衷	-11.1493
非正	-11.1494
莘	-11.1495
界限	-11.1496
叔父	-11.1496
能得	-11.1496
而來	-11.1498
和順	-11.1499
之事而	-11.15
太簇	-11.1505
人不知	-11.1505
有意於	-11.1506
長吏	-11.1507
存得	-11.1508
復古	-11.1509
立功	-11.151
如顔子	-11.1511
諸路	-11.1512
創業	-11.1512
無事時	-11.1516
之詳	-11.1517
以全	-11.1519
惻	-11.152
漢武	-11.1524
曰敬	-11.1527
其詞	-11.1527
大司徒	-11.1528
讀為	-11.1528
未生	-11.1533
南豐	-11.1534
珪	-11.1535
亦不必	-11.1537
習於	-11.1539
感人	-11.154
傷人	-11.1542
茍不	-11.1542
陛	-11.1543
乃止	-11.1544
妻之	-11.1547
所禀	-11.1548
四條	-11.1551
安頓	-11.1554
見得道理	-11.1557
名分	-11.1558
天下之士	-11.1559
蓬	-11.156
從祀	-11.156
莫大焉	-11.1561
耳今	-11.1561
圃	-11.1562
門下	-11.1563
者吾	-11.1563
由其	-11.1566
干戈	-11.1567
胡亂	-11.1568
其理則	-11.1568
於聖人	-11.1569
進也	-11.1571
食者	-11.1571
鹿鳴	-11.1572
定天下	-11.1574
但能	-11.1575
三年之喪	-11.1575
入朝	-11.1576
自稱	-11.1579
拾遺	-11.1579
山澤	-11.1581
莊周	-11.1581
致之	-11.1583
夫以	-11.1584
本根	-11.1587
馴致	-11.1588
齊桓	-11.1593
外無	-11.1594
强弱	-11.1594
政之	-11.1595
東海	-11.1597
切己	-11.1599
孔顔	-11.1603
不喜	-11.1605
千人	-11.161
不得其	-11.1612
恤民	-11.1613
德性	-11.1614
不載	-11.1615
堯舜禹湯文武	-11.1616
知縣	-11.1618
一重	-11.162
計之	-11.1621
梏	-11.1622
重者	-11.1624
無所不通	-11.1625
程顥	-11.1627
謚	-11.1628
必有事焉	-11.1628
者能	-11.1628
轡	-11.1629
莭	-11.1631
臣民	-11.1632
遂至	-11.1632
動時	-11.1632
而不自知	-11.1633
祀之	-11.1633
範圍	-11.1633
煉	-11.1634
軾	-11.1634
人各	-11.1635
摶	-11.1635
呼吸	-11.1635
觴	-11.1635
整齊	-11.1636
是豈	-11.1637
王肅	-11.1639
者莫如	-11.1641
國子監	-11.1645
罷之	-11.1645
此心之	-11.1646
費力	-11.1647
薦之	-11.1647
也臣良勝曰	-11.1648
無少	-11.1649
言聖人	-11.165
至於此	-11.1652
知命	-11.1653
千百	-11.1656
先務	-11.1661
如此若	-11.1662
先是	-11.1663
三嵗	-11.1664
教誨	-11.1669
成書	-11.1674
言此	-11.1674
獨不	-11.1676
文意	-11.168
何敢	-11.1682
之萌	-11.1685
不可以為	-11.1686
箇道理	-11.1686
戒其	-11.1687
而取之	-11.169
擇之	-11.1691
加之	-11.1692
五百里	-11.1692
敬以直内義以方外	-11.1694
漢文	-11.1694
而祭	-11.1695
潁	-11.1696
不達	-11.1697
原於	-11.1698
便做	-11.1699
不可不知	-11.1699
詖	-11.17
固守	-11.1701
便宜	-11.1702
仞	-11.1702
爼	-11.1702
繪	-11.1703
申公	-11.1703
軸	-11.1704
自昔	-11.1706
朂	-11.1707
通達	-11.1711
至論	-11.1711
何以能	-11.1713
乎孔子曰	-11.1714
風雷	-11.1715
之辭也	-11.1715
二千	-11.1715
浙東	-11.1717
齊魯	-11.1718
地形	-11.1721
矣問	-11.1721
司馬遷	-11.1722
豁然	-11.1724
於市	-11.1725
之甚也	-11.1727
為禮	-11.1727
張載	-11.1727
行矣	-11.1728
方士	-11.173
立心	-11.173
放肆	-11.1731
以厚	-11.1731
仁厚	-11.1734
修之	-11.1736
等級	-11.174
宋太祖	-11.174
宗社	-11.1743
穆王	-11.1743
數十年	-11.1744
之所同	-11.1744
當從	-11.1744
然却	-11.1749
無以異	-11.1752
自取	-11.1754
昭明	-11.1754
漢髙祖	-11.1758
萬餘	-11.1759
貴者	-11.1761
三省	-11.1762
賈林曰	-11.1763
之災	-11.1764
諸葛亮	-11.1765
佃	-11.1766
也人君	-11.1767
不興	-11.1767
嫂	-11.1767
用意	-11.1768
凡言	-11.1768
而往	-11.1771
廼	-11.1771
黍稷	-11.1773
而觀之	-11.1774
廸	-11.1774
人欲之私	-11.1775
黄門	-11.1775
喬	-11.1777
其誠	-11.1778
冥	-11.1778
之半	-11.1778
浴	-11.1779
閨門	-11.178
古法	-11.1781
無間斷	-11.1781
化育	-11.1782
取義	-11.1783
細宻	-11.1786
其教	-11.1788
在家	-11.179
斷之	-11.1793
秋七月	-11.1796
亂而	-11.1801
其質	-11.1806
惟一	-11.1808
能行	-11.1809
在人則	-11.1809
之於身	-11.1809
不足道	-11.1811
一太極	-11.1811
湯之	-11.1814
既曰	-11.1815
則固	-11.1817
同於	-11.1817
敬親	-11.1817
之財	-11.1817
亦未必	-11.182
不仕	-11.1822
治其	-11.1825
地下	-11.183
老而	-11.1833
王通	-11.1835
陜	-11.1836
可謂知	-11.1836
揮	-11.1837
凍	-11.1838
其命	-11.1838
漢初	-11.1843
濤	-11.1844
而歸之	-11.1844
鷹	-11.1846
倘	-11.1846
㸃檢	-11.1848
約束	-11.1848
只是如此	-11.185
觀物	-11.1851
楚之	-11.1854
仁孝	-11.1854
曰惟	-11.1856
以漸	-11.1856
之容	-11.1857
此病	-11.1863
上做工夫	-11.1863
躐等	-11.1863
彼之	-11.1867
中立	-11.1868
能用	-11.1868
有害	-11.1875
金水	-11.1875
勇於	-11.1878
為下	-11.1878
畫卦	-11.1878
號為	-11.1881
至德	-11.1883
師傅	-11.1885
曰夫子	-11.1887
木為	-11.1887
不遷	-11.189
有六	-11.1891
之最	-11.1892
未為	-11.1893
亦自有	-11.1898
這心	-11.1899
齊國	-11.1901
所著	-11.1902
有恒	-11.1903
吾與	-11.1905
今既	-11.1905
鐡	-11.1905
而後知	-11.1905
不異	-11.1907
三國	-11.1908
灑	-11.1908
老隂	-11.1908
建國	-11.1909
敬義	-11.1909
中國之	-11.1909
亦已	-11.191
糞	-11.191
左旋	-11.1911
不過如此	-11.1912
知其所	-11.1914
賞之	-11.1915
則氣	-11.1916
舊制	-11.1917
掇	-11.1918
赤子之心	-11.1918
之苦	-11.1918
昌黎	-11.1919
濮	-11.1919
不可測	-11.1921
先覺	-11.1923
三變	-11.1923
不可與	-11.1924
于王	-11.1925
同居	-11.1925
而未嘗	-11.1926
便如	-11.1926
剛毅	-11.1928
自作	-11.1929
榮辱	-11.193
未達	-11.1931
沛	-11.1932
本諸	-11.1932
忠義	-11.1934
物來	-11.1938
百世之	-11.1942
此道理	-11.1943
廓	-11.1945
乎人	-11.1946
由是觀之	-11.195
只用	-11.1952
先生曰此	-11.1954
過此	-11.1958
有多少	-11.1958
有終	-11.1959
有所謂	-11.196
當然之理	-11.1961
之用也	-11.1962
㸔他	-11.1962
聖王之	-11.1967
也以其	-11.1972
孟子謂	-11.1972
不中節	-11.1972
而盡	-11.1973
天地之中	-11.1975
而趨	-11.1975
犯法	-11.1977
區處	-11.1978
象之	-11.1979
田里	-11.198
蓋其	-11.1981
或人	-11.1981
逓	-11.1982
自然之	-11.1982
立則	-11.1983
揲蓍	-11.1984
盆	-11.1984
可以觀	-11.1984
些小	-11.1984
不交	-11.1984
藁	-11.1987
蔣	-11.1987
者無不	-11.199
姿	-11.199
頸	-11.199
檀弓	-11.1993
兢兢	-11.1995
應接	-11.1997
有益於	-11.1997
盡忠	-11.1997
西域	-11.1999
休戚	-11.1999
七分	-11.2001
無聲	-11.2002
以德	-11.2002
深衣	-11.2004
一寸	-11.2006
位也	-11.2008
所立	-11.2009
關雎	-11.2009
貨財	-11.2012
星辰	-11.2012
天子之孝	-11.2013
岷隱曰	-11.2015
學者須	-11.2019
大衍	-11.2022
敵之	-11.2024
兩人	-11.2025
言天	-11.2026
漢人	-11.2026
子胥	-11.2027
奉天	-11.2028
不知此	-11.2028
過不及	-11.2029
以達	-11.2029
在所	-11.2032
雩	-11.2033
又在	-11.2037
其機	-11.2038
寛大	-11.204
皆知	-11.2043
之頃	-11.2043
民情	-11.2043
所可	-11.2048
凡物	-11.205
志於道	-11.205
久則	-11.205
器械	-11.2051
觀於	-11.2053
切於	-11.2054
帯	-11.2054
四子	-11.2055
庵	-11.2057
滑	-11.2058
和則	-11.2058
有象	-11.2058
史臣	-11.2059
度之	-11.2059
牌	-11.206
康誥	-11.206
恰似	-11.206
朗	-11.2061
性則	-11.2061
驩	-11.2061
五服	-11.2062
節之	-11.2063
只是他	-11.2063
水土	-11.2064
以仁義	-11.2064
瀾	-11.2064
盡之矣	-11.2064
四德	-11.2068
若欲	-11.2071
異矣	-11.2073
扶持	-11.2074
離乎	-11.2074
致曲	-11.2074
識者	-11.2074
管蔡	-11.2075
與共	-11.2076
明德	-11.2076
坎離	-11.2076
徳義	-11.2077
少時	-11.2079
其主	-11.2081
哲宗	-11.2082
之學也	-11.2086
只作	-11.2092
超然	-11.2092
列國	-11.2092
之端也	-11.2093
周制	-11.2095
任其	-11.2096
心無	-11.2099
蠻夷	-11.21
及物	-11.2105
讀史	-11.2108
于人	-11.2109
某謂	-11.2109
曰天子	-11.2111
有知	-11.2111
異而	-11.2113
之急	-11.2114
講讀	-11.2115
存則	-11.2116
張氏曰	-11.2117
地道	-11.2119
毫髪	-11.2121
食肉	-11.2122
大叚	-11.2122
廂	-11.2124
諸國	-11.2128
煙	-11.213
孔安國	-11.213
生萬物	-11.213
下梢	-11.2131
性理大全書卷	-11.2131
下詔	-11.2131
不同者	-11.2131
賑濟	-11.2132
境界	-11.2132
咏	-11.2133
公孫丑	-11.2133
褒貶	-11.2134
逺之	-11.2134
告於	-11.2134
宸	-11.2134
窮神知化	-11.2135
雖不同	-11.2136
甥	-11.2136
所掌	-11.2137
時方	-11.2138
附㑹	-11.2138
貝	-11.2139
幾微	-11.2145
富而	-11.2146
何待	-11.2147
公平	-11.215
吾輩	-11.215
身為	-11.2151
富人	-11.2154
天官	-11.2155
煞有	-11.2157
他事	-11.2158
乎上	-11.2158
君者	-11.2159
欲人	-11.216
不虞	-11.216
大概	-11.216
心志	-11.2162
程頤	-11.2162
茫	-11.2163
其欲	-11.2165
生事	-11.2165
禀得	-11.2166
祭禮	-11.2166
一而已矣	-11.2167
此四	-11.217
永樂	-11.217
無不盡	-11.217
克治	-11.2171
困窮	-11.2171
如此看	-11.2171
斯道	-11.2172
横渠云	-11.2172
二十一	-11.2174
其任	-11.2177
鄉大夫	-11.2177
誠明	-11.2178
授受	-11.2179
物格	-11.218
進學	-11.2182
矛	-11.2184
晉之	-11.2184
一道	-11.2185
主静	-11.219
覲	-11.219
相資	-11.219
峰	-11.2192
不屑	-11.2193
至若	-11.2194
只説得	-11.2195
期於	-11.2196
意見	-11.2198
蔬	-11.22
本然	-11.22
絞	-11.22
別	-11.2202
上意	-11.2202
吕與叔	-11.2202
修其	-11.2202
博施濟衆	-11.2203
蟻	-11.2203
以給	-11.2205
驛	-11.2206
抽	-11.2207
燎	-11.2207
如此則是	-11.2208
畢竟是	-11.2208
縦	-11.2209
顓頊	-11.2209
接續	-11.221
生民之	-11.2211
蕩蕩	-11.2211
畿	-11.2213
無限	-11.2215
五榖	-11.2215
之祖	-11.2217
然無	-11.2217
題目	-11.2218
學文	-11.2219
無迹	-11.222
從政	-11.2222
其迹	-11.2223
臨川	-11.2223
以求其	-11.2224
之策	-11.2226
趙氏	-11.2228
居其	-11.2229
茍有	-11.2231
使得	-11.2233
無一人	-11.2234
其節	-11.2235
斁	-11.2236
大公	-11.2238
難處	-11.2239
無違	-11.224
為之主	-11.224
四海之	-11.224
不可言	-11.224
名臣	-11.2243
不亡	-11.2245
奪其	-11.2249
不理㑹	-11.2253
前有	-11.2253
無偏	-11.2254
事母	-11.2255
諫曰	-11.2256
而推之	-11.2256
詩言	-11.226
這一	-11.2261
乎外	-11.2262
未有能	-11.2263
天道之	-11.2264
我者	-11.2264
任賢	-11.2265
聞者	-11.2266
不得其所	-11.2269
臨之	-11.2269
矣是故	-11.227
洒掃應對	-11.2272
自去	-11.2272
只是不	-11.2273
心力	-11.2274
君臣上下	-11.2274
瞽瞍	-11.2275
親迎	-11.2275
類論	-11.2276
渣滓	-11.2277
壙	-11.2277
可通	-11.2278
敬夫	-11.2278
南陽	-11.2278
史書	-11.2279
冺	-11.2281
薫	-11.2281
南軒張氏曰	-11.2281
為可	-11.2282
訐	-11.2282
緇	-11.2283
五峰	-11.2284
蜡	-11.2284
不善者	-11.2285
土木	-11.2286
著意	-11.2286
亶	-11.2286
大倫	-11.2286
舍人	-11.2288
於父母	-11.2288
反身	-11.2289
而受	-11.2291
斬衰	-11.2291
之君子	-11.2292
着力	-11.2293
節度使	-11.2293
行狀	-11.2295
涯	-11.2297
交易	-11.2302
奉養	-11.2303
為主而	-11.2304
未可以	-11.2305
商之	-11.2308
而好	-11.2311
占得	-11.2311
作事	-11.2313
當如何	-11.2313
上理㑹	-11.2316
之黨	-11.2316
此二句	-11.2319
日用間	-11.232
老少	-11.2321
五禮	-11.2322
數人	-11.2322
治水	-11.2323
士也	-11.2328
國初	-11.2329
處説	-11.2329
所貴	-11.2333
千餘	-11.2335
詩經	-11.2336
一例	-11.2336
致敬	-11.2337
楊子	-11.2338
閒居	-11.234
令其	-11.2342
國無	-11.2342
守成	-11.2343
底物	-11.2344
大君	-11.2346
矣子曰	-11.2347
陳平	-11.2348
又復	-11.2348
袂	-11.2349
極言	-11.2349
櫛	-11.235
墾	-11.235
有善惡	-11.235
是體	-11.2353
夏后氏	-11.2353
衽	-11.2357
茲	-11.2357
鎬	-11.2357
愽	-11.2358
䑓	-11.2358
天下有	-11.2359
彫	-11.2359
鄂	-11.2359
何等	-11.236
其祖	-11.236
兢兢業業	-11.2361
伎	-11.2361
關中	-11.2362
徂	-11.2362
聖主	-11.2362
既定	-11.2364
地理	-11.2365
不懼	-11.2367
耽	-11.2369
六律	-11.2369
火之	-11.2371
吾聞	-11.2371
品節	-11.2374
執之	-11.2374
人掌	-11.2374
葢以	-11.2378
所當然	-11.2382
乃命	-11.2383
十八年	-11.2383
誰能	-11.2386
以示人	-11.2386
了翁	-11.2386
六條	-11.2387
記誦	-11.2389
之身	-11.2393
所處	-11.2393
月行	-11.2394
定制	-11.2395
形質	-11.2395
亦與	-11.2397
奈	-11.2398
三等	-11.2399
晉文公	-11.24
亦在	-11.2401
戰而	-11.2406
此兩句	-11.2407
有間	-11.2408
至當	-11.2408
謹其	-11.2409
者先	-11.2411
風氣	-11.2415
得正	-11.2417
冉有	-11.242
有未盡	-11.2423
禮樂刑政	-11.2424
應變	-11.2425
濵	-11.2426
為吏	-11.2427
畏天	-11.2428
善乎	-11.2431
乎對曰	-11.2432
緦	-11.2434
地頭	-11.2434
正名	-11.2436
敞	-11.2437
仕宦	-11.2438
以守	-11.2438
致力	-11.2438
之言而	-11.2445
洞然	-11.2445
八分	-11.2445
世變	-11.2448
君子之學	-11.2449
臣請	-11.2451
爻辭	-11.2453
封禪	-11.2455
次日	-11.2456
諸經	-11.2457
欣	-11.2458
全然	-11.2459
了他	-11.2463
刑者	-11.2465
一經	-11.2465
取法	-11.2465
周徧	-11.2468
補注	-11.2472
係於	-11.2474
與子	-11.2475
如何㑹	-11.2477
曰古之	-11.2478
各隨	-11.2478
切已	-11.2479
不足為	-11.2481
胸	-11.2481
其師	-11.2482
文書	-11.2482
一鄉	-11.2482
以致其	-11.2483
如此其	-11.2485
不肖者	-11.2488
此二者	-11.2488
名義	-11.2488
誑	-11.2489
一見	-11.2489
每事	-11.249
勿用	-11.2491
不留	-11.2493
地勢	-11.2494
想是	-11.2494
若果	-11.2494
其宜	-11.2495
繼母	-11.2496
四國	-11.2496
偏於	-11.2497
氣力	-11.2497
二君	-11.2498
所習	-11.25
迅	-11.2501
問人	-11.2502
所遇	-11.2502
衾	-11.2503
諄諄	-11.2504
莫大乎	-11.2504
不相干	-11.2504
不煩	-11.2504
問於孔子曰	-11.2504
跛	-11.2505
殁	-11.2505
洒	-11.2506
如何先生曰	-11.2506
邸	-11.2507
為水	-11.2508
蘊	-11.2508
此與	-11.2509
掲	-11.2509
稔	-11.2509
竊恐	-11.251
陜西	-11.251
辭讓	-11.2512
便謂	-11.2512
仁政	-11.2515
得其人	-11.2515
樂正	-11.2515
直卿	-11.2516
人品	-11.2517
世而	-11.2517
而莫	-11.2518
二三子	-11.2519
經緯	-11.2522
亦且	-11.2523
不屈	-11.2524
其言曰	-11.2526
執其	-11.2533
韓公	-11.2533
一説	-11.2534
不擇	-11.2535
不雨	-11.2536
未濟	-11.2536
乃其	-11.2536
講究	-11.2537
户口	-11.2537
名之曰	-11.254
都鄙	-11.254
本然之性	-11.2541
而不窮	-11.2543
致用	-11.255
如漢	-11.2551
其官	-11.2553
詹	-11.2553
父老	-11.2555
已然	-11.2555
悠	-11.2556
志學	-11.2559
堂下	-11.2559
在上者	-11.2559
率性	-11.2562
夫子之言	-11.2562
判官	-11.2563
已甚	-11.2569
此禮	-11.2569
於人也	-11.2569
楊氏曰	-11.2569
豈以	-11.257
子貢問	-11.2571
牡	-11.2572
裹	-11.2573
為功	-11.2573
慮其	-11.2573
直截	-11.2575
而興	-11.2578
同上	-11.2578
風之	-11.2579
瑣	-11.258
二帝三王	-11.2581
五分	-11.2581
江漢	-11.2582
閤	-11.2582
屍	-11.2582
立廟	-11.2583
掛扐	-11.2584
鄉原	-11.2584
艮其背	-11.2584
亦可見	-11.2586
一尺	-11.2591
所共	-11.2592
此章言	-11.2592
饑寒	-11.2593
進於	-11.2594
不啻	-11.2595
推此	-11.2596
三徳	-11.2597
便道	-11.2601
冉求	-11.2602
進之	-11.2606
之材	-11.2608
國政	-11.2608
學者須是	-11.2609
服也	-11.2613
一箇物事	-11.2617
若如	-11.2621
感之	-11.2622
大同	-11.2624
者特	-11.2625
無體	-11.2626
可以知	-11.2628
且夫	-11.2629
委之	-11.263
大將軍	-11.263
盛時	-11.2631
無端	-11.2632
蓋亦	-11.2633
因事	-11.2635
千金	-11.2636
豈徒	-11.2637
萬民之	-11.2639
動者	-11.264
又恐	-11.264
於此者	-11.2643
之慮	-11.2644
鄆	-11.265
不悟	-11.2651
生靈	-11.2652
周孔	-11.2655
雅頌	-11.2655
鷄	-11.2656
豈可不	-11.2656
沽	-11.2657
蓍龜	-11.2658
搆	-11.2658
拆	-11.266
尊徳性	-11.2663
而從之	-11.2663
冡宰	-11.2663
虚無	-11.2667
問孔子	-11.2667
貧而	-11.2668
之禮也	-11.2668
悔吝	-11.2669
相從	-11.2674
讀爲	-11.2676
傅説	-11.2677
其視	-11.2678
之本意	-11.2678
斯文	-11.2679
為太極	-11.2679
諸篇	-11.2679
鄉遂	-11.2683
一邉	-11.2685
人以為	-11.2689
直指	-11.269
却要	-11.269
無咎	-11.2693
漢興	-11.2693
相交	-11.2694
國史	-11.2697
無補	-11.2698
㸔文字	-11.2699
已上	-11.27
司寇	-11.27
直内	-11.27
形象	-11.2702
無甚	-11.2703
未發之前	-11.2703
韓魏公	-11.2704
將相	-11.2705
而失	-11.2706
六官	-11.2707
四十九	-11.2707
疾苦	-11.2707
焉者	-11.2708
父在	-11.2709
未曉	-11.2709
陽生	-11.2711
情狀	-11.2711
緡	-11.2711
祭也	-11.2712
心法	-11.2712
未萌	-11.2715
爾等	-11.2718
于下	-11.2718
不經	-11.2721
成矣	-11.2722
其屬	-11.2723
長久	-11.2723
者耶	-11.2726
可復	-11.2727
以上論	-11.2727
窮理盡性	-11.2728
慟	-11.273
掾	-11.2732
做將去	-11.2733
矣然而	-11.2735
存心養性	-11.2736
大傳	-11.2737
此特	-11.2738
數月	-11.2738
竪	-11.2739
絀	-11.2739
恰	-11.274
菽	-11.274
之間而	-11.2741
猾	-11.2742
餽	-11.2742
一箇道理	-11.2743
商鞅	-11.2743
禫	-11.2744
之數也	-11.2745
敎化	-11.2749
十九年	-11.275
亭户	-11.2752
無節	-11.2757
羞惡之心	-11.2758
治安	-11.2761
焉有	-11.2763
可笑	-11.2764
惟在	-11.2767
其原	-11.277
治國平天下	-11.2771
東都	-11.2772
古之君子	-11.2772
其精	-11.2773
子曰君子	-11.2773
歐陽公	-11.2777
不能為	-11.2778
其父母	-11.2779
者凡	-11.2782
皇天	-11.2782
常以	-11.2784
今天下	-11.2784
春正月	-11.279
而萬物	-11.279
仁矣	-11.2793
禮運	-11.2794
故知	-11.2795
主祭	-11.2796
在焉	-11.2796
譏之	-11.2798
不致	-11.2799
之時而	-11.28
取天下	-11.28
為邦	-11.2801
猶恐	-11.2801
伊川說	-11.2802
有不同	-11.2803
五官	-11.2806
書言	-11.2807
竅	-11.2811
心統性情	-11.2812
張良	-11.2812
兀	-11.2813
璋	-11.2814
臣妾	-11.2815
守約	-11.2815
攜	-11.2815
杯	-11.2816
貿	-11.2817
凡此皆	-11.2826
取勝	-11.2826
焉爾	-11.2827
中庸言	-11.283
同志	-11.2834
固可	-11.2836
謂性	-11.2836
則須	-11.2837
齊景公	-11.2838
只是這箇	-11.284
士君子	-11.284
倉卒	-11.2843
不可得也	-11.2844
說得好	-11.2845
於孔子	-11.2846
可言	-11.2847
地氣	-11.2847
體物	-11.2847
不說	-11.2848
舉措	-11.2848
源流	-11.2848
往者	-11.2851
地有	-11.2853
於秦	-11.2856
之終	-11.2859
有大小	-11.2859
參之	-11.2864
地也	-11.2864
之主也	-11.2865
而教之	-11.2868
卦畫	-11.2868
篤信	-11.2872
為小	-11.2873
萬物之理	-11.2873
穆穆	-11.2873
晉文	-11.2878
所樂	-11.2878
動其心	-11.2878
兵部	-11.288
大器	-11.2881
斯為	-11.2882
天下之大本	-11.2886
媵	-11.2887
山水	-11.2887
世宗	-11.2888
有天下者	-11.2888
世世	-11.2888
絮	-11.2889
纒	-11.2889
四者之	-11.289
僖祖	-11.289
㢤	-11.289
獨以	-11.2892
俛	-11.2893
咈	-11.2894
菴	-11.2894
控	-11.2894
劣	-11.2897
後便	-11.2897
揖讓	-11.2898
𣙜	-11.2899
則仁	-11.29
見前	-11.29
深厚	-11.2901
本源	-11.2902
毁譽	-11.2902
於經	-11.2903
所以治	-11.2906
曼	-11.2906
上行	-11.2908
留心	-11.2909
嗟乎	-11.2912
和親	-11.2914
皆善	-11.2914
立朝	-11.2916
魯國	-11.2918
安而	-11.2919
庻幾	-11.2921
耳如	-11.2921
天有	-11.2922
之所存	-11.2923
號曰	-11.2926
君臣之	-11.2926
欲行	-11.2927
之詔	-11.293
字義	-11.2931
闗雎	-11.2933
且就	-11.2939
天降	-11.294
范氏曰	-11.2941
成德	-11.2941
亞夫	-11.2942
一言而	-11.2943
主靜	-11.2944
却只是	-11.295
肅然	-11.295
一兩	-11.2956
赤道	-11.2957
之㣲	-11.2959
衙	-11.2964
而巳	-11.2965
朝廷之	-11.2967
似亦	-11.2967
解經	-11.297
壑	-11.297
意在	-11.297
攬	-11.297
詩中	-11.2971
所從來	-11.2971
棣	-11.2971
藪	-11.2972
殄	-11.2973
仲淹	-11.2973
藩鎮	-11.2974
陸贄	-11.2974
姻	-11.2975
季札	-11.2975
鼠	-11.2975
庠序	-11.2976
四肢	-11.2977
而已哉	-11.2977
穉	-11.2978
譛	-11.2978
之愛	-11.2979
洋	-11.2979
一徳	-11.2979
發而	-11.2979
先天圖	-11.298
遲速	-11.298
可久	-11.2981
厯家	-11.2981
既濟	-11.2981
一源	-11.2982
不令	-11.2982
害民	-11.2985
祠堂	-11.2985
先須	-11.2986
家事	-11.2986
猶在	-11.2988
昊天	-11.2988
二十六	-11.2989
底便	-11.2991
同時	-11.2997
此一事	-11.2997
修己	-11.3002
避嫌	-11.3002
族人	-11.3003
皆不可	-11.3004
如舜	-11.3006
居業	-11.3008
非仁	-11.3009
主上	-11.3009
能敬	-11.3011
防其	-11.3012
不透	-11.3013
詩傳	-11.3016
衆多	-11.3017
未發時	-11.3018
亦足以	-11.3019
其病	-11.3021
那時	-11.3022
百王	-11.3023
否曰固是	-11.3023
其首	-11.3026
委任	-11.3027
賢也	-11.3028
天體	-11.3028
一官	-11.3028
要如此	-11.3029
此最	-11.3037
知天命	-11.3038
子雲	-11.3039
道問學	-11.3039
以此知	-11.3039
與孟子	-11.3042
為最	-11.3042
非人	-11.3042
所從	-11.3045
濳	-11.3046
宣子	-11.3046
二陽	-11.3047
尖	-11.3047
精思	-11.3048
傭	-11.305
秤	-11.305
誦之	-11.3051
邈	-11.3051
譯	-11.3052
對待	-11.3052
詎	-11.3053
噬嗑	-11.3054
雹	-11.3055
害人	-11.3055
秦漢以來	-11.3056
眇	-11.3056
孔子言	-11.3057
眚	-11.3059
攻其	-11.3059
可信	-11.3062
今夫	-11.3062
之藴	-11.3062
猗	-11.3063
以授	-11.3066
與衆	-11.3066
禁中	-11.3066
不熟	-11.3066
而不失其	-11.3068
氏補	-11.307
財物	-11.307
弑其君	-11.3071
記之	-11.3074
不外	-11.3076
二篇	-11.3076
八音	-11.3078
得於心	-11.3078
已知	-11.3079
君子觀	-11.3081
效之	-11.3081
於天地	-11.3081
陽動	-11.3081
他却	-11.3082
下句	-11.3083
賢君	-11.3083
窮得	-11.3084
議之	-11.3084
則反	-11.3084
子路曰	-11.3084
勉勉	-11.3085
遇有	-11.3085
必於	-11.3085
愛物	-11.3086
須當	-11.3087
性分	-11.3087
賞賜	-11.3088
當用	-11.3089
不能勝	-11.3091
端的	-11.3092
刑獄	-11.3093
近年	-11.3095
予曰	-11.3095
以為非	-11.3095
持養	-11.3096
為徳	-11.3099
威福	-11.31
笑曰	-11.31
百二十	-11.3101
他是	-11.3102
至死	-11.3105
所難	-11.3105
黄金	-11.3108
昭然	-11.3108
馬氏	-11.3108
八寸	-11.3109
差了	-11.3109
五性	-11.3116
人乎	-11.3117
詩者	-11.3118
無所容	-11.3118
一隂一陽之謂道	-11.3119
明道先生曰	-11.312
不愧	-11.3124
且要	-11.3125
不全	-11.3126
只一般	-11.3126
簡而	-11.3126
廊	-11.3128
云此	-11.3128
圉	-11.3128
駒	-11.3129
為師	-11.313
純亦不已	-11.313
稀	-11.3131
尚存	-11.3131
死之	-11.3132
則可謂	-11.3132
不恁地	-11.3133
大夫曰	-11.3133
岡	-11.3134
爐	-11.3135
九重	-11.3135
相逺	-11.3135
賚	-11.3135
答之	-11.3135
翠	-11.3135
不常	-11.3136
廖	-11.3137
愬	-11.3137
下愚	-11.3137
未嘗無	-11.3138
揚子雲	-11.3138
不得為	-11.3139
失也	-11.3139
雖大	-11.3139
無忌	-11.314
名為	-11.3141
初見	-11.3142
矣何	-11.3144
章帝	-11.3145
廣狹	-11.3145
濁者	-11.3146
二日	-11.3147
本有	-11.3148
這意思	-11.3155
自用	-11.3155
家禮	-11.3155
圖書	-11.3155
安其	-11.3156
亦未嘗不	-11.3157
月日	-11.3157
莫之能	-11.3159
進賢	-11.3159
二氏	-11.316
類此	-11.3161
端緒	-11.3161
踐形	-11.3161
好樂	-11.3163
之靈	-11.3165
不同然	-11.317
何害	-11.3174
真有	-11.3175
推本	-11.3176
就此	-11.3177
變故	-11.3181
文勢	-11.3184
記者	-11.3184
夷齊	-11.3188
文詞	-11.3188
而坐	-11.3189
答問	-11.3189
唐宋	-11.3191
精熟	-11.3194
約禮	-11.3196
慈母	-11.3201
禮節	-11.3202
㐫	-11.3203
功也	-11.3203
荆州	-11.3205
知其為	-11.3205
得一箇	-11.3208
弧	-11.3211
黙然	-11.3212
宵	-11.3213
要當	-11.3213
戱	-11.3213
無乃	-11.3214
其根	-11.3215
而惡	-11.3215
杜撰	-11.3215
之疑	-11.3215
苴	-11.3215
㕘	-11.3215
又况	-11.3215
百一十	-11.3216
怙	-11.3216
判然	-11.3219
系	-11.322
古樂	-11.322
蓮	-11.3221
文景	-11.3221
狠	-11.3222
討論	-11.3222
民以	-11.3224
由此觀之	-11.3225
豈其	-11.3225
只知	-11.3226
大司馬	-11.3226
非吾	-11.3227
犬馬	-11.3229
惠王	-11.323
古昔	-11.323
冨	-11.323
屬於	-11.3233
即天	-11.3234
有本	-11.3234
以氣言	-11.3235
聖賢言語	-11.3237
不答	-11.3237
了如	-11.3238
無忌憚	-11.3239
名節	-11.3239
分明是	-11.3242
逐一	-11.3242
五條	-11.3244
隂陽之氣	-11.3244
所問	-11.3245
底工夫	-11.3246
人若	-11.3248
以喻	-11.3249
方且	-11.3249
失禮	-11.3251
公家	-11.3253
無已	-11.3254
君民	-11.3257
有失	-11.3258
使我	-11.3259
自非	-11.3262
直道	-11.3262
正應	-11.3262
疑於	-11.3262
二語	-11.3263
絶其	-11.3263
長沙	-11.3264
掌邦	-11.3267
所自	-11.3268
祭天	-11.3268
言之也	-11.327
不能已	-11.3271
黎民	-11.3271
既久	-11.3276
節節	-11.3279
其變	-11.3281
樂道	-11.3281
不重	-11.3286
賢於	-11.3286
浄	-11.3288
猶能	-11.3289
朢	-11.3289
便知	-11.329
呌	-11.3291
甲兵	-11.3291
一動一靜	-11.3292
撮	-11.3292
事雖	-11.3292
閫	-11.3293
往来	-11.3293
帙	-11.3294
箇甚麽	-11.3295
有所見	-11.3295
街	-11.3295
更相	-11.3296
大聖	-11.3297
檄	-11.3297
凡所	-11.3297
鞏	-11.3298
既以	-11.3298
先公	-11.3299
龎	-11.3299
往而	-11.3299
之信	-11.33
矣惟	-11.3301
近習	-11.3301
穿窬	-11.3301
煥	-11.3301
至聖	-11.3302
非止	-11.3303
相連	-11.3303
滅之	-11.3303
夔	-11.3304
不能及	-11.3304
未暇	-11.3305
惻怛	-11.3306
和糴	-11.3307
一說	-11.3307
實而	-11.3307
小心	-11.3309
祭器	-11.3309
不能不	-11.3311
而不亂	-11.3311
吉甫	-11.3313
左氏曰	-11.3319
授以	-11.3319
不昧	-11.332
曉不得	-11.332
悼公	-11.3322
説了	-11.3322
温厚	-11.3324
時雨	-11.3329
大學之道	-11.3329
羔	-11.3332
利禄	-11.3333
體驗	-11.3335
者心之	-11.3337
自新	-11.3338
好名	-11.3338
本非	-11.3338
五千	-11.3339
説他	-11.334
大路	-11.3343
八政	-11.3345
末流	-11.3346
不辨	-11.3347
田野	-11.3348
之幾	-11.3348
之行也	-11.3352
只見得	-11.3354
本分	-11.3355
智力	-11.3357
侍坐	-11.3359
初年	-11.3359
子云	-11.336
而不復	-11.3361
語其	-11.3362
而况於	-11.3363
山下	-11.3364
紐	-11.3366
此兩	-11.3368
必勝	-11.3368
林鐘	-11.3368
見于	-11.3369
豚	-11.3371
又皆	-11.3372
書者	-11.3373
祭義	-11.3375
絡	-11.3376
構	-11.3377
司馬公	-11.3377
救民	-11.3377
晴	-11.3378
兩漢	-11.3378
燧	-11.3378
兵者	-11.3379
汩	-11.338
寂滅	-11.338
軫	-11.338
二十三	-11.3382
我我	-11.3382
范公	-11.3383
勸之	-11.3383
懸空	-11.3383
未發之中	-11.3384
麾	-11.3384
不干	-11.3384
作聖	-11.3385
熈寧	-11.3385
礼	-11.3387
江淮	-11.3387
尺寸	-11.3387
寛裕	-11.3388
頓首	-11.3388
謂如	-11.3389
焉者也	-11.3389
之清	-11.3389
反以	-11.3389
侍讀	-11.3391
取於	-11.3391
秦始皇	-11.3392
又如何	-11.3393
也詩曰	-11.3394
這些	-11.3394
三陽	-11.3395
永嘉	-11.3396
武功	-11.3397
全其	-11.3401
仁體	-11.3401
歎息	-11.3401
田賦	-11.3403
萬年	-11.3403
人事之	-11.341
問孟子	-11.341
王后	-11.3411
才有	-11.3411
明明	-11.3413
心思	-11.3415
一隅	-11.3416
無用之	-11.3416
古聖賢	-11.3418
顯然	-11.342
順應	-11.342
就是	-11.3422
用賢	-11.3422
具在	-11.3423
六日	-11.3424
克去	-11.3425
集傳	-11.3427
孔孟之	-11.3428
將何	-11.3429
質之	-11.3429
御史大夫	-11.3429
官爵	-11.343
外有	-11.3433
之所及	-11.3434
臨朝	-11.3434
永按	-11.3434
進德	-11.3435
窮極	-11.3436
提撕	-11.3436
崇徳	-11.344
大全	-11.3443
梁王	-11.3444
矣但	-11.3447
吳王	-11.3447
虛心	-11.3448
性本	-11.3448
大舜	-11.3448
為忠	-11.3448
二爻	-11.345
若要	-11.345
語云	-11.345
於後世	-11.3454
㑹於	-11.3457
兎	-11.3457
鹵	-11.3458
陸子静	-11.346
十七年	-11.346
矣是	-11.3461
琮	-11.3461
苞	-11.3462
民皆	-11.3462
得些	-11.3462
之設	-11.3463
聳	-11.3463
大㫖	-11.3464
闘	-11.3464
臘	-11.3465
劓	-11.3465
両	-11.3466
湘	-11.3466
帑	-11.3467
惟以	-11.3467
穎	-11.3467
者鮮矣	-11.3468
歸妹	-11.3468
為亂	-11.3468
嘉祐	-11.3469
是猶	-11.347
止于	-11.347
静中	-11.3473
又欲	-11.3473
死矣	-11.3474
舉世	-11.3475
安得有	-11.3475
敬而	-11.3476
周召	-11.3479
而改	-11.3479
詳矣	-11.3482
性與	-11.3482
充滿	-11.3484
天與	-11.3485
帝堯	-11.3486
用工夫	-11.3486
皆因	-11.3489
世界	-11.3489
不豫	-11.3491
以助	-11.3492
尤當	-11.3492
何能	-11.3494
選舉	-11.3495
心常	-11.3499
帝之	-11.3499
引詩	-11.35
五常之	-11.35
虚空	-11.3501
合宜	-11.3502
變者	-11.3503
懼其	-11.3506
慎其	-11.3507
所以謂之	-11.3508
請於	-11.3509
天意	-11.351
平心	-11.3511
俄	-11.3511
便生	-11.3516
以充	-11.3516
能無	-11.3516
致中和	-11.3519
注曰	-11.3519
嵗時	-11.3521
難言	-11.3522
而未能	-11.3525
其神	-11.3527
聖徳	-11.3528
之意而	-11.3529
之戰	-11.3529
繫於	-11.3533
于上	-11.3533
尊之	-11.3535
其明	-11.3535
復以	-11.3535
尊而	-11.3538
王伯	-11.3539
有些子	-11.3539
整齊嚴肅	-11.354
凑	-11.354
善道	-11.3541
肄	-11.3541
曩	-11.3543
得好	-11.3544
褐	-11.3544
生成	-11.3545
始以	-11.3547
為四	-11.3548
故舊	-11.3548
殉	-11.3549
内而	-11.355
包括	-11.355
未必不	-11.3551
腥	-11.3552
葺	-11.3553
到處	-11.3554
位乎	-11.3556
就事上	-11.3557
骨子	-11.3558
不振	-11.3559
勉強	-11.356
遂使	-11.3562
矣盖	-11.3565
之柄	-11.3565
不足則	-11.3566
又多	-11.3567
結之	-11.3567
伊洛	-11.357
聖經	-11.3571
輔之	-11.3571
天地萬物之理	-11.3571
皆可以	-11.3576
不越	-11.3576
于天下	-11.3576
性命之理	-11.3577
入海	-11.3581
侍從	-11.3583
傳云	-11.3583
仲吕	-11.3584
下手處	-11.3585
莫知其	-11.3586
失之矣	-11.3588
爲仁	-11.3592
能成	-11.3596
也其曰	-11.3596
盡禮	-11.3598
保全	-11.3599
鄭云	-11.3599
其賢	-11.3604
程頥	-11.3604
治體	-11.3606
成誦	-11.3607
仁民	-11.3608
精力	-11.3609
君親	-11.3609
不與焉	-11.3609
凡三	-11.3611
精密	-11.3611
向上	-11.3615
愛君	-11.3615
伊尹之	-11.3616
命曰	-11.3619
母子	-11.3619
都在	-11.362
建中	-11.3622
當有	-11.3622
室之	-11.3623
不知道	-11.3624
璣	-11.3625
曽子曰	-11.3626
亦將	-11.3626
耳目口鼻	-11.3626
挨	-11.3627
叶	-11.3627
黼	-11.3627
悚	-11.3628
騷	-11.3628
其味	-11.3628
天運	-11.3628
蹶	-11.3629
摸	-11.3629
㓙	-11.363
備而	-11.3631
瞿	-11.3631
甄	-11.3632
不勉	-11.3633
悶	-11.3633
興亡	-11.3633
此所以為	-11.3633
當此之時	-11.3634
惜其	-11.3636
問其故	-11.3636
徒知	-11.3637
盞	-11.3637
嬉	-11.3641
已矣	-11.3643
故凡	-11.3643
已見	-11.3644
天下之道	-11.3646
傳載	-11.3647
復何	-11.3648
於此矣	-11.3649
凶荒	-11.3655
以此觀之	-11.3656
所以説	-11.3659
以資	-11.3659
樂毅	-11.366
之名也	-11.366
二者皆	-11.3661
齋戒	-11.3662
愛而	-11.3662
件事	-11.3663
裏靣	-11.3664
非真	-11.3664
承上文	-11.3665
必盡	-11.3666
不得以	-11.3666
所自來	-11.3667
篤志	-11.3667
不仁者	-11.3668
已前	-11.3668
祭服	-11.3669
天討	-11.3669
而殺之	-11.367
亡國	-11.3671
右手	-11.3672
間隔	-11.368
無意	-11.3683
面目	-11.3687
受用	-11.3688
相國	-11.369
慨	-11.369
自生	-11.3693
者天下之	-11.3695
祖母	-11.3697
須看	-11.3698
切近	-11.3699
刑部	-11.3699
見天地之心	-11.37
桞	-11.3702
而不息	-11.3702
便覺	-11.3702
得去	-11.3704
三寸	-11.3705
大德	-11.3707
偏倚	-11.3708
不睹不聞	-11.3708
狡	-11.3709
受業	-11.371
在于	-11.3711
性即理也	-11.3711
鐸	-11.3711
也易曰	-11.3712
蕪	-11.3713
等皆	-11.3713
庻人	-11.3714
愉	-11.3714
浹	-11.3715
洵	-11.3716
箸	-11.3716
線	-11.3716
瘁	-11.3716
岀	-11.3716
故特	-11.3717
想像	-11.3717
稚	-11.3717
栢	-11.3718
寮	-11.3718
謹守	-11.3718
功效	-11.3719
皥	-11.3719
閭閻	-11.372
以類	-11.372
充實	-11.3722
棄其	-11.3723
孝武	-11.3725
之大者也	-11.3727
正淳	-11.3727
一行	-11.3727
能者	-11.373
妣	-11.3731
欲知	-11.3733
邪說	-11.3734
六寸	-11.3735
曰臣聞	-11.3736
九寸	-11.3737
宜乎	-11.3738
具焉	-11.3738
之類皆是	-11.3739
忌日	-11.3739
有悔	-11.3741
天下大	-11.3741
聽命	-11.3743
程子言	-11.3744
伯禽	-11.3745
事情	-11.3746
更須	-11.3747
魯公	-11.3747
著見	-11.3751
沛公	-11.3754
伐楚	-11.3755
之中又	-11.3757
以避	-11.3758
宇文	-11.3762
衆也	-11.3763
儒生	-11.3764
氣數	-11.3764
諸軍	-11.3766
二説	-11.3768
方伯	-11.377
未備	-11.3771
臣按先儒謂	-11.3772
人臣之	-11.3773
卿大夫士	-11.3774
成風	-11.3775
太極也	-11.3779
豐年	-11.3781
君子之所	-11.3783
傳者	-11.3784
道徳之	-11.3785
刑賞	-11.379
二卷	-11.379
念之	-11.379
不賢	-11.3791
亦必有	-11.3792
吾所	-11.3793
不能知	-11.3793
曰不可	-11.3794
李注	-11.3795
詔令	-11.3796
類也	-11.3796
十六年	-11.3797
了故	-11.3797
罪之	-11.3799
感格	-11.3799
裨	-11.3801
明哲	-11.3801
沐浴	-11.3803
冠者	-11.3803
拓	-11.3803
涕泣	-11.3803
萌芽	-11.3805
懽	-11.3806
之為人	-11.3807
孔子對曰	-11.3809
教訓	-11.381
武臣	-11.3811
任重	-11.3811
未甚	-11.3812
官屬	-11.3812
三月不違仁	-11.3813
下來	-11.3814
成都	-11.3814
安静	-11.3814
孰不	-11.3815
執事者	-11.3816
人之惡	-11.382
前聖	-11.3821
他不得	-11.3823
德宗	-11.3824
是學	-11.3826
武子	-11.3827
千二百	-11.3828
王介甫	-11.3828
辭也	-11.383
身死	-11.3831
古之學者	-11.3831
問答	-11.3833
今從	-11.3835
文飾	-11.3837
時便是	-11.3839
吾民	-11.3839
之遺意	-11.3844
趙王	-11.3844
患其	-11.3847
念念	-11.3848
之外别有	-11.3848
不我	-11.3849
信者	-11.385
而就	-11.385
推原	-11.3851
漢世	-11.3851
箇物事	-11.3851
之分也	-11.3853
之蔽	-11.3856
或失	-11.3857
事體	-11.3859
之力也	-11.386
左氏傳	-11.386
為句	-11.386
這箇物事	-11.386
奮發	-11.3862
以亂	-11.3862
食於	-11.3863
當今	-11.3866
不時	-11.3868
見先生	-11.387
未當	-11.3872
先王之法	-11.3874
則民不	-11.388
相濟	-11.3881
相表裏	-11.3881
禹稷	-11.3882
者亦有	-11.3883
成數	-11.3885
癸	-11.3885
挫	-11.3886
戒慎	-11.3886
有諸	-11.3887
良法	-11.3887
大學衍義補卷一百	-11.3887
龔	-11.3887
似有	-11.3889
鑚	-11.3889
不住	-11.3891
叱	-11.3893
樊遲	-11.3893
主婦	-11.3895
草木之	-11.3895
迺	-11.3895
窘	-11.3896
大行	-11.3897
論事	-11.3898
荀揚	-11.3898
椒	-11.3898
専以	-11.3899
之敎	-11.3899
靖康	-11.39
亦謂之	-11.3901
易於	-11.3903
遂成	-11.3903
成文	-11.3904
祖道	-11.3907
自不同	-11.3908
五寸	-11.391
聚斂	-11.3911
成法	-11.3912
朔望	-11.3914
交錯	-11.3914
康叔	-11.3914
做箇	-11.3915
矣乎	-11.3915
拒之	-11.3919
不可考	-11.3923
有聲	-11.3923
者也夫	-11.3923
只恁	-11.3925
孔子謂	-11.3926
方今	-11.3926
必用	-11.3927
一善	-11.3927
可欲	-11.3929
讀論語	-11.3931
辨别	-11.3933
水中	-11.3934
設教	-11.3934
董子	-11.3935
共之	-11.3936
京城	-11.3938
以往	-11.3939
初非	-11.3941
自然如此	-11.3941
所執	-11.3941
操之	-11.3944
此等事	-11.3945
得其宜	-11.3945
冉	-11.3945
其美	-11.3947
年二十	-11.3947
雜記	-11.395
年間	-11.3952
人或	-11.3955
於廟	-11.3955
四箇	-11.3956
不能入	-11.3957
於楚	-11.3959
數百年	-11.3959
者皆是	-11.396
之地而	-11.3961
仁之方	-11.3962
襄子	-11.3962
府君	-11.3965
株	-11.3965
所求	-11.3966
渴	-11.3966
天之所以	-11.3967
乎且	-11.3968
另	-11.397
若説	-11.397
大中	-11.397
霧	-11.397
亦有所	-11.3972
各正性命	-11.3973
推己	-11.3973
威公	-11.3973
兔	-11.3974
翫	-11.3974
不易之	-11.3977
裒	-11.3977
簾	-11.3979
致逺	-11.3979
枚	-11.398
楷	-11.398
匏	-11.398
洋洋	-11.398
却云	-11.3981
腹心	-11.3982
竿	-11.3983
旦夕	-11.3983
只言	-11.3984
智也	-11.3987
不得其正	-11.3988
以天下為	-11.3989
顔回	-11.3991
之歌	-11.3991
定是	-11.3993
明者	-11.3997
得五	-11.3998
光大	-11.3998
齊威	-11.3998
明經	-11.3999
諫官	-11.3999
民之所	-11.4001
百事	-11.4002
讀得	-11.4002
群臣	-11.4002
不純	-11.4002
詩大雅	-11.4003
來聘	-11.4004
天道也	-11.4004
白本	-11.4006
牽合	-11.4006
師保	-11.4008
云某	-11.4009
傳授	-11.4009
趨向	-11.401
魏王	-11.4012
建立	-11.4015
詳見	-11.4017
惟恐其	-11.4017
是日	-11.402
許氏	-11.4021
不可輕	-11.4021
中來	-11.4023
水也	-11.4024
簿書	-11.4025
除去	-11.4028
之禁	-11.403
赫	-11.4031
心有所	-11.4035
漳	-11.4035
顯道	-11.4037
要𦂳	-11.4037
術數	-11.4038
存而	-11.4038
康王	-11.4039
堅固	-11.404
所殺	-11.404
室中	-11.4043
不足以為	-11.4044
立國	-11.4045
所歸	-11.4045
婦人之	-11.4046
以書	-11.4048
一原	-11.4049
經歴	-11.405
勝也	-11.4051
時又	-11.4051
衆庶	-11.4051
正身	-11.4052
知仁	-11.4053
至親	-11.4053
學校之	-11.4053
相離	-11.4058
幷	-11.4059
鳶飛魚躍	-11.406
王朝	-11.4061
驅之	-11.4062
亦欲	-11.4063
綺	-11.4063
六典	-11.4064
墟	-11.4065
隄	-11.4065
吾欲	-11.4065
袖	-11.4066
體仁	-11.4066
酸	-11.4067
仆	-11.4067
必將	-11.4068
則天理	-11.4068
牘	-11.4068
賻	-11.4069
箋	-11.407
纎悉	-11.407
不止於	-11.4071
餼	-11.4071
蓼	-11.4071
工部	-11.4073
之量	-11.4074
逋	-11.4074
湖南	-11.4081
無病	-11.4081
子上	-11.4082
程子之言	-11.4085
江東	-11.4089
貫徹	-11.4089
戰勝	-11.4089
及第	-11.409
聖人因	-11.409
雷風	-11.4092
無有不	-11.4092
逺人	-11.4092
文徳	-11.4094
參差	-11.4094
猶曰	-11.4096
了所以	-11.4097
國之君	-11.4099
運動	-11.4099
命令	-11.4099
至微	-11.4099
深知	-11.41
科目	-11.4101
誠意正心	-11.4102
運轉	-11.4104
進則	-11.4105
林甫	-11.4106
豈敢	-11.4108
吾君	-11.4109
國風	-11.4111
務本	-11.4111
却自	-11.4112
人死	-11.4113
天之命	-11.4118
為聖人	-11.4121
者少	-11.4121
而民不	-11.4122
前世	-11.4123
不計	-11.4124
三皇	-11.4124
其孰能	-11.4125
衆理	-11.4126
唐虞之	-11.4126
以補	-11.4126
君有	-11.4128
乃至	-11.413
神氣	-11.4134
多方	-11.4139
人道之	-11.4139
城中	-11.4139
果然	-11.414
從頭	-11.4143
又將	-11.4143
武備	-11.4145
蓄積	-11.4146
吕氏曰	-11.4148
人惟	-11.415
惶	-11.4151
親疎	-11.4152
未必皆	-11.4152
陞	-11.4153
乖戾	-11.4153
言及	-11.4153
萬章	-11.4154
髦	-11.4154
仁心	-11.4155
巧言令色	-11.4155
地以	-11.4155
牛馬	-11.4155
褊	-11.4156
為人臣	-11.4156
禮官	-11.4157
針	-11.4157
汾	-11.4157
嘿	-11.4158
泮	-11.4158
旒	-11.416
七篇	-11.4161
所與	-11.4161
弋	-11.4162
䛕	-11.4162
紛紜	-11.4162
於古	-11.4163
别子	-11.4164
設為	-11.4165
夫人之	-11.4166
收其	-11.4166
而不顧	-11.4166
如何説	-11.4166
儆戒	-11.4169
不憚	-11.4172
盡物	-11.4174
塊然	-11.4174
教子	-11.4175
戒也	-11.4175
不同也	-11.4176
性即	-11.4181
承平	-11.4181
殷周	-11.4182
應鐘	-11.4182
五福	-11.4184
兵革	-11.4184
得来	-11.4186
其是非	-11.4189
國計	-11.4189
謀也	-11.419
不悖	-11.419
矣哉	-11.4191
我也	-11.4192
不負	-11.4201
與道	-11.4201
之良	-11.4202
中自有	-11.4202
郊廟	-11.4202
始見	-11.4202
乎其間	-11.4203
吏治	-11.4203
某官	-11.4204
王事	-11.4205
髙而	-11.4208
五十六	-11.4208
問如何是	-11.421
某舊	-11.421
指為	-11.4213
宗伯	-11.4213
做工夫處	-11.4216
為諸侯	-11.4218
曰孔子	-11.4218
及諸	-11.4218
平公	-11.4222
只將	-11.4223
化為	-11.4225
為九	-11.4228
居於	-11.4228
都有	-11.4229
建武	-11.423
妄意	-11.4231
言辭	-11.4231
天下之治	-11.4232
餕	-11.4232
治兵	-11.4234
恁地說	-11.4234
不錯	-11.4234
理學	-11.4235
字唱	-11.4236
諸縣	-11.4237
利見大人	-11.4239
訣	-11.4239
覿	-11.4243
輝	-11.4243
械	-11.4244
東西南北	-11.4244
見聖人	-11.4245
橫	-11.4245
善心	-11.4245
専一	-11.4245
不匱	-11.4246
用其力	-11.4246
喧	-11.4246
澆	-11.4247
憧憧	-11.4248
其詳	-11.4248
所以求	-11.4248
昉	-11.4249
其黨	-11.425
縊	-11.4251
不辱	-11.4252
偪	-11.4253
英雄	-11.4253
曽㸃	-11.4254
惠公	-11.4254
代宗	-11.4257
急迫	-11.4258
九江	-11.4258
無憂	-11.4259
稽首	-11.4259
以上語類	-11.4261
三老	-11.4262
用之則	-11.4262
北辰	-11.4264
縣尉	-11.4264
切切	-11.4265
一事之	-11.4265
直至	-11.4266
以保	-11.4267
智伯	-11.4267
知來	-11.4268
荀息	-11.4269
必知	-11.427
千萬人	-11.4271
臣謂	-11.4272
臣等	-11.4274
復卦	-11.4274
老人	-11.4274
日光	-11.4275
化成	-11.4277
把做	-11.4277
人之言	-11.4278
其歸	-11.4279
其閒	-11.4279
人物之	-11.4279
無一事	-11.4282
昏明	-11.4284
性之所	-11.4286
本㫖	-11.4287
伯叔	-11.4291
當世之	-11.4293
國學	-11.4295
嘗與	-11.4296
氣有	-11.4297
可以無	-11.4297
並用	-11.4302
后土	-11.4303
又不能	-11.4303
人皆知	-11.4303
不自知其	-11.4304
用度	-11.4307
為長	-11.4308
去年	-11.4308
于朝	-11.4311
當官	-11.4311
為角	-11.4319
門弟子	-11.4322
用智	-11.4322
變化氣質	-11.4322
盪	-11.4322
陳皥曰	-11.4323
跌	-11.4324
顔氏	-11.4326
但云	-11.4327
行已	-11.4327
漆雕開	-11.4328
聖賢之書	-11.4328
之務	-11.4329
祭酒	-11.433
之孫	-11.4331
志意	-11.4332
禮教	-11.4333
鏤	-11.4333
也及其	-11.4333
河圖洛書	-11.4333
州人	-11.4334
元城	-11.4334
季康子	-11.4335
煬帝	-11.4336
剽	-11.4336
繭	-11.4336
否曰此	-11.4337
示以	-11.4337
之施	-11.4337
萬幾	-11.4338
亘	-11.4338
糓	-11.4338
先入	-11.4338
蝗	-11.4338
十有五	-11.434
有九	-11.434
汜	-11.4343
跖	-11.4343
光祖	-11.4344
張公	-11.4344
篆	-11.4346
裁成	-11.4349
畿内	-11.4349
開口	-11.435
知己	-11.435
静時	-11.435
罔不	-11.435
之富	-11.4351
兩節	-11.4353
公論	-11.4354
丁寧	-11.4361
八九	-11.4362
欲盡	-11.4363
篇首	-11.4363
以佐	-11.4364
克之	-11.4364
鄰國	-11.4364
己也	-11.4365
大怒	-11.4366
都要	-11.4367
第十	-11.4368
親而	-11.4368
詳於	-11.437
昭著	-11.4373
其財	-11.4374
言志	-11.4374
三萬	-11.4375
得恁地	-11.4378
下云	-11.438
註本	-11.438
百七十	-11.4384
之室	-11.4384
意義	-11.4387
所親	-11.4387
純熟	-11.4387
深於	-11.4389
一介	-11.4391
所定	-11.4391
皆如	-11.4393
孝敬	-11.4394
拘於	-11.4394
為己任	-11.4395
正其心	-11.4397
四海之内	-11.4397
十嵗	-11.4398
先生嘗	-11.4398
山川之	-11.4399
莫要	-11.4399
之説也	-11.44
相率	-11.44
尤不可	-11.4401
仕於	-11.4404
其勞	-11.4405
即為	-11.4405
俟其	-11.4406
也此言	-11.4408
純乎	-11.441
失其所	-11.4411
有法	-11.4413
義以方外	-11.4415
求道	-11.4416
所以行	-11.4418
如在	-11.4418
難為	-11.442
似此	-11.442
於西	-11.442
隧	-11.4421
力不足	-11.4423
愚按此節大意	-11.4423
貧民	-11.4424
旌旗	-11.4424
綰	-11.4426
尅	-11.4426
种	-11.4427
狷	-11.4428
胡安國曰	-11.4428
聾	-11.4428
騶虞	-11.4429
斵	-11.4429
劫	-11.443
無適而非	-11.443
末年	-11.4431
民之心	-11.4432
快活	-11.4433
貫之	-11.4434
慶厯	-11.4435
槐	-11.4436
然哉	-11.4437
為天地	-11.4438
在身	-11.4439
難説	-11.4441
識見	-11.4441
僕射	-11.4441
不懈	-11.4446
無可疑	-11.4447
者理也	-11.445
毋以	-11.445
脩徳	-11.445
耳故	-11.4451
數句	-11.4453
事已	-11.4457
猶以	-11.4457
非常之	-11.4458
甚易	-11.4459
以剛	-11.4459
禮記曰	-11.4461
不足而	-11.4464
沛然	-11.4464
朱子曰此	-11.4467
順乎	-11.4467
微子	-11.4468
陛下之	-11.4468
之南	-11.4469
自好	-11.4474
所造	-11.4474
情偽	-11.4475
著述	-11.4476
何嘗有	-11.4477
豈必	-11.4478
天行	-11.4479
者反	-11.4479
學官	-11.4482
觀其所	-11.4482
五十里	-11.4482
王弼	-11.4483
諫者	-11.4485
後世人主	-11.4486
實用	-11.4488
不在於	-11.4488
是誠	-11.449
長長	-11.4492
初未嘗	-11.4492
禪家	-11.4493
應舉	-11.4494
本註	-11.4494
聖人言語	-11.4495
這一箇	-11.4496
惜哉	-11.4496
皆不能	-11.4503
終其身	-11.4503
來歸	-11.4506
或疑	-11.4506
學力	-11.4508
先見	-11.4508
子細看	-11.4509
裁之	-11.451
曰敢問	-11.451
見道	-11.4511
溉	-11.4511
為盜	-11.4511
堤	-11.4514
維天之命於穆不已	-11.4514
乾道變化各正性命	-11.4514
不辭	-11.4515
今却	-11.4516
較之	-11.4516
卞	-11.4519
觀人	-11.452
亳	-11.452
彞	-11.4521
漢魏	-11.4521
奭	-11.4521
父祖	-11.4521
鱗	-11.4522
弃	-11.4522
家有	-11.4524
者爲	-11.4524
飢寒	-11.4524
鰥寡	-11.4526
羈	-11.4527
士子	-11.4527
耆老	-11.4527
如説	-11.4528
貨殖	-11.4529
發育	-11.4529
耳此	-11.453
上靣	-11.453
戎狄	-11.453
閭里	-11.453
愍	-11.453
辛苦	-11.4531
以孝聞	-11.4532
也天子	-11.4533
益以	-11.4534
合下便	-11.4535
哀矜	-11.4536
紛然	-11.4537
是陽	-11.4542
亦未有	-11.4544
凝聚	-11.4544
草草	-11.4545
討賊	-11.4545
為賊	-11.4546
殺身	-11.4546
而其所以	-11.4546
第七	-11.4547
以入	-11.4549
祀典	-11.4549
擇善	-11.455
且須	-11.4551
六軍	-11.4552
孫氏	-11.4552
却好	-11.4552
夷則	-11.4552
養得	-11.4557
而不可以	-11.4557
如此故	-11.4558
華注	-11.4559
真偽	-11.4559
得名	-11.4561
大畜	-11.4562
只此便是	-11.4565
開國	-11.4566
周程	-11.457
後之人	-11.4572
皆出	-11.4573
鄭注	-11.4574
而待	-11.4578
繫之	-11.4579
受田	-11.4579
屈原	-11.4579
求之於	-11.4579
不美	-11.4588
何况	-11.4589
博而	-11.459
詞章	-11.459
數者	-11.4591
言乎	-11.4591
禮經	-11.4593
無厭	-11.4593
公室	-11.4594
美也	-11.4594
之地也	-11.4595
讀法	-11.4596
道統	-11.4598
自覺	-11.4598
形而上	-11.46
之説則	-11.46
致死	-11.4607
忱	-11.4607
於上而	-11.4608
即太極	-11.4608
且看	-11.4608
之所為也	-11.461
疚	-11.461
畱	-11.461
逵	-11.461
訥	-11.461
之盛也	-11.4612
乗之	-11.4613
㕓	-11.4613
富貴貧賤	-11.4614
杲	-11.4616
乃復	-11.4616
毋不敬	-11.4616
統體	-11.4617
飲水	-11.4618
胙	-11.4618
文法	-11.4618
和者	-11.4619
滄	-11.4619
可喜	-11.462
蒯聵	-11.462
道之大	-11.462
傾覆	-11.4621
疑惑	-11.4621
不爭	-11.4621
各不同	-11.4621
賾	-11.4622
適足以	-11.4622
射者	-11.4623
通用	-11.4623
有光	-11.4625
鬯	-11.4625
循循	-11.4625
曾祖	-11.4626
不伐	-11.4627
正蒙	-11.4628
而有以	-11.463
無思	-11.4631
看了	-11.4635
同人	-11.4636
等差	-11.4636
其爲	-11.4638
而已然	-11.4639
有如此者	-11.4639
時祭	-11.4639
明夷	-11.4642
為甚	-11.4643
禮義之	-11.4643
極多	-11.4643
稱王	-11.4646
論學	-11.4647
平地	-11.4647
人倫之	-11.4648
足下	-11.4651
於神	-11.4652
以其所	-11.4652
政刑	-11.4654
曽祖	-11.4656
亦恐	-11.4657
諸儒之	-11.4658
徳盛	-11.4658
他只是	-11.4659
西京	-11.4659
生人	-11.4661
如字	-11.4661
水流	-11.4663
冠禮	-11.4664
庶物	-11.4665
敬畏	-11.4665
先王以	-11.4667
樂則	-11.4668
無君	-11.4668
隱公	-11.467
致太平	-11.4671
以廣	-11.4671
悲夫	-11.4673
原本	-11.4679
坐視	-11.4679
三世	-11.4679
健順	-11.4681
先自	-11.4682
以動	-11.4687
有識	-11.4693
論道	-11.4695
方外	-11.4695
府兵	-11.4696
包得	-11.4699
是即	-11.4702
潭	-11.4702
韓文	-11.4704
沖	-11.4706
烟	-11.4707
此等人	-11.4707
立矣	-11.4708
凋	-11.4708
准	-11.4709
旺	-11.4709
猝	-11.4709
常行	-11.471
耄	-11.471
毗	-11.4711
椿	-11.4711
宫闈	-11.4712
▁朱子曰	-11.4712
民財	-11.4712
暉	-11.4713
化生萬物	-11.4714
邵康節	-11.4714
是物	-11.4714
雒	-11.4715
媒	-11.4716
已盡	-11.4718
嬰兒	-11.472
衆寡	-11.4721
給之	-11.4722
於東	-11.4722
格致	-11.4722
焚之	-11.4724
天地之理	-11.4725
三十五	-11.4726
真是	-11.4729
百九十	-11.473
不報	-11.4738
皆本於	-11.4741
邊境	-11.4743
而强	-11.4745
五音	-11.4746
鮮有	-11.4746
禮書	-11.4749
盡己	-11.4749
要害	-11.475
死地	-11.4751
舉動	-11.4752
辭遜	-11.4753
以圖	-11.4754
子曰吾	-11.4756
與仁	-11.4756
同類	-11.4756
時日	-11.4757
子男	-11.4761
其謀	-11.4761
鮮不	-11.4762
無子	-11.4763
近來	-11.4764
何以異	-11.4767
可稱	-11.4767
流弊	-11.4767
為羽	-11.4769
異端之	-11.4769
享之	-11.477
日至	-11.477
病根	-11.4772
於周	-11.4773
恃其	-11.4774
不對	-11.4775
忠也	-11.4776
者耳	-11.4779
卒章	-11.478
故常	-11.4783
而升	-11.4785
則凶	-11.4785
理與氣	-11.4786
其内	-11.4789
不做	-11.4791
疋	-11.4794
挑	-11.4794
猥	-11.4795
率性之謂道	-11.4796
龠	-11.4798
既明	-11.4799
之休	-11.48
餙	-11.48
菲	-11.4801
雷電	-11.4801
徤	-11.4802
任事	-11.4805
殛	-11.4806
為商	-11.4808
觀此	-11.4808
才能	-11.4808
睢	-11.4808
之子也	-11.4809
蔽之	-11.4809
官員	-11.481
俎	-11.481
之類也	-11.4813
􁀙	-11.4813
紏	-11.4814
物欲之	-11.4817
交感	-11.4818
無息	-11.482
常情	-11.4822
斯二者	-11.4824
諸葛	-11.4826
而和	-11.4827
南向	-11.4828
尊敬	-11.4829
為教	-11.483
與民同	-11.483
者尤	-11.4831
雖同	-11.4832
凡皆	-11.4834
之所得	-11.4835
茫然	-11.4835
䧟於	-11.4835
耳順	-11.4835
權謀	-11.4837
市井	-11.4837
嘗為	-11.4839
二隂	-11.484
無對	-11.4841
非天	-11.4842
他只	-11.4842
則恐	-11.4843
父為	-11.4844
齊宣王	-11.4844
二卦	-11.4845
則死	-11.4847
充其	-11.4847
不必如此	-11.4847
世上	-11.4849
見理	-11.4853
商君	-11.4854
守之以	-11.4854
以分	-11.4855
甘心	-11.4856
咸陽	-11.4856
當知	-11.4857
聲聞	-11.4857
如初	-11.486
諸先生	-11.4861
問之曰	-11.4861
不可掩	-11.4861
皇考	-11.4862
大理	-11.4863
治心	-11.4864
孝文	-11.4864
耳問	-11.4866
致思	-11.4869
不耕	-11.4869
專主	-11.487
熟後	-11.487
期而	-11.4873
以此見	-11.4874
故次	-11.4878
其語	-11.488
省事	-11.4882
謹嚴	-11.4882
無度	-11.4885
以功	-11.4885
存誠	-11.4888
惻隐	-11.489
之為物	-11.489
大敗	-11.489
禅	-11.4891
不可離	-11.4891
王業	-11.4892
旃	-11.4895
縻	-11.4896
戒慎恐懼	-11.4897
大病	-11.4898
厮	-11.4899
繼世	-11.4899
亷恥	-11.4899
血脉	-11.49
不可分	-11.49
犧	-11.49
見乎	-11.4901
錦繡	-11.4901
搖	-11.4902
騫	-11.4902
慄	-11.4903
娛	-11.4904
勉齋	-11.4904
楊朱	-11.4904
旄	-11.4904
古有	-11.4905
以勸	-11.4906
守節	-11.4907
守正	-11.4907
開封	-11.4908
上疏曰	-11.4908
竦	-11.491
假之	-11.491
制事	-11.4911
惡則	-11.4911
陷溺	-11.4912
也朱熹曰	-11.4912
可求	-11.4912
太甚	-11.4915
哀樂	-11.4916
那邊	-11.4921
都尉	-11.4921
厥後	-11.4921
相關	-11.4921
以為民	-11.4927
凛	-11.4929
民事	-11.4931
當然之則	-11.4931
相助	-11.4932
自修	-11.4935
資始	-11.4935
好義	-11.4935
見矣	-11.4936
愛惡	-11.4939
方圓	-11.494
去偽	-11.4942
因地	-11.4944
或不能	-11.4944
書謂	-11.4944
不免有	-11.4947
此誠	-11.4948
有條理	-11.495
廓然	-11.4951
君子所	-11.4951
去取	-11.4953
則同	-11.4953
字與	-11.4954
做到	-11.4954
一大	-11.4955
乎其中	-11.4956
聲也	-11.4959
臨民	-11.4961
矣雖然	-11.4961
也朱子	-11.4962
之備	-11.4963
濟濟	-11.4963
也詩云	-11.4963
改作	-11.4965
今又	-11.4966
戰則	-11.4966
此可見	-11.4969
祭祀之	-11.4972
見得他	-11.4972
明道曰	-11.4972
自來	-11.4973
而言之則	-11.4973
盖其	-11.4974
如子	-11.4975
易行	-11.4975
不謂之	-11.4977
不再	-11.4978
王王	-11.4978
享國	-11.4979
千里之	-11.498
无所	-11.4981
以五	-11.4983
無適	-11.4985
凶年	-11.4986
如水之	-11.4986
某嘗謂	-11.4986
以求之	-11.4986
已為	-11.4987
極髙	-11.4987
先生因	-11.4988
冡	-11.4989
涂	-11.499
皷	-11.4991
冬夏	-11.4991
㸔来	-11.4992
廡	-11.4992
威嚴	-11.4992
歸宿	-11.4993
芮	-11.4994
中庸曰	-11.4996
纖	-11.4996
蠢	-11.4997
紿	-11.4997
其間有	-11.4998
然亦有	-11.4998
莾	-11.4998
筐	-11.4998
不改其樂	-11.4998
固為	-11.4999
晷	-11.5
棗	-11.5001
顚	-11.5004
不能成	-11.5004
惕然	-11.5005
茍無	-11.5005
皇極經世	-11.5006
詩書禮樂	-11.5008
子由	-11.5008
形迹	-11.5009
執一	-11.5009
侈靡	-11.5011
古人所以	-11.5011
多端	-11.5014
何以不	-11.5015
生育	-11.5015
其所為	-11.5017
之父	-11.5021
不出乎	-11.5021
豳風	-11.5022
可樂	-11.5022
分毫	-11.5023
敬是	-11.5023
謀之	-11.5023
門之外	-11.5024
愛也	-11.5024
征之	-11.5027
尚在	-11.5028
親賢	-11.5028
加焉	-11.5028
民之父母	-11.5028
其為人	-11.5028
貴戚	-11.5029
順從	-11.5032
静也	-11.5039
盖有	-11.5041
曰便是	-11.5042
七百	-11.5042
博厚	-11.5046
守得	-11.5048
某事	-11.5049
事變	-11.5049
不就	-11.505
上供	-11.5051
程頤曰	-11.5053
三節	-11.5053
為衆	-11.5054
以明之	-11.5054
疏曰	-11.5055
也又云	-11.5055
裁制	-11.5055
欲去	-11.5057
未始不	-11.5057
人當	-11.506
極精	-11.5063
其全	-11.5064
無患	-11.5066
向背	-11.5066
與氣	-11.5067
欺人	-11.5068
行此	-11.5068
不在此	-11.5069
不流	-11.5069
姦臣	-11.507
校官	-11.5072
恐只是	-11.5073
直而	-11.5073
是見得	-11.5075
禮有	-11.5075
三十里	-11.5075
而莫之	-11.5075
不竭	-11.5075
斯須	-11.5076
王霸	-11.5077
生矣	-11.5077
之所生	-11.5079
自持	-11.508
以别	-11.5081
受教	-11.5081
乃所以為	-11.5083
不接	-11.5083
日星	-11.5085
不敬則	-11.5085
明湛若水撰	-11.5085
只有箇	-11.5085
東遷	-11.5085
貢賦	-11.5085
鄕	-11.5086
疫	-11.5088
篋	-11.5089
稽顙	-11.5089
刖	-11.509
脯	-11.509
漓	-11.509
在君	-11.509
敬而無失	-11.5091
彩	-11.5092
跳	-11.5093
趨於	-11.5093
的當	-11.5093
涸	-11.5094
相望	-11.5094
夘	-11.5094
黷	-11.5095
瓜	-11.5095
下學上達	-11.5095
張敬夫	-11.5097
矣如	-11.5097
做了	-11.51
只是就	-11.5101
否先生曰	-11.5102
季秋	-11.5103
述其	-11.5106
李公	-11.5106
格言	-11.5107
之一言	-11.5107
曰昔者	-11.5108
鍼	-11.5109
短長	-11.5112
掃除	-11.5114
致其知	-11.5114
重耳	-11.5115
建康	-11.5118
了若	-11.5119
有那	-11.5119
境内	-11.512
講義	-11.5121
五星	-11.5123
仁之本	-11.5124
與人同	-11.5124
飲食之	-11.5126
去惡	-11.5126
而論之	-11.5127
以柔	-11.5127
坤卦	-11.5127
杜氏	-11.5128
雖知	-11.5129
兩截	-11.5131
愈多	-11.5133
非所以為	-11.5135
今來	-11.5136
向見	-11.5138
聞於	-11.514
奏議	-11.5143
奈何曰	-11.5146
吕祖謙曰	-11.5147
之手	-11.5148
當爲	-11.5149
絶無	-11.5152
哭之	-11.5152
一豪	-11.5152
十餘萬	-11.5155
成康	-11.5155
兩間	-11.5156
如何見得	-11.5157
非古	-11.5159
以待之	-11.516
者往往	-11.5161
亦不知	-11.5162
譏其	-11.5166
庸人	-11.5167
物之理	-11.5169
樂正子	-11.517
周頌	-11.517
故欲	-11.5173
職業	-11.5174
此卦	-11.5174
豫章	-11.5175
於心而	-11.5177
夏正	-11.518
實體	-11.5182
產	-11.5183
某云此	-11.5184
主一無適	-11.5187
卷六	-11.5189
攀	-11.5189
也訓曰	-11.519
曜	-11.519
詈	-11.5191
望而	-11.5191
埽	-11.5191
敢不	-11.5191
桎梏	-11.5191
𤨏	-11.5192
䕃	-11.5192
璜	-11.5192
倨	-11.5193
閻	-11.5194
乘之	-11.5194
攻取	-11.5194
其禄	-11.5194
則雖有	-11.5195
文質	-11.5195
謂侍臣曰	-11.5195
汲黯	-11.5196
瓶	-11.5196
犀	-11.5196
化者	-11.5196
虧欠	-11.5198
髙山	-11.5199
同胞	-11.5199
周世宗	-11.52
喟然	-11.52
猶且	-11.52
亦莫	-11.5201
天位	-11.5201
宗廟社稷	-11.5201
守道	-11.5202
學焉	-11.5203
天下之動	-11.5204
事物之理	-11.5205
如日月	-11.5205
那事	-11.5206
羲和	-11.5206
山中	-11.5206
行不得	-11.5207
恩義	-11.5208
服膺	-11.5208
車騎	-11.5208
北海	-11.5209
下之人	-11.5209
前日之	-11.5213
其所以然	-11.5215
朝覲	-11.5216
清者	-11.5217
古書	-11.5218
下大夫	-11.5219
有之矣	-11.5222
在物	-11.5224
周道	-11.5226
而變	-11.5226
我聖祖	-11.5226
神妙	-11.5227
祭法	-11.5227
未始	-11.5231
無事之時	-11.5231
遂有	-11.5234
先君之	-11.5235
有諸己	-11.5235
多所	-11.5235
湯武之	-11.5236
性之本	-11.5236
展轉	-11.5238
而天下治	-11.5238
所止	-11.5238
只可	-11.524
其智	-11.524
百餘年	-11.5241
二端	-11.5242
兩件	-11.5243
洪水	-11.5243
也故君子	-11.5245
之中有	-11.5248
人之生	-11.5248
焉得	-11.5248
用力於	-11.5248
富民	-11.525
勸農	-11.5252
皆具	-11.5252
處此	-11.5252
齊戒	-11.5254
正朔	-11.5254
正學	-11.5258
齊梁	-11.5258
豁	-11.5259
則無所	-11.526
始學	-11.5261
切實	-11.5264
甚處	-11.5266
商書	-11.527
先言	-11.5272
能勝	-11.5272
心之本體	-11.5275
以見其	-11.5277
他處	-11.5278
造次	-11.528
廟堂	-11.528
男女之	-11.5281
於親	-11.5281
以上皆	-11.5281
處看	-11.5281
剛陽	-11.5282
七人	-11.5282
無情	-11.5282
之工	-11.5282
在已	-11.5283
既葬	-11.5283
若不是	-11.5285
外内	-11.5286
聯	-11.5287
屛	-11.5288
又引	-11.529
摭	-11.529
神靈	-11.5291
除了	-11.5291
捍	-11.5291
為國家	-11.5291
縞	-11.5292
徹上徹下	-11.5293
哺	-11.5293
然如	-11.5294
欽定四庫全書子部一	-11.5295
虎賁	-11.5295
謂天	-11.5296
近思	-11.5297
轉運	-11.5297
為人上者	-11.5297
拖	-11.5297
知道者	-11.5297
阨	-11.5298
是年	-11.5298
無縁	-11.5298
知其非	-11.5298
沼	-11.5298
非能	-11.5298
諤	-11.5298
正義曰	-11.5299
馳騁	-11.5299
淳熈	-11.5299
豈若	-11.53
太僕	-11.5301
煎	-11.5302
若更	-11.5303
處士	-11.5304
元首	-11.5304
相得	-11.5305
左右前後	-11.5306
不得與	-11.5308
伯姬	-11.5309
一室	-11.531
總是	-11.5312
起兵	-11.5312
榖梁	-11.5312
人心道心	-11.5313
曰彼	-11.5314
晩年	-11.5314
丘陵	-11.5315
金帛	-11.5318
以為然	-11.5319
配享	-11.5319
凡民	-11.5319
堂堂	-11.532
開闢	-11.5322
説道理	-11.5323
警戒	-11.5323
木訥	-11.5324
因說	-11.5326
勤於	-11.5326
等處	-11.5328
任人	-11.533
百行	-11.5331
春秋時	-11.5331
無許多	-11.5331
雖已	-11.5334
神主	-11.5336
大壯	-11.5338
未免有	-11.5338
車服	-11.5338
又何以	-11.5339
這箇是	-11.534
折獄	-11.534
謝安	-11.5341
確然	-11.5342
羣吏	-11.5343
𫝊之	-11.5344
太虛	-11.5347
无咎也	-11.5348
如見	-11.5348
孝慈	-11.5349
精切	-11.5352
陳侯	-11.5352
人莫不	-11.5353
其君者	-11.5354
失了	-11.5354
樂章	-11.5355
有所未	-11.5356
左手	-11.5356
始知	-11.5358
之髙	-11.5358
㑹通	-11.5359
生數	-11.536
之號	-11.536
獨得	-11.5362
久逺	-11.5364
亦要	-11.5364
三傳	-11.5365
史遷	-11.5365
今按	-11.5366
散則	-11.5367
别處	-11.5367
可以得	-11.5368
而不可易	-11.5369
相遇	-11.5371
虚名	-11.5372
耕者	-11.5373
己意	-11.5373
様子	-11.5374
悔亡	-11.5375
塾	-11.5376
之列	-11.5378
之仁也	-11.5378
點	-11.5382
懶	-11.5389
者而言	-11.5389
每嵗	-11.539
腦	-11.539
丗	-11.5392
躡	-11.5392
剔	-11.5393
黥	-11.5393
至誠無息	-11.5393
揖遜	-11.5394
彧	-11.5394
正命	-11.5394
囂	-11.5395
唐書	-11.5395
酣	-11.5396
如何却	-11.5396
常多	-11.5397
周茂叔	-11.5397
民安	-11.5398
猶以為	-11.5398
簫	-11.5399
鹽鐵	-11.5399
者聖人	-11.5399
立君	-11.54
窺測	-11.54
一歳	-11.5401
䋲	-11.5401
惓惓	-11.5401
非如	-11.5401
不均	-11.5402
林鍾	-11.5403
孕	-11.5404
劉歆	-11.5405
也不是	-11.5405
之大小	-11.5408
太上	-11.5409
此爻	-11.541
以忠	-11.541
至明	-11.5411
長生	-11.5412
不才	-11.5414
諸吕	-11.5417
抑揚	-11.542
獄者	-11.542
復見	-11.5421
之時則	-11.5421
禮制	-11.5422
刑人	-11.5425
南宫	-11.5427
乾乾	-11.5427
之職也	-11.5427
君位	-11.5427
莫不皆然	-11.5428
終不可	-11.543
立春	-11.5431
漢王	-11.5433
幸甚	-11.5434
一邑	-11.5434
已死	-11.5434
而得其	-11.5434
相攻	-11.5435
越王	-11.5436
行其道	-11.5436
無事則	-11.5437
竭其	-11.5437
不嚴	-11.5437
人都	-11.5439
之兆	-11.5439
徒為	-11.5442
幾㣲	-11.5442
貨賄	-11.5445
王畿	-11.5445
道不行	-11.5446
赦之	-11.5446
也大抵	-11.5446
師也	-11.5447
無時而不	-11.5452
而不求	-11.5453
辭氣	-11.5456
乃云	-11.5457
九徳	-11.5457
大辟	-11.5457
出納	-11.5458
通行	-11.5458
近乎	-11.5458
所由生	-11.5459
紂之	-11.546
妄動	-11.5463
羣居	-11.5463
占者	-11.5464
有清濁	-11.5465
若以為	-11.5465
六子	-11.5471
百八十	-11.5472
六尺	-11.5474
於晉	-11.5474
只緣	-11.5476
窮盡	-11.5477
永貞	-11.5478
所藏	-11.548
以至于	-11.5481
所入	-11.5484
倣此	-11.5485
數千里	-11.5485
也由	-11.5485
深造	-11.5487
此圖	-11.5488
妙處	-11.549
言誠	-11.549
凱	-11.5491
耨	-11.5492
捄	-11.5492
人意	-11.5493
為母	-11.5493
龜山楊氏曰	-11.5494
彪	-11.5494
一動一静	-11.5495
驪姬	-11.5495
彘	-11.5495
禁令	-11.5496
為質	-11.5497
見善	-11.5497
昀	-11.5497
㝷	-11.5498
圎	-11.5498
必謹	-11.5498
淚	-11.5499
表章	-11.5499
孫士毅	-11.5499
知人之	-11.55
鋤	-11.55
孰與	-11.55
倉廩	-11.55
斯世	-11.5503
陸錫	-11.5504
惻隱之心	-11.5504
萬五千	-11.5505
詩文	-11.5506
學詩	-11.5506
差等	-11.551
宗法	-11.551
謂之神	-11.5513
為證	-11.5516
務實	-11.5517
黄河	-11.5517
叔孫通	-11.5518
未能盡	-11.5518
只於	-11.5524
孟子論	-11.5525
利民	-11.5526
之意故	-11.5526
渡江	-11.5527
為之也	-11.5528
其來	-11.5528
山澤之	-11.5532
視聴	-11.5532
江陵	-11.5532
不可欺	-11.5536
𤣥妙	-11.5537
四十五	-11.5538
示之以	-11.5538
則一也	-11.5542
資於	-11.5544
化民	-11.5546
而歌	-11.5546
近古	-11.5546
滅亡	-11.5547
今人只	-11.5547
不預	-11.5547
民俗	-11.5548
節奏	-11.5548
勞之	-11.5549
其動也	-11.555
揚州	-11.555
不早	-11.5551
只㸔	-11.5551
聖者	-11.5554
秘書	-11.5555
曹伯	-11.5556
聖賢之學	-11.5558
不相離	-11.556
固未嘗	-11.5561
中説	-11.5563
以行之	-11.5566
著落	-11.5568
何者為	-11.5568
侍臣	-11.5569
不言而	-11.557
體段	-11.5573
曾孫	-11.5573
葦	-11.5574
這氣	-11.5574
勿使	-11.5574
其或	-11.5574
正謂	-11.5575
以事君	-11.5576
誤矣	-11.5577
木金	-11.5579
不過是	-11.558
得之於	-11.558
無所不在	-11.5583
㑹得	-11.5583
之境	-11.5585
漸次	-11.5587
之一端	-11.5588
元和	-11.5588
孝弟忠信	-11.5588
不歸	-11.5589
自盡	-11.5592
未必盡	-11.5592
墓誌	-11.5593
盡是	-11.5593
莅	-11.5595
穩	-11.5596
但不可	-11.5596
見於事	-11.5597
亦莫不	-11.5597
無所得	-11.5597
婦道	-11.5598
也先生曰	-11.5599
歷	-11.5599
亂臣賊子	-11.5599
承上	-11.56
改為	-11.5601
侃	-11.5601
世無	-11.5601
劔	-11.5602
翳	-11.5602
京房	-11.5603
一定之	-11.5606
黄鐘之	-11.5608
迎之	-11.5608
突厥	-11.5609
也苟	-11.5609
淺陋	-11.5609
勇猛	-11.5611
之生也	-11.5611
逐日	-11.5612
賵	-11.5612
順帝	-11.5612
君陳	-11.5612
經曰	-11.5614
信而	-11.5615
屑	-11.5616
當職	-11.5616
盖自	-11.5619
尹氏曰	-11.5619
胷	-11.5621
法言	-11.5621
大化	-11.5624
纔説	-11.5625
可見其	-11.5626
自然有	-11.5626
凡百	-11.5627
廢弛	-11.5627
失所	-11.5629
修德	-11.5629
後宫	-11.563
孔子所謂	-11.5631
傷於	-11.5631
君人者	-11.5632
朱氏	-11.5632
者也若	-11.5632
應鍾	-11.5633
唐太宗貞觀	-11.5634
外書	-11.5634
焉能	-11.5635
其所行	-11.5636
發憤	-11.5636
周天	-11.5639
空寂	-11.564
若此者	-11.5643
必行	-11.5644
自天	-11.5645
於四方	-11.5647
得其道	-11.5647
豈復	-11.5648
宿衛	-11.565
雜亂	-11.5651
有一人	-11.5651
先賢	-11.5652
皆欲	-11.5653
卷三	-11.5653
遣人	-11.5656
二十九	-11.5658
况其	-11.5658
以隂	-11.5658
理之當然	-11.5659
常若	-11.5663
之心為心	-11.5664
西階	-11.5664
非禮勿	-11.5666
之統	-11.5666
孝行	-11.5667
體道	-11.5668
天寳	-11.5669
四聲	-11.567
其本心	-11.5671
伯玉	-11.5672
是甚麽	-11.5672
之是非	-11.5672
設使	-11.5676
過當	-11.5676
兩物	-11.5678
許其	-11.5678
心與理	-11.5679
殺了	-11.568
善治	-11.5683
固辭	-11.5684
難說	-11.5684
此篇論	-11.5687
也惟其	-11.5691
韓魏	-11.5691
有是心	-11.5692
忿懥	-11.5692
此心便	-11.5694
何足以	-11.5694
誠身	-11.5695
親近	-11.5696
不敢自	-11.5697
郁	-11.5697
曷為	-11.5698
汝等	-11.5698
碧	-11.5699
綸	-11.57
渇	-11.57
樞紐	-11.5701
養性	-11.5701
之正也	-11.5701
只是理	-11.5701
從周	-11.5701
能通	-11.5702
袋	-11.5702
爵位	-11.5702
揉	-11.5703
無法	-11.5703
祜	-11.5703
捧	-11.5703
覘	-11.5704
駐	-11.5704
小則	-11.5704
耜	-11.5705
堰	-11.5705
合為一	-11.5706
無可奈何	-11.5707
鄴	-11.5707
孩	-11.5708
等謹案	-11.5709
剰	-11.5709
建子	-11.5709
士庶人	-11.5711
以承	-11.5712
與語	-11.5712
大惡	-11.5712
爵賞	-11.5713
害其	-11.5715
無辜	-11.5715
一動	-11.5717
如是之	-11.5724
上户	-11.5725
齊齊	-11.5725
深宫	-11.5726
忘了	-11.5728
之名而	-11.573
詳味	-11.5733
守法	-11.5733
世儒	-11.5734
端䝉	-11.5734
崔氏	-11.5735
十卷	-11.5735
以質	-11.5736
闢之	-11.5737
此節	-11.5738
而失其	-11.5739
經濟	-11.5741
相闗	-11.5741
難事	-11.5743
是自然	-11.5744
分寸	-11.5744
為六	-11.5745
性之善	-11.5745
陳蔡	-11.5745
看道理	-11.5746
不終	-11.5746
乎民	-11.5747
萬七千	-11.5749
儒臣	-11.5749
也愚謂	-11.5752
鐘鼓	-11.5753
不自知	-11.5753
夫禮	-11.5754
灼然	-11.5755
只從	-11.5756
了問	-11.5757
如此做	-11.5758
生平	-11.5759
擔當	-11.5761
真能	-11.5762
惻然	-11.5763
未盡善	-11.5764
小底	-11.5765
之左	-11.5767
諸友	-11.5767
行之者	-11.5768
不類	-11.5771
保身	-11.5771
鄭聲	-11.5773
賜也	-11.5776
祭者	-11.5776
我欲	-11.578
惡不仁	-11.578
淆	-11.5781
無内外	-11.5782
或作	-11.5782
還他	-11.5784
不勤	-11.5784
文宗	-11.5784
儼	-11.5785
千五百	-11.5785
所不當	-11.5786
程子説	-11.5789
所固有	-11.579
愛惜	-11.5796
敬慎	-11.58
伐宋	-11.58
俾其	-11.5801
綱常	-11.5801
滂	-11.5802
妥	-11.5803
拈	-11.5803
劵	-11.5804
莫善於	-11.5804
生于	-11.5804
勿以	-11.5805
十有四	-11.5806
前説	-11.5807
孟春	-11.5807
釀	-11.5808
野人	-11.5809
剡	-11.5809
梯	-11.5809
誚	-11.5809
明道云	-11.581
保民	-11.5811
公孫𢎞	-11.5811
瘳	-11.5811
以警	-11.5811
儕	-11.5811
一章曰	-11.5811
茂叔	-11.5812
齊師	-11.5812
為務	-11.5817
槁	-11.5818
千秋	-11.5819
鵠	-11.5819
無所施	-11.582
禀受	-11.582
若是則	-11.5821
商周	-11.5821
曰予	-11.5822
却不知	-11.5822
毛氏曰	-11.5826
恁地做	-11.5827
憂之	-11.5827
督責	-11.5831
豈復有	-11.5831
終日乾乾	-11.5831
忠直	-11.5832
億萬	-11.5834
萬象	-11.5835
昭烈	-11.5836
又各	-11.5836
之要也	-11.5837
知之矣	-11.5837
便是那	-11.584
六章	-11.5841
迫切	-11.5842
地官	-11.5842
之廣	-11.5843
一國之	-11.5845
師曠	-11.5848
散殊	-11.5849
亦知	-11.585
苟且	-11.5851
措之	-11.5851
意欲	-11.5853
志於仁	-11.5854
忠言	-11.5856
漠然	-11.5857
三篇	-11.5858
自可	-11.586
君之所	-11.5863
不滅	-11.5864
必擇	-11.5864
欲殺	-11.5868
便去	-11.5869
今人多	-11.5869
列侯	-11.587
於此乎	-11.5872
後魏	-11.5873
提起	-11.5873
動直	-11.5875
益明	-11.5876
賢聖	-11.5876
繼以	-11.5877
勝於	-11.5877
所費	-11.5879
説文	-11.5879
和議	-11.588
可謂善	-11.588
油然	-11.5881
自慊	-11.5883
送之	-11.5883
子夏曰	-11.5884
粲	-11.5885
己之私	-11.5885
為國者	-11.5886
鄙夫	-11.5887
得宜	-11.5888
那人	-11.589
一郡	-11.5892
此亦是	-11.5892
七廟	-11.5894
)(○	-11.5894
臣僚	-11.5895
之所宜	-11.5895
三王之	-11.5895
聴之	-11.5895
之體也	-11.5898
自此始	-11.5899
吾之所	-11.5902
此四字	-11.5902
不慎	-11.5903
閑邪	-11.5906
耳夫	-11.5907
並進	-11.5908
老蘇	-11.5909
轄	-11.5909
三綱五常	-11.591
自做	-11.591
物格知至	-11.591
臺諫	-11.5911
難易	-11.5914
晁錯	-11.5915
聞過	-11.5915
鉏	-11.5916
治獄	-11.5916
畋	-11.5916
崑崙	-11.5917
桉	-11.5919
匣	-11.5919
孔叢子	-11.592
邇言	-11.592
阼	-11.592
扞	-11.592
悠久	-11.5921
以尊	-11.5922
號泣	-11.5922
甘露	-11.5923
竒耦	-11.5923
以共	-11.5925
一州	-11.5925
唐制	-11.5925
隂陽剛柔	-11.5926
斬之	-11.5926
戊申	-11.5928
詔書	-11.5928
魏文侯	-11.5928
勞民	-11.5929
已得	-11.593
等書	-11.593
椁	-11.5931
何暇	-11.5935
各異	-11.5935
漢時	-11.5935
荒政	-11.5936
為政者	-11.5936
王孫	-11.5937
是一般	-11.5937
之征	-11.5938
務在	-11.5938
盡性至命	-11.5938
不登	-11.5939
誦詩	-11.5942
儼然	-11.5944
通典	-11.5946
說了	-11.5947
卿相	-11.5947
物之性	-11.5949
又不知	-11.5949
垂訓	-11.5949
聖人之所以	-11.595
不斷	-11.5953
指出	-11.5953
得於天	-11.5953
甚切	-11.5954
問政	-11.5957
舊章	-11.5958
中庸所謂	-11.596
之小者	-11.596
愚謂此	-11.596
交際	-11.596
虚文	-11.5961
人間	-11.5961
責成	-11.5963
面前	-11.5963
以仁為	-11.5965
往則	-11.5967
於未	-11.5967
而西	-11.5969
一次	-11.5969
七曰	-11.5972
只消	-11.5972
門庭	-11.5975
書籍	-11.5977
一律	-11.5977
發揚	-11.5979
不納	-11.5979
必敗	-11.5979
何如哉	-11.598
處故	-11.598
治化	-11.5981
事鬼神	-11.5984
何以謂之	-11.5984
而不忘	-11.5988
應對	-11.5989
久久	-11.599
可愛	-11.5992
奏請	-11.5992
討之	-11.5996
惟此	-11.5997
震動	-11.5997
吾性	-11.5998
明作	-11.6
示民	-11.6001
不能安	-11.6002
大孝	-11.6002
在天地	-11.6002
所重	-11.6006
以觀其	-11.6006
公族	-11.6007
難見	-11.6009
抹	-11.6009
漢髙	-11.601
語及	-11.6015
禮智	-11.6016
倅	-11.6017
通曉	-11.6018
須㬰	-11.6019
以盡其	-11.602
伐木	-11.602
建極	-11.6021
賡	-11.6021
囑	-11.6021
佞人	-11.6021
剖析	-11.6021
廢而	-11.6022
猜	-11.6022
二十餘	-11.6022
禳	-11.6022
吿	-11.6022
据	-11.6023
纎毫	-11.6023
雇	-11.6023
蹊	-11.6025
坤道	-11.6025
從這裏	-11.6025
諺	-11.6026
槃	-11.6026
大象	-11.6027
覧	-11.6027
尹和靖	-11.6027
仁人之	-11.6028
立論	-11.6028
成周之	-11.6028
纊	-11.6028
蔬食	-11.6029
掛一	-11.603
郯	-11.6031
虞廷	-11.6032
遣之	-11.6033
范文正公	-11.6033
而己	-11.6034
彭蠡	-11.6034
天地生	-11.6035
發動	-11.6035
夷吾	-11.6037
壅蔽	-11.6037
對越	-11.6039
以欺	-11.6039
聰眀	-11.604
盡去	-11.6046
輔佐	-11.6048
欲令	-11.6049
也其後	-11.6049
以是而	-11.6051
乎吾	-11.6051
甚衆	-11.6052
及時	-11.6052
刑措	-11.6054
之例	-11.6055
幾乎	-11.6057
從者	-11.6058
第九	-11.6058
舟車	-11.6059
得免	-11.6061
者性之	-11.6062
毋得	-11.6062
只有一箇	-11.6064
王道之	-11.6065
閉門	-11.6067
天人之	-11.6067
長史	-11.6069
由乎	-11.6071
可立	-11.6071
世之人	-11.6072
卑下	-11.6072
子西	-11.6074
類皆	-11.6078
信矣	-11.6079
後嗣	-11.6079
以臨	-11.6079
每見	-11.608
尚書省	-11.608
遺之	-11.608
交通	-11.6083
遂以為	-11.6083
鄉曲	-11.6083
雖異	-11.6084
自責	-11.6085
這一句	-11.6088
不可移	-11.6088
問他	-11.6089
且將	-11.6089
或至	-11.609
降神	-11.609
不容不	-11.6091
者必先	-11.6093
變法	-11.6094
見於外	-11.6095
所尚	-11.6098
哉若	-11.6098
奏聞	-11.6099
不私	-11.6099
便休	-11.61
在東	-11.6103
至健	-11.6104
乎此則	-11.6104
以獻	-11.6106
之術也	-11.6106
事兄	-11.6106
聖心	-11.6107
性惡	-11.6108
但欲	-11.6108
選士	-11.6108
掉	-11.6111
内侍	-11.6112
萬方	-11.6113
其本體	-11.6116
賢士	-11.6116
不知所以	-11.6117
楮	-11.6117
百畆	-11.6118
人須	-11.6119
晉國	-11.6121
條貫	-11.6122
禮儀三百威儀三千	-11.6123
通變	-11.6124
裼	-11.6125
之北	-11.6125
要緊	-11.6126
反身而誠	-11.6126
時君	-11.6126
巻	-11.6127
易有太極	-11.6128
造化之迹	-11.6129
古語	-11.613
驪	-11.6131
看史	-11.6132
哭泣	-11.6132
迥	-11.6132
不可奪	-11.6132
鉗	-11.6133
以下論	-11.6133
殞	-11.6133
讀如	-11.6133
蘧伯玉	-11.6134
造作	-11.6134
丐	-11.6134
可致	-11.6134
盖亦	-11.6135
民物	-11.6135
五品	-11.6135
緘	-11.6135
諸郡	-11.6135
瞬	-11.6136
足以為	-11.6136
驥	-11.6138
澁	-11.6138
詳審	-11.6138
有見於	-11.6139
丈人	-11.6143
誰與	-11.6143
之説曰	-11.6144
者為之	-11.6145
伯豐	-11.6145
鮑叔	-11.615
以足	-11.615
將何以	-11.6156
者仁之	-11.6157
不敢輕	-11.6158
差役	-11.6159
太祖皇帝	-11.6159
刑戮	-11.6159
猶存	-11.616
干禄	-11.6162
說到	-11.6163
厥徳	-11.6165
著工夫	-11.6166
庶事	-11.6166
龍門	-11.6167
尊祖	-11.6168
髙皇帝	-11.6169
南京	-11.6171
何以見	-11.6173
臨下	-11.6174
諸道	-11.6175
聖人之學	-11.6176
縁他	-11.6177
下情	-11.6177
主意	-11.6177
散之	-11.6177
逐之	-11.6179
不朽	-11.6179
稽考	-11.618
是情	-11.6182
中實	-11.6182
感悟	-11.6182
為人子者	-11.6182
周知	-11.6184
毁之	-11.6185
其道則	-11.6185
最大	-11.6188
稍有	-11.6188
之謂乎	-11.6188
仁聖	-11.6188
誠其意	-11.6189
入中國	-11.619
理會得	-11.619
之側	-11.6191
萬事萬物	-11.6192
顧命	-11.6192
資格	-11.6193
發眀	-11.6195
書所謂	-11.6195
伏生	-11.6195
失職	-11.6197
建安	-11.6198
亦無所	-11.6199
鮮矣	-11.6199
有言曰	-11.62
卑者	-11.62
地名	-11.62
則危	-11.6202
息矣	-11.6202
其所得	-11.6204
三畫	-11.6206
當其可	-11.6206
治天下者	-11.6208
燕居	-11.6209
良久	-11.621
有餘而	-11.6212
儒學	-11.6212
至元	-11.6212
神人	-11.6215
一太極也	-11.6215
與吾	-11.6215
他國	-11.6216
卷二	-11.6216
出師	-11.6218
獻子	-11.6218
所制	-11.622
康公	-11.6222
君實	-11.6226
必因	-11.6226
獨行	-11.6228
官制	-11.6229
孫卿	-11.6231
串	-11.6233
療	-11.6235
開發	-11.6236
彥	-11.6237
坡	-11.6237
君德	-11.6238
既不能	-11.6238
務農	-11.6238
深淺	-11.6239
所願	-11.6239
經學	-11.6239
上天之載無聲無臭	-11.624
臥	-11.624
晦菴	-11.624
不足以盡	-11.6241
以重	-11.6241
子午	-11.6241
考究	-11.6243
見伊川	-11.6243
上句	-11.6244
亹亹	-11.6244
虞舜	-11.6244
洙泗	-11.6244
鑽	-11.6245
宛轉	-11.6245
椎	-11.6245
羨	-11.6245
熄	-11.6245
漲	-11.6246
扁鵲	-11.6246
翰林學士	-11.6247
霄	-11.6248
毫髮	-11.6248
而不可得	-11.6249
不敢言	-11.6249
方正	-11.6249
扁	-11.625
南渡	-11.6252
梁武帝	-11.6254
桓文	-11.6254
滎陽公	-11.6254
屋漏	-11.6255
之属	-11.6255
為人子	-11.6256
不虚	-11.6256
則兼	-11.6257
恢復	-11.6258
哉今	-11.626
與之言	-11.6261
書名	-11.6261
分作	-11.6263
便有許多	-11.6264
定位	-11.6264
不拜	-11.6266
對曰臣	-11.6266
多士	-11.6268
出焉	-11.6268
賈生	-11.6269
不濟	-11.6273
而内	-11.6274
二國	-11.6276
不救	-11.6276
誠矣	-11.6279
委積	-11.6279
便以為	-11.628
不正則	-11.628
見利	-11.6282
其權	-11.6283
吾將	-11.6284
至妙	-11.6284
後進	-11.6287
久而不	-11.6288
五紀	-11.6288
予奪	-11.6288
驗也	-11.6289
厚也	-11.629
天地鬼神	-11.6293
於外者	-11.6294
亦湏	-11.6296
不是處	-11.6297
天地之大	-11.6297
以六	-11.6299
得賢	-11.63
外朝	-11.6301
住不得	-11.6303
之驗	-11.6305
舊時	-11.6308
喪祭	-11.6309
舉事	-11.631
事物上	-11.6311
不足與	-11.6315
之事皆	-11.6316
好問	-11.6318
容止	-11.6319
抑之	-11.632
千里之外	-11.6321
之口	-11.6324
國亡	-11.6324
之辯	-11.6325
泰然	-11.6325
子糾	-11.6325
遇之	-11.6326
其可不	-11.633
既生	-11.633
字之義	-11.6331
敬仲	-11.6332
民志	-11.6332
雷雨	-11.6335
為人君	-11.6338
非理	-11.6338
孰若	-11.634
死罪	-11.634
殺人者	-11.6341
士師	-11.6341
凡四	-11.6342
複	-11.6342
出於天	-11.6343
者人之所	-11.6343
得位	-11.6345
入地	-11.6346
如此只是	-11.6347
軀殻	-11.6347
凟	-11.6347
袍	-11.6347
們	-11.6348
瑜	-11.6348
甚重	-11.6349
㨿	-11.6349
縳	-11.6349
伶	-11.635
阮	-11.6351
糜	-11.6353
詛	-11.6353
狼狽	-11.6353
天下之公	-11.6355
鑠	-11.6355
邵堯夫	-11.6355
樁	-11.6356
焚香	-11.6356
檢㸃	-11.6357
諳	-11.6357
九卿	-11.6357
必致	-11.6357
學禮	-11.6358
光輝	-11.6358
琦	-11.6359
夢寐	-11.6359
堕	-11.636
丹朱	-11.636
長養	-11.6362
憂懼	-11.6362
之實而	-11.6365
之甚者	-11.6371
何為而	-11.6371
浙西	-11.6373
習熟	-11.6373
隨他	-11.6374
獨處	-11.6374
賢臣	-11.6376
不遑	-11.6377
中正仁義	-11.6381
一代之	-11.6383
物生	-11.6384
使令	-11.6387
讀書須	-11.6388
其義也	-11.6389
良能	-11.6391
六府	-11.6394
小畜	-11.6397
曲盡	-11.6397
一人而已	-11.6399
正坐	-11.6404
而致之	-11.6404
而進之	-11.6404
學之士	-11.6408
為始	-11.6409
年號	-11.641
同歸	-11.6414
夫差	-11.6414
惟天	-11.6415
持其志	-11.6415
變而為	-11.6415
並立	-11.6417
所惑	-11.6417
仁仁	-11.6419
富家	-11.6421
何自而	-11.6422
遑	-11.6423
最多	-11.6426
大將	-11.6426
那箇是	-11.6427
只是一理	-11.6427
論之則	-11.6427
事畢	-11.6428
大水	-11.6428
起來	-11.643
之序也	-11.6431
一統	-11.6432
加之以	-11.6432
邵子曰	-11.6433
在於此	-11.6435
陽爻	-11.6435
便自然	-11.6438
屢空	-11.6439
凡例	-11.6442
姑以	-11.6443
聖言	-11.6444
固執	-11.6445
馬政	-11.6447
做起	-11.6449
厚者	-11.6449
劉子	-11.645
得意	-11.6453
貞正	-11.6454
生生不窮	-11.6454
饗之	-11.6455
嘗問	-11.6455
感物	-11.6455
便有箇	-11.6455
折之	-11.6456
諸父	-11.6457
虚中	-11.6458
𣲖	-11.646
犢	-11.646
三代以下	-11.646
又因	-11.646
之所自出	-11.646
剗	-11.6461
之譏	-11.6462
雛	-11.6462
技藝	-11.6462
讀書之法	-11.6463
薰	-11.6463
流入	-11.6463
大計	-11.6463
無為而	-11.6463
致堂	-11.6463
駢	-11.6464
真徳秀	-11.6465
懾	-11.6465
傚	-11.6466
隠微	-11.6467
君師	-11.6467
可不戒哉	-11.6467
謝顯道	-11.6467
萬乗	-11.6468
杭	-11.6468
可憂	-11.6469
月朔	-11.6469
鳯凰	-11.6469
絜	-11.647
京兆	-11.647
峽	-11.6471
玉藻	-11.6471
趙盾	-11.6472
只去	-11.6472
夾雜	-11.6473
於此處	-11.6473
無益也	-11.6474
三十日	-11.6474
不善則	-11.6477
威武	-11.6478
在學者	-11.6478
至道	-11.6478
宋朝	-11.6479
不苟	-11.648
受學	-11.6482
李靖	-11.6482
其本則	-11.6482
州長	-11.6484
囯	-11.6485
車駕	-11.6486
煩擾	-11.6486
謝氏曰	-11.6486
東晉	-11.6487
以己意	-11.6488
書於	-11.6489
子罕	-11.649
晦叔	-11.6491
說文	-11.6493
以天下之	-11.6495
筋	-11.6495
變風	-11.6496
甚微	-11.6499
多見	-11.65
莫不各有	-11.6502
油	-11.6503
肆其	-11.6504
合義	-11.6505
之所欲	-11.6505
過揲	-11.6507
孰謂	-11.6507
師旅	-11.6509
同列	-11.6511
未曽	-11.6511
合諸侯	-11.6511
循序	-11.6514
行師	-11.6517
富有	-11.6518
賤者	-11.6519
皆同	-11.6519
之勤	-11.652
别為一	-11.6522
竊疑	-11.6524
明鏡	-11.6526
臣以為	-11.6529
流離	-11.653
矣若夫	-11.653
厯數	-11.6531
里克	-11.6531
王荆公	-11.6534
隋唐	-11.6539
君相	-11.654
閏月	-11.6541
詩小雅	-11.6541
戒謹	-11.6541
怡	-11.6541
虚静	-11.6542
樂於	-11.6543
必本於	-11.6543
三者皆	-11.6543
無憾	-11.6544
前章	-11.6545
無物不	-11.6548
所動	-11.6548
與萬物	-11.6548
官之長	-11.6551
嚴肅	-11.6551
中丞	-11.6551
不果	-11.6551
忠誠	-11.6552
顏	-11.6553
可據	-11.6555
所從出	-11.6556
所害	-11.6558
柔弱	-11.6558
卦辭	-11.6559
至治	-11.656
要領	-11.6562
一石	-11.6562
責難	-11.6563
二氣五行	-11.6564
夫子之道	-11.6564
第八	-11.6566
鄭人	-11.6567
閘	-11.6568
者能之	-11.6569
不敢忘	-11.6569
輪迴	-11.6569
路頭	-11.6571
不設	-11.6572
庶乎其	-11.6572
數十萬	-11.6572
攷之	-11.6572
使不得	-11.6573
又說	-11.6574
深戒	-11.6575
以證	-11.6575
啼	-11.6576
㝡	-11.6576
爪	-11.6577
俘	-11.6577
岱	-11.6577
鄭康成注曰	-11.6578
痛癢	-11.6578
知其性	-11.6579
事親從兄	-11.6579
吐蕃	-11.6579
扣	-11.658
無所見	-11.6581
謔	-11.6581
以食	-11.6581
粱	-11.6581
譁	-11.6582
貉	-11.6583
塔	-11.6583
矣葢	-11.6583
覊	-11.6584
皎	-11.6584
邪心	-11.6584
黯	-11.6585
師氏	-11.6587
荼	-11.6587
近思錄	-11.6587
白馬	-11.6588
乃可以	-11.6588
重複	-11.6589
取友	-11.6589
漢光武	-11.659
甯	-11.6591
暴虐	-11.6594
初爻	-11.6594
死後	-11.6596
放之	-11.6596
下流	-11.6597
查滓	-11.6597
羽翼	-11.66
幽厲	-11.66
形器	-11.6605
儒術	-11.6606
多識	-11.6606
國公	-11.6608
不可只	-11.6609
止息	-11.6609
而重	-11.6609
形色	-11.6609
覺悟	-11.661
治矣	-11.6612
之律	-11.6612
太多	-11.6614
朝士	-11.6618
慎之	-11.6619
出於此	-11.6619
與叔	-11.662
公穀	-11.6621
至周	-11.6621
有慶	-11.6622
聖道	-11.6623
祖先	-11.6623
康子	-11.6623
入見	-11.6624
者唯	-11.6624
可謂能	-11.6626
竊以為	-11.6628
豈但	-11.6628
老佛	-11.6629
周王	-11.6629
六鄉	-11.663
鎮江	-11.663
太保	-11.6633
矣是以	-11.6634
上下交	-11.6634
成象	-11.6635
晉陽	-11.6635
扵是	-11.6637
不失其正	-11.6637
偏處	-11.6638
以處之	-11.6638
無恥	-11.6638
私恩	-11.6639
推去	-11.6641
何也曰此	-11.6642
勸勉	-11.6643
福禄	-11.6644
倍於	-11.6645
未足以	-11.6646
甚髙	-11.6648
其所長	-11.665
而東	-11.665
魂氣	-11.6656
周子曰	-11.6657
之速	-11.666
九章	-11.6661
為大夫	-11.6662
怵惕	-11.6666
禹曰	-11.6667
更加	-11.6667
力役	-11.6668
心之所發	-11.6669
元后	-11.667
翕然	-11.6673
太息	-11.6676
父命	-11.6678
不破	-11.6681
自漢	-11.6682
之義答	-11.6683
佛氏之	-11.6684
云何	-11.6685
厨	-11.6688
倪	-11.6689
鬚	-11.6692
鍊	-11.6692
祖述	-11.6693
其妙	-11.6693
曵	-11.6693
臨安	-11.6693
軍國	-11.6694
而求其	-11.6694
大司樂	-11.6695
嘏	-11.6695
湮	-11.6696
涵飬	-11.6696
未動	-11.6697
徳音	-11.6698
下堂	-11.6698
治亂之	-11.6698
致知力行	-11.6699
希夷	-11.6699
口耳	-11.6699
侑	-11.67
虎豹	-11.6701
移易	-11.6701
遜志	-11.6701
氣運	-11.6701
酈	-11.6706
輕清	-11.6707
助祭	-11.6707
皆通	-11.6708
經制	-11.6708
縱欲	-11.6709
設施	-11.671
之奥	-11.671
終之以	-11.671
克艱	-11.6712
白沙	-11.6713
趙髙	-11.6713
大患	-11.6718
掌之	-11.672
渾厚	-11.6722
不容己	-11.6722
王佐	-11.6722
自秦	-11.6723
者不必	-11.6727
者衆矣	-11.6728
春生	-11.6729
自幼	-11.673
曽孫	-11.6732
下章	-11.6733
韓非	-11.6735
欣然	-11.6735
成章	-11.6737
指示	-11.6738
於天地之間	-11.6742
不放	-11.6744
正己	-11.6745
隂生	-11.6745
渾全	-11.6745
尤難	-11.675
不復有	-11.6754
在西	-11.6754
兩邊	-11.6756
配之	-11.6757
求利	-11.6758
是也然	-11.6758
騐之	-11.6759
嚴父	-11.6759
縱使	-11.6763
以財	-11.6763
因物	-11.6763
延年	-11.6764
至哉	-11.6764
古註	-11.6764
尋討	-11.6764
不可不謹	-11.6765
以為不可	-11.6766
憂勤	-11.6767
有犯	-11.677
異哉	-11.677
所寓	-11.6772
傳聞	-11.6774
受福	-11.6774
如堯舜	-11.6776
制為	-11.6777
皆足以	-11.6779
當死	-11.6781
累世	-11.6784
可以爲	-11.6784
有此意	-11.6784
大端	-11.6786
精誠	-11.6788
新書	-11.6788
奉上	-11.6792
良民	-11.6795
居室	-11.6796
又加	-11.6796
平平	-11.6797
事迹	-11.6798
轉相	-11.6799
鶉	-11.6799
稱帝	-11.6799
黔	-11.6801
之陋	-11.6801
錮	-11.6802
紘	-11.6802
達于	-11.6804
這邊	-11.6805
萬物皆備於我	-11.6805
炊	-11.6805
無虞	-11.6805
煮	-11.6806
缶	-11.6807
糟粕	-11.6807
棊	-11.6809
盂	-11.681
倐	-11.681
便㑹	-11.681
日月至焉	-11.6811
爾若	-11.6811
隋文帝	-11.6812
舂	-11.6812
理一而分殊	-11.6812
之謬	-11.6812
姒	-11.6812
緝熙	-11.6812
利有攸往	-11.6813
僑	-11.6813
瞞	-11.6813
亂亡	-11.6814
易簀	-11.6814
不遠	-11.6815
熙寧	-11.6815
二十而	-11.6816
涓	-11.6816
檀	-11.6818
其俗	-11.682
十二辰	-11.682
騂	-11.682
玉帛	-11.6822
此其所以為	-11.6824
使人知	-11.6824
民用	-11.6824
日出	-11.6825
形化	-11.6826
田宅	-11.6827
葢亦	-11.6827
天地生物	-11.6828
著為	-11.6828
知其必	-11.683
序卦	-11.6831
量力	-11.6831
曲禮曰	-11.6832
敬長	-11.6834
酷吏	-11.6834
賴之	-11.6835
伊川言	-11.6836
亦是此意	-11.6837
之節文	-11.684
字便是	-11.6841
非我	-11.6841
所失	-11.6841
只據	-11.6843
師儒	-11.6844
道術	-11.6844
這裡	-11.6844
吕伯恭	-11.6845
者有之	-11.6845
大宗伯	-11.6848
爲學	-11.6848
難看	-11.6854
詩賦	-11.6863
大學衍義卷	-11.6865
不眀	-11.6866
説仁	-11.6872
才徳	-11.6872
雖殊	-11.6873
此叚	-11.6875
細微	-11.6877
所聚	-11.6877
得此理	-11.6877
五十四	-11.6878
稷契	-11.6881
諭之曰	-11.6883
百神	-11.6884
者天地之	-11.6884
盡了	-11.6886
無所為而	-11.6889
偏言	-11.689
文中子曰	-11.689
言我	-11.6891
屬乎	-11.6892
動動	-11.6893
風動	-11.6894
先要	-11.6894
甚分明	-11.6895
轉而	-11.6899
推究	-11.6899
任用	-11.6899
故先王	-11.6906
之大法	-11.6908
互相發	-11.6911
當國	-11.6912
東門	-11.6914
安仁	-11.6915
又且	-11.6918
藏諸用	-11.6919
仁民愛物	-11.6922
不倚	-11.6922
自解	-11.6922
之人也	-11.6922
改易	-11.6922
所能及	-11.6924
如天之	-11.6926
欹	-11.6926
遙	-11.6927
不掩	-11.6927
王侯	-11.6927
蒼蒼	-11.6928
閹	-11.6928
護	-11.6928
盤庚	-11.6928
之性也	-11.6929
輓	-11.6929
讙	-11.6929
彷彿	-11.6929
啖	-11.693
師長	-11.693
嘯	-11.693
顒	-11.6931
兵車	-11.6932
句讀	-11.6932
亦未為	-11.6932
各當其	-11.6932
塊	-11.6933
臆度	-11.6933
固宜	-11.6935
相持	-11.6935
不湏	-11.6936
嘉靖	-11.6936
暴慢	-11.6937
大法	-11.6937
所措	-11.6938
貪多	-11.6938
戚戚	-11.6938
亦不為	-11.6939
於日用	-11.694
學識	-11.694
驕奢	-11.6941
安土	-11.6941
變宫	-11.6941
鑄錢	-11.6942
看過	-11.6942
吾言	-11.6942
用力處	-11.6944
楊龜山	-11.6945
百僚	-11.6945
彭城	-11.6946
公議	-11.6947
郊社	-11.6947
西向	-11.6947
得分明	-11.6948
轉運使	-11.6948
優柔	-11.6953
兩頭	-11.6954
至貴	-11.6956
崇尚	-11.6956
將士	-11.6957
而不以	-11.6957
不管	-11.6959
形狀	-11.696
因云	-11.696
時政	-11.6964
不可窮	-11.6965
邾子	-11.6965
根源	-11.6966
者可不	-11.6967
尚賢	-11.6969
神武	-11.6974
明察	-11.6978
唯恐	-11.698
其事而	-11.6982
只怕	-11.6984
豈不可	-11.6988
接人	-11.6988
七政	-11.6988
九欽定四庫全書	-11.6989
又以為	-11.6989
不俟	-11.6992
都説	-11.6993
分而言之	-11.6993
宴安	-11.6996
正謂此也	-11.6998
天之氣	-11.6998
問横渠	-11.6998
所恃	-11.7
亦不可不	-11.7002
興廢	-11.7003
説破	-11.7005
共工	-11.7006
象傳	-11.7009
為公	-11.701
極力	-11.7011
蒼生	-11.7011
反側	-11.7011
外靣	-11.7017
有素	-11.7018
其實則	-11.7018
若之何	-11.7018
咸曰言	-11.7019
官守	-11.702
了這	-11.7021
遂至於	-11.7021
賦斂	-11.7024
木火	-11.7025
可推	-11.7026
長官	-11.7027
所以待	-11.7027
惺惺	-11.7028
知我	-11.703
水火之	-11.7033
居䘮	-11.7033
因之以	-11.7036
儉約	-11.7037
其室	-11.7038
前賢	-11.7041
以義起	-11.7041
堯舜禹	-11.7041
向使	-11.7041
而後得	-11.7042
良知良能	-11.7043
孟子說	-11.7043
利病	-11.7044
黄氏	-11.7044
吉㓙	-11.7045
悞	-11.7045
講筵	-11.7045
心廣體胖	-11.7046
孔子之道	-11.7046
賦役	-11.7046
只是氣	-11.7046
名器	-11.7046
一遍	-11.7047
将來	-11.7047
傅說	-11.7048
行路	-11.7049
天地之所以	-11.7049
而哭	-11.705
燮	-11.705
葵	-11.705
也且夫	-11.7052
唾	-11.7052
昭帝	-11.7052
揆之	-11.7053
亦足	-11.7053
梏亡	-11.7053
先之以	-11.7054
箠	-11.7056
儔	-11.7056
雌	-11.7056
包四者	-11.7058
知新	-11.7058
欲學者	-11.7059
太蔟	-11.7059
上大夫	-11.706
大學中庸	-11.706
未㡬	-11.706
祥瑞	-11.7061
㽔賔	-11.7061
無些子	-11.7062
卷五	-11.7062
時務	-11.7064
可移	-11.7065
而降	-11.7066
最重	-11.7067
建成	-11.7068
朔方	-11.7068
書稱	-11.7069
三司	-11.7072
漢志	-11.7072
而為言	-11.7072
一人之身	-11.7075
大宰	-11.7077
兩手	-11.7078
九州之	-11.7078
不蔽	-11.7079
饋食	-11.7079
霜露	-11.7079
自家心	-11.7079
此數句	-11.708
夫婦之道	-11.708
黙契	-11.708
奸邪	-11.708
而守之	-11.7081
季路	-11.7083
大任	-11.7084
殺戮	-11.7085
便不得	-11.7085
兩段	-11.7085
也書曰	-11.7087
酒肉	-11.7087
豈止	-11.7087
兖	-11.7089
以祀	-11.709
山海	-11.7091
田租	-11.7091
求福	-11.7093
也夫以	-11.7094
養士	-11.7094
顧謂	-11.7095
窺見	-11.7096
聖人之徳	-11.7097
霸者	-11.7098
不同耳	-11.7099
七國	-11.71
農民	-11.7101
之喻	-11.7101
為學者	-11.7102
太極者	-11.7102
動中	-11.7104
所以告	-11.7104
所治	-11.7104
可疑者	-11.7106
能改	-11.7112
性猶	-11.7113
不謀	-11.7113
中大夫	-11.7117
此三句	-11.712
公正	-11.7122
庶人之	-11.7122
在是矣	-11.7124
不急	-11.7124
一縣	-11.7129
䘮服	-11.7129
慶父	-11.7129
所不見	-11.713
不勞	-11.713
弗克	-11.7131
離散	-11.7131
不戰	-11.7131
首言	-11.7131
革命	-11.7131
合當如此	-11.7133
定國	-11.7133
天理之公	-11.7135
古來	-11.7135
積習	-11.7135
春分	-11.7136
官名	-11.714
二萬	-11.7141
不寧	-11.7142
教學	-11.7143
之緒	-11.7145
極盛	-11.7146
之賢否	-11.7147
夫子所謂	-11.7149
好看	-11.7149
晁	-11.7149
未見得	-11.7151
賢人君子	-11.7152
字訓	-11.7152
辨論	-11.7153
人為之	-11.7154
文采	-11.7154
老子曰	-11.7154
窮民	-11.7155
斫	-11.7155
爲主	-11.7155
徭役	-11.7156
骸	-11.7156
隂隂	-11.7156
孟子云	-11.7158
皇子	-11.7158
顯諸仁	-11.7159
意必固我	-11.7159
卦象	-11.7159
利心	-11.716
胡寅曰	-11.716
徭	-11.716
粮	-11.7162
峙	-11.7163
二十八宿	-11.7163
暁	-11.7164
顥	-11.7165
霑	-11.7165
勿忘	-11.7167
有虞氏	-11.7168
譬喻	-11.7168
霽	-11.7168
禁軍	-11.7168
從容中道	-11.7169
百餘人	-11.7169
芟	-11.7169
虎狼	-11.7169
感物而動	-11.717
默	-11.717
懌	-11.7171
才髙	-11.7171
餘皆	-11.7171
曺	-11.7171
鹹	-11.7172
慷慨	-11.7172
斧斤	-11.7172
礿	-11.7173
有所不能	-11.7173
醯	-11.7173
童䝉	-11.7174
究竟	-11.7175
已久	-11.7175
風行	-11.7176
歌詠	-11.7176
忠愛	-11.7176
騶	-11.7177
事神	-11.7178
一聲	-11.7179
少長	-11.718
紹興府	-11.718
燦然	-11.7181
實見得	-11.7181
敷奏	-11.7181
叨	-11.7182
差錯	-11.7183
倒了	-11.7184
緜	-11.7186
不禁	-11.7188
祊	-11.7188
靈臺	-11.7189
觀此則	-11.719
紹聖	-11.719
新安	-11.7192
原憲	-11.7196
何得	-11.7197
六人	-11.7198
薦舉	-11.7199
五十年	-11.7201
晉楚	-11.7203
便是性	-11.7206
在那	-11.7207
吕后	-11.7208
做甚	-11.7208
燭理	-11.7211
數條	-11.7212
有遺	-11.7213
年五十	-11.7213
之候	-11.7215
阼階	-11.7216
惑人	-11.7217
遵守	-11.7219
邦家	-11.7222
而不至於	-11.7222
權勢	-11.7222
自西	-11.7222
意氣	-11.7228
求所以	-11.7232
箇甚	-11.7233
盡言	-11.7233
常事	-11.7233
不慮	-11.7234
非法	-11.7235
暴亂	-11.7236
理理	-11.7236
妄言	-11.7237
論治	-11.7238
遂行	-11.7238
鄉射	-11.7241
僧道	-11.7242
仁義之心	-11.7242
無有不善	-11.7242
行父	-11.7243
可貴	-11.7243
虞人	-11.7244
入徳	-11.7246
八人	-11.7247
同意	-11.7248
好禮	-11.7248
二寸	-11.7248
十有二月	-11.7254
青州	-11.7257
王國	-11.7257
放縱	-11.7258
恰好處	-11.7258
㑹于	-11.7259
而不通	-11.7263
存神	-11.7265
人與物	-11.7267
罕言	-11.7269
流言	-11.727
觀感	-11.7272
視朝	-11.7272
是則所謂	-11.7273
應之曰	-11.7273
克復	-11.7274
耳豈	-11.7277
令名	-11.7278
闈	-11.7278
簋	-11.7279
如公	-11.7281
切至	-11.7281
映	-11.7281
未熟	-11.7282
喫飯	-11.7283
允執厥中	-11.7284
學而時習之	-11.7284
酋	-11.7284
吳澂曰	-11.7284
軋	-11.7285
怵	-11.7285
無赦	-11.7285
民之力	-11.7286
無以加	-11.7287
命婦	-11.7287
旡	-11.7288
有不可勝言者	-11.7288
蜂	-11.7288
藐	-11.7289
東郭	-11.7289
敬之問	-11.7289
舊習	-11.729
麟趾	-11.729
盲	-11.729
游定夫	-11.729
詬	-11.729
穡	-11.729
平章	-11.7291
父子之親	-11.7291
徙義	-11.7291
以禦	-11.7292
聞人	-11.7292
廉恥	-11.7292
港	-11.7293
講官	-11.7293
束帛	-11.7294
不能以自	-11.7294
諷誦	-11.7296
不相應	-11.7297
嘉定	-11.7299
可與言	-11.7299
九百	-11.7299
悔過	-11.7301
射御	-11.7302
軍民	-11.7303
夾室	-11.7303
頗有	-11.7305
者氣之	-11.7308
仁人心也	-11.7309
又不是	-11.7309
向外	-11.731
司馬氏	-11.7311
何疑	-11.7312
擬議	-11.7319
仲由	-11.732
特立	-11.7321
小吏	-11.7321
夏侯	-11.7321
六畫	-11.7322
安用	-11.7323
中霤	-11.7323
氏掌	-11.7324
哀哉	-11.7325
史稱	-11.7328
祖禰	-11.7329
積善	-11.7331
親屬	-11.7331
重輕	-11.7333
各因其	-11.7335
尊君	-11.7336
張皇	-11.7337
道士	-11.7337
横渠先生	-11.7338
推出	-11.7339
團	-11.7341
聖君	-11.7341
長孫	-11.7342
已生	-11.7344
講武	-11.7344
民食	-11.7345
表記	-11.7345
論語孟子	-11.7346
貧窮	-11.7347
尊嚴	-11.735
河間	-11.7353
深山	-11.7353
為火	-11.7353
長乆	-11.7353
可比	-11.7354
者豈非	-11.7354
而不變	-11.7356
不可亂	-11.7356
乗馬	-11.7357
上下皆	-11.736
就下	-11.7361
黨正	-11.7361
從父	-11.7362
正經	-11.7367
齊家治國平天下	-11.7367
貫通處	-11.7369
所以勸	-11.7369
進取	-11.7369
發用	-11.7369
親其親	-11.737
大丈夫	-11.737
此篇言	-11.737
東征	-11.7375
象天	-11.7375
先生答	-11.7377
廢置	-11.7377
輔導	-11.7377
方成	-11.7378
從古	-11.7379
吾友	-11.7379
寛仁	-11.7379
爲政	-11.7381
勢利	-11.7381
南升	-11.7383
聖人之教	-11.7383
不辜	-11.7386
周公孔子	-11.7386
焉蓋	-11.7387
君臣相	-11.7387
文仲	-11.739
淫亂	-11.7393
以其有	-11.7395
胥吏	-11.7395
賢相	-11.7397
川流	-11.7398
三月不違	-11.7398
舉賢	-11.7399
得其人則	-11.74
忠良	-11.7402
衿	-11.7403
山河	-11.7403
旁通	-11.7404
恍惚	-11.7405
方慤曰	-11.7405
示人以	-11.7407
當否	-11.7407
昇	-11.7408
沸	-11.7409
球	-11.7409
叠	-11.741
紗	-11.741
大禹謨	-11.741
猶云	-11.7411
湍	-11.7412
穰	-11.7412
非禮勿視聽言動	-11.7412
黻	-11.7412
形骸	-11.7413
月恭校上總	-11.7413
綵	-11.7414
未逺	-11.7414
犧牲	-11.7415
廓然大公	-11.7416
粤	-11.7416
祼	-11.7416
相視	-11.7416
之所自	-11.7417
渥	-11.7418
夜半	-11.7418
寤寐	-11.7418
胡安定	-11.7419
粢盛	-11.7419
不可解	-11.742
福建	-11.742
無狀	-11.7421
粘	-11.7421
深長	-11.7423
到極處	-11.7424
皇甫	-11.7425
䘮祭	-11.7425
天下之達道	-11.7426
髙注	-11.7426
彗	-11.7427
常惺惺	-11.7429
考課	-11.7431
自勉	-11.7431
有一物	-11.7432
有寵	-11.7432
止水	-11.7433
烏可	-11.7435
防閑	-11.7436
氣清	-11.7437
輔翼	-11.7437
左氏載	-11.7438
響應	-11.7438
宋仁宗	-11.7438
是實理	-11.7439
之旨	-11.7439
周衰	-11.7439
懸絶	-11.7442
放此	-11.7443
之可言	-11.7443
兩軍	-11.7443
理之自然	-11.7444
譬猶	-11.7444
敬宗	-11.7446
雖不能	-11.7446
正朝廷	-11.7448
視民	-11.7449
㡬何	-11.7449
江海	-11.745
使天下之人	-11.7452
游氏	-11.7453
相保	-11.7454
事事皆	-11.7454
以言乎	-11.7456
者其惟	-11.7458
近代	-11.746
祫祭	-11.746
職掌	-11.746
聖人之事	-11.7461
朱子語類卷一百	-11.7462
是月也	-11.7462
謝上蔡	-11.7462
士庶	-11.7465
如今之	-11.7465
哉蓋	-11.7466
放逸	-11.7466
各盡其	-11.7466
家道	-11.7467
愛子	-11.7468
高帝	-11.747
焉葢	-11.7472
入室	-11.7473
孔子稱	-11.7478
朝廷之上	-11.748
矣或曰	-11.7481
文藝	-11.7482
效驗	-11.7486
豈有不	-11.7486
非人力	-11.7487
相聚	-11.7488
非禮之	-11.7488
各自為	-11.7488
欽夫	-11.7489
愚不肖	-11.749
至重	-11.7491
子張問	-11.7495
節義	-11.7495
是一理	-11.7496
莫得	-11.7497
己見	-11.75
頓放	-11.7501
輕易	-11.7502
無涯	-11.7503
藏書	-11.7504
理無不	-11.7504
非不知	-11.751
逺慮	-11.7512
所以示	-11.7512
吉象曰	-11.7513
德業	-11.7513
帝命	-11.7516
廟中	-11.7517
古者天子	-11.7517
相成	-11.7518
諸大夫	-11.7518
斥之	-11.7519
元經	-11.752
其儀	-11.752
主於敬	-11.7522
有國者	-11.7522
之嫌	-11.7525
用九	-11.7527
天之生	-11.7527
其所欲	-11.7527
讞	-11.7528
能受	-11.7531
清廟	-11.7531
兢	-11.7532
莫有	-11.7532
㢲	-11.7532
為一體	-11.7533
𠂻	-11.7533
臧文仲	-11.7534
宼	-11.7535
誄	-11.7535
栁下惠	-11.7535
輻	-11.7536
查	-11.7536
其誰	-11.7536
恂	-11.7536
是以聖人	-11.7537
得之則	-11.7537
緇衣	-11.7537
根柢	-11.7538
臣愚	-11.7538
繩墨	-11.7538
吉士	-11.7538
自漢以來	-11.7538
廐	-11.7539
分之一	-11.7539
者至矣	-11.7539
墳墓	-11.754
腎	-11.754
斟	-11.754
螟	-11.754
㸑	-11.7541
天下之善	-11.7541
挹	-11.7541
惰慢	-11.7542
閭巷	-11.7542
跨	-11.7543
中人以下	-11.7545
汶	-11.7545
離騷	-11.7545
生息	-11.7547
觶	-11.7547
太牢	-11.7548
駁雜	-11.7548
生財	-11.7548
最後	-11.7549
巨細	-11.7549
青苗	-11.755
淪於	-11.755
無一息之	-11.7552
從兄	-11.7552
陳氏曰	-11.7553
嫌疑	-11.7554
人之生也	-11.7555
郈	-11.7555
宮室	-11.7555
到這	-11.7556
篡	-11.7556
他物	-11.7556
只理㑹	-11.7557
凝結	-11.7557
諸侯王	-11.7558
參天地	-11.7558
潛心	-11.7558
從善	-11.756
了更	-11.7561
解得	-11.7562
資禀	-11.7562
終焉	-11.7563
張栻	-11.7564
尊尊	-11.7565
至靈	-11.7565
年少	-11.7565
發出来	-11.7566
嗜好	-11.7567
陸子	-11.7571
遠矣	-11.7572
於一時	-11.7572
不出此	-11.7573
之常也	-11.7573
集釋	-11.7574
為人師	-11.7575
居家	-11.7577
為去聲	-11.7577
用舍	-11.7578
保甲	-11.7578
終吉	-11.7579
何縁	-11.7579
數十人	-11.7579
刻薄	-11.7579
淫祀	-11.7579
或因	-11.758
其用則	-11.7581
者寡矣	-11.7581
問顔子	-11.7581
盡廢	-11.7581
臣竊以為	-11.7582
一廟	-11.7583
金銀	-11.7583
經籍	-11.7583
説卦	-11.7584
宰臣	-11.7585
所編	-11.7586
本軍	-11.7587
羣生	-11.7587
集注云	-11.7587
之難也	-11.7588
畫八卦	-11.7589
告之曰	-11.7591
也木訥曰	-11.7591
畫一	-11.7591
儒者之	-11.7593
銘曰	-11.7594
古之聖賢	-11.7594
曹參	-11.7595
心迹	-11.7596
不得其死	-11.76
而不受	-11.76
説者謂	-11.76
禍敗	-11.7603
而食之	-11.7603
於郊	-11.7603
仍舊	-11.7608
孰是	-11.7608
情欲	-11.7616
東周	-11.7616
傳道	-11.7617
典樂	-11.7618
死而不	-11.7619
有取焉	-11.7622
▁年	-11.7625
墨氏	-11.7629
萬物之情	-11.7629
獨能	-11.7629
方做得	-11.763
元元	-11.7631
所見者	-11.7631
誠字	-11.7631
從那	-11.7632
儒家	-11.7635
無處不	-11.7635
解釋	-11.7637
司馬法	-11.7638
詳盡	-11.7641
將死	-11.7646
不矜	-11.7646
甚少	-11.7646
幞頭	-11.7649
漿	-11.765
甚焉	-11.765
定理	-11.7652
國祚	-11.7652
著心	-11.7654
不可過	-11.7655
司馬温公	-11.7655
性相近	-11.7657
立人之道曰仁與義	-11.7659
虹	-11.7659
戰于	-11.766
參伍	-11.766
盡乎	-11.7662
布置	-11.7662
孟子道性善	-11.7663
縝宻	-11.7663
之效也	-11.7663
移風易俗	-11.7664
校尉	-11.7664
榆	-11.7664
千年	-11.7664
舉行	-11.7664
滔滔	-11.7665
悪	-11.7665
於庭	-11.7666
臼	-11.7666
拍	-11.7666
建炎	-11.7667
匹夫匹婦	-11.7667
蟬	-11.7667
子静	-11.7667
所以養其	-11.7668
仕進	-11.7669
愷	-11.7672
讜	-11.7673
標凖	-11.7673
嘘	-11.7674
五家	-11.7675
勸懲	-11.7675
母弟	-11.7675
以定其	-11.7675
曹氏	-11.7676
坎艮	-11.7678
唐鑑	-11.7679
辟雍	-11.7679
臣愚以為	-11.7679
我獨	-11.768
也傳曰	-11.768
皇太后	-11.7682
諸己	-11.7682
康侯	-11.7683
性性	-11.7684
孚信	-11.7685
懐王	-11.7686
叔京	-11.7687
令民	-11.7687
非有所	-11.7688
小成	-11.7689
明徳新民	-11.769
讀其書	-11.769
廵守	-11.769
擇地	-11.7692
細密	-11.7694
家廟	-11.7696
太極圖説	-11.7696
所敢	-11.7697
之有無	-11.7699
而告之	-11.77
氣盛	-11.77
二家	-11.7701
差異	-11.7701
五霸	-11.7702
不自覺	-11.7703
合理	-11.7704
多事	-11.7705
盈虚	-11.7705
禍患	-11.7707
末世	-11.7709
夫子告	-11.7709
而命之	-11.7709
謀及	-11.7711
仲春	-11.7712
泛然	-11.7713
各自有	-11.7714
不勞而	-11.7714
天下之勢	-11.7719
目録	-11.7719
天之道也	-11.7719
風雲	-11.7722
賦税	-11.7722
却須	-11.7722
兵器	-11.7726
他求	-11.773
博愛	-11.7731
舉兵	-11.7732
立定	-11.7732
奉承	-11.7735
而處之	-11.7735
有愧	-11.7735
半年	-11.7736
隨人	-11.7737
大順	-11.7738
變詐	-11.7738
安靜	-11.774
有餘力	-11.7741
孰有	-11.7742
無是理	-11.7744
細事	-11.7744
范祖禹曰	-11.7744
分為二	-11.7748
之為義	-11.7748
耶抑	-11.7749
之淺深	-11.7749
賦予	-11.775
殷人	-11.7751
有大功	-11.7753
哀帝	-11.7753
只合	-11.7754
將兵	-11.7754
崇禮	-11.7756
古訓	-11.7759
三萬里	-11.776
才智	-11.776
洗心	-11.7762
篤於	-11.7762
寺人	-11.7763
不諱	-11.7764
要須	-11.7766
富國	-11.7768
冨貴	-11.777
母喪	-11.777
郭氏	-11.7771
侯氏	-11.7773
祭先	-11.7775
張湯	-11.7775
扵此	-11.7775
御纂朱子全書	-11.7778
其始也	-11.7778
一箇心	-11.778
爲善	-11.7781
帨	-11.7781
閨	-11.7782
書傳	-11.7786
鰥寡孤獨	-11.7787
罄	-11.7787
不誠則	-11.7787
封疆	-11.7787
濂	-11.7788
七十里	-11.7788
君子之於	-11.7788
安世	-11.7788
寛厚	-11.7789
伯夷叔齊	-11.7789
一箇人	-11.7789
不粥於市	-11.7789
武王伐紂	-11.7791
欲罷不能	-11.7791
趙簡子	-11.7791
彝	-11.7791
嗜慾	-11.7791
梟	-11.7792
皂	-11.7792
西山真氏曰	-11.7792
不可不察	-11.7792
不獲其身	-11.7793
海水	-11.7793
樞宻	-11.7794
知至至之	-11.7794
灑掃應對	-11.7794
隸	-11.7796
芸	-11.7796
欠缺	-11.7796
鎰	-11.7797
墠	-11.7797
誹謗	-11.7797
老聃	-11.7797
犂	-11.7798
厠	-11.7799
驗其	-11.78
赫赫	-11.78
自古及今	-11.7801
而治之	-11.7801
樞機	-11.7802
飛鳥	-11.7802
齊整	-11.7804
泰誓	-11.7805
上下之分	-11.7806
只是一事	-11.7808
四卦	-11.7808
一个	-11.7808
也昔者	-11.7808
一言之	-11.7809
斯可矣	-11.7809
夀皇	-11.7812
政和	-11.7813
詐偽	-11.7813
歲月	-11.7818
愚恐	-11.7818
祭天地	-11.7819
于天子	-11.7821
嚴毅	-11.7822
逐句	-11.7824
尹子	-11.7824
二百四十	-11.7825
於内而	-11.7825
大祥	-11.7826
飽食	-11.7827
先王之制	-11.7827
三十四	-11.7827
禄山	-11.7828
大旱	-11.7829
十二章	-11.783
未精	-11.7832
萬六千	-11.7833
厲公	-11.7833
紙上	-11.7833
典籍	-11.7833
田單	-11.7836
人之一身	-11.7836
紛更	-11.7836
便是他	-11.7836
最切	-11.7837
正獻公	-11.7838
各為一	-11.784
之德也	-11.784
殆非	-11.7842
楚國	-11.7842
正已	-11.7842
只是一箇道理	-11.7843
河陽	-11.7843
不敏	-11.7847
冕服	-11.7847
清談	-11.7847
未合	-11.7848
聖人之所	-11.7849
身之所	-11.785
當年	-11.7851
曰此亦	-11.7856
金木	-11.7859
江州	-11.7859
雖善	-11.786
不専	-11.7861
人物之生	-11.7862
一箇是	-11.7863
嗣位	-11.7865
先世	-11.7869
記録	-11.7874
以中正	-11.7874
無斁	-11.7874
能如是	-11.7881
兩般	-11.7883
為學之道	-11.7884
學者所當	-11.7884
朱子所謂	-11.7884
其小者	-11.7885
之為也	-11.7885
學者多	-11.7886
理義之	-11.7887
豈肯	-11.7888
用法	-11.7891
便可見	-11.7891
治事	-11.7894
可驗	-11.7896
徳教	-11.7896
西河	-11.7897
不智	-11.7898
絶滅	-11.7899
田疇	-11.79
陋巷	-11.7902
何邪	-11.7903
長樂	-11.7904
禮之本	-11.7905
推得	-11.7907
假如	-11.7909
著明	-11.7909
何憂	-11.7912
深察	-11.7913
第一義	-11.7914
心之體	-11.7915
(􁆪/)	-11.7916
均平	-11.7916
聖子神孫	-11.7917
簟	-11.7918
門内	-11.7919
殻	-11.7919
百金	-11.7919
改正	-11.792
釡	-11.7922
姦宄	-11.7922
墉	-11.7922
耒耜	-11.7923
綬	-11.7923
萇	-11.7925
菁	-11.7925
渚	-11.7925
達乎	-11.7925
知覺運動	-11.7926
漂	-11.7926
然其所以	-11.7926
島	-11.7927
失其正	-11.7927
二帝	-11.7927
玷	-11.7928
老母	-11.7929
端倪	-11.793
各正	-11.793
愎	-11.7931
同流	-11.7932
軻	-11.7932
腔子	-11.7933
清淨	-11.7933
中書省	-11.7933
怠荒	-11.7933
法律	-11.7935
甚哉	-11.7935
十倍	-11.7935
房杜	-11.7936
建議	-11.7937
其門人	-11.7938
四者皆	-11.7939
者何也曰	-11.7939
商頌	-11.794
不忒	-11.7941
水心	-11.7941
亦似	-11.7943
無待於	-11.7944
肅肅	-11.7948
把持	-11.795
理宗	-11.7953
無往而不	-11.7954
兄子	-11.7957
動植	-11.7959
一夕	-11.796
后妃之	-11.7962
實録	-11.7963
司馬光曰	-11.7963
章或問	-11.7964
每月	-11.7964
盡心知性	-11.7967
怕人	-11.7968
名物	-11.7968
考妣	-11.7968
名教	-11.7968
必信	-11.7969
服食	-11.797
者甚多	-11.797
注疏	-11.7971
所望	-11.7973
矣孔子曰	-11.7974
虚靈	-11.7975
戎馬	-11.7976
莫只是	-11.7977
天災	-11.7978
惡乎	-11.7979
不忍之心	-11.798
而力行之	-11.7982
不知不覺	-11.7983
者甚衆	-11.7983
蔡沈	-11.7983
正徳	-11.7986
禮畢	-11.7987
靡不	-11.799
持志	-11.7994
保正	-11.7994
後代	-11.7995
與之俱	-11.7999
未必然	-11.8001
子約	-11.8001
伊周	-11.8001
于内	-11.8004
先生之學	-11.8006
千乗	-11.8006
上皇	-11.8011
宋史	-11.8012
萌動	-11.8012
又自有	-11.8013
金陵	-11.8015
相比	-11.8018
胡文定公	-11.8018
朝㑹	-11.8023
可法	-11.8023
右行	-11.8024
向来	-11.8028
混然	-11.8028
是非之心	-11.8029
東山	-11.8031
掩其	-11.8031
失節	-11.8033
則亦何	-11.8036
自為一	-11.804
不可變	-11.8041
有一種	-11.8041
平實	-11.8042
之不齊	-11.8043
感化	-11.8044
繚	-11.8046
奴婢	-11.8048
日月五星	-11.8048
於其君	-11.8048
者必以	-11.8048
瘞	-11.8049
體用一源	-11.8049
樞密	-11.8049
企	-11.805
蔡邕	-11.805
彜	-11.805
娣	-11.8051
檻	-11.8052
摹	-11.8052
榛	-11.8052
秉彛	-11.8052
者以此	-11.8053
禋	-11.8053
聖朝	-11.8053
驂	-11.8053
帽	-11.8053
吏部尚書	-11.8054
施于	-11.8054
訕	-11.8054
細碎	-11.8054
呵	-11.8055
發而中節	-11.8055
儒家類提要	-11.8057
蹟	-11.8057
樽	-11.8057
與天地參	-11.8057
旦晝	-11.8058
克己復禮為仁	-11.8058
脉絡	-11.8059
騁	-11.806
施諸	-11.8063
延夀	-11.8064
四皓	-11.8066
五嵗	-11.8067
足以見	-11.8068
矣臣若水通曰	-11.8069
便把	-11.8071
吏卒	-11.8073
乾健	-11.8074
培養	-11.8074
康成	-11.8074
不足信	-11.8076
惟聖明	-11.8076
召見	-11.8077
成俗	-11.8077
這理	-11.8078
以是知	-11.8079
自卑	-11.8079
茍得	-11.808
其中有	-11.8086
性至孝	-11.8089
隔絶	-11.8089
攻城	-11.8089
中流出	-11.809
州軍	-11.8091
私家	-11.8093
唐初	-11.8096
愚民	-11.81
更張	-11.8101
在當時	-11.8102
平旦	-11.8105
莊老	-11.8106
幾句	-11.8107
安安	-11.8108
庶幾乎	-11.8108
太康	-11.8111
二變	-11.8113
言之耳	-11.8113
朝聘	-11.8116
形於外	-11.812
逸豫	-11.8123
何所不至	-11.8125
父死	-11.8126
既没	-11.8126
在下者	-11.8127
吕刑	-11.8128
不可失	-11.8129
之福也	-11.8132
並同	-11.8133
因其所	-11.8135
推類	-11.8135
財利	-11.8136
何止	-11.8137
不同故	-11.8138
天地萬物之	-11.8142
十有八	-11.8144
上逹	-11.8144
之擾	-11.8146
甚嚴	-11.8147
一元	-11.8147
足以盡	-11.8147
七十五	-11.8148
八尺	-11.8148
不休	-11.8149
同年	-11.8149
矣嗚呼	-11.8151
薄於	-11.8152
衡山	-11.8156
擇焉	-11.8156
有是氣	-11.8157
郡邑	-11.8162
發於外	-11.8162
朱子云	-11.8165
以應之	-11.8167
興作	-11.8168
載物	-11.8169
明日又	-11.8171
以一身	-11.8173
交接	-11.8176
冀州	-11.8177
徹頭徹尾	-11.8177
影響	-11.8177
聰明睿智	-11.8177
不誠無物	-11.8178
鬪	-11.8179
黠	-11.8179
贊化育	-11.8179
秣	-11.818
郊特牲	-11.818
各一其性	-11.818
不怠	-11.8181
屈伸往來	-11.8181
不得其人	-11.8182
天地位萬物育	-11.8182
顙	-11.8183
界分	-11.8183
有迹	-11.8183
養成	-11.8183
零碎	-11.8183
埀	-11.8184
獺	-11.8185
聖賢所	-11.8187
聖帝明王	-11.8187
再見	-11.8188
湧	-11.8188
逄	-11.8189
舘	-11.8189
被其澤	-11.8189
閽	-11.8189
發見處	-11.819
可惡	-11.819
帝嚳	-11.819
加諸	-11.8191
閼	-11.8191
不濫	-11.8191
蒞	-11.8192
於其上	-11.8193
覬	-11.8194
幣帛	-11.8195
䂓	-11.8195
道學之	-11.8195
包含	-11.8195
寗	-11.8196
總名	-11.8198
夀昌	-11.8198
北軍	-11.8199
先生語	-11.82
思誠	-11.8201
彖象	-11.8201
兼用	-11.8203
藹然	-11.8203
上智	-11.8206
大武	-11.8206
君子小人之	-11.8207
觀象	-11.8208
振旅	-11.8209
夾鐘	-11.8209
見得如此	-11.8209
謹按此	-11.821
有不合	-11.821
周勃	-11.8211
神祗	-11.8211
相勝	-11.8213
與之同	-11.8214
告君	-11.8215
反求	-11.8215
喚作	-11.8216
夏五月	-11.822
所任	-11.8222
十有六	-11.8222
亦猶是也	-11.8223
直卿云	-11.8225
財貨	-11.8226
正家	-11.8228
若是其	-11.8229
育萬物	-11.823
别立	-11.8231
凡六	-11.8231
分職	-11.8233
數百人	-11.8233
非仁也	-11.8233
命有司	-11.824
為妻	-11.8244
以為戒	-11.8245
相屬	-11.8245
講説	-11.8246
侵伐	-11.8248
尺二寸	-11.8249
聲氣	-11.825
重厚	-11.825
致治之	-11.8252
他做	-11.8253
武成	-11.8253
弗敢	-11.8253
亦不足	-11.8253
災害	-11.8254
奚齊	-11.8257
隨其所	-11.8264
貫乎	-11.8265
後患	-11.8269
武氏	-11.8274
其本然	-11.8276
並言	-11.8278
遠近	-11.8287
其族	-11.8288
五味	-11.8289
中尉	-11.8289
三十一	-11.829
小白	-11.829
天機	-11.8292
八字	-11.8293
優於	-11.8296
而受之	-11.8299
四十年	-11.8305
也公曰	-11.8307
黨人	-11.8309
驢	-11.831
明誠	-11.831
趨而	-11.8312
泣曰	-11.8313
耶某云	-11.8313
有罪者	-11.8313
几筵	-11.8313
挍	-11.8314
之極致	-11.8316
秪	-11.8316
隗	-11.8316
煑	-11.8317
者幾希	-11.8317
窄	-11.8318
孔穎達	-11.8318
吉凶悔吝	-11.8318
搬	-11.8319
桴	-11.8319
東面	-11.8319
褒姒	-11.832
与	-11.832
漢室	-11.832
佯	-11.8321
糲	-11.8321
纍	-11.8322
紞	-11.8322
孔悝	-11.8323
灑落	-11.8324
歿	-11.8325
開闔	-11.8325
鴟	-11.8325
玊	-11.8325
蒿	-11.8326
甲胄	-11.8327
人人皆	-11.8329
静静	-11.8329
枯槁	-11.8329
尚多	-11.833
名山大川	-11.8331
成化	-11.8333
郕	-11.8333
入廟	-11.8334
十二萬九千六百	-11.8335
譙	-11.8335
富弼	-11.8336
輔弼	-11.8337
天地日月	-11.8337
其蔽	-11.8344
一等人	-11.8345
畏死	-11.8345
三卷	-11.8345
險難	-11.8347
泛泛	-11.8347
萬鍾	-11.8348
相推	-11.835
浮雲	-11.835
之賢者	-11.8352
斷制	-11.8352
年老	-11.8353
雍容	-11.8356
六爻皆	-11.8358
難理㑹	-11.8359
道之體	-11.8359
貞元	-11.836
漳州	-11.836
厯法	-11.8362
當如是	-11.8362
得分曉	-11.8364
晉王	-11.8365
莊王	-11.8368
在兹	-11.8368
仁義中正	-11.8369
孔氏曰	-11.837
多能	-11.8371
至唐	-11.8371
但看	-11.8371
本縣	-11.8371
闕文	-11.8372
躬耕	-11.8372
兩家	-11.8374
太重	-11.8374
安卿	-11.8377
理一也	-11.8378
了那	-11.8379
孫權	-11.838
年月	-11.8381
不能守	-11.8382
疾痛	-11.8383
宴樂	-11.8385
房中	-11.8386
改元	-11.8387
史氏	-11.8387
逃亡	-11.839
論語中	-11.8391
與禽獸	-11.8392
候氣	-11.8395
聖學之	-11.8395
乎然則	-11.8399
未至而	-11.8399
海上	-11.8399
遂其生	-11.8399
茍簡	-11.8402
一世之	-11.8404
文士	-11.8406
博聞	-11.8407
清心	-11.8408
外求	-11.8408
曰也是如此	-11.8408
無傷	-11.841
不以禮	-11.8412
夜間	-11.8414
往見	-11.8415
流水	-11.8415
成萬物	-11.8416
外馳	-11.8416
一塊	-11.8416
是四者	-11.8417
禮讓	-11.8418
世主	-11.8418
承順	-11.8418
随時	-11.8419
有不盡	-11.842
森	-11.8422
秦楚	-11.8424
分而為	-11.8425
季夏	-11.8426
不得入	-11.8429
過差	-11.843
善惡混	-11.8433
清河	-11.8434
刑政	-11.8436
最妙	-11.8436
由此而	-11.8438
繼絶	-11.8438
斷獄	-11.8439
復還	-11.8442
昵	-11.8447
服藥	-11.845
下落	-11.8451
櫝	-11.8452
蹄	-11.8452
學問思辨	-11.8456
氓	-11.8457
床	-11.8457
擠	-11.8457
功德	-11.8458
而不行	-11.8458
椅	-11.8459
叩頭	-11.8459
罅	-11.8459
又何必	-11.8459
茨	-11.8459
理之所	-11.846
蹤	-11.846
将来	-11.846
沂	-11.846
頡	-11.846
騖	-11.846
義例	-11.846
啜	-11.8461
灌溉	-11.8461
扼	-11.8461
巍巍	-11.8461
簡公	-11.8462
拗	-11.8462
閙	-11.8462
詡	-11.8463
二尺	-11.8463
餅	-11.8464
知其不可	-11.8465
飫	-11.8466
既發	-11.8468
折衝	-11.8468
太髙	-11.8469
鄰里	-11.8469
萬三千	-11.847
程夫子	-11.847
歐陽修	-11.847
無以自	-11.8471
茫茫	-11.8471
麻衣	-11.8472
震巽	-11.8474
航	-11.8474
沱	-11.8474
畤	-11.8474
建寅	-11.8475
者以其有	-11.8475
發兵	-11.8477
口腹	-11.8477
釋菜	-11.8479
所司	-11.848
哀毁	-11.8481
朱文公	-11.8481
哀痛	-11.8481
並起	-11.8484
故孔子曰	-11.8487
四牡	-11.8487
提刑	-11.8487
曰善哉	-11.8489
温故	-11.8492
未識	-11.8493
遼東	-11.8494
顔師古曰	-11.8494
趨利	-11.8494
鈔本	-11.8495
不可不慎也	-11.8499
七章	-11.8499
譬則	-11.8499
平淡	-11.8503
佛法	-11.8503
在北	-11.8507
牽制	-11.8508
六朝	-11.8509
刪去	-11.8509
非誠	-11.851
勤苦	-11.8511
發越	-11.8512
衆善	-11.8514
伏惟聖明	-11.8516
聖神	-11.852
致意	-11.8522
調和	-11.8522
失其本心	-11.8524
妻妾	-11.8525
周子所謂	-11.8526
妄行	-11.8528
枉費	-11.8529
之賢而	-11.8529
一槩	-11.853
亦不可以	-11.8531
太極動而生陽	-11.8531
却恐	-11.8531
推尋	-11.8534
猶可以	-11.8534
萬九千	-11.8534
尚能	-11.8536
未著	-11.8537
而不去	-11.8537
是氣之	-11.8537
畏懼	-11.8538
智愚	-11.8539
樂樂	-11.854
周公作	-11.8541
召南	-11.8543
深體	-11.8545
從諫	-11.8546
元不曾	-11.8546
恩澤	-11.8548
以道為	-11.8548
剛明	-11.8548
凖則	-11.8549
葉公	-11.855
保養	-11.8553
祀天	-11.8553
後之人君	-11.8554
覆載	-11.8554
患在	-11.8559
逆天	-11.8561
集說	-11.8563
輕薄	-11.8565
固多	-11.8565
六部	-11.8565
也曹操曰	-11.8565
顯宗	-11.8566
開明	-11.8567
在人者	-11.8568
盛服	-11.8569
七十餘	-11.8571
本卦	-11.8573
樂器	-11.8573
只做得	-11.8573
歸咎	-11.8574
閔子	-11.8575
一日之間	-11.8576
無隱	-11.8576
十章	-11.8579
太白	-11.8579
而不知有	-11.8581
之為道	-11.8584
諍	-11.8585
彤	-11.8585
道夫曰	-11.8586
醬	-11.8587
皓	-11.8587
清聲	-11.8589
未始有	-11.8589
姊妹	-11.859
禮樂射御書數	-11.8591
廬墓	-11.8591
又安能	-11.8592
躬親	-11.8592
千萬世	-11.8594
純粹至善	-11.8594
大喜	-11.8595
標準	-11.8596
豈弟君子	-11.8596
蠅	-11.8597
塋	-11.8597
宋滕珙撰	-11.8597
隄防	-11.8598
禴	-11.8598
淸	-11.8599
昩	-11.86
无咎象曰	-11.86
陌	-11.86
有一定之	-11.8601
侃侃	-11.8601
孟子之意	-11.8602
絢	-11.8602
鷙	-11.8602
二十三年	-11.8603
筆削	-11.8603
古詩	-11.8605
非一端	-11.8605
不遷怒不貳過	-11.8605
忻	-11.8605
麗乎	-11.8606
鉞	-11.8607
昂	-11.8607
訃	-11.8608
䧟溺	-11.8608
難明	-11.8608
昏亂	-11.8608
刄	-11.8608
具備	-11.861
甲寅	-11.8612
甘泉	-11.8612
冇	-11.8613
崇德	-11.8614
歌舞	-11.8615
莫測	-11.8615
今人都	-11.8615
不外乎此	-11.8616
不能容	-11.8617
益甚	-11.8619
己之心	-11.862
西伯	-11.8621
靜時	-11.8622
血氣之	-11.8623
降殺	-11.8625
父子之道	-11.8626
自記年	-11.8629
天變	-11.8629
嗣王	-11.8631
南郊	-11.8631
向裏	-11.8632
荀子曰	-11.8636
衞侯	-11.8636
世婦	-11.8637
浮華	-11.8637
少閒	-11.8644
出扵	-11.8644
毅然	-11.8644
平原	-11.8644
商人	-11.8644
經典	-11.8645
惟君子	-11.8646
極論	-11.8647
七情	-11.865
品物	-11.8651
進歩	-11.8653
乎是故	-11.8653
以齒	-11.8653
未免於	-11.8654
氣盈	-11.8655
將来	-11.8655
可與權	-11.8657
幾箇	-11.8657
詹事	-11.8659
素服	-11.8659
父喪	-11.866
斷然	-11.8662
雲漢	-11.8663
自堯舜	-11.8665
年七十	-11.8669
莫知所	-11.867
之本原	-11.8672
逸樂	-11.8673
愈逺	-11.8675
乘馬	-11.8675
四卷	-11.8676
發端	-11.8676
參考	-11.8677
一團	-11.8681
不能無疑	-11.8682
原頭	-11.8684
錯亂	-11.8684
知性知天	-11.8684
逐物	-11.8686
這般處	-11.8688
亞夫問	-11.8689
復讐	-11.869
截斷	-11.869
一編	-11.8693
豈待	-11.8693
所當止	-11.8695
天之生物	-11.8696
讀大學	-11.8696
死刑	-11.8696
門閭	-11.87
刑殺	-11.8703
家庭	-11.8706
體統	-11.8707
爭利	-11.8708
末章	-11.8708
惠帝	-11.8708
玩好	-11.8709
萬八千	-11.8709
違道	-11.8711
進講	-11.8711
唐虞三代	-11.8713
周南	-11.8714
推誠	-11.8717
安卿問	-11.8717
斯可謂	-11.8725
照臨	-11.8726
萬四千	-11.8728
而無間	-11.8729
學問之道	-11.8729
不敢慢	-11.8729
闋	-11.873
知其然	-11.8731
女樂	-11.8731
晳	-11.8733
藩籬	-11.8733
搔	-11.8733
叔重	-11.8733
婆	-11.8733
栽培	-11.8734
憒	-11.8734
行止	-11.8734
悴	-11.8734
與天為一	-11.8735
之善者	-11.8735
自强不息	-11.8736
周匝	-11.8736
异	-11.8738
讀書須是	-11.8738
啞	-11.8738
慈湖	-11.8738
綠	-11.8739
不亦宜乎	-11.874
旂	-11.874
孝徳	-11.8742
三十餘	-11.8743
既死	-11.8743
狁	-11.8744
匡衡	-11.8745
所以異於	-11.8746
肌膚	-11.8746
昏姻	-11.8747
有好處	-11.8747
李林甫	-11.8747
在何處	-11.8747
驕人	-11.8747
斾	-11.8749
三年之䘮	-11.875
公都子	-11.875
山陵	-11.8751
魯史	-11.8751
於京師	-11.8752
媯	-11.8753
莫甚於	-11.8753
格物窮理	-11.8753
於吾心	-11.8754
臣工	-11.8755
始末	-11.8757
得其要	-11.8758
封爵	-11.8758
心之用	-11.8761
古之所謂	-11.8764
太初	-11.8765
萬端	-11.8766
興衰	-11.8768
功利之	-11.877
卷四	-11.877
有以見	-11.8772
置酒	-11.8776
缺一	-11.8777
惟陛下	-11.8778
制勝	-11.8779
責善	-11.8779
餓死	-11.878
國勢	-11.8781
擾擾	-11.8781
要看	-11.8782
救荒	-11.8783
五嶽	-11.8783
其規模	-11.8783
相錯	-11.8786
載籍	-11.8787
却不曾	-11.8789
私情	-11.8789
愛其親	-11.8792
最要	-11.8794
兵刑	-11.8794
天下萬世	-11.8796
專任	-11.8798
汲汲於	-11.8798
參軍	-11.8799
元初	-11.88
民莫不	-11.8801
子思孟子	-11.8804
平陽	-11.8804
法象	-11.8805
十二篇	-11.8811
増益	-11.8813
禮器	-11.8814
隠居	-11.8817
典刑	-11.882
舊本	-11.8824
如此㸔	-11.8825
破家	-11.8829
執持	-11.8829
和同	-11.8831
不可信	-11.8832
教令	-11.8833
朱氏曰	-11.8833
行己	-11.8833
之態	-11.8838
哭於	-11.8839
恐未必	-11.884
淮南子	-11.884
嵗終	-11.884
之大端	-11.8842
母死	-11.8842
入小學	-11.8842
便自有	-11.8843
躐	-11.8847
八嵗	-11.8848
一事一物	-11.885
所獲	-11.885
隂静	-11.8852
宣宗	-11.8855
南海	-11.8858
循吏	-11.8858
因甚	-11.886
專務	-11.8861
成均	-11.8861
五十五	-11.8862
顧乃	-11.8864
遺風	-11.8866
不遜	-11.8867
一轉	-11.8869
喚醒	-11.887
温和	-11.8871
進徳修業	-11.8872
西山讀書記	-11.8873
仁義禮知	-11.8873
廏	-11.8873
七八九六	-11.8873
棠	-11.8875
菽粟	-11.8875
無禮則	-11.8876
細行	-11.8877
昆蟲	-11.8877
肱	-11.8877
攫	-11.8878
軼	-11.8878
必有事焉而勿正	-11.8878
聰明睿知	-11.8879
覔	-11.888
蔡季通	-11.888
僩	-11.8881
采薇	-11.8881
將亡	-11.8881
真實無妄	-11.8882
窮理盡性以至於命	-11.8882
鳬	-11.8882
動容周旋	-11.8883
諸夏	-11.8883
麒麟	-11.8883
孑	-11.8883
彬	-11.8883
伴	-11.8884
舊見	-11.8884
千八百	-11.8885
愾	-11.8885
川澤	-11.8885
百四十	-11.8885
惟精惟一	-11.8886
臣願	-11.8886
槖	-11.8887
利物	-11.8888
嫚	-11.8889
琰	-11.8889
動而生陽	-11.8889
無所不包	-11.8889
濓	-11.889
制國用	-11.8891
疑似	-11.8891
渾天	-11.8891
富室	-11.8892
狭	-11.8893
自古帝王	-11.8894
御製	-11.8895
一日克己復禮	-11.8896
聦明	-11.8896
翰林院	-11.8896
楚師	-11.8897
咽	-11.8899
只說得	-11.89
好勇	-11.89
哀戚	-11.89
幾時	-11.8901
旬日	-11.8903
斯道之	-11.8907
慶賞	-11.8909
輔國	-11.8909
湏要	-11.8911
飛揚	-11.8911
朕甚	-11.8912
始初	-11.8912
消磨	-11.8912
所存者	-11.8912
喪父	-11.8913
極難	-11.8914
為治者	-11.8914
侯伯	-11.8916
周氏	-11.8917
唐𤣥宗	-11.8917
一嵗之	-11.8917
推而行之	-11.8919
天倫	-11.8921
三桓	-11.8921
嘗考	-11.8923
甚逺	-11.8924
福州	-11.8926
貴貴	-11.8929
名儒	-11.8929
有次第	-11.8934
禄位	-11.8937
無大小	-11.8939
生而知之	-11.894
何如耳	-11.8941
治經	-11.8943
氣魄	-11.8943
無一物之不	-11.8945
底氣象	-11.8946
施之於	-11.8946
聖賢之心	-11.8946
哉臣按	-11.8948
孔頴達曰	-11.8948
真儒	-11.895
閒斷	-11.8951
水水	-11.8954
命之曰	-11.8954
子羔	-11.8957
之途	-11.8958
授之以	-11.8958
直到	-11.896
烝民	-11.8961
不敢當	-11.8961
塞乎天地	-11.8961
兼并	-11.8963
左氏謂	-11.8964
哀公問	-11.8964
狃	-11.8967
老弱	-11.8967
漢祖	-11.8968
有間矣	-11.8969
南極	-11.8973
軍政	-11.8973
昔日	-11.8974
天地隂陽	-11.8977
亦可見矣	-11.8984
可保	-11.8984
張栻曰	-11.8984
使然也	-11.8985
春官	-11.8985
人之為學	-11.8987
漢末	-11.8988
賓主	-11.899
清和	-11.8993
都不曾	-11.8994
不分曉	-11.8994
近侍	-11.8998
不合於	-11.9
此一章	-11.9002
不乏	-11.9003
三代而下	-11.9006
寛平	-11.9007
魯哀公	-11.9007
之徳也	-11.901
安百姓	-11.9013
𣣔	-11.9016
聲名	-11.9017
趕	-11.9018
矣而又	-11.9018
相愛	-11.9018
活潑潑地	-11.9019
荘敬	-11.9019
純隂	-11.902
汁	-11.9021
祉	-11.9021
崇髙	-11.9021
暱	-11.9021
䞇	-11.9021
撙節	-11.9022
箱	-11.9023
癘	-11.9023
中閒	-11.9023
仰觀俯察	-11.9024
携	-11.9024
哈	-11.9024
思念	-11.9025
劈	-11.9025
餐	-11.9025
豺	-11.9025
耒	-11.9025
精氣為物	-11.9025
大扺	-11.9027
戶	-11.9027
澣	-11.9027
愚人	-11.9028
勿忘勿助長	-11.9028
馳騖	-11.9028
無非教也	-11.9029
肘	-11.9029
考諸	-11.9029
洙	-11.9029
謡	-11.9029
萬萬	-11.9029
北溪陳氏曰	-11.9029
購	-11.903
理之所在	-11.903
渺	-11.903
太姒	-11.9032
虞夏	-11.9033
㐮	-11.9033
魯大夫	-11.9033
木石	-11.9035
麋	-11.9035
於此可見	-11.9035
四維	-11.9037
繼之曰	-11.9039
遲遲	-11.904
朝政	-11.904
比年	-11.9043
百揆	-11.9043
尤切	-11.9044
聚歛	-11.9047
細民	-11.9048
天下莫不	-11.905
付與	-11.905
無恙	-11.9052
入宫	-11.9053
非聖人之	-11.9054
賦歛	-11.9059
今之世	-11.906
九百四十	-11.9061
累年	-11.9062
髙氏	-11.9062
行險	-11.9064
温恭	-11.9064
所自出	-11.9068
的意思	-11.9071
少異	-11.9072
祭祀之禮	-11.9072
保合	-11.9075
上表	-11.9076
無後者	-11.9078
而忘其	-11.9079
師法	-11.9079
山隂	-11.9081
非一人	-11.9082
非敢	-11.9084
無忝	-11.9085
何曾	-11.9087
存天理	-11.9089
何休	-11.9089
髙麗	-11.9091
夀考	-11.9091
有諸已	-11.9093
其所見	-11.9095
兵農	-11.9095
徳秀	-11.9095
必湏	-11.9095
條例	-11.9096
姦人	-11.9097
豈可謂	-11.9098
卦體	-11.91
有國家者	-11.9103
世務	-11.9104
今人説	-11.9105
我太祖	-11.911
之邪正	-11.9113
小利	-11.9113
巽順	-11.912
及其既	-11.912
思齊	-11.9123
項王	-11.9127
程張	-11.9127
前知	-11.9127
后稷之	-11.9128
形影	-11.9132
致命	-11.9133
故人君	-11.9134
由是以	-11.9135
之成也	-11.9137
是編	-11.9139
連年	-11.9142
一毫私意	-11.9143
潤下	-11.9143
孔子聞之曰	-11.9144
少孤	-11.9144
千四百	-11.9149
最靈	-11.9149
人所共	-11.9153
勿令	-11.9157
潞	-11.9157
此正是	-11.9161
亨通	-11.9162
漢卿	-11.9162
輜重	-11.9164
三百八十四爻	-11.9164
稜	-11.9165
栖	-11.9166
篤恭而天下平	-11.9168
鯉	-11.9168
豊	-11.9168
天地以生物為心	-11.9169
諸侯大夫	-11.9169
徴引易	-11.9169
金木水火土	-11.9169
迸	-11.917
絺	-11.917
語辭	-11.917
異學	-11.917
有甚於	-11.9171
舟楫	-11.9171
治國平天下之要	-11.9171
紓	-11.9171
撑	-11.9171
松栢	-11.9171
戰戰兢兢	-11.9171
君子之心	-11.9173
仲山甫	-11.9173
濱	-11.9173
全體大用	-11.9173
混沌	-11.9173
賙	-11.9174
闔閭	-11.9174
閨門之内	-11.9174
凜	-11.9176
仲虺	-11.9177
删	-11.9178
甕	-11.9178
螽	-11.9178
憊	-11.9179
深切著明	-11.9179
鬰	-11.9179
之綱領	-11.9179
錐	-11.918
叔姬	-11.918
戊辰	-11.918
不踰矩	-11.9181
遷善改過	-11.9181
熒惑	-11.9181
晰	-11.9181
漕運	-11.9182
尊德性	-11.9183
猪	-11.9183
晦朔	-11.9183
微言	-11.9185
汭	-11.9185
一舉而	-11.9186
降衷	-11.9186
隂陽消長	-11.9187
邇英	-11.9187
怠慢	-11.9188
日久	-11.9188
潤澤	-11.9188
逐旋	-11.9189
少儀	-11.9193
繋辭	-11.9194
省劄	-11.9195
竒數	-11.9195
圓圖	-11.9196
肚裏	-11.9197
太上皇	-11.9198
推尊	-11.92
弑逆	-11.9201
予小子	-11.9202
都邑	-11.9205
名位	-11.9205
二十九日	-11.9205
天下幸甚	-11.9206
萬分	-11.9207
流血	-11.9208
互相發明	-11.9211
舞蹈	-11.9211
吕氏春秋	-11.9212
微妙	-11.9214
卷八	-11.9214
己巳	-11.9217
饑民	-11.9217
踰月	-11.9218
事而言	-11.9221
一員	-11.9222
大學士	-11.9222
相侵	-11.9223
空虛	-11.9224
之源也	-11.9227
四邊	-11.9228
甚精	-11.9229
有事則	-11.923
得其傳	-11.9231
仲冬	-11.9232
祭禰	-11.9232
然亦須	-11.9233
中亦有	-11.9235
樹木	-11.9236
稍長	-11.9239
升卿	-11.9242
羣小	-11.9243
爭奪	-11.9249
佛書	-11.925
空空	-11.9251
下靣	-11.9252
只被	-11.9253
曰諾	-11.9253
曰是如此	-11.9256
供養	-11.9256
晉大夫	-11.9258
史傳	-11.9258
只恐	-11.9259
音律	-11.9262
九六	-11.9262
左𫝊	-11.9262
卷四十	-11.9265
欽哉	-11.9271
諡曰	-11.9273
此無他	-11.9274
入井	-11.9276
人之才	-11.9277
鄭衛	-11.9279
仁之用	-11.928
二程先生	-11.9282
天資髙	-11.9283
豈不知	-11.9284
古之聖人	-11.9284
哉唐	-11.9285
吳楚	-11.9285
力爭	-11.9287
妙萬物	-11.9291
僅存	-11.9291
曰吾聞之	-11.9292
是一様	-11.9292
以自警	-11.9295
一己之	-11.9296
牧馬	-11.9297
閔公	-11.93
晏子曰	-11.9301
變徵	-11.9303
厚重	-11.9306
不能制	-11.9309
其所以然者	-11.9311
亂政	-11.9312
泌	-11.9312
凡事皆	-11.9312
我之所	-11.9314
撲	-11.9316
荆棘	-11.9316
大江	-11.9316
哲人	-11.9317
北門	-11.9317
屬官	-11.9317
剩	-11.9318
溝壑	-11.9318
犆	-11.9318
饑饉	-11.9319
勾踐	-11.9319
三十三	-11.9321
灋	-11.9321
更有甚	-11.9322
舉而措之	-11.9323
克去己私	-11.9323
熊氏	-11.9323
簽	-11.9323
砂	-11.9323
䧏	-11.9324
丙午	-11.9324
窠	-11.9324
弘	-11.9325
鞭扑	-11.9325
者心也	-11.9326
季文子	-11.9326
蟠	-11.9326
啇	-11.9326
播種	-11.9327
梁惠王	-11.9327
夾漈	-11.9328
平日所	-11.9328
拳	-11.9328
續書	-11.9329
稱善	-11.9329
貟	-11.933
入闗	-11.933
胷次	-11.933
亦不妨	-11.933
放開	-11.933
殘忍	-11.9331
悛	-11.9331
桓子	-11.9331
金縢	-11.9331
安坐	-11.9331
存得此心	-11.9331
戕賊	-11.9332
可恃	-11.9333
回互	-11.9334
行於世	-11.9334
推測	-11.9335
瑗	-11.9335
葵丘	-11.9336
大矣哉	-11.9337
觀察	-11.9337
姚江	-11.9338
集中	-11.934
舜命	-11.9341
古本	-11.9341
隆殺	-11.9342
情意	-11.9342
江湖	-11.9342
既沒	-11.9343
謀慮	-11.9343
託於	-11.9345
學佛	-11.9347
氣習	-11.9347
衞君	-11.9349
兼備	-11.9349
所言皆	-11.9351
洛邑	-11.9357
以為己	-11.9357
看如何	-11.9358
人人有	-11.9359
三十九	-11.9363
於太廟	-11.9366
就心上	-11.9368
崇寧	-11.9371
且如人	-11.9372
吏胥	-11.9374
得其平	-11.9374
近理	-11.9374
單父	-11.9374
未嘗見	-11.9375
體貼	-11.9376
二十八年	-11.9377
真氏	-11.9377
乖離	-11.9378
臨終	-11.9378
做這	-11.9378
無所逃	-11.9379
百倍	-11.9379
安敢	-11.938
代天	-11.938
自然而然	-11.9382
能慮	-11.9383
註疏	-11.9385
以發其	-11.9386
伯父	-11.9387
遂廢	-11.9388
這一事	-11.9389
姜氏	-11.939
於無形	-11.939
不爽	-11.939
左傳曰	-11.9391
上殿	-11.9392
此等語	-11.9393
友愛	-11.9396
亡國之	-11.9397
責己	-11.9399
任使	-11.9401
甚盛	-11.9402
二十五年	-11.9402
度支	-11.9406
萬物之生	-11.9406
六師	-11.9409
底豫	-11.9409
僅能	-11.941
能使人	-11.9412
忝	-11.9414
良由	-11.9417
相救	-11.9419
天保	-11.9419
不恱	-11.9421
不能忘	-11.9422
論議	-11.9422
麽	-11.9424
於未然	-11.9428
天府	-11.9428
榖種	-11.9429
之極功	-11.9429
自滿	-11.943
報怨	-11.9432
凡人之	-11.9433
永平	-11.9436
登山	-11.9437
台州	-11.9438
其為人也	-11.9443
分量	-11.9447
乎此者	-11.9448
也今夫	-11.9449
常少	-11.9449
董常	-11.9451
主人以下	-11.9459
雨雪	-11.9459
不違仁	-11.946
居尊位	-11.9461
南安	-11.9462
直方大	-11.9462
債	-11.9462
動容周旋中禮	-11.9465
膾	-11.9465
巡狩	-11.9468
廿	-11.9468
舉足	-11.9468
不可須臾離	-11.9468
食色	-11.9469
丹書	-11.9469
流動	-11.9469
鍵	-11.947
分屬	-11.947
灑掃	-11.947
叔器問	-11.947
圜丘	-11.9471
絪緼	-11.9472
誾誾	-11.9472
潮汐	-11.9473
璞	-11.9473
畎畝	-11.9474
絲毫	-11.9474
曳	-11.9474
丸	-11.9475
從来	-11.9475
優㳺	-11.9475
所過者化	-11.9476
緼	-11.9477
黄氏曰	-11.9477
澮	-11.9477
生知安行	-11.9477
胡安國	-11.9477
隰	-11.9477
漬	-11.9478
風霆	-11.9478
契勘	-11.9478
血脈	-11.9479
氐	-11.948
蒯	-11.948
不思而得	-11.9481
不遷怒	-11.9482
艮止	-11.9482
奢靡	-11.9483
孝子之心	-11.9484
婣	-11.9484
黨錮	-11.9485
時勢	-11.9485
漸進	-11.9486
決定	-11.9487
摠	-11.9487
卑陋	-11.9488
大饗	-11.9489
感於物	-11.949
卬	-11.9493
雖未必	-11.9493
貢舉	-11.9495
不言而信	-11.9496
開示	-11.9496
有礙	-11.9497
怠忽	-11.9498
見得箇	-11.95
宋太宗	-11.95
干渉	-11.95
征討	-11.95
増損	-11.95
俟命	-11.9501
件件	-11.9501
力田	-11.9504
工商	-11.9506
嗇夫	-11.9507
而名之	-11.9509
粹然	-11.951
典章	-11.9512
重濁	-11.9512
危殆	-11.9515
文王之徳	-11.9517
魯頌	-11.9518
非不欲	-11.9518
一味	-11.9518
時措	-11.9519
三十七	-11.9519
俗吏	-11.952
掃地	-11.952
儲蓄	-11.952
正顔色	-11.9522
幾年	-11.9524
聚衆	-11.9526
加意	-11.9527
無不正	-11.9528
天理自然	-11.9529
合内外	-11.9529
無稽	-11.9529
有所未盡	-11.953
應副	-11.9531
北齊	-11.9532
吾聞之	-11.9533
吾夫子	-11.9534
待制	-11.9535
敷陳	-11.9535
與天合	-11.9539
可免	-11.954
庚子	-11.9541
事舅姑	-11.9541
修治	-11.9542
無不利	-11.9542
録作	-11.9543
千百年	-11.9545
遷就	-11.9548
不能改	-11.9555
須是先	-11.9556
其得失	-11.9556
納諫	-11.9557
大亨	-11.9557
小補	-11.956
有小大	-11.9561
侯國	-11.9562
筆力	-11.9563
之謂信	-11.9563
末後	-11.9564
一步	-11.9564
不可揜	-11.9565
不能免	-11.9566
烏能	-11.9569
墓祭	-11.9573
蘇秦	-11.9573
就上面	-11.9575
話頭	-11.9575
六畜	-11.9576
選擇	-11.9576
固是好	-11.9577
流轉	-11.9579
姓氏	-11.9579
龍徳	-11.9583
九賦	-11.9585
之所出	-11.9586
横流	-11.9589
所以防	-11.9589
陽侯	-11.9593
者有矣	-11.9593
於我者	-11.9593
女工	-11.9595
四十餘	-11.9597
爻象	-11.9597
昧於	-11.9598
何謂也曰	-11.9599
係乎	-11.9602
顯微	-11.9602
聖賢之意	-11.9602
與天同	-11.9603
於人則	-11.9605
怛	-11.9606
欲人之	-11.961
正百官	-11.9613
岑	-11.9616
徐氏	-11.9617
既畢	-11.9619
傳記	-11.9619
闕疑	-11.9621
交結	-11.9621
思辨録輯要卷	-11.9621
纁	-11.9621
泚	-11.9623
屑屑	-11.9624
圯	-11.9625
脾	-11.9625
倉廪	-11.9626
癡	-11.9628
所謂太極	-11.9628
塑	-11.9628
敺	-11.9628
等篇	-11.9629
斡	-11.9629
沴	-11.9629
筦	-11.963
怖	-11.963
妍	-11.963
堯舜禹湯	-11.963
芻豢	-11.963
勉齋黄氏曰	-11.963
臯陶謨	-11.9631
諮	-11.9631
挟	-11.9632
頭緒	-11.9632
驍	-11.9633
邠	-11.9633
隲	-11.9633
嫡庶	-11.9633
寡過	-11.9634
然後有以	-11.9634
髠	-11.9634
鳶	-11.9636
禹湯	-11.9637
後之學者	-11.9639
婢妾	-11.9641
謐	-11.9641
恵王	-11.9642
雞鳴	-11.9642
瞭然	-11.9642
横渠説	-11.9642
毫末	-11.9645
以全其	-11.9646
拱手	-11.9646
感人心	-11.9647
水草	-11.9647
反躬	-11.965
太極圗	-11.9652
尊親	-11.9654
不云乎	-11.9654
司馬温公曰	-11.9654
八八	-11.9657
絶四	-11.9658
有徳者	-11.9658
全文	-11.9658
是與不是	-11.9658
何傷	-11.9659
種種	-11.9661
燕王	-11.9662
申命	-11.9664
陪臣	-11.9664
使之然也	-11.9668
未甞不	-11.9668
也愚按此	-11.9668
主忠信	-11.9669
支子	-11.967
先生笑曰	-11.967
起頭	-11.9672
否泰	-11.9673
而不自知也	-11.9674
良乆	-11.968
有補於	-11.9681
察識	-11.9681
文蔚曰	-11.9682
亦各有	-11.9683
邾人	-11.9684
是何等	-11.9684
萬夫	-11.969
賈氏	-11.9693
做将去	-11.9699
地震	-11.9699
吉日	-11.97
篤厚	-11.9701
舉進士	-11.9702
權重	-11.9706
無所歸	-11.9706
伐燕	-11.9706
修省	-11.9707
抑末	-11.9709
相待	-11.9709
到任	-11.9712
小異	-11.9718
乎某云	-11.9722
深味	-11.9726
三江	-11.9728
五尺	-11.9731
炎上	-11.9732
無愧於	-11.9735
做官	-11.9736
西戎	-11.9738
於民者	-11.9738
江水	-11.9739
内政	-11.9742
近似	-11.9742
鄉飲酒	-11.9743
罪過	-11.9746
氣候	-11.9746
奉詔	-11.9747
陰柔	-11.9748
改月	-11.975
比較	-11.9754
廬山	-11.9755
歴家	-11.9755
州里	-11.9756
剛克	-11.9756
刪詩	-11.9756
物之始	-11.9757
目視	-11.9758
吳越	-11.9761
無所疑	-11.9765
生齒	-11.9767
養馬	-11.9768
陽貨	-11.9771
葉氏	-11.9772
得之於心	-11.9773
職任	-11.9773
不可不知也	-11.9773
未審	-11.9773
人生而靜	-11.9774
庻子	-11.9774
上黨	-11.9774
甦	-11.9775
朝諸侯	-11.9776
安得謂之	-11.9777
父子兄弟夫婦	-11.9778
翩	-11.9778
一言以蔽之	-11.9781
毆	-11.9781
几杖	-11.9781
甲乙	-11.9781
拭	-11.9781
髻	-11.9782
呂與叔	-11.9782
衒	-11.9782
固不可以	-11.9782
袵	-11.9783
净	-11.9783
曾晳	-11.9784
炫	-11.9784
下學而上達	-11.9784
這一件	-11.9784
瓚	-11.9784
匍匐	-11.9785
入侍	-11.9785
刈	-11.9785
遡	-11.9785
肴	-11.9786
范仲淹	-11.9786
顆	-11.9787
山林川澤	-11.9787
推之於	-11.9787
廻	-11.9787
夣	-11.9788
登第	-11.9788
駸駸	-11.9789
縠	-11.9789
蹕	-11.979
嫗	-11.979
癸巳	-11.979
參同契	-11.979
彦博	-11.9791
御史中丞	-11.9791
晉宋	-11.9791
鎭	-11.9791
漢明帝	-11.9791
兕	-11.9792
氣味	-11.9793
該貫	-11.9794
不可偏廢	-11.9794
隼	-11.9794
豢	-11.9794
修辭	-11.9796
謳	-11.9797
訓釋	-11.9798
亡秦	-11.9798
侍御史	-11.9802
道之所以	-11.9802
櫟	-11.9803
常棣	-11.9803
發而為	-11.9803
閒暇	-11.9803
又安得	-11.9804
營營	-11.9806
輕議	-11.9808
淫巧	-11.9808
孤立	-11.9809
不怕	-11.9809
冠帶	-11.9811
矣愚按	-11.9812
悖逆	-11.9812
中庸大學	-11.9812
此二字	-11.9813
養兵	-11.9813
自警	-11.9813
臧否	-11.9814
嗟夫	-11.9815
無私心	-11.9815
端坐	-11.9816
嘗疑	-11.9816
虞衡	-11.9817
不可一日	-11.9818
魯齋	-11.9818
身脩	-11.9819
老兄	-11.9822
竒偶	-11.9823
吾黨	-11.9823
天地山川	-11.9825
這箇便是	-11.9825
坦然	-11.9825
年十二月	-11.9828
其實一也	-11.9828
仁者人也	-11.9829
祖謙	-11.9831
右衍	-11.9833
開皇	-11.9835
伯羽	-11.9836
慢易	-11.9837
上卿	-11.9838
攻守	-11.9843
伯温	-11.9843
極其至	-11.9844
要識得	-11.9844
佛老之	-11.9847
不可不察也	-11.9847
而不改	-11.9849
成憲	-11.985
厯代	-11.9851
四尺	-11.9852
專指	-11.9855
政之本	-11.9855
之謂神	-11.9855
來諭	-11.9858
是何物	-11.9859
光景	-11.9861
研窮	-11.9864
晉武帝	-11.9866
重農	-11.9871
忠賢	-11.9872
諡法	-11.9874
韓王	-11.9875
者何哉	-11.9876
賦詩	-11.9883
太山	-11.9883
聲律	-11.9887
戰陳	-11.989
照應	-11.9892
不是如此	-11.9893
器物	-11.9893
脫然	-11.9897
靈帝	-11.9898
徹底	-11.9898
不可得而見	-11.9898
親臨	-11.9899
省試	-11.99
凛然	-11.9902
習射	-11.9902
祖父母	-11.9904
中書令	-11.9906
王導	-11.9907
不能自已	-11.9909
宗師	-11.9911
無不敬	-11.9913
正人心	-11.9915
東序	-11.9917
張儀	-11.9918
須待	-11.9921
利涉大川	-11.9921
誦讀	-11.9922
自矜	-11.9924
嚴刑	-11.9925
牽於	-11.9927
其所知	-11.9928
邕	-11.9928
未之見	-11.993
𤣥酒	-11.9931
縶	-11.9931
赧	-11.9933
小歛	-11.9934
名譽	-11.9935
碍	-11.9935
三百六十五度四分度之一	-11.9936
羹	-11.9936
塩	-11.9937
素定	-11.9937
臣之事君	-11.9938
溷	-11.9938
閃	-11.9938
始封	-11.9939
賈公彦釋曰	-11.994
知終終之	-11.994
日用常行	-11.994
客氣	-11.9941
文王周公	-11.9941
跂	-11.9941
装	-11.9941
覃	-11.9942
筠	-11.9942
周程張朱	-11.9942
舄	-11.9942
叔齊	-11.9942
首出庶物	-11.9944
穽	-11.9944
制禮作樂	-11.9944
恍	-11.9944
切問近思	-11.9944
所寄	-11.9945
白虎通	-11.9945
魚鼈	-11.9946
翊	-11.9946
嚚	-11.9946
伯魚	-11.9946
秉彞	-11.9946
靳	-11.9947
吕大臨	-11.9947
雋	-11.9947
宗子之家	-11.9948
不聼	-11.9948
榻	-11.9948
燄	-11.9948
憸	-11.9948
不愧屋漏	-11.9948
負荷	-11.9948
各具一太極	-11.9948
瑀	-11.9948
楫	-11.9949
轎	-11.9949
峭	-11.995
詒	-11.995
之原也	-11.995
亦不甚	-11.9951
不得不然	-11.9951
譔	-11.9951
祔於	-11.9952
鼔舞	-11.9953
翼翼	-11.9953
荘公	-11.9953
驕吝	-11.9955
伊川語	-11.9956
惡不仁者	-11.9956
江都	-11.9958
洞庭	-11.9958
利天下	-11.9958
受日光	-11.996
口舌	-11.996
今之人	-11.996
轉輸	-11.996
劄記	-11.9961
兩月	-11.9965
立箇	-11.9965
各得其宜	-11.9966
終篇	-11.9967
象魏	-11.9968
廬舍	-11.9969
人之所欲	-11.9971
立人極	-11.9973
漢高祖	-11.9973
伐秦	-11.9975
卷阿	-11.9976
此數語	-11.998
倒置	-11.9981
父母之心	-11.9982
華元	-11.9984
聖德	-11.9985
寢門	-11.9989
風流	-11.9991
律厯	-11.9997
陵夷	-12.0001
天子之禮	-12.0003
徐州	-12.0004
不可不慎	-12.0005
考校	-12.0005
假令	-12.0007
數百里	-12.0008
淳厚	-12.0011
智慮	-12.0012
襄陽	-12.0013
開悟	-12.0013
善不善	-12.002
積久	-12.0023
孝養	-12.0024
志不立	-12.0024
守死	-12.0024
而見之	-12.0024
樂府	-12.0025
異教	-12.0025
隠公	-12.0027
貪利	-12.0027
各就	-12.0028
者陽之	-12.0028
得其情	-12.0033
有待於	-12.0033
天理之自然	-12.0038
熟看	-12.0038
隂盛	-12.0039
非聖人不能	-12.0039
憂國	-12.0043
天下有道	-12.0043
盡其才	-12.0044
後儒	-12.0046
且理㑹	-12.0047
不可救	-12.0049
不子細	-12.0049
俗語	-12.0052
建陽	-12.0053
宗主	-12.0055
做出來	-12.0056
於心者	-12.0057
要見得	-12.0059
田氏	-12.0063
必求其	-12.0065
保傅	-12.0068
五十三	-12.007
淮南王	-12.0072
興化	-12.0073
諸家皆	-12.0074
霤	-12.0076
矣孟子曰	-12.008
此段專	-12.0081
之所致也	-12.0082
初即位	-12.0082
親踈	-12.0084
逐末	-12.0086
教國子	-12.0087
頒行	-12.0087
制刑	-12.0088
滎陽	-12.009
肥瘠	-12.0091
又次之	-12.0091
智勇	-12.0092
捱	-12.0092
租庸調	-12.0093
發露	-12.0094
列聖	-12.0094
曰何謂也	-12.0095
不軌	-12.0095
何思何慮	-12.0096
司馬子	-12.0096
蹴	-12.0098
簠簋	-12.0098
拈出	-12.0099
芾	-12.0099
無極之真	-12.0099
慣	-12.0099
憶	-12.01
韠	-12.01
琛	-12.0101
視民如傷	-12.0102
五倫	-12.0103
趙武	-12.0103
平旦之氣	-12.0103
興於詩	-12.0104
蘆	-12.0104
棐	-12.0104
妖孽	-12.0105
糟	-12.0105
時措之宜	-12.0105
定性書	-12.0105
厦	-12.0106
拏	-12.0106
旻	-12.0106
鳥獸草木	-12.0106
捶	-12.0107
所患	-12.0107
[...]
