<unk>	0
<s>	0
</s>	0
之	-4.28007
/	-4.55375
(	-4.59685
以	-4.73266
)	-4.87743
為	-5.04588
而	-5.16127
其	-5.26546
於	-5.35983
者	-5.37577
有	-5.43226
一	-5.61289
上	-5.67215
及	-5.71108
人	-5.73501
則	-5.83519
官	-5.83972
)(	-5.85172
不	-5.85522
曰	-5.8661
自	-5.8724
也	-5.91609
王	-5.96024
/)	-5.99302
與	-6.00167
至	-6.01091
事	-6.06921
等	-6.1169
行	-6.15622
中	-6.15787
用	-6.17737
大	-6.23261
二	-6.23925
令	-6.26184
皆	-6.26968
無	-6.27699
三	-6.29864
凡	-6.30182
各	-6.30302
▁	-6.32628
所	-6.3348
于	-6.33501
同	-6.35107
時	-6.35927
在	-6.41513
如	-6.43087
臣	-6.43726
置	-6.45375
又	-6.46203
正	-6.46209
掌	-6.48624
今	-6.48871
奏	-6.49064
言	-6.50683
文	-6.53023
故	-6.54402
司	-6.54495
亦	-6.54662
内	-6.55707
州	-6.55986
書	-6.56074
四	-6.57548
命	-6.5784
使	-6.59514
下	-6.6089
出	-6.62675
子	-6.64342
後	-6.64368
進	-6.65782
五	-6.66562
惟	-6.67388
禮	-6.67799
若	-6.68422
名	-6.68602
復	-6.69559
一人	-6.69737
當	-6.70939
定	-6.71006
道	-6.71745
或	-6.73214
本	-6.73331
乃	-6.73366
府	-6.75265
明	-6.76231
公	-6.76774
除	-6.78457
日	-6.78505
前	-6.78889
設	-6.79084
已	-6.79306
知	-6.79436
是	-6.79885
入	-6.81636
請	-6.82305
相	-6.84041
任	-6.85344
兼	-6.86235
即	-6.86896
將	-6.87128
初	-6.88234
主	-6.88791
六	-6.89132
見	-6.89711
張	-6.91128
成	-6.9116
此	-6.92089
從	-6.92302
分	-6.9232
得	-6.92417
然	-6.92793
俱	-6.9294
非	-6.94638
改	-6.94834
安	-6.94857
天	-6.95038
長	-6.95061
詔	-6.96125
立	-6.96297
矣	-6.97101
字	-6.97457
仍	-6.97929
國	-6.98469
元	-6.98886
實	-6.99578
外	-6.99726
先	-7.00379
陳	-7.0161
既	-7.02261
諸	-7.03763
門	-7.03829
宜	-7.03927
賜	-7.05486
加	-7.0565
學	-7.06886
通	-7.07343
焉	-7.07427
作	-7.07685
並	-7.08365
生	-7.08531
可	-7.0863
議	-7.08664
方	-7.09333
年	-7.09397
制	-7.09472
監	-7.10034
謂	-7.1157
重	-7.11872
多	-7.11897
二人	-7.12776
遂	-7.13481
稱	-7.13972
并	-7.14917
云	-7.16006
民	-7.16134
金	-7.16787
省	-7.16922
李	-7.17047
奉	-7.17491
始	-7.17809
罷	-7.17923
封	-7.18831
因	-7.19313
祭	-7.2044
士	-7.20708
雖	-7.2088
周	-7.21698
八	-7.21808
授	-7.22123
取	-7.22331
徳	-7.22654
合	-7.22908
未	-7.23788
馬	-7.24392
舉	-7.24639
必	-7.24673
充	-7.24984
居	-7.25845
領	-7.25957
應	-7.26044
服	-7.26901
朝	-7.27077
西	-7.27536
法	-7.28076
經	-7.28194
九	-7.283
位	-7.28492
次	-7.28723
親	-7.29725
平	-7.2982
南	-7.30497
兵	-7.30955
治	-7.31131
數	-7.3295
東	-7.33366
選	-7.33565
考	-7.33565
儀	-7.33741
十	-7.33772
兩	-7.3398
職	-7.34281
何	-7.34387
陞	-7.34797
例	-7.34919
○	-7.3631
由	-7.36916
節	-7.36918
欲	-7.3748
直	-7.37573
典	-7.37655
左	-7.37658
禮部	-7.37977
傳	-7.37999
守	-7.38658
漢	-7.39196
軍	-7.39379
興	-7.40014
尚	-7.40131
髙	-7.4049
給	-7.40518
和	-7.41916
黄	-7.4217
史	-7.42357
武	-7.42454
止	-7.42966
師	-7.43031
縣	-7.43163
小	-7.43226
天下	-7.43633
爾	-7.4376
送	-7.44118
部	-7.44179
拜	-7.44242
受	-7.44268
朕	-7.4452
尚書	-7.45166
七	-7.4591
開	-7.45963
右	-7.46269
卿	-7.46292
樂	-7.46355
常	-7.47287
具	-7.4805
世	-7.48137
宗	-7.48178
心	-7.48591
都	-7.4878
歸	-7.49072
表	-7.49377
家	-7.4957
建	-7.49866
品	-7.502
引	-7.50215
告	-7.50741
且	-7.51013
新	-7.51264
清	-7.52162
修	-7.52216
左右	-7.52229
署	-7.52441
闕	-7.5251
以為	-7.52648
光	-7.53037
山	-7.53042
備	-7.53503
處	-7.5447
更	-7.54562
爲	-7.54727
來	-7.54825
屬	-7.55043
去	-7.55109
地	-7.55162
聞	-7.56426
載	-7.56681
每	-7.57071
宋	-7.57212
聖	-7.57609
祀	-7.5802
特	-7.58107
益	-7.58365
神	-7.59414
劉	-7.59429
遷	-7.59568
舊	-7.59589
乎	-7.59674
氏	-7.60171
宣	-7.60473
逺	-7.60488
共	-7.60553
政	-7.60688
吏	-7.61304
班	-7.61742
義	-7.62018
承	-7.62094
白	-7.62283
夫	-7.62323
過	-7.63052
古	-7.63296
廟	-7.63439
思	-7.63476
觀	-7.63846
發	-7.63925
帝	-7.63959
理	-7.64029
論	-7.64137
深	-7.64267
詣	-7.64484
案	-7.64487
石	-7.64726
遣	-7.64847
之事	-7.65078
近	-7.6509
㑹	-7.65635
賢	-7.65703
御	-7.6625
唐	-7.66562
章	-7.6699
志	-7.67486
歴	-7.67491
學士	-7.67563
但	-7.6762
畢	-7.67936
問	-7.68252
廣	-7.68577
北	-7.69184
率	-7.69312
宫	-7.69372
不可	-7.69409
殿	-7.69677
能	-7.69904
三年	-7.70045
起	-7.70192
水	-7.7058
四人	-7.70845
意	-7.71024
盖	-7.71618
原	-7.71731
視	-7.71821
還	-7.72334
務	-7.72752
善	-7.73207
衛	-7.73276
教	-7.73378
試	-7.73445
一員	-7.73723
乞	-7.7404
録	-7.74428
列	-7.74489
首	-7.74948
間	-7.75513
許	-7.75658
永	-7.75721
盡	-7.76753
代	-7.77044
易	-7.77665
齊	-7.77884
補	-7.78043
堂	-7.78507
城	-7.78592
禁	-7.78937
功	-7.7941
降	-7.79502
著	-7.79587
爵	-7.7974
食	-7.79745
玉	-7.80335
龍	-7.80456
謹案	-7.80706
再	-7.80786
依	-7.81125
恩	-7.81588
科	-7.81626
嵗	-7.81886
坐	-7.8189
布	-7.82093
卷	-7.83367
力	-7.83564
曹	-7.83812
恭	-7.83923
我	-7.84169
伯	-7.8437
申	-7.84621
大臣	-7.84632
朝廷	-7.84836
召	-7.84866
副	-7.84888
寧	-7.85015
進士	-7.8513
圖	-7.85158
風	-7.85534
物	-7.85653
保	-7.85975
崇	-7.8605
梁	-7.86177
餘	-7.8622
差	-7.86288
二年	-7.86305
衆	-7.8655
御史	-7.86857
忠	-7.86947
獻	-7.87401
望	-7.87415
退	-7.87907
陵	-7.87929
郎	-7.87949
錢	-7.88052
求	-7.88188
比	-7.8822
月	-7.88488
就	-7.88537
候	-7.88599
楊	-7.88646
誠	-7.88969
不得	-7.89064
致	-7.89085
少	-7.89537
卒	-7.8977
甚	-7.90021
院	-7.90151
路	-7.904
尊	-7.90541
京	-7.90754
籍	-7.90828
計	-7.90872
身	-7.91035
照	-7.91371
固	-7.91375
丞	-7.91786
造	-7.92012
辭	-7.92022
異	-7.92148
附	-7.9218
集	-7.92542
葢	-7.92709
隨	-7.92744
報	-7.92816
難	-7.9297
孫	-7.93147
不許	-7.93725
端	-7.93746
嚴	-7.94118
全	-7.94279
君	-7.94346
總	-7.94373
魏	-7.945
别	-7.94556
侯	-7.95216
嘗	-7.95322
員	-7.95632
對	-7.95977
執	-7.96529
德	-7.96542
皇	-7.96549
昭	-7.96754
以下	-7.97051
訖	-7.97138
罪	-7.97144
百	-7.97153
簡	-7.97176
謹	-7.97188
春	-7.97213
工	-7.97328
統	-7.97333
獨	-7.97434
某	-7.97606
太	-7.97647
仁	-7.98302
式	-7.98632
厚	-7.98688
之制	-7.98695
贊	-7.9879
河	-7.98831
祖	-7.99025
庫	-7.99057
納	-7.99193
敬	-7.99547
將軍	-7.99567
要	-7.99618
壇	-7.99729
酒	-7.99743
賛	-7.99871
國子監	-7.99977
増	-8.00009
詩	-8.00213
晉	-8.00358
等官	-8.00386
鎮	-8.0077
繇	-8.012
元年	-8.01445
百官	-8.02074
升	-8.02157
趙	-8.02248
收	-8.02456
孝	-8.02657
失	-8.02693
皇帝	-8.02989
猶	-8.03168
留	-8.03266
萬	-8.0359
各一人	-8.04285
係	-8.04546
田	-8.04547
登	-8.05012
終	-8.05044
克	-8.05082
號	-8.05115
寺	-8.05258
所以	-8.05263
資	-8.05315
化	-8.05327
中書	-8.06244
毎	-8.06291
土	-8.06334
庶	-8.06402
郡	-8.06428
二員	-8.06541
印	-8.06791
私	-8.07108
皇太子	-8.07296
度	-8.07515
之職	-8.07531
行禮	-8.07556
吏部	-8.07732
貢	-8.07989
聽	-8.08058
該	-8.08318
諭	-8.08522
悉	-8.08776
遇	-8.08798
按	-8.08893
銀	-8.09018
上曰	-8.09247
死	-8.0989
賞	-8.10193
推	-8.10266
陽	-8.10355
專	-8.10849
父	-8.10899
流	-8.10923
素	-8.11144
衣	-8.11261
嘉	-8.11326
存	-8.11604
車	-8.11629
參	-8.11649
不能	-8.11708
題	-8.11936
以上	-8.11948
榮	-8.12134
利	-8.1297
體	-8.12994
權	-8.13141
隆	-8.13202
華	-8.13278
户	-8.13324
寳	-8.13372
革	-8.13662
倉	-8.13704
皇后	-8.13718
房	-8.13782
業	-8.14139
蓋	-8.14229
管	-8.14325
咸	-8.14642
臨	-8.15135
繼	-8.15516
冊	-8.15625
冠	-8.15717
免	-8.16055
廢	-8.16147
濟	-8.16387
秩	-8.16414
信	-8.16552
慶	-8.16677
妃	-8.16707
聲	-8.16768
營	-8.1684
移	-8.16994
海	-8.17086
良	-8.17487
太子	-8.17574
往	-8.17672
本部	-8.177
詳	-8.17777
朱	-8.18087
青	-8.18197
均	-8.18293
於是	-8.18359
局	-8.18476
八月	-8.18536
闗	-8.18695
才	-8.18763
十二	-8.18874
七月	-8.18926
親王	-8.19082
三月	-8.19307
詞	-8.19347
耳	-8.19571
記	-8.19582
久	-8.19629
九月	-8.19936
雲	-8.20054
予	-8.20061
語	-8.20083
准	-8.211
秦	-8.212
唱	-8.21628
二月	-8.2202
斯	-8.22453
順	-8.22484
薦	-8.22616
委	-8.22674
便	-8.22713
習	-8.2289
侍郎	-8.23024
查	-8.23142
女	-8.2316
跪	-8.23461
五年	-8.23678
徐	-8.23704
里	-8.23865
養	-8.24015
盛	-8.24232
階	-8.24271
木	-8.24332
條	-8.24338
兹	-8.2447
切	-8.24668
十二月	-8.24967
夏	-8.2511
俾	-8.25131
器	-8.2523
皇上	-8.25316
口	-8.25379
疏	-8.25632
到	-8.25806
役	-8.25851
解	-8.26092
判	-8.26262
極	-8.26282
臺	-8.26669
交	-8.26713
據	-8.26736
三人	-8.26914
帶	-8.26943
十月	-8.26988
被	-8.26998
容	-8.27127
編	-8.27129
哉	-8.27311
汝	-8.27387
延	-8.27443
具官	-8.27647
欽此	-8.28021
宰相	-8.2806
十一月	-8.28279
𨽻	-8.28448
翰林	-8.28527
額	-8.28549
四年	-8.28592
二十	-8.28779
疑	-8.28941
河南	-8.28968
謀	-8.29304
序	-8.29638
陛下	-8.29981
天子	-8.30008
有司	-8.30102
賦	-8.30158
侍	-8.30293
勞	-8.30315
供	-8.30517
氣	-8.30896
其後	-8.30907
江	-8.30923
獄	-8.30948
老	-8.31087
翰林院	-8.31908
四月	-8.31942
運	-8.32017
将	-8.3203
林	-8.32376
景	-8.32378
羅	-8.32455
轉	-8.3255
六年	-8.3257
從之	-8.32816
色	-8.32876
以後	-8.33445
顯	-8.33459
紀	-8.33928
示	-8.33966
識	-8.34007
注	-8.34156
訓	-8.34627
縣人	-8.34909
肅	-8.3491
調	-8.35147
兮	-8.35367
顧	-8.35527
室	-8.35743
花	-8.35782
擢	-8.35825
六月	-8.35881
輕	-8.36232
缺	-8.36339
情	-8.36359
吳	-8.36668
支	-8.3668
期	-8.36799
刑	-8.36803
察	-8.36876
大學士	-8.3695
副使	-8.37054
福	-8.37079
恐	-8.37096
允	-8.3712
達	-8.37137
捧	-8.37342
勅	-8.37372
待	-8.37407
邊	-8.37582
宴	-8.38006
南京	-8.3803
専	-8.38123
擬	-8.38617
豈	-8.38737
𫝊	-8.38964
而不	-8.39067
隋	-8.39108
類	-8.39166
館	-8.3951
尤	-8.39582
赴	-8.39588
大夫	-8.39636
鄭	-8.39772
輔	-8.39825
讀	-8.3989
貴	-8.40056
維	-8.40298
講	-8.40394
鄉	-8.40482
宗室	-8.40489
佐	-8.40588
祝	-8.40809
配	-8.40826
鼓	-8.40889
真	-8.41142
郎中	-8.4158
美	-8.41816
遺	-8.41932
直𨽻	-8.4233
面	-8.42377
襲	-8.42403
彼	-8.42443
六人	-8.42618
覆	-8.42636
追	-8.42725
享	-8.43053
列傳	-8.43203
安石	-8.4322
回	-8.43317
戒	-8.43354
責	-8.43436
監生	-8.43467
甲	-8.43551
郡王	-8.43781
牧	-8.43796
故事	-8.44165
又有	-8.44195
果	-8.44293
五月	-8.44472
祭酒	-8.44581
山東	-8.44638
付	-8.44879
連	-8.4489
第	-8.45068
致仕	-8.45266
動	-8.45276
雜	-8.45282
扵	-8.45474
勿	-8.45537
奏請	-8.45911
給事中	-8.46137
優	-8.46173
願	-8.46238
旗	-8.46274
英	-8.4632
他	-8.46354
以來	-8.4675
啟	-8.47264
符	-8.4734
謝	-8.47374
莫	-8.47559
憲	-8.47583
持	-8.47615
念	-8.47743
香	-8.48173
之意	-8.48508
頭	-8.4851
呈	-8.48559
工部	-8.48916
高	-8.49005
虞	-8.49007
稍	-8.49059
遵	-8.49082
而已	-8.49552
威	-8.49572
校	-8.49634
至是	-8.49938
草	-8.50036
手	-8.50042
向	-8.50175
之後	-8.50244
為之	-8.50335
疾	-8.50347
謂之	-8.50352
如此	-8.50505
博士	-8.50527
量	-8.50546
增	-8.50666
廷	-8.5077
泰	-8.51089
所謂	-8.51286
結	-8.51315
懐	-8.51318
徒	-8.51389
太祖	-8.51547
藏	-8.51604
羣	-8.51785
市	-8.51794
主事	-8.51912
祠	-8.51918
勤	-8.51929
錫	-8.51969
阿	-8.51992
足	-8.52281
官員	-8.52358
越	-8.52362
春秋	-8.52392
康	-8.5243
員外郎	-8.52449
八人	-8.52789
諸生	-8.52987
内外	-8.5331
正月	-8.53382
導	-8.53436
内閣	-8.53447
制曰	-8.53619
博	-8.53779
格	-8.53982
限	-8.54124
協	-8.54261
浙江	-8.54398
須	-8.54448
仰	-8.54706
循	-8.54974
屢	-8.55187
胡	-8.55339
吉	-8.55363
昌	-8.5555
江西	-8.55859
八年	-8.55889
幸	-8.56113
目	-8.56152
殊	-8.56174
鼎	-8.56518
律	-8.56551
陜西	-8.56703
夷	-8.56751
病	-8.56963
聴	-8.57277
喜	-8.57348
尹	-8.57442
督	-8.5774
併	-8.57786
精	-8.57789
靈	-8.57957
滿	-8.5796
審	-8.58058
夀	-8.58503
閣	-8.58582
孔子	-8.58714
兵部	-8.5872
辨	-8.58776
席	-8.58812
十年	-8.58894
紅	-8.59013
户部	-8.59047
邦	-8.59195
眀	-8.59269
七年	-8.59303
孔	-8.59334
□	-8.59481
京師	-8.59583
東西	-8.60253
母	-8.60298
王府	-8.60487
厯	-8.60543
尋	-8.60596
欽	-8.60623
押	-8.60868
預	-8.6105
指	-8.61191
歲	-8.61208
庭	-8.61507
貫	-8.61588
狀	-8.61597
垂	-8.61853
減	-8.6187
后	-8.61934
象	-8.61934
執政	-8.61963
肆	-8.61995
國公	-8.62039
星	-8.62136
不敢	-8.62339
尉	-8.62389
斷	-8.62419
樂作	-8.62433
寵	-8.62449
燕	-8.62889
衙門	-8.63024
九年	-8.63057
變	-8.6316
畫	-8.63221
先是	-8.63384
積	-8.63524
司馬	-8.63555
東宫	-8.6377
惡	-8.63776
頒	-8.63938
澤	-8.63951
禄	-8.64036
刻	-8.64253
㫖	-8.6433
散	-8.64505
曽	-8.648
音	-8.6498
休	-8.65178
揚	-8.65192
䝉	-8.65196
材	-8.65203
太常	-8.65269
册	-8.65506
秋	-8.65529
程	-8.65534
况	-8.65537
乆	-8.65546
國家	-8.65677
嗣	-8.65886
説	-8.65937
累	-8.66331
今後	-8.66413
儒	-8.66736
末	-8.66738
之禮	-8.66811
太常寺	-8.66864
勝	-8.6693
吾	-8.67159
魯	-8.67377
叅	-8.6748
之人	-8.67499
質	-8.6765
仲	-8.67889
擇	-8.68127
米	-8.68177
茂	-8.68248
編修	-8.68329
可以	-8.68594
其事	-8.68779
太宗	-8.68804
丁	-8.68808
裁	-8.68809
畧	-8.69216
適	-8.69249
隂	-8.69377
洪	-8.69415
出入	-8.6946
早	-8.69542
諡	-8.69819
然後	-8.69832
絶	-8.70183
毋	-8.70193
遣官	-8.70246
湖廣	-8.70366
不同	-8.70382
五人	-8.70438
/)(	-8.70461
篇	-8.70503
生員	-8.70688
吕	-8.70764
施	-8.70878
咨	-8.70888
祖宗	-8.71018
帥	-8.71079
十人	-8.7122
的	-8.71558
稽	-8.71796
寛	-8.71918
叙	-8.72072
鈔	-8.72281
在外	-8.72353
鹽	-8.72463
慮	-8.72524
坊	-8.72658
亭	-8.72821
射	-8.7292
駕	-8.7294
振	-8.73112
贈	-8.73243
迎	-8.73359
衞	-8.73437
乗	-8.73455
違	-8.73528
在京	-8.73558
禮部尚書	-8.73562
之名	-8.73682
子弟	-8.73693
舉人	-8.73849
厥	-8.73858
碑	-8.73931
俟	-8.73959
門外	-8.74005
歌	-8.74127
福建	-8.74145
四川	-8.74375
啓	-8.74388
賀	-8.74407
之法	-8.74445
三十	-8.74466
犯	-8.74598
折	-8.74678
虚	-8.74689
綱	-8.7475
會	-8.74979
惇	-8.75094
校尉	-8.75143
丞相	-8.75627
沈	-8.75636
一日	-8.75708
䇿	-8.75727
辰	-8.75789
假	-8.75839
帛	-8.75857
施行	-8.75887
其餘	-8.75997
事例	-8.76069
說	-8.7607
幾	-8.76102
至於	-8.76106
弼	-8.76117
傅	-8.76122
都督	-8.76252
昔	-8.76283
商	-8.76361
提舉	-8.76413
放	-8.7647
臣等	-8.76542
豐	-8.76724
族	-8.7673
太廟	-8.76814
曲	-8.76915
賔	-8.76963
好	-8.77153
刑部	-8.77322
撫	-8.77359
害	-8.7739
祥	-8.77424
来	-8.77478
輿	-8.77484
戎	-8.77579
改為	-8.78025
子孫	-8.78263
邑	-8.78325
山西	-8.78372
銜	-8.78511
慎	-8.78735
叔	-8.78768
當時	-8.78856
舍	-8.78926
勒	-8.79039
宏	-8.79188
考試	-8.7928
宿	-8.79354
姦	-8.79405
囘	-8.79409
樂止	-8.79562
防	-8.79564
勲	-8.7962
滿洲	-8.79624
弟	-8.79655
州縣	-8.8005
同知	-8.80064
倫	-8.80142
宻	-8.80351
祭祀	-8.80357
十五	-8.80385
藩	-8.80508
太學	-8.80557
撰	-8.80746
教習	-8.81001
紙	-8.81156
銅	-8.81188
湯	-8.81225
㕔	-8.81231
儲	-8.81258
修撰	-8.81321
簿	-8.81638
雅	-8.81785
韓	-8.82029
關	-8.82043
反	-8.82097
萬厯	-8.8228
秉	-8.82295
男	-8.82359
亂	-8.82368
俊	-8.82564
江南	-8.8271
庶吉士	-8.82816
葬	-8.82822
䕶	-8.82991
寶	-8.83132
三公	-8.83168
靖	-8.83371
曾	-8.83407
衡	-8.83448
嘉靖	-8.83637
俸	-8.83735
半	-8.83792
冬	-8.83969
從祀	-8.83973
其職	-8.84184
希	-8.84253
庸	-8.84411
伏	-8.84488
課	-8.84638
座	-8.84936
四方	-8.85048
藥	-8.85374
照例	-8.85449
火	-8.85483
性	-8.85558
舊制	-8.85822
者皆	-8.86046
爰	-8.8621
雲南	-8.86381
之官	-8.86496
苑	-8.86531
具奏	-8.86743
之任	-8.86836
文武	-8.86923
不知	-8.86942
温	-8.87153
錄	-8.87162
之所	-8.87191
不必	-8.87305
殺	-8.87527
之日	-8.87579
禮畢	-8.87601
五十	-8.8764
之心	-8.87678
似	-8.87786
瑞	-8.87809
諸司	-8.8829
夫人	-8.88354
監察御史	-8.88376
規	-8.8857
誤	-8.88688
未有	-8.88709
費	-8.88868
北齊	-8.88895
川	-8.89188
之地	-8.89219
千	-8.89266
躬	-8.89294
公主	-8.89705
永樂	-8.89774
於此	-8.89811
敏	-8.89829
宰	-8.8998
畏	-8.90133
巡	-8.90165
牛	-8.9049
之類	-8.9055
履	-8.90632
舞	-8.90672
黨	-8.90674
辦	-8.90712
樞	-8.90728
鍾	-8.91087
邉	-8.91249
職事	-8.91336
孟	-8.9135
冠服	-8.91475
獲	-8.91573
穆	-8.91577
䝉古	-8.91581
决	-8.91743
陪	-8.91755
皆有	-8.91959
雨	-8.91985
諸王	-8.92062
伊	-8.9208
齋	-8.92163
牲	-8.9224
盤	-8.92804
糧	-8.92974
夜	-8.93076
奠	-8.93143
弊	-8.9328
征	-8.93289
敢	-8.93398
妄	-8.93479
禮儀	-8.93562
助教	-8.93578
賊	-8.94106
洪武	-8.9422
漸	-8.94385
膺	-8.94548
惠	-8.94615
奉聖㫖	-8.9466
季	-8.94702
干	-8.94785
乾隆	-8.9481
魚	-8.94822
衍	-8.94862
池	-8.94892
徃	-8.95149
避	-8.95251
奏事	-8.95502
騎	-8.95514
十一	-8.95589
蘇	-8.95653
俗	-8.95844
羊	-8.9604
第一	-8.96138
各一	-8.96172
源	-8.96187
接	-8.9645
最	-8.9647
縁	-8.96502
羣臣	-8.96525
驗	-8.96554
韻	-8.96981
地方	-8.97039
仗	-8.97043
各官	-8.97237
中外	-8.97259
陳設	-8.97296
康熙	-8.9746
三品	-8.97505
頗	-8.97532
樹	-8.97683
郭	-8.97737
𤣥	-8.97846
十六年	-8.97863
逐	-8.97978
郊	-8.97979
弗	-8.98089
約	-8.98128
遣使	-8.98158
董	-8.9838
亡	-8.98391
亦有	-8.98601
密	-8.98616
富	-8.98621
各處	-8.98693
漢書	-8.98696
一年	-8.98907
同日	-8.98925
寢	-8.9897
凖	-8.99039
者也	-8.99041
微	-8.99084
徴	-8.99093
莊	-8.99144
濫	-8.99279
政事	-8.9928
邪	-8.99322
陸	-8.99441
勢	-8.99623
壽	-8.99815
周禮	-8.99835
之數	-8.99865
社稷	-8.99871
遽	-8.99875
醫	-9.00091
執事	-9.00097
上下	-9.00119
勸	-9.00126
智	-9.00248
後漢	-9.00329
通事	-9.00456
喪	-9.00463
堅	-9.00622
懷	-9.00639
十二年	-9.00718
鳯	-9.00787
普	-9.00894
勉	-9.00933
角	-9.01031
前代	-9.01122
旋	-9.01296
朔	-9.01711
是日	-9.01771
貳	-9.01799
以聞	-9.01912
鴻臚寺	-9.02116
各有	-9.02134
一體	-9.02193
蔡	-9.02386
文字	-9.02447
奏准	-9.02583
不過	-9.02618
了	-9.02624
筆	-9.02762
十三	-9.0285
十六	-9.02944
戸	-9.03017
畨	-9.03027
皆以	-9.03028
赤	-9.03037
裕	-9.03078
以次	-9.03169
賓	-9.03238
之神	-9.03249
釋	-9.03303
愛	-9.0331
天地	-9.03568
聚	-9.03601
旦	-9.03661
等項	-9.03796
紹	-9.03821
訪	-9.03983
之屬	-9.04207
後世	-9.04253
僅	-9.04286
仁宗	-9.04296
國初	-9.04377
純	-9.04385
職掌	-9.04417
長史	-9.04468
感	-9.04536
御製	-9.04643
勑	-9.0466
覽	-9.04709
饌	-9.04747
四十	-9.04812
有所	-9.04844
采	-9.04848
撥	-9.04991
諫	-9.05217
甫	-9.05417
愈	-9.05511
瞻	-9.05545
十五年	-9.05614
繫	-9.06209
奪	-9.06326
父母	-9.06334
禮樂	-9.06424
侍讀	-9.06425
土官	-9.06614
刺史	-9.06704
乾	-9.06728
使臣	-9.06787
牌	-9.06797
筆帖式	-9.0691
主簿	-9.06962
竒	-9.07287
竊	-9.07411
繁	-9.07415
檜	-9.07416
歳	-9.07449
唐六典	-9.07458
貞	-9.07771
吏部尚書	-9.07825
而後	-9.08044
續	-9.08127
太師	-9.08159
檢	-9.08284
鳴	-9.08372
社	-9.08431
農	-9.08446
三司	-9.08518
謁	-9.08542
紹興	-9.08543
財	-9.08607
今日	-9.08702
雍	-9.08851
少府	-9.09066
翰林學士	-9.09104
急	-9.09377
人等	-9.09424
茶	-9.09472
令史	-9.09486
少卿	-9.097
沙	-9.09832
頌	-9.0991
珠	-9.10137
敵	-9.10154
侍講	-9.10188
慈	-9.10214
略	-9.10228
煩	-9.10251
落	-9.10345
杜	-9.10763
助	-9.10806
機	-9.10909
敦	-9.1106
烏	-9.11069
細	-9.11071
本寺	-9.11215
酌	-9.11242
太僕	-9.11254
釐	-9.113
述	-9.114
典儀	-9.11481
檢討	-9.11483
番	-9.11556
絹	-9.1159
所司	-9.11692
節度使	-9.1189
陶	-9.12233
已上	-9.12251
震	-9.12288
䘮	-9.1239
憂	-9.12399
徑	-9.12445
復置	-9.12477
漢人	-9.12484
文學	-9.12513
殿中	-9.12613
客	-9.12713
布政司	-9.12789
詹事	-9.1283
教授	-9.12835
太平	-9.12897
究	-9.12926
遼	-9.12974
秘書監	-9.13302
廣東	-9.1331
文武官	-9.13369
己	-9.1351
不復	-9.13521
漢軍	-9.13651
皇太后	-9.13681
通典	-9.13802
肇	-9.13911
十八年	-9.13924
呼	-9.13926
形	-9.13967
軍民	-9.14012
一時	-9.14087
本監	-9.14095
負	-9.14111
息	-9.14305
只	-9.1441
諸臣	-9.14468
十三年	-9.14541
官吏	-9.14589
刀	-9.1485
勘	-9.14864
自是	-9.1494
一百	-9.15005
飛	-9.15105
鄉試	-9.1517
投	-9.15181
十八	-9.15348
句	-9.15357
釋奠	-9.15494
葉	-9.15628
蕃	-9.15631
倚	-9.15673
參知政事	-9.15709
令丞	-9.15745
較	-9.15789
庻	-9.15792
抑	-9.16001
術	-9.16178
傷	-9.16179
飾	-9.16199
未嘗	-9.16242
輦	-9.16527
内侍	-9.1673
中大夫	-9.16755
侍衛	-9.16776
姑	-9.16829
段	-9.16926
唯	-9.16946
强	-9.17107
十一年	-9.17111
停	-9.1718
屯	-9.17361
翼	-9.17379
㕘	-9.17396
其所	-9.17415
無所	-9.17418
侍中	-9.1748
之士	-9.17485
之功	-9.17501
一切	-9.17572
如有	-9.17619
烈	-9.17716
黜	-9.1775
等處	-9.17761
索	-9.17772
却	-9.17856
台	-9.18038
頃	-9.1824
一曰	-9.18277
属	-9.18318
膳	-9.18464
猷	-9.18516
楚	-9.18596
井	-9.18705
者亦	-9.1873
績	-9.18874
旁	-9.19084
離	-9.19175
馮	-9.19197
製	-9.19346
承襲	-9.1944
彦	-9.1944
基	-9.19512
攻	-9.19566
展	-9.19574
懋	-9.19627
園	-9.19915
天下之	-9.19925
都察院	-9.20029
殷	-9.20053
棄	-9.20054
州人	-9.20056
亟	-9.20095
元祐	-9.20178
㸃	-9.20312
患	-9.20448
箇	-9.20453
不足	-9.20562
錦	-9.20669
乘	-9.2077
知制誥	-9.20841
各衙門	-9.20851
塞	-9.20983
復位	-9.2108
世子	-9.2119
五品	-9.21197
之上	-9.21276
足以	-9.2157
學校	-9.21709
揖	-9.21756
級	-9.21768
徵	-9.21852
敗	-9.2189
之初	-9.2209
内官	-9.2222
褒	-9.22252
指揮	-9.22279
官制	-9.22296
六部	-9.22303
先帝	-9.22472
熟	-9.22491
㑹試	-9.22583
先賢	-9.22683
完	-9.22749
四品	-9.22838
後周	-9.22902
武帝	-9.22907
添	-9.22979
廣西	-9.22999
中丞	-9.23029
帳	-9.23091
麻	-9.23213
宗廟	-9.23273
怨	-9.23323
舊例	-9.23352
擅	-9.2355
讀書	-9.23557
之道	-9.23683
懼	-9.23734
敕	-9.2377
野	-9.24063
中書省	-9.24077
蜀	-9.24127
知府	-9.2419
逮	-9.24337
神主	-9.24497
六十	-9.24602
巡撫	-9.24615
提督	-9.24627
輒	-9.24628
彰	-9.2465
婦	-9.2466
尺	-9.24693
確	-9.24744
之時	-9.24772
御史中丞	-9.24901
場	-9.25107
帖	-9.25134
拜相	-9.2524
罰	-9.25259
内府	-9.25384
飲	-9.25386
松	-9.25538
不及	-9.25665
僉	-9.25712
所屬	-9.25826
批	-9.259
暫	-9.2596
皇朝	-9.26042
浚	-9.26044
逆	-9.26045
冠帶	-9.26268
本院	-9.26332
僕	-9.26449
顔	-9.2645
淵	-9.26464
宮	-9.26464
三日	-9.26471
空	-9.26477
樓	-9.26486
擊	-9.26495
環	-9.26496
南向	-9.26607
後魏	-9.26615
妻	-9.26734
斗	-9.26747
祗	-9.26934
湏	-9.26995
亮	-9.27016
開元	-9.27156
諸侯	-9.27192
何以	-9.27292
岳	-9.27306
做	-9.27422
豫	-9.27496
荒	-9.27516
齎	-9.27615
寫	-9.27812
縱	-9.27819
丞一人	-9.2784
収	-9.279
陞任	-9.27915
赴京	-9.27944
歟	-9.27953
謙	-9.27995
幣	-9.2804
尚書省	-9.28045
價	-9.28133
今改正	-9.2828
虎	-9.28326
寄	-9.28358
垣	-9.28409
門下	-9.28414
賈	-9.28444
翊	-9.28446
祈	-9.28458
八旗	-9.28505
之子	-9.28755
三代	-9.28766
彌	-9.28864
各王府	-9.28887
賴	-9.28937
判官	-9.2901
如常儀	-9.29012
知縣	-9.29102
先期	-9.29226
淮	-9.29289
提	-9.29352
十四年	-9.29556
茍	-9.29576
前後	-9.29702
各省	-9.29707
脩	-9.29891
鴻	-9.29898
誥	-9.30043
註	-9.30063
哲	-9.30171
擾	-9.30206
以備	-9.30265
舍人	-9.30312
採	-9.30366
決	-9.3041
眷	-9.30486
靡	-9.30653
薄	-9.30825
十七年	-9.31089
漕	-9.31147
其制	-9.31269
祇	-9.31274
使者	-9.31295
争	-9.31355
卜	-9.31378
山川	-9.31521
準	-9.31562
惠卿	-9.31612
之言	-9.31656
國朝	-9.31705
替	-9.31711
范	-9.31842
漏	-9.31898
姓	-9.31948
都尉	-9.31997
始置	-9.32003
周官	-9.32155
冩	-9.32211
盧	-9.3229
元豐	-9.32408
貶	-9.32414
閑	-9.32415
▁(	-9.32495
步	-9.32626
長安	-9.32695
以前	-9.3275
大小	-9.32771
蕭	-9.32786
效	-9.32805
途	-9.32875
速	-9.32916
禮官	-9.33145
侍御史	-9.33271
亦如之	-9.3335
貴州	-9.33353
麗	-9.33398
經筵	-9.33436
直隸	-9.33449
誅	-9.33451
戴	-9.33454
幹	-9.33473
恒	-9.33537
答	-9.33546
侍從	-9.33548
大將軍	-9.3371
司業	-9.33752
所載	-9.3376
秘書	-9.33857
者為	-9.3388
匠	-9.34124
敷	-9.34203
再拜	-9.3422
哭	-9.34228
従	-9.34423
光禄寺	-9.34429
援	-9.3486
屋	-9.34912
杖	-9.34951
十四	-9.34965
雷	-9.34972
辦事	-9.34987
南北	-9.35076
知州	-9.35094
實録	-9.35105
辟	-9.35121
執事官	-9.35133
姓名	-9.35202
各一員	-9.35309
朝貢	-9.35349
戰	-9.3536
藝	-9.35465
之間	-9.35485
之義	-9.35507
枝	-9.35747
沿	-9.35772
二曰	-9.35877
策	-9.35897
神宗	-9.35997
七人	-9.36
各二人	-9.36057
奏聞	-9.36087
文書	-9.36092
諸州	-9.36123
㑹同	-9.36133
是也	-9.36179
君臣	-9.363
閲	-9.36326
順天府	-9.36373
宅	-9.36458
横	-9.36522
輙	-9.36552
鑒	-9.36565
毁	-9.36599
官同	-9.3662
初置	-9.36734
之外	-9.36819
紫	-9.36834
祭告	-9.3695
韋	-9.3708
㣲	-9.37081
辟雍	-9.37105
侵	-9.37113
兩京	-9.37255
仕	-9.37286
亦不	-9.3731
雙	-9.3733
洛	-9.37456
有差	-9.37566
苦	-9.37615
育	-9.37754
懿	-9.37783
徽	-9.37851
牒	-9.37888
謨	-9.37948
𢎞	-9.38066
遊	-9.38084
罷相	-9.38098
州刺史	-9.3812
國學	-9.38227
設官	-9.38266
禍	-9.38483
本府	-9.38537
仙	-9.38647
二十人	-9.38763
起送	-9.38777
剛	-9.38792
皇子	-9.38857
三等	-9.38877
於戲	-9.38905
日月	-9.3891
踰	-9.3895
彭	-9.38955
呉	-9.3897
愚	-9.39137
圭	-9.39137
厲	-9.39181
巴	-9.39182
招	-9.39203
趨	-9.39204
雄	-9.39228
因之	-9.39273
津	-9.39602
税	-9.39672
上以	-9.39706
堂上官	-9.39736
偏	-9.39758
忽	-9.39813
三省	-9.3982
丹	-9.39854
之重	-9.40036
晋	-9.40056
不行	-9.40119
僧	-9.40138
廵	-9.40173
創	-9.40243
貨	-9.40248
奸	-9.40255
盈	-9.403
一等	-9.40311
堯	-9.40321
浮	-9.40344
芳	-9.40361
秦檜	-9.40369
冬至	-9.40576
忌	-9.4066
覺	-9.40779
友	-9.40784
丕	-9.40798
誦	-9.40818
珍	-9.4085
爭	-9.40856
舜	-9.4086
警	-9.40866
學生	-9.40944
致祭	-9.4098
即位	-9.41021
儀仗	-9.41076
謹按	-9.41155
四員	-9.41271
右僕射	-9.41295
板	-9.41537
禮部侍郎	-9.41604
箴	-9.41621
奏稱	-9.41712
将軍	-9.41733
住	-9.41788
貯	-9.41807
兄弟	-9.41956
底	-9.41965
皮	-9.41967
中書舍人	-9.41981
肄業	-9.41982
境	-9.42103
綬	-9.42109
不當	-9.42143
劾	-9.42338
錦衣衛	-9.42389
藉	-9.42452
輸	-9.42461
者則	-9.42482
刋	-9.42497
逹	-9.42546
哀	-9.42604
裏	-9.42686
請封	-9.43
蘭	-9.43059
叅知政事	-9.43167
訟	-9.43345
八十	-9.43376
榜	-9.43426
損	-9.43465
鳳	-9.43591
燭	-9.4362
司空	-9.43622
睿	-9.43652
三曰	-9.43671
逢	-9.4368
翰	-9.43761
二百	-9.44032
篤	-9.44044
侍讀學士	-9.44046
徹	-9.44194
絲	-9.44208
攸	-9.44223
典簿	-9.44362
行之	-9.44422
明年	-9.44427
車駕	-9.44549
誕	-9.44639
排	-9.44725
閱	-9.44767
側	-9.44771
卑	-9.44779
進貢	-9.44841
未幾	-9.44994
否	-9.45125
露	-9.45266
墓	-9.45318
萬世	-9.45332
隠	-9.45345
馭	-9.45366
太史	-9.45413
兄	-9.45657
至元	-9.45768
飭	-9.45869
徙	-9.45895
是年	-9.45923
淳	-9.45948
君子	-9.4596
人員	-9.45961
執事者	-9.45968
譽	-9.45991
鐘	-9.45998
常服	-9.46025
必有	-9.46074
怒	-9.46137
輪	-9.46156
司馬光	-9.46182
定制	-9.46333
所掌	-9.46336
欺	-9.46376
熈	-9.46391
斥	-9.46481
厨役	-9.46517
救	-9.4654
黙	-9.46564
領之	-9.46578
麟	-9.46619
料	-9.46681
三員	-9.46695
妾	-9.46843
是以	-9.46871
制度	-9.46903
皇朝因之	-9.46905
宇	-9.46933
勵	-9.47014
胥	-9.47034
第二	-9.47036
四拜	-9.47074
太后	-9.47089
减	-9.47106
二十四	-9.47121
泉	-9.47124
我朝	-9.47403
承㫖	-9.47412
而無	-9.47469
看	-9.47479
圍	-9.47535
操	-9.47715
兩廡	-9.4775
蔡京	-9.47902
祐	-9.48009
古今	-9.48127
如故	-9.48159
翟	-9.48161
寒	-9.48193
佩	-9.48226
自今	-9.48232
丈	-9.48249
崔	-9.48269
豆	-9.48286
孰	-9.48389
明日	-9.48392
章惇	-9.48526
人心	-9.4866
各置	-9.48758
船	-9.48811
絳	-9.48846
耶	-9.48892
卿等	-9.49065
罔	-9.49072
長子	-9.49186
隻	-9.49192
其名	-9.49245
之訓	-9.49293
雖有	-9.49316
又置	-9.49345
鑄	-9.49381
版	-9.49405
牙	-9.49415
攝	-9.49454
圗	-9.49504
窮	-9.4953
司徒	-9.49642
先師	-9.49665
驛	-9.49698
襄	-9.49745
一名	-9.49806
兵部尚書	-9.49822
危	-9.50012
契	-9.50054
誣	-9.50078
璧	-9.50081
孚	-9.50135
事宜	-9.50147
六品	-9.50244
若干	-9.50297
古人	-9.50356
之政	-9.50364
個	-9.50408
之際	-9.50433
則有	-9.50435
壁	-9.50525
一次	-9.50599
庶子	-9.50602
之盛	-9.50629
戍	-9.50657
游	-9.50679
罕	-9.50697
破	-9.507
介	-9.50719
等物	-9.5072
上命	-9.5075
無不	-9.51017
者有	-9.51042
斤	-9.51196
觧	-9.51265
伸	-9.51299
赦	-9.51318
薛	-9.51337
太和	-9.51391
堪	-9.5148
上香	-9.51491
題准	-9.51588
庶人	-9.51593
講讀	-9.51596
之臣	-9.5164
屬官	-9.51677
序班	-9.51717
占	-9.51812
儀注	-9.51814
之文	-9.51836
鄧	-9.51986
功臣	-9.52052
榖	-9.52294
等事	-9.52305
蠻	-9.52358
借	-9.52421
買	-9.52436
毫	-9.52514
種	-9.52526
紗	-9.52528
洽	-9.5253
蔵	-9.52531
藻	-9.52559
匪	-9.52593
汪	-9.52602
冊寳	-9.52607
五日	-9.52737
進呈	-9.52974
從五品	-9.52983
提學官	-9.53001
毛	-9.53103
潔	-9.53142
拘	-9.5315
衣服	-9.5316
託	-9.53173
琦	-9.53235
文武百官	-9.53274
一品	-9.53383
之典	-9.53408
神位前	-9.53443
左僕射	-9.53527
熙	-9.53546
凡遇	-9.53695
禮部奏	-9.53716
儒士	-9.53744
以致	-9.53769
滋	-9.5379
秀	-9.53792
潘	-9.53821
婚	-9.53826
舉行	-9.53898
橋	-9.54035
祀典	-9.54074
題請	-9.54086
通行	-9.54212
總管	-9.54228
之南	-9.54267
駐	-9.54318
宸	-9.54344
産	-9.54347
紵絲	-9.5435
二十年	-9.54388
黒	-9.54391
侍班	-9.54423
不與	-9.54431
柄	-9.54458
植	-9.54459
祝文	-9.54462
其實	-9.54493
北京	-9.54495
言之	-9.54557
轄	-9.54586
二日	-9.54646
匹	-9.54679
進退	-9.54762
宿衛	-9.54953
余	-9.55016
貪	-9.55016
互	-9.55018
勇	-9.55078
立于	-9.55189
對曰	-9.55246
本朝	-9.55286
病故	-9.5529
先儒	-9.55311
恤	-9.55393
之例	-9.55595
墨	-9.55599
疇	-9.55603
亨	-9.55609
丹墀	-9.55616
輔臣	-9.55631
着	-9.55663
把	-9.55725
書籍	-9.55804
大理	-9.55816
祔	-9.55874
太監	-9.55997
出納	-9.56043
用之	-9.56069
疋	-9.56194
申明	-9.56328
奎	-9.56333
頼	-9.5639
百姓	-9.56402
唐宋	-9.56686
侍講學士	-9.56734
不用	-9.5674
齒	-9.5696
綏	-9.56962
綿	-9.57007
文章	-9.57105
講官	-9.57168
次日	-9.57175
甘	-9.57279
本年	-9.57398
以示	-9.57402
旬	-9.57425
隂陽	-9.57505
姚	-9.57598
超	-9.57602
圓	-9.5763
欽天監	-9.57639
正五品	-9.57649
潛	-9.57653
太尉	-9.5766
三百	-9.57665
所在	-9.5767
禁中	-9.57835
十九年	-9.5793
囚	-9.57934
溥	-9.57953
總兵官	-9.57979
巾	-9.58155
練	-9.5823
哈	-9.58245
遞	-9.58259
都司	-9.58294
傾	-9.58305
遠	-9.58306
壯	-9.58315
慶賀	-9.58322
瓶	-9.58341
巡檢	-9.58486
單	-9.58503
纂	-9.58531
薨	-9.587
繡	-9.58727
算	-9.58733
糾	-9.58771
宗正	-9.58957
之東	-9.58992
列聖	-9.59049
如今	-9.59083
同平章事	-9.59129
勾	-9.59185
資政殿學士	-9.59191
竟	-9.59266
學官	-9.59374
子女	-9.59467
譯	-9.59502
見於	-9.59567
童	-9.5958
包	-9.59584
凢	-9.59604
自後	-9.59646
峻	-9.59891
所言	-9.59906
雪	-9.60134
殆	-9.60157
其子	-9.6018
帝王	-9.60207
儒臣	-9.60259
捕	-9.60278
十二人	-9.60294
二品	-9.60477
太常卿	-9.60634
奏樂	-9.60689
旌	-9.60765
以待	-9.60799
曠	-9.60896
那	-9.60905
舟	-9.6093
訴	-9.60935
詢	-9.60938
吴	-9.60947
王安石	-9.6108
公事	-9.61095
西向	-9.61146
管理	-9.61153
夷簡	-9.61158
科舉	-9.6121
孝宗	-9.61298
逸	-9.61341
樞宻使	-9.61366
耆	-9.61469
九卿	-9.6155
誰	-9.61568
托	-9.6164
七品	-9.61706
莫不	-9.61761
樞宻副使	-9.62012
之儀	-9.6207
表裏	-9.62096
嫡	-9.62097
明白	-9.62137
出身	-9.62157
又以	-9.62244
冒	-9.62266
駙馬	-9.62286
聼	-9.62292
懇	-9.62295
冝	-9.62298
羽	-9.62357
廩	-9.62387
太皇太后	-9.62422
四百	-9.62443
太保	-9.62464
忘	-9.62501
官屬	-9.62557
僧道	-9.6261
往往	-9.62743
事務	-9.62769
𢎞治	-9.62807
艱	-9.62816
十七	-9.6282
監丞	-9.6287
偽	-9.62887
一應	-9.62893
洗	-9.62893
二名	-9.63026
又曰	-9.63053
不為	-9.63158
典禮	-9.63203
正三品	-9.63223
䟽	-9.63344
繳	-9.63375
偹	-9.63447
災	-9.63475
奚	-9.63598
暨	-9.63661
悔	-9.63698
民間	-9.63708
詹事府	-9.63734
至今	-9.63806
叩頭	-9.63832
也今	-9.63842
丁未	-9.63972
士竒	-9.64001
祖訓	-9.64074
制曰朕	-9.64127
銷	-9.64153
冕	-9.64282
之曲	-9.64303
先後	-9.64305
舎	-9.64372
郡縣	-9.64536
本司	-9.64639
是時	-9.64672
者必	-9.64774
廸	-9.64958
檢校	-9.6499
内務府	-9.65002
印信	-9.65022
河東	-9.65033
已下	-9.65055
伐	-9.65058
兼領	-9.65061
虛	-9.65084
七十	-9.65096
署令	-9.65203
典籍	-9.65208
二十二年	-9.65241
奉㫖	-9.6528
輅	-9.65395
到部	-9.65507
樂章	-9.65575
遜	-9.65591
貽	-9.65594
司農	-9.6561
衰	-9.65672
肉	-9.65684
懸	-9.65687
桂	-9.65689
鹿	-9.65766
歡	-9.65789
人才	-9.65959
相應	-9.66009
淑	-9.66075
除授	-9.66108
其有	-9.66161
觀文殿大學士	-9.66358
兒	-9.66423
陛	-9.66439
來朝	-9.66485
纂修	-9.66528
銘	-9.66566
二等	-9.666
樂舞生	-9.66671
從三品	-9.66672
䕶軍	-9.66676
等因	-9.66732
有功	-9.6677
教官	-9.66803
鎮守	-9.66804
討	-9.6686
先朝	-9.66894
位於	-9.66997
催	-9.67004
倍	-9.67057
佑	-9.67099
鹵簿	-9.67113
屈	-9.67203
總督	-9.67259
所奏	-9.67291
順天	-9.67364
旨	-9.67407
銓	-9.6751
二十三年	-9.67596
正副使	-9.67622
錯	-9.6766
入監	-9.6767
輩	-9.67883
稅	-9.67896
謁者	-9.67905
輝	-9.67918
派	-9.67955
下士	-9.68081
襲封	-9.68111
籩豆	-9.68166
進講	-9.68284
鈞	-9.6842
祿	-9.6845
其間	-9.68472
主之	-9.68548
騐	-9.68585
隸	-9.68608
以来	-9.68662
冀	-9.68671
都水	-9.68718
通判	-9.68734
風俗	-9.68774
純仁	-9.68883
槩	-9.68969
之家	-9.69026
世襲	-9.69167
綸	-9.69259
險	-9.69331
給與	-9.69357
夙夜	-9.6937
出於	-9.69393
孤	-9.69482
之弊	-9.6954
公卿	-9.69568
歴代	-9.69602
者許	-9.69689
四曰	-9.69722
抄	-9.69884
為民	-9.69891
貢生	-9.69965
主客	-9.6997
弓	-9.70055
竹	-9.70068
屏	-9.70098
二十五	-9.70127
諱	-9.70152
凡有	-9.70161
由是	-9.70165
另	-9.70213
依舊	-9.70304
正六品	-9.70328
中書侍郎	-9.70387
而下	-9.70525
從事	-9.70582
依前	-9.70599
懲	-9.70676
傑	-9.70702
頂	-9.70728
状	-9.70766
昨	-9.7077
既而	-9.70794
遲	-9.70817
健	-9.70827
小人	-9.70913
根	-9.70921
第三	-9.70946
)○	-9.71076
之徒	-9.7108
岑	-9.71096
太傅	-9.71103
散官	-9.71134
静	-9.71205
寜	-9.71271
九品	-9.71325
之下	-9.71344
耕	-9.71348
之風	-9.71351
𦵏	-9.71353
郊祀	-9.71367
澄	-9.71463
辛	-9.71482
蒼	-9.71508
塗	-9.71589
寓	-9.71628
範	-9.71664
各府	-9.71758
大事	-9.71818
仍舊	-9.71833
改正	-9.71833
者即	-9.71856
勘合	-9.71981
宫中	-9.72164
王公	-9.72277
度支	-9.7229
燈	-9.72293
矧	-9.72296
閒	-9.7232
鸞	-9.72323
證	-9.72323
溪	-9.72328
靜	-9.72351
京城	-9.7238
迪	-9.72419
柱	-9.7247
嵗貢	-9.72484
御前	-9.72484
詔書	-9.72631
鴻臚	-9.72695
國子	-9.72797
謝恩	-9.72891
長官	-9.72897
刺	-9.72965
命婦	-9.72966
桌	-9.7302
諸路	-9.7307
宥	-9.73082
乏	-9.73123
國之	-9.73153
聖人	-9.73198
給事	-9.73341
荆	-9.7345
京官	-9.73466
貢監生	-9.73507
僕射	-9.73591
聖祖	-9.73597
成化	-9.73603
姪	-9.73724
卓	-9.73761
封爵	-9.73832
鑑	-9.73848
奮	-9.73851
囬	-9.73851
困	-9.73904
秦漢	-9.7394
戸部	-9.74119
府州縣	-9.74355
稷	-9.74358
素服	-9.74508
禹	-9.74527
潤	-9.74541
璽	-9.74568
随	-9.74569
租	-9.7457
或有	-9.74599
暴	-9.746
齡	-9.74698
宋齊	-9.74718
起居注	-9.74736
古者	-9.74858
内史	-9.7491
學者	-9.74915
五百	-9.74941
四海	-9.74954
大祀	-9.74987
墳	-9.75016
黎	-9.75105
管勾	-9.75253
昇	-9.75261
伍	-9.75305
輯	-9.75363
洞	-9.75387
削	-9.75388
儼	-9.75401
亞獻	-9.75429
荷	-9.75432
鄰	-9.75456
康熈	-9.7546
禀	-9.75478
者以	-9.75486
楹	-9.75584
也至	-9.75695
其中	-9.75749
者俱	-9.75833
之北	-9.75846
都御史	-9.75892
惜	-9.75932
寅	-9.7596
復命	-9.75967
貞觀	-9.75998
二人掌	-9.76099
尾	-9.76149
強	-9.76153
䕫	-9.76178
毅	-9.76206
留守	-9.76207
官學生	-9.76456
不置	-9.76606
中興	-9.76667
朝賀	-9.76687
則以	-9.76731
二府	-9.76744
十九	-9.76761
和之曲	-9.76784
讓	-9.7691
人數	-9.77038
廊	-9.77055
少傅	-9.77087
門下侍郎	-9.77165
學士院	-9.77171
就位	-9.77184
二千	-9.77196
進封	-9.77251
復為	-9.77287
文廟	-9.77364
蕃王	-9.77385
宰臣	-9.77409
皇考	-9.77457
應襲	-9.77572
背	-9.77606
厭	-9.77627
幽	-9.77716
韶	-9.778
遐	-9.77815
員額	-9.77827
合用	-9.77881
中宫	-9.77948
蒙	-9.77977
法度	-9.77999
司官	-9.78063
陪祀	-9.78123
故也	-9.78149
每日	-9.78254
史記	-9.78355
洪武元年	-9.78419
大理寺	-9.7844
岐	-9.7844
故男	-9.78441
官至	-9.78469
傳贊	-9.78494
怠	-9.78505
亷	-9.78514
粟	-9.78522
換	-9.78548
邵	-9.78549
龜	-9.7855
鐸	-9.78571
煥	-9.78597
正中	-9.78738
正德	-9.78805
不合	-9.78987
析	-9.79161
以時	-9.79232
翠	-9.79256
淺	-9.79324
街	-9.79351
待詔	-9.79355
凌	-9.79372
六堂	-9.79433
品秩	-9.79472
乞要	-9.7957
少監	-9.79626
都統	-9.79777
老成	-9.79867
縣令	-9.79885
拱	-9.79927
揆	-9.79945
界	-9.79954
扶	-9.79963
慕	-9.80054
逃	-9.80097
襲職	-9.80121
繙譯	-9.80178
𤼵	-9.80187
鴻臚寺官	-9.80279
人主	-9.80312
太守	-9.80414
州知州	-9.80473
女官	-9.80516
持節	-9.8056
與今	-9.80638
之節	-9.80748
之中	-9.80764
十五日	-9.8085
不宜	-9.80896
貧	-9.80907
中尉	-9.80949
嫌	-9.8098
賣	-9.80982
夙	-9.80986
扇	-9.80992
陟	-9.81003
叛	-9.81011
徧	-9.81044
國王	-9.8112
導引	-9.81274
是用	-9.81317
自古	-9.81329
御史大夫	-9.81458
起居	-9.81537
公著	-9.8159
朝服	-9.81602
然則	-9.81622
其人	-9.81684
夾	-9.817
迹	-9.81704
䖍	-9.8173
厰	-9.81752
俯	-9.81762
其言	-9.81778
十日	-9.81787
曺	-9.81802
鼓吹	-9.81812
屯田	-9.81829
廪	-9.81848
立於	-9.81858
之物	-9.81864
慰	-9.81993
讀祝	-9.8202
員外	-9.82066
上言	-9.82102
品級	-9.82129
丘	-9.82146
正七品	-9.82207
輕重	-9.82343
分獻官	-9.82396
議論	-9.82437
上諭	-9.82453
王妃	-9.82463
旅	-9.82486
鮮	-9.82514
袍	-9.82523
大明	-9.82556
二十一年	-9.82591
甘肅	-9.82665
濶	-9.82674
之政令	-9.82675
凝	-9.82688
欽若	-9.82753
提㸃	-9.82757
庶幾	-9.82765
諡文	-9.8283
唐制	-9.8284
煬帝	-9.82863
西南	-9.82936
洪武初	-9.82993
每嵗	-9.83005
考選	-9.83031
焚	-9.83095
桑	-9.83152
織	-9.83166
三千	-9.83197
欽定	-9.83278
後漢書	-9.83351
曉	-9.83388
燾	-9.83402
谷	-9.83443
什	-9.83495
茲	-9.83504
詐	-9.83509
談	-9.83516
謬	-9.83536
謫	-9.83549
訓導	-9.83683
古之	-9.83734
邇	-9.83785
順治	-9.83862
正旦	-9.83972
成祖	-9.84034
云云	-9.84048
二十四年	-9.84081
廄	-9.84146
劄	-9.84163
祭酒司業	-9.84181
值	-9.84198
衣冠	-9.84202
巳	-9.84257
著作	-9.84276
拉	-9.84326
官一員	-9.84339
鐵	-9.84345
提調	-9.84379
笑	-9.8439
掾	-9.84395
臻	-9.84398
以此	-9.84448
軍節度使	-9.84483
查得	-9.8456
九人	-9.84615
命禮部	-9.84658
張浚	-9.84672
緑	-9.84851
御史臺	-9.84871
正徳	-9.84969
司禮監	-9.84983
務要	-9.85086
踐	-9.85103
浩	-9.85129
恢	-9.85132
混	-9.85195
元史	-9.85199
恊	-9.852
之舊	-9.85238
馳	-9.85272
門下省	-9.85282
朝夕	-9.85405
行事	-9.85418
違者	-9.85431
本州	-9.85464
世祖	-9.85497
覈	-9.85648
河北	-9.85653
宣徳	-9.85665
禮部言	-9.85699
正統	-9.85712
特進	-9.85735
東南	-9.8576
筵	-9.85764
公侯	-9.85786
典儀唱	-9.85786
大禮	-9.85865
秘	-9.85988
盗	-9.86035
鄒	-9.86073
偉	-9.86083
俞	-9.8609
西域	-9.8609
守備	-9.8612
竭	-9.86139
齋戒	-9.86147
兵馬	-9.86176
佐領	-9.86214
天文	-9.86303
行在	-9.86416
序立	-9.86432
湖	-9.86465
若有	-9.86481
為宰相	-9.86507
門内	-9.86531
五代	-9.86691
父子	-9.86783
項	-9.86811
始終	-9.86856
中國	-9.86877
舒	-9.86878
朔望	-9.86933
愆	-9.86936
沿革	-9.86957
衍聖公	-9.86995
兼管	-9.87008
差人	-9.87125
曰朕	-9.87141
核	-9.8723
更定	-9.87325
原作	-9.8734
行人	-9.87342
真宗	-9.87348
件	-9.87358
朝㑹	-9.87394
倣	-9.87466
史館	-9.87539
走	-9.87553
之始	-9.87586
上書	-9.87654
衮	-9.8773
初制	-9.87737
漆	-9.87745
隊	-9.87748
炷	-9.87754
西京	-9.87769
挾	-9.87771
㢘	-9.87772
架	-9.87786
沮	-9.87827
熊	-9.87857
悦	-9.87865
梓宫	-9.87896
英宗	-9.87943
遂以	-9.88008
裳	-9.88174
疆	-9.88244
冲	-9.88367
武官	-9.88371
恕	-9.88448
大使	-9.88457
參政	-9.88461
恪	-9.88462
夕	-9.88513
穀	-9.88532
二字	-9.88622
䑓	-9.88633
緩	-9.8865
巧	-9.88656
鎮國將軍	-9.88663
行移	-9.88666
遭	-9.8869
祭一壇	-9.8875
未及	-9.88771
引禮引	-9.88784
箋	-9.88812
不以	-9.88821
中郎將	-9.88926
少保	-9.88942
廷尉	-9.8897
之號	-9.89096
分獻	-9.89097
獻官	-9.892
舎人	-9.89209
七日	-9.89266
先生	-9.89287
聰	-9.89303
乙	-9.89436
以供	-9.89438
饗	-9.8946
廕	-9.89534
惑	-9.89549
㑹議	-9.89571
慢	-9.89573
中書令	-9.89614
巖	-9.89648
緒	-9.89649
中書門下	-9.89654
觀文殿學士	-9.89675
錢糧	-9.89721
一千	-9.8974
多寡	-9.89787
扈從	-9.89824
館閣	-9.89909
北向	-9.89981
賜宴	-9.90058
歩	-9.9024
集賢	-9.90246
始以	-9.90295
也然	-9.90296
生母	-9.90393
前一日	-9.90418
儒學	-9.90431
播	-9.90442
佛	-9.9045
築	-9.90482
賞賜	-9.90487
滅	-9.90506
濓	-9.90547
旣	-9.9058
洛陽	-9.90615
上帝	-9.90686
移文	-9.90687
並無	-9.90693
轉運使	-9.90695
拜位	-9.90766
得以	-9.9077
三十年	-9.9077
引見	-9.90808
隆慶元年	-9.90854
不拘	-9.90881
獻爵	-9.90885
塲	-9.90891
上親	-9.90927
御書	-9.90959
正位	-9.91055
灾	-9.91073
配享	-9.91275
即今	-9.91299
奉先殿	-9.9131
掩	-9.91326
辱	-9.91342
迨	-9.91349
寕	-9.91358
噐	-9.9136
域	-9.91375
邱	-9.914
袁	-9.91414
洪武三年	-9.91434
明堂	-9.91442
騰	-9.91457
遵守	-9.91472
受命	-9.91491
督撫	-9.91531
冊封	-9.91531
長官司	-9.91645
十有二	-9.9166
匣	-9.91683
遣人	-9.91711
丞二人	-9.91756
二十九年	-9.91876
尚書左丞	-9.91934
滿洲漢人各一人	-9.91989
也又	-9.91992
十六人	-9.92047
珪	-9.92061
於上	-9.92087
禮記	-9.92103
獸	-9.92146
内贊	-9.92148
驅	-9.9216
國子學	-9.92211
弱	-9.9225
軸	-9.92271
驚	-9.92274
三十人	-9.92276
名及第出身題名碑	-9.92281
矜	-9.92287
波	-9.92294
眞	-9.92334
主婚者	-9.92344
粹	-9.92373
尚書右丞	-9.92398
鶴	-9.92418
太府	-9.92433
永樂元年	-9.92447
工部尚書	-9.92451
應天府	-9.92596
難以	-9.92617
人情	-9.92645
午	-9.92677
我皇上	-9.92692
已而	-9.92736
短	-9.93067
融	-9.93092
領軍	-9.93139
别置	-9.93148
貼	-9.93172
之西	-9.93178
喇	-9.932
含	-9.93214
燎	-9.93239
欵	-9.93274
況	-9.93295
乗輿	-9.93298
諒	-9.93306
卞	-9.93327
或以	-9.9333
方物	-9.934
少詹事	-9.93413
太僕寺	-9.93435
他日	-9.93471
還宫	-9.93604
有㫖	-9.93667
從九品	-9.93681
前期	-9.93683
厯代	-9.93715
之比	-9.93738
户部尚書	-9.93918
告襲	-9.93924
寡	-9.93924
二千石	-9.93976
整	-9.94026
題名	-9.94042
機務	-9.94064
彛	-9.94125
娶	-9.94133
几	-9.94185
皇祖	-9.94187
巡按御史	-9.94193
者多	-9.94227
都督府	-9.94341
户部侍郎	-9.94344
九十	-9.94366
先年	-9.94467
追封	-9.94484
初獻	-9.94487
嬪	-9.94566
合無	-9.94586
供奉	-9.94591
臣下	-9.94606
儀同	-9.94617
今之	-9.94685
昉	-9.94762
滿漢	-9.94888
爾等	-9.94934
士充	-9.94936
虎賁	-9.94937
每年	-9.95007
増設	-9.95009
咎	-9.95032
之内	-9.95043
周公	-9.95055
邸	-9.95067
盜	-9.95075
詰	-9.95098
官二員	-9.95109
壊	-9.95131
壺	-9.95185
聖㫖	-9.95186
瓊	-9.95242
髙祖	-9.95365
未經	-9.95425
其官	-9.95472
萬年	-9.95547
兆	-9.95596
所用	-9.95609
胙	-9.95629
吏部侍郎	-9.95683
内使	-9.9571
洪武中	-9.95723
工尺	-9.9575
諸軍	-9.95792
奉安	-9.95873
簽	-9.95888
瀆	-9.95946
蒙古	-9.95946
敎	-9.95988
牢	-9.96002
等奏	-9.9604
宣宗	-9.96041
晩	-9.96093
樂器	-9.96097
藴	-9.96139
内殿	-9.96141
閤門	-9.96173
之故	-9.96203
生徒	-9.96248
北面	-9.96254
等衙門	-9.96255
從七品	-9.96335
陵寢	-9.96457
毋得	-9.96487
史官	-9.9651
僚	-9.96527
文獻通考	-9.96608
少師	-9.96624
南面	-9.96635
天順	-9.96664
綾	-9.96723
已經	-9.96772
渠	-9.96826
偶	-9.96868
疎	-9.96919
甞	-9.96971
廬	-9.96985
闡	-9.96994
畜	-9.97012
翔	-9.97023
餅	-9.97047
殿中侍御史	-9.97059
憑	-9.97073
文淵閣	-9.9716
於戱	-9.97164
曰此	-9.97215
陞座	-9.97237
其地	-9.97343
南郊	-9.9737
郊廟	-9.9742
皆為	-9.97445
二十六年	-9.97468
𠡠	-9.97478
愧	-9.97495
言者	-9.975
也原作	-9.97513
不見	-9.97571
倡	-9.97672
該本部	-9.97692
湖南	-9.97784
千户	-9.97788
俎	-9.97824
厨	-9.97845
永樂中	-9.97857
泥	-9.97977
耀	-9.97991
骨	-9.97992
雞	-9.98019
竝	-9.98029
遍	-9.9803
誼	-9.9803
送神	-9.98114
之命	-9.98127
朕心	-9.98135
提學	-9.98162
朝覲	-9.98165
殿内	-9.98191
國史	-9.98291
官軍	-9.98312
不勝	-9.98408
殿前	-9.98438
遇有	-9.98451
概	-9.98598
西北	-9.98682
視事	-9.98811
職名	-9.9885
僉事	-9.98874
競	-9.98961
直省	-9.9904
郡國	-9.99103
文帝	-9.99149
經史	-9.99149
樞宻	-9.99182
乖	-9.99187
録事	-9.99237
州府	-9.99311
者其	-9.99374
梁陳	-9.99391
畿	-9.99419
玉堂	-9.99685
為相	-9.99828
稽古	-9.9988
聨	-9.99904
尚書令	-9.99918
憲宗	-9.9992
沒	-9.99948
隱	-9.99977
躋	-9.99982
恵	-9.99985
御座	-10.0007
銷金	-10.0023
金銀	-10.0025
不在	-10.0026
五曰	-10.0028
兼侍讀	-10.0028
俯伏興	-10.0035
方許	-10.0046
輟	-10.0058
錠	-10.0059
奉祀	-10.0064
安南	-10.0064
幼	-10.0069
人材	-10.0075
各該	-10.0083
並同	-10.0085
欣	-10.0087
所當	-10.0088
束	-10.0089
阻	-10.0092
綜	-10.0093
摩	-10.0093
軒	-10.0094
闈	-10.0096
渥	-10.0096
悼	-10.0097
嗣後	-10.0097
邁	-10.0097
消	-10.0099
炳	-10.0102
知之	-10.0107
宗社	-10.0113
頭目	-10.0115
從六品	-10.0124
陞殿	-10.0128
聖賢	-10.0131
次第	-10.0143
其時	-10.0155
東向	-10.0164
戚	-10.0166
之寄	-10.0172
從四品	-10.0172
正官	-10.0183
飯	-10.0187
所生	-10.0187
壻	-10.019
傍	-10.0192
矢	-10.0193
蔽	-10.0193
籌	-10.0193
油	-10.0193
帷	-10.0194
于是	-10.0194
聘	-10.0196
禮成	-10.0198
陋	-10.02
浸	-10.02
劇	-10.02
緣	-10.0205
曷	-10.0207
知事	-10.0233
考滿	-10.0235
本官	-10.0238
每歲	-10.0241
之前	-10.0245
人君	-10.0253
不載	-10.0254
經義	-10.0257
分掌	-10.0258
太常寺卿	-10.0259
合四一四	-10.026
樞宻院	-10.0264
百户	-10.0266
殿下	-10.0266
尚方	-10.0284
綵	-10.0285
裴	-10.0289
謹案宋	-10.0292
増置	-10.0295
視朝	-10.0296
陰	-10.0297
縉	-10.0297
旌表	-10.0299
勾當	-10.03
廷臣	-10.0302
弩	-10.0303
賫	-10.0303
仍令	-10.0306
宣德	-10.0309
幄	-10.031
四夷	-10.031
考之	-10.0313
熈寧	-10.0314
奏乞	-10.0318
禄米	-10.0321
兼學士	-10.0328
武臣	-10.0339
宋齊梁陳	-10.0344
册立	-10.0344
奏準	-10.0363
正四品	-10.037
迄	-10.0377
抵	-10.0381
該部	-10.0388
文移	-10.0388
成均	-10.039
輔國將軍	-10.0395
差官	-10.0396
𤓰	-10.0399
十五人	-10.0399
冐	-10.0399
两	-10.0401
者不	-10.0402
恃	-10.0404
山陵	-10.0406
仲淹	-10.0408
二十七年	-10.0413
蔣	-10.0414
使人	-10.042
等言	-10.0423
宰執	-10.0427
知其	-10.043
居中	-10.043
等員	-10.0434
天子之	-10.0437
三十六	-10.0438
効	-10.0451
規制	-10.0453
一百五十	-10.0456
近侍	-10.047
洪武二年	-10.0472
是月	-10.0476
屬官有	-10.0484
配位	-10.0484
議准	-10.0487
㡬	-10.049
蠶	-10.0492
柔	-10.0493
晨	-10.0494
槐	-10.0498
鼔	-10.05
豪	-10.0503
年任	-10.0504
纔	-10.0505
得㫖	-10.0505
紳	-10.0505
廐	-10.0506
契丹	-10.0509
塔	-10.0514
沂	-10.0514
諸子	-10.0524
其屬	-10.0525
者或	-10.0527
無以	-10.0541
廂	-10.0546
御名	-10.055
祠部	-10.0552
豈可	-10.0557
不便	-10.056
建言	-10.0561
年老	-10.0568
冊府元龜	-10.059
神位	-10.059
渭	-10.0598
同上	-10.0599
竄	-10.0608
梅	-10.0608
憚	-10.0608
填	-10.061
穿	-10.061
割	-10.0611
巨	-10.0612
隔	-10.0612
奴	-10.0614
探	-10.0614
綴	-10.0615
等皆	-10.0616
州郡	-10.0617
五寸	-10.0617
照磨	-10.0622
乙未	-10.0638
侍立	-10.0639
婦人	-10.0639
羽林	-10.0639
祭器	-10.0645
楊士竒	-10.0651
光武	-10.0653
為一	-10.066
内閣學士	-10.0666
議者	-10.0668
六尺工尺	-10.067
典事	-10.0672
治之	-10.0673
教化	-10.0677
一道	-10.0678
明史	-10.0684
又定	-10.0686
跪進	-10.0686
不堪	-10.0688
祧	-10.0695
之位	-10.0704
太中大夫	-10.0705
染	-10.0711
鉅	-10.0712
也原	-10.0715
東西相向	-10.0715
打	-10.0716
之誠	-10.0717
繋	-10.0722
罄	-10.0723
嵩	-10.0725
正字	-10.073
中允	-10.0731
光祿寺	-10.0731
累朝	-10.0732
大抵	-10.0738
以禮	-10.0739
可謂	-10.0742
居住	-10.0743
宜令	-10.075
太原	-10.0752
不相	-10.0758
至日	-10.0761
之望	-10.0766
奉天	-10.0767
朝見	-10.0795
代之	-10.0803
誥命	-10.0804
近年	-10.0811
視學	-10.0813
亦以	-10.0819
栁	-10.0822
酬	-10.0823
荘	-10.0824
鑾	-10.0827
其家	-10.0829
繩	-10.0829
武徳	-10.083
溢	-10.083
趣	-10.0833
飲食	-10.0838
蔡確	-10.0844
䝉古語	-10.0847
香案前	-10.0853
落職	-10.0853
趙鼎	-10.0853
一百二十	-10.0856
殿上	-10.0861
甲辰	-10.0864
上士	-10.0885
終獻	-10.0893
六員	-10.0893
從容	-10.0904
冦	-10.0914
措	-10.0915
分司	-10.0918
列於	-10.0919
有餘	-10.0922
入朝	-10.0927
亞	-10.0931
徼	-10.0933
妙	-10.0934
彦博	-10.0937
癸未	-10.0937
牽	-10.0937
樞密使	-10.0938
歛	-10.0939
祝版	-10.0939
聿	-10.0941
㑹典	-10.0942
之崇	-10.0943
光禄	-10.0946
遼東	-10.0948
每月	-10.0949
詩賦	-10.0952
儀賔	-10.0956
四日	-10.0959
正二品	-10.0961
如今之	-10.0964
搢笏	-10.0964
又言	-10.097
同知樞密院事	-10.097
以進	-10.0977
合行	-10.0981
永樂二年	-10.0983
可知	-10.0992
不肯	-10.0992
得人	-10.0993
該府	-10.0995
一人掌	-10.1001
考取	-10.1004
冶	-10.101
字韻	-10.1014
如儀	-10.1015
一分	-10.1018
已有	-10.1022
教之	-10.1023
戊	-10.1024
有事	-10.1029
夢	-10.104
贓	-10.104
諧	-10.1041
募	-10.1041
鑰	-10.1043
而行	-10.1044
標	-10.1044
衷	-10.1045
乂	-10.1045
大成	-10.1046
逵	-10.1048
沉	-10.1049
逾	-10.105
滿洲語	-10.1054
東京	-10.1064
著為令	-10.1076
入貢	-10.1079
一卷	-10.1082
總理	-10.1086
之罪	-10.1086
裔	-10.1091
際	-10.1094
初設	-10.1095
六百	-10.1095
傳制	-10.1097
復設	-10.1104
蒲	-10.1107
如是	-10.1112
禮部志稿卷	-10.1117
二十七	-10.1122
陜	-10.1125
之説	-10.1127
大樂	-10.1129
不可不	-10.113
送部	-10.1137
遂為	-10.1141
舘	-10.1143
驕	-10.1144
平章事	-10.1147
牓	-10.1148
洵	-10.1149
鄙	-10.1151
鑿	-10.1154
陽人	-10.1159
上御	-10.1159
睦	-10.1159
甸	-10.1161
則又	-10.117
是非	-10.117
損益	-10.1172
教坊司	-10.1177
入相	-10.1178
行文	-10.1181
玉海	-10.1194
又令	-10.12
舊封	-10.1208
之左	-10.1215
取士	-10.1217
之學	-10.1223
按察司	-10.1234
寨	-10.1235
道路	-10.1236
亦無	-10.1239
紛	-10.1242
皆得	-10.1243
辛未	-10.1246
事情	-10.1246
百司	-10.1251
儀賓	-10.1258
總兵	-10.126
逓	-10.1262
碩	-10.1263
通政司	-10.1264
隅	-10.1265
拂	-10.1267
行四拜禮	-10.1269
貸	-10.127
㧞	-10.127
括	-10.1271
蚤	-10.1271
蹈	-10.1271
鳥	-10.1277
遥	-10.128
世宗	-10.1281
猪	-10.1282
掌院學士	-10.1284
禮部右侍郎	-10.1285
不至	-10.1287
洗馬	-10.1288
富弼	-10.1291
劄子	-10.1292
右丞相	-10.1294
前項	-10.1298
玉帛	-10.1307
原籍	-10.1308
大學	-10.1315
嘉靖九年	-10.1317
郎中員外郎	-10.1329
宫人	-10.1329
不分	-10.1336
應試	-10.1342
起復	-10.1342
乃以	-10.1346
自有	-10.1346
考官	-10.135
之用	-10.1351
篆	-10.1355
乙丑	-10.1359
㓜	-10.1369
雕	-10.138
零	-10.138
脫	-10.1381
披	-10.1382
頓	-10.1383
碧	-10.1384
賞罰	-10.1394
分别	-10.1407
三間	-10.1409
吏目	-10.1419
加封	-10.142
有無	-10.1423
在内	-10.1429
貟	-10.1441
異數	-10.1441
逺近	-10.1442
百官志	-10.1443
尼	-10.1444
漢制	-10.1453
金人	-10.1459
以授	-10.1459
丙辰	-10.1463
諫議大夫	-10.1464
豈不	-10.1484
跡	-10.1489
僖	-10.1492
孟子	-10.1494
官司	-10.1496
覩	-10.1499
中士	-10.15
禱	-10.15
團	-10.1501
逰	-10.1501
無定員	-10.1503
韓琦	-10.1503
太醫院	-10.1507
太宰	-10.151
年月	-10.1516
賛引	-10.1517
從二品	-10.1517
二兩	-10.1518
科道	-10.1522
至于	-10.1524
内臣	-10.1527
建康	-10.153
黑	-10.1532
校書郎	-10.1539
月日	-10.1543
忍	-10.1544
五員	-10.1546
皇城	-10.1557
帝紀	-10.1557
區	-10.1558
謹案漢	-10.158
嶽	-10.159
千里	-10.1591
實為	-10.1598
宫門	-10.1599
政和	-10.16
使相	-10.1602
經厯	-10.1605
辨其	-10.1606
相近	-10.1606
其他	-10.1608
正八品	-10.1609
徃徃	-10.1611
駁	-10.1611
十三人	-10.1611
棟	-10.1614
軰	-10.1614
參軍	-10.1616
自此	-10.1618
臨雍	-10.1618
謗	-10.1619
違例	-10.162
皆不	-10.162
臣僚	-10.1621
呂	-10.1623
諸道	-10.1624
生民	-10.163
賓客	-10.1634
京畿	-10.164
股肱	-10.1648
承奉	-10.165
三品以上	-10.1653
奬	-10.1661
喪禮	-10.1661
將來	-10.1664
景泰	-10.1669
調任	-10.1679
桓	-10.1685
監督	-10.1685
相同	-10.1685
所為	-10.1687
使之	-10.1691
嚴加	-10.1694
知㑹	-10.1699
一箇	-10.1703
二十一	-10.1704
亦可	-10.1713
繕	-10.1719
江淮	-10.1723
鋪	-10.1723
東西向	-10.1723
不然	-10.1728
斬	-10.1728
𣲖	-10.1731
鄂	-10.1731
没	-10.1732
飬	-10.1734
阜	-10.1736
姜	-10.1737
封為	-10.1737
上意	-10.1747
中間	-10.1747
功曹	-10.1755
是為	-10.1756
一月	-10.1757
陽王	-10.176
監司	-10.1762
百人	-10.1764
到京	-10.1769
刑部尚書	-10.1769
聖駕	-10.1779
徹饌	-10.1783
城門	-10.1784
都監	-10.1786
絹一疋	-10.1794
本處	-10.1795
左右衛	-10.1797
始於	-10.1801
不准	-10.1805
翰林官	-10.1807
始有	-10.1814
如何	-10.1816
毎年	-10.1816
考功	-10.1817
流官	-10.1818
封號	-10.1823
都官	-10.1823
鉞	-10.1832
瓦	-10.1833
某年月日	-10.1839
帯	-10.184
痛	-10.1841
耗	-10.1841
未置	-10.1843
年間	-10.1844
禆	-10.1847
衫	-10.1848
掲	-10.185
斟酌	-10.1851
饒	-10.1852
出使	-10.1853
忌辰	-10.1855
嚮	-10.1856
節制	-10.1857
玉牒	-10.1859
忤	-10.1859
先聖	-10.1859
一副	-10.1862
事理	-10.1868
令其	-10.1872
管事	-10.1876
正殿	-10.1879
勝非	-10.1888
大政	-10.1889
大同	-10.1889
節度	-10.189
應天	-10.1891
實錄	-10.1891
省牲	-10.1893
有不	-10.1894
及諸	-10.1894
學士充	-10.1898
太倉	-10.1911
不一	-10.192
相與	-10.1923
事故	-10.1925
禮制	-10.1926
王國	-10.1931
考課	-10.1935
迎神	-10.1936
師生	-10.1937
更名	-10.1937
之情	-10.1938
為國	-10.1944
相繼	-10.1944
禮部議	-10.1945
治罪	-10.1948
藍	-10.1963
暇	-10.1965
闢	-10.1966
叨	-10.1969
宣慰司	-10.197
旱	-10.1972
枉	-10.1973
戾	-10.1974
下大夫	-10.1977
己未	-10.1978
以下皆	-10.1979
㳺	-10.198
謹案唐	-10.1984
監官	-10.1984
二十五年	-10.1986
元和	-10.1987
秘書省	-10.1993
年月日	-10.1995
位于	-10.1996
按察使	-10.2
備考	-10.2003
五官	-10.2006
皇妃	-10.2006
同列	-10.2011
直學士	-10.2013
年八月	-10.202
士大夫	-10.2025
官職	-10.2026
諫官	-10.2032
不允	-10.2032
叅政	-10.2043
士子	-10.2047
仍兼	-10.2053
軍器	-10.2058
也故	-10.206
樂舞	-10.2063
羞	-10.2071
城隍	-10.2077
定例	-10.2079
儉	-10.2079
定為	-10.2081
開國	-10.2082
滯	-10.2082
弁	-10.2083
見在	-10.2084
寃	-10.2087
未可	-10.2087
隣	-10.2092
幕	-10.2093
晦	-10.2093
劄付	-10.2094
抱	-10.2095
籩	-10.2096
所宜	-10.2096
瑶	-10.2096
醇	-10.2097
著作郎	-10.21
寸	-10.2101
靖康	-10.2104
職官	-10.2111
許之	-10.2116
丹陛	-10.2124
毎人	-10.2125
刑名	-10.2127
上謂	-10.2128
不如	-10.213
教職	-10.2133
請㫖	-10.2134
圜丘	-10.2145
魏晉	-10.2153
二十八年	-10.2165
仁祖	-10.218
八品	-10.2187
通州	-10.219
永平	-10.2199
閤	-10.2207
隆慶	-10.2208
箭	-10.2208
盛典	-10.2208
殘	-10.221
洎	-10.2211
之語	-10.2212
醉	-10.2213
監事	-10.2216
麾	-10.2216
涉	-10.2216
撤	-10.2216
誘	-10.2216
彈	-10.2219
禎	-10.2219
函	-10.222
提舉洞霄宫	-10.2221
蠻夷	-10.2222
盟	-10.2223
校勘	-10.2224
耿	-10.2225
轍	-10.2226
也其	-10.2226
亶	-10.2229
數月	-10.2231
二十七日	-10.2237
所有	-10.2238
差遣	-10.2244
家人	-10.2245
兵部侍郎	-10.2252
因循	-10.2252
查照	-10.2253
癸丑	-10.2255
其在	-10.2266
以疾	-10.2267
十八人	-10.2268
跪奏	-10.2272
一事	-10.2313
二十二	-10.2319
本院官	-10.2321
抗	-10.2325
蕩	-10.2325
人皆	-10.233
正九品	-10.2332
毎月	-10.2332
盞	-10.234
套	-10.2341
㫁	-10.2342
渉	-10.2342
賤	-10.2342
訛	-10.2344
授封	-10.2344
撫按	-10.2344
暢	-10.2344
經書	-10.2345
巡按	-10.2346
粤	-10.2348
之祭	-10.2353
位次	-10.2356
徽宗	-10.2357
停止	-10.2362
奉聖㫖是	-10.237
武庫	-10.2375
時有	-10.2383
無異	-10.2387
駕部	-10.2391
大都	-10.2394
至正	-10.2404
明代	-10.2414
不容	-10.2415
行省	-10.2416
多有	-10.2424
一二	-10.2425
具本	-10.2425
奉聖㫖是欽此	-10.2428
章奏	-10.2429
演	-10.2436
推官	-10.244
丁丑	-10.2443
最為	-10.2445
需	-10.2449
選用	-10.2455
氷	-10.2459
二十六	-10.2464
堯舜	-10.2467
皆在	-10.2467
琳	-10.2468
太常寺官	-10.2469
壞	-10.247
爽	-10.2471
窺	-10.2473
斂	-10.2474
剌	-10.2475
陷	-10.2478
贊引	-10.2483
題準	-10.2487
官生	-10.2489
從九	-10.2492
通事舍人	-10.25
伯克	-10.2504
仍行	-10.2505
挺	-10.2505
衛尉	-10.251
多士	-10.2511
五品以上	-10.2526
表箋	-10.2529
肯	-10.2539
唐虞	-10.2541
轉運	-10.2544
學政	-10.2544
無事	-10.2544
鑄錢	-10.2545
著於	-10.2549
廷試	-10.2556
京都	-10.2559
之恩	-10.2561
之權	-10.257
奉行	-10.257
般	-10.2585
請勅	-10.2588
激	-10.2593
瘞	-10.2595
奉天門	-10.2597
塵	-10.2599
泛	-10.2599
想	-10.26
俯伏興平身	-10.2603
故有是命	-10.2604
五經博士	-10.2605
選擇	-10.2606
副都統	-10.2606
喬	-10.2606
間有	-10.2608
六尺	-10.2608
一官	-10.2609
戊辰	-10.2609
部落	-10.261
學問	-10.2611
金石	-10.262
案于	-10.2622
聖明	-10.2622
刑獄	-10.2623
添設	-10.2623
正五	-10.2633
之稱	-10.2644
其意	-10.2646
觔	-10.2648
可也	-10.2648
五等	-10.2661
平章	-10.2662
江左	-10.2663
宫觀	-10.2663
不可以	-10.2666
上章	-10.2673
圜	-10.2676
未必	-10.2676
帝后	-10.2682
勅諭	-10.2682
樂工	-10.2692
羣牧	-10.2693
測	-10.2695
供事	-10.2697
之才	-10.2697
詔曰	-10.2698
引禮	-10.2699
司務	-10.2699
事件	-10.27
薦舉	-10.27
入學	-10.2701
文職	-10.2705
者乃	-10.2705
朝參	-10.2707
罷之	-10.2712
祚	-10.2713
從八品下	-10.2715
可否	-10.2718
止許	-10.2719
粉	-10.272
寺觀	-10.2721
昧	-10.2722
彚	-10.2724
匿	-10.2724
上從之	-10.2726
繪	-10.2727
侍儀	-10.2728
觴	-10.273
墜	-10.2731
以上者	-10.2731
奠帛	-10.2735
以昭	-10.2735
艱難	-10.2735
典簿㕔	-10.2738
前導	-10.2738
而止	-10.2739
紀綱	-10.2742
三十一年	-10.2744
臨時	-10.2749
從一品	-10.2749
降香	-10.275
常侍	-10.275
禁約	-10.2757
祭服	-10.2758
稱賀	-10.2765
盛京	-10.2769
禦	-10.2781
工部侍郎	-10.2786
名曰	-10.279
簾	-10.2791
朱子	-10.2792
民之	-10.2798
執中	-10.2803
三尺	-10.2813
三國	-10.2814
恣	-10.2817
之分	-10.2826
而有	-10.2828
文理	-10.2829
三十二年	-10.2829
胄	-10.2829
内侍官	-10.2841
諸官	-10.2841
責授	-10.2844
八日	-10.2845
牀	-10.2846
不從	-10.2848
以俟	-10.285
醴	-10.2851
宗伯	-10.2851
噶	-10.2853
禧	-10.2854
中官	-10.2856
剏	-10.2856
辯	-10.2856
資政殿大學士	-10.2856
沆	-10.2857
虧	-10.2858
中書舎人	-10.2861
四時	-10.2861
御筆	-10.2863
兇	-10.2863
准襲	-10.2864
以爲	-10.2865
㤗	-10.2866
涵	-10.2868
撰文	-10.287
瑛	-10.287
擇日	-10.287
未能	-10.2871
定議	-10.2876
安危	-10.2883
進表	-10.2884
勤勞	-10.2886
大業	-10.289
各二	-10.2902
恱	-10.2915
仲春	-10.2916
辛丑進士	-10.2931
定奪	-10.2946
臺諫	-10.2948
奉御	-10.295
事體	-10.2951
尚書侍郎	-10.2951
祠祭署	-10.2956
國事	-10.2963
照舊	-10.2964
大防	-10.2965
諸儒	-10.2966
評	-10.2968
堂上	-10.2968
事者	-10.2969
之私	-10.2971
㸔	-10.2975
六曰	-10.2979
者矣	-10.298
衙	-10.2981
歆	-10.2985
卧	-10.2985
撫按官	-10.2986
冗	-10.2987
脚	-10.2987
奏禮畢	-10.2989
文臣	-10.299
之任也	-10.299
䖏	-10.2991
仿	-10.2991
職方	-10.2992
荀	-10.2992
成周	-10.2993
赫	-10.2994
府知府	-10.2994
逼	-10.2997
上表	-10.2997
直長	-10.2997
城人	-10.2998
縣丞	-10.2999
謄録	-10.2999
之世	-10.2999
宣諭	-10.3001
議處	-10.3008
圖書	-10.3011
金吾	-10.3012
春官	-10.3013
致齋	-10.3019
年繇	-10.3022
杜佑通典	-10.3023
不盡	-10.3028
諸將	-10.3028
東都	-10.3031
指揮使	-10.3035
左丞	-10.3035
天之	-10.3035
實以	-10.3043
六日	-10.3045
酋	-10.3046
學正	-10.3048
年任陞	-10.3051
奏曰	-10.3057
掌之	-10.306
拔	-10.3063
所得	-10.3072
公服	-10.3076
覲	-10.3082
如例	-10.3085
隴	-10.3092
官學	-10.3095
祖宗之	-10.3101
簽書樞宻院事	-10.3103
主祭	-10.3103
總裁	-10.3104
四十人	-10.3104
梓	-10.3114
凶	-10.312
相承	-10.3121
得失	-10.3123
菜	-10.3123
䕃	-10.3124
沐	-10.3125
二分	-10.3125
纓	-10.3127
四書	-10.3128
僭	-10.3129
奇	-10.3129
秀才	-10.3131
狂	-10.3132
正議大夫	-10.3133
照得	-10.3138
班首	-10.3143
武王	-10.3147
時享	-10.3149
開府儀同三司	-10.3151
文彦博	-10.3159
守臣	-10.3159
獄訟	-10.3163
災異	-10.3163
魏書	-10.3174
自行	-10.3177
之議	-10.3178
一尺	-10.3179
曰吾	-10.3182
篚	-10.3183
行取	-10.3186
今改	-10.3187
五府	-10.319
照依	-10.3191
像	-10.3193
大鴻臚	-10.3195
特賜	-10.3199
就拜位	-10.3203
湖北	-10.3203
位前	-10.3217
貌	-10.322
宣和	-10.3222
授以	-10.3229
之東西	-10.3233
髙下	-10.3236
賂	-10.3243
内有	-10.3245
傳賛	-10.3245
在樞府	-10.325
如舊	-10.3251
燒	-10.3251
公論	-10.3251
劍	-10.3253
郷	-10.3257
詠	-10.3261
於外	-10.3262
往來	-10.3262
麥	-10.3263
訊	-10.3264
鎮撫	-10.3264
鈎	-10.3264
敞	-10.3265
揭	-10.3266
教養	-10.3267
悟	-10.3267
攷	-10.3268
增置	-10.3269
魁	-10.3271
不問	-10.3274
乃命	-10.3285
官及	-10.3286
取其	-10.3295
存留	-10.3298
廟堂	-10.3302
六經	-10.3307
聖母	-10.3308
有缺	-10.331
王珪	-10.3317
為人	-10.3325
先農	-10.3325
其罪	-10.3326
得罪	-10.3335
輔導	-10.3337
其日	-10.334
書令史	-10.3343
則曰	-10.3347
品官	-10.3351
毎嵗	-10.3355
與其	-10.3355
不設	-10.337
治平	-10.3371
伴	-10.3377
于此	-10.3379
於前	-10.3384
嫁	-10.3386
朕意	-10.3388
一節	-10.3388
散騎常侍	-10.339
敘	-10.3392
汾	-10.3393
葺	-10.3395
神明	-10.3395
晏	-10.3396
侈	-10.3396
擁	-10.3398
誌	-10.34
講學	-10.34
秦王	-10.3401
影	-10.3402
捐	-10.3403
迭	-10.3403
都省	-10.3407
但有	-10.3411
起居郎	-10.3412
嘉祐	-10.3415
例該	-10.3416
北魏	-10.3418
而退	-10.3422
弟子	-10.3425
武宗	-10.3441
䕶衛	-10.3442
雍正元年	-10.3442
官捧	-10.3449
萬一	-10.3462
閏	-10.3469
名實	-10.347
軌	-10.3473
天官	-10.3477
數目	-10.3485
尊崇	-10.3486
聖諭	-10.35
楊榮	-10.3501
將作	-10.3502
防禦	-10.3503
不改	-10.3503
玩	-10.3504
諸陵	-10.3505
鹽鐡	-10.3511
處分	-10.3513
寮	-10.3517
之謀	-10.3518
開封府	-10.3518
西階	-10.3522
特命	-10.3525
四名	-10.3528
之期	-10.3532
葛	-10.3532
凉	-10.3534
三司使	-10.3535
給賜	-10.3536
薪	-10.3537
尤為	-10.3537
萊	-10.3538
鳴鞭	-10.3539
甚至	-10.3539
隙	-10.354
饋	-10.354
諸曹	-10.354
分為	-10.354
踈	-10.3541
千秋	-10.3541
蓮	-10.3542
旂	-10.3542
莅	-10.3543
瑪	-10.3544
奥	-10.3544
旭	-10.3544
尚寳司	-10.3544
潜	-10.3546
壓	-10.3546
祭畢	-10.3546
二十八	-10.3547
坤	-10.3547
文華殿	-10.3549
以便	-10.3553
轎	-10.3553
受冊	-10.3554
范純仁	-10.3555
織金	-10.3556
東廡	-10.3557
劉摯	-10.3562
詞臣	-10.3562
於戯	-10.3562
千人	-10.3573
兼掌	-10.3577
自此始	-10.358
嘆	-10.3581
外國	-10.3584
三楹	-10.3585
十疋	-10.3585
制誥	-10.3586
委官	-10.3587
知樞密院事	-10.3599
特恩	-10.3607
武職	-10.3607
嘉靖十年	-10.3628
不欲	-10.3634
甲子	-10.3637
大司農	-10.3644
腹	-10.3646
甄	-10.3646
若不	-10.3649
親征	-10.3649
禮物	-10.365
試卷	-10.3658
數日	-10.3661
䘏	-10.3662
不係	-10.3664
不已	-10.3669
中和	-10.3672
無聞	-10.368
犀	-10.368
涇	-10.3681
搆	-10.3681
彩	-10.3682
妾媵	-10.3682
後漢書百官志	-10.3682
狼	-10.3685
凟	-10.3687
賔客	-10.3688
鄭康成注	-10.3689
㨗	-10.369
綽	-10.369
待制	-10.3691
衛所	-10.3691
箱	-10.3691
叶	-10.3693
軍士	-10.3696
儀制	-10.3696
轉行	-10.3706
兼理	-10.3707
十名	-10.3707
明初	-10.3712
其心	-10.3715
總領	-10.3717
漢之	-10.3719
條例	-10.372
則是	-10.3726
萬户	-10.3726
宣撫使	-10.3727
丞各一人	-10.3728
伏乞	-10.3736
革去	-10.3736
不易	-10.374
如前儀	-10.3743
作樂	-10.3746
於後	-10.3758
隋置	-10.3759
樂奏	-10.3761
庚戌	-10.3763
所請	-10.3766
尚有	-10.3767
不失	-10.3769
然而	-10.3771
徳祖	-10.3773
號為	-10.3775
司郎中	-10.3777
奉使	-10.3778
革爵	-10.3782
戊戌	-10.3785
汗	-10.3785
琉球	-10.3786
以至	-10.379
五十人	-10.3797
何如	-10.3797
都䕶	-10.3804
太醫	-10.3805
國子監祭酒	-10.3814
汛	-10.3816
多不	-10.3817
賢才	-10.3819
皷	-10.3822
鎬	-10.3824
類奏	-10.3826
用兵	-10.3828
嗚呼	-10.3829
天啟	-10.3829
粮	-10.3832
約束	-10.3833
殫	-10.3834
丁亥	-10.3836
丁憂	-10.3836
緝	-10.3836
分理	-10.3838
五千	-10.384
兼權	-10.3842
三分	-10.3848
回回	-10.3849
聞之	-10.3858
利害	-10.3859
隨時	-10.3861
聰明	-10.3866
無窮	-10.3876
羌	-10.3878
萬邦	-10.3878
壬辰	-10.388
字子	-10.3883
考校	-10.3887
寸五分	-10.3896
擢用	-10.3898
再三	-10.3903
三獻	-10.3907
參議	-10.3914
王爵	-10.3921
年例	-10.3922
人臣	-10.3924
庠	-10.3925
亦皆	-10.3925
五經	-10.3932
謚	-10.3934
文官	-10.3942
相見	-10.3949
醢	-10.395
三師	-10.3958
欲以	-10.3958
景帝	-10.3958
名數	-10.3959
用事	-10.3961
從官	-10.3962
管理府事	-10.3964
冊立	-10.3964
鞫	-10.3966
佳	-10.3972
之長	-10.3972
庾	-10.3973
六科	-10.3973
旒	-10.3975
春坊	-10.3975
詭	-10.3976
五品已上	-10.3977
鞠躬	-10.3978
磨	-10.3979
閫	-10.398
偕	-10.3981
昻	-10.3982
匡	-10.3983
儆	-10.3985
光禄大夫	-10.3988
衞尉	-10.3988
財賦	-10.3988
二斤	-10.3989
牙牌	-10.3989
儀衛	-10.3994
食糧	-10.3997
賜之	-10.3998
億	-10.4003
十四人	-10.4023
文明	-10.4033
今制	-10.4037
諭禮部	-10.4041
一代	-10.4042
五分	-10.4042
從八品	-10.4042
承天	-10.4044
互見	-10.4045
太子太保	-10.4048
百石	-10.4048
月初一日	-10.4056
可見	-10.4056
東北	-10.406
石鼓	-10.4062
蔚	-10.4063
半年	-10.4065
午門	-10.4067
妨	-10.4072
王氏	-10.4075
本寺官	-10.4075
第三品	-10.408
狥	-10.4088
之職也	-10.4093
廏	-10.4095
不忘	-10.4096
所云	-10.4098
上疏	-10.4098
立法	-10.4099
睿宗	-10.4118
巡檢司巡檢	-10.4119
如此則	-10.4119
様	-10.4122
蒸	-10.4122
沔	-10.4126
閉	-10.4127
裝	-10.4128
喧	-10.4133
奄	-10.4134
祭品	-10.4135
究治	-10.4136
庶㡬	-10.4139
宣帝	-10.4144
出笏	-10.4148
公侯伯	-10.4152
二十三	-10.4156
親郡王	-10.416
都事	-10.4163
釐正	-10.4166
李綱	-10.4166
奏擾	-10.417
周之	-10.4173
祀事	-10.4183
既有	-10.4185
得之	-10.4191
世孫	-10.4197
然考	-10.4202
高祖	-10.4203
置于案	-10.4204
給賞	-10.4209
樞密院	-10.4211
頒行	-10.4211
竊惟	-10.4213
如前	-10.4218
具題	-10.4219
者仍	-10.4219
欽此故	-10.4226
階下	-10.4226
壬	-10.4227
經術	-10.4229
知樞宻院事	-10.4234
炎	-10.4235
除參知政事	-10.4239
修省	-10.4239
别有	-10.424
十餘	-10.4243
禮部官	-10.4243
二疋	-10.4244
十斤	-10.4248
長丞	-10.4248
有大	-10.4259
書院	-10.4263
第四	-10.4266
溝	-10.4269
止用	-10.4272
苐	-10.4273
灌	-10.4273
四人掌	-10.4274
贍	-10.4274
擒	-10.4275
迺	-10.4276
國朝官制	-10.4277
漫	-10.4277
瑾	-10.4277
録事一人	-10.4277
桃	-10.4278
鞭	-10.4278
改元	-10.4279
忱	-10.4279
一斤	-10.428
汴	-10.428
翁	-10.4282
群	-10.4282
甲戌	-10.4284
金山	-10.4284
濬	-10.4284
河道	-10.4285
鉶	-10.4289
吕公著	-10.4292
來京	-10.4292
猛	-10.4297
牲醴	-10.4298
考其	-10.4298
復舊	-10.4301
世之	-10.4304
司樂	-10.4304
遂罷	-10.4305
等州	-10.4308
一萬	-10.4308
開封	-10.431
而去	-10.4319
㦸	-10.4326
叅議	-10.4328
一十	-10.4331
俱用	-10.4338
所定	-10.4346
本紀	-10.435
五季	-10.4355
書成	-10.4362
實授	-10.4372
北平	-10.4374
之志	-10.4377
選婚	-10.4383
甚多	-10.4385
殿庭	-10.439
侯伯	-10.439
知印	-10.439
此事	-10.4399
扈	-10.44
自然	-10.44
則為	-10.4404
香案	-10.4404
倉庫	-10.4406
四分	-10.4407
通議大夫	-10.4408
古制	-10.4413
呵	-10.4416
以資	-10.4421
脱	-10.4426
勛	-10.4428
屠	-10.443
宗人府	-10.443
奕	-10.443
柴	-10.443
筭	-10.4431
淫	-10.4432
㑹同館	-10.4433
蘓	-10.4434
膏	-10.4434
不通	-10.4434
竇	-10.4436
摯	-10.4437
踵	-10.4437
釁	-10.4438
某人	-10.4439
王奏	-10.4447
這	-10.4449
大典	-10.4456
者曰	-10.4457
登極	-10.4459
聖節	-10.4465
者如	-10.4467
正六	-10.447
明帝	-10.4472
尚享	-10.4472
四合	-10.4481
奏保	-10.4499
都水監	-10.4506
差役	-10.4507
用人	-10.4509
四門	-10.4511
府事	-10.4511
大用	-10.4515
之選	-10.4525
革帶	-10.4526
以成	-10.4532
亦宜	-10.4532
成化二年	-10.4534
褥	-10.4536
諭徳	-10.454
大徳	-10.4542
正統元年	-10.4542
文王	-10.4544
王子	-10.4549
参	-10.4549
乞罷	-10.455
經歴	-10.4553
敢告	-10.4556
在西	-10.4558
聖徳	-10.4559
風雨	-10.4567
牆	-10.4573
都城	-10.4576
建置	-10.4576
各部	-10.4583
郡守	-10.4583
朗	-10.4585
四寸	-10.4585
夲	-10.4586
悖	-10.4587
洲	-10.4587
膠	-10.4588
憫	-10.4588
遷中大夫除	-10.4588
頻	-10.4589
戈	-10.4589
駭	-10.4589
模	-10.4589
閩	-10.4591
俄	-10.4592
曩	-10.4592
壤	-10.4592
霄	-10.4592
邀	-10.4593
侮	-10.4594
崩	-10.4594
萃	-10.4595
集賢院	-10.4596
常平	-10.4596
寘	-10.4596
曰某	-10.4598
供給	-10.4599
三寸	-10.4599
朋黨	-10.46
衆官	-10.46
覆奏	-10.4604
正九品下	-10.4604
浙江錢塘人	-10.4613
首領	-10.4615
人萬厯	-10.4616
律令	-10.462
官民	-10.4622
之說	-10.4624
營造	-10.4626
米一石	-10.4627
四部	-10.4627
天聖	-10.4629
至京	-10.4633
嘉靖八年	-10.4634
院使	-10.4635
鬼	-10.4635
稱為	-10.4636
萬物	-10.4637
各布政司	-10.4637
寺丞	-10.4641
北向立	-10.4645
長男	-10.4648
乾道	-10.4651
奏報	-10.4652
貢舉	-10.4657
屬於	-10.466
夷人	-10.4661
道士	-10.4662
歸附	-10.4664
其數	-10.4666
清明	-10.4666
漢人一人	-10.4668
孟春	-10.4671
議得	-10.4679
同知樞宻院事	-10.4686
侍臣	-10.469
白金	-10.4705
之司	-10.4707
唐之	-10.4712
班次	-10.4713
具服	-10.4715
河南尹	-10.4721
右丞	-10.4723
制帛	-10.4725
宣撫	-10.4726
置于	-10.473
止於	-10.4736
爐	-10.4738
滌	-10.4739
斛	-10.4739
太史令	-10.474
簫	-10.4741
羮	-10.4743
入班	-10.4745
宋史職官志	-10.4745
揺	-10.4746
賡	-10.4747
訥	-10.4747
哩	-10.4748
廼	-10.4749
吹	-10.4749
唐開元二十七年從祀封	-10.475
舄	-10.475
宋制	-10.4752
馬端臨文獻通考	-10.4752
等第	-10.4752
丙午	-10.4753
百僚	-10.4753
荅	-10.4755
西廡	-10.4756
浙江仁和人	-10.4758
八百	-10.476
工尺一合	-10.476
翰苑	-10.4762
東階	-10.4767
老疾	-10.4773
杭州	-10.4775
部議	-10.4779
本兵	-10.478
者聽	-10.478
之次	-10.4783
都指揮使	-10.4785
近日	-10.4787
大中	-10.4791
不足以	-10.4796
専司	-10.4796
崇禎	-10.4799
受之	-10.4802
紹聖	-10.4803
端明殿學士	-10.4803
永樂初	-10.4807
四配	-10.4809
及其	-10.4811
龍朔	-10.4812
屬之	-10.4815
靣	-10.4824
可為	-10.483
不免	-10.4831
手本	-10.4832
秘書郎	-10.4834
錄事	-10.4837
服色	-10.484
加以	-10.4846
簽書樞密院事	-10.4847
周制	-10.4847
𢎞治元年	-10.4847
長史司	-10.485
貢使	-10.4852
俱同	-10.4855
之大	-10.4856
九日	-10.486
四兩	-10.4862
也若	-10.4863
之右	-10.4867
之規	-10.4868
折衝	-10.4881
盛事	-10.4884
帑	-10.4889
庚	-10.4897
笞	-10.4897
蠲	-10.4901
奔	-10.4902
八旗官學	-10.4903
觀察使	-10.4905
舊典	-10.4905
償	-10.4909
快	-10.4909
紋	-10.4909
朋	-10.4909
庫部	-10.491
諷	-10.491
偃	-10.491
佞	-10.4911
昏	-10.4912
慶成	-10.4912
譏	-10.4912
腰	-10.4912
協律郎	-10.4913
絹二疋	-10.4914
閎	-10.4915
辛巳	-10.4916
六十人	-10.4916
琴	-10.4916
上請	-10.4919
主簿一人	-10.4922
六分	-10.4923
太子太傅	-10.4924
通鑑	-10.4927
鎮駐	-10.4932
司直	-10.4935
名號	-10.494
五色	-10.4945
成化元年	-10.4951
終身	-10.4952
萬里	-10.4952
㕘政	-10.496
師傅	-10.4961
論語	-10.4962
嘉靖十一年	-10.497
近臣	-10.498
州牧	-10.4985
不出	-10.4988
唐書	-10.4991
淳化	-10.4994
從九品下	-10.4994
增設	-10.4995
神座	-10.4998
不忍	-10.5005
建議	-10.5005
帛一	-10.5009
者悉	-10.501
安置	-10.5012
之榮	-10.5015
之計	-10.5016
亦當	-10.5017
已故	-10.5021
終始	-10.5024
黄門	-10.5025
其父	-10.503
歴事	-10.5031
闕里	-10.5033
貞元	-10.5034
掌印	-10.5036
天順元年	-10.5036
三十五年	-10.5052
之處	-10.5053
提舉司	-10.5054
神龍	-10.5054
袖	-10.5055
之隆	-10.5056
笏	-10.5058
洪武十六年	-10.506
冕服	-10.5061
受封	-10.5063
緫	-10.5064
因事	-10.5065
畝	-10.5067
一旦	-10.5068
味	-10.5069
曲阜	-10.5069
晝	-10.5069
以防	-10.5071
映	-10.5071
賚	-10.5072
蠧	-10.5072
明俞汝楫編	-10.5073
凱	-10.5073
拒	-10.5074
文武羣臣	-10.5074
籠	-10.5074
肩	-10.5074
譜	-10.5075
崇聖祠	-10.5076
丙申	-10.5078
有常	-10.5079
柏	-10.5081
恨	-10.5083
臣民	-10.5084
欽定四庫全書欽定國子監志卷	-10.5085
導上至	-10.5087
蘭臺	-10.5088
蘇轍	-10.5088
諸書	-10.5089
士遜	-10.5089
仍以	-10.5089
宗藩	-10.5091
神祇	-10.5091
諭㫖	-10.5093
兼侍中	-10.5098
其國	-10.5099
大成殿	-10.5106
次之	-10.5108
誥勅	-10.5111
祭葬	-10.5116
正一品	-10.5121
始定	-10.5122
酒尊	-10.5122
丑	-10.5123
稽考	-10.5124
數年	-10.5126
歐陽	-10.5135
丁謂	-10.5136
從六品上	-10.5139
開府	-10.5139
左春坊	-10.5142
至公	-10.5144
言事	-10.5149
婦女	-10.5149
如初	-10.5151
前去	-10.5156
布政使	-10.5159
中有	-10.5163
成功	-10.5172
藏之	-10.5175
皂	-10.5178
必先	-10.5179
崇寧	-10.5186
告成	-10.519
為重	-10.5191
衢	-10.5196
不報	-10.5201
受其	-10.5201
廡	-10.5202
正七	-10.5204
三年二月	-10.5207
鬼神	-10.5209
職守	-10.5209
為名	-10.5221
大官	-10.5222
班第	-10.5223
聖王	-10.5228
巫	-10.5229
髙宗	-10.5231
詳議	-10.5233
芝	-10.5233
馴	-10.5235
𥘉	-10.5236
賄	-10.5236
晟	-10.5236
彬	-10.5237
廉	-10.5238
著作佐郎	-10.5238
乾坤	-10.524
駐防	-10.5242
層	-10.5242
泣	-10.5242
喪主	-10.5242
恬	-10.5242
仇	-10.5243
朝鮮	-10.5243
闗防	-10.5245
綵段	-10.5245
旗纛	-10.5246
乙亥	-10.5247
彊	-10.5247
懽	-10.5247
安王	-10.5251
見任	-10.5255
故曰	-10.5258
太祝	-10.5258
先行	-10.526
河渠	-10.5262
宣徽院	-10.5264
卒贈	-10.5267
禮部左侍郎	-10.5267
又一	-10.527
逐一	-10.5271
保結	-10.5273
樞密	-10.5274
前此	-10.5276
陪臣	-10.528
咨部	-10.5281
前來	-10.5282
私自	-10.5283
注意	-10.5284
成帝	-10.5285
家令	-10.529
貢士	-10.5291
出則	-10.5298
副都御史	-10.5302
撥置	-10.5306
所據	-10.5308
正八	-10.531
同心	-10.5311
馬匹	-10.5312
哲宗	-10.5314
宰輔	-10.5315
其一	-10.5317
大率	-10.532
首領官	-10.5321
者惟	-10.5323
集議	-10.5324
不應	-10.5324
尚書郎	-10.5326
一心	-10.5327
至期	-10.5333
告祭	-10.5338
故長男	-10.5338
香帛	-10.5339
詔從之	-10.5341
得其	-10.5344
保定	-10.5346
奉詔	-10.5348
臣子	-10.5348
不言	-10.5351
亦與	-10.5354
陳乞	-10.5356
禮生	-10.5362
令一人	-10.5365
詹	-10.5365
即以	-10.5366
二十名	-10.5367
議定	-10.5368
兩宫	-10.5369
郡主	-10.537
聖朝	-10.5372
長孫	-10.5372
典故	-10.5374
又改	-10.5378
凡三	-10.5382
陣	-10.5382
公議	-10.5383
嶺	-10.5383
為上	-10.5384
送至	-10.5385
太樂	-10.5386
依親	-10.5389
先師廟	-10.5389
拾	-10.539
楪	-10.5396
柩	-10.5397
丹陛上	-10.5398
州居住	-10.54
鉉	-10.5401
給之	-10.5403
皆如	-10.5404
請以	-10.5405
森	-10.5406
絃	-10.5406
荐	-10.5407
渾	-10.5407
欠	-10.5408
沛	-10.5409
岸	-10.541
頑	-10.5411
淳熙	-10.5412
豈無	-10.5412
沿途	-10.5414
喻	-10.5415
監國	-10.5415
五名	-10.5416
寢殿	-10.5416
因言	-10.5418
顓	-10.5419
諸國	-10.5419
致詞	-10.542
之設	-10.542
趙普	-10.5422
安人	-10.5423
一寸	-10.5423
體貌	-10.5424
是日早	-10.5425
𠫭將曰	-10.5425
舉哀	-10.5428
章疏	-10.5428
候上	-10.5428
財物	-10.5429
主客司	-10.543
非常	-10.5434
我國家	-10.5435
一件	-10.5441
髙麗	-10.5441
黄帝	-10.5444
忠義	-10.5445
延登	-10.5446
大義	-10.5446
期滿	-10.5448
河西	-10.5451
中道	-10.5453
司𨽻	-10.5455
之美	-10.5459
至此	-10.546
正四	-10.5461
之職而	-10.5469
右正言	-10.5473
不預	-10.5476
王者	-10.5481
十有二人	-10.5483
無疆	-10.5487
品物	-10.5488
故不	-10.5509
洪武六年	-10.5512
人民	-10.5512
後又	-10.5513
因而	-10.5514
所見	-10.5514
城王	-10.5516
閭	-10.5518
三十二	-10.5521
賛四拜	-10.5525
京兆	-10.553
公亮	-10.5535
俱與	-10.5541
五間	-10.5544
禮部覆奏	-10.5546
官品	-10.5549
股肱之	-10.5552
毎名	-10.5556
有違	-10.5558
召還	-10.5563
諸神	-10.5568
皁	-10.5573
涼	-10.5574
緯	-10.5574
尸	-10.5574
無可	-10.5575
舛	-10.5575
樸	-10.5576
嘉靖元年	-10.5576
忝	-10.5577
戮	-10.5577
行令	-10.5578
傘	-10.5578
矩	-10.5578
光禄勲	-10.5578
處之	-10.5578
鬱	-10.5579
三十三年	-10.558
充軍	-10.558
忿	-10.5583
穹	-10.5584
所置	-10.5585
兼翰林院學士	-10.559
寖	-10.559
人多	-10.5592
郎官	-10.5595
法司	-10.5596
丙子	-10.5598
吕惠卿	-10.56
戸部尚書	-10.5606
器械	-10.561
固有	-10.5612
監門	-10.5612
以安	-10.5614
之業	-10.5616
員數	-10.5617
必以	-10.562
常朝	-10.562
而行之	-10.562
具瞻	-10.5622
建儲	-10.5625
歴代帝王	-10.5626
壬戌	-10.5629
請給	-10.5629
朝儀	-10.5634
具朝服	-10.5635
疾病	-10.564
案前	-10.5644
萬歴	-10.5644
又奏	-10.5646
成王	-10.5649
提領	-10.565
者得	-10.5651
朔日	-10.5655
猶未	-10.5656
求去	-10.5659
大體	-10.5662
三十五	-10.5662
詳定	-10.5663
之要	-10.5666
尤重	-10.5669
衮冕	-10.5669
孝經	-10.567
某氏	-10.5673
總管府	-10.5673
處置	-10.5676
二十九	-10.5677
著他	-10.5677
辛丑	-10.568
單于	-10.5681
祁	-10.5683
互相	-10.5686
謹案元	-10.5687
年六月	-10.5691
小學	-10.5693
六曹	-10.5694
不時	-10.5694
見于	-10.5696
州安置	-10.57
八兩	-10.5701
己丑	-10.5703
詔令	-10.5704
史二人	-10.5706
臨御	-10.5716
各以	-10.5716
國子祭酒	-10.5717
參軍事	-10.5719
並置	-10.5724
三館	-10.5733
封贈	-10.5737
縣知縣	-10.5739
俱有	-10.5739
必大	-10.5739
者並	-10.574
墻	-10.5744
皇親	-10.5745
薨逝	-10.5746
弄	-10.5747
太平興國	-10.5747
監修	-10.5749
數十	-10.575
涖	-10.5752
在位	-10.5753
萌	-10.5754
番僧	-10.5755
醖	-10.5755
廵撫	-10.5756
潞	-10.5756
奈何	-10.5756
笙	-10.5757
洪武四年	-10.5758
天人	-10.5758
之助	-10.5759
倒	-10.5759
㝷	-10.5759
修葺	-10.576
特穆爾	-10.576
彞	-10.576
㓂	-10.5761
佚	-10.5762
簪	-10.5762
黜陟	-10.5762
詆	-10.5762
賜緋	-10.5763
繄	-10.5763
四箇	-10.5765
裁革	-10.5765
之務	-10.5765
尊卑	-10.5768
四品以上	-10.5773
自翰林學士	-10.5773
以奉	-10.5776
非所以	-10.5776
授職	-10.5777
詩書	-10.5781
𠫭軍	-10.5786
奏四拜	-10.5791
左右僕射	-10.5794
行禮畢	-10.5795
校理	-10.5797
不得已	-10.5797
五代史	-10.58
顧問	-10.5802
並為	-10.5804
牘	-10.5821
正九	-10.5822
委署	-10.5822
兩浙	-10.5824
未免	-10.5827
相合	-10.5828
圖籍	-10.583
把總	-10.5831
片	-10.5834
他官	-10.5835
左侍郎	-10.5837
會試	-10.5838
禮部覆	-10.5842
一壇	-10.5847
所轄	-10.5847
伏惟	-10.5851
傳稱	-10.586
財用	-10.5862
少府監	-10.5863
館職	-10.5865
帝本紀	-10.5872
叩	-10.5873
渡	-10.5874
皇朝置	-10.5875
保勘	-10.5876
亦必	-10.5884
明經	-10.589
年任歴	-10.5891
併入	-10.5892
一尺工尺	-10.5892
塟	-10.5893
贊善	-10.5895
其年	-10.5896
一疋	-10.5898
部族	-10.5902
依前充	-10.5903
六百石	-10.5909
百年	-10.5909
又設	-10.5909
几筵	-10.5916
未見	-10.5916
堂官	-10.5917
本等	-10.5919
秋官	-10.5919
嵗終	-10.592
𣙜	-10.5921
倖	-10.5921
霞	-10.5922
貢獻	-10.5923
除樞宻副使	-10.5923
鳴贊	-10.5924
瀛	-10.5929
忻	-10.5929
礪	-10.5929
後復	-10.5929
其任	-10.593
嗟	-10.593
驟	-10.5931
弛	-10.5932
聖廟	-10.5932
促	-10.5933
衰服	-10.5934
祕閣	-10.5934
鐫	-10.5934
建安	-10.5936
聖祖仁皇帝	-10.5937
瓚	-10.5938
枝一兩燭	-10.5938
焦	-10.5938
毒	-10.5939
其次	-10.594
頓首	-10.5941
惶	-10.5943
香燭	-10.5943
流外	-10.5945
姦邪	-10.5945
看詳	-10.5947
不經	-10.5947
忠彦	-10.595
十一人	-10.595
有言	-10.5951
降為	-10.5951
親戚	-10.5952
盜賊	-10.5956
耳目	-10.5956
四百石	-10.5959
之賢	-10.596
一方	-10.5963
安撫使	-10.5964
二年正月	-10.5965
收貯	-10.5966
之治	-10.5969
萬國	-10.5973
大中祥符	-10.5974
成婚	-10.5977
其文	-10.5978
爵三	-10.598
舊有	-10.5981
故嫡長男	-10.5991
司門	-10.5993
風化	-10.5998
之變	-10.5998
之實	-10.5999
搢圭	-10.6003
案上	-10.6005
查勘	-10.6007
用金	-10.6007
十四日	-10.6008
當如今	-10.601
朕方	-10.6013
軍國	-10.6019
罪人	-10.602
贊四拜	-10.602
王旦	-10.6021
百里	-10.6026
一個	-10.6029
會議	-10.6031
器用	-10.6035
召對	-10.6036
即行	-10.6037
第五	-10.6037
下程	-10.604
庚辰	-10.6041
嵗時	-10.6044
又詔	-10.6047
曰陛下	-10.6048
正旦冬至	-10.6052
豈有	-10.6057
洪武十五年	-10.6058
康熙五十	-10.6058
兩漢	-10.6062
至聖	-10.6063
東漢	-10.6063
法駕	-10.6064
以給	-10.6067
一百六十	-10.6067
百五十	-10.6071
議擬	-10.6075
日講	-10.6077
弭	-10.6083
兵器	-10.6084
入直	-10.6085
依例	-10.6087
步軍	-10.6088
曰臣	-10.6092
宛	-10.6099
千載	-10.6099
四面	-10.6101
事君	-10.6101
左右丞	-10.6103
免其	-10.6106
刷	-10.6106
中庶子	-10.6107
㡌	-10.6107
暦	-10.6107
疊	-10.6109
苗	-10.611
宋濓	-10.6113
組	-10.6114
諾	-10.6116
朦朧	-10.6117
諤	-10.6117
經過	-10.6117
𠂻	-10.6119
釋菜	-10.612
粗	-10.6121
僥倖	-10.6122
讞	-10.6124
洪武五年	-10.6124
袱	-10.6125
册寶	-10.6125
贊禮唱	-10.6126
理藩院	-10.6126
補用	-10.6126
太常博士	-10.6129
幕次	-10.613
𢎞治四年	-10.6132
属官有	-10.6133
水衡	-10.6133
如遇	-10.6136
各設	-10.6136
萬嵗	-10.6136
奉勅	-10.6137
有子	-10.6144
豕	-10.6146
寧王	-10.6147
無子	-10.6148
典客	-10.6148
官皆	-10.6148
后妃	-10.615
隋書	-10.6153
后土	-10.6155
孔氏	-10.6156
與他	-10.6157
無復	-10.6159
十餘年	-10.616
長陵	-10.6161
所領	-10.6161
送吏部	-10.6167
講章	-10.6167
行宫	-10.6168
男女	-10.6169
補授	-10.6169
補任	-10.6178
曾布	-10.6183
女直	-10.6184
多所	-10.6187
從七品上	-10.6188
事有	-10.6191
有罪	-10.6194
監修國史	-10.6195
官一人	-10.6197
武英殿	-10.6202
應付	-10.6202
詔以	-10.6203
署令丞	-10.6209
所部	-10.6213
安國	-10.6213
讀祝官	-10.6213
額數	-10.6216
退而	-10.6217
歐陽修	-10.6222
之體	-10.6224
仍命	-10.6228
相沿	-10.6231
於民	-10.6233
東閣	-10.6237
三名	-10.624
等曰	-10.6245
八員	-10.6252
王室	-10.6255
歎	-10.6258
題稱	-10.626
左丞相	-10.6262
由此	-10.6267
札	-10.6272
二十斤	-10.6277
不若	-10.628
者又	-10.6283
清臣	-10.6288
皆用	-10.629
贖	-10.629
琪	-10.6291
諭之曰	-10.6292
免朝	-10.6293
之餘	-10.6294
紏	-10.6295
線	-10.6295
禋	-10.6295
庚午	-10.6297
詎	-10.6298
鋭	-10.6299
案牘	-10.6299
囊	-10.6299
獵	-10.63
臧	-10.6301
郵	-10.6302
瑄	-10.6302
不惟	-10.6302
朴	-10.6303
婿	-10.6303
房屋	-10.6304
魏晋	-10.6304
溯	-10.6305
僻	-10.6306
恥	-10.6306
悅	-10.6307
暉	-10.6307
編修充	-10.6307
培	-10.6307
分𨽻	-10.6308
書寫	-10.6308
外其餘	-10.6309
畀	-10.6309
規模	-10.6309
出院	-10.631
統領	-10.6312
滿洲䝉古	-10.6313
主事一人	-10.6314
秘閣	-10.6314
跪奏請	-10.6314
東觀	-10.6315
簽書	-10.6316
鳳陽	-10.6316
蔡卞	-10.6317
二州	-10.6317
一座	-10.6321
水陸	-10.6322
建文	-10.6325
𨽻於	-10.6326
輔弼	-10.6328
改曰	-10.6335
亦多	-10.6335
患病	-10.6337
在東	-10.6338
順天大興人	-10.6339
欽此故男	-10.6342
撥歴	-10.6343
柱國	-10.6343
人言	-10.6347
都指揮	-10.6348
翰林院官	-10.635
比部	-10.6357
職在	-10.636
逺人	-10.636
軍馬	-10.6364
教諭	-10.6366
大将軍	-10.637
忠厚	-10.6372
撓	-10.6372
精神	-10.6374
天監	-10.6378
院事	-10.638
典膳	-10.6391
縂	-10.6393
犢	-10.6393
官者	-10.6395
所自	-10.6396
漕運	-10.6405
後改	-10.6406
之封	-10.6406
即與	-10.6409
行在禮部	-10.6423
必須	-10.6423
經籍	-10.6427
生事	-10.6435
上林	-10.6436
𠫭	-10.6437
之資	-10.6439
朝堂	-10.645
誨	-10.6453
幅	-10.6457
公私	-10.646
更不	-10.646
庻子	-10.6466
五斤	-10.6467
禁令	-10.6467
都堂	-10.6468
盡心	-10.6471
交通	-10.6471
夏至	-10.6471
丙	-10.6473
兩制	-10.6473
黼	-10.6475
淮南	-10.6476
村	-10.6476
大司馬	-10.6477
贊禮	-10.6477
綺	-10.6479
藁	-10.648
册府元龜	-10.6481
盥	-10.6481
祈榖	-10.6483
潮	-10.6483
都水使者	-10.6483
濯	-10.6485
㪚	-10.6485
眼	-10.6487
庖	-10.6488
庚申	-10.6488
薩	-10.6489
肥	-10.6492
賞賚	-10.6493
坦	-10.6496
掛	-10.6496
祕書省	-10.6497
盥手	-10.6498
戊午	-10.6498
冬官	-10.6502
器物	-10.6502
弓矢	-10.6505
伯叔	-10.6506
曰卿	-10.6507
提調官	-10.6507
遵行	-10.6508
一表裏	-10.6512
稽察	-10.6513
後以	-10.6513
户口	-10.6515
軍務	-10.6517
本寺卿	-10.6521
表文	-10.6523
又云	-10.6523
觀之	-10.6523
顯陵	-10.6527
齋宫	-10.6532
蘇州	-10.6535
大觀	-10.6535
宗支	-10.6539
所由	-10.6539
㕘議	-10.654
好生	-10.6544
十二日	-10.6544
員缺	-10.6546
府州	-10.6548
世廟	-10.6551
太子少保	-10.6555
揚州	-10.6556
欽定厯代職官表卷	-10.6557
一面	-10.6558
累遷	-10.6559
二十四人	-10.6571
令有司	-10.6576
於太廟	-10.658
貢物	-10.6581
講書	-10.6583
漢文	-10.6583
捧帛	-10.6583
大都督	-10.6587
直院	-10.6588
數百	-10.6588
置左右	-10.6597
直言	-10.6603
神考	-10.6608
諸公	-10.6608
祠祭司	-10.6609
有成	-10.6609
便殿	-10.6613
五日一	-10.6615
之宜	-10.6619
制也	-10.662
靴	-10.662
府尹	-10.6623
爾其	-10.6626
現	-10.6629
自陳	-10.6631
在上	-10.6631
國有	-10.6635
簿書	-10.6635
兩府	-10.664
萬夀	-10.6641
僣	-10.6642
折鈔	-10.6643
廟庭	-10.6645
我皇	-10.6648
六品以下	-10.6651
之書	-10.6651
公同	-10.6651
中統	-10.6652
成化四年	-10.6655
賜坐	-10.6666
始也	-10.6668
置於	-10.6671
昆	-10.6672
岡	-10.6672
到任	-10.6673
吐蕃	-10.6674
十餘人	-10.6676
後魏北齊	-10.6678
太祖髙皇帝	-10.6679
樊	-10.6679
倪	-10.668
炭	-10.6681
禽	-10.6681
畨僧	-10.6681
返	-10.6681
就彼冠帶	-10.6682
鏡	-10.6683
衝	-10.6683
沾	-10.6683
攘	-10.6684
旄	-10.6684
虐	-10.6684
鵬	-10.6685
綵段一表裏	-10.6685
聳	-10.6685
賁	-10.6686
怪	-10.6686
縣主	-10.6687
有犯	-10.6687
嶽鎮海瀆	-10.6688
故有	-10.6688
六卿	-10.6689
饑	-10.669
蓄	-10.6691
未至	-10.6691
俊秀	-10.6692
晉書	-10.6692
河陽	-10.6693
寔	-10.6694
分置	-10.6695
反覆	-10.67
四司	-10.67
列于	-10.6702
成命	-10.6703
浙江鄞縣人	-10.6703
九百	-10.6705
罷為	-10.6712
監肄業	-10.6717
曹郎	-10.6717
經歴司	-10.6718
算學	-10.6719
然其	-10.672
科目	-10.672
三庫	-10.6722
下馬	-10.6722
稱其	-10.6726
洪熙元年	-10.6726
某等	-10.6728
府學	-10.6728
主婦	-10.6729
東宮	-10.6729
善惡	-10.6732
百工	-10.6732
折銀	-10.6733
唐代	-10.6734
飲酒	-10.674
除叅知政事	-10.6747
二箇	-10.6749
在監	-10.6749
内賛	-10.6752
著他做	-10.6753
殿學士	-10.6754
諸侯之	-10.6755
掖	-10.6756
三年任	-10.6757
萬厯四	-10.6758
供祀	-10.6761
或曰	-10.6774
重事	-10.6775
别無	-10.6778
百世	-10.6781
職者	-10.6791
暮	-10.6792
中門	-10.6795
亦得	-10.6799
専掌	-10.6799
使司	-10.68
大駕	-10.6802
尚食	-10.6804
委任	-10.6809
為學士	-10.6809
拜罷	-10.681
提問	-10.681
不安	-10.681
三輔	-10.6813
親屬	-10.6818
建武	-10.6819
孔廟	-10.6822
其情	-10.6823
十員	-10.6832
等各	-10.6832
妣	-10.6836
雍正二年	-10.6836
宣制	-10.6845
十哲	-10.6847
大定	-10.6848
今年	-10.6848
山川壇	-10.6849
之理	-10.6852
入院	-10.6861
至治	-10.6861
喇嘛	-10.6862
每名	-10.6864
官皆跪	-10.6865
察其	-10.6865
之樂	-10.6866
以正	-10.6867
綵幣	-10.6867
霍	-10.6867
為王	-10.6871
烝	-10.6871
鬻	-10.6873
若此	-10.6873
邦彦	-10.6874
宵	-10.6875
遏	-10.6877
毗	-10.6877
鑾儀衛	-10.688
彪	-10.688
葵	-10.688
枝二兩燭	-10.6881
丐	-10.6881
漢官	-10.6882
軫	-10.6883
乙丑進士	-10.6883
廓	-10.6883
勳	-10.6884
己巳	-10.6885
矯	-10.6885
噫	-10.6885
軍事	-10.6887
以紀	-10.6888
諸色	-10.689
大興	-10.689
官也	-10.6891
宦	-10.6896
餘如	-10.6896
矣今	-10.6896
初以	-10.6898
殿門	-10.69
地震	-10.69
聖訓	-10.6903
諸侯王	-10.6903
酌量	-10.6909
禮義	-10.6911
校書	-10.6913
果有	-10.6916
外其	-10.6916
四斤	-10.6921
康伯	-10.6924
於朝	-10.6925
歸於	-10.6935
迄今	-10.6937
學術	-10.6938
不廢	-10.6942
將軍中尉	-10.6942
矣至	-10.6943
周書	-10.6944
未聞	-10.6944
用心	-10.6947
一部	-10.6948
景徳	-10.695
葢即	-10.695
應得	-10.6951
吉服	-10.6952
禮部郎中	-10.6953
嵗月	-10.6953
者聴	-10.6955
陳循	-10.6955
二王	-10.6957
龍亭	-10.696
推恩	-10.6964
一槩	-10.6967
庫使	-10.6967
因其	-10.6973
餘皆	-10.6978
有此	-10.6979
部尚書	-10.698
之本	-10.6983
功徳	-10.6986
五城	-10.6987
升之	-10.6995
奏定	-10.7001
奏搢圭	-10.7003
者三	-10.7005
兵曹	-10.7006
新法	-10.7006
統之	-10.7013
建炎三年	-10.7013
各三人	-10.7014
舊規	-10.7017
者與	-10.7019
日講官	-10.702
敏中	-10.702
數多	-10.7021
重修	-10.7022
則不	-10.7024
拜位于	-10.7025
又按	-10.7028
三十四	-10.7028
立石	-10.703
考定	-10.7033
萬人	-10.7034
自唐	-10.7035
矣然	-10.7035
享太廟	-10.7036
聴其	-10.7037
江寧	-10.7046
俱不	-10.7054
袋	-10.7056
譯史	-10.7057
有志	-10.706
之責	-10.7061
諸職	-10.7061
亦非	-10.7061
利用	-10.7062
從七品下	-10.7063
解見	-10.7063
匈奴	-10.707
人掌固四人	-10.707
三事	-10.7071
逺方	-10.7075
霑	-10.7075
主者	-10.7075
鞏	-10.7076
俯伏	-10.7078
爼	-10.7078
拯	-10.7078
鎻	-10.7078
貝	-10.7079
話	-10.7081
驥	-10.7082
棘	-10.7083
餉	-10.7083
塊	-10.7084
叢	-10.7084
勁	-10.7084
祈禱	-10.7084
倘	-10.7085
睠	-10.7085
氊	-10.7086
臯	-10.7087
人役	-10.7089
星辰	-10.7089
伴送	-10.709
監察	-10.709
又命	-10.7091
㤙	-10.7092
七分	-10.7093
復有	-10.7094
二年二月	-10.7095
王巖叟	-10.7096
再入相	-10.7097
吕大防	-10.7097
月朔	-10.7097
揀選	-10.7097
少宰	-10.7097
太常少卿	-10.7098
近者	-10.7102
不明	-10.7102
文武大臣	-10.7104
一定	-10.7107
庚子	-10.7107
七曰	-10.7107
敢有	-10.7108
之勞	-10.7112
醫士	-10.7115
畨人	-10.7116
元年正月	-10.7117
濟濟	-10.7121
造冊	-10.7124
八分	-10.7124
淵聖	-10.7125
經畧	-10.7129
太嵗	-10.7132
百度	-10.7132
開讀	-10.7137
邦國	-10.7138
上丁	-10.7144
地官	-10.7145
奉迎	-10.7148
選補	-10.7155
儒者	-10.7168
安定	-10.717
則其	-10.7179
諸部	-10.718
官名	-10.718
供應	-10.7184
擇其	-10.7187
之禁	-10.7193
出圭	-10.7194
焉凡	-10.7196
宋之	-10.7197
後省	-10.7198
職任	-10.7199
日期	-10.7202
材官	-10.7203
宦者	-10.7203
中式	-10.7206
大將	-10.7206
此例	-10.7215
四千	-10.7222
戲	-10.7226
聽其	-10.7227
樞密副使	-10.7229
膳部	-10.7234
多少	-10.7235
嘉靖六年	-10.7237
名臣	-10.7238
三兩	-10.7242
四尺	-10.7242
鈐	-10.7243
同前	-10.7245
廟號	-10.7245
虚名	-10.7246
不由	-10.7248
正副	-10.7249
侍書	-10.7251
定擬	-10.7253
不稱	-10.7253
賛跪	-10.7257
東平	-10.7258
道之	-10.7259
諸衛	-10.7261
𢎞治十五年	-10.7267
戌	-10.7267
平定	-10.7269
水衡都尉	-10.727
之良	-10.7274
駮	-10.7276
籥	-10.7276
二萬	-10.7276
摘	-10.7278
昂	-10.7278
鄭康成	-10.7279
磚	-10.728
系	-10.728
稿	-10.7281
大統	-10.7281
研	-10.7281
霸	-10.7282
哈宻	-10.7282
貂	-10.7282
刼	-10.7282
筵宴	-10.7283
臘	-10.7283
誓	-10.7284
黄門侍郎	-10.7284
垂拱	-10.7284
斌	-10.7285
天心	-10.7285
戊寅	-10.7285
沃	-10.7286
磁	-10.7286
鷹	-10.7286
遂命	-10.7286
櫃	-10.7287
合祀	-10.7288
見員外郎下	-10.7288
奢	-10.729
實封	-10.729
璋	-10.729
朂	-10.7291
雋	-10.7291
祭物	-10.7293
食邑	-10.7294
四十五	-10.7295
道徳	-10.7299
伏望	-10.7302
副榜	-10.7304
天順八年	-10.7307
入見	-10.7307
飾以	-10.7308
十七年實授	-10.7308
天命	-10.7312
替職	-10.7315
成化三年	-10.7315
年十月	-10.7316
以充	-10.7317
大帶	-10.7319
二十三日	-10.7321
甲申	-10.7326
本末	-10.7326
騎都尉	-10.7328
引疾	-10.7331
大名	-10.7331
治道	-10.7333
丙戌	-10.7337
固辭	-10.7342
欽依	-10.7344
孝陵	-10.7345
而為之	-10.7346
之事凡	-10.7353
查無	-10.7353
奉命	-10.7356
此則	-10.7357
書曰	-10.7358
修國史	-10.7359
藝文	-10.7362
皇朝因	-10.7363
方面	-10.737
莫如	-10.7371
輔政	-10.7374
慎重	-10.7383
不世襲	-10.7386
勲官	-10.7391
雖不	-10.7392
禮法	-10.7392
三年一	-10.7393
其弊	-10.7395
曽子	-10.7396
祖考	-10.7397
千古	-10.74
見卿	-10.7401
文昌	-10.7401
禁止	-10.7407
入試	-10.7407
千石	-10.7409
部院	-10.7414
七百	-10.7417
海内	-10.742
在前	-10.742
貢方物	-10.7424
備查	-10.7426
典吏	-10.7433
庶民	-10.7435
死者	-10.7436
二百五十	-10.7439
選取	-10.7441
無他	-10.7447
國用	-10.7447
中都	-10.7449
文曰	-10.745
天地之	-10.745
以内閣	-10.7453
之詞	-10.7454
前期一日	-10.7454
字號	-10.746
一百四十	-10.7463
漢時	-10.7464
新唐書百官志	-10.7469
運使	-10.7471
嘉靖二年	-10.7479
禾	-10.7483
之福	-10.7486
盗賊	-10.7486
北門	-10.7487
新唐書	-10.7487
韈	-10.7488
淹	-10.7488
栗	-10.7489
鈐束	-10.7489
食貨志	-10.749
吐	-10.749
飲福受胙	-10.749
鏤	-10.7491
估	-10.7491
鵝	-10.7491
裂	-10.7491
血	-10.7492
兼之	-10.7492
紊	-10.7492
認	-10.7493
年終	-10.7493
截	-10.7493
烟	-10.7495
看牲	-10.7495
髮	-10.7497
遴選	-10.7498
逞	-10.7499
閻	-10.7499
弓箭	-10.7499
大紅	-10.75
祉	-10.75
倚毗	-10.7501
亦不許	-10.7501
龔	-10.7503
冠者	-10.7503
大使一人	-10.7503
上曰朕	-10.7503
廵按御史	-10.7505
毎斤	-10.7505
未敢	-10.7505
一陳設	-10.7505
一嵗	-10.7505
禮科給事中	-10.7506
使持節	-10.7507
親男	-10.7507
皇祐	-10.7509
各色	-10.7511
鞍轡	-10.7516
英廟	-10.7516
之戒	-10.7517
萬幾	-10.7518
五嶽	-10.752
紅羅	-10.7525
而復	-10.7526
方平	-10.7527
儀制司	-10.7527
措置	-10.7531
西苑	-10.7531
者止	-10.7533
年五月	-10.7537
孝子	-10.7538
東序	-10.7538
左衛	-10.7544
御馬	-10.7558
嘉靖七年	-10.7558
齊賢	-10.7558
先師孔子	-10.7562
三部	-10.7563
李賢	-10.7564
三十七	-10.7564
漢唐	-10.7568
乘輿	-10.7569
制書	-10.7571
太常寺少卿	-10.7573
召見	-10.7582
某官	-10.7584
祕	-10.7585
數人	-10.7587
御藥	-10.7588
常例	-10.759
出為	-10.759
執金吾	-10.7591
前日	-10.7593
成憲	-10.7593
右諫議大夫	-10.7594
考工	-10.7597
中賀	-10.7599
六典	-10.76
天意	-10.7601
未安	-10.7602
一百三十	-10.7603
殿中監	-10.7604
武功	-10.7604
之役	-10.761
報可	-10.7611
魏氏	-10.7612
去處	-10.7614
之論	-10.7616
賛禮	-10.7618
出自	-10.7621
闗領	-10.7623
皆出	-10.7626
十兩	-10.7629
近來	-10.7629
邦之	-10.763
本部尚書	-10.7632
宫殿	-10.7632
大享	-10.7632
法制	-10.7633
天文生	-10.7634
主事二人	-10.7635
以為不可	-10.7636
若夫	-10.7642
萬石	-10.7645
精膳司	-10.7647
九寸	-10.7651
月初二日	-10.7653
不曽	-10.7654
月二十八日	-10.7657
民力	-10.7657
清吏司	-10.7659
杜佑	-10.7659
立為	-10.7659
起於	-10.766
三十八	-10.7661
來貢	-10.7661
正使	-10.7669
九等	-10.7683
掃	-10.7684
所出	-10.7686
無益	-10.7687
額外	-10.7688
年久	-10.7689
為先	-10.7689
内贊奏	-10.769
闔	-10.7693
根底	-10.7693
分職	-10.7694
雍正	-10.7694
即日	-10.7694
請罷	-10.7694
惰	-10.7695
髪	-10.7696
萬安	-10.7697
纛	-10.7697
岱	-10.7698
為司	-10.7698
奉欽依	-10.7698
栢	-10.7698
之列	-10.7698
囿	-10.7699
潭	-10.7699
奉國將軍	-10.7699
護	-10.7702
見其	-10.7702
皇太孫	-10.7702
晚	-10.7703
洪熈元年	-10.7704
言其	-10.7705
治民	-10.7705
敇	-10.7705
摭	-10.7705
司𨽻校尉	-10.7706
糴	-10.7706
䙝	-10.7707
銳	-10.7707
憐	-10.7707
世宗憲皇帝	-10.7707
以侍講學	-10.7708
瀾	-10.7708
妖	-10.7708
景祐	-10.7708
媿	-10.7709
壩	-10.7709
以重	-10.7709
桐	-10.7709
出閣	-10.771
洪武二十六年定	-10.771
証	-10.7711
廩膳	-10.7712
駝	-10.7712
淨	-10.7712
醫藥	-10.7714
綠	-10.7716
墀	-10.7716
下曰	-10.7719
嘉靖十七年	-10.7719
職事官	-10.772
後為	-10.772
犧牲所	-10.772
進御	-10.772
直史館	-10.7721
平人	-10.7724
年幼	-10.7725
戊子	-10.7733
之勢	-10.7733
内侍省	-10.7735
萬世之	-10.7736
軍器監	-10.7737
各二員	-10.7739
之民	-10.7739
地理志	-10.7739
閣臣	-10.7741
嘉靖中	-10.7742
聖學	-10.7742
其職掌	-10.7743
乞賜	-10.7744
請名	-10.7744
無人	-10.7744
禁例	-10.7745
廷議	-10.7746
優禮	-10.775
人所	-10.7751
可汗	-10.7755
上問	-10.7755
臣某等	-10.7756
正八品下	-10.7756
承祭官	-10.7757
東晉	-10.7759
每旗	-10.776
朝臣	-10.7762
親詣	-10.7765
於國	-10.7767
之力	-10.7767
翰林記	-10.7772
王欽若	-10.7773
原係	-10.7776
承應	-10.7776
視其	-10.7779
之職掌	-10.7781
不給	-10.7781
殿試	-10.7782
言路	-10.7783
守衛	-10.7785
俱係	-10.7786
職官志	-10.7788
神庫	-10.7789
權輿	-10.7789
廟祀	-10.779
圜橋	-10.779
江蘇	-10.7791
二尺	-10.7799
夏官	-10.7802
居之	-10.7803
樂止典儀	-10.7807
明制	-10.7807
通考	-10.781
前鋒	-10.7811
官而	-10.7812
署丞	-10.7813
坐監	-10.7816
有三	-10.782
繫之	-10.7822
彼此	-10.7823
言官	-10.7824
多以	-10.7831
論思	-10.7831
不幸	-10.7831
左傳	-10.7835
右相	-10.7835
者為之	-10.7842
修理	-10.7842
本色	-10.7842
軍功	-10.7842
武衛	-10.7843
為文	-10.7847
子為	-10.7848
上乃	-10.785
之氣	-10.7852
進士萬厯	-10.7855
金玉	-10.786
紀事	-10.786
陪祀官	-10.786
萬方	-10.7861
入閣	-10.7864
中使	-10.7864
俱照	-10.7865
在廷	-10.7867
於天下	-10.7868
楷	-10.787
訂	-10.787
祖母	-10.7874
十數	-10.7874
諸物	-10.7875
欽定四庫全書	-10.7876
風雲雷雨	-10.7876
灼	-10.7878
宜加	-10.788
庻人	-10.7883
庶政	-10.7884
兩拜	-10.7885
帷幄	-10.7889
簇	-10.789
宣徽	-10.7894
者非	-10.7894
土司	-10.7896
以為常	-10.7896
繼妃	-10.7898
兖州	-10.7903
鑄印局	-10.7904
乙未進士	-10.7909
水旱	-10.791
辟廱	-10.791
師道	-10.791
以憑	-10.7911
西路	-10.7912
珮	-10.7913
皇太子妃	-10.7914
一百一十	-10.7917
茅	-10.7917
枚	-10.7917
滄	-10.7918
定其	-10.7918
器皿	-10.7918
簷	-10.7919
掠	-10.7919
熹	-10.7919
欽遵	-10.792
貟外郎	-10.792
秩六百石	-10.7921
皆置	-10.7921
麪	-10.7923
龕	-10.7923
保送	-10.7923
亢	-10.7924
至宋	-10.7924
貴賤	-10.7924
咸亨	-10.7924
躍	-10.7924
而又	-10.7925
讐	-10.7926
緩急	-10.7926
事皆	-10.7926
霖	-10.7928
贊禮郎	-10.7928
螭	-10.7928
望瘞	-10.7929
迴避	-10.7929
酒飯	-10.7929
也夫	-10.793
己亥	-10.793
閔	-10.793
再行	-10.7931
納粟	-10.7933
左順門	-10.7935
各就位	-10.794
著述	-10.7942
兼權直院	-10.7943
嘉猷	-10.7943
本國	-10.7943
不法	-10.7944
越闗	-10.7944
為中	-10.7946
兩省	-10.7946
慶厯	-10.7951
黄淮	-10.7952
承天門	-10.7952
格式	-10.7956
軍旅	-10.7959
許其	-10.7963
者雖	-10.7963
法令	-10.7965
賜紫	-10.7967
内命婦	-10.7967
本於	-10.7968
周旋	-10.7969
子男	-10.7972
上京	-10.7974
師儒	-10.7975
𢎞治九年	-10.7978
有二	-10.7979
監臣	-10.798
踰年	-10.798
於奉天殿	-10.798
上聞	-10.7983
禁革	-10.7983
有加	-10.7985
前行	-10.7985
高宗	-10.7985
貢監	-10.7987
者令	-10.799
請令	-10.7992
徐州	-10.7995
物料	-10.7997
景泰元年	-10.8
每遇	-10.8
二十八日	-10.8001
永寧	-10.8002
賢者	-10.8004
庶務	-10.8006
晉王	-10.8007
考察	-10.8007
典史	-10.8012
執爵	-10.8014
名為	-10.8015
俱在	-10.8017
於中	-10.8018
宣仁	-10.8022
其儀	-10.8023
而出	-10.8024
四字	-10.8024
從八	-10.8024
當以	-10.8027
建昌	-10.8037
例不	-10.8039
常以	-10.8043
三百人	-10.8044
仰惟	-10.8045
正三	-10.8045
西漢	-10.8046
並依	-10.8047
正如今	-10.8049
設香案	-10.8053
各三	-10.8055
公輔	-10.8057
中原	-10.8061
俱於	-10.8062
拜禮	-10.8065
年嵗	-10.8071
宣召	-10.8071
陞授	-10.8076
則必	-10.8077
挺之	-10.808
已久	-10.808
徑自	-10.8081
則如今之	-10.8081
朕惟	-10.8082
金陵	-10.8085
靈座	-10.8087
合四	-10.8089
尋改	-10.8091
外任	-10.8095
並有	-10.8101
發遣	-10.8107
永樂七年	-10.8108
疏請	-10.8113
右文	-10.8113
磬	-10.8114
子思	-10.8119
官府	-10.8119
嫡子	-10.8119
四年二月	-10.8119
百餘	-10.8121
舉其	-10.8123
著為	-10.8125
竦	-10.8125
送監	-10.8126
光祿	-10.8126
十萬	-10.8126
出至	-10.8128
鑲	-10.8129
惕	-10.8131
吟	-10.8132
賢能	-10.8133
顆	-10.8134
定式	-10.8135
漳	-10.8137
漏刻	-10.8138
緡	-10.8139
為之貳	-10.814
療	-10.814
彤	-10.814
黍	-10.814
砥	-10.8141
改設	-10.8141
棗	-10.8141
撒	-10.8141
攬	-10.8142
將士	-10.8143
滛	-10.8143
穴	-10.8143
網	-10.8144
遮	-10.8144
烏思藏	-10.8145
縫	-10.8145
悞	-10.8145
幢	-10.8145
吿	-10.8146
汰	-10.8146
守本官	-10.8146
爛	-10.8146
迫	-10.8146
癸酉	-10.8146
醬	-10.8146
蹕	-10.8147
餙	-10.8147
揑	-10.8147
繆	-10.8147
遁	-10.8148
辛酉	-10.8148
欽承	-10.8148
芻	-10.8148
隳	-10.8149
禮志	-10.8149
觀察	-10.8149
丁巳	-10.815
繩愆㕔	-10.815
別	-10.815
凛	-10.8151
餘同	-10.8152
支給	-10.8152
范仲淹	-10.8152
冉	-10.8153
郊社	-10.8154
機宻	-10.8155
大功	-10.8156
皮弁服	-10.8157
燦	-10.8157
丁未進士	-10.8157
鏞	-10.8157
陳氏	-10.8159
諭曰	-10.8159
服其	-10.8161
荆州	-10.8162
丞為之貳	-10.8162
紗羅	-10.8163
太府寺	-10.8164
禮部以	-10.8165
兩淮	-10.8165
掌供	-10.8165
綱紀	-10.8166
編檢	-10.8169
都指揮使司	-10.8169
裕陵	-10.8169
討論	-10.817
嘉靖十五年	-10.817
人倫	-10.8172
爰田	-10.8172
侍讀侍講	-10.8174
第四品	-10.8176
禮科	-10.8177
少尹	-10.8177
解額	-10.8177
東面	-10.8179
天寳	-10.8179
祖父	-10.8181
亦曰	-10.8182
至元二十四年	-10.8183
職銜	-10.8183
評事	-10.8184
袍服	-10.8185
辦理	-10.8186
為治	-10.8187
所稱	-10.8189
記室	-10.8191
親弟	-10.8197
同寅	-10.8197
行至	-10.8199
者各	-10.8199
敢不	-10.82
事畢	-10.8201
驛丞	-10.8206
補闕	-10.8207
並不	-10.8207
則自	-10.8208
告於	-10.8211
罷叅知政事	-10.8211
威儀	-10.8212
二隻	-10.8212
以明	-10.8214
可用	-10.8216
武備	-10.8217
升堂	-10.8219
後殿	-10.822
三班	-10.8223
之益	-10.8223
從公	-10.8224
一字	-10.8228
四年四月	-10.8229
右都御史	-10.8229
樂止典儀唱	-10.8231
重臣	-10.8233
皆由	-10.8234
千八百	-10.8234
下禮部議	-10.8235
髙皇后	-10.8238
建炎	-10.8238
仁義	-10.8239
和議	-10.824
恩澤	-10.8242
思退	-10.8245
不下	-10.8248
等三百	-10.8249
博士一人	-10.825
士習	-10.825
中式者	-10.8254
舊章	-10.8261
太官	-10.8267
内官監	-10.8268
無私	-10.8269
其身	-10.827
有四	-10.8271
從九品上	-10.8271
之利	-10.8273
一前期	-10.8274
應用	-10.8275
任右侍郎	-10.828
問罪	-10.828
三院	-10.8282
謹案金	-10.8283
長編	-10.8285
任用	-10.8286
東陽	-10.8289
樂正	-10.8289
五帝	-10.8292
祠祭	-10.8293
解縉	-10.8294
以編修	-10.8294
未備	-10.8298
記注	-10.8303
題為	-10.8303
改定	-10.8305
等府	-10.8305
數千	-10.8306
祫	-10.8308
進用	-10.8308
論列	-10.8311
次男	-10.8315
之首	-10.832
出處	-10.832
不受	-10.8321
等議	-10.8321
典制	-10.8322
尤甚	-10.8323
青衣	-10.8326
博士助教	-10.833
兼侍講	-10.8331
考試官	-10.8332
人望	-10.8336
始命	-10.8341
出題	-10.8347
並以	-10.8347
婆	-10.8348
書之	-10.8349
十五斤	-10.835
月十三日	-10.8351
匭	-10.8351
其功	-10.8352
入至	-10.8354
漢書百官公卿表	-10.8355
鐡	-10.8356
行幸	-10.8357
朕躬	-10.8357
滑	-10.836
狄	-10.8361
導引官導上	-10.8361
復相	-10.8362
侑	-10.8363
司勲	-10.8364
浦	-10.8365
蔬	-10.8365
儀物	-10.8366
憤	-10.8366
簮	-10.8367
拆	-10.8367
拓	-10.8367
安得	-10.8369
竣	-10.8369
戢	-10.837
谿	-10.8372
甲寅	-10.8373
韓忠彦	-10.8373
摹	-10.8373
過多	-10.8373
站	-10.8374
君師	-10.8374
豹	-10.8374
裘	-10.8375
寇	-10.8375
簋	-10.8375
三品已上	-10.8375
澹	-10.8376
香盒	-10.8377
興平身	-10.8377
叅奏	-10.8378
罹	-10.8378
乙酉	-10.8378
正徳四年	-10.8378
尚未	-10.8378
哈喇	-10.8378
握	-10.8379
穎	-10.8379
諌	-10.8379
一條	-10.8383
追復	-10.8385
收買	-10.8386
太子少傅	-10.8387
進入	-10.8387
印綬	-10.8388
洋	-10.8389
欽哉	-10.8393
熙寧	-10.8394
布哈	-10.8395
臣工	-10.8403
萬夀聖節	-10.8403
齋郎	-10.8403
四十八	-10.8405
賜以	-10.8406
十有一	-10.8407
則服之	-10.8408
之所以	-10.8409
稽首	-10.8414
復以	-10.8415
責成	-10.8421
副尉	-10.8421
從六	-10.8421
具呈	-10.8427
未盡	-10.8427
市易	-10.8428
禁林	-10.8428
嗣王	-10.8429
省事	-10.8431
多至	-10.8432
制置	-10.8437
古禮	-10.8437
甚者	-10.8442
名目	-10.8443
習學	-10.8445
降詔	-10.8446
至徳	-10.8448
典刑	-10.845
各項	-10.8451
之圖	-10.8451
忠臣	-10.8455
異同	-10.8455
遣大臣	-10.8457
刑部侍郎	-10.8458
為大	-10.8463
學行	-10.8464
經傳	-10.8465
其下	-10.8466
聞喪	-10.8467
各四人	-10.8469
髙皇帝	-10.8474
署事	-10.8476
從七	-10.8477
四十二	-10.8484
張英	-10.8485
内賛奏	-10.8494
明㫖	-10.8497
復用	-10.8504
丞四人	-10.8504
年正月	-10.8511
望燎	-10.8511
文教	-10.8517
南京禮部	-10.8526
吏典	-10.8527
十有六人	-10.8532
合祭	-10.8534
本部查	-10.8535
三十八年	-10.8536
上都	-10.8538
隆慶三年	-10.8538
正祭	-10.854
自備	-10.8541
親祭	-10.8542
知所	-10.8542
舊名	-10.8546
謹以	-10.8547
所居	-10.8548
唐太宗	-10.855
論道	-10.8556
不樂	-10.8559
通贊	-10.856
副將	-10.8561
三旗	-10.8562
文綺	-10.8563
講畢	-10.8565
二丈	-10.8566
務在	-10.8567
科貢	-10.8567
皆掌	-10.857
祭𦵏	-10.8572
五兵	-10.8576
率府	-10.8576
月俸	-10.8577
自明	-10.8578
隋書百官志	-10.8586
仍前	-10.8586
蠟	-10.8586
雜職	-10.8588
弔	-10.8591
脉	-10.8592
昊	-10.8595
通政使	-10.8595
外官	-10.8597
潢	-10.8597
弦	-10.8598
蔑	-10.8599
隋隋書百官志	-10.8599
郢	-10.8599
本注曰	-10.8599
置吏	-10.8599
技	-10.86
響	-10.86
冰	-10.86
隘	-10.86
玷	-10.86
鎮國将軍	-10.86
抹	-10.8601
迴	-10.8603
悲	-10.8603
煙	-10.8604
孳	-10.8605
俘	-10.8605
剪	-10.8605
誇	-10.8605
辛亥	-10.8605
五軍都督府	-10.8606
頴	-10.8606
濮	-10.8607
帽	-10.8608
水部	-10.8608
丙寅	-10.8608
盆	-10.8608
壬午	-10.8608
蕃國	-10.8608
繹	-10.8608
禘	-10.8609
乙巳	-10.861
所生子女	-10.861
舉案	-10.861
聯	-10.8611
顒	-10.8611
癸卯	-10.8611
瓘	-10.8612
慝	-10.8612
斡	-10.8612
治天下	-10.8612
譴	-10.8612
不願	-10.8614
成服	-10.8614
揚雄	-10.8615
儒林	-10.8615
慤	-10.8615
兖	-10.8616
奮庸	-10.8616
懿祖	-10.8618
廵按	-10.8618
王曽	-10.8619
商英	-10.8619
宰牲	-10.8619
各廟	-10.8622
分守	-10.8622
額設	-10.8622
露布	-10.8624
隋書百官志梁	-10.8625
永樂間	-10.863
酒饌	-10.863
留之	-10.863
以金	-10.8631
則與	-10.8634
之祀	-10.8636
置於案	-10.8637
編類	-10.8639
之徳	-10.864
之失	-10.864
詣神位前	-10.864
之難	-10.864
嵗貢生員	-10.8644
依擬	-10.8648
籍貫	-10.8649
秦官	-10.8651
皇太子親王	-10.8653
之國	-10.8657
傳㫖	-10.8662
從八品上	-10.8663
十二兩	-10.8665
白色	-10.8668
手詔	-10.8669
九重	-10.867
月十八日	-10.8671
奏差	-10.8671
赴部	-10.8672
正九品上	-10.8672
郎將	-10.8679
萬厯四年	-10.868
然也	-10.8683
南陽	-10.8685
分班	-10.8691
後堂	-10.8691
副監	-10.8699
司吏	-10.87
大行	-10.8708
以行	-10.871
謹案遼	-10.8713
祠堂	-10.8714
奉祠	-10.8718
已後	-10.8719
黄鍾	-10.8719
隨行	-10.872
車馬	-10.872
門出	-10.8724
橋門	-10.8727
虚文	-10.873
休命	-10.873
一本	-10.8731
聖主	-10.8731
侍御	-10.8732
管河	-10.8732
當為	-10.8734
日久	-10.8734
矣又	-10.8734
書吏	-10.8735
於奉天門	-10.8738
此書	-10.8739
上林苑	-10.874
長貳	-10.8741
號令	-10.8745
各生	-10.8745
聖人之	-10.8747
考補	-10.8748
躬行	-10.875
淮安	-10.875
同惟	-10.8752
一對	-10.8752
蹟	-10.8755
學録	-10.8755
茂陵	-10.8765
而成	-10.8768
給假	-10.8769
崇儒	-10.877
上元	-10.8772
崇文	-10.8773
輔相	-10.8773
無有	-10.878
土人	-10.8782
之君	-10.8783
之術	-10.8785
除同知樞密院事	-10.8789
可乎	-10.8791
故絶	-10.8795
後來	-10.8795
之教	-10.8796
之方	-10.8796
於天	-10.8797
諸郡	-10.8798
隆慶六年	-10.88
左門	-10.88
待之	-10.8802
四方之	-10.8802
以賜	-10.8803
三斤	-10.8808
三年四月	-10.8809
啓王	-10.8814
械	-10.8817
月給	-10.882
開坐	-10.882
伺	-10.8821
百二十	-10.8825
𢎞治三年	-10.8825
奏本	-10.8826
國體	-10.8827
而用之	-10.8827
鬯	-10.8828
裙	-10.883
邢	-10.883
不加	-10.883
巷	-10.8833
同中書門下平章事	-10.8833
皆可	-10.8833
徇	-10.8834
障	-10.8834
嚕	-10.8836
公侯駙馬伯	-10.8836
票	-10.8837
姻	-10.8838
朶	-10.8838
販	-10.8838
壅	-10.8838
其法	-10.8839
宋書百官志	-10.8839
儀禮	-10.8839
奉聖旨	-10.884
葱	-10.8841
笛	-10.8841
縧	-10.8841
攄	-10.8841
酉	-10.8842
一品二品	-10.8842
軾	-10.8842
達嚕噶齊	-10.8843
汚	-10.8843
詳衮	-10.8843
渙	-10.8843
戊辰進士	-10.8843
該本部查得	-10.8844
搜	-10.8844
苛	-10.8844
貝勒	-10.8844
資治通鑑	-10.8844
二十八人	-10.8846
琮	-10.8846
卨	-10.8847
䆒	-10.8848
于太廟	-10.8848
備身	-10.885
羽翼	-10.885
以次出	-10.885
甲午	-10.8852
敝	-10.8852
隋初	-10.8852
廳	-10.8853
朱勝非	-10.8855
師長	-10.8856
青苖	-10.8858
驍騎	-10.8858
嘉禾	-10.8859
經理	-10.8859
以侍讀學	-10.8863
僚屬	-10.8863
復召	-10.8865
改用	-10.8866
萬機	-10.8866
茶鹽	-10.8867
贊跪	-10.8868
祿米	-10.8869
移咨	-10.887
現在	-10.887
去位	-10.887
糾儀	-10.887
則例	-10.8871
題本	-10.8872
千總	-10.8874
有過	-10.8876
起居舍人	-10.8876
儀式	-10.8878
奏進	-10.8879
改復	-10.8879
各有差	-10.8881
孝烈皇后	-10.8885
外命婦	-10.8886
奏上	-10.8886
正直	-10.8888
金川	-10.8888
不中者	-10.8889
所能	-10.8893
掌教	-10.8897
一人六百石	-10.8897
又充	-10.8899
國子博士	-10.8899
保甲	-10.89
更張	-10.8901
掌諸	-10.8901
西戎	-10.8902
隋開皇	-10.8907
千戸	-10.8907
王宫	-10.8907
差來	-10.8909
布政	-10.891
復職	-10.891
内廷	-10.8911
言語	-10.8911
舉志	-10.8912
如果	-10.8913
月十一日	-10.8914
郎中員外郎掌	-10.8915
改封	-10.8915
已定	-10.8916
庶長男	-10.8917
百官表	-10.8917
巡視	-10.8922
供職	-10.8923
職司	-10.8925
宣王	-10.8925
服制	-10.8928
具載	-10.8931
頒賜	-10.8931
二次	-10.8932
胡廣	-10.8933
附近	-10.8935
外藩	-10.894
輟朝	-10.8942
天道	-10.8947
行下	-10.8949
南宫	-10.8951
之禍	-10.8952
等撰	-10.8953
嫡長男	-10.8954
羣小	-10.8957
本縣	-10.896
郎中令	-10.896
賢否	-10.896
令典	-10.8961
不逮	-10.8961
之華	-10.8967
和氣	-10.8968
同但	-10.8972
中正	-10.8974
一併	-10.8974
殺人	-10.8975
不暇	-10.8977
外夷	-10.8979
親軍	-10.898
𢎞治十年	-10.898
祔享	-10.8984
出迎	-10.8985
之勤	-10.8985
入内	-10.8986
都總管	-10.8987
北軍	-10.8989
六寸	-10.899
先王	-10.8994
哀帝	-10.8998
病故者	-10.8998
此皆	-10.8999
太學生	-10.8999
而設	-10.9
為主	-10.9
量加	-10.9001
癸丑進士	-10.9002
正名	-10.9002
一如	-10.9005
聖神	-10.9011
鍾山	-10.9011
左右丞相	-10.9012
文治	-10.9013
屬國	-10.9013
加至	-10.9014
光宗	-10.9018
亦然	-10.9019
生儒	-10.9026
之末	-10.9028
而未	-10.9034
之嚴	-10.9035
次子	-10.9043
簠簋	-10.9055
後有	-10.9057
在朝	-10.9058
兼有	-10.9058
小臣	-10.9058
南渡	-10.9059
宋時	-10.9064
不聞	-10.9064
陪拜	-10.9065
文義	-10.9066
灑掃	-10.9067
仍將	-10.907
君之	-10.9071
諮	-10.9073
行叩頭禮	-10.9075
埋	-10.9078
品下	-10.9078
宣徳元年	-10.9079
髦	-10.9079
字籍見下	-10.908
璁	-10.9081
掖庭	-10.9082
輕車都尉	-10.9082
暗	-10.9082
酷	-10.9083
眉	-10.9083
揮	-10.9083
枕	-10.9084
茹	-10.9084
靄	-10.9084
齋醮	-10.9084
蟲	-10.9085
右衛	-10.9086
神樂觀	-10.9087
漁	-10.9087
廢弛	-10.9087
字仲	-10.9088
𦙍	-10.9088
鱗	-10.9088
佇	-10.9088
瑜	-10.9089
俎豆	-10.909
蒞	-10.909
綰	-10.909
年六十	-10.909
恂	-10.9091
竈	-10.9091
幷	-10.9091
公廨	-10.9093
國家之	-10.9094
戊申	-10.9094
木炭	-10.9096
入官	-10.91
廐牧	-10.9101
遷中書舍人	-10.9102
不常置	-10.9103
富貴	-10.9104
永樂五年	-10.9104
糾察	-10.9106
三十四年	-10.9107
文體	-10.9108
文武之	-10.9109
百辟	-10.9109
成化十四年	-10.9111
司冦	-10.9112
召試	-10.9113
恭惟	-10.9115
稽查	-10.9116
視牲	-10.9116
造辦	-10.9117
王直	-10.9118
詣太廟	-10.9119
驍騎校	-10.9121
當如今之	-10.9124
保舉	-10.9126
重大	-10.9127
欽定國子監志卷	-10.9129
萬餘	-10.9131
三十九	-10.9131
為太子	-10.9132
賦詩	-10.9132
安州	-10.9133
江陵	-10.9134
同姓	-10.9134
永樂三年	-10.9135
者盖	-10.9137
乗黄	-10.9137
即便	-10.914
如常	-10.9141
太極	-10.9145
中祀	-10.9145
之未	-10.9148
該本部議得	-10.9149
謹案晉	-10.9149
金部	-10.9152
嗣位	-10.9155
年三月	-10.9156
所至	-10.9158
交易	-10.9159
二三	-10.9164
中堂	-10.9164
水利	-10.9165
三十三	-10.9165
三衛	-10.9166
入翰林	-10.9167
長史司馬	-10.9167
故違	-10.9168
典書	-10.9172
朕命	-10.9177
有疾	-10.9179
不獨	-10.918
己丑進士	-10.9181
地理	-10.9182
隋氏	-10.9183
來者	-10.9184
學習	-10.9185
有可	-10.9188
無敢	-10.9188
諭内閣	-10.9192
九廟	-10.9193
朕所	-10.9197
神靈	-10.9203
今並	-10.9203
謹案明	-10.9203
司贊	-10.9206
南昌	-10.9207
誠心	-10.9207
輔導官	-10.9208
也而	-10.921
御府	-10.9212
既成	-10.9215
各具	-10.9216
襲衣	-10.9217
乃復	-10.9217
久之	-10.9219
上䟽	-10.9219
生子	-10.9219
不敷	-10.922
九州	-10.9222
之忠	-10.9223
此即	-10.9225
翰林學士承㫖	-10.923
圖任	-10.9231
國師	-10.9234
六工尺一	-10.9235
慿	-10.9235
二縣	-10.9238
之峻	-10.9242
月初九日	-10.9245
公差	-10.9249
治事	-10.925
請行	-10.925
月支	-10.9251
繇本司	-10.9253
該寺	-10.9255
一行	-10.9256
非惟	-10.9259
既已	-10.9261
將相	-10.9261
二司	-10.9264
副率	-10.9268
品上	-10.9269
奉先	-10.9273
草制	-10.9275
三年六月	-10.9275
婚配	-10.9275
上皇	-10.9276
二十五人	-10.9276
郊壇	-10.9276
下詔	-10.9278
執法	-10.928
悉以	-10.928
尊號	-10.9285
提刑	-10.9286
而非	-10.9289
未知	-10.9291
宜從	-10.9293
一徳	-10.9294
支領	-10.9295
制作	-10.9296
乞勅	-10.9298
一一	-10.93
之兵	-10.9302
奏復位	-10.9303
北郊	-10.9305
小民	-10.9307
北方	-10.9308
司庫	-10.931
上前	-10.9311
兩廣	-10.9313
之休	-10.9315
無常	-10.9316
揀	-10.9317
名器	-10.9317
親近	-10.9317
霜	-10.9318
他人	-10.9319
六官	-10.9321
三萬	-10.9321
潁	-10.9322
犧牲	-10.9322
鎮國中尉	-10.9322
藤	-10.9323
舊臣	-10.9324
隆慶二年	-10.9325
尺四工合	-10.9325
千餘	-10.9326
未央	-10.9327
芒	-10.9327
鑪	-10.9328
熱	-10.9329
距	-10.9329
跋	-10.933
為天下	-10.933
設立	-10.933
鄆	-10.9331
至大四年	-10.9332
國子生	-10.9332
遼遼史百官志	-10.9333
乳	-10.9333
濁	-10.9334
四十九	-10.9334
享殿	-10.9334
嘉定	-10.9335
圉	-10.9335
覃	-10.9335
承務郎	-10.9336
詞訟	-10.9336
檄	-10.9337
雲騎尉	-10.9337
装	-10.9337
颺	-10.9337
攀	-10.9337
蕪	-10.9337
南齊書百官志	-10.9338
倦	-10.9338
王應麟玉海	-10.9338
淪	-10.9339
雉	-10.9339
活	-10.9339
嘉靖三十二年	-10.9339
浹	-10.9339
壬申	-10.9339
䧏	-10.9339
䜛	-10.9339
庇	-10.934
稻	-10.9341
本身	-10.9341
蔽膝	-10.9342
縹	-10.9343
馨	-10.9343
駿	-10.9344
伊尹	-10.9345
以獻	-10.9345
勤惰	-10.9345
椿	-10.9346
張廷玉	-10.9346
出外	-10.9346
李清臣	-10.9347
綵輿	-10.9348
躔	-10.9348
司天臺	-10.9349
論之	-10.935
瑋	-10.935
泄	-10.9351
服闋	-10.9353
門之外	-10.9356
所犯	-10.9356
𨽻焉	-10.9356
一雙	-10.9359
應否	-10.936
陸續	-10.9361
工作	-10.9361
守之	-10.9363
陰陽	-10.9364
降輿	-10.937
灾異	-10.937
獻帛	-10.9372
𢎞治十八年	-10.9373
夜明	-10.9373
正統二年	-10.9376
居正	-10.9377
臣寮	-10.9378
倉曹	-10.9383
府置	-10.9386
矣而	-10.9387
戒諭	-10.9388
莫能	-10.9389
遣官祭	-10.9391
具祭服	-10.9392
待罪	-10.9393
經費	-10.9395
定數	-10.9396
授官	-10.9396
頒詔	-10.9397
願陛下	-10.9398
主考	-10.94
嘗為	-10.9401
自漢	-10.9402
者不得	-10.9404
日清晨	-10.9404
國政	-10.9405
儀禮司	-10.9407
殿東	-10.9412
書於	-10.9414
居官	-10.9414
獻納	-10.9414
不絶	-10.9416
顔子	-10.9417
開皇	-10.9418
錢物	-10.9421
各司	-10.9422
先一日	-10.9422
建隆	-10.9425
政令	-10.9425
落成	-10.9425
嘉靖二十八年	-10.9427
命官	-10.943
城侯	-10.9432
積分	-10.9437
嫡庶	-10.9438
開具	-10.9438
得其人	-10.944
三疋	-10.9448
位在	-10.9453
稽其	-10.9457
東門	-10.9457
上欲	-10.9458
安民	-10.9459
十九人	-10.946
重者	-10.9461
大農	-10.9461
政務	-10.9462
華葢殿	-10.9462
奏議	-10.9462
二年九月	-10.9465
當亦	-10.9465
今據	-10.9466
乃得	-10.9473
今欲	-10.9474
于案	-10.9477
去後	-10.9479
本生	-10.9481
八曰	-10.9488
正統三年	-10.9489
發引	-10.9489
一百八十	-10.949
隋唐	-10.9492
仲秋	-10.9494
嘉靖四十	-10.9494
精通	-10.9495
大猷	-10.9496
及第	-10.9496
列侯	-10.9498
岷	-10.9499
下至	-10.9501
義理	-10.9501
暹羅	-10.9502
近世	-10.9503
日為始	-10.9506
牧監	-10.9525
權知	-10.9526
二十五日	-10.9526
國是	-10.9527
中庸	-10.953
之異	-10.953
先王之	-10.9536
婚禮	-10.9538
准他襲	-10.9542
乞將	-10.9544
太社	-10.9547
行者	-10.9548
不限	-10.955
議行	-10.9551
通志	-10.9555
右侍郎	-10.9556
至隋	-10.9558
亦同	-10.9558
當官	-10.9559
選舉	-10.9559
叅領	-10.9561
按察	-10.9563
鋒	-10.9566
朝鮮國	-10.9567
閒住	-10.9569
紵絲紗羅	-10.9572
掌印官	-10.9572
文宣	-10.9572
赴闕	-10.9572
鈐轄	-10.9573
敬天	-10.9574
安於	-10.9576
清文	-10.9578
矣故	-10.9579
准令	-10.9579
民生	-10.9579
紵	-10.958
刪定	-10.9581
侃	-10.9582
控	-10.9583
哭盡哀	-10.9583
既得	-10.9584
迥	-10.9584
晝夜	-10.9585
斧	-10.9587
甘泉	-10.9588
溺	-10.9588
元年二月	-10.9589
后稷	-10.9589
羲	-10.959
或不	-10.9593
木柴	-10.9594
婚姻	-10.9595
扎	-10.9595
洋洋	-10.9595
以佐	-10.9596
臚	-10.9596
駙馬都尉	-10.9597
扣	-10.9597
丁祭	-10.9598
蟠	-10.9598
埽	-10.96
帶俸	-10.96
壬寅	-10.9601
祭文	-10.9603
蘇軾	-10.9603
鈿	-10.9603
覧	-10.9603
卿大夫	-10.9604
嘉靖五年	-10.9604
妃王氏	-10.9604
安世	-10.9604
黃	-10.9604
洙	-10.9605
創業	-10.9609
遣中使	-10.9612
太子少師	-10.9612
童貫	-10.9612
樞庭	-10.9616
元帝	-10.9616
初無	-10.9617
璉	-10.9617
大名府	-10.9619
以教	-10.9622
祥瑞	-10.9623
大祫	-10.9623
遣官行禮	-10.9623
膳夫	-10.9623
鼓舞	-10.9624
惟是	-10.9624
申飭	-10.9624
女樂	-10.9626
江南長洲人	-10.9628
不入	-10.9629
其子孫	-10.9629
宦官	-10.9631
事而	-10.9631
舉進士	-10.9631
不詳	-10.9631
建立	-10.9633
右門	-10.9635
特置	-10.9637
靈臺	-10.9638
以圖	-10.9638
者葢	-10.9639
必欲	-10.9642
自為	-10.9646
五星	-10.9647
具公服	-10.9648
為正	-10.9649
邦家	-10.9652
其初	-10.9654
大朝㑹	-10.9655
親臨	-10.9657
阿爾	-10.9658
告示	-10.966
衣食	-10.9662
而不知	-10.9663
劾奏	-10.9664
昌朝	-10.9665
欲乞	-10.9665
朝官	-10.9665
渡江	-10.9669
諸人	-10.967
兵仗	-10.9673
行走	-10.9674
凡此	-10.9675
寨曰	-10.9677
亦如	-10.9677
僉都御史	-10.9677
次序	-10.9677
不論	-10.9678
銀兩	-10.9681
俱為	-10.9682
聲教	-10.9684
方澤	-10.9685
王英	-10.9689
上柱國	-10.9689
有五	-10.9691
罷參知政事	-10.9691
太康	-10.9692
導引官導上至	-10.9693
琉球國	-10.9693
喪服	-10.9695
奏俯伏興平身	-10.9697
止令	-10.9699
請上	-10.9702
其禮	-10.9703
宫禁	-10.9703
為始	-10.9706
𢎞治七年	-10.9706
看得	-10.9708
一言	-10.9709
於丹陛	-10.9709
金帛	-10.971
正八品上	-10.971
尚衣	-10.9711
聖心	-10.9714
官爵	-10.9716
一兩	-10.9717
自資政殿學士	-10.9719
國史院	-10.9721
充吏	-10.9724
加官	-10.9725
於内	-10.9728
銀印	-10.9734
後唐	-10.9736
跪受	-10.9737
鞋	-10.974
乞歸	-10.9742
學業	-10.9749
漠	-10.9751
永昌	-10.9755
州軍	-10.9755
太公	-10.9755
考中	-10.9757
兩月	-10.9762
則當	-10.9763
御用	-10.9764
真定	-10.9765
李文	-10.9767
也且	-10.9769
後周有	-10.977
俱以	-10.977
軍官	-10.9771
公座	-10.9771
掾史	-10.9776
文武官員	-10.9776
勲臣	-10.9778
之費	-10.9784
各以其	-10.9784
録事參軍	-10.9785
宗本紀	-10.9788
大畧	-10.9794
不滿	-10.9795
紬	-10.9796
公署	-10.9797
十有五	-10.98
一十二	-10.9802
所𨽻	-10.9805
謹案自	-10.9806
上至	-10.9806
取用	-10.9807
習禮	-10.9808
統於	-10.9811
並行	-10.9811
非禮	-10.9817
河間	-10.9821
下禮部	-10.9822
舊職	-10.9824
刪	-10.9828
毎日	-10.9829
西面	-10.9831
一十六	-10.9833
漢初	-10.9834
皆再拜	-10.9835
題奉欽依	-10.9836
莭	-10.9839
為考試官取	-10.984
亦謂	-10.9843
舅	-10.9843
張氏	-10.9845
榻	-10.9846
是年三月	-10.9849
鵠	-10.985
朝因之	-10.985
瑟	-10.985
軼	-10.9851
奨	-10.9852
被劾	-10.9852
照㑹	-10.9853
瀚	-10.9853
又改為	-10.9854
麒麟	-10.9854
監臨	-10.9854
纒	-10.9855
嶠	-10.9855
頤	-10.9856
摺	-10.9856
罍	-10.9857
鈴	-10.9857
笋	-10.9857
遂有是命	-10.9857
萬壽	-10.9857
佃	-10.9857
淳熈	-10.9858
阮	-10.9858
文選	-10.9859
盍	-10.9859
成化二十三年	-10.9859
庚寅	-10.9859
泰和	-10.986
稔	-10.986
盂	-10.986
愍	-10.986
閠	-10.9861
癸亥	-10.9861
三次	-10.9861
盥洗	-10.9862
明明史職官志	-10.9862
李時勉	-10.9863
癸巳	-10.9863
宥宻	-10.9863
兎	-10.9864
鞍馬	-10.9865
晏殊	-10.9865
女史	-10.9865
檢校太尉	-10.9865
翼善冠	-10.9865
使其	-10.9867
滿日	-10.9868
遣官祭告	-10.987
先於	-10.987
織造	-10.987
嘉靖四十四年	-10.987
征伐	-10.987
統轄	-10.9871
批答	-10.9872
無過	-10.9872
檢察	-10.9873
祝帛	-10.9875
鞍	-10.9875
各掌其	-10.9875
三王	-10.9879
韓維	-10.9879
𢎞治十七年	-10.9881
初為	-10.9882
之左右	-10.9882
二人位於	-10.9886
之效	-10.9887
通曉	-10.9887
嘉靖十四年	-10.9889
江州	-10.9891
一篇	-10.9891
伴讀	-10.9893
典學	-10.9897
膳羞	-10.9897
不為例	-10.9897
不止	-10.9899
四瀆	-10.99
臨期	-10.99
嘉靖間	-10.9903
殿最	-10.9903
昭穆	-10.9904
晉宋	-10.9908
安撫	-10.9909
特㫖	-10.9909
正統六年	-10.9909
秘府	-10.9911
平日	-10.9912
天津	-10.9916
太學博士	-10.9916
先是上	-10.9918
在官	-10.9918
以濟	-10.9919
楷書	-10.9919
都䕶府	-10.9921
掌院事	-10.9923
可得	-10.9924
曰今	-10.993
上公	-10.993
還朝	-10.9931
漢代	-10.9932
未嘗不	-10.9932
即時	-10.9935
供御	-10.9935
未入流	-10.9941
而罷	-10.9941
祠祀	-10.9943
始自	-10.9943
厥後	-10.9945
至京師	-10.9947
資政	-10.9948
治其	-10.9949
分左右	-10.9953
改作	-10.9954
諭之	-10.9956
張俊	-10.996
其才	-10.9961
良臣	-10.9965
天禧	-10.9966
賜名	-10.9967
其選	-10.9971
騎尉	-10.9974
宇文	-10.9976
受爵	-10.9978
宣力	-10.998
論事	-10.9982
胄子	-10.9985
與焉	-10.9986
商輅	-10.999
遵照	-10.999
所著	-10.9991
丙戌進士	-10.9993
庚戌進士	-10.9994
元年改	-10.9997
聖意	-10.9998
月二十六日	-11.0002
金金史百官志	-11.0004
犯罪	-11.0006
千五百	-11.0006
差使	-11.0006
置使	-11.0007
府有	-11.001
昭文	-11.0012
六千	-11.0013
五楹	-11.0014
奏言	-11.0014
有天下	-11.0015
三嵗	-11.0015
十枝	-11.0017
皆跪	-11.0021
咨送	-11.0021
六年任	-11.0023
封建	-11.0027
乞恩	-11.0027
合四一尺	-11.0031
李氏	-11.0034
名分	-11.0037
宫正	-11.0039
拾遺	-11.0039
洪武十八年	-11.0041
丞郎	-11.0042
而卒	-11.0043
皆無	-11.005
誤國	-11.0051
三少	-11.0052
程文	-11.0056
行臺	-11.0056
一經	-11.0057
其母	-11.0064
又次	-11.0067
泗	-11.0067
謁告	-11.0071
陳設同	-11.0072
各衛	-11.0073
庫掌	-11.0073
於斯	-11.0074
制詞	-11.0074
女子	-11.0075
孔目	-11.0075
隋文帝	-11.0076
乾隆元年	-11.0078
陪祭	-11.0078
二十日	-11.0081
中郎	-11.0083
權臣	-11.0087
朝廷之	-11.0088
乃詔	-11.0088
君子之	-11.0089
今以	-11.009
兼任	-11.0091
五年二月	-11.0091
又嘗	-11.0091
揆之	-11.0094
一時之	-11.0096
周王	-11.0097
萬民	-11.0099
鍼	-11.0106
祭日	-11.0108
出城	-11.0109
洪武七年	-11.0109
長史教授	-11.011
鈎盾	-11.011
神人	-11.0112
當國	-11.0113
崖	-11.0114
泮	-11.0115
圃	-11.0116
神宫監	-11.0116
䧟	-11.0116
穰	-11.0117
以為言	-11.0117
議郎	-11.0118
兼管監事	-11.0118
叚	-11.0119
堡	-11.0119
暁	-11.0121
坡	-11.0122
鷄	-11.0122
陳奏	-11.0123
闥	-11.0123
婁	-11.0123
樞宻直學士	-11.0123
你	-11.0123
嬰	-11.0123
賽	-11.0125
宸翰	-11.0125
北齊隋書百官志後齊	-11.0125
皇慶元年	-11.0125
逋	-11.0125
硃	-11.0126
蘄	-11.0126
捷	-11.0126
講堂	-11.0127
脂	-11.0127
溫	-11.0127
冢	-11.0127
大次	-11.0127
文階	-11.0128
剥	-11.0129
鎭	-11.0129
煌	-11.013
匙	-11.013
正奉大夫	-11.013
苟	-11.013
正七品上	-11.0131
疲	-11.0131
霽	-11.0132
陕西	-11.0133
紛紛	-11.0133
薛瑄	-11.0133
躐	-11.0133
先農壇	-11.0134
本堂	-11.0135
車輅	-11.0138
東海	-11.0138
絛	-11.014
漢官儀	-11.0142
此官	-11.0142
李沆	-11.0142
永為	-11.0145
萬厯二	-11.0146
太卜	-11.0147
碍	-11.0147
具冕服	-11.0149
李昉	-11.0149
侍衞	-11.0149
銓選	-11.0149
安禮	-11.0151
也唐	-11.0151
位號	-11.0151
從人	-11.0152
並列	-11.0153
召入	-11.0153
喪主以下	-11.0154
嶺南	-11.0154
司獄	-11.0154
所治	-11.0156
修書	-11.0156
十二月奉聖㫖	-11.0156
未入	-11.0157
月十九日	-11.0159
首飾	-11.0159
來朝貢	-11.016
詹同	-11.0162
二十九日	-11.0162
宣撫司	-11.0163
在政府	-11.0164
果子	-11.0165
軍中	-11.0165
元元史百官志	-11.0166
神牌	-11.0166
陳因之	-11.0168
一尺二寸	-11.017
奉聖㫖准他襲欽此	-11.017
其辭	-11.0173
當日	-11.0177
四十四	-11.0179
各部院	-11.018
有闕	-11.018
孝武	-11.0181
東上	-11.0186
吉日	-11.0187
導駕官	-11.0187
三十七年	-11.019
於大	-11.0191
豈能	-11.0193
司禮監官	-11.0194
倉部	-11.0194
又為	-11.0194
不平	-11.0197
祭之	-11.0197
不可得	-11.0199
改易	-11.02
也自	-11.0203
二表裏	-11.0206
祥符	-11.0212
諫議	-11.0217
其屬有	-11.0217
已行	-11.0219
何也	-11.0221
盛徳	-11.0224
鎮逺	-11.0225
也漢	-11.0225
宣訖	-11.0227
年深	-11.0233
戊戌進士	-11.0234
習儀	-11.0237
之年	-11.0237
臣聞	-11.0238
皆稱	-11.0239
工匠	-11.024
煬帝改為	-11.024
内外官	-11.0242
文藝	-11.0245
命有司	-11.0246
諸蕃	-11.0248
𠫭將	-11.0249
營繕	-11.0249
武選	-11.0249
餘俱	-11.0252
請如	-11.0255
長樂	-11.0257
公弼	-11.0257
四隻	-11.0258
一子	-11.026
者謂之	-11.0261
遺詔	-11.0261
咸通	-11.0266
九成	-11.027
終不	-11.0271
裁定	-11.0275
二十一日	-11.0284
乃心	-11.0287
國語	-11.0293
領兵	-11.0294
丞一員	-11.0294
上曰卿	-11.0296
何人	-11.0297
有聲	-11.0298
二壇	-11.0298
論其	-11.03
重輕	-11.0302
縣學	-11.0302
之服	-11.0303
公孫	-11.0304
則皆	-11.0305
十隻	-11.0305
入奏	-11.0309
一千五百	-11.0309
徳行	-11.031
此等	-11.0311
甚重	-11.0312
文辭	-11.0313
繇本司主事	-11.0314
洪武二十	-11.0317
加恩	-11.0317
十卷	-11.0322
寺監	-11.0325
俱各	-11.0329
千七百	-11.0329
十三日	-11.033
有未	-11.0331
衛士	-11.0331
於世	-11.0332
十一日	-11.0334
無遺	-11.0334
至唐	-11.0335
二甲	-11.0335
太子太師	-11.0335
鈔幣	-11.0337
為政	-11.034
金吾衛	-11.0341
月十七日	-11.0342
斤八兩	-11.0345
法物	-11.0345
乞令	-11.0348
上即位	-11.0349
大學士楊士竒	-11.035
司儀	-11.035
鐘鼓	-11.0352
太子詹事	-11.0353
也謹案	-11.0356
近例	-11.0362
郡公	-11.0362
在焉	-11.0362
工尺一四	-11.0371
梁冠	-11.0373
可行	-11.0375
亦未	-11.0375
典章	-11.0376
三殿	-11.0376
初授	-11.0377
故無嗣	-11.038
明史職官志	-11.038
不識	-11.0381
緋	-11.0382
覆題奉武宗皇帝聖㫖	-11.0383
講讀官	-11.0384
毆	-11.0385
繞	-11.0388
蓬	-11.0392
暑	-11.0393
壙	-11.0395
隐	-11.0395
十六日	-11.0396
勃	-11.0397
濠	-11.0398
内直	-11.0399
是年正月	-11.0399
柯	-11.0399
鉤	-11.0399
撃	-11.04
臣某	-11.04
蜜	-11.0401
哥	-11.0401
驃騎	-11.0401
閹	-11.0402
韜	-11.0402
廖	-11.0402
簠簋各二	-11.0403
輔國将軍	-11.0403
槖	-11.0404
勺	-11.0404
猾	-11.0405
周洪謨	-11.0405
孫嘉淦	-11.0406
讎	-11.0406
捧主官	-11.0406
㳟	-11.0406
百王	-11.0407
驢	-11.0407
竢	-11.0407
行初獻禮	-11.0407
卦	-11.0407
糓	-11.0408
祭於	-11.0408
淡	-11.0408
錦衣衞	-11.0409
濙	-11.0409
店	-11.0409
縝	-11.0409
鮑	-11.0409
稱有制	-11.0409
需索	-11.041
紐	-11.041
孺	-11.041
集賢校理	-11.0411
紅棗	-11.0411
戒飭	-11.0412
具皮弁服	-11.0412
行遣	-11.0412
官四員	-11.0412
䕶衞	-11.0412
株	-11.0412
之患	-11.0414
儻	-11.0414
招討司	-11.0415
部篇	-11.0415
祫祭	-11.0417
彛倫堂	-11.0417
伺候	-11.0417
蒋	-11.0418
天神	-11.042
紹述	-11.042
以是	-11.042
曰惟神	-11.0421
行止	-11.0422
𢎞治十六年	-11.0422
吳敏	-11.0423
關防	-11.0425
從者	-11.0425
不得過	-11.0425
羊酒	-11.0426
之秩	-11.0426
宋書	-11.0426
左右廂	-11.0427
五尺	-11.0427
惟演	-11.0428
髙一尺	-11.043
之舞	-11.043
江南武進人	-11.0431
奏疏	-11.0438
憲廟	-11.0438
易服	-11.0439
比照	-11.0439
明㑹典	-11.044
學士宋濓	-11.0441
仍照	-11.0441
第六	-11.0443
異議	-11.0443
三年九月	-11.0443
各給	-11.0446
明太	-11.0446
山東河南	-11.0446
聖慈	-11.0446
畿内	-11.0447
時以	-11.0449
今宜	-11.0453
卷之	-11.0454
考驗	-11.0455
上怒	-11.0455
安燾	-11.0455
以杜	-11.0456
該衙門	-11.0457
故以	-11.0458
㑹稽	-11.0461
周知	-11.0464
之别	-11.0465
九分	-11.0466
前輩	-11.0468
出榜	-11.0468
不測	-11.047
郡君	-11.0472
彭時	-11.0472
别設	-11.0476
有六	-11.0477
雨雪	-11.0478
其説	-11.048
為左右	-11.0482
維新	-11.0485
内助	-11.0485
所論	-11.0485
以定	-11.0486
别駕	-11.0487
面奏	-11.0487
皇陵	-11.0489
宋初	-11.0489
五斗	-11.0491
辦事官	-11.0495
三皇	-11.0495
永樂四年	-11.0495
責之	-11.0496
㑹奏	-11.0502
右司	-11.0504
與夫	-11.0504
日食	-11.0507
免役	-11.0508
狀元	-11.051
見行	-11.0511
者若	-11.0513
官俱	-11.052
月十六日	-11.0521
陞南京	-11.0521
儀從	-11.0524
大辟	-11.0529
中軍	-11.0532
至御前	-11.0532
俊卿	-11.0533
法王	-11.0538
此二	-11.0542
龍朔二年改	-11.0544
始立	-11.0545
成化十一年	-11.0546
令一人丞一人	-11.0547
召公	-11.0555
人也	-11.0557
特設	-11.0557
優者	-11.0557
宗道	-11.0559
在告	-11.056
具在	-11.056
今擬	-11.0562
二百石	-11.0563
之略	-11.0567
三年十二月	-11.0571
三年五月	-11.0572
言也	-11.0573
恩禮	-11.0575
無所不	-11.0577
識者	-11.0578
臨朝	-11.0579
上復	-11.0582
力辭	-11.0585
學規	-11.0586
奉天殿	-11.059
進士第	-11.0593
聞其	-11.0593
官跪	-11.0594
賛者	-11.0597
例應	-11.0599
之請	-11.06
嘉靖二十九年	-11.0601
壬辰進士	-11.0604
立案	-11.0604
實有	-11.0607
候駕	-11.0608
稍有	-11.0614
諳	-11.0618
乾隆四	-11.0619
陵廟	-11.062
正徳三年	-11.0625
臺上	-11.0626
前為	-11.0632
甲辰進士	-11.0634
丹墀内	-11.0637
價銀	-11.0637
官有	-11.0637
講筵	-11.0639
貢馬	-11.064
西安	-11.0641
自知	-11.0642
官員人等	-11.0642
舊人	-11.0643
遷都	-11.0644
左司	-11.0648
太宗皇帝	-11.0653
寧府	-11.0657
經邦	-11.0657
五年任	-11.0658
分列	-11.0658
辜	-11.0658
不待	-11.0659
查考	-11.066
布衣	-11.066
六斤	-11.0662
考職	-11.0665
人物	-11.0668
郎中一人	-11.0669
副使一人	-11.0671
袴	-11.0671
堯叟	-11.0673
悉如	-11.068
奉國中尉	-11.068
史館修撰	-11.068
也臣	-11.0681
突厥	-11.0682
樂人	-11.0682
之謂	-11.0683
瀋	-11.0683
訃	-11.0684
議禮	-11.0684
第二品	-11.0684
虗	-11.0684
僊	-11.0684
三國魏志	-11.0684
浪	-11.0685
居多	-11.0686
誠敬	-11.0687
駒	-11.0687
雁	-11.0687
沁	-11.0688
苖	-11.0688
即令	-11.0689
裡	-11.0689
譚	-11.0689
㝠	-11.0689
槍	-11.069
掲帖	-11.069
牖	-11.069
捨	-11.069
條陳	-11.069
以求	-11.069
布曰	-11.0692
憾	-11.0693
香油	-11.0693
毛血	-11.0694
臨軒	-11.0694
科塲	-11.0694
伯宋大中祥符二年加	-11.0695
濳善	-11.0695
訓練	-11.0695
贊唱	-11.0695
宣徳二年	-11.0695
伏覩	-11.0696
冡宰	-11.0696
丁酉	-11.0698
變亂	-11.0698
是年二月	-11.0699
學志	-11.0699
互市	-11.0699
擴	-11.0699
醜	-11.0699
賜白金	-11.07
不疑	-11.07
本職	-11.0702
之路	-11.0702
追奪	-11.0702
出守本官	-11.0703
叅究	-11.0703
神厨	-11.0703
方得	-11.0704
陳升之	-11.0706
行四拜禮畢	-11.0708
腹心	-11.0708
燒香	-11.0708
襲爵	-11.0709
翊衛	-11.0711
呂夷簡	-11.0712
八旗官學生	-11.0712
岳飛	-11.0714
奉遷	-11.0714
典儀唱樂舞生就位執事官各司其事	-11.0715
成化十三年	-11.0715
請復	-11.0715
萬户府	-11.0716
乃有	-11.072
不遵	-11.0721
風憲	-11.0722
始得	-11.0724
第九品	-11.0724
援例	-11.0724
北面立	-11.0726
以實	-11.0728
序坐	-11.0729
外郎	-11.0731
乘馬	-11.0732
四十六	-11.0735
賢良	-11.0739
奏對	-11.0741
靖難	-11.0743
如律	-11.0743
聖裁	-11.0744
年七十	-11.0745
三百六十	-11.0748
方與	-11.0749
餘慶	-11.0755
承制	-11.0756
劉吉	-11.0757
管待	-11.0758
試之	-11.0758
祔廟	-11.0758
翰林院學士	-11.0761
左都御史	-11.0762
則亦	-11.0765
肅清	-11.0767
臨幸	-11.0767
父兄	-11.0768
南為	-11.077
卿一人	-11.077
不常	-11.077
昭陵	-11.0771
原無	-11.0772
男子	-11.0772
今日之	-11.0773
家法	-11.0774
王道	-11.0774
㕘領	-11.0776
錦衣衛官	-11.0776
左布政使	-11.0776
存問	-11.0781
兼侍讀學士	-11.0782
或謂	-11.0782
所作	-11.0787
江西南昌	-11.0792
丁丑進士	-11.0792
西向立	-11.0792
五采	-11.0792
里正	-11.0793
觀禮	-11.0794
於壇	-11.0794
衛將軍	-11.0796
李東陽	-11.0798
部屬	-11.0799
典樂	-11.0807
元嘉	-11.081
號曰	-11.081
一員從七品	-11.0811
所致	-11.0817
府兵	-11.0818
相兼	-11.0818
等俱	-11.0819
大誥	-11.0822
一尺一合	-11.0822
漢武帝	-11.0823
興化	-11.0824
昌平	-11.0826
未得	-11.0827
臺官	-11.083
題曰	-11.0831
法曹	-11.0833
吏部左侍郎	-11.0836
罷免	-11.0838
明昌	-11.084
豈非	-11.0841
武英殿大學士	-11.0842
宋史	-11.0842
雲龍	-11.0843
入對	-11.0843
宜如	-11.0844
犯者	-11.0848
陽縣	-11.0849
回籍	-11.0851
之能	-11.0854
内地	-11.0855
會同	-11.0856
人戸	-11.0858
欽奉	-11.0859
一百人	-11.086
入侍	-11.0864
致治	-11.0865
秦置	-11.0866
皆與	-11.0866
八名	-11.0868
蒙正	-11.0868
九尺	-11.0868
明徳	-11.0874
量其	-11.0874
我太祖	-11.0875
六箇	-11.0875
東西各	-11.0877
就職	-11.0877
復改	-11.0877
嘗以	-11.0879
用印	-11.088
止有	-11.0882
猶有	-11.0883
左右春坊	-11.0886
在後	-11.0888
作養	-11.089
相國	-11.089
牛羊	-11.089
查明	-11.0892
禮部主事	-11.0896
而代	-11.0903
奏跪	-11.0904
博學	-11.0906
詳考	-11.0907
年四月	-11.0908
前古	-11.0909
㑹要	-11.0911
成都	-11.0911
升為	-11.0915
於是禮部	-11.0919
行軍	-11.0921
主事四人	-11.0923
師古曰	-11.0923
所行	-11.0925
中立	-11.0926
事多	-11.0928
兩朝	-11.0931
樞機	-11.0931
久矣	-11.0934
副之	-11.0935
方今	-11.0936
司調任	-11.0936
永樂六年	-11.0937
尚儀	-11.0938
以總	-11.0939
六兩	-11.094
嫡長	-11.094
其出入	-11.0941
惟神	-11.0942
未詳	-11.0942
御極	-11.0945
五月以	-11.0949
詔㫖	-11.0958
州事	-11.0959
箇月	-11.0959
之善	-11.0965
一處	-11.0966
敬此	-11.0969
梧	-11.0971
為額	-11.0971
元子	-11.0971
刁	-11.0973
巡捕	-11.0974
滕	-11.0974
屬少府	-11.0975
床	-11.0976
讌	-11.0976
舟楫	-11.0978
蛇	-11.0978
翻	-11.0979
釀	-11.0979
究問	-11.0979
駐劄	-11.0979
撫按衙門	-11.098
蟬	-11.098
嘉靖二十四年	-11.098
駞	-11.098
殁	-11.098
錦衣	-11.0981
鋐	-11.0981
亞獻終獻	-11.0982
慚	-11.0982
所進	-11.0982
後進	-11.0982
晉晉書職官志	-11.0982
詮	-11.0983
於禮部	-11.0983
涯	-11.0984
晷	-11.0984
卯	-11.0984
掌天下	-11.0985
糖	-11.0985
纁	-11.0985
楊廷和	-11.0986
斟酒	-11.0986
蔬菜厨料	-11.0987
薫	-11.0987
狡	-11.0987
椒	-11.0987
大學衍義	-11.0987
雒陽	-11.0988
聊	-11.0988
慙	-11.0989
貺	-11.0989
牐	-11.0989
景神殿	-11.099
聫	-11.099
狥私	-11.099
甘露	-11.099
上殿	-11.0991
孟冬	-11.0991
哈密	-11.0992
懌	-11.0993
宫闈	-11.0993
後遂	-11.0994
員外郎一人	-11.0994
者不許	-11.0994
休戚	-11.0995
亦各	-11.0995
牋	-11.0995
翌日	-11.0995
比二千石	-11.0996
不舉	-11.0996
徐溥	-11.0996
與今之	-11.0996
抃	-11.0997
邦昌	-11.0998
上諭禮部臣曰	-11.0998
安撫司	-11.0998
直集賢院	-11.0998
謀謨	-11.0999
藝祖	-11.0999
俱無	-11.1001
幫	-11.1003
青苗	-11.1004
注云	-11.1006
減半	-11.1006
名而	-11.1008
今已	-11.101
士論	-11.1012
禮部議准	-11.1014
汝愚	-11.1014
該本部題	-11.1014
記注官	-11.1014
史浩	-11.1015
南道	-11.1016
轉左	-11.1017
中為	-11.1017
江南吳縣	-11.1018
迎接	-11.1019
祧廟	-11.102
無出	-11.102
所自出	-11.1021
勉之	-11.1022
發落	-11.1022
二十二日	-11.1022
醫師	-11.1023
内附	-11.1024
告于	-11.1025
罷樞宻副使	-11.103
神祗	-11.1031
改𨽻	-11.1031
文案	-11.1032
引進	-11.1037
非常之	-11.1037
占城	-11.1041
宋儒	-11.1043
工役	-11.1044
合為一	-11.1044
以下各	-11.1045
正統七年	-11.1046
行勘	-11.1047
順帝	-11.1048
舊唐書	-11.105
貞觀中	-11.1051
初即位	-11.1052
乾隆二年	-11.1052
為太傅	-11.1053
正統中	-11.1054
順治元年	-11.1054
縣民	-11.1055
開元初	-11.1058
嫡母	-11.1059
是年六月	-11.106
講論	-11.1061
並非	-11.1062
而能	-11.1063
遷轉	-11.1065
三朝	-11.107
正色	-11.107
而不能	-11.1071
四庫	-11.1073
納言	-11.1074
於文華殿	-11.1075
樞府	-11.1077
從重	-11.1077
畫一	-11.1078
亭長	-11.1078
謹案後漢	-11.1079
工食	-11.108
皆因	-11.1083
事也	-11.109
帝王之	-11.1091
諡號	-11.1091
藏書	-11.1091
復班	-11.1092
者是也	-11.1093
故並	-11.1094
白鹽	-11.1096
日以	-11.1097
若盧	-11.1097
軍政	-11.1097
百神	-11.1098
許令	-11.1102
四郊	-11.1103
先入	-11.1105
二年詔	-11.1109
至意	-11.1111
一家	-11.1113
天順二年	-11.1113
三十一	-11.1117
三斗	-11.1118
經學	-11.112
二座	-11.1122
次妃	-11.1122
祖宗時	-11.1123
一書	-11.1123
西寧	-11.1124
楊氏	-11.1124
不得與	-11.1126
仰成	-11.1126
元年十二月	-11.1129
奏祭祀	-11.1132
代王	-11.1133
止是	-11.1134
曹參軍事一人	-11.1135
躬親	-11.1136
服之	-11.1138
正徳元年	-11.1139
兵事	-11.1143
皆同	-11.1144
月初七日	-11.1144
者一人	-11.1146
七寸	-11.1146
百日	-11.1146
神帛	-11.115
本旗	-11.1152
必由	-11.1155
䕶軍校	-11.1157
曲直	-11.1158
𢎞治二年	-11.116
節年	-11.116
凡諸	-11.116
月初二日上	-11.1164
遣祭	-11.1165
府縣	-11.1165
求罷	-11.1167
元符	-11.1173
將兵	-11.1173
十有六	-11.1174
置監	-11.1176
知制誥拜	-11.1176
回還	-11.1178
宣府	-11.1179
鎮將	-11.118
不撓	-11.1183
江東	-11.1185
隨朝	-11.1187
以通	-11.119
則無	-11.1195
治獄	-11.1195
請命	-11.12
與諸	-11.1202
四時之	-11.1202
請乞	-11.1204
朕以	-11.1204
無員	-11.1206
盡忠	-11.1208
一二人	-11.121
既至	-11.121
為左	-11.1214
卿下	-11.1215
尋陞	-11.1215
不著	-11.1215
其私	-11.1218
立學	-11.1219
轉奏	-11.122
景泰二年	-11.1221
入告	-11.1221
劉氏	-11.1223
刻石	-11.1225
海道	-11.1227
皆當	-11.1236
始于	-11.1239
册封	-11.1241
人洪武	-11.1241
杭	-11.1242
廣運	-11.1242
遵奉	-11.1244
正統五年	-11.1247
等差	-11.125
定鼎	-11.1251
亦稱	-11.1252
山王	-11.1253
假以	-11.1254
司員	-11.1255
雖未	-11.126
朝㕘	-11.1264
一尺四合	-11.1264
八寸	-11.1264
充之	-11.1265
臣愚	-11.1265
壘	-11.1266
之極	-11.1267
貴妃	-11.1269
湘	-11.1274
沐浴	-11.1274
闊	-11.1275
恭遇	-11.1275
又省	-11.1276
母后	-11.1277
枷	-11.1277
洪武十七年	-11.1277
宫門外	-11.1278
一間	-11.1278
尅	-11.1278
勦	-11.1278
長沙	-11.1278
等因奉聖㫖	-11.1279
仍用	-11.1281
濡	-11.1282
喀爾喀	-11.1282
中奉大夫	-11.1282
鯉	-11.1283
取自上裁	-11.1283
苑囿	-11.1283
豋	-11.1283
初封	-11.1283
芬	-11.1284
冦凖	-11.1284
納之	-11.1284
己卯	-11.1284
棺	-11.1284
覬	-11.1284
杯	-11.1285
開科	-11.1285
樞筦	-11.1287
天夀山	-11.1287
龍圖閣	-11.1288
疫	-11.1288
奠玉帛	-11.1289
拏	-11.1289
學生員	-11.1289
簠	-11.129
到監	-11.129
顔師古注	-11.1291
㐮	-11.1291
掄選	-11.1291
忭	-11.1291
江西吉水人	-11.1291
穢	-11.1292
㒺	-11.1292
挈	-11.1292
偷	-11.1292
優劣	-11.1293
駟	-11.1293
圎	-11.1293
郝	-11.1293
罵	-11.1294
棠	-11.1294
曉諭	-11.1294
数	-11.1294
宋齊梁陳宋書百官志	-11.1294
一隻	-11.1294
典儀唱奠帛行初獻禮	-11.1295
内管領	-11.1296
大祀殿	-11.1296
行在禮部尚書胡濙	-11.1297
筆墨	-11.1297
專掌	-11.1297
邊境	-11.1297
何所	-11.1298
羃	-11.1298
己酉	-11.1299
諮議	-11.1299
掌院	-11.13
重罪	-11.1301
州界	-11.1302
奉表	-11.1302
韓絳	-11.1303
祕殿	-11.1303
成化二十二年	-11.1304
上中下	-11.1305
尊諡	-11.1306
仲月	-11.1307
不肖	-11.1308
物件	-11.1308
月令	-11.1311
光禄卿	-11.1311
照常	-11.1313
一路	-11.1313
之憂	-11.1313
從其請	-11.1316
五百人	-11.1316
黜退	-11.1316
之大者	-11.1317
是年十月	-11.1317
謀猷	-11.1318
權衡	-11.1319
三法司	-11.1319
之師	-11.1319
第七品	-11.1321
地祇	-11.1321
九嬪	-11.1321
皇極門	-11.1322
亦為	-11.1324
天下之事	-11.1325
有丞	-11.1327
之迹	-11.1327
白麫	-11.1327
浙江海寜	-11.1328
川王	-11.1329
品第三	-11.1332
别立	-11.1332
庶長	-11.1333
不得不	-11.1337
充貢	-11.1341
宿衞	-11.1345
支米	-11.1348
通經	-11.1349
府丞	-11.135
養之	-11.135
章京	-11.1351
劉向	-11.1354
定王	-11.1358
十有四	-11.1359
五部	-11.136
赴監	-11.1361
平生	-11.1363
中二千石	-11.1367
分東西	-11.137
之器	-11.137
見之	-11.1371
宣讀	-11.1372
長吏	-11.1372
祕書監	-11.1374
經綸	-11.1375
統制	-11.1377
軍人	-11.1378
府官	-11.1379
辭免	-11.138
雲中	-11.1387
誠為	-11.1388
當差	-11.1388
取㫖	-11.1388
西東向	-11.1389
固已	-11.139
多為	-11.139
儀刑	-11.1392
父祖	-11.1393
百餘人	-11.1393
親祀	-11.1394
有徳	-11.1394
未定	-11.1396
男李	-11.1396
大門	-11.1397
青羅	-11.1397
俱從	-11.1398
永陵	-11.1399
過期	-11.1402
歴年	-11.1403
足為	-11.1404
建官	-11.1406
至元十年	-11.1414
曽布	-11.1414
酋長	-11.1415
不以為	-11.1416
承制官	-11.1419
多方	-11.142
至道	-11.1421
除簽書樞密院事	-11.1421
者宜	-11.1424
宋綬	-11.1427
各四	-11.143
㑹計	-11.143
我祖宗	-11.143
曰公	-11.1431
更改	-11.1433
把事	-11.1433
邊事	-11.1434
又考	-11.1434
理之	-11.1434
文簿	-11.1435
率領	-11.1436
以見	-11.1436
謁廟	-11.1438
諸使	-11.144
某王	-11.1443
司員外郎	-11.1446
食官	-11.1447
四輔	-11.1447
皆曰	-11.1451
重道	-11.1451
不中	-11.1452
七年任	-11.1453
新舊	-11.1453
祭社稷	-11.1455
司農寺	-11.1455
年轉左	-11.1458
正五品上	-11.1462
副總裁	-11.1462
重加	-11.1462
典牧	-11.1466
𢎞治十四年	-11.1469
明命	-11.1473
大節	-11.1474
聞於	-11.1475
不避	-11.1476
其位	-11.1479
省諭	-11.1481
又加	-11.1482
既不	-11.1482
三年三月	-11.1484
口糧	-11.1486
事發	-11.1488
統軍	-11.149
今考	-11.149
昌言	-11.1493
以慰	-11.1494
軍節度	-11.1494
四壇	-11.1494
事實	-11.1497
銀一兩	-11.1497
又稱	-11.1498
隋有	-11.1499
總統	-11.1503
餘人	-11.1506
保安	-11.1506
改任	-11.1508
三月以	-11.1508
祀天	-11.1508
𢎞治十三年	-11.1511
歲時	-11.1512
以相	-11.1514
士庶	-11.1518
南史	-11.1519
從五	-11.152
當該	-11.152
渝	-11.1526
社稷壇	-11.1526
見有	-11.1527
天順四年	-11.1527
准此	-11.153
正四品上	-11.1533
贈太師	-11.1537
及各	-11.1537
是年十一月	-11.1542
舊徳	-11.1545
太上	-11.1548
滿洲二人	-11.1548
去取	-11.1548
於京師	-11.1549
月二十四日	-11.155
五品以下	-11.1551
貲	-11.1553
日本	-11.1555
二升	-11.1558
氏為	-11.1562
夏言	-11.1563
陽侯	-11.1564
籩豆各	-11.1565
升祔	-11.1566
歸徳	-11.1566
統屬	-11.1568
六軍	-11.1569
賛善	-11.157
十有四人	-11.157
北羊	-11.1574
硯	-11.1574
璟	-11.1584
作人	-11.1584
歇	-11.1584
寂	-11.1585
癸	-11.1586
筐	-11.1586
並用	-11.1587
丁母憂	-11.1588
圖治	-11.1589
晴	-11.1589
肄	-11.1589
貿易	-11.159
鐃	-11.159
太師太傅太保	-11.1591
狹	-11.1592
鎖	-11.1592
黔	-11.1592
叟	-11.1593
州學	-11.1593
偁	-11.1594
臂	-11.1595
鎧	-11.1595
𦂳	-11.1595
行一拜三叩頭禮	-11.1595
粲	-11.1595
纎	-11.1595
掄	-11.1596
坎	-11.1596
蘊	-11.1596
集賢殿大學士	-11.1597
堤	-11.1597
萬厯十年議准	-11.1597
倂	-11.1598
張九齡	-11.1598
著令	-11.1598
景㤗	-11.1598
得宜	-11.1599
僞	-11.1599
瑣	-11.16
喚	-11.16
祭司	-11.16
鎮巡等官	-11.16
膚	-11.16
甲乙	-11.16
謂其	-11.1601
愷	-11.1601
狐	-11.1602
從第五品	-11.1602
嗜	-11.1602
廢置	-11.1603
無間	-11.1603
賛引官賛	-11.1603
曽公亮	-11.1603
獅子	-11.1603
北嶽	-11.1604
㳂	-11.1604
飼	-11.1604
遄	-11.1605
両	-11.1605
陲	-11.1606
賑	-11.1607
稱職	-11.1608
魁柄	-11.1608
通奉大夫	-11.1608
遇事	-11.1608
各賜	-11.1608
嘉靖十八年	-11.1609
分司南京	-11.1609
榆	-11.1609
礙	-11.1609
南院	-11.1609
品第	-11.161
遣使朝貢	-11.1611
張邦昌	-11.1612
濕	-11.1612
艾	-11.1612
親蠶	-11.1612
國子司業	-11.1613
民有	-11.1613
受胙	-11.1613
僅存	-11.1614
淵源	-11.1615
漢漢書百官公卿表	-11.1616
廊廟	-11.1617
尚膳監	-11.1618
二年五月	-11.1618
江人	-11.1619
兩廂	-11.1619
蔡攸	-11.1619
二百人	-11.162
宣慰使	-11.162
誕揚	-11.162
哭臨	-11.1621
徽號	-11.1621
四方館	-11.1621
字様	-11.1621
原任	-11.1622
羊一豕一	-11.1623
酒果	-11.1624
復古	-11.1626
唐時	-11.163
司主事	-11.1632
進賢	-11.1633
協律	-11.1633
以著	-11.1633
三軍	-11.1633
阿里	-11.1634
律吕	-11.1636
銀臺	-11.1636
不能無	-11.1638
與安石	-11.1641
時政	-11.1642
百官箴	-11.1642
明而	-11.1643
堂下	-11.1645
青海	-11.1645
學宫	-11.1646
前例	-11.1646
養老	-11.1647
巡察	-11.1648
鹽法	-11.1648
洪武間	-11.1649
進酒	-11.165
乾徳	-11.1652
大理寺卿	-11.1652
如法	-11.1652
永豐	-11.1652
而入	-11.1654
幸甚	-11.1655
魏國公	-11.1657
於午門外	-11.166
纂修官	-11.1664
從六品下	-11.1664
土木	-11.1665
始設	-11.1666
觀其	-11.1669
捧詔	-11.1671
大徳十一年	-11.1671
隆興	-11.1672
福州	-11.1675
有限	-11.1677
第二子	-11.1678
者乎	-11.1679
用青	-11.168
宗尹	-11.168
宿直	-11.1681
庚辰進士	-11.1681
宻院	-11.1682
之暇	-11.1685
果品	-11.1685
奏討	-11.1685
地面	-11.1685
初定	-11.1686
國論	-11.1686
永安	-11.1687
罪之	-11.1688
衢州	-11.169
廣州	-11.1691
文翰	-11.1692
等因本部	-11.1692
班齊	-11.1693
治亂	-11.1695
卒於	-11.1695
書冩	-11.1696
校人	-11.1697
薦新	-11.1699
分撥	-11.1699
為朕	-11.17
雍正三年	-11.1701
騎射	-11.1702
鴻臚寺設	-11.1703
親親之	-11.1703
稱臣	-11.1705
如無	-11.1706
翼翼	-11.1706
侍郎充	-11.1707
昭文館大學士	-11.1709
課程	-11.171
孝思	-11.1712
次輔	-11.1715
語言	-11.1717
何事	-11.1719
生靈	-11.1719
恐有	-11.1722
三卷	-11.1724
修明	-11.1724
惠王	-11.1727
而治	-11.1727
取具	-11.1728
冲人	-11.1728
大匠	-11.1729
故相	-11.173
土官巡檢	-11.1732
所欲	-11.1734
加意	-11.1734
不能自	-11.1736
敢言	-11.1737
推舉	-11.1738
應該	-11.1738
進膳	-11.1738
六尚	-11.1739
二百四十	-11.1739
京兆尹	-11.174
部侍郎	-11.174
陪京	-11.1742
足矣	-11.1747
入太學	-11.1747
經筵官	-11.1751
宣徳五年	-11.1754
之法以	-11.1758
天顔	-11.1759
武弁	-11.176
亦云	-11.176
罔不	-11.176
殿外	-11.1762
釋之	-11.1764
守禦	-11.1765
元老	-11.1765
四十一	-11.177
之竒	-11.177
南方	-11.177
以降	-11.1773
前職	-11.1773
禮部員外郎	-11.1775
職務	-11.1775
依次	-11.1775
造就	-11.1779
在於	-11.178
政府	-11.1784
書畫	-11.1784
四十三年	-11.1784
此其	-11.1784
宣徳七年	-11.1784
載在	-11.1785
凡十	-11.1786
法式	-11.1787
改為司	-11.1787
甚矣	-11.1788
以罪	-11.179
▁年	-11.1791
冊寳案	-11.1795
前漢	-11.1795
入謝	-11.1796
上曰此	-11.1798
製造	-11.1798
莫若	-11.18
外府	-11.1804
為長	-11.1807
供用	-11.1809
色長	-11.1816
雖無	-11.1821
而言	-11.1821
五年正月	-11.1821
從而	-11.1822
左氏	-11.1822
支俸	-11.1823
給散	-11.1825
鄉人	-11.1825
孔子廟	-11.1826
凡天下	-11.1829
是故	-11.1832
必得	-11.1833
未久	-11.1835
中臺	-11.184
大計	-11.1841
詔可	-11.1846
當世	-11.1846
宏治	-11.1849
提學副使	-11.1853
當年	-11.1853
詳見	-11.1853
坐於	-11.1854
交修	-11.1857
改授	-11.1858
以禮部	-11.1865
有異	-11.1866
建中	-11.1866
罷去	-11.1867
相去	-11.1869
中門出	-11.187
𢎞治十二年	-11.1875
勸農	-11.1875
請於	-11.1876
冊使	-11.1879
趙王	-11.1881
監規	-11.1884
北為	-11.1884
十三年任	-11.1884
帝曰	-11.1885
失其	-11.1886
襲故	-11.1889
始祖	-11.1889
科道官	-11.1891
典軍	-11.1895
盡行	-11.1896
文集	-11.1897
年任右侍郎	-11.1898
獻訖	-11.19
以彰	-11.19
導至	-11.19
冠禮	-11.1904
師保	-11.1907
文思院	-11.1909
親王府	-11.1909
兔	-11.191
峒	-11.191
有詔	-11.191
天章	-11.1911
南北向	-11.1911
始此	-11.1913
鼐	-11.1914
瓜	-11.1914
撮	-11.1914
遂與	-11.1915
纉	-11.1915
琉璃	-11.1916
礮	-11.1916
購	-11.1916
一前期一日	-11.1916
旻	-11.1916
宣徽南院使	-11.1917
六年三月	-11.1917
緬	-11.1919
紘	-11.1919
塘	-11.192
聮	-11.192
乞致仕	-11.192
朝日夕月	-11.192
選充	-11.192
衘	-11.1922
隄	-11.1922
漿	-11.1922
企	-11.1923
錦繡	-11.1923
郁	-11.1923
無由	-11.1924
傲	-11.1924
丁卯	-11.1924
闌	-11.1924
賽瑪爾堪	-11.1924
飄	-11.1924
光祿大夫	-11.1925
浄	-11.1925
留守司	-11.1925
蘇易簡	-11.1926
商賈	-11.1926
先帝之	-11.1926
步軍統領	-11.1926
樣	-11.1926
苞	-11.1926
薰	-11.1926
端明殿學士簽書樞密院事	-11.1926
韓世忠	-11.1927
宥密	-11.1928
花様	-11.1928
楮	-11.1928
彝	-11.1929
周禮地官	-11.1929
牲匣	-11.193
酒醴	-11.193
醮	-11.193
球	-11.193
丘濬	-11.1931
驤	-11.1931
刋刻	-11.1931
管鑰	-11.1931
擅婚	-11.1932
永樂二十二年	-11.1932
倭	-11.1932
之流	-11.1933
正綂	-11.1933
頗有	-11.1933
飛龍	-11.1933
其義	-11.1934
胡椒	-11.1934
添註	-11.1934
昭文館	-11.1934
耆老	-11.1934
滿洲漢人	-11.1934
宋代	-11.1935
陞本司郎中	-11.1937
郎中員外郎主事	-11.1937
歲暮	-11.1937
亦須	-11.1938
周禮夏官	-11.1939
邦國之	-11.1939
髙墻	-11.194
讀祝位	-11.1942
張商英	-11.1943
明安	-11.1945
查究	-11.1945
審其	-11.1948
謁見	-11.1948
該本部尚書	-11.1948
滿洲一人	-11.1949
封駮	-11.1949
醫生	-11.1949
外戚	-11.1949
長成	-11.1951
委曲	-11.1952
真人	-11.1952
其本	-11.1952
欽定四庫全書欽定厯代職官表	-11.1953
不到	-11.1954
降授	-11.1955
十七人	-11.1955
坊局	-11.1956
駕還	-11.1959
昇平	-11.1959
以侍讀充	-11.1959
納銀	-11.196
鹽鐡使	-11.1963
延祐元年	-11.1967
切責	-11.1968
誕敷	-11.1968
九曰	-11.197
境内	-11.1971
祖父母	-11.1975
樞密院事	-11.1977
之勲	-11.1978
講求	-11.1978
不専	-11.1978
收支	-11.1979
三百石	-11.198
進俎	-11.1984
縁由	-11.1984
之聲	-11.1984
朝政	-11.1986
彌封	-11.1987
防禦使	-11.1988
謹序	-11.1988
六藝	-11.1988
被遇	-11.1989
宋元	-11.199
黄履	-11.1991
寵光	-11.1991
宫室	-11.1992
正四品下	-11.1995
一室	-11.1996
大司徒	-11.1998
四年八月	-11.1999
得此	-11.2001
者凡	-11.2003
正堂	-11.2003
無嗣	-11.2005
上召	-11.2009
預告	-11.201
欽宗	-11.201
彼處	-11.2011
恩詔	-11.2011
次詣	-11.2012
曽孫	-11.2013
乾隆三年	-11.2015
鄭氏	-11.2015
不須	-11.2018
分案	-11.2019
郡邑	-11.2021
屬于	-11.2021
然皆	-11.2024
世職	-11.2024
翟衣	-11.2025
十九日	-11.2026
也惟	-11.2027
紅緑	-11.2027
斯文	-11.2027
之運	-11.203
監作	-11.2031
曽祖	-11.2033
者今	-11.2033
寜人	-11.2034
敷文	-11.2037
行於	-11.2038
發回	-11.204
題覆	-11.2045
右司諫	-11.2046
此職	-11.2046
將帥	-11.2048
其政令	-11.2048
早朝	-11.205
𢎞治八年	-11.205
表章	-11.205
皆南向	-11.2051
自新	-11.2051
二年四月	-11.2053
左庶子	-11.2054
郡太守	-11.2055
漢武	-11.2055
龍朔二年改為	-11.2055
附㑹	-11.2058
徳音	-11.2059
御製詩	-11.2059
樂暫止	-11.2059
于上	-11.2061
立廟	-11.2072
兼知	-11.2072
宫城	-11.2074
浙	-11.2074
革職	-11.2075
功名	-11.2075
莫知	-11.2076
一儀注	-11.2077
坐堂	-11.2077
之半	-11.2077
以副	-11.2077
大司空	-11.2078
小者	-11.2082
懿文	-11.2084
則稱	-11.2085
親親	-11.2088
屬車	-11.2089
上天	-11.2089
其故	-11.209
二十四日	-11.209
金華	-11.2091
禮部韻	-11.2093
為右	-11.2095
景泰三年	-11.2095
為善	-11.2095
誤也	-11.2097
世忠	-11.2097
罷樞宻使	-11.2099
編修官	-11.21
遂廢	-11.21
者當	-11.21
詔定	-11.2101
不獲	-11.2103
頒之	-11.2105
給度	-11.2105
南海	-11.2111
求賢	-11.2112
北院	-11.2112
月十二日	-11.2115
二十六日	-11.2115
不致	-11.2117
是年四月罷	-11.2117
乆之	-11.2118
陳文	-11.2118
中書監	-11.212
永興	-11.212
同一	-11.2123
之殊	-11.2131
八十人	-11.2134
仍乞	-11.2134
靡不	-11.2134
福酒	-11.2134
御道	-11.2137
之常	-11.2138
有竒	-11.214
至拜位	-11.214
量給	-11.2141
兩重	-11.2143
㦸門	-11.2144
師氏	-11.2145
三十名	-11.2148
告廟	-11.2149
典寳	-11.2149
四合四一	-11.2153
異時	-11.2154
文館	-11.2155
一斗	-11.2156
司天監	-11.2159
且言	-11.216
不特	-11.2164
要當	-11.2164
比之	-11.2165
之遺	-11.2165
月初十日	-11.2165
益重	-11.2165
歴法	-11.2166
吏治	-11.2168
之制而	-11.2172
别將	-11.2172
言臣	-11.2173
西廂	-11.2173
醴泉觀使	-11.2176
内監	-11.2178
周禮有	-11.2179
根本	-11.218
任重	-11.2183
職業	-11.2183
家居	-11.2186
太牢	-11.2188
三年置	-11.2188
故特	-11.2188
以主	-11.2189
諸倉	-11.219
另行	-11.219
方伯	-11.2191
學臣	-11.2193
郎中知制誥	-11.2195
不立	-11.2196
皇極	-11.2196
優長	-11.2196
功過	-11.2199
四年九月	-11.22
文淵閣大學士	-11.2202
遼史	-11.2203
之門	-11.2206
置二人	-11.2207
左相	-11.2212
賞例	-11.2212
非其人	-11.2219
中京	-11.2219
之㑹	-11.2223
司封	-11.2223
陞禮部右侍郎	-11.2225
南蠻	-11.2226
度牒	-11.2227
一般	-11.2228
既定	-11.2228
之精	-11.2234
尺二寸	-11.2236
遂除	-11.2238
甎	-11.2238
獻俘	-11.224
者照例	-11.2241
洪武二十四年	-11.2241
重地	-11.2241
址	-11.2243
賜鈔	-11.2243
蓬萊	-11.2245
風教	-11.2247
皮弁	-11.2247
頥	-11.2248
夘	-11.2248
襪	-11.2248
六品已下	-11.2248
征討	-11.2248
孔雀	-11.2249
不食	-11.2249
碎	-11.225
夏竦	-11.225
奉常	-11.225
無常員	-11.225
欽定四庫全書唐六典卷	-11.2251
贄	-11.2251
餼	-11.2251
監牧	-11.2251
琛	-11.2251
過失	-11.2252
晉書職官志	-11.2252
汲	-11.2253
租庸	-11.2253
每人	-11.2253
犬	-11.2254
劣	-11.2254
鴈	-11.2254
邈	-11.2254
亥	-11.2254
龍圖閣學士	-11.2254
文皇帝	-11.2255
泳	-11.2255
邃	-11.2255
宫牆	-11.2255
歿	-11.2255
行五拜三叩頭禮	-11.2255
土官知州	-11.2255
灋	-11.2256
瀛洲	-11.2256
挽	-11.2256
它	-11.2256
節冊	-11.2256
摧	-11.2256
崇文院	-11.2257
永樂大典	-11.2258
啟閉	-11.2258
桶	-11.2258
猥	-11.2258
近年以來	-11.2258
樂章迎神	-11.2258
台吉	-11.2258
鑄造	-11.2258
各館	-11.2259
奉令㫖	-11.2259
臣司	-11.226
恭知政事	-11.226
鋪排	-11.226
其國王	-11.226
嫉	-11.2261
出于	-11.2262
養贍	-11.2262
濤	-11.2262
臯陶	-11.2262
配饗	-11.2263
勸懲	-11.2263
日月星辰	-11.2263
鞠躬拜興拜興平身	-11.2263
鏜	-11.2263
則云	-11.2264
皂𨽻	-11.2264
廵檢	-11.2264
雇	-11.2264
揭帖	-11.2264
疇咨	-11.2264
雍正五年	-11.2264
訐奏	-11.2265
峩	-11.2265
具服殿	-11.2265
紙劄	-11.2266
之於是	-11.2266
遹	-11.2266
寒暑	-11.2266
大字	-11.2266
弼諧之	-11.2266
軍節度副使	-11.2266
平之章	-11.2266
皇極殿	-11.2266
真定府	-11.2268
文武衙門	-11.2268
戸部侍郎	-11.2268
煌煌	-11.2269
治書侍御史	-11.2269
屛	-11.2269
懇辭	-11.227
進學	-11.2271
異姓	-11.2271
收拾	-11.2272
閏二月	-11.2272
叩首	-11.2272
恩數	-11.2274
璿	-11.2274
機衡	-11.2275
宫僚	-11.2275
錢榖	-11.2277
虞部	-11.2278
永樂八年	-11.2278
順天宛平人	-11.228
千牛	-11.228
此意	-11.2281
覺羅	-11.2282
之訓洪武	-11.2282
具儀	-11.2282
㸔得	-11.2282
改置	-11.2283
博士㕔	-11.2284
中山王	-11.2285
藩鎮	-11.2285
其舊	-11.2285
歴仕	-11.2286
𤣥孫	-11.2287
十七日	-11.2287
無論	-11.2287
加太子太保	-11.2289
御幄	-11.2289
所職	-11.2289
宣徽使	-11.2291
之所由	-11.2292
十八日	-11.2292
内院學士	-11.2293
長者	-11.2294
使名	-11.2296
候㫖	-11.2297
教育	-11.2297
後隨	-11.2297
黄瓦	-11.2299
依違	-11.2302
天語	-11.2302
之尊	-11.2303
上命禮部	-11.2303
大宗伯	-11.2306
宗正寺	-11.2307
糾舉	-11.2309
郎中一人員外郎	-11.2309
儀曹	-11.2312
詩曰	-11.2313
協恭	-11.2314
王黼	-11.2314
所過	-11.2315
六名	-11.2317
然亦	-11.2317
授受	-11.2317
見少	-11.2318
編管	-11.2319
山澤	-11.232
石刻	-11.2321
具啓	-11.2321
而乃	-11.2322
進表箋	-11.2323
告假	-11.2325
押班	-11.2327
諡法	-11.2328
朝鮮國王	-11.2328
不孝	-11.233
擇吉	-11.233
乾元	-11.233
殿大學士	-11.2331
母妃	-11.2333
二卷	-11.2334
二年七月	-11.2334
十有八	-11.2334
備顧問	-11.2335
三孤	-11.2337
專司	-11.2337
愛民	-11.2341
經制	-11.2343
厥職	-11.2348
元帥	-11.2349
永嘉	-11.235
遷延	-11.2353
兩人	-11.2356
内贊唱	-11.2358
前元	-11.236
不可考	-11.2361
而實	-11.2364
纘	-11.2368
門禁	-11.2369
易簡	-11.2371
不具	-11.2372
直館	-11.2372
嘉靖十六年	-11.2372
樂部	-11.2375
知人	-11.2376
而歸	-11.2376
更衣	-11.2376
工六尺	-11.2378
為君	-11.2378
集賢殿	-11.2378
道監察御史	-11.2379
在此	-11.2379
行營	-11.238
到官	-11.2388
紹聖元年	-11.2389
萬壽聖節	-11.239
三十二人	-11.2391
政機	-11.2391
魏世	-11.2392
知政事	-11.2392
翰林院編修	-11.2393
特簡	-11.2393
經營	-11.2395
其道	-11.2395
山人	-11.2397
宰司	-11.2398
不忠	-11.2401
臨事	-11.2402
殿西	-11.2402
元輔	-11.2406
辛未進士	-11.2406
伏見	-11.2408
止稱	-11.2409
二年十二月	-11.2409
有年	-11.2409
有左右	-11.2412
惟時	-11.2413
藩王	-11.2415
軍職	-11.2417
則仍	-11.242
得象	-11.2422
此言	-11.2423
之道也	-11.2426
鈞衡	-11.2426
飲訖	-11.2428
騎兵	-11.2437
舞生	-11.2437
紀載	-11.2439
知貢舉	-11.244
不少	-11.244
二人典	-11.2441
福建晉江人	-11.2442
道德	-11.2445
十餘萬	-11.2445
日新	-11.245
𢎞治五年	-11.2455
方丘	-11.2459
鄉里	-11.2462
筆帖式滿洲	-11.2463
改名	-11.2463
州置	-11.2464
簡用	-11.2466
官二人	-11.2467
天眷	-11.2471
王存	-11.2475
二職	-11.2475
詩文	-11.2476
秦州	-11.2477
十嵗	-11.2478
自便	-11.2483
固不	-11.2484
各分	-11.2485
七十二	-11.2485
四等	-11.2486
選貢	-11.2486
𢎞治十	-11.2486
正大	-11.2488
於下	-11.2488
事功	-11.2489
是年七月	-11.2491
曽經	-11.2492
自左	-11.2492
過犯	-11.2495
甚衆	-11.2497
議叙	-11.2498
相州	-11.2498
正義	-11.2499
書佐	-11.2505
碑文	-11.2506
准他	-11.2509
十六員	-11.2511
二年十月	-11.2513
上位	-11.2515
亦止	-11.2519
預焉	-11.252
三府	-11.2523
泉州	-11.2527
慶元	-11.2527
鑄印	-11.2528
尺工	-11.2529
前代之	-11.2532
左右翼	-11.2535
准其	-11.2535
月二十日	-11.2536
立春	-11.2539
凡親王	-11.2541
光宅	-11.2542
捧冊寳	-11.2546
其能	-11.2547
髙明	-11.2547
掖門	-11.2548
至誠	-11.2548
司市	-11.255
具列	-11.2553
綿布	-11.2555
諸軍事	-11.2555
諸夷	-11.2557
有曰	-11.2558
十道	-11.2559
為丞相	-11.2561
久不	-11.2561
耳今	-11.2563
分治	-11.2563
故當時	-11.2563
亳	-11.2568
廟學	-11.257
覿	-11.2571
朝退	-11.2572
體國	-11.2574
鄭州	-11.2574
遷官	-11.2576
挐	-11.2576
共用	-11.2577
及此	-11.2577
虢	-11.258
閘	-11.2581
王師	-11.2582
複	-11.2582
長慶	-11.2582
債	-11.2586
議事	-11.2587
也盖	-11.2587
艘	-11.2587
俱要	-11.2588
旛	-11.2589
節該	-11.2589
人有	-11.2589
糊	-11.259
付之	-11.2592
鉦	-11.2592
遴	-11.2592
年改為	-11.2592
構	-11.2592
劵	-11.2592
仝	-11.2593
股	-11.2593
奴婢	-11.2593
依前官	-11.2594
元年十一月	-11.2595
懦	-11.2595
扛	-11.2596
除尚書右丞	-11.2596
煒	-11.2597
湛	-11.2597
成化五年	-11.2597
世祖章皇帝	-11.2597
榛	-11.2598
祖陵	-11.2598
仲舒	-11.2598
芹	-11.2599
布按二司	-11.2599
峪	-11.2599
餌	-11.2599
太平御覽	-11.2599
奔走	-11.2599
曜	-11.2599
乾清宫	-11.2599
叠	-11.26
晰	-11.26
釋褐	-11.26
訾	-11.26
莖	-11.26
棨	-11.26
羨	-11.26
謄寫	-11.2601
盒	-11.2601
杓	-11.2601
隷	-11.2601
劑	-11.2601
龎	-11.2601
朔朢	-11.2602
疵	-11.2602
泌	-11.2602
襈	-11.2602
燧	-11.2602
塤	-11.2602
扎瑪里鼎	-11.2602
辛卯	-11.2603
秩千石	-11.2603
僧尼	-11.2603
啟聖祠	-11.2603
低	-11.2603
車騎	-11.2603
䂓	-11.2604
舖	-11.2604
襟	-11.2605
以廣	-11.2605
者罪之	-11.2605
衛人	-11.2605
軍民人等	-11.2606
浙江餘姚人	-11.2606
遣官致祭	-11.2606
逆瑾	-11.2607
為三公	-11.2607
芸	-11.2607
悃	-11.2607
加置	-11.2608
上駟院	-11.2608
江西泰和人	-11.2608
鹽課	-11.2609
汙	-11.2609
大官令	-11.261
燿	-11.261
朝叅	-11.261
楊億	-11.2611
璘	-11.2611
彥博	-11.2611
臺省	-11.2611
雅樂	-11.2611
毓	-11.2611
耶律	-11.2612
二聖	-11.2613
正統間	-11.2614
訃聞	-11.2614
孽	-11.2615
呈堂上官	-11.2615
捧神主	-11.2615
速香	-11.2615
姿	-11.2615
龍江	-11.2616
皇貴妃	-11.2616
也朕	-11.2617
一前期二日	-11.2617
霞帔	-11.2617
倬	-11.2618
六工一尺	-11.2618
于午門外	-11.2619
東嶽	-11.2619
移駐	-11.2619
額森	-11.2619
甲戌進士	-11.262
詣拜位	-11.262
齋宿	-11.262
三年正月	-11.2621
巴延	-11.2622
御醫	-11.2622
内使監令	-11.2623
繁簡	-11.2623
招討使	-11.2624
正統十四年	-11.2624
史文	-11.2625
季春	-11.2626
源流	-11.2627
揆路	-11.2629
廕生	-11.2629
壬子	-11.263
庶績	-11.2631
未㡬	-11.2631
退復位	-11.2633
吉林	-11.2633
上司	-11.2633
檢討充	-11.2633
草木	-11.2634
環衛	-11.2636
預修	-11.2637
遂至	-11.2638
不悛	-11.2638
吏部篇	-11.264
媒氏	-11.264
通用	-11.2641
惟恐	-11.2642
順治元年定	-11.2643
齊王	-11.2644
知道	-11.2644
秩滿	-11.2644
令㫖	-11.2645
乃可	-11.2646
之先	-11.2647
宜用	-11.2648
鄉君	-11.265
正統四年	-11.265
讀卷官	-11.2651
隆慶初	-11.2653
題奉聖㫖	-11.2653
曰昔	-11.2656
唐六典卷	-11.2657
以吏部	-11.2657
六合	-11.2657
姓氏	-11.2658
禮部題	-11.2659
兼樞密使	-11.2659
為樞宻使	-11.2659
謹案隋	-11.2662
降㫖	-11.2662
開報	-11.2662
青色	-11.2663
紀録	-11.2664
神武	-11.2664
道統	-11.2668
分地	-11.2669
之由	-11.2669
安徽	-11.2672
詔獄	-11.2674
敬謹	-11.2674
授檢討	-11.2677
欽此嘉靖二十	-11.2678
二年任	-11.2679
不輕	-11.2679
不顧	-11.268
鎮江府	-11.2681
先以	-11.2682
隨班	-11.2682
永清	-11.2683
柱下	-11.2684
社學	-11.2684
違禁	-11.2685
服用	-11.2686
宴畢	-11.2687
楚王	-11.2688
已見	-11.2689
者不同	-11.2689
經世	-11.2692
時事	-11.2693
歎曰	-11.2695
庶官	-11.2695
暫免	-11.2697
乗馬	-11.2699
四年六月	-11.27
戒之	-11.2704
東臺	-11.2704
御文華殿	-11.2706
者充	-11.2707
南仲	-11.271
至尊	-11.2711
之類皆	-11.2711
請自今	-11.2712
相公	-11.272
為差	-11.2722
土地	-11.2723
變更	-11.2723
重違	-11.2724
士人	-11.2724
太和中	-11.2724
卒于	-11.2725
名位	-11.2726
司其事	-11.2729
中書省臣	-11.2729
言陛下	-11.273
末年	-11.273
欲用	-11.273
分設	-11.273
以本官	-11.2733
御史臣	-11.2733
閣下	-11.2737
武成	-11.2739
布一疋	-11.2739
再入	-11.274
由來	-11.2741
仍賜	-11.2742
聖裔	-11.2742
對讀	-11.2743
東廂	-11.2743
殿門外	-11.2745
上御奉天門	-11.2745
封章	-11.2746
墳所	-11.2748
四疋	-11.2748
佐郎	-11.275
光禄寺卿	-11.2751
其詳	-11.2752
為序	-11.2753
濟寧	-11.2753
治中	-11.2759
萬貫	-11.276
二年三月	-11.2761
左右司	-11.2762
翰林志	-11.2762
近代	-11.2763
必求	-11.2765
右府	-11.2765
者方許	-11.2767
一德	-11.2767
之差	-11.2768
九月除	-11.277
開列	-11.277
功課	-11.2776
出知	-11.2777
雜記	-11.2778
七員	-11.2779
尺工尺	-11.2782
署令一人丞	-11.2784
歴陞	-11.2788
本意	-11.2788
之賜	-11.2791
亦如今	-11.2792
封還	-11.2792
季考	-11.2793
以祀	-11.2796
端拱	-11.2796
准作	-11.2797
典儀唱徹饌	-11.28
别為	-11.28
為執政	-11.2801
不動	-11.2802
其長	-11.2802
右庶子	-11.2803
告歸	-11.2804
又何	-11.281
清理	-11.2815
日厯	-11.2815
朕欲	-11.2818
時為	-11.2821
之靈	-11.2822
為言	-11.2822
先務	-11.2823
為祭酒	-11.2823
類有	-11.2824
御奉天門	-11.2825
嚴禁	-11.2826
羣書	-11.2826
朕志	-11.2827
百戸	-11.2827
之月	-11.2829
秋祭	-11.2837
其後又	-11.2838
奠獻	-11.284
右副都御史	-11.2842
軍校	-11.2843
營建	-11.2843
二年以	-11.2845
給價	-11.2849
音樂	-11.2851
月二十五日	-11.2851
各五人	-11.2853
府同知	-11.2855
因命	-11.286
各十人	-11.2863
用銀	-11.2866
於時	-11.2866
起自	-11.2867
進香	-11.2867
勅書	-11.2868
九章	-11.2869
矣夫	-11.287
東西向立	-11.2871
還鄉	-11.2873
禪	-11.288
導從	-11.2883
象牙	-11.2883
犯法	-11.2883
寝	-11.2884
不赴	-11.2885
者有司	-11.2886
漢教習	-11.2886
十四年任	-11.2888
各用	-11.289
出師	-11.2893
廟門	-11.2897
名封	-11.29
皇朝改	-11.2901
所議	-11.2901
發明	-11.2902
不敬	-11.2903
七年二月	-11.2905
名儒	-11.2907
官僚	-11.2913
服御	-11.2914
宫使	-11.2914
官之長	-11.2915
濟南	-11.2916
守衞	-11.2917
徳勝	-11.2917
特享	-11.2919
一祝文	-11.2919
亦不得	-11.2921
醴齊	-11.2923
當即	-11.2924
内贊贊	-11.2925
每一	-11.2928
葢亦	-11.2929
之具	-11.293
典司	-11.293
進馬	-11.2932
之女	-11.2934
侯國	-11.2937
卡	-11.2939
綂	-11.2939
惠帝	-11.294
西洋	-11.2941
沼	-11.2941
鄴	-11.2942
緝熙	-11.2942
氐	-11.2944
紫宸	-11.2944
選授	-11.2945
嚢	-11.2946
官人	-11.2946
皓	-11.2947
廨	-11.2947
禮科都給事中	-11.2948
醋	-11.2948
糺	-11.2948
庀	-11.2949
迷	-11.2949
睿宗獻皇帝	-11.2949
狗	-11.295
趺	-11.295
織染	-11.295
幔	-11.295
贊者	-11.295
突	-11.295
劒	-11.2951
奉朝請	-11.2951
洩	-11.2951
檀香	-11.2951
後改為	-11.2952
竿	-11.2952
椀	-11.2952
羗	-11.2952
憶	-11.2952
豹尾	-11.2952
浴	-11.2952
菱米	-11.2952
德用	-11.2953
挑	-11.2953
烹	-11.2953
悚	-11.2953
耕耤	-11.2953
鳩	-11.2954
知院	-11.2954
丗	-11.2954
陳廷敬	-11.2954
黷	-11.2955
砂糖	-11.2955
衣一襲	-11.2956
讜	-11.2956
兼攝	-11.2956
致齋三日	-11.2956
續文獻通考	-11.2957
潰	-11.2957
行手本知㑹	-11.2958
奔競	-11.2958
灑	-11.2958
綵段二表裏	-11.2958
璜	-11.2958
姬	-11.2959
二百八十	-11.2959
柴薪	-11.2959
鞠衣	-11.2959
醫學	-11.2959
臆	-11.296
鏘	-11.296
咨送吏部	-11.296
奸弊	-11.296
撻	-11.2961
駢	-11.2961
知道欽此	-11.2961
攜	-11.2962
無罪	-11.2962
牟	-11.2962
坫	-11.2962
殘疾	-11.2962
旺	-11.2962
武庫令	-11.2963
戊戍	-11.2963
太宗文皇帝	-11.2964
謹案五季	-11.2964
正統十年	-11.2964
提調學校	-11.2966
胡儼	-11.2967
洪範	-11.2968
在相位	-11.2968
怙	-11.2968
牝	-11.2968
祔葬	-11.2968
八尺	-11.2969
六科給事中	-11.2969
分送	-11.2969
嵗貢生	-11.297
廟諱	-11.297
祺	-11.2971
鄭𤣥	-11.2971
知陳州	-11.2971
暘	-11.2971
秩二千石	-11.2971
典儀唱迎神	-11.2972
江浙	-11.2972
遂有	-11.2972
嚴嵩	-11.2973
侂胄	-11.2974
朝議大夫	-11.2975
吳澄	-11.2977
至明	-11.2977
似為	-11.2977
康王	-11.2977
著之	-11.2978
發運使	-11.2979
内三院	-11.2979
貨物	-11.298
姑息	-11.298
爲之	-11.298
倫序	-11.298
除尚書左丞	-11.2981
部臣	-11.2983
失之	-11.2983
丕圖	-11.2986
不息	-11.2986
太僕寺卿	-11.2986
上嘗	-11.299
算法	-11.2993
寳鈔	-11.2993
文忠	-11.2994
蒼生	-11.2994
左門入	-11.2994
為御史中丞	-11.2994
留邉	-11.2996
帛一段	-11.2996
徽章	-11.2997
聖旦	-11.2997
以謂	-11.2998
無定	-11.2998
皇族	-11.2999
五十二	-11.3
受賜	-11.3003
看守	-11.3003
稱㫖	-11.3006
之至是	-11.3006
曰上	-11.3009
行香	-11.3011
進士舉人	-11.3013
屬焉	-11.3013
登庸	-11.3013
㕘軍	-11.3014
午後	-11.3014
父老	-11.3016
鹽政	-11.3017
朕念	-11.3018
甄官	-11.3019
歸之	-11.3019
教師	-11.3021
穆宗	-11.3022
左門出	-11.3022
印結	-11.3023
好問	-11.3023
男楊	-11.3025
孝肅	-11.3027
爾雅	-11.3028
本州知州	-11.3029
啟王	-11.3032
兵馬司	-11.3033
不聽	-11.3036
尚在	-11.3043
叅預	-11.3043
竊見	-11.3044
千萬	-11.3046
禮臣	-11.3047
營求	-11.3048
豐年	-11.3048
一同	-11.3052
各府州縣	-11.3054
在中書	-11.3056
今既	-11.3058
各壇	-11.3059
使知	-11.3059
如係	-11.3059
又别	-11.306
侍講充	-11.3061
燕居	-11.3062
用是	-11.3066
上不許	-11.3068
録事二人	-11.3068
景山	-11.307
降革	-11.3071
右諫議大夫除	-11.3072
也但	-11.3072
四拜興	-11.3072
臨清	-11.3072
正人	-11.3073
撥厯	-11.3074
金繡	-11.3078
特加	-11.3078
月初三日	-11.308
即於	-11.3081
公羊	-11.3082
秉政	-11.3084
四年正月	-11.3086
嘗謂	-11.3088
出給	-11.3089
正言	-11.3093
配天	-11.3094
宫伯	-11.3095
尺一寸	-11.3098
増廣	-11.3098
以宰相	-11.3099
改稱	-11.31
妃家	-11.31
大内	-11.31
行則	-11.31
大成門	-11.3101
莫重	-11.3102
衆多	-11.3103
年置	-11.3103
人文	-11.3104
人樂舞生	-11.3105
主司	-11.3113
回賜	-11.3118
金史	-11.3118
相傳	-11.3121
訖樂止	-11.3124
官貟	-11.3126
大備	-11.3126
平凖	-11.3126
講解	-11.3127
五軍	-11.3127
之工	-11.3127
本省	-11.3127
元明	-11.3129
一貫	-11.313
經筵日講	-11.3131
五祀	-11.3132
𠡠諭	-11.3135
程式	-11.3136
六鄉	-11.3138
即為	-11.314
進獻	-11.314
無愧	-11.315
不任	-11.3151
公文	-11.3151
未當	-11.3151
除流官	-11.3152
恤民	-11.3156
又増	-11.3156
縣官	-11.3157
史冊	-11.3157
上既	-11.3158
畢即	-11.3159
以應	-11.3159
建寧	-11.316
並從	-11.3161
外史	-11.3164
市令	-11.3164
既久	-11.3166
民情	-11.3168
俱令	-11.317
乎此	-11.3171
六館	-11.3171
仰承	-11.3172
此為	-11.3175
來歸	-11.3175
廣平	-11.3176
可比	-11.3176
朕甚	-11.3177
都給事中	-11.318
賜諡	-11.3181
罷黜	-11.3184
詣學	-11.3185
主簿二人	-11.3185
尚書充	-11.3185
宫殿門	-11.3186
河州	-11.3192
兩司	-11.3192
違法	-11.3193
建學	-11.3193
敢忘	-11.3193
易以	-11.3198
其例	-11.3203
頒降	-11.3203
庫藏	-11.3204
司香	-11.3206
篚一	-11.3207
差委	-11.3211
嚴行	-11.3213
左遷	-11.3215
仍置	-11.3216
造作	-11.3217
是書	-11.3221
雲漢	-11.3221
胄曹	-11.3224
因時	-11.3225
計其	-11.3228
防守	-11.3229
其書	-11.323
皇天	-11.3232
仁宗皇帝	-11.3232
典守	-11.3233
聞奏	-11.3236
爾禮部	-11.3236
册寳	-11.3236
去年	-11.3237
元元	-11.3238
元世祖	-11.3239
凡六	-11.324
嘉靖三十年	-11.324
覆勘	-11.3241
革除	-11.3241
以承	-11.3241
直道	-11.3241
計議	-11.3244
君父	-11.3244
若是	-11.3246
便服	-11.3246
大門外	-11.3252
而立	-11.3255
司天	-11.3256
奉聖㫖准他	-11.3257
重治	-11.3262
記曰	-11.3265
諭禮部曰	-11.3265
鴻臚卿	-11.3267
籍記	-11.3267
嘗與	-11.3267
應行	-11.3269
行終獻禮	-11.3269
司成	-11.3269
之寵	-11.3271
有道	-11.3271
貴人	-11.3276
隆慶四年	-11.3276
冊表	-11.3276
改吏部	-11.3278
楊溥	-11.3279
賜予	-11.328
豈惟	-11.328
付以	-11.3283
亦故	-11.3283
謹身殿	-11.3286
失職	-11.3287
題奏	-11.329
異日	-11.3293
兵柄	-11.3298
瞽	-11.3301
之英	-11.3301
無非	-11.3302
掌受	-11.3303
本爵	-11.3303
旗軍	-11.3306
宣慰	-11.3306
例外	-11.3307
華亭	-11.3308
謄	-11.3309
採桑	-11.3309
隨事	-11.331
者亦如之	-11.3311
奉武宗皇帝聖㫖	-11.3311
飽	-11.3314
伎	-11.3315
灰	-11.3315
賈公彦疏	-11.3316
靖江王	-11.3316
節次	-11.3317
三輔黄圖	-11.3317
衣一套	-11.3318
潼	-11.3319
阿桂	-11.3319
驛驛丞	-11.332
師表	-11.3321
鎗	-11.3321
掣	-11.3321
雍熈	-11.3321
程敏政	-11.3321
守令	-11.3321
驊騮	-11.3322
百萬	-11.3322
舂	-11.3322
逓減	-11.3322
牲牢	-11.3322
巢	-11.3323
二個	-11.3323
紛紜	-11.3323
贊禮畢	-11.3323
體貌之	-11.3323
捜	-11.3324
㢤	-11.3324
崇祀	-11.3324
殤	-11.3324
帙	-11.3324
孔安國傳	-11.3324
煎	-11.3325
夏原吉	-11.3325
總兵官劄	-11.3325
轅	-11.3325
絹四疋	-11.3326
魂	-11.3326
筋	-11.3326
暹	-11.3326
燮	-11.3327
集賽	-11.3327
兀	-11.3328
成化十八年	-11.3328
設有	-11.3329
巻	-11.3329
自漢以來	-11.3329
沽	-11.3329
酒盞	-11.3329
力行	-11.3329
正妃	-11.3329
端禮	-11.3329
囑	-11.3329
承旨	-11.3329
琢	-11.3329
楫	-11.333
鉶二	-11.333
聖道	-11.333
迤北	-11.333
宫内	-11.333
貨賄	-11.333
藩邸	-11.333
勲戚	-11.3331
隋煬帝置	-11.3331
題名碑	-11.3331
擡	-11.3331
懈	-11.3331
觸	-11.3332
繖	-11.3332
嘉靖二	-11.3332
扆	-11.3333
粱	-11.3333
散騎	-11.3333
隰	-11.3334
由左門入	-11.3334
宣徳十年	-11.3334
大昕	-11.3334
檢校太師	-11.3334
耻	-11.3335
整飭	-11.3335
令禮部	-11.3335
福建莆田人	-11.3335
周禮天官	-11.3335
顔孟	-11.3336
譬	-11.3336
僎	-11.3336
皇地祇	-11.3337
庵	-11.3337
譲	-11.3337
見主事下	-11.3337
搭	-11.3337
楨	-11.3338
疾苦	-11.3338
引班引	-11.3338
招撫	-11.3338
取之	-11.3338
檀	-11.3339
天地宗廟社稷	-11.3339
儐	-11.334
整肅	-11.334
右春坊	-11.3341
學士承㫖	-11.3342
干預	-11.3342
土官知府	-11.3342
俸錢	-11.3342
規矩	-11.3342
於奉先殿	-11.3343
至大元年	-11.3344
修起居注	-11.3344
劉定之	-11.3344
受賞官	-11.3346
洪武九年	-11.3346
撰述	-11.3346
作相	-11.3346
兩五錢	-11.3346
左司諫	-11.3347
𢎞治十一年	-11.3348
欲其	-11.3348
分明	-11.335
副總兵	-11.335
午門前	-11.3351
可觀	-11.3351
知亳州	-11.3351
七十五	-11.3352
青州	-11.3352
隨班行禮	-11.3352
迎駕	-11.3353
邊防	-11.3354
指名	-11.3354
舉麾	-11.3356
之法也	-11.3358
皇妣	-11.3359
巡狩	-11.3359
八佾	-11.336
襲替	-11.3361
之辭	-11.3361
二道	-11.3361
車輿	-11.3363
之交	-11.3363
留後	-11.3363
節鉞	-11.3363
顯慶	-11.3365
賛冠者	-11.3365
多遜	-11.3366
覈實	-11.3368
西曰	-11.337
錢帛	-11.337
傳載	-11.3371
專以	-11.3372
賛禮畢	-11.3372
任祠祭司	-11.3375
大哉	-11.3376
案呈	-11.3377
丁度	-11.3377
彭年	-11.3378
入塲	-11.3378
不正	-11.3378
轉運司	-11.3378
資格	-11.3382
蔡氏	-11.3384
殿中省	-11.3386
將作監	-11.3387
年少	-11.3387
封禪	-11.3392
清商	-11.3392
内使監官	-11.3393
夏侯	-11.3394
亭侯	-11.3396
授之	-11.3396
年參	-11.3396
據此則	-11.3398
葢如今	-11.3398
旬日	-11.3398
刑法	-11.3399
聖躬	-11.34
上尊號	-11.3401
馬政	-11.3401
精詳	-11.3403
列郡	-11.3404
不諳	-11.3404
五年四月	-11.3406
天縱	-11.3407
顔師古	-11.341
東西序立	-11.341
宫眷	-11.341
巡檢司	-11.341
真食	-11.3411
出守	-11.3411
坐營	-11.3413
校正	-11.3414
泰山	-11.3416
除資政殿學士	-11.3418
九族	-11.3419
詣前	-11.342
成法	-11.3421
獻皇帝	-11.3421
在館	-11.3422
並罷	-11.3426
始封	-11.3427
每季	-11.3427
議大夫	-11.3428
左藏	-11.3433
欲令	-11.3434
州判	-11.3436
綱目	-11.3438
五釐	-11.344
忠孝	-11.344
黄紙	-11.3443
和林	-11.3444
則從	-11.3445
昭示	-11.3446
一員正八品	-11.3446
雩	-11.3447
不可復	-11.3447
凡内外	-11.3449
官物	-11.3449
金飾	-11.345
訪求	-11.3451
分教	-11.3452
之柄	-11.3453
文物	-11.3453
第七	-11.3453
選人	-11.3454
冊寶	-11.3456
合四上四	-11.3458
成就	-11.3466
等神	-11.3467
方准	-11.347
從六品掌	-11.3473
則令	-11.3475
華蓋殿	-11.3476
考到	-11.348
就試	-11.3484
供其	-11.3487
平聲	-11.3488
首善	-11.3488
宣表	-11.3488
章獻	-11.3489
臣竊	-11.349
人品	-11.3492
可嘉	-11.3492
明道	-11.3493
質明	-11.3493
六十四	-11.3495
遂使	-11.3496
古文	-11.3497
楊時	-11.3498
開載	-11.35
學正學録	-11.35
具疏	-11.3504
光明	-11.3504
白玉	-11.3505
監軍	-11.3505
知院事	-11.3507
大學士李賢	-11.3508
盖亦	-11.3509
淮西	-11.3511
各陵	-11.3512
遂令	-11.3513
定䇿	-11.3515
國勢	-11.3516
因革	-11.3517
續定	-11.3517
黄色	-11.3517
考核	-11.3518
服衮冕	-11.352
十兩重	-11.3523
爲相	-11.3524
賜祭	-11.3525
尚書左僕射	-11.3525
魏置	-11.3527
有才	-11.3529
五十九	-11.353
近司	-11.3531
照數	-11.3532
有定制	-11.3532
東路	-11.3533
多用	-11.3536
表率	-11.3538
未封	-11.3538
比者	-11.3539
選任	-11.3539
軍前	-11.3541
左右侍郎	-11.3541
交結	-11.3542
朝日	-11.3543
玉色	-11.3545
順治初	-11.3546
五十斤	-11.3547
奬諭	-11.3549
下所司	-11.355
難於	-11.3551
殿廷	-11.3551
武徳初	-11.3552
明史選	-11.3554
時惟	-11.3556
至太廟	-11.3558
一員掌	-11.3558
年分	-11.3559
二千五百	-11.3566
盡數	-11.3566
國本	-11.3568
政治	-11.3572
𢎞治中	-11.3576
舊額	-11.3576
醫官	-11.3577
立教	-11.3578
如是則	-11.3579
廟制	-11.3579
列名	-11.3581
乃止	-11.3581
正七品下	-11.3583
宣徳三年	-11.3583
位視	-11.3588
督學	-11.3592
者准	-11.3593
承受	-11.3595
漢世	-11.3596
建國	-11.3596
復任	-11.3598
西臺	-11.3603
京留守	-11.3605
史傳	-11.3607
無得	-11.361
三爵	-11.361
少年	-11.361
隨其	-11.3618
有乖	-11.3618
鳴賛	-11.3619
一十八	-11.362
几筵殿	-11.3624
王佐	-11.3625
尋又	-11.3625
稍南	-11.3631
供奉官	-11.3631
尊長	-11.3636
求其	-11.364
詣闕	-11.3641
佐之	-11.3641
所取	-11.3644
諸事	-11.3645
洪熙	-11.3645
嫡長子	-11.3645
五六	-11.3645
修舉	-11.3646
司經局	-11.3648
既退	-11.3648
為郎	-11.3648
兼職	-11.3649
監視	-11.3651
宣徳四年	-11.3652
道里	-11.3652
九年定	-11.3654
降勅	-11.3655
北曰	-11.3657
團練	-11.3658
夫子	-11.3662
門人	-11.3667
封郡王	-11.367
指揮僉事	-11.3671
麻布	-11.3673
狩	-11.3673
失於	-11.3674
衆人	-11.3677
莽	-11.3679
以從	-11.3683
于文華殿	-11.3684
陵園	-11.3686
為限	-11.3687
原職	-11.3689
復除	-11.3693
御殿	-11.3694
峯	-11.3695
應奉	-11.3696
俺	-11.3696
吏部郎中	-11.3696
碉	-11.3698
則非	-11.3699
幃	-11.3699
犧	-11.3699
窄	-11.37
欝	-11.3701
俸給	-11.3703
暖	-11.3704
十五名	-11.3704
淄	-11.3704
棲	-11.3704
妥	-11.3705
堰	-11.3705
扁	-11.3706
墮	-11.3706
鮮卑	-11.3707
枯	-11.3707
祕閣校理	-11.3707
回紇	-11.3707
匱	-11.3708
憲宗純皇帝	-11.3708
朝散大夫	-11.3708
𣣔	-11.3708
之職其	-11.3709
宵旰	-11.3709
三司㑹奏	-11.3709
倪岳	-11.3709
㮚	-11.3709
裒	-11.3709
寰	-11.3709
誡	-11.371
搢紳	-11.371
沙木斯鼎	-11.371
虹	-11.371
吝	-11.3711
騷擾	-11.3711
洙泗	-11.3711
採訪	-11.3711
騙	-11.3711
筦	-11.3711
曙	-11.3712
迂	-11.3712
豁	-11.3712
韓縝	-11.3712
十有五人	-11.3712
輔導等官	-11.3712
合葬	-11.3712
瘠	-11.3713
以外	-11.3713
葦	-11.3713
架閣庫	-11.3713
壹	-11.3713
遙	-11.3713
翺	-11.3714
舁	-11.3714
愁	-11.3715
逈	-11.3715
琬	-11.3715
祈穀	-11.3715
柯潛	-11.3715
悍	-11.3715
馮拯	-11.3715
正月以	-11.3716
奉慈殿	-11.3716
糶	-11.3716
四兩燭	-11.3716
朝日壇	-11.3716
入内閣	-11.3716
帨	-11.3716
正統九年	-11.3717
明太祖	-11.3717
李邦彦	-11.3717
藹	-11.3717
䕶喪	-11.3718
憸	-11.372
昌黎	-11.372
同時	-11.372
理事官	-11.3721
黍稷	-11.3721
蔓	-11.3722
鳴鐘鼓	-11.3722
一千二百	-11.3723
琰	-11.3724
宣奉大夫	-11.3724
税課	-11.3725
㸃檢	-11.3725
七廟	-11.3725
煦	-11.3725
萬厯七年	-11.3725
列代	-11.3726
而弗	-11.3727
章得象	-11.3727
清漢文	-11.3728
懲戒	-11.3728
綜理	-11.3728
字籍見員外下	-11.3728
范祖禹	-11.3729
通政使司	-11.3729
倉場	-11.373
在城	-11.373
福建閩縣人	-11.3731
戡	-11.3731
東西廡	-11.3731
冒濫	-11.3732
重任	-11.3732
共一壇	-11.3732
左中允	-11.3733
陛辭	-11.3733
車府	-11.3733
調儀制司	-11.3734
俸禄	-11.3734
各該衙門	-11.3735
劉健	-11.3736
不遑	-11.3736
分為三	-11.3736
石渠	-11.3736
靈臺郎	-11.3737
新疆	-11.3737
守禦千户所	-11.3737
和羮	-11.3738
永樂三年定	-11.3738
賛引引	-11.3739
拆毁	-11.3739
録用	-11.3739
先期一日	-11.3739
陳瓘	-11.3739
四孟	-11.3741
山西陜西	-11.3743
祗候	-11.3743
柔逺	-11.3743
建于	-11.3743
垂簾	-11.3744
内則	-11.3744
増損	-11.3744
折色	-11.3744
奉武宗皇帝聖㫖是欽此	-11.3745
㸃視	-11.3745
熈載	-11.3746
第幾	-11.3746
核實	-11.3748
運判	-11.3749
首相	-11.3752
安石曰	-11.3753
罷在樞府凡	-11.3753
中朝	-11.3754
延祐七年	-11.3754
茍且	-11.3755
百揆	-11.3756
初上	-11.3757
太醫令	-11.3758
卒年七十	-11.3759
諡忠	-11.376
水火	-11.376
孝惠	-11.3761
藏於	-11.3761
例行	-11.3762
魯王	-11.3763
又謂	-11.3764
凡祭	-11.3767
詞林	-11.3767
三字	-11.3768
妣慈孝貞順仁敬誠一安天誕聖獻皇后	-11.3769
洪武三年定	-11.3769
時維	-11.3769
東華門	-11.3769
照前	-11.377
依律	-11.3771
御馬監	-11.3773
查革	-11.3776
䘏典	-11.3776
書堂	-11.3778
所記	-11.3779
之義也	-11.3779
滁州	-11.3779
嘉謀	-11.3779
俱免	-11.3781
祭儀	-11.3781
五輅	-11.3784
其說	-11.3786
駕出	-11.3786
則謂之	-11.3788
千官	-11.3788
又案	-11.379
幾務	-11.3792
東郊	-11.3793
人事	-11.3795
安仁	-11.3795
轉為	-11.3796
改建	-11.3796
罷政	-11.3797
樞機之	-11.3797
岐陽	-11.3797
左校	-11.3798
之黨	-11.3801
備員	-11.3803
韓王	-11.3805
差等	-11.3807
八座	-11.3808
重矣	-11.3808
内院	-11.3809
日支	-11.3811
五十四	-11.3811
南吕	-11.3815
内庫	-11.3816
并在外	-11.3816
除翰林學士	-11.3816
諸門	-11.3817
制勅	-11.3817
禮部議覆	-11.3817
遺表	-11.382
革退	-11.3821
禁軍	-11.3821
東道	-11.3822
左諭徳	-11.3823
令長	-11.3823
掌管	-11.3825
一致	-11.3825
裕王	-11.3825
于奉天門	-11.3827
至正十	-11.3827
上是之	-11.3828
而猶	-11.383
共政	-11.3833
四月以	-11.3834
之可	-11.3837
清江	-11.3839
之序	-11.3839
保全	-11.3839
輔佐	-11.384
張守	-11.3841
眷言	-11.3841
恩典	-11.3842
再加	-11.3843
褥位	-11.3845
舉保	-11.3845
四段	-11.3852
台司	-11.3852
陞轉	-11.3852
候補	-11.3855
謹案此	-11.3855
之意也	-11.3856
先詣	-11.3859
司屬	-11.3859
至正二十	-11.3859
而不敢	-11.386
三年十月	-11.386
天成	-11.386
降指揮	-11.3861
叅知	-11.3861
此亦	-11.3862
務求	-11.3867
妻妾	-11.3867
廂房	-11.3867
色目	-11.3867
孝文	-11.3867
五十名	-11.387
同考	-11.3872
周易	-11.3874
再試	-11.3876
者不過	-11.3879
之効	-11.3883
死罪	-11.3883
珠翠	-11.3885
一尺六尺	-11.3886
聖天子	-11.3886
與宴	-11.389
陵令	-11.3891
浙江山隂人	-11.3895
復加	-11.3898
數萬	-11.3899
席前	-11.3904
等級	-11.3906
名色	-11.3919
實學	-11.3919
正妻	-11.392
祭則	-11.3921
十條	-11.3921
予欲	-11.3923
失儀	-11.3928
是日上	-11.3929
矣臣	-11.393
𢎞治六年	-11.393
欽命	-11.3932
邪正	-11.3932
别建	-11.3932
紅絹	-11.3933
亦嘗	-11.3934
五校	-11.3936
參考	-11.3937
立定	-11.3938
舊儀	-11.394
大略	-11.3941
否則	-11.3942
四拜樂止	-11.3942
不備	-11.3945
又多	-11.3945
飲福	-11.3946
者蓋	-11.3947
家屬	-11.3948
比例	-11.395
不負	-11.3964
進士萬厯十	-11.3964
士風	-11.3967
時節	-11.3968
高下	-11.3969
靖王	-11.3971
露臺	-11.3972
修治	-11.3974
撰擬	-11.3977
一祝文維	-11.3977
建廟	-11.3978
大和	-11.3979
栗子	-11.3981
扵是	-11.3981
副指揮	-11.3981
吳元年	-11.3982
續該	-11.3983
奏出圭	-11.3984
以他官	-11.3984
御批	-11.3984
求進	-11.3989
至矣	-11.3995
興國	-11.3996
收掌	-11.3996
率衆	-11.3996
肄業諸生	-11.3999
所撰	-11.4001
第六品	-11.4001
惡之	-11.4003
皆非	-11.4004
廟中	-11.4005
致其	-11.4007
缺人	-11.4007
宋朝	-11.4009
江西南昌人	-11.4011
指揮使司	-11.4014
来朝	-11.4014
初立	-11.4015
百家	-11.4016
並令	-11.402
重華	-11.4021
洪武二十六年	-11.4021
宗儀	-11.4022
便宜	-11.4026
樂生	-11.4026
處治	-11.4027
中選	-11.403
自守	-11.4031
居右	-11.4031
文選司	-11.4034
民心	-11.4035
祭祀則	-11.4036
衛學	-11.4038
多矣	-11.4046
新城	-11.4046
世家	-11.4051
二百六十	-11.4051
官號	-11.4054
所屬有	-11.4054
布政使司	-11.4057
坐次	-11.4062
自右諫議大夫	-11.4063
大國	-11.4065
少保兼	-11.4065
等因奉聖㫖是欽此	-11.4066
應制	-11.4066
丹陽	-11.4067
太祖太宗	-11.407
字籍見主事下	-11.4075
月終	-11.4075
該管	-11.4076
用紅	-11.4077
嘉靖三十五年	-11.4081
銖	-11.4081
將以	-11.4082
河務	-11.4083
而還	-11.4084
十有一人	-11.4086
文宗	-11.4086
謹案魏	-11.4087
一欵	-11.4088
日給	-11.4088
戰國	-11.4092
瘡	-11.4092
瘴	-11.4092
舟檝	-11.4092
妓	-11.4097
瑁	-11.4097
入門	-11.4097
琅	-11.4098
長蘆	-11.4099
鈕	-11.41
稼	-11.41
趾	-11.41
甌	-11.41
卭	-11.4101
該本部看得	-11.4101
㒒	-11.4101
埒	-11.4101
郴	-11.4102
廻	-11.4102
從實	-11.4102
鷺	-11.4103
欄	-11.4105
蓆	-11.4105
晳	-11.4105
縷	-11.4105
蘆	-11.4106
也秦	-11.4106
一區	-11.4106
凍	-11.4106
濂	-11.4107
餽	-11.4107
奉都堂鈞㫖	-11.4107
砌	-11.4108
皇長孫	-11.4108
肝	-11.4108
成化十七年	-11.4108
盾	-11.4108
胡三省注	-11.4109
綦	-11.4109
隲	-11.4109
輔國中尉	-11.4109
康熙三十八年省	-11.411
悠	-11.411
瓷	-11.411
鎔	-11.411
家廟	-11.411
賻	-11.411
粢盛	-11.411
編纂	-11.4111
注疏	-11.4111
鳬	-11.4111
樽	-11.4112
點檢	-11.4112
賜福胙	-11.4112
蒐	-11.4112
金國	-11.4112
㨂	-11.4112
腴	-11.4112
盡瘁	-11.4112
秒	-11.4113
禹錫	-11.4113
擠	-11.4113
祝版本紙二張包版黄白榜紙各一張	-11.4113
誥勑	-11.4113
自紹興	-11.4114
璲	-11.4114
千牛備身	-11.4114
大明㑹典	-11.4115
嫌疑	-11.4115
列聖相承	-11.4115
湜	-11.4115
緞	-11.4115
知紹興府	-11.4116
禮神	-11.4116
絡	-11.4116
媒	-11.4116
戩	-11.4116
筯	-11.4116
未嘗有	-11.4116
詒	-11.4116
沖	-11.4117
檢校太傅	-11.4117
翥	-11.4117
壯猷	-11.4117
聶	-11.4117
瑗	-11.4118
冷	-11.4118
尚寶司	-11.4118
睢	-11.4118
趍	-11.4119
崑	-11.4119
有方	-11.4119
户曹	-11.4119
雱	-11.412
設壇	-11.412
厮	-11.412
國子助教	-11.412
筮	-11.4121
冐濫	-11.4121
縀	-11.4121
分立	-11.4121
鄭氏云	-11.4121
瑩	-11.4122
冠以	-11.4122
渤海	-11.4122
銀青光禄大夫	-11.4122
謁者臺	-11.4123
驛遞	-11.4123
百斤	-11.4123
従之	-11.4124
千秋節	-11.4124
丕基	-11.4125
三年一貢	-11.4125
什物	-11.4125
請老	-11.4125
吉凶	-11.4126
湯思退	-11.4126
碩輔	-11.4126
尼山	-11.4127
宣徳八年	-11.4129
糧儲	-11.4129
兢	-11.413
陪敦	-11.413
擯	-11.4131
城内	-11.4131
年繇儀制司主事陞任	-11.4132
是年九月	-11.4132
河南洛陽	-11.4134
虞衡	-11.4134
何可	-11.4135
唐初	-11.4136
牒呈	-11.4136
輪流	-11.4137
所自始	-11.4137
掾屬	-11.4137
磨勘司	-11.4138
王與妃	-11.4138
追貶	-11.4138
靈星	-11.4138
良法	-11.4139
親姪	-11.4141
璧水	-11.4141
著做	-11.4144
六廄	-11.4144
兵部員外郎	-11.4144
吏民	-11.4145
廵河官	-11.4145
坐事	-11.4146
馮京	-11.4147
兆民	-11.4148
為御史	-11.415
江隂	-11.4151
考覈	-11.4152
逺猷	-11.4153
九員	-11.4156
為定制	-11.4156
古今之	-11.4157
事下禮部	-11.4159
以聞上	-11.416
江南桐城人	-11.4161
嫡孫	-11.4161
退朝	-11.4162
管領	-11.4163
折衣	-11.4164
蒙古語	-11.4164
梁儲	-11.4164
流俗	-11.4165
鼓樂	-11.4166
廵視	-11.4167
尚書除	-11.4168
成化初	-11.4168
萬厯三年	-11.4168
判度支	-11.4169
啓請	-11.4171
倫理	-11.4175
仁夀	-11.4176
四裔	-11.4177
十一年任	-11.4178
從四品上	-11.4179
洪武十四年	-11.418
帷幄之	-11.418
風采	-11.418
泰陵	-11.4181
金元	-11.4181
就彼	-11.4183
時已	-11.4183
欽賜	-11.4185
撥給	-11.4186
牧馬	-11.4186
華林	-11.4191
年任館	-11.4192
正徳十六年	-11.4193
也漢書	-11.4193
元代	-11.4194
衆官皆跪	-11.4194
景陵	-11.4194
目前	-11.4196
諸府	-11.4196
實録成	-11.4198
察院	-11.4198
似應	-11.42
璽書	-11.4201
成化八年	-11.4201
設樂	-11.4202
景泰四年	-11.4202
藉田	-11.4203
内大臣	-11.4205
凡七	-11.4205
元祐元年	-11.4206
設于	-11.4207
千户所	-11.4207
永惟	-11.4208
刑罰	-11.4212
某官某	-11.4212
初政	-11.4212
衞士	-11.4215
等件	-11.4215
審刑	-11.4216
親王妃	-11.4217
直閣	-11.422
衆論	-11.4221
諸縣	-11.4223
二人位于	-11.4225
欺罔	-11.4226
自太中大夫	-11.4226
不修	-11.4227
八年四月	-11.4228
翼日	-11.4229
以偹	-11.423
府教授	-11.4231
無忘	-11.4231
候選	-11.4233
然猶	-11.4236
餘悉	-11.4236
即命	-11.4237
生辰	-11.4237
相維	-11.4238
異端	-11.424
慶府	-11.424
宜春	-11.4243
為翰林學士	-11.4246
留意	-11.4247
一斤八兩	-11.4248
請太祖	-11.4248
建極	-11.4249
百餘年	-11.4254
尚書蹇義	-11.4258
務令	-11.4258
故實	-11.4259
伏闕	-11.426
甲兵	-11.426
一概	-11.4262
在家	-11.4262
實在	-11.4263
永和	-11.4266
以輔	-11.4266
臨安府	-11.4268
其半	-11.4269
冊文	-11.4271
絶嗣	-11.4272
字畫	-11.4273
四十三	-11.4273
自當	-11.4274
使副	-11.4274
英宗皇帝	-11.4275
鴻臚寺卿	-11.4277
之虞	-11.4277
山南	-11.4278
初除	-11.4279
程朱	-11.428
於殿内	-11.4281
敷奏	-11.4282
散館	-11.4284
至是復	-11.4286
近嵗	-11.4291
多出	-11.4291
用黄	-11.4294
祀天地	-11.4295
所薦	-11.4297
一十三	-11.4298
以副朕	-11.4298
發兵	-11.4299
該科	-11.4302
給發	-11.4304
統兵	-11.4304
四十名	-11.4305
男趙	-11.4307
其子弟	-11.4309
後魏有	-11.431
處所	-11.4311
洪武三十年	-11.4311
除知樞密院事	-11.4311
同考官	-11.432
稱名	-11.432
豈以	-11.4322
正統八年	-11.4324
候命下	-11.4325
通查	-11.4325
准行	-11.4325
志云	-11.4326
允文	-11.4326
簿籍	-11.4326
五年詔	-11.4328
為萬世	-11.433
疏通	-11.433
正員	-11.4332
南山	-11.4332
馬軍	-11.4332
濫收	-11.4332
者不必	-11.4333
品已上	-11.4334
孝行	-11.4337
詔命	-11.4339
等謹案	-11.4339
亦言	-11.434
程子	-11.4341
宣武	-11.4342
已封	-11.4342
則否	-11.4344
限以	-11.4344
二百七十	-11.4346
詳加	-11.4346
以養	-11.4348
于殿内	-11.4348
十月以	-11.435
大軍	-11.4351
諸王府	-11.4353
妃嬪	-11.4354
至重	-11.4354
各隨	-11.4354
大約	-11.4355
木主	-11.4355
非徒	-11.4357
至元六年	-11.4361
日加知制誥	-11.4364
左諫議大夫	-11.4368
此時	-11.4372
漢晉	-11.4373
不成	-11.4373
是年五月	-11.4374
勘明	-11.4376
所賜	-11.4378
作弊	-11.4379
又於	-11.438
優等	-11.438
自强	-11.4382
宗親	-11.4383
小國	-11.4384
正當	-11.4384
云爾	-11.4384
尋以	-11.4387
官給	-11.4388
大徳五年	-11.439
導駕	-11.439
四年五月	-11.4392
安車	-11.4394
三甲	-11.4398
吏人	-11.4399
六年正月	-11.44
大雅	-11.44
視草	-11.44
隋煬帝	-11.4401
得實	-11.4402
龍文	-11.4406
今嵗	-11.4409
期於	-11.441
哲位	-11.4411
此輩	-11.4412
不變	-11.4413
經筵講官	-11.4414
億萬	-11.4414
為刺史	-11.4415
居左	-11.4415
小心	-11.4417
各就	-11.442
還京	-11.442
除名	-11.4422
丞各二人	-11.4425
四海之	-11.4428
四品以下	-11.4429
一十五	-11.443
諸畨	-11.4431
紀傳	-11.4431
廕子	-11.4432
雖在	-11.4432
羈縻	-11.4434
迎送	-11.4437
至漢	-11.4439
耕藉	-11.4439
尺一四合	-11.4441
永樂九年	-11.4443
三官	-11.4446
元制	-11.4448
臣父	-11.445
今來	-11.4452
天資	-11.4453
俸米	-11.4454
沿襲	-11.4455
無疑	-11.4456
三代之	-11.4457
從來	-11.4457
一物	-11.4457
所引	-11.446
其來	-11.446
勘㑹	-11.4461
四十年	-11.4463
得賢	-11.4464
正額	-11.4466
之禁令	-11.4466
悉歸	-11.4466
矣此	-11.447
班列	-11.4471
所存	-11.4472
經綸之	-11.4473
司正	-11.4473
西山	-11.4474
擬議	-11.4477
領其事	-11.4478
且令	-11.4479
所陳	-11.4484
别為一	-11.4484
少者	-11.4489
在室者	-11.4491
塗金	-11.4497
三百名	-11.4497
蝗	-11.4497
江西安福人	-11.4501
跪叩	-11.4502
在學	-11.4504
以避	-11.4506
所管	-11.4506
十一年繇	-11.4506
於太學	-11.4506
翰林院侍讀學士	-11.4509
瀘	-11.4509
御奉天殿	-11.4509
騷	-11.4509
在翰林	-11.4511
率更令	-11.4513
上馬	-11.4514
幘	-11.4515
變而	-11.4515
匝	-11.4515
本日	-11.4515
們	-11.4516
見前	-11.4518
給米	-11.4519
亘	-11.452
行慶賀禮	-11.452
髻	-11.452
怡	-11.452
領侍衛内大臣	-11.452
彛倫	-11.4521
摶	-11.4522
畆	-11.4522
未發	-11.4522
愿	-11.4522
闗内侯	-11.4523
捧祝帛饌	-11.4523
㫤	-11.4523
緘	-11.4523
筠	-11.4523
諛	-11.4524
蹇	-11.4524
豚	-11.4524
綵段四表裏	-11.4524
跟	-11.4524
等三人	-11.4524
咸亨元年復舊	-11.4524
者充之	-11.4525
粘	-11.4525
菲	-11.4526
底簿	-11.4526
麒	-11.4526
萬事	-11.4526
以他官兼	-11.4526
珂	-11.4526
論議	-11.4526
婚嫁	-11.4526
璫	-11.4526
至聖先師孔子	-11.4527
設官分職	-11.4527
束帶	-11.4527
瑀	-11.4527
親王郡王	-11.4527
治以重罪	-11.4527
包香帛黄咨紙	-11.4528
綘	-11.4528
杞	-11.4528
尚書右僕射	-11.4528
鳳翔	-11.4528
拙	-11.4529
世宗肅皇帝	-11.4529
儀同初獻	-11.4529
犧尊	-11.4529
六佾	-11.4529
涕	-11.4529
皇天上帝	-11.453
止設	-11.453
饔	-11.453
焚香	-11.453
㓕	-11.453
點	-11.453
懸帶	-11.4531
言動	-11.4531
大臣一員	-11.4531
如淳曰	-11.4531
禕	-11.4531
犒	-11.4531
蹙	-11.4532
崇儒重道	-11.4532
遷左	-11.4532
亦難	-11.4532
奭	-11.4532
察哈爾	-11.4532
優給	-11.4533
六品七品	-11.4533
型	-11.4533
鵞	-11.4534
丹陽尹	-11.4534
某月某日	-11.4534
飢	-11.4534
弑	-11.4534
繒	-11.4534
知經筵事	-11.4535
公車	-11.4535
雲南貴州	-11.4535
同判	-11.4535
司經局洗馬	-11.4536
梗	-11.4536
北齊書	-11.4536
糜	-11.4536
孫抃	-11.4537
侔	-11.4537
稟	-11.4537
駐蹕	-11.4537
香爐	-11.4538
鍳	-11.4538
知諫院	-11.4539
陞本司員外郎	-11.4539
丁夘	-11.4539
凡祭祀	-11.4539
元貞元年	-11.4539
太僕寺少卿	-11.4539
險夷	-11.4539
隴右	-11.4539
潤色	-11.4539
禮部尚書夏言	-11.4539
仲尼	-11.454
孜孜	-11.454
灝	-11.454
王鏊	-11.454
住持	-11.4541
蹤	-11.4541
泊	-11.4541
塩	-11.4541
所在官司	-11.4541
金紫光禄大夫	-11.4542
韓愈	-11.4542
京城内外	-11.4542
某部	-11.4543
郡王妃	-11.4543
熾	-11.4544
鶚	-11.4544
亨泰	-11.4545
臨川	-11.4546
月初四日	-11.4546
莫先於	-11.4547
導引官導皇帝	-11.4547
大行皇帝	-11.4547
司贊唱	-11.4548
繁機	-11.4549
呂大防	-11.455
經緯	-11.455
觀文	-11.4551
或兼	-11.4551
鎖院	-11.4551
五拜三叩頭	-11.4551
山隂	-11.4552
儀節	-11.4553
頒給	-11.4553
茶食	-11.4556
天地壇	-11.4556
孝友	-11.4557
己未進士	-11.4558
宛平	-11.4558
杜衍	-11.4558
江南無錫	-11.4559
俞允	-11.4559
賜茶	-11.4559
林甫	-11.456
一百七十	-11.4561
人户	-11.4561
陳執中	-11.4561
馬融	-11.4562
中郎将	-11.4562
品第五	-11.4564
宋庠	-11.4565
占候	-11.4566
主事陞任	-11.4566
中單	-11.4568
洪武八年	-11.4568
其所掌	-11.4568
内外命婦	-11.4569
無極	-11.457
為最	-11.457
蘇木	-11.457
風憲官	-11.4571
虞廷	-11.4571
褒崇	-11.4572
排班	-11.4572
孝穆	-11.4573
大業三年	-11.4574
奠酒	-11.4574
四年七月	-11.4575
寄禄	-11.4577
教坊	-11.4578
並建	-11.4579
闕下	-11.4579
大司樂	-11.458
四錢	-11.4581
繼室	-11.4582
小事	-11.4586
不難	-11.4587
兵民	-11.4587
里老	-11.4588
侍養	-11.4588
三階	-11.459
閏四月	-11.459
許衡	-11.459
之目	-11.459
對越	-11.4591
四科	-11.4592
錄科	-11.4593
四月除	-11.4594
鈔錠	-11.4597
専以	-11.4598
朱衣	-11.4598
復立	-11.4599
度越	-11.4599
下項	-11.46
崇勲	-11.4601
度量	-11.4601
皆設	-11.4602
罰治	-11.4603
兹遇	-11.4605
分遣	-11.4605
所未有	-11.4606
佩綬	-11.4606
下情	-11.4606
協理	-11.4607
東門入	-11.4607
李肇	-11.4608
十一月除	-11.4608
行工部	-11.4612
妃張氏	-11.4613
多端	-11.4616
敷陳	-11.4616
擇人	-11.4617
隨即	-11.4618
酌議	-11.4618
至大三年	-11.4619
嵗終則	-11.462
朔方	-11.462
憲章	-11.4621
監收	-11.4621
玉帶	-11.4625
乃眷	-11.4626
之㫖	-11.4626
一軍	-11.4627
二把	-11.4629
内執事	-11.4629
問擬	-11.463
配帝	-11.463
李紹	-11.4632
萬化	-11.4632
風雲	-11.4632
回宫	-11.4633
直宿	-11.4633
青龍	-11.4633
湖州	-11.4634
邊衛	-11.4635
咸寧	-11.4637
制置使	-11.4637
用玉	-11.4639
講經	-11.4644
害民	-11.4645
裁省	-11.4646
唐㑹要	-11.4647
綱常	-11.4647
不移	-11.4649
専主	-11.4649
應變	-11.4649
山林	-11.4649
絹布	-11.4652
儲位	-11.4652
第五品	-11.4654
此豈	-11.4654
莫敢	-11.4657
篤實	-11.4658
成化六年	-11.4658
皆屬	-11.4659
觀聽	-11.466
上曰然	-11.466
各立	-11.4662
門西	-11.4662
隂陽人	-11.4663
行人司	-11.4663
至元十三年	-11.4663
食茶	-11.4664
獻帝	-11.4666
協領	-11.4666
鳯陽	-11.4668
報功	-11.4668
天下後世	-11.4669
山海	-11.4671
宋太祖	-11.4672
已成	-11.4673
分封	-11.4675
卿雲	-11.4678
十五年任	-11.4681
張說	-11.4682
恩遇	-11.4683
岳正	-11.4685
運糧	-11.4686
監試官	-11.4689
二寺	-11.469
於上前	-11.4692
可任	-11.4693
神御	-11.4693
甘州	-11.4695
此外	-11.4695
存心	-11.4698
承平	-11.47
分判	-11.47
城外	-11.4701
總章	-11.4706
遺意	-11.4706
事機	-11.4706
諸處	-11.4706
畨上	-11.4708
體例	-11.4708
定天下	-11.4709
執事官各	-11.4709
羣廟	-11.471
分祀	-11.471
從五品下	-11.4711
兼用	-11.4712
禁兵	-11.4715
至元十五年	-11.4717
四十七	-11.4721
以為非	-11.4722
羣工	-11.4722
張廷	-11.4722
未易	-11.4723
所知	-11.4724
區别	-11.4725
贈太子太保	-11.4729
爵秩	-11.4731
襄垣王	-11.4732
每科	-11.4735
父母妻	-11.4735
大中大夫	-11.4735
羊豕	-11.4737
本衙門	-11.474
吏員	-11.4742
復言	-11.4744
盡善	-11.4748
右布政使	-11.4748
引奏	-11.4749
許國	-11.4751
五月奉聖㫖	-11.4752
隆慶五年	-11.4754
一十四	-11.4755
元氣	-11.4756
印記	-11.4756
至元十	-11.476
除中書侍郎	-11.4763
簡選	-11.4765
河漕	-11.4766
宋白	-11.4769
列卿	-11.4769
班序	-11.4771
此舉	-11.4772
清河	-11.4772
成化七年	-11.4778
頒行天下	-11.4779
左右衛率	-11.4783
北京國子監	-11.4784
百七十	-11.4786
四年三月	-11.4787
正德四年	-11.4787
書板	-11.479
幸太學	-11.4794
應龍	-11.4795
大宴	-11.4795
幾何	-11.48
崇聖	-11.4801
城中	-11.4805
據此	-11.4807
為禮部尚書	-11.4807
院判	-11.4812
葢自	-11.4816
名次	-11.4817
親迎	-11.4819
亦許	-11.4819
導引官導	-11.4819
題主	-11.4823
掌宿衛	-11.4824
廟宇	-11.4824
執事官舉	-11.4826
一百九十	-11.4832
何必	-11.4833
秘書丞	-11.4836
成材	-11.4836
金龍	-11.4841
守法	-11.4841
進士嘉靖十	-11.4843
中士二人	-11.4846
鎮國	-11.4847
今乃	-11.4847
費用	-11.4849
告替	-11.485
廣徳	-11.4853
引用	-11.4854
恒山	-11.4854
院吏	-11.4864
限期	-11.4865
萬五千	-11.4869
賛復位	-11.4874
馬步	-11.4875
執事者各	-11.4875
意欲	-11.4876
開皇三年	-11.4879
亦猶	-11.4879
縁事	-11.4883
中大夫二人	-11.4886
司員外郎陞任	-11.4887
樂止太常卿	-11.4887
可考見	-11.4888
禁衛	-11.489
八十一	-11.4892
洪武二十年	-11.4895
此乃	-11.4896
府州縣學	-11.4897
各依	-11.4897
厯事	-11.4898
體統	-11.4899
仕者	-11.4901
滿洲漢人各	-11.4901
祖廟	-11.4901
城南	-11.4903
立候	-11.4905
河南府	-11.4905
史志	-11.4907
右諭徳	-11.491
若遇	-11.4911
記云	-11.4912
協同	-11.4914
十錠	-11.4915
行參軍	-11.4916
不恤	-11.4919
姊妹	-11.4921
太常卿跪奏	-11.4922
條奏	-11.4922
諏	-11.4923
以病	-11.4923
奠帛行初獻禮	-11.4925
備位	-11.4927
勸上	-11.4928
耳又	-11.4928
閽	-11.4932
諸賢	-11.4933
始令	-11.4934
忠良	-11.4935
金㓜孜	-11.4936
苴	-11.4938
抽	-11.4938
廱	-11.4939
期年	-11.4939
樂作四拜樂止	-11.494
其弟	-11.4941
平巾幘	-11.4946
鵲	-11.4946
夷使	-11.4946
三隻	-11.4947
鍚爵	-11.4948
合尺一合	-11.4948
央	-11.4949
湛露	-11.495
府庫	-11.495
者麽道	-11.4951
清吏司郎中滿洲	-11.4951
過江	-11.4951
鹽鐵	-11.4952
府州縣官	-11.4952
檢正	-11.4953
櫺星門	-11.4953
豊	-11.4953
舌	-11.4956
入就位	-11.4956
脅	-11.4956
碣	-11.4956
陀	-11.4956
湮	-11.4956
十有三人	-11.4957
春秋左氏傳	-11.4957
盧多遜	-11.4957
頡	-11.4958
遣内官行禮	-11.4958
國初設	-11.4958
啇	-11.4959
麵	-11.4959
西平侯	-11.4959
閬	-11.4959
膏火	-11.496
于闐	-11.496
挨	-11.496
鄭樵通志	-11.4961
燕京	-11.4961
慈孝獻皇后	-11.4961
三后	-11.4961
宣冊	-11.4961
覆題奉孝宗皇帝聖㫖	-11.4962
雀	-11.4962
顥	-11.4962
俠	-11.4963
栱	-11.4963
滿洲䝉古漢軍	-11.4963
齊職儀	-11.4963
鈒	-11.4963
八品九品	-11.4963
寅亮	-11.4964
燬	-11.4964
欽此正德	-11.4964
伏望皇上	-11.4964
烽	-11.4965
巽	-11.4965
殖	-11.4965
頤浩	-11.4965
緇	-11.4966
捉	-11.4966
告訐	-11.4966
祝版一片	-11.4966
拊	-11.4966
繕寫	-11.4966
儘	-11.4966
謐	-11.4967
為國家	-11.4967
輟朝一日	-11.4967
袞	-11.4967
絰	-11.4967
敢昭告於	-11.4967
净	-11.4967
峙	-11.4967
肄習	-11.4968
元史百官志	-11.4968
絲綸	-11.4968
轡	-11.4968
成化二十年	-11.4969
鰲	-11.4969
䏻	-11.4969
珩	-11.4969
佗	-11.4969
庥	-11.4969
提控案牘	-11.497
緝熈	-11.497
煬帝改	-11.497
鴻樞	-11.497
諂	-11.4971
阼階	-11.4971
穆昆	-11.4971
四品五品	-11.4972
祭二壇	-11.4972
十二卷	-11.4972
剖	-11.4972
同官	-11.4972
飲福位	-11.4973
歐	-11.4973
㧞貢生	-11.4973
北魏魏書官氏志	-11.4973
黝	-11.4974
祼	-11.4974
巖廊	-11.4974
廣東廣西	-11.4974
啓沃	-11.4975
四夷朝貢	-11.4975
赴行在	-11.4975
綯	-11.4975
耄	-11.4976
罷簽書樞宻院事	-11.4978
洊	-11.4978
年繇主客司主事陞任	-11.4979
珙	-11.4979
􁱈	-11.4979
弼諧	-11.498
勵精	-11.498
翀	-11.498
隙地	-11.4981
畧同	-11.4981
勾稽	-11.4981
表案	-11.4982
元豐官制行	-11.4982
無從	-11.4982
左正言	-11.4982
錢穀	-11.4983
雨澤	-11.4983
不啻	-11.4983
武備院	-11.4983
知福州	-11.4984
欽奉聖㫖	-11.4984
有能	-11.4984
海宇	-11.4985
誦習	-11.4985
十二箇	-11.4986
每佐領	-11.4988
天下之人	-11.4989
儒術	-11.4989
陳元龍	-11.4989
大徳九年	-11.499
祖宗舊制	-11.499
竹木	-11.499
坐班	-11.499
昌期	-11.4991
周必大	-11.4991
紛更	-11.4992
皇祇	-11.4993
穆穆	-11.4993
整理	-11.4995
取中	-11.4996
建徳	-11.4996
吉甫	-11.4996
浙江秀水人	-11.4996
滿洲正黄旗人	-11.4997
不自安	-11.4997
六章	-11.4997
僑	-11.4998
范鎮	-11.4998
加太子少保	-11.4998
歩兵	-11.4998
納徵	-11.4998
正統十三年	-11.4999
嗣是	-11.5002
簾前	-11.5003
孟夏	-11.5003
雲霞	-11.5003
半月	-11.5004
鑄給	-11.5004
援引	-11.5005
大袖	-11.5006
鎮江	-11.5007
軍司	-11.5008
俱東西相向	-11.5008
習射	-11.5008
皇太子諸王	-11.5009
夢得	-11.501
皆屬焉	-11.501
簽書樞	-11.5011
武帝時	-11.5012
興元	-11.5012
繼嗣	-11.5013
其秩	-11.5014
縣祭	-11.5015
執奏	-11.5016
言者論	-11.5017
河南山東	-11.5017
敬慎	-11.5018
侍左右	-11.5019
力請	-11.5021
紹興二年	-11.5023
威福	-11.5023
幣以	-11.5024
時祫	-11.5025
當為今	-11.5025
立政	-11.5026
季冬	-11.5029
議者謂	-11.5029
知樞宻院	-11.5031
朝野	-11.5032
景泰中	-11.5033
三十斤	-11.5035
京尹	-11.5035
時和	-11.5036
上疏言	-11.5037
第一品	-11.5037
歩軍	-11.5038
貢賦	-11.5038
服飾	-11.5039
允資	-11.504
四卷	-11.504
論相	-11.5041
祭塟	-11.5042
三署	-11.5044
議準	-11.5044
宗正卿	-11.5044
又北	-11.5045
漢舊儀	-11.5046
留身	-11.5046
皇帝陛下	-11.5046
五十三	-11.5047
在任	-11.5048
誠恐	-11.5049
建炎元年	-11.5051
王世子	-11.5051
三營	-11.5051
南雍	-11.5052
抄出	-11.5052
自通議大夫	-11.5052
總河	-11.5052
二條	-11.5054
府長史	-11.5058
依期	-11.5058
華盖殿	-11.5058
寫字	-11.5059
齊衰	-11.506
二十萬	-11.5064
膳司	-11.5064
監試	-11.5064
十有八人	-11.5065
宣徳中	-11.5066
師㸃	-11.5066
武后	-11.5066
姑從	-11.5067
登壇	-11.5067
先烈	-11.5068
謝遷	-11.5069
民事	-11.507
多事	-11.5071
省部	-11.5073
關領	-11.5073
大行令	-11.5074
禮部覆議	-11.5074
帥臣	-11.5074
太祖高皇帝	-11.5076
征進	-11.5077
良善	-11.5078
今次	-11.5079
廣儲司	-11.508
伯父	-11.5082
屬太常	-11.5086
治化	-11.5087
繇精膳司	-11.5089
回部	-11.5095
西華	-11.5095
好學	-11.5097
嘉納	-11.5097
丞主簿	-11.5097
元臣	-11.5101
訖奏出圭	-11.5104
甚非	-11.5104
隆平	-11.5104
在途	-11.5104
曰天子	-11.5105
若非	-11.5106
精膳	-11.5109
率土	-11.511
符節	-11.5111
四年任	-11.5112
岷王	-11.5113
拔貢	-11.5119
承華	-11.5119
駕至	-11.512
得志	-11.5121
東向立	-11.5125
五十六	-11.5126
南京禮部尚書	-11.5126
大怒	-11.5126
金帶	-11.5128
望日	-11.5136
五錢	-11.5137
勘明白	-11.5138
臣等謹	-11.5139
侍從官	-11.5139
襄陽	-11.5142
時務	-11.5144
宴㑹	-11.5144
尚存	-11.5146
不與焉	-11.515
豕一	-11.515
萬古	-11.5154
邊方	-11.5155
聖德	-11.5157
職員	-11.5157
受冊寳	-11.5162
嘉靖十二年	-11.5165
小祀	-11.5169
左右寺	-11.5169
祠部尚書	-11.517
天禄	-11.5171
之名而	-11.5173
法守	-11.5176
士卒	-11.5177
寺卿	-11.5177
中傷	-11.5183
精一	-11.5187
守宫	-11.5195
議覆	-11.5196
丞三人	-11.5198
鈞衡之	-11.5199
二副	-11.5199
官制行	-11.5201
起立	-11.5201
於鄉	-11.5204
元二年	-11.5205
神䇿	-11.5205
長安門	-11.5207
本臺	-11.5211
城東	-11.5212
從五品上	-11.5212
體制	-11.5212
文獻	-11.5213
别用	-11.5215
壝	-11.5216
未有不	-11.5218
邇者	-11.5218
府第	-11.5218
更代	-11.5219
守門	-11.5219
繫於	-11.5219
獨不	-11.5222
丞弼	-11.5222
責其	-11.5223
執事者以	-11.5225
日本國	-11.5226
樂府	-11.5229
欲望	-11.523
宰相之任	-11.523
選舉志	-11.5234
院中	-11.5235
昭然	-11.524
印事	-11.5243
益隆	-11.5243
二年六月	-11.5244
司戸	-11.5247
章服	-11.525
倉曹參軍事	-11.5254
舊法	-11.5255
尚書胡濙	-11.5256
不齊	-11.5256
六局	-11.5258
民瞻	-11.5263
十分	-11.5268
達於	-11.5271
帝即位	-11.5271
按月	-11.5272
則用之	-11.5273
祭先農	-11.5279
太倉令	-11.5279
宋宋史職官志	-11.5281
應劭	-11.5283
等官俱	-11.5286
十有七人	-11.5286
月二十一日	-11.5286
治體	-11.5287
江北	-11.529
自給事中	-11.5291
雍正四年	-11.5295
務期	-11.5297
除樞宻使	-11.5302
秩正三品	-11.5302
罪惡	-11.5305
說文	-11.531
平侯	-11.531
諸進士	-11.5312
除同知樞宻院事	-11.5314
三十日	-11.5314
正如今之	-11.5316
司諫	-11.5316
肄業生	-11.5319
次年	-11.5325
魯國	-11.5327
殿左門	-11.5327
佐官	-11.5331
情弊	-11.5331
繇主	-11.5333
優待	-11.5334
新建	-11.5337
力陳	-11.5339
講明	-11.5339
所藏	-11.534
禮經	-11.5341
追封為	-11.5341
領左右	-11.5345
查有	-11.5345
廩給	-11.5346
御營	-11.5347
諸務	-11.5353
朕思	-11.5357
功業	-11.5362
師範	-11.5362
維時	-11.5364
十事	-11.5365
為太師	-11.5366
南京國子監	-11.5366
紹興元年	-11.5367
大樂作	-11.5368
志載	-11.5371
元首	-11.5371
掌邦國	-11.5373
稱謝	-11.5373
掌出納	-11.5377
奏省牲	-11.5377
才能	-11.5378
未曽	-11.5378
恭詣	-11.538
等因奉聖㫖是	-11.538
佾舞	-11.5381
稍東	-11.5383
延祐	-11.5385
濃	-11.5387
冊内	-11.5389
乃罷	-11.5391
殿後	-11.5391
赴京朝覲	-11.5395
訐	-11.5395
達于	-11.5397
謡	-11.5397
􁲵	-11.5398
瑕	-11.5401
有序	-11.5403
使副使	-11.5404
甃	-11.5404
李公	-11.5405
粒	-11.5405
所費	-11.5405
婢	-11.5405
二人正六品典	-11.5406
文徳之舞	-11.5406
夤縁	-11.5407
膝	-11.5407
侍郎一人	-11.5408
杏	-11.5408
二人正七品掌	-11.5409
貎	-11.5409
園苑	-11.5409
勾檢稽失	-11.5409
轉送	-11.541
兼翰林院侍讀	-11.541
廬州	-11.541
襲封衍聖公	-11.541
史臣	-11.541
緦麻	-11.5411
襖	-11.5411
公侯伯子男	-11.5411
茫	-11.5411
鉄	-11.5412
自昔	-11.5412
陸費墀	-11.5413
帕	-11.5413
並相	-11.5413
薛居正	-11.5413
剔	-11.5414
樂止典儀唱行終獻禮	-11.5414
嵐	-11.5414
鬚	-11.5414
都督僉事	-11.5414
秘書少監	-11.5415
媚	-11.5416
三館祕閣	-11.5416
茶飯管待	-11.5416
成造	-11.5416
銀青光祿大夫	-11.5416
鈔二十錠	-11.5417
怯	-11.5417
餐	-11.5417
吕蒙正	-11.5417
漢末	-11.5417
土地祠	-11.5417
殄	-11.5417
敔	-11.5418
贑	-11.5418
牡	-11.5419
匪懈	-11.5419
府四人史八人	-11.5419
柘	-11.5419
縠	-11.5419
瀝	-11.5419
扃	-11.5419
漢書百官表	-11.5419
鄭康成註	-11.542
入監讀書	-11.542
品第七	-11.542
嘉靖三十八年	-11.542
賛禮唱	-11.542
踐阼	-11.542
錢習禮	-11.5421
彝倫堂	-11.5421
中散大夫	-11.5422
李善長	-11.5422
締	-11.5422
洒掃	-11.5422
成化二十一年	-11.5422
丙戍	-11.5422
城門校尉	-11.5423
爕	-11.5423
王堯臣	-11.5423
梯	-11.5423
霧	-11.5423
有定額	-11.5424
托克托	-11.5424
耒	-11.5424
巍	-11.5424
滂	-11.5424
李光地	-11.5424
歳暮	-11.5424
辛夘	-11.5425
五府六部	-11.5425
諸司職掌	-11.5425
眩	-11.5426
涿	-11.5426
屡	-11.5427
賈昌朝	-11.5427
以承事郎上	-11.5427
沈與求	-11.5427
其黨	-11.5428
嘗言	-11.5428
頽	-11.5428
圻	-11.5428
司馬光資治通鑑	-11.5428
逝	-11.5428
戎器	-11.5428
贈官	-11.5428
囉	-11.5428
酒盞三十	-11.5428
褘衣	-11.5429
弓弩	-11.5429
乞勅禮部	-11.5429
尤多	-11.543
曾公亮	-11.543
拱手	-11.543
靳	-11.543
綍	-11.5431
壼	-11.5431
差除	-11.5431
鼇	-11.5432
畬	-11.5432
㐫	-11.5433
周禮春官	-11.5433
川陜	-11.5433
縱横	-11.5434
同知樞宻院	-11.5434
馳驛	-11.5434
啟沃	-11.5434
王莽	-11.5435
何敢	-11.5435
直祕閣	-11.5435
捐納	-11.5436
朱熹	-11.5436
毛紀	-11.5437
卽	-11.5437
提控	-11.5437
翰林儒臣	-11.5438
曰朕惟	-11.5438
花釵	-11.5438
都督同知	-11.5438
丈夫	-11.5439
六條	-11.544
于奉天殿	-11.544
曹利用	-11.5441
玉輅	-11.5441
允廸	-11.5442
雍容	-11.5443
上覽之	-11.5443
季秋	-11.5443
繼述	-11.5444
彭華	-11.5444
旦曰	-11.5445
梁燾	-11.5445
胥吏	-11.5446
知青州	-11.5447
未甞	-11.5447
御案前	-11.5447
萬厯九年	-11.5448
淺深	-11.5449
是月罷	-11.545
薄海	-11.5451
神廟	-11.5453
神御前	-11.5454
太史局	-11.5454
遼陽	-11.5454
嚴督	-11.5455
本籍	-11.5458
祠祭司郎中	-11.5458
長史各一人	-11.5459
張士遜	-11.5459
西門入	-11.546
月米	-11.546
曠典	-11.546
讀卷	-11.546
𤣥色	-11.5461
昆明	-11.5462
拜中書舍人	-11.5462
法律	-11.5465
陞輅	-11.5465
外班	-11.5466
尋罷	-11.5467
太子中允	-11.5468
後裔	-11.5469
臺閣	-11.5471
好惡	-11.5471
日侍	-11.5471
建文中	-11.5471
林希	-11.5474
重熙	-11.5475
内帑	-11.5476
死黨	-11.5476
臣僚言	-11.5476
㑹饌	-11.5478
侍宴	-11.5478
率其屬	-11.5479
𤣥宗	-11.548
前代所	-11.5481
所未有也	-11.5483
同僚	-11.5483
夀春	-11.5484
司封郎中	-11.5484
欣然	-11.5485
甲第	-11.5486
囘還	-11.5487
明哲	-11.5488
委積	-11.5488
銓注	-11.5489
二十兩	-11.5489
聲色	-11.5489
昭格	-11.5496
相符	-11.5497
前驅	-11.5498
記載	-11.5499
弋陽	-11.55
洪武十年	-11.55
御門	-11.5501
營私	-11.5502
謹守	-11.5503
工尺合四合	-11.5503
性善	-11.5504
秦制	-11.5505
李傑	-11.5505
諸冶	-11.5507
月罷執政踰	-11.5507
庭中	-11.5508
接見	-11.551
毋致	-11.5512
奏襲	-11.5513
三塲	-11.5514
監造	-11.5514
縁起	-11.5517
本堂官	-11.5518
嚴肅	-11.5519
嫡長孫	-11.5523
丹墀中	-11.5523
收管	-11.5523
隨從	-11.5524
會典	-11.5526
一揖	-11.5527
復起	-11.5527
交收	-11.5529
隆興元年	-11.5532
倉卒	-11.5533
隆名	-11.5533
命儒臣	-11.5533
躬詣	-11.5535
忠信	-11.5536
安訖	-11.554
如違	-11.5541
置博士	-11.5544
即古	-11.5544
升降	-11.5546
入場	-11.5546
副都	-11.5548
正統初	-11.5551
留心	-11.5553
元勲	-11.5554
皇孫	-11.5555
陳請	-11.5558
辭位	-11.556
佐貳	-11.556
不能盡	-11.556
吳氏	-11.5564
主管	-11.5564
享祀	-11.5565
累年	-11.5567
裏行	-11.557
申報	-11.5571
宋世	-11.5572
尋卒	-11.5572
并省	-11.5577
卷六	-11.5579
壇壝	-11.558
嵗差	-11.558
上顧	-11.5581
開寳	-11.5583
天工	-11.5586
年八十	-11.5591
宣化	-11.5592
衆務	-11.5593
共工	-11.5593
侍儀司	-11.5593
漢髙祖	-11.5596
一生員	-11.5596
前宰相	-11.5597
復位樂止	-11.5597
九江	-11.5598
煬帝三年	-11.5606
所習	-11.5607
斤栗子	-11.5608
列位	-11.5608
去留	-11.5608
鎮西	-11.5609
乃敢	-11.561
大號	-11.561
主席	-11.5614
舊德	-11.5616
兩字	-11.5616
以慿	-11.5618
閏七月	-11.5622
去就	-11.5623
親信	-11.5623
尚方令	-11.5625
觀望	-11.5626
慎選	-11.5628
私恩	-11.5628
縣君	-11.563
入仕	-11.563
俱𦵏	-11.563
捧寳	-11.5632
焚之	-11.5632
立朝	-11.5633
文德	-11.5634
世所	-11.5634
者往往	-11.5636
欽明	-11.5638
聖恩	-11.5638
似此	-11.564
經濟	-11.5641
文思	-11.5641
國門	-11.5641
云侍郎	-11.5643
十年任	-11.5644
至有	-11.5644
至元四年	-11.5646
呉元年	-11.5649
我家	-11.5651
通行天下	-11.5655
營繕司	-11.5655
閏六月	-11.5657
賜給	-11.5659
亦不過	-11.5664
小功	-11.5666
如式	-11.5667
賛唱	-11.5668
冊印	-11.5671
池州	-11.5675
於宫中	-11.5676
王淮	-11.5677
十二斤	-11.568
廟祭	-11.5684
數十人	-11.5684
倣此	-11.5687
不知其	-11.569
此類	-11.5694
寧逺	-11.5695
元祐中	-11.5698
寧夏	-11.5699
造士	-11.57
不恱	-11.5701
給誥命	-11.5702
成規	-11.5703
水師	-11.5705
爵禄	-11.5709
牧民	-11.571
日輪	-11.5711
武帝置	-11.5713
中門入	-11.5714
求舊	-11.5715
陞補	-11.5715
古昔	-11.572
復位樂止典儀	-11.5725
引去	-11.5728
世爵	-11.5728
兼充	-11.5729
嘉靖二十六年	-11.5729
未足	-11.574
五十七	-11.5741
昌隆	-11.5742
未行	-11.5742
率多	-11.5744
所造	-11.5745
大報	-11.5745
無繇	-11.5749
俱罷	-11.5749
獄吏	-11.5751
司丞	-11.5752
韻略	-11.5752
傳宣	-11.5752
無補	-11.5753
掌饌	-11.5755
本支	-11.5756
也又考	-11.5759
日益	-11.5762
三場	-11.5766
威武	-11.5769
是嵗	-11.577
世世	-11.5773
右贊善	-11.5775
顧命	-11.5775
七月奉聖㫖	-11.5775
司户	-11.5775
七年五月	-11.5777
洪武十一年	-11.5777
第一人	-11.5779
十二年正月	-11.5785
勤王	-11.5792
五年五月	-11.5793
春正月	-11.5794
皇帝遣	-11.5797
未便	-11.5806
令甲	-11.5807
天保	-11.5807
已别	-11.5807
每位	-11.5808
二衛	-11.581
貫通	-11.5811
復來	-11.5815
責令	-11.5817
一人正八品下	-11.5818
世宗皇帝	-11.5819
箋文	-11.5821
五卷	-11.5822
起部	-11.5822
進春	-11.5823
滁	-11.5825
疏奏	-11.5827
掌冠	-11.5829
未明	-11.5834
邊郡	-11.5835
無虞	-11.5837
非是	-11.584
唐開元	-11.584
愉	-11.5844
老子	-11.5845
贊善大夫	-11.5851
正六品上	-11.5852
所係	-11.5854
舊唐書職官志	-11.5856
拿	-11.5857
朽	-11.5857
高皇帝	-11.5858
違限	-11.5861
臨安	-11.5861
責降	-11.5863
虡	-11.5866
謹奏	-11.5866
隨侍	-11.5869
魏文帝	-11.587
牛一	-11.5871
照舊例	-11.5872
左贊善	-11.5872
遺書	-11.5872
􁆚	-11.5874
指揮同知	-11.5874
雝	-11.5874
磨勘	-11.5876
前期二日	-11.5877
本原	-11.5878
兊	-11.5878
樁	-11.5878
砂	-11.5878
尊師	-11.5879
上士正二命	-11.5879
惻	-11.5879
虎鎗	-11.588
二尺五寸	-11.588
尚乗局	-11.5881
耒耜	-11.5881
絨	-11.5882
絳朝服	-11.5882
銘旌	-11.5882
褐	-11.5882
貢夷	-11.5882
殯	-11.5883
鈍	-11.5883
麟趾	-11.5883
虞允文	-11.5884
千百戸	-11.5884
盪	-11.5884
扉	-11.5884
四年十一月	-11.5884
該司	-11.5885
顛	-11.5885
内賛奏四拜	-11.5885
膽	-11.5885
資政殿學	-11.5886
市舶	-11.5887
紀昀	-11.5888
驪	-11.5888
陸錫熊	-11.5888
行五拜三叩頭禮畢	-11.5889
絞	-11.5889
乞勅該部	-11.5889
隕	-11.5889
籖	-11.589
猪羊	-11.5891
巍巍	-11.5891
液	-11.5891
鵷	-11.5891
填寫	-11.5891
箸	-11.5891
廪餼	-11.5891
靠	-11.5891
大小臣工	-11.5892
代府	-11.5892
繖扇	-11.5892
皋	-11.5892
河隄	-11.5892
𤨏	-11.5892
拱衛司	-11.5892
宋大中祥符二年加	-11.5892
裹	-11.5892
瓌	-11.5892
炬	-11.5893
孟庾	-11.5893
肩輿	-11.5893
墾	-11.5893
稀	-11.5893
繚	-11.5893
譎	-11.5893
北齊有	-11.5894
骨肉	-11.5894
焜	-11.5894
耿南仲	-11.5894
尙	-11.5894
府二人史二人	-11.5894
穗	-11.5894
十枝胡桃	-11.5895
掇	-11.5895
宣徽北院使	-11.5895
翕然	-11.5895
奉禮郎	-11.5895
垍	-11.5896
向敏中	-11.5896
箠	-11.5896
上謂禮部臣曰	-11.5897
行勘未報	-11.5897
蓍龜	-11.5897
迓	-11.5897
案香燭果品等物	-11.5897
㓗	-11.5897
見郎中下	-11.5897
官吏人等	-11.5898
濵	-11.5898
紱	-11.5898
元帥府	-11.5899
喫	-11.5899
漂	-11.5899
范宗尹	-11.5899
沅	-11.5899
釘	-11.5899
彌縫	-11.59
西海	-11.59
在天之靈	-11.59
見行事例	-11.59
埸	-11.59
隆興二年	-11.5901
盤盞	-11.5901
㧞貢	-11.5901
𤣥纁	-11.5901
北狩	-11.5902
𨗳	-11.5902
永徽	-11.5904
傅瀚	-11.5904
麤	-11.5904
一員從五品	-11.5904
肺	-11.5904
羮牆	-11.5905
董仲舒	-11.5905
禳	-11.5905
謝鐸	-11.5905
扈駕	-11.5905
團練使	-11.5906
芮	-11.5906
靖江王府	-11.5906
局丞	-11.5906
多取	-11.5906
本標中左右三營分防	-11.5906
煜	-11.5906
腦	-11.5907
冨	-11.5907
弹	-11.5907
歉	-11.5908
干戈	-11.5908
勿忘	-11.5908
教坊司跪奏	-11.5909
栻	-11.5909
順天府鄉試	-11.5909
侍衛親軍	-11.5909
胡瑗	-11.5909
慰勞	-11.5909
三年期滿	-11.5909
邢恕	-11.5909
松潘	-11.5909
諡文簡	-11.591
副榜舉人	-11.591
霍光	-11.5911
堯佐	-11.5911
遣中官	-11.5911
東北路	-11.5911
明賛唱曰	-11.5912
斷事官	-11.5912
謹案北魏	-11.5912
牲帛	-11.5913
侑食	-11.5913
長河西	-11.5914
南北直𨽻	-11.5914
瞻仰	-11.5914
冢宰	-11.5915
庫貯	-11.5915
張璁	-11.5915
錢塘	-11.5916
某國	-11.5916
駕幸	-11.5917
匪躬	-11.5918
書手	-11.5918
晉氏	-11.5918
育才	-11.5918
眷懐	-11.5919
罔極	-11.5919
鍋	-11.5919
圈	-11.5919
於圜丘	-11.592
一各處	-11.5921
和碩	-11.5921
整齊	-11.5922
有是除	-11.5922
詭異	-11.5922
二十六人	-11.5924
鵬舉	-11.5926
貼黄	-11.5926
引咎	-11.5926
無辜	-11.5927
我聖祖	-11.5928
首尾	-11.5928
銀十兩	-11.5928
陳康伯	-11.593
文華門	-11.5931
源委	-11.5932
播告	-11.5933
九年十月	-11.5933
成化十五年	-11.5935
巡幸	-11.5935
左右監門	-11.5935
十有三	-11.5936
二十二人	-11.5936
祠官	-11.5936
鎮撫司	-11.5937
皇甫	-11.5939
訓課	-11.5939
免賀	-11.594
上御奉天殿	-11.5941
兼直院	-11.5942
音律	-11.5943
江南常熟	-11.5943
三署郎	-11.5946
監副	-11.5946
釋文	-11.5949
至大二年	-11.595
神農	-11.5951
拜右僕射	-11.5953
御座前	-11.5953
急務	-11.5953
帶管	-11.5954
洪武二十九年	-11.5954
以字行	-11.5957
勘問	-11.5959
至元二十二年	-11.5962
絹袋	-11.5963
増減	-11.5965
賦役	-11.5967
至午門外	-11.5968
果係	-11.5968
堂上官一員	-11.5968
詹事府少詹事	-11.597
大小官員	-11.5971
𤣥武	-11.5972
五年三月	-11.5972
厥功	-11.5972
親賢	-11.5973
北征	-11.5973
監丞博士	-11.5973
徃來	-11.5974
檢法	-11.5974
名籍	-11.5975
府通判	-11.5975
忌辰前期十日本寺題	-11.5975
制敕	-11.5977
覆奉欽依	-11.5977
至晉	-11.5979
卿等宜	-11.5979
二十一人	-11.5979
木為之	-11.5982
給事中御史	-11.5982
泗州	-11.5982
稱善	-11.5986
樞宻院事	-11.5988
第三子	-11.599
勲舊	-11.5992
孟氏	-11.5992
中常侍	-11.5992
陳因之後魏	-11.5992
聖君	-11.5992
茶馬	-11.5993
字彦	-11.5994
宫祠	-11.5995
郭氏	-11.5996
禮部請	-11.5996
平居	-11.5997
屯衛	-11.5998
審理	-11.6
牛馬	-11.6001
知制誥依前充	-11.6003
區處	-11.6005
陞輿	-11.6005
成化十二年	-11.6005
篆文	-11.6008
入覲	-11.601
孝敬	-11.6012
答拜	-11.6012
居民	-11.6012
條例司	-11.6012
承天府	-11.6016
人丙辰進士	-11.6017
南京國子監祭酒	-11.6019
羊一隻	-11.6019
順天府官	-11.602
留都	-11.6022
直講	-11.6025
臣恐	-11.6026
賛俯伏興	-11.6026
在彼	-11.6027
漢字	-11.6028
先該	-11.6032
少卿一人	-11.6034
式昭	-11.6034
餘丁	-11.6036
王薨	-11.6042
深衣	-11.6046
安奉	-11.6047
之始也	-11.6047
向例	-11.6049
為正五品	-11.6049
前朝	-11.6051
秋分	-11.6051
始於此	-11.6052
與同列	-11.6054
以上俱	-11.6056
所以尊	-11.6058
為司徒	-11.6059
卿士	-11.606
十有七	-11.6064
恩榮	-11.6066
人口	-11.6067
有事則	-11.6068
事蹟	-11.6069
軍機	-11.6069
成化中	-11.6071
哉臣	-11.6071
六師	-11.6077
奉聖㫖是欽此故	-11.6079
詳慎	-11.608
文獻通考宋	-11.6081
曾祖	-11.6082
禮器	-11.6085
諭祭	-11.6087
夫婦	-11.6088
連年	-11.6088
荆南	-11.6089
有旨	-11.609
州諸軍事	-11.6093
著聞	-11.6093
悉心	-11.6093
十五嵗	-11.6094
請假	-11.6095
不妨	-11.6096
十一年正月	-11.6097
月三十日	-11.6098
前三日	-11.6098
宣政	-11.61
盛服	-11.61
河清	-11.6102
純正	-11.6102
教國子	-11.6104
内侍官捧	-11.6104
良弼	-11.6105
本布政司	-11.6106
男阿	-11.6107
嵗暮	-11.6112
與否	-11.6113
至是始	-11.6115
養馬	-11.6116
賔主	-11.6116
大都督府	-11.6119
徳宗	-11.6121
該監	-11.6122
合享	-11.6123
上供	-11.6126
車服	-11.6128
京衛	-11.613
分領	-11.6134
今陛下	-11.6137
正心	-11.6138
以此為	-11.614
置局	-11.6141
不可以不	-11.6144
缺出	-11.6145
愛君	-11.6146
寳座	-11.6146
國子監祭酒司業	-11.6147
農事	-11.6152
執經	-11.6154
舊設	-11.6154
浙江慈谿人	-11.6154
斯民	-11.6155
左右史	-11.6156
中書科	-11.6156
弁服	-11.6159
崇尚	-11.6159
正徳八年	-11.616
八音	-11.6164
大徳四年	-11.6166
結子	-11.6167
應對	-11.6171
淳化二年	-11.6173
衛率	-11.6175
二十三人	-11.6175
我師	-11.6176
庫大使	-11.6176
安静	-11.618
分為左右	-11.6181
已乆	-11.6183
給冠帶	-11.6186
百六十	-11.6188
保襲	-11.619
三品四品	-11.619
承發	-11.6191
滿文	-11.6193
尺六寸	-11.6194
二人從九品下	-11.6196
以處之	-11.6197
元良	-11.6197
滿洲漢軍	-11.6199
建白	-11.62
徳業	-11.6201
華州	-11.6202
大儒	-11.6205
要在	-11.6206
鼎司	-11.6207
升殿	-11.6208
其名數	-11.6208
昭代	-11.6208
淮東	-11.621
䝉恩	-11.6212
助教等官	-11.6213
金印	-11.6216
都督刺史	-11.6217
不精	-11.622
駕興	-11.622
私家	-11.6222
極論	-11.6222
晉初	-11.6223
北史	-11.6225
千二百	-11.6225
帶一條	-11.6228
二楹	-11.6231
正徳十年	-11.6231
政教	-11.6231
以朝官	-11.6232
欲得	-11.6235
化成	-11.6235
漢紀	-11.6238
博士二人	-11.6241
軄	-11.6243
賜爵	-11.6243
洪武十三年	-11.6243
當㕔	-11.6255
賔賛	-11.6257
京朝官	-11.6258
雍州	-11.6259
内閣官	-11.6261
於今日	-11.6262
猶存	-11.6264
太祖皇帝	-11.6264
陞遷	-11.6267
皆預	-11.6269
正徳二年	-11.6273
盡歸	-11.6274
等項俱	-11.6278
郡王府	-11.6284
進士天啓	-11.6287
四拜平身	-11.6289
充補	-11.6289
龍朔二年改為司	-11.6293
不敢言	-11.6295
受册	-11.6295
工部郎中	-11.6301
固非	-11.6303
其一曰	-11.6303
兵部郎中	-11.6306
宴賞	-11.6307
之遺意	-11.631
從八品掌	-11.6311
編修檢討	-11.6312
都水司	-11.6313
宗學	-11.6313
跪搢笏	-11.6315
叅軍	-11.6318
右諫議	-11.6325
玉珠	-11.6327
薊	-11.6333
朝房	-11.6333
昔人	-11.6334
嘉靖二十年	-11.6338
奏再拜	-11.6341
香亭	-11.6343
不專	-11.6347
申嚴	-11.6347
司員外	-11.6348
不協	-11.6352
無碍	-11.6353
學貫	-11.6358
四表裏	-11.6359
是當時	-11.636
寘之	-11.6363
缺少	-11.6366
聖皇	-11.6368
雖欲	-11.637
衾	-11.6371
𥙷	-11.6372
玉佩	-11.6373
五鎮	-11.6373
从	-11.6376
朶甘	-11.6377
溉	-11.6377
隊舞	-11.6377
其品秩	-11.6378
稼穡	-11.6378
故謂之	-11.6378
教學	-11.638
先賢顔	-11.638
府一人史二人	-11.638
豬	-11.6381
煖	-11.6382
有文學	-11.6382
堂堂	-11.6382
餓	-11.6383
讃	-11.6384
晁	-11.6384
都元帥府	-11.6385
挹	-11.6385
壑	-11.6386
五銖	-11.6386
京營	-11.6386
狎	-11.6386
彥	-11.6387
徠	-11.6387
款	-11.6387
峽	-11.6387
桷	-11.6388
夥	-11.6388
檻	-11.6388
愕	-11.6388
𫝊賛百	-11.6388
猝	-11.6388
安平	-11.6388
伋	-11.6389
金史百官志	-11.6389
斵	-11.6389
珊瑚	-11.6389
硃紅	-11.6389
窺伺	-11.6389
島	-11.6389
六品至九品	-11.6389
盝	-11.6389
禮神制帛	-11.639
踏	-11.639
郎中一人從五品上	-11.639
宷	-11.639
大徳十年	-11.6391
視師	-11.6391
盔	-11.6392
睹	-11.6392
潜住	-11.6392
折衷	-11.6392
魏晉以後	-11.6392
騾	-11.6392
掌詹事府事	-11.6392
枷號	-11.6393
秩中二千石	-11.6393
孔安國	-11.6393
驂	-11.6393
汎	-11.6394
柳	-11.6394
樵	-11.6394
大學士張璁	-11.6394
健鋭營	-11.6394
土魯番	-11.6394
亊	-11.6394
縑	-11.6394
傚	-11.6395
嫓	-11.6395
桀	-11.6395
率性堂	-11.6395
徳淵仁寛穆純聖恭儉敬文獻皇帝	-11.6395
橐	-11.6395
禮畢請還宫	-11.6395
豎	-11.6395
於御前	-11.6395
頋	-11.6395
回鶻	-11.6396
哷	-11.6396
躁	-11.6396
嗣天子臣	-11.6396
藪	-11.6396
緊	-11.6396
堵	-11.6396
騫	-11.6396
儕	-11.6397
先賢先儒	-11.6397
䘮葬	-11.6397
譯字官	-11.6397
贅	-11.6398
己夘	-11.6398
芹菜	-11.6398
黌	-11.6398
禡	-11.6398
續翰林志	-11.6398
栽	-11.6398
白咨紙	-11.6398
行釋菜禮	-11.6399
厯代建置三代	-11.6399
彌綸	-11.6399
乙卯	-11.6399
唐虞三代	-11.6399
檢閱	-11.6399
展書官	-11.6399
崇文館	-11.6399
尺寸	-11.64
讒	-11.64
郡縣主君	-11.64
五城御史	-11.64
毎斤五百文	-11.64
禪師	-11.64
饈	-11.64
芡實	-11.64
下第舉人	-11.64
張元禎	-11.64
定限	-11.6401
黒角帶	-11.6401
邠	-11.6401
岩	-11.6402
𢡟	-11.6402
厯代建置謹案	-11.6402
敬一亭	-11.6402
雍熙	-11.6402
瓉	-11.6402
屯駐	-11.6403
太子賔客	-11.6403
金紫光祿大夫	-11.6403
直𨽻華亭人	-11.6403
汀	-11.6403
超越	-11.6403
典籖	-11.6403
詣盥洗所	-11.6403
譏察	-11.6403
絳紗袍	-11.6403
河隄謁者	-11.6404
兒男	-11.6404
甬道	-11.6404
伊男	-11.6404
米二石	-11.6404
嚴加禁約	-11.6404
都官尚書	-11.6404
裨	-11.6404
診	-11.6405
第九	-11.6405
稚	-11.6406
大都䕶	-11.6407
右侍	-11.6407
囚徒	-11.6407
趙挺之	-11.6407
行奉慰禮	-11.6407
庻吉士	-11.6408
舞蹈	-11.6408
患疾	-11.6409
氏後裔	-11.6409
撫綏	-11.641
黠	-11.641
學舎	-11.641
孝慈	-11.641
陞主客司郎中	-11.6411
線羅	-11.6411
八旗子弟	-11.6411
皿字號	-11.6412
瀚海	-11.6412
䕶軍㕘領	-11.6412
救䕶	-11.6412
灣	-11.6412
四鎮	-11.6412
副總管	-11.6413
牌坊	-11.6413
冠冕	-11.6413
秩正七品	-11.6413
錫裏	-11.6414
光宅元年改為	-11.6414
陞精膳司郎中	-11.6414
交趾	-11.6414
亳州	-11.6414
詹事府詹事	-11.6415
引禮唱	-11.6415
形勢	-11.6415
雍正七年	-11.6415
司香官	-11.6415
總部	-11.6416
大理寺丞	-11.6416
吕夷簡	-11.6416
費宏	-11.6417
伊犁	-11.6417
奠獻使	-11.6417
勞逸	-11.6417
如舊制	-11.6418
痛加	-11.6418
具衮冕	-11.6418
尚食局	-11.6418
齊因之梁	-11.6419
降一等	-11.6419
禍福	-11.6419
大紅紵絲	-11.6419
休息	-11.642
浙江歸安人	-11.642
右通政	-11.642
招諭	-11.642
彬彬	-11.6421
康國	-11.6421
甲戍	-11.6422
進士出身	-11.6422
候指揮	-11.6423
釋放	-11.6423
至元二十年	-11.6424
算學生	-11.6424
旌節	-11.6426
魏因之	-11.6426
春祭	-11.6428
行禮如常儀	-11.6428
賛襄	-11.6428
五百里	-11.6428
太府卿	-11.6429
又該	-11.6429
掃除	-11.6429
林牙	-11.643
下第	-11.6431
藥材	-11.6432
敎授	-11.6432
同考試官	-11.6433
余深	-11.6433
中壘	-11.6435
參酌	-11.6435
觀保	-11.6436
褒功	-11.6438
覆議	-11.6438
七尺	-11.6439
本寺題	-11.6439
尚膳	-11.644
拜右丞相	-11.644
筆硯	-11.644
帳房	-11.6441
以掌院學	-11.6442
龍虎	-11.6443
酌酒	-11.6444
勲勞	-11.6445
羣情	-11.6446
祖奠	-11.6446
白虎	-11.6446
城池	-11.6448
降麻	-11.6448
吏部右侍郎	-11.6448
則當時	-11.6449
威靈	-11.6449
稽留	-11.6449
董率	-11.6449
茂良	-11.645
儒生	-11.645
農夫	-11.645
龍飛	-11.6451
叅詳	-11.6451
三年一次	-11.6452
師友	-11.6453
賜賚	-11.6454
織成	-11.6455
送法司	-11.6457
宰路	-11.6458
歲貢	-11.646
軍匠	-11.6461
請嗣後	-11.6462
中都官	-11.6464
雜色	-11.6464
服䖍	-11.6465
真才	-11.6465
協濟	-11.6466
侍中中書令	-11.6466
内侍充	-11.6466
丕平	-11.647
景運	-11.6471
萬象	-11.6472
還俗	-11.6473
自端明殿學士	-11.6474
志所載	-11.6475
雲貴	-11.6475
丞簿	-11.6478
脯醢	-11.6479
督察	-11.6481
就坐	-11.6481
尺八寸	-11.6482
天下之務	-11.6483
遺失	-11.6483
執政官	-11.6487
流移	-11.6488
當是時	-11.6489
東壁	-11.649
甚明	-11.6491
督率	-11.6491
就第	-11.6492
州縣官	-11.6492
詔自今	-11.6493
右揆	-11.6494
隴西	-11.6494
一千石	-11.6495
追尊	-11.6495
教澤	-11.6497
隆禮	-11.6498
列坐	-11.6498
五榖	-11.6499
入流	-11.65
漢陽	-11.6501
扶同	-11.6502
陪祭官	-11.6502
奏事畢	-11.6503
此心	-11.6504
寵章	-11.6505
為叅知政事	-11.6505
始見於	-11.6507
五年六月	-11.6507
數倍	-11.6508
駕士	-11.6509
復辟	-11.6509
兼中書侍郎	-11.651
疑即	-11.651
尺合四	-11.651
家語	-11.6511
庶使	-11.6513
給度牒	-11.6513
吏司郎中滿洲漢人各一人員外郎滿洲	-11.6514
三月奉聖㫖	-11.6514
皇女	-11.6515
南學	-11.6515
紀善	-11.6515
親黨	-11.6517
降階	-11.6518
祕書	-11.652
分析	-11.652
農桑	-11.6522
民曹	-11.6522
延祐三年	-11.6523
無逸	-11.6524
循例	-11.6526
侍班官	-11.6528
武昌	-11.6528
忠嘉	-11.6532
京縣	-11.6533
外廷	-11.6533
批文	-11.6533
題奉孝宗皇帝聖㫖	-11.6534
加銜	-11.6535
可知矣	-11.6537
老病	-11.654
有傷	-11.6541
世次	-11.6542
開泰	-11.6543
未曾	-11.6544
呈堂	-11.6545
甚厚	-11.6548
康熙九年	-11.6548
内供奉	-11.6549
天寶	-11.6551
乾隆十三年	-11.6553
閣學士	-11.6554
奉聖㫖這	-11.6554
昉於	-11.6554
二百一十	-11.6555
元祐初	-11.6558
教訓	-11.656
基命	-11.6561
寫書	-11.6562
知樞密院	-11.6563
京兆河南	-11.657
繇祠祭	-11.6573
選配	-11.6573
天地宗廟	-11.6574
私第	-11.6575
無害	-11.6575
奏繳	-11.6578
歸併	-11.6578
照此例	-11.6579
則如今	-11.6579
上然之	-11.6579
三十五人	-11.658
恭軍	-11.6581
每貢	-11.6582
誠意	-11.6585
祀昊天上帝	-11.6586
之比也	-11.6586
事下禮部議	-11.659
三百三十	-11.659
條具	-11.6591
翰林院修撰	-11.6591
限制	-11.6591
率百官	-11.6592
元符三年	-11.6592
繼祖	-11.6595
圜丘壇	-11.6596
選到	-11.6596
永樂十五年	-11.6597
送問	-11.6599
秦府	-11.66
各為一	-11.6601
立碑	-11.6601
詣南郊	-11.6602
赤子	-11.6603
省併	-11.6606
侍直	-11.661
如期	-11.6611
天下學校	-11.6611
王恕	-11.6613
竟不	-11.6618
刑部主事	-11.6621
蒲州	-11.6623
導遣官	-11.6626
告辭	-11.6629
治理	-11.663
尼僧	-11.663
册案	-11.6635
仰見	-11.6636
侍坐	-11.6636
中途	-11.6637
天象	-11.6639
五年八月	-11.664
秩宗	-11.6642
歸化	-11.6644
奉祧	-11.6648
總漕	-11.6649
座前	-11.665
十六年繇	-11.6652
收入	-11.6655
宋齊並	-11.6656
序列	-11.6656
襲王爵	-11.6658
起家	-11.6661
唐古	-11.6662
南城	-11.6663
禮官議	-11.6663
天下諸司	-11.6664
屬籍	-11.6666
門户	-11.6667
在内閣	-11.6667
按宋	-11.6669
靈宫	-11.6671
然當時	-11.6672
書舍人	-11.6672
筆帖式二人	-11.6672
進讀	-11.6675
入館	-11.6676
漢人各一人	-11.6677
亦未嘗	-11.6678
掌侍從	-11.668
附元	-11.6683
六隻	-11.6686
應貢	-11.6687
至正元年	-11.6688
號稱	-11.6694
訓辭	-11.6697
詩云	-11.6697
祖宗以來	-11.6698
嵗支	-11.6698
邉事	-11.6703
望祭	-11.6705
一人正七品下	-11.6706
大祥	-11.6706
即漢	-11.6714
等二百	-11.6716
試録	-11.6721
太重	-11.6723
設香案于	-11.6726
謁陵	-11.673
雜流	-11.673
郎曹	-11.673
兼習	-11.673
晉武帝	-11.6731
茍非	-11.6734
大學士李東陽	-11.6736
九功	-11.6736
二十卷	-11.6739
授散官	-11.6741
大課	-11.6743
大通事	-11.6744
宴享	-11.6747
蹇義	-11.6747
備載	-11.6749
收考	-11.6749
在東宫	-11.6751
殿閣	-11.6751
祭先師孔子	-11.6756
城隍之神	-11.6756
通計	-11.6759
命翰林院	-11.6759
萬厯二年	-11.676
端拱元年	-11.6762
事干	-11.6772
引班	-11.6772
㕔事	-11.6773
持正	-11.6776
總制	-11.6776
鴻臚寺堂上官	-11.6777
三品以上官	-11.6777
金寳	-11.6779
煬	-11.678
皇圖	-11.6782
輿輦	-11.6782
祖宗朝	-11.6786
保傅	-11.6786
豈得	-11.6788
多難	-11.679
言責	-11.6791
閏五月	-11.6794
太學門	-11.6794
參軍事一人	-11.6794
北齊置	-11.6796
五雲	-11.6799
昭武	-11.6804
白馬	-11.6804
垂示	-11.6806
專設	-11.6806
粳米	-11.6808
相率	-11.6808
廣南	-11.6809
壽宫	-11.6809
理刑	-11.681
册表	-11.6811
篋	-11.6814
所闗	-11.6814
開基	-11.6816
天變	-11.6817
管府事	-11.6817
鹽井	-11.6817
年任左侍郎	-11.6818
係是	-11.6818
四十四年	-11.6824
䘮禮	-11.6824
再論	-11.6824
齎詔	-11.6829
迎合	-11.683
弋	-11.683
申送	-11.683
無嫡	-11.6831
按唐	-11.6832
運河	-11.6835
漢因之	-11.6838
右校	-11.6838
必資	-11.6844
詔有司	-11.6844
出仕	-11.6845
嘉靖二十二年	-11.6848
海運	-11.6851
世子郡王	-11.6852
至剛	-11.6852
祭天地	-11.6853
三十六人	-11.6857
奉明㫖	-11.6862
右僕射兼中書侍郎	-11.6862
分為二	-11.6863
履端	-11.6863
之職故	-11.6865
内使監	-11.6867
四色	-11.6867
右順門	-11.687
文運	-11.6876
入監者	-11.6877
理學	-11.6878
以其地為	-11.6879
之政令凡	-11.6879
廟户	-11.6879
七年十二月	-11.688
邕	-11.6881
鎮南	-11.6883
有不遵	-11.6884
天順三年	-11.6884
日夜	-11.6887
吐谷渾	-11.6887
無礙	-11.6889
稠	-11.689
耤田	-11.689
洮	-11.6891
拜褥	-11.6892
兼門下侍郎	-11.6896
銀庫	-11.6896
廹	-11.6903
卓二張	-11.6904
恁	-11.6905
徭	-11.6906
靈丘王	-11.6906
傔	-11.6907
登聞鼓	-11.6907
崈	-11.6907
中士正一命	-11.6907
王圻續文獻通考	-11.6908
翰詹諸臣	-11.6908
初二日	-11.6908
梨	-11.6908
麽	-11.6909
豳	-11.6909
禽獸	-11.6909
欽定四庫全書欽定歴代職官表卷	-11.6909
窰	-11.6909
不守法度時換了欽此	-11.6909
熏	-11.691
紵絲衣一套	-11.691
秘書監裏	-11.691
緝事衙門	-11.6911
羔	-11.6911
只不世襲	-11.6911
搶	-11.6912
靴韈各一雙	-11.6912
之事丞為之貳凡	-11.6913
塑	-11.6913
佾	-11.6913
厠	-11.6913
享之禮	-11.6913
侍即充	-11.6913
朝謁	-11.6913
剰	-11.6914
琴瑟	-11.6914
粥	-11.6914
總纂官	-11.6915
讀講學士	-11.6915
猜	-11.6915
窩	-11.6915
粧	-11.6916
翹	-11.6916
匾	-11.6916
轝	-11.6916
番上	-11.6916
挿	-11.6917
譁	-11.6917
後革	-11.6917
斤荔枝圓眼各	-11.6917
稹	-11.6917
漢唐以來	-11.6917
朱雀	-11.6918
任調吏部	-11.6918
夤緣	-11.6918
郎将	-11.6919
皇明祖訓	-11.6919
鈔五十錠	-11.6919
涓	-11.6919
千百户	-11.6919
挫	-11.6919
聆	-11.6919
梟	-11.6919
縉紳	-11.6919
擎	-11.692
努	-11.692
腐	-11.692
慘	-11.692
珍羞	-11.692
觀文殿	-11.692
三國三國蜀志	-11.692
呂頤浩	-11.692
薪炭	-11.692
狠	-11.6921
詐偽	-11.6921
太祖開	-11.6921
届期	-11.6921
掲帖知㑹司禮監	-11.6921
而有是命	-11.6921
成祖文皇帝	-11.6921
鬭	-11.6921
殃	-11.6921
鹵	-11.6921
葅	-11.6921
肄業期滿	-11.6921
纂輯	-11.6921
卜筮	-11.6921
上嘉納之	-11.6922
椅	-11.6922
圓明園	-11.6922
庚戍	-11.6922
平章政事	-11.6922
州團練副使	-11.6923
王應麟	-11.6923
正白旗	-11.6923
謁者僕射	-11.6923
賑濟	-11.6923
嫁娶	-11.6923
圏	-11.6923
奉安于	-11.6924
撿	-11.6924
朝請大夫	-11.6924
繁劇	-11.6924
趙抃	-11.6924
濳	-11.6924
専職	-11.6924
賙	-11.6925
襯	-11.6925
衛喇特	-11.6925
中葉以後	-11.6925
用祝文	-11.6925
怠忽	-11.6925
中順大夫	-11.6925
侄	-11.6925
黻	-11.6926
焦芳	-11.6926
優渥	-11.6926
絀	-11.6926
唾	-11.6926
墊	-11.6926
邢讓	-11.6926
徂	-11.6927
諄	-11.6927
揣	-11.6927
䑕	-11.6927
謝恩見辭	-11.6927
竪	-11.6927
二十八宿	-11.6927
禮遇	-11.6927
湧	-11.6927
欽定四庫全書翰林記卷	-11.6927
順治十五年	-11.6927
吏禮二部	-11.6928
吁	-11.6928
鹽運司	-11.6928
毛澄	-11.6928
渴	-11.6928
郕王	-11.6928
管理事務	-11.6928
詞林典故	-11.6929
鯨	-11.6929
具禮服	-11.6929
翰墨	-11.6929
錢惟演	-11.6929
光禄寺少卿	-11.6929
臣愚以為	-11.6929
中和韶樂	-11.6929
恠	-11.6929
鐙	-11.693
醴泉	-11.693
不豫	-11.6931
太乙	-11.6931
奉特㫖	-11.6931
鄭司農	-11.6931
汪伯彦	-11.6932
鄭居中	-11.6932
榜示	-11.6932
從第六品	-11.6932
陞右侍郎	-11.6932
嘉靖十三年	-11.6932
起居舎人	-11.6933
行三獻禮	-11.6933
衆寡	-11.6933
諍	-11.6934
題名記	-11.6934
鹽池	-11.6934
一上聲	-11.6934
植黨	-11.6934
以承務郎上	-11.6934
拖	-11.6935
交割	-11.6935
挨次	-11.6935
張齊賢	-11.6936
糾劾	-11.6936
屹	-11.6936
奬勵	-11.6936
庠序	-11.6936
舟車	-11.6937
繫銜	-11.6937
何㮚	-11.6938
陳彭年	-11.6938
著為例	-11.6938
執㦸	-11.6938
架閣	-11.6938
備馬赴京	-11.6939
知河南府	-11.694
効力	-11.694
諾延	-11.694
御覧	-11.694
買辦	-11.694
用紅緑羅銷金束子	-11.6941
商税	-11.6941
是用擢	-11.6941
答揖	-11.6941
禁屠宰	-11.6942
廕監生	-11.6942
搜檢	-11.6942
采輿	-11.6942
不朽	-11.6942
口粮	-11.6942
扶風	-11.6943
超軼	-11.6943
遣陪臣	-11.6943
萬㡬	-11.6943
順治元年置	-11.6944
住支	-11.6944
順治元年設	-11.6944
酒食	-11.6944
涵養	-11.6945
庻幾	-11.6945
阻回	-11.6946
裁抑	-11.6946
山陽	-11.6946
大小衙門	-11.6947
閔勞	-11.6948
淮揚	-11.6949
徐元夢	-11.6949
夷險	-11.6949
張方平	-11.6949
莫大於	-11.695
諸葛	-11.695
牧塲	-11.695
巴圖	-11.6951
一四工合	-11.6951
宣慰使司	-11.6952
奉安訖	-11.6953
龜山	-11.6953
夙興	-11.6954
厚薄	-11.6955
遣行人	-11.6955
體勘	-11.6955
現任	-11.6957
滿洲鑲藍旗人	-11.6957
聖人之道	-11.6958
一前期三日	-11.6958
商量	-11.6958
㑹官議	-11.6959
將仕郎	-11.6959
宻勿	-11.696
青服	-11.696
神祇壇	-11.6961
教習庶吉士	-11.6961
良家子	-11.6962
火器	-11.6962
太上皇帝	-11.6962
眷予	-11.6964
倉儲	-11.6965
辦事大臣	-11.6966
權勢	-11.6966
同知通判	-11.6967
少頃	-11.6967
尚饗	-11.6969
相遇	-11.6969
昌辰	-11.6969
内壝	-11.697
調䕶	-11.697
膳食	-11.6972
諸般	-11.6973
我皇考	-11.6973
天下臣民	-11.6973
金織	-11.6973
考騐	-11.6974
降輦	-11.6974
執事等官	-11.6975
巾服	-11.6975
典祀	-11.6979
按季	-11.6981
隆殺	-11.6982
龍鳯	-11.6982
二十餘年	-11.6982
賜百官	-11.6983
左補闕	-11.6983
更直	-11.6984
都轉運使	-11.6984
陞侍讀學士	-11.6984
嘉靖十九年	-11.6986
副提舉	-11.6987
蕃宣	-11.6987
吾民	-11.6989
豈容	-11.6989
押送	-11.699
案之南	-11.699
宫苑	-11.6991
樂育	-11.6992
桑主	-11.6992
無窮之	-11.6992
兼侍	-11.6993
寫勅	-11.6993
參預	-11.6993
倉塲	-11.6993
奠爵	-11.6993
謹案後周	-11.6995
九疇	-11.6996
金紫	-11.6997
機政	-11.6997
編校	-11.6999
和卓	-11.6999
就學	-11.6999
正陽門	-11.7
戰守	-11.7
為後世	-11.7001
現行	-11.7001
象尊	-11.7004
山甫	-11.7004
復位奏四拜	-11.7005
仍依	-11.7006
訓誨	-11.7006
獨斷	-11.7008
有成效	-11.7009
恢復	-11.701
禁苑	-11.701
右尚方	-11.701
停罷	-11.7011
來的	-11.7014
悉罷	-11.7017
以聞於是	-11.7017
勒石	-11.7017
十年繇	-11.7017
永康	-11.7021
牧長	-11.7022
雜物	-11.7022
肅宗	-11.7022
下禮部覆奏	-11.7027
誕告	-11.7027
凡國有	-11.7028
盛度	-11.7028
司馬遷	-11.7028
一幅	-11.7029
明亮	-11.7031
中樞	-11.7031
居第	-11.7034
孫覺	-11.7035
告老	-11.7036
小宗伯	-11.7036
讀學士	-11.7037
正文體	-11.7038
雅爾	-11.7039
愚民	-11.704
科甲	-11.704
秉心	-11.7041
帝王廟	-11.7047
隋文帝置	-11.7048
用士人	-11.705
婺州	-11.705
用太牢	-11.705
尋常	-11.7054
廟社	-11.7054
精誠	-11.7056
保薦	-11.7057
参軍	-11.7057
民物	-11.706
助祭	-11.7063
以京朝官	-11.7063
各一部	-11.7064
正徳中	-11.7066
中舎人	-11.7067
鄉師	-11.7068
皇皇	-11.7068
顧謂	-11.7069
神龍元年	-11.7069
簮導	-11.707
給印	-11.7074
請名請封	-11.7074
萬民之	-11.7076
賞功	-11.7078
北邊	-11.7081
閭里	-11.7084
豈敢	-11.7086
祖父母父母	-11.7088
顯宗	-11.7088
東西南北	-11.7089
洪武十二年	-11.709
寶座	-11.709
孫固	-11.7091
條理	-11.7092
物色	-11.7093
即如今	-11.7093
去聲	-11.7094
在兹	-11.7096
表謝	-11.7097
八旗教習	-11.7098
獻陵	-11.71
禮部尚書胡濙等	-11.7103
筆帖式四人	-11.7105
樂女	-11.7107
允協	-11.7107
更革	-11.7109
守陵	-11.7111
京堂	-11.7113
平闗	-11.7114
節序	-11.7115
積年	-11.7115
表賀	-11.7118
平允	-11.7119
正途	-11.7121
預先	-11.7126
蔚州	-11.7133
春二月	-11.7134
性理	-11.7136
永樂十三年	-11.7138
民財	-11.7139
敵人	-11.7141
露臺上	-11.7142
四年罷	-11.7143
正德六年	-11.7143
三國志	-11.7144
利民	-11.7144
冠軍	-11.7146
𫝊制	-11.7146
周宣	-11.7146
齎捧	-11.7149
載籍	-11.7153
書辦	-11.7154
自樞宻副使	-11.7156
史所載	-11.7157
六部尚書	-11.716
門大夫	-11.716
二品三品	-11.7162
加詳	-11.7163
歴科	-11.7167
時雍	-11.7172
藩府	-11.7173
讀祝訖	-11.7175
莫非	-11.7182
實效	-11.7189
属官	-11.7192
故男李	-11.7193
都城隍	-11.7195
共圖	-11.7198
純誠	-11.72
覆題	-11.7205
各就拜位	-11.7206
天威	-11.7209
兩路	-11.7209
八年正月	-11.7209
勅禮部	-11.721
坐講	-11.7213
京倉	-11.7215
往年	-11.7216
重陽	-11.722
何足	-11.722
為京兆尹	-11.7233
即位之初	-11.7235
萬厯三十	-11.724
權宜	-11.7245
更易	-11.7249
良民	-11.7259
學窮	-11.7261
方鎮	-11.7264
洪武時	-11.7267
變通	-11.7271
力士	-11.7272
康成	-11.7273
七年正月	-11.7273
遂致	-11.7275
衡山	-11.7275
大行人	-11.7277
禁近	-11.7278
其任也	-11.7283
不到者	-11.7287
官箴	-11.7288
追贈	-11.7289
漕務	-11.729
親衛	-11.7291
進士嘉靖三	-11.7292
後周置	-11.7295
部郎中	-11.7296
捧節	-11.7301
三百八十	-11.7301
雖係	-11.7303
十觔	-11.7304
懐逺	-11.731
太常丞	-11.7311
總裁官	-11.7311
比年	-11.7312
萬厯元年	-11.7318
請封選婚	-11.7318
未允	-11.7319
丞尉	-11.7319
丈八尺	-11.7325
午門外	-11.7328
跪請	-11.7334
北直𨽻	-11.7336
格天	-11.7337
嘉靖二十五年	-11.7343
舅姑	-11.735
内閣大學士	-11.7353
右藏	-11.7356
遼王	-11.7357
稱疾	-11.7358
戌進士	-11.7359
四年詔	-11.7361
嘆曰	-11.7365
原額	-11.7367
親族	-11.7371
人驍騎校	-11.7381
亦沿	-11.7385
古帝王	-11.7388
授編修	-11.7391
患病男	-11.7399
捕盜	-11.74
魏武	-11.7401
謀議	-11.7402
殿中丞	-11.7405
差撥	-11.7407
門之内	-11.7407
糯米	-11.7408
一觔	-11.7409
贊俯伏興平身	-11.7411
世襲土官	-11.7414
京邑	-11.7415
城隍廟	-11.7415
為廷尉	-11.7417
國朝貢	-11.7417
齊梁陳	-11.7418
乾隆七年	-11.7419
稱號	-11.7423
廣儲	-11.7426
輕車	-11.7426
宣廟	-11.7431
國朝雍正	-11.7436
守䕶	-11.7443
求退	-11.7446
嵗久	-11.7446
都部署司	-11.7449
眷惟	-11.7449
簴	-11.7449
梁制	-11.7451
鉤盾	-11.7453
迤	-11.7455
􁑶	-11.7456
嘉靖三十四年	-11.7456
警巡院	-11.7457
員外郎一人從六品上	-11.7457
進奏院	-11.7457
行八拜禮	-11.7457
佩水蒼玉	-11.7459
𤣥極寶殿	-11.7459
莾	-11.746
饒州	-11.7462
騶	-11.7462
㽞	-11.7462
横吹	-11.7462
驀越	-11.7464
呪	-11.7464
著之於表	-11.7464
獠	-11.7464
跟隨	-11.7464
僱	-11.7464
倐	-11.7465
二尺四寸	-11.7465
作邑自箴卷第	-11.7465
乘轎	-11.7465
䘵	-11.7465
掞	-11.7466
麴	-11.7466
少詹	-11.7466
魏書官氏志	-11.7466
皇兄	-11.7467
作君作師	-11.7467
城守尉	-11.7467
嘉靖三十三年	-11.7467
通典後魏	-11.7467
衿	-11.7467
一應事務	-11.7468
編磬	-11.7468
罸	-11.7468
翎	-11.7469
紗中單	-11.7469
浙江江西湖廣	-11.7469
羅羅人	-11.7469
孫士毅總校官	-11.7469
儤直	-11.7469
頥浩	-11.747
斃	-11.747
畋	-11.747
肴藏	-11.747
庻㡬	-11.7471
洪武十五年歸附十六年	-11.7471
天壽山	-11.7471
昶	-11.7472
闕里文獻考	-11.7472
􁰽	-11.7472
顛倒	-11.7472
攽	-11.7472
幰	-11.7472
捍	-11.7472
宅百揆	-11.7472
警蹕	-11.7473
乙夘	-11.7473
少師少傅少保	-11.7473
催纂	-11.7473
彈壓	-11.7473
英宗睿皇帝	-11.7473
烏魯木齊	-11.7473
跳	-11.7474
客省使	-11.7474
杆	-11.7475
郎中二人員外郎	-11.7475
月恭校上	-11.7475
𤓰哇	-11.7475
冥	-11.7476
紆	-11.7476
适	-11.7476
提舉太平興國宫	-11.7476
節度副使	-11.7476
澈	-11.7476
祖考妣	-11.7476
𦂳要	-11.7476
襖子	-11.7476
珏	-11.7476
初獻夀和之曲	-11.7476
降自西階	-11.7476
秉鈞之	-11.7476
内贊奏四拜	-11.7477
碗	-11.7477
鯁	-11.7477
永樂間使臣	-11.7477
廩餼	-11.7477
麓川	-11.7477
奢侈	-11.7477
禮部尚書崔亮	-11.7477
奉車都尉	-11.7478
三氏子孫	-11.7478
哨	-11.7478
届	-11.7478
斁	-11.7478
受禪	-11.7478
旃	-11.7478
璞	-11.7478
遼史百官志	-11.7478
不可不察	-11.7478
裱禙	-11.7478
有兩丞	-11.7479
混淆	-11.7479
四譯館	-11.7479
榛仁	-11.7479
遂為定制	-11.748
撾	-11.748
車騎將軍	-11.748
修造	-11.748
宗廟社稷	-11.748
六科都給事中	-11.748
湟	-11.748
勵翼	-11.748
屑	-11.748
袒	-11.748
墉	-11.7481
兾	-11.7481
鬷	-11.7481
蹌	-11.7481
餞	-11.7481
擕	-11.7481
鑲黄旗	-11.7481
蟄	-11.7481
尚寳卿	-11.7481
䧺	-11.7481
保姆	-11.7481
摠	-11.7481
璣	-11.7481
棗栗	-11.7482
分六釐	-11.7482
承直郎	-11.7482
瑪哈穆特	-11.7482
赦宥	-11.7482
正紅旗	-11.7483
杜鎬	-11.7483
郅	-11.7483
儀同三司	-11.7483
擎執	-11.7483
驛逓	-11.7483
狃	-11.7483
譛	-11.7484
一執事樂舞生	-11.7484
給與冠帶	-11.7484
上具常服	-11.7484
拭	-11.7484
懷挾	-11.7484
制勑	-11.7484
竅	-11.7485
陞座樂止	-11.7485
凡大祭祀	-11.7485
覃恩	-11.7485
沿邊	-11.7485
鑾輿	-11.7485
三省長官	-11.7485
覇	-11.7485
迤西	-11.7486
歐陽脩	-11.7486
串	-11.7486
守巡	-11.7486
陸宗楷	-11.7486
順治十六年	-11.7486
皇朝復為	-11.7486
之類是也	-11.7486
弔祭	-11.7486
賜進士出身	-11.7487
理府事	-11.7487
儀制司郎中	-11.7487
脯	-11.7487
匀	-11.7487
禎祥	-11.7488
怠惰	-11.7488
箕	-11.7488
桞	-11.7488
慷慨	-11.7488
歷	-11.7489
䋲	-11.7489
赤舄	-11.7489
張玉書	-11.7489
契勘	-11.7489
泗水	-11.749
顔料	-11.749
寛宥	-11.749
機密	-11.749
夏禹	-11.749
恭儉	-11.749
拜位之北	-11.7491
耆儒	-11.7491
崧	-11.7491
右㕘政	-11.7492
秩從五品掌	-11.7492
秩正四品	-11.7492
第一場	-11.7494
慨然	-11.7494
蘇頌	-11.7495
霜降	-11.7495
儒學生員	-11.7495
燕居服	-11.7495
覘	-11.7495
長史教授等官	-11.7495
太常司	-11.7495
甲胄	-11.7496
世系	-11.7496
中太乙宫使	-11.7496
閱月	-11.7496
弟姪	-11.7497
賚予	-11.7497
孝亷	-11.7497
韓菼	-11.7499
文王世子	-11.75
褒貶	-11.7501
奠幣	-11.7501
燭臺	-11.7501
元昊	-11.7502
補廕	-11.7504
運籌	-11.7504
舶	-11.7504
浙江烏程人	-11.7504
提督駐	-11.7505
日加承㫖	-11.7506
欽此欽遵	-11.7506
罷知樞宻院事	-11.7507
銅印	-11.7507
均逸	-11.7507
仰瞻	-11.7509
直秘閣	-11.7509
鴛	-11.751
江南華亭	-11.751
沈約	-11.751
宣徳六年	-11.7512
杲	-11.7512
陳俊卿	-11.7513
南京吏部尚書	-11.7513
小底	-11.7513
江南溧陽	-11.7513
右正議大夫	-11.7513
羣倫	-11.7514
記誦	-11.7514
直柔	-11.7514
閏三月	-11.7515
保寧	-11.7516
星變	-11.7516
鉅典	-11.7517
送史館	-11.7517
照前例	-11.7517
耆舊	-11.7517
青緑	-11.7518
降輅	-11.7519
孝宗皇帝	-11.7521
殆盡	-11.7521
選拔	-11.7522
平身樂止	-11.7523
宣城人	-11.7523
隋代	-11.7523
知揚州	-11.7523
江南婁縣人	-11.7523
皇長子	-11.7524
二員正四品	-11.7526
百執事	-11.7526
滿洲鑲黄旗人	-11.7527
音訓	-11.7527
為正使	-11.7529
至元二十五年	-11.7529
流弊	-11.7529
弊端	-11.753
放支	-11.7533
金根	-11.7534
領催	-11.7534
丁香	-11.7535
求去位	-11.7536
三十里	-11.7536
顧忌	-11.7536
驛傳	-11.7537
二十九人	-11.754
謹案北齊	-11.754
貧民	-11.7541
禮待	-11.7541
申尚書省	-11.7542
精微	-11.7543
不貲	-11.7544
曾孫	-11.7544
劉基	-11.7546
南北朝	-11.7547
五綵	-11.7548
納采	-11.7548
廢后	-11.7548
京東	-11.7549
給驛	-11.7549
飛白	-11.755
一百斤	-11.755
教授等官	-11.7553
天順初	-11.7556
爾禮部其	-11.7556
調度	-11.7556
牧養	-11.7556
官属	-11.7557
屯兵	-11.7559
經略	-11.7562
月二十二日	-11.7564
降座	-11.7565
優厚	-11.7565
清寧	-11.7565
演習	-11.7565
睿宗廟	-11.7566
優免	-11.7566
馬愉	-11.7566
願就	-11.7566
又議准	-11.7567
政柄	-11.7568
沈該	-11.7572
行亞獻禮行終獻禮	-11.7572
奉神主	-11.7573
景福	-11.7575
守司空	-11.7576
御營使	-11.7577
文移同	-11.7578
遣還	-11.7578
都邑	-11.758
詣文華殿	-11.7581
難矣	-11.7582
景皇帝	-11.7583
都提舉	-11.7588
學士楊溥	-11.7588
左僕射兼門下侍郎	-11.7589
多艱	-11.759
次日早	-11.7591
頒厯	-11.7591
泉府	-11.7592
布政司按察司	-11.7596
納妃	-11.7598
贊導	-11.7598
朔望日	-11.7598
端揆	-11.7599
尺七寸	-11.7599
遣内侍	-11.76
考訂	-11.7602
贊禮贊	-11.7604
謨明	-11.7607
詔誥	-11.7608
書殿之	-11.7608
䕶送	-11.761
南直𨽻	-11.761
夏四月	-11.761
海陵	-11.7611
翰林侍讀學士	-11.7611
燕山	-11.7611
髙昌	-11.7614
職官類	-11.7615
衆職	-11.7615
圖畫	-11.7616
失序	-11.7616
全賞	-11.762
理㑹	-11.7621
和聲	-11.7625
蕭何	-11.7626
著他襲	-11.7631
丑進士	-11.7631
向來	-11.7632
改調	-11.7635
七品明伯克一人	-11.7635
之軄	-11.7637
黎民	-11.7637
萬全	-11.764
除樞密副使	-11.7641
富民	-11.7641
執事者舉	-11.7642
精選	-11.7644
謹身	-11.7646
右春坊大學士	-11.7647
未滿	-11.7647
後三日	-11.7651
龍朔二年	-11.7652
宗紀	-11.7652
北海	-11.7652
注引	-11.7653
講和	-11.7655
服滿	-11.7656
奉聖㫖准他替	-11.7659
上庠	-11.766
未到	-11.766
七十七	-11.7662
印章	-11.7662
聖語	-11.7664
政體	-11.7667
館選	-11.7673
吉士	-11.7674
處仁	-11.7674
獨留	-11.7677
學士解縉	-11.7678
厯日	-11.7679
不讀祝	-11.768
南北兩	-11.7681
大閲	-11.7686
除端明殿學士	-11.7686
起貢	-11.7688
永固	-11.7688
光華	-11.7689
衛指揮使司	-11.769
事勢	-11.7692
行亞獻禮	-11.7699
十二衛	-11.7702
請名封	-11.7702
正徳六年	-11.7702
知會	-11.7702
通典晉	-11.7703
避位	-11.7703
王溥	-11.7706
春宫	-11.7707
嫡長男李	-11.7709
一把	-11.7712
吳充	-11.7717
吏卒	-11.772
元旦	-11.7726
重情	-11.7726
食料	-11.7726
是年八月罷	-11.7728
厥位	-11.7728
天啓四年任	-11.773
附載	-11.773
行中書省	-11.773
浙東	-11.7731
學識	-11.7735
閏八月	-11.7736
太僕卿	-11.7737
釋奠先師	-11.7738
正五品下	-11.7738
兵權	-11.7739
多羅	-11.7739
侍奉	-11.7739
修身	-11.7741
要路	-11.7743
林院	-11.7745
安得不	-11.7745
直𨽻府州	-11.7747
周詳	-11.7747
答曰	-11.7749
大祀天地	-11.775
禮部奏請	-11.7756
大學士楊榮	-11.7758
感激	-11.7758
河間府	-11.7759
漸多	-11.776
勢必	-11.7766
壇廟	-11.777
修補	-11.7771
寳訓	-11.7773
激勸	-11.7778
犢一	-11.7781
福建晉江	-11.7782
諸番	-11.7785
一楹	-11.7791
恭候	-11.7792
成效	-11.7793
年繇主客司	-11.7798
統軍司	-11.7801
思誠	-11.7803
大徳二年	-11.7806
儀制司主事	-11.7808
大夫咸亨	-11.7811
殿陛	-11.7812
責任	-11.7812
這等	-11.7813
衣裳	-11.7818
他職	-11.7818
予治	-11.7821
昊天上帝	-11.7821
憂國	-11.7825
屯騎	-11.7825
殺死	-11.7828
祭享	-11.7833
上章乞	-11.7833
分曹	-11.7838
吉安	-11.7839
城郭	-11.7841
相闗	-11.7842
司牧	-11.7845
大明門	-11.7848
千餘人	-11.7848
等因題奉聖㫖	-11.7854
忠勤	-11.7863
午門内	-11.7866
天順七年	-11.7867
八千	-11.7874
永樂時	-11.7878
猶可	-11.7881
轉相	-11.7884
車府令	-11.7884
士竒曰	-11.7884
數十年	-11.7889
時已有	-11.7891
章句	-11.7893
右僉都御史	-11.7893
是年四月	-11.7895
變法	-11.7897
繼母	-11.7907
即如今之	-11.7908
考較	-11.7911
二年改為	-11.7911
藩封	-11.7914
扵此	-11.7917
工程	-11.7917
佐貳官	-11.7924
時勉	-11.7928
千百	-11.7928
相似	-11.7933
講案	-11.7937
長史等官	-11.7942
五隻	-11.7942
已来	-11.7949
府長史司	-11.796
驍	-11.7963
三十卷	-11.7965
雍正八年	-11.7966
籩豆各十	-11.7968
杖一百	-11.7978
妻子	-11.7978
勲位	-11.7979
孰不	-11.7984
預聞	-11.7984
聽政	-11.7997
累章	-11.8007
竊謂	-11.8008
御拜位	-11.8009
藎	-11.8009
宋真宗	-11.801
戯	-11.801
最後	-11.8011
陕	-11.802
期限	-11.802
歙	-11.8022
諱改	-11.8031
役法	-11.8032
奈	-11.8033
雒	-11.8034
従九品下	-11.8036
有未盡	-11.8036
優異	-11.8039
前期三日	-11.8041
後苑	-11.8043
澆	-11.8044
古訓	-11.8044
漢人二人	-11.8045
鳥獸	-11.8045
譙	-11.8045
羅衣一套	-11.8046
鉗	-11.8047
翣	-11.8048
再照	-11.8049
完顔	-11.8049
就教職	-11.8049
山呼	-11.805
肴	-11.805
琉璃瓦	-11.8051
諸衙門	-11.8051
茗	-11.8051
儀是日	-11.8051
札薩克	-11.8052
慨	-11.8052
大長秋	-11.8052
賡歌	-11.8052
冇	-11.8052
時政記	-11.8052
褙	-11.8053
趨蹌	-11.8053
一尺五寸	-11.8054
夕月壇	-11.8054
主簿掌印	-11.8055
窘	-11.8055
单	-11.8055
乍	-11.8055
廵狩	-11.8055
領隊大臣	-11.8056
麫	-11.8056
糗	-11.8056
塋	-11.8056
塾	-11.8056
降為庶人	-11.8056
象胥	-11.8057
坻	-11.8057
三國吳志	-11.8057
台浤	-11.8057
羸	-11.8057
乞要比照	-11.8057
慈懿皇太后	-11.8057
蝕	-11.8057
明安穆昆	-11.8058
柷	-11.8058
千總把總	-11.8058
張家灣	-11.8058
交阯	-11.8059
幞頭	-11.8059
抒	-11.8059
七斤	-11.8059
来京	-11.8059
鐲	-11.806
兵部左侍郎	-11.806
咏	-11.806
叱	-11.806
塌	-11.806
巡邏	-11.8061
縮	-11.8061
娼	-11.8061
行兩拜禮	-11.8061
堯舜禹湯文武	-11.8061
曼	-11.8061
侁	-11.8061
市買	-11.8061
愽	-11.8061
文選司缺冊内查得成化	-11.8061
菊	-11.8061
郯	-11.8061
知洪州	-11.8062
奉欽依准令冠帶就彼到任管事	-11.8062
禜	-11.8062
大興宛平	-11.8063
炫	-11.8063
都察院右副都御史	-11.8063
翬	-11.8063
煮	-11.8063
終獻寧和	-11.8063
敖	-11.8063
痊	-11.8063
孝穆皇太后	-11.8063
石珤	-11.8063
户科給事中	-11.8063
煩凟	-11.8064
楊守陳	-11.8064
内禮部題該	-11.8064
皇初祖	-11.8064
匏	-11.8064
摛	-11.8065
咨都察院轉行	-11.8065
二丈五尺	-11.8065
塑像	-11.8065
韭	-11.8065
奐	-11.8065
脊	-11.8065
燄	-11.8065
講義	-11.8065
苾	-11.8066
淇	-11.8066
綉	-11.8066
燎爐	-11.8066
開元二十五年	-11.8066
阿哈瑪特	-11.8066
億兆	-11.8066
縵	-11.8067
嶽瀆	-11.8067
尚藥局	-11.8067
蟒	-11.8067
隠匿	-11.8067
櫝	-11.8067
禁錮	-11.8067
栢梁	-11.8067
瞿	-11.8067
石林燕語	-11.8067
翰詹	-11.8068
刃	-11.8068
木輅	-11.8068
天行道肇紀立極大聖至神仁文義武俊	-11.8068
制曰王者	-11.8069
平章軍國事	-11.8069
慕容	-11.8069
守捉	-11.8069
假借	-11.8069
伏羲	-11.8069
檐	-11.807
夔	-11.807
霈	-11.807
劉珝	-11.807
凜	-11.8071
冗濫	-11.8071
壮	-11.8071
嬉	-11.8071
知潭州	-11.8071
素服烏紗帽黑角帶	-11.8071
承運庫	-11.8071
針	-11.8071
幸際	-11.8072
胸	-11.8072
填註	-11.8072
翰苑羣書	-11.8072
雨露	-11.8072
繕冩	-11.8073
防範	-11.8073
祜	-11.8073
閏十一月	-11.8073
宮牆	-11.8073
嘉議大夫	-11.8074
大理評事	-11.8074
洮州	-11.8074
續文獻	-11.8074
帶領引見	-11.8074
矛盾	-11.8074
四川巴縣人	-11.8075
蛟	-11.8075
崇政殿	-11.8075
題准事例	-11.8075
山東山西河南	-11.8075
伊父	-11.8075
鏗	-11.8075
兔醢	-11.8075
未遑	-11.8075
上表謝恩	-11.8075
謂侍臣曰	-11.8075
居相位	-11.8075
南京守備	-11.8076
藩臬	-11.8076
𢋫	-11.8076
宇宙	-11.8076
體貎	-11.8076
旦夕	-11.8076
閶闔	-11.8076
軍民之家	-11.8077
切皆曰	-11.8077
焕	-11.8077
騤	-11.8078
汪諧	-11.8078
蔽膝隨裳色	-11.8078
東閣大學士	-11.8078
彩畫	-11.8078
思善門外	-11.8078
咱	-11.8078
儒學訓導	-11.8079
㸔詳	-11.8079
恩㧞副	-11.8079
少卿寺丞	-11.8079
眞君	-11.8079
鳥鎗	-11.8079
繪圖	-11.8079
邇英	-11.8079
滿剌加	-11.808
亞中大夫	-11.808
浙西	-11.808
芽	-11.808
至順二年	-11.808
綸音	-11.8081
謂輔臣曰	-11.8081
至元三十一年	-11.8081
戊己校尉	-11.8081
大學士劉健	-11.8081
僧格	-11.8081
挈壺正	-11.8081
督捕	-11.8081
年繇精膳司主事陞任	-11.8081
珍珠	-11.8081
永徽中	-11.8082
直長正八品	-11.8082
第四日	-11.8082
孟津	-11.8082
代天工	-11.8082
選委	-11.8082
殺賊有功	-11.8082
喪葬	-11.8083
杰	-11.8083
草創	-11.8084
祈福	-11.8084
酢	-11.8085
浙江嘉興	-11.8085
通贊唱	-11.8086
鳯翔	-11.8086
東宫官屬	-11.8087
襲封王爵	-11.8087
本部查得	-11.8087
感悟	-11.8087
廵察	-11.8088
岀	-11.8088
田産	-11.8088
成化間	-11.8089
江都人	-11.8089
渙號	-11.8089
頂補	-11.8089
今後各王府	-11.809
精熟	-11.809
歐陽徳	-11.809
冡司	-11.809
丹徒	-11.809
不及一年	-11.8091
飯食	-11.8091
佛寺	-11.8092
申棖	-11.8092
田宅	-11.8092
大成門外	-11.8093
小王子	-11.8093
略無	-11.8093
戊戌庶吉士	-11.8094
閽人	-11.8094
統攝	-11.8095
橋梁	-11.8097
江南宜興	-11.8097
古者天子	-11.8097
告治朝	-11.8097
推算	-11.8099
滿助教	-11.8099
抽分	-11.8099
稽勲	-11.81
顔色	-11.81
穿堂	-11.81
㑹典云凡	-11.8101
鄉㑹試	-11.8101
繅	-11.8101
查核	-11.8104
永樂以後	-11.8104
奏請定奪	-11.8104
務遵	-11.8105
不得預	-11.8105
順治二年	-11.8105
大司成	-11.8106
司直郎	-11.8106
謚號	-11.8108
勞費	-11.8108
東京留守	-11.8109
籍帳	-11.8112
不許擅	-11.8114
講讀學士	-11.8114
拿問	-11.8115
政塗	-11.8115
章懋	-11.8115
未足以	-11.8117
初八日	-11.8118
違越	-11.8119
薊州	-11.812
卒年八十	-11.8121
延祐六年	-11.8121
萬厯八年	-11.8121
樂歌	-11.8121
忠藎	-11.8122
犢一隻	-11.8122
正典刑	-11.8123
縣主簿	-11.8123
登歌	-11.8126
紛然	-11.8127
罪狀	-11.8127
至元十六年	-11.813
天下府州縣	-11.813
逮問	-11.813
孝弟	-11.8131
天錫	-11.8131
督運	-11.8131
停免	-11.8131
政事堂	-11.8131
品第六	-11.8132
二十五斤	-11.8133
倉督	-11.8133
自古帝王	-11.8133
重囚	-11.8134
長幼	-11.8134
封疆	-11.8137
彌逺	-11.8138
御膳	-11.8139
兼侍讀除	-11.8139
合回避	-11.814
侍女	-11.814
内簾	-11.8141
于圜丘	-11.8142
河防	-11.8142
告猷	-11.8142
卓然	-11.8144
每歳	-11.8145
懲治	-11.8145
准議	-11.8146
郡王將軍	-11.8147
妃李氏	-11.8147
皇城司	-11.8148
景雲	-11.815
展親	-11.8151
均勞	-11.8152
折衝府	-11.8153
䑓諫	-11.8153
毎旗	-11.8154
校對	-11.8154
李迪	-11.8154
貢期	-11.8156
雅志	-11.8156
徐階	-11.8156
管轄	-11.8158
錄事一人	-11.8158
杜氏	-11.8159
御西角門	-11.8159
鼓篋	-11.816
輿馬	-11.816
取索	-11.8162
月初六日	-11.8163
西番	-11.8164
下大夫二人	-11.8167
輿論	-11.8167
台州	-11.8169
須要	-11.8169
稍異	-11.817
主簿録事	-11.817
米五斗	-11.8171
華夏	-11.8173
遣官代	-11.8174
雨師	-11.8174
違者許	-11.8175
宫尹	-11.8176
章程	-11.8176
秘監	-11.8178
西畨	-11.8178
十六卷	-11.8181
音義	-11.8182
執事者設	-11.8184
僣用	-11.8187
思慮	-11.8187
調吏部	-11.819
增廣	-11.8191
科第	-11.8191
地界	-11.8193
降調	-11.8194
祠廟	-11.8194
親王之國	-11.8196
忌日	-11.8196
監少監	-11.8199
洪武二十五年	-11.8201
受賀	-11.8202
貽永	-11.8204
無所不至	-11.8205
崇文門	-11.8205
論罪	-11.8206
毎員	-11.8206
兩旁	-11.8208
謝表	-11.8209
罪囚	-11.8212
内閣中書	-11.8212
不渝	-11.8213
參贊	-11.8215
延祐五年	-11.8216
待嫡	-11.8218
建太學	-11.822
督理	-11.8223
空名	-11.8223
髙第	-11.8224
添入	-11.8227
提刑按察司	-11.8227
至文華殿	-11.8228
風聲	-11.8228
胡氏	-11.8236
不軌	-11.8239
鎮各一人	-11.824
不可廢	-11.8241
故牒	-11.8242
踰一年	-11.8243
内批	-11.8246
嗣服	-11.8246
孔目官	-11.8246
一千一百	-11.8247
可惜	-11.825
從征	-11.8251
副將軍	-11.8253
致太平	-11.8253
宴樂	-11.8254
軍司馬	-11.8257
詳審	-11.8258
百物	-11.8258
清查	-11.8258
者多矣	-11.826
工尺合四	-11.826
宗皇帝實録	-11.8263
於是乎	-11.8268
殿前司	-11.8269
也宋宋史職官志	-11.8269
舉手	-11.8273
維持	-11.8274
御筵	-11.8279
掌府事	-11.8279
銓用	-11.8279
開局	-11.8279
地里	-11.828
漠南	-11.8287
杜充	-11.8288
體訪	-11.8295
闗給	-11.8295
課業	-11.8297
掌事者	-11.8299
贊讀祝	-11.8301
定策	-11.8304
情願	-11.8311
桓帝	-11.8312
𢎞治初	-11.8317
政績	-11.8321
一百名	-11.8323
奉天府	-11.8324
内賛導上	-11.8325
講習	-11.8326
重寄	-11.8328
講説	-11.8328
頗多	-11.8329
悉照	-11.8332
金水橋南	-11.8334
舉其職	-11.8335
詣奉先殿	-11.8337
卒於官	-11.8341
皇髙祖	-11.8341
似難	-11.8348
最重	-11.8348
自為一	-11.8349
傳諭	-11.8351
紹聖初	-11.8352
謹案秦	-11.8354
者不准	-11.8359
翰林醫	-11.836
乾隆八年	-11.8374
百代	-11.8375
欽定厯代職官表卷六十	-11.8377
嘉定人	-11.8378
位育	-11.8378
鼓鑄	-11.8383
淑妃	-11.8386
對曰臣	-11.8386
奏曰臣	-11.8393
建炎四年	-11.8396
天性	-11.8397
以其為	-11.84
一片	-11.8401
元豐五年	-11.8404
追究	-11.8406
一員從八品	-11.8406
至奉天殿	-11.841
二員正八品	-11.8414
助教學正學録	-11.8415
無一不	-11.8417
主考官	-11.842
孤卿	-11.8421
弟子員	-11.8422
故男楊	-11.8426
調發	-11.8434
司農少府	-11.8436
遵祖訓	-11.8437
禁防	-11.844
東西北向	-11.8441
預備	-11.8448
科給事中	-11.8449
開寫	-11.8461
管勾二員	-11.8461
各屬官	-11.8472
㑹勘	-11.8472
匠役	-11.8474
承天門外	-11.8478
黑角帶	-11.848
于龍亭	-11.8485
尊諡曰	-11.8485
太樂令	-11.8487
授依前	-11.8488
武散官	-11.8493
除門下侍郎	-11.8507
碑亭	-11.8511
錢鈔	-11.8514
一尺四寸	-11.8515
俱北向	-11.8519
陞侍講	-11.8528
賛出笏	-11.8532
越騎	-11.8542
嘉靖四十一年	-11.8551
母喪	-11.8555
官員子弟	-11.856
再犯	-11.8564
羽儀	-11.8565
十六年正月	-11.8568
馬牛	-11.8575
至元二十	-11.8577
嘉靖二十七年	-11.8587
司匠	-11.8588
傳贊衆	-11.8589
孫男	-11.8593
唐書百官志	-11.8595
詹事院	-11.8601
親製	-11.8603
男婦	-11.8603
也元元史百官志	-11.8606
捧表	-11.8612
州别駕	-11.8613
皇朝因之龍朔	-11.8617
奉聖諭	-11.8619
尺一合四	-11.862
可行者	-11.8622
不許濫	-11.8629
順天大興	-11.8629
限年	-11.8636
四拜興平身樂止	-11.8648
等處行中書省	-11.8654
于丹陛上	-11.8655
昭垂	-11.8656
永樂十年	-11.8657
率其屬以	-11.8658
馬端臨	-11.8661
畤	-11.8663
各王嵗支禄米初封二千石襲封一千石	-11.8663
幕府	-11.8665
食官令	-11.8665
賜紫金魚袋	-11.8665
户部郎中	-11.8666
第五琦	-11.8666
鎛鐘	-11.8667
厦	-11.8669
絁	-11.867
門其内曰	-11.867
蠡	-11.8671
獅	-11.8671
窟	-11.8672
蜡	-11.8672
菜四色	-11.8672
亢旱	-11.8673
騏驥	-11.8673
燈燭	-11.8673
訶	-11.8675
箎	-11.8675
國子監司業	-11.8675
斟	-11.8676
熺	-11.8677
主事二人從九品上	-11.8677
斜	-11.8677
潦	-11.8678
棣	-11.8678
禦侮	-11.8679
烏紗帽	-11.8679
焯	-11.868
輓	-11.868
奉中書省劄付	-11.868
猪肉	-11.868
伶	-11.868
鄂爾泰	-11.868
襍	-11.8681
汶	-11.8681
寀	-11.8681
胷	-11.8681
難准	-11.8681
麓	-11.8681
辨其名物	-11.8681
薑	-11.8682
唆	-11.8682
㝠器	-11.8682
涪	-11.8683
裾	-11.8683
捲	-11.8683
初學記	-11.8684
埴	-11.8684
電	-11.8684
楞	-11.8685
舒庫爾齊	-11.8685
旅賁	-11.8685
椽	-11.8685
沸	-11.8686
至順元年	-11.8686
蒔蘿	-11.8686
筆且齊	-11.8686
蠱	-11.8686
三分之一	-11.8686
寥	-11.8686
澂	-11.8686
珥筆	-11.8687
奉中書省判送	-11.8687
慟	-11.8687
辨其名數	-11.8687
王汝玉	-11.8687
某年某月某	-11.8687
罇	-11.8687
爍	-11.8687
邏	-11.8688
葉方藹	-11.8688
闇	-11.8688
得㫖允行	-11.8688
方獻夫	-11.8688
吕頥浩	-11.8688
左春坊左庶子	-11.8689
武軍節度使	-11.8689
謇	-11.8689
賛禮賛	-11.869
楚雄	-11.869
聖子神孫	-11.869
成賢街	-11.869
稽核	-11.869
迎帝神	-11.869
分為四	-11.869
文武百官具朝服	-11.869
眡	-11.869
售	-11.8691
洪武年間	-11.8691
鷹揚	-11.8691
贊引引獻官	-11.8691
曽棨	-11.8691
禮部尚書陶凱	-11.8691
八兩燭八枝四兩燭	-11.8691
讚	-11.8691
乾興元年	-11.8692
同堂異室	-11.8692
邊陲	-11.8692
汧	-11.8692
櫛	-11.8692
啟聖公	-11.8692
四書五經	-11.8692
館閣校勘	-11.8692
菁菜	-11.8693
鑲白旗	-11.8693
虎豹	-11.8693
安撫大使	-11.8693
樂作禮畢樂止	-11.8693
瘍	-11.8693
掌貳	-11.8693
兩宫皇太后	-11.8693
索諾木	-11.8693
寰宇	-11.8693
花椒	-11.8693
丞二人主簿一人	-11.8693
鞠躬四拜興平身	-11.8693
經史子集	-11.8694
扺	-11.8694
特磬	-11.8694
濱	-11.8694
鄉飲酒禮	-11.8694
稜	-11.8694
腿	-11.8694
比千石	-11.8695
誓戒	-11.8695
浙江餘姚縣人	-11.8695
通事舎人	-11.8695
竑	-11.8695
内官内使	-11.8695
文林郎	-11.8695
胡安國	-11.8695
樓船	-11.8695
都虞司	-11.8695
不饒欽此	-11.8696
三老五更	-11.8696
三師三少	-11.8696
知無不為	-11.8696
十哲兩廡	-11.8696
貞烈	-11.8696
周天星辰	-11.8697
輟朝三日	-11.8697
二十七日而除	-11.8697
奉訓大夫	-11.8697
未央宫	-11.8697
顧鼎臣	-11.8697
霤	-11.8697
馘	-11.8697
太府寺統	-11.8697
治禮郎	-11.8697
自慶歴	-11.8697
冬至節	-11.8698
徇私	-11.8698
萬億	-11.8698
藥餌	-11.8698
墩	-11.8698
永樂甲申	-11.8698
謟	-11.8698
琬琰	-11.8698
剽	-11.8698
加元服	-11.8698
痛革	-11.8698
執政凡二年	-11.8699
程顥	-11.8699
万俟卨	-11.8699
俸餉	-11.8699
總攬	-11.8699
兩京鄉試	-11.8699
付託	-11.8699
銅鐵	-11.8699
冗員	-11.8699
差徭	-11.87
夾帶	-11.87
噬	-11.87
鑲紅旗	-11.87
嘉靖九年十二月	-11.87
鸞旗	-11.87
慧	-11.8701
紂	-11.8701
我太祖髙皇帝	-11.8701
真臘	-11.8701
欽定四庫全書宋宰輔編年録卷	-11.8701
范質	-11.8701
鳴鞭訖	-11.8701
怕	-11.8701
判河南府	-11.8702
樗	-11.8703
耆老人等	-11.8703
釋奠先師孔子	-11.8703
宋濂	-11.8704
五城兵馬司	-11.8704
龎籍	-11.8704
戕	-11.8705
瀛臺	-11.8705
鄉村	-11.8705
永樂十八年	-11.8705
推鞫	-11.8705
管束	-11.8705
紫微	-11.8705
洪武間定	-11.8705
搏	-11.8705
嶺北	-11.8706
魚符	-11.8707
煖閣	-11.8707
掃地	-11.8707
為詳備	-11.8707
胞	-11.8707
侍儀司設	-11.8707
馴致	-11.8707
不必拘	-11.8708
南靣	-11.8708
髦士	-11.8708
分奠官	-11.8708
祕書少監	-11.8708
黄蠟	-11.8708
天潢	-11.8708
畿甸	-11.8708
雜畜	-11.8708
直昭文館	-11.8709
庻長子	-11.8709
毉	-11.871
蔡襄	-11.871
著作局	-11.871
增損	-11.8711
城門郎	-11.8711
恭讓	-11.8711
大學士九卿	-11.8711
仁宗即位	-11.8712
裴度	-11.8712
姑洗	-11.8712
汪由敦	-11.8713
夕月	-11.8713
矛	-11.8713
紹熈	-11.8713
俳長	-11.8713
二品以上	-11.8714
受賂	-11.8714
貴戚	-11.8714
斿	-11.8714
所在有司	-11.8714
幣帛	-11.8715
光祿卿	-11.8715
黎庶	-11.8716
用紅緑羅銷	-11.8716
順天府尹	-11.8716
端午	-11.8716
催科	-11.8717
典屬國	-11.8717
渾儀	-11.8717
奉議大夫	-11.8717
抗章	-11.8718
阿衡	-11.8718
董倫	-11.8718
住坐	-11.8718
優游	-11.8718
嘉謨	-11.8718
禁旅	-11.8719
春秋釋奠	-11.872
浙江㑹稽人	-11.8721
毎匹	-11.8721
尺四合	-11.8721
唐恪	-11.8721
行八拜禮畢	-11.8722
觶	-11.8722
喜怒	-11.8722
孟秋	-11.8723
台衡	-11.8723
錢五分	-11.8723
闗税	-11.8723
陜西涇陽人	-11.8724
旂常	-11.8725
宣徳間	-11.8725
紵絲羅	-11.8725
勉從	-11.8726
路置司	-11.8726
鐘磬	-11.8727
調撥	-11.8727
春夏	-11.8728
縣尉	-11.8728
機庭	-11.8728
接待	-11.8729
輿情	-11.8729
對引官	-11.873
感動	-11.873
數千里	-11.873
提要	-11.873
饌盤	-11.8731
朱裏	-11.8731
滿洲正白旗人	-11.8731
一丈二尺	-11.8732
藝文志	-11.8734
井賦	-11.8734
依品級	-11.8735
縁邊	-11.8735
判狀	-11.8736
舉措	-11.8737
葉盛	-11.8737
何執中	-11.8738
奪情	-11.874
神版	-11.8741
園陵	-11.8742
内禪	-11.8743
宸章	-11.8743
匠師	-11.8744
勲衛	-11.8745
私意	-11.8745
伯彦	-11.8746
真儒	-11.8747
綱維	-11.8748
畨語	-11.8751
度支尚書	-11.8751
夷情	-11.8752
齋房	-11.8752
唐新唐書百官志	-11.8752
公車令	-11.8752
力争	-11.8753
未决	-11.8754
閨門	-11.8755
二百餘	-11.8755
效尤	-11.8755
拜樞宻使	-11.8756
左蔵	-11.8756
慶雲	-11.8757
聖謨	-11.8759
几筵前	-11.8761
獸醫	-11.8761
懿親	-11.8763
借職	-11.8763
訪保	-11.8765
福敏	-11.8766
條格	-11.8766
出牓	-11.8766
品第四	-11.8767
仰體	-11.8767
辭不拜	-11.8768
華夷	-11.8768
康濟	-11.877
木邦	-11.877
季終	-11.8772
謹案唐制	-11.8772
第四品上	-11.8772
吾皇	-11.8772
至元二十七年	-11.8774
神機	-11.8774
詩一章	-11.8774
所需	-11.8775
肅肅	-11.8777
該襲	-11.878
懐化	-11.8781
寛恩	-11.8781
御便殿	-11.8782
潤州	-11.8783
呼萬嵗	-11.8784
罷右僕射	-11.8784
闗支	-11.8785
勲業	-11.8785
造册	-11.8786
並叅知政事	-11.8786
希賢	-11.8788
偶然	-11.8789
刑法志	-11.8789
昨日	-11.879
少府屬官	-11.8791
兼樞宻使	-11.8792
林鍾	-11.8792
英才	-11.8795
禮部題請	-11.8796
四百六十	-11.8797
濟川	-11.8798
五官正	-11.8799
殊恩	-11.8802
待報	-11.8803
宏逺	-11.8804
永泰	-11.8806
王炎	-11.881
仍其舊	-11.8811
漢唐宋	-11.8811
回京	-11.8811
恩賚	-11.8813
陵寝	-11.8813
大徳六年	-11.8818
景德	-11.8819
裁處	-11.8819
金牌	-11.8821
進箋	-11.8821
背書	-11.8824
内謁者	-11.8824
差來人	-11.8825
中任終	-11.8827
封王爵	-11.883
羣吏	-11.883
變化	-11.883
各直省	-11.8832
專權	-11.8835
自恣	-11.8835
永樂十四年	-11.884
顯著	-11.8841
南苑	-11.8843
歲貢生員	-11.8843
速香一斤	-11.8843
出笏俯伏興	-11.8845
大徳七年	-11.8846
變異	-11.8846
㕔堂	-11.8853
刑政	-11.8853
心腹	-11.8854
致詞云	-11.8856
照臨	-11.8859
亞獻禮終獻禮	-11.8862
配食	-11.8865
庶工	-11.8865
能否	-11.8869
崇寜	-11.8871
垂萬世	-11.8873
隋志	-11.8876
宣表官	-11.8886
不知何	-11.8891
職專	-11.8896
累月	-11.8897
授特進	-11.8898
隨駕	-11.8901
左春坊大學士	-11.8901
照勘	-11.8904
秩正三品掌	-11.8905
世宗雍正	-11.8909
有㫖令	-11.891
倡和	-11.8913
洪武二十七年	-11.8916
天下之士	-11.8918
鴻臚寺官引	-11.8921
差錯	-11.8921
檢舉	-11.8922
[...]
