<unk>	0
<s>	0
</s>	0
之	-4.4371
(	-4.80891
/	-4.93653
有	-5.16766
為	-5.17444
云	-5.234
)	-5.25099
也	-5.26273
以	-5.31019
詩	-5.34176
人	-5.36512
而	-5.41537
不	-5.4803
一	-5.55046
其	-5.58876
中	-5.72466
者	-5.72596
曰	-5.78213
/)	-5.8061
無	-5.85156
如	-5.85888
作	-5.88202
於	-5.94345
山	-5.94471
)(	-5.95131
與	-5.95565
自	-5.97412
時	-5.97705
子	-5.99716
此	-6.06758
在	-6.07277
上	-6.07712
書	-6.08186
字	-6.1145
公	-6.14982
見	-6.16035
天	-6.17656
王	-6.19296
得	-6.22235
言	-6.24875
大	-6.27295
文	-6.29405
出	-6.29556
又	-6.2963
行	-6.30848
日	-6.33082
事	-6.33613
生	-6.33806
三	-6.3391
來	-6.34026
則	-6.34377
花	-6.34854
水	-6.35265
亦	-6.36119
風	-6.36979
是	-6.37096
下	-6.38381
皆	-6.40022
後	-6.40369
名	-6.40446
長	-6.40826
春	-6.41953
歸	-6.44117
雲	-6.44641
至	-6.44937
然	-6.45236
入	-6.47017
道	-6.47112
相	-6.49672
多	-6.49894
故	-6.49992
所	-6.50027
知	-6.50211
▁	-6.56146
李	-6.56577
非	-6.57988
詩云	-6.59485
清	-6.59877
同	-6.60665
去	-6.61568
矣	-6.6233
家	-6.62371
欲	-6.62524
君	-6.6436
心	-6.64721
于	-6.66558
月	-6.66779
石	-6.67289
老	-6.67563
乃	-6.67831
成	-6.68252
正	-6.68521
用	-6.68934
髙	-6.69031
未	-6.69264
意	-6.69399
可	-6.69813
已	-6.70416
今	-6.70944
方	-6.73631
傳	-6.7391
前	-6.74186
官	-6.74233
若	-6.7443
何	-6.76141
集	-6.76546
語	-6.76583
題	-6.77146
初	-6.77322
州	-6.77636
玉	-6.7769
謂	-6.77805
聲	-6.77933
因	-6.78188
白	-6.78868
古	-6.79751
元	-6.799
金	-6.80329
新	-6.80416
空	-6.80639
爲	-6.80752
小	-6.80905
我	-6.81679
張	-6.81923
明	-6.82183
客	-6.82655
過	-6.83428
當	-6.83544
盡	-6.85886
寒	-6.85989
二	-6.86353
深	-6.87645
句	-6.89435
從	-6.8984
聞	-6.90167
門	-6.90637
秋	-6.92357
復	-6.9247
能	-6.93011
重	-6.93708
開	-6.93971
酒	-6.94564
逺	-6.95075
南	-6.96168
香	-6.96302
思	-6.96441
唐	-6.96472
陳	-6.9681
飛	-6.97108
夜	-6.97526
處	-6.97952
似	-6.97986
江	-6.99114
馬	-6.99221
和	-6.99577
西	-6.99734
及	-6.99847
雨	-6.99872
世	-7.00501
黄	-7.01225
將	-7.01781
耳	-7.02913
龍	-7.03544
獨	-7.04617
使	-7.04714
歌	-7.04738
居	-7.04909
觀	-7.05255
好	-7.05395
地	-7.054
本	-7.05453
東	-7.06706
更	-7.06808
起	-7.07441
朝	-7.07577
林	-7.07689
五	-7.07757
樂	-7.08728
賦	-7.08972
間	-7.09024
令	-7.0916
舊	-7.09198
平	-7.09318
對	-7.09531
年	-7.09805
先	-7.11147
四	-7.1159
劉	-7.11654
氣	-7.12228
學	-7.12267
雖	-7.12349
問	-7.12417
漢	-7.12603
還	-7.13177
國	-7.1328
即	-7.14037
真	-7.1409
應	-7.14263
光	-7.14726
青	-7.15827
雪	-7.15827
高	-7.15878
别	-7.16191
流	-7.16331
望	-7.17089
分	-7.17581
取	-7.17654
頭	-7.17879
難	-7.18264
兩	-7.18661
寄	-7.18768
少	-7.19098
情	-7.19294
色	-7.19756
論	-7.19787
常	-7.20037
落	-7.20521
紅	-7.21474
猶	-7.21551
仙	-7.21614
城	-7.2178
竹	-7.22076
路	-7.22349
遊	-7.22527
辭	-7.22769
送	-7.23676
惟	-7.24846
數	-7.2509
安	-7.25212
嘗	-7.26182
乎	-7.26192
宫	-7.2762
夢	-7.27813
衣	-7.2786
臣	-7.2802
身	-7.28032
經	-7.28184
華	-7.28404
命	-7.28431
稱	-7.28595
閒	-7.28824
外	-7.28841
巳	-7.29016
或	-7.29032
樹	-7.29046
贈	-7.29254
志	-7.29301
坐	-7.29311
草	-7.29363
立	-7.29672
遂	-7.29781
僧	-7.3017
巻	-7.30186
始	-7.30292
士	-7.30544
到	-7.32084
女	-7.32432
九	-7.32657
謝	-7.32972
死	-7.33353
周	-7.33368
向	-7.33959
神	-7.34144
曲	-7.34345
海	-7.34365
通	-7.34534
且	-7.34743
萬	-7.34789
吾	-7.34961
師	-7.35188
合	-7.36344
詞	-7.36688
莫	-7.36908
宋	-7.38689
寺	-7.38967
善	-7.39096
畫	-7.39878
滿	-7.40403
載	-7.40808
看	-7.41184
手	-7.41706
喜	-7.41813
直	-7.41874
法	-7.42136
不可	-7.42365
景	-7.42643
百	-7.4308
絶	-7.43699
野	-7.44506
物	-7.44545
帝	-7.44709
余	-7.45339
北	-7.45695
章	-7.45954
溪	-7.46143
六	-7.46321
甚	-7.46363
發	-7.46598
以為	-7.46838
必	-7.4718
餘	-7.47224
尚	-7.47506
記	-7.47615
定	-7.47848
近	-7.47944
葉	-7.48197
才	-7.48398
興	-7.48407
魚	-7.4892
隨	-7.49446
易	-7.49905
夫	-7.50001
㑹	-7.50372
愁	-7.50449
氏	-7.50645
韻	-7.50833
焉	-7.50834
豈	-7.51033
東坡	-7.51052
舉	-7.51307
音	-7.51346
松	-7.52071
信	-7.52191
諸	-7.52214
留	-7.52473
陽	-7.52552
登	-7.52741
勝	-7.5355
亭	-7.53677
半	-7.53691
異	-7.53692
著	-7.5387
守	-7.53955
樓	-7.54158
醉	-7.5422
號	-7.54415
臺	-7.54508
十	-7.55004
首	-7.55174
宗	-7.55658
千	-7.56454
引	-7.56497
孫	-7.56524
實	-7.57301
吟	-7.5777
筆	-7.58003
予	-7.58091
既	-7.58643
史	-7.59079
堂	-7.59119
誰	-7.59305
輕	-7.59516
楊	-7.59583
義	-7.59988
不知	-7.60794
但	-7.61117
極	-7.61542
求	-7.62004
遺	-7.62504
節	-7.62805
理	-7.631
秦	-7.63859
終	-7.64369
驚	-7.6525
體	-7.65353
泉	-7.65644
爾	-7.66023
朱	-7.66041
葢	-7.66071
幽	-7.66268
蓋	-7.6673
注	-7.66804
篇	-7.6696
盖	-7.67074
笑	-7.67627
舞	-7.68043
仲	-7.68328
徳	-7.68381
父	-7.68631
八	-7.68683
主	-7.69244
病	-7.69302
七	-7.69449
詠	-7.69622
靈	-7.6967
共	-7.70159
食	-7.70424
許	-7.70563
塵	-7.70923
解	-7.71056
民	-7.71461
度	-7.7181
卿	-7.72007
愛	-7.72223
田	-7.72914
鳥	-7.73301
足	-7.73599
竒	-7.73604
楚	-7.73619
進	-7.73669
不能	-7.73677
按	-7.74323
致	-7.74532
孤	-7.74724
先生	-7.74798
回	-7.74801
郎	-7.74845
讀	-7.74858
池	-7.74932
俗	-7.75019
鳴	-7.75203
圖	-7.7545
燕	-7.75959
便	-7.76004
車	-7.76077
曉	-7.76146
兮	-7.76163
烟	-7.76176
連	-7.76542
如此	-7.76763
休	-7.76785
殿	-7.76929
影	-7.77094
哉	-7.771
要	-7.77255
武	-7.77357
内	-7.77484
臨	-7.77764
指	-7.78222
吳	-7.78312
齊	-7.78456
河	-7.78706
禮	-7.78883
動	-7.78978
說	-7.78996
美	-7.79167
宿	-7.79291
鄭	-7.79295
微	-7.79368
亂	-7.79523
府	-7.79544
杜	-7.7967
尤	-7.79672
疑	-7.79768
邊	-7.79805
録	-7.79883
苦	-7.79966
栁	-7.80421
宜	-7.8044
飲	-7.80489
詩話	-7.80539
游	-7.80758
趙	-7.81168
胡	-7.81249
失	-7.81351
又云	-7.8147
伯	-7.8153
閣	-7.81635
都	-7.8175
力	-7.82431
碧	-7.82529
轉	-7.82698
隂	-7.82709
露	-7.82898
翠	-7.83242
裏	-7.8343
幾	-7.83528
来	-7.83564
梁	-7.8362
懐	-7.83912
斷	-7.84434
太	-7.84687
翁	-7.84687
卒	-7.84716
梅	-7.84816
聖	-7.85134
調	-7.85398
窮	-7.85611
變	-7.85733
星	-7.85768
目	-7.86419
尋	-7.86451
垂	-7.86478
凡	-7.86597
工	-7.86897
晚	-7.87031
却	-7.87048
詩曰	-7.87177
祖	-7.87369
賢	-7.87477
識	-7.87744
任	-7.87821
韓	-7.87928
賜	-7.87971
貴	-7.88068
雙	-7.88116
親	-7.88353
素	-7.88394
波	-7.88433
改	-7.88575
試	-7.88637
破	-7.88795
縣	-7.89377
眼	-7.89599
廣	-7.89667
悲	-7.89735
照	-7.90225
嵗	-7.903
最	-7.90388
散	-7.90721
口	-7.90998
移	-7.9111
徐	-7.91161
恨	-7.91224
霜	-7.91332
曾	-7.91371
所謂	-7.91747
容	-7.91867
紫	-7.92219
枝	-7.92227
説	-7.92535
浮	-7.92554
羅	-7.92644
夏	-7.92661
精	-7.92879
等	-7.92928
煙	-7.93077
火	-7.93167
盛	-7.93212
碑	-7.93656
郡	-7.93891
全	-7.9392
兵	-7.94302
曽	-7.94418
須	-7.94499
雅	-7.94594
之句	-7.94703
結	-7.94727
蘇	-7.94819
陵	-7.95026
叔	-7.95255
每	-7.95476
止	-7.95601
錢	-7.95742
比	-7.96138
木	-7.96182
只	-7.96363
院	-7.96581
德	-7.96737
蜀	-7.96857
隱	-7.96907
沙	-7.97415
請	-7.97716
聽	-7.97771
次	-7.97963
覺	-7.98163
鶴	-7.9818
衆	-7.98395
端	-7.98762
交	-7.98965
橋	-7.99055
表	-7.99125
獻	-7.99184
謂之	-7.99185
放	-7.9926
奏	-7.9949
封	-7.99646
兒	-7.9985
逰	-7.99903
忽	-7.9999
久	-8.00262
妙	-8.00854
殘	-8.01352
耶	-8.01366
緑	-8.01408
此詩	-8.0141
並	-8.01586
英	-8.01666
拜	-8.01698
天下	-8.01809
良	-8.01933
舟	-8.02077
扵	-8.02474
永	-8.03663
序	-8.03774
離	-8.03818
沈	-8.03868
庭	-8.04015
土	-8.04117
類	-8.04208
昔	-8.04462
横	-8.04705
適	-8.04755
遇	-8.04931
帶	-8.04987
藏	-8.05023
薄	-8.05343
齋	-8.05672
化	-8.05863
川	-8.06199
罷	-8.06256
面	-8.06392
鄉	-8.06691
軍	-8.06903
待	-8.06974
不得	-8.06985
里	-8.07021
廟	-8.07082
俱	-8.07172
逢	-8.07256
羣	-8.0731
功	-8.07432
切	-8.07574
顧	-8.08102
就	-8.0822
存	-8.08222
早	-8.08259
巖	-8.08338
閑	-8.08379
服	-8.08624
嚴	-8.09156
修	-8.09211
吹	-8.09235
末	-8.09489
呉	-8.09513
寧	-8.09858
暮	-8.10162
麗	-8.10282
虚	-8.10395
固	-8.10586
教	-8.10789
幸	-8.10865
原	-8.1102
御	-8.11155
益	-8.11294
期	-8.11362
以上	-8.11376
晉	-8.11484
兼	-8.11724
感	-8.11786
忠	-8.11973
園	-8.12159
簡	-8.12454
皇	-8.12824
代	-8.12885
雜	-8.12969
蘭	-8.13622
冠	-8.13719
當時	-8.13755
侯	-8.13802
丹	-8.13888
再	-8.14126
屋	-8.14158
除	-8.14485
奉	-8.14505
谷	-8.14546
汝	-8.14848
細	-8.14883
淚	-8.15082
珠	-8.15098
逸	-8.15201
宴	-8.15373
呼	-8.15935
軒	-8.16036
朩	-8.16079
各	-8.16128
骨	-8.16473
吏	-8.16549
冷	-8.16687
隠	-8.16694
曹	-8.1675
進士	-8.17043
茶	-8.17091
角	-8.17171
紀	-8.17261
作詩	-8.17317
越	-8.17328
牛	-8.17463
陸	-8.17511
哀	-8.17704
佳	-8.17862
一日	-8.18154
怨	-8.18157
憶	-8.18171
船	-8.18541
孟	-8.18713
洞	-8.18932
文章	-8.19443
壁	-8.19535
寳	-8.19634
列	-8.19782
魏	-8.19795
詔	-8.20169
墨	-8.20465
持	-8.20724
秀	-8.21014
山谷	-8.21217
隔	-8.21224
峯	-8.21588
象	-8.21598
屬	-8.21822
傷	-8.21916
晴	-8.22016
果	-8.22106
柳	-8.22147
晩	-8.2229
頗	-8.22788
乗	-8.22964
承	-8.23086
關	-8.23097
往	-8.23423
選	-8.2354
亡	-8.23637
收	-8.23656
崔	-8.2366
琴	-8.2371
絲	-8.2383
燈	-8.23876
賞	-8.24327
逐	-8.24333
恐	-8.24458
律	-8.24571
友	-8.24863
宣	-8.25076
被	-8.25157
恩	-8.25428
銘	-8.25761
倚	-8.25779
建	-8.26317
迎	-8.26664
戲	-8.26708
仁	-8.26765
荒	-8.26852
歳	-8.26888
反	-8.2689
萬里	-8.27097
徒	-8.27109
遷	-8.2747
浪	-8.278
第	-8.27927
顔	-8.28284
投	-8.28345
錦	-8.28467
吳旦生曰	-8.28497
右	-8.28533
形	-8.28873
政	-8.28968
湖	-8.29005
味	-8.29462
願	-8.29542
折	-8.29659
殊	-8.29679
室	-8.29692
不見	-8.29898
性	-8.29984
古人	-8.30158
芳	-8.30188
編	-8.3021
寫	-8.30295
偶	-8.30318
歎	-8.30465
季	-8.30654
盤	-8.30804
村	-8.31122
藥	-8.31196
種	-8.31389
置	-8.31429
而不	-8.31574
延	-8.3161
房	-8.31828
追	-8.3183
春風	-8.31971
千里	-8.31975
談	-8.32215
考	-8.32235
暗	-8.32249
雄	-8.32416
視	-8.32436
約	-8.3261
陶	-8.3279
制	-8.33037
江南	-8.331
羽	-8.33166
報	-8.33179
刻	-8.33299
妻	-8.33412
加	-8.33459
依	-8.33702
召	-8.33762
昭	-8.33762
盧	-8.33907
禪	-8.34139
念	-8.34187
省	-8.34284
翻	-8.34308
是也	-8.34343
井	-8.34396
母	-8.3449
烏	-8.34555
短	-8.34631
京	-8.34654
勢	-8.35022
懷	-8.35395
急	-8.35449
訪	-8.35787
唯	-8.35797
闕	-8.36013
韋	-8.36191
遣	-8.36246
接	-8.36325
闗	-8.36483
治	-8.36678
虎	-8.37064
擬	-8.37083
蔡	-8.37259
乆	-8.37617
薦	-8.37661
受	-8.37777
郭	-8.37922
𤣥	-8.38341
具	-8.3842
誤	-8.38681
甫	-8.38709
厚	-8.3898
市	-8.39069
唐人	-8.39255
憂	-8.39416
忘	-8.39638
雞	-8.39775
榮	-8.39793
議	-8.39884
子美	-8.39895
辨	-8.39925
特	-8.40492
誠	-8.40548
儒	-8.4101
總	-8.41192
濟	-8.41345
鴈	-8.41419
惠	-8.415
他	-8.41658
徑	-8.41677
造	-8.41868
含	-8.42162
吕	-8.42193
業	-8.42197
遲	-8.42214
補	-8.42373
静	-8.42566
歲	-8.42584
疾	-8.42718
斜	-8.42774
康	-8.42785
斯	-8.42786
坡	-8.42787
邪	-8.43185
㣲	-8.43747
推	-8.43837
左	-8.4412
采	-8.44159
某	-8.44188
格	-8.4421
司	-8.44257
荆公	-8.44378
今日	-8.44421
昌	-8.44465
管	-8.44518
鳳	-8.44656
衰	-8.44867
歩	-8.45062
鳯	-8.45097
歴	-8.45279
爭	-8.45617
儀	-8.45644
澤	-8.45693
嘉	-8.45788
謁	-8.45806
退	-8.4601
蒼	-8.46103
尊	-8.46334
巧	-8.46351
毛	-8.46821
錄	-8.46939
蕭	-8.46963
計	-8.47061
疎	-8.4714
授	-8.47171
述	-8.47322
騎	-8.47472
根	-8.47479
附	-8.47481
程	-8.47648
利	-8.47814
貧	-8.47945
惡	-8.48047
夷	-8.48189
例	-8.48262
丘	-8.48286
禁	-8.48363
㡬	-8.48397
步	-8.48655
低	-8.48946
温	-8.48987
妾	-8.49102
孝	-8.49198
畧	-8.49293
駕	-8.49391
夕	-8.49568
人間	-8.4958
長安	-8.49623
借	-8.49716
降	-8.49772
權	-8.4978
堪	-8.49844
歡	-8.4988
銀	-8.49897
綠	-8.49944
撰	-8.50032
達	-8.50302
賀	-8.50424
鼓	-8.50498
崇	-8.50629
靜	-8.50826
養	-8.51008
佛	-8.51015
侍	-8.51133
熟	-8.51339
典	-8.5135
備	-8.51569
彼	-8.51577
姓	-8.51852
慶	-8.51893
退之	-8.52067
㸃	-8.52103
惜	-8.52263
郊	-8.52325
危	-8.52335
商	-8.52361
仍	-8.52397
凝	-8.52505
弟	-8.52716
桂	-8.52851
索	-8.52889
繼	-8.53207
續	-8.5321
将	-8.53382
懸	-8.53612
鬼	-8.53715
嶺	-8.53722
平生	-8.53723
唱	-8.54072
背	-8.546
漸	-8.54743
可以	-8.54792
鴻	-8.54956
博	-8.55289
條	-8.55331
岸	-8.55334
苑	-8.55342
洪	-8.55537
拂	-8.55717
赤	-8.55769
席	-8.55796
眠	-8.55927
鎮	-8.56174
籍	-8.56176
想	-8.56191
所以	-8.56283
宅	-8.56312
之意	-8.56384
鼎	-8.5639
云云	-8.56422
簾	-8.56505
浦	-8.56679
峰	-8.56791
絶句	-8.56798
狂	-8.56826
二十	-8.56848
眉	-8.5685
何處	-8.56862
住	-8.56869
妓	-8.56997
卧	-8.5707
樂府	-8.5758
偏	-8.57699
了	-8.57763
淡	-8.57794
亦有	-8.57876
尚書	-8.58009
墓	-8.58034
争	-8.58248
誦	-8.58315
古今	-8.58342
夫人	-8.58526
老杜	-8.58725
愈	-8.58849
潮	-8.59088
樂天	-8.59146
負	-8.59371
㸔	-8.59478
豪	-8.59503
敬	-8.59525
婦	-8.59709
傾	-8.60111
鍾	-8.60274
遠	-8.60569
源	-8.60583
告	-8.60608
怪	-8.60778
丁	-8.60844
枕	-8.61027
舍	-8.61286
紙	-8.61448
勞	-8.61537
祠	-8.61629
塞	-8.61696
泥	-8.61749
弄	-8.618
掩	-8.62022
敢	-8.62257
乞	-8.62366
卷	-8.62385
謀	-8.62417
質	-8.625
甘	-8.625
魯	-8.6252
由	-8.62531
施	-8.62907
戒	-8.62948
答	-8.62962
位	-8.62992
機	-8.63035
寶	-8.63112
累	-8.63203
十二	-8.63218
白雲	-8.63439
黃	-8.63516
后	-8.63592
殺	-8.63687
竟	-8.63928
棲	-8.64061
顯	-8.64424
又有	-8.64425
毎	-8.6448
館	-8.64485
倒	-8.64517
揚	-8.64718
狀	-8.64935
虛	-8.64972
無人	-8.6537
赴	-8.65442
賈	-8.65756
者也	-8.65759
縁	-8.65768
詩人	-8.65838
品	-8.6604
夀	-8.66116
洛	-8.66268
尾	-8.66288
莊	-8.66333
傍	-8.66338
學士	-8.66401
羊	-8.66482
天子	-8.66591
十年	-8.66656
冬	-8.66678
鏡	-8.66717
奇	-8.66738
怒	-8.66746
明月	-8.66788
執	-8.66916
廢	-8.66937
映	-8.67075
富	-8.67153
戰	-8.67156
避	-8.67253
伏	-8.673
霞	-8.67634
器	-8.67788
憐	-8.67832
棄	-8.67956
迷	-8.68109
圓	-8.68858
眞	-8.69045
范	-8.69174
魂	-8.69361
中有	-8.69586
遥	-8.69697
三年	-8.69881
乾	-8.6997
環	-8.69994
以詩	-8.69995
䇿	-8.70281
堅	-8.70409
示	-8.70425
境	-8.7047
不及	-8.70799
招	-8.70808
不如	-8.70906
頻	-8.71037
暖	-8.71039
征	-8.71119
把	-8.71956
跡	-8.72001
桃	-8.72197
頌	-8.72478
福	-8.72524
布	-8.72561
悟	-8.72622
薛	-8.72731
繁	-8.72818
據	-8.72989
抱	-8.73023
不敢	-8.73306
衡	-8.73448
積	-8.7354
渡	-8.73602
崖	-8.73658
屏	-8.73715
符	-8.73778
太白	-8.73888
渾	-8.73981
釋	-8.74011
孔	-8.74021
窗	-8.74237
刺	-8.74253
氷	-8.743
側	-8.74327
着	-8.74543
閩	-8.74566
叢	-8.74586
嗟	-8.74673
壯	-8.75238
童	-8.75255
僕	-8.7553
兹	-8.75761
漫	-8.75796
哭	-8.75801
息	-8.75913
踈	-8.7599
詳	-8.76073
况	-8.76154
底	-8.76264
不同	-8.76292
甲	-8.76346
一時	-8.76351
啼	-8.76809
參	-8.77015
强	-8.77268
淺	-8.77274
履	-8.77705
走	-8.77818
響	-8.779
社	-8.77901
虞	-8.77949
菊	-8.78063
雁	-8.78127
春秋	-8.7813
徃	-8.785
劍	-8.78571
裴	-8.78755
枯	-8.79088
繫	-8.79212
洗	-8.794
瑞	-8.79412
咸	-8.79427
鐘	-8.7947
伴	-8.79665
話	-8.7999
注云	-8.80363
耕	-8.80701
勿	-8.80763
巢	-8.80772
升	-8.80874
催	-8.80992
假	-8.81188
丞相	-8.81195
振	-8.81207
故人	-8.81342
班	-8.81406
之曰	-8.81445
沉	-8.8159
一作	-8.81626
甞	-8.81689
消	-8.81754
日月	-8.81777
射	-8.81794
雷	-8.81845
輩	-8.81917
禽	-8.82087
否	-8.823
縱	-8.82307
順	-8.82576
之語	-8.82674
腰	-8.827
希	-8.82876
未嘗	-8.82886
鬢	-8.82909
漁	-8.83036
旁	-8.83232
燭	-8.83242
聊	-8.8329
霧	-8.83315
壽	-8.83454
率	-8.83484
杯	-8.83541
又曰	-8.83544
梅花	-8.83871
買	-8.83901
資	-8.8391
仕	-8.83928
龜	-8.84047
輔	-8.84125
睡	-8.8426
採	-8.843
阿	-8.84317
迹	-8.84502
之類	-8.84615
扇	-8.84692
葬	-8.85044
一篇	-8.85073
湘	-8.85246
鄰	-8.85264
牧	-8.85396
畢	-8.8549
神仙	-8.85507
部	-8.85601
訓	-8.85727
扶	-8.85735
奴	-8.85766
圍	-8.85987
覆	-8.86165
血	-8.862
窺	-8.86232
斗	-8.8635
仰	-8.86462
監	-8.86563
潘	-8.86644
稍	-8.86683
泣	-8.86717
絃	-8.86894
劒	-8.86912
彈	-8.86917
印	-8.86928
宻	-8.86936
穿	-8.87044
刀	-8.87149
粉	-8.87552
鸞	-8.8764
威	-8.87644
昏	-8.87748
旋	-8.87786
漏	-8.8786
驛	-8.87872
職	-8.87875
不復	-8.87964
不足	-8.87999
賔	-8.88026
没	-8.88123
風吹	-8.88241
差	-8.88558
干	-8.88604
之詩	-8.88638
荷	-8.8875
宮	-8.88823
潤	-8.88896
三十	-8.88937
諱	-8.89
傅	-8.89003
邉	-8.89315
貶	-8.89572
豐	-8.89743
寓	-8.89789
披	-8.89795
大夫	-8.89828
𥘉	-8.90076
戴	-8.90273
兄	-8.90348
太守	-8.90434
恭	-8.90505
驅	-8.90509
擁	-8.9055
馳	-8.90735
尺	-8.91074
錫	-8.9127
二年	-8.91376
凉	-8.91392
運	-8.91416
邑	-8.91501
勸	-8.91681
侵	-8.91729
第一	-8.91859
泛	-8.91969
凌	-8.92251
設	-8.92263
其後	-8.92317
藻	-8.92469
貢	-8.92501
叙	-8.92563
幕	-8.9269
脫	-8.9269
晝	-8.92786
謫	-8.92824
釣	-8.93063
覽	-8.93233
厭	-8.93277
維	-8.93291
繡	-8.93458
道士	-8.93486
輪	-8.93489
乘	-8.93499
蕩	-8.93504
風雨	-8.93569
略	-8.93627
掃	-8.93643
至今	-8.93699
詩有	-8.93737
賊	-8.93742
岳	-8.9388
牀	-8.93982
旦	-8.94103
險	-8.94271
旣	-8.94506
誌	-8.94668
彦	-8.94736
敗	-8.94777
蓬	-8.95022
山中	-8.95107
㫁	-8.95205
咏	-8.95233
評	-8.95492
少年	-8.9582
鐵	-8.96038
賦詩	-8.96134
供	-8.96257
巾	-8.96292
候	-8.96317
而已	-8.96499
桑	-8.9661
飯	-8.96815
吉	-8.96828
舒	-8.9683
天地	-8.96917
翼	-8.97064
免	-8.971
於此	-8.97268
君子	-8.97307
燒	-8.97323
罪	-8.97423
融	-8.97437
瓊	-8.97533
青山	-8.97628
辟	-8.97881
如何	-8.97975
并	-8.98019
掌	-8.98043
寛	-8.98131
製	-8.98261
用事	-8.98302
竊	-8.98411
司馬	-8.98416
壓	-8.98624
鮮	-8.98888
湯	-8.98899
帥	-8.99178
廻	-8.99201
五言	-8.99331
户	-8.99487
效	-8.99852
憲	-8.99932
諷	-9.00127
秋風	-9.00208
助	-9.00234
吐	-9.0026
湏	-9.00317
淮	-9.00345
充	-9.00513
屈	-9.00569
金陵	-9.00571
畏	-9.00673
酬	-9.00766
姬	-9.00776
添	-9.00799
材	-9.00801
旗	-9.00922
羞	-9.01068
習	-9.01086
所作	-9.01338
讀書	-9.01348
智	-9.01356
肅	-9.01479
貫	-9.0157
叟	-9.01589
肯	-9.01806
午	-9.01832
七言	-9.02065
盈	-9.02139
迴	-9.02143
晨	-9.02297
譜	-9.0232
陰	-9.02421
蒲	-9.02461
寵	-9.02464
廬	-9.02469
趣	-9.02489
潭	-9.02618
籠	-9.0268
卻	-9.02711
明皇	-9.02833
津	-9.02965
託	-9.02971
將軍	-9.02981
嘆	-9.03171
式	-9.0326
屢	-9.03287
何人	-9.03288
京師	-9.03304
淵	-9.03412
蟲	-9.03508
菴	-9.03508
元年	-9.03606
洲	-9.03627
冰	-9.03759
稀	-9.03798
裁	-9.03819
攜	-9.03842
愚	-9.03946
辰	-9.04033
族	-9.04077
晦	-9.04283
聨	-9.04334
輿	-9.04351
涼	-9.04547
案	-9.04615
諫	-9.04616
濃	-9.04654
脱	-9.04663
術	-9.04877
宰	-9.0492
尹	-9.04924
佐	-9.04929
彌	-9.04975
為之	-9.0516
之後	-9.05163
旅	-9.05223
踏	-9.05237
髪	-9.05249
荅	-9.05362
袖	-9.05429
座	-9.05488
弓	-9.05492
纔	-9.05501
貌	-9.05509
暫	-9.05512
舎	-9.05525
納	-9.05527
笛	-9.05718
磨	-9.05774
㫖	-9.05899
疊	-9.06098
呉旦生曰	-9.06196
堯	-9.06264
嗣	-9.06315
牙	-9.06334
戎	-9.06343
領	-9.06345
聚	-9.06467
營	-9.06574
弱	-9.06583
務	-9.06615
其詩	-9.06629
沒	-9.06642
魯直	-9.06653
繞	-9.06653
牽	-9.06653
鹽	-9.06677
飄	-9.06764
渠	-9.06789
殆	-9.06833
健	-9.06849
炎	-9.06899
澄	-9.06906
見之	-9.07006
奔	-9.07148
䝉	-9.07212
衛	-9.07228
競	-9.07246
擊	-9.07429
植	-9.07482
寜	-9.07524
揺	-9.07537
會	-9.07551
保	-9.0771
穴	-9.07778
輒	-9.07826
粧	-9.07894
茂	-9.08014
潛	-9.08059
煩	-9.08101
風流	-9.08193
觧	-9.08377
澗	-9.08397
疏	-9.08708
杖	-9.08924
鶯	-9.08942
滅	-9.08943
蟬	-9.08978
夕陽	-9.09148
百年	-9.09148
翰	-9.09175
筵	-9.09283
帳	-9.09402
壺	-9.09508
敏	-9.09541
腹	-9.09591
澹	-9.09592
妃	-9.09676
至於	-9.09735
申	-9.09831
肥	-9.09836
慕	-9.09867
彩	-9.10061
姚	-9.10094
俊	-9.1017
喧	-9.10182
操	-9.10242
佩	-9.10299
巨	-9.1045
態	-9.10532
廷	-9.10659
束	-9.10725
後人	-9.10768
柱	-9.10883
歸來	-9.1092
韓退之	-9.10953
饒	-9.11171
尉	-9.11184
姑	-9.11303
璧	-9.11328
為詩	-9.11351
規	-9.11491
窓	-9.11643
鹿	-9.1165
占	-9.11897
安得	-9.12225
換	-9.1246
郎中	-9.12598
蓮	-9.12617
題詩	-9.12637
譏	-9.12688
馮	-9.12819
聴	-9.12852
塔	-9.12934
宇	-9.12953
淵明	-9.12987
江湖	-9.13017
囊	-9.13134
荆	-9.13146
一字	-9.1324
西湖	-9.13372
穆	-9.13412
皮	-9.13423
勤	-9.13482
/)(	-9.13503
十八	-9.13606
介	-9.13755
賣	-9.1377
銅	-9.13771
喻	-9.13785
陪	-9.13805
東風	-9.14003
齒	-9.14058
十五	-9.14139
校	-9.14244
茅	-9.14256
文字	-9.14279
肉	-9.14328
㳺	-9.14331
簷	-9.14356
隋	-9.14405
染	-9.14406
悉	-9.14419
私	-9.14447
忍	-9.14484
銷	-9.14593
諸公	-9.14659
別	-9.14679
困	-9.14696
之所	-9.14769
可謂	-9.14798
曰此	-9.14973
濕	-9.15029
古詩	-9.15066
桃花	-9.15105
伊	-9.15277
集中	-9.153
杜詩	-9.15303
奪	-9.15351
五年	-9.15549
壇	-9.15602
黒	-9.15625
随	-9.15646
呈	-9.1565
碎	-9.15688
鱗	-9.15829
獲	-9.15857
落花	-9.15875
舜	-9.15954
打	-9.16007
䑓	-9.16009
流水	-9.16274
洞庭	-9.16304
之言	-9.16375
嫌	-9.16527
琵琶	-9.16565
墮	-9.16576
喚	-9.16783
遶	-9.16902
雕	-9.16923
厯	-9.16925
猿	-9.17007
自是	-9.17051
綺	-9.17093
戸	-9.17199
詩也	-9.17283
侍郎	-9.17339
太宗	-9.17435
拙	-9.1751
逹	-9.17544
挂	-9.17863
忌	-9.17864
宰相	-9.17977
往往	-9.17983
腸	-9.1808
密	-9.18205
處士	-9.1837
邦	-9.18439
禹	-9.18483
支	-9.18744
徹	-9.1882
嫁	-9.18854
愧	-9.18855
李白	-9.18881
擇	-9.19164
渚	-9.19368
階	-9.19689
麥	-9.19729
專	-9.19807
戯	-9.20093
伐	-9.20131
左右	-9.20146
圃	-9.20168
塘	-9.20207
苔	-9.20234
柔	-9.20467
此語	-9.20517
泰	-9.20604
挽	-9.20679
樵	-9.21036
牆	-9.21103
晏	-9.21159
趨	-9.21164
四十	-9.21399
未有	-9.21548
爐	-9.21604
硯	-9.21702
途	-9.21772
停	-9.21785
用之	-9.2179
孰	-9.21802
有餘	-9.21947
隆	-9.22076
亦不	-9.2228
其意	-9.22295
其所	-9.22339
片	-9.22367
啓	-9.22429
靡	-9.22465
冩	-9.22467
黨	-9.22485
兄弟	-9.22584
標	-9.22778
攀	-9.22788
貞	-9.22825
妄	-9.23027
農	-9.2311
有詩云	-9.23283
瓦	-9.23452
犯	-9.23468
像	-9.23471
敵	-9.23473
姿	-9.23473
錯	-9.23483
詩集	-9.23606
超	-9.23684
珍	-9.23737
註	-9.23738
太子	-9.23739
嬌	-9.23776
一巻	-9.23778
藝	-9.2383
臥	-9.23838
啟	-9.23987
囘	-9.24041
髮	-9.2405
祥	-9.24171
強	-9.24174
帆	-9.24179
弔	-9.24233
頃	-9.24566
白樂天	-9.24738
居士	-9.24843
觴	-9.24861
科	-9.24868
鞭	-9.24879
洛陽	-9.25004
閉	-9.25095
鑿	-9.2519
絳	-9.25229
委	-9.25303
篆	-9.25328
寂	-9.25427
烈	-9.25559
夣	-9.25628
憑	-9.25745
詞云	-9.25773
芙蓉	-9.25884
寢	-9.25906
寒食	-9.26078
醒	-9.26121
之子	-9.26157
杜子美	-9.26192
麟	-9.26206
倦	-9.26229
卑	-9.2623
謬	-9.26232
董	-9.2626
當年	-9.26263
曠	-9.26266
祭	-9.26499
▁(	-9.2655
襲	-9.26575
米	-9.26626
酌	-9.26852
築	-9.26852
二字	-9.27244
一句	-9.27565
預	-9.27585
缺	-9.27636
誇	-9.27638
飽	-9.27647
两	-9.27703
婦人	-9.27709
僅	-9.28012
道人	-9.2816
十四	-9.28213
祝	-9.28315
島	-9.28342
遽	-9.28372
緣	-9.28384
翰林	-9.28398
三月	-9.28516
純	-9.28589
鈎	-9.28633
庶	-9.28639
襟	-9.28725
塗	-9.28992
娘	-9.29039
誅	-9.29107
帖	-9.29238
激	-9.29386
旌	-9.29435
杜甫	-9.29462
自然	-9.29476
墜	-9.29502
清風	-9.29698
優	-9.29704
葛	-9.29708
飾	-9.30131
邀	-9.30185
濤	-9.3019
千載	-9.30396
克	-9.30428
殷	-9.30433
鎖	-9.30442
講	-9.30465
人生	-9.30484
契	-9.30487
成都	-9.30524
慙	-9.30536
銜	-9.30537
慮	-9.30542
䕶	-9.30882
彭	-9.31095
辛	-9.31123
促	-9.31247
徧	-9.31249
山水	-9.31353
使君	-9.31418
輝	-9.31524
年年	-9.31526
慈	-9.3155
開元	-9.3162
歸去	-9.31667
網	-9.31946
朝廷	-9.3215
江上	-9.32215
喬	-9.32322
墳	-9.32328
麻	-9.32331
廬山	-9.32388
一首	-9.32513
量	-9.32621
策	-9.32656
可憐	-9.32668
偉	-9.32732
皷	-9.33155
主人	-9.33247
輦	-9.33361
脩	-9.33422
寸	-9.33444
蠻	-9.33454
熊	-9.33455
紹興	-9.33462
婉	-9.33477
脚	-9.33519
白日	-9.33543
子瞻	-9.3375
芝	-9.33804
岑	-9.3383
詣	-9.33839
竇	-9.33849
瘦	-9.33869
皇帝	-9.33882
軰	-9.34113
明年	-9.34136
袁	-9.34174
層	-9.34185
灰	-9.34211
自有	-9.34221
弗	-9.34233
壑	-9.34388
飢	-9.34497
朋	-9.34512
一人	-9.34572
場	-9.34602
貪	-9.34619
違	-9.34622
倫	-9.34636
滴	-9.3488
隣	-9.34952
活	-9.34997
東坡云	-9.35089
無所	-9.35242
摘	-9.35359
而後	-9.35404
鑑	-9.35573
五十	-9.35606
得之	-9.35611
鄙	-9.35737
觸	-9.3575
蒙	-9.35752
有所	-9.35774
南山	-9.35851
霄	-9.35955
役	-9.35984
界	-9.35985
宏	-9.36079
鄧	-9.36141
際	-9.36235
落日	-9.36274
之間	-9.36347
寂寞	-9.36512
以其	-9.36513
騰	-9.3652
畱	-9.36537
臯	-9.36746
均	-9.36802
敎	-9.36857
宦	-9.36894
郷	-9.36943
返	-9.37016
以此	-9.37089
苕溪漁隱曰	-9.37162
禍	-9.37173
少陵	-9.37312
盃	-9.37316
時人	-9.37421
府志	-9.37463
九日	-9.37531
其二	-9.37584
祀	-9.37602
責	-9.37699
害	-9.37846
排	-9.37952
相思	-9.3802
緩	-9.38058
綿	-9.38079
揚州	-9.38308
不是	-9.3831
押	-9.3841
勒	-9.38443
防	-9.38458
埋	-9.38484
況	-9.38484
竿	-9.3849
字子	-9.38639
二人	-9.38712
何事	-9.38867
月明	-9.38889
太平	-9.38937
擢	-9.38962
黄金	-9.39109
黙	-9.39242
揮	-9.39255
吴	-9.3926
探	-9.39279
陋	-9.3928
綵	-9.39283
玄	-9.39317
謹	-9.3932
何如	-9.39355
州刺史	-9.39585
於是	-9.39621
歟	-9.39638
紛	-9.39661
徴	-9.3967
瞻	-9.39735
不為	-9.39898
歐公	-9.39956
元和	-9.40009
嘲	-9.40028
灑	-9.40041
千古	-9.40154
何以	-9.4016
徙	-9.40171
几	-9.40445
悠悠	-9.40461
快	-9.40463
登第	-9.40498
之作	-9.4057
付	-9.40619
卜	-9.40765
蝶	-9.40829
剛	-9.4087
晁	-9.40896
贊	-9.4095
泊	-9.40998
不用	-9.41062
綴	-9.41119
娥	-9.41257
榜	-9.4126
乃知	-9.41299
知其	-9.4131
凍	-9.41652
床	-9.41672
卓	-9.41698
頓	-9.417
板	-9.41704
佳句	-9.4188
織	-9.41954
四海	-9.42005
丈	-9.42021
徵	-9.4206
携	-9.42088
御史	-9.42249
警	-9.42334
嶽	-9.42359
其事	-9.42379
統	-9.42479
霽	-9.42496
故事	-9.42505
媿	-9.42526
東南	-9.42555
之文	-9.4263
亮	-9.42692
其間	-9.42693
撫	-9.42701
曰吾	-9.42728
明日	-9.42891
筠	-9.42899
藤	-9.42925
桐	-9.43
潜	-9.43051
之義	-9.43052
藍	-9.43055
記云	-9.43222
富貴	-9.43225
何時	-9.43423
判	-9.43502
出於	-9.43519
西山	-9.43553
羙	-9.43582
四年	-9.43657
晋	-9.43727
肆	-9.43748
蕭蕭	-9.43824
也然	-9.43824
以來	-9.43833
天上	-9.43975
焚	-9.44075
阮	-9.44127
堆	-9.4414
遍	-9.44151
賛	-9.44157
閩書	-9.44215
桞	-9.44499
遙	-9.44579
慎	-9.4458
獄	-9.44582
鬚	-9.44599
遭	-9.44599
而去	-9.44634
牡丹	-9.44701
美人	-9.44738
十里	-9.44823
虹	-9.44981
團	-9.44989
灘	-9.45024
致仕	-9.45059
西風	-9.45129
姓名	-9.45398
乳	-9.45413
費	-9.45429
蓬萊	-9.45436
時有	-9.45442
俯	-9.45521
丞	-9.45587
今人	-9.45618
傑	-9.45768
如今	-9.45914
也又	-9.45979
局	-9.46085
唐詩	-9.46119
有詩	-9.46185
掛	-9.46282
欽	-9.46283
仗	-9.46298
之事	-9.46476
庚	-9.46669
悔	-9.46681
眀	-9.46694
托	-9.46696
行人	-9.46813
刑	-9.46827
練	-9.4684
能詩	-9.46848
千年	-9.46995
畔	-9.47082
𤓰	-9.471
偷	-9.47119
吞	-9.4712
山川	-9.47143
戚	-9.47162
賤	-9.47301
提	-9.47463
賓	-9.47481
值	-9.47514
藉	-9.47542
諧	-9.47552
語也	-9.4762
毫	-9.47703
其名	-9.4773
悞	-9.47807
群	-9.47921
庾	-9.47929
自號	-9.47973
人家	-9.47981
雀	-9.48166
海棠	-9.48236
江西	-9.4837
喪	-9.48371
媚	-9.48434
回首	-9.4844
辯	-9.4844
涉	-9.48442
第三	-9.48538
隴	-9.48586
春色	-9.48601
故曰	-9.48772
包	-9.48839
諌	-9.48863
終日	-9.48968
見其	-9.49026
那	-9.49028
朔	-9.49168
舘	-9.49279
淨	-9.49322
渭	-9.49376
巴	-9.49383
相見	-9.49391
𦵏	-9.49712
脂	-9.49724
乍	-9.49725
閲	-9.4973
欺	-9.4973
廊	-9.49736
亞	-9.49759
宛	-9.49904
翔	-9.50155
讓	-9.50157
震	-9.50167
乾坤	-9.50187
偽	-9.50199
杭	-9.5028
江山	-9.50321
暇	-9.50405
之以	-9.50473
暉	-9.50501
惆悵	-9.50595
浩	-9.50599
筍	-9.506
謙	-9.50645
數十	-9.50727
峽	-9.50848
韶	-9.50973
偃	-9.5103
一聲	-9.51298
蘓	-9.51479
邵	-9.51486
徘徊	-9.51515
膏	-9.5153
饑	-9.5153
戀	-9.51541
不然	-9.51774
巷	-9.5184
痕	-9.51915
弦	-9.51939
八月	-9.51953
一笑	-9.52117
不成	-9.52134
祐	-9.52194
學者	-9.52346
犬	-9.52369
損	-9.52441
亦可	-9.5251
春日	-9.5254
女子	-9.5263
十六	-9.52817
剪	-9.52863
圗	-9.52863
舌	-9.52871
救	-9.52875
檻	-9.52881
後世	-9.53092
芳草	-9.53241
抑	-9.53242
展	-9.53304
棹	-9.53343
墻	-9.53354
娶	-9.53393
錢塘	-9.53411
未必	-9.53508
老人	-9.53521
汪	-9.53696
皆有	-9.5387
患	-9.54206
閨	-9.54234
蒸	-9.54242
鋪	-9.54268
属	-9.54277
襄	-9.54399
籬	-9.54574
汗	-9.54616
其人	-9.54653
門外	-9.54672
忙	-9.54677
遜	-9.5475
得其	-9.54924
或云	-9.55004
俞	-9.55146
二首	-9.55148
讀之	-9.55172
紗	-9.55181
扉	-9.55196
幼	-9.55237
相逢	-9.55437
暑	-9.55521
有一	-9.55555
削	-9.55624
寡	-9.5568
前輩	-9.55918
給	-9.55932
頂	-9.5598
證	-9.55989
詩云云	-9.56078
署	-9.56118
簫	-9.5613
分明	-9.56172
日暮	-9.56186
余觀	-9.56291
二公	-9.56324
瑶	-9.56435
増	-9.56543
河南	-9.56557
鬱	-9.5656
整	-9.56579
認	-9.5658
乖	-9.56592
羡	-9.56599
君王	-9.56602
勉	-9.56606
邁	-9.56607
循	-9.56607
児	-9.56652
山下	-9.56977
雍	-9.57026
摩	-9.5704
駐	-9.57058
棊	-9.57074
襄陽	-9.57093
徽	-9.57184
紹	-9.57346
惟有	-9.57348
五代	-9.57452
槐	-9.57473
古今詩話	-9.57525
暴	-9.57531
従	-9.57536
覩	-9.57554
袍	-9.57585
聮	-9.5759
是時	-9.57615
歇	-9.57995
禄	-9.58138
一名	-9.58273
騷	-9.58285
行云	-9.58301
世間	-9.58359
者皆	-9.58426
然則	-9.58434
衫	-9.58454
價	-9.58483
鴛鴦	-9.58497
菜	-9.58507
攻	-9.58518
然後	-9.58602
律詩	-9.58635
茍	-9.58848
鬬	-9.58921
四句	-9.58946
較	-9.58996
王荆公	-9.59336
豈不	-9.59365
濶	-9.59415
淳	-9.59433
闌	-9.59445
榖	-9.59447
爛	-9.5945
檢	-9.59469
憤	-9.59511
拘	-9.59653
蛇	-9.59757
纎	-9.59853
塲	-9.59921
慚	-9.5995
艶	-9.59953
配	-9.59963
幹	-9.6013
其中	-9.60223
仄	-9.60239
十三	-9.6039
𢎞	-9.60393
裂	-9.60428
言之	-9.6043
陣	-9.60436
閱	-9.60454
裘	-9.60461
相如	-9.60544
不必	-9.6068
昇	-9.60854
橘	-9.60889
爵	-9.60921
羮	-9.60968
男	-9.61141
紛紛	-9.61427
祗	-9.61439
鼻	-9.61453
懼	-9.61458
人皆	-9.61495
拾	-9.61831
弼	-9.61892
暢	-9.61956
非也	-9.62323
誕	-9.62347
輸	-9.62422
遵	-9.62453
未知	-9.62556
他日	-9.62688
靖	-9.62768
夾	-9.62804
玊	-9.62871
蘿	-9.62924
逆	-9.6293
人以	-9.62941
隅	-9.62959
勇	-9.62964
慰	-9.62977
誓	-9.62994
一枝	-9.63187
樽	-9.63238
禪師	-9.63338
豫章	-9.63454
垣	-9.63457
彥	-9.63464
軸	-9.63476
庸	-9.63486
不堪	-9.63706
其言	-9.63708
門前	-9.63761
有人	-9.63873
栽	-9.63925
玩	-9.63964
浮雲	-9.64119
厥	-9.642
單	-9.64299
不識	-9.64418
拔	-9.64423
蠶	-9.64448
李杜	-9.64462
熱	-9.64466
速	-9.6449
箴	-9.64523
白頭	-9.64525
魄	-9.64872
使人	-9.64874
司空	-9.64949
梢	-9.64949
阻	-9.64973
攷	-9.64988
鷺	-9.65197
令人	-9.65287
次韻	-9.65298
拍	-9.65395
從此	-9.6546
涵	-9.6547
蔽	-9.65495
戍	-9.65501
貽	-9.65502
綱	-9.65521
多少	-9.65799
桃李	-9.65846
檄	-9.65965
譽	-9.65975
㝷	-9.65996
靣	-9.66005
絶句云	-9.66009
書云	-9.66031
緯	-9.66033
夢中	-9.6621
白髪	-9.66257
氣象	-9.66392
世傳	-9.66413
州人	-9.66479
點	-9.66486
䨇	-9.66489
擲	-9.66495
躍	-9.66496
辱	-9.66508
冝	-9.66558
公子	-9.66638
士大夫	-9.6664
文選	-9.66728
審	-9.66776
僻	-9.66906
夫子	-9.66908
察	-9.66965
勲	-9.66997
長沙	-9.67032
闊	-9.67041
寅	-9.67051
痛	-9.67052
其文	-9.67052
抛	-9.67056
僚	-9.67077
衝	-9.67078
用此	-9.67226
史記	-9.67353
鴉	-9.67431
頴	-9.67558
蜂	-9.67561
栢	-9.67567
鷹	-9.67574
瓶	-9.67579
輙	-9.67584
扁舟	-9.67596
葵	-9.67621
子孫	-9.67633
漢書	-9.67636
上有	-9.67704
本朝	-9.67756
飲酒	-9.67853
衍	-9.67885
歌云	-9.67902
不盡	-9.67975
汲	-9.67997
綸	-9.68033
誥	-9.68047
王維	-9.68061
的	-9.68081
播	-9.68094
檀	-9.68094
臂	-9.68101
之士	-9.68165
八十	-9.68344
其一	-9.68354
爽	-9.68509
冥	-9.68534
樊	-9.68572
斑	-9.68594
繩	-9.68612
劉禹錫	-9.68642
他人	-9.68673
柯	-9.68681
歌舞	-9.68725
聯	-9.6889
以爲	-9.69065
左傳	-9.69074
無事	-9.69134
妍	-9.69138
獵	-9.69146
顛	-9.69176
諡	-9.69303
萬古	-9.69305
何必	-9.69319
亦云	-9.69413
作者	-9.69421
苕溪漁隠曰	-9.69434
無復	-9.69529
佳人	-9.69576
倉	-9.69623
蕪	-9.69625
裙	-9.69639
岐	-9.69662
東西	-9.69669
街	-9.69671
峭	-9.69678
浸	-9.69691
無窮	-9.69703
栖	-9.69713
蘇州	-9.69746
㢤	-9.69755
序云	-9.69795
花落	-9.69863
其子	-9.6996
二子	-9.69987
謨	-9.70058
三千	-9.70186
坊	-9.70197
訛	-9.70204
逼	-9.70233
桓	-9.70243
箇	-9.70258
刋	-9.70276
太祖	-9.70513
蘆	-9.70527
二月	-9.70598
抵	-9.706
余嘗	-9.70687
䑕	-9.70786
搖	-9.70799
徃徃	-9.70846
為文	-9.70865
花開	-9.70883
不覺	-9.70956
互	-9.70968
十餘	-9.71053
鷗	-9.71103
翰林學士	-9.71131
蹤	-9.71248
割	-9.71346
允	-9.71764
而巳	-9.71841
豆	-9.71876
劇	-9.71896
覓	-9.71905
參差	-9.71919
巡	-9.71919
鑄	-9.71934
七十	-9.72048
文公	-9.72124
宫中	-9.722
獸	-9.72289
涕	-9.72374
蟾	-9.72388
靄	-9.7243
俄	-9.72504
永叔	-9.72623
丹青	-9.72826
不相	-9.72833
箋	-9.72926
厲	-9.72982
豔	-9.72982
少游	-9.72989
李太白	-9.7299
摧	-9.73022
挾	-9.73033
歐陽	-9.7308
一曲	-9.73205
以下	-9.73298
不過	-9.7345
艸	-9.73487
箭	-9.73516
岡	-9.73532
料	-9.73571
不在	-9.73683
人多	-9.73783
草堂	-9.73783
句法	-9.7387
所居	-9.73916
臘	-9.73985
艾	-9.74071
汀	-9.74073
與之	-9.74074
峻	-9.74076
研	-9.74083
恵	-9.74164
壁間	-9.74254
酣	-9.74353
宵	-9.74484
玉堂	-9.74547
録云	-9.74549
縷	-9.74587
跨	-9.74655
䦨	-9.74664
嗚呼	-9.74695
笑曰	-9.74797
正月	-9.74828
後主	-9.74838
諸侯	-9.74973
議論	-9.75003
有此	-9.75106
敷	-9.75132
搜	-9.75174
浴	-9.75243
秉	-9.75246
歷	-9.75257
曙	-9.75263
歛	-9.75283
一片	-9.75324
昔人	-9.75348
近世	-9.75572
雉	-9.75768
子厚	-9.75777
區	-9.75787
捨	-9.75813
傲	-9.75821
障	-9.75835
蕃	-9.75836
山谷云	-9.76012
誰能	-9.76015
絮	-9.76242
粟	-9.76259
得意	-9.76281
宣和	-9.76311
悦	-9.76336
黑	-9.76357
聞之	-9.76365
兩句	-9.7645
布衣	-9.76572
風月	-9.76621
四方	-9.7663
嬾	-9.76916
鉤	-9.76954
額	-9.76957
逃	-9.76967
遼	-9.76975
鷄	-9.76977
廵	-9.7698
恠	-9.76992
癡	-9.76994
淮南	-9.77038
中書	-9.77239
欄	-9.77376
蘂	-9.77386
耀	-9.77396
世人	-9.77459
元作	-9.77478
朴	-9.77491
遮	-9.77495
援	-9.77509
衢	-9.77519
砌	-9.77543
妖	-9.77558
鼔	-9.77562
誠齋	-9.7773
七年	-9.77814
捲	-9.77974
揚雄	-9.78143
鎻	-9.78144
慘	-9.78189
嵩	-9.78235
笙	-9.78276
二句	-9.78347
此意	-9.78366
刺史	-9.78431
一夜	-9.7846
同上	-9.78538
天台	-9.78557
項	-9.78643
必有	-9.78653
樞	-9.78697
酸	-9.78718
藩	-9.78732
㟁	-9.78736
台	-9.78827
不勝	-9.78874
臨川	-9.7893
鄭谷	-9.78956
圭	-9.79128
槩	-9.79145
釵	-9.79178
鮑	-9.79232
今朝	-9.79254
不若	-9.79267
犀	-9.79285
溫	-9.79287
叅	-9.79312
谿	-9.79321
三日	-9.79387
詩一	-9.79426
清明	-9.79476
言其	-9.79542
余謂	-9.79673
之妙	-9.79768
詩句	-9.79905
春水	-9.79913
及第	-9.79932
伸	-9.79936
毁	-9.79936
進士第	-9.8001
仙人	-9.80088
王直方詩話云	-9.80273
出處	-9.80334
名曰	-9.80386
汴	-9.80458
牋	-9.80494
驗	-9.80495
淑	-9.80514
湛	-9.80526
栗	-9.8056
韓愈	-9.80594
杜牧之	-9.80637
第二	-9.80831
武帝	-9.80877
衣冠	-9.809
千金	-9.80904
嘯	-9.80917
不忍	-9.80955
昨夜	-9.81017
何所	-9.81019
簿	-9.8105
取其	-9.81064
磬	-9.81068
淫	-9.81073
艷	-9.81096
鵲	-9.81104
杜牧	-9.81109
架	-9.81135
梅聖俞	-9.81192
孔子	-9.81408
秀才	-9.81413
狐	-9.81584
帛	-9.81625
一絶	-9.81691
稻	-9.81701
烹	-9.8171
渉	-9.81712
㦸	-9.81746
不肯	-9.81911
榻	-9.81952
元祐	-9.81962
三百	-9.82025
二詩	-9.82123
薨	-9.82296
乏	-9.82299
熈	-9.82319
蔣	-9.82328
橫	-9.82335
討	-9.82339
䘮	-9.8236
踰	-9.82386
躬	-9.82409
天涯	-9.82518
六年	-9.82553
杭州	-9.82587
拾遺	-9.82625
樓臺	-9.82636
上人	-9.82655
往來	-9.827
不自	-9.8271
鄴	-9.82878
崩	-9.82913
叠	-9.82917
冦	-9.82935
収	-9.82938
謾	-9.82944
鸚鵡	-9.82955
聖俞	-9.82971
草木	-9.83139
人也	-9.83183
六月	-9.83197
不應	-9.8325
弟子	-9.83285
江東	-9.83458
瑩	-9.83468
専	-9.8354
肇	-9.83542
黎	-9.83559
簮	-9.83602
大抵	-9.83764
杏	-9.84045
鞍	-9.84091
乙	-9.84106
堤	-9.8415
旨	-9.84155
森	-9.84156
享	-9.84161
兆	-9.84169
姦	-9.84173
一生	-9.84192
岩	-9.84194
詰	-9.84356
者如	-9.84357
相公	-9.84362
四時	-9.84389
由是	-9.84475
謡	-9.84759
敲	-9.84784
惑	-9.84822
迥	-9.84847
呂	-9.84859
此時	-9.85162
副	-9.85301
哲	-9.85319
嘗作	-9.85336
盟	-9.8538
斧	-9.8541
句云	-9.85411
敦	-9.85453
人之	-9.85455
霑	-9.85459
也故	-9.85478
基	-9.85484
塵埃	-9.85511
下句	-9.85593
爾雅	-9.85751
六朝	-9.85839
屯	-9.85972
友人	-9.85984
倡	-9.86037
怕	-9.86059
煮	-9.86063
範	-9.86064
梧	-9.86066
離騷	-9.86071
衞	-9.86076
儉	-9.86087
之說	-9.86103
對曰	-9.8613
壻	-9.86135
從事	-9.86144
上下	-9.86152
南唐	-9.86299
傳云	-9.86317
秘	-9.86417
送人	-9.86666
奚	-9.8669
復齋漫録云	-9.8672
帷	-9.86725
各有	-9.86794
皆以	-9.86864
也其	-9.8698
熙	-9.87213
番	-9.87231
王建	-9.87241
可見	-9.87301
漲	-9.87304
韵	-9.87316
䖍	-9.8732
語意	-9.87327
嵐	-9.87332
虜	-9.87333
魁	-9.8735
芒	-9.87352
衮	-9.87358
裳	-9.87358
遐	-9.87374
併	-9.87374
偕	-9.87383
其家	-9.87388
逈	-9.87388
戈	-9.87389
儲	-9.87416
諸人	-9.87452
楊栁	-9.87679
褒	-9.87754
楓	-9.87805
鴨	-9.87934
欠	-9.87967
㓜	-9.88001
纂	-9.88002
秩	-9.88004
縈	-9.88009
鑒	-9.88024
中興	-9.88107
唯有	-9.88184
限	-9.88226
年少	-9.88243
如是	-9.88485
跋	-9.88554
㠶	-9.88594
則有	-9.88598
撥	-9.88606
墓誌	-9.8861
者以	-9.88615
弊	-9.88629
懶	-9.88632
勁	-9.88641
驕	-9.88652
三尺	-9.88664
猨	-9.88673
鳬	-9.88679
所載	-9.88694
梵	-9.88709
功名	-9.88709
去年	-9.8901
顔色	-9.89029
其詞	-9.89049
張籍	-9.89089
前後	-9.89094
之名	-9.89101
潁	-9.89136
風雅	-9.89152
蟠	-9.89272
逾	-9.89294
匠	-9.8931
滑	-9.89316
郤	-9.89354
子由	-9.894
相似	-9.89648
是以	-9.89714
嗜	-9.89773
透	-9.89893
蜨	-9.89911
捧	-9.89921
无	-9.89935
醫	-9.89951
倍	-9.89953
𨽻	-9.89958
有集	-9.89978
奮	-9.89994
前人	-9.90052
此事	-9.90072
蜀人	-9.90208
無限	-9.90243
三十六	-9.90417
祈	-9.9052
段	-9.90536
餞	-9.90581
礙	-9.90606
肩	-9.90607
覔	-9.90607
潔	-9.90615
粗	-9.90621
裝	-9.90622
茗	-9.90641
夢得	-9.90645
㑹稽	-9.9065
牢	-9.9065
混	-9.90651
造化	-9.90763
六十	-9.90781
五月	-9.90838
䖏	-9.91014
欣	-9.91095
誰家	-9.91129
所得	-9.91223
囬	-9.91233
十一	-9.91235
眷	-9.91274
士人	-9.91329
數百	-9.91412
湖州	-9.91422
二十年	-9.91613
出門	-9.91704
十七	-9.91712
武陵	-9.91741
匹	-9.91777
之詞	-9.91818
毅	-9.91865
精神	-9.91865
鵝	-9.91907
篤	-9.9192
忩	-9.91949
員外	-9.91959
創	-9.91965
婢	-9.91974
沖	-9.91979
詩家	-9.91981
一百	-9.91983
瀟湘	-9.91984
城南	-9.92106
南北	-9.92229
一曰	-9.92244
詩中	-9.92287
鈞	-9.9238
嶠	-9.92482
盛唐	-9.92537
俾	-9.92619
鍊	-9.92625
斥	-9.92632
踐	-9.92639
從來	-9.9271
詢	-9.92718
參軍	-9.92733
協	-9.9299
介甫	-9.93081
確	-9.93088
旬	-9.93091
數日	-9.93169
艱	-9.93248
究	-9.93317
枉	-9.93324
毒	-9.93326
八年	-9.93415
太學	-9.93422
唐末	-9.93434
歌行	-9.93597
字仲	-9.93661
子羙	-9.93777
之外	-9.93802
其實	-9.93826
裡	-9.93904
登臨	-9.93924
裕	-9.9397
而卒	-9.93986
畵	-9.93987
竄	-9.93988
模	-9.93994
牕	-9.94001
牓	-9.94011
劔	-9.94012
桃源	-9.94019
斬	-9.94043
山林	-9.94179
焦	-9.94217
盡日	-9.94243
或曰	-9.9443
九月	-9.94466
中丞	-9.94522
古樂府	-9.9453
誰知	-9.9465
杜鵑	-9.94653
百里	-9.94674
旱	-9.94674
舂	-9.94676
鸖	-9.94699
革	-9.94734
縱横	-9.94778
舍人	-9.94828
韋蘇州	-9.94887
株	-9.94939
華山	-9.94939
江水	-9.94957
不到	-9.94966
自謂	-9.94973
建安	-9.95134
䕫	-9.95223
蕙	-9.95338
宸	-9.95343
兎	-9.9535
淪	-9.95361
詎	-9.95365
槎	-9.9537
琳	-9.9537
悽	-9.95375
緒	-9.9538
岫	-9.95388
見於	-9.95393
衾	-9.95393
秖	-9.95401
謗	-9.95403
二年進士	-9.95528
車馬	-9.95547
夜深	-9.95624
派	-9.95689
百餘	-9.95792
可喜	-9.95826
之辭	-9.95864
濯	-9.95992
椒	-9.96027
駭	-9.96028
呌	-9.96058
酷	-9.96084
莖	-9.96087
髻	-9.96088
洽	-9.96103
紋	-9.96112
昻	-9.96129
滄海	-9.96184
而無	-9.96196
此句	-9.96291
奈何	-9.96365
矜	-9.96445
十月	-9.9646
賴	-9.96462
景物	-9.96495
西清詩話云	-9.96554
揖	-9.96582
陂	-9.967
滄浪	-9.96701
函	-9.96742
髯	-9.96755
匪	-9.9676
帯	-9.96776
逕	-9.96795
人所	-9.96801
冶	-9.96803
綬	-9.96805
曲江	-9.96894
同時	-9.97014
鬼神	-9.97061
出入	-9.97097
歐	-9.9714
相對	-9.97256
决	-9.97377
諸生	-9.97438
窟	-9.9744
叶	-9.97442
鋒	-9.97457
蔓	-9.97482
繪	-9.97483
茫茫	-9.97493
秪	-9.97496
麓	-9.97502
醜	-9.97524
亦自	-9.97725
人物	-9.97812
青雲	-9.97878
好事者	-9.97926
宋玉	-9.98021
同前	-9.98022
有云	-9.98206
滋	-9.98208
数	-9.98213
庵	-9.98219
知制誥	-9.98227
鼇	-9.98236
誣	-9.9824
㡌	-9.98255
大笑	-9.98279
天寶	-9.98302
不知其	-9.98308
金石	-9.98316
二十四	-9.98316
逝	-9.98499
叚	-9.98568
五色	-9.9862
政和	-9.98796
洞霄	-9.98843
恥	-9.98856
有時	-9.98861
壊	-9.98866
青青	-9.98875
兔	-9.98875
舅	-9.98898
恃	-9.98916
畝	-9.98934
覧	-9.98939
苐	-9.98955
愛其	-9.98956
拳	-9.98961
作也	-9.99036
官至	-9.99039
奈	-9.99161
斜陽	-9.99166
則曰	-9.99312
别離	-9.99324
猶在	-9.99339
東都	-9.99347
上元	-9.99484
公卿	-9.9952
猶未	-9.99557
䜟	-9.99594
論詩	-9.99627
餅	-9.99634
滯	-9.99641
裹	-9.99645
凢	-9.99653
久之	-9.99684
灣	-9.99689
漠漠	-9.99692
姪	-9.99714
者亦	-9.99877
白髮	-9.99911
莽	-10.0016
柴	-10.0019
豹	-10.0029
孟浩然	-10.0033
仇	-10.0037
簪	-10.0037
抗	-10.0038
十九	-10.0038
状	-10.0038
漆	-10.0038
衙	-10.0041
膺	-10.0042
稱之	-10.0044
公主	-10.0048
山人	-10.0051
道中	-10.0054
福州	-10.0058
足以	-10.0063
不當	-10.0067
此地	-10.0075
石林詩話云	-10.0075
事也	-10.0081
也按	-10.0082
祕	-10.0083
柏	-10.0085
山色	-10.0093
長江	-10.0101
域	-10.0102
洎	-10.0108
夭	-10.0109
凄	-10.0109
箕	-10.0111
梯	-10.0113
逄	-10.0114
闈	-10.0115
東山	-10.0116
未可	-10.0119
不待	-10.0125
英雄	-10.0131
不書	-10.0148
之上	-10.0161
第四	-10.0168
處處	-10.0171
元豐	-10.0172
有意	-10.0176
丙	-10.0176
叩	-10.0176
稱其	-10.0178
遂以	-10.0178
胥	-10.018
汎	-10.018
蜜	-10.0182
簟	-10.0182
苗	-10.0182
誄	-10.0183
諭	-10.0184
欵	-10.0185
鵬	-10.0186
鄒	-10.0186
朶	-10.0186
慢	-10.0187
珪	-10.0187
綉	-10.0187
忤	-10.0187
姜	-10.0188
一朝	-10.0189
浄	-10.019
聫	-10.0212
舉進士	-10.0214
一夕	-10.0215
萬事	-10.0227
白石	-10.0233
無心	-10.024
一絶云	-10.0241
山寺	-10.0242
自言	-10.0242
是非	-10.0248
穀	-10.0248
丸	-10.0254
溝	-10.0254
訴	-10.0255
欽定四庫全書	-10.0256
觀其	-10.0257
溼	-10.0258
猷	-10.0258
螢	-10.0261
亟	-10.0261
無不	-10.028
何也	-10.0281
詩者	-10.0282
黄昏	-10.0283
禮部	-10.0293
無情	-10.0301
三十年	-10.0326
增	-10.0331
公曰	-10.0331
盜	-10.0332
題云	-10.0332
盆	-10.0333
沼	-10.0333
𬒳	-10.0335
寂寥	-10.0335
帽	-10.0336
竭	-10.0336
則是	-10.0338
翫	-10.0338
形容	-10.0358
出知	-10.036
之法	-10.0366
可知	-10.0369
不出	-10.0382
有三	-10.0386
閤	-10.0391
則知	-10.0393
擅	-10.0395
全篇	-10.0402
札	-10.0403
君不見	-10.0405
捕	-10.0407
猶有	-10.0408
截	-10.0409
妝	-10.0409
邸	-10.041
抽	-10.0411
嵓	-10.0414
賈島	-10.0414
駒	-10.0419
終不	-10.0419
公之	-10.042
十日	-10.0422
陛下	-10.0426
詩話云	-10.0429
不須	-10.0439
梨花	-10.0452
小兒	-10.046
壘	-10.0469
上句	-10.047
掖	-10.0476
伎	-10.0484
倅	-10.0488
導	-10.0491
杏花	-10.0494
變化	-10.0518
千秋	-10.0519
所見	-10.0525
相與	-10.053
于此	-10.0535
之則	-10.0536
稽	-10.0541
荀	-10.0545
宫詞	-10.0546
李義山	-10.0553
中原	-10.0554
亷	-10.0557
謠	-10.0559
咽	-10.0562
貯	-10.0564
祿	-10.0564
珊瑚	-10.0564
綽	-10.0565
聳	-10.0565
芽	-10.0566
亥	-10.0566
様	-10.0567
翳	-10.0568
湖上	-10.0575
也今	-10.0581
其語	-10.0586
者曰	-10.059
自古	-10.0592
之地	-10.0601
視之	-10.0606
豈非	-10.0628
插	-10.0637
鯨	-10.0641
中書舍人	-10.0643
京兆	-10.0646
棠	-10.0649
鳯凰	-10.0657
一聨	-10.0667
相傳	-10.067
未能	-10.0674
兒童	-10.0677
廣陵	-10.0678
與君	-10.0701
堦	-10.0704
蛟	-10.0708
拱	-10.0713
不減	-10.0717
冲	-10.0718
朗	-10.0718
稾	-10.0718
繇	-10.0719
煥	-10.0721
粹	-10.0722
俟	-10.0723
媒	-10.0725
蔡寛夫詩話云	-10.0733
為人	-10.0735
漁父	-10.0736
空山	-10.0739
荆州	-10.0741
零落	-10.0742
志云	-10.0747
同年	-10.075
下有	-10.0751
新詩	-10.0756
歐陽公	-10.0757
産	-10.0764
零	-10.0777
今年	-10.0777
夜半	-10.078
錢唐	-10.0783
臨安	-10.0786
以後	-10.079
瑣	-10.0792
決	-10.0793
人心	-10.0793
鷓鴣	-10.0794
拆	-10.0795
突	-10.0796
薪	-10.0797
猛	-10.0797
訝	-10.0797
減	-10.0798
慵	-10.0798
毋	-10.0798
悼	-10.08
絡	-10.0801
可惜	-10.0803
遁	-10.0805
㱕	-10.0805
秋日	-10.0815
丈夫	-10.0822
武夷	-10.0846
而意	-10.085
者為	-10.0851
所稱	-10.0858
故鄉	-10.0859
眺	-10.0872
李賀	-10.0873
􁀙	-10.0874
碧雲	-10.0875
頰	-10.0875
甕	-10.0875
杳	-10.0876
完	-10.0876
㧞	-10.0878
鬭	-10.088
罕	-10.088
捷	-10.0883
諸子	-10.0887
劉夢得	-10.0887
通判	-10.0889
雜記	-10.0894
亦無	-10.0894
海上	-10.0896
金華	-10.0899
老子	-10.0902
甚多	-10.0902
知之	-10.0921
落葉	-10.0926
宫人	-10.0934
雖有	-10.0946
閭	-10.0953
篋	-10.0954
淳熙	-10.0955
驟	-10.0957
瑤	-10.0957
淸	-10.096
斤	-10.0961
絹	-10.0962
怯	-10.0963
蟹	-10.0965
昔年	-10.0974
草朩	-10.098
嘗有	-10.0986
唱和	-10.1007
梓	-10.1015
柄	-10.1019
顏	-10.1029
尼	-10.1034
稷	-10.1034
儼	-10.1035
填	-10.1037
之中	-10.1037
痩	-10.1037
斂	-10.1037
飬	-10.1037
閻	-10.1038
家有	-10.1038
溢	-10.1039
纒	-10.104
䟽	-10.1041
侣	-10.1045
今古	-10.1054
五更	-10.1056
夜雨	-10.1061
使者	-10.1065
詩文	-10.1067
王氏	-10.1069
不以	-10.107
判官	-10.1071
巫山	-10.108
門下	-10.1082
又作	-10.1094
未幾	-10.1101
姑蘇	-10.1108
膠	-10.1113
懿	-10.1117
犢	-10.1118
績	-10.1119
壤	-10.1119
幾時	-10.112
尔	-10.1122
迫	-10.1123
琢	-10.1124
肝	-10.1129
朱子	-10.113
屈原	-10.113
為一	-10.1137
黄州	-10.114
其辭	-10.114
四月	-10.1151
一詩	-10.1151
第五	-10.1159
丹陽	-10.1159
後漢	-10.116
說文	-10.1162
冷齋夜話云	-10.1169
河東	-10.1172
而言	-10.1175
得一	-10.1178
濁	-10.118
電	-10.1198
羨	-10.1199
孟子	-10.1199
䄂	-10.1201
督	-10.1201
轡	-10.1202
然而	-10.1204
孟郊	-10.1215
字韻	-10.1226
閉門	-10.1228
巫	-10.123
涯	-10.1242
逮	-10.1245
賔客	-10.1245
相望	-10.1249
依舊	-10.1256
髙宗	-10.1269
北山	-10.1284
穎	-10.1284
沿	-10.1285
聰	-10.1285
以文	-10.1286
冀	-10.1287
店	-10.1287
慧	-10.129
流落	-10.1313
西清詩話	-10.1314
間有	-10.1319
嘗為	-10.132
自注	-10.1322
相國	-10.1324
君臣	-10.1338
千萬	-10.1353
皓	-10.136
碣	-10.1362
瀾	-10.1362
何日	-10.1364
鵠	-10.1364
矯	-10.1364
牒	-10.1365
挺	-10.1365
線	-10.1365
毬	-10.1366
厨	-10.1366
煎	-10.1367
卽	-10.1367
攝	-10.1368
郢	-10.1368
坦	-10.1369
汚	-10.137
黯	-10.1373
之盛	-10.1383
浩然	-10.1395
黄魯直	-10.1397
贈之	-10.1399
自稱	-10.1401
王孫	-10.1404
不言	-10.1404
父子	-10.142
不歸	-10.1426
得名	-10.1432
失之	-10.1438
己	-10.1448
匣	-10.1449
恣	-10.1451
膽	-10.1451
秋色	-10.1452
鎭	-10.1454
衣裳	-10.1454
滕	-10.1455
凋	-10.1457
聼	-10.1458
所著	-10.1459
李氏	-10.1468
其上	-10.1478
二百	-10.148
天寳	-10.1481
麾	-10.1491
楊柳	-10.1502
莊子	-10.1504
西南	-10.1513
一㸃	-10.1513
白首	-10.1516
做	-10.1533
詩如	-10.1533
雛	-10.1533
庫	-10.1536
宋人	-10.1538
庻	-10.1538
版	-10.1538
胡苕溪云	-10.1538
寕	-10.154
䕃	-10.154
衲	-10.154
嫩	-10.1541
腐	-10.1543
和云	-10.1545
周禮	-10.1545
城中	-10.1553
蕭條	-10.1555
白雪	-10.1568
聞道	-10.157
池上	-10.1578
之説	-10.1579
郡守	-10.1584
吏部	-10.1586
山頭	-10.1586
求之	-10.1588
不聞	-10.1592
稚	-10.1593
匡	-10.1596
孺	-10.1597
至于	-10.1598
當以	-10.1606
知名	-10.1611
蘚	-10.1614
埃	-10.1619
煖	-10.162
最為	-10.162
小人	-10.162
文學	-10.1621
侈	-10.1621
祇	-10.1622
俠	-10.1624
讒	-10.1625
白居易	-10.1626
偈	-10.1627
誦之	-10.1628
太尉	-10.1633
多用	-10.1635
謂其	-10.1648
山河	-10.1653
世事	-10.1655
林下	-10.1658
不合	-10.1662
詩以	-10.1667
齡	-10.167
世俗	-10.1672
蹄	-10.169
余按	-10.17
什	-10.1702
鏤	-10.1705
蹈	-10.1706
翦	-10.1707
拈	-10.1708
漿	-10.1708
瓠	-10.1708
熙寧	-10.1709
懽	-10.171
彬	-10.1712
邈	-10.1713
叢話	-10.1714
揷	-10.1715
轂	-10.1716
一二	-10.1724
不受	-10.1729
本草	-10.173
紀事	-10.1744
十巻	-10.1747
昨	-10.1751
累官	-10.1755
豈無	-10.1758
造語	-10.1777
日日	-10.1779
不知何	-10.1788
檜	-10.179
化為	-10.179
渙	-10.1791
五湖	-10.1792
臧	-10.1792
九重	-10.1792
軟	-10.1792
楚辭	-10.1793
馭	-10.1794
百尺	-10.1795
昬	-10.1795
陟	-10.1797
鐫	-10.1797
斾	-10.1797
旌旗	-10.1798
開封	-10.1798
護	-10.1798
屑	-10.1798
則又	-10.1799
雋	-10.18
國公	-10.1808
春草	-10.1818
太原	-10.1826
時時	-10.183
始知	-10.183
未見	-10.1831
義山	-10.1832
冷齋夜話	-10.1833
南史	-10.1837
置酒	-10.1838
其父	-10.1844
筆力	-10.1852
亦何	-10.1857
我來	-10.1858
半夜	-10.1858
别有	-10.1864
水心	-10.1866
系	-10.1867
冊	-10.1877
疇	-10.1878
普	-10.1879
測	-10.188
批	-10.188
馨	-10.1882
噐	-10.1884
霸	-10.1885
可笑	-10.1886
而有	-10.1889
童子	-10.1889
鞏	-10.1891
從容	-10.1895
甲子	-10.1897
今之	-10.1898
詩史	-10.19
之時	-10.1908
般	-10.1916
有司	-10.1919
上書	-10.1921
之氣	-10.1926
枚	-10.1931
重陽	-10.1936
聖人	-10.1939
集有	-10.1943
西北	-10.1943
南渡	-10.1954
陌	-10.1955
瑟	-10.1959
汾	-10.1964
幃	-10.1967
三人	-10.1967
闢	-10.1967
育	-10.1967
撲	-10.1968
員	-10.1968
它	-10.1969
棟	-10.197
隄	-10.1971
泪	-10.1972
擕	-10.1972
抹	-10.1973
殷勤	-10.1974
豁	-10.1976
膝	-10.1977
細雨	-10.1992
國史	-10.1993
荘	-10.2014
幅	-10.202
不起	-10.2023
不遇	-10.2024
卒贈	-10.2025
相類	-10.2027
故國	-10.2029
頼	-10.2029
諸家	-10.2032
節度	-10.2035
書生	-10.2041
吳越	-10.2043
紳	-10.2048
刪	-10.2054
至此	-10.2054
偶然	-10.2057
冢	-10.2058
倩	-10.2058
从	-10.2058
頤	-10.2059
臉	-10.206
何足	-10.2061
溜	-10.2061
繆	-10.2063
恱	-10.2063
碩	-10.2064
䟦	-10.2066
隐	-10.2069
以自	-10.207
觀之	-10.2071
江陵	-10.2073
不動	-10.2074
薰	-10.2081
博士	-10.2093
世孫	-10.211
無可	-10.213
太常	-10.2139
山居	-10.2139
駿	-10.2141
歌曰	-10.2145
啄	-10.2145
粒	-10.2145
淹	-10.2145
灌	-10.2146
擔	-10.2149
絕	-10.2149
蹙	-10.2149
梧桐	-10.2151
溺	-10.2153
尚有	-10.2153
轍	-10.2153
狼	-10.2154
朕	-10.2156
蘇子瞻	-10.2161
為君	-10.2184
文昌	-10.2187
王直方詩話	-10.2187
李公	-10.2194
當作	-10.2205
不與	-10.2205
有二	-10.2209
羣臣	-10.221
秋水	-10.2221
無定	-10.2226
其下	-10.2233
苖	-10.2237
蓄	-10.2239
鳩	-10.2239
藁	-10.224
窻	-10.224
優劣	-10.224
僊	-10.2241
蟻	-10.2241
頑	-10.2242
膚	-10.2242
狀元	-10.2244
仲宣	-10.2246
依然	-10.2252
者有	-10.2254
節度使	-10.2255
而下	-10.2255
漁隠	-10.2256
以示	-10.2256
識者	-10.2263
梨	-10.2263
一身	-10.228
皆可	-10.2283
賦云	-10.2285
馬上	-10.2286
浙	-10.2306
少時	-10.231
蒼蒼	-10.2316
邕	-10.2321
億	-10.2324
霍	-10.2331
粘	-10.2331
詭	-10.2331
聘	-10.2332
昉	-10.2332
摹	-10.2333
人有	-10.2334
幻	-10.2335
瘴	-10.2335
笠	-10.2335
江淮	-10.2336
翟	-10.2336
析	-10.2337
敘	-10.2337
五字	-10.2337
昌黎	-10.2337
演	-10.2338
断	-10.2338
未易	-10.2341
其義	-10.2343
故有	-10.2344
白馬	-10.2348
矣然	-10.2349
本無	-10.2352
席上	-10.2357
一年	-10.2367
摩詰	-10.2383
晚唐	-10.2398
用意	-10.2399
粲	-10.2407
尋常	-10.2412
鬟	-10.2412
南海	-10.2416
後集	-10.2421
鳳凰	-10.2422
沛	-10.2423
惹	-10.2423
纓	-10.2424
白玉	-10.2424
咫尺	-10.2425
鐡	-10.2426
贍	-10.2426
裔	-10.2427
貨	-10.2427
尸	-10.2427
藴	-10.2427
籌	-10.2428
羌	-10.2429
鼠	-10.2431
不獨	-10.2431
秋月	-10.2433
余以	-10.2435
隙	-10.2435
主簿	-10.2436
自此	-10.2449
三百篇	-10.2452
表云	-10.2457
大臣	-10.2459
考之	-10.2461
坐客	-10.2466
不解	-10.2481
三山	-10.2488
貞元	-10.2495
亦是	-10.2502
昆	-10.2508
野人	-10.2508
棗	-10.251
駢	-10.2511
耆	-10.2513
赤壁	-10.2514
乃是	-10.2515
憔悴	-10.2516
之下	-10.2518
鈔	-10.2519
趂	-10.2519
菱	-10.2519
財	-10.252
縮	-10.252
禦	-10.2522
矢	-10.2523
送客	-10.2525
諺	-10.2533
便是	-10.2538
問之	-10.2539
笙歌	-10.254
四明	-10.254
寺僧	-10.255
也余	-10.2555
誰與	-10.2563
有感	-10.2571
不作	-10.2576
朽	-10.2578
東坡詩	-10.2584
黍	-10.2593
之孫	-10.2599
四字	-10.2607
郁	-10.2609
晚年	-10.261
未得	-10.261
咸淳	-10.261
狗	-10.261
文士	-10.2611
陷	-10.2615
韓子蒼	-10.2618
不忘	-10.2619
貫休	-10.2626
刻石	-10.2626
仁宗	-10.2637
四六	-10.2641
之故	-10.2645
詩亦	-10.2646
稚子	-10.2647
名也	-10.2648
此言	-10.265
不失	-10.2653
錄云	-10.2654
因以	-10.2656
篇云	-10.2668
此篇	-10.268
嘗以	-10.2697
文宗	-10.2699
歌詩	-10.2699
父母	-10.2701
肌	-10.2702
禁中	-10.2703
榆	-10.2705
蔚	-10.2706
荔枝	-10.2706
漕	-10.2707
崑崙	-10.2707
炙	-10.2707
頽	-10.2709
袂	-10.2709
驢	-10.271
或謂	-10.271
戊	-10.2711
慿	-10.2713
盞	-10.2715
彚	-10.2716
翩翩	-10.2721
沾	-10.2722
即事	-10.2729
嘉祐	-10.2746
元白	-10.2748
陶淵明	-10.2748
青天	-10.2754
閩中	-10.2756
還家	-10.2762
而成	-10.2777
其三	-10.2783
龍門	-10.2784
舎人	-10.2792
仕至	-10.2792
吴旦生曰	-10.2796
到此	-10.2797
艇	-10.2798
壮	-10.28
萍	-10.28
禾	-10.2802
伍	-10.2802
正元	-10.2803
古之	-10.2804
訖	-10.2805
喫	-10.2805
屐	-10.2806
惱	-10.2806
鈴	-10.2808
倣	-10.2808
奥	-10.281
悅	-10.2811
楊花	-10.2812
組	-10.2816
府君	-10.2817
提舉	-10.2819
方知	-10.2838
中宗	-10.2852
老僧	-10.2855
曰我	-10.2861
漢武	-10.2865
應制云	-10.2867
吳興	-10.2872
之徒	-10.2883
俚	-10.2886
海内	-10.2892
陜	-10.2892
黛	-10.2894
蛾	-10.2899
抄	-10.29
靑	-10.2901
弃	-10.2903
括	-10.2903
所云	-10.2904
盗	-10.2905
腥	-10.2905
叛	-10.2906
蛟龍	-10.2908
課	-10.2908
七月	-10.2909
餐	-10.2909
監察御史	-10.291
侍御	-10.2918
一家	-10.2922
昨日	-10.2924
羲	-10.2932
故云	-10.294
此乃	-10.2942
不可得	-10.295
濵	-10.295
㕔	-10.2957
憶昔	-10.2961
宫殿	-10.2961
謔	-10.2964
江左	-10.2965
月下	-10.2975
無以	-10.2976
拗	-10.298
庠	-10.298
王子	-10.2988
屠	-10.2991
岑參	-10.2994
閬	-10.2997
煉	-10.2998
十國	-10.2998
讌	-10.2999
澁	-10.3
珮	-10.3001
孚	-10.3001
概	-10.3002
緋	-10.3003
魏公	-10.3003
㝠	-10.3004
倪	-10.3005
一聨云	-10.3008
涙	-10.3008
周公	-10.3009
蓴	-10.301
茅屋	-10.3011
長卿	-10.3012
時為	-10.3014
藝苑雌黄云	-10.3023
無言	-10.303
嘗謂	-10.3032
給事中	-10.3033
深處	-10.3043
登科	-10.3055
而作	-10.3058
之工	-10.3058
傷心	-10.3059
三代	-10.306
賦詩云	-10.3077
太師	-10.3079
剡	-10.308
甌	-10.3091
梳	-10.3091
穏	-10.3097
緘	-10.3097
罵	-10.3099
貎	-10.3099
畦	-10.31
耿	-10.31
宋胡仔撰	-10.31
江海	-10.3101
夙	-10.3101
忝	-10.3101
歴代詩話巻	-10.3101
鄉人	-10.3101
衘	-10.3102
棋	-10.3104
年來	-10.3104
彰	-10.3104
沐	-10.3105
真宗	-10.3105
其餘	-10.3108
之際	-10.3115
者謂	-10.3119
待制	-10.3121
馬蹄	-10.3121
胸	-10.3123
年七十	-10.3123
登髙	-10.3131
也苕溪漁隱曰	-10.3134
可愛	-10.3137
後來	-10.3139
黄花	-10.3141
不載	-10.3149
草書	-10.3157
何為	-10.3157
也若	-10.316
三巻	-10.3168
本作	-10.3169
莫不	-10.3183
知音	-10.3188
無處	-10.319
賈誼	-10.3192
黔	-10.3196
貼	-10.3198
瓢	-10.3198
羸	-10.32
炳	-10.32
錢塘厲鶚撰	-10.32
青春	-10.3201
囚	-10.3202
婚	-10.3202
紹聖	-10.3205
元微之	-10.3209
文集	-10.321
朱文公	-10.3212
當是	-10.3217
不似	-10.3224
不容	-10.3229
之變	-10.323
减	-10.323
為工	-10.3235
漢魏	-10.3248
作詩云	-10.3253
百官	-10.3258
五日	-10.3267
相識	-10.3285
他年	-10.3288
霖	-10.329
右丞	-10.3293
鉉	-10.3293
豫	-10.3294
軾	-10.3297
笻	-10.3298
滑稽	-10.3299
餌	-10.33
技	-10.33
怡	-10.33
宋詩紀事巻	-10.33
係	-10.33
臨水	-10.33
疆	-10.3301
欽定四庫全書宋詩紀事巻	-10.3302
稿	-10.3303
穹	-10.3304
糧	-10.3307
依依	-10.3315
希夷	-10.3316
北斗	-10.3328
為誰	-10.333
後山	-10.3336
武后	-10.3336
風塵	-10.3337
孤舟	-10.3343
黄河	-10.3343
老翁	-10.3347
明朝	-10.336
七夕	-10.3361
尤為	-10.3367
萬年	-10.3376
工部	-10.3378
人事	-10.3388
自知	-10.3391
画	-10.3392
之功	-10.3393
隠居	-10.3396
挑	-10.3399
恕	-10.34
篷	-10.34
龔	-10.3401
漾	-10.3401
杞	-10.3402
隊	-10.3402
黜	-10.3403
笋	-10.3405
蔵	-10.3405
韓偓	-10.3405
赦	-10.3407
齊名	-10.3408
禱	-10.3409
又一例也	-10.3411
牧之	-10.3416
陸機	-10.3418
薫	-10.3425
武昌	-10.3427
后山	-10.3428
洞天	-10.3432
後村詩話	-10.3434
江城	-10.3434
再拜	-10.3434
東海	-10.3439
漢家	-10.3441
東野	-10.3444
杜陵	-10.3448
而死	-10.345
萬物	-10.3464
百篇	-10.3473
非是	-10.3475
鈿	-10.3478
云此	-10.3484
措	-10.3487
其聲	-10.3487
皆不	-10.349
此身	-10.3491
有客	-10.3499
嶼	-10.35
濫	-10.3501
癸	-10.3503
又如	-10.3504
疲	-10.3505
謫仙	-10.3505
訣	-10.3505
岀	-10.3505
噪	-10.3505
驥	-10.3506
諒	-10.3508
躡	-10.3508
葦	-10.3509
麝	-10.351
儻	-10.351
寂寂	-10.3512
跳	-10.3512
之體	-10.3512
大中	-10.3514
為我	-10.3516
秦少游	-10.3518
二十五	-10.3524
釣臺	-10.3524
皇甫	-10.3525
生涯	-10.3526
蒼苔	-10.3546
不可以	-10.3553
曲云	-10.3555
子弟	-10.356
由來	-10.3562
侍中	-10.3573
松風	-10.3577
於詩	-10.3584
學詩	-10.3585
雌	-10.3592
恰	-10.3601
但見	-10.3604
惻	-10.3605
稼	-10.3606
著書	-10.3606
湧	-10.3608
曜	-10.3609
櫻桃	-10.3611
太后	-10.3611
盧仝	-10.3611
廉	-10.3612
繭	-10.3612
敕	-10.3614
鞠	-10.3614
瓌	-10.3615
乾道	-10.3627
庾信	-10.3627
王公	-10.3636
許渾	-10.3638
白鳥	-10.3647
乃云	-10.3659
翠微	-10.3665
那得	-10.3669
燕子	-10.3677
棘	-10.3682
一種	-10.3688
次第	-10.3693
奉使	-10.3694
字元	-10.3695
可也	-10.3697
泉州	-10.3697
者多	-10.3698
蹟	-10.37
暝	-10.3703
綃	-10.3707
亦以	-10.3709
闌干	-10.371
誼	-10.3712
下第	-10.3714
寇	-10.3714
掉	-10.3714
腳	-10.3714
蠟	-10.3717
彫	-10.3718
鵞	-10.3719
油	-10.3721
長短句	-10.3733
稱賞	-10.3751
珠簾	-10.3752
更無	-10.3754
𤣥宗	-10.3756
皇后	-10.3757
半山	-10.3758
金人	-10.3764
終身	-10.3767
消息	-10.3769
春來	-10.3784
愛之	-10.3799
者乃	-10.3801
為主	-10.3802
阜	-10.3817
頸	-10.3819
寮	-10.382
葩	-10.382
瑕	-10.382
溟	-10.3821
壬	-10.3824
人情	-10.3826
門人	-10.3826
上林	-10.3827
杜荀鶴	-10.3828
據此則	-10.3829
炭	-10.3829
航	-10.383
者謂之	-10.383
苕溪	-10.3832
反覆	-10.3839
一見	-10.3839
知有	-10.3842
太史	-10.3854
平地	-10.3865
無一	-10.3868
應制	-10.3878
妻子	-10.3903
只是	-10.3908
雜録	-10.3909
擾	-10.3922
畜	-10.3923
廖	-10.3924
䴡	-10.3924
蛙	-10.3925
瀑	-10.3926
巵	-10.3926
湍	-10.3926
鶻	-10.3926
恒	-10.3927
祁	-10.3927
睿	-10.3928
謚	-10.393
譚	-10.3931
狄	-10.3931
敞	-10.3931
虬	-10.3932
欹	-10.3932
晞	-10.3932
答曰	-10.3933
區區	-10.3934
眼前	-10.3935
山東	-10.3936
濺	-10.3937
書曰	-10.3945
古來	-10.3945
不類	-10.3946
石林	-10.3948
真人	-10.3958
西京	-10.3959
末云	-10.3962
羅隠	-10.3964
聞者	-10.3973
久矣	-10.3973
欲以	-10.3975
有句云	-10.3987
飛來	-10.3989
一旦	-10.399
月照	-10.3996
師道	-10.4016
者其	-10.4019
扈	-10.4021
平原	-10.4021
滌	-10.4023
夜月	-10.4024
摶	-10.4024
水流	-10.4027
無聲	-10.4028
儂	-10.403
悮	-10.4032
漠	-10.4033
翅	-10.4033
瀛	-10.4034
覊	-10.4035
石刻	-10.4035
掾	-10.4037
瀛奎	-10.4038
誨	-10.4039
夔	-10.4039
翹	-10.404
簇	-10.4041
畫圖	-10.4041
辦	-10.4042
稜	-10.4043
捐	-10.4043
嬉	-10.4043
伶	-10.4043
於世	-10.4045
歎息	-10.4045
入蜀	-10.4048
御製	-10.4051
離别	-10.4056
幕府	-10.4059
重來	-10.4064
書其	-10.4068
不樂	-10.4078
水中	-10.4082
既而	-10.4086
其他	-10.4092
木蘭	-10.4093
荆南	-10.4104
經年	-10.4104
之矣	-10.4108
想見	-10.4118
嘗與	-10.4126
風光	-10.4127
安國	-10.4133
九年	-10.4137
握	-10.4138
春光	-10.4139
何當	-10.4141
爪	-10.4144
些	-10.4144
舉子	-10.4145
災	-10.4145
安知	-10.4146
熏	-10.4146
韋應物	-10.4148
璘	-10.4148
瀑布	-10.415
墟	-10.415
畨	-10.415
掲	-10.415
玲瓏	-10.4151
夘	-10.4154
宣城	-10.4157
翰墨	-10.4157
班固	-10.4159
不可及	-10.416
何妨	-10.4165
雲雨	-10.4167
作詩曰	-10.4177
嵗月	-10.4197
不許	-10.4199
開元中	-10.4204
花枝	-10.4212
羈	-10.4216
禄山	-10.4216
一杯	-10.4217
胸中	-10.4221
然其	-10.4224
人閒	-10.4229
大師	-10.4229
湖南	-10.4236
竹枝	-10.4243
之道	-10.4248
起於	-10.4253
紹興中	-10.4255
巒	-10.4255
恬	-10.4255
洒	-10.4256
闔	-10.4257
紆	-10.4257
𥿄	-10.4257
窄	-10.4258
渺	-10.4259
鬻	-10.4259
感慨	-10.4259
用韻	-10.4259
㓕	-10.4259
彪	-10.426
𣣔	-10.426
佞	-10.4261
沃	-10.4262
失其	-10.4264
潘岳	-10.4265
儔	-10.4265
月夜	-10.4267
名士	-10.4272
然亦	-10.4272
昔日	-10.4274
吉甫	-10.4278
執政	-10.4281
何須	-10.4287
咸陽	-10.429
後村	-10.4295
中間	-10.4297
三峽	-10.43
古木	-10.4304
陌上	-10.4307
江頭	-10.4309
宣宗	-10.4313
大家	-10.432
石林詩話	-10.4321
詩書	-10.4323
長慶	-10.4328
紅塵	-10.4329
歴官	-10.433
山上	-10.4331
當世	-10.4334
卒有	-10.4341
部員外郎	-10.4341
多矣	-10.4358
黄山谷	-10.4362
訟	-10.4363
詆	-10.4365
父老	-10.4365
碧玉	-10.4366
塢	-10.4369
針	-10.437
奕	-10.437
掠	-10.4371
狎	-10.4371
乂	-10.4371
拭	-10.4373
十萬	-10.4379
敝	-10.438
翡翠	-10.4383
文帝	-10.4384
先君	-10.4385
呼為	-10.4387
懐古	-10.4388
禮記	-10.4397
雨露	-10.4406
殘月	-10.4408
警句	-10.4413
向來	-10.4426
紫微	-10.443
帝王	-10.4439
人言	-10.445
騎馬	-10.4456
自得	-10.4458
神宗	-10.4466
方言	-10.447
到處	-10.447
亦未	-10.4471
字伯	-10.4474
豈知	-10.4478
砧	-10.4479
液	-10.4479
凶	-10.448
全芳備祖	-10.448
蔬	-10.448
噴	-10.4481
鸎	-10.4482
亨	-10.4482
登樓	-10.4482
竈	-10.4482
蟄	-10.4483
髙祖	-10.4484
未盡	-10.4484
逺矣	-10.4485
嗔	-10.4485
鋤	-10.4485
爰	-10.4485
何不	-10.4486
篁	-10.4487
醇	-10.4489
殁	-10.4491
廸	-10.4491
未央	-10.4492
太和	-10.4498
副使	-10.45
菊花	-10.4501
甘泉	-10.4506
或有	-10.4507
留題	-10.4509
蘭亭	-10.4516
譬	-10.4518
雞鳴	-10.452
中秋	-10.4523
人語	-10.4524
忠義	-10.4537
秘書	-10.4542
大喜	-10.4547
也如	-10.4553
何用	-10.4555
不免	-10.4559
縣志	-10.4567
隱居	-10.4571
好事	-10.4582
温公	-10.4582
斛	-10.4582
錢起	-10.4583
不著	-10.4586
釀	-10.459
昭君	-10.4593
先後	-10.4594
剥	-10.4596
邱	-10.4596
寃	-10.4598
嬰	-10.4599
慷慨	-10.4599
両	-10.4599
而為	-10.46
賡	-10.46
亦非	-10.46
律髓	-10.46
窘	-10.4602
愴	-10.4603
偓	-10.4603
夸	-10.4603
縑	-10.4604
歐陽永叔	-10.4604
陀	-10.4604
夲	-10.4605
對偶	-10.4611
疑是	-10.4615
樓上	-10.4616
中山	-10.4619
以前	-10.4621
閩人	-10.4623
烟霞	-10.4625
驪	-10.4628
六經	-10.4632
即今	-10.4636
記其	-10.4637
妨	-10.4638
政事	-10.4639
家貧	-10.464
月中	-10.464
二三	-10.464
王介甫	-10.4641
故也	-10.4644
秋夜	-10.4647
世之	-10.4653
雖然	-10.4653
心事	-10.4655
亦然	-10.4656
西施	-10.4657
肖	-10.466
飛鳥	-10.4661
山隂	-10.4665
詩格	-10.4667
風波	-10.4674
一代	-10.4674
漳	-10.4675
詩成	-10.4677
嘶	-10.468
齊已	-10.4686
不傳	-10.4687
只有	-10.4687
并序	-10.4688
數年	-10.4693
摭	-10.4694
江流	-10.4696
朱門	-10.4706
扣	-10.4709
娛	-10.4711
堯舜	-10.4713
萹	-10.4715
飜	-10.4715
纖	-10.4717
牟	-10.4718
準	-10.472
灮	-10.4721
悶	-10.4722
奠	-10.4723
紫芝	-10.4725
言語	-10.4726
贄	-10.4726
劉長卿	-10.4729
登山	-10.4756
前軰	-10.4758
黄帝	-10.4765
老夫	-10.4769
借問	-10.4779
田家	-10.4779
園林	-10.478
有詩曰	-10.4784
不妨	-10.4795
不甚	-10.4809
郵	-10.481
乃作	-10.4814
送之	-10.4816
五百	-10.4818
山僧	-10.4822
臨江	-10.4823
磯	-10.4824
距	-10.4825
不平	-10.4828
凖	-10.4829
縣令	-10.4831
墀	-10.4831
駁	-10.4831
和尚	-10.4831
氊	-10.4831
參寥	-10.4832
屨	-10.4834
挈	-10.4834
昂	-10.4834
迂	-10.4834
尖	-10.4834
龎	-10.4834
之論	-10.4835
耒	-10.4835
隻	-10.4836
溪上	-10.4837
晏元獻	-10.4837
勑	-10.4838
生死	-10.4839
東方	-10.4841
蓮花	-10.4845
有情	-10.4847
織女	-10.4848
萊公	-10.485
通志	-10.485
台州	-10.4859
未足	-10.4866
幽人	-10.4867
此二	-10.488
金山	-10.4881
雲山	-10.4889
酒酣	-10.4896
新月	-10.49
逺山	-10.4905
日夜	-10.491
大厯	-10.4912
胷	-10.4915
皆用	-10.4924
功成	-10.4927
四人	-10.4929
昧	-10.4932
詹	-10.4935
長於	-10.4935
正是	-10.4936
夜來	-10.4936
蘋	-10.4939
孤山	-10.4944
参	-10.4945
逍遥	-10.4948
鬂	-10.495
譙	-10.4951
㾗	-10.4953
岳陽	-10.4953
故園	-10.4954
滛	-10.4954
構	-10.4954
迢迢	-10.4954
効	-10.4954
替	-10.4955
琉璃	-10.4955
憚	-10.4956
輟	-10.4957
渴	-10.4957
豈可	-10.496
泉石	-10.4962
白鷗	-10.4965
或作	-10.4967
上天	-10.4969
馴	-10.4974
歌聲	-10.4977
不易	-10.4978
沈約	-10.498
唐史	-10.4994
五馬	-10.4997
初無	-10.4997
神女	-10.4998
肅宗	-10.4999
累遷	-10.5004
中人	-10.5008
家詩	-10.5008
南遷	-10.5009
天寒	-10.5009
滿地	-10.5013
呉興	-10.5016
州府志	-10.5028
風雲	-10.5039
勃	-10.5041
環溪	-10.5054
余曰	-10.5058
飛去	-10.5058
浣	-10.506
雲中	-10.506
三首	-10.5063
芲	-10.5064
遯	-10.5065
喉	-10.507
瓜	-10.507
未歸	-10.5071
勾	-10.5071
巔	-10.5071
粤	-10.5072
瞰	-10.5072
氛	-10.5073
其才	-10.5074
僕射	-10.5076
趁	-10.5076
穩	-10.5076
栁子厚	-10.508
宛轉	-10.508
謝靈運	-10.5084
之類是也	-10.5087
腴	-10.5087
華陽	-10.5087
集句	-10.5087
家家	-10.5091
兒女	-10.5096
斯文	-10.5099
越王	-10.5102
王摩詰	-10.5105
雨過	-10.5109
未免	-10.5109
一言	-10.5121
五巻	-10.5124
以謂	-10.5125
詩所謂	-10.5131
詞人	-10.5132
世上	-10.5132
都下	-10.5151
一事	-10.5165
靖康	-10.5168
十二月	-10.5175
太真	-10.5181
徃來	-10.5182
近時	-10.5188
子蒼	-10.5189
厓	-10.519
嚼	-10.519
冒	-10.5191
莎	-10.5191
誚	-10.5192
畆	-10.5192
呵	-10.5193
涇	-10.5193
遯叟	-10.5193
刹	-10.5194
秦王	-10.5194
祚	-10.5197
榭	-10.5197
驂	-10.5197
楷	-10.5198
啇	-10.5199
輯	-10.52
綘	-10.52
筝	-10.5201
巗	-10.5201
杪	-10.5202
攬	-10.5202
曵	-10.5203
古文	-10.5204
自從	-10.5205
風俗	-10.5205
塵土	-10.5206
天下之	-10.521
焚香	-10.522
倡和	-10.5221
風景	-10.5235
放翁	-10.5238
乃以	-10.5239
而歸	-10.5243
從之	-10.5243
墓誌銘	-10.5244
走馬	-10.5246
予嘗	-10.5247
嚴武	-10.5248
齊梁	-10.5253
不止	-10.5257
同一	-10.5262
髙樓	-10.5268
後有	-10.5268
詩思	-10.5273
之大	-10.5281
薛能	-10.5285
容易	-10.5286
世所	-10.5291
之才	-10.5297
後為	-10.5298
不通	-10.5305
樞密	-10.5306
蓑	-10.531
難得	-10.531
爲詩	-10.5311
沸	-10.5313
穠	-10.5315
掘	-10.5318
出守	-10.5318
莭	-10.5319
胎	-10.5319
青箱雜記	-10.5319
閙	-10.532
楹	-10.5321
蛾眉	-10.5322
婆	-10.5325
子美詩	-10.5329
斷腸	-10.533
本傳	-10.5331
法也	-10.5337
有功	-10.5343
許彦周詩話云	-10.5351
不知所	-10.5351
湖山	-10.5352
啼鳥	-10.5356
何物	-10.536
意也	-10.536
蜀中	-10.5373
城西	-10.5374
三四	-10.5376
黄門	-10.5377
事實	-10.5381
思歸	-10.5382
豈有	-10.5387
月落	-10.5388
豈能	-10.5395
南陽	-10.5398
北海	-10.5401
相隨	-10.5404
云昔	-10.5407
王母	-10.5413
得此	-10.5414
鍾山	-10.5416
永嘉	-10.542
所能	-10.5423
三字	-10.5423
吁	-10.5425
中流	-10.5426
嘗見	-10.5427
何由	-10.5428
不至	-10.543
脉	-10.5433
楸	-10.5434
芍藥	-10.5434
湜	-10.5437
閒居	-10.5437
含蓄	-10.5438
壞	-10.544
坤	-10.544
暁	-10.5442
雖不	-10.5442
荷花	-10.5442
凱	-10.5443
緇	-10.5443
温庭筠	-10.5444
縹緲	-10.5446
琰	-10.5447
諡文	-10.5448
櫓	-10.545
牽牛	-10.5451
髣髴	-10.5451
雨中	-10.546
談苑	-10.5461
此類	-10.5461
平聲	-10.5465
十餘年	-10.5466
可與	-10.5467
崇寧	-10.547
渡江	-10.5485
二巻	-10.5489
何年	-10.5489
玉樹	-10.549
花間	-10.5495
題壁	-10.5496
號為	-10.5501
建陽	-10.5502
北風	-10.5504
道路	-10.5509
男子	-10.5511
江邊	-10.5511
嶺南	-10.5513
風起	-10.5514
百家	-10.5515
此生	-10.5519
時節	-10.5519
不死	-10.5521
青州	-10.5526
問曰	-10.5528
詩意	-10.5528
斜日	-10.5529
咎	-10.5529
工夫	-10.553
舟中	-10.5534
作此	-10.5549
誌例也	-10.5557
籟	-10.5557
中夜	-10.5557
田園	-10.556
岷	-10.5565
卯	-10.5566
跪	-10.5567
恢	-10.5568
淳祐	-10.5568
劾	-10.5571
説文	-10.5571
眇	-10.5571
丹砂	-10.5572
巫峽	-10.5573
干戈	-10.5573
嘏	-10.5573
十一年	-10.5574
論文	-10.5576
裾	-10.5577
已而	-10.5578
令狐	-10.5581
天竺	-10.5584
人意	-10.5586
雞犬	-10.5588
後山詩話云	-10.5599
遂為	-10.5601
之樂	-10.5603
此詞	-10.5605
又以	-10.5605
若是	-10.5607
辛苦	-10.5609
秋聲	-10.5621
見一	-10.5625
題詩云	-10.5625
蘆花	-10.5634
南浦	-10.5636
與人	-10.5639
愚謂	-10.5642
明主	-10.5642
石上	-10.5646
集云	-10.5655
後生	-10.5657
禮樂	-10.5657
元宗	-10.5657
八句	-10.5662
秋草	-10.5662
獨立	-10.5663
孤雲	-10.5674
南昌	-10.5682
多情	-10.569
耐	-10.5692
韜	-10.5692
妹	-10.5693
頷	-10.5694
綜	-10.5694
大觀	-10.5695
繹	-10.5697
頋	-10.5697
鯉	-10.5699
粥	-10.5699
渥	-10.5699
氏之	-10.5699
戱	-10.57
漂	-10.57
琅	-10.5701
忿	-10.5703
拒	-10.5704
槃	-10.5704
人少	-10.5704
咸淳臨安志	-10.5705
中書舎人	-10.5705
並同前	-10.5706
九十	-10.5709
貴人	-10.5711
姚合	-10.5721
風動	-10.5721
一章	-10.5729
題名	-10.573
觀者	-10.5734
之美	-10.5736
五六	-10.5736
不逮	-10.5741
供奉	-10.5744
食之	-10.5748
謝公	-10.5751
猶存	-10.5753
乃為	-10.576
聖賢	-10.576
景陽	-10.5764
鄉里	-10.5771
長史	-10.5772
行行	-10.5772
杜少陵	-10.5773
也而	-10.5778
苦吟	-10.5783
驪山	-10.5796
妙處	-10.5811
箱	-10.5812
古風	-10.5819
嶂	-10.582
潄	-10.582
千餘	-10.5821
長樂	-10.5823
杉	-10.5824
侮	-10.5825
算	-10.5825
濛	-10.5826
冉冉	-10.5826
翩	-10.5827
鼓吹	-10.5827
虧	-10.5827
貂	-10.5828
渇	-10.5828
須臾	-10.5828
七字	-10.5829
四面	-10.5829
法度	-10.583
迅	-10.5831
濡	-10.5832
白樂天詩	-10.5832
膳	-10.5833
太平興國	-10.5834
軀	-10.5834
囂	-10.5837
校書郎	-10.5838
波濤	-10.5838
元稹	-10.5839
校書	-10.5842
所作也	-10.5843
次之	-10.5851
星辰	-10.5853
之心	-10.5854
自憐	-10.5858
談笑	-10.5859
百首	-10.5859
侍兒	-10.5861
工於	-10.5869
故名	-10.587
所為	-10.5871
中郎	-10.5879
頭上	-10.5887
下同	-10.589
此書	-10.5899
其妻	-10.5909
唐書	-10.5912
潤州	-10.5914
人知	-10.5916
朝陽	-10.5921
子建	-10.5922
古者	-10.5924
誤矣	-10.5933
○	-10.5944
始於	-10.5947
即位	-10.595
廼	-10.5952
鑰	-10.5953
百萬	-10.5953
控	-10.5954
萼	-10.5955
餉	-10.5956
奎	-10.5956
挹	-10.5957
膩	-10.5958
祜	-10.5958
蹇	-10.5958
暈	-10.5959
麒麟	-10.5959
縫	-10.596
邢	-10.596
卞	-10.5961
勻	-10.5961
义	-10.5962
関	-10.5962
舊時	-10.5962
芬	-10.5962
成都文類	-10.5962
鞋	-10.5962
椀	-10.5963
勅	-10.5963
昊	-10.5967
蒼梧	-10.5968
猪	-10.5969
憎	-10.5969
河豚	-10.5971
君誌	-10.5975
虎丘	-10.5976
司徒	-10.5977
廬陵	-10.5978
漢宫	-10.5981
不問	-10.5993
丈人	-10.5995
未及	-10.5997
生於	-10.5997
髙下	-10.6003
龍蛇	-10.6007
荼	-10.6009
無疑	-10.601
萊	-10.6015
足下	-10.6015
二篇	-10.6016
獨自	-10.6019
字也	-10.6019
謳	-10.602
清江	-10.6039
筆精	-10.6041
燈火	-10.6041
公孫	-10.6048
皆為	-10.6051
楚詞	-10.6066
曲折	-10.6071
知者	-10.6072
鄭公	-10.6075
皎	-10.6076
我欲	-10.6077
仙翁	-10.6078
邇	-10.6079
薇	-10.6083
髓	-10.6086
峨	-10.6088
吟詩	-10.6089
聞見	-10.6089
金縷	-10.6089
聲律	-10.6091
煑	-10.6091
迺	-10.6091
㕘	-10.6092
餳	-10.6092
㝛	-10.6093
人謂	-10.6093
揭	-10.6093
俯仰	-10.6093
㵎	-10.6094
有聲	-10.6094
芋	-10.6094
赫	-10.6094
宜春	-10.6094
慣	-10.6095
泗	-10.6095
瀉	-10.6095
峩	-10.6096
戮	-10.6096
笏	-10.6097
闘	-10.6098
罔	-10.6098
之風	-10.6102
安能	-10.6103
玉川子	-10.6103
錦繡	-10.6104
池塘	-10.6106
李長吉	-10.6106
者是也	-10.6106
堂上	-10.6108
尤工	-10.6114
復有	-10.6119
浩蕩	-10.612
國初	-10.6121
得詩	-10.6123
飄飄	-10.613
彭城	-10.6135
載酒	-10.6138
首尾	-10.614
大江	-10.6143
比之	-10.6147
此日	-10.6148
左氏	-10.6154
或以	-10.6155
歳月	-10.6155
章句	-10.6161
門生	-10.6173
不已	-10.6173
元符	-10.6175
平淡	-10.6182
子曰	-10.6197
進退	-10.6199
圖畫	-10.6199
清新	-10.6202
宫女	-10.6209
有詩名	-10.6215
鄂	-10.6217
劉後村	-10.6219
沮	-10.622
卦	-10.6221
有大	-10.6221
罰	-10.6221
塩	-10.6224
鄕	-10.6225
蹕	-10.6225
文王	-10.6225
波瀾	-10.6226
墓誌銘右誌	-10.6226
荻	-10.6227
鴛	-10.6227
䧟	-10.6227
彎	-10.6227
芳菲	-10.6227
斟	-10.6228
暄	-10.6229
眸	-10.623
蕉	-10.623
少卿	-10.6231
俸	-10.6231
忻	-10.6233
初不	-10.6236
櫂	-10.6236
歐陽文忠公	-10.6236
袁州	-10.6237
已有	-10.6239
餘杭	-10.6241
女郎	-10.6243
暮雨	-10.6244
林泉	-10.6245
卒章	-10.6248
不食	-10.6261
古寺	-10.6266
雲卿	-10.6266
故以	-10.6268
南朝	-10.6276
潭州	-10.6282
羅浮	-10.6287
過之	-10.6292
而不能	-10.6298
當日	-10.6305
山志	-10.6307
百花	-10.6318
之情	-10.6323
求其	-10.6323
慶元	-10.6325
改為	-10.6328
無由	-10.6328
大父	-10.6329
一葉	-10.6336
文辭	-10.6352
不厭	-10.6354
對酒	-10.6356
何異	-10.6358
笳	-10.6358
賖	-10.6359
匿	-10.636
藪	-10.6362
紈	-10.6362
文忠	-10.6362
杵	-10.6363
默	-10.6363
炊	-10.6363
埽	-10.6363
鉛	-10.6364
突兀	-10.6364
棺	-10.6365
狹	-10.6366
霓裳	-10.6366
椽	-10.6366
吕居仁	-10.6366
碁	-10.6366
鐸	-10.6367
慶厯	-10.6367
擎	-10.6368
仲尼	-10.6368
餓	-10.6368
刼	-10.6368
幄	-10.6369
售	-10.6369
顆	-10.6369
翊	-10.637
亭亭	-10.637
詩乃	-10.637
迨	-10.637
騫	-10.6371
奢	-10.6372
樞宻	-10.6372
翮	-10.6372
愜	-10.6372
莫能	-10.6372
松栢	-10.6372
窈窕	-10.6373
皇祐	-10.6373
叅軍	-10.6373
千山	-10.6379
其先	-10.638
松江	-10.6382
兩字	-10.6389
君家	-10.6394
煙霞	-10.6394
甘露	-10.6397
見此	-10.6398
何其	-10.6399
四年進士	-10.6401
寐	-10.6406
此其	-10.6406
暮年	-10.6408
十首	-10.641
之誤	-10.6416
乆之	-10.6416
春雨	-10.6417
子也	-10.6417
玉山	-10.6423
國風	-10.6428
詩人之	-10.643
某官	-10.6433
泰山	-10.6435
都尉	-10.6438
幾度	-10.644
不去	-10.6444
永州	-10.6444
之屬	-10.6445
南方	-10.6462
朝士	-10.647
劉氏	-10.6484
也又云	-10.6485
空餘	-10.6488
獨有	-10.6489
止於	-10.649
悵	-10.6491
苞	-10.6495
不暇	-10.6496
褐	-10.6496
狩	-10.6499
浚	-10.65
咸通	-10.65
膓	-10.65
寰	-10.6502
澆	-10.6502
舸	-10.6504
誡	-10.6504
樓前	-10.6505
夢魂	-10.6505
剰	-10.6505
皮日休	-10.6505
翌日	-10.6506
幡	-10.6506
宇宙	-10.6506
蔡邕	-10.6507
𥙷	-10.6508
証	-10.651
者則	-10.651
升菴	-10.6511
注謂	-10.6511
筆記	-10.6513
給事	-10.6514
東林	-10.6515
大雅	-10.6515
牛羊	-10.6523
光禄	-10.6526
未識	-10.6527
四言	-10.6527
教授	-10.653
釣魚	-10.6537
無多	-10.6538
歌之	-10.654
月上	-10.654
作文	-10.6544
欣然	-10.6544
寓居	-10.6547
物外	-10.6548
下馬	-10.655
京口	-10.6553
九州	-10.6554
老去	-10.6557
戰國	-10.6561
時事	-10.6564
花發	-10.6565
常侍	-10.6569
之謂	-10.6572
佳處	-10.6573
方外	-10.6573
數千	-10.6576
韓文	-10.6589
韻語陽秋	-10.6591
沈宋	-10.6596
二十七	-10.6599
㡬時	-10.6599
此皆	-10.6605
傳誦	-10.6608
遒	-10.6615
自在	-10.6621
今夜	-10.6624
鑾	-10.6631
烟雨	-10.6632
矩	-10.6637
遊人	-10.6637
稅	-10.6638
曼卿	-10.6639
不來	-10.664
豕	-10.664
詩話總龜	-10.664
饌	-10.664
虢	-10.664
有神	-10.6641
疵	-10.6641
榛	-10.6642
戢	-10.6642
閔	-10.6643
檣	-10.6643
諾	-10.6643
佇	-10.6643
灼	-10.6644
冥冥	-10.6645
税	-10.6645
璫	-10.6646
無他	-10.6646
塜	-10.6646
酥	-10.6647
肺	-10.6647
奬	-10.6647
六一居士	-10.6647
曇	-10.6648
蠧	-10.6648
霓	-10.6648
刃	-10.6649
蹊	-10.6649
帙	-10.6651
八分	-10.6652
古意	-10.6653
殺之	-10.6653
洪州	-10.6654
皎然	-10.6657
建炎	-10.6658
吹笛	-10.666
千門	-10.6662
一聯	-10.6664
自為	-10.6667
更有	-10.6674
越州	-10.6675
眼看	-10.6678
萬頃	-10.668
洛中	-10.6681
名家	-10.669
暮春	-10.6691
崑山	-10.6701
七言律	-10.6702
後見	-10.6706
便覺	-10.6711
繼之	-10.6715
日出	-10.6716
語録	-10.6721
劉向	-10.6726
第十	-10.6729
歎曰	-10.673
殊不	-10.6733
行樂	-10.6736
歸田	-10.6739
意氣	-10.6745
看花	-10.6753
君恩	-10.6758
茫	-10.6758
千尺	-10.6759
天文	-10.6762
得句	-10.677
安在	-10.6771
旄	-10.6773
此山	-10.6775
無異	-10.6775
而不知	-10.6777
坐中	-10.6777
弁	-10.6779
唾	-10.678
肎	-10.678
螺	-10.6781
墨莊漫録	-10.6782
覇	-10.6782
詩評	-10.6783
樣	-10.6784
扁	-10.6784
祔	-10.6785
颺	-10.6787
洋	-10.6788
溥	-10.6788
款	-10.6789
勘	-10.6789
熖	-10.6789
咨	-10.6791
御史中丞	-10.6792
泠	-10.6792
巽	-10.6793
蘇黄	-10.6795
之始	-10.6795
奄	-10.6796
檢校	-10.68
潺湲	-10.68
城人	-10.6803
號曰	-10.6804
故山	-10.681
屏風	-10.6811
之難	-10.6812
不宜	-10.6821
隨風	-10.6822
鐘聲	-10.6826
直學士	-10.6831
夏日	-10.6838
城郭	-10.6842
故實	-10.6844
不朽	-10.6849
輕薄	-10.6858
不入	-10.686
野水	-10.6876
挽詞	-10.6876
五雲	-10.6877
南風	-10.6877
者惟	-10.6878
城東	-10.6878
體也	-10.6879
才子	-10.6884
也予	-10.6887
天聖	-10.6888
若此	-10.6889
暮雲	-10.6896
家人	-10.6898
陵陽	-10.6901
力士	-10.6905
事見	-10.6909
者非	-10.6911
不仕	-10.6912
雲氣	-10.6912
陳氏	-10.6918
月滿	-10.6918
筒	-10.6919
山海經	-10.6924
末句	-10.6924
䡖	-10.6927
蔗	-10.6927
妥	-10.6927
沈佺期	-10.6927
脣	-10.6928
萌	-10.6928
脈	-10.6928
規模	-10.6929
净	-10.6931
嗤	-10.6931
筭	-10.6932
搏	-10.6932
槽	-10.6932
可乎	-10.6933
俎	-10.6933
該	-10.6934
徐鉉	-10.6934
蕋	-10.6934
抑揚	-10.6935
霏	-10.6935
璞	-10.6936
奸	-10.6936
踵	-10.6936
擒	-10.6936
逵	-10.6936
佑	-10.6937
語曰	-10.6937
旃	-10.6937
鳧	-10.6937
暨	-10.6937
徤	-10.6938
凄凉	-10.6938
予曰	-10.6938
沽酒	-10.6938
蔡君謨	-10.6939
竦	-10.6939
無數	-10.6941
陳無已	-10.6942
自唐	-10.6944
我心	-10.6946
張文潛	-10.695
青衫	-10.6951
孤城	-10.6953
近臣	-10.6956
右軍	-10.6958
何在	-10.6959
也唐	-10.696
封禪	-10.6962
卜居	-10.6963
荆公詩	-10.6963
山有	-10.6965
起居	-10.6966
則其	-10.6966
故其	-10.6968
新安	-10.697
老杜詩	-10.6971
壯士	-10.6976
師古	-10.698
神道碑	-10.6982
與客	-10.6983
胷中	-10.6983
之乃	-10.6983
罷相	-10.6985
小集	-10.6989
仁義	-10.6991
之狀	-10.6991
數聲	-10.6999
下筆	-10.6999
國朝	-10.701
萬象	-10.7011
圖經	-10.7015
工詩	-10.7015
之流	-10.7018
年八十	-10.7021
萬人	-10.7026
流傳	-10.7028
此體	-10.7037
其說	-10.7038
亦曰	-10.7044
文定	-10.705
䂬溪	-10.7052
即此	-10.7054
以譏	-10.7055
牡	-10.7058
樓閣	-10.7063
何耶	-10.7063
瑜	-10.7066
無力	-10.7067
㕠	-10.7072
不足以	-10.7072
曷	-10.7072
長老	-10.7073
殯	-10.7074
圎	-10.7074
縦	-10.7074
肱	-10.7075
揆	-10.7075
恤	-10.7076
金谷	-10.7076
讐	-10.7078
衷	-10.7079
曹子建	-10.7079
租	-10.7079
諤	-10.7079
東門	-10.7081
彷彿	-10.7081
㳂	-10.7081
在焉	-10.7082
魴	-10.7082
牎	-10.7082
蘇軾	-10.7082
册	-10.7082
悪	-10.7083
二曰	-10.7084
䆫	-10.7084
上皇	-10.7085
甥	-10.7086
猫	-10.7087
臺上	-10.7087
江州	-10.7092
彭澤	-10.7093
翰苑	-10.7094
可得	-10.7096
嘉定	-10.7096
羽翼	-10.7101
李嶠	-10.7104
未成	-10.7108
固有	-10.7109
之類皆	-10.7111
置之	-10.7118
不信	-10.7122
單于	-10.7122
八九	-10.7124
集賢	-10.713
其體	-10.7135
為正	-10.7135
百姓	-10.7141
淮西	-10.7147
侍宴	-10.7149
考功	-10.7149
魚龍	-10.715
意在	-10.715
知已	-10.7151
竟不	-10.7153
幾回	-10.7164
無意	-10.7166
延年	-10.7169
不可不	-10.718
先王	-10.7182
銀河	-10.7183
滄	-10.7187
氣味	-10.7192
幾年	-10.7193
近日	-10.7204
青瑣	-10.7211
秋雨	-10.7212
小詞	-10.7212
蠅	-10.7214
春歸	-10.7215
冨	-10.7221
銓	-10.7223
樸	-10.7224
詩賦	-10.7225
叱	-10.7225
鬛	-10.7225
年五十	-10.7226
遞	-10.7226
諛	-10.7227
寘	-10.7227
道者	-10.7228
張公	-10.7228
蓼	-10.7231
歙	-10.7231
諳	-10.7232
一物	-10.7232
皺	-10.7233
禮部侍郎	-10.7233
一體	-10.7234
廹	-10.7235
丐	-10.7236
劉貢父	-10.7238
男兒	-10.724
将軍	-10.7245
復何	-10.7246
溪水	-10.7247
張祜	-10.7247
長城	-10.725
夜夜	-10.725
秦漢	-10.7251
遲遲	-10.7251
貴妃	-10.7256
曰君	-10.7258
晉書	-10.7259
其地	-10.7263
草色	-10.7265
相從	-10.7266
東北	-10.7266
無奈	-10.727
郡人	-10.7271
有五	-10.728
小詩	-10.728
字叔	-10.7284
則云	-10.7287
不禁	-10.7289
公詩	-10.729
都官	-10.7292
雜志	-10.7296
詩皆	-10.7302
長吉	-10.7303
兩三	-10.7304
其一云	-10.7306
侍從	-10.7313
性情	-10.7313
其為	-10.7313
一條	-10.7315
題詠	-10.7317
問其	-10.7319
回頭	-10.7329
處厚	-10.7331
魯公	-10.7331
雪中	-10.7335
去聲	-10.734
柰	-10.7351
自作	-10.7356
而今	-10.7357
河北	-10.7358
逋	-10.7366
詩有云	-10.7366
溪集	-10.7367
不欲	-10.737
擺	-10.737
囀	-10.7371
魏晉	-10.7372
牘	-10.7372
叙事	-10.7372
都賦	-10.7372
用字	-10.7373
搆	-10.7375
鳶	-10.7375
二絶	-10.7376
芭蕉	-10.7377
窠	-10.7377
麤	-10.7378
軌	-10.7378
方輿勝覽	-10.7378
撼	-10.7379
蕨	-10.7379
長短	-10.7381
牖	-10.7383
屍	-10.7385
扃	-10.7386
論語	-10.7386
伺	-10.7386
汙	-10.7386
龕	-10.7386
詩人玉屑	-10.7387
浮屠	-10.7388
社稷	-10.7389
芻	-10.7389
是日	-10.739
鶯啼	-10.739
此心	-10.7404
觀察	-10.7404
一何	-10.7404
易之	-10.7405
江淹	-10.741
卒於	-10.7411
幽居	-10.7413
李端	-10.7415
如水	-10.7415
李後主	-10.7415
是年	-10.7416
别後	-10.7423
生子	-10.7426
書畫	-10.7427
李益	-10.7429
九江	-10.743
觀此	-10.7433
甚矣	-10.7441
興亡	-10.7448
東坡作	-10.7453
朝夕	-10.7461
九天	-10.747
漫録	-10.7471
公幹	-10.7473
隂陽	-10.7478
收拾	-10.7483
子雲	-10.7484
之遂	-10.7489
花下	-10.749
飲食	-10.7494
風味	-10.7494
景文	-10.7499
畧云	-10.7499
人世	-10.7504
竟何	-10.751
唐詩紀事巻第	-10.7519
春寒	-10.7521
謂此	-10.7523
少府	-10.7526
陽春	-10.7526
參知政事	-10.7527
妬	-10.7527
之學	-10.7528
盼	-10.7528
字字	-10.7528
槀	-10.753
鉢	-10.7533
庚溪詩話	-10.7533
廓	-10.7534
銖	-10.7534
出塞	-10.7535
石壁	-10.7536
近體	-10.7536
鶴林玉露	-10.7537
葱	-10.7537
二十八	-10.754
黄葉	-10.7543
唐詩紀事卷第	-10.7544
穢	-10.7544
仕宦	-10.7546
墓銘	-10.7548
石曼卿	-10.755
浣花	-10.7556
玉樓	-10.7556
飛花	-10.7561
萬壑	-10.7564
白鷺	-10.7567
略云	-10.7569
玉蘂	-10.757
後村千	-10.7573
宗廟	-10.7576
喚起	-10.7581
林寺	-10.7583
花飛	-10.7589
壁上	-10.759
嘆曰	-10.7599
赤城	-10.7608
博學	-10.7611
雲門	-10.7612
不拘	-10.7612
讀者	-10.7613
宗即位	-10.7619
九華	-10.7619
風物	-10.762
春山	-10.7625
之餘	-10.7627
物色	-10.7628
玉壺	-10.763
寄語	-10.763
所至	-10.7638
與李	-10.764
白鶴	-10.7642
溪山	-10.7651
數篇	-10.7656
斯人	-10.7659
開花	-10.766
能文	-10.7676
宋史	-10.7678
沽	-10.7681
曩	-10.7686
此去	-10.7686
復齋	-10.7686
雪詩	-10.7687
藝文志	-10.7687
梭	-10.7687
轅	-10.7687
鵶	-10.7689
閏	-10.7689
璩	-10.7689
騁	-10.7689
畿	-10.769
其詩曰	-10.769
癖	-10.769
濱	-10.769
摽	-10.7691
未嘗不	-10.7691
顛倒	-10.7691
壠	-10.7691
姻	-10.7692
璋	-10.7692
南宫	-10.7692
詐	-10.7692
躋	-10.7692
潯陽	-10.7692
藜	-10.7693
洩	-10.7694
讎	-10.7694
梦	-10.7695
㓂	-10.7695
轉運使	-10.7696
安可	-10.7696
摇	-10.7697
昶	-10.7698
不語	-10.7704
雪浪齋日記云	-10.7707
侯鯖録	-10.771
張氏	-10.7712
悠然	-10.7712
陸放翁	-10.7721
上曰	-10.7722
與同	-10.7722
昭陵	-10.7723
一段	-10.7724
入室	-10.7724
徽宗	-10.7724
暇日	-10.7735
不顧	-10.774
造物	-10.7745
各自	-10.7749
亦謂	-10.7752
其志	-10.7752
筆談	-10.7753
功業	-10.7754
語云	-10.7756
校官	-10.7758
體製	-10.7758
羅衣	-10.7767
尚未	-10.7771
昭陽	-10.7772
誰謂	-10.7773
桂林	-10.7773
風骨	-10.7775
月令	-10.7776
杜子美詩	-10.7782
離離	-10.7793
字景	-10.7794
河中	-10.7795
豈復	-10.7797
遣使	-10.7802
陽秋	-10.7806
及其	-10.7811
此中	-10.7812
早朝	-10.7813
者乎	-10.782
不曉	-10.7829
陛	-10.783
郎官	-10.7831
雲生	-10.7833
河陽	-10.7836
萬國	-10.7836
三更	-10.7836
鉅	-10.7839
剌	-10.7839
噫	-10.7839
題曰	-10.7842
掇	-10.7844
斫	-10.7845
一水	-10.7846
莓苔	-10.7846
浯溪	-10.7847
軫	-10.7847
鎔	-10.7848
其門	-10.7848
歸路	-10.7848
伽	-10.7848
儘	-10.7849
沆	-10.7849
卵	-10.7849
遨	-10.785
寤	-10.785
磴	-10.785
蚤	-10.785
李商隠	-10.785
𣺌	-10.785
叨	-10.7851
憩	-10.7851
璟	-10.7852
勵	-10.7853
春深	-10.7854
瀛奎律髓	-10.7854
隸	-10.7855
贖	-10.7855
恊	-10.7858
水上	-10.786
鎬	-10.786
而語	-10.7861
司空圖	-10.7864
即是	-10.7865
記之	-10.7873
内翰	-10.7875
䦨干	-10.788
顧况	-10.7881
三五	-10.7882
十分	-10.7887
及此	-10.7888
雲間	-10.7893
昭宗	-10.7895
落落	-10.7899
小山	-10.7902
絶唱	-10.7903
封侯	-10.7906
友善	-10.7907
使事	-10.7908
成文	-10.7909
又言	-10.7912
東陽	-10.7912
尚可	-10.7913
其大	-10.7915
元日	-10.7919
大如	-10.7921
未為	-10.7925
幾人	-10.7925
客有	-10.7926
超然	-10.7927
譬如	-10.7929
以詩寄	-10.7931
天外	-10.7934
此則	-10.7942
小字	-10.7943
大小	-10.7952
泉聲	-10.7955
自負	-10.7958
叙其	-10.7958
之耳	-10.7959
至是	-10.7961
六言	-10.7961
暗香	-10.7963
亦多	-10.7971
安石	-10.7973
内人	-10.7974
藕	-10.7977
惜其	-10.798
恍	-10.7982
文潛	-10.7982
推官	-10.7982
和之	-10.799
知是	-10.7997
試問	-10.7998
何曽	-10.8001
複	-10.8001
詮	-10.8004
少師	-10.8005
曼	-10.8005
從軍	-10.8005
銘曰	-10.8006
千丈	-10.8006
核	-10.8007
劣	-10.8007
倘	-10.8008
禹錫	-10.8008
四十年	-10.8008
麴	-10.8008
笑語	-10.8009
牌	-10.8009
賁	-10.801
趍	-10.801
称	-10.801
徐師川	-10.8011
不喜	-10.8011
卉	-10.8011
蝴蝶	-10.8011
佚	-10.8012
吸	-10.8012
攸	-10.8012
不惜	-10.8014
臭	-10.8015
鋭	-10.8017
河漢	-10.8017
韓魏公	-10.8017
若無	-10.8017
掬	-10.8018
晩唐	-10.8019
四朝	-10.8021
無已	-10.8022
至其	-10.8032
蒼生	-10.8033
口占	-10.8034
柴門	-10.8039
風騷	-10.8043
嗣宗	-10.8049
憲宗	-10.8051
其次	-10.8054
一聮	-10.8056
萬巻	-10.8062
又謂	-10.8068
石門	-10.8069
長篇	-10.8069
石室	-10.8074
宗室	-10.8074
取之	-10.8077
維揚	-10.8078
當國	-10.8092
聖主	-10.8092
飛燕	-10.8092
枕上	-10.8094
元祐中	-10.8095
太初	-10.8099
李陵	-10.8103
忠臣	-10.8112
天柱	-10.8122
明珠	-10.8122
為相	-10.8124
所知	-10.8128
之歌	-10.8129
闋	-10.8131
吟詠	-10.8131
雲夢	-10.8139
安人	-10.814
浙東	-10.8151
曰公	-10.8152
石橋	-10.8156
邠	-10.8158
無乃	-10.8161
腕	-10.8165
蒿	-10.8166
所記	-10.8168
後以	-10.817
耘	-10.8172
㽞	-10.8172
飱	-10.8173
□	-10.8173
愼	-10.8174
凄涼	-10.8174
叫	-10.8174
臆	-10.8174
捉	-10.8175
覲	-10.8175
疋	-10.8176
崢嶸	-10.8177
姥	-10.8178
腦	-10.8178
妙絶	-10.8178
饗	-10.8179
頒	-10.8179
客來	-10.8179
百家詩話總龜後集卷之	-10.818
江漢	-10.818
撚	-10.8181
褰	-10.8182
逞	-10.8183
秦檜	-10.8183
山月	-10.8184
猴	-10.8184
畋	-10.8184
與世	-10.8189
侍御史	-10.8192
士毅	-10.8196
補闕	-10.8196
十一月	-10.8196
恨不	-10.8197
艱難	-10.8199
建康	-10.8206
寒暑	-10.8214
我亦	-10.8215
曰某	-10.8217
正字	-10.8218
三曰	-10.8222
一世	-10.8226
名山	-10.8226
張仲	-10.8228
員外郎	-10.8235
侍臣	-10.8241
積雪	-10.8245
雲根	-10.8245
所藏	-10.8247
草草	-10.8249
氏子	-10.825
聲名	-10.8252
死生	-10.8253
獻詩	-10.8261
若干	-10.8262
前賢	-10.8263
漢武帝	-10.8264
謝安	-10.8267
張衡	-10.8268
吳江	-10.827
向人	-10.827
之甚	-10.8273
以獻	-10.8274
太清	-10.8275
甲科	-10.8281
殊不知	-10.8282
醉中	-10.8288
燕公	-10.8288
晩年	-10.8288
賢者	-10.8293
一去	-10.8296
長生	-10.8297
物也	-10.8299
其妙	-10.83
相遇	-10.8303
不曽	-10.8307
數人	-10.8309
十二年	-10.8309
子野	-10.831
常州	-10.8311
無端	-10.8325
苕	-10.8328
貝	-10.8329
寥	-10.833
比興	-10.8331
瀆	-10.8331
鵰	-10.8331
吃	-10.8332
白水	-10.8333
湘水	-10.8333
幢	-10.8335
匝	-10.8337
拄	-10.8338
寔	-10.8339
袴	-10.8339
頥	-10.834
骸	-10.834
醪	-10.834
惇	-10.834
鄱陽	-10.834
㤗	-10.8341
憫	-10.8342
臻	-10.8342
胡元瑞	-10.8342
㨗	-10.8342
庇	-10.8343
北方	-10.8343
宋之問	-10.8343
驤	-10.8343
怜	-10.8345
彊	-10.8345
銳	-10.8345
耻	-10.8345
澈	-10.8345
魏文帝	-10.8345
明矣	-10.8346
声	-10.8346
屹	-10.8347
弩	-10.8347
炬	-10.8348
柳子厚	-10.8349
也此	-10.8351
其詩云	-10.8353
体	-10.8353
鱸魚	-10.8353
相去	-10.8354
琯	-10.8354
栁絮	-10.8358
契丹	-10.8359
泛舟	-10.8364
睦	-10.837
漁舟	-10.8372
王元之	-10.8373
摭言	-10.8374
十載	-10.8374
水雲	-10.8379
猶自	-10.8381
垂楊	-10.839
貞觀	-10.8392
青松	-10.8392
張祐	-10.8393
風來	-10.8394
而終	-10.8398
三千里	-10.8398
之日	-10.8399
篇章	-10.8401
明帝	-10.8402
吹簫	-10.8403
秦人	-10.8404
曲盡	-10.841
有文	-10.8412
文武	-10.8415
無此	-10.8423
金玉	-10.8423
筆墨	-10.8428
成王	-10.8433
不曾	-10.8444
楚王	-10.8453
五言詩	-10.8453
又見	-10.8455
山前	-10.8455
清河	-10.846
詠史	-10.8462
嘗言	-10.847
南國	-10.8473
其四	-10.8473
上疏	-10.8474
冬至	-10.8475
異日	-10.8476
新聲	-10.8479
自序	-10.8484
騷人	-10.8485
自注云	-10.8485
音節	-10.849
茱茰	-10.8491
凭	-10.8492
獨坐	-10.8494
芥	-10.8494
兢	-10.8495
蘇公	-10.8498
襪	-10.8503
剖	-10.8503
劉郎	-10.8503
寺云	-10.8504
橈	-10.8505
睨	-10.8506
予謂	-10.8506
蔟	-10.8507
譎	-10.8508
拖	-10.8508
其身	-10.8508
顰	-10.8509
冕	-10.8509
砂	-10.851
猜	-10.851
辞	-10.851
馬嵬	-10.851
戾	-10.8511
鹵	-10.8511
蹈襲	-10.8512
麄	-10.8512
鈍	-10.8512
繋	-10.8512
晦庵	-10.8512
羇	-10.8512
貺	-10.8513
巘	-10.8513
堕	-10.8513
嬴	-10.8513
迪	-10.8513
嵇康	-10.8514
堵	-10.8515
拯	-10.8515
炯	-10.8515
萃	-10.8516
捫	-10.8516
經史	-10.8517
阮籍	-10.8517
唇	-10.8518
舊居	-10.8519
睢陽	-10.852
杜子羙	-10.8522
徐州	-10.8522
吟曰	-10.8524
途中	-10.8526
耆卿	-10.8526
敖	-10.8527
豈是	-10.8528
州司馬	-10.8528
庶幾	-10.8529
得罪	-10.8531
管絃	-10.8533
御覽	-10.8536
福建	-10.8536
中書令	-10.8538
如許	-10.8538
此老	-10.854
漫叟詩話云	-10.8543
九歌	-10.8543
其末	-10.8546
少㳺	-10.855
淮海	-10.8551
侍讀	-10.8552
有四	-10.8553
去國	-10.8555
逺近	-10.8556
餘話	-10.8556
雲外	-10.856
于鱗	-10.8563
掃地	-10.8566
無路	-10.8566
意思	-10.8569
而出	-10.857
多病	-10.8574
唐時	-10.8575
與劉	-10.8575
南豐	-10.8577
月華	-10.8579
蕭然	-10.858
尚存	-10.8582
廣州	-10.8585
固不	-10.8586
兩岸	-10.8587
類此	-10.8587
嶺外	-10.8588
諸王	-10.8589
荘子	-10.8593
之聲	-10.8596
秋來	-10.8598
閑居	-10.8604
君之	-10.8613
饒州	-10.8618
樂天詩	-10.8624
陳思	-10.8632
那知	-10.8637
其年	-10.8651
有名	-10.8652
於今	-10.8655
仙家	-10.8657
本是	-10.866
曰子	-10.8662
燕語	-10.8663
終於	-10.8664
高祖	-10.8668
有才	-10.8668
深山	-10.8669
及觀	-10.8672
音律	-10.8672
秃	-10.8672
嬋娟	-10.8677
拗律	-10.8677
注引	-10.8678
璣	-10.8679
烽	-10.8679
茵	-10.8679
又名	-10.868
擘	-10.8681
燃	-10.8681
牲	-10.8681
亷夫	-10.8681
日落	-10.8681
禎	-10.8683
贅	-10.8683
剝	-10.8683
宋文鑑	-10.8683
葺	-10.8684
㶚	-10.8684
冤	-10.8684
淩	-10.8684
愕	-10.8684
廡	-10.8684
涪翁	-10.8685
光武	-10.8685
現	-10.8685
林和靖	-10.8685
冗	-10.8686
碧落	-10.8688
六一	-10.8689
曰昔	-10.869
善為	-10.869
礪	-10.8691
可為	-10.8691
嘉靖	-10.8691
滎陽	-10.8692
張文潜	-10.8692
盧橘	-10.8692
鬰	-10.8693
凌雲	-10.8693
悵望	-10.8696
紫薇	-10.8698
當有	-10.87
詠物	-10.8706
星斗	-10.8706
貢父	-10.871
言外	-10.871
茂陵	-10.8711
太湖	-10.8716
小説	-10.8719
太過	-10.8728
竹林	-10.8728
華亭	-10.8728
冷齋	-10.8729
也東坡	-10.8732
朩蘭	-10.8732
四巻	-10.8735
十三年	-10.8735
白衣	-10.8737
才思	-10.8738
能言	-10.8743
雖無	-10.8746
改作	-10.8752
異之	-10.8752
空有	-10.8756
多有	-10.8757
壁云	-10.8759
方干	-10.8762
廟碑	-10.8764
頗有	-10.8769
百草	-10.8771
天然	-10.8773
子華	-10.8774
誰人	-10.8774
為翰林學士	-10.8775
最後	-10.8775
以道	-10.8776
也吳旦生曰	-10.8778
無益	-10.878
上方	-10.8781
有竒	-10.8789
所言	-10.879
林甫	-10.8791
無語	-10.8791
四首	-10.8791
又何	-10.8792
中國	-10.8797
至如	-10.8806
雅頌	-10.8806
存者	-10.8807
擢第	-10.8815
為韻	-10.8818
朝天	-10.8822
詩律	-10.8824
庭前	-10.8836
其書	-10.884
日斜	-10.8846
石頭	-10.8846
滔	-10.8848
蝕	-10.8849
退之詩	-10.885
幾何	-10.885
襍	-10.8854
稱為	-10.8854
墅	-10.8855
楼	-10.8855
滄溟	-10.8856
司馬相如	-10.8856
迭	-10.8857
罇	-10.8858
虗	-10.8858
漁隱叢話前集巻	-10.8858
薤	-10.8858
股	-10.8859
北人	-10.886
垢	-10.8861
歸安吳景旭撰	-10.8861
棃	-10.8861
檐	-10.8861
掣	-10.8862
喬木	-10.8864
個	-10.8864
馥	-10.8865
月恭校上	-10.8865
蘇東坡	-10.8865
昀	-10.8866
未詳	-10.8867
皂	-10.8868
禮部尚書	-10.8868
零陵	-10.8869
堂堂	-10.8872
東觀	-10.8873
塞上	-10.8874
國家	-10.8874
不幸	-10.8875
當為	-10.8878
絶頂	-10.8881
之音	-10.8882
日照	-10.8882
有味	-10.8883
和靖	-10.8885
落魄	-10.8886
諸葛	-10.8888
未㡬	-10.889
才力	-10.8894
太史公	-10.8902
朋友	-10.8902
孺子	-10.8902
朔方	-10.8909
明道	-10.8909
澄江	-10.8912
何曾	-10.8913
紅粉	-10.8917
所在	-10.8918
張說	-10.8919
雨聲	-10.892
早晚	-10.8921
白露	-10.8925
荅曰	-10.8928
何許	-10.8928
西蜀	-10.893
光照	-10.8931
四百	-10.8931
詩多	-10.8934
之㫖	-10.8936
功曹	-10.8943
等語	-10.8945
記得	-10.8952
天際	-10.8955
二女	-10.8955
氣格	-10.8957
謂曰	-10.8961
尤多	-10.8961
平日	-10.8962
無功	-10.8964
若有	-10.8965
贈張	-10.8967
能為	-10.8968
之志	-10.8969
入門	-10.8971
此亦	-10.8972
論也	-10.8976
路傍	-10.8977
臨風	-10.8979
江村	-10.8981
金門	-10.8984
十五年	-10.8986
松竹	-10.899
屬對	-10.8995
唐人詩	-10.8997
七日	-10.8997
舒王	-10.8999
嵩山	-10.9003
陸放翁詩	-10.901
留守	-10.9015
一半	-10.9017
妃子	-10.9023
鑠	-10.9026
鼈	-10.9027
行雲	-10.9027
猶能	-10.9028
長歌	-10.9028
胄	-10.9029
曰臣	-10.903
縛	-10.9031
僖	-10.9031
詩林萬選	-10.9033
嬪	-10.9033
翥	-10.9034
哦	-10.9034
址	-10.9035
嫗	-10.9036
藹	-10.9036
耽	-10.9037
霅	-10.9037
璽	-10.9038
驄	-10.9038
厄	-10.9038
欽定四庫全書集部九	-10.9039
舡	-10.904
雲霄	-10.904
太液	-10.904
虐	-10.9041
學問	-10.9042
僑	-10.9043
猿啼	-10.9044
杲	-10.9047
警䇿	-10.9048
無盡	-10.9048
建州	-10.9049
雅言	-10.9051
悲風	-10.9052
言者	-10.9053
邵武	-10.9056
疑其	-10.9056
事以	-10.9056
王平甫	-10.9057
獨孤	-10.9062
綺羅	-10.9063
莫道	-10.9064
韻者	-10.9068
洪武	-10.9072
眼中	-10.9072
鏡中	-10.9073
昇平	-10.9075
開府	-10.9076
畫馬	-10.9077
王粲	-10.9078
新法	-10.9082
衡陽	-10.9083
荷葉	-10.9083
為名	-10.9085
聮句	-10.9087
内外	-10.9094
詩名	-10.9097
漁陽	-10.9099
西園	-10.91
少保	-10.9102
落筆	-10.9103
衆人	-10.9105
墓表	-10.9106
㑹昌	-10.9106
短長	-10.9107
天河	-10.911
開門	-10.9111
始得	-10.9112
揚子	-10.9115
百丈	-10.9116
山光	-10.9122
云我	-10.9122
白晝	-10.9122
自題	-10.9123
花影	-10.9123
詩詞	-10.9127
堂前	-10.9136
始見	-10.9137
上帝	-10.914
西漢	-10.914
德宗	-10.9141
傍人	-10.9143
無消息	-10.9145
往事	-10.9145
字公	-10.9146
大年	-10.9165
猶是	-10.9169
人主	-10.9171
嵗時	-10.9172
一洗	-10.9174
得失	-10.9177
有異	-10.9178
皆在	-10.918
惜哉	-10.9183
建中	-10.9186
黄鶴	-10.919
句句	-10.919
烟波	-10.9191
州縣	-10.9191
不取	-10.9194
前有	-10.9201
奉和	-10.9201
東平	-10.9203
目為	-10.9204
此等	-10.9205
七十二	-10.9205
起句	-10.9205
希文	-10.9208
旭	-10.9208
相繼	-10.9209
或問	-10.9211
耿耿	-10.9212
滄洲	-10.9213
頓挫	-10.9213
厺	-10.9214
濬	-10.9214
誘	-10.9214
斵	-10.9216
歆	-10.9218
肘	-10.9218
鶩	-10.9218
隘	-10.9219
郭璞	-10.9219
侔	-10.9219
爱	-10.922
瞑	-10.922
欽定四庫全書漁隱叢話前集巻	-10.922
枇杷	-10.9221
弋	-10.9221
舄	-10.9221
吾家	-10.9221
崔嵬	-10.9222
璉	-10.9223
避暑	-10.9223
楊大年	-10.9224
飈	-10.9224
崕	-10.9224
閫	-10.9224
濠	-10.9225
鷁	-10.9226
清光	-10.9227
杼	-10.9229
三公	-10.9229
綯	-10.923
吳中	-10.923
猗	-10.923
老矣	-10.923
也苕溪漁隠曰	-10.9233
太乙	-10.9233
楊誠齋	-10.9234
慨然	-10.9236
清秋	-10.9238
字為	-10.9241
平仄	-10.9243
靈運	-10.9252
誤也	-10.9254
功父	-10.9257
余讀	-10.9258
縣尉	-10.9261
吟咏	-10.9262
人去	-10.9264
紅葉	-10.9267
賓客	-10.9269
沈沈	-10.9279
不學	-10.9279
光輝	-10.9282
山行	-10.9284
使我	-10.9288
忽有	-10.9296
送僧	-10.9301
誦其	-10.9301
荆門	-10.9306
效之	-10.9307
西川	-10.9307
風烟	-10.9308
二十二	-10.9312
集中有	-10.9319
亦不能	-10.932
終始	-10.9321
崇安	-10.9323
宋初	-10.9325
語言	-10.9325
戲作	-10.9329
成章	-10.933
寓意	-10.9331
早春	-10.9331
渡頭	-10.9331
雲水	-10.9336
無一字	-10.9339
器之	-10.934
紅兒	-10.9346
元豐中	-10.9348
酒樓	-10.935
胡為	-10.935
耳目	-10.9354
風雪	-10.9358
高宗	-10.9359
之女	-10.9364
諸詩	-10.9367
此曲	-10.9371
安道	-10.9374
門户	-10.9375
十四年	-10.9376
清香	-10.9381
北征	-10.9384
騶	-10.9385
十字	-10.9386
清溪	-10.9389
格律	-10.9391
浮生	-10.9393
不改	-10.9395
霏霏	-10.9396
潼	-10.9396
公誌	-10.9397
拓	-10.9397
倖	-10.9397
踞	-10.9398
撞	-10.9399
潑	-10.94
顚	-10.94
蒼茫	-10.9401
娯	-10.9401
硬	-10.9402
万	-10.9402
楫	-10.9402
蝦	-10.9403
侃	-10.9403
白蓮	-10.9403
廽	-10.9403
梗	-10.9404
嵒	-10.9404
棧	-10.9404
俶	-10.9404
縠	-10.9405
薑	-10.9406
騐	-10.9406
羔	-10.9406
亢	-10.9407
吻	-10.9407
螭	-10.9407
蚊	-10.9408
靚	-10.9408
彛	-10.9409
僖宗	-10.9409
肻	-10.9409
罍	-10.941
宫詞云	-10.9416
鬱鬱	-10.9417
來時	-10.9418
也盖	-10.9419
紫宸	-10.9419
楊文公	-10.942
簡齋	-10.9424
天門	-10.9425
築室	-10.9425
小舟	-10.9426
首句	-10.9433
因此	-10.9434
金吾	-10.9438
漫錄	-10.9443
千家	-10.9447
筆端	-10.9447
見而	-10.9454
不佳	-10.9454
不疑	-10.9458
之遺	-10.9466
相親	-10.947
于是	-10.9472
湘江	-10.9478
永嘉人	-10.9478
晝夜	-10.9479
前事	-10.948
送李	-10.9483
莆田人	-10.9485
經過	-10.9485
字彦	-10.9485
寒泉	-10.9489
立春	-10.949
是何	-10.9492
化作	-10.9495
魏野	-10.9498
分司	-10.95
咸平	-10.9501
千尋	-10.9515
身後	-10.9518
龍山	-10.9524
夜宿	-10.9525
誰為	-10.9529
文正	-10.9533
張説	-10.9535
聨句	-10.9536
夜坐	-10.9537
天風	-10.954
知我	-10.9541
十數	-10.9545
召試	-10.9548
歌者	-10.9549
煙雨	-10.955
左丞	-10.9552
廟堂	-10.9553
忘其	-10.9554
七人	-10.9556
又題	-10.9558
人舉進士	-10.9559
可觀	-10.9568
譏其	-10.9573
不斷	-10.9579
南園	-10.958
李斯	-10.9583
東方朔	-10.9583
鉏	-10.9585
琥珀	-10.9585
黏	-10.9586
行客	-10.9586
菖蒲	-10.9587
涎	-10.9587
㤀	-10.9587
芸	-10.9588
槿	-10.9588
則天	-10.9588
蔥	-10.9589
仔	-10.9589
醴	-10.9589
覃	-10.959
用兵	-10.959
㤙	-10.959
涓	-10.9591
黄常明	-10.9591
東流	-10.9591
脊	-10.9591
貳	-10.9592
鱸	-10.9593
拊	-10.9593
坑	-10.9594
桒	-10.9594
篙	-10.9594
榕	-10.9594
𤨏	-10.9595
閟	-10.9595
彤	-10.9596
有無	-10.9596
乃謂	-10.9596
憾	-10.9597
然有	-10.9599
飄零	-10.9599
黄氏	-10.96
終南	-10.96
盍	-10.9601
太常博士	-10.9601
其兄	-10.9602
詩體	-10.9603
髩	-10.9604
漁樵	-10.9604
為大	-10.9604
鯉魚	-10.9606
闗中	-10.9606
吏部尚書	-10.9607
頃刻	-10.9608
詩一首	-10.9612
大暦	-10.9612
落盡	-10.9621
此豈	-10.9622
傳聞	-10.9627
夜夢	-10.9627
吉州	-10.9628
押韻	-10.963
乎其	-10.9631
承恩	-10.9632
金釵	-10.9632
嗜酒	-10.9634
一律	-10.9634
山頂	-10.9638
吾廬	-10.9638
諸賢	-10.964
杖藜	-10.9643
只恐	-10.9645
左司	-10.965
西江	-10.965
以手	-10.9654
繁華	-10.9654
一一	-10.9661
世界	-10.9661
丁謂	-10.9663
羅隱	-10.9667
先是	-10.9668
謫居	-10.9671
平明	-10.968
清流	-10.9687
西溪	-10.97
殿前	-10.9702
何䖏	-10.9703
誰復	-10.9706
變而	-10.9709
往還	-10.9716
目前	-10.9719
異人	-10.9719
女兒	-10.9724
雨後	-10.9729
漢陽	-10.9731
忽見	-10.9731
許之	-10.9731
或以為	-10.9733
西望	-10.9734
林間	-10.9738
相看	-10.974
國語	-10.9743
舉世	-10.9747
六義	-10.9749
風煙	-10.9749
忽然	-10.9749
樂章	-10.9752
之意也	-10.9753
日光	-10.9757
獻之	-10.9758
時號	-10.9768
與張	-10.9768
秧	-10.9769
磊	-10.977
禊	-10.9771
曝	-10.9771
一尺	-10.9771
是嵗	-10.9772
未聞	-10.9773
之精	-10.9773
迄	-10.9773
楚人	-10.9776
嵇	-10.9776
海門	-10.9776
而能	-10.9777
竅	-10.978
困學紀聞	-10.978
儷	-10.978
縟	-10.9781
驚人	-10.9781
稹	-10.9781
訂	-10.9782
柑	-10.9783
帬	-10.9783
閽	-10.9783
遏	-10.9783
鏁	-10.9783
莱	-10.9784
苕溪漁隱叢話	-10.9784
泌	-10.9784
淋漓	-10.9784
漣	-10.9784
缸	-10.9784
瓘	-10.9785
濟南	-10.9786
薺	-10.9787
盻	-10.9788
宋子京	-10.9788
姝	-10.9788
傚	-10.9788
坎	-10.9788
旂	-10.9789
幙	-10.9789
忽聞	-10.9789
夢寐	-10.979
機杼	-10.979
汀洲	-10.9791
吏部侍郎	-10.9792
那堪	-10.9793
幣	-10.9794
奔走	-10.9794
燈前	-10.9795
最多	-10.9796
黄鶴樓	-10.9797
御溝	-10.9798
串	-10.9798
以待	-10.98
詩其源出於	-10.9801
庭堅	-10.9801
王昌齡	-10.9801
華清宫	-10.9803
館職	-10.9803
如老杜	-10.9804
骨肉	-10.9806
總龜	-10.9807
細看	-10.981
歴歴	-10.981
知君	-10.981
王建宫詞	-10.9812
感激	-10.9814
之前	-10.9816
楊妃	-10.9818
須知	-10.9822
髙妙	-10.9828
與王	-10.9828
殺人	-10.9829
五言云	-10.9838
城上	-10.9839
去後	-10.9841
城北	-10.9842
有數	-10.9842
相送	-10.9842
松下	-10.9844
夏侯	-10.9846
韓公	-10.9851
康節	-10.9852
者必	-10.9853
又嘗	-10.9858
則非	-10.9859
評云	-10.9864
王右丞	-10.9866
千峯	-10.9866
希聲	-10.9867
城頭	-10.9867
屏山	-10.9868
王師	-10.9873
東萊	-10.9874
長洲	-10.9874
滿城	-10.9879
此論	-10.988
盛事	-10.9885
行役	-10.9886
京城	-10.989
南京	-10.9891
北固	-10.9892
重重	-10.9893
一徑	-10.9894
還鄉	-10.9896
思君	-10.9898
莆田	-10.9902
左思	-10.9904
北闕	-10.9907
龍虎	-10.9913
望之	-10.9913
流年	-10.9923
人謂之	-10.9923
亡國	-10.9927
眉山	-10.9927
萬嵗	-10.9928
文詞	-10.9929
春愁	-10.993
賢良	-10.9931
相顧	-10.9931
其法	-10.9933
長松	-10.9934
武侯	-10.9938
城下	-10.9945
舞衣	-10.9947
遺恨	-10.9947
紫雲	-10.9947
杜云	-10.9948
贈詩曰	-10.9948
至元	-10.995
尚書郎	-10.9951
送行	-10.9958
莘	-10.9959
翺	-10.9959
極目	-10.9965
駟	-10.9965
汩	-10.9968
應是	-10.9969
汶	-10.9969
犂	-10.997
湘中	-10.997
燼	-10.9973
囿	-10.9973
未至	-10.9974
洙	-10.9974
犬吠	-10.9974
臼	-10.9974
苓	-10.9975
邑人	-10.9975
凜	-10.9976
詫	-10.9976
濳	-10.9977
蕭瑟	-10.9978
賽	-10.9978
轆轤	-10.9978
綾	-10.9979
逸少	-10.9979
以告	-10.9979
摸	-10.998
丕	-10.998
應聲曰	-10.9981
沂	-10.9981
渝	-10.9982
隈	-10.9982
躁	-10.9984
啜	-10.9984
脆	-10.9984
泳	-10.9985
慟	-10.9985
濮	-10.9986
緫	-10.9986
王弇州	-10.9986
舛	-10.9987
糞	-10.9987
喙	-10.9987
秀老	-10.9987
紇	-10.9987
隗	-10.9987
絛	-10.9989
瀝	-10.9989
團扇	-10.999
之末	-10.999
嫉	-10.9991
郵亭	-10.9992
歿	-10.9993
所書	-10.9997
謂是	-10.9997
漫漫	-11
雲霞	-11.0002
四皓	-11.0002
凡此	-11.0005
延之	-11.0006
敏中	-11.0007
韋莊	-11.0008
而止	-11.0009
漁翁	-11.001
石榴	-11.001
殿上	-11.0013
髙麗	-11.0015
蔡京	-11.0016
經云	-11.0027
舊有	-11.0028
文忠公	-11.0035
詩亦云	-11.0042
珍重	-11.0046
雙飛	-11.0048
過於	-11.0053
拂衣	-11.0056
皆是	-11.0057
絶倒	-11.0058
亭上	-11.0074
西來	-11.0074
西方	-11.0075
格調	-11.0077
一樹	-11.0078
此花	-11.0078
别業	-11.0079
葉落	-11.0083
唐虞	-11.0089
尚在	-11.0089
殘陽	-11.0092
大明	-11.0094
渡河	-11.0095
有酒	-11.0097
青絲	-11.0099
幾多	-11.0105
應詔	-11.0111
時作	-11.0115
字畫	-11.0119
而退	-11.0126
末句云	-11.013
有道	-11.0137
諺云	-11.0137
太甚	-11.0139
之趣	-11.014
曹公	-11.0141
其母	-11.0143
歲月	-11.0145
所傳	-11.0153
亦作	-11.0154
召還	-11.0158
紀聞	-11.0159
多以	-11.0162
山路	-11.0163
浙江	-11.0163
杯酒	-11.0169
柘枝	-11.017
柘	-11.0171
亭云	-11.0173
峙	-11.0173
皋	-11.0174
籙	-11.0175
琮	-11.0176
禀	-11.0178
䖝	-11.0178
諶	-11.0179
釘	-11.0179
滂	-11.0179
閶闔	-11.018
﨑嶇	-11.018
蘄	-11.0181
茲	-11.0181
球	-11.0181
趾	-11.0181
􁁊	-11.0181
暎	-11.0182
慟哭	-11.0182
褊	-11.0182
工部尚書	-11.0183
及之	-11.0184
邨	-11.0184
厮	-11.0185
集附	-11.0185
野老	-11.0185
埀	-11.0185
迁	-11.0186
賸	-11.0187
弘	-11.0187
攲	-11.0187
燎	-11.0187
葫蘆	-11.0187
吾道	-11.0188
皁	-11.0188
盂	-11.0188
小草齋	-11.0189
生平	-11.019
孟東野	-11.0191
扄	-11.0192
蘇子由	-11.0192
所賦	-11.0193
耆舊	-11.0194
李嘉祐	-11.0198
玉簫	-11.02
浙西	-11.0201
茘枝	-11.0202
即日	-11.0204
文潞公	-11.0205
白蘋	-11.0207
二事	-11.0207
景祐	-11.0211
經綸	-11.0212
也至於	-11.0217
在天	-11.0219
烏鬼	-11.022
賢人	-11.0221
家山	-11.0221
願得	-11.0223
園中	-11.023
詠懐	-11.0231
太學生	-11.0231
亂山	-11.0232
行於世	-11.0232
相憶	-11.0232
詩巻	-11.0238
容齋	-11.0241
鶴林	-11.0244
按唐	-11.0244
自出	-11.0245
此格	-11.0246
隱隱	-11.0247
嘉興	-11.0248
他時	-11.025
亦足	-11.0251
題目	-11.0254
處州	-11.0259
兩漢	-11.0264
明時	-11.0269
珠玉	-11.027
淮南子	-11.0273
不工	-11.0276
隴西	-11.0278
幸有	-11.028
北門	-11.0285
子規	-11.0292
二十三	-11.0292
縣人	-11.0293
并州	-11.0296
正言	-11.0301
煙波	-11.0301
渭水	-11.0307
深矣	-11.0308
者多矣	-11.0308
詩選	-11.0309
水清	-11.0311
黄雲	-11.0311
峴	-11.0317
景龍	-11.0319
清夜	-11.0322
吾聞	-11.0327
盖用	-11.0329
老病	-11.0333
神明	-11.0334
者自	-11.0335
沙門	-11.0337
議者	-11.0337
一雙	-11.0338
清曉	-11.0338
今夕	-11.0339
公事	-11.0339
未到	-11.0339
淵明詩	-11.0343
無因	-11.0343
翠華	-11.0343
自以為	-11.0344
自笑	-11.0352
呉越	-11.0354
水面	-11.0359
松聲	-11.0362
則以	-11.0362
發明	-11.0364
花前	-11.0365
所宜	-11.0366
京華	-11.0367
牝	-11.0368
秦州	-11.037
冬日	-11.0371
塚	-11.0372
三篇	-11.0373
入朝	-11.0373
集韻	-11.0374
乞與	-11.0374
靴	-11.0377
殻	-11.0377
襦	-11.0378
攅	-11.0378
咲	-11.0381
崛	-11.0381
漬	-11.0382
覿	-11.0382
擣	-11.0383
鑪	-11.0383
徂	-11.0385
塋	-11.0385
逶迤	-11.0385
嫦娥	-11.0385
瘡	-11.0386
蹉跎	-11.0387
菰	-11.0387
珠璣	-11.0387
鏘	-11.0387
鏗	-11.0388
花蘂夫人	-11.0388
黄鸝	-11.0388
都門	-11.0388
僞	-11.0389
隕	-11.0389
亊	-11.0389
献	-11.0392
猶可	-11.0392
庚申	-11.0392
熙寜	-11.0393
杳杳	-11.0396
故謂之	-11.0399
貧賤	-11.0405
底事	-11.0405
世謂	-11.0405
王安石	-11.0406
腸斷	-11.041
朝雲	-11.0416
也夫	-11.042
然如	-11.0423
知道	-11.043
王勃	-11.043
五言律	-11.0433
和風	-11.0437
微之	-11.0442
誰是	-11.0443
殘紅	-11.0448
時年	-11.0449
夫婦	-11.0452
九章	-11.0455
天馬	-11.0458
表聖	-11.0461
曲名	-11.0461
如雪	-11.0462
親切	-11.0463
之父	-11.0466
花滿	-11.0466
初學	-11.0467
朝來	-11.0468
景純	-11.0468
南岳	-11.0469
待詔	-11.047
無主	-11.0473
數里	-11.0473
寒雲	-11.0473
熟讀	-11.048
淺深	-11.0484
玉女	-11.0485
水邊	-11.0486
楊氏	-11.049
寄書	-11.0494
安仁	-11.0501
送别	-11.0502
二十六	-11.0502
驚起	-11.0503
一麾	-11.0503
蒼龍	-11.0507
九霄	-11.0509
為人所	-11.051
今觀	-11.0515
成篇	-11.052
光明	-11.0522
再三	-11.0529
世稱	-11.0534
第六	-11.0535
可知矣	-11.0536
無風	-11.0539
時來	-11.055
最佳	-11.055
两句	-11.0552
故作	-11.0552
永樂	-11.0554
亦難	-11.0555
夢裏	-11.0559
風前	-11.0562
道傍	-11.0563
矣而	-11.0567
李太白詩	-11.0571
煜	-11.0574
大驚	-11.0575
應舉	-11.0575
即席	-11.0577
祓	-11.0578
曽見	-11.0578
皇甫冉	-11.0578
近來	-11.0579
茸	-11.0582
豚	-11.0583
薊	-11.0583
之所以	-11.0584
兵部	-11.0584
郡王	-11.0585
毛詩	-11.0586
曦	-11.0587
迸	-11.0587
壚	-11.0588
伯時	-11.0588
揔	-11.0589
蘇子美	-11.0589
矣今	-11.0589
囯	-11.059
之術	-11.059
甄	-11.0591
汁	-11.0591
夷堅志	-11.0592
駱	-11.0592
吼	-11.0592
沫	-11.0593
聲畫集	-11.0593
能改齋漫録	-11.0593
漪	-11.0593
烱	-11.0594
貸	-11.0594
軋	-11.0594
桑麻	-11.0595
賀知章	-11.0595
邯鄲	-11.0595
蜻	-11.0595
冡	-11.0595
縳	-11.0595
鉞	-11.0595
杜䳌	-11.0596
酒家	-11.0596
渺渺	-11.0596
䰟	-11.0596
撮	-11.0596
膾炙人口	-11.0596
槍	-11.0597
翎	-11.0597
禰衡	-11.0597
㪚	-11.0598
訥	-11.0598
斃	-11.0599
盪	-11.0599
司農	-11.0599
元㣲之	-11.0599
級	-11.06
曳	-11.06
訕	-11.0601
六合	-11.0601
処	-11.0602
糟	-11.0602
目之	-11.0602
瞳	-11.0603
大理	-11.0603
菩薩	-11.0605
招魂	-11.0605
行狀	-11.0605
東甌	-11.0608
男女	-11.0611
青箱	-11.0612
文館	-11.0616
召為	-11.0617
太白詩	-11.0618
枝上	-11.0619
九鎖	-11.0621
雖云	-11.0622
本意	-11.0622
惠崇	-11.0624
瑶池	-11.0624
全唐	-11.0626
白沙	-11.0626
水底	-11.0629
第二句	-11.0629
駿馬	-11.0629
晦翁	-11.0629
年六十	-11.0633
偶談	-11.0634
太息	-11.0636
勸君	-11.0637
功甫	-11.0637
今宵	-11.0638
不第	-11.0643
形於	-11.0644
經營	-11.0644
其首	-11.0646
省試	-11.0649
可能	-11.065
參政	-11.0651
為佳	-11.0653
所出	-11.0655
玉露	-11.0663
長嘯	-11.0664
茅山	-11.0665
矣故	-11.067
都人	-11.067
在位	-11.067
數語	-11.0671
在蜀	-11.0673
白鹿	-11.0674
宫商	-11.0682
聯句	-11.0682
不離	-11.0685
遂成	-11.0685
開成	-11.0688
學道	-11.0688
前日	-11.0689
乗興	-11.0689
萬世	-11.069
歸去來	-11.0693
秋江	-11.0698
詩序	-11.0702
為客	-11.0706
南人	-11.0706
香山	-11.0707
城外	-11.0709
把酒	-11.071
本此	-11.0713
使之	-11.0714
曲終	-11.0714
廣韻	-11.0714
曲有	-11.0716
傳者	-11.0721
死者	-11.0722
賜號	-11.0724
書記	-11.0725
好學	-11.0733
宣王	-11.0735
不借	-11.0738
小園	-11.0738
詩語	-11.0738
許彦周詩話	-11.0747
遥知	-11.075
末年	-11.075
野色	-11.0751
始覺	-11.0752
逢人	-11.0753
留别	-11.0755
山谷詩	-11.0758
久不	-11.0758
同心	-11.0759
體物	-11.076
贈詩云	-11.0763
故東坡	-11.0764
明白	-11.0766
江亭	-11.0769
自比	-11.0773
不湏	-11.0773
心知	-11.0774
大率	-11.0775
無餘	-11.0778
不絶	-11.0782
舊遊	-11.0783
官軍	-11.0786
乃有	-11.0786
滿目	-11.0788
答云	-11.0789
意味	-11.079
三品	-11.0795
挿	-11.0797
野客	-11.0797
稗	-11.0797
哥	-11.0799
賈生	-11.0799
磧	-11.0799
扆	-11.0799
筌	-11.0799
醖	-11.0799
緻	-11.08
嘉禾	-11.08
籖	-11.08
韓翃	-11.08
鶚	-11.08
鴻鴈	-11.08
撾	-11.08
兀	-11.0801
箔	-11.0801
湄	-11.0801
駝	-11.0801
涌	-11.0802
剔	-11.0803
吠	-11.0804
泚	-11.0804
欒	-11.0804
涪	-11.0805
茹	-11.0805
者葢	-11.0805
髭	-11.0805
杓	-11.0806
這	-11.0806
第七	-11.0807
識之	-11.0807
冐	-11.0807
㵼	-11.0807
緜	-11.0808
錬	-11.0808
晁無咎	-11.0809
抒	-11.0809
䜛	-11.081
琪	-11.081
搗	-11.0811
琦	-11.0811
闗山	-11.0812
弟兄	-11.0814
以為然	-11.0814
無遺	-11.0814
宋景文	-11.0817
長句	-11.0817
楊州	-11.0817
蹤跡	-11.0818
九齡	-11.0818
水聲	-11.0822
載之	-11.0824
深宫	-11.0826
入貢	-11.083
新竒	-11.083
舊山	-11.0831
世祖	-11.0832
不少	-11.0832
一千	-11.0834
流涕	-11.0842
口號	-11.0848
露布	-11.0849
明州	-11.0851
館閣	-11.0853
此詩云	-11.0853
吳王	-11.0854
脩竹	-11.0856
殘雪	-11.0857
昌齡	-11.0858
翠㣲	-11.0858
車駕	-11.0858
朝野	-11.0858
可以為	-11.086
誰憐	-11.0861
維摩	-11.0861
龍池	-11.0862
功臣	-11.0864
來者	-11.0866
以書	-11.0867
生日	-11.0867
霜雪	-11.0868
三朝	-11.0872
山南	-11.0874
謂此也	-11.0875
秋氣	-11.0877
虚中	-11.0889
無塵	-11.0901
聲調	-11.0901
傾城	-11.0903
以比	-11.0908
文體	-11.091
詞曰	-11.0911
著作	-11.0915
退居	-11.0923
法曹	-11.0924
無愧	-11.0931
大名	-11.0932
虎頭	-11.0934
夜話	-11.0935
上官	-11.0935
召對	-11.094
兩浙	-11.0943
巳而	-11.0944
連天	-11.0947
全用	-11.0948
東京	-11.0949
善用	-11.0949
小說	-11.0953
怪石	-11.0959
嘉州	-11.0966
字文	-11.0967
中宵	-11.0969
故知	-11.0975
日夕	-11.0978
韻語	-11.0979
張華	-11.0979
而非	-11.0979
平沙	-11.0984
伯玉	-11.099
益州	-11.0992
覽之	-11.0996
悠	-11.1002
於人	-11.1003
湖水	-11.1004
大梁	-11.1004
雲飛	-11.1004
徳宗	-11.1005
燄	-11.1008
寥寥	-11.1012
為第一	-11.1013
歸時	-11.1014
鞦韆	-11.1014
官職	-11.1015
昔時	-11.1015
真珠	-11.1017
慱	-11.1018
闥	-11.1019
嘗聞	-11.102
帶雨	-11.102
猥	-11.102
白骨	-11.1021
沓	-11.1021
亶	-11.1021
攘	-11.1022
查	-11.1022
幔	-11.1023
禾黍	-11.1023
笥	-11.1023
刁	-11.1024
鮫	-11.1024
庖	-11.1025
榦	-11.1025
靨	-11.1026
瀟灑	-11.1026
懋	-11.1026
俳	-11.1027
甜	-11.1027
提刑	-11.1027
償	-11.1028
愔	-11.1029
塟	-11.103
曹植	-11.103
澣	-11.103
陸士衡	-11.1031
甸	-11.1032
郊祀	-11.1033
九曲	-11.1034
檀弓	-11.1034
逆旅	-11.1034
玉皇	-11.1034
雲起	-11.1034
舊事	-11.1036
然觀	-11.1037
林逋	-11.1037
詩眼云	-11.1037
酒杯	-11.1038
中使	-11.1038
不愛	-11.1039
觀察使	-11.1039
舶	-11.1039
前世	-11.1041
大和	-11.1042
李翺	-11.1043
鴻漸	-11.1048
嚴維	-11.105
杜宇	-11.105
海外	-11.1057
漁隱	-11.1057
露滴	-11.1057
則可	-11.1059
去非	-11.106
文穆	-11.1062
銀燭	-11.1064
后土	-11.1066
梅詩	-11.1068
畫屏	-11.1071
多士	-11.1072
潛夫	-11.1073
南嶽	-11.1074
帝京	-11.1078
祭酒	-11.1082
作詩以	-11.1091
音韻	-11.1091
雙聲	-11.1093
青草	-11.1095
之因	-11.1096
形如	-11.1099
穿花	-11.1099
昌言	-11.1099
小樓	-11.1106
哀哉	-11.1107
終篇	-11.1107
恨無	-11.111
地名	-11.1117
良久	-11.1119
以詩名	-11.1119
古體	-11.1121
大書	-11.1121
嘗有詩云	-11.1122
曉日	-11.1135
近代	-11.1136
之東	-11.1138
嘉祐中	-11.1139
自由	-11.1141
崔氏	-11.1146
雪滿	-11.1146
辨之	-11.1149
土人	-11.1155
東歸	-11.1156
滿眼	-11.1157
絶妙	-11.1158
錢氏	-11.1159
元亮	-11.116
之罪	-11.1163
病中	-11.1163
日與	-11.1165
庭中	-11.1167
如練	-11.1174
詞意	-11.1174
神龍	-11.1175
五侯	-11.118
牡丹詩	-11.1181
鳥飛	-11.1183
婺州	-11.1184
公以	-11.1188
老成	-11.119
絲竹	-11.1201
後漢書	-11.1207
塵世	-11.1207
子固	-11.121
破題	-11.1211
大體	-11.1211
前此	-11.1213
齧	-11.1216
紙筆	-11.1217
王仲	-11.1219
慨	-11.1219
嘗賦	-11.1223
義理	-11.1226
寺丞	-11.123
習之	-11.1231
姊	-11.1231
鸕鷀	-11.1236
西陵	-11.1237
杯中	-11.1237
壙	-11.1239
蒨	-11.1239
瓊花	-11.1239
雨餘	-11.1241
嶷	-11.1242
曄	-11.1242
瑾	-11.1243
泄	-11.1243
笞	-11.1243
酴醿	-11.1243
珏	-11.1244
葆	-11.1244
金碧	-11.1244
豊	-11.1244
躑躅	-11.1244
稠	-11.1244
灞	-11.1245
鑚	-11.1245
悄	-11.1245
岱	-11.1245
蔕	-11.1246
邃	-11.1246
俛	-11.1247
江夏	-11.1247
摯	-11.1247
炷	-11.1247
麻姑	-11.1248
綦	-11.1248
泓	-11.1249
譯	-11.1249
鷰	-11.125
陸龜䝉	-11.125
洵	-11.1251
殿中侍御史	-11.1251
三百年	-11.1251
舫	-11.1252
勛	-11.1252
臞	-11.1252
襖	-11.1253
楞	-11.1254
顒	-11.1254
黼	-11.1255
盌	-11.1256
東坡嘗	-11.1257
糖	-11.1257
紅樓	-11.1258
此二句	-11.1258
伊尹	-11.1259
流俗	-11.126
風生	-11.126
受命	-11.1261
烏鵲	-11.1261
沉沉	-11.1262
不行	-11.1262
故能	-11.1264
承㫖	-11.1268
教坊	-11.1269
錦江	-11.127
字正	-11.1271
後進	-11.1271
登進士第	-11.1274
自許	-11.1275
詔書	-11.1275
嘲之曰	-11.1275
羽毛	-11.1281
楊子	-11.1282
秦淮	-11.1283
商山	-11.1284
聖朝	-11.1284
蜀道	-11.1284
大滌	-11.1284
三徑	-11.1286
獨倚	-11.1286
數行	-11.1288
工拙	-11.1288
世無	-11.129
相知	-11.129
不住	-11.129
升堂	-11.1293
金錢	-11.1293
大歴	-11.1294
裴度	-11.1299
作此詩	-11.13
疊韻	-11.1301
不能自	-11.1309
登高	-11.131
思量	-11.1311
深逺	-11.1312
李白詩	-11.1313
赤松	-11.1315
桃葉	-11.1315
孤村	-11.1321
平陽	-11.1321
傳寫	-11.1323
梅花詩	-11.133
中庭	-11.1332
亂離	-11.1334
溪流	-11.134
平甫	-11.1343
神宗朝	-11.1344
不羈	-11.1345
枝葉	-11.1345
歌詞	-11.1346
俗人	-11.1348
呼之	-11.1348
宋亡	-11.135
家世	-11.1353
觀音	-11.1354
石城	-11.1357
滁州	-11.1358
孝宗	-11.1366
實録	-11.137
應物	-11.1373
五行	-11.1375
征人	-11.1377
苑中	-11.1379
崑	-11.138
江樓	-11.138
但知	-11.1381
相近	-11.1382
非常	-11.1382
五品	-11.1385
居易	-11.1387
立意	-11.1388
國之	-11.139
公神道碑	-11.1391
華嚴	-11.1393
不求	-11.1395
元夕	-11.1397
北歸	-11.1399
子容	-11.14
情性	-11.14
長年	-11.14
元章	-11.1403
集載	-11.1404
賜之	-11.1404
但以	-11.1406
集序	-11.1406
而思	-11.1413
足矣	-11.1416
將相	-11.1418
之門	-11.1423
崇文	-11.1423
直道	-11.1425
後山詩話	-11.1427
黄庭	-11.1428
帝紀	-11.1429
桑柘	-11.1431
衡山	-11.1432
卒于	-11.1434
方丈	-11.1436
榴	-11.1438
懷古	-11.1439
棣	-11.1442
邏	-11.1447
如玉	-11.1447
字希	-11.1448
經行	-11.1448
定知	-11.1449
文君	-11.1449
遺事	-11.1456
玉林	-11.1456
元獻	-11.1457
豈易	-11.146
玉川	-11.1463
槖	-11.1464
楊升庵	-11.1465
道州	-11.1466
譌	-11.1466
軍中	-11.1466
貲	-11.1466
眄	-11.1467
濓	-11.1468
自成一家	-11.1469
等謹案	-11.1469
颯	-11.147
瞿	-11.147
鼙	-11.1471
潞公	-11.1471
沅	-11.1471
有詩云云	-11.1472
㫁腸	-11.1472
撑	-11.1473
抉	-11.1474
琚	-11.1474
燾	-11.1474
鳥聲	-11.1475
脅	-11.1475
躭	-11.1475
匈奴	-11.1475
月光	-11.1475
褭	-11.1476
蘖	-11.1476
鶉	-11.1476
禇	-11.1476
惠州	-11.1476
矧	-11.1476
糓	-11.1476
司户	-11.1478
沈存中	-11.1478
盈盈	-11.1478
譴	-11.1478
𣲖	-11.1479
陳去非	-11.148
奉詔	-11.148
不負	-11.1481
愽	-11.1481
依稀	-11.1481
可及	-11.1481
之命	-11.1483
梁王	-11.1485
孔融	-11.1487
身輕	-11.1488
淳化	-11.1488
鄂州	-11.1488
雲深	-11.1489
南州	-11.1489
櫟	-11.149
陜西	-11.149
月色	-11.1491
左拾遺	-11.1492
令狐楚	-11.1493
文人	-11.1494
皇太子	-11.1494
也老杜	-11.1499
君平	-11.15
隱居詩話云	-11.15
悲壯	-11.1506
所用	-11.1509
平仲	-11.151
擊節	-11.151
翠屏	-11.151
秋山	-11.1511
群臣	-11.1512
樽酒	-11.1513
偶題	-11.1513
荀子	-11.1514
落暉	-11.1514
而反	-11.1514
家語	-11.1516
元祐初	-11.1518
所賞	-11.152
相連	-11.1521
盡是	-11.1521
野花	-11.1522
清異	-11.1522
老農	-11.1522
前題	-11.1525
也復齋漫録云	-11.1525
人不見	-11.1526
身在	-11.1527
樽前	-11.1536
酒醒	-11.154
鳥啼	-11.154
襄王	-11.1544
范陽	-11.1544
者耶	-11.1544
風霜	-11.1547
上苑	-11.1548
長者	-11.155
山雨	-11.1551
難為	-11.1553
兩鬢	-11.1554
太虚	-11.1556
若夫	-11.1559
也凡	-11.1563
兵火	-11.1564
武子	-11.1566
連山	-11.1568
主司	-11.1568
陳迹	-11.1572
圖云	-11.1576
蕭何	-11.1576
嵗寒	-11.1576
無子	-11.1577
送君	-11.158
事多	-11.1582
至唐	-11.1584
千嵗	-11.1586
芳樹	-11.1587
不願	-11.1589
與子	-11.1589
燕山	-11.1591
飄然	-11.1593
蘇李	-11.1597
我今	-11.1601
教人	-11.1603
天邊	-11.1605
一般	-11.1606
評論	-11.1613
只今	-11.1614
微雨	-11.1616
不下	-11.1617
一株	-11.162
四壁	-11.163
萬丈	-11.1633
秋興	-11.1634
前朝	-11.1636
戲之	-11.1639
黄鳥	-11.164
亦嘗	-11.1642
北望	-11.1646
風急	-11.1646
贊曰	-11.1654
至矣	-11.1663
秋光	-11.1666
挽歌	-11.1669
不道	-11.1673
郴	-11.1676
山鳥	-11.1676
但云	-11.1679
我生	-11.1681
頭白	-11.1684
亦用	-11.1686
唐制	-11.1687
榔	-11.1689
尊前	-11.1691
仁宗朝	-11.1693
荔	-11.1695
筐	-11.1697
茶山	-11.1697
辜	-11.1697
楮	-11.1698
菁	-11.17
紐	-11.1701
苕溪漁隱曰余	-11.1701
百金	-11.1702
竹坡詩話	-11.1703
廷珪	-11.1703
芮	-11.1704
丑	-11.1704
稔	-11.1704
缾	-11.1705
麽	-11.1705
繒	-11.1705
憇	-11.1705
皇甫湜	-11.1705
元和中	-11.1705
亘	-11.1706
琅玕	-11.1707
詩文評類提要	-11.1707
酺	-11.1707
簽	-11.1707
曺	-11.1708
王禹玉	-11.1708
喝	-11.1708
揮麈	-11.1708
司馬温公	-11.1708
同中書門下平章事	-11.1708
曛	-11.1708
釣磯	-11.1709
工部侍郎	-11.1709
洞中	-11.171
霹靂	-11.171
舩	-11.1711
綰	-11.1711
泠泠	-11.1713
詩案云	-11.1714
汪彦章	-11.1714
之制	-11.1714
潘邠老	-11.1715
眩	-11.1715
祝融	-11.1715
都督	-11.1719
扶桑	-11.1721
篇什	-11.1721
天氣	-11.1724
詩序云	-11.1725
遊子	-11.1727
浩浩	-11.1729
乃得	-11.1729
金馬	-11.1729
飛泉	-11.1731
片雲	-11.1732
西域	-11.1733
釋名	-11.1733
之亂	-11.1737
岳陽樓	-11.1739
空中	-11.1741
入神	-11.1742
相問	-11.1743
與公	-11.1744
金粟	-11.1745
㸃化	-11.175
果然	-11.1754
于今	-11.1756
愁思	-11.1757
等句	-11.1761
蘇武	-11.1762
何得	-11.1763
主客	-11.1763
不飲	-11.1764
閒人	-11.1767
宫闕	-11.1767
擬古	-11.1767
實有	-11.1768
譏之	-11.1769
婺	-11.1769
東坡和	-11.1779
清淺	-11.1779
薦之	-11.1781
遣人	-11.1781
醉眠	-11.1782
幸蜀	-11.1782
小臣	-11.1782
南溪	-11.1786
天明	-11.1788
何嘗	-11.1788
今已	-11.1789
咸通中	-11.1793
姓字	-11.1796
本於	-11.1798
歌扇	-11.1802
為賦	-11.1803
避地	-11.1808
江月	-11.1815
之子也	-11.1815
手持	-11.1819
輕重	-11.1821
之態	-11.1822
所據	-11.1822
留意	-11.1822
兒孫	-11.1825
四曰	-11.1827
前集	-11.1827
余因	-11.1828
紅梅	-11.1831
孔明	-11.1831
其心	-11.1834
悞矣	-11.1835
觀此則	-11.1835
字徳	-11.1835
莫問	-11.1836
人不識	-11.1839
愁殺	-11.1841
道徳	-11.1842
獨歩	-11.1843
華州	-11.1844
盡矣	-11.1845
元氣	-11.185
曲水	-11.1851
有言	-11.1851
事業	-11.1854
文采	-11.1856
清話	-11.1858
南望	-11.1858
作賦	-11.186
新婦	-11.1864
修竹	-11.1865
自傷	-11.1867
居仁	-11.1867
寸心	-11.1867
不得志	-11.1869
恐是	-11.1871
留連	-11.1871
家住	-11.1873
形似	-11.1875
曹劉	-11.1876
汝南	-11.1887
夢回	-11.1888
天地之	-11.189
天長	-11.1899
中朝	-11.1902
由此	-11.1907
流離	-11.1907
遂有	-11.1912
二物	-11.1915
賞之	-11.1917
西征	-11.1925
不避	-11.1926
誰言	-11.1929
一聫	-11.193
豳	-11.1932
龜山	-11.1933
光隂	-11.1935
唐宋	-11.1937
泯	-11.1938
曰朕	-11.1938
椿	-11.1938
渌	-11.1939
穰	-11.1939
燧	-11.1939
澀	-11.194
掀	-11.194
萎	-11.194
飡	-11.194
潦	-11.1941
懌	-11.1941
朝散大夫	-11.1941
祥符	-11.1941
范蠡	-11.1942
觜	-11.1942
碾	-11.1942
輞川	-11.1942
佯	-11.1942
逓	-11.1942
姢	-11.1942
唐音癸籖巻	-11.1942
㢘	-11.1944
虎豹	-11.1944
幌	-11.1944
兵部侍郎	-11.1944
秣	-11.1945
箋云	-11.1945
鼉	-11.1945
燥	-11.1945
愿	-11.1945
鍾嶸	-11.1945
貔	-11.1946
杜工部	-11.1946
蠏	-11.1947
騎驢	-11.1947
鐙	-11.1949
知貢舉	-11.1949
熒	-11.195
企	-11.195
鱠	-11.1951
上頭	-11.1951
醺	-11.1951
謝朓	-11.1952
送酒	-11.1952
獨步	-11.1952
白紵	-11.1952
庭筠	-11.1952
集賢院	-11.1953
小雨	-11.1953
詞賦	-11.1953
屣	-11.1955
樗	-11.1955
四五	-11.1956
葢用	-11.1957
駟馬	-11.1962
李伯時	-11.1963
蜀道難	-11.1963
金鑾	-11.1963
名利	-11.1964
筆法	-11.1965
御史大夫	-11.1966
愛此	-11.1969
磊落	-11.1969
其説	-11.197
樂工	-11.197
天機	-11.1973
藍田	-11.1973
大字	-11.1974
筆硯	-11.1977
呉中	-11.1979
將何	-11.1979
其姓名	-11.1982
太傅	-11.1983
承平	-11.1984
山房	-11.1984
清濁	-11.1984
文正公	-11.1985
好古	-11.1987
畫像	-11.1994
乃用	-11.1998
蕭散	-11.1999
䕫州	-11.2
韓文公	-11.2002
若水	-11.2006
史館	-11.2009
明堂	-11.2014
略曰	-11.2014
民間	-11.2014
華清	-11.2019
不記	-11.2021
本末	-11.2022
先得	-11.2023
諡曰	-11.2023
釋氏	-11.2024
亂雲	-11.2025
士衡	-11.2026
感歎	-11.203
不悟	-11.203
幽谷	-11.2042
幽州	-11.2043
國子	-11.2043
張君	-11.2051
意謂	-11.2056
石渠	-11.2059
高樓	-11.206
連珠	-11.2062
宛然	-11.2063
士子	-11.2063
晉宋	-11.2063
緑楊	-11.2068
興化	-11.2071
遂令	-11.2072
醉鄉	-11.2073
碧桃	-11.2076
外傳	-11.2079
一寸	-11.2079
曰汝	-11.208
髙僧	-11.2081
五首	-11.2089
淺近	-11.2096
學詩者	-11.2098
孟陽	-11.2101
臨終	-11.2101
也又一例也	-11.2101
復見	-11.2101
盧氏	-11.2101
不管	-11.2102
問其故	-11.2108
第一人	-11.2111
字季	-11.2112
鄭州	-11.2114
歸来	-11.2116
都城	-11.2116
池中	-11.2119
甚工	-11.212
王侯	-11.2122
舟行	-11.2129
堂下	-11.2135
而入	-11.2139
首陽	-11.2141
願君	-11.2146
出為	-11.2148
改之	-11.2155
異矣	-11.2156
羽衣	-11.2156
呉江	-11.2156
然後知	-11.2156
花木	-11.2158
一箇	-11.2163
萱	-11.2166
五經	-11.2168
嗚	-11.2173
以俟	-11.2174
弇	-11.2176
襯	-11.218
何遜	-11.218
玠	-11.218
彧	-11.2181
斸	-11.2181
槁	-11.2182
緬	-11.2182
鴟	-11.2184
詩家鼎臠	-11.2184
觥	-11.2184
此法	-11.2185
債	-11.2185
衿	-11.2185
者甚衆	-11.2185
幘	-11.2186
愍	-11.2186
人口	-11.2186
覈	-11.2186
圯	-11.2186
水經注	-11.2186
㓗	-11.2187
鐺	-11.2187
詬	-11.2187
偁	-11.2187
季子	-11.2187
煬帝	-11.2187
以疾	-11.2188
苟	-11.2188
之稱	-11.2188
哺	-11.2188
百世	-11.2189
巍	-11.2189
隼	-11.2189
國子監	-11.219
匱	-11.219
入黨籍	-11.219
紹熙	-11.219
著作郎	-11.219
躅	-11.219
顥	-11.219
瀛洲	-11.219
月蝕詩	-11.219
嚮	-11.219
甃	-11.2191
會稽	-11.2191
李商隱	-11.2191
齊東野語	-11.2191
洪駒父	-11.2192
抝	-11.2192
杜甫詩	-11.2192
吕氏春秋	-11.2192
縣君	-11.2193
揮毫	-11.2193
瀬	-11.2194
朅來	-11.2195
丁晉公	-11.2196
漚	-11.2196
此外	-11.2197
暌	-11.2198
秋雲	-11.2198
軍節度使	-11.2198
鯽	-11.2199
媵	-11.2199
想像	-11.22
稽首	-11.22
燕雀	-11.2202
梨園	-11.2202
莫愁	-11.2204
隨意	-11.2205
太保	-11.2208
宣撫	-11.2209
水濵	-11.2209
此物	-11.2209
紹定	-11.221
牧童	-11.2211
原上	-11.2211
庭下	-11.2211
彈琴	-11.2211
開口	-11.2215
遯齋閒覽云	-11.2216
甚佳	-11.2216
此說	-11.2222
西涯	-11.2227
爽氣	-11.2227
三昧	-11.2228
忽驚	-11.2228
結廬	-11.2231
武王	-11.2231
堯夫	-11.2234
市井	-11.2236
飛龍	-11.2239
作詩云云	-11.2245
寺壁	-11.2248
忘機	-11.225
紫㣲	-11.225
客至	-11.2251
歸心	-11.2253
風氣	-11.2255
一番	-11.2256
洛城	-11.2259
同遊	-11.2261
周旋	-11.2262
或言	-11.2263
三十七	-11.2264
祕書	-11.2266
和平	-11.2267
多年	-11.2268
而實	-11.2272
聖人之	-11.2273
是為	-11.2273
號令	-11.2275
補遺	-11.2276
其夫	-11.228
邊城	-11.2281
二語	-11.2284
其徒	-11.2287
乆矣	-11.229
雜詠	-11.2291
矣余	-11.2292
易簡	-11.2296
舊本	-11.2298
榮華	-11.2304
池水	-11.2306
滿庭	-11.2307
先帝	-11.2308
願言	-11.231
十六年	-11.2313
宫室	-11.2315
送王	-11.2316
日影	-11.2319
二十巻	-11.232
伯仲	-11.2324
盛時	-11.2327
百韻	-11.2329
徽宗朝	-11.2334
太極	-11.2335
清波	-11.2336
霄漢	-11.234
我家	-11.235
增修詩話總龜卷之	-11.235
羙人	-11.2351
互相	-11.2353
醉後	-11.2354
極其	-11.2355
二章	-11.2356
難忘	-11.2358
元之	-11.2359
惡其	-11.236
為是	-11.236
不减	-11.2362
簡而	-11.2365
俗語	-11.2373
感時	-11.2381
石鼓	-11.2381
黄鶯	-11.2382
好句	-11.2388
賦詠	-11.2389
無巳	-11.2389
東宫	-11.239
飛鴻	-11.2393
上人云	-11.2399
六巻	-11.24
曽祖	-11.2403
贏	-11.241
出身	-11.2412
哭之	-11.2413
巉	-11.242
芰	-11.2424
中秋月	-11.2425
杜氏	-11.2426
勺	-11.2427
多佳句	-11.2427
黃金	-11.2428
縂	-11.2429
罅	-11.2429
蔡寛夫	-11.2429
閃	-11.243
艮	-11.243
近於	-11.243
劄	-11.2431
薔薇	-11.2431
釐	-11.2432
酉陽雜爼	-11.2432
赭	-11.2433
蛩	-11.2434
瘧	-11.2434
悴	-11.2434
偃蹇	-11.2434
糾	-11.2434
潰	-11.2435
祕書監	-11.2436
膾	-11.2436
媪	-11.2436
蟾蜍	-11.2436
頡	-11.2436
禁臠	-11.2436
嗚咽	-11.2437
逗	-11.2437
藿	-11.2437
讃	-11.2437
聾	-11.2437
焙	-11.2438
酉	-11.2438
復齋漫錄云	-11.2438
卧龍	-11.2439
啖	-11.244
葛常之	-11.244
輭	-11.244
唐子西	-11.2441
麋鹿	-11.2441
椎	-11.2442
絢	-11.2442
秦少㳺	-11.2442
與兄	-11.2442
窣	-11.2442
糊	-11.2443
籀	-11.2443
猛虎	-11.2443
新語	-11.2444
不可不知	-11.2444
貟外	-11.2444
西樓	-11.2445
荆棘	-11.2445
玉笛	-11.2445
罹	-11.2445
丹竈	-11.2446
風露	-11.2448
旒	-11.2448
為言	-11.2449
捲簾	-11.2449
李煜	-11.245
疇昔	-11.245
持正	-11.2453
廊廟	-11.2453
詩篇	-11.2454
張九齡	-11.2455
浮世	-11.2459
先生曰	-11.2461
今何在	-11.2463
始終	-11.2463
靖節	-11.2463
指揮	-11.2464
蒼崖	-11.2465
叢談	-11.2465
希逸	-11.2466
優游	-11.247
楊升菴云	-11.2471
武功	-11.2471
靈芝	-11.2472
荅云	-11.2472
青鳥	-11.2476
䂬溪詩話	-11.248
桑田	-11.2482
籬落	-11.2483
忠孝	-11.2483
宏詞	-11.2484
伯夷	-11.2488
列子	-11.2488
儒者	-11.2493
建寧	-11.2495
之禍	-11.2496
掌中	-11.2498
七尺	-11.2498
闕下	-11.25
詩中有	-11.2501
倚樓	-11.2507
景仁	-11.2517
龍圖	-11.2518
百戰	-11.2519
呉王	-11.2521
為詩曰	-11.2521
其弟	-11.2522
風飄	-11.2523
睡起	-11.2532
聖明	-11.2532
卒諡文	-11.2534
衡州	-11.2535
落梅	-11.2537
亦名	-11.2541
表裏	-11.2546
六句	-11.255
秀實	-11.2552
藥名	-11.2554
可謂善	-11.2559
豈獨	-11.2561
謫官	-11.2564
東郊	-11.2567
尊酒	-11.2568
補之	-11.2568
僧舍	-11.2569
子儀	-11.2569
髙唐	-11.257
朝朝	-11.2575
失意	-11.258
貴賤	-11.2581
僧房	-11.2584
曾孫	-11.2588
盛於	-11.259
山鬼	-11.259
法師	-11.2591
了無	-11.2592
細細	-11.2597
老樹	-11.26
苦心	-11.2602
棄官	-11.2606
斯言	-11.2607
說者	-11.2607
五老	-11.2611
青溪	-11.2613
佳氣	-11.2615
半空	-11.2615
青衣	-11.2616
歌曲	-11.2616
字從	-11.2623
精切	-11.2623
楊公	-11.2633
覺來	-11.2642
封事	-11.2645
所以為	-11.2646
陳陶	-11.2647
髙適	-11.2647
南飛	-11.2649
第進士	-11.2652
餘慶	-11.2655
杜公	-11.2659
絶筆	-11.2661
以此為	-11.2667
三十二	-11.267
洞門	-11.2673
凛	-11.2674
訊	-11.2674
暦	-11.2676
篔	-11.2677
不特	-11.2678
玉臺	-11.2678
朔風	-11.268
櫻	-11.268
饋	-11.268
三絶	-11.268
明府	-11.2681
佀	-11.2684
甎	-11.2684
相向	-11.2685
肴	-11.2687
瀨	-11.2688
李山甫	-11.2688
許昌	-11.2688
元素	-11.2688
大怒	-11.2689
讚	-11.2689
擾擾	-11.2689
蛻	-11.2689
窈	-11.269
离	-11.269
觚	-11.2691
准	-11.2691
纜	-11.2691
如此則	-11.2691
郝	-11.2691
緝	-11.2692
攢	-11.2692
趺	-11.2693
帚	-11.2693
湫	-11.2693
滕王閣	-11.2693
灼灼	-11.2693
耦	-11.2694
錐	-11.2695
啞	-11.2695
婁	-11.2695
遑	-11.2695
湮	-11.2695
籜	-11.2695
迓	-11.2696
夢溪筆談	-11.2696
皎皎	-11.2696
听	-11.2696
綏	-11.2696
苧	-11.2697
謝康樂	-11.2697
匀	-11.2697
閎	-11.2697
曖	-11.2698
荔支	-11.2698
耗	-11.2698
是夕	-11.2698
箸	-11.2699
斍	-11.2699
報國	-11.2699
釁	-11.27
衢州	-11.27
霰	-11.27
愆	-11.27
館中	-11.2702
葑	-11.2702
重複	-11.2703
装	-11.2703
佳者	-11.2704
世系	-11.2704
榕隂	-11.2704
蚌	-11.2705
暘	-11.2706
團團	-11.2706
南部新書	-11.2707
翛然	-11.2708
雍容	-11.2712
馮夷	-11.2713
夜宴	-11.2714
稗史	-11.2716
展轉	-11.2717
諱某	-11.2717
綺麗	-11.2719
卒諡	-11.272
司馬遷	-11.2721
章子厚	-11.2724
支離	-11.273
九衢	-11.2731
延夀	-11.2733
通鑑	-11.2734
吁嗟	-11.2736
茫然	-11.2736
錦城	-11.2741
天棘	-11.2742
萬厯	-11.2744
小雅	-11.2744
阿母	-11.2744
黄雀	-11.2745
野草	-11.2745
好處	-11.2746
少陵詩	-11.275
所及	-11.275
屈宋	-11.2752
韓子	-11.2761
兩朝	-11.2761
精深	-11.2761
何能	-11.2762
還似	-11.2764
子虚	-11.2765
離宫	-11.2768
梓州	-11.2772
君謨	-11.2772
遺跡	-11.2773
稱善	-11.2781
竒絶	-11.2782
李義山詩	-11.2788
韻語陽秋云	-11.2792
徐陵	-11.2797
酒旗	-11.2797
杜詩云	-11.2798
靜志	-11.2801
合歡	-11.2805
歐陽修	-11.2807
蕚	-11.2809
白羽	-11.281
五千	-11.281
天地間	-11.2811
郎君	-11.2813
方平	-11.2818
竹影	-11.2823
浮圖	-11.2824
相接	-11.2825
清晨	-11.2825
澤國	-11.2826
師友	-11.2827
東湖	-11.283
無涯	-11.2832
不肖	-11.2832
所撰	-11.2835
禁林	-11.2835
啟云	-11.2843
過客	-11.2843
吕氏	-11.2843
一榻	-11.2849
佳期	-11.2853
不寐	-11.2863
宴坐	-11.2866
憂國	-11.2872
萬山	-11.2873
安期	-11.2873
世情	-11.2879
本紀	-11.2881
湖中	-11.2884
十八年	-11.2885
制度	-11.2887
二十餘	-11.289
元暉	-11.2891
北齊	-11.2895
之南	-11.2897
龍眠	-11.2897
中庸	-11.2898
湖海	-11.2899
扵此	-11.29
已成	-11.2906
陽臺	-11.2907
予觀	-11.2907
五七言	-11.2912
十九首	-11.2913
終于	-11.2914
落照	-11.2916
廣文	-11.2917
傷神	-11.2918
此説	-11.2918
樹影	-11.2922
羿	-11.293
睢	-11.2933
莆	-11.2935
安世	-11.2938
數枝	-11.294
需	-11.2946
㡳	-11.2947
園亭	-11.2947
芷	-11.2948
元遺山	-11.2949
翕	-11.295
泮	-11.295
蝸	-11.295
老學菴筆記	-11.2951
隷	-11.2951
膾炙	-11.2952
萬户	-11.2952
矛	-11.2953
聶	-11.2953
米元章	-11.2953
寖	-11.2954
瞞	-11.2954
箵	-11.2955
瞥	-11.2955
娟娟	-11.2955
募	-11.2955
鞵	-11.2955
䏻	-11.2955
坂	-11.2955
文心雕龍	-11.2956
蟋蟀	-11.2956
癯	-11.2956
箏	-11.2956
瑟瑟	-11.2956
猱	-11.2957
竽	-11.2957
未知孰是	-11.2957
澠水燕談	-11.2957
厦	-11.2957
澥	-11.2958
峡	-11.2958
罘罳	-11.2959
梁簡文	-11.2959
平湖	-11.2959
廨	-11.2959
圜	-11.296
煎茶	-11.296
劫	-11.296
入海	-11.2961
菌	-11.2961
漉	-11.2961
詩林廣記	-11.2961
冺	-11.2961
客愁	-11.2961
珥	-11.2962
長恨歌	-11.2962
品題	-11.2962
杜審言	-11.2962
婆娑	-11.2963
垍	-11.2964
畬	-11.2964
塊	-11.2964
闇	-11.2964
礼	-11.2964
爛漫	-11.2964
門下侍郎	-11.2964
大中祥符	-11.2965
至尊	-11.2966
旣而	-11.2967
㝡	-11.2967
無名子	-11.2968
昱	-11.2968
塵外	-11.2969
懇	-11.2971
延祐	-11.2971
𥙿	-11.2972
蛤	-11.2973
來往	-11.2975
豪傑	-11.2975
祖父	-11.2977
援筆	-11.2978
曹操	-11.2978
度曲	-11.298
深院	-11.2981
武林	-11.2981
七嵗	-11.2983
無際	-11.2986
不屈	-11.2987
弱冠	-11.2988
小艇	-11.2992
張子野	-11.2992
懿宗	-11.2994
七里	-11.2997
取次	-11.2998
桐花	-11.2999
結句	-11.3006
嗟乎	-11.3007
隆興	-11.301
懐抱	-11.301
金帛	-11.3014
譬之	-11.3014
倒影	-11.3018
善畫	-11.3023
閣筆	-11.3024
竹杖	-11.3028
赴舉	-11.3033
馬融	-11.3034
竟日	-11.3034
無咎	-11.3034
清麗	-11.3037
議郎	-11.3041
偶成	-11.3043
洞口	-11.3043
嚴陵	-11.3046
承露	-11.3048
宣州	-11.3049
六宫	-11.3051
朱顔	-11.3052
未休	-11.3058
結交	-11.306
承明	-11.3063
晉公	-11.3063
玉顔	-11.3063
孤鶴	-11.3064
至扵	-11.3065
徃還	-11.3065
隱者	-11.3067
凉州	-11.3075
烟火	-11.3079
歸期	-11.3082
進士及第	-11.3085
相忘	-11.3088
含情	-11.3089
亦可謂	-11.309
吳郡	-11.3093
千巖	-11.3093
秦川	-11.3094
傷春	-11.3097
語錄	-11.3098
但覺	-11.3098
南安	-11.3098
壺中	-11.3102
六首	-11.3102
楚客	-11.3103
無害	-11.3108
惜乎	-11.3109
林亭	-11.311
漁家	-11.3115
羲之	-11.3115
有一人	-11.3116
揺落	-11.3116
宇文	-11.3119
歸舟	-11.3122
千頃	-11.3126
全集	-11.3129
陶令	-11.3129
如絲	-11.3132
畫船	-11.3141
水部	-11.315
前溪	-11.316
池北	-11.3165
誰道	-11.3166
相尋	-11.3167
湖湘	-11.3169
留客	-11.317
栁色	-11.317
最好	-11.3177
金殿	-11.318
固知	-11.3181
東川	-11.3185
鶯語	-11.3186
不淺	-11.3194
可考	-11.3198
何似	-11.3199
前村	-11.32
感興	-11.3207
死于	-11.3208
四十五	-11.3211
蒯	-11.3212
徼	-11.3214
最愛	-11.3218
坼	-11.3218
棱	-11.322
淘	-11.3222
却是	-11.3222
用此事	-11.3222
臠	-11.3223
撓	-11.3223
柟	-11.3224
室中語	-11.3224
荇	-11.3224
滔滔	-11.3224
蠙	-11.3224
妒	-11.3224
療	-11.3224
塍	-11.3225
能令	-11.3225
羶	-11.3225
劃	-11.3225
平章事	-11.3225
港	-11.3226
芹	-11.3227
浹	-11.3227
攄	-11.3227
褥	-11.3227
爍	-11.3227
薜蘿	-11.3227
鍇	-11.3227
虫	-11.3227
顔師古	-11.3228
恪	-11.3228
𦂳	-11.3228
棨	-11.3228
剏	-11.3229
望夫石	-11.3229
螯	-11.3229
愠	-11.3229
端明殿學士	-11.323
籃	-11.323
竹莊詩話巻	-11.323
孩	-11.323
件	-11.323
惋	-11.323
揀	-11.3231
暾	-11.3231
珂	-11.3231
秉燭	-11.3231
丹鉛	-11.3232
穉	-11.3232
鰲	-11.3232
駮	-11.3233
孱	-11.3233
晁以道	-11.3233
形骸	-11.3233
括蒼	-11.3233
无咎	-11.3233
苜蓿	-11.3234
䋲	-11.3235
溶溶	-11.3235
賂	-11.3235
珎	-11.3236
新亭	-11.3236
合璧事類	-11.3237
汨	-11.3237
隂隂	-11.3237
鳥獸	-11.3237
淹留	-11.3239
塵寰	-11.324
右僕射	-11.324
孝武	-11.3241
體格	-11.3241
無恙	-11.3243
莫測	-11.3244
關中	-11.3244
柳絮	-11.3245
潘子真詩話云	-11.3248
前代	-11.3249
栢梁	-11.325
七子	-11.3262
為佳句	-11.3263
二十八字	-11.3264
五音	-11.3265
諫議	-11.3265
不赴	-11.3267
安撫	-11.327
細腰	-11.327
逢吉	-11.327
烏程	-11.3271
神物	-11.3274
序曰	-11.3275
洞房	-11.3276
屈指	-11.3277
李紳	-11.3278
淮隂	-11.3279
柰何	-11.3282
有子	-11.3284
横斜	-11.329
唐初	-11.3292
竹枝詞	-11.3293
顧我	-11.3295
千峰	-11.3303
未敢	-11.3304
到底	-11.3308
華隂	-11.3309
明月照	-11.3311
大槩	-11.3313
梁祖	-11.3323
憑誰	-11.3323
畫工	-11.3323
隠者	-11.3324
請君	-11.3329
汝隂	-11.3331
次公	-11.3333
採蓮	-11.3337
冬青	-11.3339
不獲	-11.3356
叔父	-11.3358
諸將	-11.3368
沙頭	-11.3369
等篇	-11.3372
和韻	-11.3383
玉帶	-11.3384
天人	-11.339
未終	-11.3396
則不然	-11.3401
婦女	-11.3408
臺閣	-11.3412
師川	-11.3412
海陵	-11.3413
坐久	-11.3418
君看	-11.3422
南湖	-11.3423
薄暮	-11.3425
十九年	-11.3429
不畏	-11.3435
無所不	-11.3445
薫風	-11.3446
四顧	-11.3447
樂曲	-11.3453
䟦云	-11.3454
東坡先生	-11.3456
殆不可	-11.3457
睦州	-11.3459
昭王	-11.3462
十五日	-11.3464
景徳	-11.3464
苕溪漁隠	-11.3468
九華山	-11.3471
寓言	-11.3473
龍舟	-11.3478
簧	-11.348
不復見	-11.3482
鍼	-11.3487
長源	-11.3488
肚	-11.3493
裊	-11.3495
宥	-11.3495
奩	-11.3498
齋集	-11.3498
沿襲	-11.3501
驃	-11.3502
躋攀	-11.3502
郞	-11.3502
燦	-11.3503
嘘	-11.3503
巍巍	-11.3503
罩	-11.3504
寝	-11.3504
肌膚	-11.3504
蝉	-11.3505
鍳	-11.3505
攪	-11.3505
侑	-11.3505
矮	-11.3505
蹔	-11.3505
培	-11.3505
泝	-11.3506
蜺	-11.3506
郡閣雅談	-11.3506
爺	-11.3506
溉	-11.3507
東軒筆録	-11.3507
輈	-11.3508
欝	-11.3508
橐	-11.3508
覯	-11.3509
慳	-11.3509
博物志	-11.3509
嶧	-11.3509
别墅	-11.3509
㐮	-11.351
不知何許人	-11.351
踪	-11.351
舟楫	-11.351
筮	-11.351
文類	-11.3511
仆	-11.3511
潼闗	-11.3512
娃	-11.3512
譁	-11.3512
婿	-11.3513
甲乙	-11.3514
謝無逸	-11.3514
九龍	-11.3514
經義	-11.3514
影裏	-11.3514
穿鑿	-11.3515
淚痕	-11.3515
詵	-11.3516
自昔	-11.3516
冨貴	-11.3518
李頎	-11.352
六代	-11.352
鳥道	-11.3521
𥙷闕	-11.3523
黃昏	-11.3523
故其詩	-11.3525
網羅	-11.3527
沈彬	-11.353
纎纎	-11.3533
苔蘚	-11.3534
鹿鳴	-11.3535
應笑	-11.3539
語耳	-11.3539
池邊	-11.3539
半是	-11.3539
陳后山	-11.354
悵然	-11.354
詹事	-11.3546
此兩句	-11.355
召入	-11.3552
奉祠	-11.3553
三司	-11.3557
撫州	-11.3558
中央	-11.356
文獻	-11.3562
天聖中	-11.3562
美酒	-11.3565
萬斛	-11.3565
毫端	-11.3568
終朝	-11.3568
林塘	-11.3575
水調	-11.3575
紅粧	-11.3579
北窗	-11.3579
放逐	-11.3584
馬嘶	-11.3586
晉人	-11.3589
明鏡	-11.3589
大節	-11.3591
苕溪漁隱曰東坡	-11.3592
賜宴	-11.3593
峴山	-11.3593
固已	-11.3596
玉京	-11.3598
某日	-11.3599
玉輦	-11.3601
方寸	-11.3602
嵗暮	-11.3605
一聮云	-11.3615
池州	-11.3615
浩歌	-11.3615
夜郎	-11.362
厥後	-11.3622
遺文	-11.3628
章聖	-11.3633
英靈	-11.3633
汝陽	-11.3634
星河	-11.3637
楚國	-11.364
雜興	-11.3641
盛徳	-11.3644
飛動	-11.3646
天祐	-11.3648
拜相	-11.3653
黄鍾	-11.3654
五里	-11.3658
三十里	-11.366
在何處	-11.3661
時宰	-11.3663
賦詩曰	-11.3664
宣帝	-11.3665
終是	-11.3674
九原	-11.3678
此景	-11.3683
作平聲	-11.3686
第二十	-11.3687
何勞	-11.3691
易安	-11.3693
河南府	-11.3699
英華	-11.3702
逺遊	-11.3707
八巻	-11.3709
風濤	-11.371
家藏	-11.3711
代宗	-11.3712
宗朝累官	-11.3719
碧海	-11.3724
凡十	-11.3726
變體	-11.3734
漫叟詩話	-11.3742
青蓮	-11.3745
鴈飛	-11.3748
物理	-11.375
流泉	-11.3754
廿	-11.3771
關山	-11.3773
持國	-11.3775
人呼為	-11.3775
粱	-11.3776
呀	-11.3778
𦍑	-11.3778
孽	-11.3779
軼	-11.378
阡	-11.3782
題詩曰	-11.3782
刷	-11.3782
愬	-11.3782
汝州	-11.3783
檠	-11.3783
弇州	-11.3783
韈	-11.3783
璇	-11.3785
笄	-11.3785
森森	-11.3785
穗	-11.3785
■	-11.3785
妣	-11.3786
泫	-11.3786
囑	-11.3787
蕊	-11.3787
㺯	-11.3787
虯	-11.3787
僮	-11.3788
閹	-11.3788
磵	-11.3789
纍纍	-11.3789
蹋	-11.3789
楊亷夫	-11.379
濛濛	-11.379
裊裊	-11.379
肈	-11.3791
釡	-11.3791
汰	-11.3791
柩	-11.3791
趙嘏	-11.3792
変	-11.3792
弛	-11.3793
梟	-11.3793
璨	-11.3793
輓	-11.3793
五臣注	-11.3793
瀼	-11.3793
裒	-11.3794
陸費墀欽定四庫全書	-11.3794
廐	-11.3794
諫議大夫	-11.3794
綻	-11.3794
甘棠	-11.3795
翬	-11.3795
雷霆	-11.3795
嚬	-11.3796
璠	-11.3796
晉江人	-11.3796
弹	-11.3796
段成式	-11.3797
禆	-11.3797
淇	-11.3797
忘歸	-11.3797
焰	-11.3797
滄波	-11.3798
開禧	-11.3798
戴叔倫	-11.3798
縞	-11.3798
兇	-11.3798
戎昱	-11.3799
清談	-11.3799
禅	-11.3799
堯佐	-11.3799
涸	-11.38
鳳翔	-11.3801
玳瑁	-11.3801
禹貢	-11.3802
堞	-11.3802
丘壑	-11.3804
或謂之	-11.3805
擅塲	-11.3806
若教	-11.3806
貫穿	-11.3807
俯視	-11.3807
典刑	-11.3807
鮑昭	-11.3808
盧綸	-11.3809
嘆息	-11.3809
孝宗朝	-11.3811
折腰	-11.3812
東閣	-11.3813
用故事	-11.3813
禍福	-11.3814
風雷	-11.3815
嘉話	-11.3815
只應	-11.3815
跋云	-11.3816
河朔	-11.3821
黄閣	-11.3821
周朴	-11.3824
太行	-11.3828
火燒	-11.3828
千仞	-11.3829
其㫖	-11.383
百餘篇	-11.3833
邇來	-11.3836
一篇云	-11.3836
青冥	-11.3838
飛絮	-11.384
種種	-11.3847
剡溪	-11.3847
縣南	-11.3849
荒村	-11.385
東臯	-11.385
太甲	-11.3851
北夢	-11.3854
徐凝	-11.3855
何足道	-11.3858
典雅	-11.3859
小異	-11.386
遂使	-11.3864
王褒	-11.3867
畫眉	-11.3881
非特	-11.3882
郡齋	-11.3883
不妄	-11.3884
朝宗	-11.389
香爐	-11.389
猿聲	-11.3894
皇天	-11.3898
秦皇	-11.3901
遣興	-11.3903
姓氏	-11.3904
簾外	-11.3913
栁枝	-11.3916
理宗朝	-11.3916
光景	-11.3921
東風吹	-11.3923
紫翠	-11.3923
髙堂	-11.3925
佛寺	-11.393
性命	-11.3945
所殺	-11.3945
文潜	-11.3946
曽孫	-11.3951
江都	-11.3955
衣服	-11.3956
袖中	-11.3958
特地	-11.3959
始皇	-11.3963
感事	-11.3967
離合	-11.3981
溪邊	-11.3982
延平	-11.3984
陽城	-11.3985
重疊	-11.3987
篆書	-11.3995
趙氏	-11.3995
醉卧	-11.3999
麗華	-11.4002
峯前	-11.4003
霜露	-11.4006
武宗	-11.4007
吾鄉	-11.4018
朝市	-11.402
可畏	-11.4022
秋霜	-11.4022
無私	-11.4023
召見	-11.403
君墓誌銘	-11.403
西塞	-11.4045
緑隂	-11.4049
沾衣	-11.4051
賔王	-11.4054
春風吹	-11.4058
祠部	-11.4063
避世	-11.4065
筯	-11.4066
夣中	-11.4067
瞿塘	-11.4067
䲭	-11.4068
不知誰	-11.407
蒹葭	-11.4071
稳	-11.4072
糕	-11.4073
買得	-11.4075
廩	-11.4077
毘陵	-11.4077
瓚	-11.4078
洶	-11.4079
灔	-11.4079
全家	-11.4079
糜	-11.4081
駙馬	-11.4081
銅雀	-11.4081
跛	-11.4082
苛	-11.4082
猩猩	-11.4082
遡	-11.4082
琬	-11.4082
詁	-11.4083
蹴	-11.4083
武元衡	-11.4083
警策	-11.4083
鵷	-11.4083
悍	-11.4084
􁊨	-11.4084
黠	-11.4084
鄭毅夫	-11.4085
鹹	-11.4085
盲	-11.4086
陳子昻	-11.4086
安樂公主	-11.4087
侶	-11.4087
繳	-11.4088
鞅	-11.4089
斐	-11.4089
抃	-11.4089
炫	-11.409
煌煌	-11.409
酤	-11.4091
織錦	-11.4091
蒲萄	-11.4091
周世宗	-11.4091
擷	-11.4091
顔延年	-11.4091
帕	-11.4092
魔	-11.4092
雪霜	-11.4093
韓吏部	-11.4094
楊巨源	-11.4095
所製	-11.4095
陳無巳	-11.4096
釋褐	-11.4096
蜩	-11.4096
䆳	-11.4097
畹	-11.4097
東臯雜録云	-11.4098
瀟瀟	-11.4099
耒陽	-11.4099
𣑽	-11.4099
香奩集	-11.41
飼	-11.41
未乾	-11.4101
桐廬	-11.4103
裕陵	-11.4103
何况	-11.4103
戯之	-11.4104
京兆尹	-11.4104
州安置	-11.4104
錦囊	-11.4107
伯兄	-11.4108
臺榭	-11.4108
筆札	-11.4108
唱酬	-11.4108
黄鵠	-11.411
屯田	-11.4112
金闕	-11.4112
輟耕録	-11.4114
排律	-11.4115
淚滴	-11.4116
泊舟	-11.4117
良辰	-11.4124
韓幹	-11.4124
古今詩人	-11.4125
頗多	-11.4127
轉運	-11.413
陳拾遺	-11.4132
郴州	-11.4132
豈惟	-11.4139
此二詩	-11.4142
青史	-11.4144
古松	-11.4144
直到	-11.4146
香車	-11.4146
眉目	-11.4151
東籬	-11.4152
一闋	-11.4153
王涯	-11.4159
爐香	-11.416
華髪	-11.4163
舉頭	-11.4167
疎影	-11.4169
數尺	-11.4171
珠翠	-11.4171
不多見	-11.4172
飢寒	-11.4173
北苑	-11.4176
連江	-11.4178
龜年	-11.4189
明妃	-11.419
水晶宫	-11.4192
委曲	-11.4195
面目	-11.42
雲霧	-11.4203
早知	-11.4205
審言	-11.4215
千萬里	-11.4216
一毫	-11.4219
鳥鳴	-11.4219
改元	-11.4221
新豐	-11.4223
夜泊	-11.4225
也呉旦生曰	-11.4241
城市	-11.4244
石湖	-11.4249
湖光	-11.4251
幾許	-11.4252
一派	-11.4254
鏡湖	-11.4255
忘憂	-11.4257
歌詠	-11.4262
羽林	-11.4262
愛惜	-11.4266
溪橋	-11.4271
孝子	-11.4278
霜葉	-11.4278
深淺	-11.4279
付與	-11.4286
後代	-11.4286
塞北	-11.4287
殺身	-11.4293
翠羽	-11.4301
泣下	-11.4303
扶風	-11.4307
理宗	-11.4308
參天	-11.4309
歌吹	-11.4318
尤精	-11.4319
修撰	-11.4319
橋邊	-11.4323
絶壁	-11.4337
愁絶	-11.4346
作小詩	-11.4347
天錫	-11.4349
墨梅	-11.435
潞	-11.4356
殊未	-11.4359
新晴	-11.436
其詞曰	-11.436
輟耕	-11.4362
亳	-11.4362
汜	-11.4364
徃事	-11.4364
麋	-11.4373
狸	-11.4375
子規啼	-11.4376
鍵	-11.4376
淒	-11.4378
襃	-11.438
湓	-11.438
袋	-11.438
廬陵人	-11.438
菲	-11.4381
拏	-11.4381
岧嶤	-11.4382
苒	-11.4383
逖	-11.4383
鈆	-11.4383
流麗	-11.4383
為證	-11.4383
酪	-11.4383
灾	-11.4384
攺	-11.4384
兵部尚書	-11.4384
刮	-11.4385
懲	-11.4385
呑	-11.4385
捍	-11.4385
醮	-11.4386
腔	-11.4386
瑰	-11.4387
賭	-11.4387
妺	-11.4387
建中靖國	-11.4388
㮣	-11.4388
嵌	-11.4388
陲	-11.4388
孕	-11.4388
萬仞	-11.4388
儲光羲	-11.4389
峯巒	-11.4389
砥	-11.4389
覬	-11.4389
清源	-11.4389
秦始皇	-11.4389
葭	-11.4389
户部侍郎	-11.439
坌	-11.439
岌	-11.439
搢紳	-11.4391
虱	-11.4391
蓂	-11.4392
蓬瀛	-11.4392
儕	-11.4393
罄	-11.4393
羃	-11.4393
嚶	-11.4393
寥廓	-11.4393
屛	-11.4394
慇懃	-11.4394
刑獄	-11.4394
輅	-11.4394
闡	-11.4395
錦瑟	-11.4395
嗅	-11.4395
馳騁	-11.4396
乱	-11.4396
柴桑	-11.4397
僭	-11.4397
臨淄	-11.4398
楠	-11.4398
霓裳羽衣曲	-11.4398
資政殿學士	-11.4398
莆陽	-11.4399
景定	-11.4399
鮑照	-11.4403
玉筯	-11.4404
囬首	-11.4406
恰似	-11.4407
招提	-11.4408
其罪	-11.4408
佺	-11.4408
宝	-11.4409
睿宗	-11.441
扶疎	-11.441
暝色	-11.4412
童䝉	-11.4412
眉黛	-11.4413
士女	-11.4418
洞霄宫	-11.4418
聞説	-11.442
伊川	-11.4423
一點	-11.4423
維舟	-11.4424
人間事	-11.4426
僧孺	-11.4428
白頭吟	-11.443
范公	-11.444
陽闗	-11.4446
年月日	-11.4448
齊安	-11.445
莫嫌	-11.445
金屋	-11.4451
兩京	-11.4452
齊魯	-11.4453
决非	-11.4454
雲鬟	-11.4454
漢制	-11.4458
欄干	-11.4461
鑑湖	-11.4462
太虛	-11.4465
李邕	-11.4465
招隠	-11.4466
西河	-11.4468
黄塵	-11.4472
忽憶	-11.4475
此等語	-11.4478
紹興初	-11.4478
聊自	-11.4485
相呼	-11.4486
晉陵	-11.4487
年四十	-11.4488
管仲	-11.4489
致政	-11.4496
忠獻	-11.4497
離恨	-11.4502
玉帳	-11.4503
相訪	-11.4503
一幅	-11.4505
甚詳	-11.451
先主	-11.4512
斗酒	-11.4513
金山寺	-11.4513
成化	-11.4514
不知何處	-11.4515
除夜	-11.4519
鹿門	-11.4522
源流	-11.4524
不可曉	-11.4525
建章	-11.4529
者甚多	-11.4532
雜體	-11.4534
㡬何	-11.4538
韓栁	-11.4541
龍鍾	-11.4541
徳操	-11.4544
史稱	-11.455
潮州	-11.456
宋末	-11.4561
内殿	-11.4561
永興	-11.4563
常建	-11.4565
四十七	-11.4573
墓碑	-11.4579
祖宗	-11.4586
不廢	-11.4588
尋芳	-11.4595
君墓誌銘右誌	-11.4597
太華	-11.46
氣骨	-11.46
水晶	-11.4607
被召	-11.4614
遺民	-11.4614
功德	-11.4617
緗素雜記	-11.4642
放還	-11.4646
九疑	-11.4648
涼風	-11.4658
岳州	-11.4663
自序云	-11.4664
城闕	-11.4668
那可	-11.467
曾祖	-11.467
水東流	-11.4676
苕溪漁隱	-11.468
世所傳	-11.468
江表	-11.468
鄭氏	-11.4681
媛	-11.4681
殘燈	-11.4685
瑒	-11.4686
睛	-11.4689
周益公	-11.469
鑱	-11.4691
籥	-11.4692
賈似道	-11.4692
麈	-11.4693
鵑	-11.4693
摛	-11.4694
齎	-11.4695
颭	-11.4695
皦	-11.4695
呪	-11.4695
嵯峨	-11.4696
娱	-11.4696
潘閬	-11.4697
殞	-11.4697
冽	-11.4698
反正	-11.4698
饕	-11.4698
怠	-11.4698
惲	-11.4699
朂	-11.4699
秫	-11.4699
顗	-11.4699
山礬	-11.4699
撐	-11.4699
隳	-11.47
錢昭度	-11.47
倐	-11.47
徉	-11.47
姫	-11.47
𬋩	-11.47
兾	-11.47
晃	-11.4701
瘞	-11.4701
前賢小集拾	-11.4701
嫖姚	-11.4702
鸛	-11.4702
文苑英華	-11.4702
笈	-11.4702
翰府名談	-11.4702
刑部侍郎	-11.4702
獬	-11.4702
覺範	-11.4702
熊羆	-11.4702
蜕	-11.4702
釜	-11.4703
杖屨	-11.4703
江干	-11.4703
復齋謾録	-11.4704
𫀆	-11.4704
尭	-11.4704
棐	-11.4704
踟蹰	-11.4705
崗	-11.4705
跂	-11.4705
李徳裕	-11.4706
帰	-11.4706
摠	-11.4707
淂	-11.4707
煌	-11.4708
玷	-11.4708
駘	-11.4708
衒	-11.4708
荣	-11.4708
金石例	-11.4709
户部	-11.4709
枚乗	-11.4709
三十三	-11.471
系述	-11.471
譲	-11.471
飴	-11.4711
慎勿	-11.4713
無迹	-11.4713
左僕射	-11.4715
項斯	-11.4716
韶州	-11.4717
墩	-11.4719
孔雀	-11.4721
功徳	-11.4724
利害	-11.4726
陶潛	-11.4726
紀其事	-11.4728
存焉	-11.473
扈從	-11.4731
南康	-11.4732
建炎初	-11.4733
釣船	-11.4736
凛然	-11.4737
杏園	-11.4738
拍手	-11.4739
閩省	-11.474
簾捲	-11.4741
受知	-11.4744
雙闕	-11.4747
明允	-11.4753
風格	-11.4754
渭城	-11.4754
虞卿	-11.4763
萬戸	-11.4765
屈曲	-11.4768
精舍	-11.4772
瑩中	-11.4773
前四句	-11.4773
食肉	-11.4773
十才子	-11.4774
隠隠	-11.4775
儀禮	-11.4775
感恩	-11.4776
斷續	-11.4778
建安人	-11.4784
地僻	-11.4788
雅樂	-11.4789
第三句	-11.4794
興廢	-11.4794
夾道	-11.4797
當塗	-11.48
可見矣	-11.4802
八極	-11.4807
鈞天	-11.4808
八首	-11.4809
宣徳	-11.4815
九鼎	-11.4816
八荒	-11.4817
有所思	-11.4818
環溪云	-11.4818
興宗	-11.4818
六尺	-11.4819
但恐	-11.4821
巴山	-11.4825
晉卿	-11.4826
先輩	-11.4828
商周	-11.4829
四十九	-11.4832
一叚	-11.484
聊復	-11.484
紀實	-11.4841
碧波	-11.4847
郡閣	-11.4847
王衍	-11.4851
自矜	-11.4851
詩一章	-11.4858
徐氏	-11.486
錦衣	-11.486
南越	-11.4865
親友	-11.4873
第八	-11.4881
夣得	-11.49
紅袖	-11.4901
彦伯	-11.4905
年三十	-11.4913
㣲雨	-11.4915
武夷山	-11.4916
郡縣	-11.4922
子敬	-11.4932
不返	-11.4937
宣和中	-11.4946
朱氏	-11.4949
英氣	-11.4958
金盤	-11.496
社日	-11.4965
臨海	-11.4966
藝苑雌黄	-11.4974
蔡寛夫詩話	-11.4977
梅仙	-11.4982
沙鷗	-11.4984
縉	-11.4996
深谷	-11.4997
疎雨	-11.4998
無一事	-11.5001
呼兒	-11.501
蠡	-11.5012
㘴	-11.5012
瘠	-11.5014
隲	-11.5015
羗	-11.5015
鵩	-11.5015
欷	-11.5016
揄	-11.5016
徇	-11.5017
劉勰	-11.5018
闚	-11.5018
痴	-11.502
搥	-11.502
蛛	-11.502
腋	-11.502
東觀餘論	-11.502
涴	-11.502
產	-11.5021
橘柚	-11.5021
磔	-11.5021
檝	-11.5023
圉	-11.5023
諍	-11.5023
太常少卿	-11.5023
肢	-11.5023
篠	-11.5023
鑣	-11.5023
鷲	-11.5023
箠	-11.5023
犁	-11.5024
頺	-11.5024
娼	-11.5024
賚	-11.5024
个	-11.5024
騘	-11.5024
欎	-11.5024
讖	-11.5024
訶	-11.5025
元次山	-11.5025
辛丑	-11.5025
行路難	-11.5025
元厚之	-11.5026
毗陵	-11.5026
烘	-11.5027
梅磵詩話	-11.5027
芳艸	-11.5027
垠	-11.5027
隍	-11.5027
虀	-11.5028
袒	-11.5028
謝𤣥暉	-11.5028
茆	-11.5028
熾	-11.5029
喘	-11.5029
軒轅	-11.5029
綮	-11.5029
抔	-11.503
巴峽	-11.503
酹	-11.503
啣	-11.503
潁川	-11.5031
潺潺	-11.5031
咨嗟	-11.5031
魅	-11.5031
殉	-11.5031
沱	-11.5031
怖	-11.5031
蔡元長	-11.5031
范石湖	-11.5032
瘁	-11.5032
槳	-11.5034
垓	-11.5035
黄庭堅	-11.5035
舒州	-11.5035
鶚按	-11.5036
獅子	-11.5037
紘	-11.5037
崔顥	-11.5038
稍稍	-11.504
肅肅	-11.504
鄭䖍	-11.5041
慈恩寺	-11.5041
楊升菴曰	-11.5043
荀鶴	-11.5043
罨畫	-11.5044
任昉	-11.5045
憂患	-11.5045
羅裙	-11.5046
大明宫	-11.5047
寥落	-11.5048
羅敷	-11.5051
假借	-11.5051
顏色	-11.5051
晦菴	-11.5054
巴陵	-11.5055
天禧	-11.5056
靖康初	-11.506
斗牛	-11.5061
解嘲	-11.5065
羅綺	-11.5067
徒勞	-11.5069
度支	-11.5069
題䟦	-11.507
萬年枝	-11.5072
豐年	-11.5074
魏武	-11.5077
隴頭	-11.5079
歴代	-11.508
山谷嘗	-11.508
蓮葉	-11.5082
藕花	-11.5084
變態	-11.5085
青霄	-11.5093
太夫人	-11.5094
造次	-11.5096
湯泉	-11.5098
林壑	-11.5099
魚鳥	-11.51
翠眉	-11.5104
宰臣	-11.5106
述其	-11.5107
凝碧	-11.5107
獨酌	-11.5109
寂無	-11.5114
碑銘	-11.5115
囘首	-11.5117
半夜鐘	-11.5118
極浦	-11.5122
從弟	-11.5122
金銀	-11.5127
旬日	-11.5128
温泉	-11.5135
范文正公	-11.5135
玉階	-11.5139
玉佩	-11.5144
感懐	-11.5148
工巧	-11.5148
吹笙	-11.5154
積水	-11.5155
帖子	-11.5155
桂樹	-11.5162
豐城	-11.5163
無賴	-11.5164
須要	-11.5174
用此意	-11.5175
紫閣	-11.5184
清涼	-11.5194
詞翰	-11.5201
未消	-11.5201
農夫	-11.5202
帝鄉	-11.5209
莫教	-11.5216
至京師	-11.5224
而逝	-11.5231
三寸	-11.5233
早梅	-11.524
金鼎	-11.5242
終南山	-11.5248
司業	-11.5252
人第進士	-11.5256
藝文	-11.5281
漁隠叢話	-11.5305
仞	-11.5321
朅	-11.5326
茄	-11.5327
魏志	-11.5334
勰	-11.5335
唳	-11.5341
熹	-11.5344
涔	-11.5345
筋	-11.5349
庚戌	-11.535
䌫	-11.535
榿	-11.535
訾	-11.5351
陳文惠	-11.5352
購	-11.5352
不誣	-11.5352
旟	-11.5352
𢾗	-11.5352
師魯	-11.5353
梁元帝	-11.5353
文苑	-11.5353
戸部	-11.5353
冥搜	-11.5353
撃	-11.5353
紺	-11.5354
縹	-11.5354
直祕閣	-11.5354
陸魯望	-11.5354
僣	-11.5354
蠟燭	-11.5354
孑	-11.5354
香奩	-11.5355
梔	-11.5355
禺	-11.5355
拄杖	-11.5355
彞	-11.5355
澧	-11.5355
渤海	-11.5355
詡	-11.5355
嘔	-11.5356
㬰	-11.5356
闐	-11.5356
匆匆	-11.5358
太學博士	-11.5358
蛮	-11.5358
羹	-11.5358
西京雜記	-11.5359
殫	-11.5359
刳	-11.5359
仭	-11.5359
乙丑	-11.5359
晡	-11.5359
爇	-11.5359
治平中	-11.5359
𦙍	-11.5359
蹲	-11.5359
短褐	-11.536
騖	-11.536
鑾輿	-11.536
缶	-11.536
諷諭	-11.536
軻	-11.536
慄	-11.5361
賀方回	-11.5361
敎坊	-11.5361
晤	-11.5361
嶮	-11.5361
厠	-11.5361
歐陽詹	-11.5361
緱氏	-11.5361
淅	-11.5362
陔	-11.5362
祭祀	-11.5362
瑯	-11.5362
劉夣得	-11.5362
瓦礫	-11.5363
任天社云	-11.5363
股肱	-11.5364
轄	-11.5364
鍜	-11.5364
蔭	-11.5364
瀧	-11.5365
胡笳	-11.5365
瞬	-11.5365
挫	-11.5367
淼	-11.5367
斑斑	-11.5367
葛常之韻語陽秋曰	-11.5367
餒	-11.5367
舊唐書	-11.5368
鄆	-11.5369
汴京	-11.5369
夢英大師	-11.5372
張芸叟	-11.5372
酢	-11.5373
熈寧	-11.5374
青嶂	-11.5377
仁傑	-11.5378
釀酒	-11.538
藝苑	-11.538
鶴林寺	-11.538
薛濤	-11.538
酬唱	-11.5383
巨源	-11.5384
吕氏童䝉訓云	-11.5385
月泉吟社第	-11.5387
莘老	-11.5389
放榜	-11.5389
靈均	-11.5391
蕭索	-11.5391
流鶯	-11.5392
渾厚	-11.5397
上林賦	-11.5398
丹霞	-11.5402
堦前	-11.5403
永福	-11.5405
致堯	-11.5405
聚散	-11.5406
春帖子	-11.5408
煙霧	-11.5409
隔岸	-11.5412
制置	-11.5415
鞍馬	-11.5415
隨流水	-11.5415
元祐間	-11.5415
元豐間	-11.5415
開元寺	-11.5417
歸田録	-11.5418
紙錢	-11.542
陸羽	-11.5424
莫知其	-11.5426
不克	-11.5428
渚宫	-11.543
田舍	-11.5431
宣政	-11.5431
嘉定中	-11.5434
俚語	-11.5438
周翰	-11.5441
不茍	-11.5445
動揺	-11.5448
存亡	-11.5448
本事詩	-11.5457
忽忽	-11.547
年譜	-11.5475
金蓮	-11.5479
那復	-11.5485
新粧	-11.5485
冠蓋	-11.5502
記室	-11.5511
海潮	-11.5522
謝恩	-11.5532
滁	-11.5544
千騎	-11.5559
離愁	-11.5572
實錄	-11.5575
丈餘	-11.5581
桐江	-11.5582
畫山水	-11.5583
聫句	-11.5586
落霞	-11.5604
十九日	-11.5634
薰風	-11.564
十丈	-11.5649
瑛	-11.5677
坰	-11.5686
翃	-11.5686
五十六	-11.5688
躔	-11.5688
諮	-11.5691
纈	-11.5692
狖	-11.5692
苴	-11.5693
散騎常侍	-11.5693
脯	-11.5695
廚	-11.5695
繚	-11.5696
薛稷	-11.5696
潯	-11.5696
僉	-11.5696
陸龜蒙	-11.5696
洪容齋	-11.5697
蜘蛛	-11.5697
僦	-11.5697
籹	-11.5697
鬪	-11.5698
蒂	-11.5698
娟	-11.5698
緡	-11.5698
緗	-11.5698
蜃	-11.5699
某氏	-11.5699
大理評事	-11.5699
菩薩蠻	-11.5699
紱	-11.5699
聆	-11.5699
籌筆驛	-11.5699
褒貶	-11.5699
芙蕖	-11.57
劭	-11.57
筑	-11.57
楊文公談苑	-11.57
馹	-11.5701
伋	-11.5701
餽	-11.5701
合璧事類前集	-11.5701
扳	-11.5701
呉郡志	-11.5701
謪	-11.5701
熙寕	-11.5701
桞子厚	-11.5702
娉婷	-11.5703
孫莘老	-11.5703
夤	-11.5703
尽	-11.5703
忱	-11.5705
継	-11.5705
戌	-11.5705
野客樷書	-11.5705
䘏	-11.5706
中呉紀聞	-11.5706
能改齋	-11.5706
爼	-11.5707
礴	-11.5707
李善注	-11.5708
桑榆	-11.5708
韭	-11.5709
苕溪漁隠叢話	-11.5709
墓碣	-11.5709
躰	-11.571
安撫使	-11.571
髭鬚	-11.5711
烽火	-11.5711
慾	-11.5714
甍	-11.5714
諦	-11.5715
莢	-11.5715
䍐	-11.5716
韓侂胄	-11.5716
磨滅	-11.5719
嚴滄浪	-11.572
寳祐	-11.572
詩押二	-11.5721
鳯翔	-11.5721
新唐書	-11.5722
佇立	-11.5723
其為人	-11.5723
彤管	-11.5725
學林新編云	-11.5727
巴蜀	-11.5728
嘗有詩	-11.5729
金閨	-11.5729
開闢	-11.573
焦氏	-11.5731
陳摶	-11.5732
榮枯	-11.5732
峨眉	-11.5733
營妓	-11.5734
遮莫	-11.5742
知杭州	-11.5744
紹聖初	-11.5744
仲兄	-11.5746
傅𤣥	-11.5747
吳融	-11.5759
垂釣	-11.576
匹馬	-11.5761
甲兵	-11.5762
邦直	-11.5763
尺素	-11.5763
緗素雜記云	-11.5764
漁隠叢話云	-11.5764
忠厚	-11.5769
商隱	-11.5769
丹桂	-11.577
建業	-11.5771
神農	-11.5771
吟諷	-11.5771
楓葉	-11.5773
乞食	-11.5776
擅名	-11.5776
桂枝	-11.5781
二丈	-11.5791
良史	-11.5791
懷素	-11.5794
用其語	-11.5795
光彩	-11.5797
寒鴉	-11.5799
瓊樹	-11.5799
可汗	-11.5799
宴罷	-11.5799
南塘	-11.58
王莽	-11.5801
勝負	-11.5802
巖谷	-11.5803
㡬度	-11.5804
四座	-11.5814
莫敢	-11.5816
政府	-11.5817
形影	-11.5823
善謔	-11.5834
贈太師	-11.5837
戲之曰	-11.5841
七哀	-11.5847
尚友	-11.5856
斜暉	-11.5858
一枚	-11.5863
玉局	-11.5865
類聚	-11.5866
各異	-11.5871
秋菊	-11.5873
京洛	-11.5883
危樓	-11.5887
殆無	-11.5887
五百年	-11.5894
謂人曰	-11.5931
貢院	-11.5951
叢林	-11.5955
何者為	-11.5964
筆勢	-11.5965
楊升菴	-11.5968
徙倚	-11.5997
兖州	-11.6001
韋齋	-11.6012
止齋	-11.6021
雙雙	-11.6033
殤	-11.6036
姮娥	-11.6042
瓣	-11.6044
唐詩紀事	-11.6047
庄	-11.6048
瘞鶴銘	-11.6048
朦朧	-11.6049
麫	-11.605
簾櫳	-11.605
褁	-11.6051
郛	-11.6051
裛	-11.6051
菟	-11.6052
陡	-11.6052
郎士元	-11.6053
司空曙	-11.6053
嚢	-11.6054
瞽	-11.6054
廌	-11.6054
滓	-11.6054
柝	-11.6055
制誥	-11.6055
沔	-11.6055
畛	-11.6055
㽔	-11.6055
辛酉	-11.6055
七言絶句	-11.6055
豎	-11.6055
皇朝類苑	-11.6055
隰	-11.6056
橙	-11.6056
䔥	-11.6056
天慶觀	-11.6057
歘	-11.6057
濆	-11.6057
賞花釣魚	-11.6057
淄	-11.6057
唐彦謙	-11.6058
靳	-11.6058
琪樹	-11.6058
歧	-11.6058
埸	-11.6058
㗸	-11.6058
王直方	-11.6058
褚	-11.6059
李德裕	-11.6059
卸	-11.6059
繕	-11.6059
容齋隨筆	-11.606
纊	-11.606
髙齋詩話云	-11.606
菰蒲	-11.606
杳冥	-11.6061
刑部尚書	-11.6061
縻	-11.6061
癸丑	-11.6061
凛凛	-11.6061
讜	-11.6061
蝨	-11.6061
宋齊丘	-11.6061
殖	-11.6062
㠀	-11.6062
劳	-11.6063
櫺	-11.6063
卜築	-11.6064
文獻通考	-11.6065
朱紱	-11.6065
癘	-11.6065
埜	-11.6065
涇渭	-11.6065
漁隱叢話	-11.6066
楊升菴謂	-11.6066
鐃歌	-11.6066
臯陶	-11.6066
璜	-11.6066
竝	-11.6067
飄泊	-11.6067
滇	-11.6067
崧	-11.6067
海録碎事云	-11.6067
一篇押二	-11.6067
雌雄	-11.6068
販	-11.6068
汲汲	-11.6068
辜負	-11.607
軒冕	-11.607
増修詩話總龜卷	-11.6072
彦博	-11.6072
箬	-11.6074
直學士院	-11.6074
縣主簿	-11.6075
端拱	-11.6075
孝亷	-11.6076
楊億	-11.6076
侯鯖錄	-11.6077
震澤	-11.6077
提㸃	-11.6078
摭遺	-11.6079
濯足	-11.6079
纎手	-11.608
陶潜	-11.6081
葛洪	-11.6082
絲綸	-11.6082
挂冠	-11.6083
釣竿	-11.6083
惠洪	-11.6085
雄健	-11.6086
累擢	-11.6086
邠老	-11.6087
郄	-11.6087
鴻雁	-11.6089
贏得	-11.6092
品藻	-11.6095
排比	-11.6098
疎鐘	-11.6098
雌黄	-11.6102
雄渾	-11.6102
通宵	-11.6103
瑶臺	-11.6104
郗	-11.6108
滄江	-11.6108
稽古	-11.611
五言古	-11.6111
嗜好	-11.6116
宣和間	-11.6117
鄞人	-11.6117
郊原	-11.6118
鳳凰臺	-11.6118
累除	-11.6121
鳳皇	-11.6122
潁州	-11.6123
門巷	-11.6128
附東坡	-11.6128
倚欄	-11.6133
洞庭湖	-11.6138
紫泥	-11.6144
經術	-11.6149
照耀	-11.6158
臘月	-11.6158
赴闕	-11.6159
禪院	-11.616
發源	-11.6177
莊周	-11.6179
文圭	-11.6181
養直	-11.6189
無頼	-11.6189
閤門	-11.619
集十巻	-11.62
韋氏	-11.6202
子産	-11.623
感動	-11.6233
省郎	-11.6267
焦山	-11.6273
五十年	-11.6304
譏諷	-11.6329
紅燭	-11.6342
鄞	-11.637
哲宗	-11.6387
雨脚	-11.6388
國夫人	-11.6402
𧺫	-11.6404
各有所	-11.6411
芊	-11.6413
曹能始	-11.6413
癭	-11.6415
謎	-11.6416
紬	-11.6416
酈	-11.6416
洮	-11.6416
紂	-11.6417
劵	-11.6418
晶	-11.6419
煨	-11.6419
灧	-11.6421
瑗	-11.6421
枰	-11.6421
棚	-11.6421
峒	-11.6422
酉陽雜俎	-11.6422
浥	-11.6422
貍	-11.6423
盎	-11.6423
全蜀藝文志	-11.6423
壷	-11.6424
迢逓	-11.6424
蕡	-11.6424
曽子固	-11.6425
描	-11.6425
悰	-11.6425
王勉夫	-11.6425
禋	-11.6425
鬆	-11.6425
啚	-11.6425
飃	-11.6425
蘇頲	-11.6426
淋	-11.6426
煤	-11.6426
晟	-11.6426
械	-11.6426
霆	-11.6427
釭	-11.6427
宋藝圃集	-11.6427
高仲武	-11.6427
鯁	-11.6428
脞	-11.6428
悖	-11.6428
瀰	-11.6428
顔延之	-11.6428
蘸	-11.6428
半山老人	-11.6428
哂	-11.6428
酩	-11.6428
叡	-11.6429
帔	-11.6429
中興頌	-11.643
鴟夷	-11.643
撒	-11.643
鏃	-11.643
糚	-11.643
謟	-11.643
髠	-11.643
乾隆四十六年	-11.6431
曁	-11.6431
凈	-11.6431
聒	-11.6431
䌓	-11.6431
驩	-11.6432
漱	-11.6432
軿	-11.6432
灝	-11.6433
雩	-11.6433
𢷬	-11.6433
駸駸	-11.6433
梳洗	-11.6434
瑀	-11.6435
丰	-11.6435
郭功甫	-11.6436
倐忽	-11.6436
劈	-11.6436
滳	-11.6437
錯綜	-11.6437
爆	-11.6438
岑寂	-11.6438
芟	-11.6438
惨	-11.6438
頲	-11.6438
䛒	-11.6438
僮僕	-11.6439
懦	-11.6439
駞	-11.6439
儋耳	-11.6439
凾	-11.6439
曾子固	-11.6439
琱	-11.644
慘淡	-11.644
掌書記	-11.6441
王君玉	-11.6441
臯羽	-11.6442
紫陌	-11.6443
𢎞治	-11.6443
勲業	-11.6443
撫掌	-11.6443
雍陶	-11.6444
青城山	-11.6447
棟梁	-11.6447
龜兹	-11.6448
迄今	-11.6449
中書侍郎	-11.645
堯典	-11.6451
姜堯章	-11.6451
樞密使	-11.6454
掩映	-11.6459
杜預	-11.6459
倉卒	-11.6459
錦帳	-11.6462
問訊	-11.6463
梁武帝	-11.6463
議者謂	-11.6467
阿誰	-11.6467
藝祖	-11.6472
厯代	-11.6476
登庸	-11.6477
洞賔	-11.6478
科舉	-11.6479
端午	-11.648
岐路	-11.648
學士院	-11.6485
隠居詩話云	-11.6486
昆明	-11.6487
登壇	-11.6489
桐江詩話云	-11.6489
平蕪	-11.649
燕子樓	-11.6491
花鈿	-11.6493
陳後主	-11.6494
何限	-11.6494
鷗鳥	-11.6496
元豐初	-11.6496
泥沙	-11.6499
乾德	-11.6502
太僕	-11.6508
青苔	-11.6515
上庠	-11.652
哲宗朝	-11.6523
斗柄	-11.6525
五言古詩	-11.653
長揖	-11.653
了翁	-11.6532
孔氏	-11.6549
雙燕	-11.6585
雨洗	-11.6595
鼎湖	-11.6597
刑部	-11.6617
監司	-11.6628
花蕚	-11.6655
謳歌	-11.6658
此等句	-11.6672
江浙	-11.6721
歐公詩話	-11.6725
拾遺記	-11.673
桐江詩話	-11.6761
復齋漫録	-11.6761
律吕	-11.6783
霑衣	-11.6786
洛陽城	-11.679
王逸注	-11.6795
綢繆	-11.68
蝦蟇	-11.6801
蚩	-11.6801
葡萄	-11.6802
淞	-11.6802
嬈	-11.6803
斡	-11.6804
柿	-11.6804
龍圖閣直學士	-11.6804
未第時	-11.6804
脛	-11.6804
詼諧	-11.6804
肄	-11.6805
壟	-11.6805
毳	-11.6805
蹀	-11.6805
徊	-11.6805
塹	-11.6806
悠揚	-11.6806
譔	-11.6806
轟	-11.6807
壅	-11.6807
湟	-11.6807
漁隠樷話	-11.6808
凄凄	-11.6809
頡頏	-11.6809
楯	-11.6809
興化軍	-11.681
榼	-11.681
崆峒	-11.681
駑	-11.681
皤	-11.681
櫛	-11.6811
怱	-11.6811
椶	-11.6811
聿	-11.6811
趙章泉	-11.6811
罘	-11.6812
䧏	-11.6812
詈	-11.6812
蓬莱	-11.6812
皆佳句也	-11.6812
蘧	-11.6812
鮓	-11.6812
呻吟	-11.6813
濁醪	-11.6813
芬芳	-11.6813
𬒮	-11.6813
卲	-11.6813
壼	-11.6813
駈	-11.6814
仝	-11.6814
楊仲𢎞	-11.6814
兕	-11.6814
惶	-11.6814
歔	-11.6814
撫州府志	-11.6815
赫赫	-11.6815
葛立方	-11.6815
國子司業	-11.6815
墉	-11.6816
輻	-11.6816
仙都山	-11.6816
激烈	-11.6817
隧	-11.6817
砑	-11.6817
紓	-11.6817
涓涓	-11.6817
飫	-11.6817
陁	-11.6817
悽愴	-11.6818
隂鏗	-11.6818
閩縣人	-11.6818
青蠅	-11.6819
渤	-11.6819
出新意	-11.6819
杰	-11.6819
讀之使人	-11.6819
忠愍	-11.682
粉黛	-11.682
麈史	-11.682
换	-11.6821
謩	-11.6821
斲	-11.6821
鐵笛	-11.6821
八哀詩	-11.6822
袈裟	-11.6822
吳鈎	-11.6823
綂	-11.6823
權徳輿	-11.6823
睥睨	-11.6823
飇	-11.6823
緑苔	-11.6823
筋力	-11.6824
羅鄴	-11.6824
縝	-11.6824
萬籟	-11.6824
䭾	-11.6825
驅馳	-11.6825
滿城風雨近重陽	-11.6825
慥	-11.6825
傭	-11.6826
脾	-11.6826
冠冕	-11.6827
黄滔	-11.6827
握手	-11.6828
攀折	-11.6834
良弼	-11.6836
武庫	-11.6836
負薪	-11.6836
滄浪亭	-11.6837
松柏	-11.6837
侍講	-11.6839
州别駕	-11.6839
管弦	-11.6842
湘潭	-11.6843
為余言	-11.6845
紅綃	-11.6846
謝眺	-11.6846
慈母	-11.6846
幅巾	-11.6849
私第	-11.6851
鮑謝	-11.6854
楊桞	-11.6856
苦辛	-11.6856
縉雲	-11.6857
扶持	-11.6861
旦暮	-11.6863
希孟	-11.6872
緑沉	-11.6874
偃師	-11.6874
丁寧	-11.6877
樵夫	-11.6877
張曲江	-11.6878
鳯池	-11.6878
韶光	-11.6881
安排	-11.6882
學者稱	-11.6891
青瑣集	-11.6896
鷗鷺	-11.6897
元宵	-11.6897
嶺表	-11.6898
蔡襄	-11.6904
北征詩	-11.6918
燈影	-11.6929
巴東	-11.694
換韻	-11.694
魂銷	-11.6948
漳州	-11.695
閒暇	-11.695
之過也	-11.6965
㕔事	-11.6986
制科	-11.7033
繍	-11.7192
歐陽文忠	-11.7192
蛬	-11.7193
纍	-11.7194
嶸	-11.7195
荳	-11.7195
罨	-11.7201
頎	-11.7203
風月堂詩話	-11.7203
攫	-11.7206
遯齋	-11.7208
簸	-11.7208
虞伯生	-11.7208
虺	-11.7209
燿	-11.721
滻	-11.721
緊	-11.721
剽竊	-11.721
温飛卿	-11.721
錮	-11.721
綆	-11.721
痛快	-11.721
駱賔王	-11.721
戛	-11.7211
稻粱	-11.7211
癸辛雜識	-11.7211
廂	-11.7211
髦	-11.7211
凹	-11.7211
蝦蟆	-11.7212
叚成式	-11.7212
陳子昂	-11.7212
堰	-11.7212
粲粲	-11.7212
後庭花	-11.7212
戡	-11.7212
娑	-11.7212
莒	-11.7213
藁砧	-11.7213
酧	-11.7213
魏慶之	-11.7213
顔魯公	-11.7214
茰	-11.7214
暹	-11.7214
湯餅	-11.7214
殄	-11.7214
能改齋漫錄	-11.7215
峥嶸	-11.7215
甑	-11.7215
穆宗	-11.7215
芰荷	-11.7216
王禹偁	-11.7216
太平廣記	-11.7216
洪駒父詩話云	-11.7216
伉	-11.7216
雲溪友議	-11.7216
孥	-11.7216
荆軻	-11.7217
封疆	-11.7217
鮑明逺	-11.7217
交趾	-11.7217
綿綿	-11.7217
黷	-11.7218
芸叟	-11.7218
蚕	-11.7218
韋嗣立	-11.7218
王逢原	-11.7218
劉原父	-11.7218
六么	-11.7219
烝	-11.7219
吊	-11.7219
髀	-11.7219
㴱	-11.722
园	-11.722
濩	-11.722
韓致光	-11.722
薜荔	-11.7221
禽獸	-11.7221
䂓	-11.7221
搔首	-11.7221
悄悄	-11.7221
溷	-11.7222
覉	-11.7223
二千石	-11.7223
鄜州	-11.7223
文昌雜録云	-11.7223
蟠桃	-11.7223
漢藝文志	-11.7224
吐蕃	-11.7224
迂叟	-11.7224
羈旅	-11.7224
怳	-11.7224
㳟	-11.7225
趺坐	-11.7226
拜參知政事	-11.7226
左氏傳曰	-11.7228
壕	-11.7228
杇	-11.7229
甲申	-11.7229
李公擇	-11.723
繡户	-11.723
塞垣	-11.7231
杳靄	-11.7231
疎籬	-11.7232
壹	-11.7233
邦彦	-11.7233
石幢	-11.7235
大曆	-11.7236
琴操	-11.7238
比肩	-11.7238
房琯	-11.7238
窑	-11.7239
贈之詩曰	-11.7239
風俗通	-11.724
敎授	-11.724
庶㡬	-11.7243
境界	-11.7244
淵源	-11.7244
皮陸	-11.7245
精爽	-11.7246
委蛇	-11.7248
颶	-11.7252
友朋	-11.7256
鐘鼓	-11.7256
韋臯	-11.7256
霖雨	-11.7258
紫姑	-11.7259
措意	-11.7259
梳頭	-11.7261
西掖	-11.7262
玉壘	-11.7269
携手	-11.7271
濁酒	-11.7273
遺蹤	-11.7275
爐烟	-11.7275
寧宗朝	-11.7279
㸃㸃	-11.7285
有深意	-11.7325
啼猿	-11.7336
南陌	-11.748
禧	-11.7582
名自署	-11.7602
糝	-11.7611
鄜	-11.7613
泗州	-11.7613
茅茨	-11.7616
騣	-11.7616
睫	-11.7616
韓熙載	-11.7617
陞	-11.7618
渊	-11.7619
跗	-11.762
閼	-11.7621
腮	-11.7621
芊芊	-11.7621
飄颻	-11.7621
殃	-11.7622
霓旌	-11.7622
紅兒㒵	-11.7622
王伯厚	-11.7623
柁	-11.7623
羯鼓	-11.7623
胸臆	-11.7623
汲黯	-11.7623
李建勲	-11.7624
槌	-11.7624
幟	-11.7624
摻	-11.7624
窶	-11.7624
公羊傳	-11.7624
穫	-11.7625
簌	-11.7625
囷	-11.7626
嫣	-11.7626
跌	-11.7626
蜀都賦	-11.7626
珉	-11.7626
咬	-11.7626
弭	-11.7626
壬辰	-11.7626
鱣	-11.7626
賒	-11.7627
謐	-11.7627
券	-11.7627
脉脉	-11.7627
濫觴	-11.7627
張平子	-11.7627
徐興公	-11.7628
揉	-11.7628
鯤	-11.7628
蛆	-11.7628
臨卭	-11.7628
拚	-11.7628
緱	-11.7628
豬	-11.7628
旻	-11.7629
佃	-11.7629
袵	-11.7629
弈	-11.7629
鷙	-11.763
姨	-11.763
北夢瑣言	-11.763
斟酌	-11.763
孟軻	-11.7631
龐	-11.7631
扺	-11.7631
雲齋廣録	-11.7631
蓀	-11.7631
昵	-11.7631
渺茫	-11.7631
濯纓	-11.7631
聀	-11.7631
紿	-11.7632
蠢	-11.7632
曈	-11.7632
迢遞	-11.7633
摹寫	-11.7634
捄	-11.7634
碍	-11.7634
嫵	-11.7634
㶚陵	-11.7634
十七年	-11.7634
高宗朝	-11.7635
磁	-11.7635
轢	-11.7635
潢	-11.7635
屠蘇	-11.7635
旴	-11.7635
㝎	-11.7636
規摹	-11.7636
科第	-11.7636
紉	-11.7636
撤	-11.7636
丙午	-11.7637
浮萍	-11.7637
西崑體	-11.7637
貴耳集	-11.7637
嘈	-11.7637
畎	-11.7638
韉	-11.7638
脇	-11.7638
三山老人語録云	-11.7638
迤邐	-11.7638
媍	-11.7638
碌碌	-11.7639
科斗	-11.7639
捴	-11.7639
應劭	-11.7639
西溪叢語	-11.7639
墨蹟	-11.7639
煇	-11.7639
灯	-11.764
蠲	-11.764
黄粱	-11.7641
兠	-11.7641
桀	-11.7641
愉	-11.7642
夏英公	-11.7642
蒐	-11.7642
譏誚	-11.7643
衣鉢	-11.7644
笠澤	-11.7644
睇	-11.7645
蝸角	-11.7645
盤桓	-11.7646
彈丸	-11.7646
貝葉	-11.7646
右諫議大夫	-11.7646
榮辱	-11.7646
千齡	-11.765
亳州	-11.765
蓑衣	-11.765
贔	-11.7651
見寄云	-11.7653
阮翁	-11.7655
勣	-11.7655
巢由	-11.7659
洪覺範	-11.766
几案	-11.766
王仲至	-11.7661
瑤臺	-11.7662
汾陽	-11.7663
歸去來辭	-11.7665
慈恩	-11.7666
楊栁枝	-11.7666
倉皇	-11.7667
戊辰	-11.7667
高郵	-11.7667
凭闌	-11.7671
揚子雲	-11.7671
九陌	-11.7673
巖壑	-11.7674
鳥雀	-11.7675
叩頭	-11.7684
恍然	-11.7687
均父	-11.7696
精確	-11.7776
諷誦	-11.7801
江濵	-11.7812
簫鼓	-11.7833
文選注	-11.7913
隠居詩話	-11.8025
竺	-11.8026
冉	-11.8045
曆	-11.8047
王元美	-11.8047
堯山堂外紀	-11.8048
墓誌右誌	-11.805
蕤	-11.8053
鄖	-11.8053
曬	-11.8053
駉	-11.8053
茜	-11.8054
盥	-11.8054
癢	-11.8055
毉	-11.8055
庚寅	-11.8056
鍛	-11.8056
肺腑	-11.8056
麑	-11.8057
菽	-11.8057
种	-11.8057
淒涼	-11.8058
天津橋	-11.8058
善屬文	-11.8058
宕	-11.8059
鈐	-11.8059
虵	-11.8059
鵒	-11.8059
錚	-11.8059
閗	-11.806
竪	-11.806
闗雎	-11.806
混沌	-11.806
雨初晴	-11.806
倭	-11.806
适	-11.8061
汭	-11.8061
雅言雜載	-11.8061
纏	-11.8062
閧	-11.8062
悚	-11.8062
李羣玉	-11.8062
蓬蒿	-11.8062
𦕈	-11.8062
獺	-11.8062
咀嚼	-11.8063
旰	-11.8063
江南野録	-11.8063
宼	-11.8063
傅毅	-11.8063
匕	-11.8063
擯	-11.8064
澶	-11.8064
洋洋	-11.8064
崇禎	-11.8064
覘	-11.8064
𡨕	-11.8064
天章閣待制	-11.8064
矚	-11.8064
劉琨	-11.8065
蠒	-11.8065
樾	-11.8065
蘇味道	-11.8065
爛熳	-11.8065
白帝城	-11.8065
七月七日	-11.8065
鵉	-11.8065
蘊	-11.8065
舟檝	-11.8066
迦	-11.8066
錡	-11.8066
楊徽之	-11.8066
徂徠	-11.8066
丁酉	-11.8066
微茫	-11.8066
蹶	-11.8066
青玉案	-11.8066
醯	-11.8067
眈	-11.8067
戸牖	-11.8067
努力	-11.8067
咄嗟	-11.8067
剗	-11.8067
鐘磬	-11.8068
清波雜志	-11.8068
殽	-11.8068
璿	-11.8069
泥滓	-11.8069
葳蕤	-11.8069
尚書左丞	-11.8069
勗	-11.8069
韞	-11.8069
闉	-11.8069
籃輿	-11.807
旡	-11.807
矗	-11.807
劉攽	-11.8071
㽵	-11.8071
屯田員外郎	-11.8071
此類是也	-11.8071
奕奕	-11.8071
閴	-11.8071
滉	-11.8072
鷖	-11.8072
湘妃	-11.8072
襠	-11.8072
片片	-11.8072
髏	-11.8072
毗	-11.8072
矯矯	-11.8072
慤	-11.8073
歡娛	-11.8073
窅	-11.8073
裴晉公	-11.8073
王審知	-11.8073
貟	-11.8074
蘇子卿	-11.8074
張伯雨	-11.8074
蓽	-11.8074
中書省	-11.8074
聦	-11.8074
辛亥	-11.8074
欸乃	-11.8074
銍	-11.8075
櫪	-11.8075
柬	-11.8075
甲午	-11.8075
珠箔	-11.8075
黄庭經	-11.8075
弥	-11.8075
隋煬帝	-11.8075
輾	-11.8075
絆	-11.8075
遘	-11.8076
滸	-11.8076
州剌史	-11.8076
抱甕	-11.8076
蛟螭	-11.8076
秘書監	-11.8077
勸農	-11.8077
雍熙	-11.8077
棅	-11.8078
屈膝	-11.8078
煒	-11.8078
賄	-11.8079
莾	-11.808
有思致	-11.808
歡娯	-11.8081
吟哦	-11.8082
垂拱	-11.8083
明妃曲	-11.8084
腸㫁	-11.8085
古詩十九首	-11.8086
滋味	-11.8086
嬰兒	-11.8086
枘	-11.8086
汗漫	-11.8086
潁昌	-11.8086
双	-11.8087
都䕶	-11.809
蘭蕙	-11.8091
校尉	-11.8092
澗底	-11.8093
啄木	-11.8094
茅簷	-11.8095
毛髪	-11.8098
閶門	-11.8098
雷電	-11.8099
奚斯	-11.8105
畢竟	-11.8106
鬢毛	-11.8107
騷雅	-11.811
徐幹	-11.811
真蹟	-11.8116
莫知所	-11.8123
柏梁	-11.8175
百六十	-11.824
二年進士第	-11.8381
央	-11.8398
雪浪齋日記	-11.8471
颯颯	-11.8502
埤雅云	-11.8503
厝	-11.8505
貂裘	-11.8506
嘖	-11.8506
毘	-11.8506
㳙	-11.8507
彖	-11.8508
孜	-11.8508
豋	-11.8509
摰	-11.8509
罌	-11.8509
蘅	-11.851
贑	-11.8511
泱	-11.8512
上官儀	-11.8512
燠	-11.8512
舷	-11.8512
㒺	-11.8513
紛紜	-11.8513
澑	-11.8513
䍦	-11.8513
俘	-11.8513
肋	-11.8514
俳優	-11.8514
王官谷	-11.8514
蹇驢	-11.8514
悤悤	-11.8514
蔑	-11.8514
䛕	-11.8514
飰	-11.8515
椅	-11.8515
晳	-11.8515
菡萏	-11.8516
茘	-11.8516
礫	-11.8516
䆠	-11.8516
頳	-11.8516
覷	-11.8517
百家詩選	-11.8517
鶒	-11.8517
樂府解題	-11.8517
詛	-11.8517
王定國	-11.8517
沈休文	-11.8518
鄊	-11.8518
肝膽	-11.8518
磐	-11.8518
無名氏	-11.8519
躓	-11.8519
碓	-11.8519
荆榛	-11.8519
鷦鷯	-11.852
漢魏六朝	-11.852
丁晋公	-11.852
皖	-11.852
頔	-11.852
奐	-11.8521
獵獵	-11.8521
畊	-11.8521
餙	-11.8521
武林舊事	-11.8521
鴿	-11.8521
蘇易簡	-11.8521
愷	-11.8521
開元天寳	-11.8521
狥	-11.8522
百斛明珠	-11.8522
耿介	-11.8522
王岐公	-11.8522
煦	-11.8522
梅堯臣	-11.8522
莧	-11.8522
溧陽	-11.8522
崑體	-11.8523
桷	-11.8523
湊	-11.8523
咳	-11.8523
五月五日	-11.8523
祕閣	-11.8523
狼籍	-11.8523
綺靡	-11.8523
縈紆	-11.8523
桴	-11.8523
慶歴中	-11.8523
翺翔	-11.8524
瓮	-11.8524
李方叔	-11.8524
叱撥	-11.8524
匳	-11.8524
蜿蜒	-11.8524
瓊瑶	-11.8524
考工記	-11.8524
熈寕	-11.8524
野客叢書云	-11.8525
瀘	-11.8525
施肩吾	-11.8525
确	-11.8525
睂	-11.8525
銑	-11.8525
嫡	-11.8525
四六談麈	-11.8527
剪綵	-11.8527
銛	-11.8527
鉗	-11.8528
跣	-11.8529
柴扉	-11.8529
韓持國	-11.8529
蜾蠃	-11.8529
凋零	-11.8529
皛	-11.8529
𥚑	-11.8529
東西南北	-11.8529
幷	-11.853
盜賊	-11.853
郇伯	-11.853
鼓瑟	-11.853
琴瑟	-11.853
涕泣	-11.8531
賜進士出身	-11.8531
飭	-11.8531
熠燿	-11.8532
節度判官	-11.8533
棊局	-11.8533
枯槁	-11.8534
庭珪	-11.8534
直史館	-11.8535
福清人	-11.8535
范蜀公	-11.8535
陸費墀	-11.8536
皎潔	-11.8536
劉子儀	-11.8539
骰子	-11.854
旄頭	-11.8541
播遷	-11.8541
駃	-11.8542
楊柳枝	-11.8543
項羽	-11.8544
塲屋	-11.8546
姑射	-11.8546
漫叟	-11.8549
鍾馗	-11.8553
阿戎	-11.8572
考證	-11.8582
皇太后	-11.8587
靖康間	-11.8596
㸃綴	-11.8691
憶昨	-11.8727
凭欄	-11.8787
范文正	-11.8825
奪胎	-11.8929
隱居詩話	-11.8943
攤	-11.8979
紵	-11.8981
鑊	-11.8982
容齋三筆	-11.8982
淙	-11.8983
盱	-11.8984
爻	-11.8986
訐	-11.8986
國子祭酒	-11.8987
楩	-11.8987
箆	-11.8987
饞	-11.8988
酋	-11.8988
么	-11.8988
噱	-11.8989
表而出之	-11.8989
匏	-11.8989
璹	-11.8989
曰琯按	-11.8989
髫	-11.899
荑	-11.899
煅	-11.899
㝢	-11.8992
王季友	-11.8992
花間集卷	-11.8992
昜	-11.8992
估	-11.8992
彭蠡	-11.8992
謝疊山云	-11.8992
籞	-11.8993
剽	-11.8993
閭閻	-11.8993
沾巾	-11.8993
藹藹	-11.8993
翠翹	-11.8993
纛	-11.8993
烏夜啼	-11.8993
霍嫖姚	-11.8993
臍	-11.8994
拽	-11.8994
甬	-11.8994
突厥	-11.8994
左太冲	-11.8994
怎	-11.8994
週	-11.8995
雯	-11.8995
蓞	-11.8995
埤	-11.8995
阮嗣宗	-11.8995
縉紳	-11.8995
潦倒	-11.8996
以上前賢小集拾	-11.8996
槱	-11.8996
搔頭	-11.8996
打毬	-11.8996
樊宗師	-11.8996
殷璠	-11.8996
斧斤	-11.8996
胃	-11.8996
埒	-11.8996
明胡震亨撰	-11.8996
篝	-11.8996
囝	-11.8997
响	-11.8997
溶	-11.8997
湏臾	-11.8997
噓	-11.8997
騾	-11.8998
三月三日	-11.8998
擊壤	-11.8998
裦	-11.8998
宋次道	-11.8999
陸務觀	-11.8999
江文通	-11.8999
燔	-11.8999
殂	-11.8999
洄	-11.8999
迍	-11.9
駛	-11.9
張天覺	-11.9
觱篥	-11.9
蔡天啟	-11.9
著作佐郎	-11.9
太平公主	-11.9
次其韻	-11.9
刈	-11.9
醢	-11.9
宋蔡正孫編	-11.9
譛	-11.9
九月九日	-11.9001
蕳	-11.9001
豸	-11.9001
漂泊	-11.9001
韓非子	-11.9001
優柔	-11.9001
泠齋夜話云	-11.9001
鏞	-11.9001
冕旒	-11.9002
咿	-11.9002
擴	-11.9002
簔	-11.9003
國子博士	-11.9003
沈存中筆談	-11.9003
瀹	-11.9003
磚	-11.9004
塼	-11.9004
規矩	-11.9004
捿	-11.9005
醅	-11.9005
醸	-11.9005
凬	-11.9005
杜光庭	-11.9005
徭	-11.9005
挑燈	-11.9006
主客圖	-11.9007
㩀	-11.9007
嘉熙	-11.9007
起居舍人	-11.9007
致仕卒贈	-11.9007
王仁裕	-11.9008
恍惚	-11.9008
罟	-11.9008
翶	-11.9008
賑	-11.9008
沐浴	-11.9008
劉楨	-11.9009
吕洞賓	-11.901
撩亂	-11.9011
灵	-11.9012
觚稜	-11.9012
橡	-11.9013
騎鯨	-11.9013
莹	-11.9013
羲皇	-11.9014
喈	-11.9014
祕書省	-11.9014
熈寜	-11.9014
执	-11.9015
漈	-11.9015
欹枕	-11.9016
慈恩寺九日應制云	-11.9016
洲渚	-11.9017
衛尉	-11.9019
優㳺	-11.9021
閭里	-11.9024
鶴唳	-11.9034
萱草	-11.9051
協律	-11.9163
倚䦨干	-11.919
侯鯖	-11.9439
十有二	-11.9447
咫	-11.9464
欸	-11.9481
疊嶂	-11.9482
悌	-11.9482
蝎	-11.9484
澦	-11.9484
搔	-11.9484
瀟	-11.9485
牽牛織女	-11.9486
茱萸	-11.9486
魑魅	-11.9487
挼	-11.9487
升庵	-11.9487
許彥周詩話	-11.9488
鱓	-11.9488
芾	-11.9488
淥	-11.9489
穆天子傳	-11.9489
頹	-11.9489
乙酉	-11.9489
茨	-11.9489
層巒	-11.949
搨	-11.9491
蒋	-11.9491
攴	-11.9491
珣	-11.9491
沄	-11.9491
誑	-11.9491
鴂	-11.9491
咄咄	-11.9491
蓍龜	-11.9492
畤	-11.9492
霓裳羽衣	-11.9492
諧謔	-11.9492
鋏	-11.9492
塡	-11.9492
丙戌	-11.9492
窩	-11.9493
扼	-11.9493
曰璐按	-11.9493
咮	-11.9493
隆興元年進士	-11.9493
撿	-11.9493
沈傳師	-11.9493
䬃	-11.9493
臚	-11.9493
酲	-11.9493
噉	-11.9494
凑	-11.9494
驊騮	-11.9495
蹉	-11.9495
楙	-11.9495
皴	-11.9495
嘻	-11.9495
杭州府志	-11.9495
爕	-11.9495
杌	-11.9495
桔橰	-11.9495
縊	-11.9495
种放	-11.9496
洗兵馬	-11.9496
龍圖閣學士	-11.9496
尹師魯	-11.9496
樷	-11.9496
風土記	-11.9497
鼯	-11.9497
臈	-11.9497
蟬蛻	-11.9497
捐軀	-11.9497
鄭康成	-11.9497
氈	-11.9498
錢惟演	-11.9498
拉	-11.9498
傴	-11.9499
堠	-11.9499
幰	-11.9499
陬	-11.9499
啾啾	-11.9499
贛	-11.95
紅蕖	-11.95
嘉祐二年進士	-11.95
皓齒	-11.95
採菊東籬下悠然見南山	-11.95
瓉	-11.95
圏	-11.9501
珩	-11.9501
瀟洒	-11.9501
墨莊漫錄	-11.9501
熙熙	-11.9502
蕩漾	-11.9502
懵	-11.9502
氛氲	-11.9502
汪洋	-11.9502
祕書省正字	-11.9502
銅雀臺	-11.9503
丙辰	-11.9503
煞	-11.9503
鑽	-11.9504
戸部侍郎	-11.9504
朝奉郎	-11.9504
涘	-11.9504
惰	-11.9504
衮衮	-11.9505
惕	-11.9505
層層	-11.9505
脈脈	-11.9505
恚	-11.9506
漢官儀	-11.9507
捋虎鬚	-11.9509
潘安仁	-11.9509
丹墀	-11.951
崐	-11.951
賢良方正	-11.951
昆弟	-11.951
潘佑	-11.9511
枚乘	-11.9512
哀江頭	-11.9512
庾亮	-11.9513
謌	-11.9514
户牖	-11.9514
楚襄王	-11.952
黍離	-11.9536
匡廬	-11.9678
語人曰	-11.969
草萋萋	-11.9706
苕溪漁隠曰余	-11.9831
騶虞	-11.988
琨	-11.9985
直龍圖閣	-11.9986
珝	-11.9998
儋	-12.0002
頁	-12.0004
犍	-12.0007
楨	-12.0007
特奏名	-12.0008
跖	-12.0008
瀦	-12.0009
樛	-12.0009
兜	-12.001
窰	-12.001
毆	-12.001
戞	-12.0011
迢	-12.0011
嵲	-12.0011
蝸牛	-12.0011
飮	-12.0011
凸	-12.0012
彴	-12.0013
蚪	-12.0013
胥靡	-12.0013
齷	-12.0014
箇箇	-12.0015
峩峩	-12.0015
河南少尹	-12.0016
佗	-12.0016
鏗鏘	-12.0016
崔駰	-12.0016
藩籬	-12.0017
抱朴子	-12.0017
日畧也	-12.0017
錦繡萬花谷	-12.0017
懊	-12.0017
楊用修	-12.0017
醖藉	-12.0017
銀青光禄大夫	-12.0017
毿	-12.0018
噬	-12.0018
値	-12.0018
傳燈録	-12.0018
𣺌𣺌	-12.0018
都官員外郎	-12.0018
罏	-12.0018
張建封	-12.0019
遒勁	-12.0019
高齋詩話	-12.0019
蒼蠅	-12.0019
絺	-12.0019
塤	-12.002
貓	-12.002
張正見	-12.002
睹	-12.002
嫂	-12.002
搦	-12.002
張蕭亭答	-12.002
肩輿	-12.0021
諲	-12.0021
浣溪沙	-12.0021
辣	-12.0021
鵾	-12.0022
景定建康志	-12.0022
廪	-12.0022
簞	-12.0022
漁隱叢話後集巻	-12.0022
述異記	-12.0022
索寞	-12.0022
去不還	-12.0022
巴渝	-12.0022
𡵨	-12.0023
薜	-12.0023
捫蘿	-12.0023
韓熈載	-12.0024
欽定四庫全書漁隱叢話後集巻	-12.0024
楊汝士	-12.0024
珙	-12.0024
頊	-12.0024
張厯友答	-12.0024
軺	-12.0025
梨園弟子	-12.0025
柞	-12.0025
朧	-12.0025
漣漪	-12.0026
米芾	-12.0026
倨	-12.0026
旛	-12.0026
奨	-12.0026
蕭頴士	-12.0026
鋋	-12.0026
璆	-12.0026
池塘生春草	-12.0027
澳	-12.0027
婪	-12.0028
牛僧孺	-12.0028
排闥	-12.0028
蠟屐	-12.0028
兖州府知府鄭方坤撰	-12.0028
嫰	-12.0029
荃	-12.0029
李衛公	-12.003
狠	-12.003
狡	-12.003
艘	-12.003
湘山野録	-12.0031
欽定四庫全書韻語陽秋巻	-12.0031
篸	-12.0031
含不盡之意	-12.0032
宸翰	-12.0032
闍	-12.0032
犹	-12.0033
穷	-12.0033
罥	-12.0033
搴	-12.0033
權德輿	-12.0033
舲	-12.0033
藂	-12.0033
尺牘	-12.0033
遅	-12.0034
埭	-12.0035
錢鏐	-12.0035
邅	-12.0035
陌上桑	-12.0036
艤	-12.0037
頷聨	-12.0037
媧	-12.0037
筋骨	-12.0037
鈇	-12.0038
㩦	-12.0038
斧鑿	-12.0039
沁	-12.0039
偪	-12.0041
珦	-12.0042
侂胄	-12.0044
舉進士不第	-12.0044
笙簧	-12.0057
鶯囀	-12.0064
唐詩紀事巻第七十	-12.0081
棠梨	-12.0193
宗朝累遷	-12.0436
藜杖	-12.0439
魃	-12.0553
列女傳	-12.056
寨	-12.0564
田子藝	-12.0565
𣙜	-12.0565
弑	-12.0567
搶	-12.0567
磷	-12.0567
董仲舒	-12.0568
顱	-12.0568
鮑溶	-12.0568
劉得仁	-12.0568
虞世南	-12.0568
醑	-12.0569
獠	-12.0569
釂	-12.057
集賢校理	-12.057
霾	-12.057
郇	-12.057
䆒	-12.0571
㸑	-12.0571
异	-12.0571
亀	-12.0571
羯	-12.0571
西湖志餘	-12.0571
茟	-12.0571
窆	-12.0571
郭茂倩	-12.0571
西崑酬唱集	-12.0572
湔	-12.0572
撻	-12.0572
春渚紀聞	-12.0572
緹	-12.0572
捩	-12.0572
端午帖子	-12.0573
姊妹	-12.0573
䙝	-12.0574
豢	-12.0574
夐	-12.0574
珊珊	-12.0574
惘	-12.0574
鞚	-12.0574
嵇阮	-12.0575
鬧	-12.0575
扎	-12.0576
阿堵	-12.0576
晏叔原	-12.0576
湧幢	-12.0576
闞	-12.0576
罝	-12.0576
鑷	-12.0576
㨿	-12.0576
繚繞	-12.0576
聱	-12.0577
呂氏童䝉訓	-12.0577
掞	-12.0577
􁌲	-12.0577
郾	-12.0577
謝惠連	-12.0577
跼	-12.0578
中吳紀聞	-12.0578
鴆	-12.0578
一池春水	-12.0578
藴藉	-12.0578
樞密副使	-12.0579
范攄	-12.0579
迯	-12.0579
嶙峋	-12.0579
三國志	-12.0579
橊	-12.0579
薩天錫	-12.0579
鑑戒録	-12.0579
澌	-12.058
号	-12.058
案此詩刋本	-12.058
菑	-12.058
驊	-12.0581
兀兀	-12.0581
憮	-12.0581
無聞焉	-12.0581
劉越石	-12.0581
𥚹	-12.0581
寗	-12.0582
抜	-12.0582
燮	-12.0582
俛仰	-12.0582
喟	-12.0582
寰宇記	-12.0583
唐子西語録云	-12.0583
薩	-12.0583
薏苡	-12.0583
名勝志	-12.0583
霍去病	-12.0584
提舉洞霄宫	-12.0584
弧	-12.0584
膜	-12.0584
歴代吟譜	-12.0585
另	-12.0585
其警句云	-12.0585
阼	-12.0586
狙	-12.0586
縶	-12.0586
秘書少監	-12.0586
挍	-12.0586
姸	-12.0586
觔	-12.0586
樟	-12.0586
癸亥	-12.0586
廛	-12.0586
歡娱	-12.0587
疫	-12.0587
僂	-12.0587
戊戌	-12.0587
猒	-12.0587
窖	-12.0587
王楊盧駱	-12.0587
栩	-12.0588
王原叔	-12.0588
荆楚嵗時記	-12.0588
㝠㝠	-12.0588
旌麾	-12.0589
誌其墓	-12.0589
鴛鷺	-12.0589
鼂	-12.0591
满	-12.0591
尚書右僕射	-12.0591
古今絶唱	-12.0591
怛	-12.0591
蓊	-12.0592
猩猩毛筆	-12.0592
塑	-12.0592
贓	-12.0593
林子中	-12.0593
盧延遜	-12.0594
罽	-12.0597
李清臣	-12.0598
敖陶孫	-12.0598
潾	-12.0598
袁州府志	-12.0601
㒷	-12.0605
鵜	-12.0607
畢田詩	-12.0613
嚏	-12.1067
遯齋閒覽	-12.111
翛	-12.1133
鐃	-12.1139
琖	-12.1142
灔澦	-12.1144
蔻	-12.1147
榘	-12.1148
嬾真子	-12.1149
槧	-12.1149
妳	-12.115
玉臺新詠	-12.115
釧	-12.115
莠	-12.1151
鞮	-12.1152
掺	-12.1153
鳷鵲	-12.1154
攽	-12.1154
烜	-12.1155
無斧鑿痕	-12.1157
畀	-12.1157
槊	-12.1157
騮	-12.1157
䕷	-12.1158
入元祐黨籍	-12.1158
芡	-12.1158
剩	-12.1158
忠懿王	-12.1159
淳安人	-12.1159
鶠	-12.1159
許彦周	-12.1159
矦	-12.116
章質夫	-12.116
颸	-12.1161
珊	-12.1161
右張為取作主客圖	-12.1161
疴	-12.1161
禕	-12.1161
騏驥	-12.1161
雅言系述	-12.1161
顫	-12.1161
雎	-12.1161
顓	-12.1161
司馬相如上林賦	-12.1162
嫋嫋	-12.1162
慝	-12.1162
興慶池	-12.1162
飣	-12.1162
唧唧	-12.1162
犧	-12.1163
驀	-12.1163
訔	-12.1163
黄陵廟	-12.1163
熨	-12.1163
雙聲疊韻	-12.1163
䳌	-12.1163
傀	-12.1163
以意為主	-12.1164
破陣樂	-12.1164
琹	-12.1164
翰苑羣書	-12.1164
闔閭	-12.1164
鮪	-12.1164
艦	-12.1165
磻	-12.1165
河滿子	-12.1165
噎	-12.1165
膏肓	-12.1165
朝議大夫	-12.1165
江南江北	-12.1165
訃	-12.1166
皮襲美	-12.1166
閈	-12.1166
㒵	-12.1166
鶡	-12.1166
偹	-12.1166
知鄆州	-12.1166
鱻	-12.1166
詼	-12.1167
螻蟻	-12.1167
揩	-12.1167
槪	-12.1167
豺虎	-12.1167
唐宋遺史	-12.1167
藺	-12.1167
姹	-12.1168
祕書少監	-12.1168
圻	-12.1168
薌	-12.1168
咄	-12.1168
絪	-12.1168
睠	-12.1169
瘳	-12.1169
拘攣	-12.1169
山房隨筆	-12.1169
優古堂詩話	-12.1169
杜祁公	-12.117
玦	-12.117
鷂	-12.117
刄	-12.117
猝	-12.117
黿鼉	-12.117
騑	-12.117
秤	-12.1171
氅	-12.1171
□□	-12.1171
榱	-12.1171
沆瀣	-12.1171
蠁	-12.1171
螟蛉	-12.1172
轔	-12.1172
屡	-12.1172
趋	-12.1172
礎	-12.1173
張又新	-12.1173
鏑	-12.1173
蝗	-12.1173
鰥	-12.1173
諂	-12.1173
惬	-12.1173
壖	-12.1173
摩訶	-12.1174
貿	-12.1174
儗	-12.1175
戦	-12.1175
佖	-12.1175
徐仲雅	-12.1175
蚓	-12.1176
嬖	-12.1176
麞	-12.1176
菩提	-12.1177
斎	-12.1177
僵	-12.1177
逶	-12.1177
孫光憲	-12.1177
鶬	-12.1178
資治通鑑	-12.1178
不一而足	-12.1178
沚	-12.1179
塾	-12.1179
皐	-12.118
遄	-12.1181
毫釐	-12.1181
壬戌	-12.1181
爨	-12.1182
翾	-12.1182
淬	-12.1183
萋	-12.1183
朱全忠	-12.1186
柵	-12.1186
醋	-12.1187
天目山	-12.1188
蕘	-12.1189
諼	-12.1195
醉翁亭記	-12.1203
凭䦨	-12.1413
月泉吟社	-12.1652
椰	-12.1752
簻	-12.1769
瘢	-12.177
裋褐	-12.177
鯨鯢	-12.177
無銘詩畧也	-12.177
湎	-12.1772
鴞	-12.1773
挐	-12.1773
丼	-12.1774
袤	-12.1774
嶓	-12.1775
㐫	-12.1776
蒔	-12.1776
㶑	-12.1776
凰	-12.1777
宓妃	-12.1778
彝	-12.1778
衎	-12.1778
琛	-12.1779
饅	-12.178
勔	-12.178
嵎	-12.178
鏜	-12.178
䜿	-12.178
赧	-12.1781
瓏	-12.1781
廣東通志	-12.1782
鳥鳴山更幽	-12.1782
豺狼	-12.1783
眥	-12.1783
蠹	-12.1783
阡陌	-12.1783
鬼谷子	-12.1783
麁	-12.1784
斈	-12.1784
疉	-12.1784
稟	-12.1784
至元嘉禾志	-12.1785
澠	-12.1785
甓	-12.1785
紹興十五年進士	-12.1785
躞	-12.1785
晷	-12.1786
錢希白	-12.1786
霈	-12.1786
􁇟	-12.1786
艫	-12.1786
北夣瑣言	-12.1787
崒	-12.1787
毀	-12.1787
簏	-12.1787
怏怏	-12.1787
㯽榔	-12.1787
鎗	-12.1787
代吟譜	-12.1787
節度推官	-12.1788
癸酉	-12.1788
繂	-12.1788
屩	-12.1788
㕍	-12.1788
斿	-12.1789
寀	-12.1789
僥	-12.1789
扈蹕	-12.1789
璡	-12.1789
霤	-12.1789
􁱘	-12.179
蜑	-12.179
清平樂	-12.179
庿	-12.179
謇	-12.179
耄	-12.179
佻	-12.179
餻	-12.1791
挟	-12.1791
新安文獻志	-12.1791
媟	-12.1791
蓉	-12.1791
寶文閣	-12.1791
莪	-12.1792
鍔	-12.1792
繰	-12.1792
全閩詩話	-12.1792
鎰	-12.1792
倏	-12.1793
苻	-12.1793
甿	-12.1793
漁隠叢話後集巻	-12.1793
諠	-12.1793
翰林侍讀學士	-12.1793
崐崘	-12.1793
紕	-12.1793
蚊蚋	-12.1794
東軒筆錄	-12.1794
郭璞江賦	-12.1794
瀕	-12.1794
蔔	-12.1794
斕	-12.1794
雒	-12.1794
薝蔔	-12.1794
蝀	-12.1794
李伯紀	-12.1794
廱	-12.1794
稼穡	-12.1795
上官昭容	-12.1795
玻瓈	-12.1795
劉孝綽	-12.1795
辤	-12.1795
籩	-12.1795
粮	-12.1796
肸	-12.1796
卭	-12.1796
你	-12.1796
褦襶	-12.1796
搭	-12.1796
詒	-12.1797
劑	-12.1797
累舉不第	-12.1797
蹴踘	-12.1797
菉	-12.1797
葷	-12.1798
烏衣巷	-12.1798
范傳正	-12.1798
薦福寺	-12.1798
邢敦夫	-12.1798
枳	-12.1799
鄭嵎津陽門	-12.1799
炉	-12.1799
轎	-12.18
亦佳句也	-12.18
㪯	-12.18
萁	-12.1801
纖纖	-12.1801
陸農師	-12.1801
鐶	-12.1801
罾	-12.1801
犖	-12.1801
怙	-12.1802
禹鍚	-12.1802
商璠云	-12.1802
瘖	-12.1802
帘	-12.1802
娜	-12.1803
迤	-12.1803
因樹屋	-12.1803
褘	-12.1803
悒	-12.1804
州司戸	-12.1804
鹽豉	-12.1804
舁	-12.1805
㒒	-12.1805
駱賓王	-12.1806
洧	-12.1807
薿	-12.1808
彜	-12.1808
惠山泉	-12.1809
彗	-12.1812
三鄉詩云	-12.1816
蹲鴟	-12.1817
襜	-12.1824
學林新編	-12.24
左思吳都賦	-12.2411
蹻	-12.242
墓銘舉例	-12.2424
對床夜語	-12.2436
楛	-12.2437
荆溪林下偶談	-12.2439
禳	-12.2439
晦日林亭云	-12.2441
巇	-12.2441
瀲	-12.2442
圛	-12.2444
繽紛	-12.2445
鬯	-12.2445
璚	-12.2445
文康公	-12.2446
蜚	-12.2446
吒	-12.2446
淆	-12.2447
集賢殿修撰	-12.2447
耨	-12.2447
妲	-12.2447
汍	-12.2447
邴	-12.2447
痺	-12.2448
吝	-12.2448
而工者如	-12.2448
蓍	-12.2448
崎嶇	-12.2448
嚲	-12.2449
枿	-12.2449
暖鳥聲碎日髙花影重	-12.2449
耆舊續聞	-12.2449
玢	-12.2449
大理寺丞	-12.2449
醽	-12.2449
跌宕	-12.2449
鋩	-12.245
檇	-12.245
阨	-12.245
㷑	-12.245
趙徳麟	-12.245
醁	-12.2451
嬙	-12.2451
玉笥山	-12.2451
鵊	-12.2451
玳	-12.2451
匙	-12.2451
縢	-12.2451
崔豹古今注	-12.2452
勍敵	-12.2452
櫽括	-12.2452
噫嘻	-12.2452
丏	-12.2452
清平調	-12.2452
唫	-12.2452
蟇	-12.2452
氓	-12.2453
蓐	-12.2453
幛	-12.2453
獰	-12.2453
承務郎	-12.2453
棫	-12.2454
鄭文寳	-12.2454
淦	-12.2454
吴郡志	-12.2454
郃	-12.2454
陳輔之詩話	-12.2454
删	-12.2454
螫	-12.2454
􁑱	-12.2454
戴石屏	-12.2454
詩話類編曰	-12.2455
雞肋編	-12.2455
熒熒	-12.2455
苹	-12.2456
張茂先	-12.2456
暐	-12.2456
邛	-12.2456
繢	-12.2456
璵	-12.2456
檥	-12.2456
徨	-12.2456
洶湧	-12.2456
盧藏用	-12.2457
鼐	-12.2457
縚	-12.2457
簴	-12.2457
豗	-12.2457
踢	-12.2457
氍	-12.2457
剃	-12.2457
攔	-12.2457
李陽冰	-12.2457
某月日	-12.2458
佶	-12.2458
箎	-12.2458
撩	-12.2458
鼾	-12.2458
杠	-12.2458
羊士諤	-12.2458
鄼	-12.2458
婉孌	-12.2458
締	-12.2458
送金城公主云	-12.2459
驍	-12.2459
嚥	-12.2459
鷟	-12.2459
孜孜	-12.2459
譖	-12.2459
皆佳作也	-12.2459
上柱國	-12.2459
騤	-12.2459
伾	-12.2459
瀍	-12.246
昕	-12.246
揣	-12.246
尓	-12.246
葉少藴	-12.246
矛盾	-12.246
篘	-12.246
氤氲	-12.246
垜	-12.246
郡齋讀書志	-12.246
哥舒翰	-12.246
㸃鬼簿	-12.246
堙	-12.2461
萟	-12.2461
淳熙三山志	-12.2461
輕燕受風斜	-12.2461
鞾	-12.2461
獨破受凍死	-12.2462
歉	-12.2462
欽定四庫全書詩人玉屑巻	-12.2462
同知樞密院事	-12.2462
葳	-12.2462
撗	-12.2462
集古録	-12.2462
堊	-12.2463
顙	-12.2463
鱖	-12.2463
彀	-12.2464
驌	-12.2464
唐子西語錄云	-12.2464
文章縁起	-12.2464
穽	-12.2464
張衡西京賦	-12.2464
廳	-12.2465
刚	-12.2465
熺	-12.2465
復齋謾錄	-12.2465
襌	-12.2466
喑	-12.2466
鶺	-12.2466
綫	-12.2466
韁	-12.2466
㗖	-12.2467
儁	-12.2467
吿	-12.2467
皃	-12.2467
詘	-12.2468
奪胎換骨	-12.2468
喏	-12.2469
滕元發	-12.2469
耆英㑹	-12.247
捫蝨	-12.247
楊嗣復	-12.247
儺	-12.2472
筇	-12.2473
東臯雜錄	-12.2474
漁隱樷話	-12.2474
刘	-12.2474
糴	-12.2474
捶	-12.2476
癩	-12.2478
蠱	-12.2482
濊	-12.2483
部外郎	-12.2496
欄杆	-12.2549
萋萋	-12.285
螻	-12.3087
撇	-12.314
恙	-12.3141
鍤	-12.3144
碭	-12.315
踔	-12.3152
邽	-12.3152
齊民要術	-12.3154
偎	-12.3155
溧	-12.3155
糅	-12.3155
文心雕龍輯注	-12.3156
垤	-12.3156
嵬	-12.3156
帀	-12.3157
褪	-12.3158
崦	-12.3158
巏	-12.3158
恧	-12.3159
櫳	-12.3159
嵊	-12.3159
爬	-12.3159
俙	-12.316
宋劉克莊編	-12.316
咤	-12.3161
摴蒱	-12.3161
騏	-12.3161
蠣	-12.3162
瓿	-12.3162
㓙	-12.3162
盧照隣	-12.3163
劉辰翁	-12.3163
娠	-12.3163
据	-12.3163
鱉	-12.3163
韐	-12.3163
纇	-12.3163
砍	-12.3164
蒜	-12.3164
湼槃	-12.3165
衽	-12.3165
顦顇	-12.3165
庙	-12.3165
箧	-12.3165
瞋	-12.3166
女冠子	-12.3166
趙清獻	-12.3166
彷徨	-12.3166
荏	-12.3166
飲馬長城窟	-12.3167
拜右丞相	-12.3167
噤	-12.3167
餮	-12.3167
溆	-12.3167
王貞白	-12.3168
蝇	-12.3168
崔徳符	-12.3168
朱慶餘	-12.3168
祕閣修撰	-12.3168
錢穆父	-12.3168
聶夷中	-12.3168
姚令威	-12.3169
痾	-12.3169
盧多遜	-12.3169
踴	-12.3169
蝟	-12.3169
窒	-12.3169
馮瀛王	-12.3169
哽	-12.3169
馺	-12.3169
曨	-12.3169
亹亹	-12.3169
倜儻	-12.3169
伉儷	-12.317
玻璃	-12.317
鍚	-12.317
陕	-12.317
州團練副使	-12.317
嘹	-12.317
硤	-12.317
賈浪仙	-12.3171
酎	-12.3171
鯿	-12.3171
蓉塘詩話	-12.3171
鄭善夫	-12.3171
劉昭禹	-12.3171
獨醒雜志	-12.3171
袪	-12.3172
黄伯思	-12.3172
籐	-12.3172
櫝	-12.3172
祛	-12.3172
疎影横斜水清淺暗香浮動月黄昏	-12.3172
連昌宫詞	-12.3173
阬	-12.3173
未詳孰是	-12.3173
鷴	-12.3173
礀	-12.3173
鉄	-12.3174
䑛	-12.3174
竚	-12.3174
单	-12.3174
廏	-12.3174
捜	-12.3174
攏	-12.3175
蹭蹬	-12.3175
闖	-12.3175
尙	-12.3175
瑪	-12.3175
黽	-12.3175
渭南尉	-12.3175
捻	-12.3175
搬	-12.3176
遯齋閑覽	-12.3176
青苗助役	-12.3176
太子中允	-12.3176
懟	-12.3176
螘	-12.3177
票	-12.3177
佾	-12.3177
姒	-12.3177
贋	-12.3177
晻	-12.3177
細數落花因坐久緩尋芳草得歸遲	-12.3178
詩說雋永云	-12.3178
蒍	-12.3178
飲中八仙歌	-12.3179
腎	-12.3179
攙	-12.3179
讙	-12.3179
李慶孫	-12.3179
誠哉是言	-12.318
傘	-12.318
霎	-12.318
宓	-12.318
髽	-12.3181
劉克莊	-12.3181
迃	-12.3184
詶	-12.3184
幾兩屐	-12.3184
溱	-12.3184
渟	-12.3184
祟	-12.3185
龍圗閣	-12.3185
鄭文寶	-12.3186
桃花亂落如紅雨	-12.3188
邳	-12.3189
黻	-12.319
虡	-12.3195
屭	-12.32
􁁃	-12.3201
潘子真詩話	-12.3878
吕氏童䝉訓	-12.3896
蔞	-12.391
茁	-12.3915
駕幸太學	-12.3918
公神道碑右碑	-12.3921
悝	-12.3923
蠆	-12.3924
恐未必然	-12.3924
梅礀詩話	-12.3924
三輔黄圖	-12.3926
槨	-12.3926
术	-12.3927
轓	-12.3927
髙廷禮	-12.3928
汧	-12.3928
竢	-12.3929
濾	-12.3929
斚	-12.3929
螟	-12.393
腿	-12.393
湋	-12.393
鷃	-12.393
泡	-12.393
匄	-12.393
燻	-12.393
蠭	-12.393
寧國府志	-12.3931
熙寕六年進士	-12.3931
珊瑚鉤詩話	-12.3931
蘤	-12.3932
陳郁話腴	-12.3932
憀	-12.3932
奧	-12.3932
字學集要云	-12.3932
􁈡	-12.3932
釃	-12.3932
蜡	-12.3932
斁	-12.3933
此日足可惜	-12.3933
瓴	-12.3933
菅	-12.3933
湘山野錄	-12.3933
諄	-12.3933
僧敲月下門	-12.3933
嶄	-12.3934
閥	-12.3934
嶔	-12.3934
賃	-12.3934
㫄	-12.3934
菓	-12.3934
過庭録	-12.3934
驎	-12.3935
臊	-12.3935
倕	-12.3935
舠	-12.3935
鏐	-12.3935
渥洼	-12.3935
費冠卿	-12.3935
繄	-12.3936
題不書官	-12.3936
馘	-12.3936
瀏	-12.3936
李肇國史補	-12.3937
劬	-12.3937
觱	-12.3937
敷文閣待制	-12.3937
营	-12.3937
鼃	-12.3937
㯶	-12.3937
􁰽	-12.3937
援筆立成	-12.3938
薙	-12.3938
汪彥章	-12.3938
茭	-12.3938
玖	-12.3938
凇	-12.3938
婆羅門	-12.3938
今附于左附	-12.3938
觀文殿大學士	-12.3939
朏	-12.3939
榧	-12.3939
欽定四庫全書後村詩話巻	-12.3939
詩人玉屑巻十	-12.3939
搘	-12.394
王龜齡	-12.394
萬姓統譜	-12.394
䗶	-12.394
瀚	-12.394
韙	-12.394
繅	-12.394
樺	-12.394
章孝標	-12.394
撝	-12.3941
玫	-12.3941
党	-12.3941
裩	-12.3942
八陣圖	-12.3942
寞	-12.3942
幞	-12.3942
秔	-12.3942
栟櫚	-12.3942
老學庵筆記	-12.3943
黥	-12.3943
娛書堂詩話	-12.3943
方回桐江	-12.3943
摺	-12.3944
醲	-12.3944
容齋四筆	-12.3944
馬令南唐書	-12.3944
逥	-12.3944
舖	-12.3944
坎壈	-12.3944
蘇叔黨	-12.3945
嫠	-12.3945
柢	-12.3945
餗	-12.3945
䘖	-12.3946
恁	-12.3946
鎪	-12.3946
𥜗	-12.3946
嶲	-12.3946
嘱	-12.3946
嫚	-12.3947
三百五篇	-12.3947
裨	-12.3947
最為警絶	-12.3947
粽	-12.3948
詩文評類	-12.3948
櫸	-12.3948
捋	-12.3948
灩	-12.3948
籤	-12.3948
昴	-12.3948
势	-12.3949
鍾離權	-12.3949
敧	-12.3949
墨客揮犀	-12.3949
臟	-12.395
月二十五日	-12.395
墫	-12.395
駔	-12.395
痊	-12.395
廙	-12.395
筦	-12.395
麯	-12.3951
宋髙僧詩	-12.3951
忒	-12.3951
疚	-12.3951
阿濫堆	-12.3951
二老堂詩話	-12.3951
藎	-12.3951
蜉蝣	-12.3952
齟齬	-12.3952
眘	-12.3952
偘	-12.3952
徽猷閣待制	-12.3953
鸚	-12.3953
等謹按	-12.3953
㛰	-12.3953
醍	-12.3953
咀	-12.3953
珵	-12.3953
法藏碎金云	-12.3953
瑄	-12.3953
蹁	-12.3954
縋	-12.3954
猊	-12.3955
賺	-12.3955
鍋	-12.3955
璀	-12.3956
太子少傅	-12.3956
郜	-12.3957
諢	-12.3958
报	-12.3959
觀文殿學士	-12.3959
簒	-12.396
正考甫	-12.396
䜴	-12.3963
謻	-12.3964
傖	-12.3966
胛	-12.397
鮒	-12.3977
嬃	-12.4714
太宗八世孫	-12.4741
栝	-12.4745
瓻	-12.4749
鬐	-12.475
祧	-12.4753
蟪	-12.4753
舒元輿	-12.4753
娯書堂詩話	-12.4754
顔氏家訓	-12.4754
匜	-12.4755
萇	-12.4756
鸝	-12.4756
禰	-12.4757
儆	-12.4757
夥	-12.4757
醬	-12.4757
閘	-12.4757
辝	-12.4758
遹	-12.4759
雖紀實又一例也	-12.4759
鶗	-12.476
鵂	-12.476
啾	-12.476
亾	-12.476
蠖	-12.4761
揜	-12.4761
溯	-12.4761
𬞞	-12.4762
空梁落燕泥	-12.4762
堡	-12.4762
樅	-12.4763
菘	-12.4763
野客叢書曰	-12.4764
翌	-12.4764
郯	-12.4764
舀	-12.4765
窪	-12.4765
氣蒸雲夢澤波撼岳陽城	-12.4765
芙	-12.4765
擡	-12.4765
鸒	-12.4765
縵	-12.4766
齏	-12.4766
鉶	-12.4766
㙜	-12.4766
吕氏童蒙訓	-12.4767
祲	-12.4767
忮	-12.4768
磋	-12.4768
反其意而用之	-12.4768
扛	-12.4768
㨂	-12.4768
耋	-12.4769
壌	-12.4769
騃	-12.477
滚滚	-12.477
夹	-12.477
鞶	-12.477
椁	-12.4771
唶	-12.4771
雲麓漫抄	-12.4771
洟	-12.4771
崚	-12.4771
耑	-12.4771
氍毹	-12.4771
摵摵	-12.4771
憒	-12.4772
篾	-12.4772
洪景盧	-12.4772
宋子京筆記云	-12.4773
儈	-12.4773
陳晦伯	-12.4773
塘春水慢花塢夕陽遲	-12.4773
枽	-12.4774
事文類聚前集	-12.4774
蒭	-12.4774
孳	-12.4774
翰墨大全	-12.4774
唐音癸籤巻十	-12.4774
鄔	-12.4775
炤	-12.4775
嚙	-12.4775
戶	-12.4775
俻	-12.4775
懾	-12.4775
髄	-12.4775
掄	-12.4775
醻	-12.4776
南唐近事	-12.4776
欽定四庫全書漁隱叢話後集卷	-12.4776
玲	-12.4776
昩	-12.4776
焱	-12.4777
喓	-12.4777
羆	-12.4777
宛陵集	-12.4777
狷	-12.4777
紹興二十一年進士	-12.4777
孔平仲談苑	-12.4777
梁溪漫志	-12.4778
金碾畔緑塵飛碧玉甌中翠濤起	-12.4778
易繫辭	-12.4778
焦仲卿妻	-12.4778
済	-12.4779
同知樞宻院事	-12.4779
羅湖野錄	-12.4779
捎	-12.4779
咒	-12.4779
鎡	-12.4779
戕	-12.478
炅	-12.478
綣	-12.478
繙	-12.478
砭	-12.478
懣	-12.478
騅	-12.478
禁林讌㑹之什	-12.4781
㕓	-12.4781
抖	-12.4781
憧	-12.4781
一唱三歎	-12.4781
華陽真逸	-12.4781
㴠	-12.4781
楽	-12.4781
匐	-12.4782
薖	-12.4782
式古堂書考	-12.4782
莬	-12.4782
溽	-12.4782
楣	-12.4782
疥	-12.4783
鄠	-12.4783
司封郎中	-12.4783
􁗁	-12.4783
点	-12.4783
殪	-12.4783
瘥	-12.4784
幀	-12.4784
齅	-12.4784
漙	-12.4784
𬗟	-12.4785
擠	-12.4785
苽	-12.4785
褎	-12.4785
開府儀同三司	-12.4785
糺	-12.4786
昃	-12.4787
館娃宫	-12.4787
膻	-12.4787
瓔珞	-12.4787
惚	-12.4789
疽	-12.4789
􁇪	-12.4789
唼	-12.4789
藐	-12.479
喁	-12.479
奭	-12.479
㴩	-12.4791
糶	-12.4791
璐	-12.4791
跟	-12.4791
颷	-12.4792
孃	-12.4792
唤	-12.4793
茒	-12.4794
觸類而長	-12.4796
鏖	-12.4797
鍪	-12.4797
螳	-12.4798
嗇	-12.481
宷	-12.4813
珧	-12.484
龍圖閣待制	-12.486
炰	-12.563
墓表右表	-12.5656
圈	-12.5658
嵍	-12.5658
玉照新志	-12.5659
噀	-12.5661
綳	-12.5661
枻	-12.5662
熬	-12.5663
晰	-12.5663
滙	-12.5664
澒	-12.5665
緼	-12.5666
邵氏聞見	-12.5667
蔲	-12.5668
斝	-12.5669
夬	-12.567
朝野僉載	-12.567
泂	-12.567
琤	-12.5671
㫪	-12.5672
春入燒痕	-12.5672
後果如其言	-12.5672
廈	-12.5672
醞	-12.5672
容齋五筆	-12.5673
胡笳十八拍	-12.5673
曲洧舊聞	-12.5673
貞曜先	-12.5673
刲	-12.5673
仿	-12.5674
襴	-12.5674
闌更秉燭相對如夢寐	-12.5674
䔩	-12.5675
戩	-12.5675
媸	-12.5675
宋莒公	-12.5675
風定花猶落	-12.5676
蒺	-12.5676
鍠	-12.5676
枌	-12.5676
瞿宗吉	-12.5676
歜	-12.5676
漑	-12.5676
胙	-12.5677
右張爲取作主客圖	-12.5677
𣏌	-12.5677
呶	-12.5677
禿	-12.5677
鵯	-12.5677
宋黄徹撰	-12.5677
酡	-12.5678
沬	-12.5678
滎	-12.5678
蓺	-12.5679
猖	-12.5679
抺	-12.5679
鰻	-12.5679
鐵網珊瑚	-12.5679
秦韜玉	-12.568
捃	-12.568
犇	-12.568
景祐元年進士	-12.5681
留青日札云	-12.5681
孀	-12.5681
迕	-12.5681
􁶁	-12.5681
呉禮部詩話	-12.5681
潸	-12.5681
剜	-12.5681
戟	-12.5681
元潘昻霄撰	-12.5681
庾肩吾	-12.5682
桑維翰	-12.5682
讀書破萬巻下筆如有神	-12.5682
附於左附	-12.5683
司馬光洛中耆英	-12.5683
痁	-12.5683
戣	-12.5683
涖	-12.5683
嘴	-12.5683
譍	-12.5684
蓓	-12.5684
歊	-12.5684
麛	-12.5684
巓	-12.5685
厖	-12.5686
巋	-12.5686
蔌	-12.5686
馿	-12.5686
湃	-12.5686
輜	-12.5686
䣜	-12.5686
晒	-12.5686
幵	-12.5686
畚	-12.5686
􁁜	-12.5687
隤	-12.5687
礱	-12.5687
絙	-12.5687
瓦棺寺	-12.5687
哇	-12.5687
澡	-12.5687
祉	-12.5688
鸑	-12.5688
蝤	-12.5688
籕	-12.5688
鈎輈格磔	-12.5688
旎	-12.5688
詩説雋永	-12.5688
菀	-12.5689
旖	-12.5689
皿	-12.5689
醵	-12.5689
道林嶽麓	-12.5689
欽定四庫全書全閩詩話巻	-12.5689
㪷	-12.5689
箒	-12.5689
絀	-12.5689
勳	-12.5689
赬	-12.569
敇	-12.569
藝苑巵言	-12.569
避暑録話	-12.569
郅	-12.569
元城先生語録云	-12.569
咸淳毘陵志	-12.569
狨	-12.569
総	-12.569
枋	-12.569
頫	-12.569
澎	-12.5691
蹰	-12.5692
纁	-12.5692
郟	-12.5692
憶長安十二詠云憶長安	-12.5692
砲	-12.5692
澄心堂紙	-12.5692
春洲生荻芽春岸飛楊花	-12.5693
臛	-12.5693
鈕	-12.5693
麴塵絲	-12.5693
彂	-12.5694
嘿	-12.5694
篲	-12.5694
墊	-12.5694
鰕	-12.5694
汞	-12.5694
後漢文苑傳	-12.5694
枍	-12.5694
范徳機	-12.5695
乾隆四十二年	-12.5695
青青河畔草	-12.5695
繾	-12.5696
搊	-12.5696
宗皇帝帝諱	-12.5696
援筆立就	-12.5696
鎚	-12.5696
喔	-12.5696
莫打鴨	-12.5697
䂖	-12.5697
嘒	-12.5697
髙仲武云	-12.5697
嫪	-12.5698
檟	-12.5698
秇	-12.5698
袞	-12.5699
粢	-12.5699
帑	-12.57
冇	-12.57
羝	-12.57
磎	-12.57
懈	-12.57
穂	-12.57
昺	-12.5702
檉	-12.5702
涿	-12.5703
恋	-12.5704
豉	-12.5707
賫	-12.5707
䣛	-12.5707
郍	-12.5708
豺	-12.5711
擫	-12.5716
兖	-12.5837
骰	-12.6648
嫜	-12.6649
鷕	-12.665
鮆	-12.6651
籯	-12.6651
酃	-12.6652
歃	-12.6654
硎	-12.6655
匾	-12.6659
筩	-12.6661
䧺	-12.6662
雊	-12.6662
鋼	-12.6663
􁧐	-12.6663
阪	-12.6663
送鈐轄館使王公	-12.6663
闓	-12.6664
塌	-12.6665
螽	-12.6665
彷	-12.6666
睎	-12.6666
饜	-12.6666
姐	-12.6666
藳	-12.6666
踊	-12.6666
祙	-12.6667
瞭	-12.6667
鑛	-12.6667
絏	-12.6668
磈	-12.6668
璁	-12.6668
蜥	-12.6668
鯀	-12.6669
聃	-12.6669
﨑	-12.6669
刊	-12.667
粔	-12.667
坳	-12.667
杜荀鸖	-12.667
蘇舜欽	-12.667
谺	-12.6671
繖	-12.6671
㳫	-12.6671
邯	-12.6671
倔	-12.6671
坻	-12.6671
煬	-12.6672
螀	-12.6672
長孫佐輔	-12.6672
􁮺	-12.6672
恂	-12.6672
縲	-12.6672
詹事府詹事加吏部侍郎銜黄叔琳撰	-12.6673
讞	-12.6673
校文心雕龍卷之	-12.6673
刓	-12.6673
犒	-12.6673
螿	-12.6673
朞	-12.6674
洫	-12.6674
淛	-12.6674
扞	-12.6674
譟	-12.6675
寶元元年進士	-12.6675
糠	-12.6675
寳文閣待制	-12.6675
梁通事舍人東莞劉勰撰	-12.6675
欽定四庫全書金石例巻	-12.6675
祅	-12.6676
瞠	-12.6676
欬	-12.6676
搓	-12.6676
中吴紀聞	-12.6677
恡	-12.6677
水荇牽風翠帶長	-12.6677
紈袴不餓死儒冠多誤身	-12.6677
敭	-12.6677
欽定四庫全書歴代詩話巻十	-12.6677
秭	-12.6678
四更山吐月殘夜水明樓	-12.6678
冏	-12.6678
瑚	-12.6678
啗	-12.6678
搃	-12.6678
揶	-12.6678
燬	-12.6678
惴	-12.6678
熠	-12.6679
蘢	-12.6679
罸	-12.6679
礧	-12.6679
洺	-12.6679
雱	-12.6679
􁩑	-12.6679
㓛	-12.6679
蠔	-12.6679
瘟	-12.668
秦築長城	-12.668
蹌	-12.668
逌	-12.668
猩	-12.668
錠	-12.668
蚨	-12.668
莞	-12.668
汐	-12.6681
萦	-12.6681
䄡	-12.6681
凴	-12.6681
耼	-12.6681
言有盡而意無窮	-12.6682
欽定四庫全書䂬溪詩話巻	-12.6682
水田飛白鷺夏木囀黄鸝	-12.6682
蘩	-12.6682
敻	-12.6682
㕑	-12.6682
轝	-12.6682
跬	-12.6683
惣	-12.6683
踈影横斜水清淺暗香浮動月黄昏	-12.6683
攣	-12.6683
方輿勝覧	-12.6683
珓	-12.6683
戇	-12.6683
櫬	-12.6683
膞	-12.6683
喋	-12.6683
金紫光禄大夫	-12.6683
餔	-12.6683
槐花黄舉子忙	-12.6684
洳	-12.6684
鶵	-12.6684
梅林分韻得	-12.6684
㘭	-12.6684
趯	-12.6684
洸	-12.6684
長如白練飛一條界破青山色	-12.6684
涅	-12.6684
鐡網珊瑚	-12.6684
埏	-12.6684
䂊	-12.6684
語不驚人死不休	-12.6684
藝苑雌黃云	-12.6684
䂬	-12.6685
菡	-12.6685
硃	-12.6685
知風雨夜復此對床眠	-12.6685
欽定四庫全書五代詩話巻	-12.6685
發狂慟哭	-12.6685
佔	-12.6685
椹	-12.6685
檀閣醉倚王家玳瑁筵	-12.6686
句向夜深得心從天外歸	-12.6686
櫨	-12.6686
欽定四庫全書詩林廣記後集巻	-12.6686
秬	-12.6686
盾	-12.6686
麏	-12.6687
儇	-12.6687
涂	-12.6687
篚	-12.6687
澷	-12.6687
㢠	-12.6687
西溪樷語	-12.6687
攖	-12.6688
湯燖右軍	-12.6688
􁐻	-12.6688
欽定四庫全書歴代詩話巻六十	-12.6688
何郎試湯餅日烘荀令炷爐香	-12.6688
嫓	-12.6688
袠	-12.6688
毡	-12.6688
欽定四庫全書歴代詩話巻二十	-12.6688
薳	-12.6688
枸	-12.6688
帟	-12.6689
慧聚寺	-12.6689
墄	-12.6689
礦	-12.6689
簑	-12.6689
粳	-12.6689
㧾	-12.6689
僶	-12.669
欽定四庫全書唐音癸籖巻二十	-12.669
綍	-12.669
吮	-12.669
更無一箇是男兒	-12.669
靃	-12.669
蜍	-12.669
欽定四庫全書歴代詩話巻三十	-12.6691
魍	-12.6691
憨	-12.6691
未嘗一日不在	-12.6691
欽定四庫全書竹莊詩話巻十	-12.6691
厨船進食簇時新	-12.6691
爚	-12.6691
苾	-12.6691
碏	-12.6691
采菊東籬下悠然見南山	-12.6691
若教解語應傾國任是無情也動人	-12.6692
难	-12.6692
繊	-12.6692
窳	-12.6693
髥	-12.6693
崱	-12.6693
大觀三年進士	-12.6693
坏	-12.6693
趙冬曦	-12.6693
荂	-12.6693
热	-12.6694
梨花一枝春帶雨	-12.6695
隨隱漫録	-12.6695
欽定四庫全書詩林廣記巻	-12.6695
騕	-12.6695
宙	-12.6696
紅綾餅餤	-12.6696
四朝聞見錄	-12.6696
輿地紀勝	-12.6697
鉦	-12.6697
志雅堂雜鈔	-12.6697
輶	-12.6697
麦	-12.6697
牗	-12.6698
餤	-12.6699
錘	-12.6699
戅	-12.6699
猋	-12.6701
氐	-12.6701
擦	-12.6703
楝	-12.6703
憊	-12.6704
媼	-12.6704
紏	-12.6707
芔	-12.6708
屓	-12.6708
膴	-12.6709
煽	-12.6709
䙀	-12.6709
白翎雀	-12.671
盂蘭盆	-12.6713
哮	-12.6715
閶	-12.7694
縆	-12.7743
淟	-12.7748
涊	-12.775
急野渡無人舟自横	-12.7755
遟	-12.7756
谸	-12.7756
榾	-12.7757
穜	-12.7758
義烏人月泉吟社第	-12.7761
蟁	-12.7762
盬	-12.7765
發乎情止乎禮義	-12.7767
張衡思𤣥賦	-12.777
谹	-12.7771
鐐	-12.7771
泬	-12.7772
學者不察失於	-12.7774
䳵	-12.7775
博極羣書	-12.7775
眙	-12.7776
煆	-12.7776
蜴	-12.7778
簋	-12.7778
惎	-12.7779
淳熙十一年進士	-12.7779
􁒽	-12.778
㦲	-12.778
苕溪漁隐叢話	-12.7781
琵	-12.7781
三朝北盟㑹編	-12.7781
自縁今日人心别未必秋香一夜衰	-12.7782
右文殿修撰	-12.7782
淖	-12.7783
賨	-12.7783
黮	-12.7783
荆楚歲時記	-12.7783
𫾣	-12.7783
喆	-12.7783
春日田園雜興	-12.7784
濞	-12.7784
鎩	-12.7784
綌	-12.7785
熲	-12.7785
鏟	-12.7785
趕	-12.7785
谽	-12.7786
嘉定元年進士	-12.7786
隂垂野草青青時有幽花一樹明	-12.7786
耜	-12.7786
貰	-12.7786
濘	-12.7786
諴	-12.7786
瑁	-12.7787
紊	-12.7787
嶪	-12.7787
冣	-12.7787
人天聖八年進士	-12.7787
蹷	-12.7787
左思魏都賦	-12.7787
欽定四庫全書文心雕龍輯注巻	-12.7787
穡	-12.7788
甖	-12.7788
北闕休上書南山歸	-12.7788
痒	-12.7788
彳	-12.7788
俜	-12.7789
嶒	-12.7789
汛	-12.7789
玘	-12.7789
櫚	-12.7789
晢	-12.7789
渰	-12.779
揎	-12.779
州防禦使	-12.779
挨	-12.779
海錄碎事	-12.779
籋	-12.779
武王伐紂	-12.779
醆	-12.779
黁	-12.779
桺	-12.779
宴安樂公主新宅云	-12.7791
囓	-12.7791
掊	-12.7791
家家養烏鬼頓頓食黄魚	-12.7791
人嘉定七年進士	-12.7791
鞲	-12.7791
殱	-12.7791
萬國衣冠拜冕旒	-12.7792
獅	-12.7792
崪	-12.7792
缷	-12.7792
膂	-12.7792
魘	-12.7792
趙孟頫	-12.7792
囦	-12.7792
胤	-12.7792
誹	-12.7792
跧	-12.7792
驑	-12.7792
力通青海求龍種死諱文成食	-12.7792
袷	-12.7793
旤	-12.7793
冄	-12.7793
墾	-12.7793
毯	-12.7793
嚇	-12.7793
鞬	-12.7793
嗺	-12.7793
宁	-12.7793
孤忠自許衆不與	-12.7793
葅	-12.7794
蘺	-12.7794
明胡震亨撰詁箋	-12.7794
劚	-12.7794
賙	-12.7794
帊	-12.7794
嶢	-12.7794
渦	-12.7794
詞林海錯云	-12.7794
睽	-12.7794
邰	-12.7794
惧	-12.7795
昪	-12.7795
登慈恩寺塔	-12.7795
張衡東京賦	-12.7795
沭	-12.7795
􁜣	-12.7795
𬗋	-12.7796
元祐六年進士	-12.7796
甆	-12.7796
兌	-12.7797
太平興國八年進士	-12.7797
鬉	-12.7797
蛑	-12.7797
漭	-12.7797
為他人作嫁衣裳	-12.7797
泥滑滑	-12.7798
灊	-12.7798
骼	-12.7798
穱	-12.7798
侠	-12.7798
岵	-12.7798
蓆	-12.7798
揑	-12.7798
蒞	-12.7798
鄷	-12.7799
轘	-12.7799
尅	-12.7799
薬	-12.7799
筴	-12.7799
庐	-12.7799
裸	-12.78
崤	-12.78
驁	-12.78
三山老人語錄	-12.78
黿	-12.7801
嫋	-12.7801
欻	-12.7801
珖	-12.7801
人紹興二十四年進士	-12.7801
親朋無一字老病有孤舟	-12.7801
韀	-12.7801
牥	-12.7802
􁣉	-12.7802
餐秋菊之落英	-12.7803
窿	-12.7803
輗	-12.7803
鶼	-12.7803
粟粒芽前丁後蔡相	-12.7803
􁀒	-12.7803
侗	-12.7803
䮧	-12.7804
􁂴	-12.7804
奘	-12.7805
砅	-12.7805
漁陽突騎	-12.7805
􁎃	-12.7805
字韻一篇詩而用	-12.7805
墁	-12.7805
娩	-12.7805
㾕	-12.7805
贗	-12.7805
昼	-12.7806
廕	-12.7806
彘	-12.7806
火樹銀花	-12.7806
奡	-12.7806
蹂	-12.7806
楊大年錢文僖晏元獻劉子儀	-12.7807
碗	-12.7807
踣	-12.7807
滮	-12.7807
菼	-12.7807
薾	-12.7808
哈	-12.7808
慼	-12.7808
馗	-12.7808
湖廣總志	-12.7809
胆	-12.7809
份	-12.7809
沙吒利	-12.7809
璪	-12.7809
㲲	-12.781
棒	-12.781
枵	-12.781
筏	-12.781
謀身拙為安蛇足報國	-12.781
王文孺臞菴	-12.781
荄	-12.7811
珌	-12.7811
藟	-12.7811
砯	-12.7811
痼	-12.7811
䙚	-12.7811
尻	-12.7811
簽書樞密院事	-12.7811
啁	-12.7812
桁	-12.7812
樞密院編修官	-12.7812
璅	-12.7812
桶	-12.7813
頠	-12.7813
爹	-12.7813
碨	-12.7814
罼	-12.7814
瑑	-12.7815
沲	-12.7817
浩然齋雅談	-12.7819
百家詩話総龜後集卷之三十	-12.7821
聡	-12.7821
山水障歌云	-12.7822
春水船如天上坐	-12.7823
汃	-12.7823
芧	-12.7849
簘	-12.7852
薁	-12.8913
裯	-12.8942
袜	-12.8966
海録碎事	-12.8982
棻	-12.9003
㿿	-12.9004
蠺	-12.9005
裋	-12.9009
櫩	-12.9009
哢	-12.9013
暍	-12.9014
鋌	-12.9016
騂	-12.9017
竣	-12.9017
蹏	-12.9017
埴	-12.9017
麰	-12.9019
勮	-12.9019
人紹興二十七年進士	-12.902
峪	-12.902
按唐三家及歐尹	-12.902
芎	-12.902
纘	-12.9021
人具雞黍稚子摘楊梅	-12.9022
潏	-12.9024
瀛奎律髄	-12.9025
嵸	-12.9026
豨	-12.9026
飥	-12.9027
麪	-12.9027
岏	-12.9028
脗	-12.9028
届	-12.903
町	-12.903
奠桂酒兮椒漿	-12.903
倧	-12.903
𨗳	-12.903
褉	-12.9031
瑋	-12.9031
䥫	-12.9031
江南西道觀察使	-12.9032
五更鼓角聲悲壯三峽星河影動揺	-12.9032
資政殿大學士	-12.9032
焯	-12.9033
眊	-12.9033
瓷	-12.9033
斌	-12.9033
庀	-12.9033
型	-12.9033
望春宫迎春應制云	-12.9033
陴	-12.9033
眂	-12.9033
流連光景之	-12.9033
戺	-12.9034
鱷	-12.9034
貊	-12.9035
淤	-12.9035
酇	-12.9035
簀	-12.9035
㱀	-12.9035
春明退朝録	-12.9035
眦	-12.9035
暕	-12.9035
虙	-12.9035
萸	-12.9036
睚	-12.9036
橦	-12.9036
清河書畫舫	-12.9036
晬	-12.9036
諗	-12.9036
今朝臘月春意動	-12.9036
紼	-12.9036
侄	-12.9037
耴	-12.9037
可忍風敲竹飲散那堪月在花	-12.9037
虒	-12.9037
砢	-12.9037
新詩改罷自長吟	-12.9037
無邊落木蕭蕭下不盡長江	-12.9038
嚻	-12.9038
䓗	-12.9038
刖	-12.9038
眡	-12.9039
送張説上集賢學士	-12.9039
蕾	-12.9039
柎	-12.9039
噩	-12.9039
悲獲麟西狩	-12.9039
僩	-12.904
水之潘為淵	-12.904
麵	-12.904
司馬文正公日録云	-12.9041
起承轉合	-12.9041
冋	-12.9041
郫	-12.9041
送李愿歸盤谷	-12.9041
乹	-12.9041
疣	-12.9041
旐	-12.9041
日暮碧雲合佳人殊未來	-12.9041
閜	-12.9041
㳒	-12.9041
洊	-12.9041
熟精文選理	-12.9041
駰	-12.9042
胞	-12.9042
滹	-12.9042
巃	-12.9042
祸	-12.9042
眼前有景道不得崔顥題詩	-12.9042
絞	-12.9042
幪	-12.9042
獪	-12.9042
琲	-12.9042
瞍	-12.9042
瞶	-12.9043
諏	-12.9043
凟	-12.9043
鏹	-12.9043
幬	-12.9043
獮	-12.9043
㣧	-12.9043
薈	-12.9043
櫜	-12.9044
炁	-12.9044
醨	-12.9044
廣卓異記	-12.9044
頏	-12.9044
柸	-12.9044
炮	-12.9044
鹺	-12.9044
蒻	-12.9044
􁐓	-12.9044
之景如在目前含不盡之意見	-12.9044
悛	-12.9045
餞唐永昌云	-12.9045
瞪	-12.9045
餧	-12.9045
侫	-12.9045
獷	-12.9045
老色日上面	-12.9045
水流心不競雲在意俱遲	-12.9045
堦碧草自春色隔葉黄鸝空好音	-12.9045
毶	-12.9046
裀	-12.9046
字是脣音	-12.9046
𪷟	-12.9046
鑿開魚鳥忘情地展盡江湖極目天	-12.9046
咀五色之靈芝香生九竅咽三危之瑞露	-12.9046
花院落溶溶月栁絮池塘淡淡風	-12.9046
幸臨渭亭	-12.9046
悱	-12.9046
䗫	-12.9047
矱	-12.9047
何四紀為天子不及盧家有莫愁	-12.9047
毓	-12.9047
入門下馬氣如虹	-12.9047
殛	-12.9048
屢薦不入官一麾乃出守	-12.9048
西飛一片東自是桃花貪結子錯	-12.9048
鞞	-12.9048
轆轤韻者雙出雙入	-12.9048
訢	-12.9048
國風好色而不淫小雅怨誹	-12.9048
灸	-12.9048
燀	-12.9049
琥	-12.9049
褌	-12.9049
清風明月不用一錢買玉山自倒非人推	-12.9049
鎧	-12.9049
𠂻	-12.9049
吟成五字句用破一生心	-12.9049
睞	-12.905
蘼	-12.905
謄	-12.905
貙	-12.905
婣	-12.905
不伐有巢樹多移無主花	-12.905
盩	-12.905
鞛	-12.905
繻	-12.9051
不聞夏商衰中自誅褒妲	-12.9051
柈	-12.9051
焦弱侯云	-12.9051
甦	-12.9051
㩁	-12.9052
蚯	-12.9052
月頭支給買花錢滿殿宫人近	-12.9052
隔千里兮共明月	-12.9052
悸	-12.9052
堂前燕飛入尋常百姓家	-12.9052
硉	-12.9053
㒹	-12.9053
柂	-12.9053
蒱	-12.9053
錙	-12.9054
磽	-12.9054
纉	-12.9054
紡	-12.9054
青樓薄倖	-12.9054
㷀	-12.9054
䨥	-12.9054
慊	-12.9054
儐	-12.9054
唁	-12.9054
皚	-12.9054
饉	-12.9054
餞唐州髙使君云	-12.9055
猾	-12.9055
蠨	-12.9055
錞	-12.9055
之詩而熟參之次取	-12.9055
橛	-12.9056
睍	-12.9056
蛸	-12.9056
人政和五年進士	-12.9056
􁃜	-12.9056
鷸	-12.9056
訏	-12.9056
明朝有封事數問夜如何	-12.9057
梏	-12.9057
虖	-12.9057
麕	-12.9057
􁓨	-12.9057
楂	-12.9057
雘	-12.9058
鵕	-12.9058
倆	-12.9059
脰	-12.9059
篡	-12.9059
滈	-12.9059
苣	-12.9059
蜿	-12.9059
夛	-12.9059
螂	-12.906
玭	-12.9061
犮	-12.9061
內	-12.9061
髹	-12.9061
撏	-12.9062
蜒	-12.9063
黟	-12.9063
觫	-12.9063
婆餅焦	-12.9064
孝皇帝廟號	-12.9064
􁈍	-12.9064
䈔	-12.9064
愀	-12.9065
郁氏書畫題跋記	-12.9065
桃李春風一杯酒江湖夜雨十年燈	-12.9068
軆	-12.9069
賜同進士出身	-12.907
泐	-12.9071
窕	-12.9073
峘	-12.9081
人崇寧五年進士	-12.9088
鰂	-12.9104
右誌不書字	-12.9341
幐	-13.0394
衖	-13.0403
薠	-13.0419
狒	-13.0432
縩	-13.0433
遝	-13.0441
骳	-13.0443
太液波翻披香簾捲	-13.0446
紞	-13.0447
緦	-13.0448
腊	-13.0449
當時諸葛成何事只合終身作卧龍	-13.0449
􁆱	-13.045
式古堂畫考	-13.0451
恓	-13.0452
唉	-13.0452
帨	-13.0452
痎	-13.0453
主管台州崇道觀	-13.0454
野火燒不盡春風吹又生	-13.0454
酴	-13.0455
跕	-13.0455
氂	-13.0456
晼	-13.0456
􁇳	-13.0456
菖	-13.0456
魖	-13.0457
野水無人渡孤舟盡日横	-13.0458
有幾多愁恰似一江春水向東流	-13.0458
侁	-13.0458
婷	-13.0458
嬲	-13.0458
漠漠水田飛白鷺隂隂夏木囀黄鸝	-13.0459
落日照大旗馬鳴風蕭蕭	-13.0459
􁯣	-13.0459
花滿眼淚不共楚王言	-13.046
娉	-13.046
鞫	-13.046
題招提院静照堂	-13.046
鏌	-13.0461
喌	-13.0461
鉤輈格磔	-13.0461
篨	-13.0461
咆	-13.0461
垕	-13.0461
歌蛙兩部山中奴	-13.0462
惸	-13.0462
臀	-13.0462
耡	-13.0462
麒	-13.0462
軛	-13.0463
䄄	-13.0463
梴	-13.0463
一水䕶田將緑遶兩山排闥送青來	-13.0463
漵	-13.0463
嘷	-13.0463
掐	-13.0463
棖	-13.0463
剉	-13.0464
鷇	-13.0464
糲	-13.0464
礲	-13.0464
漘	-13.0464
鞘	-13.0464
鋟	-13.0464
枲	-13.0464
眤	-13.0464
溘	-13.0464
嘐	-13.0464
叵	-13.0464
苕溪胡元任叢話曰	-13.0465
不才明主棄多病故人踈	-13.0465
踘	-13.0465
庳	-13.0465
以染黄不借礬而成色故	-13.0465
瞢	-13.0465
胝	-13.0465
捭	-13.0465
鯢	-13.0465
蹬	-13.0466
脁	-13.0466
蕞	-13.0466
轆	-13.0466
穭	-13.0466
送劉綜學士出	-13.0466
公獨未知其趣耳臣今時復一中之	-13.0466
部郎中鄭君	-13.0466
箔輕明拂玉墀披香新殿	-13.0467
溵	-13.0467
煖鳥聲碎日髙花影重	-13.0467
沗	-13.0467
嵯	-13.0467
恭惟皇帝陛下	-13.0467
第一云山頭日日風和雨行人歸	-13.0467
􁦚	-13.0467
㢮	-13.0467
昞	-13.0467
朢	-13.0467
裠	-13.0468
腑	-13.0468
躑	-13.0468
趐	-13.0468
芼	-13.0468
姙	-13.0468
吭	-13.0468
今是堂手録	-13.0468
楦	-13.0468
襕	-13.0468
糭	-13.0468
分岡勢司空曙春入燒痕劉長卿不是師	-13.0469
悁	-13.0469
人嘉定十年進士	-13.0469
俁	-13.0469
飛花寒食東風御栁斜日暮漢宫傳	-13.0469
文章必謹布置	-13.0469
渡桑乾水却望并州是故鄉	-13.0469
中博學宏詞科	-13.047
踟	-13.047
雹	-13.047
修辭鑑衡	-13.047
傪	-13.047
捽	-13.047
虔	-13.047
􁗀	-13.047
是走踆踆	-13.0471
山圍故國周遭在潮打空城寂寞	-13.0471
剬	-13.0471
煢	-13.0471
縧	-13.0471
籝	-13.0472
兑	-13.0472
集英殿修撰	-13.0473
􁡯	-13.0473
桃無緑葉辨杏有青枝	-13.0473
暗飛螢自照水宿鳥相呼	-13.0473
香飄合殿春風轉花覆千官淑景移	-13.0473
蕖	-13.0473
襫	-13.0473
陘	-13.0473
去心今既不如昔後當不如今	-13.0473
鵡	-13.0474
䥴	-13.0474
教人恨五更風	-13.0474
曲譜金書字樹記花名玉篆牌	-13.0474
淝	-13.0474
鞉	-13.0474
菰蒲深處疑無地忽有人家笑語聲	-13.0474
後來者當與此心期	-13.0475
諜	-13.0475
槲	-13.0475
卬	-13.0475
申王畫馬圖	-13.0475
露濕寒塘草月映清淮流	-13.0475
滚	-13.0475
鬲	-13.0476
禖	-13.0476
䞇	-13.0476
廋	-13.0476
燕體輕弱風猛則不能勝惟	-13.0476
甯	-13.0476
埠	-13.0476
燁	-13.0476
臓	-13.0476
吳姬壓酒勸客嘗	-13.0476
稊	-13.0476
樂意相闗禽對語生香不斷樹交花	-13.0477
榰	-13.0477
瑶池飲日宴崑崙丘	-13.0477
矇	-13.0477
饘	-13.0477
柷	-13.0477
熂	-13.0477
望夷宫中鹿為馬秦人半死長城下	-13.0477
箝	-13.0478
􁁧	-13.0478
椘	-13.0478
恩怨相爾汝	-13.0478
皱	-13.0478
咋	-13.0478
擿	-13.0479
灕	-13.0479
張為取作主客圗	-13.0479
攧	-13.0479
詅	-13.0479
糗	-13.0479
俌	-13.0479
栲	-13.0479
㯽	-13.048
卿絶世無既稱絶世無天子何不喚取守	-13.048
筳	-13.048
題錢公輔衆樂亭	-13.0481
瀌	-13.0481
闟	-13.0482
杕	-13.0482
噍	-13.0482
家新様元和脚	-13.0482
芑	-13.0482
蔡寬夫詩話云	-13.0482
輳	-13.0482
丱	-13.0483
跑	-13.0483
鄭兵部仲賢	-13.0483
天闕象緯逼雲卧衣裳冷	-13.0483
蜉	-13.0483
矰	-13.0483
􁅉	-13.0483
裏日光飛野馬案頭筠管長蒲盧	-13.0483
為浮雲能蔽日長安不見使人愁	-13.0483
戹	-13.0484
言隨意遣渾然天成殆不見有牽	-13.0484
韝	-13.0484
無蔬筍氣	-13.0484
紅綻雨肥梅	-13.0484
黄鵠去不息哀鳴何所投	-13.0484
怏	-13.0484
虹收千嶂雨潮展半江天	-13.0484
纚	-13.0485
􁩪	-13.0485
颿	-13.0485
鄽	-13.0486
端眀殿學士	-13.0486
蘗	-13.0487
焜	-13.0487
賾	-13.0487
斉	-13.0487
拐	-13.0488
筍根稚子無人見	-13.0488
云張公一生江海客身長九尺鬚眉蒼	-13.0488
鶄	-13.0489
瀋	-13.0489
華堂今日綺筵開誰喚分司御史來忽發	-13.0489
沜	-13.049
囱	-13.049
鶴一去不復返白雲千載空悠悠	-13.049
价	-13.049
恟	-13.049
杜詩韓筆愁來讀似倩麻姑癢處	-13.0491
厅	-13.0491
桔	-13.0492
人皇祐元年進士	-13.0492
日出霧露餘青松如膏沐	-13.0492
張為取作主客圖	-13.0492
夷白堂小集	-13.0494
笮	-13.0494
椵	-13.0494
祺	-13.0496
湾	-13.0496
婐	-13.0496
蜋	-13.0496
菩	-13.0497
和潘良貴題明州三江亭韻	-13.0498
人淳熙八年進士	-13.05
栗爆燒氊破猫跳觸鼎	-13.0503
膊	-13.0504
宣室召徒有茂陵求	-13.0504
娣	-13.0504
四友齋樷	-13.0514
頵	-13.0514
鬖	-13.0515
礬	-13.2057
名媛璣囊	-13.209
澱	-13.2095
髣	-13.2097
饁	-13.2101
澉	-13.2103
糉	-13.2104
柮	-13.2105
耍	-13.2105
袿	-13.2107
舵	-13.2107
礶	-13.2108
􁈋	-13.2109
喃	-13.2109
唧	-13.2109
緌	-13.211
邜	-13.2111
碪	-13.2111
活火烹自臨釣石	-13.2111
粛	-13.2111
雞塞逺小樓吹徹玉笙寒	-13.2113
嶱	-13.2114
輠	-13.2114
萝	-13.2115
眐	-13.2115
蛓	-13.2115
崟	-13.2116
珠簾暮捲西山雨	-13.2116
呷	-13.2116
宋范晞文撰	-13.2116
湼	-13.2118
广	-13.2118
邾	-13.2118
凂	-13.2122
鳥歸花影動魚没浪痕圓	-13.2122
窀	-13.2122
學詩渾似學㕘禪	-13.2123
漁翁夜傍西巖宿曉汲清湘	-13.2123
㰂	-13.2123
芦	-13.2124
腫	-13.2124
柅	-13.2125
年抛造物甄陶外春在先生杖屨中	-13.2125
教妾若為容風	-13.2126
晚泊孤舟古祠下滿川風雨看潮生	-13.2126
立蜻蜓不自由五月臨平山下路藕花無	-13.2126
竹徑通幽處禪房花木深	-13.2126
鴦	-13.2126
崿	-13.2126
套	-13.2126
翰林風月三千首吏部文章二百年	-13.2126
栻	-13.2126
咈	-13.2126
㻛	-13.2126
矻	-13.2126
風蒲獵獵弄輕	-13.2126
􁥽	-13.2127
舳	-13.2127
蕐	-13.2127
穸	-13.2127
肪	-13.2127
甚嚴尤精於對偶嘗云用漢人語止可以	-13.2127
賻	-13.2127
酔	-13.2127
殘夢依依酒力餘城頭批頰伴啼烏	-13.2127
七言五言之間除去五字三字外精神	-13.2128
信手拈來頭頭是道	-13.2128
琶	-13.2128
􁨂	-13.2128
剸	-13.2128
煗	-13.2128
􁪽	-13.2128
殍	-13.2128
與水曹任畹	-13.2128
覔不得有時還自來	-13.2128
䚦	-13.2128
呻	-13.2128
怊	-13.2128
穨	-13.2129
壒	-13.2129
稭	-13.213
原上草云野火燒不盡春風吹又生	-13.213
蚿	-13.213
曰未如陛下小樓吹徹玉笙寒	-13.213
瘼	-13.213
千門次第開一騎紅塵妃子笑無人知	-13.213
櫧	-13.2131
媯	-13.2131
賜紫金魚袋	-13.2131
謫仙此語誰解道請君見月時登樓	-13.2131
厭就成都卜休為吏部眠	-13.2131
鴛鴦如今重到抛毬處不是金爐舊日香	-13.2131
飯顆山頭逢杜甫頭戴笠子日卓午	-13.2131
簣	-13.2131
旼	-13.2132
剙	-13.2132
筥	-13.2132
蚶	-13.2132
燋	-13.2132
飩	-13.2132
春水船如天上坐老年花似霧中看	-13.2132
乾隆四十四年	-13.2132
天育驃騎歌	-13.2132
飀	-13.2132
上無心雲相逐	-13.2132
凨	-13.2132
砦	-13.2132
禡	-13.2132
渑	-13.2133
嶁	-13.2133
一聲何處送書鴈百丈誰家上	-13.2133
豈意青州六從事化為烏有一先生	-13.2133
逤	-13.2133
之屬不可勝數何獨蜀也	-13.2133
緐	-13.2134
不寄一枝梅塵泥自與雲霄隔駑馬難追	-13.2134
黝	-13.2134
𫝊	-13.2134
窱	-13.2134
參差始至若有得稍深遂忘疲	-13.2134
文章舊價留鸞掖桃李新隂在鯉庭	-13.2134
㱿	-13.2134
無復李杜豪放之格然亦務以精意相	-13.2134
虓	-13.2134
疾病思田里邑有流亡愧俸錢	-13.2134
隝	-13.2134
風一蕭瑟林影	-13.2135
年去年來來去忙	-13.2135
引之意子先以詩謝	-13.2135
蹉跌乃天下之至工也	-13.2135
寧拙毋巧寧	-13.2135
牂	-13.2135
㮚	-13.2135
讟	-13.2135
沍	-13.2135
歸萬年樹月滿九重城	-13.2135
韤	-13.2135
滏	-13.2135
依彭咸之遺則	-13.2136
簦	-13.2136
春草秋更緑公子未西歸	-13.2136
㞐	-13.2136
莫能定其後得一善本乃是身輕一鳥	-13.2136
諝	-13.2136
蹠	-13.2136
樨	-13.2136
盭	-13.2136
姍	-13.2136
雞聲茅店月人跡板橋霜	-13.2136
澹自成一家之體今之秉筆者誰能及之	-13.2136
皜	-13.2136
朦	-13.2137
鐍	-13.2137
褓	-13.2137
湜公安園池詩	-13.2137
吚	-13.2137
篿	-13.2137
䥥	-13.2137
不書諱同韓文息國夫人誌例也	-13.2137
游絲白日静鳴鳩乳燕青春深	-13.2137
腓	-13.2138
桮	-13.2138
不行一萬里不讀萬巻書不可	-13.2138
動七情秀實云勸不得也勸不得也	-13.2138
歪	-13.2138
窹	-13.2138
笙先按拍海棠花下合梁州	-13.2138
腠	-13.2138
魏顆真孝愛三良安足希	-13.2138
洛邑得休告華山窮絶陘倚	-13.2138
護田將綠遶兩山排闥送青來	-13.2138
魚龍戯終遣君王怒偃師	-13.2139
次袁尚書巫山十二峯二十五韻	-13.2139
尢	-13.2139
瞀	-13.2139
艣	-13.2139
圄	-13.2139
𧖟	-13.2139
丫	-13.2139
一百五日夜對月	-13.2139
人皆苦炎熱我愛夏日長	-13.2139
白摧朽骨龍虎死黒入太隂雷雨垂	-13.2139
逢人問梓州長江那可到行客替生愁	-13.2139
鄶	-13.2139
擬把一麾江海去	-13.2139
江山有巴蜀棟宇自齊梁	-13.2139
詩之工者寫難狀	-13.2139
寫留行道影焚却坐禪身	-13.2139
臬	-13.2139
里過山應萬重	-13.2139
勦	-13.2139
餞許州宋司馬云	-13.2139
竊以為字字當活活則字字	-13.214
胖	-13.214
厎	-13.214
殆不可拘以常格如此日足可惜之類是	-13.214
洏	-13.214
追逐採蓮時驚起沙鷗兩岸飛蘭	-13.214
郸	-13.214
雍端年十三不識六與七通子垂九齡但	-13.214
餼	-13.214
僧歸夜船月龍出曉堂雲	-13.214
善馭良馬者通衢廣	-13.214
樓臺側畔楊花過簾幕中間燕子飛	-13.214
鶪	-13.214
变	-13.214
春風年年花鳥無窮恨盡在蒼梧夕照中	-13.214
袐	-13.214
㱔	-13.214
費氏蜀之青城人以才色入蜀	-13.214
胡天放降仙	-13.214
履平地得詩人之遺法	-13.2141
全似未嘗用力此所以不礙其氣格超勝	-13.2141
城外寒山寺夜半鐘聲到客船	-13.2141
墦	-13.2141
儵	-13.2141
楶	-13.2141
冷徹骨四十餘萬屯	-13.2141
爝	-13.2141
予愛其詞氣如百金戰馬注坡驀澗	-13.2141
匹阿宣行志學而不	-13.2141
潩	-13.2141
澮	-13.2141
管城子無食肉相孔方兄有絶交書精妙	-13.2141
㫤	-13.2141
膀	-13.2141
山瓶乳酒下青雲	-13.2142
滃	-13.2142
鄱	-13.2142
遣亂蛙成兩部更邀明月作三人	-13.2142
桉	-13.2142
昭宗時以翰林承㫖謫嶺表道湖南謝人	-13.2142
抓	-13.2142
㓨	-13.2142
天為吾君扶社稷肯教夫子不生還	-13.2142
憶昔霓旌下南苑苑中萬物生	-13.2142
聲長在耳山色不離門	-13.2142
資福院平綠軒	-13.2142
杻	-13.2142
鬌	-13.2142
後主嬖之號花蘂夫人	-13.2142
頖	-13.2142
璃	-13.2143
齕	-13.2143
姆	-13.2143
剛腸欺竹葉衰鬢怯菱花	-13.2143
沾臆江水江花豈終極黄	-13.2143
閣深去住彼此無消息人生有情	-13.2143
僴	-13.2143
君實走卒知司馬	-13.2143
錦瑟無端五十絃一絃一柱思華年	-13.2143
隩	-13.2143
思卒然遇之而莫遏有物敗之則失之矣	-13.2143
氣蒸雲夢澤波	-13.2143
瀃	-13.2143
篊	-13.2143
當君白首同歸日是我青山獨往時	-13.2143
昏胡騎塵滿城欲往城南	-13.2143
氲	-13.2144
崙	-13.2144
罳	-13.2144
籮	-13.2144
添漠漠隂隂四字此乃摩詰	-13.2144
遴	-13.2144
東坡言僧詩要無蔬	-13.2144
為惟杜子美能之至於前	-13.2144
哤	-13.2144
解忘憂憂底事花名含笑笑何人	-13.2144
磅	-13.2145
篥	-13.2145
奉和御製送張尚書廵邊	-13.2145
曀	-13.2145
歈	-13.2145
孟明豈有死之日而忍用其良乃知三子	-13.2145
欤	-13.2145
雕梁畫未落先愁玉笛吹	-13.2145
㬉	-13.2145
千山送客東西路一樹照人南北枝	-13.2145
噲	-13.2145
莊生曉夢迷蝴蝶望帝春心	-13.2145
薅	-13.2146
圑	-13.2146
剰得月地少不生塵	-13.2146
孑孑干旟在浚之都素絲組之良馬五之	-13.2146
殮	-13.2146
到老相尋得幾回	-13.2146
天下蒼生待霖雨不知龍向此中蟠	-13.2146
相送欲行不行各盡觴	-13.2146
義山號西崑體後進效之多竊取義山	-13.2146
公擇以為謝家兄弟得意不能過也	-13.2147
嚞	-13.2147
氣劘屈賈壘目短	-13.2147
敢向清時怨不容	-13.2147
加矣當以此語反三隅也	-13.2147
沙墩至梁苑二十五長亭	-13.2147
縁好客黄金散盡為收書	-13.2147
醎	-13.2147
􁑼	-13.2147
㷔	-13.2147
言之者無罪聞之者足以	-13.2147
燖	-13.2147
耰	-13.2147
㭊	-13.2147
扯	-13.2147
櫃	-13.2147
埓	-13.2147
妷	-13.2147
曲終人不見江上數峰青	-13.2147
流水難窮目斜陽易	-13.2147
海外徒聞更九州	-13.2147
窮則獨善其身	-13.2147
舊國别多日故人無少年	-13.2147
跽	-13.2147
香霧雲鬟濕清輝玉臂寒	-13.2147
􁝜	-13.2147
讀魯直詩如見魯仲連李	-13.2148
和呉公仲庶遊海雲寺	-13.2148
枒	-13.2148
君不見阮嗣宗臧否不挂口莫	-13.2148
囹	-13.2148
經來白馬寺僧到赤烏年	-13.2148
歐陽文忠公稱其張僕射園中一	-13.2148
大江流日夜客心悲未央	-13.2149
三山半落青天外二水中分白鷺洲	-13.2149
手兩語最當人意初日芙	-13.2149
靦	-13.2149
經櫽括權衡者其用意亦深刻矣	-13.2149
薧	-13.2149
送人處憶得别家時	-13.2149
㲄	-13.2149
全曙催歸日未西	-13.215
䑃	-13.215
暠	-13.215
雰	-13.215
前有所思不學漢臣栽苜蓿空教楚客	-13.215
薏	-13.215
酖	-13.215
嗉	-13.215
沴	-13.215
上後園山脚	-13.2151
畸	-13.2151
琉	-13.2151
墮危芳風軒納飛絮	-13.2151
云古畫畫意不畫形梅詩詠物無	-13.2151
溈	-13.2151
多依效舊文未盡所趣	-13.2151
本朝故善陳時事句律精深超古作者	-13.2151
莩	-13.2151
妊	-13.2152
送何水部蒙出牧袁州	-13.2152
胚	-13.2152
鉸	-13.2152
城中寸土如寸金幽軒種竹只十箇春風	-13.2152
情忘形得意知者寡不若見詩如見	-13.2152
公若登台輔臨危莫愛身	-13.2152
相逢盡道休官去林下何曾見一人	-13.2152
犴	-13.2153
漓	-13.2153
眎	-13.2153
鶊	-13.2153
宴優人有為義山者衣服敗	-13.2153
徔	-13.2153
礙然其精圓快速發之在手筠亦未能盡	-13.2153
膇	-13.2153
蘦	-13.2153
一别二十年人堪幾	-13.2153
滿世可能無黙識未知誰擬試齊竽	-13.2153
机	-13.2154
侹	-13.2154
独	-13.2154
爵朗吟而起	-13.2154
倀	-13.2155
銚	-13.2155
道之難難於上青天	-13.2155
靈運諸詩可以當此者亦無幾彈丸	-13.2155
􁡸	-13.2155
勍	-13.2155
姱	-13.2155
纆	-13.2155
朱墨手自研	-13.2156
日月籠中鳥乾坤水上萍	-13.2156
歕	-13.2156
佼	-13.2156
鏕	-13.2156
鄣	-13.2157
石吾甚愛之勿使牛礪角牛礪角尚可牛	-13.2157
斥八極隘九州化為	-13.2157
􁈼	-13.2157
水暖鳬鷖行哺子春深桃李卧開花	-13.2158
炒	-13.2158
𬈑	-13.2158
嬗	-13.2158
蕕	-13.2158
曕	-13.2158
瑴	-13.2159
嶙	-13.2159
江北江南水拍	-13.216
空盤硬語妥帖力排奡	-13.216
皞	-13.216
隨日化身已要人扶	-13.216
焞	-13.2161
㢲	-13.2162
窯	-13.2163
餘干旅舍云	-13.2163
有祈於知已也而	-13.2163
稀孤城向水閉獨鳥背人飛渡口月初上	-13.2163
蔦	-13.2163
艓	-13.2163
鱔	-13.2164
意各極其長雖善論者不能優劣	-13.2164
及乎貞觀初尚書踐台斗	-13.2165
鮭	-13.2165
斆	-13.2165
檗	-13.2165
賍	-13.2165
罣	-13.2166
䓁	-13.2169
瓔	-13.2169
腷	-13.217
鐔	-13.2173
艛	-13.2173
鮠	-13.2175
焼	-13.2179
閿	-13.2179
黌	-13.218
雝	-13.2184
渲	-13.2198
與數客各用一字補之或云疾或云落	-13.2381
兒童悞喜朱顔在一笑那知是酒紅	-13.3778
行到水窮處坐看雲起時	-13.3921
旌旗日暖龍蛇動宫殿風微燕雀髙	-13.3987
藙	-13.4047
羑	-13.4061
豝	-13.4066
右碑正例書也	-13.4073
穋	-13.4076
筈	-13.4077
牣	-13.4089
蒟	-13.4089
瘏	-13.409
蝓	-13.409
栫	-13.4095
拇	-13.4096
墓誌銘右誌書母氏因事也	-13.4098
風乍起吹皺一池春水	-13.4099
傞	-13.4101
鬒	-13.4101
檛	-13.4101
槮	-13.4105
䶵	-13.4109
潗	-13.411
醤	-13.411
鯈	-13.4114
榨	-13.4115
筧	-13.4115
屼	-13.4115
惝	-13.4115
橅	-13.4115
粃	-13.4115
主思悠悠青鳥不傳雲外信丁香	-13.4115
翠葉殘西風愁起	-13.4116
媮	-13.4116
榞	-13.4116
春生桂嶺外人在海門西	-13.4117
嫖	-13.4117
玉階仙仗擁千官	-13.4117
怵	-13.4117
㲪	-13.4117
帝出詩示羣臣次第屬和	-13.4118
蠓	-13.4118
亜	-13.4118
緍	-13.4118
攃	-13.4118
睩	-13.4118
冬夏青青竹之所長	-13.4119
岧	-13.4119
頩	-13.4119
贈左散騎常侍太原王公	-13.412
縡	-13.412
徠	-13.412
怍	-13.412
浯	-13.412
甔	-13.412
宄	-13.412
玉女來看玉樹花異香先引七	-13.412
讔	-13.412
骭	-13.412
簉	-13.412
緇塵染素衣	-13.412
麩	-13.412
聖朝無闕事自覺諫書稀	-13.4122
盒	-13.4122
虤	-13.4122
崇徽公主手痕	-13.4123
齁	-13.4123
韌	-13.4123
大瓢貯月歸春甕小杓分江入夜瓶	-13.4123
􁆍	-13.4123
謹附識於此第	-13.4123
子眉宇真天人虬髯似太宗色映塞外春	-13.4123
幾人代蕩子長不歸山椒	-13.4123
誶	-13.4124
圩	-13.4124
書後欲題三百顆洞庭須待滿林霜	-13.4124
飪	-13.4124
幸因腐草出敢近太陽飛	-13.4124
椑	-13.4124
􁖔	-13.4125
佽	-13.4125
又云曉來山鳥閙雨過杏花稀誠佳句也	-13.4125
鰐	-13.4125
竟難候此事終	-13.4125
草枯鷹眼疾雪盡馬	-13.4125
抌	-13.4125
襆	-13.4125
五夜漏聲催曉箭	-13.4125
寒橘柚秋色老梧桐	-13.4126
齗	-13.4126
播人口其名重當時如此而今不復傳矣	-13.4126
侲	-13.4126
姣	-13.4126
息亡縁底事可憐金谷墜	-13.4126
挽之力不及處分寸不可强若出塞曲	-13.4126
炕	-13.4126
觟	-13.4126
歌聲無歡出門即有礙誰謂天地寛	-13.4126
而弄斤操斧太甚所謂七日而混沌死也	-13.4126
薝	-13.4127
遭田父泥飲	-13.4127
臨淮政成有餘暇坐令華	-13.4127
吳楚東南坼乾坤日夜浮	-13.4127
然後蹀躞嘶鳴也	-13.4127
雇	-13.4127
与	-13.4127
璙	-13.4127
侍郎拜右相中使押赴文昌	-13.4127
因過竹院逢僧話又得浮生半日閒	-13.4128
到江吳地盡隔岸越山	-13.4128
㴞	-13.4128
有時俗事不稱意無限好山都上心	-13.4128
犀角暈盈尖	-13.4128
箐	-13.4128
而才短如造内法酒手而無材料	-13.4128
駙	-13.4128
騞	-13.4129
蔫	-13.4129
狴	-13.4129
卨	-13.4129
擄	-13.4129
僇	-13.4129
處其東萬古永相望七夕誰見同神光	-13.4129
唘	-13.4129
字書未備既多假借而音無反切平	-13.4129
此正所謂進退韻格也按韻	-13.4129
毈	-13.4129
書當快意讀易盡客有可人期不	-13.413
為曹公奪二喬置之銅雀臺上也孫氏	-13.413
惆	-13.413
耕田欲雨刈欲晴去得順風來者怨	-13.413
蕣	-13.413
梲	-13.413
洑	-13.413
嶇	-13.413
貉	-13.413
贜	-13.413
葯	-13.413
殢	-13.413
閠	-13.413
熄	-13.413
青龍五年三月改為景初元年	-13.413
只恐夜深花睡去髙燒銀燭照紅粧	-13.413
撎	-13.413
􁑾	-13.413
荐	-13.4131
蹬無縱鱗言誤身	-13.4131
庶齋老學叢談	-13.4131
病於聲律比興深者通物理用事工者如	-13.4131
日月低秦樹乾坤繞漢	-13.4131
樁	-13.4131
􁅔	-13.4131
縯	-13.4131
安得廣厦千萬間大庇天下寒士	-13.4131
又曰隔林彷彿聞機杼知有人家	-13.4132
堠東溟邀鶴駕窮兵西極待龍媒	-13.4132
山上望羡君時復見王喬	-13.4132
殳	-13.4132
灺	-13.4132
皥	-13.4132
同韓文施先生銘例也	-13.4132
朝暮泉聲落寒暄樹色同清猿不可	-13.4132
此石歸袖中有東海	-13.4132
鬃	-13.4132
匊	-13.4132
够	-13.4132
斜日杏花飛江南春盡離	-13.4132
毋華寧粗毋弱寧僻毋俗	-13.4133
孟郊詩蹇澁窮僻	-13.4133
怨也滄海月明珠有淚清也藍田日	-13.4133
汊	-13.4133
佷	-13.4133
古不鄰於怪僻題詠不窘於物象	-13.4133
巫峽見巴東迢迢出半空雲藏神女	-13.4133
魈	-13.4133
年司制誥共嘉藻思類相如蓬山	-13.4133
廢宅寒塘水荒墳	-13.4133
疲精力至死不悟	-13.4133
臕	-13.4133
舊居東城尋春西樓委順竹	-13.4133
河中府法曹張君墓碣銘	-13.4134
喊	-13.4134
思而得之故言之者無罪聞之者足以戒	-13.4134
望夫處江悠悠化為石不	-13.4134
下國難留金馬客新詩傳與竹枝	-13.4134
至若鋪陳終始排比聲韻	-13.4134
迥五月江深草閣寒	-13.4134
長語上自齊梁諸公下至劉夢得	-13.4134
芭	-13.4134
立當青草人先見行傍白蓮魚未知	-13.4134
深明無人矣花鳥平時可	-13.4134
壡	-13.4134
社稷存亡生靈塗炭都不問只恐捉了二	-13.4134
道士如相訪為寫黄庭換白鵝	-13.4134
再使風俗淳皆儒冠事業也自此意竟	-13.4135
茅簷相對坐終日一鳥不鳴山更幽	-13.4135
之曰入公門猶鞠躬如	-13.4135
古人律詩亦是一片文	-13.4135
回看天際下中流	-13.4135
壁時加竄定有終篇不留一字者	-13.4135
苦吟而成觀其句法格力可見矣	-13.4135
蜇	-13.4135
暖鳥聲碎日髙花影重年年越溪女相憶	-13.4135
陌縱横馳逐惟意所之至於	-13.4135
天人恍然坐我水仙府蒼	-13.4135
鸝三兩聲荆公命工繪	-13.4135
他日若能窺孟子終身何敢望韓公	-13.4135
光弼將郭子儀之軍重經號令精彩數倍	-13.4135
妙茍不當理則一切皆	-13.4135
詩云浮萍斷處見山影	-13.4135
鯖	-13.4135
虚前席不問蒼生問鬼神	-13.4135
篱	-13.4136
之物見之而泣聞之而	-13.4136
則時可知矣他皆類此不可徧舉	-13.4136
子美謫廢以四十千得之	-13.4136
山河在明無餘物矣草	-13.4136
碟	-13.4136
𥅆	-13.4136
楢	-13.4136
看玉宇浮中流中流蕩漾翠綃舞	-13.4136
敺	-13.4136
也天門豈可掉臂入乎此人	-13.4136
其意後以問東坡東坡云此出古今樂志	-13.4136
寬	-13.4136
後生好風花老大即厭之然文章論當理	-13.4136
殿中少監馬君墓誌	-13.4136
簳	-13.4136
絃五十其柱如之其聲也適怨清和	-13.4136
耳茍當於理則綺麗風花同入	-13.4136
蛰	-13.4136
怫	-13.4136
夢和殘月過樓西月過樓西夢已迷	-13.4136
桃李春風一盃酒江湖夜雨十年燈	-13.4136
過誰家燕驀地香來甚處花深院日	-13.4136
其藩翰况堂奥乎	-13.4136
夜南風變成竹喬年㸃化乃爾精巧	-13.4136
新沙換故洲結綺臨春無處	-13.4136
淚滿羅巾夢不成夜深前殿按歌聲紅	-13.4136
翻凍影飛鴻摩月墮孤音推愁不去如相	-13.4136
進退韻者一進一退失此則繆矣余按倦	-13.4136
曉来山鳥閙雨過杏花稀	-13.4137
癃	-13.4137
帢	-13.4137
匭	-13.4137
上堂家慶畢顧與親	-13.4137
惏	-13.4137
獨訪山家歇還	-13.4137
艎	-13.4137
茅屋斜連隔松葉主人聞語未開門	-13.4137
醼	-13.4137
春不老素娥何惜月長圓	-13.4137
篳	-13.4137
芙蓉露下落楊栁月中疎	-13.4137
鱟	-13.4137
聲也躋攀分寸不可上	-13.4137
兗	-13.4137
羽往往失鵬鯨	-13.4137
青山影坐學白塔骨又獨行潭	-13.4137
㫋	-13.4137
公自以此句語人曰窮人家有此景否	-13.4137
竿懶眠沙草愛風湍莫倚善題鸚鵡賦何	-13.4137
詩有一篇命意有句中命意如	-13.4137
􁰈	-13.4138
大江東去浪淘盡千古風流人物	-13.4138
正是江南好風景落花時節又逢君	-13.4138
􁁅	-13.4138
升車而去不復問務事	-13.4138
分井口徐鉉亦有喜李少保卜	-13.4138
壁隙透燈光籬根	-13.4138
所以真知者謂傳誦其詩也然宰相職在	-13.4138
滲	-13.4138
瀫	-13.4138
眉山月半輪秋影入平羌江水流	-13.4138
蝪	-13.4138
鄮	-13.4138
䃱	-13.4138
又赴長江道中詩曰䇿杖	-13.4138
囁	-13.4138
揺落深知宋玉悲風流儒雅亦吾師	-13.4138
滷	-13.4138
素詩布置如此是一篇命意也至其道	-13.4138
一朶妖紅翠欲流	-13.4138
一身去國六千里萬死投荒十二年	-13.4138
顔色不堪誇牡丹芍藥人題徧自分身如	-13.4138
浩浩長江入海流舞罷青	-13.4138
嵂	-13.4139
䈥	-13.4139
愒	-13.4139
至和中阮逸為王宫	-13.4139
邍	-13.4139
乃和凝所作凝後貴悔其少作故嫁名	-13.4139
立敢言人所難去國一身輕似葉髙名千	-13.4139
蠕	-13.4139
趠	-13.4139
三百騎盡提金勒向雲看	-13.4139
劉孝標廣絶交論	-13.4139
南枝向暖北枝寒一	-13.4139
咻	-13.4139
如空中之音相中之色水中之月鏡中之	-13.4139
有文章妙一世而詩句不逮古	-13.4139
橑	-13.4139
笠澤鱸肥人膾玉洞庭橘熟客分金	-13.4139
饟	-13.4139
地濶逺隨飛揚此泛聲也謂輕非絲重非	-13.4139
欲與見素别則曰常擬報一飯	-13.4139
稲	-13.4139
紫陌紅塵拂面來無人不道	-13.4139
遲遲不忍之意故曰尚憐終南山	-13.4139
摩詰竊取之非也此兩句好處正	-13.4139
能無望故曰竊效貢公喜難甘原憲貧果	-13.4139
輩往往以綺麗風花累其正	-13.4139
相見玉川破屋應數間	-13.4139
考古人法度如贈韋	-13.4139
賅	-13.414
西湖處士骨應槁只有此詩君壓倒	-13.414
不見鄭谷所定詩格有進退之	-13.414
鄭谷與僧齊已黄損	-13.414
人者此指東坡而言也	-13.414
嘉祐㸃化以自見其妙如李光弼	-13.414
奉和明皇荅張説南出雀䑕谷詩云	-13.414
枝春江水暖鴨先知蔞蒿滿地蘆芽短正	-13.414
第為福州古田尉既至官惑一	-13.414
襞	-13.414
軋軋度寒梭臘天日短不盈尺何似	-13.414
辮	-13.414
雖同君臣有舊禮骨肉滿眼身	-13.414
傾我當發城市多囂塵還山弄明月	-13.414
入海而去秦也然其去也必有	-13.414
思君如流水既是即目	-13.414
汳	-13.414
狺	-13.414
王建作宫詞百首國亡入	-13.414
誰能窮百年形影浪自苦便欲此地安	-13.414
鷫	-13.414
􁒷	-13.414
兩箇黄鸝鳴翠柳一行白鷺上青天	-13.414
旉	-13.414
誰言張處士詩後更無人	-13.414
卹	-13.414
惠泉未向人間殺風景更持醪醑醉花前	-13.414
早被嬋娟誤欲粧臨鏡慵承恩不在	-13.414
有規矩故可學退之於詩本無解處以才	-13.414
不能薦賢則去之可也故曰焉能心怏怏	-13.414
工世固知之惟老杜變化開闔出	-13.414
望又起歸興隨征鴻	-13.414
用事琢句妙在言其用而不言其名	-13.414
見分鳴鞭走送憐漁父洗盞開嘗對馬軍	-13.414
讀書不作儒生酸躍馬西入金城	-13.414
闔開黄道衣冠拜紫宸而語益工	-13.414
埛	-13.4141
欽定四庫全書厯代詩話巻七十	-13.4141
聪	-13.4141
邲	-13.4141
搉	-13.4141
蟊	-13.4141
扑	-13.4141
硏	-13.4141
蚍蜉撼大樹可笑不自量	-13.4141
􁌀	-13.4141
人終日苦憐才雲軒飄去無消息	-13.4141
千巻手校韋編三十秋相知四海孰青眼	-13.4141
嫫	-13.4141
燐	-13.4141
白頭襄陽耆舊節獨苦只有龎公不入州	-13.4141
馬遵謫守宣州及其去也郡僚軍民	-13.4141
海秋光上下磨青銅鳥飛不盡暮天碧漁	-13.4141
望明月不學山翁醉似泥到得城中燈火	-13.4142
欲其思之來而所謂亂思蕩思者言敗之	-13.4142
則所知不可以不别故曰常擬報一	-13.4142
手生洞房學得琵琶不下堂不識黄雲出	-13.4142
笠翁獨釣寒江雪	-13.4142
魂氣散何之枯形寄	-13.4142
搰	-13.4142
祼	-13.4142
題髙房山夜山圖	-13.4142
薯	-13.4142
依山盡黄河入海流欲窮千里目更上一	-13.4142
洴	-13.4142
四顧疑無地中流忽有山鳥飛應畏墮	-13.4142
溍	-13.4142
逺是生離來春縱有相思字三月天南無	-13.4142
云錦瑟之為器也其	-13.4142
以自抗擅軍旅絶貢賦如杜克遜在梓州	-13.4142
掩役夫張進骸	-13.4142
但苦世論隘聒耳如蜩蟬	-13.4142
意甚佳而病在氣不長	-13.4143
海鵬共擊三千里鐵馬同歸十二閑	-13.4143
澹之趣兼峻潔之姿備藻麗之態而諸家	-13.4143
聲然後知此句之工也	-13.4143
嶻	-13.4143
落之酒泛君以湘纍秋菊之英贈君以	-13.4143
韲	-13.4143
深山更深處也應無計避征徭	-13.4143
君侍君側輦前才人帶弓箭白馬嚼	-13.4143
怒謫英州别駕朝中士大夫以詩送行	-13.4143
伐叛弔民何謂有巢無主二子正坐詩窮	-13.4143
漢人語對若參以異代語便不相類	-13.4143
云羲和走馭趂年	-13.4143
梠	-13.4143
橋風雪中驢子上唐求詩所	-13.4143
落葉滿空山何處尋行迹	-13.4143
庯	-13.4143
悃	-13.4143
所謂不煩繩削而自合者	-13.4143
貴雕琢又畏有斧鑿痕貴破的又畏粘皮	-13.4143
雲破月来花弄影	-13.4143
鼓驚飛海岸鷗	-13.4143
如我按指海印發光汝暫舉心塵勞先起	-13.4144
履常俱謁法雲禪師于城南夜歸過龍眠	-13.4144
律尤精嚴造語用字間不容髪然意與言	-13.4144
按新聲譜遺恨已深聲更苦	-13.4144
眉君王若問妾顔色莫道不如宫裏時	-13.4144
者曰若以法眼觀無俗不	-13.4144
人日清暉閣應制云	-13.4144
泑	-13.4144
也鉉内不服謂大言無實可窮也	-13.4144
礟	-13.4144
秦君嘗學至言妙道	-13.4144
不欲以常語雜之然魯直自有	-13.4144
乗馬必中官馭以進謂之過馬既乗之	-13.4144
倬	-13.4144
嗑	-13.4144
木森森白玉堂長年來此試文章日斜奏	-13.4144
臏	-13.4144
蛈	-13.4144
麟既鰥居因見此篇遂與之為親余以為	-13.4144
然後見太白之横放所以	-13.4144
老妻畫紙為棊局稚子敲針作釣鈎	-13.4144
未落其葉沃若他木	-13.4145
緑葉成隂子滿枝	-13.4145
磨洗認前朝東風不與周郎便銅雀春深	-13.4145
堋	-13.4145
如火復如綿飛過	-13.4145
晨風懐苦心蟋蟀傷局促	-13.4145
問子為誰歟田父有好	-13.4145
妙之意自然見於造化之	-13.4145
畫畫成應遣一生愁	-13.4145
種稻耕白水負	-13.4145
隔花催喚打魚人	-13.4145
望中黄勾引蟬聲送夕陽憶得	-13.4145
龏	-13.4145
云莫辭終夕看動是隔年期	-13.4145
銀青光祿大夫	-13.4145
得意馬蹄疾一日看盡長安花	-13.4145
裲	-13.4145
𤯝	-13.4145
僰	-13.4145
䘵	-13.4145
是山邑荒僻官	-13.4145
為漚魚常上浮而淰若大雨則伏而不出	-13.4145
秕	-13.4145
鰋	-13.4145
其名兮風吹露濕香澗谷時有白鶴飛來	-13.4145
島嶼分諸國星河共一天	-13.4145
廬山髙贈同年劉凝之歸南康	-13.4145
慈祥戲謔可觀也	-13.4145
綰霧青條弱牽風紫蔓長	-13.4145
萬嶺動雲去天一色長嘯	-13.4145
黟川㸃漆之墨送君以陽	-13.4145
為人傳誦要亦未為至工若用	-13.4146
而無車馬喧問君何能爾心逺地自偏	-13.4146
觀淵明此詩想見其人	-13.4146
如玉身行不遇中國人馬上自作	-13.4146
絶色天下無一失難再得雖能殺畫工	-13.4146
新霜染楓葉皓月借蘆花	-13.4146
唐介為臺官廷疏	-13.4146
子百鳥巢百鳥不敢嗔	-13.4146
絶古今以其盡得西山之景趣也金山寺	-13.4146
釴	-13.4146
孴	-13.4146
庭下弱翁異之指牧童曰道人頗	-13.4146
忽然湖上片雲飛不覺舟中雨	-13.4146
悲而哀耳目聞見而哀口歎而哀鼻酸而	-13.4146
槐明日扁舟滄海去	-13.4146
江涵帝子翬飛閣山際真君鶴馭天	-13.4146
相就飲一斗恰有三百青銅錢	-13.4146
笙歌歸院落燈火下樓臺此善言富貴者	-13.4146
西鄰已富憂不足東老雖貧樂有餘白酒	-13.4146
解造逡巡酒能開頃刻花	-13.4146
許身一何愚自比稷與契	-13.4146
趼	-13.4146
向枝上花狂風日	-13.4146
吾詩廬山髙今人莫能為惟	-13.4146
妙曹植劉公幹之詩長	-13.4146
宋季三朝政要	-13.4146
杜荀鶴亦有溪興絶句	-13.4146
白首困一邦寵榮聲利不可以	-13.4146
茝	-13.4146
體衆共守之然不若時用變體如兵之出	-13.4146
世俗不辨珉與玒䇿名為吏二十載青	-13.4146
君懐磊砢有至	-13.4146
多疑其拙窘於檢括者輒病其放孔子曰	-13.4146
矲	-13.4146
野航恰受兩三人	-13.4147
上簾額獨鵲裊庭柯	-13.4147
學詩如學仙時至骨自換	-13.4147
恩放利偷合	-13.4147
丈夫壯節似君少嗟我欲	-13.4147
兮自非青雲白石有深趣其氣兀硉何由	-13.4147
家射獵為俗泉甘草美無常處鳥驚獸駭	-13.4147
淵明之拙與放豈可	-13.4147
響松檜懸崖巨石飛流淙水聲聒聒亂人	-13.4147
釆	-13.4147
色黄金嫩梨花白雪香	-13.4147
不惜捲簾通一顧怕君着眼未分明	-13.4147
边	-13.4147
㘽	-13.4147
山勢蜂腰斷溪流燕尾分	-13.4147
所謂響者致力處也	-13.4147
竹裏編茅倚石	-13.4147
輟耕扶日月起廢極吹	-13.4147
再誦不覺心醉遂置酒又再誦	-13.4147
腥涎不滿殻聊足以自濡	-13.4147
蘭氣當馥歸去來山中山中酒應熟	-13.4147
齡墨以傳千古文章之印歌以寫	-13.4147
四海空無人大兒汾陽中令君小兒天台	-13.4148
為揚瀾左蠡兮洪濤巨浪日夕相舂撞雲	-13.4148
蝀在東又曰鴛鴦在梁	-13.4149
待伴不禁鴛瓦冷羞明	-13.4149
恼	-13.4149
暮雲收盡溢清寒銀漢無聲	-13.4149
為曹子建作似矣然其中云可汗	-13.4149
華實相副顧非佳句耶	-13.4149
霜皮溜雨四十圍黛色參天二千尺	-13.4149
俱歡顔風雨不動安如山	-13.4149
荆釵世所稀布裙	-13.4149
郊居云百草千花路斜風細雨天	-13.4149
不成當時枉殺毛延	-13.4149
侍宴無非列近臣日午殿頭宣索	-13.4149
然後知淵明詩非著力之所能	-13.4149
宂	-13.415
鑴	-13.415
闤	-13.415
靉	-13.415
􁧥	-13.415
二耳義不同故得重用	-13.415
春深遊寺客花落閉門僧	-13.415
長安衆富兒盤饌羅羶葷不	-13.415
長官清平太守好揀選皆言由相公	-13.415
鞓	-13.415
壎	-13.415
口脂面藥隨恩澤	-13.415
行人酒半酣不管	-13.415
紅顔勝人多薄命莫怨春風當自嗟	-13.415
若能者則出入縱横何可拘礙	-13.415
墐	-13.4151
愓	-13.4151
禩	-13.4151
曉風飄磬逺暮雪入廊深	-13.4151
字二眠字二天字三前字	-13.4151
棉	-13.4151
茞	-13.4151
和權載之離合詩云	-13.4151
照髙樓流光正徘徊	-13.4151
託杜鵑滄海月明珠有淚藍田日	-13.4151
長短句云平山欄檻倚晴空山色有無中	-13.4151
𢥠	-13.4151
二月賣新絲五月	-13.4151
前村深雪裏昨夜	-13.4151
屴	-13.4151
底凸處遂成堆	-13.4151
氷肌玉骨清無汗水殿	-13.4151
當中殿前作賦聲摩空筆補造化天無功	-13.4151
虽	-13.4151
則人不能道矣為一	-13.4151
剩得月地少不生塵	-13.4151
漼	-13.4151
取白樂天語書其後云此詩在	-13.4151
正明帝子西飛仙馭逺不知何處夜吹笙	-13.4151
言唐人皆苦思作詩所謂吟安一箇字撚	-13.4151
詩必此詩定知非詩人此或一道也魯直	-13.4151
塵撲面而今始得碧紗籠	-13.4152
聞犬吠聲更入青蘿去	-13.4152
增脩詩話總龜卷之四	-13.4152
鋸	-13.4152
風冷今夜故人來不來教人立盡梧桐影	-13.4152
􁰵	-13.4152
二曰笑傲東軒下聊復得此生三曰客	-13.4152
山落盡黄榆葉駐馬誰家唱石州	-13.4152
掩扉梁燕不知人事改雨中猶作一雙飛	-13.4152
􁚐	-13.4153
黕	-13.4153
柤	-13.4153
笔	-13.4153
者出語自然超詣非常人能蹈其軌轍也	-13.4153
􁛲	-13.4153
但見舒閒容與之態耳而字字細	-13.4153
時事也山者人君之象	-13.4153
隟	-13.4153
細烹還好鐺新味更全	-13.4153
蠝	-13.4153
倜	-13.4154
氤	-13.4154
酆	-13.4154
觀洞古今象外逐幽好	-13.4154
却千家作一池不栽桃李種薔薇薔薇花	-13.4154
泉雨一溪霜葉風業在有山	-13.4154
用商鞅法令如牛毛	-13.4154
雀橋邊野草花烏衣巷口夕陽斜舊時王	-13.4154
暵	-13.4154
溲	-13.4154
訕也故不敢作而詩之一義廢矣	-13.4154
讕	-13.4154
襁	-13.4154
作擬唐詩百篇備諸家之	-13.4154
亡矣人言靖節不知道吾不信也	-13.4155
人如天上坐魚似鏡中懸	-13.4155
兵衞森畫㦸燕寢凝清香	-13.4155
日作詩有丈夫出處非無意猿鶴	-13.4155
蛟龍得雲雨鵰鶚在秋天	-13.4155
閾	-13.4156
君家把酒盃六年波浪與塵埃不知烏石	-13.4156
女老自有餘態近詩尤	-13.4156
貧是病神仙可學道之餘但知白酒	-13.4156
玅	-13.4156
䓤	-13.4156
鉌	-13.4156
休罪明皇與貴妃大都衰盛	-13.4156
天雪鞋香楚地花他年訪禪室	-13.4156
柙	-13.4156
紗紅映肉林深霧暗曉光遲日	-13.4157
礙新月半江無夕陽	-13.4157
觧語應傾國任是無情也動人	-13.4157
長年方悟少年非人道新詩勝舊詩十	-13.4157
月下無人更清淑	-13.4158
紲	-13.4158
食薺腸亦苦強歌聲無歡	-13.4158
砰	-13.4158
到枯松亦大夫白石道人新拜號斷無繳	-13.4158
故常非墨工槧人所可擬議	-13.4158
嗽	-13.4158
山蟬帶響穿	-13.4158
新年納餘慶嘉節號長春	-13.4158
曼卿自少以詩酒豪放自得其氣	-13.4158
舉世徒驚駭梅窮獨我知古	-13.4158
起至是始受命介以詩寄	-13.4159
道人庭宇靜苔色連深竹	-13.4159
兩屐身後五車書其必此詩哉	-13.4159
嫺	-13.4159
三尺眼見愚民盗一	-13.4159
茔	-13.4159
詩憂中有樂樂中有憂	-13.4159
筆下龍蛇似有神天池雷雨變逡	-13.4159
矹	-13.416
毖	-13.416
粵	-13.416
􁰻	-13.416
癡兒不了公家事男子要為天下竒	-13.416
鶋	-13.416
梨花院落溶溶月柳絮池塘淡淡風	-13.416
还	-13.416
鎛	-13.416
隮	-13.416
裓	-13.4161
莫打鴨打鴨驚鴛鴦鴛鴦新	-13.4161
騄	-13.4163
琭	-13.4163
蛇磨牙吮血殺人如麻錦城雖云樂不如	-13.4163
夜起避暑摩訶池上作	-13.4163
手倦抛書午夢長睡	-13.4163
莞然成獨笑數聲漁笛在滄浪	-13.4163
訇	-13.4164
籛	-13.4164
麚	-13.4164
􁛙	-13.4164
懔	-13.4165
臝	-13.4165
㰖	-13.4165
婟	-13.4165
老身倦馬河堤永踏盡黄榆	-13.4166
氳	-13.4166
三朝北盟會編	-13.4166
船如天上坐人似鏡中行	-13.4166
褕	-13.4167
浼	-13.4167
嚦	-13.4168
晨詣超師院讀禪經	-13.4168
逴	-13.4168
無聲時見疎星渡河漢屈指西風幾時來	-13.4168
李潮八分小篆歌	-13.4168
饔	-13.4169
綈	-13.417
𫐠	-13.417
瀵	-13.4171
孛	-13.4171
撘	-13.4172
村數家殘雪擁籬根	-13.4174
􁆩	-13.4174
魨	-13.4176
邐	-13.4177
懍	-13.4177
冰肌玉骨清無汗水殿風來暗香滿	-13.4177
狶	-13.4177
彡	-13.4178
日暮碧雲合佳人殊未来	-13.4178
㐀	-13.4178
聓	-13.4182
一度新翠光長得照龍津君王自愛天然	-13.4183
􁀺	-13.4183
䲹	-13.4185
珤	-13.419
觿	-13.4263
可憐無定河邊骨猶是春閨夢裡人	-13.45
藍尾忽驚新火後遨頭要及浣花前	-13.536
窮佳期從莫再脫如魯秋氏妄結	-13.5739
浩蕩萬里誰能馴終焉此詩前賢録	-13.6416
翡	-13.6508
膰	-13.6573
磕	-13.6573
狌	-13.658
笪	-13.6589
葫	-13.6593
􁑞	-13.6595
噭	-13.6596
刅	-13.6597
上元夜效小庾體	-13.6599
覻	-13.66
簾雨淡淡滿枝花	-13.66
人生只合揚州死禪智山	-13.66
爥	-13.6602
酘	-13.6602
􁬁	-13.6602
㬢	-13.6604
腯	-13.6604
􁵨	-13.6604
􁓁	-13.6604
臾	-13.6605
紅稻啄餘鸚鵡粒碧梧棲老鳯凰枝	-13.6605
􁂁	-13.6606
亟欲奏御得披香殿字未有對時鄭毅夫	-13.6606
閡	-13.6606
臂休膝非夫人之職而	-13.6606
手捲珠簾上玉鈎依前春	-13.6607
愾	-13.6607
去酷吏清風來故人	-13.6607
蹡	-13.6607
桑麻深雨露燕雀半生成	-13.6607
贈官不曰贈某官而曰	-13.6607
靁	-13.6608
桕	-13.6609
無風雲出塞不夜月臨關	-13.6609
乍見翻疑夢相悲各問年	-13.6609
啉	-13.6609
靼	-13.6609
䲛	-13.6609
蒳	-13.661
干移曉柄有似佳期常不定	-13.661
不書妻或未娶也不然同	-13.6611
返照入江翻石壁歸雲擁樹失	-13.6612
抨	-13.6613
鷦	-13.6613
螗	-13.6613
薮	-13.6613
噣	-13.6613
嚵	-13.6614
稌	-13.6614
江天漠漠鳥飛去風雨時時龍一吟	-13.6614
蒼蒼菰蒲纔熟楊栁黄扁舟繫岸不忍去	-13.6614
瑇	-13.6614
秋草不如回首謝秋風分作尹邢來漢宫	-13.6615
寠	-13.6615
袨	-13.6616
渾一樹髙花明逺村雲意不知殘照好却	-13.6616
翻煎處脚松風仍作	-13.6616
蠟屐舊痕尋不見東風先為我開門	-13.6616
詩下雙字極難須	-13.6616
掁	-13.6617
腸斷蘋滿汀洲人未歸	-13.6617
釄	-13.6617
萤	-13.6617
天寶十二年陽浚舎人下登第	-13.6617
碧波間還與容光共憔悴不堪	-13.6618
早立太子晚年自樞府出知	-13.6618
鏝	-13.6618
嫻	-13.6618
風帆目力短江空嵗年晚	-13.6618
小樓吹徹玉笙寒	-13.6618
廁	-13.6618
舋	-13.6618
舐	-13.6618
袛	-13.6618
雪心腸好不是膏油首面新	-13.6618
􁂶	-13.6618
䍡	-13.6618
襇	-13.6618
呉楚東南坼乾坤日夜浮	-13.6619
􁥀	-13.6619
屝	-13.662
似朱雲人至今折檻空嶙峋	-13.662
園林換葉梅初熟池館無人燕學飛	-13.662
馮道明下第請謁	-13.662
嫮	-13.662
旺	-13.662
煴	-13.662
彃	-13.662
憸	-13.662
歠	-13.662
肉何足論生死猶轉轂	-13.662
匯	-13.662
萬樹春紅呌杜鵑	-13.6621
三朝恩澤馮唐老萬里	-13.6621
少時猶見其集其句有云風	-13.6621
山中食藥苗蒸處	-13.6621
江聲秋入寺雨氣夜侵樓	-13.6621
嬀	-13.6621
徑來京師人問其故云我欲求教授至京	-13.6621
枅	-13.6621
䁀	-13.6621
時士人皆可喜而不多得近城人虎雜居	-13.6621
黶	-13.6621
和范公希文懷慶朔堂	-13.6621
節若前有浮聲則後須切響一	-13.6622
鱏	-13.6622
荆公造而為語曰眠分	-13.6622
杈	-13.6622
䰅	-13.6622
􁞠	-13.6622
州縣尉到官不數月不告	-13.6622
見謝公論詩得濠梁	-13.6622
毫意足不求顔色似前身相馬九方臯	-13.6622
哨	-13.6623
才莫謂無心向門下也曾終夕望三台	-13.6623
攟	-13.6623
無心播物祖師有記傳衣白雲横而不度	-13.6623
胊	-13.6623
阯	-13.6623
花時比屋事豪奢買栽池	-13.6624
􁥫	-13.6624
胠	-13.6624
仙掌月明孤影過長門燈暗	-13.6624
家有王建集載望夫石詩乃知非况作	-13.6624
敳	-13.6624
累年頗得此數詩氣味	-13.6624
不洗千年恨留與行人戒覆車害理尤甚	-13.6624
右誌不書姓名門也書	-13.6624
吳楚東南拆乾坤日夜浮	-13.6624
言則虐生類以飽口腹刻疲民以肥權	-13.6624
住破村村中牢落不堪論因供寨	-13.6624
􁀼	-13.6624
句法希文排比故實巧欲形容宛成有	-13.6624
有黄鸝深樹鳴春潮帶雨	-13.6624
歐陽文忠公所知其名翕然韓忠	-13.6624
荩	-13.6624
魚戲新荷動鳥散餘花落	-13.6624
某惶懼惶懼頓首頓首	-13.6624
九天閶闔開宫殿萬國衣冠拜冕旒	-13.6625
溪牋未破氷生硯爐酒新燒雪滿天	-13.6625
浩浩復湯湯灘聲抑更揚	-13.6625
崆	-13.6625
啅	-13.6625
雲生不雨病葉落非秋	-13.6625
右贊善趙執信撰	-13.6625
足思花落夢無憀	-13.6625
倥	-13.6625
人睡起薄梳洗燕舞鶯啼空	-13.6625
氄	-13.6625
石應語語意皆工江南望夫石	-13.6625
中散大夫少府監胡良公墓神道碑	-13.6625
勲業頻看鏡行藏獨倚樓	-13.6625
奠桂酒今倒用之謂之蹉對	-13.6625
暱	-13.6625
臨逺水獨自上孤舟	-13.6625
葛洪丹經用雲子碎雲母	-13.6625
蛹	-13.6625
長安南山下一書生作小圃蒔花	-13.6625
出盛時家世應傳清白訓嬰兒自得老成	-13.6625
鶯啼處鶯在舊時啼處啼	-13.6625
勃然曰相公前敢稱詩人	-13.6626
問作詩之要崔曰凡作詩工拙	-13.6626
與題合者類之如此乃是編事雖工何益	-13.6626
但存方寸地留與子孫耕	-13.6626
最為妙法藍水逺從千澗落玉山髙並兩	-13.6626
酬王二十舍人雪中見寄	-13.6626
監詩云得罪台州去時危棄碩儒移官蓬	-13.6626
絨	-13.6626
千里白蘋香散東風起	-13.6627
聽雨寒更盡開門落葉深	-13.6627
故事有直用其事者有反其意而用之者	-13.6627
自古以直道見黜者多矣豈皆貪寵	-13.6627
芃	-13.6627
月如無恨月長圓	-13.6627
毎過其下不風即雨疑况得句處也	-13.6627
絜	-13.6627
壩	-13.6627
慴	-13.6627
篩	-13.6627
自朱耶之狼狽致赤子之流離	-13.6627
言慈母溪與望夫山相對望夫山詩甚多	-13.6627
一字人以私意竄易遂失古人一篇之意	-13.6627
井泉分地脈砧杵共秋聲	-13.6627
句句用事曷嘗不流便	-13.6627
寄語巫山窈窕娘好將	-13.6627
浮花水入瞿塘峽帶雨雲歸越	-13.6627
為上破碎雕鎪為下如楊大年西	-13.6627
眚	-13.6627
諉	-13.6627
小徑升堂舊不斜五株桃樹亦從遮	-13.6627
曲徑通幽處禪房花木深	-13.6627
相憶無南鴈何時有報章	-13.6627
清時有味是無能閒愛孤雲静愛僧	-13.6627
甫奏賦三篇帝竒之使待制集賢院	-13.6627
句非不竒也而牛鬼蛇神太甚	-13.6627
求其疵而去之等閒一字放過則不可	-13.6627
行爛窺紅紫厭平生而今眼底無姚魏浪	-13.6627
隨波逐浪句謂隨物應機不主故常其二	-13.6627
雎之亂於足下之文見之矣	-13.6627
髐	-13.6628
近世詩人惟杜子美最得詩人之體如	-13.6628
㟽	-13.6628
無餘聲山童隔竹敲茶臼	-13.6628
問君平君平曰某年月日	-13.6628
大年傀儡詩云鮑老當筵笑郭郎笑他舞	-13.6628
斮	-13.6628
美名人不及佳句法如何	-13.6628
噪春鳥又曰貪夫蟻旋磨冷官魚上	-13.6628
摘鮮焙芳旋封	-13.6628
罷君王醉不知若論破	-13.6628
魯直讀其詩曰晁張流也恨未識	-13.6628
叀	-13.6628
堤築處迎丞相驛吏催時送逐臣到了輸	-13.6628
徐君猷孟亨之皆不飲酒不止天生	-13.6628
性霜刀在閱人清鏡空	-13.6628
議送書信白絹斜封三道印開緘宛見	-13.6628
旨取其發興於所遇林泉人物草	-13.6628
於言外浩然不可屈盡心於詩守此勿失	-13.6629
杜荀鶴詩鄙俚近俗惟宫詞為唐第一	-13.6629
一字其字乃山水風雲竹石花草雪霜星	-13.6629
劼	-13.6629
為圖自題其上云此是功	-13.6629
不得流便余謂昉詩所以不	-13.6629
後之傳者甚失其源惟足下制其横流師	-13.6629
所以忘憂今皆不能如意則犯三	-13.6629
玉川子詩雖豪放然太險	-13.6629
䓻	-13.6629
瑊	-13.6629
云借車載家具家具少	-13.6629
前若問舊時黄庭堅謫在人間今八年此	-13.6629
嗈	-13.6629
與林和靖一流槩見於隱逸	-13.6629
鳴榔莫觸蛟龍睡舉網時聞魚	-13.6629
無名子嘲曰張康渾	-13.6629
首叫虞舜蒼梧雲正愁	-13.6629
馬許洞閙裝妻	-13.6629
三十六鱗充使時數番猶得	-13.6629
制誥闕人中書兩進名御筆不㸃	-13.6629
山不至於此明年此㑹知誰健醉把茱萸	-13.6629
而不亂若離騷者可謂兼之	-13.6629
香奩集麗而無骨時李端叔意喜韓	-13.6629
茫萬事空青松洛陽陌	-13.6629
隔林彷彿聞機杼知有人家住翠㣲	-13.6629
褧	-13.663
冷於陂水淡於秋逺陌初窮到渡頭	-13.663
宰相試文章故有贈集賢崔于二學士詩	-13.663
片時惆悵深閨獨歸處曉鶯啼	-13.663
䕶為雙聲磝碻為疊韻	-13.663
紅葉稀山路元無雨空翠濕人衣此	-13.663
飽材料傳稱任昉用事過	-13.663
須早計隨宜梳洗莫傾城	-13.663
林間踏青去席上意錢來	-13.6631
清溪月苔移玉座春	-13.6631
枷	-13.6631
長憶錢塘江上望酒樓人散雨千絲	-13.6631
䊋	-13.6631
天影濶山㧞地形	-13.6631
摵	-13.6631
儓	-13.6631
夫政也者蒲盧也	-13.6631
妁	-13.6631
有布衣老大意轉拙許身一何愚	-13.6631
矞雲從龍小蒼	-13.6631
翃同姓名者為江淮刺史又具二人同進	-13.6631
膈	-13.6631
銀燭朝天紫陌長禁城春色曉蒼蒼	-13.6631
俱寂寂一天明月照髙	-13.6631
外忽傳收薊北初聞涕淚滿衣裳	-13.6631
大率才髙意逺則所寓得其妙遂能如此	-13.6631
家何事春風容不得和鶯吹折數枝花	-13.6631
岐王宅裏尋常見崔九堂前幾度聞	-13.6631
文字頻改工夫自出近世歐公作文先貼	-13.6631
暮帆前則去路先涉三	-13.6631
異待之命作落花詩莒公	-13.6631
相欺得夜來吹折數枝花之句語頗相	-13.6631
覡	-13.6631
鳯自是皇家結網疎	-13.6631
黔南十絶七篇全用樂天花下對酒渭	-13.6631
檿	-13.6631
詞乃云風生使者旌旄上春在將軍	-13.6631
蹭	-13.6631
渚在湖常二境之間當採茶時	-13.6631
然後分賜近臣紫筍生	-13.6631
喬可見措大不識好惡	-13.6631
中錢惟演劉筠首變詩格而楊文公與	-13.6632
五山字第二十七寒字又在二十五而還	-13.6632
似聞青秧底復作龜兆坼乃前人所	-13.6632
日費醉吟於市負其子以行歌江端禮以	-13.6632
獨往勝事空自知行到水窮處坐	-13.6632
詩格與錢劉亦絶相類謂之西崑體大率	-13.6632
連村暗黄花入麥稀誠可貴重又云四座	-13.6632
律詩有扇對格第一與第三句對第二與	-13.6632
或似無倫次而意若貫珠十二月一日詩	-13.6632
易文章罕工每坐此也	-13.6632
白日放歌須縱酒	-13.6632
􁐨	-13.6632
幺	-13.6632
寒日邊聲斷春風塞草長	-13.6632
不土之里而詠無言之詩	-13.6632
學士也故末句云謬稱三賦在難述二公	-13.6632
弸	-13.6632
後又寄黄充前四句云俗子推不去可人	-13.6632
忽聞河東獅子吼拄杖落手心茫然	-13.6632
牛鳴盎中雉登	-13.6632
躐	-13.6632
崎	-13.6632
引子鳴鶴不歸林下食遭泥去髙飛恨	-13.6632
旁圍欲窮源而不得竟悵望	-13.6632
杏有青枝恨其粘皮骨也能	-13.6632
江嶺之南凡是資於適口者若	-13.6632
脫此二病始可以言詩矣	-13.6632
茗暮江寒蒼龍不復從天下拭淚看君小	-13.6632
道山新聞云李後主宫嬪窅娘	-13.6632
㰱	-13.6632
定悠悠夜雨今蕭瑟其同轉對有云對	-13.6632
忖	-13.6632
承餘烈江南廣舊恩一朝人事	-13.6632
挽周原道銘旌鄭國門此生雖未死寂寞	-13.6632
曖曖逺人村依依墟里	-13.6632
未嫌長夜作衣稜却怕初陽生眼纈	-13.6632
李詩莊生曉夢迷蝴蝶適也望帝春	-13.6632
樂天為後進敢期杜甫是前身卒	-13.6632
江都馬一紙千金不當價	-13.6632
浩蕩想幽薊王師安在哉	-13.6632
犬吠深巷中雞鳴桑樹巔	-13.6632
猺	-13.6632
當年不嫁惜娉婷傅白施朱作後生	-13.6632
莅	-13.6632
二子有靈應撫掌吾孫還有獨醒時	-13.6632
孟嘉嗜酒桓温笑徐邈狂言孟	-13.6632
年幾五十始以尊夫人之命来集京師	-13.6632
怤	-13.6632
肫	-13.6632
里天地隔江山十書九不到何用一開顔	-13.6632
錦江春色來天地玉壘浮雲變古今	-13.6632
金錢滿地無人費百斛明珠薏苡秋	-13.6633
其態也水之迢迢不足	-13.6633
子美詩妙處乃在無意於文夫無意而意	-13.6633
皆好又問君愛何處答	-13.6633
貴賤賢愚而與之然吾特疑端為我輩設	-13.6633
孟子七篇論君與民者居半其	-13.6633
春睡無人喚撩亂楊花繞夢飛	-13.6633
曰虞芮質厥成文王蹶厥生予曰有	-13.6633
曲盡一時之意愜當衆人之情通暢	-13.6633
月團新碾瀹花	-13.6633
有數妾四五年相繼辭去獨朝雲	-13.6633
椀肌骨清六椀通仙靈七椀喫不得也唯	-13.6633
機杼分巧過是乃人	-13.6633
泉聲到池盡山色上樓多	-13.6633
皆在其中矣以此益念故國思朝廷故曰	-13.6633
老杜云王侯與螻蟻同盡隨丘墟	-13.6633
至尊之餘合王公何事便到山人家	-13.6633
若論先後之序則玉川	-13.6633
言滯留之勢當自冬過春始終見梅	-13.6633
雲安縣前江可憐此詩立意念	-13.6633
草泥行郭索雲木	-13.6634
銕	-13.6634
魚香紅螺紫蛤俱羞避獨許渠儂近酒觴	-13.6634
佩冷臨江失金谷樓危到地香	-13.6634
掃葉林風後拾薪山雨前	-13.6634
覌	-13.6634
䀻	-13.6634
三軍晦光彩烈士痛稠	-13.6634
令琵琶馬上作樂以慰其道路之思	-13.6634
厦豈云缺葵藿傾太陽物性固莫奪	-13.6634
紅雨狂歌謝貫珠	-13.6634
聖俞家郡人皆不疑其去也遵夜使人絶	-13.6634
不顧龍鱗逆風雲感㑹雖有時顧此定知	-13.6634
仙山一啜好泠然便欲乗風飛君莫	-13.6634
其格也風檣陣馬不足	-13.6634
勲業頻看鏡行藏獨倚樓鄭雲叟曰相	-13.6634
司空圖唐末竟能全節自守其詩有	-13.6634
夜雨獨傷神在東府有云對	-13.6634
所謂施諸廊廟則駭矣	-13.6634
梁周翰詩曰誰似金華楊學	-13.6634
氣接巫峽長月出寒通雪山白	-13.6634
疇昔之夜飛鳴而過我者	-13.6634
發何處家家嬉笑穿雲去露芽錯落一	-13.6634
綴玉含珠散嘉樹終朝采掇未盈	-13.6634
罋	-13.6634
自意嫌輕不知織女螢	-13.6634
踏春陽無處春陽不	-13.6634
金華汪仲儀母王氏	-13.6634
雨又云對床老兄弟夜雨鳴竹屋	-13.6634
䄖	-13.6634
中散大夫河南尹杜君墓誌	-13.6634
仰視飛鳶跕跕	-13.6634
伐木丁丁鳥鳴嚶嚶出自幽谷遷	-13.6634
夜色月如流朝來自覺承恩	-13.6634
大凡立意之初必有難易二塗學者不能	-13.6634
夫人感極則悲悲定而後喜忽聞大	-13.6634
平生謬作安昌客略遣彭宣到後堂	-13.6634
擪	-13.6634
有畫觀摩詰之畫畫中有詩	-13.6634
率中原流寓之人同歸以青春和暖之時	-13.6634
瘉	-13.6634
經舉果知因譬如蓮花方其吐花而果具	-13.6634
聞過仲舒報政列城歸覲後疏恩髙閣拜	-13.6634
舌泠泠詞調新當時狎客	-13.6634
詩云意中流水逺愁外舊山青	-13.6634
貴衆中傑出如同賦一事工拙尤易見	-13.6634
踦	-13.6634
辠	-13.6634
附予曰有先後予曰有奔	-13.6634
雖不盡如此如三月桃花浪	-13.6634
鰓	-13.6634
􁆠	-13.6634
來頭併白相見眼終青	-13.6634
不喻此語及倅錢	-13.6634
萬頃波濤木葉飛笙簫	-13.6634
歡華不滿眼咎責塞兩儀	-13.6634
者頗衆獨李師中待制一篇為人傳誦	-13.6634
耳冷心灰百不聞	-13.6634
也春之盎盎不足	-13.6634
亨衢照紫泥靈虬傳夕箭	-13.6634
其和也秋之明潔不足	-13.6634
凉望鄉國得句仲宣樓	-13.6634
彌堅而酌不竭使學者少窺其一	-13.6634
求精粹不敢貪研膏焙乳有雅製方中圭	-13.6634
窈窕一川花謂包含數箇意	-13.6634
至道中得義山詩百餘篇至	-13.6634
船鷗鳥近人渾不畏一雙飛下鏡中天	-13.6634
詩曰客舍并州三十霜歸心日夜憶咸陽	-13.6634
韓之文法也詩文各有體韓以文	-13.6634
黑露冷蓮房墜粉紅	-13.6634
以是論賢不肖之實亦何可欺乎	-13.6634
李波小妹字雍容	-13.6634
深深字若無穿字欵欵字若無㸃字	-13.6634
蓬萊如可到衰白問羣仙	-13.6634
時走馬回北人初識越人梅清香莫把酴	-13.6635
三首皆韻險而語工非大手筆不能到也	-13.6635
伯仲之間見伊吕指揮若定失蕭曹	-13.6635
出以問張華華曰此地仙九	-13.6635
愞	-13.6635
接席顧介甫曰宜對太液池故	-13.6635
返蟻難尋穴歸禽易見	-13.6635
不指言時事是非意言時事多不便不得	-13.6635
吁嗟天産石上英論功不愧	-13.6635
愛慕而不能釋手公嘗論義山詩以	-13.6635
清千日之醉我可醒屈原試與招魂魄劉	-13.6635
狭	-13.6635
申國長公主為尼	-13.6635
睱	-13.6635
不多見然精深有味語不徒發正類其文	-13.6635
九江垂死病中驚起坐暗風吹雨入寒	-13.6635
十暑岷山葛三霜楚户	-13.6635
士衡文賦云立片言以居要乃一篇之警	-13.6635
姉	-13.6635
宫是未嘗六月在驪山也然荔	-13.6635
彼行潦挹彼注兹	-13.6635
拂雲晴亦雨江豚吹浪夜還風	-13.6635
撅	-13.6635
河嶽英靈集首列常建詩愛其山光	-13.6635
淈	-13.6635
烺	-13.6635
無熖影幢幢此夕聞君	-13.6635
照水千尋迥棲烟一㸃明	-13.6635
茶味兮輕醍醐	-13.6635
荷戈士窮年守邊疆此仁人君子之用心	-13.6635
餈	-13.6635
鴻鵠不易得便令作對隨家	-13.6635
吟繹聲也失勢一落千丈强順下聲也	-13.6635
無定枝陽臺雲雨夢中歸他年蓬島音塵	-13.6635
詧	-13.6635
貝州司法叅軍李君墓誌	-13.6635
可噉水飯若作酒	-13.6636
厩	-13.6636
調馬舊賜銅山許鑄錢	-13.6636
使賀且未死少加以理奴僕命騷可也	-13.6636
包藴宻緻演繹平暢味無窮而炙愈出	-13.6636
定林後詩精深華妙非少作之比嘗作	-13.6636
復憶襄陽孟浩然清詩句句盡堪傳	-13.6636
笠一鈎絲金鱗正在深處千尺也	-13.6636
謂樂天有鬻駱馬放楊	-13.6636
警䇿歐公又愛建竹徑通幽處禪房花	-13.6636
間品第胡能欺十目視而十手指勝若登	-13.6636
餘年西復東勞生薄宦等飛蓬所存舊業	-13.6636
鼎磨雲外首山銅	-13.6636
丘園無起日江漢有東流近世詩人	-13.6636
之至也不知手之舞之足之蹈之故曰漫	-13.6636
巴蜀愁誰語吳門興杳然	-13.6636
此等力量不容他人到	-13.6636
草根南澗水泠泠繰成白雪桑重	-13.6636
連村暗黄花入麥稀此句最善又云	-13.6636
首與香奩集中無題韻正同	-13.6636
深之以離騷九歌安能咀嚼其意味闖	-13.6636
匈	-13.6636
南山與秋色氣勢兩相髙	-13.6636
去年今日此門中人面桃花相映紅人面	-13.6636
撙	-13.6636
八萬四千偈他日如何舉似人	-13.6636
子厚亦從旁解之遂薄其罪子厚嘗	-13.6636
盼一回首三十六宫無粉光	-13.6636
凘	-13.6636
旌旗倒玉帳佳人坐中老香魂夜逐	-13.6636
可以表裏雅頌中古作者莫及	-13.6636
有大羊羊髯有珠人取	-13.6636
李華弔古戰塲文	-13.6636
但有雲頭月曾照當時	-13.6636
如金銅仙人辭漢歌補梁庾肩吾	-13.6636
子由云寒燈相對記疇昔夜雨何時	-13.6636
有承平之遺風其論詩曰梅止	-13.6636
柯如青銅根如石	-13.6636
􁱝	-13.6636
䰞	-13.6636
乎為歐陽文忠公所稱其他古體	-13.6636
以意逆志人豈難	-13.6636
側畔楊花過簾幙中間燕子飛	-13.6636
其恨怨悲愁也鯨呿	-13.6636
冱	-13.6636
執牙尺回刀剪破澄江色愁捻	-13.6636
寄巢生子不自啄羣鳥至今與哺雛	-13.6636
川風月笛聲中句法雖可及而意甚委曲	-13.6636
意俱含蓄者如九日詩曰明年此㑹知誰	-13.6636
旗妾在深宫那得知十四萬人齊	-13.6636
江五月平堤流邑人相	-13.6636
渭城朝雨裛輕塵客	-13.6636
無不愛者便知不曉矣識文章者當如	-13.6636
至矣而杜子美李太白以英偉絶世之	-13.6636
要悟入處悟入必自工夫中	-13.6636
驥子好男兒前年學語時	-13.6636
㴻	-13.6636
及唐人諸詩無不如此但晉宋間人	-13.6636
天上三辰次未免人間五鼎烹	-13.6636
字凡亭子皆可用不必滕王也	-13.6636
室復見太平顧視妻子知免流離故曰却	-13.6636
已具浮海航到今有遺恨不得窮扶桑	-13.6636
抏	-13.6636
據唐紀明皇以十月幸驪山至春即還	-13.6636
燕燕于飛差池其羽之子于歸	-13.6636
邊日出西邊雨道是無情	-13.6636
鍍	-13.6636
􁰙	-13.6636
㟧	-13.6637
地下之蟄龍非不臣而何神宗曰	-13.6637
可如此論彼自詠檜何預朕事時相語塞	-13.6637
水曲蟻封疾徐中節而不	-13.6637
論詩平仲曰當作不經人道語曰斜拖闕	-13.6637
斜時可憐雨歇東風定萬樹千條各自垂	-13.6637
煙萬頃波粼粼玉堂學士今劉向禁直	-13.6637
城響濤頭入江昏雨脚斜	-13.6637
少汲後生中豪士也讀書作	-13.6637
盡絮飛留不得隨風好去落誰家樂天亦	-13.6637
義山者為多矣又嘗以錢惟演詩二十七	-13.6637
㕔事更不避其家諱何	-13.6637
一篇皆工拙相半古人文章類如此皆拙	-13.6637
世亂憐渠小家貧仰母慈	-13.6637
又受知於楚詩中有楚客之語題	-13.6637
固忌用巧太過然縁情體物自有天然工	-13.6637
夕陽無限好只是近黄昏	-13.6637
布置最得正體如官府甲第	-13.6637
無取使其皆工則峭急	-13.6637
[...]
