<unk>	0
<s>	0
</s>	0
(	-3.23948
/	-3.30267
)	-3.40024
也	-5.10189
者	-5.1142
兩	-5.15867
以	-5.19886
之	-5.2114
/)	-5.28531
一	-5.31148
而	-5.31373
用	-5.48694
治	-5.55583
)(	-5.6882
則	-5.70762
或	-5.71018
為	-5.74022
去	-5.85154
如	-5.8747
分	-5.9355
其	-5.97379
有	-5.9748
生	-6.01125
方	-6.03758
不	-6.06825
三	-6.0722
下	-6.07323
大	-6.08314
若	-6.1134
二	-6.13887
中	-6.15768
半	-6.17284
▁	-6.18547
氣	-6.18848
熱	-6.20179
故	-6.20905
及	-6.21203
散	-6.21638
上	-6.22479
此	-6.22899
甘草	-6.25371
炒	-6.29036
水	-6.30585
錢	-6.31433
入	-6.31801
服	-6.34108
於	-6.34872
一兩	-6.35256
病	-6.39269
出	-6.43456
即	-6.43972
子	-6.44129
内	-6.45674
五	-6.51242
與	-6.52627
無	-6.53539
湯	-6.55021
取	-6.55618
丸	-6.55707
又	-6.55827
人	-6.5654
藥	-6.56551
至	-6.57723
心	-6.60033
同	-6.61446
後	-6.63063
在	-6.64888
時	-6.67035
血	-6.67144
作	-6.67811
白	-6.67856
主	-6.70279
痛	-6.70929
加	-6.71361
各一	-6.71468
寒	-6.71617
皆	-6.73362
皮	-6.74161
食	-6.74353
亦	-6.74586
風	-6.75189
是	-6.75447
曰	-6.77236
乃	-6.77421
多	-6.79116
合	-6.81174
得	-6.82642
研	-6.8413
炙	-6.84413
四	-6.86709
見	-6.86935
火	-6.88753
和	-6.88796
煎	-6.90278
矣	-6.91032
當	-6.91263
人參	-6.91296
云	-6.92056
自	-6.92366
宜	-6.93378
頭	-6.93425
酒	-6.94928
黄	-6.95538
令	-6.95889
當歸	-6.99723
經	-7.0137
陽	-7.0182
日	-7.02646
飲	-7.03318
二兩	-7.04597
末	-7.05347
各	-7.06157
可	-7.07239
外	-7.08457
發	-7.09372
脉	-7.10045
小	-7.10237
因	-7.10923
右	-7.11882
隂	-7.12446
半兩	-7.13859
毒	-7.14678
冷	-7.15086
○	-7.16701
行	-7.17308
必	-7.17616
實	-7.17681
止	-7.17878
草	-7.18733
根	-7.18851
肉	-7.19461
少	-7.20227
法	-7.22097
附子	-7.2298
剉	-7.23088
先	-7.23152
瘡	-7.2441
然	-7.25593
葉	-7.25685
乾	-7.26173
急	-7.27216
温	-7.28235
非	-7.28458
凡	-7.28716
復	-7.29042
不能	-7.30339
能	-7.30458
從	-7.30547
數	-7.30655
已	-7.30728
成	-7.30942
白术	-7.3112
重	-7.31386
服之	-7.31472
腫	-7.31645
石	-7.31794
黄連	-7.32281
今	-7.32428
木	-7.33077
半夏	-7.34151
切	-7.34169
言	-7.34257
一錢	-7.34741
謂	-7.34765
所	-7.35056
但	-7.35274
目	-7.35355
通	-7.35368
傷	-7.35522
大黄	-7.36607
汁	-7.37038
六	-7.37557
諸	-7.37573
骨	-7.37625
赤	-7.38078
土	-7.3814
名	-7.3829
防風	-7.39307
穴	-7.39782
木香	-7.40295
七	-7.40306
耳	-7.41175
微	-7.41186
傷寒	-7.41998
細	-7.43198
虚	-7.43254
註	-7.44622
出聖	-7.45164
乾薑	-7.46247
更	-7.46496
間	-7.48919
未	-7.48939
并	-7.49158
本	-7.49449
甚	-7.49759
使	-7.50611
不可	-7.51036
便	-7.51072
黄芩	-7.51477
寒熱	-7.52128
金	-7.52427
證	-7.52833
療	-7.53568
三兩	-7.53666
灸	-7.53685
反	-7.53704
正	-7.54244
雖	-7.5462
杏仁	-7.54639
又方	-7.5467
欲	-7.54772
肝	-7.55753
口	-7.55996
盡	-7.56239
腎	-7.56432
處	-7.56695
一名	-7.56984
並	-7.57634
炮	-7.57862
補	-7.58018
濕	-7.58059
為末	-7.58159
長	-7.58666
青	-7.58759
刺	-7.58821
解	-7.58926
生薑	-7.59071
脈	-7.59335
發熱	-7.60144
色	-7.60164
别	-7.60636
消	-7.60717
洗	-7.61049
升	-7.61177
小兒	-7.61192
去皮	-7.61232
起	-7.61436
一分	-7.61466
等	-7.61671
邪	-7.62281
再	-7.62369
前	-7.62464
身	-7.62561
明	-7.6281
㣲	-7.62877
常	-7.63022
各二	-7.63452
似	-7.6347
茯苓	-7.63648
神	-7.63876
爲	-7.64204
平	-7.6433
脾	-7.64622
論	-7.64656
過	-7.65118
麝香	-7.65423
愈	-7.65514
柴胡	-7.65523
疾	-7.65526
膏	-7.65576
死	-7.65978
桂心	-7.66191
利	-7.66303
二錢	-7.66485
于	-7.66616
結	-7.66879
兼	-7.67024
八	-7.67207
三分	-7.67636
肺	-7.69045
足	-7.69245
不得	-7.69353
焙	-7.69481
苦	-7.69593
化	-7.69717
安	-7.69733
精	-7.70185
十	-7.70312
清	-7.70562
黒	-7.71046
汗	-7.71231
天	-7.71572
物	-7.72266
麻黄	-7.72408
各半	-7.72553
患	-7.72585
燥	-7.727
動	-7.73536
俱	-7.73541
芍藥	-7.73807
陰	-7.75013
燒	-7.75388
盛	-7.75765
熟	-7.76732
各三	-7.76891
吐	-7.7742
候	-7.77952
開	-7.77968
除	-7.78257
胃	-7.78415
相	-7.78467
花	-7.79264
細辛	-7.79739
類	-7.80091
丹	-7.8046
難	-7.80913
形	-7.81345
手	-7.81701
右為末	-7.82174
調	-7.8239
香	-7.82686
積	-7.82692
痰	-7.82703
門	-7.82807
桂	-7.82931
極	-7.83359
夫	-7.83438
麥門冬	-7.85057
地	-7.85253
煮	-7.85706
滿	-7.85941
惠方	-7.85995
將	-7.86277
藏	-7.86722
每	-7.87635
散治	-7.87778
枳殻	-7.87833
疼痛	-7.88008
定	-7.88561
浮	-7.88704
乳	-7.89359
石膏	-7.89381
桔梗	-7.8957
次	-7.89729
主之	-7.8986
破	-7.90391
眼	-7.90514
九	-7.90687
腹痛	-7.90723
四兩	-7.90781
醫	-7.91091
易	-7.91327
節	-7.91493
屬	-7.91553
五錢	-7.91764
浸	-7.91949
蟲	-7.92295
惟	-7.92391
須	-7.92976
婦人	-7.94316
按	-7.94709
川芎	-7.94983
引	-7.95025
厚朴	-7.95216
真	-7.9522
灰	-7.95543
新	-7.96167
知	-7.96222
乎	-7.96905
塗	-7.97788
連	-7.98526
飲食	-7.98768
小便	-7.99017
既	-7.99064
治之	-7.99373
升麻	-7.99697
損	-7.9985
陳皮	-8.0045
虛	-8.00528
枚	-8.00713
著	-8.00782
四肢	-8.00942
驚	-8.01313
衇	-8.02163
應	-8.02244
之氣	-8.02278
手足	-8.02396
致	-8.02592
絶	-8.0278
忌	-8.02928
山	-8.02958
不止	-8.03204
頭痛	-8.03302
泄	-8.03742
惡	-8.03909
何	-8.04082
紅	-8.04462
汗出	-8.04852
蜜	-8.05159
面	-8.05401
五分	-8.05657
傳	-8.05685
三錢	-8.05772
令人	-8.05991
久	-8.06208
醋	-8.06696
變	-8.06976
年	-8.07049
來	-8.07314
兒	-8.07444
鼻	-8.07686
腹	-8.07806
初	-8.08447
牛膝	-8.08904
各一兩	-8.09104
且	-8.09258
五味子	-8.09322
瀉	-8.09542
隨	-8.09589
症	-8.09954
味	-8.10079
去蘆	-8.10148
附	-8.10269
痘	-8.10522
漸	-8.10746
脾胃	-8.10877
遂	-8.11359
益	-8.11423
逆	-8.11504
筋	-8.11521
勞	-8.11682
隂陽	-8.11957
一升	-8.11958
大便	-8.12408
雄黄	-8.12441
深	-8.12679
百	-8.12814
仍	-8.13041
謂之	-8.13866
胎	-8.14013
好	-8.14209
許	-8.14215
針	-8.1442
家	-8.14435
恐	-8.14557
白芷	-8.14985
伏	-8.15026
道	-8.15041
亦可	-8.15084
轉	-8.15236
巴豆	-8.15573
少許	-8.15614
勝	-8.15716
空心	-8.15758
丸治	-8.15779
始	-8.16187
所以	-8.16377
魚	-8.16702
右為細末	-8.16712
理	-8.1708
用之	-8.17253
蒸	-8.17264
性	-8.17612
生地黄	-8.18357
毛	-8.18361
固	-8.18538
音	-8.188
太陽	-8.19057
州	-8.19095
黄耆	-8.19416
白茯苓	-8.19454
油	-8.19604
熬	-8.19642
陽氣	-8.19985
夜	-8.20018
月	-8.20243
堅	-8.20281
食之	-8.20345
餘	-8.20424
陽明	-8.20478
邪氣	-8.2118
搗	-8.21425
薑	-8.21452
盖	-8.22003
黑	-8.2211
嘔吐	-8.22826
湯治	-8.2321
中風	-8.23341
之劑	-8.23365
王	-8.23431
裏	-8.23474
獨	-8.24134
爛	-8.24265
注	-8.2474
桃仁	-8.25009
之類	-8.2512
治小兒	-8.25199
緩	-8.2527
而不	-8.25325
鹽	-8.25599
元	-8.25939
字	-8.26
善	-8.26301
製	-8.26665
厥	-8.2681
攻	-8.26978
細研	-8.27044
滑	-8.27335
芎藭	-8.27532
㵼	-8.27551
疼	-8.27777
膿	-8.28013
冬	-8.28061
㸃	-8.28079
煑	-8.28152
方見	-8.28259
差	-8.28347
出聖濟	-8.28747
之藥	-8.28749
甘	-8.28954
由	-8.29454
氣血	-8.29689
血氣	-8.29691
體	-8.29779
左	-8.30009
暴	-8.30543
劑	-8.30651
鍼	-8.31118
效	-8.31237
流	-8.31375
莖	-8.31378
粉	-8.31509
立	-8.31698
紫	-8.31854
而愈	-8.31994
失	-8.32086
圓	-8.32217
米	-8.32259
脹	-8.32334
木通	-8.32618
下之	-8.32668
夏	-8.32761
腹脹	-8.32984
痺	-8.32993
勿	-8.33126
近	-8.33243
枳實	-8.33399
表	-8.33411
齒	-8.33502
弱	-8.3351
良	-8.33564
稍	-8.33873
脚	-8.34012
丁香	-8.34035
是也	-8.34212
名曰	-8.34213
輕	-8.34294
去心	-8.34303
馬	-8.34678
薄	-8.34727
乳香	-8.35297
煨	-8.35701
强	-8.35845
指	-8.35849
文	-8.35895
貼	-8.35944
葢	-8.36339
收	-8.3638
要	-8.36938
腸	-8.36951
腫痛	-8.37025
蒼术	-8.37181
春	-8.37186
知母	-8.37186
各五	-8.37957
背	-8.38277
衣	-8.38301
集	-8.38787
留	-8.39394
羌活	-8.39461
覺	-8.39562
等分	-8.39631
酸	-8.40202
蓋	-8.40208
酒浸	-8.4032
蘆	-8.40394
部	-8.40749
桂枝	-8.4082
膽	-8.40957
陳	-8.41084
母	-8.41128
也若	-8.41443
腹中	-8.41822
乆	-8.41844
養	-8.41849
臍	-8.42163
煩	-8.42176
津液	-8.42188
不通	-8.42219
全	-8.42258
沉	-8.42301
仁	-8.42458
食後	-8.42523
硃砂	-8.42695
却	-8.43059
舌	-8.43087
瘧	-8.43322
一枚	-8.4358
身熱	-8.4378
膀胱	-8.43789
直	-8.43852
㯽榔	-8.43975
不足	-8.4405
痢	-8.44312
嘔	-8.4455
阿膠	-8.44627
喜	-8.44646
受	-8.44905
果	-8.45199
滯	-8.45957
三日	-8.46447
赤茯苓	-8.46745
聲	-8.46806
碎	-8.4789
喘	-8.4794
秋	-8.48232
閉	-8.48313
故也	-8.48672
少隂	-8.48877
澁	-8.49068
角	-8.49324
滑石	-8.49373
一方	-8.49555
歌	-8.49899
忽	-8.5016
條	-8.50192
赤芍藥	-8.50489
潤	-8.505
所謂	-8.50604
風熱	-8.50993
總録	-8.51043
太	-8.51136
退	-8.51195
胃氣	-8.51309
産	-8.51326
一切	-8.51524
投	-8.52371
産後	-8.52642
辛	-8.52789
異	-8.52828
書	-8.52967
遇	-8.5305
厚	-8.53564
一日	-8.53703
亦有	-8.53748
下利	-8.53799
蛇	-8.53826
髙	-8.53951
斤	-8.53994
意	-8.5413
两	-8.54191
温服	-8.5427
連翹	-8.54454
獨活	-8.5446
葛根	-8.54468
榮	-8.54579
不利	-8.54586
各等	-8.54599
者為	-8.54951
為度	-8.54965
進	-8.54996
之病	-8.55039
傅	-8.55291
皮膚	-8.55349
惡寒	-8.55352
時珍曰	-8.55768
右用	-8.55866
老	-8.55896
歸	-8.56106
故曰	-8.56123
軟	-8.5615
共	-8.56279
者宜	-8.56344
燒灰	-8.56451
卧	-8.56646
煩躁	-8.56681
少陽	-8.56715
猶	-8.56875
上下	-8.56986
度	-8.57292
濕熱	-8.57562
豆	-8.57586
事	-8.57691
涎	-8.5802
此藥	-8.58069
二十	-8.58122
麻	-8.58236
三焦	-8.58423
每服	-8.585
煎服	-8.58582
恵方	-8.58616
溫	-8.58794
湯下	-8.58829
尖	-8.59014
原	-8.59144
片	-8.59302
狀	-8.59302
棗	-8.59349
如此	-8.59518
居	-8.59631
犀角	-8.59779
薄荷	-8.60015
不知	-8.60056
去滓	-8.60101
經絡	-8.60154
畏	-8.60222
焉	-8.60307
飲之	-8.60722
命	-8.60771
大棗	-8.60923
二分	-8.60972
毎	-8.61005
烏	-8.61077
黄茋	-8.61283
元氣	-8.61478
卷	-8.61504
大腸	-8.61505
茶	-8.61621
脂	-8.6165
張	-8.61656
淋	-8.61899
絡	-8.61964
核	-8.61997
順	-8.62246
斷	-8.62492
卒	-8.62704
又云	-8.62776
視	-8.62827
肉桂	-8.62859
詳	-8.62861
一斤	-8.62932
前胡	-8.63286
焦	-8.63317
龍骨	-8.63376
爾	-8.63696
主治	-8.63838
腹滿	-8.64023
海	-8.64126
此方	-8.64208
誤	-8.64378
制	-8.64438
走	-8.64512
癰	-8.64572
心痛	-8.64743
只	-8.64926
五臟	-8.65134
濇	-8.65403
白礬	-8.65512
之證	-8.65681
腦	-8.65687
天麻	-8.65933
十二	-8.66441
食前	-8.66662
壯	-8.66682
偏	-8.67103
臟腑	-8.67148
下血	-8.67155
枯	-8.67251
弦	-8.67778
肌肉	-8.67983
逺志	-8.68202
妙	-8.68363
衰	-8.68373
黃	-8.68399
疳	-8.68527
地骨皮	-8.68735
漿	-8.6875
塞	-8.6894
龍	-8.69031
然後	-8.69057
禁	-8.69371
渇	-8.69415
仲景	-8.69481
亂	-8.6962
李	-8.69749
人参	-8.69799
雞	-8.69939
小便不利	-8.69973
力	-8.70052
身體	-8.70052
胸中	-8.70204
發汗	-8.7035
橘皮	-8.70418
不用	-8.7044
則為	-8.70491
減	-8.70509
敗	-8.7077
置	-8.70918
苗	-8.7106
潰	-8.71127
梔子	-8.71337
風寒	-8.71394
欬	-8.71571
喫	-8.71664
白芍藥	-8.71902
青皮	-8.71904
予	-8.71911
一服	-8.72066
布	-8.72156
𦂳	-8.72175
腰	-8.72284
用藥	-8.72362
得之	-8.72551
痞	-8.72689
坐	-8.72742
種	-8.72899
日三服	-8.73122
聚	-8.73255
痒	-8.73283
嵗	-8.735
鬱	-8.73584
女	-8.73719
焙乾	-8.73754
速	-8.73843
落	-8.74263
余	-8.74366
之後	-8.74451
宿	-8.74462
病人	-8.74697
南	-8.74771
其病	-8.74823
以為	-8.74879
遲	-8.74908
者以	-8.75012
風邪	-8.75064
宜服	-8.75233
即愈	-8.75464
殻	-8.75621
所致	-8.75626
交	-8.75719
菜	-8.75842
脚氣	-8.76058
作痛	-8.76256
傅之	-8.76325
可以	-8.76424
泥	-8.76441
枝	-8.76667
息	-8.76909
渴	-8.7695
者是	-8.77168
𫝊	-8.77275
氏	-8.77349
尺	-8.77392
之間	-8.77496
日三	-8.77596
生瘡	-8.77659
竹	-8.77874
雜	-8.77906
太隂	-8.77945
熱毒	-8.78003
両	-8.78037
玉	-8.78068
之法	-8.78121
其人	-8.78517
硫黄	-8.78607
牛	-8.78754
其氣	-8.78829
荆芥	-8.78887
臟	-8.78946
牛黄	-8.79023
㪚	-8.79096
悶	-8.79482
胸	-8.79587
脱	-8.79631
已上	-8.79683
古	-8.79753
君	-8.79765
府	-8.79767
五味	-8.80351
半錢	-8.8045
咳𠻳	-8.80608
者死	-8.80791
陳橘皮	-8.80798
疽	-8.80931
殺	-8.81027
沈	-8.81059
五藏	-8.81266
語	-8.8128
各半兩	-8.81343
腰痛	-8.8145
還	-8.81483
不同	-8.81556
硬	-8.81559
塗之	-8.81568
暑	-8.81773
脫	-8.81979
茯神	-8.82073
杵	-8.82282
飛	-8.8234
先以	-8.82427
了	-8.825
參	-8.8261
右以	-8.82611
空	-8.82961
治法	-8.82998
水煎服	-8.83096
問	-8.83153
皮臍	-8.83213
瘥	-8.8332
腸胃	-8.83343
千金	-8.83378
兩半	-8.83638
烏頭	-8.83665
向	-8.83694
最	-8.83716
舉	-8.83783
桑白皮	-8.83808
感	-8.83855
闗	-8.83871
公	-8.83932
肥	-8.84024
早	-8.84098
毎服	-8.8425
烏梅	-8.84253
辨	-8.84488
炙各	-8.84766
舊	-8.84895
錢半	-8.85065
甲	-8.85254
甚者	-8.85262
寸	-8.85464
鬼	-8.85648
思	-8.85679
光	-8.85759
逐	-8.85809
帶	-8.86204
熟地黄	-8.86231
自汗	-8.86329
輕粉	-8.86419
膈	-8.86629
尚	-8.86673
水煎	-8.86675
貝母	-8.86787
病者	-8.86824
霍亂	-8.86843
志	-8.86881
葱	-8.86956
沉香	-8.86997
首	-8.87056
水銀	-8.87268
牡蠣	-8.87405
瘀血	-8.8776
降	-8.87993
聞	-8.88153
飯	-8.88246
經云	-8.8838
又有	-8.88386
炒各	-8.88508
煩熱	-8.88578
厥隂	-8.88609
五兩	-8.88764
地黄	-8.88795
一兩半	-8.88979
按之	-8.89126
小腸	-8.89216
器	-8.89335
糞	-8.89473
濁	-8.89613
再服	-8.89663
出本	-8.89699
鼈甲	-8.89791
有熱	-8.89831
無力	-8.90051
臭	-8.90055
麩炒	-8.90116
也故	-8.90313
而成	-8.90874
頓	-8.90874
澀	-8.9101
凝	-8.91087
素	-8.91241
朝	-8.91335
待	-8.91813
葱白	-8.92397
悉	-8.92428
取汁	-8.92545
本經	-8.92699
表裏	-8.92867
運	-8.92897
髪	-8.93118
煩悶	-8.93336
録	-8.93423
華	-8.93573
口乾	-8.93595
頻	-8.93618
臣	-8.93787
循	-8.93979
不食	-8.94079
看	-8.94113
亦得	-8.94305
心腹	-8.9432
液	-8.94486
以致	-8.94489
停	-8.94562
淡	-8.94786
小腹	-8.94907
露	-8.94958
哉	-8.94977
筋骨	-8.95167
吐血	-8.95205
粒	-8.95284
毒氣	-8.95322
擣	-8.95398
箇	-8.95579
咳嗽	-8.95595
常服	-8.9575
煆	-8.95972
治傷寒	-8.961
煖	-8.96269
取出	-8.9633
一丸	-8.96338
各四	-8.96343
靈	-8.96408
蘇	-8.96507
尾	-8.96581
項	-8.96831
㣲炒	-8.96859
之時	-8.96899
歲	-8.97026
龍腦	-8.97095
者有	-8.97113
効	-8.97235
客	-8.97375
求	-8.97622
本草	-8.97767
研細	-8.97883
樹	-8.9802
丹砂	-8.98081
者此	-8.98084
漏	-8.98168
着	-8.98179
都	-8.98396
大小	-8.98554
緊	-8.98558
車前子	-8.98748
猪	-8.98769
▁(	-8.99051
下焦	-8.99073
嘔逆	-8.99126
壅	-8.99153
之人	-8.99173
榮衛	-8.99174
犯	-8.99303
具	-8.99307
出血	-8.9937
脹滿	-8.99401
七日	-8.99443
被	-8.99637
透	-8.99664
關	-8.99681
尤	-8.99738
而為	-8.99837
廣	-8.99926
臨	-9.00102
杜仲	-9.00276
白附子	-9.00338
覆	-9.00454
甚則	-9.00486
短氣	-9.00497
粥	-9.00504
秘	-9.00756
採	-9.01025
千	-9.01055
不出	-9.0113
竅	-9.01147
癰疽	-9.01241
胡	-9.01307
榖	-9.01461
𠻳	-9.01463
唐	-9.01475
膝	-9.01496
依	-9.015
微炒	-9.01505
沸	-9.01589
象	-9.01595
竭	-9.01935
男子	-9.021
下痢	-9.02159
藿香	-9.02273
咽	-9.02358
倍	-9.02372
為細末	-9.02436
害	-9.02474
篇	-9.025
東	-9.02532
砂	-9.02578
椒	-9.02735
痔	-9.02773
牡丹皮	-9.02831
薑汁	-9.02893
量	-9.02925
减	-9.02957
經曰	-9.03035
齊	-9.03051
珍	-9.03068
赤石脂	-9.03096
遍身	-9.03132
入藥	-9.03139
論曰	-9.03177
不已	-9.03208
左右	-9.03295
紙	-9.03651
天南星	-9.03709
二升	-9.03747
萬	-9.03844
苦參	-9.03856
氣虚	-9.03944
驗	-9.03956
不及	-9.03962
各一錢	-9.04008
世	-9.0401
㑹	-9.04073
旋	-9.04103
佳	-9.04264
口中	-9.04427
大熱	-9.04446
服藥	-9.04474
心煩	-9.04523
牙	-9.04629
羊	-9.04636
三升	-9.04671
治婦人	-9.04732
就	-9.04798
胞	-9.0507
銀	-9.05096
穀	-9.05177
對	-9.05254
鬚	-9.05275
遺	-9.05395
艾	-9.05766
北	-9.05874
一合	-9.06101
氣逆	-9.06194
先用	-9.06194
不行	-9.06253
者用	-9.06258
灌	-9.06345
衝	-9.06367
頂	-9.06408
将	-9.06521
喉	-9.06794
折	-9.06836
黄丹	-9.06952
三十	-9.07239
自然	-9.07263
者也	-9.07287
活	-9.07422
臂	-9.0757
疹	-9.0784
又曰	-9.08192
青黛	-9.08246
蠟	-9.08328
大者	-9.08393
診	-9.08405
為主	-9.08496
嗽	-9.08561
石斛	-9.08617
補之	-9.08631
麵	-9.08673
𢷬	-9.08713
代	-9.08721
心下	-9.08736
總	-9.08768
紅花	-9.08813
強	-9.08833
彼	-9.08899
以上	-9.08913
納	-9.0902
狂	-9.09184
宣	-9.09185
肩	-9.09289
炙甘草	-9.09332
或因	-9.09359
併	-9.0942
終	-9.095
呼	-9.09925
酥	-9.09976
驚悸	-9.10087
無汗	-9.10133
茴香	-9.10138
者皆	-9.10192
澤	-9.10302
凉	-9.10404
尿	-9.10439
位	-9.10457
生用	-9.10556
疑	-9.10697
菖蒲	-9.10859
澤瀉	-9.109
不治	-9.10907
湯主之	-9.10967
莫	-9.11034
續	-9.11046
𤣥參	-9.11086
附方	-9.11159
高	-9.11424
磨	-9.11493
出千	-9.11512
来	-9.11688
孔	-9.11705
山藥	-9.11706
精神	-9.11707
内熱	-9.11871
麫	-9.11916
木𤓰	-9.11999
短	-9.12016
屑	-9.12122
勢	-9.12274
逺	-9.12282
端	-9.12576
躁	-9.12582
唾	-9.126
人之	-9.1264
一箇	-9.12727
蒲黄	-9.12755
上氣	-9.12761
癎	-9.12823
去皮尖	-9.12834
川	-9.12845
檳榔	-9.12862
金方	-9.12882
耶	-9.12978
生地	-9.12996
米飲下	-9.13109
積聚	-9.13228
含	-9.13251
遍	-9.13292
者必	-9.13338
周	-9.13347
野	-9.13468
二味	-9.13812
酒下	-9.13941
血虚	-9.14017
胸膈	-9.14041
巳	-9.14139
川大黄	-9.14184
蒜	-9.14185
約	-9.14333
隂氣	-9.14394
芒硝	-9.14466
推	-9.14924
内外	-9.14948
竹葉	-9.1496
裹	-9.14984
睡	-9.15031
珠	-9.15039
綿	-9.15092
洩	-9.15166
救	-9.15237
神效	-9.15264
已上各	-9.15355
西	-9.15471
説	-9.1556
觀	-9.15594
一盞	-9.1561
属	-9.15618
也其	-9.1565
宜用	-9.15763
稱	-9.15899
澤㵼	-9.16002
漬	-9.16017
此為	-9.16088
之所	-9.16163
鹹	-9.16172
疝	-9.16335
上焦	-9.16649
危	-9.16718
無時	-9.16769
不解	-9.1701
溺	-9.17072
雨	-9.1718
麥	-9.17195
扵	-9.17287
充	-9.17332
有餘	-9.17449
男	-9.17469
義	-9.17488
守	-9.17806
斑	-9.17838
益氣	-9.17867
鳴	-9.17961
酒服	-9.17961
横	-9.18085
膠	-9.18098
女子	-9.1816
壯熱	-9.18181
地榆	-9.18275
例	-9.1843
不安	-9.18467
雄	-9.18565
治風	-9.18635
面赤	-9.18659
即止	-9.18753
豉	-9.18791
赤小豆	-9.19016
不能食	-9.19281
餅	-9.19354
衂	-9.19409
正氣	-9.19546
惡瘡	-9.19583
唇	-9.19588
辟	-9.19594
乗	-9.19622
咽喉	-9.19641
沙	-9.19705
冷氣	-9.19814
鐵	-9.19937
困	-9.1994
暖	-9.19979
濟	-9.19983
越	-9.20035
半斤	-9.20042
蜀椒	-9.20139
糯米	-9.20161
所傷	-9.2023
亡	-9.20262
天門冬	-9.20302
琥珀	-9.20389
痿	-9.20435
去白	-9.20435
時時	-9.20453
香附	-9.20465
太過	-9.20475
良方	-9.20484
殊	-9.20562
下部	-9.20867
痰飲	-9.20879
半升	-9.209
摩	-9.20921
癢	-9.2095
取之	-9.20996
潮熱	-9.2101
髮	-9.21105
十四	-9.21125
豈	-9.21279
俞	-9.21281
塩	-9.21311
山梔	-9.21471
术	-9.21495
淨	-9.21497
信	-9.21598
熱氣	-9.21866
泡	-9.2189
黄色	-9.21929
四分	-9.22064
勿令	-9.2213
羚羊角	-9.22349
癖	-9.22386
塊	-9.22423
師	-9.2261
以水	-9.22636
其脉	-9.22677
攪	-9.2275
狀如	-9.22863
妄	-9.22953
夾	-9.22978
津	-9.23004
皂角	-9.23153
斯	-9.23162
煎湯	-9.23193
鷄	-9.23238
皂莢	-9.23287
助	-9.23352
桃	-9.23543
陰陽	-9.23645
隔	-9.23655
湏	-9.23656
酸棗仁	-9.23689
功	-9.23769
水氣	-9.23868
腐	-9.23872
耳聾	-9.23948
四時	-9.24184
麥冬	-9.24188
不過	-9.24241
銅	-9.24246
五日	-9.24249
官	-9.24322
解毒	-9.24368
明目	-9.24414
瘡口	-9.24446
濡	-9.24518
婦	-9.2474
移	-9.24887
熱病	-9.24889
一方用	-9.24925
任	-9.24956
去粗	-9.2505
肌	-9.25122
别研	-9.25177
之中	-9.2543
陷	-9.25454
吹	-9.25506
翳	-9.25524
敷	-9.2558
不消	-9.25763
虚寒	-9.25768
諸藥	-9.25778
風濕	-9.2583
五十	-9.25905
等證	-9.26022
芫花	-9.26022
白芍	-9.26279
溢	-9.26312
同煎	-9.26373
專	-9.26376
適	-9.26567
口噤	-9.26605
四物湯	-9.26669
胃中	-9.26727
官桂	-9.26776
七分	-9.26854
南星	-9.26871
嘗	-9.26876
持	-9.2689
嚼	-9.26941
縱	-9.26942
防己	-9.26982
耗	-9.27608
圖	-9.27627
一人	-9.27661
中有	-9.27691
者乃	-9.27832
衛	-9.27844
各二兩	-9.27885
空心服	-9.27932
是以	-9.27935
下氣	-9.27953
藤	-9.27976
不拘時	-9.27981
盞	-9.27997
設	-9.28151
内傷	-9.28157
治一切	-9.28214
拌	-9.28336
百病	-9.2835
滴	-9.28547
比	-9.2884
梔子仁	-9.28942
吞	-9.28966
散治小兒	-9.29041
集解	-9.29101
五苓散	-9.29258
一劑	-9.29335
懸	-9.29445
涼	-9.29449
加減	-9.29471
怒	-9.2949
頭面	-9.29591
大抵	-9.29844
肉蓯蓉	-9.299
也然	-9.2996
湯洗	-9.30014
右㕮咀	-9.30051
不應	-9.30064
歳	-9.30082
去粗皮	-9.30165
聖	-9.30176
虗	-9.30186
而後	-9.30346
紫蘇	-9.3041
惡風	-9.30455
縮	-9.30522
美	-9.30607
有毒	-9.30622
利小便	-9.30625
此證	-9.30649
𤓰	-9.30695
數日	-9.30721
在内	-9.31086
病也	-9.3117
載	-9.31229
不拘時候	-9.31262
各等分	-9.31277
鹿茸	-9.31278
頸	-9.31287
頭疼	-9.31303
觧	-9.31339
噦	-9.31369
雲	-9.31424
黄蘗	-9.31437
星	-9.31559
肌膚	-9.31767
不下	-9.31808
灸之	-9.31885
隂虚	-9.31919
膿血	-9.31936
蠱	-9.31938
赤白	-9.32058
去黒	-9.32434
憂	-9.3255
乍	-9.32585
三月	-9.32737
打	-9.32818
存	-9.33132
倒	-9.33155
補中益氣湯	-9.33162
一二	-9.3318
膩粉	-9.33189
虎	-9.3322
腎氣	-9.33442
衆	-9.33457
曲	-9.33592
釋名	-9.33627
放	-9.33642
煉	-9.33677
患處	-9.33684
日二	-9.33687
傷風	-9.33723
去苗	-9.33741
十五	-9.33782
記	-9.33814
癰腫	-9.33987
實熱	-9.34085
乘	-9.34133
藁本	-9.34313
而已	-9.34366
昏	-9.34424
屎	-9.34458
另	-9.34491
羅	-9.3452
髓	-9.34648
去皮臍	-9.34668
方用	-9.34902
肺氣	-9.34968
之邪	-9.35072
虚實	-9.35083
營	-9.3523
証	-9.35251
吐逆	-9.35301
朴硝	-9.35335
不思飲食	-9.35391
粳米	-9.35426
一寸	-9.35501
國	-9.35582
快	-9.35621
一宿	-9.35882
不宜	-9.35885
八分	-9.35946
心中	-9.3595
施	-9.35984
宻	-9.3613
徐	-9.36274
風冷	-9.36381
脇	-9.36495
疏	-9.36511
離	-9.36543
者加	-9.3659
貫	-9.36665
腹内	-9.36736
佐以	-9.36922
臍下	-9.36964
裂	-9.37006
脾土	-9.37173
江	-9.37181
羗活	-9.3724
者亦	-9.37319
隂乾	-9.37371
達	-9.37433
搐	-9.37524
十日	-9.3757
寒邪	-9.37823
研末	-9.37947
積熱	-9.37996
井	-9.37997
松	-9.38085
調下	-9.38112
少腹	-9.38212
滓	-9.38377
期	-9.38384
朱	-9.38458
穴也	-9.38597
為病	-9.38649
者謂	-9.38758
至於	-9.38805
全蝎	-9.38826
傍	-9.3892
五靈脂	-9.38954
唯	-9.39003
心火	-9.39045
三寸	-9.3906
為之	-9.39189
飲酒	-9.39299
五升	-9.39305
胸滿	-9.39406
泉	-9.39447
不調	-9.39538
承	-9.3956
續斷	-9.39676
二劑	-9.39699
俗	-9.39808
宗	-9.39896
四十	-9.39972
冝	-9.39997
無所	-9.40041
有所	-9.40063
淫	-9.4012
仙	-9.40134
而痛	-9.40242
浮腫	-9.40271
甘遂	-9.40298
也又	-9.40415
不見	-9.40536
無毒	-9.4054
川烏	-9.4055
一字	-9.40575
之脉	-9.40607
苖	-9.40624
姙娠	-9.40656
温酒下	-9.40698
三味	-9.40927
發明	-9.40957
慎	-9.41056
刀	-9.4118
淺	-9.4119
少氣	-9.41326
絲	-9.4143
邪熱	-9.41559
熱則	-9.41772
五合	-9.41882
瘕	-9.42032
五六	-9.42132
一種	-9.42276
喉痺	-9.42549
後方	-9.42679
東垣	-9.42707
菊花	-9.42748
而生	-9.42751
加味	-9.42768
吾	-9.42803
又以	-9.42825
浄	-9.42838
食前服	-9.42859
喘急	-9.42897
保	-9.42904
脾氣	-9.42912
川椒	-9.42935
稀	-9.42995
為丸	-9.43021
飲水	-9.43089
細切	-9.43167
天雄	-9.43183
柔	-9.43264
虚損	-9.43311
又名	-9.43315
又療	-9.43349
紫苑	-9.43355
與之	-9.43377
畧	-9.43402
犀角屑	-9.43488
備	-9.43532
多少	-9.43539
炮去	-9.4361
住	-9.4361
挾	-9.43674
之物	-9.43947
一两	-9.43974
艾葉	-9.43984
膚	-9.4404
肢體	-9.44128
不計時候	-9.44132
拘急	-9.44142
附論	-9.44148
咳	-9.4418
痰涎	-9.44193
發散	-9.44258
射干	-9.44378
胷中	-9.44459
灌之	-9.44536
瘀	-9.44611
浴	-9.44796
支	-9.44811
煅	-9.44884
肘	-9.44902
寒水石	-9.44916
生薑汁	-9.44951
辰砂	-9.44961
大豆	-9.44976
封	-9.4503
一月	-9.4518
净	-9.45263
寒濕	-9.45344
鼠	-9.45364
良久	-9.45408
重者	-9.45422
睛	-9.45476
初起	-9.45482
磁石	-9.45552
蘆頭	-9.45888
當以	-9.45898
不定	-9.45899
桑	-9.45987
單	-9.46172
夏月	-9.46197
朱砂	-9.46217
丁	-9.46237
更以	-9.46273
六分	-9.46353
亦不	-9.46371
貼之	-9.46527
天地	-9.46559
另研	-9.46623
其證	-9.4666
虚熱	-9.46725
薏苡仁	-9.46751
六兩	-9.46758
而反	-9.46767
况	-9.46806
吸	-9.46837
二穴	-9.46992
膜	-9.47044
導	-9.47069
羸瘦	-9.47124
曰此	-9.47262
竒	-9.4729
瘦	-9.47311
肚	-9.47322
不痛	-9.47335
譫語	-9.47353
竹瀝	-9.47419
寸口	-9.47447
荆芥穗	-9.47545
試	-9.47567
而安	-9.47613
虚則	-9.47666
騐	-9.47761
乾地黄	-9.47771
橘紅	-9.47905
疎	-9.47909
小麥	-9.47919
包	-9.47925
不愈	-9.4797
脊	-9.47992
審	-9.48026
煩渴	-9.48072
吉	-9.48104
而死	-9.48133
訖	-9.48225
頓服	-9.48396
腿	-9.48503
者則	-9.48545
燈心	-9.48567
底	-9.48597
粗	-9.48653
黄栢	-9.48736
生於	-9.48739
他	-9.48832
立效	-9.48867
桑根白皮	-9.48888
佐	-9.49003
去根	-9.49039
三陽	-9.49055
猪苓	-9.4918
過多	-9.49386
洪	-9.49437
延	-9.4946
和勻	-9.49583
取其	-9.49588
蜈蚣	-9.49767
臓	-9.49829
百合	-9.49884
脇下	-9.49963
湯調下	-9.50025
一方無	-9.50089
砂仁	-9.50396
惡血	-9.50519
不仁	-9.50736
臥	-9.50846
也凡	-9.50857
每用	-9.51001
去殻	-9.51152
金瘡	-9.51309
寧	-9.51316
說	-9.51375
湯浸	-9.51413
􁀙	-9.51461
皮毛	-9.51509
偶	-9.51558
楊	-9.51561
之症	-9.51586
䑕	-9.51609
右二味	-9.51636
生乾地黄	-9.51884
三四	-9.51923
調理	-9.51954
胷	-9.5206
吳茱茰	-9.52176
神麯	-9.52212
壅滯	-9.52216
一處	-9.52245
斂	-9.52316
脾虚	-9.52321
紫草	-9.52396
肝經	-9.52473
中焦	-9.52519
三合	-9.52548
亁	-9.52599
旦	-9.52629
寳	-9.52677
白蜜	-9.52678
濃	-9.52716
四錢	-9.52768
靣	-9.52805
囊	-9.52891
泄瀉	-9.52906
虚勞	-9.52921
香附子	-9.5293
訶子	-9.52946
每日	-9.53001
恍惚	-9.53056
七枚	-9.53065
味苦	-9.53091
欽定四庫全書	-9.53115
孫	-9.53124
狗	-9.53163
硇砂	-9.53351
水腫	-9.53411
去毛	-9.53422
悸	-9.5343
腎水	-9.5344
畢	-9.53539
氏方	-9.53574
乾葛	-9.53632
也此	-9.53691
粟	-9.53783
實者	-9.53845
葉似	-9.53923
久服	-9.5394
蒼	-9.53959
嫩	-9.5398
桂枝湯	-9.54135
寒氣	-9.54226
古人	-9.54305
須臾	-9.54355
何以	-9.54369
司	-9.54383
虚弱	-9.5441
春夏	-9.54414
之狀	-9.54439
滋	-9.54485
貴	-9.54512
萆薢	-9.5456
或用	-9.54561
采	-9.54587
銖	-9.54659
秤	-9.5466
醫者	-9.54719
熨	-9.54748
等藥	-9.54827
病在	-9.54828
五色	-9.54893
麩	-9.54986
内經	-9.55035
墨	-9.55173
蘸	-9.55303
頗	-9.55334
瘰癧	-9.55359
兩手	-9.55378
霜	-9.55497
煩渇	-9.55621
氣滯	-9.55647
劇	-9.5575
分三服	-9.55777
味甘	-9.55923
丹參	-9.55929
十丸	-9.55966
純	-9.55969
煩滿	-9.55972
腑	-9.56037
疔	-9.56072
熱服	-9.56291
結胸	-9.56292
龜	-9.56318
墜	-9.56333
水中	-9.56347
扶	-9.56382
我	-9.56478
有汗	-9.56531
二寸	-9.56602
眉	-9.56612
百日	-9.56732
熟地	-9.56809
鮮	-9.56826
白殭蠶	-9.569
太陽病	-9.56926
吐利	-9.56945
之候	-9.56979
而無	-9.57032
胡粉	-9.57219
今人	-9.57319
増	-9.57355
去節	-9.57477
干	-9.57547
欬嗽	-9.57562
郁李仁	-9.57636
虧	-9.5775
冷熱	-9.57752
蔓荆子	-9.57762
或有	-9.57834
鎊	-9.57861
二合	-9.58011
蕪荑	-9.58018
不復	-9.58092
三服	-9.5811
旺	-9.58298
右為散	-9.58432
綱	-9.58446
不散	-9.58589
相似	-9.58591
侵	-9.58694
礬石	-9.58792
垂	-9.58793
以此	-9.5881
雖有	-9.58866
鳥	-9.58914
冷水	-9.59047
真氣	-9.59132
鼻中	-9.59164
防	-9.593
右三味	-9.59312
到	-9.59354
擦	-9.59367
厥逆	-9.594
右四味	-9.59416
礬	-9.59449
丸服	-9.59486
松脂	-9.59576
泄㵼	-9.5959
添	-9.59687
大如	-9.59719
特	-9.59723
赤色	-9.59758
識	-9.59762
紫色	-9.59768
治産後	-9.59774
没藥	-9.59856
也今	-9.59959
乾漆	-9.60001
噎	-9.60019
大寒	-9.60079
蠱毒	-9.60152
夢	-9.60172
觸	-9.60183
癥	-9.60198
宫	-9.60218
入於	-9.60227
顧	-9.60231
熏	-9.60313
按此	-9.60384
牽牛	-9.60546
秦芁	-9.60633
冬月	-9.60732
細剉	-9.6076
立愈	-9.60762
欬逆	-9.60867
之下	-9.60899
吐瀉	-9.60979
是謂	-9.61004
斗	-9.61028
穿	-9.61158
三稜	-9.61219
屈	-9.6128
壮	-9.61292
者當	-9.61366
身重	-9.61381
調和	-9.61523
情	-9.61677
為君	-9.61788
為陽	-9.61794
驚癎	-9.61976
穢	-9.62007
之屬	-9.62093
三五	-9.62104
湯方	-9.62143
刻	-9.62234
蔵	-9.62305
酒炒	-9.62329
者是也	-9.62363
欲死	-9.62383
仲	-9.62416
寒則	-9.62472
未盡	-9.62483
宋	-9.62486
葶藶	-9.62579
第一	-9.62653
機	-9.62657
房	-9.62728
輸	-9.62748
誠	-9.62814
發於	-9.62815
腠理	-9.62837
調服	-9.62911
四味	-9.62921
亦治	-9.62977
熟乾地黄	-9.62979
戒	-9.63014
𤣥	-9.63029
也宜	-9.63107
一味	-9.63181
静	-9.63221
七錢	-9.63268
尅	-9.63268
痙	-9.63343
風氣	-9.63391
此乃	-9.63403
圖經曰	-9.63418
自愈	-9.63432
暴乾	-9.63472
食後服	-9.63517
胡椒	-9.6355
猪脂	-9.63578
血脉	-9.63597
徹	-9.63644
一半	-9.63736
剉碎	-9.63868
多食	-9.63908
風毒	-9.64018
徳	-9.6404
以其	-9.64124
起於	-9.64239
受病	-9.64263
素問	-9.64415
則愈	-9.64453
痛不可忍	-9.64493
縁	-9.64507
醉	-9.64518
相和	-9.64529
苦寒	-9.64601
促	-9.64604
五月	-9.64745
血熱	-9.648
前後	-9.64839
之意	-9.64891
蝕	-9.64898
尋	-9.64906
側	-9.64975
足陽明	-9.6498
二枚	-9.65096
骨髓	-9.65107
畜	-9.65125
梅	-9.6525
不問	-9.65319
炒黄	-9.65389
肉豆蔲	-9.65491
殺人	-9.65539
在上	-9.65654
標	-9.65687
精氣	-9.65799
氣味	-9.65808
吳	-9.65845
去鬚	-9.65899
敷之	-9.659
驚風	-9.65969
去核	-9.65983
可用	-9.6612
之則	-9.66174
腸鳴	-9.66209
者名	-9.66235
此是	-9.66271
不必	-9.66299
以生	-9.66494
學	-9.66495
眞	-9.66541
靨	-9.66593
二日	-9.66653
川升麻	-9.66692
寛	-9.66695
去穰	-9.66752
舍	-9.66774
故令	-9.66895
係	-9.66917
故名	-9.66921
清熱	-9.66965
實則	-9.66968
虚而	-9.66982
堪	-9.66984
湯浸去	-9.67023
童便	-9.67026
截	-9.67047
藜蘆	-9.6706
吐㵼	-9.67075
日夜	-9.67078
欝	-9.67088
飢	-9.67123
胡黄連	-9.67142
不生	-9.67159
染	-9.67163
藥也	-9.67202
車	-9.6724
換	-9.67381
此皆	-9.674
解之	-9.67418
烏藥	-9.67487
腎虚	-9.67533
不時	-9.67576
容	-9.67699
錄	-9.67756
出肘	-9.67785
更加	-9.67794
黒豆	-9.67972
外邪	-9.68024
理中湯	-9.68097
蜀	-9.68149
健	-9.68164
室	-9.68183
吐下	-9.68307
黄蠟	-9.6833
流注	-9.68347
荆	-9.6838
目赤	-9.68408
如前	-9.68493
方治	-9.68518
地龍	-9.68524
日二服	-9.68581
諸病	-9.68627
瓦	-9.68629
乾嘔	-9.68662
酒調下	-9.68677
衛氣	-9.688
送	-9.6882
陷中	-9.68907
知其	-9.68936
粘	-9.69019
否	-9.69037
眩	-9.69048
者由	-9.69066
肝木	-9.6913
沒藥	-9.69164
脣	-9.6917
䜴	-9.69226
上行	-9.69258
面目	-9.69295
經脉	-9.69416
秦艽	-9.69462
旁	-9.69503
口瘡	-9.69505
股	-9.69516
足太陽	-9.69538
削	-9.69604
食少	-9.6963
灸三壯	-9.69636
古方	-9.69636
丹皮	-9.69698
榮衞	-9.69748
二三	-9.69794
止痛	-9.69808
切焙	-9.69815
卷中	-9.69822
接	-9.69838
每服三錢	-9.699
之功	-9.69909
十六	-9.69911
察	-9.69958
心肺	-9.69958
右件	-9.69972
䕶	-9.70056
出於	-9.70059
豬	-9.7007
陽虚	-9.70197
民	-9.70202
抑	-9.70294
為熱	-9.70307
日再	-9.70467
咬	-9.70507
四物	-9.70556
南方	-9.70563
者即	-9.7065
路	-9.70775
黒色	-9.70843
化痰	-9.70934
線	-9.70969
每服二錢	-9.71043
索	-9.71056
奪	-9.71097
吐之	-9.71166
嚥	-9.71182
繫	-9.71191
為寒	-9.71304
科	-9.71414
葛	-9.7146
黄蘖	-9.71463
雞子	-9.71513
甘菊花	-9.71521
假	-9.7153
頰	-9.71576
鹿	-9.71641
决	-9.71675
生者	-9.71772
研各	-9.71835
其中	-9.71897
出汗	-9.71936
煎至	-9.7197
邊	-9.72016
味辛	-9.72029
皆有	-9.72097
午	-9.72104
右除	-9.72109
於内	-9.72146
石灰	-9.72168
勻	-9.7228
温中	-9.72303
䖝	-9.72385
羽	-9.72415
常山	-9.72488
不和	-9.72496
之以	-9.72515
色赤	-9.72655
證治	-9.72757
洗之	-9.72797
在下	-9.72801
瘤	-9.72807
上攻	-9.72838
河	-9.72851
若因	-9.72859
内經曰	-9.72957
益甚	-9.72983
四五	-9.7299
不欲	-9.72992
發黄	-9.73019
執	-9.7303
陽明病	-9.73122
芎	-9.73166
成膏	-9.73218
一婦人	-9.73403
悶亂	-9.7342
虚者	-9.73427
惡心	-9.73428
管	-9.73439
中氣	-9.73549
初生	-9.73577
不拘多少	-9.73577
疫	-9.73674
丹溪	-9.73686
靜	-9.73748
呼吸	-9.7375
加减	-9.7382
編	-9.73825
藍	-9.73871
日華子云	-9.73879
小便不通	-9.7393
烟	-9.7394
此病	-9.73952
鼻塞	-9.73958
五臓	-9.73959
七情	-9.73989
苓	-9.74051
五加皮	-9.74061
有力	-9.74177
丸治小兒	-9.74209
二十丸	-9.74216
痊	-9.7425
碗	-9.74259
竟	-9.74259
或以	-9.74283
空腹	-9.74337
小便數	-9.74346
相火	-9.74346
蓯蓉	-9.74384
秋冬	-9.74404
下行	-9.74419
各六	-9.74491
源	-9.74522
和匀	-9.74613
之理	-9.74629
細末	-9.74663
孕	-9.7467
乙	-9.74707
橘	-9.74733
故以	-9.74753
卵	-9.74817
慮	-9.74829
受邪	-9.74889
頭風	-9.74951
栢子仁	-9.74957
酒洗	-9.75025
赤腫	-9.75042
擇	-9.7505
漿水	-9.75051
如無	-9.75097
腋	-9.75155
三隂	-9.7516
瞿麥	-9.75184
飲子	-9.75193
也夫	-9.75279
一條	-9.75562
頭眩	-9.75605
申	-9.75622
抱	-9.75628
心氣	-9.75647
難治	-9.75648
其毒	-9.75731
羊肉	-9.75731
漸漸	-9.75773
萬物	-9.75776
綿裹	-9.75798
一兩去	-9.75829
随	-9.75829
也用	-9.75926
氣之	-9.76026
便血	-9.76145
腰脚	-9.76159
噫	-9.76211
癬	-9.76242
漆	-9.76248
各七	-9.76341
回	-9.76365
喉中	-9.76405
熱而	-9.76493
外感	-9.76504
青橘皮	-9.76541
過度	-9.76552
晝夜	-9.76574
犬	-9.76623
大人	-9.76664
大腹皮	-9.76693
證也	-9.76801
五行	-9.76842
麴	-9.76845
膏治	-9.76863
一方有	-9.76875
脇痛	-9.76888
澄	-9.769
轉筋	-9.7692
通草	-9.76999
十枚	-9.77006
一小兒	-9.77033
炭	-9.77064
夀	-9.77111
雪	-9.77151
更服	-9.77294
劉	-9.77338
暈	-9.77342
十全大補湯	-9.77439
陵	-9.77454
能食	-9.77454
即瘥	-9.77528
八兩	-9.77559
槐	-9.77568
次日	-9.77608
命門	-9.77691
入腹	-9.77695
䧟	-9.77713
何首烏	-9.77719
麻油	-9.77731
可治	-9.77775
其根	-9.77776
帝曰	-9.77781
蠶	-9.77789
梨	-9.77806
阿魏	-9.77842
淚	-9.77917
濃煎	-9.77932
匙	-9.77944
海藻	-9.77956
昔	-9.78019
禀	-9.78043
鞕	-9.78098
麪	-9.7814
擊	-9.78147
黄疸	-9.78207
腧	-9.78222
月餘	-9.78247
醒	-9.78348
老人	-9.78373
煩燥	-9.78431
痘瘡	-9.78467
其性	-9.78589
吳茱萸	-9.78665
崩	-9.78718
握	-9.78795
刮	-9.7882
個	-9.78878
脛	-9.78947
請	-9.78987
瘡瘍	-9.79135
陶	-9.79146
肝腎	-9.7915
屋	-9.79261
痂	-9.79267
號	-9.79312
以酒	-9.79341
糊	-9.79387
遊	-9.79406
隠	-9.79431
法當	-9.79431
痓	-9.79467
二服	-9.79588
數劑	-9.79661
蛇床子	-9.79693
藥末	-9.79698
三年	-9.79721
不差	-9.79771
石菖蒲	-9.7979
之疾	-9.79808
七次	-9.79889
計	-9.79906
不禁	-9.79936
鐡	-9.80043
徧	-9.80053
臨卧	-9.80072
腎經	-9.80081
大便不通	-9.80083
下後	-9.80225
喘息	-9.80231
閉塞	-9.80234
等症	-9.80276
色黄	-9.80316
必有	-9.80324
一斗	-9.80339
脉浮	-9.80354
水浸	-9.80467
消渴	-9.8047
自出	-9.80513
兎絲子	-9.80567
杏	-9.806
服此	-9.80638
品	-9.8065
晒乾	-9.80745
傾	-9.80792
脉之	-9.80864
欵冬花	-9.80881
使人	-9.80905
白虎湯	-9.80982
十八	-9.80998
發背	-9.81112
小柴胡湯	-9.81134
吐痰	-9.8129
瘡上	-9.81419
陸	-9.81459
藏府	-9.81548
千金方	-9.81556
薤白	-9.81574
林	-9.81799
人迎	-9.81827
局方	-9.81835
各有	-9.8195
密	-9.82092
通利	-9.82116
去土	-9.82154
一塊	-9.82197
曝乾	-9.82223
大㦸	-9.82265
用此	-9.82289
面黄	-9.82376
輕重	-9.82391
不瘥	-9.82543
収	-9.82557
盤	-9.82595
心脾	-9.82677
觔	-9.82696
又用	-9.82725
饑	-9.82732
送下	-9.82776
者多	-9.8281
若不	-9.82816
為隂	-9.82825
各五錢	-9.82922
肺金	-9.82926
不盡	-9.82932
半盞	-9.82934
腫滿	-9.83026
或時	-9.83215
女人	-9.83217
漢	-9.83296
延胡索	-9.83344
各二錢	-9.83347
一作	-9.83375
士	-9.83444
稠	-9.83526
符	-9.83566
牛蒡子	-9.8359
相搏	-9.83629
據	-9.83641
中寒	-9.83692
莖葉	-9.83782
輕者	-9.83797
掌	-9.83823
教	-9.83906
梗	-9.83999
熱甚	-9.84038
瘻	-9.84058
之義	-9.84065
謹	-9.84117
伸	-9.8415
不效	-9.84369
面色	-9.8447
倦	-9.84483
盜汗	-9.84485
消渇	-9.84506
乳汁	-9.84555
竹茹	-9.84664
甚多	-9.84722
望	-9.84812
又方用	-9.84829
癥瘕	-9.84836
去苖	-9.84924
五倍子	-9.84943
蒿	-9.84953
舒	-9.84975
傷於	-9.8503
缺	-9.85055
變為	-9.85098
汗下	-9.85247
八珍湯	-9.8526
猪肉	-9.85282
水二盞	-9.85348
内有	-9.85369
一握	-9.85386
不去	-9.85389
俟	-9.85447
權	-9.85458
枕	-9.85463
拭	-9.85511
不化	-9.856
怯	-9.85645
㕮咀	-9.85764
疰	-9.85776
列	-9.85874
盗汗	-9.85888
瘡疹	-9.85931
次用	-9.85954
延年	-9.85956
虚冷	-9.86032
少陰	-9.8608
氣虛	-9.86171
聾	-9.86306
米飲	-9.86327
其脈	-9.86425
後用	-9.86487
空心食前	-9.86502
三枚	-9.86518
均	-9.86573
堅硬	-9.86597
麻黄湯	-9.8662
蘆薈	-9.86669
注云	-9.86677
雀	-9.86723
妊娠	-9.86743
地黄丸	-9.86754
再用	-9.86757
縫	-9.86758
白歛	-9.86923
摶	-9.86925
自利	-9.86974
半两	-9.86996
辛熱	-9.87025
預	-9.87136
百壯	-9.87173
牽	-9.87211
造	-9.87231
骨蒸	-9.87234
第二	-9.87261
隂中	-9.87303
汗之	-9.87306
則氣	-9.8731
勞傷	-9.87314
神効	-9.87318
耳鳴	-9.87338
炒去	-9.8735
二穴在	-9.8738
而出	-9.87387
所生	-9.87395
山茱茰	-9.87405
笑	-9.87417
釋	-9.87442
於上	-9.87449
環	-9.87451
搗碎	-9.87504
衍義曰	-9.87519
兩脇	-9.87605
神仙	-9.87621
烈	-9.87629
梹榔	-9.87676
治中風	-9.87694
半日	-9.87703
即差	-9.8771
曽	-9.87721
考	-9.87783
溲	-9.87878
男女	-9.87882
六七	-9.87889
兼治	-9.87897
氣急	-9.87947
爪	-9.88106
帛	-9.88197
鱉甲	-9.88359
而復	-9.88441
㸔	-9.88468
不甚	-9.88475
之上	-9.88495
互	-9.88534
吐出	-9.88544
米飲調下	-9.88553
質	-9.88618
前藥	-9.88656
甜	-9.88695
形如	-9.88742
姜	-9.88764
一百	-9.88765
二丸	-9.88804
搏	-9.88835
刺痛	-9.8884
在表	-9.88916
紀	-9.88917
生肌	-9.88934
盆	-9.88941
發熱惡寒	-9.88999
薛	-9.89002
椀	-9.89057
為散	-9.89115
少時	-9.89251
縣	-9.89293
熱者	-9.8936
去蘆頭	-9.89374
虫	-9.89429
金匱	-9.89481
略	-9.89513
不收	-9.89563
急痛	-9.89601
悲	-9.89628
小便利	-9.89634
耳中	-9.89663
雙	-9.89862
辰	-9.89882
破血	-9.89921
山谷	-9.90007
相摶	-9.90023
浸一宿	-9.90033
臓腑	-9.90043
慢	-9.90095
不得卧	-9.90119
補氣	-9.9031
黄蓍	-9.90316
暮	-9.90324
無不	-9.90382
仰	-9.90433
中央	-9.90448
六十	-9.90457
一法	-9.90466
酥炙	-9.90468
皮肉	-9.90481
隱	-9.90554
二經	-9.90585
川烏頭	-9.90613
水調	-9.90617
即是	-9.9063
状	-9.90652
不敢	-9.90669
親	-9.90721
破故紙	-9.90747
於外	-9.90761
補益	-9.90766
者其	-9.90767
熱盛	-9.90803
錫	-9.90836
二月	-9.90838
冒	-9.90858
紋	-9.90883
每服一錢	-9.90961
當用	-9.9106
麄	-9.9106
食積	-9.91081
史	-9.91131
此症	-9.91137
炒令	-9.91182
每服一丸	-9.91244
白色	-9.91253
大黃	-9.91265
而有	-9.91275
建	-9.91276
獸	-9.91277
生地黄汁	-9.91288
傷脾	-9.91318
溫服	-9.91347
左手	-9.91353
帶下	-9.9151
形氣	-9.91576
洗去	-9.91588
専	-9.916
各三分	-9.91601
瘧疾	-9.91692
羚羊角屑	-9.91692
葵	-9.91745
壊	-9.91781
而痊	-9.91789
心胸	-9.91947
諸證	-9.91958
序	-9.92003
有痰	-9.92005
小者	-9.92058
增	-9.92129
白虎	-9.92143
痩	-9.92163
其色	-9.92253
腹大	-9.92265
燥熱	-9.92281
痛處	-9.92285
壓	-9.92345
頌曰	-9.92451
天氣	-9.92505
乳食	-9.92535
枇杷葉	-9.92614
山茱萸	-9.92638
田	-9.92654
中惡	-9.92661
纒	-9.92817
槐花	-9.92826
其狀	-9.92843
谷	-9.92847
青鹽	-9.92862
舌上	-9.92886
在裏	-9.92988
細嚼	-9.92993
梁	-9.93
錯	-9.93031
人參白术	-9.93082
水穀	-9.93085
傷食	-9.93107
巴㦸	-9.93164
相合	-9.93186
往	-9.93249
和之	-9.93318
之火	-9.93335
目眩	-9.9335
一片	-9.93359
某	-9.93404
出危	-9.93406
脈浮	-9.93421
鬰	-9.93422
茱茰	-9.93427
生薑三片	-9.93453
謹按	-9.93463
言之	-9.93473
右為末用	-9.93498
攻之	-9.93602
漏蘆	-9.93631
額	-9.93782
草烏	-9.93793
圍	-9.93808
其子	-9.93823
呉	-9.93838
結核	-9.93849
牢	-9.93863
咽痛	-9.93882
阻	-9.93916
之處	-9.93921
五寸	-9.93983
血出	-9.94049
匕	-9.94101
剉各	-9.9415
龍膽	-9.94277
闕	-9.94286
腫脹	-9.94341
訶梨勒	-9.94391
鼓	-9.94446
一両	-9.94475
人參甘草	-9.94484
骨節	-9.94486
乆服	-9.94536
料	-9.94538
手太隂	-9.94563
之内	-9.94626
方寸匕	-9.94644
葵子	-9.94648
總錄	-9.94677
縮砂仁	-9.94705
捻	-9.9477
亦名	-9.94777
以手	-9.94806
纔	-9.94855
面青	-9.94855
緑	-9.94916
格	-9.94937
是為	-9.94946
飲食少思	-9.94986
皆可	-9.95003
仍以	-9.95045
謬	-9.95098
青木香	-9.95104
發搐	-9.95129
言語	-9.95151
蔓	-9.95156
晚	-9.95161
柴	-9.95197
四逆	-9.9524
大小便	-9.95269
武	-9.9527
中滿	-9.9534
殭蠶	-9.95359
水一盞	-9.95394
繩	-9.95463
匀	-9.95466
鋪	-9.95491
完	-9.95574
凶	-9.95615
枸杞子	-9.95615
邪在	-9.95689
心神	-9.95703
諸疾	-9.95774
之道	-9.95782
絞	-9.95909
治諸	-9.96026
己	-9.96042
不起	-9.96078
户	-9.96079
旬	-9.9608
皆由	-9.96171
右搗篩	-9.96189
補腎	-9.96225
心腹脹滿	-9.96235
氷	-9.96236
烏梅肉	-9.96301
術	-9.96318
温酒	-9.96379
顯	-9.96426
煉蜜	-9.96487
治姙娠	-9.96488
工	-9.96507
姑	-9.96615
結實	-9.96657
其血	-9.96663
麻子	-9.96682
暗	-9.96683
炮各	-9.96713
良薑	-9.96721
先生	-9.96774
金銀花	-9.96782
幾	-9.96865
只用	-9.96927
熱也	-9.96965
八月	-9.96981
龍齒	-9.96993
有寒	-9.96998
活血	-9.97055
其所	-9.97078
五七	-9.97099
𥙷	-9.97136
投之	-9.9714
述	-9.97141
又治	-9.97152
用補中益氣湯	-9.97167
飬	-9.97278
三部	-9.9735
雜病	-9.97404
㫁	-9.97431
疸	-9.97433
於此	-9.97452
鴨	-9.97463
中脘	-9.9748
口鼻	-9.97489
等分為末	-9.97489
啼	-9.97581
炮製	-9.97582
脹痛	-9.97635
溼	-9.97657
别録	-9.97736
如是	-9.97761
慢驚	-9.97772
累	-9.97787
青蒿	-9.97815
白皮	-9.9782
者可	-9.97829
𢎞景曰	-9.97928
牡丹	-9.97959
含之	-9.97968
鯉魚	-9.98016
讝語	-9.9805
亦能	-9.98053
鹽湯	-9.98054
補脾	-9.9807
尸	-9.98082
風痰	-9.98239
虧損	-9.98285
米醋	-9.9834
麝	-9.98362
色白	-9.98371
濾	-9.98394
立止	-9.98474
圖經	-9.98482
攣	-9.98504
其熱	-9.98521
心腹痛	-9.98528
山查	-9.98578
服此藥	-9.98676
蜂	-9.98716
一具	-9.98718
召	-9.98724
夕	-9.98758
硝	-9.98781
傷損	-9.98855
腕	-9.98935
尤妙	-9.98938
煎七分	-9.98957
二百	-9.98968
襲	-9.98981
肝氣	-9.98991
氣喘	-9.99023
褁	-9.99029
熨之	-9.99033
而致	-9.99067
診之	-9.99083
洞	-9.99095
之令	-9.99135
硼砂	-9.99137
客熱	-9.99158
桑螵蛸	-9.99168
千金翼	-9.99196
外用	-9.99219
休	-9.99236
第三	-9.99246
摻	-9.99294
胸脇	-9.99295
伏龍肝	-9.99317
右剉	-9.99391
加人參	-9.994
入胃	-9.99403
墮	-9.99403
雷	-9.99407
假令	-9.99474
陽也	-9.99478
酒調	-9.99485
水蛭	-9.99504
消食	-9.99526
牀	-9.99604
束	-9.9963
如常	-9.99634
産婦	-9.99673
鍊	-9.99754
振	-9.99794
參术	-9.998
棗肉	-9.9981
燒存性	-9.99819
以下	-9.99822
丹毒	-9.99872
生薑湯下	-9.99874
嚏	-9.99894
多用	-9.99913
涕	-9.99946
一男子	-10.0003
徐徐	-10.0004
牙齒	-10.0004
蒲	-10.0005
可知	-10.0007
三丸	-10.0007
生姜	-10.0007
脾肺	-10.0008
瘈瘲	-10.0018
免	-10.002
蓄	-10.0026
剛	-10.0028
沈香	-10.0028
經水	-10.0034
一物	-10.0034
内消	-10.0036
鼻衂	-10.0039
温酒調下	-10.0044
悞	-10.0046
各三錢	-10.0047
酢	-10.0049
不可用	-10.0057
中之	-10.0058
天行	-10.0059
興	-10.0061
拘	-10.0064
十兩	-10.0069
芎歸	-10.0077
補虚	-10.0087
之若	-10.0088
慢火	-10.0091
眥	-10.0094
去麄皮	-10.0107
大青	-10.0108
穿山甲	-10.0109
疥	-10.0111
欬𠻳	-10.0118
三里	-10.012
徒	-10.0132
炮製去	-10.0134
二錢半	-10.0135
血分	-10.0137
有人	-10.0144
癩	-10.0147
肘後	-10.016
衇浮	-10.016
逼	-10.0161
濕氣	-10.0173
發之	-10.0175
各一分	-10.0175
滲	-10.0177
攤	-10.0179
後人	-10.0183
之患	-10.0184
鱗	-10.0188
愚	-10.0189
薯蕷	-10.0194
粟米	-10.0196
於肺	-10.0199
一時	-10.0205
拔	-10.0208
惑	-10.021
塵	-10.0217
托裏	-10.0221
方見本門	-10.0224
半月	-10.0247
除熱	-10.0248
癲疾	-10.025
魂	-10.0256
也如	-10.0262
如神	-10.0267
右五味	-10.0277
葉如	-10.0279
順氣	-10.0284
提	-10.0285
京三稜	-10.0297
絞取汁	-10.0297
揉	-10.03
乳母	-10.0301
瞖	-10.0303
晒	-10.0309
顔色	-10.0318
氣短	-10.032
故能	-10.032
熬成膏	-10.0327
衞	-10.0329
不拘	-10.0331
日久	-10.0341
腰脊	-10.0349
論云	-10.0353
帝	-10.0354
十一	-10.0355
韭	-10.0356
故知	-10.0359
右水煎服	-10.0367
不明	-10.0368
水榖	-10.037
日再服	-10.0373
加附子	-10.0378
每服五錢	-10.038
積滯	-10.038
生甘草	-10.0384
稟	-10.0385
水煮	-10.0386
表邪	-10.0387
鎮	-10.0394
去之	-10.0394
奉	-10.0396
搗爛	-10.04
龍膽草	-10.0402
心經	-10.0407
胡麻	-10.0409
黍	-10.0411
六君子湯	-10.0413
麸炒	-10.0415
飽	-10.0416
鬱金	-10.0418
芝	-10.0419
次下	-10.0422
二斤	-10.0424
虛實	-10.0429
即出	-10.043
而病	-10.043
勞役	-10.0431
倦怠	-10.0434
清水	-10.0434
氣不足	-10.0439
不寧	-10.0441
不可以	-10.0445
呉茱茰	-10.0449
丈夫	-10.0467
也以	-10.0473
日乾	-10.0473
六月	-10.0474
父	-10.0476
斜	-10.0482
因而	-10.0482
七八	-10.0483
蛤粉	-10.0484
七丸	-10.0486
則病	-10.0495
煙	-10.0498
不至	-10.0501
忽然	-10.0503
目中	-10.0504
瀝	-10.0508
血竭	-10.0509
補骨脂	-10.0511
太陰	-10.0524
七粒	-10.0525
紫石英	-10.0527
多服	-10.0532
有聲	-10.0532
不言	-10.0538
為使	-10.0543
藥力	-10.055
氣弱	-10.056
鍾乳	-10.0568
水飛	-10.0572
踈	-10.0574
案	-10.0576
頭上	-10.0579
淬	-10.0589
手足厥冷	-10.0592
四劑	-10.0593
亡陽	-10.06
夭	-10.06
晝	-10.0601
蜜陀僧	-10.0602
三次	-10.0607
黄檗	-10.0608
黃芩	-10.0609
草木	-10.0613
穰	-10.0613
存性	-10.0615
嘔噦	-10.062
栁	-10.0622
芩連	-10.0625
衂血	-10.0631
拾	-10.0637
加至	-10.0638
七月	-10.0639
之外	-10.064
右為末煉蜜	-10.0659
痞滿	-10.0661
負	-10.0664
趙	-10.0665
名為	-10.0666
五枚	-10.0668
其實	-10.0671
内服	-10.0673
哭	-10.0677
脾腎	-10.0679
時氣	-10.0692
瘡腫	-10.0693
篩	-10.0693
多因	-10.0695
毋	-10.0695
七壯	-10.07
養血	-10.0702
降火	-10.0706
壽	-10.0708
一婦	-10.0711
資	-10.0714
多汗	-10.0719
議	-10.0721
方取	-10.0726
痛甚	-10.0734
搽	-10.0735
罷	-10.0736
等物	-10.0744
口苦	-10.0752
芤	-10.0757
喘促	-10.0761
輩	-10.0772
宜以	-10.0774
脾經	-10.0774
不相	-10.0775
逆氣	-10.0775
貯	-10.0778
肺痿	-10.0778
不可食	-10.078
藏器曰	-10.0781
授	-10.0782
改	-10.0784
安胎	-10.0791
窮	-10.0796
避	-10.0797
殺蟲	-10.0802
作渴	-10.0803
足少陽	-10.0804
射	-10.0804
秦	-10.0806
六味丸	-10.081
木賊	-10.0811
圓治	-10.0814
六味	-10.0816
傷人	-10.0822
内障	-10.0826
人有	-10.0826
炮薑	-10.0827
京	-10.0827
剪	-10.0828
煎至六分去滓	-10.083
之名	-10.0832
尤佳	-10.0837
無子	-10.0839
樂	-10.0839
壬	-10.084
四月	-10.0843
六氣	-10.0847
汗不出	-10.085
廢	-10.0851
小豆	-10.0851
□	-10.0853
景	-10.0867
三十丸	-10.0868
垢	-10.0869
一觔	-10.0872
皆因	-10.0876
御	-10.088
忍	-10.0881
挺	-10.0885
孟	-10.0885
或云	-10.0889
症也	-10.0893
十二經	-10.0893
城	-10.09
不信	-10.0902
可也	-10.0905
上衝	-10.0909
半合	-10.091
故云	-10.091
皮尖	-10.092
刺之	-10.0922
會	-10.0923
温病	-10.0924
為末以	-10.0928
数	-10.093
亦佳	-10.0932
爲末	-10.0932
潰爛	-10.0933
各八	-10.0941
結於	-10.0942
生氣	-10.0947
神氣	-10.0953
従	-10.0965
眩暈	-10.0967
頭目	-10.0976
胃熱	-10.0985
大風	-10.0992
蓼	-10.0993
候冷	-10.1
扁	-10.1003
寶	-10.1003
者良	-10.1006
日中	-10.1006
生冷	-10.1007
郡	-10.101
務	-10.1012
后	-10.1027
簡	-10.1028
病之	-10.1031
杜	-10.1035
加之	-10.1037
民病	-10.1038
戰	-10.1046
如故	-10.1047
不得眠	-10.105
痛者	-10.1052
成瘡	-10.106
同研	-10.1061
少隂病	-10.1062
研勻	-10.1074
切片	-10.1074
當歸川芎	-10.1077
糖	-10.1083
顆	-10.109
諸症	-10.1094
十三	-10.1094
癭	-10.1097
凝滯	-10.1105
炒一	-10.1106
地氣	-10.1108
不渴	-10.1108
縮砂	-10.1109
抵	-10.1112
乾燥	-10.1115
故為	-10.1117
烏蛇	-10.1119
八味丸	-10.1122
芩	-10.1123
逢	-10.1123
讀	-10.1124
宿食	-10.1126
虎骨	-10.1129
黄芪	-10.1131
瘰	-10.114
欲絶	-10.1149
十月	-10.115
產	-10.1156
有病	-10.1157
之脈	-10.1169
心熱	-10.1177
客於	-10.1178
淡竹葉	-10.1183
足少隂	-10.1186
硝石	-10.1191
温水下	-10.1197
研一	-10.1212
詩	-10.1215
筋脉	-10.1216
痘疹	-10.1218
統	-10.1218
栢	-10.1219
補中	-10.1225
义	-10.1229
羸	-10.1235
博	-10.1236
商	-10.1238
問曰	-10.1243
以藥	-10.1247
如膏	-10.1248
鹿角	-10.1256
形體	-10.1257
澤蘭	-10.1258
須用	-10.1262
省	-10.1268
為佳	-10.1273
伯	-10.1274
白薇	-10.1279
喘滿	-10.1279
者佳	-10.1285
㸃之	-10.1287
聖惠方	-10.1289
潔	-10.129
枸杞	-10.1295
錢氏	-10.1297
服後	-10.1297
少食	-10.1301
令兒	-10.1301
肝火	-10.1304
腹中痛	-10.1305
受之	-10.1309
止血	-10.131
調中	-10.1311
不堪	-10.1312
丙	-10.1312
揀	-10.1314
米泔	-10.1315
之精	-10.1319
即以	-10.1321
不然	-10.1325
臘月	-10.1326
僧	-10.1329
一云	-10.1329
妻	-10.1336
地黄汁	-10.1338
伐	-10.1344
五十丸	-10.1346
急用	-10.1365
寫	-10.1365
癲	-10.1369
厥陰	-10.1375
竈	-10.1388
必先	-10.1394
犀	-10.1395
大蒜	-10.1396
者謂之	-10.1398
入裏	-10.1411
狐	-10.142
肉豆䓻	-10.1421
飲下	-10.1421
口舌生瘡	-10.1425
平旦	-10.1427
人多	-10.1437
右手	-10.1439
鈎	-10.1454
分二服	-10.1455
也當	-10.1455
髀	-10.1457
旋覆花	-10.1465
言其	-10.1467
歛	-10.1467
白者	-10.1469
少頃	-10.1469
補血	-10.147
二物	-10.147
赤白痢	-10.1473
夫人	-10.1477
經言	-10.1478
混	-10.1491
令勻	-10.1492
苦酒	-10.1494
厭	-10.1503
肋	-10.1505
肛門	-10.1505
氣也	-10.1506
絹	-10.1511
攝	-10.1513
右件藥	-10.1518
次入	-10.1521
之熱	-10.1522
神驗	-10.1529
精血	-10.1529
滅	-10.1532
勞倦	-10.1537
白芨	-10.154
法也	-10.1549
章	-10.1552
元參	-10.1555
杖	-10.1557
蟾酥	-10.1561
風痺	-10.1562
之故	-10.1566
迫	-10.1573
小便難	-10.1574
氣不	-10.1577
徧身	-10.1578
視之	-10.1589
瘴	-10.1593
加大黄	-10.1599
乏	-10.1606
康	-10.1607
夲	-10.1608
温補	-10.1611
變成	-10.1612
裏急	-10.1614
四君子湯	-10.1622
升降	-10.1622
而不能	-10.1622
山梔子	-10.1623
消痰	-10.1626
在外	-10.1627
庚	-10.1627
者非	-10.1632
虚也	-10.1636
六腑	-10.1642
子大	-10.1642
白湯下	-10.1644
便秘	-10.1644
必死	-10.1645
撰	-10.1645
發狂	-10.1647
八味	-10.1648
十餘	-10.1651
肘後方	-10.1653
其法	-10.1658
不絶	-10.1662
作渇	-10.1663
臍腹	-10.1665
胸腹	-10.1665
去渣	-10.1667
其候	-10.1673
不能言	-10.1674
而下	-10.1675
陽邪	-10.1676
四逆湯	-10.1678
利之	-10.1678
溪	-10.1681
𤼵	-10.1686
痛止	-10.1689
卽	-10.169
壁	-10.1691
告	-10.1694
沫	-10.1695
右為末每服二錢	-10.1696
腫硬	-10.1698
者生	-10.1699
肝脾	-10.17
庶	-10.1708
灼	-10.1709
腫毒	-10.171
修治	-10.1712
化為	-10.1713
育	-10.1716
陷者中	-10.1722
生葱	-10.1723
自消	-10.1724
辛温	-10.1726
或作	-10.1728
輒	-10.1729
淘	-10.1729
薰	-10.1732
乾者	-10.1735
一方加	-10.1736
英	-10.1738
鬲	-10.1742
脉數	-10.1751
腮	-10.1752
筋急	-10.1756
凈	-10.1756
榮氣	-10.1757
暫	-10.1759
修	-10.1761
之經	-10.1762
温熱	-10.1762
多有	-10.1769
瓶	-10.1769
不能飲食	-10.1769
筒	-10.1771
眀	-10.1771
而愈一小兒	-10.1776
羸痩	-10.1777
一匙	-10.1782
天竺黄	-10.1782
行氣	-10.1786
㫖	-10.1788
水火	-10.1791
司天	-10.1799
為佐	-10.18
莽草	-10.18
十九	-10.1804
決	-10.1811
當先	-10.1814
結聚	-10.1823
白蒺藜	-10.1824
薑三片	-10.1824
拌勻	-10.1824
鯽魚	-10.1826
蘿蔔	-10.1834
桑寄生	-10.1834
歸脾湯	-10.1838
黯	-10.1841
黃連	-10.1842
蜘蛛	-10.1843
蘆根	-10.1845
補中益氣	-10.1848
里	-10.185
紫菀	-10.1851
咸	-10.1851
右為末以	-10.1853
消石	-10.186
療之	-10.1864
腋下	-10.1872
患此	-10.1874
水道	-10.1879
水洗	-10.1881
各三兩	-10.1885
煎取	-10.1886
割	-10.1887
腰背	-10.1889
之本	-10.189
發表	-10.1895
為衣	-10.1898
火燒	-10.1909
茵陳	-10.191
永	-10.191
不須	-10.1919
配	-10.1921
勿食	-10.193
每服四錢	-10.1931
其形	-10.1932
毎用	-10.1934
牛乳	-10.1934
病後	-10.1936
凢	-10.1937
床	-10.1938
麻木	-10.194
鼈	-10.1941
味酸	-10.1943
攪勻	-10.1946
不語	-10.1946
此疾	-10.1948
邉	-10.1949
血虛	-10.1951
之説	-10.1954
炊	-10.196
蒸餅	-10.1965
栗	-10.1973
馬牙硝	-10.1975
奔	-10.1975
右六味	-10.1981
撮	-10.1982
半兩炙	-10.1985
六日	-10.1985
當下	-10.1986
乾蝎	-10.199
之為病	-10.1992
蟹	-10.1995
胃虚	-10.1995
一大	-10.1998
二三日	-10.2
去根節	-10.2002
狂言	-10.2004
酒煮	-10.2006
盈	-10.2007
真珠	-10.2018
湯泡	-10.202
泔	-10.2024
尿血	-10.2025
消毒	-10.2031
髙良薑	-10.2032
之變	-10.2039
祕	-10.2041
俗名	-10.2058
有之	-10.2059
聽	-10.2061
惡氣	-10.2062
綱目	-10.2063
此因	-10.2063
也方	-10.2065
溏	-10.2066
藿香葉	-10.2067
拾遺	-10.2068
賊	-10.2069
翼	-10.2072
愛	-10.2074
筋攣	-10.2074
數十	-10.2075
歴	-10.2077
丈	-10.2079
赤芍	-10.2081
代之	-10.2086
為妙	-10.2088
魄	-10.2089
滚	-10.209
曾	-10.2092
懐	-10.2095
兎	-10.21
搐搦	-10.2104
有效	-10.2105
治卒	-10.2108
妄行	-10.2109
此法	-10.2113
掃	-10.2114
咽乾	-10.2121
湯送下	-10.2123
一二日	-10.2124
去黒皮	-10.2124
則不	-10.2125
眼目	-10.2126
瘍	-10.2126
立効	-10.2128
解表	-10.2131
潰後	-10.2132
祖	-10.2133
足太隂	-10.2136
右將	-10.2136
硏	-10.2137
剉炒	-10.2139
搗羅為末	-10.214
飲冷	-10.2144
曉	-10.2148
照	-10.2149
席	-10.2152
餌	-10.2153
繼	-10.2156
諸瘡	-10.2156
此物	-10.2162
血脈	-10.2174
甚效	-10.2179
搗末	-10.2182
不死	-10.2188
中暑	-10.2194
治眼	-10.2199
益智	-10.2201
句	-10.221
已成	-10.2217
北方	-10.2222
視其	-10.2223
二七	-10.2223
易之	-10.2226
時行	-10.2229
其功	-10.223
炙一	-10.2234
表證	-10.2235
頃	-10.2236
也經曰	-10.2241
諸風	-10.2241
薑湯下	-10.2243
當歸芍藥	-10.2247
盛則	-10.2253
怪	-10.2259
氣盛	-10.2259
去瓤	-10.226
十七	-10.226
此由	-10.2266
筆	-10.2266
責	-10.227
九月	-10.2272
上有	-10.2282
樞	-10.2288
見於	-10.2294
和中	-10.2294
放冷	-10.2294
六錢	-10.2295
軍	-10.2298
神麴	-10.2301
羮	-10.2304
炙剉	-10.2304
其邪	-10.2306
㣲赤剉	-10.2309
烙	-10.231
各五分	-10.2312
賢	-10.2313
六經	-10.2314
童子小便	-10.2315
斑猫	-10.2316
茅	-10.2317
痰盛	-10.2322
者名曰	-10.2324
一隻	-10.2327
之妙	-10.2328
故有	-10.2329
亡血	-10.2329
仍用	-10.2331
乃止	-10.2335
板	-10.2336
鈎藤	-10.2338
呉茱萸	-10.2338
牡	-10.2343
損傷	-10.2345
瀉之	-10.2351
之有	-10.2354
晩	-10.2356
升麻湯	-10.2357
尤甚	-10.2359
發其汗	-10.236
其上	-10.2363
氣促	-10.2364
屢	-10.2365
衝任	-10.2366
氣壅	-10.2367
金銀	-10.2368
右為細末每服二錢	-10.2371
當歸身	-10.2372
二便	-10.2379
不計時	-10.2382
淚出	-10.2382
丹治	-10.2382
之分	-10.2383
欠	-10.2383
月水	-10.2397
四日	-10.2402
的	-10.2411
俠	-10.2411
)【	-10.2412
不潰	-10.2414
之際	-10.2418
自止	-10.2423
冐	-10.2425
揚	-10.2425
脆	-10.2426
出入	-10.2429
痃癖	-10.2433
淋瀝	-10.2434
涌	-10.2434
澄清	-10.2435
相類	-10.2437
經驗方	-10.2439
動氣	-10.2443
則有	-10.2445
往往	-10.2447
去黑	-10.245
脉沉	-10.245
驢	-10.2454
餘毒	-10.2457
者爲	-10.2459
燈	-10.2461
五更	-10.2466
用生	-10.2466
同炒	-10.247
第	-10.2473
啖	-10.248
行於	-10.2482
政	-10.2488
治病	-10.2495
氣衝	-10.2496
瘡疥	-10.2497
五六日	-10.2499
下一寸	-10.25
洗淨	-10.25
遺尿	-10.2507
諸方	-10.2508
而渴	-10.2509
呼為	-10.251
時有	-10.2511
㧞	-10.2521
醋炙	-10.2523
唇口	-10.2526
隂也	-10.2526
汝	-10.2529
空心温服	-10.2531
蜜丸	-10.2532
聖濟	-10.2534
病源	-10.2537
下藥	-10.254
實也	-10.2541
半分	-10.2542
炎	-10.2543
爪甲	-10.2545
夜卧	-10.2549
數服	-10.2552
腦子	-10.2557
月經	-10.2557
自然銅	-10.2562
堂	-10.2568
麻仁	-10.257
裏熱	-10.2571
並宜服之	-10.2576
不勝	-10.2576
矣故	-10.2578
好酒	-10.2582
一粒	-10.2582
寒者	-10.2586
後以	-10.2597
不拘時服	-10.2601
大便難	-10.2604
淹	-10.2607
壞	-10.2616
若有	-10.2618
煩心	-10.2619
鍾	-10.262
天花粉	-10.2621
不惡寒	-10.2623
諸經	-10.2625
則生	-10.2625
雌	-10.2627
六七日	-10.2628
鹽湯下	-10.2632
陽盛	-10.2635
熱結	-10.2636
矢	-10.2636
瓤	-10.2637
三嵗	-10.2637
此以	-10.2644
去其	-10.2645
七十	-10.2646
明日	-10.2648
皺	-10.2651
驚恐	-10.2651
臣禹錫等謹按	-10.2653
研匀	-10.2655
者因	-10.2657
察其	-10.2657
久則	-10.2658
調之	-10.2658
右七味	-10.2683
稻	-10.2684
周身	-10.2687
全愈	-10.2689
安息香	-10.269
薑棗	-10.2693
十分	-10.2694
可服	-10.2698
初服	-10.2698
去麄	-10.2699
漬之	-10.2699
擘	-10.2701
不欲食	-10.2701
面上	-10.2703
條下	-10.2704
參茋	-10.2705
方可	-10.2709
有蟲	-10.2711
煎至七分去滓	-10.2714
不快	-10.2716
而然	-10.2717
血痢	-10.2722
胷膈	-10.2728
外證	-10.2729
此條	-10.2729
進食	-10.273
火氣	-10.2731
獲	-10.2732
把	-10.2738
茱萸	-10.2744
兔絲子	-10.2751
稍熱服	-10.2751
砭	-10.2753
喜怒	-10.2753
所在	-10.2759
齒痛	-10.2764
肺經	-10.2766
作嘔	-10.277
虚煩	-10.2774
薫	-10.2777
以水一斗	-10.2777
微赤剉	-10.2778
秦皮	-10.2782
疝氣	-10.2784
所出	-10.2786
唾血	-10.2789
智	-10.2792
血少	-10.2793
如水	-10.2795
分作	-10.2797
臍中	-10.2797
太陽經	-10.2799
入口	-10.2799
川芎當歸	-10.2803
不渇	-10.2807
糓	-10.2808
其餘	-10.2812
搗汁	-10.2817
墮胎	-10.2818
薄荷湯下	-10.2818
孔中	-10.2819
午後	-10.282
缺盆	-10.2821
水和	-10.2822
取汗	-10.2823
亦無	-10.2828
次以	-10.2834
革	-10.2838
癮疹	-10.2841
微寒	-10.2845
不能行	-10.2845
無度	-10.2846
次服	-10.2848
不退	-10.2853
却用	-10.2853
寅	-10.2855
理中	-10.2857
牛蒡	-10.2863
不省人事	-10.2866
結氣	-10.2872
動而	-10.2872
愈甚	-10.2873
更用	-10.2877
黑豆	-10.288
補其	-10.2887
人參茯苓	-10.2888
亦然	-10.289
癃	-10.289
房室	-10.2902
色青	-10.2906
五丸	-10.2907
發為	-10.2908
顛	-10.2919
炮裂去	-10.2919
抽	-10.292
長生	-10.2925
木瓜	-10.2927
鄉	-10.2942
解散	-10.2943
胡桃	-10.2945
暢	-10.2947
蒼耳	-10.2956
敗血	-10.2957
一證	-10.2959
篇曰	-10.2962
所主	-10.2963
咽中	-10.2964
眠	-10.2969
叅	-10.297
七遍	-10.2975
牽牛子	-10.2975
芍	-10.2975
二種	-10.2976
赤剉	-10.2976
炙黄	-10.2977
乖	-10.2978
變化	-10.298
頓服之	-10.2981
焮痛	-10.2981
外臺	-10.2987
焼	-10.2992
𦍑活	-10.3007
峻	-10.3008
腹脇	-10.3011
椎	-10.3012
而作	-10.3013
壮熱	-10.3019
草烏頭	-10.3023
蘭	-10.3029
耳内	-10.3029
能治	-10.303
挑	-10.3033
隂寒	-10.3034
侯	-10.3037
氣滿	-10.304
温瘧	-10.3045
平胃散	-10.3046
荷葉	-10.3047
右等分	-10.3051
桐	-10.3053
風癎	-10.3054
窠	-10.3056
噉	-10.3058
發時	-10.3058
薄荷葉	-10.3058
而長	-10.3059
承氣湯	-10.3059
並皆治之	-10.3061
腸中	-10.3062
皆以	-10.3076
之方	-10.308
壹	-10.308
無熱	-10.3082
餅子	-10.3084
不當	-10.3089
良乆	-10.309
皆能	-10.309
十年	-10.3095
妳	-10.3097
發動	-10.3098
麻黃	-10.3105
也但	-10.311
師曰	-10.3111
失其	-10.3111
解肌	-10.3115
蓮	-10.3115
熱邪	-10.3115
鬱結	-10.3122
腰膝	-10.3124
陽明之	-10.3127
乾姜	-10.3128
臘	-10.3131
湧	-10.3132
研為末	-10.3133
藉	-10.3135
頑	-10.314
藥性論云	-10.314
欬逆上氣	-10.3143
一小	-10.3143
宗奭曰	-10.3146
僕	-10.3155
殆	-10.3157
失血	-10.3158
填	-10.3158
水服	-10.3159
手陽明	-10.3164
五勞七傷	-10.3169
去油	-10.3172
遂成	-10.3178
挼	-10.3178
即消	-10.3179
故主	-10.3181
瘖	-10.3186
汗多	-10.3187
為臣	-10.3188
大而	-10.3191
即死	-10.3193
揩	-10.3194
虚羸	-10.32
雷丸	-10.3202
市	-10.321
不可下	-10.321
脈沈	-10.3214
▁千金方	-10.3215
而止	-10.3219
則死	-10.322
歧伯曰	-10.3224
血崩	-10.3224
碾	-10.3233
三斤	-10.3237
味鹹	-10.324
酒調服	-10.3243
於心	-10.3244
熊膽	-10.3246
其經	-10.3249
廼	-10.3257
泛	-10.3259
釀	-10.326
輭	-10.3261
手足逆冷	-10.3261
亥	-10.3263
八九	-10.3266
見之	-10.3267
痒痛	-10.3268
無問	-10.3269
肺熱	-10.327
幸	-10.327
心主	-10.3271
熾	-10.3273
灸法	-10.3276
不入	-10.328
搜	-10.3283
因其	-10.3286
施治	-10.3294
一年	-10.3302
小便頻數	-10.3303
小便赤澁	-10.3305
崩中	-10.3306
古今	-10.3306
鞭	-10.3316
根本	-10.3318
羊腎	-10.3318
之前	-10.3318
癍	-10.3319
沙參	-10.332
鵞	-10.332
體重	-10.333
惡物	-10.3336
而用之	-10.3337
咬牙	-10.3338
不一	-10.3339
藴	-10.3341
失精	-10.3343
勞復	-10.3346
菊	-10.3351
香薷	-10.3362
出直	-10.3363
又方治	-10.3363
戴人	-10.3364
反胃	-10.3367
二十日	-10.3373
醎	-10.3375
芋	-10.3377
可見	-10.3378
露蜂房	-10.3379
經行	-10.3381
故用	-10.3381
水下	-10.3382
唐本注云	-10.3382
脇肋	-10.3382
甦	-10.3382
蜜炙	-10.3382
不妨	-10.3386
調氣	-10.339
鎔	-10.3398
繞	-10.3399
新校正云按	-10.34
一曰	-10.3401
水一盞半	-10.3405
散方	-10.3406
嶺南	-10.3409
岐伯曰	-10.3412
心悶	-10.3412
麵糊	-10.3416
白濁	-10.3418
青色	-10.3419
病則	-10.3419
顔	-10.342
氣分	-10.342
昆布	-10.3423
此則	-10.3427
芒消	-10.3429
白花蛇	-10.3436
隂毒	-10.3437
靈樞	-10.3437
冰	-10.3438
偏枯	-10.3443
柏	-10.3445
白术茯苓	-10.3447
日月	-10.3448
訶梨勒皮	-10.3457
盡為度	-10.3461
死者	-10.3466
吃	-10.3477
脚弱	-10.3481
指方	-10.3482
前方	-10.3488
大小便不通	-10.3489
無病	-10.3498
圎	-10.3498
絞去滓	-10.3499
大麥	-10.3503
三分去	-10.3506
草豆蔲	-10.3507
去心焙	-10.3509
否則	-10.351
各十	-10.3511
蘇木	-10.3511
桂附	-10.3514
埋	-10.3518
與服	-10.3519
大腹	-10.352
不動	-10.3532
團	-10.3533
欬而	-10.3534
等疾	-10.3537
虛熱	-10.3537
壅塞	-10.354
時珍	-10.354
迺	-10.3544
急驚	-10.3549
温之	-10.3557
不得息	-10.356
鉛	-10.357
昏憒	-10.3577
大便秘	-10.3579
虛勞	-10.3579
彌	-10.3581
腥	-10.3583
微黄	-10.3584
昌	-10.3586
頸項	-10.3587
以前	-10.3589
浮大	-10.359
汗後	-10.3591
泣	-10.3592
慾	-10.3603
發則	-10.3609
為之使	-10.3615
芽	-10.3616
舌本	-10.362
不救	-10.362
相去	-10.3621
剥	-10.3622
隂證	-10.3623
即下	-10.3626
得汗	-10.3627
德	-10.3628
𢷬篩	-10.3631
實而	-10.3634
鍋	-10.3638
倍加	-10.3642
蓽撥	-10.3647
酒浸一宿	-10.3647
池	-10.3649
十粒	-10.365
二陳湯	-10.3651
氣上	-10.3651
二方	-10.3656
膿水	-10.366
得病	-10.366
疥癬	-10.3665
有膿	-10.3667
搗篩	-10.3668
此亦	-10.3674
桃花	-10.3678
不下食	-10.3679
脉也	-10.3682
寒也	-10.3683
蟬	-10.3684
逹	-10.3692
禍	-10.3692
未嘗	-10.3692
虛寒	-10.3694
蘇子	-10.3695
香白芷	-10.3698
原文	-10.37
留飲	-10.3703
肢	-10.3707
去滓温服	-10.3709
聖惠	-10.3709
令乾	-10.3711
及諸	-10.3712
不成	-10.3715
收斂	-10.3716
季	-10.3716
六府	-10.3717
系	-10.3718
粉草	-10.3719
孕婦	-10.3719
振寒	-10.3723
刑	-10.3724
緩急	-10.3726
平復	-10.3727
器中	-10.373
右為細末用	-10.3731
垣	-10.3731
輙	-10.3732
頭重	-10.3733
冲	-10.3734
欲吐	-10.3737
火邪	-10.374
一個	-10.3741
甘温	-10.3743
而兼	-10.3744
此之謂也	-10.375
齋	-10.3751
之性	-10.3754
之異	-10.3754
托	-10.3758
巴㦸天	-10.3759
甚妙	-10.376
昬	-10.3766
恭曰	-10.3768
菉豆	-10.3773
足厥隂	-10.3773
丸如梧桐子大	-10.3774
茅根	-10.3774
螺	-10.3777
醬	-10.3778
沃	-10.3778
傷肺	-10.3783
風水	-10.3785
丸方	-10.379
氣結	-10.379
胃脘	-10.379
先服	-10.3794
海桐皮	-10.3796
患者	-10.3796
忌海藻菘菜	-10.38
鷄子	-10.3801
輕身	-10.3802
之陽	-10.3802
兩足	-10.3806
失音	-10.3807
依前	-10.3811
突	-10.3818
童	-10.3818
翁	-10.3818
乳香没藥	-10.3823
黑色	-10.3824
治肺	-10.3826
不可治	-10.3828
肢節	-10.3829
除濕	-10.384
復作	-10.3841
東方	-10.3841
腹脹滿	-10.3841
灸三壯主	-10.3852
用人參	-10.3856
十五丸	-10.3856
入水	-10.386
芥	-10.3861
其間	-10.3861
分温三服	-10.3862
虛損	-10.387
催生	-10.387
洪大	-10.3874
癲癎	-10.3875
肺癰	-10.3881
擾	-10.3882
封之	-10.3882
食飲	-10.3883
傷暑	-10.3887
調塗	-10.3892
必須	-10.3896
皆是	-10.3897
右同	-10.3899
脾胃虚弱	-10.3902
而數	-10.3904
車前	-10.3909
或為	-10.3918
薑製	-10.3919
入麝香	-10.3921
潮	-10.3924
肝膽	-10.3925
未有	-10.3928
寒而	-10.3929
備急	-10.3932
水一鍾	-10.3939
日三四服	-10.3941
晉	-10.3944
之法也	-10.3947
右搗	-10.3949
間有	-10.395
得其	-10.3951
以温	-10.3957
爾雅云	-10.3958
遂以	-10.3959
跌	-10.3966
荳	-10.3966
一尺	-10.3966
不覺	-10.3968
魏	-10.397
水一大盞	-10.3971
漢防己	-10.3971
自有	-10.3972
覆盆子	-10.3972
柱	-10.3973
在於	-10.3975
不開	-10.3977
氣口	-10.3977
其陽	-10.3982
脚膝	-10.3982
脯	-10.3988
中毒	-10.3989
引飲	-10.399
白术散	-10.399
追	-10.3994
有時	-10.3994
光明	-10.3995
栝樓	-10.3998
麥蘖	-10.3999
而發	-10.3999
履	-10.4
乃可	-10.4005
以火	-10.4006
何也	-10.4006
又方取	-10.4007
葛根湯	-10.4008
煎至七分	-10.401
蚘	-10.4016
手太陽	-10.4018
寐	-10.4018
麫糊	-10.4023
末一錢	-10.4027
噤	-10.4029
沸湯	-10.4033
史君子	-10.4037
砒	-10.4038
則無	-10.4041
水飲	-10.4044
七箇	-10.4044
隂血	-10.4045
諸氣	-10.4045
爾雅	-10.4045
無陽	-10.4049
奔豚	-10.4054
班	-10.4055
猪膏	-10.4057
則是	-10.4058
毎服一錢	-10.4058
頭暈	-10.406
炙草	-10.4063
胷滿	-10.4066
右取	-10.4069
賊風	-10.4074
三物	-10.4075
細細	-10.4077
陰虚	-10.4078
一夜	-10.4079
煮汁	-10.4082
根皮	-10.4083
猛	-10.4087
服食	-10.4087
通身	-10.4092
天之	-10.4094
再煎	-10.4095
素有	-10.4096
兹	-10.4097
不爾	-10.4103
余謂	-10.4104
𫝊之	-10.4112
而熱	-10.4113
不樂	-10.4113
訣	-10.4114
貫衆	-10.4123
風府	-10.4124
六味地黄丸	-10.4126
蝎	-10.4133
故其	-10.4137
炒研	-10.414
勝則	-10.4144
香油	-10.4148
末服	-10.4151
亁薑	-10.4152
陽證	-10.4155
不正	-10.416
安神	-10.4161
驟	-10.4163
㣲寒	-10.4163
飱泄	-10.4163
氣實	-10.4164
禹餘糧	-10.4165
佐之	-10.4166
袋	-10.4166
楚	-10.4169
濾去滓	-10.4171
丑	-10.4174
碧	-10.4175
薑黄	-10.4179
麯	-10.4182
崑崙	-10.4186
冷痛	-10.4187
岀	-10.4187
人家	-10.4188
痰壅	-10.4189
往來	-10.4189
火盛	-10.4191
而行	-10.4195
凡人	-10.4195
憂思	-10.4198
甘草湯	-10.4198
其有	-10.4213
生風	-10.4214
呷	-10.4218
撚	-10.4218
小便赤	-10.4219
杯	-10.4221
隂邪	-10.4223
麺	-10.4225
如法	-10.4227
於中	-10.4228
散主之	-10.423
出楊氏	-10.4237
收之	-10.4242
集驗方	-10.4244
滿悶	-10.4247
黄芩黄連	-10.4248
則血	-10.4248
唐本	-10.4251
排	-10.4252
犀角地黄湯	-10.4258
恭	-10.4264
煮取	-10.4266
步	-10.4267
家藏方	-10.4269
藥性	-10.427
神昏	-10.4273
脉來	-10.4283
凡此	-10.4287
作痒	-10.4287
而實	-10.4296
水煑	-10.4297
蘿蔔子	-10.4299
懷	-10.43
黄水	-10.4302
裡	-10.4304
中熱	-10.4306
經年	-10.4306
火煆	-10.4307
酉	-10.4308
中指	-10.4312
肩背	-10.4312
不除	-10.4314
撥	-10.4315
盧	-10.4321
桑皮	-10.4322
巴	-10.4323
一兩剉	-10.4323
余曰	-10.4324
枳	-10.4333
房勞	-10.4336
薤	-10.4336
研爛	-10.4341
空心温酒下	-10.4344
診其脉	-10.435
排膿	-10.4356
如有	-10.4356
得所	-10.4357
二十四	-10.4358
帖	-10.4362
口燥	-10.4363
逆也	-10.4366
益智仁	-10.4369
用水	-10.4371
減半	-10.4371
髎	-10.4372
歇	-10.4373
麤	-10.4376
人身	-10.4378
誤矣	-10.4383
相應	-10.4384
豈可	-10.4385
金箔	-10.4387
弗	-10.4391
耳後	-10.4391
有一	-10.4397
心下痞	-10.44
或曰	-10.4404
所用	-10.4404
氣息	-10.4406
鹿角膠	-10.441
輔	-10.4414
不遂	-10.4415
緩弱	-10.4417
吞酸	-10.4419
敢	-10.442
再入	-10.4421
𤓰蔞	-10.4422
一錢半	-10.4424
煎至七分去滓温服	-10.4427
二證	-10.4431
或如	-10.4442
多年	-10.4442
乳癰	-10.4445
初發	-10.4447
迷	-10.4451
客忤	-10.4451
忘	-10.4454
則熱	-10.446
卒然	-10.4465
率	-10.4471
合和	-10.4472
七合	-10.4472
臨時	-10.4475
久不瘥	-10.4478
羣	-10.4479
昧	-10.4483
共末	-10.4489
柳	-10.4489
若是	-10.4491
八錢	-10.4491
其本	-10.4492
爽	-10.4494
狗脊	-10.4495
半身不遂	-10.4496
辯	-10.4498
毒藥	-10.4498
卿	-10.4499
一嵗	-10.4504
熱痛	-10.4506
崔氏	-10.4506
不大便	-10.4512
黄帝	-10.4516
山中	-10.4517
陰氣	-10.452
自然汁	-10.4521
欲得	-10.4522
嗜	-10.4525
蜜和	-10.4527
簡誤	-10.4531
於下	-10.4533
取肉	-10.4534
研極細	-10.4535
涸	-10.4537
燒之	-10.454
棘	-10.4541
痰熱	-10.4545
以熱	-10.4547
手指	-10.4553
箭	-10.4555
掘	-10.4555
諸般	-10.4556
右細剉	-10.4561
念	-10.4566
苟	-10.4568
震	-10.4569
於脾	-10.4569
維	-10.4573
附子湯	-10.4579
渾身	-10.458
導赤散	-10.4581
漉出	-10.4583
筯	-10.4586
熱證	-10.4586
由是	-10.4588
放温	-10.459
猪膽	-10.459
停滯	-10.4594
陶隱居云	-10.4596
舌下	-10.4598
令熟	-10.4599
瘟疫	-10.4601
奇	-10.4606
醫家	-10.4612
米泔浸	-10.4612
磁	-10.4615
生血	-10.4615
其瘡	-10.4615
隂盛	-10.4616
拌匀	-10.4621
雷公云	-10.4622
止渇	-10.4623
令熱	-10.4626
障	-10.4628
巻中	-10.4631
飲治	-10.4632
人以	-10.4635
大凡	-10.4638
舎	-10.4643
予曰	-10.4644
火熱	-10.4651
和血	-10.4651
矣然	-10.4654
灸七壯	-10.466
巔	-10.4662
毎服二錢	-10.4662
值	-10.4663
嗜卧	-10.4665
又主	-10.4669
方以	-10.4669
膩	-10.4673
湯調	-10.4674
腸風	-10.4675
麥芽	-10.4676
腫處	-10.4677
兼服	-10.4683
遠	-10.4684
曝	-10.4684
▁聖惠方	-10.4687
以意	-10.4687
水二鍾	-10.4689
分為三服	-10.4691
聖人	-10.4693
痛引	-10.4703
升陽	-10.4703
嘔血	-10.4703
矣若	-10.4703
棗二枚	-10.4705
虛則	-10.4705
蝟皮	-10.4706
沙糖	-10.4706
蝦蟇	-10.4708
繁	-10.471
煎八分	-10.4711
砒霜	-10.4711
和平	-10.4715
翅	-10.4718
鍼灸	-10.472
腸澼	-10.472
乗熱	-10.4723
為害	-10.4726
選方	-10.4728
鵝	-10.4736
院方	-10.4737
枚擘	-10.4739
尺脉	-10.4742
者不治	-10.4745
粉霜	-10.4746
亦用	-10.4747
潄	-10.4748
亟	-10.475
結成	-10.4751
枯礬	-10.4752
葳靈仙	-10.4753
輪	-10.4756
赤白帶下	-10.4761
炷	-10.4761
解毒湯	-10.4769
明矣	-10.4773
三壯	-10.4773
乃以	-10.4774
之源	-10.478
妨	-10.478
為逆	-10.4781
方云	-10.479
無常	-10.4797
作一服	-10.48
陽毒	-10.4802
仲景云	-10.4802
汚	-10.4803
毎服三錢	-10.4803
滯氣	-10.4806
厚味	-10.4808
蘓	-10.4819
語言	-10.482
肛	-10.4821
泄痢	-10.4821
瓣	-10.4823
徑	-10.4823
刼	-10.4826
喘𠻳	-10.4826
可與	-10.4827
大補	-10.4828
難産	-10.4828
食後温服	-10.4831
煎至六分去滓不計時候温服	-10.4833
嬰兒	-10.4837
升麻柴胡	-10.4853
取效	-10.4857
以清	-10.4857
生薑五片	-10.4857
汁和	-10.4857
可下	-10.486
不固	-10.4862
寒冷	-10.4862
蒺藜	-10.4868
惡熱	-10.4869
咽喉腫痛	-10.4869
思慮	-10.4872
海蛤	-10.4877
驅	-10.4878
未解	-10.4878
積年	-10.4881
不可不	-10.4883
瓜	-10.4886
雌黄	-10.4891
研如粉	-10.4891
旣	-10.4892
拘攣	-10.4897
時珍曰按	-10.4898
痘後	-10.4903
潤燥	-10.4906
正月	-10.4907
項强	-10.4907
瘡中	-10.491
一對	-10.491
蒂	-10.491
濕地	-10.4911
汪	-10.4917
禮	-10.4917
有血	-10.4918
而喘	-10.4922
第四	-10.4924
煎湯下	-10.4926
目痛	-10.4929
六合	-10.493
功用	-10.4934
然而	-10.4936
承氣	-10.4942
健脾	-10.4943
理中丸	-10.4944
百草霜	-10.4947
復發	-10.4947
寸口脉	-10.4948
薑附	-10.4948
屬陽	-10.4951
衇沉	-10.4955
此即	-10.4962
甫	-10.4968
敗毒散	-10.4968
而治之	-10.4968
𤣥胡索	-10.4969
梔	-10.497
菌	-10.497
難經	-10.4975
諸陽	-10.4977
狼毒	-10.4978
氣力	-10.4981
斟酌	-10.499
炮裂	-10.4992
芒	-10.4994
瘳	-10.4996
白石脂	-10.4996
熱極	-10.4997
巨	-10.5002
臺	-10.5004
在泉	-10.5012
滌	-10.5014
瀉痢	-10.5017
蝸牛	-10.5018
調治	-10.502
丹田	-10.5023
則知	-10.5026
之為	-10.5027
刷	-10.5033
者取	-10.5036
者先	-10.5044
淋洗	-10.5045
先煮	-10.5045
不可忍	-10.5047
治時氣	-10.5049
㵼之	-10.5056
鄭	-10.5057
茵蔯	-10.506
醋浸	-10.506
弱者	-10.5061
但以	-10.5061
煮熟	-10.5062
而渇	-10.5062
外臺秘要	-10.5068
不致	-10.5071
諸家	-10.5072
虛而	-10.5073
出醫方	-10.5075
百餘	-10.5075
三度	-10.5078
臑	-10.508
盌	-10.5081
又方以	-10.5082
茹	-10.5083
肌體	-10.5087
骨碎補	-10.5088
亂髪	-10.5089
清氣	-10.509
如泥	-10.5091
於腎	-10.5093
栁枝	-10.5093
難以	-10.5093
黄柏	-10.5094
熬令	-10.5097
脈之	-10.5099
茺蔚子	-10.51
後服	-10.51
支飲	-10.5103
坎	-10.5107
經脈	-10.5108
食不下	-10.5111
鎮心	-10.5114
報	-10.5115
怔忡	-10.5115
治熱病	-10.5115
氣上衝	-10.5119
雲母	-10.512
故謂之	-10.5122
其葉	-10.5124
右藥	-10.5126
險	-10.5128
其藥	-10.5129
而得	-10.513
幽	-10.5131
炮去皮	-10.5134
遽	-10.5135
稜	-10.5135
灸五壯	-10.5139
相反	-10.5142
湯浸去皮尖	-10.5144
究	-10.515
甚良	-10.5154
抄	-10.5158
陽起石	-10.5163
蘹香子	-10.5164
營衛	-10.5169
朴消	-10.5171
五種	-10.5175
益精	-10.5179
稍稍	-10.5182
是故	-10.5182
占	-10.5183
並用	-10.5184
出者	-10.5186
方書	-10.5187
者屬	-10.5189
蛤	-10.5197
校	-10.5198
乃是	-10.5204
少陽之	-10.5205
大效	-10.5208
戸	-10.521
發寒熱	-10.5216
治霍亂	-10.5218
皆為	-10.5219
漏下	-10.522
鉛丹	-10.522
右細末	-10.5224
誤下	-10.5226
氣血俱虚	-10.5227
寒凉	-10.5227
毫	-10.5227
治男子婦人	-10.5231
生薑自然汁	-10.5234
以醋	-10.5235
小腹痛	-10.5237
燕	-10.5238
認	-10.5239
防風湯	-10.5245
栝樓根	-10.5245
白焙	-10.525
尺中	-10.5251
黒牽牛	-10.5254
凝結	-10.5254
利水	-10.5254
必用	-10.5256
異功散	-10.5257
七八日	-10.5265
柴胡湯	-10.5269
遂愈	-10.527
石上	-10.5271
久病	-10.5271
再以	-10.5272
濕痺	-10.5272
以利為度	-10.5274
二斗	-10.5275
熱退	-10.5275
可食	-10.5277
而大	-10.5279
所以然者	-10.5284
熱藥	-10.5285
光澤	-10.5285
直視	-10.5285
所宜	-10.5287
不計時候以	-10.5289
口眼喎斜	-10.5292
寒疝	-10.5293
不知人	-10.5294
裏證	-10.5297
有形	-10.5297
水飛過	-10.5301
登	-10.5303
未出	-10.5306
男左女右	-10.5307
白石英	-10.531
治療	-10.5315
之毒	-10.5318
學者	-10.5319
方論	-10.5319
去穣	-10.5322
之言	-10.5324
脅	-10.5324
發斑	-10.5325
指甲	-10.5326
方有執曰	-10.5328
膿出	-10.5328
别録曰	-10.5335
禽	-10.5336
大劑	-10.5336
小便澁	-10.5341
受傷	-10.5343
一把	-10.5344
失宜	-10.5346
而嘔	-10.5348
亦不可	-10.535
研入	-10.5351
猪肝	-10.5363
之㑹	-10.5364
見其	-10.5365
鬼疰	-10.5366
之用	-10.5367
體倦	-10.5371
或加	-10.5378
江南	-10.5379
湯浸去皮	-10.5381
黃耆	-10.5388
為患	-10.5388
驚搐	-10.5388
有三	-10.539
醋煮	-10.5392
漫	-10.5395
致令	-10.5397
加當歸	-10.5399
成塊	-10.54
虞	-10.54
不發	-10.5402
此言	-10.5404
叉	-10.5407
以養	-10.5409
鏡	-10.5412
隨證	-10.5414
推之	-10.5414
分别	-10.5415
㣲黄	-10.5416
天地之	-10.5419
一身	-10.5425
慈	-10.5427
壅熱	-10.5431
心胷	-10.5432
動則	-10.5433
方中	-10.5433
天下	-10.5434
蟬蛻	-10.5436
毒物	-10.5438
為風	-10.5438
衞氣	-10.5441
之如	-10.5441
大便秘結	-10.5444
小柴胡	-10.5448
黄帝曰	-10.545
滛	-10.545
黄土	-10.5458
之别	-10.5459
羊脂	-10.5464
為膏	-10.5465
本方	-10.5465
心虚	-10.5466
右各	-10.547
加半夏	-10.5473
徴	-10.5476
去心各	-10.548
謝	-10.5483
没	-10.5484
徤	-10.5484
惡肉	-10.5485
用十全大補湯	-10.5486
陽明經	-10.5489
不識人	-10.549
榆	-10.549
顴	-10.5491
拳	-10.5494
炙半	-10.5496
歟	-10.5498
有瘡	-10.5504
膽礬	-10.5506
漸加	-10.5506
莭	-10.5507
取下	-10.5507
較	-10.5508
裏急後重	-10.5508
不識	-10.551
踝	-10.551
形色	-10.5515
其痛	-10.5516
栝蔞	-10.5517
心腎	-10.5522
沉細	-10.5522
裏實	-10.5524
領	-10.5528
飛過	-10.5531
手少隂	-10.5531
頭旋	-10.5533
魚際	-10.5534
已下	-10.5541
有因	-10.5541
七味	-10.5542
飲服	-10.5543
金石	-10.5543
之化	-10.5545
流行	-10.5546
者難治	-10.5552
勁	-10.5552
辭	-10.5554
監	-10.5555
者或	-10.5558
起居	-10.5561
愈後	-10.5566
入心	-10.557
不合	-10.5571
寒熱往來	-10.5574
熊	-10.5579
半觔	-10.5579
當風	-10.558
不吐	-10.5581
擣篩	-10.5581
旬日	-10.5583
後重	-10.5586
小水	-10.5587
痞悶	-10.5587
量兒大小加減	-10.5589
有小毒	-10.5592
掣	-10.5594
加黄連	-10.5596
然則	-10.5597
脫肛	-10.5598
羌活防風	-10.5603
猪肚	-10.5605
掩	-10.5605
傷處	-10.5608
庭	-10.5608
補隂	-10.5609
半兩去	-10.5613
下血不止	-10.5617
浮而	-10.5618
者但	-10.562
脈弦	-10.5621
扁鵲	-10.5622
綿褁	-10.5624
癉	-10.5625
進飲食	-10.5629
頭項	-10.563
習	-10.5631
膏藥	-10.5632
右末	-10.5633
和丸	-10.5635
不為	-10.5636
耎	-10.5636
兵	-10.5637
通用	-10.5641
標本	-10.5643
者宜用	-10.5648
侮	-10.565
洗浄	-10.566
薑五片	-10.5664
有白	-10.5665
令匀	-10.5666
珍珠	-10.5669
荆三稜	-10.5672
病有	-10.5675
補藥	-10.5675
二十枚	-10.5677
投以	-10.5679
水也	-10.5681
日晡	-10.5682
膺	-10.5688
衝心	-10.5694
諸毒	-10.5694
䘌	-10.5696
多則	-10.5699
不欲飲食	-10.57
倉	-10.5708
築	-10.5709
丸如	-10.571
烏賊魚骨	-10.5713
郭	-10.5713
别錄	-10.5716
呌	-10.5723
食療	-10.5727
厯	-10.5732
百部	-10.5734
石韋	-10.5737
不能自	-10.5743
胃寒	-10.5748
並出第	-10.575
即安	-10.5752
可作	-10.5752
翻	-10.5755
大承氣湯	-10.5757
擁	-10.576
氣海	-10.5761
方在	-10.5763
為水	-10.5764
先煎	-10.5764
悟	-10.5766
白鮮皮	-10.5767
二字	-10.5767
栝蔞根	-10.5771
漸加至	-10.5771
瘡毒	-10.5773
脉弦	-10.5773
此名	-10.5774
普	-10.5775
目睛	-10.5776
燥濕	-10.5782
新汲水	-10.5786
緣	-10.5788
不與	-10.579
蹄	-10.5791
答曰	-10.5796
研為細末	-10.5797
手少陽	-10.5797
豆大	-10.5797
右粗搗篩	-10.5797
湯浸去白	-10.5802
右為細散	-10.5802
下陷	-10.5803
栢葉	-10.5806
又灸	-10.5807
吞之	-10.5808
散治婦人	-10.5809
硃	-10.5809
為末用	-10.581
害人	-10.5813
戴	-10.5815
攪匀	-10.5819
若無	-10.5825
上逆	-10.5833
以苦	-10.5833
旋復花	-10.5841
羙	-10.5841
􁁊	-10.5843
其義	-10.5845
相得	-10.5845
熱湯	-10.5849
治傷寒後	-10.5849
止渴	-10.585
不飢	-10.585
開胃	-10.5851
懼	-10.5855
寒藥	-10.5863
毎服五錢	-10.5865
礙	-10.5867
茵芋	-10.5867
服方寸匕	-10.5869
感寒	-10.587
絞汁	-10.5871
餘藥	-10.5872
傳之	-10.5873
用加味逍遥散	-10.5876
於胃	-10.5879
不可發汗	-10.588
久而	-10.588
水病	-10.5881
商陸	-10.5884
用力	-10.5885
無灰酒	-10.5887
以候	-10.589
嘉	-10.5895
選	-10.5897
一碗	-10.5901
作餅	-10.5903
不休	-10.5904
湯化下	-10.5906
柿	-10.5911
調補	-10.5912
脉大	-10.5913
酒拌	-10.5913
過於	-10.5919
蜀漆	-10.5921
針灸	-10.5923
穴在	-10.5923
而滑	-10.5923
防葵	-10.5926
陽道	-10.5926
亢	-10.5926
湯治小兒	-10.5926
形似	-10.5928
頷	-10.593
朴	-10.5933
木鼈子	-10.5935
十餘日	-10.5939
皆屬於	-10.594
黄白	-10.594
燒末	-10.5944
五斤	-10.5944
妨悶	-10.5946
七寸	-10.5948
出痘	-10.5948
威靈仙	-10.5948
怯弱	-10.5951
傷寒論	-10.5952
三因	-10.596
爭	-10.596
血不止	-10.5961
四肢無力	-10.5964
實邪	-10.5967
亡津液	-10.5967
以知為度	-10.5971
惡寒發熱	-10.5974
紅色	-10.5975
治虚勞	-10.5976
飲食不下	-10.5981
之證也	-10.5982
服至	-10.5982
耆	-10.5985
無毒主	-10.5985
太陽之	-10.5986
爐	-10.5995
際	-10.5999
宛	-10.6001
口渴	-10.6001
之衇	-10.6004
以來	-10.6007
色如	-10.6008
二年	-10.6013
者不可	-10.6014
接骨	-10.6014
身痛	-10.6016
岐	-10.6016
額上	-10.6017
傷則	-10.6018
丸如桐子大	-10.6019
東南	-10.6019
戌	-10.602
所勝	-10.6021
恣	-10.6023
炒焦	-10.6028
多睡	-10.6032
紙上	-10.6036
芍藥甘草	-10.6037
疝瘕	-10.6038
君火	-10.6038
右一味	-10.6038
加茯苓	-10.604
痢疾	-10.6043
氣衰	-10.6043
寒水	-10.6043
之象	-10.6047
募	-10.6052
扇	-10.6052
擂	-10.6053
瞼	-10.6062
徃	-10.6068
治心	-10.6069
最為	-10.6069
卯	-10.6074
凉血	-10.6075
不可服	-10.6076
煨熟	-10.6076
畫	-10.6076
嗣	-10.6078
紅活	-10.608
伏熱	-10.608
炭火	-10.6081
蒙	-10.6085
欲嘔	-10.6085
表熱	-10.6085
小續命湯	-10.6089
加五味子	-10.6094
寢	-10.6096
行血	-10.6101
淵	-10.6102
夷	-10.6103
為虚	-10.6103
腫消	-10.6104
也故曰	-10.6108
棗三枚	-10.6112
莧	-10.6113
凖	-10.6113
病勢	-10.6118
者此為	-10.6123
二十一	-10.6126
同前	-10.6126
斃	-10.6127
畨	-10.613
次之	-10.613
必致	-10.6131
血凝	-10.6131
糟	-10.6134
虚邪	-10.6136
飲食無味	-10.6136
之形	-10.614
攣急	-10.6142
五積散	-10.6144
遂致	-10.6145
無定	-10.6146
每服三錢水一盞	-10.6146
自汗出	-10.6147
宻封	-10.6148
煎至八分去滓	-10.6153
之類主之	-10.6154
氣鬱	-10.6156
土𤓰根	-10.6158
臍上	-10.6159
迎	-10.616
盛者	-10.6161
中間	-10.6161
大法	-10.6162
膓	-10.617
二箇	-10.6171
蘗	-10.6172
童子	-10.6174
不嗜食	-10.6175
有此	-10.618
鼻内	-10.6185
吴	-10.6185
硃砂為衣	-10.6188
右為粗末	-10.6195
甄	-10.6196
毎日	-10.6199
右為末入	-10.62
河間	-10.6202
茯苓白术	-10.6203
有五	-10.6205
釡	-10.6206
再加	-10.6209
大汗	-10.6209
兩月	-10.6209
􁥥	-10.6211
瑞	-10.6214
紫蘇葉	-10.6215
治脚氣	-10.6217
口内	-10.6222
同上	-10.6223
心膈	-10.6223
爍	-10.6227
極細	-10.6227
遏	-10.6227
色黒	-10.6229
右為細末煉蜜	-10.623
慢火熬	-10.6236
内虚	-10.6238
飲食不進	-10.6242
羌活獨活	-10.6247
赤痛	-10.6248
瞳人	-10.6256
於隂	-10.6257
血海	-10.6259
於是	-10.626
諸醫	-10.6261
韓	-10.6262
督	-10.6264
薺苨	-10.6265
椎下	-10.6267
郄	-10.6267
詳見	-10.6267
夜啼	-10.6268
足心	-10.6268
忤	-10.6268
煉蜜和	-10.6268
𤓰蒂	-10.6279
時發	-10.6281
醋調	-10.6283
代赭	-10.6285
土炒	-10.6286
立差	-10.6286
嚥之	-10.6286
猪膽汁	-10.6288
用六君子湯	-10.629
空心米飲下	-10.629
更有	-10.6291
跳	-10.6292
數次	-10.6293
尋常	-10.6295
吴茱茰	-10.6295
鑑	-10.6296
亮	-10.6299
關元	-10.6299
銅人經云	-10.63
先將	-10.6301
末之	-10.6301
易治	-10.6302
治金瘡	-10.6302
日漸	-10.6305
寒暑	-10.6306
之主	-10.6308
數升	-10.6308
嚴	-10.6309
證候	-10.6309
▁普濟方	-10.6311
現	-10.6311
茄	-10.6312
􁣲	-10.6318
拒	-10.632
摘	-10.632
劣	-10.6322
醫以	-10.6324
去皮各	-10.6325
亦主	-10.6327
石榴	-10.6328
出衛生	-10.6331
動脉	-10.6333
凍	-10.6334
用大	-10.6335
之地	-10.6335
避風	-10.6337
未見	-10.6341
錦	-10.6342
五斗	-10.6342
防已	-10.6343
第七	-10.6344
腨	-10.6348
為表裏	-10.6349
茸	-10.6349
不熱	-10.635
為正	-10.635
二两	-10.6352
勞損	-10.6354
潤之	-10.6357
薑桂	-10.6358
疔瘡	-10.6358
醋炒	-10.6365
在人	-10.6367
腎虛	-10.637
皰	-10.637
加味逍遥散	-10.6372
凌	-10.6377
毒腫	-10.6377
疳瘡	-10.6382
坑	-10.6383
年餘	-10.6385
内經云	-10.6386
内踝	-10.6389
下之則	-10.6391
各一服	-10.6394
次第	-10.6394
而小	-10.6403
半年	-10.6405
蟬退	-10.6406
甘寒	-10.6407
曬乾	-10.6414
痕	-10.6418
人參湯	-10.642
禁忌	-10.6421
和氣	-10.6424
右為末煉蜜和	-10.6427
災	-10.6428
明堂	-10.6428
六寸	-10.643
消腫	-10.6431
去目	-10.6433
蚯蚓	-10.6433
入鹽	-10.6438
往來寒熱	-10.644
鍾乳粉	-10.644
而不行	-10.6443
湖	-10.6445
黄赤	-10.6445
大柴胡湯	-10.6448
癸	-10.6448
服一丸	-10.6452
法治之	-10.6452
之又	-10.6454
加黄芩	-10.6454
腰疼	-10.646
沉重	-10.6461
鬼氣	-10.6463
不肯	-10.6464
川歸	-10.6465
滯下	-10.6469
身冷	-10.647
調胃承氣湯	-10.647
而濇	-10.6471
清心	-10.6472
氣味甘	-10.6475
治肝	-10.6475
胆	-10.6475
體熱	-10.6476
起發	-10.6476
煩疼	-10.6478
消散	-10.6481
淺深	-10.6482
兮	-10.6486
南人	-10.6488
傅瘡上	-10.6488
即用	-10.6491
身上	-10.6492
膿成	-10.6492
因怒	-10.6493
寒中	-10.6495
青白	-10.6496
煎至五分去滓	-10.65
火之	-10.6501
焙各	-10.6505
遺溺	-10.6505
辛甘	-10.652
有子	-10.652
喘嗽	-10.6523
消息	-10.6532
令黄	-10.6532
絹袋盛	-10.6533
相連	-10.6533
遺精	-10.6535
半両	-10.6536
絃	-10.6537
各四兩	-10.6541
椿	-10.6543
活人	-10.6543
和胃	-10.6545
鬼臼	-10.6549
止之	-10.655
槐子	-10.6551
仰卧	-10.6551
前症	-10.6553
太衝	-10.6554
未知	-10.6555
三十六	-10.6559
盛而	-10.6562
醋淬	-10.6564
㸃眼	-10.6566
入肺	-10.6568
皆有之	-10.6568
赤眼	-10.6569
以補	-10.6573
滴水	-10.6577
酒煑	-10.6577
吞下	-10.6584
悪	-10.6585
而言	-10.6589
下品	-10.659
今之	-10.6591
以後	-10.6599
棗一枚	-10.66
黄精	-10.6603
乳香沒藥	-10.6607
手足冷	-10.6612
詵	-10.6614
至夜	-10.6615
寒涼	-10.6619
勒	-10.6626
之氣也	-10.6629
任意	-10.6631
石淋	-10.6632
虛弱	-10.6635
丸主之	-10.6638
屈伸	-10.6638
丸如梧子大	-10.6638
焮腫	-10.6639
之說	-10.6645
未必	-10.6646
痔漏	-10.6647
俾	-10.6649
頻頻	-10.665
胎動	-10.6651
其方	-10.6654
縛	-10.6654
用六味丸	-10.6657
破傷風	-10.6658
馬齒莧	-10.6663
瘙痒	-10.6663
甜葶藶	-10.6665
為難治	-10.6665
為末入	-10.6666
則爲	-10.6669
浮者	-10.6672
冷則	-10.6673
錬	-10.6674
食頃	-10.6675
父母	-10.6678
不病	-10.6679
廓	-10.668
樗	-10.6682
藥中	-10.6684
蟬殻	-10.6687
大便不實	-10.6688
膨脹	-10.6695
棄	-10.6699
藕	-10.6699
三五日	-10.6699
消導	-10.6701
湯治産後	-10.6701
豆蔲	-10.6703
治以	-10.6704
乃愈	-10.6705
木香散	-10.6705
三七	-10.6706
神明	-10.6706
湯調服	-10.6707
三四日	-10.6708
未可	-10.671
欎	-10.6711
和藥	-10.6714
之病也	-10.6715
右九味	-10.6717
胡荽	-10.6721
炙乾	-10.6724
色紫	-10.6725
者不	-10.6726
泄利	-10.673
隂火	-10.6731
為丸如梧桐子大	-10.6733
在胃	-10.6734
漸愈	-10.6735
未成	-10.6736
緫録	-10.6737
使之	-10.674
搥碎	-10.6741
鼔	-10.6741
生肉	-10.6743
退熱	-10.6744
則止	-10.6745
以水七升	-10.6746
其意	-10.6747
脱肛	-10.6749
觀其	-10.6751
瀉心湯	-10.6759
殊不知	-10.6761
檀香	-10.6762
花粉	-10.6763
加柴胡	-10.6766
皇	-10.6768
潔古	-10.6771
腎之	-10.6771
而上	-10.6774
上條	-10.6777
不便	-10.6779
凡用	-10.6779
欲作	-10.6784
白豆蔲	-10.6785
代赭石	-10.6785
仆	-10.6786
雅	-10.679
有二	-10.6793
右爲末	-10.6796
僅	-10.6798
世人	-10.68
四五日	-10.6804
汗出而	-10.6811
喘而	-10.6812
令盡	-10.6814
又服	-10.6814
日服	-10.6817
温水	-10.6818
别有	-10.6823
大麻仁	-10.6824
之義也	-10.6826
去滓内	-10.6827
倘	-10.6827
僻	-10.6828
白湯	-10.6828
蓽澄茄	-10.6828
蜂房	-10.6828
補肝	-10.6829
山芋	-10.6831
餳	-10.6833
積氣	-10.6837
清酒	-10.6844
未能	-10.6846
出御藥	-10.6848
甚而	-10.6854
寳鑑	-10.6855
用補中益氣	-10.6859
赤爛	-10.6862
乘之	-10.6865
煎至六分去滓温服	-10.6867
燒研	-10.6868
阿	-10.6869
見效	-10.6873
多者	-10.6874
尻	-10.6876
剋	-10.6878
右八味	-10.6879
一次	-10.6879
之餘	-10.6879
茂	-10.6882
白龍骨	-10.6882
發熱者	-10.6883
之使	-10.6886
强直	-10.6889
漸至	-10.6889
蒸之	-10.6891
兩目	-10.6891
衣被	-10.6892
可愈	-10.6893
浮數	-10.6895
飽食	-10.6899
外以	-10.6902
鍋内	-10.6902
成膿	-10.6907
常用	-10.6911
焙乾為末	-10.6913
響	-10.6914
酒一盞	-10.6915
枝葉	-10.6915
炙令	-10.6917
如粉	-10.6917
虛冷	-10.6919
面腫	-10.692
眼中	-10.6921
以綿	-10.6924
腸癰	-10.6924
糯	-10.6925
畜血	-10.6925
切不可	-10.6926
夜半	-10.6929
身黄	-10.693
用酒	-10.6932
目黄	-10.6937
常以	-10.6938
青黒	-10.694
日三夜一	-10.6941
伍	-10.6941
不以多少	-10.6942
除風	-10.6943
量兒大小	-10.6943
健忘	-10.6944
桶	-10.6944
胞中	-10.6946
合谷	-10.6948
寒温	-10.6952
積冷	-10.6953
表虚	-10.6958
汁出	-10.6959
蘖	-10.6966
當是	-10.6967
相引	-10.6969
陣	-10.697
半夏湯	-10.6972
不舉	-10.6972
助陽	-10.6974
所患	-10.6975
貳	-10.6979
酒蒸	-10.6981
應手	-10.6982
潤澤	-10.6982
下元	-10.6983
委	-10.6983
足冷	-10.6984
癧	-10.6986
清肺	-10.6988
子芩	-10.699
好者	-10.699
搗為末	-10.6993
違	-10.6996
四寸	-10.6997
脈數	-10.6997
口臭	-10.6999
多致	-10.7
臨臥	-10.7001
風虚	-10.7002
者以其	-10.7004
非時	-10.7009
争	-10.7013
出火毒	-10.7015
火上	-10.7017
浸酒	-10.7018
王氏	-10.7021
食前温服	-10.7024
右為末每服一錢	-10.7027
中心	-10.7028
平人	-10.7028
霧	-10.7029
便膿血	-10.7032
棗仁	-10.7032
上品	-10.7033
炒熟	-10.7039
治下篩	-10.704
視物	-10.7041
青黄	-10.7044
濕痰	-10.7044
經宿	-10.7045
宿食不消	-10.705
甑	-10.7051
不住	-10.7052
便利	-10.7054
蕩	-10.7056
介	-10.7057
内托	-10.7057
百節	-10.7058
白膠香	-10.7059
冬葵子	-10.7066
生菜	-10.7066
流入	-10.7067
督脉	-10.7081
補肺	-10.7085
點	-10.7087
白花	-10.7088
談	-10.7088
脬	-10.7089
才	-10.7089
之治	-10.7091
之良	-10.7092
牛肉	-10.7092
翹	-10.7094
十味	-10.7096
根節	-10.7099
謂其	-10.7099
腠理開	-10.7101
萎	-10.7102
草果	-10.7104
地上	-10.7111
張仲景	-10.7112
黄連黄芩	-10.7112
滋隂	-10.7112
骨肉	-10.7112
作羮	-10.7113
在中	-10.7113
調經	-10.7113
故不	-10.7114
竹筒	-10.7117
者肝	-10.7118
和解	-10.7127
隂陽俱	-10.7129
治宜	-10.7129
屬隂	-10.7133
洞泄	-10.7135
惡露	-10.7135
人參白茯苓	-10.7136
三箇	-10.7137
八日	-10.7139
或問	-10.714
經血	-10.714
糊丸	-10.714
悶絶	-10.7141
不止者	-10.7142
赤者	-10.7143
切一	-10.7143
律	-10.7143
明周王朱橚撰	-10.7145
痹	-10.7148
多是	-10.7151
暑月	-10.7152
揺	-10.7153
昏暗	-10.7153
微汗	-10.7153
甆	-10.7156
叔	-10.7157
春秋	-10.716
之日	-10.7162
癤	-10.7162
臼	-10.7162
瞳子	-10.7163
醇酒	-10.7168
二兩半	-10.7172
去毒	-10.7175
知之	-10.7175
氣痛	-10.7177
流水	-10.7178
久痢	-10.7189
冬𤓰	-10.7191
初覺	-10.7195
局	-10.7197
上升	-10.7198
参	-10.7199
不老	-10.72
不過三	-10.7202
寒多	-10.7202
多生	-10.7205
是知	-10.7208
蓬	-10.7209
出百一	-10.7212
治痰	-10.7216
地膚子	-10.7216
陽蹻	-10.7217
氣絶	-10.7222
嗌	-10.7222
鐵粉	-10.7223
針刺	-10.7224
孫真人	-10.7224
表實	-10.7224
内攻	-10.7227
也蓋	-10.7228
加生薑	-10.7232
胃口	-10.7235
十全	-10.7237
三百	-10.7237
酌	-10.7238
中人	-10.7243
校正	-10.7244
氣化	-10.7247
胸膈不利	-10.7248
亦有之	-10.7255
藥治之	-10.7257
氷片	-10.726
粥飲調下	-10.726
擦之	-10.7262
酒送下	-10.7267
界	-10.7267
肝之	-10.7268
醤	-10.7268
後世	-10.7269
蜣蜋	-10.7271
久不愈	-10.7271
相傳	-10.7273
轉動	-10.7275
不常	-10.7276
之至	-10.7276
艾炷	-10.7278
莢	-10.7278
吐涎	-10.7279
厲	-10.728
俱見	-10.7281
仙方活命飲	-10.7282
四枚	-10.7283
出膿	-10.7284
右等分為末	-10.7285
二盞	-10.7289
中見	-10.729
已潰	-10.7291
亦宜	-10.7295
不在	-10.7296
閒	-10.7297
開口	-10.7298
荆芥穂	-10.7299
只是	-10.7301
亦是	-10.7304
嚥下	-10.7308
尚未	-10.7311
甕	-10.7312
凡使	-10.7315
不任	-10.7317
土中	-10.7322
叙	-10.7322
逰	-10.7324
救之	-10.7325
段	-10.7326
虎脛骨	-10.7327
為末每服二錢	-10.733
四肢逆冷	-10.7333
亦妙	-10.7333
卒死	-10.7334
酪	-10.7335
咯血	-10.7336
常令	-10.7337
足脛	-10.7337
每服二十丸	-10.7337
腫起	-10.7342
隨其	-10.7342
於肝	-10.7343
攻心	-10.7344
亦當	-10.7345
運氣	-10.7347
頥	-10.7351
傳於	-10.7352
搥	-10.7354
已出	-10.7357
隔蒜灸	-10.7357
便愈	-10.7358
四物湯加	-10.7358
个	-10.736
淸	-10.736
宜先	-10.7361
三劑	-10.7361
無以	-10.7366
則必	-10.7367
少力	-10.7369
煎至一盞	-10.7369
脈沉	-10.7375
米湯下	-10.7376
瘟	-10.7377
孰	-10.7381
寄	-10.7385
零陵香	-10.7387
紅腫	-10.7387
針之	-10.7388
想	-10.7389
急以	-10.739
訛	-10.7392
小青龍湯	-10.7392
每服半錢	-10.7393
普濟方卷	-10.7395
青葙子	-10.7396
粥飲下	-10.7398
囘	-10.7398
敗毒	-10.7398
小便自利	-10.7399
出十便	-10.7401
人所	-10.7402
開花	-10.7406
食後臨卧	-10.7412
白帶	-10.7412
火毒	-10.7416
幼	-10.7418
膈氣	-10.7422
醋湯下	-10.7422
風池	-10.7423
之品	-10.7427
關節	-10.7428
客氣	-10.7428
而又	-10.7429
兩頭	-10.7429
漸成	-10.743
頻服	-10.7431
神妙	-10.7434
令病人	-10.7435
乗之	-10.7436
右剉如麻豆大	-10.7438
白丁香	-10.744
見血	-10.7441
患人	-10.7441
摇	-10.7444
百藥	-10.7444
蛀	-10.7445
探	-10.7445
不分	-10.7446
焮	-10.7449
青皮陳皮	-10.7449
臉	-10.745
熱酒	-10.745
道人	-10.7453
每服三十丸	-10.7454
服一升	-10.7454
切痛	-10.7455
下注	-10.7458
一錢匕	-10.746
滑者	-10.7461
先後	-10.7463
咽喉不利	-10.7465
無他	-10.7469
盲	-10.747
火也	-10.7471
穀氣	-10.7472
為效	-10.7472
五月五日	-10.7472
願	-10.7473
委中	-10.7474
濕紙	-10.7475
兔	-10.7478
將息	-10.7479
虞曰	-10.748
闗節	-10.7482
瘈	-10.7482
蕎麥	-10.7483
凡病	-10.7483
水一鍾半	-10.7485
宛宛中	-10.7485
外傷	-10.7486
煎令	-10.7486
欲死者	-10.7489
不受	-10.7494
腎肝	-10.7494
石南	-10.7495
炙令黄	-10.7498
微火	-10.7506
血淋	-10.7506
桑葉	-10.7506
蚘蟲	-10.7507
大附子	-10.751
五苓	-10.7511
其身	-10.7512
新書	-10.7513
輕則	-10.7514
入蜜	-10.7516
千金療	-10.752
黍米	-10.7526
少隂之	-10.7528
損人	-10.7529
治瘧	-10.7529
呪	-10.7531
分再服	-10.7533
大痛	-10.7534
逍遥散	-10.7537
洛	-10.7538
集驗	-10.7538
發作	-10.7538
郎	-10.7541
當作	-10.7541
何如	-10.7541
萎蕤	-10.7543
穗	-10.7543
第五	-10.7545
鼎	-10.7545
出之	-10.7546
血燥	-10.7548
室女	-10.7548
牛膽	-10.7552
不息	-10.7554
人乳	-10.7554
地黄湯	-10.7554
般	-10.7554
則傷	-10.7557
補劑	-10.7561
為邪	-10.7563
頌	-10.7563
甲乙	-10.7567
人皆	-10.7568
加木香	-10.7568
日一服	-10.7569
一方治	-10.7569
衡	-10.7569
痎瘧	-10.7571
借	-10.7573
清油	-10.7576
余曰此	-10.7578
炒二	-10.7581
苦参	-10.7581
蓮肉	-10.759
坤	-10.7595
以紙	-10.7597
鈆	-10.76
湯中	-10.7601
槌	-10.7601
作湯	-10.7602
百㑹	-10.7602
奈何	-10.7606
青龍	-10.7607
釅醋	-10.7607
名醫	-10.7613
下者	-10.7614
腎主	-10.7616
之類是也	-10.7616
息肉	-10.7617
三十日	-10.7618
結熱	-10.7621
任脉	-10.7624
散治産後	-10.7627
亦以	-10.7627
之要	-10.7627
其症	-10.7628
兩脚	-10.7629
之原	-10.7631
鹽水	-10.7631
況	-10.7631
礜石	-10.7632
體虚	-10.7633
臀	-10.7633
幹	-10.7633
供	-10.7635
香豉	-10.7636
辛夷	-10.7636
心腹疼痛	-10.7636
產後	-10.7637
癱瘓	-10.7637
鋭	-10.7638
上至	-10.7639
困倦	-10.7641
癘	-10.7642
用六君	-10.7643
化開	-10.7646
立瘥	-10.7646
文具	-10.765
三斗	-10.7652
用此藥	-10.7656
更入	-10.7657
蒸熟	-10.7658
治熱	-10.7658
煎至一盞去滓	-10.7659
頰赤	-10.7661
状如	-10.7662
克	-10.7663
一兩湯浸	-10.7664
括蔞	-10.7664
崔	-10.767
湯藥	-10.7671
矣此	-10.7672
二次	-10.7674
至隂	-10.7675
井水	-10.7678
肝主	-10.7681
㢘	-10.7683
則邪	-10.7683
鬢	-10.7684
喘咳	-10.7684
八十	-10.7685
量兒大小加减	-10.7686
亦曰	-10.7688
煮取二升	-10.7691
益黄散	-10.7691
慎勿	-10.7692
問其	-10.7699
𣪚	-10.77
婆	-10.7701
胃實	-10.7705
不寐	-10.7705
嗌乾	-10.7706
而不知	-10.7713
夜間	-10.7713
種之	-10.7714
酸疼	-10.7715
丸桐子大	-10.7716
之不	-10.7718
戊	-10.7719
不易	-10.7722
不効	-10.7724
流於	-10.7724
多而	-10.7727
慢火煎	-10.773
治瘰癧	-10.773
愼	-10.773
毎服一丸	-10.7731
竹葉石膏湯	-10.7733
即吐	-10.7734
一錢五分	-10.7736
子母	-10.7742
痰喘	-10.7742
尺寸	-10.7747
井花水	-10.7747
白斂	-10.7747
一撮	-10.775
燒令	-10.7751
由於	-10.7751
脇下痛	-10.7752
陽虛	-10.7755
又法	-10.7756
骨節疼痛	-10.7756
變蒸	-10.7757
福	-10.7759
㡬	-10.776
出水	-10.7765
臨泣	-10.7767
遠志	-10.7768
耐	-10.7769
用白	-10.7774
西方	-10.7781
而煩	-10.7782
用六味地黄丸	-10.7782
見鬼	-10.7783
相生	-10.7783
不令	-10.7786
糝	-10.7788
傷心	-10.7788
碙砂	-10.779
乍寒乍熱	-10.7791
罨	-10.7792
留滯	-10.7794
益母草	-10.7798
始於	-10.7803
以行	-10.7806
初出	-10.7809
加白术	-10.7815
未發	-10.7815
裏虚	-10.7819
微温	-10.782
而動	-10.782
蔽	-10.7823
魘	-10.7824
不傳	-10.7826
有風	-10.7834
如小豆	-10.7834
臟氣	-10.7835
益人	-10.7836
撲	-10.7838
胃經	-10.7838
虚火	-10.7841
屍	-10.7841
去風	-10.7842
未止	-10.7843
熟艾	-10.7843
柴胡升麻	-10.7845
晨	-10.7845
江東	-10.7846
用四物	-10.7846
則不能	-10.7851
汁飲之	-10.7852
鑿	-10.7853
火炙	-10.7854
之曰	-10.7854
晦	-10.7856
調其	-10.7858
痰火	-10.7858
少愈	-10.7862
通氣	-10.7862
㵼痢	-10.7863
神思	-10.7865
治風熱	-10.7865
折傷	-10.7869
胷脇	-10.7871
孝	-10.7871
血暈	-10.7871
出經驗	-10.7875
五淋	-10.7883
死也	-10.7885
瘢	-10.7888
薏苡	-10.7889
纂	-10.7889
肌表	-10.789
流氣飲	-10.7891
羊肝	-10.7898
鼻乾	-10.7898
十斤	-10.7898
橘皮湯	-10.7906
無根	-10.7907
痠疼	-10.7909
歩	-10.7909
養之	-10.7912
長夏	-10.7915
展	-10.7917
業	-10.7917
而血	-10.7918
之初	-10.7919
效方	-10.792
及一切	-10.7921
風眩	-10.7922
早晨	-10.7922
十箇	-10.7924
見風	-10.7924
痰氣	-10.7926
出大全	-10.7926
甘松	-10.7926
重則	-10.7926
慄	-10.793
祛	-10.793
煎之	-10.7931
赤箭	-10.7932
傷其	-10.7932
生子	-10.7936
實大	-10.7937
血瘕	-10.7942
期門	-10.7945
消毒飲	-10.7947
熱多	-10.7947
四升	-10.7947
如火	-10.795
微熱	-10.7951
末二錢	-10.7952
馬蹄	-10.7953
抹	-10.7953
曲池	-10.7953
巨闕	-10.7954
每服十丸	-10.7961
脾主	-10.7961
毒熱	-10.7961
如何	-10.7963
十四枚	-10.7965
熏之	-10.7965
生化	-10.7969
六十日	-10.7969
新校正云詳	-10.797
奴	-10.7971
當歸散	-10.7972
恒	-10.7973
示	-10.7973
十數	-10.7975
求其	-10.7977
末以	-10.7978
薄切	-10.7978
也與	-10.7982
淳	-10.7984
腫上	-10.7989
小而	-10.799
奪命丹	-10.7992
肺病	-10.7992
又與	-10.7993
血結	-10.7998
註云	-10.8
脾虛	-10.8001
小便不利者	-10.8003
君子	-10.8006
隂虛	-10.8008
候乾	-10.8008
死矣	-10.8008
稷	-10.8009
也盖	-10.8011
而利	-10.8012
低	-10.8013
海藻菘菜	-10.8013
右剉散	-10.8013
入腎	-10.8014
酒煎	-10.8014
不隨	-10.8015
䕡茹	-10.8017
熬膏	-10.8021
可謂	-10.8021
以鹽	-10.8025
桑枝	-10.8029
二十五	-10.8029
槐枝	-10.8033
括	-10.8035
部位	-10.8038
人參當歸	-10.8038
右件為細末	-10.804
隂腫	-10.8042
二両	-10.8045
熱在	-10.8046
黄芩湯	-10.8047
復傷	-10.8047
西北	-10.8047
從外	-10.8048
自下	-10.8048
風藥	-10.8048
審其	-10.8049
激	-10.805
毎服五十丸	-10.8053
所致也	-10.806
漫腫	-10.806
不慎	-10.8061
脉證	-10.8063
一頭	-10.8064
葫蘆巴	-10.8066
詩云	-10.8067
梢	-10.8068
飴糖	-10.8068
不能生	-10.8068
棗子	-10.8071
服盡	-10.8072
疾病	-10.8073
憊	-10.8079
不清	-10.808
返	-10.8081
無疑	-10.8082
今反	-10.8082
血滯	-10.8084
洪數	-10.8087
諸蟲	-10.8093
痿弱	-10.8093
氏曰	-10.8094
為順	-10.8094
誤吞	-10.8096
油膩	-10.8102
水調服	-10.8103
背上	-10.8103
口舌	-10.8103
陽病	-10.8105
胎氣	-10.8107
相對	-10.8107
歸身	-10.8107
常有	-10.8112
煮取三升	-10.8112
日進三服	-10.8113
脊骨	-10.8115
慘	-10.8116
陳氏	-10.8117
參蘇飲	-10.8118
卑	-10.8118
暑熱	-10.8119
甘草節	-10.8121
丸散	-10.8121
昏悶	-10.8125
蒴藋	-10.8129
如前法	-10.813
中品	-10.813
黄芩甘草	-10.8138
㣲温	-10.8142
毎服三十丸	-10.8144
榆白皮	-10.8144
二陳	-10.8148
宮	-10.8148
面色痿黄	-10.8149
雖不	-10.815
者病	-10.8151
少加	-10.8152
至春	-10.8153
色變	-10.8153
之數	-10.8153
出朱氏	-10.8155
則成	-10.8155
氣有餘	-10.8157
氣少	-10.8163
洗瘡	-10.8165
豆豉	-10.8171
傳經	-10.8175
微利	-10.8178
平無毒	-10.818
蝦蟆	-10.818
不愈者	-10.8181
此屬	-10.8181
葶藶子	-10.8184
前證	-10.8184
身體疼痛	-10.8188
羌	-10.8188
白睛	-10.8191
白痢	-10.8196
皆不	-10.8198
其時	-10.8199
記云	-10.8204
丸梧子大	-10.8206
目昏	-10.8208
狂走	-10.8209
少少	-10.821
生死	-10.8212
猪腎	-10.8213
每日空心	-10.8213
茗	-10.8213
茜根	-10.8213
肺虚	-10.8215
太陽陽明	-10.8217
盛之	-10.8217
蠐螬	-10.8219
每服二錢水一盞	-10.8219
入麝香少許	-10.8227
兩尺	-10.8231
脉洪大	-10.8232
抵當湯	-10.8238
復有	-10.8239
温無毒	-10.8242
掛	-10.8243
文武火	-10.8243
燭	-10.8243
腎氣丸	-10.8243
宜補	-10.8244
此非	-10.8245
冷痢	-10.8247
食前以	-10.8253
脉㣲	-10.8253
主之若	-10.8256
含化	-10.8257
也又云	-10.8258
腐爛	-10.8258
隂痿	-10.8259
丸如梧桐子大每服三十丸	-10.8262
骨痛	-10.8263
之府	-10.8263
摩之	-10.8264
衇也	-10.8264
又當	-10.8269
丸藥	-10.8271
治癰疽	-10.8271
之隂	-10.8271
毒攻	-10.8273
小承氣湯	-10.8274
作聲	-10.8275
分四服	-10.8276
茶清	-10.8277
捲	-10.8277
四十九	-10.8282
久患	-10.8282
頑痺	-10.8284
於目	-10.8286
也有	-10.8286
一小盞	-10.8287
右先將	-10.829
最多	-10.8291
神農	-10.8291
水五升	-10.8293
平和	-10.8293
螫	-10.8294
之味	-10.8294
滑泄	-10.8296
之大	-10.8297
黄連解毒湯	-10.8297
肌熱	-10.8298
桃枝	-10.8299
洩痢	-10.8303
空心食前服	-10.8304
等劑	-10.8306
小兒驚癎	-10.8309
胻	-10.8312
在足	-10.8312
肺之	-10.8313
榖氣	-10.8314
求之	-10.8314
生津	-10.8314
人呼為	-10.8315
之位	-10.8319
此謂	-10.8319
憑	-10.8321
牽引	-10.8321
不嘔	-10.8322
化為水	-10.8322
為實	-10.8324
切作	-10.8325
下則	-10.833
紫蘇子	-10.8331
温酒送下	-10.8334
薑湯	-10.8335
不順	-10.8335
亦如	-10.8336
利不止	-10.8337
膈上	-10.8338
則易	-10.8338
愚按	-10.834
每服一	-10.8341
停飲	-10.8343
病而	-10.8347
惠	-10.8347
葶	-10.8348
流通	-10.835
蓬术	-10.8352
脾之	-10.8353
徵	-10.8353
炙微	-10.8353
心下堅	-10.8354
髪際	-10.8355
氣上逆	-10.8356
青盲	-10.8361
亦同	-10.8362
當從	-10.8362
通行	-10.8363
導之	-10.8366
煑汁	-10.8368
尤宜	-10.8369
宣通	-10.8371
不眠	-10.8373
一産婦	-10.8374
無妨	-10.8375
熱入血室	-10.8376
巖	-10.8379
新補	-10.8383
不從	-10.8385
已後	-10.8386
二藥	-10.8386
牙疼	-10.8391
服餌	-10.8391
數年	-10.8391
更作	-10.8392
紙裹	-10.8394
疼痛不可忍	-10.8399
進退	-10.84
研半	-10.84
為本	-10.8401
三歳	-10.8403
其化	-10.8403
食鹽	-10.8404
補養	-10.8404
食則	-10.8405
内實	-10.8407
蕤仁	-10.8407
清凉	-10.8408
萬病	-10.8409
勿用	-10.841
大都	-10.841
側子	-10.8412
以成	-10.8416
誤也	-10.8418
作末	-10.8419
雙仁	-10.8419
丹溪云	-10.842
麻痺	-10.8421
氣行	-10.8426
巻	-10.843
有異	-10.843
煎至六分	-10.8431
脹悶	-10.8432
消毒散	-10.8437
氣寒	-10.8437
升麻葛根湯	-10.8437
藿	-10.8437
無形	-10.844
乃用	-10.8447
蘇葉	-10.8447
皆屬	-10.8449
生薑半分	-10.845
其聲	-10.8451
黄耆湯	-10.8452
邪在表	-10.8452
倒靨	-10.8452
衝脉	-10.8453
㵼心湯	-10.8457
夏至	-10.8458
可為	-10.8459
用地黄丸	-10.8464
研令勻	-10.8464
汗岀	-10.8464
論中	-10.8469
俱虚	-10.8471
稍熱	-10.8473
舌强	-10.8473
反折	-10.8474
經所謂	-10.8477
化下	-10.8482
之血	-10.8482
脾病	-10.8484
四圍	-10.8484
太谿	-10.8486
取二升	-10.8487
絞痛	-10.8491
章門	-10.8493
豬脂	-10.8493
手足温	-10.8493
竹葉湯	-10.8496
脾胃虚寒	-10.8497
狼	-10.8501
耳前	-10.8507
太白	-10.8509
寜	-10.8511
㓜	-10.8514
不住手攪	-10.8515
酒服方寸匕	-10.8516
游	-10.8517
洗净	-10.852
有積	-10.8525
與此	-10.8525
恒山	-10.8525
陳藏器云	-10.8526
錠子	-10.8534
薄荷湯	-10.8534
𤼵熱	-10.8535
百藥煎	-10.8537
四合	-10.8538
各少許	-10.8538
脉沈	-10.8539
之論	-10.8541
肆	-10.8545
劇者	-10.8545
貧	-10.8547
隂經	-10.8547
腰脊痛	-10.8548
喉閉	-10.8548
燒作灰	-10.8548
糊丸桐子大	-10.8549
涼血	-10.855
妄言	-10.8551
用八珍湯	-10.8553
但見	-10.8554
身疼	-10.8556
鮮血	-10.8557
抽搐	-10.8557
痠	-10.8562
却入	-10.8564
五臟六腑	-10.8564
煎湯調下	-10.8564
脉洪數	-10.8564
湯治傷寒	-10.8565
痛而	-10.8569
定粉	-10.857
元陽	-10.857
腠	-10.857
肅	-10.8573
此爲	-10.8577
食不化	-10.8579
踰	-10.8579
偽	-10.8582
虛者	-10.8585
俗呼	-10.8593
皂	-10.8596
其名	-10.8597
入于	-10.8597
養生	-10.8597
胃火	-10.8601
不作	-10.8608
潰而	-10.8609
受寒	-10.8609
右搗羅為末	-10.8609
但有	-10.861
煎汁	-10.861
其衇	-10.8611
尊	-10.8615
各有所	-10.8617
之官	-10.8619
主氣	-10.862
嘔而	-10.8621
痰實	-10.8621
人參黄茋	-10.8621
亂髮	-10.8622
營氣	-10.8624
通於	-10.8625
傷肝	-10.8627
並見	-10.8627
㑹於	-10.8628
瘡頭	-10.8628
嘴	-10.8628
定痛	-10.863
傷血	-10.863
白扁豆	-10.8631
陰中	-10.8634
善怒	-10.8634
量大小	-10.8638
下至	-10.864
九竅	-10.864
竊	-10.8642
𤓰蔕	-10.8648
小指	-10.865
廹	-10.8652
黏	-10.8652
與前	-10.8658
可得	-10.8659
厥冷	-10.8659
一伏時	-10.866
以綿裹	-10.866
如小	-10.8661
欲其	-10.8662
五藏六府	-10.8665
不滿	-10.8667
陽之	-10.8668
出而	-10.8669
者方	-10.867
飲食不節	-10.867
以散	-10.8673
泰	-10.8674
也乃	-10.8675
傷氣	-10.868
目暗	-10.8683
絳	-10.8685
須㬰	-10.8686
消風散	-10.8687
炙二	-10.8687
膏粱	-10.8689
也葢	-10.8691
辨之	-10.8695
留於	-10.8698
爛研	-10.8698
頓愈	-10.8698
温無毒主	-10.8698
而消	-10.87
黄瘦	-10.8701
心之	-10.8701
瓠	-10.8703
並宜	-10.8704
蝎稍	-10.8705
微痛	-10.8706
粥飲	-10.8708
之極	-10.8709
單用	-10.8709
外寒	-10.8709
誤服	-10.8712
氣通	-10.8713
五十粒	-10.8714
荷	-10.8717
不惟	-10.8718
籠	-10.8719
此其	-10.8723
瘥後	-10.8724
五味異功散	-10.8726
入少	-10.8728
岐伯	-10.8729
水一斗	-10.8729
大椎	-10.873
却以	-10.8737
十片	-10.8739
半去滓	-10.8743
其母	-10.8744
弓	-10.8745
坐卧	-10.8748
之謂也	-10.8751
衛生	-10.8753
子宫	-10.8753
補心	-10.8755
外科	-10.8756
痘毒	-10.8756
不疼	-10.8758
素問云	-10.8759
以通	-10.8762
長短	-10.8763
川楝子	-10.8765
椒目	-10.8768
真隂	-10.8768
䵟	-10.8769
入肝	-10.8769
消榖	-10.877
丸如彈子大	-10.877
瘡痘	-10.8772
熱渴	-10.8774
四十丸	-10.8774
第六	-10.8776
而見	-10.8778
又能	-10.8784
者何	-10.8785
出永類	-10.8786
三遍	-10.8788
程知曰	-10.8788
角弓反張	-10.8789
可知矣	-10.8792
莫能	-10.8794
方二首	-10.8794
有火	-10.8795
生痰	-10.8796
人參黄耆	-10.88
而入	-10.8801
太素	-10.8801
四畔	-10.8802
蠍	-10.8803
其味	-10.8805
治目	-10.8805
炮去皮臍	-10.8806
結痂	-10.881
然谷	-10.881
消盡	-10.8814
診其	-10.8819
顱	-10.8819
怕	-10.8822
鍼刺	-10.8824
草豆䓻	-10.8825
下流	-10.8827
本草云	-10.8836
醫方	-10.8837
孤	-10.884
四肢浮腫	-10.884
新熱	-10.8843
肝虚	-10.8843
微細	-10.8849
痰逆	-10.885
病必	-10.8851
内側	-10.8852
修合	-10.8853
益元散	-10.8854
脾氣虚	-10.8855
者何也	-10.8856
潛	-10.8857
停積	-10.8858
食不消	-10.886
巧	-10.8861
銳	-10.8862
一本	-10.8862
方三首	-10.8864
時或	-10.8867
炒黒	-10.887
食即	-10.887
外障	-10.8871
生熱	-10.8875
洒	-10.8875
芥子	-10.8876
淋漓	-10.8878
真陽	-10.8879
用生薑	-10.8879
少商	-10.8885
其外	-10.8886
也又曰	-10.8886
嘔者	-10.8887
吏	-10.8888
則可	-10.8889
或生	-10.8891
寒厥	-10.8892
驚熱	-10.8892
禦	-10.8892
歸芍	-10.8893
而取之	-10.8893
赤痢	-10.8894
以助	-10.8895
筋脈	-10.8896
盆中	-10.8896
又加	-10.8896
多飲	-10.8899
鋒	-10.89
深師	-10.8901
痛或	-10.8901
十二月	-10.8901
所化	-10.8903
余以為	-10.8905
續注	-10.8908
盃	-10.8908
宜服之	-10.8909
白頭翁	-10.8909
噎塞	-10.8911
而起	-10.8912
水調下	-10.8913
便是	-10.8913
者可治	-10.8914
觀之	-10.8916
痘出	-10.8918
泄之	-10.892
炙㣲	-10.8922
而得之	-10.8923
在心	-10.8925
在經	-10.8925
虱	-10.8925
牛馬	-10.8926
之由	-10.8928
涼藥	-10.8928
叢	-10.8929
五嵗	-10.8931
釀酒	-10.8931
小児	-10.8935
二曰	-10.8936
形證	-10.8936
以救	-10.894
四氣	-10.8941
及治	-10.8941
生蟲	-10.8944
治脾	-10.8949
夢遺	-10.895
片腦	-10.8956
巢	-10.8958
熱酒調下	-10.8959
脾胃虚	-10.896
茍	-10.8963
包絡	-10.8965
痰𠻳	-10.8965
猪牙皂角	-10.8965
入眼	-10.8966
招	-10.8967
脉微	-10.8969
汞	-10.8971
冲和	-10.8974
先取	-10.8974
兆	-10.8974
五痔	-10.8983
後入	-10.8983
梅師方	-10.8983
大小便不利	-10.8984
並無	-10.8985
以水一大盞	-10.8986
其理	-10.8987
惡毒	-10.8987
而細	-10.8988
陽經	-10.899
猶可	-10.899
丸如梧桐子大每服	-10.8992
面白	-10.8992
血病	-10.8995
動摇	-10.8996
煎藥	-10.8997
發汗後	-10.8997
分温二服	-10.8998
婦人産後	-10.9001
渣	-10.9003
渗	-10.9004
飲食減少	-10.9006
有水氣	-10.9007
浸淫	-10.9007
匈	-10.9008
樓	-10.901
而痛者	-10.9013
難得	-10.9017
查	-10.902
别錄曰	-10.9022
豈有	-10.9023
内用	-10.9023
末和	-10.9024
以甘	-10.9025
北人	-10.9025
膿潰	-10.903
楊梅	-10.903
猫	-10.9031
外有	-10.9031
犯之	-10.9033
喘逆	-10.9035
惜	-10.9035
何謂	-10.9039
益血	-10.9039
捕	-10.904
白馬	-10.9043
湧泉	-10.9044
日華子	-10.9045
寸許	-10.9045
麻子仁	-10.9046
治大人小兒	-10.905
之力	-10.9052
不得汗	-10.9053
當歸尾	-10.9057
眼赤	-10.906
新水	-10.9064
每服五錢水一盞半	-10.9065
桞	-10.9066
酒疸	-10.9068
適寒温	-10.9069
出第十	-10.907
則陽	-10.9072
身之	-10.9072
喪	-10.9073
炒香	-10.9074
哽	-10.9075
佛	-10.9075
殘	-10.9077
蟻	-10.9077
冷服	-10.9077
則隂	-10.9078
蛤蚧	-10.9079
足大指	-10.908
鬼神	-10.908
五箇	-10.9087
水一碗	-10.9087
荅曰	-10.909
死不治	-10.9092
升麻葛根	-10.9095
咳逆	-10.9096
傷腎	-10.9098
畔	-10.9099
通經	-10.9099
衇證	-10.91
聲音	-10.9101
狼牙	-10.9103
肺中	-10.9104
程	-10.9105
八合	-10.9107
加桂	-10.9109
釣藤	-10.9111
陽脉	-10.9116
肢體倦怠	-10.9117
始得	-10.9117
味甘平無毒主	-10.9119
麸	-10.912
瘡癤	-10.9121
加乾薑	-10.9121
口渇	-10.9123
多熱	-10.9125
論之	-10.9127
研如泥	-10.9127
糊為丸	-10.9127
傷冷	-10.9128
脉皆	-10.9129
能除	-10.9131
綠	-10.9132
四支	-10.9134
兩旁	-10.9134
烘	-10.9134
為善	-10.9135
丹溪曰	-10.9136
而愈後	-10.9142
内托散	-10.9149
人中	-10.9149
漱	-10.9151
田野	-10.9152
右麄搗篩	-10.9155
血塊	-10.9156
渴者	-10.9156
藥用	-10.9157
即發	-10.9162
衆醫	-10.9162
吐痢	-10.9162
羞明	-10.9165
痼	-10.9165
産難	-10.9166
煎至八分	-10.9173
菓	-10.9174
則發	-10.9177
古今録驗	-10.9177
療産後	-10.9178
大成	-10.918
恚怒	-10.9181
注於	-10.9182
御纂醫宗金鑑卷	-10.9183
食物	-10.9183
菰	-10.9183
外䑓秘要	-10.9183
途	-10.9185
涎潮	-10.9186
濶	-10.9186
膻中	-10.9186
三曰	-10.9187
大渴	-10.9189
袪	-10.919
者曰	-10.9192
外敷	-10.9192
勿使	-10.9193
冠	-10.9193
空青	-10.9194
所言	-10.9196
生翳	-10.9198
之候也	-10.9201
益氣力	-10.9203
上壅	-10.9203
啜	-10.9204
二三服	-10.9204
第二十	-10.9207
重舌	-10.9208
清肝	-10.9209
入房	-10.921
减半	-10.9211
則寒	-10.9212
噙	-10.9212
練	-10.9212
大指	-10.9213
衰弱	-10.9213
二條	-10.9215
一十	-10.9216
油調	-10.922
仍服	-10.9222
宜服此方	-10.9224
闗格	-10.9224
乾山藥	-10.9224
而氣	-10.9227
未有不	-10.9228
調傅	-10.9234
隂囊	-10.9236
蘇合香丸	-10.9237
屬肝	-10.9239
氣温	-10.924
血也	-10.924
地黃	-10.9243
性寒	-10.9243
尚有	-10.9245
而然也	-10.9248
𩕄	-10.9249
不得小便	-10.9252
搔	-10.9252
様	-10.9254
去血	-10.9254
不見火	-10.9254
酒一升	-10.9254
至此	-10.9256
數者	-10.9258
蘇恭	-10.9265
頭目昏眩	-10.9267
屬火	-10.927
熱痢	-10.9272
一穴	-10.9273
小品	-10.9275
川牛膝	-10.9278
日數	-10.9279
熱淋	-10.9283
炒乾	-10.9285
脉不	-10.9291
茯苓甘草	-10.9292
風温	-10.9292
戾	-10.9293
隂蹻	-10.9293
渴而	-10.9297
滎	-10.9298
冷熱不調	-10.9298
日午	-10.93
至于	-10.9303
不饑	-10.9303
即效	-10.9305
用好	-10.9306
之謂	-10.9307
長而	-10.9308
冷物	-10.9308
得此	-10.931
病證	-10.9311
五粒	-10.9311
拭乾	-10.9313
十棗湯	-10.9317
二錢匕	-10.9319
所感	-10.9319
不足也	-10.932
傷胃	-10.9321
絮	-10.9322
楊氏	-10.9323
病機	-10.9324
傷中	-10.9324
熱中	-10.9324
桔	-10.9324
也言	-10.9325
陽中	-10.9327
肚腹	-10.9327
久不	-10.9328
縷	-10.9329
味苦辛	-10.9331
慶	-10.9332
脈微	-10.9333
炮製去皮	-10.9333
乾枯	-10.9334
一二升	-10.9337
沒	-10.9339
濃汁	-10.9345
不省	-10.9346
四季	-10.9347
治男子	-10.9347
八正散	-10.9349
叔和	-10.935
乾摻	-10.935
其勢	-10.9355
資生	-10.9356
之常	-10.9357
背痛	-10.9359
風火	-10.936
治妊娠	-10.9363
羸弱	-10.9363
純陽	-10.9365
如大豆	-10.9366
員	-10.9366
肝病	-10.9367
㮣	-10.9369
出如	-10.937
病已	-10.9376
㿗	-10.9377
腎為	-10.9377
心忪	-10.9379
黒者	-10.9385
薑汁炙	-10.9388
治痟渇	-10.9389
糜	-10.939
頂上	-10.9393
半夏麯	-10.9397
脉浮而	-10.9398
手心	-10.9399
桂心甘草	-10.94
三十粒	-10.9401
初得	-10.9402
急者	-10.9403
湯療	-10.9406
風寒暑濕	-10.9406
未除	-10.9408
千里	-10.9409
亦非	-10.9412
太甚	-10.9412
日乆	-10.9421
炙剉各	-10.9424
崩漏	-10.9427
痰嗽	-10.9428
涎出	-10.9429
隨手	-10.9429
川谷	-10.9429
有効	-10.9431
搨	-10.9439
聴	-10.9439
氣不和	-10.944
搔之	-10.944
和塗	-10.944
心下悸	-10.944
並主	-10.9441
以瘥為度	-10.9442
黎	-10.9443
終身	-10.9444
不論	-10.9446
亦可用	-10.945
小建中湯	-10.9452
滋養	-10.9456
多驚	-10.9457
宜急	-10.9457
以至	-10.9457
其表	-10.9459
馬刀	-10.9459
微腫	-10.9461
皮薄	-10.9461
藥毒	-10.9462
騰	-10.9463
支滿	-10.9464
寸半	-10.9466
四體	-10.9468
横骨	-10.9472
净洗	-10.9474
遲者	-10.9475
者蓋	-10.9477
少年	-10.9477
右為末蜜	-10.9478
水之	-10.9479
而痊一小兒	-10.948
麻黄根	-10.9481
煎丸	-10.9482
膿水淋漓	-10.9482
水者	-10.9482
五心煩熱	-10.9483
有熱者	-10.9483
直上	-10.9484
用桂枝	-10.9486
不拘時温服	-10.9486
不節	-10.9488
二七枚	-10.9489
也傷寒	-10.9489
溺血	-10.949
忌食	-10.9492
以物	-10.9494
神志	-10.9495
出仁	-10.9495
尸厥	-10.9495
命曰	-10.9499
溜	-10.9503
鼻孔	-10.9504
其蟲	-10.9506
能生	-10.9508
而變	-10.9508
自死	-10.951
八風	-10.951
搖	-10.9511
治發背	-10.9511
中痛	-10.9511
以水五升	-10.9513
蛇蛻	-10.9514
陳藏器	-10.9515
趨	-10.9516
空虚	-10.9516
宅	-10.9517
治其	-10.9521
制之	-10.9523
地膽	-10.9525
耳目	-10.9526
也時珍曰	-10.9526
由此	-10.9529
大人小兒	-10.953
降氣	-10.9531
毛髪	-10.9532
鐺	-10.9532
四肢拘急	-10.9533
云是	-10.9535
白芥子	-10.9536
矣又	-10.9538
法以	-10.9539
於陽	-10.9544
當時	-10.9548
絡脉	-10.9548
上文	-10.9548
野葛	-10.9548
一大盞	-10.9554
去滓入	-10.9554
應之	-10.9554
海螵蛸	-10.9556
用六君子加	-10.9556
當吐	-10.9557
不離	-10.9558
必效	-10.9558
湯洗七	-10.956
有毛	-10.9561
風疹	-10.9562
䖟蟲	-10.9562
存方	-10.9563
防風通聖散	-10.9564
九日	-10.9565
五七日	-10.957
陽維	-10.9573
乳石	-10.9578
有瘀血	-10.958
也非	-10.958
自生	-10.9585
試之	-10.9586
眼睛	-10.9587
心下滿	-10.9587
雞子白	-10.959
穏	-10.9593
薄荷湯化下	-10.9595
準	-10.9596
鳩尾	-10.9597
温水調下	-10.9597
釘	-10.9598
入酒	-10.9598
南木香	-10.9599
煎至八分去滓温服	-10.9599
平胃	-10.9599
翳膜	-10.9599
撒	-10.96
隨年壯	-10.96
剉一	-10.9601
忌生葱	-10.9602
書云	-10.9603
白前	-10.9604
煎七分去滓	-10.9606
蟲出	-10.9606
木鱉子	-10.9607
浸之	-10.9607
不斷	-10.9608
天樞	-10.9608
細而	-10.9608
三十枚	-10.9609
藥之	-10.9611
再作	-10.9612
心病	-10.9613
以新	-10.9613
亷	-10.9615
乘熱	-10.9616
荆防敗毒散	-10.9619
研如膏	-10.9621
午時	-10.9623
清涕	-10.9625
准	-10.9625
出和	-10.9626
寒無毒	-10.9626
陳米	-10.9627
拂	-10.9629
亦為	-10.9629
者盖	-10.963
巾	-10.963
蔡	-10.9633
氣血虚	-10.9634
問之	-10.9637
用補中益氣湯加	-10.9642
拌炒	-10.9644
翻胃	-10.9646
汁服	-10.9648
炒出汗	-10.9649
白麵	-10.9649
然也	-10.9652
其疾	-10.9658
諸熱	-10.9658
失於	-10.9661
傷也	-10.9664
而能	-10.9667
右㕮咀以	-10.9667
植	-10.9669
苔	-10.967
通口服	-10.9672
嚙	-10.9672
世俗	-10.9672
蟬蜕	-10.9673
無效	-10.9676
尺澤	-10.9678
之正	-10.9678
瓦上	-10.9678
銚	-10.9679
失守	-10.9682
六脉	-10.9682
分明	-10.9682
令其	-10.9683
其為	-10.9688
飲子治	-10.9689
瞑	-10.969
地之	-10.9697
動也	-10.9698
下重	-10.9699
齒齗	-10.9701
合病	-10.9702
友	-10.9703
而多	-10.9703
瑩	-10.9704
威	-10.9708
子死腹中	-10.9709
白术甘草	-10.9709
氣脹	-10.971
其説	-10.971
姚	-10.9713
身凉	-10.9714
濟生	-10.9715
外腎	-10.9715
厥者	-10.9719
用大黄	-10.9719
去蘆各	-10.9722
齗	-10.9724
風疾	-10.9727
每用少許	-10.9731
白薑	-10.9731
斛	-10.9732
井中	-10.9737
木之	-10.9739
虛煩	-10.974
一息	-10.9741
患之	-10.9742
笋	-10.9742
者言	-10.9743
甘菊	-10.9746
湯加	-10.9746
誤用	-10.975
莪术	-10.9751
新汲水調下	-10.9753
酒毒	-10.9753
一兩五錢	-10.9758
經閉	-10.976
大作	-10.9761
食之令人	-10.9762
桔梗湯	-10.9764
祐	-10.9766
九十	-10.9767
虚極	-10.9769
肓	-10.977
第九	-10.977
以蜜	-10.9772
治脾胃	-10.9776
惡風寒	-10.9778
縳	-10.9778
即時	-10.9779
豬苓	-10.9779
脩	-10.9779
作痛或	-10.978
腹中有	-10.978
其效	-10.9783
外側	-10.9783
三十年	-10.9784
牙痛	-10.9784
文仲	-10.9784
燒赤	-10.9784
蛇毒	-10.9785
逆冷	-10.9787
非也	-10.9788
臨産	-10.9788
月水不調	-10.979
依法	-10.9793
火丹	-10.9793
水一中盞	-10.9795
之類皆	-10.9795
種種	-10.9797
出也	-10.9797
澁痛	-10.9801
無窮	-10.9802
剉微	-10.9806
水濕	-10.9806
湯服	-10.9807
丼	-10.9814
汁中	-10.9815
百粒	-10.9817
潰瘍	-10.9821
脉虚	-10.9822
􁐍	-10.9825
仙靈脾	-10.9826
憎寒	-10.9827
蔕	-10.9829
四肢不舉	-10.9831
量大小加減	-10.9833
利水道	-10.9834
雖然	-10.9837
熟水下	-10.984
藏之	-10.9844
楮	-10.9845
下有	-10.9846
傳變	-10.9848
瞤	-10.9852
月水不通	-10.9853
風木	-10.9853
内藥	-10.9853
此憑	-10.9853
每服五十丸	-10.9855
直者	-10.9855
浮萍	-10.9857
富	-10.9858
哺	-10.9858
不若	-10.9858
榮血	-10.9859
酒中	-10.9859
婦人血氣	-10.9859
濁氣	-10.9862
即為	-10.9862
名也	-10.9862
薑汁炒	-10.9863
非常	-10.9863
芹	-10.9864
銅青	-10.9866
功效	-10.9866
雉	-10.987
在肺	-10.987
皆用	-10.9871
用補中益氣加	-10.9872
取藥	-10.9873
右十味	-10.9875
補脾胃	-10.9878
服二丸	-10.9878
脉洪	-10.9881
渠	-10.9883
諸藥不效	-10.9884
主於	-10.9886
有物	-10.9888
石膽	-10.9889
不如	-10.9891
治痢	-10.9893
火煅	-10.9896
咎	-10.9899
銷	-10.99
行之	-10.99
始生	-10.9901
悮	-10.9902
不知其	-10.9904
兊	-10.9904
乘虚	-10.9904
上部	-10.9906
煤	-10.9906
漉	-10.9907
丸子	-10.991
去查	-10.991
偏勝	-10.991
隂脉	-10.9911
暍	-10.9911
桔梗甘草	-10.9913
火動	-10.9915
反張	-10.9916
風寒濕	-10.9917
魂魄	-10.9917
臂痛	-10.9918
消瘦	-10.9919
所作	-10.9919
骨間	-10.9921
不可近	-10.9922
瘴瘧	-10.9925
交接	-10.9926
酒服之	-10.9927
治寒	-10.9929
香散	-10.993
不可與	-10.9933
為上	-10.9934
逆順	-10.9941
貪	-10.9942
析	-10.9942
為末每	-10.9943
罌粟殻	-10.9943
建中	-10.9943
𨗳	-10.9943
此等	-10.9947
五疳	-10.9951
無益	-10.9952
豈非	-10.9954
胃氣虚	-10.9954
右剉如麻豆	-10.9956
穴主治	-10.9961
如豆	-10.9963
人亦	-10.9964
補虛	-10.9964
當有	-10.9966
惡食	-10.9967
樹皮	-10.9968
加味歸脾湯	-10.997
二陳湯加	-10.997
末傅之	-10.9972
丁曰	-10.9973
豈不	-10.9975
揑	-10.9979
日進	-10.9979
白茅根	-10.9981
續命湯	-10.9982
廣濟療	-10.9982
子母秘録	-10.9983
疳痢	-10.9983
最良	-10.9985
韭子	-10.9987
及婦人	-10.9989
冷痺	-10.9992
也因	-10.9993
色紅	-10.9994
最宜	-10.9997
莫不	-11.0001
十五日	-11.0001
銅人	-11.0003
吹之	-11.0003
經中	-11.0004
灰白	-11.0005
再研	-11.0006
間服	-11.0006
先食	-11.0006
通神	-11.0008
其源	-11.0009
六畜	-11.0009
手足厥逆	-11.0009
引用	-11.0012
不容	-11.0013
之道也	-11.0013
家人	-11.0014
痛痒	-11.0015
飲湯	-11.0016
倚	-11.0016
囓	-11.0016
寓	-11.0018
迴	-11.0018
萎㽔	-11.0019
隆	-11.0019
方四首	-11.0021
其汁	-11.0021
猶有	-11.0021
王不留行	-11.0026
渇而	-11.0027
丸如菉豆大	-11.003
行歩	-11.003
當下之	-11.0031
濕則	-11.0031
毎服二十丸	-11.0032
弟	-11.0034
每服四錢水一盞	-11.0037
緩則	-11.0037
孟詵云	-11.0042
韮	-11.0042
未至	-11.0042
血止	-11.0042
汗解	-11.0043
峻補	-11.0044
吮	-11.0048
下三寸	-11.0049
秘方	-11.005
鮓	-11.005
人也	-11.005
右為	-11.005
壅盛	-11.0051
風入	-11.0053
園	-11.0054
啞	-11.0057
蟾	-11.0058
乂	-11.0059
賴	-11.0059
以解	-11.006
明礬	-11.0062
决明子	-11.0064
虎睛	-11.0065
木也	-11.0065
早晚	-11.0067
内結	-11.0069
狀似	-11.0069
右為末每服三錢	-11.0069
慎之	-11.0073
雷公	-11.0076
治一切風	-11.0077
中以	-11.0078
弱而	-11.008
血不足	-11.0084
未愈	-11.0085
痿厥	-11.0085
用醋	-11.0086
忌生冷	-11.0088
一切風	-11.0093
蓐	-11.0094
亭	-11.0095
偃	-11.0097
數月	-11.0098
白屑	-11.0098
雄雞	-11.0099
十指	-11.0099
其内	-11.0101
如珠	-11.0103
為粗末	-11.0103
枯燥	-11.0104
者乎	-11.0106
損其	-11.0109
如粟	-11.011
五里	-11.0111
始發	-11.0111
門冬	-11.0112
艱難	-11.0113
時復	-11.0115
調藥	-11.0115
採無時	-11.0115
浙	-11.0116
檀	-11.0116
大麻子	-11.0118
龜甲	-11.0119
汲	-11.0126
三日後	-11.0127
色黑	-11.0129
徃來	-11.0129
所不勝	-11.013
衍	-11.0134
也且	-11.0134
形狀	-11.0135
一寸半	-11.0135
今附	-11.0135
酒二升	-11.0136
言也	-11.0137
弊	-11.0137
霍	-11.0137
概	-11.0138
睡中	-11.0142
黄汗	-11.0143
未得	-11.0144
本事方	-11.0145
即生	-11.0146
産後血	-11.0147
竝	-11.0148
藥成	-11.0149
乆則	-11.0149
右為散每服二錢	-11.015
極熱	-11.0154
虚風	-11.0155
虛也	-11.0156
勞瘵	-11.0159
猪蹄	-11.0162
白秃	-11.0164
一二錢	-11.0168
遂用	-11.017
姓	-11.017
蘆薈丸	-11.0171
以冷水	-11.0171
焦黄	-11.0173
蜜水	-11.0173
故病	-11.0174
法用	-11.0174
叚	-11.0175
川黄連	-11.0176
下咽	-11.0178
宜服此	-11.0179
𤣥参	-11.018
煑熟	-11.018
䟽	-11.0181
而未	-11.0183
𢎞	-11.0184
感冒	-11.0184
一夕	-11.0188
筋骨疼痛	-11.0189
血妄行	-11.0191
所載	-11.0193
其主	-11.0196
受風	-11.0196
太陽證	-11.0197
血瘀	-11.0199
瀉肝	-11.02
半匙	-11.0204
麥門冬湯	-11.0206
作丸	-11.0208
起脹	-11.0209
出油	-11.0209
肺主氣	-11.021
中府	-11.021
職	-11.0211
袪風	-11.0215
懊憹	-11.0216
米粉	-11.0217
山豆根	-11.0218
罕	-11.0219
頭瘡	-11.0223
輯	-11.0224
以白	-11.0225
心悸	-11.0225
氣道	-11.0227
四肢厥冷	-11.0227
復生	-11.023
有大毒	-11.0231
賁	-11.0234
四方	-11.0234
下篩	-11.0235
也惟	-11.0235
是矣	-11.0236
袋盛	-11.0236
面黒	-11.0237
逺近	-11.024
瀉火	-11.0242
甚也	-11.0242
胸痺	-11.0247
手心主	-11.0247
去柤	-11.0249
近世	-11.0249
皂角刺	-11.0249
見前	-11.0252
洗焙	-11.0252
嚥津	-11.0253
膏子	-11.0254
緩而	-11.0255
判	-11.0255
以差為度	-11.0256
葡萄	-11.0257
鶴	-11.0258
氣平	-11.0258
煎六分去滓	-11.0259
蠧	-11.0259
𢃄	-11.0259
大黄湯	-11.0262
劉寄奴	-11.0263
者胃	-11.0264
脈大	-11.027
茯苓湯	-11.027
肉荳蔲	-11.0272
卒中	-11.0275
梳	-11.0275
竄	-11.0276
東垣云	-11.0278
方見二十四	-11.028
黑牽牛	-11.0281
清涼	-11.0289
再發	-11.029
兩邊	-11.0294
拌和	-11.0294
扁豆	-11.0295
散治姙娠	-11.0295
服藥後	-11.0296
於皮膚	-11.0297
南海	-11.0297
治頭風	-11.0298
從之	-11.0298
窌	-11.0298
祛風	-11.0299
燎	-11.03
熟水	-11.0301
飼	-11.0302
怒氣	-11.0303
絍	-11.0303
者葢	-11.0305
以水三升	-11.0305
胕腫	-11.0306
五氣	-11.0306
摶於	-11.0306
能消	-11.0307
沬	-11.0307
兩傍	-11.0312
溼熱	-11.0312
一分炙	-11.0313
傷折	-11.0314
多痰	-11.0315
腑臟	-11.0316
出海	-11.0324
客邪	-11.0327
而緩	-11.0329
出不快	-11.0331
小便淋	-11.0331
内陷	-11.0333
血者	-11.0336
中外	-11.0336
糠	-11.0336
淨洗	-11.0337
渉	-11.0339
紫河車	-11.0339
蓬莪茂	-11.034
三沸	-11.0342
也謂	-11.0343
根葉	-11.0343
至秋	-11.0344
舟	-11.0344
早晩	-11.0344
理氣	-11.0349
合於	-11.035
藏氣	-11.0351
小便多	-11.0352
清濁	-11.036
發渇	-11.0364
二十粒	-11.0368
剉㣲	-11.0369
劑方	-11.037
疲	-11.0374
水六升	-11.0376
三種	-11.0376
彊	-11.0377
右闗	-11.0378
絶骨	-11.0378
勤	-11.0379
部分	-11.0381
􁁜	-11.0382
兄	-11.0383
痔疾	-11.0383
濡弱	-11.0383
彭	-11.0384
根如	-11.0385
切忌	-11.0385
無害	-11.0389
蛆	-11.0391
射香	-11.0391
上膈	-11.0392
塗酥	-11.0401
湯吞下	-11.0402
方大黄	-11.0406
屬於	-11.0406
天癸	-11.0407
巴豆霜	-11.0409
頭骨	-11.0409
矣其	-11.041
火鬱	-11.041
匱	-11.0417
右為細末入	-11.0418
雀目	-11.0418
入内	-11.0419
無味	-11.042
玩	-11.042
松香	-11.0422
貨	-11.0423
大虚	-11.0424
之甚	-11.0425
抱龍丸	-11.0425
極則	-11.0426
霞	-11.0426
則當	-11.0427
緩者	-11.0428
差後	-11.0428
也所以	-11.0436
畏寒	-11.0438
在左	-11.0441
變白	-11.0441
因於	-11.0443
亦效	-11.0446
參苓	-11.0447
初病	-11.0447
五更初	-11.045
三十餘劑	-11.045
痛也	-11.045
當補	-11.045
主風	-11.0452
一方以	-11.0454
不足則	-11.0455
右為細末每服一錢	-11.0455
有小	-11.0459
字當是	-11.0459
而解	-11.046
衇微	-11.0462
未定	-11.0463
右十二味	-11.0463
腰腹	-11.0465
皆然	-11.0467
食逺	-11.0467
梓	-11.0467
變生	-11.0471
俱有	-11.0471
而瘥	-11.0472
和丸如梧桐子大	-11.0472
頤	-11.0473
自安	-11.0474
丸麻子大	-11.0475
惡阻	-11.0475
胃之	-11.0475
犀角散	-11.0476
無異	-11.0477
之機	-11.048
如醉	-11.0483
寡	-11.0487
將藥	-11.0487
外踝	-11.0487
二十餘劑	-11.0488
銚内	-11.0488
煑取	-11.0488
也又有	-11.0489
右寸	-11.049
釣	-11.049
裹之	-11.0492
如豆大	-11.0492
膕	-11.0492
時作	-11.0493
氣所	-11.0494
姙	-11.0495
死人	-11.0496
人中白	-11.0497
歌曰	-11.0498
為丸如菉豆大	-11.05
護	-11.0502
清之	-11.0503
胭脂	-11.0505
水三盞	-11.0505
痺不仁	-11.0507
傅上	-11.0507
攪令勻	-11.0508
人事	-11.0508
夏枯草	-11.051
月經不調	-11.051
贅	-11.051
折之	-11.0511
可下之	-11.0511
七錢半	-11.0512
得吐	-11.0514
叢生	-11.0517
一石	-11.0518
木香㯽榔	-11.0519
散之	-11.0519
或先	-11.0519
渾	-11.052
足以	-11.052
少腹痛	-11.0526
心氣不足	-11.0526
上以	-11.0527
壯筋骨	-11.0527
千金同	-11.0528
三尺	-11.0528
蔓生	-11.0529
者雖	-11.053
凉藥	-11.053
右搗羅	-11.0532
方藥	-11.0533
餘熱	-11.0534
喘欬	-11.0535
利止	-11.0538
之色	-11.0539
脉訣	-11.054
久久	-11.0543
三隂三陽	-11.0544
尚可	-11.0545
病家	-11.0545
努	-11.0545
寺	-11.0545
複	-11.0546
發作有時	-11.0548
摸	-11.0548
呻吟	-11.0548
禹	-11.055
川朴硝	-11.055
也先	-11.0551
心肝	-11.0552
燒灰存性	-11.0553
經騐方	-11.0553
寛中	-11.0554
參耆	-11.0554
大青龍湯	-11.0556
尤良	-11.0556
攻其	-11.0556
噙化	-11.0558
無有	-11.0559
服一錢	-11.056
瘁	-11.0561
疔腫	-11.0561
所中	-11.0562
之表	-11.0562
者多矣	-11.0564
瓷	-11.0565
山梔子仁	-11.0566
托裏散	-11.0566
若此	-11.0571
一鍾	-11.0573
漬一宿	-11.0573
卒暴	-11.0573
飛尸	-11.0574
即通	-11.0575
六銖	-11.0576
腥臭	-11.0576
不得食	-11.0578
甚至	-11.0579
所至	-11.0579
鱉	-11.0584
邪入	-11.0585
五藏之	-11.0586
互相	-11.0587
沾	-11.0587
拆	-11.0588
用歸脾湯	-11.0588
用針	-11.0588
洗眼	-11.0589
客于	-11.0592
訪	-11.0592
杖瘡	-11.0592
乳哺	-11.0596
其肉	-11.0596
越人	-11.0597
則發熱	-11.0597
易産	-11.0599
入耳	-11.0601
癲狂	-11.0601
脈洪大	-11.0602
而内	-11.0603
煎取一升	-11.0603
脉遲	-11.0605
今出	-11.0606
宜桂枝湯	-11.0607
治血	-11.0607
丁腫	-11.0608
留七呼	-11.0609
溏泄	-11.0609
各異	-11.0613
貝	-11.0614
肝熱	-11.0614
股内	-11.0615
嚼下	-11.062
賦	-11.0622
宗筋	-11.0623
右為細末煉蜜和	-11.0623
窒	-11.0626
凉膈散	-11.0628
敬	-11.0628
自退	-11.0629
揭	-11.0632
鳩	-11.0633
粥方	-11.0633
臘月猪脂	-11.0634
加芍藥	-11.0641
取末	-11.0641
壅遏	-11.0642
温服一升	-11.0643
胎毒	-11.0646
石脂	-11.0647
盛也	-11.0648
右為末酒糊	-11.0648
陳皮甘草	-11.0652
酒製	-11.0653
肺主	-11.0653
各半錢	-11.0654
舌乾	-11.0654
與氣	-11.0658
㨗	-11.0659
四肢疼痛	-11.066
大小腸	-11.0661
急服	-11.0661
回陽	-11.0663
腦麝	-11.0664
霍亂轉筋	-11.0664
偏風	-11.0665
有燥屎	-11.0665
酒浸一	-11.0667
又如	-11.0667
去翅足	-11.0669
水盞半	-11.067
檢	-11.0671
遭	-11.0672
半載	-11.0672
丸如梧桐子大每服二十丸	-11.0672
限	-11.0673
掲	-11.0673
心躁	-11.0673
未潰	-11.0674
馬兠鈴	-11.0679
關上	-11.0679
柏子仁	-11.0679
口齒	-11.068
蛇牀子	-11.0682
辛散	-11.0685
酒食	-11.0686
用黄連	-11.0686
丼草	-11.0687
合之	-11.0688
茶清調下	-11.0688
劈	-11.0689
有功	-11.0691
五勞	-11.0694
通治	-11.0694
紫黒	-11.0695
未復	-11.0695
之體	-11.0697
此毒	-11.0697
死生	-11.0704
惕	-11.0707
無聲	-11.0708
不醒	-11.0708
芷	-11.0709
頭痛發熱	-11.0709
四曰	-11.0711
連進	-11.0712
酒五升	-11.0713
印	-11.0715
蚊	-11.0715
隂器	-11.0715
瓶中	-11.0716
同煮	-11.0717
有神	-11.0717
䋲	-11.0718
他藥	-11.0719
服湯	-11.0722
房事	-11.0725
成片	-11.0725
丹石	-11.0728
壓之	-11.0728
嶺	-11.0728
澼	-11.0729
熱渇	-11.0732
附子理中湯	-11.0733
風雨	-11.0734
太乙	-11.0736
天符	-11.0737
毎服半錢	-11.0737
荆芥防風	-11.074
入肉	-11.074
毒盛	-11.0742
紫參	-11.0742
當歸甘草	-11.0745
跗	-11.0746
熱瘡	-11.0747
相同	-11.0748
蛾	-11.0748
臍腹疼痛	-11.0748
葦	-11.075
日華	-11.0751
小腹滿	-11.0752
陰乾	-11.0754
逾	-11.0755
在腹	-11.0756
范	-11.0758
診其脈	-11.0761
皆可服	-11.0763
赤脉	-11.0764
枳术丸	-11.0765
以防	-11.0765
保和丸	-11.0766
炙三	-11.0767
入前藥	-11.0771
外熱	-11.0772
濟方	-11.0775
不待	-11.0775
惡寒者	-11.0776
變證	-11.0776
者宜服	-11.0781
醫用	-11.0781
稀粥	-11.0782
温酒調下二錢	-11.0783
河東	-11.0783
動作	-11.0783
加肉桂	-11.0786
則痛	-11.0789
在脾	-11.0789
生地黃	-11.079
等病	-11.0793
確	-11.0798
二者	-11.0798
用前藥	-11.0799
豐	-11.08
遣	-11.08
寤	-11.0802
全無	-11.0802
不能制	-11.0803
怫鬱	-11.0804
汁調	-11.0805
賁豚	-11.0806
忌猪肉冷水	-11.0807
盆内	-11.0807
闗元	-11.0807
吹鼻	-11.0809
百十	-11.0811
利下	-11.0812
胃弱	-11.0813
尸疰	-11.0813
肺為	-11.0813
去裙襴	-11.0816
寒痰	-11.0816
心主血	-11.082
子云	-11.0821
為火	-11.0822
蓮子	-11.0823
秘結	-11.0827
藴熱	-11.0829
可救	-11.083
為粉	-11.083
甘平	-11.0833
丁香木香	-11.0833
和塗之	-11.0833
獺	-11.0834
即便	-11.0834
乆病	-11.0835
甚為	-11.0835
消化	-11.0836
鉄	-11.0839
上方	-11.0839
冷即	-11.0841
因勞	-11.0842
有水	-11.0842
涉	-11.0843
胎動不安	-11.0844
薛立齋治	-11.0844
衝陽	-11.0845
血閉	-11.0845
發者	-11.0847
入生薑	-11.0848
濇者	-11.0849
食醫心鏡	-11.085
造化	-11.0851
草菓	-11.0851
手臂	-11.0852
四肢不收	-11.0854
伏梁	-11.0855
食逺服	-11.0856
攻注	-11.0861
末一兩	-11.0863
蘸藥	-11.0865
乃得	-11.0866
吐者	-11.0866
酸棗	-11.0866
搽之	-11.0867
上星	-11.0867
燔	-11.0869
培	-11.0871
後必	-11.0871
氏云	-11.0872
傷寒發熱	-11.0872
二十八	-11.0876
懶	-11.0877
其花	-11.0879
悍	-11.088
酒半盞	-11.088
氣攻	-11.0882
三黄丸	-11.0883
所能	-11.0885
最妙	-11.0886
一貼	-11.0886
之藥也	-11.0887
紅藍花	-11.0887
入藥末	-11.089
色不變	-11.0892
歸於	-11.0893
温煖	-11.0895
罐	-11.0899
服三丸	-11.0901
用新	-11.0902
五十壯	-11.0903
此湯	-11.0909
子和	-11.0911
答	-11.0911
其變	-11.0912
川連	-11.0912
胞絡	-11.0913
嬰	-11.0914
方寸	-11.0915
下泄	-11.0917
治氣	-11.0917
遷	-11.0918
二三十丸	-11.0918
去黑皮	-11.0919
專治	-11.0921
紫金	-11.0921
充實	-11.0923
味辛温	-11.0923
雞子黄	-11.0924
一口	-11.0924
㣲汗	-11.0925
少陽經	-11.0927
閣	-11.0927
頭髪	-11.0929
丸如梧桐子大毎服	-11.0931
厠	-11.0934
泠	-11.0934
冝服	-11.0935
下膿血	-11.0935
菘	-11.0936
庸	-11.0938
調養	-11.0938
桃葉	-11.0939
治之而愈	-11.0943
渇者	-11.0944
火旺	-11.0944
萆	-11.0944
補瀉	-11.0947
走注	-11.0949
不以時	-11.0949
丸如桐子大每服	-11.095
去皮心	-11.0951
其道	-11.0952
化源	-11.0952
得以	-11.0962
小便不禁	-11.0963
是其	-11.0964
朽	-11.0966
右為末毎服二錢	-11.0966
鹹寒	-11.0967
因驚	-11.0968
吐食	-11.0968
丸梧桐子大	-11.0968
邑	-11.0971
覆取汗	-11.0971
柴胡黄芩	-11.0971
侍	-11.0971
受濕	-11.0973
蚤	-11.0975
肝脉	-11.0975
足少陰	-11.0977
服之又方	-11.098
澤漆	-11.0981
炒令黄	-11.0983
目視	-11.0983
因食	-11.0984
腸間	-11.0985
身腫	-11.0986
發熱而	-11.0986
列缺	-11.0986
入鹽少許	-11.0987
槩	-11.0987
藥以	-11.0987
三五服	-11.0989
花實	-11.0989
肝風	-11.0989
固濟	-11.099
之其	-11.0992
如瘡	-11.0993
丸菉豆大	-11.0994
雞蘇	-11.0998
年深	-11.0999
收靨	-11.1002
程應旄曰	-11.1003
冩	-11.1006
有驗	-11.1006
去皮尖雙	-11.1007
則津液	-11.1011
而非	-11.1012
百脉	-11.1014
膂	-11.1014
蒺藜子	-11.1015
惡候	-11.1018
能補	-11.1018
治久	-11.1019
續㫁	-11.1019
勞熱	-11.102
熱厥	-11.1021
材	-11.1021
網	-11.1021
文蛤	-11.1022
太一	-11.1024
煮食	-11.1026
不喜	-11.1027
夜則	-11.1028
之紀	-11.1029
米飲送下	-11.103
右先	-11.103
桃仁承氣湯	-11.103
銅器	-11.1031
週	-11.1034
自是	-11.1037
秫米	-11.1038
㪚治	-11.1039
大敦	-11.104
滿痛	-11.1041
寒慄	-11.1041
麝香少許	-11.1042
錠	-11.1045
柏葉	-11.1048
衇數	-11.1055
但是	-11.1057
下降	-11.1058
服方寸匕日三	-11.106
軰	-11.106
踵	-11.106
儀	-11.106
不斂	-11.1061
隂陽之	-11.1061
瓜蔞	-11.1061
有宿食	-11.1061
者惟	-11.1062
毎服三錢水一盞	-11.1063
受氣	-11.1063
温酒調服	-11.1064
大効	-11.1064
沸湯㸃服	-11.1066
在地	-11.1067
者有因	-11.1067
羌活湯	-11.1069
寄生	-11.107
必發	-11.107
生長	-11.1071
不可不知	-11.1071
石硫黄	-11.1071
瘇	-11.1072
身面	-11.1074
乗虚	-11.1076
或發	-11.1076
天柱	-11.108
大渇	-11.1081
以水六升煮取二升	-11.1085
夘	-11.1085
腰腿	-11.1086
出濟生	-11.1087
集成	-11.1087
調勻	-11.1088
月事	-11.1091
差止	-11.1093
諸痛	-11.1093
刺入	-11.1094
進一服	-11.1097
作瀉	-11.1099
篤	-11.1099
氣味辛	-11.1102
腰中	-11.1103
二氣	-11.1103
閃	-11.1104
觧毒	-11.1104
有小毒主	-11.1105
牙齦	-11.1105
禹餘粮	-11.1106
鶴虱	-11.1107
或在	-11.1108
水泡	-11.1109
礶	-11.1109
陶隠居云	-11.1111
用時	-11.1119
稍緩	-11.1119
顛倒	-11.112
腫者	-11.112
乃至	-11.1122
目録	-11.1124
數數	-11.1127
行經	-11.1127
小便白濁	-11.1132
南星半夏	-11.1134
痞塞	-11.1136
煎成膏	-11.1136
所云	-11.1137
午前	-11.1141
乳頭	-11.1142
忌猪肉	-11.1143
十二日	-11.1147
崖	-11.1147
芍藥湯	-11.1148
牝	-11.1148
甞	-11.1148
相近	-11.1149
去皮尖雙仁	-11.1149
射工	-11.1152
便止	-11.1153
癰疽發背	-11.1154
鹽泥固濟	-11.1155
挿	-11.1155
而言之	-11.1157
屬脾	-11.1157
不觧	-11.1157
瞤動	-11.1159
所為	-11.116
待冷	-11.116
腎藏	-11.1168
塗瘡上	-11.1168
一兒	-11.1171
中出	-11.1171
邪之	-11.1171
拜	-11.1171
中濕	-11.1172
歴節	-11.1176
而愈一婦人	-11.1178
白膿	-11.1179
癥癖	-11.118
辣	-11.1182
全者	-11.1182
生熟	-11.1184
亦多	-11.1187
𤓰蒂散	-11.1188
苑	-11.1188
酸苦	-11.1188
香薷飲	-11.1189
治諸風	-11.1189
瘦弱	-11.119
蒸蒸	-11.1191
欝金	-11.1192
誦	-11.1193
瞀	-11.1194
家寳方	-11.1194
誰	-11.1195
秀	-11.1195
荔枝	-11.1197
希	-11.1198
顋	-11.1198
鹵	-11.1198
下利不止	-11.1201
十劑	-11.1201
酒服方寸匕日三	-11.1201
頰車	-11.1202
炒黄色	-11.1202
弦者	-11.1203
土人	-11.1204
飴	-11.1206
傳入	-11.1207
得效	-11.1208
一經	-11.1208
醫之	-11.121
自除	-11.1215
如石	-11.1216
去滓分三服	-11.1217
出焉	-11.122
胸背	-11.1222
酒三升	-11.1222
風濕痺	-11.1226
事方	-11.1226
搗羅	-11.1227
今處處有之	-11.1228
三五次	-11.1228
選用	-11.1229
分作三服	-11.123
不可得	-11.123
而脉	-11.1233
淮	-11.1234
間日	-11.1236
紫黑	-11.1236
勇	-11.1239
無氣	-11.1242
一二服	-11.1244
云凡	-11.1244
皆可用	-11.1245
利為度	-11.1247
所發	-11.1247
加以	-11.1248
虚腫	-11.1248
有孕	-11.125
牙疳	-11.125
搗羅為散	-11.1252
而行之	-11.1252
便溺	-11.1253
散治一切	-11.1255
大腑	-11.1256
此又	-11.1259
不可攻	-11.126
不載	-11.126
東流水	-11.1265
醋煑	-11.1266
皂子大	-11.1268
則邪氣	-11.1268
於表	-11.127
止汗	-11.1272
不榮	-11.1273
當與	-11.1274
衆藥	-11.1276
黄栢知母	-11.1276
彰	-11.1279
温疫	-11.1279
入生薑半分	-11.128
豚	-11.1281
重按	-11.1283
或兼	-11.1284
喻	-11.1285
治腎	-11.1287
補不足	-11.1287
倉卒	-11.1287
饒	-11.1288
季夏	-11.1288
鵲	-11.1289
不納	-11.1289
三两	-11.1291
半生	-11.1291
濕毒	-11.1291
不可屈伸	-11.1292
其精	-11.1293
注下	-11.1293
攤貼	-11.1293
性急	-11.1294
通天	-11.1294
迷悶	-11.1294
柳枝	-11.1294
研令極細	-11.1296
蛇蛻皮	-11.1299
水半盞	-11.13
即此	-11.1301
不流	-11.1302
有此證	-11.1302
解利	-11.1303
之寒	-11.1304
臨睡	-11.1306
用八味丸	-11.1308
依前法	-11.1308
不實	-11.1312
温温	-11.1313
附子一枚	-11.1315
嬰孩	-11.1316
稽	-11.1318
閉目	-11.1318
調敷	-11.1319
多唾	-11.1319
張文仲	-11.1321
用紙	-11.1321
便毒	-11.1322
不因	-11.1322
㕘	-11.1326
潄口	-11.1327
喚	-11.1328
太早	-11.1328
挽	-11.1328
乆痢	-11.1329
掺	-11.1332
谿	-11.1333
勝復	-11.1335
尅伐	-11.1335
隂陽相	-11.1335
而遲	-11.1336
季脇	-11.1339
調胃	-11.1341
頓止	-11.1342
乃知	-11.1346
升發	-11.1347
辛苦	-11.1349
異也	-11.1349
作小	-11.1349
臘茶	-11.1358
流出	-11.1358
覆之	-11.1361
石門	-11.1363
用四物湯加	-11.1363
剛柔	-11.1363
膽汁	-11.1364
硫	-11.1366
本事	-11.1366
攻毒	-11.1368
即活	-11.1368
獨參湯	-11.1369
深入	-11.137
切碎	-11.137
不移	-11.1371
亦須	-11.1371
奏	-11.1371
加桂枝	-11.1374
炒三	-11.1374
物之	-11.1376
紅紫	-11.1376
壺	-11.1377
剌	-11.1377
舉之	-11.1378
診得	-11.1378
凝水石	-11.1378
治風毒	-11.1383
炮一	-11.1384
真人	-11.1384
九分	-11.1385
其皮	-11.1387
粟殻	-11.139
毎服四錢	-11.1391
發熱作渴	-11.1392
飲食不消	-11.1392
酢物	-11.1392
痞鞕	-11.1393
相兼	-11.1395
皆痛	-11.1395
不進飲食	-11.14
補陽	-11.14
右㕮咀每服五錢	-11.1402
煎三五沸	-11.1403
八九日	-11.1404
草龍膽	-11.1404
也按	-11.1404
時令	-11.1406
若欲	-11.1407
眵	-11.141
産母	-11.141
出三	-11.1411
浄洗	-11.1411
俛仰	-11.1411
自落	-11.1413
▁千金	-11.1413
煎至五分去滓不計時候温服	-11.1413
保元湯	-11.1413
玄	-11.1414
性温	-11.1414
則陽氣	-11.1416
小薊	-11.1416
吕	-11.1417
賣	-11.1417
船	-11.1417
經候	-11.1418
逐日	-11.1418
麋	-11.1419
顖	-11.142
大者如	-11.1421
下而	-11.1423
與夫	-11.1426
以和	-11.1428
汗不止	-11.1428
者服之	-11.1428
陳皮半夏	-11.1429
者腎	-11.1429
石水	-11.143
導引	-11.143
尺寸俱	-11.1433
魚肉	-11.1434
服二錢	-11.1434
又取	-11.1436
咯	-11.1436
至足	-11.1438
急宜	-11.1442
發渴	-11.1442
吐舌	-11.1442
時疾	-11.1444
肌瘦	-11.1445
不得臥	-11.1447
不著	-11.1448
啼哭	-11.1449
旱	-11.145
同研勻	-11.145
結者	-11.145
些	-11.1452
闔	-11.1452
湯下二十丸	-11.1454
身中	-11.1454
隂病	-11.1454
之意也	-11.1454
皆宜	-11.1455
敷貼	-11.1455
其人必	-11.1458
焚	-11.1458
盛於	-11.146
人參敗毒散	-11.146
大忌	-11.1461
前人	-11.1461
㣲炙	-11.1462
貌	-11.1464
釜	-11.1465
化氣	-11.1466
如不應	-11.1466
甘桔湯	-11.1466
兩感	-11.1467
為主佐以	-11.1467
取白	-11.1468
三二	-11.1468
大率	-11.1469
邪正	-11.1469
心為	-11.1469
手脚	-11.147
紫蘓	-11.147
口眼	-11.1471
一㸃	-11.1473
四物加	-11.1474
人患	-11.1474
夏秋	-11.1475
出于	-11.1477
天時	-11.1477
日日	-11.1478
之勢	-11.1479
木皮	-11.148
脚腫	-11.1481
㣲熱	-11.1481
血風	-11.1483
行步	-11.1485
金散	-11.1486
大便鞕	-11.149
塗酥炙	-11.1493
噐	-11.1494
不可輕	-11.1496
之絡	-11.1498
蔓菁	-11.1499
其隂	-11.1499
六升	-11.1499
之神	-11.1501
開竅	-11.1504
濾過	-11.1505
右先以	-11.1507
瘡疽	-11.1508
治喉痺	-11.1509
氣塊	-11.1509
祗	-11.151
賜	-11.1511
儒	-11.1512
之類也	-11.1512
大筋	-11.1514
仙方	-11.1515
川芒硝	-11.1517
不得屈伸	-11.1517
水調塗	-11.1518
辛辣	-11.1519
悉主之	-11.1519
亦云	-11.152
根似	-11.152
虚人	-11.152
志云	-11.1522
浮沉	-11.1523
賊邪	-11.1523
脉緩	-11.1524
吐後	-11.1526
右為散每服三錢	-11.1528
慎不可	-11.153
不長	-11.1534
而無力	-11.1534
炒半	-11.1535
酒飲	-11.1535
同身寸之	-11.1535
遊風	-11.1537
他病	-11.1537
能使	-11.1539
中極	-11.1539
相宜	-11.1539
明之	-11.154
無膿	-11.1542
每服一字	-11.1545
五蔵	-11.1547
蟄	-11.1547
厥隂之	-11.1547
太多	-11.1548
研藥	-11.155
不歸	-11.155
復以	-11.1551
碎微炒	-11.1551
而厥	-11.1554
遶	-11.1555
薑三片棗一枚	-11.1556
魯	-11.1557
燃	-11.1557
琇按	-11.1563
藥下之	-11.1564
㗜	-11.1564
喎	-11.1567
金牙	-11.1569
者病在	-11.1569
微火煎	-11.1569
生水	-11.157
肺脹	-11.1571
䐜脹	-11.1573
然其	-11.1573
長一尺	-11.1573
一痘	-11.1577
隨病	-11.1577
為痛	-11.1578
牡蠣粉	-11.1578
吐血衂血	-11.1579
丸療	-11.1579
娠	-11.1581
瘵	-11.1581
結滯	-11.1581
莖中	-11.1582
駐顔	-11.1583
最佳	-11.1583
至死	-11.1585
清利	-11.1586
起于	-11.1588
其裏	-11.1588
酒浸去	-11.1589
艱	-11.1589
人病	-11.1589
六脈	-11.1589
乏力	-11.1591
有四	-11.1591
使然	-11.1593
小便赤黄	-11.1596
故言	-11.1598
州郡	-11.1599
為腎	-11.1599
悦	-11.16
覽	-11.1601
闊	-11.1602
多寒	-11.1602
薦	-11.1603
蟾蜍	-11.1603
之辛	-11.1604
五臟之	-11.1604
丸治婦人	-11.1604
附骨疽	-11.1605
性熱	-11.1605
室中	-11.1605
蓬莪术	-11.1607
石決明	-11.1608
大汗出	-11.1608
不思	-11.1608
氣粗	-11.1609
面目浮腫	-11.161
飲汁	-11.161
則吐	-11.1613
足太陰	-11.1615
甚者加	-11.1616
之先	-11.1617
亦不能	-11.1617
炙焦	-11.1619
血枯	-11.1622
者陽氣	-11.1623
彈	-11.1623
不足以	-11.1626
勞氣	-11.1628
鬼魅	-11.1632
聚於	-11.1634
煎成	-11.1636
灸五壯主	-11.1636
目疾	-11.164
下之後	-11.1643
并治	-11.1643
无	-11.1646
波	-11.1647
釐	-11.1648
功專	-11.1649
村	-11.1649
氣交	-11.1649
仝	-11.1649
繭	-11.165
心中懊憹	-11.165
薺	-11.1651
在皮膚	-11.1651
傾入	-11.1652
不獨	-11.1653
祟	-11.1653
華佗	-11.1653
牡礪	-11.1654
盪	-11.1654
釣藤鈎	-11.1654
分作二服	-11.1656
蠶沙	-11.1656
桂枝加	-11.1659
久瘧	-11.1662
在手	-11.1663
心腹刺痛	-11.1664
棗大	-11.1664
水三升	-11.1665
寒熱徃來	-11.1665
欲出	-11.1665
滿口	-11.1666
可汗	-11.1667
日用	-11.1669
煩亂	-11.167
傷脾胃	-11.167
出聖惠方	-11.167
結子	-11.1671
苦瓠	-11.1672
上喘	-11.1672
突出	-11.1675
而外	-11.1676
以帛	-11.1679
平無毒主	-11.1681
七升	-11.1681
停食	-11.1682
詵曰	-11.1683
沈細	-11.1683
人謂之	-11.1687
用鹽	-11.169
芎藭當歸	-11.169
外感風寒	-11.169
撮口	-11.1691
寒戰	-11.1693
立已	-11.1696
極效	-11.1696
痞氣	-11.1697
假如	-11.1698
鴈	-11.1699
日進二服	-11.1699
危殆	-11.1699
結為	-11.1701
胸膈痞悶	-11.1701
陽陵泉	-11.1701
未發前	-11.1702
二十七	-11.1704
内諸藥	-11.1705
瀉心	-11.1708
生薑湯	-11.1708
馬鞭草	-11.1709
而不通	-11.1709
呃逆	-11.171
承漿	-11.171
痰多	-11.1712
右切	-11.1713
吐沫	-11.1713
苦梗	-11.1714
狀若	-11.1714
醋和	-11.1716
氣散	-11.1718
平澤	-11.172
南北	-11.172
蜜和丸	-11.1722
間使	-11.1725
湯下三十丸	-11.1725
訶子肉	-11.1726
長肌肉	-11.1727
唇青	-11.1727
白梅	-11.1731
清火	-11.1731
弩	-11.1735
心脉	-11.1738
之因	-11.1738
痼疾	-11.174
不減	-11.1742
焰	-11.1744
剖	-11.1744
株	-11.1745
防風羌活	-11.1746
皷	-11.1746
鷹	-11.1746
庚辛	-11.1747
酒漬	-11.1747
温酒或	-11.1748
入府	-11.1749
聲啞	-11.1749
生下	-11.1749
不可救	-11.175
病愈	-11.1751
隂之	-11.1751
右㕮咀每服三錢	-11.1752
相感	-11.1753
極妙	-11.1756
療小兒	-11.1756
不轉	-11.1756
亦作	-11.1758
入於胃	-11.1758
加麻黄	-11.1759
腹疼	-11.176
醇	-11.176
熟為度	-11.1762
鯁	-11.1763
行間	-11.1763
痛穴	-11.1765
多用之	-11.1765
氣街	-11.1767
以苦酒	-11.1769
叅曰	-11.177
病本	-11.1771
先煑	-11.1776
隔紙	-11.1778
右為細末以	-11.1779
下文	-11.178
也大抵	-11.178
而寒	-11.1782
更不	-11.1782
一百二十	-11.1783
汗自出	-11.1784
脉實	-11.1785
五服	-11.1787
煮取四升	-11.1788
脉浮數	-11.179
胃中有	-11.1791
痿痺	-11.1792
紗	-11.1793
襄	-11.1793
腿膝	-11.1794
治水腫	-11.1794
聖散	-11.1795
為之使惡	-11.1796
丙丁	-11.1798
専治	-11.1798
食後臨卧服	-11.1798
莵絲子	-11.1798
努肉	-11.1798
目瞑	-11.1799
神門	-11.1799
丸如麻子大	-11.1802
右相和	-11.1802
瀉青丸	-11.1803
蚛	-11.1804
其位	-11.1804
鹽少許	-11.1806
不能勝	-11.1806
飲食勞倦	-11.1807
一杯	-11.181
而至	-11.1812
太息	-11.1813
氣多	-11.1813
仙經	-11.1814
矣今	-11.1815
二兩去	-11.1815
壬癸	-11.1816
脈也	-11.1817
吹入	-11.182
微炙	-11.1825
決明子	-11.1825
寒甚	-11.1825
永不	-11.1826
及熱	-11.1826
多有之	-11.1826
豆䜴	-11.1828
甚佳	-11.183
者須	-11.1831
澆	-11.1832
以滋	-11.1832
之始	-11.1832
五片	-11.1833
久冷	-11.1834
風壅	-11.1835
右都	-11.1835
不以	-11.1835
消穀	-11.1835
雖多	-11.1836
􁤹	-11.1837
苐	-11.1837
隂分	-11.1838
糟粕	-11.1838
獻	-11.1838
五壯	-11.1839
治吐血	-11.184
銅器中	-11.184
猶未	-11.1843
痰涎壅盛	-11.1843
中州	-11.1845
鬱怒	-11.1847
救急	-11.1849
難經曰	-11.1849
血弱	-11.1849
長大	-11.185
腰脚疼痛	-11.185
不能起	-11.1855
俗呼為	-11.1856
肺腎	-11.1857
者脾	-11.1859
勝也	-11.186
浮洪	-11.186
池澤	-11.1862
穣	-11.1863
每服三	-11.1864
𢷬末	-11.1864
以好	-11.1869
人參半夏	-11.1869
其類	-11.187
昔人	-11.1873
生于	-11.1874
汁盡	-11.1875
水九升	-11.1882
入輕粉	-11.1883
膊	-11.1884
欬唾	-11.1885
徃徃	-11.1885
雖曰	-11.1886
橋	-11.1886
捜	-11.1886
之所以	-11.1886
傷寒頭痛	-11.1887
恃	-11.1887
蓬莪荗	-11.1887
虛羸	-11.1887
稠粘	-11.1888
未破	-11.1889
茶下	-11.189
不乳	-11.1893
建中湯	-11.1893
乾即	-11.1894
註曰	-11.1897
牙硝	-11.1898
方見前	-11.1899
胎前	-11.19
五年	-11.1903
獺肝	-11.1903
進之	-11.1903
川芎白芷	-11.1904
勞則	-11.1904
每服以	-11.1905
揩齒	-11.1906
水二鍾煎八分	-11.1909
服一劑	-11.1914
之状	-11.1919
熱不退	-11.1919
病因	-11.192
自此	-11.1922
已死	-11.1925
四種	-11.1926
過期	-11.1926
豬肉	-11.1927
瞳	-11.193
整	-11.1932
捉	-11.1932
丘	-11.1933
續隨子	-11.1933
燋	-11.1934
無所不	-11.1934
萸	-11.1937
表裏俱	-11.1938
不解者	-11.1938
表未解	-11.1941
秃	-11.1943
收貯	-11.1944
加至二十丸	-11.1945
味甘平	-11.1947
益脾	-11.1949
水煎五錢	-11.1949
歸尾	-11.1951
右各等分	-11.1952
有疾	-11.1954
四面	-11.1955
無恙	-11.1959
十一月	-11.196
五辛	-11.196
主療	-11.1963
痢不止	-11.1964
上用	-11.1966
之事	-11.1967
屬腎	-11.1967
丹溪治	-11.1967
件	-11.1968
沉而	-11.1969
兒生	-11.1969
厥而	-11.197
生犀	-11.1976
辨其	-11.1977
嘔吐不止	-11.1978
膿已成	-11.1978
長者	-11.1981
如人	-11.1981
煮令	-11.1981
遵	-11.1984
囬	-11.1984
煎至五分	-11.1984
三條	-11.1984
楊曰	-11.1984
螻蛄	-11.1985
每以	-11.1986
蹻	-11.1987
全蠍	-11.1988
若用	-11.1988
參茋歸术	-11.1989
從下	-11.199
忍冬	-11.1991
琖	-11.1995
刮去	-11.1995
白散	-11.1995
髮際	-11.1996
不可妄	-11.1999
素問曰	-11.2
三陰	-11.2001
身輕	-11.2001
空心日午	-11.2001
類也	-11.2002
者肺	-11.2004
氣之所	-11.2004
九味	-11.2005
痛不可忍者	-11.2007
化生	-11.2007
左尺	-11.2009
腰以下	-11.201
入脾	-11.201
冄	-11.201
白牽牛	-11.2013
冬至	-11.2013
發熱頭痛	-11.2014
荆防	-11.2015
頌曰今	-11.2017
如彈丸	-11.2017
愈也	-11.2017
食已	-11.2019
温和	-11.2021
時疫	-11.2021
昏迷	-11.2021
稍加	-11.2023
身疼痛	-11.2025
千金云	-11.2027
温脾	-11.2028
凡治	-11.2028
靑	-11.2028
洗浴	-11.2028
擬	-11.2029
吐涎沫	-11.2029
之殊	-11.2029
㿀	-11.2031
可去	-11.2031
性命	-11.2031
熱多寒少	-11.2032
蝱蟲	-11.2032
生薑二片	-11.2033
去頭	-11.2035
紫花	-11.2036
䖏	-11.2036
用五味異功散	-11.2037
第八	-11.2038
腫瘍	-11.2039
半炒	-11.2039
小便淋瀝	-11.2041
不犯	-11.2042
雄黃	-11.2043
滑數	-11.2043
止痢	-11.2044
如此者	-11.2045
蜜煎	-11.2045
用温	-11.2045
空腹食之	-11.2051
瘢痕	-11.2051
寒主	-11.2052
隻	-11.2053
每服三五十丸	-11.2056
五運	-11.2057
甘辛	-11.206
去白焙	-11.2062
立出	-11.2063
所當	-11.2063
空心食之	-11.2064
疫癘	-11.2065
層	-11.2072
攻刺	-11.2072
蕩滌	-11.2074
歸脾	-11.2075
見人	-11.2075
大病	-11.2076
噴	-11.2078
范汪	-11.2078
遍體	-11.2078
􁟡􁌸	-11.2079
鬼箭羽	-11.2079
叄	-11.208
腫大	-11.2081
痰癖	-11.2081
和劑	-11.2083
瘀肉	-11.2084
快利	-11.2085
處處有之	-11.2086
陽眀	-11.209
鎻	-11.2092
半碗	-11.2093
死肌	-11.2093
石决明	-11.2095
躁煩	-11.2096
外因	-11.2097
用蜜	-11.2099
曰病	-11.21
曰吾	-11.2101
青竹茹	-11.2103
煎湯洗	-11.2104
脾為	-11.2105
飲食停滯	-11.2108
治耳聾	-11.2108
煮粥	-11.211
洗面	-11.2111
久不差	-11.2112
中行	-11.2118
如常法	-11.2119
絡於	-11.212
脱落	-11.212
宜灸	-11.2123
為肺	-11.2123
並出	-11.2124
上氣喘急	-11.2124
瓶内	-11.2125
欲發	-11.2127
吐血不止	-11.2129
翠	-11.213
僵仆	-11.2131
煎取三升	-11.2132
粱	-11.2136
藥不	-11.2137
攻裏	-11.2139
隨意	-11.2146
皆愈	-11.2148
先天	-11.2148
其家	-11.2149
病雖	-11.2153
痔瘡	-11.2154
哀	-11.2155
相勝	-11.2157
老少	-11.2157
者俱	-11.2158
屬肺	-11.2159
屬陽明	-11.216
欲解	-11.216
茯苓半夏	-11.2161
脾胃氣虚	-11.2163
治痘瘡	-11.2164
又為	-11.2165
去滓分温三服	-11.2166
虚故	-11.2166
戎鹽	-11.2167
不計時候温服	-11.2171
膈間	-11.2172
足厥陰	-11.2172
以上各	-11.2173
啄	-11.2173
塌	-11.2174
而汗出	-11.2174
付	-11.2175
膏成	-11.2178
則能	-11.218
瘍門	-11.218
散寒	-11.2181
田螺	-11.2181
無所見	-11.2181
粟米飯	-11.2182
神良	-11.2182
總括	-11.2182
脾熱	-11.2183
挾熱	-11.2183
定喘	-11.2184
作餅子	-11.2184
和服	-11.2184
如覺	-11.2185
潤肺	-11.2188
次早	-11.219
滲泄	-11.2192
恐懼	-11.2193
舉動	-11.2193
擦牙	-11.2194
穴歌	-11.2195
濕勝	-11.2196
炙五	-11.2197
痔瘻	-11.2197
用此方	-11.2199
碎㣲炒	-11.2199
農	-11.2199
瓶口	-11.22
煑取二升	-11.22
虀	-11.2207
之虚	-11.2207
空心鹽湯下	-11.2209
行而	-11.2209
血溢	-11.2214
水漬	-11.2215
錢五分	-11.2218
水液	-11.2218
良醫	-11.2219
曹	-11.2221
二嵗	-11.2221
該	-11.2223
慧	-11.2225
右切以	-11.2226
薪	-11.2226
齧	-11.2227
棗肉和	-11.2227
舂	-11.2229
燒為灰	-11.223
𧖟	-11.223
胃反	-11.2231
治一人	-11.2234
不能轉側	-11.2234
丸服之	-11.2235
和丸如菉豆大	-11.2235
也宜用	-11.2235
楓	-11.2235
大能	-11.2235
結胷	-11.2235
暴痛	-11.2236
一大升	-11.2237
不可合	-11.2237
如棗核大	-11.2237
堅痛	-11.2238
莨菪子	-11.2239
愈矣	-11.2239
鍼三分	-11.224
右搗篩為散	-11.2242
時服	-11.2244
油調塗	-11.2246
灌下	-11.2246
脾胃不和	-11.2248
水化	-11.2249
皮中	-11.225
盛衰	-11.2252
大夫	-11.2253
毒氣攻	-11.2256
香熟	-11.2258
相干	-11.2259
先與	-11.226
裏寒	-11.2263
草根	-11.2263
有刺	-11.2264
大吐	-11.2267
向下	-11.2267
白术湯	-11.2269
真元	-11.2271
久而不	-11.2271
不落	-11.2272
當歸白芍	-11.2273
米湯	-11.2273
而有力	-11.2273
莊	-11.2273
便可	-11.2274
動風	-11.2275
易愈	-11.2275
未效	-11.2276
一日一夜	-11.2277
留三呼	-11.2278
色者	-11.2279
滋腎水	-11.2279
也經云	-11.2282
分為二服	-11.2282
喜忘	-11.2283
脉反	-11.2283
菉豆粉	-11.2284
膏貼之	-11.2284
水送下	-11.2285
何由	-11.2288
服如	-11.229
本門	-11.2292
寒無毒主	-11.2292
弦急	-11.2294
動揺	-11.2296
不可汗	-11.2298
之端	-11.2298
作脹	-11.2299
功力	-11.23
葵根	-11.23
黄連丸	-11.23
方麻黄	-11.2301
醫學	-11.2302
温服之	-11.2303
於裏	-11.2306
心血	-11.2307
一莖	-11.2307
風化	-11.2309
按之不	-11.2311
薑棗水煎	-11.2312
發熱作渇	-11.2313
氣為	-11.2314
水磨	-11.2315
尤多	-11.2321
一升半	-11.2321
疳蝕	-11.2321
無非	-11.2323
蝦	-11.2323
以應	-11.2324
安神丸	-11.2324
海金沙	-11.2324
􁟍	-11.2325
戊巳	-11.2325
皂角子	-11.2326
䝉	-11.2327
蕃	-11.2327
搓	-11.2329
牙闗𦂳急	-11.2329
薑炒	-11.2331
天突	-11.2331
陽者	-11.2331
相當	-11.2332
如梧桐子大	-11.2332
亦自	-11.2332
眼疾	-11.2333
見㸃	-11.2334
空心酒下	-11.2335
其言	-11.2335
五曰	-11.2336
大驚	-11.2336
州者	-11.2337
者正	-11.2338
氣通於	-11.2341
煎取二升	-11.2342
失音不語	-11.2343
者並	-11.2343
中封	-11.2345
其心	-11.2346
甲子	-11.2349
口噤不開	-11.235
膿汁	-11.2352
發于	-11.2352
若兼	-11.2354
石榴皮	-11.2355
為末每服一錢	-11.2358
安心	-11.2359
風腫	-11.2359
攻下	-11.2363
或謂	-11.2364
白膠	-11.2364
仲景曰	-11.2366
小柴胡加	-11.2366
川芎甘草	-11.2367
隂不足	-11.2367
胗	-11.2371
疱	-11.2372
大便不利	-11.2373
氣至	-11.2373
所得	-11.2373
班猫	-11.2374
防風荆芥	-11.2375
白蘚皮	-11.2377
晡熱	-11.2378
補元氣	-11.238
沸去滓	-11.238
二七日	-11.2381
骨立	-11.2382
感冐	-11.2384
芍藥當歸	-11.2384
癰癤	-11.2386
數劑而	-11.2386
更煎	-11.2387
腎脉	-11.2388
敷藥	-11.2389
陰也	-11.2389
攪令	-11.2391
藍汁	-11.2391
色黯	-11.2391
滿而	-11.2393
水一盞煎	-11.2394
吐水	-11.2394
褐色	-11.2394
即成	-11.2395
嘔惡	-11.2395
痰水	-11.24
為血	-11.2401
見火	-11.2402
太陽中風	-11.2403
澤蘭葉	-11.2403
漸消	-11.2404
于肺	-11.2408
又何	-11.2409
狹	-11.2409
宜速	-11.2411
酒醋	-11.2411
表散	-11.2415
白蠟	-11.2416
内潰	-11.2418
半表半裏	-11.2419
無血	-11.2419
水糓	-11.2422
四君	-11.2422
二尺	-11.2424
秦芃	-11.2424
枯槁	-11.2425
作瘡	-11.2426
佗	-11.2427
令焦	-11.2428
緑礬	-11.2428
􁦝	-11.2428
迅	-11.2428
遮	-11.2429
酷	-11.2429
炒為末	-11.2429
常食	-11.2431
為㪚	-11.2432
下痢赤白	-11.2435
故凡	-11.2436
者亦有	-11.2436
飲食如常	-11.2437
盒	-11.2437
繼以	-11.2438
腸痔	-11.2439
一重	-11.244
氣閉	-11.2441
不思食	-11.2442
腎病	-11.2444
失志	-11.2447
闗上	-11.2448
上入	-11.2452
脉弱	-11.2454
垂死	-11.2455
新瓦上	-11.2457
用六君加	-11.2459
隨氣	-11.2459
臨卧服	-11.246
藥味	-11.2461
防風甘草	-11.2465
若能	-11.2466
四服	-11.2467
鐺中	-11.2469
帯	-11.2469
等湯	-11.2471
齦	-11.2474
水三升煮取一升	-11.2474
腎中	-11.2474
成形	-11.2474
蚌	-11.2475
仙人	-11.2475
衄	-11.2475
憤	-11.2477
下水	-11.2479
能行	-11.2479
愚按前症若	-11.2479
何以知	-11.248
狐惑	-11.2483
腎俞	-11.2485
芫青	-11.2487
在腎	-11.2489
摻之	-11.2491
未退	-11.2491
痼冷	-11.2492
飲冷水	-11.2494
右爲細末	-11.2494
則水	-11.2495
戎	-11.2495
二十六	-11.2495
滋味	-11.2496
失常	-11.2497
真者	-11.2498
飲食不化	-11.2498
方論第十	-11.25
鈴	-11.25
為先	-11.2503
三四次	-11.2507
初患	-11.2507
藍葉	-11.2509
覈曰	-11.2509
右為末每服	-11.2509
别搗	-11.2509
宜大承氣湯	-11.251
不歛	-11.2511
必是	-11.2511
髭	-11.2513
至夏	-11.2515
一倍	-11.2515
腦髓	-11.2516
多矣	-11.2517
瘴氣	-11.2517
羚羊角散	-11.2518
聤耳	-11.2519
楮實	-11.252
元氣虚	-11.2522
時用	-11.2525
兼以	-11.2525
啓	-11.2525
傷于	-11.2526
松葉	-11.2526
軟弱	-11.2526
踡	-11.2527
龍膽瀉肝湯	-11.2527
豫	-11.2528
跟	-11.2528
大黄芒硝	-11.253
失笑散	-11.2531
食令人	-11.2536
燒酒	-11.2536
乃成	-11.2538
人參湯下	-11.254
少用	-11.2544
黄者	-11.2544
於後	-11.2546
白湯調下	-11.2548
重湯	-11.2548
頓退	-11.255
脉滑	-11.2552
治咽喉	-11.2554
停痰	-11.2555
乾用	-11.2556
因方	-11.2556
每夜	-11.2557
三盞	-11.2558
暴下	-11.2558
多在	-11.2561
漸大	-11.2562
一醫	-11.2563
一兩炙	-11.2564
方家	-11.2567
含嚥	-11.2569
去滑	-11.257
日三度	-11.2574
保生	-11.2574
費	-11.2575
㨂	-11.2577
零	-11.2578
煉蜜為丸	-11.2579
冬時	-11.258
在下焦	-11.258
新瓦	-11.258
菘菜	-11.2582
怠惰	-11.2582
夜明砂	-11.2583
不下飲食	-11.2583
無論	-11.2583
不伸	-11.2583
湯或	-11.2586
曲泉	-11.2586
吻	-11.2587
三卷	-11.2591
大便堅	-11.2592
經之	-11.2593
膿清	-11.2596
膏和	-11.2597
食生冷	-11.2601
煩痛	-11.2602
骨痿	-11.2605
至三	-11.2606
骨下	-11.2607
藏於	-11.2611
荆芥湯下	-11.2612
髪灰	-11.2613
水盡	-11.2613
熱勞	-11.2614
羌活散	-11.2617
每服不計時候以	-11.2617
水一盞入	-11.2618
衰則	-11.2618
之可	-11.2621
則火	-11.2622
花白	-11.2623
弦而	-11.2624
非此	-11.2624
腎氣不足	-11.2626
必愈	-11.2626
賈	-11.2627
是皆	-11.263
煮取一升	-11.263
子曰	-11.2632
三四服	-11.2632
始終	-11.2635
腐肉	-11.2635
白殭蚕	-11.2636
求治	-11.2636
腹皮	-11.2637
凹	-11.2638
肺也	-11.2641
搜和	-11.2642
皆從	-11.2643
括蔞根	-11.2644
浮大而	-11.2644
似有	-11.2645
者十	-11.2649
沙石	-11.2649
治惡瘡	-11.2651
爲度	-11.2652
水研	-11.2652
肺俞	-11.2652
松節	-11.2656
要藥	-11.2656
半寸	-11.2657
法宜	-11.2657
下一丸	-11.2657
瀉肺	-11.266
去濕	-11.2662
之象也	-11.2663
氣味苦	-11.2663
厚薄	-11.2663
衍義	-11.2665
漢中	-11.2665
吐膿血	-11.2666
大下	-11.2667
百壮	-11.2668
無所忌	-11.2668
不降	-11.2669
桑耳	-11.267
去黒心	-11.2671
七遍去滑	-11.2672
直指方	-11.2677
䨇	-11.2679
有數種	-11.268
匝	-11.268
入藥用	-11.268
啟	-11.268
權曰	-11.268
斫	-11.2682
銅緑	-11.2682
甲錯	-11.2682
影	-11.2682
脈不	-11.2683
居士	-11.2684
三黄	-11.2684
白术人參	-11.2684
萆麻子	-11.2685
鷄子白	-11.2688
神方	-11.2688
夫小兒	-11.2692
鬆	-11.2693
肺胃	-11.2694
不能語	-11.2695
如蟲行	-11.2696
倣此	-11.2696
其效如神	-11.2697
之苦	-11.2697
此必	-11.2699
増損	-11.27
數百	-11.27
使氣	-11.2702
長流水	-11.2702
卒得	-11.2703
同為末	-11.2705
梔子豉湯	-11.2706
甄權	-11.2709
發歇	-11.2709
脘	-11.271
和蜜	-11.2711
木香丸	-11.2712
治水氣	-11.2712
便差	-11.2713
天明	-11.2713
各不同	-11.2713
不可過	-11.2713
右為細末煉蜜為	-11.2714
以水二升	-11.2715
綿濾去滓	-11.2715
溶	-11.2715
氣盛則	-11.2716
褐	-11.2716
役	-11.2721
骨熱	-11.2722
尺脈	-11.2723
生花	-11.2723
之裏	-11.2723
川當歸	-11.2724
右㕮咀每服四錢	-11.2725
倍用	-11.2725
白膜	-11.2726
血下	-11.2726
有毒主	-11.2726
塞耳	-11.2727
便以	-11.2728
麒麟竭	-11.2732
轉側	-11.2733
湯液	-11.2733
癘風	-11.2733
紫蘇莖葉	-11.2739
手掌	-11.2739
所苦	-11.2739
二三錢	-11.2739
以泄	-11.274
乆患	-11.2742
膈中	-11.2744
發汗則	-11.2745
白蕪荑	-11.2745
一椀	-11.2746
何也曰	-11.2748
脈浮而	-11.2748
酒色	-11.2748
行則	-11.2748
一女子	-11.2749
運行	-11.2749
堂方	-11.2749
十種	-11.2751
脚心	-11.2752
飲食失節	-11.2753
乳上	-11.2753
沈重	-11.2754
茯	-11.2755
同煎服	-11.2755
院	-11.2756
矣夫	-11.2759
鬱熱	-11.2759
一料	-11.2759
許大	-11.2759
寒證	-11.2762
裏氣	-11.2762
未經	-11.2763
有細	-11.2764
亦令	-11.2764
四邊	-11.2765
炮裂去皮	-11.2765
温酒服	-11.2766
訶	-11.2767
京骨	-11.2767
直至	-11.2767
二陽	-11.2768
也所謂	-11.277
不聞	-11.2775
連日	-11.2775
血出不止	-11.2779
喻昌曰	-11.278
終始	-11.278
刃	-11.2781
多端	-11.2782
分利	-11.2783
千下	-11.2783
加石膏	-11.2784
禀賦	-11.2786
釵	-11.2787
熱即	-11.2787
手足並冷	-11.2787
靣赤	-11.2788
藏精	-11.279
癰膿	-11.279
而吐	-11.2791
同搗	-11.2791
吐蚘	-11.2794
掠	-11.2795
之於	-11.2798
去血過多	-11.2798
目閉	-11.2801
淮南	-11.2803
而且	-11.2804
死胎	-11.2804
可愛	-11.2804
空腹服	-11.2805
受熱	-11.2805
全不	-11.2806
新者	-11.2806
本無	-11.2806
藥方	-11.2807
病久	-11.2807
用此法	-11.2808
赤豆	-11.281
入諸藥	-11.2812
半兩炮	-11.2813
生堂	-11.2814
深淺	-11.2815
口喎	-11.2816
七日後	-11.2816
内因	-11.2816
心下痞鞕	-11.2817
停留	-11.2818
逆而	-11.2819
中暍	-11.282
肥者	-11.2825
少而	-11.2828
荒	-11.2828
味苦寒	-11.2829
寒瘧	-11.2831
婢	-11.2832
噎膈	-11.2832
皆須	-11.2833
雌雄	-11.2833
丸如黍米大	-11.2833
卦	-11.2833
廷	-11.2834
悔	-11.2835
苦辛	-11.2836
毒火	-11.2838
捷	-11.2838
蜂窠	-11.2838
祝	-11.2839
即不	-11.284
瀆	-11.284
鉛霜	-11.2841
治大風	-11.2842
䖟	-11.2843
薄荷湯調下	-11.2843
入隂	-11.2844
者急	-11.2844
水淘	-11.2848
鼠瘻	-11.2849
佐使	-11.2851
仲淳	-11.2851
人言	-11.2854
臭氣	-11.2856
甲乙經	-11.2856
中和	-11.2856
生研	-11.2861
茶清下	-11.2861
一歳	-11.2862
姜汁	-11.2863
難愈	-11.2866
曬	-11.2871
博濟方	-11.2872
不自	-11.2874
絕	-11.2876
按之則	-11.2878
隨時	-11.2879
空心服之	-11.2879
喜冷	-11.2879
其次	-11.288
不得已	-11.2881
巵子	-11.2883
細小	-11.2883
十二兩	-11.2884
千杵	-11.2885
烏豆	-11.2887
痏	-11.2889
詞	-11.289
之家	-11.2891
胃冷	-11.2892
米飲服	-11.2892
為良	-11.2892
血血	-11.2893
涌泉	-11.2893
其支者	-11.2894
治破傷風	-11.2894
可療	-11.2896
土之	-11.2896
自病	-11.2897
寸白蟲	-11.2898
鯉	-11.2899
暑濕	-11.2899
于内	-11.2899
少腹滿	-11.2899
令赤	-11.29
譫妄	-11.29
成疳	-11.2901
將軍	-11.2902
肉荳䓻	-11.2902
煖水	-11.2904
别用	-11.2906
癃閉	-11.2912
督衇	-11.2912
尋愈	-11.2913
煎數沸	-11.2913
下墜	-11.2914
心包	-11.2915
不守	-11.2916
藥餌	-11.2918
牙闗	-11.2919
雞頭	-11.2919
去足	-11.292
淡滲	-11.2921
已經	-11.2921
三方	-11.2922
子内	-11.2923
紅棗	-11.2923
病氣	-11.2923
宣露	-11.2926
項強	-11.2929
引之	-11.293
以新汲水	-11.293
無復	-11.2931
凡小兒	-11.2932
黄連湯	-11.2932
以猪脂	-11.2933
揩牙	-11.2933
所成	-11.2933
蔞	-11.2933
百丸	-11.2935
前湯	-11.2935
踏	-11.2937
决明	-11.2937
咳而	-11.2937
萌	-11.2939
族	-11.2939
晴	-11.2939
右為細末毎服二錢	-11.294
黙黙	-11.294
瀉其	-11.294
蔬	-11.294
駛	-11.2941
不限多少	-11.2941
熖	-11.2941
口燥咽乾	-11.2942
涎沫	-11.2944
虎杖	-11.2944
不充	-11.2945
傳尸	-11.2945
之㫖	-11.2946
湯浸去皮尖雙	-11.2946
串	-11.2947
脾肺氣虚	-11.2948
愈虚	-11.2949
方五首	-11.2949
銜	-11.2949
保命	-11.2951
雷鳴	-11.2952
自可	-11.2953
黄帝問曰	-11.2954
黄連末	-11.2956
世之	-11.2957
幽門	-11.2958
蜜調	-11.2959
指頭	-11.296
胃中熱	-11.2961
下諸藥	-11.2962
每服三丸	-11.2963
陽衰	-11.2964
豌豆	-11.2967
脉浮大	-11.2968
緩緩	-11.2971
寒食	-11.2972
芳	-11.2972
白湯送下	-11.2972
彼人	-11.2973
湯治姙娠	-11.2973
嘉祐	-11.2976
七壮	-11.2976
病處	-11.2976
中於	-11.2978
所論	-11.2979
或吐或	-11.2979
不計	-11.298
腦疽	-11.2983
䓤白	-11.2983
三法	-11.2983
呵	-11.2988
内生	-11.2989
診視	-11.2989
姙婦	-11.299
汪琥曰	-11.299
但用	-11.2991
􁞃􁞃	-11.2991
禾	-11.2992
汗出不止	-11.2992
>	-11.2992
勝濕	-11.2992
以竹	-11.2994
衝上	-11.2998
糊為丸如梧桐子大	-11.3001
用八珍	-11.3002
以童子小便	-11.3002
四肢煩疼	-11.3003
虚證	-11.3003
水入	-11.3007
邪風	-11.3007
血室	-11.3008
並不	-11.3008
漏瘡	-11.3009
清胃散	-11.3009
貯之	-11.301
同用	-11.3012
煎一盞	-11.3012
除之	-11.3015
山谷及	-11.3019
其木	-11.302
皮厚	-11.3021
虎口	-11.3026
脉𦂳	-11.3026
治其本	-11.3027
薑棗煎服	-11.3031
與小柴胡湯	-11.3031
茄子	-11.3033
蛇皮	-11.3033
唾膿血	-11.3035
其胎	-11.3035
去义	-11.3036
在隂	-11.3037
西南	-11.3037
血藥	-11.3038
逐水	-11.3039
綴	-11.3041
圊	-11.3041
難療	-11.3042
右四味切	-11.3043
隂維	-11.3043
涼膈散	-11.3044
覩	-11.3046
鹽湯送下	-11.3047
之水	-11.3047
漆瘡	-11.3048
發熱或	-11.3049
䗪蟲	-11.3051
奥	-11.3052
量兒大小以意加減	-11.3052
治赤白痢	-11.3052
堇	-11.3054
磚	-11.3054
用四君	-11.3055
治骨蒸	-11.3057
堅實	-11.3058
通明	-11.3061
薔薇根	-11.3062
多怒	-11.3063
麺糊	-11.3064
診脉	-11.3065
半兩剉	-11.3065
炙煿	-11.3065
結塊	-11.3066
稍愈	-11.3066
以指	-11.3066
滑利	-11.3068
吐乳	-11.307
十全大補	-11.3072
當歸桂心	-11.3073
渴欲飲水	-11.3073
▁肘後方	-11.3073
久積	-11.3074
汁浸	-11.3076
聰	-11.3077
在天	-11.3077
不祥	-11.3078
痛楚	-11.308
除煩	-11.3081
寒化	-11.3082
帶之	-11.3087
良又方	-11.3087
加山梔	-11.3087
同為細末	-11.3088
多由	-11.309
為極細末	-11.3093
五邪	-11.3094
但得	-11.3095
黄茋湯	-11.3095
漸退	-11.3096
不舒	-11.3096
弔	-11.3098
方右用	-11.3099
灑	-11.3101
其治	-11.3101
傅之又方	-11.3102
物也	-11.3102
參苓白术散	-11.3105
啼呌	-11.3106
胃管	-11.3106
然必	-11.3107
易老	-11.3107
小便赤澀	-11.3107
右為麤末	-11.3107
為陰	-11.3108
不収	-11.3108
矣凡	-11.3109
相通	-11.311
井華水	-11.3111
合口	-11.3113
動脈	-11.3114
靈砂	-11.3115
終日	-11.3116
飲食如故	-11.3118
如初	-11.312
經文	-11.3121
汗出者	-11.3122
煮之	-11.3122
心包絡	-11.3124
之聲	-11.3124
滑石末	-11.3125
加減八味丸	-11.3125
空心下	-11.3126
痛癢	-11.3126
虚脹	-11.3126
中風口噤	-11.313
去裙	-11.313
藴積	-11.3131
手足寒	-11.3133
助其	-11.3133
煎至一鍾	-11.3134
生南海	-11.3134
和合	-11.3139
於瘡上	-11.314
欲食	-11.314
微微	-11.314
針入	-11.3143
蟲蝕	-11.3144
片時	-11.3145
脉細	-11.3145
如拳	-11.3145
毎服十丸	-11.3146
也是	-11.3147
▁右	-11.3148
治風濕	-11.3149
恐傷	-11.315
隂陽不和	-11.315
不能治	-11.3151
陽分	-11.3151
沃之	-11.3151
副	-11.3152
瓮	-11.3152
不多	-11.3153
主血	-11.3154
右為細末每服三錢	-11.3154
于外	-11.3154
嫌	-11.3155
右㕮咀每服三錢水一盞	-11.3155
疣	-11.3157
泥土	-11.3158
蕈	-11.3158
木氣	-11.3158
天冬	-11.3159
無故	-11.3159
墻	-11.316
支溝	-11.3161
勿服	-11.3161
砂糖	-11.3162
蚌粉	-11.3162
沐	-11.3162
川澤	-11.3163
七月七日	-11.3165
㣲利	-11.3166
未應	-11.3166
靣色	-11.3167
别之	-11.3171
臨證	-11.3171
小便澀	-11.3172
穴中	-11.3172
出盡	-11.3172
㽲痛	-11.3174
如雞子大	-11.3174
也必	-11.3176
兩耳	-11.3176
不飲酒	-11.3176
乾薑甘草	-11.3176
下虚	-11.3178
以水九升煮取三升	-11.318
三經	-11.318
服治	-11.3181
不凋	-11.3183
草部	-11.3183
一陽	-11.3184
服前藥	-11.3184
腫如	-11.3187
上循	-11.3187
收歛	-11.3187
地骨	-11.3187
臁瘡	-11.3188
只以	-11.3188
𦂳者	-11.3188
燒烟	-11.3188
者又	-11.3188
血多	-11.3188
不可多食	-11.319
烟盡	-11.3191
老小	-11.3191
海中	-11.3192
車前草	-11.3193
好醋	-11.3193
實火	-11.3194
傷於風	-11.3196
與藥	-11.3197
脈證	-11.3197
微弱	-11.3197
鬱火	-11.3198
養胎	-11.3198
不能消	-11.3198
以水一升	-11.3199
然亦	-11.32
若病	-11.32
痰積	-11.3202
陰盛	-11.3202
豕	-11.3204
者逆	-11.3204
瘠	-11.3204
太山	-11.3206
皴	-11.3208
嫰	-11.3208
煮取三升去滓	-11.3209
五香連翹湯	-11.3209
二十二	-11.3211
入目	-11.3212
虚乏	-11.3213
右為末每	-11.3215
朗	-11.3216
幷	-11.3216
温服一升日三服	-11.3218
生津液	-11.3218
夢寐	-11.3221
表不解	-11.3222
咽腫	-11.3222
緑色	-11.3223
者為上	-11.3224
何病	-11.3224
分温再服	-11.3224
右為麄末	-11.3225
馬尾	-11.3226
撞	-11.323
隂者	-11.3232
薑七片	-11.3233
氣厥	-11.3234
甘露	-11.3235
狗膽	-11.3235
之甘	-11.3235
加味四物湯	-11.3236
邪毒	-11.3237
囊縮	-11.3238
海藏云	-11.3241
者用之	-11.3242
煮取三升分三服	-11.3242
飮	-11.3242
亦療	-11.3244
氣下	-11.3244
近道	-11.3245
已解	-11.3246
肝肺	-11.3248
棗膏	-11.3248
和則	-11.3248
而疾	-11.3249
驅風	-11.3249
加川芎	-11.3254
訶黎勒	-11.3256
服之治	-11.3256
心臟	-11.3256
春氣	-11.3256
冬夏	-11.3259
不作膿	-11.326
水七升	-11.3261
宣明	-11.3262
典	-11.3263
兩月餘	-11.3263
傷而	-11.3264
大泄	-11.3267
鳳	-11.3267
簇	-11.3268
斗門方	-11.3269
枸	-11.3271
域	-11.3271
或從	-11.3273
大明曰	-11.3274
切焙各	-11.3274
金氣	-11.3275
以小	-11.3275
一歲	-11.3275
云此	-11.3277
秦椒	-11.3278
竒效	-11.3279
為丸如桐子大	-11.328
麻黄桂枝	-11.328
治風痰	-11.3281
煎六分	-11.3282
糊丸梧子大	-11.3282
令爛	-11.3285
以温水	-11.3286
毬	-11.3286
同研令勻	-11.329
立方	-11.329
内損	-11.3292
當歸湯	-11.3292
方附	-11.3293
陽谷	-11.3293
焮赤	-11.3293
塗上	-11.3294
用麻黄	-11.3295
薑棗煎	-11.3295
合藥	-11.3296
各隨	-11.3298
以備	-11.3298
時以	-11.3299
息賁	-11.3301
來者	-11.3303
浸七日	-11.3303
潰膿	-11.3304
五葉	-11.3304
出王氏	-11.3304
蒸熱	-11.3305
濕痒	-11.3305
沉伏	-11.3308
而陽	-11.3308
丸小豆大	-11.331
半丸	-11.3311
心法	-11.3312
以水一斗煮	-11.3313
鈐方	-11.3313
浸三日	-11.3313
芭蕉	-11.3316
成珠	-11.3317
内盛	-11.3317
二片	-11.3318
火化	-11.3318
殃	-11.3319
于上	-11.3319
菽	-11.332
凸	-11.332
脅下	-11.3321
顫	-11.3321
乾則	-11.3322
李彣曰	-11.3322
隂蝕	-11.3323
荆瀝	-11.3323
猴	-11.3325
先下	-11.3327
甚驗	-11.3331
去沫	-11.3331
白术陳皮	-11.3331
烏雞	-11.3331
運動	-11.3334
煎膏	-11.3336
犬咬	-11.3337
頭靣	-11.3338
不受邪	-11.3338
甘露飲	-11.3338
水運	-11.334
體痛	-11.334
風勞	-11.3343
凡有	-11.3345
丸如彈子大每服一丸	-11.3345
一節	-11.3345
變色	-11.3348
氣虚者	-11.335
不能舉	-11.3352
治食	-11.3353
之不同	-11.3356
本於	-11.3358
味厚	-11.336
尖雙仁	-11.3362
所乗	-11.3362
味辛温無毒主	-11.3364
懸癰	-11.3365
足寒	-11.3366
唇焦	-11.3368
能令	-11.337
方有	-11.3372
沉𦂳	-11.3374
不已則	-11.3374
咽燥	-11.3375
菴	-11.3375
氣出	-11.3375
勃	-11.3375
瘛瘲	-11.3376
後有	-11.3376
氣上攻	-11.3377
凑	-11.3377
結硬	-11.3377
温漿水	-11.3377
右剉細	-11.3378
柑	-11.338
㿗疝	-11.3383
蜀葵	-11.3385
用六君子湯加	-11.3386
痟	-11.3387
厚樸	-11.3387
取根	-11.3387
益氣湯	-11.3388
不傷	-11.339
用參茋	-11.3391
易簡	-11.3393
豆䓻	-11.3394
服訖	-11.3396
血液	-11.3397
膏方	-11.3398
牛黄丸	-11.3399
欬者	-11.3399
陽主	-11.3401
收功	-11.3402
丸如小豆大	-11.3402
諸書	-11.3402
當歸補血湯	-11.3403
豆許	-11.3407
足三隂	-11.341
不出者	-11.3411
磁器内	-11.3411
故名曰	-11.3412
在膝	-11.3412
温酒調	-11.3413
用加味歸脾湯	-11.3414
丞	-11.3414
連根	-11.3417
和緩	-11.3417
察之	-11.3419
霍亂吐瀉	-11.3421
煎水	-11.3422
杵為末	-11.3422
分肉	-11.3426
香丸	-11.3426
方同	-11.3427
曰凡	-11.3428
湏臾	-11.343
處處	-11.3432
操	-11.3432
雞舌香	-11.3432
此義	-11.3432
貞	-11.3432
同入	-11.3433
脾臟	-11.3433
而浮	-11.3434
蓴	-11.3434
治口瘡	-11.3434
蕭	-11.3434
白麫	-11.3435
寒戰咬牙	-11.3437
太過則	-11.3437
補㵼	-11.3437
木火	-11.3438
身如	-11.3438
宜食	-11.3441
濕土	-11.3441
水出	-11.3442
必効	-11.3443
難言	-11.3443
以好酒	-11.3445
脉經	-11.3445
花葉	-11.3446
氣相	-11.3447
作一	-11.3448
赤暈	-11.3451
真武湯	-11.3453
傷寒六七日	-11.3454
苧根	-11.3454
但當	-11.3455
漸生	-11.3457
熱壅	-11.3457
也内經曰	-11.3458
宜下	-11.3458
尺許	-11.3458
也是以	-11.346
日三次	-11.3461
之效	-11.3462
喘者	-11.3463
即有	-11.3463
粥飲調下二錢	-11.3463
諸陽之	-11.3464
依此	-11.3468
治之若	-11.347
一兩炒	-11.3471
然有	-11.3473
走馬	-11.3474
内加	-11.3474
太醫	-11.3474
煑取一升	-11.3475
活人書	-11.3475
春生	-11.3478
至七日	-11.3481
巫	-11.3482
二隂	-11.3484
骨傷	-11.3485
以知	-11.3488
斑蝥	-11.3489
珠子	-11.3489
鳯	-11.349
當汗	-11.3491
多以	-11.3491
疾者	-11.3492
所説	-11.3492
一百丸	-11.3492
刺薊	-11.3493
豹	-11.3494
葛洪	-11.3494
五七丸	-11.3494
以水一斗煮取三升	-11.3495
羊蹄根	-11.3495
庶可	-11.3496
跌撲	-11.3496
痰結	-11.3496
已來	-11.3496
厯節	-11.3497
鍊蜜	-11.3499
脈氣所發	-11.35
腸風下血	-11.3501
丸彈子大	-11.3504
鐵器	-11.3507
清陽	-11.3507
逺行	-11.3508
樹上	-11.3512
紙褁	-11.3512
背疽	-11.3513
無比	-11.3517
惺惺散	-11.3518
身寒	-11.3519
不可不察	-11.352
乃能	-11.3523
青黑	-11.3524
下土	-11.3525
滋潤	-11.3529
蔥	-11.353
壅悶	-11.3531
食不消化	-11.3532
大腹子	-11.3533
兼用	-11.3535
加入	-11.3537
食減	-11.3537
三片	-11.3537
其莖	-11.3538
肝心	-11.3538
餌之	-11.3539
危急	-11.3539
後藥	-11.354
大承氣	-11.354
陶云	-11.3541
繋	-11.3541
鷰	-11.3541
呃	-11.3542
妾	-11.3542
刋	-11.3543
東海	-11.3544
冇	-11.3544
飛揚	-11.3544
苗葉	-11.3545
乎曰	-11.3546
肩上	-11.3546
山梔仁	-11.3546
感風	-11.3548
作膿	-11.3548
女萎	-11.3548
疊	-11.3549
故使	-11.3549
四神丸	-11.3551
温散	-11.3551
牆	-11.3551
頦	-11.3553
六淫	-11.3553
即當	-11.3555
去筋膜	-11.3556
傷隂	-11.3556
至數	-11.3557
偏墜	-11.3559
婦人血	-11.356
如漆	-11.356
邪客於	-11.3562
有餘則	-11.3562
上出	-11.3564
枯白礬	-11.3566
歸宗湯	-11.357
強直	-11.357
也先用	-11.3571
血虚也	-11.3571
公孫	-11.3575
在前	-11.3576
右搗羅為散	-11.3576
汁炙	-11.3577
其數	-11.3577
熱物	-11.3582
失度	-11.3583
赤目	-11.3584
血痺	-11.3586
子仁	-11.3587
未成膿	-11.3588
便閉	-11.3591
掖	-11.3593
則反	-11.3593
為効	-11.3594
面部	-11.3595
乞	-11.3595
噀	-11.3598
處方	-11.3598
竒方	-11.3599
疿	-11.3599
小便黄	-11.36
呵欠	-11.3601
寔	-11.3601
閲	-11.3603
魁	-11.3603
而少	-11.3603
邪盛	-11.3605
忌生冷油膩	-11.3605
不能久立	-11.361
共為細末	-11.361
治瘡瘍	-11.361
但頭汗出	-11.361
百合病	-11.361
脇脹	-11.3613
恱	-11.3613
水一升	-11.3614
馬齒	-11.3615
在右	-11.3615
大良	-11.3617
微者	-11.3619
病熱	-11.362
孩子	-11.362
未滿	-11.3623
香䜴	-11.3624
灸百壯	-11.3625
㣲火	-11.3625
此草	-11.3625
日一換	-11.3626
丸梧子大每	-11.3627
則毒	-11.3627
煎七分去滓温服	-11.3627
病情	-11.363
豈能	-11.363
四時之	-11.3633
治隂	-11.3633
耳下	-11.3633
古之	-11.3637
五香	-11.364
為末煉蜜	-11.3641
昏睡	-11.3642
臭穢	-11.3645
發泄	-11.3645
俱病	-11.3646
痛甚者	-11.3648
汗出而解	-11.3649
故經曰	-11.365
俠脊	-11.3651
所乘	-11.3652
而惡寒	-11.3653
睫	-11.3654
勞動	-11.3655
根窠	-11.3656
滋腎丸	-11.3656
箭鏃	-11.3657
籬	-11.3657
宰	-11.3657
襍	-11.3658
往来	-11.3658
婁	-11.3658
䘮	-11.3658
頃刻	-11.3659
三歲	-11.3659
内熱晡熱	-11.3661
涕唾	-11.3663
蔓荆實	-11.3663
善忘	-11.3664
八珍	-11.3665
其他	-11.3665
都作一服	-11.3666
熱悶	-11.3666
廣州	-11.3668
首尾	-11.3671
復溜	-11.3671
炒過	-11.3676
脾弱	-11.3676
棗湯下	-11.3678
氣虚而	-11.3678
足跟	-11.3678
患前症	-11.3678
舌卷	-11.3681
小腸氣	-11.3682
者宜之	-11.3685
可不	-11.3685
之屬是也	-11.3687
每服二三錢	-11.3688
河水	-11.3688
若誤	-11.3689
陽氣衰	-11.369
續命	-11.369
打撲	-11.3691
陽厥	-11.3693
頭尾	-11.3695
惡實	-11.3695
者知	-11.3696
戒之	-11.3696
鬱而	-11.3697
也設	-11.3698
令子	-11.3699
奈	-11.3704
氣不行	-11.3706
悲傷	-11.3706
如膠	-11.3707
痰滯	-11.3708
雞犬	-11.3708
熱痰	-11.3709
董	-11.3709
骨節煩疼	-11.3709
生生子曰	-11.371
用異功散	-11.3711
彦	-11.3712
何以知之	-11.3712
乎此	-11.3712
裁	-11.3713
靡	-11.3713
剜	-11.3714
瞿麥穗	-11.3714
私	-11.3714
尹	-11.3716
忌海藻菘菜生葱	-11.3716
補氣血	-11.3716
小茴香	-11.3716
貓	-11.3717
微煩	-11.372
以爲	-11.3721
於胸中	-11.3721
柴胡飲	-11.3722
失明	-11.3722
光潤	-11.3723
立春	-11.3723
神功	-11.3723
藕節	-11.3723
眵淚	-11.3724
治痔	-11.3725
已破	-11.3725
以艾	-11.3726
傳染	-11.3727
氣者	-11.3727
令消	-11.3728
者為勝	-11.3734
者不可治	-11.3734
汗而	-11.3735
半分三服	-11.3735
研令細	-11.3736
小蒜	-11.3736
調塗之	-11.3737
髙下	-11.3737
口氣	-11.3741
治牙齒	-11.3742
蓮花	-11.3743
咽喉痛	-11.3744
噦逆	-11.3746
頭汗	-11.3746
為治	-11.3746
中空	-11.375
化也	-11.375
殺之	-11.3754
塞之	-11.3754
以利	-11.3755
之兆	-11.3755
在後	-11.3756
只宜	-11.3756
寒熱如瘧	-11.3757
内以	-11.3758
飲食不入	-11.3758
此書	-11.376
蛔	-11.3761
微赤	-11.3761
八月採	-11.3764
鼓脹	-11.3764
生山	-11.3765
之才曰	-11.3768
托裡	-11.3768
氣欲絶	-11.3769
謀	-11.3769
極多	-11.3773
通谷	-11.3774
雜證	-11.3776
如上法	-11.3778
主治參互	-11.3779
單服	-11.3779
風則	-11.378
服五丸	-11.3781
下利者	-11.3782
浮滑	-11.3783
普濟方卷一百	-11.3783
照海	-11.3783
但欲	-11.3784
之辨	-11.3785
少陽相火	-11.3786
不過三服	-11.3786
而渴者	-11.3787
不汗	-11.3787
欽定四庫全書御纂醫宗金鑑卷	-11.3788
與傷寒	-11.3788
滋補	-11.3788
二十三	-11.3789
不損	-11.3791
伏於	-11.3793
而自	-11.3794
和滓	-11.3795
八寸	-11.3796
若夫	-11.3799
男子婦人	-11.38
半錢匕	-11.38
表而	-11.38
於前	-11.3803
細研各	-11.3804
之症也	-11.3804
束骨	-11.3806
日一易	-11.3806
在心下	-11.3808
下膈	-11.3808
則神	-11.3808
停水	-11.3808
未詳	-11.3808
必待	-11.3809
也雖	-11.381
伏暑	-11.381
病此	-11.3811
拭之	-11.3812
自覺	-11.3813
戰慄	-11.3814
用鍼	-11.3814
實非	-11.3815
十個	-11.3815
陽氣虚	-11.3816
炒五	-11.3817
不平	-11.3818
有輕重	-11.3819
漸愈又	-11.3821
大温	-11.3822
客之	-11.3822
取吐	-11.3822
氣乏	-11.3822
不澤	-11.3822
生成	-11.3823
堅而	-11.3823
喉間	-11.3824
脾脉	-11.3826
黒附子	-11.3828
痛不止	-11.3828
欲飲水	-11.3828
主人	-11.3829
火運	-11.3831
二三次	-11.3832
腹中雷鳴	-11.3832
漏血	-11.3833
閉氣	-11.3836
目録欽定四庫全書御纂醫宗金鑑卷	-11.3836
痣	-11.3836
藿香正氣散	-11.3837
釡中	-11.384
稠宻	-11.384
臛	-11.3841
打碎	-11.3847
以漿水	-11.3848
亦良	-11.3848
而短	-11.3849
破氣	-11.3849
後天	-11.3849
不失	-11.385
不察	-11.385
年老	-11.3856
肥人	-11.3856
濕家	-11.3857
白及	-11.386
掌中	-11.386
▁又方	-11.3861
研碎	-11.3861
則非	-11.3862
多食令人	-11.3864
三因方	-11.3865
尖炒	-11.3865
於人	-11.3865
以水一盞	-11.3867
半夏生薑	-11.3868
動者	-11.3871
次年	-11.3871
上為	-11.3871
夜多	-11.3872
志曰	-11.3875
異常	-11.3877
齒根	-11.3877
控	-11.3878
逸	-11.3883
此承上條	-11.3884
暇	-11.3886
用清	-11.3886
腎氣虚	-11.3886
偹	-11.3886
鐘	-11.3889
桑椹	-11.389
癡	-11.389
鋸	-11.389
手太陰	-11.389
腰胯	-11.3891
聲嘶	-11.3894
病甚	-11.3894
出衞生	-11.3894
令氣	-11.3895
蔥白	-11.3896
大杼	-11.3898
如糊	-11.3898
水煎温服	-11.39
上中下	-11.3901
紫雪	-11.3904
其政	-11.3906
煎沸	-11.391
土地	-11.391
脇下滿	-11.3912
治驗	-11.3912
出第	-11.3913
大怒	-11.3913
有赤	-11.3913
一邊	-11.3913
急則	-11.3914
非謂	-11.3916
炎上	-11.3917
消中	-11.3918
多忘	-11.392
䧟中	-11.392
丸治一切	-11.3921
聖丸	-11.3921
聖恵	-11.3922
如魚	-11.3925
塗之又方	-11.3926
最難	-11.3926
陽氣不足	-11.3926
疥瘡	-11.3927
霍亂吐㵼	-11.3928
其状	-11.3931
水土	-11.3932
毛髮	-11.3932
味甘辛	-11.3933
治黄疸	-11.3933
不能化	-11.3934
輕輕	-11.3934
兼見	-11.3936
腫疼	-11.3936
空心以	-11.3937
用手	-11.3938
趾	-11.394
辟邪	-11.3941
卜	-11.3941
感之	-11.3942
六君	-11.3944
平日	-11.3944
左脇	-11.3945
口開	-11.3945
槐白皮	-11.3946
霧露	-11.3947
舌腫	-11.3947
沐浴	-11.3948
於身	-11.3948
胛	-11.3948
銅錢	-11.3948
精滑	-11.3949
香連丸	-11.395
䧟者中	-11.3951
黃茋	-11.3951
苺	-11.3951
好食	-11.3952
廣茂	-11.3952
傷之	-11.3953
冷者	-11.3954
散血	-11.3954
腕骨	-11.3956
綻	-11.3957
散治傷寒	-11.3957
右為極細末	-11.3957
性味	-11.3959
隂而	-11.3959
蔴	-11.396
失治	-11.3961
肩井	-11.3962
亦難	-11.3963
上古	-11.3963
衣服	-11.3964
脾氣虚弱	-11.3964
癢痛	-11.3968
粳	-11.3969
皆同	-11.397
後患	-11.3972
足陽明經	-11.3973
水八升	-11.3975
右水煎	-11.3977
臁	-11.3977
烏蛇肉	-11.3978
以水八升煮取三升	-11.3983
火而	-11.3983
中病	-11.3983
蘇合香	-11.3985
指下	-11.3985
難於	-11.3989
三五度	-11.399
弛	-11.3992
一度	-11.3993
作熱	-11.3994
昭	-11.3994
治濕	-11.3997
一七	-11.3997
湯火	-11.3998
搯	-11.3998
陽脈	-11.3998
根莖	-11.3998
名之	-11.3999
以水五升煮取二升	-11.3999
昇	-11.4
熱腫	-11.4
加牛膝	-11.4001
隂瘡	-11.4002
麗	-11.4003
换	-11.4003
赭	-11.4004
屏	-11.4005
貢	-11.4005
喙	-11.4005
宇	-11.4006
連皮	-11.4006
融	-11.4007
微有	-11.4007
為痰	-11.4007
論治	-11.4008
病名	-11.4009
而知	-11.4009
吐膿	-11.401
要訣	-11.401
筋脉拘急	-11.401
豁	-11.4011
茈胡	-11.4013
卧不安	-11.4015
如狂	-11.4015
浸滛	-11.4016
三蟲	-11.4017
青布	-11.4018
無頭	-11.4018
令沸	-11.4023
此候	-11.4023
作粥	-11.4025
於經絡	-11.4026
忌酒	-11.4027
熱食	-11.4027
勞宫	-11.4027
脉有	-11.4029
過時	-11.4029
十三日	-11.4031
紅絲	-11.4032
剉細	-11.4033
夜臥	-11.4033
燈草	-11.4033
不可灸	-11.4036
自能	-11.4037
箆	-11.4039
犬肉	-11.404
乾生薑	-11.4041
脾風	-11.4044
而來	-11.4047
葫	-11.4048
嚢	-11.405
眩運	-11.4053
爛瘡	-11.4057
無不效	-11.4058
大迎	-11.406
榖道	-11.4061
人屎	-11.4062
韻	-11.4062
纒喉風	-11.4063
本節後	-11.4064
滚湯	-11.4064
鸛	-11.4064
槁	-11.4065
岸	-11.4066
隙	-11.4066
日夜無度	-11.4067
量大小加减	-11.4068
平主	-11.4068
髀樞	-11.4069
太淵	-11.4069
肺風	-11.407
每服五七十丸	-11.407
如聖	-11.407
砂子	-11.4071
治虛勞	-11.4071
五穀	-11.4072
不透	-11.4072
搔痒	-11.4072
次灸	-11.4073
能解	-11.4074
治婦人血	-11.4074
亦必	-11.4076
一兩炮	-11.4076
柴胡山梔	-11.4078
採得	-11.408
右為散每服	-11.408
體瘦	-11.408
火上炎	-11.4082
使君子	-11.4082
慢脾風	-11.4083
目内眥	-11.4084
有六	-11.4084
無有不	-11.4084
走注疼痛	-11.4085
表之	-11.4086
三七日	-11.4087
治咳𠻳	-11.4087
而渇者	-11.4087
其說	-11.4087
普濟方卷三百	-11.4088
去骨	-11.4088
牛黃	-11.4088
小指次指	-11.4088
薛按	-11.4089
微喘	-11.4089
頭痛壯熱	-11.409
梧	-11.409
脊强	-11.4092
脇滿	-11.4096
傅之治	-11.4097
於地	-11.4098
即今	-11.41
搏於	-11.4101
用無灰酒	-11.4103
去子	-11.4103
研細末	-11.4104
清而	-11.4106
氣和	-11.4107
反覆	-11.4108
罪	-11.4109
為肝	-11.4109
發出	-11.411
發腫	-11.411
苧	-11.411
胃為	-11.4114
沉遲	-11.4116
如未	-11.4118
有邪	-11.4118
黒陷	-11.4118
為丸如	-11.4119
有傷	-11.4119
積塊	-11.4119
而終	-11.412
温米飲下	-11.4121
得睡	-11.4121
夣	-11.4122
掣痛	-11.4122
舶上茴香	-11.4122
啘	-11.4123
消之	-11.4123
殞	-11.4123
缾	-11.4124
蝨	-11.4124
劫	-11.4125
手足厥	-11.4127
今醫家	-11.4127
形容	-11.4128
與兒	-11.4128
不得下	-11.4128
年逾	-11.4129
緑豆	-11.413
動衇	-11.413
精神恍惚	-11.4131
卷栢	-11.4135
驚狂	-11.4135
怫	-11.4135
赤黄	-11.4136
善驚	-11.4137
逍遙散	-11.4137
則殺人	-11.4141
熨斗	-11.4145
一切氣	-11.4147
其後	-11.4148
孫思邈	-11.415
擣末	-11.4152
頻數	-11.4152
和而	-11.4152
日三五度	-11.4152
三十圓	-11.4153
為癰	-11.4157
目系	-11.4158
化成	-11.4159
無大熱	-11.416
焦枯	-11.416
感風寒	-11.4164
第十	-11.4166
自汗盜汗	-11.4168
枸杞根	-11.417
上衝心	-11.4171
右為㪚	-11.4171
金丹	-11.4171
每服十五丸	-11.4171
足指	-11.4171
採之	-11.4173
葫蘆	-11.4173
葱白三寸	-11.4173
有塊	-11.4174
十嵗	-11.4174
同類	-11.4175
發癎	-11.4175
暴熱	-11.4176
燥屎	-11.4176
乃為	-11.4177
夜夢	-11.4177
無刺	-11.4177
宂	-11.4178
治暴	-11.4178
軀	-11.418
斬	-11.4181
不能下	-11.4181
治之法	-11.4181
菀	-11.4182
養氣	-11.4182
肩髃	-11.4183
買	-11.4184
胃虛	-11.4184
調匀	-11.4186
服五合	-11.4187
翌日	-11.4187
題	-11.4187
烏金散	-11.4188
若已	-11.4188
靣目	-11.4189
悽	-11.4189
諸惡瘡	-11.4189
鍋中	-11.4189
而堅	-11.419
保昇曰	-11.4192
通聖散	-11.4194
攻擊	-11.4197
白豆䓻	-11.4198
上藥	-11.4199
和調	-11.4199
乳食前	-11.4205
堅滿	-11.4205
依方	-11.4205
睡卧	-11.4207
頭汗出	-11.4207
前谷	-11.4209
者順	-11.421
冷飲	-11.421
五心	-11.4211
並同	-11.4211
吐下後	-11.4213
理之	-11.4214
明云	-11.4214
温經	-11.4214
半夏茯苓	-11.4216
以前藥	-11.4218
三宿	-11.4221
此説	-11.4221
後因	-11.4223
右為散毎服	-11.4223
終不	-11.4224
如棗大	-11.4227
翎	-11.423
母丁香	-11.423
不中	-11.4231
非真	-11.4231
益胃	-11.4232
黑陷	-11.4233
去火	-11.4234
不得出	-11.4235
已前	-11.4235
多加	-11.4236
狂亂	-11.4236
黙	-11.4238
畱	-11.4239
加炮薑	-11.4243
者其人	-11.4243
其痰	-11.4244
補胃	-11.4244
未免	-11.4245
茶酒任下	-11.4246
吉凶	-11.4246
邀	-11.4246
撫	-11.4247
亦好	-11.4247
食少體倦	-11.4248
人參白术茯苓	-11.4249
柘	-11.4249
隂中之陽	-11.425
冷食	-11.4251
生薑七片	-11.4252
天真	-11.4252
急下之	-11.4252
十餘劑	-11.4253
以制	-11.4255
雙仁炒	-11.4256
脉沉細	-11.4256
隂莖	-11.4256
去滓下	-11.4257
若得	-11.4258
津液不足	-11.4258
宜下之	-11.4258
呪曰	-11.4262
明旦	-11.4262
戴人曰	-11.4263
文義	-11.4263
腫赤	-11.4264
所屬	-11.4265
頸項强	-11.4266
每於食前以	-11.4266
内無	-11.4267
妊	-11.4268
榆皮	-11.427
不但	-11.4274
肉中	-11.4275
風瘡	-11.4277
轉甚	-11.4278
下三丸	-11.428
搗取汁	-11.4281
在胸中	-11.4282
和酒	-11.4284
又有一種	-11.4284
虚汗	-11.4286
時痛	-11.4286
之害	-11.4287
剉炒各	-11.4288
者無	-11.4289
愁	-11.4289
喫食	-11.4289
當審	-11.429
海藏	-11.429
石蜜	-11.429
乃服	-11.4291
瞳神	-11.4292
甚速	-11.4293
入腦	-11.4293
腦痛	-11.4293
多屬	-11.4294
後谿	-11.4295
一盃	-11.4295
東垣曰	-11.4296
右每服	-11.4297
紅豆	-11.4298
帛裹	-11.4298
其口	-11.4298
帝曰善	-11.4299
駁	-11.4301
硫黃	-11.4302
銚子	-11.4303
如氷	-11.4303
式	-11.4304
乃有	-11.4305
神聖	-11.4305
口唇	-11.4305
蚕	-11.4305
京師	-11.4306
技	-11.4307
汁服之	-11.4308
腰背痛	-11.4308
是動則病	-11.4309
老弱	-11.4311
用十全大補	-11.4311
鎖	-11.4312
即解	-11.4312
慢火熬成膏	-11.4313
加至三十丸	-11.4313
右粗搗篩每服三錢水一盞	-11.4313
然不	-11.4314
濕麵	-11.4315
好顔色	-11.4316
以水四升	-11.4317
如爛	-11.4317
取利	-11.4318
朔	-11.4318
難忍	-11.4318
未及	-11.4318
於經	-11.4319
究其	-11.4319
宜清	-11.432
𦂳急	-11.4321
紙包	-11.4322
目眥	-11.4322
辛溫	-11.4322
大便下血	-11.4323
葱湯	-11.4323
乆而	-11.4324
利大小便	-11.4325
兼有	-11.4326
泔浸	-11.4326
則宜	-11.4326
紙撚	-11.4328
少血	-11.4332
木運	-11.4332
卧時	-11.4333
伏火	-11.4333
蘇頌	-11.4333
皆出	-11.4334
小兒初生	-11.4334
無此	-11.4334
臍風	-11.4335
之應	-11.4339
屬土	-11.4339
肢節疼痛	-11.4339
煩者	-11.4339
治痘	-11.4341
右六味切	-11.4341
白翳	-11.4341
以酸	-11.4341
水聲	-11.4342
鼻上	-11.4344
兩腿	-11.4345
去皮子	-11.4347
酒和	-11.4348
麻仁丸	-11.4349
又按	-11.435
傷筋	-11.435
合煎	-11.4351
久之	-11.4354
石膏湯	-11.4355
修事	-11.4356
所食	-11.4356
蒼耳子	-11.4356
脈遲	-11.4356
陷者	-11.4358
鞕滿	-11.4358
便用	-11.4359
单	-11.4359
駭	-11.4359
尚書	-11.4359
俗謂之	-11.4361
咬處	-11.4361
柰	-11.4361
􁜖	-11.4361
四君子湯加	-11.4362
温胃	-11.4364
新肉	-11.4364
極爛	-11.4366
結于	-11.4366
潤下	-11.4366
爐甘石	-11.4366
蠲	-11.4367
萃	-11.4368
鼠粘子	-11.4368
乆不	-11.4369
抽掣	-11.4369
痠痛	-11.4369
治膀胱	-11.437
重墜	-11.437
所注	-11.437
包裹	-11.4371
肪	-11.4371
腰腎	-11.4371
浴兒	-11.4371
鈎藤鈎	-11.4373
毒發	-11.4374
斆曰	-11.4374
人尿	-11.4375
心頭	-11.4375
得此方	-11.4376
吐酸	-11.4377
傅藥	-11.4379
二觔	-11.4379
諸血	-11.438
至今	-11.4382
故爾	-11.4382
此理	-11.4382
入鼻中	-11.4382
閉不通	-11.4383
不交	-11.4383
而言也	-11.4384
延及	-11.4384
服三十丸	-11.4384
當服	-11.4384
完骨	-11.4385
土氣	-11.4385
十餘年	-11.4385
益隂	-11.4386
後復	-11.4386
水流	-11.4386
惟有	-11.4387
喉咽	-11.4387
▁肘后方	-11.439
然後用	-11.439
腐潰	-11.4391
催	-11.4391
本條	-11.4392
一團	-11.4393
炒一兩	-11.4395
人參散	-11.4395
休息痢	-11.4397
眼昏	-11.4397
疑似	-11.4397
用寒凉	-11.44
有常	-11.4401
茵蔯蒿	-11.4402
目不明	-11.4402
主病	-11.4403
之所致也	-11.4404
海藥	-11.4406
寃	-11.4407
只可	-11.4408
東引	-11.4408
製剉	-11.4409
其寒	-11.4409
必以	-11.4409
燒紅	-11.4409
頭髮	-11.441
在胸	-11.441
録云	-11.4412
加減法	-11.4412
穢氣	-11.4414
以固	-11.4415
大麻	-11.4415
元氣不足	-11.4417
温毒	-11.4417
通紅	-11.4417
陽微	-11.4419
張口	-11.442
循行	-11.4421
之比	-11.4423
導滯	-11.4423
瘙癢	-11.4423
㗋	-11.4423
小便出血	-11.4424
訂	-11.4424
治婦人血風	-11.4424
今按	-11.4425
便下	-11.4425
山人	-11.4428
膏貼	-11.4429
補而	-11.4429
不變	-11.4429
觜	-11.4429
所在有之	-11.443
便覺	-11.443
為末每服	-11.4432
腹脇脹滿	-11.4433
劈破	-11.4433
煮至	-11.4434
渇欲飲水	-11.4434
道家	-11.4434
産後中風	-11.4435
煠	-11.4435
諸處	-11.4435
治產後	-11.4436
留結	-11.4436
麞	-11.4437
六一	-11.4437
如梧子	-11.4438
心驚	-11.4438
俱虛	-11.444
李子	-11.4441
氣亂	-11.4442
萬物之	-11.4442
桃李雀肉等	-11.4444
櫻桃	-11.4445
安得	-11.4446
風門	-11.4448
腎臟	-11.445
冬瓜	-11.4451
止用	-11.4451
一周	-11.4452
數沸	-11.4452
令服	-11.4456
大要	-11.4457
出徳	-11.4457
飯飲	-11.4457
肺脉	-11.446
土也	-11.446
而弱	-11.446
主小兒	-11.4461
絶則	-11.4462
用附子	-11.4462
酒下二十丸	-11.4463
溪毒	-11.4463
危矣	-11.4463
人身之	-11.4464
吐法	-11.4467
桂心當歸	-11.4468
酸漿	-11.447
者與	-11.4471
桂枝芍藥	-11.4474
躁熱	-11.4475
所下	-11.4478
宜用之	-11.4479
大病後	-11.4479
閉口	-11.4481
小便少	-11.4483
煑粥	-11.4483
和其	-11.4483
措	-11.4485
如聖散	-11.4485
五十枚	-11.4485
江淮	-11.4486
脾疳	-11.4486
尉	-11.4487
清胃	-11.4488
傷寒病	-11.4489
二十九	-11.4489
食肉	-11.4489
象牙	-11.4489
斧	-11.4492
桐油	-11.4492
白肉際	-11.4493
卒痛	-11.4493
又言	-11.4494
以人參	-11.4494
循喉嚨	-11.4495
罐子	-11.4496
魅	-11.4498
集驗療	-11.4499
新産	-11.45
隂陽之氣	-11.45
烏喙	-11.45
熱風	-11.45
勝於	-11.4501
膏治一切	-11.4503
養榮湯	-11.4503
稀稠得所	-11.4504
▁方	-11.4504
可畏	-11.4505
八銖	-11.4505
廉	-11.4505
以温酒下三十丸	-11.4512
足太陽經	-11.4513
療風	-11.4514
澁滯	-11.4514
不能運化	-11.4514
自和	-11.4515
汗吐下	-11.4515
油煎	-11.4518
而泄	-11.4518
得利	-11.4518
甕中	-11.4519
半字	-11.4519
驗方	-11.4522
浴之	-11.4524
此所謂	-11.4525
末酒服	-11.4526
楝實	-11.4526
不謹	-11.4527
能散	-11.4528
髄	-11.4529
年少	-11.4529
黄白色	-11.4531
陷下	-11.4536
新汲水調	-11.454
一卷	-11.454
識者	-11.4541
調下二錢	-11.4541
隨經	-11.4542
神丹	-11.4545
忠	-11.4545
白酒	-11.4548
累累	-11.4548
旨	-11.4549
而散	-11.4549
下利清穀	-11.4551
傳化	-11.4552
風處	-11.4552
龜板	-11.4552
弦𦂳	-11.4553
盡處	-11.4553
茵陳蒿	-11.4555
陽中之隂	-11.4555
肉果	-11.4555
因乳母	-11.4556
生食	-11.4556
托裏藥	-11.4558
脉濇	-11.456
治大腸	-11.4561
蚱蟬	-11.4562
㕮咀以	-11.4563
者自	-11.4563
遲則	-11.4564
隂股	-11.4564
氣不通	-11.4567
羊乳	-11.4567
甚矣	-11.4568
熟附子	-11.4569
卒心痛	-11.4571
飲水多	-11.4571
濕者	-11.4572
有不同	-11.4572
陽熱	-11.4575
平補	-11.4576
解酒毒	-11.4577
日二夜一	-11.4578
又似	-11.4578
不足者	-11.4579
傳云	-11.4579
白粥	-11.458
急風	-11.4583
丸如菉豆大每服	-11.4584
入耳中	-11.4588
時先	-11.4588
亦可以	-11.4589
裏有	-11.4591
半兩湯浸	-11.4591
二十年	-11.4592
臣禹錫等謹按蜀本	-11.4592
㓜㓜	-11.4593
發躁	-11.4593
如油	-11.4594
不堪用	-11.4597
絹帛	-11.4597
重痛	-11.4598
不止用	-11.4598
無過	-11.4598
宜調	-11.4599
水一小盞	-11.4599
痘色	-11.4599
下如	-11.4599
目下	-11.4599
炒㣲黄	-11.4599
大小便秘	-11.46
兩日	-11.4602
清金	-11.4603
治腎虚	-11.4604
如絲	-11.4604
取清	-11.4605
脉者	-11.4607
之要藥	-11.4608
而得者	-11.4609
揮	-11.4611
竇	-11.4611
鴉	-11.4612
敵	-11.4612
賔	-11.4612
必成	-11.4614
藻	-11.4614
牛旁子	-11.4614
每服二三十丸	-11.4614
赤黒	-11.4615
先寒後熱	-11.4615
異攻散	-11.4615
瘥治	-11.4616
毎服五錢水一盞半	-11.4617
簡要濟衆	-11.4617
痟渇	-11.4617
機要	-11.4617
蘄	-11.4619
此類	-11.4619
廣利方	-11.4619
即定	-11.462
血餘	-11.4621
乃去	-11.4623
治瘡	-11.4625
食治老人	-11.4626
莖中痛	-11.4629
發也	-11.4629
而𦂳	-11.4632
醫治	-11.4632
隂弱	-11.4634
如雞	-11.4635
腫焮	-11.4636
各七分	-11.4636
小便利者	-11.4637
七兩	-11.4637
傷濕	-11.4638
三陽經	-11.4638
熱入	-11.4639
萬全	-11.4642
加厚朴	-11.4643
乾濕	-11.4644
過經	-11.4644
善噫	-11.4645
劑而愈	-11.4646
搶心	-11.4647
熱病汗不出	-11.4648
益母	-11.4648
炒黑	-11.4649
虛邪	-11.4651
者所以	-11.4655
温藥	-11.4655
右為細末每服	-11.4656
不知人事	-11.466
黄黒	-11.4662
弦細	-11.4663
鐵精	-11.4666
似乎	-11.4666
通赤	-11.4666
吹鼻中	-11.4667
燥而	-11.4668
氣淋	-11.4669
內	-11.4669
慢火炒	-11.4669
若其人	-11.467
因此	-11.4671
相接	-11.4671
穂	-11.4672
蕚	-11.4672
碍	-11.4673
訓	-11.4674
水二升	-11.4674
石蓮肉	-11.4674
黄汁	-11.4675
各一兩半	-11.4675
燥之	-11.4676
再熬	-11.4676
耗散	-11.4676
命方	-11.4676
開之	-11.4676
埃	-11.4676
當歸芎藭	-11.4677
令香熟	-11.468
六一散	-11.468
結在	-11.468
甘艸	-11.468
關格	-11.4682
者猶	-11.4684
煮散	-11.4684
鱠	-11.4684
觧之	-11.4685
去白穰焙	-11.4685
重而	-11.4686
又謂	-11.4686
其發	-11.4688
發即	-11.4688
音聲	-11.4689
即易	-11.4693
十四日	-11.4693
塗患處	-11.4693
得力	-11.4695
弦數	-11.4695
藥汁	-11.4695
文火	-11.4696
七十丸	-11.4696
周痺	-11.4697
搗羅為細末	-11.4698
琥珀散	-11.4698
作癢	-11.47
逺視	-11.47
小草	-11.47
出宣	-11.4701
産后	-11.4701
味苦甘	-11.4702
如脂	-11.4703
利膈	-11.4703
四字	-11.4704
曽青	-11.4705
脈虚	-11.4705
筋縮	-11.4706
患痢	-11.4709
上見	-11.4709
白癜風	-11.471
為末蜜丸	-11.4711
俱可	-11.4712
煎熬	-11.4713
皆以為	-11.4713
新和	-11.4714
入陽明	-11.4714
俱實	-11.4717
之虚實	-11.4718
塗藥	-11.4718
如米	-11.472
不可忍者	-11.4721
之月	-11.4722
此肝	-11.4723
心風	-11.4726
痺痛	-11.4727
四劑而	-11.4728
傷寒五六日	-11.4729
絶者	-11.4729
絡石	-11.473
為病也	-11.4732
少陽陽明	-11.4732
嘔家	-11.4733
可知也	-11.4734
槐角	-11.4734
人參麥門冬	-11.4734
腦風	-11.4735
下疳	-11.4735
濯	-11.4736
几	-11.4736
鍊蜜和	-11.4736
候之	-11.4736
地中	-11.4736
関	-11.4737
水水	-11.4737
驚啼	-11.4737
蠻	-11.4738
焙亁	-11.4738
茱	-11.4738
天靈盖	-11.4739
蒺䔧子	-11.4739
惱	-11.474
能化	-11.474
本病	-11.474
胡洽	-11.4741
灸瘡	-11.4741
烹	-11.4741
傷於寒	-11.4742
紥	-11.4742
十宣散	-11.4742
兒枕	-11.4743
更與	-11.4743
膽經	-11.4743
兑	-11.4744
右将	-11.4744
隂汗	-11.4745
石龍芮	-11.4746
辣桂	-11.4746
胸膈痞滿	-11.4746
嘔逆惡心	-11.4747
瘻瘡	-11.4747
四肢沉重	-11.4747
四七湯	-11.4748
每一兩	-11.4748
水漿	-11.475
橘皮湯下	-11.475
驚邪	-11.4751
巨勝	-11.4751
研成膏	-11.4751
烊	-11.4752
灌漿	-11.4755
清解	-11.4755
除根	-11.4755
湯洗之	-11.4756
湯浴	-11.4756
油調傅	-11.4757
塞不通	-11.4758
邪結	-11.4759
腫潰	-11.476
仍用前藥	-11.4761
氣血俱	-11.4761
應是	-11.4762
皆得	-11.4763
强志	-11.4765
黄苓	-11.4765
肝血	-11.4766
清汁	-11.4766
十二枚	-11.4767
假熱	-11.4769
化服	-11.4769
灰汁	-11.477
隂主	-11.4775
嘔吐不食	-11.4776
二升半	-11.4776
至其	-11.4778
治小兒疳	-11.4779
辛香	-11.478
如雞子	-11.478
宜温	-11.4781
久服輕身	-11.4781
三五十丸	-11.4782
取一升	-11.4785
服一合	-11.4785
靈丹	-11.4787
重重	-11.4787
湯浸七	-11.4788
酸痛	-11.4789
有大小	-11.4789
之可也	-11.4789
面脂	-11.4792
肘後療	-11.4792
更甚	-11.4795
猪魚	-11.4796
甚於	-11.4796
酒炙	-11.4796
叩	-11.4796
陰血	-11.4797
急急如律令	-11.48
用五味異功散加	-11.4801
勸	-11.4801
厚朴湯	-11.4802
而隂	-11.4802
飾	-11.4804
兠	-11.4805
皁角	-11.4805
一儒者	-11.4806
與桂枝湯	-11.4806
窘	-11.4806
頬	-11.4807
呂曰	-11.4807
蠅	-11.481
天井	-11.4811
豉汁	-11.4812
苦葶藶	-11.4814
水二盞煎至一盞去滓	-11.4814
過傷	-11.4814
不腫	-11.4814
燥渴	-11.4817
大便秘澁	-11.4818
之戒	-11.4819
中年	-11.4822
不閉	-11.4822
以布	-11.4823
以瀉	-11.4824
其水	-11.4825
筯頭	-11.4825
薑附湯	-11.4825
故可	-11.4827
神庭	-11.4827
便瘥	-11.4828
下瘀血	-11.4828
之所在	-11.483
諸癎	-11.483
與人	-11.483
此論	-11.4831
頭垢	-11.4832
遁	-11.4832
萍	-11.4833
賤	-11.4834
更兼	-11.4834
古法	-11.4836
同法	-11.4838
厚者	-11.4839
年月	-11.4839
七氣湯	-11.4839
旋旋	-11.484
世醫	-11.484
孤陽	-11.4841
療姙娠	-11.4841
瘡出	-11.4841
皆非	-11.4841
滋陰	-11.4844
切作片子	-11.4844
乆不愈	-11.4845
四君子	-11.4845
妄語	-11.4846
霍亂吐痢	-11.4848
榴	-11.4849
羊血	-11.4849
常見	-11.485
諸淋	-11.4853
譬如	-11.4854
癰毒	-11.4856
前法	-11.4857
醫人	-11.4857
曰平	-11.4857
之嵗	-11.4859
瀉血	-11.4859
三粒	-11.486
五物	-11.4861
泄氣	-11.4861
黄芩芍藥	-11.4863
小兒疳	-11.4863
同煑	-11.4863
乳下	-11.4865
江湖	-11.4866
逮	-11.4866
馳	-11.4868
其下	-11.4868
拭去	-11.4869
白虎加人參湯	-11.4869
疙瘩	-11.487
剝	-11.487
􁏣	-11.487
凡遇	-11.4871
張氏	-11.4871
白朮	-11.4871
杵碎	-11.4873
方六首	-11.4873
者不過	-11.4873
四十九粒	-11.4874
以油	-11.4874
反致	-11.4876
口含	-11.4876
乗於	-11.4877
加味小柴胡湯	-11.4878
茯苓澤瀉	-11.4878
合而	-11.488
病得之	-11.4881
頻併	-11.4883
和傅之	-11.4883
痰厥	-11.4883
湯火傷	-11.4884
古今録驗療	-11.4885
欲成	-11.4886
去豆	-11.4887
但知	-11.4888
如麻豆	-11.4888
流涎	-11.4893
用火	-11.4895
以塗	-11.4896
氣味鹹	-11.4897
木耳	-11.4897
令香	-11.49
傳屍	-11.4901
艾灸	-11.4901
絹袋	-11.4902
去白各	-11.4902
之母	-11.4903
因風	-11.4904
加芒硝	-11.4904
精微	-11.4905
下為	-11.4905
肝經風熱	-11.4907
先生云	-11.4907
一兩為末	-11.4907
其神	-11.4907
十壯	-11.4907
苦竹葉	-11.4908
攻衝	-11.4909
禁灸	-11.4911
下䧟	-11.4911
屬心	-11.4912
唐本注云此	-11.4914
牛糞	-11.4915
癎病	-11.4916
以辛	-11.4916
除邪	-11.4917
楝	-11.4917
炒微黄	-11.4918
黑者	-11.4919
得愈	-11.492
端午日	-11.4921
擘破	-11.4921
腹上	-11.4922
精明	-11.4922
杏子	-11.4924
年近	-11.4924
内痛	-11.4927
毒瘡	-11.4927
晏	-11.4928
邪傳	-11.4928
拍碎	-11.4928
根白皮	-11.4929
氣積	-11.493
撃	-11.493
乃與	-11.493
龎	-11.493
亨	-11.4931
予嘗	-11.4931
太隂之	-11.4932
生翳膜	-11.4932
不可治也	-11.4933
忽有	-11.4933
為細末用	-11.4933
王叔和	-11.4933
寸脉	-11.4934
下三十丸	-11.4934
煎至五分去滓温服	-11.4934
堆	-11.4936
刮取	-11.4936
疳氣	-11.4937
炮半	-11.4938
篇中	-11.4938
高良薑	-11.4938
水瀉	-11.4941
或食	-11.4941
衇遲	-11.4942
妬乳	-11.4943
熬至	-11.4944
調中湯	-11.4944
陶氏	-11.4946
因勞役	-11.4946
石英	-11.4947
又若	-11.4947
腎者	-11.4947
脉盛	-11.4949
服又方	-11.495
田中	-11.4951
有隂陽	-11.4952
表症	-11.4953
餘皆	-11.4954
有氣	-11.4954
妄用	-11.4955
後取	-11.4955
同研匀	-11.4956
牛角	-11.4956
陽浮	-11.4958
摻藥	-11.4958
去渣温服	-11.4959
骨蒸勞	-11.4959
若見	-11.4961
肝臟	-11.4961
故耳	-11.4963
龍眼	-11.4964
諸虚	-11.4966
其津液	-11.4966
堅筋骨	-11.4966
甚効	-11.497
膠飴	-11.497
經久	-11.4971
仲景之	-11.4972
脈洪數	-11.4974
葱豉	-11.4974
云云	-11.4974
二八	-11.4976
以消	-11.4977
桃仁紅花	-11.4981
内亷	-11.4982
耳若	-11.4983
母子	-11.4984
立秋	-11.4984
阿膠散	-11.4985
形質	-11.4986
大便利	-11.4986
甆瓶	-11.4987
致成	-11.4988
以無灰酒	-11.4989
遟	-11.4989
雞冠	-11.4991
易生	-11.4991
繇	-11.4992
薫陸香	-11.4993
金丸	-11.4994
此與	-11.4995
所因	-11.4995
不可發汗發汗則	-11.4995
酒下三十丸	-11.4996
滑胎	-11.4997
西域	-11.4997
䰟	-11.4997
何以言之	-11.4997
梧桐	-11.4997
本草云主	-11.4999
其火	-11.5
經候不調	-11.5
産前	-11.5
􁋄	-11.5
吴茱萸	-11.5
藥不效	-11.5
庻	-11.5001
牛酥	-11.5001
胎衣不下	-11.5003
陽明證	-11.5003
治熱毒	-11.5004
婦女	-11.5005
喉嚨	-11.5007
去痰	-11.5007
及小兒	-11.5007
疎風	-11.5011
之甚者	-11.5011
傷胎	-11.5012
治肺氣	-11.5013
手足不遂	-11.5014
經病	-11.5015
為井	-11.5016
和水	-11.5016
不來	-11.5017
每服五丸	-11.5018
令滿	-11.5019
病根	-11.502
薊	-11.502
入前	-11.502
粉之	-11.5022
一般	-11.5023
更妙	-11.5025
冷痰	-11.5025
上蒸	-11.5026
腰重	-11.5027
逆上	-11.5028
五六月	-11.5029
攻伐	-11.5029
薑三片棗二枚	-11.5029
為甚	-11.503
急治之	-11.503
不瘥者	-11.5032
方黄連	-11.5032
而弦	-11.5032
骨鯁	-11.5032
身體壯熱	-11.5035
㸃藥	-11.5037
右合	-11.5039
北五味子	-11.5039
羊肉餳	-11.504
傾出	-11.504
十二種	-11.504
雞屎	-11.5042
神應	-11.5043
小兒驚風	-11.5043
順逆	-11.5043
骨上	-11.5046
刺其	-11.5047
片子	-11.5047
溢飲	-11.5049
小便黄赤	-11.5049
陳皮青皮	-11.5051
暑毒	-11.5052
膝脛	-11.5052
嘘	-11.5053
樟	-11.5053
或言	-11.5053
斷絶	-11.5054
人面	-11.5054
熱水	-11.5054
淋汁	-11.5056
長三寸	-11.5056
艮	-11.5057
墜下	-11.5057
不使	-11.5058
慿	-11.5059
須是	-11.5059
令極	-11.5059
皂莢子	-11.506
而嘔者	-11.506
内補	-11.5061
寫之	-11.5061
從上	-11.5062
取仁	-11.5062
菝葜	-11.5063
清者	-11.5064
用小	-11.5064
寒飲	-11.5064
七七	-11.5065
焦黒	-11.5065
日三四	-11.5065
食後臨臥	-11.5065
牛角䚡	-11.5068
然亦有	-11.5069
煎八分去滓	-11.5071
脉見	-11.5071
吐衂	-11.5072
留而不去	-11.5073
能制	-11.5073
搐鼻	-11.5074
受氣於	-11.5074
安静	-11.5074
北細辛	-11.5074
瀉白散	-11.5075
臼中	-11.5076
同煎至七分	-11.5077
杉木	-11.5078
風痙	-11.5079
牛屎	-11.5081
用好酒	-11.5082
測	-11.5083
胡桃肉	-11.5083
而愈一	-11.5083
脈浮大	-11.5084
日出	-11.5086
壯實	-11.5086
蔓延	-11.5086
藥對	-11.5087
大便溏	-11.5087
病當	-11.5087
内寒	-11.5088
不審	-11.509
白通湯	-11.5093
熾盛	-11.5095
用八珍湯加	-11.5095
雞子清	-11.5096
膏治小兒	-11.5097
子午	-11.5097
研令匀	-11.51
散治風	-11.5101
易於	-11.5101
脉當	-11.5103
之文	-11.5103
瘡癬	-11.5105
連年	-11.5106
盞内	-11.5109
俱出	-11.511
腹肚	-11.511
霍亂吐利	-11.5112
爲使	-11.5113
時辰	-11.5114
脹者	-11.5115
傅瘡	-11.5117
空心用	-11.5117
紙封	-11.5117
則難	-11.5121
利氣	-11.5122
嗚呼	-11.5122
保元	-11.5123
採根	-11.5123
十遍	-11.5123
有熱也	-11.5123
槽	-11.5124
百草	-11.5124
加丁香	-11.5124
飡	-11.5125
無事	-11.5125
屬胃	-11.5125
脾胃虚冷	-11.5126
圓如	-11.5126
入地	-11.5127
其害	-11.5127
浪	-11.5127
川山甲	-11.5127
藥入	-11.5127
末半錢	-11.5128
筋膜	-11.5128
血積	-11.5129
蜀中	-11.5129
鉤	-11.513
不宜多	-11.513
致使	-11.5132
解熱	-11.5135
敗醬	-11.5135
四順	-11.5135
聖愈湯	-11.5135
精要	-11.5136
栁木	-11.5136
與水	-11.5137
瘡愈	-11.5138
白术白茯苓	-11.5138
明堂經云	-11.5138
也肺	-11.5138
性冷	-11.5139
年不愈	-11.5139
兩筋間	-11.5139
産寳	-11.5139
生油	-11.5139
又非	-11.514
病傷寒	-11.514
去苗各	-11.5141
非若	-11.5142
年三十	-11.5142
太過不及	-11.5144
四肢倦怠	-11.5145
左寸	-11.5146
石藥	-11.5149
食飲不下	-11.515
治之以	-11.515
末各	-11.5151
二粒	-11.5151
下之若	-11.5151
五月採	-11.5152
出第二十	-11.5152
綿濾	-11.5156
平之	-11.5157
行陽	-11.5158
乃生	-11.516
小膓	-11.5161
之士	-11.5162
不睡	-11.5163
黄花	-11.5164
疼痛不止	-11.5164
不見物	-11.5166
病發	-11.5166
癭瘤	-11.5167
有節	-11.5169
治法當	-11.517
松子	-11.5171
羊蹄	-11.5171
風涎	-11.5172
如舊	-11.5172
寒氣客於	-11.5173
猪苓湯	-11.5173
分服	-11.5173
者邪氣	-11.5174
今以	-11.5175
右為散每服四錢以水一中盞	-11.5175
湯㸃服	-11.5176
木香甘草	-11.5177
藕汁	-11.5179
從内	-11.5179
右㕮咀水煎	-11.5179
憂恚	-11.5181
庸醫	-11.5181
乾為度	-11.5182
銀花	-11.5182
左闗	-11.5183
輕手	-11.5184
素弱	-11.5185
膏肓	-11.5187
重劑	-11.5187
葵菜	-11.5188
治疳	-11.5188
絲𤓰	-11.519
庶幾	-11.5193
三字	-11.5193
右剉碎	-11.5194
不計多少	-11.5194
耳門	-11.5194
陽谿	-11.5196
用巴豆	-11.5197
薑水煎	-11.5197
惟宜	-11.5199
移熱於	-11.52
衍文	-11.5201
皆當	-11.5202
尚在	-11.5202
驚駭	-11.5202
一二丸	-11.5202
治乳石發動	-11.5202
故宜	-11.5203
子如	-11.5205
熱化	-11.521
結喉	-11.5211
手厥隂	-11.5211
不同也	-11.5214
莧菜	-11.5214
烏梅丸	-11.5214
則曰	-11.5215
為細散	-11.5215
巨陽	-11.5218
所生病者	-11.522
上應	-11.5221
色不	-11.5225
饑飽	-11.5226
論夫	-11.5229
桔梗枳殻	-11.5229
敦	-11.523
治之方	-11.5232
白如	-11.5235
無名	-11.5237
箭頭	-11.5239
四十枚	-11.5239
腸滑	-11.524
氣病	-11.524
錢乙	-11.524
薄荷汁	-11.5241
引經	-11.5242
爲陽	-11.5245
明耳目	-11.5246
米飲調	-11.5248
火熾	-11.5249
黧	-11.5249
生意	-11.5249
膝痛	-11.5251
口禁	-11.5253
通其	-11.5254
八十一	-11.5255
肖	-11.5257
頭昏	-11.5257
鼻流清涕	-11.5258
或吐	-11.5258
三指撮	-11.5258
經氣	-11.5259
中部	-11.5259
如此則	-11.5259
祭	-11.5259
平微	-11.5259
一中盞	-11.5261
㪷	-11.5261
紛	-11.5261
及其	-11.5261
舍於	-11.5262
沿	-11.5263
比之	-11.5263
固精	-11.5263
坐卧不安	-11.5263
合子	-11.5265
去米	-11.5266
隅	-11.5267
彌佳	-11.5269
肥兒丸	-11.5269
入生薑三片	-11.5269
陽事	-11.5271
遊走	-11.5275
竹刀	-11.5276
木香丁香	-11.5276
爲病	-11.5277
誤食	-11.5278
竹木	-11.528
汁塗	-11.5281
布裹	-11.5281
下亷	-11.5281
㵼肝	-11.5282
六七月	-11.5283
𤓰子	-11.5283
分五服	-11.5283
不知此	-11.5283
腦户	-11.5285
大醉	-11.5286
搖頭	-11.5286
臨卧時	-11.5287
味甘温無毒主	-11.5287
復出	-11.5287
長肉	-11.5288
酒積	-11.5289
一端	-11.529
傷寒後	-11.5291
此時	-11.5293
汗出則	-11.5293
調攝	-11.5294
令細	-11.5297
右為末煉蜜為	-11.5298
癥塊	-11.5298
新寒	-11.5299
瘡内	-11.5301
龍骨牡蠣	-11.5301
掉	-11.5303
然此	-11.5304
土茯苓	-11.5304
思食	-11.5306
可攻	-11.5307
小小	-11.5308
十沸	-11.5308
熱甚則	-11.531
出指	-11.531
倍之	-11.5311
芎歸湯	-11.5311
散結	-11.5312
内外皆	-11.5313
居處	-11.5313
富貴	-11.5313
不免	-11.5314
丸如雞頭大	-11.5314
右剉散每服四錢	-11.5314
消風	-11.5315
之與	-11.5316
右腎	-11.5317
㣲細	-11.5317
一身盡	-11.5318
後下	-11.5318
如彈子大	-11.5318
用事	-11.5321
杉	-11.5322
脉中	-11.5323
醴	-11.5325
乾貼	-11.5326
臣禹錫等謹按藥性論云	-11.5326
敗龜	-11.5327
筍	-11.5327
胞衣不下	-11.5328
緒	-11.5328
詳審	-11.5329
參附湯	-11.5329
獖猪	-11.533
飲食减少	-11.533
廬	-11.533
口苦舌乾	-11.5331
陰證	-11.5331
未全	-11.5331
右十三味	-11.5332
百骸	-11.5332
年踰	-11.5333
黄水出	-11.5333
結痛	-11.5333
黄痩	-11.5336
也此皆	-11.5338
桃膠	-11.5339
䓤	-11.5341
方見本	-11.5341
致生	-11.5342
忌同	-11.5343
米粥	-11.5343
揺頭	-11.5343
荆芥湯	-11.5343
於腸胃	-11.5344
温服不拘時	-11.5345
人參養榮湯	-11.5347
修製	-11.5348
死血	-11.5348
果然	-11.535
金水	-11.535
胞衣	-11.5351
相薄	-11.5352
有竒	-11.5353
飲乳	-11.5353
受風邪	-11.5353
散邪	-11.5353
鹽花	-11.5356
之過	-11.5356
大指次指	-11.5356
可使	-11.5358
必至	-11.5358
十服	-11.5359
赤芍藥當歸	-11.536
邪干	-11.536
毒方	-11.536
乾為末	-11.5361
湏用	-11.5363
毎服二錢水一盞	-11.5363
瘦人	-11.5363
肘臂	-11.5365
而愈一人	-11.5366
氣熱	-11.5366
如豆汁	-11.5367
發熱煩躁	-11.5368
也仲景	-11.5368
蛭	-11.5373
肚脹	-11.5376
牙關	-11.5378
胸脇滿	-11.538
過食	-11.5382
當歸白术	-11.5382
之書	-11.5384
狸	-11.5384
蘭香	-11.5385
之術	-11.5386
糯米飯	-11.5386
多啼	-11.5387
蛇蜕	-11.5387
其腹	-11.5388
外無	-11.5388
出膿血	-11.5388
蔗	-11.5389
以下至	-11.5389
使其	-11.539
先於	-11.5391
廣南	-11.5391
槲	-11.5391
前隂	-11.5391
礞石	-11.5391
廻	-11.5392
程林曰	-11.5392
有花	-11.5393
熏洗	-11.5393
微寒無毒主	-11.5393
心虛	-11.5394
入後藥	-11.5394
虚憊	-11.5395
睡卧不安	-11.5396
少有	-11.5396
堕	-11.5396
疳熱	-11.5397
虎頭骨	-11.5398
胞衣不出	-11.5398
金鈴子	-11.5398
不寜	-11.5399
抝	-11.5399
乃出	-11.54
忌羊肉餳	-11.54
能食者	-11.54
終身不	-11.5402
各一两	-11.5402
受病也	-11.5402
酸石榴皮	-11.5402
過用	-11.5403
此患	-11.5403
珀	-11.5404
甘草湯下	-11.5406
梟	-11.5407
身無	-11.5407
疳蟲	-11.5408
即可	-11.5409
秘澁	-11.5409
好肉	-11.541
煑令	-11.541
遲緩	-11.5411
鷄頭	-11.5411
三十五	-11.5411
雞鳴	-11.5411
酒水各	-11.5412
西方子云主	-11.5412
烏梅一箇	-11.5412
去皮核	-11.5413
旬餘	-11.5414
五噎	-11.5414
䑕瘻	-11.5414
不辨	-11.5415
脉動	-11.5416
無辜	-11.5416
九粒	-11.5416
便難	-11.5417
一日三服	-11.5417
有云	-11.5417
六物	-11.5418
新校正云按甲乙經	-11.5419
增損	-11.542
少與	-11.542
自解	-11.542
此證生於	-11.542
舌根	-11.5422
以粉	-11.5422
知母貝母	-11.5422
右等分為細末	-11.5423
杵末	-11.5424
秋氣	-11.5425
血流	-11.5425
加葛根	-11.5425
遺失	-11.5426
三両	-11.5426
所行	-11.5427
草方	-11.5428
微甚	-11.5428
二湯	-11.5431
氣塞	-11.5432
肝俞	-11.5432
泄注	-11.5433
綿濾過	-11.5433
者宜此	-11.5434
恐怖	-11.5435
如指	-11.5437
調搽	-11.5437
當自	-11.5438
躑躅花	-11.5438
旋取	-11.5438
面黑	-11.5439
虚滑	-11.5439
氣傷	-11.544
生葱生菜	-11.544
治膈氣	-11.544
塗面	-11.544
瘀熱	-11.5442
上一寸	-11.5442
有潮熱	-11.5443
于此	-11.5445
温酒下二十丸	-11.5447
雖云	-11.5447
孩兒	-11.5451
右細研	-11.5451
亦止	-11.5453
于心	-11.5454
内庭	-11.5454
暄	-11.5455
取少許	-11.5456
安五藏	-11.5458
疳積	-11.5458
崇	-11.546
也至於	-11.5461
實為	-11.5461
或成	-11.5462
須知	-11.5464
養心	-11.5465
􁷙	-11.5466
蠡	-11.5467
又方燒	-11.5467
一斗五升	-11.5469
心神煩悶	-11.5469
汗下後	-11.5469
一寸五分	-11.547
之能	-11.547
白沫	-11.547
味辛苦	-11.5471
右為細末酒糊	-11.5471
不能食者	-11.5472
巢氏	-11.5473
上熱	-11.5473
七莖	-11.5474
攢	-11.5475
此肝火	-11.5475
退而	-11.5476
頭足	-11.5476
痢後	-11.5479
荆芥薄荷	-11.5479
邪從	-11.5482
鼻衂不止	-11.5483
表解	-11.5484
不能飲	-11.5487
强弱	-11.5487
觀音	-11.5488
治天行	-11.549
任性	-11.549
朱氏	-11.5491
吹入鼻中	-11.5491
傷動	-11.5492
風病	-11.5492
𤓰蔞根	-11.5492
脾胃虛弱	-11.5492
湯劑	-11.5498
安能	-11.5498
降而	-11.55
大毒	-11.5501
衇之	-11.5501
諸疳	-11.5501
味苦平無毒主	-11.5502
所傳	-11.5502
初時	-11.5502
有此疾	-11.5504
三百六十五	-11.5504
震亨曰	-11.5505
亦未	-11.5508
餘邪	-11.5509
桃李	-11.551
汁飲	-11.5511
純隂	-11.5512
頭中	-11.5513
肝主筋	-11.5513
冷淚	-11.5515
不徹	-11.5517
永無	-11.5518
煎温服	-11.5518
五百	-11.5519
忿	-11.5519
抱朴子	-11.552
手少隂心	-11.5521
為虛	-11.5521
藥性論	-11.5522
下不止	-11.5522
胎中	-11.5522
骨疽	-11.5525
再與	-11.5526
右為末毎服一錢	-11.5526
貽	-11.5527
虚鳴	-11.5528
叫	-11.5529
癱	-11.5529
尤怡曰	-11.553
薛氏醫案卷	-11.5531
雹	-11.5531
詔	-11.5532
悲哀	-11.5532
岐伯對曰	-11.5533
珊瑚	-11.5533
龍膽㵼肝湯	-11.5534
瘜肉	-11.5534
聳	-11.5534
顚	-11.5534
主治叅互	-11.5535
貝齒	-11.5535
肝肝	-11.5536
向上	-11.5538
右二味以	-11.554
天地之氣	-11.554
一層	-11.554
下痢膿血	-11.554
視之曰	-11.554
滑而	-11.554
不得不	-11.5542
熱如火	-11.5543
脹急	-11.5544
羊角	-11.5546
隂陽易	-11.5548
掌後	-11.555
忽患	-11.555
兩臂	-11.5551
頭目眩暈	-11.5551
湯浸蒸餅	-11.5552
大塊	-11.5554
入臟	-11.5554
憎	-11.5555
經渠	-11.5555
好古曰	-11.5557
生蜜	-11.5557
脛骨	-11.5557
膀胱經	-11.5557
柴胡證	-11.5558
無疾	-11.5559
以寒	-11.556
益其	-11.5563
相雜	-11.5564
乘虛	-11.5564
四两	-11.5565
冷水調	-11.5565
俱用	-11.5566
精髓	-11.5567
最忌	-11.5568
右研勻	-11.5569
蜘蛛咬	-11.557
即入	-11.5572
勝之	-11.5574
手足不	-11.5575
開發	-11.5576
方甘草	-11.5576
立通	-11.5577
其骨	-11.5578
泥固濟	-11.5578
陽盛則	-11.5579
取自然汁	-11.5579
數枚	-11.558
中藏	-11.558
小兒頭瘡	-11.558
本經云	-11.5583
金星	-11.5583
内入	-11.5583
繞臍	-11.5584
生薑一片	-11.5584
詳其	-11.5584
脾濕	-11.5586
忽忽	-11.5586
救苦	-11.5589
癎疾	-11.5589
辛凉	-11.559
而邪	-11.5593
毉	-11.5594
五臓六腑	-11.5597
藁	-11.5597
不服	-11.5597
剔	-11.5599
病自	-11.5599
條中	-11.5599
候其	-11.5599
朶	-11.56
同熬	-11.56
玊	-11.5601
無効	-11.5601
臙脂	-11.5602
有似	-11.5602
涕唾稠粘	-11.5602
㝠	-11.5602
醋湯	-11.5603
凌霄花	-11.5603
協	-11.5603
赴	-11.5603
衰少	-11.5604
如人行十里	-11.5604
舊一	-11.5605
僵	-11.5605
之行	-11.5606
側栢葉	-11.5606
三指	-11.5606
甘美	-11.5606
棠	-11.5606
木通甘草	-11.5607
玉枕	-11.5607
驚則	-11.5608
北柴胡	-11.5609
無藥	-11.5609
大補氣血	-11.5609
不起發	-11.5609
方七首	-11.561
生麻油	-11.561
去皺皮	-11.5611
治諸般	-11.5611
瓷瓶	-11.5611
用六君子	-11.5613
丘墟	-11.5613
感於寒	-11.5614
觸犯	-11.5614
膚腠	-11.5615
方可用	-11.5616
効方	-11.5617
水煎三錢	-11.5618
玉泉	-11.5618
立法	-11.5619
器盛	-11.562
商陸根	-11.5621
肉色	-11.5623
新血	-11.5624
不進	-11.5625
酒一斗	-11.5625
有患	-11.5626
末少許	-11.5626
燒過	-11.5627
則夢	-11.5628
上脘	-11.5628
肺臟	-11.5628
不破	-11.5629
凡使勿用	-11.563
因虚	-11.563
攣縮	-11.5632
必然	-11.5633
膈熱	-11.5638
肩背痛	-11.564
烏犀	-11.5642
可刺	-11.5642
明論	-11.5643
刺可入同身寸之	-11.5643
身有	-11.5644
塗醋炙	-11.5645
氣勝	-11.5645
防風白芷	-11.5645
内之	-11.5645
也假令	-11.5647
不善	-11.5647
新生	-11.5647
䯒	-11.5648
商陽	-11.5651
亦愈	-11.5651
今日	-11.5652
風瘙	-11.5653
余用	-11.5654
梔子湯	-11.5654
三分剉	-11.5655
半夏麴	-11.5655
蟲咬	-11.5658
其要	-11.5658
調成膏	-11.566
其事	-11.5661
二十丸至三十丸	-11.5661
死證	-11.5661
攷	-11.5662
不可下也	-11.5662
東行	-11.5663
謌	-11.5663
㵼火	-11.5664
川楝	-11.5665
騎	-11.5667
裹煨	-11.5667
華陀	-11.5668
清神	-11.567
波斯	-11.567
飲食漸進	-11.567
引痛	-11.567
憲	-11.5671
􁱫	-11.5671
烏賊骨	-11.5672
絞汁服	-11.5672
諸藥俱見前宜	-11.5672
松蘿	-11.5673
煉蜜丸	-11.5673
者為佳	-11.5673
却將	-11.5673
隠隠	-11.5674
用寒涼	-11.5675
舌胎	-11.5675
醫書	-11.5675
一百粒	-11.5675
風虛	-11.5676
大麥蘖	-11.5676
清冷	-11.5677
待其	-11.5677
痛即止	-11.5677
蠏	-11.5679
脾寒	-11.568
皆熱	-11.5681
可發汗	-11.5681
宗氣	-11.5682
四丸	-11.5682
蟲食	-11.5683
先從	-11.5683
服之即	-11.5685
本乎	-11.5685
則肺	-11.5686
止後服	-11.5687
右八味切	-11.5688
玉屑	-11.5689
之劑也	-11.569
水泉	-11.5691
外泄	-11.5691
流溢	-11.5692
温覆	-11.5693
立齋曰	-11.5693
骨中	-11.5694
羊髓	-11.5694
右五味切	-11.5695
肥白	-11.5696
為輔	-11.5696
天麻防風	-11.5697
月令	-11.5698
大防風湯	-11.5701
右同研	-11.5701
每服用	-11.5704
婦人血風	-11.5705
五膈	-11.5706
為丸如梧桐子大每服	-11.5706
之長	-11.5707
腹下	-11.5707
宜汗	-11.5708
欲知	-11.5708
不得睡	-11.571
散用	-11.5716
久坐	-11.5718
青筋	-11.5721
右十一味	-11.5724
變症	-11.5727
不知何	-11.5727
直下	-11.5728
蘹香	-11.5729
利九竅	-11.5729
陰火	-11.573
清化	-11.573
故當	-11.5732
春分	-11.5732
爛搗	-11.5734
不可言	-11.5735
殿	-11.5736
不歇	-11.5736
若覺	-11.5736
醫反下之	-11.5736
躍	-11.5736
取四升	-11.5737
悅	-11.5738
節度	-11.5739
醖	-11.5739
椹	-11.574
嗔	-11.574
愚按前方	-11.5742
心腹絞痛	-11.5744
雞子大	-11.5744
諸症悉退	-11.5744
杜蘅	-11.5745
消積	-11.5746
薏	-11.5747
氣噎	-11.5747
脈洪	-11.5748
去尖	-11.5748
日二三服	-11.5748
水一盞煎七分	-11.5749
鼠屎	-11.5749
亁地黄	-11.5749
事親	-11.5751
菴䕡子	-11.5753
川芎芍藥	-11.5753
露一宿	-11.5754
風眼	-11.5755
刺入三分	-11.5755
無别	-11.5756
於左	-11.5758
後學	-11.5759
手大指	-11.576
面紅	-11.5761
肝藏血	-11.5762
而愈一男子	-11.5763
為表	-11.5765
留連	-11.5765
發瘡	-11.5765
載之	-11.5766
溫酒	-11.5766
考之	-11.5767
行動	-11.5768
閉塞不通	-11.5768
温大	-11.5768
夫病	-11.5769
飯上蒸	-11.577
温服不拘時候	-11.577
水二大盞	-11.5771
裏虛	-11.5772
先見	-11.5772
欲去	-11.5772
小柴胡湯主之	-11.5773
頭痛身熱	-11.5774
治水	-11.5776
不運	-11.5777
散方治	-11.5778
秫	-11.5778
不及則	-11.5778
陽實	-11.5778
離經	-11.5778
洒洒	-11.5779
頭大	-11.578
三陽之	-11.578
藏器	-11.5781
去滓服	-11.5781
苦温	-11.5783
四箇	-11.5783
煉蜜丸桐子大	-11.5783
四斤	-11.5784
終於	-11.5788
熱煩	-11.5789
補五臟	-11.5789
大承氣湯下之	-11.579
桂心乾薑	-11.5791
無時候	-11.5791
而為病	-11.5791
失聲	-11.5791
前方加	-11.5792
赤皮	-11.5792
脾胃之氣	-11.5795
急救	-11.5796
年四十	-11.5796
胎不安	-11.5798
右為末煉蜜丸如梧桐子大	-11.5799
猪脂和	-11.58
在肝	-11.58
出龍	-11.58
日一發	-11.58
暴怒	-11.58
台	-11.5801
生産	-11.5803
益精氣	-11.5804
散療	-11.5805
又不可	-11.5805
湊	-11.5806
癆	-11.5807
新汲水下	-11.5808
蝉	-11.5808
天府	-11.5809
不特	-11.5809
䪿	-11.581
區	-11.581
憂愁	-11.5811
壹兩	-11.5811
傷元氣	-11.5812
身温	-11.5813
身形	-11.5813
逃	-11.5813
不可勝	-11.5814
茯苓人參	-11.5814
有數	-11.5814
嗜臥	-11.5815
温湯	-11.5815
氣不升降	-11.5815
鎭	-11.5817
無名異	-11.5817
過劑	-11.5818
語聲	-11.5819
其汗	-11.5819
但服	-11.582
鼻淵	-11.582
骨疼	-11.582
傳裏	-11.5822
飢飽	-11.5822
舶上	-11.5823
急慢驚風	-11.5824
少許同	-11.5825
不可俛仰	-11.5825
辟惡	-11.5826
此意	-11.583
浮緩	-11.5831
瓶子	-11.5831
有人患	-11.5832
噴嚏	-11.5832
覈曰出	-11.5832
督脈	-11.5835
則令人	-11.5835
熱麵	-11.5835
痿軟	-11.5836
飲一升	-11.5837
丸如梧桐子大毎服三十丸	-11.5839
補陰	-11.5839
用皮	-11.584
無花	-11.5841
醉飽	-11.5842
手足陽明	-11.5844
之年	-11.5845
而發熱	-11.5845
凍瘡	-11.5846
邪客	-11.5847
韭汁	-11.5849
麥門冬散	-11.5849
大有	-11.5849
無不愈	-11.585
麪糊	-11.5851
足下熱	-11.5851
治心痛	-11.5854
二十餘	-11.5855
水一琖	-11.5855
去鬚各	-11.5856
若人	-11.5856
研取汁	-11.5859
緋	-11.5859
右研細	-11.5859
衇弦	-11.586
雄黄散	-11.5861
上件	-11.5861
任脈	-11.5862
痿黄	-11.5864
於水	-11.5865
譫語者	-11.5865
擣汁	-11.5867
十八日	-11.5867
桂枝麻黄	-11.5868
欲飲	-11.5868
太平	-11.5868
脾藏	-11.5869
兩寸	-11.587
磁瓶	-11.5871
能通	-11.5872
木舌	-11.5872
三錢匕	-11.5877
道士	-11.5878
虚不能	-11.5878
内廉	-11.5879
右十四味	-11.5879
此穴	-11.588
前件	-11.5881
苣	-11.5881
一寸六分	-11.5882
糕	-11.5882
水脹	-11.5882
膓胃	-11.5883
騏驎竭	-11.5883
隐	-11.5883
右為粗散	-11.5883
八九月	-11.5885
七疝	-11.5885
發熱無汗	-11.5885
大行	-11.5885
邵	-11.5886
肌肉消瘦	-11.5886
佩	-11.5887
腎與膀胱	-11.5887
乳兒	-11.5888
極而	-11.5888
四肢少力	-11.5889
於天	-11.5889
儒門事親	-11.5889
苓术	-11.589
出鮑	-11.589
漿水洗	-11.5892
解谿	-11.5892
膨	-11.5893
上溢	-11.5897
附於	-11.5899
服石	-11.59
亦可服	-11.59
者吉	-11.59
中氣不足	-11.59
鍼之	-11.59
氣虚也	-11.59
淡紅	-11.5901
肩息	-11.5902
鄭聲	-11.5902
别無	-11.5905
肝為	-11.5905
故多	-11.5905
三五沸	-11.5907
髮灰	-11.5907
右並	-11.5907
已而	-11.5908
癖氣	-11.5909
病瘧	-11.591
而難	-11.591
孔穴	-11.5912
有益	-11.5913
被傷	-11.5914
輕而	-11.5914
右為末麵糊	-11.5914
諸物	-11.5916
乳房	-11.5916
四斗	-11.5917
心下有	-11.5918
雲門	-11.5918
醋糊	-11.5918
流利	-11.5919
氣血虚弱	-11.592
併病	-11.592
川芎防風	-11.5921
暴死	-11.5922
附骨	-11.5922
米泔水	-11.5923
在臟	-11.5925
化毒	-11.5927
不宜用	-11.5928
一切惡瘡	-11.5928
祥	-11.5928
茋	-11.593
破之	-11.593
肺藏	-11.5931
勞嗽	-11.5931
取濃汁	-11.5932
打糊	-11.5932
熱除	-11.5932
活法	-11.5932
本方加	-11.5933
䐜	-11.5935
勞心	-11.5936
脈細	-11.5936
用童子小便	-11.5937
崩中漏下	-11.5937
竹皮	-11.5938
荳䓻	-11.5938
不升	-11.5939
龍腦麝香	-11.594
太乙膏	-11.5942
喝	-11.5942
或至	-11.5943
和解之	-11.5943
病深	-11.5945
水四升	-11.5945
腦熱	-11.5946
境	-11.5946
腫痛或	-11.5946
因飲食	-11.5947
三十壯	-11.5948
蓋以	-11.5948
打破	-11.5948
百日内	-11.5949
鞋	-11.5949
張璐曰	-11.5949
而甦	-11.5951
奚	-11.5951
有根	-11.5951
鑠	-11.5952
缸	-11.5952
而不得	-11.5953
熱麫	-11.5954
􁳚	-11.5954
黒神散	-11.5954
胯	-11.5955
焠	-11.5955
味薄	-11.5956
綿裹内	-11.5956
石葦	-11.5957
也衇	-11.5958
去目及閉口	-11.5958
五十餘劑	-11.5961
如小豆大	-11.5961
為使惡	-11.5962
理石	-11.5962
鹿茸丸	-11.5962
而喘者	-11.5963
四聖散	-11.5963
小便滑數	-11.5964
乾薑附子	-11.5964
難經云	-11.5969
砂石	-11.597
㣲弱	-11.5974
者腎之	-11.5975
訶子皮	-11.5975
太倉	-11.5975
可生	-11.5975
滲入	-11.5975
牙齒疼痛	-11.5975
乆不瘥	-11.5977
必當	-11.5977
魚骨	-11.598
七個	-11.598
任衇	-11.5981
大便反	-11.5983
以益	-11.5983
連珠	-11.5984
塗之治	-11.5984
亦似	-11.5986
眼胞	-11.5987
石間	-11.5988
有表	-11.5991
濕化	-11.5992
虚滿	-11.5992
養胃	-11.5993
小承氣	-11.5994
五十九	-11.5995
之精氣	-11.5995
燒存	-11.5998
同食	-11.6
東北	-11.6001
五石	-11.6003
油麻	-11.6003
豈知	-11.6006
病名曰	-11.6006
乾之	-11.6006
安在	-11.6007
而不散	-11.6007
面色青	-11.6007
火煨	-11.6007
雖同	-11.6009
葉細	-11.6009
紅潤	-11.601
緋帛	-11.601
服之良	-11.6014
正誤	-11.6015
同煎至七分去滓温服	-11.6015
飱	-11.6016
肯	-11.6016
加防風	-11.6017
飄	-11.6019
一女	-11.6021
四末	-11.6022
肥大	-11.6023
迭	-11.6023
愚按前症	-11.6023
右為末醋糊	-11.6024
歎	-11.6024
允	-11.6024
口苦咽乾	-11.6024
五榖	-11.6025
大連翹飲	-11.6026
㹠	-11.6026
麻黄附子細辛湯	-11.6026
乾蟾	-11.6027
右七味切	-11.6027
袐	-11.6027
𤣥明粉	-11.6028
鎮墜	-11.6029
量兒大小以意加减	-11.6029
獨行	-11.6029
苗似	-11.603
失之	-11.603
盜	-11.6031
醍醐	-11.6031
養正丹	-11.6031
膾	-11.6032
腎邪	-11.6032
其氣血	-11.6032
錯亂	-11.6032
暴赤	-11.6035
微惡寒	-11.6035
腎主骨	-11.6036
再劑	-11.6036
脈㣲	-11.6038
開通	-11.6039
布上	-11.6039
虚怯	-11.604
胞胎	-11.6041
生苗	-11.6042
自外	-11.6042
紫金丹	-11.6043
日三四度	-11.6043
桞枝	-11.6043
右研	-11.6043
劑也	-11.6046
隂症	-11.6047
煎熟	-11.6048
皆死	-11.6049
㣲腫	-11.605
不可不辨	-11.6051
生肝血	-11.6051
不湏	-11.6051
者属	-11.6053
熏蒸	-11.6054
為重	-11.6055
新因	-11.6056
收藏	-11.6057
水㵼	-11.6057
上亷	-11.606
不能愈	-11.606
治上氣	-11.606
五行之	-11.6061
三五丸	-11.6061
滑為	-11.6062
凡十	-11.6062
腰子	-11.6062
陽絡	-11.6062
九升	-11.6062
一日夜	-11.6065
乳鉢内	-11.6065
紫蘇飲	-11.6065
昏亂	-11.6066
瘑瘡	-11.6066
冬青	-11.6067
為痺	-11.6068
候冷取出	-11.6069
作灰	-11.6071
小腹急痛	-11.6074
無汗者	-11.6074
投藥	-11.6074
痰唾	-11.6075
裏也	-11.6076
脾脾	-11.6078
為榮	-11.6079
知為	-11.6079
暗風	-11.608
脾約	-11.6081
酒煎服	-11.6081
乾棗	-11.6082
右為散每服一錢	-11.6082
温暖	-11.6083
細研以	-11.6083
為劑	-11.6083
葛氏	-11.6084
之功也	-11.6084
虚陽	-11.6085
而緊	-11.6085
攪之	-11.6088
財	-11.6088
久食	-11.6088
之經也	-11.6088
皆腫	-11.6089
房中	-11.6089
魏荔彤曰	-11.6091
空心温酒	-11.6091
不能動	-11.6091
尤為	-11.6092
熱實	-11.6092
對曰	-11.6092
天行病	-11.6093
口燥舌乾	-11.6093
濕温	-11.6094
任下	-11.6095
巽	-11.6095
苡仁	-11.6095
非止	-11.6096
至十	-11.6097
寳丹	-11.6098
少小	-11.6098
川練子	-11.6098
為末毎服二錢	-11.6098
恐其	-11.6098
耳目聰明	-11.6099
壤	-11.61
鍼入	-11.61
主治㕘互	-11.61
附湯	-11.6101
中氣虚	-11.6101
三十六種	-11.6102
邱	-11.6103
茶調下	-11.6103
予謂	-11.6103
患瘡	-11.6104
水二升煮取一升	-11.6104
痞結	-11.6104
天竺	-11.6105
令黄色	-11.6105
末三錢	-11.6105
碁子	-11.6106
癉瘧	-11.6107
探吐	-11.6108
丸用	-11.6108
聖恵方	-11.611
大黄黄芩	-11.6111
足下	-11.6111
治腰痛	-11.6112
不衰	-11.6114
下廉	-11.6116
治丈夫	-11.6117
軟飯	-11.6117
無令	-11.6117
之誤	-11.6118
油調搽	-11.6119
藏腑	-11.6121
惟以	-11.6122
表虛	-11.6124
每發	-11.6125
年五十	-11.6126
陽輔	-11.6126
發生	-11.6127
蔲	-11.6127
單方	-11.6128
共為末	-11.6129
禁用	-11.6131
益州	-11.6131
和胃氣	-11.6131
粥食	-11.6135
鬱於	-11.6135
若先	-11.6137
已見	-11.6139
至午	-11.6139
斑疹	-11.6141
沉香木香	-11.6144
三分湯浸	-11.6146
數人	-11.6148
今人多	-11.6149
不能攝	-11.615
太陽穴	-11.6151
用糯米	-11.6151
所受	-11.6152
風證	-11.6153
二方見	-11.6153
燥結	-11.6154
油塗	-11.6154
渇不止	-11.6155
治當	-11.6159
范汪同	-11.6161
金瘡止血	-11.6163
致病	-11.6163
藜	-11.6164
目赤痛	-11.6164
寕	-11.6165
譜	-11.6165
乾柿	-11.6166
揣	-11.6166
煎一盞去滓	-11.6166
不聞香臭	-11.6167
白蘞	-11.6168
之甚也	-11.6168
臆	-11.6168
少海	-11.6169
酸寒	-11.6171
穩	-11.6171
别走	-11.6171
枉	-11.6171
年七十	-11.6171
粹	-11.6172
故治	-11.6172
併入	-11.6172
裝	-11.6173
芙蓉	-11.6173
八物湯	-11.6173
著於	-11.6173
草荳蔲	-11.6175
循環	-11.6176
生焉	-11.6177
集騐方	-11.6177
手法	-11.6179
其穴	-11.618
火炎	-11.618
川續斷	-11.6181
遂至	-11.6181
發病	-11.6182
去頭足	-11.6183
細剉以	-11.6184
清肅	-11.6184
氣痢	-11.6185
未罷	-11.6186
横紋	-11.6186
詳之	-11.6187
不能下食	-11.6187
風吹	-11.6188
風中	-11.6188
譬	-11.6189
刺期門	-11.6189
速效	-11.619
豆淋酒	-11.6191
胃風湯	-11.6191
瘥又方	-11.6192
脉沉而	-11.6193
些少	-11.6194
不赤	-11.6194
門户	-11.6195
無餘	-11.6195
當歸赤芍藥	-11.6195
蜜水調下	-11.6196
無火	-11.6197
封固	-11.6197
黄去裙襴	-11.6197
大便不調	-11.6197
承之	-11.62
倫	-11.62
而愈後因	-11.62
遂與	-11.6201
未足	-11.6202
承山	-11.6202
其所以	-11.6203
平肝	-11.6203
未已	-11.6203
所治	-11.6203
胸中痛	-11.6205
去脂膜	-11.6206
凡諸	-11.6207
去梗	-11.6208
横文	-11.6208
表裡	-11.6208
傷熱	-11.6209
運化	-11.6212
令人有子	-11.6214
馬通	-11.6216
方茯苓	-11.6217
水一盞煎至七分	-11.6217
胸前	-11.6218
去翅	-11.6219
堅固	-11.6222
正如	-11.6224
濇則	-11.6224
患瘧	-11.6224
穴也從	-11.6226
治因	-11.6226
十二經脉	-11.623
憒	-11.623
訶棃勒	-11.6231
炙㣲黄	-11.6231
腎熱	-11.6231
喉痛	-11.6232
服熱藥	-11.6232
兩五錢	-11.6232
切勿	-11.6233
氣聚	-11.6234
欺	-11.6235
少澤	-11.6237
可丸	-11.6237
搗細	-11.6237
四君子加	-11.6238
滄	-11.6239
猪羊	-11.6239
大陷胸湯	-11.6239
矧	-11.624
入黄丹	-11.6241
苞	-11.6243
陽生	-11.6243
其動	-11.6243
命門火衰	-11.6244
五指	-11.6244
勉	-11.6245
肉色不變	-11.6245
脈弱	-11.6246
榖精草	-11.6246
九味蘆薈丸	-11.6246
創	-11.6246
膏藥貼	-11.6247
黶	-11.6248
種陳藏器餘	-11.625
營衞	-11.625
仲景傷寒論	-11.625
又復	-11.6251
煮乾	-11.6251
腹中絞痛	-11.6252
甘苦	-11.6252
解毒散	-11.6252
燒存性為末	-11.6252
昏沉	-11.6252
必無	-11.6253
治寒熱	-11.6254
三品	-11.6254
調順	-11.6255
見腫瘍門	-11.6255
此蟲	-11.6258
明其	-11.6259
相似而	-11.626
驚動	-11.626
瘕聚	-11.6262
普濟方	-11.6263
於皮毛	-11.6265
茅香	-11.6266
不可輕用	-11.6267
煎至七分温服	-11.6267
通暢	-11.6268
可解	-11.6269
為濕	-11.6269
同名	-11.627
而爲	-11.6271
候温	-11.6274
自知	-11.6275
丸方治	-11.6275
丸如桐子大每服三十丸	-11.6277
去泥	-11.6277
泰山	-11.6277
常欲	-11.6278
兩眼	-11.628
蛇頭	-11.6281
夫婦人	-11.6282
須要	-11.6284
開寳	-11.6284
誤人	-11.6286
已盡	-11.6291
冷汗	-11.6292
仲夏	-11.6294
外症	-11.6294
一人患	-11.6294
酒氣	-11.6295
煎湯服	-11.6296
封口	-11.6298
怠	-11.6299
治五痔	-11.6302
昏暈	-11.6302
拌蒸	-11.6303
若更	-11.6303
然後以	-11.6303
數劑而愈	-11.6307
者當以	-11.6308
夫傷寒	-11.6308
鬼邪	-11.6312
按之無力	-11.6313
商丘	-11.6314
冀	-11.6315
木部	-11.6316
先君	-11.6319
能止	-11.6319
寶鑑	-11.6319
自行	-11.6321
右為細末每用	-11.6321
忌如常法	-11.6322
善治	-11.6323
于中	-11.6323
煮汁服	-11.6326
去滓溫服	-11.6327
風寒濕痺	-11.6328
黃色	-11.6328
心俞	-11.6329
癭氣	-11.633
搗研	-11.633
麵裹	-11.6331
其腫	-11.6332
于後	-11.6333
眼暗	-11.6333
煎至七分去滓温服不拘時候	-11.6334
炭火燒	-11.6335
术附湯	-11.6336
能知	-11.6337
小蟲	-11.6337
草藥	-11.6337
治鼻衂	-11.6337
趺陽	-11.6341
可灸	-11.6341
參附	-11.6342
噯氣	-11.6343
胎熱	-11.6344
黄去瓤	-11.6345
麥門五味	-11.6346
預防	-11.6346
一匕	-11.6347
蔓菁子	-11.6347
内經謂	-11.6348
治癰疽發背	-11.6349
生江南	-11.6351
而死矣	-11.6352
不經	-11.6352
積血	-11.6352
瘡口上	-11.6353
無傷	-11.6354
相引痛	-11.6356
無忌	-11.6357
蟲毒	-11.6358
手少陰	-11.6359
火灼	-11.6359
水酒各	-11.6359
其狀如	-11.6359
小異	-11.6359
㵼肺	-11.6359
他證	-11.636
者今	-11.6362
其處	-11.6363
煎取一盞	-11.6366
亦不得	-11.6367
春生苗	-11.6368
正當	-11.6368
治牙疼	-11.6369
者有之	-11.637
無物	-11.6371
江西	-11.6371
抑之	-11.6372
燒令赤	-11.6372
斑㸃	-11.6373
血絡	-11.6374
喉風	-11.6378
濕邪	-11.6378
脈𦂳	-11.6379
熱鬱	-11.6379
匈中	-11.638
其面	-11.638
二三寸	-11.638
經藥也	-11.6381
為異	-11.6381
作喘	-11.6381
昔有	-11.6382
其所勝	-11.6383
不虚	-11.6383
碗許	-11.6383
尖雙仁炒	-11.6383
水寒	-11.6384
心焙	-11.6384
大全	-11.6384
艸	-11.6385
寸白	-11.6386
韋	-11.6386
元素曰	-11.6387
補遺	-11.6388
則死矣	-11.639
和丸如菉豆大每服	-11.639
盖因	-11.6392
者易治	-11.6392
靛	-11.6392
不减	-11.6394
願聞其	-11.6394
濕癬	-11.6394
諱	-11.6395
佛手散	-11.6395
迹	-11.6395
尺餘	-11.6396
每服三錢以水一盞	-11.6399
怒傷肝	-11.64
胎漏	-11.6401
口舌乾燥	-11.6401
補中益氣湯加	-11.6402
呷之	-11.6403
面色青黄	-11.6404
大鍾	-11.6405
溲便	-11.6406
手足不隨	-11.6407
循經	-11.6408
生料	-11.6408
鹽酒	-11.6409
成功	-11.641
盤腸	-11.641
翕翕發熱	-11.6411
碾為細末	-11.6411
治上焦	-11.6413
傷寒熱病	-11.6413
乳汁調	-11.6413
三丸至五丸	-11.6414
温主	-11.6414
之交	-11.6414
急驚風	-11.6415
諸藥不應	-11.6416
熱酒下	-11.6416
經隧	-11.6426
熱熱則	-11.6427
不能消化	-11.6428
唐附	-11.6431
胸痛	-11.6431
劑而安	-11.6434
漏蘆湯	-11.6435
加蒼术	-11.6435
乆食	-11.6436
水三斗	-11.6437
豌豆瘡	-11.6438
見鬼神	-11.6439
溫之	-11.6439
虚浮	-11.644
讝語者	-11.6441
方療	-11.6442
汗出愈	-11.6442
他處	-11.6442
以四物湯加	-11.6443
以緩	-11.6443
受其	-11.6444
腰間	-11.6444
粱米	-11.6444
水服方寸匕	-11.6444
也太陽	-11.6444
如要	-11.6445
腦後	-11.6445
冷水調下	-11.6446
崔氏療	-11.6447
前條	-11.6448
濁者	-11.6448
豁痰	-11.6449
食傷	-11.645
多渇	-11.6451
所說	-11.6451
吐而	-11.6453
月采	-11.6453
手按	-11.6457
金匱要畧	-11.6457
作煎	-11.6457
増寒	-11.6458
失節	-11.6458
附子乾薑	-11.6459
陳米飲下	-11.646
黄皮	-11.646
蕪菁	-11.6462
不能盡	-11.6462
仁齋	-11.6463
橄欖	-11.6463
亦由	-11.6464
疵	-11.6465
蘂	-11.6466
推陳致新	-11.6467
以甘緩之	-11.6467
養脾	-11.6467
枳殼	-11.6468
俠谿	-11.6469
胎死腹中	-11.6469
動於	-11.6469
各二錢半	-11.647
替	-11.647
弄舌	-11.647
奶	-11.647
梁上塵	-11.6471
刪	-11.6471
瘡痂	-11.6472
于胃	-11.6472
者勿	-11.6472
死肉	-11.6473
勞瘧	-11.6474
鼻塞聲重	-11.6474
金銀箔	-11.6475
驗之	-11.6475
百杵	-11.6477
溫酒下	-11.6478
不能制水	-11.648
煎至一盞去滓温服	-11.6481
新久	-11.6481
不宜灸	-11.6483
每服三錢匕水一盞	-11.6484
為丸桐子大	-11.6484
水三升煮	-11.6485
曲澤	-11.6485
障翳	-11.6487
茅花	-11.6487
而潰	-11.6488
積在	-11.6488
至骨	-11.6488
積久	-11.6488
湯洗七次	-11.649
搗碎炒	-11.6492
白术當歸	-11.6493
涎唾	-11.6494
脉法	-11.6496
雞肉	-11.6496
風傷	-11.6496
如錐	-11.6497
隔日	-11.6497
氣逆則	-11.6497
思之	-11.6497
去芍藥加	-11.6498
風從	-11.65
令黒	-11.65
大薊	-11.6502
水榖不化	-11.6502
下惡物	-11.6503
加黄茋	-11.6505
用米醋	-11.6505
百日兒	-11.6505
羅為散	-11.6506
芍藥黄芩	-11.6507
有神效	-11.6507
十餘行	-11.6508
聰明	-11.6508
白芷防風	-11.6511
聞之	-11.6511
七八月	-11.6512
尤當	-11.6512
浸洗	-11.6512
磁器	-11.6514
濾取汁	-11.6515
冦	-11.6516
悴	-11.6517
去水	-11.6518
針頭	-11.6519
黄帝云	-11.6519
錢匕	-11.652
用葱	-11.6521
用加味逍遙散	-11.6521
得水	-11.6522
右為細散每服	-11.6523
中蠱毒	-11.6528
石膏知母	-11.6528
較之	-11.653
瞖膜	-11.653
在腹中	-11.6531
取皮	-11.6531
大實	-11.6531
水停	-11.6532
士人	-11.6533
當辨	-11.6534
鯉魚膽	-11.6534
得下	-11.6534
四味肥兒丸	-11.6534
寸口脈	-11.6536
而愈又	-11.6537
怒則	-11.6538
傷胃氣	-11.6539
而卒	-11.6539
􁚲	-11.654
喎僻	-11.6541
頼	-11.6541
本虚	-11.6543
服一升日三	-11.6543
甘蔗	-11.6544
棟	-11.6545
葅	-11.6545
小水不利	-11.6546
焙為末	-11.6548
鰾	-11.6548
紫葳	-11.6549
心神恍惚	-11.655
蕋	-11.655
蓽茇	-11.6551
項下	-11.6552
燕脂	-11.6552
為末酒服	-11.6553
當改之	-11.6553
上冲	-11.6554
不了了	-11.6554
正赤	-11.6554
妄投	-11.6557
衇浮而	-11.6559
方桂枝	-11.656
秋石	-11.6561
止嘔	-11.6561
無功	-11.6562
要在	-11.6563
有餘也	-11.6563
不似	-11.6564
熱狂	-11.6565
右為末煉蜜丸	-11.6566
癰瘡	-11.6566
久而不愈	-11.6567
總論	-11.657
推而	-11.657
水八升煮取二升	-11.6571
惟此	-11.6571
自後	-11.6571
去木	-11.6571
四肢厥逆	-11.6572
虚症	-11.6573
按其	-11.6574
旺則	-11.6576
此雖	-11.6578
柔痓	-11.6579
治五勞七傷	-11.6581
酒浸焙	-11.6581
七惡	-11.6581
器内	-11.6581
以水三升煮	-11.6582
煩而	-11.6582
鈴方	-11.6583
氣血不足	-11.6584
防風散	-11.6586
散漫	-11.6587
忌之	-11.6589
盡出	-11.659
欲絶者	-11.6591
太陽寒水	-11.6594
味苦平	-11.6596
隱隱	-11.6596
又因	-11.6598
所侵	-11.6598
筋痿	-11.6598
見此	-11.6599
有虚實	-11.66
収之	-11.6601
羞	-11.6601
莨菪	-11.6602
脈沈細	-11.6602
牛羊	-11.6603
硝黄	-11.6603
全在	-11.6604
手背	-11.6604
米熟	-11.6605
獨活湯	-11.6605
如乾	-11.6606
藥氣	-11.6607
暑氣	-11.6607
一呼	-11.6609
瓷器	-11.661
為末酒	-11.6611
百餘劑	-11.6611
火證	-11.6611
大黄丸	-11.6611
苦痛	-11.6613
逺年	-11.6613
也况	-11.6614
若患	-11.6615
甘溫	-11.6615
彈子大	-11.6615
先煮麻黄	-11.6616
版	-11.6617
加枳實	-11.6617
􁟖	-11.6617
浸藥	-11.6617
月水不利	-11.6618
𥘉	-11.6618
教以	-11.662
治脾胃虚弱	-11.662
煎至六分去滓不計時候溫服	-11.662
其藏	-11.662
欬喘	-11.662
節飲食	-11.662
來日	-11.6621
春時	-11.6621
胃苓湯	-11.6621
傷神	-11.6621
徃来	-11.6622
張子和	-11.6622
砂盆	-11.6622
楊氏産乳	-11.6623
氊	-11.6623
墓	-11.6623
虚中	-11.6624
邈	-11.6625
陰虛	-11.6625
葳㽔	-11.6625
等方	-11.6627
滚痰丸	-11.6628
脚氣衝心	-11.6628
蜜湯	-11.6629
宋開	-11.6629
如失	-11.6629
所服	-11.663
晡	-11.663
粥食之	-11.6631
細剉用	-11.6632
三間	-11.6632
安靜	-11.6632
與熱	-11.6633
研二	-11.6633
能食而	-11.6634
用桂枝湯	-11.6634
認為	-11.6635
皮膚不仁	-11.6635
清明	-11.6636
難開	-11.6636
降氣湯	-11.6637
作一劑	-11.6638
紅㸃	-11.6639
麻油調	-11.6641
方士	-11.6641
水二盞煎至一盞	-11.6642
無痰	-11.6645
食毒	-11.6647
鼻柱	-11.6648
蜜少許	-11.6649
閉口者	-11.665
淋之	-11.665
足膝	-11.665
得熱則	-11.6651
脉絡	-11.6651
銅刀	-11.6652
犀角湯	-11.6652
肺壅	-11.6652
箇月	-11.6654
漏胎	-11.6656
熱蒸	-11.6656
前丸	-11.6657
欲倒	-11.666
神魂	-11.6661
菉豆大	-11.6664
大柴胡	-11.6664
謬矣	-11.6666
口角	-11.6666
三陽合病	-11.6666
能言	-11.6668
形瘦	-11.6668
一盌	-11.6669
翳障	-11.667
浸去	-11.6673
太陽少陽	-11.6674
針砂	-11.6674
盖之	-11.6676
頭腦	-11.6676
自下利	-11.6678
仁炒	-11.6678
胷背	-11.668
牙皂	-11.6681
二個	-11.6681
臣禹錫等謹按蜀本圖經云	-11.6682
右㕮咀每服四錢水一盞半	-11.6682
補脾肺	-11.6682
七寳	-11.6683
不能出	-11.6683
留之	-11.6684
陽㣲	-11.6684
糯米粥	-11.6685
如瘧	-11.6687
加柴胡山梔	-11.6688
為細末每服二錢	-11.6689
粟米大	-11.6689
食前米飲下	-11.6689
虛故	-11.669
茺蔚	-11.669
當急	-11.669
晝日	-11.6691
大膓	-11.6692
曷	-11.6692
柯琴曰	-11.6693
托裏消毒散	-11.6693
奈何曰	-11.6693
東坡	-11.6693
茯苓丸	-11.6693
磨下	-11.6694
診之曰	-11.6694
施之	-11.6694
燒令通赤	-11.6694
人參白术散	-11.6696
鸕鷀	-11.6698
髭髪	-11.6698
嘈雜	-11.6699
暑病	-11.67
煎一鍾	-11.67
識之	-11.67
中渚	-11.6702
鬱滯	-11.6702
泄精	-11.6703
妙香散	-11.6703
目盲	-11.6705
俞穴	-11.6705
豬膽汁	-11.6707
粥飲下三十丸	-11.6707
各壹	-11.6708
也然則	-11.6708
生犀角	-11.6709
斷之	-11.6709
右五味㕮咀	-11.6711
自當	-11.6712
一斛	-11.6713
太極	-11.6715
有餘不足	-11.6715
撮痛	-11.6715
凝結而成	-11.6716
仍在	-11.6717
項背	-11.6717
十五粒	-11.6719
必因	-11.6719
掌中熱	-11.6721
湯使	-11.6721
如是者	-11.6722
大畧	-11.6722
肝藏	-11.6727
李氏	-11.6727
其父	-11.6727
瘧痢	-11.6728
所見	-11.6728
螫人	-11.673
而殁	-11.673
打撲傷損	-11.6731
㵼其	-11.6731
以此為	-11.6732
㸃服	-11.6732
咬人	-11.6732
龍膽湯	-11.6733
一指	-11.6733
噫氣	-11.6733
服一錢匕	-11.6734
稍増	-11.6734
銀器中	-11.6735
則脾	-11.6736
火熾盛	-11.6737
加細辛	-11.6737
直候	-11.6737
泣出	-11.6739
成癰	-11.6741
所由	-11.6741
被火	-11.6742
也陽明	-11.6743
也問曰	-11.6743
而知之	-11.6745
凉膈	-11.6745
各一両	-11.6745
或以為	-11.6745
聲如	-11.6745
三個	-11.6746
作粉	-11.6746
湯調下二錢	-11.6746
汁煮	-11.6747
未差	-11.675
枸把	-11.6754
少衝	-11.6754
生麥門冬	-11.6756
乾霍亂	-11.6756
塗於	-11.6756
閉藏	-11.6758
卧則	-11.6759
天麻丸	-11.6759
無辜疳	-11.676
喜熱	-11.6763
陶隱居	-11.6763
邪自	-11.6764
調胃承氣	-11.6764
仍用前	-11.6765
蛻	-11.6765
欵	-11.6766
半日許	-11.6766
而下之	-11.6768
治疔瘡	-11.6768
治頭痛	-11.6768
治乳癰	-11.6769
躑躅	-11.6769
刺破	-11.6769
磨化	-11.677
諧	-11.677
作勞	-11.6771
右十五味	-11.6771
脉小	-11.6771
浆	-11.6772
牡荆	-11.6773
葵花	-11.6773
熛	-11.6774
利後	-11.6776
分娩	-11.6776
方寸七	-11.6777
治血痢	-11.6777
巴荳	-11.6777
涙	-11.6777
鰕	-11.6777
俛	-11.6778
連服	-11.6779
攅	-11.6779
話	-11.6779
附録	-11.6779
譩譆	-11.678
治一切惡瘡	-11.678
汗止	-11.678
留七呼灸三壯	-11.6781
之竅	-11.6782
製各	-11.6782
神農本經	-11.6782
外出	-11.6784
犢鼻	-11.6785
同煎至	-11.6785
既有	-11.6786
乾木𤓰	-11.6786
▁集簡方	-11.6786
每服五錢水二盞	-11.6787
也程應旄曰	-11.6787
四肢拘攣	-11.6787
之脉也	-11.6788
自己	-11.6789
堅急	-11.679
乾蠍	-11.679
此本	-11.679
右為末每服半錢	-11.6791
生嶺南	-11.6792
鬼擊	-11.6793
服方寸匕日三服	-11.6794
二劑而	-11.6795
食進	-11.6796
紅赤	-11.6797
代茶	-11.6801
齒牙	-11.6802
不避	-11.6803
居中	-11.6804
白蒺䔧	-11.6805
者也故	-11.6805
李杲	-11.6806
酥蜜	-11.6806
失時	-11.6807
麻桂	-11.6808
黄礬	-11.681
一顆	-11.681
治肝腎	-11.681
補脾氣	-11.6811
翅足	-11.6811
歸术	-11.6811
白檀香	-11.6813
寒熱頭痛	-11.6814
千餘	-11.6815
滴入	-11.6815
再進	-11.6816
搦	-11.6816
入油	-11.6817
年久	-11.6817
取瘥	-11.6817
木論	-11.6818
理脾	-11.6819
隔紙炒	-11.682
臍帶	-11.6821
熱燥	-11.6822
川谷及	-11.6823
隂乾為末	-11.6823
追毒	-11.6823
令患人	-11.6823
又謂之	-11.6823
之歳	-11.6824
所過	-11.6824
也曰	-11.6825
燥金	-11.6826
自汗盗汗	-11.6826
在表也	-11.6828
愈盛	-11.6829
中衝	-11.6829
未通	-11.683
外廉	-11.683
是則	-11.6834
味甘無毒主	-11.6834
窒塞	-11.6835
沖	-11.6836
瘧病	-11.6836
頭目眩	-11.6836
葉圓	-11.6839
沐頭	-11.6839
胸痞	-11.684
薇	-11.6841
百一選方	-11.6841
哲	-11.6841
圖經云	-11.6841
臊	-11.6846
橫	-11.6846
此肝脾	-11.6846
鼽	-11.6846
皆治之	-11.6848
余謂此	-11.6848
恨	-11.6849
窟	-11.685
􁨛	-11.685
協熱	-11.685
各二分	-11.6852
丸如豌豆大	-11.6852
將成	-11.6853
峯	-11.6853
㽔仁	-11.6853
嵩	-11.6853
蹇	-11.6855
鹽炒	-11.6855
嗆	-11.6855
披	-11.6855
投酒中	-11.6856
餐	-11.6856
孟詵	-11.6857
脂膏	-11.6858
温膽湯	-11.6859
徃來寒熱	-11.6859
其所因	-11.6859
穀精草	-11.686
一嵗兒	-11.6862
一身之	-11.6862
丹参	-11.6863
多死	-11.6864
中土	-11.6864
養神	-11.6864
多渴	-11.6865
酒浸炙	-11.6867
取二升去滓	-11.6867
和丸如梧桐子大每服	-11.6868
當隨	-11.6872
者為實	-11.6872
痩弱	-11.6873
秃瘡	-11.6874
受胎	-11.6876
蛇傷	-11.6877
水溝	-11.6877
淺者	-11.6878
常法	-11.688
汗出多	-11.6882
咽嗌	-11.6882
穀道	-11.6882
禀受	-11.6884
用二陳	-11.6888
遍去滑	-11.6888
陽池	-11.6888
何經	-11.6889
右四味㕮咀	-11.6889
産乳	-11.689
是穴	-11.689
南陽	-11.6891
神騐	-11.6892
夢中	-11.6895
脾積	-11.6896
湧出	-11.6898
通聖	-11.6899
入巴豆	-11.69
經驗	-11.69
惡也	-11.6901
煆過	-11.6902
不療	-11.6903
臨月	-11.6904
置於	-11.6904
熱勢	-11.6904
二七壯	-11.6905
其苗	-11.6908
水痢	-11.6908
何如曰	-11.6909
繆	-11.691
如鼓	-11.6912
配合	-11.6913
一百日	-11.6914
▁聖惠	-11.6915
醋調塗	-11.6915
睡覺	-11.6916
倉公	-11.6916
勞力	-11.6917
外踝上	-11.6918
但覺	-11.692
最要	-11.692
嫁	-11.692
氣虛弱	-11.692
亡隂	-11.6924
歸腎	-11.6924
足腫	-11.6924
箕	-11.6925
浸蒸餅	-11.6926
金液丹	-11.6927
必得	-11.6927
相乗	-11.6927
煮取二升半	-11.6927
芡實	-11.6927
痛風	-11.6928
用異功散加	-11.6929
兌	-11.6929
也或曰	-11.693
視物不明	-11.693
知是	-11.693
交通	-11.693
揾	-11.693
先人云	-11.693
蕪	-11.6931
奪之	-11.6931
分肉之間	-11.6931
有孔	-11.6932
氣血虛	-11.6932
水一斗二升	-11.6933
憔悴	-11.6934
腹滿痛	-11.6935
降真香	-11.6935
鴻	-11.6935
䜴汁	-11.6938
之道路	-11.6938
痰涎壅塞	-11.6939
貍	-11.6939
鳬	-11.6939
在半表半裏	-11.6939
産後血暈	-11.694
未瘥	-11.694
脊中	-11.694
聖人之	-11.694
陷谷	-11.694
治消渴	-11.694
蕘花	-11.6942
甘松香	-11.6943
天之氣	-11.6943
食氣	-11.6944
稍加至	-11.6944
者不用	-11.6945
虎掌	-11.6946
乾即易	-11.6947
山山谷	-11.6948
多言	-11.6949
換之	-11.695
每服一二錢	-11.695
升麻甘草	-11.695
膀胱氣	-11.6951
實熱也	-11.6951
病在上	-11.6951
論曰凡	-11.6952
例藥也	-11.6952
明下云	-11.6953
蛔蟲	-11.6953
沫出	-11.6954
蛇咬	-11.6958
塞耳中	-11.6959
隂疝	-11.696
右治下篩	-11.696
乆冷	-11.6962
右八味㕮咀	-11.6962
涎盛	-11.6962
野雞	-11.6963
木香檳榔	-11.6964
湯洗七遍	-11.6964
頭末	-11.6965
攪令匀	-11.6967
厚腸胃	-11.6969
濃煮	-11.6969
人乳汁	-11.697
何物	-11.697
陽勝	-11.6971
咽之	-11.6972
湯煮	-11.6973
竹茹湯	-11.6974
𤣥胡	-11.6974
細辛甘草	-11.6975
凋	-11.6976
輕身延年	-11.6976
成漿	-11.6978
便服	-11.6979
淡竹瀝	-11.698
而愈一痘	-11.698
要知	-11.698
周流	-11.698
和醋	-11.6981
數行	-11.6981
在臍下	-11.6982
生肌肉	-11.6985
塗傅	-11.6986
蝮蛇	-11.6988
平氣	-11.6988
益陽	-11.699
多淚	-11.6991
偏痛	-11.6991
理中湯加	-11.6992
乆服輕身	-11.6993
則氣血	-11.6998
肝膽經	-11.6999
數寸	-11.6999
亦隨	-11.7
仲景治	-11.7001
花黄	-11.7001
辛寒	-11.7002
白魚	-11.7003
小者如	-11.7004
駝	-11.7005
坑中	-11.7006
狂躁	-11.7006
兩頭尖	-11.7007
每服三十丸空心	-11.7008
潜	-11.7008
不等	-11.7009
爆	-11.7009
鉛白霜	-11.701
如有物	-11.701
温酒或鹽湯下	-11.7011
劉河間	-11.7011
不内外因	-11.7011
闇	-11.7011
久𠻳	-11.7012
▁外臺秘要	-11.7012
嬌	-11.7013
惶	-11.7013
杭	-11.7014
蔣	-11.7014
罯	-11.7015
陽明少陽	-11.7015
糊丸如梧桐子大	-11.7015
顛狂	-11.7016
𬗋	-11.7017
雲母粉	-11.7017
黒花	-11.7017
拽	-11.7018
註曰此	-11.7019
羚羊	-11.7019
剉焙	-11.7019
横生	-11.702
雀屎	-11.7021
血氣不足	-11.7021
直指	-11.7021
危困	-11.7021
蘆笋	-11.7022
脉息	-11.7024
鶴膝風	-11.7024
腰脇	-11.7024
歸經	-11.7024
心煩悶	-11.7025
行水	-11.7027
黒睛	-11.7027
言之則	-11.7031
共研細末	-11.7032
口亁	-11.7032
首烏	-11.7034
棘刺	-11.7035
治小兒驚癎	-11.7036
命名	-11.7037
減食	-11.7038
丸如梧子	-11.7041
緩縱	-11.7042
者則為	-11.7042
産後惡露	-11.7042
白淫	-11.7042
飲食起居	-11.7043
利藥	-11.7043
山林	-11.7044
更佳	-11.7045
腹腫	-11.7045
溶化	-11.7045
巨虚	-11.7045
去熱	-11.7046
而反下之	-11.7048
蟯蟲	-11.7049
俗云	-11.7052
浸焙	-11.7052
油紙	-11.7053
山有	-11.7053
溫中	-11.7055
雄鷄	-11.7055
細辛乾薑	-11.7055
如玉	-11.7056
上搶心	-11.7056
熱甚而	-11.7057
勢甚	-11.7057
面䵟	-11.7058
豆腐	-11.7059
鎮驚	-11.7065
服半錢	-11.7065
篇云	-11.7069
各八分	-11.7069
差又方	-11.7069
自愈矣	-11.7073
者悉	-11.7073
發於外	-11.7074
詢	-11.7074
頭項痛	-11.7075
不紅	-11.7076
治腸風	-11.7079
多涎	-11.708
苽	-11.708
為欲解	-11.7081
胃家	-11.7082
其味甘	-11.7082
治老人	-11.7083
者令人	-11.7083
葷	-11.7086
瘛	-11.7086
契	-11.7087
倍常	-11.7087
苛	-11.7089
批	-11.7089
經驗後方	-11.709
脉必	-11.709
如稀餳	-11.7091
鹽湯洗	-11.7091
為末每服三錢	-11.7092
發熱汗出	-11.7092
熱甚者	-11.7093
嗜慾	-11.7094
方見二十	-11.7094
嘔逆不下食	-11.7096
片芩	-11.7096
市人	-11.7097
眠睡	-11.7097
相乘	-11.7097
昏花	-11.7098
為末毎	-11.7098
靈樞經曰	-11.7099
丸治産後	-11.71
羔	-11.7101
月餘而愈	-11.7101
入人	-11.7102
柹	-11.7102
驚疳	-11.7103
亦謂之	-11.7103
破傷	-11.7105
石燕	-11.7105
温胃飲	-11.7106
不得宣通	-11.7106
▁外臺	-11.7107
更宜	-11.7107
解顱	-11.7112
黑參	-11.7112
入麝	-11.7113
如指大	-11.7115
四十日	-11.7119
宜發汗	-11.7119
葛粉	-11.7121
取五升	-11.7122
五積	-11.7122
水浸蒸餅	-11.7122
麻疹	-11.7122
寸口衇	-11.7124
環跳	-11.7126
丸如梧桐子	-11.7129
人參黄芩	-11.7129
殺鬼	-11.7131
萆麻	-11.7131
當日	-11.7132
也名曰	-11.7133
服一方	-11.7137
疼痛或	-11.7138
研膏	-11.7138
血氣虚	-11.7139
久虚	-11.7139
消痩	-11.714
為末水調	-11.7141
人神	-11.7142
減去	-11.7143
去粗皮生	-11.7146
在上焦	-11.7147
其力	-11.7148
者可用	-11.7148
風熱上攻	-11.7148
灰火	-11.7148
當臍	-11.7148
黄耆散	-11.7149
身涼	-11.715
二匙	-11.7152
未成者	-11.7153
胎前産後	-11.7153
隂冷	-11.7154
入膩粉	-11.7154
脾胃氣	-11.716
揩之	-11.7163
一家	-11.7164
大便閉	-11.7166
甌	-11.7167
迨	-11.7168
浸漬	-11.7168
腰脊强	-11.7168
含化嚥津	-11.7169
撫芎	-11.7169
第十一	-11.717
御米殻	-11.7171
即前	-11.7171
味苦寒無毒主	-11.7172
但欲寐	-11.7172
昨	-11.7173
胸脇痛	-11.7174
乾即易之	-11.7174
欲解也	-11.7174
大便燥結	-11.7174
青州	-11.7175
周禮	-11.7175
肌痩	-11.7176
七嵗	-11.7177
人食之	-11.7177
十四箇	-11.7177
桃李雀肉	-11.7178
杓	-11.7178
于下	-11.7179
茶調散	-11.7179
五苓散主之	-11.718
𤓰蔞仁	-11.7181
背膊	-11.7181
可除	-11.7181
鍼五分	-11.7182
童尿	-11.7183
時須	-11.7184
膝上	-11.7184
多病	-11.7184
相染	-11.7184
海藥云	-11.7185
竹瀝湯	-11.7186
陽氣虚寒	-11.7186
燥渇	-11.7186
手足搐搦	-11.7188
真珠末	-11.7188
氣悶	-11.7189
在上者	-11.7192
赤芍藥甘草	-11.7193
冷藥	-11.7194
行履	-11.7196
外亷	-11.7196
生肌散	-11.7197
鷄子清	-11.7198
用清熱	-11.7199
慈石	-11.72
出黄水	-11.7202
蜜丸桐子大	-11.7202
先發	-11.7203
嚥汁	-11.7203
加至四十丸	-11.7204
眩冒	-11.7204
人參白虎湯	-11.7204
病形	-11.7204
治肺臟	-11.7205
及傷寒	-11.7206
常須	-11.7206
温水送下	-11.7206
取一斗	-11.7206
獨活防風	-11.7207
去苗葉	-11.721
所著	-11.721
為散以	-11.7212
何不	-11.7213
金金	-11.7216
中風傷寒	-11.7217
語聲不出	-11.7217
味辛甘	-11.7219
服補藥	-11.7219
則胃氣	-11.722
十五丸至二十丸	-11.722
鬚髪	-11.7222
本神	-11.7222
瘥止	-11.7223
水楊	-11.7223
㦸	-11.7224
躁擾	-11.7225
葛花	-11.7229
則愈矣	-11.7229
筋力	-11.7229
初熱	-11.7231
内闗	-11.7232
陳無擇	-11.7234
而痊一婦人	-11.7234
蟲痛	-11.7234
同功	-11.7235
安中	-11.7237
陰痿	-11.7237
緩中	-11.7238
産前産後	-11.7239
刮去皮	-11.7239
磁器中	-11.724
厥隂經	-11.7242
皆效	-11.7244
少隂經	-11.7245
研汁	-11.7246
如傷寒	-11.7246
細辛桂心	-11.7246
鑚	-11.7247
木防己	-11.7248
拍	-11.7248
之常也	-11.7248
以葱	-11.7249
二卷	-11.725
内經所謂	-11.725
因産	-11.7251
内下部中	-11.7251
殭	-11.7253
小腸膀胱	-11.7253
困篤	-11.7253
濫	-11.7254
下乳	-11.7254
陷胸	-11.7254
樸	-11.7255
秉	-11.7255
炳	-11.7255
旋入	-11.7255
不可多	-11.7256
遂令	-11.7256
成勞	-11.7257
轉屬陽明	-11.7257
厚衣	-11.7257
獨聖散	-11.7257
煎三沸	-11.7258
竹葉二七片	-11.7259
治風癎	-11.726
樟腦	-11.726
審察	-11.726
余以	-11.7261
土土	-11.7262
年三十餘	-11.7262
之例	-11.7262
餹	-11.7263
狐疝	-11.7264
治産後血	-11.7264
粗皮	-11.7265
必作	-11.7266
浸酒服	-11.7266
木香沉香	-11.7269
不能為害	-11.7269
三大	-11.7269
不能屈伸	-11.7269
五十日	-11.727
地黄煎	-11.7271
心系	-11.7272
萬金	-11.7272
薑汁浸	-11.7274
助胃	-11.7274
仍須	-11.7275
以乳汁	-11.7275
暴寒	-11.7276
恚	-11.7276
去桂加	-11.7276
百七十	-11.7277
改用	-11.7278
濁隂	-11.7278
當歸白芍藥	-11.7279
惡水	-11.7281
膽星	-11.7282
元氣虚弱	-11.7282
何故	-11.7282
頑麻	-11.7283
惡疾	-11.7283
三葉	-11.7285
欲令	-11.7286
煑取三升去滓	-11.7287
外搗羅為末	-11.7287
自通	-11.7288
不逺	-11.7289
致死	-11.729
成矣	-11.729
桃皮	-11.729
温分三服	-11.7291
天蓼	-11.7292
風痛	-11.7292
於寸口	-11.7293
存之	-11.7293
大槩	-11.7295
使然也	-11.7296
服十丸	-11.7297
衇大	-11.7298
珍曰	-11.7298
搗絞取汁	-11.7298
恐是	-11.7299
難消	-11.7299
湯嚼下	-11.73
或痛或	-11.7301
此說	-11.7301
右尺	-11.7302
動搖	-11.7303
療病	-11.7304
曰夫	-11.7304
並可	-11.7305
蜜和丸如梧子	-11.7306
地黄膏	-11.7306
隂脈	-11.7309
加黄耆	-11.7309
太守	-11.7309
内虛	-11.731
矣但	-11.7311
獨盛	-11.7311
如牛	-11.7313
喜笑	-11.7314
頭頂	-11.7314
時候	-11.7314
於患處	-11.7317
杲曰	-11.7318
指之端	-11.7319
温服無時	-11.7321
同煎至七分去滓	-11.7323
解諸毒	-11.7324
右為細末毎服一錢	-11.7324
孔子	-11.7325
大青膏	-11.7326
壹錢	-11.7326
丸如櫻桃大	-11.7326
枕骨	-11.7327
移時	-11.7328
恩	-11.7329
調理而安	-11.7329
酒浸三日	-11.733
至百丸	-11.733
岳	-11.7332
小青龍	-11.7332
而平	-11.7332
梅花	-11.7333
浣	-11.7333
四肢冷	-11.7333
詣	-11.7334
豐隆	-11.7334
洲	-11.7334
講	-11.7335
籍	-11.7335
米飲調服	-11.7335
隋	-11.7335
頴	-11.7336
經騐	-11.7336
腹鳴	-11.7336
萵苣	-11.7336
跡	-11.7336
番	-11.7336
右為末煉蜜和丸如梧桐子大	-11.7336
危篤	-11.7338
榖疸	-11.7338
敷瘡上	-11.7339
麋角	-11.7339
淫於内	-11.7339
諸隂	-11.734
蒡	-11.734
疔毒	-11.7341
虵	-11.7343
柚	-11.7344
墮落	-11.7344
失氣	-11.7345
酌量	-11.7345
元臟	-11.7346
焼灰	-11.7346
勢必	-11.7349
繆刺	-11.735
右㕮咀如麻豆大	-11.735
宜四逆湯	-11.7351
醋拌	-11.7352
調下半錢	-11.7352
毒風	-11.7353
令净	-11.7353
香氣	-11.7355
升舉	-11.7356
同研細	-11.7357
安卧	-11.7357
增寒	-11.7358
當知	-11.7359
湯火瘡	-11.7359
湯洗去	-11.736
去惡血	-11.7362
右為末水	-11.7363
煑食之	-11.7363
香墨	-11.7364
皮骨炙	-11.7364
猶在	-11.7364
不和則	-11.7366
瘖不能言	-11.7367
和皮	-11.7367
糊和	-11.7368
與前藥	-11.7368
不拘時候服	-11.7369
格陽	-11.7369
苦能	-11.7369
頂陷	-11.737
治心腹	-11.7372
褁煨	-11.7372
肥氣	-11.7374
强人	-11.7374
其應	-11.7375
如菉豆大	-11.7375
屋上	-11.7375
深師療	-11.7376
養老	-11.7378
濈然汗出	-11.7378
外貼	-11.7379
熬令黄	-11.738
治肺痿	-11.7381
等穴	-11.7381
表氣	-11.7381
去刺	-11.7382
二歳	-11.7382
太陽之邪	-11.7382
牙車	-11.7385
炒鹽	-11.7386
一方不用	-11.7387
寒痛	-11.7389
當歸地黄	-11.7389
右為細末醋糊	-11.7389
五苓散加	-11.739
三部脉	-11.7393
膏塗	-11.7396
日三夜二	-11.7396
爲隂	-11.7399
之禍	-11.7401
在乎	-11.7402
去苗土	-11.7402
何哉	-11.7403
自平	-11.7404
咀	-11.7405
薑一片	-11.7406
不得安	-11.7406
不宜服	-11.7406
精液	-11.7406
通血脉	-11.7407
渇引飲	-11.7407
立夏	-11.7407
有理	-11.7407
帝曰願聞	-11.7409
搭	-11.7409
肺主皮毛	-11.741
痛極	-11.7411
弦緊	-11.7411
管吹	-11.7411
救人	-11.7411
骭	-11.7412
大黄末	-11.7412
炙微赤剉	-11.7413
月採	-11.7413
淖	-11.7414
安五臟	-11.7414
拈	-11.7415
膲	-11.7415
神水	-11.7416
鄙	-11.7416
毁	-11.7416
四苓散	-11.7417
瀉黄散	-11.7417
邪在裏	-11.7417
吁	-11.7417
蛟龍	-11.7418
黅	-11.7418
不得伸	-11.7419
者冝	-11.7419
敏	-11.7419
右以水	-11.7419
墟	-11.7421
贊	-11.7421
上視	-11.7423
蝦䗫	-11.7423
蜚	-11.7426
耳上	-11.7426
薑汁製	-11.7427
蒲黃	-11.7428
上黨	-11.7428
毎服三	-11.7429
姓名	-11.7429
背瘡	-11.743
强者	-11.743
體虛	-11.743
中蠱	-11.743
入喉	-11.7431
苦楝根	-11.7431
得通	-11.7431
七味白术散	-11.7432
至明	-11.7434
二神丸	-11.7435
陰邪	-11.7435
煎七分温服	-11.7436
而不痛	-11.7437
椎下兩傍	-11.7437
齒齦	-11.7438
竅隂	-11.7439
隂道	-11.7442
數而無力	-11.7443
不幸	-11.7443
傳為	-11.7444
丸梧桐子大每服	-11.7446
右為散每服三錢水一中盞	-11.7446
貼藥	-11.7447
水虧	-11.7447
入薑汁	-11.7448
根脚	-11.7448
十五枚	-11.7448
化毒湯	-11.7448
㣲炒各	-11.7449
枯竭	-11.745
多寡	-11.7453
和傅	-11.7453
炙令香熟	-11.7456
去半夏加	-11.7458
益智子	-11.7459
醫作	-11.7461
毒痢	-11.7461
相次	-11.7462
平生	-11.7463
煮爛	-11.7463
忌桃李雀肉	-11.7463
不耐	-11.7463
蛇蟲	-11.7464
食熱物	-11.7464
燥糞	-11.7466
風濕相搏	-11.7466
赤苓	-11.7467
炙㣲赤剉	-11.747
已去	-11.7475
浸去皮	-11.7476
如左	-11.7478
冷風	-11.7479
治諸瘡	-11.7479
兩膝	-11.7481
本非	-11.7481
脾受	-11.7481
中庭	-11.7483
堅積	-11.7483
是方	-11.7485
防風川芎	-11.7485
苦酒和	-11.7487
加杏仁	-11.7487
見効	-11.7488
嘔沫	-11.7488
疰忤	-11.7488
炙微黄	-11.7489
薑五片棗一枚	-11.749
宜用此	-11.749
温平	-11.7493
項後	-11.7493
絶無	-11.7494
脉氣所發	-11.7494
温氣	-11.7495
者不可下	-11.7495
煎湯調	-11.7495
花椒	-11.7497
銀箔	-11.7497
纍纍	-11.7497
陜	-11.7498
湯浴之	-11.7499
雖無	-11.7499
煮汁服之	-11.75
蕊	-11.7501
鱔	-11.7501
相離	-11.7501
紫霜丸	-11.7502
仙茅	-11.7503
湯方治	-11.7503
痒塌	-11.7504
榔	-11.7504
陜西	-11.7505
脈滑	-11.7505
石楠	-11.7506
槌碎	-11.7507
茯苓陳皮	-11.7507
四十九枚	-11.7508
即今之	-11.7508
胃中寒	-11.751
氣上行	-11.751
櫟	-11.751
控乾	-11.7512
耐老	-11.7514
用托裏散	-11.7515
重湯煮	-11.7515
取差	-11.7515
不得俛仰	-11.7516
益腎	-11.7516
不急治	-11.7517
不行則	-11.7517
張仲景治	-11.7518
水分	-11.7518
心下鞕	-11.7518
背强	-11.7519
瀉利	-11.752
詢之	-11.7521
太陵	-11.7522
紅白	-11.7522
調下一錢	-11.7522
右六味㕮咀	-11.7523
而歿	-11.7523
色淡	-11.7524
其樹	-11.7525
之藥以	-11.7525
脾泄	-11.7526
短而	-11.7527
枯涸	-11.7527
胞門	-11.7527
别名	-11.7528
作寒熱	-11.7528
氣候	-11.7529
煮取汁	-11.7529
旱蓮	-11.753
冬温	-11.7531
甚者不過	-11.7533
蛇黄	-11.7533
其來	-11.7534
相似但	-11.7535
承筋	-11.7535
冷勞	-11.7537
降也	-11.7537
也以其	-11.7537
齲	-11.7537
以糯米	-11.7538
十圓	-11.7538
人參桂心	-11.7543
一身盡痛	-11.7544
漸減	-11.7544
勝金方	-11.7544
宣連	-11.7546
子母俱	-11.7547
至四五日	-11.7548
足痿	-11.755
背脊	-11.755
晝則	-11.755
少隂君火	-11.755
内作	-11.7551
兼補	-11.7551
心藏	-11.7551
右㕮咀每	-11.7551
金絲	-11.7552
杜若	-11.7554
少壯	-11.7555
自潰	-11.7555
髪落	-11.7556
以水煮	-11.7557
解毒丸	-11.756
異於	-11.7565
隂濕	-11.7566
故仲景	-11.7566
不能攝血	-11.7566
水一小盞入	-11.7567
挺出	-11.7568
薑棗水煎服	-11.7568
瓦器	-11.7569
右細切	-11.7569
寸脈	-11.7571
變易	-11.7572
重陽	-11.7572
辛涼	-11.7573
所養	-11.7574
加至十丸	-11.7575
煑汁服	-11.7575
聲重	-11.7576
之診	-11.7576
骨痺	-11.7579
陽氣盛	-11.758
圏	-11.758
且如	-11.7581
參蓍	-11.7582
健脾胃	-11.7582
藥物	-11.7583
之属	-11.7583
車螯	-11.7583
亦死	-11.7583
悖	-11.7583
潘	-11.7584
波斯國	-11.7584
唇口乾燥	-11.7585
原病式	-11.7585
榻	-11.7586
作㵼	-11.7587
名方	-11.7587
橙	-11.7589
黄藥子	-11.7589
白芷甘草	-11.759
覔	-11.759
即住	-11.7591
鈎吻	-11.7592
白荳蔲	-11.7593
氣味甘平無毒主治	-11.7594
風市	-11.7594
不入藥用	-11.7595
隨所	-11.7595
覆盆	-11.7595
大意	-11.7596
薛氏	-11.76
二兩剉	-11.76
加术	-11.76
當歸酒下	-11.7601
痃	-11.7601
每服三四十丸	-11.7601
壁土	-11.7602
楮葉	-11.7602
脉大而	-11.7602
加陳皮	-11.7602
鬼箭	-11.7602
湯治肺	-11.7605
粳米飯	-11.7607
皂刺	-11.7608
不差者	-11.7609
眉毛	-11.7609
搗細羅為散	-11.761
張曰	-11.7611
酥炙黄	-11.7612
者非也	-11.7612
角吉	-11.7612
治反胃	-11.7612
洗心散	-11.7614
曰我	-11.7614
凡欲	-11.7615
令汗出	-11.7618
膕中	-11.7621
風輪	-11.7624
治積年	-11.7625
脉浮𦂳	-11.7625
左足	-11.7626
岐骨	-11.7626
背惡寒	-11.7627
無表證	-11.7627
諸脉	-11.7628
宜服此藥	-11.7629
詳辨	-11.763
補脾土	-11.763
煉成	-11.763
服二十丸	-11.7633
相擊	-11.7634
衆人	-11.7634
天有	-11.7635
慢脾	-11.7638
大每服一丸	-11.764
在臍	-11.7644
皮膚之間	-11.7644
如其言	-11.7645
受風寒	-11.7646
結腫	-11.7647
和前藥	-11.7647
所觸	-11.7648
取一升去滓	-11.7649
通手	-11.7649
魚腥	-11.765
水一升半	-11.7653
蘘荷	-11.7653
杞	-11.7653
十餘貼	-11.7653
每服半兩	-11.7653
之本也	-11.7655
七片	-11.7657
欲産	-11.7657
冬𤓰子	-11.7658
鷄蘇	-11.7658
蝸	-11.7658
者皆由	-11.7659
萊菔	-11.766
已退	-11.7661
足少隂經	-11.7662
末水服	-11.7663
薑二片	-11.7663
緻	-11.7664
胃氣虚弱	-11.7665
治一婦	-11.7666
少陽病	-11.7666
噐中	-11.7667
玉石	-11.7668
挟	-11.7668
証治	-11.7669
鵶	-11.7669
青州白丸子	-11.767
姪	-11.7671
酒後	-11.7671
鎚	-11.7671
脣口	-11.7672
咽㗋	-11.7672
日漸羸瘦	-11.7672
者肺之	-11.7672
婦人帶下	-11.7673
每旦	-11.7673
茰	-11.7674
用加味	-11.7674
女貞	-11.7675
霹靂	-11.7675
如意	-11.7678
喜其	-11.7678
空心温酒調下	-11.768
心神煩躁	-11.768
之最	-11.7681
冷濕	-11.7682
施化	-11.7684
死脉	-11.7684
致傷	-11.7684
余嘗	-11.7684
五十圓	-11.7687
在肌肉	-11.7687
漸覺	-11.7687
論曰夫	-11.7687
溫熱	-11.7688
用四君子湯	-11.7688
出血不止	-11.7689
汁塗之	-11.7689
苦楝	-11.7689
導赤	-11.769
取効	-11.769
更生	-11.7691
吐不止	-11.7692
靈樞經	-11.7693
白茯	-11.7693
加升麻	-11.7694
薫之	-11.7694
厥頭痛	-11.7696
蘭草	-11.7697
黑睛	-11.7697
脾胃虧損	-11.7698
數欠	-11.7701
馬肉	-11.7702
乘於	-11.7702
文理	-11.7704
者氣之	-11.7704
者尤	-11.7705
為細末煉蜜	-11.7706
水化下	-11.7706
桑根	-11.7706
峻利	-11.7707
何謂也	-11.771
頗似	-11.7711
肘後同	-11.7712
如棗	-11.7713
丸如粟米大	-11.7714
赤茯	-11.7714
搗如泥	-11.7714
四年	-11.7717
之會	-11.7719
以此藥	-11.772
掘地	-11.772
半身	-11.7721
血氣俱	-11.7721
平塌	-11.7723
入藏	-11.7723
治腸風下血	-11.7724
交㑹	-11.7724
襯	-11.7725
通九竅	-11.7726
春月	-11.7728
煎候	-11.7728
灌入	-11.7728
用小柴胡湯	-11.7728
和搗	-11.7729
淡白	-11.7729
每於食前	-11.773
蒺䔧	-11.773
乗脾	-11.7731
大青龍	-11.7733
可丸即	-11.7734
温壯	-11.7734
尤效	-11.7735
乾涸	-11.7736
用新汲水	-11.7736
煮服之	-11.7737
志意	-11.7738
右㕮咀毎服	-11.7739
猶如	-11.7741
冷疼	-11.7744
此篇	-11.7745
難出	-11.7745
切作片	-11.7745
等毒	-11.7746
舊二	-11.7747
雖未	-11.7748
覺有	-11.7748
予曰此	-11.7748
其蒸在	-11.7748
如梧子大	-11.7749
髭髮	-11.7749
黄昏	-11.7751
嗟	-11.7751
治痔漏	-11.7751
蕉	-11.7751
百四十	-11.7752
上注	-11.7753
分四服日三夜一	-11.7753
括樓	-11.7754
總之	-11.7754
主傷寒	-11.7754
尼	-11.7754
無毒主治	-11.7754
如餳	-11.7755
荻	-11.7755
塘	-11.7755
舶上硫黄	-11.7755
獨活寄生湯	-11.7756
山嵐瘴氣	-11.7756
巡	-11.7757
續名醫類案卷	-11.7757
蚺蛇膽	-11.7758
帯下	-11.7758
朝夕	-11.7759
伊	-11.7761
止洩	-11.7762
夢泄	-11.7762
彚	-11.7762
殷	-11.7762
隂陵泉	-11.7762
炙肉	-11.7763
水一盞生薑三片	-11.7763
右先将	-11.7763
牛黄麝香	-11.7765
汗而解	-11.7766
陰囊	-11.7766
人參乾薑	-11.7767
不住手	-11.7768
粗末	-11.7768
蛇蜕皮	-11.7768
須先	-11.7769
入髮際	-11.7769
癱緩	-11.7769
以炭火	-11.777
三隂交	-11.777
浮𦂳	-11.7771
榮養	-11.7774
髙者	-11.7774
大約	-11.7775
起死	-11.7776
色慾	-11.7778
臂上	-11.7779
東向	-11.778
大便自利	-11.7781
活命飲	-11.7782
勿怪	-11.7782
桂枝湯主之	-11.7782
隂陽交	-11.7784
𢷬羅為末	-11.7785
病退	-11.7786
紫金皮	-11.7786
齲齒	-11.7787
景天	-11.7788
脫落	-11.7788
温酒調下一錢	-11.779
有是證	-11.779
療婦人	-11.7792
鬰結	-11.7792
不可刺	-11.7792
為散每服四錢以水一中盞入生薑半分	-11.7795
四十五	-11.7796
白粉	-11.7796
厥厥	-11.7796
治肝臟	-11.7797
是一物	-11.7798
酒糊	-11.7799
棗二枚擘破	-11.7801
玉女	-11.7801
四證	-11.7801
身痒	-11.7802
膿盡	-11.7803
啼聲	-11.7804
𢷬篩為散	-11.7804
量其	-11.7805
上廉	-11.7805
繫定	-11.7807
炒令黄色	-11.7808
齒縫	-11.7808
下體	-11.7809
而不用	-11.781
空虛	-11.7811
屬木	-11.7811
燒灰細研	-11.7812
丸如梧桐子大每服五十丸	-11.7813
足翅	-11.7815
先須	-11.7816
茅山	-11.7817
向東	-11.7818
而刺之	-11.7821
黄帝問	-11.7821
甘草附子湯	-11.7821
泄其	-11.7822
者不可與	-11.7822
青赤	-11.7823
大驗	-11.7823
面色黄	-11.7825
一孔	-11.7826
腦空	-11.7827
溫酒調下	-11.7827
邪實	-11.7827
軟帛	-11.7829
水一小盞煎至五分去滓	-11.783
扎	-11.7831
取三升	-11.7835
久嗽	-11.7836
挫	-11.7836
搗絞汁	-11.7837
目青	-11.7837
鹹味	-11.7837
足經	-11.7838
㾦㿔	-11.7838
加桃仁	-11.784
白藥	-11.7841
在膈上	-11.7841
玳瑁	-11.7842
烏附	-11.7842
囚	-11.7842
以水二斗	-11.7843
拄	-11.7843
澈	-11.7844
窩	-11.7844
可免	-11.7844
愆	-11.7844
夜發	-11.7844
寒毒	-11.7844
􁋜	-11.7844
臟寒	-11.7845
四卷中	-11.7845
聼	-11.7846
奭	-11.7846
而死者	-11.7847
不能卧	-11.7847
日晡益甚	-11.7848
虛腫	-11.7848
兩傍各一寸半	-11.7848
展轉	-11.7849
蘼蕪	-11.7849
理隂煎	-11.7851
糵	-11.7852
明下	-11.7853
貼瘡上	-11.7853
右七味㕮咀	-11.7854
引用生薑水煎服	-11.7856
小便自利者	-11.7856
寒熱往来	-11.7856
聞人	-11.7857
紫葛	-11.7857
以意消息	-11.7857
面垢	-11.7858
風濕相摶	-11.7858
讀書	-11.7858
煑取三升	-11.7858
唇舌	-11.786
煎至一升	-11.7861
細數	-11.7861
氣血凝滯	-11.7861
乃佳	-11.7861
汗出不惡寒	-11.7862
既而	-11.7863
加羌活	-11.7864
生薑三片棗一枚	-11.7866
竹葉七片	-11.7866
吐酸水	-11.7867
桂枝附子湯	-11.7868
根源	-11.7869
痞塊	-11.7869
而不出	-11.7869
下五丸	-11.787
之勿令	-11.7871
溫補	-11.7871
了用	-11.7873
加味逍遙散	-11.7874
五音	-11.7876
當愈	-11.7876
瘡痬	-11.7877
三百六十	-11.7878
向後	-11.7878
足厥隂經	-11.7878
嚴氏	-11.7879
為散每服	-11.7879
千百	-11.7881
能動	-11.7881
痬	-11.7883
遁尸	-11.7883
羊屎	-11.7883
之腑	-11.7883
只取	-11.7884
如飴	-11.7884
一枚去	-11.7886
醋磨	-11.7886
氣虚則	-11.7886
熟時	-11.7887
三倍	-11.7887
壯水	-11.7888
並行	-11.7889
上焦之	-11.7891
含水	-11.7891
清痰	-11.7895
栗子	-11.7896
采之	-11.7896
防風黄芩	-11.7897
色深	-11.7899
焙研	-11.7899
羊膽	-11.7899
甆器	-11.79
唇白	-11.79
心疼	-11.7901
以水七升煮取三升	-11.7903
其証	-11.7903
風毒脚氣	-11.7904
翕	-11.7904
以刀	-11.7905
處即	-11.7906
便作	-11.7907
水吞下	-11.7907
一兩細研	-11.7907
噯	-11.7908
下赤白	-11.791
薑十片	-11.7911
脾俞	-11.7911
不久	-11.7911
語澁	-11.7912
根汁	-11.7912
屬水	-11.7913
忌一切	-11.7913
洗頭	-11.7914
陽明燥金	-11.7915
休息	-11.7917
惡症	-11.7917
經霜	-11.7917
澗	-11.7918
足少隂腎	-11.7918
雞屎白	-11.7918
小便清	-11.7923
巳上	-11.7923
糧	-11.7924
缺盆中	-11.7924
至六七日	-11.7925
燒為末	-11.7925
嚴寒	-11.7925
冶	-11.7925
麥糵	-11.7926
如金色	-11.7926
丁瘡	-11.7927
真藏	-11.7928
乗肺	-11.7928
蜆殻	-11.7929
空心臨卧	-11.7929
自言	-11.7929
面色萎黄	-11.7929
隣	-11.793
空心及晩食前	-11.793
京墨	-11.793
以意加減	-11.793
鴿	-11.793
水停心下	-11.793
社	-11.7931
之理也	-11.7931
枳壳	-11.7931
攣痛	-11.7931
五七次	-11.7932
别研各	-11.7932
傷肉	-11.7932
者必死	-11.7932
􁑭	-11.7932
乃行	-11.7932
㾬瘧	-11.7932
乆不差	-11.7933
丸如鷄頭大	-11.7933
劍	-11.7934
不煩	-11.7934
水一盞半生薑五片	-11.7934
胎死	-11.7934
炎暑	-11.7936
嬰方	-11.7936
善悲	-11.7936
毒箭	-11.7938
不堅	-11.794
其常也	-11.794
定志丸	-11.7941
不得語	-11.7941
相續	-11.7942
痛痺	-11.7942
韭菜	-11.7942
衝脈	-11.7942
發於陽	-11.7944
非所宜	-11.7944
如麻子大	-11.7945
仍作	-11.7946
邪不能	-11.7946
條芩	-11.7946
全安	-11.7949
逆滿	-11.7949
不藏	-11.7949
三兩日	-11.7951
備急方	-11.7951
出㓜㓜	-11.7952
實脾	-11.7953
曾青	-11.7954
丸之類	-11.7954
右件為末	-11.7955
産時	-11.7955
裏和	-11.7956
欲死方	-11.7958
成劑	-11.7958
面熱	-11.7958
短少	-11.7958
都研令勻	-11.7958
瘡孔	-11.7959
脈浮數	-11.7961
之化也	-11.7961
治不效	-11.7961
不驗	-11.7962
乳癖	-11.7964
漸長	-11.7965
為標	-11.7965
相須	-11.7967
竹管	-11.797
一宿取出	-11.797
右關	-11.7972
此藥能	-11.7972
大眥	-11.7972
不可便	-11.7974
醋物	-11.7975
盛暑	-11.7978
閩	-11.7979
正陽	-11.7979
麥冬五味	-11.798
平㣲	-11.798
炒去汗	-11.7981
微毒	-11.7982
癥結	-11.7982
如瘧狀	-11.7982
蛇退	-11.7982
脊痛	-11.7984
銀器	-11.7984
大過	-11.7984
三上三下	-11.7985
泥固	-11.7987
療傷寒	-11.7987
咳唾	-11.7988
靣黄	-11.7989
對待	-11.7989
既濟	-11.799
煉蜜為丸如梧桐子大	-11.799
結毒	-11.7991
也今人	-11.7991
良驗	-11.7993
在陽	-11.7999
以水一中盞	-11.7999
銀石器内	-11.8
本節	-11.8
為末毎服	-11.8003
九蟲	-11.8004
行遲	-11.8006
腸出	-11.8006
葉青	-11.8007
四両	-11.8007
燠	-11.8007
四君加	-11.8008
無數	-11.8009
煎五七沸	-11.801
不足故	-11.801
疴	-11.8011
土瓜根	-11.8011
二錢五分	-11.8012
喜食	-11.8012
草一名	-11.8013
函	-11.8014
閃肭	-11.8015
馮	-11.8015
隴西	-11.8016
給	-11.8016
俯仰	-11.8016
趣	-11.8016
䧏	-11.8016
末傅	-11.8017
復發汗	-11.8017
毫毛	-11.8017
抓破	-11.8018
逺年近日	-11.8018
諦	-11.8018
頭目昏痛	-11.8018
溫病	-11.8018
泥封	-11.8019
不可更	-11.8019
食前温酒下	-11.8019
寒熱邪氣	-11.802
棗許	-11.802
拱	-11.802
偏正頭疼	-11.802
直入	-11.8021
腠理閉	-11.8021
蜆	-11.8021
年髙	-11.8022
醒脾	-11.8023
手少陽三焦	-11.8023
滋腎	-11.8023
水晶	-11.8026
面浮腫	-11.8026
南山	-11.8026
右為末毎服	-11.8027
之脉起於	-11.8027
咽喉中	-11.8028
肝脈	-11.8031
養隂	-11.8032
清肺飲	-11.8032
裂剉	-11.8033
治肺癰	-11.8033
人之所	-11.8034
麵糊為丸如梧桐子大	-11.8034
流散	-11.8034
三月四月	-11.8035
竊謂	-11.8036
治産後中風	-11.8036
導氣	-11.8037
天池	-11.8038
右為散每服四錢	-11.8039
甘草乾薑湯	-11.804
氣逆上	-11.804
煑食	-11.8042
煎三上三下	-11.8042
審之	-11.8045
指迷	-11.8045
等瘡	-11.8047
夫婦	-11.8048
囊盛	-11.8049
白礬灰	-11.805
腫疼痛	-11.805
桂枝甘草	-11.8051
一枝	-11.8051
霜雪	-11.8053
一旦	-11.8053
于腎	-11.8053
欲走	-11.8054
忌油膩	-11.8054
陳倉米	-11.8054
清暑益氣湯	-11.8055
日晩	-11.8057
入山	-11.8058
越婢湯	-11.8058
枳殻散	-11.8058
暖水	-11.8059
正與	-11.8059
茵	-11.8064
節間	-11.8065
有三種	-11.8066
丸如黄米大	-11.8066
水一斗煮	-11.8067
街	-11.8067
所起	-11.8067
赤澁	-11.8068
良愈	-11.8069
通神明	-11.8069
益氣養榮湯	-11.807
陷伏	-11.8071
天道	-11.8075
宿冷	-11.8077
腰背强	-11.8077
酒浸去皮	-11.808
俗方	-11.8081
渴引飲	-11.8083
赤斑	-11.8083
治腎臟	-11.8085
皂子	-11.8085
燒灰酒服	-11.8086
變黒	-11.8087
新羅	-11.8087
隂交	-11.8088
一句	-11.8089
主寒熱	-11.809
汗出惡風	-11.809
入芒硝	-11.8091
三十二	-11.8094
刀圭	-11.8095
嘆	-11.8096
寅申	-11.8096
磨服	-11.8097
百節疼痛	-11.8098
陳皮茯苓	-11.8098
帶脉	-11.8098
郭璞	-11.8098
升提	-11.8098
從陽	-11.8099
常度	-11.8099
侍郎	-11.8099
没石子	-11.8099
㗜鼻	-11.8099
辦	-11.81
子似	-11.8101
從足	-11.8102
五志	-11.8102
天靈葢	-11.8103
鯪鯉甲	-11.8103
潑	-11.8103
菱	-11.8104
罔	-11.8104
三四十丸	-11.8104
紫背	-11.8105
譚	-11.8105
馬兜鈴	-11.8105
蛛	-11.8105
鶴蝨	-11.8106
粽	-11.8106
蔓荆	-11.8106
諸症頓退	-11.8107
瓢	-11.8107
熟水調下	-11.8107
厲兊	-11.8107
蛇虺	-11.8109
癍疹	-11.8109
洗切	-11.8109
如黍米大	-11.8109
清心蓮子飲	-11.811
皮膚瘙痒	-11.8111
墜墮	-11.8112
人参白术	-11.8113
多成	-11.8113
彈丸	-11.8113
隂精	-11.8114
蓍	-11.8115
止消渴	-11.8116
稠密	-11.8117
用四味肥兒丸	-11.8118
平素	-11.812
新汲	-11.812
[...]
