<unk>	0
<s>	0
</s>	0
。	-2.02008
)	-3.59851
(	-3.59943
也	-4.68408
者	-4.89718
引	-4.98298
二合	-5.03517
故	-5.32613
以	-5.35787
之	-5.36029
為	-5.49886
而	-5.54642
即	-5.60003
一	-5.61918
二	-5.62879
此	-5.71061
是	-5.74196
於	-5.82958
三	-5.88646
中	-5.90126
若	-5.90936
則	-5.90978
有	-5.92
如	-5.96605
心	-5.97901
等	-6.00023
上	-6.01909
。】「	-6.06563
其	-6.0834
。」【	-6.11382
不	-6.14359
無	-6.14818
法	-6.1857
▁	-6.26836
謂	-6.28129
相	-6.28434
名	-6.28781
見	-6.30083
生	-6.32834
及	-6.36872
一切	-6.37995
時	-6.38532
四	-6.3886
言	-6.40528
非	-6.43047
阿難	-6.43933
大	-6.45393
得	-6.46636
明	-6.47968
▁*	-6.52085
作	-6.52596
多	-6.54497
自	-6.54529
身	-6.54703
皆	-6.55899
佛	-6.56079
至	-6.56452
,	-6.56883
如來	-6.59022
人	-6.5923
又	-6.59938
彼	-6.604
入	-6.60682
成	-6.62085
下	-6.62088
行	-6.6361
或	-6.63811
說	-6.65719
菩薩	-6.66003
如是	-6.66036
與	-6.6669
云	-6.68759
亦	-6.69126
五	-6.69262
去	-6.69292
所	-6.71348
印	-6.72673
諸	-6.73793
曰	-6.75154
因	-6.78272
義	-6.78398
前	-6.79072
我	-6.79915
處	-6.80297
從	-6.81389
、	-6.81422
當	-6.85538
地	-6.85754
今	-6.86368
用	-6.88223
在	-6.88546
矣	-6.89805
初	-6.90424
耶	-6.90645
觀	-6.91017
空	-6.91059
眾生	-6.9106
阿	-6.91585
然	-6.92538
能	-6.92772
性	-6.93451
六	-6.95613
已	-6.96679
唵	-6.96837
次	-6.97939
出	-6.98039
賀	-6.99449
同	-6.99911
囉	-7.01165
後	-7.01418
令	-7.01714
金剛	-7.02068
由	-7.02545
知	-7.02639
耳	-7.04078
乃	-7.05806
合	-7.0582
應	-7.05989
本	-7.06272
即是	-7.07409
住	-7.08692
經	-7.09147
故云	-7.104
事	-7.11817
現	-7.12282
取	-7.1248
色	-7.12677
智	-7.13106
野	-7.13534
欲	-7.14747
意	-7.15322
。△	-7.1566
離	-7.16481
破	-7.16541
想	-7.18412
既	-7.18883
起	-7.19006
巳	-7.19092
天	-7.20417
世尊	-7.20858
指	-7.20944
七	-7.21108
乃至	-7.21243
分	-7.2164
迦	-7.21887
定	-7.21891
識	-7.22217
常	-7.22635
結	-7.23098
先	-7.235
水	-7.23779
真	-7.23852
十	-7.24604
修	-7.2563
滅	-7.25757
字	-7.26919
嚩	-7.27204
喻	-7.27269
問	-7.27948
正	-7.2799
八	-7.28299
聞	-7.28613
但	-7.28992
清淨	-7.29061
盡	-7.30263
復	-7.30428
汝	-7.30462
成就	-7.31363
真言	-7.31412
依	-7.31717
故曰	-7.31736
體	-7.31791
娑嚩	-7.31989
乎	-7.32184
持	-7.33148
眾	-7.33174
顯	-7.33267
雖	-7.33493
王	-7.33496
理	-7.33868
受	-7.34007
隨	-7.34225
具	-7.344
供養	-7.34569
發	-7.3457
解	-7.34573
根	-7.35406
難	-7.3663
淨	-7.36634
婆	-7.36635
那	-7.36847
妄	-7.37081
所謂	-7.37603
道	-7.37623
俱	-7.38173
他	-7.38996
通	-7.39158
門	-7.39352
內	-7.40601
〕	-7.40961
可	-7.4122
覺	-7.41781
緣	-7.43521
方	-7.43983
】	-7.44184
境	-7.44925
」	-7.457
云何	-7.45836
食	-7.4599
果	-7.45992
來	-7.47328
妙	-7.47524
各	-7.47969
物	-7.50425
聲	-7.50427
摩	-7.5114
句	-7.52114
羅	-7.52391
業	-7.52559
外	-7.52957
求	-7.53472
善	-7.53998
呪	-7.54234
日	-7.55128
證	-7.55791
立	-7.55947
反	-7.56052
帝	-7.5654
執	-7.56721
教	-7.57092
種種	-7.57397
三昧	-7.57558
念	-7.58224
圓	-7.58623
二合引	-7.59053
勝	-7.59357
必	-7.59928
疏	-7.60106
分別	-7.60897
火	-7.60969
眼	-7.61165
尾	-7.61418
頭	-7.61641
別	-7.61652
九	-7.62286
名為	-7.62599
形	-7.62719
未	-7.6302
願	-7.64514
文	-7.64539
位	-7.64825
答	-7.64973
計	-7.65465
利	-7.65627
著	-7.65893
斷	-7.65966
何	-7.66931
諸佛	-7.67348
實	-7.67791
底	-7.6855
塵	-7.68621
異	-7.69253
香	-7.69847
力	-7.70045
真言曰	-7.70379
曩	-7.7074
麼	-7.714
迷	-7.71405
重	-7.72501
界	-7.73232
世間	-7.73606
方便	-7.73617
子	-7.73652
不能	-7.73724
示	-7.74032
安	-7.74188
語	-7.74428
娑	-7.74591
。○	-7.74844
悉	-7.74914
對	-7.74966
光	-7.75156
開	-7.7538
便	-7.75673
觸	-7.76484
捨	-7.76614
將	-7.76755
滿	-7.77341
釋	-7.77511
轉	-7.78355
寶	-7.7841
動	-7.78533
吽	-7.78575
箋云	-7.78802
請	-7.79104
悟	-7.79413
華	-7.80711
除	-7.81224
惡	-7.81475
夜	-7.81499
唯	-7.82389
誦	-7.834
師	-7.83606
約	-7.84233
無量	-7.84438
度	-7.84553
加持	-7.85118
更	-7.8532
吒	-7.8583
哩	-7.86144
主	-7.8618
菩提	-7.86908
深	-7.87119
神	-7.87201
置	-7.87209
風	-7.87454
戒	-7.87978
攝	-7.88102
極	-7.88309
論	-7.88483
魔	-7.88632
無明	-7.88937
樂	-7.8896
是故	-7.89015
左	-7.8962
爾時	-7.89653
因緣	-7.89755
蓋	-7.90147
使	-7.9045
自然	-7.906
稱	-7.91088
苦	-7.91112
世	-7.91295
化	-7.91672
向	-7.91823
餘	-7.9188
法界	-7.91896
慧	-7.93278
所以	-7.93348
虗空	-7.93435
生滅	-7.93774
涅槃	-7.94091
舉	-7.94182
手	-7.94576
不知	-7.94607
數	-7.95251
母	-7.95482
且	-7.96542
須	-7.96627
所有	-7.97492
不得	-7.97538
嚩日囉	-7.97543
摩賀	-7.97637
會	-7.97896
流	-7.98108
疑	-7.98917
兩	-7.9913
屬	-8.00127
小	-8.00299
不可	-8.00346
月	-8.00478
目	-8.00968
信	-8.01296
六根	-8.01369
類	-8.01468
十二	-8.01596
南	-8.01667
斯	-8.02444
過	-8.02824
功德	-8.02933
尊	-8.03589
一切眾生	-8.03815
鬼	-8.04139
儞	-8.04317
世界	-8.04427
藏	-8.04768
拏	-8.04841
訶	-8.05169
像	-8.05369
怛	-8.05433
散	-8.05436
坐	-8.05681
尼	-8.06108
畫	-8.06288
白	-8.06369
猶	-8.06418
還	-8.06496
若有	-8.06772
輪	-8.06893
口	-8.07481
施	-8.08016
山	-8.08445
)。】「	-8.08447
似	-8.08615
止	-8.09098
味	-8.09177
廣	-8.0929
無有	-8.09741
總	-8.10235
光明	-8.10289
遍	-8.10333
解脫	-8.10376
表	-8.10748
護	-8.10856
了	-8.11038
故名	-8.11837
次第	-8.12234
失	-8.12347
一切如來	-8.12523
此云	-8.12622
音	-8.13133
土	-8.13257
具足	-8.13872
煩惱	-8.14003
邪	-8.14429
現前	-8.14734
波	-8.14856
元	-8.15157
自在	-8.15327
聖	-8.15526
僧	-8.15739
花	-8.16005
顛倒	-8.16246
▁二	-8.16302
木	-8.16373
相應	-8.1763
藥	-8.17723
惟	-8.17959
以為	-8.18133
病	-8.18249
一一	-8.1849
行者	-8.18718
諸法	-8.18822
報	-8.18834
縛	-8.18907
歸	-8.19432
國	-8.19472
惑	-8.19758
共	-8.19833
十方	-8.2002
照	-8.21029
密	-8.21988
然後	-8.22242
愛	-8.22277
要	-8.22438
長	-8.22887
竟	-8.22976
思	-8.2305
始	-8.23096
居	-8.23433
兼	-8.237
凡	-8.23787
不動	-8.23938
和	-8.23944
生死	-8.24797
金	-8.24885
。「	-8.24962
曳	-8.24985
微	-8.25037
足	-8.25141
以此	-8.25176
障	-8.25377
變	-8.25726
嚕	-8.25812
伽	-8.25921
和合	-8.26041
莊嚴	-8.26135
全	-8.26207
直	-8.26501
法門	-8.26515
平等	-8.26839
修行	-8.27007
并	-8.27154
娜	-8.27163
皆是	-8.27309
細	-8.27851
乘	-8.27896
徧	-8.28054
命	-8.28184
達	-8.28268
於此	-8.28272
種	-8.28656
舍	-8.28733
順	-8.2875
不同	-8.28967
哉	-8.29354
加	-8.29382
陀	-8.29636
鼻	-8.2998
普	-8.29995
○	-8.30001
弭	-8.30419
▁一	-8.30466
誐	-8.30527
不見	-8.30604
面	-8.31235
獲	-8.31359
復次	-8.31512
之相	-8.3153
伏	-8.31728
末	-8.31854
德	-8.32162
此是	-8.32313
圓通	-8.32485
設	-8.32517
惹	-8.32762
摩訶	-8.3281
路	-8.33173
攞	-8.33455
第一	-8.33825
圓滿	-8.34414
海	-8.34524
女	-8.34605
遂	-8.34714
毘	-8.34991
鉢囉	-8.3531
經云	-8.35531
少	-8.35546
辨	-8.3576
豈	-8.35824
外道	-8.3584
情	-8.36339
夫	-8.36451
精	-8.36719
三摩地	-8.36756
家	-8.36926
見性	-8.37008
氣	-8.37146
之中	-8.37252
十一	-8.37377
沙	-8.37425
略	-8.37922
之心	-8.37994
布	-8.38398
例	-8.38449
壇	-8.38534
蓮華	-8.39181
蘇	-8.3919
終	-8.39192
妄想	-8.39295
真實	-8.3972
虗妄	-8.39907
死	-8.4044
習	-8.40442
葢	-8.40476
十六	-8.40596
此經	-8.40605
趣	-8.40645
當知	-8.40666
息	-8.41903
第二	-8.42033
于	-8.42242
右	-8.42289
燒	-8.42292
等者	-8.42299
之法	-8.4231
近	-8.42355
半	-8.42364
頂	-8.42429
造	-8.42565
劫	-8.42702
衣	-8.42718
龍	-8.42832
猶如	-8.42945
歡喜	-8.43048
陀羅尼	-8.43692
標	-8.43826
身心	-8.43877
被	-8.4389
陰	-8.44018
行人	-8.4409
覩	-8.44139
龍王	-8.44299
切	-8.44583
有情	-8.44813
契	-8.44824
跛	-8.44869
就	-8.44888
莫	-8.45215
鉢	-8.45436
交	-8.45678
爾	-8.45875
怛囉	-8.45912
一心	-8.46176
假	-8.46632
究竟	-8.46726
我今	-8.4676
祕密	-8.47023
宗	-8.47316
。」【【	-8.47429
進	-8.47634
佛言	-8.47649
彌	-8.47662
親	-8.47747
四大	-8.48273
往	-8.48351
之時	-8.48409
真如	-8.48697
之義	-8.48759
。」【(	-8.48827
遠	-8.49231
並	-8.4959
宿	-8.49699
禮	-8.49727
獨	-8.49764
都	-8.4989
根本	-8.50002
量	-8.50169
好	-8.50174
薩	-8.50358
福	-8.50855
致	-8.51282
此中	-8.51609
比	-8.51831
暗	-8.51844
不生	-8.52152
𩕳	-8.52247
提	-8.52371
自性	-8.52585
百	-8.53065
學	-8.53318
高	-8.5371
文殊	-8.53732
無礙	-8.53841
亡	-8.53867
之所	-8.53885
貪	-8.54139
何以故	-8.54175
馱	-8.5465
部	-8.5508
亦名	-8.55128
辯	-8.55149
漸	-8.55155
所說	-8.55189
首	-8.55782
尚	-8.56009
易	-8.56754
如此	-8.57047
虛空	-8.5707
念誦	-8.57203
弟子	-8.57673
雙	-8.57913
復有	-8.58094
是也	-8.58173
墮	-8.58463
里	-8.58551
第三	-8.59041
智慧	-8.59085
溫陵曰	-8.59271
機	-8.59313
灌頂	-8.5984
法身	-8.59926
罪	-8.60129
喜	-8.6022
益	-8.6033
地獄	-8.60641
遮	-8.60961
超	-8.61236
發明	-8.61342
留	-8.61499
況	-8.61537
十三	-8.61574
泥	-8.61619
樹	-8.61632
亦不	-8.61905
而不	-8.62267
行陰	-8.62515
屈	-8.62568
雲	-8.62717
毒	-8.62726
寂	-8.62979
比丘	-8.63199
告	-8.63544
而巳	-8.63857
本尊	-8.63963
大乘	-8.64282
無所	-8.64392
根塵	-8.64506
即得	-8.64545
舌	-8.64703
年	-8.64809
十四	-8.64826
所生	-8.64996
器	-8.65273
脫	-8.65433
燈	-8.65443
竪	-8.65519
不應	-8.65527
如前	-8.65549
決定	-8.65717
說法	-8.65991
境界	-8.66263
諸天	-8.66383
悉皆	-8.66422
吠	-8.67038
三昧耶	-8.67506
常住	-8.67727
十八	-8.67735
諦	-8.67823
悉地	-8.68158
感	-8.68193
亦復如是	-8.6823
缽囉	-8.68373
五陰	-8.6861
譬如	-8.68627
最勝	-8.68641
千	-8.68882
觀音	-8.69357
雜	-8.69448
十五	-8.69564
無相	-8.69591
寧	-8.69781
一句	-8.69892
品	-8.70088
。【	-8.70255
播	-8.70683
殺	-8.70874
而有	-8.70973
虗	-8.71019
含	-8.71178
呬	-8.71346
三界	-8.7149
無邊	-8.71813
灑	-8.71816
亦無	-8.7198
染	-8.72277
一切法	-8.7233
跢	-8.72392
因果	-8.72553
內外	-8.72737
而為	-8.72758
神通	-8.73006
遇	-8.73058
却	-8.73068
邊	-8.73196
雨	-8.73472
出生	-8.73486
禪	-8.73635
座	-8.73648
吉祥	-8.73655
「	-8.7372
呼	-8.73816
許	-8.73976
(〔	-8.74131
平	-8.74233
齊	-8.74399
速	-8.74529
一念	-8.7474
最上	-8.75137
到	-8.75164
哆	-8.75216
曩謨	-8.7531
述	-8.75544
窮	-8.7565
無不	-8.75748
種子	-8.75788
珠	-8.75955
般若	-8.76014
)。(△〔	-8.76137
之人	-8.76352
薩嚩	-8.76849
廣大	-8.77036
集	-8.77357
大眾	-8.77797
由此	-8.77968
靜	-8.7801
亦是	-8.78118
聽	-8.78136
若不	-8.78211
絕	-8.78264
室	-8.7836
恐	-8.78608
汝等	-8.78667
頓	-8.78798
歷	-8.78829
影	-8.78855
之處	-8.79147
二十	-8.79309
覆	-8.79724
喃	-8.80001
忍	-8.80008
星	-8.8017
恒	-8.80188
宜	-8.80203
唎	-8.80551
堅固	-8.80688
)􂏥	-8.80742
菩提心	-8.808
固	-8.80834
授	-8.80935
之性	-8.81028
焉	-8.811
是名	-8.81189
眷屬	-8.81329
是人	-8.81537
皆悉	-8.81546
〔	-8.81681
書	-8.8194
凡夫	-8.82268
久	-8.82308
開示	-8.82337
一時	-8.82347
壞	-8.82477
宮	-8.82567
真性	-8.82692
推	-8.82781
害	-8.82831
讚	-8.82845
素	-8.82887
大悲	-8.82925
存	-8.83124
道場	-8.83126
慈	-8.83267
間	-8.83436
實相	-8.83529
聲聞	-8.83557
護摩	-8.83568
背	-8.8358
降伏	-8.83696
者謂	-8.84138
昔	-8.8433
融	-8.84389
等也	-8.84712
及諸	-8.8483
阿闍梨	-8.84894
.	-8.84946
不思議	-8.85034
無盡	-8.85067
甚	-8.85075
成佛	-8.85445
三合	-8.8604
鬼神	-8.86297
真心	-8.86497
傳	-8.86518
勢	-8.87002
銷	-8.87069
詳	-8.87103
畢	-8.87437
不成	-8.87554
無上	-8.87669
縱	-8.87751
吉	-8.87972
觀察	-8.88293
莎訶	-8.88408
又云	-8.88443
佛告阿難	-8.88659
自心	-8.88906
持誦	-8.89082
明王	-8.89092
誰	-8.89151
互	-8.89433
二乘	-8.89454
修習	-8.89624
菩薩摩訶薩	-8.89732
萬	-8.89833
二者	-8.89867
佉	-8.89869
思惟	-8.89978
而生	-8.90022
仙	-8.90258
治	-8.90472
鏡	-8.90656
󲊛	-8.91031
偏	-8.91035
圓明	-8.91187
本無	-8.91299
只	-8.91396
無生	-8.9143
梨	-8.91895
一者	-8.91909
飲食	-8.92171
此名	-8.92246
曼拏羅	-8.92381
倒	-8.9259
消	-8.92693
十七	-8.9289
特	-8.92941
瑜伽	-8.93086
受持	-8.93092
㗚	-8.93267
之體	-8.93383
按	-8.93405
步	-8.93553
捺	-8.93677
是為	-8.93994
禰	-8.94287
二十五	-8.94522
承	-8.94685
所作	-8.94719
由是	-8.94768
修證	-8.94831
中道	-8.94896
之事	-8.9494
若欲	-8.94956
爾時世尊	-8.95066
第四	-8.95139
我等	-8.95384
注	-8.95392
帶	-8.95419
節	-8.95441
記	-8.95827
下文	-8.95945
據	-8.95988
怛嚩	-8.96048
)􂉓	-8.96062
奉	-8.96064
功	-8.96216
每	-8.96216
勿	-8.9636
差別	-8.96608
盛	-8.96706
蓮花	-8.96782
國土	-8.96971
最	-8.97122
備	-8.97211
不離	-8.97291
▁三	-8.97355
烏	-8.97414
小乘	-8.97542
訖	-8.97607
童子	-8.97625
掌	-8.97867
幻	-8.97876
微細	-8.9822
十九	-8.98408
嚴	-8.98433
增	-8.98551
簡	-8.98732
故有	-8.99004
列	-8.99125
冥	-8.99392
合掌	-8.99413
佛說	-8.99441
蛇	-8.99445
謂之	-8.99446
吾	-8.9978
仰	-8.99901
索	-9.00055
遠離	-9.00285
敘	-9.00344
橫	-9.00355
堅	-9.00406
退	-9.0062
誦呪	-9.0084
聚	-9.00892
隷	-9.00963
沒	-9.0134
於中	-9.01378
而成	-9.02146
枳	-9.022
號	-9.02318
䟽	-9.02496
祖	-9.02505
塞	-9.02659
城	-9.02702
輕	-9.02728
放	-9.02909
依法	-9.03075
塗	-9.03133
咸	-9.03318
阿字	-9.03703
微妙	-9.0373
於是	-9.03777
周	-9.03876
伊	-9.04247
亂	-9.04305
然此	-9.04499
悲	-9.04586
無漏	-9.0461
遣	-9.05
落	-9.0511
輪迴	-9.05239
善根	-9.05403
隨順	-9.05466
牛	-9.05624
葉	-9.05688
陳	-9.0575
新	-9.05767
三世	-9.0581
支	-9.0604
至於	-9.0607
石	-9.06071
此則	-9.06079
於彼	-9.0615
徵	-9.06272
如法	-9.06476
旋	-9.06497
即成	-9.06539
各各	-9.06565
靈	-9.0661
認	-9.06613
象	-9.06648
二種	-9.06731
圓融	-9.06804
其心	-9.06888
甲	-9.06946
中間	-9.06947
旨	-9.06976
應當	-9.07113
令其	-9.07165
從此	-9.07168
二十一	-9.07277
識陰	-9.07309
忘	-9.07422
驗	-9.07486
無畏	-9.07826
三種	-9.08246
夢	-9.08272
左右	-9.08364
瓶	-9.08532
儀	-9.08599
發心	-9.08725
義也	-9.08905
清	-9.08989
犯	-9.09028
繫	-9.09032
服	-9.09105
麤	-9.09348
黑	-9.09393
聞性	-9.09414
點	-9.09415
舒	-9.09515
附	-9.09729
次結	-9.09821
若無	-9.09844
半音	-9.09997
佛頂	-9.10073
單	-9.10135
蒙	-9.10287
獻	-9.10311
相續	-9.10329
之類	-9.10415
玅	-9.10479
則無	-9.10587
違	-9.10605
勸	-9.10784
責	-9.10857
畢竟	-9.10897
呵	-9.10914
過去	-9.10984
四種	-9.11002
汝今	-9.11059
科	-9.11072
心中	-9.11174
憶	-9.11397
古	-9.11677
精進	-9.11788
仍	-9.11854
三十	-9.11973
擁護	-9.12032
日月	-9.12054
能令	-9.12105
可知	-9.12198
法華	-9.1223
揀	-9.12256
各有	-9.12271
本覺	-9.1234
抳	-9.12356
不空	-9.12408
降	-9.12469
決	-9.12537
今此	-9.12548
救	-9.12616
乳	-9.12617
了知	-9.12731
見精	-9.1279
垂	-9.13091
勞	-9.13173
翻	-9.13207
如是等	-9.13537
劍	-9.13615
能生	-9.13675
薩婆	-9.1374
強	-9.13852
藥叉	-9.13911
制	-9.13956
色陰	-9.14009
本來	-9.14386
□	-9.1444
亦有	-9.14454
出家	-9.14505
慢	-9.14552
賊	-9.14636
漫荼羅	-9.14839
收	-9.14851
隱	-9.14865
際	-9.149
則知	-9.1514
徒	-9.15225
再	-9.15271
闍	-9.15415
是則	-9.15457
金剛手	-9.15591
偈	-9.15623
安住	-9.15891
父母	-9.15926
此即	-9.16047
質	-9.16224
七大	-9.16305
自身	-9.16431
飛	-9.16478
審	-9.16688
知見	-9.16728
赤	-9.16742
如上	-9.16779
六塵	-9.16908
楞嚴	-9.17289
隨意	-9.17399
權	-9.17511
言之	-9.17571
觀想	-9.1761
非是	-9.1761
談	-9.17642
䭾	-9.177
能所	-9.17846
名字	-9.17889
云云	-9.18011
欲界	-9.18017
故知	-9.18223
利益	-9.18299
法性	-9.18537
佛法	-9.18813
草	-9.18867
所見	-9.18918
右手	-9.18936
【	-9.1908
彰	-9.19121
婬	-9.19346
青	-9.19371
灰	-9.19419
安樂	-9.19443
怖	-9.19501
拔	-9.19602
不覺	-9.19629
敬	-9.19678
尊者	-9.19879
大小	-9.19885
卷	-9.19936
既無	-9.20104
努	-9.20225
拳	-9.20315
妄見	-9.20657
則有	-9.20712
𤙖	-9.20744
痛	-9.20845
;	-9.20886
怛他	-9.20985
同上	-9.2102
摩那婆	-9.21097
脩	-9.2117
中有	-9.21227
歸命	-9.21276
黃	-9.21474
二十四	-9.21483
儀軌	-9.21659
望	-9.21719
名曰	-9.21822
六識	-9.22072
財	-9.22122
四方	-9.22191
宣說	-9.22227
待	-9.22268
呪曰	-9.22302
左手	-9.22373
此等	-9.22375
焰	-9.22419
此明	-9.22431
虛	-9.22488
棄	-9.22523
如來藏	-9.22619
神呪	-9.22626
皆得	-9.22928
第六	-9.22976
盧	-9.23201
三十二	-9.23212
梵	-9.23231
叉	-9.23244
之理	-9.2327
耳根	-9.23287
一切有情	-9.23348
刀	-9.2335
之意	-9.23489
現在	-9.23527
吳興曰	-9.23649
一百	-9.23654
善男子	-9.23738
厭	-9.23857
作法	-9.239
矩	-9.23934
患	-9.23947
普賢	-9.2395
興	-9.23956
參	-9.24182
無異	-9.24391
視	-9.24473
垢	-9.24654
幢	-9.24743
寂靜	-9.24745
二十二	-9.24831
何況	-9.24853
濁	-9.24892
領	-9.24894
此心	-9.25018
熏	-9.2507
申	-9.2524
婆羅門	-9.25267
摩尼	-9.25369
此法	-9.25543
多聞	-9.25605
牒	-9.25608
殊	-9.25708
無為	-9.25875
經文	-9.26006
)「	-9.26245
東	-9.26288
亦非	-9.263
遊	-9.26408
曾	-9.2655
林	-9.26552
第五	-9.26706
又復	-9.26748
增長	-9.2675
七日	-9.2688
二十三	-9.27004
安置	-9.27198
西	-9.27214
寂滅	-9.2725
無常	-9.27252
莎	-9.27262
亦然	-9.27322
此呪	-9.27425
音聲	-9.27745
者也	-9.27864
供	-9.27866
二十八	-9.27916
蜜	-9.27984
乞	-9.28149
出世	-9.28174
礙	-9.28271
其中	-9.28333
判	-9.28438
譯	-9.28525
肉	-9.28557
彼等	-9.28589
初心	-9.2862
變化	-9.28639
若以	-9.2869
妙覺	-9.28825
徹	-9.28879
入嚩	-9.28983
覺明	-9.29397
銘	-9.29466
容	-9.29495
身中	-9.29562
邪見	-9.2974
俗	-9.29798
熱	-9.2982
永	-9.29891
河	-9.29984
演	-9.30019
不為	-9.30072
未來	-9.30091
能見	-9.30448
前後	-9.30528
召	-9.30531
諸菩薩	-9.30567
原	-9.3082
瞋	-9.30955
今經	-9.30982
曲	-9.31302
塔	-9.31415
臂	-9.31467
以其	-9.3149
定慧	-9.31534
不出	-9.31768
天王	-9.31887
二十七	-9.3197
可見	-9.32048
壽	-9.32358
薩哩嚩	-9.32467
迴向	-9.32547
建立	-9.32569
正法	-9.32723
百千	-9.32744
羯	-9.32744
側	-9.32776
而言	-9.32847
非真	-9.32895
即以	-9.32924
滿足	-9.32925
殊勝	-9.32929
懸	-9.32974
迦囉	-9.32975
助	-9.33065
亦云	-9.33095
忽	-9.33115
沙門	-9.33145
歎	-9.33151
無始	-9.33274
應知	-9.33315
志	-9.33445
謬	-9.33601
公	-9.3365
念佛	-9.33776
色空	-9.33798
觧	-9.34023
北	-9.34203
亦爾	-9.34228
最初	-9.34335
華嚴	-9.34385
守	-9.34391
陁羅尼	-9.34622
越	-9.34755
二字	-9.34892
意謂	-9.35029
愚	-9.35143
逆	-9.35321
調伏	-9.35351
補	-9.35411
前文	-9.35444
禪定	-9.35466
茶	-9.35524
湛	-9.35537
十地	-9.35544
寫	-9.35626
該	-9.35631
酥	-9.35645
七遍	-9.35666
不可得	-9.35681
純	-9.3579
意根	-9.36316
返	-9.36376
狂	-9.36379
二十六	-9.36438
甘露	-9.36483
專	-9.3657
萬法	-9.36585
積	-9.36678
淺	-9.36731
法師	-9.36761
剎	-9.36831
譬	-9.37115
隔	-9.37214
頌	-9.37244
說此	-9.37246
嚧	-9.3728
第八	-9.37326
故也	-9.37336
斥	-9.37364
豈非	-9.37383
跋	-9.37671
迴	-9.37825
誤	-9.37828
若能	-9.38097
浮	-9.3817
招	-9.3829
當得	-9.38303
三摩	-9.38324
孤山曰	-9.38432
之身	-9.38505
餓鬼	-9.38572
所成	-9.38657
邏	-9.38744
露	-9.38918
守護	-9.39036
十方如來	-9.39067
禁	-9.39071
𤚥	-9.39168
如何	-9.3919
乃是	-9.3928
藏性	-9.39396
阿難言	-9.39413
妙明	-9.39413
無體	-9.39497
若人	-9.39598
羯磨	-9.39668
三藏	-9.39688
玄	-9.39811
輸	-9.39837
尋	-9.39919
意識	-9.39937
或有	-9.39941
車	-9.40083
所依	-9.40085
皆有	-9.40134
二初	-9.40195
鳥	-9.40358
四十	-9.40472
真妄	-9.40492
西方	-9.40494
止觀	-9.40618
薩埵	-9.40668
帝釋	-9.407
色相	-9.40702
金剛薩埵	-9.40801
者即	-9.40886
而作	-9.40939
智者	-9.40946
看	-9.40956
無因	-9.40967
差	-9.41069
四句	-9.41078
分明	-9.41134
誦真言	-9.41208
劣	-9.41291
係	-9.41293
其身	-9.41307
法塵	-9.41325
福德	-9.41408
纔	-9.41411
何故	-9.41612
以明	-9.41685
􂏥	-9.4171
雖有	-9.41728
無非	-9.41771
互相	-9.41973
總持	-9.41976
法者	-9.41989
是以	-9.42018
受陰	-9.42108
而得	-9.42122
乾	-9.42149
祇	-9.42203
通達	-9.42291
故以	-9.42321
角	-9.42423
三十六	-9.42577
客	-9.42631
故能	-9.42645
懷	-9.42648
􂏩(	-9.42783
獲得	-9.42896
彼人	-9.42922
法中	-9.42981
可得	-9.4304
登	-9.43093
持戒	-9.43096
所證	-9.43107
擇	-9.43196
三觀	-9.43323
恭敬	-9.43437
二十九	-9.43487
g	-9.4374
結界	-9.43813
即此	-9.43829
孤山云	-9.43872
磨	-9.43937
南無	-9.44062
大明	-9.44078
闕	-9.44135
當機	-9.44149
二句	-9.4419
不定	-9.44201
眼根	-9.44296
No	-9.44468
一百八遍	-9.44471
癡	-9.44499
無間	-9.44507
曩莫	-9.4457
莎呵	-9.44576
資	-9.44642
序	-9.44671
諸眾生	-9.44719
五種	-9.44721
讚歎	-9.44728
有所	-9.44837
十種	-9.45027
一切諸佛	-9.45082
涉	-9.4515
慈悲	-9.4531
蘊	-9.45323
師子	-9.45324
律	-9.45352
的	-9.45402
頂上	-9.45509
微塵	-9.45551
周徧	-9.4559
宣	-9.45631
亦得	-9.45635
是時	-9.45672
妄心	-9.45855
。○(	-9.45881
有二	-9.45896
生起	-9.45979
奪	-9.45998
􂉗(	-9.46021
章	-9.46074
循	-9.46099
打	-9.46162
故名為	-9.46314
三十七	-9.46404
三寶	-9.46456
曼荼羅	-9.46483
一切諸法	-9.4653
改	-9.46573
一體	-9.46599
亦如是	-9.46679
梵天	-9.46803
巧	-9.46819
人天	-9.46896
斷滅	-9.46956
塗香	-9.47048
一分	-9.47135
閉	-9.47235
疾	-9.47415
見聞	-9.47442
自他	-9.47618
:「	-9.47695
忿怒	-9.47891
佛告	-9.4796
觀世音	-9.48055
大海	-9.48056
若於	-9.48112
瓔珞	-9.48217
熟	-9.48322
毗	-9.48423
想陰	-9.48492
此人	-9.4871
頂禮	-9.48776
濕	-9.48778
三者	-9.48814
憶念	-9.48872
之見	-9.49058
神力	-9.49065
而後	-9.49084
毗藥	-9.49107
謨	-9.4931
哩野	-9.49488
今日	-9.49498
急	-9.4952
二手	-9.4955
im	-9.49704
翳	-9.49797
一人	-9.49826
瑟	-9.49826
羅剎	-9.49844
醯	-9.49886
不淨	-9.50121
災	-9.50132
擲	-9.50393
<	-9.50481
獄	-9.50517
識心	-9.5052
有為	-9.50662
馬	-9.50753
何以	-9.50756
之後	-9.50756
擊	-9.51001
舍利弗	-9.51055
骨	-9.51126
之境	-9.51165
源	-9.51237
蓮	-9.51318
能知	-9.51324
􂉓	-9.51337
誓	-9.51489
同於	-9.5173
東方	-9.5173
相似	-9.51782
至此	-9.5181
住於	-9.51855
生於	-9.51899
所求	-9.51916
怨	-9.51947
大地	-9.51985
皆由	-9.51998
酬	-9.52015
復以	-9.52019
隨緣	-9.52154
六十	-9.52212
觀世音菩薩	-9.52225
調	-9.52353
髮	-9.52469
㘑	-9.52556
七寶	-9.52594
發起	-9.52603
淫	-9.52736
觀行	-9.52741
大明曰	-9.52781
頭指	-9.52868
五十	-9.52873
其人	-9.52987
不斷	-9.52995
洗	-9.53008
語言	-9.53041
之本	-9.5328
損	-9.53324
不可思議	-9.53537
上音	-9.53662
為因	-9.53857
不了	-9.53879
亦如	-9.53881
四禪	-9.53943
金剛杵	-9.53951
傷	-9.53974
。】「○(	-9.53976
八識	-9.53986
甚深	-9.54012
杵	-9.54099
準	-9.54129
拂	-9.54208
是非	-9.5425
無想	-9.54346
究	-9.54551
移	-9.54574
三十三	-9.54814
如意	-9.5484
相也	-9.54935
若是	-9.54937
建	-9.54969
任	-9.55044
更無	-9.55061
逐	-9.55096
亦能	-9.55149
即同	-9.55157
有一	-9.55309
不變	-9.55319
及與	-9.55325
心性	-9.55435
寺	-9.55665
】【	-9.55777
諸佛菩薩	-9.55813
經中	-9.55849
稍	-9.55986
但是	-9.56025
天台	-9.56036
昧	-9.56063
宮殿	-9.56199
誠	-9.56256
根境	-9.56281
分二	-9.56289
是知	-9.56306
依此	-9.56464
池	-9.56467
而起	-9.56592
惱	-9.56608
流出	-9.56699
前云	-9.56728
段	-9.56828
觀自在菩薩	-9.56833
漏	-9.56907
而無	-9.56933
果報	-9.5697
出現	-9.56975
祕密主	-9.57014
空中	-9.57129
淨土	-9.57162
戲論	-9.57171
牙	-9.57341
禪那	-9.57343
老	-9.57351
若此	-9.57353
又法	-9.57393
諸如來	-9.57479
乾慧	-9.5748
勤	-9.57634
▁初	-9.57653
潤	-9.57669
端	-9.57747
運	-9.57784
草木	-9.57788
是故當知	-9.57908
而白佛言	-9.57921
無知	-9.58055
准	-9.58104
折	-9.5818
亦可	-9.5822
又以	-9.58251
大智	-9.58457
三十一	-9.58487
此之	-9.58531
鐵	-9.58729
父	-9.58854
字門	-9.58977
天魔	-9.59033
澄	-9.59177
賢	-9.5919
謗	-9.59298
惡業	-9.59346
金色	-9.59629
局	-9.59642
手執	-9.59748
適	-9.5978
有漏	-9.59943
此陀羅尼	-9.60089
畜	-9.60099
體性	-9.60153
明暗	-9.60198
一字	-9.60271
梵語	-9.60321
所知	-9.60331
投	-9.60464
夜叉	-9.6053
毛	-9.60592
受用	-9.6065
無二	-9.60717
網	-9.60797
等覺	-9.60905
族	-9.60953
無垢	-9.60979
無性	-9.61086
歲	-9.61289
無復	-9.61294
見者	-9.61348
迹	-9.61389
使者	-9.61448
穢	-9.6157
奢	-9.61632
即從座起	-9.61711
釋迦	-9.61736
佛性	-9.61772
慕	-9.61897
諸相	-9.62092
令彼	-9.62092
威德	-9.62128
不住	-9.62255
名之為	-9.62308
衣服	-9.62449
去聲	-9.62452
可以	-9.6246
舊	-9.62472
有無	-9.62545
於其	-9.62564
第七	-9.62585
之因	-9.6265
放光	-9.62855
發菩提心	-9.62957
展轉	-9.6301
香水	-9.63029
尸	-9.63078
本性	-9.63087
三十五	-9.63261
四十二	-9.63301
三乘	-9.63319
堂	-9.63384
狀	-9.63463
擬	-9.63574
現身	-9.63577
借	-9.63621
其所	-9.63624
昏	-9.63634
三十四	-9.63655
薄	-9.63673
五百	-9.6379
見聞覺知	-9.63804
剎那	-9.63809
男女	-9.63875
一切佛	-9.64009
誦持	-9.64012
不起	-9.64054
大士	-9.64066
不著	-9.64114
執持	-9.64117
詣	-9.64172
三業	-9.64218
故言	-9.64247
故稱	-9.64281
如幻	-9.64416
其義	-9.64517
捻	-9.64525
祕	-9.64537
遺	-9.64577
佗	-9.64631
因緣自然	-9.64768
血	-9.64779
如人	-9.64784
大力	-9.64856
第	-9.64947
臨	-9.65111
離諸	-9.65116
張	-9.65234
終不	-9.65256
一日	-9.65274
不生滅	-9.65341
拘	-9.6535
寄	-9.65351
迦羅	-9.65363
諸惡	-9.65463
魚	-9.65485
白色	-9.65499
暫	-9.65578
幽	-9.65604
▁「	-9.65656
揭	-9.65739
預	-9.65786
懺悔	-9.6597
三諦	-9.66069
無色	-9.66091
十界	-9.66415
動靜	-9.66475
聖人	-9.66504
)。(○〔	-9.66553
連	-9.66597
遭	-9.6662
辭	-9.66722
消滅	-9.66733
明了	-9.66794
濕嚩	-9.66849
文字	-9.66891
出入	-9.66948
三遍	-9.67057
秪	-9.67093
前塵	-9.67146
若見	-9.67152
良以	-9.67159
虎	-9.67174
私	-9.6719
嚩囉	-9.67264
胎	-9.67288
愈	-9.67342
幾	-9.67427
鉤	-9.67448
唯識	-9.67491
文二	-9.67588
則不	-9.6764
皆以	-9.67754
不壞	-9.67769
本有	-9.67815
然則	-9.67866
四十九	-9.67902
風輪	-9.68082
泯	-9.68184
觀自在	-9.68347
二義	-9.68422
安隱	-9.68462
墜	-9.68538
軍	-9.68591
一法	-9.68624
故此	-9.68727
命終	-9.68784
萬行	-9.6882
正是	-9.68822
奢摩他	-9.68884
不復	-9.68965
習氣	-9.68987
波羅	-9.69009
覺知	-9.69098
無別	-9.69135
太	-9.69182
恐怖	-9.69321
樓	-9.69322
流轉	-9.6947
無有是處	-9.69581
精明	-9.69597
!	-9.6961
見佛	-9.69969
入於	-9.70001
以顯	-9.7003
不失	-9.70031
託	-9.70089
怖畏	-9.70152
去音	-9.70168
開悟	-9.70168
詮	-9.70191
若謂	-9.70212
履	-9.70223
鼓	-9.70418
飲	-9.7054
代	-9.70543
裏	-9.70543
倫	-9.70562
而住	-9.70586
納	-9.70686
正明	-9.708
於諸	-9.70887
敬愛	-9.70908
所緣	-9.71083
演說	-9.71141
或以	-9.71199
押	-9.71248
男	-9.7126
麻	-9.71268
水火	-9.71369
之物	-9.71414
讀	-9.71574
諦觀	-9.71581
即前	-9.71793
長水	-9.71899
沉	-9.71923
威	-9.71985
而能	-9.72101
莽	-9.72195
亦應	-9.72565
白佛言	-9.72638
燒香	-9.72682
亦復	-9.72729
避	-9.72735
補遺云	-9.72803
配	-9.72856
論云	-9.72863
真見	-9.72885
沈	-9.72942
豈不	-9.72973
中指	-9.73055
擔	-9.73086
別有	-9.73131
濟	-9.73159
文殊師利	-9.73198
貴	-9.73219
隨喜	-9.73247
咄	-9.73452
巳竟	-9.73467
晝夜	-9.73572
負	-9.73572
▁四	-9.73587
南方	-9.73593
示現	-9.73697
呪師	-9.73724
善惡	-9.73788
波羅蜜	-9.7383
北方	-9.73914
輪轉	-9.74097
奴	-9.74168
不捨	-9.74205
戍	-9.74228
不是	-9.74268
同一	-9.74272
盤	-9.74468
箇	-9.74611
護持	-9.74611
故得	-9.74668
圖	-9.74677
聖者	-9.74734
初禪	-9.74769
室哩	-9.74787
井	-9.75015
二頭指	-9.75039
無著	-9.75078
毀	-9.75088
唧	-9.75168
三十八	-9.75376
及以	-9.75382
壽命	-9.75484
必有	-9.75597
漸次	-9.75632
期	-9.75726
上文	-9.75845
發吒	-9.75882
良	-9.7592
之言	-9.75966
如彼	-9.76009
真空	-9.76011
上聲	-9.76021
竭	-9.76032
怪	-9.7605
得大	-9.76109
無上菩提	-9.76143
娑麼	-9.76229
皆為	-9.7623
事業	-9.76513
今云	-9.76539
升	-9.7662
得見	-9.76681
頗	-9.76754
憂	-9.76761
富樓那	-9.76791
諸根	-9.768
自有	-9.76804
纏	-9.76873
但以	-9.76899
盜	-9.76972
三十九	-9.76985
或見	-9.77045
輩	-9.77113
不相	-9.77181
十信	-9.7721
非有	-9.77254
未盡	-9.77383
錯	-9.77482
枝	-9.77492
線	-9.77592
均	-9.77662
妙心	-9.7775
敷	-9.7778
斯為第一	-9.77802
美	-9.7782
如是乃至	-9.77855
欲求	-9.77862
阿羅漢	-9.77896
伸	-9.77952
下明	-9.77982
多羅	-9.77988
苦惱	-9.78031
攝受	-9.78043
無能	-9.78106
所現	-9.78201
當於	-9.78306
令得	-9.78373
萬物	-9.78374
否	-9.78399
滿慈	-9.78464
皤	-9.78572
接	-9.786
院	-9.78604
四十一	-9.78627
最後	-9.78661
灌	-9.78661
統	-9.78822
明矣	-9.78825
士	-9.78851
無數	-9.78997
手持	-9.7909
相合	-9.79126
滯	-9.79202
歸依	-9.79366
一切世間	-9.79424
真常	-9.79454
奉獻	-9.79582
檀	-9.79621
此方	-9.79629
神變	-9.79636
之間	-9.79648
復說	-9.79716
引一句	-9.79719
虛妄	-9.7989
會中	-9.79894
所得	-9.79909
捺囉	-9.8002
蘖	-9.80025
則能	-9.8018
養	-9.80225
以成	-9.80232
以是	-9.80275
無學	-9.80306
唐	-9.80346
不然	-9.80383
則是	-9.8055
陵	-9.80625
逼	-9.80634
心也	-9.80704
四十八	-9.80733
十八界	-9.80837
所明	-9.80839
月輪	-9.80937
鞞	-9.81066
溫陵云	-9.81105
姓	-9.81136
脚	-9.81221
以上	-9.81225
富	-9.81248
八十	-9.8131
執金剛	-9.81468
五根	-9.81477
不敢	-9.81526
善哉	-9.81528
疏云	-9.81626
▁【	-9.81758
天女	-9.81759
而說	-9.81763
世人	-9.8179
乙	-9.81933
此約	-9.81952
即能	-9.81982
發生	-9.81988
囊	-9.82178
覺性	-9.82219
心生	-9.82268
聖眾	-9.82293
若作	-9.82308
證得	-9.82341
豈有	-9.82353
堪	-9.82386
皮	-9.82397
既不	-9.82493
一切諸	-9.82556
念念	-9.82581
同時	-9.82614
三摩提	-9.82629
受生	-9.8269
妄計	-9.82702
塵勞	-9.82746
耆	-9.82843
依正	-9.82887
一遍	-9.82888
天台曰	-9.82962
一切智	-9.82977
不退	-9.83208
心不	-9.83257
達磨	-9.83262
房	-9.83274
頂禮佛足	-9.83321
力故	-9.83393
防	-9.83425
此真言	-9.83537
畏	-9.83578
有相	-9.83606
鬘	-9.83633
無我	-9.83664
羅漢	-9.83773
?	-9.83774
洲	-9.83774
魔王	-9.83809
四十五	-9.83816
冠	-9.83878
便是	-9.83909
諸聖	-9.83912
蟲	-9.83961
圓覺	-9.84182
諸尊	-9.84356
飯	-9.84366
唯一	-9.84377
未得	-9.84394
觀之	-9.84447
圍繞	-9.8445
准前	-9.84487
不受	-9.84604
不二	-9.84662
:>	-9.8476
缺	-9.8488
限	-9.84892
扇	-9.84929
婆羅	-9.84942
以至	-9.84971
荼	-9.85005
官	-9.85036
隨其	-9.85057
某甲	-9.85175
住處	-9.85288
茲	-9.85356
更有	-9.85369
二相	-9.85409
則汝	-9.85447
愛樂	-9.85566
勅	-9.85771
魯	-9.85775
仁	-9.85783
如是一類	-9.85787
大慈	-9.858
人間	-9.85897
諸有情	-9.8592
一向	-9.8593
屹囉	-9.86117
廣說	-9.8625
歇	-9.86347
四十四	-9.86361
之名	-9.86395
曉	-9.86415
旦	-9.86454
魔事	-9.86484
試	-9.86559
影像	-9.86704
眚	-9.86721
研	-9.86726
畜生	-9.86831
齋	-9.86923
心地	-9.86998
天人	-9.87047
之果	-9.87047
泮吒	-9.87086
毘盧遮那	-9.87123
熾盛	-9.87132
不自	-9.87138
未能	-9.8715
摧	-9.87251
或云	-9.87256
四十六	-9.87331
不明	-9.874
錄	-9.87436
曼	-9.87445
小指	-9.87462
倍	-9.87477
四十三	-9.87552
今以	-9.87559
作護摩	-9.87568
圓教	-9.87587
導	-9.87643
希有	-9.87742
兵	-9.87787
你	-9.87835
得成	-9.87841
第一義	-9.87915
所願	-9.87955
讀誦	-9.87974
怒	-9.88033
初住	-9.88046
無作	-9.88061
云何獲圓通	-9.88141
此文	-9.88167
長者	-9.88188
戰	-9.88197
顯現	-9.88236
始終	-9.8824
般	-9.88333
結成	-9.88418
貫	-9.88421
謝	-9.88429
鉢羅	-9.88442
正覺	-9.88494
非和合	-9.88522
毘那夜迦	-9.88673
本自	-9.88678
為體	-9.88708
發願	-9.88755
逢	-9.88816
史	-9.88837
途	-9.88906
潛	-9.88939
不異	-9.89038
之者	-9.89046
自巳	-9.89068
上下	-9.89139
嚩底	-9.8914
令人	-9.89152
即指	-9.89316
無見	-9.89349
破壞	-9.89405
休	-9.89407
吽吽	-9.8943
他人	-9.89454
持誦者	-9.89482
遷	-9.89524
次說	-9.89583
大佛頂	-9.89639
六十二	-9.89672
佛問圓通	-9.89866
敬禮	-9.90121
緣覺	-9.90197
直竪	-9.90206
周遍	-9.90221
識性	-9.90234
金剛部	-9.90467
不達	-9.90469
題	-9.90488
無量無邊	-9.90609
根性	-9.90611
俱生	-9.9062
峯	-9.90681
口中	-9.90824
安立	-9.90865
兜	-9.90901
回	-9.90918
四天王	-9.90925
忽然	-9.91108
空華	-9.91138
鑁	-9.91189
所言	-9.91191
阿修羅	-9.91213
把	-9.91223
有三	-9.91248
即有	-9.91294
牟	-9.91348
四面	-9.91396
析	-9.91419
俱胝	-9.91429
皆從	-9.91435
遷流	-9.91438
十方諸佛	-9.91467
之智	-9.91516
增益	-9.91529
賢聖	-9.91535
分三	-9.91569
又如	-9.9157
甞	-9.91572
番	-9.9159
空性	-9.91611
四十七	-9.91624
議曰	-9.91657
有人	-9.91658
畔	-9.91696
善哉善哉	-9.91751
同異	-9.91788
緣起	-9.91841
一切菩薩	-9.91911
延	-9.92162
欲令	-9.92218
繩	-9.92249
進力	-9.92264
氷	-9.92273
之用	-9.92411
混	-9.92528
是真	-9.9254
不從	-9.9258
博	-9.92625
當以	-9.92637
天子	-9.92679
隨心	-9.92692
群	-9.92701
勝義	-9.92722
聲塵	-9.92749
國王	-9.92792
威力	-9.92808
希	-9.92903
凝	-9.92951
之行	-9.92975
至心	-9.92985
首楞嚴	-9.93
黃色	-9.93064
於我	-9.93102
傍	-9.93123
是心	-9.93135
性相	-9.93236
之地	-9.93252
五十二	-9.93313
謂此	-9.93325
生也	-9.93417
一身	-9.93436
寂然	-9.93441
持明者	-9.93531
九十	-9.93591
熏聞云	-9.93627
誦此呪	-9.9365
禮拜	-9.93662
跋折囉	-9.93816
入三摩地	-9.93819
臺	-9.93883
知其	-9.93959
四門	-9.94074
迦葉	-9.94174
護身	-9.94193
枲	-9.94199
自知	-9.94202
清淨本然	-9.94234
牽	-9.94344
摩羅	-9.94377
佛身	-9.94434
能成	-9.94456
為人	-9.94481
黎	-9.94489
是佛	-9.94492
三句	-9.94552
悔	-9.94685
不假	-9.94691
四者	-9.94741
術	-9.94764
恩	-9.94803
非無	-9.95013
之相也	-9.95028
五十五	-9.95078
不取	-9.95109
箭	-9.95182
七趣	-9.952
如來藏性	-9.9525
乞食	-9.9528
無情	-9.95319
普遍	-9.95369
丁	-9.95405
浴	-9.95465
囉拏	-9.95483
不過	-9.95489
色身	-9.95498
煙	-9.95523
藉	-9.95659
迷悟	-9.95718
因此	-9.95887
則為	-9.95912
五十三	-9.96038
悟入	-9.96058
大師	-9.96199
能為	-9.96241
油	-9.96241
何者	-9.96291
麗	-9.96326
同分	-9.96335
五十一	-9.96431
諸魔	-9.96444
學者	-9.96479
我於彼前	-9.96502
真諦	-9.96509
粗	-9.9657
而自	-9.96574
走	-9.9668
三德	-9.96685
葛	-9.96828
笑	-9.96839
臣	-9.9684
第九	-9.96871
於佛	-9.96898
有知	-9.96939
廢	-9.97158
有何	-9.97178
文三	-9.97215
說是	-9.97236
幡	-9.97295
而非	-9.97311
搖	-9.97389
孤山	-9.97442
八萬四千	-9.97499
彌勒	-9.97677
己	-9.97704
二大指	-9.97746
染淨	-9.97768
修羅	-9.97768
斗	-9.97819
之與	-9.9785
故須	-9.98025
此下	-9.98089
得成就	-9.9809
若言	-9.98114
日日	-9.98144
所修	-9.98258
𥠖	-9.98339
障礙	-9.98386
而入	-9.98504
關	-9.98542
拶	-9.98565
五十四	-9.98618
翼	-9.98732
為我	-9.98775
見其	-9.98782
所攝	-9.98955
喚	-9.98996
臍	-9.99013
攬	-9.99074
吸	-9.99117
其體	-9.99123
麼麼	-9.99183
長水云	-9.99184
和尚	-9.99185
種族	-9.99207
佛子	-9.9926
觀此	-9.99288
初地	-9.99368
必須	-9.99395
淺深	-9.99413
法也	-9.99425
巳上	-9.99457
有見	-9.99477
俱非	-9.99562
。(〔	-9.99573
妙法	-9.99626
無分別	-9.9973
當來	-9.99733
而出	-9.99744
卑	-9.99779
瑟吒	-9.99809
斯則	-9.99818
吐	-9.99845
造作	-9.99893
此印	-9.99983
七十	-10.0001
覽	-10.0003
此識	-10.0006
秘密	-10.0009
水中	-10.0014
琉璃	-10.002
故今	-10.0021
一處	-10.0022
昇	-10.0023
問曰	-10.0027
缽	-10.0028
女人	-10.0032
海雲	-10.0034
沫	-10.0036
色界	-10.0044
光焰	-10.0046
某	-10.0057
少分	-10.0058
即為	-10.0059
田	-10.006
者即是	-10.006
囕	-10.0061
九十九	-10.0072
一真	-10.0074
陀羅尼經	-10.0076
六結	-10.0076
之旨	-10.0077
旁	-10.0079
有四	-10.0079
嘗	-10.0079
欠	-10.008
晝	-10.0087
之道	-10.0088
五塵	-10.0091
宋	-10.0094
杖	-10.0099
陽	-10.0103
梵音	-10.0104
慮	-10.0111
見暗	-10.0111
六十四	-10.0115
宛然	-10.0129
恨	-10.0137
禪師	-10.0145
蕩	-10.0145
唯願	-10.0152
即於	-10.0157
除滅	-10.0158
符	-10.016
園	-10.0164
之力	-10.0174
累	-10.0187
苦樂	-10.0206
一根	-10.021
諸有	-10.0227
酒	-10.0234
現行	-10.0234
真言者	-10.0237
淡	-10.0238
不及	-10.0239
腰	-10.0249
加被	-10.025
此身	-10.0251
甘	-10.0254
之說	-10.0258
循業發現	-10.0261
通曰	-10.0261
若得	-10.0263
有異	-10.0264
此天	-10.0264
內心	-10.0266
性空	-10.0268
輪王	-10.0271
同前	-10.0271
威儀	-10.0277
或於	-10.0278
典	-10.0287
三摩耶	-10.029
能除	-10.0292
即當	-10.0297
睡	-10.0308
赤色	-10.0311
膩	-10.0313
心呪	-10.0314
二十一遍	-10.0317
而為說法	-10.032
諸佛如來	-10.0325
衰	-10.0326
遏	-10.0329
五十六	-10.0338
啟	-10.0343
不信	-10.0344
二邊	-10.0347
乾闥婆	-10.035
之外	-10.0351
務	-10.0352
二百	-10.0352
有大	-10.0358
持呪	-10.0362
不滅	-10.0369
割	-10.0373
流通	-10.0373
佛所	-10.0377
對治	-10.0389
截	-10.039
囉抳	-10.0395
寒	-10.0397
私謂	-10.0404
為一	-10.0406
默	-10.0406
五十七	-10.0408
地位	-10.0414
此乃	-10.0465
答曰	-10.0469
偈云	-10.0475
婆嚩	-10.0477
太子	-10.0477
布施	-10.0477
而復	-10.048
法王	-10.0483
在於	-10.0485
鈍	-10.049
義故	-10.0492
加行	-10.0492
去引	-10.0494
藍	-10.0501
周徧法界	-10.0504
二中指	-10.0514
於心	-10.0534
明妃	-10.054
金剛手菩薩	-10.0551
眼見	-10.0552
善知識	-10.0559
秋	-10.0559
免	-10.0562
名號	-10.0568
大自在天	-10.0573
民	-10.0585
者是	-10.0586
窟	-10.0588
誡	-10.0588
爐	-10.0592
殿	-10.0602
不聞	-10.0604
我當	-10.0615
五十八	-10.0621
繞	-10.0622
伐	-10.0626
喇怛曩	-10.0629
五蘊	-10.0633
則成	-10.0635
惠	-10.0648
密言	-10.0656
魅	-10.066
離塵	-10.0662
驚	-10.0678
今既	-10.0678
羂索	-10.0679
此正	-10.0679
真覺	-10.0681
書寫	-10.0686
或復	-10.0689
即便	-10.0698
珍寶	-10.0701
心境	-10.0706
功用	-10.0707
未曾	-10.0708
轉法輪	-10.0711
臥	-10.0712
親近	-10.0713
二小指	-10.0729
行道	-10.0739
丈夫	-10.0743
壇中	-10.0745
又二	-10.0746
像前	-10.0748
火天	-10.0751
金剛三昧	-10.0757
歌	-10.0757
沒馱	-10.0765
良由	-10.0766
若有眾生	-10.0766
第十	-10.0767
奇	-10.0772
自體	-10.0781
變易	-10.0785
額	-10.079
善法	-10.0792
佛心	-10.0794
如實	-10.0795
惡人	-10.0797
托	-10.0806
得聞	-10.0811
超越	-10.0814
哀	-10.0814
舍利	-10.0816
二明	-10.0818
四諦	-10.0818
羣	-10.0825
溫陵	-10.0828
顯示	-10.0829
揚	-10.0834
以下	-10.0834
善巧	-10.0838
紇哩	-10.0839
豆	-10.084
恒沙	-10.0841
白芥子	-10.0849
此見	-10.085
盖	-10.0852
任運	-10.0853
無定	-10.0854
地水火風	-10.0858
吽字	-10.0863
瞻	-10.0866
三日	-10.0888
訖哩	-10.0894
敢	-10.0896
弘	-10.0905
君	-10.0907
眼識	-10.0929
修行者	-10.093
身相	-10.0933
續	-10.0934
十方世界	-10.0937
胡	-10.0942
當心	-10.0945
夏	-10.0945
但有	-10.0946
見分	-10.0949
為說	-10.0965
汝心	-10.0965
柱	-10.0968
之門	-10.0971
洗浴	-10.0975
信解	-10.0984
以右手	-10.0988
註	-10.0993
短	-10.0996
所造	-10.1005
相好	-10.1005
所在	-10.1007
五十九	-10.1007
無可	-10.1017
察	-10.1018
變成	-10.102
下二句	-10.1028
聖位	-10.1032
置於	-10.1038
了義	-10.1039
時彼	-10.1041
圓成	-10.1042
應作	-10.105
我心	-10.1055
一百八	-10.1059
冤	-10.1059
得入	-10.1064
悅	-10.1064
曼茶羅	-10.1069
億	-10.1076
偽	-10.1076
大指	-10.1077
宅	-10.1083
泮	-10.1087
成阿羅漢	-10.1088
乞义	-10.1092
奔	-10.1093
則得	-10.1093
速得	-10.1093
既有	-10.1095
受持讀誦	-10.1096
生者	-10.1099
若離	-10.11
疊	-10.1101
驚怖	-10.1105
持明	-10.1109
得名	-10.1113
以二手	-10.112
誦此真言	-10.1125
惡趣	-10.1126
薩怛嚩	-10.1128
不立	-10.1138
羅剎女	-10.1154
今文	-10.1154
)。(􂨳	-10.1155
次以	-10.1163
齒	-10.1165
州	-10.1168
此菩薩	-10.1168
何不	-10.1171
非見	-10.1171
銅	-10.1174
孤	-10.1177
青色	-10.1187
應以	-10.1188
玉	-10.1194
圓頓	-10.1199
竝	-10.12
成道	-10.1212
常住真心	-10.1212
禪智	-10.1214
數珠	-10.1214
身根	-10.1214
映	-10.1223
娑婆	-10.1223
即時	-10.1227
重罪	-10.123
其相	-10.1232
文中	-10.1235
不生不滅	-10.1237
敵	-10.1241
不合	-10.1241
清涼	-10.1242
載	-10.1244
梵王	-10.1248
妄生	-10.1251
救護	-10.1252
諸大	-10.1252
我身	-10.1253
大王	-10.1258
與彼	-10.1261
為本	-10.1264
吳興云	-10.1266
不必	-10.1266
今言	-10.127
發遣	-10.1271
不與	-10.1278
何等	-10.1283
邊際	-10.1286
十二類生	-10.1287
櫱	-10.1288
則非	-10.1299
不善	-10.1301
跡	-10.1302
有此	-10.1302
弟	-10.1315
跛囉	-10.1318
開合	-10.1319
真體	-10.1319
全體	-10.132
辦	-10.1333
息災	-10.1334
體用	-10.1336
佛果	-10.1338
修學	-10.1343
向下	-10.1348
七十二	-10.1356
觀照	-10.1357
成就法	-10.1358
夢中	-10.1361
此皆	-10.1365
慶	-10.1367
四角	-10.1371
菩	-10.1376
是法	-10.1378
唵嚩日囉	-10.138
充	-10.1382
准提	-10.1383
無自性	-10.1386
膝	-10.1391
腹	-10.1392
於一切	-10.1393
以手	-10.1396
貪欲	-10.1397
七十七	-10.1399
苟	-10.14
危	-10.1404
委	-10.1405
彼諸	-10.1407
而立	-10.141
罔	-10.1414
何有	-10.1415
=	-10.1419
入道	-10.142
授與	-10.1431
嚴飾	-10.1431
末世	-10.1433
本心	-10.1435
作此	-10.1436
愚癡	-10.1443
六道	-10.1446
兒	-10.1449
下同	-10.1452
底哩	-10.1461
向上	-10.1475
減	-10.1478
令其成就	-10.148
盲	-10.1489
譬如有人	-10.1497
中之	-10.1497
訖㗚	-10.15
隨所	-10.1501
妙用	-10.1503
三禪	-10.1504
飾	-10.1511
見思	-10.1512
譯云	-10.1515
頭上	-10.1518
承上	-10.1524
櫱多	-10.1525
頌曰	-10.1526
聞法	-10.1527
造業	-10.1528
豎	-10.1532
定力	-10.1536
天眼	-10.154
方得	-10.154
別業	-10.154
正顯	-10.154
殘	-10.1543
所執	-10.1546
雞	-10.1558
十住	-10.1565
米	-10.1565
成正覺	-10.1566
紫	-10.1566
大菩薩	-10.1566
汝當	-10.1571
嚲	-10.1578
相對	-10.1583
財寶	-10.1586
佛眼	-10.1587
山河大地	-10.1588
攀緣	-10.1595
之文	-10.1597
壁	-10.1598
加護	-10.1603
貌	-10.1607
亦同	-10.1608
觀心	-10.1617
故不	-10.1621
上來	-10.1632
六十三	-10.1633
始覺	-10.1648
六十六	-10.1652
若在	-10.1655
巾	-10.1658
六十五	-10.1658
彼此	-10.1663
緣心	-10.1664
烟	-10.1666
舞	-10.1669
不識	-10.1672
為界	-10.1675
豈可	-10.1677
躡前	-10.1685
尅	-10.1688
形像	-10.1691
見有	-10.1702
何處	-10.1702
於一	-10.1705
諸大菩薩	-10.171
不言	-10.1711
付	-10.1715
大空	-10.172
故佛	-10.1725
無餘	-10.1725
作大	-10.1728
野娑嚩	-10.1731
離於	-10.1737
辯才	-10.1737
唯有	-10.1737
授記	-10.1741
貧	-10.1742
人民	-10.1743
部多	-10.1744
五色	-10.1752
沒囉	-10.1756
重重	-10.1759
猛	-10.1768
余	-10.1768
又於	-10.1778
不須	-10.18
六十一	-10.1802
修道	-10.1803
是中	-10.1805
六十八	-10.1811
婁	-10.1826
相分	-10.1827
大仙	-10.183
解結	-10.1833
往昔	-10.1842
緊	-10.1845
業果	-10.1845
破之	-10.1846
詞	-10.1848
當作	-10.1855
為彼	-10.1856
何所	-10.1863
悉能	-10.1864
等事	-10.1865
警	-10.1867
豐	-10.1874
承事	-10.1876
復次阿難	-10.188
寐	-10.1881
所聞	-10.1883
總結	-10.1886
曜	-10.1889
性具	-10.1889
為欲	-10.1901
弱	-10.1901
䭾囉	-10.1906
登伽	-10.1907
騰	-10.1917
所問	-10.1917
能作	-10.192
蘭	-10.1923
以是因緣	-10.1925
毗盧遮那	-10.1936
正念	-10.1959
麁	-10.196
欣	-10.1961
尊重	-10.1961
其類充塞	-10.1965
欲得	-10.1966
而發	-10.1968
無能勝	-10.1969
山河	-10.197
此科	-10.1972
奢摩	-10.1973
於前	-10.1985
之異	-10.1988
唱	-10.1994
我以	-10.1994
早	-10.1999
行相	-10.1999
此二	-10.2003
覺心	-10.2003
每日	-10.2012
陀羅	-10.2012
二俱	-10.2015
漢	-10.2033
前之	-10.2041
所起	-10.2049
香花	-10.2052
當體	-10.2053
處也	-10.2057
稱讚	-10.2059
憾	-10.2061
勇	-10.2064
大涅槃	-10.2064
若復有人	-10.2066
濫	-10.2069
穀	-10.2072
須知	-10.2074
沒䭾	-10.2077
諸行	-10.2077
令我	-10.2077
冀	-10.208
直至	-10.2081
妻	-10.2085
聖性	-10.2091
喇	-10.2101
當用	-10.2102
先以	-10.2103
結印	-10.2105
無實	-10.2106
又曰	-10.2108
賴	-10.2113
既非	-10.2116
六十七	-10.2116
性覺	-10.2119
莫不	-10.212
如如	-10.2124
訥	-10.2131
洞	-10.2135
四指	-10.2138
佛剎	-10.214
凡有	-10.214
即見	-10.2149
勃	-10.215
為性	-10.2151
偶	-10.2153
不息	-10.2158
之妄	-10.2158
生處	-10.216
本空	-10.217
一千八遍	-10.2174
唯心	-10.2174
澡浴	-10.22
如佛	-10.2202
停	-10.2206
鹽	-10.2206
不礙	-10.2212
前來	-10.2216
即空	-10.2217
不在	-10.2217
為真	-10.2219
第八識	-10.2221
以前	-10.2227
正報	-10.2232
二禪	-10.2233
六十九	-10.2239
嚩路枳帝濕嚩	-10.2241
言其	-10.2244
隣	-10.2246
七十一	-10.2246
心無	-10.2251
消除	-10.2255
矩嚕	-10.2262
此義	-10.2263
所以者何	-10.2266
侵	-10.227
動搖	-10.2272
今則	-10.2279
愍	-10.2279
勇猛	-10.2287
嚕抳迦	-10.2288
無障礙	-10.229
八十一	-10.229
之業	-10.2291
肘	-10.2299
妙性	-10.2299
吳興	-10.23
實有	-10.2303
告言	-10.2305
證入	-10.2306
那謨	-10.2312
誓願	-10.2319
七十五	-10.2323
擾	-10.2324
己身	-10.2326
更不	-10.2327
大印	-10.2328
信心	-10.233
不唯	-10.2333
達摩	-10.2335
等法	-10.2337
蓮華部	-10.2338
妙音	-10.234
言說	-10.2343
自證	-10.2343
稽首	-10.2344
恃	-10.2351
呪者	-10.2352
見道	-10.2357
低	-10.2363
能破	-10.2366
空寂	-10.2367
九十二	-10.2369
右邊	-10.2369
客塵	-10.2375
緣生	-10.2379
二約	-10.2383
此亦	-10.2392
即入	-10.2394
手印	-10.2396
二羽	-10.2402
不久	-10.2403
之語	-10.2403
別教	-10.2404
從是	-10.2407
於意云何	-10.2408
不令	-10.2409
噉	-10.2417
即說	-10.2421
詰	-10.2421
略說	-10.2427
無住	-10.2429
不但	-10.2432
是一	-10.2433
較	-10.2436
稟	-10.2437
冷	-10.2438
朗	-10.244
妙圓	-10.2442
一切皆	-10.2445
因心	-10.2447
所持	-10.2462
亂想	-10.2463
作是	-10.2464
丸	-10.2466
而坐	-10.2467
若作聖解	-10.2471
天神	-10.2473
商	-10.2479
麼抳	-10.248
披	-10.2488
七十三	-10.2489
識界	-10.2494
所行	-10.2497
毒藥	-10.2503
請召	-10.2513
屍	-10.2513
諸經	-10.2514
嗢	-10.2514
幻化	-10.2516
舌根	-10.2516
涅	-10.2518
何得	-10.252
為正	-10.2524
出世間	-10.2528
業障	-10.2528
疑惑	-10.2532
所感	-10.2533
正破	-10.2538
非心	-10.2542
全是	-10.2547
法音	-10.2556
在內	-10.2557
𧹞	-10.2558
瞿	-10.2561
大威德	-10.2562
旋轉	-10.2565
元無	-10.2567
之由	-10.2569
於空	-10.257
無名指	-10.2571
實際	-10.2572
㘕	-10.2575
或作	-10.2577
省	-10.2577
校	-10.2578
詐	-10.2585
端嚴	-10.2586
環	-10.2592
法爾	-10.2596
髻	-10.2599
無生滅	-10.26
眠	-10.2601
我見	-10.2603
朝	-10.2605
故說	-10.2614
真修	-10.2618
為大	-10.262
在外	-10.262
可謂	-10.2624
渴	-10.2626
心體	-10.2631
斫	-10.2633
如我	-10.2647
作禮	-10.2648
不實	-10.2651
所觀	-10.266
溺	-10.2661
碎	-10.2661
普賢菩薩	-10.2665
童女	-10.2667
從何	-10.2671
故為	-10.2672
一月	-10.2672
說之	-10.2676
若有人	-10.2676
護念	-10.2679
法執	-10.2686
圍遶	-10.2691
佛母	-10.2692
毘藥	-10.2693
佛之	-10.2699
匿王	-10.2702
齅	-10.2706
三密	-10.2711
開發	-10.2712
有二種	-10.2714
及餘	-10.2714
分段	-10.2715
本然	-10.2718
金剛三摩地	-10.272
竹	-10.2721
琰	-10.2724
杜	-10.2726
密因	-10.2737
大定	-10.2738
佛菩薩	-10.2746
壓	-10.2755
咎	-10.2756
此言	-10.276
心者	-10.2763
無心	-10.2766
功能	-10.2769
周匝	-10.2779
闇	-10.2781
陛	-10.279
速疾	-10.2795
曇	-10.2795
俗諦	-10.2796
三時	-10.2807
饒益	-10.2809
辟支佛	-10.2813
其意	-10.2815
七十六	-10.2817
往來	-10.2821
七十八	-10.2828
入此	-10.283
自覺	-10.283
頑	-10.2831
七十四	-10.2831
踰	-10.2838
汝身	-10.2839
情想	-10.2848
。」【△	-10.2851
人中	-10.2852
麼攞	-10.2855
忍願	-10.2859
併	-10.2861
本具	-10.2861
白衣	-10.2862
雷	-10.2868
如水	-10.2868
必無	-10.2873
嚩日	-10.2874
哀愍	-10.2875
以印	-10.2876
用之	-10.2879
佛語	-10.288
銀	-10.2884
色心	-10.2895
妄執	-10.2897
此處	-10.29
寤	-10.2903
炎	-10.2904
業識	-10.2906
銷滅	-10.2907
上有	-10.2911
以來	-10.2912
為復	-10.2912
若諸眾生	-10.2915
鉢頭	-10.2918
瘡	-10.293
依報	-10.2931
大法	-10.2932
端正	-10.294
增進	-10.2945
得此	-10.2945
怛儞也	-10.2948
皆得成就	-10.2948
憑	-10.2948
左邊	-10.295
洛	-10.2952
三百	-10.2956
方等	-10.2959
見之	-10.296
羊	-10.2961
所為	-10.2965
空有	-10.2967
櫱跢	-10.2968
須彌	-10.2972
又有	-10.2975
指示	-10.2978
不作	-10.2979
若依	-10.298
畫像	-10.2981
之功	-10.2985
值	-10.2986
不可得故	-10.2995
緣塵	-10.2997
為緣	-10.2999
若約	-10.3007
不用	-10.301
辟除	-10.3011
斛	-10.3016
我於	-10.3018
響	-10.3019
七十九	-10.3023
尊勝	-10.3028
降三世	-10.3035
金剛界	-10.3044
諸比丘	-10.3047
水輪	-10.305
不忘	-10.3051
捉	-10.3052
八十四	-10.3053
開敷	-10.3056
阿難白佛言世尊	-10.3058
九十一	-10.3064
而此	-10.3065
問答	-10.3066
勿令	-10.3067
九界	-10.3067
即無	-10.3068
暴	-10.3077
不盡	-10.308
意也	-10.3087
刺	-10.3087
瑠璃	-10.3087
最初方便	-10.3088
次當	-10.3093
拽	-10.3093
嗔	-10.3099
如云	-10.3101
弊	-10.311
我所	-10.3111
輔	-10.3113
刻	-10.3113
人之	-10.3114
因地	-10.3114
陀羅尼門	-10.3117
金銀	-10.3118
諸事	-10.3121
無諸	-10.3124
律儀	-10.3126
火輪	-10.3127
身分	-10.3128
見相	-10.3129
不可以	-10.313
佐	-10.313
病者	-10.3134
所詮	-10.3137
勒	-10.3139
是我	-10.3143
縷	-10.3146
尤	-10.3146
病人	-10.3147
心所	-10.3148
水性	-10.3148
二破	-10.3154
一門	-10.316
無聞	-10.3161
與諸	-10.3165
即說呪曰	-10.3169
一生	-10.3175
顧	-10.3185
誐多	-10.3185
誐囉	-10.3189
金剛拳	-10.3195
緊那羅	-10.3196
猶未	-10.3204
文云	-10.3204
師曰	-10.3209
苕溪云	-10.321
八十八	-10.3211
▁五	-10.3213
心念	-10.3221
皆令	-10.3226
誦此	-10.3236
第一義諦	-10.3242
二法	-10.3254
妬	-10.3256
此為	-10.326
感應	-10.3265
活	-10.3266
乖	-10.3269
成就者	-10.3271
卒	-10.3273
一切事	-10.3274
妄語	-10.3288
喻如	-10.3289
蔽	-10.3296
八十二	-10.3298
條	-10.3302
浮塵	-10.3308
選	-10.332
是見	-10.3321
五處	-10.3322
唵字	-10.3327
執著	-10.3332
香華	-10.3333
曩莫阿	-10.3334
了別	-10.3337
若復	-10.3339
次應	-10.3342
展	-10.3346
誑	-10.336
疎	-10.3361
進修	-10.3363
綿	-10.3364
橛	-10.3367
劒	-10.337
誰為	-10.3375
」「	-10.3379
不隨	-10.3382
一乘	-10.3383
六度	-10.3385
伽羅	-10.3396
鑒	-10.34
三千大千世界	-10.3401
思惑	-10.3406
其實	-10.3407
正定	-10.3412
而不知	-10.3413
梵本	-10.3414
之根	-10.3418
菩提涅槃	-10.3422
即知	-10.3423
縒	-10.3423
寬	-10.3424
散亂	-10.3428
聲聞緣覺	-10.3434
)。(􂨱	-10.3434
真理	-10.3441
壇場	-10.3447
基	-10.3455
與前	-10.3456
弩	-10.3459
跛哩	-10.346
二空	-10.3465
火焰	-10.347
覓	-10.3474
既是	-10.3474
之內	-10.3475
健	-10.3476
密印	-10.3479
依於	-10.348
迷悶	-10.3488
次明	-10.3495
作此印	-10.3496
蹉	-10.3501
此三	-10.3502
。」【〔	-10.3505
無比	-10.3506
支分	-10.3508
故成	-10.3512
本如來藏	-10.3515
煖	-10.3516
又此	-10.3517
暮	-10.3518
梵云	-10.3519
是諸	-10.3523
一味	-10.3527
法眼	-10.3531
凡聖	-10.3531
諸趣	-10.3534
外境	-10.3537
撥	-10.3544
𠼝	-10.3547
無動	-10.3555
追	-10.3556
冠註此	-10.3563
虎𤙖	-10.3563
成就教理	-10.3564
中說	-10.3574
跋折羅	-10.3574
毘盧遮那如來	-10.3575
三毒	-10.3581
螺	-10.3584
鉤召	-10.3595
哥	-10.3597
之曰	-10.3606
當知此	-10.3607
憐愍	-10.3608
三法	-10.3609
帛	-10.3611
得解脫	-10.3613
黑色	-10.3617
空也	-10.3621
是謂	-10.3623
儗	-10.3624
羯囉	-10.3626
相和	-10.3627
同體	-10.3627
稱名	-10.363
塵垢	-10.3633
器界	-10.3636
心印	-10.3639
業報	-10.3639
體也	-10.3639
印契	-10.3644
煩	-10.3645
粉	-10.3646
而實	-10.3647
通塞	-10.3648
春	-10.365
所居	-10.3652
思念	-10.3654
麼底	-10.3661
八十三	-10.3667
童	-10.3669
默然	-10.3672
火燒	-10.3673
祈	-10.3676
受報	-10.3677
此呪心	-10.368
定中	-10.368
今初	-10.3681
氏	-10.3681
伽陀	-10.3681
阿難白佛言	-10.3683
趨	-10.3683
曷	-10.3684
靜慮	-10.3684
便成	-10.3685
所歸	-10.3691
應云	-10.3692
譬喻	-10.3693
意在	-10.3694
諸龍	-10.3695
亦皆	-10.3699
互用	-10.3703
遺失	-10.3703
韈㗚	-10.3705
掌中	-10.3713
階	-10.3714
閼伽	-10.3717
之色	-10.3718
元是	-10.3718
而行	-10.3727
為心	-10.3728
知覺	-10.3732
九十六	-10.3732
二無名指	-10.3737
聖賢	-10.3739
天地	-10.374
遍滿	-10.3743
岐	-10.3743
慈心	-10.3748
社	-10.3748
汝之	-10.3749
此意	-10.375
非為聖證	-10.3753
臭	-10.3769
曩莫三滿多沒馱喃	-10.377
胸	-10.3771
至誠	-10.3777
兩手	-10.3777
之上	-10.3778
先須	-10.3779
上中下	-10.3782
滋	-10.3784
五穀	-10.379
九十五	-10.3794
八十七	-10.3795
五濁	-10.3796
呪力	-10.3797
諾	-10.3798
以彼	-10.3804
彼真言曰	-10.3805
本非因緣	-10.3806
尚未	-10.3809
真言唵	-10.381
宿命	-10.3811
何者是	-10.3812
則此	-10.3813
枯	-10.3816
非同	-10.3822
議	-10.3823
答言	-10.3827
修多羅	-10.3829
方是	-10.3829
何謂	-10.383
尺	-10.3832
終無	-10.3833
能以	-10.3834
翅	-10.3836
圓影	-10.3836
尚無	-10.384
衝	-10.3846
鑑	-10.3846
非自然性	-10.3846
初中	-10.3854
頻	-10.3861
底瑟姹	-10.3861
言此	-10.3862
一名	-10.3865
說也	-10.3869
所有一切	-10.3871
然而	-10.3872
瑞	-10.3877
安慰	-10.3879
繁	-10.388
覺觀	-10.388
不妨	-10.3881
枳孃	-10.3885
化為	-10.3886
誨	-10.3888
本不生	-10.3889
如上所說	-10.3898
無形	-10.3903
多少	-10.3904
講	-10.3907
之義也	-10.3908
喪	-10.3909
似有	-10.3912
正見	-10.3912
得道	-10.3925
一一皆	-10.3929
逈	-10.3929
長壽	-10.3933
故無	-10.3936
八十六	-10.394
懼	-10.3941
握	-10.3942
顯真	-10.3943
伏藏	-10.3949
金輪	-10.3953
具有	-10.3956
深入	-10.3972
天下	-10.3973
泉	-10.3974
墮無間獄	-10.3983
孕	-10.3992
八十五	-10.3994
不行	-10.3995
由前	-10.3995
持金剛	-10.3999
尒	-10.4007
本非	-10.4009
覺悟	-10.4011
􂗩	-10.4012
人身	-10.4019
躡	-10.4021
增上	-10.4022
觀智	-10.4023
梵行	-10.4026
顯其	-10.403
丹	-10.4039
克	-10.4041
矯亂	-10.4049
其性	-10.4049
自見	-10.4053
其餘	-10.4056
汁	-10.4058
知此	-10.406
言教	-10.4064
九十八	-10.4065
三結	-10.4065
護法	-10.4066
不墮	-10.4067
所發	-10.4071
密語	-10.4078
無緣	-10.4079
次於	-10.4082
諸位	-10.4085
俱舍	-10.4089
最為	-10.4093
𦦨	-10.4094
跛野	-10.4101
眾寶	-10.4105
受苦	-10.4105
弗	-10.4111
小兒	-10.4117
初果	-10.4117
樓閣	-10.4117
不食	-10.4118
居士	-10.412
優	-10.4121
八十九	-10.4122
我慢	-10.4123
一往	-10.4123
十五日	-10.4128
恒河沙	-10.4132
明曰	-10.4135
獸	-10.4136
雪	-10.4141
八葉	-10.4141
捧	-10.415
三止	-10.4154
佛地	-10.4156
數量	-10.4165
未破	-10.417
一種	-10.4174
名相	-10.4175
皆能	-10.4179
赴	-10.418
俱嚕	-10.4181
牟尼	-10.4183
所變	-10.4189
既云	-10.4196
九十三	-10.4198
取著	-10.4199
戴	-10.4202
作是念	-10.4204
無所有	-10.4204
債	-10.4207
豈能	-10.4207
四陰	-10.4213
漫	-10.4215
囑	-10.4215
抱	-10.4215
是妄	-10.4218
彈指	-10.4219
處所	-10.4223
因也	-10.4223
無窮	-10.4228
尚不	-10.4231
蘖多	-10.4232
若非	-10.4232
栴檀	-10.4233
教法	-10.4233
依教	-10.4236
我說	-10.4237
不依	-10.4239
已上	-10.4241
震	-10.4242
法輪	-10.4242
黨	-10.4244
吼	-10.4245
滅除	-10.4245
果也	-10.4247
身口意	-10.4254
訖囉	-10.4261
相違	-10.4265
得未曾有	-10.4266
一類	-10.427
喫	-10.4282
床	-10.4283
般若波羅蜜	-10.4285
唯是	-10.4285
庶	-10.4285
振	-10.4289
下云	-10.4293
而來	-10.4294
世出世間	-10.4294
方圓	-10.4294
行也	-10.4294
酪	-10.4294
眾中	-10.4295
合成	-10.4305
作之	-10.4307
地大	-10.4309
迎	-10.431
皆依	-10.4315
釋迦牟尼佛	-10.4316
作意	-10.4318
冩	-10.4323
天竺	-10.4325
之一	-10.4335
亦以	-10.4338
此四	-10.4346
回向	-10.435
頓悟	-10.4353
不待	-10.4356
芥子	-10.4359
覺體	-10.4364
思量	-10.4368
所用	-10.4369
自生	-10.4369
馱囉	-10.4369
不容	-10.4377
抑	-10.4379
心真言	-10.4384
若求	-10.4384
之位	-10.4384
拜	-10.4385
普門	-10.4389
而彼	-10.4396
有體	-10.4397
諸漏	-10.4399
而見	-10.44
定心	-10.4401
見此	-10.4402
於人	-10.441
相交	-10.4417
紙	-10.442
觀門	-10.4422
方可	-10.4423
束	-10.4424
祗	-10.4424
諦聽	-10.4425
陷	-10.4426
缽納麼	-10.4434
不入	-10.4434
亦當	-10.4435
不還	-10.4435
極果	-10.444
得自在	-10.444
寶珠	-10.4445
儒	-10.4453
化生	-10.4454
遵	-10.4456
此翻	-10.446
瞋恚	-10.4461
寸	-10.4465
天帝釋	-10.4469
八部	-10.4475
也又	-10.448
必定	-10.4483
教中	-10.4483
惱亂	-10.4486
脂	-10.4486
珍	-10.4487
復於	-10.4493
心想	-10.4494
誘	-10.4496
不悟	-10.4497
未有	-10.4501
之妙	-10.4503
萬象	-10.4503
有五	-10.451
本體	-10.4521
假使	-10.4533
三義	-10.4538
耳根圓通	-10.4541
鈴	-10.4541
若為	-10.4544
妖	-10.4545
熾	-10.4551
伴	-10.4557
喉	-10.4558
懺	-10.4559
南麼三曼多勃馱喃	-10.4561
辛	-10.4564
作如是	-10.4566
發揮	-10.4567
牒前	-10.4568
佛世尊	-10.4573
企	-10.4579
長行	-10.4589
邪正	-10.459
無疑	-10.4591
莖	-10.4593
屋	-10.4593
孔	-10.4597
馳	-10.4597
予	-10.4598
所因	-10.4599
一切鬼神	-10.4599
施無畏	-10.4604
囉野	-10.4604
意生	-10.4608
阿字門	-10.4608
以左手	-10.461
須彌山	-10.4613
挽	-10.4615
寂照	-10.462
輕重	-10.4621
筆	-10.4621
等者謂	-10.4625
射	-10.4638
三處	-10.4639
雖復	-10.464
淨除	-10.464
能現	-10.4641
諸師	-10.4645
頭相拄	-10.4646
實無	-10.4651
一切處	-10.4651
嘆	-10.4654
羽	-10.4654
寶藏	-10.4657
▁○	-10.4658
為主	-10.4659
怛羅	-10.4661
紅	-10.4663
佩	-10.4663
長水曰	-10.4663
能入	-10.4664
薰	-10.4667
嚩怛他	-10.4668
本非因緣非自然性	-10.467
柳	-10.4671
此以	-10.4672
字輪	-10.4674
假名	-10.4679
九十四	-10.4679
由旬	-10.4682
有學	-10.4686
四重	-10.4686
恣	-10.4687
軌	-10.4688
六種	-10.4689
金剛寶	-10.469
成熟	-10.4691
非但	-10.4692
故非	-10.4693
穿	-10.4695
性也	-10.4695
總是	-10.47
對待	-10.4701
九十七	-10.4702
煎	-10.4704
威光	-10.4708
吹	-10.4713
七處	-10.4713
遲	-10.4714
四生	-10.4716
毘盧遮那佛	-10.4718
或為	-10.4719
即應	-10.4726
訓	-10.4745
引一	-10.4752
佛部	-10.4754
不可說	-10.4754
前三	-10.4756
乃能	-10.4757
十方界	-10.4757
富貴	-10.4763
仙人	-10.4763
八萬劫	-10.477
嚩日哩	-10.4771
類也	-10.4774
頂戴	-10.4774
鳴	-10.4775
右旋	-10.4775
裂	-10.4776
不因	-10.4777
作拳	-10.478
狗	-10.4783
人所	-10.4783
淨水	-10.4785
啟請	-10.4788
贊	-10.4794
大將	-10.4794
快樂	-10.4797
吒野	-10.4802
與我	-10.4802
故於	-10.4807
餘習	-10.4807
一肘	-10.4814
入定	-10.4818
化身	-10.4832
阿鼻	-10.4833
非一	-10.4834
摩頂	-10.4837
三字	-10.4837
標指	-10.4841
身上	-10.4841
非自然	-10.4848
鷄	-10.485
場	-10.4851
㰤	-10.4853
楞伽	-10.4862
佛土	-10.4865
復用	-10.4866
上品	-10.4867
辰	-10.487
利他	-10.4871
薩縛	-10.4872
後文	-10.4874
妙吉祥	-10.4874
呪法	-10.4875
心目	-10.4879
時分	-10.488
器仗	-10.4884
率	-10.4885
四字	-10.4885
穴	-10.4888
阿闍棃	-10.4888
不現	-10.4889
釋成	-10.4891
半月	-10.4892
諸物	-10.4896
摩登伽	-10.4898
皆屬	-10.4899
湛然	-10.4903
須菩提	-10.4909
等相	-10.4912
現量	-10.4914
閻浮提	-10.4915
僧伽	-10.4924
空如來藏	-10.4926
無智	-10.4928
我為	-10.4928
胃	-10.493
留礙	-10.4931
用此	-10.4931
上首	-10.4937
信受	-10.4938
眾多	-10.4939
底曳	-10.4942
經卷	-10.4943
而現	-10.4946
迦哩	-10.4949
從佛	-10.495
惟願	-10.4951
以自	-10.4954
徑	-10.496
彼佛	-10.496
四隅	-10.497
去來	-10.4971
娑囉	-10.4977
生死根本	-10.4978
白佛言世尊	-10.4984
彈	-10.4988
交光	-10.4988
唵阿	-10.499
大慈悲	-10.4992
迷真	-10.4995
命終之後	-10.4996
孽	-10.4999
有三種	-10.5
所覺	-10.5005
永斷	-10.5006
本經	-10.5014
呪之	-10.5019
身命	-10.502
相者	-10.502
智也	-10.5021
我亦	-10.5021
送	-10.5025
菓	-10.5027
印呪	-10.5031
拄	-10.5038
不具	-10.504
常為	-10.504
識精	-10.5044
繼	-10.5047
本因	-10.5056
花鬘	-10.5057
糞	-10.506
佛意	-10.5061
惟一	-10.5061
柴	-10.5062
搖動	-10.5062
燈明	-10.5084
戶	-10.5085
無色界	-10.5089
皆同	-10.5089
保	-10.5091
分位	-10.5095
鳩	-10.5099
其地	-10.5101
古人	-10.5104
資中	-10.5105
江	-10.5106
心上	-10.511
三角	-10.5119
尋常	-10.5122
雞囉夜彌	-10.5135
彌陀	-10.514
如是故有	-10.5142
頸	-10.5144
䛧	-10.5147
如是如是	-10.5151
明之	-10.5153
不惟	-10.5153
論曰	-10.5153
自在天	-10.5155
滅盡	-10.5162
巳得	-10.5167
作如是言	-10.5167
以喻	-10.517
皆成	-10.5173
奧	-10.5173
唅	-10.5174
狐	-10.5176
忙	-10.5177
得其	-10.5179
一經	-10.518
而今	-10.518
婬欲	-10.518
夷	-10.518
吞	-10.5181
智印	-10.5182
撮	-10.5185
跓	-10.52
正脈云	-10.5203
法藏	-10.5207
衛	-10.5213
世諦	-10.5217
如來藏心	-10.5228
雲海	-10.5231
本是	-10.5232
佛道	-10.5238
度生	-10.5238
可畏	-10.5241
變為	-10.5245
此大	-10.5245
既巳	-10.5247
五欲	-10.5251
故感	-10.5251
速證	-10.5253
莎嚩訶	-10.5254
破戒	-10.5257
賜	-10.5258
娑婆訶	-10.5264
證知	-10.5265
與佛	-10.5268
印相	-10.5275
而修	-10.5275
向外	-10.5278
如意寶	-10.5279
性中	-10.5281
三塗	-10.5286
戲	-10.5286
潔	-10.5287
先明	-10.5295
若彼	-10.5298
如說	-10.5299
灾	-10.53
戀	-10.5301
𢈔	-10.5302
繫縛	-10.5304
佛教	-10.5304
聽法	-10.531
漚	-10.5313
作佛	-10.5319
末法	-10.5323
真言加持	-10.5324
丙	-10.5328
心為	-10.5329
藏識	-10.533
憍尸迦	-10.5334
常得	-10.5335
為宗	-10.5338
況復	-10.5342
梵志	-10.5343
汝見	-10.5343
證果	-10.5349
中陰	-10.5356
地瑟恥	-10.5357
耳識	-10.5372
憐	-10.5373
圓光	-10.5373
捨離	-10.5374
本明	-10.5376
或可	-10.5379
海中	-10.538
為其	-10.538
波羅蜜多	-10.5382
四天	-10.539
能斷	-10.5401
壇法	-10.5402
師子座	-10.5404
集會	-10.5406
非空	-10.5409
i	-10.541
而觀	-10.5412
考	-10.5416
三千	-10.5419
何異	-10.542
熾然	-10.5427
不由	-10.5429
丁以反	-10.5438
阿彌陀佛	-10.5449
或用	-10.5454
金剛鉤	-10.5455
偷	-10.5457
更問	-10.5457
形色	-10.5458
岸	-10.5461
不分	-10.5464
一千	-10.5465
根本無明	-10.5466
流注	-10.5467
為之	-10.5469
有二義	-10.547
羯南	-10.547
庾	-10.5472
出於	-10.5472
不有	-10.5474
得無生忍	-10.5477
藝	-10.5477
劫濁	-10.5477
法故	-10.5479
武	-10.5487
仗	-10.5487
不空羂索	-10.5488
刃	-10.5489
㫊暮伽	-10.5489
本無所有	-10.549
冒	-10.5496
三身	-10.5498
召請	-10.5498
喝	-10.551
相叉	-10.5511
明其	-10.5511
同彼	-10.5513
何為	-10.5515
位中	-10.5516
若從	-10.5517
耽	-10.5517
分證	-10.5519
南無婆伽婆帝	-10.5526
軫	-10.5526
持此	-10.5527
排	-10.5527
誦此陀羅尼	-10.553
陀羅尼曰	-10.5533
漸漸	-10.5533
地中	-10.5539
三指	-10.5541
出入息	-10.5543
與汝	-10.5543
包	-10.5543
界外	-10.555
安於	-10.5552
遶	-10.5556
法相	-10.5558
須臾	-10.5558
兄弟	-10.5563
會通	-10.5565
所不能	-10.5568
虫	-10.5568
見見	-10.5573
釋之	-10.5573
廣明	-10.5577
月光	-10.5578
善住	-10.558
無所得	-10.5582
湯	-10.5582
捏	-10.5584
阿難下	-10.5584
猶是	-10.5588
相著	-10.5589
能成就	-10.5589
下文云	-10.5591
章句	-10.5595
遍一切處	-10.5597
證真	-10.5601
逸	-10.5604
麌	-10.5609
僧問	-10.561
行法	-10.561
梅	-10.561
次云	-10.5612
白言	-10.5618
攝心	-10.5619
觀見	-10.562
等皆	-10.562
為義	-10.5625
六入	-10.5626
明相	-10.5626
心開	-10.5629
精氣	-10.5632
織	-10.5632
非謂	-10.5635
心見	-10.5637
佛界	-10.5638
薄伽梵	-10.564
結跏趺坐	-10.5641
竊	-10.5645
淨心	-10.5646
鍾	-10.5648
怨家	-10.5651
一切真言	-10.5651
選擇	-10.5652
侍	-10.5653
作一	-10.5653
祭	-10.5656
哩也	-10.5658
即誦	-10.5659
不能自	-10.566
亦不能	-10.566
字是	-10.5667
三十三天	-10.5668
天衣	-10.5668
五字	-10.5673
方能	-10.5681
結解	-10.5683
之真	-10.5683
償	-10.5685
自相	-10.5685
以諸	-10.569
生佛	-10.5691
成菩提	-10.5704
轉計	-10.5706
諸餘	-10.5706
各別	-10.5711
能觀	-10.5713
而又	-10.5713
難陀	-10.5718
賓	-10.5722
發現	-10.5724
佛前	-10.5727
死後	-10.5731
聞此	-10.5741
能緣	-10.5741
大願	-10.5746
他方	-10.575
不解	-10.5756
有如是	-10.576
雖未	-10.5761
不死	-10.5763
有無量	-10.577
慶喜	-10.5772
產	-10.5773
人也	-10.5775
於佛前	-10.5777
貪愛	-10.578
真淨	-10.5781
雖不	-10.5785
精真	-10.5786
起信	-10.5795
事理	-10.5795
都無	-10.5799
元明	-10.5802
八種	-10.5803
魂	-10.5805
騐	-10.581
資中曰	-10.5816
二處	-10.5827
不名	-10.5828
佛像	-10.583
顯見	-10.5833
五通	-10.5835
寶冠	-10.5836
於外	-10.5844
無所不	-10.5844
教化	-10.5844
倚	-10.5845
勝妙	-10.5848
離欲	-10.5849
二分	-10.5855
未悟	-10.5857
并諸	-10.5859
傾	-10.5859
下句	-10.586
之有	-10.5871
驅	-10.5875
充滿	-10.5877
嬭	-10.5878
大悲心	-10.5879
寶幢	-10.5881
夾	-10.5881
棒	-10.5883
以心	-10.5885
破其	-10.5887
身體	-10.5887
而去	-10.589
化佛	-10.5898
畢竟無體	-10.59
之前	-10.5904
三滿多	-10.5907
應用	-10.5919
十善	-10.5921
形如	-10.5924
無妄	-10.5924
乞叉	-10.5925
瑩	-10.5926
便有	-10.5927
導師	-10.593
)󲊛	-10.5935
惡心	-10.5937
根元	-10.594
依前	-10.5945
設咄嚕	-10.5948
其形	-10.5949
勸請	-10.5949
妙行	-10.5951
前境	-10.5953
惹野	-10.5953
如鏡	-10.5957
闊	-10.5959
法空	-10.5962
四百	-10.5966
直指	-10.5969
遙	-10.5975
日輪	-10.5975
式	-10.5975
自謂	-10.5976
即名	-10.5983
陁羅𡰱	-10.5984
不以	-10.5986
二人	-10.5986
妨	-10.5987
火中	-10.5993
非因緣	-10.5993
天眾	-10.5996
大菩提	-10.6
咩	-10.6003
粳米	-10.6006
十萬遍	-10.6007
住持	-10.6011
令汝	-10.6012
陰陽	-10.6013
取其	-10.6017
準前	-10.6019
所計	-10.6021
不動尊	-10.6023
天帝	-10.6024
三重	-10.6027
孰	-10.603
界內	-10.6033
之要	-10.6033
故先	-10.6035
其名	-10.6036
往生	-10.6036
三世諸佛	-10.6038
掃	-10.6044
餅	-10.6044
扶	-10.6048
火大	-10.605
於如來	-10.6056
教以	-10.6066
所欲	-10.6068
作諸	-10.6074
相生	-10.6075
是經	-10.6075
障難	-10.6076
囉惹	-10.6078
陀那	-10.608
將來	-10.6085
淪	-10.6088
罪障	-10.6092
聚落	-10.6093
雪山	-10.6101
了達	-10.6103
正說	-10.6107
皆可	-10.6107
遂成	-10.6112
能詮	-10.6117
拈	-10.6121
當觀	-10.6122
凶	-10.6123
御	-10.6126
晦	-10.6131
熱惱	-10.6133
左手執	-10.6134
皆名	-10.6135
同居	-10.6137
諸人	-10.6138
聞者	-10.6143
中央	-10.6145
顯密	-10.6147
了無	-10.6148
西門	-10.6151
淨菩提心	-10.6153
富那	-10.6153
此字	-10.6154
所須	-10.6156
位也	-10.6158
密言曰	-10.6159
顯發	-10.6161
斷除	-10.6161
案	-10.6168
薪	-10.6169
頞	-10.6171
剋	-10.6172
囉字	-10.6172
而論	-10.6182
路迦	-10.6183
今欲	-10.6183
大慧	-10.6183
為汝	-10.6187
不被	-10.6188
業相	-10.6189
薩嚩怛他	-10.619
末那	-10.6191
持之	-10.6191
𪘨	-10.6196
句義	-10.6197
違順	-10.6199
墮於	-10.6199
心法	-10.6204
安悉香	-10.6206
所住	-10.6208
為所	-10.621
常在	-10.6213
妙理	-10.6214
意云	-10.6216
三十二應	-10.6216
震動	-10.6218
忽生	-10.6222
名稱	-10.6227
迷惑	-10.6231
此地	-10.6232
如是我聞	-10.6234
威神	-10.6237
鉢訥摩	-10.6239
財物	-10.6239
虞	-10.6239
瞻仰	-10.6241
云何為	-10.6244
謎	-10.6246
一切智智	-10.625
採	-10.6252
栗	-10.6252
從彼	-10.6253
眉	-10.6253
聞聲	-10.6254
敗	-10.6254
閻浮	-10.6255
崇	-10.6256
之緣	-10.6258
剖	-10.6258
南謨	-10.6259
為能	-10.6262
如意珠	-10.6263
天上	-10.6276
理也	-10.6279
亦令	-10.628
無差別	-10.6288
是其	-10.629
華鬘	-10.6292
既盡	-10.6293
是事	-10.6296
處處	-10.6296
位次	-10.6297
根中	-10.6297
縮	-10.6298
府	-10.6299
從心	-10.6302
法喻	-10.6305
閑	-10.6305
皆具	-10.6307
於世間	-10.6313
是汝	-10.6314
斷惑	-10.6335
修禪	-10.6335
弓	-10.6337
心之	-10.6338
故令	-10.6338
缾	-10.6339
有色	-10.634
敕	-10.634
亦須	-10.6343
此計	-10.6344
而未	-10.6346
除一切	-10.6348
金剛藏	-10.635
項	-10.6352
寂滅現前	-10.6353
猶有	-10.6361
縱有	-10.6363
妄明	-10.6364
五指	-10.637
圍	-10.6371
言我	-10.6377
髑髏	-10.6377
離一切	-10.6381
飽	-10.6383
渾	-10.6383
其事	-10.6387
地也	-10.6392
若有善男子善女人	-10.6396
善能	-10.6399
阿難陀	-10.6404
五重	-10.6409
妙樂	-10.6409
之機	-10.641
三有	-10.6412
獨覺	-10.6415
如斯	-10.6422
括	-10.6424
利樂	-10.6425
齋戒	-10.6426
疾病	-10.6429
依止	-10.6432
菩提薩埵	-10.6433
則同	-10.6433
如虛空	-10.644
苦行	-10.6442
宿習	-10.6443
聞佛	-10.6447
眾人	-10.6449
焚	-10.6454
結答	-10.6455
速得成就	-10.6457
一六	-10.6462
計度	-10.6467
若實	-10.6467
啞	-10.6477
根身	-10.6478
即非	-10.6479
入道場	-10.6479
大明王	-10.6484
得生	-10.6488
結顯	-10.649
便得	-10.6492
即真	-10.6497
五行	-10.6497
柔	-10.6502
覺了	-10.6503
憎	-10.6506
聖凡	-10.6506
是無	-10.651
鎮	-10.651
下品	-10.6511
鹿	-10.6511
幸	-10.6511
如我所證	-10.6513
出生死	-10.6515
三漸次	-10.6515
此三昧	-10.6516
無染	-10.6517
穆	-10.6518
中心	-10.6518
法要	-10.6523
住此	-10.6525
目前	-10.653
漏盡	-10.6531
能持	-10.6531
那伽	-10.654
若諸	-10.6541
餘皆	-10.6547
雜亂	-10.655
前文云	-10.6552
隨類	-10.6558
離此	-10.6561
所立	-10.6562
比丘尼	-10.6567
正當	-10.6569
十力	-10.6571
應時	-10.6577
香爐	-10.6578
離一切相	-10.658
纏縛	-10.658
安布	-10.6583
右押左	-10.6585
營	-10.6592
冤家	-10.6593
肥	-10.6595
給	-10.6595
證菩提	-10.6597
下劣	-10.6598
眾生界	-10.66
法則	-10.6601
有邊	-10.6603
五者	-10.6609
將此	-10.6609
污	-10.6611
藏心	-10.6612
不染	-10.6612
諍	-10.6621
既爾	-10.6626
藥叉羅剎	-10.6626
妄識	-10.6629
而證	-10.663
釘	-10.663
種類	-10.6631
初句	-10.6632
駄	-10.6635
無量功德	-10.6635
請問	-10.6635
事也	-10.6636
巘	-10.6638
透	-10.6639
妙明心	-10.6641
罰	-10.6644
巳滅	-10.6645
鼻根	-10.6646
警覺	-10.6647
浪	-10.6648
法合	-10.6649
入聲	-10.6649
之極	-10.6649
金剛智	-10.665
其本	-10.666
所顯	-10.6661
捨心	-10.6665
大覺	-10.6666
如今	-10.6671
不和合	-10.6672
識體	-10.6674
腕	-10.6674
釋曰	-10.668
皇	-10.6682
遊行	-10.6683
鍊	-10.6683
菴	-10.6683
地上	-10.6683
說偈	-10.6684
逾	-10.6684
自利	-10.6691
所云	-10.6693
恒常	-10.6694
之主	-10.6696
屬於	-10.6699
正受	-10.67
為食	-10.6702
旃檀	-10.6702
復為	-10.6703
此由	-10.6704
與此	-10.6706
妙湛	-10.6706
一切世界	-10.6706
又善男子	-10.671
總標	-10.6711
即心	-10.6716
出三界	-10.6718
本部	-10.6722
囉怛那	-10.6726
胎藏	-10.6729
現相	-10.6731
以金剛	-10.6733
俱無	-10.6733
天龍八部	-10.6736
愛敬	-10.6737
曼拏羅中	-10.6743
作壇	-10.6746
之惑	-10.6747
想念	-10.6749
狂走	-10.675
呪心	-10.6751
具云	-10.6753
物象	-10.6756
不無	-10.6757
若知	-10.6762
十二處	-10.6763
之辭	-10.6765
囉怛曩	-10.6769
徧計	-10.6769
猪	-10.6769
誹謗	-10.6771
生住異滅	-10.6775
境也	-10.6779
金剛印	-10.6782
之德	-10.6784
聰明	-10.6786
鬼魅	-10.6787
歷劫	-10.6789
既成	-10.6794
三麼	-10.6794
相即	-10.6797
入流	-10.6803
)􂢈	-10.6805
阿耨多羅三藐三菩提	-10.6808
誐拏	-10.681
永離	-10.6813
不爾	-10.6814
這	-10.6815
籠	-10.6815
四眾	-10.6816
〕〔	-10.6816
金剛縛	-10.682
知識	-10.682
伹	-10.682
是有	-10.6823
決擇	-10.6824
而言之	-10.6828
以示	-10.6829
度眾生	-10.6832
三部	-10.6833
以反	-10.6833
大自在	-10.6835
不能知	-10.6836
發光	-10.6839
神我	-10.684
有生	-10.6843
室中	-10.6845
佛菩提	-10.6847
尾曩	-10.6847
火光	-10.6848
用心	-10.685
脣	-10.6854
所入	-10.6854
榮	-10.6859
偈曰	-10.6859
呈	-10.6861
貧窮	-10.6863
解釋	-10.6863
之謂	-10.6865
娑羅	-10.6866
文義	-10.6866
或時	-10.6869
此事	-10.6873
應念	-10.6874
總名	-10.6876
今謂	-10.6881
我有	-10.6888
運心	-10.6891
儜	-10.6895
十法界	-10.6907
專注	-10.6907
先當	-10.6909
因中	-10.6909
佛陀	-10.6911
流轉國土	-10.6912
定性	-10.6917
欺	-10.6918
𠸪乞义	-10.6918
月輪中	-10.6919
亦即	-10.6919
即差	-10.6929
然彼	-10.6933
分四	-10.6933
初明	-10.6934
師云	-10.6934
請佛	-10.6934
日夜	-10.6935
八方	-10.6936
方所	-10.6937
不說	-10.6938
大千	-10.6941
幖幟	-10.6943
矯	-10.6949
掩	-10.6951
坻	-10.6956
徧十方界	-10.696
不通	-10.6965
所出	-10.6966
正以	-10.6968
可解	-10.6968
恨拏	-10.6976
薩哩斡	-10.6982
名也	-10.699
乏	-10.699
厚	-10.6992
奚	-10.6993
放大光明	-10.6993
沐浴	-10.6994
不肯	-10.6996
絲	-10.6997
專心	-10.6998
見色	-10.6999
二示	-10.7
上句	-10.7
下破	-10.7005
不能見	-10.7007
荅	-10.7007
取捨	-10.7007
稱為	-10.7008
冥諦	-10.7008
本願	-10.7009
等諸	-10.7009
印可	-10.7014
入壇	-10.7017
此說	-10.7018
一劫	-10.7019
眾會	-10.7019
由彼	-10.7021
朱	-10.7025
但能	-10.7026
嚴身	-10.7033
虛空藏	-10.7035
巖	-10.7035
非汝	-10.7039
既得	-10.704
奇特	-10.704
悉皆消滅	-10.7041
牛黃	-10.7041
終不能	-10.7048
道理	-10.7056
一切諸佛菩薩	-10.7057
樹下	-10.7058
此位	-10.7059
以種種	-10.7061
一切煩惱	-10.7069
通名	-10.7071
三相	-10.7079
有聲	-10.708
羝	-10.7081
砂	-10.7082
十二因緣	-10.7087
性明	-10.7089
宗鏡	-10.7094
▁2	-10.7098
見空	-10.7099
非相	-10.7103
之元	-10.7104
熏習	-10.7104
而反	-10.7108
十方佛	-10.7108
午	-10.7108
結示	-10.7112
有想	-10.7113
微屈	-10.7116
離合	-10.7126
蜜㗚	-10.7126
種性	-10.7127
結加趺坐	-10.7127
乳酪	-10.7128
政	-10.7128
)。(􂨲	-10.7137
之報	-10.7144
遷變	-10.7146
吃	-10.7147
窮盡	-10.7151
恭敬供養	-10.7153
手足	-10.7154
此因	-10.7154
五大	-10.7156
精舍	-10.7156
阿那	-10.7156
反聞	-10.7158
前人	-10.7162
利根	-10.7164
天宮	-10.717
推破	-10.717
門中	-10.7173
干	-10.7176
融通	-10.7176
權實	-10.7177
乍	-10.7178
祖曰	-10.7178
枉	-10.7179
勉	-10.7181
輕安	-10.7181
儀則	-10.7182
即從座起頂禮佛足而白佛言	-10.7185
如其	-10.7186
觸塵	-10.7186
毗舍	-10.7189
知者	-10.7189
摩醯首羅	-10.719
之過	-10.7191
性體	-10.7192
巳成	-10.7198
三分	-10.7202
在家	-10.7204
照明	-10.7206
九品	-10.7208
上妙	-10.7211
之一字	-10.7214
嚩哩	-10.7219
爭	-10.7221
炭	-10.7223
薩囉	-10.7224
墨	-10.7224
以無	-10.7231
復生	-10.7233
現世	-10.7238
妄覺	-10.724
𡆆	-10.724
結前	-10.7242
巳盡	-10.7247
種種供養	-10.7251
相現	-10.7255
指前	-10.7255
推之	-10.7257
隨力	-10.7259
有餘	-10.7261
四果	-10.7263
懈怠	-10.7266
醍醐	-10.727
隨彼	-10.7271
謂以	-10.7276
於後	-10.728
但云	-10.7283
五辛	-10.7286
如何是	-10.7287
陰魔	-10.7292
般若波羅蜜多	-10.7292
其像	-10.7293
明白	-10.7294
有四種	-10.7297
麥	-10.7299
之際	-10.7303
面向	-10.7304
薩怛	-10.7305
迷妄	-10.7306
分齊	-10.7306
頂輪王	-10.7308
能滅	-10.7308
想心	-10.731
俱是	-10.7311
塵沙	-10.7314
袈裟	-10.7316
爪	-10.7316
經歷	-10.7317
二月	-10.7317
無聲	-10.7318
□□	-10.7325
圓照	-10.7327
妄念	-10.7328
之分	-10.7333
分為	-10.7334
一面	-10.7336
性故	-10.7336
於法	-10.7338
能發	-10.734
主宰	-10.7344
大日	-10.7345
此理	-10.735
阿難大眾	-10.7356
以有	-10.7357
正觀	-10.7358
綱	-10.7359
鎖	-10.736
舟	-10.7361
了然	-10.7362
四天下	-10.7367
氐	-10.7367
)。(􂨰	-10.737
初標	-10.7371
皆然	-10.7372
識也	-10.7375
不可見	-10.7375
頑空	-10.7386
十行	-10.7386
其處	-10.7387
宛	-10.7389
巴	-10.7393
先後	-10.7394
涅槃云	-10.7394
成辦	-10.7395
色塵	-10.7398
婆伽梵	-10.74
釋迦牟尼	-10.7404
明心	-10.7405
冰	-10.7411
我是	-10.7413
遍身	-10.7417
歸於	-10.7419
之初	-10.7423
食之	-10.7427
起滅	-10.7428
其色	-10.7429
奉請	-10.7432
畫作	-10.7433
七識	-10.7434
二如來	-10.7435
槃	-10.7443
非實	-10.7445
曩野	-10.7446
雜染	-10.7446
得果	-10.7447
見也	-10.7449
檀慧	-10.7454
第二月	-10.7456
檢	-10.7457
捨身	-10.7457
敷座說法	-10.746
所解	-10.7462
胡麻	-10.7463
䭾野	-10.7472
諸妄	-10.7478
學人	-10.7481
悉底	-10.7482
將何	-10.7485
凌	-10.7489
空界	-10.749
非法	-10.7491
生於世間	-10.7492
訟	-10.7492
之疑	-10.7494
大日如來	-10.7495
應有	-10.7496
前二	-10.7496
後二	-10.7499
依他	-10.7499
謂於	-10.7499
遊戲	-10.75
罪業	-10.75
觀者	-10.7502
奏	-10.7502
霜	-10.7503
謹	-10.7504
相見	-10.7504
凡所	-10.7504
範	-10.7506
能於	-10.7506
陰入處界	-10.7507
又非	-10.751
相故	-10.7516
明見	-10.7521
向前	-10.7522
共生	-10.7527
表示	-10.7528
說者	-10.7531
悲愍	-10.7532
通指	-10.7539
合掌恭敬	-10.754
則與	-10.7541
是如來	-10.7542
阿毘	-10.7544
逝	-10.7545
▁六	-10.7547
佛為	-10.7547
福智	-10.7551
起首	-10.7552
填	-10.7553
精勤	-10.7556
六解一亡	-10.7558
由因世界	-10.756
只是	-10.7563
大梵天王	-10.7564
眾生心	-10.7565
能得	-10.7566
殺盜婬	-10.7567
殺害	-10.7571
各以	-10.7574
婦人	-10.7574
阿難當知	-10.7575
莊	-10.7575
取一	-10.7576
安心	-10.7578
前問	-10.7578
是則名為	-10.758
佛問	-10.758
妃	-10.7581
云何名	-10.7582
荷	-10.7586
永不	-10.7586
此與	-10.7591
種種莊嚴	-10.7592
之教	-10.7594
汝應	-10.7598
船	-10.7599
紹	-10.76
雜色	-10.7601
泛	-10.7601
不止	-10.7601
願力	-10.7604
不來	-10.7605
報身	-10.7607
知是	-10.7608
而不能	-10.761
換	-10.7611
身口	-10.7612
阿難及諸大眾	-10.7614
鈔	-10.7614
目連	-10.7616
之空	-10.7618
無量壽	-10.7619
無記	-10.7621
二釋	-10.7622
淨戒	-10.7629
無依	-10.763
萬德	-10.7631
是善男子	-10.7631
見妄	-10.7633
然亦	-10.7633
由心	-10.7634
又三	-10.7636
彌勒菩薩	-10.7639
為他	-10.764
遍照	-10.7642
山曰	-10.7644
出離	-10.7644
同是	-10.7647
閱	-10.7649
西域	-10.765
正徧知	-10.7656
后	-10.7656
塢	-10.7658
諸障	-10.7659
將欲	-10.7661
空處	-10.7667
則見	-10.7673
煩惱障	-10.7673
三十二相	-10.7676
大拇指	-10.7678
戒律	-10.7682
及彼	-10.7683
生時	-10.7691
之知	-10.7691
惡道	-10.7694
9	-10.7696
逃	-10.7698
能覺	-10.7699
此諸	-10.77
總攝	-10.77
是故阿難	-10.7701
印法	-10.7702
勢力	-10.7703
淨妙	-10.7703
豈知	-10.7707
見惑	-10.7708
禁戒	-10.771
屹	-10.7711
二門	-10.7711
皆因	-10.7713
四臂	-10.7718
如來所說	-10.7721
一切惡	-10.7722
金剛王	-10.7722
𡁠	-10.7725
墮落	-10.7727
斷見	-10.7732
如來應正等覺	-10.7732
今說	-10.7732
與之	-10.7733
紛	-10.7734
未嘗	-10.7735
加持故	-10.7736
相貌	-10.774
深心	-10.7741
三摩地中	-10.7743
手把	-10.7744
經論	-10.7745
五體投地	-10.7748
水天	-10.7749
ā	-10.7752
楞	-10.7755
下結	-10.7756
不求	-10.7758
指頭	-10.7759
忉利天	-10.7762
之狀	-10.7765
魘	-10.7765
多囉	-10.7766
數數	-10.7775
仁者	-10.7783
黑暗	-10.7783
如來藏中	-10.7784
軌則	-10.7785
若汝	-10.779
秘	-10.779
狹	-10.779
名大	-10.7791
峰	-10.7794
真際	-10.7796
獲大	-10.7797
解說	-10.7798
相待	-10.7798
又何	-10.7799
能聞	-10.7804
人非人等	-10.7804
真俗	-10.7805
一切諸天	-10.7807
成立	-10.7807
無有異	-10.7808
那羅延天	-10.7816
我今說	-10.7816
復想	-10.782
謂其	-10.7821
退散	-10.7823
怛哩	-10.7826
之形	-10.7827
自恣	-10.783
受此	-10.783
枚	-10.7833
天主	-10.7835
生天	-10.7836
所覆	-10.7837
身識	-10.7837
半加趺坐	-10.784
一切人	-10.784
是等	-10.7841
若論	-10.7843
心即	-10.7843
著新淨衣	-10.7844
資糧	-10.7844
軍荼利	-10.7844
之苦	-10.7849
諸大眾	-10.7856
陳那	-10.786
名義	-10.7861
依之	-10.7862
聖道	-10.7864
醫	-10.7865
不昧	-10.787
坑	-10.7872
經典	-10.7872
瓢	-10.7877
持此呪	-10.7878
皆空	-10.7878
大聖	-10.7882
內院	-10.7883
轉輪王	-10.7883
佛國	-10.7884
快	-10.7884
山中	-10.7886
如下	-10.7886
阿脩羅	-10.7892
刀兵	-10.7893
第六識	-10.7893
訥瑟吒	-10.7894
則曰	-10.7895
雖曰	-10.7896
乞灑	-10.7898
一如	-10.7899
令諸	-10.7899
是大	-10.79
侍者	-10.7903
見於	-10.7904
復入	-10.7906
正示	-10.7907
妙真如性	-10.7909
未甞	-10.7912
耨	-10.7913
惑業	-10.7915
得清淨	-10.7919
殊不知	-10.7924
此土	-10.7925
八萬	-10.7938
􂢈	-10.7942
黏	-10.7942
龜	-10.7944
尚有	-10.7944
圓妙	-10.7946
實性	-10.7947
根身器界	-10.7948
大光明	-10.7952
忘失	-10.7952
皆須	-10.7954
或得	-10.7955
無際	-10.7958
曬	-10.796
是空	-10.7962
閇	-10.7962
狂華	-10.7964
病苦	-10.7965
慎	-10.7968
不許	-10.797
皆無	-10.7974
不退轉	-10.7974
食肉	-10.7975
摩囉	-10.7976
空生	-10.7976
確	-10.7979
耳門	-10.7984
皆如	-10.7984
而知	-10.7985
用也	-10.7985
悉令	-10.7986
答云	-10.7986
」【	-10.7987
欽	-10.7988
王子	-10.7988
突	-10.7989
淨穢	-10.799
亦為	-10.7991
婦	-10.7991
山王	-10.7991
怨敵	-10.7994
舉喻	-10.7994
說呪	-10.7999
末二句	-10.8004
得無	-10.8008
自無	-10.8009
狀如	-10.8011
修三摩地	-10.8012
悉得	-10.8016
證明	-10.8016
結此印	-10.8019
甲冑	-10.8021
天中	-10.8023
剛	-10.8027
所受	-10.8028
諸鬼神	-10.8028
通教	-10.8028
十指	-10.8028
有種種	-10.8029
中夜	-10.8029
空無	-10.803
波囉	-10.8032
達哩	-10.8034
形相	-10.8038
無過	-10.8039
報盡	-10.8041
睡眠	-10.8041
溼	-10.8044
誦七遍	-10.8046
多人	-10.8046
嫌	-10.8047
者如	-10.8047
亢	-10.8052
歇即菩提	-10.8052
大臣	-10.8055
三果	-10.8057
破和合	-10.8062
於一切法	-10.8069
道者	-10.8073
正行	-10.808
即彼	-10.8081
持地	-10.8083
畢竟無	-10.8083
剌	-10.8085
我執	-10.8087
炬	-10.8087
無所依	-10.8088
變現	-10.809
作種種	-10.8091
勘	-10.8094
復能	-10.8097
鈍根	-10.8099
飛行	-10.8099
真言行者	-10.81
迴心	-10.8102
若謂此	-10.8103
)。(○	-10.8104
塵相	-10.8112
不祥	-10.8116
遠近	-10.8117
)􂏖(	-10.8122
八字	-10.8124
誦念	-10.8124
巳知	-10.8125
離念	-10.8129
廣果	-10.8133
巳來	-10.8134
葛哩	-10.8135
如來說	-10.8139
練	-10.8141
右手持	-10.8143
一國	-10.8145
胝	-10.8149
此定	-10.815
方名	-10.8151
理智	-10.8152
應身	-10.8157
人心	-10.816
如金剛	-10.8162
妄習	-10.8163
在此	-10.8169
不成就	-10.817
罪人	-10.8173
為首	-10.8186
桑	-10.8187
諸佛世尊	-10.8187
漿	-10.8191
事相	-10.8192
以見	-10.8194
惟是	-10.8195
之下	-10.8195
汝識	-10.8195
正修	-10.8198
諱	-10.8198
喻之	-10.8199
略舉	-10.8201
行願	-10.8201
所斷	-10.8203
不能為害	-10.8203
肩	-10.8213
紇㗚	-10.8215
不生滅性	-10.8217
雖然	-10.8217
三昧耶印	-10.8224
時有	-10.8225
能除一切	-10.8229
圓常	-10.8232
而求	-10.8232
圓根	-10.8234
見明	-10.8235
男子	-10.8236
無處	-10.8236
席	-10.8239
尾戍	-10.8239
絹	-10.824
入佛知見	-10.824
壇上	-10.8241
隅	-10.8245
生勝解者	-10.8249
肇	-10.825
因明立所	-10.8253
如大	-10.826
阿含	-10.8262
左手持	-10.8262
異也	-10.8263
即性	-10.8264
是故應知	-10.8265
三細	-10.8265
應是	-10.8268
一行	-10.8275
正道	-10.8275
多曳	-10.8275
身如	-10.8281
嚩婆	-10.8281
法用	-10.8283
法王子	-10.8285
瞢	-10.8286
不曾	-10.8288
二指	-10.8292
立名	-10.8293
其光	-10.8299
教令	-10.83
為非	-10.8301
當知是	-10.8304
相拄	-10.8308
金剛手菩薩摩訶薩	-10.8314
不安	-10.8314
為是	-10.8317
下方	-10.832
莫能	-10.8322
人法	-10.833
已後	-10.833
天龍	-10.833
a	-10.8332
自是	-10.8332
休息	-10.8336
頃	-10.8338
發真	-10.834
色法	-10.8341
成無上道	-10.8341
迦樓羅	-10.8341
諸弟子	-10.8342
管	-10.8344
誦三遍	-10.8348
个	-10.8348
令諸眾生	-10.8349
由其	-10.8351
積集	-10.8351
以是義故	-10.8352
流布	-10.8353
對境	-10.8353
後世	-10.8357
鉢底	-10.836
所疑	-10.8363
即是如來	-10.8366
智力	-10.8367
斯經	-10.8369
皆不	-10.8369
密語曰	-10.8371
其上	-10.8372
外院	-10.8376
器中	-10.8376
是物	-10.8379
憶持	-10.8379
未知	-10.838
無遺	-10.8381
頌云	-10.8382
戌	-10.8384
大佛頂如來密因修證了義	-10.8384
不絕	-10.8388
飢	-10.8388
禍	-10.8389
過患	-10.8392
司	-10.8395
既知	-10.8397
浮根四塵	-10.8399
菩薩等	-10.8403
五輪	-10.8403
拔濟	-10.8407
言語	-10.841
領納	-10.8413
如世間	-10.8416
無所見	-10.8417
酥蜜	-10.8417
汝觀	-10.8418
八地	-10.842
東門	-10.8421
達囉	-10.8421
所破	-10.8422
心相	-10.8423
滿馱	-10.8423
染著	-10.8426
燒之	-10.8427
但為	-10.8431
娑曩	-10.8434
大會	-10.8435
惜	-10.8435
金剛合掌	-10.8436
綵	-10.8437
恚	-10.8441
同佛	-10.8444
智論云	-10.8444
各隨	-10.8445
觀其	-10.8446
非人	-10.845
亦不得	-10.845
破無明	-10.8451
1	-10.8453
云何知	-10.8453
無限	-10.846
三初	-10.8461
則於	-10.8467
大劫	-10.8469
斡	-10.8474
香氣	-10.8477
易知	-10.8478
異相	-10.8481
大梵	-10.8482
高下	-10.8482
奉教	-10.8483
卵	-10.8483
真言門	-10.8484
淨行	-10.8484
常隨	-10.8488
哩抳	-10.849
教體	-10.849
度脫	-10.8491
下至	-10.8492
中現	-10.8493
複	-10.8497
謀	-10.8498
為常	-10.85
右膝著地	-10.8501
微笑	-10.8503
於大眾中	-10.8506
俾	-10.8506
真精	-10.8507
設有	-10.851
淨名	-10.8513
孫	-10.8517
諸世間	-10.8519
不空王	-10.852
聖智	-10.8521
執此	-10.8522
惟心	-10.8523
聽聞	-10.853
普照	-10.8534
其文	-10.8534
主人	-10.8535
今為	-10.8538
直心	-10.8542
前五	-10.8542
時節	-10.8544
乃可	-10.8544
循環	-10.8544
陸	-10.8547
賒	-10.855
得大自在	-10.8552
那莫	-10.8553
而不休息	-10.8554
柯	-10.8555
煉	-10.8555
二十五聖	-10.8556
市	-10.8557
次復	-10.8562
優劣	-10.8567
別釋	-10.8568
諸菩薩萬行首楞嚴經	-10.8575
旃陀羅	-10.8575
地前	-10.858
念處	-10.8582
剎利	-10.8583
手中	-10.8583
無等	-10.8585
寅	-10.8587
斷常	-10.8587
賀曩賀曩	-10.8589
不徧	-10.8589
金剛輪	-10.8589
今之	-10.8591
之聲	-10.8591
芻	-10.8593
生死涅槃	-10.8594
星宿	-10.8594
蒲	-10.8599
三科	-10.86
以此為	-10.8601
外物	-10.8603
釋云	-10.8603
等物	-10.8604
一精明	-10.8607
等同	-10.861
初生	-10.8612
隙	-10.8612
亦不可得	-10.8616
名言	-10.8617
生故	-10.8617
其有	-10.8619
而以	-10.8619
鬪	-10.862
五十五位	-10.8622
聞之	-10.8625
如虗空	-10.8626
耀	-10.8634
辣	-10.8636
而為說法令其成就	-10.8637
佛所說	-10.8638
舌識	-10.8639
五智	-10.8643
汝今諦聽	-10.8654
脉	-10.8655
善現	-10.8658
隨方	-10.8658
字為	-10.8659
8	-10.8659
身語意	-10.866
宇	-10.8661
照了	-10.8662
阿僧祇	-10.8664
行門	-10.8667
四性	-10.8668
奈	-10.8669
功力	-10.867
與如來	-10.8676
有八	-10.8677
澤	-10.8678
一相	-10.868
大金剛	-10.8684
則應	-10.8685
娑婆世界	-10.8687
身觸	-10.8687
正因	-10.8689
山林	-10.8689
已來	-10.8693
詳明	-10.8697
酤	-10.8699
虛空藏菩薩	-10.8699
來去	-10.8702
醒	-10.8709
實智	-10.8711
膠	-10.8711
反下同	-10.8711
骨嚕	-10.8712
松	-10.8712
刑	-10.8712
滅之	-10.8713
訛	-10.8714
生識	-10.8715
功夫	-10.8716
候	-10.8718
諦理	-10.8722
入流亡所	-10.8722
如汝所言	-10.8723
以表	-10.8723
先見	-10.8723
今觀	-10.8729
性淨	-10.8731
賀囉	-10.8734
證此	-10.8742
道也	-10.8744
經行	-10.8746
何能	-10.8747
以後	-10.8747
矩嚕矩嚕	-10.8747
帝那	-10.875
然有	-10.8753
義理	-10.8754
無滅	-10.8758
杓	-10.8761
陀囉	-10.8763
顛	-10.8764
眉間	-10.8765
相背	-10.8765
大性	-10.8766
三明	-10.8767
座上	-10.8767
鑛	-10.8768
離相	-10.8769
非和非合	-10.8771
之識	-10.8771
亦言自得無上涅槃	-10.8772
鉢多	-10.8776
而云	-10.8776
電	-10.878
未見	-10.879
相鉤	-10.8792
還復	-10.8797
百億	-10.8797
斷絕	-10.8797
釤	-10.8799
極微	-10.8803
作此法	-10.8804
不屬	-10.8808
復得	-10.8809
行之	-10.881
性本	-10.8811
鮮	-10.8814
團	-10.8814
三事	-10.8816
相捻	-10.8819
一百二十	-10.8822
何也	-10.8822
今復	-10.8825
弄	-10.8825
根本印	-10.8825
爛	-10.8827
過於	-10.8827
大精進	-10.8828
俱空	-10.883
永無	-10.8836
胎生	-10.8838
皆當	-10.8838
巳下	-10.8839
唯願世尊	-10.8844
針	-10.8847
真言行	-10.885
摩尼寶	-10.8857
千歲	-10.8861
從來	-10.8867
於大	-10.8867
誐誐曩	-10.8869
經說	-10.8869
以何為	-10.8871
別明	-10.8871
字義	-10.8872
如理	-10.8876
掘	-10.8876
多有	-10.8877
用前	-10.8883
離塵無體	-10.8883
世尊我	-10.8886
妙德	-10.889
修定	-10.8892
而顯	-10.8893
摧伏	-10.8896
爾時世尊告	-10.8896
盈	-10.8904
除去	-10.8908
額上	-10.8909
唯見	-10.8914
六句	-10.8916
丈	-10.8919
蠱	-10.892
䭾𩕳	-10.8921
役	-10.8921
餉	-10.8922
不如	-10.8922
華嚴云	-10.8928
一塵	-10.8929
即生	-10.8931
鈎	-10.8931
▁|□	-10.8933
為異	-10.8936
徵起	-10.8939
奎	-10.8943
教授	-10.8944
義者	-10.8945
知之	-10.8946
日光	-10.8946
少許	-10.8947
海印云	-10.8947
光照	-10.8947
咸皆	-10.8948
大梵天	-10.8948
無還	-10.8948
上座	-10.8948
提婆	-10.8949
祥	-10.8952
剎土	-10.8954
宣示	-10.8955
卵生	-10.8958
分析	-10.8959
勤修	-10.8969
虛空界	-10.8972
品中	-10.8972
浮根	-10.8974
無想天	-10.8978
音樂	-10.898
但言	-10.8983
皆應	-10.8985
雙非	-10.8985
冬	-10.8986
則不能	-10.8987
淨居天	-10.8987
底野	-10.8987
擎	-10.8989
憾麼	-10.8989
莎嚩	-10.899
庭	-10.899
為翼從	-10.8996
當依	-10.8997
紅色	-10.8998
因有	-10.8998
這一節經世尊	-10.8998
皆言	-10.9005
佛事	-10.9005
不相應	-10.9005
維	-10.9006
真智	-10.9013
乞史	-10.9013
法事	-10.9014
坐道場	-10.9015
暗中	-10.9018
略示	-10.902
想陰盡	-10.9021
四加行	-10.9024
婆囉	-10.9025
又為	-10.9027
一偈	-10.9032
巨	-10.9033
身子	-10.9036
令知	-10.9037
出其	-10.9038
四相	-10.9039
富樓那言	-10.9042
衛護	-10.9043
樂欲	-10.9043
空觀	-10.9052
要知	-10.9053
善心	-10.9056
天也	-10.9058
鬪諍	-10.906
及諸大眾	-10.906
勝解	-10.9061
得菩提	-10.9063
之為	-10.9064
六趣	-10.9064
之喻	-10.9065
資中云	-10.9065
閻	-10.9071
如是阿難	-10.9073
羯哩	-10.9073
為妄	-10.9078
是諸佛	-10.9081
非想	-10.9082
深信	-10.9082
瘧	-10.9083
觀也	-10.9083
如上說	-10.9084
毒蛇	-10.9088
清水	-10.9089
毘舍	-10.909
於身	-10.9091
殃	-10.9093
十二類	-10.9095
一約	-10.9095
其間	-10.9095
十方虗空	-10.9097
措	-10.9098
蒸	-10.9099
商佉	-10.91
達麼	-10.9102
工夫	-10.9102
毘沙門	-10.9103
不也世尊	-10.9109
絕待	-10.9109
自行	-10.911
光中	-10.9113
如文	-10.9115
微塵數	-10.9115
自得	-10.9121
大佛頂如來密因修證了義諸	-10.9122
白月	-10.9124
又二一	-10.9128
勝劣	-10.9129
風大	-10.9129
未證	-10.913
之始	-10.9131
安得	-10.9135
謂從	-10.9136
觀法	-10.9138
蘗	-10.9141
但見	-10.9143
千遍	-10.9146
豈得	-10.9146
地神	-10.9147
毫	-10.9147
幢幡	-10.9147
無端	-10.9151
噁	-10.9151
茅	-10.9152
虛空中	-10.9154
閒	-10.9155
而用	-10.9155
若誦	-10.9163
甚麼	-10.9165
之水	-10.9168
為喻	-10.917
二體	-10.9171
色目	-10.9172
身語心	-10.9172
為涅槃	-10.9172
分為二	-10.9172
洛叉	-10.9173
錢	-10.9177
一境	-10.9177
大輪	-10.918
娜野	-10.918
悉馱	-10.9182
不兼	-10.9185
及一切	-10.9186
慳	-10.9189
櫱底	-10.919
入涅槃	-10.919
正在	-10.9192
流入	-10.9193
鄔	-10.9194
如汝	-10.9196
顏	-10.9197
一切大眾	-10.9198
燃	-10.9198
諭	-10.9199
此非	-10.92
所指	-10.92
身也	-10.9201
所能	-10.9202
工	-10.9206
尾灑	-10.9206
拍	-10.9207
擣	-10.9209
使其	-10.9211
咽	-10.9211
嗅	-10.9212
見相二分	-10.9213
四大天王	-10.9214
滿月	-10.9216
真言印	-10.9219
空大	-10.9222
之氣	-10.9222
為根本	-10.9223
境智	-10.9223
觀世音菩薩摩訶薩	-10.9224
而說偈言	-10.9226
本如來藏妙真如性	-10.9228
因緣故	-10.9228
目佉	-10.9233
阿羅	-10.9233
方為	-10.9235
入其心腑	-10.9237
囉曷	-10.9238
聰	-10.9239
香臭	-10.9241
當有	-10.9243
如來所	-10.9249
三目	-10.9251
隸	-10.9251
澁	-10.9256
窒	-10.9258
〕-【	-10.9259
聞是	-10.9262
義利	-10.9266
服之	-10.9266
異類	-10.9266
若爾	-10.9267
本位	-10.9269
因緣和合	-10.9274
紀	-10.9274
一卷	-10.9275
積聚	-10.9279
秫	-10.9281
囉嚩	-10.9281
災難	-10.9282
涅哩	-10.9284
那羅延	-10.9285
若了	-10.9286
蒙佛	-10.9286
心王	-10.9287
今當	-10.9288
色等	-10.9288
雖云	-10.9291
貪求	-10.9292
尸羅	-10.9294
果位	-10.9296
七種	-10.9296
之覺	-10.9305
前四	-10.9306
若欲成就	-10.9308
徙	-10.931
總明	-10.9317
又法若	-10.9318
十年	-10.9318
惱害	-10.932
天仙	-10.9321
炤	-10.9324
層	-10.9324
訶字	-10.9326
自應	-10.9326
盡其	-10.9326
諸煩惱	-10.9328
捺哩	-10.9328
歟	-10.9328
汦	-10.9328
三七日	-10.9329
之大	-10.933
佛知見	-10.9334
須陀洹	-10.9335
賴耶	-10.9337
供具	-10.9338
奉持	-10.9338
姥	-10.9344
囉迦	-10.9344
變異	-10.9344
二塵	-10.9345
龍女	-10.9348
娑摩	-10.935
上方	-10.9353
不雜	-10.9354
果地	-10.9356
所觸	-10.9365
四王	-10.9365
自此	-10.9368
大寶	-10.937
王如來	-10.937
空故	-10.9372
燒安悉香	-10.9373
本妙	-10.9373
測	-10.9374
替	-10.9375
隨念	-10.9375
大曼拏羅	-10.9375
無量眾生	-10.9378
三名	-10.9378
瞋怒	-10.9378
何物	-10.938
適悅	-10.9381
以一	-10.9382
倪也	-10.9382
修持	-10.9385
寧有方所	-10.9385
唧多	-10.9387
轉依	-10.9387
并諸眷屬	-10.939
應須	-10.9391
有十	-10.9393
▁△	-10.9395
作業	-10.9398
ra	-10.9399
臨終	-10.9401
之明	-10.9406
棄捨	-10.9406
)􂉄(	-10.941
不能害	-10.9411
非我	-10.9413
解孤山曰	-10.9414
惡鬼	-10.9415
梁	-10.9417
外分	-10.9421
𠸪	-10.9421
翻為	-10.9422
𡀔	-10.9423
嚩字	-10.9424
寶光	-10.9426
常行	-10.9428
淨信	-10.9431
聞說	-10.9431
但取	-10.9431
十萬	-10.9432
三七	-10.9433
中品	-10.9434
得證	-10.9435
筏	-10.9435
話	-10.944
摩訶薩埵	-10.944
曠野	-10.944
思之	-10.9451
菩薩真言曰	-10.9453
著地	-10.9453
虧	-10.9453
雖是	-10.9456
來者	-10.9459
得一切	-10.946
身有	-10.9464
一破	-10.9464
大母指	-10.9467
無量劫	-10.9475
佛種	-10.9476
極樂	-10.9476
今於	-10.9477
能與	-10.9478
業力	-10.9478
娑囉娑囉	-10.948
二喻	-10.9481
必不	-10.9483
承佛	-10.9484
初又二一	-10.9485
之法也	-10.9486
之想	-10.9486
皆如來藏	-10.9486
此又	-10.9487
根也	-10.9487
椀	-10.9493
籍	-10.9494
游	-10.9495
脾	-10.9496
誦之	-10.9497
往詣	-10.9499
妄因	-10.9501
諸鬼	-10.9505
大圓鏡智	-10.9505
佛智	-10.9508
十字	-10.9513
如鉤	-10.9515
馬頭	-10.9516
即一切法	-10.9517
牛糞	-10.9517
如前說	-10.9518
見我	-10.9521
不循	-10.9525
谷	-10.9531
既曰	-10.9532
即與	-10.9539
身內	-10.9541
此性	-10.9542
常樂	-10.9543
如是則	-10.9544
僊	-10.9546
菩薩見	-10.9548
險	-10.9548
贍部洲	-10.9548
聞根	-10.9549
必得	-10.9551
此上	-10.9551
於內	-10.9555
雄黃	-10.9556
晦昧	-10.9557
貯	-10.9558
到此	-10.9559
二名	-10.956
有生滅	-10.9561
)。(􂨯	-10.9562
恒河	-10.9563
三天	-10.9566
妙寶	-10.9568
從前	-10.9572
而為上首	-10.9578
釋迦牟尼如來	-10.9578
各具	-10.9582
得安樂	-10.9583
已說	-10.9585
執身	-10.9586
首楞嚴經	-10.9589
為第一	-10.9589
作是言	-10.9589
前說	-10.959
曩麼	-10.959
王言	-10.959
故生	-10.9591
誦一遍	-10.9592
甲上	-10.9592
所知障	-10.9593
外無	-10.9595
何法	-10.9598
之塵	-10.9599
殊妙	-10.96
有諸	-10.9602
埋	-10.9604
舜	-10.9606
二諦	-10.9608
策	-10.9609
為眾生	-10.961
先破	-10.961
止息	-10.961
不修	-10.9611
妄情	-10.9612
瞿曇	-10.9612
右手執	-10.9612
其名曰	-10.9614
放逸	-10.9614
背涅槃城	-10.9615
智光	-10.9615
補註曰	-10.9615
日中	-10.9616
等持	-10.9619
斯義	-10.962
謨伽	-10.962
二肘	-10.9621
大意	-10.9626
之難	-10.9631
迦吒	-10.9633
無憂	-10.9638
為最	-10.9639
解者	-10.9639
法法	-10.9642
我之	-10.9643
而欲	-10.9644
伺	-10.9645
福慧	-10.9646
堅牢	-10.9646
本真	-10.9648
大忿怒	-10.9652
什	-10.9653
圓覺云	-10.9657
始得	-10.9657
魔境	-10.9659
􂏩	-10.9663
諸罪	-10.9669
師子吼	-10.967
百遍	-10.9671
荒	-10.9671
失其	-10.9673
旋復	-10.9673
洎	-10.9674
畢已	-10.9674
㡧	-10.9675
當生	-10.9678
寤寐	-10.9678
悟則無咎	-10.9679
在前	-10.9681
善神	-10.9682
辟支	-10.9683
異熟	-10.9684
意顯	-10.9684
乎此	-10.9685
念珠	-10.9686
根識	-10.9687
既以	-10.9687
外塵	-10.9689
必先	-10.969
若生	-10.9692
妄塵	-10.9693
離垢	-10.9696
寶覺	-10.9706
降魔	-10.9707
皆非	-10.9707
又汝	-10.9707
白檀	-10.9708
生生	-10.9708
合明	-10.9709
曼殊室利	-10.9713
身為	-10.9714
兩頭	-10.9716
涉入	-10.972
明覺	-10.9726
苾芻	-10.9727
當為	-10.9727
插	-10.9729
是呪	-10.9732
滅罪	-10.9734
唐言	-10.9735
持真言者	-10.9738
之子	-10.9742
為名	-10.9746
秪是	-10.9746
妄也	-10.9746
一真法界	-10.9748
因陀羅	-10.975
如是法	-10.9751
無量百千	-10.9752
無差	-10.9754
從緣生	-10.9756
鬼趣	-10.9757
尾囉	-10.9758
四教	-10.9764
友	-10.9765
若干	-10.9767
觀自在菩薩摩訶薩	-10.9768
座主	-10.9768
若常	-10.9775
播捨	-10.9776
三結示	-10.9779
上科	-10.978
中觀	-10.9781
隨業	-10.9781
未聞	-10.9782
引證	-10.9782
厄	-10.9785
攞野	-10.9786
是菩薩	-10.9787
理趣	-10.9787
五眼	-10.9788
臘	-10.9789
修此	-10.979
即自	-10.9793
俱現	-10.9794
從初	-10.9795
如是之人	-10.9798
入三昧	-10.9798
正等覺	-10.9804
此類	-10.9807
二障	-10.9811
聞香	-10.9812
十因	-10.9813
破也	-10.9814
三昧印	-10.9814
執為	-10.9815
因何	-10.9817
當須	-10.9818
先說	-10.9826
一切種智	-10.9828
之流	-10.9834
長生	-10.9834
此一	-10.9838
圓淨	-10.9838
寂光	-10.9839
轉成	-10.9839
六凡	-10.9839
者乎	-10.984
真明	-10.9842
掣	-10.9846
以空	-10.9846
彼岸	-10.9847
三匝	-10.9848
誕	-10.985
二正	-10.9851
氣分	-10.9853
且約	-10.9853
擾亂	-10.9854
妄為明覺	-10.9856
即結	-10.9856
唯除	-10.9857
何者為	-10.986
天等	-10.986
嚴淨	-10.9863
曼陀羅	-10.9863
身印	-10.9864
互融	-10.9864
法印	-10.9869
更加	-10.9869
縛囉	-10.988
不免	-10.988
則名	-10.9881
油麻	-10.9881
入者	-10.9882
今汝	-10.9882
內分	-10.9883
諸菩薩等	-10.9885
育	-10.9885
華果	-10.9885
鑿	-10.9885
枝葉	-10.9887
上云	-10.9888
轉輪	-10.9893
親證	-10.9893
圓證	-10.9896
便能	-10.99
雖在	-10.9901
三月	-10.9905
是即	-10.9906
忌	-10.9909
芽	-10.991
個	-10.9911
皆來	-10.9911
正為	-10.9911
佛以	-10.9913
洪	-10.9913
則彼	-10.9913
矚	-10.9913
能變	-10.9914
誦大明	-10.9918
命濁	-10.9919
唯以	-10.9925
本末	-10.993
婆夜	-10.9931
能轉	-10.9931
明鏡	-10.9932
盡無餘	-10.9933
四空	-10.9934
緣影	-10.9936
一大	-10.9937
故下	-10.9939
摩登	-10.9939
花香	-10.9941
諸善男子	-10.9942
次作	-10.9947
與其	-10.9948
餘根	-10.9949
一定	-10.9949
相成	-10.9951
慧命	-10.9952
住在	-10.9954
三種相續	-10.996
步多	-10.9962
離見	-10.9962
若聞	-10.9963
未必	-10.9964
相狀	-10.9965
忍辱	-10.9965
跢姪他	-10.9965
痴	-10.997
照耀	-10.9972
此問	-10.9973
發於	-10.9973
圓滿菩提	-10.9978
妙色	-10.9979
是人罪畢	-10.9982
祖師	-10.9984
言音	-10.9985
力用	-10.9987
嚕拏	-10.9989
限量	-10.999
於像前	-10.9993
佛名	-10.9995
故稱為	-10.9997
焚燒	-10.9997
領悟	-10.9999
慈氏	-11.0002
結集	-11.0003
又若	-11.0006
白檀香	-11.0013
願我	-11.0013
兮	-11.0016
明知	-11.0018
潛根	-11.002
之光	-11.002
此結	-11.0021
玅明	-11.0021
為空	-11.0024
次想	-11.0026
d	-11.0026
貞	-11.003
轉大法輪	-11.003
破妄	-11.0031
摸	-11.0032
妄本	-11.0035
常寂	-11.0037
所有眾生	-11.0041
六波羅蜜	-11.0043
同名	-11.0043
印呪曰	-11.0046
即離	-11.0048
踏	-11.0049
辟	-11.0052
夭	-11.0053
在心	-11.0054
可也	-11.0056
一切罪障	-11.0057
為拳	-11.0059
八大	-11.0059
翻譯	-11.0061
苦海	-11.0062
如實知	-11.0063
清涼云	-11.0066
成印	-11.0066
不共	-11.0067
世界眾生	-11.0068
自性清淨	-11.007
即如	-11.0071
聖果	-11.0073
海會	-11.0076
儞哩	-11.0079
激	-11.0079
貪著	-11.0082
藏教	-11.0082
部主	-11.0083
娑訶	-11.0089
自說	-11.0091
慚愧	-11.0091
何因	-11.0092
吽發吒	-11.0095
質多	-11.0096
以佛	-11.0097
墮地獄	-11.0098
畢竟空	-11.0098
僧祇	-11.0099
瓦	-11.01
皆云	-11.01
股	-11.0101
二別	-11.0102
鼻識	-11.0113
開顯	-11.0118
殺盜	-11.0119
瑟拏	-11.0122
四義	-11.0126
此三種	-11.0126
或是	-11.0127
徧十方	-11.013
呪術	-11.0131
粥	-11.0137
埵	-11.0139
祿	-11.0143
肉眼	-11.015
勢至	-11.0151
祇陀林	-11.0151
其手印相	-11.0152
搏	-11.0152
刀杖	-11.0152
付囑	-11.0153
尾捨	-11.0153
淵	-11.0154
優婆塞	-11.0155
寔	-11.0155
醉	-11.0155
應畫	-11.0156
迫	-11.0157
納婆	-11.0157
區宇	-11.0157
費	-11.0158
􂉗	-11.0159
如第二月	-11.016
誐嚩底	-11.016
大智慧	-11.0162
妙覺明	-11.0163
惡魔	-11.0164
真際曰	-11.0166
由我	-11.0167
三面	-11.0167
長養	-11.0169
結名	-11.0169
三摩曳	-11.017
熱病	-11.017
娑頗	-11.0171
以二大指	-11.0173
全無	-11.0176
則以	-11.0178
嬈	-11.0179
又法取	-11.0181
大陀羅尼	-11.0182
之眾	-11.0186
金剛心	-11.0188
利生	-11.019
初二句	-11.0193
覩嚕覩嚕	-11.0195
▁唵	-11.0198
心心	-11.0199
大蓮華	-11.0201
十四日	-11.0203
愍念	-11.0205
珂	-11.0205
若患	-11.0206
鉢娜麼	-11.021
由斯	-11.021
文殊師利菩薩	-11.021
此指	-11.0212
種種色	-11.0216
俟	-11.0218
成大	-11.0218
妄認	-11.0218
應如是	-11.0218
而為供養	-11.0219
魄	-11.0219
入圓通	-11.0221
綰	-11.0222
驅使	-11.0223
崖	-11.0223
夜叉羅剎	-11.0225
人者	-11.0226
善男子善女人	-11.0226
銷殞	-11.0228
未曾有	-11.0229
文句	-11.023
為諸	-11.0231
娜麼	-11.0232
靡不	-11.0234
質礙	-11.0235
即現	-11.0236
此句	-11.0239
那律	-11.0239
之深	-11.024
雖無	-11.024
今者	-11.0241
起於	-11.0243
實義	-11.0245
虗明	-11.0245
亦成	-11.0246
為果	-11.0248
所對	-11.025
八百	-11.025
俱舍云	-11.0251
呪一百八遍	-11.0252
囉婆	-11.0252
之別	-11.0253
相去	-11.0255
誐挽	-11.0258
先世	-11.0259
妄境	-11.0259
此見精	-11.026
若果	-11.0264
無所著	-11.0264
圓修	-11.0265
亦不可	-11.0267
別示	-11.0268
龍樹	-11.0271
善知	-11.0271
不落	-11.0272
眾苦	-11.0274
眾德	-11.0275
傘蓋	-11.0275
揑	-11.0277
瞪	-11.0278
兆	-11.0279
鄉	-11.028
之路	-11.0281
秉	-11.0283
呪七遍	-11.0283
知味	-11.0284
櫱帝	-11.0285
又問	-11.029
為作	-11.0292
嚩囉拏	-11.0293
為生	-11.0295
常當	-11.0296
種智	-11.0296
器世間	-11.03
云何名為	-11.0302
護世	-11.0305
堅執	-11.0305
一切佛法	-11.0306
含藏	-11.0307
為業	-11.0308
百寶	-11.0313
當知是人	-11.0313
各各有	-11.0313
神鬼	-11.0316
通用	-11.0319
研窮	-11.0321
三途	-11.0322
奉行	-11.0325
仡哩	-11.0325
心住	-11.0327
手掌	-11.0328
故我	-11.033
邑	-11.033
如針	-11.0331
玅覺	-11.0332
闥	-11.0333
所示	-11.0333
職	-11.0334
覺觸	-11.0334
六者	-11.0336
崩	-11.0339
梟	-11.034
恬	-11.0341
群生	-11.0342
隆	-11.0342
漂	-11.0342
生歡喜	-11.0343
淪溺	-11.0344
融室云	-11.0344
無二無別	-11.0345
救度	-11.0347
大用	-11.0348
未明	-11.0349
常說	-11.0349
又取	-11.0353
不正	-11.0353
當下	-11.0358
返觀	-11.0358
思議	-11.0359
非明	-11.0362
妄謂	-11.0364
而常	-11.0366
然其	-11.0367
三摩野	-11.037
以一切	-11.0374
遍法界	-11.0376
牒上	-11.038
天趣	-11.0381
識大	-11.0387
𠺁	-11.0392
心光	-11.0399
苾	-11.04
輻	-11.04
㫊	-11.0401
者由	-11.0401
即名為	-11.0402
輙	-11.0402
命根	-11.0402
叱	-11.0402
裹	-11.0403
兄	-11.0405
切身	-11.0408
囉他	-11.0411
三曼多	-11.0411
我聞	-11.0416
于時	-11.0417
難得	-11.0418
以能	-11.0419
十心	-11.0427
世間一切	-11.043
所著	-11.0432
結歸	-11.0434
遠行	-11.0435
五品	-11.0436
次下	-11.0439
歸元	-11.0442
片	-11.0445
云何得	-11.0445
日用	-11.0447
進退	-11.0447
或自	-11.0447
唐云	-11.0447
呪水	-11.0453
亦隨	-11.0454
即時如來	-11.0456
親見	-11.0456
供養佛	-11.046
腫	-11.0461
身境	-11.0463
戟	-11.0464
淨居	-11.0468
驢	-11.0468
問言	-11.0469
u	-11.047
菩薩眾	-11.047
忿	-11.0471
又善男子窮諸行空	-11.0471
作麼生	-11.0471
千里	-11.0472
福田	-11.0472
成其伴侶	-11.0474
禮佛	-11.0476
何關汝入	-11.0476
與人	-11.0477
正遍知	-11.0479
猛利	-11.048
舉一	-11.048
雖得	-11.0481
幽暗	-11.0482
菩提之心	-11.0484
又言	-11.0485
超出	-11.0489
始於	-11.0492
疑也	-11.0493
果德	-11.0495
當取	-11.0496
之體也	-11.0497
熏修	-11.0498
目契	-11.0502
此顯	-11.0508
徧滿	-11.0508
受教	-11.0508
一性	-11.0509
合離	-11.0511
滿怛囉	-11.0511
者是也	-11.0511
恭	-11.0513
隨機	-11.0514
暗室	-11.0515
家之	-11.0516
曾無	-11.0518
古今	-11.0518
誠心	-11.0519
圓理	-11.052
結云	-11.052
得除滅	-11.052
當令	-11.0523
故下文云	-11.0526
出過	-11.0527
戒也	-11.0527
金剛法	-11.0527
妄有	-11.053
善業	-11.053
嘉	-11.053
當自	-11.053
六種震動	-11.053
故以為名	-11.0532
效	-11.0533
傳法	-11.0533
法生	-11.0533
鋒	-11.0533
等無差別	-11.0534
筋	-11.0535
正智	-11.0535
十四無畏	-11.0535
善友	-11.0536
研究	-11.0538
勑	-11.0538
指出	-11.054
為一切眾生	-11.054
入掌	-11.0544
食時	-11.0545
金剛菩薩	-11.0545
若使	-11.0547
人皆	-11.0547
文四	-11.055
s	-11.0551
承前	-11.0552
乃以	-11.0558
如一	-11.0559
應供	-11.056
徧圓	-11.056
八臂	-11.0561
通別	-11.0562
神王	-11.0562
能摧	-11.0563
無實體	-11.0565
功行	-11.0566
性德	-11.0566
不停	-11.0569
作者	-11.0569
根塵識三	-11.057
心外	-11.0571
稱性	-11.0572
賤	-11.0574
其數	-11.058
悅意	-11.0582
先作	-11.0583
心行	-11.0584
正釋	-11.0584
心陁羅尼	-11.0586
迦嚕	-11.0588
無對	-11.059
瑜	-11.0591
景	-11.0592
五戒	-11.0592
憍	-11.0592
整	-11.0594
京	-11.0595
躭	-11.0596
自作	-11.0597
江河	-11.0597
彼時	-11.0598
二阿難下	-11.0598
因之	-11.0598
津	-11.0599
解脫門	-11.0599
諂	-11.0599
得勝	-11.0599
封	-11.06
惑菩提性	-11.06
俱時	-11.06
緒	-11.0601
非時	-11.0601
酸	-11.0603
緫	-11.0603
又彼定中諸善男子	-11.0603
兩邊	-11.0608
責其	-11.0616
見彼	-11.0618
此界	-11.0619
禮敬	-11.0627
有頂	-11.0627
了不可得	-11.0627
高聲	-11.0638
水大	-11.0642
真珠	-11.0647
五逆	-11.0651
如世	-11.0654
色陰盡	-11.0657
先於	-11.0658
施與	-11.0659
五月	-11.0659
》	-11.066
輒	-11.066
實報	-11.0662
作用	-11.0662
正如	-11.0664
多羅菩薩	-11.0665
妄緣	-11.0666
斬	-11.0666
曼拏羅印三昧耶	-11.0666
置之	-11.0667
可說	-11.0668
若據	-11.0669
現形	-11.0675
非色	-11.0677
但由	-11.0678
迦字	-11.0681
諸有為相	-11.0681
相涉	-11.0682
此佛所說	-11.0685
現證	-11.0686
莎賀	-11.0687
神仙	-11.0688
無病	-11.0688
室囉	-11.069
癹吒	-11.069
福聚	-11.0692
下釋	-11.0692
廣破	-11.0692
心眼	-11.0693
五句	-11.0694
除障	-11.0694
三如來藏	-11.0695
牆	-11.0695
總示	-11.0696
妻子	-11.0696
為有	-11.0697
大德	-11.07
𠯆	-11.0702
又不	-11.0705
前印	-11.0706
仰掌	-11.0707
者皆	-11.0707
微密	-11.0707
不堪	-11.0708
今何	-11.0713
見物	-11.0718
母捺囉	-11.0719
於壇	-11.0722
欝	-11.0725
肯	-11.0727
三惑	-11.0727
貪瞋癡	-11.0728
挍	-11.0729
又能	-11.0729
肝	-11.0729
識精元明	-11.073
徃	-11.0734
印真言	-11.0738
勃陀	-11.0745
爍	-11.0759
顯然	-11.0762
其類	-11.0763
祐	-11.0764
中作	-11.0764
百千萬億	-11.0765
劫數	-11.0768
因由	-11.0768
之問	-11.077
世界中	-11.0772
法華云	-11.0777
韈	-11.0777
能觸	-11.0777
颯	-11.0778
義同	-11.0779
能說	-11.0784
深密	-11.0785
真月	-11.0786
穌	-11.0786
身外	-11.0787
燄	-11.0788
佛法僧	-11.079
當念	-11.079
奉送	-11.0791
智度	-11.0791
窺	-11.0795
入空	-11.0796
貝	-11.0797
有分別	-11.0799
一切事業	-11.08
隨處	-11.0802
大妄語	-11.0802
一千遍	-11.0805
化成	-11.0805
或現	-11.0807
那野	-11.081
南門	-11.0814
大神通	-11.0818
淨治	-11.0818
當處	-11.0821
求其	-11.0822
極惡	-11.0823
何名	-11.0826
違越	-11.0829
普通	-11.083
釋者	-11.0831
姹	-11.0831
四肘	-11.0831
汝言	-11.0831
呼召	-11.0833
自當	-11.0836
惟識	-11.0837
更說	-11.0838
所招	-11.084
皆大歡喜	-11.0841
所由	-11.0842
久住	-11.0848
梵字	-11.0848
悶	-11.0849
百千俱胝	-11.0854
旱	-11.0854
絡	-11.0855
匠	-11.0856
馱野	-11.0857
意欲	-11.0858
囇	-11.0858
嗣	-11.0859
降臨	-11.0859
妙智	-11.086
作印	-11.0861
何必	-11.0861
t	-11.0861
城中	-11.0861
粘	-11.0862
初發心	-11.0863
阿迦	-11.0866
羅睺	-11.0867
毘羅	-11.0871
施主	-11.0871
準提	-11.0871
施食	-11.0879
逆流	-11.088
六時	-11.0881
我即	-11.0886
邪思	-11.0888
他心	-11.0891
方成	-11.0893
雖殊	-11.0894
復作	-11.0894
四攝	-11.0895
利益眾生	-11.0895
分真	-11.0896
方位	-11.0897
難可	-11.0899
修治	-11.0904
千二百	-11.0905
問此	-11.0908
依舊	-11.0911
之源	-11.0912
山頂	-11.0914
所悟	-11.0916
燥	-11.0919
▁三結	-11.092
故又	-11.0921
知有	-11.0923
遍一切	-11.0923
其壇	-11.0923
闡	-11.0924
楚	-11.0924
篇	-11.0926
渾濁	-11.0927
何等為	-11.0928
3	-11.0928
由此計度	-11.0928
而下	-11.0929
捐	-11.093
即用	-11.0931
阿鉢囉	-11.0931
獲益	-11.0932
明呪	-11.0933
妄起	-11.0933
同聲	-11.0934
勝義根	-11.0934
當從淪墜	-11.0935
成形	-11.0936
八難	-11.094
童真	-11.094
妄相	-11.094
一切菩薩摩訶薩	-11.0941
即以此	-11.0943
正指	-11.0944
道路	-11.0945
煩惱濁	-11.0951
諸佛所	-11.0952
一物	-11.0953
主空	-11.0953
方知	-11.0954
異名	-11.0954
永滅	-11.0957
實法	-11.096
利養	-11.0961
虜	-11.0963
准上	-11.0964
隨其所	-11.0964
總相	-11.0967
十方一切諸佛	-11.0968
怛姪他	-11.0971
受陰盡	-11.0972
諸緣	-11.0973
百字	-11.0975
孔雀	-11.0979
三陰	-11.0981
必當	-11.0981
二風	-11.0985
r	-11.0986
希求	-11.0988
隨有	-11.0992
臨命終時	-11.0993
宣揚	-11.0993
緩	-11.0994
剩	-11.0995
閣	-11.0995
足下	-11.0996
以此印	-11.0996
次誦	-11.0997
不勞	-11.1
麼囉	-11.1
簸	-11.1002
六天	-11.1002
喜樂	-11.1007
增減	-11.1007
難思	-11.1009
清潔	-11.1016
麤細	-11.1017
解除	-11.1017
各自	-11.102
三處都無	-11.1021
法教	-11.1024
令眾生	-11.1025
猶存	-11.1025
天妙	-11.1027
諸部	-11.103
頭痛	-11.1031
結護	-11.1034
化他	-11.1034
既能	-11.1036
不宜	-11.1039
瑟抳	-11.1039
乘此	-11.104
品云	-11.1041
會解	-11.1043
精研	-11.1044
本所	-11.1047
惡夢	-11.1048
能造	-11.1048
開解	-11.1049
本源	-11.1049
競	-11.105
肉身	-11.105
一切成就	-11.1052
理體	-11.1052
內有	-11.1054
見是	-11.1055
)。「	-11.1056
破云	-11.1057
函	-11.1058
瓦礫	-11.1058
操	-11.106
膚	-11.1061
意樂	-11.1062
暢	-11.1063
嚼	-11.1064
撥無因果	-11.1065
長短	-11.1068
我從	-11.107
六根互用	-11.107
)􂛶	-11.1071
二手合掌	-11.1071
巳滅生滅	-11.1072
左曩	-11.1074
五部	-11.1076
故經云	-11.1076
六根清淨	-11.1083
助道	-11.1084
為證	-11.1085
次第而	-11.1088
無是見	-11.1092
謂彼	-11.1092
本無生滅	-11.1093
亦作	-11.1094
之樂	-11.1094
猶在	-11.1095
性真	-11.1095
離苦	-11.1097
賛捺	-11.1099
㡧像	-11.1101
台	-11.1101
十卷	-11.1102
灑淨	-11.1103
圓湛	-11.1103
紇	-11.1106
遂有	-11.1106
倫次	-11.1109
與眾生	-11.1109
徧法界	-11.1111
)【	-11.1111
三障	-11.1112
鄧	-11.1119
濕吠	-11.112
鏡中	-11.112
迦葉波	-11.1124
於他	-11.1125
4	-11.1127
苗稼	-11.1127
從緣	-11.1127
上畫	-11.113
潔淨	-11.1133
不遭邪慮	-11.1133
艾	-11.1136
祕密法	-11.1139
真我	-11.1141
想自身	-11.1145
四卷	-11.1147
魔軍	-11.115
唯佛	-11.1152
􂏖(	-11.1153
不亂	-11.1154
那由他	-11.1156
次二句	-11.1158
取證	-11.1159
末劫	-11.116
奢摩他中	-11.1161
得阿羅漢	-11.1161
燭	-11.1163
彼彼	-11.1164
蘇悉地	-11.1165
甜	-11.1167
無量光	-11.1168
陀羅尼真言	-11.117
反觀	-11.1174
眾聖	-11.1176
次句	-11.118
眾緣	-11.1181
身入	-11.1183
忿怒明王	-11.1185
陀羅尼呪	-11.1185
界道	-11.1187
壯	-11.1189
真金	-11.1191
佛乘	-11.1192
了了	-11.1192
盞	-11.1193
見濁	-11.1193
鐸	-11.1194
嫉妬	-11.1195
寢	-11.1196
洒	-11.1196
屹哩	-11.1197
眼中	-11.1197
所具	-11.1197
嚩路	-11.1198
相織妄成	-11.1198
或言	-11.1198
絞	-11.12
溫	-11.1201
若我	-11.1202
羅婆	-11.1202
其時	-11.1202
玩	-11.1204
象馬	-11.1205
之罪	-11.1207
陀羅尼法	-11.1207
不足	-11.1211
具足萬行	-11.1216
於掌中	-11.1217
青蓮華	-11.1225
審詳	-11.1226
廣大供養	-11.1228
三破	-11.1228
但於	-11.1229
無失	-11.1229
觀成	-11.1229
捨麼	-11.1233
究竟堅固	-11.1234
隣虗	-11.1235
六臂	-11.1235
受戒	-11.1236
四科	-11.124
且如	-11.124
於生死	-11.124
雖則	-11.124
要須	-11.1241
即佛	-11.1241
婦女	-11.1242
如是說	-11.1246
例知	-11.1246
則無所	-11.1246
受其	-11.1246
能令眾生	-11.125
寶王	-11.1251
妙香	-11.1251
本根	-11.1255
然以	-11.1257
嚩曩	-11.1258
濘	-11.1259
毒氣	-11.1262
淚	-11.1262
菩提樹	-11.1262
歌詠	-11.1262
生身	-11.1262
求佛	-11.1264
添	-11.1265
悟得	-11.1265
蓮花部	-11.1265
姑	-11.1266
廟	-11.1267
]	-11.1267
亦兼	-11.1267
直下	-11.127
破妄心	-11.1272
失於正受	-11.1275
三輪	-11.1275
由汝	-11.1279
根塵識	-11.1279
善逝	-11.1281
明淨	-11.1289
無念	-11.129
示其	-11.1292
金剛密迹	-11.1295
蓋以	-11.1296
湛圓	-11.1296
共成	-11.1297
白蓮華	-11.1298
魔業	-11.1299
而何	-11.1307
未至	-11.1308
從空	-11.1309
奢摩他路	-11.1309
或在	-11.1311
未出	-11.1311
從一	-11.1312
彼善男子	-11.1314
亦於	-11.1315
布惹	-11.1316
方法	-11.1316
滅則	-11.1316
喚作	-11.1317
無上道	-11.1317
底迦	-11.132
亦空	-11.1322
正宗	-11.1324
具說	-11.1326
乃為	-11.1328
色受想	-11.1333
攝伏	-11.1333
次畫	-11.1334
能證	-11.1335
初總	-11.1336
三摩地門	-11.1336
不違	-11.1336
厭離	-11.1338
厥	-11.1339
是故十方一切如來	-11.1339
徧知	-11.1339
魔不得便	-11.1339
在身	-11.1339
一事	-11.1342
奇哉	-11.1343
五佛	-11.1344
本元	-11.1347
難陀龍王	-11.1347
如海	-11.135
揀擇	-11.1353
性者	-11.1354
瀑流	-11.1357
此五	-11.1357
末句	-11.136
唯此	-11.1361
一段	-11.1362
北門	-11.1363
昴	-11.1364
而如來藏	-11.1366
緣塵分別	-11.1367
及諸菩薩	-11.1368
違背	-11.1369
忿怒王	-11.1373
之數	-11.1376
智照	-11.1377
降雨	-11.138
意言	-11.138
掌內	-11.1384
經言	-11.1388
愛念	-11.1392
軟	-11.1392
如本	-11.1392
中云	-11.1394
忿怒相	-11.1395
毗陀夜闍瞋陀夜彌	-11.1395
此法門	-11.1398
百歲	-11.1398
渡	-11.1399
則生	-11.1399
言無	-11.14
撰	-11.1401
壇內	-11.1402
㧊	-11.1402
攻	-11.1404
婢	-11.1405
慇懃	-11.1407
鄙	-11.1407
失於正受當從淪墜	-11.1409
夢見	-11.1412
有六	-11.1413
因迷	-11.1414
欲說	-11.1415
阿僧祇劫	-11.1416
眾生故	-11.1416
爾時如來	-11.1416
妙淨	-11.1417
當時	-11.1418
自成	-11.1419
心佛	-11.142
變起	-11.1421
諸聖眾	-11.1422
囉尼	-11.1423
非物	-11.1424
為火	-11.1425
垂手	-11.1425
梁言	-11.1426
大阿羅漢	-11.1426
內相叉	-11.1427
即今	-11.1432
聞已	-11.1437
間斷	-11.1438
彼之	-11.144
菩薩言	-11.1442
晨朝	-11.1446
夜弭	-11.1446
即如來藏	-11.1447
曩莫塞訖	-11.145
能依	-11.1451
不別	-11.1456
為利	-11.1459
五住	-11.1462
那羅	-11.1463
明性	-11.1465
嚩日羅	-11.1465
之所以	-11.1468
有形	-11.147
吾今	-11.147
面前	-11.1471
彼處	-11.1471
空相	-11.1472
生死相續	-11.1474
恁麼	-11.1475
遽	-11.1476
藥叉大將	-11.1477
勞相	-11.1478
富單那	-11.1478
得少為足	-11.148
鑄	-11.1482
􂏖	-11.1482
同是菩提瞪發勞相	-11.1482
不變隨緣	-11.1484
輕呼	-11.1485
八百遍	-11.1486
得其便	-11.1493
我法	-11.1494
而於	-11.1495
色究竟天	-11.1495
是因	-11.1497
問云	-11.1499
三藐三	-11.1503
作何	-11.1503
一切功德	-11.1504
麼帝	-11.1507
不能得	-11.1507
阿閦	-11.151
攝持	-11.1519
土木	-11.152
面東	-11.1521
藥叉女	-11.1528
聖教	-11.1529
性海	-11.1531
具德	-11.1531
木佉跛哩嚩	-11.1533
十句	-11.1533
分之	-11.1535
流逸	-11.1539
般涅槃	-11.154
夜叉女	-11.154
竿	-11.1541
伽藍	-11.1543
寶山	-11.1544
為令	-11.1544
滿願	-11.1548
皷	-11.1548
亦復不	-11.1551
乃名	-11.1555
有二意	-11.1556
入一切	-11.1557
五日	-11.1557
憎愛	-11.1557
谷響云	-11.1559
法體	-11.1562
底瑟吒	-11.1565
知彼	-11.1566
歷然	-11.1569
可還	-11.157
携李	-11.157
持呪者	-11.1571
下正明	-11.1571
七佛	-11.1571
戒定慧	-11.1573
攝一切	-11.1576
脈	-11.1577
以智	-11.1579
則當	-11.1586
訶囉	-11.1586
內對	-11.1587
毛孔	-11.1587
:>(	-11.1589
若夫	-11.1593
浮塵根	-11.1596
藏中	-11.1596
乾慧地	-11.1597
婆伽	-11.1598
惑亂	-11.1603
麼賀	-11.1606
其印	-11.1606
學道	-11.1613
毒蟲	-11.1614
同類	-11.1616
嗚呼	-11.1617
腎	-11.1618
五色線	-11.162
參合	-11.162
▁svāhā	-11.162
種種方便	-11.1621
摶	-11.1621
青黃赤白	-11.1622
飛精附人	-11.1623
見見非見	-11.1625
十方國土	-11.1629
四分	-11.1631
無遮	-11.1632
樹木	-11.1632
發明二相	-11.1634
不翻	-11.1635
塗地	-11.1636
分為三	-11.1637
不順	-11.1638
果子	-11.164
作成就	-11.1641
等類	-11.1648
通於	-11.1649
久遠	-11.1655
拏嚩日囉	-11.1655
十度	-11.1656
為佛	-11.1657
▁一正	-11.1661
但知	-11.1665
應無	-11.1666
和上	-11.1671
計我	-11.1672
拭	-11.1672
黃土	-11.1672
酉	-11.1675
受法	-11.1676
岳	-11.1678
為此	-11.1679
法相應	-11.168
月十五日	-11.1681
得如是	-11.1685
坎	-11.1688
犁	-11.1689
毀謗	-11.169
顆	-11.169
每日三時	-11.169
阿婆	-11.169
龍腦香	-11.1691
如前所說	-11.1691
創	-11.1691
六亂妄想	-11.1692
e	-11.1692
法華經	-11.1694
多劫	-11.1694
鎔	-11.1695
次觀	-11.1696
值佛	-11.1697
今時	-11.1697
隳	-11.1698
初二	-11.1698
持明仙	-11.1699
別無	-11.1699
菩薩印	-11.17
速成就	-11.1701
阿那含	-11.1702
疫病	-11.1702
但約	-11.1703
威猛	-11.1705
次破	-11.1706
初又二	-11.1707
諸苦	-11.1707
以二頭指	-11.1708
諸方	-11.1709
嚩日囉二合	-11.171
慧眼	-11.1712
已得	-11.1712
岳師	-11.1712
此語	-11.1713
種子字	-11.1715
於汝	-11.1716
通也	-11.172
舉事	-11.172
即云	-11.1723
大海水	-11.1724
出聲	-11.1724
復言	-11.1725
不遠	-11.1727
以求	-11.1727
太虗	-11.1728
覺也	-11.1728
逮	-11.173
反顯	-11.1731
常見	-11.1732
記云	-11.1732
前所	-11.1735
故復	-11.174
類生	-11.1741
修觀	-11.1741
又說	-11.1742
三品	-11.1742
飲酒	-11.1744
算	-11.1745
庚	-11.1746
為求	-11.1747
若必	-11.1747
又想	-11.1748
令一切眾生	-11.1748
朅	-11.1749
亦由	-11.1752
至等覺	-11.1752
鑪	-11.1752
既破	-11.1753
想相	-11.1753
療	-11.1753
安然	-11.1756
之日	-11.1757
禽獸	-11.1759
一呪一燒	-11.1762
外之	-11.1762
又三摩中諸善男子	-11.1763
會眾	-11.1763
取之	-11.1763
人趣	-11.1764
難知	-11.1766
吉凶	-11.1767
蠱毒	-11.1767
人道	-11.1767
恠	-11.1767
焦	-11.1768
諸功德	-11.177
於十方	-11.1771
拇指	-11.1772
中畫	-11.1773
十類	-11.1777
成等正覺	-11.178
果海	-11.1782
巳破	-11.1784
而我	-11.1791
無生法忍	-11.1792
流水	-11.1792
初問	-11.1795
無由	-11.1798
之餘	-11.18
幻師	-11.18
之謂也	-11.18
今乃	-11.1802
心明	-11.1802
真因	-11.1804
耳聞	-11.1804
金剛座	-11.1805
無覺	-11.1805
結勸	-11.1805
祠	-11.1805
三昧也	-11.1806
折囉	-11.1811
下正	-11.1812
首楞嚴三昧	-11.1815
𠆙	-11.1816
故如	-11.1816
無自體	-11.1817
風雨	-11.1818
無同異	-11.1818
不易	-11.1819
毗盧	-11.1822
定也	-11.1823
。】「○	-11.1825
猶云	-11.1826
形體	-11.1826
無惑	-11.1828
所應	-11.1829
鐘	-11.1829
丘	-11.183
攝取	-11.1831
具大	-11.1832
賣	-11.1832
今約	-11.1836
高山	-11.1836
輝	-11.1836
屠	-11.1837
村	-11.1838
族姓	-11.1838
勇健	-11.1838
名聞	-11.1839
一正	-11.184
諸真言	-11.1841
亡者神識	-11.1843
大護	-11.1843
於地	-11.1843
岐路	-11.1845
薄福	-11.1848
向後	-11.1848
若執	-11.1849
婬心	-11.185
囉耶	-11.1851
䟦	-11.1851
柔軟	-11.1851
非無想	-11.1853
施設	-11.1853
如日	-11.1857
諸塵	-11.1859
是同	-11.1859
示之	-11.1862
祕藏	-11.1863
速成	-11.1865
無始來	-11.1866
權小	-11.1867
猶言	-11.1869
諸法實相	-11.187
為用	-11.187
現種種	-11.1871
薩羅	-11.1872
誐嚩帝	-11.1875
於一切時	-11.1879
謂是	-11.1881
何須	-11.1881
水精	-11.1882
蓮華座	-11.1886
迦攞	-11.1886
煩惱根本	-11.1886
起用	-11.1886
准此	-11.1888
冠註此明	-11.189
問佛	-11.1891
世出世	-11.1893
猛火	-11.1897
真言法	-11.1897
遍數	-11.1898
晚	-11.1899
囉娑	-11.1899
復當	-11.1899
端坐	-11.19
從座而起	-11.19
如眼	-11.19
播抳	-11.1901
鼠	-11.1902
令他	-11.1906
作是思惟	-11.1906
暉	-11.1907
見與見緣	-11.1908
渠	-11.1909
泡	-11.191
於妙圓中	-11.191
悞	-11.1912
乃成	-11.1912
詶	-11.1913
門也	-11.1914
增上慢	-11.1914
所取	-11.1915
一半	-11.1915
三摩地智	-11.1916
不散	-11.1917
願求	-11.1918
麼努	-11.1923
本誓	-11.1924
此神呪	-11.1924
隨緣不變	-11.1925
如火	-11.1927
今我	-11.1927
而曰	-11.1929
唯改	-11.193
巳是	-11.193
淨處	-11.1933
寶瓶	-11.1933
悟道	-11.1937
世間無知	-11.194
一明	-11.194
但觀	-11.1944
夕	-11.1947
以水	-11.1947
出定	-11.1948
雄	-11.1949
摩摩	-11.1949
返聞	-11.1949
引入	-11.1949
他化自在天	-11.195
元非	-11.1953
志心	-11.1955
大龍王	-11.1957
周圓	-11.1961
虐	-11.1961
法成就	-11.1961
風吹	-11.1963
白傘蓋	-11.1965
未免	-11.1966
囉囉	-11.1967
教勅	-11.1967
恒河沙數	-11.1968
修禪定	-11.197
能分別	-11.1971
鬼等	-11.1972
數息	-11.1973
三緣	-11.1974
普供養	-11.1978
一日一夜	-11.1981
佛言如是	-11.1982
根元目為清淨四大	-11.1984
呪詛	-11.1984
充足	-11.1984
6	-11.1985
火不能燒	-11.1986
不作聖心	-11.1987
生信	-11.1989
清明	-11.1991
宿曜	-11.1992
銷亡	-11.1994
唯心所現	-11.1994
尚在	-11.1996
躡上	-11.1996
亦說	-11.1997
豁然	-11.1998
相中	-11.1999
如空	-11.2002
即不	-11.2004
大同	-11.2007
解私謂	-11.2007
初起	-11.2009
何時	-11.201
脩行	-11.2013
惡見	-11.2014
未詳	-11.2015
智身	-11.2015
無障	-11.2018
結責	-11.2019
後有	-11.202
二地	-11.2022
疫	-11.2026
故謂之	-11.2028
求之	-11.203
於一切處	-11.203
嘴	-11.2031
雲集	-11.2034
為上	-11.2034
得失	-11.2036
一佛	-11.2036
因聲	-11.2038
及其	-11.2039
欲心	-11.204
又是	-11.2041
異於	-11.2043
汝問	-11.2043
廓	-11.2043
當住	-11.2044
△	-11.2048
四聖	-11.2049
應觀	-11.205
經者	-11.205
詩	-11.2054
謂由	-11.2055
四法	-11.2055
同業	-11.2055
三慧	-11.2057
長夜	-11.2061
六月	-11.2062
拔折羅	-11.2062
一門深入	-11.2063
方有	-11.2064
經家敘	-11.2065
有眾生	-11.2065
無益	-11.2066
受持者	-11.2067
從無始來	-11.2068
衡	-11.2068
能推	-11.2068
即滅	-11.2071
▁七	-11.2071
未了	-11.2071
餘經	-11.2072
有因	-11.2073
難以	-11.2073
尊貴	-11.2074
動念	-11.2078
同歸	-11.208
為因地心	-11.208
過去世	-11.208
下約	-11.2086
利益安樂	-11.2087
行位	-11.2087
卷中	-11.2088
時即	-11.2088
初學	-11.2088
今在	-11.2089
不動道場	-11.209
非和	-11.209
鬼病	-11.2091
吒吒	-11.2092
盡皆	-11.2095
所化	-11.2099
法忍	-11.21
具此	-11.2101
一洛叉	-11.2103
色也	-11.2105
一千八	-11.2106
非常	-11.2106
自受用	-11.2107
至極	-11.2107
不至	-11.2107
結破	-11.2112
觀身	-11.2113
使人	-11.2114
面門	-11.2115
全身	-11.2115
此香	-11.2117
冐	-11.2117
燈光	-11.212
意生身	-11.2121
生疑	-11.2122
最極	-11.2122
七者	-11.2123
識陰盡	-11.2124
之像	-11.2125
晨	-11.2127
一期	-11.2128
是法印呪	-11.2128
娑擔	-11.2129
才	-11.2129
莎縛訶	-11.213
亭	-11.213
行住坐臥	-11.2131
蔓	-11.2131
探	-11.2132
叫	-11.2132
《	-11.2133
總指	-11.2133
占	-11.2133
茂	-11.2134
精神	-11.2136
性真圓融	-11.2136
無生忍	-11.2136
無人	-11.2137
散動	-11.2137
或曰	-11.2138
彩色	-11.2138
附人	-11.2138
傍生	-11.214
業也	-11.2141
華言	-11.2141
遇佛	-11.2142
第二院	-11.2143
今明	-11.2145
迷佛菩提	-11.2145
想成	-11.2148
釋迦如來	-11.2157
不對	-11.2158
宗鏡云	-11.2158
可為	-11.216
本不生故	-11.2163
妙蓮華	-11.2163
此喻	-11.2167
一尺	-11.2169
因而	-11.217
所住處	-11.2171
頭面	-11.2172
比量	-11.2173
常途	-11.2173
於三界	-11.2175
執受	-11.2179
未忘	-11.2181
執心	-11.2184
理事	-11.2185
見內	-11.2185
若其	-11.219
行陰盡	-11.219
四德	-11.219
癹	-11.2192
說有	-11.2192
眾生之	-11.2193
外緣	-11.2195
殺生	-11.2196
觀本尊	-11.22
說名	-11.22
樣	-11.2202
不見有	-11.2202
婀	-11.2203
地界	-11.2204
西天譯經三藏朝散大夫試	-11.2204
吳	-11.2204
普皆	-11.2207
真際云	-11.2207
妙定	-11.2209
嚩南	-11.2209
欲境	-11.221
用諸妄想	-11.221
侶	-11.2211
柰	-11.2211
認賊為子	-11.2212
亡失知見	-11.2213
供養已	-11.2214
捨野	-11.2217
所樂	-11.222
六用	-11.222
摩那	-11.222
一年	-11.2224
若更	-11.2225
黏湛發	-11.2227
按定	-11.2228
觀佛	-11.2231
十惡	-11.2232
實語	-11.2233
諸菩薩摩訶薩	-11.2234
將謂	-11.2237
入無間獄	-11.2238
百千萬	-11.224
悟此	-11.2241
子曰	-11.2241
二別示	-11.2246
摩呵	-11.2249
今佛	-11.2249
七信	-11.225
有佛出世	-11.2253
非彼	-11.2257
惡相	-11.2259
具三	-11.2267
明時	-11.2267
俱有	-11.227
此但	-11.2271
成佛道	-11.2274
不樂	-11.2274
皆妄	-11.2274
菩薩行	-11.2274
極重	-11.2276
諸惡鬼神	-11.2276
旗	-11.2277
除愈	-11.228
加以	-11.2281
白栴檀香	-11.2285
溪	-11.2285
苗	-11.2286
牛乳	-11.2286
域	-11.2287
三七遍	-11.2289
飢渴	-11.2289
所以然者	-11.2291
罵	-11.2292
間錯	-11.2292
賢首	-11.2294
見大	-11.2295
綠色	-11.2297
妄立	-11.2298
流行	-11.2298
認為	-11.2299
又法若欲	-11.2299
吽泮吒	-11.23
體是	-11.2302
或名	-11.2303
於虗空	-11.2303
如來頂	-11.2305
嚩迦	-11.2306
中流出	-11.2306
飲之	-11.2307
菩提路	-11.231
非異	-11.2312
已下	-11.2312
之首	-11.2313
沈水香	-11.2313
諸外道	-11.2313
事故	-11.2313
雅	-11.2315
加持七遍	-11.2316
總別	-11.2317
五天	-11.2319
持明人	-11.2319
天像	-11.2321
通明	-11.2323
無所有處	-11.2324
耶答	-11.2325
意明	-11.2327
必至	-11.2327
東南	-11.2328
諸世界	-11.2331
重請	-11.2332
大樂	-11.2334
囉闍	-11.2335
神通力	-11.2337
倪	-11.2338
除諸	-11.2338
如常	-11.2339
度嚕度嚕	-11.2339
拔苦	-11.2342
不知其	-11.2342
晴	-11.2344
右轉	-11.2348
以淨	-11.2349
大吉祥	-11.2351
霧	-11.2351
劒播	-11.2352
蝕	-11.2355
諮	-11.2355
以破	-11.2357
阿囉	-11.2357
誦真言曰	-11.2357
觀空	-11.2358
發化	-11.2359
鑠	-11.236
夫人	-11.236
報也	-11.236
寶部	-11.236
在大眾中	-11.2361
沈香	-11.2362
毗婆舍那	-11.2362
軀	-11.2362
享	-11.2362
離緣	-11.2363
呪王	-11.2364
晦昧為空	-11.2364
吾今問汝	-11.2365
由因	-11.2367
六字	-11.2367
墮落外道	-11.2368
年老成魔	-11.2368
三際	-11.2369
檀越	-11.2371
生人道中	-11.2372
幽隱	-11.2372
成無上菩提	-11.2372
自悟	-11.2373
一位	-11.2373
體即	-11.2374
法已	-11.2375
見體	-11.2375
廣示	-11.2375
如經	-11.2375
從目出	-11.2376
身著	-11.2377
結使	-11.2378
今得	-11.2379
無慧	-11.2379
令其解脫	-11.2383
那囉	-11.2387
度人	-11.2388
東面	-11.2388
酒肉	-11.2389
之精	-11.2389
眾生世界	-11.2391
鬪戰	-11.2391
慈氏菩薩	-11.2392
得阿耨多羅三藐三菩提	-11.2393
餘三指	-11.2395
獻閼伽	-11.2397
三科七大	-11.2398
行事	-11.2398
觀彼	-11.2401
怛麼	-11.2401
未斷	-11.2401
遮那	-11.2402
搵	-11.2402
本覺妙明	-11.2403
那含	-11.2404
即得成就	-11.2406
千萬	-11.2407
因於	-11.2407
賀囉賀囉	-11.2411
鬼神等	-11.2411
窮空	-11.2412
受想	-11.2412
香等	-11.2413
有其	-11.2414
𢙣	-11.2414
心精	-11.2415
經名	-11.2416
娑婆賀	-11.2417
僕	-11.2417
如來身	-11.2417
卯	-11.242
旃	-11.2424
首楞	-11.243
念念生滅	-11.243
妄業	-11.2431
色聲	-11.2431
唯識云	-11.2433
皆成就	-11.2434
一千八十遍	-11.2435
車輅	-11.2435
受樂	-11.2435
補特伽羅	-11.2436
加持白芥子	-11.2437
繒	-11.2437
鉞斧	-11.2438
板	-11.2439
至于	-11.2441
直入	-11.2441
十身	-11.2441
5	-11.2444
人等	-11.2444
都無實義	-11.2444
可知矣	-11.2447
毘舍遮	-11.2451
比舍	-11.2454
持念	-11.2455
藏通	-11.2455
不迷	-11.2455
心愛	-11.2457
播囉	-11.2459
過失	-11.246
後之	-11.2462
面目	-11.2463
月在	-11.2463
下四句	-11.247
莫非	-11.2471
普為	-11.2473
國界	-11.2478
言汝	-11.2479
隨時	-11.2482
是彼	-11.2482
義謂	-11.2483
妙覺明心	-11.2483
求成就	-11.2487
瑜伽者	-11.2488
以觀	-11.249
之殊	-11.249
不到	-11.2491
河沙	-11.2492
嚕嚕	-11.2493
皆作	-11.2493
底也	-11.2493
饒	-11.2495
炙	-11.2495
而且	-11.2495
超過	-11.2496
大雲	-11.2497
起信云	-11.2497
十方三世	-11.2497
於自心	-11.25
於一一	-11.25
母嚕母嚕	-11.25
彼即	-11.25
野吽	-11.2501
c	-11.2501
言辭	-11.2501
砌	-11.2502
魔羅	-11.2505
一切佛剎	-11.2507
令入	-11.2509
大惡	-11.2511
無煩	-11.2512
城邑	-11.2512
性覺妙明	-11.2517
苑	-11.2517
馳走	-11.2517
ṁ	-11.252
廁	-11.252
波利	-11.2522
萬遍	-11.2522
別名	-11.2523
夢想	-11.2524
前巳	-11.2524
亦無所	-11.2527
安立道場	-11.2527
波斯匿王	-11.2529
解行	-11.2529
意者	-11.2532
中所有	-11.2532
九地	-11.2533
謗法	-11.2533
大菩提心	-11.2534
亦復然	-11.2535
於諸佛	-11.2537
業種	-11.2537
然燈	-11.2539
同伴	-11.2544
跢囉	-11.2544
復誦	-11.2546
中無	-11.2547
向內	-11.2547
道中	-11.2549
治地	-11.255
娜莫	-11.2553
以例	-11.2554
復何	-11.2554
尚不能	-11.2557
諸神	-11.2558
塵剎	-11.2559
在中	-11.2559
正意	-11.256
作金剛	-11.2562
名見	-11.2563
無殊	-11.2567
便為	-11.257
然火	-11.2575
2	-11.2577
法會	-11.2578
譯人	-11.2578
以大	-11.2582
成就之法	-11.2583
在我	-11.2584
得度	-11.2586
空假	-11.2587
姪	-11.2587
正知	-11.2588
如月	-11.2589
契印	-11.2589
災厄	-11.2589
虎狼	-11.259
暖	-11.2593
林中	-11.2596
果者	-11.2596
鳩槃茶	-11.2597
誅	-11.2597
一時佛在	-11.2597
未達	-11.2605
之具	-11.2605
波羅密	-11.2605
如是諸	-11.2608
變滅	-11.261
心故	-11.2611
為先	-11.2611
焚香	-11.2613
能壞	-11.2613
湛寂	-11.2615
能見之	-11.2619
食者	-11.2621
若入	-11.2622
持誦人	-11.2622
滅也	-11.2628
變壞	-11.2629
同見	-11.2633
相離	-11.2633
一切金剛	-11.2637
之矣	-11.2638
隨合	-11.2639
娑野	-11.2641
惡星	-11.2641
生善	-11.2642
但得	-11.2645
相知	-11.2647
作金剛拳	-11.2654
離心	-11.2655
母馱	-11.2655
地瑟姹	-11.2655
於道場	-11.2656
聲呼	-11.2659
幻妄	-11.266
彩	-11.2661
解之	-11.2662
何耶	-11.2662
左定	-11.2663
願佛	-11.2663
諸業	-11.2664
阿難等	-11.2665
死生	-11.2667
復有無量	-11.2669
屈二頭指	-11.267
庸	-11.267
解了	-11.2672
不觀	-11.2672
尖	-11.2673
何曾	-11.2673
犬	-11.2674
搜	-11.2676
鹹	-11.268
破妄顯真	-11.2681
着	-11.2681
欲作	-11.2681
若加持	-11.2681
色香味觸	-11.2682
我於爾時	-11.2688
坐於	-11.2689
聲色	-11.2689
能攝	-11.2689
救世	-11.269
皆得解脫	-11.2691
觀於	-11.2692
􂗩(	-11.2694
佛與	-11.2694
生長	-11.2695
頂王	-11.2696
毗尼	-11.2698
成就一切	-11.2699
法界眾生	-11.2701
▁二正	-11.2703
地動	-11.2705
憂惱	-11.2705
見處	-11.2707
論之	-11.2707
▁二破	-11.271
智斷	-11.2714
空空	-11.2717
異生	-11.2718
獲圓通	-11.2719
世俗	-11.2719
香水海	-11.272
如雲	-11.272
目為	-11.272
摧壞	-11.2724
達多	-11.2726
覺者	-11.2728
𠻴	-11.2728
應先	-11.2728
若取	-11.2729
汝若	-11.2732
現生	-11.2732
隨應	-11.2737
據此則	-11.2739
全性	-11.2742
係係	-11.2743
末後	-11.2745
野迦	-11.2747
八句	-11.2747
行處	-11.2748
牢	-11.2751
風天	-11.2751
論師	-11.2751
愁	-11.2752
娜夜	-11.2752
築	-11.2753
7	-11.2755
夜叉住	-11.2756
自利利他	-11.2757
謙	-11.2757
踐	-11.2758
阿素洛	-11.2759
斤	-11.276
八者	-11.276
身見	-11.2761
八月	-11.2762
所獲	-11.2762
迎請	-11.2762
結壇	-11.2766
小果	-11.2766
二十八宿	-11.2767
與明合	-11.2768
毒害	-11.2769
決定義	-11.277
復次祕密主	-11.2772
進趣	-11.2772
不獨	-11.2775
室左	-11.2776
暴惡	-11.2776
初破	-11.2777
四事	-11.2778
環師	-11.2778
示以	-11.2782
染污	-11.2787
性常	-11.2787
之意也	-11.2789
不空如來藏	-11.279
部中	-11.2791
形狀	-11.2791
四處	-11.2794
火性	-11.2797
於虛空中	-11.2799
一標	-11.28
三教	-11.2801
聖諦	-11.2805
不真	-11.2807
歡喜踊躍	-11.2807
疑網	-11.281
明王真言	-11.2814
安有	-11.2814
盧舍那	-11.2814
吒迦	-11.2815
在虗空	-11.2815
因聞	-11.2816
有佛	-11.2816
無行	-11.2817
乃得	-11.2817
各異	-11.2822
羯羅	-11.2823
為難	-11.2824
左囉	-11.2824
之慧	-11.2824
部母	-11.2826
柏	-11.2826
迷本	-11.283
令心	-11.2831
始從	-11.2834
浩	-11.2834
謁	-11.2835
唾	-11.2836
不謬	-11.2837
厲	-11.2837
純情	-11.2837
三度	-11.2839
朽	-11.2839
散之	-11.284
吸此塵象	-11.284
豈無	-11.284
戾	-11.284
麤相	-11.2844
以兩手	-11.2844
忻	-11.2844
髮髻	-11.2845
則臨終時	-11.2845
其妄	-11.2846
不圓	-11.2847
俱無處所	-11.2848
宛轉	-11.285
十日	-11.2851
非有色	-11.2851
然我	-11.2855
為魔	-11.2855
脩證	-11.2857
等種種	-11.2857
反下同音	-11.286
自餘	-11.286
人人	-11.2861
於自	-11.2861
而得自在	-11.2862
孰為	-11.2862
見非是見	-11.2864
人說	-11.2865
諸天眾	-11.2866
徵心	-11.2867
照曜	-11.2871
娑他	-11.2871
眼耳	-11.2873
詳示	-11.2874
薩多	-11.2875
如來部	-11.2877
燈見	-11.2878
退失	-11.2879
有力	-11.288
諸惡趣	-11.2886
川	-11.2886
起行	-11.2887
盲人	-11.2887
龍宮	-11.2887
一問	-11.289
毛端	-11.2895
是故如來	-11.2898
若就	-11.2901
邪魔	-11.2904
初卷	-11.2904
見根	-11.2905
豁	-11.2906
繫念	-11.2908
香鑪	-11.2911
虔	-11.2912
與空	-11.2913
雖非	-11.2914
終日	-11.2914
妙吉祥童子	-11.2914
偏袒右肩	-11.2915
騎	-11.2915
吽吽吽	-11.2916
無所畏	-11.2916
掉	-11.2917
體無	-11.2918
之觀	-11.2918
爽	-11.2918
增加	-11.2919
徐	-11.2921
六用不行	-11.2922
欝金香	-11.2923
百年	-11.2923
破佛律儀	-11.2923
亦通	-11.2925
華屋	-11.2925
佛覺	-11.2926
尾濕嚩	-11.2926
安穩	-11.2926
摧碎	-11.2928
能使	-11.2928
二見	-11.2928
根結	-11.293
下示	-11.2931
內根	-11.2931
青蓮	-11.2931
轉變	-11.2932
妄動	-11.2933
不疑	-11.2934
五股	-11.2934
又法欲	-11.2935
婬習	-11.2937
何用	-11.2937
我此	-11.2938
生理	-11.2938
一總	-11.2939
滅盡定	-11.2941
乳粥	-11.2942
其說	-11.2943
起心	-11.2944
修進	-11.2944
如是種種	-11.2944
滅度	-11.2946
欲愛	-11.2951
之解	-11.2954
無上正等菩提	-11.2955
前以	-11.2958
語已	-11.296
得脫	-11.296
不巳	-11.296
最尊	-11.2961
八日	-11.2963
設若	-11.2964
五位	-11.2964
空義	-11.2966
相並	-11.2967
若因	-11.2968
勝上	-11.2972
令一切	-11.2972
指上	-11.2972
魅鬼	-11.2972
王宮	-11.2974
暴流	-11.2974
本無自性	-11.2975
入地	-11.2976
證也	-11.2976
亦自	-11.2978
力士	-11.2978
賢劫	-11.2979
天龍夜叉	-11.2979
護嚕護嚕	-11.2979
之命	-11.2979
經意	-11.2982
風性	-11.2983
為究竟	-11.2983
別相	-11.2984
區	-11.2984
欝金	-11.2985
善事	-11.2986
喻明	-11.2987
標幟	-11.2991
毘沙門天王	-11.2992
寓	-11.2997
仇	-11.2997
滴	-11.2998
華臺	-11.2999
四不思議	-11.3001
若善男子善女人	-11.3002
落叉	-11.3003
過也	-11.3003
矜	-11.3005
頂法	-11.3005
匝	-11.3006
皎然	-11.3006
於其中間	-11.3008
今所	-11.301
湛明	-11.301
妄成	-11.3011
皆稱	-11.3011
由如	-11.3014
所出生	-11.3017
水陸	-11.3017
故世尊	-11.3018
勝願	-11.3021
二百五十	-11.3023
神足	-11.3023
第三院	-11.3025
細惑	-11.3032
瑟致	-11.3034
非無色	-11.3035
空輪	-11.3035
是何	-11.3036
至十五日	-11.3036
現業	-11.3036
塵境	-11.3041
方便也	-11.3042
慈力	-11.3044
兼二	-11.3046
頻那夜迦	-11.305
心常	-11.3052
而受	-11.3059
卜	-11.3065
如法供養	-11.3065
真言王	-11.3068
實體	-11.3074
白佛	-11.3074
涌	-11.3076
頂禮佛足而白佛言	-11.3076
壹	-11.3076
泰	-11.3078
蹈	-11.3078
人空	-11.3078
未來世	-11.308
入法界	-11.308
一重	-11.308
空智	-11.308
澡	-11.3082
沸	-11.3082
庵	-11.3084
五無間	-11.3084
後結	-11.3085
不思	-11.3087
窮生類本	-11.3087
此二句	-11.309
誤認	-11.3095
怛那	-11.3096
有緣	-11.3096
一切賢聖	-11.31
勸修	-11.3101
不殺	-11.3102
我昔	-11.3102
因空	-11.3102
味塵	-11.3107
婬女	-11.3108
虗融	-11.3109
欲知	-11.3111
有所得	-11.3112
一切如來心	-11.3112
第二重	-11.3113
如風	-11.3115
大慈大悲	-11.3117
最上乘	-11.3123
通稱	-11.3124
我所說	-11.3126
細相	-11.3126
問意	-11.3128
實證	-11.3128
人見	-11.313
呪二十一遍	-11.313
摩訶薩	-11.313
當說	-11.313
苦難	-11.3132
口舌	-11.3136
之味	-11.3137
百八	-11.3145
黃金	-11.3147
劑	-11.3152
下手	-11.3154
為鬼	-11.3159
宮中	-11.3162
巳離	-11.3162
摩睺羅伽	-11.3163
饑	-11.3163
楞嚴大定	-11.3165
於頂上	-11.3166
譽	-11.3168
曠劫	-11.3169
迥	-11.317
觀其所由	-11.317
是義不然	-11.317
教人	-11.3171
勵	-11.3171
未亡	-11.3172
皆在	-11.3173
此示	-11.3174
數滿	-11.3174
定性聲聞	-11.3175
波浪	-11.3177
海水	-11.3177
罔象	-11.3177
推求	-11.3178
最為第一	-11.3181
損害	-11.3181
三麼耶	-11.3181
長跪	-11.3183
嚩訥瑟吒	-11.3187
無他	-11.3188
鬱	-11.3189
眼入	-11.319
二天	-11.3192
左攞	-11.3197
所念	-11.3199
因其	-11.3202
汝雖	-11.3202
因悟	-11.3204
自在王	-11.3205
合前	-11.3206
大忿怒明王	-11.3206
說為	-11.321
具戒	-11.321
自能	-11.3213
智論	-11.3214
孝	-11.3215
悉是	-11.3218
)􂗩	-11.3218
齲	-11.322
弭跢	-11.3222
毘摩	-11.3222
增勝	-11.3225
斡資囉	-11.3227
哩曳	-11.3228
無眼	-11.3228
諸佛所說	-11.3228
種種諸	-11.3232
不能動	-11.3232
無戲論	-11.3234
為倒	-11.3235
有為法	-11.3238
暗相	-11.3238
仡囉	-11.3239
汙	-11.3239
嚩沒䭾	-11.324
地水	-11.3241
六字大明	-11.3241
抄	-11.3242
格	-11.3244
躬	-11.3245
除其	-11.3245
悲願	-11.3245
是義	-11.3246
聞見	-11.3246
秀	-11.3247
醜	-11.3247
西北	-11.3247
釧	-11.3247
雖具	-11.325
二習	-11.325
傳授	-11.3251
引四	-11.3251
麤重	-11.3254
口說經法	-11.3255
違遠圓通背涅槃城	-11.3255
作是語已	-11.3256
未及	-11.3257
有七	-11.3259
但有言說	-11.3259
菩薩戒	-11.326
依根	-11.326
世間人	-11.3263
諸眾生等	-11.3268
阿波	-11.3269
金剛大	-11.3271
十二句	-11.3273
而至	-11.3274
弭野	-11.3277
十地菩薩	-11.3279
跏趺	-11.328
則識	-11.328
大麥	-11.3281
下合	-11.3282
縱廣	-11.3283
勤苦	-11.3284
遍入	-11.3284
惑也	-11.3287
洞然	-11.3289
因依	-11.329
悲智	-11.3297
顯見性	-11.3298
同也	-11.3302
覺緣	-11.331
祖嚕祖嚕	-11.3311
若悟	-11.3312
空色	-11.3314
穆佉	-11.3315
秦	-11.3317
次結金剛	-11.3322
下界	-11.3322
世尊說	-11.3323
植	-11.3325
成空	-11.3326
咒	-11.3326
施願	-11.3326
三災	-11.3328
捷	-11.3329
瀉	-11.333
帥	-11.3331
雖多	-11.3333
縱令	-11.3333
逼迫	-11.3333
業果相續	-11.3334
得悟	-11.3334
多野	-11.3334
據此	-11.3334
彼云	-11.3335
謂觀	-11.3336
覺所覺空	-11.3337
於本	-11.3339
菩薩位	-11.3339
刳	-11.334
住者	-11.3341
演若達多	-11.3341
如法華	-11.3342
三昧門	-11.3344
佛言下	-11.3346
猶如虗空	-11.3346
無功用道	-11.3346
日月燈	-11.3348
摩訶迦葉	-11.3348
建立道場	-11.3348
堪任	-11.3349
甜苦	-11.3349
口業	-11.3349
勤求	-11.3349
不知此	-11.335
為除	-11.3352
第四卷	-11.3353
復告	-11.3353
又見	-11.3353
身作	-11.3355
然於	-11.3355
葉上	-11.3356
利眾生	-11.3357
悉檀	-11.3361
依然	-11.3363
多體	-11.3364
法界生	-11.3367
眾罪	-11.3368
為破	-11.3369
成於	-11.337
權教	-11.3373
門外	-11.3376
為自然	-11.3376
化理	-11.3377
無縛	-11.3378
乾陀	-11.3378
今阿難	-11.3379
呪三七遍	-11.3382
喻妄	-11.3382
鬼王	-11.3383
為當	-11.3385
字即	-11.3385
毘盧	-11.3389
足知	-11.3389
寂音	-11.3391
愛心	-11.3391
廣為	-11.3393
淨法界	-11.3394
毫相	-11.3397
無識	-11.3398
第十一	-11.3398
心有	-11.3399
詰其	-11.34
孕反	-11.3405
亦名為	-11.3405
効	-11.3405
動轉	-11.3406
在會	-11.3408
疑問	-11.3408
㖿	-11.3413
弊泮	-11.3413
表之	-11.3414
業因	-11.3416
寒熱	-11.3417
未離	-11.3417
諸類	-11.3418
樞	-11.3419
汝於	-11.3419
紺	-11.3419
呾	-11.342
萌	-11.342
何事	-11.3421
力能	-11.3421
二日	-11.3422
蜂	-11.3422
迭	-11.3422
沙門婆羅門	-11.3424
波羅夷	-11.3424
之稱	-11.3425
愚鈍	-11.3426
委曲	-11.3427
則心	-11.3429
爾時佛告	-11.343
許說	-11.3431
世間相	-11.3432
其次	-11.3432
口出	-11.3433
承事供養	-11.3433
廣博	-11.3434
又分二	-11.3435
賢瓶	-11.3437
一指	-11.3442
現境	-11.3445
中指無名指	-11.3446
一部	-11.3446
苦集	-11.3447
令悟	-11.3449
定光	-11.345
當胸	-11.3451
安能	-11.3457
以如來	-11.3461
師資	-11.3463
受灌頂	-11.3469
即從	-11.3471
復云何	-11.3473
動而	-11.3474
不當	-11.3475
非不	-11.3477
得之	-11.3478
妙門	-11.3479
生彼	-11.348
儞也	-11.3481
身業	-11.3481
王難	-11.3483
圓通本根	-11.3485
之情	-11.3487
顯說	-11.3487
佛出世	-11.3491
寶莊嚴	-11.3491
嚩囉娜	-11.3492
合之	-11.3493
尾舍	-11.3494
色邊際	-11.3496
窣	-11.3496
二決定義	-11.3497
愆	-11.3499
究其	-11.3499
疲	-11.3501
鞭	-11.3504
不犯	-11.3504
完	-11.3504
跢他伽多耶	-11.3504
即是佛	-11.3505
件	-11.3505
菜	-11.3506
第七識	-11.3507
鑽	-11.3508
如意寶珠	-11.351
挃	-11.351
窮未來際	-11.351
六麤	-11.3511
違遠圓通	-11.3512
血肉	-11.3512
交互	-11.3512
經百千劫	-11.3514
)。(􂨬	-11.3516
陣	-11.3518
波哩	-11.3521
入門	-11.3521
玄義	-11.3521
非有非無	-11.3522
虗無	-11.3522
種種飲食	-11.3522
園林	-11.3523
世尊下	-11.3523
諸毒	-11.3524
皆獲	-11.3525
但舉	-11.3527
略明	-11.3529
即取	-11.3529
六交報	-11.3529
喻中	-11.3532
離身	-11.3532
東北	-11.3533
二十四聖	-11.3534
通身	-11.3534
名識	-11.3535
二種根本	-11.3535
與諸大眾	-11.3536
非正	-11.3536
沈水	-11.3536
勝處	-11.3542
大科	-11.3545
內縛	-11.3545
k	-11.3546
未成	-11.3546
愛染	-11.355
波旬	-11.3553
大威力	-11.3554
今且	-11.3555
本無因	-11.3556
戰拏	-11.356
濕生	-11.3569
窣覩	-11.3571
坐禪	-11.3571
此見性	-11.3572
金剛掌	-11.3576
va	-11.3576
必有所	-11.358
之實	-11.3581
寶蓮	-11.3583
方廣	-11.3583
滿七日	-11.3584
都嚧雍	-11.3584
滿馱滿馱	-11.3586
之量	-11.3586
塊	-11.3588
六根中	-11.3589
之影	-11.359
膊	-11.359
名利	-11.3592
爾時金剛手菩薩摩訶薩	-11.3592
腦	-11.3593
規	-11.3593
白淨	-11.3596
陶	-11.3596
巡	-11.3597
釋要云	-11.3598
請示	-11.3598
之根本	-11.3598
持世	-11.3599
郭	-11.3599
灌頂云	-11.3599
正脉	-11.36
別指	-11.36
供養諸佛	-11.36
清淨本然周徧法界	-11.3601
憍慢	-11.3602
是眾生	-11.3603
右手把	-11.3603
敷演	-11.3604
現今	-11.3605
酬足復形	-11.3606
仁王	-11.3606
折伏	-11.3608
紫金	-11.3608
古德	-11.3608
河岸	-11.3609
聞中	-11.361
我今為汝	-11.362
爐中	-11.3625
既銷	-11.3631
不欲	-11.3633
作曼拏羅	-11.3633
寂常	-11.3634
句召	-11.3635
之念	-11.3637
色性	-11.364
發相	-11.364
之詞	-11.364
皤囉	-11.3641
由妄	-11.3641
亦滅	-11.3642
跋陀	-11.3642
諸字	-11.3644
阿蜜哩	-11.3645
路枳	-11.3645
現於	-11.365
自來	-11.3651
如教	-11.3651
常以	-11.3651
滿拏攞	-11.3653
尚能	-11.3654
娑普	-11.3656
中胎	-11.3657
方顯	-11.3658
持者	-11.3659
隨逐	-11.3659
其言	-11.366
初因	-11.366
萬里	-11.3661
雖知	-11.3663
一結	-11.3664
初約	-11.3664
罪垢	-11.3665
不辨	-11.3672
慰	-11.3673
加之	-11.3674
樹葉	-11.3674
二別明	-11.3675
不一	-11.3675
外有	-11.3675
誐哆	-11.3676
中節	-11.3676
寶華	-11.3676
鼎	-11.3676
n	-11.3677
懇	-11.3678
螫	-11.3679
韻	-11.368
嗟	-11.3681
鶴	-11.3682
跋囉	-11.3682
蹋	-11.3683
首句	-11.3683
極樂世界	-11.3684
審觀	-11.3686
是無常	-11.3687
虹	-11.3687
圓悟	-11.3687
巳證	-11.3688
前雖	-11.3688
散灑	-11.3691
未生	-11.3692
迷之	-11.3693
引起	-11.3693
皆自	-11.3695
取境	-11.3695
澄清	-11.3696
非天	-11.3697
戒者	-11.37
我某甲	-11.3701
印度	-11.3703
內身	-11.3703
娑賀娑囉	-11.3703
鉢頭摩	-11.3704
成果	-11.3704
是陀羅尼	-11.3705
消息	-11.3707
八千遍	-11.3708
聖尊	-11.3711
七徵	-11.3711
如是下	-11.3712
雖異	-11.3712
莊子	-11.3712
大教	-11.3713
娑跢	-11.3715
後學	-11.3717
初信	-11.3719
以我	-11.372
並竪	-11.3722
十方眾生	-11.3723
解云	-11.3724
闡提	-11.3724
妙力	-11.3725
多種	-11.3726
初入	-11.3726
遍於	-11.3728
合為一	-11.373
字者	-11.373
巳前	-11.3731
散華	-11.3732
不可言	-11.3732
於理	-11.3733
開通	-11.3734
審定	-11.3735
眾生相續	-11.3736
二性	-11.3737
誦此密語	-11.3737
縱使	-11.3737
皆用	-11.3738
忉利	-11.3739
修因	-11.3741
復問	-11.3744
上二	-11.3745
即須	-11.3746
身長	-11.3748
相類	-11.375
婆伽婆	-11.375
不念	-11.3752
花果	-11.3755
利益一切眾生	-11.3755
裔	-11.3756
厄難	-11.3756
蓮華上	-11.3757
酢	-11.3762
未除	-11.3762
攝授	-11.3764
睇	-11.3764
識知	-11.3764
摩呼羅伽	-11.3765
烈	-11.3765
爾時金剛	-11.3766
有能	-11.3766
識之	-11.3766
削	-11.3767
塗身	-11.3768
偃	-11.3769
常樂我淨	-11.3769
方壇	-11.377
囉底	-11.377
優波	-11.377
若能如是	-11.3771
三摩地法	-11.3773
無數劫	-11.3775
渴仰	-11.3775
心是	-11.3775
上想	-11.3779
在汝	-11.3783
首二句	-11.3784
有為無為	-11.3786
德也	-11.3786
難調	-11.3788
屈入掌中	-11.3792
而轉	-11.3793
因緣也	-11.3795
二結	-11.3795
怛摩	-11.3798
頓漸	-11.3799
入理	-11.3801
於時	-11.3802
而妄	-11.3803
四邊	-11.3805
薩婆若	-11.3807
便謂	-11.3808
三股	-11.3808
他生	-11.3808
新淨	-11.3812
非從	-11.3813
勝相	-11.3815
潤生	-11.3819
不常	-11.382
如是次第	-11.3822
寶印	-11.3822
更生	-11.3824
諸家	-11.3826
皆不能	-11.3828
唵跋日囉	-11.383
娑多	-11.383
聞熏	-11.3832
教我	-11.3833
即我	-11.3833
結之	-11.3834
故下文	-11.3838
持犯	-11.384
忽有	-11.3842
其法	-11.3842
在身外	-11.3844
惟有	-11.3844
同別	-11.3846
懃	-11.3847
娑嚩賀	-11.3849
補瑟	-11.3854
可知也	-11.3855
抽	-11.3855
汝等當知	-11.3858
西南	-11.3858
之音	-11.3858
煮	-11.3858
如恒河沙	-11.3859
爾時觀世音菩薩摩訶薩	-11.3859
便入	-11.3859
為同為異	-11.386
彗	-11.386
應不	-11.386
為害	-11.386
及阿羅漢	-11.3862
茅草	-11.3862
呪神	-11.3862
烏芻瑟摩	-11.3862
誣	-11.3863
必然	-11.3863
死後斷滅	-11.3863
有三義	-11.3864
不從人得	-11.3864
過去未來現在	-11.3864
手作	-11.3866
對前	-11.3869
以一切如來	-11.3869
迷惑不知	-11.3869
阿賴耶識	-11.387
一為無量	-11.387
首楞嚴王	-11.387
徒眾	-11.387
十向	-11.387
前位	-11.3871
究竟覺	-11.3871
本來不生	-11.3873
果人	-11.3874
道力	-11.3875
兜率	-11.3875
河王	-11.3876
復白佛言	-11.3877
念誦時	-11.3877
正性	-11.3878
一合	-11.3879
三年	-11.388
律中	-11.3881
能令一切	-11.3883
其猶	-11.3889
想盡	-11.3889
無量壽佛	-11.389
地藏菩薩	-11.3892
阿閦如來	-11.3893
垢障	-11.3893
此相	-11.3894
華香	-11.3895
等是	-11.3897
惟其	-11.3897
並是	-11.39
薩哩	-11.3901
若行者	-11.3902
告阿難言	-11.3905
自非	-11.3912
所致	-11.3914
先佛	-11.3916
婆帝	-11.3917
長命	-11.3917
魔障	-11.3918
道故	-11.3919
依空	-11.392
慈愍	-11.3923
眚病	-11.3923
妄性	-11.3925
論議	-11.3926
所見之	-11.3927
壬	-11.3931
行婬	-11.3931
乃有	-11.3933
此偈	-11.3936
他國	-11.3945
誥	-11.3945
之耳	-11.3945
諸香	-11.3945
能施	-11.3946
難勝	-11.3947
名善境界	-11.3951
滅後	-11.3951
轍	-11.3952
相反	-11.3952
四菩薩	-11.3953
我滅度後	-11.3953
西天	-11.3953
眼前	-11.3953
洗滌	-11.3954
竅	-11.3954
顧視	-11.3954
益也	-11.3955
色如	-11.3955
討	-11.3955
侯	-11.3955
喻顯	-11.3957
如金	-11.3959
眾生顛倒	-11.3966
斷盡	-11.3966
蘖帝	-11.3968
跛娜	-11.3968
唵薩嚩怛他	-11.3969
阿鼻地獄	-11.3969
非合	-11.3971
不移	-11.3972
最上成就	-11.3976
發行	-11.3977
大迦葉	-11.398
閉目	-11.3983
猶若	-11.3983
汝且	-11.3986
為諸眾生	-11.3986
終始	-11.3987
東西	-11.3988
不存	-11.3988
隨分	-11.399
即相	-11.3992
雙照	-11.3993
由於	-11.3998
諸佛之	-11.4003
為一體	-11.4006
破識	-11.4008
昔日	-11.401
靡	-11.4011
明暗等	-11.4012
以定	-11.4012
首楞嚴定	-11.4013
左囉左囉	-11.4014
亥	-11.402
二大拇指	-11.4022
慧菩薩	-11.4026
誦明	-11.4026
相續不斷	-11.4027
解也	-11.4027
李	-11.4029
入胎	-11.403
匿	-11.403
天龍藥叉	-11.4031
起立	-11.4032
衍	-11.4033
穰	-11.4034
之方	-11.4034
為勝	-11.4036
庫藏	-11.4037
蒼	-11.4037
現見	-11.4038
嗔怒	-11.4039
促	-11.4041
膏	-11.4042
敏	-11.4043
飄	-11.4043
直示	-11.4043
訶羅	-11.4044
􂔗	-11.4045
披露	-11.4048
在手	-11.4049
若用	-11.405
:	-11.4051
成就也	-11.4052
印也	-11.4055
毘那	-11.4056
達羅	-11.4056
神用	-11.4057
之藏	-11.4058
見病	-11.4058
所使	-11.4059
復次善男子	-11.406
三菩提	-11.406
無減	-11.4061
周法界	-11.4063
瘧病	-11.4064
復云	-11.4064
首陀	-11.4065
大品	-11.4065
大道	-11.4066
身形	-11.4067
有識	-11.4068
所求願	-11.4068
隨事	-11.4069
豈唯	-11.407
淨故	-11.4071
不除	-11.4073
沒㗚	-11.4074
有五種	-11.4074
豈是	-11.4075
滅時	-11.4075
一切聖眾	-11.4077
無量壽如來	-11.4077
而獨	-11.4078
跋捺囉	-11.4079
八還	-11.4081
火神	-11.4083
香塵	-11.4084
地天	-11.4086
三智	-11.4086
失真	-11.4088
精色	-11.409
四魔	-11.409
識處	-11.4093
阿難答言	-11.4093
亦見	-11.4094
八千	-11.4096
謂有	-11.4096
長老	-11.4098
汝但	-11.4098
將破	-11.4099
初云	-11.41
觀視	-11.4101
跋折	-11.4101
欲其	-11.4102
義亦	-11.4102
既滅	-11.4105
來集	-11.4109
􂉄(	-11.4111
凡小	-11.4113
惡毒	-11.4114
見精明元	-11.4114
但當	-11.4115
揮	-11.4118
何則	-11.4118
詳審	-11.4119
空明	-11.4119
焰摩	-11.412
得離	-11.4122
未發	-11.4123
覆護	-11.4123
如是思惟	-11.4123
湧	-11.4128
坦	-11.4128
肆	-11.4128
塔中	-11.4128
棘	-11.4128
現起	-11.4128
汗	-11.4129
無邊際	-11.4129
得成佛	-11.413
阿囉訶帝	-11.413
如來應供正遍覺	-11.413
其理	-11.4131
歌舞	-11.4132
災障	-11.4132
如夢	-11.4133
生相	-11.4133
悋	-11.4133
東西南北	-11.4133
皺	-11.4133
空是	-11.4136
茫然	-11.4137
多生	-11.4137
冷熱	-11.4137
蛻	-11.4138
秖	-11.4138
怨賊	-11.4138
無量無數	-11.4138
羅尼	-11.4139
馳散	-11.4139
喜悅	-11.414
這一節經承前	-11.414
即汝	-11.4141
尋伺	-11.4142
娜囉	-11.4143
願垂	-11.4143
五識	-11.4143
似乎	-11.4144
摩尼珠	-11.4145
梵書	-11.4145
但依	-11.4146
一七遍	-11.4147
此會	-11.4147
得成菩提	-11.4148
甘露味	-11.4148
座下	-11.4151
本於	-11.4151
瞿摩夷	-11.4153
別破	-11.4154
怕	-11.4154
寶塔	-11.4154
二顯	-11.4159
隨眾生心	-11.4159
妄為	-11.4162
永明	-11.4162
仍是	-11.4162
此真	-11.4162
得便	-11.4163
二執	-11.4164
光聚	-11.4167
摩醯首羅天	-11.4168
有覺	-11.4169
散花	-11.4175
神通自在	-11.4175
猶如虛空	-11.4176
五道	-11.4178
其量	-11.4182
妄說	-11.4183
尊像	-11.4186
見外	-11.4186
無故	-11.4188
是處	-11.4188
惹曳	-11.4194
麼護	-11.4195
麼𥠖	-11.4196
􂤇	-11.4197
不滯	-11.4199
之由也	-11.42
跛哩布	-11.4201
舊說	-11.4201
不可盡	-11.4202
若但	-11.4203
曀	-11.4204
迦摩	-11.4206
亦具	-11.4207
忽於	-11.4208
二就	-11.4209
五淨	-11.4212
補澁	-11.4212
在空	-11.4213
修成	-11.4215
那摩	-11.4215
為畜	-11.4215
弓箭	-11.4219
一總標	-11.4219
金剛幢	-11.4219
三賢	-11.4219
二答	-11.422
穆訖	-11.422
因是	-11.422
一切魔	-11.422
紐	-11.4221
課	-11.4221
壇印三昧耶	-11.4221
凍	-11.4222
阿蘇羅	-11.4222
明悟	-11.4222
揭囉訶	-11.4224
身心俱	-11.4225
能感	-11.4225
石蜜	-11.4225
界者	-11.4227
行菩薩道	-11.4228
背上	-11.4228
自稱	-11.4228
所有諸	-11.4228
羅睺羅	-11.4229
晉言	-11.423
徧周法界	-11.4231
宿業	-11.4232
觀念	-11.4232
讚言	-11.4233
陀隣尼	-11.4234
境界也	-11.4238
魍魎	-11.4239
堪忍	-11.424
誦前	-11.4241
鈔云	-11.4241
攝入	-11.4241
則一	-11.4242
是識	-11.4243
具如	-11.4244
以金	-11.4244
盜賊	-11.4244
餘處	-11.4245
即來	-11.4246
其命	-11.4248
周遍法界	-11.4249
諸難	-11.4251
為能生	-11.4253
不交	-11.4256
則其	-11.4257
非佛	-11.4266
餘五	-11.4267
是故下結	-11.4268
根器	-11.4269
印捺囉	-11.4269
又作	-11.4272
修之	-11.4274
念佛三昧	-11.4275
不妄	-11.4276
者指	-11.4279
知一切法	-11.428
縛訶	-11.428
勤勇	-11.4282
行布	-11.4283
地等	-11.4286
色力	-11.4288
二大母指	-11.4295
未審	-11.4299
不能盡	-11.4302
薩里嚩	-11.4305
於上	-11.4306
㰠	-11.4309
本識	-11.4309
海印	-11.4312
信住行向	-11.4315
其水	-11.4316
0	-11.4316
總徵	-11.4316
大悲胎藏	-11.4317
寡	-11.4317
畫像法	-11.4318
輸藍	-11.4319
所求皆得	-11.432
極令	-11.4321
金剛鈴	-11.4322
宿債	-11.4322
撿	-11.4322
月天	-11.4322
之性也	-11.4322
一多	-11.4323
帝惹	-11.4325
經初	-11.4326
補處	-11.4326
然既	-11.4327
何待	-11.4328
四日	-11.4329
發得	-11.4329
第二第三	-11.433
儀式	-11.433
揑目	-11.433
阿賴耶	-11.4331
妙義	-11.4333
為識	-11.4335
之可	-11.4337
瓔珞莊嚴	-11.434
破除	-11.434
肘量	-11.4342
是理	-11.4345
及至	-11.4346
涅槃也	-11.4346
火聚	-11.4347
眾色	-11.4348
鉢哩	-11.4348
百二十	-11.435
被甲	-11.4351
億數	-11.4352
法寶	-11.4352
愚謂	-11.4354
往彼	-11.4357
等無有異	-11.4358
者表	-11.4359
即理	-11.4359
婆誐嚩底	-11.4364
麼野	-11.4364
湛然常住	-11.4366
我時	-11.4367
悉帝	-11.4368
由迷	-11.4369
彼天	-11.4369
雖同	-11.437
空藏	-11.4371
純真	-11.4371
如來密因	-11.4372
唯願如來	-11.4374
說因緣	-11.4376
非有想	-11.4376
心在	-11.4377
六指	-11.4377
金剛乾慧	-11.4377
注云	-11.4378
遍滿虛空	-11.4379
地獄苦	-11.438
所愛	-11.4382
瓶中	-11.4384
不復更	-11.4384
斷之	-11.4385
綠	-11.4385
如意輪	-11.4387
純想	-11.4388
是諸如來	-11.4392
嚩多	-11.4393
如無	-11.4394
之文也	-11.4394
兜率天	-11.4395
之類也	-11.4396
觀自身	-11.4396
眼色	-11.4398
無礙智	-11.4398
殞	-11.4399
義不成	-11.4401
即證	-11.4402
故見	-11.4403
雜華	-11.4403
詐習	-11.4405
何言	-11.4405
取彼	-11.4406
是行	-11.4407
刪	-11.4407
微密觀照	-11.4407
曼殊	-11.4409
上節	-11.441
桃	-11.4411
殷勤	-11.4414
荊	-11.4414
寶蓋	-11.4414
背覺合塵	-11.4414
以法	-11.4414
曳娑嚩	-11.4415
教行	-11.4415
我已	-11.4416
身無	-11.4417
皆是識心分別計度	-11.4417
勗	-11.4418
名和合	-11.4419
▁一標	-11.4419
即下	-11.442
尾惹野	-11.4421
飽滿	-11.4421
佛即	-11.4423
薄伽	-11.4424
地輪	-11.4425
或居	-11.4425
而不可	-11.4426
轉相	-11.4426
維摩	-11.4427
死人	-11.4427
出時	-11.4429
安坐	-11.4432
淨業	-11.4434
保持	-11.4434
其家	-11.4435
徧觀	-11.4435
精見	-11.4435
所生處	-11.4437
大事	-11.444
四智	-11.4444
心在內	-11.4445
▁二明	-11.4449
異者	-11.4451
起計	-11.4451
金剛阿闍梨	-11.4453
因明	-11.4459
任持	-11.4463
之計	-11.4463
具一切	-11.4464
重呼	-11.4464
此阿字	-11.4466
則可	-11.4471
一手執	-11.4473
相接	-11.4475
所加持	-11.4478
後云	-11.4484
壇中心	-11.4485
法義	-11.4486
分段生死	-11.4487
囒	-11.4487
彼所	-11.4487
如蓮華	-11.4488
塗之	-11.4488
一邊	-11.4489
同一體	-11.449
徧常	-11.4492
所施	-11.4492
丑	-11.4493
一百一十	-11.4495
依彼	-11.4496
俱名	-11.4496
又法以	-11.4497
阿闍黎	-11.4498
有十種	-11.4499
聲聞眾	-11.4499
鉗	-11.4499
既離	-11.4499
返妄歸真	-11.45
爾時阿難	-11.45
豈惟	-11.4502
隨根	-11.4502
䇿	-11.4503
斷諸	-11.4504
鳳	-11.4504
供給	-11.4504
訪	-11.4505
模	-11.4505
三藐三菩陀耶	-11.4505
二根	-11.4505
妙觀	-11.4506
今但	-11.4508
隨身	-11.4508
認物為巳	-11.4509
知見立知	-11.4509
舊註	-11.451
殆	-11.4511
派	-11.4511
矩攞	-11.4514
諸眾生故	-11.4515
心量	-11.4515
佇	-11.4515
地藏	-11.4516
胎卵	-11.4516
智德	-11.4516
無非見	-11.4516
金剛慧	-11.4516
羯磨印	-11.4519
七返	-11.4522
相容	-11.4523
見中	-11.4523
例此	-11.4524
楞嚴經	-11.4525
攞入嚩	-11.4526
白拂	-11.4528
衣食	-11.4528
聞佛所說	-11.4529
婆訶	-11.4531
南面	-11.4531
三卷	-11.4531
內證	-11.4532
沒第	-11.4532
娜迦	-11.4535
輕慢	-11.4538
所談	-11.4539
但隨	-11.4541
結金剛	-11.4544
楞伽云	-11.4545
劫中	-11.4546
每一	-11.4547
利鈍	-11.4548
有大威力	-11.455
次則	-11.455
以右	-11.455
藥草	-11.455
世界顛倒	-11.4551
暗字	-11.4553
之號	-11.4554
圓觀	-11.4558
破惡	-11.4559
摩細	-11.456
報恩	-11.456
食噉	-11.4561
不藉	-11.4562
有時	-11.4564
記憶	-11.4564
三人	-11.4564
此當	-11.4566
嚕唵	-11.4567
諸教	-11.4568
一切障	-11.4568
沒地	-11.4568
於壇中	-11.4569
既見	-11.457
上文云	-11.4571
下地	-11.4574
寶蓮華	-11.4575
見面	-11.4576
灌頂法	-11.4577
離物	-11.4581
四時	-11.4585
藥師	-11.4586
眾等	-11.4586
伽囉	-11.4586
巳斷	-11.4588
昭	-11.4588
掬	-11.459
眼目	-11.4591
印加持	-11.4592
燒火	-11.4592
大丈夫	-11.4593
如是世尊	-11.4593
有別	-11.4594
曾不	-11.4595
流動	-11.4595
咃	-11.4596
色者	-11.4596
無勝	-11.4598
餘人	-11.4598
亦猶	-11.46
狼	-11.4601
釋名	-11.4601
甕	-11.4602
踊	-11.4603
雹	-11.4604
繇	-11.4604
所結	-11.4604
於空中	-11.4605
悉第	-11.4606
化城	-11.4606
諂曲	-11.4607
稽	-11.4607
等者此	-11.4608
而阿難	-11.4608
作是語巳	-11.4608
淳	-11.4608
若兼	-11.4609
八相	-11.4609
有是	-11.4609
此水	-11.461
詢	-11.461
十方一切	-11.461
是常	-11.4611
魃鬼	-11.4611
為水	-11.4613
足踏	-11.4613
藥王	-11.4615
相連	-11.4616
喻以	-11.4616
下三句	-11.4617
風指	-11.4617
染汙	-11.4618
枝末	-11.4619
隨汝	-11.4619
無餘涅槃	-11.4619
月一日	-11.4619
為眾	-11.4622
)。】	-11.4622
純是	-11.4627
難破	-11.4627
m	-11.4628
善見	-11.4629
我常	-11.463
僧曰	-11.4632
▁一總	-11.4632
證成	-11.4632
又彼	-11.4634
此亦如是	-11.4635
因見	-11.4637
木石	-11.4639
阿難是善男子	-11.464
以大悲	-11.4641
是身	-11.4642
不相離	-11.4644
識者	-11.4644
如空華	-11.4644
來入	-11.4649
尚非	-11.465
前言	-11.4651
捨𩕳	-11.4652
誦真言三遍	-11.4653
▁南無	-11.4654
至下	-11.4654
常自	-11.4656
十一句	-11.4656
教相	-11.4657
三性	-11.4658
明言	-11.4658
無優劣	-11.4659
此答	-11.466
全在	-11.4661
不遷	-11.4663
之事也	-11.4664
𠰢	-11.4665
即菩提	-11.4667
而作是言	-11.4667
髀	-11.4668
等經	-11.4671
俱亡	-11.4673
童男	-11.4674
於曼拏羅	-11.4678
非因	-11.4678
所縛	-11.4679
執取	-11.468
枳哩枳哩	-11.468
未圓	-11.4682
末羅	-11.4683
常念	-11.4686
審諦	-11.4686
嗚	-11.4688
􂃅	-11.4688
?」	-11.469
心既	-11.4695
蟒	-11.4695
經旨	-11.4695
云何下	-11.4697
蔭	-11.4697
拾	-11.4697
亦曰	-11.4697
慾	-11.4698
泥洹	-11.4698
有兩	-11.4698
亦與	-11.4699
七日七夜	-11.4699
隻	-11.47
牧	-11.47
買	-11.47
屏	-11.47
大佛頂首楞嚴經	-11.4701
計以為常	-11.4701
億劫	-11.4701
僅	-11.4702
終而復始	-11.4702
堅凝正心	-11.4703
倘	-11.4703
愧	-11.4704
猴	-11.4704
俯	-11.4704
契合	-11.4705
汩	-11.4706
肅	-11.4706
毘俱胝	-11.4707
幻妄稱相	-11.4709
毘舍佉	-11.4709
還得	-11.4709
生人	-11.4709
中生	-11.471
身而為說法	-11.4712
一切如來金剛	-11.4714
與無量	-11.4719
前明	-11.4719
威怒	-11.472
同源	-11.472
末他	-11.4721
多迦	-11.4721
慢習	-11.4721
䭾曩	-11.4723
下經云	-11.4723
遞	-11.4723
能降伏	-11.4723
便生	-11.4726
從外	-11.4726
仙趣	-11.4726
作佛事	-11.4727
布列	-11.4732
正義	-11.4735
令不	-11.4735
見得	-11.4736
互為	-11.4737
今巳	-11.4739
修心	-11.474
入地獄	-11.474
正答	-11.474
念誦法	-11.474
侵害	-11.4741
與夫	-11.4743
大勢至	-11.4746
契經	-11.4746
讚佛	-11.4747
夜摩	-11.4748
理性	-11.4751
圓具	-11.4752
得佛	-11.4752
方始	-11.4752
治之	-11.4754
為相	-11.4754
彼中	-11.4755
不差	-11.4756
色像	-11.4757
旛	-11.4757
一切諸魔	-11.4758
不越	-11.4761
之宗	-11.4762
儼	-11.4765
五遍	-11.4767
夜半	-11.4767
賛拏	-11.4768
鼻入	-11.4771
回心	-11.4771
疑慮	-11.4771
真妄和合	-11.4772
入一切如來	-11.4776
之頂	-11.478
真實義	-11.4782
是文殊	-11.4782
真實心	-11.4783
曩莫三曼多沒馱喃	-11.4783
明徹	-11.4785
五人	-11.4787
修入	-11.4787
總報	-11.4789
現其身	-11.479
蟻	-11.4792
枷鎖	-11.4792
諸寶	-11.4793
接引	-11.4797
眼等	-11.4798
圓行	-11.4798
􂨡	-11.4798
幹	-11.4798
娑嚩訶	-11.4799
般若經	-11.4799
感果	-11.4799
鄰	-11.48
消殞	-11.48
自明	-11.4801
剎帝利	-11.4801
妙體	-11.4801
灼	-11.4801
倐	-11.4802
別業妄見	-11.4802
棗	-11.4803
復次成就法	-11.4803
一日三時	-11.4807
什麼	-11.4807
金剛身	-11.4807
顯是	-11.4807
顯性	-11.4808
觀中	-11.4811
如環	-11.4814
未開	-11.4815
洗手	-11.4815
諸佛同	-11.4817
不囉	-11.4817
諸病	-11.4818
一心三觀	-11.4818
功德天	-11.4818
保護	-11.4819
惡鬼神	-11.482
汝體	-11.4821
當為汝說	-11.4823
垂下	-11.4824
一道	-11.4826
誤墮	-11.4826
聞此陀羅尼	-11.4826
佛令	-11.4827
而悟	-11.4827
輪印	-11.4831
化眾生	-11.4833
即法身	-11.4836
教化眾生	-11.4837
於下	-11.4838
其物	-11.4838
諸聲聞	-11.4838
別行	-11.484
正與	-11.4845
發識	-11.4846
非惟	-11.4847
疑請	-11.4848
價	-11.485
作供養	-11.485
純一	-11.485
得往生	-11.4851
彼經	-11.4852
若自	-11.4852
是印	-11.4852
空理	-11.4856
老死	-11.4856
普光	-11.4858
神也	-11.4858
梵天王	-11.486
心思	-11.4862
悟之	-11.4862
於世	-11.4862
圖畫	-11.4863
宰官	-11.4863
日出	-11.4864
薺	-11.4865
真正	-11.4865
此頌	-11.4866
威勢	-11.4868
叵	-11.4869
以立	-11.487
法式	-11.487
若曰	-11.4872
入阿字門	-11.4872
部多女	-11.4874
千佛	-11.4876
妙華	-11.488
隨境	-11.4881
所惑	-11.4883
假觀	-11.4884
當與	-11.4885
即無明	-11.4886
各捻	-11.4887
恥	-11.489
正助	-11.4891
緣慮	-11.4892
眾生濁	-11.4892
璫	-11.4892
為上首	-11.4892
駕	-11.4894
壇外	-11.4895
汎	-11.4897
石榴	-11.4897
之火	-11.4898
頰	-11.4898
欲愛乾枯	-11.4899
四無量心	-11.49
貼	-11.4901
窮諸行空	-11.4901
迷佛菩提亡失知見	-11.4903
不顯	-11.4903
臭穢	-11.4904
根大	-11.4904
重頌	-11.4905
顛倒行事	-11.4905
媒	-11.4905
華嚴經	-11.4906
手鑑云	-11.4907
且汝	-11.4908
復現	-11.4909
六欲	-11.4911
體相	-11.4911
釋種	-11.4911
能照	-11.4911
妄無因	-11.4912
天如	-11.4912
摩訶迦羅	-11.4912
深生	-11.4918
除差	-11.492
四明	-11.4922
他物	-11.4922
執有	-11.4924
故問	-11.4925
銷除	-11.4925
在其中	-11.4926
同共	-11.4926
合而	-11.4927
相織	-11.4929
中諦	-11.4929
制止	-11.4931
困	-11.4932
以證	-11.4932
孤起	-11.4933
各安	-11.4933
還生	-11.4934
世世	-11.4935
是智	-11.4935
逐妄	-11.4935
俱屬	-11.4936
持呪人	-11.4936
地下	-11.4937
如是真言	-11.4938
而歸	-11.4941
藐	-11.4942
必獲	-11.4942
有味	-11.4945
妙慧	-11.4946
或被	-11.4947
天然	-11.4947
可入	-11.4947
大吉	-11.4948
六通	-11.4948
未到	-11.4949
世有	-11.4949
即屬	-11.495
彼諸眾生	-11.4956
愛見	-11.4957
愚人	-11.4957
在世	-11.4957
眾惡	-11.4961
寶樓閣	-11.4963
證之	-11.4965
聞持	-11.4965
等妙	-11.4966
念慮	-11.4973
不論	-11.4973
次有	-11.4974
八指	-11.4975
三結成	-11.4978
穆契	-11.498
火爐	-11.4981
體同	-11.4982
上堂	-11.4985
之談	-11.4986
納受	-11.4987
吻	-11.4988
解脫道	-11.4988
女子	-11.4988
逗	-11.499
惑障	-11.499
偈頌	-11.4991
虗實	-11.4991
初夜	-11.4992
啼	-11.4992
舌入	-11.4992
薩怛鑁	-11.4992
而分	-11.4993
舒縮	-11.4994
軍吒利	-11.4994
舜若多	-11.4997
一切佛菩薩	-11.4998
壅	-11.5
爇	-11.5
一切眾生皆	-11.5001
三結答圓通	-11.5001
無得	-11.5001
觸處	-11.5002
是生	-11.5003
欲為	-11.5004
于此	-11.5004
亡所	-11.5004
實非	-11.5004
甚多	-11.5004
遺失真性	-11.5005
乃至一切	-11.5006
觸身	-11.5008
􂢄(	-11.5009
胎中	-11.501
深淺	-11.501
我皆	-11.5012
壽量	-11.5014
君子	-11.5017
一切諸惡	-11.5019
和合者	-11.502
能解	-11.5021
是實	-11.5022
二手內相叉	-11.5022
地獄中	-11.5022
國中	-11.5023
滿十萬遍	-11.5024
合腕	-11.5032
餓	-11.5032
初示	-11.5032
瑟吒囉	-11.5034
悟證	-11.5034
惟願如來	-11.5035
於虛空	-11.5036
能於十方	-11.5038
如初	-11.5039
四輪	-11.5039
共相	-11.5039
初總標	-11.504
所照	-11.5042
因觀	-11.5044
轉舌	-11.5045
尾瑟	-11.5048
萬億	-11.5048
半音二	-11.5048
狂亂	-11.505
復觀	-11.505
安在	-11.5052
以大指	-11.5052
何等為四	-11.5054
現瑞	-11.5054
這一節經	-11.5054
神識	-11.5055
意中	-11.5056
呪印	-11.5056
右肩	-11.5059
必以	-11.5059
一手把	-11.5062
蘇摩	-11.5063
一節	-11.5063
呪仙	-11.5064
八法	-11.5065
本處	-11.5066
臺上	-11.5068
生大	-11.5071
別列	-11.5077
牒計	-11.5078
三空	-11.5079
櫱多木佉跛哩嚩	-11.508
修行人	-11.5081
四結	-11.5082
七名	-11.5082
別圓	-11.5082
號為	-11.5082
無始無明	-11.5083
定其	-11.5085
著衣	-11.5086
出胎	-11.5087
種種寶	-11.5092
又無	-11.5092
不空成就	-11.5093
甄	-11.5094
入室	-11.5095
光焰圍繞	-11.5096
滌	-11.5097
不涉	-11.5097
虔誠	-11.5097
無等等	-11.5097
右羽	-11.5097
祁	-11.5097
莊飾	-11.5098
合於	-11.5098
欲樂	-11.5099
虎吽	-11.5099
照見	-11.5101
勾	-11.5103
圓定發明	-11.5103
贊拏	-11.5103
作法時	-11.5103
吾復問汝	-11.5104
奸	-11.5104
阿蘭若	-11.5105
惱亂是人	-11.5106
欺誑	-11.5106
燒沈水香	-11.5106
一萬	-11.5108
令此	-11.5108
體故	-11.5108
欲貪	-11.5109
歸真	-11.5111
波晝	-11.5112
為顯	-11.5112
四聖諦	-11.5112
善巧方便	-11.5114
未入	-11.5116
如後	-11.5117
不可得也	-11.5118
胡跪	-11.5119
大旨	-11.512
大聲	-11.512
一點	-11.512
樹枝	-11.5121
那得	-11.5122
寶生	-11.5125
成十二	-11.5125
推窮	-11.5126
一切病	-11.5126
釋文	-11.5127
佛弟子	-11.5127
就喻	-11.5129
可度	-11.5129
斷食	-11.513
以知	-11.5131
賀曩	-11.5134
為二一	-11.5135
消散	-11.5137
從其	-11.5139
動止	-11.514
照鏡	-11.5142
第一重	-11.5144
貪習	-11.5144
道眼	-11.5145
故號	-11.5145
顯理	-11.5146
寶生如來	-11.5148
布字	-11.5148
涅槃經	-11.5149
亦未	-11.5149
長聲	-11.5149
不改	-11.5152
問之	-11.5153
根本智	-11.5154
成就菩提	-11.5154
以智慧	-11.5155
第三重	-11.5155
日天	-11.5156
並皆	-11.5156
說此陀羅尼	-11.5158
百八遍	-11.516
暇	-11.5161
塵也	-11.5162
計也	-11.5163
第二義	-11.5164
名目	-11.5166
傷害	-11.5167
若云	-11.5168
平正	-11.517
𤙖泮吒	-11.517
開演	-11.5172
常恒	-11.5174
翳係曳	-11.5175
果故	-11.5176
當結	-11.5177
三問	-11.5177
具四	-11.5179
有智	-11.518
其子	-11.5182
稱歎	-11.5182
目犍連	-11.5185
上安	-11.5188
如華嚴	-11.5188
龍腦	-11.5188
見覺	-11.5189
綺	-11.519
畝	-11.519
中位	-11.5192
鐘聲	-11.5192
必是	-11.5192
設使	-11.5193
是三昧	-11.5193
二初明	-11.5194
酧	-11.5194
離彼	-11.5194
與願	-11.5195
業用	-11.5197
兔	-11.5197
是名為	-11.5197
國王大臣	-11.5198
祝	-11.5198
祀	-11.5199
黑月	-11.52
業煩惱	-11.52
勿生	-11.52
轉輪聖王	-11.52
於如來前	-11.5201
撫	-11.5201
一路涅槃門	-11.5202
蘆	-11.5203
沾	-11.5206
聞所聞盡	-11.5206
總以	-11.5206
根塵同源	-11.5206
又汝所明	-11.5207
性色真空	-11.5208
說此真言	-11.5208
別請	-11.5208
見見之時	-11.5209
曩謨阿	-11.5209
生滅既滅	-11.5211
刀劍	-11.5211
』	-11.5212
循業	-11.5213
相向	-11.5214
無一	-11.5216
作障難	-11.5216
初舉	-11.5216
恩愛	-11.5219
起妄	-11.5221
諸見	-11.5221
魔外	-11.5223
像法	-11.5223
大笑	-11.5224
琉璃光	-11.5225
所以為	-11.5225
如琉璃	-11.5226
死後有相	-11.5226
帝釋天	-11.5228
▁八	-11.523
之因也	-11.5232
二別顯	-11.5237
悉䭾	-11.5239
於自身	-11.524
聖觀自在菩薩	-11.5242
讀誦受持	-11.5242
勃馱	-11.5243
作擁護	-11.5244
了悟	-11.5247
金寶	-11.5247
顯妄	-11.5248
逆順	-11.5249
以空為	-11.525
則明	-11.525
業道	-11.5253
轉為	-11.5257
受記	-11.5257
正倒	-11.5257
差殊	-11.5257
聲也	-11.5259
科中	-11.526
能如是	-11.5261
其因	-11.5261
空行	-11.5263
佉佉	-11.5264
灑拏	-11.5266
一百三十	-11.5266
除疑	-11.5266
慧性	-11.5268
善哉善哉善男子	-11.5269
經家	-11.527
千劫	-11.5272
復令	-11.5275
能生識	-11.5276
方入	-11.5276
必哩	-11.5277
例破	-11.5278
訟習	-11.5279
箕	-11.5279
焰鬘	-11.528
無間獄	-11.5281
無間斷	-11.5282
於心上	-11.5284
因行	-11.5285
佛法中	-11.5287
如天	-11.5287
五方	-11.5287
真言七遍	-11.5288
終非	-11.5289
能了	-11.529
常無常	-11.5291
誐哩	-11.5291
圓徧	-11.5291
糝	-11.5291
菩提樹下	-11.5292
鬚	-11.5296
臆	-11.5296
之請	-11.5296
為利益	-11.5298
二卷	-11.5298
菩薩萬行	-11.5299
於其中	-11.5299
比丘比丘尼優婆塞優婆夷	-11.53
從今	-11.5301
蠟	-11.5301
瘦	-11.5301
攪	-11.5302
獅子	-11.5303
喏	-11.5303
先標	-11.5303
撲	-11.5303
乃至七日	-11.5304
粘湛發	-11.5304
月中	-11.5305
優波尼沙陀	-11.5305
妙有	-11.5306
轉生	-11.5306
迷惑不知墮無間獄	-11.5306
一箇	-11.5306
洩	-11.5307
聖力	-11.5307
去彼人體	-11.5307
難解	-11.5307
奉詔譯	-11.5307
及諸眾生	-11.5307
應所知量	-11.5308
▁□	-11.5309
乃知	-11.531
誦滿	-11.5311
不於空生	-11.5311
一義	-11.5315
而供養之	-11.5315
雙遮	-11.5316
不了義	-11.5317
羅剎娑	-11.5317
空性圓明	-11.5317
表法	-11.5318
塔耶	-11.5318
不破	-11.5319
豈同	-11.532
我我所	-11.532
亦且	-11.5321
二事	-11.5322
純熟	-11.5323
二問	-11.5325
一手	-11.5325
枯木	-11.5327
中置	-11.5331
七地	-11.5331
如是循環	-11.5335
慧力	-11.5335
法愛	-11.5335
可指	-11.5339
結縛	-11.5339
三迷	-11.534
舍野	-11.5345
自言	-11.5346
初立	-11.5347
息災增益	-11.5347
熏聞	-11.5349
諸賢聖	-11.5349
脩羅	-11.5349
邪道	-11.5351
之象	-11.5351
陳如	-11.5351
愛欲	-11.5354
風火	-11.5355
真源	-11.5355
本師	-11.5356
復加	-11.536
大藥叉	-11.5361
染婆	-11.5362
有情無情	-11.5362
婆野	-11.5363
文殊師利言	-11.5364
精靈	-11.5364
以起	-11.5367
今更	-11.5368
▁二約	-11.5368
與塵	-11.5369
巳後	-11.537
欲顯	-11.537
種種變化	-11.5373
如幻三昧	-11.5376
志求	-11.5376
四十四心	-11.5377
於斯	-11.5377
聲教	-11.5379
大城	-11.5379
􂛲(	-11.538
認妄	-11.5383
䭾囉䭾囉	-11.5383
彼方	-11.5384
真言主	-11.5385
將軍	-11.5387
本來清淨	-11.5391
今生	-11.5394
諸欲	-11.5395
哆囉	-11.5395
計常	-11.5397
以生	-11.5398
密呪	-11.5398
次阿闍梨	-11.5398
西面	-11.5399
無物	-11.54
曰妙	-11.5401
成妄	-11.5401
愚者	-11.5402
菩提道	-11.5402
復結	-11.5402
火生	-11.5402
薦	-11.5402
如來世尊	-11.5404
不緣	-11.5404
錫	-11.5404
剃	-11.5404
顰眉	-11.5404
生天上	-11.5405
奮迅	-11.5405
正同	-11.5405
麟	-11.5405
▁二示	-11.5406
俄	-11.5406
更相	-11.5406
三界中	-11.5407
初觀	-11.5407
普現色身	-11.5408
地獄餓鬼畜生	-11.5408
寶所	-11.5408
恡	-11.5408
奮	-11.5409
示人	-11.5409
垣	-11.541
內瑩發光	-11.5411
王舍城	-11.5411
酬足復形生人道中	-11.5411
而於寂滅精妙未圓	-11.5412
之異名	-11.5412
邦	-11.5412
金剛藏王	-11.5412
阿那律陀	-11.5412
孛	-11.5414
自現	-11.5414
在迷	-11.5416
鄰虗	-11.5416
梵網	-11.5416
悲仰	-11.5419
唯在	-11.5419
演底	-11.5421
獲福	-11.5422
支節	-11.5423
佛慧	-11.5424
不殊	-11.5424
迷倒	-11.5425
妙果	-11.5427
汝能	-11.5427
常性	-11.5428
所熏	-11.5429
何由	-11.5429
娜謨	-11.5432
觀時	-11.5435
諸仙	-11.5436
異見	-11.5437
誦此明	-11.5437
淨名云	-11.5437
知根	-11.5438
所轉	-11.5439
誦一百八遍	-11.544
芥子油	-11.5441
右邊畫	-11.5442
災害	-11.5442
既亡	-11.5443
來至	-11.5446
慳貪	-11.5447
一巾	-11.5448
偈中	-11.5449
斯亦	-11.5449
寶座	-11.5452
劫火	-11.5453
又從	-11.5456
囉叉	-11.5456
初又三	-11.5457
故約	-11.5458
。」【○	-11.5461
無主	-11.5461
香湯	-11.5462
同入	-11.5463
惡風	-11.5464
白牛	-11.5464
任意	-11.5469
阿修羅王	-11.547
依法持誦	-11.5472
那麼	-11.5472
悉體	-11.5473
歡喜地	-11.5474
五名	-11.5477
業生	-11.5477
和水	-11.5477
阿難譬如有人	-11.5478
有礙	-11.5479
所請	-11.5481
非他	-11.5482
四塵	-11.5483
疑悔	-11.5485
不問	-11.5486
心真言曰	-11.5489
異乎	-11.5489
寧吉反	-11.5492
諸色	-11.5492
諸國	-11.5493
必由	-11.5493
獘泮	-11.5495
若行	-11.5495
前五識	-11.5496
右脚	-11.5496
旬	-11.5499
住地	-11.5499
復更	-11.5499
軍眾	-11.55
㝹	-11.5502
圓壇	-11.5502
斜	-11.5505
悟解	-11.5505
㜸	-11.5506
特嚩	-11.5506
蘇囉	-11.5507
隨宜	-11.5507
嘛	-11.5507
字句	-11.5511
副	-11.5511
合掌向佛	-11.5511
乳糜	-11.5511
夙	-11.5512
白㲲	-11.5512
塗香末香	-11.5512
薰陸香	-11.5513
同此	-11.5513
異口同音	-11.5513
道人	-11.5514
十二部經	-11.5515
年老成魔惱亂是人	-11.5516
銳	-11.5516
正信	-11.5516
十四句	-11.5517
漱口	-11.5517
未得謂得	-11.5518
齡	-11.5518
開眼見明	-11.5518
樂聞	-11.5519
貿	-11.552
阿閦佛	-11.5521
合如來藏	-11.5522
而稱	-11.5523
方便門	-11.5526
明日	-11.5526
字也	-11.5529
化作	-11.553
動相	-11.553
以此真言	-11.5534
精微	-11.5534
聖觀自在	-11.5536
受者	-11.5541
不虛	-11.5543
拏曳	-11.5544
相因	-11.5545
此陀羅尼者	-11.5547
金翅鳥	-11.5551
為畜生	-11.5554
堅固妄想	-11.5555
破斥	-11.5556
騰空	-11.5556
懸示	-11.5556
修三摩提	-11.5557
無味	-11.5559
乃野	-11.5559
水牛	-11.5559
金剛橛	-11.5564
底孕	-11.5564
朗然	-11.5564
世間出世間	-11.5566
摩訶迦	-11.5567
諸菩薩眾	-11.5568
後方	-11.5574
餘指	-11.5574
念心	-11.5576
眾僧	-11.5577
無令	-11.5577
十習	-11.5581
能起	-11.5583
宰	-11.5583
於四方	-11.5586
同事	-11.5586
如來藏妙真如性	-11.5586
之端	-11.5587
不久當	-11.5587
序分	-11.5588
不拒	-11.5591
三大	-11.5592
五分	-11.5595
初分	-11.5596
光明照	-11.5597
應化	-11.5597
夕見	-11.5597
彼國	-11.5597
是魔	-11.5597
婆耶	-11.5598
就此	-11.5599
根境識三	-11.5602
從本	-11.5603
如佛所說	-11.5604
發業	-11.5605
歡	-11.5607
計都	-11.5607
世尊大毘盧遮那如來	-11.5608
非幻	-11.5608
平地	-11.561
影事	-11.5612
則不可	-11.5612
定體	-11.5613
十三日	-11.5613
方以	-11.5613
埿	-11.5613
悉𠆙	-11.5614
昌	-11.5616
頡	-11.5616
大勇猛	-11.5616
斧	-11.5616
淨器	-11.5616
粖	-11.5616
衢	-11.5618
痕	-11.5618
泊	-11.5619
提獎	-11.5622
𥁞	-11.5622
爾時天魔候得其便	-11.5623
拙	-11.5625
其聲	-11.5626
是人墜入	-11.5626
無方	-11.5626
和合相	-11.5626
即止	-11.5628
能離	-11.5628
優波離	-11.5628
作惡	-11.5629
山川	-11.5629
大論云	-11.563
迦嚕抳迦	-11.5631
災禍	-11.5633
自陳	-11.5636
迷於	-11.5636
苦果	-11.5637
求願	-11.5638
非實有	-11.5639
偏真	-11.564
僧云	-11.5641
大毘盧遮那	-11.5641
佛之知見	-11.5641
海眼	-11.5643
含攝	-11.5644
揀非	-11.5646
此觀	-11.5647
供物	-11.5648
法句	-11.5648
尼迦	-11.5649
頂髻	-11.5652
穢惡	-11.5652
相形	-11.5653
月八日	-11.5654
□□□	-11.5655
奈何	-11.5658
之理也	-11.5658
見解	-11.5658
上置	-11.5661
分五	-11.5663
若諸菩薩	-11.5665
火中燒	-11.5666
面上	-11.5667
決定成就	-11.5667
清淨四大	-11.5667
即起	-11.567
本寂	-11.5671
光耀	-11.5672
段食	-11.5674
愛著	-11.5674
後人	-11.5676
頂上散	-11.5676
謂我	-11.5681
一切人民	-11.5682
於定中	-11.5685
垢穢	-11.5686
二途	-11.5686
諸鬼神等	-11.5689
出纏	-11.5691
生滅門	-11.5691
方諸	-11.5694
想為	-11.5695
尾儞	-11.5698
等分	-11.5701
而取	-11.5701
之家	-11.5702
戊	-11.5702
深妙	-11.5703
圓寂	-11.5705
迷人	-11.5705
千臂	-11.5706
見諦	-11.5706
荅麼	-11.5708
見吾	-11.5708
滅相	-11.571
為汝說	-11.5712
徵釋	-11.5713
陀羅尼句	-11.5714
皆大	-11.5714
赤白	-11.5715
北面	-11.5715
後文云	-11.5716
瑳	-11.5718
假令	-11.572
一時俱	-11.5722
曼拏攞	-11.5722
軍茶利	-11.5724
倦	-11.5726
及於	-11.5728
禱	-11.5728
先有	-11.5728
故特	-11.5729
揆	-11.5729
則巳	-11.5729
滑	-11.5729
慚	-11.573
朋友	-11.573
觀彼幽清常擾動元	-11.5731
傲	-11.5731
憙	-11.5731
兩楹	-11.5731
叢林	-11.5731
里支	-11.5732
􂔹	-11.5732
紆	-11.5733
所及	-11.5735
一番	-11.5736
有多種	-11.5737
隨煩惱	-11.5738
得不退轉	-11.5738
清淨明誨	-11.5739
妄矣	-11.5741
心無所	-11.5743
持真言	-11.5743
皆歡喜	-11.5743
若有女人	-11.5744
無力	-11.5744
薩婆怛他	-11.5744
為生死	-11.5745
多分	-11.5745
六品	-11.5746
得福	-11.5747
不同也	-11.5747
如下文云	-11.5747
受身	-11.575
從頂	-11.575
信位	-11.5751
悉多	-11.5752
灌頂者	-11.5752
寂滅樂	-11.5756
密教	-11.5758
聽受	-11.576
見習	-11.576
即身	-11.5761
無功用	-11.5761
由觀	-11.5762
一曰	-11.5763
一依	-11.5763
破惑	-11.5764
速來	-11.5765
合眼	-11.5766
金剛祕密	-11.5767
母胎	-11.577
晴空	-11.577
娑縛	-11.577
十迴向	-11.5771
諸善根	-11.5775
聞識	-11.5776
界中	-11.5777
分身	-11.5777
如是菩薩	-11.578
空點	-11.5781
無問	-11.5781
今世	-11.5785
香味	-11.5785
大權	-11.5785
宿日	-11.5786
妄法	-11.5787
所集	-11.5791
資具	-11.5791
h	-11.5793
無盡故	-11.5794
舍那	-11.5795
及夫	-11.5796
何如	-11.5796
便可	-11.5798
無不成就	-11.58
一品	-11.58
其力	-11.5802
毗喻	-11.5802
欲取	-11.5804
諸供養	-11.5805
我今亦	-11.5805
佛世界	-11.5806
作證	-11.5807
帝三𦴭三沒䭾	-11.5807
之本也	-11.5809
必待	-11.5812
謂佛	-11.5812
於夢中	-11.5815
稱之	-11.5817
槩	-11.5818
闍羅	-11.5819
古佛	-11.5821
曠	-11.5822
咤	-11.5826
羅摩	-11.5828
蘇合	-11.5828
郎	-11.5829
卿	-11.5834
這裏	-11.5834
亦無有	-11.5835
富樓	-11.5836
肺	-11.5836
綴	-11.5838
耗	-11.5838
全同	-11.5839
蹙	-11.584
伎樂	-11.584
更非他物	-11.584
當在	-11.5841
學處	-11.5841
農	-11.5842
銜	-11.5842
匪	-11.5842
尾嚕	-11.5843
四大和合	-11.5844
中指背	-11.5845
詳辨	-11.5845
暫得如是	-11.5845
暫時	-11.5846
吉祥草	-11.5847
悶絕	-11.5848
旨趣	-11.5848
菓子	-11.5849
常作	-11.5849
真如性	-11.5852
始本	-11.5852
惡獸	-11.5853
呪一遍	-11.5853
警悟	-11.5853
八肘	-11.5854
亦言	-11.5854
在何處	-11.5854
虗空界	-11.5856
及乎	-11.5858
全真	-11.5858
兩足	-11.5863
成壞	-11.5863
二拳	-11.5864
為王	-11.5865
擊鐘	-11.5867
一切所作	-11.5869
聖行	-11.5869
上根	-11.5871
邪行	-11.5872
過者	-11.5872
即如來藏性	-11.5873
大心	-11.5873
明珠	-11.5873
二別釋	-11.5876
頭髮	-11.5876
若住	-11.5876
正等	-11.5877
無分別智	-11.5877
欲入	-11.5877
妄體	-11.5877
囉納	-11.5879
大唐	-11.5879
一切所有	-11.588
㘕字	-11.5881
交蘆	-11.5881
前天	-11.5882
身土	-11.5886
證圓通	-11.5888
巳悟	-11.5889
戒方	-11.5892
亦知	-11.5893
治病	-11.5896
作曼荼羅	-11.5898
修得	-11.59
盡也	-11.5901
盡是	-11.5901
光音	-11.5902
佛告下	-11.5904
何關	-11.5904
出者	-11.5905
起信論	-11.5906
迷情	-11.5908
􂏔(	-11.591
即得解脫	-11.5911
野馬	-11.5911
現在前	-11.5911
選根	-11.5911
菩薩乘	-11.5912
復起	-11.5912
嚩尾	-11.5914
之定	-11.5914
一切業障	-11.5917
寧逸反	-11.5917
曩莫三滿多沒䭾	-11.5919
在根	-11.5922
以理	-11.5922
百由旬	-11.5922
普賢行	-11.5923
三示	-11.5923
性命	-11.5927
共有	-11.5927
兩重	-11.5928
色是我	-11.5928
熾焰	-11.5929
故受	-11.5929
由結此印	-11.593
執我	-11.5931
曹	-11.5931
遜	-11.5932
先應	-11.5935
元由	-11.5936
赦	-11.5938
夜耶	-11.5938
頓教	-11.5939
殑伽沙	-11.594
拋	-11.5942
耶輸	-11.5942
那庾多	-11.5942
季	-11.5942
万	-11.5943
一切願	-11.5943
墻	-11.5944
善住天子	-11.5944
荊公云	-11.5946
進退合明	-11.5946
了了分明	-11.5947
尿	-11.5947
從真起妄	-11.5947
而可	-11.5947
肉團	-11.5947
牀	-11.5947
梯	-11.5948
高舉	-11.5949
法雲地	-11.5951
先示	-11.5951
􂨢	-11.5952
使知	-11.5952
遍知	-11.5953
心懷	-11.5954
此復	-11.5954
頭陀	-11.5954
不虗	-11.5955
有差別	-11.5956
圓照法界	-11.5956
一念不覺	-11.5956
而明	-11.5957
俱空不生	-11.5957
身口意業	-11.5958
䭾寧	-11.5958
見魔	-11.5958
諸願	-11.5959
能招報	-11.5959
常與	-11.5961
我與	-11.5963
水土	-11.5963
禁縛	-11.5963
自不能	-11.5963
相依	-11.5964
淨潔	-11.5966
跏	-11.5969
廣行	-11.597
徧體	-11.5971
四支	-11.5971
略有	-11.5972
第二手持	-11.5972
世第一	-11.5972
救濟	-11.5973
智火	-11.5974
圍之	-11.5975
金剛甲冑	-11.5975
下乃	-11.5976
攝召	-11.5977
不齊	-11.5977
不思議境	-11.5978
迷也	-11.5979
之士	-11.5979
是水	-11.5979
能超	-11.598
生淨土	-11.598
是誰	-11.5981
然雖	-11.5981
爾時釋迦牟尼如來	-11.5987
諸行人	-11.5988
徧照	-11.5989
諸天等	-11.5989
開眼	-11.5991
如來名號	-11.5991
里迦	-11.5991
魔力	-11.5995
論說	-11.5997
等義	-11.5997
身光	-11.5998
出已	-11.5998
詳之	-11.5998
盈滿	-11.5998
第十二	-11.5998
妙覺性	-11.6
釋此	-11.6001
因眼	-11.6002
那吒	-11.6005
前進	-11.6013
七番	-11.6016
前六	-11.6016
感報	-11.6016
隨心所	-11.6017
巳去	-11.6017
意業	-11.6018
常生	-11.6019
結元	-11.6021
蓮華印	-11.6022
只此	-11.6023
雙舉	-11.6024
端身	-11.6025
上界	-11.6026
流傳	-11.6027
禪門	-11.6029
仡	-11.6029
以對	-11.6034
遂令	-11.6035
百劫	-11.6037
諸佛剎	-11.604
時諸	-11.6041
郝	-11.6041
婆誐鑁	-11.6042
能伏	-11.6043
不可壞	-11.6044
初發	-11.6046
答以	-11.6046
真實語	-11.6047
非不和合	-11.6047
伎	-11.6048
娜耶	-11.6048
盎	-11.6048
此藥	-11.6048
曼殊室利菩薩	-11.6049
跪	-11.6049
識元	-11.605
慤	-11.6051
襪	-11.6051
巳身	-11.6051
乏少	-11.6051
會歸	-11.6051
蓮花座上作	-11.6052
泣	-11.6052
壤	-11.6052
薩嚩薩怛嚩	-11.6053
即除	-11.6055
眷	-11.6056
瞬	-11.6056
迷巳為物	-11.6057
卓	-11.6057
唇	-11.6057
迅疾	-11.6059
薜	-11.6059
無同無異	-11.6059
為本修因	-11.6059
以要言之	-11.606
康	-11.606
或聞	-11.6061
馱曩	-11.6061
摩抳	-11.6061
伴侶	-11.6062
陽燧	-11.6062
森羅	-11.6062
來世	-11.6063
靈驗	-11.6064
應不見暗	-11.6065
常住不滅	-11.6065
僕從	-11.6066
甄別	-11.6066
到彼岸	-11.6067
扇底迦	-11.6069
怨害	-11.6071
心意	-11.6072
弭多	-11.6074
如來以	-11.6075
瞋習	-11.6075
覩嚕	-11.6076
經無量劫	-11.6077
放光明	-11.6077
焰光	-11.608
法門也	-11.608
之師	-11.6081
金剛藏菩薩	-11.6083
知足	-11.6084
比丘比丘尼	-11.6086
清淨者	-11.6086
終於	-11.6086
外見	-11.6087
大曼荼羅	-11.6087
一界	-11.6088
後身	-11.6089
四維	-11.6089
咎徵	-11.609
見已	-11.6093
山間	-11.6093
哩尼	-11.6094
亦從	-11.6098
方盡	-11.6099
和酥	-11.61
金剛鎖	-11.61
偏圓	-11.61
九者	-11.6101
六道眾生	-11.6102
因相	-11.6103
然非	-11.6103
同虗空	-11.6104
百日	-11.6109
摩帝	-11.6111
是故下	-11.6111
應於	-11.6113
刀印	-11.6117
五味	-11.6117
佛頂印	-11.6119
廣果天	-11.6122
凡外	-11.6123
香嚴	-11.6124
遠離諸	-11.6126
頭頭	-11.6129
至此則	-11.6131
。􂗶	-11.6136
般若云	-11.6137
二正示	-11.6138
􂪙	-11.6138
敬重	-11.6139
下謂	-11.6141
大哉	-11.6142
右慧	-11.6144
常應	-11.6145
曩莫室戰	-11.6146
天行	-11.6147
▁二別	-11.6147
莊嚴具	-11.6147
三因	-11.6147
者哉	-11.6148
巳說	-11.6149
俱盡	-11.615
空覺	-11.615
念誦人	-11.6153
頭指側	-11.6154
令生	-11.6154
答之	-11.6154
各不相	-11.6154
罽	-11.6155
善說	-11.6155
偏空	-11.6156
霓	-11.6156
未敢	-11.6156
依法而	-11.6158
又阿字者一切法無	-11.616
聽我	-11.6162
錦	-11.6162
啟白	-11.6162
由無明	-11.6163
】*	-11.6163
著淨衣服	-11.6163
依真	-11.6163
成根	-11.6165
不和	-11.6167
羞	-11.6168
縣	-11.6169
嵐	-11.6169
藥乞叉	-11.6169
僻	-11.617
優婆夷	-11.617
為物所轉	-11.617
離即離非	-11.617
資財	-11.6171
沐	-11.6171
髓	-11.6172
楊	-11.6172
屢	-11.6173
本也	-11.6173
即涅槃	-11.6173
遠離一切	-11.6174
臻	-11.6174
▁二如來	-11.6174
作是說	-11.6175
性覺真空	-11.6176
賀娑	-11.6176
其一	-11.6177
覺非所明	-11.6177
鹿苑	-11.6178
地居	-11.6179
滅諸	-11.6181
意入	-11.6181
為法王子	-11.6182
阿若多	-11.6183
惡報	-11.6183
則諸	-11.6184
伏惑	-11.6186
害人	-11.6186
摩儞	-11.6186
從根	-11.6188
喻以明	-11.6189
葛囉	-11.619
縱橫	-11.619
娑怖	-11.6191
本意	-11.6191
婬室	-11.6192
興福	-11.6192
能障	-11.6193
未可	-11.6195
從空出	-11.6197
在一處	-11.6198
正理	-11.6198
老人	-11.62
中論	-11.6201
有間	-11.6201
佛境界	-11.6203
而更	-11.6204
見圓影	-11.6204
佛在	-11.6205
起慈心	-11.6207
一念不生	-11.621
或說	-11.6211
世界相續	-11.6211
菩薩身	-11.6211
釋梵	-11.6213
修菩提	-11.6214
隨我	-11.6217
各持	-11.6217
知性	-11.6219
光相	-11.6221
佛佛	-11.6222
空喻	-11.6223
發大願	-11.6223
成金	-11.6224
與暗	-11.6225
讚嘆	-11.6227
剎海	-11.623
福利	-11.623
其面	-11.6231
非水	-11.6231
屈如鉤	-11.6232
復從	-11.6232
頓證	-11.6233
遞相	-11.6233
舉其	-11.6234
一剎那	-11.6234
死屍	-11.6236
是苦	-11.6238
如來今日	-11.6238
等虛空	-11.6238
非理	-11.6239
相隨	-11.624
安忍	-11.6243
過去諸佛	-11.6243
一切物	-11.6245
如來前	-11.6246
王菩薩	-11.6249
能害	-11.6249
願聞	-11.6249
無窮盡	-11.6249
不亡	-11.625
果覺	-11.6253
不發	-11.6254
如前文云	-11.6256
欲明	-11.6258
櫱蹉	-11.6259
尾麼𥠖	-11.6259
聿	-11.6261
婆娑	-11.6262
蘇蜜	-11.6262
準上	-11.6264
悉怛	-11.6266
從乾慧	-11.6273
深廣	-11.6275
入已	-11.6275
七月	-11.6276
末尼	-11.6277
諫	-11.6278
變易生死	-11.6278
迷覺	-11.6279
幼	-11.6279
製	-11.6279
剝	-11.628
阻	-11.628
樂脫其倫	-11.628
時別	-11.628
伯	-11.6281
摩拏	-11.6281
意願	-11.6281
詎	-11.6281
霹靂	-11.6282
嫉	-11.6282
例之	-11.6283
三補吒	-11.6285
叩	-11.6285
即墮	-11.6285
在處	-11.6285
長時	-11.6285
富樓那彌多羅尼子	-11.6286
燈燭	-11.6287
由塵發知	-11.6287
白月八日	-11.6288
吉祥天女	-11.6288
理事無礙	-11.6288
揩	-11.6288
於法界	-11.6289
坐寶蓮華	-11.6289
無量義	-11.6291
摧滅	-11.6292
說是呪	-11.6295
惟以	-11.6295
決定心	-11.6296
如是眾生	-11.63
速獲	-11.63
交報	-11.6301
執金剛菩薩	-11.6302
其功	-11.6302
妙覺明性	-11.6302
嚩覩	-11.6303
此空	-11.6305
宿世	-11.6305
圓極	-11.6305
迦花	-11.6306
總舉	-11.6306
摩竭	-11.6308
初述	-11.631
所有功德	-11.6313
不休	-11.6314
舉體	-11.6315
彼我	-11.6317
息滅	-11.6317
則諸世間	-11.6319
之見性	-11.6319
除蓋障	-11.632
助行	-11.6321
今雖	-11.6323
兩忘	-11.6325
既悟	-11.6325
餘三	-11.6326
因緣生	-11.6327
蓮華臺	-11.6327
見諸佛	-11.6328
東北方	-11.633
破顯	-11.6331
亦亡	-11.6332
華座	-11.6333
見緣	-11.6336
四位	-11.6337
六處	-11.6339
如願	-11.634
制底	-11.634
圓元	-11.634
乾枯	-11.6341
手指	-11.6342
求法	-11.6342
心意識	-11.6343
令弟子	-11.6345
為問	-11.6346
雖似	-11.6346
檀那	-11.6346
一闡提	-11.6347
雲門	-11.6347
金剛菩提	-11.6348
生滅心	-11.6348
循聲	-11.6351
波多	-11.6353
電光	-11.6355
音聞	-11.6355
加持已	-11.6355
汝執	-11.6357
所染	-11.6358
大神	-11.6359
一升	-11.6359
次答	-11.636
持法	-11.6361
羯摩	-11.6364
勝進	-11.6366
若人欲得	-11.6366
自責	-11.6366
密迹	-11.6366
臍下	-11.6367
可不	-11.6368
魔民	-11.6369
無是非	-11.637
非可	-11.6372
能捨	-11.6372
出現於世	-11.6372
幻相	-11.6373
聾	-11.6373
不隔	-11.6373
前所說	-11.6374
無厭	-11.6374
播拏曳	-11.6376
一字頂輪王	-11.6377
地水火風空	-11.6377
更以	-11.6378
正屬	-11.638
三學	-11.6381
祕密藏	-11.6385
見量	-11.6386
但破	-11.6387
顯露	-11.6388
助因	-11.6389
聽者	-11.639
大種	-11.6391
有性	-11.6392
浮想	-11.6392
稻	-11.6393
名為覺	-11.6394
曆	-11.6395
能淨	-11.6396
湖	-11.6396
智生	-11.6396
次請	-11.6397
綖	-11.6397
聊	-11.6397
文殊師利法王子	-11.6398
復是	-11.6398
薑	-11.6399
入掌中	-11.6399
於水	-11.64
叔	-11.64
咽喉	-11.6401
流溢	-11.6401
受陰虗妙	-11.6401
餘如	-11.6401
汝當先覺不入輪迴	-11.6401
非關	-11.6401
辦事	-11.6402
文略	-11.6403
生滅去來	-11.6403
謨賀	-11.6403
反覆	-11.6405
種姓	-11.6408
鼻孔	-11.641
知解	-11.641
極大	-11.6411
尾特	-11.6412
泐潭曰	-11.6412
見火	-11.6412
法流	-11.6416
并及	-11.6416
聞佛說	-11.6417
相陵	-11.6417
既然	-11.6418
十番	-11.6419
妙花	-11.6419
諸佛子等	-11.642
有佛性	-11.642
持禁戒	-11.642
供養法	-11.6421
矩捨	-11.6421
人非人	-11.6423
拏野	-11.6425
一方	-11.6426
號曰	-11.6426
伽耶	-11.6427
驗知	-11.6427
因鑿	-11.643
誦真言七遍	-11.643
今亦	-11.6432
正宗分	-11.6433
十一面	-11.6433
而為眷屬	-11.6434
住世	-11.6439
得安隱	-11.6439
無盡莊嚴	-11.6439
誐誐	-11.644
滿䭾	-11.6441
步惹	-11.6445
名色	-11.6445
文雖	-11.6449
誰能	-11.6449
照用	-11.6451
還成	-11.6451
邪計	-11.6452
七句	-11.6452
胸前	-11.6458
忽見	-11.646
樹林	-11.6461
心緣	-11.6461
金剛索	-11.6461
東北角	-11.6464
方隅	-11.6464
是相	-11.6466
今將	-11.6466
一科	-11.6466
若說	-11.6468
必能	-11.647
尾惹	-11.647
外相	-11.647
之母	-11.6471
之失	-11.6472
而生也	-11.6473
涯	-11.6474
嚩囉嚩囉	-11.6475
隨求	-11.6475
了因	-11.6476
性比丘尼	-11.6477
佛答	-11.6477
逐破	-11.6477
即中云	-11.6482
舊解	-11.6483
色蘊	-11.6483
過去未來	-11.6485
今有	-11.6485
因觸	-11.6486
三婆	-11.6487
因塵	-11.6487
嘮	-11.6489
經義	-11.6489
我能	-11.649
淨地	-11.6492
一一字	-11.6492
羯麼	-11.6494
救世者	-11.6495
當受	-11.6496
縊	-11.6498
能化	-11.6498
篋	-11.65
誑習	-11.6501
捺羅	-11.6502
卷第二	-11.6503
超勝	-11.6504
即時阿難	-11.6504
􂘢	-11.6505
次安	-11.6506
莎訶金剛	-11.6506
䋾	-11.6507
曩迦囉	-11.6507
童男童女	-11.6507
唏	-11.6507
等文	-11.6508
ri	-11.6508
鑁字	-11.6508
詔	-11.6508
光普照	-11.6509
至佛所	-11.6509
膽	-11.6509
英	-11.6509
今從	-11.651
哭	-11.651
如寶形	-11.6511
事事無礙	-11.6511
踰繕那	-11.6513
赫奕	-11.6513
金剛語	-11.6514
琴	-11.6514
瞥	-11.6515
溈山	-11.6515
▁sarva	-11.6516
弟子與師	-11.6516
擯	-11.6516
汝當先覺	-11.6516
窣堵波	-11.6516
洞徹	-11.6516
素囉	-11.6516
墮落外道惑菩提性	-11.6517
搆	-11.6517
摩訶衍	-11.6517
依法作	-11.6518
沙糖	-11.6518
一念妄動	-11.6519
勸持	-11.6519
空所空滅	-11.6519
生計度者	-11.652
呪一千八遍	-11.6521
但有言說都無實義	-11.6522
王位	-11.6523
有何差別	-11.6523
悲心	-11.6526
必欲	-11.6526
賊難	-11.6527
不自知	-11.6527
意菩薩	-11.6527
安居	-11.6528
受陰明白	-11.6528
名句	-11.6529
先誦	-11.6529
之種	-11.653
苦具	-11.653
告彼	-11.6533
四姓	-11.6533
七八	-11.6534
以辨	-11.6535
猶如琉璃	-11.6535
先觀	-11.6539
勝事	-11.654
直申	-11.654
自在無礙	-11.6541
光顯	-11.6547
諸障難	-11.6547
此是如來	-11.6548
地薩怛嚩	-11.6549
一毫	-11.655
之用也	-11.6555
華藏	-11.6555
囉乞灑	-11.6558
捺㗚	-11.6558
加持自身	-11.6558
子孫	-11.6559
正脈	-11.6559
菩薩道	-11.6563
十波羅蜜	-11.6564
日三時	-11.6565
合空	-11.6565
惡事	-11.6567
怛囕	-11.6568
正云	-11.6569
智體	-11.657
在身內	-11.6573
睺	-11.6574
經題	-11.6576
從因緣生	-11.6577
丈六	-11.6577
身量	-11.6578
文可解	-11.6578
重言	-11.6578
一切寶	-11.6581
不顧	-11.6581
諍論	-11.6583
當獲	-11.6584
龍神	-11.6584
所傳	-11.6585
惟在	-11.6585
水月	-11.6586
善相	-11.6589
呪索	-11.6589
讀之	-11.659
總為	-11.6591
破執	-11.6593
強記	-11.6597
缽底	-11.6597
尾補攞	-11.6603
二妄	-11.6604
香花飲食	-11.6605
苦報	-11.6605
佛復告	-11.6606
爹	-11.6607
隨願	-11.6608
復應	-11.6609
延壽	-11.6609
堅持	-11.661
根本真言	-11.6611
成八萬四千	-11.6611
世間法	-11.6613
還是	-11.6613
加持一百八遍	-11.6613
金剛堅固	-11.6614
西北方	-11.6614
尾秫第	-11.6615
五寶	-11.6615
晉	-11.6617
靺	-11.662
測度	-11.6621
右頭指	-11.6621
從空生	-11.6622
佛號	-11.6623
於此中	-11.6624
不亦	-11.6625
纖	-11.6625
來處	-11.6627
菩地薩埵	-11.6627
㳷	-11.6627
的指	-11.6627
籌	-11.6628
燕	-11.6628
之迹	-11.6628
鎧	-11.6629
樺皮	-11.6629
燃燈	-11.663
於一切如來	-11.663
攘	-11.663
盡未來際	-11.6631
冶	-11.6631
行列	-11.6633
能盡	-11.6633
洋	-11.6634
黑闇	-11.6634
錯亂修習	-11.6634
容貌	-11.6635
六十聖位	-11.6636
遂計	-11.6636
今聞	-11.6637
所求事	-11.6637
一切罪	-11.6637
性色真空性空真色	-11.6637
此三勝流	-11.6638
諸文	-11.6639
阿練若	-11.6639
翁	-11.6639
福愛	-11.6641
如我思惟	-11.6642
幻法	-11.6643
故如來	-11.6643
調御	-11.6643
焰魔	-11.6645
其罪	-11.6646
闍梨	-11.6646
柁	-11.6648
雜修	-11.6651
巨海	-11.6651
外現	-11.6652
二足	-11.6652
損益	-11.6654
為同	-11.6656
白月十五日	-11.6656
善解	-11.6659
喻真	-11.6659
指陳	-11.6659
隋云	-11.666
領解	-11.666
以為其本	-11.6661
大灌頂	-11.6661
末香	-11.6662
亦合	-11.6663
即得除愈	-11.6664
十二年	-11.6664
慈恩	-11.6666
畫之	-11.6666
嚩帝	-11.6669
怛他揭多	-11.667
指來去呪曰	-11.6672
教示	-11.6672
續生	-11.6673
得意生身	-11.6673
界限	-11.6675
毫無	-11.6676
於是中	-11.6678
妙吉祥菩薩	-11.6682
不轉	-11.6683
諸世間人	-11.6683
陀羅尼者	-11.6684
所說真言	-11.6686
而未能	-11.6686
無是非是	-11.6687
疑心	-11.6687
十六日	-11.6688
二合下同	-11.669
意思	-11.6692
中有一	-11.6693
持明藏	-11.6693
放捨	-11.6693
相摩	-11.6694
梵眾	-11.6695
物等	-11.6695
本法	-11.6695
我敬禮	-11.6696
廂	-11.6697
搩	-11.6698
雖見	-11.6698
入嚩攞	-11.6703
左轉	-11.6704
或但	-11.6706
誦陀羅尼	-11.6707
即獲	-11.6708
或如	-11.6709
有情界	-11.671
輕舉	-11.671
蒙如來	-11.6714
合釋	-11.6716
二師	-11.6717
經曰	-11.6718
不動明王	-11.672
如影	-11.6722
室戰	-11.6722
金剛不壞	-11.6723
尾覲曩	-11.6727
故名曰	-11.6728
無去來	-11.6729
作觀	-11.6729
佛慈	-11.6729
傘	-11.673
天冠	-11.6732
撚	-11.6732
肢	-11.6735
▁九	-11.6736
其旨	-11.6737
酤嚕	-11.6738
無諍	-11.6738
􂤔	-11.6739
從定出已	-11.6739
初文	-11.6742
惡呪	-11.6743
珊	-11.6743
跛娜麼	-11.6744
盆	-11.6744
程	-11.6744
此印三昧	-11.6746
儉	-11.6746
此釋	-11.6746
辨見	-11.6746
釋提桓因	-11.6748
應物	-11.6748
金山	-11.6749
罷	-11.6749
潭	-11.675
相承	-11.675
悲泣	-11.6751
二年	-11.6751
總屬	-11.6751
喧	-11.6751
泄	-11.6751
縛脫無二	-11.6751
坊	-11.6751
起時	-11.6752
生生世世	-11.6753
胷	-11.6753
希望	-11.6754
厭足心生	-11.6754
夾註	-11.6754
里多	-11.6756
尾捺囉	-11.6757
可作	-11.6758
此像	-11.676
佛光	-11.676
無上覺	-11.6761
殺盜淫	-11.6762
例同	-11.6763
別開	-11.6763
五髻	-11.6764
陀耶	-11.6767
誦持此呪	-11.6768
一百四十	-11.6769
大抵	-11.6769
不可破壞	-11.677
交織	-11.6773
亦不應	-11.6774
應受	-11.6774
解悟	-11.6774
結心	-11.6775
三約	-11.6777
則屬	-11.6778
觀力	-11.678
始知	-11.678
大妄語成	-11.6781
惡友	-11.6781
池中	-11.6784
於一切眾生	-11.6784
無量為一	-11.6784
為有定處	-11.6785
月影	-11.6791
空不空	-11.6791
然猶未	-11.6792
中最	-11.6793
時時	-11.6794
雖屬	-11.6794
劫壞	-11.6795
復名	-11.6795
凡愚	-11.6797
作如是說	-11.6797
妙指	-11.6802
末世眾生	-11.6804
恐其	-11.6804
分量	-11.6804
自開	-11.6804
甚矣	-11.6805
今依	-11.6807
應取	-11.681
國師	-11.6811
滿盛	-11.6812
持珠	-11.6813
初心方便	-11.6816
破諸	-11.6818
猶屬	-11.6819
大夫	-11.6823
普眼	-11.6825
執情	-11.6825
怪鬼	-11.6826
宿因	-11.6828
有三摩提	-11.683
之境也	-11.683
下去	-11.6832
大興善寺三藏沙門不空奉詔譯	-11.6834
入曼拏羅	-11.6838
自家	-11.6839
一切字	-11.6841
各執	-11.6841
最下	-11.6842
清淨法界	-11.6842
圓鏡	-11.6846
圓位	-11.6847
觜	-11.6848
地地	-11.6849
左脚	-11.685
斥其	-11.685
甯	-11.6851
通利	-11.6853
亦常	-11.6854
難信	-11.6854
水灑	-11.6855
狂解	-11.6855
二十五有	-11.6856
此屬	-11.6858
獄卒	-11.6858
西國	-11.6858
則根	-11.6859
認此	-11.6861
一切莊嚴	-11.6862
誠如	-11.6862
亦不生	-11.6867
絣	-11.6867
遜婆	-11.6868
後際	-11.6869
巳有	-11.6869
允	-11.687
之願	-11.687
方面	-11.687
大地獄	-11.6871
豐饒	-11.6871
優樓頻螺	-11.6871
各置	-11.6872
補曰	-11.6874
火壇	-11.6874
醋	-11.6875
阿羅訶	-11.6875
無始以來	-11.6876
漫荼羅中	-11.6877
九月	-11.6878
如來之身	-11.6878
之咎	-11.6882
佛又問言	-11.6882
短命	-11.6882
妙性圓明	-11.6882
顯色	-11.6883
合掌頂禮	-11.6883
歸無所得	-11.6884
懸崖	-11.6886
色光	-11.6886
散祖	-11.6887
出乎	-11.6887
不狂	-11.6887
不加	-11.6887
掬水	-11.6888
良久	-11.6889
古德云	-11.689
過現	-11.6892
法施	-11.6892
梨耶	-11.6893
善人	-11.6895
辯才無礙	-11.6895
善種	-11.6895
香塗	-11.6897
所生之處	-11.6897
亦用	-11.6898
覺海	-11.6898
為實有	-11.6899
橫竪	-11.69
叵得	-11.6901
染心	-11.6901
主伴	-11.6901
位位	-11.6904
若生於空	-11.6904
交涉	-11.6905
造惡業	-11.6906
王臣	-11.6907
願令	-11.6909
皆不可得	-11.691
羅闍	-11.6911
成已	-11.6911
調柔	-11.6912
趣向	-11.6914
弘誓	-11.6914
過咎	-11.6916
即攝	-11.6916
殊異	-11.6917
皆從此	-11.6917
重說	-11.6918
幻術	-11.692
婆婆	-11.692
當誦	-11.6921
廣釋	-11.6921
大勤勇	-11.6922
即事	-11.6922
鬼道	-11.6922
祕密法門	-11.6923
滅者	-11.6924
俱發	-11.6925
依經	-11.6929
解界	-11.693
說此法	-11.6932
後分	-11.6932
方稱	-11.6932
合論	-11.6933
薩囉嚩	-11.6935
昏暗	-11.6936
圓彰	-11.6937
況顯	-11.6937
人王	-11.6938
辨之	-11.6941
謬矣	-11.6943
總顯	-11.6944
口誦	-11.6945
理實	-11.6946
往往	-11.6947
不如法	-11.6948
千年	-11.6948
又觀	-11.6949
於未來世	-11.695
速令	-11.6953
不得自在	-11.6953
復次若	-11.6955
遲速	-11.6955
破見	-11.6955
機宜	-11.6956
昔有	-11.6957
􂪦	-11.6961
儞尾	-11.6961
為甚麼	-11.6962
缽納	-11.6963
𦙘	-11.6963
底賀多	-11.6964
四方各	-11.6964
內塵	-11.6965
善聽	-11.6966
註云	-11.6966
顯真見	-11.6967
訶利	-11.6969
出水	-11.6969
先行	-11.6971
磔	-11.6972
得除差	-11.6973
餘四	-11.6974
之屬	-11.6974
必使	-11.6974
諸地	-11.6974
所習	-11.6975
茗	-11.6976
為說法	-11.6976
六日	-11.6979
本身	-11.698
見聞等	-11.6981
金剛頂	-11.6983
煞	-11.6983
工巧	-11.6985
布單那	-11.6986
清淨法身	-11.6986
圓人	-11.6987
貪瞋	-11.6987
業所感	-11.6989
三三昧耶	-11.6989
修善	-11.699
砧	-11.6991
銖	-11.6991
搗	-11.6992
持誦真言	-11.6992
捕	-11.6992
體上	-11.6992
疱	-11.6992
身心快然	-11.6992
妙悟	-11.6993
菩提涅槃元清淨體	-11.6993
耕	-11.6993
權智	-11.6993
別求	-11.6993
攸	-11.6994
云何得知是我真性	-11.6994
漸次深入	-11.6994
元清淨體	-11.6994
腋	-11.6994
退轉	-11.6995
統領	-11.6995
晏	-11.6995
隨所合處	-11.6996
還同	-11.6996
應念化成無上知覺	-11.6996
獲證	-11.6996
熾然成異	-11.6996
四洲	-11.6997
無用	-11.6997
乃云	-11.6998
更無餘	-11.6998
諸識	-11.6999
我等今者	-11.6999
渧	-11.7
所稱	-11.7
金剛三業	-11.7
既同	-11.7001
虗假	-11.7002
是故名為	-11.7002
所觀之境	-11.7003
亦因	-11.7003
既久	-11.7006
因位	-11.7006
毗舍遮	-11.7006
在後	-11.7008
正言	-11.7008
所宜	-11.7008
動靜二相	-11.7008
影響	-11.7008
顯如來藏	-11.7008
全經	-11.701
陰界	-11.7013
妙法蓮華	-11.7013
作如是念	-11.7015
妙覺湛然	-11.7015
聚集	-11.7016
皆不得	-11.7016
能了知	-11.7016
十重	-11.7018
其病	-11.7018
秦言	-11.7019
相同	-11.7021
分散	-11.7022
算數	-11.7026
亦不離	-11.7027
大圓鏡	-11.7028
約理	-11.7029
勝法	-11.7029
在茲	-11.7031
右遶	-11.7032
世出世法	-11.7034
普令	-11.7035
右大指	-11.7036
皆爾	-11.7037
不空成就如來	-11.7037
執金剛祕密主菩薩摩訶薩	-11.7037
金石	-11.7037
惟願世尊	-11.7038
深山	-11.7038
無事	-11.7039
㗚拏	-11.7042
受想行識	-11.7044
救護眾生	-11.7044
教誨	-11.7044
先用	-11.7044
出種種	-11.7045
相雜	-11.7045
默念	-11.7047
還從	-11.7048
伽那	-11.705
標示	-11.705
巳往	-11.7051
喻眾生	-11.7051
文意	-11.7053
阿哩	-11.7054
所覺之	-11.7054
▁No	-11.7054
四念處	-11.7055
菩提性	-11.7055
於諸有情	-11.7058
體空	-11.7058
心魔	-11.7063
現佛身	-11.7067
影子	-11.7067
地者	-11.7068
證涅槃	-11.7069
面向東	-11.707
邪婬	-11.707
眾魔	-11.7072
狂心	-11.7072
求悉地	-11.7072
一室	-11.7073
初阿難下	-11.7075
大指頭	-11.7078
佛境	-11.7079
得無生法忍	-11.708
即所謂	-11.7083
劫初	-11.7083
從真	-11.7084
旎	-11.7087
兩相	-11.7091
其過	-11.7092
根生	-11.7094
陀羅尼一首	-11.7097
無處所	-11.7097
能護	-11.71
如應	-11.7102
妙莊嚴	-11.7103
閻羅	-11.7106
聞慧	-11.7107
溥	-11.7107
鈷	-11.7108
柘	-11.7108
西南角	-11.7109
耶捺麻	-11.7109
字變成	-11.7109
生老病死	-11.7109
還來	-11.711
大驗	-11.7111
縵	-11.7112
摩訶菩提薩埵	-11.7114
於東方	-11.7114
花菓	-11.7114
啖	-11.7114
鋪	-11.7116
級	-11.7116
浸	-11.7116
趙州	-11.7119
朔	-11.7119
礫	-11.712
姦	-11.7121
憂愁	-11.7121
稚	-11.7122
夫婦	-11.7124
形貌	-11.7124
上升	-11.7124
馬鳴	-11.7124
貴人	-11.7125
三緣斷故	-11.7125
值遇	-11.7125
波唎	-11.7129
口中水出	-11.7129
目睛	-11.7129
勤精進	-11.7131
覺他	-11.7133
所迷	-11.7133
一聞	-11.7133
戒行	-11.7133
神等	-11.7134
顯教	-11.7134
約義	-11.7134
善行	-11.7134
便即	-11.7136
頭指來去	-11.7136
三肘	-11.7137
此行陰	-11.7138
俱聞	-11.7141
室唎	-11.7141
欲漏	-11.7142
自己	-11.7142
可反	-11.7142
侍從	-11.7143
利牙	-11.7145
識得	-11.7145
魔入其心腑	-11.7146
緣覺聲聞	-11.715
報障	-11.715
麼曩	-11.7151
矩麼	-11.7151
於三寶	-11.7152
拒	-11.7152
欲行	-11.7152
禁止	-11.7153
土地	-11.7154
罪畢	-11.7155
惡者	-11.7157
從何而	-11.7162
止於	-11.7162
惹曩	-11.7165
若不能	-11.7167
本性清淨	-11.7168
登地	-11.7168
之總	-11.7168
存心	-11.7169
趺坐	-11.7169
與境	-11.717
還滅	-11.7173
三洛叉	-11.7174
見眚	-11.7174
陀羅尼印	-11.7174
妙嚴	-11.7174
稱念	-11.7175
佛塔	-11.7176
嬉戲	-11.7177
顯出	-11.7177
及眷屬	-11.7178
淪墜	-11.718
鼻詵	-11.718
獲法身	-11.7181
大經云	-11.7184
就其	-11.7184
門戶	-11.7187
右手作拳	-11.7188
請益	-11.7188
惡龍	-11.7189
猶為	-11.7191
四緣	-11.7193
畔惹	-11.7195
大供養	-11.7196
揭多	-11.72
凝然	-11.72
擾動	-11.7202
欲除	-11.7203
威神力故	-11.7204
果實	-11.7209
華相	-11.7212
櫱陛	-11.7214
盡矣	-11.7214
問其	-11.7216
不覺知	-11.7216
大悟	-11.7217
二死	-11.7218
宗門	-11.7218
喻無明	-11.7219
妙明真心	-11.722
地瑟耻	-11.7222
讖	-11.7224
大呪	-11.7226
自爾	-11.7227
旋遶	-11.7229
爾時金剛手	-11.7229
訖唎擔	-11.723
懵	-11.723
咬	-11.7231
蓋由	-11.7231
九句	-11.7233
服餌	-11.7235
姊妹	-11.7236
地性	-11.7237
世法	-11.7239
佛祖	-11.7239
囉吽	-11.7239
秫提	-11.7239
大天	-11.7239
耄	-11.7241
無人能	-11.7241
瞻視	-11.7241
非汝而誰	-11.7244
㲲	-11.7244
精研七趣	-11.7244
邊作	-11.7244
恰	-11.7244
魑魅	-11.7245
又善男子受陰虗妙	-11.7245
內外明徹	-11.7245
所宗	-11.7246
㸦	-11.7246
故現斯事	-11.7246
元是菩提妙淨明體	-11.7246
乃至成佛	-11.7246
起惑造業	-11.7247
脇	-11.7247
非於根出	-11.7247
性空真色	-11.7247
巳無	-11.7248
古釋	-11.7248
遏蒲曇	-11.725
而況	-11.7251
種習	-11.7252
住著	-11.7252
左頭指	-11.7252
一切法界	-11.7258
無有障礙	-11.726
由塵	-11.7262
出沒	-11.7263
常情	-11.7265
不得食	-11.7265
本來無	-11.7265
受職	-11.7265
沒哩	-11.7266
誦經	-11.7267
千眼	-11.7268
於師子座	-11.7268
薩埵金剛	-11.727
真三摩地	-11.7271
供養印	-11.7273
理行	-11.7273
教觀	-11.7273
諸眷屬	-11.7277
佛世	-11.7277
凡言	-11.728
旋舞	-11.7281
我言	-11.7283
證悟	-11.7283
對曰	-11.7284
有實體	-11.7284
萬歲	-11.7286
無功	-11.7289
冥然	-11.7291
疾得	-11.7292
自滅	-11.7292
種善根	-11.7294
大火	-11.7294
五法	-11.7295
面向西	-11.7297
足見	-11.7298
菩提道場	-11.73
見性周徧	-11.73
若有菩薩	-11.73
心痛	-11.7301
下科	-11.7301
善財	-11.7302
佛會	-11.7304
白言世尊	-11.7304
持地菩薩	-11.7308
為最初方便	-11.7311
儗哩	-11.7314
平聲	-11.7315
一路	-11.7316
視之	-11.7317
殊特	-11.7317
能善	-11.7318
道品	-11.7318
直以	-11.7318
瑟尼	-11.7321
頂輪	-11.7322
迷則	-11.7323
其形如	-11.7323
因色	-11.7324
牛酥	-11.7324
更互	-11.7324
非眼	-11.7325
為座	-11.7328
不測	-11.7329
無所從	-11.733
之病	-11.7333
羅國	-11.7333
復出	-11.7333
印二手	-11.7338
流通分	-11.7339
誐麼	-11.7339
馱羅	-11.734
經所說	-11.7342
勸令	-11.7343
得益	-11.7344
若被	-11.7344
鬼名	-11.7345
上味	-11.7345
窟中	-11.7347
四天王天	-11.7347
護摩法	-11.7347
捫	-11.7348
麼訶	-11.7348
􂨠	-11.7349
下垂	-11.735
呪白芥子	-11.735
之心也	-11.7351
深祕	-11.7351
柄	-11.7353
一陰	-11.7353
法界性	-11.7353
其日	-11.7353
空居	-11.7354
心動	-11.7354
人執	-11.7354
歧	-11.7354
初總明	-11.7355
羅網	-11.7356
意知根	-11.7357
𡀩	-11.736
谷響	-11.7361
邊畔	-11.7362
在身中	-11.7362
實是	-11.7362
义	-11.7362
散心	-11.7363
糠	-11.7363
離即離非是即非即	-11.7364
豪	-11.7366
睹	-11.7366
介	-11.7367
無缺	-11.7367
纖毫	-11.7367
腸	-11.7369
涕	-11.7371
文五	-11.7371
狂性自歇	-11.7371
另	-11.7372
取水	-11.7372
遮文茶	-11.7372
薩婆薩埵	-11.7372
雀	-11.7373
疲倦	-11.7373
▁vi	-11.7373
-	-11.7373
前後圍遶	-11.7374
都攝六根	-11.7374
知見無見	-11.7377
不相留礙	-11.7377
𦗟	-11.7377
憍陳那	-11.7378
乃指	-11.7378
明暗色空	-11.7378
亦如前	-11.738
可修	-11.738
有云	-11.7381
熾盛光	-11.7381
異反	-11.7381
所生之識	-11.7381
父子	-11.7382
諸境	-11.7383
頭相著	-11.7385
遮羅	-11.7385
作此觀	-11.7385
覆藏	-11.7386
不思議力	-11.7386
悔過	-11.7388
水觀	-11.7389
深法	-11.739
舉手	-11.7392
領受	-11.7392
入縛	-11.7392
其阿闍梨	-11.7392
初後	-11.7393
嚩羅	-11.7393
運心供養	-11.7395
具明	-11.7396
銷落	-11.7396
廓然	-11.7396
呵呵	-11.7398
本無生	-11.7401
首卷	-11.7401
交接	-11.7402
身界	-11.7403
阿含云	-11.7404
能成就一切	-11.7406
修真言行	-11.7406
各各不同	-11.7408
閻摩	-11.7413
聞聞	-11.7414
妙奢摩他	-11.7416
大菩薩身	-11.7416
卷下	-11.7418
伏斷	-11.742
薩普	-11.7421
是心非眼	-11.7424
正面	-11.7425
邊見	-11.7425
四合	-11.7425
加持力	-11.7426
悟則	-11.7426
墮獄	-11.7428
十方菩薩	-11.7429
聖證	-11.7429
見元	-11.7429
同虛空	-11.743
皆悉成就	-11.7431
告之曰	-11.7432
留難	-11.7432
諸天人	-11.7434
初釋	-11.7434
一百八名	-11.7435
皆歸	-11.7436
五藏	-11.7436
來相	-11.7438
道果	-11.7439
此所謂	-11.7439
現前一念	-11.7439
凡欲	-11.744
誦此密言	-11.7441
受持此	-11.7441
相似位	-11.7441
猶可	-11.7441
必具	-11.7443
種種法門	-11.7443
生續	-11.7446
閑靜	-11.7446
得無礙	-11.7447
東南方	-11.7449
娜曩	-11.745
畢哩	-11.7453
究盡	-11.7453
勝地	-11.7454
囉誐	-11.7455
折羅	-11.7455
還歸	-11.7458
假立	-11.7458
室利	-11.7458
於彼處	-11.7459
天諸	-11.746
牛頭	-11.746
且道	-11.7462
女身	-11.7462
櫱妬	-11.7467
相符	-11.7468
細曩缽	-11.7468
又用	-11.7468
喻真性	-11.7468
次從	-11.7469
𩕳嚩	-11.7469
本頭	-11.747
想愛	-11.7472
說此呪	-11.7475
有淺深	-11.7476
曩謨窣覩	-11.7476
◎	-11.7478
涅槃經云	-11.748
既空	-11.748
邪定	-11.7481
囉儜	-11.7482
不全	-11.7483
煖觸	-11.7485
十者	-11.7486
眼識界	-11.7487
昵	-11.7488
大富	-11.7489
憚	-11.7489
哿	-11.7491
貪嗔癡	-11.7491
慈悲喜捨	-11.7492
稱意	-11.7492
一遍一擲火中	-11.7492
之迷	-11.7493
頭面禮足	-11.7494
孟	-11.7496
咄嚕	-11.7496
此二種	-11.7496
密移	-11.7498
睒	-11.7498
骸	-11.7499
三轉	-11.7499
六受用根	-11.7499
不如此說即波旬說	-11.7499
情少想多	-11.7499
襲	-11.7499
情多想少	-11.7499
絃	-11.75
ga	-11.75
經疏	-11.7501
佛旨	-11.7501
肉髻	-11.7502
㭊	-11.7503
吏	-11.7503
迷真起妄	-11.7503
伽伽那	-11.7503
暈	-11.7503
豐足	-11.7504
如汝所說	-11.7504
帚	-11.7504
外相叉	-11.7505
哦	-11.7505
左肩	-11.7505
未全	-11.7506
虗空藏菩薩	-11.7506
說偈言	-11.7506
講堂	-11.7507
相望	-11.7507
不滅不生	-11.7508
萬二千	-11.7508
諷誦	-11.7508
融通妄想	-11.7509
檀波羅蜜	-11.7511
雲如來南無	-11.7512
欣厭	-11.7513
終教	-11.7517
但說	-11.752
輕清	-11.7521
離聲	-11.7523
風力	-11.7525
十習因	-11.7525
當墮	-11.7525
從一切如來心	-11.7525
復入一切如來	-11.7529
爾時觀世音菩薩	-11.7529
含容	-11.7531
伐底	-11.7531
塔前	-11.7532
月蝕	-11.7532
之所說	-11.7533
愛重	-11.7533
枳帝	-11.7534
第四禪	-11.7534
難明	-11.7534
既從	-11.7535
大空點	-11.7535
除斷	-11.7535
雙破	-11.7536
一切部多	-11.7537
欲破	-11.754
竭囉	-11.754
別說	-11.7544
如是等種種	-11.7546
婆呵	-11.7546
金光	-11.7547
二計	-11.7547
我與如來	-11.7549
無咎	-11.755
遍觀	-11.7551
例如	-11.7551
普現	-11.7552
方乃	-11.7552
獻食	-11.7553
起處	-11.7554
兜羅	-11.7556
向身	-11.7556
有一人	-11.7556
宗趣	-11.7558
西南方	-11.7559
隨從	-11.7561
受罪	-11.7563
無所住	-11.7564
欲流	-11.7564
慧心	-11.7565
能遍	-11.7569
等是也	-11.7574
半劫	-11.7575
大論	-11.7576
傳示	-11.7577
賀染母	-11.7577
三叉	-11.7577
一切天神	-11.758
遊於	-11.7581
若有行人	-11.7582
屈曲	-11.7587
欲使	-11.7588
淫欲	-11.7588
墮在	-11.7589
一切法門	-11.759
諸佛子	-11.7592
懈	-11.7593
水生	-11.7593
賀哩	-11.7594
ya	-11.7594
佛位	-11.7595
千由旬	-11.7595
生死流	-11.7597
聲相	-11.7599
復次宣說	-11.76
作利益	-11.7601
抵	-11.7605
怛曩	-11.7607
別顯	-11.7609
巳還	-11.7609
之論	-11.7609
依前法	-11.7611
懶	-11.7612
沃	-11.7612
菩提果	-11.7613
世尊我今	-11.7613
外道計	-11.7613
三聚	-11.7613
極喜	-11.7614
其頭	-11.7614
隋	-11.7614
啞吽	-11.7614
𠷑吒	-11.7615
迦囉迦囉	-11.7615
忠	-11.7616
所礙	-11.7617
瓮	-11.7618
右手作	-11.7619
碧	-11.7619
掛	-11.7619
煥	-11.762
西北角	-11.762
生於空	-11.762
若能轉物	-11.762
奢摩他等	-11.7621
囚	-11.7621
無塵	-11.7622
嗜	-11.7622
深達	-11.7623
堦	-11.7623
火頭	-11.7624
軍陣	-11.7625
誐嚕拏	-11.7625
醎	-11.7625
匹	-11.7625
稱彼名	-11.7625
聖言	-11.7626
俊	-11.7626
昨	-11.7626
不歷僧祇獲法身	-11.7627
裁	-11.7628
杳	-11.7628
三千大千	-11.7629
形影	-11.7629
年歲	-11.7629
訥瑟	-11.763
讓	-11.763
能生諸緣	-11.763
性覺必明	-11.763
非因所因	-11.7631
阿蘇囉	-11.7631
非因非緣	-11.7631
驕	-11.7631
殄滅	-11.7632
蓮華化生	-11.7632
勃馱南	-11.7632
作禮而去	-11.7633
互顯	-11.7633
隨願往生	-11.7633
名大佛頂	-11.7633
眼藥	-11.7634
灌其頂	-11.7634
奉事	-11.7636
陀婆	-11.7637
諸天神	-11.7638
釋疑	-11.7639
急呼	-11.764
既聞	-11.764
瞪發勞相	-11.7641
許宣	-11.7641
昭然	-11.7642
又以此心	-11.7643
分六	-11.7644
分劑	-11.7644
摩陀	-11.7646
貪婬	-11.7646
資益	-11.7647
摩努	-11.7648
少時	-11.7649
繫項	-11.7649
爾時彼	-11.7651
尚不知	-11.7652
不隨分別	-11.7654
常須	-11.7655
先從	-11.7656
輪中	-11.7657
諸經論	-11.7659
羯吒	-11.7659
無涯	-11.766
異說	-11.766
金剛手祕密主	-11.7661
塵劫	-11.7661
美妙	-11.7661
權乘	-11.7662
尚不可得	-11.7665
三尺	-11.7668
橫死	-11.7671
正位	-11.7672
先悟	-11.7672
惹吒	-11.7674
阿彌陀	-11.7675
軍持	-11.7679
此間	-11.7681
相竟	-11.7682
佛成道	-11.7683
堅實	-11.7684
則墮	-11.7685
石上	-11.7686
五星	-11.7687
寶樹	-11.7687
想生	-11.7688
不會	-11.7688
腑	-11.7691
教他	-11.7692
左大指	-11.7693
成就儀軌	-11.7698
中攝	-11.7699
魔怨	-11.77
木作	-11.7702
妙光	-11.7705
不斷婬	-11.7706
妄言	-11.7706
四空天	-11.7707
澄湛	-11.7711
今此中	-11.7712
用塗	-11.7712
六師	-11.7714
山石	-11.7715
捨此	-11.772
諸門	-11.7724
有方所	-11.7725
常持	-11.7725
汝今當知	-11.7725
十界俱	-11.7727
發悟	-11.773
本地	-11.7732
稱之為	-11.7732
後夜	-11.7732
設多	-11.7734
佛手	-11.7735
第一節	-11.7736
揀選	-11.7736
曼多	-11.7736
跛左跛左	-11.7737
求菩提	-11.7737
面西	-11.7737
遙見	-11.7738
日日三時	-11.7741
毘輸	-11.7741
說神呪	-11.7742
此五陰	-11.7742
雙離	-11.7743
又名	-11.7743
汝何	-11.7744
部類	-11.7744
死者	-11.7746
聖胎	-11.7747
顯法	-11.7747
復取	-11.7749
哲	-11.7749
優鉢羅華	-11.7749
蘂	-11.775
裙	-11.775
哈	-11.775
縫	-11.7751
縛日羅	-11.7752
形容	-11.7752
溢	-11.7752
助伴	-11.7752
脛	-11.7752
馺	-11.7753
迄	-11.7754
楊枝	-11.7754
互通	-11.7756
根境不偶	-11.7756
酥蜜酪	-11.7756
巢	-11.7756
是即非即	-11.7756
別報	-11.7756
報佛恩	-11.7757
還有	-11.7757
天如補註曰	-11.7757
歛	-11.7757
朕	-11.7757
依空立世界	-11.7757
三麼曳	-11.7758
空生大覺中	-11.7758
水不能溺	-11.7759
嗚𤙖	-11.7759
軸	-11.7759
勝淨明心	-11.7759
金錢	-11.7759
從自心出	-11.776
週	-11.776
得悉地	-11.7761
物我	-11.7761
與諸佛	-11.7761
生汝妄能	-11.7761
說此經	-11.7761
月光童子	-11.7761
嚕捺囉	-11.7762
用中相背	-11.7762
本不動搖	-11.7762
(○○	-11.7762
肯綮	-11.7762
定果色	-11.7763
沒溺	-11.7763
有人來問	-11.7764
嚩嚕拏	-11.7764
妙莊嚴海	-11.7764
苟能	-11.7764
招引惡果	-11.7764
本覺明心	-11.7764
千葉	-11.7765
漸修	-11.7765
一切諸佛菩薩摩訶薩	-11.7765
不入輪迴	-11.7766
皎潔	-11.7766
置於頂上	-11.7766
一匝	-11.7766
大孔雀呪王	-11.7767
辨才	-11.7767
洞山	-11.7769
各得	-11.7769
金剛忿怒	-11.777
較量	-11.7773
憶想	-11.7773
隱沒	-11.7773
一周	-11.7774
▁一破	-11.7774
如微塵	-11.7775
妙高山	-11.7775
性本無	-11.7775
不相干	-11.7776
阿難所請	-11.7778
對像前	-11.7778
是法身	-11.7779
天人阿修羅	-11.7779
妙旨	-11.7779
無所從來	-11.7779
有大威德	-11.778
命元	-11.778
並吉	-11.7781
目觀	-11.7783
唵嚩日羅	-11.7788
總成	-11.7789
佛家	-11.7789
強覺	-11.779
云何如來	-11.7791
向東	-11.7793
正教	-11.7795
海潮	-11.7796
一丸	-11.7796
一經之	-11.7796
天雨	-11.7797
惑為因緣	-11.7797
羅叉	-11.7798
惑人	-11.7798
錢財	-11.7801
迷失	-11.7801
我觀	-11.7803
聲字	-11.7804
菩提場	-11.7809
繫心	-11.781
因人	-11.7811
業火	-11.7811
持經	-11.7812
第三漸次	-11.7812
法無我	-11.7813
而作佛事	-11.7813
二臂	-11.7814
說陀羅尼	-11.7814
弘經	-11.7814
入城	-11.7816
隱形	-11.7819
漸除	-11.7819
從緣起	-11.782
作此法者	-11.7821
何別	-11.7821
翻覆	-11.7824
破因緣	-11.7826
斷德	-11.7829
復次說	-11.7831
半分	-11.7832
析色	-11.7833
何人	-11.7833
鬼神王	-11.7835
空不空如來藏	-11.7839
應誦	-11.7839
四月	-11.784
計為常	-11.7841
吉帝	-11.7842
娑底	-11.7843
因香	-11.7846
縱許	-11.7846
但因	-11.7848
福業	-11.7848
菩陀	-11.7848
世智	-11.7848
矩吒	-11.7848
住壽	-11.7849
彼天像	-11.7854
廣略	-11.7857
是故汝今	-11.7859
鉤印	-11.7859
譯為	-11.786
而得成就	-11.7861
應現	-11.7862
當知即是	-11.7862
備顯	-11.7865
又解	-11.7866
一切障難	-11.7866
眾行	-11.7867
例明	-11.7868
􂏍	-11.7868
隨意所	-11.7869
供養三寶	-11.787
誠言	-11.7871
常徧	-11.7871
都無所	-11.7872
本淨	-11.7873
嚩曰囉	-11.7881
支離	-11.7884
一食	-11.7884
為宣說	-11.7885
攀	-11.7885
菖蒲	-11.7887
起念	-11.7888
蒭	-11.7888
槊	-11.7889
串	-11.789
却來	-11.789
如是說已	-11.7891
曼拏	-11.7891
乃至云	-11.7891
又法於	-11.7891
革	-11.7891
白蓮	-11.7892
真言及手印	-11.7892
末囉	-11.7892
大海中	-11.7893
如惡叉聚	-11.7893
佛滅度後	-11.7893
成結界	-11.7893
鈴鐸	-11.7893
刊	-11.7893
烏芻	-11.7893
扣	-11.7893
一作禮陳白	-11.7893
箜篌	-11.7894
仲	-11.7894
誦呪七遍	-11.7894
ī	-11.7894
粳米飯	-11.7895
潛行貪欲	-11.7895
真言字	-11.7895
呤	-11.7896
迦旃延	-11.7896
挾	-11.7896
性中相知	-11.7896
所既妄立	-11.7896
性覺妙明本覺明妙	-11.7897
見猶離見	-11.7897
恆	-11.7897
純覺遺身	-11.7898
於本尊	-11.7899
如鳥出籠	-11.7899
父王	-11.7899
昏鈍	-11.79
非指	-11.7901
斥迷	-11.7903
垂範	-11.7903
擊鼓	-11.7903
皆得圓滿	-11.7903
食三白食	-11.7905
供佛	-11.7905
違拒	-11.7906
滋味	-11.7906
不見內	-11.7906
最上法	-11.7908
佛言大王	-11.7908
應合	-11.7909
空閑	-11.7912
老僧	-11.7913
後二句	-11.7914
即是法界	-11.7914
前約	-11.7916
破鏡	-11.7918
何在	-11.7919
微妙開示	-11.792
都盡	-11.7923
變怪	-11.7924
無動靜	-11.7925
一微塵	-11.7925
字為種子	-11.7926
二科	-11.7926
不復生	-11.7927
孽多	-11.7928
塗壇	-11.7928
同證	-11.793
隨文	-11.7931
雙徵	-11.7932
傳教	-11.7933
作訖囉	-11.7933
初牒	-11.7933
語業	-11.7934
佛頂輪王	-11.7934
相傳	-11.7935
惟此	-11.7936
貪心	-11.7937
神驗	-11.7939
詵	-11.7939
眾妙	-11.7941
要當	-11.7942
稱揚	-11.7942
教主	-11.7942
姓名	-11.7943
有幾種	-11.7944
善道	-11.7944
一丈	-11.7946
目呿波利簸梨	-11.7947
忿怒金剛	-11.7947
即愈	-11.7948
一切有情眾生	-11.7949
字字	-11.7949
從何處	-11.7951
然後以	-11.7952
囉訖	-11.7955
傳云	-11.7956
古師	-11.796
紫檀	-11.796
大家	-11.7963
善來	-11.7965
摧破	-11.7965
起大悲心	-11.7965
誦習	-11.7966
或求	-11.7966
如來祕密	-11.7968
坐臥	-11.7968
現在未來	-11.7968
婆沙	-11.7969
阿吒	-11.7973
時如何	-11.7975
具壽	-11.7977
開敷蓮華	-11.7977
)􂏖	-11.7978
勿使	-11.7978
歸性	-11.7979
若欲令	-11.7981
無明住地	-11.7982
起諸	-11.7982
雖能	-11.7984
背後	-11.7985
護摩爐	-11.7989
須達	-11.799
臍輪	-11.799
青黃	-11.7991
曩謨婆	-11.7991
增壽	-11.7992
娑那	-11.7992
證道	-11.7993
兩肩	-11.7996
元來	-11.7996
波吒	-11.7996
如虗空華	-11.7996
舍利塔	-11.7996
合時	-11.7998
阿耨	-11.7999
二種顛倒	-11.8
怖魔	-11.8001
圓定	-11.8001
𠰒	-11.8003
諸龍王	-11.8005
不寐	-11.8005
離言說	-11.8007
思想	-11.8007
藍婆	-11.8009
純淨	-11.8009
六義	-11.8011
大勢至菩薩	-11.8013
摘	-11.8014
嘍	-11.8014
身金色	-11.8015
鼻舌身	-11.8017
非非想	-11.8018
𡫸	-11.8018
無滯	-11.802
毘尼	-11.802
慳悋	-11.8021
䠒	-11.8021
葱	-11.8021
失於	-11.8022
飜	-11.8022
梵名	-11.8022
甚大	-11.8023
莾	-11.8024
說此頌曰	-11.8024
枳里枳里	-11.8024
斯陀含	-11.8024
譏	-11.8025
悌	-11.8025
雌黃	-11.8025
此見及緣元是菩提妙淨明體	-11.8026
小中現大	-11.8027
左𥠖	-11.8027
貨	-11.8028
造立	-11.8028
怠	-11.8028
互相涉入	-11.8028
最後垂範	-11.8029
邀	-11.8029
寂而常照	-11.803
隨眾生心應所知量	-11.803
啼泣	-11.803
而說呪曰	-11.8031
返流全一	-11.8031
凖	-11.8031
出假	-11.8032
盡聞不住	-11.8032
九情一想	-11.8032
八葉蓮華	-11.8033
質多羅	-11.8033
或有眾生	-11.8034
離諸名相	-11.8034
難見	-11.8034
各各自謂成無上道	-11.8035
慈誨	-11.8036
延命	-11.8037
為復因	-11.8037
水洗	-11.8038
開佛知見	-11.804
本周法界	-11.8042
為障者	-11.8043
精耀	-11.8043
造像	-11.8044
但惟	-11.8044
卷上	-11.8044
振動	-11.8045
次第遷流	-11.8045
佛國土	-11.8046
諮問	-11.8049
展舒	-11.8052
傾奪	-11.8054
驚疑	-11.8054
真言明仙	-11.8055
作是法	-11.8058
等正覺	-11.8059
向佛	-11.806
今取	-11.806
淨衣	-11.8061
者謂此	-11.8061
一切三昧	-11.8064
鏡像	-11.8065
無名指小指	-11.8066
灌頂已	-11.8069
踊躍	-11.807
潤澤	-11.8072
可壞	-11.8072
持鉢	-11.8072
疾疫	-11.8073
各有所	-11.8075
入菩薩乘	-11.8078
通三部	-11.808
見諸佛心	-11.8084
凡諸	-11.8087
後念	-11.8096
重擔	-11.8097
指歸	-11.8097
種種差別	-11.8098
藥叉神	-11.8098
梵世	-11.8099
以香水	-11.81
如滿月	-11.81
持誦時	-11.81
塗其	-11.8103
宜應	-11.8104
鼻音	-11.8105
問阿難言	-11.8106
通結	-11.8109
此陀羅尼句	-11.811
寶鬘	-11.811
澄心	-11.8111
明照	-11.8112
互具	-11.8114
救苦	-11.8115
四足	-11.8117
此大神呪	-11.8117
檀香	-11.8118
卷末	-11.8118
亦屬	-11.812
依此法	-11.812
一倍	-11.8126
仰山	-11.8135
百千劫	-11.8135
善星	-11.8135
入證	-11.8135
壇印	-11.8136
諾賀諾賀	-11.8137
伽伽	-11.8141
水母	-11.8142
毒龍	-11.8146
為我說	-11.8146
業感	-11.8147
以喻明	-11.8148
復用前像	-11.8148
題中	-11.8152
一寸	-11.8153
富饒	-11.8153
班	-11.8155
抧	-11.8155
東南角	-11.8157
初天	-11.8157
喫食	-11.8157
滅塵合覺	-11.8158
天樂	-11.8158
飡	-11.8158
橋	-11.8158
轉釋	-11.8158
匱	-11.816
佉陀羅木	-11.816
例餘	-11.8161
釋論	-11.8161
赫	-11.8161
訣	-11.8162
律反	-11.8162
葷	-11.8163
朋	-11.8163
津液	-11.8164
眩	-11.8164
卦	-11.8164
一切所求	-11.8164
能招	-11.8164
f	-11.8165
几	-11.8165
五不還天	-11.8165
爍迦羅	-11.8165
暎	-11.8165
因根有相	-11.8166
即受羣邪	-11.8166
一音	-11.8166
如淨琉璃	-11.8167
惑為菩薩	-11.8167
如是十種禪那現境	-11.8167
貴賤	-11.8168
熟銅	-11.8168
窮生類本觀彼幽清常擾動元	-11.8168
娑毗迦羅	-11.8168
雲棲	-11.8168
頂後	-11.817
佛問圓通如我所證	-11.817
多聞天王	-11.817
則不隨其生死相續	-11.8171
無有休息	-11.8172
涌出	-11.8173
世界相涉	-11.8173
灌頂章句	-11.8173
同生基	-11.8176
拳印	-11.8179
得神通	-11.8179
所共	-11.8179
燒香供養	-11.8181
善修	-11.8181
合和	-11.8182
阿那律	-11.8185
雜和	-11.8185
欲修	-11.8188
積劫	-11.819
脩習	-11.8192
十虗	-11.8192
妙好	-11.8192
病患	-11.8193
祕要	-11.8195
𤙖𤙖	-11.8195
等罪	-11.8196
低頭	-11.8197
合喻	-11.8197
得宿命智	-11.8198
竪立	-11.8199
十二指	-11.8201
一切境界	-11.8202
一呪一	-11.8203
百法	-11.8203
其味	-11.8204
俗人	-11.8206
龜毛兔角	-11.8209
圓實	-11.8209
普觀	-11.8214
雖別	-11.8216
悉陀	-11.8221
薩嚩怛他蘖多	-11.8221
便同	-11.8224
釋論云	-11.8225
利劍	-11.8228
天龍鬼神	-11.8229
大集	-11.8231
為因心	-11.8234
野怛他	-11.8239
重疊	-11.824
非餘	-11.8244
起大慈悲	-11.8246
呪人	-11.8247
二初正明	-11.8247
烏波	-11.8248
皈依	-11.8249
三惡道	-11.8249
流浪	-11.825
諸國土	-11.8252
各依本	-11.8253
有殊	-11.8254
俱致	-11.8254
摩奴	-11.8257
加持二十一遍	-11.8257
冷煖	-11.8262
身心圓明	-11.8264
緣因	-11.8266
相繼	-11.8269
v	-11.8269
十乘	-11.8272
迦野	-11.8273
縛脫	-11.8276
閼伽水	-11.8277
而不言	-11.8278
唧哩唧哩	-11.8278
寶物	-11.8283
盜貪	-11.8283
貴敬	-11.8286
多婬	-11.8286
蓋言	-11.8287
徹底	-11.8289
跋日囉	-11.8289
五色粉	-11.8291
枉習	-11.8296
印兔那麼麼寫	-11.8296
無有能	-11.8296
哩迦	-11.8296
召集	-11.8297
滓	-11.8298
誌	-11.8299
殑伽沙俱胝那庾多百千	-11.8299
臨濟	-11.83
二羽金剛縛	-11.8301
聽許	-11.8301
全體大用	-11.8301
宏	-11.8302
佉字	-11.8302
繫其	-11.8304
袪	-11.8304
羸	-11.8304
詠	-11.8304
九次第定	-11.8304
無見頂相	-11.8304
孺	-11.8305
三德祕藏	-11.8305
發覺初心	-11.8305
編	-11.8305
信受奉行	-11.8305
之慈	-11.8305
縈	-11.8306
雉	-11.8306
我曠劫來	-11.8306
十二區分	-11.8307
裡	-11.8307
囉怛	-11.8307
此非汝心	-11.8307
如幻三摩提	-11.8307
汝將誰見	-11.8307
認悟中迷	-11.8307
從法化生	-11.8308
識生其中	-11.8308
湯藥	-11.8308
死後俱非	-11.8309
不淨觀	-11.8309
前後圍繞	-11.8309
二尺	-11.831
櫱婆	-11.831
蝦	-11.831
本覺明妙	-11.831
明不循根	-11.831
初門	-11.8311
來無所從	-11.8311
牛馬	-11.8312
損壞	-11.8312
這一節經承上	-11.8313
末法之中	-11.8314
頻伽	-11.8314
湛不搖處	-11.8315
重明	-11.8317
阿㝹	-11.8317
鄔波	-11.8317
是諸眾生	-11.8319
閻羅王	-11.832
慧光	-11.8321
福報	-11.8322
水罐	-11.8322
鼻中	-11.8322
對機	-11.8324
眼耳鼻舌	-11.8324
土梟	-11.8324
顏色	-11.8325
當畫	-11.8326
為教體	-11.8329
無所在	-11.8333
大河	-11.8334
大方便	-11.8334
撥無	-11.8336
小大	-11.8337
誐底	-11.8338
卷第一	-11.8339
皆指	-11.834
首尾	-11.8341
夜叉王	-11.8342
如鏡中	-11.8342
但可	-11.8342
宿命通	-11.8346
三世四方	-11.8347
湛了	-11.8348
闍那	-11.8348
大仙人	-11.835
知已	-11.8351
一切如來祕密	-11.8352
嚩訶	-11.8352
隨人	-11.8353
無畏施	-11.8356
并眷屬	-11.8357
卷第四	-11.8357
果能	-11.8361
􂛶(	-11.8363
與佛同	-11.8364
所愛樂	-11.8366
羅羅	-11.8366
見水	-11.837
如此方	-11.8371
淨眼	-11.8371
圓音	-11.8372
五支	-11.8375
空體	-11.838
以偈	-11.8381
精魅	-11.8383
藥塗	-11.8384
有所明	-11.8385
遍十方	-11.8385
諸凡夫	-11.8386
六年	-11.8387
所緣境	-11.8387
或計	-11.8388
一毛	-11.8389
寶杖	-11.839
安像	-11.8391
密意	-11.8395
與法華	-11.8396
許其	-11.8397
大勢	-11.8399
如上所	-11.84
莊嚴其身	-11.8402
事畢	-11.8403
作漫荼羅	-11.8404
萬化	-11.8407
拶咄	-11.8409
此壇	-11.8409
先令	-11.8412
摩醯	-11.8413
攀緣心	-11.8416
稱量	-11.8416
耶莎訶	-11.8417
若遇	-11.8419
唯然	-11.842
悉知	-11.8421
證無學	-11.8421
一切世間出世間	-11.8424
始有	-11.8425
如來法身	-11.8425
賀賀賀	-11.8428
誐蹉	-11.8429
金剛舞	-11.843
哹	-11.843
執金剛者	-11.8431
妹	-11.8431
衫	-11.8431
若諸比丘	-11.8435
柳枝	-11.8435
間有	-11.8436
逕	-11.8436
圓明中	-11.8438
癰	-11.8439
備矣	-11.8439
誦真言一千八遍	-11.844
三藐三佛陀	-11.844
艱	-11.8442
迷妄有虗空	-11.8442
白傘	-11.8443
以生滅心	-11.8443
大中現小	-11.8443
發本明耀	-11.8444
侍衛	-11.8444
料揀	-11.8444
深遠	-11.8444
嬰	-11.8444
宿直日	-11.8445
厭足心生去彼人體	-11.8445
▁|○	-11.8445
背相著	-11.8445
一瓶	-11.8445
以觀觀者	-11.8445
般刺	-11.8446
覈	-11.8446
振裂	-11.8446
憍梵鉢提	-11.8447
擬議	-11.8447
能治	-11.8447
十緣生句	-11.8447
又三摩中諸善男子堅凝正心魔不得便	-11.8449
咨	-11.8449
悟則無咎非為聖證	-11.845
奉上	-11.8451
同分妄見	-11.8451
若作聖解即受群邪	-11.8452
亦有徒眾	-11.8452
若人欲	-11.8453
澄濁	-11.8453
尸棄	-11.8453
剎那頃	-11.8455
堅住	-11.8457
畢陵	-11.8458
還元	-11.8459
得大隨順	-11.8459
為弟子	-11.8461
虗偽	-11.8461
至妙覺	-11.8461
理具	-11.8464
思食	-11.8466
密跡主	-11.8468
見佛性	-11.847
右足	-11.8471
空慧	-11.8472
正請	-11.8472
亦有亦無	-11.8472
野干	-11.8473
在掌中	-11.8474
作觀想	-11.8474
宗旨	-11.8475
摩底	-11.8477
左邊畫	-11.8477
寧有	-11.8478
倣此	-11.8478
教理	-11.8482
發聲	-11.8484
一髻	-11.8486
必得成就	-11.8486
詳辯	-11.8488
明誨	-11.8488
有大小	-11.8488
之別名	-11.8488
各畫	-11.8488
念誦儀軌	-11.8491
外魔	-11.8491
祇夜	-11.8494
中指上節	-11.8496
午時	-11.8499
元年	-11.8499
凝結	-11.8501
虗妄本非因緣非自然性	-11.8501
非一體	-11.8502
無言說	-11.8503
能救	-11.8503
赤眚	-11.8505
位在	-11.8507
吠舍	-11.8509
雙結	-11.851
火風	-11.8511
巘馱	-11.8511
慧方便	-11.8512
中夭	-11.8512
之力也	-11.8514
十月	-11.8514
無盡流	-11.8518
人畜	-11.8518
立喻	-11.852
汝亦如是	-11.8521
舌味	-11.8523
摩利	-11.8524
非獨	-11.8526
善惡業	-11.8526
跛哩嚩	-11.8527
增益法	-11.8528
酥燈	-11.8531
能出生	-11.8534
眼能見	-11.8534
大神力	-11.8537
所說法	-11.8538
旦見	-11.854
同乎	-11.854
即下文	-11.8541
有如是等	-11.8543
大威	-11.8544
三增進	-11.8549
譯者	-11.8553
無妨	-11.8554
舍衛國	-11.8555
南麼	-11.8556
能覺之	-11.8557
臂上	-11.8559
徧一切處	-11.8561
文六	-11.8561
寶花	-11.8561
慧手	-11.8562
虗想	-11.8563
􂏨	-11.8566
頂相	-11.8567
難拏	-11.8568
在天	-11.8571
於諸眾生	-11.8571
麼矩吒	-11.8572
與樂	-11.8575
取例	-11.8576
開出	-11.8576
怙	-11.8576
直舒	-11.8578
屈入掌	-11.8579
淨極	-11.8579
睛	-11.8579
忽起	-11.8579
孩	-11.858
郡	-11.8581
香花等	-11.8582
詑	-11.8582
顏貌	-11.8583
安立聖位	-11.8583
縠	-11.8584
毘沙	-11.8585
寶藏神	-11.8585
白世尊言	-11.8586
取白芥子	-11.8586
是種種地	-11.8587
燋	-11.8587
ṣ	-11.8588
踊躍歡喜	-11.8588
諸禪	-11.8589
以動為境	-11.859
土出	-11.859
錯亂	-11.859
浮漚	-11.8591
開圓解	-11.8591
廿	-11.8592
今復問汝	-11.8592
若於所歸	-11.8593
定林云	-11.8593
想相為塵	-11.8594
身口意三	-11.8595
滿一千八遍	-11.8595
揀異	-11.8595
室羅城	-11.8596
以刀	-11.8597
嚩禰	-11.8598
染法	-11.8598
羅龍王	-11.8599
五現涅槃	-11.8601
果證	-11.8602
鐘鼓	-11.8602
少選	-11.8604
怨習	-11.8604
是義云何	-11.8604
隔礙	-11.8605
落謝	-11.8606
長子	-11.8606
習漏	-11.861
即往	-11.861
大槩	-11.861
書之	-11.8611
有想無想	-11.8612
玄沙	-11.8615
雖因	-11.8616
加持水	-11.8617
善男子汝	-11.8619
冥感	-11.862
名之曰	-11.862
徧行	-11.8622
護摩一千八遍	-11.8623
業苦	-11.8624
最妙	-11.8626
手執蓮華	-11.8631
只一	-11.8633
無法可	-11.8636
更有何	-11.8637
若欲求	-11.8637
帝王	-11.864
例前	-11.8641
汝聞	-11.8641
智悲	-11.8642
所趣	-11.8643
末底	-11.8643
悉底哩	-11.8644
別異	-11.8646
能燒	-11.8647
持齋	-11.8647
無干	-11.8648
因緣生法	-11.8648
曩囉	-11.8648
目眚	-11.865
併銷	-11.8651
簡擇	-11.8653
嚩拏	-11.8654
之總名	-11.8654
可比	-11.8655
婆盧	-11.8656
普門品	-11.8657
悟入也	-11.8661
使令	-11.8664
始則	-11.8665
為限	-11.8666
可愛	-11.8668
自力	-11.8668
修無漏	-11.867
甚深法	-11.8673
聞機	-11.8673
道場中	-11.8673
凡情	-11.8674
之尊	-11.8677
先舉	-11.8677
大藥叉將	-11.8682
賢護	-11.8682
可乎	-11.8683
大喜	-11.8683
受想行	-11.8685
成阿耨多羅三藐三菩提	-11.8688
聖藥	-11.8688
飛空	-11.8689
今揀	-11.8689
勝流	-11.869
金剛蓮華	-11.8691
夜摩天	-11.8694
輪壇	-11.8694
五寸	-11.8697
證初果	-11.8699
有大神力	-11.8701
癸	-11.8704
見境	-11.8705
竺	-11.8705
悟一切法	-11.8705
無敢	-11.8707
照應	-11.8708
大名稱	-11.8711
可用	-11.8711
真元	-11.8712
最上祕密	-11.8714
運想	-11.8715
能成辦	-11.8716
嚩播	-11.8716
奉施	-11.8716
必假	-11.8718
蓮華中	-11.872
非真實	-11.8722
裝	-11.8722
不敬	-11.8722
和會	-11.8723
千手千眼	-11.8724
矢	-11.8725
鉢訥	-11.8725
䞘	-11.8726
肚	-11.8726
槌	-11.8727
膜	-11.8728
雷音	-11.8728
但用	-11.8728
明暗空塞	-11.8728
本發心路	-11.8728
唵斡資囉	-11.8729
肖	-11.873
圓滿菩提歸無所得	-11.8731
霽	-11.8731
捨念清淨	-11.8731
栖	-11.8732
惟垂大慈	-11.8732
這箇	-11.8732
緯	-11.8732
帖	-11.8733
爾時天魔候得其便飛精附人口說經法	-11.8733
見見之時見非是見	-11.8733
梓	-11.8733
瞋心	-11.8733
彈指超無學	-11.8733
軌儀	-11.8734
惡賊	-11.8734
非色非空	-11.8735
庶幾	-11.8736
蚊蚋	-11.8737
寶積	-11.8737
猒	-11.8738
報言	-11.8738
亦異	-11.8738
對辨	-11.8739
暫得如是非為聖證	-11.8739
右臂	-11.8739
依法觀想	-11.874
二食指	-11.874
塵不可出	-11.8741
身心相知	-11.8741
囉灑	-11.8744
擔尾	-11.8744
跛底	-11.8744
誠諦	-11.8749
循乞	-11.8751
尸利	-11.8754
我今當說	-11.8754
示同	-11.8756
魔宮	-11.8756
香雲	-11.8756
一切無著	-11.8756
猶如空華	-11.8757
猶如微塵	-11.8758
誦真言加持	-11.8759
鼻端	-11.876
為復自然	-11.8761
怛吠	-11.8762
馱覩	-11.8762
大摩尼寶	-11.8764
睺睺	-11.8764
誦密言	-11.8766
麼吒	-11.8766
諸修行人	-11.8768
第十地	-11.8769
徵破	-11.8769
福力	-11.8769
心明曰	-11.8772
娑怛	-11.8772
今疏	-11.8776
世界微塵	-11.8776
影現	-11.8777
持誦行人	-11.8779
可憐愍	-11.878
三疊	-11.878
全彰	-11.8781
一切時中	-11.8781
阿瑟吒	-11.8782
百萬	-11.8782
自在成就	-11.8783
腹中	-11.8783
九想	-11.8784
兩臂	-11.8786
梵眾天	-11.8786
終身	-11.8788
字門一切法	-11.8788
彌伽	-11.8789
神力加持	-11.879
異同	-11.879
以為眷屬	-11.879
示眾	-11.879
奮怒王	-11.8792
戒體	-11.8793
此諸眾生	-11.8793
金剛頂經	-11.8796
各各自	-11.8797
是諸菩薩	-11.8798
印三昧耶	-11.8798
令歡喜	-11.88
於茲	-11.8801
驗其	-11.8802
飛光	-11.8802
隨其所應	-11.8803
揀之	-11.8804
融會	-11.8804
乃是過去	-11.8804
壇四角	-11.8806
沉淪	-11.881
蓮臺	-11.8811
歎未曾有	-11.8812
等覺位	-11.8813
此三昧耶	-11.8813
故知此	-11.8815
一切天人	-11.8817
蓋覆	-11.8817
䭾迦	-11.8819
如來說法	-11.8821
方空	-11.8823
二空指	-11.8824
況餘	-11.8824
是時世尊	-11.8829
處胎	-11.8829
請云	-11.8832
心動念	-11.8834
彼諸如來	-11.8835
獨存	-11.8836
名位	-11.8836
觀慧	-11.8838
既稱	-11.8841
助成	-11.8843
幾種	-11.8844
痛處	-11.8844
佛形像	-11.8845
大曜	-11.8846
大菩薩眾	-11.8848
摩利支	-11.8849
獻佛	-11.8851
玅圓	-11.8852
經首	-11.8853
發問	-11.8854
蹬	-11.8855
婆路	-11.8855
皆名為	-11.8856
李曰	-11.8856
同喻	-11.8856
沫㗚	-11.8857
互有	-11.8858
大教王經	-11.8859
為最上	-11.886
十二時	-11.8861
􂟶	-11.8862
開元	-11.8863
曼荼	-11.8863
慈念	-11.8864
各附	-11.8864
釰	-11.8864
素嚕素嚕	-11.8866
無福	-11.8867
狂怖	-11.8868
疏主	-11.8869
𦽆	-11.8869
外色	-11.8869
秫第	-11.8869
所向	-11.887
闢	-11.8871
羼提	-11.8872
三漫多	-11.8872
陰隱	-11.8874
長老阿難	-11.8874
威神之力	-11.8875
寶瓔珞	-11.8875
􂟾	-11.8875
徐徐	-11.8875
之徒	-11.8876
馱耶	-11.8876
斯法	-11.8876
十號	-11.8876
金剛頂瑜伽	-11.8876
髆	-11.8876
閙	-11.8877
頭指中指	-11.8878
精妙	-11.8878
貶	-11.8879
知覺乃眾生	-11.8879
鷲	-11.8879
無同異中熾然成異	-11.888
􂨟	-11.888
疼痛	-11.888
悚	-11.888
此見及緣	-11.8881
魃	-11.8881
保持覆護	-11.8881
受八戒	-11.8881
毫髮	-11.8881
湛入合湛	-11.8881
不可窮盡	-11.8882
刳其正性	-11.8882
嚙	-11.8882
壑	-11.8883
四加	-11.8884
地如佛地	-11.8884
旅泊	-11.8884
識情為垢	-11.8885
六根功德	-11.8886
衣服飲食	-11.8886
憫	-11.8886
叫喚	-11.8889
堪受	-11.8889
此等眾生	-11.889
幽溪曰	-11.889
清水現前	-11.889
汝既	-11.8892
起立白佛	-11.8892
為丸	-11.8894
秘藏	-11.8894
壞滅	-11.8896
偷盜	-11.8897
善思惟	-11.8897
樹名	-11.8899
冒地	-11.8901
亦不為	-11.8908
二十種	-11.8908
古反	-11.8909
展轉相	-11.891
疑謗	-11.8912
之誤	-11.8913
頭冠	-11.8914
爾時金剛手菩薩	-11.8914
歷歷	-11.8918
支提	-11.8918
兩種	-11.892
飲光	-11.892
二萬劫	-11.8921
水火風	-11.8921
節節	-11.8921
筆受	-11.8923
此大明	-11.8923
波離	-11.8924
十方三世一切	-11.8925
斯人	-11.8927
皈	-11.893
十二字	-11.893
了無所得	-11.893
參禪	-11.893
海岸	-11.8933
一章	-11.8937
愚迷	-11.894
災患	-11.894
囉伽	-11.8942
耳邊	-11.8945
跛囉麼	-11.8946
銷散	-11.8946
滿一百八遍	-11.8946
大本	-11.8948
何假	-11.895
殺人	-11.8951
在纏	-11.8951
無處不	-11.8952
外別有	-11.8954
曩莫三滿多	-11.8958
初機	-11.8961
分限	-11.8963
即誦大明	-11.8964
受別請	-11.8964
久久	-11.8964
悟後	-11.8964
而後有	-11.8967
入海	-11.8967
從初發心	-11.8969
順伏	-11.897
言詞	-11.8974
某處	-11.8974
通前	-11.8975
諸天子	-11.8975
無有我	-11.8978
誰知	-11.898
憶忘	-11.8981
多軍	-11.8985
月喻	-11.8985
照境	-11.8986
立名也	-11.8986
六祖	-11.8992
藥物	-11.8997
淨三業	-11.8999
罪福	-11.9
廣辨	-11.9001
妙藥	-11.9001
呬哩呬哩	-11.9002
趣生	-11.9005
上二句	-11.9007
答塔葛達	-11.9007
隱顯	-11.9009
無違	-11.901
後來	-11.901
𠻱	-11.9011
獲成就	-11.9013
鼻曬	-11.9014
左足	-11.9014
息除	-11.9015
哩底	-11.9015
能事	-11.9016
斷無明	-11.9017
三昧大教王經卷第	-11.9017
准前根本印	-11.9019
霑	-11.9019
難除	-11.9019
禽	-11.9021
磬	-11.9022
瞞	-11.9023
定境	-11.9023
些	-11.9024
性圓周徧	-11.9024
情與無情	-11.9024
粟	-11.9025
底瑟恥	-11.9025
栢	-11.9026
覧	-11.9026
錫杖	-11.9026
贅	-11.9026
長跪合掌	-11.9026
媚	-11.9027
侘	-11.9027
大神呪	-11.9027
)。(△	-11.9028
得陀羅尼	-11.9028
行此法	-11.9028
妙淨明心	-11.9028
晝夜六時	-11.9028
永嘉	-11.9028
殖	-11.9029
身服	-11.9029
寂常心性	-11.903
o	-11.903
日劫相倍	-11.903
決不	-11.9031
天竺三藏	-11.9031
用心交互	-11.9031
厭禱	-11.9031
斷性亦無	-11.9031
情想均等	-11.9031
安國寺	-11.9032
自覺覺他	-11.9032
鮮白	-11.9032
眾生頑迷不自忖量	-11.9032
其性真為妙覺明體	-11.9033
惑為因緣及自然性	-11.9034
羯磨金剛	-11.9035
當在中間	-11.9035
連環	-11.9035
遊履	-11.9035
因定發慧	-11.9035
毛髮	-11.9036
罔象虗無	-11.9036
平復	-11.9036
無生無滅	-11.9037
反聞自性	-11.9037
所妄既立	-11.9039
有出入	-11.9039
觀自心	-11.904
無量劫來	-11.9041
除遣	-11.9041
聲聞辟支佛	-11.9042
鉢野	-11.9044
護身結界	-11.9044
不擇	-11.9044
頭手	-11.9045
寂定	-11.9045
阿伽	-11.9048
心垢	-11.9048
前念	-11.9051
定在	-11.9052
科判	-11.9053
文殊師利童子	-11.9053
愛取	-11.9054
摩利支天	-11.9055
阿難白佛	-11.9058
由結此印誦真言	-11.9062
輸馱	-11.9062
素嚕	-11.9063
證聖	-11.9063
迴施	-11.9064
三總結	-11.9064
▁c	-11.9066
曷囉	-11.9067
大略	-11.9069
毘耶	-11.9071
林木	-11.9073
障道	-11.9074
紅蓮華	-11.9074
見愛	-11.9075
離垢地	-11.9079
汝當受持	-11.908
不斷絕	-11.9083
▁一明	-11.9084
超日月	-11.9085
交相	-11.9085
劫波	-11.9086
三番	-11.9087
汝常	-11.9087
悉地成就	-11.9089
如上諸	-11.909
尾馱	-11.9091
善見天	-11.9093
反叉	-11.9096
百步	-11.9097
巧妙	-11.9097
毀戒	-11.9098
微細生滅	-11.9098
蘇嚕	-11.91
藥病	-11.9102
能受持	-11.9102
種種因緣	-11.9103
所傷	-11.9105
須彌山頂	-11.9107
無因生	-11.9108
癡人	-11.911
非因緣非自然	-11.9112
除蓋障菩薩	-11.9113
心陁羅𡰱	-11.9114
未足	-11.9114
八角	-11.9115
怛他蘖多	-11.9116
此閻浮提	-11.9116
最大	-11.9117
色滅	-11.9117
復請	-11.9121
可證	-11.9122
若有有情	-11.9123
攝盡	-11.9124
左面	-11.9124
度門	-11.9125
奮怒王真言	-11.9127
爾時世尊說此	-11.9128
斷障	-11.9128
帳	-11.9129
破妄見	-11.9129
大集會	-11.9137
無量門	-11.9138
莫令	-11.914
取藥	-11.9143
闍婆	-11.9144
萬有	-11.9151
此三千大千世界	-11.9151
佉囉	-11.9153
清淨心中	-11.9153
天堂	-11.9154
指甲	-11.9155
觀河	-11.9157
曩莫三滿多嚩日囉	-11.9158
薩嚩他	-11.9159
婬殺	-11.9163
尾娑普	-11.9163
億那由他	-11.9164
伽他	-11.9165
癘鬼	-11.9168
鬬	-11.9172
鳩槃荼	-11.9172
殷	-11.9173
瘴	-11.9173
緋	-11.9174
祭祀	-11.9174
閻浮檀金	-11.9174
嬌	-11.9174
荷負	-11.9175
觀性元真	-11.9175
娛樂	-11.9177
塞建	-11.9177
七曜	-11.9177
彥達嚩	-11.9178
枕	-11.9178
醯醯	-11.9178
宵	-11.9178
叅	-11.9179
重復悲淚	-11.918
分劑頭數	-11.918
含吐十虗	-11.918
出無佛世	-11.918
遠塵離垢	-11.9181
麵	-11.9181
即是諸佛	-11.9182
從佛口生	-11.9182
摩阿難頂	-11.9182
於是阿難及諸大眾	-11.9183
無令天魔得其方便	-11.9183
一切眾生從無始來	-11.9184
帝釋天王	-11.9184
必因	-11.9184
以此陀羅尼	-11.9184
墮阿鼻獄	-11.9184
不死矯亂	-11.9185
揭囉	-11.9185
三緣斷故三因不生	-11.9185
易解	-11.9186
無業果色	-11.9186
先得人空	-11.9186
一切悉地	-11.9186
漉	-11.9186
諸根互用	-11.9186
覺明為咎	-11.9186
光澤	-11.9187
畢陵伽婆蹉	-11.9188
無色羯南	-11.9188
般若德	-11.9189
無上知覺	-11.9189
唯妙覺明	-11.919
剎那剎那	-11.919
我等輩	-11.9191
偈讚	-11.9191
可取	-11.9191
校量	-11.9192
從口入	-11.9193
麌拏	-11.9193
違犯	-11.9195
闍耶	-11.9195
色頂	-11.9196
平等性智	-11.9197
香潔	-11.9199
旋湛	-11.92
外感	-11.9201
現其前	-11.9203
阿難即從座起	-11.9205
風神	-11.9206
虗明妄想	-11.9209
二總結	-11.9209
有邊無邊	-11.9211
五法具足	-11.9211
夜迦	-11.9212
圓宗	-11.9212
兩目	-11.9212
尾羅	-11.9213
入初住	-11.9213
魔鬼	-11.9215
梨帝	-11.9215
驚覺	-11.9217
亦得成就	-11.9218
潔白	-11.922
由此印	-11.9222
統攝	-11.9223
業性	-11.9225
當情	-11.9225
能破一切	-11.9226
佛勅	-11.9226
行陰生滅	-11.9228
有優劣	-11.9229
功成	-11.9229
既除	-11.923
蘇合香	-11.923
怨對	-11.923
香華等	-11.9231
疏釋	-11.9231
如下文	-11.9234
是故我今	-11.9235
如瑠璃	-11.9236
六根六塵	-11.9236
雖通	-11.9238
釋義	-11.924
證真云	-11.9242
三業清淨	-11.9245
萬像	-11.9246
陀摩	-11.9246
阿耨菩提	-11.9248
善利	-11.9249
三世佛	-11.9249
供獻	-11.925
所發之	-11.925
久矣	-11.9252
右面	-11.9252
雖聞	-11.9252
設或	-11.9253
開口	-11.9255
加持力故	-11.9257
何緣	-11.9259
手捧	-11.9261
重輕	-11.9262
薩麼	-11.9264
得圓通	-11.9267
惟佛	-11.9267
無足	-11.9268
從何生	-11.927
阿蜜㗚	-11.927
發露	-11.927
投於	-11.9271
覩見	-11.9272
救拔	-11.9273
半拏	-11.9276
分二一	-11.9277
之至也	-11.9278
超情	-11.9279
雜寶	-11.928
調和	-11.9282
sa	-11.9282
可觀	-11.9284
三了妄即真	-11.9284
福德聚	-11.9284
得除愈	-11.9286
何處是	-11.9287
能生一切	-11.9287
尾那	-11.9287
汝之心	-11.9289
伽多	-11.9292
時阿闍梨	-11.9295
破自然	-11.9298
頓斷	-11.9299
得人身	-11.9299
十歲	-11.9299
吒耶	-11.9301
徧周	-11.9303
攃	-11.9303
樂見	-11.9304
尾儞也	-11.9305
何因緣故	-11.9305
薩嚩播	-11.9307
六根之中	-11.9307
羯磨部	-11.9308
圓師	-11.9309
鏟	-11.9311
皎	-11.9311
圓脫	-11.9315
疑情	-11.9316
迦嚧	-11.9317
大利益	-11.9317
少屈	-11.9319
隱密	-11.9319
既不能	-11.932
鴿	-11.932
罕	-11.9321
和合而有	-11.9323
嚟	-11.9325
獵	-11.9325
徵其	-11.9326
臥具	-11.9326
矧	-11.9326
欄	-11.9327
諸大菩薩摩訶薩	-11.9327
無一物	-11.9327
大小便利	-11.9328
霞	-11.933
環釧	-11.933
賀哩抳	-11.9331
鳥獸	-11.9331
因何所出	-11.9331
期剋	-11.9331
無苦	-11.9331
當於結心	-11.9333
誦奮怒王真言	-11.9333
欲火	-11.9334
生滅既滅寂滅現前	-11.9334
童耄	-11.9334
性淨明體	-11.9334
公曰	-11.9334
嶽	-11.9335
常光現前	-11.9335
更無他物	-11.9335
流逸奔色	-11.9335
寄根明發	-11.9335
如澄濁水	-11.9335
賞	-11.9336
阿毘遮嚕迦	-11.9336
人輩	-11.9336
城門	-11.9337
倒想	-11.9337
勞見發塵	-11.9337
雪浪	-11.9338
死此生彼	-11.9338
許多	-11.9338
心生愛樂	-11.9339
補遺	-11.9339
莎波呵	-11.9339
明暗通塞	-11.9339
聖性無不通	-11.934
涎	-11.934
母陀羅尼真言	-11.9341
休咎精明	-11.9341
攝心為戒	-11.9341
合中知	-11.9344
服食	-11.9344
修證了義	-11.9345
二俱遠離	-11.9345
無為心佛	-11.9345
並須	-11.9346
汝可	-11.9347
􂏔	-11.9349
若人患	-11.935
煖相	-11.935
機應	-11.9351
有限	-11.9351
旋繞	-11.9351
所緣之境	-11.9352
客塵煩惱	-11.9353
絕諸	-11.9354
無有邊際	-11.9355
勝義諦	-11.9356
若從根生	-11.9359
皆圓滿	-11.9362
也阿難下	-11.9362
繫於	-11.9362
齊等	-11.9365
祇陀	-11.9366
明文	-11.9369
不空藏	-11.9369
字為體	-11.9373
制伏	-11.9373
生喜樂	-11.9374
左手把	-11.9374
於晨朝	-11.9375
如前云	-11.9376
信知	-11.9377
得無所畏	-11.9379
根源	-11.9379
全空	-11.9383
娜𩕳	-11.9384
各屈	-11.9384
妄本無因	-11.9385
舍衛	-11.9386
一切天龍八部	-11.9387
善男子善女人等	-11.9388
皆來集會	-11.939
具含	-11.9391
始獲	-11.9392
統論	-11.9394
役使	-11.9395
交光云	-11.9395
慈悲心	-11.9396
無戲論法	-11.9396
瑜伽行者	-11.9397
蓮花座	-11.9401
變移	-11.9403
伺求	-11.9404
塗飾	-11.9406
豈獨	-11.9409
破空生	-11.941
器盛	-11.9413
迅	-11.9413
不成矣	-11.9414
平等性	-11.9415
內外中間	-11.9416
歷位	-11.9418
十八天	-11.9424
以此法	-11.9425
誦此真言曰	-11.9431
防護	-11.9432
作成就法	-11.9433
定位	-11.9434
標列	-11.9436
祭之	-11.9437
一切惡趣	-11.944
斯乃	-11.944
誦此呪者	-11.9441
為有邊	-11.9441
轉識	-11.9441
無疑惑	-11.9442
終歸	-11.9443
絕無	-11.9443
無分別性	-11.9448
盧迦	-11.9448
受命	-11.9448
又分三	-11.9449
悉提	-11.9451
南北	-11.9451
諸波羅蜜	-11.9451
相宗	-11.9452
真言及印	-11.9453
瑟姹	-11.9453
怛佗	-11.9454
圓成實	-11.9455
始自	-11.9455
𡩋	-11.9455
半曩	-11.9458
𡰱	-11.9459
五臺	-11.9459
楞伽經	-11.946
智譯	-11.9463
諸藥	-11.9465
帶妄	-11.9466
𠶹哩	-11.9466
嚩路枳多	-11.9467
承當	-11.9468
是大空	-11.9468
五淨居	-11.9469
壇地	-11.9469
理𩕳	-11.9472
中自有	-11.9473
尾覲	-11.9474
妄歸真	-11.9476
髯	-11.9477
禰嚩南	-11.9477
泥以反	-11.9477
止觀云	-11.9479
承上文	-11.948
跢野	-11.948
且就	-11.9481
審其	-11.9482
大福德	-11.9482
一百五十	-11.9483
誦密言曰	-11.9483
佛頂尊勝陀羅尼	-11.9483
熙怡	-11.9483
左拳	-11.9485
稽首歸命	-11.9485
如蓮花	-11.9485
擅	-11.9485
擕李	-11.9486
箋	-11.9486
南嶽	-11.9486
寶月	-11.9486
尊那菩薩	-11.9486
駝	-11.9487
而告之言	-11.9487
理則頓悟	-11.9487
樂變化天	-11.9487
世世生生	-11.9487
技	-11.9487
諳	-11.9487
傅	-11.9488
一萬遍	-11.9488
登無上覺	-11.9488
因義	-11.9488
百萬遍	-11.9488
毋	-11.9488
怯	-11.9488
乘悟併銷	-11.9489
筌	-11.949
十方洞開	-11.949
辱	-11.949
默然而住	-11.949
所入既寂	-11.949
伏還元覺	-11.9491
中中流入	-11.9492
萎	-11.9492
更求	-11.9493
除其助因	-11.9493
殻	-11.9494
屎	-11.9494
生死結根	-11.9494
如來印我	-11.9494
承佛威神	-11.9494
大梵王	-11.9495
春秋	-11.9495
香泥	-11.9495
身心泰然	-11.9495
遞相為種	-11.9495
白月一日	-11.9495
凝明正心	-11.9496
􂨱	-11.9496
汝言覺了能知之心	-11.9496
四部眾	-11.9497
揣摩	-11.9497
縱有多智禪定現前	-11.9497
解脫德	-11.9498
妙淨見精	-11.9499
慰喻	-11.95
液	-11.9502
冥合	-11.9502
:『	-11.9502
絲毫	-11.9503
並同	-11.9504
遍十方界	-11.9506
伊蘭	-11.9509
一片	-11.9511
萬劫	-11.9512
苦因	-11.9513
設教	-11.9516
圓解	-11.9516
大力鬼	-11.9518
節文	-11.9518
供養恭敬	-11.9518
修斷	-11.952
專念	-11.9521
歎德	-11.9521
演若	-11.9521
乃至十地	-11.9526
滅一切罪	-11.9528
如世人	-11.9528
大佛頂首楞嚴王	-11.953
觸食	-11.953
責之	-11.9531
尾野	-11.9533
亡失	-11.9534
孫陀	-11.9538
邊事	-11.9539
勿得	-11.9539
白象	-11.9541
彼女	-11.9541
囉字門	-11.9543
業轉	-11.9547
惡世	-11.9547
尚爾	-11.9548
不決	-11.9551
略出	-11.9553
列名	-11.9553
含育	-11.9556
竪臂	-11.9557
逐境	-11.9558
山海	-11.9558
於火中	-11.9558
隱身	-11.9559
如來悉知	-11.956
此敘	-11.9563
咸是	-11.9564
灑野	-11.9565
何疑	-11.9565
淨肉	-11.9566
標舉	-11.9568
斯那	-11.9569
以右手大指	-11.9569
萬由旬	-11.957
頓入	-11.957
護身印	-11.9571
遍覆	-11.9572
證無上正等菩提	-11.9573
前三陰	-11.9574
種種花	-11.9575
結金剛縛	-11.9575
欲來	-11.9576
準此	-11.9576
希願	-11.9578
如有人	-11.9579
彼經云	-11.9579
莫作	-11.958
不生滅心	-11.958
增明	-11.9592
無退	-11.9595
諸法皆	-11.9596
七卷	-11.9598
只如	-11.9599
罪滅	-11.9599
善不善	-11.9602
向南	-11.9602
左旋	-11.9603
種種功德	-11.9604
豈容	-11.9606
俱徧	-11.9606
瑟置	-11.9607
來受	-11.9607
無可反	-11.9609
羯㗚灑	-11.9612
無虧	-11.9612
精金	-11.9613
沙彌	-11.9615
所不及	-11.9618
沬	-11.9624
去垢	-11.9625
𠽾	-11.9627
禰嚩	-11.963
樹上	-11.963
漫荼	-11.9631
苫	-11.9633
微塵如來	-11.9633
拏理	-11.9634
來至此	-11.9634
菽	-11.9635
不足以	-11.9637
拼	-11.9638
突瑟吒	-11.9638
尾惹曳	-11.9638
即說陀羅尼曰	-11.9638
大奮怒王	-11.9639
綜	-11.964
曼拏囉	-11.9641
芥	-11.9642
鴻	-11.9643
及諸眷屬	-11.9643
援	-11.9643
猶豫	-11.9643
白肉色	-11.9644
妻妾	-11.9644
滿一切願	-11.9644
階級	-11.9644
城邑聚落	-11.9645
受大苦惱	-11.9646
擘	-11.9646
從是漸修	-11.9646
魏	-11.9646
偏袒右肩右膝著地	-11.9647
蓬	-11.9647
口中好言	-11.9647
純是智慧	-11.9648
兩處	-11.9649
况	-11.9649
南莎訶	-11.9649
袒	-11.9649
蛔	-11.9649
於一毛端	-11.9649
師印呪可知	-11.965
胎卵濕化	-11.965
違現業	-11.965
態	-11.965
七情三想	-11.965
混濫	-11.965
涕唾	-11.965
虗空藏	-11.9651
靜處	-11.9651
噬臍	-11.9651
煑	-11.9651
養育	-11.9651
造種種業	-11.9651
妙音密圓	-11.9651
觀河之見	-11.9652
候得其便	-11.9652
械	-11.9652
大山	-11.9652
湫	-11.9652
休徵	-11.9653
六時行道	-11.9653
迂	-11.9653
初於聞中	-11.9654
上都大	-11.9654
䟦陀婆羅	-11.9654
重障	-11.9654
國內	-11.9655
淨光天	-11.9655
不作聖心名善境界	-11.9655
重增迷悶	-11.9656
傳送	-11.9656
奔走	-11.9656
本質	-11.9656
甘蔗	-11.9657
與眼對	-11.9657
顯了	-11.9657
hā	-11.9658
福生天	-11.9658
三寸	-11.9658
應機	-11.9659
印當心	-11.9659
無法不	-11.966
堪能	-11.9661
同異發明	-11.9661
菩提心生	-11.9661
大壇	-11.9662
修瑜伽者	-11.9663
猶如瑠璃	-11.9663
邊說	-11.9663
汝今下	-11.9664
楞云	-11.9664
座位	-11.9665
非想非非想處	-11.9665
宴安	-11.9666
七俱胝	-11.9666
吐氣	-11.9668
厭蠱	-11.9669
雲霧	-11.967
馱哩	-11.9673
影略	-11.9674
交徹	-11.9676
是故說	-11.9677
髀上	-11.9678
鼓音	-11.968
圓澄	-11.968
韋陀	-11.9681
第十三	-11.9681
即入一切如來	-11.9681
㗚底	-11.9682
底里	-11.9682
生死流轉	-11.9683
三婆嚩	-11.9686
ha	-11.9687
紛然	-11.9688
本尊真言	-11.9689
以二中指	-11.969
一途	-11.9691
本座	-11.9692
思慧	-11.9693
祕密印	-11.9694
自在力	-11.9696
觀聽	-11.9696
機緣	-11.9696
恩德	-11.9697
金剛童子	-11.9697
非眚	-11.9699
菩提心中	-11.9704
正知見	-11.9704
釋迦佛	-11.9705
補囉	-11.9705
狂性	-11.9707
纔出	-11.971
佛德	-11.971
開門	-11.9711
祕密漫荼羅	-11.9715
了義之	-11.9715
無價	-11.9715
情器	-11.9718
五尺	-11.9718
大怒	-11.9721
此阿修羅	-11.9721
麼哩	-11.9723
色究竟	-11.9726
若欲得	-11.9733
▁二釋	-11.9734
聲論	-11.9734
指月	-11.9737
不為煩惱	-11.9738
野吽泮	-11.9739
佛頂王	-11.974
點額	-11.9741
儞曳	-11.9743
比丘眾	-11.9745
獨立	-11.9746
觀世	-11.9747
雜類	-11.9747
發動	-11.9748
不能超越	-11.9748
形質	-11.9749
一切如來智	-11.975
單約	-11.9751
生滅不停	-11.9751
右手頭指	-11.9755
無變	-11.9762
第十四	-11.9765
善願	-11.9765
扇底	-11.9768
用白檀	-11.977
無色界天	-11.9776
穩	-11.9776
得大勢	-11.9777
宅中	-11.9778
花臺	-11.9778
麻曷	-11.9778
邊地	-11.978
不特	-11.978
決了	-11.9785
歸本	-11.9786
魔界	-11.9789
癩	-11.979
曳反	-11.9791
正等正覺	-11.9792
辨魔	-11.9792
自疑	-11.9795
西北隅	-11.9796
信樂	-11.9798
要令	-11.9799
棲	-11.98
坼	-11.98
努瑟吒	-11.98
尾沙	-11.9802
智度論云	-11.9803
外計	-11.9803
號名	-11.9803
沇	-11.9804
畵	-11.9804
脯	-11.9804
郁	-11.9804
鐶釧	-11.9805
不得其便	-11.9805
仕	-11.9806
當爾之時	-11.9806
歡悅	-11.9806
所宣說	-11.9806
舉一即三	-11.9806
躍	-11.9807
執金剛祕密主	-11.9807
裝嚴	-11.9807
自影像	-11.9807
雙手	-11.9807
諸幻	-11.9807
桓	-11.9808
斂	-11.9808
鎣	-11.9808
目眚所成	-11.9808
吝	-11.9809
手自開合	-11.9809
泉池	-11.9809
普佛世界	-11.9809
見道分	-11.981
五無間罪	-11.981
百丈	-11.981
魔得其便	-11.981
聞熏聞修	-11.981
想澄成國土	-11.981
請入華屋	-11.981
入無所入	-11.9811
問訊	-11.9811
汝教世人修三摩地	-11.9811
七處徵心	-11.9811
影見俱眚	-11.9811
不相踰越	-11.9811
翹	-11.9811
心中心	-11.9812
蹤跡	-11.9812
躁	-11.9812
淨念相繼	-11.9812
矟	-11.9812
六道四生	-11.9813
歸伏	-11.9813
寶覺真心	-11.9813
傳密教超悟大師賜紫三藏沙門行琳	-11.9814
無二亦滅	-11.9814
無有窮盡	-11.9814
若於空出	-11.9814
性水真空	-11.9815
不自忖量	-11.9815
星辰	-11.9816
中道純真	-11.9816
淨月	-11.9816
精妙未圓	-11.9816
毗奈耶	-11.9817
覺齊佛覺	-11.9817
妙奢摩他三摩禪那	-11.9817
汝當奉持	-11.9817
聞思修	-11.9818
習因	-11.9819
頗梨	-11.9819
於法自在	-11.982
汝身汝心	-11.982
幽溪云	-11.982
小異	-11.9822
乾闥婆城	-11.9822
䫂	-11.9822
斯事	-11.9822
抂	-11.9823
磔開	-11.9823
三因不生	-11.9823
若欲作	-11.9823
名不動地	-11.9824
志心歸命	-11.9826
半音呼	-11.9826
成聖果	-11.9827
捨此身	-11.9827
順流	-11.9828
齒木	-11.9829
色聲香味觸	-11.9831
云何忽生	-11.9832
商人	-11.9835
出離生死	-11.9836
左臂	-11.9838
經三七日	-11.9838
成一體	-11.9838
結根本印	-11.9839
一切皆空	-11.9839
今舉	-11.9839
俱生無明	-11.9839
其印相	-11.9841
剎塵	-11.9851
更復	-11.9852
滿慈子	-11.9854
指端	-11.9855
雙融	-11.9857
智惠	-11.9857
所逼	-11.9858
尚存	-11.9858
流轉生死	-11.9859
迷亂	-11.9859
這一節經佛	-11.9862
▁一約	-11.9864
邪慢	-11.9865
殺貪	-11.9866
能滿一切	-11.9869
緣境	-11.987
燒熏	-11.987
一切法本不生	-11.9875
滿八千遍	-11.9875
汝當諦聽	-11.9876
二正破	-11.9877
縱破	-11.9877
訥嚕	-11.9879
金剛劍	-11.9879
摩護	-11.9881
壽命百年	-11.9881
三甜	-11.9883
破共生	-11.9883
八苦	-11.9885
天倫	-11.9887
為真常	-11.9888
空昧	-11.989
大事因緣	-11.9891
八大菩薩	-11.9891
心不在內	-11.9892
機感	-11.9892
舉拳	-11.9894
寶鏡	-11.9898
無罣礙	-11.9903
不逢	-11.9903
一漚	-11.9906
不自覺知	-11.9908
申明	-11.991
甚難	-11.9911
父母想	-11.9911
阿字是	-11.9914
無二相	-11.9916
殺盜婬三	-11.9918
不能侵	-11.992
無生滅性	-11.9924
退退	-11.9924
初中後	-11.9928
斷見思	-11.9929
䓛	-11.993
童子形	-11.993
敘昔	-11.9931
佛及菩薩	-11.9933
△〔	-11.9933
無實性	-11.9935
誐跢	-11.9943
下總結	-11.9944
誦是呪	-11.9946
遏㗚	-11.995
滿䭾滿䭾	-11.995
屬前塵	-11.9951
真言手印	-11.9954
稻穀	-11.9958
然後可	-11.9958
悉除	-11.9959
馱囉馱囉	-11.9959
三叉戟	-11.9965
雙計	-11.9965
飢饉	-11.9965
變身	-11.9965
無有餘	-11.9965
忖	-11.9967
膺	-11.9968
痔	-11.9969
右壓左	-11.9969
不間	-11.997
曩莫三滿多沒馱南	-11.997
動靜二相了然不生	-11.997
無上寶印	-11.9971
云何不見	-11.9972
陟	-11.9972
洗浴著新淨衣	-11.9973
輪廻	-11.9973
甘松	-11.9973
緣所遺者	-11.9973
相去一寸	-11.9973
剪	-11.9973
倉	-11.9974
遍塗	-11.9974
ū	-11.9974
擴	-11.9975
於我滅後	-11.9975
沈淪	-11.9975
擇去	-11.9975
舂	-11.9975
然後取	-11.9976
親友	-11.9976
破佛律儀潛行貪欲	-11.9976
此根初解	-11.9976
今何所在	-11.9976
憶識誦習	-11.9976
是一法印	-11.9977
分布	-11.9977
善星比丘	-11.9978
成法解脫	-11.9978
爛壞	-11.9979
見無所動	-11.9979
諠	-11.9979
因戒生定	-11.998
赤銅	-11.998
首楞嚴經義海卷第	-11.998
起為世界	-11.998
所害	-11.998
唬吽	-11.9981
皆悉消滅	-11.9981
珮	-11.9981
燧	-11.9981
滅諦	-11.9982
隨心應量	-11.9983
諸有智者	-11.9984
說是語巳	-11.9985
眼睛	-11.9985
汝今聞不	-11.9985
來往	-11.9988
起惑	-11.9988
纏繞	-11.9989
而作護摩	-11.9992
帝釋天主	-11.9992
於諸法中	-11.9993
嗔恚	-11.9993
此漫荼羅	-11.9994
傾動	-11.9994
精誠	-11.9996
勸發	-11.9997
因味	-11.9998
永絕	-11.9998
擲於	-12.0001
商主	-12.0002
悉皆清淨	-12.0002
直日	-12.0002
最上悉地	-12.0004
所得功德	-12.0005
一旦	-12.0009
識之界	-12.001
六情	-12.001
能見所見	-12.0013
油燈	-12.0013
心中發明	-12.0013
第二手執	-12.0015
五比丘	-12.0016
孰能	-12.0018
禪宗	-12.0023
酥酪	-12.0024
下賤	-12.0025
十二種	-12.0029
中指中節	-12.0029
陀利	-12.0034
淨嚴	-12.0035
六交	-12.0037
照燭	-12.0037
從耳根	-12.0038
究竟堅固之	-12.0041
平等法界	-12.0044
華聚	-12.0045
亦非自然	-12.0048
要因	-12.0049
無起滅	-12.0049
合掌當心	-12.005
無所生	-12.0052
修菩薩行	-12.0053
廣演	-12.0055
一切怖畏	-12.0055
神通變化	-12.0057
誦此大明	-12.0057
含識	-12.0058
自敘	-12.0058
不輕	-12.0061
間雜	-12.0061
觸境	-12.0062
我今略說	-12.0062
更無別	-12.0063
一由旬	-12.0063
凡夫外道	-12.0065
唯約	-12.0066
所獻	-12.0067
自思惟	-12.0068
諦聽諦聽	-12.0069
門門	-12.0072
一般	-12.0075
大乘法	-12.0075
發狂	-12.0075
七金山	-12.0078
詰之	-12.0078
白毫	-12.0081
復次金剛手	-12.0082
香泥塗	-12.0083
氣息	-12.0088
以瞿摩夷	-12.0093
夫妻	-12.0095
能滅一切	-12.0096
後陰	-12.0098
㗚多	-12.0102
陜	-12.0102
右畫	-12.0105
違逆	-12.0107
一俱胝	-12.0107
以此因緣	-12.0108
▁p	-12.0109
同是菩提	-12.011
露地	-12.011
成戲論	-12.0111
惡病	-12.0115
眾生業果	-12.0116
甞味	-12.0117
煬	-12.0119
摩里支菩薩	-12.0122
彥	-12.0128
炳	-12.0129
曩莫三曼多	-12.0129
不空羂索神變真言經卷第	-12.0129
極苦	-12.013
能所俱	-12.013
破根生	-12.013
單複十二	-12.0131
白蓮花	-12.0132
宗要	-12.0132
佛說一切如來真實攝大乘現證	-12.0133
二十八部	-12.0133
亦可以	-12.0133
除却	-12.0133
膳	-12.0134
垢染	-12.0134
無漏智	-12.0134
於此處	-12.0135
漠	-12.0135
六根門頭	-12.0136
瓦石	-12.0136
閼伽瓶	-12.0136
首戴	-12.0136
慜	-12.0136
天上人間	-12.0137
拄杖	-12.0137
一總徵	-12.0138
棃	-12.0138
不生不滅之	-12.0138
零	-12.0139
蠢	-12.0139
如海一漚發	-12.014
殷重	-12.014
潬	-12.014
發露懺悔	-12.014
街	-12.014
揵	-12.0141
屍陀林	-12.0141
綱紐	-12.0141
搯	-12.0141
訂	-12.0141
屎尿	-12.0141
料簡	-12.0142
無染著	-12.0142
當處發生	-12.0142
覺見即眚	-12.0142
運用	-12.0142
良醫	-12.0142
盂	-12.0143
牛呞	-12.0143
見眚非病	-12.0143
虛空藏菩薩摩訶薩	-12.0144
不動周圓	-12.0144
孔雀王	-12.0144
過現未來	-12.0145
即空假中	-12.0145
尊形	-12.0145
属	-12.0146
依正二報	-12.0146
巳滅生滅而於寂滅精妙未圓	-12.0146
破五陰	-12.0147
怡	-12.0147
講錄	-12.0147
以此呪呪	-12.0148
交遘	-12.0148
蓮花臺	-12.0148
云何忽生山河大地	-12.0148
讒	-12.0148
廣狹	-12.0149
墮惡道	-12.0149
無而忽有	-12.0149
若作聖解即受羣邪	-12.0149
初敘	-12.0149
少光天	-12.015
僧伽梨	-12.0151
獻供養	-12.0151
卍字	-12.0151
印許	-12.0154
乞士	-12.0154
成功	-12.0155
深位	-12.0155
非不自然	-12.0156
必無所知	-12.0157
無定處	-12.0159
俱泯	-12.0159
百官	-12.0159
雙泯	-12.0161
重病	-12.0162
寶賢	-12.0162
於閻浮提	-12.0163
含受	-12.0163
精熟	-12.0165
故前文云	-12.0167
清淨軌則	-12.0167
立三漸次	-12.0167
四十里	-12.0168
宣明	-12.017
栴檀那	-12.017
皆消滅	-12.0172
相資	-12.0172
頓超	-12.0172
誦密語	-12.0173
染香	-12.0177
始教	-12.0178
大漫荼羅	-12.0179
本尊身	-12.018
福德智慧	-12.0185
願度	-12.0187
身肉	-12.0187
師長	-12.0189
普應	-12.0193
布置	-12.0194
一念心	-12.0195
殘食	-12.0196
入漫荼羅	-12.0196
救脫	-12.0197
寶生佛	-12.0197
詐現	-12.0198
者何也	-12.0198
吸取	-12.02
淨目	-12.0201
無疑矣	-12.0202
隨情	-12.0203
麼黎	-12.0204
疑難	-12.0205
香華供養	-12.0206
餘部	-12.0209
造惡	-12.021
普告	-12.0213
護法心	-12.0215
甘露法	-12.0217
逈然	-12.0219
行菩薩行	-12.0219
造罪	-12.0222
病根	-12.0222
居首	-12.0223
母陀羅	-12.0225
唵跋折囉	-12.0229
有六種	-12.0229
唯依	-12.023
須假	-12.0231
招感	-12.0231
光遍照	-12.0232
判屬	-12.0234
大指押	-12.024
功德聚	-12.024
□□□□	-12.0243
􂛶	-12.0246
仍須	-12.0247
據理	-12.0249
一切諸如來	-12.0252
包含	-12.0254
敬信	-12.0255
恭敬尊重	-12.0258
見性不動	-12.026
窮子	-12.026
常真實	-12.0263
大猛火	-12.0264
老子	-12.0266
魘鬼	-12.0268
事造	-12.0273
二中指直竪	-12.0275
設哩	-12.0276
白骨	-12.0277
孔子	-12.0278
舊云	-12.0279
盛滿	-12.0282
諸佛境界	-12.0286
覲	-12.0286
韋	-12.0287
不可定	-12.0287
面向北	-12.0288
皆由此	-12.0289
入正定	-12.0294
重禁	-12.0294
綻	-12.0296
見思惑	-12.0297
抨	-12.0299
其源	-12.0299
存想固形	-12.03
是有法	-12.0304
覔	-12.0304
稜	-12.0305
糞穢	-12.0305
今正是時	-12.0305
名無量光	-12.0306
麼拏	-12.0306
弦	-12.0307
袋	-12.0307
忤	-12.0307
惶悚	-12.0308
嫁	-12.0308
惺	-12.0309
禦	-12.0309
氣分交接	-12.0309
深重	-12.0309
監	-12.031
朵	-12.031
呌	-12.031
彼善男子修三摩提	-12.031
解結因次第	-12.0311
佛母大孔雀明王	-12.0311
里弭里	-12.0311
塚間	-12.0311
爾時世尊欲重宣此義	-12.0312
等覺後心	-12.0312
內含寶月	-12.0312
陳列灌頂	-12.0312
糖	-12.0312
漫茶羅	-12.0312
整衣服	-12.0313
兩足尊	-12.0313
吉慶	-12.0313
皆得消滅	-12.0313
硬	-12.0314
旅	-12.0314
鄭	-12.0314
膿血	-12.0315
辜	-12.0315
何因有妄	-12.0315
云何見明	-12.0316
啻	-12.0316
瘴惡	-12.0316
五臟	-12.0316
縒麼	-12.0316
誣罔	-12.0317
棓	-12.0317
清凉	-12.0317
一時薄伽梵	-12.0318
書寫此呪	-12.0318
佛告富樓那	-12.0319
賖	-12.0319
汝何所見	-12.0319
金銀銅	-12.032
誦真言一遍	-12.032
見不能及	-12.0321
千二百五十人	-12.0323
攸往	-12.0323
諸苦惱	-12.0323
通序	-12.0325
苦諦	-12.0325
▁ma	-12.0326
瞪目	-12.0327
幽室	-12.0328
香油	-12.0328
門而入	-12.0333
依法儀	-12.0333
羣邪	-12.0334
並二大指	-12.0334
獄中	-12.0335
輪王佛頂	-12.0339
永盡	-12.034
悉皆成就	-12.0343
假設	-12.0344
路計	-12.0345
南西北方	-12.0345
香塗身	-12.0346
塗拭	-12.035
通論	-12.0351
覆蔽	-12.0351
開導	-12.0352
罣礙	-12.0354
遷改	-12.0354
大人相	-12.0355
妙三摩提	-12.0358
情愛	-12.036
一切變現	-12.0372
畫師	-12.0373
破轉計	-12.0375
猶如金剛	-12.0379
左第一手	-12.038
既屬	-12.0381
娑嚩二合賀	-12.0383
白銀	-12.0384
藥叉王	-12.0386
美女	-12.0387
他化自在	-12.0387
五千	-12.0387
日照	-12.0388
加功	-12.0388
室內	-12.039
用此印	-12.0396
布羅	-12.0396
是眚	-12.0398
而不自覺	-12.0402
大刀	-12.0404
作手印	-12.0405
最為勝	-12.0408
願樂	-12.041
卍	-12.0414
金翅鳥王	-12.0415
兩舌	-12.0416
摩尼王	-12.0417
十億	-12.0421
此之謂也	-12.0423
令諸有情	-12.0424
威神力	-12.0424
衣裳	-12.0425
有驗	-12.0426
端直	-12.0428
七日內	-12.043
跛羅	-12.0436
犯戒	-12.0436
初徵	-12.0439
舍宅	-12.0439
一切毘那夜迦	-12.0439
麻訶	-12.0442
餘塵	-12.0443
收攝	-12.0444
煙相	-12.0448
三千界	-12.0449
釋子	-12.0449
現在世	-12.0449
皆用此	-12.0452
右手掌	-12.0455
詳釋	-12.0455
已竟	-12.0456
重空	-12.0458
四棄	-12.0458
俱胝佛	-12.0459
蘇嚕蘇嚕	-12.046
之所在	-12.046
香水灑	-12.046
儗𩕳	-12.0463
當觀想	-12.0464
地哩地哩	-12.0464
法器	-12.0464
姤	-12.0465
右脇	-12.0466
求解脫	-12.0466
我輩	-12.0467
求成就者	-12.0468
癬	-12.0471
囉剎娑	-12.0473
路枳諦濕	-12.0475
受佛氣分	-12.0475
豹	-12.0476
𠼐	-12.0476
短呼	-12.0477
十惡五逆	-12.0477
右手揚掌	-12.0478
不空羂索心王陀羅尼真言	-12.0478
爾時世尊大毘盧遮那如來	-12.0479
無漏業	-12.0479
却住一面	-12.0479
日月星辰	-12.048
二無名指二小指	-12.0482
金剛王寶覺	-12.0483
􂨞	-12.0483
若不爾者	-12.0483
亦勿	-12.0483
安樂妙常	-12.0483
獲本妙心	-12.0483
不真何待	-12.0483
明仙	-12.0484
無作妙力	-12.0484
淮	-12.0485
疆	-12.0485
妄即真	-12.0485
彼暗與通	-12.0486
五受陰	-12.0486
斥破	-12.0486
執心不起	-12.0487
陋	-12.0487
如我此說	-12.0488
褫	-12.0488
以為真	-12.0488
鴦	-12.0489
圍陀	-12.0489
發業潤生	-12.049
遷移	-12.049
雲雨	-12.049
戶牖開豁	-12.049
價直	-12.049
香花供養	-12.0491
傳示末法	-12.0491
柔順	-12.0491
成斷滅	-12.0492
翳呬	-12.0492
眼色為緣	-12.0493
此名何等	-12.0494
)。(􂨮	-12.0494
曾未	-12.0494
噉食	-12.0495
則汝今者	-12.0496
頭戴	-12.0496
火頭金剛	-12.0497
飛鳥	-12.0498
每底	-12.0498
中道第一義諦	-12.0499
常自思惟	-12.0499
林泉	-12.05
蘖囉	-12.05
吾人	-12.0501
金剛笑	-12.0501
怛㘕	-12.0503
約教	-12.0503
修福	-12.0503
生滅心滅	-12.0503
渴愛	-12.0504
壇儀	-12.0505
抑且	-12.0505
且置	-12.0507
栴檀香	-12.0508
妄惑	-12.0508
合為一體	-12.0509
分別覺觀	-12.0513
這一節經阿難	-12.0513
得清淨眼	-12.0514
見者歡喜	-12.0516
度量	-12.0516
七星	-12.0516
敘悟	-12.0517
太極	-12.0519
湛性	-12.052
加持三摩地	-12.052
枳羅	-12.0521
一字真言	-12.0522
五十七位	-12.0524
種種瓔珞	-12.0525
生滅根元	-12.0526
毘庾	-12.0526
瞻仰如來	-12.053
金剛大乘	-12.053
三密門	-12.0535
不畏	-12.0535
薩嚩怛他誐哆	-12.0539
深奧	-12.054
珍重	-12.054
兼舉	-12.054
坐蓮華座	-12.054
三昧道	-12.0543
供養物	-12.0544
承順	-12.0545
十方法界	-12.0546
醫王	-12.0549
五百劫	-12.0549
不善業	-12.0551
牢固	-12.0553
所修行	-12.0554
禪觀	-12.0555
譯語	-12.0556
穢土	-12.0556
入無生忍	-12.0559
黃檗	-12.0559
生焉	-12.0559
藥叉將	-12.056
法身德	-12.0561
同法華	-12.0566
圓覺經	-12.0566
流變	-12.0568
頓歇	-12.0569
徧計執	-12.0571
者非也	-12.0571
欠字	-12.0572
器物	-12.0574
生疑惑	-12.0579
頭足	-12.0581
寸許	-12.0582
周利	-12.0584
月離	-12.0584
幻事	-12.0587
短聲	-12.0587
張本	-12.0588
被他	-12.0593
閼伽香水	-12.0595
四波羅蜜	-12.0596
餘物	-12.0596
能破壞	-12.0597
道諦	-12.0598
欲令眾生	-12.0599
互攝	-12.0603
丁香	-12.0605
七匝	-12.0605
略釋	-12.0607
開掌	-12.0609
漸增	-12.0611
至不生滅	-12.0613
毛孔中	-12.0613
生死苦	-12.0614
金剛鬘	-12.0617
下正破	-12.062
義翻	-12.0622
成驗	-12.0623
何哉	-12.0626
愛水	-12.0627
左手大指	-12.0632
點眼	-12.0633
殑	-12.0633
摩攞	-12.0634
周圍	-12.0635
罐	-12.0637
法幢	-12.064
異計	-12.0641
塔廟	-12.0642
殺戒	-12.0642
薩婆怛他揭多	-12.0643
薩頗	-12.0643
跋馹囉	-12.0645
本迹	-12.0646
嘻	-12.0647
詈	-12.0648
鬢	-12.0648
隷嚩囉	-12.0649
被縛	-12.0649
進火中	-12.0649
大誓	-12.0651
我讚禮	-12.0652
輕賤	-12.0653
揣	-12.0653
博叉	-12.0653
遁	-12.0653
婚	-12.0653
八鏡	-12.0653
字形現	-12.0654
㨖	-12.0654
乾坤	-12.0654
蒱	-12.0654
繒綵	-12.0654
未與如來法流水接	-12.0654
亮	-12.0654
跋闍囉	-12.0654
竪二中指	-12.0655
奴婢	-12.0655
情盡	-12.0655
常住真心性淨明體	-12.0655
苾芻苾芻尼	-12.0655
左手掌	-12.0656
羣生	-12.0657
迸	-12.0657
ṇ	-12.0657
詭	-12.0657
辛勤	-12.0657
十方如來一門超出妙莊嚴路	-12.0658
怯弱	-12.0658
巳畢	-12.0658
金剛密跡主菩薩	-12.0658
正等無異	-12.0658
數取趣	-12.0659
面向東坐	-12.0659
撓	-12.0659
說是語已	-12.0659
孫陀羅難陀	-12.0659
弟子與師俱陷王難	-12.0659
般剌	-12.066
舍利塔前	-12.066
了不相觸	-12.066
牛羊	-12.0661
所住之處	-12.0661
五十五位真菩提路	-12.0661
智者大師	-12.0661
胎因情有	-12.0661
本來無有世界眾生	-12.0661
師子奮迅	-12.0662
人法二執	-12.0662
犍	-12.0662
諸變化相	-12.0662
三摩鉢提	-12.0663
觀其音聲	-12.0663
有所非覺	-12.0663
帝網無盡	-12.0663
遷流不住	-12.0663
合掌恭敬而白佛言	-12.0665
二無所目	-12.0665
供養本尊	-12.0665
故不名見	-12.0665
妄元無	-12.0666
)。(▽	-12.0666
又汝心中	-12.0666
永無魔事	-12.0666
爾今聲不	-12.0666
唯是一心	-12.0667
生相無明	-12.0667
後得智	-12.0668
無所非明	-12.0668
流淚	-12.0669
能緣之心	-12.0669
廢忘	-12.0669
在目前	-12.067
原其	-12.0674
▁觀自在	-12.0674
捺麻	-12.0674
迷執	-12.0676
塵沙無明	-12.0677
陰界入	-12.0678
嚩嚕	-12.0679
能令汝等	-12.0682
天魔外道	-12.0683
堅礙	-12.0683
勃囉	-12.0683
通達實相	-12.0687
如來藏體	-12.0688
愚夫	-12.0689
靈知	-12.0689
是非是義	-12.069
世界眾生業果	-12.069
須彌山王	-12.0692
之妙用	-12.0693
開權	-12.0693
闕少	-12.0694
長慶	-12.0694
復作是念	-12.0694
十六大菩薩	-12.0699
於十方界	-12.0699
薩嚩怛囉	-12.0702
華嚴經云	-12.0702
諸佛國土	-12.0702
聞正法	-12.0704
精血	-12.0704
還家	-12.0705
運動	-12.0707
我勅	-12.0708
有定處	-12.0708
波波	-12.0709
金剛牙	-12.0711
波陀	-12.0712
鉢吒	-12.0715
得無畏	-12.0716
點示	-12.0717
身語心金剛	-12.0718
分辨	-12.0721
廣陳	-12.0722
諦審	-12.0722
刀山	-12.0723
中川	-12.0723
證無生	-12.0724
洗淨	-12.0726
設許	-12.0728
屈指	-12.0734
頭龍王	-12.0736
盡虛空界	-12.0746
阿謨伽	-12.0749
生酥	-12.0751
淨室	-12.0752
金剛薩埵三摩地	-12.0754
和雅	-12.0754
三麼野	-12.0755
起大悲	-12.0757
作種種形	-12.076
暫得	-12.0762
例顯	-12.0767
聲聞乘	-12.0769
花米	-12.0769
俱不可得	-12.0769
外護	-12.077
修道分	-12.0771
如何得	-12.0771
風動	-12.0773
色質	-12.0778
悟無生	-12.078
不關	-12.0781
中道理	-12.0784
受持此陀羅尼	-12.0786
不饒益	-12.0786
百千那由他	-12.0788
薩摩	-12.0789
威德自在	-12.0791
真非真	-12.0792
誐羅	-12.0795
恐人	-12.0798
䟦陀	-12.0803
左攞左攞	-12.0808
密示	-12.0809
辯妄	-12.081
建姹	-12.081
悉哩悉哩	-12.081
聲香味觸	-12.0811
鬼畜	-12.0811
多囉多囉	-12.0812
在堂	-12.0812
吠灑䭾	-12.0814
瑟膩	-12.0814
初發心時	-12.0815
三界九地	-12.0816
此段	-12.0817
西南隅	-12.082
啼哭	-12.0821
腰側	-12.0822
啄	-12.0824
頭破作七分	-12.0826
作護身	-12.0826
循發	-12.0827
昝	-12.0827
曩謨三滿多沒馱南	-12.0827
墓	-12.083
光祿卿明教大師臣法賢奉詔譯	-12.0831
稱彼人名	-12.0831
本妙圓心	-12.0831
一字佛頂輪王	-12.0832
知見立知即無明本	-12.0832
縱經塵劫	-12.0832
四威儀中	-12.0833
祛	-12.0833
猫	-12.0833
癘	-12.0833
聳	-12.0833
承佛神力	-12.0834
四衢道	-12.0835
后妃	-12.0835
谿	-12.0835
炷	-12.0836
非生非滅	-12.0836
囄	-12.0836
元是何物	-12.0836
兜率陀天	-12.0836
麼多木佉跛哩嚩	-12.0837
寶蓮花	-12.0837
▁|△	-12.0837
全性起修	-12.0837
須臾間	-12.0837
世間無知惑為因緣及自然性	-12.0837
因異立同	-12.0837
結色成根	-12.0837
不應說言	-12.0837
枷	-12.0837
蘇婆呼童子	-12.0837
ta	-12.0838
流變三疊	-12.0838
漆	-12.0838
圓定發明三摩地中	-12.0839
見無舒卷	-12.0839
獨股	-12.0839
此方之機	-12.0839
許可	-12.084
皰	-12.084
違其現業	-12.084
真性有為空	-12.0841
妙修行路	-12.0841
遠諸魔事	-12.0841
鉢帝	-12.0841
頭本自然	-12.0841
見病為影	-12.0842
陽焰	-12.0842
往復	-12.0842
攝一切法	-12.0843
作諸事業	-12.0843
墯	-12.0843
受命元由	-12.0843
發菩薩願	-12.0843
寒暑	-12.0843
無漏真淨	-12.0844
一心奉請	-12.0846
芸	-12.0847
均等	-12.0848
槃特	-12.0848
聰慧	-12.0848
憂喜	-12.0848
蔽尸	-12.0849
助發	-12.0849
灌頂部	-12.085
泥塗	-12.085
隔越	-12.0851
本性圓融	-12.0852
遏伽	-12.0852
心猶未開	-12.0852
放光如來	-12.0852
鄰虗塵	-12.0854
唵啞吽	-12.0854
空花	-12.0854
分別都無	-12.0855
無盡意菩薩	-12.0857
唯然世尊	-12.0858
毘梨	-12.0859
雙計有無	-12.086
仍復	-12.0862
遺真	-12.0864
下結示	-12.0865
一喝	-12.0868
重宣	-12.0879
蓮華藏	-12.088
長者子	-12.0881
若從空生	-12.0883
兩番	-12.0884
唵跋折羅	-12.0885
卷第三	-12.0886
蜜哩	-12.0888
一條	-12.0889
證驗	-12.0892
內護摩	-12.0892
此是般若母	-12.0896
發大心	-12.0896
鏡智	-12.0897
集解	-12.0898
法性身	-12.09
末無因	-12.0904
項上	-12.0907
一切善法	-12.0907
即得除差	-12.0907
僧寶	-12.0907
菴摩羅識	-12.091
不暇	-12.0911
佛頂真言	-12.0911
一切如來種族	-12.0922
總持門	-12.0926
妖魅	-12.0933
病惱	-12.0934
脚踏	-12.0935
以大母指	-12.0937
性無生滅	-12.094
青蓮花	-12.0941
不可不知	-12.0942
忘塵	-12.0942
先亡	-12.0942
翳眼	-12.0947
各竪	-12.0952
頭相合	-12.0953
復次行者	-12.0956
於此界	-12.0956
困苦	-12.0956
為自體	-12.0958
山峯	-12.096
食飲	-12.0961
身心清淨	-12.0961
為佛事	-12.0963
泮泮泮	-12.0963
到已	-12.0965
謬解	-12.0965
何藉	-12.0966
菩薩羅漢	-12.0971
誐誐曩三	-12.0974
一切罪業	-12.0975
向西	-12.0977
虛心合掌	-12.0977
以白芥子	-12.0984
懷疑	-12.0984
心在身內	-12.0985
不遺	-12.0988
平日	-12.0989
賽	-12.0996
毗盧遮那如來	-12.0997
惡瘡	-12.1
東北隅	-12.1002
藪	-12.1002
[...]
