<unk>	0
<s>	0
</s>	0
之	-4.18446
以	-4.643
為	-4.70406
/	-4.90912
(	-5.19829
王	-5.20603
而	-5.24178
)	-5.2765
於	-5.37777
也	-5.40928
其	-5.46111
有	-5.48284
曰	-5.56888
人	-5.67997
者	-5.68652
不	-5.7421
與	-5.74632
于	-5.82695
及	-5.86026
自	-5.92348
時	-5.93183
至	-5.93702
)(	-5.95041
等	-6.00294
大	-6.02128
使	-6.04387
乃	-6.0453
子	-6.06534
皆	-6.15715
爲	-6.15974
一	-6.16749
無	-6.17162
遂	-6.19648
事	-6.20619
將	-6.22698
中	-6.23857
又	-6.3027
命	-6.32815
所	-6.3459
遣	-6.36296
復	-6.40325
兵	-6.41635
出	-6.43138
城	-6.4469
見	-6.45294
言	-6.45346
後	-6.46432
公	-6.46597
在	-6.46763
▁	-6.47434
軍	-6.47826
行	-6.4845
上	-6.49425
國	-6.49654
亦	-6.50624
令	-6.50965
故	-6.53201
則	-6.53685
入	-6.54527
州	-6.54666
今	-6.54717
縣	-6.55598
得	-6.55923
道	-6.58056
立	-6.5868
三	-6.58681
山	-6.60639
因	-6.61723
如	-6.62231
臣	-6.62295
作	-6.6485
死	-6.66388
生	-6.66528
李	-6.66641
文	-6.66921
從	-6.67366
常	-6.68133
已	-6.69179
歸	-6.69588
欲	-6.70337
天	-6.70676
書	-6.70764
多	-6.72567
安	-6.72966
當	-6.73258
初	-6.73352
矣	-6.73422
官	-6.766
卒	-6.77126
封	-6.77269
此	-6.77296
相	-6.77593
知	-6.77923
帝	-6.7954
下	-6.79863
二	-6.80649
聞	-6.82254
日	-6.82756
平	-6.83163
非	-6.83263
唐	-6.83685
舊	-6.83978
水	-6.84963
興	-6.85216
云	-6.85299
名	-6.86311
方	-6.87023
請	-6.88027
張	-6.8816
謂	-6.89015
南	-6.89243
進	-6.89477
吾	-6.89509
金	-6.90399
然	-6.90608
成	-6.90683
可	-6.90831
攻	-6.91637
若	-6.92244
我	-6.92341
還	-6.92623
光	-6.93243
來	-6.93315
馬	-6.9402
晉	-6.94336
乎	-6.94719
殺	-6.95018
何	-6.96117
家	-6.96715
元	-6.98358
同	-6.99303
陳	-6.99898
未	-7.01239
漢	-7.01268
東	-7.01697
明	-7.02318
石	-7.02397
既	-7.02905
焉	-7.03012
先	-7.03812
守	-7.03967
用	-7.04582
長	-7.05079
五	-7.05131
居	-7.06502
民	-7.06651
建	-7.07367
周	-7.07816
宋	-7.08843
是	-7.09391
字	-7.09541
西	-7.09606
君	-7.11093
去	-7.12003
衆	-7.12317
門	-7.13926
吳	-7.13993
稱	-7.14034
即	-7.14184
必	-7.14444
通	-7.14503
地	-7.14587
拜	-7.1505
義	-7.15532
置	-7.15647
徳	-7.15781
北	-7.16003
重	-7.16766
世	-7.17061
雖	-7.17199
㑹	-7.17967
且	-7.18123
宗	-7.18725
後主	-7.18747
心	-7.19192
始	-7.19529
武	-7.19858
四	-7.20073
劉	-7.20586
前	-7.21054
堅	-7.21463
鎮	-7.22278
本	-7.22615
内	-7.22987
加	-7.23738
取	-7.24159
降	-7.24695
陽	-7.24824
主	-7.25226
宜	-7.25243
賜	-7.2567
髙	-7.26725
數	-7.26944
師	-7.27387
禮	-7.27405
諸	-7.27724
定	-7.28253
江	-7.29071
虎	-7.30173
能	-7.30213
梁	-7.30241
朝	-7.30578
善	-7.31051
詔	-7.3107
都	-7.31162
授	-7.31587
正	-7.31637
召	-7.32014
盡	-7.32479
分	-7.32849
傳	-7.32849
越	-7.33309
德	-7.33588
趙	-7.33773
郡	-7.33898
勒	-7.33952
年	-7.34456
将	-7.34783
實	-7.34979
惟	-7.35047
改	-7.3539
龍	-7.35502
求	-7.36318
遷	-7.36342
白	-7.36399
思	-7.36409
起	-7.36626
或	-7.36713
親	-7.36758
神	-7.36789
父	-7.36881
太祖	-7.36918
戰	-7.3724
志	-7.37469
表	-7.37745
敗	-7.37749
發	-7.37845
逺	-7.38965
奉	-7.39789
法	-7.39803
謀	-7.39853
將軍	-7.41746
以為	-7.42584
會	-7.43167
女	-7.43347
秦	-7.43676
耳	-7.4396
氏	-7.44675
不可	-7.44763
侯	-7.4482
率	-7.45003
外	-7.45071
問	-7.45284
楊	-7.46144
仁	-7.46624
風	-7.47001
延	-7.47156
執	-7.47386
服	-7.47893
流	-7.48495
不能	-7.48593
據	-7.48676
尚	-7.48765
任	-7.49448
甚	-7.49641
治	-7.50462
一作	-7.51251
垂	-7.51348
雄	-7.51436
清	-7.52545
過	-7.53014
太守	-7.53369
舉	-7.5385
代	-7.54116
魏	-7.54255
廣	-7.54398
小	-7.54427
處	-7.54958
府	-7.55267
奔	-7.55573
昌	-7.55576
深	-7.55746
/)	-7.55874
望	-7.56018
信	-7.56626
士	-7.56875
少	-7.56991
爾	-7.57434
益	-7.57529
三年	-7.57535
意	-7.58172
卿	-7.59228
九	-7.59426
獨	-7.59456
温	-7.60114
六	-7.6029
經	-7.60545
留	-7.60655
母	-7.60958
元宗	-7.61043
固	-7.61148
難	-7.61175
崇	-7.61206
受	-7.61228
高	-7.61404
亡	-7.61475
宫	-7.62974
失	-7.63159
領	-7.63218
獻	-7.63391
盛	-7.63497
每	-7.64014
觀	-7.641
亂	-7.64244
蜀	-7.65176
節	-7.65704
宣	-7.65739
斬	-7.66277
懼	-7.66643
擊	-7.66668
號	-7.67106
直	-7.67138
弟	-7.672
保	-7.674
身	-7.67406
應	-7.67498
好	-7.67772
政	-7.67821
破	-7.67915
𢎞	-7.68088
登	-7.68151
開	-7.68337
烈祖	-7.68401
承	-7.68533
元年	-7.68569
賊	-7.68642
八	-7.69004
食	-7.69045
遣使	-7.69389
於是	-7.69491
怒	-7.69644
易	-7.69851
賢	-7.70005
齊	-7.70112
異	-7.70276
楚	-7.70361
遇	-7.70633
討	-7.70676
和	-7.7075
坐	-7.70942
闕	-7.71016
嘗	-7.71046
猶	-7.71141
制	-7.71462
凡	-7.71676
黄	-7.71841
襲	-7.72064
終	-7.72082
徙	-7.72126
帥	-7.72287
伐	-7.72304
功	-7.72953
位	-7.73115
悉	-7.73139
屬	-7.73322
議	-7.73821
合	-7.74461
往	-7.74533
物	-7.74831
天下	-7.75078
修	-7.75258
左右	-7.75502
誅	-7.75757
雲	-7.7602
聖	-7.76169
氣	-7.76286
髙祖	-7.76361
古	-7.76408
夜	-7.76446
力	-7.76459
海	-7.7658
僧	-7.77314
計	-7.77432
間	-7.77669
十	-7.77857
告	-7.77927
引	-7.78191
集	-7.78335
冬十月	-7.78339
叛	-7.78416
田	-7.78663
營	-7.78781
臨	-7.79011
威	-7.79405
忠	-7.79604
素	-7.79775
隨	-7.80158
兩	-7.80161
送	-7.8017
業	-7.8034
樂	-7.81
反	-7.81211
更	-7.81215
二年	-7.81246
學	-7.81439
七	-7.81934
圖	-7.82143
土	-7.82146
孫	-7.8233
性	-7.82351
新	-7.82642
州刺史	-7.82715
寧	-7.82972
徐	-7.83315
度	-7.83468
致	-7.83473
陵	-7.835
權	-7.83576
載	-7.83713
絶	-7.83914
百	-7.83956
陛下	-7.84098
克	-7.84311
俱	-7.84427
口	-7.84449
奏	-7.84548
史	-7.84724
昭	-7.84769
殿	-7.84949
各	-7.85263
頗	-7.85531
遺	-7.85736
汝	-7.85835
語	-7.8604
路	-7.86092
萬	-7.86345
寶	-7.86487
共	-7.86877
永	-7.8728
獲	-7.87519
果	-7.87589
迎	-7.88335
理	-7.88379
太子	-7.88625
首	-7.88688
衣	-7.88728
真	-7.88732
特	-7.88955
景	-7.89028
章	-7.8909
三月	-7.89262
辭	-7.89729
夏	-7.90023
寳	-7.90593
詣	-7.9119
疾	-7.91402
次	-7.91406
濟	-7.91877
著	-7.92666
許	-7.92795
夫	-7.92983
燕	-7.93262
願	-7.93348
被	-7.93423
仕	-7.93466
川	-7.93474
老	-7.93715
節度使	-7.93734
論	-7.94252
尋	-7.94347
疑	-7.94402
羅	-7.94809
詩	-7.95212
不得	-7.95501
夏四月	-7.9553
秋七月	-7.95545
祖	-7.95575
呉	-7.95642
除	-7.95662
后	-7.9636
並	-7.96368
曰吾	-7.96446
隆	-7.96509
頭	-7.96612
幸	-7.96633
納	-7.96639
并	-7.96665
夷	-7.96717
錢	-7.96738
兼	-7.96784
聲	-7.96951
寺	-7.96997
人也	-7.97121
才	-7.97144
恐	-7.97305
存	-7.9739
繼	-7.97881
恩	-7.98043
連	-7.99003
嵗	-7.99139
孤	-7.99286
御	-7.99314
利	-7.9934
就	-7.99776
屯	-7.99827
圍	-7.99867
署	-8.00062
右	-8.00101
華	-8.00172
豈	-8.00279
敬	-8.00981
厚	-8.01157
止	-8.01363
餘	-8.01646
别	-8.01675
𤣥	-8.01764
嚴	-8.01784
美	-8.01843
造	-8.0191
超	-8.02307
貴	-8.02348
吏	-8.02382
木	-8.02528
收	-8.02582
左	-8.02687
玉	-8.02769
動	-8.02956
化	-8.0299
紀	-8.0319
備	-8.03381
哉	-8.03427
順	-8.03617
靈	-8.03937
懐	-8.03989
洪	-8.04002
色	-8.04025
列	-8.04284
林	-8.04292
滅	-8.04613
走	-8.04714
勝	-8.04777
手	-8.04783
誠	-8.04972
月	-8.05103
冦	-8.05276
未幾	-8.0528
已而	-8.05403
伯	-8.05899
妻	-8.05903
至是	-8.05966
交	-8.06576
敵	-8.0733
皇	-8.07687
第	-8.0802
罪	-8.08359
全	-8.0885
曜	-8.09133
十二月	-8.09533
殺之	-8.09618
棄	-8.09936
解	-8.09974
彼	-8.1048
胡	-8.10967
惡	-8.1105
勢	-8.11762
臺	-8.11956
顯	-8.11971
但	-8.12055
河	-8.12093
持	-8.12094
統	-8.12643
春	-8.12751
推	-8.12965
由	-8.1307
救	-8.13145
夀	-8.13222
追	-8.13225
强	-8.13314
按	-8.13393
雅	-8.13828
甲	-8.13933
四年	-8.14165
車	-8.14351
薨	-8.14398
便	-8.14665
罷	-8.14766
朕	-8.14813
廢	-8.15117
殷	-8.15207
退	-8.15394
勸	-8.15401
尊	-8.1545
兄	-8.15546
喜	-8.1555
伏	-8.15644
朱	-8.15675
司	-8.15912
六月	-8.15994
九月	-8.16069
羣	-8.16238
比	-8.16298
里	-8.16352
久	-8.16495
顧	-8.16555
咸	-8.16613
是月	-8.16686
結	-8.16716
仍	-8.16811
足	-8.16863
堂	-8.1699
杜	-8.17072
百姓	-8.17175
尚書	-8.17353
容	-8.17427
蠻	-8.17765
隂	-8.17814
先是	-8.17852
遊	-8.17887
酒	-8.1796
閩	-8.18061
逆	-8.18082
江南	-8.18982
皇帝	-8.19077
䘚	-8.19211
客	-8.1932
南唐	-8.19433
期	-8.19471
充	-8.19509
視	-8.19512
太	-8.19583
彦	-8.19604
孝	-8.19731
近	-8.19834
向	-8.20026
飛	-8.20076
由是	-8.20079
部	-8.20368
嘉	-8.2046
火	-8.20948
儀	-8.21203
天子	-8.21457
先主	-8.21606
魯	-8.21621
夢	-8.21685
變	-8.21705
秋	-8.21857
象	-8.21941
扵	-8.22478
具	-8.2285
二月	-8.22931
務	-8.23004
五年	-8.23099
福	-8.23159
恭	-8.23251
紹	-8.24172
是時	-8.24272
運	-8.24842
騎	-8.25064
極	-8.25083
目	-8.25412
對	-8.25461
謝	-8.25598
儒	-8.26166
附	-8.2617
葬	-8.262
良	-8.26278
屢	-8.26338
教	-8.2718
壽	-8.27221
嗣	-8.27236
散	-8.27255
徴	-8.27473
鄉	-8.27513
五月	-8.27608
精	-8.27997
院	-8.28021
要	-8.28141
器	-8.28154
陷	-8.28199
輕	-8.28344
私	-8.28611
鄭	-8.2879
池	-8.28837
昔	-8.28899
約	-8.28924
忽	-8.28969
撫	-8.29142
邪	-8.2933
音	-8.29405
聰	-8.29419
耶	-8.29602
輔	-8.29655
職	-8.29724
萇	-8.29741
姓	-8.29793
韓	-8.30266
而不	-8.3029
莫	-8.30343
八月	-8.30413
竒	-8.30749
英	-8.3107
報	-8.31114
負	-8.31426
草	-8.3154
虜	-8.31709
邑	-8.3171
金陵	-8.31801
累	-8.32023
貢	-8.32218
指	-8.323
亮	-8.32352
略	-8.32383
仲	-8.32514
斯	-8.32867
記	-8.32885
侍中	-8.33183
彌	-8.33341
達	-8.33499
高祖	-8.336
宻	-8.33619
從之	-8.33619
一日	-8.33668
勇	-8.34338
淮南	-8.34676
省	-8.34684
聞之	-8.35166
司馬	-8.35223
朝廷	-8.35259
簡	-8.35542
斷	-8.3574
依	-8.35786
贈	-8.35827
慶	-8.3589
選	-8.35995
布	-8.36019
面	-8.36092
赴	-8.36144
青	-8.36161
憂	-8.37174
乗	-8.37312
長安	-8.37487
畧	-8.37704
夫人	-8.37714
設	-8.37802
郎	-8.3791
智	-8.38055
害	-8.38061
病	-8.38196
徃	-8.38289
賦	-8.3829
千	-8.38381
太后	-8.38399
即位	-8.38486
歲	-8.38494
禁	-8.38497
原	-8.38582
猛	-8.38589
說	-8.38608
聽	-8.38725
刺史	-8.38788
成都	-8.38806
感	-8.38984
樓	-8.39044
康	-8.39084
乞	-8.39089
不從	-8.39187
不敢	-8.39227
曲	-8.39528
再	-8.39711
廟	-8.39771
馳	-8.39956
郭	-8.39961
刑	-8.4003
微	-8.40048
離	-8.40193
葢	-8.40244
機	-8.40578
衛	-8.40695
室	-8.41218
世祖	-8.41302
急	-8.41455
亭	-8.4167
崔	-8.4171
危	-8.42015
勿	-8.42085
釋	-8.42225
免	-8.42317
養	-8.42318
形	-8.42424
星	-8.42495
市	-8.42504
榮	-8.42706
吳王	-8.42787
如此	-8.42826
讓	-8.42882
怨	-8.42933
兄弟	-8.43174
謙	-8.43281
改元	-8.4369
孟	-8.437
乘	-8.4392
纂	-8.4406
待	-8.44112
羣臣	-8.44153
大將軍	-8.44373
農	-8.44487
資	-8.44533
典	-8.44671
淵	-8.44696
愛	-8.45347
姚	-8.4561
佛	-8.45818
十一月	-8.45995
符	-8.46251
監	-8.46275
歴	-8.46329
卷	-8.46418
魚	-8.46435
牛	-8.46606
援	-8.46635
賞	-8.46697
適	-8.4677
征	-8.46914
之後	-8.46929
花	-8.47162
移	-8.47232
澤	-8.47371
宴	-8.47771
窮	-8.47953
飲	-8.48061
竊	-8.48094
拒	-8.48211
喪	-8.4828
冠	-8.48371
諫	-8.48781
識	-8.48792
敢	-8.48819
斬之	-8.48934
末	-8.48959
密	-8.49277
璋	-8.4934
武肅王	-8.49445
富	-8.49448
申	-8.4948
辟	-8.49572
禍	-8.49895
之地	-8.4995
俗	-8.49959
勞	-8.50034
情	-8.50135
逼	-8.50138
樹	-8.50198
案	-8.50593
丁	-8.50869
従	-8.50886
述	-8.50886
桓	-8.51165
爭	-8.5117
閣	-8.51174
隱	-8.51419
殊	-8.51449
轉	-8.5161
傷	-8.52049
祚	-8.52101
尤	-8.52114
徒	-8.52206
投	-8.52388
慮	-8.52396
舟	-8.5251
霸	-8.52696
畫	-8.52766
曹	-8.52791
考	-8.5281
録	-8.53301
賀	-8.53444
暴	-8.53486
六年	-8.53621
境	-8.53668
世子	-8.54305
積	-8.54473
犯	-8.54494
邊	-8.54541
䇿	-8.54639
烈	-8.54788
謂之	-8.54965
惠	-8.55307
懷	-8.55376
所以	-8.55451
巳	-8.55498
哀	-8.55543
給	-8.55855
輙	-8.55894
竟	-8.56227
雨	-8.56358
兒	-8.56466
施	-8.56521
侵	-8.56542
休	-8.5658
越王	-8.5658
壁	-8.56638
秋八月	-8.56673
勅	-8.56765
對曰	-8.56864
橋	-8.57055
彭	-8.57231
洛陽	-8.57566
假	-8.577
野	-8.57868
松	-8.57951
程	-8.5805
裕	-8.58072
博	-8.58092
潛	-8.58188
體	-8.58325
呼	-8.58617
助	-8.58638
築	-8.58726
茍	-8.58929
皝	-8.58943
戍	-8.5907
不許	-8.59119
太尉	-8.59236
工	-8.59325
空	-8.59327
佐	-8.59638
覺	-8.59672
士卒	-8.59702
升	-8.59896
吴	-8.59944
洛	-8.59976
步	-8.6007
朗	-8.6014
接	-8.6015
覆	-8.60164
督	-8.60434
掠	-8.60593
不知	-8.60804
太宗	-8.60863
説	-8.6102
子胥	-8.61079
無所	-8.61287
襄	-8.61403
曰此	-8.61455
輒	-8.6166
泉	-8.61661
患	-8.61803
尹	-8.61902
巖	-8.61957
諸將	-8.62056
落	-8.62337
戸	-8.62529
偽	-8.6269
福州	-8.62745
冬	-8.62867
委	-8.62945
遵	-8.6306
寵	-8.63066
種	-8.63256
䘮	-8.63343
大夫	-8.63431
暉	-8.63438
䝉遜	-8.63486
訓	-8.63779
勲	-8.63936
戒	-8.64094
族	-8.646
泰	-8.64877
傉檀	-8.65018
弱	-8.65109
子也	-8.65221
指揮使	-8.65372
振	-8.65517
貞	-8.65607
苦	-8.6566
而還	-8.65775
叔	-8.65936
縱	-8.66004
宿	-8.66038
戎	-8.66093
茂	-8.6611
冲	-8.66182
他	-8.66226
而已	-8.66334
徵	-8.66385
然後	-8.66615
恒	-8.66674
虚	-8.6671
来	-8.67051
隠	-8.67152
妃	-8.67451
幽	-8.67569
聚	-8.67598
赤	-8.67692
闗	-8.67751
擢	-8.67766
七年	-8.67881
劍	-8.67968
可以	-8.68052
知誥	-8.68349
陸	-8.68674
不足	-8.68707
劒	-8.68807
季	-8.68914
懿	-8.69198
漸	-8.69298
違	-8.69577
既而	-8.6962
知祥	-8.69835
决	-8.70184
安南	-8.70262
司空	-8.70464
責	-8.70528
邦	-8.70582
敏	-8.70716
丘	-8.70732
忌	-8.70787
香	-8.70787
谷	-8.70789
以爲	-8.70827
吳越	-8.70911
沙	-8.71012
翰	-8.71073
念	-8.71459
遼	-8.71579
憲	-8.71927
歌	-8.71933
諭	-8.71993
䝉	-8.72056
禹	-8.72082
屈	-8.7218
秀	-8.72268
盧	-8.72352
關	-8.72409
國人	-8.72658
庭	-8.72669
射	-8.72691
錄	-8.72737
奪	-8.72779
津	-8.72793
蓋	-8.72846
况	-8.72912
避	-8.7312
掌	-8.73174
嵩	-8.73258
契丹	-8.73577
户	-8.73601
丹	-8.73709
爵	-8.73728
支	-8.74011
竹	-8.7439
許之	-8.74413
畏	-8.74551
薦	-8.74604
社稷	-8.74919
京師	-8.74997
諸侯	-8.75021
肅	-8.75129
熙	-8.75374
牧	-8.75541
詳	-8.75695
豐	-8.75785
籍	-8.75877
薄	-8.75916
洞	-8.75933
澄	-8.7598
段	-8.7602
朔	-8.76186
公主	-8.76243
率衆	-8.76272
擒	-8.76455
淮	-8.76466
舍	-8.76474
是嵗	-8.76772
侍	-8.76838
冀	-8.7685
班	-8.7689
險	-8.76908
厯	-8.76913
夏五月	-8.7719
詞	-8.77286
專	-8.77348
巴	-8.77407
索	-8.77431
而去	-8.77447
揚	-8.77617
端	-8.77699
所殺	-8.77954
謹	-8.77998
鄴	-8.78132
唯	-8.78133
遽	-8.78134
傾	-8.7824
珠	-8.78463
討之	-8.78576
諱	-8.78655
京	-8.78666
船	-8.78673
瑞	-8.78673
泓	-8.78733
引兵	-8.78815
鍾	-8.78868
示	-8.78937
恨	-8.79034
總	-8.79069
沈	-8.79136
須	-8.79166
頵	-8.79253
干	-8.79295
參	-8.79534
毛	-8.80021
自稱	-8.80049
眀	-8.80174
將兵	-8.80556
久之	-8.80805
宏	-8.8109
其子	-8.81232
館	-8.81404
辱	-8.81456
擊之	-8.81462
到	-8.81465
健	-8.81474
十年	-8.81566
儁	-8.81826
中山	-8.81835
寜	-8.82001
齊丘	-8.82007
春秋	-8.82038
軌	-8.8223
之事	-8.82414
溪	-8.82704
冊	-8.82976
背	-8.83032
荒	-8.83055
趣	-8.83096
塞	-8.83121
藏	-8.83185
愚	-8.83191
震	-8.83222
帶	-8.83303
放	-8.83345
補	-8.83441
優	-8.83525
使人	-8.83533
仰	-8.83553
角	-8.83725
驚	-8.83899
明年	-8.84094
赦	-8.84116
衍	-8.84156
仙	-8.84278
冬十一月	-8.84292
豪	-8.84515
預	-8.84549
忘	-8.84559
王命	-8.846
壘	-8.84673
寇	-8.84675
序	-8.84837
誤	-8.84839
副使	-8.85006
中原	-8.8521
八年	-8.85298
巨	-8.85372
陣	-8.85408
試	-8.85543
熈	-8.85731
維	-8.85768
辛	-8.85839
藩	-8.85884
雜	-8.86018
鑒	-8.86035
逰	-8.86056
内外	-8.86428
丕	-8.8651
拔	-8.86553
錦	-8.86558
丞相	-8.86709
烏	-8.86857
乾	-8.8718
使者	-8.87485
源	-8.87499
之心	-8.87531
允	-8.87659
翼	-8.87714
蕩	-8.87734
𥘉	-8.87857
切	-8.87892
井	-8.88038
十二	-8.88068
子孫	-8.88191
糧	-8.88229
謁	-8.88242
自是	-8.88512
鳳	-8.88517
銀	-8.88769
父子	-8.88779
匡	-8.88892
狀	-8.89034
入朝	-8.89111
融	-8.8946
廆	-8.89622
将軍	-8.89649
奴	-8.89675
逹	-8.8975
寛	-8.89865
俊	-8.8994
知其	-8.8994
誰	-8.90002
紫	-8.90123
麟	-8.9013
恪	-8.90184
辨	-8.90225
都督	-8.90269
賈	-8.90384
董	-8.90638
嶺	-8.90704
幼	-8.90719
横	-8.90811
趨	-8.90815
阿	-8.90819
渡	-8.90882
不如	-8.90966
文武	-8.90994
祀	-8.91053
諸軍	-8.91187
黨	-8.91347
寒	-8.91359
蘇	-8.91457
祐	-8.91509
諸子	-8.91562
舎	-8.91729
質	-8.91762
校	-8.91826
勃勃	-8.91829
品	-8.91921
辰	-8.92012
廷	-8.92122
㫖	-8.92128
衡	-8.92277
滿	-8.92334
至於	-8.92354
國家	-8.92505
招	-8.92556
俄	-8.92563
没	-8.92639
己	-8.92807
習	-8.92873
息	-8.92954
逐	-8.93008
穆	-8.93106
閔	-8.93186
吉	-8.93188
庶	-8.93206
蘭	-8.93216
量	-8.93257
屋	-8.93366
副	-8.93484
規	-8.93699
不及	-8.93834
配	-8.93953
蔡	-8.93991
珍	-8.94
術	-8.94194
岳	-8.94296
駕	-8.94417
慈	-8.94437
笑	-8.94465
婦	-8.94522
雍	-8.94545
司徒	-8.94595
幾	-8.94785
羽	-8.9487
奮	-8.94917
喬	-8.95008
焚	-8.95069
世宗	-8.95072
湖	-8.95135
醉	-8.95213
游	-8.95233
慎	-8.95316
貶	-8.95496
阮	-8.9558
撰	-8.95699
寢	-8.95703
調	-8.95788
財	-8.958
逸	-8.95821
候	-8.95822
藥	-8.95863
拒之	-8.96025
為人	-8.96027
建州	-8.96103
逃	-8.96121
嗣主	-8.96146
㧞	-8.9621
希	-8.96318
節度	-8.96401
貪	-8.96484
擅	-8.96512
愈	-8.96524
妾	-8.96575
未㡬	-8.96592
冬十二月	-8.96637
宣州	-8.96775
衰	-8.96776
暐	-8.97093
誦	-8.97094
𫝊	-8.97143
基	-8.97222
祠	-8.97602
回	-8.97798
刻	-8.97802
賔	-8.97844
半	-8.98004
䖍	-8.98153
大王	-8.9836
荆南	-8.98433
脩	-8.98473
交州	-8.9848
皇后	-8.98515
歩	-8.98862
慕容	-8.98902
壯	-8.99017
毅	-8.99042
潮	-8.99108
鼓	-8.99116
米	-8.99129
曰今	-8.99243
乾歸	-8.99316
一人	-8.99368
湖南	-8.99369
弼	-8.9947
囚	-8.9949
績	-8.99808
界	-8.99939
役	-9.00181
晟	-9.00395
早	-9.00608
一云	-9.01026
𩔖	-9.01312
託	-9.01313
之言	-9.01322
勤	-9.01333
不克	-9.01337
論曰	-9.01363
乆	-9.0146
其後	-9.01541
扶	-9.01744
割	-9.01751
筆	-9.01795
龜	-9.01796
交阯	-9.01809
折	-9.01834
争	-9.01856
都指揮使	-9.01955
吕	-9.02259
桑	-9.0232
稍	-9.02418
列傳	-9.02445
奈何	-9.02541
一時	-9.02578
所在	-9.02591
大臣	-9.02646
秋九月	-9.02648
黎	-9.02895
留後	-9.03001
予	-9.03146
將士	-9.03169
郡縣	-9.0317
殂	-9.0324
續	-9.0325
中書令	-9.03314
有功	-9.03324
同平章事	-9.03359
夏六月	-9.0339
大怒	-9.03733
𨽻	-9.03734
欽	-9.03758
速	-9.03804
鮮卑	-9.03974
毎	-9.03986
廣陵	-9.04085
帥衆	-9.04162
察	-9.0419
杖	-9.04217
審	-9.04341
弗	-9.04449
顔	-9.04555
姦	-9.0459
城中	-9.04607
太原	-9.04842
丗	-9.05013
鐵	-9.05018
盖	-9.05033
聘	-9.05064
而死	-9.05165
輿	-9.05279
幹	-9.05309
驛	-9.05333
不復	-9.05619
墓	-9.05794
衞	-9.05854
陶	-9.05969
刺	-9.05996
恃	-9.06002
之間	-9.06027
啟	-9.06035
逵	-9.06102
純	-9.06242
苻	-9.06643
照	-9.06747
決	-9.06802
普	-9.06805
似	-9.06832
沉	-9.07005
之所	-9.07049
莫不	-9.07118
條	-9.07286
禄	-9.07362
石虎	-9.07396
覽	-9.07426
虞	-9.07504
輩	-9.07511
懸	-9.07517
刀	-9.07553
所敗	-9.07585
㱕	-9.0759
操	-9.07774
畢	-9.07835
旦	-9.07838
歳	-9.0794
格	-9.07954
死者	-9.08072
柔	-9.081
二人	-9.08137
瑾	-9.08185
友	-9.08194
熾磐	-9.08234
印	-9.08267
費	-9.08356
錫	-9.08491
男	-9.08505
乃以	-9.08609
獄	-9.08617
蕭	-9.08749
今日	-9.08887
瞻	-9.08932
曰我	-9.09057
悟	-9.09124
進攻	-9.0913
誓	-9.09279
管	-9.09369
判	-9.09613
馮	-9.09685
敦	-9.09704
又有	-9.0982
麗	-9.10215
銅	-9.10433
盤	-9.10443
贊	-9.1048
謨	-9.10482
大敗	-9.10506
鎭	-9.10512
以來	-9.10529
疆	-9.10799
祭	-9.10849
諡	-9.11016
洎	-9.1107
遂以	-9.1117
防	-9.11179
苐	-9.11237
今從	-9.11247
園	-9.11257
毁	-9.11322
㓜	-9.11377
之衆	-9.115
漢中	-9.11506
句	-9.11685
困	-9.11698
策	-9.11837
效	-9.11904
其事	-9.11998
人皆	-9.12066
鉉	-9.12121
不為	-9.12248
戰於	-9.12314
君子	-9.12333
鼎	-9.12468
薛	-9.12626
新羅	-9.12637
又遣	-9.12655
却	-9.12763
曰臣	-9.12791
故事	-9.12814
不受	-9.13157
妙	-9.13372
羊	-9.13444
什	-9.13444
褒	-9.13494
也今	-9.13504
竝	-9.13551
晏	-9.13641
來降	-9.13737
忠懿王	-9.13783
盟	-9.14157
損	-9.14222
誘	-9.14245
靖	-9.14289
宋齊丘	-9.14495
啓	-9.14901
于是	-9.14984
階	-9.15025
繁	-9.15067
䟦	-9.15068
恵	-9.1507
鏐	-9.15074
繫	-9.15094
娶	-9.15105
長沙	-9.15268
撃	-9.15377
▁(	-9.15411
潰	-9.15495
范	-9.15674
強	-9.15696
姑	-9.15814
峻	-9.1585
提	-9.15859
昶	-9.15875
九年	-9.15893
四方	-9.16008
仗	-9.16258
其言	-9.16427
諌	-9.16457
儼	-9.16499
疏	-9.165
鄧	-9.16589
判官	-9.16773
何以	-9.16819
隣	-9.16842
乃止	-9.1689
言於	-9.16904
江陵	-9.16907
不聽	-9.17064
宰相	-9.17245
乙	-9.17274
李氏	-9.17345
㣲	-9.1739
材	-9.17424
擇	-9.17433
貫	-9.17453
不見	-9.17502
子弟	-9.17539
其地	-9.1772
戲	-9.17742
中國	-9.17744
數百	-9.1804
諡曰	-9.18056
卜	-9.18066
是以	-9.18145
王師	-9.18185
鳥	-9.18264
四海	-9.1829
誅之	-9.18376
中外	-9.18402
長子	-9.18693
以其	-9.18757
雪	-9.18819
曰昔	-9.18981
太平	-9.19013
溫	-9.1902
俾	-9.19055
雙	-9.19061
骨	-9.1907
明日	-9.19093
粲	-9.19168
躬	-9.19219
四月	-9.19277
五千	-9.19358
商	-9.1941
帛	-9.19505
循	-9.19544
暠	-9.19551
於此	-9.19627
軍節度使	-9.19754
波	-9.19845
細	-9.19859
紅	-9.19879
崩	-9.19933
涼	-9.20058
湯	-9.20105
周師	-9.20107
文穆王	-9.20108
者皆	-9.20336
血	-9.20407
袁	-9.20413
䕶	-9.205
貧	-9.20559
庸	-9.20565
盗	-9.20616
像	-9.2062
鹿	-9.20637
題	-9.20733
圗	-9.20746
属	-9.20757
十一年	-9.20865
徑	-9.20963
兹	-9.21043
殆	-9.21062
殿下	-9.21071
㡬	-9.21234
政事	-9.21387
輸	-9.21474
肆	-9.2152
遜	-9.21536
夕	-9.21549
上書	-9.21605
數千	-9.21684
從事	-9.21869
之功	-9.22014
軍中	-9.22035
禪	-9.22116
之士	-9.2213
側	-9.22156
莊	-9.22287
倫	-9.22296
談	-9.22332
産	-9.22344
穀	-9.22363
齊邱	-9.22377
竭	-9.22386
盈	-9.22396
曰汝	-9.22398
苑	-9.22406
毒	-9.22414
沒	-9.22439
安定	-9.22475
而歸	-9.22475
王以	-9.22652
詐	-9.22752
燒	-9.22962
賴	-9.2303
泣	-9.23065
學士	-9.23107
創	-9.2311
凶	-9.23116
亷	-9.23131
慕	-9.23152
虛	-9.23157
鎬	-9.23173
憤	-9.23177
寨	-9.23225
浦	-9.2323
味	-9.23273
環	-9.23446
有司	-9.23778
三日	-9.23875
雷	-9.2395
裴	-9.23985
衝	-9.24016
嗣位	-9.24059
王氏	-9.2409
履	-9.24136
皮	-9.24154
返	-9.2418
七月	-9.24285
差	-9.24378
䧟	-9.24514
益州	-9.2453
阻	-9.24623
亟	-9.24737
鳯	-9.24855
災	-9.24895
翰林學士	-9.24973
覇	-9.25022
其衆	-9.25047
天錫	-9.25077
妻子	-9.25253
千里	-9.25358
遐	-9.25451
驅	-9.25616
尚書令	-9.25651
柱	-9.25662
厥	-9.25672
根	-9.25772
昏	-9.25815
蒙	-9.25836
陰	-9.25856
托	-9.25867
騰	-9.25874
國主	-9.25881
宋帝	-9.2589
飾	-9.25912
絳	-9.25916
之禮	-9.25961
傅	-9.26111
十月	-9.26207
三十	-9.26529
惑	-9.26602
肉	-9.26614
禽	-9.26693
䜟	-9.26701
長史	-9.26707
栁	-9.26709
徽	-9.26726
之罪	-9.26766
裔	-9.26772
歎曰	-9.26911
三千	-9.27217
義祖	-9.27363
舉兵	-9.27377
露	-9.27479
貨	-9.27513
羗	-9.27531
所謂	-9.27581
姜	-9.27602
翁	-9.27621
之意	-9.27712
父母	-9.27933
童	-9.2809
前蜀	-9.28124
供	-9.2823
妖	-9.28264
踰	-9.28266
範	-9.28332
膺	-9.28395
鬼	-9.28399
緒	-9.28417
鑄	-9.28431
鳴	-9.28445
耕	-9.28519
岸	-9.28589
歎	-9.28705
河東	-9.28749
宇	-9.28823
答	-9.28886
饑	-9.28914
靡	-9.29045
榖	-9.29045
聖人	-9.29049
擁	-9.29073
二十	-9.29171
百官	-9.2922
其所	-9.29267
剛	-9.293
均	-9.29369
羌	-9.29371
増	-9.29395
某	-9.29399
淫	-9.29419
岐	-9.29421
聴	-9.29464
州人	-9.29526
號曰	-9.2955
救之	-9.29624
行密	-9.29698
孰	-9.29724
大軍	-9.2984
哭	-9.29884
洪州	-9.30009
攻之	-9.30058
宋太祖	-9.30221
午	-9.30225
王子	-9.30227
蒲	-9.30228
驕	-9.30238
仇	-9.30246
邉	-9.30247
彬	-9.30289
之志	-9.30358
君臣	-9.30424
知訓	-9.30529
我兵	-9.3069
數年	-9.30831
曾	-9.30845
頃	-9.30868
級	-9.30936
無不	-9.31044
矢	-9.31112
悲	-9.31136
起兵	-9.31142
韋	-9.31165
賛	-9.31197
住	-9.31232
匿	-9.31277
憚	-9.31317
祥	-9.31492
匹	-9.31737
二年春正月	-9.31779
作亂	-9.31831
功臣	-9.31887
俟	-9.31913
者也	-9.32023
歡	-9.32075
黃	-9.32101
囘	-9.32136
潘	-9.32145
□	-9.32191
諫曰	-9.32196
抗	-9.32403
萬人	-9.32768
一百	-9.32821
見之	-9.32889
房	-9.32903
黙	-9.32985
捕	-9.32996
式	-9.33002
之亂	-9.33018
叙	-9.33027
曉	-9.33073
可謂	-9.33158
悔	-9.33227
綂	-9.33251
誣	-9.33453
斤	-9.33496
十萬	-9.33532
東南	-9.33553
泉州	-9.33725
浮	-9.33727
煩	-9.33922
賓	-9.33992
秦州	-9.34016
邀	-9.34034
怪	-9.34117
塔	-9.34127
參軍	-9.34334
乃遣	-9.34474
寡	-9.34543
鹽	-9.34578
國之	-9.34684
篇	-9.34684
未嘗	-9.34724
瓊	-9.34745
金銀	-9.34765
駿	-9.34835
葉	-9.34847
旋	-9.34862
殘	-9.34883
累遷	-9.34888
武穆王	-9.3497
植	-9.34991
雋	-9.34993
庫	-9.3505
部落	-9.35077
饒	-9.35122
元帥	-9.35147
編	-9.35208
牙	-9.35684
恢	-9.35716
付	-9.35746
先生	-9.35772
乂	-9.35828
宫中	-9.35842
尺	-9.35872
宮	-9.35953
散騎常侍	-9.35994
郊	-9.36136
遼東	-9.3641
保大	-9.36468
募	-9.36515
上下	-9.36694
整	-9.36696
筠	-9.36718
尸	-9.36723
攝	-9.36738
碩	-9.36755
天地	-9.36822
賤	-9.36826
弓	-9.36827
掩	-9.36832
蒙遜	-9.36838
獵	-9.36842
評	-9.36896
遥	-9.36933
鄙	-9.36937
類	-9.36978
隴西	-9.37079
二子	-9.37294
胥	-9.37329
五十	-9.37399
三萬	-9.37437
曽	-9.37441
破之	-9.37756
氐	-9.37764
韜	-9.37778
叟	-9.37791
渠	-9.37843
荷	-9.3785
涉	-9.37857
凉	-9.37893
蛇	-9.37917
揚州	-9.3792
數日	-9.38077
旁	-9.38479
否	-9.38528
太傅	-9.38548
入城	-9.3869
呉越	-9.38713
世家	-9.38715
誕	-9.3872
弘	-9.38779
兆	-9.38793
席	-9.38797
潤州	-9.38826
與之	-9.38833
斗	-9.38908
俄而	-9.38943
弊	-9.38983
汴	-9.39028
軍士	-9.39046
入貢	-9.39112
妄	-9.39269
又云	-9.39433
荆	-9.39454
南漢	-9.3948
又以	-9.39482
復遣	-9.39576
導	-9.39592
宰	-9.39607
是日	-9.3961
傑	-9.39657
秦王	-9.39697
縁	-9.39767
旣	-9.39808
卧	-9.39837
朴	-9.39841
穴	-9.39875
恥	-9.39877
尉	-9.40053
諸軍事	-9.40183
最	-9.40302
建康	-9.40483
二州	-9.40623
來奔	-9.40641
搆	-9.40671
太師	-9.40692
時人	-9.40747
遂與	-9.40778
左僕射	-9.40853
構	-9.40868
寫	-9.40891
注	-9.40901
軰	-9.40916
悦	-9.40973
諷	-9.41103
戮	-9.41272
之命	-9.41416
四十	-9.41581
楊氏	-9.41606
主簿	-9.41695
戴	-9.41753
王曰	-9.41754
鋭	-9.41783
丈	-9.41798
濬	-9.41822
擾	-9.41853
斥	-9.41854
披	-9.41891
舞	-9.41917
大破之	-9.41966
侍郎	-9.41969
玄	-9.42004
河南	-9.42056
五百	-9.42088
二千	-9.42185
閉	-9.42255
不過	-9.4229
元年春正月	-9.42329
時有	-9.4246
陳覺	-9.42479
西川	-9.42486
出入	-9.42563
孔	-9.42587
律	-9.42716
削	-9.42774
廵	-9.42801
卑	-9.42808
馬氏	-9.42824
宅	-9.42851
弟子	-9.42887
姑臧	-9.42916
主上	-9.42928
等皆	-9.4299
僚	-9.43047
之子	-9.43505
郡公	-9.43512
製	-9.43533
倉	-9.43666
是歲	-9.43719
好學	-9.43741
歆	-9.43764
何如	-9.43803
禦	-9.43892
甘	-9.43893
旗	-9.43907
鴻	-9.43942
塵	-9.43943
抱	-9.43951
麻	-9.43962
增	-9.43975
遠	-9.43991
奸	-9.43995
仁贍	-9.44022
敕	-9.44049
奉表	-9.44059
州郡	-9.44103
萬里	-9.44142
鄰	-9.44694
南詔	-9.4472
前後	-9.44783
東西	-9.44881
効	-9.44914
謚曰	-9.4495
彊	-9.44984
墨	-9.45001
富貴	-9.45019
専	-9.45023
潜	-9.45035
姬	-9.45041
歛	-9.4505
喻	-9.45051
未有	-9.45121
劉氏	-9.4522
正月	-9.45423
惜	-9.45482
競	-9.45495
明公	-9.45747
為太子	-9.45786
逢	-9.45827
平章事	-9.46008
渥	-9.46039
愧	-9.46045
偃	-9.46049
溥	-9.46075
頼	-9.46109
狂	-9.4615
累官	-9.46178
寡人	-9.46247
我師	-9.46382
字子	-9.46438
宋師	-9.46489
潤	-9.46533
忍	-9.46749
享	-9.46837
革	-9.4686
顥	-9.46989
頃之	-9.47076
廣漢	-9.47084
黜	-9.47119
堯	-9.47145
毋	-9.47158
汗	-9.4716
脱	-9.47178
擬	-9.4718
凌	-9.47199
戦	-9.47223
數萬	-9.4724
是年	-9.47429
采	-9.47608
當時	-9.4781
俘	-9.47982
昇	-9.48035
旅	-9.48169
郁	-9.48176
不忍	-9.48177
恣	-9.48178
占	-9.48185
𦙍	-9.48211
遁	-9.48216
黒	-9.48245
皓	-9.48252
訪	-9.48259
覩	-9.48263
脫	-9.48307
歷	-9.4831
尚書郎	-9.48352
兮	-9.48384
曰卿	-9.48453
相國	-9.48553
欲以	-9.48554
亦有	-9.48556
唐主	-9.48599
暮	-9.48635
奕	-9.48751
遭	-9.48896
迹	-9.48918
盜	-9.48962
頓	-9.49151
大司馬	-9.49159
以下	-9.49172
如故	-9.49206
綱	-9.49208
寅	-9.49218
抑	-9.4923
内史	-9.49236
貌	-9.493
藉	-9.49312
畜	-9.49363
寢疾	-9.49438
沖	-9.49499
固守	-9.49542
上表	-9.4955
寄	-9.49613
應之	-9.49754
千餘	-9.49777
二萬	-9.49967
名曰	-9.50077
晋	-9.50103
短	-9.50103
排	-9.50286
堪	-9.50337
藝	-9.50392
含	-9.5041
驗	-9.50459
西平	-9.50477
絹	-9.50499
不納	-9.50738
豫	-9.50803
宗廟	-9.50843
驤	-9.50922
追之	-9.5098
自殺	-9.51006
單	-9.51026
大将軍	-9.51119
僣	-9.51313
之道	-9.51324
在位	-9.51359
贇	-9.51359
必有	-9.5136
而卒	-9.51362
嶽	-9.51455
矯	-9.51458
道士	-9.51475
希萼	-9.51528
知詢	-9.51553
枝	-9.5156
契	-9.5156
黑	-9.51567
屏	-9.51577
憑	-9.51582
册	-9.51584
嗣慶	-9.51696
永昌	-9.51881
不勝	-9.51929
而出	-9.52003
重華	-9.52042
天祐	-9.52212
矩	-9.52464
杭州	-9.52584
伊	-9.52595
十八	-9.52645
育	-9.52676
採	-9.52726
譚	-9.52765
龍城	-9.52772
稚	-9.52773
飬	-9.52803
范蠡	-9.52812
朗州	-9.52932
大懼	-9.53025
公卿	-9.53129
十三年	-9.53282
以此	-9.53368
不同	-9.5338
闗中	-9.53542
其人	-9.53615
王猛	-9.53621
之謀	-9.53705
舒	-9.53732
摧	-9.53841
痛	-9.5386
三年春正月	-9.53886
邃	-9.5389
訴	-9.53891
勾踐	-9.53922
廬州	-9.53929
校尉	-9.53956
僕	-9.54109
厲	-9.54195
犀	-9.54542
大事	-9.54597
亦不	-9.54773
講	-9.54866
屠	-9.5496
壇	-9.5496
渭	-9.54985
鍇	-9.55064
十二年	-9.55065
潭	-9.55318
惡之	-9.55412
浚	-9.55505
偏	-9.55524
既至	-9.55536
一旦	-9.55597
視之	-9.55606
有所	-9.55614
不至	-9.55675
進士	-9.55678
建武	-9.55861
鋒	-9.5599
墜	-9.56013
緯	-9.56038
通鑑	-9.56047
詠	-9.56071
可求	-9.56158
齒	-9.56161
爽	-9.56169
鶴	-9.56222
待之	-9.56278
江州	-9.56436
發兵	-9.56657
請降	-9.56723
天福	-9.56741
不與	-9.57067
旬	-9.57155
肇	-9.57213
從子	-9.57245
尾	-9.57259
贍	-9.5732
演	-9.57323
佞	-9.57343
巫	-9.57355
秩	-9.57358
琨	-9.57362
鼔	-9.57363
舜	-9.5737
座	-9.57374
值	-9.57376
倚	-9.57385
嗚呼	-9.57395
裁	-9.57456
𦍑	-9.57456
疋	-9.57565
宋齊邱	-9.57568
取之	-9.57582
行逢	-9.57596
都尉	-9.57663
乃命	-9.57861
曰君	-9.57969
六十	-9.58301
蜀郡	-9.58437
幽州	-9.58467
讀	-9.5847
晝	-9.58517
雞	-9.58544
偉	-9.58559
駢	-9.58572
墮	-9.5862
數十	-9.58629
練	-9.58641
代之	-9.58648
國亡	-9.58655
齋	-9.58682
乆之	-9.58793
江淮	-9.59041
太常	-9.59108
二百	-9.59118
境内	-9.59547
流民	-9.59591
常州	-9.59607
諸郡	-9.59617
綰	-9.59709
先帝	-9.59735
乏	-9.59777
靜	-9.59783
兼中書令	-9.59809
鳳翔	-9.59809
髪	-9.59812
棺	-9.59838
河西	-9.59849
瑶	-9.59857
捷	-9.5987
佑	-9.59897
○	-9.59932
知之	-9.6007
東川	-9.60086
大悦	-9.60171
監軍	-9.60214
僕射	-9.60239
大都督	-9.60263
進封	-9.60312
不用	-9.60406
酷	-9.60463
受命	-9.6049
已又	-9.60502
叔父	-9.60528
秉	-9.6075
聞而	-9.60787
秘	-9.60904
甲子	-9.60928
七十	-9.6095
進思	-9.60978
輪	-9.60985
例	-9.61039
之日	-9.61041
復以	-9.6105
頴	-9.61053
頻	-9.61078
場	-9.61127
捨	-9.61129
𦵏	-9.61133
之時	-9.61144
率騎	-9.61154
綿	-9.61388
城下	-9.61505
大赦	-9.61516
碑	-9.61565
曰公	-9.61765
謂之曰	-9.61782
百濟	-9.61824
相繼	-9.61837
湘	-9.61928
王遣	-9.62021
永安	-9.62052
巴西	-9.62106
見其	-9.62143
十三	-9.62148
王薨	-9.62221
裂	-9.62252
烟	-9.62266
悅	-9.62285
粟	-9.62297
隔	-9.62304
員	-9.62322
茶	-9.62341
燕王	-9.62369
有一	-9.6256
終不	-9.62593
延魯	-9.62641
徐温	-9.62645
浩	-9.62663
前鋒	-9.62722
之際	-9.62805
太保	-9.62825
全忠	-9.62946
如是	-9.63116
爰	-9.63296
遲	-9.63329
甫	-9.63367
科	-9.63379
衙	-9.63429
傍	-9.63463
彭城	-9.63491
㫁	-9.63522
綏	-9.63531
宐	-9.63553
銳	-9.63554
激	-9.63563
獸	-9.63613
篤	-9.63634
𧺫	-9.63651
率兵	-9.6376
恤	-9.63912
彰	-9.64006
平陽	-9.64007
其罪	-9.6453
夾	-9.64606
介	-9.64647
足以	-9.64655
祗	-9.64693
戰于	-9.64732
釁	-9.64733
儉	-9.64733
弑	-9.64765
虐	-9.64783
淳	-9.64804
僅	-9.64828
翔	-9.64828
渉	-9.64864
甞	-9.64869
阜	-9.64892
鑿	-9.64906
夫差	-9.65004
其餘	-9.65006
輔政	-9.65022
㨗	-9.65159
十六	-9.65622
南安	-9.65632
送之	-9.65703
萬餘	-9.65775
文章	-9.65867
僭	-9.65872
貳	-9.65897
不欲	-9.65939
巢	-9.66061
珪	-9.66107
況	-9.66117
其妻	-9.66131
臂	-9.6615
刼	-9.66183
辯	-9.66212
宫人	-9.66225
襄陽	-9.66382
持節	-9.66428
文昭王	-9.66457
金帛	-9.66485
靣	-9.6651
百餘	-9.66555
用事	-9.66573
劉曜	-9.66589
日月	-9.6669
是也	-9.66702
不絶	-9.66841
䏻	-9.66956
前王	-9.66965
其國	-9.66976
舅	-9.67041
之徒	-9.67077
賣	-9.67107
延政	-9.67162
開國	-9.67174
貽	-9.67225
伺	-9.67289
十五	-9.67336
斌	-9.67366
檄	-9.67376
楷	-9.67433
敷	-9.67435
區	-9.67453
刃	-9.67463
塘	-9.67506
攀	-9.67519
至于	-9.67552
姚萇	-9.67553
建元	-9.67653
軍使	-9.67774
及其	-9.67821
其家	-9.67926
而無	-9.67931
邵	-9.68053
有差	-9.68164
何為	-9.68178
鮮	-9.68194
國王	-9.68332
慙	-9.68492
勉	-9.68495
豈可	-9.68518
耀	-9.68547
護	-9.6863
一方	-9.68799
檢	-9.68801
眷	-9.68804
流涕	-9.68817
忿	-9.68821
故也	-9.68836
奢	-9.6885
冰	-9.68856
銘	-9.68857
苻堅	-9.68897
十一	-9.69026
周世宗	-9.69091
中宗	-9.69271
丞	-9.69442
不宜	-9.69664
熟	-9.69742
文學	-9.69743
中有	-9.69758
莊宗	-9.69759
瓘	-9.69919
帳	-9.69993
稽	-9.70004
龕	-9.70009
二十年	-9.70064
沮	-9.70071
頒	-9.7008
祝	-9.70096
突	-9.70098
熊	-9.70121
途	-9.70122
暢	-9.70134
諸将	-9.70194
艾	-9.70197
嫁	-9.70212
収	-9.70236
追封	-9.70243
冡	-9.70289
之計	-9.70403
占城	-9.70442
晉陽	-9.70471
江西	-9.70506
出為	-9.70591
越人	-9.70625
郎中	-9.70642
署為	-9.70717
峯	-9.7077
旌	-9.70904
其父	-9.70998
慧	-9.71006
梓潼	-9.71008
以待	-9.71015
旱	-9.71152
混	-9.71192
從弟	-9.71284
以兵	-9.7132
出降	-9.71355
鐡	-9.71393
賂	-9.71405
西南	-9.71437
碧	-9.71448
凝	-9.71484
行軍司馬	-9.71496
攸	-9.71518
随	-9.71522
跡	-9.71529
弩	-9.71539
西北	-9.71629
男女	-9.71675
巴郡	-9.71851
官至	-9.7186
引還	-9.71875
上邽	-9.71961
雲南	-9.72009
其母	-9.72458
將吏	-9.72535
言之	-9.7258
唱	-9.72622
吏民	-9.72684
本國	-9.72744
天水	-9.72818
問曰	-9.72847
史臣曰	-9.72855
讒	-9.72864
敞	-9.72866
完	-9.72874
員外郎	-9.72874
卽	-9.72916
閲	-9.72931
乙酉	-9.72937
展	-9.72941
寃	-9.72941
柵	-9.72988
嘆	-9.73068
沙門	-9.73098
乾徳	-9.73123
蘇州	-9.73161
致仕	-9.73241
南陽	-9.73357
退保	-9.73448
宗族	-9.73508
唐末	-9.73524
兄子	-9.7362
先王	-9.73651
溺	-9.73651
昊	-9.73663
以告	-9.73663
戚	-9.73718
十四年	-9.73749
齎	-9.73812
誨	-9.73868
怒曰	-9.73905
至元	-9.74068
興師	-9.74151
標	-9.74239
渾	-9.74263
淑	-9.74264
柴	-9.74274
邁	-9.74277
峽	-9.74286
涼州	-9.7429
巧	-9.74292
挾	-9.74305
迨	-9.74307
讎	-9.74312
譽	-9.7437
之役	-9.74445
都監	-9.74479
年號	-9.74616
得其	-9.7462
為刺史	-9.74671
文進	-9.74701
何不	-9.74787
洪進	-9.74855
之義	-9.74862
景宗	-9.74922
十餘	-9.74998
㑹稽	-9.75049
琛	-9.75081
十五年	-9.75128
山川	-9.75135
國事	-9.75351
吴越	-9.75363
蜀人	-9.75382
皆以	-9.75419
嘆曰	-9.75554
忠臣	-9.75564
大悅	-9.75604
伎	-9.7566
其先	-9.75676
併	-9.75696
釗	-9.7574
牀	-9.75742
王者	-9.75745
閻	-9.75751
臯	-9.75752
豹	-9.75759
耻	-9.75766
頌	-9.75769
儲	-9.75772
浪	-9.75792
證	-9.75797
冝	-9.75805
車騎將軍	-9.7588
不可以	-9.76015
景遂	-9.76144
州團練使	-9.76152
之才	-9.76282
本紀	-9.76443
三百	-9.7669
静	-9.76801
凉州	-9.76814
天下之	-9.76874
巡	-9.76986
社	-9.77055
之禍	-9.7706
五代史	-9.77085
球	-9.77148
奬	-9.77151
曠	-9.7716
咎	-9.77183
村	-9.77227
邊鎬	-9.77245
徐鉉	-9.77307
琴	-9.77318
夀春	-9.77352
宗室	-9.77492
曰朕	-9.77569
台	-9.77602
髙麗	-9.77767
府庫	-9.77778
來伐	-9.78098
後世	-9.78135
城西	-9.78176
固請	-9.78189
塗	-9.78231
欵	-9.7835
厭	-9.78365
右僕射	-9.784
三軍	-9.78561
掃	-9.78582
艱	-9.78584
樊	-9.78621
檀	-9.78628
謬	-9.78642
奇	-9.78681
迫	-9.787
龍驤將軍	-9.7872
武王	-9.7873
詩云	-9.78732
為左	-9.78811
博士	-9.78832
審知	-9.78985
於外	-9.79088
一夕	-9.79352
行營	-9.79468
克之	-9.79519
大小	-9.79596
天命	-9.79619
之故	-9.79621
詔書	-9.79675
千餘人	-9.79802
稱臣	-9.79828
自立	-9.79896
兩浙	-9.79928
邕	-9.79944
十六國春秋卷	-9.79958
莭度使	-9.80004
叚	-9.80076
自以	-9.80116
晚	-9.80131
不平	-9.8014
緩	-9.80144
玊	-9.80147
利鹿孤	-9.80148
讚	-9.80156
註	-9.80164
神武	-9.80171
醫	-9.80177
蔽	-9.8018
迴	-9.80181
婁	-9.802
慚	-9.80209
騐	-9.80229
氷	-9.80247
田頵	-9.8031
上疏	-9.80412
不出	-9.8066
皆有	-9.80951
高句麗	-9.80987
奔還	-9.81087
永和	-9.81182
異之	-9.81192
慰	-9.81232
遣子	-9.81278
人心	-9.81335
死之	-9.81443
得免	-9.81453
勁	-9.81526
嶷	-9.81526
夀州	-9.81598
穿	-9.81641
停	-9.81668
尅	-9.81678
隋	-9.81693
髮	-9.81694
額	-9.81696
宛	-9.81706
眞	-9.81755
蕃	-9.81766
諸王	-9.81767
其黨	-9.81781
天寳	-9.81825
伍	-9.8184
也乃	-9.81936
神福	-9.81938
相與	-9.82079
之業	-9.82118
自古	-9.82178
十四	-9.82196
而後	-9.82245
齊王	-9.82259
其弟	-9.82275
未至	-9.82304
東北	-9.82342
秦州刺史	-9.82345
人多	-9.82499
長樂	-9.82505
更名	-9.82517
潭州	-9.8259
太和	-9.82678
而殺之	-9.82716
矜	-9.82768
墳	-9.82976
播	-9.82982
周主	-9.82995
璽	-9.83018
大喜	-9.8302
濛	-9.8304
群	-9.83053
弟也	-9.83056
鏡	-9.83079
大將	-9.83123
窺	-9.83134
燭	-9.83136
萬餘人	-9.83152
之中	-9.83158
挺	-9.83159
龔	-9.83185
祿	-9.83195
未可	-9.83199
國中	-9.832
都虞候	-9.83205
勃	-9.83218
箭	-9.83229
遏	-9.83251
堡	-9.83266
桂	-9.83267
竇	-9.83273
宫室	-9.83358
飲酒	-9.83369
石勒	-9.8343
笑曰	-9.83573
居之	-9.83638
婦人	-9.83701
詩曰	-9.8371
永平	-9.83727
門外	-9.83949
此書	-9.83987
不以	-9.84043
倍	-9.84278
起家	-9.84367
遣弟	-9.84374
諸州	-9.84439
有餘	-9.84568
塲	-9.84613
丁亥	-9.8465
奉使	-9.84673
染	-9.84674
鞭	-9.84715
麥	-9.84731
四年春正月	-9.84739
玩	-9.84764
乖	-9.84769
澧	-9.84777
昧	-9.84792
勵	-9.84793
㳺	-9.84796
㓂	-9.84801
稜	-9.84801
乙亥	-9.84819
糓	-9.84829
地震	-9.84835
給事中	-9.84849
徐知誥	-9.84881
征伐	-9.84988
中郎將	-9.85018
於吳	-9.85023
妹	-9.85036
小人	-9.85049
樞密使	-9.85131
不若	-9.85201
大義	-9.85463
水陸	-9.85579
入見	-9.85604
國公	-9.85759
之勢	-9.85831
廬	-9.85858
南海	-9.85891
縣令	-9.85911
出戰	-9.85997
抵	-9.86057
囊	-9.86073
叅	-9.86086
遣人	-9.86092
睦	-9.86171
買	-9.86261
庾	-9.86269
倣	-9.86288
哲	-9.86303
訟	-9.86317
泥	-9.86343
敝	-9.86348
百餘人	-9.86365
晉王	-9.86392
女也	-9.86435
入覲	-9.86463
剋	-9.86501
用之	-9.86526
一名	-9.86561
不然	-9.86563
永嘉	-9.8658
大業	-9.86588
力戰	-9.86613
薊	-9.867
金城	-9.8673
恭孝王	-9.86743
固辭	-9.86831
為主	-9.86873
之盛	-9.869
有大	-9.87003
一萬	-9.87022
多所	-9.87252
明宗	-9.87268
仁義	-9.87277
不利	-9.87454
精兵	-9.8751
遂為	-9.87516
納之	-9.87616
冀州	-9.87618
曰夫	-9.87635
擒之	-9.8779
寓	-9.87792
檢校	-9.87807
荆州	-9.87817
鈞	-9.87829
疲	-9.87846
詰	-9.8785
之變	-9.87861
詢	-9.87871
訖	-9.87885
竄	-9.8792
焦	-9.87924
踐	-9.87948
庻	-9.87953
梟	-9.87974
行至	-9.87981
邱	-9.87989
潔	-9.87993
洽	-9.88
禑	-9.88024
只	-9.8803
棲	-9.88083
澹	-9.88101
熈載	-9.88103
宿衛	-9.88128
餘衆	-9.88153
即日	-9.88229
射之	-9.88284
賦詩	-9.88294
歸之	-9.88302
宦者	-9.88304
百里	-9.88314
䕶軍	-9.88396
十九	-9.88441
鄂州	-9.88659
有隙	-9.88684
域	-9.88688
西域	-9.88776
當有	-9.88826
之上	-9.88932
清河	-9.8895
臣聞	-9.89028
中朝	-9.89102
所居	-9.89132
駭	-9.89295
朔日有食之	-9.89317
乃使	-9.89345
數千人	-9.89444
相見	-9.89487
吟	-9.89491
劾	-9.895
蒼	-9.8952
尼	-9.89522
繩	-9.89526
節度副使	-9.89533
鑑	-9.89561
鸞	-9.89564
㦸	-9.89579
晦	-9.89586
斂	-9.89599
所獲	-9.89616
漏	-9.8962
丙午	-9.8963
璉	-9.89641
缺	-9.89644
灌	-9.89645
朙	-9.89646
緣	-9.8968
蓄	-9.89689
暮末	-9.89698
逞	-9.89703
衆心	-9.89718
敗績	-9.89748
豫章	-9.89752
稱疾	-9.899
稱藩	-9.89951
伏兵	-9.89987
中書侍郎	-9.9
止之	-9.90023
即以	-9.90051
一卷	-9.90118
忠義	-9.90211
無功	-9.90237
不食	-9.90271
渡江	-9.90312
一千	-9.90458
際	-9.90646
相持	-9.90888
壽州	-9.90942
五萬	-9.91114
圭	-9.9117
譙	-9.91185
問之	-9.91219
十九年	-9.91219
饋	-9.91233
䝉古	-9.91233
晨	-9.91242
駐	-9.91249
斫	-9.9125
紙	-9.91254
弔	-9.91273
伐之	-9.91274
扇	-9.91281
葛	-9.91292
侮	-9.91295
究	-9.91318
芝	-9.9133
芳	-9.9134
婚	-9.9134
戊申	-9.91365
康宗	-9.9138
伏誅	-9.91518
孫儒	-9.91529
叅軍	-9.91551
切諫	-9.91603
被殺	-9.91611
平原	-9.91677
下詔	-9.91679
姓名	-9.91762
不忘	-9.91801
别將	-9.9187
韶	-9.91889
恱	-9.91973
遼西	-9.92009
謂曰	-9.92125
牽	-9.92249
繡	-9.92328
古人	-9.92491
幕	-9.92541
於長安	-9.92597
謚	-9.92599
十餘萬	-9.92602
姿	-9.92812
而行	-9.92815
䟽	-9.92863
函	-9.92912
淺	-9.92947
繼勲	-9.92957
借	-9.92962
輦	-9.92977
模	-9.92992
戊寅	-9.92997
廻	-9.93005
已下	-9.93017
飢	-9.93023
酬	-9.93029
輔國將軍	-9.93035
失其	-9.93335
萬户	-9.93361
略陽	-9.93419
湖州	-9.93498
張氏	-9.93585
于唐	-9.9363
建國	-9.93663
逮	-9.93917
譲	-9.94016
拘	-9.94022
以歸	-9.94026
百萬	-9.94061
人情	-9.94141
君王	-9.94272
浙	-9.9429
其名	-9.94323
自守	-9.9447
兵攻	-9.94504
其將	-9.94528
孔子	-9.94612
邈	-9.94646
壮	-9.94646
沛	-9.94669
翌日	-9.94683
欺	-9.94686
翊	-9.94691
饗	-9.94691
讐	-9.94692
醜	-9.94692
吞	-9.94697
垣	-9.94701
網	-9.94706
涕泣	-9.94755
大赦改元	-9.94758
開府儀同三司	-9.94759
圓	-9.94762
甲戌	-9.94776
逆戰	-9.94802
禦之	-9.94805
甲申	-9.94858
世為	-9.94919
廢王	-9.94979
慕容垂	-9.94997
廣州	-9.95106
建安	-9.95159
不肯	-9.95314
因以	-9.95417
存亡	-9.95453
不下	-9.95453
稱帝	-9.95543
部將	-9.95546
進據	-9.9555
襄國	-9.95553
掾	-9.95582
戈	-9.95699
以備	-9.9573
之難	-9.95736
南北	-9.95747
昇元	-9.95837
以聞	-9.95853
郢	-9.95864
迎之	-9.95919
官爵	-9.95952
道路	-9.95956
無復	-9.96129
銜	-9.9613
唐兵	-9.9615
壤	-9.96191
或云	-9.96236
酒泉	-9.96253
十七	-9.9626
遣將軍	-9.96276
建興	-9.96395
罕	-9.9641
鐘	-9.96422
掌書記	-9.96424
悼	-9.96429
岑	-9.9643
狗	-9.96434
影	-9.96441
凖	-9.96469
價	-9.96474
隊	-9.96477
怠	-9.96477
巾	-9.96478
那	-9.9648
警	-9.96481
廉	-9.96483
苟	-9.96486
肥	-9.96507
婢	-9.96515
燉煌	-9.96516
煥	-9.96517
籠	-9.96521
両	-9.96527
崖	-9.96529
平生	-9.96557
查文徽	-9.96572
翰林	-9.96606
武帝	-9.96654
不應	-9.96677
部曲	-9.96688
太弟	-9.96814
孫晟	-9.96877
復為	-9.96949
未能	-9.96999
青州	-9.97001
之任	-9.97135
而入	-9.97164
皆為	-9.97294
招討使	-9.97418
涪	-9.97429
歸附	-9.97462
辛未	-9.97822
為前鋒	-9.97875
三州	-9.97877
不顧	-9.97945
恕	-9.97983
之法	-9.97994
嶺南	-9.98077
為右	-9.98166
翟	-9.98167
纔	-9.9819
犬	-9.98193
嫌	-9.98193
叱	-9.98195
佩	-9.9821
燈	-9.98212
妓	-9.98221
丙戌	-9.9823
澗	-9.98233
殁	-9.98234
彈	-9.9824
慢	-9.98246
羙	-9.9828
溢	-9.98288
乙丑	-9.98299
㤙	-9.98327
繼冲	-9.98339
之國	-9.98438
屍	-9.98439
子貢	-9.98538
越絶	-9.98578
不自安	-9.98612
圖之	-9.98719
徐氏	-9.98761
乾和	-9.98783
武陵	-9.98903
遣兵	-9.99038
門下	-9.99046
以自	-9.99112
又曰	-9.99142
楚王	-9.9919
於我	-9.99196
之師	-9.99198
古之	-9.99255
出師	-9.99282
書曰	-9.99339
其志	-9.99363
庚	-9.99455
衛將軍	-9.99572
跨	-9.99572
句踐	-9.99653
睿宗	-9.99742
眉	-9.9977
藻	-9.99811
余	-9.99839
乳	-9.99914
罰	-9.99946
璠	-9.99982
嗟	-9.99989
泣曰	-9.99996
閒	-10
弄	-10.0001
馭	-10.0001
伸	-10.0002
霍	-10.0002
禾	-10.0002
瓦	-10.0003
飯	-10.0003
疎	-10.0003
裝	-10.0007
豆	-10.0008
枕	-10.0008
枉	-10.0008
偶	-10.0012
闔廬	-10.0013
别駕	-10.0014
戊辰	-10.0015
塟	-10.0015
者必	-10.0016
析	-10.0018
鍾謨	-10.0021
御史	-10.0028
上有	-10.0034
不堪	-10.0035
之術	-10.004
文徽	-10.0044
成都人也	-10.005
班師	-10.0055
丁未	-10.0069
稷	-10.0071
字伯	-10.0083
景遷	-10.0086
進屯	-10.009
而至	-10.0091
渤海	-10.0093
帝命	-10.0099
君之	-10.0103
錢塘	-10.0103
數十人	-10.0106
鄂	-10.0114
不行	-10.0123
石氏	-10.0123
𣸪	-10.0125
并州	-10.0132
城南	-10.0142
南唐書	-10.0147
愛之	-10.0148
數人	-10.0156
安國	-10.0162
曰臣聞	-10.0165
壬	-10.0172
三人	-10.0174
左長史	-10.0174
其中	-10.0179
其下	-10.018
罹	-10.0184
臧	-10.0185
曦	-10.0189
輝	-10.019
叡	-10.019
頂	-10.0191
板	-10.0192
張掖	-10.0192
不聴	-10.0192
眼	-10.0193
不知其	-10.0193
僻	-10.0194
郷	-10.0198
甲午	-10.0198
柳	-10.0198
來攻	-10.0209
䕫	-10.0217
兩川	-10.0221
惠宗	-10.0227
少子	-10.0228
士民	-10.0234
益州刺史	-10.0237
竒之	-10.0241
全武	-10.0255
郡王	-10.0256
大亂	-10.0258
布衣	-10.026
襲位	-10.0269
州縣	-10.0287
城内	-10.0291
以獻	-10.0293
寸	-10.0297
年六十	-10.0298
黄金	-10.0311
隙	-10.0312
王弟	-10.0315
用兵	-10.0318
豈不	-10.032
兼侍中	-10.0323
之民	-10.0324
京兆	-10.0325
入冦	-10.033
出奔	-10.0334
䧏	-10.0339
上言	-10.0346
牢	-10.0352
曺	-10.0359
承制	-10.0361
昆	-10.0367
歐陽	-10.0369
嬰	-10.0372
沮渠	-10.0373
溝	-10.0376
綵	-10.0376
滋	-10.0377
舒州	-10.0377
繞	-10.038
碩徳	-10.0384
韻	-10.0385
壬午	-10.0386
捐	-10.0386
讀書	-10.0395
戰艦	-10.0395
曰若	-10.0402
堅曰	-10.0402
光禄大夫	-10.0405
大單于	-10.0413
梁州	-10.0416
隂陽	-10.0432
敗走	-10.0446
緡	-10.0448
禆將	-10.046
豈有	-10.046
南奔	-10.046
新平	-10.0462
必不	-10.0463
顯徳	-10.0465
十有	-10.0469
觀之	-10.0472
周本	-10.0479
末年	-10.048
赴之	-10.0485
五代	-10.0495
不死	-10.0496
希崇	-10.0498
公孫	-10.0503
殺其	-10.0509
聞其	-10.051
常山	-10.0514
王諱	-10.0526
周宗	-10.0533
取其	-10.0535
赦之	-10.0538
滯	-10.0549
樞	-10.0552
狐	-10.0554
戊	-10.0555
人父	-10.0558
濤	-10.0562
女子	-10.0563
炎	-10.0563
夙	-10.0564
掘	-10.0564
一年	-10.0565
謂左右曰	-10.0565
今從通鑑	-10.0566
奚	-10.0568
酉	-10.0571
兾	-10.0571
譖	-10.0571
穢	-10.0573
廖	-10.0573
祈	-10.0573
茂䖍	-10.0575
乘勝	-10.0575
虗	-10.0575
縦	-10.0575
詭	-10.0575
税	-10.0578
乙卯	-10.0579
辛巳	-10.0583
陳氏	-10.0584
不得已	-10.0586
觀其	-10.0587
何也	-10.0591
闔閭	-10.0595
請以	-10.0602
帳下	-10.0605
未及	-10.0608
并州刺史	-10.0609
往往	-10.0617
次子	-10.0621
上黨	-10.0622
徳明	-10.0629
出兵	-10.0638
賜王	-10.0642
所得	-10.0642
守之	-10.0645
梁州刺史	-10.0651
七日	-10.0663
中興	-10.0664
再拜	-10.0672
年少	-10.0679
八百	-10.0682
十七年	-10.0725
孫也	-10.074
丙	-10.0742
桂州	-10.0749
蔚	-10.0755
人臣	-10.0755
街	-10.0759
逾	-10.0761
舌	-10.0764
霧	-10.0764
島	-10.0765
料	-10.0766
丁酉	-10.0768
丑	-10.0768
祁	-10.077
暗	-10.0771
晝夜	-10.0775
韓熈載	-10.0777
倭	-10.0778
甲辰	-10.0778
箕	-10.0779
十餘人	-10.078
莫能	-10.078
東海	-10.0781
廣政	-10.0782
僭號	-10.0788
博學	-10.0789
驍勇	-10.0789
得之	-10.0792
自言	-10.0794
荅	-10.0794
屯於	-10.0795
三十年	-10.0803
延壽	-10.0807
而止	-10.0815
至此	-10.0816
乃與	-10.0817
冠軍將軍	-10.0817
人所	-10.0823
願陛下	-10.0823
庚子	-10.0823
帥師	-10.0826
昭宗	-10.0834
大破	-10.0844
足下	-10.0853
卷第	-10.0855
千人	-10.0859
而退	-10.087
東宫	-10.0874
嫡	-10.0884
小字	-10.0886
軍事	-10.0895
禱	-10.0897
武都	-10.09
隅	-10.0906
為國	-10.0911
土地	-10.0916
第一	-10.0917
國政	-10.0922
戰死	-10.0926
協	-10.0927
諸國	-10.0927
其首	-10.093
幣	-10.0942
算	-10.0942
陟	-10.0952
璧	-10.0956
璜	-10.0956
後蜀後蜀後蜀後蜀	-10.0957
係	-10.0961
慷慨	-10.0963
寂	-10.0963
徧	-10.0964
侔	-10.0965
錯	-10.0966
太宰嚭	-10.0966
怯	-10.0967
懦	-10.0969
彩	-10.0969
鬻	-10.097
冒	-10.0971
㸃	-10.0971
不在	-10.0974
無道	-10.0974
平王	-10.0974
耿	-10.0974
之外	-10.0975
賁	-10.0976
衮	-10.0977
貲	-10.0977
戯	-10.0978
堤	-10.0979
年七十	-10.0981
李建勲	-10.0987
有人	-10.0989
譏	-10.0997
廬山	-10.1002
城陷	-10.1002
出鎮	-10.1005
濟河	-10.1006
退屯	-10.1013
如何	-10.1016
備德	-10.1019
後宫	-10.1024
部郎中	-10.1026
時為	-10.1035
伐吳	-10.1038
江東	-10.1053
曰陛下	-10.1055
召之	-10.1056
來朝	-10.1065
奔於	-10.1077
往來	-10.1089
拒戰	-10.1097
官屬	-10.1098
賫	-10.1107
東都	-10.1109
授以	-10.1117
宥	-10.1118
城外	-10.1135
庠	-10.1143
羡	-10.1145
癸	-10.1147
敬瑄	-10.1149
輯	-10.1151
興元	-10.1152
入宫	-10.1157
嚮	-10.116
縛	-10.1165
活	-10.1165
瑩	-10.1165
限	-10.1165
壊	-10.1166
出於	-10.1167
為亂	-10.1167
訥	-10.1167
綽	-10.1168
龍驤	-10.1168
岱	-10.1168
匪	-10.1169
無以	-10.1169
版	-10.1171
鬭	-10.1171
兇	-10.1171
闢	-10.1172
壬辰	-10.1172
太宰	-10.1173
亥	-10.1174
膳	-10.1174
䧺	-10.1175
虧	-10.1175
沃	-10.1175
牋	-10.1175
區區	-10.1175
廞	-10.1175
嫩	-10.1176
絲	-10.1177
覘	-10.1178
戌	-10.1179
校書郎	-10.1179
灾	-10.1179
召還	-10.1182
傳瓘	-10.1185
延禀	-10.1187
癸未	-10.1196
幽州刺史	-10.1197
黙然	-10.1199
十里	-10.1201
嘉之	-10.1203
食邑	-10.1204
漢宏	-10.1207
十六年	-10.1208
單于	-10.1214
巴蜀	-10.1217
左傳	-10.1221
武信王	-10.124
昇州	-10.1245
握	-10.1247
交州刺史	-10.1265
之風	-10.127
開門	-10.1275
衣冠	-10.1279
車騎	-10.128
言曰	-10.1282
文王	-10.1303
之恩	-10.1309
登城	-10.1314
行宻	-10.1315
數百人	-10.1319
繕	-10.133
河中	-10.1337
其妻子	-10.1338
不已	-10.1338
號為	-10.1348
進兵	-10.1349
王公	-10.1363
歸宋	-10.1366
所執	-10.1366
州牧	-10.1367
狼	-10.1369
詵	-10.1369
御史中丞	-10.1372
十國春秋卷	-10.1374
措	-10.1374
東府	-10.1374
南昌	-10.1374
猷	-10.1375
寔	-10.1376
殄	-10.1378
牒	-10.1378
蒸	-10.1378
中書舍人	-10.138
翠	-10.138
即皇帝位	-10.138
觸	-10.1381
倒	-10.1381
中軍	-10.1382
蟲	-10.1382
鱗	-10.1382
隕	-10.1382
賨	-10.1383
憾	-10.1383
蔣	-10.1384
邸	-10.1385
萌	-10.1385
􁇾	-10.1385
偕	-10.1385
汜	-10.1386
稅	-10.1388
頋	-10.1389
己酉	-10.1389
昱	-10.1389
庚寅	-10.139
彂	-10.1392
徐州	-10.1395
董昌	-10.1399
遣使詣	-10.1409
而立	-10.1411
令贇	-10.1415
群臣	-10.1416
郡太守	-10.1423
有異	-10.1423
逺近	-10.1429
他日	-10.1438
不足以	-10.1441
吏部尚書	-10.1443
河北	-10.1451
有二	-10.1454
羣下	-10.1457
梓州	-10.1464
順天	-10.1469
之世	-10.1474
五年春正月	-10.1479
衡山	-10.1479
䖍州	-10.149
愍	-10.149
十八年	-10.1499
觀察使	-10.1499
進退	-10.1502
除之	-10.151
改封	-10.1511
大呼	-10.1519
三世	-10.1558
見殺	-10.1559
陜	-10.1562
卒子	-10.1563
改為	-10.1572
鐸	-10.1576
咨	-10.1581
了	-10.1584
消	-10.1585
束	-10.1585
暫	-10.1588
摩	-10.1589
愁	-10.159
隘	-10.1591
為質	-10.1592
襃	-10.1592
它	-10.1593
徹	-10.1593
卯	-10.1593
謀反	-10.1593
閭	-10.1593
壻	-10.1594
剖	-10.1594
襟	-10.1594
董璋	-10.1594
南漢南漢南漢南漢南漢	-10.1595
甲寅	-10.1595
庚辰	-10.1596
壞	-10.1598
匈奴	-10.1599
大師	-10.1599
勒兵	-10.16
討平之	-10.1603
雍州刺史	-10.1605
希範	-10.1606
準	-10.1607
劉仁贍	-10.1613
太妃	-10.1613
建勲	-10.1626
難敵	-10.163
委以	-10.1634
十卷	-10.1639
彦貞	-10.1643
雖有	-10.1656
人士	-10.1667
其上	-10.1673
自號	-10.1675
㕘	-10.169
不相	-10.1702
五色	-10.1702
行宫	-10.1707
北海	-10.1708
開寳	-10.171
之名	-10.1711
行人	-10.1716
遂入	-10.1725
進曰	-10.1734
以上	-10.1736
隴	-10.1737
北地	-10.1737
測	-10.1738
左將軍	-10.1742
為太尉	-10.175
城北	-10.1758
諸君	-10.1783
柄	-10.1787
腰	-10.1795
坑	-10.18
弋仲	-10.1803
躍	-10.1804
彦暉	-10.1804
誡	-10.1805
截	-10.1805
乾祐	-10.1805
梅	-10.1806
敎	-10.1809
梯	-10.1809
壯士	-10.1809
龎	-10.1809
勛	-10.1809
倘	-10.181
歟	-10.1811
遣中使	-10.1812
閏	-10.1812
丙寅	-10.1812
辛丑	-10.1813
減	-10.1816
獲其	-10.1816
晃	-10.1817
貎	-10.1818
辛亥	-10.1818
㓕	-10.182
麾下	-10.1822
豕	-10.1822
士大夫	-10.1822
𬒳	-10.1822
衣服	-10.1823
睿	-10.1823
淮人	-10.1826
我國	-10.1828
是夜	-10.1831
景逹	-10.1831
引見	-10.1838
㕘軍	-10.1839
廣武	-10.1841
斬首	-10.1841
之初	-10.1842
烏孤	-10.1852
仍賜	-10.1853
四面	-10.1861
嗣立	-10.1865
所著	-10.1874
状	-10.1874
相攻	-10.1877
建寧	-10.1889
甚厚	-10.1891
於魏	-10.1893
即今	-10.1894
以示	-10.1897
欲殺	-10.1899
舟師	-10.19
乃召	-10.1901
蜀主	-10.1939
山南	-10.1943
因而	-10.1947
帝以	-10.1952
降于	-10.196
史記	-10.1966
諸弟	-10.1969
元膺	-10.1974
公子	-10.198
入蜀	-10.199
三年春二月	-10.1992
大姓	-10.1996
盹	-10.1997
之敗	-10.1998
特進	-10.2004
不通	-10.2016
峰	-10.2021
逖	-10.2024
坦	-10.2027
兵部侍郎	-10.2028
軒	-10.2028
干戈	-10.2028
臥	-10.2029
曇	-10.203
卓	-10.2032
節度判官	-10.2033
中書舎人	-10.2033
陋	-10.2033
抜	-10.2034
諸葛亮	-10.2034
乙巳	-10.2036
之患	-10.2038
岡	-10.2038
貸	-10.2038
彛	-10.2039
與語	-10.2039
酒酣	-10.204
沔	-10.204
賔客	-10.2041
昌黎	-10.2044
不免	-10.2046
曰子	-10.2047
使持節	-10.2051
將至	-10.2058
開運	-10.206
敗之	-10.2064
丙子	-10.2065
前將軍	-10.2065
季興	-10.2068
至今	-10.2073
諒	-10.2073
守將	-10.2079
俘斬	-10.2081
世之	-10.2086
竟不	-10.2089
英雄	-10.2091
錢氏	-10.2094
王建	-10.21
段氏	-10.2101
昭王	-10.2102
於秦	-10.2104
亦以	-10.2105
衆皆	-10.2107
來聘	-10.2112
海内	-10.2118
追尊	-10.212
以安	-10.2126
監軍使	-10.2128
頗有	-10.2133
進次	-10.2138
南山	-10.2138
帝遣	-10.2139
兵馬	-10.2151
王室	-10.2153
新城	-10.2155
不言	-10.2157
趙王	-10.2158
蠡	-10.2166
授之	-10.2174
言于	-10.2175
戰敗	-10.2175
在此	-10.2182
肯	-10.2183
本姓	-10.2186
不止	-10.2186
去縣	-10.2198
之臣	-10.2203
鄉里	-10.2206
而下	-10.2222
汾	-10.2222
為侍中	-10.2241
圍之	-10.2244
拱	-10.2246
九國志	-10.2247
煜	-10.2248
丙申	-10.2253
雕	-10.2253
禀	-10.2253
佳	-10.2256
恂	-10.2256
闇	-10.2257
漆	-10.2257
叩	-10.2257
鏤	-10.2257
粗	-10.2257
看	-10.2257
矛	-10.2259
南唐書卷之	-10.2259
初為	-10.226
翻	-10.226
庚戌	-10.226
剪	-10.226
砦	-10.226
蹤	-10.2261
遯	-10.2261
母弟	-10.2264
己亥	-10.2266
油	-10.2266
擲	-10.2266
坊	-10.2268
桐	-10.2268
吐	-10.2269
太史令	-10.2269
丁丑	-10.2269
緑	-10.2269
癸亥	-10.227
以為然	-10.227
人物	-10.2271
鬬	-10.2271
泄	-10.2273
克宏	-10.2279
姚興	-10.2287
白金	-10.2288
乙未	-10.2289
仁肇	-10.2289
儒學	-10.2293
知俊	-10.2297
初名	-10.2302
屯兵	-10.2307
中州	-10.2316
丹陽	-10.2316
責之	-10.2319
上國	-10.2337
宋史	-10.2337
置酒	-10.2341
英武	-10.2345
王幸	-10.2349
徳誠	-10.2358
閬州	-10.2359
處士	-10.236
不䏻	-10.2366
入宋	-10.2366
無罪	-10.2367
雄武	-10.2372
武昌	-10.238
來歸	-10.2385
兵部尚書	-10.2387
帥兵	-10.2389
臣等	-10.2391
二十一年	-10.2391
腹	-10.2394
魏王	-10.2399
將帥	-10.2399
豈非	-10.2401
大風	-10.2402
卿等	-10.2411
以禮	-10.2417
知名	-10.242
召見	-10.2425
威名	-10.2431
伐楚	-10.2431
是為	-10.2432
大有	-10.2433
而來	-10.2445
字元	-10.2448
江陽	-10.2448
獠	-10.2449
非常	-10.2458
其民	-10.2459
也且	-10.2467
艦	-10.2473
水中	-10.2474
雀	-10.2476
呈	-10.2482
罔	-10.2483
不合	-10.2483
琳	-10.2484
徼	-10.2484
俯	-10.2486
冨	-10.2487
項	-10.2488
忝	-10.2489
霜	-10.2489
聊	-10.249
畱	-10.2491
輜重	-10.2492
搜	-10.2492
鏻	-10.2493
匠	-10.2494
戊戌	-10.2494
征東大將軍	-10.2495
層	-10.2495
丸	-10.2496
以金	-10.2496
魂	-10.2497
幷	-10.2497
諫議大夫	-10.2498
艱難	-10.2499
滕	-10.2499
帝王	-10.2504
壬申	-10.2506
攻城	-10.2507
而進	-10.251
蜀王	-10.2514
天復	-10.2517
稍稍	-10.2517
侍衛	-10.2523
壬子	-10.2524
收其	-10.2527
黁	-10.2528
憐	-10.2532
數月	-10.2539
牛馬	-10.2552
嵗在	-10.2552
文獻王	-10.2557
枹罕	-10.2559
至長安	-10.256
蠻夷	-10.2564
假道	-10.2564
以拒	-10.257
廟號	-10.2572
招討	-10.2572
不幸	-10.2573
下令	-10.2577
以報	-10.258
稱尊號	-10.2588
自將	-10.2589
被執	-10.259
云云	-10.2592
太初	-10.2597
表請	-10.2599
為皇太子	-10.2601
奄	-10.2606
詔曰	-10.2606
之下	-10.2613
者多	-10.2622
仁宗	-10.2622
者乎	-10.2628
號令	-10.2633
及諸	-10.2642
周公	-10.2646
民間	-10.2647
之號	-10.2653
無子	-10.2656
繪	-10.266
雒	-10.2666
終日	-10.2669
吹	-10.2671
綿竹	-10.2672
及長	-10.2674
遣將	-10.2675
之利	-10.2677
互	-10.2685
壬戌	-10.2692
征虜將軍	-10.2694
延已	-10.2705
事之	-10.2715
茅	-10.2715
信之	-10.2716
仁罕	-10.2719
駱	-10.2721
煙	-10.2721
酋	-10.2722
軻	-10.2723
辦	-10.2724
五人	-10.2724
簿	-10.2725
研	-10.2725
􁐐	-10.2725
障	-10.2726
織	-10.2727
忻	-10.2729
廷隠	-10.2729
靳	-10.273
荘	-10.273
㝠	-10.273
驟	-10.2731
抽	-10.2731
翹	-10.2732
庚午	-10.2732
觧	-10.2734
膽	-10.2734
丙辰	-10.2736
亊	-10.2736
隐	-10.2736
訛	-10.2736
不報	-10.2737
為相	-10.2737
窘	-10.2737
征西將軍	-10.2739
匹磾	-10.2739
与	-10.2742
不服	-10.2743
丁巳	-10.2745
擊破之	-10.275
禍福	-10.2751
遁去	-10.2752
衣錦軍	-10.2752
制置使	-10.2756
下書	-10.2757
朝夕	-10.2761
閩王	-10.2781
各有	-10.2783
上將軍	-10.2785
經史	-10.2785
天王	-10.2807
乃自	-10.2819
授王	-10.283
金全	-10.2835
于此	-10.285
進軍	-10.2855
無何	-10.2856
扵是	-10.2861
州防禦使	-10.2864
識者	-10.287
京城	-10.2877
後主時	-10.2878
為使持節	-10.2884
留守	-10.2902
濠	-10.2903
何所	-10.2908
呉王	-10.2912
生子	-10.2917
郫	-10.293
軍於	-10.2932
魏軍	-10.2938
撓	-10.294
狄	-10.2955
勍	-10.2962
牟	-10.2967
將校	-10.2967
怡	-10.2967
荀	-10.2967
二日	-10.2968
嶮	-10.297
姻	-10.2971
䂓	-10.2971
㕔	-10.2972
懇	-10.2972
謗	-10.2974
鄒	-10.2974
距	-10.2974
跪	-10.2975
癸丑	-10.2976
庚申	-10.2976
躡	-10.2976
癸酉	-10.2976
知制誥	-10.2977
鮑	-10.2977
祭酒	-10.2977
㬥	-10.2978
渚	-10.2978
劇	-10.2978
瀆	-10.2979
巷	-10.2979
璘	-10.298
馮延魯	-10.298
車騎大將軍	-10.298
泊	-10.298
淮甸	-10.2981
脅	-10.2981
癸巳	-10.2981
䓁	-10.2982
犍爲	-10.2983
受禪	-10.2984
久矣	-10.2984
其意	-10.2984
苞	-10.2985
帯	-10.2986
四年春二月	-10.2986
二年春二月	-10.2987
長子也	-10.299
諸葛	-10.299
延鈞	-10.2995
凉州刺史	-10.3007
八千	-10.3016
劉裕	-10.3016
七千	-10.3026
北面	-10.3034
江都	-10.3038
遣使者	-10.3048
一曰	-10.305
親信	-10.3051
寧州	-10.3053
也又	-10.3057
可乎	-10.3057
兵至	-10.3061
西京	-10.3064
利州	-10.3065
宗弼	-10.3067
南都	-10.3068
也其	-10.3084
近臣	-10.3085
遷都	-10.3098
河内	-10.3103
浙江	-10.3117
應天	-10.3124
寤	-10.3125
間道	-10.3128
何其	-10.313
征討	-10.3139
以叛	-10.3146
大夫種	-10.3151
改名	-10.3154
邇	-10.3163
然則	-10.3166
得罪	-10.3175
羅城	-10.3177
泗	-10.3179
無他	-10.3187
未知	-10.3188
麾	-10.3188
王宗弼	-10.3189
杯	-10.3214
耆	-10.3214
刋	-10.3218
底	-10.3218
洗	-10.3222
畋	-10.3222
蒲坂	-10.3223
無遺	-10.3223
穎	-10.3224
己丑	-10.3226
壓	-10.3226
驃騎大將軍	-10.3226
快	-10.3227
桃	-10.3227
胄	-10.3227
電	-10.3227
忤	-10.3228
飄	-10.3229
禮部尚書	-10.323
殿中	-10.323
朱瑾	-10.3231
促	-10.3231
冷	-10.3232
之兵	-10.3233
仇池	-10.3233
顛	-10.3233
崇韜	-10.3233
㢤	-10.3235
淹	-10.3236
塢	-10.3236
同時	-10.3237
堅以	-10.3238
苻登	-10.324
承㫖	-10.324
皇帝廟號	-10.324
吐蕃	-10.3243
水軍	-10.3246
長驅	-10.3249
腹心	-10.3249
遇害	-10.3249
從兄	-10.3251
大将	-10.3251
死於	-10.3252
禪師	-10.3253
桓温	-10.3255
功曹	-10.3256
令公	-10.3259
五日	-10.3263
風俗	-10.3268
吕光	-10.3268
有才	-10.3274
制度	-10.3283
賜號	-10.3289
統軍	-10.3293
九州	-10.3307
作詩	-10.3307
濠州	-10.3309
二十八	-10.3317
天長	-10.3326
勸進	-10.3329
滅之	-10.333
與諸	-10.3332
至成都	-10.3332
長興	-10.3335
者則	-10.335
鄴城	-10.335
食之	-10.3352
公侯	-10.3353
不祥	-10.3354
大衆	-10.336
宣王	-10.3366
開元	-10.3367
臣之	-10.3369
中書	-10.3376
舊縣	-10.3376
復有	-10.3396
其實	-10.34
漁	-10.3418
患之	-10.3419
右將軍	-10.3426
執政	-10.3427
八人	-10.3429
不識	-10.3432
引軍	-10.3432
字文	-10.3435
生於	-10.3441
都城	-10.3443
八十	-10.3449
筭	-10.3449
直言	-10.3452
為世子	-10.3456
山下	-10.3458
安撫	-10.3459
憚之	-10.3461
從者	-10.3464
穡	-10.3466
十國紀年	-10.3467
誥	-10.3467
炳	-10.3468
孚	-10.3473
洩	-10.3475
監國	-10.3477
峴	-10.3477
頽	-10.3478
譴	-10.3478
灰	-10.3479
衷	-10.3479
自若	-10.3479
侈	-10.3479
琅邪	-10.3479
門下侍郎	-10.348
枯	-10.348
鞠	-10.3482
丁卯	-10.3482
賚	-10.3482
袍	-10.3483
着	-10.3484
迷	-10.3484
替	-10.3485
錄尚書事	-10.3485
蹙	-10.3486
旦夕	-10.3486
辛酉	-10.3486
婆	-10.3486
僊	-10.3487
建威將軍	-10.3487
城門	-10.3489
倡	-10.3489
北平	-10.3493
廬陵	-10.3493
領縣五	-10.3494
讌	-10.3496
古今	-10.3498
後為	-10.3499
勅遣	-10.3503
戊子	-10.3505
之美	-10.3506
恵宗	-10.3509
茂忠	-10.3511
安能	-10.3513
避地	-10.352
季良	-10.3524
軍師	-10.3528
兵革	-10.3533
人民	-10.3536
分兵	-10.3541
保大中	-10.3542
萬物	-10.3543
郡人	-10.3545
軍旅	-10.3547
常與	-10.3552
武威	-10.3552
諸道	-10.3554
問其	-10.3555
岳州	-10.3558
追諡	-10.3563
江夏	-10.3564
乾寧	-10.3566
所害	-10.3567
宇文	-10.358
以詩	-10.3581
士女	-10.3583
閬	-10.3593
父老	-10.3608
不進	-10.3616
將佐	-10.3619
太學	-10.3622
舎人	-10.3626
武肅	-10.3626
二十四	-10.3629
志云	-10.3637
之内	-10.3643
二卷	-10.3645
越王曰	-10.3648
與王	-10.3651
視事	-10.3659
南征	-10.366
不信	-10.3661
也故	-10.3662
領兵	-10.3666
降於	-10.3667
諭之	-10.3667
遣還	-10.3675
天成	-10.3677
臨安	-10.368
家人	-10.3686
楚人	-10.3689
宦	-10.3692
其次	-10.3707
冠軍	-10.3708
甚衆	-10.3709
十餘年	-10.3712
豎	-10.3716
將相	-10.3722
洲	-10.3729
濶	-10.3731
威武	-10.3733
軫	-10.3734
掖	-10.3734
羲	-10.3734
無為	-10.3735
栅	-10.3736
幢	-10.3739
引兵還	-10.3739
泛	-10.3739
該	-10.3739
熒惑	-10.374
賑	-10.3741
豁	-10.3741
稟	-10.3742
檢校太尉	-10.3743
為大	-10.3743
裹	-10.3745
滌	-10.3745
餉	-10.3745
諧	-10.3745
隷	-10.3746
梵	-10.3746
戊午	-10.3746
㨿	-10.3747
較	-10.3747
寮	-10.3748
淚	-10.3748
馮翊	-10.3748
譛	-10.3748
辛卯	-10.375
廊	-10.3751
膏	-10.3751
郝	-10.3752
中書監	-10.3753
押	-10.3754
亾	-10.3755
浮屠	-10.3756
踈	-10.3756
碎	-10.3756
莭	-10.3758
旌旗	-10.3759
降之	-10.376
南越	-10.376
常以	-10.3765
全諷	-10.3766
殆盡	-10.3767
萬計	-10.3769
嶺北	-10.3771
之制	-10.3772
三十里	-10.378
請命	-10.3781
河右	-10.3783
睿帝	-10.3787
永隆	-10.3789
東方	-10.3789
未必	-10.379
舍人	-10.3791
幕府	-10.3793
奪其	-10.3795
置百官	-10.3798
烈宗	-10.3799
辭曰	-10.381
臣請	-10.3811
貞明	-10.3811
丈夫	-10.3814
又與	-10.3826
于我	-10.3827
之子也	-10.3839
至自	-10.3846
大雨	-10.3853
莫敢	-10.3866
大寶	-10.3888
仍以	-10.3889
明王	-10.3892
萬五千	-10.3897
南面	-10.3898
不失	-10.39
皇太后	-10.3904
從容	-10.3904
閩人	-10.391
勒勒	-10.3912
也夫	-10.3915
劉主	-10.3921
則無	-10.3924
江北	-10.3926
犍為	-10.3926
己未	-10.3927
下書曰	-10.3932
迭	-10.3938
或有	-10.3941
宫殿	-10.3944
來附	-10.3947
或曰	-10.3947
南中	-10.3952
陞	-10.3956
大舉	-10.3962
斃	-10.3963
還長安	-10.3965
死于	-10.3966
擊敗之	-10.3977
疾病	-10.3978
謀叛	-10.3982
范陽	-10.3984
倦	-10.3984
欣	-10.3985
響	-10.3989
所部	-10.3991
于外	-10.3991
所破	-10.3998
譯	-10.3998
疇	-10.4002
齡	-10.4002
偓	-10.4006
王怒	-10.4008
褐	-10.4008
墟	-10.4008
暨	-10.4009
謫	-10.4009
揆	-10.4009
愷	-10.401
奠	-10.401
閑	-10.401
餌	-10.4011
拯	-10.4012
韓熙載	-10.4012
佛圖澄	-10.4012
騫	-10.4012
鎮東將軍	-10.4012
潁	-10.4013
鹵	-10.4013
丁零	-10.4014
湧	-10.4015
開府	-10.4015
嗜	-10.4016
鍠	-10.4017
姪	-10.4017
冢	-10.4017
驍騎將軍	-10.4018
恠	-10.4018
隸	-10.4018
檢校太傅	-10.4019
汚	-10.402
訣	-10.402
廼	-10.4021
彦儔	-10.4021
司隷校尉	-10.4021
餞	-10.4023
媚	-10.4025
禮樂	-10.4026
鎮南將軍	-10.4027
希廣	-10.4028
侍御史	-10.4028
暇	-10.4028
豫州刺史	-10.4029
嚴續	-10.4032
乹	-10.4032
所載	-10.4036
英武帝	-10.4039
髙平	-10.4039
病卒	-10.4047
徴古	-10.4047
百僚	-10.4048
道襲	-10.4048
以應	-10.4051
延嗣	-10.4057
建初	-10.4064
禁中	-10.4065
不屈	-10.4066
屯田	-10.4067
文帝	-10.4068
兵大敗	-10.4068
甲士	-10.407
有此	-10.4073
字叔	-10.4074
正朔	-10.4075
皇朝	-10.4081
王親	-10.4083
人少	-10.4084
月餘	-10.409
殿前	-10.4091
六合	-10.4094
不自	-10.4099
藩鎮	-10.4108
夫子	-10.4108
長吏	-10.4109
或作	-10.411
石城	-10.411
西山	-10.4118
後唐	-10.412
尚書左僕射	-10.4123
忌之	-10.4123
聖王	-10.4125
步騎	-10.4127
也遂	-10.4128
二千人	-10.4129
等攻	-10.4129
山谷	-10.4136
有罪	-10.4141
大行	-10.4145
使君	-10.4149
攻破	-10.4149
之望	-10.4152
驍	-10.4155
為我	-10.4161
昨	-10.4162
以致	-10.4172
罵	-10.4172
常侍	-10.4175
者非	-10.4175
是夕	-10.4186
二女	-10.419
天文	-10.4194
於人	-10.4202
何必	-10.4204
不容	-10.4205
于金陵	-10.4212
關中	-10.4213
咸通	-10.4217
潞州	-10.4226
其主	-10.4227
小國	-10.4241
棄城	-10.4247
殺人	-10.4257
茂章	-10.4257
復命	-10.426
王立	-10.4264
又作	-10.4268
忠獻王	-10.4271
篆	-10.4272
軍校	-10.4273
養子	-10.4273
閱	-10.4275
也吾	-10.4277
滛	-10.428
肩	-10.4281
猥	-10.4284
苗	-10.4285
璟	-10.4287
餐	-10.4288
墻	-10.4289
藤	-10.4289
租	-10.4289
於市	-10.4289
洋	-10.4289
人主	-10.4289
爛	-10.429
冉	-10.429
蠶	-10.429
曷	-10.4291
姊	-10.4292
崧	-10.4293
捍	-10.4293
壬寅	-10.4293
其可	-10.4293
湛	-10.4294
譜	-10.4294
恚	-10.4294
濫	-10.4295
髻	-10.4295
寘	-10.4295
粤	-10.4296
桀	-10.4296
魏兵	-10.4296
漂	-10.4297
俞	-10.4298
勑	-10.4298
銖	-10.4298
枋頭	-10.4298
峭	-10.4298
蓬	-10.4299
一言	-10.4299
舘	-10.4299
宦官	-10.43
和龍	-10.43
寝	-10.43
朱文進	-10.43
釣	-10.43
鈎	-10.4302
瑀	-10.4302
冶	-10.4302
閏月	-10.4302
梁王全忠	-10.4303
淂	-10.4303
鬼神	-10.4303
凉州牧	-10.4303
楊行宻	-10.4304
弱冠	-10.4306
己巳	-10.4306
燔	-10.4306
盡忠	-10.4307
陶雅	-10.4308
柰何	-10.4309
冀州刺史	-10.4313
大兵	-10.4314
師暠	-10.4315
扶風	-10.4317
謝罪	-10.4319
伍子胥	-10.432
龍飛	-10.432
畧曰	-10.432
朝臣	-10.4321
亦無	-10.4325
延翰	-10.4328
睦州	-10.4328
長者	-10.433
太夫人	-10.4332
劉琨	-10.4338
仁俊	-10.4341
開寶	-10.4343
尚書右僕射	-10.4346
歸於	-10.4348
舊為	-10.435
不附	-10.4353
也於是	-10.4355
北漢	-10.4358
楚州	-10.4363
天道	-10.4366
所能	-10.4367
髙宗	-10.4373
祖父	-10.4373
贖	-10.4375
國號	-10.4375
和尚	-10.4382
供奉官	-10.4387
長生	-10.439
奉詔	-10.4391
朝政	-10.4396
遣其將	-10.4401
挫	-10.4405
親臨	-10.4405
少年	-10.4408
以是	-10.4421
之氣	-10.4433
以為不可	-10.4444
大敗之	-10.4445
進位	-10.4447
名士	-10.4448
縣有	-10.4449
乃還	-10.4449
先鋒	-10.445
不悦	-10.445
乞師	-10.4452
士馬	-10.4452
與戰	-10.4453
閉門	-10.4453
我軍	-10.4455
輕騎	-10.4461
四時	-10.4469
後事	-10.4471
之説	-10.4472
文表	-10.4474
得一	-10.4479
與弟	-10.448
王浚	-10.4481
自此	-10.4482
汴京	-10.4484
忠獻	-10.4497
讓皇	-10.4497
平城	-10.4502
後人	-10.4509
為節度使	-10.4511
東陽	-10.4513
于周	-10.452
大國	-10.452
首領	-10.4526
輟	-10.4529
牙門	-10.4531
艘	-10.4531
生擒	-10.4533
出家	-10.4534
歸國	-10.4534
池州	-10.4534
諸部	-10.4535
答曰	-10.4535
師事	-10.4536
親征	-10.4537
當世	-10.4542
懼而	-10.4545
劔	-10.4546
及至	-10.4546
致之	-10.4549
越嶲	-10.455
同心	-10.4553
四州	-10.4558
副之	-10.4567
斬其	-10.4567
雉	-10.4568
武平	-10.4571
沿	-10.4572
紛	-10.4573
檢討呉任臣撰	-10.4574
踵	-10.4575
䜛	-10.4575
粉	-10.4575
厄	-10.4576
厨	-10.4577
愼	-10.4577
殯	-10.4578
皇甫	-10.4578
客省使	-10.4579
祕	-10.4579
筵	-10.4582
晩	-10.4582
江南野史	-10.4582
局	-10.4583
吉凶	-10.4584
廷尉	-10.4585
餘杭	-10.4585
二王	-10.4585
苛	-10.4589
曰爾	-10.459
彦章	-10.459
菁	-10.4593
宕渠	-10.4594
車駕	-10.4594
彦超	-10.4613
四萬	-10.4619
林邑	-10.4621
築城	-10.4627
石生	-10.4628
建平	-10.4636
等率	-10.4636
諌曰	-10.4644
㤗	-10.4644
不測	-10.4661
令人	-10.4665
征西	-10.4679
闗東	-10.4682
不就	-10.4682
何罪	-10.4696
樂都	-10.4697
曰大	-10.47
立祠	-10.4703
以待之	-10.4705
平之	-10.471
功名	-10.4715
鄉人	-10.4715
所言	-10.4718
風雨	-10.4723
孝武	-10.4727
者亦	-10.4733
三卷	-10.4738
可不	-10.4742
朱元	-10.4742
釋之	-10.4746
撫軍將軍	-10.4747
第二	-10.4756
攻陷	-10.476
歙	-10.4763
而生	-10.4772
衣錦	-10.4782
殺戮	-10.4784
單騎	-10.4791
聚衆	-10.4795
字仲	-10.4798
媿	-10.4803
山中	-10.4804
堅守	-10.4808
次於	-10.4813
進圍	-10.4818
卒於	-10.4825
羯	-10.4827
赫	-10.484
白馬	-10.4841
李彦	-10.4841
崱	-10.4842
以功	-10.4843
瘴	-10.485
繇	-10.485
先人	-10.4851
于市	-10.4854
兵入	-10.4855
檢校太保	-10.4856
裏	-10.4858
黄龍	-10.486
朂	-10.486
簒	-10.4861
平北將軍	-10.4865
巒	-10.4865
猜	-10.4866
禮部侍郎	-10.4867
歐陽史	-10.4867
扆	-10.4867
冉閔	-10.4868
躭	-10.4868
隗	-10.4869
扼	-10.4869
孽	-10.4869
頸	-10.487
僖宗	-10.4871
揮	-10.4872
毗	-10.4872
自負	-10.4872
征西大將軍	-10.4872
冥	-10.4872
察孝㢘	-10.4873
其書	-10.4874
霄	-10.4874
鼻	-10.4875
乾坤	-10.4875
悉以	-10.4876
几	-10.4876
馮延巳	-10.4876
麴	-10.4876
宼	-10.4877
豪傑	-10.4877
㝷	-10.4878
納欵	-10.4878
安之	-10.4879
廹	-10.4879
忠遜王	-10.488
司𨽻校尉	-10.488
裨將	-10.488
熾	-10.4881
春申君	-10.4883
為一	-10.4884
精鋭	-10.4885
雍州	-10.4887
從誨	-10.4888
魏岑	-10.489
林仁肇	-10.489
蒼生	-10.4891
有聲	-10.4893
為丞相	-10.4897
光憲	-10.4897
黄龍見於	-10.49
之女	-10.4903
呼延	-10.4908
反覆	-10.491
萬全	-10.4914
乾德	-10.4915
黎陽	-10.4915
杭	-10.4915
郡守	-10.4922
士衆	-10.4924
父兄	-10.4924
因其	-10.4926
婦女	-10.4927
其文	-10.4928
所見	-10.4929
有道	-10.4938
大笑	-10.4943
來援	-10.4947
同光	-10.495
昭武	-10.4952
諾	-10.4957
諸城	-10.4958
欲與	-10.4963
罷兵	-10.4963
越州	-10.4963
山上	-10.4968
自謂	-10.4978
成敗	-10.4989
深入	-10.4991
舉國	-10.4991
稱其	-10.4993
終始	-10.4995
其兄	-10.5
追贈	-10.5005
不聞	-10.5014
少主	-10.5016
奔于	-10.5035
周人	-10.5044
子胥曰	-10.5049
七百	-10.5051
然而	-10.5054
之情	-10.5054
遣其子	-10.5055
曰彼	-10.5062
第二子	-10.5072
而巳	-10.5074
宋太宗	-10.5079
為交州刺史	-10.5088
書云	-10.5105
軍國	-10.511
以死	-10.5112
大如	-10.5118
之死	-10.5119
之資	-10.5125
敗死	-10.5131
六軍	-10.5135
南平	-10.514
其城	-10.5144
岌	-10.5144
不成	-10.5152
有疾	-10.5153
詡	-10.5154
曰王	-10.5155
詔以	-10.5156
燮	-10.5156
蚝	-10.5165
魁	-10.5165
柏	-10.5166
本名	-10.5166
二國	-10.5168
臻	-10.5169
欲立	-10.5169
𤣥靚	-10.517
霞	-10.517
把	-10.517
瓶	-10.5171
觴	-10.5172
廩	-10.5172
悍	-10.5172
璿	-10.5173
遮	-10.5173
未詳	-10.5173
𤓰	-10.5173
淪	-10.5174
猝	-10.5174
遍	-10.5175
鄊	-10.5175
貯	-10.5175
佗	-10.5175
猜忌	-10.5176
傲	-10.5177
懽	-10.5177
耗	-10.5178
寕	-10.5178
御史大夫	-10.5178
浴	-10.5179
𥙿	-10.5179
幅	-10.5179
跋	-10.5179
紿	-10.518
殃	-10.518
逋	-10.518
諛	-10.518
從善	-10.5181
羣僚	-10.5182
武安	-10.5182
潼闗	-10.5183
領縣三	-10.5184
攜	-10.5184
夢錫	-10.5186
潘佑	-10.5188
領縣四	-10.5189
閣羅鳯	-10.5191
王彌	-10.5191
炭	-10.5195
合浦	-10.5197
玕	-10.5197
兖	-10.5198
可得	-10.5199
之文	-10.52
太廟	-10.52
亡命	-10.5202
唐師	-10.5203
禪代	-10.5204
壽春	-10.5211
三千人	-10.5212
泉州刺史	-10.5212
從事中郎	-10.5214
之憂	-10.5218
善屬文	-10.5226
也若	-10.5235
八日	-10.5235
内附	-10.5241
徳眀	-10.526
州節度使	-10.526
光武	-10.5266
復何	-10.5266
三子	-10.5266
斛	-10.5272
不能自	-10.5273
恐其	-10.5277
尚書左丞	-10.5277
哀公	-10.5287
一舉	-10.5287
卭	-10.5295
無諱	-10.5297
重遇	-10.5297
一月	-10.5298
無益	-10.53
統軍使	-10.5301
示之	-10.5311
皇太子	-10.5321
曰天	-10.5322
衛大將軍	-10.5323
本朝	-10.533
入境	-10.5331
守節	-10.5335
不逺	-10.5343
陳留	-10.5343
王與	-10.5346
撃之	-10.5356
矣乃	-10.5357
正陽	-10.5359
西門	-10.5361
曰寡人	-10.5362
兵甲	-10.5363
漢州	-10.5365
牙將	-10.5365
唐帝	-10.5368
為大將軍	-10.5368
撫州	-10.5369
黔	-10.5374
晉師	-10.5377
明矣	-10.5378
已死	-10.5381
所至	-10.539
於晉	-10.539
服其	-10.5394
人謂	-10.5395
鄴中	-10.5411
氏為皇后	-10.5413
至金陵	-10.5419
之重	-10.5419
荆州刺史	-10.5422
周氏	-10.5422
自固	-10.5424
天地之	-10.5431
大梁	-10.5434
制置	-10.5434
三郡	-10.5437
河西王	-10.5443
城東	-10.5448
衆咸	-10.5448
顧謂	-10.5451
两	-10.5451
吾當	-10.5454
承休	-10.5454
四千	-10.5456
將有	-10.5459
見而	-10.5459
西秦	-10.5461
日南	-10.5463
賜死	-10.5463
疑之	-10.5471
勾	-10.5474
菩薩	-10.5475
銅柱	-10.5478
愆	-10.5478
探	-10.548
轍	-10.5481
遙	-10.5481
札	-10.5482
綸	-10.5482
薪	-10.5483
剌史	-10.5483
凱	-10.5483
銓	-10.5484
琦	-10.5484
課	-10.5484
征南將軍	-10.5484
安西將軍	-10.5486
懲	-10.5486
汭	-10.5486
稱王	-10.5486
軀	-10.5486
冐	-10.5487
大赦境内殊死已下改元	-10.5487
西夷校尉	-10.5487
瓌	-10.5487
祇	-10.5487
弘兾	-10.5487
相率	-10.5488
鎮西將軍	-10.5488
笞	-10.5489
甥	-10.5489
裒	-10.5489
歿	-10.5489
征北將軍	-10.549
弓矢	-10.5491
臭	-10.5495
趙季良	-10.5496
濁	-10.5496
蹈	-10.5496
琰	-10.5497
蔓	-10.5499
江文蔚	-10.55
囙	-10.55
允章	-10.5501
賜爵	-10.5503
國用	-10.5503
縱横	-10.5503
貴賤	-10.5505
若不	-10.5506
其間	-10.5511
謂諸將曰	-10.5515
不覺	-10.5515
太伯	-10.5519
不可得	-10.5519
旬日	-10.5522
葬之	-10.5522
成功	-10.5523
之象	-10.5524
大雅	-10.5525
兵三千	-10.5526
其女	-10.5526
草木	-10.5527
清泰	-10.5528
臣僚	-10.5529
護軍	-10.5529
所生	-10.553
景達	-10.5531
廣平	-10.5533
章武	-10.5539
軍至	-10.5541
讓之	-10.5541
亭侯	-10.5541
通文	-10.5543
議者	-10.5548
教授	-10.5549
海州	-10.5551
從效	-10.5557
遣使拜	-10.5562
封為	-10.5563
歸于	-10.5566
許昌	-10.5569
來拒	-10.557
逐之	-10.557
尋遷	-10.5574
石室	-10.5576
不暇	-10.5578
逆擊	-10.5585
陳喬	-10.5588
之理	-10.5596
元年正月	-10.5598
大震	-10.56
書作	-10.5602
征東將軍	-10.5604
進取	-10.5609
于王	-10.5611
前軍	-10.5612
真宗	-10.5615
家世	-10.562
後蜀	-10.5621
所為	-10.5636
部衆	-10.5637
所出	-10.5637
光州	-10.5638
告之	-10.5643
如其	-10.5647
宜授	-10.5659
通好	-10.5659
夜夢	-10.5663
以謝	-10.5668
也然	-10.5671
日夜	-10.5676
西河	-10.5678
當作	-10.5681
許以	-10.5683
本州	-10.5685
大朝	-10.5687
化為	-10.5693
遂陷	-10.5697
時官	-10.5699
王后	-10.5699
帝曰	-10.5703
出迎	-10.5704
永興	-10.5704
狥	-10.5707
道濟	-10.5712
吳國	-10.5712
明徳	-10.5713
不樂	-10.5713
天會	-10.5717
延彬	-10.5718
追至	-10.5724
昭儀	-10.5724
重之	-10.5726
天性	-10.5726
偽諡	-10.5729
以成	-10.5732
賢者	-10.5733
而反	-10.5735
素與	-10.574
志在	-10.5752
又命	-10.5758
歩騎	-10.5758
其能	-10.5759
其功	-10.5764
江表	-10.5767
見一	-10.5768
人以為	-10.5772
兖州	-10.5773
雖不	-10.578
聼	-10.5781
爲人	-10.5781
滎陽	-10.5783
疫	-10.5787
傳云	-10.5789
樸	-10.5791
竺	-10.5793
苻氏	-10.5794
不忠	-10.5794
相傳	-10.5795
曄	-10.5798
闡	-10.58
中山王	-10.58
烹	-10.5804
鳩	-10.5805
戾	-10.5805
控	-10.5806
想	-10.5806
興兵	-10.5806
團	-10.5807
之餘	-10.5808
諌議大夫	-10.5809
擢為	-10.5809
諸臣	-10.5809
蓮	-10.5809
纎	-10.581
蔑	-10.581
埋	-10.5811
秃髪	-10.5811
大定	-10.5811
倖	-10.5814
漠	-10.5814
鎧	-10.5814
熱	-10.5815
昵	-10.5815
宸	-10.5815
延羲	-10.5815
癸卯	-10.5816
壺	-10.5816
畿	-10.5817
褘	-10.5817
己卯	-10.5818
紂	-10.5818
爐	-10.5819
徐玠	-10.5819
僞	-10.582
乾亨	-10.5821
輅	-10.5821
隆演	-10.5821
以前	-10.5822
帖	-10.5822
禆将	-10.5822
鏞	-10.5822
谿	-10.5823
嚭	-10.5823
璞	-10.5825
大赦境内	-10.5825
賓客	-10.5826
著作郎	-10.5827
承祐	-10.583
李仁罕	-10.5832
乞伏	-10.5833
建徽	-10.5837
内侍	-10.5838
利害	-10.5839
居數年	-10.584
二千石	-10.5845
兵馬使	-10.5846
經畧	-10.5848
山水	-10.5849
張洎	-10.5854
濮	-10.5855
泣下	-10.5858
尊號	-10.5859
邕州	-10.5861
赴難	-10.5863
仲宣	-10.5864
割地	-10.5864
等州	-10.587
東門	-10.5873
未聞	-10.5874
咸康	-10.5878
敵國	-10.5881
海陵	-10.5882
四人	-10.5885
率其	-10.589
勉之	-10.5891
故曰	-10.5893
已上	-10.5895
率師	-10.5895
帥騎	-10.5896
江表志	-10.5898
廣固	-10.5902
故不	-10.5909
新都	-10.5911
少府	-10.5916
奏授	-10.5916
行軍	-10.592
皇天	-10.5921
之䇿	-10.5921
議欲	-10.5922
立功	-10.5929
為僧	-10.5931
善之	-10.5931
汴兵	-10.5933
山東	-10.5937
城守	-10.5937
立子	-10.5938
必為	-10.5939
歙州	-10.5943
之聲	-10.5944
一國	-10.5956
能知	-10.5959
者三	-10.5959
以俟	-10.5959
三司	-10.5969
萬年	-10.5978
城郭	-10.5984
諸公	-10.5984
獲免	-10.5985
屬縣	-10.5986
文曰	-10.599
而起	-10.5997
囚之	-10.6
稱之	-10.6005
遂絶	-10.6006
督䕶	-10.6014
卒以	-10.6014
崇文	-10.6015
渡河	-10.6019
有神	-10.6025
部下	-10.6034
欲使	-10.6036
白龍	-10.6038
公府	-10.6038
右司馬	-10.604
者悉	-10.604
忠宣	-10.6045
廓	-10.6046
兵法	-10.6052
莾	-10.6053
千户	-10.6066
秦雍	-10.6073
至則	-10.6073
千匹	-10.6075
呼曰	-10.6085
時時	-10.6092
曰是	-10.6101
之末	-10.6104
所知	-10.6111
之辭	-10.6126
惲	-10.6126
耳今	-10.6126
鎮海軍	-10.6129
節制	-10.613
恬	-10.613
濳	-10.613
侃	-10.6131
㫤	-10.6132
珙	-10.6133
東還	-10.6133
還國	-10.6134
筌	-10.6134
亢	-10.6135
棘	-10.6136
賄	-10.6137
如初	-10.6138
虵	-10.6138
馬令南唐書	-10.6138
殞	-10.6139
無度	-10.614
明州	-10.6141
片	-10.6141
趙王麟	-10.6142
蠲	-10.6142
誚	-10.6144
栗	-10.6144
填	-10.6144
塗炭	-10.6144
磨	-10.6144
驃騎將軍	-10.6145
諮	-10.6145
狡	-10.6145
俸	-10.6146
不當	-10.6146
綴	-10.6147
勸王	-10.6148
聨	-10.6148
捧	-10.6149
之分	-10.6149
狎	-10.615
宓	-10.615
椘	-10.615
黄門侍郎	-10.6151
括	-10.6151
報聘	-10.6151
各有差	-10.6152
䖏	-10.6154
蒲阪	-10.6155
下有	-10.6157
霽	-10.6158
邠	-10.6159
鳳州	-10.616
申胥	-10.616
亞	-10.6161
牛羊	-10.6161
麻秋	-10.6161
燉煌太守	-10.6161
記室	-10.6164
私第	-10.6164
徐溫	-10.6166
昆弟	-10.6179
一隅	-10.6188
其族	-10.6189
委任	-10.6191
何憂	-10.6192
白鹿	-10.6192
昭符	-10.6193
以求	-10.6194
虚實	-10.6194
李平	-10.6195
待罪	-10.6195
受之	-10.6195
仁規	-10.6196
何足	-10.6198
不戰	-10.62
忠順	-10.6202
尊母	-10.6203
賜以	-10.6208
十五日	-10.621
所署	-10.621
孫權	-10.621
率衆攻	-10.621
亡國	-10.6211
金器	-10.6214
大水	-10.6214
遁歸	-10.6215
獲之	-10.6219
謀殺	-10.622
親兵	-10.6223
一家	-10.6226
遁走	-10.6228
二郡	-10.6231
所向	-10.6231
伐蜀	-10.6235
無事	-10.6237
故唐	-10.6239
吾將	-10.624
吳越兵	-10.6241
疑其	-10.6241
劉聰	-10.6241
奉迎	-10.6243
愛其	-10.6243
魏武	-10.6245
之體	-10.625
無錫	-10.625
福建	-10.6253
陽平	-10.6253
之句	-10.6254
南方	-10.6261
三千餘人	-10.6261
假節	-10.6264
曰吾聞	-10.6268
都統	-10.627
請救	-10.6272
安漢	-10.6272
卒于	-10.6277
後有	-10.6278
先君	-10.6281
請為	-10.6282
加王	-10.6283
而復	-10.6289
家屬	-10.629
一切	-10.6292
婺州	-10.6293
南郡	-10.6294
偏將	-10.6297
曹彬	-10.6297
十國	-10.6301
未見	-10.6303
王僚	-10.6304
於内	-10.6307
猶未	-10.6309
曰孤	-10.6313
楊安	-10.6317
與其	-10.6318
聖朝	-10.6319
曰主上	-10.6322
賜之	-10.6322
記曰	-10.633
城上	-10.6332
一戰	-10.6333
遣使來	-10.6336
大司徒	-10.6342
禮遇	-10.6342
以䝉	-10.6343
安州	-10.6345
有云	-10.6353
李嚴	-10.6356
征東	-10.6358
鎮南	-10.6359
東平	-10.6362
朝貢	-10.6363
徙封	-10.6363
急攻	-10.6366
牛酒	-10.6369
年老	-10.6374
江左	-10.6377
三年春三月	-10.638
十人	-10.6381
鴆	-10.6382
初封	-10.6384
致書	-10.639
見於	-10.6398
未定	-10.6403
建陽	-10.641
遂成	-10.6415
梁王	-10.642
所擒	-10.6422
焚之	-10.6423
受其	-10.6428
百餘里	-10.6431
右丞相	-10.6432
且請	-10.6436
疾篤	-10.6437
右長史	-10.6443
歸罪	-10.6452
其徒	-10.6452
儔	-10.6454
宫門	-10.6456
統萬	-10.6461
衢	-10.6462
鴻臚	-10.6466
覲	-10.6469
欲殺之	-10.6473
當以	-10.6473
包	-10.6475
迄	-10.6475
清海	-10.6476
河間	-10.6476
彪	-10.648
䘏	-10.6482
羸	-10.6482
股肱	-10.6485
王逵	-10.6486
悖	-10.6486
叠	-10.6487
拓	-10.6488
榜	-10.6488
呂	-10.6488
柴再用	-10.6488
縳	-10.6489
償	-10.6489
至京師	-10.6491
工部侍郎	-10.6491
㳂	-10.6491
釐	-10.6493
添	-10.6493
𤼵	-10.6494
觀察	-10.6495
斧	-10.6495
涪陵	-10.6495
肝	-10.6496
汝南	-10.6496
璝	-10.6497
之君	-10.6497
涇	-10.6497
不守	-10.6498
匹夫	-10.6499
心腹	-10.6499
粹	-10.65
漲	-10.65
㝎	-10.65
無主	-10.65
憶	-10.6502
人也少	-10.6502
於天	-10.6503
扶餘	-10.6505
四十里	-10.6505
錢鏐	-10.6506
龑	-10.6507
高麗	-10.6507
生靈	-10.6508
拒守	-10.6512
二十餘年	-10.6512
宴飲	-10.6513
移鎮	-10.6513
偏師	-10.6514
前驅	-10.6515
臺諫	-10.6516
天朝	-10.6517
徃徃	-10.6518
陳誨	-10.6519
三尺	-10.652
二十卷	-10.6524
安仁義	-10.6524
奔潰	-10.6527
孫忌	-10.6528
丁氏	-10.6528
李昊	-10.6533
可知	-10.6535
郴	-10.6535
季昌	-10.6536
嵗餘	-10.6538
比至	-10.6538
尤甚	-10.6539
小兒	-10.6543
大恱	-10.6547
御衣	-10.6547
延夀	-10.6548
援兵	-10.6552
翼日	-10.6557
忠孝	-10.6558
不動	-10.6563
軍敗	-10.6565
屢敗	-10.6565
不去	-10.6565
王建封	-10.657
各一	-10.6571
越之	-10.6576
自相	-10.6578
馬歩	-10.6579
素服	-10.6588
問其故	-10.6588
問罪	-10.6588
元康	-10.6589
左丞相	-10.6593
君父	-10.6597
不獲	-10.66
執事	-10.6601
百人	-10.6607
於前	-10.6608
嘗與	-10.6608
南蠻	-10.661
馬殷	-10.6612
天資	-10.6614
義方	-10.6622
童子	-10.6623
望風	-10.6623
晉室	-10.6624
邑人	-10.6625
給事	-10.663
為詩	-10.6634
一朝	-10.6638
惡其	-10.6643
迎降	-10.6647
石門	-10.6648
其謀	-10.665
有子	-10.6653
百年	-10.6654
山河	-10.6658
主之	-10.6658
如其言	-10.6663
皆降	-10.6663
五經	-10.6667
白虎	-10.667
劉威	-10.6672
凡三	-10.6678
不知所	-10.6681
江水	-10.6681
巴東	-10.6681
伐齊	-10.6692
瀘	-10.6697
朝士	-10.6697
不時	-10.6697
于京師	-10.6698
與我	-10.6708
必能	-10.6709
馳使	-10.6714
彼必	-10.6718
韶州	-10.6723
貢獻	-10.6724
歸命	-10.6728
臣竊	-10.673
三十六	-10.6733
光祿大夫	-10.6735
極言	-10.6737
武徳	-10.6738
忠懿	-10.6739
無窮	-10.6742
遂取	-10.676
王欲	-10.6761
謝曰	-10.6762
歌曰	-10.6773
朽	-10.6777
之力	-10.6778
南郊	-10.6787
所宜	-10.6791
委之	-10.6793
服之	-10.68
乎且	-10.6804
樂浪	-10.6807
文宗	-10.6811
助之	-10.6812
大同	-10.6813
始知	-10.6817
䕫州	-10.6817
少有	-10.682
冩	-10.6823
上柱國	-10.6825
使臣	-10.6827
甘露	-10.683
新唐書	-10.6831
加以	-10.6833
杲	-10.6833
鞍	-10.6833
禧	-10.6834
王自	-10.6835
沐	-10.6835
贄	-10.6836
揺	-10.6836
虹	-10.6836
軸	-10.6837
數里	-10.6838
弛	-10.6838
諶	-10.6839
秃髪傉檀	-10.6839
毫	-10.6839
資謙	-10.684
揖	-10.684
狹	-10.6842
冕	-10.6843
鬰	-10.6844
吁	-10.6844
邀擊	-10.6844
安北將軍	-10.6845
曩	-10.6845
奥	-10.6845
鲁	-10.6845
棟	-10.6845
昉	-10.6846
籙	-10.6846
刁	-10.6846
夲	-10.6847
謐	-10.6847
腐	-10.6848
鎮軍將軍	-10.6848
末杯	-10.6849
汎	-10.6849
嘏	-10.6849
覧	-10.6849
李繼	-10.685
閤	-10.685
槩	-10.685
躁	-10.685
琬	-10.6851
猪	-10.6851
馮延己	-10.6851
鷄	-10.6852
事後主	-10.6852
都虞侯	-10.6853
録尚書事	-10.6853
同中書門下平章事	-10.6855
顧全武	-10.6855
金石	-10.6858
嚴可求	-10.6858
自立為	-10.6858
朔日有蝕之	-10.6859
苑川	-10.686
鎮北將軍	-10.686
岀	-10.6862
國有	-10.6862
常夢錫	-10.6863
復與	-10.6864
可瓊	-10.6865
沾	-10.6867
黄巢	-10.6867
巴郡太守	-10.6871
切諌	-10.6872
六年春正月	-10.6872
京口	-10.6873
千載	-10.6874
㧞之	-10.6874
宵遁	-10.6877
泰山	-10.6878
千秋	-10.688
博陵	-10.688
湖州刺史	-10.6881
非所	-10.6883
招集	-10.6883
臨江	-10.6884
州城	-10.6884
攻鄴	-10.6885
管内	-10.6886
李神福	-10.6887
清源	-10.6889
劉言	-10.6892
相公	-10.6895
以圖	-10.6898
後主嗣位	-10.69
千金	-10.6905
六萬	-10.6909
猶在	-10.6909
佛法	-10.6912
來貢	-10.6913
并其	-10.6913
保權	-10.6913
府事	-10.6914
勇士	-10.6924
衡陽王	-10.6925
後主即位	-10.6929
呼為	-10.6933
天意	-10.6933
討賊	-10.694
興國	-10.6944
告急	-10.6945
嬖	-10.6949
徃來	-10.6949
六尺	-10.695
以通	-10.6952
乗勝	-10.6961
第三	-10.6961
四百	-10.6965
朔方	-10.6966
漢祖	-10.6968
封爵	-10.6969
傳位	-10.6971
以次	-10.6973
之數	-10.6975
隂平	-10.6976
不法	-10.6984
本無	-10.6984
徳昭	-10.6984
更始	-10.6988
為名	-10.6994
神人	-10.6997
今年	-10.7
金吾	-10.7004
三百人	-10.7006
咸和	-10.7007
汲	-10.7013
不朝	-10.7019
於路	-10.7021
謂其	-10.7021
諭以	-10.7022
者斬	-10.7027
太上	-10.703
之甚	-10.7032
宣城	-10.7033
其才	-10.7034
之機	-10.7036
大理	-10.7037
桓公	-10.704
至大	-10.7053
率步騎	-10.7056
足矣	-10.7058
非吾	-10.7076
人有	-10.7087
此則	-10.7096
上䟽	-10.71
逝	-10.7102
乎遂	-10.7103
先朝	-10.7108
何可	-10.7109
金氏	-10.7116
守宰	-10.7116
王擢	-10.7118
絶其	-10.7122
執之	-10.7123
不敢進	-10.7124
王孫	-10.7126
安陽	-10.7127
下獄	-10.7132
人也仕	-10.7134
妻也	-10.7143
故能	-10.7143
有言	-10.715
不可不	-10.7151
居無何	-10.7154
以自固	-10.7155
得失	-10.7158
饒州	-10.7162
猶有	-10.7163
者言	-10.7164
將行	-10.7167
請行	-10.7171
中夜	-10.7176
為都督	-10.7177
二十五	-10.7181
士庶	-10.7188
昞	-10.7192
龍山	-10.7196
餅	-10.7199
為晉	-10.7202
繋	-10.7205
五國故事	-10.7206
枚	-10.7207
國内	-10.7207
蜀檮杌	-10.7207
稍遷	-10.7208
轅	-10.7208
季札	-10.7208
沮渠䝉遜	-10.7208
多難	-10.7208
不意	-10.7208
張賔	-10.721
俶	-10.7211
奢侈	-10.7211
大赦境内殊死已下	-10.7211
吳人	-10.7213
犢	-10.7215
系	-10.7215
自有	-10.7215
駙馬都尉	-10.7215
堯舜	-10.7215
綺	-10.7216
涓	-10.7216
搏	-10.7216
秘書監	-10.7217
峙	-10.7217
槍	-10.7217
龜兹	-10.7218
鷹	-10.7219
兎	-10.7219
都押牙	-10.7219
煞	-10.722
卵	-10.722
簾	-10.722
吏部侍郎	-10.722
斜	-10.7221
都督中外諸軍事	-10.7222
誌	-10.7222
關内侯	-10.7222
晞	-10.7223
轂	-10.7223
袖	-10.7223
䑕	-10.7224
兖州刺史	-10.7224
之弟也	-10.7224
中軍將軍	-10.7225
窟	-10.7225
城隍	-10.7226
篡	-10.7226
范陽王徳	-10.7226
嗜酒	-10.7227
晏駕	-10.7228
頓首	-10.723
崑崙	-10.723
會稽	-10.7231
立為皇后	-10.7233
此乃	-10.7233
中使	-10.7234
亘	-10.7235
太康	-10.7237
家貧	-10.7239
𢎞冀	-10.7241
朱提	-10.7242
慕容氏	-10.7243
戒嚴	-10.7244
周行逢	-10.7244
矢石	-10.7245
張駿	-10.7249
全播	-10.7249
吕氏	-10.7252
之誠	-10.7253
覽之	-10.7257
舊臣	-10.7257
喪亂	-10.7259
僣號	-10.7261
聲援	-10.7263
敬真	-10.7263
河州刺史	-10.7266
忠嗣	-10.7269
吳越國	-10.7272
昭逺	-10.7272
鎮南王	-10.7272
契丹主	-10.7275
踰城	-10.7276
仁達	-10.7279
夢孫	-10.7281
延巳	-10.7281
阻兵	-10.7282
言其	-10.7288
以避	-10.7289
女真	-10.7296
廣漢太守	-10.7298
於西	-10.73
追擊	-10.7303
九真	-10.7306
景仁	-10.7308
夏侯	-10.7312
今欲	-10.7312
二十四年	-10.7312
美女	-10.7313
大驚	-10.7315
内有	-10.7318
為尚書令	-10.7321
夫婦	-10.7326
今陛下	-10.7327
成都人	-10.7328
西城	-10.7332
歸義	-10.7333
三公	-10.7334
順義	-10.7336
虎曰	-10.7339
是歳	-10.734
避之	-10.7352
多有	-10.7357
宫女	-10.7358
王侯	-10.7369
漢陽	-10.7369
於時	-10.737
是月王	-10.737
東征	-10.7372
與李	-10.7374
山有	-10.7377
縣人	-10.7377
信都	-10.7381
過人	-10.7381
李簡	-10.7383
義真	-10.7384
飲食	-10.7385
對曰臣	-10.7386
為變	-10.7387
為司徒	-10.7392
金玉	-10.7392
濟師	-10.7396
先登	-10.74
乃出	-10.7404
求救於	-10.7408
以給	-10.7412
不解	-10.7415
信州	-10.7415
殺我	-10.7417
五十餘	-10.7418
薨于	-10.7421
自焚	-10.7423
昔者	-10.7424
是故	-10.7425
史官	-10.7431
二州刺史	-10.7433
左司馬	-10.7435
國家之	-10.7442
士人	-10.7443
大明	-10.7447
光化	-10.7449
雅好	-10.7456
徙居	-10.7467
古者	-10.7472
皆如	-10.7473
為政	-10.7478
驚曰	-10.7479
未常	-10.7485
告曰	-10.7485
官吏	-10.7487
權知	-10.749
齊已	-10.7492
陽縣	-10.7494
戮之	-10.7494
於後	-10.7494
王爵	-10.7501
惟治	-10.7501
遂奔	-10.7506
聲言	-10.751
納土	-10.751
萬世	-10.7511
有國	-10.7512
有女	-10.7514
豈得	-10.7514
南平王	-10.7514
未敢	-10.7518
南侵	-10.7528
出自	-10.7529
進至	-10.7533
而自立	-10.7543
妻之	-10.7549
執送	-10.7551
武信	-10.7553
銘曰	-10.7553
逺來	-10.7556
而能	-10.7562
不加	-10.7564
復來	-10.7567
未嘗不	-10.7567
腦	-10.757
拂	-10.7574
暑	-10.7575
忠烈	-10.7576
降者	-10.758
自取	-10.758
安得	-10.7581
萱	-10.7584
沂	-10.7584
令孜	-10.7584
敬洙	-10.7585
鑾	-10.7586
其死	-10.7586
七萬	-10.7586
仕垂	-10.7587
菜	-10.7589
師次	-10.759
牌	-10.759
矦	-10.759
監察御史	-10.7592
参	-10.7593
駒	-10.7595
汶	-10.7595
炬	-10.7595
蘆	-10.7596
茲	-10.7596
饌	-10.7597
娥	-10.7598
九十	-10.7598
聦	-10.7599
十五里	-10.7599
洮	-10.7599
鞫	-10.7599
飽	-10.76
貺	-10.7601
礪	-10.7601
誇	-10.7601
瞿	-10.7602
七年春正月	-10.7602
挹	-10.7602
撲	-10.7603
岩	-10.7603
讃	-10.7603
貝	-10.7603
浸	-10.7603
稔	-10.7604
碣	-10.7604
吐谷渾	-10.7604
禕	-10.7604
繒	-10.7604
濡	-10.7605
黄眉	-10.7605
歐史	-10.7605
宙	-10.7606
鬚	-10.7606
療	-10.7607
汪	-10.7608
都知兵馬使	-10.7608
佚	-10.7608
弁	-10.7608
堰	-10.7609
㢘	-10.7609
旨	-10.761
闔	-10.761
零陵	-10.761
燃	-10.761
檢校司空	-10.761
渙	-10.761
馮延已	-10.761
紗	-10.7611
驢	-10.7612
浮橋	-10.7612
蕭儼	-10.7612
番	-10.7613
山林	-10.7613
不修	-10.7613
總管	-10.7614
鼠	-10.7615
苴	-10.7616
武成	-10.7617
東平公	-10.7617
蟻	-10.7617
占城來貢	-10.7618
家明	-10.7619
寛厚	-10.762
不起	-10.7621
親戚	-10.7621
分為	-10.7621
頡	-10.7621
以供	-10.7622
修好	-10.7623
撫之	-10.7625
髙駢	-10.7626
兵五千	-10.7628
五千餘人	-10.7628
鯀	-10.7631
友善	-10.7632
延祐	-10.7633
九華	-10.7637
涼州刺史	-10.764
苦之	-10.7642
惟濬	-10.7642
建武將軍	-10.7643
者不	-10.7643
由此	-10.7645
神仙	-10.7646
良久	-10.7647
歸晉	-10.7647
曰今日	-10.765
李筠	-10.7651
嘉平	-10.7654
従善	-10.7656
一條	-10.7658
梁主	-10.766
和州	-10.7661
七里	-10.7665
之威	-10.7669
六州	-10.767
鄭氏	-10.7673
失利	-10.7675
大旱	-10.7675
上庸	-10.7676
祖宗	-10.7678
以鐵	-10.7681
中和	-10.7683
國語	-10.7684
海口	-10.7685
安民	-10.7686
恩信	-10.7688
汀	-10.769
累官至	-10.7695
與俱	-10.7695
羅尚	-10.7695
逃歸	-10.7695
保全	-10.7701
城池	-10.7707
稱為	-10.7709
所稱	-10.7709
東海王	-10.7712
遇之	-10.7712
泰州	-10.7721
彦卿	-10.7726
謂人曰	-10.7728
始終	-10.7728
未易	-10.7728
黨與	-10.773
至城下	-10.7732
高氏	-10.7734
已來	-10.7736
也宜	-10.7736
奉命	-10.7736
兵圍	-10.7737
二十二年	-10.774
忠正	-10.7743
蜀中	-10.7745
鉞	-10.7751
夜襲	-10.7752
有僧	-10.7753
有名	-10.7753
復還	-10.7757
左遷	-10.776
越國	-10.7763
是非	-10.7766
招之	-10.7768
義士	-10.7772
人事	-10.7773
諸生	-10.7775
鎮之	-10.7777
廣順	-10.7779
以降	-10.7782
領軍	-10.7785
庭中	-10.7793
之物	-10.7802
有文	-10.7803
大順	-10.7804
日新	-10.7806
庶子	-10.7807
官軍	-10.7807
牧守	-10.7809
梓	-10.782
高句麗王	-10.7821
劍門	-10.7835
于遼	-10.7838
禆	-10.7839
太原王	-10.7841
投之	-10.7841
不殺	-10.7851
與此	-10.7854
何用	-10.7856
受業	-10.7857
悔之	-10.7861
起居	-10.7862
求救	-10.787
元妃	-10.7877
論功	-10.7886
字季	-10.7886
神明	-10.7891
事大	-10.7895
天威	-10.7896
濱	-10.7896
於天下	-10.7897
惶	-10.7898
其形	-10.7902
杜洪	-10.7903
秦隴	-10.7904
于宋	-10.7914
之主	-10.7927
無異	-10.7931
為司空	-10.7932
國師	-10.7934
可也	-10.7936
勇敢	-10.7939
使至	-10.794
都䕶	-10.7942
引師	-10.7945
不治	-10.7949
大城	-10.7954
入海	-10.7959
兵屯	-10.7959
中郎	-10.7965
宵	-10.7965
二年春三月	-10.7965
軍府	-10.7967
我太祖	-10.7967
則有	-10.797
稱善	-10.7972
之亡	-10.7977
旻	-10.7979
塹	-10.7979
富軾	-10.7981
劫	-10.7984
行也	-10.7985
爨	-10.7987
零	-10.7987
鵲	-10.7988
樞宻	-10.7988
啼	-10.799
甄	-10.7993
綜	-10.7993
絡	-10.7994
嫉	-10.7994
方物	-10.7994
粥	-10.7994
筮	-10.7996
䍧柯	-10.7996
器械	-10.7996
奕干	-10.7996
下邳	-10.7997
是役也	-10.7997
彥	-10.7997
䕃	-10.7998
酣	-10.7998
錦里耆舊傳	-10.8
佯	-10.8
弭	-10.8
蒞	-10.8
絃	-10.8
慘	-10.8
罄	-10.8
擁衆	-10.8001
擔	-10.8001
腸	-10.8001
旗幟	-10.8001
棄城走	-10.8001
户部侍郎	-10.8001
匱	-10.8001
叢	-10.8001
茂貞	-10.8003
羞	-10.8003
蟠	-10.8003
劣	-10.8003
陂	-10.8004
遣其	-10.8005
㷊	-10.8005
陪	-10.8005
驥	-10.8005
囬	-10.8006
羈	-10.8006
夣	-10.8006
殉	-10.8007
平西將軍	-10.8007
公藴	-10.8007
玝	-10.8007
沸	-10.8007
茫	-10.8008
抄	-10.8008
奨	-10.8008
媛	-10.8008
慕輿	-10.8008
有變	-10.8008
衛辰	-10.8009
朱全忠	-10.8009
葭萌	-10.801
顗	-10.801
逄	-10.8011
叩頭	-10.8011
漳州	-10.8011
擕	-10.8011
切齒	-10.8012
必當	-10.8013
公孫述	-10.8014
若有	-10.8015
險阻	-10.8015
地理志	-10.8017
僚屬	-10.8017
桂陽	-10.8018
𤣥喆	-10.8018
州諸軍事	-10.8018
瓉	-10.8018
遣使請	-10.8019
悌	-10.8019
棘城	-10.8019
玫	-10.802
匡範	-10.802
唐道襲	-10.802
劉彦貞	-10.8022
文辭	-10.8023
慕容暐	-10.8024
大興	-10.8029
熙載	-10.803
天竺	-10.803
秦裴	-10.8031
佛寺	-10.8031
故名	-10.8032
勁卒	-10.8034
於姑臧	-10.8035
避亂	-10.8037
永康	-10.8038
開寳中	-10.804
隴上	-10.804
好施	-10.8041
仁裕	-10.8042
太史	-10.8042
知誨	-10.8043
張顥	-10.8044
又使	-10.8047
為樂	-10.8048
昭慶	-10.8048
者甚衆	-10.8048
鎮惡	-10.8048
甚盛	-10.805
食盡	-10.8053
字世	-10.8054
善射	-10.8055
大駕	-10.8057
而走	-10.806
於斯	-10.8062
夷夏	-10.8063
孟氏	-10.8074
鹽鐵	-10.8074
乾化	-10.8075
語曰	-10.8077
之罪也	-10.8078
羣小	-10.8082
兵討	-10.8087
而遣之	-10.8087
北山	-10.8091
大夏	-10.8092
部貟外郎	-10.8093
歴官	-10.8096
後苑	-10.8097
而亡	-10.8099
正言	-10.8099
戰功	-10.8101
得以	-10.8102
獻之	-10.8103
入寇	-10.8107
或謂	-10.8108
聞於	-10.8108
陳璋	-10.8108
吳王曰	-10.8111
咸陽	-10.8112
盛稱	-10.8117
仕至	-10.8117
為天子	-10.8118
安危	-10.8124
為嗣	-10.8124
陳安	-10.8127
臣恐	-10.8127
天祚	-10.8131
或言	-10.8136
衣食	-10.8138
勞之	-10.8139
乃去	-10.8141
以禦	-10.8147
億	-10.8148
莫有	-10.8149
朝鮮	-10.8153
二字	-10.8156
勤王	-10.8156
江中	-10.8159
遣大夫	-10.8161
天時	-10.8165
廣都	-10.8168
復使	-10.8169
軍門	-10.817
侍從	-10.8171
事烈祖	-10.8172
所親	-10.8173
東下	-10.818
都將	-10.8181
餘黨	-10.8182
安縣	-10.8183
復入	-10.8187
有事	-10.819
少時	-10.8192
來迎	-10.8194
蘓	-10.8196
穆帝	-10.8198
於宋	-10.8199
歎曰吾	-10.8199
寳正	-10.82
公輔	-10.8206
二公	-10.8211
玉衡	-10.8211
詣闕	-10.8212
為天下	-10.8216
數十萬	-10.8217
内牙	-10.8224
年十四	-10.8228
家國	-10.823
且言	-10.8235
退而	-10.8235
入洛	-10.8238
不問	-10.8245
敢言	-10.8247
西平公	-10.8248
設伏	-10.8248
嘉興	-10.8249
將張	-10.8249
之要	-10.8252
何故	-10.8256
元達	-10.8256
西海	-10.8256
文徳	-10.8259
吾欲	-10.8259
入内	-10.8263
境上	-10.8271
譔	-10.8274
台州	-10.8275
入自	-10.8276
能詩	-10.8279
唐國	-10.8281
自然	-10.8282
焚其	-10.8283
克復	-10.8284
春正月	-10.8285
求援	-10.8292
謁者	-10.8292
楚之	-10.8292
萬嵗	-10.8293
蘄州	-10.8294
因此	-10.8304
因名	-10.8304
奏曰	-10.8305
歸化	-10.8306
餓	-10.8307
上天	-10.8308
與人	-10.8318
不答	-10.832
西都	-10.832
國夫人	-10.8321
甲兵	-10.8322
乎乃	-10.8323
甚多	-10.8323
一見	-10.8326
何能	-10.8335
議論	-10.8336
聰明	-10.8341
襲殺	-10.8343
威武軍	-10.8344
忠信	-10.8351
而滅	-10.8353
嘗為	-10.8354
二年正月	-10.836
十餘里	-10.8363
舉進士	-10.8364
文義	-10.8365
𢎞農	-10.8365
引去	-10.8366
百艘	-10.8366
處之	-10.8369
五里	-10.837
次于	-10.8374
檢討吳任臣撰	-10.8375
不拜	-10.8381
州之地	-10.8386
降宋	-10.839
紀年	-10.8391
辜	-10.8391
還至	-10.8391
鎰	-10.8395
四年春三月	-10.8396
賧	-10.8397
論者	-10.8399
兗	-10.84
待以	-10.8401
不載	-10.8403
佶	-10.8403
膝	-10.8404
譬	-10.8404
蹇	-10.8405
積功至	-10.8406
輔國	-10.8407
矣今	-10.8407
嶠	-10.8407
乃殺	-10.8408
鬱	-10.8408
徇	-10.8409
稻	-10.8409
赫連勃勃	-10.841
燎	-10.841
淡	-10.841
雲中	-10.841
陀	-10.841
尹緯	-10.841
葺	-10.8411
廷珪	-10.8411
時晉	-10.8411
䑓	-10.8411
塑	-10.8411
餽	-10.8412
安南國王	-10.8413
嬰城固守	-10.8413
鎔	-10.8413
涯	-10.8414
乞伏乾歸	-10.8414
三十萬	-10.8414
牆	-10.8414
印綬	-10.8414
禳	-10.8415
工部尚書	-10.8417
疾陸眷	-10.8417
態	-10.8417
善騎射	-10.8417
僭即皇帝位	-10.8419
貞懿王	-10.8419
酌	-10.8419
柰	-10.842
携	-10.842
能屬文	-10.8421
雷電	-10.8421
不知何許人	-10.8421
趙廷隠	-10.8422
禅	-10.8422
購	-10.8423
逈	-10.8423
遼西王農	-10.8423
袴	-10.8423
湏	-10.8424
竟以	-10.8425
僅以身免	-10.8425
牓	-10.8426
慕容冲	-10.8426
凢	-10.8427
顔色	-10.8427
址	-10.8428
槊	-10.8428
表裏	-10.8429
中書省	-10.8429
汝等	-10.8429
矟	-10.843
廬江	-10.843
伏波	-10.843
装	-10.843
苻丕	-10.843
据	-10.843
衢州	-10.8432
瑗	-10.8432
而遁	-10.8432
誅戮	-10.8433
有大功	-10.8434
魏太祖	-10.8435
珝	-10.8438
盧絳	-10.8438
黎桓	-10.8438
張蚝	-10.844
繼岌	-10.844
徐綰	-10.8441
范蠡曰	-10.8444
滁州	-10.8444
李重進	-10.8446
弗許	-10.8447
貴妃	-10.845
三國	-10.845
首尾	-10.8451
登岸	-10.8456
之議	-10.8456
慕容永	-10.8456
陜城	-10.8457
天之	-10.8457
二縣	-10.8461
至鄴	-10.8464
也願	-10.8465
給之	-10.8465
彦恭	-10.8465
氐羌	-10.8466
在外	-10.8468
江山	-10.847
居中	-10.8472
兵部	-10.8473
遼主	-10.8476
從効	-10.8477
虚白	-10.8478
承嗣	-10.8479
樂安	-10.8481
盡心	-10.8485
固讓	-10.8486
年十三	-10.8488
威儀	-10.8489
無厭	-10.8489
繼業	-10.8491
奄有	-10.8492
得幸	-10.8493
固諫	-10.8494
永寧	-10.8498
臨川	-10.8501
寧州刺史	-10.8502
宜速	-10.8503
保寧	-10.8509
薨於	-10.8512
一副	-10.8513
無禮	-10.8513
略地	-10.8515
成公	-10.8515
雅有	-10.8517
退走	-10.8518
時政	-10.8519
貢方物	-10.852
秦川	-10.8526
王即位	-10.8529
唐明宗	-10.8535
不少	-10.8536
所逼	-10.854
袁州	-10.8546
勲舊	-10.8548
大雪	-10.8551
不中	-10.8553
必死	-10.8563
事君	-10.8564
從謙	-10.8565
必欲	-10.8566
車馬	-10.8567
民家	-10.8573
以書	-10.8575
者無	-10.8579
唐莊宗	-10.8582
太白	-10.8583
延昌	-10.8585
自今	-10.8587
獨不	-10.8589
謂我	-10.8591
之力也	-10.8593
少而	-10.8594
帝王之	-10.8594
所重	-10.8597
親吏	-10.8598
趙魏	-10.8599
姜維	-10.8604
改正	-10.8604
罵曰	-10.8605
棄官	-10.8608
宴羣臣	-10.8613
砂	-10.8615
州觀察使	-10.8619
二十七	-10.8621
光業	-10.863
二十六	-10.8631
立為太子	-10.8634
四門	-10.8634
軍府事	-10.8635
氏為皇太后	-10.8637
著述	-10.8637
張業	-10.8638
來使	-10.8638
據有	-10.8639
但以	-10.8643
其辭	-10.8645
益兵	-10.8646
也後	-10.8652
遂至	-10.8655
大掠	-10.8657
民皆	-10.8659
師敗績	-10.8661
後漢	-10.8663
以攻	-10.8664
生民	-10.8669
有如此	-10.867
齊名	-10.8671
孝子	-10.8675
縱兵	-10.8678
遁還	-10.8679
復遣使	-10.868
苑中	-10.8683
髙陽	-10.8686
五子	-10.8687
淮南將	-10.869
立為	-10.869
一子	-10.8692
日本	-10.8695
王延政	-10.8698
𢎞始	-10.8703
又常	-10.8706
梁太祖	-10.8712
為副	-10.8713
之戰	-10.8714
上元	-10.8715
不恤	-10.8723
乃退	-10.8726
之境	-10.8726
汝曹	-10.873
曰大王	-10.8738
攻圍	-10.874
北方	-10.8741
曰諾	-10.8743
于上	-10.8751
上右	-10.8752
害之	-10.8755
靜江	-10.8762
武陽	-10.8763
南城	-10.8764
重建	-10.8765
不還	-10.8765
縱火	-10.8766
入白	-10.877
嘉其	-10.8771
南伐	-10.8776
張崇	-10.8779
不仕	-10.8784
曹公	-10.8785
爲太子	-10.8787
曰天下	-10.8788
至姑臧	-10.8788
七嵗	-10.8792
郴州	-10.88
猶存	-10.8802
全斌	-10.8805
因謂	-10.8807
奈	-10.8815
漢書	-10.8817
死亡	-10.8819
成王	-10.8821
重進	-10.8823
藴	-10.8823
慨	-10.8825
怖	-10.8826
無一	-10.8831
憫	-10.8831
茂虔	-10.8831
羆	-10.8839
栢	-10.8839
咫尺	-10.884
籌	-10.8841
梗	-10.8842
訊	-10.8843
太平興國	-10.8845
挽	-10.8846
槖	-10.8846
弃	-10.8846
褥	-10.8847
我也	-10.8848
衫	-10.8848
斐	-10.8848
鴈	-10.8848
緝	-10.8849
脚	-10.8849
磐	-10.8849
入侍	-10.885
床	-10.885
詬	-10.8851
粒	-10.8851
魏王繼岌	-10.8851
覊	-10.8851
刺之	-10.8852
矧	-10.8852
灘	-10.8852
帷	-10.8852
無故	-10.8853
傭	-10.8853
司隸校尉	-10.8853
謔	-10.8853
撤	-10.8854
倪	-10.8854
恊	-10.8854
岷	-10.8855
𥙷	-10.8855
全州	-10.8855
殱	-10.8855
庇	-10.8857
浄	-10.8858
建節將軍	-10.8858
糞	-10.8858
魴	-10.8859
騎兵	-10.8859
械	-10.8859
豚	-10.8859
迅	-10.8859
猗	-10.886
齊王景達	-10.886
俠	-10.886
玉璽	-10.886
郤	-10.8861
簫	-10.8861
殤帝	-10.8862
曇逹	-10.8862
屡	-10.8863
神武統軍	-10.8863
昪	-10.8863
功曺	-10.8863
遣使貢	-10.8863
乘輿	-10.8863
率衆三萬	-10.8864
㫄	-10.8865
崔瑩	-10.8865
冀州牧	-10.8866
泮	-10.8866
貞元十年	-10.8867
伶人	-10.8867
領縣二	-10.8867
羲範	-10.8867
文德	-10.8867
孕	-10.8869
辤	-10.8869
裘	-10.8869
貫休	-10.887
酒泉太守	-10.887
丞相亮	-10.887
盗賊	-10.8872
玗	-10.8873
范子曰	-10.8873
樓船	-10.8873
帥歩騎	-10.8874
嚴兵	-10.8874
江南野史云	-10.8876
求之	-10.8876
年三十	-10.8877
𢎞臯	-10.8879
西方	-10.8879
有三	-10.888
龍編	-10.8881
元徽	-10.8883
牙内	-10.8883
第三子也	-10.8885
機務	-10.8885
數十里	-10.8887
陳洪進	-10.8887
欣然	-10.8888
去洛	-10.8888
二旬	-10.8889
輕舟	-10.889
倉卒	-10.889
大鴻臚	-10.8893
蜀郡太守	-10.8893
李煜	-10.8894
青州刺史	-10.8894
銅錢	-10.8894
長樂公	-10.8896
之位	-10.8897
閬中	-10.8897
不盡	-10.8898
不従	-10.8899
青衣	-10.8902
秦姚興	-10.8902
思謙	-10.8903
廵官	-10.8905
乞師於	-10.8906
治兵	-10.8907
止之曰	-10.8907
元龜	-10.8907
以身	-10.8908
遂有	-10.891
益急	-10.8912
下吏	-10.8914
於世	-10.8914
於平陽	-10.8916
乃令	-10.8916
樂平	-10.8916
元宗即位	-10.8916
獻馬	-10.8918
來告	-10.8922
光啟	-10.8922
朝野	-10.8924
千餘家	-10.8925
皆殺之	-10.8927
備史	-10.893
强盛	-10.893
名也	-10.8931
存焉	-10.8932
吳越國王	-10.8934
依前	-10.8934
左右皆	-10.8935
使王	-10.8937
率騎二萬	-10.8937
踰年	-10.894
相謂曰	-10.8942
十數	-10.8944
未足	-10.8946
襲之	-10.895
於越	-10.8951
顯德	-10.8951
青山	-10.8952
七十餘	-10.8955
東井	-10.8956
虎臺	-10.8959
光曰	-10.8961
亦可	-10.8965
便宜	-10.8967
乘馬	-10.8969
叛亂	-10.897
以取	-10.8974
光嗣	-10.8979
奉化	-10.8979
南鄭	-10.8979
上将軍	-10.8979
勝負	-10.898
同日	-10.8983
尚有	-10.8984
宥之	-10.8985
望見	-10.8986
祭之	-10.8986
鄰國	-10.8988
無人	-10.8991
寧江	-10.8993
安可	-10.8998
在位十	-10.9
后妃	-10.9005
累世	-10.9005
所及	-10.9013
用為	-10.9018
八都	-10.9023
曾祖	-10.9031
表求	-10.9033
晉髙祖	-10.9034
人莫	-10.9037
唐書	-10.9038
賞賜	-10.9047
上谷	-10.9047
王召	-10.9051
髙昌	-10.9059
朔日食	-10.9061
人無	-10.9062
封王為	-10.9062
乞師于	-10.9065
詩賦	-10.9068
二十餘萬	-10.9071
辭以	-10.9083
尚父	-10.9091
何人	-10.9094
不滿	-10.9099
神宗	-10.9105
君長	-10.9107
進討	-10.911
單馬	-10.9111
又言	-10.9112
碑文	-10.9113
之黨	-10.9113
南陽王	-10.9115
定公	-10.9119
之化	-10.9125
吳興	-10.9126
賊衆	-10.9127
嗣王	-10.9127
老臣	-10.9129
成帝	-10.9129
聲色	-10.9133
于内	-10.9136
猶不	-10.9139
後主命	-10.9145
怒殺之	-10.9146
復置	-10.9157
不能制	-10.9159
致討	-10.9159
飛龍	-10.9163
七人	-10.9163
相望	-10.9172
于朝	-10.9173
王綂	-10.9181
隨之	-10.9184
永為	-10.9184
諸縣	-10.9189
秦兵	-10.9192
哀之	-10.9194
吳主	-10.9194
小城	-10.9195
者莫不	-10.9197
而得	-10.9201
所欲	-10.9202
聰以	-10.9202
水道	-10.9205
皇子	-10.9207
其勢	-10.9208
南州	-10.9212
於朝	-10.9213
武勇	-10.9217
貟外郎	-10.9217
金山	-10.9217
汀州	-10.9218
兵士	-10.9223
漢主	-10.9225
先王之	-10.9226
秦人	-10.9227
骨肉	-10.9227
天師	-10.9228
為皇后	-10.9229
二十萬	-10.923
以討	-10.924
此事	-10.9242
龍門	-10.9248
為患	-10.9249
於上	-10.925
縊	-10.9253
而自	-10.9257
從行	-10.9259
降魏	-10.9259
遂斬	-10.9261
顒	-10.9262
聖徳	-10.9262
出城	-10.9263
重光	-10.9263
不亦	-10.9265
楚國	-10.9275
鄴都	-10.9281
多少	-10.9286
裳	-10.9288
諤	-10.9289
彦瑫	-10.929
秃	-10.9292
㒺	-10.9293
廪	-10.9294
彭州	-10.9295
珣	-10.9295
悛	-10.9295
匣	-10.9297
槃	-10.9298
喉	-10.93
瑤	-10.93
生而	-10.93
戢	-10.93
瓜	-10.93
坂	-10.9301
劵	-10.9302
瑜	-10.9302
折衝將軍	-10.9302
元子	-10.9302
高句驪	-10.9303
爇	-10.9303
耆老	-10.9303
歐	-10.9303
涼州牧	-10.9303
牟尋	-10.9305
隴右	-10.9305
寖	-10.9305
復召	-10.9305
打	-10.9306
刑部尚書	-10.9306
慿	-10.9306
金紫光禄大夫	-10.9307
摘	-10.9307
朋	-10.9307
通和	-10.9307
舶	-10.9307
咏	-10.9308
廐	-10.9308
渴	-10.9309
金墉	-10.9309
衢州刺史	-10.9309
連重遇	-10.931
鄧艾	-10.931
景逷	-10.931
鈴	-10.931
死子	-10.9311
凋	-10.9311
淝	-10.9311
希蕚	-10.9311
左賢王	-10.9312
馴	-10.9312
去就	-10.9312
僚佐	-10.9312
漫	-10.9312
畆	-10.9312
琮	-10.9312
貟	-10.9312
售	-10.9312
揣	-10.9312
華陽國志卷	-10.9313
隻	-10.9313
鎖	-10.9313
交趾	-10.9313
潁川	-10.9313
剽	-10.9313
軄	-10.9314
侍臣	-10.9314
其詞	-10.9314
趙廷隱	-10.9315
鋹	-10.9315
嘯	-10.9315
曼	-10.9316
李齊賢	-10.9316
鄱陽	-10.9316
墊江	-10.9318
陽平公融	-10.9318
箋	-10.9318
尓	-10.9318
剽掠	-10.9319
左衞將軍	-10.9319
軍政	-10.932
先世	-10.932
掛	-10.9321
悪	-10.9321
保朂	-10.9321
延鲁	-10.9322
都部署	-10.9322
挑戰	-10.9323
匡凝	-10.9324
熾盤	-10.9324
以罪	-10.9324
羣盗	-10.9325
樞宻使	-10.9325
不相能	-10.9325
浙西	-10.9327
年八十	-10.9327
姑蘇	-10.9328
逾年	-10.9329
杏城	-10.9331
郊迎	-10.9332
一軍	-10.9333
主也	-10.9334
它日	-10.9335
來襲	-10.9335
大司農	-10.9339
章句	-10.9339
賢妃	-10.934
仁逹	-10.9341
青城山	-10.9344
儒者	-10.9346
袁州刺史	-10.9347
秘書郎	-10.9348
不允	-10.9349
之路	-10.935
族子	-10.9352
遣别將	-10.9352
中常侍	-10.9353
遺愛	-10.9356
百户	-10.9357
周太祖	-10.9358
通鑑作	-10.9359
之職	-10.936
言訖	-10.936
之遺	-10.9362
龍鳳	-10.9364
數千里	-10.9364
男成	-10.9365
實錄	-10.9366
鍾傳	-10.9366
武義	-10.9381
太寧	-10.9383
叛者	-10.9383
百口	-10.9385
張格	-10.9385
不協	-10.9385
隠居	-10.9386
行者	-10.9387
後改	-10.9388
堅壁	-10.9389
建封	-10.9389
國仁	-10.9392
非是	-10.9394
何敢	-10.9397
傳首	-10.9397
不入	-10.9401
獲罪	-10.9402
名將	-10.9402
春三月	-10.9405
渝	-10.9408
奔走	-10.941
餘皆	-10.9411
漁者	-10.9412
氏女	-10.9414
正色	-10.9418
九人	-10.9419
與子	-10.942
以女妻之	-10.9422
大江	-10.9423
而况	-10.9423
為安南都䕶	-10.9426
無賴	-10.9428
不能克	-10.943
學校	-10.9431
經營	-10.9435
兵敗	-10.9437
於道	-10.944
令支	-10.9444
退居	-10.9449
交通	-10.9449
明帝	-10.945
恨之	-10.9451
奄至	-10.9454
不改	-10.9458
景福	-10.9467
始祖	-10.9467
一也	-10.9469
性剛	-10.9471
水火	-10.9473
遂據	-10.9473
名號	-10.9475
上疏曰	-10.9477
萬七千	-10.9479
所掠	-10.948
于梁	-10.9481
是爲	-10.9484
既死	-10.9486
亦何	-10.9487
得志	-10.9487
師敗	-10.949
其心	-10.9491
平章	-10.9494
太安	-10.9495
故人	-10.9501
稱制	-10.9508
不逮	-10.9511
送欵	-10.9514
言者	-10.9514
彭城王	-10.9515
太興	-10.9517
威徳	-10.9518
遂平	-10.952
以濟	-10.9521
中國之	-10.9521
養之	-10.9526
愛州	-10.9528
也昔	-10.953
者故	-10.9531
臨朝	-10.9534
興遣	-10.9535
可取	-10.954
中尉	-10.954
為右僕射	-10.9543
或以	-10.9543
法正	-10.9546
和親	-10.9547
千疋	-10.955
平凉	-10.955
今以	-10.9552
制授	-10.9553
不降	-10.9555
他人	-10.9556
再用	-10.9558
皆云	-10.956
非也	-10.9564
宗壽	-10.9564
漳水	-10.9565
太公	-10.9565
不返	-10.9568
乃引	-10.9568
男子	-10.957
汲郡	-10.9571
西土	-10.9576
二十三年	-10.9576
梁益	-10.9581
徳之	-10.9581
安樂	-10.9583
不能守	-10.9591
知人	-10.9593
所滅	-10.96
舊都	-10.9601
大度	-10.9606
不仁	-10.961
鎮東	-10.9611
三臺	-10.9617
五十里	-10.9618
和好	-10.9624
留之	-10.9624
皆稱	-10.9625
二十九	-10.9629
金州	-10.9632
病死	-10.9632
遺令	-10.9637
葬於	-10.9643
未至而	-10.9643
亡國之	-10.9649
師旅	-10.965
人君	-10.9652
堅遣	-10.9654
其使	-10.9655
團練使	-10.9657
其故	-10.9657
降唐	-10.9662
終身	-10.9669
無嗣	-10.967
明德	-10.9678
以資	-10.9682
正直	-10.9687
惟有	-10.9697
賜姓	-10.9698
還成都	-10.9699
建徳	-10.9703
諸書	-10.9708
一本	-10.9711
季子	-10.9712
之兆	-10.9714
終於	-10.9719
與兄	-10.9719
贈太師	-10.972
過也	-10.972
幼而	-10.9724
報之	-10.9724
繼文	-10.9725
以後事	-10.9728
然自	-10.9729
傳曰	-10.9733
從征	-10.9734
南越王	-10.9738
貞觀	-10.9739
吾今	-10.974
西戎	-10.9746
因命	-10.9747
不明	-10.9747
漳	-10.975
涕	-10.9752
拜為	-10.976
高陽王隆	-10.9761
起復	-10.9762
請罪	-10.9763
軍前	-10.9765
若此	-10.9765
申包胥	-10.9766
縣南	-10.9767
皆死	-10.9768
故得	-10.9769
綾	-10.9769
盆	-10.9771
曹嶷	-10.9772
糾	-10.9772
氛	-10.9773
旄	-10.9773
耽	-10.9775
須臾	-10.9775
伴	-10.9776
公孫聖	-10.9776
轡	-10.9778
人言	-10.9778
疽	-10.9779
為郡	-10.9779
芻	-10.9779
宋繇	-10.9779
衆寡不敵	-10.9779
刄	-10.978
忤㫖	-10.978
攷	-10.978
鍊	-10.9781
緇	-10.9781
糜	-10.9781
拳	-10.9781
纒	-10.9782
征南大將軍	-10.9782
郄	-10.9782
拾遺	-10.9782
若干卷	-10.9782
懾	-10.9783
晉主	-10.9783
元璙	-10.9783
弇	-10.9783
鈔	-10.9783
山南西道節度使	-10.9784
異牟尋	-10.9784
柯	-10.9784
長水校尉	-10.9785
賞罰	-10.9785
奴婢	-10.9785
帽	-10.9785
架	-10.9785
沆	-10.9785
榻	-10.9786
宣徽使	-10.9786
賻	-10.9786
勳	-10.9787
販	-10.9787
元黎崱撰	-10.9787
酖	-10.9787
萬泥	-10.9787
陸游南唐書	-10.9787
桂管	-10.9788
玠	-10.9789
羈縻	-10.9789
薰	-10.9789
戎狄	-10.979
弦	-10.9791
舉秀才	-10.9791
燾	-10.9791
紳	-10.9791
桂林	-10.9791
汶山	-10.9791
皇甫暉	-10.9791
追及	-10.9793
闐	-10.9793
􁪽	-10.9793
粮	-10.9793
牲	-10.9793
闘	-10.9794
鄧羌	-10.9795
鳶	-10.9795
羅什	-10.9795
而上	-10.9796
羣盜	-10.9797
秦始皇	-10.9797
山縣	-10.9798
白雀	-10.9798
徤	-10.98
以計	-10.98
羽林	-10.9801
宋光嗣	-10.9803
綱紀	-10.9806
空虚	-10.9806
諸樊	-10.9806
鞍馬	-10.9808
衞將軍	-10.9808
緘	-10.9809
錢帛	-10.9811
莫知其	-10.9812
珍寶	-10.9812
懷恩	-10.9815
經籍	-10.9815
不煩	-10.9817
謡曰	-10.9817
鐵錢	-10.9817
府中	-10.9819
二百餘人	-10.9822
文傑	-10.9823
權翼	-10.9823
詳具	-10.9823
烘人	-10.9826
浮梁	-10.9826
之說	-10.9826
天台	-10.9826
是何	-10.9827
請和	-10.9828
要離	-10.9833
通鑑云	-10.9833
力屈	-10.9834
涪城	-10.9839
錢唐	-10.9839
武功	-10.984
舉族	-10.984
形勢	-10.984
聞其名	-10.9841
優詔	-10.9841
昭度	-10.9842
李肇	-10.9844
為都䕶	-10.9845
王宗侃	-10.9846
登樓	-10.9846
欲取	-10.985
犯法	-10.985
共推	-10.9851
將兵救	-10.9852
威福	-10.9854
彭年	-10.9855
釋氏	-10.9856
為左僕射	-10.9857
登第	-10.9858
全軍	-10.9859
守忠	-10.986
守貞	-10.986
麗水	-10.9863
異人	-10.9868
之本	-10.9869
之狀	-10.987
慰諭	-10.9873
都監使	-10.9876
互相	-10.9877
六人	-10.9878
光庭	-10.9881
臨終	-10.9884
東苑	-10.9884
劉淵	-10.9885
四十年	-10.9885
無名	-10.9885
相去	-10.9887
滅亡	-10.9888
治之	-10.9888
厚禮	-10.9889
唐以	-10.989
累加	-10.9893
其本	-10.9894
分遣	-10.9895
方今	-10.9896
於南郊	-10.9896
北門	-10.9898
元年春三月	-10.9904
彦能	-10.9908
塗山	-10.9909
其議	-10.991
晏然	-10.9918
厚加	-10.9922
蠻賊	-10.9925
卒諡曰	-10.9925
幽冀	-10.9926
所撰	-10.9926
便殿	-10.9927
居恒	-10.9928
輕重	-10.9931
𢎞昌	-10.9932
等物	-10.9934
馬上	-10.9937
安南志畧卷	-10.9938
王永	-10.9939
其君	-10.9939
燉煌人	-10.9941
退守	-10.9943
百尺	-10.9946
遐方	-10.9946
匡國	-10.9948
萬一	-10.9954
等謀	-10.9954
之失	-10.9954
下士	-10.9955
封奕	-10.9955
仁任	-10.9957
平視	-10.9957
清風	-10.9958
其一	-10.9962
立廟	-10.9962
兵已	-10.9963
謂羣臣曰	-10.9969
白雲	-10.9969
朝服	-10.9973
義存	-10.9975
及還	-10.9977
賞之	-10.9981
佐命	-10.9981
平郭	-10.9983
必矣	-10.9988
太祖曰	-10.9988
西陵	-10.9989
淮北	-10.9989
白衣	-10.9989
奉之	-10.9991
定逺	-10.9991
不虞	-11.0009
守素	-11.0009
溺死	-11.0012
此言	-11.0012
俟其	-11.0018
曰非	-11.002
楊定	-11.0022
因與	-11.003
今則	-11.0034
酷好	-11.0035
攻拔	-11.0036
華陽	-11.0037
進忠	-11.0038
三輔	-11.0038
不才	-11.0039
議之	-11.0046
征之	-11.0047
六百	-11.0052
義不	-11.0058
豈能	-11.0062
貞元	-11.0066
遂留	-11.0071
得無	-11.0073
比之	-11.0077
皆在	-11.0081
生死	-11.0084
率所部	-11.0085
來救	-11.0086
嘉其忠	-11.0088
及弟	-11.0088
師道	-11.0092
去年	-11.0094
高平	-11.0102
凉王	-11.0113
曰賊	-11.0119
雅善	-11.0122
温州	-11.013
改曰	-11.013
初與	-11.013
他國	-11.0134
公私	-11.0136
非常之	-11.0136
於蜀	-11.0137
武皇帝	-11.0144
王御	-11.0145
復歸	-11.0147
吾屬	-11.0148
西奔	-11.0156
當為	-11.0158
於南	-11.0159
等帥	-11.0161
又改	-11.0162
事具	-11.0166
太山	-11.0168
常有	-11.0188
尤工	-11.0189
不悅	-11.0194
遂殺	-11.0194
顯徳五年	-11.0197
人也初	-11.0197
白日	-11.0197
五百人	-11.0205
字景	-11.0206
又置	-11.0208
天使	-11.0211
字君	-11.0212
故有	-11.0213
莽	-11.0222
隱帝	-11.0223
干將	-11.0225
可與	-11.0227
李遇	-11.0229
使來	-11.0233
行在	-11.0235
託以	-11.0236
之道也	-11.0236
示以	-11.0238
敢不	-11.024
葬于	-11.0245
入唐	-11.0245
非有	-11.0246
一丈	-11.0247
刺殺	-11.0251
已破	-11.0257
甚重	-11.0257
僉議	-11.0259
珦	-11.026
蝗	-11.0261
閎	-11.0262
挈	-11.0262
國史	-11.0263
武衛將軍	-11.0263
復取	-11.0264
奏事	-11.0266
蕘	-11.0266
鴟	-11.0268
滔	-11.0268
無敢	-11.027
黎元	-11.027
啇	-11.0272
碁	-11.0272
堆	-11.0272
炙	-11.0273
攘袂	-11.0273
縷	-11.0275
寧朔將軍	-11.0275
脂	-11.0275
嶲	-11.0276
攘	-11.0276
竢	-11.0276
檻	-11.0279
㳟	-11.0279
婿	-11.0279
莭度	-11.0279
睡	-11.028
話	-11.028
頊	-11.0281
囿	-11.0281
藍	-11.0281
璣	-11.0282
映	-11.0283
蹄	-11.0283
翳	-11.0283
斾	-11.0284
不義	-11.0285
散騎侍郎	-11.0285
榆	-11.0285
聳	-11.0286
鉤	-11.0286
吕師造	-11.0286
給事黄門侍郎	-11.0287
食不	-11.0287
慕輿根	-11.0287
確	-11.0287
大言	-11.0287
鳯翔	-11.0288
海島	-11.0288
鉅鹿	-11.0288
妬	-11.0288
綬	-11.0289
剥	-11.0289
安重誨	-11.0289
仆	-11.0289
揔	-11.029
玢	-11.029
笏	-11.029
傳璙	-11.029
耶律	-11.0291
宗廟社稷	-11.0291
寧國軍節度使	-11.0292
烈祖受禪	-11.0292
端拱	-11.0292
四尺	-11.0293
鶚	-11.0293
銷	-11.0293
郭黁	-11.0293
釘	-11.0293
嬉	-11.0293
動静	-11.0293
爪牙	-11.0294
扣	-11.0294
封齊王	-11.0294
滑臺	-11.0295
倉庫	-11.0295
秘書	-11.0296
寒暑	-11.0297
伽	-11.0297
軟	-11.0298
闊	-11.0298
蔵	-11.0298
潯陽	-11.03
媪	-11.03
也時	-11.03
稽首	-11.03
武興	-11.03
容貌	-11.0301
中郎将	-11.0302
武侯	-11.0302
無辜	-11.0303
又賜	-11.0303
帥衆二萬	-11.0306
昭恵	-11.0307
邏	-11.031
佃	-11.0311
領䕶	-11.0311
中間	-11.0313
瓚	-11.0313
二州牧	-11.0314
珍寳	-11.0314
今日之	-11.0316
文鴦	-11.0316
有大志	-11.0317
昇州刺史	-11.0317
宗社	-11.0318
又敗	-11.032
以竹	-11.0321
使周	-11.0321
報仇	-11.0322
保貞	-11.0324
水旱	-11.0324
為太傅	-11.0326
詰之	-11.0326
有四	-11.0326
慎勿	-11.0327
下令曰	-11.0328
又進	-11.0328
安帝	-11.0328
不安	-11.0331
人初	-11.0332
又令	-11.0334
要害	-11.0334
之節	-11.0335
忠誠	-11.0336
未成	-11.0337
敗于	-11.0338
無筭	-11.0339
建鋒	-11.034
畏之	-11.0343
光啓	-11.0343
閬中人	-11.0346
以弟	-11.0346
節鎮	-11.0349
臨刑	-11.035
專諸	-11.0351
明年春	-11.0353
平壤	-11.0354
有五	-11.0357
刑政	-11.0357
百司	-11.0358
事太祖	-11.0359
忠貞	-11.0359
興復	-11.0359
承勲	-11.0361
為君	-11.0365
之𩔖	-11.0366
馬令	-11.0366
不疑	-11.0366
矣然	-11.0366
引退	-11.0367
後將軍	-11.0368
盡其	-11.0372
之族	-11.0376
興元年	-11.0376
奉貢	-11.0376
力學	-11.0382
漢末	-11.0382
既平	-11.0383
乃立	-11.0385
泗州	-11.0385
祀之	-11.0387
實録	-11.0387
五千人	-11.0388
其軍	-11.039
晉遣	-11.039
車服	-11.0394
仰天	-11.0398
避難	-11.0398
風吹	-11.0399
拔之	-11.0401
又請	-11.0403
畧地	-11.0403
遇賢	-11.0407
勅授王	-11.0409
而未	-11.0409
行矣	-11.0412
為内應	-11.0412
所推	-11.0413
人望	-11.0414
吴王	-11.0417
拒命	-11.0417
侯王	-11.0418
大哭	-11.0418
主人	-11.0418
所置	-11.0419
優禮	-11.0419
相接	-11.0419
宜春	-11.0422
新昌	-11.0423
遂克	-11.0423
武定	-11.0424
方畧	-11.0428
北朝	-11.0434
五郡	-11.0436
多矣	-11.044
老矣	-11.044
被誅	-11.0441
效之	-11.0441
入爲	-11.0449
桓帝	-11.045
戒之	-11.0452
易之	-11.0452
字𤣥	-11.0453
少卿	-11.0454
淮上	-11.0457
山澤	-11.0458
歸朝	-11.046
不待	-11.0461
王妃	-11.0461
貢賦	-11.0461
自領	-11.047
都䕶府	-11.0474
精卒	-11.0474
為淮南	-11.0475
不濟	-11.0479
錦繡	-11.0479
其忠	-11.048
青陽	-11.0481
於河	-11.0485
相應	-11.0486
千萬	-11.0491
乘其	-11.0492
士也	-11.0492
因事	-11.0495
國士	-11.0499
若斯	-11.0501
命世	-11.0503
可稱	-11.0504
可觀	-11.0506
為賊所	-11.0506
李農	-11.0508
之後也	-11.0508
廣德	-11.0509
終不能	-11.0511
東川節度使	-11.0513
一身	-11.0517
譲皇	-11.0519
簡言	-11.052
不雨	-11.052
著名	-11.0523
兵三萬	-11.0524
復見	-11.0524
安南都䕶	-11.0526
經義	-11.0528
其身	-11.0529
自當	-11.053
軍糧	-11.053
十二人	-11.0537
蜀之	-11.0539
之由	-11.054
治中	-11.0542
王尚	-11.0552
軍容	-11.0553
戰士	-11.0553
年月	-11.0555
新羅王	-11.0558
乞降	-11.0559
銀器	-11.0561
復叛	-11.0562
廢立	-11.0563
瘞	-11.0565
東遷	-11.0567
五丈	-11.0569
少長	-11.0569
郡國	-11.0569
或問	-11.0574
閉城	-11.0575
将吏	-11.0581
歸順	-11.0584
二十三	-11.059
北伐	-11.0591
以手	-11.0591
臣誠	-11.0593
吉州	-11.0598
遂降	-11.0599
劉信	-11.0599
悉平	-11.061
百濟王	-11.0611
入成都	-11.0612
者是	-11.0615
朝天	-11.0615
無能	-11.0619
城邑	-11.062
晉州	-11.0622
丈餘	-11.0622
高祖時	-11.0623
於襄國	-11.0624
一如	-11.0625
遂州	-11.0628
當先	-11.0628
軍民	-11.0629
立妻	-11.063
六郡	-11.0632
之邦	-11.0634
人也父	-11.0634
去之	-11.0635
澄曰	-11.064
黄帝	-11.0652
驩	-11.0655
字德	-11.0655
乎今	-11.0659
道者	-11.0662
自陳	-11.0663
名臣	-11.0664
稱皇帝	-11.0666
聲聞	-11.0672
為燕	-11.0683
吏部	-11.0686
榮之	-11.0698
入府	-11.0699
之北	-11.0699
自後	-11.0701
將何以	-11.0704
二十一	-11.0705
母妻	-11.0705
四卷	-11.071
卒年五十	-11.0718
之㑹	-11.0721
萬國	-11.0722
千餘級	-11.0723
有頃	-11.0729
求和	-11.073
之徳	-11.0734
之義也	-11.0734
共攻	-11.0735
六七	-11.0746
忽有	-11.0746
將何	-11.0747
攻取	-11.0748
朗兵	-11.0749
晉昌	-11.075
門人	-11.075
莫知	-11.0754
師還	-11.0754
中正	-11.0759
胡子	-11.0759
為太守	-11.0759
之始	-11.0763
鎮將	-11.0764
忽見	-11.0764
以救	-11.0765
将相	-11.0766
三十餘	-11.0769
知政事	-11.0769
今從之	-11.0771
諜	-11.0772
上洛	-11.0775
慟	-11.078
廢之	-11.0781
然也	-11.0781
豺	-11.0782
王承	-11.0784
富沙王	-11.0786
所過	-11.079
篋	-11.079
槐	-11.0791
必無	-11.0791
耽羅	-11.0794
安逺將軍	-11.0794
跳	-11.0794
置之	-11.0796
嬪	-11.0797
王孫駱	-11.0797
張豺	-11.0798
赫連	-11.0799
駁	-11.0799
異常	-11.08
稠	-11.0802
濯	-11.0802
贊成事	-11.0802
鏢	-11.0803
現	-11.0804
堦	-11.0804
任用	-11.0804
狠	-11.0804
攬	-11.0804
覔	-11.0804
彧	-11.0805
盍	-11.0805
馘	-11.0806
奉朝請	-11.0806
鉅	-11.0806
盪	-11.0806
即帝位	-11.0806
撞	-11.0807
存瓌	-11.0807
幄	-11.0807
芒	-11.0807
呌	-11.0807
秉彛	-11.0808
有是命	-11.0808
訃	-11.0808
丐	-11.0808
翕然	-11.0809
治中從事	-11.0809
芙蓉	-11.0809
叨	-11.0809
儀同三司	-11.081
逸豆歸	-11.081
行營招討使	-11.081
彭師暠	-11.081
髦	-11.081
控鶴	-11.081
甌	-11.081
漁父	-11.081
毘陵	-11.0811
六年春二月	-11.0811
姧	-11.0811
騷	-11.0811
奎	-11.0811
韙	-11.0811
孫光憲	-11.0812
瞽	-11.0812
雌	-11.0812
爪	-11.0812
世子惟濬	-11.0812
兔	-11.0812
蚤	-11.0813
辛禑	-11.0814
簷	-11.0814
諸將皆	-11.0815
彞	-11.0815
三秦	-11.0815
昬	-11.0815
師鐸	-11.0815
衾	-11.0815
煮	-11.0815
艷	-11.0817
宣諭使	-11.0817
留從效	-11.0817
紐	-11.0817
驕恣	-11.0818
龔慎儀	-11.0819
闌	-11.0819
鳳凰	-11.0819
揚武將軍	-11.082
的	-11.082
橘	-11.082
蓮花	-11.082
貪暴	-11.0821
澄樞	-11.0821
鉢	-11.0822
煦	-11.0822
北中郎將	-11.0822
鎮海軍節度使	-11.0823
帑	-11.0823
陳敬瑄	-11.0823
𢎞鐸	-11.0823
檢校太師	-11.0824
鄭夢周	-11.0824
靳準	-11.0824
長樂公丕	-11.0824
李廷珪	-11.0825
胡進思	-11.0825
戮力	-11.0825
所有	-11.0825
鉛	-11.0826
后稷	-11.0827
冨貴	-11.0828
仁傑	-11.0829
休息	-11.0829
昀	-11.0829
宋遣	-11.083
遶	-11.083
進奏	-11.083
欽定四庫全書	-11.083
𢎞億	-11.0831
紀綱	-11.0832
追奔	-11.0833
屠各	-11.0834
晚年	-11.0834
清平官	-11.0835
李穡	-11.0835
繼至	-11.0836
泰章	-11.0837
乘虚	-11.0837
築室	-11.0838
棄之	-11.0839
鐵橋	-11.0839
宋史作	-11.0839
倬	-11.0839
匡業	-11.084
交阯太守	-11.0843
所聞	-11.0844
宋史云	-11.0845
舍利	-11.0845
江漢	-11.0845
推戴	-11.0846
又殺	-11.0847
為道士	-11.0849
自餘	-11.0849
交泰	-11.0849
自新	-11.0849
文蔚	-11.0851
内衙	-11.0851
術士	-11.0852
老弱	-11.0854
萬乘	-11.0856
來宣諭	-11.0856
䘮亂	-11.0858
洛州刺史	-11.0859
之誅	-11.0861
於楚	-11.0862
下馬	-11.0862
假子	-11.0863
不善	-11.0864
為盜	-11.0868
天人	-11.0869
詔㫖	-11.0869
交結	-11.0871
廣政十	-11.0871
封子	-11.0873
王衍	-11.0873
身死	-11.0874
郪人也	-11.0875
必先	-11.0876
衛王	-11.0877
令狐	-11.0879
謝恩	-11.0881
遂得	-11.0882
厚恩	-11.0885
之流	-11.0886
所弑	-11.0887
無私	-11.089
苐十	-11.089
莫府	-11.089
不撓	-11.0892
信王	-11.0894
尹氏	-11.0895
孝皇帝	-11.0897
漢興	-11.0898
之福	-11.09
承宣	-11.0901
李儼	-11.0902
金鳯	-11.0903
寺僧	-11.0904
厲兵	-11.0908
罷之	-11.0909
渡淮	-11.0909
十疋	-11.0911
據之	-11.0915
貴人	-11.0915
隱居	-11.0916
以副	-11.0918
定天下	-11.0918
縱之	-11.0918
吳師	-11.0919
郡邑	-11.0921
義烈	-11.0923
少康	-11.0927
行事	-11.0928
畧陽	-11.093
顧命	-11.0932
斷其	-11.0933
老母	-11.0934
河間王	-11.0938
同謀	-11.0938
王茂章	-11.0941
名馬	-11.0944
糧道	-11.0946
難制	-11.0947
私謂	-11.0951
導江	-11.0951
前代	-11.0952
生于	-11.0953
異姓	-11.0953
大饑	-11.0954
之孫	-11.0956
北江	-11.0956
於野	-11.0958
管仲	-11.0962
𤣥始	-11.0966
倍道	-11.097
而更	-11.097
侍宴	-11.0971
攻㧞	-11.0972
曰此兒	-11.0972
廣南	-11.0973
之南	-11.0976
渤海王	-11.0977
昌文	-11.0979
子逺	-11.0981
法度	-11.0982
為副使	-11.0982
而逝	-11.0984
遣軍	-11.0984
初立	-11.0985
文士	-11.0986
雨血	-11.0988
靡不	-11.0989
樂府	-11.0991
之榮	-11.0991
此其	-11.0991
王母	-11.0993
田子	-11.0995
所作	-11.0998
夜分	-11.1004
作樂	-11.1006
青城	-11.1009
邵州	-11.101
二十二	-11.1012
寛仁	-11.1015
崇仁	-11.1016
後庭	-11.1016
百疋	-11.1021
文臣	-11.1022
字道	-11.1026
民多	-11.1027
復舊	-11.1033
列國	-11.1034
周兵	-11.1034
奮擊	-11.1035
将士	-11.1038
于襄國	-11.1041
字徳	-11.1042
不振	-11.1043
而成	-11.1049
其説	-11.1052
者當	-11.106
將兵擊	-11.1066
賢良	-11.1066
為尚書	-11.107
録事	-11.107
宗信	-11.1071
従之	-11.1074
於漢	-11.1081
嘗以	-11.1081
為先鋒	-11.1083
國君	-11.1087
四日	-11.1088
廣徳	-11.109
太子寶	-11.1093
臣下	-11.1095
平州刺史	-11.1096
大振	-11.1096
新興	-11.11
之基	-11.1103
不軌	-11.1111
告以	-11.1112
以實	-11.1116
通謀	-11.1116
孤城	-11.1123
卭州	-11.1124
年十六	-11.1126
臣節	-11.1127
至是而	-11.1127
三百餘	-11.1128
南宫	-11.1133
唐加	-11.1135
及歸	-11.1138
功業	-11.1139
不預	-11.114
有謀	-11.1141
我王	-11.1146
必敗	-11.1149
初至	-11.1153
野人	-11.116
入長安	-11.1164
文才	-11.1166
山陽	-11.1166
薊城	-11.1168
平西	-11.1169
大人	-11.1172
之夕	-11.1173
而終	-11.1177
後主曰	-11.1178
水深	-11.1179
誅死	-11.1186
請罷	-11.1188
何謂	-11.1191
叛臣	-11.1191
人咸	-11.1191
十斤	-11.1193
安寧	-11.1193
吾之	-11.1199
數四	-11.1203
石越	-11.1205
無忌	-11.1206
豈敢	-11.121
為長史	-11.1211
自保	-11.1213
僧道	-11.1214
守者	-11.1217
將亡	-11.1221
曰先帝	-11.1224
以白	-11.1227
身長八尺	-11.1227
于前	-11.1227
為太保	-11.1231
入山	-11.1231
之儀	-11.1233
雖無	-11.1234
晉人	-11.1235
是其	-11.1237
盡力	-11.1239
東歸	-11.1241
每有	-11.1241
而問之	-11.1244
二十里	-11.1246
火燒	-11.1249
以諷	-11.1252
以問	-11.1254
二年夏四月	-11.1258
出軍	-11.1259
陽令	-11.126
厯數	-11.1266
龍興	-11.1268
中書侍郎同平章事	-11.1269
極矣	-11.1269
臣也	-11.1279
五百餘	-11.1279
攻福州	-11.1284
藏之	-11.1284
不果	-11.1285
進師	-11.1286
兵討之	-11.1286
諒州	-11.1287
利用	-11.1288
威權	-11.1288
也勒	-11.1288
大戰	-11.1289
有寵	-11.129
縣郡治	-11.1292
來者	-11.1295
于地	-11.1295
曰朕以	-11.1301
欲害	-11.1305
息兵	-11.1306
附之	-11.1307
二十五年	-11.131
襲擊	-11.1311
千兩	-11.1313
前朝	-11.1314
其弊	-11.1315
衡州	-11.1316
於鄴	-11.1321
宗侃	-11.1322
不易	-11.1322
故國	-11.1323
王騰	-11.1324
師周	-11.1325
為大司馬	-11.1327
羣臣皆	-11.1327
一二	-11.1328
指揮	-11.1329
北還	-11.133
雖然	-11.1333
益州牧	-11.1333
孫子	-11.1333
驚擾	-11.1335
前殿	-11.1335
縣曰	-11.1335
立道	-11.1336
偷	-11.1341
水上	-11.1341
荼	-11.1341
轘	-11.1344
其位	-11.1346
甄萱	-11.1346
頥	-11.1347
犒	-11.1348
膚	-11.1348
扈	-11.1349
遣使告	-11.1349
驃騎	-11.135
拉	-11.1351
平元年	-11.1351
拾	-11.1352
臘	-11.1353
廣平公弼	-11.1353
狩	-11.1354
乾符	-11.1354
濕	-11.1355
柩	-11.1356
不知所終	-11.1356
國號大	-11.1357
洞潛	-11.1357
髙句驪	-11.1357
唇齒	-11.1357
始平	-11.1358
閫	-11.1358
縻	-11.1358
涸	-11.1358
黠	-11.1358
濵	-11.1359
東萊	-11.1359
耆舊	-11.136
義和	-11.136
瀛	-11.136
許德勲	-11.1361
以孝聞	-11.1361
勸課農桑	-11.1361
捄	-11.1361
鎮逺將軍	-11.1362
莅	-11.1362
瑛	-11.1362
邢	-11.1362
舟楫	-11.1362
跋扈	-11.1362
侑	-11.1362
廂	-11.1363
迸	-11.1363
許諾	-11.1363
㳤	-11.1363
馨	-11.1363
樽	-11.1364
參知政事	-11.1364
撫軍大將軍	-11.1364
灼	-11.1364
苖	-11.1364
扞	-11.1364
悉降	-11.1364
衲	-11.1364
鎮西大將軍	-11.1364
僖	-11.1365
景通	-11.1365
鎮東大將軍	-11.1365
淨	-11.1365
减	-11.1366
琀	-11.1366
黍	-11.1367
瑕	-11.1367
苗裔	-11.1367
世系	-11.1367
聶	-11.1367
胷	-11.1367
踏	-11.1367
竪	-11.1368
兢	-11.1368
甃	-11.1368
庾信	-11.1368
呉呉南唐南唐南唐	-11.1369
唐餘紀傳	-11.1369
蠟	-11.1369
胎	-11.1369
乞伏熾磐	-11.1369
耄	-11.1369
醒	-11.1369
劉彦瑫	-11.1369
以南	-11.1369
等謹案	-11.1369
髯	-11.137
壅	-11.137
皇甫真	-11.137
魏崔鴻撰	-11.137
冊府元龜	-11.137
其年	-11.1371
之靈	-11.1371
鎮海	-11.1371
芮	-11.1371
偵	-11.1371
詮	-11.1371
昻	-11.1372
譌	-11.1372
太傅評	-11.1372
卒諡文	-11.1372
唘	-11.1372
捉	-11.1373
刪	-11.1373
􁡦	-11.1373
舁	-11.1374
憎	-11.1374
竇衝	-11.1374
移檄	-11.1374
沐浴	-11.1374
亨	-11.1375
繆	-11.1375
還宫	-11.1375
蟾	-11.1375
麤	-11.1375
吝	-11.1376
太子洗馬	-11.1376
陳覺李徴古	-11.1376
時人謂之	-11.1377
莒	-11.1377
草創	-11.1377
俘獲	-11.1377
沮渠蒙遜	-11.1378
湖湘	-11.1378
第三子	-11.1378
曰大丈夫	-11.1378
趙佗	-11.1378
馳驛	-11.1379
後不知所終	-11.1379
鎮南軍節度使	-11.1379
焚香	-11.138
諸蠻	-11.138
棠	-11.138
曙	-11.1381
琚	-11.1381
夙夜	-11.1381
犍爲太守	-11.1381
關羽	-11.1381
賜名	-11.1381
何敬洙	-11.1382
疾革	-11.1383
歌舞	-11.1383
吕隆	-11.1383
遇弑	-11.1383
至誠	-11.1383
受詔	-11.1383
肜	-11.1384
准	-11.1384
衛尉	-11.1385
壽夢	-11.1386
保大末	-11.1386
鄧𦍑	-11.1386
十倍	-11.1386
䝉舍	-11.1388
桓𤣥	-11.1388
省躬	-11.1388
犒軍	-11.1389
兩人	-11.139
玉帛	-11.139
􁫘	-11.1392
段遼	-11.1393
以文	-11.1393
音律	-11.1393
漁陽	-11.1393
自刎	-11.1394
殊俗	-11.1395
􁠷	-11.1396
秀才	-11.1396
漢武帝	-11.1396
縣侯	-11.14
安敢	-11.1401
茅山	-11.1401
供奉	-11.1401
常山公	-11.1403
財物	-11.1404
岳州刺史	-11.1406
速骨	-11.1406
一字	-11.1407
帝崩	-11.1407
流血	-11.1409
忠於	-11.1411
節度使兼中書令	-11.1412
仲雅	-11.1412
在元	-11.1414
之期	-11.1414
咸以為	-11.1414
分道	-11.1416
當塗	-11.1417
乘間	-11.1417
入闗	-11.1417
忠肅	-11.1418
早亡	-11.1419
追騎	-11.142
德勲	-11.1422
入閩	-11.1423
興州	-11.1425
甚謹	-11.1425
僭立	-11.1425
殿後	-11.1427
流沙	-11.1427
彭祖	-11.1429
韓昭	-11.143
墓在	-11.143
郎中令	-11.1432
器度	-11.1432
四十八	-11.1433
諸子皆	-11.1433
守尚書令	-11.1434
張天錫	-11.1435
戲下	-11.1436
梁震	-11.1436
丗宗	-11.1437
五湖	-11.1439
為交州	-11.144
是月唐	-11.1441
部人	-11.1441
七十里	-11.1441
登極	-11.1442
等至	-11.1443
多事	-11.1443
不必	-11.1443
華夏	-11.1444
抑亦	-11.1445
智勇	-11.1445
晉天福	-11.1445
是冬	-11.1446
二千餘人	-11.1447
骸骨	-11.1448
封疆	-11.145
聽政	-11.1451
未可知	-11.1453
欲得	-11.1453
樂浪王	-11.1453
帝立	-11.1455
經略	-11.1459
弘義	-11.146
王崇文	-11.146
死焉	-11.146
政教	-11.1462
耳目	-11.1462
師古	-11.1463
間有	-11.1464
歴位	-11.1464
願大王	-11.1466
之叛	-11.1467
記云	-11.1467
王昭逺	-11.1467
仁慈	-11.1468
并殺	-11.1472
録云	-11.1473
將劉	-11.1474
率歩騎	-11.1476
殿上	-11.1479
南鄭人也	-11.1481
擊破	-11.1481
者即	-11.1483
其職	-11.1485
及聞	-11.1486
興曰	-11.1486
遂歸	-11.1486
文錫	-11.1487
少孤	-11.1491
者句踐	-11.1492
未盡	-11.1493
殿直	-11.1494
徐州刺史	-11.1495
退還	-11.1497
光初	-11.1498
𢎞農王	-11.1499
禮儀	-11.1499
安周	-11.1499
秉政	-11.1499
曽祖	-11.1501
本郡	-11.1505
大起	-11.1505
衆數萬	-11.1505
蕭何	-11.1507
撫問	-11.151
嵐	-11.1511
禎	-11.1514
不設備	-11.1517
遺命	-11.1519
賢人	-11.1519
其為人	-11.1519
流離	-11.1521
逆之	-11.1521
攻䧟	-11.1521
嗣君	-11.1523
信州刺史	-11.1526
書史	-11.1526
以狥	-11.153
驩州	-11.153
四郡	-11.1533
忠節	-11.1533
孫士	-11.1535
諫官	-11.1536
後以	-11.1536
三泉	-11.1538
詐降	-11.1538
今若	-11.1539
風雲	-11.1542
而言	-11.1542
莫若	-11.1542
後繼	-11.1543
人生	-11.1544
頗以	-11.1544
安置	-11.1546
累授	-11.1548
從王	-11.1548
之前	-11.1548
六千	-11.1548
上總	-11.155
南鄉	-11.1551
吾聞	-11.1552
襄城	-11.1555
族誅	-11.1562
解之	-11.1564
字公	-11.1566
安知	-11.1572
愍帝	-11.1573
有白	-11.1574
果有	-11.1574
學者	-11.1576
將兵攻	-11.1576
張平	-11.158
違命	-11.1581
四十六	-11.1582
亦作	-11.1584
因說	-11.1589
徙治	-11.1589
及第	-11.1592
一女	-11.1594
光天元年	-11.1594
登髙	-11.1596
牙将	-11.1596
吳王垂	-11.1598
同郡	-11.1598
襄州	-11.1599
自潰	-11.1601
此皆	-11.1602
之畧	-11.1607
金華	-11.1608
軍資	-11.1609
並為	-11.1609
蠻書	-11.161
羅隱	-11.1612
人馬	-11.1613
處分	-11.1621
乃謂	-11.1622
善惡	-11.1623
不名	-11.1623
南門	-11.1625
毁之	-11.1625
後軍	-11.1628
土豪	-11.1629
庶人	-11.1635
案此	-11.1641
四十餘	-11.1644
少好學	-11.1647
之險	-11.165
之稱	-11.1652
為招討使	-11.1653
竒兵	-11.1656
者惟	-11.1657
匡時	-11.1658
江口	-11.1659
商人	-11.166
以其子	-11.1662
凍	-11.1664
附於	-11.1665
京兆人	-11.1666
不負	-11.1668
尺餘	-11.1672
得中	-11.1677
其門	-11.1682
武義元年	-11.1683
鎮将	-11.1687
不任	-11.1688
歩兵	-11.1691
虎以	-11.1696
終為	-11.1697
始以	-11.17
權勢	-11.1701
又何	-11.1704
誣以	-11.1704
王女	-11.1704
事覺	-11.1707
等將兵	-11.171
尤善	-11.1711
宻謀	-11.1714
北軍	-11.1714
既殺	-11.1721
今據	-11.1721
府君	-11.1724
永州	-11.1733
實有	-11.1735
垂曰	-11.1736
故吏	-11.1736
羣臣議	-11.1745
光圖	-11.1746
離宫	-11.1755
移書	-11.1755
長等	-11.1756
母也	-11.1757
朝廷以	-11.1758
呉人	-11.1758
文集	-11.1759
人之所	-11.1764
萬民	-11.1765
將攻	-11.1765
其夫	-11.1766
放還	-11.1767
始置	-11.1767
徑至	-11.1767
亦曰	-11.1769
是用	-11.1771
之色	-11.1775
萬機	-11.1775
國號曰	-11.1776
不悟	-11.1776
後仕	-11.1779
其義	-11.178
王聞	-11.1784
在位二	-11.1784
在蜀	-11.1785
部領	-11.1796
益陽	-11.1803
無敵	-11.1808
無常	-11.181
而取之	-11.1813
同列	-11.1816
軍勢	-11.182
左衛	-11.183
然猶	-11.1832
開道	-11.1832
南渡	-11.1838
長而	-11.184
濮陽	-11.1841
之女也	-11.1842
中主	-11.1843
王聞之	-11.1844
骸	-11.1847
奏請	-11.185
尚未	-11.185
以西	-11.1863
衆至	-11.1863
譏之	-11.1867
曲宴	-11.1868
兵勢	-11.1872
文益	-11.1874
陽城	-11.1874
張華	-11.1877
書生	-11.1881
風疾	-11.1882
過於	-11.1885
攻戰	-11.1886
二萬餘	-11.1892
殺傷	-11.1896
遣參軍	-11.1896
漢髙祖	-11.1897
世居	-11.1899
之會	-11.19
亦至	-11.1901
來也	-11.1907
建隆	-11.191
不須	-11.1914
廣運	-11.1921
滄	-11.1922
女弟	-11.1922
性嚴	-11.1923
闓	-11.1923
二十餘	-11.1925
撫軍	-11.1927
咒	-11.1927
洸	-11.1933
皎	-11.1934
曰不然	-11.1934
毬	-11.1936
肖	-11.1937
既得	-11.1937
卦	-11.1939
之器	-11.1939
校官	-11.1939
哈	-11.1939
僉	-11.194
言於興曰	-11.194
郃	-11.194
僃	-11.1941
無虚日	-11.1942
拙	-11.1943
箸	-11.1943
緜	-11.1943
羲蕚	-11.1943
玭	-11.1944
遂圍	-11.1944
穹	-11.1944
瘳	-11.1946
繼鵬	-11.1946
奉車都尉	-11.1946
怙	-11.1946
為吏部尚書	-11.1946
栖	-11.1946
婚姻	-11.1947
牘	-11.1947
轄	-11.1947
溟	-11.1948
紞	-11.1948
睢	-11.1948
僮	-11.1948
而弗	-11.1948
擊毬	-11.1948
餒	-11.1949
諂	-11.195
戀	-11.195
噬	-11.195
洵	-11.195
面縛	-11.1951
即偽位	-11.1951
匝	-11.1951
膂力	-11.1951
叶	-11.1952
呪	-11.1952
粧	-11.1952
儋	-11.1952
撻	-11.1952
之教	-11.1952
蜜	-11.1952
畝	-11.1953
察球爾	-11.1953
藁	-11.1953
斵	-11.1953
夘	-11.1954
謟	-11.1954
囂	-11.1955
技	-11.1955
迥	-11.1955
登進士第	-11.1955
鋪	-11.1955
晁	-11.1955
為謀主	-11.1955
御史臺	-11.1956
寐	-11.1956
張掖太守	-11.1956
判六軍	-11.1957
節儉	-11.1957
鐫	-11.1957
塩	-11.1958
有勇力	-11.1958
敗我兵于	-11.1958
欽定四庫全書史部九	-11.1958
南唐近事	-11.1959
諳	-11.1959
翰林學士承㫖	-11.1959
緯曰	-11.1959
朱延壽	-11.1959
儻	-11.1959
司隷	-11.196
秦宗權	-11.196
羮	-11.196
消息	-11.196
愕	-11.196
五代㑹要	-11.1961
慟哭	-11.1961
拊	-11.1961
不以為	-11.1961
孛	-11.1962
譎	-11.1962
綝	-11.1962
婉	-11.1962
紏	-11.1963
韓範	-11.1963
娯	-11.1963
出其不意	-11.1963
經綸	-11.1963
盃	-11.1964
規模	-11.1964
詰旦	-11.1964
咨爾	-11.1964
清儉	-11.1964
荆湖	-11.1964
我我	-11.1964
第宅	-11.1965
越裳	-11.1965
聰慧	-11.1965
彗	-11.1965
𬗋	-11.1965
乾貞	-11.1966
徒以	-11.1966
貴嬪	-11.1966
眉州刺史	-11.1966
漳泉	-11.1967
灑	-11.1967
寛簡	-11.1968
傾覆	-11.1968
臺濛	-11.1968
樞宻副使	-11.1968
郊祀	-11.1968
蘭汗	-11.1969
第六子	-11.1969
臨卭	-11.1969
教之	-11.1969
烏丸	-11.1971
侵掠	-11.1971
秦州牧	-11.1972
率騎五千	-11.1972
張遇賢	-11.1973
京兆尹	-11.1973
尚書僕射	-11.1974
弼等	-11.1974
𢎞俶	-11.1975
慨然	-11.1975
入於	-11.1976
隔絶	-11.1977
驚駭	-11.1978
唐昭宗	-11.1981
欠	-11.1981
壮士	-11.1981
智者	-11.1981
號泣	-11.1982
談論	-11.1983
李資謙	-11.1984
唐僖宗	-11.1984
遜位	-11.1984
禪位	-11.1984
譙周	-11.1985
不肖	-11.1986
王府	-11.1987
白狼	-11.1987
希聲	-11.1987
匡賛	-11.1987
魏郡太守	-11.1987
應援使	-11.1988
狄道	-11.1988
從鎰	-11.1988
王司徒	-11.1989
邊境	-11.1989
行伍	-11.1989
李徳誠	-11.199
至廣陵	-11.199
乃可	-11.1991
一枚	-11.1995
破其	-11.1995
益州太守	-11.1995
無有	-11.1995
以城降	-11.1995
謀作亂	-11.1996
公子光	-11.1996
主者	-11.1998
其部衆	-11.1999
寡君	-11.2002
武威太守	-11.2003
叔嗣	-11.2003
文圭	-11.2004
英宗	-11.2005
光明	-11.2005
此時	-11.2006
景崇	-11.2008
未還	-11.2008
董氏	-11.201
而返	-11.201
臨松	-11.2013
王命弟	-11.2013
宏實	-11.2016
别室	-11.2017
墳墓	-11.2017
建武軍	-11.2018
有戰功	-11.202
檢討吳任臣撰吳	-11.2024
五榖	-11.2024
感化	-11.2024
兵柄	-11.2028
靈臺	-11.2028
五百餘人	-11.2028
切責	-11.2029
舊將	-11.203
伺其	-11.2031
天所	-11.2031
出爲	-11.2032
民有	-11.2033
山獠	-11.2034
潰散	-11.2034
民心	-11.2037
曰小	-11.2038
以威	-11.2038
光禄	-11.204
繼恩	-11.2041
株	-11.2042
貢舉	-11.2043
怨望	-11.2043
李暠	-11.2046
荅曰	-11.2046
延休	-11.2046
馬步	-11.205
留臺	-11.205
守城	-11.205
博通	-11.2053
待詔	-11.2054
屯于	-11.2054
天策	-11.2054
上帝	-11.2057
浮海	-11.2058
雖欲	-11.2058
移都	-11.2061
六日	-11.2061
禮義	-11.2062
遂大敗	-11.2062
失色	-11.2068
承丕	-11.2069
關東	-11.2069
謝之	-11.2072
唱和	-11.2073
延福	-11.2075
雍熈	-11.2076
其德	-11.2079
明敏	-11.2079
自來	-11.208
其尸	-11.208
大冡	-11.2081
時號	-11.2081
十一年春正月	-11.2081
為庶人	-11.2082
城䧟	-11.2083
神器	-11.2085
劉澄	-11.2091
願王	-11.2094
進逼	-11.2095
五廟	-11.2097
景威	-11.2098
遺書	-11.2098
及卒	-11.2103
乞援	-11.2104
以為常	-11.2104
忠直	-11.2105
大㑹	-11.2106
事髙祖為	-11.2111
在焉	-11.2112
老父	-11.2113
禮之	-11.2116
不知所為	-11.2117
君福	-11.2117
為吾	-11.2119
廣政時	-11.212
又問	-11.2122
梁祖	-11.2124
天䇿	-11.2128
茂州	-11.213
皇始	-11.2132
鎮南節度使	-11.2138
至道	-11.2138
毛當	-11.2139
夢周	-11.2139
尋加	-11.2139
矣遂	-11.2142
蘄	-11.2143
致逺	-11.2143
闕下	-11.2144
免官	-11.215
居民	-11.2151
清河王	-11.2151
名儒	-11.2154
安用	-11.2154
擁兵	-11.2155
欲誅	-11.2157
軍敗績	-11.2158
農桑	-11.2159
張訓	-11.216
九日	-11.2161
地理	-11.2161
宣㫖	-11.2162
契丹兵	-11.2168
西上	-11.2168
丗子	-11.2168
爲質	-11.217
張飛	-11.2172
又聞	-11.2175
者哉	-11.2179
告之曰	-11.2181
諸衛	-11.2181
長城	-11.2181
再三	-11.2184
遺詔	-11.2191
羅漢	-11.2194
使知	-11.2195
任氏	-11.2195
寤而	-11.2197
大驚曰	-11.2207
何異	-11.221
聖主	-11.221
直前	-11.2214
悉衆	-11.2214
引歸	-11.2216
有過	-11.2217
遣使至	-11.2219
唐太宗	-11.222
繼立	-11.2225
入金陵	-11.2226
交戰	-11.2229
垂以	-11.2231
留意	-11.2233
建州刺史	-11.2233
薦之	-11.2234
第七	-11.2236
軍次	-11.2237
破賊	-11.224
乗之	-11.2241
北渡	-11.2243
崇徳	-11.225
友人	-11.225
王問	-11.2251
不可復	-11.2253
之謂也	-11.2255
李洪	-11.2256
真人	-11.2256
小心	-11.2257
母曰	-11.2259
德誠	-11.2261
蘓州	-11.2261
不息	-11.2261
容州	-11.2261
兵器	-11.2264
百數	-11.2268
三十人	-11.2271
死罪	-11.2273
乃更	-11.2275
寡言	-11.2281
平原公	-11.2282
威德	-11.2283
弑之	-11.2285
聞變	-11.2286
去官	-11.2287
燕之	-11.229
國志	-11.2291
臨水	-11.2294
欲盡	-11.23
於東宫	-11.2303
兵仗	-11.2303
張易	-11.2303
於戲	-11.2315
握兵	-11.232
聚兵	-11.2324
詐為	-11.2327
基業	-11.2329
重門	-11.2338
元帝	-11.2339
孟堅	-11.2339
繼之	-11.234
朝宋	-11.2341
之首	-11.2342
洪武	-11.2343
宜先	-11.2344
李順	-11.2346
山陵	-11.2348
為司馬	-11.2352
平涼	-11.2353
兵數萬	-11.2356
於㑹稽	-11.236
其夜	-11.2362
號稱	-11.2363
諸道兵	-11.2364
西湖	-11.2367
時事	-11.237
故老	-11.2373
遣貢	-11.2379
於枹罕	-11.2386
尚在	-11.2388
卷八	-11.2391
言語	-11.2396
年長	-11.2397
親軍	-11.24
失之	-11.2405
所取	-11.2405
去矣	-11.2406
伏惟	-11.2407
即命	-11.2409
試之	-11.2417
意者	-11.2419
夜遁	-11.2426
五世	-11.2429
美之	-11.2431
乃知	-11.2431
自長安	-11.2434
甚有	-11.2437
實在	-11.2439
大越	-11.244
紹興	-11.2447
為冠軍將軍	-11.2449
後與	-11.2449
成之	-11.245
勒曰	-11.2454
若是	-11.2456
將發	-11.2456
及即位	-11.246
專征	-11.2461
别遣	-11.2461
之費	-11.2465
百勝	-11.2466
五卷	-11.2469
古公	-11.2472
十日	-11.2473
所由	-11.2474
告歸	-11.2476
得疾	-11.2488
外傳	-11.2492
其營	-11.2494
也但	-11.2497
而前	-11.2501
府門	-11.2508
徳化	-11.2511
垂遣	-11.2515
平陵	-11.2521
帝聞	-11.2523
成宗	-11.2525
蹟	-11.2532
謡	-11.2537
制加	-11.2538
遑	-11.2544
名位	-11.2548
仔鈞	-11.2549
陛	-11.255
劭	-11.2551
天祐二年	-11.2551
以鐡	-11.2552
上尊號	-11.2554
曰殿下	-11.2554
閹	-11.2557
秣馬	-11.2557
倓	-11.2557
守禦	-11.2558
即拜	-11.2562
縫	-11.2562
任之	-11.2563
弋	-11.2563
萊	-11.2565
股	-11.2565
拓跋	-11.2566
昂	-11.2566
未遑	-11.2567
不圖	-11.2569
棗	-11.257
都押衙	-11.2571
喧	-11.2571
泝	-11.2571
肌	-11.2571
企	-11.2572
稼穡	-11.2572
紊	-11.2572
􁢱	-11.2572
鯨	-11.2573
倜儻	-11.2573
文穆	-11.2574
踞	-11.2574
朞	-11.2574
刅	-11.2574
般若	-11.2575
竿	-11.2575
囑	-11.2575
滑稽	-11.2575
將若之何	-11.2575
醮	-11.2575
馥	-11.2576
遣使來聘	-11.2576
眇	-11.2576
樵	-11.2577
顧左右曰	-11.2577
悠	-11.2577
殫	-11.2577
東夷校尉	-11.2577
畨	-11.2577
廷琄	-11.2577
齊王景逹	-11.2578
航海	-11.2579
武信軍節度使	-11.2579
硯	-11.2579
忱	-11.2579
南唐書卷之十	-11.258
旭	-11.258
祺	-11.258
鄭彦華	-11.258
黥	-11.258
冤	-11.258
方鎮	-11.258
娘	-11.258
桑梓	-11.258
大赦境内改元	-11.258
殿中侍御史	-11.2581
稀	-11.2581
祭祀	-11.2581
鏁	-11.2581
魄	-11.2581
漿	-11.2581
癸夘	-11.2581
玳瑁	-11.2582
將討	-11.2582
噪	-11.2582
户部尚書	-11.2582
敘	-11.2582
天資嘉瑞	-11.2582
此之謂也	-11.2582
縊殺之	-11.2583
倒懸	-11.2583
儒術	-11.2583
詆	-11.2583
巽	-11.2584
之表	-11.2584
歸唐	-11.2584
鵝	-11.2584
鍾離	-11.2584
盧文進	-11.2585
陛下之	-11.2585
改今名	-11.2585
鎻	-11.2586
蘋	-11.2586
焚燒	-11.2586
死士	-11.2586
渇	-11.2586
櫬	-11.2586
迎鑾	-11.2586
龔澄樞	-11.2587
天安殿	-11.2587
不可勝紀	-11.2587
且以	-11.2587
永嘉之亂	-11.2587
狼狽	-11.2587
秦將	-11.2588
飼	-11.2588
結盟	-11.2588
甕	-11.2588
稻田	-11.2589
錦綺	-11.259
宣歙	-11.259
七郡	-11.259
吿	-11.2591
案此條	-11.2591
湯悦	-11.2591
猿	-11.2591
乙夘	-11.2591
彫	-11.2591
姚弋仲	-11.2592
紹琛	-11.2592
洵美	-11.2592
又嘗	-11.2592
牡丹	-11.2592
貂	-11.2592
子女	-11.2593
圉	-11.2594
馬步都指揮使	-11.2594
儉約	-11.2594
厚賂	-11.2594
侍婢	-11.2595
買德	-11.2595
椒	-11.2597
轉運使	-11.2597
謝艾	-11.2597
領軍將軍	-11.2597
右衛將軍	-11.2598
八十里	-11.2598
僭位	-11.2598
潘美	-11.2598
不能用	-11.2598
五國故事云	-11.2599
行於世	-11.2599
宿衞	-11.26
高駢	-11.26
無恙	-11.26
夷狄	-11.26
虗白	-11.2601
與秦	-11.2601
後主以	-11.2602
孫皓	-11.2602
我師敗績	-11.2603
年九十	-11.2603
國難	-11.2603
寳貨	-11.2603
溪洞	-11.2604
六十里	-11.2606
李守貞	-11.2606
文扆	-11.2606
數千騎	-11.2607
中領軍	-11.2607
周旋	-11.2607
叚氏	-11.2609
攻秦	-11.261
惜哉	-11.261
素弗	-11.2611
廷紹	-11.2612
招撫	-11.2612
傳檄	-11.2612
仁璧	-11.2612
薛史	-11.2613
江原	-11.2613
光裔	-11.2613
嵗貢	-11.2613
相屬	-11.2614
贊寧	-11.2615
方盛	-11.2615
幕下	-11.2616
衙内	-11.2616
年十五	-11.2616
玉帶	-11.2616
潤州節度使	-11.2618
諜者	-11.2618
年十八	-11.2619
文翰	-11.262
麟嘉	-11.262
隂宻	-11.262
户口	-11.2624
政房	-11.2625
入于周	-11.2626
副元帥	-11.2626
即王位	-11.2627
供給	-11.2628
甘心	-11.2628
强弱	-11.2628
難以	-11.2628
左衛將軍	-11.263
将校	-11.263
躬親	-11.263
災異	-11.2631
之勲	-11.2631
漢中太守	-11.2632
徒河	-11.2632
不由	-11.2633
孔明	-11.2633
羣臣咸	-11.2637
餘年	-11.2638
淮海	-11.2638
非我	-11.2638
腰斬	-11.2639
禁止	-11.2639
聽命	-11.2643
王莽	-11.2643
安撫使	-11.2643
王崇質	-11.2644
爾國	-11.2645
吳武王	-11.2645
夜郎	-11.2645
湯武	-11.2648
誰能	-11.2649
元弼	-11.265
等議	-11.2651
少尹	-11.2652
三百里	-11.2652
斷絶	-11.2656
智髙	-11.2656
百匹	-11.2657
於地	-11.2657
擾亂	-11.2658
㑹有	-11.2659
為務	-11.2659
手足	-11.266
羣后	-11.266
衛士	-11.266
欲歸	-11.2661
延熈	-11.2661
𢎞佐	-11.2661
唐鎬	-11.2663
以慰	-11.2665
不省	-11.2665
南唐書列傳卷苐	-11.2666
危懼	-11.2667
彦真	-11.2667
保大初	-11.2671
昇元中	-11.2671
且曰	-11.2673
烈士	-11.2674
天柱	-11.2675
結好	-11.2677
石閔	-11.2678
無算	-11.2678
卒諡	-11.2678
將水軍	-11.2679
故蜀	-11.268
龍舟	-11.268
平江	-11.2682
諭㫖	-11.2682
僭稱	-11.2683
仲舉	-11.2684
之雄	-11.2686
二十餘人	-11.2689
三萬餘人	-11.2689
銜之	-11.2689
恢復	-11.2691
北接	-11.2693
兵戍	-11.2693
岐王	-11.2694
至洛陽	-11.2696
邦家	-11.2699
使安南	-11.27
乘之	-11.2702
還師	-11.2707
帝號	-11.2707
廟號太祖	-11.2709
鎮長安	-11.271
語及	-11.2713
陽騖	-11.2714
徴兵	-11.2715
不輟	-11.2715
順流	-11.2716
發䘮	-11.2719
今已	-11.2719
延年	-11.272
燕人	-11.2722
元懿	-11.2722
左氏	-11.2723
諸人	-11.2724
東堂	-11.2727
兵部郎中	-11.2727
連兵	-11.2729
黎州	-11.273
廷望	-11.273
為使持節都督	-11.2732
服御	-11.2733
餓死	-11.2734
門生	-11.2735
良將	-11.2735
本道	-11.2735
九年春正月	-11.2736
韓信	-11.2737
京都	-11.2739
夜半	-11.2741
者乃	-11.2745
鍾山	-11.2747
而罷	-11.2749
長江	-11.2749
近侍	-11.275
之寵	-11.2755
俱延	-11.2758
步卒	-11.2758
遂命	-11.2758
來侵	-11.2759
備禮	-11.2759
忠良	-11.2759
進爵	-11.276
儁遣	-11.276
指授	-11.2761
化之	-11.2761
妖言	-11.2761
同姓	-11.2762
建嘉	-11.2764
享國	-11.2769
衛軍	-11.2769
畧云	-11.2769
流水	-11.2771
其神	-11.2772
三里	-11.2772
侍側	-11.2774
謀誅	-11.2775
年二十	-11.2777
於中	-11.2779
刺史張	-11.2784
樂陵	-11.2785
三代	-11.2786
舉事	-11.2787
等十餘人	-11.2788
多士	-11.2789
使還	-11.2789
莫知所	-11.279
保據	-11.2791
遣騎	-11.2794
四夷	-11.2795
庶幾	-11.2795
乃改	-11.2796
還鄉里	-11.2798
何由	-11.2798
笑而	-11.2798
守備	-11.28
秦鳳	-11.2801
軍大敗	-11.2803
宣宗	-11.2807
徙都	-11.2808
如宋	-11.2808
追謚	-11.2809
鎮軍	-11.281
為宰相	-11.2812
大中	-11.2813
烏蠻	-11.2813
齎詔	-11.2814
帥步騎	-11.2815
狀若	-11.2815
累封	-11.2816
西州	-11.2821
師徒	-11.2823
敗歸	-11.2825
不踰	-11.2827
實為	-11.2832
亂兵	-11.2836
最為	-11.2837
之典	-11.284
為大都督	-11.2845
秦師	-11.2846
上書言	-11.2849
魏興	-11.2849
元老	-11.285
占之	-11.2851
手書	-11.2853
為業	-11.286
馬忠	-11.2864
先業	-11.2869
防禦使	-11.287
執法	-11.2876
安逺	-11.2878
其禍	-11.2878
可矣	-11.2878
節義	-11.2879
衆十餘萬	-11.2887
湖廣	-11.2888
其妹	-11.2891
髙皇帝	-11.2893
長興三年	-11.2897
自知	-11.2897
歸心	-11.2901
未詳其	-11.2901
因是	-11.2902
之暇	-11.2911
行次	-11.2913
不避	-11.2914
相次	-11.2914
廣漢王	-11.2922
此必	-11.2924
率衆二萬	-11.2925
文宣	-11.2928
禮葬	-11.2935
中土	-11.2937
降封	-11.2938
觀者	-11.2942
一無所	-11.2943
劉表	-11.2943
盡殺之	-11.2944
殺太守	-11.2948
妻以	-11.2948
嘗謂	-11.295
欲去	-11.2952
詔諭	-11.2952
慮其	-11.2956
不早	-11.2961
宗子	-11.2963
矣而	-11.2964
漢兵	-11.2965
燉煌人也	-11.297
神主	-11.2974
宋氏	-11.2975
兄也	-11.2978
周文	-11.2979
昭公	-11.2981
晉帝	-11.2985
以其弟	-11.2985
五國	-11.2986
遂遣	-11.2992
卷九	-11.2992
人神	-11.2993
黄州	-11.2994
以禦之	-11.2998
節鉞	-11.2999
山崩	-11.3
孫氏	-11.3002
四字	-11.3005
出走	-11.3006
不願	-11.3007
楚兵	-11.3009
建立	-11.301
復振	-11.3015
子曰	-11.3017
治亂	-11.3023
何爲	-11.3024
德陽	-11.3028
文物	-11.303
愛子	-11.303
卒伍	-11.303
歸魏	-11.3031
憂之	-11.3033
受封	-11.3038
所致	-11.3038
承平	-11.3038
之精	-11.3039
左丞	-11.304
凡十	-11.3041
萬疋	-11.3044
之裔	-11.3045
曰願	-11.3047
以贖	-11.3049
等同	-11.3052
具言	-11.3055
唐遣	-11.3056
次曰	-11.3058
幸矣	-11.3061
求為	-11.3066
流言	-11.3067
養士	-11.3067
逺矣	-11.3068
懼其	-11.3068
之年	-11.3068
有智	-11.3068
之列	-11.3078
與諸將	-11.3078
舊屬	-11.3078
三十餘人	-11.3079
廣政二十	-11.3081
而致	-11.3085
十一日	-11.3086
洛生	-11.3087
推官	-11.3088
原本作	-11.309
書招	-11.3092
神光	-11.3092
大用	-11.3103
却之	-11.3106
以世子	-11.3114
逺人	-11.3118
西府	-11.3121
舊制	-11.3121
昇元元年	-11.3123
無得	-11.3123
設備	-11.3129
其前	-11.3131
三蜀	-11.3133
三寸	-11.3136
詰其	-11.3136
二十八年	-11.3142
與夫	-11.3143
相如	-11.3144
朝命	-11.3147
夏四月王	-11.3149
餘如故	-11.3153
問疾	-11.3153
諸孫	-11.3155
事佛	-11.3156
元宗以	-11.3158
亦非	-11.3158
後主立	-11.3159
牙兵	-11.3161
不事	-11.3161
晉書	-11.3164
其屍	-11.3172
所記	-11.3176
行世	-11.3177
凡城	-11.3177
長於	-11.3178
鹽井	-11.3179
廣漢人	-11.3182
處州	-11.3182
鄯善	-11.3183
所引	-11.3183
明字	-11.3184
行師	-11.3186
東宮	-11.3191
肅宗	-11.3193
臣雖	-11.3193
出見	-11.3195
以遺	-11.3196
闗西	-11.3196
遣司馬	-11.3198
因留	-11.3199
亦云	-11.3203
飾以	-11.3205
將謀	-11.321
鞍勒馬	-11.3211
吾何	-11.3219
浩亹	-11.3221
板楯	-11.3221
呵	-11.3223
皷	-11.3223
驪	-11.3224
二君	-11.3225
大事去矣	-11.3228
筋	-11.3228
軹	-11.3228
五尺	-11.3229
詔王	-11.3231
州司户	-11.3231
竇融	-11.3231
產	-11.3232
櫝	-11.3232
啖	-11.3232
翰林待詔	-11.3234
陌	-11.3234
閽	-11.3234
棹	-11.3234
鈍	-11.3234
糟	-11.3235
悴	-11.3235
坤	-11.3235
螺	-11.3236
漬	-11.3236
紓	-11.3236
東平王全忠	-11.3237
以郡降	-11.3237
鵬	-11.3237
琵琶	-11.3238
右千牛衛	-11.3238
惋	-11.3238
闋	-11.3238
厮	-11.3238
遐邇	-11.3239
磬	-11.3239
咽	-11.3239
為前鋒都督	-11.3239
皆此𩔖也	-11.3239
洞天	-11.324
翫	-11.324
認	-11.324
旒	-11.324
換	-11.324
臨淮	-11.324
聯	-11.324
瘠	-11.324
遘	-11.324
煬帝	-11.324
觀察判官	-11.3241
瑁	-11.3241
塜	-11.3241
楮	-11.3242
希杲	-11.3242
㸑	-11.3242
謠	-11.3242
廖偃	-11.3242
衂	-11.3243
艶	-11.3243
閩中	-11.3243
縑	-11.3243
衞尉	-11.3243
有力焉	-11.3243
崔忠獻	-11.3244
摶	-11.3244
磨些	-11.3244
愔	-11.3244
璩	-11.3244
嗣偽位	-11.3244
神色自若	-11.3244
璽綬	-11.3244
韓保貞	-11.3244
杞	-11.3245
佛嵩	-11.3245
可足渾氏	-11.3245
派	-11.3246
桞	-11.3246
僎	-11.3246
不可勝計	-11.3247
鼓譟	-11.3247
猾	-11.3247
黄龍見	-11.3247
武衞將軍	-11.3248
潦	-11.3248
従効	-11.3248
弔祭	-11.3248
三楚新録	-11.3248
郭崇韜	-11.3248
田令孜	-11.3248
畨禺	-11.3249
書與	-11.3249
斜谷	-11.3249
浹	-11.3249
番禺	-11.3249
峒	-11.3249
覃	-11.3249
弑其君	-11.3249
束手	-11.3249
澄心堂	-11.325
崔浩	-11.325
國子祭酒	-11.325
帑藏	-11.325
睨	-11.325
為鄉導	-11.325
㩀	-11.325
叛降於	-11.3251
戅	-11.3251
載記𩔖	-11.3251
捶	-11.3251
脇	-11.3251
東安	-11.3252
吳越春秋	-11.3252
鏗	-11.3252
德韶	-11.3252
黯	-11.3252
鍳	-11.3253
弹	-11.3253
惮	-11.3253
焰	-11.3253
吟咏	-11.3253
馬歩都指揮使	-11.3253
泚	-11.3253
以父	-11.3253
𠡠	-11.3253
郭黙	-11.3254
駞	-11.3254
蕉	-11.3254
舂	-11.3254
幽州牧	-11.3255
牂柯	-11.3255
紛紛	-11.3255
八年春正月	-11.3255
鼓吹	-11.3256
兗州刺史	-11.3256
摭	-11.3256
負荷	-11.3256
頋全武	-11.3256
滁州刺史	-11.3256
無知	-11.3257
楚楚楚南漢南漢	-11.3257
郭無為	-11.3258
恭儉	-11.3258
文獻通考	-11.3258
妣	-11.3258
蠕蠕	-11.3259
僰道	-11.3259
右衞將軍	-11.3259
贅	-11.3259
日中	-11.3259
痛惜	-11.3259
感悟	-11.326
水晶	-11.326
商旅	-11.326
寝疾	-11.326
羽儀	-11.3261
釡	-11.3261
講論	-11.3261
舊唐書	-11.3261
㐮陽	-11.3261
㗖	-11.3261
大赦改年	-11.3261
〇	-11.3261
兵馬元帥	-11.3262
幼冲	-11.3262
三方	-11.3263
蒲洪	-11.3263
峽路	-11.3263
鳴鼓	-11.3264
符印	-11.3264
李德誠	-11.3264
淳化	-11.3264
重誨	-11.3265
逾月	-11.3265
滄海	-11.3266
麴允	-11.3266
唯唯	-11.3266
父子兄弟	-11.3267
右手	-11.3267
盛夏	-11.3269
司農	-11.3269
李仁逹	-11.3269
迄今	-11.327
以功拜	-11.327
兖豫	-11.327
君侯	-11.3271
撫慰	-11.3271
商賈	-11.3271
睦州刺史	-11.3273
張文表	-11.3273
馬仁裕	-11.3273
進擊	-11.3274
博覽	-11.3274
公鐸	-11.3275
黃氏	-11.3276
阿房	-11.3276
馬令南唐書云	-11.3276
白帝	-11.3278
貽業	-11.3278
孟昶	-11.3279
識者以為	-11.3279
隴東	-11.3279
掃地	-11.328
成都尹	-11.328
不達	-11.328
率土	-11.3281
浮圖	-11.3281
衞大將軍	-11.3282
先成	-11.3282
雖小	-11.3282
李金全	-11.3285
慕容皝	-11.3287
盡殺	-11.3287
擊走之	-11.3288
萬斛	-11.3289
萬歳	-11.3289
魯口	-11.3289
絶倫	-11.329
復興	-11.329
段業	-11.3291
不遣	-11.3293
石鏡	-11.3293
軍吏	-11.3294
玉冊	-11.3295
講武	-11.3295
劉璋	-11.3296
如生	-11.3296
根本	-11.3296
楊晟	-11.3297
捕之	-11.3298
禹貢	-11.3298
圖畫	-11.3298
衆寡	-11.3299
數百里	-11.33
驍將	-11.33
事蹟	-11.3302
廣政中	-11.3302
王宗綰	-11.3302
先進	-11.3303
駿馬	-11.3303
威振	-11.3306
極諫	-11.3307
營丘	-11.3308
龍啓	-11.3309
諡武	-11.331
蒨	-11.331
招諭	-11.3311
為太師	-11.3311
多殺	-11.3313
之形	-11.3315
妻妾	-11.3315
不聼	-11.3318
年十二	-11.3318
推誠	-11.3318
牢之	-11.3322
父名	-11.3325
謝𤣥	-11.3325
征南	-11.3325
文寳	-11.3326
敢忘	-11.3326
漢王	-11.3327
糧盡	-11.3327
欲求	-11.333
惑衆	-11.3331
遂止	-11.3331
奔秦	-11.3331
樂工	-11.3332
險固	-11.3332
秦苻堅	-11.3334
南夷	-11.3336
眀年	-11.3336
求見	-11.3338
右軍	-11.3338
淮将	-11.3339
甚懼	-11.3342
聲教	-11.3342
以應之	-11.3344
忠臣也	-11.3345
向化	-11.3346
羣議	-11.3346
混一	-11.3348
十餘日	-11.3348
泰始	-11.3349
未審	-11.335
踰月	-11.3351
入禁中	-11.3354
之勞	-11.3357
建熙	-11.3358
未得	-11.3359
奉天	-11.3359
不道	-11.336
殊禮	-11.336
貽書	-11.3362
五部	-11.3362
權貴	-11.3363
可圖也	-11.3367
人也祖	-11.3368
走保	-11.3368
萬餘級	-11.3368
猶可	-11.337
王景崇	-11.3372
鎮撫	-11.3372
西接	-11.3373
崇威	-11.3375
燕軍	-11.3378
嘲之	-11.3378
范陽王	-11.3379
四子	-11.3379
連和	-11.3383
其背	-11.3384
而斃	-11.3385
伏發	-11.3387
可用	-11.3388
常從	-11.3388
爰自	-11.3389
元方	-11.3389
據險	-11.339
與汝	-11.3391
曰吾欲	-11.3392
愛民	-11.3395
惶懼	-11.3395
禱之	-11.3397
仁章	-11.3398
侍衞	-11.34
周室	-11.34
偽號	-11.3401
不知何	-11.3406
或勸	-11.3407
大貴	-11.3408
胡人	-11.3411
於建康	-11.3411
豈惟	-11.3413
二主	-11.3413
疾甚	-11.3416
循州	-11.3417
禍亂	-11.3418
視朝	-11.3419
徴拜	-11.342
賣國	-11.3421
思恭	-11.3421
太祖太祖	-11.3421
文支	-11.3424
魯陽	-11.3424
馳馬	-11.3426
運糧	-11.3428
辭氣	-11.3431
元年春二月	-11.3432
五十年	-11.3433
劉顯	-11.3433
力士	-11.3433
廓清	-11.3436
所逐	-11.3437
方慶	-11.3438
豈宜	-11.3438
漢嘉	-11.3444
史氏	-11.3445
智畧	-11.3446
數嵗	-11.3447
先遣	-11.3449
改葬	-11.3449
於京師	-11.345
平居	-11.3457
省事	-11.3458
武臣	-11.3458
應援	-11.3465
學生	-11.3468
救援	-11.3468
四年夏四月	-11.3469
李景	-11.3474
開平二年	-11.3475
天漢	-11.3476
是月勅	-11.3478
兵少	-11.3479
無可	-11.348
宰臣	-11.348
厲聲	-11.3485
相對	-11.3492
遣使來告	-11.3493
仍命	-11.3495
遂進攻	-11.3499
大政	-11.35
書記	-11.3502
言是也	-11.3505
少子也	-11.3508
四姓	-11.3512
時又有	-11.3513
子仁	-11.3514
顯名	-11.3514
如元	-11.3515
人間	-11.352
廢興	-11.352
入漢中	-11.3527
李公	-11.3528
非常人	-11.3531
下車	-11.3532
初平	-11.3535
新登	-11.3541
已又改	-11.3543
自云	-11.3544
投於	-11.3548
如此則	-11.3549
不習	-11.3552
有如	-11.3553
以旌	-11.3554
得書	-11.3555
從弟也	-11.3555
思歸	-11.3557
民田	-11.3557
微臣	-11.3559
徳政	-11.3562
宣徳	-11.3564
不對	-11.3565
始有	-11.3566
修貢	-11.3573
長史張	-11.3576
二千餘	-11.3577
乆矣	-11.3579
太子元膺	-11.3583
徐成	-11.3583
相尋	-11.3593
揚子	-11.3595
已為	-11.3595
居焉	-11.3596
大元	-11.3597
既立	-11.3598
唐人	-11.3601
為大將	-11.3601
而食之	-11.3603
俱死	-11.3603
因請	-11.3608
字士	-11.361
南安人	-11.3611
諸將多	-11.3612
暴風	-11.3613
平地	-11.3614
法師	-11.3618
但恐	-11.3618
奏聞	-11.3619
機事	-11.3623
已成	-11.3623
兵二萬	-11.3626
有八	-11.3627
盡禮	-11.3628
明州刺史	-11.3629
上疏請	-11.3635
典禮	-11.3637
元清	-11.3638
以全	-11.3646
文獻	-11.3651
異日	-11.3658
清平	-11.366
及堅	-11.3662
其部落	-11.3663
皆成	-11.3663
文種	-11.3664
淮南兵	-11.3667
治民	-11.3674
仲逹	-11.3678
帥精騎	-11.368
相遇	-11.3687
遂不復	-11.3688
親屬	-11.3693
髙祖時	-11.3693
開基	-11.3694
繼昌	-11.3697
馳還	-11.3697
詐稱	-11.37
終焉	-11.3701
北路	-11.3702
䝉遜遣	-11.3704
奔長安	-11.3704
乃罷	-11.3705
頗疑	-11.3707
為征東將軍	-11.3708
騎五千	-11.3708
議郎	-11.3709
衆大敗	-11.3711
次第	-11.3715
先公	-11.3716
兵十萬	-11.3719
漢思	-11.373
契丹使	-11.3735
張雄	-11.3735
命左右	-11.3736
長興元年	-11.3738
行章	-11.3739
之鄉	-11.3741
太守劉	-11.3743
從此	-11.3745
王環	-11.3746
而食	-11.3746
之寄	-11.3753
宜早	-11.3754
不荅	-11.376
勸農	-11.3761
姓李氏	-11.3762
䘚年七十	-11.3763
沉等	-11.3767
山為	-11.377
自安	-11.377
漢南	-11.3771
魏師	-11.3773
乃拜	-11.3774
名為	-11.3776
綿州	-11.3781
在位三	-11.3782
起自	-11.3783
諭安南	-11.3789
列侯	-11.379
曜曜	-11.379
曰僕	-11.3795
周禮	-11.3799
歲時	-11.3805
典故	-11.3808
今大王	-11.3819
當年	-11.382
岐兵	-11.3833
上馬	-11.3833
與其子	-11.3834
三十四	-11.3835
必將	-11.3838
興師伐	-11.3842
待其	-11.3843
内實	-11.3846
與之同	-11.3847
奪人	-11.3849
鎮東軍	-11.385
死生	-11.3851
時稱	-11.3852
樓下	-11.3852
鞍轡	-11.3855
燕國	-11.3855
世事	-11.3858
李雄	-11.3859
則云	-11.3862
圍城	-11.3865
郪	-11.3873
察之	-11.3873
慕之	-11.3877
柘	-11.3879
以明	-11.3883
柘東	-11.3883
位至	-11.3888
卒贈	-11.3891
武成元年	-11.3893
平定	-11.3898
海門	-11.39
楚楚	-11.3903
升為	-11.3905
盡得	-11.3908
河南王	-11.3909
十五萬	-11.3914
舟中	-11.3918
乃作	-11.3919
宗滌	-11.3919
因問	-11.392
及垂	-11.3921
西至	-11.3924
今宜	-11.3926
齊桓	-11.3927
言事	-11.3929
求賢	-11.3932
樞密	-11.3933
孺	-11.3933
雁	-11.3935
沼	-11.3936
于成都	-11.3936
兠	-11.3937
涵	-11.3938
滴	-11.3938
卷七	-11.394
髙下	-11.3941
宗綰	-11.3941
毘	-11.3942
罽	-11.3942
種曰	-11.3942
弓裔	-11.3943
鑊	-11.3943
箴	-11.3943
軺	-11.3944
錡	-11.3944
璵	-11.3944
歇	-11.3944
臣子之	-11.3945
彗星	-11.3946
撥亂	-11.3947
廷藝	-11.3947
鯁	-11.3947
氐王楊	-11.3947
蟬	-11.3948
陶璜	-11.3948
寵之	-11.3949
錐	-11.3949
鞭之	-11.3949
潯	-11.3949
觀察處置等使	-11.395
纓	-11.395
宰嚭	-11.395
釋迦	-11.395
殖	-11.395
市中	-11.3951
翟遼	-11.3951
芥	-11.3951
鑰	-11.3951
厠	-11.3951
港	-11.3952
太守張	-11.3952
闚	-11.3953
寰	-11.3953
政堂文學	-11.3953
炤	-11.3953
隄	-11.3953
諫諍	-11.3953
嵬	-11.3953
無能為也	-11.3953
盎	-11.3953
為之後繼	-11.3953
汝隂王	-11.3953
眩	-11.3953
輓	-11.3953
諦	-11.3954
皋	-11.3954
笮	-11.3954
孔雀	-11.3954
葵	-11.3955
鐔	-11.3955
欽定四庫全書十國春秋卷一百	-11.3955
廡	-11.3955
芟	-11.3955
東平公紹	-11.3955
壺闗	-11.3955
二世	-11.3955
㸦	-11.3955
鷰	-11.3955
絕	-11.3955
臾	-11.3956
概	-11.3957
譟	-11.3957
俚	-11.3957
涿	-11.3957
珊瑚	-11.3957
廽	-11.3957
赱	-11.3957
諠	-11.3957
默	-11.3958
讜	-11.3958
嗚	-11.3958
蠧	-11.3958
光葆	-11.3958
押牙	-11.3958
優容之	-11.3958
十國春秋卷一百	-11.3958
仇讐	-11.3959
巍	-11.3959
猫	-11.3959
耐	-11.3959
飭	-11.3959
刹	-11.3959
鄆	-11.3959
賜金紫	-11.3959
煒	-11.3959
琅	-11.396
門下侍郎平章事	-11.396
䛕	-11.396
竈	-11.396
鎮遏使	-11.3961
今從十國紀年	-11.3961
鳬	-11.3961
荒淫	-11.3961
媵	-11.3961
譚以䝉	-11.3962
黄門郎	-11.3962
愎	-11.3962
鄜	-11.3962
豔	-11.3962
嘉禾	-11.3962
溉	-11.3962
以疾辭	-11.3963
軍諮祭酒	-11.3963
鉅萬	-11.3963
率衆來伐	-11.3963
𥿄	-11.3963
身長七尺	-11.3963
霑	-11.3963
終無	-11.3963
迺	-11.3964
峨	-11.3964
謂所親曰	-11.3964
㐫	-11.3964
弈	-11.3964
顕	-11.3964
束帛	-11.3964
圜丘	-11.3965
珂	-11.3965
偡	-11.3966
太子宣	-11.3966
贓	-11.3966
嫗	-11.3966
刳	-11.3966
秘書省正字	-11.3966
琢	-11.3966
伊尹	-11.3967
楊州	-11.3967
為首	-11.3967
挈家	-11.3967
組	-11.3967
唐文扆	-11.3967
催	-11.3967
胸	-11.3967
振威將軍	-11.3967
振旅	-11.3967
笥	-11.3968
即尊位	-11.3968
𣢾	-11.3968
腕	-11.3968
别墅	-11.3968
怨之	-11.3968
衮冕	-11.3969
器皿	-11.3969
閭丘	-11.3969
宣州觀察使	-11.3969
王與太后	-11.3969
爕	-11.397
十有二月	-11.397
北地王鍾	-11.397
閼	-11.397
亶	-11.397
批	-11.3971
暴虐	-11.3971
泌	-11.3971
修徳	-11.3971
薑	-11.3971
圎	-11.3971
惇	-11.3971
入卧内	-11.3971
犒師	-11.3971
御厨	-11.3971
愽	-11.3972
北遷	-11.3972
哂	-11.3972
値	-11.3972
葦	-11.3972
韋莊	-11.3973
沈彬	-11.3974
庠序	-11.3974
天下兵馬都元帥	-11.3974
去縣五十里	-11.3975
七年春二月	-11.3975
自稱留後	-11.3975
呉呉南唐南唐中朝	-11.3976
瑋	-11.3976
王子傳瓘	-11.3976
程遐	-11.3976
斛律	-11.3976
委質	-11.3977
汶山太守	-11.3978
都邑	-11.3978
蘓文	-11.3979
自此始	-11.3979
攻之不克	-11.398
縣民	-11.398
以功遷	-11.398
東川兵	-11.398
將軍劉	-11.398
武忠王	-11.398
元珦	-11.3981
濟南	-11.3981
滇池	-11.3981
賜緋	-11.3982
涼土	-11.3982
固辭不受	-11.3983
有異志	-11.3983
嬰齊	-11.3983
出于	-11.3984
犁	-11.3984
布帛	-11.3984
杜稜	-11.3984
二十三日	-11.3985
篤學	-11.3985
乗輿	-11.3985
天下大亂	-11.3987
太湖	-11.3987
劉建鋒	-11.3988
有娠	-11.3988
正殿	-11.3989
國恩	-11.3989
光稠	-11.399
百揆	-11.3991
索隱	-11.3991
狀貌	-11.3992
臨軒	-11.3993
數百騎	-11.3993
廪君	-11.3994
萬卷	-11.3995
二寸	-11.3996
知州事	-11.3996
州别駕	-11.3997
允升	-11.3998
河南太守	-11.3998
不敢逼	-11.3998
虜掠	-11.3999
王宗滌	-11.3999
聞之大怒	-11.4
隴城	-11.4
徐鍇	-11.4
偏将	-11.4
招納	-11.4
者衆	-11.4001
道左	-11.4002
畫工	-11.4002
王輿	-11.4003
𢎞操	-11.4003
羣兒	-11.4004
次子也	-11.4004
圖籍	-11.4005
在郡	-11.4005
豪右	-11.4005
李濤	-11.4006
龍騰	-11.4006
為祟	-11.4007
昭悦	-11.4007
淮南節度副使	-11.4009
元帥府	-11.401
戰勝	-11.401
機宻	-11.4011
渭北	-11.4011
武庫	-11.4013
慎修	-11.4013
元璽	-11.4013
真珠	-11.4014
龍腦	-11.4015
無備	-11.4016
道安	-11.4016
行愍	-11.4016
為尚書郎	-11.4017
開寶中	-11.4017
帥其衆	-11.4018
庶政	-11.4018
繼顒	-11.4018
於東堂	-11.4018
篆文	-11.4019
元瓘	-11.402
聖㫖	-11.4021
二十人	-11.4023
自京師	-11.4025
皇華	-11.4027
豎子	-11.4029
餘姚	-11.403
資給	-11.4031
趙氏	-11.4031
割據	-11.4032
爵位	-11.4033
素無	-11.4033
天祐三年	-11.4034
獻詩	-11.4035
忠武軍	-11.4039
從父	-11.404
郭威	-11.404
境土	-11.404
伊吾	-11.4041
失其名	-11.4041
責其	-11.4041
安南將軍	-11.4041
報恩	-11.4042
詣金陵	-11.4043
俄遷	-11.4044
貳城	-11.4044
右職	-11.4045
不倦	-11.4046
鹽官	-11.4046
遊於	-11.4046
寵遇	-11.4048
四年春	-11.405
明旦	-11.4051
咸寧	-11.4051
賜紫	-11.4051
離間	-11.4052
被甲	-11.4053
旣而	-11.4053
相救	-11.4053
族人	-11.4055
李驤	-11.4058
誕生	-11.4058
乗間	-11.4059
傾心	-11.4059
一城	-11.4059
解圍	-11.406
否則	-11.4064
耀兵	-11.4064
布政	-11.4065
梁冀	-11.4068
無何卒	-11.4068
大抵	-11.4071
應運	-11.4073
為辭	-11.4073
兵敗績	-11.4075
數萬人	-11.4078
乎夫	-11.4078
制授王	-11.4079
太章	-11.4079
雄勇	-11.4081
長公主	-11.4082
表聞	-11.4082
復姓	-11.4087
𨽻書	-11.4088
四部	-11.4089
祖宗之	-11.409
部大人	-11.409
北部	-11.4092
宜加	-11.4094
猶豫	-11.4094
齊魯	-11.4095
教化	-11.4095
繕甲	-11.4095
鄉侯	-11.4097
表薦	-11.4103
變色	-11.4104
寵任	-11.4104
歸我	-11.4106
三年夏四月	-11.4107
揚州刺史	-11.4111
累朝	-11.4111
可否	-11.4114
千騎	-11.4115
欽州	-11.4115
未平	-11.4116
文采	-11.4116
勢甚盛	-11.4117
後數年	-11.4117
離心	-11.4119
至忠	-11.412
鄴宫	-11.4122
在今	-11.4123
憲成	-11.4124
索多	-11.4124
毛詩	-11.4126
比年	-11.4128
大豫	-11.4129
常言	-11.413
㡬何	-11.4131
晉兵	-11.4133
踰於	-11.4133
安平	-11.4134
性好	-11.4138
馬援	-11.4139
養民	-11.414
何得	-11.4142
静江	-11.4144
荆南兵	-11.4144
其狀	-11.4145
付之	-11.4147
金城太守	-11.4148
東面	-11.4151
周公之	-11.4151
仕晉	-11.4153
和氣	-11.4155
不得進	-11.4159
乗馬	-11.4164
淮南節度使	-11.4164
咸平	-11.4165
七州	-11.4167
器用	-11.4169
都頭	-11.4172
累遷至	-11.4173
太子太傅	-11.4175
州府	-11.4176
驍騎	-11.4176
雅州	-11.4181
庭下	-11.4183
解去	-11.4184
何哉	-11.4185
將圖	-11.4186
威武軍節度使	-11.4187
山野	-11.4188
憲宗	-11.4189
遣使送	-11.4189
豐城	-11.4193
劉存	-11.4194
忽然	-11.4195
高昌	-11.4197
冊命	-11.4201
疾苦	-11.4203
之死也	-11.4203
楚師	-11.4206
無狀	-11.4211
邦國	-11.4212
自尊	-11.4213
記之	-11.4214
蜀時	-11.4215
門者	-11.4215
廷謂	-11.4216
狀如	-11.4217
往年	-11.4217
與契丹	-11.4218
神氣	-11.4218
尚書省	-11.4221
上將	-11.4223
徳陽	-11.4223
庫使	-11.4231
可福	-11.4231
懐帝	-11.4232
營於	-11.4233
西夏	-11.4234
為援	-11.4235
不俟	-11.4235
命有司	-11.4235
羽翼	-11.4236
其孫	-11.4237
後主常	-11.4238
八萬	-11.4243
嫡子	-11.4243
仍舊	-11.4244
政丞	-11.425
我輩	-11.4251
福唐	-11.426
平蜀	-11.426
繼成	-11.4263
改年	-11.4271
薬	-11.4275
之過也	-11.4276
吾子	-11.4277
既克	-11.4279
宋初	-11.428
一門	-11.428
從嘉	-11.4281
元常	-11.4282
顯官	-11.4283
吾國	-11.4284
厯官	-11.4285
建業	-11.4285
齊難	-11.4286
見害	-11.4286
府署	-11.4288
建議	-11.429
意在	-11.429
難也	-11.4294
高陽	-11.43
弟希崇	-11.4305
尚曰	-11.4306
營中	-11.4306
代郡	-11.431
親率	-11.4315
大聖	-11.4321
大禹	-11.4321
等討之	-11.4326
雖在	-11.4327
而用之	-11.4329
屬文	-11.4333
困於	-11.4339
密謀	-11.4339
使將軍	-11.4347
髙氏	-11.4347
失守	-11.4351
嶺表	-11.4352
天德	-11.4353
外援	-11.4356
薨子	-11.4362
陳謝	-11.4365
建興元年	-11.4366
后段氏	-11.4367
峯州	-11.4368
巻	-11.4369
煉	-11.4371
胡則	-11.4375
千年	-11.4375
萬騎	-11.4385
三韓	-11.439
西宫	-11.4391
時年五十	-11.4396
謀議	-11.4403
將士皆	-11.4404
司馬氏	-11.4406
三十五	-11.4407
待士	-11.441
文寶	-11.4411
死者甚衆	-11.4418
新安	-11.4422
武始	-11.4422
追兵	-11.4423
盛徳	-11.4424
走馬	-11.4428
者無不	-11.4429
方外	-11.443
杜進	-11.4431
在吳	-11.4433
之仇	-11.4435
敵兵	-11.4435
藩臣	-11.4437
宜陽	-11.4439
冠帶	-11.4442
来奔	-11.4443
日暮	-11.4443
客將	-11.4444
夢中	-11.4445
十五卷	-11.4453
無乃	-11.4454
先至	-11.4454
北郊	-11.4455
少與	-11.4457
不能從	-11.4463
部民	-11.4468
上第	-11.447
還屯	-11.4471
九重	-11.4472
泉州人	-11.4472
生平	-11.4473
兵力	-11.4474
昭文	-11.4476
不遜	-11.4478
千里之	-11.4479
郎將	-11.4486
乎於是	-11.4486
趙兵	-11.4489
帝遣使	-11.449
仲夫	-11.4491
刑部	-11.4491
臨死	-11.4492
教以	-11.4494
有寵於	-11.4494
所忌	-11.4495
報曰	-11.4496
仍令	-11.45
閩越	-11.45
至孝	-11.4501
攻常州	-11.4503
吾家	-11.4505
聰敏	-11.4505
隣國	-11.4512
南向	-11.4516
二丈	-11.4519
才畧	-11.4524
王業	-11.4525
為中書侍郎	-11.4527
在東	-11.4531
宫闕	-11.4537
州里	-11.4546
常居	-11.4547
掩擊	-11.4548
渝州	-11.455
一統	-11.4552
降附	-11.4555
犍	-11.4567
國后	-11.4567
二年夏五月	-11.4567
非所以	-11.4571
𢎞道	-11.4571
安東	-11.4576
字孟	-11.4577
全義	-11.458
不移	-11.4584
常州刺史	-11.4588
仙人	-11.4589
太宰嚭曰	-11.4592
兩軍	-11.4592
憐之	-11.4592
如意	-11.4599
仁孝	-11.46
景王	-11.4608
臣妾	-11.4613
事髙祖	-11.4615
郡吏	-11.4618
怪之	-11.4621
募兵	-11.4623
楚將	-11.4626
玉帯	-11.4628
張遇	-11.4633
又建	-11.4638
十一人	-11.4639
十篇	-11.4639
卿士	-11.464
下蔡	-11.464
附于	-11.4643
後嗣	-11.4644
常在	-11.4645
久而	-11.4645
上林	-11.4648
於成都	-11.4661
勢必	-11.4664
以補	-11.4664
果敗	-11.4664
大夫種曰	-11.4664
多此𩔖	-11.4665
而泣	-11.4666
恵帝	-11.4667
加封	-11.4671
放之	-11.4672
術數	-11.4673
曰昨	-11.4674
乃留	-11.4679
天府	-11.4681
為第一	-11.4682
有傳	-11.4683
右丞	-11.4684
山寺	-11.4685
烘	-11.4686
聞之怒	-11.4687
勿復	-11.469
不能救	-11.4696
隴州	-11.4697
吳氏	-11.4698
相善	-11.4699
悵	-11.47
壑	-11.4702
夜宴	-11.4702
烽	-11.4703
五寸	-11.4704
郯	-11.4707
僻陋	-11.4708
逕	-11.4708
祔	-11.4709
鵠	-11.471
步軍都指揮使	-11.471
北望	-11.4711
觔	-11.4712
懋	-11.4713
禮部	-11.4713
何面目	-11.4713
􁏫	-11.4713
遞	-11.4714
䖍釗	-11.4715
九真日南	-11.4717
幡	-11.4717
撥	-11.4719
塊	-11.4719
誼	-11.472
侈靡	-11.472
紇	-11.472
桃豹	-11.472
鄠	-11.472
偹	-11.4721
圯	-11.4721
躓	-11.4722
夜行	-11.4722
卬	-11.4722
榭	-11.4722
烝	-11.4722
綠	-11.4723
小臣	-11.4723
租稅	-11.4723
頑	-11.4723
控弦	-11.4723
壹	-11.4724
掲	-11.4724
屣	-11.4725
觀察推官	-11.4725
膾	-11.4725
誄	-11.4725
寜朔將軍	-11.4725
隰	-11.4725
判三司	-11.4725
荘宗	-11.4726
餙	-11.4726
迢	-11.4726
嗣皇帝位	-11.4726
森	-11.4727
搖	-11.4727
天䇿府	-11.4727
平南將軍	-11.4727
瑱	-11.4727
大恐	-11.4728
甯	-11.4728
司天監	-11.4728
潘在迎	-11.4728
欄	-11.4728
雷弱兒	-11.4728
姿貌	-11.4728
諸將皆曰	-11.4728
䟦扈	-11.4729
筒	-11.4729
踴躍	-11.4729
旵	-11.4729
霖雨	-11.4729
立長君	-11.4729
悽	-11.4729
㡌	-11.4729
夭	-11.4729
抵罪	-11.4729
偁	-11.473
寗	-11.473
款	-11.473
國亡入宋	-11.473
峩	-11.473
奐	-11.473
筍	-11.4731
殷崇義	-11.4731
郛	-11.4731
妨	-11.4731
右補闕	-11.4731
仲尼	-11.4731
虬	-11.4731
陘	-11.4731
第五子也	-11.4731
懈	-11.4732
檻車	-11.4732
圃	-11.4732
鼔譟	-11.4732
天福十二年	-11.4732
扁	-11.4732
宇宙	-11.4732
聞而惡之	-11.4733
靈耀	-11.4733
崇質	-11.4733
毆	-11.4733
李苾	-11.4733
騷動	-11.4733
勗	-11.4733
尊為皇太后	-11.4733
太常博士	-11.4733
琥珀	-11.4734
黄滔	-11.4734
巵	-11.4734
禋	-11.4734
奭	-11.4734
戩	-11.4734
二十日	-11.4734
鬢	-11.4734
薫	-11.4735
仇池公楊	-11.4735
董卓	-11.4735
仲㝢	-11.4735
勾吳	-11.4736
嘉其功	-11.4736
雨雹	-11.4736
珉	-11.4736
泳	-11.4736
李𢎞臯	-11.4736
大中祥符	-11.4736
甬	-11.4736
炕	-11.4737
眠	-11.4737
領縣六	-11.4737
撫綏	-11.4737
趋	-11.4737
牕	-11.4737
逓	-11.4737
蔗	-11.4737
萬餘口	-11.4737
酸	-11.4738
東都留守	-11.4738
競渡	-11.4738
鋌	-11.4738
龔壯	-11.4738
縮	-11.4738
寅遜	-11.4738
裸	-11.4738
王宗播	-11.4739
偹史	-11.4739
琉璃	-11.4739
樞密院	-11.4739
喇	-11.4739
死者大半	-11.4739
黎庶	-11.4739
羗校尉	-11.474
宗瑤	-11.474
奉國	-11.474
頎	-11.474
姚彦章	-11.474
雞林	-11.474
稼	-11.474
裙	-11.474
犂	-11.474
乞活	-11.474
謀反伏誅	-11.474
旦暮	-11.474
潘承祐	-11.4741
冠冕	-11.4741
神道碑	-11.4741
昭劵	-11.4741
伽倻	-11.4741
指麾	-11.4742
貴戚	-11.4742
扈從	-11.4742
台符	-11.4742
笛	-11.4742
坎	-11.4742
出居	-11.4743
顆	-11.4743
安思謙	-11.4743
精銳	-11.4743
陸賈	-11.4743
建元十	-11.4743
歸義侯	-11.4743
罪人	-11.4743
嗤	-11.4743
抗衡	-11.4743
筏	-11.4744
金方慶	-11.4744
李孺贇	-11.4745
劔門	-11.4745
諺曰	-11.4745
終其身	-11.4745
尢	-11.4746
廵檢使	-11.4746
旂	-11.4746
抄掠	-11.4746
雷震	-11.4746
知貢舉	-11.4747
受禅	-11.4748
工畫	-11.4748
旌節	-11.4748
犀帶	-11.4748
英傑	-11.4748
教坊	-11.4749
鮓	-11.4749
䖍裕	-11.475
猛獸	-11.475
昌黎太守	-11.475
通衢	-11.4751
永興元年	-11.4751
好讀書	-11.4752
友恭	-11.4752
直抵	-11.4752
戈甲	-11.4753
南唐近事云	-11.4753
專掌	-11.4753
安東將軍	-11.4753
莫測	-11.4753
寰宇記	-11.4753
孔萇	-11.4754
哀牢	-11.4754
黄紹頗	-11.4755
離散	-11.4756
織成	-11.4757
張延翰	-11.4758
追尊父	-11.4758
軍大潰	-11.4758
士燮	-11.4759
公羡	-11.4759
刺客	-11.4759
七尺	-11.476
羲聲	-11.4761
劔州	-11.4761
乙弗	-11.4761
乳陳	-11.4761
建勳	-11.4762
徐寅	-11.4762
瀘水	-11.4762
不得見	-11.4762
城塹	-11.4763
海鹽	-11.4763
劒州	-11.4763
鄊侯	-11.4763
丹青	-11.4764
創業	-11.4764
人莫不	-11.4764
朱令贇	-11.4764
希振	-11.4764
十國紀年云	-11.4765
禪院	-11.4765
詩文	-11.4765
孟知祥	-11.4766
躍馬	-11.4766
雄州	-11.4766
香藥	-11.4767
輔弼	-11.4767
被髪	-11.4769
怡然	-11.4769
九真太守	-11.477
工詩	-11.4771
司𨽻	-11.4772
明主	-11.4773
賦役	-11.4774
范隆	-11.4774
希隱	-11.4775
歐陽五代史	-11.4775
甚惡之	-11.4776
張巒	-11.4776
不喜	-11.4776
慰撫	-11.4777
龍昇	-11.4777
耆舊傳	-11.4777
多此𩔖也	-11.4777
孝友	-11.4779
保寅	-11.478
辭㫖	-11.4781
荆門	-11.4781
升堂	-11.4782
都綂	-11.4782
闗右	-11.4783
於燕	-11.4783
度量	-11.4785
有二心	-11.4785
三十卷	-11.4785
二十一日	-11.4787
都元帥	-11.4788
者耶	-11.4788
祖考	-11.4789
恃功	-11.479
數尺	-11.4791
數丈	-11.4792
國祚	-11.4793
藏經	-11.4795
號哭	-11.4795
吉州刺史	-11.4795
麾兵	-11.4796
審思	-11.4797
被害	-11.4802
日以	-11.4802
宣諭	-11.4803
繼恭	-11.4803
汝輩	-11.4804
禮畢	-11.4804
一寸	-11.4805
周鼎	-11.4805
兵五萬	-11.4806
率衆數萬	-11.4807
得衆心	-11.4808
精誠	-11.481
十有六	-11.4811
武陽人也	-11.4812
李徴古	-11.4813
吳兵	-11.4816
發兵攻	-11.4816
縊死	-11.4816
以銀	-11.4817
酒器	-11.4817
之兆也	-11.482
引兵會	-11.482
欲圖	-11.4822
率户	-11.4823
誓衆	-11.4823
五年春三月	-11.4823
有鹽井	-11.4824
懼禍	-11.4825
處謙	-11.4826
李瓊	-11.4826
中山王曜	-11.4827
自愛	-11.4827
師友	-11.4828
道塲	-11.4829
危亡	-11.483
罷其	-11.483
戎服	-11.483
盡誅	-11.4831
昌松	-11.4831
權要	-11.4832
臣禮	-11.4832
承裕	-11.4832
衛将軍	-11.4833
鐡錢	-11.4835
濟隂	-11.4836
世傳	-11.4838
同盟	-11.4839
宻遣	-11.484
朱紀	-11.484
隴西公	-11.4841
今當	-11.4841
延祚	-11.4842
應期	-11.4843
具陳	-11.4843
率諸將	-11.4844
五十餘人	-11.4846
萬三千	-11.4847
頷之	-11.4848
龍泉	-11.4849
選舉	-11.4852
白沙	-11.4854
在鄴	-11.4854
禱于	-11.4855
甚急	-11.4855
土木	-11.4857
積年	-11.4857
因循	-11.4859
一介	-11.4859
頓兵	-11.4859
老夫	-11.4861
必須	-11.4864
百日	-11.4866
五州	-11.4867
若能	-11.4867
隱士	-11.4867
收集	-11.487
大駭	-11.487
不能對	-11.487
數十年	-11.4871
歴代	-11.4874
僣稱	-11.4875
所生也	-11.4875
臣父	-11.4879
元戎	-11.488
獨立	-11.488
盜賊	-11.4882
不調	-11.4882
立是為	-11.4882
趙郡	-11.4883
土人	-11.4883
武皇	-11.4883
賜宴	-11.4885
職貢	-11.4885
杜氏	-11.4886
之規	-11.4886
不朽	-11.4887
𢎞度	-11.4888
肅然	-11.4889
必克	-11.4891
秦彦	-11.4892
舊京	-11.4892
永陵	-11.4892
朱氏	-11.4895
求救于	-11.4896
降周	-11.4898
陽裕	-11.4899
城西北	-11.49
舉手	-11.4902
恐懼	-11.4904
唐詔	-11.4905
威靈	-11.4906
杜預曰	-11.4912
五官	-11.4914
過矣	-11.4915
無媿	-11.4918
光祚	-11.4923
二部	-11.4925
宣威	-11.4925
興邦	-11.4927
正統	-11.4928
畢命	-11.4928
饑甚	-11.493
火焚	-11.4931
乃遣使	-11.4936
獄中	-11.4937
不從乃	-11.4939
連年	-11.494
上書請	-11.4942
大計	-11.4943
預知	-11.4943
在側	-11.4944
王莾	-11.4944
嚴整	-11.4945
顯宗	-11.4945
屯戍	-11.4946
中華	-11.4948
宗夀	-11.4948
以示之	-11.4949
時論	-11.4952
上郡	-11.4954
登高	-11.4955
涪人也	-11.4955
無疆	-11.4958
樹下	-11.4959
海中	-11.4962
相拒	-11.4964
江華	-11.4965
錢江	-11.4966
國威	-11.4967
及其黨	-11.4968
劉備	-11.4968
下詔曰	-11.4974
弑君	-11.4976
梓潼人也	-11.4979
帥所部	-11.4983
除授	-11.4984
伐燕	-11.4984
厚重	-11.4986
寵愛	-11.4987
佐平	-11.4989
建寧王	-11.4992
武夫	-11.4993
為都統	-11.4997
和二年	-11.4997
今雖	-11.4997
池水	-11.5001
據長安	-11.5003
自給	-11.5007
百勝軍節度使	-11.5009
尋拜	-11.5013
至汴京	-11.5018
及其子	-11.5019
三江	-11.5021
卒年八十	-11.5022
魏延	-11.5025
清流	-11.5031
三品	-11.5039
罪狀	-11.5044
毁其	-11.5046
博雅	-11.5046
至建康	-11.5046
昔在	-11.5047
第九	-11.5049
修德	-11.5049
㑹同	-11.5051
去帝號	-11.5054
定保	-11.5058
十三人	-11.5064
威武節度使	-11.5064
進賢	-11.5065
敗亡	-11.5065
本末	-11.5065
重修	-11.5067
及將士	-11.5068
笑曰吾	-11.5069
生變	-11.507
魏郡	-11.507
百金	-11.507
行省	-11.5074
來庭	-11.5082
彼此	-11.5083
六師	-11.5085
獄吏	-11.5087
三百餘人	-11.509
自誓	-11.5091
世亂	-11.5094
此行	-11.5096
為列侯	-11.5098
才非	-11.5099
深加	-11.51
追擊之	-11.5104
連日	-11.5104
山隂	-11.5104
兵救之	-11.511
尚能	-11.5111
瘞之	-11.5113
杖而	-11.5115
起兵應	-11.5118
周易	-11.5119
元元	-11.5119
但當	-11.5121
聖賢	-11.5126
濟時	-11.5126
魏魏	-11.5126
𢎞濟	-11.5128
三日而	-11.513
公約	-11.513
信任	-11.5131
正是	-11.5133
西歸	-11.5137
免禍	-11.5137
清道	-11.5142
為尚書左僕射	-11.5146
襲破	-11.5147
不得入	-11.5153
務在	-11.5154
者盖	-11.5162
二百里	-11.5164
二十六年	-11.5164
不競	-11.517
給其	-11.5171
閉門拒	-11.5176
安吉	-11.5177
立太子	-11.5178
詩書	-11.5178
五嶺	-11.5181
溪州	-11.5188
四年正月	-11.519
要當	-11.5191
於兹	-11.5196
諸郡皆	-11.5203
戰不勝	-11.5205
况今	-11.521
殿庭	-11.5212
上聞	-11.5212
在今日	-11.522
等起兵	-11.522
彼若	-11.5223
屬國	-11.5225
平樂	-11.5227
吾輩	-11.5227
皆潰	-11.5228
義陽	-11.5232
六十餘	-11.5239
地名	-11.524
為齊王	-11.5242
於諸侯	-11.5243
方逺	-11.5244
周寳	-11.5248
不庭	-11.5249
擊大破之	-11.5251
新定	-11.5253
興亡	-11.5254
髙麗王	-11.5255
制封	-11.5258
不妄	-11.526
部分	-11.5264
天降	-11.5281
汝可	-11.5281
内則	-11.5282
諸胡	-11.5289
國老	-11.529
聲勢	-11.5291
如雲	-11.5298
魏世祖	-11.5298
不能容	-11.53
百篇	-11.5301
明經	-11.5303
將伐	-11.5304
勤於	-11.5309
賊臣	-11.5311
八卷	-11.5311
朱梁	-11.5313
不接	-11.5319
遷居	-11.5321
十七人	-11.5324
民望	-11.5329
德明	-11.5333
丈二尺	-11.5334
使持節都督	-11.5344
剛直	-11.5347
惜其	-11.5348
以女妻	-11.5352
率精騎	-11.5352
是月帝	-11.5352
文身	-11.5353
騎都尉	-11.5357
亡矣	-11.5374
將殺之	-11.5379
助我	-11.5382
同光三年	-11.5386
尚存	-11.5386
與其弟	-11.5386
鎮鄴	-11.539
威信	-11.5407
㓜而	-11.5407
太行	-11.5414
二十七年	-11.5417
之迹	-11.542
嘲	-11.5424
仲達	-11.5427
伐魏	-11.543
致書于	-11.5435
自衛	-11.5441
西伯	-11.5441
愚臣	-11.5446
民困	-11.5449
性命	-11.5453
欲因	-11.5462
學問	-11.5462
加同平章事	-11.5463
為文	-11.5464
衡陽	-11.5468
又遣使	-11.5472
大順二年	-11.5476
由來	-11.5484
聞之曰	-11.5486
終當	-11.5487
神祠	-11.5495
大畧	-11.5497
周漢	-11.5499
都督府	-11.5499
光義	-11.5502
受恩	-11.5503
穆宗	-11.5513
欽定四庫全書十國春秋	-11.5515
百八十	-11.5522
大呼曰	-11.5525
慶州	-11.5529
懃	-11.5536
狄伯支	-11.5536
忳	-11.5537
椎	-11.5539
徐知證	-11.554
堵	-11.5542
蒼梧	-11.5542
曵	-11.5544
沒奕干	-11.5544
滁	-11.5544
槨	-11.5545
湖湘故事	-11.5545
正當	-11.5545
胡空堡	-11.5546
洒	-11.5546
旽	-11.5547
低	-11.5547
悠悠	-11.5547
燧	-11.5548
揚威將軍	-11.5548
舸	-11.5549
劉衞辰	-11.555
軒轅	-11.555
疊	-11.555
睹	-11.555
蜂	-11.555
媒	-11.5551
瞋目	-11.5551
邯鄲	-11.5551
罔極	-11.5551
酣飲	-11.5551
薩	-11.5552
袂	-11.5552
栽	-11.5552
莖	-11.5552
盡俘其衆	-11.5552
費禕	-11.5552
鏘	-11.5553
拍	-11.5553
趺	-11.5553
莞	-11.5554
還京師	-11.5554
揷	-11.5555
左廂	-11.5555
漕	-11.5555
陴	-11.5555
有姿色	-11.5555
鄕	-11.5555
鼇	-11.5556
翮	-11.5557
鞵	-11.5557
埿	-11.5557
藪	-11.5557
絙	-11.5558
藹	-11.5558
暖	-11.5558
詹	-11.5558
雷霆	-11.5558
傳記	-11.5558
航	-11.5558
疵	-11.5558
人咸異之	-11.5558
瓌智	-11.5558
漣水	-11.5559
熖	-11.5559
庵	-11.5559
腳	-11.5559
五年春二月	-11.5559
銓注	-11.5559
觚	-11.5559
馬軍都指揮使	-11.5559
唾	-11.556
㤀	-11.556
墀	-11.556
鍵	-11.556
受遺詔輔政	-11.556
母昭裔	-11.556
青泥嶺	-11.556
領州事	-11.556
畔	-11.5561
漢嘉太守	-11.5561
譁	-11.5561
掣	-11.5561
馮涓	-11.5561
乂安州	-11.5561
祧	-11.5561
億兆	-11.5561
節度推官	-11.5561
查	-11.5562
承制封拜	-11.5562
泫	-11.5562
箱	-11.5562
海隅	-11.5562
見而竒之	-11.5562
燦	-11.5562
帥騎二萬	-11.5562
象牙潭	-11.5562
華陽國志	-11.5563
番禾	-11.5563
簮	-11.5563
擯	-11.5563
典禁兵	-11.5564
仁沼	-11.5564
别駕從事	-11.5564
屢立戰功	-11.5564
嗚咽	-11.5564
䕶羌校尉	-11.5564
王令謀	-11.5564
鼈	-11.5564
蒯	-11.5564
靜海軍	-11.5565
噉	-11.5565
曳	-11.5565
偈	-11.5565
宝	-11.5565
湼槃	-11.5565
犄角	-11.5565
剡	-11.5566
陳守元	-11.5566
征北大將軍	-11.5566
澠池	-11.5566
件	-11.5566
莫大焉	-11.5566
卨	-11.5566
鑼	-11.5566
行于世	-11.5567
許文稹	-11.5567
猴	-11.5567
傅𢎞之	-11.5567
鴦	-11.5567
茗	-11.5567
有殊色	-11.5567
灝	-11.5567
茍晞	-11.5567
彤	-11.5568
徐知諤	-11.5568
臧否	-11.5568
昴	-11.5568
行營都統	-11.5568
莆田人	-11.5568
皇甫繼勲	-11.5568
沈林子	-11.5568
悰	-11.5568
鮮卑烏丸	-11.5568
桂陽王鎮	-11.5568
撾	-11.5568
瀾	-11.5568
頰	-11.5568
因家焉	-11.5569
雛	-11.5569
誹謗	-11.5569
栖霞	-11.5569
焦朗	-11.5569
綘	-11.5569
崇義	-11.557
烈祖輔吳	-11.557
綦母	-11.557
蕳	-11.557
太武殿	-11.557
氐羗	-11.557
鯉	-11.557
縈	-11.557
功居多	-11.557
席卷	-11.557
緡帛	-11.557
銜璧	-11.557
褊	-11.5571
仕宦	-11.5571
平昌公	-11.5571
馬步軍	-11.5571
河内太守	-11.5572
載記作	-11.5572
种氏	-11.5572
魁偉	-11.5572
鄂國公	-11.5572
邵續	-11.5572
太傅驤	-11.5572
太平御覽	-11.5572
鳯凰	-11.5573
伍胥	-11.5573
諸軍皆潰	-11.5573
𣙜	-11.5573
扎	-11.5573
虔	-11.5573
有父風	-11.5573
縠	-11.5573
綈	-11.5573
越王句踐	-11.5573
勤儉	-11.5574
嫌疑	-11.5574
宮殿	-11.5574
聿	-11.5574
鎮南大將軍	-11.5574
廕	-11.5574
許可瓊	-11.5574
赫連定	-11.5574
死者萬餘人	-11.5574
歎息	-11.5574
地狹	-11.5575
羲廣	-11.5575
朋黨	-11.5575
頔	-11.5575
衒	-11.5575
兼御史大夫	-11.5575
㪷	-11.5575
弓弩	-11.5576
更今名	-11.5576
雁門	-11.5576
盲	-11.5576
刑罰	-11.5577
貿易	-11.5577
宋龍衮撰	-11.5577
順化軍	-11.5578
犍為太守	-11.5578
孫承祐	-11.5578
蛙	-11.5578
耒	-11.5578
弱兒	-11.5579
扶風太守	-11.5579
慰勞	-11.558
賂遺	-11.558
太原公纂	-11.558
自娛	-11.558
東府安撫使	-11.5581
俘虜	-11.5581
巔	-11.5581
翟斌	-11.5582
水丘氏	-11.5583
損益	-11.5583
同母弟也	-11.5583
幼弱	-11.5583
爵禄	-11.5583
興王府	-11.5583
淮南之敗	-11.5584
氏為王后	-11.5584
江原人也	-11.5584
廑	-11.5584
浣	-11.5585
丁部領	-11.5585
鴻基	-11.5585
數十騎	-11.5586
鄧羗	-11.5586
阻絶	-11.5587
婆羅門	-11.5587
噐	-11.5587
驕縱	-11.5587
府院君	-11.5588
嗇	-11.5588
一夫	-11.5588
突圍	-11.5589
焚掠	-11.5589
崇岳	-11.5589
廣武將軍	-11.5589
皇太弟	-11.5589
太祖皇帝	-11.559
七千餘人	-11.559
馮翊太守	-11.559
江南國主	-11.559
陸游	-11.5591
東洲	-11.5591
寶雞	-11.5591
孺子	-11.5592
溲	-11.5592
前此	-11.5592
辭以疾	-11.5592
隂謀	-11.5592
承鈞	-11.5593
載記	-11.5593
乏食	-11.5594
楊璧	-11.5594
大赦改	-11.5594
白虹	-11.5594
專恣	-11.5594
來乞師	-11.5595
陷没	-11.5595
第四子也	-11.5596
越王曰善	-11.5596
諭之曰	-11.5596
甘露降	-11.5596
困窮	-11.5596
王宗儔	-11.5597
故有是命	-11.5597
尚書張	-11.5599
波斯	-11.5599
顓頊	-11.5599
具述	-11.56
流寓	-11.56
先鋒指揮使	-11.56
改授	-11.56
沿江	-11.5601
亦能	-11.5602
河間公	-11.5603
天祐元年	-11.5604
潰圍	-11.5605
騎射	-11.5605
河東太守	-11.5606
急擊之	-11.5606
圖緯	-11.5607
城中有	-11.5608
閹人	-11.5609
舒州刺史	-11.561
曹翰	-11.5611
精舍	-11.5612
疑誤	-11.5612
新繁	-11.5612
殊寵	-11.5613
尤精	-11.5613
富春	-11.5614
草野	-11.5614
閒居	-11.5615
土疆	-11.5616
大蝗	-11.5617
於魯口	-11.5617
鍾氏	-11.5618
詰責	-11.562
忠恕	-11.562
謙恭	-11.562
連戰	-11.5621
陳倉	-11.5623
折節	-11.5623
而無謀	-11.5624
武陽人	-11.5624
石祗	-11.5625
種𩔖	-11.5625
君親	-11.5625
殘賊	-11.5626
但恨	-11.5627
目録	-11.5627
短長	-11.5627
寳劒	-11.5628
杖流	-11.5629
縱酒	-11.563
賜帛	-11.563
懐逺	-11.563
窮極	-11.563
矯詔	-11.5631
不知所在	-11.5631
克貞	-11.5632
碩德	-11.5632
寛和	-11.5633
墜馬	-11.5634
儀衛	-11.5634
同死	-11.5634
烈祖殂	-11.5635
延範	-11.5637
卑辭	-11.5638
語人曰	-11.564
百餘日	-11.5642
賈崇	-11.5642
李繼勲	-11.5642
保融	-11.5643
雨露	-11.5643
曰此非	-11.5644
性尤	-11.5647
鄯善王	-11.5647
正旦	-11.5648
龍顔	-11.5648
一千户	-11.5651
昇平	-11.5651
不奉詔	-11.5653
皇極	-11.5653
堂堂	-11.5653
後主後主	-11.5654
太子即位	-11.5655
繼室	-11.5656
諫議	-11.5656
自免	-11.5657
目疾	-11.5659
李矩	-11.566
楊軌	-11.5661
門樓	-11.5661
巴西太守	-11.5662
散走	-11.5662
幾何	-11.5663
削平	-11.5664
直諫	-11.5665
庶兄	-11.5666
外無	-11.5666
二郡太守	-11.5666
荆楚	-11.5667
庶民	-11.5667
毅宗	-11.5668
歸善	-11.5669
進士及第	-11.5669
柔然	-11.567
卒于官	-11.5674
無滯	-11.5675
熟視	-11.5679
天寳中	-11.5679
文藻	-11.5681
慶忌	-11.5681
嘉寧	-11.5685
帝怒	-11.5686
仁翰	-11.5687
刻石	-11.5689
師朗	-11.5691
陳陶	-11.5693
事業	-11.5695
歴年	-11.5696
喜怒	-11.5697
誰可	-11.5698
情好	-11.57
南京	-11.5701
尋卒	-11.5701
逆賊	-11.5701
諸門	-11.5702
郭氏	-11.5702
赤心	-11.5703
最後	-11.5705
爲刺史	-11.5707
戰不利	-11.5712
為征虜將軍	-11.5713
厥後	-11.5714
憂懼	-11.5716
尚幼	-11.5718
髙彦	-11.5718
弟兄	-11.5719
王鎮惡	-11.5721
當丗	-11.5725
𩔖此	-11.5725
自稱大將軍	-11.5726
建𢎞	-11.5728
張翼	-11.5728
伐木	-11.5729
子也少	-11.5729
霸王之	-11.5731
内應	-11.5733
章奏	-11.5734
内難	-11.5738
氣絶	-11.5739
門户	-11.5739
自矜	-11.5742
湘潭	-11.5744
格言	-11.5745
永州刺史	-11.5746
交廣	-11.5747
臨海	-11.575
交易	-11.5751
李鳳	-11.5753
弱水	-11.5754
清化	-11.5754
土田	-11.5754
部都尉	-11.5754
侯伯	-11.5757
赴闕	-11.5759
殺掠	-11.5761
𩔖也	-11.5764
赤水	-11.5766
海南	-11.5766
建鄴	-11.5768
潞	-11.5772
光惠	-11.5773
賊帥	-11.5774
源州	-11.5776
為主簿	-11.5777
民庶	-11.5782
廣川	-11.5783
歸降	-11.5784
圖經	-11.5784
來䧏	-11.5785
彦通	-11.5786
迭相	-11.579
宿州	-11.5794
河陽	-11.5796
延陵	-11.5796
亡奔	-11.5796
軍深入	-11.5798
杜門	-11.58
覺等	-11.5802
畧同	-11.5802
而不言	-11.5802
仁寶	-11.5803
呉氏	-11.5806
雒人也	-11.5816
皆斬之	-11.5817
十年春正月	-11.5817
奔赴	-11.5818
帝嘉之	-11.5819
戍兵	-11.5819
勞問	-11.5819
東向	-11.5819
鎮潤州	-11.5822
為荆州刺史	-11.583
尋傳	-11.5832
代領	-11.5833
良馬	-11.5833
單騎奔	-11.5834
于潤州	-11.5837
掩其	-11.584
蜀漢	-11.5841
飛入	-11.5843
𤣥武	-11.5848
過失	-11.5849
乃使人	-11.5849
别置	-11.585
與之俱	-11.585
昭遇	-11.5851
攻具	-11.5856
六世	-11.5857
黄氏	-11.5858
不得志	-11.5864
昊天	-11.5864
兵戈	-11.5868
反正	-11.587
其文曰	-11.5871
施行	-11.5873
恩寵	-11.5875
張魯	-11.5877
占曰	-11.5882
擊斬之	-11.5884
卷五	-11.5884
十數人	-11.5891
所統	-11.5893
東夷	-11.5893
遂拔	-11.5894
周后	-11.5894
爲尚書令	-11.5895
宗權	-11.5895
者賞	-11.59
為右長史	-11.5901
瀘江	-11.5903
趙固	-11.5903
不恱	-11.5904
前君	-11.5906
掌中	-11.5909
二萬人	-11.5909
畏死	-11.591
三郎	-11.5918
文詞	-11.5919
延遇	-11.5919
順帝	-11.5921
經年	-11.5921
還京	-11.5927
碑記	-11.5933
豺狼	-11.5935
遺民	-11.5938
宿將	-11.5939
神靈	-11.5941
犀象	-11.5945
二紀	-11.5946
六朝	-11.5947
智略	-11.5947
功髙	-11.5948
卷四	-11.595
于鄴	-11.5957
華山	-11.596
杜預	-11.5962
舊恩	-11.5971
被擒	-11.5987
復仇	-11.5987
不世之	-11.5987
百二十	-11.5988
為前將軍	-11.5988
宗阮	-11.5991
果然	-11.5992
莫如	-11.5994
不戰而	-11.6002
何以加	-11.601
特授	-11.6012
外郡	-11.6014
上表請	-11.6019
貧者	-11.6022
錢塘人	-11.6026
舉衆	-11.6037
龍虎	-11.6042
暴卒	-11.6049
鎮北	-11.6049
入賀	-11.6056
南幸	-11.6057
拒敵	-11.6057
殺身	-11.6059
遣長史	-11.606
察其	-11.6061
今日之事	-11.6062
昨夜	-11.6063
豺狼之	-11.6067
廣明	-11.6074
離石	-11.6074
威聲	-11.6075
汴人	-11.6075
奔上邽	-11.6077
於四海	-11.6083
前年	-11.6087
躬自	-11.609
升平	-11.6091
以彰	-11.6096
上流	-11.6098
何益	-11.61
安逺軍	-11.6106
在長安	-11.6111
南安王	-11.6115
為魏所	-11.6116
亂世	-11.6118
潛謀	-11.6119
白氣	-11.6124
官位	-11.6132
欲誅之	-11.6135
危急	-11.6148
十道	-11.6149
遼州	-11.6149
不念	-11.6151
知其謀	-11.6151
盡衆	-11.6155
十餘丈	-11.6157
疑當	-11.6161
嬖之	-11.6166
異焉	-11.6173
元惡	-11.6176
送死	-11.6178
髙祖即位	-11.6179
於秦秦	-11.618
但言	-11.6181
上章	-11.6185
無慮	-11.6186
武士	-11.6188
從其言	-11.6188
古今之	-11.6194
編年	-11.6202
貢至元	-11.6206
議者以	-11.6211
萬餘户	-11.6211
擊殺之	-11.6215
豈足	-11.6217
祖約	-11.6227
天復二年	-11.6229
偽蜀	-11.6236
戰敗績	-11.6242
王者之	-11.6245
十三州	-11.6245
端門	-11.6246
千餘里	-11.6249
景福元年	-11.6252
僭即	-11.6256
其状	-11.6256
遂殺之	-11.6259
朕當	-11.6259
為樞密使	-11.626
髙越	-11.626
朝京師	-11.6268
兵千人	-11.6269
日甚	-11.6275
聖德	-11.6312
為散騎常侍	-11.633
信讒	-11.633
太子泓	-11.6332
曰先王	-11.6337
宣慰	-11.6338
孝王諱	-11.6342
巨萬	-11.6348
六年夏四月	-11.6351
州界	-11.6352
功德	-11.6363
致雍	-11.6366
崇訓	-11.6372
貢奉	-11.6372
四十四	-11.6372
至汴	-11.6386
所虜	-11.6391
對曰臣聞	-11.6399
母兄	-11.6403
背城	-11.6408
釣磯立談	-11.6416
位號	-11.642
攻長沙	-11.6422
童謡	-11.6424
龍紀元年	-11.6425
伶	-11.6429
安南經畧	-11.6434
於城下	-11.6434
母后	-11.6439
炯	-11.6443
誓文	-11.6444
緋	-11.645
杳	-11.6452
霧四塞	-11.6452
抛	-11.6452
宰樞	-11.6453
婺	-11.6453
敬瑭	-11.6453
悚	-11.6454
垂涕	-11.6455
氐傁	-11.6455
倐	-11.6455
臨淄	-11.6455
大慈寺	-11.6456
針	-11.6456
醴	-11.6456
才兼文武	-11.6456
壕	-11.6458
於河西	-11.6458
静海	-11.6458
槽	-11.6458
瑰	-11.6459
瓠	-11.6459
侣	-11.6459
罸	-11.6459
虢	-11.6459
啄	-11.646
髠	-11.646
皂	-11.646
翷	-11.646
歸田里	-11.6461
恍	-11.6461
簒奪	-11.6461
郿	-11.6461
上䇿也	-11.6461
核	-11.6461
西明門	-11.6461
迪	-11.6461
摩訶	-11.6462
線	-11.6462
䝉塵	-11.6462
宗佶	-11.6462
庻幾	-11.6462
司馬休之	-11.6462
殿前指揮使	-11.6462
邅	-11.6463
虺	-11.6463
蝶	-11.6463
湍	-11.6463
蝕	-11.6464
駝	-11.6464
滑	-11.6464
衿	-11.6465
不恤政事	-11.6465
徘徊	-11.6465
擐甲	-11.6465
翕	-11.6466
輯睦	-11.6466
瘁	-11.6466
十三日	-11.6466
暾	-11.6466
祖逖	-11.6466
曁	-11.6466
鉦	-11.6466
蠕	-11.6466
畀	-11.6467
覈	-11.6467
剝	-11.6468
洙	-11.6468
率騎一萬	-11.6468
梯航	-11.6468
詎	-11.6468
鞏	-11.6468
頭陀	-11.6468
詣軍門	-11.6468
太原王恪	-11.6468
褚	-11.6469
挂	-11.6469
伏惟陛下	-11.6469
黄鉞	-11.647
錮	-11.647
彭奚念	-11.647
脛	-11.647
肱	-11.647
凉州牧西平公	-11.647
店	-11.647
晴	-11.647
棧	-11.647
庾傳素	-11.647
曽不	-11.647
禇	-11.647
加九錫	-11.6471
帷幄	-11.6471
枳	-11.6471
熹	-11.6471
郵	-11.6471
孺贇	-11.6471
淘	-11.6471
㶚	-11.6471
僵	-11.6471
剏	-11.6471
汰	-11.6471
杉	-11.6471
越王𢎞昌	-11.6471
其二子	-11.6472
上庸王評	-11.6472
安堵如故	-11.6472
倉廩	-11.6472
烈祖輔吴	-11.6472
杌	-11.6472
冗	-11.6472
甸	-11.6473
幕僚	-11.6473
梧	-11.6473
爍	-11.6473
啗	-11.6473
隳	-11.6473
􁍆	-11.6473
鬛	-11.6473
開寳四年	-11.6473
大理評事	-11.6473
宣徽北院使	-11.6473
冬十月勅	-11.6473
肘	-11.6474
魁梧	-11.6474
中書門下	-11.6474
宜都王	-11.6474
彀	-11.6474
政隆寳應	-11.6474
竅	-11.6474
㐲	-11.6475
酺	-11.6475
砌	-11.6475
王處囬	-11.6475
珥	-11.6475
蹲	-11.6475
元敬皇后	-11.6476
朱鳶	-11.6476
旃	-11.6476
椀	-11.6476
処	-11.6476
荒滛	-11.6476
輔國大將軍	-11.6476
岐王茂貞	-11.6476
沓	-11.6476
賜粟帛	-11.6477
麓	-11.6477
動揺	-11.6477
褁	-11.6477
呉越國王	-11.6477
袤	-11.6477
執其手	-11.6478
梨	-11.6478
髙祖第十	-11.6478
掇	-11.6478
卜筮	-11.6478
袋	-11.6478
鋤	-11.6478
拜謝	-11.6479
聮	-11.6479
鄣	-11.6479
赦其境内	-11.6479
太平興國二年	-11.6479
叚遼	-11.6479
両浙	-11.6479
籍其家	-11.6479
殛	-11.6479
順存録	-11.6479
吾兒	-11.6479
仞	-11.6479
占候	-11.6479
交阯郡王	-11.6479
聾	-11.648
交錯	-11.648
驕矜	-11.648
杜建徽	-11.648
南都留守	-11.648
馬仁𥙿	-11.648
丁夘	-11.648
榛	-11.648
制誥	-11.648
集賢殿	-11.648
珍玩	-11.6481
雷彦恭	-11.6481
竒其才	-11.6481
昭武軍節度使	-11.6481
旰	-11.6481
太子少傅	-11.6481
柴克宏	-11.6481
丞郎	-11.6481
後主降宋	-11.6481
舫	-11.6481
裴憲	-11.6481
潘叔嗣	-11.6482
勇悍	-11.6482
詣軍門降	-11.6482
公孫五樓	-11.6482
總攝	-11.6482
廬舎	-11.6482
果驗	-11.6482
米志誠	-11.6482
魂魄	-11.6482
太宰恪	-11.6483
國子博士	-11.6483
中黄門	-11.6483
蒜	-11.6483
裨将	-11.6483
節旄	-11.6483
天徳帝	-11.6483
僭稱尊號	-11.6483
姫	-11.6484
怵	-11.6484
擒其將	-11.6484
柩前	-11.6485
汝南太守	-11.6485
為長夜之飲	-11.6485
貞符	-11.6485
呂氏	-11.6485
拂衣	-11.6485
卞	-11.6485
硬	-11.6486
沈崧	-11.6486
擿	-11.6486
未審是非	-11.6486
刁彦能	-11.6486
偏禆	-11.6486
館一日至	-11.6486
崙	-11.6487
妃嬪	-11.6487
耿先生	-11.6487
鄊里	-11.6487
稽顙	-11.6487
饑寒	-11.6487
率衆來降	-11.6487
乘虛	-11.6487
讜言	-11.6487
奉正朔	-11.6487
桀紂	-11.6487
僣即皇帝位	-11.6487
王親廵	-11.6488
鍾允章	-11.6488
獄訟	-11.6488
雞犬	-11.6489
族其家	-11.6489
珠翠	-11.649
祥符	-11.649
吴武王	-11.6491
誾	-11.6491
陳留王紹	-11.6491
張漢思	-11.6491
劉牢之	-11.6491
麋	-11.6491
碓	-11.6491
娥清	-11.6492
甘泉	-11.6493
重譯	-11.6494
静海軍節度使	-11.6494
署置百官	-11.6494
㪚	-11.6494
全活	-11.6494
王宗賀	-11.6496
晉元帝	-11.6497
桓文之	-11.6497
李茂貞	-11.6497
三千餘家	-11.6497
凶逆	-11.6497
内常侍	-11.6497
資財	-11.6498
深然之	-11.6499
趙鍠	-11.6499
驍果	-11.65
蛟龍	-11.65
發掘	-11.65
中書侍郎平章事	-11.65
雷雨	-11.6501
庶㡬	-11.6501
餘祭	-11.6501
大慟	-11.6502
削去	-11.6502
占夢	-11.6502
李惲	-11.6502
僉議中贊	-11.6502
封孚	-11.6503
轉運	-11.6503
遊獵	-11.6504
尤溪	-11.6504
直學士	-11.6504
旬餘	-11.6504
呂光	-11.6505
句容	-11.6505
滋甚	-11.6506
太常卿	-11.6506
黄巾	-11.6506
錄尚書	-11.6507
作色曰	-11.6507
歸私第	-11.6507
藝祖	-11.6508
仁恕	-11.6509
二十六日	-11.6509
成汭	-11.651
姚襄	-11.651
加檢校太尉	-11.651
馬步使	-11.6511
征虜	-11.6511
鋭意	-11.6512
手疏	-11.6512
震動	-11.6513
晉武帝	-11.6513
羊酒	-11.6514
福禄	-11.6514
阮結	-11.6515
難測	-11.6515
併力	-11.6516
上藍	-11.6517
鴈門	-11.6517
年十七	-11.6517
經緯	-11.6518
廟諱	-11.6518
童謡曰	-11.6518
魯國公	-11.6519
祠祀	-11.652
宋混	-11.6521
果毅	-11.6522
述職	-11.6523
土宇	-11.6524
西北面	-11.6524
太平興國中	-11.6524
致祭	-11.6525
而嘆曰	-11.6525
犬馬	-11.6526
田宅	-11.6526
羸兵	-11.6527
哀哉	-11.6529
謂衆曰	-11.6531
尤喜	-11.6533
郭慶	-11.6533
輕薄	-11.6534
苻后	-11.6535
謹厚	-11.6536
妙清	-11.6536
甚悦	-11.6537
唐荘宗	-11.6537
歎服	-11.6538
千佛	-11.6538
侍御	-11.6539
乘勢	-11.654
九術	-11.654
龍鳯	-11.654
加散騎常侍	-11.6542
專政	-11.6542
周廻	-11.6542
郫城	-11.6542
馳騎	-11.6542
二年春	-11.6544
内庫	-11.6544
江南録	-11.6544
薛氏	-11.6547
響應	-11.6547
勢窮	-11.6548
萬邦	-11.6549
禹卿	-11.6549
墜地	-11.6551
切直	-11.6552
參合	-11.6552
西征	-11.6553
酒泉公	-11.6554
暇日	-11.6554
恩澤	-11.6556
威震	-11.6556
道庠	-11.6556
居數日	-11.6557
天雨	-11.6557
元宗大怒	-11.6559
感恩	-11.656
大疫	-11.656
感動	-11.6562
偏方	-11.6562
西北隅	-11.6562
宣示	-11.6563
虛實	-11.6564
蘇氏	-11.6565
丞相雄	-11.6566
儒林	-11.6569
學徒	-11.6569
劉知俊	-11.6569
郭敬	-11.657
上尊號曰	-11.6571
梓潼太守	-11.6571
親友	-11.6573
姚景	-11.6575
夾道	-11.6576
兵疲	-11.6576
肅清	-11.6577
支雄	-11.6577
奔鄴	-11.6579
震雷	-11.6579
唐授	-11.6581
解甲	-11.6581
藏用	-11.6581
乎子胥曰	-11.6582
力爭	-11.6585
於薊	-11.6585
楚地	-11.6585
平陽太守	-11.6586
神劍	-11.6586
登舟	-11.6587
春風	-11.659
從旁	-11.6595
后土	-11.6597
汾水	-11.6598
逃去	-11.66
小舟	-11.6603
無余	-11.6604
萬六千	-11.6605
氏為太后	-11.6606
德妃	-11.6612
絶世	-11.6613
两人	-11.6615
寢門	-11.6615
元基	-11.6619
宇内	-11.6619
宗衍	-11.6619
應對	-11.6622
臨河	-11.6623
器物	-11.6624
臨敵	-11.6624
五溪	-11.6625
巴漢	-11.6625
下第	-11.6628
為中書侍郎同平章事	-11.6628
嵗次	-11.6628
垂垂	-11.6629
穆穆	-11.6629
朝賀	-11.663
等敗績	-11.6631
帯一條	-11.6632
䘚年六十	-11.6633
宗裕	-11.6633
連營	-11.6636
鎮洛陽	-11.6637
匡明	-11.6637
歴陽	-11.6638
太過	-11.664
明珠	-11.6641
後悔	-11.6642
屬吏	-11.6643
刑法	-11.6643
朕意	-11.6643
胡僧	-11.6644
久留	-11.6645
樂部	-11.6646
南遊	-11.6646
北征	-11.6646
重霸	-11.6647
地户	-11.6649
李友	-11.6652
羣雄	-11.6654
四十一	-11.6655
數歲	-11.6656
大熟	-11.6659
千有餘	-11.666
遣牙將	-11.6666
千六百	-11.6666
論語	-11.6668
來蘇	-11.667
累年	-11.6672
邵武	-11.6673
六夷	-11.6673
逺邇	-11.6678
閩楚	-11.6678
二弟	-11.6678
元勲	-11.6679
舉動	-11.668
長短	-11.6682
兼領	-11.6683
而不返	-11.6683
安祐	-11.6683
繼崇	-11.6683
十日程	-11.6684
富民	-11.6684
驚懼	-11.6686
數騎	-11.6686
永保	-11.6687
王承休	-11.6687
李榖	-11.6688
招懐	-11.6688
兵強	-11.6691
跨據	-11.6696
閩主	-11.6702
百官皆	-11.6707
而後行	-11.6707
甚嚴	-11.6707
嚴氏	-11.6708
離叛	-11.6708
新宫	-11.6709
長春	-11.6709
劉殷	-11.6715
温州刺史	-11.6715
大軍將	-11.6716
靜江軍	-11.6716
親衛	-11.6721
語之曰	-11.6722
一篇	-11.6722
惟德	-11.6728
石聰	-11.6728
馬韓	-11.6729
邑中	-11.6729
每夜	-11.673
汾西	-11.6731
載仁	-11.6732
異數	-11.6734
遣使招	-11.6736
無虞	-11.6738
少師	-11.6742
特甚	-11.6743
亂政	-11.6743
雄據	-11.6745
燕趙	-11.675
孔子曰	-11.6752
在位四	-11.6753
因説	-11.6756
賀州	-11.676
郭進	-11.6763
温温	-11.6764
興慶	-11.6765
九卿	-11.6766
晉壽	-11.6767
髙后	-11.6773
豫州	-11.6774
五丁	-11.6778
名之曰	-11.678
重厚	-11.678
尊禮	-11.678
既薨	-11.6785
妹也	-11.6789
未之信	-11.6793
合謀	-11.6795
五十萬	-11.6795
有文才	-11.6799
神功	-11.6808
譔曰	-11.6808
将帥	-11.6811
改易	-11.6818
攻彭州	-11.682
舅也	-11.6821
志節	-11.6822
來賀	-11.6824
鎮金陵	-11.6826
神物	-11.6826
戒之曰	-11.6828
東燕	-11.6829
堅堅	-11.6829
草書	-11.683
力救	-11.6832
猶能	-11.6833
風采	-11.6835
不拘	-11.6839
而不問	-11.684
㕘政	-11.6841
宋后	-11.6841
魏氏	-11.6842
不𣸪	-11.6842
前蜀後主	-11.6843
為昭儀	-11.6845
隂山	-11.6856
九郡	-11.6858
内屬	-11.6859
二兄	-11.686
所築	-11.6862
奔告	-11.6863
井中	-11.6863
哀帝	-11.6865
所知也	-11.6865
大半	-11.6865
于平陽	-11.6867
未忍	-11.687
何以不	-11.6879
舉郡	-11.688
稱之曰	-11.688
鎮海鎮東	-11.6901
九江	-11.6903
宣武	-11.6908
善天文	-11.691
一百五十	-11.6917
為牙將	-11.6917
種蠡	-11.6917
才識	-11.6924
琛曰	-11.693
為貴人	-11.6932
死之日	-11.6937
大丞相	-11.6937
三萬人	-11.6946
可得也	-11.6949
終身不	-11.6951
王曰何謂	-11.6952
文昭	-11.6954
十九日	-11.6956
遣其弟	-11.6957
牙城	-11.6958
力勸	-11.6966
燒營	-11.6978
殆非	-11.6979
非但	-11.698
青龍	-11.6981
此所謂	-11.6989
忠清	-11.6991
器重	-11.6993
孰不	-11.7004
凡百	-11.7006
丹砂	-11.7008
五代史補	-11.7008
天之所	-11.701
何足以	-11.7013
内宴	-11.7015
入謁	-11.7017
道術	-11.7021
户曹	-11.7021
應募	-11.7032
督諸軍	-11.7033
建寺	-11.704
西討	-11.7055
吏部郎中	-11.706
百頃	-11.7064
民怨	-11.7065
往迎	-11.7069
二十九年	-11.7071
象牙	-11.7072
怒貶	-11.7075
率騎三萬	-11.7075
抗表	-11.708
才略	-11.7082
挫其	-11.7084
師傅	-11.7096
盡節	-11.7098
太子建	-11.7098
若其不	-11.7105
諸羗	-11.7116
六年春三月	-11.712
䝉兵	-11.7135
守太尉	-11.7142
安南世子	-11.7143
武安軍節度	-11.7144
汾州	-11.7155
急召	-11.7159
文武官	-11.7169
歸成都	-11.717
至龍城	-11.7171
故聖人	-11.7171
師大敗	-11.7176
未有如	-11.7182
氏族	-11.7189
南岸	-11.719
此意	-11.7196
其術	-11.7202
側目	-11.7215
所藏	-11.7215
乗勝追	-11.7234
不惜	-11.7245
土俗	-11.7247
受圍	-11.7257
諸司	-11.7272
武成三年	-11.7279
和解	-11.7281
欽定四庫全書安南志畧卷	-11.7286
天下兵馬大元帥	-11.729
姜紀	-11.7293
亂離	-11.7303
禍難	-11.732
五十人	-11.7325
仁惠	-11.7328
還鄴	-11.7332
為從事中郎	-11.7335
咸康元年	-11.734
萬餘落	-11.7353
師範	-11.7355
從容謂	-11.7364
南唐書列傳卷苐十	-11.7367
天復三年	-11.7371
龍尾	-11.7372
杏	-11.738
羌胡	-11.7381
三年九月	-11.739
彬彬	-11.74
寧海	-11.7405
朝堂	-11.7405
德昭	-11.741
錫賚	-11.7415
汴州	-11.7416
羲寂	-11.742
十六國春秋	-11.7425
血流	-11.7435
恙	-11.7436
赫然	-11.7436
崗	-11.7437
戶	-11.7437
建平元年	-11.7438
葱	-11.7441
後秦録	-11.7444
吞噬	-11.7446
夔	-11.7446
姑胥之臺	-11.7449
燼	-11.7449
闕庭	-11.7449
徭	-11.7449
跣足	-11.7451
祜	-11.7451
蛟	-11.7451
巡檢	-11.7451
汙	-11.7452
椿	-11.7453
髀	-11.7454
六千人	-11.7454
伍奢	-11.7456
萃	-11.7456
水部員外郎	-11.7456
中書郎	-11.7457
獷	-11.7457
尹瓘	-11.7457
合肥人	-11.7457
湟河太守	-11.7458
戡	-11.7458
陳益稷	-11.7458
廳	-11.7458
燿	-11.7458
屑	-11.7458
蔣琬	-11.7458
邯	-11.7459
姒	-11.7459
豬	-11.7459
淄	-11.7459
十六國春秋卷九十	-11.746
盾	-11.746
衣裳	-11.746
開封公詳	-11.746
平東將軍	-11.746
逷	-11.746
不旋踵	-11.746
冺	-11.746
洿	-11.7461
瘴癘	-11.7461
三千餘户	-11.7462
遣大夫阮	-11.7462
瑣	-11.7462
氈	-11.7462
鴨緑	-11.7462
磾	-11.7463
衎	-11.7463
埃	-11.7463
芍	-11.7463
炅	-11.7463
茵	-11.7463
閤門使	-11.7463
蔡儔	-11.7463
苾	-11.7464
㸔	-11.7464
閻彧	-11.7464
努	-11.7464
僇	-11.7464
剔	-11.7464
娱	-11.7464
疆場	-11.7464
愠	-11.7464
㺯	-11.7464
昝	-11.7465
埒	-11.7465
王不豫	-11.7465
己夘	-11.7465
般	-11.7466
簒逆	-11.7466
阨	-11.7466
翦	-11.7466
有憂色	-11.7467
公卿以下	-11.7467
憸	-11.7467
複	-11.7467
鷲	-11.7467
号	-11.7467
江陵志餘	-11.7467
項羽	-11.7467
丗子惟濬	-11.7467
振武將軍	-11.7467
僑	-11.7467
供億	-11.7468
欽定四庫全書十國春秋卷九十	-11.7468
禮賢宅	-11.7468
奚念	-11.7468
尚書右丞	-11.7468
頤	-11.7468
嫚	-11.7468
羅苴	-11.7468
脊	-11.7468
欽定四庫全書十國春秋卷八十	-11.7468
檮	-11.7468
殊死已下	-11.7468
挑	-11.7468
豫州牧	-11.7469
佖	-11.7469
歔欷	-11.7469
知諤	-11.7469
陲	-11.7469
欽定四庫全書十國春秋卷六十	-11.7469
痕	-11.7469
舉茂才	-11.7469
敖	-11.7469
沁	-11.7469
髙句麗	-11.747
躋	-11.747
奥區	-11.747
鳥獸	-11.747
烏瑪喇	-11.747
糗	-11.747
齧	-11.747
唐樊綽撰	-11.7471
嚕	-11.7471
進爵為王	-11.7471
惰	-11.7471
従鎰	-11.7471
樞密副使	-11.7471
牝	-11.7471
皮光業	-11.7471
楊守厚	-11.7471
水經註	-11.7472
縱兵大掠	-11.7472
更其名曰	-11.7472
嗚呼哀哉	-11.7472
惕	-11.7472
纉	-11.7472
籥	-11.7472
䴡	-11.7472
欽定四庫全書蠻書卷	-11.7472
湜	-11.7472
鍾泰章	-11.7472
迂	-11.7472
鬱林	-11.7473
坡	-11.7473
叱之曰	-11.7473
沗	-11.7473
武泰節度使	-11.7473
十國春秋卷九十	-11.7473
盒	-11.7473
拱宸	-11.7473
訢	-11.7473
叩頭流血	-11.7473
棊	-11.7473
安堵	-11.7473
縗	-11.7473
永平元年	-11.7474
墾	-11.7474
吳越備史	-11.7474
昭成帝	-11.7474
鄧芝	-11.7474
欽定四庫全書十國春秋卷二十	-11.7474
在行間	-11.7474
溷	-11.7474
戱	-11.7474
十國春秋卷六十	-11.7475
辛冉	-11.7475
故地也	-11.7475
左袵	-11.7475
棋	-11.7475
湘隂公	-11.7475
盧多遜	-11.7475
天德帝	-11.7475
笠	-11.7475
盧諶	-11.7475
殘忍	-11.7475
沅	-11.7476
石敬瑭	-11.7476
韞	-11.7476
傳璛	-11.7476
帙	-11.7476
欽定四庫全書十國春秋卷三十	-11.7476
中壘將軍	-11.7476
晡	-11.7476
租税	-11.7476
弧	-11.7476
海濵	-11.7476
渡鴨緑江	-11.7476
王公已下	-11.7477
公卿已下	-11.7477
盱眙	-11.7477
軾	-11.7477
盂	-11.7477
訝	-11.7477
振旅而還	-11.7477
楽	-11.7478
捋	-11.7478
十六國春秋卷六十	-11.7478
邾	-11.7478
高郵	-11.7478
性至孝	-11.7479
廬舍	-11.7479
紀事本末	-11.7479
釜	-11.7479
扺	-11.7479
陳太王	-11.7479
大赦殊死已下	-11.7479
袒	-11.7479
腰帶	-11.7479
兼門下侍郎同平章事	-11.748
句麗	-11.748
义	-11.748
天時人事	-11.748
輿櫬	-11.748
司馬相如	-11.748
殱焉	-11.748
蠱	-11.748
元宗南遷	-11.748
荀鶴	-11.748
楞	-11.7481
㦯	-11.7481
武昌軍節度使	-11.7481
􁇦	-11.7481
案此句	-11.7481
貢其方物	-11.7481
梅花	-11.7481
太府卿	-11.7481
鋸	-11.7481
藩邸	-11.7481
蜀土	-11.7481
萍	-11.7481
嚢	-11.7481
帥麾下	-11.7481
帥衆五萬	-11.7481
䋲	-11.7481
欽定四庫全書十國春秋卷七十	-11.7481
殘虐	-11.7481
董思安	-11.7481
飱	-11.7481
毖	-11.7482
謙光殿	-11.7482
杵	-11.7482
幣帛	-11.7482
牙校	-11.7482
輔漢將軍	-11.7482
埀	-11.7482
長三尺	-11.7482
宫闈	-11.7482
瞑目	-11.7482
譚全播	-11.7482
陽苴哶城	-11.7483
別	-11.7483
梓宫	-11.7483
𢎞倧	-11.7483
休戚	-11.7483
潞川	-11.7484
前趙錄	-11.7484
曆	-11.7484
禽獸	-11.7484
耘	-11.7484
旁若無人	-11.7484
册贈	-11.7484
崔沆	-11.7484
張佖	-11.7485
起復雲麾	-11.7485
馮跋	-11.7485
崇徹	-11.7485
潾	-11.7485
題詩	-11.7485
佛像	-11.7485
凑	-11.7485
欽定四庫全書江南野史卷	-11.7485
䭾	-11.7485
租賦	-11.7485
斧鉞	-11.7485
鞬	-11.7485
欽定四庫全書十國春秋卷十	-11.7486
荆揚	-11.7486
有善政	-11.7487
蠶桑	-11.7487
諫曰臣聞	-11.7487
斑	-11.7487
姿容	-11.7487
休咎	-11.7487
贐	-11.7487
鷹揚將軍	-11.7487
節度行軍司馬	-11.7487
十國春秋卷七十	-11.7487
奚斤	-11.7488
黑雲都	-11.7488
未可輕	-11.7488
竒偉	-11.7488
恭愍	-11.7488
宛轉	-11.7488
破之必矣	-11.7488
劉従効	-11.7488
仁詮	-11.7489
彌篤	-11.7489
趫	-11.7489
宇文氏	-11.7489
真臘來貢	-11.7489
昭惠后	-11.7489
顧彦暉	-11.7489
渦	-11.749
沃沮	-11.749
諸暨	-11.749
州保大九年取十年失	-11.749
咸和八年	-11.749
毛文錫	-11.749
真臘	-11.749
不詳	-11.749
新都人也	-11.7491
晷	-11.7491
青泥	-11.7491
黷	-11.7491
悲泣	-11.7491
苑玫	-11.7491
布腹心	-11.7491
龍興寺	-11.7491
江夢孫	-11.7491
賢哲	-11.7491
譙登	-11.7492
錦袍	-11.7492
叚業	-11.7492
称	-11.7492
建隆三年	-11.7492
姑胥	-11.7492
進士第	-11.7492
哭之慟	-11.7492
薛朗	-11.7493
不克而還	-11.7493
責躬	-11.7493
穰	-11.7493
參政事	-11.7493
疇昔	-11.7493
帥舟師	-11.7493
凟	-11.7494
後唐中朝中朝中朝北漢	-11.7494
宰輔	-11.7494
惙	-11.7495
乾寧二年	-11.7495
帥騎五千	-11.7495
修職貢	-11.7495
簒位	-11.7496
夾輔	-11.7496
慕容評	-11.7496
言於堅曰	-11.7496
桶	-11.7496
死者數千人	-11.7496
僣偽	-11.7496
金庾信	-11.7496
凶暴	-11.7497
廆廆	-11.7497
彗星見	-11.7497
傳瑛	-11.7498
談諧	-11.7498
勤勞	-11.7498
百寮	-11.7498
檢討呉任臣撰楚	-11.7498
乗醉	-11.7499
為一次上	-11.7499
韓璞	-11.75
慕容儁	-11.75
烏桓	-11.7501
建隆初	-11.7501
病篤	-11.7501
張義方	-11.7501
禺	-11.7501
胥吏	-11.7501
良乆	-11.7502
楚世家	-11.7502
倭冦	-11.7503
歸于京師	-11.7503
傳璟	-11.7503
英武昭勝	-11.7503
科舉	-11.7504
玦	-11.7504
閔農	-11.7505
巡檢使	-11.7506
悲哉	-11.7507
羽毛	-11.7507
窮困	-11.7507
長丈餘	-11.7508
集十卷	-11.7508
酋長	-11.7509
是時唐	-11.7509
泣謂	-11.7509
監察	-11.751
播遷	-11.751
二十餘里	-11.751
悲夫	-11.751
段宏	-11.751
新唐書云	-11.751
譬如	-11.7511
殘暴	-11.7511
晩年	-11.7511
案此條見	-11.7511
士庻	-11.7513
近郊	-11.7513
極諌	-11.7513
周庠	-11.7514
瓦解	-11.7514
神祗	-11.7515
吕嘉	-11.7517
廣平公	-11.7517
賴靈	-11.7518
異域	-11.7518
天禧	-11.7518
長七尺	-11.7519
五代史作	-11.7519
雄偉	-11.7519
徽號	-11.752
參佐	-11.752
鎮枹罕	-11.752
三十餘里	-11.7521
洪州節度使	-11.7521
助教	-11.7521
妙絶	-11.7523
西中郎將	-11.7525
九國志云	-11.7526
延稟	-11.7526
福源	-11.7526
震恐	-11.7527
飛揚	-11.7527
安漢人	-11.7528
大同後	-11.7529
陳徳誠	-11.7529
南郊大赦改元	-11.7529
竭力	-11.753
釣磯立談云	-11.753
珠玉	-11.7532
保臯	-11.7532
傳球	-11.7532
聖躬	-11.7533
嬖臣	-11.7534
圖䜟	-11.7534
晉書作	-11.7534
遼東太守	-11.7535
州刺史上柱國	-11.7535
盛暑	-11.7536
聚衆數千	-11.7536
黒雲	-11.7536
勾當	-11.7538
朱序	-11.7538
惟演	-11.7538
永泰	-11.754
王宗佶	-11.754
東巡	-11.754
刑戮	-11.7541
魚遵	-11.7541
率壯士	-11.7542
率百官	-11.7543
有異同	-11.7543
歌詩	-11.7543
寒食	-11.7544
機要	-11.7545
幽并	-11.7545
第進士	-11.7546
曺公	-11.7546
髙郁	-11.7547
十六國春秋卷五十	-11.7548
雄傑	-11.7549
凶問	-11.7549
強盛	-11.755
進曰陛下	-11.755
竹林	-11.7551
楊行密	-11.7552
長春殿	-11.7552
溺水	-11.7553
縣郡治有	-11.7554
従容	-11.7554
涪州	-11.7555
河上	-11.7556
心惡之	-11.7556
延乂	-11.7556
陜州	-11.7557
戸口	-11.7559
索頭	-11.7559
遣使來降	-11.7559
志氣	-11.756
烏合	-11.7561
五百年	-11.7561
冬月	-11.7562
率水軍	-11.7563
爵闗内侯	-11.7563
縁徳	-11.7564
巡官	-11.7566
新豐	-11.7567
越嶲太守	-11.7568
蘇州刺史	-11.7568
黎氏	-11.7569
嘉興縣	-11.757
臺省	-11.7571
輕敵	-11.7572
宴樂	-11.7572
兆年	-11.7574
紫宫	-11.7576
南嶽	-11.7576
考功	-11.7578
覆亡	-11.7581
色變	-11.7583
胡羯	-11.7583
等四人	-11.7584
既嗣位	-11.7585
委政	-11.7588
龍廷	-11.759
其腹	-11.7592
待遇	-11.7594
數千家	-11.7594
四列傳	-11.7595
火頭	-11.7595
揚雄	-11.7595
忠諫	-11.7596
上疏言	-11.7598
應聲	-11.76
未畢	-11.7602
李徳明	-11.7603
稱職	-11.7603
左手	-11.7604
宗衡	-11.7604
十國春秋卷五十	-11.7607
孝亷	-11.7609
萬歲	-11.7609
僧智	-11.7609
阻水	-11.7609
律令	-11.761
李奕	-11.761
少監	-11.7612
等五人	-11.7613
永春	-11.7613
華夷	-11.7613
尹奉	-11.7613
王全斌	-11.7617
計倪對曰	-11.7618
禦敵	-11.7619
敢死士	-11.762
孟蜀	-11.762
率衆伐	-11.7623
罪惡	-11.7625
發哀	-11.7628
漢源	-11.7633
日夕	-11.7636
被圍	-11.7637
進㧞	-11.7638
告急於	-11.7639
乾徳中	-11.764
稱大號	-11.764
滅燕	-11.7641
八千人	-11.7641
親族	-11.7642
病甚	-11.7646
是嵗建	-11.7649
不衰	-11.765
詞賦	-11.765
昌運	-11.7652
與同郡	-11.7653
使其將	-11.7657
四境	-11.7657
仁壽	-11.7661
歩卒	-11.7661
受敵	-11.7663
十丈	-11.7666
蜀州刺史	-11.767
辭疾	-11.7671
隠士	-11.7672
遲明	-11.7673
至漢州	-11.7674
三百餘里	-11.7675
安南陳	-11.7677
唐虞	-11.7678
未决	-11.768
甚恭	-11.7682
稱賀	-11.7685
卜泰	-11.7686
大慙	-11.7686
五升	-11.7687
萬載	-11.7687
戎馬	-11.769
巖明	-11.7692
巨石	-11.7693
逃奔	-11.7696
武穆	-11.7702
專殺	-11.7705
中吳軍	-11.7705
欽定四庫全書十六國春秋卷七十	-11.7707
石橋	-11.7709
欽定四庫全書十六國春秋卷八十	-11.7716
太原公	-11.7717
欽定四庫全書十六國春秋卷九十	-11.7718
漢榮	-11.7718
黄權	-11.7719
遣督䕶	-11.772
海濱	-11.7725
侍疾	-11.7726
如是乎	-11.7726
所致也	-11.7729
江河	-11.7733
囊中	-11.7734
曽孫	-11.7736
遣牙門	-11.7739
漢室	-11.7739
獻䇿	-11.7743
真聖	-11.7744
節度使兼侍中	-11.7744
柘東城	-11.7748
之罪人	-11.7751
天福四年	-11.7751
道旁	-11.7756
宫禁	-11.7757
威刑	-11.776
得其所	-11.7766
許氏	-11.7771
敬忠	-11.7772
甚喜	-11.7775
亟召	-11.7794
鎮海節度使	-11.7796
諫止	-11.7803
賫詔	-11.7806
十六國春秋卷三十	-11.781
年七十餘	-11.7813
鴆殺	-11.7816
撫納	-11.782
霤	-11.7827
使於宋	-11.783
十國春秋卷三十	-11.7834
外戚	-11.7837
入郢	-11.7838
白蠻	-11.7839
歸京師	-11.784
習戰	-11.7849
庭堅	-11.785
十萬斛	-11.7864
欽定四庫全書十六國春秋卷六十	-11.7873
引而還	-11.7882
坐待	-11.7894
降於魏	-11.7898
擢第	-11.7915
豈獨	-11.7922
武安節度使	-11.7922
百步	-11.7926
億萬	-11.7926
險逺	-11.7931
早除之	-11.7938
上䟽曰	-11.794
五十四	-11.794
一婦人	-11.7946
所部兵	-11.7948
晏平	-11.7964
家族	-11.7974
三十二年	-11.7988
兵數千	-11.7993
傾國	-11.7994
曹掾	-11.8011
十六國春秋卷八十	-11.8019
志操	-11.8022
單馬奔	-11.8025
效死	-11.8037
追獲	-11.8039
二京	-11.8047
督戰	-11.807
騎士	-11.8091
丈八尺	-11.8124
率衆討	-11.8138
知之乃	-11.8139
臺登	-11.814
事迹	-11.8146
父子相	-11.8148
報徳	-11.8158
才力	-11.8163
二百人	-11.8164
大破之斬首	-11.8164
貧民	-11.8175
賢才	-11.8183
惟大王	-11.8191
欵誠	-11.8207
戰大破之	-11.8225
不㨗	-11.8237
𢎞始十	-11.824
病䘚	-11.8245
北靣	-11.8271
内供奉	-11.8271
隱辭	-11.8276
百餘年	-11.828
季弟	-11.8284
九列傳	-11.829
萬匹	-11.8296
廣順元年	-11.8325
知誥知誥	-11.8327
詣洛	-11.8341
保大九年	-11.835
㤗州	-11.8354
陸路	-11.8368
乾寧元年	-11.8373
十六國春秋卷二十	-11.8382
浙東	-11.8389
都招討使	-11.8395
武鄉	-11.8395
建州節度使	-11.8397
頷	-11.8416
魚鹽	-11.8429
欽定四庫全書安南志畧卷十	-11.8433
子景通	-11.8434
計倪	-11.8444
寳塔	-11.8446
萬春	-11.845
九卷	-11.8464
此輩	-11.8483
諸藩	-11.8498
人服其	-11.8504
賜金帛	-11.8509
立碑	-11.851
固辭不	-11.8512
遣使諭	-11.8528
宗儔	-11.8536
天復元年	-11.8537
娠	-11.8537
懼而退	-11.8541
寰宇	-11.8545
挐	-11.8545
庖	-11.8549
静海軍節度	-11.855
箠	-11.8555
芬	-11.8555
去縣二十里	-11.8555
邳	-11.8557
諍	-11.8559
荏	-11.8559
文克謙	-11.856
鞅	-11.856
貓	-11.856
包胥	-11.8561
乾徳三年	-11.8561
魚鼈	-11.8561
匐	-11.8561
謇	-11.8561
茨	-11.8561
梁中庸	-11.8561
黛	-11.8562
珍島	-11.8563
奢靡	-11.8565
包茅	-11.8565
鄖	-11.8565
宋將潘美	-11.8565
摹	-11.8566
徂	-11.8566
西涼李暠	-11.8566
率禁兵	-11.8566
辛夘	-11.8567
倧	-11.8567
鐘鼓	-11.8567
疆埸	-11.8567
張少敵	-11.8568
駟	-11.8568
黜陟	-11.8568
彎弓	-11.8568
中流矢	-11.8569
燃燈	-11.857
㔨	-11.857
霖	-11.857
穗	-11.857
㢠廻	-11.857
君臣相	-11.857
都指揮	-11.8571
膠	-11.8571
腴	-11.8571
達嚕噶齊	-11.8571
慕璝	-11.8571
幙	-11.8571
秩滿	-11.8571
禰	-11.8571
後燕録	-11.8571
吠	-11.8571
瘡	-11.8572
巫覡	-11.8572
菴	-11.8572
豊	-11.8572
年十嵗	-11.8572
潘崇徹	-11.8572
太山太守	-11.8572
上品奉御	-11.8572
趙光裔	-11.8573
閻式	-11.8573
襁負	-11.8573
諴	-11.8573
仰天歎曰	-11.8573
垂拱	-11.8573
扞禦	-11.8573
灣	-11.8574
阪	-11.8574
白雉	-11.8574
造刀一口	-11.8574
襲偽位	-11.8574
􁂍	-11.8574
廏	-11.8574
麝香	-11.8574
蕪	-11.8574
全琇	-11.8575
所恃者	-11.8575
悸	-11.8575
羈旅	-11.8575
襦	-11.8576
君臣之義	-11.8576
燬	-11.8576
鑾輿	-11.8576
騭	-11.8576
㒒射	-11.8576
龍武統軍	-11.8576
培	-11.8576
許文縝	-11.8576
蹴	-11.8577
佇	-11.8577
楊廷藝	-11.8577
扄	-11.8577
倒戈	-11.8577
捧聖控鶴都指揮使	-11.8577
慄	-11.8577
八分書	-11.8577
冬十有二月	-11.8578
西京留守	-11.8578
韋昭度	-11.8578
忠勤	-11.8578
謾	-11.8578
憩	-11.8578
莘	-11.8578
㴶	-11.8578
李克用	-11.8578
楹	-11.8578
見而異之	-11.8578
脯	-11.8579
䙝	-11.8579
机	-11.8579
手札	-11.8579
瑭	-11.8579
殿中丞	-11.8579
咨嗟	-11.8579
沱	-11.8579
徐鉉徐鍇	-11.8579
髭	-11.8579
率歩騎二萬	-11.8579
湘隂	-11.8579
解思明	-11.858
壙	-11.858
鑄銅	-11.858
斁	-11.858
判六軍諸衛事	-11.858
舟檝	-11.858
胡翼度	-11.858
眺	-11.858
左傳昭公	-11.858
訕	-11.858
逃竄	-11.858
牙内都指揮使	-11.858
雪峯	-11.858
潘炕	-11.8581
顙	-11.8581
恂恂	-11.8581
幃	-11.8581
居中用事	-11.8581
街巷	-11.8581
儂	-11.8581
涌	-11.8581
蹔	-11.8581
蓼	-11.8581
仕後主為	-11.8582
幘	-11.8582
廣西轉運使	-11.8582
釁隙	-11.8582
没奕干	-11.8582
徐仲雅	-11.8582
積薪	-11.8582
茂搜	-11.8582
檢討吳任臣撰後蜀	-11.8582
煎	-11.8582
吻	-11.8582
天福三年	-11.8583
悦綰	-11.8583
闈	-11.8583
蹕	-11.8583
天威軍都虞候	-11.8583
詈	-11.8583
仁𥙿	-11.8583
鎚	-11.8584
蕪湖	-11.8584
醼	-11.8584
章武王宙	-11.8584
蓐	-11.8584
魅	-11.8584
堞	-11.8584
赦境内	-11.8584
繒帛	-11.8584
宣華苑	-11.8584
犬羊	-11.8584
率步騎二萬	-11.8585
畜産	-11.8585
前秦録	-11.8585
欽定四庫全書十國春秋卷五十	-11.8585
聚斂	-11.8585
宄	-11.8585
儗	-11.8585
偪	-11.8586
单	-11.8586
射聲校尉	-11.8586
京畿	-11.8586
拱辰	-11.8586
江南别録	-11.8586
龍墀	-11.8586
捽	-11.8586
殮	-11.8586
鼎峙	-11.8586
蔭	-11.8587
廢王希廣	-11.8587
今從南唐書	-11.8587
俛首	-11.8587
大僚班	-11.8587
太極殿	-11.8587
幽薊	-11.8587
彼衆我寡	-11.8587
紋	-11.8587
洊	-11.8587
佾	-11.8587
總百揆	-11.8587
俘掠	-11.8587
卉	-11.8587
璆	-11.8587
肄業	-11.8587
阬	-11.8587
同參相府事	-11.8587
爼	-11.8588
率所領	-11.8588
佯狂	-11.8588
肩輿	-11.8588
九年春二月	-11.8588
廣政末	-11.8588
審邽	-11.8588
鎮北大將軍	-11.8588
愜	-11.8588
訓練	-11.8588
切諫不聽	-11.8588
銶	-11.8588
㑹祥大慶	-11.8588
一無所受	-11.8589
逆旅	-11.8589
光禄勲	-11.8589
王宗翰	-11.8589
赴水死	-11.8589
妺	-11.8589
皇城使	-11.8589
權漢功	-11.8589
汾隂	-11.8589
所係	-11.8589
祉	-11.859
恢恢	-11.859
朱提太守	-11.859
中堅將軍	-11.859
披靡	-11.859
茹	-11.859
金紫光祿大夫	-11.859
敦睦	-11.859
㳺簡言	-11.859
慶尚道	-11.859
緜竹	-11.859
馬先進	-11.859
揖讓	-11.859
索綝	-11.859
梧桐	-11.8591
為勒所	-11.8591
愛憎	-11.8591
馮𢎞鐸	-11.8591
蹶	-11.8591
禁錮	-11.8591
鱠	-11.8591
沈田子	-11.8591
佻	-11.8592
撿	-11.8592
好事者	-11.8592
豳	-11.8592
賛正安國功臣	-11.8592
彰聖嘉慶	-11.8592
牖	-11.8592
繕修	-11.8592
舄	-11.8592
專擅	-11.8592
痛哭	-11.8592
二子長曰	-11.8592
老嫗	-11.8592
廣源州	-11.8592
弗勤	-11.8592
悲慟	-11.8593
太中大夫	-11.8593
烏合之衆	-11.8593
山南東道節度使	-11.8593
眸	-11.8593
衛尉卿	-11.8593
牡	-11.8593
謏	-11.8593
禾稼	-11.8593
橫	-11.8593
鞍勒	-11.8593
江陽太守	-11.8594
祝髪	-11.8594
思覲	-11.8594
闇弱	-11.8594
哭泣	-11.8594
領縣七	-11.8594
伺隙	-11.8594
劉勍	-11.8594
潁川太守	-11.8594
錦綵	-11.8594
養以為子	-11.8594
檐	-11.8594
堙	-11.8594
泛海	-11.8594
文獻太子	-11.8594
國計使	-11.8595
賜王生辰禮物	-11.8595
俳優	-11.8595
出連䖍	-11.8595
舉城降	-11.8595
檢校太師兼中書令	-11.8595
絆	-11.8595
請糴	-11.8595
以誘之	-11.8595
笄	-11.8595
鹵簿	-11.8595
􁥃	-11.8595
河賧	-11.8596
後唐同光	-11.8596
督郵	-11.8596
偏裨	-11.8596
喘	-11.8596
滁和	-11.8596
侍講	-11.8596
歌之曰	-11.8596
成固人也	-11.8596
嬪御	-11.8596
丘墟	-11.8596
𢎞杲	-11.8596
楚楚楚楚周行逢	-11.8597
佳句	-11.8597
陳道庠	-11.8597
而還是月	-11.8597
中山公虎	-11.8597
蘿	-11.8597
之甥也	-11.8597
孝㢘	-11.8597
懲惡	-11.8597
欷	-11.8597
天成元年	-11.8597
資儲	-11.8597
擎	-11.8598
范長生	-11.8598
朝鮮史畧卷	-11.8598
澆	-11.8598
倪可福	-11.8598
𤣥珏	-11.8598
遣間使	-11.8598
得士心	-11.8599
若拙	-11.8599
同母弟	-11.8599
多才藝	-11.8599
僑居	-11.8599
籓	-11.8599
剪髪	-11.8599
蜂起	-11.86
椁	-11.86
姑蘓	-11.86
祗候	-11.86
財貨	-11.8601
光禄卿	-11.8601
馬希蕚	-11.8601
壽州團練使	-11.8601
于功臣堂	-11.8601
張䖍釗	-11.8601
歐陽彬	-11.8601
劼	-11.8601
嘻	-11.8602
朱匡業	-11.8602
甘苦	-11.8602
里東接	-11.8603
扃	-11.8603
徒跣	-11.8603
棄輜重	-11.8603
約束	-11.8603
粟帛	-11.8603
雪峰	-11.8603
佺	-11.8603
竩	-11.8603
靖姑	-11.8603
九域	-11.8604
得賢門	-11.8604
太子詹事	-11.8604
師璠	-11.8604
新淦	-11.8604
閏十二月	-11.8604
末波	-11.8605
有雋才	-11.8605
壯麗	-11.8605
清河王法	-11.8605
絶域	-11.8606
上表乞	-11.8606
乾祐三年	-11.8606
大司馬桓温	-11.8606
數十篇	-11.8606
毗陵	-11.8606
穫	-11.8606
乾亨元年	-11.8607
工匠	-11.8607
七寸	-11.8607
屠其城	-11.8607
年二十餘	-11.8607
腹背	-11.8607
拜中書侍郎同平章事	-11.8607
太平興國五年	-11.8607
丁徳裕	-11.8607
跽	-11.8607
驪山	-11.8607
牧羊	-11.8607
束身	-11.8609
率衆來拒	-11.8609
徙其民	-11.8609
叛降于	-11.8609
鬼哭	-11.8609
感泣	-11.861
天成三年	-11.861
伊洛	-11.8611
張彦卿	-11.8612
藩屏	-11.8612
浴室	-11.8612
悵然	-11.8612
奔竄	-11.8612
太原尹	-11.8613
廵撫	-11.8613
庖人	-11.8613
太平興國初	-11.8613
邊鄙	-11.8614
閉闗	-11.8614
湯藥	-11.8614
鄧恒	-11.8614
龍符元化	-11.8614
六寸	-11.8614
鐵劵	-11.8615
劉旻	-11.8615
胖	-11.8615
姻親	-11.8615
暴露	-11.8615
礎	-11.8615
諸軍都指揮使	-11.8615
弗納	-11.8616
歐陽史作	-11.8616
仁贄	-11.8616
以功授	-11.8616
四千餘人	-11.8617
山者句踐	-11.8617
滔天	-11.8617
巡撫	-11.8617
蜀檮杌云	-11.8617
禪師僧	-11.8617
崑山	-11.8618
漢文帝	-11.8618
徐知詢	-11.8619
昌岌	-11.8619
二百疋	-11.8619
岏	-11.8619
倉皇	-11.862
病革	-11.862
以疾卒	-11.8621
賦歛	-11.8621
旗鼓	-11.8621
四十三	-11.8621
勍敵	-11.8622
極歡	-11.8623
乞得歸	-11.8623
冲幼	-11.8623
太僕	-11.8624
敦諭	-11.8625
吳王不聽	-11.8625
采擇	-11.8625
自是不復	-11.8625
何暇	-11.8625
舒雅	-11.8626
精究	-11.8626
舟船	-11.8626
色不變	-11.8627
侵逼	-11.8627
年二十五	-11.8628
裴嶷	-11.8629
詰朝	-11.8629
孟冬	-11.863
梁州牧	-11.863
集三十卷	-11.8631
姦邪	-11.8631
雍容	-11.8632
英豪	-11.8633
三千疋	-11.8633
傳拯	-11.8633
卧疾	-11.8634
寶貨	-11.8634
引弓	-11.8634
徐知訓	-11.8634
純孝	-11.8634
静海軍	-11.8634
乙連	-11.8634
為之奈何	-11.8636
徒步	-11.8637
李家明	-11.8637
建康太守	-11.8637
烈祖輔政	-11.8638
五十六	-11.8639
播越	-11.864
兩岸	-11.864
虎豹	-11.864
陳延夀	-11.8641
河朔	-11.8641
秦彦暉	-11.8641
輸錢	-11.8642
蘭陵	-11.8642
飲宴	-11.8642
陽平公	-11.8642
師恱	-11.8643
風塵	-11.8643
三萬餘户	-11.8644
聚徒	-11.8644
往視之	-11.8645
滎陽太守	-11.8646
彦休	-11.8646
並同平章事	-11.8646
馬綽	-11.8646
詣廣陵	-11.8647
招賢	-11.8648
典刑	-11.8649
寓居	-11.8649
沮衆	-11.8649
無所施	-11.8649
崇範	-11.8649
將兵五萬	-11.865
飲博	-11.865
文炳	-11.8652
唐乾符	-11.8653
太息	-11.8653
衰老	-11.8654
能文章	-11.8654
趙染	-11.8655
仙遊	-11.8656
史記作	-11.8656
友寧	-11.8657
左常侍	-11.8658
勢屈	-11.8658
决勝	-11.8658
萬幾	-11.8659
勇畧	-11.8659
葉延	-11.866
潛結	-11.8662
何攀	-11.8662
勇略	-11.8662
幽顯	-11.8664
呉懿	-11.8664
遊宴	-11.8664
即席	-11.8664
長子母	-11.8664
反狀	-11.8665
潤州刺史	-11.8666
江南錄	-11.8666
擒獲	-11.8667
謝病	-11.8667
居詠	-11.8668
如䝉古	-11.8669
迎候	-11.8669
朱䝉	-11.867
繼廷	-11.867
左光祿大夫	-11.8671
將兵討之	-11.8672
奕世	-11.8672
南鄭人	-11.8672
渡海	-11.8673
鎮姑臧	-11.8673
洪操	-11.8673
湖口	-11.8674
不敢忘	-11.8674
欽定四庫全書十六國春秋卷四十	-11.8674
覆舟	-11.8675
畏威	-11.8677
乎吳王曰	-11.8678
走免	-11.8679
羣蠻	-11.8679
壇建	-11.8679
延己	-11.8679
降欵	-11.868
發憤	-11.868
一斛	-11.868
天復初	-11.8681
昇元初	-11.8681
延徽	-11.8682
歴官至	-11.8683
谷口	-11.8684
樓臺	-11.8686
部署	-11.8686
遣壯士	-11.8687
過半	-11.8689
宗範	-11.8691
邽	-11.8691
升殿	-11.8692
慕義	-11.8692
眉州	-11.8693
賜予	-11.8698
謂之曰卿	-11.8698
察舉	-11.87
弗能	-11.8701
北岸	-11.8703
永貞	-11.8704
赴敵	-11.8704
逢同	-11.8704
排方	-11.8705
大閱	-11.8706
夜飲	-11.8706
力弱	-11.8711
畏服	-11.8711
嶺外	-11.8712
咸推	-11.8714
都校	-11.8714
安輯	-11.8716
分𨽻	-11.8718
有司奏	-11.872
保境	-11.872
山甫	-11.872
皇化	-11.8722
營壘	-11.8723
不可奪	-11.8724
家産	-11.8728
驚起	-11.8728
投身	-11.873
經典	-11.8731
宏逺	-11.8731
黄花	-11.8732
圍蘇州	-11.8734
江湖	-11.8735
莫耶	-11.8735
器幣	-11.8737
地形	-11.874
九華山	-11.874
絶卷第十	-11.8766
聘士	-11.8766
龍尾城	-11.8771
腹中	-11.8772
長傍	-11.8779
行營都招討	-11.8783
十七萬	-11.8787
無成功	-11.8789
往諭	-11.882
渤海太守	-11.883
妻弟	-11.8832
食肉	-11.8843
鼎足	-11.8852
於堅堅	-11.8854
役徒	-11.8865
善繪	-11.8881
言於垂曰	-11.8883
斬其使	-11.8897
綿竹人也	-11.8899
戰敗死	-11.8909
愛州人	-11.8913
齊王知誥	-11.8917
黔南	-11.8923
南安人也	-11.8932
祀典	-11.8934
土崩	-11.8946
千斛	-11.8953
清海軍節度使	-11.8962
侵暴	-11.8972
軍國事	-11.8975
陸費墀欽定四庫全書	-11.8979
四十七	-11.9
百餘歩	-11.901
晋髙祖	-11.9041
二萬五千	-11.905
三萬八千	-11.9053
取常州	-11.9067
異心	-11.9077
步騎四萬	-11.9078
遭亂	-11.9081
遣兄子	-11.9081
遣撫軍將軍	-11.9083
政衰	-11.9087
羗反	-11.9138
妻李氏	-11.9139
今從五代史	-11.9143
為萇所	-11.9147
異議	-11.9164
良由	-11.9183
臨漳	-11.9203
攻婺州	-11.923
勒大怒	-11.9238
勤政	-11.9248
好直言	-11.9257
遣兵攻	-11.9269
為秦所	-11.9287
楊稷	-11.9297
為虎所	-11.9307
殺其弟	-11.9321
十萬餘	-11.9363
仕勒為	-11.9367
翼翼	-11.9385
敗奔還	-11.9431
陸費墀	-11.9436
七列傳	-11.9477
率衆拒	-11.9482
嵐州	-11.9487
太和元年	-11.9501
保大十年	-11.9506
禎州	-11.952
光化元年	-11.9522
五欽定四庫全書十六國春秋卷	-11.9536
建隆二年	-11.954
不可勝數	-11.9566
天福二年	-11.962
驚異	-11.9644
礙	-11.966
擢進士第	-11.9661
天成四年	-11.9662
乾徳二年	-11.9685
千斤	-11.9697
叛附	-11.9709
乾寧三年	-11.9716
太平興國三年	-11.9729
讌羣臣於	-11.975
隍	-11.9784
第四子	-11.9785
巍巍	-11.9797
炫	-11.9797
姻戚	-11.9798
睛	-11.9802
仭	-11.9804
迓	-11.9804
坵	-11.9805
驂	-11.9806
裨	-11.9806
哩	-11.9807
團練	-11.9807
躔	-11.9807
句驪	-11.9807
鳳陽門	-11.9808
南平王季興	-11.9808
彦頥	-11.9808
傘	-11.9809
伉	-11.981
净	-11.981
嫌隙	-11.981
臠	-11.981
流驩州	-11.981
欽定四庫全書十國春秋卷四十	-11.9811
墉	-11.9811
天水碧	-11.9812
腆	-11.9812
町	-11.9813
十室而九	-11.9813
受遺輔政	-11.9814
忉	-11.9814
視羆	-11.9815
顧彦朗	-11.9815
蠙	-11.9815
宗勲等	-11.9815
孟賓于	-11.9816
祲	-11.9816
樂安王臧	-11.9816
凄	-11.9817
陶侃	-11.9817
咸熈元年	-11.9818
逯	-11.9818
充官告使	-11.9818
璫	-11.9818
希磾	-11.9818
撝	-11.9818
玷	-11.9818
䜿	-11.9819
紬	-11.9819
䰟	-11.9819
郾	-11.9819
賙	-11.982
酥	-11.982
邰	-11.982
蜑	-11.982
康延孝	-11.982
廬山國學	-11.9821
悔將何及	-11.9821
古人有言	-11.9821
翟瑥	-11.9821
䂮	-11.9821
劉敬宣	-11.9821
武寧節度使	-11.9821
昔者越王句踐	-11.9821
漚	-11.9821
鴛鴦	-11.9821
糧運不繼	-11.9821
甚器重之	-11.9822
亢旱	-11.9822
嬰城自守	-11.9822
彛簡	-11.9822
日有食之	-11.9822
惶駭	-11.9822
曇無䜟	-11.9822
磯	-11.9823
扉	-11.9823
鑑戒録	-11.9823
劉崇俊	-11.9823
荔	-11.9823
鳩摩羅什	-11.9823
將作大匠	-11.9824
其鋒不可當	-11.9824
艸	-11.9824
陁	-11.9824
噍	-11.9824
有征無戰	-11.9824
芉	-11.9824
陳霸先	-11.9824
文安郡公	-11.9824
慾	-11.9825
伍喬	-11.9825
善属文	-11.9825
禿	-11.9825
葆光	-11.9825
僰	-11.9825
我之仇讐	-11.9825
鑣	-11.9825
當是之時	-11.9825
太白晝見	-11.9825
孜孜	-11.9825
家給人足	-11.9825
無二心	-11.9825
陸孟俊	-11.9825
惻	-11.9826
黄巣	-11.9826
踐阼	-11.9826
絡繹	-11.9826
肆虐	-11.9826
暹	-11.9826
李奎報	-11.9826
畿甸	-11.9826
樵採	-11.9826
牙内指揮使	-11.9826
畢師鐸	-11.9826
鐺	-11.9826
匱乏	-11.9826
墓誌	-11.9827
洪子藩	-11.9827
判吏部	-11.9827
冏	-11.9827
擾攘	-11.9827
不知何地人	-11.9827
党	-11.9827
段龕	-11.9827
舖	-11.9827
攄	-11.9827
染干	-11.9827
縉	-11.9827
櫛	-11.9827
大長秋	-11.9827
竦	-11.9827
徑寸	-11.9827
猶豫未决	-11.9827
黷貨	-11.9827
摯	-11.9827
葵藿	-11.9827
頹	-11.9827
鍾謨李徳明	-11.9828
瑪	-11.9828
僖宗幸蜀	-11.9828
䕶𦍑校尉	-11.9828
衆大潰	-11.9828
撮	-11.9828
徐延瓊	-11.9828
曮	-11.9828
楊守亮	-11.9828
監門衛將軍	-11.9828
鍔	-11.9828
索隠曰	-11.9829
屛	-11.9829
征討大都督	-11.9829
郞	-11.9829
搥	-11.9829
嘔血	-11.9829
歐陽炯	-11.9829
魏昭成帝	-11.9829
須㬰	-11.9829
捲	-11.983
避暑	-11.983
李仁矩	-11.983
彎	-11.983
鰲	-11.983
鵞	-11.983
不足憂也	-11.983
行唐公洛	-11.983
抃	-11.983
楯	-11.983
崔毖	-11.9831
鈆	-11.9831
翺	-11.9831
𢎞農太守	-11.9831
蕭條	-11.9831
鷙	-11.9831
踊躍	-11.9831
籬	-11.9831
上清宫	-11.9832
徳昌宫	-11.9832
僭即天王位	-11.9832
永壽殿	-11.9832
弢	-11.9832
為親校	-11.9832
䕫忠萬	-11.9832
宣徽南院使	-11.9832
少孤貧	-11.9832
狷	-11.9832
諮議堂	-11.9832
蒐	-11.9832
犇	-11.9833
洫	-11.9833
冬十有一月	-11.9833
亞澄	-11.9833
甍	-11.9833
尉佗	-11.9833
偷生	-11.9833
痊	-11.9833
逭	-11.9833
縊而死	-11.9833
軍旅之事	-11.9834
叚匹磾	-11.9834
岐嶷	-11.9834
清河東武城人	-11.9834
邛	-11.9834
藩籬	-11.9834
貔	-11.9834
孫漢韶	-11.9834
獻白象	-11.9834
塚	-11.9834
偃蹇	-11.9834
閨門	-11.9834
内樞使	-11.9834
棗嵩	-11.9835
崔瑀	-11.9835
旗鼔	-11.9835
永安軍節度使	-11.9835
太極前殿	-11.9835
璀	-11.9835
錢三百萬	-11.9835
睂	-11.9835
秣陵	-11.9835
暝	-11.9835
豐稔	-11.9835
狼子野心	-11.9835
中興之業	-11.9835
賄賂	-11.9835
吕岱	-11.9835
漒	-11.9835
糴	-11.9835
案唐書	-11.9836
赦宥	-11.9836
煌	-11.9836
遣使如遼	-11.9836
松栢	-11.9836
觀競渡	-11.9836
肘腋	-11.9836
越王曰善哉	-11.9836
醇	-11.9836
王及公主	-11.9836
後主踐阼	-11.9836
犧	-11.9836
忡	-11.9836
衞辰	-11.9836
肺腑	-11.9836
推轂	-11.9836
銓選	-11.9837
周世宗實錄	-11.9837
後趙錄	-11.9837
僭即帝位	-11.9837
箔	-11.9837
衙内都指揮使	-11.9837
郊禋	-11.9837
秋霜	-11.9837
胃	-11.9837
留之不遣	-11.9837
宰相李昊	-11.9837
鑄鐵錢	-11.9837
汲桑	-11.9837
時来屬	-11.9838
倉廪	-11.9838
何患不	-11.9838
浙將顧全武	-11.9838
崛	-11.9838
哺	-11.9838
馬步軍都指揮使	-11.9838
謂使者曰	-11.9838
廩丘	-11.9838
琪	-11.9838
单騎	-11.9838
砥	-11.9838
秉燭	-11.9838
有美色	-11.9838
欝	-11.9839
淦	-11.9839
碧波亭	-11.9839
計無所出	-11.9839
湛盧	-11.9839
百姓苦之	-11.9839
旬月之間	-11.9839
硤	-11.9839
嫡嗣	-11.9839
衆至數萬	-11.9839
鎗	-11.9839
圻	-11.9839
馬全節	-11.9839
倨	-11.9839
馮延鲁	-11.9839
竟陵太守	-11.984
拜授各有差	-11.984
鎧甲	-11.984
盧瓊仙	-11.984
驕奢	-11.984
倉垣	-11.984
覬覦	-11.984
李義旼	-11.984
葛陂	-11.984
嚙	-11.984
太白犯	-11.984
梁犢	-11.984
大理寺	-11.984
紫極宫	-11.984
劉穆之	-11.9841
屯騎校尉	-11.9841
入貢于宋	-11.9841
咸師朗	-11.9841
讖	-11.9841
醫藥	-11.9841
監修國史	-11.9841
有膽氣	-11.9841
韓千秋	-11.9842
遣督護	-11.9842
勁勇	-11.9842
大司成	-11.9842
未央	-11.9842
祼	-11.9842
狎客	-11.9842
䄂	-11.9842
傕	-11.9842
槌	-11.9842
祀南郊	-11.9843
卻	-11.9843
自相魚肉	-11.9843
枝葉	-11.9843
封王為南平王	-11.9843
弓箭	-11.9843
張郃	-11.9843
馬氏南唐書	-11.9843
烈祖鎮金陵	-11.9843
愴	-11.9844
希㫖	-11.9844
姚艾	-11.9844
可以得志	-11.9844
羲崇	-11.9844
知福州彰武軍事	-11.9844
潄	-11.9844
苕	-11.9844
悲悼	-11.9844
有能名	-11.9844
申屠令堅	-11.9844
協力	-11.9844
頁	-11.9844
晝寢	-11.9845
乘輿服御	-11.9845
呉越呉越呉越呉越呉越	-11.9845
内侍監	-11.9845
姑息	-11.9845
澆河	-11.9845
㓛	-11.9845
供帳	-11.9846
瀕	-11.9846
九齡	-11.9846
樓櫓	-11.9846
浙西節度使	-11.9846
無以對	-11.9846
品秩	-11.9846
立大功	-11.9846
湫	-11.9846
遐荒	-11.9846
董庶人	-11.9846
赤眉	-11.9846
鴿	-11.9846
右賢王	-11.9847
范暉	-11.9847
壺漿	-11.9847
燄	-11.9847
瘴海	-11.9847
河南尹	-11.9847
疆宇	-11.9847
䌓	-11.9847
狃	-11.9847
𢎞儇	-11.9847
桃林	-11.9847
儲貳	-11.9847
閶闔	-11.9847
具以聞	-11.9848
罩	-11.9848
囷	-11.9848
繼珣	-11.9848
徼外	-11.9848
追之不及	-11.9848
赦其罪	-11.9848
邉鎬	-11.9849
紫宸	-11.9849
左街	-11.9849
彭彦章	-11.9849
潘扆	-11.9849
逃匿	-11.9849
癡	-11.985
博洽	-11.985
吉州刺史彭玕	-11.985
吴越天寳	-11.985
閩書云	-11.985
檢校太尉兼中書令	-11.985
陸仁章	-11.985
魏岑查文徽	-11.985
黔首	-11.985
今姑從	-11.985
仰仁詮	-11.985
梁開平元年	-11.9851
鄴宮	-11.9851
投戈	-11.9851
為地道	-11.9851
龍武軍	-11.9851
簒弑	-11.9851
樞機	-11.9851
觝	-11.9851
悉獨官	-11.9851
汀州刺史	-11.9851
洶	-11.9851
八年春二月	-11.9851
入其境	-11.9851
乾隆四十六年	-11.9851
南唐受禪	-11.9851
刼掠	-11.9852
南唐禪代	-11.9852
秦國太夫人	-11.9852
無功而還	-11.9852
泣涕	-11.9852
淑妃	-11.9852
西川節度副使	-11.9852
渦口	-11.9852
泝江	-11.9853
聚歛	-11.9853
長春宫	-11.9853
匕	-11.9853
牛鞞	-11.9853
數十丈	-11.9853
磚	-11.9853
旼	-11.9853
手刅	-11.9853
盤瓠	-11.9853
貨之户曰	-11.9853
偷安	-11.9854
率輕騎	-11.9854
千餘戶	-11.9855
西爨	-11.9855
門下侍中	-11.9855
摠	-11.9855
落魄	-11.9855
觀察處置	-11.9855
咼彦	-11.9855
餘燼	-11.9855
塋	-11.9855
㧞之執	-11.9855
獻白雀	-11.9855
璨	-11.9855
玉杯	-11.9856
鄭道𫝊	-11.9856
太倉	-11.9856
梁平老	-11.9856
饗羣臣	-11.9856
一千五百	-11.9857
貿	-11.9857
儲副	-11.9857
小長老	-11.9857
削髪	-11.9858
丘堆	-11.9858
乘釁	-11.9858
遣使稱藩	-11.9858
卞韓	-11.9859
家僮	-11.9859
建寧太守	-11.9859
封列侯	-11.9859
永康元年	-11.9859
雍州牧	-11.9859
太子兾	-11.9859
筑	-11.9859
騁	-11.9859
鳥雀	-11.9859
鹽池	-11.9859
楊思恭	-11.9859
呼延氏	-11.9859
勵精	-11.9859
張公鐸	-11.9859
馮䟦	-11.986
刈	-11.986
愛姬	-11.986
褐飛	-11.986
單車	-11.9861
果如其言	-11.9861
拷	-11.9861
輸誠	-11.9861
絮	-11.9861
籌畫	-11.9861
憂勤	-11.9862
怨憤	-11.9862
僧尼	-11.9862
急追之	-11.9862
内樞宻使	-11.9863
雪恥	-11.9863
典籍	-11.9863
李仁任	-11.9863
侍讀	-11.9863
資中人也	-11.9863
虞候	-11.9863
世旻	-11.9864
落落	-11.9864
䦧	-11.9864
兄弟五人	-11.9864
八百餘人	-11.9864
舉孝亷	-11.9864
璇興	-11.9864
旬月	-11.9864
李紹琛	-11.9865
嘉納之	-11.9865
酷喜	-11.9865
朱肜	-11.9865
信翊	-11.9865
殿中將軍	-11.9866
八寸	-11.9866
董允	-11.9866
誠欵	-11.9866
乾徳四年	-11.9867
寵姬	-11.9867
閭里	-11.9867
慕容恪	-11.9867
甲仗	-11.9867
綾羅	-11.9868
充斥	-11.9869
袁紹	-11.987
就戮	-11.987
景環	-11.9871
用拙	-11.9872
珍竒	-11.9872
越舊經	-11.9872
内侍省	-11.9873
京邑	-11.9873
皇綱	-11.9874
豈忍	-11.9874
本使蔡襲	-11.9875
具瞻	-11.9875
遼西太守	-11.9875
善遇之	-11.9876
點	-11.9877
上黨太守	-11.9877
寇掠	-11.9877
𤣥靖	-11.9877
弑逆	-11.9877
龍見於	-11.9878
扇動	-11.9879
慕輿騰	-11.9879
徐龕	-11.9879
韋太尉	-11.9879
參决	-11.9881
荆蠻	-11.9881
李閎	-11.9881
大敗而還	-11.9883
寢室	-11.9883
房陵	-11.9883
衛融	-11.9884
供養	-11.9884
皆出其	-11.9885
雄姿	-11.9885
登科	-11.9885
李公藴	-11.9885
權渠	-11.9885
觀釁	-11.9886
温珪	-11.9886
被創	-11.9886
吕超	-11.9887
後主嗣立	-11.9888
之願也	-11.9888
年二十四	-11.9889
伎樂	-11.9889
誣告	-11.9889
黔州	-11.989
劉茂忠	-11.989
大赦天下	-11.989
張琳	-11.989
顥温	-11.9891
善用兵	-11.9892
扶列	-11.9892
晉升平	-11.9893
張騫	-11.9894
趙廞	-11.9896
劍閣	-11.9896
獻㨗	-11.9897
楚武穆王	-11.9898
西平太守	-11.9898
告遼	-11.9899
巖谷	-11.9899
井邑	-11.99
效順	-11.99
孟津	-11.99
築壘	-11.99
茍免	-11.9901
陳貺	-11.9902
碑銘	-11.9902
廬州刺史	-11.9902
傾危	-11.9902
撫諭	-11.9902
識者謂	-11.9902
公羨	-11.9904
怪異	-11.9905
舉兵反	-11.9907
荆平王	-11.9909
為劉裕所	-11.9909
開寳初	-11.991
寵榮	-11.9911
楚國公	-11.9913
哶羅皮	-11.9914
赫赫	-11.992
妻楊氏	-11.9922
謀洩	-11.9922
舉進士第	-11.9926
劉漢宏	-11.9927
彌諾	-11.993
為之備	-11.9931
右一人	-11.9935
為已子	-11.9937
居數月	-11.9951
幸西京	-11.9953
三百年	-11.9967
率大衆	-11.9968
州牧劉璋	-11.9971
帥壯士	-11.9978
資糧	-11.9981
軍節度使兼侍中	-11.9988
劾奏	-12.0011
族𩔖	-12.0021
十斛	-12.0023
廟號烈祖	-12.0036
兵皆潰	-12.0048
遜辭	-12.0055
右僕射兼	-12.0058
攝政	-12.0066
天會十	-12.0069
未易可	-12.0072
時人號	-12.0073
鍾愛	-12.0078
讒搆	-12.0082
不獲已	-12.0089
侍中都督	-12.0094
厲聲曰	-12.0102
者不可勝數	-12.0104
是之謂也	-12.0107
樹黨	-12.0129
擊却之	-12.0132
右武衛	-12.0134
通正元年	-12.0171
據其城	-12.0189
古帝王	-12.0223
曜大悅	-12.0234
獻方物	-12.0258
百二十里	-12.0293
十三卷	-12.0327
廟碑	-12.0353
百餘萬	-12.0355
千二百	-12.0367
武定節度使	-12.0374
弟驤	-12.0402
牽牛	-12.0413
煉丹	-12.0447
製詩	-12.0456
犍為楊	-12.0457
有之矣	-12.0463
太子太師	-12.0494
千五百人	-12.0526
玉衡十	-12.0556
彦徽	-12.0608
良家子	-12.0643
年四十九	-12.0655
蘭滄江	-12.0696
建隆元年	-12.0718
千緡	-12.0742
年八十餘	-12.0779
奔於秦	-12.0903
大順元年	-12.0922
騖	-12.0946
天水姜	-12.0988
馬一匹	-12.1017
猶豫未	-12.1041
十株	-12.1057
金𬗋光祿大夫	-12.1089
乾化元年	-12.1096
大將軍大都督	-12.1109
天成二年	-12.1115
明德元年	-12.117
寳大元年	-12.1193
諺	-12.12
崇興大寳	-12.1203
三欽定四庫全書十六國春秋卷	-12.1208
刎	-12.1212
鄨	-12.1219
驁	-12.1221
煖	-12.1224
逋逃	-12.1224
斟	-12.1227
民不聊生	-12.1229
㝢	-12.1231
棣	-12.1231
廵檢	-12.1231
亹亹	-12.1232
䨇	-12.1232
諹	-12.1232
毛炅	-12.1233
茫茫	-12.1233
杼	-12.1235
澶	-12.1235
驛四十里至	-12.1236
捫	-12.1236
蝟	-12.1236
塡	-12.1238
玷蒼山	-12.1238
赭	-12.1239
睠	-12.1239
拳勇	-12.1239
女為妃	-12.1239
椅	-12.1239
拓䟦恒	-12.1239
瀧	-12.124
北夢瑣言	-12.124
夹	-12.1241
開平四年	-12.1241
軋	-12.1242
運籌	-12.1242
荐	-12.1242
拓境	-12.1242
陳彦謙	-12.1242
宗慤	-12.1242
拆	-12.1242
團柏	-12.1242
民甚苦之	-12.1242
匪躬	-12.1242
南蠻校尉	-12.1242
侵軼	-12.1242
薇	-12.1243
閨	-12.1244
戕害	-12.1244
馳騁	-12.1244
液	-12.1244
姚晃	-12.1244
松怱	-12.1244
廖匡圖	-12.1244
䲭	-12.1245
氊	-12.1245
孝和帝	-12.1245
諝	-12.1245
髙祖鎮西川	-12.1245
郭崇岳	-12.1245
宕	-12.1245
警蹕	-12.1245
蠟丸	-12.1245
梏	-12.1246
胤	-12.1246
湮	-12.1246
璹	-12.1246
姜邯贊	-12.1246
龍口城	-12.1247
瘍	-12.1247
袵	-12.1247
澈	-12.1247
􁎘	-12.1248
嶢	-12.1248
蓍	-12.1248
曉音律	-12.1248
武王伐紂	-12.1248
﨑	-12.1248
拓俊京	-12.1248
眭	-12.1248
慕容延釗	-12.1248
懶	-12.1248
房晷	-12.1248
事無大小	-12.1248
逗	-12.1248
席捲	-12.1248
運厯圖	-12.1248
拽	-12.1248
瀨	-12.1248
至元十五年	-12.1248
㬰	-12.1249
盼	-12.1249
收散卒	-12.1249
終于其職	-12.1249
勦	-12.1249
霅	-12.1249
丱	-12.1249
巣	-12.125
繹幕	-12.125
蕭墻	-12.125
江為界	-12.125
詗	-12.125
釀	-12.125
梢	-12.1251
王處回	-12.1251
袪	-12.1251
遨	-12.1251
不亦可乎	-12.1251
伏利度	-12.1251
簪	-12.1251
猖狂	-12.1251
崑	-12.1251
埸	-12.1251
歐冶子	-12.1251
馬歩軍都指揮使	-12.1251
北宫純	-12.1252
吳王大恱	-12.1252
水丘昭劵	-12.1252
千户實封五百户	-12.1252
蹋	-12.1252
隧	-12.1252
邆川	-12.1252
秋毫不犯	-12.1253
以滅口	-12.1253
立功立事	-12.1253
喝	-12.1253
待之如初	-12.1253
蓬萊	-12.1253
宋師入境	-12.1253
國子監	-12.1253
京山府	-12.1254
箇	-12.1254
倔	-12.1254
張全約	-12.1254
膂力過人	-12.1254
釣磯	-12.1254
天符睿武	-12.1254
献	-12.1254
莵	-12.1254
以位讓	-12.1254
㟁	-12.1254
直史館	-12.1254
踪	-12.1254
武寧軍節度使	-12.1254
滔滔	-12.1254
門下侍郎同平章事	-12.1255
萼	-12.1255
蛤	-12.1255
颺	-12.1255
劈	-12.1255
賜紫金魚袋	-12.1255
巋	-12.1255
恡	-12.1255
龎師古	-12.1255
憊	-12.1255
璲	-12.1255
約為兄弟	-12.1255
方永珍	-12.1255
潼	-12.1255
怕	-12.1255
哥	-12.1256
征日本	-12.1256
知勁草	-12.1256
闥	-12.1256
透	-12.1256
饑渴	-12.1256
壓境	-12.1256
雹	-12.1256
仁夀節	-12.1256
啞	-12.1257
驃騎將軍農	-12.1257
綃	-12.1257
當此之時	-12.1257
秘不發喪	-12.1257
東瀛公騰	-12.1257
訂	-12.1257
龐	-12.1257
史館修撰	-12.1257
忷	-12.1257
脣	-12.1257
哶	-12.1257
訾	-12.1257
笙	-12.1257
徭役	-12.1257
有條理	-12.1258
史守冲	-12.1258
循王𢎞杲	-12.1258
有心計	-12.1258
李𢎞義	-12.1258
翼犍	-12.1258
貪鄙	-12.1258
隟	-12.1258
醉飽	-12.1258
驄	-12.1259
秘不發䘮	-12.1259
羅紈	-12.1259
燋	-12.1259
㰱	-12.1259
亡無日矣	-12.1259
枕戈待旦	-12.1259
西洱河	-12.1259
稿	-12.126
鷹坊	-12.126
習其名	-12.126
槁	-12.126
𤯝	-12.126
優詔不許	-12.126
養為子	-12.126
亂臣賊子	-12.126
掉	-12.126
􁄭	-12.126
湄	-12.126
自餘文武	-12.126
苧	-12.126
劬勞	-12.126
墓誌銘	-12.126
惶怖	-12.126
踶	-12.126
鮮于亮	-12.126
侄	-12.126
麻襦	-12.126
博通經史	-12.126
希旺	-12.126
悒	-12.126
步兵校尉	-12.126
締	-12.1261
詹敦仁	-12.1261
楛矢	-12.1261
醪	-12.1261
縲	-12.1261
稽緩	-12.1261
岫	-12.1261
曜武將軍	-12.1261
乍	-12.1262
疾瘳	-12.1262
祕書郎	-12.1262
帚	-12.1262
㓙	-12.1262
帆	-12.1262
敇	-12.1262
押衙	-12.1262
宰相王鍇	-12.1263
廣武公傉檀	-12.1263
畚	-12.1263
鞾	-12.1263
冗從僕射	-12.1263
筆札	-12.1263
不戰而潰	-12.1263
兀	-12.1263
鎮西将軍	-12.1263
未之有也	-12.1263
俛	-12.1263
托多爾	-12.1263
手不釋卷	-12.1263
盧水胡	-12.1263
司農卿	-12.1263
太弟乂	-12.1263
時不可失	-12.1263
前燕録	-12.1263
侃侃	-12.1263
即位於柩前	-12.1263
缾	-12.1263
薙	-12.1263
椽	-12.1264
厝	-12.1264
舩	-12.1264
惟陛下圖之	-12.1264
藎	-12.1264
鴨	-12.1264
太府主簿	-12.1264
牁	-12.1264
磊	-12.1264
申漸髙	-12.1264
羕	-12.1264
國人哀之	-12.1264
率騎三千	-12.1264
藏匿	-12.1264
官職都	-12.1264
思潮等	-12.1264
螫	-12.1264
樞宻院事	-12.1264
闞	-12.1264
栁濯	-12.1265
楊佺期	-12.1265
順聖太后	-12.1265
呉懷恩	-12.1265
比肩	-12.1265
窋	-12.1265
鎮肥如	-12.1265
暄	-12.1265
繹	-12.1265
八卦	-12.1265
鄧洵美	-12.1265
采石磯	-12.1265
襁	-12.1265
槎	-12.1266
判度支	-12.1266
彭城王鏐	-12.1266
翥	-12.1266
元宗遷南都	-12.1266
輿尸	-12.1266
白虹貫日	-12.1266
車騎大將軍開府儀同三司	-12.1266
𫀆	-12.1266
詁	-12.1266
殄滅	-12.1266
即皇帝位改元	-12.1266
湔	-12.1266
吕婆樓	-12.1267
徽猷	-12.1267
姬生宗	-12.1267
聿修	-12.1267
堕	-12.1267
潘峭	-12.1267
靦	-12.1267
遡	-12.1267
前凉録	-12.1267
慈悲	-12.1267
權知軍府事	-12.1267
櫂	-12.1267
猶豫未決	-12.1267
則可戰	-12.1267
岢嵐軍	-12.1267
區宇	-12.1267
東海郡王	-12.1267
憝	-12.1268
南詔䝉異牟尋	-12.1268
仿	-12.1268
叟嘗謂	-12.1268
晏球	-12.1268
負殊曰	-12.1268
駟馬	-12.1268
抉	-12.1268
帥步騎三萬	-12.1269
荆棘	-12.1269
井絡	-12.1269
贏	-12.1269
黼	-12.1269
其相吕嘉	-12.1269
大理司直	-12.1269
奉表稱藩	-12.1269
据此則	-12.1269
撃敗之	-12.1269
岐隴	-12.1269
戸部尚書	-12.1269
厓	-12.1269
鷹揚	-12.1269
欲改嫁	-12.1269
鷹犬	-12.1269
疲敝	-12.1269
義陽王鑒	-12.1269
著作佐郎	-12.1269
閠	-12.1269
踊	-12.127
倅	-12.127
一夕夢	-12.127
泣血	-12.127
大中大夫	-12.127
鄭元弼	-12.127
密遣人	-12.127
殷文圭	-12.127
沽	-12.127
羅綺	-12.127
銓衡	-12.127
拓䟦	-12.127
醴陵	-12.127
芋	-12.1271
欽定四庫全書朝鮮史畧卷	-12.1271
龍瑞太平	-12.1271
暈	-12.1271
乹寜	-12.1271
姙	-12.1271
齊丘黨與	-12.1271
臠食	-12.1272
奉國節度使	-12.1272
丹漆	-12.1272
王宗祐	-12.1272
宇文逸豆歸	-12.1272
甎	-12.1272
大赦境内殊死以下	-12.1272
訹	-12.1272
趙仁澤	-12.1272
穏	-12.1272
曺彬	-12.1272
歐史職方	-12.1272
皁	-12.1272
蚌	-12.1272
屈膝	-12.1272
逍遥園	-12.1272
平昌王菁	-12.1272
圮	-12.1272
郭廷謂	-12.1273
鏃	-12.1273
安重霸	-12.1273
曹敏脩	-12.1273
以小事大	-12.1273
妖妄	-12.1273
鎭軍將軍	-12.1273
怤	-12.1273
畚鍤	-12.1273
央	-12.1273
祈雨	-12.1273
右拾遺	-12.1273
其外郛	-12.1273
虞舜	-12.1274
偽謚	-12.1274
削弱	-12.1274
從王請也	-12.1274
薛文傑	-12.1274
潞王從珂	-12.1274
􁁓	-12.1274
幻	-12.1274
厙傉官	-12.1274
婺州刺史	-12.1274
不復設備	-12.1275
將作監	-12.1275
欹	-12.1275
徐天祜	-12.1275
遺燼	-12.1275
兆庶	-12.1275
南海王法	-12.1275
以老病	-12.1275
有詩名	-12.1275
鍾離君	-12.1275
髙審思	-12.1275
寯	-12.1275
瞋目叱之	-12.1275
為小校	-12.1275
覬	-12.1275
羣兇	-12.1275
俳	-12.1275
國子司業	-12.1275
奸佞	-12.1275
碕	-12.1275
趾	-12.1276
鼎沸	-12.1276
珠璣	-12.1276
廬壽	-12.1276
惻然	-12.1276
勤政殿學士	-12.1276
彜	-12.1276
銜枚	-12.1276
武平節度使	-12.1276
開平三年	-12.1276
麄	-12.1276
槐里	-12.1276
兜	-12.1277
朋友	-12.1277
叚暉	-12.1277
始平太守	-12.1277
長圍守之	-12.1277
五百斤	-12.1277
昏虐	-12.1277
􁈯	-12.1277
慕容鎮軍	-12.1277
牛頭山	-12.1277
建州之役	-12.1277
沭	-12.1277
等十八人	-12.1278
辟掌書記	-12.1278
𨽻戲下	-12.1278
為永順	-12.1278
觀魚於	-12.1278
田租	-12.1278
羅浮山	-12.1278
堡克之	-12.1278
清化府	-12.1278
椒丘訢	-12.1278
别有傳	-12.1279
蓺	-12.1279
瀝	-12.1279
募勇士	-12.1279
妻以女	-12.1279
烈祖受禅	-12.1279
檢校尚書左僕射	-12.1279
苛虐	-12.1279
置秀州	-12.128
旁午	-12.128
以安衆心	-12.128
奉國軍節度使	-12.128
厲階	-12.128
建王恪	-12.128
㲄	-12.128
昕	-12.1281
愎諫	-12.1281
河内王粲	-12.1281
月俸	-12.1281
翼戴	-12.1281
厙傉官偉	-12.1281
建州王延政	-12.1281
荀曜	-12.1281
􁳖	-12.1281
吳王夫差	-12.1282
樊若水	-12.1282
踰嶺	-12.1282
送𣢾	-12.1282
伊霍之	-12.1282
聖尊后	-12.1282
越賧	-12.1283
率衆來攻	-12.1283
我師大敗	-12.1283
粟邑	-12.1283
素聞其名	-12.1283
通鑑考異	-12.1283
肉袒	-12.1283
瀬	-12.1284
楚王殷	-12.1284
呼延晏	-12.1284
驅掠	-12.1284
大黄人	-12.1284
北部都尉	-12.1284
掖庭	-12.1284
不良死	-12.1284
鐸鞘	-12.1284
觀軍容使	-12.1284
荔枝	-12.1284
竹帛	-12.1284
平原公暉	-12.1284
清淮軍	-12.1285
擄	-12.1285
笋	-12.1285
火炬	-12.1285
揣摩	-12.1285
罷其職	-12.1286
在位十五年	-12.1286
翟釗	-12.1286
聞而嘉之	-12.1286
英姿	-12.1287
馬箠	-12.1287
昭武節度使	-12.1287
絰	-12.1287
威勝軍	-12.1287
號慟	-12.1287
東南隅	-12.1288
春秋之義	-12.1288
離貳	-12.1288
崤	-12.1288
任俠	-12.1288
零落	-12.1288
李芳實	-12.1289
蝦	-12.1289
繼踵	-12.1289
許寂	-12.1289
開寳五年	-12.1289
肺	-12.129
鼓琴	-12.129
在位十三年	-12.129
統軍使胡進思	-12.129
屠害	-12.129
佞佛	-12.1291
以憂卒	-12.1291
忠惠王	-12.1291
夔安	-12.1291
變姓名	-12.1291
幕客	-12.1291
釋道安	-12.1291
漳州刺史	-12.1292
為國患	-12.1292
巴東太守	-12.1292
工巧	-12.1292
季歷	-12.1293
緩急	-12.1293
景騫	-12.1293
厚遇之	-12.1294
中流矢死	-12.1294
副都統	-12.1294
就縛	-12.1295
年三十九	-12.1295
帝殺其弟	-12.1296
部伍	-12.1296
王乞基	-12.1296
姿儀	-12.1296
羅隐	-12.1298
其歸路	-12.1299
僰道人也	-12.13
脩國史	-12.13
酒秃	-12.13
數千戸	-12.13
遇鴆	-12.13
高彦儔	-12.13
銀瓶	-12.1301
追擒之	-12.1301
芳儀	-12.1301
慱	-12.1301
折掘	-12.1302
韋鍾	-12.1305
一百一十	-12.1305
廷範	-12.1306
朱元叛	-12.1306
鄩	-12.1308
濠州刺史	-12.131
姓名曰王宗	-12.1313
率步騎四萬	-12.1313
僧孺	-12.1314
昆池	-12.1316
錢傳瓘	-12.1317
越王勾踐	-12.1317
卭部	-12.1319
揚言曰	-12.1319
年三十六	-12.132
知證知諤	-12.1324
右光禄大夫	-12.1331
浪穹	-12.1336
彘	-12.1337
奮撃	-12.134
死傷者	-12.1341
□□	-12.1342
驃國	-12.1349
邆賧	-12.1352
母周氏	-12.1358
武平軍節度	-12.1366
等軍莭度	-12.1374
是月王遣	-12.1398
以千數	-12.1405
百餘艘	-12.1406
鎮海軍莭度	-12.1411
戰皆敗	-12.1427
郫人也	-12.144
于逺地	-12.1447
告人曰	-12.1451
丞相長史	-12.1463
萬億	-12.1559
勅陞	-12.1583
欽定四庫全書十六國春秋卷五十	-12.1589
萬八千	-12.1623
謂太宰嚭曰	-12.1624
為勃勃所	-12.1642
墓碑	-12.165
秋八月勅	-12.1676
案原本	-12.1713
宗子母	-12.1724
敏慧	-12.1802
天漢元年	-12.1821
欽定四庫全書十六國春秋卷三十	-12.1879
城拒守	-12.1922
諫不聽	-12.1967
十餘篇	-12.2016
十巻	-12.2018
凍死者	-12.2037
龍徳二年	-12.2289
可不慎	-12.2393
遣通事舍人	-12.2422
京兆杜	-12.2485
南陽王𦙍	-12.2743
闗内侯	-12.2775
增食邑	-12.2838
十國春秋	-12.2873
薨年四十	-12.2877
天感聖武	-12.2879
娛	-12.2887
蜋	-12.2887
墊	-12.2892
水陸並進	-12.2892
滇	-12.2893
所以然者	-12.2894
酧	-12.2894
紈	-12.2895
炊	-12.2895
阡	-12.2895
臧莫孩	-12.2895
殤	-12.2896
也不可以不	-12.2896
儂智髙	-12.2896
芹	-12.2896
大雨霖	-12.2897
華嚴經	-12.2897
疥	-12.2898
曲承美	-12.2898
巂	-12.2898
潢	-12.2898
卿以為何如	-12.2898
彭仕然	-12.2898
剌	-12.2899
舉不第	-12.29
春秋三傳	-12.29
檜	-12.29
清平官大軍將	-12.29
副大使	-12.2901
淐	-12.2901
自求多福	-12.2902
凜	-12.2903
始安王曜	-12.2903
藿	-12.2904
阿儂	-12.2904
犬吠	-12.2904
驍勇善騎射	-12.2904
蔬	-12.2904
智異山	-12.2905
皇天后土	-12.2905
洙泗	-12.2905
蠢	-12.2906
絕外傳	-12.2906
謖	-12.2906
謜	-12.2906
賃	-12.2907
車騎將軍王堪	-12.2907
罽賓	-12.2907
泠	-12.2907
窟咄	-12.2907
珖	-12.2907
晝夜兼行	-12.2908
涎	-12.2908
假寐	-12.2908
平逺將軍	-12.2908
曠日持久	-12.2908
氓	-12.2908
治平龍應	-12.2908
為流矢所中	-12.2908
綾錦	-12.2909
赧	-12.2909
嬪妃	-12.2909
沉湎	-12.2909
浙西營田副使	-12.2909
虎賁中郎將	-12.2909
王子旵	-12.2909
晦暝	-12.291
營田使	-12.291
酪	-12.291
太子中允	-12.291
鈿	-12.291
隨才擢叙	-12.291
年春丞相亮	-12.291
遣陪臣	-12.291
碍	-12.2911
不拘小節	-12.2911
棄郡奔	-12.2911
㷀	-12.2912
傳于世	-12.2912
如反掌	-12.2912
忠臣孝子	-12.2912
吭	-12.2912
怛	-12.2912
悉羅騰	-12.2912
覦	-12.2912
驃	-12.2912
西秦乞伏熾磐	-12.2913
鑪	-12.2913
至元丙子	-12.2913
鶉	-12.2913
忠臣義士	-12.2913
慤	-12.2913
揮戈	-12.2913
鴞	-12.2913
熊羆	-12.2913
躶	-12.2913
夕惕	-12.2914
眄	-12.2914
懟	-12.2914
簽	-12.2914
晬	-12.2914
吸	-12.2914
實都等	-12.2914
鑛	-12.2914
欽惟皇帝陛下	-12.2914
法雲寺	-12.2914
酗酒	-12.2914
楫	-12.2915
司天少監	-12.2915
樵採路絶	-12.2915
橈	-12.2915
匙	-12.2915
宸衛都	-12.2915
無懼色	-12.2915
元鼎二年	-12.2915
與晉暉	-12.2915
行軍司馬徐玠	-12.2915
苛刻	-12.2915
綦	-12.2915
賮	-12.2916
𦕈	-12.2916
觀世音	-12.2916
汎溢	-12.2916
奕碁	-12.2916
蜕	-12.2916
路不拾遺	-12.2916
宣陽門	-12.2916
都督隴右諸軍事	-12.2916
彌姐	-12.2916
吟詠	-12.2916
椒房	-12.2916
杪	-12.2916
為邊患	-12.2916
困厄	-12.2916
蒯鼇	-12.2917
棟宇	-12.2917
誑	-12.2917
葆	-12.2917
綻	-12.2917
嗔	-12.2917
以私憾	-12.2917
害忠良	-12.2917
衽	-12.2917
上疏切諫	-12.2917
臆	-12.2917
賕	-12.2917
承大統	-12.2918
攜妻子	-12.2918
建忠將軍	-12.2918
貊	-12.2918
之大者也	-12.2918
昭陽殿	-12.2918
驍悍	-12.2918
日詔王宴于	-12.2918
思復鞬	-12.2919
冕旒	-12.2919
哀毁過禮	-12.2919
心膂	-12.2919
費無忌	-12.2919
闍	-12.2919
諸道副都統	-12.2919
迷惑	-12.2919
鈇	-12.2919
左軍將軍竇衝	-12.2919
甆	-12.2919
墅	-12.2919
萬餘戸於	-12.292
知大體	-12.292
礟	-12.292
唐𤣥宗	-12.292
彌牟鎮	-12.292
兼弱攻昧	-12.292
義興門	-12.292
隲	-12.292
開國侯食邑	-12.2921
儒林祭酒	-12.2921
郛郭	-12.2921
以吾觀之	-12.2921
毀	-12.2921
不血食	-12.2921
貳于我	-12.2921
郤宛	-12.2921
剃	-12.2921
朱行先	-12.2921
貢大徳	-12.2921
為使持節侍中都督中外諸軍	-12.2921
以為信然	-12.2921
鑾駕	-12.2921
北夢𤨏言	-12.2921
建義將軍	-12.2921
使持節散騎常侍都督	-12.2921
李處耘	-12.2921
簞	-12.2921
骨鯁	-12.2921
積功為	-12.2921
騶	-12.2921
高句驪王釗	-12.2921
倍道兼行	-12.2921
金花銀器	-12.2922
石守信	-12.2922
宋師圍金陵	-12.2922
骰	-12.2922
濩	-12.2922
羑里	-12.2922
厈	-12.2922
呂護	-12.2922
朶	-12.2922
下邳王厲	-12.2922
裾	-12.2922
身先士卒	-12.2922
事無巨細	-12.2922
麴粥	-12.2923
忿恚	-12.2923
務農訓兵	-12.2923
劍南西川節度使	-12.2923
孩	-12.2923
慷慨有大志	-12.2923
吳越國王錢俶	-12.2923
花蕋夫人	-12.2923
大饗將士	-12.2923
近肖古	-12.2923
𡨕	-12.2923
揭	-12.2924
闞璠	-12.2924
宷	-12.2924
少而好學	-12.2924
固始人	-12.2924
掬	-12.2924
妍	-12.2924
上表稱賀	-12.2924
幻術	-12.2924
擠	-12.2924
遹	-12.2924
太子少保	-12.2924
起居舍人	-12.2924
國家多難	-12.2924
尖	-12.2925
奮威將軍	-12.2925
炎炎	-12.2925
爝	-12.2925
唐授鏐	-12.2925
初學記	-12.2925
嬌	-12.2925
楊廷式	-12.2925
絶憐愛之	-12.2925
星宿山	-12.2925
田頵安仁義	-12.2925
東海鯉魚飛上天	-12.2925
愷悌	-12.2926
猱	-12.2926
菲	-12.2926
泪	-12.2926
廣威將軍	-12.2926
恇	-12.2926
楸	-12.2926
鄭仲夫	-12.2926
中原多故	-12.2926
沈韜文	-12.2926
簇	-12.2926
弄棟城	-12.2926
君臨萬邦	-12.2927
狡猾	-12.2927
葬永陵	-12.2927
博學善屬文	-12.2927
軻弹	-12.2927
閔漬	-12.2927
孝獻世子	-12.2927
以父廕	-12.2927
有俊才	-12.2927
秦餘杭山	-12.2927
至元甲申冬	-12.2927
鼔吹	-12.2927
三學山	-12.2927
暀	-12.2927
􁅳	-12.2927
喑嗚	-12.2927
未之許也	-12.2927
灑掃	-12.2927
賜自盡	-12.2927
滹沱	-12.2928
吊	-12.2928
駑	-12.2928
撑	-12.2928
証	-12.2928
鴉	-12.2928
暑熱	-12.2928
迯	-12.2928
擴	-12.2928
涕泗	-12.2928
濠州團練使	-12.2928
營田副使	-12.2928
遒	-12.2928
騮	-12.2928
薛崇譽	-12.2928
三年入南漢	-12.2928
逆戰不利	-12.2929
固壘不戰	-12.2929
天䇿學士	-12.2929
益州刺史羅尚	-12.2929
自旦至	-12.2929
氐符成隗	-12.2929
謳	-12.2929
兢兢	-12.2929
廵狩	-12.2929
帥騎三千	-12.2929
東都事畧	-12.2929
􁗁	-12.2929
葭	-12.2929
民不堪命	-12.2929
兵大潰	-12.2929
魚膓	-12.2929
光政使	-12.293
坤維	-12.293
東北隅	-12.293
葩	-12.293
樂平王丕	-12.293
綾絹	-12.293
九龍殿	-12.293
者誰也	-12.293
征虜将軍	-12.293
誦法華經	-12.293
文明殿	-12.2931
即天王位	-12.2931
宵旰	-12.2931
懣	-12.2931
以至於此	-12.2931
倐忽	-12.2931
鰌	-12.2931
賈誼	-12.2931
侯官縣	-12.2931
娼	-12.2931
盟國人於龍墀	-12.2931
艛	-12.2931
江王景逷	-12.2932
訶	-12.2932
价	-12.2932
彈琴	-12.2932
濞	-12.2932
薙髪	-12.2932
蛻	-12.2932
勒遣石虎	-12.2932
瞬	-12.2932
窓	-12.2932
貰	-12.2932
打毬	-12.2932
樂平王苞	-12.2932
皐	-12.2932
井陘	-12.2932
耕籍田	-12.2932
苖裔	-12.2932
鸛	-12.2932
奉禮郎	-12.2932
彚	-12.2933
投水死	-12.2933
咨訪	-12.2933
帥騎一萬	-12.2933
去縣四十里	-12.2933
失其家世	-12.2933
遊奕使	-12.2933
雲安監	-12.2933
飡	-12.2933
天彰寳嗣	-12.2933
閶門外	-12.2933
瑫	-12.2933
清源軍節度使	-12.2933
兵馬留後	-12.2933
饑疫	-12.2933
枕戈	-12.2934
鶻	-12.2934
岐王李茂貞	-12.2934
估	-12.2934
螭	-12.2934
韋謏	-12.2934
閻負梁殊	-12.2934
四星聚斗	-12.2934
禮部員外郎	-12.2934
㮣	-12.2934
染院使	-12.2934
轟	-12.2935
彷彿	-12.2935
不勝其忿	-12.2935
食邑五百户	-12.2935
鵰	-12.2935
略陽氐人也	-12.2935
成大功	-12.2935
清異錄云	-12.2935
倪曙	-12.2935
赴火死	-12.2935
忩	-12.2935
坐而待	-12.2935
踴	-12.2935
牂	-12.2935
姻婭	-12.2936
三清殿	-12.2936
劉昭禹	-12.2936
林西原	-12.2936
秉國鈞	-12.2936
郊祀天地	-12.2936
屐	-12.2936
梔	-12.2936
趙匡贊	-12.2936
保大三年取	-12.2936
鬪	-12.2936
澠	-12.2936
牌印	-12.2936
鄞	-12.2936
以備非常	-12.2936
嘘	-12.2936
開平初	-12.2936
為己子	-12.2936
杜門不出	-12.2936
瑪瑙	-12.2937
衆至十餘萬	-12.2937
教練使	-12.2937
金百鎰	-12.2937
康化軍節度使	-12.2937
避廟諱	-12.2937
十有一月	-12.2937
能属文	-12.2937
王宗本	-12.2937
嚴遵美	-12.2937
臉	-12.2937
咄	-12.2937
金得培	-12.2937
天䇿府學士	-12.2937
吳越王鏐	-12.2937
州辟從事	-12.2937
為之謡曰	-12.2937
耑	-12.2937
錬	-12.2937
鏵	-12.2937
譚紫霄	-12.2937
足食足兵	-12.2937
陳洪進執紹鎡	-12.2937
􁒏	-12.2937
瓮	-12.2937
臨川王濛	-12.2938
縉紳	-12.2938
餔	-12.2938
太常少卿	-12.2938
秘書少監	-12.2938
謂此也	-12.2938
廢朝七日	-12.2938
東北面兵馬使	-12.2938
攘臂	-12.2938
太原王楷為	-12.2938
弑渥	-12.2938
沴	-12.2938
訐	-12.2939
陬	-12.2939
所向無前	-12.2939
來宣諭仍賜	-12.2939
中門使	-12.2939
任圜	-12.2939
引水灌城	-12.294
贑	-12.294
廷珙	-12.294
舛	-12.294
蠅	-12.294
材官將軍	-12.294
死者過半	-12.294
計將安出	-12.294
累召不	-12.294
年王薨太子	-12.2941
鉗	-12.2941
恢拓	-12.2941
捐軀	-12.2941
帥歩騎二萬	-12.2941
殯殮	-12.2941
無乃不可乎	-12.2941
不知其家世	-12.2941
卒年七十有	-12.2941
丧	-12.2941
鉏	-12.2941
鈐	-12.2942
姦猾	-12.2942
猗盧	-12.2942
吾死之後	-12.2942
讟	-12.2942
郭敖	-12.2942
鼙	-12.2942
夸	-12.2942
帥步騎二萬	-12.2942
郝貴超	-12.2942
尹紹宗	-12.2942
灃	-12.2942
陳成恒	-12.2942
景逿	-12.2942
浩沁	-12.2942
瀚	-12.2942
凛	-12.2942
羊馬城	-12.2942
置守宰以撫之	-12.2943
縶	-12.2943
言於寶曰	-12.2943
事覺伏誅	-12.2943
吳越備史卷第	-12.2943
非計也	-12.2943
不事産業	-12.2943
春申君所造	-12.2943
薛氏舊五代史	-12.2943
雄逺軍	-12.2943
禹治水	-12.2944
有才藝	-12.2944
尺寸之功	-12.2944
結為兄弟	-12.2944
七年春三月	-12.2944
不具録	-12.2944
令所司	-12.2944
承制行事	-12.2944
任臣案	-12.2944
唁	-12.2944
宰相張格	-12.2944
个	-12.2944
洹	-12.2944
不著撰人名氏	-12.2944
噀	-12.2944
胙土	-12.2944
為鄉里所	-12.2945
脉	-12.2945
失其姓名	-12.2945
累從征伐	-12.2945
豪俠	-12.2945
銅牌	-12.2945
𤣥莵太守	-12.2945
富沙王延政	-12.2946
杙	-12.2946
殺傷甚衆	-12.2946
元帥府掌書記	-12.2946
幟	-12.2946
氐酋	-12.2947
皖	-12.2947
武威姑臧人	-12.2947
以夀終	-12.2947
冠絶一時	-12.2947
張永徳	-12.2947
恭穆夫人	-12.2947
務銀提	-12.2947
加王食邑一千户實封	-12.2948
武泰軍	-12.2948
噫	-12.2948
在襁褓	-12.2948
齠	-12.2948
巷哭	-12.2948
幔	-12.2948
鄭世雲	-12.2948
等十將	-12.2948
為詩友	-12.2948
曰下官	-12.2949
李仁復	-12.2949
紫陌	-12.2949
晉公栁	-12.2949
紘	-12.2949
蹂	-12.2949
有年矣	-12.295
長寧侯祚	-12.295
波濤	-12.295
九年春三月	-12.295
刮	-12.295
桓石民	-12.295
為之聲援	-12.295
喚	-12.295
紡	-12.2951
臺榭	-12.2951
鳯陽門	-12.2951
𨼆	-12.2951
介胄	-12.2952
長樂王盛	-12.2952
椰	-12.2952
䘚年五十七	-12.2952
禹𤣥寶	-12.2952
縋	-12.2952
華林園	-12.2952
仔倡	-12.2952
漕運	-12.2953
簀	-12.2953
率户五千	-12.2953
縱火焚	-12.2953
嵇	-12.2954
鄭文寳	-12.2954
許再思	-12.2955
刺史張喬	-12.2955
盧光稠	-12.2955
靑	-12.2956
珮	-12.2956
轉禍為福	-12.2956
斬獲萬	-12.2957
恐禍及	-12.2957
子文奉	-12.2957
薛讃	-12.2957
顧在珣	-12.2957
猶恐不	-12.2958
琠	-12.2958
蔬食	-12.2958
晝晦	-12.2959
􁩞	-12.2959
俸禄	-12.2959
兕	-12.2959
孳	-12.296
在㑹稽縣東	-12.296
刦	-12.296
緫	-12.2961
李金全為北面行營招討使	-12.2961
以王禮葬	-12.2961
廨	-12.2962
盛邏皮	-12.2964
重三銖	-12.2966
莫大於	-12.2967
蒙歸義	-12.2967
耿介	-12.2968
閶	-12.2969
唐書南詔傳	-12.297
画	-12.297
媧	-12.2973
豐哶	-12.2983
甘沐	-12.2985
者數矣	-12.2986
疑有伏	-12.2989
騎衝之	-12.2994
驚怖	-12.2997
惟恐不	-12.3003
縣郡西	-12.3008
鎮東軍莭度	-12.3048
丈五尺	-12.305
尺五寸	-12.3066
為淮人所	-12.3084
長二尺	-12.3098
所憂也	-12.3189
千艘	-12.3348
步騎七萬	-12.3361
為冲所	-12.3373
薨年五十	-12.3424
其略曰	-12.3488
年五十五	-12.3598
鎮海鎮東節度使	-12.4018
䘚年四十	-12.4091
步騎五萬	-12.4122
百斛	-12.4342
冡也去縣	-12.4511
欽定四庫全書十六國春秋卷二十	-12.4711
謂曜曰	-12.4862
爆	-12.4868
開府儀同三司檢校太師兼中書令	-12.4871
氣在後將	-12.4872
氣在前將	-12.4875
嘷	-12.4877
呉延寵	-12.4877
鈹	-12.4883
望苴子	-12.489
澦	-12.489
獨錦蠻	-12.489
盧延讓	-12.4891
太子中庶子	-12.4893
盛羅皮	-12.4893
酆	-12.4893
以臣觀之	-12.4894
陳留公洸	-12.4896
文穆王第十	-12.4897
卒謚文	-12.4897
詛	-12.4897
檢討吴任臣撰前蜀	-12.4897
磔	-12.4897
浮江而下	-12.4897
甚器異之	-12.4897
綧	-12.4897
絜	-12.4898
鷂	-12.4898
䑛	-12.49
孝弟力田	-12.49
崔佐時	-12.49
進表賀	-12.49
蒻	-12.4902
嫄	-12.4902
年九嵗	-12.4902
筐	-12.4902
大良君	-12.4902
未斯欣	-12.4902
筰	-12.4903
凭	-12.4903
瑪哈穆特	-12.4903
褻	-12.4903
驍勇善戰	-12.4903
奉鑾肅衛都指揮	-12.4903
然改容	-12.4904
貼	-12.4904
牙籖	-12.4904
竆	-12.4905
職方員外郎	-12.4905
武懷節	-12.4905
輔國將軍歛曼嵬	-12.4906
彭城内史劉	-12.4906
鄭元素	-12.4906
之力居多	-12.4906
佉苴	-12.4906
杜安順	-12.4906
縞	-12.4906
刷	-12.4906
庚癸之亂	-12.4906
至元三十一年	-12.4906
瞰	-12.4907
拭	-12.4907
湻	-12.4907
繭	-12.4907
丁拱垣	-12.4907
惽	-12.4907
鍪	-12.4908
瘵	-12.4908
嘶	-12.4908
天與不取	-12.4908
坐細思量	-12.4908
欄檻	-12.4908
武泰留後	-12.4908
世子懼遣	-12.4908
五代舊史	-12.4908
毛詩三禮	-12.4909
逹嚕噶齊	-12.4909
甚見親重	-12.4909
銘其背曰	-12.4909
咀	-12.4909
回賜禮物	-12.4909
斬首數千級	-12.4909
錙	-12.4909
閹豎	-12.4909
避其鋒	-12.4909
榼	-12.491
苔	-12.491
怜	-12.491
道路以目	-12.491
銀一斤	-12.491
以為笑樂	-12.491
廖匡齊	-12.491
廢長立少	-12.491
銑	-12.491
仔	-12.491
跌	-12.4911
泰寧軍節度使	-12.4911
揜	-12.4911
風塵之變	-12.4911
積弩將軍	-12.4911
用度不足	-12.4911
寧北將軍	-12.4911
䇿之上也	-12.4911
參合之敗	-12.4911
復其爵位	-12.4911
因以家焉	-12.4911
死生有命	-12.4912
脈	-12.4912
等于廵軍	-12.4912
光穆皇后	-12.4912
木平和尚	-12.4912
窠	-12.4912
襲父位	-12.4912
菊	-12.4912
有膽畧	-12.4912
路振九國志	-12.4912
車駕還京	-12.4912
隴西公碩徳	-12.4912
𧦬	-12.4912
肎	-12.4913
今其時也	-12.4913
嫂	-12.4913
鄧懿文	-12.4913
券	-12.4913
汁	-12.4913
妖亂志	-12.4913
彌留之際	-12.4913
紆	-12.4913
讋	-12.4913
頗知書	-12.4913
厖	-12.4913
吮	-12.4914
河南王乞伏乾歸	-12.4914
棚	-12.4914
此何祥也	-12.4914
張知業	-12.4915
祛	-12.4915
兌	-12.4915
坌	-12.4915
爲奉化軍節度使	-12.4915
兠鍪	-12.4915
泫然流涕	-12.4915
跼	-12.4915
寥	-12.4916
蛑	-12.4916
緍	-12.4916
何不速殺我	-12.4916
僭偽位	-12.4916
杭州府志	-12.4916
附記于此	-12.4916
嵒	-12.4916
紺	-12.4916
翃	-12.4916
軛	-12.4916
鍚	-12.4916
馮佐周	-12.4916
㽔	-12.4917
蝤	-12.4917
餘悉如故	-12.4917
无	-12.4917
矗	-12.4917
縹	-12.4917
韓希愈	-12.4917
韓王従善	-12.4917
仙逰山	-12.4917
膊	-12.4917
孱	-12.4918
龎巨昭	-12.4918
伷	-12.4918
繖	-12.4918
三軍縞素	-12.4918
至治元年	-12.4918
納克楚	-12.4918
倨傲	-12.4918
爲武清軍節度使	-12.4918
大唐皇帝	-12.4918
駐蹕	-12.4918
罟	-12.4919
桑𢎞志	-12.4919
水陸俱進	-12.4919
言於暐曰	-12.4919
琲	-12.4919
迍	-12.4919
為恨耳	-12.4919
排陳使	-12.4919
襯	-12.4919
卓巖明	-12.4919
塼	-12.4919
多力善射	-12.4919
大有五年封	-12.4919
[...]
