<unk>	0
<s>	0
</s>	0
之	-4.25279
以	-4.68007
而	-4.9375
為	-5.05528
也	-5.14616
其	-5.19118
於	-5.33838
者	-5.36083
有	-5.48185
曰	-5.56466
不	-5.60278
等	-5.60859
至	-5.61962
與	-5.73533
則	-5.7391
王	-5.75824
臣	-5.779
自	-5.82557
/	-5.86871
及	-5.91053
人	-5.91687
(	-6.00122
大	-6.03367
使	-6.04133
無	-6.05083
將	-6.07637
一	-6.13502
兵	-6.15961
上	-6.16193
在	-6.16498
于	-6.16966
子	-6.17126
乃	-6.24259
令	-6.2469
又	-6.27915
皆	-6.2877
今	-6.29095
時	-6.30166
出	-6.3018
所	-6.30556
行	-6.31819
▁	-6.32288
事	-6.32946
公	-6.33603
矣	-6.35608
命	-6.37354
已	-6.38935
如	-6.41999
言	-6.43603
故	-6.44058
亦	-6.44676
若	-6.451
得	-6.47456
即	-6.48085
見	-6.49437
)	-6.51634
復	-6.52637
入	-6.54067
此	-6.54623
中	-6.54698
欲	-6.54866
我	-6.56804
知	-6.5684
)(	-6.59523
請	-6.6137
遂	-6.62604
三	-6.63616
馬	-6.63772
因	-6.64255
乎	-6.64649
可	-6.65219
賊	-6.66598
用	-6.66643
下	-6.68281
/)	-6.68803
當	-6.69797
必	-6.70181
城	-6.70606
是	-6.71699
且	-6.73146
軍	-6.73442
從	-6.73475
非	-6.74078
相	-6.74445
道	-6.75394
國	-6.77765
立	-6.78128
後	-6.78987
遣	-6.81008
内	-6.8176
爲	-6.82253
安	-6.82884
生	-6.83404
多	-6.83594
歸	-6.83637
聞	-6.84146
官	-6.84563
來	-6.85089
或	-6.85858
同	-6.87268
張	-6.8747
民	-6.88483
天	-6.88771
成	-6.88876
文	-6.89447
陳	-6.91454
李	-6.91913
爾	-6.92544
既	-6.92608
取	-6.93669
未	-6.93719
山	-6.94081
明	-6.94093
帝	-6.94232
各	-6.94671
應	-6.9524
然	-6.95392
方	-6.95523
二	-6.95981
君	-6.97185
守	-6.97413
前	-6.97561
齊	-6.98582
謂	-6.98712
何	-6.98785
地	-6.99012
雖	-6.99653
死	-7.00222
州	-7.00755
日	-7.01018
先	-7.011
名	-7.02357
分	-7.03888
正	-7.03906
焉	-7.0427
奏	-7.04377
進	-7.05229
發	-7.05608
不能	-7.07606
衆	-7.08517
殺	-7.09037
能	-7.09077
去	-7.09503
實	-7.10781
長	-7.11708
往	-7.12582
四	-7.12947
南	-7.14161
還	-7.14306
吾	-7.14608
五	-7.15725
平	-7.16602
書	-7.16852
不可	-7.17545
水	-7.17764
重	-7.18416
宜	-7.18712
徳	-7.18747
盡	-7.18971
惟	-7.19452
作	-7.20147
定	-7.20446
周	-7.20472
外	-7.20708
數	-7.20936
劉	-7.2098
官兵	-7.22534
初	-7.22666
朕	-7.22962
攻	-7.23091
師	-7.23753
西	-7.25315
秦	-7.25424
家	-7.2549
俱	-7.25667
元	-7.25746
著	-7.26312
士	-7.26761
以為	-7.27185
由	-7.27205
禮	-7.27268
議	-7.27279
居	-7.28143
主	-7.28264
處	-7.29583
心	-7.29744
㑹	-7.29779
諸	-7.30071
夫	-7.30447
東	-7.31044
将	-7.31313
據	-7.31676
兩	-7.31882
始	-7.32351
再	-7.33878
善	-7.34209
楚	-7.34539
信	-7.35373
降	-7.35553
天下	-7.3559
過	-7.35715
並	-7.36211
通	-7.36752
稱	-7.37709
謀	-7.38068
但	-7.38561
受	-7.38613
武	-7.38657
加	-7.38674
石	-7.38926
趙	-7.39466
金	-7.4067
仍	-7.40721
問	-7.41001
計	-7.41655
髙	-7.4177
世	-7.41802
恐	-7.42186
服	-7.42454
留	-7.43275
共	-7.43561
思	-7.43623
難	-7.43695
圖	-7.44053
門	-7.44128
義	-7.44288
親	-7.44798
尚	-7.44858
小	-7.45099
起	-7.45273
北	-7.4537
興	-7.46184
治	-7.46234
晉	-7.46251
封	-7.46338
耳	-7.46595
河	-7.46649
朝	-7.46685
詔	-7.46781
逺	-7.47361
克	-7.47383
營	-7.47629
失	-7.48073
求	-7.48253
常	-7.48328
和	-7.48716
合	-7.48793
戰	-7.4927
固	-7.49514
食	-7.50035
甚	-7.50773
反	-7.50854
年	-7.51518
縣	-7.51532
卒	-7.51983
深	-7.52067
陽	-7.52376
交	-7.52528
敵	-7.52585
凡	-7.52675
奉	-7.52694
法	-7.52771
云	-7.52859
氏	-7.53358
將軍	-7.53522
德	-7.53662
樂	-7.54165
亂	-7.54495
身	-7.54535
舉	-7.54547
六	-7.54787
意	-7.54987
力	-7.555
本	-7.56113
金人	-7.56169
告	-7.56218
地方	-7.56891
楊	-7.57544
敗	-7.57837
彼	-7.57878
執	-7.57993
并	-7.58408
兵丁	-7.58906
漢	-7.59067
召	-7.59355
宋	-7.5946
止	-7.59579
口	-7.60101
車	-7.60128
易	-7.60175
伯	-7.60607
經	-7.60895
任	-7.61234
賜	-7.61331
益	-7.61617
陛下	-7.62028
保	-7.62218
利	-7.62372
功	-7.62408
少	-7.62489
隨	-7.6252
白	-7.6257
更	-7.63094
侯	-7.631
魏	-7.64034
田	-7.64266
俟	-7.64849
致	-7.65227
路	-7.65306
猶	-7.65446
府	-7.6567
鄭	-7.65792
辦理	-7.66058
開	-7.66118
備	-7.66221
除	-7.66361
赴	-7.68337
都	-7.68752
政	-7.68761
近	-7.68901
土	-7.69066
宗	-7.69116
置	-7.69418
鎮	-7.69589
伊	-7.70287
報	-7.70343
到	-7.70779
率	-7.70964
向	-7.71293
坐	-7.71725
許	-7.71822
建	-7.71916
物	-7.72007
九	-7.72075
送	-7.72098
布	-7.72162
諭	-7.72274
不得	-7.72765
哉	-7.73161
間	-7.73382
罪	-7.74018
而不	-7.74261
悉	-7.74609
收	-7.74699
夏	-7.74844
亡	-7.74952
諸侯	-7.75045
木	-7.75378
係	-7.75746
濟	-7.75836
現在	-7.75869
朝廷	-7.75921
回	-7.75954
直	-7.76443
約	-7.76891
左	-7.77191
衛	-7.77422
新	-7.77507
設	-7.77566
度	-7.77925
於是	-7.78778
辭	-7.78972
制	-7.79153
原	-7.79553
屬	-7.79602
拜	-7.79779
獨	-7.79791
解	-7.8007
是以	-7.80117
光	-7.8013
父	-7.80658
黄	-7.80894
之人	-7.80944
好	-7.81191
遇	-7.81948
納	-7.82271
汝	-7.82471
魯	-7.82597
給	-7.8268
勝	-7.82882
梁	-7.83484
全	-7.83589
特	-7.83823
望	-7.83914
海	-7.84418
惡	-7.84458
寧	-7.85132
貴	-7.85306
廣	-7.85624
風	-7.85641
退	-7.85966
忠	-7.86342
犯	-7.86443
首	-7.8653
論	-7.8662
傳	-7.86636
帥	-7.86718
江	-7.86842
右	-7.87056
查	-7.87401
被	-7.87436
圍	-7.87703
神	-7.87776
賊匪	-7.882
引	-7.88972
女	-7.88993
司	-7.89035
視	-7.89327
就	-7.89458
賞	-7.89649
不敢	-7.89716
前往	-7.89807
天子	-7.90041
省	-7.90105
仁	-7.90123
韓	-7.90268
觀	-7.90923
阿	-7.91137
伊等	-7.91159
位	-7.9119
達	-7.9144
唐	-7.9161
太子	-7.91621
龍	-7.9186
夜	-7.92225
誅	-7.92229
伐	-7.92333
威	-7.92337
懼	-7.92475
賢	-7.92789
節	-7.92934
擊	-7.92984
林	-7.932
獲	-7.93274
卿	-7.93454
走	-7.93527
獻	-7.93767
御	-7.93904
志	-7.93905
順	-7.94459
氣	-7.94661
百	-7.9469
破	-7.94914
兼	-7.94987
授	-7.95035
十	-7.95052
越	-7.95067
可以	-7.95083
權	-7.95326
大臣	-7.95457
承	-7.95515
大夫	-7.96468
七	-7.96628
等語	-7.96873
次	-7.97194
願	-7.97253
語	-7.97272
燕	-7.97331
所以	-7.97416
清	-7.97807
終	-7.97934
宫	-7.98007
屯	-7.98218
不知	-7.98223
足	-7.98638
修	-7.98657
敬	-7.98807
等處	-7.99741
乞	-8.00276
餘	-8.00412
噶爾丹	-8.00493
疾	-8.00663
孫	-8.0076
異	-8.00767
逆	-8.00817
八	-8.00894
運	-8.01165
追	-8.01469
罷	-8.01643
厚	-8.02392
萬	-8.02399
絶	-8.02475
理	-8.0267
載	-8.02697
動	-8.03354
領	-8.0367
胡	-8.0375
古	-8.03779
改	-8.03796
輕	-8.03836
代	-8.03929
存	-8.03996
景	-8.04297
宣	-8.04347
棄	-8.0439
吳	-8.04601
誠	-8.04798
聲	-8.04947
流	-8.04964
素	-8.05218
遣使	-8.05272
之事	-8.05289
刑	-8.05721
説	-8.05976
務	-8.0618
福	-8.06371
陵	-8.06397
調	-8.06415
舊	-8.06529
衣	-8.07216
私	-8.07405
章	-8.07419
永	-8.08259
史	-8.08786
邪	-8.0907
具	-8.09161
怒	-8.09364
左右	-8.09457
三月	-8.09989
變	-8.10091
滅	-8.10108
之地	-8.10113
急	-8.10137
火	-8.1024
盛	-8.10608
朱	-8.10996
便	-8.11038
如此	-8.11297
速	-8.1136
臺	-8.11477
嚴	-8.1162
延	-8.12438
奔	-8.12553
教	-8.12942
果	-8.13117
適	-8.13208
里	-8.13227
徐	-8.13228
老	-8.13703
比	-8.13885
昭	-8.14144
伏	-8.14657
臨	-8.14854
恩	-8.14919
勿	-8.15083
離	-8.15101
玉	-8.15126
久	-8.15382
救	-8.15474
散	-8.15555
要	-8.15664
闗	-8.15914
百姓	-8.16238
月	-8.16285
極	-8.16309
部	-8.16317
選	-8.16825
祖	-8.16833
色	-8.17016
聽	-8.17051
良	-8.17452
喜	-8.17481
尊	-8.17603
頭	-8.1762
連	-8.17914
大兵	-8.18033
秋	-8.18115
迎	-8.18116
疑	-8.18344
聖	-8.18486
别	-8.18509
豈	-8.18749
華	-8.18851
申	-8.1917
謂之	-8.19323
廢	-8.19373
賊人	-8.19514
撫	-8.1955
曹	-8.19566
斬	-8.19578
勒	-8.19688
免	-8.19704
派	-8.19968
待	-8.20046
邊	-8.20053
顧	-8.20211
察	-8.20274
馬匹	-8.20277
幸	-8.20403
祭	-8.21159
唯	-8.21249
叛	-8.21612
莫	-8.2166
敢	-8.22042
呉	-8.22055
嵗	-8.22501
結	-8.22671
勢	-8.23097
騎	-8.23132
商	-8.23136
懐	-8.23309
慶	-8.23379
集	-8.23546
傷	-8.23852
容	-8.23908
期	-8.23909
對曰	-8.24193
學	-8.24461
討	-8.24572
之兵	-8.24609
春	-8.24677
聞之	-8.24771
化	-8.24792
兮	-8.24977
郡	-8.2521
登	-8.2532
須	-8.25343
塞	-8.25387
轉	-8.25392
蜀	-8.25554
孝	-8.25741
草	-8.25787
每	-8.25977
表	-8.26178
糧	-8.26255
隂	-8.26424
帶	-8.26739
勞	-8.27064
稍	-8.27182
施	-8.27322
吉	-8.27439
高	-8.27511
之後	-8.27851
雲	-8.27869
憂	-8.27906
慮	-8.28043
號	-8.2805
病	-8.28144
危	-8.28156
射	-8.28351
怨	-8.28396
一人	-8.28546
造	-8.28567
太后	-8.28874
手	-8.2891
母	-8.29075
持	-8.29162
崇	-8.29403
澤	-8.29506
米	-8.29735
督	-8.30076
繼	-8.30119
錢	-8.3036
使人	-8.30487
弗	-8.30501
均	-8.30618
飛	-8.30693
宻	-8.30845
富	-8.30855
冬	-8.31148
三年	-8.31151
移	-8.31273
愛	-8.31475
何以	-8.31522
叔	-8.31675
斯	-8.31733
對	-8.31747
斷	-8.31822
襲	-8.31845
遷	-8.3193
泰	-8.32013
太	-8.3209
予	-8.32158
川	-8.32252
差	-8.32885
專	-8.32893
羅	-8.33023
吏	-8.3333
嘗	-8.33411
乗	-8.33458
昌	-8.33518
徒	-8.33843
牛	-8.33856
紀	-8.33896
甲	-8.33988
列	-8.34
不足	-8.34135
竟	-8.34242
来	-8.3427
之處	-8.34372
駐劄	-8.34418
公子	-8.34564
養	-8.34819
奪	-8.34839
說	-8.34995
所有	-8.35008
勇	-8.35051
密	-8.35178
喀爾喀	-8.35213
彊	-8.35264
虎	-8.35446
夷	-8.35541
補	-8.35969
禍	-8.36056
情形	-8.36101
念	-8.36487
指	-8.36576
九月	-8.36696
后	-8.36711
禁	-8.36836
郭	-8.37299
爭	-8.37664
候	-8.37719
抵	-8.37876
聚	-8.3789
寳	-8.37956
令其	-8.38021
職	-8.38117
智	-8.38271
屢	-8.38374
負	-8.38477
冦	-8.38498
侵	-8.38737
委	-8.38851
嘉	-8.39064
厄魯特	-8.39479
堅	-8.39755
乘	-8.39958
資	-8.40118
呼	-8.40242
仲	-8.4054
邑	-8.40552
殷	-8.40604
軍營	-8.40658
充	-8.40684
藏	-8.40721
弟	-8.40879
曰吾	-8.41082
附	-8.41211
蘇	-8.41239
强	-8.41424
船	-8.41567
積	-8.41598
皇	-8.41697
然後	-8.41828
者也	-8.42225
情	-8.42303
諸將	-8.4233
先是	-8.42415
嗣	-8.42523
至是	-8.42717
詣	-8.42734
巴	-8.42765
畢	-8.42886
六月	-8.42952
賔	-8.42973
恭	-8.42995
推	-8.4323
尋	-8.43426
囘	-8.43686
美	-8.4378
台吉	-8.43809
遺	-8.43871
大將軍	-8.44221
榮	-8.4424
業	-8.44273
二人	-8.44304
喪	-8.4432
徃	-8.44355
援	-8.4436
不過	-8.44392
臣等	-8.44425
謝	-8.44473
隆	-8.44591
勸	-8.44682
殺之	-8.44731
皇上	-8.44767
從之	-8.44941
以來	-8.45212
五月	-8.4527
二月	-8.45496
咸	-8.45546
會	-8.45657
室	-8.45678
銀	-8.45726
辦	-8.46212
之時	-8.46365
害	-8.46379
奏言	-8.46403
季	-8.46517
目	-8.46833
廟	-8.47068
副都統	-8.47363
京	-8.47475
戎	-8.47528
端	-8.47609
知之	-8.47663
殿	-8.47685
升	-8.47749
卜	-8.47783
依	-8.48022
客	-8.48046
早	-8.48616
關	-8.48679
撥	-8.48695
接	-8.48783
駐	-8.48862
爾等	-8.48913
十二月	-8.49014
舍	-8.49158
顯	-8.49196
羣	-8.49264
蔡	-8.49417
之意	-8.49458
八月	-8.4949
索	-8.49606
昔	-8.49689
毋	-8.49707
責	-8.49727
青	-8.49846
面	-8.50125
䇿	-8.50131
逐	-8.50197
體	-8.50232
照	-8.50347
役	-8.5061
國家	-8.50769
防	-8.50949
契丹	-8.50954
器	-8.51629
輔	-8.51828
弱	-8.51842
丘	-8.51889
助	-8.52229
薄	-8.5235
况	-8.5257
患	-8.52674
放	-8.52711
君子	-8.52715
窮	-8.53038
温	-8.53223
京師	-8.53337
星	-8.53461
爵	-8.53553
庶	-8.53698
息	-8.53706
之所	-8.53916
趨	-8.54114
現	-8.54128
羣臣	-8.54162
畏	-8.54292
示	-8.54764
謹	-8.55011
簡	-8.55138
鄉	-8.55256
俾	-8.55367
監	-8.55449
尤	-8.55518
渡	-8.55575
按	-8.55588
(○	-8.55597
縱	-8.55614
酒	-8.55647
象	-8.55744
折	-8.55823
雄	-8.56105
滿	-8.56269
竊	-8.5627
馳	-8.56272
投	-8.56362
孟	-8.5639
舟	-8.5641
進兵	-8.56638
市	-8.57082
從前	-8.57158
宿	-8.57254
丁	-8.57365
野	-8.57429
杜	-8.57943
皇帝	-8.58157
起程	-8.58524
格	-8.5894
維	-8.59003
額	-8.59017
曽	-8.59158
羊	-8.5925
遣人	-8.59409
征	-8.59457
儀	-8.5951
費	-8.59829
之心	-8.59831
州刺史	-8.59998
盟	-8.60002
戒	-8.6005
統	-8.60119
工	-8.60512
覆	-8.60828
偽	-8.60836
衞	-8.60855
漸	-8.60943
不如	-8.60999
而已	-8.61038
靈	-8.61213
司馬	-8.61518
微	-8.61593
振	-8.61644
寵	-8.61707
䝉	-8.61755
至於	-8.61927
第	-8.62005
陷	-8.62116
讓	-8.62292
該	-8.62306
福康安	-8.62319
管	-8.62394
也今	-8.62492
魚	-8.6256
為之	-8.62766
釋	-8.63139
徙	-8.63252
豫	-8.63316
游牧	-8.63339
闕	-8.63437
户	-8.63468
穆	-8.63978
黨	-8.63984
之子	-8.64008
不必	-8.64133
耶	-8.64163
淵	-8.64381
英	-8.64692
旗	-8.64891
惠	-8.64897
豐	-8.65101
支	-8.65147
祀	-8.65555
哀	-8.65647
質	-8.65678
典	-8.65864
真	-8.65891
兹	-8.65895
内地	-8.66142
險	-8.66178
考	-8.66188
懷	-8.66199
城中	-8.66226
不從	-8.66243
尚書	-8.66277
博	-8.66287
十一月	-8.66304
垂	-8.66354
沙	-8.66511
審	-8.66541
愈	-8.66553
節度使	-8.66572
虜	-8.66656
記	-8.66748
總兵	-8.66897
程	-8.66954
曲	-8.66962
今日	-8.6702
竒	-8.67362
逃	-8.67531
己	-8.67764
朔	-8.68058
飲	-8.68129
康	-8.68155
彦	-8.68596
違	-8.69026
揚	-8.69032
夫人	-8.69073
習	-8.691
幾	-8.69139
困	-8.69258
疏	-8.69264
似	-8.69273
虚	-8.69445
賊衆	-8.69485
前來	-8.69668
河南	-8.69717
遽	-8.69864
妻	-8.70116
兄弟	-8.70318
形	-8.70353
而後	-8.70386
此時	-8.70428
署	-8.70566
掠	-8.7079
乆	-8.70839
中國	-8.70924
一日	-8.70953
決	-8.71025
亮	-8.71119
奏稱	-8.71191
辟	-8.71193
字	-8.7124
尸	-8.71529
将軍	-8.71538
冬十月	-8.71616
其餘	-8.71744
橋	-8.71794
兒	-8.72046
毎	-8.722
累	-8.72246
類	-8.72253
佐	-8.72258
庫	-8.72363
寨	-8.72387
性	-8.72425
操	-8.72446
烏	-8.72526
酌量	-8.72589
假	-8.72612
孔	-8.72639
㫖	-8.72833
之言	-8.73011
量	-8.73015
士卒	-8.73101
才	-8.73406
總	-8.73673
鼓	-8.73976
忽	-8.74011
雨	-8.74053
無所	-8.74143
徴	-8.74178
擇	-8.74352
横	-8.74565
寛	-8.74648
用兵	-8.74777
二年	-8.74866
主人	-8.749
境	-8.7493
暴	-8.74949
休	-8.75015
愚	-8.75021
招	-8.75028
阿睦爾撒納	-8.75168
秋七月	-8.75317
逹	-8.75427
提	-8.75453
邦	-8.75571
之間	-8.75633
事宜	-8.75694
引兵	-8.75917
詳	-8.75956
沈	-8.76283
訓	-8.76287
孔子	-8.76403
殊	-8.76578
蕭	-8.76871
虞	-8.76873
具奏	-8.76965
允	-8.76984
革	-8.76992
賀	-8.77039
房	-8.77406
効力	-8.77559
財	-8.77619
貪	-8.77623
曾	-8.77646
哈薩克	-8.7781
前進	-8.77861
空	-8.77973
供	-8.78001
領兵	-8.7813
諸軍	-8.7815
蠻	-8.78155
葬	-8.78163
戍	-8.78251
將士	-8.78598
太守	-8.78654
决	-8.79124
由是	-8.79225
寶	-8.79464
頗	-8.795
族	-8.79633
錫	-8.79947
苦	-8.80031
干	-8.80102
厥	-8.80299
辱	-8.80437
鼎	-8.80702
逸	-8.80705
拔	-8.80748
此次	-8.80866
䝉古	-8.81304
他	-8.81699
帶領	-8.81736
逼	-8.81939
軍前	-8.81971
薦	-8.82021
蓋	-8.8215
參	-8.8237
音	-8.82383
洪	-8.82461
春秋	-8.82749
某	-8.82766
夏四月	-8.82942
臺灣	-8.83029
所謂	-8.83082
切	-8.83169
廷	-8.83212
禄	-8.8327
符	-8.83303
其所	-8.8332
慎	-8.83341
倫	-8.83351
檄	-8.83369
元年	-8.83374
傅	-8.83497
冀	-8.83572
使者	-8.8365
陜西	-8.83769
上諭	-8.8388
勤	-8.8396
賈	-8.83998
郎	-8.8404
擒	-8.84076
孤	-8.84148
僅	-8.84153
千	-8.84192
葢	-8.84324
衰	-8.84403
䘚	-8.84588
賦	-8.84682
余	-8.84715
争	-8.84729
避	-8.84828
是日	-8.85048
不及	-8.85167
牧	-8.855
諫	-8.85764
精	-8.85771
副	-8.85815
酌	-8.85881
即行	-8.8589
二十	-8.85973
莊	-8.86086
恃	-8.86158
茍	-8.86292
庭	-8.86622
伊犂	-8.86965
仰	-8.86997
遵	-8.87686
籍	-8.87726
一帶	-8.87793
社稷	-8.8782
所奏	-8.88089
○	-8.88148
併	-8.88433
兄	-8.88527
背	-8.88531
友	-8.88632
卷	-8.88713
上諭軍機大臣曰	-8.88747
吕	-8.88777
也故	-8.89093
天下之	-8.89149
逆賊	-8.89187
席	-8.89525
半	-8.89548
禹	-8.89614
查明	-8.89714
姓	-8.89825
略	-8.8987
赤	-8.89871
夀	-8.89929
回人	-8.89961
築	-8.90056
角	-8.90073
一切	-8.90195
例	-8.90271
榖	-8.90366
不為	-8.90377
増	-8.90474
肆	-8.90513
我兵	-8.9053
而無	-8.9061
姑	-8.90909
蘭	-8.90928
扵	-8.90955
茂	-8.90974
與之	-8.91262
冠	-8.91336
即位	-8.91411
阻	-8.91495
閒	-8.91583
侍衛	-8.91703
擬	-8.91716
哈	-8.91782
飾	-8.91885
農	-8.91914
而去	-8.91996
賞給	-8.9201
犇	-8.92092
之道	-8.92101
嶺	-8.92123
機	-8.92293
乾	-8.92397
趣	-8.92536
湯	-8.92643
該處	-8.92683
桓	-8.92714
刀	-8.92857
妄	-8.92917
河北	-8.92993
班	-8.93111
肅	-8.93114
匹	-8.93154
貫	-8.93416
潰	-8.93442
尹	-8.93445
駕	-8.93523
誤	-8.93533
戴	-8.93576
淮	-8.93597
尚未	-8.93686
丹	-8.93688
柴大紀	-8.9377
四方	-8.93859
准	-8.939
董	-8.93935
寡人	-8.94061
都統	-8.94165
震	-8.94236
如何	-8.94289
寒	-8.94399
帶兵	-8.94561
貢	-8.94715
巴里坤	-8.94764
焚	-8.94799
雍	-8.94881
詐	-8.94885
必有	-8.94961
行走	-8.95033
緩	-8.95085
員	-8.95163
詩	-8.95276
許之	-8.95321
天地	-8.95322
覺	-8.95615
掌	-8.96068
災	-8.96075
鳥	-8.96197
付	-8.96275
䕶	-8.96476
者皆	-8.96479
哭	-8.96511
堂	-8.96517
印	-8.9652
之罪	-8.96581
毛	-8.96629
常青	-8.96725
雅	-8.96732
三日	-8.9675
樹	-8.96758
君之	-8.96888
游	-8.97073
倘	-8.97079
紹	-8.97241
俊	-8.97263
人心	-8.97274
識	-8.97335
欽	-8.97369
官軍	-8.97436
谷	-8.97506
誓	-8.9768
泉	-8.97716
提督	-8.97761
足以	-8.97824
飭	-8.97824
究	-8.97839
種	-8.97857
之計	-8.97869
超	-8.98106
寇	-8.98223
潛	-8.98309
雜	-8.98321
屈	-8.984
界	-8.98513
策	-8.98599
誘	-8.98766
口糧	-8.98844
隊	-8.98851
憲	-8.98868
諸羅	-8.98909
試	-8.98932
人之	-8.98936
毁	-8.98966
衡	-8.99047
奏請	-8.99117
以致	-8.99204
也夫	-8.99236
人等	-8.99284
聖人	-8.99288
擒獲	-8.99374
陸續	-8.99509
西安	-8.99642
玄	-8.9965
桓公	-8.9968
借	-8.997
缺	-8.9997
凶	-9.00023
驕	-9.0021
史記	-9.00228
其後	-9.0034
防守	-9.00595
軍中	-9.00665
預	-9.00703
勲	-9.00722
未有	-9.0104
亟	-9.0113
御史	-9.01133
擊之	-9.0115
之士	-9.01185
矢	-9.01216
效	-9.01249
總督	-9.01291
李侍堯	-9.01336
范	-9.01489
百官	-9.01544
進𠞰	-9.01563
斬之	-9.0162
奏入報聞	-9.01648
四月	-9.01655
西路	-9.01672
大王	-9.017
其子	-9.01765
感	-9.01925
一路	-9.01926
子曰	-9.02051
罰	-9.02079
庸	-9.02169
専	-9.02301
婦	-9.02353
上下	-9.02506
綱	-9.02528
姦	-9.02578
獄	-9.02763
㑹同	-9.02987
翼	-9.03115
太原	-9.03121
割	-9.03141
州縣	-9.03158
不許	-9.03253
浚	-9.03273
樓	-9.03283
死者	-9.03363
四年	-9.03429
五年	-9.03429
謙	-9.03491
一面	-9.03642
郊	-9.03645
驚	-9.03673
竄	-9.03707
洛	-9.03754
舜	-9.03773
拒	-9.03846
甘	-9.03911
奮	-9.03918
淫	-9.03923
宰相	-9.04294
之日	-9.04304
吐蕃	-9.04413
鳴	-9.04469
有司	-9.04524
舒	-9.04529
羽	-9.04581
有所	-9.04586
發兵	-9.04605
否	-9.04648
損	-9.04737
陸	-9.04773
寜	-9.04832
顔	-9.04931
國之	-9.04982
山東	-9.05046
住	-9.05102
聼	-9.05129
歌	-9.0541
遊	-9.05413
上曰	-9.05647
大軍	-9.05824
赦	-9.05839
徵	-9.05974
盖	-9.06081
辨	-9.06165
吴	-9.06191
部落	-9.06634
傳諭	-9.06638
不肯	-9.0666
誰	-9.06778
律	-9.06836
正月	-9.06893
忘	-9.06958
堯	-9.06977
材	-9.07054
雲南	-9.07055
衝	-9.07257
太祖	-9.07274
屯田	-9.07359
寺	-9.07362
馮	-9.07417
曰我	-9.0746
知其	-9.0765
奚	-9.07667
河東	-9.0769
賴	-9.07896
曰此	-9.07932
藉	-9.07951
盧	-9.07993
却	-9.08024
刻	-9.08052
續	-9.08058
僕	-9.08182
準噶爾	-9.0821
津	-9.08334
徑	-9.08376
京城	-9.08396
科	-9.08494
介	-9.08846
内外	-9.08894
都督	-9.09141
奈何	-9.09157
優	-9.09159
歡	-9.09233
十月	-9.09302
距	-9.09343
崔	-9.09376
履	-9.09486
䧟	-9.09617
加恩	-9.09657
録	-9.09703
畧	-9.09718
輒	-9.09721
盗	-9.09832
敕	-9.09845
孰	-9.09859
弘	-9.10191
秀	-9.10241
巡撫	-9.10251
什	-9.10381
敦	-9.10539
單	-9.10589
荆	-9.10811
侍郎	-9.10992
畫	-9.11019
盜	-9.11034
正法	-9.1107
所屬	-9.11112
侍	-9.11149
四川	-9.11307
撤	-9.11314
是時	-9.1136
貶	-9.11378
撃	-9.11397
案	-9.11424
荒	-9.11425
而還	-9.11438
祝	-9.11439
竭	-9.11473
術	-9.11488
邉	-9.11518
陣	-9.11632
貝勒	-9.1172
狀	-9.11791
社	-9.11797
未能	-9.11858
聴	-9.12092
靖	-9.12235
進攻	-9.12397
卑	-9.12503
規	-9.12538
大學士	-9.12599
溝	-9.12601
循	-9.12672
最	-9.12729
幽	-9.1276
捕	-9.12958
竹	-9.12963
占	-9.1302
入城	-9.13043
父子	-9.13075
倉	-9.131
未嘗	-9.13116
總兵官	-9.13121
人也	-9.13233
道路	-9.13244
文武	-9.13266
希	-9.13318
辰	-9.13327
薛	-9.13339
堡	-9.13358
擾	-9.1342
抑	-9.13519
前後	-9.13744
二千	-9.13829
賤	-9.13881
小人	-9.14023
託	-9.14073
以備	-9.14117
宰桑	-9.14129
遁	-9.14132
之衆	-9.14205
末	-9.14307
驛	-9.14633
裕	-9.14781
項	-9.14995
不復	-9.15022
減	-9.15098
番	-9.15113
啟	-9.15231
弓	-9.15258
不勝	-9.15274
奏聞	-9.15422
沿途	-9.15492
江南	-9.15645
雪	-9.15649
之故	-9.15676
歲	-9.15886
無不	-9.15901
笑	-9.15975
而行	-9.16124
恨	-9.16144
慈	-9.16154
霸	-9.16168
十二	-9.16412
幣	-9.16422
享	-9.16532
妾	-9.16606
隠	-9.16635
協	-9.1665
驅	-9.167
守備	-9.16727
注	-9.16759
分兵	-9.16851
殘	-9.16924
匪	-9.16952
中外	-9.16952
俗	-9.16975
丞相	-9.17054
葉	-9.17068
所在	-9.17128
祥	-9.17247
拉	-9.17266
父母	-9.17328
有餘	-9.17525
烈	-9.17665
長安	-9.17673
有功	-9.17714
邀	-9.17745
縁	-9.17777
副將	-9.1778
啓	-9.17834
以待	-9.17849
宮	-9.17936
厯	-9.17977
其言	-9.18009
壽	-9.18052
旁	-9.18081
不至	-9.18249
文王	-9.18298
蔽	-9.18317
岳	-9.18382
昨	-9.18464
悔	-9.18487
以示	-9.18526
尾	-9.18635
江西	-9.18678
宴	-9.18711
鍾	-9.18793
增	-9.18968
咨	-9.18995
夢	-9.19087
曉諭	-9.19157
至于	-9.19192
寡	-9.19196
上言	-9.19269
落	-9.19273
貞	-9.19285
於此	-9.19337
刺	-9.1935
三百	-9.19392
細	-9.19436
暫	-9.19436
步	-9.19503
中原	-9.1971
武王	-9.19724
公孫	-9.19931
周公	-9.20094
擅	-9.20096
明日	-9.20177
遠	-9.20243
之功	-9.20304
奮勇	-9.20337
探	-9.20359
𤣥	-9.20563
汗	-9.20664
斗	-9.20716
戮	-9.20792
將兵	-9.20858
並無	-9.20872
勅	-9.20899
熟	-9.20947
歳	-9.20965
其事	-9.20991
屋	-9.21137
事務	-9.21139
買	-9.21214
井	-9.21252
三千	-9.21299
大敗	-9.21334
劒	-9.21519
儒	-9.2173
繫	-9.21824
不若	-9.21929
來降	-9.22008
崩	-9.22034
往來	-9.22126
匈奴	-9.2218
胥	-9.22339
托	-9.22382
指揮	-9.22413
旦	-9.22505
北路	-9.22741
耕	-9.22754
價	-9.22829
突厥	-9.2283
珍	-9.22903
完	-9.22989
杖	-9.23045
寧夏	-9.23141
皇后	-9.23193
桑	-9.23306
襄	-9.23375
甚多	-9.23437
訪	-9.23449
城下	-9.23461
以下	-9.23578
奸	-9.23583
恒	-9.23634
妃	-9.23873
拏獲	-9.2396
子孫	-9.23965
倍	-9.2403
需	-9.24137
七月	-9.24348
千里	-9.24378
自應	-9.24397
以此	-9.24501
言之	-9.24504
藩	-9.24559
之際	-9.24593
可汗	-9.24593
逮	-9.24664
以爲	-9.24695
露	-9.24819
序	-9.25076
欺	-9.25091
閲	-9.25111
糧餉	-9.25171
率兵	-9.25181
尼堪	-9.25184
限	-9.2522
閉	-9.25282
辛	-9.25289
妻子	-9.25378
誣	-9.25397
階	-9.25459
成功	-9.25473
十年	-9.25506
溪	-9.25525
臺站	-9.25837
根	-9.25939
牙	-9.26121
昏	-9.26224
貿易	-9.26229
軍士	-9.2623
較	-9.2628
其罪	-9.26346
不聽	-9.26472
弊	-9.2655
既而	-9.26556
環	-9.26559
詞	-9.26608
厲	-9.2666
燒	-9.26738
歴	-9.26788
彌	-9.2687
弼	-9.26908
齊侯	-9.26925
輸	-9.27016
池	-9.27038
穀	-9.27054
莫不	-9.27072
導	-9.27131
不行	-9.27134
弑	-9.27148
一千	-9.27245
亦不	-9.27292
浮	-9.27347
鄂	-9.27367
卡倫	-9.27389
辯	-9.2748
畨	-9.27486
匿	-9.27516
猛	-9.27546
沒	-9.27616
不可不	-9.27633
圗	-9.27745
伍	-9.27782
鎭	-9.27865
而死	-9.28075
兵力	-9.28204
輿	-9.28221
殆	-9.28251
収	-9.28293
將來	-9.28302
采	-9.28403
忌	-9.28404
眀	-9.28496
裁	-9.28556
不見	-9.2866
級	-9.28686
不以	-9.28705
不可以	-9.28767
不然	-9.28768
姬	-9.28847
脩	-9.28935
院	-9.28954
料	-9.28975
各處	-9.28978
我等	-9.29062
喇	-9.29077
一體	-9.29088
普	-9.29097
韋	-9.29099
敏	-9.29119
數萬	-9.29135
壘	-9.29197
不出	-9.29207
彭	-9.29382
雖有	-9.29426
伯克	-9.29444
詢	-9.29466
姚	-9.29502
塔	-9.29573
貨	-9.29584
黒	-9.29622
哈密	-9.29641
偏	-9.29756
分别	-9.29797
嵩	-9.29805
捷	-9.29885
義民	-9.29919
宰	-9.3001
用之	-9.30026
湖	-9.30183
潜	-9.30221
旋	-9.30242
講	-9.30273
靡	-9.30299
僧	-9.30429
甫	-9.30492
囚	-9.30579
基	-9.30648
忍	-9.30917
居住	-9.3106
遼	-9.3108
旅	-9.31128
亦可	-9.31161
遲	-9.31162
成都	-9.31178
寢	-9.312
七年	-9.31236
擁	-9.3126
之民	-9.31274
乏	-9.31407
齎	-9.31418
述	-9.31447
盈	-9.31458
奏報	-9.31528
壯	-9.31584
阿桂	-9.31657
深入	-9.31719
尚有	-9.31744
㨗	-9.3212
辦事	-9.32155
不用	-9.32172
總管	-9.32582
三十	-9.32717
曰今	-9.32855
其衆	-9.33073
官員	-9.33154
擢	-9.33204
抗	-9.33363
歩	-9.33407
削	-9.33451
不忍	-9.33619
禦	-9.33632
懸	-9.33702
漢中	-9.33778
倚	-9.33949
三人	-9.33949
巧	-9.34038
痛	-9.34309
斃	-9.34391
二百	-9.34427
踰	-9.34465
軍務	-9.34518
式	-9.34658
傾	-9.34687
贊	-9.34709
疆	-9.34761
珠	-9.34807
並未	-9.34912
六年	-9.35146
之禮	-9.35172
衍	-9.35182
站	-9.35182
莽	-9.35406
餉	-9.35451
迅速	-9.35523
晉侯	-9.35563
自是	-9.35576
砲	-9.35596
遭	-9.35647
不與	-9.35659
東南	-9.35768
確	-9.35823
従	-9.35874
上皇	-9.36068
八年	-9.3615
著傳諭	-9.36202
藥	-9.36227
鄧	-9.36231
可謂	-9.363
不同	-9.36521
一時	-9.36525
秦王	-9.36545
萬人	-9.36699
亦有	-9.36843
稽	-9.36922
粟	-9.37158
皮	-9.37261
随	-9.37264
萬物	-9.37387
松	-9.3743
龜	-9.37512
短	-9.3757
蒲	-9.37725
源	-9.37763
寄	-9.37839
配	-9.37843
何如	-9.3794
巢	-9.37983
巡	-9.3803
不相	-9.38043
一員	-9.38187
掩	-9.38361
再行	-9.38385
公曰	-9.38497
出兵	-9.38564
麟	-9.38699
剛	-9.38752
館	-9.38875
舞	-9.3888
沮	-9.39036
魏主	-9.3907
條	-9.39084
柔	-9.39106
此事	-9.39195
□	-9.3922
洗	-9.3924
覽	-9.39254
固守	-9.39284
以其	-9.39312
狄	-9.39583
欲以	-9.39643
諌	-9.39654
隱	-9.39695
添	-9.39704
㓂	-9.39732
數千	-9.39804
其地	-9.39891
之中	-9.39925
盤	-9.3993
渠	-9.39962
憤	-9.39997
壁	-9.40242
以上	-9.40246
輙	-9.40447
雷	-9.40507
謁	-9.40539
䘮	-9.40619
兩路	-9.40649
堪	-9.40686
荆州	-9.40802
屠	-9.40822
來京	-9.40873
臧	-9.40904
属	-9.41109
受命	-9.41125
鹿	-9.41135
預備	-9.41219
數日	-9.41226
之役	-9.41271
純	-9.4131
不足以	-9.4134
甘省	-9.41463
書曰	-9.41536
阿克蘇	-9.41602
渡河	-9.41621
烏魯木齊	-9.41636
王曰	-9.4166
煩	-9.4174
陰	-9.41846
繁	-9.41899
徹	-9.42029
之勢	-9.42095
婦人	-9.42098
阿逆	-9.42141
言於	-9.42215
躬	-9.42222
札	-9.42236
入朝	-9.42268
又有	-9.42278
之數	-9.42312
調遣	-9.42325
鋭	-9.42357
錯	-9.42571
洛陽	-9.42615
賂	-9.42633
戸	-9.42661
灋	-9.42719
閣	-9.42732
燕王	-9.42804
十萬	-9.42839
只	-9.42865
祠	-9.42937
涉	-9.42955
兆惠	-9.42993
何也	-9.4302
肥	-9.43043
惑	-9.43066
戚	-9.43207
饑	-9.43258
聘	-9.43261
鳯	-9.43385
舎	-9.43444
五百	-9.43456
統領	-9.43543
豈可	-9.4363
姜	-9.43746
淮南	-9.43796
閩	-9.4395
虛	-9.44091
校	-9.44149
肅州	-9.4426
也其	-9.44276
扶	-9.44331
斂	-9.44354
冒	-9.44369
襄陽	-9.44414
袁	-9.4451
産	-9.44572
以聞	-9.44644
截	-9.44665
捐	-9.44686
銀兩	-9.44797
翟	-9.44896
鄰	-9.45006
豈不	-9.45032
祗	-9.4504
賣	-9.45098
柱	-9.45117
解送	-9.45149
前赴	-9.45316
附近	-9.45326
仗	-9.45352
至此	-9.45418
若不	-9.45432
大事	-9.45498
麻	-9.45499
平定	-9.45592
喇嘛	-9.45595
之外	-9.45616
況	-9.45652
太尉	-9.45652
大同	-9.45712
貳	-9.45843
薩	-9.45865
使臣	-9.45993
鐵	-9.46017
畜	-9.46119
鄙	-9.46145
贈	-9.46219
隻	-9.46273
宏	-9.46378
挾	-9.46402
禀	-9.46451
之用	-9.46462
單于	-9.46532
秉	-9.46538
達賴喇嘛	-9.46692
鹽	-9.46703
奮勉	-9.46855
騰	-9.46879
岱	-9.47004
故曰	-9.47019
青海	-9.47164
恤	-9.47166
蒙	-9.47294
陣亡	-9.47341
訊	-9.47394
募	-9.47399
曰君	-9.4749
毒	-9.47493
了	-9.47558
林爽文	-9.47571
一名	-9.47628
故也	-9.47734
無以	-9.47793
肉	-9.47883
静	-9.47885
頃	-9.47902
仇	-9.47927
卡	-9.48072
萬一	-9.48145
一併	-9.48176
元帥	-9.48268
瑾	-9.48447
骨	-9.48457
泣	-9.48467
是故	-9.48512
十五	-9.48525
遣兵	-9.48732
丕	-9.48752
頓	-9.48768
建康	-9.48878
遵㫖	-9.48902
即令	-9.4916
已經	-9.49172
此等	-9.49566
西北	-9.4966
而出	-9.49707
馬駝	-9.49708
不免	-9.49784
出入	-9.4979
五十	-9.49792
何為	-9.49818
勉	-9.49835
編	-9.49908
不言	-9.49935
察哈爾	-9.49977
不克	-9.5008
齒	-9.50129
派兵	-9.50144
曰子	-9.50237
國人	-9.5028
以告	-9.50318
儉	-9.50373
人皆	-9.5043
打仗	-9.50482
側	-9.5052
恥	-9.50545
副使	-9.50561
秋八月	-9.50592
駐防	-9.50628
文公	-9.50724
殺賊	-9.5075
忠義	-9.50854
前鋒	-9.50903
攻城	-9.50938
鹿仔港	-9.51086
投誠	-9.51091
上命	-9.51248
兵部	-9.51248
相與	-9.51258
守禦	-9.51347
給與	-9.51427
彰	-9.5144
滋	-9.51551
諸路	-9.51563
祿	-9.51887
劾	-9.51997
攝	-9.5223
黎	-9.52236
悲	-9.52276
血	-9.52277
恵	-9.52346
觧	-9.52356
救之	-9.52387
璧	-9.52703
咎	-9.52757
楚王	-9.5276
展	-9.5283
迫	-9.53072
鑒	-9.53079
班第	-9.53101
太平	-9.53107
楚子	-9.53186
諸王	-9.53228
甘肅	-9.53276
冊	-9.5329
園	-9.53318
卓	-9.53393
拘	-9.53418
嬰	-9.53478
難以	-9.5359
舒赫徳	-9.53854
之法	-9.53943
陶	-9.53966
旣	-9.54053
逢	-9.54073
取之	-9.54102
同知	-9.54103
奴	-9.54154
整	-9.5428
枝	-9.54285
璋	-9.54316
窺	-9.54485
紂	-9.54488
銜	-9.54559
吐魯番	-9.54678
抱	-9.54718
如是	-9.54734
𠞰	-9.54853
囘人	-9.54912
軍民	-9.54917
公主	-9.54953
君臣	-9.54962
兵馬	-9.55079
豆	-9.55093
治罪	-9.55102
㧞	-9.55108
進取	-9.5515
俘	-9.55197
晟	-9.55215
錢糧	-9.55326
濬	-9.55349
塗	-9.55511
幹	-9.55538
徽	-9.55605
男	-9.5568
瑞	-9.55713
大小	-9.55727
㠯	-9.55916
黙	-9.55973
𣲖	-9.56057
諒	-9.5611
譽	-9.56126
利害	-9.56174
先生	-9.56191
器械	-9.562
就近	-9.56214
尼	-9.56225
㫁	-9.56328
斥	-9.56396
叙	-9.56438
安插	-9.56449
羌	-9.56477
其國	-9.56497
練	-9.56523
鼔	-9.56539
狂	-9.56692
一旦	-9.56699
鬼	-9.56714
駐兵	-9.56822
釁	-9.56843
祖宗	-9.56853
攸	-9.56906
防範	-9.56916
使之	-9.57118
五千	-9.57165
得其	-9.57231
數百	-9.57245
率衆	-9.57285
山西	-9.57302
鄴	-9.57328
車駕	-9.5735
嗣後	-9.574
王倫	-9.57417
岸	-9.57442
惜	-9.57493
其中	-9.57678
汴	-9.57814
停	-9.57922
陞	-9.57925
尺	-9.57991
晝夜	-9.58015
之理	-9.58034
甲子	-9.58097
苗	-9.58127
哲	-9.58153
自成	-9.58164
九年	-9.58171
㣲	-9.58191
綏	-9.58252
疲	-9.58294
親王	-9.58297
虐	-9.58374
貧	-9.58391
不下	-9.58416
等皆	-9.58422
大國	-9.5843
麥	-9.58445
金川	-9.58452
接濟	-9.58482
仙	-9.58536
宅	-9.58542
諸臣	-9.58552
公羊傳	-9.58592
鄭伯	-9.58618
扎薩克	-9.58645
未可	-9.58687
諸處	-9.58813
孔子曰	-9.58817
諾	-9.58829
之徒	-9.58844
上書	-9.58883
四人	-9.58957
人主	-9.59221
誕	-9.59262
宗廟	-9.59263
懿	-9.59406
長沙	-9.59412
烏梁海	-9.59413
為人	-9.59514
不便	-9.59583
子弟	-9.59624
獸	-9.59627
戈	-9.59636
矜	-9.59654
值	-9.59709
二子	-9.59717
敷	-9.5972
頭目	-9.59745
曰臣	-9.59773
之國	-9.59892
二萬	-9.59906
蕃	-9.59919
夫子	-9.59927
着	-9.59994
兆	-9.59997
歸化城	-9.60036
弔	-9.60112
同日	-9.60157
業經	-9.60252
夕	-9.6036
駝	-9.60453
之上	-9.60485
扎	-9.60523
左傳	-9.60538
頒	-9.60547
儲	-9.60689
入覲	-9.60691
千餘人	-9.60755
子之	-9.60815
北面	-9.60864
賫	-9.60886
者不	-9.60966
渡江	-9.60977
之子也	-9.61019
先帝	-9.61064
莒	-9.61074
峻	-9.61076
來歸	-9.61131
雞	-9.61154
又以	-9.61164
未至	-9.61207
尉	-9.61243
育	-9.61289
訖	-9.61355
輩	-9.61385
不欲	-9.6143
以兵	-9.61516
遊擊	-9.61551
攻之	-9.61609
帝曰	-9.61669
不致	-9.61693
之謀	-9.61821
十五日	-9.6186
勦	-9.61897
之語	-9.6204
寔	-9.62046
其人	-9.62048
一百	-9.62052
查辦	-9.62085
屏	-9.62116
不受	-9.62138
堵截	-9.62145
没	-9.62212
禽	-9.62263
諱	-9.62292
成王	-9.62329
突	-9.62338
驗	-9.6245
幼	-9.62494
起兵	-9.62582
前去	-9.62602
仕	-9.62616
派出	-9.62781
渾	-9.62786
達瓦齊	-9.62818
村	-9.62872
之師	-9.62882
出力	-9.62897
夾	-9.62898
貯	-9.62911
被賊	-9.62914
及其	-9.62962
帥師	-9.62977
萬餘	-9.62979
南北	-9.62988
裴	-9.63026
佐領	-9.63049
中山	-9.63317
傑	-9.6341
撤回	-9.63437
不利	-9.63482
黜	-9.63529
宗室	-9.63549
曉	-9.63597
王子	-9.63612
民人	-9.63774
厭	-9.63984
之初	-9.64141
潘	-9.64184
侍中	-9.64221
軍需	-9.6423
罕	-9.64327
與其	-9.6446
祚	-9.64462
數人	-9.64549
祐	-9.64637
壊	-9.64642
之例	-9.64658
底	-9.64761
郡王	-9.64762
澄	-9.6481
晏	-9.64855
人情	-9.64888
閔	-9.64925
自當	-9.64965
其心	-9.65026
破之	-9.65027
誅之	-9.65067
另	-9.65107
墨	-9.65215
匡	-9.65244
瓊	-9.65322
可也	-9.65393
者必	-9.65398
巨	-9.65424
七十	-9.65508
一事	-9.65592
樞	-9.65611
者何	-9.65652
翰	-9.65665
乃以	-9.65897
答	-9.65903
籌	-9.65942
珪	-9.65967
即可	-9.65991
未經	-9.66044
之禍	-9.66076
古之	-9.66104
篇	-9.66108
招撫	-9.66297
之患	-9.66391
晏子	-9.66438
蕩	-9.66474
十六	-9.66553
𨽻	-9.66594
佛	-9.66618
舉兵	-9.66664
士民	-9.66741
籌辦	-9.66764
齊人	-9.66764
數十	-9.66769
淺	-9.66898
先王	-9.66943
眷	-9.67034
乃止	-9.67042
刼	-9.67046
獵	-9.6705
鬬	-9.67119
西寧	-9.67144
㡬	-9.67186
明年	-9.67213
行文	-9.67257
罔	-9.67284
熊	-9.6731
帥衆	-9.6739
而來	-9.67428
弁	-9.67513
黑	-9.67558
晚	-9.67565
跪	-9.67593
俱係	-9.67602
各營	-9.67612
警	-9.67692
世子	-9.67726
亨	-9.67744
亭	-9.67751
遜	-9.67791
強	-9.67861
民之	-9.67874
奉㫖	-9.6791
台	-9.68013
逃竄	-9.6812
不當	-9.68121
廣東	-9.68201
其黨	-9.68236
想	-9.68237
忿	-9.68267
茶	-9.68409
長史	-9.68514
四海	-9.68518
不在	-9.68545
頼	-9.68705
瞻	-9.68722
金主	-9.68724
波	-9.68762
斬首	-9.68843
之義	-9.68952
脱	-9.69082
豈有	-9.69187
慰	-9.69222
齊王	-9.69288
之賊	-9.69322
陜	-9.69376
奏曰	-9.69428
植	-9.69685
䕶軍	-9.69767
狐	-9.6984
臨清	-9.69852
越王	-9.69907
加意	-9.69925
金國	-9.69983
郎中	-9.69999
多爾濟	-9.70022
政事	-9.70044
洞	-9.70066
不得已	-9.70143
又曰	-9.70205
諭㫖	-9.70219
薨	-9.70305
邵	-9.70314
西南	-9.7048
縛	-9.70512
懇	-9.70569
福建	-9.70594
精兵	-9.70598
何不	-9.70698
給事中	-9.70883
拏	-9.70947
檜	-9.7096
恱	-9.71043
渉	-9.71062
相繼	-9.71194
鳳	-9.71207
湖南	-9.71255
張廣泗	-9.71286
讎	-9.71332
全忠	-9.71354
相見	-9.71375
無事	-9.71408
自稱	-9.71685
午	-9.71716
進勦	-9.71732
之亂	-9.71751
瑪	-9.71777
郡縣	-9.71851
隔	-9.71872
先後	-9.71943
含	-9.7204
生擒	-9.72097
之臣	-9.72166
排	-9.72355
十三	-9.72419
生靈	-9.72444
先行	-9.72446
追之	-9.72491
秩	-9.72494
並不	-9.72541
束	-9.72586
三萬	-9.72701
得以	-9.72718
而歸	-9.72741
如有	-9.72755
用事	-9.7279
奇	-9.7288
内有	-9.72928
座	-9.72959
皆有	-9.72969
烏什	-9.73143
請以	-9.73373
偃	-9.73381
府城	-9.734
詢問	-9.73497
羞	-9.73507
脅	-9.73523
邦昌	-9.73575
妖	-9.7369
鴻	-9.7374
已而	-9.73745
賊勢	-9.73799
偹	-9.73805
討之	-9.73839
即將	-9.73853
形勢	-9.73853
之所以	-9.73933
二十日	-9.73962
都司	-9.73994
者有	-9.74102
恪	-9.74111
也而	-9.74152
皇太后	-9.74154
奏入得㫖	-9.74158
牲	-9.74162
五日	-9.74164
一年	-9.74293
速行	-9.74303
爰	-9.74312
晋	-9.74396
葉爾羌	-9.74527
洋	-9.74529
再拜	-9.74532
人員	-9.74553
夾攻	-9.74668
花	-9.74671
力戰	-9.74681
揖	-9.74692
行至	-9.74708
必須	-9.74716
其家	-9.74726
我師	-9.7475
中軍	-9.74854
臯	-9.74854
料理	-9.74863
數年	-9.74882
看	-9.7493
日月	-9.74981
仍令	-9.75007
激	-9.75067
勘	-9.75111
攜	-9.75142
見之	-9.75146
屬人	-9.7515
栁	-9.75176
稍有	-9.7518
巫	-9.75198
司徒	-9.75314
不宜	-9.75329
機宜	-9.75357
是謂	-9.75463
箭	-9.75465
押	-9.75555
本朝	-9.75602
饒	-9.75643
紅	-9.75687
楚人	-9.75715
故事	-9.75731
理藩院	-9.75736
在彼	-9.75819
牲畜	-9.75891
霍	-9.76122
八十	-9.76128
宛	-9.76148
詩曰	-9.76169
約束	-9.76216
伊犁	-9.76217
軌	-9.76231
應援	-9.76268
汪	-9.76333
是也	-9.76382
呈	-9.76385
運米	-9.76411
搶掠	-9.7654
悦	-9.7659
乙亥	-9.76648
竝	-9.76683
南京	-9.76706
郤	-9.76721
太師	-9.76734
把	-9.76756
六十	-9.76779
械	-9.76826
噶	-9.76878
原任	-9.7689
岐	-9.76902
銅	-9.76929
饗	-9.7694
巳	-9.76972
趙王	-9.77077
彼此	-9.77115
管轄	-9.77115
醫	-9.77145
留守	-9.77183
肯	-9.77246
事之	-9.77326
其身	-9.77338
廣西	-9.77368
岳鍾琪	-9.77378
敝	-9.7741
其民	-9.77424
河西	-9.77449
上年	-9.77498
霍集占	-9.77588
不絶	-9.7762
浩	-9.77639
柄	-9.77645
豪	-9.7765
晉人	-9.77667
分路	-9.77675
粮	-9.77679
賛	-9.77696
以資	-9.77706
自必	-9.77779
不敷	-9.77869
南路	-9.77896
也若	-9.77899
江淮	-9.77925
暉	-9.77933
讐	-9.77985
艱	-9.78098
懲	-9.78148
管仲	-9.78177
降㫖	-9.78215
鮮	-9.78239
庄	-9.78294
隙	-9.78351
所得	-9.78375
膺	-9.78437
墮	-9.78461
東西	-9.78527
拒之	-9.78573
之志	-9.78576
奏入上從之	-9.78586
運送	-9.78596
鬭	-9.78643
坦	-9.78655
十四年	-9.78664
段	-9.78665
包	-9.78666
執政	-9.78691
劫	-9.78698
獻忠	-9.78796
蘭州	-9.78876
之路	-9.78877
交與	-9.78911
士大夫	-9.78923
敎	-9.78949
緒	-9.78976
丁未	-9.79083
薩喇爾	-9.79166
監軍	-9.79171
辛巳	-9.79224
之名	-9.79246
宥	-9.7928
安定	-9.79384
所部	-9.79465
欵	-9.79476
活	-9.79477
侈	-9.79493
相機	-9.7965
宇	-9.79654
衆心	-9.7973
那	-9.79755
應行	-9.79798
而下	-9.79824
鐘	-9.79941
王室	-9.79958
荷	-9.79987
犬	-9.79988
䖍	-9.80017
禮也	-9.80111
大破之	-9.80118
官吏	-9.8013
葛	-9.80175
麗	-9.80221
襄公	-9.80305
侍衞	-9.80315
進發	-9.80341
門外	-9.80394
童	-9.80478
𫝊	-9.80494
統制	-9.80507
其意	-9.80588
千人	-9.80597
亦無	-9.8062
奠	-9.80626
措置	-9.80642
然而	-9.80659
千餘	-9.80767
十三年	-9.80924
為一	-9.80932
富貴	-9.80964
醜	-9.81011
徧	-9.8106
䟽	-9.81061
晦	-9.81075
得之	-9.81179
石峯堡	-9.81244
熈	-9.81247
而立	-9.81247
有罪	-9.81263
十五年	-9.81404
不信	-9.81415
貽	-9.81418
金帛	-9.81429
倡	-9.81489
額敏和卓	-9.81503
税	-9.8152
俱已	-9.81535
大金	-9.81607
尚可	-9.81655
貸	-9.81663
互相	-9.81731
百餘人	-9.81761
柵	-9.81807
創	-9.81822
禪	-9.81827
擒拏	-9.81832
壬午	-9.81839
若此	-9.81957
蒙古	-9.8196
不報	-9.81963
居民	-9.81965
樊	-9.82011
哨	-9.82023
晉陽	-9.82063
丙午	-9.82099
百萬	-9.82117
丙子	-9.8224
革職	-9.82332
績	-9.82369
讀	-9.82453
丁巳	-9.82521
定議	-9.82543
牢	-9.82546
賑	-9.82566
未免	-9.82574
糾	-9.82582
賊黨	-9.8259
大員	-9.8268
鎗	-9.82689
舒赫德	-9.8269
毅	-9.82705
當時	-9.82788
滋事	-9.82864
穿	-9.82917
祈	-9.82938
鈞	-9.83045
慕	-9.83065
滿洲	-9.83098
邢	-9.8311
壞	-9.83176
家屬	-9.83297
各路	-9.83403
狗	-9.83433
甲午	-9.83434
兆恵	-9.83435
醉	-9.83442
鑿	-9.83451
出城	-9.83488
劍	-9.83489
刺史	-9.83509
朗	-9.83543
㑹合	-9.83543
信息	-9.83555
布魯特	-9.83564
帛	-9.83751
副將軍	-9.83757
其君	-9.83779
仁義	-9.83921
題	-9.83932
十三日	-9.83939
芳	-9.83955
己巳	-9.83962
丁亥	-9.84008
俎	-9.84043
之信	-9.84047
腹	-9.84106
稅	-9.8413
忠臣	-9.84148
㕘贊大臣	-9.84179
括	-9.84211
碩	-9.84223
司空	-9.84246
日夜	-9.84266
􁀙	-9.84271
甲辰	-9.84284
男女	-9.84303
挑	-9.84349
行之	-9.84401
自古	-9.84437
王師	-9.84467
泥	-9.84485
滋擾	-9.84513
徇	-9.84518
乙	-9.84567
回民	-9.84625
東北	-9.84632
俱著	-9.84664
曰公	-9.84696
牽	-9.84713
籌畫	-9.84742
庻	-9.84747
庚午	-9.8475
衆人	-9.84789
此皆	-9.84994
戰於	-9.85015
濫	-9.85042
混	-9.85063
皇太子	-9.85072
之利	-9.85139
庚申	-9.85147
鳥鎗	-9.85172
疏奏	-9.85208
所殺	-9.85245
叚	-9.85257
之命	-9.85295
香	-9.853
蓄	-9.8531
廵	-9.8537
幽州	-9.85417
節制	-9.85524
人衆	-9.85559
竇	-9.85565
甲寅	-9.85624
壬申	-9.85646
人民	-9.85659
採	-9.85795
喀什噶爾	-9.85809
黄廷桂	-9.85825
昭公	-9.85829
狡	-9.85831
疎	-9.85835
代之	-9.85873
東宫	-9.8591
飬	-9.85916
競	-9.85963
數千人	-9.85975
前徃	-9.85993
四面	-9.86063
施行	-9.8611
我軍	-9.86141
庚寅	-9.86144
戊申	-9.86212
核	-9.86258
成衮扎布	-9.86314
俯	-9.86317
賞罰	-9.86325
隋	-9.86399
悟	-9.86399
十八	-9.86437
百里	-9.86438
夏五月	-9.86554
後世	-9.86601
偉	-9.86682
牲隻	-9.86756
又據	-9.86791
庫車	-9.86844
補授	-9.86862
然則	-9.86884
號令	-9.86911
出師	-9.86963
壬辰	-9.8697
去年	-9.87068
弁兵	-9.87105
歎	-9.8711
牛羊	-9.87154
逆匪	-9.872
瓦	-9.87207
篤	-9.87226
蟲	-9.87238
不通	-9.87253
讒	-9.87274
佞	-9.87288
繩	-9.87292
惡之	-9.87322
幕	-9.87398
其母	-9.87466
錦	-9.87515
睿	-9.87559
明瑞	-9.8759
鑄	-9.87688
亷	-9.87782
金銀	-9.87792
丁丑	-9.87804
軍事	-9.87808
𠞰賊	-9.87889
兵一千名	-9.87908
王之	-9.8799
湖廣	-9.87994
即於	-9.87994
恒瑞	-9.88064
辛未	-9.88072
壬寅	-9.88078
之説	-9.8811
埶	-9.88172
愧	-9.88218
賔客	-9.88223
弟子	-9.88239
經理	-9.88242
戊午	-9.88373
紫	-9.884
傳曰	-9.88409
飯	-9.88446
地方官	-9.88516
魁	-9.88624
四十	-9.88643
必不	-9.88644
旱	-9.8865
快	-9.88662
健	-9.88718
旬	-9.88727
腹心	-9.88764
播	-9.88765
倭	-9.8889
寅	-9.88902
待之	-9.88903
莫敢	-9.88906
赫	-9.88946
戲	-9.88955
在外	-9.88968
脫	-9.88988
効	-9.88994
而進	-9.89037
夏六月	-9.89058
烏珠	-9.89085
今年	-9.89104
巴圖魯	-9.89111
十日	-9.89127
爽	-9.89138
停止	-9.89159
者亦	-9.89207
丙辰	-9.89221
丙寅	-9.89229
八旗	-9.89241
十餘萬	-9.89243
支給	-9.89245
打	-9.89246
之君	-9.8925
頌	-9.89253
管理	-9.89294
憚	-9.89322
榜	-9.89323
萬餘人	-9.89339
帯	-9.89369
吳王	-9.89472
怪	-9.8949
來朝	-9.89493
見其	-9.89507
等項	-9.89513
乙酉	-9.89528
標	-9.89607
扣	-9.89627
之不	-9.89632
柴	-9.89796
滿兵	-9.89803
大喜	-9.8981
𦵏	-9.89826
状	-9.8983
調度	-9.89858
一曰	-9.8988
江陵	-9.89896
燕山	-9.89909
藍元枚	-9.89919
訴	-9.89991
國事	-9.90035
普吉保	-9.90038
癸亥	-9.90095
撤兵	-9.90159
蒼	-9.90267
阿里衮	-9.90306
怠	-9.90335
無功	-9.90396
上以	-9.90435
其弟	-9.90501
甲申	-9.90584
敗之	-9.90592
鋒	-9.90655
扼	-9.90714
癸未	-9.9073
揚州	-9.90752
數百人	-9.90779
訥親	-9.90788
之下	-9.90813
詳悉	-9.90819
刃	-9.90826
酋	-9.90835
曠	-9.9085
而有	-9.90851
甚屬	-9.90875
苑	-9.9089
燭	-9.90967
遥	-9.91022
也且	-9.91101
之内	-9.91165
大将軍	-9.91174
遏	-9.91177
大怒	-9.91195
不成	-9.91198
照例	-9.91204
輕重	-9.91237
内侍	-9.91237
前此	-9.9128
亦應	-9.91336
庚子	-9.9139
著加恩	-9.91424
雅爾哈善	-9.91444
俄	-9.91463
騐	-9.91518
李綱	-9.91532
慢	-9.91549
丞	-9.9157
守之	-9.91684
壬子	-9.9173
跡	-9.91759
萌	-9.91803
辛丑	-9.91803
姓名	-9.91803
甲戌	-9.91846
接應	-9.9186
乃命	-9.91875
十二年	-9.91881
返	-9.91889
賢者	-9.91903
無可	-9.91934
從賊	-9.91938
兵二千	-9.91945
三軍	-9.91949
子産	-9.9204
晉王	-9.92056
偵探	-9.92081
迨	-9.92092
歛	-9.92109
即日	-9.92111
嫁	-9.9215
準	-9.92151
童貫	-9.92196
垣	-9.92197
敵人	-9.92294
穴	-9.92318
哈宻	-9.92387
十七年	-9.92409
水草	-9.92427
局	-9.92449
蔡京	-9.92499
輜重	-9.92528
賊首	-9.92531
眞	-9.92618
立功	-9.927
屍	-9.92706
圖之	-9.92741
不忘	-9.92765
作亂	-9.92807
城外	-9.92837
歸之	-9.92859
則有	-9.92869
不應	-9.92942
彼處	-9.92963
庚辰	-9.93021
進退	-9.93029
艾	-9.93035
溺	-9.93044
逺近	-9.93072
冬十一月	-9.93106
又遣	-9.93122
催	-9.93229
駭	-9.93248
如故	-9.93259
不肖	-9.9326
戊寅	-9.93281
大子	-9.93283
偶	-9.93297
策楞	-9.93442
無道	-9.93464
凌	-9.93476
一月	-9.93481
恣	-9.93488
景公	-9.93496
未必	-9.93529
軍馬	-9.9355
不已	-9.93563
己亥	-9.93571
恕	-9.93577
駢	-9.9359
上諭軍機大臣曰據	-9.93649
王者	-9.93668
回部	-9.93694
帶往	-9.93747
未知	-9.93753
戊辰	-9.93792
暮	-9.93847
中書	-9.93882
廬	-9.93888
十一	-9.93893
桃	-9.93898
于是	-9.93938
出戰	-9.93951
碉	-9.93981
閩省	-9.94011
遁去	-9.9402
賊目	-9.9403
䕶送	-9.94086
乙未	-9.94117
十一年	-9.9412
詭	-9.9413
和議	-9.94133
張浚	-9.94134
兵一千	-9.94167
毋庸	-9.94194
烏里雅蘇台	-9.94223
内大臣	-9.94252
呂	-9.94253
兵部尚書	-9.94259
督率	-9.94337
旌	-9.94389
至今	-9.94432
壇	-9.94435
本年	-9.9444
察罕	-9.9447
錄	-9.94497
祁	-9.94499
所領	-9.94559
此項	-9.94622
琳	-9.94652
浙江	-9.94673
下詔	-9.9473
不顧	-9.94769
蹈	-9.94779
輪	-9.94796
氏之	-9.94883
郢	-9.94918
▁(	-9.95039
晝	-9.95063
焦	-9.95086
留後	-9.95099
侮	-9.95128
丙申	-9.95139
曰汝	-9.95229
亦如之	-9.9528
矯	-9.95313
孚	-9.95389
斤	-9.95391
喬	-9.95444
駐守	-9.9545
所請	-9.95527
鬼神	-9.95545
十八日	-9.95562
行營	-9.95579
悞	-9.95586
換	-9.95586
牌	-9.95587
休息	-9.95642
癸酉	-9.95685
慕容	-9.95697
二十五日	-9.95709
之道也	-9.95771
安西	-9.95815
者非	-9.9587
遼東	-9.9589
昧	-9.95921
山川	-9.95963
甲兵	-9.96005
上從之	-9.96028
所言	-9.96058
將帥	-9.96162
行在	-9.96176
於秦	-9.96185
移駐	-9.9622
於齊	-9.96272
味	-9.96275
黃	-9.96293
圭	-9.96296
薪	-9.96312
軍旅	-9.96322
家口	-9.96349
為國	-9.96366
賚	-9.96416
於外	-9.96495
淮西	-9.96499
靣	-9.96544
礮	-9.96545
收復	-9.96551
乙巳	-9.96616
曜	-9.96621
湏	-9.9666
岳州	-9.9674
曰昔	-9.96745
如初	-9.96751
融	-9.96816
問之	-9.9686
應令	-9.96936
耀	-9.96962
貌	-9.96973
小國	-9.96974
妥	-9.97048
剿	-9.97173
不死	-9.97176
髪	-9.97209
到日	-9.97244
禦之	-9.97245
迷	-9.97253
矣今	-9.97302
查拏	-9.97317
學士	-9.97459
鸞	-9.97473
綽	-9.97486
冲	-9.975
湛	-9.97513
若有	-9.97516
扎卜	-9.97528
飢	-9.97544
牧放	-9.97552
南陽	-9.97631
恐其	-9.97791
鞭	-9.97822
銘	-9.97861
流涕	-9.97883
未便	-9.97903
貝子	-9.9794
算	-9.98028
鐸	-9.98032
出於	-9.98151
談	-9.98164
綠旗兵	-9.98169
癸丑	-9.98176
主上	-9.98278
可得	-9.98335
十四日	-9.98389
耗	-9.98426
宣諭	-9.98437
閱	-9.98444
巖	-9.98449
願陛下	-9.9848
臂	-9.98493
何謂	-9.98503
督撫	-9.98539
富徳	-9.98587
追至	-9.98601
若干	-9.98623
民間	-9.98748
釐	-9.9877
牒	-9.98781
辛亥	-9.98793
俸	-9.98839
協同	-9.98985
妥協	-9.98996
彬	-9.99029
豈能	-9.99031
守城	-9.99042
十二日	-9.99049
乙丑	-9.99088
囬	-9.99138
衆皆	-9.99148
天命	-9.99153
品	-9.99237
其父	-9.99263
朝夕	-9.99289
無罪	-9.99321
十六日	-9.99332
輝	-9.99338
桀	-9.99354
九十	-9.99363
㓜	-9.99369
癸巳	-9.99373
大功	-9.99438
虢	-9.99482
己未	-9.995
賊巢	-9.995
未及	-9.99519
冬十二月	-9.99542
父兄	-9.99577
銳	-9.99616
範	-9.99631
裏	-9.99644
玩	-9.99655
而不能	-9.99662
護	-9.99703
掘	-9.99713
披	-9.99831
止之	-9.99867
南詔	-9.99879
恢復	-9.99882
人馬	-9.99911
該督	-9.99924
己丑	-10
冰	-10.0001
填	-10.0003
視之	-10.0015
二十九日	-10.0016
途	-10.0026
大將	-10.0028
邾	-10.0036
數十人	-10.0051
日久	-10.0071
㳺	-10.0071
以成	-10.0071
乃遣	-10.0083
其實	-10.0084
諸侯之	-10.0086
臣竊	-10.0088
黄河	-10.0088
觀望	-10.0093
筆	-10.0095
數月	-10.0097
辛酉	-10.0098
㕘	-10.0098
觀之	-10.0099
議叙	-10.0108
遷移	-10.0112
粤	-10.0122
發往	-10.0122
情節	-10.0126
起行	-10.0127
十四	-10.0127
臣聞	-10.0128
肇	-10.0128
天子之	-10.0129
舅	-10.013
纔	-10.013
雙	-10.0131
不時	-10.0132
設法	-10.0136
或有	-10.0136
斡里雅布	-10.0136
其下	-10.0137
不聞	-10.0148
聖主	-10.0155
壹	-10.0162
塵	-10.0164
四百	-10.017
統兵	-10.0171
班第等	-10.0176
豹	-10.0189
娶	-10.0189
庚戌	-10.0195
於天下	-10.0196
城上	-10.0198
秋九月	-10.0206
二三	-10.0211
欣	-10.0211
我皇上	-10.0215
墜	-10.0217
緣	-10.0226
驟	-10.0228
虧	-10.023
國公	-10.0235
迹	-10.0236
節度	-10.0241
各有	-10.0242
宫室	-10.025
之情	-10.0252
與我	-10.0253
現有	-10.0255
耿	-10.0256
摩	-10.0257
兵至	-10.0259
消	-10.026
耕種	-10.026
句	-10.026
不問	-10.0262
一軍	-10.0262
未幾	-10.0265
灌	-10.0266
死之	-10.0266
炎	-10.0267
嚴加	-10.0268
事宜上諭軍機大臣曰	-10.0282
繕	-10.0283
閭	-10.0291
邁	-10.0291
詰	-10.0295
荀	-10.0297
遂以	-10.0298
採買	-10.0299
知縣	-10.03
不得不	-10.0305
銷	-10.0307
自殺	-10.0308
世忠	-10.0309
防禦	-10.031
撲	-10.031
賊營	-10.0311
秦州	-10.0322
裘	-10.0323
丁酉	-10.0323
曰夫	-10.0326
訟	-10.0326
憑	-10.0329
十人	-10.0335
校尉	-10.0344
省城	-10.0345
安石	-10.0349
奉使	-10.035
十七	-10.0352
趕	-10.0352
𢎞	-10.0357
圓	-10.0358
隘	-10.0359
徐績	-10.0359
一萬	-10.0362
公卿	-10.0364
處所	-10.0373
佑	-10.038
如此則	-10.0388
弩	-10.0389
偷	-10.0394
耳目	-10.04
狼	-10.041
上表	-10.0411
者以	-10.0418
飲酒	-10.0419
悍	-10.0422
之力	-10.043
加以	-10.043
滇	-10.043
自可	-10.0431
之變	-10.0432
頂	-10.0433
楷	-10.0438
衣服	-10.044
長驅	-10.0446
可用	-10.045
兆惠等	-10.0452
反覆	-10.0453
翁	-10.0453
謬	-10.0453
以安	-10.0453
四千	-10.0456
大義	-10.0459
而退	-10.046
絳	-10.0462
叅	-10.0469
直抵	-10.0471
麾下	-10.0478
女真	-10.0482
隨同	-10.0484
晨	-10.0489
二十八日	-10.0495
章京	-10.0497
紹興	-10.05
曰朕	-10.0503
千總	-10.0506
前因	-10.0512
怯	-10.0512
内史	-10.0515
阿爾台	-10.0521
倒	-10.0524
演	-10.0524
棟	-10.0525
餘衆	-10.0529
則不	-10.0533
嚴行	-10.0544
六百	-10.055
斌	-10.055
嫌	-10.0552
漕	-10.0552
杞	-10.0553
即以	-10.0557
殺人	-10.0563
入見	-10.0571
寡君	-10.0572
都指揮使	-10.0577
租	-10.0583
泄	-10.0587
歎曰	-10.0588
伸	-10.059
亦當	-10.0591
疏言	-10.0592
蔣	-10.0595
十九日	-10.06
劉豫	-10.0601
官爵	-10.0605
不安	-10.0605
不服	-10.0606
裔	-10.0609
𠞰殺	-10.0611
索倫	-10.0614
自知	-10.0615
長子	-10.0617
冐	-10.0624
諫曰	-10.0625
褒	-10.0627
戾	-10.063
不失	-10.0631
告稱	-10.0632
留心	-10.0636
有一	-10.0642
業已	-10.0644
經略	-10.0647
緑旗兵	-10.0652
敗走	-10.0653
摧	-10.0659
從事	-10.0659
旺	-10.0669
上帝	-10.0671
安撫	-10.0671
太宗	-10.0677
勵	-10.0678
堵	-10.0683
皆為	-10.0687
丙戌	-10.069
飲食	-10.0691
事君	-10.0691
錡	-10.0691
水陸	-10.0698
以求	-10.0698
康王	-10.0699
應請	-10.0702
諭令	-10.0705
荘	-10.0713
不堪	-10.0714
衛侯	-10.0721
岡	-10.0723
藝	-10.0735
訥	-10.0742
海内	-10.0744
喀	-10.0755
之馬	-10.0757
塘	-10.0757
沖	-10.0758
帯兵	-10.0761
揆	-10.0766
之弟	-10.0766
阜	-10.0767
其功	-10.0771
伐之	-10.0773
七日	-10.0774
宗社	-10.0774
請降	-10.0779
所居	-10.0789
敖	-10.0789
叅將	-10.0789
名曰	-10.079
土司	-10.079
乾隆	-10.0793
二十一日	-10.0794
暨	-10.0794
殺其	-10.0796
謗	-10.0797
派往	-10.08
祭祀	-10.0807
之使	-10.0815
者乎	-10.0815
漢軍	-10.0819
寸	-10.0822
西京	-10.0825
報稱	-10.0828
浦	-10.0829
伏兵	-10.0834
太監	-10.0834
平日	-10.0835
將弁	-10.0841
判	-10.0843
靜	-10.0845
俄羅斯	-10.0847
古者	-10.085
蛇	-10.0857
稷	-10.086
𠞰捕	-10.0862
詔書	-10.0862
壬戌	-10.0864
織	-10.0865
一同	-10.0866
受其	-10.0868
貴州	-10.0871
而入	-10.0872
國語	-10.0874
隴	-10.0881
五萬	-10.0881
既已	-10.0883
雲中	-10.0884
何處	-10.0886
山梁	-10.089
屬下	-10.0891
伐鄭	-10.0895
逰	-10.0897
佩	-10.0898
柳	-10.0904
勛	-10.0905
殱	-10.091
其勢	-10.0911
城内	-10.0913
二十四日	-10.0915
邇	-10.0922
兵民	-10.0924
是為	-10.0925
同平章事	-10.0933
永常	-10.0934
安得	-10.0937
昔者	-10.0938
張俊	-10.0939
所見	-10.0952
府庫	-10.0953
罵	-10.0957
戰于	-10.0958
往往	-10.0959
魏王	-10.0961
紛紛	-10.0964
戊戌	-10.0965
萬里	-10.0974
尚在	-10.0974
境内	-10.0983
現已	-10.0983
莊公	-10.0985
以報	-10.0989
諸郡	-10.099
執事	-10.099
因其	-10.0993
議者	-10.0994
不獲	-10.0996
恊	-10.0996
授為	-10.1
卧	-10.1003
豕	-10.1003
己酉	-10.1005
以前	-10.1006
駿	-10.1007
其間	-10.101
昇	-10.1012
艱難	-10.1014
濠	-10.1015
南面	-10.1015
盟于	-10.1016
言者	-10.1018
汛	-10.1023
誨	-10.1028
作何	-10.1029
漏	-10.103
之妻	-10.1034
捨	-10.1036
堵禦	-10.1039
韶	-10.1045
鳯翔	-10.1048
准其	-10.1051
朕意	-10.1052
竭力	-10.1053
無有	-10.1055
先君	-10.1056
節次	-10.1062
叔孫	-10.1072
五人	-10.1077
殿下	-10.1078
甞	-10.1089
觀其	-10.1092
域	-10.1095
十七日	-10.1099
册	-10.1105
武昌	-10.1106
以後	-10.1112
攻取	-10.1116
韓魏	-10.1118
有差	-10.1128
二十萬	-10.1129
季孫	-10.1134
實為	-10.1135
有益	-10.1138
檢	-10.114
問於	-10.1141
之難	-10.1142
牆	-10.1143
譏	-10.1144
從容	-10.1153
不善	-10.1153
不食	-10.1164
庚	-10.1168
衮	-10.1169
悖	-10.1176
潮	-10.1177
成公	-10.1178
搶	-10.118
兇	-10.118
浸	-10.1181
飽	-10.1181
崖	-10.1182
一處	-10.1193
為此	-10.1193
天地之	-10.1194
之恩	-10.1194
曰不可	-10.1199
藥師	-10.1208
彈壓	-10.121
出征	-10.1212
饋	-10.1212
自行	-10.1213
邱	-10.1216
詔以	-10.122
東方	-10.1225
伺	-10.1227
天之	-10.1231
數十萬	-10.1241
治之	-10.1249
河陽	-10.1254
酬	-10.1255
可見	-10.1257
務期	-10.1267
二十三日	-10.1267
三千人	-10.1269
劄	-10.127
聚衆	-10.1276
鮑	-10.1287
不知所	-10.1288
婦女	-10.129
五百名	-10.129
堅守	-10.1291
偕	-10.13
恢	-10.1301
十餘	-10.1305
送至	-10.1305
曰卿	-10.1306
縣城	-10.1306
又何	-10.1314
取其	-10.132
冕	-10.132
逾	-10.1322
為陛下	-10.1322
僻	-10.1324
次日	-10.1329
無人	-10.1333
淳	-10.134
緩急	-10.1343
足下	-10.1346
宫中	-10.1346
未得	-10.1348
也乃	-10.1351
乗勝	-10.1352
奪其	-10.1358
泊	-10.1361
十六年	-10.1362
百餘	-10.1371
吾子	-10.1372
所獲	-10.1373
昭王	-10.1374
十一日	-10.1375
諸部	-10.1379
搜	-10.1382
其志	-10.1382
出奔	-10.1386
固原	-10.1392
把總	-10.1392
靈公	-10.1395
無庸	-10.1395
講和	-10.1397
茅	-10.1398
請於	-10.1404
初十日	-10.1407
二十七日	-10.1411
參軍	-10.1418
改元	-10.1424
者多	-10.1429
握	-10.1429
棘	-10.1431
猷	-10.1435
板	-10.1435
斧	-10.1435
逆回	-10.1436
㸃	-10.1437
二日	-10.1442
已有	-10.1445
師道	-10.1445
者為	-10.1446
不合	-10.1449
太傅	-10.1449
信之	-10.1451
亦未可定	-10.1465
街	-10.1467
在此	-10.1467
賄	-10.1467
吏部尚書	-10.1472
歸順	-10.1475
二員	-10.1485
望風	-10.1485
遇賊	-10.1488
先王之	-10.1494
輕騎	-10.1495
帳	-10.1498
宼	-10.1499
踈	-10.1502
償	-10.1506
河州	-10.1513
知府	-10.1516
者其	-10.152
宋公	-10.1521
里克	-10.1525
據稱	-10.1527
生計	-10.153
登城	-10.153
愆	-10.1532
暑	-10.1538
朋	-10.1539
聖上	-10.1541
不容	-10.1541
滕	-10.1542
之䇿	-10.1546
莫若	-10.155
散秩大臣	-10.1555
所過	-10.1569
聰	-10.157
其妻	-10.1574
閻	-10.1575
臣請	-10.159
無復	-10.1591
東門	-10.1596
謨	-10.1603
糧運	-10.1604
受之	-10.1604
於楚	-10.1605
等俱	-10.1607
拱	-10.161
疋	-10.1616
暗	-10.1618
從者	-10.1625
遣往	-10.1627
宇文	-10.1643
膳	-10.1653
世民	-10.1658
逞	-10.1658
文字	-10.1663
隂陽	-10.1665
懋	-10.1669
以歸	-10.1673
麾	-10.1676
告之	-10.1677
裂	-10.168
䘏	-10.1683
滑	-10.1686
齋	-10.1686
前日	-10.1688
二十年	-10.1689
皆以	-10.1689
得免	-10.1695
勒爾謹	-10.1696
有三	-10.1702
繞	-10.1702
駐蹕	-10.1708
措	-10.1708
黔	-10.1709
永貴	-10.1721
劄子	-10.1721
宣王	-10.1726
攘	-10.1727
鎮守	-10.1727
匱	-10.1728
怒曰	-10.1729
喻	-10.1731
寃	-10.1731
二十二日	-10.1739
乃使	-10.1741
一二	-10.1744
不易	-10.1746
解京	-10.1749
子胥	-10.1761
庇	-10.1763
廹	-10.1766
洲	-10.1767
運糧	-10.1767
絲	-10.1769
無異	-10.1785
情事	-10.1788
挺	-10.179
和好	-10.179
土地	-10.1792
陳奏	-10.1793
渭	-10.1801
嗚呼	-10.1808
曰若	-10.1811
達什	-10.1826
契丹主	-10.1829
潤	-10.1832
回京	-10.1834
不法	-10.1836
筆帖式	-10.1839
禮樂	-10.1841
到彼	-10.1847
溢	-10.1847
厦門	-10.1847
州郡	-10.1849
譚	-10.185
豫備	-10.187
為賊	-10.187
墓	-10.1871
一千名	-10.1875
初四日	-10.1882
嬖	-10.1882
嚮	-10.1884
歸附	-10.189
明白	-10.1892
並著	-10.1896
百人	-10.1899
不聼	-10.1905
另行	-10.1906
擒獻	-10.1906
不止	-10.191
壤	-10.1911
桂	-10.1915
入于	-10.1916
曉示	-10.1917
望之	-10.1918
遮	-10.1918
藏匿	-10.1921
八百	-10.1923
苟	-10.1923
何故	-10.1924
挫	-10.1924
敢不	-10.1937
該犯	-10.1945
港	-10.1946
於上	-10.1949
盡行	-10.195
何所	-10.195
以自	-10.195
誦	-10.1952
猶未	-10.1954
繳	-10.1956
趙氏	-10.1957
新教	-10.1958
慙	-10.196
驛站	-10.1961
等物	-10.1963
相公	-10.1964
若何	-10.1966
嚴飭	-10.1967
遇有	-10.1967
諸州	-10.1969
皇子	-10.1971
丈	-10.198
乖	-10.1988
戊子	-10.1989
事件	-10.1993
議奏	-10.1996
踵	-10.1997
於是乎	-10.2
為我	-10.2
而復	-10.2006
何必	-10.2009
復遣	-10.2009
賞賚	-10.201
平王	-10.2021
相國	-10.2023
塲	-10.2029
甸	-10.2033
馭	-10.2036
辜	-10.2047
患之	-10.2049
恭順	-10.2052
膽	-10.206
沛	-10.2061
不識	-10.2062
科卜多	-10.2069
扈	-10.2071
囊	-10.2073
合兵	-10.2076
數目	-10.208
等奏	-10.2082
壺	-10.2082
致仕	-10.2085
秦檜	-10.2096
大皇帝	-10.2099
終不	-10.21
沃	-10.2103
為君	-10.2105
奢	-10.2105
答拜	-10.211
遍	-10.211
克用	-10.2112
安危	-10.2112
熙	-10.2113
莫能	-10.2113
蔑	-10.2116
姪	-10.2119
草木	-10.212
興師	-10.2122
請將	-10.2122
則無	-10.2123
玠	-10.2124
米石	-10.2125
復以	-10.2127
土兵	-10.2131
嗟	-10.2136
製	-10.2147
是非	-10.215
駝隻	-10.2152
州剌史	-10.2152
則民	-10.2153
需用	-10.2154
兵三千	-10.2158
同心	-10.2165
今已	-10.2165
萬全	-10.2176
火藥	-10.2179
琦	-10.218
衷	-10.2188
上諭内閣曰	-10.2189
僃	-10.2195
誥	-10.2195
之政	-10.2195
贖	-10.2197
韓世忠	-10.2202
西域	-10.2203
都御史	-10.2205
覆奏	-10.2206
揺	-10.2206
屢次	-10.221
又復	-10.2213
網	-10.2228
其名	-10.223
雉	-10.2234
以行	-10.2243
至京	-10.2245
裝	-10.2247
吹	-10.2247
之氣	-10.225
聞其	-10.2256
所至	-10.2259
為大	-10.226
甚衆	-10.2261
婁	-10.2263
郡城	-10.2267
著將	-10.227
契	-10.227
久矣	-10.2272
禮記	-10.2272
貝	-10.2272
枕	-10.2273
畔	-10.2274
十九	-10.2281
笑曰	-10.2284
而止	-10.2291
太廟	-10.2296
生於	-10.2296
營盤	-10.23
喀倫	-10.2302
馳赴	-10.2302
佳	-10.2305
抄	-10.2305
戌	-10.2308
所需	-10.2312
丁卯	-10.2313
棺	-10.2313
溥	-10.2318
所能	-10.232
勞苦	-10.2323
揀選	-10.2329
援兵	-10.2335
乎對曰	-10.2339
藍	-10.2343
倒斃	-10.2347
輦	-10.2348
上疏	-10.2352
吞	-10.2355
是否	-10.2356
東都	-10.2358
曰善	-10.2358
失其	-10.2361
今又	-10.2362
曷	-10.2363
𦂳要	-10.2371
梁王	-10.2376
丗	-10.2378
古今	-10.238
鼐	-10.238
諸子	-10.2381
浙	-10.2382
晉國	-10.2383
已定	-10.2386
阿布賚	-10.2387
初五日	-10.2389
家人	-10.239
邦彦	-10.2393
則是	-10.2398
互	-10.2398
諭以	-10.241
踐	-10.2425
和闐	-10.2426
店	-10.2427
踞	-10.2429
塹	-10.2433
矣夫	-10.2437
緝	-10.244
若能	-10.2443
之憂	-10.2447
户口	-10.2448
勾	-10.2455
自此	-10.2458
勒兵	-10.2461
宋人	-10.2465
搜捕	-10.2466
人人	-10.2466
而殺之	-10.2469
奎	-10.2474
勁	-10.2474
各犯	-10.2479
傳㫖	-10.2485
差遣	-10.2485
以為然	-10.2485
禮義	-10.2488
騎兵	-10.249
之議	-10.2491
於民	-10.2494
曰王	-10.2495
之喪	-10.2499
纂	-10.25
應用	-10.2501
芻	-10.2503
民力	-10.2506
廉	-10.251
鬻	-10.2511
等事	-10.2511
儻	-10.2514
初八日	-10.2514
敵國	-10.2516
沐	-10.2516
曰臣聞	-10.2522
僉	-10.2525
撰	-10.2527
有事	-10.2528
中有	-10.2536
坊	-10.2536
二十六日	-10.2538
之前	-10.2539
將伊	-10.2539
無益	-10.2539
今既	-10.2541
帝以	-10.2545
綸	-10.2551
又聞	-10.2556
之餘	-10.2556
股	-10.2557
譯	-10.2557
親征	-10.2557
久之	-10.2566
所敗	-10.2571
也吾	-10.2578
河中	-10.2581
班師	-10.2582
他日	-10.2583
女子	-10.2583
瑪木特	-10.2585
聲勢	-10.259
可乎	-10.259
判官	-10.2594
鄒	-10.2596
顛	-10.2598
新城	-10.2598
隕	-10.2598
不逺	-10.2605
它	-10.2605
奏事	-10.2606
漳	-10.261
吏部	-10.261
通判	-10.2615
遂與	-10.2617
天道	-10.2622
抗拒	-10.2627
將此	-10.2627
人有	-10.2629
以死	-10.2629
辛卯	-10.2634
乙卯	-10.2636
癸卯	-10.2637
徐州	-10.2657
不明	-10.266
於朝	-10.2661
髙祖	-10.2662
彭城	-10.2664
所為	-10.2667
併力	-10.2668
行事	-10.2668
黃帝	-10.2678
黄仕簡	-10.268
四時	-10.2681
隅	-10.2683
第一	-10.2687
三十里	-10.2691
各城	-10.2693
再三	-10.2697
䕫	-10.2698
尚屬	-10.2702
人君	-10.2703
白馬	-10.2706
睦	-10.2707
也君	-10.2708
富德	-10.2708
未見	-10.2709
存亡	-10.2709
鞏	-10.2714
初六日	-10.2714
踴躍	-10.2717
冝	-10.2718
促	-10.2719
墻	-10.2719
經過	-10.2719
更換	-10.2721
問曰	-10.2723
𠞰滅	-10.2728
今據	-10.2742
迅	-10.2744
為名	-10.2745
王宗	-10.2746
十八年	-10.2747
掃	-10.2747
熱	-10.2748
楚師	-10.2749
叩	-10.2751
之期	-10.2752
處分	-10.2753
青滚雜卜	-10.2754
其時	-10.2755
苖	-10.2758
不進	-10.2759
鼠	-10.276
弃	-10.2761
批	-10.2762
青州	-10.2762
所帶	-10.2766
派撥	-10.2771
諸事	-10.2771
達爾黨阿	-10.2776
汾	-10.2781
牟	-10.2783
之謂	-10.2786
不意	-10.2787
副之	-10.2788
鉞	-10.2789
萬民	-10.2795
析	-10.2797
溫	-10.2799
吿	-10.2802
使其	-10.2806
川省	-10.2809
文子	-10.2815
船隻	-10.2816
十餘人	-10.2822
良玉	-10.2823
伐齊	-10.2832
未敢	-10.2837
各省	-10.2837
遣其	-10.284
必欲	-10.2843
陟	-10.2844
直𨽻	-10.2849
情願	-10.2857
得㫖	-10.2867
言曰	-10.2868
乂	-10.2868
射之	-10.287
躍	-10.2872
山谷	-10.2872
請㫖	-10.2882
為天下	-10.2882
誼	-10.2883
黍	-10.2884
匠	-10.2886
初七日	-10.2892
旨	-10.2894
不動	-10.2895
平公	-10.2896
費揚古	-10.2898
二十四	-10.2899
之世	-10.2902
大驚	-10.2904
中路	-10.2911
蹙	-10.2911
以便	-10.2921
零	-10.2922
上䟽	-10.2922
壓	-10.2926
技	-10.2929
繇	-10.2931
大梁	-10.2933
傍	-10.2933
宦官	-10.2935
二名	-10.2939
漢王	-10.2943
來年	-10.2946
派員	-10.2952
捜	-10.2956
主事	-10.2962
得木齊	-10.2963
貟	-10.2965
吐	-10.2968
執之	-10.2969
其上	-10.2982
元年春正月	-10.2982
自守	-10.2985
三路	-10.2987
逐一	-10.2994
安能	-10.2999
所遣	-10.3004
可否	-10.3005
寓	-10.3009
王命	-10.3011
禾	-10.3011
氷	-10.3012
弭	-10.3012
來使	-10.3012
紙	-10.3013
無知	-10.3013
賜之	-10.3013
袍	-10.3014
牀	-10.3015
昻	-10.3015
策楞等	-10.302
協力	-10.3025
此其	-10.3025
以次	-10.3028
諡	-10.304
安置	-10.3046
闢展	-10.3049
之閒	-10.3054
苛	-10.3054
梅	-10.3057
同行	-10.3057
盡力	-10.3058
轡	-10.3058
譙	-10.3061
所用	-10.3063
三公	-10.3065
張儀	-10.3065
遷延	-10.3072
楊應琚	-10.3072
燕京	-10.3073
辭曰	-10.3076
現今	-10.3077
指示	-10.3083
諸道	-10.3086
購	-10.3087
涼	-10.309
破賊	-10.3093
毋得	-10.3093
為右	-10.3095
士馬	-10.3096
奏明	-10.3096
疲乏	-10.3097
的	-10.31
江州	-10.3102
古人	-10.3103
乃與	-10.3105
得志	-10.3109
不知其	-10.3113
侵擾	-10.3114
摺	-10.3115
㑹稽	-10.312
誤國	-10.3122
帑	-10.3123
京兵	-10.3124
得力	-10.3127
測	-10.3128
人以	-10.3131
八人	-10.3132
其次	-10.3132
為首	-10.3136
沁	-10.3139
率領	-10.314
觸	-10.314
拒守	-10.3142
諷	-10.3143
奬	-10.3145
御史中丞	-10.3146
敝邑	-10.3148
自取	-10.3155
不疑	-10.3161
驍騎	-10.3163
時有	-10.317
以事	-10.3173
宣撫使	-10.3175
霜	-10.318
大司馬	-10.318
猝	-10.3182
職銜	-10.3182
潁	-10.3184
至矣	-10.3189
未定	-10.3191
檀	-10.3191
粲	-10.3196
卿等	-10.3197
初九日	-10.3198
無禮	-10.3205
親戚	-10.321
尚書令	-10.3211
北方	-10.3217
欽定四庫全書	-10.3218
靖康	-10.3224
裹	-10.3226
甚為	-10.3227
膏	-10.3229
無虞	-10.3229
行臺	-10.3229
要害	-10.323
弛	-10.3231
遣其將	-10.3234
分遣	-10.3238
重兵	-10.3245
汝等	-10.3245
於國	-10.3247
收其	-10.3254
亦必	-10.3255
可嘉	-10.3255
此言	-10.3255
襄王	-10.3259
曹操	-10.326
朔方	-10.3261
門下	-10.3267
儆	-10.3268
不義	-10.3271
巷	-10.3273
策應	-10.3273
洽	-10.3276
荅	-10.3277
惟有	-10.3279
在京	-10.3286
轉運	-10.3292
看守	-10.3295
攻擊	-10.3301
朕心	-10.3304
中途	-10.3309
邊境	-10.331
逵	-10.3319
覘	-10.3319
佚	-10.3321
故能	-10.3321
窮蹙	-10.3323
暫行	-10.3326
朱全忠	-10.3326
不暇	-10.3333
太公	-10.3335
涼州	-10.3351
駱駝	-10.3352
間道	-10.3353
隄	-10.3356
䕶軍統領	-10.3357
指揮使	-10.3359
翔	-10.3361
者則	-10.3361
韓非子	-10.3362
揮	-10.3363
鄭人	-10.3364
皇考	-10.3364
二聖	-10.3365
餘黨	-10.3365
琮	-10.3367
泗	-10.3372
退保	-10.3377
兵少	-10.3377
軫	-10.3379
彼時	-10.3382
前經	-10.3386
與戰	-10.3386
乞降	-10.3387
降者	-10.3389
之類	-10.3394
僚	-10.3399
失之	-10.3401
㳺牧	-10.3402
十九年	-10.3405
是月	-10.3405
民心	-10.3406
軰	-10.3409
坤	-10.3411
凉州	-10.3414
無他	-10.3415
於人	-10.3416
去之	-10.3417
割地	-10.342
勅諭	-10.3424
驍騎校	-10.3424
盗賊	-10.3425
無能	-10.3425
傅爾丹	-10.3434
即如	-10.3435
中興	-10.3437
為亂	-10.3438
之米	-10.344
譖	-10.3452
壻	-10.3452
瑕	-10.3452
拂	-10.3452
巴爾	-10.3455
紳	-10.3459
速赴	-10.346
凉	-10.3475
萬世	-10.3475
大臣等	-10.3477
一舉	-10.348
瑚	-10.3489
沔	-10.3492
憐	-10.3496
城門	-10.3496
軍器	-10.3499
邸	-10.35
鼻	-10.3501
搏	-10.3502
逰擊	-10.3503
不祥	-10.3505
失守	-10.3506
昆	-10.3507
受傷	-10.3509
之任	-10.353
聽其	-10.3531
曰爾	-10.3536
惟是	-10.3537
知州	-10.3541
於前	-10.3541
俞	-10.3541
萊	-10.3541
奉天	-10.3542
任承恩	-10.3543
己卯	-10.3543
至城下	-10.3547
彈	-10.3547
峽	-10.3548
嗣昌	-10.3553
十有	-10.3556
自今	-10.3559
以圖	-10.3565
諳達	-10.3565
燕人	-10.3571
生民	-10.3574
廸	-10.3576
之屬	-10.3576
仔	-10.3579
逐之	-10.3581
之物	-10.3585
磨	-10.3585
惰	-10.3587
之㑹	-10.3589
仲尼	-10.3593
侃	-10.3594
范蠡	-10.3594
諌曰	-10.3598
兵五百名	-10.3599
安南	-10.3603
據實	-10.3604
盜賊	-10.3605
閏	-10.3615
次第	-10.3618
狥	-10.362
壯士	-10.3623
鄂爾多斯	-10.3624
鶴	-10.3626
開門	-10.3629
感激	-10.363
要地	-10.3637
染	-10.3639
湘	-10.3641
季氏	-10.365
在位	-10.3651
進士	-10.3657
不殺	-10.3663
軍機大臣	-10.3666
堯舜	-10.3669
之術	-10.367
遐	-10.3672
羸	-10.3676
枯	-10.3676
隣	-10.3677
相近	-10.3678
枉	-10.3678
四萬	-10.368
悉心	-10.3689
而欲	-10.3691
岳飛	-10.3694
於晉	-10.3698
太宰	-10.3705
闗中	-10.3714
未聞	-10.3717
大里杙	-10.3719
碑	-10.3721
病故	-10.3722
而能	-10.373
呉王	-10.3737
死而	-10.3737
聞之曰	-10.3741
擊敗	-10.3744
益州	-10.3744
吏民	-10.3745
圉	-10.3751
丹濟拉	-10.3755
以書	-10.3758
冉	-10.3758
諸公	-10.3759
有疾	-10.376
初一日	-10.3765
到時	-10.3765
凍	-10.3768
並非	-10.3779
厰	-10.3781
望見	-10.3781
圍之	-10.3789
穀梁傳	-10.3799
弓矢	-10.38
審訊	-10.3806
道也	-10.3808
携	-10.3809
噶爾丹䇿零	-10.3809
鞅	-10.381
封為	-10.3813
洩	-10.3814
應將	-10.3816
齊國	-10.3817
殖	-10.3817
蚤	-10.3821
綿	-10.3827
官屬	-10.3833
風雨	-10.3842
小民	-10.3852
尚書省	-10.3852
三鎮	-10.3854
副都綂	-10.3856
如果	-10.3856
禱	-10.3862
子貢	-10.3864
更為	-10.3865
賞賜	-10.3866
飭令	-10.3871
為政	-10.3875
大舉	-10.3879
旬日	-10.3885
近日	-10.3891
下獄	-10.3894
敵騎	-10.39
泉州	-10.3902
課	-10.3906
廵撫	-10.3906
㦸	-10.3911
矩	-10.3911
髙麗	-10.3912
六千	-10.3914
追及	-10.392
若是	-10.3923
之家	-10.3924
潰散	-10.3926
著即	-10.3928
户部	-10.3931
西方	-10.3933
繹史卷	-10.3935
伏誅	-10.3941
兩處	-10.3943
得罪	-10.3944
生事	-10.3947
髮	-10.3952
東海	-10.3954
而弗	-10.3956
僭	-10.3956
逓	-10.3958
也然	-10.3967
翦	-10.397
差人	-10.3971
二十五	-10.3972
而求	-10.3972
此地	-10.3972
相持	-10.3974
嚴宻	-10.3976
之行	-10.3982
駟	-10.3985
置之	-10.3988
雖欲	-10.3996
謂其	-10.4003
佯	-10.4006
伊子	-10.4007
不盡	-10.4014
諸将	-10.4015
猶有	-10.4016
曰陛下	-10.4022
無忌	-10.4024
而反	-10.4027
甘州	-10.4029
永昌	-10.4031
豈非	-10.4041
臣恐	-10.4043
國相	-10.4046
瑜	-10.4047
肩	-10.4048
都尉	-10.4053
戢	-10.4054
郝	-10.4055
巴延	-10.4057
自然	-10.4057
宣撫	-10.4058
身死	-10.4059
壮	-10.4061
亦屬	-10.4078
築城	-10.4081
䇿妄阿喇布坦	-10.4092
出口	-10.4094
殯	-10.4097
二千人	-10.4097
𥘉	-10.4098
種種	-10.4099
霧	-10.4101
至軍營	-10.4104
不測	-10.4105
侵犯	-10.4105
和卓	-10.4105
者三	-10.4106
祿山	-10.4113
沿	-10.4114
二曰	-10.4115
即當	-10.4119
不待	-10.4123
一也	-10.4126
之制	-10.4131
不書	-10.4132
最為	-10.4133
控	-10.4135
免其	-10.4137
真定	-10.4138
叱	-10.4138
闔	-10.4139
阿南達	-10.4141
一一	-10.4142
歟	-10.4147
砦	-10.415
皓	-10.4151
豪傑	-10.4151
妹	-10.4152
滔	-10.4152
杭州	-10.4164
泗州	-10.4168
既有	-10.4169
兖州	-10.4169
二州	-10.417
老弱	-10.417
男子	-10.4173
曰彼	-10.4181
應之	-10.4187
土謝圖汗	-10.4188
韜	-10.419
西面	-10.419
漆	-10.4191
或曰	-10.4192
倖	-10.4194
其主	-10.4195
弄	-10.4195
西藏	-10.4196
不加	-10.4196
之母	-10.4197
外委	-10.4197
詩云	-10.4197
潔	-10.4198
勤王	-10.4204
聖人之	-10.4211
武帝	-10.4212
齊師	-10.4222
制置使	-10.4225
與賊	-10.4226
亦未	-10.4233
繹	-10.4234
彛	-10.4234
平陽	-10.4235
㑹議	-10.4236
廣陵	-10.4236
無遺	-10.4237
邯鄲	-10.4238
陋	-10.4241
譴	-10.4242
岑	-10.4243
以待之	-10.4246
關中	-10.4247
布政使	-10.4247
不使	-10.4252
忠賢	-10.4254
守將	-10.4255
城池	-10.4257
必以	-10.4257
臨陣	-10.4259
莫如	-10.4263
所欲	-10.4266
吐谷渾	-10.4276
宣公	-10.4277
軍糧	-10.4281
灣	-10.4283
已極	-10.4288
不虞	-10.4288
壅	-10.4291
矛	-10.4293
部曲	-10.4295
以期	-10.4299
新疆	-10.43
隨時	-10.43
告知	-10.4309
而成	-10.4309
初三日	-10.4319
有此	-10.432
而自	-10.4322
千户	-10.4323
自為	-10.4324
之費	-10.4332
天祚	-10.4334
行軍	-10.4335
之樂	-10.4335
捜捕	-10.4336
雀	-10.4341
僱	-10.4342
巢穴	-10.4344
闇	-10.4346
几	-10.4347
並令	-10.4352
員外郎	-10.4354
孫士毅	-10.436
繼之	-10.4361
生畨	-10.4362
悼	-10.4362
法度	-10.4363
追捕	-10.4365
絹	-10.4368
督臣	-10.4369
竟不	-10.437
是夜	-10.4371
諸軍事	-10.4371
棄之	-10.4376
討賊	-10.4382
有大	-10.4384
勃	-10.4385
巾	-10.4387
寕	-10.4387
僖公	-10.4388
踪跡	-10.439
其妻子	-10.4395
之聲	-10.4397
有竒	-10.4398
開封府	-10.44
軍行	-10.44
不戰	-10.4402
封疆	-10.4404
孽	-10.4408
貴賤	-10.4409
矢石	-10.441
宣撫司	-10.4418
紛	-10.4423
哀公	-10.4427
踊	-10.4428
頻	-10.4428
而得	-10.4429
寘	-10.4432
矣故	-10.4434
挈	-10.4435
懈	-10.4436
被害	-10.4437
狹	-10.4438
寤	-10.4442
有道	-10.4444
不願	-10.4446
少卿	-10.4446
進剿	-10.4452
斛	-10.4452
有五	-10.4453
不忠	-10.4453
對曰臣	-10.4459
五百人	-10.4463
欲與	-10.4467
萬兩	-10.4468
愛之	-10.447
自將	-10.4472
號曰	-10.4483
贍	-10.4484
碎	-10.4488
之主	-10.4488
既得	-10.449
以禮	-10.449
又令	-10.449
鐡	-10.4491
初二日	-10.4495
筭	-10.4496
公事	-10.4497
等官	-10.4499
哈薩克錫喇	-10.4501
召募	-10.4503
會同	-10.4512
矣而	-10.4512
必無	-10.4515
東面	-10.4521
抽	-10.4522
炳	-10.4523
失利	-10.4526
至京師	-10.4533
糧食	-10.4534
夙	-10.4534
鑑	-10.4536
等奏言	-10.4537
嶽	-10.4537
君也	-10.4538
眉	-10.4538
鉤	-10.454
安設	-10.4541
兵二千名	-10.4544
永寧	-10.4546
總理	-10.455
調撥	-10.4558
毫無	-10.4563
咸陽	-10.4566
風俗	-10.4567
骨肉	-10.4574
既至	-10.4577
蠲	-10.4578
行人	-10.458
山中	-10.4582
提舉	-10.4582
諾爾布	-10.4583
灘	-10.4584
殺傷	-10.4586
梗	-10.4587
軍機	-10.4589
叩頭	-10.4592
揣	-10.4594
署理	-10.4603
世充	-10.4606
永興	-10.4609
南門	-10.4609
欒	-10.461
七千	-10.4613
始終	-10.4614
等因	-10.4619
上天	-10.4619
不但	-10.4622
在上	-10.4629
自相	-10.4634
君命	-10.4635
托克托	-10.4636
奕	-10.4637
凖	-10.4638
筮	-10.464
於君	-10.4641
如晉	-10.4645
武子	-10.4647
縣知縣	-10.4647
城守	-10.4647
保䕶	-10.4652
連日	-10.4652
一言	-10.4654
俱有	-10.4654
克之	-10.4665
叔向	-10.467
之敗	-10.4671
而不知	-10.4683
此乃	-10.4684
憾	-10.4684
琴	-10.4686
死於	-10.4688
一應	-10.469
日期	-10.469
特穆爾	-10.4691
而民	-10.4691
各兵	-10.4693
庶子	-10.4695
都城	-10.4697
商人	-10.4703
漢書	-10.4707
柔然	-10.4711
查出	-10.4711
一次	-10.4715
榖梁傳	-10.472
可傳諭	-10.4723
大雨	-10.4725
唐主	-10.4726
璽	-10.4727
穆公	-10.4732
濁	-10.4733
謫	-10.4735
竆	-10.4737
桐	-10.474
忤	-10.474
䇿應	-10.4743
鄉導	-10.4745
無故	-10.475
由此	-10.4751
上流	-10.4752
㕘將	-10.4752
士氣	-10.4756
曰天	-10.4758
一犯	-10.4758
宰執	-10.4759
徼	-10.4759
廷臣	-10.476
殺戮	-10.4761
攻圍	-10.4768
騾	-10.477
並將	-10.4773
該部	-10.4777
知㑹	-10.4779
輔臣	-10.4783
大破	-10.479
沉	-10.479
函	-10.4791
於諸侯	-10.4792
閑	-10.4793
獲罪	-10.4796
復命	-10.4797
大理	-10.4799
防䕶	-10.4799
奏言臣	-10.48
皆在	-10.4808
彪	-10.4817
廬州	-10.4821
即應	-10.4821
稽查	-10.4822
綂	-10.4828
張邦昌	-10.4828
軍節度使	-10.4829
愬	-10.4833
楊景素	-10.484
窺伺	-10.4841
䜛	-10.4841
原係	-10.4841
佗	-10.4844
詩序	-10.4844
大赦	-10.4844
劉光世	-10.4847
宦者	-10.4847
安民	-10.4848
作速	-10.485
之戰	-10.4851
所致	-10.4852
必死	-10.4853
庶幾	-10.4854
忠信	-10.4854
西門	-10.4857
又不	-10.4868
畿	-10.487
添兵	-10.4874
虚實	-10.4875
弗能	-10.4877
闢	-10.4881
七人	-10.4886
徐嗣曽	-10.4887
始皇	-10.4887
宸	-10.4889
瀆	-10.4892
丙	-10.4892
平凉	-10.4893
勅書	-10.4894
阿爾	-10.4895
中郎將	-10.4896
台吉等	-10.4899
噶爾	-10.4899
羊隻	-10.4899
東京	-10.4901
三曰	-10.4903
子女	-10.4904
刑罰	-10.4908
離散	-10.4909
臣下	-10.4909
王公	-10.4916
平章	-10.4923
周室	-10.4924
解到	-10.4925
舍人	-10.4926
衣冠	-10.4927
神明	-10.4932
禍福	-10.4933
疑之	-10.4934
底店	-10.4936
祇	-10.4941
尤為	-10.4941
猖獗	-10.4942
甥	-10.4942
减	-10.4943
為太子	-10.4944
㨿	-10.4944
禁止	-10.4945
鳩	-10.4945
盍	-10.4946
將至	-10.4947
天威	-10.4949
必先	-10.4953
者即	-10.4954
區	-10.4956
大懼	-10.4958
脚	-10.4958
人不	-10.4961
南山	-10.4964
調兵	-10.4967
回衆	-10.4971
前據	-10.4971
根本	-10.4971
等日	-10.4973
三十年	-10.4976
肆行	-10.4976
為主	-10.4977
殺死	-10.4978
曰寡人	-10.4979
人口	-10.4987
於道	-10.4987
轍	-10.4989
親身	-10.499
預為	-10.4994
布衣	-10.4995
冶	-10.4996
夲	-10.4996
坑	-10.4997
柏	-10.4998
栗	-10.4998
九百	-10.4999
今若	-10.5
之權	-10.5
之南	-10.5003
人臣	-10.5004
大計	-10.501
勤勞	-10.5014
轄	-10.5014
自立	-10.5016
聲言	-10.5016
殃	-10.5023
五六	-10.5029
數千里	-10.5034
百年	-10.5039
定邊	-10.504
囂	-10.5049
隷	-10.505
已到	-10.505
偪	-10.5052
自謂	-10.5053
傲	-10.5053
唱	-10.5053
單騎	-10.5061
不入	-10.5062
柰何	-10.5063
他人	-10.5065
聖明	-10.5065
以救	-10.5069
金兵	-10.5069
又言	-10.5071
箕	-10.5078
宣和	-10.5078
無一	-10.5085
波羅泥都	-10.5086
興兵	-10.5088
無算	-10.5089
分道	-10.5089
之北	-10.5093
滯	-10.5098
壕	-10.5099
朴	-10.5102
烝	-10.5104
開府儀同三司	-10.5105
財物	-10.5105
其有	-10.5105
田五	-10.5105
就擒	-10.5108
每佐領	-10.5109
偵	-10.511
何敢	-10.5112
乘勝	-10.5113
以俟	-10.5115
有隙	-10.5117
叔父	-10.5121
撤囘	-10.5122
酌定	-10.5128
認	-10.5132
主之	-10.5133
漢兵	-10.5135
等將	-10.5135
雅爾哈善等	-10.5138
凱	-10.5143
送之	-10.5145
賽	-10.5146
王黼	-10.5146
所稱	-10.5147
正在	-10.5148
無敢	-10.5149
福州	-10.5149
被執	-10.5149
額森	-10.515
郷	-10.5152
其情	-10.5153
楚之	-10.5153
臻	-10.5154
弦	-10.5156
曰是	-10.5159
令人	-10.516
夭	-10.516
之威	-10.5161
件	-10.5161
侍御史	-10.5162
在於	-10.5163
聞知	-10.5165
説苑	-10.5165
可為	-10.5168
召之	-10.5169
七百	-10.517
即著	-10.5171
父老	-10.5174
漳州	-10.5174
納之	-10.5176
河内	-10.5186
濮	-10.5186
何人	-10.5189
而卒	-10.519
明堂	-10.5194
替	-10.5201
招降	-10.5201
扎哈沁	-10.5203
漫	-10.5203
狩	-10.5204
等亦	-10.5204
罹	-10.5205
淑	-10.5207
靈壁縣知縣馬驌撰	-10.5208
妨	-10.521
也非	-10.5211
已至	-10.5212
熾	-10.5215
黄帝	-10.5215
晩	-10.5217
釋之	-10.522
屯兵	-10.5225
回至	-10.5225
不幸	-10.5226
救援	-10.5228
委員	-10.5228
寨桑	-10.5229
舟師	-10.5234
良嗣	-10.5236
所向	-10.5237
其謀	-10.5238
山之	-10.5238
匹夫	-10.5241
起事	-10.5243
軫念	-10.5257
一朝	-10.5258
畀	-10.5259
以正	-10.526
等奏稱	-10.5262
搶奪	-10.5263
又諭曰	-10.5265
精鋭	-10.5265
實屬	-10.5267
此外	-10.5269
平原	-10.5271
回紇	-10.5277
向來	-10.5278
刑部	-10.5278
子也	-10.5279
不自	-10.5281
王建	-10.5282
奮力	-10.5283
索取	-10.5284
伊尹	-10.5284
前行	-10.5287
似此	-10.5289
之盟	-10.5294
馬步	-10.5298
意欲	-10.5303
誠心	-10.5304
未易	-10.5306
雒	-10.5308
賓	-10.5308
即皇帝位	-10.5313
覩	-10.5314
西川	-10.5314
捧	-10.5315
無窮	-10.5315
而天下	-10.5316
汲	-10.5316
否則	-10.5318
泰山	-10.5318
之重	-10.5318
姊	-10.532
剛塔	-10.5322
僣	-10.5323
險阻	-10.5329
黼	-10.5332
禮部	-10.5333
哈達哈等	-10.5339
南方	-10.534
恐有	-10.5349
萬年	-10.5352
楚國	-10.5353
果能	-10.5358
也子	-10.5359
各員	-10.5364
每年	-10.5365
禮之	-10.5365
送往	-10.5365
身為	-10.5366
畝	-10.5367
撓	-10.5368
潼闗	-10.5371
場	-10.5371
嬴	-10.5374
不思	-10.5378
驥	-10.5379
許諾	-10.5381
禀稱	-10.5385
倉卒	-10.5388
以應	-10.5389
因而	-10.539
鎮江	-10.5391
神武	-10.5391
晉師	-10.5393
已上	-10.5397
南朝	-10.5399
乃令	-10.54
而不可	-10.5404
牛馬	-10.5406
為相	-10.541
多寡	-10.5412
助之	-10.5416
梟	-10.5418
像	-10.542
且曰	-10.5421
數萬人	-10.5423
䑕	-10.5423
銓	-10.5424
授以	-10.5433
之黨	-10.5434
巴圖爾	-10.5435
後路	-10.5439
萬户	-10.544
選派	-10.544
進軍	-10.5442
所辦	-10.5451
車馬	-10.5455
挑選	-10.5455
等各	-10.5455
復有	-10.5458
案内	-10.5459
耆	-10.5459
大將軍伯費揚古	-10.5459
凱旋	-10.546
秦之	-10.5465
日中	-10.5467
其首	-10.5467
在内	-10.5468
瓘	-10.547
絶其	-10.5471
舌	-10.5472
相距	-10.5474
璘	-10.5474
京東	-10.5475
龎	-10.5475
庾	-10.5477
袒	-10.5479
膠	-10.5481
亢	-10.5483
瓜	-10.5484
埋	-10.5486
諸君	-10.5487
雖然	-10.5495
何得	-10.5498
隨行	-10.5499
孝子	-10.5499
二年春正月	-10.55
事也	-10.5501
馬力	-10.5501
都統制	-10.551
太史	-10.5511
印信	-10.5515
而用之	-10.5515
入於	-10.5515
退而	-10.5517
俱在	-10.5522
豈得	-10.5528
已死	-10.5528
右衛	-10.5529
頑	-10.553
灾	-10.5531
媚	-10.5531
交易	-10.5535
移文	-10.5536
諸國	-10.5536
谿	-10.5536
卞	-10.5537
妥辦	-10.5538
言語	-10.5538
遞	-10.5542
守臣	-10.5545
姑息	-10.5547
招討使	-10.5547
哈達哈	-10.5551
委任	-10.5553
惠王	-10.5556
必敗	-10.5557
樞宻	-10.5558
授之	-10.5567
貴朝	-10.5572
兩月	-10.5575
餘賊	-10.5575
安國	-10.5576
皆不	-10.5578
緯	-10.5578
巴雅爾	-10.5579
看來	-10.5581
糴	-10.5582
康熙	-10.5582
該省	-10.5582
奏入	-10.5585
發遣	-10.559
城郭	-10.5592
大都督	-10.5593
又云	-10.5595
父之	-10.5598
在前	-10.5599
阿桂等	-10.5601
今日之	-10.5601
河朔	-10.5605
大人	-10.5611
為質	-10.5617
玉保	-10.5621
侯景	-10.5625
緬	-10.5629
三百人	-10.5634
阿喇卜灘	-10.5636
寗	-10.5637
叢	-10.5638
鈔	-10.5639
又與	-10.564
上聞	-10.5642
目前	-10.5642
頸	-10.5643
甚厚	-10.5643
攀	-10.5645
若之何	-10.5645
藻	-10.5647
構	-10.5647
孟嘗君	-10.5649
鵬	-10.5649
以慰	-10.5649
庶人	-10.5651
驍勇	-10.5652
宿衛	-10.5653
秦伯	-10.5656
滅之	-10.5657
商酌	-10.5662
蠻夷	-10.5662
海蘭察	-10.5667
固辭	-10.5671
豎	-10.5674
世祖	-10.5676
槩	-10.5676
而起	-10.5679
奏入上命軍機大臣傳諭	-10.5682
兩軍	-10.5685
間有	-10.5695
啇	-10.5697
斫	-10.5699
歸誠	-10.57
三十日	-10.57
聞風	-10.5703
𤼵	-10.5703
議和	-10.5705
禽獸	-10.5706
撃之	-10.5708
宗族	-10.571
其徒	-10.5712
之望	-10.5712
北門	-10.5713
既經	-10.5713
奈	-10.5715
海口	-10.5715
曰然則	-10.5722
䝉古兵	-10.5723
可比	-10.5724
千金	-10.5725
非禮也	-10.5727
備用	-10.573
不備	-10.5736
為民	-10.5739
務須	-10.5741
與否	-10.5744
無厭	-10.5746
搆	-10.5751
恬	-10.5752
怯懦	-10.5753
榆	-10.5753
卡撒	-10.5753
隆徳	-10.5755
有無	-10.5756
澗	-10.5759
寝	-10.5761
顒	-10.5762
曲沃	-10.5763
等疏奏	-10.5764
兵於	-10.577
御史大夫	-10.5773
淮南子	-10.5774
夥	-10.5776
親往	-10.5777
而已矣	-10.5786
子路	-10.5799
胤	-10.5802
而上	-10.5804
賁	-10.5806
剿捕	-10.5808
兔	-10.5811
帖	-10.5813
粗	-10.5814
迎之	-10.5814
回鶻	-10.5814
巴朗	-10.5815
瓌	-10.5818
實有	-10.5821
之盛	-10.5822
禀報	-10.5822
三十六	-10.5823
其軍	-10.5827
常青等	-10.5827
河間	-10.5829
時日	-10.5834
戰士	-10.5834
社稷之	-10.5834
後患	-10.5834
相應	-10.5836
人言	-10.5837
永安	-10.5846
等率	-10.5846
秦人	-10.5852
者謂之	-10.5853
世之	-10.5856
為天子	-10.5857
觶	-10.5861
納穆扎爾	-10.5861
令尹	-10.5864
歸于	-10.5867
塞卜騰	-10.5868
羈	-10.5871
降於	-10.5872
籠	-10.5875
彝	-10.5878
人之所	-10.588
被殺	-10.5885
亦已	-10.5885
男婦	-10.5889
靖逺	-10.5891
守仁	-10.5893
拿	-10.5902
京西	-10.5903
首領	-10.5904
大呼	-10.5904
承襲	-10.5906
宵	-10.5906
議論	-10.5908
欲立	-10.591
良民	-10.5912
遣回	-10.5914
曦	-10.5916
都爾伯特	-10.5917
捍	-10.5918
或謂	-10.5919
來聘	-10.5919
拒戰	-10.5919
在後	-10.592
塗炭	-10.5925
衢	-10.5925
酷	-10.5925
眼	-10.5927
圜	-10.5927
按察使	-10.5927
竄逸	-10.5928
亳	-10.5928
再拜稽首	-10.5929
僖	-10.5931
涕泣	-10.5933
左良玉	-10.5938
朕已	-10.594
未到	-10.5944
居中	-10.5953
亦即	-10.5953
必能	-10.5961
據供	-10.5962
暇	-10.5962
後即	-10.5965
不允	-10.5965
豈敢	-10.5965
布哈	-10.5965
過於	-10.5966
灼	-10.5968
詹	-10.597
求之	-10.5973
簒	-10.5977
凢	-10.598
蘓	-10.598
其城	-10.598
㸔	-10.5981
諸人	-10.5981
莊子	-10.5982
歷	-10.5983
璠	-10.5984
夙夜	-10.5987
當以	-10.5988
必致	-10.5989
赴行在	-10.5992
今君	-10.5994
聲援	-10.5998
三十萬	-10.5998
之㫖	-10.6004
也又	-10.6004
沿海	-10.6004
軍於	-10.6009
留兵	-10.6011
鄆	-10.6011
不恤	-10.6018
前次	-10.602
輯	-10.602
委之	-10.6023
浪	-10.6024
獲其	-10.603
先遣	-10.6031
馳驛	-10.6033
翰林學士	-10.6037
嗜	-10.6039
安撫使	-10.604
縳	-10.604
雕	-10.6041
中書舍人	-10.6043
死守	-10.6044
惕	-10.6044
勝負	-10.6045
窘	-10.6046
宣子	-10.6049
固請	-10.6052
也遂	-10.6058
人數	-10.6065
夫婦	-10.6066
聖㫖	-10.6087
之險	-10.6089
霄	-10.6089
拾	-10.609
添設	-10.609
謀反	-10.6091
畏懼	-10.6091
塔爾	-10.6095
各州縣	-10.6098
妙	-10.6098
貼	-10.6099
惇	-10.61
諛	-10.6102
經略大學士	-10.6102
擊破之	-10.6104
稔	-10.6104
水師	-10.6111
經畧	-10.6116
努三	-10.6116
往返	-10.6118
賢人	-10.612
昆弟	-10.6123
副将	-10.6132
謂之曰	-10.6132
不屈	-10.6133
該鎮	-10.6139
則必	-10.6139
兵數	-10.6142
江東	-10.6145
遣官	-10.6145
酌留	-10.6145
八千	-10.6146
欲得	-10.6148
巴蜀	-10.6151
不立	-10.6151
運至	-10.6154
熱河	-10.6157
耻	-10.6159
吾君	-10.6159
廖	-10.6159
鎮撫	-10.6161
出降	-10.6164
入貢	-10.6165
鎗砲	-10.6167
乗輿	-10.6168
曰不然	-10.617
戰敗	-10.6172
六日	-10.6173
國中	-10.6177
糧石	-10.6177
無常	-10.6182
而又	-10.6185
寛宥	-10.6187
天時	-10.6187
之資	-10.6188
死生	-10.619
告急	-10.6191
齊集	-10.6194
以来	-10.6195
閤	-10.6196
焚其	-10.6205
軍威	-10.6206
埽	-10.6211
朕所	-10.6216
礟	-10.6216
淡水	-10.6217
鈎	-10.6217
立于	-10.6218
魂	-10.6219
皇甫	-10.6222
帷	-10.6222
灰	-10.6222
議曰	-10.6223
之勞	-10.6226
二千名	-10.6226
方今	-10.6227
曰吾聞	-10.6227
耶律	-10.6228
噶爾藏多爾濟	-10.6233
無多	-10.6246
將吏	-10.6249
奉表	-10.625
下士	-10.6255
口外	-10.6255
亦不能	-10.6256
諸生	-10.6257
四日	-10.6258
稟	-10.6258
常山	-10.6259
諜	-10.6264
伐楚	-10.627
籽種	-10.627
寫	-10.6271
蔵	-10.6272
逃入	-10.6274
夷使	-10.6274
詎	-10.6275
愼	-10.6275
濡	-10.6275
逃往	-10.6276
滛	-10.6277
消息	-10.6278
山林	-10.628
芒	-10.6281
阿固達	-10.6283
可不	-10.6286
不樂	-10.6287
軍于	-10.6292
阿桂福康安	-10.6292
言其	-10.6294
也此	-10.6297
納世通	-10.6297
要隘	-10.6301
擊賊	-10.6302
殆盡	-10.6305
九州	-10.6308
而南	-10.6308
中行	-10.6314
十里	-10.6316
脅從	-10.6316
元吉	-10.6321
鞫	-10.6324
而走	-10.6328
清河	-10.633
凡有	-10.6333
筵	-10.6333
欲使	-10.6334
皆曰	-10.6335
内附	-10.6336
因此	-10.6336
縮	-10.6336
暢	-10.6336
觴	-10.6336
交戰	-10.6339
縦	-10.634
无	-10.6342
厄魯特等	-10.6343
實力	-10.6346
嗎哈沁	-10.6346
員缺	-10.6351
其説	-10.6352
便宜	-10.6356
全行	-10.6357
戍兵	-10.6362
不可復	-10.6364
應得	-10.6365
奏到	-10.6367
其位	-10.6371
其他	-10.6371
功名	-10.6372
米糧	-10.6375
供稱	-10.6381
貲	-10.6382
御前	-10.6382
也不	-10.6383
任其	-10.6383
以是	-10.6384
裳	-10.6389
紏	-10.6392
而食	-10.6395
京口	-10.6396
盛京	-10.6397
般	-10.6397
烟	-10.6397
下令	-10.6398
燔	-10.6401
弑其君	-10.6404
醢	-10.6405
天朝	-10.6405
巡查	-10.6406
罷兵	-10.6411
一千五百	-10.6414
所宜	-10.6414
天王	-10.6416
之美	-10.6421
兩次	-10.6425
貴人	-10.6426
腰	-10.6427
食之	-10.6428
㑹于	-10.6431
歸於	-10.6432
際	-10.6434
二十餘	-10.6434
等兵	-10.6435
地勢	-10.6437
來攻	-10.6438
墾	-10.6441
稱臣	-10.6441
從此	-10.6445
憫	-10.6445
告以	-10.6445
至於此	-10.645
秘	-10.645
同往	-10.6451
皆由	-10.6452
糜	-10.6453
亞	-10.6455
捉	-10.6455
翊	-10.6456
伏羌	-10.6456
攻克	-10.6456
邏	-10.6457
不稱	-10.6458
準夷	-10.6458
頴	-10.6459
氐	-10.6459
莫之	-10.6459
某等	-10.646
吾聞	-10.6467
第巴	-10.6469
置酒	-10.6473
明公	-10.6475
三朝北盟㑹編卷一百	-10.6475
非所	-10.6479
之西	-10.6479
倘有	-10.6481
謚	-10.6483
豫章	-10.6486
教之	-10.6486
直至	-10.6492
重慶	-10.6495
方可	-10.6497
一經	-10.6499
太上	-10.65
之才	-10.6503
將伊等	-10.6506
目下	-10.6506
車臣汗	-10.6507
概	-10.6508
㕔	-10.6508
繪	-10.651
不順	-10.6511
一戰	-10.6514
畱	-10.6516
椒	-10.6517
芝	-10.6517
訓練	-10.6518
甚矣	-10.6518
逃出	-10.6519
朋黨	-10.652
羡	-10.6521
数	-10.6521
擲	-10.6522
所聞	-10.6526
勉之	-10.6528
士誠	-10.6529
諸葛	-10.653
被圍	-10.6533
自有	-10.6537
親信	-10.6541
亦多	-10.6544
一等	-10.6545
蜀主	-10.6546
聲息	-10.6553
以濟	-10.6554
建昌	-10.6559
思明	-10.6559
兵革	-10.6561
軒	-10.6563
闗係	-10.6565
雖不	-10.6566
圍城	-10.6566
不日	-10.6568
有㫖	-10.6568
禁中	-10.6569
以示鼓勵	-10.6571
於我	-10.6571
而東	-10.6573
其兵	-10.6576
殄	-10.6576
鮮卑	-10.6578
堤	-10.6578
車輛	-10.6578
觔	-10.6581
賢能	-10.6584
購買	-10.6587
前驅	-10.6589
承辦	-10.6592
不取	-10.6594
管子	-10.6594
黙然	-10.6596
杭	-10.6599
兵敗	-10.6601
首級	-10.6601
誅戮	-10.6603
濟河	-10.6605
此之謂	-10.6608
亦著	-10.661
月餘	-10.6611
之業	-10.6611
留於	-10.6611
示以	-10.6612
侍從	-10.6614
朝政	-10.6619
必得	-10.6621
紀山	-10.6622
兵五千	-10.6624
亡也	-10.6627
以獻	-10.6628
也是故	-10.6629
三年春正月	-10.6632
等謹按	-10.6633
丈夫	-10.6634
監察御史	-10.6635
帝王	-10.6636
紿	-10.6636
枚	-10.6639
陂	-10.664
嫡	-10.664
叛逆	-10.6641
卿大夫	-10.6641
中國之	-10.6643
與子	-10.6644
筠	-10.6644
汙	-10.6646
賊兵	-10.6646
疾病	-10.6647
你	-10.6648
實心	-10.6653
大亂	-10.6653
酋長	-10.6659
攻戰	-10.6659
戰死	-10.6659
撥給	-10.6664
胄	-10.6665
達爾	-10.6666
聰明	-10.6667
不難	-10.6668
良臣	-10.667
不敬	-10.6671
所供	-10.6671
得一	-10.6672
上意	-10.6673
乃復	-10.6674
不去	-10.6674
計議	-10.6675
成衮扎布等	-10.6679
乗間	-10.668
啟行	-10.6684
果有	-10.6685
給之	-10.6685
鄂爾昆	-10.6694
誡	-10.6697
顥	-10.6697
秦秦	-10.6698
販	-10.6699
徳州	-10.67
故不	-10.6702
四十里	-10.6702
迭	-10.6704
中書侍郎	-10.6704
功臣	-10.6705
迪	-10.6706
稽首	-10.671
使我	-10.6713
擒之	-10.6715
員外	-10.6716
所親	-10.672
妄行	-10.672
員弁	-10.6723
之弊	-10.6723
東平	-10.6733
方略	-10.6739
有天下	-10.6743
以討	-10.6746
不亦	-10.6751
議事	-10.6752
渥	-10.6752
人者	-10.6753
請和	-10.6755
事者	-10.6755
慧	-10.6755
友諒	-10.6756
引見	-10.6757
紀年	-10.6757
㪚	-10.6758
障	-10.676
渠魁	-10.676
辠	-10.676
賊犯	-10.676
洮	-10.6761
上怒	-10.6761
㤗	-10.6762
旦夕	-10.6764
巴圖爾額爾克濟農	-10.6765
緊要	-10.6766
步兵	-10.6768
矣若	-10.6768
居正	-10.6772
策布登扎布	-10.6772
大營	-10.6773
與人	-10.6774
非所以	-10.6775
隴西	-10.6776
毫	-10.6777
諭之曰	-10.6781
也王	-10.6782
二百名	-10.6786
乃還	-10.6788
等十	-10.6791
第二	-10.6795
䘚子	-10.6797
不少	-10.6799
耳今	-10.6799
保寧	-10.6801
也故曰	-10.6801
武公	-10.6808
議定	-10.6809
議政大臣	-10.6811
䇿布登扎布	-10.6813
桓子	-10.6814
和碩	-10.6816
揑	-10.6816
村庄	-10.682
建德	-10.682
不和	-10.682
即時	-10.6821
之舉	-10.6821
售	-10.6823
并力	-10.6823
二處	-10.6824
倪	-10.6825
而生	-10.6828
慟哭	-10.6832
故地	-10.6834
事勢	-10.6834
陜省	-10.6835
兩河	-10.6837
漢主	-10.6839
三名	-10.6844
勢必	-10.6849
五千人	-10.6853
三州	-10.6858
入宫	-10.686
招集	-10.6867
以防	-10.6867
之員	-10.6871
相望	-10.6872
茲	-10.6877
也於是	-10.6877
厄	-10.6879
若以	-10.6879
楚州	-10.688
挐	-10.6882
禮部尚書	-10.6884
僑	-10.6887
淹	-10.6887
蘇四十三	-10.6887
旂	-10.6887
翰林	-10.6889
卻	-10.689
有能	-10.689
仍留	-10.6892
帯領	-10.6893
义	-10.6894
延綏	-10.6895
棗	-10.6896
於市	-10.6896
說苑	-10.6897
潮州	-10.6898
道者	-10.6899
二帝	-10.6901
督兵	-10.6902
直言	-10.6904
致書	-10.6906
上黨	-10.6908
伯克等	-10.6909
作為	-10.691
多矣	-10.6911
得失	-10.6911
等曰	-10.6914
外其	-10.6919
用其	-10.6922
種地	-10.6923
集議	-10.6924
國君	-10.6926
相去	-10.6928
逆黨	-10.6928
曰今日	-10.6929
宦	-10.6932
兄子	-10.6935
無難	-10.6937
魯人	-10.6944
二十八	-10.6944
滿洲兵	-10.6948
譛	-10.6949
鉅	-10.695
槍	-10.6951
我我	-10.6951
又將	-10.6953
亶	-10.6954
證	-10.6954
房屋	-10.6955
儁	-10.6956
肝	-10.6957
事體	-10.6958
酌派	-10.6958
三省	-10.6959
不惟	-10.6959
可知	-10.6979
正當	-10.6981
當即	-10.6981
乎且	-10.6982
著𫝊諭	-10.6983
莊王	-10.6984
此亦	-10.6988
交割	-10.6988
奉命	-10.6995
亥	-10.6997
財用	-10.6998
甘心	-10.7
亦非	-10.7003
查奏	-10.7004
耦	-10.7005
拔達克山	-10.7008
繆	-10.7009
莊大田	-10.7009
不平	-10.7013
輅	-10.7014
等奏言臣等	-10.7015
愁	-10.7015
兵威	-10.7015
汚	-10.7017
敇	-10.7019
李成	-10.7019
道府	-10.7021
棄城走	-10.7022
交通	-10.7023
為王	-10.7029
奉聖㫖	-10.7029
也公	-10.703
天意	-10.703
前者	-10.7031
逃遁	-10.7032
閉門	-10.7036
可與	-10.7037
九千	-10.7037
汜	-10.7038
水軍	-10.7039
光世	-10.7043
三代	-10.7047
兩國	-10.7048
從逆	-10.7049
東路	-10.7053
將佐	-10.7055
太學	-10.7067
小臣	-10.7069
處之	-10.7072
曼	-10.7072
凝	-10.7075
慿	-10.7075
柯	-10.7076
劭	-10.7077
散騎常侍	-10.7078
叡	-10.7078
不滿	-10.7079
瑶	-10.7079
周之	-10.7079
統轄	-10.7079
瘠	-10.708
於天	-10.7081
俱令	-10.7082
於魏	-10.7083
宣府	-10.7083
獻公	-10.7084
仁宗	-10.7085
坎	-10.7085
駝馬	-10.7086
所留	-10.7086
句踐	-10.7087
滿漢官兵	-10.7092
大業	-10.7095
齊主	-10.7096
依舊	-10.71
些	-10.7104
采石	-10.7105
潭	-10.7106
元祐	-10.7107
斷其	-10.7112
軍法	-10.7117
赦之	-10.7118
生子	-10.7119
窮追	-10.7122
理應	-10.7123
佔	-10.7124
哈爾	-10.7125
懐光	-10.7127
臣愚	-10.7131
也昔	-10.7133
不納	-10.7133
而西	-10.7134
穆占	-10.7136
途次	-10.7138
犒	-10.7138
不妨	-10.7138
菜	-10.7139
悅	-10.7139
制置	-10.7141
雇	-10.7142
聊	-10.7144
殤	-10.7144
股肱	-10.7145
卦	-10.7146
也凡	-10.7147
較之	-10.7148
文帝	-10.7149
纓	-10.715
戰勝	-10.7153
其道	-10.7154
藩司	-10.7157
石頭	-10.7157
首惡	-10.7158
熟悉	-10.7159
使民	-10.716
死亡	-10.716
哨探	-10.7161
兵勢	-10.7162
上御	-10.7163
倉庫	-10.7163
即行正法	-10.7172
前軍	-10.7174
不聴	-10.7175
左翼	-10.7175
國有	-10.718
已將	-10.718
皆係	-10.7181
鄂拓克	-10.7183
京兆	-10.7186
李自成	-10.7186
隘口	-10.7187
則可	-10.7188
也何	-10.7189
奏入上諭軍機大臣曰	-10.7194
二十六年	-10.7194
獨不	-10.7197
所餘	-10.7197
有人	-10.7198
斷不	-10.7198
於四月	-10.7199
曷為	-10.7202
額爾齊斯	-10.7204
勑	-10.7206
繡	-10.7207
滿漢	-10.7207
馬明心	-10.7208
劔	-10.7211
征伐	-10.7212
上遣	-10.7219
乃召	-10.722
僕射	-10.7221
見於	-10.7222
欲殺	-10.7222
右丞	-10.7228
貴妃	-10.7229
陳侯	-10.7231
而好	-10.7232
來投	-10.7233
赴京	-10.7233
實在	-10.7235
將軍等	-10.7235
家語	-10.7236
蕩平	-10.7237
逼近	-10.7238
日乆	-10.7243
同時	-10.7244
攻破	-10.7248
萬騎	-10.7248
者所以	-10.725
燧	-10.7251
不可謂	-10.7253
八日	-10.7255
樞宻院	-10.7256
雖未	-10.7256
尚無	-10.726
之賢	-10.7262
何事	-10.7264
簡親王	-10.7264
六人	-10.7265
前奏	-10.7265
察哈爾兵	-10.7269
剖	-10.7271
禍亂	-10.7271
亾	-10.7271
劇	-10.7272
䇿凌	-10.7272
棲	-10.7276
臣僚	-10.7277
迎敵	-10.7279
設立	-10.7292
山後	-10.7293
范陽	-10.73
此案	-10.7304
六師	-10.7312
首尾	-10.7314
追𠞰	-10.7322
君子之	-10.7322
盾	-10.7323
不解	-10.7327
舉事	-10.7329
尼瑪	-10.7329
追賊	-10.7336
渙	-10.7337
摘	-10.734
怙	-10.7342
鞍	-10.7342
摺内	-10.7343
琰	-10.7344
衣食	-10.7344
卭	-10.7346
十有二	-10.7346
歆	-10.7346
營中	-10.7351
非常	-10.7351
髙宗	-10.7351
所調	-10.7357
辭以	-10.7362
民不	-10.7367
之機	-10.7372
斬獲	-10.7375
大砲	-10.7377
暫留	-10.738
從而	-10.7384
議敘	-10.7385
等語臣等	-10.7388
要路	-10.7389
要犯	-10.739
科爾沁	-10.7391
諸大臣	-10.7396
犀	-10.7401
若果	-10.7401
賊番	-10.7402
斗六門	-10.7403
蒐	-10.7404
城西	-10.7404
貽悞	-10.7405
之狀	-10.7406
刁	-10.7406
无咎	-10.7406
因循	-10.7408
詆	-10.7408
郡太守	-10.7409
國也	-10.7409
夫差	-10.741
駒	-10.7411
達爾漢	-10.7411
添派	-10.7412
又問	-10.7412
梓宫	-10.7413
都指揮	-10.7413
等至	-10.7413
敵兵	-10.7416
官職	-10.7416
主婦	-10.7416
干戈	-10.7416
旗下	-10.7418
宫人	-10.7418
以身	-10.7419
存貯	-10.7419
於内	-10.7429
江北	-10.743
來告	-10.7432
闕下	-10.7435
用命	-10.7436
慶復	-10.7445
及此	-10.7448
察其	-10.7449
近者	-10.745
善為	-10.7452
事畢	-10.7452
餘兵	-10.7454
賞銀	-10.7454
召見	-10.7455
瑟	-10.7459
稜	-10.7461
學者	-10.7462
森	-10.7465
懦	-10.7467
所以為	-10.7468
梯	-10.7469
鄖	-10.7469
拓	-10.7471
于成龍	-10.7471
姻	-10.7472
降㫖令	-10.7472
寮	-10.7473
濶	-10.7474
退縮	-10.7475
卵	-10.7476
殉	-10.7476
黄金	-10.7481
若水	-10.7481
亦皆	-10.7484
多方	-10.7488
乆矣	-10.7488
領之	-10.7488
矣乃	-10.7492
足矣	-10.7492
陜甘	-10.7495
棄城	-10.7495
芮	-10.75
下馬	-10.75
二十五年	-10.7503
吳越	-10.7503
戕	-10.7504
十餘里	-10.7507
二十七	-10.7508
為左	-10.7509
中書令	-10.7512
故有	-10.7512
譬	-10.7513
所掠	-10.7515
厲公	-10.7516
順天	-10.7522
五十里	-10.7523
濠州	-10.7523
是嵗	-10.7525
罪惡	-10.7525
殫	-10.7526
荆南	-10.7527
疇	-10.7528
皆死	-10.753
三四	-10.7534
瑗	-10.7535
油	-10.7536
熹	-10.7538
驢	-10.7538
扺	-10.7539
給發	-10.7539
汶	-10.754
㒺	-10.754
追擊	-10.7541
愷	-10.7541
貽誤	-10.7542
斷不可	-10.7542
索倫兵	-10.7542
壬	-10.7543
又欲	-10.7543
泣曰	-10.7543
一方	-10.7546
據險	-10.7547
劉氏	-10.755
治天下	-10.7551
亦不可	-10.7556
其一	-10.7562
自効	-10.7568
曰某	-10.757
州牧	-10.7571
為上	-10.7571
精騎	-10.7574
親率	-10.7575
必至	-10.7575
不拜	-10.7575
國家之	-10.7577
路徑	-10.7578
以為不可	-10.7579
四曰	-10.758
竣	-10.7581
乘間	-10.7584
千匹	-10.7584
調發	-10.7588
金城	-10.7589
曰諾	-10.7592
至尊	-10.7593
而行之	-10.7595
亦以	-10.7596
嶺南	-10.7596
縱兵	-10.7596
哩	-10.7597
君父	-10.7597
禘	-10.7602
有名	-10.7602
寂	-10.7602
猜	-10.7602
稻	-10.7602
矣然	-10.7603
䭾	-10.7604
終日	-10.7605
哈喇沙爾	-10.7605
圃	-10.7605
扇	-10.7607
㬥	-10.7608
榆林	-10.7609
衙門	-10.7609
表裏	-10.7609
肺	-10.761
本日	-10.761
脱逃	-10.761
屨	-10.7611
恐懼	-10.7617
于朝	-10.7619
鳯山	-10.762
不仁	-10.7621
丹津	-10.7622
李克用	-10.7624
其力	-10.7624
接到	-10.7625
光武	-10.7626
近臣	-10.7629
不守	-10.7632
孺子	-10.7633
謹按	-10.7635
荆襄	-10.7639
務宜	-10.7639
引去	-10.7642
將以	-10.7642
武功	-10.765
巴圖	-10.7651
其死	-10.7652
且言	-10.7653
閣下	-10.7655
以西	-10.7656
兆恵等	-10.7658
任事	-10.766
克圖	-10.766
何時	-10.7661
涕	-10.7663
䧏	-10.7665
直前	-10.7666
撫綏	-10.7668
尋常	-10.7668
政令	-10.767
拿獲	-10.7671
贄	-10.7673
墩	-10.7673
絞	-10.7674
又使	-10.7675
襃	-10.7675
外藩	-10.7677
㢘	-10.7678
來者	-10.7678
告于	-10.7679
扞	-10.7679
逆犯	-10.768
夷狄	-10.7683
以相	-10.7684
俘獲	-10.7684
非有	-10.7688
殺害	-10.769
已久	-10.769
屢經	-10.7693
億	-10.7693
即有	-10.7698
彰化	-10.7701
衛人	-10.7705
禆	-10.7706
達蘭	-10.7709
君王	-10.771
赴援	-10.7711
頓首	-10.7715
尚能	-10.7717
及諸	-10.7719
確實	-10.772
商議	-10.7722
渝	-10.7729
年羮堯	-10.7731
西河	-10.7731
頗羅鼐	-10.7738
羅卜藏丹津	-10.7739
煽惑	-10.7739
額林哈畢爾噶	-10.774
鱗	-10.7741
以南	-10.7742
婢	-10.7742
乎其	-10.7744
誑	-10.7745
煙	-10.7746
畢沅	-10.7747
糓	-10.775
撲滅	-10.775
叅政	-10.7751
擊敗之	-10.7755
出門	-10.7758
奏摺	-10.7762
同姓	-10.7762
今聞	-10.7765
歸國	-10.7767
緞	-10.7767
盡忠	-10.7768
之厄魯特	-10.7769
其能	-10.777
宗廟社稷	-10.7772
夷吾	-10.7773
兵内	-10.7774
之東	-10.7776
事機	-10.778
多有	-10.7781
魏人	-10.7784
六軍	-10.7785
奔走	-10.7797
䇿楞	-10.7801
欠	-10.7806
本無	-10.7806
酉	-10.7808
此㫖	-10.781
即係	-10.7815
鮑叔	-10.7815
拔之	-10.7815
福康安等	-10.7816
此非	-10.7816
臣子	-10.7817
穎	-10.7818
浮橋	-10.782
各屬	-10.7829
戎行	-10.7833
帝命	-10.7837
夏人	-10.7838
遼主	-10.7842
金陵	-10.7842
不令	-10.7844
等帶領	-10.7844
公私	-10.7844
分派	-10.785
幾何	-10.785
戰而	-10.7855
不正	-10.7857
示之	-10.7859
徃來	-10.786
遵行	-10.7862
邪教	-10.7864
二十四年	-10.7866
親屬	-10.7867
猶可	-10.7869
逋	-10.7872
為賊所	-10.7874
馬騾	-10.7876
河水	-10.7876
三朝北盟㑹編卷	-10.7878
二十一年	-10.7879
喧	-10.788
焚之	-10.7883
鹽水港	-10.7883
又命	-10.7885
當是時	-10.7888
張家口	-10.7889
二千餘人	-10.789
吉安	-10.7892
分給	-10.7893
等於	-10.7894
大水	-10.7898
派委	-10.7902
而往	-10.7903
三等侍衛	-10.7903
有衆	-10.7904
撫臣	-10.7905
曰非	-10.7905
未盡	-10.7907
潞	-10.791
日食	-10.7911
夜半	-10.7913
事竣	-10.7914
湖北	-10.7916
獻子	-10.7917
囘部	-10.792
俟其	-10.7922
之策	-10.7923
此則	-10.793
未足	-10.7935
阿里	-10.7939
北平	-10.794
其利	-10.794
留之	-10.7944
其行	-10.7944
霍罕	-10.7945
何足	-10.7946
乃得	-10.7948
扎拉豐阿	-10.795
奏言據	-10.795
膝	-10.7951
舖	-10.7952
廩	-10.7953
竈	-10.7954
易於	-10.7954
已成	-10.7954
泚	-10.7956
到京	-10.7956
以利	-10.7957
遁走	-10.796
左僕射	-10.796
和親	-10.796
以拒	-10.7963
保全	-10.7968
江上	-10.7969
思之	-10.7969
俱經	-10.7972
該犯等	-10.7972
鎮標	-10.7974
迎降	-10.7974
什物	-10.7974
逆戰	-10.7975
次于	-10.7979
羣盜	-10.7979
自以為	-10.7981
留駐	-10.7982
兼程	-10.7982
謂曰	-10.7985
避之	-10.7986
疑懼	-10.7989
有徳	-10.7992
議處	-10.7995
終始	-10.7997
太上皇	-10.7998
勒圖	-10.8005
曽經	-10.8007
将士	-10.8008
普爾普	-10.801
戰守	-10.8012
兵丁等	-10.8013
革去	-10.8013
四夷	-10.8014
城北	-10.8018
坡	-10.8019
儼	-10.802
説之	-10.802
實係	-10.8021
狎	-10.8021
单	-10.8023
瀛	-10.8023
鎬	-10.8023
士庶	-10.8026
訾	-10.8026
閘	-10.8027
不悦	-10.8028
平時	-10.8028
御筆	-10.8031
罪人	-10.8032
漁	-10.8032
旄	-10.8034
乃可	-10.8035
李氏	-10.8039
或以	-10.804
勇士	-10.8042
漢人	-10.8046
難於	-10.8046
自陳	-10.8053
吉凶	-10.8053
公議	-10.8058
二世	-10.806
降人	-10.8064
三尺	-10.8065
投出	-10.8065
蜀人	-10.8065
一案	-10.8067
其兄	-10.807
二十人	-10.807
其辭	-10.8071
癸	-10.8073
惶	-10.8078
不治	-10.808
朝服	-10.8081
孟子	-10.8085
即速	-10.8085
急攻	-10.8086
人所	-10.8086
達什達瓦	-10.8087
苞	-10.8088
漏網	-10.8089
剽	-10.8089
逃走	-10.8089
冢	-10.8091
悉以	-10.8092
利而	-10.8092
搭	-10.8092
䑓	-10.8092
臨時	-10.8093
酌議	-10.8093
㓕	-10.8093
餓	-10.8094
隰	-10.8094
忱	-10.8096
矣且	-10.8096
餌	-10.8097
槐	-10.8098
王使	-10.8101
趙盾	-10.8102
未嘗不	-10.8102
沿邊	-10.8103
人事	-10.8105
不避	-10.8105
九江	-10.8106
全軍	-10.8107
小心	-10.8107
俄而	-10.8109
施恩	-10.8114
紀律	-10.8114
一摺	-10.8119
集事	-10.8122
餘皆	-10.8124
智者	-10.8128
都監	-10.8129
君其	-10.813
諸將皆	-10.813
東昌	-10.8131
琛	-10.8131
始行	-10.8133
邊界	-10.8135
吴主	-10.8135
詣闕	-10.8138
中丞	-10.8139
所由	-10.8139
沂	-10.8139
王彦	-10.814
何益	-10.8142
乆之	-10.8143
𥙿	-10.8145
營伍	-10.8147
遣發	-10.815
成敗	-10.8152
區區	-10.8153
也上	-10.8154
兵攻	-10.8155
河上	-10.8156
其義	-10.8156
終身	-10.8156
上諭大學士曰	-10.8157
生而	-10.8157
和珅	-10.8158
遙	-10.8159
墳	-10.816
遺史曰	-10.8161
畋	-10.8161
樸	-10.8164
邈	-10.8165
募兵	-10.8165
鳳翔	-10.8166
滄	-10.8168
殽	-10.8169
機㑹	-10.8173
牲口	-10.8177
孝公	-10.8178
天津	-10.8178
添調	-10.8179
然也	-10.818
征討	-10.818
定公	-10.818
分起	-10.8182
奉迎	-10.8183
年少	-10.8188
之孫	-10.819
草料	-10.819
遵照	-10.8191
行宻	-10.8192
右翼	-10.8192
棄其	-10.8192
分為	-10.8194
緑營	-10.8195
以避	-10.8199
坐視	-10.82
進至	-10.8206
即遣	-10.8206
又奏言	-10.8207
襲擊	-10.8208
南昌	-10.8214
何罪	-10.8214
濟農	-10.8214
平原君	-10.8216
綰	-10.8223
奄	-10.8226
聖王	-10.8228
球	-10.8228
引兵還	-10.8229
摯	-10.8229
行者	-10.8229
國書	-10.823
上諭大學士等曰	-10.8231
戀	-10.8232
慝	-10.8232
撒	-10.8233
揔	-10.8235
懾	-10.8235
斬其	-10.8235
岀	-10.8236
之門	-10.8237
夀張	-10.8238
憎	-10.824
廷尉	-10.8243
邕	-10.8244
各官	-10.8244
三處	-10.8244
宣示	-10.8244
晏子曰	-10.8244
蔡攀龍	-10.8247
用人	-10.8248
今日之事	-10.8248
前已	-10.8252
候㫖	-10.8252
赤子	-10.8253
申諭	-10.8254
逃歸	-10.8259
辦給	-10.8259
克復	-10.8263
奏至	-10.8264
無用	-10.8265
盡心	-10.8266
烏梁海等	-10.8269
二百餘人	-10.827
更始	-10.8276
齊桓公	-10.8276
神農	-10.8278
獻之	-10.8279
督師	-10.8283
惟恐	-10.8298
有二	-10.83
議政諸臣	-10.8301
王安石	-10.8303
躡	-10.8306
不修	-10.8306
四路	-10.8307
無為	-10.8308
龔	-10.8311
羅卜臧	-10.8312
組	-10.8312
協助	-10.8314
晞	-10.8314
鳥獸	-10.8316
羮	-10.8316
明瑞等	-10.8318
足敷	-10.832
模	-10.832
戰艦	-10.8321
以從	-10.8322
成子	-10.8322
承疇	-10.8323
黄巢	-10.8326
從來	-10.8327
不須	-10.833
先登	-10.8332
州知州	-10.8332
退屯	-10.8333
以東	-10.8334
六七	-10.8338
一家	-10.8344
以禦	-10.8345
嘆	-10.8348
行宫	-10.8349
於王	-10.8351
骸	-10.8352
川陜	-10.8352
許以	-10.8354
開封	-10.8355
蔓延	-10.8357
一靣	-10.8358
季子	-10.8361
江寧	-10.8361
勞績	-10.8361
相攻	-10.8364
叅領	-10.8364
三百名	-10.8366
治兵	-10.8367
軍至	-10.8369
永貴等	-10.8371
乎曰	-10.8373
頡	-10.8377
陜甘總督	-10.8378
内閣	-10.8379
黨壩	-10.8379
漳泉	-10.838
藪	-10.8381
駁	-10.8382
驚擾	-10.8384
上問	-10.8385
旗幟	-10.8385
熒惑	-10.8385
呼曰	-10.8385
烹	-10.8385
於地	-10.8386
奮擊	-10.8386
可疑	-10.8387
御營	-10.8388
堅壁	-10.8391
銑	-10.8392
有常	-10.8394
視其	-10.8394
解圍	-10.8396
大臣官員	-10.8396
後宫	-10.8398
人多	-10.8401
鄉勇	-10.8403
招安	-10.8403
戎狄	-10.8403
薊	-10.8404
懇請	-10.8407
也是	-10.8411
之孫也	-10.8414
黎明	-10.8415
急公	-10.8416
叛賊	-10.8417
權知	-10.8422
無私	-10.8426
悔之	-10.8428
道成	-10.8428
彼必	-10.8429
去矣	-10.8429
接續	-10.843
流民	-10.843
輟	-10.843
奪獲	-10.8436
百餘里	-10.8436
哈什哈	-10.8437
阿蘭泰	-10.8437
三子	-10.8438
漠	-10.8438
照數	-10.8438
應付	-10.844
而君	-10.8443
易之	-10.8445
而動	-10.8451
方畧	-10.8451
一帯	-10.8452
鹿仔草	-10.8452
䖏	-10.8452
鑾	-10.8453
綴	-10.8453
屯於	-10.8454
回子	-10.8454
蠧	-10.8454
魄	-10.8458
婚	-10.8458
慘	-10.846
轂	-10.846
曰請	-10.8461
不可勝計	-10.8461
於五月	-10.8464
舊城	-10.8465
抵禦	-10.8466
桀紂	-10.8466
一城	-10.8466
不能自	-10.8466
遂殺	-10.8469
召公	-10.847
㑹於	-10.8472
母弟	-10.8472
項羽	-10.8473
滎陽	-10.8476
邊外	-10.8481
得勝	-10.8485
乘馬	-10.8488
有言	-10.8492
以觀	-10.85
山下	-10.8501
是其	-10.8506
治國	-10.8508
雍正	-10.8511
供出	-10.8512
遂入	-10.8514
馬爾賽	-10.852
愛隆阿	-10.8523
推諉	-10.8524
降之	-10.8524
猶在	-10.8524
邀擊	-10.8524
秦兵	-10.8525
魏大斌	-10.8525
軍兵	-10.8526
栢	-10.8526
跳	-10.8527
吝	-10.8527
泌	-10.8527
彞	-10.8528
璟	-10.8529
承天	-10.8529
楹	-10.853
瑛	-10.8531
噐	-10.8532
尅期	-10.8532
跨	-10.8533
羙	-10.8533
從弟	-10.8534
三司	-10.8534
巻	-10.8535
聦	-10.8536
种師道	-10.8537
雲梯	-10.8537
答曰	-10.854
克魯倫	-10.854
蠱	-10.8541
呈報	-10.8542
三分	-10.8543
起居	-10.8545
劉錡	-10.8545
出塞	-10.8547
咨稱	-10.8556
輓運	-10.8556
數十里	-10.8558
官弁	-10.8559
明主	-10.8559
二十里	-10.856
七萬	-10.8564
至意	-10.8565
供應	-10.8566
擁衆	-10.8567
軍政	-10.8567
以北	-10.8567
戮力	-10.8569
屯聚	-10.8573
撫之	-10.8581
無辜	-10.8583
將相	-10.8583
調用	-10.8586
悼公	-10.8586
暫駐	-10.8586
敘	-10.8587
䇿旺喇卜灘	-10.8592
太常	-10.8594
曰無	-10.8595
鬱	-10.8598
淪	-10.8599
都綂	-10.86
諧	-10.8601
誰能	-10.8602
昬	-10.8602
瓚	-10.8602
卯	-10.8603
拳	-10.8604
二十三年	-10.8605
隐	-10.8605
追襲	-10.8606
綦	-10.8606
繒	-10.8606
𤓰	-10.8607
蕆事	-10.8608
大將軍費揚古	-10.861
曰何	-10.861
椿	-10.861
既定	-10.861
至則	-10.8612
一百二十	-10.8612
潛逃	-10.8615
小醜	-10.8621
以謂	-10.8621
直入	-10.8621
勦賊	-10.8623
其氣	-10.8623
部將	-10.8629
之形	-10.8629
領軍	-10.8637
别將	-10.8644
欲令	-10.8645
字子	-10.8647
督戰	-10.8647
三十餘	-10.8651
乃退	-10.8653
楚公子	-10.8655
雲貴	-10.8655
而前	-10.8657
治亂	-10.8657
喀爾喀等	-10.8659
在軍營	-10.8661
嚕	-10.8662
制勝	-10.8664
陛下之	-10.8664
捐軀	-10.8669
宗人	-10.867
來犯	-10.8671
長孫	-10.8674
塔爾巴噶台	-10.8674
諸大夫	-10.8675
接戰	-10.8675
逺矣	-10.8676
諤	-10.8677
復位	-10.8679
葦	-10.868
琪	-10.868
渤海	-10.868
派令	-10.8681
懽	-10.8683
鉏	-10.8683
霑	-10.8684
瞽	-10.8684
淮甸	-10.8684
焚燒	-10.8685
迂	-10.8685
王氏	-10.8686
二十三	-10.8688
之位	-10.8691
之於是	-10.8692
涇原	-10.8693
郭藥師	-10.8697
必將	-10.8697
車騎	-10.8698
一心	-10.8701
是何	-10.8701
設伏	-10.8704
如齊	-10.8706
委署	-10.871
存留	-10.8711
亦係	-10.8711
臨安	-10.8712
海上	-10.8715
國王	-10.8716
即使	-10.8718
軍門	-10.8724
州諸軍事	-10.8726
之罪也	-10.8727
之辭	-10.8727
猶豫	-10.8728
兵法	-10.8731
興元	-10.8731
伏思	-10.8735
部郎中	-10.8735
聖恩	-10.8735
和州	-10.874
金使	-10.874
又奏	-10.8741
逃去	-10.8741
廂	-10.8742
大抵	-10.8743
也陛下	-10.8745
趙孟	-10.8748
蹇	-10.875
大河	-10.8751
戕害	-10.8752
兩宫	-10.8753
帳房	-10.8754
之始	-10.8755
内應	-10.8755
抜	-10.8755
膚	-10.8755
廪	-10.8756
鄰國	-10.8756
汰	-10.8757
挽	-10.8758
非其	-10.8758
祉	-10.8758
平涼	-10.8758
仆	-10.8759
鄧州	-10.8759
殄滅	-10.8762
之戒	-10.8765
亦何	-10.8765
食盡	-10.8767
大夏	-10.8769
周人	-10.8769
知所	-10.8771
已降㫖	-10.8771
其數	-10.8771
三桂	-10.8771
而使	-10.8773
商賈	-10.8774
國用	-10.8781
始得	-10.8782
北京	-10.8782
百匹	-10.8785
君子曰	-10.8789
利也	-10.879
努	-10.8792
之節	-10.8794
謀之	-10.8794
至巴里坤	-10.8796
敗績	-10.8798
詳加	-10.8799
所司	-10.88
二十七年	-10.8803
者乃	-10.8803
事不	-10.8803
從征	-10.8807
王后	-10.8811
無疆	-10.8811
踪	-10.8813
者無	-10.8816
然之	-10.882
興安	-10.8821
素與	-10.8821
三國	-10.8821
其徳	-10.8822
達頼喇嘛	-10.8822
來援	-10.8822
冀州	-10.8823
萇	-10.8827
標兵	-10.8827
而忘	-10.8829
於周	-10.883
相州	-10.8831
豚	-10.8831
湯武	-10.8831
狼狽	-10.8831
註	-10.8831
甲士	-10.8831
乃出	-10.8832
拊	-10.8834
迺	-10.8834
脊	-10.8835
幷	-10.8835
濕	-10.8836
淵聖	-10.8836
影	-10.8838
喜曰	-10.8839
竿	-10.8839
于齊	-10.8839
請令	-10.8843
梓	-10.8843
陵寢	-10.8849
不甚	-10.8851
屯練	-10.8852
驍	-10.8855
有變	-10.8856
飛咨	-10.8857
六萬	-10.8858
義也	-10.8861
一半	-10.8862
小子	-10.8862
大半	-10.8863
統軍	-10.8864
中使	-10.8869
多人	-10.8869
出迎	-10.887
披甲	-10.8871
二十一	-10.8872
予之	-10.8873
率其	-10.8873
迄	-10.8875
先期	-10.8876
們	-10.8882
提標	-10.8883
雨雪	-10.8886
之徳	-10.8889
愛民	-10.8891
弗許	-10.8891
二十二	-10.8892
其私	-10.8893
通好	-10.8893
國法	-10.8895
奉諭㫖	-10.8897
叔向曰	-10.8897
挖	-10.8898
富寧安	-10.89
額爾徳尼	-10.89
涪	-10.8901
照料	-10.8902
團	-10.8902
土黙特	-10.8909
釣	-10.8909
綵	-10.8909
撫定	-10.891
縱火	-10.891
侑	-10.891
王亶望	-10.8912
官司	-10.8912
戯	-10.8913
又恐	-10.8913
剽掠	-10.8915
粥	-10.8915
評	-10.8918
從軍	-10.8921
外内	-10.8922
問其	-10.8923
廢立	-10.8924
者何也	-10.8927
照管	-10.8928
亦宜	-10.8928
曰有	-10.8929
知祥	-10.893
因以	-10.8932
我以	-10.8933
馬兵	-10.8934
讀書	-10.8936
輔國	-10.8937
遣還	-10.894
送到	-10.8942
不能制	-10.8942
幸而	-10.8948
之失	-10.8949
為界	-10.8951
以通	-10.8952
萬邦	-10.8952
君而	-10.8953
亡命	-10.8953
國無	-10.8956
投順	-10.8957
東下	-10.8957
有何	-10.8962
非不	-10.897
為國家	-10.897
奪之	-10.8977
行間	-10.8979
也言	-10.898
訓諭	-10.898
一道	-10.898
廼	-10.898
兩人	-10.8982
泛	-10.8982
汎	-10.8982
世職	-10.8984
從其	-10.8985
綠旗	-10.8987
又諭	-10.8989
閏月	-10.8989
江浙	-10.8989
釗	-10.8991
擔	-10.8991
簡子	-10.8991
覇	-10.8992
部衆	-10.8992
鄫	-10.8992
深為	-10.8995
奬賞	-10.8997
價值	-10.8997
從中	-10.8999
于此	-10.9002
必當	-10.9003
貨物	-10.9003
甚近	-10.9005
不救	-10.9006
長樂	-10.901
復來	-10.901
俱行	-10.9011
五路	-10.9014
功成	-10.9014
待罪	-10.9014
元忠	-10.9016
門之外	-10.9019
曰天下	-10.9028
倦	-10.9031
守偹	-10.9034
銀絹	-10.9036
皇天	-10.9038
十數	-10.904
遣其子	-10.9045
乃自	-10.9047
號為	-10.9049
師于	-10.905
歸降	-10.9051
有異	-10.9051
紇	-10.9054
東魏	-10.9055
險要	-10.9057
誘之	-10.9059
兵五百	-10.906
不親	-10.906
招討	-10.9061
殂	-10.9061
給事	-10.9062
禎	-10.9062
所派	-10.9062
先事	-10.9063
行省	-10.9064
零星	-10.9064
顏	-10.9064
彘	-10.9064
稼	-10.9065
賊已	-10.9065
策凌	-10.907
五十餘	-10.9071
磔	-10.9071
所存	-10.9072
以問	-10.9075
艘	-10.9075
不一	-10.9075
雖已	-10.9075
有四	-10.9075
陳氏	-10.9078
前来	-10.9081
異日	-10.9083
本處	-10.9084
其在	-10.9091
四名	-10.9092
未獲	-10.9093
查核	-10.9095
乏食	-10.9095
張皇	-10.9099
退走	-10.9099
安親王	-10.9099
蔡州	-10.9099
負恩	-10.9101
不果	-10.9102
次之	-10.9102
賠	-10.9103
但恐	-10.9105
顓頊	-10.9106
城陷	-10.9112
其將	-10.9115
實無	-10.9116
從官	-10.9117
出境	-10.9118
霍集斯	-10.9118
衞侯	-10.912
入蜀	-10.9123
遣使者	-10.9123
進討	-10.9123
通行	-10.9124
甚急	-10.9124
中官	-10.9125
一節	-10.9127
二十二年	-10.9127
爲之	-10.9129
朕以	-10.9129
該員	-10.9129
不道	-10.9133
袁州	-10.9136
隗	-10.9137
丹津俄木布	-10.9137
進逼	-10.9138
元帥府	-10.9139
電	-10.9139
渚	-10.914
翠	-10.9142
泰等	-10.9142
陳蔡	-10.9142
蓬	-10.9143
繋	-10.9144
黨羽	-10.9144
頥	-10.9145
昂	-10.9146
二國	-10.9147
后稷	-10.9147
五岱	-10.915
頡利	-10.9152
無一人	-10.9153
而遣之	-10.9154
協辦	-10.9155
水旱	-10.9156
於二月	-10.9164
往諭	-10.9167
不得已而	-10.9167
哈喇	-10.9169
紀綱	-10.917
之末	-10.917
曩	-10.9175
各一	-10.9175
孫子	-10.9175
周詳	-10.9175
兵馬使	-10.9176
不來	-10.918
勇往	-10.9184
必勝	-10.9187
該撫	-10.9188
五行	-10.919
涇	-10.9191
師曠	-10.9193
撥兵	-10.9193
一國	-10.9194
特遣	-10.9194
而不敢	-10.9195
可以為	-10.9197
不孝	-10.9201
子為	-10.9201
不生	-10.9203
金人攻	-10.9204
當此	-10.9204
䕶軍校	-10.9205
以定	-10.9205
亦難	-10.9205
額駙	-10.9206
勿使	-10.9207
王孫	-10.9207
通事	-10.921
十餘日	-10.921
衛將軍	-10.921
二百餘	-10.9211
等即	-10.9214
經營	-10.9215
惟陛下	-10.9216
覔	-10.922
版	-10.922
竄入	-10.9221
㐮	-10.9221
昱	-10.9222
左軍	-10.9222
恂	-10.9222
昨據	-10.9222
接壤	-10.9222
死傷	-10.9223
顗	-10.9224
之長	-10.9224
個	-10.9225
爛	-10.9225
即與	-10.9226
大敗之	-10.9228
厚恩	-10.9229
蠡	-10.9229
等議	-10.923
高麗	-10.9231
備禦	-10.9234
署副都統	-10.9234
伏乞	-10.9235
出自	-10.9236
該管	-10.9237
汝南	-10.9239
涇州	-10.924
城南	-10.9241
五帝	-10.9241
察之	-10.9241
落職	-10.9243
平州	-10.9245
靈王	-10.9246
効力贖罪	-10.9248
是年	-10.9249
大名	-10.9249
大潰	-10.925
二十六	-10.925
隨之	-10.9253
又請	-10.9256
鄉里	-10.9258
其半	-10.9263
入門	-10.9263
監司	-10.9267
手足	-10.927
始知	-10.9271
不早	-10.9272
黄門	-10.9274
怒而	-10.9274
扎薩克台吉	-10.9275
求救於	-10.9275
監禁	-10.9275
之親	-10.9275
文徳	-10.9281
謀逆	-10.9283
装	-10.9285
乎夫	-10.9291
噶爾丹策零	-10.9292
之弟也	-10.9293
㕘贊	-10.9294
伴	-10.9295
保守	-10.9297
皆降	-10.9299
額駙策凌	-10.9299
騷擾	-10.9299
無極	-10.9299
拆	-10.9299
太皇太后	-10.93
收服	-10.9302
矧	-10.9302
搖	-10.9303
齊齊	-10.9304
左丞	-10.9305
羿	-10.9306
公爵	-10.9306
緡	-10.9308
臘	-10.9309
盥	-10.931
聽之	-10.9312
闡	-10.9313
十分	-10.9315
弑君	-10.9315
軍興	-10.9319
汴京	-10.9319
不能支	-10.9319
一百五十	-10.9319
六合	-10.9321
正也	-10.9322
李邦彦	-10.9323
統率	-10.9323
將何	-10.9328
慶封	-10.9328
聚集	-10.9329
蹕	-10.9331
民無	-10.9333
聽命	-10.9336
暫停	-10.9336
相拒	-10.9337
不可得	-10.9338
可令	-10.9339
進藏	-10.9339
酌撥	-10.9342
殺掠	-10.9342
本省	-10.9345
服之	-10.9346
王王	-10.9352
朕思	-10.9352
乗之	-10.9352
不敢進	-10.9355
受降	-10.9357
金玉	-10.9358
無備	-10.9363
擒賊	-10.9365
以取	-10.9366
得傷	-10.9368
觀察使	-10.937
亦令	-10.937
入海	-10.9372
乎今	-10.9372
郵	-10.9373
濵	-10.9373
兵已	-10.9377
擄	-10.9378
有年	-10.9379
縀	-10.9379
叠	-10.938
祖父	-10.938
譁	-10.9381
穢	-10.9383
必不能	-10.9384
曰寡君	-10.9384
亡者	-10.9385
若夫	-10.9386
無疑	-10.9388
臭	-10.9388
昶	-10.9389
則天下	-10.939
雖無	-10.939
惠公	-10.9395
彧	-10.9398
奔潰	-10.9403
之虞	-10.9404
璽書	-10.9404
之福	-10.9405
奉詔	-10.9408
率之	-10.9413
有備	-10.9414
五名	-10.9418
何地	-10.9418
數百里	-10.942
於六月	-10.9422
既成	-10.9423
以守	-10.943
此意	-10.9435
於後	-10.9436
春王正月	-10.9437
截殺	-10.9438
賊中	-10.944
天祥	-10.9443
恃其	-10.9446
訊問	-10.9446
勸進	-10.9446
輸誠	-10.9449
蘆	-10.9451
攻其	-10.9451
不無	-10.9453
怨望	-10.9453
可使	-10.9454
去其	-10.9456
息民	-10.9456
二十九年	-10.9457
稍稍	-10.9458
冡	-10.9459
疫	-10.946
于晉	-10.9461
襄子	-10.9462
即由	-10.9462
安知	-10.9462
二十九	-10.9463
摶	-10.9465
萃	-10.9465
故君子	-10.9466
人力	-10.9468
審明	-10.9469
乳	-10.9469
靳	-10.947
堰	-10.947
逆酋	-10.9471
刼掠	-10.9474
扈從	-10.9476
年老	-10.9476
千萬	-10.9479
失所	-10.9481
不誅	-10.9481
州軍	-10.9482
督辦	-10.9482
文侯	-10.9484
覲	-10.9485
旌旗	-10.9485
所當	-10.9488
神宗	-10.9491
諸縣	-10.9493
縊	-10.9495
佐之	-10.9495
到齊	-10.95
罪狀	-10.9501
降諭㫖	-10.9502
統制官	-10.9503
公至自	-10.9504
五曰	-10.9504
雖多	-10.9507
建炎	-10.9509
師中	-10.9509
南下	-10.951
爾圖	-10.9511
危急	-10.9513
謂我	-10.9514
相遇	-10.9515
擁兵	-10.9517
我也	-10.9518
沛公	-10.952
惡其	-10.9521
和碩齊	-10.9523
無過	-10.9523
朝臣	-10.953
之圍	-10.9531
琨	-10.9534
不愛	-10.9537
仁者	-10.9541
額爾克	-10.9541
無主	-10.9541
整頓	-10.9543
二帥	-10.9544
亡國	-10.9544
四出	-10.9546
霽	-10.9549
阿渾	-10.9552
同謀	-10.9552
騫	-10.9553
北伐	-10.9554
二三子	-10.9555
交趾	-10.9558
配渡	-10.9558
按名	-10.9562
大掠	-10.9563
吳人	-10.957
任意	-10.9571
主簿	-10.9575
總統	-10.9575
甚屬可嘉	-10.9575
動支	-10.9578
之先	-10.9578
以供	-10.958
之論	-10.9581
殿中	-10.9584
晉楚	-10.9585
之便	-10.9586
還朝	-10.9587
至誠	-10.9591
一千二百	-10.9592
陪	-10.9593
神人	-10.9596
附和	-10.9598
遇之	-10.9598
愍	-10.96
軍使	-10.9602
懼而	-10.9602
舊制	-10.9603
即在	-10.9608
魯國	-10.961
著賞給	-10.9611
欲自	-10.9612
善之	-10.9613
死矣	-10.9616
行陣	-10.9617
兵二萬	-10.9618
並進	-10.9618
宗澤	-10.9618
自來	-10.9619
梧	-10.9619
何至	-10.9621
滚	-10.9623
復還	-10.9624
禮部侍郎	-10.9625
追擒	-10.9625
帽	-10.9626
周元理	-10.9626
經略大學士傅恒	-10.9626
覃	-10.9628
架	-10.9629
擕	-10.9629
拯	-10.963
恚	-10.963
喀喇	-10.9631
朝廷以	-10.9632
磬	-10.9632
調取	-10.9633
冥	-10.9633
寒暑	-10.9633
傅玉	-10.9633
兵部侍郎	-10.9634
今欲	-10.9634
額爾	-10.9634
襲之	-10.9635
戰國䇿	-10.9635
詳細	-10.9636
迥	-10.9637
國子	-10.964
智伯	-10.9641
而遁	-10.9641
明矣	-10.9641
二十餘人	-10.9644
格隆	-10.9644
首先	-10.965
其親	-10.9652
行而	-10.9652
人亦	-10.9659
請命	-10.966
傳檄	-10.966
再查	-10.9663
星速	-10.9665
州人	-10.9666
有寵於	-10.9671
藍翎侍衛	-10.9672
逺來	-10.9672
於下	-10.9675
隨征	-10.9679
識者	-10.9679
頃之	-10.968
通州	-10.9684
於大	-10.9693
心腹	-10.9699
無子	-10.9699
墨子	-10.97
丑	-10.9703
安平	-10.9705
令伊等	-10.9707
天祐	-10.9709
來奔	-10.971
遵照辦理	-10.9713
餒	-10.9713
逆首	-10.9713
首逆	-10.9713
佐食	-10.9714
而亡	-10.9715
勞而	-10.9715
以外	-10.9716
朝士	-10.9716
於本月	-10.9717
檢校	-10.972
副總管	-10.9721
之號	-10.9721
其前	-10.9721
翁金	-10.9726
并州	-10.9728
忻	-10.9729
殊屬	-10.9731
大者	-10.9732
不給	-10.9732
昔嶺	-10.9732
之要	-10.9733
患病	-10.9735
九卿	-10.9736
自固	-10.9737
馳驛前往	-10.9737
左右皆	-10.9739
鄂州	-10.9744
何㮚	-10.9745
之說	-10.9746
師古	-10.9746
統之	-10.9746
十餘年	-10.9747
右衞	-10.9747
誠能	-10.9748
樞密使	-10.975
桓公曰	-10.975
全無	-10.975
責之	-10.9753
不多	-10.9754
擾害	-10.9754
等率兵	-10.9755
氛	-10.9756
文學	-10.9757
吉林	-10.976
特命	-10.9761
照常	-10.9762
還至	-10.9767
道之	-10.9768
手詔	-10.9769
尋陽	-10.977
克魯倫河	-10.9776
官兵義民	-10.9778
去嵗	-10.9778
困於	-10.9782
君若	-10.9782
陽虎	-10.9783
譟	-10.9785
塞外	-10.9785
詔曰	-10.9785
牡	-10.9786
廓	-10.9789
曰天子	-10.9789
元昊	-10.979
顆	-10.9792
喀喇沁	-10.9792
貂	-10.9793
上又命軍機大臣傳諭	-10.9794
泓	-10.9795
入官	-10.9795
脇	-10.9796
村莊	-10.9797
參贊大臣	-10.9798
倣	-10.9798
甄	-10.9798
鞠	-10.98
胸	-10.9802
嶠	-10.9804
大風	-10.9805
約有	-10.9805
問之曰	-10.9806
攷	-10.9806
阿喇	-10.9807
七十餘	-10.9808
不知也	-10.981
珠玉	-10.9812
數里	-10.9812
知也	-10.9813
堂邑	-10.9813
恩㫖	-10.9814
𫝊諭	-10.9816
上諭兵部	-10.9817
中尉	-10.9817
之謂也	-10.9817
藩鎮	-10.9821
為己	-10.9821
入冦	-10.9825
甚大	-10.9826
民有	-10.9827
有成	-10.9828
以實	-10.9828
等州	-10.9831
欲為	-10.9832
失色	-10.9832
一身	-10.9833
五十名	-10.9834
帥騎	-10.9835
罷之	-10.9836
之族	-10.9836
深知	-10.9845
必為	-10.9846
之官	-10.9847
將何以	-10.9849
今乃	-10.985
之職	-10.9853
護軍	-10.9854
黨與	-10.9856
步騎	-10.9859
喇特	-10.9859
人為	-10.9869
新降	-10.987
選擇	-10.9872
往見	-10.9873
瘦	-10.9873
馴	-10.9874
滌	-10.9874
絰	-10.9875
纛	-10.9876
額林沁	-10.9876
好惡	-10.9877
索諾木	-10.9878
葉爾羌喀什噶爾	-10.9878
涸	-10.988
毗	-10.9881
贓	-10.9881
先入	-10.9883
都虞候	-10.9884
領催	-10.9884
諂	-10.9884
安慶	-10.9884
笞	-10.9885
醴	-10.9885
沙漠	-10.9888
處置	-10.9891
九日	-10.9893
重賞	-10.9895
苴	-10.9896
頗多	-10.9897
忠孝	-10.9906
請罪	-10.9907
通融	-10.9909
該督撫	-10.991
故道	-10.9913
問其故	-10.9915
舒赫徳等	-10.9916
奔竄	-10.9917
事宜上諭軍機大臣曰據	-10.9918
國政	-10.9918
防秋	-10.9922
入境	-10.9923
廆	-10.9924
畆	-10.9925
謝罪	-10.993
悉力	-10.9931
而哭	-10.9933
反位	-10.9934
黑龍江	-10.9935
報國	-10.9936
皆可	-10.9936
上有	-10.9937
遣大臣	-10.9938
之至也	-10.9939
趙鼎	-10.994
班珠爾	-10.9941
何憂	-10.9942
西山	-10.9942
蔡侯	-10.9942
文書	-10.9942
也然則	-10.9945
貧民	-10.995
延安	-10.9951
提鎮	-10.9955
阮	-10.9959
奭	-10.9961
著授為	-10.9964
之具	-10.9964
為要	-10.9965
迴	-10.9965
謟	-10.9965
琅玕	-10.9965
郁	-10.9965
召還	-10.9967
其狀	-10.9968
大戰	-10.997
尼瑪哈	-10.997
譲	-10.9972
公使	-10.9973
芬	-10.9973
回人等	-10.9975
録曰	-10.9976
照看	-10.9977
善後事宜	-10.9981
俶	-10.9981
諳	-10.9984
四五	-10.9987
使副	-10.9987
山陽	-10.9989
糾衆	-10.9989
分駐	-10.9989
不敢復	-10.999
延慶	-10.9992
公室	-10.9995
縱横	-10.9995
二千五百	-10.9996
以治	-10.9997
以明	-10.9997
官兵等	-11
擾亂	-11.0003
名為	-11.0004
尚存	-11.0005
國而	-11.0012
入援	-11.0013
以昭	-11.0014
不能用	-11.0015
者甚衆	-11.0017
舊教	-11.002
子儀	-11.0021
矣又	-11.0026
以時	-11.0027
火器	-11.003
兵亦	-11.0032
轉運使	-11.0035
穆爾	-11.0037
爵禄	-11.0038
仰體	-11.0039
太保	-11.0039
報之	-11.004
魯君	-11.0042
羅卜藏	-11.0044
何能	-11.0048
責其	-11.0048
葵	-11.005
以謝	-11.0051
東川	-11.0051
仇池	-11.0051
收穫	-11.0053
搗	-11.0053
片	-11.0054
巡檢	-11.0054
不遣	-11.0055
强敵	-11.0055
栅	-11.0056
糗糧	-11.0057
安居	-11.0058
貢賦	-11.006
晉之	-11.0061
搬	-11.0061
列子	-11.0062
二犯	-11.0064
後軍	-11.0065
宋徐夢莘撰炎興下帙起	-11.0065
七八	-11.0065
屬之	-11.0065
矣吾	-11.0068
之責	-11.0068
副元帥	-11.0069
釋放	-11.0069
給以	-11.007
希圖	-11.0073
不自安	-11.008
早已	-11.0081
亂也	-11.0083
大江	-11.0084
比之	-11.0094
右僕射	-11.0095
駐劄大臣	-11.0098
毎年	-11.0103
以伐	-11.0104
各自	-11.0106
行也	-11.0111
已抵	-11.0111
貢獻	-11.0111
其政	-11.0112
持節	-11.0113
小大	-11.0115
不戰而	-11.0118
安樂	-11.0119
物也	-11.0124
而不得	-11.0127
遣使來	-11.0128
勦捕	-11.013
進曰	-11.0131
濳	-11.0132
親臨	-11.0133
侂胄	-11.0134
兵大敗	-11.0134
投降	-11.0134
先君之	-11.0135
僥倖	-11.0135
不繼	-11.0137
奥	-11.0137
幅	-11.0138
之田	-11.0138
祕	-11.0139
洵	-11.014
三等	-11.014
龐	-11.0142
裨	-11.0142
縂	-11.0143
墊	-11.0144
齊桓	-11.0145
吕氏春秋	-11.0145
應照	-11.0146
做	-11.0146
太行	-11.0147
下流	-11.015
不附	-11.0153
朔日有食之	-11.0153
倉皇	-11.0153
至大	-11.0154
䕶衛	-11.0157
飛飭	-11.0157
郎君	-11.0159
祖宗之	-11.0159
燕趙	-11.016
㑹商	-11.0161
瀘	-11.0163
海明	-11.0165
起於	-11.0165
入其	-11.0167
水土	-11.0168
精銳	-11.0169
出其	-11.017
策凌等	-11.017
愛人	-11.017
背叛	-11.0171
印務	-11.0172
與王	-11.0172
威武	-11.0172
贖罪	-11.0173
已得	-11.0176
記曰	-11.0177
伊二人	-11.0177
戊	-11.018
豫州刺史	-11.018
誰敢	-11.0182
有過	-11.0185
欲殺之	-11.0189
天氣	-11.0193
慰諭	-11.0194
今來	-11.0196
邊事	-11.0199
武宗	-11.0201
陸路	-11.0204
乎吾	-11.0207
所及	-11.0208
而北	-11.021
已屬	-11.0214
西平	-11.0215
伊拉古克三庫圖克圖	-11.0215
逃亡	-11.0218
者衆	-11.0218
禧	-11.022
持重	-11.022
山南	-11.0221
之本也	-11.0222
嫉	-11.0225
筋	-11.0226
大雪	-11.0227
詠	-11.0228
拙	-11.0229
澹	-11.0231
乗馬	-11.0233
松潘	-11.0234
上書言	-11.0235
於東	-11.0235
速往	-11.0238
復為	-11.024
鼓譟	-11.0242
伐秦	-11.0243
楚楚	-11.0245
復見	-11.0247
竣事	-11.0247
茲謂	-11.0248
其才	-11.0249
子思	-11.025
不能得	-11.0251
於宋	-11.0252
全數	-11.0255
内臣	-11.0256
有寵	-11.0257
雅爾	-11.0258
廣州	-11.0258
察達克	-11.0259
上乃	-11.0259
任用	-11.0263
帝遣	-11.0266
羽林	-11.0268
臣願	-11.0271
囚之	-11.0276
禆將	-11.0278
𦂳	-11.028
情罪	-11.0283
北軍	-11.0283
順昌	-11.0285
弗聽	-11.0288
戒嚴	-11.0291
奉行	-11.0292
不息	-11.0295
将兵	-11.0296
詳議	-11.0298
所行	-11.0299
應否	-11.03
吾欲	-11.0301
居之	-11.0304
燾	-11.0307
不前	-11.0308
之力也	-11.0311
瓉	-11.0313
皷	-11.0313
幄	-11.0313
擒𠞰	-11.0314
估	-11.0315
疊	-11.0315
唐古忒	-11.0316
圍困	-11.0316
於七月	-11.0316
㳟	-11.0317
饌	-11.0319
叅贊大臣	-11.0319
躁	-11.0319
慶陽	-11.032
應龍	-11.032
衛大將軍	-11.032
腸	-11.0321
挈眷	-11.0321
所知	-11.0321
四年春正月	-11.0322
以城降	-11.0322
取道	-11.0324
尺寸	-11.0324
振旅	-11.0324
糧道	-11.0325
臣願陛下	-11.0326
為帝	-11.0327
豈無	-11.0327
不即	-11.0327
遣之	-11.0327
武都	-11.0328
龍門	-11.033
淖爾	-11.033
隴右	-11.0333
照舊	-11.0333
衛士	-11.0334
管領	-11.0334
常勝軍	-11.0335
長者	-11.0338
所議	-11.0339
制度	-11.0341
百户	-11.0341
伐宋	-11.0343
大元帥	-11.0344
詹事	-11.0344
孰與	-11.0345
合機宜	-11.0347
曰然	-11.0348
冬至	-11.0349
加賞	-11.0351
城邑	-11.0352
於西	-11.0354
定長	-11.0358
申飭	-11.0358
每日	-11.036
人無	-11.0361
俱應	-11.0366
不准	-11.0369
周主	-11.0369
門户	-11.037
尊號	-11.0372
降于	-11.0372
濟南	-11.0373
與金人	-11.0374
仍著	-11.0378
在下	-11.0378
軍食	-11.0381
此之謂也	-11.0381
以進	-11.0381
之至意	-11.0382
揀	-11.0384
先人	-11.0384
老子	-11.0385
道徳	-11.0387
之女	-11.0388
弗敢	-11.0388
尅	-11.0388
地畝	-11.0389
博士	-11.0389
俾得	-11.0389
兩日	-11.0392
魏博	-11.0392
而未	-11.0395
信也	-11.0397
淮東	-11.0399
侍讀學士	-11.04
今陛下	-11.0401
刦	-11.0402
興國	-11.0402
墟	-11.0403
當死	-11.0403
大赦改元	-11.0404
苐	-11.0404
養贍	-11.0405
寖	-11.0406
任内	-11.0406
呂氏春秋	-11.0407
層	-11.0407
各該	-11.0408
如前	-11.0409
粉	-11.0409
琬	-11.0409
珣	-11.041
邦國	-11.041
逆之	-11.0412
鵠	-11.0412
之境	-11.0413
齊楚	-11.0413
何以不	-11.0414
子産曰	-11.0414
五百里	-11.0416
以徇	-11.0417
仞	-11.0417
審辦	-11.0421
此處	-11.0421
又稱	-11.0423
五里	-11.0423
空虚	-11.0423
之父	-11.0423
光弼	-11.0424
收取	-11.0424
河北河東	-11.0425
中道	-11.0427
復用	-11.0428
民兵	-11.0428
以授	-11.0429
逺方	-11.0429
非吾	-11.0429
流離	-11.0433
中大夫	-11.0435
六國	-11.0436
是用	-11.0436
書生	-11.0436
提兵	-11.0437
總之	-11.0439
曰賊	-11.0441
滅亡	-11.0443
離心	-11.0444
義兵	-11.0444
途中	-11.0445
文報	-11.0447
已甚	-11.0448
押解	-11.0448
擇其	-11.045
所惡	-11.0455
萬石	-11.0456
入奏	-11.0458
未甞	-11.0458
酌量辦理	-11.046
各項	-11.0463
嘆曰	-11.0463
猶不	-11.0463
既不	-11.0464
三十人	-11.0464
不降	-11.0465
朝鮮	-11.0466
更有	-11.0467
六十里	-11.0468
明徳	-11.047
逆囘	-11.0471
小金川	-11.0477
齡	-11.0478
官府	-11.0478
人主之	-11.0481
不反	-11.0484
原議	-11.0485
奏章	-11.0485
衙	-11.0485
世宗	-11.0485
不得入	-11.0486
宸濠	-11.0486
以奉	-11.0487
度河	-11.0487
也曷為	-11.0489
殊為	-11.0489
諮	-11.0493
掲	-11.0493
坪	-11.0493
剥	-11.0493
擣	-11.0494
沾	-11.0495
馘	-11.0495
丸	-11.0495
伐我	-11.0495
掾	-11.0495
四十餘	-11.0496
貎	-11.0499
南岸	-11.0499
施放	-11.05
產	-11.05
揭	-11.0501
納欵	-11.0502
捍禦	-11.0503
閼	-11.0503
應辦	-11.0505
復入	-11.0507
中書省	-11.0508
議䘏	-11.0509
巴什	-11.0509
文燦	-11.0511
不敢言	-11.0512
脱出	-11.052
約計	-11.0521
失信	-11.0522
其聲	-11.0523
調往	-11.0525
秦師	-11.0526
過河	-11.0526
曰可	-11.0526
土喇	-11.0527
周禮	-11.0528
固有	-11.0531
諭之	-11.0533
何可	-11.0533
重耳	-11.0533
但以	-11.0538
匪徒	-11.054
永福	-11.0542
者又	-11.0543
不習	-11.0544
忠勇	-11.0545
一隅	-11.0545
盡矣	-11.0548
止有	-11.0549
千餘里	-11.0549
曽子	-11.0549
再議	-11.0553
遷徙	-11.0554
所統	-11.0554
中士	-11.0554
生也	-11.0554
之治	-11.0556
轅	-11.0557
身故	-11.0557
阿克	-11.0558
東陽	-11.0558
成徳	-11.0559
且以	-11.056
噶爾丹之	-11.0569
伏望	-11.0571
阿思哈	-11.0576
以分	-11.0576
可得而	-11.0579
策妄阿喇布坦	-11.058
立於	-11.0583
西陲	-11.0583
冗	-11.0583
厦	-11.0584
詘	-11.0585
臣不敢	-11.0586
峯	-11.0586
龢	-11.0587
謀曰	-11.0587
運到	-11.0587
稚	-11.0587
三十二	-11.0589
釡	-11.0589
潭州	-11.059
莭	-11.059
鯀	-11.0591
言而	-11.0592
殱除	-11.0593
而致	-11.0594
東道	-11.0597
高祖	-11.0599
今吾	-11.0601
西海	-11.0604
之野	-11.0604
旗分	-11.0604
赴之	-11.0605
見在	-11.0606
竒兵	-11.0607
完顔	-11.0609
兵一百名	-11.061
善後	-11.0615
儘	-11.0616
世襲	-11.0618
之方	-11.0624
右丞相	-11.0626
邠	-11.0626
分布	-11.0631
漢陽	-11.0633
民情	-11.0634
為人臣	-11.0634
者甚多	-11.0636
語曰	-11.0637
現存	-11.0638
以養	-11.0646
威儀	-11.0646
府知府	-11.0648
淮北	-11.0649
更不	-11.0651
為患	-11.0651
中常侍	-11.0651
改為	-11.0652
海道	-11.0654
城堡	-11.0655
而為之	-11.0659
可憫	-11.0659
武侯	-11.066
三道	-11.0662
憂之	-11.0663
如楚	-11.0664
訊明	-11.0664
本末	-11.0664
天心	-11.0666
大國之	-11.0666
稹	-11.0667
司射	-11.0669
清馥	-11.0669
壩	-11.0671
宜速	-11.0671
輝特	-11.0671
水火	-11.0673
查郎阿	-11.0673
妻之	-11.0675
言不	-11.0675
鹵	-11.0675
辭也	-11.0675
建議	-11.0676
燒燬	-11.0676
樵	-11.0679
承嗣	-11.068
之害	-11.068
乎若	-11.068
有才	-11.068
蒸	-11.068
淚	-11.068
窟	-11.0681
腦	-11.0682
驩	-11.0683
廢弛	-11.0683
洎	-11.0683
皆如	-11.0684
驂	-11.0684
不可信	-11.0684
林甫	-11.0685
非是	-11.0685
愔	-11.0685
人曰	-11.0687
捐助	-11.0688
驪姬	-11.0688
車騎將軍	-11.0689
睹	-11.0689
扎爾	-11.0691
撫恤	-11.0693
兵一萬	-11.0696
應於	-11.0698
浙東	-11.0698
時即	-11.07
司馬光	-11.0702
羣小	-11.0705
其故	-11.0707
震動	-11.0708
軍人	-11.0709
粤東	-11.0713
危矣	-11.0715
其誰	-11.0715
不濟	-11.0717
京畿	-11.0719
星夜	-11.072
著於	-11.0722
三晉	-11.0724
孫思克	-11.0724
晉侯使	-11.0725
者吾	-11.0725
此際	-11.0728
不舉	-11.0729
合諸侯	-11.073
足用	-11.073
遲延	-11.0732
輓	-11.0734
恩賞	-11.0735
遂至	-11.0736
職貢	-11.0737
等語查	-11.0742
卹	-11.0743
魯克	-11.0743
三品	-11.0746
停其	-11.0747
諸蠻	-11.0749
而外	-11.0755
夀春	-11.0756
魯克察克	-11.0759
埔	-11.0759
是夕	-11.076
靈武	-11.0764
復言	-11.0765
跋	-11.0765
傉檀	-11.0766
喙	-11.0767
詡	-11.0767
上諭辦理軍機大臣等曰	-11.0767
駱	-11.0768
馬良柱	-11.0768
璫	-11.0769
嬪	-11.0769
除之	-11.0769
閭閻	-11.0769
建武	-11.077
炭	-11.077
趙良棟	-11.0771
不畏	-11.0771
後來	-11.0772
歙	-11.0772
鷄	-11.0772
侍衛章京	-11.0772
朕亦	-11.0774
粹	-11.0774
稠	-11.0774
二百人	-11.0776
且夫	-11.0776
賜以	-11.0776
見上	-11.078
之教	-11.0781
奉到	-11.0785
覺羅	-11.0786
協領	-11.0788
博雅	-11.0792
汝才	-11.0792
者是	-11.0794
武臣	-11.0795
掖	-11.0795
駐藏	-11.0797
子反	-11.0797
放鎗	-11.0799
議政大臣等議	-11.08
來迎	-11.08
陽氣	-11.08
河口	-11.0801
子西	-11.0804
有濟	-11.0804
願得	-11.0804
手書	-11.0806
申生	-11.0807
渡淮	-11.0809
睢	-11.0812
以亡	-11.0815
名也	-11.0816
民皆	-11.0818
其族	-11.0819
查明具奏	-11.082
精神	-11.0821
追殺	-11.0821
人犯	-11.0822
為辭	-11.0822
今嵗	-11.0824
一夫	-11.0825
承制	-11.0826
萬計	-11.0828
三百餘	-11.0828
擄掠	-11.083
也對曰	-11.083
第三	-11.0831
周王	-11.0831
從子	-11.0833
遂復	-11.0834
於九月	-11.0834
還京	-11.0834
續調	-11.0834
聖意	-11.0835
朕躬	-11.0838
萬匹	-11.0839
爾雅	-11.0842
遂行	-11.0843
相率	-11.0843
一聞	-11.0843
訛	-11.0849
黎陽	-11.0849
整齊	-11.085
平江	-11.0852
無名	-11.0852
聞而	-11.0854
百司	-11.0855
被擒	-11.0855
嗣君	-11.0856
善巴	-11.0856
舍楞	-11.0856
毋使	-11.0856
煥	-11.0857
應侯	-11.0859
朽	-11.086
户部侍郎	-11.086
犂	-11.086
堆	-11.086
多少	-11.086
鷹	-11.0862
領隊大臣	-11.0863
狡詐	-11.0864
菽	-11.0864
歇	-11.0865
常徳	-11.0866
鴈	-11.0866
茂貞	-11.0867
唐兵	-11.0868
毆	-11.0869
鹿耳門	-11.0869
八九	-11.0873
不改	-11.0873
說之	-11.0874
建立	-11.0874
亦不敢	-11.0874
辦送	-11.0874
重大	-11.0874
五色	-11.0876
查勘	-11.0877
也是以	-11.0878
人才	-11.0878
輔政	-11.0879
亦不必	-11.0879
三王	-11.0884
即欲	-11.0886
天討	-11.0887
甫經	-11.0891
皆出	-11.0891
交納	-11.0893
法令	-11.0896
四國	-11.0896
之糧	-11.0898
此番	-11.0902
所轄	-11.0902
何患	-11.0904
蘄	-11.0904
俱屬	-11.0909
敵之	-11.0912
㕘領	-11.0913
夏侯	-11.0913
戸部	-11.0914
隨後	-11.0923
已為	-11.0925
苦之	-11.0925
或言	-11.0927
歩騎	-11.0928
以道	-11.0929
於魯	-11.0929
四員	-11.0929
淮陽	-11.093
難民	-11.0931
擾累	-11.0934
之精	-11.0936
賜號	-11.0938
勦殺	-11.0939
等復	-11.0941
論之	-11.0942
晉君	-11.0942
莽噶里克	-11.0948
從重治罪	-11.0948
三次	-11.0949
著派	-11.095
希烈	-11.095
爐	-11.0951
中間	-11.0951
縱之	-11.0952
大理寺	-11.0953
有子	-11.0953
不遜	-11.0954
兑	-11.0954
話	-11.0955
赴軍營	-11.0955
可行	-11.0956
囑	-11.0957
君曰	-11.0958
按兵	-11.0958
弗克	-11.0958
韓詩外傳	-11.0958
衆曰	-11.0959
曰秦	-11.0959
根敦	-11.0962
尚書右僕射	-11.0962
縶	-11.0963
璞	-11.0963
須臾	-11.0963
春申君	-11.0963
南向	-11.0963
登岸	-11.0964
鏡	-11.0966
代王	-11.0966
入秦	-11.0966
两	-11.0967
脯	-11.0967
安在	-11.0968
標下	-11.097
責成	-11.0972
若欲	-11.0975
窮困	-11.0976
遂圍	-11.0978
四百名	-11.0979
鼓勵	-11.0979
文章	-11.0982
姦邪	-11.0982
未下	-11.0984
大震	-11.0986
凡事	-11.0991
牧養	-11.0992
自安	-11.0992
䘚爵	-11.0992
運往	-11.0995
楊氏	-11.1
烏孫	-11.1
稱帝	-11.1001
滿洲䝉古	-11.1002
入山	-11.1003
徐鼎士	-11.1007
人材	-11.1007
可立	-11.1008
其可	-11.1011
子皮	-11.1012
萬國	-11.1012
崧	-11.1013
浙西	-11.1014
䕫州	-11.1015
寛免	-11.1016
所愛	-11.1016
寒心	-11.102
今雖	-11.1026
隨軍	-11.1027
臺諫	-11.1029
具言	-11.1029
既無	-11.103
地震	-11.103
帶兵前往	-11.1032
已令	-11.1033
阼階	-11.1034
僕從	-11.1036
髙陽	-11.104
率師	-11.1041
奨	-11.1042
撫諭	-11.1043
而后	-11.1044
玄感	-11.1044
餽	-11.1046
樞密院	-11.1046
覓	-11.1046
明君	-11.1047
新舊	-11.1047
穫	-11.1048
莊浪	-11.1048
伋	-11.1048
即派	-11.1049
弋	-11.105
額駙䇿凌	-11.105
浹	-11.1051
舘	-11.1052
阿拉善	-11.1053
隴州	-11.1055
鞏昌	-11.1055
覈	-11.1056
兾	-11.1057
殞	-11.1057
換班	-11.1058
綺	-11.1058
緞疋	-11.1058
讜	-11.1059
賜死	-11.106
少子	-11.106
生者	-11.1061
不論	-11.1062
於三月	-11.1062
切齒	-11.1062
勤王之師	-11.1063
充裕	-11.1063
捐監	-11.1065
罪也	-11.1065
復行	-11.1065
蔡攸	-11.1065
以絶	-11.1071
阿巴噶斯	-11.1072
流血	-11.1074
而知	-11.1076
誓書	-11.1077
帶同	-11.1078
長江	-11.1078
語言	-11.1081
驅逐	-11.1081
底定	-11.1085
州安置	-11.1087
君不	-11.1088
此必	-11.1089
勝之	-11.1089
不煩	-11.109
少師	-11.1096
以威	-11.1098
迎戰	-11.1098
大夫種	-11.1102
興復	-11.1103
至長安	-11.1104
此所謂	-11.1104
擊大破之	-11.1119
阿竒木	-11.1119
吏士	-11.1122
敗盟	-11.1125
夾擊	-11.1129
向前	-11.113
管仲曰	-11.113
更名	-11.1137
之急	-11.1137
藍翎	-11.1138
節度副使	-11.1139
無論	-11.114
鏐	-11.114
陳留	-11.1143
還報	-11.1143
山陵	-11.1144
樽	-11.1145
臥	-11.1146
沸	-11.1146
遲悞	-11.1147
勍	-11.1147
頽	-11.1147
打箭爐	-11.1148
逃人	-11.1148
剿賊	-11.1148
犄角	-11.1149
阪	-11.115
儔	-11.115
賞銀一百兩	-11.115
怖	-11.115
將死	-11.115
顔色	-11.115
燮	-11.1151
欽奉諭㫖	-11.1151
㤀	-11.1152
倉猝	-11.1152
閹	-11.1152
一夕	-11.1153
狃	-11.1153
潁川	-11.1154
𦙍	-11.1154
齊克	-11.1154
掛	-11.1154
蹶	-11.1155
浴	-11.1155
扎薩克圖汗	-11.1156
燎	-11.1157
所遺	-11.1157
姦臣	-11.1166
或因	-11.1166
阿睦爾撒納等	-11.1168
沿江	-11.117
還宫	-11.117
還京師	-11.1171
之常	-11.1171
僧辯	-11.1172
有禮	-11.1172
復歸	-11.1174
上命軍機大臣傳諭	-11.1176
職事	-11.1177
公同	-11.118
徃徃	-11.1181
應即	-11.1181
該縣	-11.1182
到後	-11.1182
三萬人	-11.1185
乗勢	-11.1186
二王	-11.1186
比至	-11.1187
進擊	-11.1188
將領	-11.1188
千戸	-11.119
漲	-11.1194
都護	-11.1195
威名	-11.1197
止於	-11.12
之死	-11.1201
一分	-11.1201
之典	-11.1205
徒以	-11.1206
而食之	-11.1208
乗其	-11.121
奔逃	-11.1211
世世	-11.1212
城垣	-11.1213
可到	-11.1214
定例	-11.1215
樞密	-11.1217
囘民	-11.122
不務	-11.1221
牧馬	-11.1221
議覆	-11.1226
聚兵	-11.1228
兵二百名	-11.123
九人	-11.123
剪	-11.1231
蠶	-11.1235
不覺	-11.1235
氊	-11.1243
刋	-11.1244
逝	-11.1245
北地	-11.1245
泣下	-11.1246
絃	-11.1247
綝	-11.1247
軍前効力	-11.1248
犢	-11.1251
公叔	-11.1252
擒其	-11.1256
豈肯	-11.1256
相機辦理	-11.1257
朝野	-11.1258
雖經	-11.1259
有意	-11.1259
重誨	-11.1259
乗機	-11.1263
漢唐	-11.1265
衛君	-11.1267
欲攻	-11.1267
鐵騎	-11.1268
秦王堅	-11.1268
何由	-11.127
扶風	-11.1271
扎木	-11.1272
逸賊	-11.1274
右軍	-11.1277
招之	-11.1277
萬七千	-11.1278
大隊	-11.128
若使	-11.1282
將軍大臣等	-11.1282
子羽	-11.1282
言事	-11.1283
箕子	-11.1287
左師	-11.1295
部院	-11.1296
數百名	-11.1298
無得	-11.1299
兖	-11.1299
何言	-11.13
陳州	-11.1303
諸城	-11.1303
為重	-11.1303
殺我	-11.1303
巴圖魯侍衛	-11.1309
舟船	-11.1309
俱各	-11.131
仰天	-11.1314
在我	-11.1314
不赦	-11.1317
户部尚書	-11.1318
得人	-11.1318
金石	-11.1318
于成龍等	-11.132
屬實	-11.1321
言于	-11.1325
且有	-11.1327
獲之	-11.1327
承恩	-11.1329
三面	-11.1332
定邊左副將軍	-11.1336
順徳訥	-11.1336
鄂輝	-11.1338
愿	-11.1338
等謹案	-11.134
呌	-11.1341
凡此	-11.1343
萬乗	-11.1344
潼關	-11.1345
仍以	-11.1345
軀	-11.1345
朕即	-11.1346
筴	-11.1346
篚	-11.1347
涖	-11.1348
吏部侍郎	-11.1348
腐	-11.135
不告	-11.135
於八月	-11.135
化及	-11.1356
奸民	-11.1357
為善	-11.1361
重任	-11.1361
甚是	-11.1362
曰夫子	-11.1364
巴顔	-11.1364
分作	-11.1365
南渡	-11.1366
分撥	-11.1367
鑾輿	-11.1368
移檄	-11.137
以和	-11.1373
今復	-11.1374
千餘名	-11.1379
又謂	-11.1381
三十五	-11.1381
營壘	-11.1382
萬嵗	-11.1384
荆州刺史	-11.1385
數十年	-11.1385
臣聞之	-11.1386
表請	-11.139
甚少	-11.1391
來時	-11.1393
也使	-11.1394
未發	-11.1394
肅清	-11.1397
衆多	-11.1401
上召	-11.1406
縣官	-11.1406
遂使	-11.1407
三千餘人	-11.141
同列	-11.1412
朝議	-11.1412
帝乃	-11.1413
少而	-11.1415
臨江	-11.1421
兵到	-11.1421
狄道	-11.1424
秦晉	-11.1426
兵入	-11.1426
簿	-11.1428
下人	-11.1429
太白	-11.143
韓信	-11.1434
羅索	-11.1434
劉統勲	-11.1434
收兵	-11.1435
四十八	-11.1435
徂	-11.1437
紆	-11.1438
諶	-11.1438
等共	-11.1438
燬	-11.1439
言也	-11.1439
蹤	-11.1439
鈐	-11.144
莎羅奔	-11.1441
修好	-11.1441
内山	-11.1441
閎	-11.1442
國珍	-11.1443
黄仕簡任承恩	-11.1444
求和	-11.1444
訐	-11.1445
雋	-11.1445
古北口	-11.1445
敞	-11.1446
笨港	-11.1446
蚶江	-11.1447
不中	-11.1448
出其不意	-11.1448
敦煌	-11.1448
安挿	-11.1448
塩水港	-11.1449
州事	-11.145
吟	-11.1451
營兵	-11.1453
撫慰	-11.1455
羽翼	-11.1455
二萬人	-11.1459
衛尉	-11.1461
事見	-11.1462
附於	-11.1462
五岱等	-11.1466
䝉皇上	-11.1466
十名	-11.1467
别有	-11.1468
所管	-11.1469
為前鋒	-11.147
復振	-11.1473
江都	-11.1473
嗣源	-11.1474
受爵	-11.1477
交部	-11.1481
自保	-11.1484
侵掠	-11.1485
女為	-11.1487
于天	-11.149
連年	-11.1492
臨之	-11.1493
不特	-11.1495
孟克	-11.1497
任之	-11.1497
神靈	-11.1502
以義	-11.1504
獨斷	-11.1505
諸司	-11.1505
四散	-11.1508
為奴	-11.1509
將軍大臣	-11.1509
萬八千	-11.1513
承平	-11.1518
之宜	-11.1522
度量	-11.1523
忌之	-11.1525
等自	-11.1526
為内應	-11.1527
之風	-11.1528
報効	-11.1529
盡殺	-11.1531
熲	-11.1533
蠢	-11.1534
仲尼曰	-11.1535
大旱	-11.1535
唐喀禄	-11.1535
博羅塔拉	-11.1535
典禮	-11.1536
閫	-11.1536
素勒坦沙	-11.1537
飲之	-11.1537
帝從之	-11.1538
三百里	-11.1538
覿	-11.1539
聨	-11.1539
陰陽	-11.1539
鋪	-11.1542
有賊	-11.1543
亘	-11.1543
殛	-11.1544
榻	-11.1544
衝突	-11.1544
上又諭内閣曰	-11.1544
旻	-11.1546
麋	-11.1546
􁁊	-11.1546
夸	-11.1546
餐	-11.1547
詬	-11.1548
甯	-11.1548
而言	-11.1548
餞	-11.1548
進屯	-11.1548
逄	-11.1548
暠	-11.1548
巒	-11.155
袖	-11.155
汪伯彦	-11.1551
駐扎	-11.1554
䝉遜	-11.1554
聿	-11.1555
告於	-11.1556
州防禦使	-11.1557
靈州	-11.1558
兩翼	-11.1558
殿前	-11.1561
諸賊	-11.1561
共議	-11.1563
勝非	-11.1564
奏言查	-11.1564
稽察	-11.1567
世蕃	-11.1573
相同	-11.1576
不能救	-11.158
部議	-11.1581
天錫	-11.1581
爾部	-11.1581
極言	-11.1582
覺之	-11.1583
蠲免	-11.1584
懷恩	-11.1585
亦須	-11.1586
無乃	-11.1586
也然而	-11.1587
歸朝	-11.1588
山上	-11.1588
幽王	-11.1593
一百名	-11.1594
以充	-11.1594
蘇秦	-11.1596
仍行	-11.1597
挐獲	-11.1599
穆王	-11.1599
其本	-11.1602
名號	-11.1603
行糧	-11.1604
器甲	-11.1604
噶斯	-11.1606
南郊	-11.1607
半月	-11.161
有是	-11.1613
白水	-11.1615
三百餘人	-11.1616
難行	-11.1616
指授	-11.1618
駐軍	-11.1622
緑旗	-11.1623
後又	-11.1623
等帶兵	-11.1627
城東	-11.1628
琿	-11.1628
非特	-11.163
北山	-11.1632
䝉恩	-11.1632
於公	-11.1632
等領兵	-11.1633
嘉之	-11.1635
葬之	-11.1635
倍加	-11.1638
届	-11.1639
竦	-11.1639
僧道	-11.1639
安揷	-11.1639
𣙜	-11.164
贇	-11.164
破其	-11.1641
喂養	-11.1641
祜	-11.1642
鎧	-11.1642
魏州	-11.1642
瑋	-11.1643
傳聞	-11.1643
砍	-11.1644
濯	-11.1644
太和	-11.1644
守者	-11.1644
辛夘	-11.1646
虎賁	-11.1646
撫䘏	-11.1647
款	-11.1647
曏	-11.1648
給還	-11.1648
建安	-11.1648
制之	-11.1651
虎牢	-11.1651
温州	-11.1652
郢州	-11.1652
傕	-11.1654
慨然	-11.1656
頂帶	-11.1658
童子	-11.166
掃除	-11.1661
立為	-11.1661
仍前	-11.1661
若仍	-11.1662
移咨	-11.1663
浙省	-11.1664
㸑	-11.1664
瓦解	-11.1666
金酋	-11.1667
尚之信	-11.1669
英雄	-11.167
争先	-11.167
災異	-11.1671
地名	-11.1671
部下	-11.1672
套	-11.1674
欒氏	-11.1674
總督哈占	-11.1675
聲色	-11.1679
承㫖	-11.1679
皇長子	-11.1682
鉛	-11.1682
現據	-11.1683
被傷	-11.1683
宜陽	-11.1685
李繼	-11.1685
慰勞	-11.1686
祭酒	-11.1686
死則	-11.1687
上欲	-11.1692
南宫	-11.1694
經制	-11.1695
達爾黨阿等	-11.1695
交界	-11.1696
體察	-11.1697
越人	-11.1697
閉城	-11.1699
武安	-11.1702
兵三百名	-11.1702
趙武	-11.1708
遇害	-11.1709
洪州	-11.1709
疑其	-11.171
於事	-11.171
資糧	-11.1712
共有	-11.1712
島	-11.1712
候朕	-11.1712
震恐	-11.1714
事理	-11.1715
可勝	-11.1715
而况	-11.1718
兩省	-11.1718
不廢	-11.1719
爭之	-11.1719
雩	-11.1721
伊父	-11.1721
上謂	-11.1722
國恩	-11.1722
令各	-11.1723
追逐	-11.1723
禦敵	-11.1723
羣下	-11.1725
邦之	-11.1726
乘機	-11.1728
二十八年	-11.1728
緑	-11.1728
服也	-11.1729
屯駐	-11.173
三十一年	-11.173
糶	-11.1731
焚掠	-11.1731
萬世之	-11.1733
滁州	-11.1735
責以	-11.1737
務使	-11.1737
耽	-11.1739
烏拉	-11.174
車木楚克扎布	-11.1742
前在	-11.1743
蒯	-11.1744
臬司	-11.1745
譬之	-11.1748
頤	-11.1749
凑	-11.175
盆	-11.1751
僧格	-11.1752
也必	-11.1752
工部尚書	-11.1755
有詔	-11.1755
攻擾	-11.1756
上䟽曰	-11.1756
用此	-11.1757
調集	-11.1757
滑州	-11.1757
缺額	-11.1758
百僚	-11.1758
可𫝊諭	-11.1759
委以	-11.176
驅之	-11.176
妥為	-11.1761
入告	-11.1762
多為	-11.1763
美人	-11.1763
屢敗	-11.1763
勦滅	-11.1768
務令	-11.1769
無從	-11.1769
者不過	-11.177
一項	-11.177
守候	-11.177
議之	-11.1771
報知	-11.1772
成事	-11.1773
偽齊	-11.1775
或係	-11.1775
詔諭	-11.1775
而易	-11.1776
地形	-11.1777
得所	-11.1778
賊夥	-11.1779
檄調	-11.178
使君	-11.1783
以其子	-11.1784
假道	-11.1785
左丞相	-11.1785
不振	-11.1786
項王	-11.1786
隨即	-11.1787
每人	-11.1789
之恥	-11.1791
謝恩	-11.1792
之實	-11.1792
先鋒	-11.1793
其書	-11.1794
此數	-11.1796
善者	-11.1798
詩書	-11.18
朝堂	-11.1803
王弘	-11.1804
日以	-11.1804
張掖	-11.1806
上曰朕	-11.1807
鎮南	-11.1808
季文子	-11.1809
一舉而	-11.1809
二君	-11.1812
兵三萬	-11.1812
無足	-11.1812
畏之	-11.1813
若無	-11.1814
洪武	-11.1814
大矣	-11.1814
以助	-11.1815
于外	-11.1816
邾人	-11.1819
好學	-11.182
吳子	-11.1822
公㑹	-11.1822
為有益	-11.1823
與爾	-11.1826
日益	-11.1828
潞州	-11.1828
憲宗	-11.1829
馬軍	-11.183
翻	-11.1832
而輕	-11.1833
慄	-11.1835
而立之	-11.1836
往来	-11.1837
所載	-11.1838
濤	-11.184
换	-11.1841
訥黙庫	-11.1841
之事也	-11.1842
變亂	-11.1843
額爾登額	-11.1844
覬	-11.1844
竊發	-11.1845
養之	-11.1845
柩	-11.1846
雹	-11.1847
倨	-11.1847
以金	-11.1847
稽顙	-11.1848
牘	-11.1848
藴	-11.1849
薳	-11.185
伍彌泰	-11.185
視事	-11.1851
䜟	-11.1852
隧	-11.1853
噬	-11.1853
分守	-11.1855
刑部尚書	-11.1858
自贖	-11.1858
琅邪	-11.186
為念	-11.1862
妥協辦理	-11.1862
龜兹	-11.1863
鎮江府	-11.1863
而與之	-11.1864
裴度	-11.1865
不説	-11.1866
成周	-11.1866
許其	-11.1866
嗣位	-11.1868
明知	-11.187
白公	-11.1873
卿士	-11.1875
趙良嗣	-11.1875
赴闕	-11.1877
協濟	-11.1878
無慮	-11.188
佔據	-11.188
乗虚	-11.1881
圖海	-11.1884
令副都統	-11.1886
將校	-11.1886
與秦	-11.1888
五十萬	-11.1889
蔚	-11.189
馬歩	-11.1893
河南府	-11.1893
汝州	-11.1894
文曰	-11.1898
聖徳	-11.1899
雄州	-11.19
譬如	-11.1904
責授	-11.1905
帝怒	-11.1906
謝曰	-11.1907
親自	-11.1908
登舟	-11.1914
俱可	-11.1914
舉人	-11.1916
得無	-11.1918
云我	-11.1919
相度	-11.1919
自京	-11.192
趙簡子	-11.192
民生	-11.1922
藉口	-11.1923
所擒	-11.1927
甚重	-11.1927
聞有	-11.1931
向化	-11.1931
優加	-11.1932
聖諭	-11.1932
備辦	-11.1933
新附	-11.1935
闖	-11.1935
毋致	-11.1937
時中	-11.1937
安可	-11.1939
歉	-11.1941
甚善	-11.1944
打死	-11.1944
襄城	-11.1944
輛	-11.1945
秦楚	-11.1946
奏入上諭内閣曰	-11.1946
馬家堡	-11.1947
歸命	-11.1947
撥什庫	-11.1947
也君子	-11.1949
帝王世紀	-11.195
羗	-11.195
危亡	-11.195
烏爾登	-11.1951
叵測	-11.1952
緇	-11.1953
水路	-11.1954
前代	-11.1954
刷	-11.1954
淤	-11.1954
闔閭	-11.1955
藤	-11.1955
勾踐	-11.1955
直隸	-11.1956
丁夘	-11.1956
勾結	-11.1956
鎻	-11.1956
惟在	-11.1956
城縣	-11.1958
束手	-11.1958
綜	-11.1958
碧	-11.1958
淨	-11.1959
何日	-11.1959
皎	-11.1959
不亦可乎	-11.1959
髙郵	-11.1959
瞿	-11.196
燕雲	-11.196
緫管	-11.196
崔杼	-11.1961
朱勝非	-11.1962
無恙	-11.1964
陽平	-11.1964
數次	-11.1967
皆從	-11.1968
收貯	-11.197
公羊作	-11.1972
寛裕	-11.1973
悖逆	-11.1973
不支	-11.1975
隊伍	-11.1976
恩澤	-11.1977
附之	-11.1977
何有	-11.1977
初旬	-11.1978
牽制	-11.1979
識之	-11.198
大衆	-11.1984
此内	-11.1984
計也	-11.1984
逃散	-11.1985
南安	-11.1986
晉文公	-11.1987
㑹𠞰	-11.1987
吾將	-11.1988
回匪	-11.1988
兵柄	-11.199
新序	-11.1991
如雨	-11.1991
有警	-11.1991
疏入	-11.1996
引還	-11.1999
春二月	-11.2
秋冬	-11.2003
突出	-11.2004
不變	-11.2006
重臣	-11.2006
事有	-11.2008
悉衆	-11.2009
之基	-11.2011
大路	-11.2014
王世充	-11.2015
工部	-11.2015
移書	-11.2017
陛	-11.2021
待制	-11.2023
北征	-11.2026
起身	-11.2027
二也	-11.2029
不雨	-11.2031
通渭	-11.2036
定州	-11.2036
糧盡	-11.2038
有加	-11.204
轉戰	-11.2046
廟堂	-11.2048
又無	-11.2049
隸	-11.2049
珽	-11.2051
三世	-11.2051
到營	-11.2051
無敵	-11.2052
攬	-11.2053
包沁	-11.2053
而見	-11.2054
大夫之	-11.2055
招徠	-11.2057
驤	-11.2057
牖	-11.2059
珙	-11.2059
茹	-11.2059
菑	-11.2059
俠	-11.206
緑旗兵丁	-11.206
昉	-11.2062
璜	-11.2063
自衛	-11.2063
糞	-11.2064
匪犯	-11.2064
滄州	-11.2065
孟知祥	-11.2066
小者	-11.2066
邊陲	-11.2067
慷慨	-11.2067
洪承疇	-11.2068
城破	-11.2069
鄜延	-11.2071
巽	-11.2072
仍將	-11.2072
聖心	-11.2072
曰大	-11.2072
李茂貞	-11.2076
遷都	-11.2077
之誅	-11.2077
遄行	-11.2078
民也	-11.2079
已過	-11.2079
會于	-11.208
變化	-11.2081
餘俱	-11.2083
便可	-11.2084
去就	-11.2084
口食	-11.2084
實情	-11.2085
軍機大臣等	-11.2086
五品	-11.2087
勿以	-11.2088
調赴	-11.2088
與楚	-11.2088
閩主	-11.2091
庶可	-11.2092
杜充	-11.2093
節鉞	-11.2095
宿州	-11.2097
常以	-11.21
之詔	-11.2101
則已	-11.2103
事則	-11.2103
宫門	-11.2106
徳也	-11.2107
上馬	-11.211
若非	-11.211
天下者	-11.2111
舍之	-11.2111
慮其	-11.2113
乘勢	-11.2113
於河	-11.2114
等情	-11.2116
力不能	-11.2116
今春	-11.2118
難當	-11.2119
曰先生	-11.2119
王爵	-11.2121
本地	-11.2125
萬厯	-11.2126
挑戰	-11.2128
來至	-11.2129
仲父	-11.2129
樂之	-11.2134
於庭	-11.2138
兵及	-11.214
百餘名	-11.214
五榖	-11.2144
弗與	-11.2145
不察	-11.2147
觧送	-11.2148
充國	-11.2148
曾經	-11.2149
公公	-11.2149
悮	-11.2149
池州	-11.2151
有異志	-11.2151
兵役	-11.2151
他處	-11.2152
弇	-11.2155
其外	-11.2157
益兵	-11.2158
縉	-11.2159
坐而	-11.216
攻具	-11.2161
準噶爾部人	-11.2161
墳墓	-11.2161
嚮導	-11.2161
劣	-11.2162
褐	-11.2163
渴	-11.2163
後隊	-11.2164
連兵	-11.2165
不能守	-11.2165
笙	-11.2167
州都督	-11.2167
之儀	-11.2167
光禄大夫	-11.2168
大悦	-11.2168
食者	-11.2168
闔廬	-11.2169
麓	-11.217
諸道兵	-11.2171
各賞	-11.2171
誇	-11.2172
僇	-11.2172
𠞰除	-11.2172
以攻	-11.2173
箐	-11.2173
其所以	-11.2173
瑀	-11.2173
之明	-11.2173
鴈門	-11.2174
粤省	-11.2175
自後	-11.2175
禮儀	-11.2176
棠	-11.2176
兼侍中	-11.2178
忠良	-11.218
陽侯	-11.218
矣其	-11.2181
永樂	-11.2182
兵糧	-11.2182
袁紹	-11.2185
千五百	-11.2186
曲直	-11.2187
歸路	-11.2189
國勢	-11.2189
地土	-11.2189
荘公	-11.2192
不軌	-11.2193
通信	-11.2194
來見	-11.2194
遺失	-11.2196
益加	-11.2196
未成	-11.2197
戸口	-11.2198
舒赫德等	-11.2198
惟當	-11.2199
其咎	-11.2201
可惡	-11.2201
之書	-11.2202
既敗	-11.2202
道員	-11.2203
代州	-11.2204
庫爾	-11.2207
紓	-11.2207
者悉	-11.221
亦甚	-11.2214
好生	-11.2215
擯	-11.2218
臨事	-11.2219
盟於	-11.222
相符	-11.2221
公論	-11.2221
何用	-11.2224
春正月	-11.2227
無幾	-11.2228
悉平	-11.2228
門下侍郎	-11.2229
來獻	-11.2229
之犯	-11.2231
自盡	-11.2231
不害	-11.2231
師徒	-11.2234
兵三千名	-11.2237
二城	-11.2238
泰州	-11.2238
管子對曰	-11.224
惟以	-11.2241
免死	-11.2244
不可用	-11.2247
查察	-11.2248
簡公	-11.225
必多	-11.225
新兵	-11.225
遄	-11.225
境上	-11.2253
大體	-11.2254
義康	-11.2255
嚴禁	-11.2256
酒泉	-11.2256
知伯	-11.2259
重地	-11.226
俱照	-11.226
且請	-11.2262
蔓	-11.2263
杲	-11.2266
孫權	-11.2267
彚	-11.2267
安泰	-11.2268
綬	-11.2268
敦多克	-11.2269
易州	-11.227
㤙	-11.2271
遇敵	-11.2271
遂致	-11.2271
刮耳崖	-11.2272
愉	-11.2272
絡繹	-11.2272
流言	-11.2273
胙	-11.2273
媵	-11.2273
瑄	-11.2273
虹	-11.2274
如此辦理	-11.2274
楊行宻	-11.2275
囿	-11.2275
掌其	-11.2276
錢鏐	-11.2276
逹賴喇嘛	-11.2276
翳	-11.2277
焉用	-11.2279
尤甚	-11.2281
不可為	-11.2282
欲求	-11.2283
訓飭	-11.2284
曄	-11.2284
琯	-11.2285
吾聞之	-11.2285
自焚	-11.2285
侔	-11.2286
印綬	-11.2286
昊天	-11.229
朱泚	-11.2291
軍統制	-11.2292
委曲	-11.2292
汝曹	-11.2292
幕府	-11.2293
解體	-11.2295
逃避	-11.2295
于大	-11.2295
延夀	-11.2295
君子以	-11.2296
入夥	-11.2296
必不敢	-11.2297
太后曰	-11.2299
皇祖	-11.23
戰不利	-11.2301
馬營	-11.2301
特賜	-11.2304
子貢曰	-11.2304
天水	-11.2304
師旅	-11.2307
謁者	-11.2309
人望	-11.2309
時事	-11.2311
㕘奏	-11.2312
即照	-11.2314
地利	-11.2315
其屬	-11.2315
自新	-11.2316
殘破	-11.2317
堯舜之	-11.2319
安坐	-11.2325
懇求	-11.2326
遣將	-11.2329
無患	-11.233
却之	-11.2334
諾爾	-11.2335
士奇	-11.2335
從重	-11.2336
舉動	-11.2336
二千石	-11.2345
可知也	-11.2346
留意	-11.2346
益州刺史	-11.2346
三千餘	-11.2348
良久	-11.2348
無成	-11.2349
奔齊	-11.2349
然猶	-11.235
東省	-11.2352
鎔	-11.2356
兵士	-11.2357
北去	-11.2363
酌辦	-11.2363
異也	-11.2364
三十三	-11.2365
招諭	-11.2368
臣民	-11.2369
嘗為	-11.2374
南征	-11.2374
五十人	-11.2375
椎	-11.2375
圻	-11.2376
妄言	-11.2376
藔	-11.2377
額爾德尼	-11.2379
復叛	-11.2379
謐	-11.2379
不離	-11.2379
優䘏	-11.2381
隳	-11.2381
四方之	-11.2381
逺遁	-11.2382
規模	-11.2383
尚書左僕射	-11.2383
入寇	-11.2383
穰侯	-11.2383
曵	-11.2384
餘孽	-11.2385
禇	-11.2385
越嶲	-11.2385
先經	-11.2386
商販	-11.2386
孼	-11.2386
軍功	-11.2386
鷙	-11.2386
推官	-11.2387
餘兩	-11.2387
可通	-11.2388
惶懼	-11.2388
異牟尋	-11.2389
慶之	-11.2389
繆公	-11.239
郭子儀	-11.239
眇	-11.2391
雍州	-11.2391
將軍穆占	-11.2392
不違	-11.2392
如之何	-11.2393
帝王之	-11.2394
響應	-11.2394
該督等	-11.2397
者十	-11.2397
異姓	-11.2403
進忠	-11.2403
對曰君	-11.2404
不恱	-11.2405
兵皆	-11.2405
節省	-11.2406
所執	-11.2406
孤軍	-11.2406
俱被	-11.2408
縁坐	-11.2409
為言	-11.241
自言	-11.2413
騎都尉	-11.2414
大師	-11.2414
烏舍	-11.2414
確查	-11.2415
將軍印	-11.2416
付之	-11.2419
千乘	-11.2419
民居	-11.2423
偷生	-11.2426
侍衛等	-11.2426
又不能	-11.243
帳中	-11.243
兼管	-11.243
以内	-11.2432
楚克	-11.2435
予以	-11.2441
書云	-11.2445
前鋒統領	-11.2451
大帥	-11.2451
復令	-11.2452
著照	-11.2453
之怨	-11.2455
投之	-11.246
請行	-11.246
足資	-11.2461
之過也	-11.2462
者也故	-11.2462
為三	-11.2463
不悟	-11.2465
七旗	-11.2465
道里	-11.2466
聘于	-11.2467
也詩曰	-11.2468
各以其	-11.2469
臣僕	-11.247
王道	-11.2471
稍存	-11.2472
先至	-11.2472
范氏	-11.2473
義勇	-11.2474
宣帝	-11.2475
甚至	-11.2477
此何	-11.2478
響	-11.2479
逖	-11.2481
使者曰	-11.2482
之音	-11.2482
和托輝特	-11.2483
列侯	-11.2484
通行曉諭	-11.2485
黒闥	-11.2486
分賞	-11.2486
絡	-11.2487
圖倫楚	-11.2487
雎	-11.2488
阬	-11.2488
罪大惡極	-11.2488
嚴訊	-11.2489
不預	-11.2489
謡	-11.2489
五分	-11.2489
則可以	-11.249
祔	-11.249
死子	-11.2491
仍遵前㫖	-11.2492
餘石	-11.2492
莘	-11.2492
㽞	-11.2492
乙夘	-11.2494
能無	-11.2495
前抵	-11.2495
晴	-11.2495
澶淵	-11.2495
涓	-11.2496
彩	-11.2496
㨗音	-11.2497
慤	-11.2497
縻	-11.2497
愎	-11.2497
鏖戰	-11.2497
特諭	-11.2498
前赴軍營	-11.2498
朋友	-11.2499
尚須	-11.25
行軍司馬	-11.2501
願大王	-11.2502
攸之	-11.2503
與諸	-11.2503
學校	-11.2504
憂懼	-11.2505
保定	-11.2505
以功	-11.2507
石勒	-11.2508
上卿	-11.2509
知之矣	-11.2511
也帝	-11.2512
之水	-11.2513
呈稱	-11.2515
入京	-11.2516
武安君	-11.2517
即命	-11.2522
文皇	-11.2523
三十餘人	-11.2524
巴勒	-11.2524
之備	-11.2526
矣此	-11.2529
澤州	-11.253
拒敵	-11.2535
今當	-11.2537
整兵	-11.2537
先取	-11.2537
剿殺	-11.2537
矣君	-11.254
員缺著	-11.2542
君臣之	-11.2542
允文	-11.2543
進止	-11.2547
二太子	-11.2553
建成	-11.2554
而受	-11.2555
逃匿	-11.2556
出于	-11.2558
左右曰	-11.2558
軍容	-11.2565
於十月	-11.2565
昊	-11.2569
亦不得	-11.2569
常州	-11.2572
所生	-11.2574
文華	-11.2575
索倫察哈爾	-11.2576
趲	-11.2576
難得	-11.2577
喇卜	-11.2579
永平	-11.2583
與民	-11.2588
布庫察罕	-11.2592
從優	-11.2592
戡	-11.2594
解散	-11.2594
颺	-11.2595
臣言	-11.2595
成之	-11.2596
始有	-11.2596
賢而	-11.2596
致死	-11.2597
呢雅斯	-11.2598
中宫	-11.2599
趾	-11.2602
貺	-11.2602
殱戮	-11.2602
蚩尤	-11.2602
姒	-11.2603
櫟	-11.2603
相顧	-11.2603
軍裝	-11.2603
亦俱	-11.2603
喚	-11.2604
孰能	-11.2604
歿	-11.2605
舛	-11.2605
悚	-11.2608
爪牙	-11.2608
勁旅	-11.2608
但當	-11.2609
遷于	-11.2609
也願	-11.261
敢言	-11.2611
袂	-11.2611
寡人之	-11.2612
二百里	-11.2614
感戴	-11.2615
也公曰	-11.2616
往迎	-11.2616
伍子胥	-11.2616
伐晉	-11.2618
永逺	-11.262
不知所為	-11.262
以副朕	-11.262
可取	-11.2622
自屬	-11.2623
受敵	-11.2623
倡亂	-11.2623
復與	-11.2623
此三	-11.2625
甘茂	-11.2625
亦知	-11.2625
木巴	-11.2626
兩朝	-11.2626
突圍	-11.2627
孝忠	-11.2627
徽宗	-11.2628
安輯	-11.2628
年久	-11.2629
相接	-11.2632
為之奈何	-11.2634
也孔子曰	-11.2635
既死	-11.2636
免於	-11.2636
阿竒木伯克	-11.2637
伯姬	-11.2637
盛徳	-11.2638
以私	-11.2638
今天下	-11.2641
詐稱	-11.2641
朕必	-11.2643
領兵前往	-11.2644
以制	-11.2645
智勇	-11.2648
地界	-11.2648
長吏	-11.2649
鎗礮	-11.2652
諸門	-11.2658
見有	-11.266
歐陽	-11.266
親親	-11.2662
李晟	-11.2663
矣上	-11.2667
吁	-11.2667
頗有	-11.2668
踰年	-11.2671
郤至	-11.2671
莫知	-11.2671
仲文	-11.2672
無所不	-11.2674
臨朝	-11.2675
亦自	-11.2677
其營	-11.2679
如是則	-11.268
派官兵	-11.2682
帥師伐	-11.2682
將安	-11.2682
粤西	-11.2683
衆議	-11.2683
備兵	-11.2687
歩兵	-11.2689
不可得也	-11.269
惻	-11.2691
非敢	-11.2692
不豫	-11.2692
道逺	-11.2695
臣以為	-11.2695
詳查	-11.2695
與衆	-11.2695
離間	-11.2696
親見	-11.2696
囧	-11.2702
横行	-11.2703
以免	-11.2704
則國	-11.2705
累世	-11.2706
黽勉	-11.2708
髙煦	-11.2708
駑	-11.2711
調補	-11.2713
晃	-11.2713
騷動	-11.2713
犁	-11.2714
低	-11.2714
棣	-11.2715
害之	-11.2715
牝	-11.2717
毓	-11.2717
阨	-11.2718
譎	-11.2718
莖	-11.2718
忘其	-11.2719
三輔	-11.272
者或	-11.2721
陀	-11.2721
放洋	-11.2722
斟酌	-11.2722
陜州	-11.2722
勿令	-11.2723
之過	-11.2724
籥	-11.2725
司官	-11.2725
志也	-11.2725
張興	-11.2725
仁也	-11.2726
失道	-11.2727
左都御史	-11.2729
平城	-11.2729
創業	-11.2729
州城	-11.2729
言及	-11.2731
為諸侯	-11.2731
將李	-11.2734
悔禍	-11.2736
為將軍	-11.2737
代為	-11.274
甚盛	-11.2744
突入	-11.2744
左氏	-11.2745
北走	-11.2747
尾追	-11.2747
此行	-11.2747
官兵及	-11.2749
曰願	-11.2749
不負	-11.275
壽春	-11.275
固已	-11.2752
棧道	-11.2753
逺人	-11.2754
此奏	-11.2754
馬上	-11.2754
缺出	-11.2757
河曲	-11.2758
傾心	-11.2759
今王	-11.2761
一嵗	-11.2762
輕兵	-11.2765
安王	-11.2768
移兵	-11.2768
不以為	-11.2769
之半	-11.277
擒斬	-11.2771
昭子	-11.2773
大畧	-11.2774
言我	-11.2775
要務	-11.2776
南侵	-11.2776
神器	-11.2777
勢難	-11.2778
臣之所	-11.2778
攻𠞰	-11.2781
破敵	-11.2781
人臣之	-11.2781
累年	-11.2781
安都	-11.2783
外其餘	-11.2784
不獨	-11.2784
三格	-11.2787
舊臣	-11.2787
於正月	-11.2788
法者	-11.2789
山寨	-11.279
復取	-11.2791
欲去	-11.2792
宜令	-11.2793
死于	-11.2795
擴	-11.2795
於趙	-11.2796
二千餘	-11.2796
供詞	-11.2798
順流	-11.2804
在軍前	-11.2804
之兄	-11.2807
孤城	-11.2809
宣慰	-11.281
星馳	-11.2811
勣	-11.2811
彦章	-11.2812
陽太守	-11.2814
黒龍江	-11.2817
知悉	-11.2817
東征	-11.2819
熬茶	-11.2821
北邊	-11.2821
阿宻達	-11.2821
猗	-11.2822
桿	-11.2823
必不可	-11.2823
武威	-11.2823
餼	-11.2824
沿河	-11.2824
裒	-11.2824
勒歪	-11.2825
鵲	-11.2826
亦欲	-11.2826
然其	-11.2828
耿南仲	-11.2829
藁	-11.2829
殲	-11.2831
胷	-11.2831
罔不	-11.2831
常侍	-11.2832
天之所	-11.2833
暴虐	-11.2833
漿	-11.2833
賞之	-11.2834
二百年	-11.2835
暐	-11.2835
徳之	-11.2836
煖	-11.2837
仲淹	-11.2837
礪	-11.2838
共知	-11.2838
貞吉	-11.2841
崇禎	-11.2841
吉祥	-11.2841
曰必	-11.2841
暹	-11.2842
貨財	-11.2843
劉備	-11.2845
大使	-11.2848
𬗟	-11.2849
而況	-11.2849
不憚	-11.285
每旗	-11.2852
禕	-11.2852
奏膚功	-11.2854
稍為	-11.2854
寜夏	-11.2854
各事宜	-11.2855
欣然	-11.2855
東至	-11.2855
之忠	-11.2856
委用	-11.2856
非一	-11.2857
巡幸	-11.2859
在朝	-11.286
詔㫖	-11.2861
鎮海	-11.2861
萬物之	-11.2868
君有	-11.2869
嵗幣	-11.2872
士衆	-11.2872
漸次	-11.2873
封之	-11.2873
拜受	-11.2874
十五萬	-11.2877
霸先	-11.2879
乘之	-11.288
削籍	-11.288
微子	-11.2882
守光	-11.2885
等四人	-11.2885
内官	-11.2887
又况	-11.2889
豫州	-11.289
曰朝廷	-11.2891
威王	-11.2893
將卒	-11.2893
准行	-11.2893
又五日	-11.2893
惡也	-11.2894
退師	-11.2895
聖母	-11.2899
而用	-11.2899
治也	-11.29
速進	-11.2901
春三月	-11.2901
度支	-11.2901
與語	-11.2901
知有	-11.2901
異於	-11.2904
朕前	-11.2904
意也	-11.2905
隊内	-11.2908
既不能	-11.291
羣生	-11.2911
莫大於	-11.2911
錢文	-11.2913
利之	-11.2914
百日	-11.2915
也因	-11.2915
不移	-11.2915
正色	-11.2917
茍有	-11.2917
遣歸	-11.2918
推河	-11.292
起復	-11.292
化為	-11.2922
之性	-11.2922
乃知	-11.2922
有力	-11.2925
人徒	-11.2926
所指	-11.2928
之食	-11.2929
禁軍	-11.2929
臕	-11.2929
允行	-11.2931
頊	-11.2932
聶	-11.2933
德𥙿	-11.2933
難也	-11.2935
大有	-11.2936
或云	-11.2936
者斬	-11.2936
今我	-11.2939
梁朝桂	-11.294
華州	-11.294
已下	-11.294
値	-11.2941
恇怯	-11.2942
猾	-11.2943
眚	-11.2943
𫉬	-11.2945
㝠	-11.2945
軾	-11.2946
䭾載	-11.2946
夜遁	-11.2946
羔	-11.2946
一時之	-11.2948
不任	-11.2948
酌給	-11.2948
初無	-11.2949
副都統職銜	-11.2949
渇	-11.295
廣平	-11.295
讙	-11.2951
羊舌	-11.2953
文煥	-11.2955
成擒	-11.2955
於中	-11.2955
立而	-11.2956
陞補	-11.2956
頓兵	-11.2957
無度	-11.2957
范瓊	-11.2957
闗𦂳要	-11.2958
放火	-11.2958
根株	-11.2958
來㑹	-11.296
吾民	-11.296
帝意	-11.2961
在城	-11.2961
其性	-11.2962
起而	-11.2962
監生	-11.2965
諭曰	-11.2966
同來	-11.2968
伊弟	-11.2968
北岸	-11.2969
子家	-11.2969
綱紀	-11.297
驛馬	-11.297
先朝	-11.297
者言	-11.2973
燕山府	-11.2973
以李	-11.2976
之捷	-11.2978
交部議敘	-11.2979
将來	-11.2983
進呈	-11.2984
公羊	-11.2984
制曰	-11.2985
等上諭軍機大臣曰	-11.2985
而治	-11.2986
唐虞	-11.2987
次於	-11.2988
通於	-11.2988
無憂	-11.2989
相通	-11.299
山路	-11.299
意者	-11.299
軍吏	-11.2991
變而	-11.2991
大定	-11.2991
農夫	-11.2995
矣遂	-11.2997
中都	-11.2997
立國	-11.2997
供奉	-11.2999
張獻忠	-11.3002
四壁	-11.3004
而勿	-11.3004
之利也	-11.3005
少保	-11.3008
命也	-11.3009
承宗	-11.3016
中人	-11.3017
糾合	-11.3017
江漢	-11.3017
馳奏	-11.3022
登山	-11.3023
與俱	-11.3026
兵餉	-11.3026
赤心	-11.3026
廢之	-11.3027
之慮	-11.3032
使王	-11.3034
千秋	-11.3034
攻魏	-11.3035
羣臣皆	-11.3035
舉行	-11.3037
論其	-11.3037
為左右	-11.3039
自備	-11.3039
不起	-11.3042
為秦	-11.3046
之咎	-11.3046
公侯	-11.3048
前事	-11.3048
知人	-11.3048
散給	-11.3049
天下之士	-11.3049
恭惟	-11.305
謀殺	-11.305
焉故	-11.3051
聖祖仁皇帝	-11.3053
可無	-11.3053
叔文	-11.3055
以國	-11.3055
礙	-11.3056
殁	-11.3056
布隆吉爾	-11.3056
賽里木	-11.3057
額外	-11.3057
碾	-11.3057
卽	-11.3058
賊始	-11.3058
土伯特	-11.3059
期於	-11.3059
劵	-11.306
纎	-11.306
八十餘	-11.3061
繼進	-11.3061
煜	-11.3061
竄匿	-11.3061
炬	-11.3062
請先	-11.3062
御製	-11.3062
䟦	-11.3063
乎此	-11.3064
三千名	-11.3064
曹伯	-11.3064
曺	-11.3064
態	-11.3065
奏入上	-11.3065
我心	-11.3065
樂也	-11.3065
峪	-11.3066
無由	-11.3066
稱王	-11.3067
籌酌	-11.3068
卒子	-11.3069
不歸	-11.3069
鼓舞	-11.307
致命	-11.3071
賠補	-11.3071
努力	-11.3072
眡	-11.3074
稟稱	-11.3075
石城	-11.3076
上幸	-11.3077
人畜	-11.3077
鄖陽	-11.3078
定逺	-11.308
宣化	-11.3081
器用	-11.3082
後至	-11.3082
并將	-11.3083
達爾扎	-11.3087
并令	-11.3087
正朔	-11.3087
蔡人	-11.3088
非我	-11.3088
勸之	-11.3088
滿福	-11.3089
二十餘年	-11.3092
各路官兵	-11.3095
和尚	-11.3096
夏國	-11.3096
餘人	-11.3097
比干	-11.3097
廷議	-11.3098
恥之	-11.3099
殺子	-11.3099
單弱	-11.3103
饑民	-11.3103
以靖	-11.3104
四州	-11.3105
之交	-11.3105
受詔	-11.3107
朕念	-11.3108
不辭	-11.3109
師鐸	-11.3109
嚴切	-11.311
信任	-11.3116
奸臣	-11.3117
解往	-11.3118
政府	-11.3119
欲往	-11.3122
王莽	-11.3122
天文	-11.3123
勇力	-11.3125
議以	-11.3128
老成	-11.3128
涿州	-11.3132
先進	-11.3132
西伯	-11.3133
深悉	-11.3134
䝉古主	-11.3135
徳而	-11.3135
據奏	-11.3136
必自	-11.3136
於吳	-11.3136
加之	-11.314
失機	-11.314
也秦	-11.3141
有心	-11.3141
艦	-11.3142
前㫖	-11.3142
周公之	-11.3144
尚多	-11.3144
朝義	-11.3146
魏文侯	-11.3147
伯之	-11.3147
於義	-11.3148
據李侍堯奏	-11.3148
皆潰	-11.3149
礦	-11.315
退回	-11.315
忠貞	-11.3153
略陽	-11.3154
與汝	-11.3154
子思曰	-11.3155
辦事大臣	-11.3156
之神	-11.3157
淡	-11.3157
正可	-11.316
策旺喇卜灘	-11.3161
黄州	-11.3162
光逺	-11.3162
修理	-11.3162
跟	-11.3168
敬宗	-11.3169
端濟布	-11.3169
江夏	-11.3171
滂	-11.3171
伎	-11.3172
尹繼善	-11.3172
上諭議政大臣等曰	-11.3172
篡	-11.3173
夘	-11.3174
葺	-11.3175
舉國	-11.3176
整飭	-11.3177
謂左右曰	-11.3178
脂	-11.3178
貝勒察尼	-11.3178
善於	-11.318
踏	-11.318
不惜	-11.318
李化龍	-11.318
圖等	-11.318
叟	-11.3181
則不能	-11.3182
曹文詔	-11.3183
法司	-11.3183
六卿	-11.3184
其室	-11.3184
副都御史	-11.3184
臯陶	-11.3184
遊牧	-11.3184
瘞	-11.3185
疆界	-11.3185
禁旅	-11.3187
惑衆	-11.3187
憚之	-11.3188
此兵	-11.3188
梧州	-11.3188
諸葛亮	-11.3189
王時雍	-11.319
揚言	-11.3191
所立	-11.3191
藏之	-11.3191
與敵	-11.3194
乘輿	-11.3199
咨部	-11.3199
不爲	-11.32
牧羣	-11.3201
撤還	-11.3201
傷損	-11.3203
八萬	-11.3203
曰吾欲	-11.3204
補用	-11.3204
實難	-11.3205
可復	-11.3205
獻俘	-11.3205
上尊號	-11.3205
喇布	-11.321
不可勝	-11.321
市井	-11.3212
多所	-11.3215
骸骨	-11.3216
出沒	-11.3216
合肥	-11.3218
若將	-11.3218
賢良	-11.3218
青草	-11.3218
師出	-11.3222
意見	-11.3225
治民	-11.3225
戍卒	-11.3226
給賞	-11.3227
伊犂屯田	-11.3227
進圍	-11.3228
縣丞	-11.3228
親也	-11.3228
五寸	-11.3229
烏爾	-11.323
其失	-11.323
物之	-11.3233
之主也	-11.3234
所報	-11.3235
此三者	-11.3237
許人	-11.3239
功罪	-11.3239
食其	-11.3244
我朝	-11.3244
遣中使	-11.3245
率同	-11.3245
徐州刺史	-11.3245
時也	-11.3245
江中	-11.3255
南軍	-11.3256
此舉	-11.3256
秦軍	-11.326
大明	-11.326
堂下	-11.3262
武定	-11.3263
動用	-11.3266
平地	-11.3266
為是	-11.3267
上諭曰	-11.3268
王徳	-11.3269
莒人	-11.3273
三川	-11.3277
三員	-11.3279
甚明	-11.328
髙下	-11.3282
曰主上	-11.3283
猶以	-11.3284
萬乘之	-11.3285
畏其	-11.3285
帕	-11.3286
扎那噶爾布	-11.3286
君長	-11.3287
應天	-11.3288
燕兵	-11.3288
瑚爾起	-11.3289
相當	-11.329
其形	-11.3291
叨	-11.3291
捲	-11.3291
其舊	-11.3292
幟	-11.3294
飄	-11.3295
儀同三司	-11.3295
絀	-11.3296
卸	-11.3296
見而	-11.3296
慚	-11.3296
彗星	-11.3297
黙特	-11.3297
如其	-11.3298
夫以	-11.3298
文武員弁	-11.3298
熾磐	-11.3298
軼	-11.3299
多難	-11.33
嶷	-11.33
不亦難乎	-11.3301
一百六十	-11.3301
夔	-11.3302
黄門侍郎	-11.3304
麤	-11.3304
廊	-11.3304
六年春正月	-11.3304
耆老	-11.3304
知我	-11.3305
引軍	-11.3305
之誠	-11.3306
迎接	-11.3306
逋逃	-11.3307
則下	-11.3308
不返	-11.3309
更相	-11.3309
武備	-11.3309
錢粮	-11.3309
宗廟之	-11.3311
言於上曰	-11.3314
之行也	-11.3314
罵曰	-11.3315
黙啜	-11.3316
半年	-11.3317
緑旗官兵	-11.3317
傅庭	-11.3318
昭烈	-11.3318
水道	-11.3319
意外	-11.332
憂也	-11.332
烏舎	-11.3321
疏請	-11.3321
縣令	-11.3323
上𦂳	-11.3324
北路軍營	-11.3327
仲堪	-11.333
諸鎮	-11.3332
似道	-11.3334
徳成	-11.3336
曰余	-11.3336
恨之	-11.3338
如所請	-11.3338
不決	-11.3338
帳下	-11.3341
勞費	-11.3342
成而	-11.3342
太僕	-11.3343
經由	-11.3343
如許	-11.3344
此二	-11.3345
北宫	-11.3345
報部	-11.3346
不由	-11.3346
五年春正月	-11.3346
而歸之	-11.3347
一座	-11.3348
左將軍	-11.3348
必矣	-11.3349
相如	-11.335
旋師	-11.335
親近	-11.335
其門	-11.3351
用心	-11.3352
将帥	-11.3353
為都督	-11.3354
既平	-11.3355
一鼓	-11.3355
太弟	-11.3356
日内	-11.3358
仁和	-11.3359
四百餘	-11.3363
何也曰	-11.3365
寧逺	-11.3365
以杜	-11.3366
營於	-11.3366
被官兵	-11.3366
上諭軍機大臣曰昨	-11.3368
排列	-11.3368
夷人	-11.3368
日至	-11.3369
事已	-11.337
正統	-11.3374
之惡	-11.3375
甚屬奮勉	-11.3375
當其	-11.3376
七十里	-11.3378
如數	-11.3378
奄至	-11.3379
月日	-11.338
乎哉	-11.338
堂上	-11.3381
㑹兵	-11.3381
始末	-11.3382
上殿	-11.3383
十五里	-11.3383
者矣	-11.3383
當日	-11.3387
大喪	-11.3387
明王	-11.339
六曰	-11.3392
力竭	-11.3393
於今	-11.3394
被脅	-11.3396
情由	-11.3397
恐致	-11.3397
簽	-11.34
先往	-11.3401
文王之	-11.3403
殺獲	-11.3404
退去	-11.3404
崇文	-11.3405
君子不	-11.3406
擢用	-11.3407
令狐	-11.3407
察罕廋爾	-11.3409
莽依圖	-11.3409
從寛	-11.341
應募	-11.341
沙喇擘勒	-11.341
吳達善	-11.3411
逰撃	-11.3411
逕	-11.3412
聳	-11.3413
帶來	-11.3413
醮	-11.3413
癸夘	-11.3413
閽	-11.3413
瀚海	-11.3414
竅	-11.3414
薛延陁	-11.3414
猜忌	-11.3415
罄	-11.3416
七里	-11.3416
僅以身免	-11.3417
順承郡王	-11.3417
惟一	-11.3419
咽喉	-11.3419
皋	-11.342
前諭	-11.3421
㝷	-11.3421
諸務	-11.3422
緜	-11.3422
伏見	-11.3422
南鄭	-11.3422
鐘鼓	-11.3423
孳生	-11.3423
王曰善	-11.3423
過也	-11.3423
為盜	-11.3424
可保	-11.3424
謳	-11.3425
兖州刺史	-11.3425
之苦	-11.3426
務獲	-11.3426
氓	-11.3426
陽城	-11.3426
播遷	-11.3428
為樂	-11.3428
藍田	-11.3429
崇韜	-11.3429
企	-11.343
疵	-11.343
探知	-11.3431
退軍	-11.3431
三十七	-11.3432
一石	-11.3433
此人	-11.3433
患也	-11.3433
莫大焉	-11.3434
先發	-11.3437
甘泉	-11.3438
分散	-11.3438
吳起	-11.3441
老矣	-11.3442
安陸	-11.3443
之詩	-11.3443
往者	-11.3445
既入	-11.3445
易曰	-11.3446
侍讀	-11.3447
曰聞	-11.3449
而去之	-11.3451
均屬	-11.3452
武俊	-11.3452
行裝	-11.3452
反側	-11.3454
樓船	-11.3454
指日	-11.3454
安集	-11.3455
正值	-11.346
博爾	-11.346
皆得	-11.3461
㑹盟	-11.3463
布置	-11.3464
以全	-11.3464
素服	-11.3465
四十五	-11.3466
禁兵	-11.3466
魏兵	-11.3466
之區	-11.3467
八百餘	-11.3468
急務	-11.3468
使使	-11.3469
更生	-11.3469
過多	-11.3472
必亡	-11.3472
止之曰	-11.3473
子良	-11.3474
格外	-11.3476
也不如	-11.3477
經降㫖	-11.3477
驍將	-11.3477
而敗	-11.3478
又敗	-11.3479
之項	-11.3482
故人	-11.3483
督府	-11.3483
威靈	-11.3483
處處	-11.3485
綠旗兵丁	-11.3487
顧謂	-11.3487
六十餘	-11.3488
關係	-11.3488
軍府	-11.3492
屯于	-11.3492
孺	-11.3494
八千人	-11.3497
為難	-11.3498
保等	-11.3498
水泉	-11.35
天恩	-11.3501
詢之	-11.3501
酌量賞給	-11.3502
早為	-11.3502
雖係	-11.3503
所恃	-11.3507
天下之人	-11.3507
部員外郎	-11.3507
兵討之	-11.3509
今月	-11.3511
將有	-11.3513
子罕	-11.3513
孝宗	-11.3515
之德	-11.3515
師敗績	-11.3517
仙芝	-11.3517
步軍	-11.3518
回營	-11.3519
善人	-11.352
之身	-11.352
其禮	-11.3521
李斯	-11.3522
佃	-11.3522
也彼	-11.3525
嚴查	-11.3526
志在	-11.3526
線	-11.3526
前編	-11.3526
來奏	-11.3527
事竣後	-11.3528
吹納木喀	-11.3529
商南多爾濟	-11.3529
不敵	-11.3529
拘泥	-11.353
大罪	-11.353
馳至	-11.353
亦為	-11.353
以天下	-11.3531
後有	-11.3532
致之	-11.3532
巴圖濟爾噶爾	-11.3532
噶勒雜特	-11.3533
王權	-11.3534
宣布	-11.3535
躋	-11.3535
庠	-11.3536
仍在	-11.3536
善戰	-11.3536
不踰	-11.3536
漂	-11.3537
犧	-11.3538
褚	-11.3538
使來	-11.3538
舟楫	-11.3538
合於	-11.3539
迫脅	-11.3539
鬪	-11.3539
迓	-11.354
拾遺	-11.354
撞	-11.354
己夘	-11.3541
跟役	-11.3541
京兆尹	-11.3541
皝	-11.3541
磁	-11.3541
飼	-11.3542
忝	-11.3542
寐	-11.3543
操演	-11.3543
國安	-11.3543
租賦	-11.3544
諾顔	-11.3544
奏凱	-11.3544
殪	-11.3544
卬	-11.3545
阿史那	-11.3545
莫知其	-11.3545
菹	-11.3545
中立	-11.3546
荀息	-11.3546
時人	-11.3546
兩浙	-11.3546
官一員	-11.3546
計其	-11.3548
灑	-11.3548
明晰	-11.3549
食物	-11.3549
匱乏	-11.3549
與魏	-11.355
大節	-11.355
本身	-11.3553
家属	-11.3553
其大	-11.3553
暴露	-11.3555
詐為	-11.3555
明亮	-11.3557
厄魯特噶爾丹	-11.3557
漕運	-11.3558
烏蘭	-11.3559
數百騎	-11.3559
方為	-11.3561
開元	-11.3561
較為	-11.3561
國威	-11.3566
子大叔	-11.3567
為備	-11.3569
將行	-11.3571
四十七	-11.3576
衆賔	-11.3578
轉奏	-11.3578
南仲	-11.3579
大宋	-11.358
覺察	-11.3581
土木	-11.3582
副總兵	-11.3583
四品	-11.3586
無赦	-11.3586
政和	-11.3594
明詔	-11.3595
劄營	-11.36
重榮	-11.36
部兵	-11.3601
降賊	-11.3601
不可以不	-11.3601
特進	-11.3602
不憂	-11.3604
而攻	-11.3604
原有	-11.3604
進據	-11.3606
得書	-11.3608
列國	-11.3609
次子	-11.3609
固當	-11.3611
入内	-11.3615
商州	-11.3616
諸王大臣	-11.3618
兵衆	-11.3619
本意	-11.3623
斷絶	-11.3623
所闗	-11.3624
行則	-11.3625
秣馬	-11.3629
馳往	-11.363
深思	-11.3631
至伊犂	-11.3631
京營	-11.3631
繼至	-11.3632
督同	-11.3633
文子曰	-11.3634
斷無	-11.3634
論功	-11.3634
之尊	-11.3637
營私	-11.3639
常青李侍堯	-11.3639
甚喜	-11.364
㮚	-11.3641
曰嗚呼	-11.3642
身在	-11.3645
未㡬	-11.3646
郞	-11.365
琅邪王	-11.3652
之效	-11.3655
爲人	-11.3656
過半	-11.3657
阿敏道	-11.3657
協理台吉	-11.3657
楞	-11.3658
布延圖	-11.3658
歐	-11.3658
阿爾尼	-11.3659
歸我	-11.3659
平定三逆方畧卷	-11.3659
完竣	-11.366
荷包	-11.366
瑱	-11.366
涯	-11.3661
虗	-11.3661
夜襲	-11.3662
冷	-11.3662
諫議大夫	-11.3662
炙	-11.3663
時已	-11.3663
楯	-11.3663
不對	-11.3663
羈縻	-11.3663
契勘	-11.3663
無定	-11.3664
豁免	-11.3665
不逮	-11.3665
達實	-11.3665
袋	-11.3665
賽音	-11.3665
饑饉	-11.3666
歌曰	-11.3667
擺	-11.3667
帥兵	-11.3668
郟	-11.3668
亳州	-11.3669
悌	-11.3671
憊	-11.3671
西上	-11.3671
陳於	-11.3671
傳首	-11.3673
舒亮	-11.3673
六名	-11.3673
涿	-11.3674
又因	-11.3674
驪	-11.3675
皆言	-11.3676
糧米	-11.3676
沅	-11.3676
扁鵲	-11.3677
吾輩	-11.3677
納木	-11.3679
庶民	-11.368
孰不	-11.368
下邳	-11.368
遂令	-11.3683
朕於	-11.3684
而朝	-11.3687
巴禄	-11.3688
其巢穴	-11.3689
田宅	-11.3692
周圍	-11.3692
殱滅	-11.3694
分屯	-11.3695
邀之	-11.3695
上不許	-11.3695
倍道	-11.3697
勿與	-11.3698
北漢主	-11.3699
惡乎	-11.3702
六百名	-11.3703
恩克	-11.3706
景王	-11.3708
經畫	-11.3708
少年	-11.3709
何以為	-11.3709
之卒	-11.371
守忠	-11.3714
廣漢	-11.3717
協副將	-11.3718
咨㑹	-11.3719
支領	-11.3719
被甲	-11.372
作色	-11.3722
使天下	-11.3722
辨其	-11.3723
海外	-11.3723
其法	-11.3724
當先	-11.3726
汾州	-11.3728
忠誠	-11.3729
者惟	-11.3731
雍州刺史	-11.3732
天下之大	-11.3733
魏徴	-11.3733
朕之	-11.3734
尚書右丞	-11.3735
之為言	-11.3736
利州	-11.3736
何其	-11.3737
專權	-11.3738
越州	-11.3739
懲創	-11.3739
擯者	-11.374
求救	-11.3743
樞宻使	-11.3744
而先	-11.3745
同州	-11.3749
安静	-11.3749
均係	-11.3754
天降	-11.3755
核其	-11.3755
馬甲	-11.3756
切責	-11.3757
伊勒	-11.376
才能	-11.3762
昭義	-11.3764
悛	-11.3764
賊將	-11.3765
民夫	-11.3767
格爾	-11.3768
品級	-11.3768
清水	-11.3768
王輔臣	-11.3769
逃來	-11.3769
兵四千	-11.3772
李彦	-11.3772
之比	-11.3773
折卜尊丹巴	-11.3773
若得	-11.3773
如或	-11.3775
塔勒納沁	-11.3776
鄂對	-11.3776
蘇爾	-11.3776
諉	-11.3778
博囉	-11.3778
箇	-11.378
綠旗官兵	-11.378
霖	-11.378
簾	-11.378
諭定邊將軍兆惠等	-11.3781
在天	-11.3781
下落	-11.3781
錮	-11.3782
亦在	-11.3783
孟孫	-11.3783
塟	-11.3786
撒拉爾	-11.3787
釜	-11.3787
鄩	-11.3788
季武子	-11.3788
冩	-11.3789
瀕	-11.3789
太宰嚭	-11.379
乍	-11.379
騶	-11.3791
希萼	-11.3791
率所部	-11.3792
毎佐領	-11.3793
筏	-11.3793
營總	-11.3793
職名	-11.3793
駐防滿兵	-11.3794
過冬	-11.3795
寧謐	-11.3796
黄龍	-11.3796
錦衣	-11.3797
閲看	-11.3799
不設備	-11.38
于楚	-11.3801
拏解	-11.3801
信義	-11.3804
者無不	-11.3807
兵五萬	-11.3812
沃日	-11.3812
宣言	-11.3813
郡守	-11.3813
而惡	-11.3814
不悛	-11.3814
本國	-11.3815
海澄	-11.3815
烏桓	-11.3816
動静	-11.3819
揔管	-11.382
悔罪	-11.3821
之學	-11.3823
皆稱	-11.3823
勝則	-11.3825
傳之	-11.3826
静寧	-11.3829
復召	-11.3829
顯忠	-11.3829
奮勉効力	-11.3829
亡國之	-11.3831
天人	-11.3833
子夏	-11.3834
大兵進𠞰	-11.3834
監國	-11.3835
王府	-11.3836
可恃	-11.3836
王元	-11.3838
不倦	-11.3845
之彊	-11.3846
察看	-11.3848
金幣	-11.3848
地道	-11.3849
致其	-11.3855
帝即位	-11.3855
以下皆	-11.3855
戰則	-11.3856
唯唯	-11.3856
不可輕	-11.3857
之所為	-11.3858
神䇿	-11.3862
賜爵	-11.3865
回城	-11.3866
中流	-11.3867
以象	-11.3867
通省	-11.3868
故謂之	-11.3868
朕㫖	-11.3868
軍敗	-11.3868
不定	-11.3869
餘匪	-11.3872
戰不勝	-11.3872
之舊	-11.3874
四起	-11.3874
在事	-11.3876
當國	-11.3878
等報稱	-11.3879
之智	-11.3879
事聞	-11.388
乘此	-11.3881
北漢	-11.3882
大徳	-11.3883
合而	-11.3883
後再	-11.3883
親統	-11.3883
往投	-11.3884
者猶	-11.3885
豈容	-11.3885
子期	-11.3886
二十餘萬	-11.3887
逺者	-11.3888
以拒之	-11.3888
收集	-11.3892
其忠	-11.3893
州揔管	-11.3893
道君	-11.3896
行禮	-11.3896
入關	-11.3897
十匹	-11.3897
深信	-11.3898
上國	-11.3901
君何	-11.3904
與之俱	-11.3905
諾爾布林沁	-11.3908
建康府	-11.3908
晡	-11.3909
兵權	-11.391
百世	-11.3911
昨日	-11.3911
𤓰州	-11.3911
華林山	-11.3911
東走	-11.3911
鎖	-11.3911
汭	-11.3912
衘	-11.3912
致有	-11.3912
二字	-11.3912
不能克	-11.3913
中正	-11.3913
田州	-11.3914
捶	-11.3914
摰	-11.3914
斧鉞	-11.3915
撻	-11.3916
旃	-11.3916
磧	-11.3916
刈	-11.3916
顓	-11.3917
正典刑	-11.3917
酖	-11.3918
凛	-11.3918
宗正	-11.3919
者唯	-11.392
益急	-11.392
巴祿	-11.392
北海	-11.3921
督催	-11.3921
僨事	-11.3921
已破	-11.3922
無害	-11.3922
臣謂	-11.3923
念其	-11.3923
每月	-11.3924
喜怒	-11.3924
無失	-11.3925
僮	-11.3925
望其	-11.3925
為之備	-11.3925
復立	-11.3925
姑臧	-11.3926
相結	-11.3927
義民等	-11.3927
螽	-11.3927
萬五千	-11.3929
艮	-11.393
欲取	-11.3931
虎狼	-11.3935
轉輸	-11.3937
㑹寧	-11.3939
亦不過	-11.394
華善	-11.394
閤門	-11.3941
隨宜	-11.3941
犀首	-11.3943
令伊	-11.3948
然亦	-11.3948
此謂	-11.3948
之福也	-11.3949
南城	-11.3951
吾與	-11.3952
傅清	-11.3952
擐甲	-11.3953
性命	-11.3954
居於	-11.3954
海運	-11.3955
夷簡	-11.3957
為害	-11.3957
原籍	-11.3957
天下無	-11.3957
河決	-11.3958
惠卿	-11.3958
逃回	-11.3958
善射	-11.3959
部分	-11.3963
一千五百名	-11.3966
天性	-11.3968
七名	-11.3971
萬死	-11.3971
未完	-11.3972
和之	-11.3974
等已	-11.3974
期以	-11.3974
稱藩	-11.3974
查詢	-11.3975
不可與	-11.3977
伏念	-11.3977
以張	-11.3977
著福康安	-11.3979
六州	-11.398
據報	-11.398
未行	-11.3981
使賊	-11.3983
伏候	-11.3983
愛其	-11.3984
薩木	-11.3986
遺之	-11.3986
之端	-11.3987
虞卿	-11.3988
推恩	-11.3992
體仁	-11.3992
遂取	-11.3995
正欲	-11.3995
靡不	-11.3996
未可知	-11.3996
金吾	-11.3996
東港	-11.3998
州刺史李	-11.4004
之勇	-11.4008
亡人	-11.4008
不敢出	-11.4008
帶領前往	-11.4008
欽遵	-11.4009
死戰	-11.4011
之財	-11.4013
十倍	-11.4016
會合	-11.4019
不能盡	-11.4019
藏地	-11.4019
取勝	-11.4019
西道	-11.4021
獨與	-11.4021
格壘沽英	-11.4022
大通	-11.4023
既退	-11.4023
騷	-11.4024
二百五十	-11.4025
緊	-11.4025
前至	-11.4028
為後	-11.4031
福寧	-11.4031
劉向㠯為	-11.4033
巴圖爾烏巴什	-11.4033
曽子曰	-11.4033
嶲州	-11.4035
令將	-11.4035
峰	-11.4036
悉行	-11.4037
立即	-11.4037
䕶軍綂領	-11.4037
無乃不可乎	-11.4038
以示奬勵	-11.4039
工部侍郎	-11.4039
奏云	-11.404
郕	-11.4041
斥堠	-11.4041
窄	-11.4042
然後可以	-11.4042
舉火	-11.4042
猥	-11.4042
王廷贊	-11.4042
逆天	-11.4042
該將軍	-11.4043
州刺史王	-11.4043
弈	-11.4043
洶洶	-11.4043
之仁	-11.4043
廻	-11.4043
黜陟	-11.4043
戈壁	-11.4044
大禮	-11.4044
稽遲	-11.4045
軸	-11.4045
粮餉	-11.4046
妻孥	-11.4046
燈	-11.4046
遯	-11.4046
蹤跡	-11.4046
垢	-11.4047
刳	-11.4047
婉	-11.4048
不勝其	-11.4049
鎰	-11.4049
長城	-11.4049
購辦	-11.405
后妃	-11.4051
刺之	-11.4052
仲熊	-11.4052
董卓	-11.4053
團練	-11.4053
臨洮	-11.4053
逢吉	-11.4055
以往	-11.4056
事秦	-11.4056
交惡	-11.4057
上邽	-11.4057
聖祖	-11.4057
郴州	-11.4057
義宣	-11.4058
寧王	-11.4058
吐番	-11.4059
以賜	-11.406
惶恐	-11.406
民多	-11.4062
宣力	-11.4064
伯父	-11.4065
疏曰	-11.4066
取天下	-11.4068
不啻	-11.4068
所求	-11.4069
一見	-11.4069
砲位	-11.4069
師老	-11.4071
今者	-11.4074
而陛下	-11.4074
制也	-11.4075
諳練	-11.4076
兵赴	-11.4076
聖訓	-11.4078
嘉靖	-11.4079
它日	-11.4081
稱疾不	-11.4082
神策	-11.4082
已行	-11.4083
朝見	-11.4085
多事	-11.4086
先令	-11.4087
外有	-11.4088
不休	-11.4089
元帝	-11.4091
上令	-11.4092
億萬	-11.4093
再四	-11.4095
南海	-11.41
肅宗	-11.4101
負固	-11.4102
豫為	-11.4103
白帝	-11.4104
張永	-11.4105
三十一	-11.4106
宗周	-11.4108
遂命	-11.4109
山河	-11.4109
必克	-11.411
其始	-11.4111
無食	-11.4112
慰撫	-11.4114
而逺	-11.4114
守令	-11.4118
書奏	-11.4118
遣其弟	-11.4119
素有	-11.4122
増兵	-11.4122
從寛免	-11.4123
相對	-11.4124
為期	-11.4125
不朝	-11.4126
則不可	-11.4126
何哉	-11.4127
遣使詣	-11.4128
無所用	-11.4131
明帝	-11.4131
永清	-11.4134
戰船	-11.4135
不審	-11.4136
事無	-11.4136
齊衰	-11.4136
一隻	-11.4136
單子	-11.4142
帝崩	-11.4142
驚懼	-11.4143
曰據	-11.4144
王淵	-11.4146
則不然	-11.4146
母子	-11.4147
稱賀	-11.4147
博羅	-11.4148
從榮	-11.4149
兹據	-11.4149
大駭	-11.4151
疆土	-11.4153
羣賊	-11.4155
金人陷	-11.4155
事成	-11.4156
撥運	-11.4156
作樂	-11.4156
吞圖布	-11.4158
糗	-11.416
禁之	-11.416
韓宣子	-11.4161
未必不	-11.4161
不先	-11.4162
此語	-11.4163
餧	-11.4164
煽誘	-11.4165
忒	-11.4166
奐	-11.4166
媒	-11.4167
殿中侍御史	-11.417
不失其	-11.4171
蹂	-11.4171
解送來京	-11.4172
透	-11.4172
廕	-11.4172
昵	-11.4174
牋	-11.4174
吾屬	-11.4174
茫	-11.4175
胆	-11.4176
兵共	-11.4176
孫傳	-11.4177
詵	-11.4177
君子也	-11.4177
鉉	-11.4177
新柱	-11.4178
徹底	-11.4178
詈	-11.4178
將軍莽依圖	-11.4179
父子兄弟	-11.4179
録尚書事	-11.418
朂	-11.418
嗇	-11.4181
勃海	-11.4183
溺死	-11.4183
鴟張	-11.4184
何如對曰	-11.4184
也雖	-11.4184
應交	-11.4184
可信	-11.4184
意在	-11.4184
張居正	-11.4184
晉兵	-11.4186
亦將	-11.4187
曰善哉	-11.4187
送京	-11.4187
拉藏	-11.4188
戒之	-11.4188
無所得	-11.4189
内挑選	-11.419
九重	-11.4191
不協	-11.4191
日行	-11.4192
復出	-11.4193
孔雀翎	-11.4193
思慮	-11.4194
詭計	-11.4195
多兵	-11.4195
南歸	-11.4196
鎮將	-11.4197
而罷	-11.4198
埋伏	-11.4199
二者	-11.42
其職	-11.4201
都堂	-11.4201
分别辦理	-11.4202
徐逹	-11.4202
招募	-11.4202
以固	-11.4203
軍國	-11.4204
得此	-11.4206
叅奏	-11.4209
功績	-11.4209
魏以	-11.4209
屬員	-11.4211
矣臣	-11.4212
安敢	-11.4215
解赴	-11.4217
安堵	-11.4218
典史	-11.4218
游擊	-11.4218
餉銀	-11.4219
强弱	-11.4219
戮之	-11.4219
與公	-11.4221
大振	-11.4223
親赴	-11.4225
粤兵	-11.4225
邾子	-11.4226
任使	-11.4226
所知也	-11.4226
仁人	-11.4227
二府	-11.4228
計算	-11.423
自外	-11.4231
郭勒	-11.4233
達禮	-11.4234
與同	-11.4234
之約	-11.4239
國忠	-11.4239
二女	-11.424
帝聞	-11.424
五福	-11.4241
伊克	-11.4241
安靜	-11.4243
伯彦	-11.4243
鄉人	-11.4244
請為	-11.4246
給予	-11.4247
兩淮	-11.4247
交部議叙	-11.4249
帥臣	-11.425
其禍	-11.4251
者死	-11.4251
特勒	-11.4252
死罪	-11.4252
有馬	-11.4254
立是為	-11.4255
應添兵	-11.4256
出則	-11.4257
封侯	-11.4259
門者	-11.4261
布等	-11.4261
遊於	-11.4262
司寇	-11.4262
力士	-11.4262
之辭也	-11.4266
共其	-11.4267
非獨	-11.4269
皆已	-11.4269
進封	-11.4269
韶州	-11.427
也王曰	-11.427
乃欲	-11.427
君必	-11.427
勞之	-11.4271
移營	-11.4272
嘉義	-11.4273
犒軍	-11.4273
下大夫	-11.4273
之功也	-11.4274
北歸	-11.4275
在側	-11.4275
終不能	-11.4278
兵屯	-11.4279
皆非	-11.428
三十名	-11.4281
先將	-11.4282
西戎	-11.4282
人夫	-11.4282
愛子	-11.4284
明史紀事本末卷	-11.4284
屯田兵丁	-11.4287
者先	-11.4288
六尺	-11.4291
璽綬	-11.4294
恰	-11.4294
出痘	-11.4295
或勸	-11.4296
有禆益	-11.4299
濟爾哈朗	-11.4299
達瓦	-11.4299
吕頥浩	-11.43
逗遛	-11.43
僉事	-11.4301
群	-11.4301
務將	-11.4301
瑣	-11.4301
自潰	-11.4301
闥	-11.4302
盂	-11.4302
著查明	-11.4303
憐之	-11.4303
牓	-11.4304
邊疆	-11.4304
與之同	-11.4304
懿公	-11.4305
肱	-11.4305
襟	-11.4305
天下幸甚	-11.4306
扎薩克等	-11.4306
溼	-11.4306
瞭望	-11.4307
頗為	-11.4308
廓清	-11.4309
蝕	-11.431
被其	-11.431
魋	-11.4311
赤眉	-11.4311
詛	-11.4311
莫有	-11.4311
復遣使	-11.4311
鄢陵	-11.4312
夏后氏	-11.4312
衾	-11.4312
爨	-11.4313
宣子曰	-11.4313
等謀	-11.4314
廬舍	-11.4314
皖	-11.4315
振武	-11.4315
斷不能	-11.4315
及至	-11.4316
多羅	-11.4316
遵前㫖	-11.4318
按律	-11.4318
出見	-11.432
必由	-11.432
金州	-11.432
激變	-11.4321
晉州	-11.4323
有賊匪	-11.4324
道士	-11.4324
趙鞅	-11.4325
而逃	-11.4326
給銀	-11.4327
羣盗	-11.4328
受恩	-11.4329
商辦	-11.4329
以清	-11.433
宫祠	-11.433
海疆	-11.433
情弊	-11.433
終無	-11.4331
在案	-11.4331
應如何	-11.4332
林爽文等	-11.4336
不厭	-11.4338
輔國公	-11.4341
屬下人	-11.4342
差官	-11.4343
國亡	-11.4347
退守	-11.4348
商量	-11.435
已入	-11.4351
盡數	-11.4351
于民	-11.4351
與齊	-11.4352
所發	-11.4352
又於	-11.4353
存者	-11.4354
但念	-11.4355
異議	-11.4355
有言曰	-11.4356
生死	-11.4356
之首	-11.4358
功業	-11.4359
屬可嘉	-11.4359
甲胄	-11.4359
庫勒	-11.4359
懌	-11.4361
以此為	-11.4362
與契丹	-11.4364
劉瑾	-11.4364
夜郎	-11.4365
威福	-11.4365
科舉	-11.4366
之好	-11.4366
有謀	-11.4369
四鎮	-11.437
毁之	-11.4371
故為	-11.4375
九年春	-11.4375
臣嘗	-11.4376
西至	-11.4377
康叔	-11.4377
永嘉	-11.4381
樂安	-11.4381
各一員	-11.4381
候補	-11.4382
二省	-11.4382
於郊	-11.4384
不才	-11.4387
事事	-11.4388
本係	-11.4389
酣	-11.4389
其子孫	-11.439
西突厥	-11.4392
周旋	-11.4394
烏合	-11.4397
不亡	-11.4399
文伯	-11.44
兵備	-11.44
李靖	-11.4403
大笑	-11.4404
出走	-11.4406
善而	-11.441
少者	-11.441
淖	-11.4415
未暇	-11.4418
二賊	-11.442
薩喇爾等	-11.4421
勁兵	-11.4422
乗此	-11.4423
選侍	-11.4423
嵩之	-11.4425
喂	-11.4425
歴年	-11.4425
濟隆庫圖克圖	-11.4425
等往	-11.4426
王經隆	-11.4426
翎	-11.4426
我國家	-11.4427
伯什阿噶什	-11.4427
西走	-11.4428
示衆	-11.4428
衞人	-11.4429
譜	-11.4429
策卜登	-11.4431
郡國	-11.4432
嫻	-11.4432
証	-11.4432
斾	-11.4433
起發	-11.4433
陕	-11.4433
羲	-11.4433
鬚	-11.4434
一門	-11.4434
朕心深為	-11.4434
槊	-11.4435
刑部侍郎	-11.4436
邀截	-11.4437
宵旰	-11.4437
凟	-11.4437
荐	-11.4437
种	-11.4438
郯	-11.4438
爪	-11.4438
百金	-11.4438
煎	-11.4438
塢	-11.4439
鞮	-11.4439
井陘	-11.444
印文	-11.444
開墾	-11.444
問罪	-11.444
糜費	-11.4441
合力	-11.4441
幫	-11.4442
其鋒	-11.4443
報曰	-11.4443
少昊	-11.4443
馮翊	-11.4444
欺罔	-11.4444
無所歸	-11.4445
相視	-11.4445
輔之	-11.4445
嚴審	-11.4446
上駐蹕	-11.4447
澎湖	-11.4448
乞師	-11.4448
主管	-11.4448
奸細	-11.445
移軍	-11.4451
兵合	-11.4451
黄鐘	-11.4452
孟氏	-11.4454
天光	-11.4454
而泣	-11.4454
南北兩路	-11.4456
鄂爾	-11.4456
國體	-11.4456
太祖皇帝	-11.4457
百名	-11.4457
翰林院	-11.4458
掩襲	-11.4459
阿珠	-11.446
乘其	-11.4463
聖駕	-11.4463
一百四十	-11.4464
兵多	-11.4464
親行	-11.4465
十有六	-11.4467
二十餘里	-11.447
聽從	-11.447
水中	-11.4472
無親	-11.4472
非其人	-11.4474
六畜	-11.4474
復攻	-11.4476
罵賊	-11.4476
何異	-11.4476
著交	-11.4476
而擊之	-11.4477
欽差	-11.4477
李侍堯奏言	-11.4477
之本	-11.4478
來春	-11.4478
不可使	-11.4479
體恤	-11.448
曰孤	-11.448
不急	-11.448
来京	-11.448
陽榖	-11.4481
輕進	-11.4482
賢士	-11.4482
之流	-11.4483
臺諌	-11.4483
咸知	-11.4485
西岸	-11.4485
嘗與	-11.4489
躍馬	-11.4489
無餘	-11.4489
職官	-11.4492
營内	-11.4492
而返	-11.4493
應俟	-11.4493
中止	-11.4493
商民	-11.4493
最要	-11.4494
親隨	-11.4495
墜馬	-11.4497
既克	-11.4497
亦然	-11.4497
得有	-11.4498
繼遷	-11.4499
其家屬	-11.45
經朕	-11.4502
内亂	-11.4504
居處	-11.4504
國泰	-11.4505
共工	-11.4506
五十六	-11.4506
再為	-11.4508
前任	-11.4509
爭先	-11.4511
享之	-11.4512
但伊等	-11.4512
歸而	-11.4513
入對	-11.4513
保其	-11.4514
名實	-11.4514
願以	-11.4517
敵衆	-11.4517
建寧	-11.4519
而可	-11.4521
帥所部	-11.4523
詔曰朕	-11.4524
丹陽	-11.4525
移至	-11.4526
酒酣	-11.4527
懲治	-11.4527
論列	-11.4527
逐北	-11.4528
義陽	-11.4529
大統	-11.453
不終	-11.4531
更無	-11.4531
分地	-11.4533
續到	-11.4536
已諭	-11.4536
之迹	-11.4536
不求	-11.4538
朕自	-11.4539
脚價	-11.4539
為庶人	-11.4541
被獲	-11.4541
犬馬	-11.4543
檻	-11.4544
聴其	-11.4545
君君	-11.4545
之詞	-11.4547
成臯	-11.4548
大夫也	-11.4552
而不用	-11.4554
新安	-11.4555
八十里	-11.4556
科道	-11.4557
命之曰	-11.4557
株	-11.456
以疾	-11.456
等並	-11.4561
之國也	-11.4566
所駐	-11.4566
夀陽	-11.4567
欽定平定臺灣紀畧	-11.4568
黯	-11.4568
三寸	-11.4569
移於	-11.4569
乞罷	-11.4569
僞	-11.457
叶	-11.4571
趙魏	-11.4571
阿齊圖	-11.4571
浙江提學僉事谷應泰編	-11.4572
郭威	-11.4572
宣州	-11.4572
鄢	-11.4572
翹	-11.4573
安逺	-11.4573
弧	-11.4573
姚平仲	-11.4575
交結	-11.4575
阿喇卜坦	-11.4575
荆軻	-11.4575
壑	-11.4576
杯	-11.4576
里木	-11.4576
傅友徳	-11.4576
章邯	-11.4576
翌日	-11.4577
鹽茶	-11.4577
老耼	-11.4578
建業	-11.4578
炊	-11.4579
州團練使	-11.4579
協𠞰	-11.458
婆	-11.4582
製造	-11.4583
絶域	-11.4583
遂定	-11.4583
管束	-11.4584
洪範	-11.4584
禺	-11.4584
錢塘	-11.4585
牙將	-11.4586
得脱	-11.4586
惻然	-11.4587
弘農	-11.4587
楊沂中	-11.4588
北狩	-11.4589
千餘級	-11.4589
山澤	-11.459
巴西	-11.459
為天	-11.459
無悞	-11.4591
均應	-11.4591
之吏	-11.4591
玉帛	-11.4591
應給	-11.4592
和爾	-11.4593
訊據	-11.4594
仍照	-11.4594
兵萬人	-11.4597
張氏	-11.4597
無怨	-11.4597
金人已	-11.4598
伐魏	-11.4599
北至	-11.4602
外戚	-11.4604
攻打	-11.4605
可成	-11.4605
六宫	-11.4605
軍營効力	-11.4607
常平	-11.4609
不遑	-11.461
伐陳	-11.461
尊卑	-11.4611
攻剿	-11.4611
浮梁	-11.4615
聖賢	-11.4615
之辱	-11.4615
被擄	-11.4615
舎人	-11.4616
宜早	-11.4618
告竣	-11.4619
傷亡	-11.462
興化	-11.4622
州觀察使	-11.4623
鎮西	-11.4623
上疏曰	-11.4628
被掠	-11.4631
截留	-11.4631
為令尹	-11.4632
子子	-11.4633
一子	-11.4635
伐木	-11.4635
遂罷	-11.4638
又經	-11.4638
之私	-11.4639
必大	-11.464
設兵	-11.464
二百四十	-11.4641
偷安	-11.4641
天生	-11.4645
軍臺	-11.4645
原奏	-11.4646
是月也	-11.4646
人之心	-11.4646
謀於	-11.4647
不敷用	-11.4647
四分	-11.4648
其害	-11.4649
即交	-11.4651
蒙古兵	-11.4652
既行	-11.4655
前世	-11.4655
身自	-11.4655
大呼曰	-11.4655
馬一匹	-11.4656
兵甲	-11.4657
共計	-11.4658
畏罪	-11.4659
萬安	-11.466
大元帥府	-11.4661
等奏報	-11.4662
燕地	-11.4662
之象也	-11.4663
失職	-11.4664
利用	-11.4664
人掌	-11.4664
論者	-11.4664
恐不能	-11.4669
善則	-11.4671
已派	-11.4671
奠于	-11.4672
巴陵	-11.4672
也哉	-11.4672
後再行	-11.4672
伏查	-11.4676
百艘	-11.4676
蘇子	-11.4678
有急	-11.4681
欲盡	-11.4681
而棄之	-11.4682
休兵	-11.4682
打死賊匪	-11.4683
補給	-11.4683
甚易	-11.4686
乃降	-11.4688
皆殺之	-11.469
偕行	-11.4692
計日	-11.4692
良爾吉	-11.4693
魏魏	-11.4693
西北兩路	-11.4694
並行	-11.4694
也臣聞	-11.4696
願為	-11.4696
名目	-11.4696
之色	-11.4697
其德	-11.4697
觀音保	-11.4699
邊患	-11.47
咱	-11.4701
㡌	-11.4701
等前往	-11.4702
乃更	-11.4703
阿巴噶斯哈丹	-11.4703
默	-11.4704
佈	-11.4704
一等台吉	-11.4705
勔	-11.4706
安集延	-11.4706
伊都	-11.4706
濱	-11.4706
二等侍衛	-11.4706
潼	-11.4706
則又	-11.4707
荼	-11.4708
各給	-11.4708
宿將	-11.4708
勺	-11.4708
于周	-11.4709
夸蘭大	-11.4709
盎	-11.471
冨	-11.471
燥	-11.4711
唾	-11.4711
蛟	-11.4711
塊	-11.4712
擒捕	-11.4712
奏乞	-11.4713
夥黨	-11.4714
兩廣	-11.4714
毀	-11.4714
孕	-11.4714
賊踪	-11.4715
刄	-11.4715
乎王曰	-11.4715
威將軍	-11.4716
可虞	-11.4717
勇敢	-11.4718
訣	-11.4718
其應	-11.4721
與諸將	-11.4721
薩里	-11.4721
不能進	-11.4721
頭人	-11.4722
濛	-11.4723
有功者	-11.4724
醜類	-11.4724
歸罪	-11.4727
世傑	-11.4728
開銷	-11.4728
欽定四庫全書明史紀事本末卷	-11.4728
多倫	-11.473
朕甚	-11.473
巡按	-11.4731
二千餘名	-11.4731
上官	-11.4732
急需	-11.4734
概行	-11.4734
伯克霍集斯	-11.4735
雖死	-11.4737
罪之	-11.4737
畨社	-11.4738
厄魯特兵	-11.4738
其内	-11.4739
愛惜	-11.4743
歸徳	-11.4745
曰吾聞之	-11.4746
為非	-11.4749
日本	-11.4752
長幼	-11.4754
令尹子	-11.4755
仁厚	-11.4757
行師	-11.4759
游牧處	-11.4759
執其	-11.4759
而身	-11.4759
金人以	-11.476
西路軍營	-11.476
恐難	-11.476
帝謂	-11.4764
將士皆	-11.4766
王國	-11.4768
方能	-11.4769
為本	-11.4769
上自	-11.477
待其	-11.4772
備之	-11.4772
迄今	-11.4773
周書	-11.4775
不遵	-11.4775
既可	-11.4775
蘇州	-11.4777
成湯	-11.4778
既破	-11.4779
弗知	-11.4784
獨孤	-11.4785
不答	-11.4786
所害	-11.4787
焉能	-11.479
第五	-11.479
俸餉	-11.4791
甚屬可嘉著	-11.4793
劉裕	-11.4793
乎乃	-11.4793
雖不能	-11.4794
賊帥	-11.4798
啓行	-11.4798
著加恩賞給	-11.4799
髙帝	-11.4799
者以為	-11.48
偽將軍	-11.4801
回游牧	-11.4801
趙趙	-11.4802
恭儉	-11.4803
遂有	-11.4803
明珠	-11.4806
戍之	-11.481
門人	-11.4811
知誥	-11.4813
于上	-11.4815
官人	-11.4816
或在	-11.4817
恵王	-11.4818
若再	-11.4818
賊情	-11.4823
法也	-11.4825
糧務	-11.4826
前年	-11.4828
友徳	-11.4829
復舊	-11.483
祏	-11.4831
請給	-11.4833
予一人	-11.4833
勃勃	-11.4833
聞大兵	-11.4834
嵗時	-11.4834
無數	-11.4835
可慮	-11.4837
呉達善	-11.4838
畏葸	-11.4838
請俟	-11.4839
馬文熹	-11.4839
玉素富	-11.484
世隆	-11.484
小白	-11.484
常遇春	-11.4841
納噶查	-11.4841
相救	-11.4841
四處	-11.4842
上䇿	-11.4842
怡	-11.4843
潰兵	-11.4843
沽	-11.4843
千餘匹	-11.4844
病死	-11.4845
蕪	-11.4845
陳王	-11.4845
槖	-11.4845
稼穡	-11.4846
朱爾黙特那木扎爾	-11.4846
箴	-11.4847
攻勦	-11.4847
孫叔敖	-11.4847
堞	-11.4848
峴	-11.4848
未决	-11.4848
遂成	-11.4848
寰	-11.4848
先已	-11.4849
猜疑	-11.4849
盪	-11.485
藩籬	-11.4851
李德𥙿	-11.4851
旦暮	-11.4851
盼	-11.4852
岷	-11.4852
拖陵	-11.4852
如舊	-11.4853
根括	-11.4853
勉强	-11.4854
亹	-11.4854
近習	-11.4855
不睦	-11.4855
鹿角	-11.4857
百八十	-11.4857
卒於	-11.4857
珏	-11.4858
三十四	-11.4858
文忠	-11.4858
郈	-11.4859
麴	-11.4859
青城	-11.486
老幼	-11.4861
麓川	-11.4861
明德	-11.4861
衆生	-11.4861
大夫曰	-11.4862
涇陽	-11.4862
吳玠	-11.4863
步行	-11.4863
必待	-11.4864
賊至	-11.4864
行抵	-11.4865
進兵時	-11.4867
時方	-11.4867
復生	-11.4868
行府	-11.4868
楚莊王	-11.4869
折衝	-11.487
荆王	-11.487
到臺灣	-11.487
財賦	-11.4871
壯盛	-11.4873
華元	-11.4874
張士誠	-11.4874
震驚	-11.4875
姦人	-11.4876
傅恒	-11.4879
屯種	-11.4879
編修	-11.4879
瞻對	-11.4881
者欲	-11.4881
盟長	-11.4881
百倍	-11.4882
殺其大夫	-11.4883
鍾離	-11.4884
無君	-11.4885
帥其衆	-11.4886
親軍	-11.4886
州府	-11.4887
在西	-11.4888
扣還	-11.4889
中山王	-11.4891
義者	-11.4893
義士	-11.4896
顯然	-11.4898
郡公	-11.4899
曰昔者	-11.4903
澤潞	-11.4903
臧孫	-11.4903
面諭	-11.4904
竊聞	-11.4909
真宗	-11.4911
馬思喀	-11.4912
西階	-11.4913
子駟	-11.4913
豈復	-11.4913
已盡	-11.4914
嚴密	-11.4914
魯侯	-11.4914
不可失	-11.4916
聲明	-11.4919
廣信	-11.4919
公族	-11.4919
悔過	-11.4919
今將	-11.4921
廷和	-11.4921
出郊	-11.4921
亦經	-11.4923
而棄	-11.4926
終身不	-11.4926
吾言	-11.4927
安用	-11.4927
路逺	-11.4928
英宗	-11.4929
以臨	-11.493
投拜	-11.4931
厚賞	-11.4931
難敵	-11.4932
二年夏四月	-11.4933
不貳	-11.4934
晏子對曰	-11.4934
嚴兵	-11.4935
賢也	-11.4935
愚者	-11.4936
歩行	-11.4936
相為	-11.4936
不能行	-11.4938
借給	-11.4938
都元帥	-11.4938
經費	-11.4938
不用命	-11.494
始也	-11.4941
柱國	-11.4943
用力	-11.4943
是我	-11.4946
不患	-11.4947
圖報	-11.4949
及聞	-11.495
逭	-11.4951
命授	-11.4952
劉子	-11.4953
也知	-11.4953
非禮	-11.4953
所據	-11.4955
敬瑭	-11.4957
賊陷	-11.4958
解甲	-11.4959
督責	-11.4962
擊殺	-11.4963
歸報	-11.4964
後因	-11.4964
煽	-11.4965
有奇	-11.4965
敗死	-11.4967
偏師	-11.4967
即将	-11.4968
封爵	-11.4969
誰可	-11.4969
鴟	-11.4974
自餘	-11.4975
臣妾	-11.4976
甚逺	-11.4976
八百名	-11.4976
回兵	-11.4977
而笑	-11.4977
屆	-11.498
兵器	-11.4981
大將軍簡親王喇布	-11.4981
兵彊	-11.4981
雷霆	-11.4982
聖朝	-11.4984
奏入得㫖軍機大臣議奏尋議	-11.4984
匕	-11.4985
傳位	-11.4985
楊廷理	-11.4985
以觀其	-11.4986
韋臯	-11.4986
共攻	-11.4986
大學士伊桑阿	-11.4986
拜送	-11.4987
磚	-11.4987
通鑑紀事本末卷第	-11.4987
李世傑	-11.4988
幡	-11.4989
上將軍	-11.4989
彫	-11.4989
丹巴哈什哈	-11.4989
健鋭營	-11.4989
鹿鹿山	-11.4989
迅奏膚功	-11.499
蓼	-11.499
瘳	-11.4991
鍼	-11.4992
摩羅	-11.4992
谷應泰曰	-11.4993
緦	-11.4994
衆寡	-11.4994
西城	-11.4996
言路	-11.4996
探聽	-11.4996
追趕	-11.4996
三十九	-11.4997
郄	-11.4998
正彦	-11.4999
公行	-11.5
控制	-11.5001
百戸	-11.5001
明旦	-11.5002
商君	-11.5003
邊防	-11.5004
南路賊匪	-11.5004
掩其	-11.5005
水西	-11.5005
又非	-11.5006
都人	-11.5007
盜竊	-11.5007
此後	-11.5008
合謀	-11.501
詰之	-11.5013
敵情	-11.5015
虞公	-11.5016
大吏	-11.5016
太妃	-11.5016
叔姬	-11.5017
循化	-11.5017
俊臣	-11.5017
通和	-11.5023
文詔	-11.5024
衆庶	-11.5024
囘京	-11.5025
禍及	-11.5026
派調	-11.5028
上谷	-11.503
亦言	-11.5033
徳威	-11.5033
攻殺	-11.5034
生變	-11.5035
晋侯	-11.5036
穆叔	-11.5037
乃謂	-11.5038
乘騎	-11.5039
送馬	-11.504
急於	-11.5041
二將	-11.5042
嵗月	-11.5043
亂世	-11.5043
五吉	-11.5044
機務	-11.5045
東行	-11.5045
下軍	-11.5046
宫闕	-11.5048
書之	-11.5049
萬方	-11.505
爾其	-11.5051
四鄰	-11.5052
可畏	-11.5053
已遣	-11.5053
爵賞	-11.5054
晏然	-11.5055
噶爾藏多爾濟等	-11.5057
散亡	-11.5059
盡死	-11.5059
動而	-11.506
降詔	-11.506
矯詔	-11.5063
忠直	-11.5064
蜀王	-11.5066
太息	-11.5067
因言	-11.5067
寛貸	-11.5067
納世通等	-11.5069
召諸將	-11.5069
仰見	-11.507
興宗	-11.507
現駐	-11.5071
不靖	-11.5071
直趨	-11.5073
中央	-11.5073
奏言臣等	-11.5073
疏稱	-11.5073
四門	-11.5075
宰桑等	-11.5076
失望	-11.5076
遇春	-11.5077
蘄州	-11.5079
自投	-11.508
差往	-11.5082
西喇	-11.5083
十二人	-11.5084
較多	-11.5086
荆門	-11.5086
得罪於	-11.5086
山海	-11.5089
浙兵	-11.509
哭之	-11.5091
已據	-11.5091
四十六	-11.5093
可抵	-11.5093
為皇太子	-11.5094
定邊右副將軍	-11.5095
左手	-11.5096
周章	-11.5097
必需	-11.5099
征𠞰	-11.51
哈丹	-11.51
主君	-11.5101
于門外	-11.5103
則令	-11.5105
天下皆	-11.5105
計之	-11.5107
伏地	-11.5107
嚴明	-11.5109
致令	-11.511
人物	-11.5111
濟州	-11.5113
重傷	-11.5113
敢問	-11.5114
棄疾	-11.5114
服其	-11.5116
諸夏	-11.5117
督率官兵	-11.5118
誰不	-11.5119
阿哈瑪特	-11.512
黄教	-11.5121
哈寧阿	-11.5122
總督董衛國	-11.5122
南薫門	-11.5123
東向	-11.5123
扎克拜達里克	-11.5123
邱能成	-11.5124
𨗳	-11.5125
請留	-11.5126
鯉	-11.5127
瘡	-11.5127
璉	-11.5127
将弁	-11.5128
練兵	-11.5129
掣	-11.5129
蒿	-11.513
鋒鏑	-11.513
啼	-11.5132
髙平	-11.5132
廐	-11.5133
聽政	-11.5133
兼中書令	-11.5133
溉	-11.5134
崑崙	-11.5135
眩	-11.5135
聾	-11.5135
孩	-11.5135
不得進	-11.5136
于市	-11.5136
軍情	-11.5136
無信	-11.5137
紘	-11.5137
蜚	-11.5137
亊	-11.5137
一死	-11.5139
曰嘻	-11.5139
定擬	-11.5139
雌	-11.5139
鬲	-11.5139
獠	-11.514
開府	-11.5141
車陵	-11.5141
囘人等	-11.5141
董璋	-11.5142
斜	-11.5142
中流矢	-11.5143
大金皇帝	-11.5144
經筵	-11.5147
周公旦	-11.5147
察達克等	-11.5147
廞	-11.5148
甚難	-11.5148
邉境	-11.5149
知樞宻院事	-11.515
咄	-11.515
起運	-11.515
遽行	-11.5151
宗閔	-11.5154
北行	-11.5155
承訓	-11.5156
磁州	-11.5156
宣慰使	-11.516
為盟主	-11.5162
之會	-11.5162
扼其	-11.5163
河源	-11.5163
犍為	-11.5165
請問	-11.5165
江州刺史	-11.5165
敗遁	-11.5166
王庶	-11.5166
遂為	-11.5166
語之曰	-11.5166
陳兵	-11.5166
姜維	-11.5167
怪之	-11.5167
尚書左丞	-11.5167
殊恩	-11.5168
重之	-11.517
樂毅	-11.5172
隱公	-11.5172
異同	-11.5173
同居	-11.5173
過矣	-11.5174
諸物	-11.5175
之叛	-11.5175
相隔	-11.5176
近侍	-11.5178
上士	-11.5185
率土	-11.5185
嬰兒	-11.5186
亦與	-11.5187
自隨	-11.5187
問焉曰	-11.5188
已降	-11.5188
通問	-11.5188
鄆州	-11.519
千騎	-11.5191
保安	-11.5191
長也	-11.5191
叛臣	-11.5193
四軍	-11.5193
公薨	-11.5195
不懌	-11.5195
五星	-11.5195
因思	-11.5196
鄭州	-11.5197
哈薩克等	-11.5199
連夜	-11.5201
景隆	-11.5201
州吁	-11.5201
彊弱	-11.5203
乎故	-11.5205
再舉	-11.5205
而坐	-11.5208
務在	-11.5208
而更	-11.521
復請	-11.5212
雜處	-11.5212
七十二	-11.5213
明確	-11.5213
歸併	-11.5213
江水	-11.5213
以紓	-11.5214
分隊	-11.5215
司道	-11.5216
傳集	-11.5217
小路	-11.5218
子玉	-11.522
俱為	-11.522
三年而	-11.5221
其先	-11.5222
謀臣	-11.5222
圍攻	-11.5222
之獄	-11.5224
衆軍	-11.5226
舟中	-11.5226
則亂	-11.5227
五十四	-11.5227
自出	-11.5228
其色	-11.5229
招納	-11.5229
二鎮	-11.5233
中興之	-11.5234
之義也	-11.5234
先驅	-11.5236
之久	-11.5237
轉致	-11.5238
七年春	-11.5238
銀米	-11.5239
何以書	-11.524
以重	-11.5241
海船	-11.5241
也所以	-11.5243
我輩	-11.5243
溺死者	-11.5243
量為	-11.5244
而重	-11.5246
殺退	-11.5246
以保	-11.5249
賫勅	-11.5249
大叔	-11.5249
則生	-11.5249
為變	-11.5251
兆民	-11.5251
逆謀	-11.5253
馳報	-11.5253
定界	-11.5255
則吾	-11.5256
云云	-11.5257
人户	-11.5257
從父	-11.5258
髙氏	-11.5259
劉歆㠯為	-11.5262
其過	-11.5263
攻楚	-11.5263
捉生詢問	-11.5267
張憲	-11.5267
枋	-11.5267
似應	-11.5269
厪	-11.5269
得實	-11.527
叅贊	-11.527
噶爾旦多爾濟	-11.5271
䕃	-11.5271
乃歸	-11.5271
將備	-11.5271
沙喇斯瑪呼斯	-11.5271
呼倫貝爾	-11.5272
武舉	-11.5272
埒	-11.5273
萇𢎞	-11.5275
縷	-11.5275
洧	-11.5276
邜	-11.5276
爕	-11.5276
領侍衛内大臣	-11.5277
哷	-11.5277
預偹	-11.5278
亦能	-11.5278
紐	-11.5278
一矢	-11.5278
過失	-11.5279
鋤	-11.5279
黠	-11.5279
溝壑	-11.5279
净盡	-11.5279
喀喇烏蘇	-11.5279
駮	-11.528
列女傳	-11.528
烽	-11.5281
粒	-11.5281
弓弩	-11.5281
乗夜	-11.5281
差使	-11.5281
株守	-11.5282
贏	-11.5283
實在情形	-11.5284
康親王	-11.5285
鹽鐵	-11.5285
在途	-11.5285
南康	-11.5286
完聚	-11.5287
劫掠	-11.5288
鑠	-11.5288
乃定	-11.5289
四百人	-11.5289
殱擒	-11.5289
等候	-11.529
均奏入上命軍機大臣傳諭	-11.5291
四十年	-11.5293
阿桂和珅	-11.5293
得其所	-11.5295
皆以為	-11.5297
無庸議	-11.5299
上章	-11.5299
藍玉	-11.5301
接准	-11.5304
刻期	-11.5305
世有	-11.5305
天下而	-11.5305
葉護	-11.5306
環慶	-11.5307
兵家	-11.5308
侍講	-11.5309
以衆	-11.5314
可求	-11.5314
大雩	-11.5315
勝也	-11.5316
除名	-11.5317
馬彪	-11.5319
敵勢	-11.5319
乃敢	-11.5319
此豈	-11.532
勢益	-11.5321
以其衆	-11.5321
感動	-11.5323
縋城	-11.5326
等語是	-11.5328
折色	-11.533
於鄭	-11.5332
於心	-11.5332
自縊	-11.5334
次年	-11.5336
相屬	-11.5336
不說	-11.5336
正人	-11.5338
建州	-11.534
已於	-11.534
者不得	-11.5342
室家	-11.5342
年來	-11.5343
賢才	-11.5343
欲用	-11.5343
原屬	-11.5344
卑辭	-11.5346
一州	-11.5348
密諭	-11.5348
所降諭㫖	-11.5348
所收	-11.5348
罷去	-11.5349
請兵	-11.5349
給口糧	-11.535
理宜	-11.5351
敢有	-11.5352
流亡	-11.5353
内揀選	-11.5355
朝覲	-11.5357
四十人	-11.5357
賜姓	-11.5365
張良	-11.5366
僚佐	-11.5367
甚好	-11.5369
遂克	-11.537
追奔	-11.5373
食用	-11.5374
縋	-11.5374
而取	-11.5377
一二年	-11.5377
君親	-11.5378
攻陷	-11.5379
合計	-11.538
孤立	-11.538
以降	-11.5381
哨探兵	-11.5384
徽州	-11.5385
三族	-11.5385
仍舊	-11.5386
各部落	-11.5388
曰茍	-11.539
維揚	-11.5392
柰	-11.5397
子之言	-11.5398
宗子	-11.5398
衛國	-11.5399
赦天下	-11.5399
萬六千	-11.5401
選兵	-11.5404
曰國家	-11.5406
多死	-11.5407
齊凌扎卜	-11.5412
川兵	-11.5416
軍勢	-11.5416
楊起麟	-11.5416
前議	-11.5418
授首	-11.5419
荼毒	-11.5419
欲因	-11.542
英噶薩爾	-11.542
聖祖仁皇帝親征平定朔漠方略卷	-11.542
樓櫓	-11.542
毬	-11.5421
又派	-11.5421
鏜	-11.5421
其類	-11.5422
命曰	-11.5422
橫	-11.5422
郛	-11.5422
覧	-11.5423
明白曉諭	-11.5423
盱眙	-11.5423
掣肘	-11.5423
鉄	-11.5423
蟻	-11.5424
票	-11.5424
赭	-11.5424
庖	-11.5425
趙孟曰	-11.5425
八名	-11.5425
弗及	-11.5425
糧草	-11.5425
喇卜坦	-11.5427
剌	-11.5427
李繩武	-11.5427
弓箭	-11.5427
色稜	-11.5428
供給	-11.5428
併傳諭	-11.543
粱	-11.543
孟獻子	-11.543
至土喇	-11.5432
親兵	-11.5432
不可失也	-11.5432
工匠	-11.5433
之手	-11.5433
稟報	-11.5433
曰大王	-11.5433
辰刻	-11.5434
平定金川	-11.5434
姿	-11.5434
娘	-11.5435
奴婢	-11.5436
嘉謨	-11.5437
惟爾	-11.5437
訪聞	-11.5437
兵四百名	-11.5438
僚屬	-11.5438
之願也	-11.5439
厲王	-11.5439
應如所請	-11.5439
衡州	-11.5441
能用	-11.5441
多言	-11.5441
布喇克	-11.5442
宜加	-11.5442
布疋	-11.5445
河南尹	-11.5445
天下事	-11.5445
與弟	-11.5445
屬焉	-11.5447
琴瑟	-11.5447
饒州	-11.545
兵食	-11.545
由海道	-11.5451
乃引	-11.5451
土官	-11.5451
諸侯之師	-11.5452
梁山	-11.5453
趙高	-11.5453
區區之	-11.5453
天雨	-11.5454
夏主	-11.5455
無用之	-11.5456
疑惑	-11.5457
諸侯諸侯	-11.5458
小兒	-11.5459
坐待	-11.5463
伯夷	-11.5465
收獲	-11.5466
老小	-11.5466
赴藏	-11.5466
伐蜀	-11.5468
富德等	-11.5469
抵軍營	-11.547
處斬	-11.5471
東夷	-11.5471
之人皆	-11.5472
費用	-11.5475
鄂實	-11.5476
積聚	-11.5476
痛加	-11.5477
究係	-11.5477
固不可	-11.5479
探報	-11.5482
傳言	-11.5482
春夏	-11.5484
眷屬	-11.5484
定陶	-11.5485
軍聲	-11.5485
主帥	-11.5487
將軍孫思克	-11.5487
以順	-11.5488
方且	-11.5488
走保	-11.549
勢窮	-11.5492
朕當	-11.5493
擬於	-11.5494
邠州	-11.5494
之所欲	-11.5494
孫也	-11.5496
百工	-11.5496
秦昭王	-11.5497
怨之	-11.5497
聖慈	-11.5497
始於	-11.5501
薦之	-11.5504
設于	-11.5504
死士	-11.5505
畫一	-11.5506
復得	-11.5506
者並	-11.5506
絶之	-11.5507
來請	-11.5507
樂正	-11.5508
又多	-11.5508
五世	-11.5509
同盟	-11.551
無聲	-11.551
現任	-11.5511
焉得	-11.5514
當有	-11.5515
貞觀	-11.5518
謚曰	-11.5519
背盟	-11.552
掩擊	-11.552
台州	-11.552
本營	-11.5522
追尊	-11.5523
遲疑	-11.5524
兩零	-11.5525
現在情形	-11.5526
送京師	-11.5526
臣光曰	-11.5526
遞送	-11.5526
大恩	-11.5527
欽定四庫全書平定準噶爾方略正編卷	-11.5529
十八人	-11.553
既去	-11.553
尚不能	-11.553
定國	-11.5531
心懐	-11.5532
之愛	-11.5532
徐達	-11.5534
如天	-11.5535
專制	-11.5535
兵弱	-11.5538
江左	-11.5538
其部落	-11.5539
為奸	-11.554
聽候	-11.554
伏威	-11.5541
尚為	-11.5541
軍令	-11.5541
士開	-11.5543
其俗	-11.5545
今兹	-11.5546
雖小	-11.5546
保甲	-11.5546
及時	-11.5548
楚滅	-11.5549
塔克	-11.5549
金印	-11.5549
平安	-11.555
權勢	-11.555
雲集	-11.555
五國	-11.5551
四十萬	-11.5556
餘丁	-11.5557
一行	-11.5558
勿致	-11.5559
帮	-11.556
鄂博什	-11.5561
定邊左副將軍成衮扎布	-11.5562
畧曰	-11.5562
潦	-11.5562
死者甚衆	-11.5563
於野	-11.5564
誠恐	-11.5565
百餘户	-11.5566
桑寨多爾濟	-11.5567
邊塞	-11.5568
蹂躪	-11.5568
延齡	-11.5569
阿卜都喇伊木	-11.557
成袞扎布	-11.557
厝	-11.557
鹹	-11.557
焚燬	-11.557
殺虎口	-11.557
迎擊	-11.5571
伏羲	-11.5573
熟籌	-11.5573
纒	-11.5573
大道	-11.5574
怏怏	-11.5574
坐塘	-11.5574
棍	-11.5574
煮	-11.5574
阿布	-11.5574
鏤	-11.5575
泮	-11.5575
害也	-11.5575
俱盡	-11.5576
斵	-11.5576
闘	-11.5576
一俟	-11.5576
舂	-11.5576
跟隨	-11.5576
亡矣	-11.5576
安西提督	-11.5577
日暮	-11.5577
芥	-11.5577
肸	-11.5577
裁減	-11.5579
兕	-11.5579
僵	-11.5579
修徳	-11.5579
白虎通	-11.5579
有㫖令	-11.5579
萬緡	-11.5581
皇帝陛下	-11.5581
再興	-11.5581
魏之	-11.5581
小事	-11.5582
賀人龍	-11.5582
旬月	-11.5583
缺乏	-11.5583
朕惟	-11.5583
邢州	-11.5584
版圖	-11.5584
扁	-11.5584
章惇	-11.5585
帝嚳	-11.5586
曾否	-11.5587
自刎	-11.5588
略地	-11.5588
隔絶	-11.5589
無别	-11.5589
四十三	-11.559
我死	-11.5591
於斯	-11.5593
遵奉	-11.5593
漫無	-11.5593
傾覆	-11.5594
勢甚	-11.5597
呉越	-11.5598
完結	-11.56
木為	-11.5602
義民首	-11.5602
之所謂	-11.5602
丁壯	-11.5603
火器營	-11.5604
海州	-11.5605
淮隂	-11.5608
開列	-11.5609
者莫不	-11.561
天理	-11.5611
擅權	-11.5612
六品	-11.5615
遺詔	-11.5616
慧景	-11.5616
其背	-11.5617
親之	-11.5617
千載	-11.5618
騰格	-11.5619
來報	-11.562
一百三十	-11.5621
在南	-11.5622
七年春正月	-11.5622
霸王之	-11.5622
精壯	-11.5623
從政	-11.5624
動揺	-11.5627
恐非	-11.5627
我當	-11.563
失也	-11.5632
尚書班第	-11.5632
書序	-11.5633
治道	-11.5634
頗屬	-11.5635
五百餘人	-11.5636
往視	-11.5636
門内	-11.5636
央	-11.5636
詔令	-11.5639
三百六十	-11.564
總制	-11.5642
為戒	-11.5643
耕作	-11.5643
送部	-11.5644
哈達	-11.5647
監視	-11.5647
素所	-11.5649
南潭	-11.565
驚曰	-11.5652
屬可行	-11.5657
少傅	-11.5657
未嘗有	-11.5658
伐趙	-11.5659
睢陽	-11.5661
定邉	-11.5662
城䧟	-11.5664
天地㑹	-11.5665
宫禁	-11.5666
二年春二月	-11.5669
告之曰	-11.567
克敵	-11.5671
大逆	-11.5671
繁多	-11.5673
建國	-11.5674
漢州	-11.5675
達什策凌	-11.5675
三也	-11.5676
乎孔子曰	-11.5676
泰寧	-11.5676
擊破	-11.5677
竟敢	-11.5677
夫子之	-11.5684
毋令	-11.5686
為心	-11.5687
不能對	-11.5687
登州	-11.5689
昭侯	-11.5691
北向	-11.5691
堅固	-11.5691
不實	-11.5692
文秀	-11.5693
營馬	-11.5695
亦死	-11.5697
徙居	-11.5698
撫標	-11.57
真州	-11.5701
自立為	-11.5701
諸營	-11.5705
則當	-11.5707
之時也	-11.5708
岌	-11.5708
幵	-11.571
各帶	-11.571
今宜	-11.5711
舒恕	-11.5711
珂	-11.5712
異時	-11.5712
額林沁多爾濟	-11.5715
酈	-11.5716
永州	-11.5717
琢	-11.5717
蜂	-11.5719
遼濶	-11.5719
著有勞績	-11.572
佇	-11.572
拴	-11.572
讋	-11.5721
黷	-11.5721
酢	-11.5721
耘	-11.5723
弋獲	-11.5723
扎卜堪	-11.5723
紊	-11.5724
穹	-11.5725
峙	-11.5726
暱	-11.5726
西向	-11.5726
厪念	-11.5726
所進	-11.5726
髠	-11.5726
司隷校尉	-11.5727
皥	-11.5728
懐州	-11.5728
槃	-11.5728
卷四十	-11.5728
魚鼈	-11.5729
孝純	-11.5729
中州	-11.5729
貧賤	-11.5729
逺颺	-11.5729
故聖人	-11.5729
鈐轄	-11.573
菲	-11.5731
乃立	-11.5731
䛕	-11.5732
駙馬都尉	-11.5732
何煟	-11.5733
施於	-11.5734
髙昌	-11.5734
不喜	-11.5736
絜	-11.5736
大集	-11.5738
狐疑	-11.5738
築壘	-11.5739
驚潰	-11.5741
死地	-11.5741
報銷	-11.5742
李顯忠	-11.5743
七千餘	-11.5743
俘斬	-11.5745
馬邑	-11.5745
百餘匹	-11.5745
散走	-11.5746
伯克鄂對	-11.5746
所願	-11.5746
各該處	-11.5748
數騎	-11.575
小功	-11.575
之灋	-11.575
陞賞	-11.575
再令	-11.5752
陷賊	-11.5753
推戴	-11.5753
乃作	-11.5755
會稽	-11.5755
管押	-11.5756
忠於	-11.5756
能知	-11.5758
民食	-11.5758
至軍前	-11.576
夫子曰	-11.5761
撫逺大將軍	-11.5761
坐守	-11.5761
范宣子	-11.5762
漢使	-11.5764
元主	-11.5764
散去	-11.5765
李嗣源	-11.5767
上下相	-11.5768
請立	-11.5768
四千人	-11.5768
已去	-11.5769
不拘	-11.577
亦恐	-11.5772
太學生	-11.5772
妄動	-11.5773
首犯	-11.5774
著照所請	-11.5775
廣武	-11.5776
南郡	-11.5777
水手	-11.5779
養馬	-11.5779
口岸	-11.5779
君之所	-11.578
保住	-11.5781
之言也	-11.5781
鼓行	-11.5782
二萬餘人	-11.5784
期年	-11.5784
傷人	-11.5784
莫知所	-11.5784
曰予	-11.5784
牛酒	-11.5785
張覺	-11.5789
為副	-11.5789
尚何	-11.5789
舊例	-11.5789
所部兵	-11.579
此路	-11.579
損益	-11.579
車師	-11.5791
乃能	-11.5793
定長等	-11.5795
朝貢	-11.5795
益甚	-11.5795
悃	-11.5798
子游	-11.5798
通使	-11.58
一無所	-11.5801
聖王之	-11.5801
九錫	-11.5802
四寸	-11.5804
者如	-11.5805
王僧辯	-11.5805
三思	-11.5805
加恩賞	-11.5806
門入	-11.5809
派侍衛	-11.5809
二分	-11.581
哈尚	-11.581
石門	-11.5813
千乗	-11.5814
自己	-11.5814
時時	-11.5814
轉相	-11.5816
俱未	-11.5817
等縣	-11.5817
馬匹牲隻	-11.5817
綏靖	-11.5817
為宰相	-11.5818
理合	-11.582
歸告	-11.5824
肆其	-11.5825
其弊	-11.5825
為詞	-11.5825
震怒	-11.5825
至成都	-11.5827
其尸	-11.5827
彼地	-11.5829
一出	-11.5829
王翦	-11.5829
者故	-11.583
秦始皇	-11.583
第四	-11.5831
飛龍	-11.5831
嚴防	-11.5832
隂氣	-11.5833
畏死	-11.5837
華陽	-11.5838
囘衆	-11.5838
荆湖	-11.584
上諭兵部曰	-11.5843
盡殺之	-11.5845
犯法	-11.5845
帝欲	-11.5845
趙文子	-11.5847
對曰昔	-11.5847
五十餘人	-11.5847
有國	-11.5849
居官	-11.585
道周	-11.5851
罪戾	-11.5851
三旗	-11.5853
閣臣	-11.5853
克什	-11.5855
具疏	-11.5856
應如	-11.5858
用是	-11.5858
王雲	-11.5859
中心	-11.5861
遣囘	-11.5863
日月之	-11.5864
王曰寡人	-11.5865
未曽	-11.5866
伐莒	-11.5867
至彼	-11.5868
皂	-11.5869
博羅特	-11.5869
何也對曰	-11.587
輾轉	-11.5871
具以	-11.5871
告成	-11.5871
論語	-11.5872
居人	-11.5872
鎧仗	-11.5874
定天下	-11.5875
籲	-11.5875
橈	-11.5876
上命軍機大臣等傳諭	-11.5876
曇	-11.5876
地圖	-11.5876
冢宰	-11.5877
逡巡	-11.5877
齧	-11.5877
匣	-11.5878
奏入諭曰	-11.5878
賜名	-11.5878
詗	-11.5878
賭	-11.5879
宂	-11.5879
盡皆	-11.5879
跳梁	-11.5879
生事端	-11.5879
賊復	-11.588
逆首林爽文	-11.588
三等侍衞	-11.588
闊	-11.5881
升自西階	-11.5881
大行	-11.5881
媯	-11.5881
元振	-11.5881
接奉諭㫖	-11.5881
叱之	-11.5882
數處	-11.5882
蹄	-11.5882
菴	-11.5882
呵	-11.5882
先祖	-11.5883
縱使	-11.5884
宰臣	-11.5884
陘	-11.5884
𦂳急	-11.5884
戰功	-11.5886
肘	-11.5886
直搗	-11.5886
啜	-11.5886
庫銀	-11.5888
欒盈	-11.5889
入侍	-11.5889
三十八	-11.589
沐浴	-11.5891
甘露	-11.5892
無形	-11.5892
酒食	-11.5892
始至	-11.5893
筦	-11.5893
豳	-11.5893
旣而	-11.5894
昕	-11.5894
五營	-11.5896
也如	-11.5896
欽定四庫全書繹史卷一百	-11.5897
赴軍前	-11.5897
有聲	-11.5897
或致	-11.5898
辦理回部	-11.5898
晷	-11.5898
周徳威	-11.5899
馳入	-11.59
有限	-11.5901
番民	-11.5901
聞信	-11.5902
武衛將軍	-11.5903
蠟書	-11.5904
自全	-11.5905
納旺	-11.5908
有頃	-11.5909
唐恪	-11.5909
李全	-11.591
勢不能	-11.5911
征西將軍	-11.5911
往追	-11.5915
城濮	-11.5915
不禁	-11.5916
出外	-11.5916
隨營	-11.5917
呉敏	-11.5917
秋毫	-11.5917
將亡	-11.5917
辦理軍務	-11.592
定期	-11.5921
秣	-11.5922
所好	-11.5923
逞其	-11.5923
原為	-11.5924
翟興	-11.5925
是吾	-11.5927
宵遁	-11.5929
賊回	-11.593
初九	-11.5931
繹史卷一百	-11.5931
信都	-11.5931
姚古	-11.5931
二萬餘	-11.5933
者今	-11.5933
武陵	-11.5934
威權	-11.5935
孫氏	-11.5935
生口	-11.5936
上都	-11.5937
頗知	-11.5937
副将軍	-11.5941
未決	-11.5943
竊思	-11.5943
斃賊	-11.5944
潜善	-11.5945
差委	-11.5946
王琳	-11.5949
宰夫	-11.595
加倍	-11.595
權衡	-11.595
侯王	-11.5951
博克	-11.5951
計事	-11.5951
元兵	-11.5952
為司空	-11.5953
之厄魯特等	-11.5954
爾喇嘛	-11.5954
易也	-11.5955
别遣	-11.5955
彌逺	-11.5955
繼先	-11.5956
天寒	-11.5957
塞責	-11.5958
傳示	-11.5958
應派	-11.5959
至洛陽	-11.5959
修撰	-11.596
行李	-11.5961
太上皇帝	-11.5964
而趨	-11.5964
吴人	-11.5966
對曰夫	-11.5966
番人	-11.5966
願王	-11.5967
請罷	-11.5968
汝愚	-11.5971
旗鼓	-11.5972
情實	-11.5973
貴戚	-11.5974
初六	-11.5975
伊游牧	-11.5977
遣子	-11.5978
克㨗	-11.5979
虢公	-11.598
親督	-11.5982
特以	-11.5983
十員	-11.5984
明係	-11.5985
三城	-11.5985
不省	-11.5988
洺州	-11.5989
美女	-11.599
奪取	-11.599
等三人	-11.5991
趙衰	-11.5992
仍命	-11.5994
戎服	-11.5996
敗亡	-11.5997
三代之	-11.5997
不事	-11.5997
於十一月	-11.5998
一萬二千	-11.5999
魏軍	-11.5999
五官	-11.5999
仇敵	-11.5999
楊榮	-11.6
支用	-11.6
髙皇帝	-11.6001
起見	-11.6002
復興	-11.6005
著李侍堯	-11.6008
以爲然	-11.601
英武	-11.6013
進貢	-11.6014
防備	-11.6014
申明	-11.6014
退避	-11.6016
遼人	-11.6018
後悔	-11.6018
青海諸台吉	-11.6019
分數	-11.602
變故	-11.6024
能保	-11.6025
厄爾錐音	-11.6026
阿卜都	-11.6028
也古者	-11.6029
篆	-11.6029
抒	-11.6029
蟒	-11.6031
遲滯	-11.6031
汧	-11.6032
轟	-11.6033
剋期	-11.6033
尚書阿爾尼	-11.6033
驚惶	-11.6034
極其	-11.6034
豺	-11.6035
四十餘人	-11.6035
兎	-11.6035
鞍馬	-11.6035
衆寡不敵	-11.6035
燼	-11.6035
順風	-11.6036
豆斌	-11.6037
楨	-11.6037
邴	-11.6038
湟	-11.6039
鑰	-11.6039
杭愛	-11.604
匝	-11.604
曳	-11.6041
駙馬	-11.6041
疾馳	-11.6042
槁	-11.6042
賊卡	-11.6042
楊國忠	-11.6042
仍須	-11.6042
鏃	-11.6042
迤西	-11.6043
謂諸將曰	-11.6043
戰國策	-11.6044
是役也	-11.6045
取進止	-11.6045
滑臺	-11.6046
詭詐	-11.6046
累日	-11.6046
多係	-11.6046
本非	-11.6046
安設臺站	-11.6046
布政司	-11.6047
暖	-11.6047
今思	-11.6048
彛陵	-11.6048
平江府	-11.6048
就獲	-11.6049
賦斂	-11.605
無辭	-11.605
披靡	-11.605
沙津	-11.605
雒陽	-11.6051
征勦	-11.6052
顯戮	-11.6054
黔首	-11.6056
思歸	-11.6057
右手	-11.6058
後繼	-11.6058
悉皆	-11.6061
其詞	-11.6061
之粟	-11.6061
經官兵	-11.6061
數十騎	-11.6061
孔丘	-11.6062
連營	-11.6062
雜記	-11.6062
一到	-11.6062
申刻	-11.6071
欲戰	-11.6073
上許之	-11.6075
折給	-11.6076
昭儀	-11.6076
賢不肖	-11.6076
焉爾	-11.6078
俱由	-11.6081
虎豹	-11.6081
丹巴	-11.6085
速為	-11.6086
吾先君	-11.6087
為司徒	-11.6087
前項	-11.6089
右師	-11.6089
騎射	-11.6091
朔州	-11.6091
救鄭	-11.6092
赴巴里坤	-11.6093
仲孫	-11.6094
言官	-11.6096
惟岳	-11.6097
薊州	-11.61
俟明年	-11.6101
子崧	-11.6101
過人	-11.6102
為數	-11.6105
盧氏	-11.6105
烏巴什	-11.6106
請發	-11.6108
也雖然	-11.6108
走入	-11.611
紹宗	-11.611
失事	-11.6111
通謀	-11.6114
密奏	-11.6115
上疏言	-11.6117
伐衛	-11.6117
起至	-11.6118
不留	-11.6118
五穀	-11.6118
考之	-11.6118
擇日	-11.6118
該將軍等	-11.6121
祖考	-11.6122
稱疾	-11.6124
追勦	-11.6127
上諭議政王等曰	-11.6129
將軍成衮扎布	-11.6129
紹琛	-11.613
可憂	-11.6131
和解	-11.6133
死節	-11.6133
之歌	-11.6135
厚賂	-11.6137
亂兵	-11.6138
弱而	-11.6139
内府	-11.6141
戰國	-11.6144
舟車	-11.6145
餉道	-11.6145
遲緩	-11.6146
加兵	-11.6146
臨御	-11.6148
而不為	-11.6149
鄭國	-11.6151
漁陽	-11.6151
無狀	-11.6152
去冬	-11.6152
一得	-11.6152
集衆	-11.6153
稱兵	-11.6159
布爾	-11.6159
熟計	-11.6163
定議具奏	-11.6163
里塘	-11.6165
海西	-11.6168
軍資	-11.617
衢州	-11.6171
内扎薩克	-11.6172
學習	-11.6172
北人	-11.6174
仍回	-11.6175
而後可	-11.6176
訊之	-11.6176
請照	-11.6177
雨水	-11.6178
新法	-11.6178
餓死	-11.6179
而不言	-11.618
愚民	-11.618
詧	-11.618
始興	-11.618
接據	-11.6181
拓跋	-11.6182
衂	-11.6182
年號	-11.6183
烏闌布通	-11.6183
耿精忠	-11.6183
夜間	-11.6184
异	-11.6184
哈什	-11.6184
乃詔	-11.6186
知樞密院事	-11.6186
張文慶	-11.6187
沙克都爾曼濟	-11.6187
豁	-11.6187
知之命	-11.6187
痩	-11.6188
党	-11.6189
合之	-11.6189
觀察	-11.619
撾	-11.619
遂據	-11.6192
翼日	-11.6192
儋	-11.6192
莫大	-11.6192
時刻	-11.6193
巴爾虎	-11.6193
晉國之	-11.6193
胃	-11.6195
根敦帶青	-11.6195
芟	-11.6195
頥浩	-11.6195
物件	-11.6195
各置	-11.6196
壯健	-11.6196
湧	-11.6196
諫官	-11.6197
嘯聚	-11.6198
侵軼	-11.6198
羆	-11.6198
供億	-11.6199
身先士卒	-11.6199
邠寧	-11.6199
從事中郎	-11.62
哈栁	-11.62
照前	-11.6201
砥	-11.6201
慶緒	-11.6201
坂	-11.6201
本道	-11.6202
立法	-11.6203
刖	-11.6203
爇	-11.6204
歎息	-11.6204
於時	-11.6204
事泄	-11.6205
猺	-11.6205
公同商酌	-11.6207
一切事宜	-11.6209
獄訟	-11.6209
大位	-11.6209
揖讓	-11.6209
此所以	-11.621
驚駭	-11.621
來日	-11.621
滁	-11.621
通衢	-11.6211
號泣	-11.6212
既多	-11.6212
免罪	-11.6213
增兵	-11.6213
僅能	-11.6213
市人	-11.6214
心存	-11.6215
權宜	-11.6217
其父母	-11.622
就緒	-11.622
地廣	-11.6222
父母妻子	-11.6223
應接	-11.6223
損傷	-11.6223
日甚	-11.6223
全斌	-11.6224
阿拉	-11.6226
帝亦	-11.6228
不然則	-11.6229
偽總兵	-11.623
舊人	-11.6233
遇於	-11.6235
為侍中	-11.6238
所繫	-11.6238
八年春	-11.6239
馬擴	-11.624
有他	-11.624
木壘	-11.6242
二年春	-11.6246
爾噶	-11.6247
都噶爾	-11.6248
六百里	-11.6248
詳察	-11.6253
姜氏	-11.6253
叔孫氏	-11.6254
焉夫	-11.6254
之序	-11.6255
安營	-11.6257
効力行走	-11.626
將中軍	-11.626
淮安	-11.6261
私第	-11.6263
籌議	-11.6264
母后	-11.6265
即赴	-11.6265
各有差	-11.6266
詣行在	-11.6268
汀州	-11.6268
奠爵	-11.627
退則	-11.6271
以為言	-11.6274
田單	-11.6275
為節度使	-11.6277
初立	-11.6278
固非	-11.6279
中牟	-11.628
所到	-11.6281
羌胡	-11.6285
百戰	-11.6286
問諸	-11.6287
矣於是	-11.6287
保固	-11.6287
供支	-11.6287
喀爾喀厄魯特	-11.629
盡言	-11.6292
得其人	-11.6292
日用	-11.6294
仰視	-11.6294
張勇	-11.6296
以足	-11.63
賔賔	-11.6301
兼顧	-11.6301
有兵	-11.6303
於十二月	-11.6303
比於	-11.6305
輕動	-11.6305
金山	-11.6306
守節	-11.6307
三徳	-11.6307
諸侯皆	-11.6308
欲速	-11.6308
畏威	-11.6309
昌宗	-11.6311
鄴都	-11.6311
武陵王	-11.6311
侍臣	-11.6312
知覺	-11.6312
濟江	-11.6314
運道	-11.6314
慎重	-11.6315
未平	-11.6316
五百餘	-11.6316
以副	-11.6317
少有	-11.6319
無法	-11.6321
恭請	-11.6321
章奏	-11.6322
持書	-11.6322
帶去	-11.6322
三家	-11.6323
伊兄	-11.6323
檄知	-11.6323
議政大臣等	-11.6323
逆順	-11.6325
欲其	-11.6325
嗟乎	-11.6327
任舉	-11.6327
惑於	-11.6327
(○/	-11.6328
燕燕	-11.6332
數四	-11.6332
定矣	-11.6333
水寨	-11.6335
欲誅	-11.6335
伏惟	-11.6336
郃	-11.6336
思政	-11.6336
厚集	-11.6336
淮上	-11.6337
原處	-11.6338
塔米爾	-11.6339
並用	-11.6339
剰	-11.6341
多羅郡王	-11.6341
四十四	-11.6344
駐牧	-11.6344
戶	-11.6346
彗	-11.6347
振作	-11.6347
卞塔海	-11.6347
陡	-11.6348
拮据	-11.6348
駱駞	-11.6349
云爾	-11.6349
布拉克	-11.6349
依前	-11.635
湊	-11.635
執中	-11.6351
奚齊	-11.6351
馨	-11.6353
帷幄	-11.6353
斛律	-11.6353
鳴鼓	-11.6354
所云	-11.6354
遶	-11.6354
挟	-11.6354
家室	-11.6355
内閣學士	-11.6355
扑	-11.6355
稿	-11.6356
為誰	-11.6357
脛	-11.6357
由此觀之	-11.6357
侯伯	-11.6357
厠	-11.6357
禰	-11.6357
厮役	-11.6358
檀弓	-11.6359
下民	-11.6359
亦由	-11.6359
哈薩克貿易	-11.636
参	-11.636
棚	-11.636
漢土官兵	-11.636
甕	-11.6361
培	-11.6361
雖非	-11.6361
李紹	-11.6363
聖德	-11.6364
東昏	-11.6364
馥	-11.6364
歌舞	-11.6364
八卦	-11.6365
淑妃	-11.6366
咽	-11.6367
異域	-11.6367
畨銀	-11.6368
一并	-11.637
拱手	-11.6371
十萬衆	-11.6373
牂牁	-11.6374
廬陵	-11.6374
尸子	-11.6375
萬金	-11.6376
不可行	-11.6376
何面目	-11.6377
直學士	-11.6379
劉延慶	-11.6382
殿上	-11.6382
寶寅	-11.6382
堪以	-11.6382
四十二	-11.6383
對壘	-11.6384
馬奈	-11.6385
白起	-11.6385
歸心	-11.6386
以為常	-11.6388
晉平公	-11.6389
百隻	-11.639
報聞	-11.639
負朕	-11.6391
婺	-11.6391
三郡	-11.6391
籌備	-11.6392
訛言	-11.6392
達賴	-11.6394
令軍中	-11.6395
長途	-11.6396
還師	-11.6396
巴克	-11.6396
安祿山	-11.6397
提刑	-11.6397
滅賊	-11.6399
良弼	-11.64
三十餘里	-11.64
露布	-11.64
喀爾喀扎薩克	-11.6401
五尺	-11.6401
則曷為	-11.6402
著勞績	-11.6402
舊有	-11.6402
遁逃	-11.6403
有貞	-11.6403
沂中	-11.6405
其手	-11.6409
何暇	-11.6409
德州	-11.641
惜之	-11.6411
用度	-11.6412
確信	-11.6412
有大功	-11.6414
力言	-11.6414
北道	-11.6416
我家	-11.642
儒者	-11.642
福康安海蘭察	-11.6422
忠言	-11.6422
著交部	-11.6428
占據	-11.6432
不得志	-11.6434
也其言	-11.6434
鎗傷	-11.6436
聖慮	-11.6437
四尺	-11.6438
督諸軍	-11.644
昭然	-11.6444
善惡	-11.6445
曰先帝	-11.6446
外尚有	-11.6446
不逞	-11.6447
永慶	-11.6449
迤	-11.6449
堅城	-11.645
隂謀	-11.6451
少府	-11.6453
反正	-11.6455
巴拜	-11.6456
素無	-11.6456
等五人	-11.6456
寨桑等	-11.6458
上京	-11.6458
者以其	-11.6461
平章政事	-11.6461
豈宜	-11.6465
新羅	-11.6466
主父	-11.6468
遂陷	-11.6468
行𠞰滅	-11.6469
此輩	-11.647
將軍兆惠	-11.647
舊好	-11.6471
武氏	-11.6472
入闗	-11.6473
相從	-11.6474
進爵	-11.6475
未集	-11.6475
額楚	-11.6476
分司	-11.6477
寛大	-11.6479
㑹諸侯	-11.6482
到日即	-11.6483
相助	-11.6484
信用	-11.6484
帝問	-11.6485
募人	-11.6487
宣城	-11.6487
帶回	-11.6488
千八百	-11.649
爾父	-11.649
右衛將軍	-11.6492
目今	-11.6493
隂與	-11.6494
遵義	-11.6499
不能禁	-11.6499
食邑	-11.65
師行	-11.65
以重兵	-11.65
帥府	-11.6505
釀	-11.6506
公曰善	-11.6507
悝	-11.651
厄魯特降人	-11.651
來降命賞給安插如例	-11.6511
平常	-11.6513
荘大田	-11.6513
大功告成	-11.6513
嵬	-11.6516
賡	-11.6516
故受之以	-11.6516
璣	-11.6516
哉今	-11.6516
跋扈	-11.6517
賍	-11.6517
垂簾	-11.6518
妣	-11.6518
鳯凰	-11.6518
金墉	-11.6519
妓	-11.6519
有裨益	-11.6519
未有不	-11.6521
億兆	-11.6521
闚	-11.6521
彥	-11.6521
嘗有	-11.6523
西川節度使	-11.6523
這	-11.6523
息兵	-11.6524
箠	-11.6525
束帛	-11.6526
竽	-11.6526
謂侍臣曰	-11.6526
為金人所	-11.6527
登庸	-11.6528
張叔夜	-11.6528
冄	-11.6528
枝葉	-11.6529
李林甫	-11.6529
謀叛	-11.653
逆賊阿睦爾撒納	-11.653
仍復	-11.653
攺	-11.6531
庶㡬	-11.6532
招服	-11.6534
稍遲	-11.6535
閫外	-11.6535
其歸路	-11.6535
非常之	-11.6536
頤浩	-11.6536
楊士奇	-11.6538
僅得	-11.6538
厯年	-11.6538
嚴嵩	-11.654
量力	-11.654
即帶兵	-11.6541
濮州	-11.6542
到任	-11.6543
了事	-11.6543
江湖	-11.6544
廬江	-11.6544
如晋	-11.6545
抗拒官兵	-11.6546
士人	-11.6546
未畢	-11.6547
官民	-11.6547
富徳等	-11.6547
北庭	-11.6547
謹將	-11.6547
汴梁	-11.6549
聴候	-11.655
臣觀	-11.655
血氣	-11.655
盤獲	-11.6551
賔降	-11.6551
朕欲	-11.6551
詰問	-11.6551
私行	-11.6552
賞䘏	-11.6552
庫庫	-11.6552
震駭	-11.6552
宫殿	-11.6553
以壯	-11.6553
數千騎	-11.6553
同異	-11.6554
之處著	-11.6554
喇克	-11.6555
偕來	-11.6556
官為	-11.6557
辦理軍需	-11.6557
抵鹿仔港	-11.6558
致祭	-11.6559
驚疑	-11.656
三桓	-11.6564
朝廷遣	-11.6565
一例	-11.6565
如彼	-11.6566
北有	-11.6567
元元	-11.6569
料敵	-11.6569
所共知	-11.657
傅爾丹等	-11.657
靖逆	-11.657
巴里坤辦事	-11.657
職方	-11.6571
探得	-11.6572
可惜	-11.6575
甲索	-11.6576
貳師	-11.6578
兵十萬	-11.6579
僅存	-11.658
命有司	-11.6581
喀爾喀游牧	-11.6582
共立	-11.6582
不决	-11.6583
太王	-11.6586
其業	-11.6589
三皇	-11.6591
結好	-11.6591
身任	-11.6594
好色	-11.6594
成名	-11.6596
黔中	-11.6596
縁由	-11.6596
兵數萬	-11.6598
孝伯	-11.6598
人之情	-11.6603
子胥曰	-11.6604
百餘騎	-11.6604
八尺	-11.6607
良將	-11.6607
即領兵	-11.6607
一丈	-11.661
威震	-11.6612
未知其	-11.6613
司正	-11.6615
禦賊	-11.6616
近因	-11.6617
前曾	-11.6619
貪利	-11.6623
明州	-11.6625
女妻	-11.6628
合圍	-11.6628
位號	-11.6628
扎卜等	-11.6629
潞王	-11.6632
相謂曰	-11.6633
五百騎	-11.6633
目擊	-11.6638
遣騎	-11.6643
馬畜	-11.6644
所告	-11.6644
督標	-11.6645
小舟	-11.6645
均州	-11.6647
王振	-11.6647
白虎	-11.6647
激勵	-11.6647
著常青	-11.6649
急則	-11.665
拜賔	-11.6651
平郡王	-11.6651
功過	-11.6651
二尺	-11.6652
諫者	-11.6652
邳	-11.6654
帝堯	-11.6655
元豐	-11.6655
比年	-11.6656
附㑹	-11.6656
奏准	-11.6658
而居	-11.6659
卒于	-11.6662
惟知	-11.6662
肆逆	-11.6662
傳令	-11.6663
以遺	-11.6664
戎馬	-11.6664
魏氏	-11.6665
大寧	-11.6669
章程	-11.667
所設	-11.667
鞫之	-11.6671
下吏	-11.6672
五年春	-11.6672
世輔	-11.6672
黙爾根	-11.6672
軍還	-11.6674
庫圖克圖	-11.6675
已有㫖	-11.6676
達什敦多卜	-11.6677
赶	-11.6677
韓侂胄	-11.6679
墉	-11.6679
暄	-11.6681
旒	-11.6681
而問焉	-11.6682
屑	-11.6683
伶	-11.6683
陬	-11.6684
羯	-11.6684
虺	-11.6685
婚姻	-11.6685
剔	-11.6685
作速奏聞	-11.6686
隨從	-11.6686
正直	-11.6686
觚	-11.6686
黥	-11.6687
卜筮	-11.6687
觀文殿大學士	-11.6687
琿齊	-11.6687
范仲淹	-11.6688
閨	-11.6688
陌	-11.6688
樁	-11.6689
薰	-11.6689
據之	-11.6689
外事	-11.6689
脣	-11.6689
良善	-11.669
惲	-11.6691
憫惻	-11.6691
官兵奮勇	-11.6691
鳬	-11.6691
鹽菜	-11.6691
厨	-11.6692
言於帝曰	-11.6693
班禪	-11.6693
所費	-11.6694
於獄	-11.6695
□□	-11.6695
盲	-11.6697
兵八百名	-11.6697
上表請	-11.6698
重華	-11.6698
苻	-11.6698
大將軍岳鍾琪	-11.6699
羅汝才	-11.6699
厮	-11.67
上書曰	-11.67
形迹	-11.6701
大名府	-11.6701
奮勇出力	-11.6702
秦州刺史	-11.6703
克勒	-11.6705
五原	-11.6707
必取	-11.6707
一頭	-11.6708
未還	-11.6709
曽否	-11.6709
安重誨	-11.671
蓄積	-11.671
自效	-11.671
等語此等	-11.6712
仇讎	-11.6712
帳前	-11.6714
二部	-11.6714
時政	-11.6714
近在	-11.6715
為刺史	-11.6716
良馬	-11.6717
耳若	-11.6718
合勢	-11.6719
王業	-11.6721
粮食	-11.6722
欲伐	-11.6723
以狥	-11.6724
六百餘	-11.6724
三耦	-11.6724
交代	-11.6725
封禪	-11.6725
較前	-11.6725
齊旺	-11.6727
茍且	-11.6728
其美	-11.6728
習於	-11.6729
後嗣	-11.6731
號哭	-11.6732
失機㑹	-11.6732
君臣之義	-11.6733
也且夫	-11.6734
公仲	-11.6734
愛君	-11.6735
百物	-11.6736
福禄	-11.6739
在軍中	-11.6742
右侍郎	-11.6742
順帝	-11.6743
此項兵丁	-11.6744
敢忘	-11.6745
大遼	-11.6747
緩行	-11.6749
之可也	-11.6749
遂滅	-11.675
之姪	-11.6752
如所請奏入上從之	-11.6752
王敦	-11.6753
將若之何	-11.6753
滋蔓	-11.6755
彼將	-11.6755
軍師	-11.6755
生獲	-11.6755
而非	-11.6755
遣人往	-11.6757
另有	-11.6758
今大兵	-11.6758
七十人	-11.6758
敵營	-11.6761
四郡	-11.6761
數十名	-11.6762
康子	-11.6764
韓王	-11.6764
遇事	-11.6765
寧州	-11.6765
唯有	-11.6767
盟誓	-11.677
勅㫖	-11.677
六千人	-11.6773
戍守	-11.6774
従之	-11.6775
現在軍營	-11.6775
兵丁俱	-11.6775
周君	-11.6776
及第	-11.6778
徵兵	-11.678
南單于	-11.6781
然後能	-11.6782
數倍	-11.6784
衡山	-11.6785
設備	-11.6787
漢兒	-11.679
河南北	-11.6797
遵朕	-11.6798
往援	-11.6798
更易	-11.68
非徒	-11.68
郊祀	-11.6801
不足恃	-11.6803
此係	-11.6804
遣將軍	-11.6804
不念	-11.6804
部署	-11.6806
首告	-11.6807
相親	-11.6807
昨已	-11.6808
覽奏	-11.6808
千里之外	-11.6809
安業	-11.6809
晉軍	-11.6809
曹公	-11.6809
殿後	-11.6809
即令其	-11.6809
西夏	-11.6811
諸寨	-11.6814
淮南王	-11.6817
設有	-11.6817
進賢	-11.6818
伏闕	-11.6818
乏糧	-11.682
此二人	-11.682
於明年	-11.6821
弘正	-11.6823
五軍	-11.6824
前隊	-11.6824
木薩	-11.6825
方士	-11.6826
詢知	-11.6829
騎馬	-11.6831
慶父	-11.6832
澶州	-11.6833
北流	-11.6833
五千名	-11.6834
安寧	-11.6834
輕舉	-11.6838
北靣	-11.6839
子男	-11.684
則失	-11.684
范雎	-11.684
入楚	-11.684
荀子	-11.684
鄂木布	-11.6841
齊木庫爾	-11.6844
等語臣	-11.6846
聲震	-11.6846
涵	-11.6846
鄂齊爾	-11.6846
起釁	-11.6848
額爾得尼招	-11.6848
海蘭察等	-11.6849
欽定四庫全書欽定平定臺灣紀畧卷	-11.6849
總督金光祖	-11.6849
廡	-11.6849
𠂻	-11.6849
銖	-11.6849
匏	-11.685
蔬	-11.685
索額圖	-11.685
蓮	-11.685
師曠曰	-11.685
旤	-11.6851
東郭	-11.6851
穰	-11.6851
旋即	-11.6852
乾歸	-11.6852
恵公	-11.6852
四十九旗	-11.6852
漳浦	-11.6852
山北	-11.6852
泝	-11.6852
澆	-11.6852
兩路大兵	-11.6853
農民	-11.6853
專政	-11.6854
郝壯猷	-11.6854
何爲	-11.6854
先據	-11.6855
胎	-11.6855
進戰	-11.6855
凋	-11.6855
議政王等	-11.6855
喟然	-11.6855
侵蝕	-11.6856
盤踞	-11.6856
到處	-11.6856
緘	-11.6856
豺狼	-11.6856
專任	-11.6857
磐	-11.6857
蕪湖	-11.6857
肘腋	-11.6857
迯	-11.6858
琚	-11.6858
催促	-11.6858
該地方官	-11.6858
鮪	-11.6858
頵	-11.6858
求生	-11.6858
菁	-11.6859
所忌	-11.6859
自辰至	-11.6859
烏合之衆	-11.6859
令孜	-11.686
甘肅巡撫	-11.686
大内	-11.6861
驃騎大將軍	-11.6862
生理	-11.6862
龍驤	-11.6862
䕶軍叅領	-11.6863
壓境	-11.6863
廏	-11.6863
榛	-11.6863
輔國將軍	-11.6865
當此之時	-11.6865
髀	-11.6865
腥	-11.6867
种師中	-11.6868
韓琦	-11.6868
峒	-11.6869
求去	-11.6869
著革職	-11.687
國寶	-11.687
巴桑	-11.6871
三年春	-11.6871
于廟	-11.6874
石亨	-11.6874
一空	-11.6875
奏入報聞同日	-11.6876
剝	-11.6876
斯民	-11.6876
唐太宗	-11.6876
屬國	-11.6877
浮言	-11.6877
市易	-11.6877
都督府	-11.6878
許州	-11.6879
軍餉	-11.688
先零	-11.688
顔囘	-11.688
該提督	-11.6881
聞奏	-11.6882
瑪特	-11.6882
黨惡	-11.6882
而誅之	-11.6885
比者	-11.6885
富弼	-11.6886
敗事	-11.6886
應之曰	-11.6887
用兵之道	-11.6888
突利	-11.6888
從諌	-11.6889
馳遞	-11.6889
布帛	-11.689
經年	-11.689
大夫士	-11.6891
馬燧	-11.6892
六寸	-11.6893
芻糧	-11.6893
酌量情形	-11.6895
詔獄	-11.6896
違者	-11.6896
帶青	-11.6896
已足	-11.6897
内移	-11.6898
鼓勇	-11.6899
已乆	-11.6899
竟無	-11.69
原設	-11.6904
慶忌	-11.6904
開導	-11.6904
延平	-11.6905
大敵	-11.6905
偽官	-11.6906
兵一千五百名	-11.6908
得天下	-11.6908
霍集占等	-11.6909
難制	-11.6909
薩爾	-11.6911
為援	-11.6912
台吉宰桑等	-11.6913
閣門	-11.6914
者亦有	-11.6915
各庄	-11.6916
盡歸	-11.6916
曲端	-11.6917
素稱	-11.6919
以我為	-11.6923
到來	-11.6924
更加	-11.6925
炎帝	-11.6928
論衡	-11.6929
行義	-11.6929
度外	-11.6931
輕敵	-11.6933
可圖也	-11.6935
將步騎	-11.6935
淫亂	-11.6935
憂國	-11.6936
棄市	-11.6937
而不見	-11.6939
遇見	-11.694
例應	-11.6941
希廣	-11.6941
久逺	-11.6942
所論	-11.6943
老臣	-11.6943
汴州	-11.6944
蕃漢	-11.6944
三里	-11.6944
何忍	-11.6945
全義	-11.6946
移居	-11.6947
統計	-11.6949
七十五	-11.6954
仁恭	-11.6957
六十七	-11.6958
新野	-11.6962
於秦秦	-11.6962
去處	-11.6963
不曉	-11.6965
至臨清	-11.6968
臨清州	-11.6969
孟子曰	-11.697
論曰	-11.6971
一條	-11.6972
加之以	-11.6974
報仇	-11.6975
同奏言	-11.6976
曰何謂也	-11.6976
生疑懼	-11.6978
長久	-11.6978
領兵至	-11.6978
崇寧	-11.6979
遣使諭	-11.6979
元年初	-11.6979
大學	-11.6981
一萬五千	-11.6984
臣等查	-11.6986
是故君子	-11.6986
民財	-11.6986
宗憲	-11.6986
也昔者	-11.6987
分為三	-11.6988
亦嘗	-11.6989
之兆	-11.6989
田氏	-11.699
維時	-11.6991
韓氏	-11.6992
報復	-11.6992
自便	-11.6993
忠厚	-11.6995
益驕	-11.6995
勿得	-11.6997
聞變	-11.6998
聲聞	-11.7001
守兵	-11.7001
揆之	-11.7001
郡邑	-11.7002
至建康	-11.7005
來求	-11.7005
更立	-11.7008
乃罷	-11.7009
原派	-11.7009
孰為	-11.701
何裕城	-11.7013
能制	-11.7014
蠟	-11.7015
吏卒	-11.7015
尼楚赫	-11.7016
具報	-11.7016
歩軍	-11.7018
順承親王	-11.7018
預行	-11.7018
答之	-11.7018
渣	-11.7018
桂陽	-11.7019
挿	-11.702
瘴	-11.702
三年春二月	-11.7021
乎抑	-11.7021
渾瑊	-11.7021
疲瘦	-11.7021
遵照前㫖	-11.7021
伎倆	-11.7021
乾清門侍衛	-11.7022
集賽	-11.7022
都察院	-11.7022
哈薩克阿布賚	-11.7023
淳于髠	-11.7023
將軍薩卜素	-11.7024
丹濟喇	-11.7024
冠帶	-11.7024
夤	-11.7024
冤	-11.7024
妃嬪	-11.7024
造父	-11.7025
大將軍公圖海	-11.7025
唐喀祿	-11.7025
淄	-11.7025
讀之	-11.7026
䟎	-11.7026
莅	-11.7026
許應虎	-11.7026
瞰	-11.7027
大兵前進	-11.7027
澈	-11.7027
徘徊	-11.7028
負嵎	-11.7028
肅王	-11.7028
囘紇	-11.7028
僉都御史	-11.7029
跟究	-11.7029
貍	-11.7029
應請㫖	-11.7029
丐	-11.7029
吏治	-11.7029
或由	-11.7029
舒明	-11.7029
錦衣衛	-11.7029
左傳紀事本末	-11.703
所賜	-11.703
欄	-11.7031
到軍營	-11.7031
本色	-11.7032
鉅鹿	-11.7032
梓潼	-11.7032
縠	-11.7033
崔胤	-11.7034
㢤	-11.7034
玘	-11.7035
羣情	-11.7035
據實具奏	-11.7035
倉廩	-11.7036
惑之	-11.7036
屢有	-11.7036
平生	-11.7036
訥親張廣泗	-11.7036
二次	-11.7038
渦	-11.7038
南道	-11.7039
下車	-11.704
率皆	-11.704
夫役	-11.7041
新滿洲	-11.7041
阿蘭泰等	-11.7041
赫連	-11.7042
失措	-11.7043
攻齊	-11.7044
則民不	-11.7045
攜帶	-11.7045
幣帛	-11.7046
沐英	-11.7046
金錢	-11.7047
三年之喪	-11.7049
藝祖	-11.7052
桓温	-11.7054
物故	-11.7054
建文帝	-11.7055
不可得而	-11.7055
東城	-11.7058
其子弟	-11.7059
平章事	-11.706
大安	-11.706
不遺	-11.7062
外援	-11.7063
阼階上	-11.7063
巡察	-11.7064
陳軫	-11.7064
大駕	-11.7064
二縣	-11.7064
昆明	-11.7067
憤怒	-11.7067
記室	-11.7067
江口	-11.7068
三十二年	-11.7068
彤	-11.7068
巴東	-11.707
未可知也	-11.7071
有應行	-11.7072
何難	-11.7072
待我	-11.7074
感泣	-11.7075
征南	-11.7076
速發	-11.7077
自疑	-11.7077
母妻	-11.708
裝載	-11.708
咎犯	-11.7085
圖喇	-11.7089
本屬	-11.709
南人	-11.7091
論事	-11.7091
力爭	-11.7093
西路大兵	-11.7093
▁穀梁傳	-11.7093
似屬	-11.7094
潤州	-11.7094
帶領官兵	-11.7096
者即行	-11.7096
汝寧	-11.7096
五代	-11.7096
越境	-11.7097
昭義節度使	-11.7098
宣化府	-11.7098
可知矣	-11.7099
極矣	-11.71
舒常	-11.71
告急於	-11.7101
聞金人	-11.7104
盛衰	-11.7106
日可到	-11.7108
劾奏	-11.7108
奬諭	-11.7109
總領	-11.7109
信陽	-11.7109
流水	-11.711
昌言	-11.711
奉國	-11.7111
九鼎	-11.7113
力屈	-11.7114
共事	-11.7114
又嘗	-11.7115
再往	-11.7115
地理	-11.7116
赴閩	-11.7117
少頃	-11.7117
曰自古	-11.7117
視師	-11.7118
奸邪	-11.712
殊不知	-11.712
宗龍	-11.7121
遑	-11.7122
隨往	-11.7123
縱火焚	-11.7124
猶恐	-11.7126
等將兵	-11.7127
嚴辦	-11.7128
所給	-11.7128
扎營	-11.713
奏功	-11.7133
大夫皆	-11.7133
果如	-11.7134
禮畢	-11.7134
二營	-11.7135
監糧	-11.7136
巡防	-11.7138
隨駕	-11.714
恤民	-11.714
二路	-11.7141
曩者	-11.7141
未知所	-11.7143
皇仁	-11.7144
合軍	-11.7147
計窮	-11.7149
寢疾	-11.7149
二十名	-11.715
不遷	-11.7151
等二十	-11.7152
三年夏四月	-11.7152
價銀	-11.7152
許昌	-11.7153
出榜	-11.7155
深山	-11.7159
部長	-11.7159
條具	-11.7161
生員	-11.7162
豈不知	-11.7162
臨敵	-11.7165
嬰齊	-11.7168
神主	-11.7168
事覺	-11.7168
踰月	-11.717
瀘州	-11.7171
率屬	-11.7172
疾速	-11.7174
文移	-11.7174
先定	-11.7178
在今日	-11.7182
豨	-11.7182
復讐	-11.7182
過江	-11.7183
南來	-11.7184
情狀	-11.7186
窖	-11.7187
胞	-11.7189
水之上	-11.7189
慨	-11.7191
一二人	-11.7192
俟到	-11.7192
世勣	-11.7193
色楞	-11.7194
憨都	-11.7196
郅支	-11.7197
綽爾濟	-11.7197
聨絡	-11.7198
倩	-11.7198
湖州	-11.7198
杏	-11.7198
禳	-11.7198
址	-11.7199
愽	-11.72
凍餒	-11.72
麒麟	-11.72
逗留	-11.7201
茶葉	-11.7201
瘁	-11.7202
嘿	-11.7202
複	-11.7202
塌	-11.7203
湖灘河朔	-11.7203
蟠	-11.7203
崗	-11.7203
酸	-11.7203
窩	-11.7204
奨賞	-11.7204
稀	-11.7204
駕馭	-11.7205
無宇	-11.7205
都督中外諸軍事	-11.7206
縉紳	-11.7207
紹先	-11.7207
畏怯	-11.7207
容留	-11.7207
公曰寡人	-11.7208
屡	-11.7208
梁州刺史	-11.7208
衽	-11.7209
此臣所以	-11.721
鄱陽	-11.7212
前奉諭㫖	-11.7212
薩里罕	-11.7213
瞋目	-11.7213
両	-11.7213
著舒赫徳	-11.7214
初帝	-11.7214
擊走之	-11.7215
鄭鄭	-11.7216
既立	-11.7216
車服	-11.7216
更替	-11.7217
沿路	-11.7218
顔淵	-11.7218
進京	-11.7219
錢帛	-11.722
規矩	-11.722
打造	-11.722
有序	-11.722
按照	-11.7221
買馬	-11.7222
朱滔	-11.7222
親黨	-11.7225
格外加恩	-11.7225
檻車	-11.7225
俱能	-11.7225
軍機處	-11.7227
速奏	-11.7229
效尤	-11.7229
教民	-11.723
辦理不善	-11.723
夏秋	-11.7231
謹奏	-11.7231
吉甫	-11.7232
吾當	-11.7234
二百餘名	-11.7234
商旅	-11.7235
擒送	-11.7241
我先君	-11.7242
懦怯	-11.7242
田獵	-11.7243
及弟	-11.7244
弢	-11.7245
挺身	-11.7245
設官	-11.7245
俱死	-11.7246
之人亦	-11.7246
援應	-11.7247
子展	-11.7248
五味	-11.7249
靖邊	-11.7249
同惡	-11.7249
奉上諭	-11.7254
往伊犂	-11.7256
相聚	-11.726
萬機	-11.7263
行止	-11.7265
别無	-11.7267
無㡬	-11.7267
善政	-11.7267
阿桂等奏	-11.7267
本州	-11.7268
俯伏	-11.727
據實奏聞	-11.727
徳鈞	-11.727
之子孫	-11.727
上郡	-11.7271
閒散	-11.7271
唐鄧	-11.7271
謂宜	-11.7273
秦穆公	-11.7274
康居	-11.7277
齊秦	-11.7279
千二百	-11.728
鳳山	-11.728
州刺史張	-11.7282
富民	-11.7282
閬	-11.7283
妻妾	-11.7288
不知何	-11.7288
今觀	-11.7293
其可乎	-11.7293
有之曰	-11.7294
李鄴	-11.7295
處羅	-11.7297
彦超	-11.73
禄山	-11.73
至行在	-11.7303
炮	-11.7303
回奏	-11.7304
太康	-11.7305
老母	-11.7306
大喇嘛	-11.7309
功徳	-11.7312
使其子	-11.7315
兵單	-11.7315
疎虞	-11.7316
哀侯	-11.7317
防禦使	-11.7317
不諳	-11.7318
每嵗	-11.7319
少監	-11.7319
守䕶	-11.7319
使告	-11.732
王猛	-11.7322
我獨	-11.7323
吾國	-11.7323
朝歌	-11.7323
遼西	-11.7323
武職	-11.7326
近地	-11.733
扼要	-11.7331
晉晉人	-11.7334
去路	-11.7335
大政	-11.7337
鄉民	-11.7339
事權	-11.7342
未肯	-11.7342
安邑	-11.7343
大略	-11.7344
楊州	-11.7344
叛者	-11.7347
延光	-11.7348
濟師	-11.7349
請救	-11.735
唐州	-11.7353
余曰	-11.7354
養子	-11.7357
獻于	-11.7357
太湖	-11.7358
皇皇	-11.7358
不佞	-11.7362
即留	-11.7363
庫庫特穆爾	-11.7366
戒之曰	-11.737
議具奏	-11.737
異心	-11.737
鄂容安	-11.7372
太陽	-11.7372
應需	-11.7372
古爾班	-11.7372
駞	-11.7373
浄	-11.7373
額爾景額	-11.7374
玷	-11.7374
靼	-11.7374
纘	-11.7375
狠	-11.7375
徤	-11.7376
易服	-11.7376
勒爾錦	-11.7377
三隊	-11.7377
豢養	-11.7377
玄謨	-11.7378
縀疋	-11.7378
吳三桂	-11.7378
且戰且	-11.7379
據此	-11.7379
耨	-11.7379
沴	-11.738
垓	-11.7381
郗	-11.7382
噶岱黙特	-11.7382
嫗	-11.7382
燃	-11.7382
叅知政事	-11.7382
蟬	-11.7383
橐	-11.7383
謾	-11.7383
絲毫	-11.7384
大事去矣	-11.7384
耐	-11.7384
者可比	-11.7384
館陶	-11.7385
敺	-11.7385
冠軍將軍	-11.7385
疆圉	-11.7385
臨安府	-11.7385
漁者	-11.7386
族人	-11.7386
心膂	-11.7387
和碩特	-11.7387
痤	-11.7387
鮒	-11.7388
事急	-11.7388
正法示衆	-11.7388
傒	-11.7388
怵	-11.7389
鴆	-11.739
制禮	-11.7391
步卒	-11.7391
時雍	-11.7393
事定後	-11.7393
崇義	-11.7394
趍	-11.7394
查得	-11.7394
守貞	-11.7395
笏	-11.7395
哭泣	-11.7396
帥歩騎	-11.7396
秦王世民	-11.7396
饑寒	-11.7397
犒師	-11.7399
廷美	-11.7399
萬三千	-11.74
犒賞	-11.74
三縣	-11.7401
佩刀	-11.7401
處州	-11.7402
議郎	-11.7402
暫緩	-11.7402
妥速	-11.7404
誰與	-11.7404
丈人	-11.7405
一千三百	-11.7405
東流	-11.7406
孔叢子	-11.7407
敗衂	-11.7407
萬歳	-11.7409
弟兄	-11.741
小利	-11.741
積粟	-11.741
無恥	-11.7412
延儒	-11.7413
更屬	-11.7413
未見其	-11.7413
襄仲	-11.7416
感恩	-11.7421
七百人	-11.7421
所造	-11.7421
川陜總督	-11.7421
察克	-11.7422
朕親	-11.7423
貝州	-11.7424
烏魯木齊等處	-11.7424
十隻	-11.7424
天長	-11.7425
延壽	-11.7425
晉封	-11.7431
自此始	-11.7432
維州	-11.7433
江海	-11.7433
温布	-11.7435
未有所	-11.7438
前日之	-11.7438
拘留	-11.744
小船	-11.7444
良乆	-11.7445
㡬何	-11.7445
等語朕	-11.7446
諸帥	-11.7446
違命	-11.7447
其姦	-11.7449
遣使入貢	-11.745
燕軍	-11.745
所種	-11.7454
獻出	-11.7455
先聲	-11.7456
為聲援	-11.7458
哉夫	-11.7459
衛州	-11.7459
數百萬	-11.746
齊魯	-11.7461
典刑	-11.7462
旋經	-11.7464
修城	-11.7464
成閔	-11.7465
失律	-11.7467
湯和	-11.7473
哈薩克錫喇等	-11.7473
戰陣	-11.7474
施放鎗砲	-11.7475
梁主	-11.7476
竟陵	-11.7477
内酌量	-11.7479
諸部落	-11.748
置司	-11.7481
簡子曰	-11.7488
無愧	-11.7491
南走	-11.7491
變色	-11.7496
安豐	-11.7497
者不可勝數	-11.7498
將兵救	-11.75
征兵	-11.75
繞出	-11.7501
餘糧	-11.7501
夏后	-11.7501
一千七百	-11.7503
打仗殺賊	-11.7503
籍其家	-11.7505
逃至	-11.7506
貧者	-11.7507
禮物	-11.7508
就道	-11.751
而取之	-11.7511
立太子	-11.7511
孝恭	-11.7512
攻秦	-11.7513
不可知	-11.7513
無須	-11.7514
賢君	-11.7514
棧	-11.7517
計程	-11.7517
舉大事	-11.7517
靜寧	-11.752
父死	-11.7521
百騎	-11.7532
御史臺	-11.7532
最多	-11.7532
新書	-11.7533
武丁	-11.7534
潰圍	-11.7535
尤宜	-11.7538
延政	-11.7538
軍械	-11.7539
亦照	-11.754
噪	-11.7542
寘鐇	-11.7543
時則有	-11.7543
更可	-11.7546
察罕特穆爾	-11.7547
瑊	-11.7552
烏勒木濟	-11.7552
都䕶	-11.7554
孑	-11.7554
祺	-11.7555
五刑	-11.7556
皇孫	-11.7557
巴爾楚克	-11.7557
巴特瑪車凌	-11.7557
世受國恩	-11.7557
回軍	-11.7557
蒍	-11.7557
巴顔烏闌	-11.7558
太僕寺	-11.7558
袞	-11.7558
貉	-11.7558
營汛	-11.7559
中書侍郎同平章事	-11.7559
蘇尼特	-11.756
兩端	-11.756
椽	-11.756
錐	-11.756
林中	-11.756
山險	-11.756
軒轅	-11.756
裕親王	-11.756
水師提督	-11.756
克勒特	-11.7561
除害	-11.7561
𬒳	-11.7561
互市	-11.7561
甘凉	-11.7562
娣	-11.7562
疆埸	-11.7562
旺扎爾	-11.7563
鞬	-11.7563
竇建德	-11.7563
脉	-11.7563
傭	-11.7563
分晰	-11.7564
狂悖	-11.7564
妬	-11.7565
閏三月	-11.7565
床	-11.7565
村落	-11.7565
褫	-11.7566
愕然	-11.7566
蹂踐	-11.7566
吠	-11.7567
諠	-11.7567
逈	-11.7568
阻隔	-11.7568
餙	-11.7568
上封事	-11.7568
鍳	-11.7569
問疾	-11.7569
杰	-11.757
隄防	-11.757
哥	-11.757
亡去	-11.7571
柘	-11.7572
兌	-11.7572
走還	-11.7573
負國	-11.7573
揺動	-11.7573
存焉	-11.7574
操練	-11.7574
兵六百名	-11.7574
臨城	-11.7574
都部署	-11.7574
隗囂	-11.7575
秦主	-11.7576
帮同	-11.7576
休戚	-11.7577
釋名	-11.7578
入居	-11.7578
臠	-11.7579
擊退	-11.7579
梟首	-11.7582
桂林	-11.7583
孝孺	-11.7583
不朽	-11.7583
拘禁	-11.7584
千餘户	-11.7584
莫肯	-11.7585
南越	-11.7585
帶傷	-11.7586
郎官	-11.7588
押送	-11.7588
李光弼	-11.7589
形勝	-11.7589
宰輔	-11.759
宥之	-11.759
胡亥	-11.7592
衮布	-11.7593
奚契丹	-11.7593
既到	-11.7593
白金	-11.7594
不諱	-11.7594
暫令	-11.7594
上介	-11.7596
照例辦理	-11.7599
夏桀	-11.7599
入俄羅斯	-11.76
圍守	-11.7601
内稱	-11.7601
涼王	-11.7602
汪直	-11.7603
飛鳥	-11.7605
兼知	-11.7609
臨淮	-11.7611
荘子	-11.7612
賊夷	-11.7612
郊廟	-11.7613
注云	-11.7613
籌及	-11.7618
之所生	-11.762
所不忍	-11.7622
敗露	-11.7624
孟養	-11.7626
報可	-11.7628
遵諭	-11.7629
歡呼	-11.7629
尚欲	-11.7629
寺人	-11.7631
宣武	-11.7636
求見	-11.7638
帥諸軍	-11.7641
飭諭	-11.7641
率大兵	-11.7642
楚材	-11.7643
即遵㫖	-11.7643
帶甲	-11.7644
乘驛	-11.7644
劒門	-11.7645
君子謂	-11.7646
可乘	-11.7646
謂人曰	-11.7647
屈原	-11.7647
無窮之	-11.7649
示天下	-11.7649
憂勤	-11.7649
小山	-11.765
勸帝	-11.765
此誠	-11.7653
不學	-11.7653
聖躬	-11.7655
咸謂	-11.7657
衝擊	-11.7658
山積	-11.7661
寧國	-11.7663
索拜	-11.7664
謹守	-11.7667
河套	-11.7668
仁孝	-11.7669
道途	-11.7671
去國	-11.7671
克捷	-11.7672
天下之事	-11.7672
勞師	-11.7673
三邊	-11.7674
彰化縣	-11.7677
立廟	-11.7679
𠞰撫	-11.768
本心	-11.7681
明春	-11.7685
無所不至	-11.7687
賜宴	-11.7687
左營	-11.7689
君集	-11.769
俱進	-11.7692
大臣皆	-11.7692
率赴	-11.7692
喇嘛等	-11.7694
之言曰	-11.7695
本應	-11.7695
籍沒	-11.7696
道濟	-11.7699
彭城王	-11.7701
俟大兵	-11.7704
亦猶	-11.7705
膚功	-11.7706
本旗	-11.7707
剳	-11.7708
四時之	-11.7711
出示	-11.7711
家産	-11.7713
賞功	-11.7715
天下之心	-11.7717
戰碉	-11.7719
伯禽	-11.772
廣徳	-11.7724
太守王	-11.7728
元顯	-11.7729
就食	-11.773
明皇	-11.7731
一級	-11.7731
星赴	-11.7731
不知兵	-11.7731
一百八十	-11.7732
騏	-11.7733
秉公	-11.7733
阿嚕台	-11.7736
彦威	-11.7736
舸	-11.7737
策零敦多卜	-11.7737
擒治	-11.7738
吳師	-11.7738
賈似道	-11.7738
霞	-11.7738
各旗	-11.7739
沙陀	-11.774
伐吳	-11.774
纁	-11.7741
在廷	-11.7742
痊	-11.7742
徭	-11.7743
胡土克圖	-11.7743
佟	-11.7745
疽	-11.7745
馬牛	-11.7745
峭	-11.7745
交部嚴加議處	-11.7745
木楚克	-11.7746
魏王珪	-11.7746
草束	-11.7747
㝢	-11.7747
喉	-11.7748
个	-11.7749
午刻	-11.7749
嬉	-11.7749
葭	-11.7749
蘇代	-11.7749
藺	-11.7749
徐嗣曾	-11.7749
腰站	-11.7749
雱	-11.775
圄	-11.775
哲卜尊丹巴胡土克圖	-11.775
浄盡	-11.775
枷	-11.775
擠	-11.7751
河東節度使	-11.7751
大里杙賊巢	-11.7751
賓客	-11.7751
㳂	-11.7751
妒	-11.7751
鄣	-11.7751
笠	-11.7751
冒昧	-11.7751
嘯	-11.7752
照此辦理	-11.7752
臾	-11.7752
疎忽	-11.7752
太守張	-11.7753
悵	-11.7753
扆	-11.7753
渡海	-11.7754
狄人	-11.7754
博貝	-11.7754
中傷	-11.7754
熟畨	-11.7754
笄	-11.7754
淇	-11.7754
甚合機宜	-11.7754
黍稷	-11.7755
疆場	-11.7755
河外	-11.7756
撥補	-11.7757
廟謨	-11.7757
珥	-11.7757
丗隆	-11.7758
左衛將軍	-11.7758
歲幣	-11.7758
湜	-11.7758
嘏	-11.7759
蹇叔	-11.776
頠	-11.7763
預籌	-11.7763
陳倉	-11.7763
濮陽	-11.7765
莊錫舍	-11.7765
鄉兵	-11.7766
象昇	-11.7767
所不容	-11.7768
土豪	-11.7768
帑藏	-11.7768
太子太保	-11.7768
伏祈	-11.7768
爵位	-11.7768
汛地	-11.7769
頃刻	-11.7769
世系	-11.7769
安撫司	-11.777
存營	-11.777
藤峽	-11.7772
嚴拏	-11.7772
陶侃	-11.7775
享國	-11.7777
與中國	-11.7778
煬帝	-11.7778
玩好	-11.7779
白石	-11.7779
滿洲索倫	-11.778
莊子曰	-11.778
遁入	-11.7781
七百名	-11.7781
魏忠賢	-11.7782
甚嚴	-11.7783
馬政	-11.7784
奬賞藍翎	-11.7785
白刃	-11.7785
逺慮	-11.7786
二百餘里	-11.7786
洺	-11.7786
之墓	-11.7786
一介	-11.7786
遲速	-11.7786
道並進	-11.7786
賦役	-11.779
耕者	-11.7791
三衛	-11.7791
兵數千	-11.7793
致討	-11.7795
食肉	-11.7802
娶於	-11.7802
東府	-11.7803
中京	-11.7805
更代	-11.7806
光州	-11.7808
附從	-11.7808
湖口	-11.7809
結盟	-11.7809
白塔	-11.7809
盧龍	-11.781
厲聲曰	-11.7811
比周	-11.7812
顯祖	-11.7815
趙普	-11.7816
州司馬	-11.7816
李宻	-11.7816
外城	-11.7817
官員兵丁	-11.7818
久駐	-11.782
莫之能	-11.782
各土司	-11.782
廵查	-11.7821
萬戸	-11.7825
行伍	-11.7825
等率衆	-11.7826
燕城	-11.7827
等語從前	-11.7829
薛公	-11.783
奮勇殺賊	-11.7831
陪臣	-11.7832
爲太子	-11.7834
建平	-11.7835
内殿	-11.7836
而後已	-11.7837
十一年春	-11.7839
長公主	-11.7839
叛降	-11.7841
困窮	-11.7842
北還	-11.7842
奄有	-11.7842
昭穆	-11.7844
南蠻	-11.7844
情理	-11.7844
等率領	-11.7845
度日	-11.7846
太山	-11.7847
歸欵	-11.7849
恩威	-11.7849
士卒皆	-11.7849
恩賜	-11.7849
失禮	-11.7849
瞻仰	-11.7853
等告稱	-11.7854
朗州	-11.7854
諭旨	-11.7855
免官	-11.7855
鄭氏	-11.7857
齊晉	-11.7859
阿巴噶斯等	-11.7862
來侵	-11.7865
之始也	-11.7865
重寄	-11.7866
山嶺	-11.7867
田野	-11.787
酌賞	-11.7871
慎勿	-11.7872
不競	-11.7872
南寧	-11.7873
由屯	-11.7874
或謂之	-11.7876
留守司	-11.7876
嗎哈沁等	-11.7876
及即位	-11.7877
於附近	-11.7878
遥逺	-11.7878
赦書	-11.7881
咨爾	-11.7882
國門	-11.7886
送死	-11.7888
召伯	-11.789
壯者	-11.7895
尤當	-11.7895
樹木	-11.7898
不貲	-11.7898
即墨	-11.79
真人	-11.79
對敵	-11.7902
景州	-11.7902
初次	-11.7903
研	-11.7904
汜水	-11.7908
險隘	-11.7908
訪查	-11.7909
賊冦	-11.791
徐徐	-11.7911
益深	-11.7913
布魯特等	-11.7914
所惑	-11.7915
闌	-11.7916
不得見	-11.7918
思恭	-11.7919
但現在	-11.7919
可期	-11.7922
煦	-11.7922
傾危	-11.7922
阿拉卜灘	-11.7923
本欲	-11.7923
内大臣索額圖	-11.7924
俱稱	-11.7925
雅克特穆爾	-11.7925
失業	-11.7925
墨爾根	-11.7927
與之戰	-11.7927
打牲	-11.7929
遂破	-11.7929
伊拉古克三	-11.793
綽爾多	-11.7931
樂器	-11.7931
帝召	-11.7931
邃	-11.7931
刧	-11.7932
駕至	-11.7932
翩	-11.7932
藐	-11.7933
烏蘭古木	-11.7933
洞鑒	-11.7934
右營	-11.7934
一字	-11.7934
覬覦	-11.7934
嚴行申飭	-11.7934
那木扎爾	-11.7934
大宰	-11.7934
晤	-11.7935
烏蘭烏蘇	-11.7935
李世勣	-11.7936
鄯	-11.7936
其所欲	-11.7936
士竒曰	-11.7936
摺奏	-11.7937
伏望陛下	-11.7938
之所致也	-11.7938
跌	-11.7938
參分	-11.7939
舁	-11.7939
堙	-11.7939
秦隴	-11.7939
紀成斌	-11.7939
都督僉事	-11.7939
控扼	-11.7939
加一級	-11.794
炤	-11.794
馳騁	-11.7941
先聖	-11.7941
指麾	-11.7941
左賢王	-11.7941
我軰	-11.7942
愠	-11.7942
鈍	-11.7942
隠匿	-11.7943
受賞	-11.7943
捽	-11.7943
僊	-11.7943
馮澥	-11.7943
賑濟	-11.7944
條例	-11.7944
延禧	-11.7945
鹽菜銀兩	-11.7945
不旋踵	-11.7945
睿鑒	-11.7945
洋面	-11.7946
徳音	-11.7947
劉韐	-11.7947
視朝	-11.7947
臺榭	-11.7948
軍司	-11.7949
賞銀五十兩	-11.7949
法紀	-11.7949
懇切	-11.795
日有食之	-11.795
洞庭	-11.795
疲弊	-11.7951
加増	-11.7951
康熈	-11.7952
四年春	-11.7953
脫逃	-11.7955
忠武	-11.7955
配天	-11.7956
為人臣者	-11.7957
為謀主	-11.7957
繪圖	-11.7958
未久	-11.7959
喇什	-11.7959
不曽	-11.7959
仰副	-11.7959
持久	-11.796
叔仲	-11.7961
哀牢	-11.7961
巴爾布	-11.7962
編管	-11.7962
元年夏四月	-11.7963
鮮虞	-11.7963
研訊	-11.7964
翻山	-11.7964
五十七	-11.7964
五千餘人	-11.7965
太過	-11.7966
抽撥	-11.7967
俓	-11.7969
轉餉	-11.7969
敖曹	-11.7969
果毅	-11.797
霍光	-11.7971
諺曰	-11.7972
牢之	-11.7973
私意	-11.7973
仁傑	-11.7974
臣愚以為	-11.7974
另派	-11.7975
詣軍門	-11.7976
至烏魯木齊	-11.7977
近聞	-11.7979
龍城	-11.7979
謁見	-11.7979
原欲	-11.798
昭昭	-11.7981
徑趨	-11.7981
其友	-11.7982
極力	-11.7983
一匹	-11.7983
八十五	-11.7984
威德	-11.7985
匹馬	-11.7986
四靣	-11.7986
和碩齊等	-11.7989
微弱	-11.7989
范文子	-11.799
攻䧟	-11.799
以遏	-11.7992
抵營	-11.7992
左長史	-11.7992
與賊打仗	-11.7993
徳勝	-11.7993
什一	-11.7996
萬姓	-11.7998
伊係	-11.7998
通渭縣	-11.8002
一概	-11.8003
兩岸	-11.8003
道法	-11.8003
羣公子	-11.8003
富平	-11.8004
領隊	-11.8004
一篇	-11.8005
顧命	-11.8011
頭等侍衛	-11.8012
嚴整	-11.8016
府州縣	-11.8016
東三省	-11.802
冠軍	-11.802
叅議	-11.8021
宫觀	-11.8023
山頂	-11.8027
山口	-11.8028
羅卜	-11.803
不免於	-11.8031
成風	-11.8031
盗竊	-11.8034
查閲	-11.8034
彊盛	-11.8035
不可勝數	-11.8036
愛養	-11.8038
諸番	-11.8038
漢武帝	-11.8044
夾道	-11.8044
乎公曰	-11.8048
缺出即	-11.8053
每名	-11.8053
據云	-11.8055
合戰	-11.8056
召對	-11.8057
緑營兵	-11.806
惠伯	-11.8066
六年春	-11.807
走馬	-11.807
攻趙	-11.8071
面加	-11.8072
長短	-11.8074
主人降	-11.8079
静寧州	-11.808
有事於	-11.8081
隨派	-11.8082
遣人招	-11.8082
經義	-11.8086
豈惟	-11.8089
五萬人	-11.8091
回報	-11.8091
徐行	-11.8096
分頭	-11.8097
作書	-11.8099
買補	-11.81
時再行	-11.81
求援	-11.81
理㑹	-11.8101
駐防兵丁	-11.8104
仁恩	-11.8106
臣子之	-11.8107
既係	-11.8107
避賊	-11.8108
已飭	-11.8108
火箭	-11.8109
都邑	-11.8109
坐臺	-11.811
四海之	-11.811
示之以	-11.8111
力弱	-11.8111
嶲	-11.8112
司員	-11.8113
嘉悦	-11.8114
全師	-11.8114
不弔	-11.8114
文德	-11.8116
遺民	-11.8117
主和議	-11.8117
柴達木	-11.8118
滿營	-11.8118
鉷	-11.8118
阿海	-11.8119
京房易傳曰	-11.8119
砂	-11.8119
匄	-11.812
方為妥協	-11.8121
姚立徳	-11.8121
幹員	-11.8123
叛亂	-11.8123
裁汰	-11.8124
咫尺	-11.8124
陳步瀛	-11.8125
臼	-11.8125
埤	-11.8126
所未有	-11.8126
利鹿孤	-11.8126
矦	-11.8126
趂	-11.8127
餧養	-11.8127
馬駞	-11.8127
百五十	-11.8127
悉心籌畫	-11.8127
訂期	-11.8128
信賞必罰	-11.8128
媿	-11.8128
㗖	-11.8128
地險	-11.8129
褊	-11.8129
觀文殿學士	-11.8129
青稞	-11.813
貽悮	-11.813
輪班	-11.813
大將軍簡親王	-11.813
冒賑	-11.813
鏌	-11.813
揜	-11.8131
踣	-11.8131
﨑嶇	-11.8131
流沙	-11.8131
惶惑	-11.8131
雝	-11.8131
參贊	-11.8131
堕	-11.8131
冺	-11.8131
敬瑄	-11.8132
汧隴	-11.8132
查拿	-11.8132
皮弁	-11.8132
加意防範	-11.8132
瑪納斯	-11.8132
擾民	-11.8133
無能為也	-11.8135
孔彦舟	-11.8136
棒	-11.8136
參謀	-11.8136
鶉	-11.8137
臕壯	-11.8137
願聞	-11.8138
六十五	-11.8138
城守尉	-11.8138
什希	-11.8139
桶	-11.8139
阿濟	-11.814
范宗尹	-11.814
隱匿	-11.814
吳璘	-11.8141
重罪	-11.8142
烏撒	-11.8145
貪殘	-11.8147
往年	-11.8148
連和	-11.8148
動靜	-11.815
蘄黄	-11.815
遲誤	-11.815
子嬰	-11.815
将来	-11.8151
子囊	-11.8151
闗陜	-11.8152
造冊	-11.8158
屠戮	-11.8159
升堂	-11.8161
藉端	-11.8162
桑仲	-11.8163
錢榖	-11.8164
舉措	-11.8165
馳驅	-11.8165
協理	-11.8167
西土	-11.8167
招誘	-11.8168
西安將軍	-11.817
存乎	-11.817
足敷用	-11.817
縛獻	-11.8172
稱病	-11.8172
僕人	-11.8173
巡視	-11.8174
三百餘里	-11.8177
削奪	-11.8178
安世	-11.818
少宰	-11.8184
頒發	-11.8184
分投	-11.8187
發喪	-11.8188
傳語	-11.8188
東京留守	-11.8192
而釋之	-11.8197
輔佐	-11.8198
二郡	-11.8198
諭知	-11.82
尊賢	-11.82
蜀漢	-11.8201
六百人	-11.8201
白溝	-11.8203
隨州	-11.8204
合為一	-11.8205
悲夫	-11.8205
諸侯之大夫	-11.8206
一欽定四庫全書	-11.8207
兵四千名	-11.8207
回籍	-11.8208
遼逺	-11.8213
軍機大臣等奏言	-11.8213
覆載	-11.8213
等公同	-11.8215
妄生	-11.8217
仲子	-11.8218
中書門下	-11.8221
効用	-11.8222
兩年	-11.8226
而守之	-11.8227
辯士	-11.8228
能保其	-11.823
五十九	-11.8232
並傳諭	-11.8232
如例	-11.8233
宋國	-11.8234
許由	-11.8235
世清	-11.8236
以舟師	-11.8236
齊景公	-11.8237
送信	-11.8238
分為二	-11.824
似可	-11.824
飛調	-11.8244
小過	-11.8245
修築	-11.8245
存孝	-11.8247
驕恣	-11.8248
神功	-11.8248
八十日	-11.825
忠順	-11.8253
奸人	-11.8255
乗車	-11.8256
常青處	-11.8257
將歩騎	-11.8257
招致	-11.8257
李光	-11.8259
吾家	-11.8259
文侯曰	-11.826
害民	-11.8262
賊境	-11.8263
埋之	-11.8263
逆賊霍集占	-11.8263
絳州	-11.8263
精忠	-11.8265
今大王	-11.8266
西征	-11.8268
躬親	-11.827
獨留	-11.827
城樓	-11.8271
猶能	-11.8271
巴哈	-11.8274
昔漢	-11.8278
諸軍皆	-11.8281
各鎮	-11.8283
賊酋	-11.8287
疾苦	-11.8287
百餘隻	-11.8289
夏州	-11.8291
遁歸	-11.8293
必湏	-11.8293
所貴	-11.8294
政教	-11.8295
定奪	-11.8296
等數人	-11.8297
兩京	-11.83
鄜	-11.8302
弘肇	-11.8304
螺	-11.8305
灝	-11.8306
置百官	-11.8306
錫爵	-11.8309
夀張縣	-11.8309
閔公	-11.8311
穆克登	-11.8312
據實覆奏	-11.8314
𠫭	-11.8315
餘依議	-11.8316
哈瑪爾	-11.8316
旺扎勒	-11.8318
按察司	-11.8318
折卜尊丹巴庫圖克圖	-11.8318
庒	-11.8318
耄	-11.8319
額爾克沙喇	-11.8319
滇黔	-11.8319
鄂克濟哈	-11.8319
賞戴花翎	-11.8319
陳霸先	-11.832
脱身	-11.8321
吳主	-11.8321
邯	-11.8321
刨挖	-11.8321
營請設兵	-11.8321
闐	-11.8321
爾罕	-11.8322
太常寺	-11.8322
嗣據	-11.8322
厓	-11.8322
正黄旗	-11.8323
拜謝	-11.8323
震懾	-11.8323
裡	-11.8323
嘉峪闗	-11.8323
敗退	-11.8323
瓠	-11.8323
䦨	-11.8323
大恱	-11.8324
黎元	-11.8324
狸	-11.8324
鴉	-11.8325
犧牲	-11.8325
是日上	-11.8325
䏻	-11.8325
頰	-11.8325
貪婪	-11.8326
梁州	-11.8326
祼	-11.8327
椁	-11.8328
緋	-11.8328
龍驤將軍	-11.8328
達什達瓦屬人	-11.8329
冐賑	-11.833
壌	-11.8331
曲折	-11.8332
可觀	-11.8332
沙雅爾	-11.8332
共需	-11.8332
問於孔子曰	-11.8332
錠	-11.8332
程途	-11.8333
欲圖	-11.8333
醴泉	-11.8333
賻	-11.8333
袴	-11.8334
霆	-11.8335
爻	-11.8335
揀派	-11.8335
櫜	-11.8335
祖廟	-11.8335
元年春三月	-11.8335
乗時	-11.8336
絶根株	-11.8336
蕭道成	-11.8336
移時	-11.8337
喀爾喀副將軍	-11.8338
屬裔	-11.8338
祭仲	-11.8338
史思明	-11.8339
傷害	-11.8339
西安滿兵	-11.834
潛匿	-11.834
雜谷	-11.8342
領軍將軍	-11.8342
訓導	-11.8343
接仗	-11.8344
前將軍	-11.8345
埃	-11.8346
察議	-11.8347
牛隻	-11.8347
産業	-11.8348
探信	-11.835
十有二月	-11.8351
德明	-11.8351
移往	-11.8352
子晳	-11.8352
平壤	-11.8353
糾約	-11.8353
繫獄	-11.8356
情偽	-11.8356
一到即	-11.8357
袁術	-11.8359
洞悉	-11.8359
責之曰	-11.8359
納降	-11.836
桓玄	-11.8362
回巢	-11.8363
頒給	-11.8365
假令	-11.8366
凡祭祀	-11.8367
紹聖	-11.8367
二里	-11.8368
下寨	-11.8368
盡取	-11.8369
頒賜	-11.837
一千餘名	-11.8372
索倫兵丁	-11.8374
掃地	-11.8374
逆匪滋事	-11.8375
降附	-11.8377
空城	-11.8378
上柱國	-11.8378
興平	-11.8379
三百餘名	-11.8379
勦除	-11.8379
犇還	-11.838
疾篤	-11.8381
神機	-11.8383
一尺	-11.8383
晋人	-11.8384
管叔	-11.8386
降指揮	-11.8386
駐防兵	-11.8388
為大司馬	-11.8389
無益於	-11.8391
查看	-11.8392
王武俊	-11.8396
滿漢兵	-11.8398
計此時	-11.8399
呉興	-11.8399
巫山	-11.84
成例	-11.84
在臺灣	-11.84
金齒	-11.8401
為人所	-11.8401
給與口糧	-11.8402
當差	-11.8404
十一人	-11.8404
勲舊	-11.8405
可速	-11.8407
由内地	-11.8408
續行	-11.8409
俱授為	-11.8411
伊柱	-11.8411
大學士舒赫徳	-11.8412
兵千人	-11.8413
孝弟	-11.8414
告諭	-11.8415
敬業	-11.8416
並起	-11.8417
同盟于	-11.8419
酌調	-11.8419
卷三十	-11.842
厚賜	-11.8422
郊迎	-11.8423
密謀	-11.8423
右將軍	-11.8427
移鎮	-11.8427
上曰卿	-11.8427
土田	-11.8428
哈逹	-11.8428
文宗	-11.843
臨期	-11.8431
爲侍中	-11.8432
五十一	-11.8432
住居	-11.8433
悉發	-11.8434
閬州	-11.8435
率先	-11.8439
承受	-11.8441
率官兵	-11.8443
不爽	-11.8444
來歸者	-11.8447
不及此	-11.8447
荒服	-11.8449
審明正法	-11.845
仍照前	-11.845
通計	-11.845
相位	-11.8452
曾孫	-11.8453
宻奏	-11.8454
嘉義縣	-11.8455
[...]
