<unk>	0
<s>	0
</s>	0
(	-2.84503
)	-2.95305
/	-3.35054
反	-4.21467
也	-4.32651
之	-4.55423
作	-4.76469
音	-4.93295
而	-4.96618
以	-5.07455
為	-5.20797
者	-5.25488
/)	-5.29836
有	-5.41758
其	-5.43253
則	-5.46611
下	-5.47064
曰	-5.52637
同	-5.57547
字	-5.63809
不	-5.64398
於	-5.67883
又	-5.77693
上	-5.7872
云	-5.88915
無	-5.90019
與	-5.91361
一	-5.9152
是	-5.93072
去	-5.93313
至	-5.93791
言	-5.95304
故	-5.95333
人	-5.96838
如	-6.02569
大	-6.1496
子	-6.2033
謂	-6.20535
此	-6.22175
于	-6.2341
在	-6.24937
爲	-6.31026
誤	-6.31912
注	-6.32596
皆	-6.3358
自	-6.37014
亦	-6.38679
三	-6.43915
中	-6.46482
見	-6.49651
非	-6.49821
二	-6.50871
行	-6.51374
五	-6.52969
矣	-6.53348
王	-6.57009
所	-6.57634
傳	-6.57648
本	-6.59942
下同	-6.60087
時	-6.63359
得	-6.65246
乃	-6.66523
疏	-6.67248
乎	-6.67273
然	-6.67476
當	-6.67888
若	-6.68148
文	-6.71125
用	-6.71716
▁	-6.71865
問	-6.74907
及	-6.75412
四	-6.75761
今	-6.77367
正	-6.79381
相	-6.79465
書	-6.79482
古	-6.79824
易	-6.8138
生	-6.82725
從	-6.84907
事	-6.85254
名	-6.86474
禮	-6.87251
説	-6.88033
天	-6.88068
明	-6.88219
後	-6.90197
出	-6.90361
註	-6.91395
公	-6.92411
經	-6.92801
七	-6.93818
即	-6.94035
道	-6.95121
已	-6.95947
君	-6.9608
成	-6.96387
九	-6.96669
必	-6.97495
知	-6.97924
或	-6.9795
焉	-6.98352
使	-6.98478
六	-6.98623
猶	-7.00073
長	-7.00484
夫	-7.00604
入	-7.02915
方	-7.04344
居	-7.04921
日	-7.06359
復	-7.09031
注同	-7.09288
地	-7.10389
齊	-7.12747
切	-7.12855
處	-7.12997
義	-7.14386
樂	-7.14742
○	-7.15871
主	-7.16499
何	-7.16647
可	-7.16813
宋板	-7.18661
周	-7.18837
多	-7.19493
能	-7.20111
我	-7.20239
立	-7.20932
所以	-7.21796
耳	-7.22171
說	-7.22253
國	-7.22367
氏	-7.23632
數	-7.23877
釋文	-7.24079
詩	-7.26045
服	-7.26052
始	-7.26339
陽	-7.26848
水	-7.27045
先	-7.28477
八	-7.28548
合	-7.28676
稱	-7.29129
來	-7.30176
以為	-7.30307
小	-7.30755
女	-7.30796
取	-7.30853
命	-7.31954
平	-7.32276
重	-7.32844
將	-7.3374
惟	-7.35271
凡	-7.35318
雖	-7.35634
本又作	-7.36512
未	-7.36672
民	-7.36879
既	-7.37633
力	-7.37786
聲	-7.37799
好	-7.39269
謂之	-7.3933
士	-7.39665
且	-7.40411
食	-7.40775
物	-7.41187
直	-7.41308
惡	-7.42053
師	-7.42405
祭	-7.42445
心	-7.42769
欲	-7.4283
如字	-7.43082
鄭	-7.44653
實	-7.46749
善	-7.47722
通	-7.48364
春秋	-7.48988
分	-7.49965
象	-7.51685
疑	-7.52406
他	-7.52655
臣	-7.52904
朝	-7.52944
諸侯	-7.53304
但	-7.53395
徐	-7.5364
父	-7.53847
山	-7.54513
止	-7.54616
似	-7.54759
因	-7.55027
亡	-7.55997
難	-7.56234
治	-7.56911
兩	-7.57024
當作	-7.57078
木	-7.58419
法	-7.5884
反又	-7.58971
諸	-7.5898
馬	-7.60095
下有	-7.60355
土	-7.60424
夏	-7.60935
並	-7.61536
右	-7.61611
官	-7.61855
内	-7.61911
遂	-7.62113
意	-7.62156
車	-7.62577
案	-7.62627
辟	-7.62976
外	-7.62988
解	-7.63002
月	-7.63136
世	-7.63356
魯	-7.63486
便	-7.63823
下有也字	-7.63827
陳	-7.64486
大夫	-7.64751
所謂	-7.65155
令	-7.66244
哉	-7.66641
常	-7.66846
伯	-7.67407
隂	-7.68395
十	-7.69599
學	-7.7082
定	-7.7083
屬	-7.70885
南	-7.71013
晉	-7.71217
徳	-7.71438
求	-7.71551
不可	-7.71766
殺	-7.71883
盡	-7.72005
各	-7.72096
年	-7.72866
前	-7.72982
聖人	-7.73558
元	-7.73625
終	-7.74329
爾	-7.74354
受	-7.74503
安	-7.74912
衣	-7.74936
比	-7.75045
侯	-7.75286
按	-7.75321
喪	-7.75381
家	-7.75399
火	-7.7573
星	-7.76279
近	-7.76381
位	-7.76398
初	-7.76427
序	-7.76481
氣	-7.76578
西	-7.76632
過	-7.7681
死	-7.76943
德	-7.76997
志	-7.77487
思	-7.77607
考異古本註	-7.77839
少	-7.78714
歸	-7.78801
由	-7.78828
張	-7.78899
天子	-7.79298
應	-7.79382
風	-7.79454
東	-7.79473
同上	-7.79907
而不	-7.80117
變	-7.80144
和	-7.80183
觀	-7.80327
宋	-7.80752
田	-7.80818
起	-7.80862
卦	-7.81036
如此	-7.81093
君子	-7.82539
論	-7.82884
章	-7.83174
舉	-7.83509
神	-7.83576
亂	-7.83816
致	-7.83856
卒	-7.84573
蓋	-7.84601
辭	-7.84717
孔子	-7.851
衆	-7.85768
徒	-7.85803
从	-7.86112
異	-7.86133
引	-7.86428
乾	-7.86429
之簡	-7.86461
段作	-7.86465
彼	-7.86733
節	-7.86805
共	-7.86808
白	-7.86822
餘	-7.86836
都	-7.86966
魚	-7.8747
語	-7.88387
莫	-7.8865
許	-7.8875
信	-7.88752
極	-7.89805
謹按	-7.90101
故曰	-7.90146
動	-7.90271
記	-7.90453
周禮	-7.90668
二字	-7.90691
度	-7.90969
體	-7.9142
理	-7.92025
失	-7.92467
天下	-7.92718
著	-7.92779
政	-7.93024
門	-7.9367
扶	-7.93908
順	-7.94228
武	-7.94403
篇	-7.95024
□	-7.95097
次	-7.95198
逺	-7.95259
尊	-7.95348
劉	-7.95476
本亦作	-7.9575
縣	-7.9589
載	-7.96314
不能	-7.96494
髙	-7.96866
孫	-7.9728
或作	-7.97357
仁	-7.97444
身	-7.97631
帝	-7.97806
又作	-7.97871
北	-7.98014
制	-7.98325
發	-7.98401
尚	-7.98421
金	-7.99027
文王	-7.99256
紀	-7.99585
左	-7.99754
母	-7.99782
九行	-8.00027
亦作	-8.00236
漢	-8.0069
告	-8.00716
胡	-8.00845
讀	-8.01306
吉	-8.01427
是也	-8.01761
美	-8.01887
貌	-8.02064
玉	-8.02254
古文	-8.03325
楚	-8.0334
别	-8.03674
恐	-8.03692
二行	-8.03857
又音	-8.04177
更	-8.04331
要	-8.04343
釋	-8.04433
者也	-8.04605
只是	-8.04789
宫	-8.04987
執	-8.04989
不得	-8.05119
上有	-8.05395
㑹	-8.0559
宜	-8.0581
吾	-8.05822
了	-8.06036
伐	-8.06388
親	-8.0666
石	-8.0699
守	-8.07129
施	-8.07353
敬	-8.07463
之事	-8.07623
賢	-8.07631
城	-8.07642
宗	-8.07742
葢	-8.07773
汝	-8.08058
周公	-8.0843
固	-8.08797
興	-8.08893
舊	-8.08981
商	-8.09171
指	-8.09179
色	-8.09285
祖	-8.09344
乗	-8.09407
毛	-8.09469
百	-8.09553
丁	-8.09575
射	-8.0969
利	-8.0986
加	-8.09871
據	-8.0994
首	-8.11049
盛	-8.1111
容	-8.11632
聞	-8.12095
適	-8.12482
甚	-8.12623
足	-8.12748
予	-8.131
洛	-8.13128
之意	-8.13634
之義	-8.13645
廣	-8.13964
間	-8.14872
丘	-8.15005
升	-8.15714
口	-8.15759
苦	-8.15771
不知	-8.16107
下有也	-8.16116
兵	-8.16197
五行	-8.16216
俱	-8.16828
交	-8.17069
離	-8.17194
本或作	-8.17232
烏	-8.17276
獨	-8.17484
就	-8.17949
豈	-8.18298
任	-8.18458
句	-8.18461
改	-8.18484
天地	-8.1877
考	-8.18975
河	-8.19427
才	-8.19484
夫子	-8.19784
衛	-8.2009
史	-8.20205
向	-8.20756
无	-8.20895
老	-8.21544
坤	-8.21931
戸	-8.21981
視	-8.2202
注云	-8.22099
訓	-8.22143
深	-8.2219
只	-8.2232
斯	-8.22364
依	-8.22494
須	-8.2251
刑	-8.23047
目	-8.23177
叔	-8.23453
秦	-8.23833
州	-8.24397
字誤	-8.24433
夷	-8.24533
而已	-8.2466
七行	-8.24749
益	-8.25276
皆同	-8.25464
教	-8.25464
往	-8.25796
尸	-8.26225
卷	-8.26393
羊	-8.26449
類	-8.26541
圖	-8.26676
疾	-8.26834
禮記	-8.26873
角	-8.26883
殷	-8.27226
布	-8.27321
絶	-8.27417
廢	-8.28057
爵	-8.28221
進	-8.28229
降	-8.28361
息	-8.28782
正誤	-8.2884
十二	-8.28871
功	-8.28999
春	-8.29144
龍	-8.29486
尚書	-8.29493
却	-8.29523
禹	-8.29721
辨	-8.29895
具	-8.29981
弗	-8.29991
恭	-8.30034
剛	-8.30181
流	-8.305
便是	-8.30536
備	-8.30565
罪	-8.30805
萬	-8.30838
皇	-8.3095
己	-8.31032
底	-8.31241
昭	-8.31739
室	-8.31932
之時	-8.32047
毛本誤	-8.32528
養	-8.32845
六行	-8.33253
代	-8.33297
獻	-8.33576
等	-8.33863
祀	-8.33917
赤	-8.34008
虚	-8.34041
末	-8.34181
一行	-8.3437
三行	-8.3447
玄	-8.34713
孟子	-8.34998
勞	-8.3515
封	-8.35342
邑	-8.35667
微	-8.3568
子曰	-8.35764
畫	-8.35843
可以	-8.36235
孝	-8.36425
四行	-8.36455
精	-8.36487
呼	-8.36498
唯	-8.3659
凶	-8.366
干	-8.36882
設	-8.36906
對	-8.37055
斷	-8.37153
脱	-8.37427
賔	-8.3779
草	-8.37825
華	-8.38221
修	-8.38476
之後	-8.38548
申	-8.38709
唐	-8.388
三年	-8.38824
期	-8.38858
推	-8.38926
光	-8.38933
甲	-8.39026
孔	-8.39063
郭	-8.39104
感	-8.39249
之道	-8.39476
虞	-8.39761
滅	-8.40306
列	-8.40379
左傳	-8.40413
皮	-8.40435
存	-8.4077
又曰	-8.40904
監本誤	-8.4099
而後	-8.41353
澤	-8.41676
原	-8.41679
聖	-8.41819
新	-8.41855
器	-8.41875
廟	-8.42045
二十	-8.42136
黄	-8.42333
特	-8.42383
牛	-8.4257
卜	-8.42688
太	-8.43006
下共有也字	-8.43219
承	-8.4341
請	-8.43477
秋	-8.43869
之言	-8.43879
沈	-8.44459
側	-8.44503
形	-8.44546
闕	-8.44581
掌	-8.44594
司	-8.44974
本作	-8.45005
户	-8.45129
姓	-8.45259
江	-8.4527
于僞	-8.4527
勝	-8.45366
除	-8.45477
冠	-8.45664
里	-8.45834
越	-8.45968
婦	-8.46043
逆	-8.46084
兮	-8.46171
旣	-8.46343
嘗	-8.46544
舜	-8.46723
邪	-8.46951
盖	-8.47187
律	-8.47758
李	-8.47983
昌	-8.48059
還	-8.4812
戒	-8.48236
酒	-8.4828
反下	-8.48539
遺	-8.48558
毛傳	-8.48581
仲	-8.48713
哀	-8.48882
誠	-8.49571
冬	-8.4966
弟	-8.49799
專	-8.49893
良	-8.5001
全	-8.50483
甫	-8.50584
幾	-8.50737
林	-8.50868
薄	-8.50971
鳥	-8.51279
坐	-8.51465
果	-8.52039
臨	-8.52174
雨	-8.52276
燕	-8.52339
吳	-8.52593
謀	-8.52608
拜	-8.52623
計	-8.52854
御	-8.53219
素	-8.53266
厥	-8.53452
嵗	-8.53461
武王	-8.53512
簡	-8.53684
兼	-8.53894
夫人	-8.53923
貞	-8.53952
化	-8.53954
▁(	-8.53981
至於	-8.54335
舎	-8.5463
朱	-8.54719
蒲	-8.54747
智	-8.55006
考異古本經	-8.55294
井	-8.55494
泰	-8.55711
占	-8.55768
夜	-8.55849
爻	-8.55968
藏	-8.56072
不同	-8.56077
參	-8.56151
箋	-8.56199
純	-8.56243
職	-8.56548
否	-8.56554
舍	-8.56586
維	-8.56605
曲	-8.56652
并	-8.57262
卿	-8.57398
傷	-8.57423
建	-8.58169
卑	-8.58281
刺	-8.58447
成王	-8.58504
號	-8.58585
率	-8.58611
例	-8.58627
憂	-8.5873
柔	-8.58939
讀為	-8.58977
節疏	-8.59078
元文	-8.59175
履	-8.59219
强	-8.59254
路	-8.59309
覆	-8.59488
背	-8.59507
結	-8.5964
乘	-8.59777
開	-8.59851
録	-8.59901
一本作	-8.60246
梁	-8.60295
咸	-8.60459
連	-8.60591
儀	-8.60677
工	-8.60797
旁	-8.60817
歌	-8.60921
手	-8.61027
某	-8.61245
克	-8.61334
半	-8.61357
言之	-8.61575
貴	-8.61709
放	-8.61746
左氏	-8.61945
授	-8.62042
宋板同	-8.62254
八行	-8.62315
賦	-8.62454
看	-8.62647
桓	-8.62654
介	-8.62886
庶	-8.62935
奉	-8.63322
如字又	-8.63726
飾	-8.63876
附	-8.63905
云云	-8.63943
是以	-8.64146
革	-8.64275
隨	-8.64297
說文	-8.64439
陵	-8.6476
巳	-8.65107
典	-8.65388
質	-8.65417
退	-8.65423
待	-8.65442
私	-8.6545
扶又	-8.65586
衰	-8.65673
鼓	-8.65725
堯	-8.65731
一音	-8.65926
散	-8.6598
賜	-8.66357
望	-8.66586
總	-8.66594
輕	-8.66626
之説	-8.66652
羽	-8.66808
毋	-8.66845
性	-8.6696
音同	-8.67142
坎	-8.67256
假	-8.6728
遇	-8.6728
十六	-8.6751
莊	-8.67551
宣	-8.67852
小人	-8.67997
頭	-8.68195
震	-8.68246
再	-8.68388
之類	-8.68721
情	-8.68835
表	-8.68836
歴	-8.69035
亨	-8.69047
隂陽	-8.69109
湯	-8.69328
后	-8.69363
不敢	-8.69364
避	-8.69669
造	-8.69691
然後	-8.69717
集	-8.69861
久	-8.69917
敗	-8.6993
符	-8.70001
之禮	-8.7002
何以	-8.70113
余	-8.70409
配	-8.70417
三十	-8.70595
識	-8.71044
葬	-8.71111
當為	-8.71211
會	-8.71434
反徐	-8.71545
救	-8.71706
福	-8.71712
徐音	-8.71766
昔	-8.71771
校	-8.71774
厚	-8.7211
戎	-8.72216
戰	-8.72293
如何	-8.72305
人之	-8.72529
習	-8.72561
置	-8.72627
俗	-8.72711
差	-8.72874
報	-8.7305
恒	-8.73485
節音義	-8.74188
顯	-8.74303
又如字	-8.74347
朔	-8.74472
祝	-8.7451
害	-8.7462
堂	-8.74731
也同	-8.74864
旦	-8.7496
竹	-8.75015
以下	-8.75112
濟	-8.75141
軍	-8.75234
萬物	-8.75309
預	-8.75353
論語	-8.75478
享	-8.75516
被	-8.75935
病	-8.75971
為之	-8.76205
權	-8.76289
季	-8.7629
盟	-8.76408
述	-8.76572
史記	-8.76582
畢	-8.76593
采	-8.76629
雜	-8.76672
獲	-8.76749
達	-8.76752
顧	-8.76753
補遺古本註	-8.76809
衞	-8.77315
尺	-8.77424
音義	-8.77473
之子	-8.77485
者何對曰	-8.77572
危	-8.77803
繼	-8.77945
桑	-8.77959
衡	-8.78125
積	-8.78184
愛	-8.78603
管	-8.78686
飲	-8.78694
海	-8.78848
省	-8.7904
魏	-8.79425
示	-8.79455
鄉	-8.79479
詳	-8.7974
清	-8.79755
之象	-8.79755
補	-8.80169
千	-8.80214
式	-8.80296
襄	-8.805
刻	-8.80538
景	-8.8075
登	-8.81038
公子	-8.8105
之所	-8.81054
轉	-8.81276
征	-8.81611
納	-8.81768
説文	-8.81782
辰	-8.81784
到	-8.81806
面	-8.82119
李云	-8.82124
不見	-8.82131
下文	-8.82181
接	-8.82182
况	-8.8233
勿	-8.8234
野	-8.82417
揚	-8.8244
耶	-8.82644
端	-8.82652
龜	-8.82673
之間	-8.83144
畜	-8.83536
聚	-8.83622
上下	-8.84113
又云	-8.84249
或為	-8.84261
議	-8.84394
青	-8.84473
恱	-8.84791
其所	-8.84829
舞	-8.84889
亦有	-8.85056
尤	-8.85191
一名	-8.85605
那	-8.85659
妻	-8.85755
包	-8.85769
弓	-8.85984
嗣	-8.8633
助	-8.86428
協	-8.86601
遷	-8.86622
脩	-8.86647
不必	-8.86947
高	-8.87054
逸	-8.87232
種	-8.87388
保	-8.87428
竟	-8.87575
之辭	-8.87687
仕	-8.87725
来	-8.87745
之人	-8.87861
鳴	-8.88123
不言	-8.88214
博	-8.88285
別	-8.88456
後世	-8.8849
司馬云	-8.88499
伏	-8.88575
弑	-8.88576
閒	-8.88588
豐	-8.88636
奔	-8.88771
勑	-8.8882
苟	-8.88826
厲	-8.89012
移	-8.89039
孟	-8.89043
這	-8.89246
郊	-8.89499
邦	-8.89808
公羊	-8.89966
族	-8.89979
十一	-8.9034
敢	-8.90376
格	-8.90525
困	-8.90551
最	-8.90647
繫	-8.90674
威	-8.90675
貫	-8.90687
畏	-8.90691
然則	-8.909
隠	-8.90992
豫	-8.9102
之中	-8.91064
責	-8.91076
勇	-8.91104
厭	-8.91219
幽	-8.91286
必有	-8.91302
羣	-8.91394
錯	-8.91456
帥	-8.91522
弔	-8.91744
鄭注	-8.91809
虎	-8.91988
市	-8.92064
而無	-8.92175
二年	-8.9227
折	-8.92319
司馬	-8.924
陸	-8.92441
冝	-8.92445
況	-8.92461
嚴	-8.92558
免	-8.92778
社	-8.92803
而言	-8.92859
妄	-8.93135
房	-8.93253
窮	-8.93256
運	-8.93267
斗	-8.93452
偏	-8.93507
隱	-8.93606
一章	-8.93879
悉	-8.93972
寒	-8.94245
蔡	-8.94707
傳云	-8.94969
豆	-8.94982
略	-8.95051
持	-8.95123
喻	-8.9516
矢	-8.9537
古本	-8.95382
忠	-8.95394
災	-8.95402
儀禮	-8.95453
謙	-8.95466
做	-8.95508
約	-8.95574
王者	-8.95675
喜	-8.95757
讓	-8.95846
條	-8.96115
雍	-8.96384
自然	-8.96397
普	-8.9643
之心	-8.96444
非也	-8.96686
艮	-8.96875
兄弟	-8.97071
客	-8.97115
輔	-8.97136
靈	-8.97248
丈	-8.9733
費	-8.97362
也故	-8.97407
未有	-8.97467
急	-8.97726
舒	-8.97732
均	-8.97771
違	-8.98105
日月	-8.98199
席	-8.9827
當時	-8.98459
蒙	-8.98601
十三	-8.98743
聽	-8.98762
脫	-8.98772
真	-8.98847
細	-8.99063
謹	-8.99123
怨	-8.99145
下皆同	-8.99251
十五	-8.99406
厯	-8.99543
先生	-8.99625
殊	-8.99693
賈	-8.99729
學者	-8.99747
慎	-8.99805
每	-8.99887
空	-8.99914
棄	-8.9994
反本	-9.00033
嫁	-9.00053
黨	-9.00068
狄	-9.00132
險	-9.00203
留	-9.0049
之法	-9.00495
之文	-9.00562
監	-9.00635
故書	-9.00661
韻	-9.00684
無所	-9.00854
一本	-9.00887
之數	-9.00902
足利本同	-9.00924
兄	-9.00933
杜	-9.00997
暴	-9.01005
泉	-9.01064
負	-9.01434
漸	-9.01598
賢遍	-9.01654
巽	-9.01897
忽	-9.02001
召	-9.02149
牲	-9.02404
鼎	-9.02539
慮	-9.02726
畧	-9.02727
歲	-9.02746
出於	-9.0282
漢書	-9.02837
芳	-9.02991
錫	-9.03015
旅	-9.03106
迎	-9.03179
未嘗	-9.03205
禘	-9.03407
庚	-9.03437
補遺宋板疏	-9.03621
垂	-9.03907
衍	-9.0393
盈	-9.04074
之地	-9.04136
夢	-9.04205
量	-9.04212
吐	-9.04232
雷	-9.04287
悔	-9.04727
歩	-9.04776
富	-9.04799
雲	-9.0481
屈	-9.04981
靜	-9.05026
崇	-9.05353
委	-9.05569
屋	-9.05658
肆	-9.05662
姑	-9.0579
鮮	-9.05876
戴	-9.05913
徃	-9.05983
雅	-9.05986
古者	-9.06373
索	-9.06413
佩	-9.06542
尾	-9.06872
五年	-9.06892
嘉	-9.06996
古人	-9.07078
元年	-9.07194
毛詩	-9.0741
敎	-9.07512
薦	-9.07599
正月	-9.07628
吕	-9.0782
含	-9.08069
奏	-9.08087
役	-9.08122
徵	-9.08194
懼	-9.08221
肉	-9.08249
葉	-9.0834
奠	-9.08735
四時	-9.08935
皆作	-9.09062
毁	-9.09183
宅	-9.09217
字又作	-9.09289
鬼	-9.09369
步	-9.09581
寢	-9.096
察	-9.09644
不復	-9.09693
抑	-9.09693
昏	-9.0975
以上	-9.0977
蟲	-9.0993
徴	-9.0994
勤	-9.10024
經文	-9.10064
患	-9.10096
強	-9.10146
業	-9.10219
怪	-9.10246
鄭云	-9.10254
丹	-9.10284
仍	-9.10298
有所	-9.10385
樹	-9.10483
洪範	-9.10523
曹	-9.10577
四年	-9.10659
諱	-9.1069
爾雅	-9.10798
短	-9.1093
圭	-9.10941
不然	-9.11354
之下	-9.11364
不與	-9.1157
三月	-9.11886
之名	-9.11892
乾坤	-9.11913
於是	-9.11985
黒	-9.1201
誰	-9.12132
烝	-9.12187
賁	-9.12282
歳	-9.12305
犯	-9.1241
友	-9.1248
父母	-9.12553
稍	-9.12554
主人	-9.12608
郎	-9.12617
延	-9.12686
巨	-9.12823
爭	-9.13007
早	-9.1301
孚	-9.13052
箇	-9.13099
宿	-9.13142
十四	-9.13204
郷	-9.1322
統	-9.13255
候	-9.13278
擇	-9.13281
之為	-9.13442
蔽	-9.13498
於此	-9.13658
中庸	-9.1389
賓	-9.13974
傅	-9.14132
不及	-9.14243
淫	-9.14354
韓	-9.14397
休	-9.14483
育	-9.1507
穀	-9.15075
榖	-9.15152
調	-9.15259
皆是	-9.15313
係	-9.15388
禹貢	-9.15476
下孟	-9.1551
綏	-9.1556
斂	-9.15703
惠	-9.15763
祥	-9.15873
農	-9.1606
十年	-9.16194
僖	-9.16221
下有之字	-9.16273
浮	-9.16296
圍	-9.16393
界	-9.16451
四方	-9.16453
輿	-9.16817
㬊淵録	-9.16968
不足	-9.17123
一人	-9.1731
導	-9.17591
匹	-9.17675
呼報	-9.17691
牧	-9.17914
弱	-9.17933
飛	-9.18112
充	-9.18113
十八	-9.18214
之書	-9.1823
歟	-9.18375
損	-9.1858
消	-9.18749
鍾	-9.1881
防	-9.18976
五十	-9.19091
人心	-9.19131
之理	-9.19139
說文云	-9.19178
禦	-9.19638
吏	-9.19859
今文	-9.20004
宋板足利本同	-9.20028
後人	-9.2005
不當	-9.20065
禄	-9.20144
月令	-9.2019
皆以	-9.20212
耕	-9.20312
妾	-9.20354
念	-9.20529
哭	-9.20639
逐	-9.20705
落	-9.20706
左右	-9.20788
庭	-9.20871
周易	-9.20903
匪	-9.20936
賤	-9.21025
諫	-9.21116
煩	-9.21418
誅	-9.21424
章指	-9.21902
正義	-9.21921
捨	-9.21951
崔	-9.22045
二章	-9.22235
倫	-9.22334
堅	-9.22383
者皆	-9.22394
七年	-9.22539
佐	-9.2254
趙	-9.22655
庸	-9.22681
以其	-9.22724
境	-9.22783
先王	-9.22872
刀	-9.22891
皆有	-9.22991
忘	-9.23059
則是	-9.23149
敦	-9.23199
允	-9.23222
縱	-9.23322
其事	-9.23463
不以	-9.23482
康	-9.23568
尹	-9.23655
又有	-9.23657
對曰	-9.2369
烏路	-9.237
以此	-9.23705
趨	-9.2375
下並同	-9.23837
機	-9.23866
可見	-9.23875
仲尼	-9.2388
婦人	-9.2396
貢	-9.24044
足利本	-9.24054
禾	-9.24086
咎	-9.24162
審	-9.24177
徧	-9.24191
並同	-9.24191
謝	-9.24235
故云	-9.2427
之詩	-9.24288
道理	-9.24334
敷	-9.2463
葉左一行	-9.24753
愚	-9.25032
頌	-9.25059
寧	-9.25122
反注	-9.25122
桓公	-9.25138
循	-9.25204
川	-9.25226
九五	-9.25418
兆	-9.25442
旋	-9.25529
不書	-9.25604
黄帝	-9.2564
黃	-9.25743
雉	-9.25841
討	-9.25899
疆	-9.25996
胥	-9.26007
娶	-9.26138
亮	-9.26176
犬	-9.26254
敖	-9.2632
缺	-9.2634
禁	-9.26386
反劉	-9.26496
䘮	-9.26545
十二年	-9.26599
互	-9.26755
單	-9.26789
之說	-9.26954
環	-9.26957
獸	-9.27017
追	-9.27037
遊	-9.27054
冕	-9.27348
板	-9.27358
自是	-9.27436
乃旦	-9.27498
孤	-9.27514
四字	-9.27587
三字	-9.28013
人君	-9.2811
夾	-9.28189
王肅	-9.28223
荒	-9.28346
收	-9.28387
務	-9.28407
營	-9.28575
熊	-9.28575
朱子	-9.28576
祈	-9.28617
孰	-9.28629
其義	-9.28669
九年	-9.28738
至于	-9.28749
契	-9.28763
之外	-9.28823
馬云	-9.28881
儒	-9.28915
九二	-9.28958
辯	-9.2918
屯	-9.29373
不過	-9.2953
支	-9.2985
六年	-9.29892
游	-9.29895
艾	-9.30043
男	-9.30059
服䖍	-9.30391
也若	-9.3065
縁	-9.30751
訟	-9.30823
字林	-9.30929
偽	-9.31029
淺	-9.31058
祗	-9.31239
襲	-9.31284
閑	-9.31306
或曰	-9.31341
如是	-9.31371
起吕	-9.31468
池	-9.31584
編	-9.3161
之行	-9.31644
詩云	-9.31655
紂	-9.31657
資	-9.31692
班	-9.31912
各有	-9.31941
谷	-9.31991
侵	-9.32029
攝	-9.32037
言其	-9.32157
禍	-9.32275
答	-9.32295
杖	-9.32552
錄	-9.32741
戚	-9.32766
用之	-9.32797
帶	-9.32861
又問	-9.32879
節傳	-9.3291
饗	-9.33067
棘	-9.33074
八年	-9.33128
筮	-9.33157
孝經	-9.33165
府	-9.33488
彊	-9.33616
不可以	-9.33935
吉凶	-9.33937
肅	-9.33993
葉左四行	-9.34381
十二月	-9.34421
鹿	-9.34517
此言	-9.34537
翼	-9.34597
見於	-9.34599
劉音	-9.3495
陰	-9.35172
彼列	-9.35269
本義	-9.35294
子路	-9.35307
骨	-9.35332
而為	-9.35428
十五年	-9.35521
熟	-9.35534
九三	-9.35609
味	-9.35613
敵	-9.35685
不用	-9.35817
聘	-9.35856
米	-9.35904
彌	-9.36024
廬	-9.36057
攻	-9.36197
財	-9.3623
荀	-9.36292
段	-9.36303
永	-9.36467
恩	-9.36641
愈	-9.3667
密	-9.36699
不是	-9.36824
狩	-9.37056
雞	-9.37058
温	-9.37072
之制	-9.37085
忍	-9.3711
本亦	-9.37217
否曰	-9.37226
叙	-9.37243
昬	-9.37333
一篇	-9.37468
試	-9.37473
滿	-9.37521
禽	-9.37621
竒	-9.37662
罔	-9.37697
鄭氏	-9.37701
刃	-9.3772
證	-9.37866
楊	-9.38017
寡	-9.38021
續	-9.38045
基	-9.38161
去聲	-9.38224
大抵	-9.38443
者以	-9.38657
十七	-9.38677
文公	-9.3872
可知	-9.38752
勸	-9.38815
累	-9.39071
郡	-9.39173
驕	-9.39192
六二	-9.39227
祭祀	-9.39234
術	-9.39263
宮	-9.39351
所云	-9.39478
乙	-9.39489
葛	-9.39532
俊	-9.39571
十九	-9.39696
不相	-9.39727
姜	-9.39758
曾	-9.39772
照	-9.39805
京	-9.40002
稽	-9.40019
之謂	-9.40129
塞	-9.40225
忌	-9.40266
天之	-9.40276
詞	-9.40549
大學	-9.40648
道也	-9.40707
倍	-9.40807
兊	-9.40812
送	-9.40963
伏羲	-9.41022
相似	-9.41026
說文作	-9.41046
須是	-9.41122
盧	-9.41179
撰	-9.41182
邊	-9.41258
決	-9.41312
不如	-9.41327
慢	-9.41349
徹	-9.41392
之以	-9.41807
妃	-9.41884
怒	-9.41915
下有之也二字	-9.42179
諡	-9.42194
燭	-9.42199
啓	-9.42271
三章	-9.42282
冬至	-9.42308
蕩	-9.42332
舟	-9.4241
亦不	-9.42579
之屬	-9.42738
遍	-9.42822
十一年	-9.42862
丁丈	-9.42889
領	-9.42897
者謂	-9.4294
彖辭	-9.43171
无咎	-9.43254
寛	-9.43262
反注同	-9.43277
八卦	-9.43447
磬	-9.43472
辱	-9.43477
袁	-9.43815
講	-9.43931
根	-9.4407
将	-9.44167
丑	-9.44287
不為	-9.44349
恤	-9.44359
效	-9.44362
其説	-9.44652
嫡	-9.44806
其言	-9.44927
馮	-9.44996
放此	-9.45037
臺	-9.45069
註云	-9.45179
回	-9.45203
郭音	-9.45406
藉	-9.45535
倚	-9.45569
先儒	-9.45594
六三	-9.45607
没	-9.45675
託	-9.45676
天下之	-9.45828
奴	-9.45857
不成	-9.45892
關	-9.45896
則為	-9.45973
得其	-9.46023
䟽	-9.46101
徑	-9.46192
罰	-9.46198
横	-9.46254
賊	-9.46279
棺	-9.46299
齋	-9.465
黑	-9.46541
直吏	-9.46626
飯	-9.46631
穴	-9.46666
鐘	-9.46667
稷	-9.4677
麗	-9.46776
初九	-9.46863
璧	-9.46899
六五	-9.47124
析	-9.47188
悦	-9.47191
䇿	-9.4723
詔	-9.47281
而有	-9.47284
願	-9.4733
速	-9.47465
本或	-9.47552
㣲	-9.47579
誥	-9.4761
繩	-9.47811
援	-9.47862
栗	-9.47869
絲	-9.47878
塗	-9.47944
束	-9.47956
六四	-9.47971
淵	-9.4799
受命	-9.47996
在上	-9.48018
宗廟	-9.48025
較	-9.4804
以爲	-9.48101
反一音	-9.48122
竊	-9.48132
補遺古本經	-9.48152
補遺釋文	-9.48215
賈逵	-9.48276
河圖	-9.48293
渉	-9.48306
酉	-9.48349
茅	-9.4835
鬼神	-9.48377
十三年	-9.48472
穆	-9.48536
呉	-9.48545
十四年	-9.48563
莊公	-9.48602
偶	-9.4865
僖公	-9.48668
其子	-9.48744
公孫	-9.48818
于僞反下	-9.48909
靡	-9.49041
見其	-9.49335
上九	-9.49361
三百	-9.49366
周之	-9.49389
偃	-9.4942
壽	-9.49586
遯	-9.49661
奚	-9.49662
午	-9.49726
麟	-9.49798
壯	-9.49936
渠	-9.49962
麻	-9.5006
恥	-9.50203
一箇	-9.50239
為是	-9.5024
軌	-9.50316
然而	-9.50319
恁地	-9.50325
懐	-9.50356
擊	-9.50424
之貌	-9.5048
一句	-9.50495
陟	-9.50514
十月	-9.50518
僭	-9.50704
見得	-9.50705
借	-9.50836
也今	-9.50889
則有	-9.50903
潮	-9.50922
遜	-9.51004
笑	-9.51025
堯典	-9.51227
豕	-9.5126
甘	-9.51297
増	-9.51363
覺	-9.51439
王制	-9.51451
弟子	-9.51465
殆	-9.51512
左氏作	-9.51532
譏	-9.51598
即位	-9.51936
蕭	-9.51974
取其	-9.52003
吝	-9.52008
之功	-9.52049
齊人	-9.52064
霸	-9.52082
専	-9.52139
及注同	-9.52312
伊	-9.52393
壬	-9.52425
狐	-9.52522
拘	-9.52549
第	-9.52629
仰	-9.52629
現	-9.52662
亦然	-9.52805
稅	-9.52858
姬	-9.52913
下有也字疏	-9.53039
屨	-9.53042
則不	-9.53141
幹	-9.53151
頗	-9.53152
麥	-9.53182
之近	-9.53221
岳	-9.5367
歎	-9.53785
嫌	-9.53804
監本	-9.53804
晦	-9.53877
揖	-9.53938
一曰	-9.53957
曽	-9.54046
説得	-9.54068
二十四	-9.5407
昭公	-9.54093
不在	-9.54127
罷	-9.54173
蒼	-9.54193
鼻	-9.54226
故謂之	-9.54232
題	-9.54631
部	-9.54822
裘	-9.54824
象曰	-9.54963
三日	-9.5498
十六年	-9.55011
附近	-9.55015
禮樂	-9.55039
的	-9.55264
者非	-9.55312
者有	-9.55355
繫辭	-9.55475
倒	-9.55606
沙	-9.55618
酌	-9.55658
几	-9.55686
貶	-9.55692
破	-9.55701
如何曰	-9.55765
勉	-9.55774
勢	-9.55779
䝉	-9.55791
菜	-9.55911
今之	-9.55932
階	-9.56117
傾	-9.56137
之有	-9.56141
俾	-9.56153
蘇	-9.56233
惑	-9.56334
兹	-9.56387
君臣	-9.56574
之學	-9.56608
是謂	-9.56674
迹	-9.56703
矜	-9.56804
故以	-9.56943
謬	-9.57039
僕	-9.5718
賢者	-9.57279
繹	-9.57332
奪	-9.57375
植	-9.57377
昧	-9.5741
行之	-9.57831
走	-9.58006
辛	-9.58045
招	-9.58127
力呈	-9.58185
此是	-9.58341
明堂	-9.58364
七月	-9.58572
戈	-9.58634
夕	-9.58635
俟	-9.58671
併	-9.58711
甸	-9.58722
之處	-9.58757
斬	-9.5879
焚	-9.58791
遥	-9.58822
不合	-9.59047
緯	-9.59052
及下同	-9.59173
幼	-9.59275
太子	-9.59448
九四	-9.5953
葉右五行	-9.5965
𤣥	-9.59721
徂	-9.59848
天子之	-9.59899
塟	-9.5999
榮	-9.60015
貝	-9.60027
幸	-9.60042
材	-9.60163
晉侯	-9.6029
周官	-9.60293
苗	-9.60309
知其	-9.60435
六月	-9.6054
壇	-9.60617
隆	-9.60715
其文	-9.60822
蠱	-9.60849
着	-9.60863
宰	-9.61092
下注同	-9.61111
時掌	-9.61171
蛇	-9.61215
踐	-9.61228
祇	-9.61272
匡	-9.61348
國之	-9.61421
緩	-9.61441
東方	-9.61602
百姓	-9.6161
香	-9.61651
于僞反	-9.61808
反又音	-9.61814
君之	-9.61816
晚	-9.61856
貪	-9.61907
寅	-9.61954
韓詩作	-9.61959
血	-9.6198
也問	-9.62003
不出	-9.62031
叛	-9.62074
則以	-9.62094
之應	-9.62169
易之	-9.6223
亦是	-9.62248
一日	-9.62405
晝	-9.62706
桃	-9.62721
中國	-9.62887
葉右八行	-9.62954
供	-9.62963
如字徐	-9.63002
變化	-9.63076
足以	-9.63116
蕃	-9.632
操	-9.63212
譽	-9.63264
桀	-9.63275
健	-9.63297
羅	-9.63304
規	-9.63312
也右	-9.63328
第二	-9.63339
祔	-9.63382
倉	-9.63696
之上	-9.63711
舜典	-9.63771
二十八	-9.63778
掩	-9.63928
千里	-9.63958
其餘	-9.6397
不應	-9.63974
聖人之	-9.63983
崔云	-9.64144
巧	-9.6435
洽	-9.64367
葉左五行	-9.64451
露	-9.6448
其實	-9.64497
削	-9.6455
之日	-9.64553
醴	-9.64589
泥	-9.64607
子夏	-9.64662
遠	-9.64669
繁	-9.6469
歷	-9.6472
孔子曰	-9.64746
㫖	-9.6481
二月	-9.64816
二反	-9.64916
為君	-9.64955
鳩	-9.64978
庶子	-9.65082
本又	-9.65167
殯	-9.65243
伊川	-9.65256
駕	-9.65293
之位	-9.65309
秀	-9.65341
訛	-9.65379
襄公	-9.65397
彖	-9.65436
今人	-9.65453
即是	-9.65456
税	-9.65459
數也	-9.6547
戾	-9.65554
榖梁	-9.65878
懷	-9.65923
振	-9.65961
自有	-9.66037
章句	-9.66104
文言	-9.66112
正嘉同	-9.66173
世子	-9.66201
墜	-9.66274
禮也	-9.66414
三公	-9.66427
今作	-9.66598
十七年	-9.66609
陷	-9.66644
攷	-9.66791
十一月	-9.66842
也此	-9.66933
搏	-9.67152
後同	-9.67162
牡	-9.6719
穀梁	-9.6719
人也	-9.67191
驗	-9.67275
波	-9.67295
誓	-9.67321
使之	-9.67331
薛	-9.67368
涉	-9.67391
蓍	-9.67406
是故	-9.6745
般	-9.67459
二十五	-9.67496
西南	-9.67605
初六	-9.67624
旱	-9.67765
韓詩	-9.67786
閔	-9.67891
四十	-9.67894
莒	-9.67909
柱	-9.67984
鄙	-9.68019
侍	-9.68035
斥	-9.68131
以豉	-9.68201
葉左八行	-9.68239
限	-9.68318
文字	-9.68357
彖傳	-9.68411
中有	-9.68427
暮	-9.68428
又如	-9.68436
茂	-9.68567
住	-9.68583
卯	-9.68621
尋	-9.68687
墓	-9.68755
静	-9.68838
九月	-9.68987
亥	-9.69019
咨	-9.69127
亢	-9.69268
於䖍	-9.69272
幣	-9.69305
扶又反	-9.69315
版	-9.69385
齊侯	-9.69387
上六	-9.6944
躬	-9.69499
民之	-9.69598
决	-9.69662
童	-9.69666
而成	-9.69717
饋	-9.69777
弊	-9.69798
漢儒	-9.6989
選	-9.69991
距	-9.70189
雖有	-9.70212
息亮	-9.70261
淳	-9.70293
鼔	-9.70346
是為	-9.7038
也夫	-9.70762
繇	-9.70843
可謂	-9.70844
蹇	-9.70879
旗	-9.70889
握	-9.70937
於人	-9.7097
萃	-9.7101
左傳作	-9.71122
赦	-9.71177
上帝	-9.71187
之世	-9.71293
裳	-9.71393
亟	-9.71406
二十七	-9.71527
翟	-9.71543
赴	-9.71559
徙	-9.7163
十八年	-9.71682
粟	-9.71719
踰	-9.71774
得之	-9.71788
其位	-9.71879
六十	-9.72035
下有者字	-9.72066
者不	-9.72129
闢	-9.72146
閏	-9.7218
希	-9.72191
鄭玄	-9.72197
眉	-9.72206
藥	-9.72213
練	-9.72225
儉	-9.72236
孫注	-9.72238
括	-9.7227
遲	-9.72334
在下	-9.72474
以見	-9.72497
者亦	-9.72549
而行	-9.72638
葉右三行	-9.7271
爾雅云	-9.72758
所以為	-9.72846
截	-9.72879
有三	-9.72943
漆	-9.72952
攘	-9.72961
侈	-9.72964
攸	-9.73065
播	-9.73069
讀如	-9.73105
棟案	-9.73267
草木	-9.73446
而不知	-9.7367
俎	-9.73699
枝	-9.73729
朋	-9.73784
之氣	-9.73829
葉右六行	-9.73845
其中	-9.73859
寶	-9.73906
也鄭	-9.74032
為主	-9.74057
黍	-9.741
東南	-9.7417
音洛	-9.74221
烏路反	-9.74223
直遥	-9.74311
嗟	-9.74341
牙	-9.74376
反下同	-9.74376
生於	-9.74401
遽	-9.74454
投	-9.74469
屏	-9.74513
築	-9.74519
傍	-9.74548
巢	-9.74575
可也	-9.75026
逮	-9.75128
袒	-9.75185
呼報反	-9.75189
墮	-9.75213
行也	-9.75224
經傳	-9.75262
遵	-9.75355
為一	-9.75539
煙	-9.75627
柄	-9.76058
其人	-9.76061
子孫	-9.76079
笙	-9.76115
亦無	-9.76155
之稱	-9.76261
大也	-9.76274
五月	-9.76381
隊	-9.76412
崩	-9.76546
仙	-9.76603
提	-9.76644
殤	-9.76654
釐	-9.76679
莫不	-9.76776
寄	-9.76883
顔	-9.76953
出入	-9.76992
慶	-9.7715
婁	-9.77238
分明	-9.77401
籍	-9.77443
輒	-9.7755
戍	-9.77573
名也	-9.77629
誣	-9.77649
而生	-9.77802
子貢	-9.77933
之國	-9.78035
瓜	-9.78071
挍	-9.78091
牽	-9.7811
頃	-9.78159
范	-9.78169
朱傳	-9.7818
盤	-9.78236
菑	-9.7824
爾雅作	-9.78295
齒	-9.78347
蜀	-9.78352
太甲	-9.78483
王之	-9.78693
陽氣	-9.78807
嚮	-9.78922
宣公	-9.78977
竭	-9.7898
四月	-9.78991
鉤	-9.79002
杞	-9.79054
烈	-9.791
明矣	-9.79101
貎	-9.79183
天道	-9.79309
卜筮	-9.7933
亦可	-9.79347
之前	-9.79353
夭	-9.79387
山川	-9.79393
五章	-9.79548
陶	-9.79602
耆	-9.79657
壁	-9.79672
這箇	-9.79786
鑿	-9.79797
一云	-9.79855
微子	-9.79893
諸侯之	-9.79926
獄	-9.80026
墨	-9.80171
何也	-9.80373
事也	-9.80386
冒	-9.80489
摯	-9.80511
上作	-9.80591
其間	-9.80669
減	-9.8069
闗	-9.80734
之徳	-9.80743
夬	-9.80762
寳	-9.80766
弁	-9.80876
黄鍾	-9.80987
究	-9.81104
韋	-9.81136
需	-9.81203
隕	-9.81251
盤庚	-9.81266
之難	-9.81267
毒	-9.81269
泄	-9.81281
舌	-9.81288
麋	-9.8132
玉篇	-9.81386
知之	-9.81423
割	-9.81431
曽子	-9.81437
溢	-9.81469
項	-9.81482
洗	-9.81487
沒	-9.81497
英	-9.81497
鄭伯	-9.81592
僻	-9.81676
岐	-9.81793
當從	-9.82014
篤	-9.82083
牟	-9.82084
隋	-9.82085
冥	-9.82094
驅	-9.82178
巫	-9.82201
懲	-9.82214
媵	-9.82267
此章	-9.82285
博士	-9.82335
壊	-9.82434
旬	-9.82653
醢	-9.82679
卿大夫	-9.82812
其心	-9.82835
應對	-9.82874
之初	-9.82994
九州	-9.83005
瑞	-9.83039
筆	-9.83122
裁	-9.83128
珠	-9.83219
未必	-9.8325
六葉	-9.8331
臧	-9.83357
飲食	-9.8337
此則	-9.83585
宛	-9.83591
黎	-9.83611
西北	-9.83623
冰	-9.83713
大人	-9.83756
縮	-9.83811
綴	-9.83854
濁	-9.8387
闕文	-9.83893
曲禮	-9.83917
小序	-9.8393
突	-9.83992
伊尹	-9.84029
補遺	-9.8406
一作	-9.84166
庶人	-9.84211
樊	-9.84367
皆不	-9.84383
亦云	-9.84399
書曰	-9.84452
字或作	-9.8448
孔氏	-9.84519
哀公	-9.84521
其後	-9.84533
東北	-9.84626
混	-9.84669
圓	-9.84678
腹	-9.84806
反郭	-9.85078
箋云	-9.85078
忠信	-9.8511
者何	-9.85115
者為	-9.8519
捷	-9.853
古之	-9.85394
薪	-9.85442
誦	-9.85452
禱	-9.85484
妙	-9.85522
天命	-9.85537
八月	-9.8555
饑	-9.85572
虛	-9.85586
去下	-9.85626
祠	-9.85636
甲子	-9.85719
此詩	-9.85723
葉右七行	-9.85777
藝	-9.85832
父子	-9.85903
下有也字釋文	-9.8591
故言	-9.85942
所吏	-9.85986
付	-9.86014
始於	-9.86071
註同	-9.86123
圉	-9.86224
穿	-9.863
上文	-9.86314
羞	-9.86315
後漢	-9.8633
百里	-9.86331
荷	-9.86331
或云	-9.86335
滕	-9.86396
當以	-9.86398
萌	-9.86424
之德	-9.86427
者則	-9.86531
不明	-9.86597
僞	-9.86608
書之	-9.86741
悲	-9.86759
相應	-9.86929
淮	-9.87011
副	-9.87012
談	-9.87026
壺	-9.8707
殿	-9.87102
閉	-9.87143
渡	-9.87156
囚	-9.87189
億	-9.87205
漏	-9.87228
六經	-9.87243
其身	-9.87249
通用	-9.87251
鄰	-9.87269
域	-9.87336
裏	-9.87491
太極	-9.87506
見之	-9.87549
中央	-9.87569
墳	-9.8762
取之	-9.87816
宴	-9.87832
也又	-9.87896
傳曰	-9.87907
豈有	-9.8792
十葉	-9.87983
籥	-9.87994
迷	-9.88007
剥	-9.88067
殘	-9.88103
不善	-9.88115
曷	-9.88132
聴	-9.88133
音泰	-9.88148
不行	-9.8816
道之	-9.88241
以成	-9.88385
毗	-9.88542
所引	-9.88639
後放此	-9.88679
彖曰	-9.8872
雄	-9.88851
耦	-9.88903
馬融	-9.89052
僣	-9.8913
不通	-9.89185
啟	-9.89209
不易	-9.89376
壞	-9.89567
人所	-9.89596
滑	-9.89602
眞	-9.8962
拂	-9.89637
之長	-9.89673
牆	-9.89681
之故	-9.89686
準	-9.89712
冀	-9.89722
屢	-9.89792
孔傳	-9.8981
乖	-9.89815
召公	-9.89822
賛	-9.8985
譬	-9.90013
剛柔	-9.90077
若是	-9.90099
第一	-9.90202
刋	-9.90433
義理	-9.90453
使人	-9.90459
歛	-9.90553
狗	-9.9056
館	-9.90595
禪	-9.90607
皆為	-9.90677
爲之	-9.9068
軒	-9.90689
渙	-9.90691
賢遍反	-9.90696
並無	-9.90699
衍字	-9.90903
且如	-9.90915
也鄭注	-9.91034
故有	-9.91052
失其	-9.91094
瀆	-9.91222
之則	-9.91263
爻辭	-9.91275
汙	-9.91314
二傳作	-9.91322
病也	-9.91327
濡	-9.9136
於天	-9.91391
股	-9.91409
優	-9.91458
僅	-9.91481
男女	-9.91484
灌	-9.91501
贊	-9.91512
錢	-9.91526
瑕	-9.91532
它	-9.91539
節箋	-9.91549
秉	-9.9156
遭	-9.91561
欽	-9.91595
栁	-9.91655
算	-9.91669
王命	-9.91864
駁	-9.91972
丸	-9.91979
逼	-9.92078
婢	-9.92082
無不	-9.92098
拒	-9.92117
為人	-9.9212
檢	-9.92184
幅	-9.92275
完	-9.92347
挾	-9.92362
帛	-9.92368
尺證	-9.92371
理㑹	-9.92433
争	-9.92495
巻	-9.92513
以豉反	-9.92535
夀	-9.92546
或問	-9.92563
三十二	-9.9257
策	-9.92608
寸	-9.92642
所載	-9.92666
敕	-9.9269
欺	-9.92813
譜	-9.92861
之情	-9.92937
補脱	-9.92937
猶言	-9.93019
祁	-9.9303
地名	-9.93054
也言	-9.9309
司徒	-9.93107
圜	-9.93133
羔	-9.93726
成公	-9.93751
佞	-9.93789
釋文作	-9.93985
敝	-9.94063
而復	-9.94087
苞	-9.94087
遏	-9.94109
卓	-9.94142
四章	-9.94154
旨	-9.94158
潛	-9.94186
三家	-9.94326
之道也	-9.94386
正義曰	-9.94424
此皆	-9.94742
非从	-9.94835
象傳	-9.94981
國語	-9.95002
亦以	-9.95052
軫	-9.95057
玩	-9.95098
阻	-9.95116
宻	-9.95245
其君	-9.95272
底意思	-9.95372
樂記	-9.95399
故不	-9.95451
武公	-9.95476
一事	-9.95576
仁者	-9.95671
李注	-9.9571
乆	-9.95725
趣	-9.95747
牝	-9.9579
同姓	-9.95817
弛	-9.95838
犧	-9.95845
嬴	-9.95845
奄	-9.95862
隅	-9.95868
佚	-9.95889
字從	-9.95928
醫	-9.95938
仇	-9.95948
洪	-9.9598
猛	-9.95996
九葉	-9.96017
之内	-9.96086
社稷	-9.96098
之服	-9.96137
弦	-9.96153
虐	-9.96163
二十一	-9.9623
諸儒	-9.96265
小雅	-9.96306
之於	-9.9637
邵	-9.96555
五帝	-9.96651
盍	-9.96678
七葉	-9.96693
慈	-9.96725
花	-9.96782
西方	-9.96786
祧	-9.96787
也玉篇	-9.96791
拾	-9.96807
荅	-9.96821
警	-9.96826
摩	-9.96857
悖	-9.96881
奥	-9.96883
詐	-9.96934
荆	-9.96937
乂	-9.9696
下孟反	-9.96966
反字林	-9.97055
㬊淵錄	-9.97109
補脫	-9.97193
貳	-9.97212
沃	-9.97225
在位	-9.97241
字足利本同	-9.973
昌慮	-9.97308
文武	-9.97338
絶句	-9.97363
輪	-9.97382
紆	-9.97395
國君	-9.97454
之樂	-9.97455
十九葉	-9.97508
無有	-9.97531
在此	-9.97558
溺	-9.9757
戌	-9.97639
綱	-9.97696
周書	-9.97708
之官	-9.97764
判	-9.97775
逢	-9.97779
魄	-9.97783
今本	-9.97829
旌	-9.97833
逃	-9.97841
以後	-9.97844
之月	-9.97845
八十	-9.97851
泰誓	-9.97866
懸	-9.97943
七十	-9.9799
集解	-9.98091
也也上有之字	-9.98126
補闕	-9.98141
辭也	-9.98199
則知	-9.98219
遣	-9.98231
程傳	-9.98234
南方	-9.98257
正也	-9.98258
程	-9.98306
答曰	-9.98475
秘	-9.98481
氷	-9.98526
台	-9.98587
沮	-9.98601
呂	-9.98636
豳	-9.98638
觀之	-9.9869
值	-9.98707
止也	-9.98738
頤	-9.98759
狂	-9.98779
朕	-9.98788
貧	-9.98811
亭	-9.98839
絰	-9.98846
臭	-9.98857
廿二行	-9.98865
下音	-9.98911
隋書三十二	-9.99016
考異宋板疏	-9.99062
遥反	-9.99201
愼	-9.99387
賣	-9.99433
子之	-9.99466
閭	-9.99553
顛	-9.99669
工夫	-9.99691
之語	-9.99726
董	-9.99812
孔安國	-9.99875
其道	-9.99923
活	-9.9994
兑	-9.99994
則無	-10.0018
其意	-10.0018
之為言	-10.0022
郭云	-10.0024
故知	-10.0031
不可曉	-10.0042
勾	-10.005
如此則	-10.0052
創	-10.0055
永同	-10.0058
考之	-10.0063
二本	-10.0068
擾	-10.0074
曉	-10.0079
之用	-10.0084
宣王	-10.0086
不稱	-10.009
之極	-10.0091
名曰	-10.0092
從之	-10.0095
測	-10.0099
丙	-10.0105
八葉	-10.0106
所作	-10.0111
二人	-10.0122
一本無	-10.0124
箕子	-10.0125
皇極	-10.013
朝服	-10.0137
之所以	-10.0145
敏	-10.0146
鞠	-10.0149
本無	-10.0151
牖	-10.0155
躍	-10.0163
以至	-10.0167
音餘	-10.017
其書	-10.0171
哲	-10.0172
畔	-10.0173
肺	-10.0174
法也	-10.0178
喪服	-10.0183
女子	-10.0189
為正	-10.0189
進退	-10.02
下文同	-10.0201
此説	-10.0206
而得	-10.0213
推之	-10.0223
暇	-10.0232
百官	-10.0235
安得	-10.0239
一卷	-10.0244
不好	-10.0245
不正	-10.0255
鵠	-10.0256
裼	-10.0261
下共有也	-10.0263
庾	-10.0263
非禮	-10.0272
驚	-10.0274
爰	-10.0278
潔	-10.0278
証	-10.028
字子	-10.0281
之末	-10.0285
善也	-10.0287
威儀	-10.0287
上去	-10.0288
惡之	-10.0293
之物	-10.0296
扈	-10.0299
之體	-10.03
子思	-10.0301
有此	-10.0302
天子諸侯	-10.032
酢	-10.0337
刪	-10.034
其為	-10.0347
絜	-10.035
吁	-10.0351
矩	-10.0352
嶽	-10.0353
萊	-10.0355
十二葉	-10.0355
十五葉	-10.0364
戲	-10.0364
黜	-10.0364
狀	-10.0366
怠	-10.0368
不从	-10.0369
浸	-10.0369
吹	-10.037
十卷	-10.0371
寓	-10.0375
之謂也	-10.0377
丁丈反	-10.0387
相近	-10.0392
其一	-10.0396
國名	-10.0405
先後	-10.0411
已上並	-10.0415
也注同	-10.0431
五葉	-10.0433
彭	-10.0435
讀書	-10.0437
糾	-10.0442
周人	-10.0445
求之	-10.0447
箭	-10.0448
緦	-10.045
絃	-10.0453
東西	-10.0454
肩	-10.0454
苑	-10.0454
瑟	-10.0455
羲	-10.0459
郤	-10.0466
撫	-10.0467
其地	-10.0471
佳	-10.0475
寵	-10.0476
去又	-10.0476
事之	-10.0479
毎	-10.048
繆	-10.0496
尊卑	-10.0512
是非	-10.0514
無道	-10.0521
韋昭	-10.0526
受之	-10.0527
雩	-10.0529
雖然	-10.0529
暫	-10.0534
粉	-10.0547
之實	-10.0551
㸔	-10.0551
牢	-10.0553
梅	-10.0554
蜃	-10.0555
一陽	-10.0557
賀	-10.0558
沛	-10.0561
亳	-10.0561
疇	-10.0565
序疏	-10.0567
濫	-10.0568
髮	-10.057
后妃	-10.0582
纔	-10.0584
其名	-10.0585
反李	-10.0592
鄭康成	-10.0593
展	-10.0593
字作	-10.0598
亦非	-10.0604
及其	-10.0604
所傳	-10.0614
寫	-10.0626
宋板無	-10.0634
朋友	-10.0639
其徳	-10.0641
皆然	-10.0642
大功	-10.0642
緜	-10.0644
殺之	-10.0646
大衍	-10.0654
荼	-10.0655
一葉	-10.0657
迭	-10.0659
宥	-10.066
盜	-10.066
染	-10.0662
湛	-10.0665
或謂	-10.0665
而以	-10.0665
昭穆	-10.0671
三十六	-10.0674
之美	-10.0675
后稷	-10.0679
巾	-10.0705
而不能	-10.0706
賢人	-10.071
古文尚書	-10.0719
四海	-10.0744
鴆	-10.0748
一時	-10.075
之至	-10.075
直用	-10.0753
是説	-10.0753
燔	-10.0755
橋	-10.0758
易曰	-10.0758
諧	-10.0761
其國	-10.0761
詩人	-10.0764
狹	-10.0768
伸	-10.0769
叶	-10.0775
不從	-10.0782
賞	-10.0786
國人	-10.08
有二	-10.0801
詩曰	-10.0814
艱	-10.0831
買	-10.0832
長子	-10.0836
繩證	-10.0843
恐非	-10.085
旄	-10.0855
焦	-10.0857
摇	-10.0865
於外	-10.0865
則必	-10.0867
徽	-10.0868
輅	-10.0869
三葉	-10.087
武成	-10.0872
恨	-10.0872
潤	-10.0883
也然	-10.0894
㢲	-10.0895
大小	-10.0899
以前	-10.09
所言	-10.0904
如字劉	-10.0911
才用反	-10.0929
一字	-10.093
而能	-10.0931
中正	-10.0955
直遥反	-10.0956
也也上有者字	-10.0967
歡	-10.097
穫	-10.097
陂	-10.0972
組	-10.098
物之	-10.0982
雒	-10.0984
竝	-10.0985
恃	-10.0987
樞	-10.0987
憲	-10.0993
之始	-10.0996
三代	-10.0998
者如	-10.1004
峻	-10.1008
注皆同	-10.101
无妄	-10.1014
至此	-10.1019
爲其	-10.1022
司空	-10.1022
灼	-10.1032
前後	-10.1034
釋文云	-10.1041
也謂	-10.1051
膏	-10.1065
鄭註	-10.1065
矣故	-10.1072
讙	-10.1072
壻	-10.1073
之精	-10.1077
琴	-10.1084
蒸	-10.1092
暑	-10.1093
源	-10.1094
嘆	-10.1095
來朝	-10.1098
疏云	-10.1113
之閒	-10.1123
十七葉	-10.1125
之際	-10.1143
並如字	-10.1145
彫	-10.1147
季氏	-10.1151
讀曰	-10.1161
起吕反	-10.1166
絞	-10.1169
廉	-10.1173
穢	-10.118
粥	-10.118
矯	-10.118
盥	-10.1181
織	-10.1182
螽	-10.1183
霜	-10.1184
十一葉	-10.1186
鳳	-10.1187
藩	-10.1189
饌	-10.1191
故其	-10.1191
膚	-10.1192
奮	-10.1198
阿	-10.12
欒	-10.1201
説文作	-10.1203
息亮反	-10.1204
觧	-10.1206
羣臣	-10.1211
大過	-10.1211
增	-10.1215
筵	-10.1219
考異足利本註	-10.1222
二句	-10.1225
二十三	-10.1231
妹	-10.1235
二十五年	-10.124
六十四卦	-10.1241
十三葉	-10.1241
把	-10.1268
平王	-10.1276
非是	-10.1276
蚤	-10.1279
臯	-10.1283
醉	-10.1284
蒐	-10.1285
十八葉	-10.1286
勺	-10.1287
釁	-10.129
北方	-10.1293
足利本同釋文	-10.1294
頓	-10.1297
貨	-10.1297
柴	-10.1302
陋	-10.1305
賴	-10.1309
邢	-10.131
下注	-10.1311
魂	-10.1313
以明	-10.1317
知者	-10.1317
夏至	-10.1323
十四葉	-10.1325
姤	-10.1326
㡬	-10.1329
氣也	-10.1331
康成	-10.1332
揲	-10.1333
晏	-10.1335
夷狄	-10.1338
銳	-10.1352
門人	-10.1354
史記注三十	-10.1366
弋	-10.1374
詩作	-10.1374
孝子	-10.1377
昆	-10.1386
之誤	-10.1389
者是	-10.1392
二十葉	-10.1392
字同	-10.1392
侮	-10.1401
弘	-10.1405
宏	-10.1408
或有	-10.1408
肥	-10.1409
賢徧	-10.1415
措	-10.1416
有一	-10.1422
天地之	-10.1423
言語	-10.1428
古亂	-10.1432
考異古本序	-10.1436
蟹	-10.1441
大禹謨	-10.1443
管仲	-10.145
二十六	-10.1456
為大	-10.1483
之㑹	-10.1486
教人	-10.1488
皆放此	-10.1492
梓	-10.1495
箕	-10.1495
二葉	-10.1495
碑	-10.1496
鉏	-10.1501
下去	-10.1504
祕	-10.1505
翰	-10.1519
笄	-10.1519
兒	-10.152
鯀	-10.1522
韶	-10.1522
秩	-10.1523
所見	-10.1532
康誥	-10.1535
物也	-10.1537
考工記	-10.1541
程子	-10.1543
朝廷	-10.1543
無也字	-10.1548
其辭	-10.1552
神農	-10.1553
之正	-10.1584
之分	-10.1592
盟于	-10.1603
邾	-10.1605
擯	-10.1612
燎	-10.1615
大臣	-10.1625
所出	-10.1626
鬱	-10.1627
乾之	-10.1628
而立	-10.1628
矛	-10.1629
枉	-10.163
聲也	-10.1633
鼈	-10.1633
也無也字	-10.1634
紫	-10.1635
柳	-10.1635
古今	-10.1636
闇	-10.1641
之使	-10.1643
也孫注	-10.1646
為天	-10.165
痛	-10.1651
玉藻	-10.1659
亦曰	-10.1662
故也	-10.1669
繩證反	-10.1681
聲之誤也	-10.1682
影	-10.1693
計反	-10.17
大國	-10.1712
佗	-10.1716
芻	-10.1724
簋	-10.1724
當在	-10.1727
一百	-10.1729
分别	-10.173
魯人	-10.1734
愬	-10.1734
脾	-10.1736
二曰	-10.1736
以禮	-10.1741
廷	-10.1745
之喪	-10.1747
元文作	-10.1748
敘	-10.1748
圃	-10.1751
凝	-10.1754
狼	-10.1754
舅	-10.1755
贈	-10.1756
低	-10.1758
之臣	-10.1759
堯舜	-10.1761
祐	-10.1761
便有	-10.1768
二十二	-10.1769
平聲	-10.1779
然也	-10.1789
祭之	-10.1791
命之	-10.1791
際	-10.1795
定公	-10.1798
直吏反	-10.1799
法度	-10.1809
字林云	-10.181
未詳	-10.1811
倦	-10.1813
無所不	-10.1824
並史記注三十	-10.1824
下作	-10.1824
大雅	-10.1838
也鄭云	-10.1839
不盡	-10.1842
斤	-10.1843
意思	-10.1847
有功	-10.1847
翦	-10.1849
固有	-10.1852
脅	-10.1856
僚	-10.1857
枕	-10.1858
殽	-10.186
男子	-10.1865
抱	-10.1866
義也	-10.1867
誕	-10.1868
歆	-10.1869
疎	-10.1874
邇	-10.1876
楚子	-10.1883
飲酒	-10.1887
零	-10.1894
畝	-10.1905
駟	-10.1911
君子之	-10.1912
内則	-10.1918
觀其	-10.1918
區	-10.1923
字亦作	-10.1929
故為	-10.1935
四葉	-10.1939
也故曰	-10.194
内外	-10.1958
刈	-10.1964
徳之	-10.1965
櫟	-10.1967
首章	-10.1968
札	-10.1968
函	-10.1971
濯	-10.1972
踊	-10.1974
珍	-10.1975
脯	-10.1977
五經	-10.1981
不信	-10.1982
衝	-10.1987
息浪	-10.1989
終始	-10.1991
跡	-10.1995
所主	-10.1997
随	-10.2
見于	-10.2003
不忍	-10.2007
覲	-10.2011
好惡	-10.2038
是時	-10.2038
劉向	-10.2049
關雎	-10.2055
者其	-10.2056
以來	-10.2057
不至	-10.2067
於上	-10.2068
俘	-10.2074
有箇	-10.2077
藻	-10.208
茀	-10.208
慝	-10.2082
豚	-10.2082
叢	-10.2083
卷中	-10.2088
脊	-10.209
磨	-10.209
詠	-10.209
鼠	-10.2092
虢	-10.2095
汎	-10.2096
饒	-10.2096
仁義	-10.2098
伍	-10.2101
此書	-10.2101
觚	-10.2102
給	-10.2103
賵	-10.2107
洛書	-10.2107
灰	-10.2115
親迎	-10.2118
品	-10.2119
小過	-10.2119
如何對曰	-10.2122
失之	-10.2123
易中	-10.2123
曰天	-10.2124
中間	-10.2128
王注	-10.2146
因其	-10.2152
扶又反下	-10.2159
欲其	-10.216
話	-10.2166
世家	-10.2171
之徒	-10.2175
反說文云	-10.2188
劒	-10.2192
之變	-10.2196
諒	-10.2197
甚矣	-10.22
悌	-10.2201
莊子	-10.2203
暗	-10.2203
蓼	-10.2205
食之	-10.2205
獵	-10.2206
遁	-10.2211
溝	-10.2211
隔	-10.2214
滌	-10.2216
斧	-10.2219
今日	-10.2221
箴	-10.2221
時也	-10.2222
邱	-10.2224
人事	-10.2225
従	-10.223
輦	-10.2231
天理	-10.2234
日食	-10.2238
畿内	-10.224
吕刑	-10.2244
癸	-10.2249
鬯	-10.225
緇衣	-10.2252
却是	-10.2255
不待	-10.226
猶有	-10.2281
想	-10.2282
訓為	-10.2291
故稱	-10.2295
其行	-10.2299
鹽	-10.2302
音恱	-10.2308
一書	-10.2314
快	-10.2319
乞	-10.2322
樂之	-10.2323
何必	-10.2324
馳	-10.2327
之罪	-10.2327
南北	-10.233
稻	-10.2334
之職	-10.2338
一行注	-10.2339
醜	-10.2339
科	-10.2341
寘	-10.2342
無之字	-10.2348
交反	-10.2348
剝	-10.2363
高宗	-10.2369
石經	-10.2374
人者	-10.2376
本文	-10.2383
伏生	-10.2385
所為	-10.2388
居之	-10.2392
也按	-10.2398
者乎	-10.2412
謁	-10.2414
頂	-10.2416
杜預	-10.2416
蔡傳	-10.2422
詩照	-10.2426
何也曰	-10.2429
篆	-10.2433
匿	-10.2437
俞	-10.2438
姒	-10.2439
拔	-10.244
豬	-10.2441
不動	-10.2446
者言	-10.2446
靖	-10.2448
祫	-10.2449
蹙	-10.2451
禮義	-10.2454
檜	-10.2454
枚	-10.2457
不解	-10.2458
不勝	-10.246
誨	-10.2463
圗	-10.2469
雀	-10.2471
奇	-10.2474
鸞	-10.2474
嗚呼	-10.2477
臯陶	-10.2483
未知	-10.2497
𢎞	-10.2498
此理	-10.2498
非謂	-10.2499
薨	-10.2504
迫	-10.2551
之神	-10.2553
十九年	-10.2553
異於	-10.2554
之節	-10.2554
公劉	-10.2556
整	-10.256
驂	-10.2566
衷	-10.2567
鄫	-10.2567
丕	-10.2569
惰	-10.2569
無窮	-10.2573
贄	-10.2577
翳	-10.2578
貉	-10.2582
夏正	-10.2584
蔑	-10.2587
浩	-10.2589
纂	-10.2589
姦	-10.259
而下	-10.259
結反	-10.2603
啇	-10.2607
不足以	-10.2613
崔本作	-10.2625
一月	-10.2631
似嗟	-10.2631
檀弓	-10.2647
不止	-10.2654
禮之	-10.2654
此亦	-10.2661
緇	-10.2668
為政	-10.267
三千	-10.2678
監本脱	-10.268
反沈	-10.2689
時掌反	-10.2692
音烏	-10.2695
柩	-10.2697
以示	-10.2697
瓦	-10.2699
娣	-10.27
髦	-10.2701
隷	-10.2703
緝	-10.2706
縷	-10.2707
易傳	-10.2709
卻	-10.271
窒	-10.2713
觸	-10.2714
頒	-10.2714
宋板足利本同疏	-10.2718
經典釋文	-10.273
於君	-10.273
理也	-10.2743
相見	-10.275
四象	-10.2751
分為	-10.2753
經作	-10.2754
顧命	-10.2759
次第	-10.2765
二十年	-10.2772
以象	-10.2775
九十	-10.2775
懈	-10.2777
入於	-10.2781
舍人注	-10.2783
曰此	-10.2794
康節	-10.2801
自家	-10.2801
也且	-10.2802
貍	-10.281
炎	-10.2813
樓	-10.2817
趾	-10.2819
庇	-10.2821
廿一行注	-10.2825
訊	-10.2828
肄	-10.2828
纁	-10.2829
擅	-10.2833
節註	-10.2834
蠶	-10.2835
盾	-10.2835
慕	-10.2838
飢	-10.2839
卵	-10.284
者必	-10.2844
善惡	-10.2846
字疏	-10.2848
髪	-10.2848
已有	-10.2854
鈎	-10.2856
老子	-10.2859
廣雅云	-10.2877
往來	-10.2881
諸本	-10.2883
輕重	-10.2887
之義也	-10.2888
相與	-10.2899
也然則	-10.2905
夫婦	-10.2905
使者	-10.2906
又以	-10.291
而已矣	-10.2926
橫	-10.2933
而非	-10.2934
春秋傳	-10.294
卬	-10.2947
幕	-10.2947
魚據	-10.2953
未聞	-10.2956
囿	-10.2957
以自	-10.2958
妖	-10.2959
侑	-10.2959
蓄	-10.2961
未能	-10.2962
繒	-10.297
確	-10.2972
顓頊	-10.2973
翻	-10.2982
劉歆	-10.2984
明堂位	-10.2986
在於	-10.2986
人皆	-10.3012
乃是	-10.3014
無一	-10.3015
之首	-10.302
十四葉右	-10.3042
二十二年	-10.3044
可乎	-10.3046
亮反	-10.3047
銜	-10.3049
一爻	-10.3051
二十三葉	-10.3054
别有	-10.3058
有司	-10.3059
不爲	-10.3064
畿	-10.3065
文也	-10.3074
阪	-10.3074
易也	-10.3075
鰥	-10.3076
綸	-10.3077
喬	-10.3078
親親	-10.3079
抄本無	-10.3079
潰	-10.308
牀	-10.308
奢	-10.3081
大畜	-10.3082
二十八年	-10.3085
而又	-10.3088
鐵	-10.3088
垣	-10.3091
輯	-10.3092
阜	-10.3092
凖	-10.3093
稼	-10.3106
第三	-10.3106
輩	-10.3107
十二行注	-10.3108
而出	-10.3111
音預	-10.3111
錦	-10.3116
所生	-10.3128
馬本作	-10.3133
一也	-10.3135
之君	-10.3145
先鄭云	-10.3147
流行	-10.315
才用	-10.3152
不失	-10.3153
杜氏	-10.3157
其數	-10.3164
之命	-10.3169
所在	-10.3175
後來	-10.3186
弼	-10.3188
其次	-10.3191
小功	-10.3196
嬖	-10.32
袂	-10.3202
乃旦反	-10.3204
無可	-10.3208
文章	-10.321
丁仲反	-10.321
汭	-10.3213
墟	-10.3213
炙	-10.3214
服之	-10.3214
挈	-10.3216
臂	-10.3216
頰	-10.3216
婉	-10.3216
殛	-10.3218
飭	-10.3222
久矣	-10.3223
塵	-10.3227
酬	-10.3228
擬	-10.3228
上面	-10.3231
鴻	-10.3232
欠	-10.3235
朝夕	-10.3236
先天	-10.3239
出奔	-10.3241
兌	-10.3244
依注音	-10.325
道心	-10.3252
皷	-10.3257
鄭作	-10.3258
乎此	-10.3259
十三葉左	-10.3269
姚	-10.3274
二十四年	-10.329
不變	-10.3292
過也	-10.3294
在天	-10.3296
偪	-10.3311
杭	-10.3318
毛云	-10.3318
崇禎本	-10.3323
文云	-10.3324
何所	-10.3324
則又	-10.3333
傲	-10.3339
隧	-10.3342
津	-10.3342
悅	-10.3342
驪	-10.3342
二十四葉	-10.3345
技	-10.3348
之母	-10.3349
壤	-10.3351
激	-10.3351
上音	-10.3352
埋	-10.3352
涕	-10.3353
蹈	-10.3354
之卦	-10.3356
滋	-10.3364
胃	-10.3365
太平	-10.337
𤼵	-10.3375
鳥獸	-10.3378
冦	-10.3383
歷反	-10.3383
董銖録	-10.3384
治之	-10.3399
為作謂	-10.3406
註疏	-10.3413
不知其	-10.3414
鄭本作	-10.3415
樂也	-10.3423
二十二葉	-10.3427
丁歷	-10.3427
馬傳	-10.3432
瞽	-10.3441
二十一葉	-10.3445
此一	-10.3452
巡	-10.3455
無此	-10.3461
三句	-10.3467
渝	-10.3475
餼	-10.3475
縫	-10.3478
喙	-10.3481
揭	-10.3482
抗	-10.3482
厄	-10.3487
衽	-10.3488
此義	-10.3489
不若	-10.349
筐	-10.3491
無事	-10.3491
棲	-10.3491
膠	-10.3495
戮	-10.3498
伋	-10.3498
跪	-10.3499
穎	-10.3501
氏之	-10.3504
頥	-10.3504
肝	-10.3505
六章	-10.3506
古文作	-10.3509
當有	-10.351
夘	-10.3511
員	-10.3513
徐又	-10.3527
堪	-10.3533
利貞	-10.3534
不容	-10.3535
永懷堂同	-10.3537
惟其	-10.3544
廣大	-10.3544
六爻	-10.3547
反司馬云	-10.3549
天王	-10.3551
水火	-10.3551
之類是也	-10.3554
此篇	-10.3559
經書	-10.3559
卦之	-10.3564
二十一年	-10.3565
教之	-10.3567
卦爻	-10.3572
所當	-10.3582
二十五葉	-10.3583
阮	-10.3585
傳作	-10.3591
葵	-10.3598
矣然	-10.3604
之一	-10.3605
渾	-10.3608
闔	-10.3609
緌	-10.3614
拯	-10.3615
兕	-10.3617
國中	-10.3618
縛	-10.3618
膳	-10.362
入于	-10.3621
叟	-10.3621
小子	-10.3623
倡	-10.3623
憤	-10.3624
不忘	-10.3625
洩	-10.3627
旂	-10.3627
熒	-10.3629
耄	-10.3629
菽	-10.3631
竇	-10.3632
苴	-10.3633
誘	-10.3633
冢	-10.3633
虧	-10.3635
不安	-10.3645
逹	-10.3646
範	-10.3647
無非	-10.3658
誤也	-10.366
君也	-10.3664
貴賤	-10.3667
何如	-10.367
有常	-10.3677
未濟	-10.3685
氣象	-10.3695
之政	-10.3699
次序	-10.37
夏之	-10.3704
成功	-10.3704
十二葉右	-10.3707
䖍	-10.3707
之大	-10.3714
未見	-10.3722
之至也	-10.3735
三曰	-10.3737
衮	-10.3739
天文	-10.3749
德行	-10.375
殄	-10.3752
詣	-10.3755
古字	-10.3755
筴	-10.3756
詭	-10.3756
宋板作	-10.3758
猗	-10.3759
披	-10.376
祊	-10.3761
亶	-10.3761
其時	-10.3762
蘭	-10.3762
麤	-10.3764
十一行注	-10.3765
暢	-10.3766
覽	-10.3766
耿	-10.3767
光明	-10.3777
銘	-10.378
聖賢	-10.378
昆弟	-10.3789
邁	-10.3793
之甚	-10.3793
伯禽	-10.3795
文義	-10.3802
浪	-10.3806
曾子	-10.3806
異義	-10.3809
明也	-10.381
之三	-10.3821
之志	-10.3823
二十三年	-10.3826
國風	-10.3836
多少	-10.3844
集註	-10.3844
季孫	-10.3848
言之則	-10.3855
取象	-10.3856
三卷	-10.3857
讒	-10.3861
並作	-10.3869
以授	-10.387
家語	-10.3875
也崔云	-10.3875
出來	-10.3876
碩	-10.3879
如今	-10.3881
而歸	-10.3882
三十三	-10.3884
十行注	-10.3892
埽	-10.3894
犂	-10.3894
麇	-10.3894
汁	-10.39
毫	-10.3904
銀	-10.3905
文作	-10.3906
渭	-10.3907
添	-10.3907
祼	-10.3907
讀爲	-10.3908
從而	-10.391
勅	-10.391
豹	-10.3911
視之	-10.3912
或音	-10.3914
點	-10.3915
亞	-10.3918
反李云	-10.3919
魚吕	-10.3919
褒	-10.392
許多	-10.392
黙	-10.3922
靣	-10.3923
損益	-10.3946
於其	-10.3951
曠	-10.3954
丁仲	-10.3964
畆	-10.3974
王后	-10.3976
而止	-10.3976
本意	-10.3976
齊衰	-10.3981
二十九	-10.3984
昊天	-10.3987
則自	-10.3989
夫子之	-10.4003
釋文一	-10.4003
淸	-10.4011
昨	-10.4011
洒	-10.4017
頑	-10.4025
旃	-10.4029
不惟	-10.4031
怡	-10.4033
此意	-10.4034
憑	-10.4035
大事	-10.4038
南面	-10.404
扞	-10.4043
鬻	-10.4045
殖	-10.4048
十九行注	-10.4049
噫	-10.4053
讎	-10.4056
熱	-10.4056
訖	-10.4056
其德	-10.4061
音亦	-10.4061
其聲	-10.4061
長也	-10.4062
適子	-10.4069
案毛氏居正云	-10.4069
晝夜	-10.4071
管子	-10.4072
下共有也字疏	-10.4072
之聲	-10.4085
音嗣	-10.4086
先王之	-10.409
下脱	-10.4091
而不可	-10.4096
反或	-10.4112
人情	-10.4112
既濟	-10.4116
衆人	-10.4128
之狀	-10.4129
不中	-10.4129
美也	-10.4129
三十一	-10.4138
正是	-10.4142
萬里	-10.4152
未盡	-10.4163
是如此	-10.4164
頻	-10.4168
五星	-10.4177
始也	-10.4179
促	-10.4179
之廟	-10.4182
卧	-10.4187
則非	-10.4193
緑	-10.4194
覩	-10.4196
涖	-10.4197
觶	-10.4197
亷	-10.4198
滯	-10.4199
礙	-10.4199
二十行注	-10.4204
大宗	-10.4212
在外	-10.4215
草也	-10.4219
五行注	-10.422
二子	-10.4225
尊者	-10.4228
鄭音	-10.4228
古亂反	-10.4229
大傳	-10.423
風雨	-10.4235
音智	-10.4239
鄉遂	-10.4241
周公之	-10.4244
此時	-10.4249
下當脱	-10.425
二十九年	-10.4251
而未	-10.426
王室	-10.4265
之性	-10.4276
孟子曰	-10.4276
公羊傳	-10.4283
叚	-10.4286
洛誥	-10.4291
他人	-10.4291
此之謂	-10.4293
三本	-10.4301
十八葉左	-10.4316
信也	-10.4318
摶	-10.4318
閱	-10.4322
地理	-10.4327
藪	-10.4328
矣夫	-10.4329
其他	-10.4329
五事	-10.4332
菹	-10.4334
六十四	-10.4335
惜	-10.4335
挺	-10.4335
蠻	-10.4336
融	-10.4337
齎	-10.4338
羮	-10.4339
卿士	-10.4343
臼	-10.4344
宇	-10.4346
乳	-10.4346
探	-10.4349
郕	-10.4349
下有者也二字	-10.4351
不服	-10.4359
㫁	-10.4359
者當	-10.4361
椒	-10.4363
莫大於	-10.4365
于僞反下爲	-10.4369
之序	-10.4372
不知何氏錄	-10.4375
劣	-10.4377
七十二	-10.4377
豈不	-10.4379
發明	-10.4381
憚	-10.4387
以致	-10.4388
止於	-10.4401
王弼	-10.4404
也足利本	-10.4407
四國	-10.441
五色	-10.4419
則當	-10.442
數之	-10.4428
芒	-10.443
直龍	-10.443
弑君	-10.4436
皆無	-10.4436
二卦	-10.4437
二十六年	-10.4444
胄	-10.4445
个	-10.4449
又去	-10.4451
父之	-10.4455
許亮反	-10.4459
蓬	-10.4461
毛本	-10.4464
十六葉	-10.4468
呈	-10.4468
亦當	-10.4469
榆	-10.447
治也	-10.4471
望之	-10.4473
其說	-10.4479
筍	-10.4479
之士	-10.448
燕禮	-10.4482
緫	-10.4482
嘏	-10.4484
遐	-10.4485
賚	-10.4487
躁	-10.4491
莖	-10.4495
偷	-10.4498
悟	-10.4502
騶虞	-10.4504
乏	-10.4504
郊特牲	-10.4506
金縢	-10.4511
以告	-10.4513
楚人	-10.4519
在其中	-10.452
隠公	-10.4522
劉礪録	-10.4522
明之	-10.4523
乃以	-10.4524
而死	-10.4545
下及	-10.4546
小畜	-10.4548
十有二	-10.4548
京師	-10.4548
髙宗	-10.455
六卿	-10.4551
二十二葉右	-10.4557
上聲	-10.4557
衣裳	-10.4559
十五葉右	-10.4559
反覆	-10.4563
則曰	-10.4569
也李注	-10.4574
宋人	-10.4577
因之	-10.4579
固是	-10.4581
不厭	-10.4583
中孚	-10.4588
聘禮	-10.4591
五字	-10.4593
錄中	-10.4603
文王之	-10.4606
雪	-10.4607
角反	-10.4608
所行	-10.4611
狀如	-10.4611
大夫士	-10.4614
此謂	-10.4615
抵	-10.4616
孕	-10.4617
君命	-10.4617
以正	-10.4618
氏曰	-10.4619
訾	-10.462
抽	-10.4624
先君	-10.4625
無射	-10.4626
丞	-10.463
廩	-10.463
行注	-10.4631
兔	-10.4631
汜	-10.4632
毛公	-10.4632
詰	-10.4634
級	-10.4636
藴	-10.4637
家人	-10.4638
眚	-10.4638
蜡	-10.4639
匏	-10.4639
彘	-10.4639
睽	-10.464
膺	-10.4641
纓	-10.4641
駿	-10.4643
䙝	-10.4645
者即	-10.4645
排	-10.4647
也考異古本註	-10.4647
有九	-10.4647
偕	-10.465
一物	-10.465
轡	-10.4653
同異	-10.4656
事君	-10.4661
制度	-10.4663
沈僴錄	-10.4668
動而	-10.467
噬嗑	-10.4673
之本	-10.4676
不食	-10.4683
也韓詩	-10.4684
一節	-10.4687
宋本	-10.4687
二十一葉右	-10.4691
何為	-10.4708
乎對曰	-10.4722
註作	-10.4725
愧	-10.4725
之盛	-10.4728
案說文	-10.473
諸家	-10.4741
許亮	-10.4743
水名	-10.4748
服注	-10.4751
津忍	-10.4755
故能	-10.4759
其母	-10.4768
也案	-10.4768
頽	-10.4772
拊	-10.4775
禰	-10.4776
裹	-10.4776
拱	-10.4778
彗	-10.4781
二百	-10.4785
掘	-10.4785
枯	-10.4787
弭	-10.4791
芟	-10.4791
逝	-10.4794
壹	-10.4795
瞻	-10.4796
汗	-10.4796
紹	-10.4798
宵	-10.4798
灾	-10.4798
春官	-10.4799
鎮	-10.4799
非常	-10.48
該	-10.4804
補本	-10.4804
沉	-10.4805
績	-10.4807
障	-10.4811
不欲	-10.4812
毗志	-10.4813
皆云	-10.4813
三王	-10.4836
陰陽	-10.4838
皆可	-10.484
手又	-10.484
世之	-10.4841
稱之	-10.4846
闗雎	-10.4847
而后	-10.4853
成也	-10.4864
毗志反	-10.4866
三十一年	-10.4866
歸于	-10.4871
子男	-10.4873
五曰	-10.4875
謹按當在	-10.4876
多方	-10.4892
安能	-10.4897
宗伯	-10.4897
之事也	-10.4901
万	-10.4906
水經注	-10.4916
相傳	-10.4919
三篇	-10.4923
門外	-10.4931
何謂	-10.4932
鄒	-10.4937
弄	-10.4938
謹按宋板	-10.494
頸	-10.494
音捨	-10.4941
臘	-10.4943
聶	-10.4943
隰	-10.4949
垢	-10.495
弧	-10.4951
黼	-10.4951
濕	-10.4952
絳	-10.4958
畀	-10.4959
浴	-10.4961
彦	-10.4962
假借	-10.4962
筭	-10.4963
効	-10.4963
簫	-10.4964
二傳	-10.4967
氐	-10.4967
詢	-10.4968
耀	-10.4975
四曰	-10.4976
補遺宋板註	-10.4985
之水	-10.4986
一年	-10.4987
三人	-10.4994
雲漢	-10.4995
奈何	-10.4999
肯	-10.5001
未成	-10.5001
衆也	-10.5007
與人	-10.5008
說卦	-10.5012
在人	-10.5024
息浪反	-10.5024
可知矣	-10.503
生民	-10.5035
亂也	-10.5039
不利	-10.5039
十葉右	-10.5044
二十七年	-10.5047
於天下	-10.5049
河南	-10.5055
何休	-10.5058
其性	-10.506
靑	-10.507
圎	-10.5082
於内	-10.5084
斁	-10.5089
劓	-10.5093
第四	-10.5094
汚	-10.5094
漬	-10.5095
絺	-10.5098
足利本作	-10.5098
晳	-10.5098
轅	-10.5099
衣服	-10.5099
聿	-10.5099
琢	-10.5101
若以	-10.5102
茹	-10.5104
眇	-10.5105
有罪	-10.5106
粗	-10.5109
儐	-10.511
衍文	-10.511
飱	-10.511
翔	-10.5111
所記	-10.5112
旒	-10.5112
變而	-10.5114
紐	-10.5115
竄	-10.5118
夔	-10.5118
黍稷	-10.5119
息列	-10.5119
太守	-10.512
緒	-10.512
也一云	-10.5121
壅	-10.5121
冀州	-10.5122
惕	-10.5123
澄	-10.5124
銅	-10.5124
之異	-10.5126
而上	-10.5134
寜	-10.5136
神明	-10.5138
去其	-10.5138
貍首	-10.5144
宫室	-10.5151
秋官	-10.5153
可疑	-10.5153
躋	-10.5159
其本	-10.5159
書序	-10.5166
昔者	-10.5167
聞之	-10.5168
不順	-10.5176
五百里	-10.5176
于是	-10.5177
貌下	-10.5181
十一葉右	-10.5188
之例	-10.5192
以待	-10.5193
不敬	-10.5199
知得	-10.5203
之治	-10.5206
其民	-10.5218
之㫖	-10.5221
旦反	-10.5223
荀作	-10.5224
黄道	-10.5226
二本同	-10.523
爭鬪	-10.5235
詩傳	-10.5241
此句	-10.5245
然亦	-10.5248
養老	-10.5249
緼	-10.5255
音恭	-10.5258
皆從	-10.526
場	-10.5265
其罪	-10.5265
不宜	-10.5266
噬	-10.5271
佑	-10.5271
標	-10.5272
舂	-10.5273
襚	-10.5273
當依	-10.5278
禫	-10.5278
繡	-10.5278
柏	-10.528
雖不	-10.5281
反馬云	-10.5283
三葉左	-10.5288
此語	-10.5294
諭	-10.5294
膝	-10.5296
集傳	-10.5296
此事	-10.5296
愆	-10.5296
姊	-10.5299
太廟	-10.531
二篇	-10.5319
百年	-10.532
林學履錄	-10.532
泰山	-10.5338
定本	-10.5341
漢志	-10.5342
不離	-10.5349
於是乎	-10.5349
所居	-10.5354
庶民	-10.5354
做得	-10.5356
此正	-10.5357
存舊	-10.5358
注及下	-10.5363
産	-10.5373
字林作	-10.5375
之象也	-10.5375
事而	-10.5376
益稷	-10.5378
亦未	-10.538
于此	-10.5382
也非	-10.5385
字从	-10.5389
下經	-10.5392
者謂之	-10.5393
忍反	-10.5402
名篇	-10.5404
羌	-10.5408
徼	-10.5416
莽	-10.5416
下共有也字釋文	-10.5419
得失	-10.5419
分曉	-10.5422
有事	-10.5424
髀	-10.5427
竈	-10.5429
賄	-10.543
貽	-10.543
吴	-10.5432
稚	-10.5433
當是	-10.5434
者下	-10.5435
縶	-10.5435
三行注	-10.5438
帝王	-10.544
時人	-10.5443
泣	-10.5444
臆	-10.5444
字下	-10.5444
睦	-10.5449
桐	-10.5451
詩之	-10.5454
輸	-10.5455
公族	-10.5457
臯陶謨	-10.5459
記云	-10.546
若不	-10.5465
所用	-10.5467
注十卷	-10.5468
俯	-10.5469
下有之也	-10.5471
下面	-10.5476
少儀	-10.5477
同今本	-10.5482
書云	-10.5482
李音	-10.5487
字之誤也	-10.5488
征伐	-10.5488
申志反	-10.549
四岳	-10.5491
九行注	-10.5492
盛貌	-10.5496
生物	-10.5506
宋公	-10.5508
後皆同	-10.5517
一章疏	-10.552
而好	-10.5524
不息	-10.5528
成之	-10.5538
不識	-10.554
其氣	-10.5546
從者	-10.555
八行注	-10.555
反本或作	-10.5551
土地	-10.5551
與此	-10.5553
雜記	-10.5554
禮者	-10.5557
無逸	-10.5558
也从	-10.5561
廣韻	-10.5564
十葉左	-10.5567
以求	-10.5574
鐸	-10.5575
眷	-10.5577
惠公	-10.5579
如之何	-10.5582
葦	-10.5583
康叔	-10.5583
欣	-10.5586
北面	-10.5588
腥	-10.5589
爪	-10.5591
瘠	-10.5591
之爭	-10.5592
之田	-10.5592
祚	-10.5595
翣	-10.5597
冶	-10.5598
尼	-10.5599
狎	-10.5602
泛	-10.5602
敬也	-10.5603
愠	-10.5606
沱	-10.5607
㦸	-10.561
佛	-10.561
摘	-10.5611
腎	-10.5611
此類	-10.5613
不入	-10.5621
採	-10.5623
顔淵	-10.5624
虞翻	-10.5629
殺人	-10.5631
元亨利貞	-10.5632
讐	-10.5632
無疑	-10.5632
終日	-10.5636
戸雅反	-10.5637
上經	-10.5642
二公	-10.5646
隂氣	-10.5647
則此	-10.5655
二作三	-10.5657
黒水	-10.566
之之作也	-10.5667
於義	-10.5668
三國	-10.5669
報反	-10.5672
從此	-10.5676
王子	-10.569
下句	-10.5691
五服	-10.5691
其禮	-10.57
豔	-10.57
矣此	-10.5702
看來	-10.5704
音界	-10.5722
所得	-10.573
安也	-10.573
周制	-10.5736
陳註	-10.5736
鋪	-10.5738
鶉	-10.5743
子游	-10.5743
其親	-10.5746
欲令	-10.5752
不特	-10.5752
涇	-10.5754
楯	-10.5754
泯	-10.5754
紅	-10.576
苛	-10.5762
帷	-10.5764
其志	-10.5765
胤	-10.5765
虺	-10.5766
鈞	-10.5768
槁	-10.5769
少陽	-10.577
五百	-10.577
公㑹	-10.5772
主之	-10.5773
媚	-10.5774
音古	-10.5775
翕	-10.5775
勲	-10.5776
窺	-10.5777
譖	-10.5778
其功	-10.5779
憾	-10.5779
盗	-10.5781
紛	-10.5782
三分	-10.5783
虫	-10.5783
湖	-10.5784
騎	-10.5785
䕶	-10.579
彰	-10.579
或者	-10.5791
太史	-10.5795
之主	-10.5797
所惡	-10.5797
字又	-10.5798
二十四葉右	-10.5798
冬十月	-10.5801
獲麟	-10.5803
齊桓	-10.5807
元文上作	-10.5807
下有矣字	-10.5807
皆在	-10.5817
焉得	-10.5821
回反	-10.5823
用力	-10.5826
司馬法	-10.5826
必先	-10.583
外傳	-10.5832
音甫	-10.5836
者與	-10.5844
卒章	-10.585
動也	-10.5854
告之	-10.5872
本心	-10.5873
誠意	-10.5876
音避	-10.5881
此等	-10.5881
之形	-10.5881
有兩	-10.5883
諸經	-10.5884
仲子	-10.5889
王云	-10.5905
不違	-10.5915
十四葉左	-10.5917
未可	-10.5921
又言	-10.5923
日中	-10.5923
轂	-10.5925
之詞	-10.5925
脂	-10.593
鮑	-10.5931
姪	-10.5932
堵	-10.5933
史記作	-10.5933
醮	-10.5934
二十六葉	-10.5935
十四行注	-10.5935
廣雅	-10.5935
奸	-10.5937
魯史	-10.594
洲	-10.5941
之論	-10.5943
永懐堂同	-10.5944
逵	-10.5944
縞	-10.5945
替	-10.5946
必以	-10.5946
十三行注	-10.5949
寤	-10.5951
相對	-10.5952
蒿	-10.5954
冷	-10.596
㝠	-10.5964
認	-10.5965
矣而	-10.5966
字誤倒	-10.5968
大師	-10.5973
賔客	-10.5976
横渠	-10.5977
直龍反	-10.598
匱	-10.5982
竊疑	-10.5982
輔廣錄	-10.5984
變易	-10.5985
四牡	-10.5992
是箇	-10.5996
所吏反	-10.6006
為善	-10.6012
矣若	-10.6013
自得	-10.6017
足利本同疏	-10.6018
只管	-10.6018
名為	-10.6018
在前	-10.6021
戸雅	-10.603
三傳	-10.6031
也說文云	-10.6042
取義	-10.6043
未得	-10.6044
土地名	-10.6045
一卦	-10.6045
小國	-10.6047
也一曰	-10.6054
政事	-10.6056
其丈	-10.6056
焉故	-10.6062
事事	-10.6066
不自	-10.6069
字之誤	-10.6069
兖	-10.607
成人	-10.608
以道	-10.6085
宋板同疏	-10.6086
比之	-10.6089
梏	-10.6098
隘	-10.61
烹	-10.6101
無常	-10.6105
鄧	-10.6105
之家	-10.6105
燒	-10.6106
惡也	-10.6106
朞	-10.6106
渚	-10.6106
左傳云	-10.6107
餕	-10.6108
巷	-10.611
懿	-10.6111
反字林云	-10.6114
直專	-10.6114
翬	-10.6115
也蓋	-10.6115
屑	-10.6116
死而	-10.6117
㕓	-10.6121
坫	-10.6122
裂	-10.6122
汪	-10.6123
雌	-10.6124
䑕	-10.6124
淑	-10.6124
朴	-10.6125
向云	-10.6126
坦	-10.6127
十九葉左	-10.6129
之矣	-10.6131
也葢	-10.6132
明日	-10.6132
圈	-10.6133
謨	-10.6135
恣	-10.6138
舅姑	-10.6139
不肖	-10.6141
遂以	-10.6145
歐陽	-10.6146
黄鍾之	-10.6146
者至	-10.615
二十葉右	-10.615
林學履録	-10.6155
叔孫	-10.6156
所好	-10.6159
上有之字	-10.616
祭義	-10.6161
生也	-10.6164
反元文	-10.6166
為義	-10.6167
盡也	-10.617
而自	-10.6173
也惟	-10.6179
棟	-10.6181
少隂	-10.6186
上有以字	-10.6193
禮運	-10.6198
大廟	-10.6202
顔子	-10.6204
不失其	-10.6207
夏官	-10.6227
忒	-10.6231
十八葉右	-10.6234
二十三葉右	-10.6237
一遥	-10.6238
穆公	-10.6239
要之	-10.6254
河水	-10.6256
三十年	-10.6259
隱公	-10.626
國家	-10.6263
性情	-10.6268
似是	-10.6269
嗇	-10.627
泠	-10.627
一條	-10.627
蒯	-10.6271
魴	-10.6277
學而	-10.6278
子張	-10.6278
毛氏	-10.628
而今	-10.628
䕃	-10.6282
粢	-10.6283
跋	-10.6284
鍼	-10.6285
俗作	-10.6286
卦辭	-10.6287
鴈	-10.6288
明夷	-10.6288
扱	-10.6289
之祭	-10.629
樸	-10.6292
隙	-10.6293
醯	-10.6294
潘	-10.6294
袪	-10.6295
少牢	-10.6296
婚	-10.6297
鉞	-10.6298
研	-10.63
脚	-10.6301
淪	-10.6301
忿	-10.6302
恐是	-10.6304
卞	-10.6304
為天子	-10.6305
日行	-10.6312
鳯	-10.6314
園	-10.6315
網	-10.6317
吕覽	-10.6319
二十三葉左	-10.632
恕	-10.6322
下以	-10.6329
孝弟	-10.6331
星歷	-10.6332
服也	-10.6336
由是	-10.6339
王道	-10.6344
十一葉左	-10.635
文子	-10.6354
疚	-10.6362
衆多	-10.6369
力智	-10.6375
者此	-10.6379
邦國	-10.638
江漢	-10.6382
叔向	-10.6383
居良	-10.639
伐木	-10.6391
五福	-10.6395
舉其	-10.6395
明白	-10.6399
丁亂	-10.6399
而知	-10.6403
十二律	-10.6406
九葉右	-10.6418
直是	-10.6422
戊	-10.6423
云爾	-10.6423
子也	-10.6426
舊説	-10.6427
之賢	-10.6432
大射	-10.6436
意也	-10.6437
象也	-10.6438
或以	-10.6442
者乃	-10.6443
方是	-10.6444
戰國	-10.6446
馬鄭	-10.645
貟	-10.6451
引此	-10.6451
庖	-10.6453
貸	-10.6454
輝	-10.6454
始有	-10.6462
謹案	-10.6462
更無	-10.6465
芮	-10.6467
詒	-10.6467
大宰	-10.6468
墉	-10.6469
倪	-10.647
浚	-10.6472
居中	-10.6473
終也	-10.6475
燥	-10.6475
莞	-10.6475
飽	-10.6476
熙	-10.6477
惡乎	-10.6478
鏘	-10.6479
十八行注	-10.648
印	-10.648
胎	-10.6481
若此	-10.6482
督	-10.6482
人道	-10.6483
騐	-10.6483
鑄	-10.6484
亦同	-10.6484
貊	-10.6485
雕	-10.6485
迂	-10.6485
魁	-10.6485
鱗	-10.6488
二十六葉左	-10.6488
崑崙	-10.649
燠	-10.6491
暨	-10.6492
溪	-10.6492
晷	-10.6502
靈臺	-10.6503
釋詁文	-10.6503
二卷	-10.6509
王季	-10.6511
木也	-10.6511
其理	-10.6511
之意也	-10.6513
春秋之	-10.6514
曰然	-10.6516
庶幾	-10.6518
不改	-10.6527
如字一音	-10.6527
非禮也	-10.6528
歲星	-10.6531
帝堯	-10.6532
周頌	-10.6534
太師	-10.6545
作樂	-10.6552
坎離	-10.6554
愚按	-10.6557
曉得	-10.6558
二千	-10.6563
朱氏	-10.6563
吕反	-10.6574
京作	-10.6578
大壯	-10.6579
手又反	-10.6583
旁作	-10.6588
而求	-10.6589
乎其	-10.6589
足利本同註	-10.659
皆謂	-10.6593
者葢	-10.6599
有四	-10.66
至誠	-10.6603
而來	-10.6603
㬊淵錄第	-10.6604
不取	-10.6607
而行之	-10.6613
十七葉右	-10.6614
謂此	-10.6615
者以其	-10.6618
學記	-10.6621
得中	-10.6633
幽王	-10.6635
死者	-10.664
蔓	-10.6647
上有其字	-10.665
洞	-10.6652
說得	-10.6653
勃	-10.6654
永懐堂	-10.6655
槩	-10.6655
裔	-10.6657
幷	-10.6657
只是説	-10.6658
竅	-10.6658
賂	-10.6659
揆	-10.6659
纎	-10.666
製	-10.6661
扇	-10.6662
楹	-10.6665
瓠	-10.6667
雝	-10.6668
闑	-10.6669
子弟	-10.6669
松	-10.6673
桴	-10.6674
囘	-10.6678
大司樂	-10.6679
恵	-10.668
也服䖍	-10.6681
晨	-10.6681
墻	-10.6683
翁	-10.6685
禽獸	-10.6688
下言	-10.6689
直類	-10.669
芝	-10.6691
共工	-10.6693
用事	-10.6697
侯伯	-10.6699
虞書	-10.67
鄭司農云	-10.67
閏月	-10.67
不知何氏録	-10.67
千乗	-10.6704
人臣	-10.671
淮南	-10.6713
二陽	-10.6714
臥	-10.6715
考異	-10.672
星辰	-10.672
是書	-10.6727
後儒	-10.6728
本紀	-10.673
井田	-10.6731
后土	-10.6733
注及	-10.6734
婢亦反	-10.6736
是就	-10.6743
三者	-10.6743
物事	-10.675
大誥	-10.6752
辜	-10.6753
食亦	-10.6759
此其	-10.676
兩儀	-10.6762
二葉左	-10.6773
此以	-10.6775
賾	-10.6777
尚有	-10.6781
主婦	-10.6784
賢徧反	-10.6788
君子以	-10.6794
有道	-10.6794
字書	-10.6799
而見	-10.6801
様	-10.681
省文	-10.6813
於天子	-10.6816
諸書	-10.6817
盛也	-10.6821
所由	-10.6822
其家	-10.6823
虯	-10.6823
十五葉左	-10.6824
十三葉右	-10.6827
厎	-10.683
欲以	-10.6831
此爻	-10.6831
崔本	-10.6833
于万	-10.6833
尉	-10.6835
沽	-10.6835
第一章	-10.6839
此又	-10.6842
概	-10.6843
鬲	-10.6843
帑	-10.6843
尨	-10.6845
汲	-10.6845
奭	-10.6846
綽	-10.6848
勒	-10.685
媿	-10.685
施於	-10.6851
赫	-10.6851
駒	-10.6851
亦何	-10.6851
若有	-10.6852
一段	-10.6852
軸	-10.6854
霍	-10.6854
綦	-10.6855
二十四葉左	-10.6855
乾卦	-10.6855
十七行注	-10.6855
繪	-10.6856
生之	-10.6856
有餘	-10.6857
競	-10.6858
為大夫	-10.6859
妥	-10.6859
輻	-10.6862
庻	-10.6862
伐之	-10.6863
何不	-10.6863
十五行注	-10.6863
羔裘	-10.6863
蟄	-10.6864
璋	-10.6864
可以為	-10.6865
鋭	-10.687
滛	-10.6872
後面	-10.6877
合於	-10.688
朱子五經語類卷	-10.688
杜子春云當為	-10.6881
此二	-10.6886
沈僴録	-10.6887
則其	-10.689
長幼	-10.689
宋板永懐堂同	-10.6892
六字	-10.6893
不已	-10.6894
及注皆同	-10.6897
芳服	-10.6901
之餘	-10.6902
大率	-10.6904
歸於	-10.6917
太白	-10.6921
東海	-10.6925
下放此	-10.6926
音遍	-10.6928
韓詩云	-10.6931
人之所	-10.6933
有五	-10.6943
無以	-10.6945
備矣	-10.6946
神名	-10.6947
地官	-10.6948
形容	-10.6951
之次	-10.6957
靳	-10.696
三禮	-10.6964
王事	-10.6977
有天下	-10.6977
本末	-10.6978
三等	-10.6981
六葉右	-10.7007
何故	-10.701
立政	-10.7013
悼	-10.7013
多士	-10.7015
清明	-10.7016
婢面	-10.7016
襪	-10.7017
曼	-10.702
腊	-10.7022
今以	-10.7023
淮南子	-10.7024
十九葉右	-10.7027
蹄	-10.7028
其上	-10.7028
道者	-10.7032
滎	-10.7036
胙	-10.7037
糞	-10.7039
懌	-10.7039
公元年至	-10.704
疵	-10.7042
缶	-10.7046
所稱	-10.7048
瞿	-10.7048
無復	-10.7055
弃	-10.7056
漁	-10.706
萬世	-10.706
知禮	-10.7061
雙	-10.7062
稟	-10.7063
肇	-10.7064
鹿鳴	-10.7065
絹	-10.7066
者若	-10.707
魯之	-10.707
禜	-10.7072
蔵	-10.7075
字是	-10.7076
三十八	-10.708
用也	-10.7082
王城	-10.7082
杜子春云	-10.7082
召南	-10.7085
都是	-10.7085
字或	-10.709
豈可	-10.7093
并注同	-10.7095
中行	-10.7095
日用	-10.7098
此為	-10.7101
占者	-10.7101
異者	-10.7104
曹伯	-10.7104
人以	-10.711
稱王	-10.7114
之類皆	-10.7114
第五章	-10.7116
其職	-10.7117
胡氏	-10.7117
篇云	-10.7118
將軍	-10.7122
器也	-10.713
大義	-10.7132
相承	-10.7135
三十五	-10.7137
以相	-10.7138
未至	-10.7163
衛侯	-10.7166
諸子	-10.7168
相類	-10.7172
言不	-10.7174
於禮	-10.7186
不免	-10.7186
宋板永懷堂同	-10.7189
也春秋	-10.7194
三尺	-10.7194
其有	-10.7198
七行注	-10.7198
如字或	-10.72
子曰君子	-10.7203
三十二年	-10.7204
不肯	-10.7208
本誤	-10.7209
之民	-10.721
貞吉	-10.7215
有徳	-10.7215
但有	-10.7216
之孫	-10.7218
兾	-10.7221
肱	-10.7222
跛	-10.7223
弇	-10.7228
一是	-10.7228
騂	-10.7229
跂	-10.7229
槃	-10.7232
僂	-10.7232
不和	-10.7232
説命	-10.7232
馘	-10.7233
也賈逵	-10.7234
亦只是	-10.7234
閣	-10.7235
涼	-10.7239
故君子	-10.724
駭	-10.724
凍	-10.7241
驟	-10.7242
愷	-10.7243
岱	-10.7243
髠	-10.7244
隮	-10.7245
晢	-10.7248
譌	-10.7249
漿	-10.7253
贖	-10.7257
於旣	-10.7259
換	-10.726
五聲	-10.726
於地	-10.7263
八葉右	-10.7264
閲	-10.7266
立春	-10.7266
以興	-10.727
也二字	-10.7271
䜟	-10.7272
四葉右	-10.7272
禹治水	-10.7274
只得	-10.7277
下箋	-10.7279
赫赫	-10.728
地理志	-10.728
二十九葉	-10.728
日在	-10.7285
音釋	-10.7288
明明	-10.7293
風俗	-10.7295
多是	-10.7297
舊音	-10.7297
方言	-10.7303
未及	-10.7307
待洛	-10.7307
束脩	-10.7311
難曉	-10.7314
此所謂	-10.7317
左氏傳	-10.7324
命也	-10.7327
不可不	-10.7328
君陳	-10.7334
而終	-10.7337
造化	-10.7344
宗子	-10.7347
先師	-10.7348
第二章	-10.7348
十里	-10.7349
抄	-10.7351
何其	-10.7355
於民	-10.7356
也舍人注	-10.7366
之常	-10.7375
之問	-10.7379
否則	-10.7379
三寸	-10.7382
録中	-10.7383
荀子	-10.7383
禮器	-10.7386
者所以	-10.7387
晉人	-10.7397
應之	-10.7405
史官	-10.7407
祿	-10.741
蹶	-10.7416
百二十	-10.7418
陣	-10.7418
桷	-10.742
字當作	-10.7424
囊	-10.7426
萬民	-10.7426
爨	-10.7426
熾	-10.7428
杼	-10.743
櫜	-10.7434
異同	-10.7435
餒	-10.7437
檀	-10.7437
武庚	-10.7437
泮	-10.7438
寗	-10.7438
孽	-10.7439
巡守	-10.744
羨	-10.7444
十日	-10.7445
寐	-10.7446
撓	-10.7447
停	-10.7449
者如此	-10.7449
十六葉左	-10.745
輙	-10.7451
驛	-10.7451
太蔟	-10.7452
馴	-10.7452
諌	-10.7454
之失	-10.7454
盪	-10.7458
出車	-10.746
訪	-10.7461
武子	-10.7463
復有	-10.7464
四十五	-10.7465
二十八葉	-10.7466
宋永同	-10.7467
字註	-10.7467
琴瑟	-10.7468
有六	-10.7469
者曰	-10.7474
寒暑	-10.7476
彼列反	-10.7477
明年	-10.7477
不曾	-10.7481
不然則	-10.7483
先公	-10.7485
列國	-10.7486
疾也	-10.7491
八字	-10.7497
其分	-10.7505
其居	-10.7507
月日	-10.751
即此	-10.7512
古義	-10.7512
二十葉左	-10.752
徐扶	-10.7526
用夏正	-10.7531
詩者	-10.7537
而祭	-10.7541
德之	-10.7548
養也	-10.7548
一般	-10.7551
太祖	-10.7553
已之	-10.7553
中也	-10.7558
丈夫	-10.7559
始生	-10.7564
依字	-10.7568
厲王	-10.7576
各自	-10.7583
皆言	-10.7584
於朝	-10.7587
其所以	-10.759
而為之	-10.7595
中而	-10.7608
之過	-10.7609
列於	-10.7611
莧	-10.7616
十二葉左	-10.7616
舊本	-10.7621
四句	-10.7623
郢	-10.7626
踈	-10.7629
恚	-10.7629
罟	-10.7632
依注	-10.7633
説文云	-10.7635
脤	-10.7637
莘	-10.7637
之二	-10.7638
顓	-10.7638
豪	-10.7638
柯	-10.7642
鶴	-10.7643
彞	-10.7643
變也	-10.7643
罍	-10.7645
十六行注	-10.7647
後鄭	-10.7648
鉶	-10.7652
謂其	-10.7654
甚明	-10.7656
袍	-10.7656
九經	-10.7657
聰	-10.7657
眼	-10.7659
但以	-10.7661
投壺	-10.7665
兖州	-10.7666
長者	-10.7668
富貴	-10.7668
明王	-10.7669
所宜	-10.767
趙集傳	-10.7672
賁居曰	-10.7673
則可	-10.7674
四十八	-10.7676
其九	-10.7677
弑其君	-10.768
葉賀孫録	-10.7683
葉賀孫錄	-10.7683
人而	-10.7683
萬人傑錄	-10.7689
三作二	-10.769
底道理	-10.7692
序音義	-10.7694
不亦	-10.7695
若夫	-10.7696
乾文言第二節	-10.7699
字釋文	-10.7702
之耳	-10.7705
尹氏	-10.7709
於我	-10.7716
帥師	-10.772
柔順	-10.7729
填	-10.7733
人民	-10.7736
始終	-10.7739
水中	-10.774
記之	-10.7742
始得	-10.7749
謹按古本	-10.7752
因以	-10.7755
秦人	-10.7762
存乎	-10.7762
次之	-10.7765
唐虞	-10.7766
惡其	-10.7767
皆曰	-10.777
十六葉右	-10.7771
逺近	-10.7771
二十七葉	-10.7774
二日	-10.7776
故復	-10.7777
以樂	-10.7782
地之	-10.7783
庫	-10.7795
第五	-10.7796
亦為	-10.7799
先祖	-10.78
有不	-10.7802
六反	-10.7802
所能	-10.7802
有人	-10.7804
有大	-10.7804
此與	-10.7808
大火	-10.7814
亦如之	-10.7815
亦惟	-10.7824
孔疏	-10.7824
誤矣	-10.7824
嬪	-10.7827
問曰	-10.7829
酒誥	-10.783
搜	-10.7832
筋	-10.7834
聊	-10.7838
而入	-10.7841
之不可	-10.7842
用其	-10.7843
十七葉左	-10.7845
核	-10.7846
圻	-10.7848
鈴	-10.785
迨	-10.785
酳	-10.785
顙	-10.7851
二爻	-10.7853
誤從	-10.7854
天也	-10.7855
繫之	-10.7855
以義	-10.7856
迅	-10.7856
大夫之	-10.7857
學之	-10.7861
醬	-10.7862
緣	-10.7863
軹	-10.7864
冡	-10.7867
經典	-10.7869
書疏	-10.7871
五經異義	-10.7873
碎	-10.7875
奎	-10.7876
𦵏	-10.7877
稼穡	-10.7877
譬如	-10.7881
死也	-10.7881
當云	-10.7883
也凡	-10.7886
商頌	-10.7886
木名	-10.7887
黄義剛錄	-10.7889
坊記	-10.7889
不仁	-10.7893
占得	-10.7895
凡言	-10.7895
不絶	-10.7898
乾文言第一節	-10.7899
卒哭	-10.79
魯頌	-10.7904
元亨	-10.7907
乎曰	-10.7909
賢遍反下	-10.7913
堂上	-10.7913
無服	-10.7918
註同註	-10.792
鴆反	-10.7925
則與	-10.793
尺證反	-10.7931
未發	-10.7932
其父	-10.7933
其可	-10.7934
雖是	-10.7935
疏故	-10.7938
其器	-10.794
字亦	-10.7941
景公	-10.7945
三百六十	-10.7956
不一	-10.7958
于天	-10.7966
異姓	-10.7966
水之	-10.7966
此數	-10.7968
居良反	-10.7972
未之	-10.7978
其字	-10.7991
殺也	-10.7992
一嵗	-10.7993
中者	-10.7993
如字注同	-10.7994
自謂	-10.7994
順也	-10.7995
或以為	-10.7997
坤之	-10.7998
其政	-10.7999
及下	-10.8001
隨時	-10.8008
九江	-10.8009
皆非	-10.8012
大戴禮	-10.8019
靈公	-10.8023
言乎	-10.8024
音玄	-10.8026
終於	-10.8028
廿	-10.8029
室家	-10.8032
為仁	-10.8033
中和	-10.8034
壘	-10.8035
是其	-10.8041
改作	-10.8041
孺	-10.8045
隹	-10.8045
南山	-10.8047
也夫子	-10.8047
鄆	-10.8047
濮	-10.8048
嗜	-10.8048
萑	-10.8049
永懷堂	-10.8049
萬厯	-10.805
斛	-10.8051
詛	-10.8052
斃	-10.8052
舄	-10.8053
儆	-10.8054
耐	-10.8056
日之	-10.8058
榛	-10.8059
一葉左	-10.806
誄	-10.8061
但言	-10.8061
主於	-10.8061
羸	-10.8061
魚吕反	-10.8063
不聞	-10.8063
瓊	-10.8064
摧	-10.8064
不須	-10.8066
蜂	-10.8066
音佩	-10.8066
射之	-10.8067
莎	-10.8068
訝	-10.8068
九葉左	-10.807
溥	-10.8071
複	-10.8071
睹	-10.8071
軓	-10.8072
畎	-10.8072
裒	-10.8073
掃	-10.8073
其色	-10.8075
古禮	-10.8075
笏	-10.8077
諷	-10.8078
采地	-10.8082
大計	-10.8082
軒轅	-10.8082
一語	-10.8084
子匠	-10.8085
字彚	-10.8086
而實	-10.809
咸有一德	-10.809
事親	-10.8091
㸃	-10.8091
庠	-10.8091
康王	-10.8093
響	-10.8095
中之	-10.8095
管蔡	-10.8099
亦自	-10.8101
猶可	-10.8104
九五爻辭	-10.8104
二十五葉右	-10.8104
所聞	-10.8104
一畫	-10.811
厚也	-10.8111
可與	-10.8116
者三	-10.8124
有過	-10.8125
祭天	-10.8125
天官	-10.8126
仍作	-10.8133
難也	-10.8139
成其	-10.8146
和樂	-10.815
以言	-10.8152
不使	-10.8153
辨疑	-10.8154
豉	-10.8159
四寸	-10.8162
取諸	-10.8165
夏殷	-10.8167
相連	-10.8175
東門	-10.8178
間有	-10.8178
則吉	-10.818
伐鄭	-10.8182
三葉右	-10.819
可通	-10.8191
六葉左	-10.8199
音汝	-10.8199
兮反	-10.8217
鄭人	-10.8221
利用	-10.8224
八章	-10.8229
臣子	-10.8231
之下有也字	-10.8236
夏書	-10.8238
大計反	-10.8246
以制	-10.8246
謹按傳	-10.8246
尺二寸	-10.825
徇	-10.8252
詁	-10.8253
牒	-10.8253
以行	-10.8254
後有	-10.8255
之器	-10.826
蟻	-10.8262
坊	-10.8263
祉	-10.8266
惠王	-10.8266
餌	-10.8266
鄂	-10.8267
郵	-10.8269
中心	-10.8269
倅	-10.8271
下有也釋文	-10.8272
車馬	-10.8272
騏	-10.8273
菲	-10.8273
買反	-10.8273
曳	-10.8274
揄	-10.8274
之年	-10.8276
卦變	-10.8276
御覽	-10.8276
洫	-10.8278
韜	-10.8279
豎	-10.828
禋	-10.828
矧	-10.8282
虡	-10.8282
茍	-10.8282
稾	-10.8283
鑑	-10.8286
寔	-10.8286
縠	-10.8289
覯	-10.8289
裕	-10.8289
篚	-10.8289
寇	-10.829
棠	-10.8291
又謂	-10.8292
藏之	-10.8294
蟬	-10.8294
憎	-10.8295
匕	-10.8297
之教	-10.8297
兵車	-10.8303
㓜	-10.8303
雍州	-10.8303
義疏	-10.8305
昴	-10.8306
反徐又	-10.8306
冢宰	-10.8308
詩疏一之	-10.8309
艮其背	-10.831
之端	-10.8313
方言云	-10.8318
記者	-10.832
既有	-10.8322
國有	-10.8322
可知也	-10.8323
曷為	-10.8326
太王	-10.8326
致其	-10.833
注及下同	-10.8331
夷則	-10.8332
不由	-10.8339
清廟	-10.8343
公榖	-10.8344
宗人	-10.8345
者故	-10.8349
衆家	-10.8349
非聖人	-10.8352
秋分	-10.8353
時而	-10.8354
二者	-10.8359
盡其	-10.8359
天時	-10.8363
五葉左	-10.8364
志云	-10.8366
傳寫	-10.8366
子産	-10.8369
出而	-10.837
不說	-10.8372
後天	-10.8373
九疇	-10.8374
分野	-10.8378
成物	-10.8385
之盟	-10.8389
七葉左	-10.839
飾也	-10.839
反本又	-10.8393
之妙	-10.8394
之親	-10.8399
甲兵	-10.84
所求	-10.8403
若曰	-10.8403
西伯	-10.8411
沂	-10.8415
聚也	-10.8416
音基	-10.8429
一一	-10.8429
不思	-10.8435
第六	-10.8441
名之	-10.8442
黄㽦錄第	-10.8446
二南	-10.8459
於諸侯	-10.8465
喚	-10.847
論之	-10.847
緡	-10.8471
西海	-10.8473
矣問	-10.8475
昵	-10.8477
矣且	-10.848
解經	-10.8481
更有	-10.8483
王業	-10.8484
王肅云	-10.8484
則雖	-10.8484
盱	-10.8485
揜	-10.8489
禆	-10.8491
芋	-10.8491
駮	-10.8493
酏	-10.8494
也又曰	-10.8495
刖	-10.8496
彈	-10.8497
誠之	-10.8498
八葉左	-10.85
之言也	-10.8501
三軍	-10.8502
漫	-10.8502
知也	-10.8503
糧	-10.8504
坼	-10.8504
灑	-10.8505
救反	-10.8505
禴	-10.8507
珥	-10.851
事者	-10.8512
訴	-10.8512
之宜	-10.8512
冊	-10.8514
安國	-10.8514
氓	-10.8515
船	-10.8518
于況反	-10.8519
周南	-10.8523
人主	-10.8523
深衣	-10.8524
劍	-10.8525
禮書	-10.8527
起於	-10.8528
穿鑿	-10.8529
慙	-10.853
士喪禮	-10.853
𨽻	-10.8531
字與	-10.8533
下竝同	-10.8533
時有	-10.8536
揲蓍	-10.8537
匠人	-10.8542
君奭	-10.8543
有異	-10.8544
錯簡	-10.8544
而可	-10.8545
田獵	-10.8545
鄉射	-10.8546
陳氏	-10.8549
太公	-10.8551
聰明	-10.8554
行道	-10.8556
安知	-10.8556
朝聘	-10.8558
未免	-10.8558
孺子	-10.8559
過於	-10.8561
大王	-10.8562
火故	-10.8563
傳言	-10.8569
下章	-10.857
碩人	-10.8572
所景	-10.8574
何人	-10.8577
矣右	-10.858
三十一葉左	-10.8584
七日	-10.859
助祭	-10.859
劉氏	-10.8593
小者	-10.8593
此非	-10.8596
故得	-10.8598
辨之	-10.8609
此三	-10.8609
書法	-10.8609
左氏說	-10.861
否曰然	-10.8613
下有而字	-10.8617
也說文	-10.862
則民	-10.8622
一寸	-10.8627
方可	-10.8628
大有	-10.8635
若無	-10.8637
其情	-10.8642
形如	-10.8645
在其中矣	-10.8651
正義云	-10.8653
五葉右	-10.8653
二十一葉左	-10.866
存之	-10.8665
無禮	-10.8665
其在	-10.8666
仁也	-10.8668
書者	-10.8673
廉反	-10.8683
沿	-10.8685
殷之	-10.8695
粲	-10.8696
堂下	-10.8702
春分	-10.8703
象辭	-10.8707
之父	-10.8709
輈	-10.8709
元文下	-10.8709
於廟	-10.8711
七章	-10.8713
莠	-10.8714
非有	-10.8715
乾乾	-10.8715
扃	-10.8716
東井	-10.8717
枲	-10.8717
莫能	-10.8718
即以	-10.8718
序卦	-10.8718
惇	-10.8718
柞	-10.8718
岸	-10.8718
脛	-10.8719
其大	-10.8719
黻	-10.8719
在中	-10.8719
季子	-10.8722
腰	-10.8722
剔	-10.8724
吟	-10.8725
遄	-10.8725
殉	-10.8726
賻	-10.8726
繅	-10.8726
菅	-10.8726
繕	-10.8727
和也	-10.8728
臣下	-10.8729
贅	-10.8729
系	-10.873
旐	-10.8731
飫	-10.8731
鹵	-10.8731
而不敢	-10.8732
梗	-10.8734
蝕	-10.8738
綿	-10.874
皓	-10.8741
五刑	-10.8744
四百	-10.8745
師古曰	-10.8746
伯姬	-10.8747
一國	-10.8748
者多	-10.8748
貌下有也	-10.8749
宫中	-10.875
暘	-10.8752
荘	-10.8752
位而	-10.8755
演	-10.8755
至今	-10.8755
趙商問	-10.8758
二十二葉左	-10.8759
閟宫	-10.8761
訓詁	-10.8764
鶉火	-10.8764
秦誓	-10.8764
四葉左	-10.8766
序云	-10.8767
像	-10.877
王莽	-10.8771
所類	-10.8773
傳之	-10.8774
林鍾	-10.8775
讀若	-10.8777
不知何	-10.8779
由此	-10.878
而王	-10.878
側皆	-10.8783
千乘	-10.8785
行事	-10.8788
則夢	-10.8789
史記注二	-10.8796
為長	-10.8798
歸父	-10.8805
耕反	-10.8807
感應	-10.8807
改正	-10.8814
葉四行注	-10.8814
記作	-10.8817
魯國	-10.8825
大史	-10.8826
這般	-10.8828
之野	-10.8829
禮有	-10.8833
今觀	-10.8835
書名	-10.8837
音試	-10.8841
鄭玄注	-10.8842
成風	-10.8844
生而	-10.8849
郭璞	-10.8854
也子曰	-10.8858
至矣	-10.8861
陽也	-10.8864
隂陽之	-10.8864
事物	-10.8867
其正	-10.8869
子云	-10.8872
語也	-10.8875
是那	-10.8882
以治	-10.8883
神也	-10.8885
六宗	-10.8891
伊川説	-10.8892
閔公	-10.8892
賜也	-10.8893
庚子	-10.8895
變風	-10.8896
不死	-10.8897
所角	-10.8899
本今無	-10.8901
小大	-10.8901
欽定四庫全書七經孟子考文補遺卷	-10.8901
此心	-10.8911
典禮	-10.8918
童子	-10.8921
不樂	-10.8922
槀	-10.8923
閒厠	-10.893
徃來	-10.8931
與天地	-10.8933
其體	-10.8934
很	-10.8937
不曽	-10.8938
繭	-10.894
紓	-10.8941
蚩尤	-10.8942
有也字	-10.8942
陘	-10.8943
縊	-10.8945
瘳	-10.8946
襌	-10.8946
什	-10.8947
不載	-10.8947
盂	-10.8948
鏤	-10.8948
再拜	-10.8951
狡	-10.8951
睢	-10.8952
容反	-10.8952
熏	-10.8954
反司	-10.8956
不孝	-10.8956
毳	-10.8957
椎	-10.8957
殳	-10.8957
朂	-10.8958
礿	-10.8958
膴	-10.8959
斐	-10.8959
羿	-10.8959
鄭志	-10.896
羈	-10.8962
胖	-10.8962
兩字	-10.8963
當然	-10.8965
簿	-10.8968
而民	-10.8968
瑣	-10.8969
苖	-10.897
河東	-10.8971
之仁	-10.8972
考異足利本傳	-10.8972
彛	-10.8974
潁	-10.8977
乃命	-10.8977
据	-10.8978
谷風	-10.8978
二葉右	-10.8979
皃	-10.8979
腓	-10.8979
號曰	-10.8986
梓材	-10.8987
歸之	-10.8987
椁	-10.8988
京房	-10.8989
父母之	-10.8989
兎	-10.8989
冡宰	-10.8989
旡	-10.899
泮水	-10.899
明孫㲄編	-10.8991
心之	-10.8993
使民	-10.8993
邠	-10.8993
牽牛	-10.8996
字當	-10.8998
補遺宋板傳	-10.9001
揚雄	-10.9003
下及注同	-10.9003
出于	-10.9005
熒惑	-10.9006
後之	-10.9007
只有	-10.9007
何得	-10.902
自此	-10.9024
後並同	-10.9029
也馬傳	-10.903
官名	-10.9031
太常	-10.904
居業	-10.9044
而稱	-10.9045
始于	-10.9045
氏作	-10.9046
所類反	-10.9049
等語	-10.9052
大司徒	-10.9052
為民	-10.9058
革反	-10.9058
政教	-10.906
之善	-10.9065
底物事	-10.9067
吉也	-10.9075
自立	-10.9078
周天	-10.908
成湯	-10.9087
未嘗不	-10.9089
音境	-10.909
憂也	-10.9092
音岳	-10.9093
悉薦	-10.9094
之遺	-10.9101
令人	-10.9104
至其	-10.9105
前此	-10.9107
經義	-10.9108
不立	-10.9114
監本作	-10.9115
同人	-10.9118
罕	-10.9131
者蓋	-10.9137
者矣	-10.9141
而書	-10.9155
可為	-10.9156
案郭氏京云	-10.9157
七葉右	-10.9158
使臣	-10.9163
顚	-10.9165
字皆作	-10.9173
玊	-10.9175
蘧	-10.9175
一讀	-10.9176
揮	-10.9176
雹	-10.9177
篡	-10.9179
下孟反下	-10.9181
是年	-10.9182
不幸	-10.9183
髽	-10.9184
孫炎	-10.9184
仞	-10.9185
莅	-10.9186
渥	-10.9186
又何	-10.9188
駢	-10.919
物而	-10.9191
續字彚	-10.9192
北海	-10.9192
葭	-10.9193
正者	-10.9195
諼	-10.9195
巴	-10.9195
楫	-10.9196
塊	-10.9197
鄭注云	-10.9197
徐甫	-10.9197
傚	-10.9197
為後	-10.9198
音煩	-10.9198
未敢	-10.9199
慤	-10.9199
瑱	-10.9199
二十八葉右	-10.92
盲	-10.92
徳也	-10.92
毅	-10.92
澮	-10.92
剡	-10.9201
嬰	-10.9201
邸	-10.9202
成於	-10.9202
六曰	-10.9202
珪	-10.9203
覃	-10.9203
夏時	-10.9204
鳶	-10.9204
澗	-10.9205
額	-10.9207
㨗	-10.9207
熈	-10.9208
絀	-10.9209
諂	-10.9209
綃	-10.9211
眡	-10.9211
韠	-10.9212
噐	-10.9214
淖	-10.9214
銖	-10.9215
僎	-10.9215
多矣	-10.9216
棗	-10.9218
雨雪	-10.9223
癸亥	-10.9223
溝洫	-10.9227
鬭	-10.9228
湯誥	-10.9228
正字	-10.923
鯉	-10.9232
己丑	-10.9235
如字又音	-10.9236
四尺	-10.9243
艱難	-10.9243
下旁加	-10.9245
音扶	-10.925
孟春	-10.9257
與其	-10.9259
小象	-10.9259
易曉	-10.926
八百	-10.9268
十三經	-10.927
陸氏	-10.9272
如何是	-10.9273
百篇	-10.9277
是用	-10.928
許云	-10.928
父兄	-10.9281
篇名	-10.9281
君子之道	-10.9283
德也	-10.9284
商書	-10.9284
緯書	-10.9286
自為	-10.9288
不詳	-10.929
於理	-10.9294
不著	-10.9299
一半	-10.9299
治國	-10.93
合也	-10.9303
正之	-10.9304
一等	-10.9305
於下	-10.9306
釋之	-10.9307
下衍	-10.9309
無文	-10.9312
思之	-10.9316
為句	-10.9329
天人	-10.9329
而天下	-10.9339
可畏	-10.934
漢時	-10.9343
當之	-10.9343
無疆	-10.9346
之目	-10.9346
巧言	-10.9354
之南	-10.9358
執之	-10.9359
棣	-10.9364
待洛反	-10.9364
殷人	-10.9364
六行注	-10.937
古書	-10.9375
亦不可	-10.9376
僞反	-10.9376
母弟	-10.9376
小學	-10.9376
戀	-10.9377
大子	-10.938
好學	-10.9386
如齊	-10.9386
亦謂	-10.9394
件	-10.9397
而用	-10.9398
無間	-10.94
也君子	-10.9401
終身	-10.9403
下民	-10.9404
之承	-10.9408
臣之	-10.9409
又是	-10.9411
委曲	-10.9415
團	-10.9417
菟	-10.942
岀	-10.9423
戸臘	-10.9425
一家	-10.9425
捕	-10.9428
簟	-10.9429
芾	-10.9431
逞	-10.9432
茨	-10.9432
阼	-10.9432
窆	-10.9432
媒	-10.9434
皁	-10.9435
螟	-10.9436
愿	-10.9436
怙	-10.9436
芸	-10.9438
陪	-10.9438
洵	-10.9438
禳	-10.9438
爽	-10.944
合樂	-10.9441
隤	-10.9442
百六十	-10.9445
本是	-10.9446
極也	-10.9446
拇	-10.9447
觥	-10.9447
吞	-10.9448
苓	-10.9451
局	-10.9452
汲汲	-10.9453
衢	-10.9454
勁	-10.9455
虹	-10.9456
騰	-10.9456
列反	-10.9458
字疑衍	-10.946
模	-10.946
飬	-10.9461
巾車	-10.9462
司寇	-10.9463
訂	-10.9465
又自	-10.9466
綬	-10.9467
卦中	-10.9467
朝覲	-10.9471
迺	-10.9473
召誥	-10.9474
㧞	-10.9474
折衷	-10.9475
以從	-10.9477
貴於	-10.9483
淮夷	-10.9484
不作弗	-10.9484
至徳	-10.9489
疑衍字	-10.9492
長大	-10.9493
二十六葉右	-10.9493
以俟	-10.9495
文選注	-10.9496
百八十	-10.9498
反說文	-10.9499
附㑹	-10.9504
此乃	-10.9504
心也	-10.9505
絶之	-10.9506
了又	-10.9507
白虎通	-10.951
又與	-10.9512
反本亦作	-10.9512
衞侯	-10.9517
六藝	-10.9518
之風	-10.9518
顔氏	-10.952
天帝	-10.9524
漢興	-10.9526
雜卦	-10.9529
異也	-10.953
於周	-10.953
無而字	-10.9534
者雖	-10.9536
第七	-10.9546
于萬	-10.9547
丁亂反	-10.9549
穆王	-10.955
在東	-10.9554
之時也	-10.9555
音洛下	-10.9556
七經孟子考文補遺卷	-10.9558
四十九	-10.956
昊	-10.9561
實也	-10.9562
則亦	-10.9567
讀之	-10.9568
長短	-10.9569
山名	-10.957
明德	-10.9573
豆反	-10.9575
未安	-10.9575
周正	-10.958
遼	-10.9593
雅云	-10.9594
為臣	-10.9601
詩照反	-10.962
則已	-10.9621
何時	-10.9623
日至	-10.9627
四年傳	-10.963
濵	-10.963
而治	-10.9639
六尺	-10.9641
齊師	-10.9643
到那	-10.9648
其俱	-10.9648
為王	-10.9649
居東	-10.9652
羌吕	-10.9652
一度	-10.9658
並非	-10.9665
者或	-10.9675
變則	-10.9675
甑	-10.9676
蛤	-10.9679
堇	-10.968
馭	-10.9682
挑	-10.9682
淡	-10.9683
或如字	-10.9684
啼	-10.9684
伯夷	-10.9684
鞶	-10.9685
涂	-10.9685
止之	-10.9687
戕	-10.9688
浦	-10.969
自明	-10.969
相接	-10.9692
檻	-10.9693
大戴	-10.9694
苕	-10.9694
讀者	-10.9694
餓	-10.9697
力報反	-10.9699
汾	-10.97
襃	-10.9702
相去	-10.9704
祖廟	-10.9704
譎	-10.9705
超	-10.9706
曜	-10.9707
廪	-10.9707
榭	-10.9707
少昊	-10.9708
左手	-10.9712
五寸	-10.9712
而不及	-10.9712
㑹于	-10.9713
能盡	-10.9713
地也	-10.9714
治水	-10.9715
渴	-10.9717
炮	-10.9719
附庸	-10.9721
不得不	-10.9722
令尹	-10.9722
音泰下	-10.9725
歸妹	-10.9725
葉二行注	-10.9727
荆州	-10.9727
黄義剛録	-10.9731
之運	-10.9731
顔色	-10.9732
下大夫	-10.9733
五日	-10.9733
濟濟	-10.9736
無作亡	-10.9736
召伯	-10.9738
互體	-10.9738
初學記	-10.9739
班固	-10.9741
逺也	-10.9741
當爲	-10.9742
大者	-10.9746
來者	-10.9747
而弗	-10.9751
仲春	-10.9754
梓人	-10.9754
之差	-10.9755
與同	-10.9755
有德	-10.9758
大槩	-10.9763
不似	-10.9767
施之	-10.9768
平平	-10.9773
至是	-10.9774
無明文	-10.9776
初無	-10.978
直用反	-10.9784
夏四月	-10.9784
無子	-10.9787
後漢書	-10.9789
此經	-10.9794
為水	-10.9794
从木	-10.9797
經云	-10.98
戸嫁	-10.9801
古外反	-10.9801
曰吾	-10.9801
五榖	-10.9806
下有其字	-10.981
周召	-10.9811
行而	-10.9813
之易	-10.9819
為地	-10.9824
裏面	-10.9827
未為	-10.9827
無他	-10.9827
載師	-10.9832
國子	-10.9837
立於	-10.9842
補遺一本	-10.9842
皆與	-10.9843
大車	-10.9845
食亦反	-10.9848
繼之	-10.985
二十九葉右	-10.9857
也所以	-10.9857
耳目	-10.9861
春夏	-10.9861
大司馬	-10.9863
此條	-10.9868
沈音	-10.9886
亦猶	-10.989
必不	-10.9892
不可為	-10.9896
不説	-10.9897
四時之	-10.9907
看得	-10.991
天而	-10.9917
者自	-10.9918
皐	-10.9918
是指	-10.9922
小戴	-10.9923
不得其	-10.9924
鵲	-10.9924
有孚	-10.9924
位也	-10.9925
樵	-10.9926
磔	-10.9927
不逺	-10.9929
不顧	-10.9929
郎反	-10.9932
埸	-10.9934
腫	-10.9935
者下有也字	-10.9935
狃	-10.9935
之可	-10.9938
易以	-10.9939
不去	-10.9939
烟	-10.9942
頎	-10.9943
蔚	-10.9944
齧	-10.9944
音亮	-10.9945
盎	-10.9945
蠃	-10.9946
臻	-10.9946
䜴	-10.9947
陜	-10.9948
韎	-10.9948
柷	-10.9948
梨	-10.9948
谿	-10.9949
徳者	-10.995
鄢	-10.995
筥	-10.995
耜	-10.995
沾	-10.9951
何以知	-10.9952
朽	-10.9952
誼	-10.9952
常也	-10.9953
方有	-10.9955
徐又音	-10.9955
饎	-10.9956
爛	-10.9956
儺	-10.9957
封疆	-10.9957
鎛	-10.9957
鷹	-10.9957
巡狩	-10.9957
辦	-10.996
護	-10.9961
憧憧	-10.9962
也也上有者字足利本同	-10.9962
甥	-10.9966
収	-10.9967
惟有	-10.9967
帝嚳	-10.9969
十月之交	-10.9971
返	-10.9972
下當脫	-10.9974
恰	-10.9975
而長	-10.9975
其法	-10.9977
㳺	-10.9977
潜	-10.9977
處也	-10.9977
日月星辰	-10.9979
徃徃	-10.9982
姑洗	-10.9986
董銖錄	-10.9987
此卦	-10.9987
頴	-10.9988
宋本春秋疏二十	-10.9989
三十四	-10.9989
識之	-10.9991
鏡	-10.9992
丞相	-10.9994
三十一葉	-10.9995
都鄙	-10.9998
為中	-10.9999
如此説	-10.9999
釋詁云	-11
具反	-11.0002
大故	-11.0013
用兵	-11.0014
髙下	-11.002
九六	-11.0021
九寸	-11.0022
以應	-11.0022
一體	-11.0024
之東	-11.0024
内史	-11.0026
乾道	-11.003
爲同	-11.0032
襄王	-11.0036
變通	-11.0037
徳行	-11.0041
傳文	-11.0043
不祭	-11.0043
行禮	-11.0046
一隂	-11.0048
引詩	-11.005
乃復	-11.0052
正其	-11.0054
一尺	-11.0058
庶母	-11.0059
秋冬	-11.0059
公羊疏	-11.0061
在後	-11.0061
方伯	-11.0061
刺之	-11.0063
天地間	-11.0067
北斗	-11.0068
鄭玄云	-11.0072
右繫辭	-11.0075
之生	-11.0083
若今	-11.0087
於中	-11.0087
冉	-11.0088
是自	-11.0094
我心	-11.0098
然後可以	-11.0099
學校	-11.01
鄭衆	-11.0103
一分	-11.0104
息也	-11.0104
正如	-11.0107
二隂	-11.0108
不誠	-11.0113
有子	-11.0113
耳若	-11.0119
者多矣	-11.0121
二音	-11.0124
到得	-11.013
來聘	-11.0133
祭也	-11.0137
兄弟之	-11.014
林云	-11.014
彼此	-11.0147
祭法	-11.0148
無罪	-11.0149
成周	-11.0154
這是	-11.0171
格物	-11.0175
為陽	-11.0175
暉	-11.0175
于齊	-11.0175
遷殷	-11.0176
篇末	-11.018
注下同	-11.0182
也但	-11.0182
不可得而	-11.0183
秬	-11.0189
刮	-11.019
為氏	-11.0191
柎	-11.0193
下三本有也	-11.0195
羹	-11.0195
初佳反	-11.0195
矣其	-11.0196
蟊	-11.0196
音類	-11.0197
祖考	-11.0197
墠	-11.02
茲	-11.02
梧	-11.0203
音咨	-11.0203
忱	-11.0203
縿	-11.0203
以證	-11.0205
春秋書	-11.0205
耒	-11.0206
同盟	-11.0206
之禍	-11.0208
凱	-11.0208
人不	-11.0208
掖	-11.0208
隼	-11.0209
之先	-11.0209
塾	-11.0211
甕	-11.0213
泗	-11.0214
紼	-11.0215
纍	-11.0215
脣	-11.0215
構	-11.0215
懇	-11.0216
詩書	-11.0216
於鴆	-11.0217
蕪	-11.0218
兀	-11.0219
琅邪	-11.0219
叩	-11.022
亦誤	-11.0221
絮	-11.0222
謗	-11.0223
譴	-11.0223
粱	-11.0223
力報	-11.0225
門内	-11.0225
栢	-11.0226
軷	-11.0227
肫	-11.0227
則能	-11.0229
迴	-11.0229
反本或	-11.0231
迄	-11.0233
羊朱	-11.0235
沐	-11.0236
其來	-11.0236
屈伸	-11.0239
日新	-11.024
嬉	-11.0242
動則	-11.0243
孔穎達	-11.0245
豈得	-11.0246
彭蠡	-11.0248
悔吝	-11.0248
一隂一陽	-11.0252
春正月	-11.0253
為博士	-11.0257
陽冰	-11.0259
路寢	-11.026
色主	-11.0266
必利反	-11.0269
稽首	-11.027
原本	-11.0271
孝反	-11.0272
夏商	-11.0275
人作民	-11.028
天下之人	-11.0283
而不言	-11.0286
上有而字	-11.0286
已成	-11.0289
是說	-11.029
言君子	-11.0293
之大者	-11.0297
修身	-11.0301
法則	-11.0302
成而	-11.0303
之西	-11.0303
在西	-11.0304
通於	-11.0307
變為	-11.031
此一節	-11.0314
不克	-11.0317
上九爻辭	-11.0318
烝民	-11.032
而動	-11.0322
時節	-11.033
文姜	-11.0332
章勇	-11.0342
坤卦	-11.0344
來歸	-11.0345
古禾	-11.0353
助也	-11.0353
中興	-11.0355
人名	-11.0357
遐嫁	-11.0358
四行注	-11.0363
亦可以	-11.0367
書傳	-11.0369
不可解	-11.0371
矣何	-11.0371
無者字	-11.0371
駁曰	-11.0372
皮弁	-11.0374
自言	-11.0383
所及	-11.0383
字書作	-11.0385
大矣	-11.0386
文選注十	-11.0388
皆得	-11.0388
底事	-11.039
説卦	-11.0391
氣之	-11.0392
上章	-11.0396
皇帝	-11.0397
往往	-11.0397
改之	-11.0401
天地之心	-11.0404
紙	-11.0416
讀詩	-11.0418
近於	-11.0419
合而	-11.0422
集注	-11.0425
昏禮	-11.0425
政治	-11.0427
便説	-11.0433
字衍	-11.044
所説	-11.0443
又非	-11.045
褐	-11.0459
凌	-11.0463
櫛	-11.0465
煇	-11.0466
恪	-11.0467
縳	-11.0469
黏	-11.0469
丁丈反下	-11.0471
楚之	-11.0471
鴟	-11.0472
些	-11.0472
桎	-11.0475
皮寄	-11.0476
蝸	-11.0476
衾	-11.0478
俠	-11.0478
澆	-11.0479
子忽	-11.0481
扑	-11.0482
評	-11.0482
簡文云	-11.0483
恊	-11.0483
下同釋文	-11.0484
燿	-11.0484
苻	-11.0484
繞	-11.0486
剖	-11.0487
其制	-11.0489
夙	-11.049
俶	-11.049
此之謂也	-11.049
為災	-11.0491
咏	-11.0492
皆用	-11.0492
絇	-11.0492
支反	-11.0492
肆夏	-11.0493
鞞	-11.0493
趙盾	-11.0494
耗	-11.0494
淹	-11.0494
汋	-11.0495
繫於	-11.0496
胷	-11.0497
酷	-11.0498
岡	-11.0499
頂反	-11.05
八曰	-11.0501
反對	-11.0502
二章疏	-11.0502
所欲	-11.0502
廓	-11.0506
洞庭	-11.0506
魯公	-11.0506
揚之水	-11.0509
州吁	-11.0509
京兆	-11.0509
市志	-11.051
夙夜	-11.0512
以喻	-11.0513
下有也下傳	-11.0514
夾鍾	-11.0515
職方氏	-11.0516
帖	-11.0516
恐懼	-11.0519
音壬	-11.0519
既夕	-11.0519
季秋	-11.052
豉反	-11.052
為異	-11.0521
寺人	-11.0524
邉	-11.0526
今按	-11.0527
而食	-11.053
仲弓	-11.0531
作詩	-11.0532
戰于	-11.0532
患難	-11.0535
二十九葉左	-11.0538
又復	-11.0538
成就	-11.0547
夏后	-11.0548
甫田	-11.0549
七寸	-11.0549
一處	-11.055
何居	-11.055
泰伯	-11.0554
第七章	-11.0558
今文無	-11.0561
八寸	-11.0565
時作	-11.0571
禮記作	-11.0572
一理	-11.0573
大亨	-11.0574
便自	-11.0577
十二卷	-11.0581
得以	-11.0582
治天下	-11.0583
之亂	-11.0583
入門	-11.0585
原有	-11.0595
孔子之	-11.06
注疏	-11.0604
矣乃	-11.0605
不能自	-11.0606
轉反	-11.0607
時便	-11.0611
不受	-11.0614
各以其	-11.0617
案此	-11.0617
之私	-11.0618
職方	-11.0618
大意	-11.0619
燕燕	-11.0619
上天	-11.0619
山之	-11.0622
上説	-11.0632
曰某	-11.0632
象形	-11.0637
解之	-11.0639
元吉	-11.0646
舊唐書四	-11.065
五年傳	-11.0651
亦如此	-11.066
不起	-11.0662
其類	-11.0663
注曰	-11.0664
之役	-11.0668
儒者	-11.067
重也	-11.067
周室	-11.067
本字	-11.0675
水也	-11.0675
進之	-11.0679
之業	-11.0682
二十五葉左	-11.0686
息列反	-11.0687
然且	-11.0689
第三十	-11.0696
故夫子	-11.0697
從容	-11.0713
匠	-11.0715
不害	-11.0716
正朔	-11.0716
寺	-11.0725
文帝	-11.0727
詘	-11.0727
菊	-11.0727
七政	-11.0728
齍	-11.0732
其下	-11.0734
如初	-11.0737
酋	-11.0739
大宗伯	-11.074
抄本	-11.074
吠	-11.0741
遟	-11.0742
鞅	-11.0742
擔	-11.0745
􁂒	-11.0745
於王	-11.0746
輟	-11.0747
液	-11.0748
璜	-11.0748
沓	-11.0749
皇矣	-11.0749
騷	-11.075
言行	-11.075
合為	-11.0751
霤	-11.0752
烖	-11.0754
沸	-11.0754
剽	-11.0755
褊	-11.0755
而進	-11.0755
彪	-11.0755
堆	-11.0756
揉	-11.0757
虎賁	-11.0757
疫	-11.0757
譚	-11.0758
伺	-11.0758
左一行	-11.0759
苹	-11.0759
郁	-11.0759
旟	-11.0759
糜	-11.0759
斿	-11.0759
釡	-11.076
為治	-11.076
稠	-11.0761
愉	-11.0763
捄	-11.0763
煖	-11.0764
墾	-11.0764
此本	-11.0765
天下之大	-11.0768
春王正月	-11.0769
嵗星	-11.0769
張逸問	-11.0769
榦	-11.0771
鄶	-11.0771
大明	-11.0771
慘	-11.0771
欲使	-11.0772
嵩	-11.0772
儲	-11.0773
蟋蟀	-11.0773
阼階	-11.0773
晋	-11.0774
置之	-11.0775
可食	-11.0775
偶然	-11.0776
然此	-11.0781
影宋本集韻	-11.0781
鳲鳩	-11.0781
繋	-11.0782
贏	-11.0783
陳注	-11.0784
殃	-11.0785
祝融	-11.0786
牧誓	-11.0786
嬰齊	-11.0787
卽	-11.0787
扐	-11.0789
其形	-11.079
属	-11.079
也一本	-11.079
中軍	-11.079
番	-11.0791
巛	-11.0791
羙	-11.0794
國之君	-11.0795
文王世子	-11.0796
黄㽦録	-11.0796
司馬本作	-11.0796
於魯	-11.0798
重耳	-11.0799
此便是	-11.0799
秋七月	-11.0801
引作	-11.0802
求其	-11.0804
􁂒(	-11.0805
无所	-11.0807
矣又	-11.0808
諡法	-11.0808
此章言	-11.0809
謹按註	-11.0813
為貴	-11.0814
詩序	-11.0818
化為	-11.0822
也况	-11.0824
河内	-11.0824
下疑脱	-11.0824
曾子問	-11.0827
以知	-11.0828
度也	-11.0835
舜之	-11.0837
升降	-11.0838
窮理	-11.0839
之門	-11.0842
表記	-11.0842
失禮	-11.0844
建寅	-11.0845
存者	-11.0845
更不	-11.0848
可見矣	-11.085
音博	-11.0851
南海	-11.0853
刀反	-11.0854
二五	-11.0857
君子不	-11.086
自作	-11.086
五千	-11.0863
日月之	-11.0864
似嗟反	-11.0864
孔壁	-11.0865
信之	-11.0865
上公	-11.0866
意者	-11.0868
賜之	-11.0869
四十二	-11.0872
經者	-11.0873
字皆	-11.0875
乎且	-11.089
而致	-11.0891
自古	-11.0893
百畝	-11.0897
音餘下	-11.09
此處	-11.0902
莫之	-11.0903
誤以	-11.0904
語之	-11.0905
方能	-11.0908
六寸	-11.091
百一十	-11.0912
離為	-11.0913
也或曰	-11.0915
平公	-11.0915
庫門	-11.0919
六百	-11.092
之比	-11.0922
類也	-11.0929
十篇	-11.0932
之好	-11.0934
仁人	-11.0942
三十葉	-11.0944
其能	-11.0949
於前	-11.0949
則否	-11.095
於旣反	-11.0955
丈反	-11.0967
燮	-11.097
而始	-11.0972
大象	-11.0974
將去	-11.0976
蜀才	-11.098
反注及	-11.0982
祭名	-11.0982
敬之	-11.0983
王肅作	-11.0984
不得已	-11.0984
今本作	-11.0985
無異	-11.0989
註謂	-11.099
而小	-11.0991
音附	-11.0991
不降	-11.0992
大祝	-11.0995
二年傳	-11.101
作易	-11.101
學易	-11.101
二十七葉右	-11.1013
色白	-11.1015
多有	-11.1019
逺矣	-11.102
繢	-11.102
跣	-11.1021
五祀	-11.1024
其初	-11.1026
釣	-11.1028
儼	-11.1029
揔	-11.1032
在我	-11.1034
廏	-11.1034
甗	-11.1036
寂	-11.1038
撻	-11.1039
覿	-11.1039
蕡	-11.1039
纊	-11.1039
如羊	-11.104
錡	-11.1041
偉	-11.1041
濩	-11.1043
洋洋	-11.1044
迪	-11.1044
鏗	-11.1044
諶	-11.1045
髙明	-11.1045
麛	-11.1045
遞	-11.1046
藍	-11.1046
情性	-11.1046
畛	-11.1047
蝗	-11.1047
古今字	-11.1049
麕	-11.1049
膾	-11.1049
祓	-11.1049
蚳	-11.105
珽	-11.105
是聖人	-11.105
棐	-11.1051
慧	-11.1052
潞	-11.1052
和之	-11.1052
慾	-11.1053
闡	-11.1053
懋	-11.1054
周家	-11.1054
遂人	-11.1054
常人	-11.1055
扶問	-11.1056
鞫	-11.1056
古卯	-11.1056
蠆	-11.1056
租	-11.1057
詹	-11.1057
茆	-11.1057
輴	-11.1058
采菽	-11.106
荀爽	-11.1061
𤓰	-11.1062
冩	-11.1063
寃	-11.1064
䘏	-11.1065
矣哉	-11.1065
擁	-11.1065
中候	-11.1065
掣	-11.1066
色也	-11.1067
科斗	-11.1067
紏	-11.1067
殁	-11.1067
我之	-11.1069
閩	-11.1069
悠悠	-11.107
髙誘曰	-11.1071
絡	-11.1071
三禮圖	-11.1071
集韻	-11.1074
蕩蕩	-11.1076
唐石經	-11.1077
魚麗	-11.1078
女作汝	-11.1078
太宰	-11.108
賈公彦	-11.108
㒺	-11.1081
座	-11.1083
丁歷反	-11.1083
朔日	-11.1084
不曉	-11.1084
太傅	-11.1085
殊不知	-11.1087
考異足利本經	-11.1088
溫	-11.1088
之重	-11.109
為惡	-11.1094
楊道夫録	-11.1097
志於	-11.1097
注補後漢書	-11.1098
鄭本	-11.1098
宰我	-11.1103
因而	-11.1103
王所	-11.1103
首尾	-11.111
不祥	-11.1111
宣帝	-11.1115
義同	-11.1115
老陽	-11.1115
則天下	-11.1117
當如此	-11.1117
大道	-11.1119
沈云	-11.1121
秦漢	-11.1121
許多道理	-11.1123
武帝	-11.1124
其常	-11.1127
急也	-11.113
小戎	-11.1132
也薛章句	-11.1133
方百里	-11.1134
樊注	-11.1134
八卦之	-11.1138
其樂	-11.1139
白虎	-11.114
邑也	-11.1147
乗馬	-11.1151
之樹	-11.1152
中節	-11.1154
廟中	-11.1154
萬厯本	-11.1154
不廢	-11.1158
私意	-11.116
七尺	-11.1161
出注	-11.1162
特牲	-11.1164
稱子	-11.1164
出也	-11.1165
實則	-11.1171
以共	-11.1171
木之	-11.1176
相通	-11.1183
人人	-11.1184
子六	-11.1185
而无	-11.1187
略反	-11.119
於心	-11.1191
死生	-11.1193
以觀	-11.1194
度量	-11.1195
小人之	-11.1196
也周禮	-11.1197
夏曰	-11.1201
也廣雅云	-11.1202
十七篇	-11.1205
相合	-11.1208
三皇	-11.121
無形	-11.121
上生	-11.1211
四十一	-11.1211
經文作	-11.1212
先儒謂	-11.1212
二十七葉左	-11.1214
一説	-11.1215
八年傳	-11.1216
鹹	-11.1218
只説	-11.1219
申志	-11.122
先言	-11.1221
重言	-11.1222
之效	-11.1223
相生	-11.1224
漢志作	-11.1224
如字下	-11.1224
也也上有	-11.1226
美之	-11.1228
這裏	-11.123
水出	-11.1231
以養	-11.1233
諸侯不	-11.1236
子貢曰	-11.124
一言	-11.1241
南宫	-11.1243
勿用	-11.125
四分	-11.1253
音導	-11.1256
爲韻	-11.1258
四篇	-11.1262
自見	-11.1262
祖父	-11.1262
三危	-11.127
在内	-11.1271
又引	-11.1273
之别	-11.1274
也又云	-11.1274
丁浪反	-11.1275
使我	-11.1275
寡人	-11.1279
為國	-11.128
第十	-11.1282
可使	-11.1283
建本	-11.1286
何哉	-11.1289
也徐	-11.1291
以別	-11.1292
四十四	-11.1294
之妻	-11.1298
是知	-11.1298
字本	-11.1301
一身	-11.1302
裡	-11.1304
則失	-11.1307
用心	-11.1308
四十六	-11.1309
下二本有也	-11.131
震為	-11.131
以立	-11.1311
本今作	-11.1311
聖王	-11.1313
瘞	-11.1313
三卿	-11.1314
若謂	-11.1316
治民	-11.132
橈	-11.132
斝	-11.1321
捧	-11.1323
代之	-11.1324
六鄉	-11.1325
沫	-11.1327
唁	-11.1327
王者之	-11.1328
踣	-11.1329
帳	-11.1329
繳	-11.1329
騶	-11.133
鮒	-11.133
鄣	-11.133
厖	-11.1331
跳	-11.1332
瘍	-11.1332
音機	-11.1333
帨	-11.1334
正義引	-11.1335
應對之應	-11.1335
餞	-11.1337
音符	-11.1337
都無	-11.1338
攜	-11.1338
秃	-11.1339
戢	-11.1341
械	-11.1342
者哉	-11.1342
螢	-11.1342
黃帝	-11.1343
纚	-11.1343
有終	-11.1343
樽	-11.1344
薺	-11.1344
鮪	-11.1344
赬	-11.1345
埴	-11.1346
閼	-11.1346
彤	-11.1347
魯侯	-11.1347
在室	-11.1347
朗	-11.1349
罹	-11.1349
佼	-11.1349
杓	-11.135
鞭	-11.1351
穹	-11.1352
雁	-11.1352
苐	-11.1354
所歸	-11.1355
有可	-11.1355
廸	-11.1355
慰	-11.1356
之方	-11.1357
四徳	-11.1357
壓	-11.1357
刼	-11.1358
潁川	-11.1358
解云	-11.1359
白駒	-11.1359
武王伐紂	-11.136
冐	-11.1361
樂器	-11.1362
舛	-11.1363
丗	-11.1365
詩疏八之	-11.1365
東坡	-11.1365
小宗	-11.1368
綠	-11.1368
足利本宋板同	-11.1372
觜	-11.1373
邾婁	-11.1373
簒	-11.1374
應劭	-11.1374
禀	-11.1374
太康	-11.1375
漸漸	-11.1376
始祖	-11.1377
體也	-11.1378
于敏	-11.1383
芳夫	-11.1384
也雖然	-11.1385
孔子弟子	-11.1388
百人	-11.1389
通志堂本作	-11.1389
血氣	-11.1389
上古	-11.1391
文意	-11.1392
而易	-11.1393
始豉	-11.1393
附於	-11.1395
之傳	-11.1399
為天下	-11.1401
亦必	-11.1401
字非	-11.1405
營室	-11.1406
蔡侯	-11.1407
為君子	-11.1413
悔亡	-11.1414
三正	-11.1417
側其	-11.1421
作由	-11.1423
助之	-11.1424
冬官	-11.1425
樂者	-11.1425
從政	-11.1427
皇皇	-11.1428
豈非	-11.1431
王使	-11.1434
張丈	-11.1436
下有也字補遺宋板疏	-11.1436
亂反	-11.1437
憂心	-11.1439
三年之喪	-11.1439
無下	-11.1441
為諸侯	-11.1443
衛人	-11.1443
容貌	-11.1443
二寸	-11.1444
者以為	-11.1447
哀樂	-11.1451
知此	-11.1455
必須	-11.1457
古活	-11.146
□□	-11.1461
漢世	-11.1461
古本註	-11.1464
生子	-11.1468
其服	-11.1469
又按	-11.1472
無二	-11.1473
無知	-11.1473
漢初	-11.1476
未嘗有	-11.1478
之由	-11.1481
詩中	-11.1481
之利	-11.1482
衿	-11.1484
改過	-11.1484
夏后氏	-11.1484
之事則	-11.1485
仲孫	-11.1486
起也	-11.1489
乃可	-11.1489
宋板足利本同註	-11.1491
而不得	-11.1491
不義	-11.1496
承之	-11.1497
前人	-11.1499
不共	-11.15
中道	-11.1501
乃有	-11.1506
各有所	-11.1515
有許多	-11.1517
理之	-11.1517
無足	-11.1518
諸侯有	-11.152
至善	-11.1524
言之也	-11.1528
不窮	-11.1528
也然而	-11.1528
直畧	-11.1533
也王注	-11.1534
義宗	-11.1536
他國	-11.1536
形體	-11.1536
漢律	-11.154
始銳	-11.1545
舊文	-11.1549
精神	-11.1551
北極	-11.1555
非其	-11.1555
東山	-11.1556
央	-11.1565
五者	-11.1569
五經通義	-11.1573
故聖人	-11.1575
有别	-11.1579
而觀	-11.1579
盛徳	-11.1585
是言	-11.1586
圖書	-11.1593
江南	-11.1595
不可以不	-11.1597
功成	-11.1601
魯論	-11.1604
也考異古本經	-11.1605
催	-11.1606
初生	-11.1608
側皆反	-11.1608
閽	-11.1609
彚	-11.1611
反郭音	-11.1612
下不	-11.1613
宗廟之	-11.1613
祭器	-11.1617
太隂	-11.1618
此即	-11.1624
似非	-11.1624
黝	-11.1625
之山	-11.1626
肴	-11.1628
燬	-11.1629
遙	-11.1632
佳賣	-11.1633
為首	-11.1635
泲	-11.1635
同時	-11.1635
屠	-11.1635
虞夏	-11.1635
褚	-11.1637
天氣	-11.1637
荐	-11.1639
各以	-11.1639
贍	-11.1639
公田	-11.1639
紺	-11.1641
猶存	-11.1641
之豉	-11.1641
阨	-11.1643
駘	-11.1644
迥	-11.1644
七曰	-11.1645
句讀	-11.1645
漂	-11.1645
踵	-11.1646
之所以為	-11.1646
兩箇	-11.1647
從事	-11.1647
紒	-11.1648
佃	-11.1648
鵙	-11.1648
王廙	-11.1649
初賣	-11.165
鉉	-11.165
考異古本	-11.165
存焉	-11.165
責之	-11.1652
蜩	-11.1653
犀	-11.1653
愁	-11.1653
吿	-11.1655
日出	-11.1655
腸	-11.1655
檉	-11.1656
腦	-11.1657
篇首	-11.1657
漠	-11.1658
安在	-11.1659
捉	-11.1659
小事	-11.1659
蓼蕭	-11.1659
傑	-11.166
璣	-11.166
鴟鴞	-11.166
棫樸	-11.1661
嘯	-11.1661
托	-11.1661
分之	-11.1661
脉	-11.1663
䧟	-11.1664
采薇	-11.1664
斬衰	-11.1666
天下之事	-11.1667
輹	-11.1668
利見大人	-11.167
董仲舒	-11.1672
虵	-11.1673
羊尚	-11.1674
删	-11.1675
士冠禮	-11.1675
其神	-11.1678
之才	-11.1679
引之	-11.1681
飛鳥	-11.1683
杜撰	-11.1683
成文	-11.1683
庚辰	-11.1684
本草	-11.1687
其始	-11.169
如銳	-11.1692
義作	-11.1694
七八	-11.1695
祭統	-11.1695
先天圖	-11.1696
何足	-11.1698
十翼	-11.1702
二尺	-11.1702
析木	-11.1703
廢疾	-11.1704
尋常	-11.1704
音征	-11.1709
無過	-11.171
宋板足利本	-11.1712
于作於	-11.1713
周道	-11.1714
守之	-11.1714
不可考	-11.1717
下有也字註	-11.1718
白華	-11.1723
一丈	-11.1725
冉有	-11.1725
其難	-11.1727
二百里	-11.1729
大叔	-11.173
及下皆同	-11.1731
三百里	-11.1735
理會	-11.1735
各一	-11.1739
呼報反下	-11.1745
音閑	-11.1746
子鴆	-11.175
甲士	-11.1751
後學	-11.1754
尚未	-11.1754
力行	-11.1756
音旋	-11.1758
也是故	-11.1759
者盖	-11.176
學官	-11.1761
土之	-11.1765
補遺宋板	-11.1765
喜樂	-11.1766
春秋時	-11.1766
一叚	-11.1768
伯恭	-11.1769
之辭也	-11.177
之所在	-11.1773
日也	-11.1773
乎天	-11.1774
厲公	-11.1774
何嘗	-11.1775
而退	-11.1778
並不	-11.1779
九族	-11.1781
聖人之道	-11.1782
五人	-11.1783
傅説	-11.1784
故先	-11.1785
凡事	-11.1787
其命	-11.1789
寡君	-11.1794
無怨	-11.1795
周禮疏	-11.1797
出自	-11.1798
卷耳	-11.18
偽書	-11.1803
而從	-11.1804
茂盛	-11.1804
星紀	-11.1806
必欲	-11.1807
敢問	-11.1811
第十一章	-11.1812
不暇	-11.1813
陳侯	-11.1815
焉用	-11.1815
先聖	-11.1816
言我	-11.1817
進徳	-11.1817
其首	-11.1819
是要	-11.1824
世世	-11.183
以事	-11.183
有云	-11.1831
以木	-11.1833
為卿	-11.1834
古洽	-11.1837
亡丁	-11.1837
有年	-11.1839
名之曰	-11.1842
六軍	-11.1843
亦如	-11.1844
上說	-11.1846
斷也	-11.1847
音燭	-11.1848
相親	-11.1852
經解	-11.1852
岐山	-11.1856
何則	-11.1864
愚謂	-11.1864
民心	-11.1868
音權	-11.1873
本皆作	-11.1875
禮文	-11.1877
莫如	-11.1877
平易	-11.1878
以合	-11.1882
定之	-11.1883
陽生	-11.1899
妣	-11.1904
這道理	-11.1904
興國本	-11.1905
齊之	-11.1906
證反	-11.1907
之終	-11.1909
加之	-11.1911
互相	-11.1912
作丁	-11.192
似乎	-11.1923
祖宗	-11.1928
瘁	-11.193
之乎	-11.193
北辰	-11.1932
萬國	-11.1935
曁	-11.1935
反廣雅云	-11.1936
麓	-11.1936
悛	-11.1937
作兩	-11.1937
撥	-11.1938
戒之	-11.1939
乃謂	-11.1939
鄖	-11.1941
夸	-11.1943
有何	-11.1943
慊	-11.1944
正徳	-11.1944
郜	-11.1944
妬	-11.1946
菆	-11.1948
司農	-11.1948
方得	-11.1948
毖	-11.1948
眂	-11.1948
洮	-11.195
袗	-11.195
慆	-11.1951
唱	-11.1951
軾	-11.1952
溷	-11.1952
髢	-11.1953
嬌	-11.1953
斲	-11.1954
粹	-11.1956
人倫	-11.1956
醇	-11.1957
駱	-11.1958
亂之	-11.1959
麾	-11.1959
鎭	-11.1959
謫	-11.196
中則	-11.196
之訓	-11.1961
諸國	-11.1961
揺	-11.1961
畬	-11.1961
甯	-11.1962
濳	-11.1962
鑒	-11.1963
視朝	-11.1964
采蘋	-11.1965
耘	-11.1966
巷伯	-11.1968
則皆	-11.1968
諧聲	-11.1969
姜嫄	-11.1969
未可以	-11.197
重出	-11.197
必待	-11.1971
巖	-11.1973
彬	-11.1974
掇	-11.1974
湘	-11.1975
霧	-11.1976
三嵗	-11.1976
廹	-11.1976
斾	-11.1976
徐子	-11.1978
啖集傳	-11.1979
盡心	-11.198
祁祁	-11.1981
斟	-11.1982
於己	-11.1982
先生曰	-11.1982
辠	-11.1983
仲山甫	-11.1983
籩豆	-11.1983
旻天	-11.1985
萬厯崇禎本	-11.1986
老隂	-11.1986
六經正誤	-11.1987
届	-11.1987
案毛氏云	-11.1989
戊申	-11.1989
丁亥	-11.1989
亾	-11.1991
始銳反	-11.1993
一朝	-11.1994
之惡	-11.1995
教也	-11.1996
士卒	-11.1998
尊而	-11.2
第十一	-11.2
勤勞	-11.2001
戊午	-11.2001
所以不	-11.2003
二十八宿	-11.2004
公卿	-11.2004
南郊	-11.2011
公侯	-11.2011
小宰	-11.2012
力呈反	-11.2013
人欲	-11.2013
則書	-11.2014
九勇	-11.2015
王畿	-11.2016
為母	-11.2016
是陽	-11.2016
以時	-11.2017
也又問	-11.202
觀之則	-11.2021
一定	-11.2022
應鍾	-11.2023
小斂	-11.2026
加以	-11.2027
發見	-11.2028
闕里	-11.203
補遺古本	-11.203
議論	-11.2032
季夏	-11.2032
陽縣	-11.2034
姜氏	-11.2038
日日	-11.2039
此說	-11.204
而知之	-11.2041
須有	-11.2041
下有於字	-11.2047
立于	-11.2047
三十九	-11.2048
下三本有也字	-11.2048
生魄	-11.2049
第九	-11.2051
西階	-11.2055
則在	-11.2055
通典	-11.2055
猶未	-11.2056
地下	-11.2056
消長	-11.2058
人有	-11.2058
六卷	-11.2062
制禮	-11.2065
先鄭	-11.2067
明道	-11.2067
是月也	-11.2068
良反	-11.2069
之車	-11.2069
自己	-11.2072
天作	-11.2078
正當	-11.2083
敬王	-11.2086
以来	-11.2094
居其	-11.2098
衣也	-11.2099
者豈	-11.2099
説易	-11.2101
感反	-11.2104
太陽	-11.2106
聲色	-11.2107
三百篇	-11.2108
五穀	-11.2108
所據	-11.2108
參差	-11.2111
水經注二十	-11.2118
賤者	-11.2119
所受	-11.2123
秦伯	-11.2125
害也	-11.2127
春秋傳曰	-11.2128
言天	-11.2128
無極	-11.2129
菁	-11.2129
只是一箇	-11.2133
孔子生	-11.2136
如字下同	-11.2138
妻之	-11.2139
第十二章	-11.2144
說云	-11.2148
豈無	-11.2148
不生	-11.215
至則	-11.215
字無	-11.2151
古外	-11.2151
辨其	-11.2151
隨其	-11.2151
不如此	-11.2153
是有	-11.2153
説者	-11.2157
直吏反下	-11.2158
遺也	-11.2159
樂師	-11.2161
之域	-11.2163
帝曰	-11.2167
不修	-11.2167
之始也	-11.2172
丁老反	-11.2172
佳反	-11.2174
讀易	-11.2175
莫若	-11.2177
五伯	-11.2177
一乘	-11.2178
愛之	-11.2178
妨	-11.218
五采	-11.2182
也是以	-11.2182
外朝	-11.2185
二十卷	-11.2188
不告	-11.2191
求也	-11.2192
主祭	-11.2192
善人	-11.2195
音問	-11.2196
禮經	-11.2196
此豈	-11.2199
大吕	-11.22
之弟	-11.2205
作士	-11.2206
行乎	-11.221
無厭	-11.2211
而獨	-11.2211
齊桓公	-11.2216
下疏	-11.2218
待之	-11.2221
經學	-11.2226
只為	-11.2232
變動	-11.2232
解者	-11.2239
一截	-11.2241
與他	-11.2242
曆	-11.2247
子西	-11.2248
林學蒙錄第	-11.2249
起䖍	-11.225
劬	-11.225
大序	-11.2251
六年傳	-11.2251
諜	-11.2252
笥	-11.2252
朱校宋本禮記疏	-11.2254
屬也	-11.2255
大字	-11.2255
襢	-11.2255
荏	-11.2258
懦	-11.2259
鞮	-11.226
釋名云	-11.2261
鋤	-11.2261
以及	-11.2261
辰星	-11.2262
齊魯	-11.2264
甚多	-11.2265
棼	-11.2265
隈	-11.2267
糗	-11.2267
鬄	-11.2268
臝	-11.2268
迓	-11.2268
紇	-11.2269
地上	-11.227
杌	-11.2271
柤	-11.2271
一星	-11.2272
湆	-11.2272
汶	-11.2273
槐	-11.2274
鑣	-11.2274
慄	-11.2275
耽	-11.2275
學也	-11.2276
正直	-11.2277
蕢	-11.2278
古尚書文	-11.2278
喧	-11.2279
蓺	-11.2279
直以	-11.228
安民	-11.228
謡	-11.228
蠲	-11.2282
坑	-11.2282
道路	-11.2282
片	-11.2283
巂	-11.2283
醻	-11.2284
貺	-11.2284
喉	-11.2284
五子之歌	-11.2285
未定	-11.2286
眩	-11.2286
記曰	-11.2286
蹲	-11.2287
八十一	-11.2288
通稱	-11.2289
直覲	-11.229
隣	-11.229
唯季	-11.229
知所	-11.229
與天	-11.229
湯誓	-11.2291
闊	-11.2292
熬	-11.2292
字當在	-11.2293
殻	-11.2294
擩	-11.2295
玄枵	-11.2295
卷阿	-11.2296
未是	-11.2297
於豔反	-11.2297
漢水	-11.2297
亡甫	-11.2298
㐮	-11.2298
餐	-11.2299
旡咎	-11.2301
縓	-11.2302
者正	-11.2304
爼	-11.2304
雨水	-11.2304
力彫	-11.2304
建子	-11.2306
配天	-11.2306
蔡邕	-11.2306
四代	-11.2307
康王之誥	-11.2307
道德	-11.2308
牧野	-11.2308
楚茨	-11.2308
欽定四庫全書經部七	-11.2308
昌慮反	-11.2308
糓	-11.2308
其惡	-11.2309
辟廱	-11.2309
季札	-11.2309
郭璞云	-11.231
庚午	-11.231
伎	-11.231
曲沃	-11.231
儘	-11.2311
忠恕	-11.2311
恭敬	-11.2311
敗績	-11.2311
頼	-11.2312
㨿	-11.2312
士毅	-11.2313
之設	-11.2313
得於	-11.2313
無此字	-11.2313
則何	-11.2314
險阻	-11.2314
書亦或為	-11.2314
上六爻辭	-11.2315
鐘鼓	-11.2315
注爲	-11.2315
國事	-11.2316
打	-11.2317
不得為	-11.2317
占筮	-11.2318
風俗通	-11.232
刑罰	-11.232
癸巳	-11.2322
亦通	-11.2324
之迹	-11.2325
兩句	-11.2326
㑹稽	-11.2327
俗本	-11.2327
憂患	-11.2335
賢臣	-11.2337
範圍	-11.2338
這便是	-11.2339
百工	-11.234
也一音	-11.2343
動靜	-11.2344
異端	-11.2346
説話	-11.2346
必利	-11.2347
斯干	-11.2349
宣子	-11.235
祭服	-11.2352
如今人	-11.2353
力知反	-11.2355
肅拜	-11.2357
居表	-11.2358
安之	-11.2359
䇿書	-11.236
此文	-11.2361
黄金	-11.2362
而改	-11.2362
乗車	-11.2363
不踰	-11.2363
事理	-11.2364
太過	-11.2365
東遷	-11.2366
憂思	-11.2366
校官	-11.2366
何由	-11.2367
王朝	-11.2368
於事	-11.237
有疾	-11.2371
近之	-11.2373
下有人字	-11.2373
東都	-11.2374
七亂	-11.2378
之謀	-11.2379
善道	-11.2381
十一篇	-11.2382
從來	-11.2382
四方之	-11.2384
則不能	-11.2387
三章疏	-11.2387
涯	-11.2387
第八	-11.2388
以至於	-11.2388
酒食	-11.2394
易者	-11.2395
孟氏	-11.2396
盧注	-11.2408
執事	-11.2408
為宫	-11.2409
皮義	-11.2412
行者	-11.2412
音蟹	-11.2415
戊子	-11.2422
爲君	-11.2424
等篇	-11.2425
河洛	-11.2428
下謂	-11.2429
為小	-11.2429
章勇反	-11.2429
而逺	-11.2431
自上	-11.2437
而加	-11.2437
六篇	-11.2441
宋本疏	-11.2442
謹按正嘉二本	-11.2445
然其	-11.2451
已矣	-11.2452
反馬	-11.2455
皆當	-11.2456
仲夏	-11.2459
乆矣	-11.246
占法	-11.2463
禹之	-11.2463
毛如字	-11.2465
功也	-11.2465
邾人	-11.2466
耳非	-11.247
坤為	-11.247
傳同	-11.2471
生者	-11.2473
於物	-11.2476
好之	-11.2477
艮為	-11.2479
焉能	-11.248
人身	-11.2483
教化	-11.2486
國史	-11.2488
堯反	-11.2489
以别	-11.2489
文同	-11.2492
始作	-11.2493
謹按作	-11.2493
魯詩	-11.2498
七雷反	-11.25
欲立	-11.2506
亡矣	-11.2507
自稱	-11.2509
射義	-11.2511
倫反	-11.2513
著其	-11.2513
之多	-11.2513
而不用	-11.2517
故雖	-11.252
五典	-11.2521
馬注	-11.2524
公之	-11.2524
緩也	-11.2527
司冦	-11.2528
載之	-11.2531
公與	-11.2547
劫	-11.2548
只是這	-11.2551
十三卷	-11.2552
赤道	-11.2555
音遥	-11.2557
子斯	-11.2559
音弗	-11.2563
尊也	-11.2563
有善	-11.2565
亦名	-11.2566
在魯	-11.2569
可用	-11.2571
本今	-11.2571
魚列	-11.2577
禮則	-11.2578
畢竟	-11.2581
或言	-11.2582
旺	-11.2585
炤	-11.2585
燋	-11.2586
飄	-11.2588
闞	-11.2592
湑	-11.2594
橐	-11.2594
唐國子博士兼太子中允贈齊州刺史	-11.2595
惡惡	-11.2596
祜	-11.2596
王肅注	-11.2596
翩	-11.2599
薳	-11.2599
蘆	-11.26
鍜	-11.26
闈	-11.26
犆	-11.2601
藝文志	-11.2601
顏	-11.2602
匹亦	-11.2603
跗	-11.2603
髲	-11.2604
睆	-11.2604
瑗	-11.2604
求諸	-11.2605
憮	-11.2605
王父	-11.2605
刳	-11.2605
盬	-11.2606
啐	-11.2606
沼	-11.2606
儀禮疏	-11.2608
驩	-11.2608
孛	-11.2609
睡	-11.2609
而使	-11.2614
萬事	-11.2615
菀	-11.2615
摭	-11.2616
紕	-11.2616
泆	-11.2617
居豈	-11.2617
遹	-11.2617
以生	-11.2619
此節	-11.2619
涸	-11.2619
之所為	-11.2619
弩	-11.2621
魯大夫	-11.2621
地中	-11.2624
逾	-11.2625
孳	-11.2625
獻公	-11.2625
士虞禮	-11.2625
鼏	-11.2626
薫	-11.2627
靁	-11.2628
刺幽王	-11.2628
柶	-11.2629
瓚	-11.263
啖	-11.263
蜚	-11.2631
軍旅	-11.2631
愍	-11.2631
初爻	-11.2631
廵	-11.2631
斆	-11.2632
潭	-11.2632
采蘩	-11.2633
疏引	-11.2634
降一等	-11.2636
不獨	-11.2636
暈	-11.2637
昀	-11.2638
宜也	-11.2638
字當衍文	-11.2639
大梁	-11.2639
喪禮	-11.264
下並有也字	-11.264
舎人	-11.2641
封於	-11.2643
吕氏春秋	-11.2644
雌雄	-11.2644
趙岐	-11.2644
三十三葉右	-11.2645
足也	-11.2647
五禮	-11.2648
畧例	-11.2648
翼翼	-11.2648
聲相近	-11.2649
尚書大傳	-11.265
李方子録	-11.265
觯	-11.2651
妻子	-11.2653
莊姜	-11.2655
悼公	-11.2656
黄鳥	-11.2658
其目	-11.2659
伐紂	-11.2662
將焉	-11.2663
答拜	-11.2664
南向	-11.2665
二條	-11.2665
人心之	-11.2671
於鹽	-11.2675
兖反	-11.268
置也	-11.268
之所由	-11.2681
剛健	-11.2681
無主	-11.2683
所有	-11.2689
故爲	-11.2691
亦宜	-11.2692
錄云	-11.2695
為火	-11.27
天性	-11.2701
直又	-11.2704
謹獨	-11.2704
安有	-11.2707
使其	-11.2707
以此為	-11.2708
丘明	-11.271
葉左	-11.2712
國而	-11.2713
依注作	-11.2713
鄭𤣥	-11.2714
上總	-11.2715
侍中	-11.2715
以和	-11.2715
五故	-11.2715
林反	-11.2716
庚戌	-11.2716
正位	-11.2719
無益	-11.272
必有所	-11.2721
而欲	-11.2722
不可知	-11.2723
藏於	-11.2723
記其	-11.2723
當是時	-11.2725
獸名	-11.2728
多作	-11.2729
王姬	-11.273
大旱	-11.2733
聖人作易	-11.2734
金石	-11.2737
及於	-11.2737
扶風	-11.2738
之誠	-11.2739
堯之	-11.2741
諸夏	-11.2745
治其	-11.2752
進也	-11.2752
九卷	-11.2753
上又	-11.2753
三十七	-11.2753
飲之	-11.2755
之戒	-11.2757
為木	-11.2759
三苗	-11.2763
上句	-11.2766
並音	-11.2767
不弔	-11.2768
一代	-11.2769
禮儀	-11.277
三十一葉右	-11.2772
下二本有也字	-11.2773
房中	-11.2773
大本	-11.2775
考異古本註謂	-11.2775
右手	-11.2783
是之謂	-11.2784
正嘉同謹按	-11.2785
之北	-11.2786
所治	-11.2787
皇氏	-11.2791
王若曰	-11.2791
以剛	-11.2791
下復有	-11.2793
立秋	-11.2794
九四爻辭	-11.2795
由也	-11.2795
人自	-11.2799
此固	-11.28
不諱	-11.2803
致知	-11.2806
立君	-11.2807
隂柔	-11.2809
百家	-11.281
綺	-11.2812
斷之	-11.2813
髙大	-11.282
已上	-11.282
仆	-11.2821
他得	-11.2824
之辰	-11.2826
之辨	-11.2827
宗周	-11.2829
所執	-11.2829
日入	-11.283
客于	-11.2831
如字一	-11.2833
不甚	-11.2834
傳稱	-11.2836
丁禮	-11.2836
動作	-11.2838
賢才	-11.2838
興起	-11.2845
之朝	-11.2848
各異	-11.2848
五十五	-11.285
於後	-11.285
見者	-11.2851
能行	-11.2853
山曰	-11.2854
孔門	-11.2855
可考	-11.2857
書王	-11.2861
繫辭上	-11.2861
只是箇	-11.2864
正應	-11.2866
亦不能	-11.2869
言人	-11.2869
别為	-11.2869
河間獻王	-11.287
成性	-11.2873
李氏	-11.2878
鄭箋	-11.2878
於道	-11.2881
三十三年	-11.2882
釋文補脱	-11.2883
蔡章句	-11.2886
豈能	-11.2886
下皆放此	-11.2889
夏侯	-11.2889
得人	-11.289
屬下	-11.2891
而用之	-11.2892
掛	-11.2892
之化	-11.2894
字監本誤	-11.2895
言易	-11.2896
文昌	-11.2897
鄭讀	-11.2898
易書	-11.29
用此	-11.2901
悶	-11.2901
三十四葉	-11.2902
及之	-11.2905
明言	-11.2905
齊詩	-11.2906
潦	-11.2906
之甚也	-11.2907
聖門	-11.2907
利也	-11.2908
薛章句	-11.2913
非一	-11.2916
二行注	-11.292
皆由	-11.2921
明者	-11.2921
常棣	-11.2921
皇天	-11.2924
是已	-11.2925
得一	-11.2926
這處	-11.2926
綌	-11.2927
鞏	-11.2931
殱	-11.2932
鄰國	-11.2934
正與	-11.2936
壑	-11.2937
針	-11.2937
掉	-11.2937
差也	-11.2938
償	-11.2939
脰	-11.2939
蛾	-11.2939
於用	-11.2941
倨	-11.2941
日則	-11.2942
杏	-11.2942
壙	-11.2943
稺	-11.2944
行列	-11.2944
歩干	-11.2944
之䘮	-11.2945
碧	-11.2946
褘	-11.2946
逋	-11.2947
杜氏盡	-11.2947
廋	-11.2949
駹	-11.2949
料	-11.2949
丘勇	-11.295
三十三葉左	-11.2951
必是	-11.2951
青州	-11.2952
倣	-11.2952
恬	-11.2952
之子孫	-11.2953
繻	-11.2953
猥	-11.2953
狄反	-11.2953
撮	-11.2954
遮	-11.2954
肘	-11.2954
博學	-11.2955
萍	-11.2955
悲反	-11.2955
宜其	-11.2955
家臣	-11.2955
水曰	-11.2956
姻	-11.2957
櫝	-11.2957
到此	-11.2958
逖	-11.2958
球	-11.2958
膽	-11.2958
勦	-11.2961
序系	-11.2961
屋漏	-11.2961
庭燎	-11.2962
璽	-11.2962
云凡	-11.2964
芬	-11.2964
療	-11.2964
伾	-11.2965
穗	-11.2965
協韻	-11.2965
杵	-11.2966
河上	-11.2966
帚	-11.2966
是理	-11.2968
芣苢	-11.2968
紞	-11.2968
蹕	-11.297
誇	-11.297
俄	-11.2971
烏乎	-11.2971
斜	-11.2971
正嘉二本同	-11.2972
慼	-11.2973
邰	-11.2974
名字	-11.2974
三十二葉右	-11.2974
陟角	-11.2974
恐其	-11.2975
鵻	-11.2977
躡	-11.2977
劉炫	-11.2978
老人	-11.2978
圜丘	-11.2978
凉	-11.2979
鵲巢	-11.298
茫	-11.298
大射儀	-11.298
姪娣	-11.2981
正作	-11.2981
將將	-11.2981
管反	-11.2982
三十四葉右	-11.2982
神之	-11.2982
穆穆	-11.2984
色主反	-11.2986
費誓	-11.2986
左五行	-11.2987
麟趾	-11.2987
塈	-11.2987
徃来	-11.2988
弑作殺	-11.299
下有也字下傳	-11.2991
濶	-11.2991
傳授	-11.2991
詩疏三之	-11.2992
纂例	-11.2992
楊道夫錄	-11.2993
必計	-11.2994
共王	-11.2995
不傳	-11.2997
宋本御覽	-11.2997
未易	-11.2997
修辭立誠	-11.2998
何晏	-11.2998
伐柯	-11.2999
提要	-11.3
曉不得	-11.3
小兒	-11.3
何用	-11.3001
養之	-11.3002
硬	-11.3003
分別	-11.3003
曲臺	-11.3004
何以不	-11.3005
子匠反	-11.3007
大平	-11.3008
本同	-11.3012
丹朱	-11.3012
吉日	-11.3013
將帥	-11.3013
路反	-11.3014
仲冬	-11.3015
淺深	-11.3017
顛倒	-11.302
字義	-11.3026
上有言字	-11.3028
所存	-11.3029
近郊	-11.3029
君牙	-11.3029
覲禮	-11.303
以盡	-11.3031
謹按經	-11.3036
雅頌	-11.3038
昭王	-11.3038
三十里	-11.3038
三十三葉	-11.304
三畫	-11.304
許慎	-11.304
車也	-11.3044
而鴆反	-11.3047
三本足利本宋板	-11.3048
音由	-11.3052
有所謂	-11.3054
四十三	-11.3057
山林	-11.3059
死則	-11.306
卑者	-11.3063
此所以	-11.3064
書作	-11.3066
莫非	-11.3067
皆稱	-11.3068
其象	-11.3073
疏謂	-11.3074
棄之	-11.3075
當如	-11.3076
號令	-11.3078
流言	-11.3081
近也	-11.3082
子者	-11.3082
九年經	-11.3086
象數	-11.309
謂作為	-11.3092
當初	-11.3095
如此者	-11.3097
七篇	-11.3099
必於	-11.31
趙氏	-11.3103
比於	-11.3106
天子以	-11.3106
必爾反	-11.3108
來奔	-11.311
紀力反	-11.3111
二國	-11.3111
者但	-11.3113
人君之	-11.3113
小君	-11.3113
一二	-11.3114
南吕	-11.3118
死於	-11.312
不顯	-11.312
教民	-11.312
制也	-11.3122
疾病	-11.3126
人物	-11.3126
分也	-11.3128
可得而	-11.3134
多故	-11.3137
司服	-11.3137
雉門	-11.314
却不	-11.314
速也	-11.3142
宰夫	-11.3142
之深	-11.3142
尚書云	-11.3143
此在	-11.3146
諡也	-11.3148
䟽云	-11.315
世反	-11.3151
矣故曰	-11.3152
陽剛	-11.3155
懼也	-11.3159
釋文二十九	-11.3159
萬物之	-11.316
蔡氏	-11.3165
說文曰	-11.3165
乎若	-11.3168
註放此	-11.3169
宋本春秋疏	-11.3172
行其	-11.3178
明其	-11.3179
之戰	-11.3179
相比	-11.3183
鄭氏註	-11.3183
二三	-11.3186
以類	-11.3187
子餘反	-11.3189
人能	-11.3202
此年	-11.3203
制作	-11.3206
而卒	-11.3209
河間	-11.321
其業	-11.321
道徳	-11.3211
先君之	-11.3213
其葉	-11.3214
所以養	-11.3216
正嘉二本	-11.3217
行則	-11.322
而夫子	-11.322
滅之	-11.322
為尊	-11.3223
其舊	-11.3224
一旦	-11.3224
能知	-11.3227
汨	-11.3227
化也	-11.3229
而分	-11.3231
不雨	-11.3232
不求	-11.3235
只在	-11.3242
則見	-11.3242
得其所	-11.3244
某注	-11.3249
無咎	-11.3249
雖復	-11.3251
王政	-11.3252
易知	-11.3254
晉文	-11.3254
歸藏	-11.3255
而還	-11.3257
諸臣	-11.3257
以歸	-11.3259
用功	-11.3261
公曰	-11.3263
居正	-11.3263
為三	-11.3264
大凡	-11.3265
言無	-11.3266
化之	-11.3272
如晉	-11.3272
縢	-11.3273
言當	-11.3274
色界反	-11.3277
第四章	-11.3278
合為一	-11.3278
湎	-11.3279
在朝	-11.328
世俗	-11.328
本於	-11.3281
閾	-11.3283
之心也	-11.3283
燕射	-11.3284
狙	-11.3284
忙	-11.3284
凋	-11.3285
價	-11.3286
忽然	-11.3287
郯	-11.329
方位	-11.3291
而必	-11.3292
竦	-11.3293
便不	-11.3293
羶	-11.3294
籩	-11.3294
堊	-11.3296
茷	-11.3297
蓐	-11.3297
譁	-11.3298
扶晚	-11.3298
憊	-11.3299
蠢	-11.3302
芳味	-11.3302
𣏌	-11.3302
栝	-11.3302
篋	-11.3303
及至	-11.3303
騁	-11.3305
駵	-11.3305
厓	-11.3307
籠	-11.3309
三老	-11.331
電	-11.331
鍰	-11.3311
褎	-11.3311
孑	-11.3312
所六	-11.3315
注謂	-11.3315
書中	-11.3315
瞑	-11.3315
卉	-11.3316
及考	-11.3316
瑑	-11.3316
蹷	-11.3317
五代	-11.3317
長安	-11.3318
睿	-11.3318
刊	-11.3319
㮚	-11.3319
常在	-11.3319
簀	-11.3319
牘	-11.332
七羊反	-11.332
肸	-11.3321
世室	-11.3321
拙	-11.3321
鄢陵	-11.3321
轍	-11.3322
􁀓	-11.3323
伐齊	-11.3323
紳	-11.3323
小臣	-11.3324
諺	-11.3324
欵	-11.3324
而傳	-11.3325
篪	-11.3325
南方曰	-11.3325
郛	-11.3325
貿	-11.3326
鬱鬯	-11.3326
素口	-11.3327
崖	-11.3328
窟	-11.3328
姬姓	-11.3328
始見	-11.3329
畋	-11.3329
棖	-11.333
嘉靖	-11.333
古雅反	-11.3331
暌	-11.3331
狠	-11.3332
有事於	-11.3333
烏路反下	-11.3333
蔡邕石經	-11.3334
狥	-11.3334
玁狁	-11.3335
廛	-11.3335
六四爻辭	-11.3336
綜	-11.3338
彩	-11.3338
嗛	-11.3339
尅	-11.334
懽	-11.334
六五爻辭	-11.3341
層	-11.3341
逺之	-11.3342
蓍龜	-11.3342
也說文作	-11.3343
休息	-11.3344
之女	-11.3345
而遂	-11.3345
字闕	-11.3346
活反	-11.3346
肅肅	-11.3346
伊訓	-11.3346
河圖洛書	-11.3346
音巨	-11.3347
喪大記	-11.3349
且以	-11.335
語意	-11.3351
吕氏	-11.3351
少牢饋食禮	-11.3352
曰昔	-11.3352
嵗池録	-11.3353
魯君	-11.3355
一作二	-11.3356
筆削	-11.3356
豫州	-11.3359
坎為	-11.3359
隨之	-11.336
月之	-11.3361
戴聖	-11.3367
行葦	-11.3371
亦得	-11.3374
而朝	-11.3376
三才	-11.3377
積石	-11.3377
變雅	-11.338
與女	-11.3381
曽子曰	-11.3382
大綱	-11.3385
定為	-11.3389
字脱	-11.339
有此象	-11.3391
太史公	-11.3394
二十行	-11.3394
殷民	-11.3394
二女	-11.3397
事業	-11.3397
理㑹得	-11.34
悉薦反	-11.34
靈王	-11.3401
小異	-11.3402
九百	-11.3402
巾反	-11.3406
福禄	-11.3406
復入	-11.3408
時則	-11.341
理而	-11.3411
左傳無	-11.3412
隋志	-11.3414
而居	-11.3416
官之長	-11.3419
在這裏	-11.342
見同	-11.3424
以徳	-11.3426
解也	-11.3426
復卦	-11.3427
陽虎	-11.343
祖父母	-11.343
三子	-11.3431
他日	-11.3432
然者	-11.3433
三四	-11.3434
外内	-11.3435
許其	-11.3436
前面	-11.3436
稱公	-11.3437
建丑	-11.3439
其用	-11.3441
以安	-11.3441
坎坎	-11.3441
誠也	-11.3444
立冬	-11.3446
當其	-11.3447
世本	-11.3447
作亂	-11.3448
三事	-11.3449
之人也	-11.345
不覺	-11.345
㸔得	-11.3451
此二字	-11.3452
曲折	-11.3453
音福	-11.346
天保	-11.3464
之刑	-11.3468
誅之	-11.347
則不可	-11.347
入海	-11.3471
其變	-11.3471
相繼	-11.3478
四卷	-11.3479
疑之	-11.348
色角	-11.3481
者此也	-11.3489
五世	-11.349
後来	-11.3491
白馬	-11.3491
中吕	-11.3491
致命	-11.3492
貴者	-11.3492
承重	-11.3494
十年經	-11.3496
司常	-11.3497
不存	-11.3499
黍離	-11.3501
簡文	-11.3502
下至	-11.3506
字補遺古本註	-11.3506
古曠反	-11.3507
禮記云	-11.3507
四面	-11.3508
適人	-11.3508
世卦	-11.3509
夫人之	-11.351
陽爻	-11.3511
以善	-11.3511
誠者	-11.3512
底人	-11.3513
三節	-11.3513
直也	-11.3513
不知所	-11.3516
新民	-11.3519
而起	-11.352
揚州	-11.352
專一	-11.352
和氣	-11.3525
重於	-11.3525
疏言	-11.3528
孰能	-11.3533
音恭本	-11.3535
親者	-11.3538
征之	-11.3541
嚌	-11.3544
交於	-11.3545
哉右	-11.3546
如字本	-11.355
也三字	-11.3554
之要	-11.3554
盖以	-11.3555
常武	-11.3556
樂正	-11.3557
三十二葉	-11.3558
共作	-11.3562
五報	-11.3564
佐反	-11.3564
乃得	-11.3565
附近之近	-11.3565
爲質	-11.3565
不殺	-11.357
小小	-11.3572
以尊	-11.3575
之師	-11.3578
猶云	-11.3584
不拜	-11.3586
人之道	-11.3589
之色	-11.3589
正中	-11.3589
之室	-11.3592
之機	-11.3593
勉之	-11.3595
極矣	-11.3595
綺反	-11.3597
少也	-11.3598
二分	-11.36
則凶	-11.3602
寄反	-11.3604
邦之	-11.3605
發聲	-11.3607
親之	-11.3608
既曰	-11.3612
於河	-11.3615
同心	-11.3617
不貳	-11.3621
六日	-11.3622
案詩	-11.3622
著於	-11.3624
焉而	-11.3626
之列	-11.3629
今俗	-11.3631
腆	-11.3633
是隂	-11.3636
此蓋	-11.3638
煆	-11.3642
己之	-11.3644
之興	-11.3645
厭也	-11.3647
大衍之數	-11.3647
祗以	-11.3648
已見	-11.365
而可以	-11.3651
長而	-11.3652
看易	-11.3654
至德	-11.3659
豢	-11.366
亦不敢	-11.366
鳧	-11.366
文質	-11.3661
三蒼云	-11.3661
王氏	-11.3663
挫	-11.3663
傴	-11.3664
之六反	-11.3664
在堂	-11.3667
杜子春讀	-11.3667
謳	-11.3668
四表	-11.3668
姞	-11.3669
扁	-11.3669
蘖	-11.3669
罄	-11.3669
靷	-11.3669
劣僞	-11.367
可得	-11.367
怯	-11.367
鷙	-11.367
頊	-11.3671
摽	-11.3671
牂	-11.3671
掬	-11.3671
韭	-11.3672
隩	-11.3672
九章	-11.3675
瑳	-11.3675
奐	-11.3675
胾	-11.3675
栭	-11.3677
韻府	-11.3677
五篇	-11.3678
戸敎	-11.3678
隻	-11.3679
袖	-11.3679
彤弓	-11.368
僨	-11.3681
卿大夫士	-11.3681
饔	-11.3682
深也	-11.3682
直專反	-11.3683
作主	-11.3683
息淺	-11.3683
淇奥	-11.3683
酅	-11.3683
鳬	-11.3684
卭	-11.3684
鸛	-11.3684
歇	-11.3685
得見	-11.3685
斯言	-11.3685
又古	-11.3685
玷	-11.3686
緅	-11.3688
黔	-11.3688
庿	-11.3689
淫泆	-11.369
不知是	-11.3691
如其	-11.3691
城濮	-11.3691
栽	-11.3691
詬	-11.3692
芼	-11.3692
鄄	-11.3693
簡易	-11.3694
在焉	-11.3694
濬	-11.3696
砥	-11.3697
百七十	-11.3699
樂樂	-11.3699
些子	-11.3699
廐	-11.37
鶴鳴	-11.37
為非	-11.37
炳	-11.3701
冲	-11.3701
义	-11.3702
凡有	-11.3702
祛	-11.3703
涵	-11.3703
鴥	-11.3703
詩疏十八之	-11.3703
用牲	-11.3704
盧植	-11.3704
疊	-11.3705
喪服小記	-11.3705
弓矢	-11.3706
憐	-11.3707
元文無	-11.3708
誡	-11.3708
蔀	-11.3709
王輔嗣	-11.3709
為兩	-11.3711
簠	-11.3711
冏命	-11.3711
雲夢	-11.3712
詩疏十六之	-11.3713
詩疏二之	-11.3713
清濁	-11.3713
謹按此	-11.3714
烜	-11.3714
五十八篇	-11.3714
起居	-11.3715
泮宫	-11.3715
於已	-11.3715
不備	-11.3716
束帛	-11.3716
辛亥	-11.3716
音如字	-11.3717
賞罰	-11.3717
蘓	-11.3717
甘盤	-11.3718
挼	-11.3718
遣車	-11.3719
緑衣	-11.3719
林夔孫錄	-11.3719
依舊	-11.372
鳳凰	-11.372
利有攸往	-11.372
孔頴達	-11.372
鄉黨	-11.3722
令作今	-11.3722
一例	-11.3723
仁義禮智	-11.3724
乃能	-11.3725
勉勉	-11.3726
四者	-11.3726
絲衣	-11.3728
史佚	-11.3729
釋奠	-11.3731
何可	-11.3733
九二爻辭	-11.3738
消息	-11.3738
以御	-11.3739
三百八十四爻	-11.3739
棄疾	-11.3739
無衣	-11.374
内朝	-11.3742
吳越	-11.3742
於綺	-11.3742
甲辰	-11.3743
古穴	-11.3744
洪水	-11.3745
説則	-11.3746
方氏	-11.3747
出門	-11.3749
徒丹	-11.3751
太微	-11.3752
竊意	-11.3753
丁巳	-11.3755
毛詩註疏第	-11.3755
易簡	-11.3757
有兵	-11.3758
太室	-11.3762
辟雍	-11.3764
苦浪	-11.3766
菜也	-11.3766
失道	-11.3767
天地之間	-11.3769
伐楚	-11.3772
論云	-11.3773
只作	-11.3773
杜子春讀為	-11.3774
不得以	-11.3774
側八	-11.3777
别子	-11.3778
兩端	-11.3779
叔父	-11.3782
華山	-11.3783
下有則字	-11.3784
賦車	-11.3784
無能	-11.3785
當衍字	-11.3786
徒刀	-11.3786
食也	-11.3788
可據	-11.3788
必無	-11.379
以意	-11.3791
立夏	-11.3791
殷武	-11.3792
為常	-11.3792
都邑	-11.3793
東周	-11.3793
不令	-11.3794
敗也	-11.3797
連山	-11.3798
耶則	-11.3798
其丈反	-11.38
可以見	-11.3802
其勢	-11.3806
子夏作	-11.3808
問孔子	-11.3808
大祖	-11.3809
西戎	-11.3814
言雖	-11.3815
山澤	-11.3816
若作	-11.3817
天之道	-11.3819
水旱	-11.3819
祭仲	-11.382
平子	-11.3822
欽定四庫全書	-11.3823
逸詩	-11.3826
禹曰	-11.3827
皆當作	-11.3827
知人	-11.3831
此字	-11.3832
自爲	-11.3841
儒行	-11.3841
想見	-11.3843
舊說	-11.3843
不審	-11.3843
商人	-11.3844
取也	-11.3846
檀弓下	-11.3847
二事	-11.3847
大徳	-11.3847
鳥也	-11.385
熊氏	-11.385
占之	-11.3851
所留	-11.3852
十行	-11.3855
實有	-11.386
從母	-11.3863
下皆	-11.3864
子念	-11.3865
只見	-11.3868
彖象	-11.387
于僞反注	-11.3871
夫子之言	-11.3872
扶云	-11.3874
三重	-11.3876
音遜	-11.3876
焉知	-11.3877
直吕	-11.3877
一部	-11.3879
萬人	-11.388
自欺	-11.3884
故多	-11.3886
於經	-11.3889
光也	-11.3889
扶云反	-11.389
乎哉	-11.389
終于	-11.389
詩有	-11.3893
閤	-11.3895
居下	-11.3896
子家	-11.3896
益之	-11.3897
無敢	-11.39
婢亦	-11.3903
以金	-11.3903
程子曰	-11.3905
民勞	-11.3906
二本足利本宋板	-11.3907
於齊	-11.3909
誤耳	-11.391
明徳	-11.3912
職云	-11.3912
也馬注	-11.3913
自知	-11.392
古人之	-11.3922
天神	-11.3923
鄉大夫	-11.3925
士大夫	-11.3932
政令	-11.3933
申公	-11.3934
三十五葉	-11.3935
廟見	-11.3935
古作	-11.3936
聖人所以	-11.3941
古老反	-11.3941
于河	-11.3941
父命	-11.3943
尚存	-11.3944
譏其	-11.3947
三陽	-11.3947
才計	-11.3953
之名也	-11.3954
帝王之	-11.3955
施于	-11.3965
族人	-11.3966
水土	-11.3969
天意	-11.3973
民有	-11.3978
知所以	-11.3982
日為	-11.3985
再三	-11.3985
逺而	-11.3986
吾心	-11.3986
身之	-11.3986
八年經	-11.3987
以水	-11.3989
是矣	-11.3991
謹按足利本	-11.3994
為樂	-11.4001
四夷	-11.4001
相離	-11.4005
君子小人	-11.4005
爻變	-11.4009
便都	-11.4009
惟恐	-11.4009
也馬云	-11.401
燧	-11.401
得這	-11.4012
子夏曰	-11.4015
在彼	-11.4015
士師	-11.4015
甒	-11.4018
改為	-11.4019
傳聞	-11.4019
盡善	-11.4021
已下	-11.4025
不疑	-11.4026
匄	-11.4026
也哉	-11.4027
閟	-11.4027
諸篇	-11.4028
嚻	-11.4029
髙祖	-11.4029
曲禮下	-11.403
之衰	-11.4032
子禮	-11.4034
三易	-11.4034
共其	-11.4034
是與	-11.4036
榖梁傳	-11.4036
例反	-11.4037
郟	-11.4038
暱	-11.4039
不熟	-11.4042
衎	-11.4042
臾	-11.4045
簞	-11.4045
弔反	-11.4045
徐古	-11.4046
和順	-11.4047
市軫	-11.4048
詳見	-11.4049
内卦	-11.405
殪	-11.405
攫	-11.4051
豸	-11.4052
紘	-11.4052
恢	-11.4054
曰我	-11.4054
樗	-11.4056
市戰	-11.4057
芹	-11.4058
鞌	-11.4059
矣今	-11.4059
榱	-11.4059
云作文	-11.4059
卣	-11.4059
噣	-11.4059
一車	-11.4059
髓	-11.406
處便是	-11.406
亦有之	-11.406
旆	-11.4061
古侯反	-11.4061
鼙	-11.4063
並行	-11.4063
僮	-11.4063
六書	-11.4064
躐	-11.4064
搢	-11.4064
此註	-11.4064
騫	-11.4065
𣙗	-11.4065
鄘	-11.4065
訥	-11.4065
綍	-11.4066
之以為	-11.4066
腐	-11.4066
丰	-11.4066
櫬	-11.4067
枋	-11.4068
君臣之	-11.4068
時事	-11.4068
段删	-11.4069
鱉	-11.4069
星孛	-11.407
及時	-11.4071
鼗	-11.4072
㔻	-11.4072
許冝	-11.4072
幂	-11.4072
述其	-11.4073
麃	-11.4073
煌煌	-11.4073
韓奕	-11.4073
初患	-11.4074
邶風	-11.4074
鐡	-11.4074
禡	-11.4076
性也	-11.4076
戶	-11.4076
子忽反	-11.4076
㑹同	-11.4077
郈	-11.4078
賙	-11.4079
比也	-11.4079
過矣	-11.408
戸化	-11.408
此一句	-11.4081
七録云	-11.4083
以濟	-11.4083
宦	-11.4083
觴	-11.4083
鬚	-11.4083
葛覃	-11.4084
閻	-11.4084
昜	-11.4084
臀	-11.4085
鞉	-11.4085
帙	-11.4086
解詁	-11.4086
彷	-11.4086
剌	-11.4087
昃	-11.4087
八佾	-11.4088
悠	-11.4088
簪	-11.4088
禺	-11.4088
授之	-11.4089
三十卷	-11.4089
二作一	-11.4089
藏諸用	-11.4089
覇	-11.409
叅	-11.4091
西伯戡黎	-11.4091
小宗伯	-11.4093
亘	-11.4095
崔靈恩	-11.4095
戊辰	-11.4097
發揮	-11.4098
壬午	-11.4098
釋言文	-11.4098
周公攝政	-11.4099
黷	-11.4099
于廟	-11.4099
脆	-11.41
慟	-11.41
綂	-11.41
毫釐	-11.4101
治道	-11.4102
鼓鐘	-11.4103
殺其大夫	-11.4103
艮之	-11.4103
求龜	-11.4104
中星	-11.4104
采芑	-11.4104
下共同	-11.4105
搖	-11.4105
力召	-11.4106
奔走	-11.4106
少府	-11.4108
古侯	-11.4109
豳風	-11.4109
九罭	-11.411
掲	-11.411
宋均	-11.411
杜例	-11.411
五升	-11.4111
補遺古本序	-11.4112
骨肉	-11.4112
羲和	-11.4113
丁管	-11.4115
熟讀	-11.4117
下如字	-11.4121
太保	-11.4121
慶父	-11.4122
誤注	-11.4123
夜半	-11.4124
到這裏	-11.4125
按晉志	-11.4128
士昏禮	-11.4129
義者	-11.4131
小弁	-11.4132
九家	-11.4132
仲秋	-11.4132
小宛	-11.4132
玉人	-11.4133
失國	-11.4134
欲見	-11.4138
八尺	-11.4139
期而	-11.414
封建	-11.414
升也	-11.414
亦謂之	-11.4144
視也	-11.4147
賦云	-11.4147
如云	-11.4148
墨子	-11.415
交錯	-11.4151
也司馬云	-11.4154
秦之	-11.4156
曰予	-11.4157
倫理	-11.4157
上有有字	-11.4157
第九章	-11.4158
一个	-11.4158
而殺之	-11.4158
屬隂	-11.4158
之黨	-11.4162
下云	-11.4162
疑脱	-11.4163
楚丘	-11.4164
東征	-11.4165
亡巾	-11.4167
誰能	-11.417
孝乎	-11.4171
五官	-11.4171
匹亦反	-11.4173
龍門	-11.4173
周禮作	-11.4173
五尺	-11.4176
七南	-11.4176
五卷	-11.4178
前儒	-11.4178
獻之	-11.4179
弑其	-11.418
爲博士	-11.4181
欲去	-11.4181
反本亦	-11.4182
屬下句	-11.4183
太初	-11.4183
虞舜	-11.4183
聖人之心	-11.4185
臥反	-11.4186
之廣	-11.4187
刑人	-11.4187
國也	-11.419
七住	-11.419
人東晉	-11.419
赤帝	-11.419
繩證反下	-11.4194
子罕	-11.4195
居六	-11.4195
孔解	-11.4197
七報	-11.4197
古洽反	-11.4198
龜山	-11.4198
文及注同	-11.4198
武丁	-11.4199
所著	-11.4205
金玉	-11.4206
王氏曰	-11.4206
不忒	-11.4208
極其	-11.421
既葬	-11.421
忘其	-11.4211
一義	-11.4211
别也	-11.4213
兵起	-11.4213
何以為	-11.4215
不畏	-11.4215
者固	-11.4216
遘	-11.4216
字絶句	-11.4217
又似	-11.4218
諸人	-11.422
非人	-11.4221
于況	-11.4222
如所謂	-11.4222
稱人	-11.4222
諸本同	-11.4223
而異	-11.4224
是他	-11.4224
祭禮	-11.4224
底物	-11.4224
相得	-11.4225
昭昭	-11.4226
音庚	-11.4227
但見	-11.423
又名	-11.4232
曲禮上	-11.4237
從木	-11.424
著也	-11.4241
依字作	-11.4243
鄭大夫	-11.4245
嫡子	-11.4247
何與	-11.4247
獻子	-11.4252
發於	-11.4253
以長	-11.4253
之隂	-11.4255
進而	-11.4255
凡二十	-11.4258
東晉	-11.4258
得位	-11.426
皆以為	-11.4261
故事	-11.4263
到反	-11.4266
證之	-11.4266
楚師	-11.4268
西河	-11.4268
之歌	-11.4268
善言	-11.4269
不可見	-11.4269
生則	-11.427
為亂	-11.427
有理	-11.427
此傳	-11.4273
宋本文選注	-11.4273
有形	-11.4274
而甚	-11.4276
生乎	-11.4277
輕也	-11.4277
一經	-11.4278
三本足利本	-11.4282
因問	-11.4284
内同	-11.4285
斯道	-11.4288
不倦	-11.4289
苦侯	-11.4294
合作	-11.4299
藏也	-11.4302
廟門	-11.4303
東夷	-11.4305
伯益	-11.4305
十有二月	-11.4305
十一卷	-11.4306
侯反	-11.4307
子夏傳	-11.4308
與上文	-11.4309
以著	-11.4311
宋板下	-11.4313
可以觀	-11.4314
列之	-11.4316
為本	-11.4316
予之	-11.4325
七住反	-11.4326
生萬物	-11.4326
亡侯	-11.4327
大川	-11.4329
二家	-11.433
七年經	-11.4332
終吉	-11.4332
所以説	-11.4333
大水	-11.4334
不問	-11.4337
姚作	-11.4338
射禮	-11.4339
為父	-11.4342
繼之以	-11.4342
變者	-11.4345
亡報	-11.4346
異耳	-11.4349
下有者也	-11.4356
齊齊	-11.4362
七字	-11.4362
之禮也	-11.4363
按周禮	-11.4364
不察	-11.4367
志在	-11.4368
也已上並	-11.4373
事父母	-11.4377
之身	-11.4378
成子	-11.4379
不加	-11.4382
十六行	-11.4383
十數	-11.4388
無聲	-11.4388
妺	-11.4391
尚可	-11.4397
計之	-11.4398
親也	-11.4399
十年傳	-11.4399
北方曰	-11.4402
上皇	-11.4403
大山	-11.4403
諸父	-11.4404
於力	-11.4407
處説	-11.4408
字二本同	-11.4411
女力	-11.4412
是一箇	-11.4417
案周禮	-11.4418
也一本作	-11.4419
才細反	-11.4424
郊祀	-11.4424
俗字	-11.4425
知至	-11.4428
為隂	-11.4428
蟲也	-11.4428
何對曰	-11.4431
皮彦	-11.4433
所致	-11.4434
闋	-11.4435
漑	-11.4436
正則	-11.4436
異字	-11.4437
上行	-11.4437
中氣	-11.4437
魋	-11.4438
至尊	-11.4439
因言	-11.444
嚚	-11.4441
仄	-11.4442
不流	-11.4443
耨	-11.4443
則可以	-11.4444
兩觀	-11.4444
只就	-11.4446
古協反	-11.4446
豺	-11.4446
居喪	-11.4446
於豔	-11.4447
封國	-11.4447
初學記二十	-11.4447
杙	-11.4448
怛	-11.4449
橘	-11.4449
磐	-11.4449
鍵	-11.445
捶	-11.4452
閎	-11.4452
秣	-11.4452
拳	-11.4453
也字林云	-11.4453
三十葉右	-11.4453
求賢	-11.4454
媾	-11.4454
為司空	-11.4454
考異足利本	-11.4455
壎	-11.4455
毛音	-11.4456
反謹按當在	-11.4456
邴	-11.4457
煑	-11.4458
亹	-11.4459
螫	-11.4459
詮	-11.4459
笠	-11.446
戡	-11.4461
言人君	-11.4461
無乃	-11.4462
道義	-11.4462
鴞	-11.4462
訕	-11.4462
輓	-11.4462
楷	-11.4463
犒	-11.4463
復命	-11.4463
鎬	-11.4464
世有	-11.4464
敺	-11.4464
鶬	-11.4465
不齊	-11.4466
娶妻	-11.4466
擘	-11.4466
簧	-11.4466
故特	-11.4466
亦多	-11.4467
銷	-11.4467
沴	-11.4467
雖非	-11.4467
螻	-11.4467
干注	-11.4467
沚	-11.447
胸	-11.447
幼少	-11.447
縻	-11.4471
湛露	-11.4472
挽	-11.4472
逡	-11.4472
塹	-11.4472
幦	-11.4473
芘	-11.4473
為二	-11.4474
器名	-11.4474
謂文王	-11.4474
所銜	-11.4476
踦	-11.4477
嗚	-11.4477
八卷	-11.4477
漳	-11.4477
掊	-11.4478
庪	-11.4479
沬	-11.448
忝	-11.448
廧	-11.448
甞	-11.4481
准	-11.4482
鵜	-11.4482
剪	-11.4483
教以	-11.4483
二年經	-11.4483
旉	-11.4484
紱	-11.4484
區區	-11.4484
有不同	-11.4484
可行	-11.4484
山下	-11.4485
稀	-11.4485
煮	-11.4485
荑	-11.4486
沈又	-11.4486
出焉	-11.4486
式豉	-11.4486
扆	-11.4487
謚	-11.4487
漣	-11.4487
受福	-11.4488
五等	-11.4488
魚綺	-11.4489
也韓	-11.4489
韌	-11.4489
不惑	-11.449
坐而	-11.449
側巾	-11.449
戊寅	-11.449
遡	-11.4491
穀梁傳	-11.4492
减	-11.4492
古微書卷	-11.4493
麄	-11.4494
崧髙	-11.4494
無方	-11.4495
㓕	-11.4495
御覧	-11.4497
劵	-11.4498
支離	-11.4498
可信	-11.4498
炎帝	-11.4498
漾	-11.4499
鳳皇	-11.45
古雅	-11.4501
三代之	-11.4501
異義公羊說	-11.4501
埶	-11.4502
宋本羣經音辨	-11.4502
終南	-11.4502
曰作日誤	-11.4502
覲反	-11.4503
儒林傳	-11.4503
彼註作	-11.4503
􁁆	-11.4503
謹按足利本後人記云	-11.4504
干戈	-11.4505
不重	-11.4505
此作比	-11.4506
一變	-11.4506
状	-11.4506
丁浪	-11.4507
稽顙	-11.4508
生數	-11.4508
王天下	-11.4509
鄉射禮	-11.451
十有一年	-11.451
朱文公	-11.451
必當	-11.4512
均也	-11.4513
桑柔	-11.4513
大全	-11.4513
之訛	-11.4513
也王肅	-11.4514
▁考異古本註	-11.4514
一歲	-11.4514
發生	-11.4514
夏五月	-11.4514
潘時舉録	-11.4516
葵丘	-11.4516
又當	-11.4517
王曰	-11.4518
彭彭	-11.4518
其終	-11.4519
事皆	-11.4523
力軌	-11.4523
史遷	-11.4525
爲人	-11.4525
並云	-11.4527
事畢	-11.4527
子禮反	-11.4527
力輒	-11.4528
能以	-11.4528
司馬遷	-11.4528
必大曰	-11.4529
王公	-11.453
所取	-11.453
所藏	-11.4531
太后	-11.4533
咸恒	-11.4536
古老	-11.4537
今作令	-11.4538
說命	-11.4541
足利	-11.4541
世人	-11.4544
縣南	-11.4547
難之	-11.4548
者然	-11.4549
曽子問曰	-11.4549
所處	-11.455
經籍	-11.4551
刪詩	-11.4551
將以	-11.4557
錯亂	-11.4558
之喪至	-11.4562
何法法	-11.4562
之厚	-11.4563
孔丘	-11.4567
註文	-11.4567
雖無	-11.4569
其兄	-11.457
年表	-11.4571
覆也	-11.4572
不獲	-11.4572
十有五	-11.4572
子為	-11.4579
勞苦	-11.4579
檀弓上	-11.4579
思齊	-11.458
太伯	-11.4585
之流	-11.4587
刑之	-11.459
弑而	-11.4592
二説	-11.4592
傳謂	-11.4595
拜送	-11.4595
申伯	-11.4596
滕子	-11.4597
六畜	-11.4597
大業	-11.4602
邾子	-11.4603
歌之	-11.4603
純隂	-11.4603
承天	-11.4604
滎陽	-11.4605
豈弟	-11.4608
太山	-11.461
以次	-11.4611
蜀才作	-11.4614
小民	-11.4614
信其	-11.4614
曲直	-11.4616
次則	-11.4616
三墳	-11.4616
西面	-11.4618
徳則	-11.4619
字林音	-11.462
一端	-11.462
卒於	-11.4621
徒木	-11.4621
不盈	-11.4622
音閤	-11.4622
男女之	-11.4625
司命	-11.4626
往也	-11.4628
以說	-11.4629
大禹	-11.4629
純陽	-11.463
大結反	-11.4631
其弟	-11.4632
千萬	-11.4633
白帝	-11.4636
輪人	-11.4639
上有所字	-11.4639
聖德	-11.464
五十里	-11.4644
和平	-11.4645
有定	-11.465
古曠	-11.465
凡三	-11.4652
方往	-11.4653
不同而	-11.4655
也棟案	-11.4655
也作者	-11.4656
六律	-11.4656
受其	-11.4657
宋板足利本同釋文	-11.466
字足利本同註	-11.4665
哉子曰	-11.4665
扶問反	-11.4666
一夫	-11.4667
全在	-11.4667
生生	-11.4669
終風	-11.4669
星也	-11.467
宋本春秋疏十	-11.4671
字仲	-11.4671
七律	-11.4674
不親	-11.4675
三十二葉左	-11.4675
賦人	-11.4677
補入	-11.4677
曲也	-11.4678
於大夫	-11.4679
知之矣	-11.468
則不然	-11.4681
三監	-11.4682
民事	-11.4682
聖人之意	-11.4683
鄉飲酒	-11.4686
疏此	-11.4686
得禮	-11.4686
紀侯	-11.4687
末也	-11.4688
為先	-11.469
直良	-11.4692
便能	-11.4693
濟南	-11.4694
逺人	-11.4694
天地萬物	-11.47
歌詩	-11.47
段云	-11.47
百世	-11.4704
下有之也二字疏	-11.4708
苦浪反	-11.4708
時已	-11.4712
三十日	-11.4712
經曰	-11.4714
所至	-11.4716
而言之	-11.4716
成數	-11.4717
字之義	-11.4718
其處	-11.4718
臣民	-11.472
萬一	-11.4721
齊大夫	-11.4721
以盛	-11.4723
風化	-11.4723
或從	-11.4727
受田	-11.4728
有慶	-11.4729
極好	-11.4733
乘馬	-11.4734
閒居	-11.4735
外卦	-11.4735
三十四葉左	-11.4741
猶是	-11.4742
直言	-11.4744
莫報反	-11.4744
天地之道	-11.4746
音孚	-11.4749
一心	-11.475
雖在	-11.475
樂書	-11.4752
而謂之	-11.4753
張丈反	-11.4757
如字舊	-11.4758
譬之	-11.476
古之人	-11.4761
而往	-11.4762
東至	-11.4762
故無	-11.4764
音義同	-11.4764
州長	-11.4767
其半	-11.4768
丁角	-11.4769
冠禮	-11.477
大武	-11.4771
息嗣	-11.4772
興也	-11.4772
元氣	-11.4773
力驗	-11.4774
物有	-11.4775
無適	-11.4777
衛君	-11.4782
音皮	-11.4784
七刀	-11.4784
欽定四庫全書朱子五經語類卷	-11.4784
自當	-11.4786
九三爻辭	-11.4787
鮮矣	-11.4787
之忍反	-11.4788
能致	-11.4789
爵弁	-11.479
文飾	-11.4791
葉公	-11.4793
施音	-11.4797
小白	-11.48
天下大	-11.4801
前章	-11.4801
所述	-11.4804
薄也	-11.4811
七卷	-11.4811
知天	-11.4813
即所謂	-11.4815
加於	-11.4816
九字	-11.4819
天下無	-11.4821
之病	-11.4829
音早	-11.4832
祭祀之	-11.4833
上从	-11.4836
營洛	-11.4837
肖	-11.4837
子般	-11.4837
録之	-11.4839
二伯	-11.484
屬陽	-11.484
不然者	-11.4842
六十七	-11.4843
不經	-11.4846
四五	-11.4847
徐邈	-11.4847
掠	-11.4848
復見	-11.4848
文明	-11.485
遒	-11.4851
棧	-11.4851
憖	-11.4852
苦怪	-11.4853
尚書作	-11.4854
疏一	-11.4857
廿一行	-11.4859
此只是	-11.486
畨	-11.4862
隳	-11.4865
弓人	-11.4865
斫	-11.4865
麏	-11.4866
豻	-11.4867
晁	-11.4867
九曰	-11.4867
學士	-11.4868
咽	-11.4868
式氏反	-11.4869
陌	-11.4869
磋	-11.4869
黠	-11.487
數十	-11.4871
息亮反下	-11.4872
校人	-11.4872
撤	-11.4872
臠	-11.4873
鉅	-11.4873
法天	-11.4874
猨	-11.4876
言聖人	-11.4878
子賜反	-11.4878
瑶	-11.4879
翅	-11.4879
字長	-11.4879
剕	-11.488
炊	-11.488
廡	-11.488
裴	-11.488
有虞氏	-11.4881
隴	-11.4881
璆	-11.4882
𦙍	-11.4882
囂	-11.4883
曵	-11.4884
緜緜	-11.4884
有命	-11.4884
穡	-11.4884
軛	-11.4885
杠	-11.4885
猷	-11.4885
拍	-11.4886
杯	-11.4886
椅	-11.4887
縗	-11.4888
鬛	-11.4888
挹	-11.4888
炭	-11.4888
嫉	-11.4889
為周	-11.489
咳	-11.489
蹢	-11.489
故孔子	-11.489
之交	-11.489
培	-11.489
猒	-11.489
瓉	-11.4891
蘩	-11.4891
駰	-11.4892
竿	-11.4892
蘿	-11.4893
瓶	-11.4893
諦	-11.4896
售	-11.4896
斟酌	-11.4896
之儀	-11.4896
七南反	-11.4897
禎	-11.4897
仲虺之誥	-11.4898
淄	-11.4898
釜	-11.4898
有司徹	-11.49
後皆放此	-11.4901
瑩	-11.4901
公食大夫禮	-11.4901
召陵	-11.4901
䕫	-11.4901
祭公	-11.4901
四馬	-11.4902
于眷	-11.4903
甘節錄	-11.4903
倣此	-11.4903
太簇	-11.4904
古豆反	-11.4905
籀文	-11.4905
陬	-11.4905
鷄	-11.4906
数	-11.4907
七旬	-11.4907
蒹葭	-11.4908
廵守	-11.4908
揣	-11.4908
載芟	-11.4909
灂	-11.4909
於鬼神	-11.4909
以天	-11.491
侯國	-11.491
冠者	-11.491
甘誓	-11.4911
節南山	-11.4911
隂爻	-11.4912
旅獒	-11.4912
五經要義	-11.4912
子餘	-11.4913
雨無正	-11.4913
潛龍勿用	-11.4914
降婁	-11.4914
晨風	-11.4914
顔回	-11.4915
何獨	-11.4915
諾	-11.4915
欽定四庫全書古微書卷	-11.4915
四升	-11.4916
朱子曰	-11.4917
討賊	-11.4917
樊遲	-11.4918
却有	-11.4918
之最	-11.4918
爾疋	-11.4919
孟夏	-11.4919
典瑞	-11.492
反徐音	-11.4921
多也	-11.4921
卅	-11.4921
舒亮	-11.4921
曽孫	-11.4922
玩味	-11.4923
錯綜	-11.4923
尊之	-11.4923
犧牲	-11.4923
前輩	-11.4924
也雖	-11.4925
得箇	-11.4925
收斂	-11.4926
未踰年	-11.4927
占得此爻	-11.4927
循環	-11.4927
頃公	-11.4927
袒裼	-11.4929
二十八葉左	-11.4929
昭元年	-11.4929
此者也	-11.4929
方于反	-11.4931
周南召南	-11.4932
之恩	-11.4933
壬戌	-11.4933
索隠	-11.4933
也字林	-11.4934
呼罪	-11.4935
之疑	-11.4936
婦人之	-11.4936
主也	-11.4937
江水	-11.4939
采采	-11.4939
王作主	-11.4939
如人	-11.4939
祖母	-11.494
伯翳	-11.494
小司徒	-11.4941
咸池	-11.4942
孟津	-11.4942
孫云	-11.4943
㑹通	-11.4943
意義	-11.4944
帯	-11.4945
下篇	-11.4946
詩召	-11.4947
胡傳	-11.4948
可觀	-11.4948
蒼帝	-11.4948
戒懼	-11.4949
南陽	-11.4949
得來	-11.495
上有故字	-11.4952
王肅本	-11.4952
羞惡	-11.4953
之舞	-11.4954
音義下	-11.4955
死魄	-11.4956
居攝	-11.4959
繼母	-11.4961
畫八卦	-11.4961
民間	-11.4961
緦麻	-11.4962
不㑹	-11.4962
力居	-11.4962
不任	-11.4963
如字本或作	-11.4964
假令	-11.4965
彖辭程傳	-11.4967
行於世	-11.4968
合之	-11.4971
亡悲	-11.4972
遷都	-11.4973
于公	-11.4973
固當	-11.4974
體之	-11.4975
注䟽	-11.4976
陳留	-11.4981
以禦	-11.4981
太宗	-11.4982
䘮服	-11.4984
貌下有也字	-11.4984
不可信	-11.4984
葢以	-11.4987
上下經	-11.4989
因此	-11.499
精微	-11.4991
無私	-11.4992
五蓋	-11.4994
攝政	-11.4994
有那	-11.4996
之憂	-11.4996
弗克	-11.4996
文武之	-11.4996
不爭	-11.4998
結之	-11.4999
開元	-11.4999
弁絰	-11.5001
凡此	-11.5002
葉六行注	-11.5002
難易	-11.5003
成王時	-11.5003
六服	-11.5009
哀公問	-11.501
深矣	-11.5011
一成	-11.5012
列子	-11.5013
恒山	-11.5013
四年經	-11.5013
乃見	-11.5017
西周	-11.5018
其過	-11.5019
性之	-11.502
而合	-11.5021
解得	-11.5022
手足	-11.5023
出乎	-11.5024
四書	-11.5025
浪反	-11.5027
音祈	-11.5028
而不失	-11.503
亡而	-11.5033
難看	-11.5033
切又	-11.5033
則所謂	-11.5039
之義故	-11.5041
長殤	-11.5041
少間	-11.5043
請命	-11.5044
享之	-11.5045
朝廟	-11.5045
於鴆反	-11.5046
他經	-11.5046
兩卦	-11.5046
也聖人	-11.5048
滅亡	-11.5048
丁兮	-11.5049
諸公	-11.5052
朝歌	-11.5055
戸嫁反	-11.5056
莪	-11.5057
出来	-11.506
服者	-11.5062
或疑	-11.5062
改也	-11.5065
七十五	-11.5065
字多	-11.5065
桓王	-11.5067
反又子	-11.5069
為文	-11.507
直亮	-11.5073
晉語	-11.5075
起吕反下	-11.5076
下及注	-11.5077
六十三	-11.5086
四卦	-11.5087
出那	-11.5089
不能無	-11.509
譏之	-11.5093
厯數	-11.5094
也苟	-11.5094
星主	-11.5095
好色	-11.5097
苦回	-11.5102
又在	-11.5106
久也	-11.5108
發發	-11.5108
並如	-11.5111
路門	-11.5112
聖經	-11.5121
千二百	-11.5122
三命	-11.5122
黄㽦錄	-11.5123
平陽	-11.5125
何如曰	-11.5127
因舉	-11.513
所主反	-11.5134
君徳	-11.5137
全書	-11.5138
數年	-11.5143
大斂	-11.5145
改易	-11.5145
愛也	-11.5147
孝公	-11.5148
所爲	-11.5155
正心	-11.5156
姓名	-11.5159
曲禮曰	-11.5161
力智反	-11.5163
命者	-11.5163
九河	-11.5166
九尺	-11.5167
聞其	-11.517
不假	-11.517
丙子	-11.5173
鄉人	-11.5173
苟有	-11.5175
堯曰	-11.5176
某人	-11.5179
十一行	-11.518
者是也	-11.5182
手曰	-11.5185
始豉反	-11.5188
通也	-11.5188
皇父	-11.5191
古堯	-11.5191
六子	-11.5191
見乎	-11.5194
利之	-11.5196
史記索隱	-11.5197
馬也	-11.5198
天心	-11.5198
杜云	-11.5198
乾元	-11.5198
音戸	-11.52
戸郎反	-11.5201
問辨	-11.5202
亦從	-11.5207
左八行	-11.5207
於難	-11.5209
三辰	-11.5215
不可不知	-11.5216
案今	-11.5219
險而	-11.522
名者	-11.5221
反徐扶	-11.5223
一向	-11.5226
戰而	-11.5226
矣况	-11.5226
性命	-11.5229
周公作	-11.5229
有序	-11.5231
有聲	-11.5233
非正	-11.5234
五十六	-11.5235
天下治	-11.5235
牛羊	-11.5236
語辭	-11.5237
所學	-11.5237
喪祭	-11.5238
照反	-11.524
仕居	-11.5243
千古	-11.5243
有些	-11.5247
是兩箇	-11.5252
定也	-11.5256
與之言	-11.5257
所說	-11.5259
天子有	-11.5262
大略	-11.5265
鬪	-11.5271
葘	-11.5271
者歟	-11.5272
亦甚	-11.5272
父在	-11.5272
於郊	-11.5272
傭	-11.5276
振振	-11.5276
息淺反	-11.5279
得與	-11.528
拭	-11.5282
旻	-11.5284
覓	-11.5289
按春秋	-11.5291
彄	-11.5291
先入	-11.5292
脡	-11.5292
汰	-11.5293
底是	-11.5293
上大夫	-11.5294
其祖	-11.5294
鬣	-11.5295
豵	-11.5297
浣	-11.5298
埤	-11.5298
芈	-11.5299
薌	-11.5299
昕	-11.53
敉	-11.53
徯	-11.5301
士禮	-11.5301
寮	-11.5301
洿	-11.5302
瞎	-11.5303
臣也	-11.5303
緘	-11.5304
蠡	-11.5305
瓢	-11.5305
綆	-11.5305
林作	-11.5306
音利又	-11.5306
虣	-11.5307
膰	-11.5307
居上	-11.5309
歃	-11.531
梱	-11.531
飧	-11.5311
鶩	-11.5311
鑠	-11.5311
等也	-11.5312
則先	-11.5312
元嘉本	-11.5312
犢	-11.5312
第三章	-11.5313
鼉	-11.5313
足矣	-11.5313
怵	-11.5315
掔	-11.5315
恂	-11.5315
觳	-11.5315
文作云	-11.5316
窈	-11.5317
倬	-11.5317
故可	-11.5318
黿	-11.5318
葛藟	-11.5318
煦	-11.5319
繄	-11.5319
俛	-11.5319
褧	-11.532
皤	-11.532
杵臼	-11.532
獮	-11.5321
側界	-11.5321
志也	-11.5321
雛	-11.5321
鍛	-11.5322
七内	-11.5323
柏舟	-11.5323
祲	-11.5323
餽	-11.5323
椑	-11.5324
生于	-11.5324
郳	-11.5324
蚍	-11.5325
覬	-11.5325
頷	-11.5325
簨	-11.5326
隄	-11.5326
皎	-11.5327
隗	-11.5327
葱	-11.5328
但知	-11.5329
笴	-11.533
箸	-11.533
泳	-11.533
耻	-11.533
亹亹	-11.5332
之典	-11.5332
去一	-11.5332
螽斯	-11.5334
厠	-11.5334
觭	-11.5334
許六反	-11.5334
大公	-11.5335
錮	-11.5336
鉦	-11.5336
徒登	-11.5338
逑	-11.5339
叔敖	-11.5339
新唐書五十	-11.534
以隂	-11.5341
孩	-11.5342
北堂書鈔	-11.5342
鏞	-11.5342
徒門	-11.5342
雝雝	-11.5343
雋	-11.5343
十二經	-11.5343
民者	-11.5344
㬰	-11.5344
酸	-11.5344
榎	-11.5345
鄭司農	-11.5345
勘	-11.5346
㪚	-11.5346
當在上序	-11.5347
王伯厚	-11.5347
煞	-11.5349
髙辛	-11.5349
直方大	-11.5349
卄	-11.5349
山海經	-11.535
音義上	-11.5351
下有者也二字足利本亦有者字	-11.5351
襄仲	-11.5351
九年傳	-11.5352
􁄟	-11.5352
爐	-11.5352
與夫	-11.5352
詩疏十九之	-11.5353
恁	-11.5353
直角	-11.5354
封禪	-11.5354
辛夘	-11.5355
𫝊	-11.5355
人得	-11.5355
奕奕	-11.5356
相遇	-11.5356
其父母	-11.5357
仔細	-11.5357
不習	-11.5357
犧尊	-11.5359
問於	-11.536
標準	-11.5361
屬於	-11.5361
婢支	-11.5362
壬辰	-11.5364
七年傳	-11.5366
學問	-11.5369
繋辭	-11.5369
動静	-11.537
知至至之	-11.5371
嫁娶	-11.5371
尚右	-11.5373
宴樂	-11.5375
苦老	-11.5375
左四行	-11.5376
滅滕	-11.5377
各得其所	-11.5377
至周	-11.5377
六年經	-11.5378
濳虚	-11.5378
里克	-11.5379
湯武	-11.5379
是如何曰	-11.5379
江淮	-11.5383
昭明	-11.5388
豫章	-11.5388
鎮星	-11.539
然矣	-11.5391
美其	-11.5391
斷斷	-11.5392
三年經	-11.5394
之法也	-11.5396
長三尺	-11.5398
季春	-11.54
宗族	-11.5403
太玄	-11.5404
初俱	-11.5405
今復	-11.5405
肉也	-11.5408
君臣之義	-11.5409
謁反	-11.5409
不同者	-11.541
只當	-11.5413
脱一	-11.5416
利害	-11.5424
人皇	-11.5425
徐邈音	-11.5425
才老	-11.5426
常有	-11.5426
八風	-11.5427
嘉靖本	-11.5429
與鄭	-11.5429
得他	-11.5434
以定	-11.5435
注云古文	-11.5435
所界	-11.5438
當从	-11.544
不類	-11.5444
後王	-11.5447
著書	-11.5449
公及	-11.545
救之	-11.5452
則從	-11.5453
全體	-11.5455
古愛	-11.5455
注解	-11.5457
有難	-11.5457
案爾雅	-11.5458
城北	-11.5459
于民	-11.5459
音嫁	-11.5463
▁疏	-11.5468
諸侯而	-11.5468
大東	-11.547
蔡註	-11.5472
對待	-11.5475
感動	-11.5476
軍將	-11.5477
離坎	-11.5477
方見得	-11.548
要也	-11.5481
徐州	-11.5483
與此同	-11.5484
説者謂	-11.5485
乘車	-11.5486
力兮反	-11.5488
親切	-11.5489
共公	-11.5489
是月	-11.549
爻義	-11.5491
字補遺宋板疏	-11.5493
各不同	-11.5495
令聞	-11.5496
示人	-11.55
十萬	-11.5501
者下共有也字	-11.5503
符問	-11.5503
洛邑	-11.5503
書日	-11.5503
無害	-11.5504
宰相	-11.5506
漢書作	-11.5507
句下	-11.5508
以此知	-11.5508
專以	-11.5508
祀作	-11.5509
數語	-11.551
無一字	-11.5511
之地也	-11.5513
陸費墀	-11.5519
徐力	-11.552
之本也	-11.5524
而殺	-11.5524
説文曰	-11.5524
離之	-11.5527
為己	-11.5529
才浪反	-11.5531
九卿	-11.5531
朋友之	-11.5532
他書	-11.5532
用刑	-11.5535
除喪	-11.5535
既無	-11.5536
於阮反	-11.5536
者二	-11.5536
申言	-11.5537
十九行	-11.5538
脱簡	-11.5538
不吉	-11.5541
周流	-11.5542
音峻	-11.5544
左氏説	-11.5544
徒卒	-11.5544
士也	-11.5546
曰子	-11.555
即其	-11.5551
音丹	-11.5551
聽之	-11.5552
于周	-11.5556
字毛本誤	-11.5559
未有不	-11.5559
何有	-11.5562
室中	-11.5563
亦能	-11.5564
不辟	-11.5564
大裘	-11.5567
也或云	-11.557
而亡	-11.557
同義	-11.5571
形似	-11.5572
第十五	-11.5573
劣反	-11.5574
於作于	-11.5575
先見	-11.5577
所殺	-11.5578
皆指	-11.5579
桑扈	-11.5583
又如何	-11.5584
故傳	-11.5588
日本山井鼎物觀撰春秋左傳註疏第	-11.5596
賣反	-11.5599
上脱	-11.56
十五行	-11.5601
所以能	-11.5602
見矣	-11.5602
達之	-11.5604
王逸	-11.5605
福也	-11.5605
向使	-11.5606
百畆	-11.5606
於遥	-11.5607
出者	-11.5607
十分	-11.561
徒歷	-11.5614
那裏	-11.5615
定其	-11.5617
侵伐	-11.5621
八政	-11.5622
輒反	-11.5631
信矣	-11.5633
責其	-11.5634
公室	-11.5634
以備	-11.5635
多言	-11.5635
所立	-11.5636
自天子	-11.5637
日本山井鼎物觀撰禮記註疏第	-11.5638
芳服反	-11.564
壁中	-11.564
左氏謂	-11.5642
九州之	-11.5642
無其字	-11.5643
於身	-11.5645
失位	-11.565
問答	-11.5652
人生	-11.5654
素王	-11.5656
不勝其	-11.5657
性則	-11.5658
人乎	-11.5659
無以字	-11.5663
孝道	-11.5667
誤衍	-11.567
以語	-11.5673
皆爲	-11.5674
甚好	-11.5675
洛陽	-11.5678
其妻	-11.5687
吉甫	-11.5688
凡人	-11.569
一音如字	-11.569
解説	-11.5692
也崔	-11.5693
也故以	-11.5694
言已	-11.5695
音避下	-11.5697
刺時	-11.5697
大雨	-11.5698
之衆	-11.5703
其序	-11.5703
其外	-11.5705
以比	-11.5707
定天下	-11.5707
不可得	-11.571
於綺反	-11.5712
重卦	-11.5713
當用	-11.5719
達道	-11.5719
以南	-11.5726
解釋	-11.5726
曏	-11.5728
頡	-11.5729
天運	-11.5729
矣惟	-11.5729
楬	-11.5733
僑	-11.5733
之術	-11.5735
息暫反	-11.5736
乙巳	-11.5736
民力	-11.5739
三年傳	-11.574
葉右	-11.574
於宋	-11.5742
闉	-11.5743
翺	-11.5744
雖未	-11.5746
眠	-11.5747
塞也	-11.5747
自外	-11.5748
大帝	-11.5748
而言則	-11.5748
易義	-11.575
籲	-11.575
蟜	-11.575
邈	-11.575
瞭	-11.5751
藜	-11.5752
持也	-11.5753
吳縣開國男陸德明撰	-11.5755
豭	-11.5755
運行	-11.5756
之瑞	-11.5756
但當	-11.5757
之知	-11.5757
咺	-11.5757
嗅	-11.5758
幄	-11.5758
許韋	-11.5758
之患	-11.5759
引易	-11.576
轄	-11.576
死亡	-11.576
蕤	-11.5761
媯	-11.5762
朶	-11.5762
柢	-11.5763
苽	-11.5763
笛	-11.5763
爇	-11.5763
劑	-11.5763
輇	-11.5764
頻忍	-11.5764
分星	-11.5764
薇	-11.5765
蓮	-11.5765
町	-11.5765
佹	-11.5766
告于	-11.5766
柲	-11.5766
候人	-11.5766
宋板同釋文	-11.5766
囷	-11.5766
恫	-11.5767
廱	-11.5767
醓	-11.5767
進士	-11.5767
逺方	-11.5767
癘	-11.5768
湊	-11.5768
苦圭	-11.5769
嫂	-11.5769
酗	-11.5769
闚	-11.5769
夲	-11.5769
漕	-11.5769
右行	-11.5771
其據	-11.5772
蔞	-11.5772
壟	-11.5772
臡	-11.5772
媛	-11.5773
態	-11.5773
吸	-11.5773
緹	-11.5773
葆	-11.5774
杜子春	-11.5774
鴇	-11.5774
經典釋文卷第十	-11.5774
㮮	-11.5774
渫	-11.5775
甘棠	-11.5776
時則有	-11.5777
何能	-11.5778
架	-11.5778
藿	-11.5779
枸	-11.5779
庀	-11.578
其知	-11.578
鬬	-11.578
溱洧	-11.578
觵	-11.5781
緻	-11.5781
鄔	-11.5781
謔	-11.5781
穉	-11.5781
古銜	-11.5782
粒	-11.5782
醆	-11.5782
撿	-11.5782
芥	-11.5783
下紀	-11.5783
詩譜	-11.5784
丁念	-11.5784
有大小	-11.5784
誑	-11.5784
螺	-11.5785
盛服	-11.5785
鋒	-11.5785
撞	-11.5785
亦似	-11.5787
姆	-11.5787
朏	-11.5787
脱屨	-11.5788
倩	-11.5788
課	-11.5788
稊	-11.579
才細	-11.5791
鑽	-11.5791
問先生	-11.5791
解作	-11.5791
髻	-11.5792
傎	-11.5792
畤	-11.5792
從盧本挍	-11.5792
會稽	-11.5792
琫	-11.5793
七經孟子考文補遺卷一百	-11.5793
表裏	-11.5793
蟾	-11.5794
雖曰	-11.5794
檮杌	-11.5794
謟	-11.5796
開闢	-11.5796
顯諸仁	-11.5798
定之方中	-11.5798
不敢改也	-11.5799
圛	-11.5799
侍坐	-11.5799
蜉蝣	-11.5799
誚	-11.5799
朱校宋本禮記疏二十	-11.5799
鳯凰	-11.58
慈母	-11.58
拆	-11.58
㕘	-11.58
大叔于田	-11.5801
補遺據元文	-11.5801
非道	-11.5802
帀	-11.5802
放勲	-11.5802
擊鼓	-11.5802
𤣥鳥	-11.5802
只一	-11.5803
去逆反	-11.5803
乙亥	-11.5804
旌旗	-11.5805
陸徳明	-11.5805
所自出	-11.5807
詩疏七之	-11.5807
聨	-11.5808
全無	-11.5808
去逆	-11.5808
廼	-11.5808
示之	-11.5808
六三爻辭	-11.581
媒氏	-11.581
萬人傑録	-11.5811
紛紛	-11.5811
昆吾	-11.5812
草蟲	-11.5812
地位	-11.5813
正德嘉靖	-11.5813
南郷	-11.5813
枉矢	-11.5814
曰不然	-11.5814
甲寅	-11.5816
譙周	-11.5816
五羔	-11.5817
成之者性	-11.5818
一作壹	-11.5818
五更	-11.5818
困窮	-11.5818
衛宏	-11.5818
下有乎字	-11.582
潛龍	-11.582
不聽	-11.5824
萬八千	-11.5824
大辰	-11.5825
知終終之	-11.5826
賓客	-11.5827
牽强	-11.5829
千七百	-11.5829
思慮	-11.5832
古無	-11.5833
丘陵	-11.5834
也詩云	-11.5835
馬曰	-11.5836
卦畫	-11.5836
永同釋文	-11.5836
梁州	-11.5838
注引	-11.5839
至大	-11.5839
答云	-11.584
之任	-11.5841
維持	-11.5841
升堂	-11.5843
色吏	-11.5843
魚廢	-11.5844
黑帝	-11.5845
洪範五行	-11.5847
在裏面	-11.5848
盟㑹	-11.5849
周禮儀禮	-11.5849
宋均曰	-11.585
汝南	-11.5852
下有耳字	-11.5854
口授	-11.5855
徒本	-11.5858
而至於	-11.5858
天以	-11.586
量度	-11.586
而遷	-11.5862
之履	-11.5864
視聽	-11.5865
渾然	-11.5866
之豉反	-11.5866
即今	-11.5866
之星	-11.5867
以配	-11.5869
大祭	-11.587
之聞也	-11.5873
可推	-11.5874
應門	-11.5874
通典五十	-11.5877
異矣	-11.5879
遷善	-11.5881
息嗣反	-11.5882
功徳	-11.5887
止其所	-11.5887
上復有	-11.5887
既言	-11.5888
自相	-11.5891
亦言	-11.5891
并論	-11.5892
十一經	-11.5893
葉七行注	-11.5895
實事	-11.5895
長發	-11.5896
最好	-11.5897
音患	-11.5897
下有有字	-11.5898
程氏	-11.59
十有八	-11.5902
諸卦	-11.5905
度其	-11.5906
高大	-11.5906
鄭以	-11.5906
占辭	-11.5907
繼世	-11.5908
地方	-11.5909
單衣	-11.591
東面	-11.591
匹夫	-11.5911
一件	-11.5911
作書	-11.5913
有意	-11.5914
心有	-11.5915
也宋板足利本	-11.5917
中大夫	-11.5917
史記云	-11.5917
許氣	-11.5919
卦象	-11.592
周曰	-11.592
以食	-11.5921
下有以字	-11.5922
久之	-11.5928
左行	-11.5929
作一句	-11.5929
苦角	-11.5929
乃旦反下	-11.593
四十七	-11.593
饋食	-11.5933
按此	-11.5934
畫為	-11.5934
而與之	-11.5935
爵禄	-11.5937
公薨	-11.5938
楚辭	-11.5938
復歸	-11.5942
之所生	-11.5942
其臣	-11.5943
音智下	-11.5945
莒子	-11.5946
張慮反	-11.5947
長於	-11.5948
卦名	-11.595
左氏以為	-11.5952
三爻	-11.5952
甚麽	-11.5954
尊賢	-11.5957
案説文	-11.5958
下生	-11.596
必刃	-11.5964
才浪	-11.5969
不可無	-11.5969
父母之喪	-11.5971
伐宋	-11.5972
之正也	-11.5972
他卦	-11.5973
賈氏	-11.5973
黒色	-11.5976
盟於	-11.5977
論語云	-11.5979
郭氏	-11.5983
壬子	-11.5987
不能制	-11.5987
釋疑	-11.5988
貌下同	-11.5988
何以謂之	-11.5995
不得已而	-11.5995
孟反	-11.5996
孰為	-11.5998
子貢問	-11.5999
其綺	-11.6003
天徳	-11.6004
輔相	-11.6008
右襄公	-11.6012
功用	-11.6014
封人	-11.6017
聲類	-11.602
其儀	-11.6021
未出	-11.6023
而心	-11.6025
日光	-11.6026
不可勝	-11.6026
第十六	-11.6027
九里	-11.603
篇曰	-11.6033
六畫	-11.6033
故春秋	-11.6039
右桓公	-11.604
艸	-11.604
質也	-11.604
郊天	-11.604
雖小	-11.6041
留之	-11.6041
古禾反	-11.6042
三統	-11.6045
正誤下	-11.6047
畢公	-11.6047
文作又	-11.6048
古定	-11.6049
有容	-11.6052
必爾	-11.6053
孔子之言	-11.6054
晉之	-11.606
利於	-11.6067
别作	-11.6068
音羊	-11.6074
故不言	-11.6077
得所	-11.608
晏子	-11.6083
雲如	-11.6087
音茂	-11.6087
普庚反	-11.609
如水	-11.6093
有此理	-11.6093
還歸	-11.6093
予謂	-11.6096
遷于	-11.6102
初不	-11.6102
而勿	-11.6103
喪事	-11.6105
殷周	-11.6109
不云	-11.611
此必	-11.611
之子也	-11.6118
將有	-11.6118
必在	-11.6119
雖欲	-11.612
之容	-11.612
先王之制	-11.6122
為害	-11.6123
古注	-11.6124
之度	-11.6124
曰凡	-11.6126
器用	-11.6126
除之	-11.6128
一歳	-11.6129
吾夫子	-11.613
慎之	-11.6131
之等	-11.6131
身也	-11.6133
者不能	-11.6134
一氣	-11.6136
鬼方	-11.6138
文選注二十	-11.614
九德	-11.6142
十六篇	-11.6142
所陳	-11.6147
任之	-11.6149
是兩	-11.615
不時	-11.6151
音支	-11.6152
伊川云	-11.6154
下士	-11.6156
用六	-11.6157
敬慎	-11.6157
同志	-11.6163
所封	-11.6163
盡矣	-11.6164
羊朱反	-11.6169
父為	-11.6169
疑其	-11.617
又加	-11.6171
周禮疏三十	-11.6173
以祀	-11.6177
朱註	-11.6178
十字	-11.6179
内傳	-11.618
七葉左一行	-11.6183
魯桓	-11.6185
五行志	-11.6186
前有	-11.6186
宜有	-11.6187
去疾	-11.6187
而不知其	-11.6187
度之	-11.6191
今夫	-11.6194
固已	-11.6194
耶曰	-11.6194
下流	-11.6195
北山	-11.6196
所定	-11.62
何謂也	-11.6201
必告	-11.6203
辰為	-11.6206
弃戰	-11.6207
一貫	-11.621
大行人	-11.6211
音付	-11.6211
舊史	-11.6212
飪	-11.6213
七報反	-11.6214
狸	-11.6215
叨	-11.6216
弑之	-11.6216
宋板以作	-11.6216
之基	-11.6217
賁居子曰	-11.6219
非必	-11.622
溱	-11.622
蛙	-11.622
十二行	-11.6222
戀反	-11.6223
扄	-11.6223
琰	-11.6224
人之心	-11.6224
􁆐	-11.6225
聒	-11.6225
固無	-11.6227
力之反	-11.6227
糝	-11.6228
及下注同	-11.6228
之占	-11.623
叔姬	-11.6231
蜎	-11.6232
椓	-11.6232
十四卷	-11.6233
院	-11.6234
氾	-11.6234
踖	-11.6234
株	-11.6235
麀	-11.6235
油	-11.6235
似俊	-11.6235
方見	-11.6236
噲	-11.6236
濰	-11.6236
蔣	-11.6236
樴	-11.6237
卦體	-11.6237
矦	-11.6237
既成	-11.6237
贛	-11.6237
既已	-11.6238
貜	-11.6238
為卜筮	-11.6238
涗	-11.6238
邲	-11.6238
聵	-11.6238
鋝	-11.6239
敔	-11.6239
燼	-11.6239
予曰	-11.624
澣	-11.624
底意	-11.624
襦	-11.6241
復出	-11.6241
窕	-11.6242
洧	-11.6243
馨	-11.6243
簟反	-11.6244
俔	-11.6244
鷩	-11.6245
鱣	-11.6246
縵	-11.6246
絻	-11.6246
梟	-11.6247
慨	-11.6247
臬	-11.6247
麑	-11.6247
不耕	-11.6248
諸本作	-11.6248
幬	-11.6248
後十五日斗指	-11.6248
唅	-11.6249
汔	-11.6249
錞	-11.6249
瑣瑣	-11.6249
倮	-11.6249
咥	-11.6249
廞	-11.625
今從古	-11.625
其治	-11.625
不移	-11.625
崐崘	-11.6251
崔杼	-11.6251
罋	-11.6252
大夏	-11.6252
鈐	-11.6254
从目	-11.6254
纒	-11.6254
秭	-11.6255
臚	-11.6255
扶味	-11.6255
旱麓	-11.6255
蹌蹌	-11.6256
其詳	-11.6256
茇	-11.6256
孫毓	-11.6256
綢繆	-11.6256
窬	-11.6256
竽	-11.6257
訃	-11.6258
虎豹	-11.6258
二體	-11.6258
訏	-11.6259
甄	-11.6259
為禮	-11.6259
洋	-11.6259
駈	-11.6259
矣子曰	-11.626
椹	-11.626
萋萋	-11.626
杕杜	-11.6261
楨	-11.6261
溼	-11.6261
荆山	-11.6262
粢盛	-11.6262
說之	-11.6262
耉	-11.6262
郇	-11.6262
宼	-11.6264
瓠葉	-11.6264
岍	-11.6264
彝	-11.6264
擢	-11.6264
鏃	-11.6265
史記注四	-11.6265
大田	-11.6267
艷	-11.6267
鬷	-11.6267
訣	-11.6267
菁菁者莪	-11.6268
沐浴	-11.6269
作事	-11.6271
腯	-11.6272
匝	-11.6272
須臾	-11.6273
傳以	-11.6273
原隰	-11.6273
萟文類聚	-11.6273
專言	-11.6273
正嘉	-11.6273
仲虺	-11.6274
范甯	-11.6275
一獻	-11.6275
邶鄘衛	-11.6277
嵩髙	-11.6277
梁武帝	-11.6277
韓康伯	-11.6278
夾谷	-11.6279
薰	-11.6279
毛萇	-11.6279
州刺史	-11.628
大學中庸	-11.628
而先	-11.628
廂	-11.628
袵	-11.6281
驚蟄	-11.6281
脈	-11.6281
蒲坂	-11.6281
皋陶	-11.6281
韓詩外傳	-11.6282
駉	-11.6282
慿	-11.6282
昉	-11.6282
通典一百	-11.6282
無違	-11.6283
鈔	-11.6283
不獲其身	-11.6284
竆	-11.6284
陳文蔚録	-11.6284
途	-11.6284
若作苦	-11.6285
誅也	-11.6285
古兮	-11.6285
木鐸	-11.6286
南山有臺	-11.6286
大扺	-11.6286
屬上句	-11.6286
贖刑	-11.6286
倘	-11.6287
七八九六	-11.6289
通典八十	-11.629
乾鑿度	-11.6292
徐於	-11.6292
注疏本	-11.6293
甲戌	-11.6293
地氣	-11.6293
止是	-11.6295
不如是	-11.6296
月朔	-11.6296
師氏	-11.6297
東萊	-11.6297
今此	-11.6298
孟喜	-11.6298
趙孟	-11.6299
烈祖	-11.63
喚做	-11.6301
幸而	-11.6302
尼父	-11.6303
夾室	-11.6304
齋戒	-11.6305
顔師古	-11.6307
流沙	-11.6308
丈人	-11.6309
玉衡	-11.631
我思	-11.6311
祖乙	-11.6312
單伯	-11.6312
壺口	-11.6312
養生	-11.6314
崑崙山	-11.6314
於秦	-11.6315
角弓	-11.6315
燕飲	-11.6316
夫婦之	-11.6316
管叔	-11.6316
篇中	-11.6317
三十葉左	-11.6319
丁未	-11.632
是解	-11.632
灼反	-11.6321
妾母	-11.6325
建國	-11.6325
伐崇	-11.6328
孔孟	-11.6329
舊註	-11.633
文王之德	-11.633
玄黄	-11.6332
百穀	-11.6333
戸郎	-11.6334
不可復	-11.6336
正卿	-11.6336
謹按今本	-11.6339
用幣	-11.634
則思	-11.6341
將復	-11.6342
與君	-11.6343
在廟	-11.6344
字異	-11.6345
一百二十	-11.6345
然必	-11.6349
物物	-11.635
之祀	-11.6353
不知如何	-11.6356
釋例	-11.6356
可勝	-11.6358
夫子曰	-11.6359
王崩	-11.6359
城郭	-11.6361
先自	-11.6362
徐徒	-11.6363
不至於	-11.6364
卷首	-11.6365
張衡	-11.6366
戎車	-11.6368
嘗疑	-11.6369
明文	-11.6375
説經	-11.6375
愛敬	-11.6376
止而	-11.6376
南仲	-11.638
王肅本作	-11.638
在河	-11.638
自然如此	-11.6382
比干	-11.6384
公行	-11.6384
崇徳	-11.6384
稱君	-11.6385
多寡	-11.6385
期年	-11.6387
南河	-11.6387
太和	-11.6387
温公	-11.6388
五刀	-11.6388
四瀆	-11.6388
降而	-11.6388
文勢	-11.6389
五年經	-11.6389
者惟	-11.639
於世	-11.639
二三子	-11.639
正相	-11.6391
主宰	-11.6391
矣春秋	-11.6392
屬之	-11.6392
察之	-11.6392
始死	-11.6393
房心	-11.6395
獸也	-11.6396
五句	-11.6396
之食	-11.6397
之林	-11.64
錫命	-11.6404
未明	-11.6406
從君	-11.6407
直升	-11.6414
東郊	-11.6414
遐嫁反	-11.6415
以東	-11.6416
孟冬	-11.6417
司馬本	-11.6419
雲氣	-11.6421
危也	-11.6422
孟子所謂	-11.6423
此天地之	-11.6425
陽城	-11.6425
有者字	-11.6427
疏挍	-11.6427
涯也	-11.6428
之勢	-11.6429
之族	-11.6431
而外	-11.6433
有才	-11.6434
在日	-11.6434
安得有	-11.6436
問喪	-11.6441
註疏本	-11.6441
非真	-11.6443
世婦	-11.6444
可樂	-11.6449
故名	-11.6449
公即位	-11.645
相爲	-11.6452
刺其	-11.6455
四人	-11.6456
近乎	-11.6459
字相似	-11.6463
凡例	-11.6465
也若夫	-11.6466
非特	-11.6467
公會	-11.6467
直遥反下	-11.6469
無氷	-11.6473
於此乎	-11.6475
子南	-11.6477
二禮	-11.648
建本作	-11.648
徒弔	-11.6482
于委	-11.6483
觀於	-11.6483
水流	-11.6484
千嵗	-11.6485
領反	-11.6492
乎抑	-11.6492
十七行	-11.6495
以意求之	-11.6495
西方曰	-11.6497
王家	-11.6502
劉芳	-11.6502
女乙	-11.6502
滅也	-11.6503
全不	-11.6504
什一	-11.6504
七十六	-11.6507
校之	-11.6509
通變	-11.6513
君子所	-11.6514
猶在	-11.6514
草名	-11.6518
疑是	-11.652
於西	-11.6521
稱名	-11.6523
貴乎	-11.6525
孫子	-11.6533
和而	-11.6533
為難	-11.6537
大結	-11.6538
門也	-11.6539
必非	-11.6541
修徳	-11.6541
凡四	-11.6543
此下有	-11.6546
合乎	-11.6547
常處	-11.6547
不舉	-11.6551
馬牛	-11.6553
以敬	-11.6556
千百	-11.6559
邦人	-11.656
在洛	-11.656
既作	-11.6563
大角	-11.6564
雖異	-11.6564
未達	-11.6564
於阮	-11.6565
音紀	-11.6568
弗能	-11.6569
食禮	-11.657
上士	-11.6572
不憂	-11.6573
校宋疏	-11.6573
討之	-11.6574
之勇	-11.6574
有位	-11.6575
是正	-11.6575
不能盡	-11.6577
他得反	-11.6579
之什	-11.6582
立學官	-11.6586
賢徧反下	-11.6587
後漢書注	-11.6587
念之	-11.6588
此三者	-11.6589
非獨	-11.659
七餘	-11.6591
宋板上	-11.6591
習坎	-11.6597
許氏	-11.6599
無用	-11.6599
詩大雅	-11.66
然後得	-11.6601
㬊淵錄第十	-11.6605
有知	-11.6608
亂世	-11.6611
史記注	-11.6613
民皆	-11.6615
江東	-11.662
無上	-11.662
脫字	-11.6622
上看	-11.6623
動物	-11.6626
遂有	-11.6626
百物	-11.6628
時見	-11.6629
最為	-11.6632
中春	-11.6636
居處	-11.6636
七賜	-11.6636
免於	-11.6641
終是	-11.6647
無已	-11.6648
直覲反	-11.6648
節度	-11.6651
大指	-11.6652
入室	-11.6655
之衣	-11.6659
唯季反	-11.6662
擯者	-11.6666
㣲子	-11.6671
積也	-11.6671
十人	-11.6674
如字鄭	-11.6674
以足	-11.6674
其官	-11.6675
立廟	-11.6682
君長	-11.6687
矣豈	-11.6688
罪人	-11.6697
律中	-11.6701
椽	-11.6701
坻	-11.6707
起于	-11.6707
車上	-11.671
攻之	-11.6712
成帝	-11.6712
憸	-11.6712
枵	-11.6712
覜	-11.6717
坡	-11.6717
蒲北反	-11.6719
宋板之作	-11.672
反郭云	-11.6721
枳	-11.6723
罃	-11.6724
樛	-11.6724
許靳	-11.6724
鎋	-11.6724
草木䟽云	-11.6726
抶	-11.6726
鈇	-11.6727
紵	-11.6728
蘋	-11.6728
舞者	-11.6728
不純	-11.6728
閒廁	-11.6729
爓	-11.673
鈃	-11.673
愒	-11.6732
鸇	-11.6732
饁	-11.6732
丁劣反	-11.6733
通乎	-11.6734
霆	-11.6734
匹妙	-11.6735
桓子	-11.6737
黽	-11.6737
襜	-11.6737
祖禰	-11.6737
滔	-11.6737
漷	-11.6738
經典釋文卷第二十	-11.6738
芳劒	-11.6739
古臥反	-11.6739
瑜	-11.674
並史記注	-11.674
忮	-11.6742
故舉	-11.6742
楮	-11.6742
兢兢	-11.6742
饜	-11.6743
矇	-11.6743
所校	-11.6743
篳	-11.6744
刲	-11.6744
嵎	-11.6744
韍	-11.6744
澹	-11.6744
卒而	-11.6744
劇	-11.6745
蚌	-11.6745
瞍	-11.6745
紆粉	-11.6745
篇内	-11.6745
告廟	-11.6745
楅	-11.6746
漢人	-11.6746
餱	-11.6746
配之	-11.6746
串	-11.6746
玆	-11.6747
伶	-11.6748
茂后	-11.6748
袷	-11.6748
箱	-11.6749
鄀	-11.6749
餗	-11.6749
蚩	-11.675
澨	-11.675
矍	-11.6751
惻	-11.6751
不朝	-11.6752
平時	-11.6752
啄	-11.6752
姝	-11.6752
跨	-11.6752
嗣王	-11.6752
㠯	-11.6753
譯	-11.6753
蒨	-11.6754
裨	-11.6754
戯	-11.6755
疐	-11.6755
瓘	-11.6755
蠅	-11.6755
鄟	-11.6755
極言	-11.6756
礪	-11.6756
底便是	-11.6756
閫	-11.6757
膋	-11.6757
娛	-11.6757
墐	-11.6758
塡	-11.6759
譙	-11.6759
鱄	-11.6759
許庚反	-11.6759
擿	-11.676
諏	-11.676
兩手	-11.676
時掌反下	-11.6761
凷	-11.6761
菼	-11.6761
而去之	-11.6762
洎	-11.6762
能守	-11.6762
特牲饋食禮	-11.6763
簭	-11.6763
闓	-11.6763
廖	-11.6763
稗	-11.6764
蒯聵	-11.6764
憯	-11.6764
秬鬯	-11.6765
漚	-11.6765
朼	-11.6765
村	-11.6766
饘	-11.6766
許乙	-11.6767
惄	-11.6767
猾	-11.6768
文侯之命	-11.6768
翹翹	-11.6769
當作兩音	-11.677
牿	-11.677
戡黎	-11.6771
也郭云	-11.6771
案左傳	-11.6771
毀	-11.6771
繂	-11.6772
岱宗	-11.6772
也韓詩云	-11.6773
娑	-11.6773
蒍	-11.6773
平正	-11.6774
疏王曰至	-11.6774
丣	-11.6774
方成	-11.6775
通鑑音注	-11.6775
矣蓋	-11.6775
徒暫	-11.6776
俑	-11.6776
旄丘	-11.6776
徒臥	-11.6776
漢文帝	-11.6776
狼跋	-11.6776
鴛鴦	-11.6777
梁惠王	-11.6777
夤	-11.6777
穟	-11.6777
季康子	-11.6778
之號	-11.6778
諄諄	-11.6778
卑下	-11.678
緇布冠	-11.678
蒲盧	-11.6781
乍	-11.6781
宛丘	-11.6782
胡老	-11.6783
執競	-11.6784
羔羊	-11.6784
羡	-11.6784
山東	-11.6785
祭先	-11.6785
麒麟	-11.6785
曺	-11.6785
服虔	-11.6786
業業	-11.6787
毛傳云	-11.6787
下有也字下註	-11.6787
忠肅	-11.6787
徒困	-11.6788
怕	-11.6789
釋詁	-11.679
丙午	-11.6791
戠	-11.6792
禮記鄭氏註	-11.6792
夏小正	-11.6792
市制	-11.6793
不可謂	-11.6793
定姒	-11.6793
通鑑	-11.6793
夕惕若厲	-11.6793
謂孔子	-11.6795
篇内同	-11.6795
先鄭云當為	-11.6795
伐奄	-11.6796
十畝	-11.6796
作巳誤	-11.6797
于付反	-11.6798
淑女	-11.6798
種種	-11.68
予小子	-11.6801
太尉	-11.6801
穆姜	-11.6802
大麓	-11.6803
夫人姜氏	-11.6804
折獄	-11.6804
注誤字	-11.6804
龍見	-11.6804
無所考	-11.6804
殷王	-11.6806
偏旁	-11.6807
玉帛	-11.6807
戸郭	-11.6808
錯雜	-11.6809
為兵	-11.6809
佩玉	-11.6811
蒼蒼	-11.6812
上當脱	-11.6812
甲午	-11.6813
軍帥	-11.6815
曽子問	-11.6817
白露	-11.6817
踐土	-11.6818
庶徴	-11.6819
車攻	-11.6819
博厚	-11.6819
並誤	-11.6819
鼓舞	-11.682
征凶	-11.6821
十五葉右六行	-11.6822
為證	-11.6822
沙隨	-11.6823
尤甚	-11.6826
徒役	-11.6827
馬本	-11.6828
先正	-11.6829
干支	-11.6829
輈人	-11.6831
萬邦	-11.6831
衡門	-11.6832
樂章	-11.6832
貶之	-11.6833
如此看	-11.6833
心中	-11.6835
庖人	-11.6837
之側	-11.6837
論衡	-11.6839
二十九篇	-11.6841
天降	-11.6844
之然反	-11.6845
陳淳録	-11.6847
之功也	-11.6848
用周正	-11.6849
化而	-11.685
程易	-11.6851
不遺	-11.6852
詩疏	-11.6853
以下至	-11.6853
名分	-11.6855
在齊	-11.6856
荆公	-11.6857
司射	-11.6859
齊家	-11.686
地勢	-11.6861
取妻	-11.6861
而况	-11.6863
音岳又	-11.6864
頭也	-11.6865
陽厭	-11.6866
四世	-11.6866
微仲	-11.6867
河北	-11.6868
封于	-11.6869
邦角	-11.6871
晉文公	-11.6871
冬夏	-11.6873
近世	-11.6875
始封	-11.6876
二十八篇	-11.6876
徒旦	-11.6876
並釋文	-11.6878
二百四十	-11.6879
所食	-11.6881
授受	-11.6881
既而	-11.6883
魯讀	-11.6883
神靈	-11.6884
大雩	-11.6885
所尊	-11.6885
樂名	-11.6886
尊於	-11.6886
則何以	-11.6888
大雪	-11.6892
若只	-11.6893
獨無	-11.6895
公穀	-11.6895
國政	-11.6896
惟聖人	-11.6896
不日	-11.6897
徧也	-11.6898
不回	-11.6899
帝乙	-11.69
不仕	-11.6901
七百二十	-11.6904
樂官	-11.6904
其誠	-11.6905
碑云	-11.6906
北宫	-11.6908
兆民	-11.691
爻也	-11.691
通志	-11.6914
詳矣	-11.6914
一世	-11.6914
爲王	-11.6915
安樂	-11.6915
處多	-11.6915
得名	-11.6916
雜亂	-11.6917
何氏	-11.6919
舉也	-11.692
元者	-11.6923
數世	-11.6923
恐只是	-11.6924
養人	-11.6925
同又如字	-11.6925
也不然	-11.6926
直結	-11.6928
為戒	-11.6929
好貌	-11.6931
學詩	-11.6931
于鬼	-11.6935
兩言	-11.6939
習之	-11.694
氣質	-11.6942
虞氏	-11.6942
年月	-11.6947
相同	-11.6947
做事	-11.6951
治亂	-11.6952
非惟	-11.6953
正誤當作	-11.6956
以作似	-11.6957
共之	-11.6959
失於	-11.6961
以明之	-11.6962
不足信	-11.6964
亦不知	-11.6964
未當	-11.6969
周禮疏二十	-11.6972
有若	-11.6972
久而	-11.6973
已發	-11.6978
使天下	-11.6981
識其	-11.6981
總名	-11.6981
十二章	-11.6983
前言	-11.6983
宋儒	-11.6985
自然不	-11.6988
周禮有	-11.6989
職事	-11.6989
下有曰字	-11.6991
安定	-11.6992
太學	-11.6992
人倫之	-11.6996
牛馬	-11.6998
也王云	-11.6999
須先	-11.7
沃反	-11.7001
原文	-11.7002
胡臥	-11.7002
謝音	-11.7003
如此說	-11.7004
周禮疏十	-11.7005
黄龍	-11.7005
亨字	-11.701
序文	-11.7016
七賜反	-11.7017
土也	-11.7017
徒報反	-11.7017
御覽五百	-11.7019
諸本皆作	-11.702
音去聲	-11.7024
宋襄	-11.7024
所㑹	-11.7027
可作	-11.703
徒何	-11.703
所養	-11.703
音逸	-11.7031
一角	-11.7031
唐人	-11.7032
此其所以	-11.7033
二物	-11.7033
丁老	-11.7033
舊唐書	-11.7035
東漢	-11.7036
誰謂	-11.7036
烏侯	-11.7041
何處	-11.7041
之漸	-11.7045
能成	-11.7045
致仕	-11.7047
鄉飲酒禮	-11.7048
一邊	-11.7049
僖五年	-11.705
賦詩	-11.705
遺書	-11.7054
莫知	-11.7059
大喪	-11.7064
為金	-11.7065
所以成	-11.7068
據此	-11.7069
用處	-11.707
十五傳	-11.7075
入河	-11.708
顯然	-11.7081
成章	-11.7083
絹反	-11.7084
以入	-11.7084
九倫	-11.7084
如彼	-11.7088
亦難	-11.7088
嵗時	-11.7088
毛鄭	-11.7089
葬者	-11.7091
本義云	-11.7093
季冬	-11.7094
然非	-11.7095
而後能	-11.7095
也鄭作	-11.7096
之設反	-11.7097
春秋公羊	-11.7102
烏報	-11.7102
終篇	-11.7102
也盧注	-11.7103
釋文引	-11.7103
而後可	-11.7103
一切	-11.7104
交相	-11.7104
者也故	-11.7105
擊也	-11.7106
至漢	-11.7106
七亦	-11.7108
公羊作	-11.7114
邑名	-11.7118
立言	-11.7118
下武	-11.7125
齊地	-11.7125
不測	-11.7128
焉爾	-11.7134
君親	-11.7135
非徒	-11.7137
年末	-11.7137
穆子	-11.7139
五十一	-11.7143
左氏曰	-11.7145
非所以	-11.7145
之證	-11.7146
視其	-11.7147
田也	-11.7149
申明	-11.715
易象	-11.7156
音璧	-11.7156
箇道理	-11.7156
口傳	-11.7157
五紀	-11.7167
音一卷	-11.7169
揲之	-11.7169
周行	-11.7171
乃若	-11.7171
篇篇	-11.7171
他事	-11.7172
不可行	-11.7179
說道	-11.718
度數	-11.7181
又苦	-11.7182
後代	-11.7186
色吏反	-11.7187
力兮	-11.7187
三足	-11.719
平又	-11.7192
又須	-11.7193
而冠	-11.7194
音遂	-11.7195
内事	-11.7195
之屬下	-11.7195
苦結反	-11.7198
精氣	-11.7204
十八章	-11.7206
宗國	-11.721
各隨	-11.7214
非一人	-11.7221
神人	-11.7225
昌氏反又	-11.7226
遣政	-11.7231
下有者字足利本同	-11.7232
未生	-11.7233
齊王	-11.7235
六十二	-11.7236
十五日	-11.7236
補之	-11.7237
沔	-11.7239
不為無	-11.7239
南國	-11.724
六二爻辭	-11.7241
羆	-11.7243
捲	-11.7243
埤蒼	-11.7244
祀之	-11.7247
兜	-11.7247
音袁	-11.7247
一乗	-11.7247
不論	-11.7247
楸	-11.7247
所樂	-11.7248
歠	-11.7249
毛詩註疏第十	-11.725
伉	-11.725
逸書	-11.7251
翫	-11.7251
柝	-11.7253
罔不	-11.7253
貔	-11.7255
知來	-11.7255
軨	-11.7255
已甚	-11.7257
涘	-11.7257
吕忱	-11.7257
紟	-11.7258
適當	-11.7258
邶	-11.726
湫	-11.726
虔	-11.726
十二度	-11.726
韣	-11.726
悝	-11.726
癉	-11.7261
蚣	-11.7261
不分	-11.7262
幠	-11.7263
僵	-11.7263
鬴	-11.7263
叫	-11.7263
噍	-11.7263
控	-11.7263
鎗	-11.7263
寕	-11.7264
廕	-11.7265
豝	-11.7265
罽	-11.7265
呻	-11.7265
韔	-11.7266
纉	-11.7267
犫	-11.7267
骼	-11.7268
秫	-11.7268
憒	-11.7269
粻	-11.7269
僉	-11.7269
肌	-11.7269
叱	-11.727
腵	-11.727
賔主	-11.727
所以明	-11.7272
惔	-11.7272
􁈩	-11.7272
孌	-11.7272
霓	-11.7272
敲	-11.7272
不可用	-11.7273
醋	-11.7274
君位	-11.7274
宄	-11.7274
紡	-11.7274
詩小雅	-11.7274
不比	-11.7275
抉	-11.7275
於妙反	-11.7276
迸	-11.7276
柷敔	-11.7277
撲	-11.7278
斑	-11.7278
眄	-11.728
耋	-11.728
褻	-11.728
他彫	-11.728
勑律	-11.728
鼜	-11.7281
亳社	-11.7281
翠	-11.7282
煢	-11.7282
備鄙	-11.7282
私心	-11.7282
鐏	-11.7282
疆埸	-11.7282
古喚	-11.7282
盛時	-11.7283
侜	-11.7284
屛	-11.7284
紲	-11.7285
不妄	-11.7286
觱	-11.7287
古頑	-11.7287
街	-11.7287
灋	-11.7287
喈喈	-11.7288
异	-11.7288
湏	-11.7288
螘	-11.7288
泊	-11.7288
邯鄲	-11.7291
娵訾	-11.7291
霣	-11.7291
女君	-11.7292
食亦反下	-11.7292
虆	-11.7292
展反	-11.7292
隐	-11.7293
案朱子云	-11.7293
箇物事	-11.7294
薑	-11.7295
蚍蜉	-11.7295
都尉	-11.7295
癸丑	-11.7295
竺	-11.7295
冉反	-11.7295
徐許	-11.7296
為人後者	-11.7296
襟	-11.7296
鮐	-11.7297
並史記注四十	-11.7297
匡謬正俗	-11.7297
姣	-11.7298
槍	-11.7298
西王母	-11.7298
蝃蝀	-11.7299
望其	-11.7299
㤀	-11.7299
桂	-11.7299
逰	-11.7299
拓	-11.73
隍	-11.7301
困學紀聞	-11.7301
好善	-11.7302
癸酉	-11.7302
衰絰	-11.7302
陪臣	-11.7302
光武	-11.7303
兔罝	-11.7303
大夫刺幽王	-11.7304
李軌	-11.7304
其難其慎	-11.7304
鼓瑟	-11.7305
㽔賓	-11.7305
勵	-11.7305
另	-11.7306
踐奄	-11.7307
上如字下	-11.7307
不謂之	-11.7308
圭璧	-11.7308
鍳	-11.7308
干旄	-11.7309
辛卯	-11.7309
陽陽	-11.7311
許亮反本	-11.7311
廵狩	-11.7312
讀詩記	-11.7312
郤克	-11.7312
等謹案	-11.7312
影宋本釋文	-11.7312
两	-11.7313
倉頡	-11.7313
罸	-11.7314
鶉尾	-11.7314
雞鳴	-11.7314
儁	-11.7314
辛巳	-11.7314
整頓	-11.7315
皆从	-11.7315
形象	-11.7315
吉凶悔吝	-11.7315
吕燾録	-11.7316
史記注一	-11.7316
再拜稽首	-11.7318
將仲子	-11.7318
車徒	-11.7318
宋本疏二十	-11.7318
太姒	-11.7319
淫奔	-11.732
占夢	-11.732
臧否	-11.732
六十五	-11.732
之飾	-11.732
之説則	-11.732
利建侯	-11.7321
無過不及	-11.7321
詩疏十七之	-11.7321
所論	-11.7322
三十五葉左	-11.7322
行夏之時	-11.7322
安排	-11.7323
吐活反	-11.7323
重複	-11.7324
中霤	-11.7324
百揆	-11.7325
吉㐫	-11.7326
㬊淵錄第九章	-11.7326
陽貨	-11.7327
襃貶	-11.7328
鄭氏箋	-11.7329
徒回	-11.7331
鄭氏云	-11.7332
皆謂之	-11.7332
之美者	-11.7333
臨川	-11.7335
徐方	-11.7336
匪解	-11.7337
戎狄	-11.7337
忠信所以進徳	-11.7337
而巳	-11.7339
自周	-11.7339
鄉飲	-11.734
樂歌	-11.7341
律歴志	-11.7342
宋板則作	-11.7342
無心	-11.7343
虚危	-11.7345
初危	-11.7345
黄鍾之宮	-11.7346
所建	-11.7347
謹按為是	-11.7348
魚器	-11.7348
經綸	-11.7349
初學記十	-11.735
承上	-11.7351
丁寧	-11.7351
音的	-11.7352
漢廣	-11.7352
安可	-11.7353
楚王	-11.7354
五齊	-11.7355
休休	-11.7355
北風	-11.7358
指為	-11.7358
昌邑	-11.736
魯哀公	-11.7361
北燕	-11.7362
之君子	-11.7362
韓侯	-11.7363
其事也	-11.7363
匪風	-11.7363
便見得	-11.7364
叢生	-11.7367
十二州	-11.7369
霜降	-11.7369
承上文	-11.7371
泰否	-11.7372
而後有	-11.7372
素報	-11.7373
改字	-11.7375
月行	-11.7376
薛君	-11.7377
魚列反	-11.7377
齊國	-11.7379
此詩言	-11.7379
無疑矣	-11.7379
其靳	-11.7379
弗敢	-11.738
簡而	-11.738
大賢	-11.7381
楚公子	-11.7381
災害	-11.7381
古字通	-11.7383
兩邊	-11.7383
其月反	-11.7385
行露	-11.7387
徒河	-11.7388
有周	-11.7389
不以禮	-11.7392
敬仲	-11.7392
總序	-11.7393
納之	-11.7393
范氏	-11.7396
丁仲反下	-11.7396
字叔	-11.7396
齊整	-11.7399
増入	-11.7401
吾道	-11.7401
荀卿子	-11.7404
能用	-11.7405
入廟	-11.7405
星出	-11.7406
經緯	-11.7407
識者	-11.741
添一	-11.7411
今據	-11.7416
降殺	-11.7416
左足	-11.7418
禮家	-11.7421
右莊公	-11.7422
白色	-11.7426
東向	-11.7426
在南	-11.7428
不苟	-11.7429
無曰字	-11.743
此四者	-11.7431
六義	-11.7433
華元	-11.7433
直畧反	-11.7433
自我	-11.7436
用工	-11.7442
七故反	-11.7443
禮統	-11.7444
保氏	-11.7444
仆也	-11.7447
字書云	-11.7449
長尺	-11.7452
盡得	-11.7453
奉之	-11.7455
六師	-11.7458
分為二	-11.7462
如字本或	-11.7462
北門	-11.7464
萬世之	-11.7466
附近之	-11.7466
邵子	-11.7469
溺於	-11.7469
天地之數	-11.7469
始皇	-11.7471
體仁	-11.7472
下有之也二字釋文	-11.7472
除去	-11.7473
戸剛反	-11.7476
力甚	-11.7479
甸師	-11.7482
五廟	-11.7486
于萬反	-11.7486
弱水	-11.7486
齊戒	-11.7486
夫差	-11.749
朝于	-11.7492
音格	-11.7493
大室	-11.7493
十一章	-11.7494
力計	-11.7496
縣東	-11.7496
今月令	-11.7496
天之所	-11.7499
故不得	-11.75
以柔	-11.7503
答之	-11.7504
不要	-11.7509
已久	-11.7509
所尚	-11.751
今乃	-11.751
三十五葉右	-11.7511
形於	-11.7512
然下有也字	-11.7517
戾也	-11.752
五十九	-11.7521
失之矣	-11.7522
覺得	-11.7522
未始	-11.7525
亦須	-11.7527
興師	-11.7528
公卿大夫	-11.7529
所指	-11.7533
之害	-11.7536
所録	-11.7537
當立	-11.7541
以位	-11.7544
冠義	-11.7545
力政	-11.7546
降等	-11.7547
名氏	-11.7549
焉耳	-11.7549
有差	-11.7549
便是他	-11.755
者非也	-11.7552
公羊疏二十	-11.7553
既知	-11.7553
天老	-11.7555
許丈反	-11.7557
注十二卷	-11.7557
字非也	-11.7559
疏同	-11.7565
入學	-11.7571
前説	-11.7576
徐胡	-11.7578
孫氏	-11.7582
化民	-11.7583
宋板於作	-11.7585
必然	-11.7586
謬矣	-11.7587
千九百	-11.7589
賈注	-11.759
在辰	-11.7592
上照	-11.7596
八分	-11.7596
則無以	-11.7598
萬物皆	-11.7598
御者	-11.7601
生成	-11.7601
事實	-11.7601
是此意	-11.7603
子展	-11.7609
傷也	-11.761
繩證反注	-11.7611
寛大	-11.7611
燕樂	-11.7615
舜禹	-11.7619
鬯人	-11.762
曾祖	-11.7623
卦氣	-11.7624
二節	-11.7629
經問卷	-11.7634
反又力	-11.7636
截然	-11.7637
時祭	-11.7638
廟之主	-11.7638
天地人	-11.7644
二戴	-11.7645
純一	-11.7651
次于	-11.7653
婢世反	-11.7653
為之服	-11.7653
亦自有	-11.7655
故使	-11.7655
子曰吾	-11.7657
補本足利本同	-11.7658
相勝	-11.7661
其説而	-11.7663
三者皆	-11.7665
因名	-11.7665
有爭	-11.7666
息亮反注	-11.7667
小貌	-11.7671
蔡人	-11.7672
周謨錄第	-11.7673
不堪	-11.7677
尚矣	-11.7679
非復	-11.768
復生	-11.7681
正理	-11.7682
因事	-11.7682
九卦	-11.7682
于八	-11.7687
子朝	-11.7689
天之氣	-11.7691
在野	-11.7696
隂陽交	-11.77
夫子所以	-11.7705
體用	-11.7709
可比	-11.7711
子郎	-11.7716
自以為	-11.7718
正文	-11.7721
鄭氏以	-11.7722
古報	-11.7728
古口	-11.7731
錫之	-11.7731
順理	-11.7732
必邁反	-11.7732
否曰是	-11.7732
公命	-11.7732
農事	-11.7733
一遥反	-11.7736
過差	-11.7738
東平	-11.7739
時月	-11.7741
爾雅曰	-11.7752
宋板正嘉同	-11.7753
有應	-11.7755
子念反	-11.7756
尊長	-11.7757
从禾	-11.776
為羽	-11.7763
見前	-11.7764
吾子	-11.7765
有益	-11.7767
惟王	-11.7767
大夫賈逵	-11.7768
嘉萬	-11.7772
晉楚	-11.7773
大寒	-11.7773
行貌	-11.7777
二代	-11.7779
陔	-11.7781
子兮	-11.7785
禬	-11.7786
周語	-11.7786
韗	-11.7786
三十六葉	-11.7787
出地	-11.7787
清人	-11.7787
衫	-11.7789
七計	-11.779
民之所	-11.779
尖	-11.7794
順行	-11.7795
淇	-11.7795
六爻皆	-11.7795
駝	-11.7796
騑	-11.7799
初冝反	-11.7799
梲	-11.7799
昭然	-11.78
義取	-11.78
金奏	-11.7801
苫	-11.7802
便生	-11.7804
蘂	-11.7804
擊之	-11.7804
旜	-11.7804
戟	-11.7807
寸忽	-11.7808
神明之	-11.7808
譟	-11.7808
腴	-11.7809
儌	-11.781
相從	-11.781
琅	-11.7811
疲	-11.7811
茭	-11.7812
以下皆	-11.7813
呵	-11.7814
㳂	-11.7814
跲	-11.7816
解說	-11.7817
儳	-11.7817
輶	-11.7818
蜮	-11.7818
古賀反	-11.7818
鎧	-11.7819
嚼	-11.782
冊府元龜六百	-11.782
王法	-11.782
施行	-11.782
欿	-11.7821
嘒	-11.7821
諄	-11.7822
裯	-11.7822
貓	-11.7823
儗	-11.7823
逅	-11.7823
之感	-11.7823
居居	-11.7824
聦	-11.7825
迆	-11.7825
儻	-11.7826
犁	-11.7826
褰	-11.7827
刷	-11.7827
薈	-11.7827
衈	-11.7827
侔	-11.7827
骸	-11.7827
絆	-11.7827
堙	-11.7828
秩秩	-11.7828
不同故	-11.7829
許愼	-11.7829
滸	-11.7829
瘧	-11.7829
婆	-11.783
偝	-11.783
戸暗	-11.7831
蟠	-11.7831
庳	-11.7831
酆	-11.7831
怍	-11.7831
葅	-11.7832
薊	-11.7832
瓞	-11.7833
禕	-11.7833
禖	-11.7833
泭	-11.7834
笱	-11.7834
蕰	-11.7834
呌	-11.7835
厨	-11.7835
邶鄘	-11.7835
今文曰	-11.7836
蓱	-11.7836
紊	-11.7837
苦穴	-11.7837
菉	-11.7837
浩浩	-11.7837
滕文公	-11.7837
䑓	-11.7837
琮	-11.7837
孥	-11.7837
國語作	-11.7837
蟈	-11.7838
柘	-11.7838
墊	-11.7838
㲈	-11.7838
僧	-11.7838
絅	-11.7839
鋸	-11.784
宋板者作	-11.784
犉	-11.784
螣	-11.784
李巡	-11.784
膊	-11.784
櫕	-11.7841
鰥寡	-11.7841
稹	-11.7842
簜	-11.7844
溽	-11.7844
𦙍征	-11.7844
猗嗟	-11.7845
畦	-11.7845
考槃	-11.7846
襍	-11.7846
翩翩	-11.7846
隨事	-11.7847
于付	-11.7847
瑚	-11.7848
釀	-11.7849
羇	-11.7849
普悲	-11.7849
嘖	-11.7849
不窋	-11.785
螟蛉	-11.7851
西北隅	-11.7851
丙戌	-11.7851
野有蔓草	-11.7852
恱絹	-11.7852
與孟子	-11.7854
數目	-11.7854
字疑誤倒	-11.7855
蠧	-11.7856
被髮	-11.7856
畱	-11.7856
良耜	-11.7857
鸜鵒	-11.7857
貼	-11.7858
鎬京	-11.7858
伐檀	-11.7858
微子之命	-11.7859
峰	-11.7859
参	-11.786
則自然	-11.7861
禘祫	-11.7861
濛	-11.7861
塲	-11.7861
季孫行父	-11.7861
狐裘	-11.7861
汲冢	-11.7861
樞機	-11.7862
張揖	-11.7863
煥	-11.7864
潔白	-11.7865
昏姻	-11.7865
下一本有	-11.7865
諱之	-11.7865
並通典九十	-11.7865
至親	-11.7866
譬喻	-11.7867
燉煌	-11.7867
㐫	-11.7868
蒼梧	-11.7868
拏	-11.7868
駁五經異義	-11.7868
歲池録	-11.7868
坂	-11.7869
唐太宗	-11.7869
凢	-11.7872
釋云	-11.7872
滎作熒	-11.7872
聃	-11.7872
御史大夫	-11.7873
枝葉	-11.7874
自上而下	-11.7874
后蒼	-11.7875
殷紂	-11.7875
小旻	-11.7875
穩	-11.7875
女媧	-11.7876
未足	-11.7876
郊社	-11.7876
透	-11.7876
規模	-11.7878
與民同	-11.7878
縱横	-11.7878
日作曰誤	-11.7879
源流	-11.7879
字不知據何本也	-11.7882
五陽	-11.7883
運轉	-11.7883
未甞	-11.7884
玄端	-11.7884
七十五人	-11.7884
自來	-11.7885
字疑衍文	-11.7885
夷姜	-11.7885
青青	-11.7886
奔䘮	-11.7889
歌詠	-11.7889
緊要	-11.7889
博施	-11.7889
太乙	-11.789
失閏	-11.789
信乎	-11.7891
仕皆	-11.7894
希夷	-11.7894
乾健	-11.7896
亦因	-11.7897
王莽時	-11.7898
合通用	-11.7898
大卜	-11.7898
既醉	-11.7899
言民	-11.7899
而知其	-11.79
子糾	-11.7901
吉禘	-11.7901
丁丑	-11.7902
既殯	-11.7903
禮論	-11.7905
爻象	-11.7906
孟孫	-11.7909
少者	-11.791
三苖	-11.7911
敬則	-11.7912
故不敢	-11.7912
洞然	-11.7912
玄冠	-11.7913
許男	-11.7913
刄反	-11.7913
夷齊	-11.7913
渾天	-11.7914
己巳	-11.7915
小暑	-11.7917
不全	-11.7918
祈父	-11.7919
不可測	-11.792
情偽	-11.7922
曾孫	-11.7923
功德	-11.7923
則固	-11.7923
程先生	-11.7924
克殷	-11.7924
説苑	-11.7927
九黎	-11.7927
忠厚	-11.7928
人才	-11.7928
恁地説	-11.7929
古本作	-11.793
甲胄	-11.7931
景帝	-11.7931
將死	-11.7933
日南至	-11.7933
難知	-11.7937
如雨	-11.7938
羣神	-11.7938
有遺	-11.7939
為司徒	-11.7939
列宿	-11.7942
尊嚴	-11.7943
厚薄	-11.7943
四百里	-11.7943
思念	-11.7943
苦門	-11.7943
虞度	-11.7944
豐年	-11.7944
言不可	-11.7947
星神姓	-11.7947
存而	-11.795
之道下	-11.7952
所白	-11.7953
赤色	-11.7954
衡山	-11.7955
篇第	-11.7956
彗星	-11.7958
稽疑	-11.7958
下車	-11.7963
三台	-11.7965
為司冦	-11.7969
便只是	-11.797
右大雅	-11.7971
末有	-11.7971
衰而	-11.7971
居勿	-11.7971
鮮明	-11.7973
欲速	-11.7973
宋華	-11.7975
古人以	-11.7976
衆庶	-11.7977
内皆同	-11.7978
戸内	-11.7978
異本作	-11.7979
説箇	-11.7979
如雲	-11.798
也又按	-11.7981
㑹諸侯	-11.7982
從口	-11.7984
臣工	-11.7984
人面	-11.7985
音汝下	-11.7989
畢命	-11.7992
子之言	-11.7993
御史	-11.7996
戰國時	-11.7997
四邊	-11.8
七十里	-11.8001
愚嘗	-11.8002
正徳本	-11.8007
做出	-11.8007
包山	-11.8007
才臥反	-11.8008
而傳之	-11.8014
底卦	-11.8014
圍成	-11.8015
法象	-11.8015
左史	-11.8016
音赦	-11.802
未見其	-11.8026
注二卷	-11.8026
戸交	-11.8027
相亂	-11.8028
考工	-11.8029
皆合	-11.8029
刪去	-11.803
今亡	-11.8032
要道	-11.8035
嚌之	-11.8036
謬誤	-11.8038
今從	-11.8039
下有也字補遺古本註	-11.8041
毛伯	-11.8042
告朔	-11.8045
尤為	-11.8046
三星	-11.8047
長庚	-11.8049
何異	-11.8053
必能	-11.8055
將命	-11.8056
為乾	-11.8058
縣東南	-11.8059
而後可以	-11.806
下有也字傳	-11.8066
第十四	-11.8067
皆屬	-11.8069
又却	-11.8071
綱領	-11.8073
臯門	-11.8073
魏志	-11.8076
說話	-11.8078
戸結	-11.808
語助	-11.808
必亦反	-11.8083
三十七葉右	-11.8083
市專反	-11.8084
不達	-11.8084
萬年	-11.8085
止于	-11.8086
只是說	-11.8089
言王者	-11.809
胡豆	-11.8092
拒之	-11.8093
杜預云	-11.8095
之位也	-11.8099
公羊傳云	-11.8099
遣使	-11.81
二詩	-11.8102
如此類	-11.8102
互見	-11.8104
封康叔	-11.8104
力狄	-11.8105
平日	-11.8107
風后	-11.8111
反本今作	-11.8113
邦君	-11.8116
今考	-11.8118
也廣韻	-11.8118
接見	-11.8121
不敢自	-11.8122
孔父	-11.8123
音嗣下	-11.8125
成形	-11.8125
十九篇	-11.8134
公邑	-11.8135
許規	-11.814
山堂考索續集十	-11.8144
音預下	-11.8144
此例	-11.8147
長長	-11.8152
皆如此	-11.8153
做底	-11.8157
相須	-11.8157
子六反	-11.8158
終焉	-11.8158
日角	-11.8159
直亮反	-11.816
以地	-11.8161
也或問	-11.8163
雷風	-11.8164
天駟	-11.8164
昭子	-11.8164
存舊禮記正義卷第	-11.8166
五分	-11.8166
美惡	-11.8166
不平	-11.817
大惡	-11.817
妾子	-11.817
宋板為是	-11.8175
子衿	-11.8178
矣是以	-11.8178
齊楚	-11.8179
盛德	-11.8179
知天命	-11.818
啟之	-11.8182
法制	-11.8182
有客	-11.8183
魚吕反本	-11.8185
出納	-11.8185
大體	-11.8188
不見得	-11.819
風雅	-11.8191
不愆	-11.8191
才故	-11.8191
十五乘	-11.8194
尊尊	-11.8197
有悔	-11.8197
所吏反下	-11.8198
十三行	-11.8199
古堯反	-11.8201
虚明	-11.8201
而藏之	-11.8203
三十六葉右	-11.8204
言文王	-11.8209
曾見	-11.8211
百三十	-11.8215
之志也	-11.8218
初九爻辭	-11.8221
成列	-11.8224
不恭	-11.8229
四陽	-11.8233
齊晉	-11.8234
如字本又作	-11.8237
象魏	-11.8244
便須	-11.8248
吐刀	-11.8253
說非也	-11.8257
註引	-11.8257
可攷	-11.8258
勑六反	-11.8262
異名	-11.8262
紀年	-11.8263
朝㑹	-11.8264
觀象	-11.8264
昭七年	-11.8265
訓釋	-11.8266
高祖	-11.8268
今詩	-11.8269
説了	-11.8271
戸交反	-11.8272
無理	-11.8275
繫辭下	-11.8277
聖人因	-11.8278
得衆	-11.8278
者天之	-11.8283
危行	-11.8284
其羽	-11.8285
欲觀	-11.8285
凡物	-11.829
五報反	-11.8297
只說	-11.83
大陸	-11.8302
夫家	-11.8305
其驕	-11.8305
春秋傳云	-11.8306
方始	-11.8307
从兩	-11.831
已定	-11.831
不相應	-11.8316
彖云	-11.8318
此特	-11.8323
三江	-11.8331
從父	-11.8333
遑	-11.8334
山陽	-11.8335
何疑	-11.8343
説道理	-11.8343
平常	-11.8347
白交	-11.8348
反下及注	-11.8352
曷不	-11.8354
其詞	-11.8354
故不書	-11.8355
伐衛	-11.8356
朝祭	-11.8356
彭祖	-11.8358
補遺古本宋板	-11.8361
怒也	-11.8366
修德	-11.837
牲體	-11.8373
蚡	-11.8373
􁈭	-11.8374
尚左	-11.8375
古史	-11.8376
悵	-11.8377
便是隂	-11.8379
本草云	-11.8379
神道	-11.8382
大原	-11.8382
實理	-11.8383
三十七葉	-11.8383
用亨	-11.8386
更相	-11.8387
鑊	-11.8389
尺遂反	-11.8392
嘻	-11.8392
迋	-11.8393
稔	-11.8393
饉	-11.8394
企	-11.8394
璅	-11.8394
禚	-11.8394
直留反	-11.8395
扶粉	-11.8395
獲者	-11.8396
歜	-11.8396
俱縛反	-11.8397
查	-11.8398
分明是	-11.8398
季氏之	-11.8398
戸旦反	-11.84
闃	-11.84
鈍	-11.84
幡	-11.84
匊	-11.84
鼃	-11.8401
糟	-11.8401
下共有	-11.8402
洹	-11.8402
實沈	-11.8402
蒺	-11.8402
下註同	-11.8403
涅	-11.8403
茢	-11.8403
椇	-11.8404
埆	-11.8405
􁈈	-11.8405
綢	-11.8406
于偽反	-11.8406
愎	-11.8406
炰	-11.8406
閷	-11.8406
嵬	-11.8406
禇	-11.8406
氂	-11.8406
縲	-11.8406
咈	-11.8408
疢	-11.8408
湄	-11.8408
􁀈	-11.8408
葍	-11.8409
纘	-11.8409
他活反	-11.8409
棫	-11.8409
瞢	-11.841
㢘	-11.841
酖	-11.841
麌	-11.8411
睇	-11.8411
遨	-11.8411
瞞	-11.8411
罝	-11.8411
筏	-11.8411
悴	-11.8411
猱	-11.8412
搔	-11.8412
斵	-11.8412
葷	-11.8412
仁矣	-11.8412
睫	-11.8412
陸渾	-11.8413
槖	-11.8413
僥	-11.8413
檐	-11.8413
蝑	-11.8413
壚	-11.8414
籌	-11.8414
明君	-11.8414
間厠	-11.8414
下脫	-11.8414
翹	-11.8414
黥	-11.8415
海外	-11.8415
孫郭	-11.8415
剰	-11.8415
瘦	-11.8416
蜉	-11.8416
鄗	-11.8416
涌	-11.8417
艶	-11.8417
他歷	-11.8417
暭	-11.8418
銚	-11.8418
匍匐	-11.8418
皆可以	-11.842
琳	-11.842
簸	-11.842
栩	-11.842
韵	-11.842
棜	-11.842
戰國䇿	-11.842
胳	-11.842
篠	-11.842
玦	-11.8421
塨	-11.8421
槱	-11.8422
後進	-11.8422
脃	-11.8422
肈	-11.8422
餅	-11.8423
萇	-11.8423
錘	-11.8423
蹤	-11.8423
甬	-11.8424
穜	-11.8424
范寗	-11.8424
袴	-11.8425
嶲	-11.8425
蠋	-11.8425
凱風	-11.8426
斨	-11.8426
緧	-11.8426
煎	-11.8427
迤	-11.8427
燾	-11.8428
趙鞅	-11.8428
霰	-11.8428
涿	-11.8428
力馳	-11.8428
其大者	-11.8429
匏有苦葉	-11.8429
濆	-11.8429
枹	-11.8429
天子之禮	-11.8429
遫	-11.8429
難説	-11.843
髠頑	-11.843
狊	-11.843
摻	-11.8431
薍	-11.8432
堲	-11.8433
董遇	-11.8433
芰	-11.8433
并注	-11.8433
抒	-11.8433
䜛	-11.8434
朔日有食之	-11.8434
鯤	-11.8435
綫	-11.8435
躔	-11.8435
晰	-11.8435
翿	-11.8436
床	-11.8436
諷誦	-11.8436
咫	-11.8436
蔡仲之命	-11.8436
娀	-11.8436
悊	-11.8436
貈	-11.8437
象曰君子以	-11.8437
倖	-11.8437
輿人	-11.8437
蓷	-11.8437
孔悝	-11.8438
伯夷叔齊	-11.8438
荇	-11.8438
婚姻	-11.8438
戔戔	-11.8439
焱	-11.8439
閨門	-11.8439
璉	-11.8439
線	-11.8439
餈	-11.8439
梯	-11.844
珌	-11.844
簴	-11.844
馮翊	-11.844
昏作婚	-11.844
頖宫	-11.844
堩	-11.8441
肉袒	-11.8441
念慮	-11.8442
雄雉	-11.8442
罩	-11.8442
士昬禮	-11.8442
冺	-11.8442
字當誤倒	-11.8443
蝮	-11.8443
脢	-11.8443
峙	-11.8443
夢夢	-11.8443
彀	-11.8443
䟦	-11.8443
櫓	-11.8444
詩疏五之	-11.8444
儷	-11.8444
旅酬	-11.8444
人之性	-11.8445
何人斯	-11.8445
下疑脫	-11.8445
輔廣録	-11.8445
徐廣曰	-11.8445
齊桓晉文	-11.8446
烕	-11.8446
達於	-11.8446
象傳程傳	-11.8446
季武子	-11.8448
參同契	-11.8449
得許多	-11.8449
鄩	-11.8449
不啻	-11.8449
瀾	-11.8449
樊光	-11.845
曽參	-11.845
詩疏六之	-11.845
春夏秋冬	-11.845
搆	-11.845
渇	-11.845
厭厭	-11.8451
夫子所	-11.8451
木瓜	-11.8451
緊	-11.8452
警戒	-11.8452
黄榦錄第	-11.8452
司几筵	-11.8452
食貨志	-11.8452
蔡叔	-11.8453
載馳	-11.8454
陸璣	-11.8454
褒姒	-11.8454
廖德明錄	-11.8454
籧篨	-11.8455
坤道	-11.8456
汝墳	-11.8456
刺厲王	-11.8456
嫡庶	-11.8457
盟詛	-11.8457
五經總義類	-11.8457
辟作避	-11.8457
褒貶	-11.8458
真箇是	-11.8458
下有焉字	-11.8458
􁁯	-11.8459
矣矣作也	-11.8459
紹興	-11.846
州鳩	-11.8461
貧賤	-11.8462
古字通用	-11.8462
離離	-11.8463
爾雅翼	-11.8464
劉昌宗音	-11.8464
楚詞	-11.8464
黄池	-11.8464
射人	-11.8465
繼之者善	-11.8465
此論	-11.8465
浙	-11.8466
戸豆	-11.8467
車鄰	-11.8467
隋唐	-11.8467
四十九篇	-11.847
社稷之	-11.847
穆叔	-11.8471
怎	-11.8472
正嘉二本作	-11.8474
人心道心	-11.8475
畿外	-11.8476
乾坤坎離	-11.8476
尤非	-11.8476
妾祖姑	-11.8477
喪朋	-11.8477
所以示	-11.8479
踐履	-11.8479
玉府	-11.848
此二者	-11.8481
其然乎	-11.8481
甲乙	-11.8482
荆楚	-11.8482
己酉	-11.8482
育萬物	-11.8483
皮冰	-11.8483
教國子	-11.8484
唐堯	-11.8487
三變	-11.849
下篇同	-11.849
必邁	-11.8491
筆解	-11.8493
儼然	-11.8493
簡兮	-11.8493
仲吕	-11.8494
彼皮	-11.8495
金錫	-11.8495
諸侯之大夫	-11.8495
草草	-11.8496
未葬	-11.8498
上照反	-11.8501
歲首	-11.8503
近是	-11.8504
可取	-11.8505
以供	-11.8505
忘憂	-11.8506
玄鳥	-11.8506
不足據	-11.8507
篤實	-11.8509
為于偽反	-11.8509
上下相	-11.851
不可易	-11.851
許嫁	-11.851
防風	-11.851
苟非	-11.8512
巡行	-11.8512
致太平	-11.8513
其失也	-11.8515
饗食	-11.8515
二千五百	-11.8517
詩書禮樂	-11.8519
臧孫	-11.8523
是恁地	-11.8523
無物不	-11.8524
須句	-11.8524
逆行	-11.8526
大魚	-11.8529
戴徳	-11.853
是也若	-11.853
章末	-11.8532
然終	-11.8533
今文尚書	-11.8533
杜註	-11.8533
其族	-11.8534
字皆同	-11.8535
蒼天	-11.8536
文王武王	-11.8536
子張問	-11.8536
是以君子	-11.854
肆師	-11.8541
相土	-11.8541
等處	-11.8543
力驗反	-11.8543
香草	-11.8543
亦足	-11.8548
其術	-11.8549
周旋	-11.8549
史記注六十	-11.855
毛本誤從	-11.8552
于僞反下文	-11.8552
赤龍	-11.8552
車服	-11.8553
臨事	-11.8555
祖述	-11.8557
扶弗	-11.8558
不足以為	-11.8559
而哭	-11.856
伊周	-11.856
矣然則	-11.8562
郭璞曰	-11.8562
安靜	-11.8563
外面	-11.8563
未經	-11.8563
大衍之數五十	-11.8564
敬事	-11.8564
兼有	-11.8565
書疏十	-11.8566
樹木	-11.8567
嘉樂	-11.8567
如字讀	-11.8567
二十四氣	-11.8568
師保	-11.8573
諸説	-11.8574
不恁地	-11.8576
脱也字	-11.8577
其良反	-11.8578
泉水	-11.8581
反沈又	-11.8588
七十二人	-11.859
乃定	-11.8591
於明堂	-11.8592
在己	-11.8594
為妻	-11.8595
農夫	-11.8596
未至於	-11.8597
於懈	-11.8598
不定	-11.8599
爻辭程傳	-11.8599
經世	-11.8602
自修	-11.8602
吐得	-11.8602
悔過	-11.8603
顯著	-11.8607
常存	-11.8608
謂字誤	-11.8608
這裡	-11.8613
戴公	-11.8613
克己	-11.8613
雜記上	-11.8615
闕疑	-11.8616
老少	-11.8619
坤文言	-11.8622
時候	-11.8624
大澤	-11.8627
中山	-11.8631
縣東北	-11.8631
非但	-11.8633
巳上	-11.8636
萬九千	-11.8638
不與焉	-11.8638
晉國	-11.8641
一箇道理	-11.8641
之所致	-11.8642
芳非	-11.8644
字本作	-11.8644
奪之	-11.8648
篇目	-11.8649
卿大夫之	-11.8652
河上本	-11.8654
古賣	-11.866
看他	-11.8662
誠信	-11.8664
便要	-11.8672
親見	-11.8674
注補後漢書二十	-11.8675
正歲	-11.8678
未甚	-11.8679
楚莊	-11.8682
音試下	-11.8682
真實	-11.8684
甚難	-11.8686
夭夭	-11.8689
女九	-11.869
居民	-11.8691
四親	-11.8693
莫報	-11.8693
反又胡	-11.8693
首止	-11.8693
不可及	-11.8694
示民	-11.8695
不辭	-11.8695
六典	-11.8696
之盛也	-11.8696
我先王	-11.8698
於其間	-11.8698
一隂一陽之謂道	-11.8699
别立	-11.8705
大胥	-11.8708
詩所謂	-11.8716
仍舊	-11.8717
在那	-11.8718
受終	-11.8718
高下	-11.8722
勑六	-11.8725
究其	-11.8725
側皆反本	-11.8729
極極	-11.8729
而有天下	-11.8731
女妻	-11.8731
七雷	-11.8733
年號	-11.8735
相朝	-11.8735
彼力	-11.8735
爾雅注	-11.8736
任賢	-11.8738
右小雅	-11.8738
又别	-11.8739
蘇氏	-11.874
用韻	-11.8742
邁反	-11.8742
也上有者字	-11.8742
嘗考	-11.875
一拜	-11.8752
詩意	-11.8755
謹按諸本皆	-11.8759
前代	-11.8768
若此者	-11.8772
二章言	-11.8772
公羊曰	-11.8772
追王	-11.8773
推其	-11.8773
子細	-11.8775
後人所	-11.8777
有之矣	-11.8777
之變也	-11.8778
古文論語	-11.8781
晉師	-11.8783
書卒	-11.8784
處處	-11.8786
嘗謂	-11.879
如之何其	-11.879
復加	-11.8794
環人	-11.8796
方叔	-11.8796
伯父	-11.8803
相配	-11.8805
名義	-11.8808
口實	-11.8808
户雅	-11.881
中宗	-11.881
音零	-11.8818
㑹意	-11.8823
者也若	-11.8826
梁山	-11.8827
音泰注	-11.883
三讓	-11.883
己未	-11.8832
次章	-11.8833
莊王	-11.8839
亦可謂	-11.8839
長久	-11.884
古刀	-11.8844
有文章	-11.8846
雷雨	-11.8848
未通	-11.8849
司馬云謂	-11.8849
章夜	-11.885
不能及	-11.8859
將來	-11.886
酒正	-11.8865
字非从	-11.8866
律吕	-11.8868
五車	-11.8869
宋板是作	-11.8869
聲近	-11.8873
水鳥	-11.8876
能順	-11.888
初洽反	-11.8883
丁古	-11.8892
鄭譜	-11.8893
牛人	-11.8893
其實則	-11.8894
四體	-11.8895
其㫖	-11.8895
八比	-11.8898
古毒	-11.8902
古報反	-11.8902
於四方	-11.8905
焉者也	-11.8905
及觀	-11.8905
玉海	-11.8907
如今之	-11.8908
約束	-11.8908
舊君	-11.891
善政	-11.8911
疑似	-11.8913
傳世	-11.8915
所係	-11.8917
夷王	-11.8917
四隂	-11.8918
乾彖傳	-11.892
亦不得	-11.8922
葢言	-11.8926
所戒	-11.8927
百乗	-11.8927
而无咎	-11.8929
而使之	-11.8929
爲介	-11.893
後章	-11.8932
不葬	-11.8935
傷人	-11.8935
稱公子	-11.8953
好事	-11.8955
少長	-11.8959
豈必	-11.8959
三酒	-11.896
改定	-11.896
唐書	-11.896
而不已	-11.896
從前	-11.8962
晉大夫	-11.8962
戴記	-11.8963
凡民	-11.8964
喪冠	-11.8964
末章	-11.8964
寘之	-11.8966
腹下	-11.8969
復還	-11.8975
魯地	-11.8976
物理	-11.8978
之可也	-11.8979
禮意	-11.898
蜀本	-11.8981
諸詩	-11.8982
西漢	-11.8982
蒿也	-11.8984
徐本作	-11.8984
東行	-11.8985
于社	-11.8986
宋時	-11.8989
或謂之	-11.8989
主君	-11.899
鰌	-11.8992
賈疏	-11.8994
造化之	-11.8994
其占	-11.8997
朝諸侯	-11.8998
不務	-11.8999
將欲	-11.9004
子孔	-11.9005
騅	-11.9007
脀	-11.9007
日辰	-11.9008
艮卦	-11.9008
明辨	-11.9008
十二篇	-11.9009
蔿	-11.901
蒲末反	-11.901
銍	-11.9011
徐敷	-11.9012
人之行	-11.9012
於神明	-11.9013
澶	-11.9014
萋	-11.9014
稌	-11.9015
暋	-11.9019
宙	-11.9019
蠭	-11.9019
只是要	-11.902
鱮	-11.9021
邂	-11.9021
稂	-11.9021
毓	-11.9022
攣	-11.9022
霄	-11.9023
頟	-11.9023
昄	-11.9023
不悖	-11.9024
有功於	-11.9024
世變	-11.9024
刉	-11.9024
臑	-11.9024
蹌	-11.9025
上古之	-11.9025
從手	-11.9026
釋文三十	-11.9028
力果反	-11.9028
懟	-11.9028
亦當作	-11.9028
譍	-11.903
臣道	-11.903
躓	-11.903
所掌	-11.903
牼	-11.9031
況域	-11.9031
肵	-11.9031
皿	-11.9031
愾	-11.9031
穰	-11.9032
佾	-11.9032
戞	-11.9032
職掌	-11.9032
怖	-11.9033
􁊾	-11.9033
舎人本作	-11.9033
蕨	-11.9034
皮寄反	-11.9034
銓	-11.9035
濤	-11.9035
貆	-11.9035
答張逸云	-11.9035
詖	-11.9035
茸	-11.9036
栖	-11.9037
殷殷	-11.9037
獨行	-11.9038
侏	-11.9038
浹	-11.9038
飴	-11.9039
晞	-11.9039
七喻反	-11.9039
■	-11.9039
馵	-11.904
湮	-11.904
喈	-11.904
腶	-11.904
杝	-11.9041
拚	-11.9041
觩	-11.9041
秠	-11.9042
肜	-11.9042
遲遲	-11.9042
餫	-11.9043
款	-11.9043
勑留	-11.9043
穨	-11.9043
竹書	-11.9043
雎	-11.9043
繰	-11.9044
娠	-11.9044
闍	-11.9044
褫	-11.9044
獺	-11.9045
肓	-11.9045
央央	-11.9045
葑	-11.9046
之誥	-11.9046
裝	-11.9047
塋	-11.9047
瘡	-11.9047
滓	-11.9047
勑倫	-11.9048
卝	-11.9048
冪	-11.9048
也若謂	-11.9048
軾前	-11.9049
秸	-11.905
鸒	-11.905
諒闇	-11.905
必書	-11.9051
詎	-11.9051
孫叔敖	-11.9051
曀	-11.9051
寰	-11.9052
紬	-11.9052
爕	-11.9052
壮	-11.9052
縚	-11.9052
必世反	-11.9052
霖	-11.9052
耰	-11.9052
副貳	-11.9053
燔柴	-11.9053
勗	-11.9053
譔	-11.9054
吪	-11.9054
列女傳	-11.9054
此二句	-11.9054
葚	-11.9055
孔子閒居	-11.9055
栲	-11.9055
濃	-11.9056
絕	-11.9056
菏	-11.9056
鶻	-11.9057
絏	-11.9057
頄	-11.9057
泄泄	-11.9057
八十八	-11.9057
嶧	-11.9058
由乎	-11.9058
颺	-11.9058
駔	-11.9059
碣石	-11.9059
丁畧	-11.9059
蝎	-11.9059
抄本闕	-11.9059
防有鵲巢	-11.9059
黯	-11.906
二王之後	-11.906
九經古義卷	-11.906
力豔	-11.9061
觕	-11.9061
蹻蹻	-11.9061
九具	-11.9061
懫	-11.9061
出其東門	-11.9061
擣	-11.9061
君子偕老	-11.9061
淨	-11.9061
不知據何本	-11.9061
挨	-11.9062
禓	-11.9062
棟案古	-11.9062
不徃	-11.9062
翰林院檢討毛竒齡撰	-11.9062
凛	-11.9063
舎人云	-11.9064
椒聊	-11.9064
朋黨	-11.9064
十一年傳	-11.9064
湼	-11.9064
瞷	-11.9064
莫大乎	-11.9065
欽定四庫全書十三經注疏正字卷	-11.9065
六極	-11.9065
十三經義疑	-11.9065
器械	-11.9065
召旻	-11.9066
萌芽	-11.9066
敝笱	-11.9066
慚	-11.9067
為父後者	-11.9067
莧反	-11.9067
方鳳	-11.9067
賡	-11.9068
答趙商云	-11.9068
熯	-11.9068
林鐘	-11.9069
滂	-11.9069
屐	-11.9069
玈	-11.9069
破斧	-11.9069
貣	-11.907
止於至善	-11.907
銎	-11.907
戰戰兢兢	-11.907
券	-11.907
羊舌	-11.9071
元公	-11.9071
水潦	-11.9071
倒置	-11.9071
隴西	-11.9071
滔滔	-11.9073
周公為	-11.9073
泌	-11.9073
文王有聲	-11.9073
逕	-11.9073
一以貫之	-11.9073
賁于丘園	-11.9073
它云貎是	-11.9074
南齊書	-11.9074
欽定四庫全書九經古義卷	-11.9075
說文引作	-11.9075
許兩反	-11.9075
龍顔	-11.9075
撮要	-11.9076
畞	-11.9076
毆	-11.9077
偹	-11.9078
文蔚曰	-11.9078
十五卷	-11.9078
利涉大川	-11.9078
璊	-11.9079
幻	-11.9079
姊妹	-11.908
陸德明	-11.908
素絲	-11.9081
旴	-11.9081
林學䝉錄第	-11.9081
十七經	-11.9081
孶	-11.9081
並毛校吳文定	-11.9081
墨守	-11.9082
個	-11.9082
日本山井鼎物觀撰	-11.9083
壬癸	-11.9083
新臺	-11.9083
下共有也字下註	-11.9084
凑	-11.9084
憫	-11.9084
播種	-11.9084
暴虐	-11.9084
諷詠	-11.9084
騑騑	-11.9084
孟獻子	-11.9085
左右惟其人	-11.9085
纛	-11.9086
醯醢	-11.9086
吳必大録	-11.9087
悠久	-11.9087
禍福	-11.9087
典謨	-11.9087
慶封	-11.9087
袞	-11.9087
射姑	-11.9088
耆欲	-11.9088
嶺	-11.9088
字可刪	-11.9088
易有太極	-11.9089
尾箕	-11.909
釋言云	-11.909
吕不韋	-11.909
五兮反	-11.909
於此而	-11.9091
晦朔	-11.9092
勉强	-11.9092
太極圖	-11.9092
取士	-11.9093
大㮣	-11.9093
䖝	-11.9093
蠻夷	-11.9093
月暈	-11.9093
哀姜	-11.9094
上旁加	-11.9094
湯湯	-11.9095
唐十	-11.9095
牝牛	-11.9095
事事物物	-11.9097
陳摶	-11.9097
大學之道	-11.9097
讖	-11.9098
鳥鼠	-11.9098
已上並繫辭	-11.9098
牽引	-11.91
敬以直内義以方外	-11.91
公至自	-11.9101
蔡仲	-11.9102
鶉首	-11.9103
於葛反	-11.9103
嗜欲	-11.9104
一時之	-11.9104
踰月	-11.9105
㑹齊侯	-11.9105
律歴	-11.9106
周公所作	-11.9107
言之耳	-11.9108
古旦	-11.911
先鄭讀為	-11.9111
靈龜	-11.9111
陛下	-11.9111
二變	-11.9111
進徳修業	-11.9112
不腆	-11.9112
君臣上下	-11.9113
二十五篇	-11.9114
澤中	-11.9114
第八章	-11.9115
市林	-11.9116
振鷺	-11.9119
自慊	-11.912
召忽	-11.9121
否泰	-11.9122
侯甸	-11.9124
分職	-11.9124
不禁	-11.9125
夏六月	-11.9125
犬馬	-11.9127
二嵗	-11.9129
天王使	-11.913
晁氏	-11.9131
白虎通云	-11.9131
北堂	-11.9131
㸔來	-11.9132
震巽	-11.9133
而審反	-11.9133
保守	-11.9134
於父母	-11.9135
杜注	-11.9137
四科	-11.9139
統論	-11.9142
莫干	-11.9143
若果	-11.9145
視朔	-11.9145
王臣	-11.9147
所聚	-11.9148
愛人	-11.9148
地道	-11.9149
校正	-11.9151
三揲	-11.9154
講學	-11.9155
所制	-11.9156
師承	-11.9157
考古	-11.9159
道藝	-11.916
力役	-11.9161
冕服	-11.9161
史記注四十七	-11.9162
腊人	-11.9163
其所行	-11.9163
他典	-11.9164
可居	-11.9164
無斁	-11.9165
安舒	-11.9166
牽合	-11.9167
並朱校宋本禮記疏	-11.9167
日景	-11.9169
州牧	-11.9169
七里	-11.917
佳買反	-11.9172
五嶽	-11.9174
大叚	-11.9175
吐刀反	-11.9176
禁止	-11.9177
據此則	-11.9177
伏生書	-11.9178
河廣	-11.918
入大學	-11.9182
原文作	-11.9187
一種	-11.9189
這箇道理	-11.9189
命卿	-11.919
建侯	-11.9197
勑亮反	-11.9197
子夏傳作	-11.9198
大牢	-11.9198
丁丁	-11.92
未必能	-11.9204
許金	-11.9204
亦未嘗	-11.9204
五千里	-11.9212
藝文	-11.9213
配位	-11.9214
參分	-11.9215
只要	-11.9217
庚申	-11.922
中城	-11.922
韋昭云	-11.9221
壬申	-11.9221
迫也	-11.9222
宋板云作	-11.9224
兼官	-11.9225
參考	-11.9225
五者之	-11.9226
崔氏	-11.9227
天子之事	-11.9231
門弟子	-11.9232
以支反	-11.9232
昌氏	-11.9235
之次序	-11.9235
賢否	-11.9238
忠臣	-11.9238
大呂	-11.9239
十四經	-11.9239
初良	-11.924
周本紀	-11.9246
武城	-11.9248
告汝	-11.9249
六府	-11.925
存亡	-11.9251
校宋疏四十	-11.9256
多福	-11.9257
隂隂	-11.9257
天門	-11.9258
于軌	-11.926
音妹	-11.926
弗作不	-11.926
户雅反	-11.9262
之弊	-11.9263
設官	-11.9264
我將	-11.9271
司士	-11.9272
不滿	-11.9274
其名曰	-11.9274
也五經通義	-11.9275
所射	-11.9276
兩畫	-11.9277
改元	-11.9279
勞來	-11.928
逆女	-11.9281
數句	-11.9281
有瞽	-11.9283
與作於	-11.9286
禮制	-11.9289
伐晉	-11.929
使大夫	-11.9291
天下之理	-11.9293
小明	-11.9298
想是	-11.9301
夏后氏之	-11.9308
第十七	-11.931
今學者	-11.9311
所以致	-11.9318
丈專	-11.9319
欽定四庫全書朱子五經語類卷四十	-11.932
事變	-11.9321
好仁	-11.9322
未可知	-11.9328
士庶	-11.9328
甸人	-11.9329
鄭氏謂	-11.9331
燕居	-11.9334
南極	-11.9341
夏禹	-11.9341
大夫以上	-11.9342
集説	-11.9344
前漢	-11.9346
所不及	-11.9349
側留	-11.9355
後改作	-11.9356
如羊反	-11.9359
須要	-11.9359
隂盛	-11.9359
坤六二	-11.936
妙用	-11.9361
句芒	-11.9362
狄人	-11.9368
五氣	-11.9371
十八行	-11.9376
直轉	-11.9377
送之	-11.9379
娶於	-11.9381
五種	-11.9384
乙未	-11.9384
白雲	-11.9385
里居	-11.939
深逺	-11.9392
第十二	-11.9393
非敢	-11.9393
宗法	-11.9395
彼列反下	-11.94
星墜	-11.9402
子匠反下	-11.9402
好勇	-11.9403
未離	-11.9405
許多事	-11.9406
孔氏傳	-11.9408
大㫖	-11.9408
家父	-11.9409
讀法	-11.9409
采齊	-11.941
七句	-11.9412
音洛注	-11.9412
審矣	-11.9416
謹按崇禎本	-11.9421
而不窮	-11.9423
音婢	-11.9424
子兮反	-11.9425
無辜	-11.9431
鄭風	-11.9432
奔喪	-11.9433
君道	-11.9433
姓氏	-11.9433
如字李	-11.9434
刑法	-11.9438
三萬里	-11.9439
出竟	-11.944
並史記注二十	-11.9444
三十八葉左	-11.945
十章	-11.9451
竊謂	-11.9454
可以知	-11.9456
譜云	-11.9457
難解	-11.9463
脫一	-11.9464
盡力	-11.9467
所安	-11.9469
何為而	-11.9469
二本足利本	-11.947
金水	-11.9471
了方	-11.9473
才知	-11.9475
不匱	-11.9476
水精	-11.9477
得其宜	-11.9479
並史記注二	-11.9479
林學蒙錄	-11.9479
養民	-11.9487
何敢	-11.9487
更始	-11.9489
於後世	-11.949
初六爻辭	-11.9491
其綺反	-11.9493
皆出於	-11.9494
獨處	-11.9495
推明	-11.9499
能敬	-11.95
得之於	-11.9506
少女	-11.951
事神	-11.9511
北郊	-11.9512
要服	-11.9513
之賤者	-11.9516
教之以	-11.9517
漢唐	-11.9519
之候	-11.9521
第十八	-11.9524
也作地	-11.9524
然後知	-11.9529
儀禮疏十	-11.9539
堯舜之	-11.9545
安得不	-11.9552
他底	-11.956
皮冰反	-11.9566
四葉左八行	-11.9567
聖賢之	-11.957
音彦	-11.9573
誰與	-11.9575
字足利本同疏	-11.9579
刄	-11.9582
玄孫	-11.9584
兩家	-11.9593
畫象	-11.9596
施及	-11.9604
和合	-11.9605
魯昭公	-11.9611
不可曉者	-11.9614
音灼	-11.9626
在當時	-11.9628
直列	-11.9634
美稱	-11.9634
陽在下	-11.9635
本多作	-11.9644
武王封	-11.965
十二時	-11.9651
不友	-11.9654
侍御	-11.9654
物格	-11.9658
檮	-11.9664
汏	-11.9665
攻古文	-11.9665
人之子	-11.9666
神祇	-11.9668
貞正	-11.9669
冔	-11.9671
相助	-11.9672
紀力	-11.9673
藐	-11.9673
鑚	-11.9674
小邾	-11.9675
唐棣	-11.9676
序説	-11.9678
常山	-11.9678
以作已	-11.968
轘	-11.9681
纎毫	-11.9682
彼驗反	-11.9683
所習	-11.9683
扉	-11.9683
爾雅釋	-11.9684
鷃	-11.9684
魚敬反	-11.9685
縉	-11.9686
畯	-11.9687
媧	-11.9688
依字讀	-11.9688
娩	-11.9689
馗	-11.9689
正嘉作	-11.9689
罭	-11.9689
春秋之義	-11.969
􁇲	-11.969
芳勇	-11.969
斗建	-11.9691
芳勇反	-11.9691
擠	-11.9691
亦不過	-11.9693
摰	-11.9694
不寧	-11.9694
匜	-11.9694
多病	-11.9695
瘉	-11.9695
鷖	-11.9696
胡臘	-11.9696
朾	-11.9697
䳺	-11.9697
椐	-11.9697
嗌	-11.9698
鄼	-11.9698
亡北反	-11.9699
㦧	-11.9699
鍪	-11.9699
洙	-11.9699
憙	-11.9699
咤	-11.9699
蕳	-11.9699
粤	-11.97
欽定四庫全書七經孟子考文補遺卷一	-11.97
娵	-11.9701
皐陶	-11.9701
咮	-11.9701
鑪	-11.9702
綅	-11.9702
十五經	-11.9703
皙	-11.9703
旰	-11.9703
猗猗	-11.9704
牷	-11.9704
鼬	-11.9704
鷦	-11.9705
皡	-11.9705
匰	-11.9705
琥	-11.9706
睨	-11.9706
萱	-11.9706
洄	-11.9706
覘	-11.9707
崧	-11.9707
居冝反	-11.9707
掎	-11.9708
蝥	-11.9708
縟	-11.9708
扣	-11.9708
弘農	-11.9708
祏	-11.9709
軼	-11.9709
嫚	-11.9709
疈	-11.971
壇墠	-11.971
栘	-11.971
澡	-11.9711
禂	-11.9711
諛	-11.9712
攀	-11.9713
㪺	-11.9713
蝝	-11.9713
鷂	-11.9714
廻	-11.9714
倞	-11.9714
嚳	-11.9714
瑲	-11.9715
桔	-11.9715
臺榭	-11.9715
皋	-11.9716
氄	-11.9716
泓	-11.9716
惴惴	-11.9716
薑桂	-11.9717
澧	-11.9717
璞	-11.9717
薜	-11.9717
鬵	-11.9717
冽	-11.9718
痤	-11.9718
蹟	-11.9719
塤	-11.9719
朝士	-11.9719
皇皇者華	-11.972
膏盲	-11.972
詩疏四之	-11.972
轝	-11.9721
詈	-11.9721
諠	-11.9721
沖	-11.9721
倭	-11.9722
五等之	-11.9722
菌	-11.9723
祟	-11.9723
棗栗	-11.9723
慘慘	-11.9723
褘衣	-11.9723
瞽矇	-11.9723
蒩	-11.9724
邃	-11.9724
芒芒	-11.9724
啣	-11.9724
揄狄	-11.9725
干楯	-11.9725
絢	-11.9725
莫侯反	-11.9726
泥泥	-11.9726
拯救	-11.9726
乾文言第五節	-11.9726
岷山	-11.9726
泂酌	-11.9726
􁇎	-11.9726
􁆡	-11.9728
日有食之	-11.9728
臏	-11.9728
蟄蟲	-11.9728
琬	-11.9729
司巫	-11.9729
也二本也上有者字	-11.9729
㓨	-11.973
東北喪朋	-11.973
熲	-11.973
汎汎	-11.973
蜼	-11.973
盻	-11.9731
卒伍	-11.9731
糸	-11.9731
槨	-11.9731
天一地二	-11.9731
信南山	-11.9732
化育	-11.9732
古語	-11.9732
追改	-11.9732
天下有道	-11.9732
齊民要術	-11.9732
五經縂義類	-11.9733
惻隱	-11.9733
罶	-11.9734
舉觶	-11.9734
豁	-11.9734
劉瓛	-11.9734
鍚	-11.9735
力弔反	-11.9735
絪緼	-11.9735
竪	-11.9735
隸	-11.9735
熹	-11.9735
無忌憚	-11.9735
批	-11.9736
胡老反	-11.9736
刌	-11.9736
娥	-11.9736
録一卷	-11.9737
所向	-11.9737
寛裕	-11.9737
六經奥論	-11.9737
株林	-11.9737
簚	-11.9738
眀	-11.9738
渾淪	-11.9738
漢上傳	-11.9738
淇澳	-11.9739
之什詁訓傳第二十	-11.9739
禹謨	-11.9739
傃	-11.9739
耑	-11.974
謐	-11.974
敇	-11.9741
挐	-11.9741
盎齊	-11.9741
路史後紀注	-11.9741
韲	-11.9742
黄裳元吉	-11.9742
賦斂	-11.9742
力追反	-11.9743
䋲	-11.9743
三老五更	-11.9743
舞雩	-11.9744
賈誼	-11.9744
匯	-11.9744
揖遜	-11.9744
兩事	-11.9744
菱	-11.9744
釋菜	-11.9744
翌	-11.9745
戒謹恐懼	-11.9745
郰	-11.9746
優劣	-11.9746
視聽言動	-11.9746
御覧五百	-11.9747
姜姓	-11.9747
詩疏二十之	-11.9747
禮記卷第	-11.9747
序卦雜卦	-11.9747
錢塘程川撰書	-11.9748
卜筮之書	-11.9748
嘽嘽	-11.9748
共姬	-11.9748
韓嬰	-11.9748
寝	-11.9749
詩疏九之	-11.9749
仗	-11.9749
頍	-11.9749
辛酉	-11.975
日刺是謂	-11.975
七到	-11.975
音扶下	-11.975
澒	-11.9751
置閏	-11.9751
詁訓	-11.9751
㤗誓	-11.9751
鄭無駁	-11.9751
絜矩之道	-11.9752
模様	-11.9752
者誤也	-11.9753
左丘明	-11.9753
曲阜	-11.9753
㓙	-11.9753
崇牙	-11.9753
乙夘	-11.9753
邦有道	-11.9754
何校官本	-11.9754
所舉	-11.9754
未之有也	-11.9754
毋自欺	-11.9754
然後可	-11.9756
呼端	-11.9756
凡厥庶民	-11.9756
秦始皇	-11.9757
宰予	-11.9757
石經監本同	-11.9757
忠信進徳	-11.9757
鞠衣	-11.9758
僑如	-11.9758
侃侃	-11.9759
彖傳程傳	-11.9759
積聚	-11.9759
昇	-11.976
匏𤓰	-11.976
昭二十年	-11.9761
上有謂字	-11.9761
啟蟄	-11.9761
豚魚	-11.9761
行役	-11.9762
巍巍	-11.9762
離婁	-11.9762
新昏	-11.9764
叔梁紇	-11.9765
正作止	-11.9765
羣后	-11.9766
非先王之	-11.9766
誤興國本作	-11.9766
羣吏	-11.9767
彭城	-11.9769
題目	-11.9769
通其變	-11.977
九嬪	-11.977
六經圖	-11.9771
古弘	-11.9772
糈	-11.9772
郊禘	-11.9773
河陽	-11.9777
大戴記	-11.9777
郡縣	-11.9777
祫祭	-11.9778
各得其	-11.9779
殯宫	-11.978
四裔	-11.9781
歩各	-11.9781
悶反	-11.9782
墓門	-11.9782
享祀	-11.9783
執燭	-11.9785
瑞應	-11.9785
包承	-11.9786
逐一	-11.9786
二王後	-11.9786
趙武	-11.9787
按淮南子	-11.9787
司馬貞	-11.9789
藝文志云	-11.9789
空虚	-11.9789
無纎毫	-11.9789
命婦	-11.979
堅固	-11.979
紀事	-11.9792
朋來	-11.9794
太卜	-11.9794
肅州	-11.9795
周氏	-11.9796
司儀	-11.9797
渭水	-11.9797
直追	-11.9798
若今時	-11.9798
題辭	-11.9798
五箇	-11.9799
邾婁人	-11.98
是故君子	-11.9801
紫宫	-11.9803
其列	-11.9803
布席	-11.9803
庶孫	-11.9805
流俗	-11.9807
謹按恐非	-11.9807
未塟	-11.9807
何邪	-11.9809
最難	-11.981
元年春王正月	-11.9813
麻衣	-11.9814
别名	-11.9815
説得好	-11.9818
上作止	-11.9818
市朝	-11.9818
采邑	-11.9819
萬舞	-11.9819
陵人	-11.982
莫敢	-11.9821
通例	-11.9821
壽考	-11.9824
邦家	-11.9826
逺郊	-11.9826
史記正義	-11.9827
張里	-11.9829
可否	-11.9829
淫亂	-11.9829
如字司馬云	-11.983
開卷	-11.983
便是那	-11.983
配合	-11.9832
下有云字	-11.9835
有咎	-11.9837
公子遂	-11.9837
率性	-11.9838
蔀七十六嵗	-11.9841
陳蔡	-11.9842
涇水	-11.9842
四章疏	-11.9845
尊敬	-11.9845
悼子	-11.9847
廟制	-11.9847
宋板其作	-11.9849
下章同	-11.9849
先祖之	-11.9849
庶政	-11.985
燧人	-11.9852
斯須	-11.9852
一百八十	-11.9852
舊圖	-11.9856
星散為	-11.9857
天下之民	-11.9857
到這	-11.9858
弑父	-11.9859
不能知	-11.9859
命圭	-11.986
盛衰	-11.9861
所例反	-11.9861
班氏	-11.9864
歸國	-11.9864
苦結	-11.9865
設教	-11.9866
不遑	-11.9866
鄫子	-11.9867
戒成王	-11.9867
杞伯	-11.9869
習於	-11.9869
雜記云	-11.9869
臧氏	-11.9871
何答曰	-11.9872
費直	-11.9873
新宫	-11.9875
制禮作樂	-11.9876
四欽定四庫全書七經孟子考文補遺卷	-11.9877
厥德	-11.9878
如淳	-11.988
嗟乎	-11.9882
親戚	-11.9885
始元年	-11.9889
貞觀	-11.9891
春秋左氏傳	-11.9892
申毛	-11.9892
三章言	-11.9893
奏肆夏	-11.9894
如此若	-11.9895
下有公字	-11.9898
小祝	-11.9909
北向	-11.991
周徧	-11.9912
婢世	-11.9913
畢竟是	-11.9914
無遺	-11.9915
齊魯韓	-11.9916
不恤	-11.9916
門户	-11.9916
流星	-11.9917
為東周	-11.9917
豆實	-11.9919
五畝	-11.9921
矢人	-11.9925
離散	-11.9925
之小者	-11.9927
執政	-11.9928
伊川說	-11.9932
國子監	-11.9937
看来	-11.9938
賔射	-11.9939
其所云	-11.994
初革	-11.9945
未幾	-11.9948
齊莊	-11.9949
許許	-11.995
兩足	-11.9951
不妨	-11.9952
公羊說	-11.9958
缺文	-11.9959
梁國	-11.996
刋本	-11.9961
舉事	-11.9961
離卦	-11.9962
却只	-11.9968
信都	-11.9969
震動	-11.9971
屋壁	-11.9973
長八尺	-11.9975
教他	-11.9978
所撰	-11.9978
節節	-11.9978
不愧	-11.9982
革命	-11.9983
以成其	-11.9984
曾子曰	-11.9988
己意	-11.999
未備	-11.999
二欽定四庫全書七經孟子考文補遺卷	-11.9992
青雲	-11.9994
去做	-11.9996
為人所	-11.9997
黨正	-12.0001
修辭	-12.0003
屬水	-12.0007
運動	-12.0009
軍禮	-12.0014
風風	-12.0015
仁愛	-12.0016
胡臥反	-12.0016
可移	-12.0017
天錫	-12.0018
詩傳云	-12.0018
盤庚上	-12.0019
讓國	-12.0027
親愛	-12.0029
一様	-12.0032
未可知也	-12.0037
易緯	-12.0039
而名之	-12.0041
骨子	-12.0042
六十一	-12.0042
必履	-12.0044
後學成德挍訂經典釋文卷第	-12.0045
女乙反	-12.0047
本性	-12.0052
賢君	-12.0052
萬井	-12.0055
大段	-12.0061
辭意	-12.0062
不臧	-12.0068
踰年	-12.0068
釋經	-12.0069
幾何	-12.0072
下有也字疏故	-12.0073
成康	-12.0076
便是陽	-12.0077
伐邾	-12.0077
魯衛	-12.0078
遷國	-12.0085
可笑	-12.0085
帝命	-12.0087
世次	-12.0089
受封	-12.0093
許丈	-12.0095
風雷	-12.0095
來告	-12.0099
化成	-12.0101
日月所	-12.0111
注補後漢書三	-12.0112
他不得	-12.0115
遘反	-12.0117
百乘	-12.0118
不能守	-12.0119
太平之	-12.0121
繆公	-12.0121
思歷	-12.0125
桃夭	-12.0129
在接	-12.0134
先進	-12.0139
言之非	-12.0143
學習	-12.0152
孰謂	-12.0154
才臥	-12.0156
首篇	-12.0161
奔楚	-12.0163
於見反	-12.0167
子臧	-12.0171
未逺	-12.0172
三欽定四庫全書七經孟子考文補遺卷	-12.0172
節氣	-12.0177
兩爻	-12.0181
施氏	-12.0185
濟水	-12.0186
詩召反	-12.0188
第六章	-12.0192
却說	-12.0196
七十一	-12.0197
不煩	-12.0207
今詳	-12.0207
無人字	-12.0216
右成公	-12.0216
未足以	-12.022
神謂之	-12.0226
仍是	-12.0227
戸剛	-12.0228
有限	-12.0229
二十五人	-12.0229
定體	-12.0232
小星	-12.0239
德之人	-12.0241
也土地名	-12.0242
與之同	-12.0245
帝位	-12.0248
父死	-12.0251
性善	-12.0258
錯了	-12.027
者莫如	-12.0275
煬	-12.028
此真	-12.0281
案史記	-12.0282
化生	-12.029
亦有所	-12.0292
斯民	-12.0295
吐活	-12.03
帝舜	-12.03
門庭	-12.0303
載書	-12.031
子廉	-12.0312
所守	-12.0317
魏晉	-12.0318
分器	-12.0321
正變	-12.0321
所以教	-12.0323
力計反	-12.0327
私欲	-12.0328
周衰	-12.0336
之綱領	-12.0343
荀卿	-12.0347
不止於	-12.0348
神之所	-12.0349
之祭也	-12.0349
奈	-12.0351
庶兄	-12.0352
世間	-12.0352
集解一	-12.0356
成萬物	-12.0356
如何㑹	-12.0358
直遙反	-12.0358
可疑者	-12.0358
百九十二	-12.0359
力呈反下	-12.0365
史書	-12.0373
無故而	-12.0377
蕘	-12.0379
旦明	-12.0381
太行	-12.0384
之序也	-12.0384
盆	-12.0385
覔	-12.0388
正對	-12.0388
漱	-12.0389
恨發	-12.0392
直略反	-12.0393
擭	-12.0393
隂精	-12.0395
哥	-12.0396
跖	-12.0396
匐	-12.0397
羝	-12.0397
戸江反	-12.0397
疥	-12.0398
鮎	-12.0399
嫗	-12.0399
紃	-12.0399
修春秋	-12.0399
傒	-12.0399
歧	-12.0401
捋	-12.0401
冓	-12.0401
鱐	-12.0402
柚	-12.0403
嘔	-12.0403
瞿瞿	-12.0403
稑	-12.0403
聾	-12.0404
如人之	-12.0404
鳸	-12.0404
匍	-12.0405
馹	-12.0405
唾	-12.0405
黶	-12.0405
蒼頡	-12.0405
繚	-12.0405
韻府古尚書文作	-12.0406
逷	-12.0406
普卜反	-12.0407
折俎	-12.0407
鵬	-12.0408
尸謖	-12.0409
俴	-12.0409
衺	-12.0409
橛	-12.041
苔	-12.041
顓臾	-12.041
塴	-12.041
畚	-12.0411
鴽	-12.0412
壝	-12.0412
藟	-12.0412
膞	-12.0413
納甲	-12.0413
檝	-12.0414
机	-12.0414
侗	-12.0415
穅	-12.0415
甃	-12.0415
獳	-12.0415
僤	-12.0415
蓑	-12.0416
貴人	-12.0417
瘵	-12.0417
崇禎	-12.0419
訩	-12.0419
驁	-12.0419
並水經注	-12.042
呴	-12.042
擲	-12.042
逍遥	-12.042
戛	-12.042
獶	-12.042
􁈛	-12.0421
楣	-12.0421
所甲反	-12.0421
岑	-12.0422
犴	-12.0422
猴	-12.0422
杲	-12.0422
綖	-12.0422
楛	-12.0422
璿	-12.0423
購	-12.0423
璲	-12.0423
頖	-12.0423
膮	-12.0424
檟	-12.0424
噎	-12.0424
陶陶	-12.0424
在夜反	-12.0424
鏜	-12.0424
跬	-12.0425
嫠	-12.0426
逈	-12.0426
齡	-12.0426
身體	-12.0426
尫	-12.0427
鄹	-12.0427
爍	-12.0427
赭	-12.0427
胞	-12.0427
兔爰	-12.0427
甿	-12.0427
雊	-12.0428
力暫	-12.0428
群	-12.0428
褖	-12.0429
枿	-12.0429
喤喤	-12.0429
蜺	-12.043
厝	-12.043
挂	-12.043
抍	-12.043
滄	-12.043
祡	-12.043
孽孽	-12.0431
猲	-12.0431
魅	-12.0431
眣	-12.0431
宁	-12.0432
𥅆	-12.0432
矰	-12.0433
則民不	-12.0433
瞀	-12.0433
音律又	-12.0433
褰裳	-12.0434
皦	-12.0434
穽	-12.0435
旊	-12.0435
棃	-12.0435
佻	-12.0435
冬官考工記	-12.0435
韐	-12.0436
君子陽陽	-12.0436
陝	-12.0436
子協反	-12.0437
騋	-12.0437
惙	-12.0437
靠	-12.0437
有女同車	-12.0437
章章六句	-12.0437
瑁	-12.0437
嘿	-12.0438
稜	-12.0438
攝提	-12.0438
博物志	-12.0438
奎婁	-12.0439
離騷	-12.0439
郝	-12.0439
老耼	-12.0439
顒	-12.044
偲	-12.044
枌	-12.044
訢	-12.044
苾	-12.044
裸	-12.044
辵	-12.0441
枘	-12.0441
皇甫謐	-12.0442
古鄧反	-12.0442
网	-12.0442
栗階	-12.0443
詡	-12.0443
我行其野	-12.0443
丈八尺	-12.0443
瞳	-12.0443
崔集注	-12.0444
輊	-12.0444
西京	-12.0444
􁔔	-12.0445
掌戮	-12.0445
适	-12.0445
詆	-12.0446
西南得朋	-12.0446
氣盛則夢	-12.0446
鶂	-12.0446
昊天上帝	-12.0446
耒耜	-12.0447
孜孜	-12.0447
銕	-12.0447
澶淵	-12.0447
虖	-12.0447
婚媾	-12.0447
瑞應圖	-12.0447
梅賾	-12.0447
蓐收	-12.0448
蘧伯玉	-12.0448
都人士	-12.0449
籬	-12.0449
菣	-12.045
司烜氏	-12.045
龎	-12.045
畮	-12.045
驖	-12.045
三百五篇	-12.045
必政反	-12.045
薙氏	-12.045
葛屨	-12.0451
究究	-12.0451
撝	-12.0452
倉庚	-12.0452
押韻	-12.0452
自下而上	-12.0452
蠙	-12.0453
黍苗	-12.0453
利牝馬之貞	-12.0453
頍弁	-12.0453
鈎鈴	-12.0453
蓲	-12.0453
孔叢子	-12.0453
疏放此	-12.0454
穆天子傳	-12.0454
漸漸之石	-12.0454
莧陸	-12.0455
擬議	-12.0455
焉焉作也	-12.0455
泝	-12.0455
林直解	-12.0455
曶	-12.0455
乙丑	-12.0456
牴牾	-12.0456
䲭鴞	-12.0457
高麗本集解	-12.0457
與崇禎本同	-12.0457
下有耳也二字	-12.0457
冬十有二月	-12.0457
古經解鉤沉	-12.0458
提提	-12.0458
聼	-12.0458
純亦不已	-12.0459
履虎尾	-12.0459
晉獻公	-12.0459
早晚	-12.046
治國平天下	-12.046
子產	-12.046
朄	-12.046
考異宋板註	-12.046
子丑寅	-12.0461
日本山井鼎物觀撰禮記注疏第	-12.0462
立身	-12.0462
嵎夷	-12.0462
謹按宋板正嘉	-12.0462
寖	-12.0462
彖曰節疏	-12.0463
曰若稽古	-12.0463
獄訟	-12.0463
不悦	-12.0463
符云反	-12.0464
口舌	-12.0464
御覽九百	-12.0464
宗廟社稷	-12.0465
喪服變除	-12.0465
參伍	-12.0465
朢	-12.0465
詩疏十五之	-12.0465
惻隠	-12.0466
收歛	-12.0466
有條理	-12.0466
欠闕	-12.0466
毛詩國風鄭氏箋	-12.0466
賦稅	-12.0467
延壽	-12.0467
蒼頡篇	-12.0467
嘉禾	-12.0467
丘園	-12.0467
虜	-12.0468
左股	-12.0469
苦怪反	-12.0469
乾元亨利貞	-12.0469
宣姜	-12.047
句法	-12.0471
祈穀	-12.0471
滋味	-12.0471
透徹	-12.0471
關西	-12.0471
剛柔交錯	-12.0472
教誨	-12.0473
喜怒哀樂	-12.0473
載驅	-12.0474
秋八月	-12.0474
真知	-12.0474
形而下者	-12.0475
稍稍	-12.0475
曰吾聞	-12.0476
遷徙	-12.0476
咨嗟	-12.0476
沔水	-12.0477
彼冝	-12.0477
鷊	-12.0479
鄭可學錄	-12.0479
犬戎	-12.0479
五十五數	-12.0479
己亥	-12.048
無可疑者	-12.048
施惠	-12.0481
義以方外	-12.0482
五十七	-12.0482
緩急	-12.0482
犧象	-12.0483
干寶	-12.0483
權輿	-12.0483
册	-12.0484
尚書註疏卷第	-12.0486
可與幾	-12.0486
小爾雅云	-12.0488
左旋	-12.0488
蒼龍	-12.0489
齊景公	-12.049
于房	-12.049
貢賦	-12.049
己夘	-12.049
任事	-12.0492
深淺	-12.0492
微弱	-12.0492
援引	-12.0492
風雅頌	-12.0492
耶抑	-12.0492
天地之大	-12.0492
容齋	-12.0492
于郊	-12.0493
力禾	-12.0493
天尊地卑	-12.0494
衮冕	-12.0494
太僕	-12.0495
凶咎	-12.0495
綱紀	-12.0495
季路	-12.0496
縣西南	-12.0496
上有猶字	-12.0496
簡狄	-12.0496
蘭陵	-12.0497
頓首	-12.0498
脫簡	-12.0501
包咸	-12.0502
執圭	-12.0503
春秋公羊說	-12.0503
笙師	-12.0504
少康	-12.0504
織女	-12.0505
無所不通	-12.0505
四百八十	-12.0505
小顔	-12.0507
江西	-12.0507
解襪	-12.0508
牝馬	-12.0508
遜志	-12.0509
无不利	-12.051
二十九日	-12.051
黄白	-12.051
白茅	-12.0511
乃禮反	-12.0511
其子孫	-12.0512
上中下	-12.0513
無所施	-12.0514
焦氏	-12.0514
雨雹	-12.0516
古顔	-12.0516
卜郊	-12.0516
土之次曰五	-12.0517
恁地說	-12.0518
盧令	-12.0518
所以然者	-12.052
下下傳	-12.052
整齊	-12.0521
寫本	-12.0524
㑹塟	-12.0524
下三爻	-12.0526
山海	-12.0529
持守	-12.0532
最逺	-12.0532
篆文	-12.0535
變更	-12.0537
布置	-12.0537
在醉	-12.0538
朕命	-12.0539
文王之徳	-12.0539
補遺元文	-12.0541
延年	-12.0542
脩身	-12.0542
已作以	-12.0542
請期	-12.0543
廣陵	-12.0545
直遥反注	-12.0545
歩交	-12.0546
繼室	-12.0547
亂賊	-12.055
色類	-12.0554
以作亦	-12.0554
魚依	-12.0554
象天	-12.0554
李斯	-12.0555
人實反	-12.0556
十二辰	-12.0557
如字鄭云	-12.0557
棟謂	-12.0557
欲殺	-12.0557
常道	-12.0558
附著	-12.0559
國䇿	-12.056
甸服	-12.056
備具	-12.056
子用反	-12.0561
从艸	-12.0562
師尹	-12.0562
千載	-12.0566
疆界	-12.0566
切韻	-12.057
朱校宋本禮記疏四十	-12.0571
大概	-12.0571
僅存	-12.0573
有虞氏之	-12.0573
族師	-12.0574
苦旦	-12.0576
七經孟子考文補遺卷七十	-12.0576
徐履	-12.0577
傷害	-12.0579
而况於	-12.058
安危	-12.0581
九欽定四庫全書	-12.0583
尺五寸	-12.0584
宗室	-12.0588
險難	-12.0588
二簋	-12.0589
引詩云	-12.059
進賢	-12.0592
仲遂	-12.0594
宋板也作	-12.0594
大司冦	-12.0595
舞師	-12.0596
紙反	-12.0599
危亡	-12.06
説底	-12.0601
在星紀	-12.0606
如此所以	-12.0607
天下之物	-12.0607
註疏諸本	-12.0608
詩照反下	-12.0609
下有也下箋	-12.061
左氏春秋	-12.061
有兩音	-12.0611
玉石	-12.0613
康公	-12.0614
五十八	-12.0619
類聚	-12.0619
而歸之	-12.0619
布内	-12.0622
費氏	-12.0623
容儀	-12.0625
災異	-12.0625
水涯	-12.0626
謹按恐	-12.0627
賓主	-12.0628
聘問	-12.0633
十三卦	-12.0635
之所行	-12.0638
未曽	-12.0639
雜記下	-12.0641
福祿	-12.0646
經營	-12.0648
徒帝	-12.0651
與羣臣	-12.0653
掛一	-12.066
弓衣	-12.0663
母死	-12.0663
通志六十	-12.0665
大僕	-12.0666
古毒反	-12.0668
享國	-12.067
訓解	-12.0672
固辭	-12.0673
二三四	-12.0676
甚詳	-12.0681
秦晉	-12.0683
於其中	-12.0685
申命	-12.0687
河海	-12.0687
少異	-12.0688
於是乎有	-12.0688
土功	-12.0691
衛大夫	-12.0691
字下云	-12.0698
申重	-12.0701
武貌	-12.0703
必至於	-12.0711
四十五日	-12.0713
臣妾	-12.0715
附益	-12.0716
每事	-12.072
㑹盟	-12.072
放齊	-12.0722
未知其	-12.0724
古典	-12.0727
美貌	-12.0727
變而為	-12.0728
淳于	-12.0735
昬禮	-12.0736
朱義	-12.0737
習射	-12.0743
次變	-12.0747
許規反	-12.0748
音曠	-12.0749
之别名	-12.0751
城外	-12.0754
州里	-12.0757
君父之	-12.076
龜書	-12.0766
己私	-12.0767
諸本皆	-12.0774
君薨	-12.0776
六欽定四庫全書七經孟子考文補遺卷	-12.0779
無為字	-12.0781
凡一百	-12.0793
入江	-12.0795
鄭註云	-12.0801
兵器	-12.0801
久而不	-12.0808
他那	-12.081
何嘗有	-12.0814
黄帝時	-12.0817
謙辭	-12.0819
乃歷	-12.0827
三十八葉右	-12.0834
習禮	-12.0837
市專	-12.0839
假樂	-12.0841
七經孟子考文補遺卷一百五十	-12.0841
篇題	-12.0848
象以典刑	-12.0851
宋板正嘉	-12.0852
七經孟子考文補遺卷一百三十	-12.0856
矣是故	-12.0857
上擯	-12.0858
丈專反	-12.0859
亦不必	-12.0862
伊川解	-12.0865
不憚	-12.0865
也按春秋	-12.0868
世紀	-12.0875
官府	-12.0879
六經之	-12.0896
卷末	-12.0896
宋板人作	-12.0897
嵗月	-12.0898
苦報	-12.09
下有為字	-12.0911
無於字	-12.0913
四章言	-12.0918
三箇	-12.0922
只如此	-12.0927
了却	-12.093
未冠	-12.0934
開方	-12.0944
无心	-12.0954
天下國家	-12.0959
難理㑹	-12.0964
武功	-12.0968
相侵	-12.0969
朱校宋本禮記疏三十	-12.0971
三十六葉左	-12.0976
从示	-12.0978
這事	-12.0987
成周之	-12.0994
有小大	-12.0994
从手	-12.1006
聖人之言	-12.101
初革反	-12.1015
建亥	-12.1015
以事君	-12.102
出征	-12.1033
姑姊妹	-12.1037
可久	-12.1049
善射	-12.1056
聲之誤	-12.1058
諸本皆誤	-12.1066
唐宋	-12.1067
必履反	-12.1075
甚重	-12.1081
刑殺	-12.1084
九疇之	-12.1084
三本足利本宋板同	-12.1094
不出於	-12.1095
鷺	-12.1103
餘亮	-12.1107
二本宋板同	-12.1108
此所以為	-12.1114
衣錦	-12.1118
十六卦	-12.1121
何益	-12.1128
治兵	-12.1128
君賜	-12.1132
一家之	-12.1136
隠元年	-12.1137
杳	-12.1137
蔟	-12.1138
這只是	-12.1139
氣化	-12.1143
傅說	-12.1144
丏	-12.1146
莢	-12.1147
鄑	-12.1147
饕	-12.1147
􁊃	-12.1147
古患反	-12.1154
蹋	-12.1155
威武	-12.1156
弈	-12.1156
綯	-12.1158
薁	-12.1163
嬀	-12.1163
昌銳	-12.1164
陀	-12.1164
千五百	-12.1164
溲	-12.1165
茵	-12.1166
煕	-12.1167
耊	-12.1167
萎	-12.1168
袁万	-12.1169
坰	-12.1169
璪	-12.117
羊汝反	-12.117
之大法	-12.117
厞	-12.117
覸	-12.1171
㝷	-12.1171
方圓	-12.1171
笫	-12.1172
人鬼	-12.1172
錐	-12.1172
爭鬪之爭	-12.1173
徳教	-12.1173
九委反	-12.1174
篹	-12.1174
直勇反	-12.1174
正字通云	-12.1174
鯢	-12.1175
駓	-12.1175
􁉸	-12.1177
皥	-12.1177
魚檢反	-12.1177
陴	-12.1177
頯	-12.1178
珩	-12.1178
那箇	-12.1178
鵞	-12.1179
縈	-12.1179
嚭	-12.118
繶	-12.118
躒	-12.118
旭	-12.1181
于僞反下注爲	-12.1182
漉	-12.1182
吳氏	-12.1182
齕	-12.1182
叔于田	-12.1182
士匄	-12.1183
啜	-12.1184
惸	-12.1185
甲士三人	-12.1185
鬌	-12.1185
悲位反	-12.1185
哂	-12.1186
樊纓	-12.1186
舒銳	-12.1186
膷	-12.1186
閡	-12.1186
躅	-12.1187
昻	-12.1187
僾	-12.1187
訐	-12.1187
杇	-12.1188
腒	-12.1188
鼖	-12.1188
嬙	-12.1188
瑰	-12.1189
綪	-12.1189
笛色	-12.1189
墍	-12.1189
檇	-12.1189
汲郡	-12.1189
苦對反	-12.119
販	-12.119
雚	-12.119
跌	-12.119
譛	-12.119
芄蘭	-12.119
闥	-12.1191
憶	-12.1191
汶陽	-12.1192
笲	-12.1192
才性反	-12.1192
冏	-12.1192
杻	-12.1192
覈	-12.1192
喆	-12.1192
槄	-12.1193
諐	-12.1193
􁂄	-12.1194
百里之國	-12.1194
貃	-12.1194
睠	-12.1194
耏	-12.1194
力侯反	-12.1194
癡	-12.1194
聳	-12.1194
罇	-12.1194
岷	-12.1194
香兩反	-12.1194
江東呼	-12.1195
螭	-12.1195
鵰	-12.1195
鞂	-12.1195
猩	-12.1195
芭	-12.1195
叔肸	-12.1195
毨	-12.1196
邕	-12.1196
埒	-12.1196
無愆	-12.1196
虬	-12.1197
絿	-12.1197
音月又	-12.1197
媺	-12.1198
陶注云	-12.1198
徒兮反	-12.1198
詩疏十之	-12.1198
蚓	-12.1199
鐃	-12.1199
顧野王	-12.1199
琛	-12.1199
升歌	-12.1199
媟	-12.12
兢	-12.12
徒洛反	-12.12
刵	-12.12
下有謂字	-12.1201
橧	-12.1201
詫	-12.1201
眸	-12.1201
噦噦	-12.1201
而日月㑹	-12.1201
鬰	-12.1202
砠	-12.1202
嚏	-12.1202
嘻嘻	-12.1202
苦計反	-12.1203
僇	-12.1203
斤斤	-12.1203
七全反	-12.1204
彼貧	-12.1204
檿	-12.1205
萁	-12.1205
纁裳	-12.1205
昧爽	-12.1205
森	-12.1206
捍	-12.1206
憬	-12.1206
渤	-12.1206
覧	-12.1206
甓	-12.1207
陪尾	-12.1207
閔子騫	-12.1207
晃	-12.1207
鼛	-12.1208
向戌	-12.1208
楘	-12.1208
況甫	-12.1208
苡	-12.1208
㸑	-12.1208
龡	-12.1208
㤗	-12.1209
韙	-12.1209
睂	-12.1209
蜙	-12.1209
幡幡	-12.1209
圯	-12.1209
宓	-12.121
十三經注疏正字卷	-12.121
狡童	-12.121
徔	-12.121
開在反	-12.121
旞	-12.121
萇弘	-12.121
羑里	-12.121
欬	-12.1211
右扶風	-12.1211
稷契	-12.1211
靚	-12.1211
斗斛	-12.1211
賔之初筵	-12.1212
屎	-12.1212
佔	-12.1212
丁報反	-12.1212
軟	-12.1213
二十里	-12.1213
石碏	-12.1213
鴇羽	-12.1213
刁	-12.1213
柞棫	-12.1213
孔頴逹	-12.1214
熄	-12.1214
南有嘉魚	-12.1214
鉛	-12.1214
潄	-12.1214
失名注	-12.1215
痺	-12.1215
冗	-12.1215
赧	-12.1215
擴	-12.1215
籔	-12.1215
桎梏	-12.1215
礱	-12.1215
窴	-12.1215
褖衣	-12.1215
斮	-12.1216
彧	-12.1216
逄	-12.1216
諮	-12.1216
内小臣	-12.1216
諗	-12.1216
聯	-12.1216
有駜	-12.1216
徭	-12.1217
箾	-12.1217
擖	-12.1217
輜車	-12.1217
拖	-12.1217
歩卜	-12.1218
何彼穠矣	-12.1218
隕霜	-12.1218
懮	-12.1218
畸	-12.1218
金木水火	-12.1218
逐逐	-12.1218
長三丈	-12.1218
殈	-12.1218
輂	-12.1219
輮	-12.1219
周公東征	-12.1219
監閩本	-12.1219
褓	-12.1219
趙簡子	-12.122
芮伯	-12.122
丌	-12.122
忉忉	-12.1222
追琢	-12.1222
甾	-12.1222
士䘮禮	-12.1222
兢兢業業	-12.1222
䢴	-12.1222
謹按惟萬厯與崇禎本同	-12.1222
疋	-12.1223
平王東遷	-12.1223
棓	-12.1223
束帛戔戔	-12.1223
南蒯	-12.1224
姿	-12.1224
師作帥	-12.1224
大昕	-12.1224
阝	-12.1224
太皥	-12.1224
孔子作春秋	-12.1225
薙	-12.1225
瘣	-12.1226
㲄	-12.1226
潔淨精微	-12.1226
公冶長	-12.1226
㢲而止	-12.1227
歩頂	-12.1227
潤澤	-12.1227
篇内皆同	-12.1227
拕	-12.1227
日知録	-12.1227
未詳孰是	-12.1228
仲壬	-12.1228
林少頴	-12.1228
逓	-12.1228
考異宋板經	-12.1228
道作導	-12.1229
黄榦録	-12.1229
千里之外	-12.1229
車騎	-12.123
述而不作	-12.123
趙衰	-12.123
元咺	-12.123
三萬人	-12.1231
為人子者	-12.1231
不亦可乎	-12.1231
影響	-12.1231
後鄭讀為	-12.1231
宓羲	-12.1231
不詳何人	-12.1231
㛰	-12.1231
韋弁	-12.1231
謹按崇禎本闕	-12.1231
三十七葉左	-12.1232
欽定四庫全書融堂四書管見卷	-12.1232
居尊位	-12.1233
隋書十	-12.1233
改正朔	-12.1233
未知孰是	-12.1233
五經正義	-12.1234
張皇六師	-12.1234
毛如字鄭	-12.1235
潢	-12.1235
芒種	-12.1235
齊作齋	-12.1235
山海經云	-12.1235
昴畢	-12.1235
不濟事	-12.1235
春王三月	-12.1236
惻隠之心	-12.1236
刑戮	-12.1236
與今本同	-12.1236
沇	-12.1238
參差不齊	-12.1238
蒲姑	-12.1238
縂	-12.1238
誤中从	-12.1239
並御覽百四十	-12.1239
邦無道	-12.1239
陳淳錄	-12.1239
寂然不動	-12.1239
用九用六	-12.1239
鉄	-12.124
湧	-12.124
園㕓	-12.124
莆	-12.124
角徴	-12.124
議郎	-12.124
慎獨	-12.124
籙	-12.1241
普口	-12.1241
歩丁	-12.1241
閉藏	-12.1241
僖元年	-12.1241
秪	-12.1241
泰誓一篇	-12.1242
兵大起	-12.1242
各得其宜	-12.1242
章八句	-12.1242
東西南北	-12.1243
爾雅音義	-12.1243
季孫宿	-12.1243
㮮按	-12.1243
揚子雲	-12.1244
紀綱	-12.1244
庚寅	-12.1244
嵗饒録	-12.1244
長轂	-12.1245
乙酉	-12.1245
再閏	-12.1245
展衣	-12.1245
卷國朝	-12.1246
蔥	-12.1247
敬嬴	-12.1247
包章句	-12.1248
右第二十	-12.1248
民之父母	-12.1248
下有也字下箋	-12.1249
户江	-12.125
盧本作	-12.125
射慈	-12.1251
牛耕	-12.1251
一欽定四庫全書七經孟子考文補遺卷	-12.1251
委積	-12.1252
丈二尺	-12.1253
㬊淵録乾文言第二節	-12.1253
並史記注一	-12.1253
補遺據	-12.1253
二百四十二年	-12.1254
納采	-12.1255
漢魏	-12.1255
隂陽剛柔	-12.1255
上有則字	-12.1255
憲宗	-12.1255
乘舟	-12.1256
轉移	-12.1257
下有猶字	-12.1257
麻衣易	-12.1258
傳冩	-12.1258
冉求	-12.1259
古本足利本	-12.1259
資質	-12.1259
條例	-12.126
才陵	-12.126
仲康	-12.126
分為三	-12.126
敝邑	-12.1261
差錯	-12.1262
榮光	-12.1262
世爵	-12.1263
龍蛇	-12.1263
七欽定四庫全書七經孟子考文補遺卷	-12.1263
七經孟子考文補遺卷九十	-12.1264
河源	-12.1264
撎	-12.1264
之閏反	-12.1264
利渉大川	-12.1265
弁師	-12.1265
上有一字	-12.1266
始畫八卦	-12.1266
殺其君	-12.1266
凶荒	-12.1266
季友	-12.1268
乎作于	-12.1269
歴歴	-12.1269
兼用	-12.127
權衡	-12.127
司市	-12.127
敦厚	-12.127
費隠	-12.1271
到底	-12.1271
小雪	-12.1272
桓桓	-12.1272
子同生	-12.1272
喜怒	-12.1272
素冠	-12.1273
頻復	-12.1274
膳夫	-12.1274
㐮公	-12.1274
其兩反	-12.1275
宋板為作謂	-12.1275
孟皮	-12.1275
上三爻	-12.1276
知其非	-12.1276
釋蟲	-12.1277
天文志	-12.1277
太𤣥	-12.1279
震澤	-12.128
次嫡	-12.128
篤厚	-12.128
後鄭謂	-12.1281
明明徳	-12.1282
依注爲	-12.1284
圭田	-12.1285
寂然	-12.1285
區處	-12.1285
推移	-12.1285
百榖	-12.1288
下共有也字補遺宋板疏	-12.1288
政敎	-12.1289
赴告	-12.1291
所巾	-12.1291
夫婦之道	-12.1291
這意思	-12.1291
劉兆	-12.1291
戸對	-12.1292
凌人	-12.1294
衰微	-12.1295
工歌	-12.1297
服緦	-12.1297
從序説	-12.1298
黎民	-12.1298
時邁	-12.1299
論語孟子	-12.1301
戸甲	-12.1303
十有三年	-12.1303
健順	-12.1305
御叔	-12.1306
手拜	-12.1306
文選	-12.1306
戸管	-12.1307
妙處	-12.1307
冊府元龜六百五	-12.1308
彼註無	-12.131
卦位	-12.131
戸老	-12.1311
一片	-12.1311
愚案	-12.1314
定元年	-12.1315
捕魚	-12.1315
幽都	-12.1317
踰竟	-12.1322
禄位	-12.1326
於良反	-12.1334
存考	-12.1336
畢星	-12.1337
必二反	-12.1338
俗儒	-12.1338
秘書	-12.1339
于禰	-12.1339
春秋之世	-12.134
下有之也字	-12.1344
二十九卷	-12.1346
羊灼	-12.1347
啟明	-12.1349
韋氏	-12.1352
純衣	-12.1352
初洽	-12.1353
山之陽	-12.1353
人姓名	-12.1354
閽人	-12.1355
並釋文二十	-12.1358
天官書	-12.1359
嘉禮	-12.1359
廟門外	-12.136
而巳矣	-12.1361
子叔姬	-12.1363
雩祭	-12.1363
上有於字	-12.1366
普庚	-12.1368
第十章	-12.137
宋本御覽二十	-12.1371
民作人	-12.1378
七曹	-12.1382
尚質	-12.1382
旁加	-12.1383
附近之近下	-12.1385
求福	-12.1386
四箇	-12.1388
唐風	-12.1391
便不是	-12.1392
埤雅	-12.1393
永懐堂同註	-12.1396
戸買	-12.1397
交㑹	-12.1406
宣王時	-12.1412
目白	-12.1413
分隂陽	-12.1414
楚金	-12.1415
旅師	-12.1421
興國本作	-12.1429
杜解	-12.143
吾語	-12.1433
從集解	-12.1434
武巾	-12.1448
告戒	-12.145
險易	-12.1452
盡性	-12.1453
相沿	-12.1453
坐位	-12.1453
古韻	-12.1454
又象辭	-12.1457
期月	-12.1461
閔子	-12.1461
里仁	-12.1465
夏后氏以	-12.147
云乎哉	-12.1471
八葉右三行	-12.1473
小祥	-12.1475
字疑在	-12.1479
鳥名	-12.1479
如字王肅	-12.1483
任官	-12.1483
重叠	-12.1486
御覽五百三十	-12.1487
衣冠	-12.1493
這物事	-12.1494
醢人	-12.1495
七十二日	-12.1497
尺六寸	-12.1502
教令	-12.1504
異於是	-12.1507
可以意求	-12.151
卷之十	-12.153
四字疏	-12.1532
其室家	-12.1539
佞人	-12.1544
邪僻	-12.1544
抑詩	-12.1549
即今之	-12.1554
之故也	-12.1557
數條	-12.1559
聖人之德	-12.1559
雎鳩	-12.156
尹吉	-12.1568
七經孟子考文補遺卷一百十	-12.1578
側留反	-12.1587
逸豫	-12.1592
推原	-12.1601
舊章	-12.1602
觀兵	-12.1613
把做	-12.1613
莫知其	-12.1616
豈惟	-12.162
青赤	-12.1621
易之書	-12.1635
冬十二月	-12.164
按史記	-12.1649
終之以	-12.1652
尊祖	-12.1656
能安	-12.1659
行其道	-12.1661
百萬	-12.1661
楊氏	-12.1665
影宋本	-12.1666
聖人有以見天下之賾	-12.1671
貴臣	-12.1674
徒報	-12.1691
見於外	-12.1691
國號	-12.1699
可證	-12.1703
引此詩	-12.1703
文王周公	-12.1719
張慮	-12.1723
之善者	-12.1739
孤卿	-12.1749
后夫人	-12.1755
填星	-12.1758
隂陽和	-12.1764
發動	-12.177
武帝時	-12.1773
井井	-12.1792
右禹貢	-12.1793
何况	-12.1811
第十三	-12.1814
音問又	-12.1814
誠實	-12.182
按白虎通	-12.1839
八葉左五行	-12.1839
癸未	-12.1849
矣又何	-12.1849
小爾雅	-12.1857
婢支反	-12.1862
又音河	-12.1869
尤難	-12.1878
道不行	-12.1878
濟西	-12.1883
同一音如字	-12.189
俗呼	-12.189
人君當	-12.1894
流貌	-12.1913
如北極	-12.1928
春秋之法	-12.193
之過也	-12.1934
永嘉	-12.1943
引論語	-12.1947
功衰	-12.1947
用力於	-12.1947
邳	-12.1951
劉昌宗	-12.1962
正義引此	-12.1969
上有是字	-12.1976
七經孟子考文補遺卷一百二十	-12.1976
踶	-12.1976
音泰後大	-12.1978
范甯集解元年	-12.1983
齊侯宋公	-12.1986
依注讀爲	-12.1987
帥師伐	-12.1987
杉	-12.199
賃	-12.199
居覲反	-12.199
歂	-12.1992
葺	-12.1993
尺志反	-12.1994
穧	-12.1994
軋	-12.1995
郚	-12.1995
倶	-12.1995
居衞反	-12.1996
嶷	-12.1996
是自家	-12.1997
晩	-12.1997
痒	-12.1998
邿	-12.2001
缾	-12.2002
力代反	-12.2002
鉗	-12.2002
讇	-12.2005
苦晃	-12.2007
蹯	-12.2007
楗	-12.2007
圄	-12.2007
絶句一讀	-12.2007
紖	-12.2008
陛	-12.2008
劌	-12.2009
溜	-12.2009
饟	-12.2009
􁈞	-12.2009
勑檢	-12.201
所洽反	-12.201
忤	-12.201
川澤	-12.201
筩	-12.2011
何待	-12.2011
骹	-12.2011
詻	-12.2011
牋	-12.2012
瘝	-12.2012
髳	-12.2013
遶	-12.2013
乃多反	-12.2013
屺	-12.2013
掾	-12.2013
罵	-12.2013
臐	-12.2013
鬒	-12.2013
鯁	-12.2014
山崩	-12.2014
匴	-12.2014
淅	-12.2014
麴	-12.2014
𬞞	-12.2014
芑	-12.2015
諟	-12.2015
遻	-12.2015
剏	-12.2015
纆	-12.2016
朐	-12.2016
音集又	-12.2017
鰋	-12.2017
鐓	-12.2017
匣	-12.2018
奴罪	-12.2018
刎	-12.2018
溉	-12.2019
圭瓉	-12.2019
縋	-12.2019
聆	-12.202
蛄	-12.202
桃茢	-12.202
瀰	-12.202
諍	-12.202
袤	-12.2021
芃芃	-12.2022
黼黻	-12.2022
諴	-12.2023
繘	-12.2023
紾	-12.2023
白雜毛	-12.2023
旝	-12.2023
溓	-12.2023
撟	-12.2024
踞	-12.2024
筠	-12.2024
儵	-12.2024
髺	-12.2024
胡暗	-12.2024
鮀	-12.2024
鍭	-12.2024
嚬	-12.2024
緑竹	-12.2025
觿	-12.2025
遵大路	-12.2026
仡	-12.2026
蠯	-12.2026
丘中有麻	-12.2026
獫	-12.2027
眈	-12.2027
醒	-12.2027
禦寇	-12.2027
蠜	-12.2027
􁀔	-12.2027
豜	-12.2027
䪐	-12.2028
許玉反	-12.2029
絛	-12.2029
轚	-12.2029
彳	-12.2029
㯺	-12.2029
婺	-12.2029
溠	-12.203
裧	-12.203
曝	-12.203
瀌	-12.203
漯	-12.2031
祺	-12.2031
佯	-12.2031
隔八相生	-12.2031
篾	-12.2032
櫂	-12.2032
纚笄	-12.2032
輾轉	-12.2032
絼	-12.2032
慣	-12.2033
拉	-12.2033
篴	-12.2033
蒲貝	-12.2033
惕惕	-12.2034
螗	-12.2034
㡛	-12.2034
喘	-12.2034
襮	-12.2034
譊	-12.2034
匪頒	-12.2035
拄	-12.2035
謖	-12.2036
溟	-12.2036
醳	-12.2036
歐	-12.2036
攅	-12.2036
蔽膝	-12.2036
霏	-12.2037
愉愉	-12.2037
二程	-12.2037
杶	-12.2037
雷霆	-12.2037
恠	-12.2037
峯	-12.2038
崒	-12.2038
鱒	-12.2038
捐	-12.2038
荀罃	-12.2039
玄纁	-12.2039
妖孽	-12.2039
田畯	-12.2039
芩	-12.2039
儔	-12.204
摟	-12.204
搏拊	-12.204
邀	-12.204
洟	-12.204
庸庸	-12.204
琇	-12.2041
魏文侯	-12.2041
芙	-12.2041
噂	-12.2041
罘	-12.2041
給事中	-12.2041
萩	-12.2042
噫嘻	-12.2042
偈	-12.2042
骭	-12.2042
私覿	-12.2042
脇	-12.2042
龔	-12.2042
孝悌	-12.2043
咢	-12.2043
号	-12.2043
振鐸	-12.2044
赤芾	-12.2044
霑	-12.2044
汧	-12.2044
埃	-12.2044
圮	-12.2044
酺	-12.2044
瓀	-12.2044
官喚	-12.2045
軰	-12.2045
脯醢	-12.2045
擗	-12.2046
野有死麕	-12.2046
二尺四寸	-12.2046
欽定四庫全書十三經義疑卷	-12.2046
艾獵	-12.2046
反扶當作蒲	-12.2046
嘒嘒	-12.2047
融堂四書管見卷	-12.2047
滴	-12.2047
閨	-12.2047
鄭衆解詁	-12.2047
内司服	-12.2047
聽訟	-12.2047
蒲侯反	-12.2047
鴻鴈	-12.2047
工木反	-12.2047
趣馬	-12.2048
剗	-12.2048
丁歷反本	-12.2048
士鞅	-12.2048
么	-12.2049
方元反	-12.2049
治厯明時	-12.2049
竹竿	-12.2049
𧃊	-12.2049
方千里者	-12.2049
析羽	-12.205
孤竹	-12.205
炎炎	-12.205
並通典八十	-12.205
利有攸徃	-12.2051
何天之衢	-12.2051
中郎將	-12.2051
震電	-12.2051
輔嗣	-12.2051
一項是	-12.2051
庵	-12.2052
瀍	-12.2052
影宋本集韵	-12.2052
四千五百六十	-12.2052
纖	-12.2052
洸	-12.2053
盜賊	-12.2053
蜀郡	-12.2053
盼	-12.2054
春秋所書	-12.2055
七感反	-12.2055
浸潤	-12.2055
磷	-12.2055
哭泣	-12.2055
傳寫之誤	-12.2056
汲冡	-12.2056
秊	-12.2056
受作授	-12.2056
童蒙	-12.2056
鑿鑿	-12.2057
變風始作	-12.2057
譸	-12.2058
視履考祥	-12.2058
攬	-12.2058
肺肝	-12.2058
三千六百	-12.2058
解作懈	-12.2058
讄	-12.2058
古今人表	-12.2058
宫作官	-12.2058
涵詠自	-12.2058
四海之内	-12.2059
徒跣	-12.2059
摠	-12.2059
陽雲出	-12.2059
小毖	-12.206
髣	-12.206
傳冩之誤	-12.206
世傳業	-12.206
詩攷一	-12.206
朿	-12.206
通典九十	-12.2061
厮	-12.2061
鄭可學録	-12.2061
冇	-12.2061
釋訓云	-12.2061
授同郡	-12.2061
鼐	-12.2062
中士下士	-12.2062
年考異宋板傳	-12.2062
殘缺	-12.2062
閶闔	-12.2062
交趾	-12.2062
亦猶是也	-12.2062
揀	-12.2062
也三本也上有者字	-12.2062
闐	-12.2063
昆蟲	-12.2063
案程子云	-12.2063
抭	-12.2063
韗人	-12.2063
光輝	-12.2063
舟楫	-12.2064
河出圖	-12.2064
大蔟	-12.2064
穏	-12.2064
後鄭讀如	-12.2064
毛詩傳云	-12.2064
嚶嚶	-12.2064
不耕穫不菑畬	-12.2064
松栢	-12.2065
佑助	-12.2065
窈窕	-12.2065
所以行之者	-12.2065
侵削	-12.2066
到極處	-12.2066
九百四十分	-12.2066
如今人言合格	-12.2066
宋衷	-12.2066
壼	-12.2066
不喪匕鬯	-12.2066
黜陟	-12.2066
格其非心	-12.2066
監本脫	-12.2066
克己復禮	-12.2066
柅	-12.2066
奢侈	-12.2067
束矢	-12.2067
格之格	-12.2067
並宋本春秋疏二十	-12.2067
甘節録	-12.2067
婺女	-12.2068
七日來復	-12.2068
間空一字	-12.2069
彤管	-12.2069
開物成務	-12.2069
名作各	-12.2069
體驗	-12.2069
李廵	-12.207
便教他居	-12.207
周公制禮	-12.207
西狩獲麟	-12.2071
一箇表儀	-12.2071
原壤	-12.2071
映	-12.2071
詳審	-12.2071
豆籩	-12.2071
府史胥徒	-12.2071
秦穆公	-12.2071
季夏六月	-12.2072
宋本御覧	-12.2072
嫡妾	-12.2072
承筐	-12.2072
無偏無黨	-12.2072
門人所記	-12.2072
烈烈	-12.2072
生成之數	-12.2072
夹	-12.2073
顚倒	-12.2073
典籍	-12.2073
誾誾	-12.2073
為四向所	-12.2073
存舊尚書卷第	-12.2074
展輿	-12.2074
安卿問	-12.2074
巳作以	-12.2074
盥而不薦	-12.2075
魂魄	-12.2075
葬我小君	-12.2075
天地定位	-12.2075
祔廟	-12.2075
周謨録	-12.2075
劉礪錄	-12.2075
衛靈公	-12.2076
五星聚	-12.2076
噩	-12.2077
置博士	-12.2077
也字林同	-12.2077
霍山	-12.2077
哉生明	-12.2078
乙卯	-12.2078
布帛	-12.2078
冶氏	-12.208
惟精惟一	-12.208
之記矣	-12.208
微旨	-12.208
之律應	-12.2081
庚辛	-12.2081
寡婦	-12.2082
商賈	-12.2082
元者善之長	-12.2082
戊巳	-12.2082
東萊解	-12.2083
各從其	-12.2083
錫衰	-12.2083
斯二者	-12.2086
精宻	-12.2086
時力反	-12.2086
敬以直内	-12.2086
有一毫	-12.2087
歐公	-12.2087
倉卒	-12.2087
三十八葉	-12.2087
微㫖	-12.2088
象曰節疏	-12.2088
觀我生	-12.2088
下邳	-12.2088
石渠	-12.2089
依字當作	-12.2089
隂陽變化	-12.2089
可與存義	-12.2089
之月天子	-12.2089
引司馬法	-12.2089
幽州	-12.2091
五孝反	-12.2093
入郢	-12.2094
步頂	-12.2094
文王之化	-12.2095
乞師	-12.2096
黄裳	-12.2096
樂天知命	-12.2097
甘露	-12.2097
夷豉	-12.2098
英宗	-12.2098
放桀	-12.2098
宋板永懐堂同釋文	-12.2099
宋永同釋文	-12.21
韓詩章句	-12.2101
徑路	-12.2101
何如哉	-12.2101
頑民	-12.2102
下有言字	-12.2103
徐整	-12.2103
燕寢	-12.2103
詳畧	-12.2103
說得好	-12.2104
干禄	-12.2104
周穆王	-12.2105
理㑹不得	-12.2106
百四十六	-12.2106
詩疏四之一	-12.2106
尊忽	-12.2107
相表裏	-12.2107
紀冝	-12.2108
如作知	-12.2108
其劫	-12.2109
從疏挍	-12.211
月失政	-12.2111
夏桀	-12.2111
孫炎云	-12.2113
充塞	-12.2114
田稅	-12.2115
力俱反	-12.2116
豈肯	-12.2116
如淳曰	-12.2117
掌客	-12.2118
者者作也	-12.2119
古文孝經	-12.212
鄭答	-12.212
發夕	-12.212
周之衰	-12.2121
戴勝	-12.2122
謙退	-12.2122
烏浪	-12.2125
十有一	-12.2126
弗弔	-12.2126
危懼	-12.2127
傳於世	-12.2128
條目	-12.2129
鄉里	-12.2129
青龍	-12.2132
河患	-12.2132
上有皆字	-12.2133
乾九二	-12.2135
上有又字	-12.2135
詩疏十一之	-12.2135
苦代	-12.2138
追師	-12.2141
曹風	-12.2141
一百五	-12.2142
脱之字	-12.2145
路史	-12.2145
二十五月	-12.2145
後方始	-12.2146
居領	-12.2146
肅揖	-12.2147
經十一年	-12.2148
禄父	-12.2149
閒田	-12.2151
後皆然	-12.2156
三人行	-12.2158
胡對	-12.2159
者何物	-12.2159
婚禮	-12.2162
周公旦	-12.2162
牛角	-12.2163
於是乎在	-12.2163
右益稷	-12.2166
萬乗	-12.2166
流轉	-12.2167
諧聲於	-12.2169
七豆	-12.2169
十六葉右八行	-12.217
篤志	-12.217
叔虞	-12.217
惜乎	-12.217
先儒以為	-12.2173
攝位	-12.2174
也也作之	-12.2175
教授	-12.2175
戚施	-12.2176
謹按此疏	-12.2178
車輪	-12.2179
巽順	-12.2179
聘義	-12.2181
槀人	-12.2183
通典七十	-12.2186
師曠	-12.2187
郭京	-12.2187
四隅	-12.2187
抑隂	-12.2187
泰誓中	-12.2189
覆載	-12.219
别録	-12.2191
賈師	-12.2193
固不可	-12.2193
無公字	-12.2194
吕氏曰	-12.2198
攻古文者	-12.2198
並不及	-12.22
程朱	-12.22
就事上	-12.22
先鄭讀	-12.2203
張仲	-12.2206
小乙	-12.2207
十有一月	-12.2208
祖甲	-12.2226
禘祭	-12.2228
苦耕	-12.2229
昨日	-12.2239
宋本文選注二十	-12.2242
人之善	-12.2246
此等語	-12.2251
互異	-12.2255
聖人之徳	-12.2256
書孔氏傳	-12.2258
食禄	-12.2261
問伊川	-12.2265
丁丈反注	-12.2266
棣棣	-12.2269
講明	-12.2271
以理言	-12.2272
語録	-12.2276
思量	-12.2278
从米	-12.2284
坎為水	-12.2284
百歳	-12.2286
郊祭	-12.2291
易大傳	-12.2293
形質	-12.2294
何也蓋	-12.2321
貫通	-12.2322
妄改	-12.2325
兵革	-12.233
豳詩	-12.2332
應鐘	-12.2334
人名字	-12.2339
别為一	-12.2341
只看	-12.2341
接續	-12.2342
以示人	-12.2346
重險	-12.2354
矣安得	-12.2356
遼東	-12.2356
東京	-12.2363
謹按古本本	-12.2363
菁菁	-12.2367
色赤	-12.237
何曽	-12.2379
萬二千五	-12.2382
不可攷	-12.2382
天禄	-12.2384
只是在中	-12.2388
第十九	-12.2392
然其中	-12.2396
知覺	-12.2397
建子之月	-12.2398
受命於	-12.2403
天府	-12.2408
四字脱	-12.2414
小胥	-12.2416
無所據	-12.2416
衰世	-12.2419
字抄	-12.242
不能忘	-12.2424
子為父	-12.2427
讒人	-12.2433
語錄	-12.2444
盡其心	-12.2446
上有為字	-12.2455
天地自然之	-12.2458
始立學	-12.2464
貞固	-12.2465
註同謹按	-12.2468
胡孝	-12.2472
仁厚	-12.2478
㑹聚	-12.2482
音祈又	-12.2493
扶亦反	-12.2507
稱夫人	-12.2532
左氏公羊	-12.2534
何有於	-12.2545
服大功	-12.2553
何獨於	-12.2559
公羊榖梁	-12.2579
士庶人	-12.258
漢書三十	-12.2583
做工夫	-12.2586
魯郊	-12.26
父子兄弟	-12.261
其至也	-12.2627
父母兄弟	-12.2628
主作王	-12.2641
皇后	-12.2648
百嵗	-12.2666
白黑	-12.2667
三十九葉右	-12.2705
三之一	-12.271
回邪	-12.2718
不得其所	-12.2769
曰易有	-12.2769
二十有四	-12.2777
只是隂陽	-12.28
其餘皆	-12.2823
貴貴	-12.2837
七十四	-12.284
日本山井鼎物觀撰毛詩註疏第	-12.284
宋板同疏放此	-12.2864
曩	-12.2879
逭	-12.2892
喟	-12.2893
插	-12.2893
蹵	-12.2894
曷為不	-12.2897
汀	-12.29
鄭云以其記	-12.2901
阱	-12.2902
烘	-12.2903
貲	-12.2904
色例反	-12.2904
杅	-12.2904
鋌	-12.2906
以證反又	-12.2907
諸盩	-12.2907
鬢	-12.2907
桼	-12.2908
嘽	-12.2909
摝	-12.2909
蛸	-12.2909
蹊	-12.2909
驥	-12.291
伴	-12.291
餾	-12.291
忖	-12.291
淒	-12.291
咷	-12.2911
債	-12.2911
古洽反劉	-12.2911
鄠	-12.2912
蒢	-12.2912
筲	-12.2912
垝	-12.2912
䱷	-12.2913
稙	-12.2913
暖	-12.2914
況于反	-12.2914
蘄	-12.2914
摽有梅	-12.2914
踧	-12.2915
騵	-12.2915
遣奠	-12.2915
驒	-12.2915
五刮反	-12.2915
詵	-12.2916
藨	-12.2916
鴨	-12.2917
嵇康	-12.2918
羜	-12.2919
耇	-12.2921
阡陌	-12.2922
藋	-12.2922
韡	-12.2922
户臘	-12.2923
筦	-12.2923
帟	-12.2923
[...]
