<unk>	0
<s>	0
</s>	0
/	-4.17787
為	-4.30262
(	-4.33963
之	-4.39239
)	-4.47359
以	-4.66174
一	-4.80446
而	-4.97945
也	-4.99046
與	-5.04454
則	-5.07648
二	-5.23781
三	-5.27145
其	-5.27264
即	-5.28192
得	-5.28789
○	-5.3643
四	-5.39282
)(	-5.47025
者	-5.49614
十	-5.57797
有	-5.58236
五	-5.67986
六	-5.76887
分	-5.76897
數	-5.79502
又	-5.83188
日	-5.84272
故	-5.85993
度	-5.95802
八	-5.97212
兩	-5.98405
如	-5.98686
於	-5.9916
九	-6.01831
求	-6.02476
若	-6.05011
用	-6.06448
七	-6.06543
此	-6.06749
法	-6.07349
是	-6.09001
在	-6.12683
至	-6.15764
餘	-6.16489
亦	-6.17117
等	-6.17727
中	-6.1947
各	-6.21621
▁	-6.2261
上	-6.29007
或	-6.33936
加	-6.34294
皆	-6.36873
大	-6.3705
時	-6.37396
及	-6.3766
減	-6.38757
作	-6.39603
/)	-6.39629
正	-6.41755
不	-6.42596
月	-6.43306
自	-6.43961
下	-6.46723
甲	-6.47052
積	-6.47934
半	-6.4853
曰	-6.50086
今	-6.5088
方	-6.53605
乃	-6.539
内	-6.54468
行	-6.54735
于	-6.56206
乙	-6.56776
同	-6.5764
後	-6.5813
所	-6.58374
矣	-6.58608
無	-6.59354
線	-6.60492
爲	-6.60871
多	-6.63082
合	-6.63406
前	-6.66732
共	-6.67207
人	-6.67286
天	-6.67615
次	-6.70531
丙	-6.72216
實	-6.73238
差	-6.73545
從	-6.76562
星	-6.78332
小	-6.78586
子	-6.79232
邊	-6.79569
定	-6.80358
必	-6.8102
角	-6.81057
凡	-6.81898
本	-6.83183
周	-6.84201
見	-6.85117
當	-6.85459
長	-6.86869
因	-6.87242
表	-6.87905
丁	-6.88357
成	-6.88911
置	-6.91497
距	-6.9163
乘	-6.93456
太陽	-6.93714
弧	-6.94615
問	-6.96259
之數	-6.9695
形	-6.98658
徑	-6.99156
較	-6.99634
率	-6.99651
二十	-6.99908
少	-7.00067
十二	-7.00654
取	-7.02957
然	-7.03532
地	-7.04506
髙	-7.04881
乗	-7.04897
非	-7.06297
除	-7.07704
測	-7.09428
未	-7.09888
黄道	-7.10415
厯	-7.11344
西	-7.12292
比	-7.12531
已	-7.13248
外	-7.13989
平	-7.14102
弦	-7.14793
半徑	-7.17132
股	-7.17447
入	-7.1807
年	-7.18255
元	-7.18425
交	-7.19683
尺	-7.19919
設	-7.20084
相	-7.20745
既	-7.21262
過	-7.22225
推	-7.23249
甲乙	-7.23891
出	-7.23905
言	-7.24711
倍	-7.2521
依	-7.25956
明	-7.26302
平行	-7.26415
三十	-7.27497
復	-7.27749
戊	-7.27841
心	-7.28766
又以	-7.29739
步	-7.29791
冬至	-7.30082
論	-7.3029
算	-7.3039
應	-7.30631
可	-7.31802
南	-7.32269
原	-7.33547
刻	-7.33957
并	-7.35003
己	-7.35013
圖	-7.35151
赤道	-7.36158
北	-7.3687
十一月	-7.37016
體	-7.37276
高	-7.37477
立	-7.38963
書	-7.39031
初	-7.3907
一百	-7.3938
先	-7.3993
名	-7.39948
俱	-7.41318
每	-7.41427
日食	-7.41889
文	-7.42461
謂	-7.42853
云	-7.43141
右	-7.44185
經	-7.44421
近	-7.45485
水	-7.46
食	-7.46763
乙丙	-7.46971
去	-7.47901
變	-7.48169
百	-7.48203
内減	-7.48523
雖	-7.48981
極	-7.49749
處	-7.50347
併	-7.50537
面	-7.50709
庚	-7.50742
廣	-7.50978
位	-7.51077
六十	-7.51084
視	-7.51707
限	-7.51935
嵗	-7.52122
對	-7.54921
直	-7.54967
界	-7.5514
總	-7.5515
並	-7.56673
甲丙	-7.56758
圓	-7.56815
之度	-7.56957
東	-7.57352
微	-7.57433
諸	-7.57529
一度	-7.57543
乎	-7.57685
和	-7.57692
石	-7.58436
通	-7.58506
為一率	-7.58791
葢	-7.59131
令	-7.59197
圏	-7.60269
辰	-7.60828
生	-7.61633
全	-7.62097
秒	-7.62515
按	-7.62547
時刻	-7.62926
四十	-7.63298
臣	-7.63727
焉	-7.63809
氣	-7.65059
正弦	-7.65216
五十	-7.66179
左	-7.6651
十一	-7.67439
日月	-7.67936
更	-7.67939
□	-7.68654
三分	-7.69196
惟	-7.6963
相減餘	-7.69948
勾	-7.70046
太隂	-7.70529
五分	-7.70778
重	-7.70807
知	-7.71061
之法	-7.72233
夫	-7.72403
列	-7.72488
道	-7.73291
宫	-7.73349
轉	-7.73581
但	-7.73737
四分	-7.73795
耳	-7.73948
能	-7.73977
句	-7.74104
古	-7.74289
一十	-7.74627
何	-7.74768
一分	-7.74798
二分	-7.75015
商	-7.75042
二十四	-7.75479
十五	-7.76126
金	-7.76151
萬	-7.76261
止	-7.76432
丙丁	-7.76508
辛	-7.77477
理	-7.77704
景	-7.77755
寸	-7.77934
起	-7.77961
三角形	-7.77991
居	-7.78684
光	-7.79431
午	-7.79834
事	-7.80773
將	-7.81271
甲丁	-7.81395
望	-7.81583
邉	-7.81776
十六	-7.81846
約	-7.82302
㸃	-7.8248
所得	-7.8263
法以	-7.82923
始	-7.83254
比例	-7.84164
物	-7.84348
底	-7.85004
巳	-7.85378
逺	-7.85395
歩	-7.8567
朔	-7.8595
壬	-7.86104
斜	-7.86253
里	-7.86665
□□	-7.87019
切	-7.87189
即得	-7.87601
末	-7.87713
除之得	-7.87992
為二率	-7.88157
向	-7.88942
乙角	-7.89013
開	-7.89115
甲子	-7.89218
丑	-7.89734
截	-7.90546
欲	-7.90595
闊	-7.90697
立方	-7.90927
虚	-7.91033
零	-7.91087
太	-7.91092
乃以	-7.91368
銀	-7.9212
再	-7.92837
仍	-7.92896
初虧	-7.93031
盡	-7.93053
火	-7.94187
二十五	-7.94292
太陰	-7.94334
滿	-7.94525
價	-7.94791
相距	-7.94791
不能	-7.94934
象	-7.95279
六分	-7.95585
謂之	-7.95735
餘弦	-7.959
寅	-7.95964
且	-7.96004
甲戊	-7.9621
第一	-7.96351
王	-7.96947
得數	-7.98146
三十六	-7.98304
離	-7.98556
歲	-7.9874
章	-7.99752
之比例	-7.99865
度分	-8.00055
田	-8.00223
易	-8.00281
節	-8.00312
濶	-8.00533
載	-8.00634
錢	-8.00829
宜	-8.01056
十四	-8.01096
十三	-8.0123
甲角	-8.01419
宿	-8.01563
第二	-8.0184
南北	-8.01908
術	-8.02088
深	-8.02113
紀	-8.02144
乙丁	-8.02248
米	-8.02774
月食	-8.0335
十八	-8.03384
常	-8.03408
戊己	-8.03676
%	-8.0381
丁戊	-8.0384
加減	-8.03997
日躔	-8.04079
不同	-8.04457
木	-8.04582
圜	-8.05134
小餘	-8.05638
以上	-8.0584
根	-8.05943
陽	-8.05977
盖	-8.06087
相等	-8.06417
次商	-8.06546
一日	-8.06952
食甚	-8.06956
則以	-8.07148
使	-8.07169
毎	-8.07192
宮	-8.07881
查	-8.08002
足	-8.0815
夏至	-8.0849
彼	-8.08981
癸	-8.09166
直線	-8.09379
為實	-8.09382
五星	-8.09552
命	-8.09738
九十	-8.10034
丙角	-8.10122
異	-8.10174
移	-8.10219
目	-8.10518
八分	-8.10954
題	-8.11087
乘之得	-8.11384
九十度	-8.11521
第三	-8.11679
猶	-8.11931
為一	-8.12394
句股	-8.1245
申	-8.12773
經度	-8.12874
詳	-8.12906
益	-8.13039
復圓	-8.13206
卯	-8.13286
間	-8.13409
故以	-8.13432
八十	-8.13531
卽	-8.13739
蓋	-8.13751
相減	-8.14256
横	-8.14268
首	-8.14491
最髙	-8.14959
指	-8.15031
以減	-8.1504
稱	-8.15133
即為	-8.15234
斗	-8.15241
分母	-8.15388
二十七	-8.15468
儀	-8.15565
説	-8.15713
七分	-8.15824
母	-8.15922
盈	-8.15926
規	-8.16088
律	-8.16125
九分	-8.16422
借	-8.16584
據	-8.16603
土	-8.16792
計	-8.16931
假如	-8.17156
平方	-8.17388
黄	-8.17852
量	-8.17939
冪	-8.18031
影	-8.18123
十二月	-8.18236
二百	-8.18485
就	-8.18651
不及	-8.18988
酉	-8.19124
照	-8.196
甚	-8.19761
夜	-8.19875
直角	-8.19923
初商	-8.20014
平分	-8.20402
元年	-8.20648
幾何	-8.21061
國	-8.21189
求得	-8.21258
緯度	-8.21628
緯	-8.21832
存	-8.22186
官	-8.22424
二十一	-8.22793
相加得	-8.22911
所以	-8.23006
之正弦	-8.23057
反	-8.23114
相乘	-8.23142
隨	-8.23413
考	-8.23582
○○	-8.23822
除之	-8.24585
恒	-8.24591
漸	-8.24693
前後	-8.24709
矢	-8.24719
也又	-8.24733
乾	-8.25172
斤	-8.25189
自乘	-8.25259
相乗	-8.25266
乗之得	-8.25601
㣲	-8.25625
均	-8.25912
空	-8.26141
亥	-8.26238
傳	-8.26297
半周	-8.26369
象限	-8.26472
史	-8.26964
退	-8.2698
工	-8.2699
是為	-8.27046
垂線	-8.27903
改	-8.27946
安	-8.27955
上下	-8.28263
丁丙	-8.28389
山	-8.28724
正交	-8.28887
地平	-8.28973
三百	-8.29048
正月	-8.29499
可以	-8.29554
動	-8.29569
恒星	-8.29605
為法	-8.30073
二十八	-8.30164
之較	-8.30519
若干	-8.3053
四率	-8.30686
一千	-8.31073
負	-8.31558
例	-8.31586
第四	-8.31845
春分	-8.31926
東西	-8.32197
火星	-8.32201
次以	-8.32586
漢	-8.3283
實行	-8.32989
所謂	-8.33058
容	-8.3316
乘之	-8.33382
卷	-8.33637
故曰	-8.33766
主	-8.34224
十月	-8.34416
不知	-8.3471
㑹	-8.3475
别	-8.34871
公	-8.35047
三角	-8.35072
本篇	-8.3569
丁乙	-8.36242
不可	-8.3645
為三率求得四率	-8.36568
隅	-8.36646
不盡	-8.3699
大小	-8.37096
進	-8.37131
二十二	-8.37241
折半	-8.37442
隂	-8.3758
縱	-8.37892
衰	-8.37984
丈	-8.3814
之一	-8.38817
遲	-8.39002
之中	-8.39048
引	-8.39069
屬	-8.39302
輪	-8.39417
衡	-8.39488
宗	-8.3962
也若	-8.3977
類	-8.39905
齊	-8.39967
三率	-8.40381
運	-8.40537
難	-8.40748
節氣	-8.40995
不等	-8.41087
馬	-8.4133
畝	-8.41534
分為	-8.41654
三十二	-8.41667
閏	-8.41742
丁角	-8.41857
十分	-8.42042
九月	-8.42183
幾	-8.4225
造	-8.4243
夘	-8.42977
自乗	-8.42978
金星	-8.43129
▁BR	-8.43455
遂	-8.43676
三十度	-8.43689
條	-8.43943
十七	-8.44496
距度	-8.4461
終	-8.44785
最	-8.44796
二率	-8.44835
貫	-8.4493
由	-8.45111
著	-8.45256
五度	-8.45372
一卷	-8.45379
面積	-8.45485
千	-8.45627
平面	-8.45668
矩	-8.45709
今有	-8.46088
三百六十	-8.46863
乙甲	-8.46989
折半得	-8.47105
木星	-8.47177
甲乙丙	-8.47518
誤	-8.47551
解	-8.4767
色	-8.47825
勾股	-8.47898
周天	-8.47909
北極	-8.48061
交食	-8.48105
交角	-8.48258
左右	-8.48376
八尺	-8.48523
四百	-8.48667
似	-8.48819
附	-8.49037
一尺	-8.49355
丙乙	-8.49544
之半	-8.49584
舊	-8.49935
日行	-8.50053
者以	-8.50105
有竒	-8.50152
三月	-8.50183
二月	-8.50255
字	-8.50335
不用	-8.50413
切線	-8.50503
精	-8.5058
减	-8.5092
相加	-8.51004
球	-8.51073
乙戊	-8.51102
真	-8.51184
論曰	-8.51201
全徑	-8.51248
氏	-8.51351
第	-8.51486
二十六	-8.51631
五月	-8.51925
大于	-8.5193
大於	-8.52019
壬子	-8.52027
城	-8.52194
一率	-8.52201
二度	-8.52295
到	-8.52334
具	-8.52388
十九	-8.52436
六尺	-8.52663
短	-8.52723
意	-8.52784
二十三	-8.52815
段	-8.53041
應閏	-8.53061
張	-8.53389
視差	-8.53708
三十五	-8.53784
小輪	-8.53978
内減去	-8.54174
倍之得	-8.54181
均數	-8.54204
器	-8.54239
戊乙	-8.54442
丙戊	-8.54528
斛	-8.54644
分數	-8.54645
己庚	-8.54726
皆以	-8.54733
聲	-8.55001
一百八十	-8.55101
六月	-8.55102
不足	-8.55217
七月	-8.55326
為實以	-8.55423
其法	-8.55528
庚辛	-8.55587
須	-8.55646
六十四	-8.55651
帝	-8.55785
世	-8.55828
七十	-8.55905
相乘得	-8.56158
丙甲	-8.56226
戌	-8.56233
甲己	-8.56393
環	-8.56476
其餘	-8.56707
四十八	-8.56855
筭	-8.56972
牛	-8.56982
甲庚	-8.57026
戊丁	-8.57047
也其	-8.57077
之間	-8.57202
視行	-8.57286
折	-8.57334
兩角	-8.57391
一十二	-8.57427
偏	-8.57987
歸	-8.58143
全數	-8.58262
之理	-8.58357
□□□	-8.58626
係	-8.5874
粟	-8.58797
四十五	-8.58941
又有	-8.58942
丙子	-8.59095
四十九	-8.59128
八月	-8.5924
相較	-8.59562
法曰	-8.59804
家	-8.59836
七十二	-8.60305
圈	-8.60418
其數	-8.60638
白道	-8.60676
土星	-8.60872
所測	-8.60911
相對	-8.61041
補	-8.61063
布	-8.61197
二尺	-8.61364
參	-8.61749
黃道	-8.61757
候	-8.61961
一百二十	-8.62009
減去	-8.6203
水星	-8.62082
尖	-8.62538
竒	-8.62655
井	-8.62681
六十度	-8.62681
畢	-8.62726
夏	-8.62873
得一	-8.62938
授時	-8.63567
會	-8.63696
之積	-8.64038
義	-8.64134
最高	-8.64413
只	-8.64541
時差	-8.64578
損	-8.64622
他	-8.64635
有餘	-8.64818
驗	-8.65348
發	-8.65464
順	-8.65583
房	-8.65615
之比	-8.65666
本天	-8.65686
稍	-8.65768
女	-8.65837
式	-8.65871
相當	-8.65987
員	-8.66145
畫	-8.66667
忽	-8.66968
共得	-8.67054
一十六	-8.67054
六度	-8.67179
之分	-8.67272
宋	-8.67435
秋分	-8.67562
圓徑	-8.67837
四寸	-8.67864
新法	-8.67924
學	-8.67984
兩數	-8.67996
絲	-8.68187
尾	-8.68314
準	-8.68705
為股	-8.6902
兩線	-8.6907
篇	-8.69106
晝	-8.69169
一邊	-8.69422
獨	-8.69442
之差	-8.69608
號	-8.69919
悉	-8.70006
為弦	-8.70544
亦等	-8.7055
固	-8.70568
増	-8.7059
新	-8.70591
八十一	-8.70805
則其	-8.70916
樂	-8.70939
户	-8.71358
五十六	-8.71619
冬	-8.71655
各有	-8.72107
是也	-8.72175
壬癸	-8.72176
将	-8.72213
歳	-8.72329
右行	-8.72342
而以	-8.72353
一十一	-8.72377
車	-8.7242
四月	-8.72463
幂	-8.72683
銅	-8.73185
寄	-8.73264
頭	-8.73309
細	-8.73353
任	-8.73425
丁己	-8.7345
二寸	-8.73536
而不	-8.73555
觀	-8.73656
引數	-8.73798
四尺	-8.74068
東行	-8.74228
每邊	-8.74334
便	-8.74366
二十九	-8.74378
疾	-8.74399
也故	-8.74405
帶	-8.74633
五百	-8.74691
四十五度	-8.74746
來	-8.74888
如前	-8.74937
分之	-8.74952
一寸	-8.75003
遇	-8.75118
神	-8.75154
七政	-8.75159
而得	-8.75623
策	-8.75646
升	-8.75835
中積	-8.75925
亦同	-8.75975
倍之	-8.76009
端	-8.76035
一萬	-8.76236
逺近	-8.76422
四十二	-8.76443
也以	-8.76605
三年	-8.76912
以為	-8.77364
五尺	-8.77495
要	-8.78161
籌	-8.78166
門	-8.78247
三十三	-8.78272
鈍角	-8.7831
建	-8.78358
厚	-8.78559
三十七	-8.78615
陳	-8.78795
之下	-8.78889
小分	-8.78925
受	-8.78985
戊丙	-8.79039
凖	-8.79142
四度	-8.79218
午正	-8.79274
解曰	-8.79294
三度	-8.79494
三尺	-8.79577
東西差	-8.79716
不見	-8.8001
變為	-8.80113
如圖	-8.80176
正方	-8.80492
故也	-8.80535
第五	-8.80719
之上	-8.80911
己丁	-8.80911
數也	-8.81043
暦	-8.81391
某	-8.81406
疑	-8.81576
求其	-8.8158
該	-8.81831
十度	-8.82012
六百	-8.82014
顯	-8.82061
乙己	-8.82127
乙丑	-8.82394
先以	-8.82487
留	-8.82547
靣	-8.82748
亢	-8.82775
自行	-8.83127
哉	-8.83229
次輪	-8.83259
化	-8.83279
分秒	-8.83375
七度	-8.83409
言之	-8.83448
二年	-8.83733
氐	-8.83755
出入	-8.83911
甲寅	-8.84126
即以	-8.8416
省	-8.84338
五十四	-8.84412
數以	-8.84754
尚	-8.84838
最卑	-8.84977
愈	-8.85168
億	-8.85526
失	-8.85566
晝夜	-8.85606
求之	-8.8567
種	-8.85707
弱	-8.85719
相乗得	-8.85751
以後	-8.85771
天頂	-8.85918
然後	-8.85953
之行	-8.85985
内容	-8.86029
風	-8.862
為正	-8.86252
用法	-8.86331
力	-8.86396
○○○○○○○○	-8.86548
為底	-8.86751
唐	-8.86843
也如	-8.86914
晦	-8.86992
丁巳	-8.87213
本輪	-8.87469
二百四十	-8.87672
一十五	-8.8783
戊子	-8.87842
河	-8.87846
盈縮	-8.87847
修	-8.88033
丙己	-8.88075
測得	-8.88202
亷	-8.88254
舉	-8.88335
一十三	-8.88366
自之得	-8.88564
備	-8.88575
也今	-8.88649
中心	-8.88689
之實	-8.88751
羅	-8.88774
長方	-8.88906
方形	-8.88917
開方得	-8.88926
白	-8.89412
之外	-8.89451
遠	-8.89649
餘實	-8.89818
己戊	-8.89948
戊寅	-8.89972
以乘	-8.90212
亦有	-8.90298
是以	-8.90317
甲乙丙丁	-8.9039
議	-8.90469
子午	-8.9056
行度	-8.90598
雲	-8.90973
首位	-8.91041
丁甲	-8.91135
今以	-8.91164
八度	-8.91259
也然	-8.91272
六寸	-8.91285
察	-8.91303
相併	-8.91365
三寸	-8.91371
庚子	-8.91707
用時	-8.91763
以下	-8.91839
兵	-8.92042
两	-8.92087
厯法	-8.92232
一十四	-8.92233
癸丑	-8.92246
九尺	-8.92431
之假數	-8.92518
四年	-8.92535
虛	-8.92648
加入	-8.92717
不得	-8.92718
三十四	-8.93041
所作	-8.93098
地心	-8.93237
亦得	-8.93387
代	-8.93435
方邊	-8.9353
司	-8.93616
半之	-8.93633
減之	-8.9367
日之	-8.93687
三十八	-8.93764
戊角	-8.9381
開方	-8.93854
取其	-8.93897
簡	-8.94074
箕	-8.94129
八百	-8.94273
之比同於	-8.9431
戊庚	-8.94413
旁	-8.9466
之所	-8.94677
畧	-8.94783
釐	-8.94981
互	-8.95064
管	-8.95103
句股形	-8.95205
九十六	-8.95219
三十一	-8.95294
試	-8.9531
朔日食	-8.95332
宻	-8.9557
之弧	-8.95638
辛巳	-8.95721
原數	-8.95816
甲辛	-8.95908
方積	-8.96005
春秋	-8.9601
而一得	-8.96045
髙弧	-8.96049
月離	-8.96271
推算	-8.96273
人目	-8.96418
至於	-8.96476
記	-8.96514
初度	-8.96521
乙巳	-8.96593
之處	-8.96646
為法除之得	-8.9665
之時	-8.96669
戊甲	-8.96677
辛壬	-8.96772
一百六十	-8.96914
三日	-8.96925
形之	-8.96929
二日	-8.96991
制	-8.97033
壬寅	-8.97162
海	-8.97238
以此	-8.97253
兩邊	-8.97263
減餘	-8.97267
乙庚	-8.97291
一丈	-8.97443
小于	-8.97512
二五	-8.97797
正方形	-8.97799
一十八	-8.97874
亦即	-8.9814
丙庚	-8.98146
左行	-8.98252
隔	-8.98352
室	-8.98439
等則	-8.98554
庚辰	-8.98564
月體	-8.98616
自乘得	-8.98657
點	-8.98695
志	-8.98843
每日	-8.98918
亦為	-8.99235
距緯	-8.99293
距地	-8.99417
絹	-8.99534
其所	-8.99644
互乗	-8.99717
一十七	-8.99743
危	-8.99745
丁丑	-8.99759
匹	-8.99889
而後	-9.00024
强	-9.00057
丙辛	-9.00096
自乗得	-9.00126
人數	-9.00191
四十四	-9.00252
月行	-9.00326
両	-9.00434
乗之	-9.008
遲疾	-9.00948
甲辰	-9.01083
單	-9.01175
起算	-9.01409
曲	-9.01471
徳	-9.01531
圍	-9.01534
甲申	-9.01705
十五度	-9.01791
一人	-9.01908
廉	-9.01925
歴	-9.0194
五千	-9.021
己丙	-9.0218
己辛	-9.02254
者也	-9.0231
部	-9.0231
上方	-9.02352
而成	-9.02456
丙寅	-9.02465
積度	-9.02591
層	-9.02641
之餘	-9.02647
疋	-9.02665
北極出地	-9.02767
本年	-9.02776
内外	-9.02787
麥	-9.0285
爻	-9.02853
耶	-9.02896
乙辛	-9.02918
亦可	-9.02958
音	-9.03381
丁辛	-9.03592
子丑	-9.03619
其理	-9.03633
星在	-9.03667
作一	-9.0375
五年	-9.04042
春	-9.04201
軸	-9.04317
樹	-9.04404
四分之一	-9.0446
五十五	-9.0453
晷	-9.04574
小於	-9.04658
最大	-9.0467
者為	-9.04741
外角	-9.04902
格	-9.05024
三商	-9.05325
再以	-9.05388
支	-9.0543
相似	-9.05448
六宫	-9.05511
相同	-9.05587
癸巳	-9.05665
一百五十	-9.05704
大圏	-9.05737
三十九	-9.05849
兼	-9.05877
經緯	-9.05915
若以	-9.05915
己亥	-9.0619
同度	-9.0631
者皆	-9.06329
▁(	-9.06377
庚午	-9.06449
第六	-9.06499
與乙	-9.06695
八十八	-9.06777
偕	-9.06795
伏	-9.06816
庚己	-9.07112
方程	-9.07117
給	-9.07232
為直角	-9.07339
之餘弦	-9.07357
致	-9.07414
船	-9.07502
戊午	-9.07514
之後	-9.07529
既得	-9.07549
覆	-9.07552
壬申	-9.07743
縮	-9.07772
何以	-9.07797
十五分	-9.08025
本日	-9.08039
並同	-9.08059
不合	-9.0808
者則	-9.08082
增	-9.08151
宫度	-9.08216
頂	-9.08276
斜行	-9.08401
庚戊	-9.08414
辛丑	-9.08428
割線	-9.08435
之心	-9.08539
池	-9.08688
半之得	-9.08822
總數	-9.08856
一㸃	-9.08878
相去	-9.08891
日光	-9.08896
師	-9.08932
己未	-9.09061
逆	-9.09261
七十五	-9.09437
州	-9.09437
也葢	-9.09471
庚乙	-9.09565
所用	-9.09659
斯	-9.0966
密	-9.09669
聞	-9.09683
二線	-9.10058
為勾	-9.10324
之面積	-9.10431
辨	-9.10448
卦	-9.10459
五寸	-9.10485
注	-9.10531
連	-9.10613
納	-9.10806
幾何法以	-9.10928
以定	-9.10975
名曰	-9.11011
一時	-9.11041
丁庚	-9.11074
舊法	-9.11091
乙酉	-9.11195
衆	-9.11215
戸	-9.11331
合朔	-9.11517
一周	-9.11532
身	-9.11674
其一	-9.11809
二四	-9.11849
渾圓	-9.11986
己丑	-9.12019
天地	-9.12127
加時	-9.12211
旋	-9.12321
之説	-9.12359
所推	-9.1243
a	-9.12472
較數	-9.12487
略	-9.12503
推之	-9.12508
帶食	-9.12547
毫	-9.12554
如此	-9.12583
庚壬	-9.12647
庚丁	-9.12739
孔	-9.1285
割	-9.12961
丁亥	-9.13096
宿度	-9.13112
也設如	-9.13133
b	-9.13274
天之	-9.13338
殊	-9.13345
大差	-9.13362
赤	-9.13527
兩極	-9.13536
日出	-9.13565
晨	-9.13592
可見	-9.13606
治	-9.13649
八十四	-9.13689
甲午	-9.1372
太白	-9.13755
所求	-9.13787
乙未	-9.14078
不過	-9.14102
古法	-9.14266
中星	-9.14278
如法	-9.1442
之内	-9.14496
三邊	-9.14536
甲壬	-9.14721
兩形	-9.14797
三分之一	-9.14876
用之	-9.15013
叚	-9.1505
勾股形	-9.15094
說	-9.15225
八寸	-9.15353
四十三	-9.15366
即是	-9.15506
序	-9.15765
利	-9.15778
丙戌	-9.15828
五十七	-9.15979
術曰	-9.16038
庚寅	-9.16077
特	-9.16245
為二	-9.16324
占	-9.16325
余	-9.1647
果	-9.16501
七百	-9.16512
承	-9.16519
一二	-9.16624
又置	-9.16716
聖	-9.16723
四十六	-9.16885
還	-9.16932
癸未	-9.16955
甲戌	-9.17027
戊申	-9.17115
二星	-9.17322
善	-9.17392
一一	-9.17498
乙亥	-9.17502
朝	-9.17531
為三率	-9.17536
大餘	-9.17576
厯家	-9.17703
南北差	-9.17739
一十九	-9.17774
日在	-9.1787
食分	-9.1799
眞數	-9.18095
度數	-9.18096
測驗	-9.18114
而其	-9.18126
二至	-9.18145
柱	-9.18232
南極	-9.18308
却	-9.18342
同名	-9.18384
測之	-9.18445
距日	-9.18497
坤	-9.18501
然則	-9.18619
五十九	-9.18666
五十八	-9.18751
形有	-9.18751
昏	-9.1889
辛酉	-9.18898
盤	-9.1892
功	-9.18944
左旋	-9.18969
三星	-9.18974
之比例若	-9.19015
合伏	-9.19262
子正	-9.19412
為大	-9.19425
而已	-9.19449
戊辰	-9.19471
辛未	-9.19605
股弦較	-9.19692
己巳	-9.19706
久	-9.19727
壬午	-9.19837
軍	-9.19888
以前	-9.19912
而一	-9.19929
地半徑差	-9.20029
七十六	-9.20041
庚申	-9.20062
等而	-9.20146
此法	-9.20218
十二分	-9.20223
丙午	-9.20269
僅	-9.20298
夜半	-9.20321
四十七	-9.20327
三四	-9.20346
圜界	-9.2038
所分	-9.20488
四百八十	-9.2049
長方形	-9.20602
第七	-9.20641
子午圏	-9.20689
壬辰	-9.20737
四時	-9.20892
如是	-9.20902
南行	-9.21079
辛亥	-9.21107
日數	-9.21139
則為	-9.21163
先得	-9.21219
纎	-9.21315
得其	-9.21324
相比	-9.21595
語	-9.216
豈	-9.21607
方根	-9.2177
分子	-9.21787
己酉	-9.21817
期	-9.21872
加一	-9.21925
癸亥	-9.21973
赤道經度	-9.21994
地球	-9.22127
高弧	-9.22185
以求	-9.22221
之數也	-9.22336
泛	-9.2237
定朔	-9.22475
與甲	-9.22516
股弦和	-9.22542
晉	-9.2259
九百	-9.22676
二百七十	-9.22792
又如	-9.22803
降	-9.22817
嵗差	-9.2282
九度	-9.22831
方面	-9.22884
其中	-9.22891
一星	-9.22898
印度	-9.23016
九寸	-9.23052
通弦	-9.23064
春秋分	-9.23096
小差	-9.23437
臺	-9.23442
五日	-9.2349
之髙	-9.23616
五十二	-9.23697
一段	-9.23859
清	-9.23894
之類	-9.2392
所餘	-9.24018
速	-9.24026
辛庚	-9.24035
雨	-9.24059
六十三	-9.24131
製	-9.24144
術曰置	-9.24221
朒	-9.2429
兩心差	-9.24293
庚丙	-9.24409
得二	-9.24418
永	-9.24536
丁酉	-9.24563
奏	-9.24601
七日	-9.24815
掩	-9.2485
羃	-9.24893
日入	-9.25021
另	-9.25044
各得	-9.25048
七尺	-9.25097
六十六	-9.25357
見食	-9.25378
二十度	-9.25391
甲乙邊	-9.25401
丙辰	-9.25434
己角	-9.25662
己乙	-9.25722
損益	-9.25814
髙度	-9.25871
甲乙線	-9.25873
尤	-9.25888
其積	-9.25899
天正冬至	-9.25994
相交	-9.26083
渾儀	-9.26094
盛	-9.26116
銀數	-9.26177
躔	-9.26228
知其	-9.26351
平差	-9.26372
太陽平行	-9.26426
吾	-9.26473
全分	-9.26648
餘為	-9.26651
也夫	-9.26754
古今	-9.26859
累	-9.26928
五六	-9.2698
中率	-9.27117
旦	-9.27232
鋭	-9.27234
爾	-9.2731
丁壬	-9.27423
腰	-9.27424
三十分	-9.2743
各以	-9.27452
以乗	-9.27485
皆為	-9.27611
為黄道	-9.277
弧之正弦	-9.27751
為心	-9.27786
亦然	-9.27811
二角	-9.27822
癸酉	-9.27832
十二時	-9.27874
也此	-9.27909
與甲乙	-9.2793
四十一	-9.28002
外周	-9.28017
魏	-9.28037
五十度	-9.2805
距交	-9.28122
月之	-9.28176
陰	-9.2823
旣	-9.28236
六十分	-9.28246
丁未	-9.28274
四十度	-9.28374
請	-9.28376
一秒	-9.2844
往	-9.28494
壬戌	-9.28559
命為	-9.28897
必等	-9.29118
壁	-9.293
秋	-9.29419
逐	-9.29431
六年	-9.29499
以加	-9.29531
也凡	-9.2971
謬	-9.29736
震	-9.29748
十尺	-9.2977
者即	-9.29778
之角	-9.29885
交周	-9.3007
正方體	-9.30078
相減得	-9.30108
五十一	-9.30153
十二尺	-9.30256
證	-9.30277
之長	-9.30349
疏	-9.30368
路	-9.30447
武	-9.30574
相差	-9.30627
天下	-9.30633
推得	-9.30652
而無	-9.30702
識	-9.30826
偶	-9.31011
線上	-9.31013
一刻	-9.31081
適	-9.31128
七年	-9.31211
都	-9.31455
辛乙	-9.31494
三角形之	-9.31576
丙申	-9.31598
勾弦較	-9.31619
樞	-9.31708
二百八十	-9.32004
徵	-9.32065
民	-9.32085
先求	-9.3209
攷	-9.3225
窮	-9.32267
昴	-9.32597
西洋	-9.32677
庚戌	-9.32688
癸子	-9.32699
政	-9.3286
三之一	-9.32873
綫	-9.32885
十五日	-9.33159
或以	-9.33205
二十九日	-9.33453
即如	-9.33521
窺	-9.33575
統	-9.33588
八分内三十一秒冬至	-9.33636
黄鐘	-9.33705
之體	-9.33712
為比例	-9.33767
最逺	-9.33796
者其	-9.33889
信	-9.33905
大分	-9.33911
質	-9.34091
相應	-9.34103
報	-9.34126
去之	-9.34144
閏月	-9.34419
流	-9.34562
縁	-9.34583
士	-9.34702
一年	-9.34793
與甲丙	-9.3483
算得	-9.34834
所見	-9.3491
九六	-9.34966
蔀	-9.35018
秦	-9.35044
艮	-9.35071
己壬	-9.35076
息	-9.35082
於是	-9.35089
古人	-9.35242
互乘	-9.35321
四日	-9.35499
食既	-9.3554
不必	-9.35616
一分内一秒冬至	-9.35625
西法	-9.35676
地面	-9.35908
五十三	-9.35983
註	-9.36044
所在	-9.36077
復以	-9.36105
兩腰	-9.36111
三千	-9.36201
可得	-9.36215
則有	-9.36331
何也	-9.36351
思	-9.3637
庚甲	-9.36376
二丈	-9.36409
天元	-9.36429
所設	-9.3654
○○○	-9.36562
赤道度	-9.36618
興	-9.36637
厯元	-9.36642
衰數	-9.36688
授時厯	-9.36805
則用	-9.36895
天正	-9.36934
依法	-9.37029
勾股較	-9.37083
闕	-9.37109
辛夘	-9.37241
於此	-9.3727
可知	-9.37366
四千	-9.37432
和數	-9.37547
之地	-9.3756
内有	-9.37669
乙丙邊	-9.37701
循	-9.37795
第八	-9.37813
禮	-9.37839
縣	-9.37887
五五	-9.37918
太陽在	-9.37961
黄道度	-9.37985
確	-9.38102
地半徑	-9.38424
天體	-9.38516
羊	-9.38648
袤	-9.38661
一象限	-9.38695
藏	-9.38712
其度	-9.38785
一面	-9.3884
戊戌	-9.38866
食限	-9.38987
一千二百	-9.39019
莫	-9.39031
亦必	-9.39033
黄平象限	-9.39071
之比即同於	-9.39156
則此	-9.39177
雜	-9.39189
䇿	-9.3921
鏡	-9.39221
儀器	-9.39262
審	-9.39405
二三	-9.39563
口	-9.39576
亦以	-9.39673
中交	-9.39736
典	-9.39882
六六	-9.39937
此時	-9.39938
月在	-9.39998
兩行	-9.40104
相合	-9.40114
一步	-9.40135
庚角	-9.40196
與乙丙	-9.40249
之界	-9.40262
一百四十	-9.40267
卒	-9.40297
之半徑	-9.40414
尺為	-9.40424
題言	-9.40507
五七	-9.40532
三人	-9.4061
大距	-9.40624
一位	-9.40675
奎	-9.40723
尋	-9.40757
有二	-9.40888
除實	-9.40935
渾	-9.41087
看	-9.41267
三百二十	-9.41387
者乃	-9.41399
九五	-9.41442
進退	-9.41499
勝	-9.41503
朔望	-9.41514
七曜	-9.41515
視緯	-9.41569
多於	-9.41577
右旋	-9.41588
徴	-9.41639
最近	-9.41685
距弧	-9.41732
收	-9.41733
德	-9.41828
因之	-9.41995
兩弧	-9.4201
當時	-9.42011
得四	-9.42066
用數	-9.42072
故其	-9.42216
鐵	-9.42267
二千	-9.4228
角形	-9.4229
二人	-9.42301
測量	-9.42386
晦日食	-9.42402
線與	-9.42519
大統	-9.42533
騐	-9.42614
勾弦和	-9.42642
三十日	-9.42752
因之得	-9.42822
曉	-9.43279
缺	-9.43367
差分	-9.43389
二十三度	-9.43443
中垂線	-9.43603
大衍	-9.43722
之比也	-9.43739
案	-9.43743
甲丙邊	-9.4388
我	-9.43892
直角形	-9.43892
七八	-9.43911
手	-9.43976
黒	-9.43993
立法	-9.43998
四星	-9.44176
全周	-9.44186
仰	-9.44231
加分	-9.44287
六日	-9.44321
減之餘	-9.44377
乙數	-9.44395
分步之	-9.44401
龍	-9.44416
角度	-9.44434
得六	-9.44448
設時	-9.44471
曜	-9.44482
等即	-9.44513
對角線	-9.44725
亦不	-9.44821
約之	-9.44829
隻	-9.44956
三五	-9.44976
皆同	-9.45098
二十四度	-9.4514
其實	-9.45195
單位	-9.45213
萬七千	-9.45289
開平方得	-9.45294
真時	-9.45296
嵗實	-9.45318
立成	-9.45352
八六	-9.45386
其正弦	-9.45391
三百五十	-9.45398
七五	-9.45445
不食	-9.45473
一曰	-9.45565
又為	-9.45604
再加	-9.4567
繩	-9.45701
矣故	-9.4582
者必	-9.46084
不論	-9.46105
四五	-9.46111
寛	-9.46164
勾股和	-9.46172
纖	-9.46194
際	-9.46204
方位	-9.46238
蝕	-9.46416
梁	-9.46429
三丈	-9.46526
校	-9.46699
巽	-9.46703
兮	-9.46771
一行	-9.46821
之根	-9.4687
六四	-9.46879
嵗輪	-9.47008
戊辛	-9.47017
為三率得四率	-9.47135
兆	-9.47175
皆有	-9.47226
得九	-9.47241
對弧	-9.4729
中距	-9.47403
必有	-9.47438
在天	-9.4764
之日	-9.47648
之月	-9.47701
諸星	-9.47737
婁	-9.47745
不動	-9.47783
六十八	-9.47787
圜内	-9.47906
乙壬	-9.4791
一百一十	-9.48031
六十二	-9.48094
大股	-9.48132
平方開之得	-9.48182
録	-9.48361
射	-9.48391
正角	-9.48465
二百一十	-9.48466
圓周	-9.4865
衝	-9.48707
為小	-9.4877
等數	-9.48772
臨	-9.48823
壬辛	-9.48838
蒙	-9.48897
一月	-9.4895
翼	-9.48956
也設如有	-9.49028
越	-9.49056
每人	-9.4907
通積分	-9.49112
與戊己	-9.49246
為主	-9.49262
法也	-9.49284
癸卯	-9.49325
三三	-9.4933
經朔	-9.49359
對角	-9.49394
監	-9.49472
遞	-9.49516
多寡	-9.49589
一百三十	-9.49657
三七	-9.49707
辛丁	-9.49816
得三	-9.49926
幾何答曰	-9.50023
辛丙	-9.50111
平圓	-9.50175
漏	-9.50217
大矢	-9.5025
有三	-9.50378
加差	-9.50395
零四	-9.50407
二刻	-9.50412
一角	-9.50487
體積	-9.50597
林	-9.50691
即成	-9.5072
為負	-9.50755
乙夘	-9.50781
設如	-9.50882
二百五十	-9.50902
四之一	-9.50982
立表	-9.50999
其差	-9.51055
丙壬	-9.51151
是故	-9.51392
近時	-9.51403
七十八	-9.51488
如上	-9.51506
之面	-9.51513
習	-9.51564
黍	-9.51756
體之	-9.51853
繁	-9.51901
三位	-9.52016
三倍	-9.52279
坎	-9.52337
兩位	-9.52429
首朔	-9.5243
而止	-9.52459
横線	-9.52501
命分	-9.52505
隂陽	-9.52903
立差	-9.52992
一小時	-9.53014
今推	-9.53074
青	-9.53112
一百四十四	-9.53201
四兩	-9.53267
一千六百	-9.53292
線為	-9.53302
乙卯	-9.53382
二千五百	-9.5339
可求	-9.53415
箇	-9.53506
二萬	-9.5353
亂	-9.5363
府	-9.53634
半弦	-9.53641
鋭角	-9.53713
假	-9.53714
欲知	-9.53742
互相	-9.53751
夕	-9.53838
而求	-9.53885
又法	-9.53955
撱圓	-9.54203
十萬	-9.5421
三十六度	-9.54237
各星	-9.54341
之星	-9.54347
餘分	-9.54386
第谷	-9.54423
此數	-9.54485
整	-9.54513
次日	-9.54523
君	-9.54527
其説	-9.54569
又加	-9.54581
三六	-9.54621
積年	-9.5465
之用	-9.54833
庶	-9.54871
辛角	-9.54887
適足	-9.54944
餘數	-9.55032
所差	-9.55071
㡬何	-9.55206
之形	-9.55249
已上	-9.55377
二十分	-9.55379
和較	-9.55451
甲癸	-9.55512
魯	-9.55516
卯酉	-9.55556
四八	-9.55566
圜徑	-9.55589
與前	-9.55597
函	-9.55622
之位	-9.5564
黄赤	-9.55674
黄赤道	-9.55708
由旬	-9.55717
甲丁丙	-9.55795
覺	-9.55841
成一	-9.55882
日法	-9.55939
見其	-9.56045
地景	-9.56061
勺	-9.56093
甲丑	-9.56126
設如有	-9.56173
根與	-9.56248
逆行	-9.56252
七六	-9.56396
况	-9.56444
銳角	-9.56634
積日	-9.56666
次形	-9.5667
六九	-9.56754
經緯度	-9.56775
三分之二	-9.56798
二十四尺	-9.56851
三宫	-9.56892
定位	-9.56895
整數	-9.56989
七寸	-9.57109
必在	-9.57131
仲	-9.57204
長短	-9.57222
換	-9.57223
在北	-9.57338
虧	-9.57375
草	-9.57432
數為	-9.57506
寒	-9.57558
求積	-9.57611
弧矢	-9.57682
實測	-9.57757
二十八宿	-9.57884
答曰	-9.57923
六五	-9.57924
副	-9.57924
務	-9.5795
厯書	-9.57989
七十一	-9.58
何者	-9.58186
辛卯	-9.58245
外切	-9.5826
月距日	-9.58261
高度	-9.58286
亷法	-9.58338
所當	-9.58347
嘗	-9.58349
六千	-9.58395
小方	-9.58416
相遇	-9.58456
垣	-9.58472
崇禎	-9.58483
大句	-9.58498
九章	-9.58517
檢	-9.58526
小數	-9.58536
錫	-9.58538
所載	-9.58602
丑寅	-9.58636
在南	-9.5875
伏見	-9.58751
權	-9.58875
作直線	-9.58912
六十五	-9.58958
之距	-9.59001
甲東行	-9.5901
筆	-9.5901
與丙	-9.59095
本時	-9.59115
守	-9.59211
自之	-9.59268
減一	-9.5931
九年	-9.5932
丨	-9.59343
萬九千	-9.59414
背	-9.59421
初日	-9.59458
本道	-9.59535
則是	-9.59539
地影	-9.59591
有奇	-9.59598
者亦	-9.59612
九九	-9.59633
己甲	-9.59662
萬零	-9.5979
弧為	-9.59833
頗	-9.59868
散	-9.59877
一線	-9.59913
渾天	-9.59914
一根	-9.59939
正午	-9.6
一六	-9.60026
所行	-9.60089
中國	-9.60199
九十九	-9.60211
與赤道	-9.60247
寸為	-9.60375
相併得	-9.60427
皆與	-9.60443
帶縱	-9.60443
八十七	-9.60458
架	-9.60477
十二年	-9.6055
均輪	-9.60587
直角方形	-9.60628
九八	-9.60641
周髀	-9.60646
等邊	-9.60764
本行	-9.60789
四七	-9.608
法用	-9.60805
為半徑	-9.60945
矣又	-9.61022
四刻	-9.61169
寫	-9.61172
調	-9.61225
正負	-9.61315
又曰	-9.61326
一百七十	-9.61339
零分	-9.61374
中積分	-9.61418
相等之	-9.61453
枚	-9.61508
壬甲	-9.61533
二七	-9.61569
聚	-9.6164
中有	-9.61656
芒	-9.61667
之故	-9.61688
結	-9.61699
買	-9.61808
視徑	-9.61811
集	-9.6182
恐	-9.61821
倉	-9.61854
正切	-9.61946
球體	-9.62014
立方積	-9.62029
生於	-9.62162
出於	-9.62256
戊巳	-9.62316
不然	-9.62337
戊壬	-9.6236
十八度	-9.62365
既為	-9.62373
狹	-9.62385
隱	-9.62401
竟	-9.62404
究	-9.6242
稜	-9.62469
之邊	-9.62535
閏餘	-9.62735
金水	-9.62738
十三度	-9.62783
年正月	-9.62826
列位	-9.6295
錯	-9.62958
稽	-9.63062
城徑	-9.63077
月道	-9.63084
勢	-9.63124
三卷	-9.63162
懸	-9.63162
為三率推得四率	-9.63195
黃	-9.63276
五十分	-9.63302
之限	-9.63315
相對之	-9.63356
第九	-9.63439
性	-9.63502
可知矣	-9.63529
為甲	-9.63609
加之	-9.63647
按此	-9.63653
是日	-9.63748
三因之得	-9.63789
七七	-9.63807
假如有	-9.63819
七十三	-9.63861
小句	-9.63877
通勾	-9.63919
業	-9.64019
之二	-9.64153
昭	-9.64157
底勾	-9.64182
訛	-9.64219
異名	-9.64389
譯	-9.64406
訂	-9.64428
前法	-9.64464
之正切	-9.6462
法曰置	-9.64621
銖	-9.64634
得五	-9.64689
不言	-9.64722
之價	-9.64772
兩邉	-9.64775
之率	-9.64899
一法	-9.65013
完	-9.65024
疎	-9.65033
七十九	-9.65077
五行	-9.65192
大方	-9.65343
空位	-9.65345
則成	-9.65349
七千	-9.65387
等故	-9.65475
京	-9.65566
四三	-9.65638
然而	-9.65666
酒	-9.65695
鳥	-9.65707
輪心	-9.65777
情	-9.65777
十二度	-9.65791
中氣	-9.65817
佛	-9.65825
觜	-9.65837
天文	-9.65878
熱	-9.65886
未時	-9.65918
鄭	-9.65933
甎	-9.65955
距天頂	-9.66008
八等面	-9.6606
歲正月	-9.66074
萬厯	-9.66115
倣此	-9.66136
八十六	-9.66158
鐘	-9.66234
乘除	-9.66264
祖	-9.66312
一九	-9.66333
三百六十度	-9.66364
矩度	-9.66366
日體	-9.66372
玉	-9.66461
軫	-9.66478
早	-9.66491
兹	-9.66527
乙為	-9.66546
三百六十五日	-9.66943
如左	-9.66952
至于	-9.6698
在下	-9.67034
舍	-9.67071
辛戊	-9.67136
亦與	-9.67211
千里	-9.6727
磬折形	-9.67304
東南	-9.67305
相近	-9.67401
八線	-9.67432
也盖	-9.67435
定時	-9.6746
壬丙	-9.67521
塹堵	-9.67585
矣若	-9.67696
併之	-9.67747
日出入	-9.67752
回	-9.6779
之切線	-9.67811
毎日	-9.67838
遵	-9.67859
妄	-9.67861
智	-9.67869
第十	-9.67882
之共數	-9.67909
為乙	-9.67959
分内一十一秒冬至應閏	-9.67987
六十一	-9.6809
五萬	-9.68132
十秒	-9.68136
小股	-9.68155
二步	-9.68165
四分内一秒冬至	-9.68192
法置	-9.68198
日晷	-9.68209
亦無	-9.68211
距赤道	-9.68211
寔	-9.68224
推步	-9.68262
嵗正月	-9.68278
有一	-9.68407
立春	-9.68415
數與	-9.68477
畆	-9.68525
者有	-9.68542
并之	-9.68543
姑	-9.68571
三萬	-9.68575
平分之	-9.68594
竅	-9.68613
共步	-9.6862
三因	-9.68623
太陽之	-9.68673
者謂	-9.68682
為赤道	-9.68699
了	-9.68742
圜之	-9.68756
壬乙	-9.68775
所定	-9.68839
名為	-9.68914
兩三角形	-9.68957
萬里	-9.68987
其比例	-9.6903
黄極	-9.6903
之次	-9.69076
側	-9.69134
度之	-9.69134
得一百	-9.69145
或用	-9.69161
先生	-9.6919
李	-9.69261
三九	-9.69289
丙為	-9.69297
萬二千	-9.6931
天行	-9.69336
十一分	-9.69358
兩交	-9.69386
述	-9.69424
个	-9.69458
奉	-9.69524
續	-9.69525
為句	-9.69565
距分	-9.6958
一百八十度	-9.69593
三色	-9.69604
一五	-9.69652
八千	-9.69777
返	-9.69922
徒	-9.69948
訖	-9.69952
角形之	-9.70082
年十一月	-9.7012
為兩	-9.70278
辛己	-9.70437
矩形	-9.70441
八七	-9.70528
釋	-9.70593
𤣥	-9.70603
商數	-9.7061
以來	-9.70616
所得之	-9.70646
謹	-9.70648
午時	-9.70684
者是	-9.70762
錐	-9.70769
大星	-9.70772
角等	-9.7117
為長	-9.71237
羣	-9.71286
癸夘	-9.71321
邪	-9.71322
日輪	-9.71409
八年	-9.7146
大數	-9.71467
消	-9.71475
一十五度	-9.71516
下廣	-9.7152
此兩	-9.71557
必為	-9.7162
之垂線	-9.7171
垂	-9.71766
兩直角	-9.71818
百分	-9.71855
己卯	-9.71907
三秒	-9.71933
對邊	-9.71954
暗	-9.71971
一直線	-9.71989
戊己庚辛	-9.7199
低	-9.72044
之術	-9.72065
本地	-9.72069
絶	-9.72145
圜外	-9.72193
即所求	-9.722
二千四百	-9.72213
開平方	-9.72258
距冬至	-9.72283
形内	-9.72368
親	-9.72452
乙丙丁	-9.72492
一百九十	-9.72495
依前	-9.72502
交終	-9.72506
奇	-9.72558
平朔	-9.72583
之義	-9.72657
九日	-9.72681
剖	-9.72696
眞	-9.72705
順天府	-9.72789
栁	-9.72838
七百二十	-9.72872
視之	-9.72923
六萬	-9.73037
中行	-9.7306
數得	-9.73139
強	-9.73159
初數	-9.73187
本位	-9.73226
朔實	-9.73249
二位	-9.73333
黄道經度	-9.73411
俱等	-9.7342
輕	-9.73445
羽	-9.73479
革	-9.73503
洲	-9.73505
伯	-9.73552
祀	-9.73564
米數	-9.73601
立天元一為	-9.73608
假數	-9.73675
也求	-9.73785
時分	-9.73876
次求	-9.73919
撰	-9.73979
昔	-9.74021
五卷	-9.74084
程	-9.74114
彼此	-9.74164
則得	-9.74228
伐	-9.74237
營	-9.74243
合之	-9.74269
甲乙丁	-9.74278
星紀	-9.74291
以半徑一千萬為一率	-9.74332
出地	-9.74347
明勾	-9.74353
與丙丁	-9.74392
定為	-9.74505
之倍	-9.74569
孫	-9.74669
孝	-9.74671
得二十	-9.74699
丁癸	-9.74703
所得之數	-9.74706
以爲	-9.74817
一尺二寸	-9.74823
八十九	-9.74838
升度	-9.74846
十九年	-9.7487
十一年	-9.74886
本星	-9.74897
抄	-9.74974
本法	-9.74989
杪	-9.75032
七十七	-9.75044
必與	-9.75046
於上	-9.75074
十日	-9.75078
容方	-9.75108
天度	-9.75112
鬼	-9.75126
之徑	-9.75157
上生	-9.75198
垂弧	-9.75218
即知	-9.75278
經圏	-9.75314
甲數	-9.75352
平行線	-9.75477
現	-9.75493
刻分	-9.75567
同於	-9.75647
各等	-9.75665
約為	-9.75767
穿	-9.75775
京師	-9.75784
紬	-9.75872
原實	-9.75895
術曰以	-9.75904
半徑為	-9.75924
正中	-9.7613
故用	-9.76164
○○○○○	-9.76203
面之	-9.7622
否	-9.76363
至戊	-9.76375
二卷	-9.76405
座	-9.76449
徃	-9.76501
咸	-9.76514
實㑹	-9.76616
圗	-9.76637
壬庚	-9.76682
九百四十	-9.76708
豪	-9.76734
升降	-9.76739
根少	-9.76766
方之	-9.76819
之大	-9.76843
中分	-9.76884
卑	-9.76906
甲南行	-9.76927
原有	-9.77007
又自	-9.77177
三次	-9.77234
甲丙丁	-9.77248
綾	-9.77256
辛癸	-9.77263
弦較和	-9.77298
因其	-9.77324
皆可	-9.77368
正對	-9.77412
氣差	-9.77453
測騐	-9.77464
朱	-9.77514
上廣	-9.77526
之逺	-9.77527
之大小	-9.77529
度三十分	-9.77533
所容	-9.77737
列之	-9.77738
之底	-9.77802
進位	-9.7787
月天	-9.77924
兩弦	-9.77977
品	-9.77983
二八	-9.78071
尊	-9.78071
不滿	-9.78083
之平行	-9.78087
奉聖㫖	-9.78098
之㸃	-9.7812
加減之	-9.78137
與丁	-9.78211
弧三角	-9.78224
▁分	-9.78248
四百五十	-9.78274
順行	-9.78301
立算	-9.7831
得一十	-9.78314
次作	-9.78354
九千	-9.78402
八秒	-9.78426
算法	-9.78548
隠	-9.78597
同式	-9.78625
三百三十	-9.78627
氏曰	-9.78634
相切	-9.78721
某星	-9.78778
之線	-9.78876
癸壬	-9.78949
傍	-9.78968
值	-9.79006
本銀	-9.7907
零八	-9.79099
二六	-9.7922
先後	-9.79324
癸角	-9.79383
共價	-9.79405
四九	-9.79416
六十七	-9.79424
日度	-9.79447
可推	-9.79486
則加	-9.79493
唯	-9.79549
二十尺	-9.79561
科	-9.79564
未有	-9.79573
生光	-9.79598
施	-9.79609
直行	-9.79651
五秒	-9.79674
減盡	-9.79758
次均	-9.79804
子癸	-9.79864
三等	-9.79885
卯辰	-9.79909
欽定四庫全書	-9.80034
之景	-9.80038
丁戊己	-9.80241
丙癸	-9.80314
算之	-9.8032
其下	-9.80322
相反	-9.80356
一數	-9.80406
創	-9.80674
丑角	-9.80691
其行	-9.80728
也而	-9.80787
首率	-9.80803
取之	-9.80917
置閏	-9.80983
倒	-9.80987
去極	-9.81023
地之	-9.81144
竹	-9.81195
聖人	-9.81227
赤經	-9.81243
二百三十	-9.81262
句弦和	-9.8131
上位	-9.81417
甲丁乙	-9.81467
六十九	-9.81468
十字	-9.81487
西厯	-9.81576
西北	-9.81613
斜線	-9.81635
地中	-9.8165
厥	-9.81694
亦若	-9.81713
所對之	-9.81716
正當	-9.81724
日差	-9.81737
盈厯	-9.81738
局	-9.81803
圓形	-9.8181
西南	-9.81823
之極	-9.81859
二百六十	-9.81876
職	-9.81959
板	-9.81965
髙卑	-9.82043
不齊	-9.82073
八兩	-9.82158
積數	-9.82213
圜形	-9.82257
八日	-9.82287
五三	-9.82302
里數	-9.82339
圎	-9.82506
自然	-9.82534
每一	-9.82542
距時	-9.8256
十三年	-9.82577
定差	-9.82592
諸數	-9.82619
乙子	-9.82665
人所	-9.82674
遷	-9.82696
豆	-9.82699
中間	-9.82751
亦如	-9.8278
在上	-9.82832
所指	-9.82945
不變	-9.83007
竿	-9.83014
九十七	-9.83045
巧	-9.83047
多少	-9.83117
一平方	-9.83131
即所求之	-9.83189
為從方	-9.83207
其間	-9.83245
列宿	-9.83311
大弦	-9.83318
至此十一閏又一紀	-9.83355
較弧	-9.83408
曰天	-9.83436
黄緯	-9.83482
方法	-9.8356
共積	-9.83602
五八	-9.83661
依此	-9.83695
四萬	-9.83703
徑線	-9.8371
四六	-9.83919
准	-9.83948
乗除	-9.83948
○○○○	-9.83955
四人	-9.83962
法推	-9.84051
此二	-9.84066
零九	-9.84221
淺	-9.84262
邊股	-9.84288
日分	-9.84304
為次商	-9.8433
與丁戊	-9.84335
十六尺	-9.84389
晨昏	-9.84488
定率	-9.84499
半之為	-9.84603
股弦	-9.84704
化為	-9.84949
圭	-9.84951
約之得	-9.84953
魄	-9.85035
零五	-9.85054
十六度	-9.85077
稻	-9.85086
凌犯	-9.85129
亡	-9.85158
一石	-9.85187
衍	-9.85197
胃	-9.85252
日中	-9.85308
甲乙為	-9.85312
甲為	-9.85314
曲線	-9.85355
以較	-9.85376
距地平	-9.85404
己夘	-9.85478
所減	-9.85649
之象	-9.85666
二十七日	-9.85686
三兩	-9.85742
十七年	-9.85757
此以	-9.85765
乗方	-9.85766
珠	-9.85773
一十二分	-9.85828
臣等	-9.85859
一十四日	-9.85865
弧度	-9.85909
併之得	-9.85924
壬丁	-9.85953
六秒	-9.85971
專	-9.85986
包	-9.86066
下生	-9.86106
欽天監	-9.86131
爲法	-9.86134
為從	-9.86174
乎曰	-9.86194
九十一度	-9.86206
斷	-9.86211
御	-9.86234
東方	-9.86287
得三十	-9.86313
赤緯	-9.86368
西方	-9.8639
之緯度	-9.86431
計之	-9.86527
午未	-9.86576
上方形	-9.8664
一宫	-9.86731
毎邊	-9.86792
堅	-9.86814
六三	-9.86843
二二	-9.86852
甲丙乙	-9.86864
八步	-9.86944
八十三	-9.87023
每年	-9.87066
十四分	-9.8707
共數	-9.87226
游	-9.87262
亦曰	-9.87282
距太陽	-9.87299
九四	-9.87319
朢	-9.87394
犯	-9.87457
與黄道	-9.87509
十分内一秒冬至	-9.8756
研	-9.87599
截積	-9.87612
共為	-9.87633
關	-9.87639
長圓體	-9.87656
二十二度	-9.87675
萬物	-9.87733
一十三度	-9.87767
梨	-9.87775
六兩	-9.87793
壬角	-9.87794
其光	-9.87803
郡	-9.8781
矣然	-9.87818
不一	-9.87831
十二宫	-9.87849
五分内三十一秒冬至	-9.87923
餘積	-9.87938
同理	-9.87953
餘割	-9.87957
一七	-9.8797
星之	-9.88011
二倍	-9.88013
虚弦	-9.88051
前圖	-9.88138
又作	-9.88188
定氣	-9.8819
即用	-9.88225
之高	-9.88232
授	-9.88274
則減	-9.88289
遞加	-9.88334
宣	-9.88393
十二兩	-9.88409
詩	-9.88411
中線	-9.88414
句股和	-9.88421
實引	-9.88428
本輪心	-9.8844
遺	-9.885
七九	-9.88533
災	-9.88541
浮	-9.88544
假令	-9.88563
示	-9.88589
之氣	-9.88628
總弧	-9.88633
四二	-9.88695
編	-9.88745
陽厯	-9.88839
球上	-9.88891
八刻	-9.88917
於戊	-9.88949
十三分	-9.88961
塔	-9.88965
配	-9.88967
仍以	-9.88967
是月	-9.89034
兩六錢	-9.89035
所截	-9.89099
昬	-9.89177
東北	-9.89301
皇	-9.89314
六二	-9.89386
食甚時	-9.89399
一萬二千	-9.89402
中央	-9.89446
測算	-9.89477
五宫	-9.8949
所成	-9.89506
弧線	-9.89538
法實	-9.89581
九百六十	-9.89587
除法	-9.89601
𤣥枵	-9.89637
并之得	-9.89641
實數	-9.89646
正矢	-9.89814
戊癸	-9.89823
逓	-9.8983
一根多	-9.89839
論之	-9.8987
為太陽	-9.89913
定積	-9.89915
初限	-9.8992
者如	-9.89931
執	-9.89966
以分母	-9.89975
分三十秒	-9.90062
為法除之	-9.90067
楞	-9.90108
以至	-9.9012
内加	-9.90145
屢	-9.90165
黑	-9.90177
四步	-9.90223
五十九分	-9.90247
宿次	-9.9026
西域	-9.90273
牽牛	-9.90275
所有	-9.90299
十四年	-9.90326
盈朒	-9.90338
加倍	-9.90354
引長之	-9.90367
三八	-9.90504
所出	-9.90518
欲求	-9.90546
距限	-9.90553
二兩	-9.90832
從方	-9.90878
直形	-9.90922
冬至日	-9.90954
七百八十	-9.9096
諸法	-9.91027
餘切	-9.91057
鼓	-9.91074
廢	-9.9112
乙東行	-9.91136
築	-9.91145
誠	-9.91189
簡法	-9.91248
命之	-9.9125
共銀	-9.91267
為隅法	-9.91273
九十五	-9.91273
以太陽	-9.91275
亦名	-9.91281
食甚用時	-9.91309
正弧	-9.91416
形如	-9.91425
四方	-9.91524
通之	-9.91534
尺數	-9.91555
相等則	-9.91592
十一度	-9.91684
中數	-9.91706
三十一分	-9.91707
下等	-9.91713
未及	-9.91716
一斗	-9.91735
展	-9.91793
持	-9.91906
歌	-9.91963
好	-9.91987
顧	-9.91989
旋轉	-9.92034
九二	-9.92053
百二十	-9.92054
甲子日	-9.92066
映	-9.92086
不可以	-9.92202
較之	-9.92302
從甲	-9.92338
之時刻	-9.92456
二十等面	-9.92462
九十二	-9.92573
其上	-9.92625
立圓	-9.9273
一千四百	-9.92791
六八	-9.92798
二秒	-9.92816
三刻	-9.92865
月孛	-9.92876
立方之	-9.92903
登	-9.92907
諸曜	-9.92936
有所	-9.92945
作㸃	-9.92966
緞	-9.92971
一百零	-9.93058
初虧復圓	-9.93111
零六	-9.93157
併徑	-9.93204
應加	-9.9322
得四十	-9.93234
之正	-9.93303
零三	-9.93331
或在	-9.93335
皇極	-9.93383
五十一秒	-9.93457
為加	-9.93464
甲丁戊	-9.93481
干	-9.93486
長廉	-9.93508
法求之	-9.9359
約之為	-9.93632
其長	-9.93753
不同心	-9.93818
八十五	-9.93821
騾	-9.93823
十分之	-9.93868
蒙氣	-9.93875
一千八百	-9.93876
也然則	-9.93879
角之	-9.93901
古厯	-9.93925
減於	-9.93953
四倍	-9.94051
開之	-9.94067
得七	-9.94108
鶉火	-9.94136
仍得	-9.9419
二十六分	-9.94211
則無	-9.94212
其體	-9.94227
五緯	-9.94272
半徑與	-9.94273
可用	-9.94358
隨時	-9.9437
一名	-9.9445
推是年	-9.94471
至今	-9.94552
無所	-9.94554
相當之	-9.94586
至丁	-9.94591
黄道之	-9.94698
七十四	-9.9473
與甲丁	-9.94765
㡬	-9.94806
長方體	-9.94834
之數以	-9.94836
太初	-9.9487
百年	-9.94875
妙	-9.94884
兩半徑	-9.94922
距午	-9.94932
本數	-9.9501
之交	-9.95021
四十分	-9.95059
而復	-9.95094
與日	-9.95115
大火	-9.95127
十九分	-9.95151
伏見輪	-9.95165
四十八分	-9.95285
三千六百	-9.95294
當以	-9.95308
二邊	-9.95362
弦較較	-9.95375
遼史	-9.95377
之說	-9.95378
之法也	-9.95416
縱横	-9.95481
如上圖	-9.95512
索	-9.95532
薄	-9.95547
系	-9.9556
繼	-9.95578
金水二星	-9.95624
得八	-9.95691
丨為	-9.9571
之初	-9.95719
先有	-9.95729
九十一	-9.95734
二九	-9.95819
加减	-9.95832
自此	-9.95849
入交	-9.95852
句股較	-9.95864
在最髙	-9.95868
萬四千	-9.95955
表中	-9.95961
後天	-9.96005
距地心	-9.96086
差數	-9.96091
全食	-9.96113
二斗	-9.96115
無窮	-9.96146
陸	-9.96186
皆在	-9.96228
躔度	-9.96242
甲巳	-9.96256
千萬	-9.96271
侯	-9.96344
四四	-9.96425
必以	-9.96444
此即	-9.96454
即甲	-9.96472
丑正一刻	-9.96506
夾	-9.9655
一八	-9.96571
滅	-9.96588
畫一	-9.96592
入地	-9.96596
次年	-9.96681
百萬	-9.96712
兩八錢	-9.96761
甲與乙	-9.96768
以便	-9.9684
分内五十一秒冬至應閏	-9.96888
法求得	-9.96902
與太陽	-9.96933
自乘再乘	-9.96973
十一宫	-9.96995
地上	-9.97001
既有	-9.97041
十六兩	-9.97091
餘角	-9.97122
二百一十六	-9.97129
分寸之	-9.97171
二法	-9.9723
甲乙丙三角形	-9.97296
叅	-9.97327
繞	-9.97329
沒	-9.97344
宫初度	-9.97364
兩正弦	-9.97433
壬戊	-9.97443
教	-9.97472
支那	-9.97473
區	-9.97486
天眼	-9.97644
二十五度	-9.97671
分五十秒	-9.97686
九萬	-9.97777
如甲	-9.97778
十四度	-9.97827
對減	-9.97922
負隅	-9.97996
釐有餘	-9.9807
違	-9.98085
氣朔	-9.98114
高卑	-9.98115
恰	-9.98131
五刻	-9.9818
子為	-9.98212
添	-9.98239
相求	-9.98266
已下	-9.9827
八四	-9.98303
不易	-9.98304
愚	-9.98355
圓體	-9.98372
月心	-9.98406
内周	-9.98442
之經度	-9.98508
於甲	-9.98512
一三	-9.98547
以除	-9.9856
相距之	-9.98563
分内四十一秒冬至應閏	-9.98564
依顯	-9.98619
測候	-9.98653
十五尺	-9.98708
距最髙	-9.98712
嘉	-9.98761
十四日	-9.98795
同類	-9.988
比例之	-9.98818
為丙	-9.98822
隂厯	-9.98844
其義	-9.98874
是知	-9.98895
乙丙為	-9.99059
楚	-9.99104
人之	-9.99186
三百一十	-9.99188
三線	-9.99192
一次	-9.9925
雨水	-9.99276
燈	-9.99282
􁀥	-9.99299
經星	-9.99304
去地	-9.99351
八萬	-9.99396
分内二十一秒冬至應閏	-9.99623
截長	-9.99688
三十六尺	-9.99729
南方	-9.99751
之意	-9.9976
四等面	-9.99802
上直角方形	-9.99828
度也	-9.99878
糧	-9.99894
自乘之	-9.99909
本表	-10.0004
四十二分	-10.0006
儒	-10.0007
俱為	-10.0008
穀	-10.001
各角	-10.0014
定交角	-10.0019
亦非	-10.002
俟	-10.0031
詔	-10.0033
丁夘	-10.0035
庚癸	-10.0035
得三百	-10.0041
繇	-10.0046
之度分	-10.0048
考之	-10.0049
大勾	-10.0057
○○○○○○○○○	-10.0065
巳時	-10.0068
試以	-10.0068
積與	-10.0068
壬己	-10.0076
而一為	-10.0076
全數與	-10.0083
二十三度半	-10.0088
但以	-10.0089
四十尺	-10.009
二分内三十一秒冬至	-10.0094
矣此	-10.0094
維	-10.0097
大邊	-10.0101
菽	-10.0104
待	-10.0106
夷	-10.0109
資	-10.0117
三百九十	-10.0118
而生	-10.0123
丁卯	-10.0126
細行	-10.0128
弟	-10.0129
降婁	-10.0129
樓	-10.013
禮部	-10.0131
駝	-10.0134
如以	-10.0138
四百四十	-10.0139
之事	-10.014
不敢	-10.0143
梵	-10.0143
立夏	-10.0145
百刻	-10.0167
草曰置	-10.0171
鈍	-10.0172
二根	-10.0176
不得不	-10.0178
為二率今所設之	-10.018
五步	-10.0184
定日	-10.0184
酉正	-10.0192
餘度	-10.0193
二等	-10.0194
不在	-10.0202
雞	-10.0203
六百四十	-10.0209
四面體	-10.0213
末率	-10.0217
失之	-10.0229
於地	-10.0232
同用	-10.0233
㡬何答曰	-10.0234
是謂	-10.0236
𢃄	-10.0243
歸除	-10.0247
七宿	-10.0252
二千三百	-10.0259
明弦	-10.026
有餘即	-10.0263
書於	-10.0263
午後	-10.0263
敢	-10.0267
五兩	-10.0276
原積	-10.0279
並以	-10.0281
一千五百	-10.0282
直角三角形	-10.0284
庚為	-10.0287
及其	-10.0289
太陽引數	-10.029
符	-10.029
南北極	-10.0292
乙癸	-10.0293
數之	-10.0295
作垂線	-10.0298
渾員	-10.0298
明股	-10.0303
委	-10.0311
角與	-10.0312
倒景	-10.0313
斜距	-10.0317
一十分	-10.0317
定法	-10.0319
太蔟	-10.0319
四商	-10.0323
引長	-10.0324
三百四十	-10.0328
幾何荅曰	-10.0333
舞	-10.0336
為度	-10.0341
次于	-10.0352
兩道	-10.0355
釐有餘即	-10.0356
二百二十	-10.0356
爲實	-10.0359
尚有	-10.0372
太隂在	-10.0375
在午	-10.0375
為定	-10.0379
九十四	-10.038
故謂之	-10.0382
率以	-10.0385
抵	-10.0395
柳	-10.0397
一邉	-10.0404
覽	-10.041
萬三千	-10.0412
死	-10.0413
吳	-10.0414
一二五	-10.0417
從此	-10.0417
底線	-10.0418
辰巳	-10.0419
壺	-10.0422
里差	-10.0425
桃	-10.0425
均度	-10.0426
林鐘	-10.0438
仍為	-10.0447
為所求	-10.046
餘弧	-10.0462
寅卯	-10.0465
為六	-10.0468
四丈	-10.0469
遲速	-10.0472
九十三	-10.0473
通為	-10.0502
苐	-10.051
斜交	-10.0511
源	-10.0511
専	-10.0514
舛	-10.0514
為界作	-10.0515
寶	-10.0516
寒暑	-10.0516
鼎	-10.0517
四秒	-10.0517
来	-10.0518
趙	-10.0518
法同	-10.0519
熒惑	-10.052
甲申日	-10.052
皇帝	-10.0527
通股	-10.0537
如前法	-10.0538
緯北	-10.054
與乙丁	-10.0543
二㸃	-10.0546
食在	-10.0547
靈	-10.0548
為比	-10.0555
查表	-10.0566
一叚	-10.0571
不復	-10.0576
之積也	-10.0587
丑癸	-10.0589
太陽躔	-10.059
三㸃	-10.0592
九十度限	-10.0595
倍之為	-10.0597
交二十六日	-10.0598
石為	-10.0599
七百五十	-10.0601
即乙	-10.0603
錠	-10.0605
良	-10.0607
之餘切線	-10.0611
惑	-10.0613
呼	-10.0616
敬	-10.0618
紀日	-10.062
姑洗	-10.062
入轉	-10.0621
零二	-10.0621
破	-10.0623
方體	-10.0626
赤道之	-10.0628
實望	-10.0632
十六日	-10.0633
二十一度	-10.0642
所生	-10.0643
之弦	-10.0645
五百四十	-10.0646
加于	-10.0647
七二	-10.0653
年根	-10.0655
因得	-10.0656
初商之	-10.0659
寄左	-10.0661
乙丁丙	-10.0662
弦和較	-10.0663
十七度	-10.0671
二十四分	-10.0675
亦如之	-10.0676
巻	-10.0677
平員	-10.0679
一種	-10.068
五九	-10.0682
逐日	-10.0683
未嘗	-10.0684
表景	-10.0688
兩測	-10.0703
相㑹	-10.071
平方開之	-10.0712
小弧	-10.0715
錄	-10.0716
酉正三刻	-10.0716
住	-10.0717
憑	-10.0717
方靣	-10.0718
句弦較	-10.0719
想	-10.0722
則知	-10.0722
達	-10.0724
三乘方	-10.0728
三根	-10.0729
天地之	-10.073
日天	-10.0732
片	-10.0732
一斤	-10.0742
歲差	-10.0743
推歩	-10.075
于是	-10.0751
食甚真時	-10.0751
癸丁	-10.0753
於左	-10.0754
在地平上	-10.0756
為心作	-10.0761
戊為	-10.077
地平上	-10.0771
二千九百	-10.0772
之光	-10.0773
八九	-10.0775
隅法	-10.0776
既與	-10.0778
邊形	-10.0782
故不	-10.0785
初宫	-10.0786
矣今	-10.0786
分内	-10.0786
以减	-10.0788
甲乙丙丁戊己	-10.0788
俱在	-10.0796
太陽行	-10.0797
三十二分	-10.08
又用	-10.0804
癸酉日	-10.0818
分四十五秒	-10.0818
擬	-10.0821
丑初一刻	-10.0824
乆	-10.0824
用表	-10.0824
六百七十	-10.0828
别有	-10.0828
亥正一刻	-10.0833
入食限	-10.0834
庫	-10.0834
今用	-10.0834
加二	-10.0834
三十九分	-10.0834
既等	-10.0835
太史	-10.0839
黄道髙弧交角	-10.084
兩直線	-10.0841
七十二度	-10.0843
查表得	-10.0844
多于	-10.0844
闇虚	-10.0845
未初二刻	-10.0849
二十日	-10.0851
交行	-10.0852
七一	-10.0854
赤經高弧交角	-10.0859
之前	-10.0862
心角	-10.0865
與地平	-10.0869
許	-10.0871
六刻	-10.0871
實朔	-10.0874
天道	-10.0874
繫	-10.088
二百九十	-10.0885
丑甲	-10.089
度二十分	-10.0896
圜周	-10.0906
三石	-10.0907
萬六千	-10.091
眼	-10.0912
四分之三	-10.0913
季	-10.0914
應減	-10.0919
四百二十	-10.092
徐	-10.0921
之末	-10.0924
也又如	-10.0926
竊	-10.0926
又云	-10.0929
讀	-10.0929
領	-10.093
億八千	-10.0931
雙	-10.0932
消長	-10.0932
寅正三刻	-10.0933
髙下差	-10.0934
相距之度	-10.0935
之變	-10.0944
日景	-10.0945
應鐘	-10.0945
之共價	-10.0945
髙下	-10.0948
最小	-10.0948
甲乙乙丙	-10.0955
三歸之得	-10.0958
下位	-10.0958
零一	-10.0971
甲丙線	-10.0972
二色	-10.0975
無異	-10.0975
天周	-10.0983
其時	-10.0984
為鈍角	-10.0985
雖有	-10.0988
之方	-10.0997
三十秒	-10.0999
二十九度	-10.1004
大暑	-10.1015
餘一	-10.1016
十四尺	-10.1022
九七	-10.1028
像	-10.1028
若干答曰	-10.1032
過極圏	-10.1033
於乙	-10.1035
與地	-10.1039
總積	-10.1042
兩即	-10.1042
孰	-10.1042
十五年	-10.1044
長濶	-10.1048
自乘之數	-10.1049
九十八	-10.1051
弧之	-10.1052
兩端	-10.1053
正月朔	-10.1054
小邊	-10.1056
為界	-10.1057
度一十分	-10.1063
連比例	-10.1067
午前	-10.1081
十年	-10.1082
告	-10.1083
丙午日	-10.1087
之分數	-10.1098
形與	-10.1099
倣	-10.1101
銳	-10.1102
二數	-10.1106
然其	-10.1108
接	-10.111
加減差	-10.1112
午初一刻	-10.1115
次輪半徑	-10.1126
弦和和	-10.1127
撮	-10.1134
界角	-10.1136
爲一	-10.1137
燕	-10.1138
後世	-10.114
貴	-10.114
三之二	-10.1141
辭	-10.1142
分二十秒	-10.1142
急	-10.1143
加於	-10.1143
一千三百	-10.1144
史記	-10.1157
原本	-10.1158
八八	-10.116
觀之	-10.1161
子甲	-10.1162
夏至日	-10.1163
朔策	-10.1174
表以	-10.1174
以推	-10.1174
之始	-10.1175
平望	-10.1175
高下差	-10.118
兩二錢	-10.1182
癸辛	-10.1184
於天	-10.1185
川	-10.1188
日下	-10.1188
矣而	-10.1194
其半	-10.1196
劉	-10.12
相減餘為	-10.12
一兩	-10.1201
灰	-10.1202
癸丙	-10.1203
大梁	-10.1204
其底	-10.1205
不相	-10.1206
七秒	-10.1209
一十八度	-10.121
孛	-10.121
學者	-10.1218
次位	-10.1222
若用	-10.1226
為亷法	-10.1232
幾何原本	-10.1234
九三	-10.1236
齘	-10.1238
日月五星	-10.1239
無差	-10.124
法除	-10.1241
初均	-10.1242
北緯	-10.1246
一丈二尺	-10.1248
天文志	-10.125
位數	-10.1257
所求之	-10.1263
仍用	-10.1266
若干法以	-10.127
原銀	-10.127
之本	-10.1276
朔䇿	-10.1279
南緯	-10.1281
大寒	-10.1282
萬四千四百	-10.1285
何也曰	-10.1286
黄帝	-10.1292
其邊	-10.1296
梯形	-10.1296
除之即得	-10.1296
四邊形	-10.1297
夘酉	-10.1299
癸巳日	-10.13
零七	-10.1303
此則	-10.1305
距北極	-10.1309
大徑	-10.1318
啇	-10.1321
之容	-10.1324
谷	-10.1325
太陽實行	-10.1337
見之	-10.1339
有餘為	-10.1341
幹	-10.135
預	-10.1351
掌	-10.1351
甲心	-10.1353
通法	-10.1357
酉正一刻	-10.1357
寅初二刻	-10.136
分内二十一秒冬至	-10.1379
又設	-10.138
天中	-10.138
多一	-10.1381
北方	-10.1405
一百二十五	-10.1405
至後	-10.1414
萬一千六百	-10.1414
四百九十	-10.1417
三千九百	-10.142
十三分内三十一秒冬至	-10.1423
之一半	-10.1427
未申	-10.1431
倍大于	-10.1434
法先	-10.1439
視半徑	-10.1443
次之	-10.1449
百八十	-10.1452
東西南北	-10.1454
弗	-10.1456
辛甲	-10.1457
衰分	-10.1458
立秋	-10.1458
勞	-10.1458
露	-10.1459
寧	-10.146
勿	-10.1461
甲行	-10.1463
回回	-10.1464
三均	-10.147
白平象限	-10.147
觔	-10.1472
兩心	-10.1474
合問	-10.1476
益隅	-10.1484
萬九千六百	-10.1486
矣夫	-10.1486
己亥日	-10.1491
鶉首	-10.1494
甲戊丁	-10.1496
○○○○○○	-10.1501
為減	-10.1504
于戊	-10.1504
初均數	-10.151
立法測望	-10.151
光明	-10.1511
六丈	-10.1518
五四	-10.1518
二十六度	-10.1519
圓球	-10.1519
皆等	-10.1525
辛亥日	-10.1532
小徑	-10.1532
一千七百	-10.1533
没	-10.1534
八一	-10.1536
一章	-10.1539
以象	-10.154
萬尺	-10.1543
冬至後	-10.1543
合於	-10.1544
其距	-10.1546
相和	-10.1547
三分内三十一秒冬至	-10.155
平弦	-10.1552
正弧三角形	-10.1552
乃得	-10.1555
十七日	-10.1557
壬戌日	-10.1562
鄉	-10.1564
停	-10.157
數加	-10.1571
天子	-10.1571
二十三日	-10.1572
各加	-10.1572
窺衡	-10.1573
兩分	-10.1574
驢	-10.1577
孔子	-10.1577
日子正初刻	-10.1578
之東	-10.1579
并得	-10.1581
正東	-10.1584
同而	-10.1585
置一	-10.1586
半弧背	-10.1587
丑初三刻	-10.1588
開立方	-10.159
有時	-10.1592
也此法	-10.1593
變易	-10.1594
在東	-10.1596
八十二	-10.1596
二年正月	-10.16
夏至後	-10.16
庚寅日	-10.1604
乃用	-10.1605
一小	-10.1606
各異	-10.1606
相生	-10.1615
查得	-10.1617
測其	-10.162
距等	-10.1625
所對	-10.1625
書之	-10.1635
一十六分	-10.164
而知	-10.1644
盈縮差	-10.1646
數則	-10.1647
計之則	-10.1655
周圍	-10.1658
二十五分	-10.1659
其術	-10.1664
六七	-10.1666
分三十三秒	-10.1669
申初初刻	-10.1671
一百零八	-10.1672
以乙	-10.1673
麻	-10.1674
總衰	-10.1679
倚	-10.1682
治厯	-10.1685
従	-10.1689
諸侯	-10.1689
凢	-10.1689
魚	-10.1691
八面體	-10.1692
五百二十	-10.1692
析木	-10.1694
為同數與左相消得	-10.1694
大衍厯	-10.1702
度三十三分	-10.1705
三千二百	-10.1706
二千七百	-10.1711
未能	-10.1714
分内一秒冬至史	-10.1716
兩率	-10.1717
下闊	-10.1725
閏三月	-10.1726
二十八度	-10.1727
小石	-10.1728
己丑日	-10.1738
壬午日	-10.1747
有大小	-10.1751
次置	-10.1767
相連	-10.1771
五位	-10.1773
景長	-10.1779
隅積	-10.1787
丁戊線	-10.1791
個	-10.1794
各作	-10.1795
熟	-10.1796
聽	-10.1799
古今律厯考卷	-10.1801
月日	-10.1801
渾象	-10.1803
申正一刻	-10.1803
泉	-10.1804
九兩	-10.1805
的	-10.1807
分四十六秒	-10.1813
星距	-10.1817
乙巳日	-10.1819
未正初刻	-10.1819
之周	-10.1822
八釐	-10.1823
擇	-10.1825
戊寅日	-10.1829
之南	-10.1832
日道	-10.184
為一分	-10.1841
先用	-10.1843
圓面	-10.1851
而有	-10.1858
安得	-10.1867
甲乙甲丙	-10.187
闗	-10.1871
分二十四秒	-10.1871
壬申日	-10.1873
論曰此	-10.1873
最庳	-10.1876
癸乙	-10.1877
故知	-10.1878
而半之	-10.1881
二升	-10.1884
之名	-10.1886
四角	-10.1887
月令	-10.1891
陰陽	-10.1902
戌正三刻	-10.1902
晝長	-10.1902
股也	-10.1903
租	-10.1906
五十尺	-10.1913
六分内一秒冬至	-10.1916
在赤道	-10.1917
減差	-10.1918
七四	-10.1919
子午線	-10.192
課	-10.1922
牆	-10.1922
南呂	-10.1922
抑	-10.1924
與他	-10.1927
步數	-10.1928
極出地	-10.1928
六人	-10.1938
長亷	-10.1939
角為	-10.1941
赤道上	-10.1941
月星	-10.1947
之和	-10.1957
一百九十二	-10.1958
六千六百	-10.1967
各減	-10.1968
亦皆	-10.1976
三數	-10.1977
法除之得	-10.1978
勾股積	-10.1978
圜分	-10.1978
長闊	-10.1983
汎	-10.1985
與己	-10.1989
所存	-10.1994
丁子	-10.1996
八三	-10.1998
圜心	-10.2001
大約	-10.2002
不同故	-10.201
角之正弦	-10.201
自有	-10.2012
易為	-10.2014
少一	-10.2015
存弧	-10.2018
列於上	-10.2021
己癸	-10.2022
幾分	-10.2024
丑正三刻	-10.2028
吉	-10.2028
赤道北	-10.2031
古者	-10.2031
演	-10.2032
守敬	-10.2033
四之三	-10.2035
兩心視相距	-10.2039
弦線	-10.2039
三十六分	-10.2041
丙申日	-10.2041
互相為比	-10.2044
平廉	-10.2047
厯指	-10.2048
負縱	-10.205
八五	-10.2051
行之	-10.2067
十八年	-10.2072
兩角形	-10.2072
利銀	-10.2073
邊形之每一邊為	-10.2077
欽定四庫全書新法算書卷	-10.2078
在位	-10.2078
九秒	-10.2081
大者	-10.2082
無可	-10.2085
方田	-10.2085
月十五日	-10.2086
為太隂	-10.2088
七萬	-10.209
斜方形	-10.209
一嵗	-10.209
單數	-10.2093
九九九	-10.2098
乙未日	-10.2099
弦也	-10.2101
價銀	-10.2101
方錐	-10.2109
其用	-10.2111
歟	-10.2113
四因	-10.2114
服	-10.2124
之幂	-10.2125
問各	-10.2128
戊辰日	-10.2135
每分	-10.2136
正南	-10.2137
角體	-10.214
癸未日	-10.2141
皆如	-10.2142
各數	-10.2142
榖	-10.2143
向南	-10.2143
赤道緯度	-10.2144
飛	-10.2145
寅角	-10.2147
相并	-10.2147
大統厯	-10.2151
靜	-10.2153
三升	-10.2158
餘二	-10.2158
小弦	-10.2169
八百四十	-10.2172
尺以	-10.218
㫖	-10.2181
十寸	-10.2185
壬辰朔	-10.2185
為首率	-10.2185
共行	-10.2188
圜外切	-10.219
兩㸃	-10.2191
行步	-10.2192
娵訾	-10.2193
之精	-10.2197
其形	-10.2199
十二等面	-10.2201
丙丁為	-10.2204
八二	-10.2206
星宿	-10.2206
本圏	-10.2209
豈不	-10.2212
得一千	-10.2213
鈐	-10.2215
癸亥日	-10.2222
南至	-10.2222
自行度	-10.2223
之天	-10.2225
丙寅日	-10.2225
子角	-10.2226
七三	-10.2233
半圜	-10.2233
極逺	-10.2247
至元	-10.2249
餘倣此	-10.2249
岸	-10.2251
超	-10.2261
析	-10.2262
呈	-10.2263
黄道上	-10.2263
熊	-10.2264
之上而以	-10.2264
各為	-10.2267
収	-10.2267
叙	-10.2267
酉初一刻	-10.2269
障	-10.2269
頃	-10.227
甲寅日	-10.227
后	-10.227
梵暦	-10.2275
午正三刻	-10.2276
己未日	-10.2276
求初虧	-10.2277
算術	-10.2277
出沒	-10.2279
箭	-10.2279
以自之得	-10.2281
二千六百	-10.2281
黄鐘之	-10.2283
大呂	-10.2287
午初二刻	-10.2296
常法	-10.2297
末限	-10.2303
二月朔	-10.2305
於丙	-10.2305
實交周	-10.231
心作	-10.2311
少一根	-10.2312
五丈	-10.2315
一百六十八	-10.2317
七星	-10.2323
相加減	-10.2324
丙丁線	-10.2325
兩表	-10.2327
萬八千	-10.2331
廉法	-10.2331
以甲	-10.2332
其本	-10.2338
小形	-10.2344
夏正	-10.2346
為甲乙	-10.2348
度三十五分	-10.2356
均輪心	-10.2358
如甲乙	-10.2358
全線	-10.2359
相離	-10.2361
而非	-10.2364
丁巳日	-10.2365
之廣	-10.2367
為母	-10.237
之比例也	-10.2371
尚未	-10.2375
十八兩	-10.2376
至己	-10.2377
二十面體	-10.2378
透	-10.2383
延	-10.2383
度三十八分	-10.2387
六卷	-10.2388
故有	-10.2393
圓積	-10.2393
一端	-10.2394
逢	-10.2395
又與	-10.24
巳午	-10.2401
法列	-10.2406
同前	-10.2413
為同式形	-10.2414
厯學	-10.2414
上等	-10.2416
距等圏	-10.2416
六二五	-10.2419
六百六十	-10.2424
二十三分	-10.2427
於丁	-10.2432
為平行	-10.2433
尖圓體	-10.2444
與天	-10.2445
恰盡	-10.2446
開元	-10.2448
五百六十	-10.2453
運行	-10.2462
等角	-10.2463
雪	-10.2463
前表	-10.2464
殷	-10.2464
新法算書卷	-10.2466
方周	-10.2468
明矣	-10.2469
尺倍之得	-10.2469
之言	-10.2472
是年	-10.2477
歲實	-10.2479
度二十九分	-10.2484
本度	-10.2485
而行	-10.2485
六星	-10.2488
甲戌日	-10.2494
巳正三刻	-10.2494
追	-10.2495
日月之	-10.2496
五等邊形	-10.2498
若在	-10.2499
輔	-10.2501
華	-10.2501
戌初二刻	-10.2504
二十七度	-10.2508
故名	-10.2508
戊子日	-10.2509
又多	-10.2509
揲	-10.2513
阿	-10.2513
丑子	-10.2515
寅正初刻	-10.2516
巳初一刻	-10.2516
虞	-10.2516
只用	-10.2518
為實法除實得	-10.2523
九百二十	-10.2524
所論	-10.2525
申初二刻	-10.2535
立面	-10.2536
亦用	-10.2536
各邊	-10.254
等因	-10.254
無射	-10.2541
得一百二十	-10.2544
視㑹	-10.2547
加一倍	-10.2549
西外	-10.2552
髙股	-10.2555
丁為	-10.2561
實徑	-10.2563
分者	-10.2566
十一分内三十一秒冬至	-10.2571
十丈	-10.2572
同法	-10.2574
一十三日	-10.2576
有半	-10.2578
平亷	-10.2583
之每一邊	-10.2583
相連比例	-10.2585
大半	-10.2592
較分	-10.2596
球之	-10.2597
分三十八秒	-10.2598
三錢	-10.2599
大石	-10.26
而用	-10.2601
分升之	-10.2605
西人	-10.2609
未初初刻	-10.2609
兩星	-10.2611
次數	-10.2614
庚辰日	-10.2618
各自	-10.2621
差也	-10.2623
邑	-10.2625
二道	-10.2626
應得	-10.2628
二十六日	-10.2629
乖	-10.2631
殆	-10.2631
祥	-10.2633
星行	-10.2641
至此	-10.2642
向北	-10.2646
丙丁戊	-10.2646
三十步	-10.265
戊申日	-10.2651
二曜	-10.2653
轉減	-10.2656
一十五分	-10.2656
江	-10.2661
乙行	-10.2662
庚戌日	-10.2663
四面	-10.2664
大弧	-10.2669
者置	-10.2672
少於	-10.2675
度五十六分	-10.2675
乙酉日	-10.2679
半圏	-10.2679
角即	-10.2679
平勾	-10.2679
得八十	-10.268
通分	-10.268
四色	-10.2683
具題	-10.2683
又將	-10.2684
所言	-10.2686
兩次	-10.2686
迄	-10.2687
此年	-10.269
三十五度	-10.2691
徽	-10.2694
舟	-10.2695
其較	-10.2699
該監	-10.2704
其地	-10.2705
閏十月	-10.2707
除得	-10.2711
分以	-10.2711
與丁丙	-10.2711
萬八千八百	-10.2711
形之積	-10.2718
分内四十一秒冬至史	-10.2718
別	-10.272
辰時	-10.2722
先天	-10.2726
其根	-10.2727
測星	-10.273
卅	-10.2732
分得	-10.2734
十二面體	-10.2735
二極	-10.2744
必用	-10.2747
根多	-10.2748
所分之	-10.2749
老	-10.2749
化秒	-10.2751
鉛	-10.2751
父	-10.2753
而立	-10.2755
贏	-10.2757
角之度	-10.2757
午初初刻	-10.276
恭	-10.2762
殺	-10.2763
武王	-10.2764
度二十五分	-10.2764
推測	-10.2764
四千八百	-10.2768
冷	-10.277
二行	-10.2773
管長	-10.2775
必先	-10.2777
百里	-10.2778
下方	-10.2779
後表	-10.2779
計都	-10.278
周徑	-10.278
或有	-10.2783
今欲	-10.2784
行至	-10.2784
六十尺	-10.2785
副置	-10.2787
無定	-10.2787
四釐	-10.2787
遠近	-10.2788
分二十八秒	-10.2791
緯差角	-10.2798
向東	-10.2805
平儀	-10.2805
所列	-10.2805
首尾	-10.2807
又求	-10.2808
戊午日	-10.2809
為兩平分	-10.2809
有四	-10.281
也如圖甲乙	-10.2814
物之	-10.2815
其日	-10.2816
戊戌日	-10.2823
十七尺	-10.2826
先定	-10.2829
又於	-10.2837
弧之餘弦	-10.2843
八十度	-10.2845
二斤	-10.2847
割圓	-10.285
再乘得	-10.2851
半較	-10.2853
丙丑	-10.2858
大小兩	-10.2858
兩四錢	-10.2863
堯	-10.2864
量之	-10.287
戌正二刻	-10.2874
方圓	-10.2874
昌	-10.2874
次輪心	-10.2875
申初一刻	-10.2876
為丁	-10.2877
則於	-10.2878
甲乙戊	-10.2878
界線	-10.2878
均圏	-10.2881
之學	-10.2882
各幾何法以	-10.2882
相望	-10.2883
之正矢	-10.2884
亥初初刻	-10.2884
狀	-10.2885
丙乙邊	-10.2885
所對之數為	-10.2886
触	-10.2889
巳初二刻	-10.289
而今	-10.2892
湯	-10.2896
法數	-10.2898
再乘	-10.2898
二百二十五	-10.2901
上兩直角方形并	-10.2906
己巳日	-10.2906
辰星	-10.2907
必得	-10.2908
四石	-10.2914
分也	-10.2918
縮厯	-10.292
四十五分	-10.292
九釐	-10.2921
元史	-10.2922
㨗法	-10.2923
太陰在	-10.293
實緯	-10.293
斗分	-10.2932
為一邊	-10.2935
可謂	-10.2936
豈非	-10.2937
異同	-10.294
兩五錢	-10.2942
而又	-10.2949
箕宿	-10.295
為甲丙	-10.2953
七百六十	-10.2961
之割線	-10.2962
中長	-10.2964
所得數	-10.2966
庚申日	-10.2966
八人	-10.2972
得六十	-10.2978
與甲戊	-10.2981
一十六度	-10.2981
尺折半得	-10.2992
素	-10.2993
廟	-10.2996
偏西	-10.2999
求復圓	-10.2999
公論	-10.3001
俗	-10.3003
機	-10.3009
為四率	-10.301
在黄道北	-10.301
耕	-10.3011
朔日	-10.3012
限距地髙	-10.3013
折半為	-10.3017
平地	-10.3017
分内三十一秒冬至	-10.3018
田積	-10.3019
脚	-10.3019
閲二百十六期積七萬八千八百九十	-10.302
丁未日	-10.3022
三百八十	-10.3022
夀星	-10.3023
觚	-10.3025
二之一	-10.3026
酉初三刻	-10.3026
合天	-10.303
復圎	-10.303
丙申朔	-10.3032
分丈之	-10.3033
中長線	-10.3034
定其	-10.304
次行	-10.3042
比例等	-10.3045
其心	-10.3049
宗動	-10.3051
直景	-10.3053
升度差	-10.3059
元形	-10.3061
距黄道	-10.3067
三差	-10.3068
一周天	-10.3077
分内一十一秒冬至史	-10.3077
本輪半徑	-10.3077
一尺五寸	-10.3091
變時	-10.3091
小圏	-10.3092
辰正三刻	-10.3092
軌	-10.3093
起於	-10.3093
一百尺	-10.3097
不異	-10.3101
五斗	-10.3104
分四十秒	-10.3108
五十二秒	-10.311
至地平	-10.3116
根數	-10.3117
周日	-10.3119
癸甲	-10.312
大圜	-10.3121
六十兩	-10.3126
陵	-10.3133
輸	-10.3133
十二日	-10.3134
七百二十九	-10.3135
烏	-10.3137
卿	-10.314
曹	-10.314
北斗	-10.3142
廣袤	-10.3143
紗	-10.3143
小輪心	-10.3145
開平方法	-10.3146
寅正一刻	-10.3147
堆	-10.315
一切	-10.3153
二十四兩	-10.3154
三十九秒	-10.3157
申時	-10.3158
不知其	-10.316
鈍角形	-10.3161
線則	-10.3161
萬六千四百	-10.3161
寅初三刻	-10.3166
閏十二月	-10.3166
逐度	-10.317
七刻	-10.3173
比之	-10.3174
距星	-10.3176
辰正初刻	-10.3178
而言	-10.3181
得二百	-10.3182
反減	-10.3184
二平均	-10.3184
因以	-10.3186
法求	-10.3187
兩旁	-10.3188
正方體積	-10.3191
實度	-10.3192
檢表得	-10.3196
也設	-10.3197
五分之一	-10.3198
甲午日	-10.3208
三乗	-10.3213
日申正三刻	-10.3224
之一分	-10.3224
定數	-10.3227
乙丙邉	-10.3228
甲乙丙形	-10.3228
太隂引數	-10.3229
時之	-10.3231
兩相等	-10.3236
實沈	-10.3236
作識	-10.3236
之道	-10.3236
行定度	-10.3238
午正初刻	-10.3239
相通	-10.324
為二率以	-10.3244
邊為	-10.3248
答	-10.3251
十六年	-10.3252
次用	-10.3257
辛酉朔	-10.3257
爰以	-10.3261
視朔	-10.3261
一萬六千	-10.3262
中等	-10.3264
度三十四分	-10.3266
秉	-10.3268
沙	-10.3274
甲丙為	-10.3275
圓界	-10.3276
揆	-10.3277
出南門	-10.3278
十一分内一秒冬至	-10.328
自乘再乘得	-10.328
但知	-10.3283
也又法以	-10.3288
雷	-10.3292
矩内直角形	-10.3292
求太陽	-10.3293
爰	-10.3294
中之	-10.3294
各度	-10.3295
進一位	-10.3301
陰厯	-10.3301
十兩	-10.3302
至庚	-10.3302
七斗	-10.3307
度四十三分	-10.3308
是名	-10.331
大形	-10.331
正割	-10.3322
之異	-10.3322
之行度	-10.3322
食時	-10.3325
朔巳時日食	-10.3326
切圜	-10.3327
嵗星	-10.3327
帶從	-10.3331
大都	-10.3332
丁酉朔	-10.3335
九一	-10.3337
萬五千	-10.3341
反之	-10.3342
全與	-10.3344
在子	-10.3358
始於	-10.3359
止用	-10.336
辛為	-10.3361
限度	-10.3364
甲之	-10.3364
鶉尾	-10.3365
蔽	-10.3368
之勢	-10.3372
丙辰日	-10.3374
不知步數而立	-10.3377
所商	-10.3378
平行度	-10.338
則甲	-10.338
槐	-10.3388
五倍	-10.3389
分五十三秒	-10.339
小勾	-10.3391
則自	-10.3392
所居	-10.3396
私	-10.3399
十位	-10.3399
三百八十四	-10.3401
十六分	-10.3402
病	-10.3406
客	-10.3406
騎	-10.3407
辯	-10.3407
綱	-10.3409
異併	-10.3409
辰初初刻	-10.3411
對角斜線	-10.3412
惡	-10.3412
坐	-10.3412
甲乙弧	-10.3412
丑初二刻	-10.3412
然後以	-10.3416
是爲	-10.3418
黄經	-10.342
太隂之	-10.3423
七百三十	-10.3423
李天經	-10.3424
免	-10.3425
井深	-10.3426
得數為	-10.3429
七兩	-10.3431
地下	-10.3432
煩	-10.3432
二十七分	-10.3435
也第	-10.3435
可作	-10.3437
白羊	-10.3439
在丙	-10.3441
分一十五秒	-10.3441
之北	-10.3443
一十二度	-10.3445
減積	-10.345
度則	-10.3452
泰	-10.3462
七十度	-10.3467
六時	-10.347
末位	-10.3472
必須	-10.3473
不及減	-10.3479
郭	-10.3481
效	-10.3485
六百三十	-10.3487
測定	-10.3488
之餘弧	-10.3496
於下	-10.3501
由是	-10.3501
多者	-10.3502
平方少	-10.3507
二十六秒	-10.3508
則當	-10.3519
五十四分	-10.3523
知之	-10.3526
數者	-10.3535
督	-10.3535
為限	-10.3536
辰正二刻	-10.3537
博	-10.3538
酉初初刻	-10.3542
仍餘	-10.3543
積等	-10.3545
輕重	-10.3547
弦幂	-10.355
随	-10.3551
新厯	-10.3552
也既得	-10.3554
胡	-10.3554
為元	-10.3556
之度也	-10.3557
赤極	-10.3557
高下	-10.356
距赤道北	-10.3561
在前	-10.3562
又從	-10.3564
乙寅	-10.3566
乙丙弧	-10.3568
諸天	-10.3573
方廉	-10.3576
步得	-10.3578
三百七十	-10.3578
壬子朔	-10.358
潮	-10.3582
赤道南	-10.3582
同升	-10.3583
真數	-10.3587
分四十三秒	-10.3587
度盡	-10.3589
月初一日	-10.3599
為平	-10.3599
丑壬	-10.36
徑分	-10.3601
于丙	-10.3602
一億	-10.3605
線成	-10.3606
度三十一分	-10.3608
四因之得	-10.3609
以内	-10.361
三除	-10.3611
七釐	-10.3614
壬丑	-10.3614
二分五釐	-10.3616
卷第	-10.3621
又法以	-10.3622
法算之	-10.3622
遂成	-10.3623
六斗	-10.363
與丙乙	-10.363
萬八千四百	-10.3631
減之得	-10.3639
西行	-10.3643
之㫖	-10.3644
所餘之	-10.3646
改元	-10.3646
甲丁為	-10.3646
之餘割線	-10.3648
差一度	-10.3648
弓	-10.3656
為全數	-10.366
綱目	-10.3666
亥初一刻	-10.3671
不同者	-10.3672
多禄某	-10.3673
辛丑日	-10.3673
次得	-10.3676
既以	-10.3677
日至	-10.3677
諸臣	-10.3678
紙	-10.3678
出地平	-10.368
苟	-10.3681
夏税	-10.3682
協	-10.3683
凝	-10.3687
福	-10.3688
日亥初三刻	-10.3689
落	-10.3689
緯南	-10.3691
廣狹	-10.3692
半外角	-10.3695
此亦	-10.3697
下數	-10.3699
與甲庚	-10.37
一千一百	-10.3701
十九度	-10.3702
自相乗得	-10.3704
度三十六分	-10.3705
法與	-10.3706
壬午朔	-10.3708
視距	-10.3712
甲丙戊	-10.3714
自甲	-10.3715
視髙	-10.3716
乃自	-10.3717
通之得	-10.3718
半徑十萬	-10.3723
者何也	-10.3723
等也	-10.3727
乙丁線	-10.3736
㸃為	-10.3737
月經朔	-10.3742
交均	-10.3742
零數	-10.3745
轉終	-10.3747
也但	-10.375
億四千	-10.3752
髙弦	-10.3755
遊	-10.3757
故云	-10.3762
癸己	-10.3768
問答同前法曰	-10.3768
線即	-10.377
為地平	-10.3774
得四百	-10.3785
萬三千六百	-10.3788
五千四百	-10.379
不出	-10.3795
也或	-10.3797
不可得	-10.3801
郭守敬	-10.3803
子丙	-10.3803
為宮	-10.3803
苦	-10.3805
四邊	-10.3806
乘法	-10.381
言其	-10.381
扵	-10.3813
度等	-10.3817
依本	-10.3821
子正三刻	-10.3821
賢	-10.3822
早晚	-10.3824
幷	-10.3825
康熙	-10.3826
之各	-10.3828
距交實行	-10.3828
省算	-10.3828
加縱	-10.3831
一百二十八	-10.3836
子壬	-10.3844
萬一千	-10.3845
在黄道	-10.3847
開之得	-10.3848
宮度	-10.3851
正方面積	-10.3853
甲辰日	-10.3854
三十尺	-10.3854
于此	-10.3856
兩為二率	-10.3862
億七千	-10.3862
衍數	-10.3863
漢厯	-10.3864
未盡	-10.3865
以半徑	-10.3871
二十七秒	-10.3874
宗動天	-10.3878
諸家	-10.3878
二均	-10.3878
者則以	-10.388
子寅	-10.3886
孟	-10.3893
或曰	-10.3894
三十三度	-10.3896
過象限	-10.3897
詳見	-10.3904
也術曰	-10.3906
分二十五秒	-10.3906
未知	-10.391
分餘	-10.3911
天上	-10.3917
每度	-10.3929
丙戌日	-10.3931
在戊	-10.3932
不盡者	-10.3937
上闊	-10.3939
撱圓體	-10.394
實以	-10.3945
康	-10.395
兌	-10.3952
囘	-10.3953
下文	-10.3953
静	-10.3953
萬二千八百	-10.3954
豫	-10.3954
襄	-10.3956
堂	-10.3957
塵	-10.3958
寅初一刻	-10.3963
濟	-10.3964
錐體	-10.3964
巳初三刻	-10.3965
渾天儀	-10.3969
啓	-10.3969
過此	-10.3973
分五釐	-10.3979
還原	-10.3981
平方得	-10.3982
與甲乙丙	-10.3983
甲子朔	-10.3984
為益從	-10.3985
如圖甲乙丙丁	-10.3985
漸逺	-10.3986
已過	-10.4
也蓋	-10.4001
南門	-10.4001
之兩	-10.4001
八錢	-10.4012
凡言	-10.4015
此書	-10.4018
在後	-10.4018
即丙	-10.4026
兩角等	-10.4028
一百五十七	-10.4028
數皆	-10.4034
對數	-10.4034
度五十七分	-10.4038
億六千	-10.4051
兩界	-10.4052
度二十一分	-10.4059
為法除	-10.406
順天	-10.4065
則必	-10.4065
六百八十	-10.4066
乙亥日	-10.407
與原	-10.4073
尺爲	-10.4073
比例法	-10.4074
午時日食	-10.4075
湏	-10.4076
之三倍	-10.4086
乙甲丙	-10.4094
術以	-10.4094
萬五千六百	-10.4095
棄	-10.4096
此為	-10.4097
酌	-10.4099
正月甲寅朔	-10.4099
裁	-10.4099
緣	-10.4099
萬二千四百	-10.4101
幅	-10.4101
噐	-10.4106
織	-10.4106
一倍	-10.4107
辛酉日	-10.4107
斗柄	-10.4108
基	-10.4108
喜	-10.4108
0	-10.4108
總銀	-10.4111
所加	-10.412
夷則	-10.4123
偏東	-10.4127
之數為	-10.4128
乙丑日	-10.4128
極星	-10.4129
大夫	-10.4129
其書	-10.4129
周禮	-10.4135
定用分	-10.4138
白經高弧交角	-10.4139
歸之	-10.414
六宮	-10.4145
分一十六秒	-10.4145
積也	-10.4146
正月甲戌朔	-10.415
辛未日	-10.415
員徑	-10.4151
度三十七分	-10.4153
二十秒	-10.4155
所至	-10.416
食之	-10.416
月十六日	-10.416
丁丑日	-10.416
形外	-10.4163
弦與	-10.4163
閏八月	-10.4165
立三角	-10.4173
分四十九秒	-10.4176
為本	-10.4179
分三十四秒	-10.4181
以初商	-10.4182
上亷	-10.4183
野	-10.4186
依前法	-10.4187
立冬	-10.4191
五錢	-10.42
徧	-10.4201
較弦	-10.4203
直線形	-10.4207
圏之	-10.4207
角旁	-10.421
之物	-10.4213
二分之一	-10.4216
赤道經緯度	-10.4222
九步	-10.4228
弧矢形	-10.4228
二三均數	-10.423
第一次	-10.4233
仁	-10.4235
同也	-10.4236
寅初初刻	-10.4237
之書	-10.4238
兩分母	-10.4239
戊申朔	-10.4239
有食	-10.4243
纂	-10.4243
乃至	-10.4245
因而	-10.4245
𫝊	-10.4246
凡有	-10.4246
竝	-10.4247
晝夜長短	-10.425
祭	-10.425
李淳風	-10.4251
日巳正二刻	-10.4251
一百一十二	-10.4252
有兩	-10.4253
南北二極	-10.4255
視其	-10.4256
雙環	-10.426
地體	-10.426
又按	-10.4261
修改	-10.4265
合而	-10.428
所截之	-10.4282
有差	-10.4287
衆星	-10.429
槳	-10.4291
漸近	-10.4296
者非	-10.4297
兩矢較	-10.43
定尺	-10.4303
丙得	-10.4304
同異	-10.4306
二曰	-10.4309
尺七寸	-10.4315
度與	-10.4316
所云	-10.4318
每日平行	-10.4323
四正	-10.4328
參差	-10.4329
中㑹	-10.4329
在地	-10.4331
五二	-10.4331
不如	-10.4332
七月朔	-10.4332
至乙	-10.4335
之總	-10.4337
度四十七分	-10.434
一十四度	-10.4342
壬辰日	-10.435
倍於	-10.4355
分四十七秒	-10.4355
丑卯	-10.4355
癸丑日	-10.4356
甲㸃	-10.4356
己為	-10.4357
其餘弦	-10.4358
於中	-10.4368
日未正二刻	-10.4369
小隅	-10.4372
兩體	-10.4375
丁巳朔	-10.4379
東井	-10.4383
宫度分	-10.4387
鹿	-10.4387
圜内容	-10.4388
帶分	-10.4388
俱以	-10.4393
保	-10.4393
鳴	-10.4398
仲呂	-10.4399
幸	-10.44
奉㫖	-10.4401
草曰别得	-10.4401
日子正二刻	-10.4403
比例尺	-10.4405
用此	-10.4406
二十五尺	-10.4406
八分内一秒冬至	-10.4406
為凖	-10.4407
上之	-10.4409
癸丑朔	-10.4409
尖體	-10.4411
五人	-10.4412
此線	-10.4415
六月朔	-10.4416
羅計	-10.442
四根	-10.4422
下法	-10.4424
自乗之	-10.443
不止	-10.443
同者	-10.4433
上弦	-10.4434
丙子日	-10.4437
退位	-10.444
日午初三刻	-10.4445
其外	-10.4446
丁酉日	-10.4447
小者	-10.4449
者因	-10.4454
月輪	-10.4455
一百二十六	-10.4456
一千四百四十	-10.4456
截取	-10.4456
分内五十一秒冬至史	-10.4458
春正	-10.4459
所記	-10.4461
也假如	-10.4466
者或	-10.4467
正北	-10.4467
與庚	-10.4475
六一	-10.4477
經圈	-10.4477
内角	-10.4481
欲以	-10.4484
正西	-10.4486
五十八度	-10.4487
星辰	-10.4488
以成	-10.4492
一錢	-10.4493
二錢	-10.4495
黄道極	-10.4502
日亥初二刻	-10.4507
寅乙	-10.4517
丁亥日	-10.4519
丈尺	-10.4522
太虚	-10.4523
可以度盡	-10.4523
亥正二刻	-10.4533
碗	-10.4534
定度	-10.4534
三角尖堆	-10.4538
十月朔	-10.4538
測望	-10.454
歷	-10.4542
也按	-10.4543
幽	-10.4543
斜步	-10.4544
日辰初一刻	-10.4546
襍	-10.4548
數而	-10.4551
如在	-10.4552
二十一秒	-10.4556
三邉	-10.4557
也且	-10.4558
衍母	-10.4562
日周	-10.457
長與闊	-10.4575
之西	-10.4579
乙丙底	-10.458
法得	-10.4583
自乗再乗	-10.4583
運轉	-10.4587
之比例大于	-10.4587
為半徑作	-10.4589
大一倍	-10.4596
四除	-10.4596
六合	-10.4598
同但	-10.4602
一萬三千	-10.4602
丑正初刻	-10.4603
二百五十六	-10.4603
二時	-10.4613
扁方體	-10.4619
或問	-10.4621
二百五十里	-10.4623
兩面	-10.4624
子丁	-10.4627
小寒	-10.4632
十有二	-10.4634
之羃	-10.4635
價多	-10.4638
十一月朔	-10.4639
辛子	-10.4643
圎球	-10.4645
僧	-10.4645
幾倍	-10.4645
兩徑	-10.4645
度五十五分	-10.4653
相符	-10.4657
貫文	-10.4658
月朔	-10.4659
如此則	-10.4661
容圓	-10.4663
乙巳朔	-10.4663
無光	-10.4665
即得所求	-10.4667
丙與丁	-10.4669
九千四百	-10.4671
在其	-10.4673
者葢	-10.4673
日軌	-10.4676
四乗	-10.468
表端	-10.4682
壬寅朔	-10.4684
牽	-10.4685
既同	-10.4685
頭位	-10.4687
小時	-10.4688
為總	-10.4688
封	-10.4689
第二次	-10.4689
與丙戊	-10.4692
役	-10.4692
戴	-10.4693
八宫	-10.4693
閉	-10.4695
屈	-10.4696
隋	-10.4696
温	-10.4696
巳正一刻	-10.4697
仰觀	-10.4697
為中率	-10.4698
内去	-10.47
借數	-10.4701
籍	-10.4702
勾圓差	-10.4703
於後	-10.4704
丙午朔	-10.4704
郊	-10.4705
着	-10.4707
燭	-10.471
而下	-10.4715
度五十一分	-10.4716
邊數	-10.4719
黄赤二道	-10.4719
四千九百	-10.472
酉正初刻	-10.4722
分一十九秒	-10.4723
各行	-10.4731
者曰	-10.4732
亷積	-10.4735
數也此法	-10.4735
十二辰	-10.4735
太陽距	-10.474
八十尺	-10.4747
正月辛亥朔	-10.475
冬夏至	-10.4752
長廣	-10.4757
交道	-10.4759
一斛	-10.4759
相減為	-10.4759
三乗方	-10.4761
盈縮厯	-10.4764
五百一十	-10.4765
二千一百	-10.4766
億九千	-10.4768
術曰列	-10.4771
戊子朔	-10.4771
度二十四分	-10.4772
二十八日	-10.4775
一十一分	-10.4776
第二十	-10.4779
千尺	-10.4781
又各	-10.4784
三千一百	-10.4784
東移	-10.479
一處	-10.4795
用減	-10.4797
相等而	-10.4798
子乙	-10.48
之日數	-10.4801
累加之	-10.4802
六百二十五	-10.4807
上一位	-10.4808
交㸃	-10.4809
税	-10.481
徑以	-10.4811
減分	-10.4814
大邉	-10.4815
辛未朔	-10.4815
撱	-10.4815
圓球徑	-10.4816
所變	-10.4817
十一秒冬至	-10.4817
原設	-10.482
化作	-10.4821
池徑	-10.4821
任取	-10.4827
墨	-10.4828
對邉	-10.483
而上	-10.4833
降婁宫	-10.4837
一萬八千	-10.4837
十八分	-10.484
之逺近	-10.484
度四十分	-10.4842
墜	-10.4844
七丈	-10.4845
窖	-10.4845
分一釐	-10.4846
營室	-10.4846
卯正	-10.4846
一萬一千	-10.4847
萬七千五百	-10.4848
市	-10.4849
上層	-10.4849
暮	-10.485
二十兩	-10.485
八百一十	-10.4851
真時距分	-10.4851
農	-10.4852
藉	-10.4853
黄道積度	-10.4853
撿	-10.4853
鑿	-10.4854
臣淳風等謹按	-10.4854
濁	-10.4856
長方積	-10.4857
去之餘	-10.4859
乙丑朔	-10.486
至元辛巳	-10.486
稿	-10.4862
為法除實得	-10.4864
此形有	-10.4867
為平實	-10.4871
距差	-10.4875
本形	-10.4876
小則	-10.4878
乙角之正弦	-10.4879
合為一	-10.4882
減半周	-10.4886
夜半日度	-10.4886
論其	-10.4887
太隂距	-10.4888
月數	-10.4892
六之一	-10.4896
與戊	-10.4903
定望	-10.4903
甲戌朔	-10.4905
前數	-10.4907
須彌	-10.4909
分至	-10.4911
成直角	-10.4912
所得為	-10.4914
定之	-10.4915
明之	-10.4917
一里	-10.4917
庚申朔	-10.492
子曰	-10.4923
日巳正初刻	-10.4923
圓田	-10.4929
閏七月	-10.4934
左下	-10.4935
輻線	-10.4936
萬五千二百	-10.4937
邊線	-10.4937
虚勾	-10.4938
於赤道	-10.4944
皆從	-10.4949
度五十三分	-10.4951
非也	-10.4957
亦可以	-10.4958
是其	-10.4961
髙差	-10.4964
禾	-10.4964
内又	-10.4965
皇上	-10.4967
九十分	-10.4967
分四十八秒	-10.4971
在最卑	-10.4972
與丁己	-10.4974
一條	-10.4977
日申正二刻	-10.4978
郎	-10.4979
三十一日	-10.498
等者	-10.4982
少四	-10.4983
齊其	-10.4984
表間	-10.4987
合于	-10.4988
天象	-10.4989
等又	-10.499
與半徑	-10.4991
之較為	-10.4991
於己	-10.4991
針	-10.4994
頒	-10.4995
斜弧三角形	-10.5001
啟	-10.5002
一十三分	-10.5004
礙	-10.5006
羲和	-10.5007
夾鐘	-10.5007
塊	-10.5014
辰時日食	-10.5014
允	-10.5015
矩内形	-10.5017
甲得	-10.5023
魏書	-10.5024
盈不足	-10.5037
統天厯	-10.5043
三一四	-10.5044
七百四十	-10.5044
五百三十	-10.5045
於庚	-10.5046
積以	-10.5046
日酉初二刻	-10.5048
分五十六秒	-10.505
一百二十度	-10.5052
其言	-10.5053
二兩四錢	-10.5054
極髙	-10.5055
十二分内一秒冬至	-10.5058
所成之	-10.506
小星	-10.5067
餘即	-10.5068
一千萬	-10.5068
二萬四千	-10.5074
長方體積	-10.5075
等其	-10.5077
上三星	-10.5078
二宫	-10.5078
度之通弦	-10.5078
六石	-10.5079
竒零	-10.5082
隨地	-10.5086
四十四度	-10.5086
為乙丙	-10.5088
從丁	-10.5088
六分内五十一秒冬至	-10.509
度五十二分	-10.5091
股率	-10.5092
兩底	-10.5097
見於	-10.5101
過心	-10.5108
日辰正一刻	-10.5108
分三十二秒	-10.5112
至丙	-10.5113
項	-10.5118
俱相等	-10.5122
以天元	-10.5122
放	-10.5126
其較則	-10.5126
賜	-10.5132
其徑	-10.5134
日巳初初刻	-10.5135
去減	-10.5137
葢以	-10.5138
陽馬	-10.514
此皆	-10.5141
正交行	-10.5144
八十兩	-10.5147
為第一	-10.5147
子正後	-10.5147
此外	-10.515
等邉	-10.515
周之	-10.5151
髙弧交角	-10.5156
再乗	-10.5156
枝	-10.5157
迨	-10.5161
鹽	-10.5162
冬夏二至	-10.5164
辛巳日	-10.5165
二尺五寸	-10.5165
排	-10.5165
粗	-10.5166
境	-10.5166
嵗周	-10.5166
誰	-10.5167
申酉	-10.5168
毛	-10.5168
純	-10.517
舜	-10.517
大圈	-10.5172
朓朒	-10.5173
任意	-10.5177
各節氣	-10.5178
左上	-10.5178
剰	-10.5178
二十步	-10.5185
三十五分	-10.5186
簡易	-10.5188
個月	-10.5188
八線表	-10.519
在赤道北	-10.5191
萬一千五百	-10.5192
日辰初二刻	-10.5197
交定度	-10.5198
初末	-10.5203
處暑	-10.5207
所能	-10.5209
十八日	-10.5214
任作	-10.5214
步為	-10.5214
在己	-10.5215
五百七十	-10.5215
子正初刻	-10.5217
于甲	-10.522
至辛	-10.5222
甲丁線	-10.5223
隂陽厯	-10.5223
母數	-10.5223
于丁	-10.5225
午中	-10.5225
物價	-10.5227
一十七度	-10.5229
四乘	-10.5229
氣應	-10.5229
之首	-10.523
以赤道	-10.5231
七分内一秒冬至	-10.5233
疊	-10.5234
元數	-10.524
本輪之	-10.524
次輪心在	-10.5246
在丁	-10.5249
求作	-10.5251
其星	-10.5254
前後兩	-10.5255
庚子日	-10.5257
皆用	-10.5257
九百八十	-10.5258
夘時	-10.526
商之	-10.5265
躔差	-10.5266
大腰	-10.5271
朱子	-10.5271
津	-10.5286
白經	-10.529
其大	-10.5291
此術	-10.5295
日丑初初刻	-10.5296
分形	-10.5298
小腰	-10.5299
槩	-10.5301
之原	-10.5306
變而	-10.5308
八百五十	-10.5309
為髙	-10.5316
縱多	-10.5317
沿	-10.5318
欠	-10.5326
多祿某	-10.5326
彌	-10.5326
舒	-10.5327
平行作	-10.5327
于上	-10.5328
行分	-10.5328
緒	-10.5329
卄	-10.533
魁	-10.533
㢘	-10.5333
畸零	-10.5336
縦	-10.5336
數如	-10.534
不拘	-10.5346
􁷷	-10.5347
立方籌	-10.5353
外數	-10.5353
癸卯日	-10.5353
六等邊形	-10.5354
十三分内一秒冬至	-10.5354
十二律	-10.5355
初虧前設時	-10.5355
弧背	-10.5357
可知也	-10.5361
一等	-10.5363
每匹	-10.5364
七分半	-10.5367
億二千	-10.5369
即為所求	-10.537
三十二尺	-10.5371
二萬五千	-10.5372
則不	-10.538
一十二尺	-10.5382
緯圏	-10.5384
乙南行	-10.5387
于乙	-10.5389
共一百	-10.5392
積差	-10.5393
二因	-10.5396
也因	-10.5397
無不	-10.5398
日行一度	-10.54
一十九度	-10.5402
閏十一月	-10.5407
最髙行	-10.5409
二十四氣	-10.541
萬四千七百	-10.5412
法見	-10.5413
去離	-10.5414
上古	-10.5415
二處	-10.5416
本弧	-10.5417
去人	-10.5425
為隅	-10.5426
之法以	-10.5427
距算	-10.5428
日未正一刻	-10.5437
半徑一千萬	-10.5439
同時	-10.5444
十一分内五十一秒冬至	-10.5446
與戊乙	-10.5448
也又以	-10.545
位之	-10.545
望見	-10.5451
立於	-10.5453
五千七百	-10.5457
一大	-10.5458
食甚實緯	-10.5461
丑丁	-10.5461
併入	-10.5462
不同而	-10.5464
一百八十二	-10.5464
一方	-10.5465
形相似	-10.5473
八百二十	-10.5473
甲午朔	-10.5475
天漢	-10.5477
棊	-10.5478
乙甲丁	-10.5479
雅	-10.548
皇極弦	-10.548
筩	-10.5481
八七五	-10.5485
克	-10.5487
合前問今有	-10.5487
輳	-10.5487
屏	-10.549
小差股	-10.5492
混	-10.5493
以測	-10.5494
島	-10.5494
履	-10.5495
黄白大距	-10.5499
庚午朔	-10.55
捷法	-10.55
設有	-10.5501
順逆	-10.5505
交地平	-10.5506
作線	-10.5506
向西	-10.5511
壬寅日	-10.5513
本天半徑	-10.5513
分三十六秒	-10.5513
正交中交	-10.5513
交於	-10.5514
清明	-10.5516
陽城	-10.552
同底	-10.5522
一百七十六	-10.5523
本天之	-10.5525
大差勾	-10.5527
北極髙	-10.553
以六十	-10.5531
俱同	-10.5531
正月辛未朔	-10.5531
全體	-10.5532
角必	-10.5532
桅	-10.5533
一二三四	-10.5536
退行	-10.5538
在甲	-10.5539
斜冪	-10.5542
乙心	-10.5543
改正	-10.5544
三統	-10.5544
二十一分	-10.5545
正月丁酉朔	-10.5546
萬三千二百	-10.555
也次	-10.5553
尚書	-10.5554
欲作	-10.5556
轉而	-10.5558
逐度之	-10.5563
而南	-10.5567
日寅正二刻	-10.5567
六十步	-10.5569
度二十二分	-10.5572
十五分内一十一秒冬至	-10.5574
求等得	-10.5581
求到	-10.5581
員周	-10.5582
今有之	-10.5585
獻	-10.5586
尺八寸	-10.5586
癸巳朔	-10.5587
○○○○○○○	-10.5589
虧復	-10.5589
律中	-10.5592
於前	-10.5593
麗	-10.5596
下弦	-10.5601
之影	-10.5605
之器	-10.5605
得五十	-10.5609
割圜	-10.5609
股與	-10.561
率得	-10.5612
不明	-10.5612
全積	-10.5613
之際	-10.5614
方數	-10.5622
兩幾何	-10.5625
重數	-10.5626
如後	-10.5626
以黄道	-10.5627
五月朔	-10.5628
丙子朔	-10.5628
如有	-10.5629
則甲乙	-10.563
右下	-10.5633
更有	-10.5634
也如圖	-10.5635
得三十六	-10.5637
日申正初刻	-10.5637
丁乙丙	-10.5638
八分内三十一秒冬至應閏	-10.564
丁丙邉	-10.5641
四位	-10.5645
澤	-10.5647
一千九百	-10.5647
裏	-10.5648
脗合	-10.5651
壤	-10.5652
養	-10.5652
丸	-10.5652
在限西	-10.5654
提	-10.5655
二除	-10.5657
戊戌朔	-10.5657
度一十五分	-10.5657
甲寅朔	-10.5658
半較角	-10.5658
周公	-10.5658
昧	-10.5658
泥	-10.5658
日髙	-10.5659
消息	-10.5659
彼此減盡	-10.5659
倂	-10.566
申時日食	-10.5661
自西而東	-10.5661
閻浮提	-10.5662
璣衡	-10.5665
丙寅朔	-10.5666
辰角	-10.5667
三九八	-10.5668
故於	-10.567
日午正一刻	-10.5675
而東	-10.5676
少廣	-10.5678
勾弦	-10.5682
分五十八秒	-10.5683
相减	-10.5684
分一十一秒	-10.5684
以加減	-10.5685
三月朔	-10.5685
徑一尺二寸	-10.5689
正球	-10.5691
時日	-10.5694
距南	-10.5695
甲子運	-10.5695
日亥正三刻	-10.5696
百分之	-10.5697
戊午朔	-10.5702
小雪	-10.5702
地平線	-10.5703
此理	-10.5704
末以	-10.5704
為戊	-10.5706
平靣	-10.5709
四千六百	-10.5709
光體	-10.5714
七政之	-10.5715
截濶	-10.5719
得一十二	-10.572
注云	-10.572
大則	-10.5722
食甚在	-10.5724
三斗	-10.5725
章月	-10.5725
去表	-10.5727
萬二千六百	-10.5727
蒙氣差	-10.5728
上數	-10.5729
兩圏	-10.5731
六步	-10.5731
而不知	-10.5735
度四十五分	-10.5737
二百四十三	-10.574
三千四百	-10.574
四百一十	-10.5741
止有	-10.5748
日辰初三刻	-10.5752
分五十七秒	-10.5753
一二四	-10.5757
均輪半徑	-10.5759
子正一刻	-10.5759
若干度	-10.5759
論曰試	-10.5761
厯數	-10.5764
益廉	-10.5764
計開	-10.5766
則兩	-10.5769
諸行	-10.5769
則察	-10.577
巳角	-10.5774
分一十四秒	-10.5774
二十九分	-10.5777
三十一度	-10.5777
而取	-10.5778
石四斗	-10.578
何則	-10.5782
十四分内三十一秒冬至	-10.5782
于己	-10.5782
冬十月	-10.5782
在西	-10.5786
髙庳	-10.579
得二十四	-10.5804
三萬六千	-10.5804
夜子初初刻	-10.5809
之中心	-10.5811
蛇	-10.5816
卯初二刻	-10.5817
以當	-10.5817
北極高	-10.5819
所以然者	-10.582
秘	-10.582
勅	-10.582
在赤道南	-10.582
初虧用時	-10.582
二次	-10.5824
戊寅朔	-10.5825
楊	-10.5825
戊己庚	-10.5826
況	-10.5829
禪	-10.583
崩	-10.583
闡	-10.5831
書於方積	-10.5831
為加差	-10.5834
為平行線	-10.5838
理分中末線	-10.5838
同為	-10.5839
簡儀	-10.5839
八六六	-10.5839
甲子年甲子月	-10.584
實均	-10.5841
食甚定分	-10.5843
二分内一秒冬至	-10.5847
實得	-10.5847
得下式	-10.5848
日時	-10.5849
測天	-10.5849
二石	-10.585
正月丙午朔	-10.5852
平行方形	-10.5854
㸃在	-10.5861
總之	-10.5862
為大股	-10.5867
加減表	-10.5869
最高行	-10.587
是書	-10.5871
只有	-10.5872
以次	-10.5875
十五兩	-10.5876
作垂弧	-10.5882
小圓	-10.5886
七分内三十一秒冬至	-10.5887
下亷	-10.5888
一十度	-10.5892
鼈臑	-10.5894
六分之一	-10.5895
次從	-10.5897
即所求解曰	-10.59
為甲丁	-10.5902
丁丙邊	-10.5904
日戌初三刻	-10.5904
三角形内	-10.5905
圜積	-10.5907
步問答同前法曰	-10.591
一匹	-10.5915
右上	-10.5915
日戌正一刻	-10.5917
近少	-10.5919
挨	-10.5925
表得	-10.5926
隆	-10.5927
則皆	-10.5932
視線	-10.5933
乙得	-10.5934
月徑	-10.5937
從乙	-10.5939
六十六度	-10.5942
一十五秒	-10.5943
分六釐	-10.5946
既等則	-10.5947
日蝕	-10.595
甚逺	-10.5952
内减	-10.5953
弧與	-10.5955
第四率	-10.5956
斗五升	-10.5957
邊之	-10.5958
後人	-10.5958
四十六分	-10.5962
半總	-10.5966
三曰	-10.5967
數亦	-10.5971
日平行	-10.5972
并等	-10.5974
五十三度	-10.5975
測景	-10.5978
此其	-10.598
月半徑	-10.5981
渾體	-10.5984
二百三十五	-10.5986
壬為	-10.5988
極差	-10.5988
衛	-10.5989
宜加	-10.5989
卻	-10.5989
竪	-10.5991
以所得	-10.5991
旱	-10.5991
咨	-10.5993
俯	-10.5994
各省	-10.5995
乃置	-10.5996
白極	-10.5998
洞	-10.5998
感	-10.5998
金史	-10.5999
五分内一秒冬至	-10.5999
析木宫	-10.6
定一	-10.6
明徐光啟等撰	-10.6
又以上	-10.6
倘	-10.6
崇	-10.6
宣明厯	-10.6004
料	-10.6004
訓	-10.6006
心甲	-10.6006
尖堆	-10.6006
五色	-10.6006
庚辛壬癸	-10.6007
斜升	-10.6008
版	-10.6008
以甲乙	-10.6009
度四十四分	-10.601
龠	-10.6012
和買	-10.6017
度而	-10.6018
各一	-10.6018
小圜	-10.6021
倍數	-10.6025
之序	-10.6025
股弦差	-10.6026
紀元厯	-10.6027
尺上	-10.6028
法於	-10.6036
未初一刻	-10.6037
厯官	-10.6037
豈有	-10.6039
相等也	-10.6042
九十六刻	-10.6043
列於下	-10.6045
景之	-10.6046
在地平	-10.6059
日影	-10.6063
星圖	-10.6064
又求得	-10.6067
二均數	-10.6069
甚大	-10.6069
易見	-10.607
二差	-10.607
面體	-10.6071
二十二秒	-10.6073
與戊丁	-10.6074
設如有銀	-10.6074
上袤	-10.6075
宿距星	-10.6078
必大於	-10.608
相減餘一	-10.608
歳差	-10.6087
大距度	-10.609
入表	-10.6092
古之	-10.6092
者此	-10.6092
年差一度	-10.6095
内減之餘	-10.6096
黄道宿度	-10.6098
有盈縮	-10.61
受光	-10.61
乗方積	-10.6101
其法以	-10.6102
除之即得今有	-10.6103
心之	-10.6103
乙丙戊	-10.6109
日午正初刻	-10.6109
得所求	-10.6113
靈臺	-10.6115
矣其	-10.6117
在此	-10.6119
分與	-10.6119
按此術	-10.612
復有	-10.6121
日戌初一刻	-10.6124
五十六分	-10.6125
行遲	-10.6127
分五十四秒	-10.6138
失其	-10.6149
得二十五	-10.6151
二百四十步	-10.6151
乙與丙	-10.6152
分三十五秒	-10.6156
日日	-10.6158
小船	-10.6159
四百六十	-10.616
最髙衝	-10.6161
靑	-10.6164
平距	-10.6164
八石	-10.6164
錢數	-10.6165
殿	-10.6167
卯初三刻	-10.6167
正在	-10.6168
淵	-10.6169
甲辰朔	-10.617
次第	-10.6171
為方法	-10.6172
横行	-10.6172
害	-10.6175
徑冪	-10.6175
倫	-10.6176
之實行	-10.6177
曷	-10.6177
卯正初刻	-10.6179
干支	-10.6179
先求得	-10.618
距午赤道度	-10.618
交後	-10.6183
九丈	-10.6183
十里	-10.6185
/○)□	-10.6185
平方與	-10.6188
建子	-10.6189
小滿	-10.6192
朔日有食之	-10.6195
一萬七千	-10.6196
五十五秒	-10.6202
有二一	-10.6205
盖天	-10.6206
之分秒	-10.6208
在乙	-10.621
辛亥朔	-10.621
交泛	-10.6212
月距正交	-10.6213
年數	-10.6215
切於	-10.6217
大明	-10.6221
日距正交	-10.6224
遍乗	-10.6227
在黄道南	-10.623
三百七十五	-10.623
每一邊	-10.6235
一分内五十一秒冬至	-10.6236
寸數	-10.6239
相減餘二	-10.6239
初商次商之	-10.6241
大而	-10.6242
癸庚	-10.6244
月平行	-10.6244
也曰	-10.6246
豪有餘	-10.6246
以正	-10.6246
原有之	-10.6246
入算	-10.625
人在	-10.6252
率也	-10.6252
之比而得	-10.6254
半和	-10.6256
為減差	-10.6256
近時距分	-10.6257
中西	-10.6259
辛巳朔	-10.6261
寅丑	-10.6262
晦朔	-10.6263
影長	-10.6265
以兩	-10.6272
甚多	-10.6273
四十二度	-10.6275
逺鏡	-10.6276
終古	-10.6281
二十八分	-10.6286
甲銀	-10.6286
三四五	-10.6292
也如有	-10.6292
人居	-10.6294
遞減	-10.6297
交㑹	-10.6298
必大于	-10.6307
牙	-10.6314
入月	-10.6315
在限東	-10.6321
各自乘	-10.6322
於子	-10.6323
度作	-10.6324
累加	-10.6325
雖不	-10.6328
分一十二秒	-10.6329
而一所得	-10.6331
縂	-10.6334
與彼	-10.6334
以小	-10.6335
試自	-10.6336
上作	-10.6337
斜面	-10.634
為準	-10.6342
萬一千四百	-10.6343
其景	-10.6344
十二宮	-10.6345
費	-10.6346
四年正月	-10.6347
悟	-10.6347
九百九十	-10.6348
曽	-10.6348
距等圈	-10.6348
掛	-10.6349
人分之人得	-10.635
當食	-10.635
莊	-10.6352
遽	-10.6353
獲	-10.6353
峯	-10.6354
夜子初三刻	-10.6354
伽	-10.6355
亦大于	-10.6355
襄公	-10.6356
征	-10.6356
閲	-10.6356
二千二百	-10.6357
伸	-10.6357
共重	-10.6357
無從	-10.6357
3	-10.6358
冬夏	-10.6359
一立方	-10.636
七十五度	-10.6362
嗣	-10.6364
癸未朔	-10.6364
子母	-10.6368
不爽	-10.6369
限西	-10.637
之謂	-10.637
無有	-10.6372
及分秒	-10.6373
無論	-10.6373
分尺之	-10.6374
近逺	-10.6374
乙之	-10.6378
有定	-10.6378
與上	-10.6379
乘方	-10.6382
直距	-10.6383
瓣	-10.6384
遂以	-10.6385
小暑	-10.6387
三千五百	-10.6391
庚巳	-10.6397
乙亥朔	-10.6398
衝太陽	-10.64
分二十九秒	-10.6401
酉時	-10.6402
分二十三秒	-10.6408
三百六十五	-10.6409
相乘之數	-10.641
一晝夜	-10.641
者謂之	-10.6417
距北	-10.6423
甲乙丙角	-10.6423
為初商	-10.6426
半圓	-10.6426
之樞	-10.6427
而此	-10.643
也自	-10.6431
為朔	-10.6433
為連比例	-10.6437
則月	-10.6448
若求	-10.645
底邊	-10.6453
奉有	-10.6457
四月朔	-10.646
因此	-10.6461
為三商	-10.6462
細分	-10.6466
句幂	-10.6466
丙角正弦	-10.6467
相等故	-10.6467
理之	-10.647
列於	-10.6473
為法以	-10.6476
厯代	-10.6477
卽得	-10.6478
見日	-10.6479
僖公	-10.6482
公同	-10.6489
丑戊	-10.6495
十七分	-10.6498
萬一千八百	-10.6498
以生	-10.65
角也	-10.6501
萬六千八百	-10.6501
可也	-10.6506
七百一十	-10.6507
相交之	-10.6507
匠	-10.6508
甲戊線	-10.651
一兩二錢	-10.6511
耗	-10.6511
池積	-10.6517
全形	-10.6518
之端	-10.6522
為中	-10.6523
皆倣此	-10.6524
六十秒	-10.6526
龜	-10.6527
正方邊	-10.6527
分别	-10.6527
觧	-10.6527
相逺	-10.6528
宣城梅文鼎撰	-10.6531
律厯	-10.6532
卯正一刻	-10.6533
六百一十	-10.6535
容積	-10.6535
駁	-10.6537
値	-10.6537
十二分内四十一秒冬至	-10.6537
漢志	-10.6537
遵㫖	-10.6537
十分之一	-10.6537
叔	-10.6538
土木火三星	-10.6538
正數	-10.6538
㪷	-10.6539
1	-10.654
兔	-10.654
舎	-10.6541
庾	-10.6545
屋	-10.6547
回暦	-10.6547
軸孔	-10.6551
末作	-10.6551
足以	-10.6553
為甲數	-10.6553
壬癸子丑	-10.6554
為半	-10.6557
月實行	-10.6558
即甲乙	-10.656
大地	-10.656
餘里	-10.656
轂	-10.6562
春秋二分	-10.6562
倍積	-10.6564
之共積	-10.6568
六百五十	-10.657
甲乙股	-10.6571
具奏	-10.6571
大抵	-10.6573
復圓前設時	-10.6578
厯理	-10.658
以日法	-10.6581
如後圖	-10.6587
亷隅	-10.6591
氣之	-10.6592
以明	-10.6593
九宫	-10.6596
餘一百	-10.6598
去其	-10.66
股實	-10.6602
三邊形	-10.6602
總論	-10.6602
發明	-10.6602
七百七十	-10.6605
實沈宫	-10.6606
暑	-10.6608
星距地	-10.6613
乙丙線	-10.6614
自相等	-10.6615
丙辰朔	-10.6615
皆不	-10.6615
丁心	-10.6615
詳之	-10.6621
兩數相減	-10.6623
得十二	-10.6626
用以	-10.6626
卯正二刻	-10.6634
三十二度	-10.6636
而甲	-10.6641
於黄道	-10.6643
二千八百	-10.6645
三角形有	-10.6648
二十五日	-10.6648
試作	-10.6652
欽	-10.6654
望之	-10.6656
數故	-10.6658
丙形	-10.6658
八丈	-10.6663
愈多	-10.6665
也乃	-10.6667
建寅	-10.6667
星經度	-10.6669
積實	-10.6669
内方	-10.6671
為食甚	-10.6671
便是	-10.6674
丙乙丁	-10.6674
月光	-10.6678
本天心	-10.6678
次均數	-10.668
所少	-10.668
十分内一十一秒冬至	-10.6682
于左	-10.6683
己子	-10.6687
初刻	-10.6696
束	-10.6698
每面	-10.6699
丙巳	-10.6699
域	-10.6703
宻合	-10.6703
渠	-10.6713
材	-10.6713
俸	-10.6714
之誤	-10.6714
千六百	-10.6716
漸小	-10.6718
救	-10.672
殘	-10.672
表之	-10.672
嚴	-10.6721
淺深	-10.6722
半弧弦	-10.6723
5	-10.6725
積一	-10.6725
度法	-10.6727
癸戊	-10.6727
重修大明厯	-10.6728
所到	-10.6732
亦自	-10.6735
愈大	-10.6737
一百三十八	-10.6741
節氣線	-10.6742
正朔	-10.6743
卯初一刻	-10.6744
日戌初初刻	-10.6745
如前圖	-10.6752
逺則	-10.6753
故先	-10.6756
又取	-10.6757
益積	-10.6758
之比例亦	-10.6759
也又法	-10.6759
積分	-10.6761
聨	-10.6762
乙酉朔	-10.6763
己卯日	-10.6763
二十五步	-10.6765
而月	-10.677
儀象	-10.6772
尺卽	-10.6778
三限	-10.6779
所照	-10.678
為初虧	-10.678
一百四十七	-10.6786
之一邊	-10.6788
四十步	-10.6788
用其	-10.679
之正弦與	-10.6791
各幾何	-10.6792
平度	-10.6793
分法	-10.6799
未見	-10.6807
一股	-10.6807
日未正三刻	-10.6807
是時	-10.6808
籌算	-10.6808
多八	-10.681
丁未朔	-10.6811
為九十度	-10.6812
蔡	-10.6813
之中率	-10.6814
自乗之方	-10.6816
得積	-10.6819
距極	-10.6821
分釐	-10.6821
弦較	-10.6824
也試	-10.6828
尺九寸	-10.6828
圖説	-10.6836
之正切線	-10.6837
所説	-10.6839
日戌正初刻	-10.6842
求各	-10.6843
庳	-10.6845
之餘切	-10.6847
六百二十	-10.685
亦當	-10.6851
縱方	-10.6853
即丁	-10.6856
才	-10.6857
叀	-10.6866
為子	-10.6866
中厯	-10.6866
所生之	-10.6868
虚股	-10.6871
大角	-10.6872
午角	-10.6874
赤道髙	-10.6874
四億	-10.6875
約得	-10.6875
度四十一分	-10.6877
四宫	-10.6878
正月丙寅朔	-10.6882
本線	-10.6883
八卦	-10.6885
丙角之正弦	-10.6885
八十分	-10.6886
極大	-10.689
度三十二分	-10.689
聯	-10.6894
顆	-10.6895
於壬	-10.6895
丙丁邊	-10.6897
司天	-10.6899
旗杆	-10.69
壍堵	-10.6901
瓜	-10.6902
五百七十六	-10.6902
數又以	-10.6903
爐	-10.6905
無數	-10.6905
數相減	-10.6906
芒種	-10.6908
斤之	-10.691
惜	-10.691
勤	-10.691
堤	-10.691
顓頊	-10.691
稷	-10.6911
輿	-10.6911
徹	-10.6912
夜子初二刻	-10.6914
兩心實相距	-10.6915
黄平象限宫度	-10.6916
甲線	-10.6916
合成	-10.6916
全圜	-10.6917
摩	-10.6919
極高	-10.6921
五百五十	-10.6921
三十兩	-10.6921
七百二十一	-10.6922
尺五寸	-10.6922
一百三十五	-10.6924
晝短	-10.6924
近日	-10.6924
各宿	-10.6924
二八五	-10.6925
九分内二十一秒冬至	-10.6927
日丑正二刻	-10.6931
癸酉朔	-10.6932
所傳	-10.6933
諸書	-10.6935
五千六百	-10.6936
在本天	-10.694
改為	-10.694
可測	-10.6943
黄白	-10.6945
和也	-10.6946
太隂交周	-10.6947
以十二	-10.6947
者多	-10.6948
差角	-10.6949
得一百八十	-10.695
南行步	-10.6951
萬四千八百	-10.6952
日午正二刻	-10.6959
分體	-10.6962
所算	-10.6962
出東門	-10.6962
之左	-10.6964
得三千	-10.6964
得四率	-10.6964
入于	-10.6968
戊辰朔	-10.697
嵗輪心	-10.6974
矢較	-10.6974
一百六	-10.6976
正月壬午朔	-10.6982
六百九十	-10.6982
為天頂	-10.6989
夘辰	-10.699
實朢	-10.6992
餘三	-10.6993
萬三千五百	-10.6994
甲丁邊	-10.6994
乗商	-10.6999
離赤道	-10.7001
適當	-10.7004
庚寅朔	-10.7004
徑一	-10.7004
之倍度	-10.7004
乙丁為	-10.7007
文王	-10.7008
從戊	-10.7009
己庚辛	-10.701
捷	-10.7013
平行則	-10.7014
二百八十八	-10.7015
用籌	-10.7018
然也	-10.7019
時時	-10.702
但云	-10.7021
與乙戊	-10.7021
分五十九秒	-10.7023
只云	-10.7023
厯元甲子年	-10.7025
逓減	-10.7026
商得	-10.7026
亦猶	-10.7027
為外	-10.7027
剖之	-10.7028
下長	-10.7028
亦是	-10.7028
量法	-10.7029
方環	-10.703
十二次	-10.7031
步問	-10.7032
反是	-10.7035
度二十八分	-10.7035
大典	-10.7037
子數	-10.7038
萬八千七百	-10.7038
三十九度	-10.7039
周天度	-10.7039
界形	-10.704
二十年	-10.7044
則又	-10.7045
日小餘	-10.7047
半徑全數	-10.7047
一十秒	-10.705
大圓	-10.7051
實髙	-10.7051
一尺四寸	-10.7052
求太隂	-10.7058
月蝕	-10.7058
一百步	-10.7059
第一星	-10.706
二十一尺	-10.7061
一百七十五	-10.7064
收為	-10.7065
亦大	-10.7068
得二十七	-10.7074
開得	-10.7074
武帝	-10.7078
在斗	-10.7087
開立方得	-10.7087
凌	-10.7087
五百一十二	-10.7088
離地	-10.7089
日率	-10.7089
一十四分	-10.709
減從	-10.709
嵗在	-10.709
等矣	-10.7094
從心	-10.7094
以甲為心	-10.7094
予	-10.7095
無法	-10.7095
為下法與上法相乘除實	-10.7096
燈體	-10.7098
界作	-10.71
辛壬癸	-10.71
外切渾圓	-10.7101
濕	-10.7102
遥	-10.7102
祗	-10.7102
惠	-10.7104
庭	-10.7104
爭	-10.7106
迦	-10.7106
2	-10.7106
美	-10.7106
刋	-10.7108
一尺三寸	-10.7108
三分内一秒冬至	-10.7111
大船	-10.7111
渾圜	-10.7112
得六百	-10.7112
夘時日食	-10.7113
少者	-10.7114
􁆣	-10.7117
距赤道南	-10.7117
羅㬋	-10.7118
日亥正初刻	-10.7121
得二千	-10.7124
于庚	-10.7125
與戊丙	-10.7125
每月	-10.7126
甲乙丙三	-10.7129
他星	-10.713
法除實得	-10.7134
弦冪	-10.7136
記之	-10.7136
為大勾	-10.7137
丙行	-10.7139
今求	-10.7139
廉隅	-10.7141
閏四月	-10.7142
截之	-10.7144
萬二千二百	-10.7151
名之曰	-10.7152
者是也	-10.7152
與己丙	-10.7152
即大	-10.7154
萬六千九百	-10.7154
東行步	-10.7159
小邉	-10.7164
己酉朔	-10.7165
從丙	-10.7166
兩角亦等	-10.7166
而不能	-10.7171
二圖	-10.7172
億三千	-10.7178
自乗之正方	-10.7181
甲乙邉	-10.7182
共計	-10.7182
三面	-10.7187
各面	-10.719
長方體之	-10.7191
空心	-10.7194
若干分	-10.7198
四十七度	-10.7198
八月朔	-10.7203
一箇	-10.7207
増減	-10.721
分正負	-10.7213
測髙	-10.7215
行一周	-10.7215
星名	-10.7217
平面上	-10.7218
地徑	-10.7219
通光	-10.7222
未至	-10.7223
至步	-10.7227
者惟	-10.7228
由此	-10.7229
緯星	-10.723
二十四刻	-10.7231
實經度	-10.7233
萬七千八百	-10.7233
一百五十六	-10.7233
三百二十四	-10.7234
弦實	-10.7237
正切線	-10.7237
正月戊寅朔	-10.7238
中田	-10.724
也若以	-10.7242
古測	-10.7243
即甲丙	-10.7245
蒼	-10.7246
萬三千八百	-10.7252
之倍數	-10.7255
正合	-10.7255
共用	-10.7257
正月庚寅朔	-10.7263
如一	-10.7266
己未朔	-10.7267
又因	-10.7268
布算	-10.7268
半周天	-10.7269
異類	-10.7271
甲戊乙	-10.7274
也故以	-10.7276
分四十一秒	-10.7277
亦在	-10.7278
所知	-10.7279
日軌高	-10.7281
體心	-10.7281
為大分	-10.7281
稅	-10.7284
鈞	-10.7285
軒轅	-10.7287
園	-10.7287
一百一十五	-10.7287
揚	-10.7289
丙之	-10.7289
兩餘弦	-10.7289
己酉日	-10.7291
一十一度	-10.7291
傅	-10.7292
橋	-10.7292
旗	-10.7292
度四十六分	-10.7292
寳	-10.7293
釘	-10.7294
那	-10.7296
正實	-10.7296
欺	-10.7297
庚午日	-10.7298
而甲乙	-10.7301
夜子初一刻	-10.7301
子午圈	-10.7301
往往	-10.7303
人目所見	-10.7303
錯綜	-10.7304
被	-10.7305
萬九千二百	-10.7307
見積	-10.7308
踈	-10.7308
又同	-10.7309
最上	-10.7309
避	-10.7309
㨗	-10.7309
十八尺	-10.731
得十五	-10.7311
四萬八千	-10.7311
之重	-10.7312
度二十七分	-10.7313
諸厯	-10.7314
動天	-10.7318
底徑	-10.7322
為法而一得	-10.7323
以丙	-10.7324
有異	-10.7326
乙午	-10.7326
之圏	-10.7328
其緯	-10.7329
法有	-10.7329
行一度	-10.7329
一百二十一	-10.733
次緯	-10.7339
晷面	-10.7339
日出分	-10.7339
歲周	-10.734
今依	-10.734
太隂距地	-10.7343
從上	-10.7344
實經	-10.7348
平方多	-10.7349
上編	-10.7352
第二圖	-10.7354
百七十	-10.7355
當在	-10.7355
十三日	-10.7356
三分内	-10.7356
者又	-10.7362
之真	-10.7364
同心	-10.7367
一分内三十一秒冬至	-10.7367
三分内二十一秒冬至	-10.7371
勾股弦	-10.7372
夏之	-10.7373
八十一分	-10.7374
如乙	-10.7375
上元	-10.7375
寸以	-10.7376
月五星	-10.7376
正月甲午朔	-10.7377
尾數	-10.7379
九石	-10.7381
二十二分	-10.7382
小句股	-10.7383
步即所求解曰	-10.7386
七升	-10.7387
不至	-10.7387
五石	-10.7388
者不	-10.7391
如甲乙丙丁	-10.7392
秋分後	-10.7394
除者	-10.7395
夘角	-10.7401
葢天	-10.7401
尺又以	-10.7402
者用	-10.7404
之長短	-10.7404
兩形之	-10.7405
日食分秒	-10.7405
上下兩	-10.7406
巳庚	-10.7407
萬三千三百	-10.7409
不以	-10.7412
為十二	-10.7412
又論曰	-10.7413
互相為比之比例	-10.7414
午甲	-10.7415
三十七度	-10.7415
二二九	-10.7415
昏中	-10.7417
甲丙乙丁	-10.7417
三百四十三	-10.7418
一尺六寸	-10.7421
所躔	-10.7421
五之一	-10.7422
更之	-10.7428
正月甲子朔	-10.7429
於右	-10.743
四線	-10.7435
庸	-10.744
於本	-10.7444
所多	-10.745
若干度分	-10.745
其一為	-10.745
用三率法	-10.7454
即可	-10.7454
距地心之	-10.7455
春分後	-10.7457
萬七千二百	-10.7459
丁丑朔	-10.746
己丑朔	-10.7466
之緯	-10.7468
祐	-10.7469
米價	-10.7469
日酉正二刻	-10.7469
三十八度	-10.7471
萬四千五百	-10.7471
減數	-10.7472
十步	-10.7474
與前同	-10.7474
減實	-10.7474
甲卯	-10.7476
驗之	-10.7482
平引	-10.7484
其說	-10.7486
立一	-10.7488
加之得	-10.7491
與乙甲	-10.7492
言之則	-10.7493
絡	-10.7493
入景	-10.7493
一歲	-10.7494
五邊形	-10.7495
訪	-10.7495
從冬至	-10.7495
之共	-10.7498
韓	-10.7498
育	-10.7499
縮初盈末	-10.7499
弦自乗	-10.7499
邱	-10.75
自東而西	-10.7502
6	-10.7502
哀	-10.7502
念	-10.7502
歸之得	-10.7504
斂	-10.7505
子戊	-10.7507
分度之	-10.7507
月丁亥朔	-10.7508
三辰儀	-10.7508
斜弦	-10.7513
氣定積	-10.7515
勾也	-10.7518
氣積分	-10.7518
七十分	-10.752
為同式	-10.7521
宜用	-10.7521
總實	-10.7521
翻法	-10.7528
上中下	-10.7528
其年	-10.7529
方向	-10.7531
四段	-10.7533
十五秒	-10.7534
丈五尺	-10.7535
根既與	-10.7537
減法	-10.7538
食也	-10.7543
邊一百	-10.7545
故可以	-10.755
之正弦為二率	-10.7551
乙丁邊	-10.7558
者先	-10.7564
黄方	-10.7564
四十三分	-10.7564
又在	-10.7564
各不同	-10.7566
球徑	-10.7566
地形	-10.7568
九萬六千	-10.7568
己巳朔	-10.7569
少于	-10.757
史二月	-10.7571
兩較	-10.7576
猶未	-10.7576
恒氣	-10.7578
出入地平	-10.7581
形等	-10.7583
丈八尺	-10.7583
入於	-10.7585
與長	-10.7587
五分内一十一秒冬至	-10.7588
一十七分	-10.7589
斗八升	-10.759
見月	-10.7593
一疋	-10.7594
三十三分	-10.7597
有常	-10.7598
兩角并	-10.7601
乃於	-10.7602
過弧	-10.7603
星體	-10.7605
於日	-10.7605
尤為	-10.7607
定母	-10.7608
壬子日	-10.7608
齊同	-10.7609
黄鍾	-10.7609
同減盡	-10.7609
入地平	-10.7612
為首	-10.7618
五畝	-10.7619
三百三十六	-10.7622
三分内一十一秒冬至	-10.7625
第十一	-10.7632
為腰	-10.7632
十二月朔	-10.7634
第三率	-10.7635
見前	-10.7636
勾自乘	-10.7637
二分内二十一秒冬至	-10.7638
兩處	-10.7639
八十秒	-10.764
一十八秒	-10.7641
又依	-10.7642
正月乙巳朔	-10.7643
約法	-10.7644
地靣	-10.7644
者蓋	-10.7646
船數	-10.7646
内帶	-10.7648
倍之即	-10.7652
米一石	-10.7654
望日	-10.7655
亦各	-10.7662
求乙角	-10.7667
六萬四千	-10.767
亦必等	-10.767
第十二	-10.7673
十二根	-10.7674
傳曰	-10.7675
不能盡	-10.7675
股幂	-10.7676
旬	-10.7677
距食甚之	-10.7683
即定	-10.7685
為後	-10.7685
禁	-10.7687
以御	-10.7692
其在	-10.7692
數乘	-10.7693
第一率	-10.7694
栗	-10.7694
㳺	-10.7694
初虧真時	-10.7695
衣	-10.7696
三里	-10.7697
日未初三刻	-10.7698
皆非	-10.7699
不能成	-10.7699
績	-10.77
以合原數也	-10.77
賈	-10.7701
崑崙	-10.7701
二萬八千	-10.7702
北行	-10.7703
覩	-10.7703
卯正三刻	-10.7704
盈初縮末	-10.7704
剛	-10.7705
杜注	-10.7705
開三乘方	-10.7706
倶	-10.7706
4	-10.7706
其髙	-10.7706
送	-10.7706
兑	-10.7708
淡	-10.7709
螺旋	-10.7709
律呂	-10.771
氣汎積	-10.771
丁卯日	-10.7711
製造	-10.7712
七千三百	-10.7712
游移	-10.7712
朔後	-10.7716
列表	-10.7716
未免	-10.7721
法凡	-10.7722
分一十七秒	-10.7722
閏二月	-10.7723
次均輪	-10.7724
為大差	-10.7726
又減	-10.7726
五百九十	-10.7727
與丙己	-10.7727
増題	-10.7729
皆是	-10.773
八千一百	-10.773
太强	-10.7731
暦法	-10.7732
與子	-10.7734
算七百	-10.7736
至壬	-10.7739
入之	-10.7739
定星	-10.774
實有	-10.7741
四十六度	-10.7741
午子	-10.7741
掩日	-10.7742
金環	-10.7744
有閏	-10.7744
土圭	-10.7744
得一百一十	-10.7745
每户	-10.7746
一百八	-10.7747
第三次	-10.775
一百一十九	-10.775
年三月	-10.775
月庚戌朔	-10.7758
弧即	-10.7759
分四十四秒	-10.7761
辛丑朔	-10.7764
黄道緯度	-10.7769
一尺一寸	-10.7769
也論	-10.777
得一十五	-10.777
五分之二	-10.7774
聖明	-10.7774
為月	-10.7774
十五分内一秒冬至	-10.7776
七百九十	-10.7777
推筭	-10.7778
逆推	-10.7781
太陰距	-10.7782
乙未朔	-10.7786
厚角	-10.7787
線即成	-10.7787
十六步	-10.779
諸方	-10.7791
子辛	-10.7791
偏南	-10.7792
列實	-10.7794
度分秒	-10.7794
修厯	-10.7795
三箇	-10.7795
為極	-10.7796
厯象	-10.7796
亦未	-10.7797
視經度	-10.78
十六秒	-10.78
圜面積	-10.7801
地平經度	-10.7801
每嵗	-10.7802
于時	-10.7803
日實度	-10.7806
庚辛壬	-10.7806
五根	-10.7806
第二率	-10.7807
正月壬辰朔十一月	-10.7811
之重數	-10.7812
以法	-10.7815
卷一	-10.7816
前測	-10.7816
考驗	-10.7817
之單位	-10.7821
過極	-10.7823
十四分内二十一秒冬至	-10.7823
在其中	-10.7827
限東	-10.783
可考	-10.783
之系	-10.7831
法于	-10.7831
欲得	-10.7834
欽此欽遵	-10.7837
外有	-10.7838
得五百	-10.784
分一十秒	-10.7844
為鋭角	-10.7845
句股弦	-10.7846
第三測	-10.785
四曰	-10.7851
夜刻	-10.7855
七錢	-10.7856
秒為	-10.786
為白道	-10.787
昭公	-10.787
三三三	-10.787
此圖	-10.7872
講	-10.7874
月十四日	-10.7877
太陽經度	-10.7877
北辰	-10.7878
本色	-10.7879
一定	-10.7886
可以知	-10.7887
有法	-10.7888
斛法	-10.789
從廉	-10.7891
株	-10.7894
中限	-10.7897
骨	-10.7897
二分内四十一秒冬至	-10.7899
恆	-10.7899
與丙甲	-10.79
己午	-10.79
丞	-10.7902
賣	-10.7904
一百三十二	-10.7905
擊	-10.7908
桓	-10.7909
為一根之數卽	-10.7909
百億	-10.7909
昏旦	-10.791
禹	-10.791
淳風	-10.791
祖冲之	-10.7911
數即	-10.7911
談	-10.7911
晨分	-10.7912
除積	-10.7913
冠	-10.7914
奥	-10.7914
7	-10.7914
又何	-10.7916
充	-10.7918
萬九千五百	-10.7919
嚮	-10.7919
其各	-10.792
周天三百六十度	-10.7921
攝	-10.7922
二萬七千	-10.7922
視距度	-10.7925
萬八千三百	-10.7925
失閏	-10.7926
與實	-10.7932
相消	-10.7934
星度	-10.7941
里餘	-10.7941
大雪	-10.7941
以高乘之	-10.7945
正方體之	-10.7949
丁戊為	-10.795
一萬九千	-10.7951
□□□□	-10.7951
矢度	-10.7953
文公	-10.7953
實首	-10.7958
唐書	-10.7959
長方面積	-10.796
使其	-10.7961
與底	-10.7963
四百三十	-10.7964
便於	-10.7965
運動	-10.7968
者所以	-10.7969
立成表	-10.7969
設數	-10.797
相掩	-10.7972
一一二	-10.798
形為	-10.7983
以矢	-10.7984
當於	-10.7984
左傳	-10.7984
如所求	-10.7985
在小輪	-10.7991
三分内五十一秒冬至	-10.7991
根為	-10.7993
線平行	-10.7993
六十日	-10.8
不滿法	-10.8001
半城徑	-10.8002
法亦	-10.8003
得四十八	-10.8004
兩心相距	-10.8004
丙甲丁	-10.8009
日辰	-10.8012
地盤	-10.8012
内切	-10.8012
為次	-10.8014
一十五日	-10.8016
石之	-10.8017
一閏	-10.8018
相似而	-10.8018
若欲	-10.8019
為圓	-10.802
正月乙丑朔	-10.8023
第一圖	-10.8024
件	-10.8025
相比例	-10.8026
次形之	-10.8028
行率	-10.8029
小立方	-10.8029
弧三角形	-10.8029
二萬六千	-10.8033
四千二百	-10.8033
法先以	-10.8034
諸線	-10.804
鶉火宫	-10.8044
半邊	-10.8049
各限	-10.805
晝刻	-10.8051
為小分	-10.8053
丙弧	-10.8056
兩食	-10.8056
試之	-10.8058
雖然	-10.806
相距度	-10.8065
可得而	-10.8065
下周	-10.8066
以本	-10.8069
定限	-10.807
與乙庚	-10.8072
莫不	-10.8074
之體積	-10.8074
年八月	-10.8075
正弦與	-10.8076
未角	-10.8077
嵗餘	-10.8077
順數	-10.8078
為夏至	-10.8081
為一百	-10.8081
地平之	-10.8082
五乗	-10.8084
霜降	-10.8086
與己庚	-10.8087
施行	-10.8088
以句	-10.8088
亦不能	-10.8088
三十九日	-10.8088
之距度	-10.8089
分一十三秒	-10.8089
立方與	-10.8089
正方角	-10.8089
一百九十六	-10.8089
一百分	-10.809
平朢	-10.8091
六千五百	-10.8093
一百五	-10.8094
爽	-10.8096
而得其	-10.8099
寡	-10.8101
恒星之	-10.8104
閏五月	-10.8105
步以	-10.8107
多故	-10.8108
一弧	-10.8108
求角	-10.8111
二十八年	-10.8112
次引	-10.8113
不書	-10.8113
腹	-10.8113
為引數	-10.8113
三千三百	-10.8114
洪	-10.8114
刻强	-10.8114
測月	-10.8115
天有	-10.8115
誌	-10.8115
敎	-10.8116
勿菴	-10.8117
植	-10.8119
七人	-10.812
厚薄	-10.8121
如圖甲乙	-10.8121
陣	-10.8122
聊	-10.8122
黄赤大距	-10.8122
贅	-10.8123
百八十度	-10.8123
纔	-10.8124
以法命之	-10.8124
筒	-10.8126
天文算法類	-10.8126
状	-10.8127
為二率今所設之圜徑一尺二寸	-10.8127
佐	-10.8128
角則	-10.8128
減者	-10.8129
為第二	-10.8131
内池	-10.8131
種種	-10.8132
甲縣	-10.8133
晨前夜半	-10.8136
前汎時	-10.8136
順減差	-10.8137
無餘分	-10.8139
逺臣	-10.8141
本巻	-10.8145
度四十九分	-10.8145
一長方	-10.8146
出之	-10.8147
界之	-10.8152
月丙戌朔	-10.8153
十三尺	-10.8153
四分度之一	-10.8154
以外	-10.8154
第一人	-10.8156
則見	-10.8157
食甚定時	-10.816
如圖甲為	-10.8161
天左旋	-10.8162
九刻	-10.8163
為率	-10.8163
相結	-10.8165
不入食限	-10.8167
初末限	-10.8167
陽氣	-10.8168
某度	-10.817
從隅	-10.817
與全數	-10.8171
法如	-10.8173
以漸而	-10.8173
亢氐	-10.8174
數内	-10.8176
乙丙丁戊	-10.8176
萬世	-10.8177
又倍之得	-10.8181
號籌	-10.8185
四十四分	-10.8186
實時	-10.8189
各分	-10.8189
四遊	-10.819
相减餘	-10.8191
其分	-10.8195
識之	-10.8196
㑹於	-10.8196
秒以	-10.8197
北極髙度	-10.8198
方斜	-10.82
起至	-10.8201
一平均	-10.8202
徑上	-10.8203
用此法	-10.8204
戊與己	-10.8207
減于	-10.8208
反覆	-10.8213
數相乘	-10.8214
與寅	-10.8214
出銀	-10.8215
過於	-10.8223
爲多	-10.8223
較較	-10.8226
所倍之	-10.8227
各以其	-10.8228
丙角為	-10.8229
九百一十	-10.8235
比例也	-10.8242
庚子朔	-10.8249
根相等	-10.825
以知	-10.825
月晦	-10.8251
厯經	-10.8252
兩數相減餘	-10.8253
於上以	-10.8253
未到	-10.8255
清蒙	-10.8256
乙甲丙角	-10.8258
平分線	-10.8258
積步	-10.8259
一丈八尺	-10.826
常見	-10.8262
距最高	-10.8265
三十年	-10.8267
曰此	-10.8268
要之	-10.827
步半	-10.8274
與甲己	-10.8279
距午正	-10.828
則食	-10.8282
每一分	-10.8283
中比例	-10.8288
也是故	-10.8288
正居	-10.8289
立垂線	-10.829
七十五分	-10.8291
未必	-10.8293
從己	-10.8295
止於	-10.8295
均數為	-10.8296
十餘度	-10.8299
之一面	-10.8301
益實	-10.8306
度得	-10.8309
所用之	-10.8311
以上者	-10.8314
以法除之得	-10.8314
之對數	-10.8316
一十二萬	-10.8319
望時	-10.8323
斜方	-10.8324
東門	-10.8325
悖	-10.8327
赤道宿度	-10.8327
繪	-10.8327
之左右	-10.8329
度即	-10.8329
鉤	-10.833
需	-10.833
抱	-10.833
三邊求角	-10.833
䂓	-10.8332
脊	-10.8333
俾	-10.8334
郭太史	-10.8338
証	-10.8339
穆	-10.834
脱	-10.834
等積	-10.8341
積算二千八百六十	-10.8343
萬年	-10.8343
兼用	-10.8344
積算九千六百九十	-10.8344
刹那	-10.8345
院	-10.8345
丙子年戊子月	-10.8345
蕤	-10.8346
太陽太隂	-10.8346
竣	-10.8347
闚	-10.8347
積算八千八百六十	-10.8347
塞	-10.8347
進一	-10.8348
非其	-10.8349
岳	-10.835
隅因得	-10.8351
千四百	-10.8354
該部	-10.8355
天秤	-10.8356
為股弦較	-10.8358
大月	-10.8358
三因之	-10.8358
尺寸	-10.8359
百五十	-10.8361
摺	-10.8363
為半徑冪	-10.8364
負積	-10.8369
影半徑	-10.838
乾象	-10.8383
斗四升	-10.8386
然此	-10.8386
夕見	-10.8387
君子	-10.8388
半度	-10.8389
北極出地度	-10.839
所立	-10.839
甲夘	-10.8391
復圓真時	-10.8391
試將	-10.8392
往南	-10.8392
五之四	-10.8394
赤道積度	-10.8394
為所求之	-10.8395
一个	-10.8396
各幾何答曰	-10.8397
半交	-10.84
之衰數	-10.8402
甲丙邉	-10.8404
分内五十一秒冬至	-10.8404
測日	-10.8405
而盡	-10.8406
五乘	-10.8406
八百三十	-10.8407
方角	-10.8408
分即	-10.8413
難以	-10.8417
相並	-10.8417
又術	-10.8417
其容	-10.8417
之例	-10.8417
角之矢	-10.8417
直錢	-10.842
設一	-10.8421
度率	-10.8421
相直	-10.8422
於辛	-10.8422
而定	-10.8423
子庚	-10.8423
兩三角形之	-10.8424
得一十八	-10.8425
乙戊丙	-10.8426
之數則	-10.8426
尺相乘得	-10.8427
與己戊	-10.8428
東地平	-10.8429
呂	-10.843
角之外角	-10.8431
四象	-10.8432
角之餘弦	-10.8432
九星	-10.8433
重列之	-10.8434
改用	-10.8438
必相等	-10.8438
交中	-10.8438
何以知之	-10.844
以待	-10.844
四隅	-10.8443
相連比例之	-10.8446
視度	-10.8448
多六	-10.8449
兩平分	-10.845
已見	-10.845
母子	-10.8451
不定	-10.8452
而在	-10.8453
黃赤	-10.8454
邜	-10.8455
子巳	-10.8457
上長	-10.8457
縱積	-10.846
數同	-10.846
其幂	-10.8463
之南北	-10.8466
惟以	-10.8468
求食甚	-10.8468
析之	-10.8469
太極	-10.8469
天下之	-10.8475
價少	-10.8477
九斗	-10.8478
步問城徑釋曰此	-10.8478
六千四百	-10.8479
五分之三	-10.8485
大故	-10.8485
小而	-10.8487
為小股	-10.8488
甲乙二	-10.8493
故必	-10.8494
黄道北	-10.8498
之妙	-10.8502
二十丈	-10.8503
丙銀	-10.8504
三行	-10.8511
多數	-10.8513
等謹案	-10.8514
大率	-10.8514
日申初三刻	-10.8519
今所	-10.8521
戊己為	-10.8521
隅算	-10.8521
在正午	-10.8524
憲	-10.8524
重列	-10.8524
三百六	-10.8528
甲乙與乙丙	-10.8528
與弦	-10.8529
多而	-10.8532
於是以	-10.8532
兩曜	-10.8532
之邉	-10.8533
對角之	-10.8534
與壬	-10.8535
二界	-10.8536
步五分	-10.8537
先知	-10.8538
先設	-10.854
竒數	-10.854
相比之比例	-10.854
靡	-10.8541
而實	-10.8542
絶無	-10.8544
選	-10.8549
油	-10.8549
鑄	-10.855
萬一千九百	-10.8552
回回厯	-10.8554
賞	-10.8554
卵	-10.8556
陞	-10.8557
餘二十	-10.8557
月恭校上	-10.8557
毅	-10.8557
昀	-10.8558
探	-10.8558
丙戌朔	-10.856
除之亦得	-10.8561
言十	-10.8562
譏	-10.8563
距正午	-10.8563
禄	-10.8564
淨	-10.8564
食既生光	-10.8567
二十一兆六千九	-10.8567
戊子年壬子月	-10.8567
壬子年庚子月	-10.8567
積算三千	-10.8569
黄赤距度	-10.8569
吕	-10.8569
黄長弦	-10.8569
開方除之	-10.857
熈	-10.8571
罪	-10.8572
兩直角形	-10.8573
釡	-10.8574
復於	-10.8576
同故	-10.8577
始得	-10.8579
均數時差	-10.8579
葢因	-10.8579
幾何法	-10.8581
萬五千八百	-10.8581
三辰	-10.8586
行疾	-10.8591
正月戊子朔十一月	-10.8594
則非	-10.8594
卷二	-10.8596
分之一	-10.8596
張衡	-10.8596
四分内一十一秒冬至	-10.8599
以自之	-10.86
為羽	-10.86
尺為三率求得四率	-10.8601
太陰實行	-10.8604
平三角	-10.8605
經曰	-10.8614
七分内四十一秒冬至	-10.8615
和步	-10.8616
即此	-10.8618
于地	-10.8619
之比而	-10.8622
倍于	-10.8622
上法	-10.8626
日月食	-10.8627
兩腰等	-10.8629
斗六升	-10.863
與庚辛	-10.8631
秋正	-10.8631
乙丁戊	-10.8631
差而	-10.8632
冲	-10.8635
據實	-10.8635
四乘方	-10.8639
愈逺	-10.8642
視法	-10.8643
不與	-10.8646
分四十二秒	-10.8647
兩圜	-10.8654
積尺	-10.8656
兩數相乘	-10.8657
宜減	-10.866
不應	-10.866
土木	-10.8662
同用之	-10.8666
宗皇帝	-10.8667
秋七月	-10.8673
向前	-10.8674
漢史	-10.8674
合朔時	-10.8674
四千五百	-10.8674
正月己巳朔	-10.8679
角之切線	-10.8681
借衰	-10.8685
用次形	-10.8686
只是	-10.8686
與丁乙	-10.8686
一丈五尺	-10.8692
與此	-10.8696
八百七十	-10.8697
三十四度	-10.8697
月癸亥朔	-10.8698
乙從	-10.8698
其弧	-10.8699
一八二	-10.87
該臣	-10.8703
萬分	-10.8703
餘皆	-10.8705
日所行	-10.8708
當用	-10.8715
之數而	-10.8719
隅數	-10.8722
總時	-10.8723
一百六十二	-10.8729
今日	-10.8731
兩道之	-10.8732
有光	-10.8735
用其餘	-10.8735
少而	-10.8737
等邊形之毎一邊	-10.8738
每石價	-10.874
戊已	-10.8745
壬巳	-10.8748
各邉	-10.8749
五十八分	-10.875
極南	-10.8755
與丙角	-10.8755
一色	-10.8756
卯丁	-10.8756
一七五	-10.8757
七千二百	-10.8759
百三十	-10.8759
七二九	-10.876
餘一十	-10.8762
餘四	-10.8764
少數	-10.8766
尺即	-10.8767
度分也	-10.8768
晷景	-10.8769
五千八百	-10.877
丙㸃	-10.8771
秒二十微	-10.8776
所引	-10.8776
奚	-10.8777
磨	-10.8779
一萬四千	-10.8779
糲米	-10.878
之積等	-10.8781
步又	-10.8782
測量全義	-10.8783
七步	-10.8783
責	-10.8783
臆	-10.8785
第一法	-10.8785
其次	-10.8786
戍	-10.8787
甘	-10.8787
助	-10.8787
驚蟄	-10.8788
乞	-10.8789
欹球	-10.879
行天一周	-10.8791
四角尖堆	-10.8793
9	-10.8794
8	-10.8794
庚子年丙子月	-10.8795
下層	-10.8795
星距黄道線	-10.8795
冊	-10.8796
戊己線	-10.8796
五十六度	-10.8798
于辛	-10.8799
數相併得	-10.8799
歌白泥	-10.8799
榴	-10.8802
哀公	-10.8804
若夫	-10.8805
相加即	-10.8807
有空	-10.8809
盖以	-10.881
一七三	-10.8811
之濶	-10.8811
蘋果	-10.8813
月入	-10.8813
數多	-10.8813
之均數	-10.8814
半晝分	-10.8815
臣鸞曰求	-10.8818
定三	-10.8822
其意	-10.8822
刻半强	-10.8824
一分内一秒冬至應閏	-10.8824
第三數	-10.8827
異也	-10.8827
盈縮遲疾	-10.883
高差	-10.8831
黄道南	-10.8834
四分内五十一秒冬至	-10.8834
之表	-10.8835
則甲丁	-10.8835
即半徑	-10.8836
其事	-10.8841
徑求	-10.8841
即太陽	-10.8842
癸子丑	-10.8842
日月交食	-10.8842
合計	-10.8842
二十面體之	-10.8842
㕘	-10.8842
正月丁巳朔	-10.8844
之分也	-10.8848
遞次	-10.8851
年冬至	-10.8855
每日行	-10.8857
皆成	-10.8859
不甚	-10.8862
依黄道	-10.8862
宻率	-10.8863
分三十一秒	-10.8864
相從	-10.8864
七十五秒	-10.8864
定分	-10.8869
之度即	-10.8869
五十步	-10.887
分為三率得四率	-10.887
便為	-10.8877
而半之得	-10.8878
秒五十微	-10.8883
晨見	-10.8884
巳丁	-10.8884
之里數	-10.8885
直角形有	-10.8886
求初均數	-10.8889
一枚	-10.889
度一十三分	-10.8892
朔旦冬至	-10.8893
極北	-10.8893
又名	-10.8897
之數故	-10.89
半在	-10.8902
三百四十八	-10.891
測法	-10.8911
四十三度	-10.8913
時盤	-10.8914
日官	-10.8917
疾行	-10.8919
之比例同於	-10.8921
由於	-10.8921
得十六	-10.8923
兩平行線	-10.8925
數也設如有	-10.8925
幾度	-10.8926
丁㸃	-10.8926
四分内三十一秒冬至	-10.8926
七兩五錢	-10.8927
測時	-10.8928
書于	-10.8932
體之容	-10.8936
甲子年	-10.8938
形其	-10.8938
本書	-10.8939
月距	-10.8941
差度	-10.8941
任分	-10.8942
之正弦為三率求得四率為	-10.8942
二十四日	-10.8943
初次	-10.8945
一正方	-10.8945
之餘度	-10.8948
以弦	-10.8948
弧之切線	-10.8949
平年	-10.8949
一千二百五十	-10.895
在次輪	-10.895
兩段	-10.8955
五分内二十一秒冬至	-10.8955
鍾	-10.8959
出直線	-10.896
百六十	-10.8961
西國	-10.8962
底之	-10.8963
其影	-10.8963
三萬二千	-10.8963
而出	-10.8967
内作	-10.8967
月十二日	-10.8969
與食甚	-10.897
去一	-10.897
可當	-10.897
分角	-10.8971
生于	-10.8974
分内一秒冬至	-10.8977
相容	-10.8982
者盖	-10.8982
線也	-10.8983
底積	-10.8987
卷四	-10.8987
萬九千九百	-10.8991
于前	-10.8994
數也葢	-10.8996
某日	-10.8996
歩之	-10.8996
併之為	-10.8997
得弦	-10.9001
紀法	-10.9001
也惟	-10.9002
其位	-10.9002
短長	-10.9004
日躔月離	-10.9008
七因	-10.9011
六分内一秒冬至應閏	-10.9013
兄	-10.9013
距春分	-10.9014
鈎	-10.9014
二十一日	-10.9014
至甲	-10.9015
十二人	-10.9015
巨蟹	-10.9015
平立合差	-10.9015
夀	-10.9015
勾股形與	-10.9016
髀	-10.9017
采	-10.9017
爻策	-10.9017
太子	-10.9019
逾	-10.9019
下有	-10.902
綿	-10.902
級	-10.9021
優	-10.9021
晚	-10.9022
元法	-10.9022
雙魚	-10.9023
獸	-10.9023
化秒為三率求得四率為秒以分収之得	-10.9024
厯算全書卷	-10.9024
石價	-10.9024
機輪	-10.9024
向上	-10.9025
外衡	-10.9025
踵	-10.9026
莊公	-10.9026
唐虞	-10.9026
踰	-10.9027
班	-10.9028
遶	-10.9028
補作	-10.9028
發斂	-10.9029
新法算書	-10.903
圓球内容	-10.9031
謙	-10.9032
北極出地四十度	-10.9032
乙甲邊	-10.9035
二百六十四	-10.9038
腰圍	-10.9039
除之得一	-10.9041
徧乗	-10.9041
六十年	-10.9042
正月壬子朔	-10.9042
八十步	-10.9042
日月星辰	-10.9043
孟春	-10.9044
中土	-10.9047
終於	-10.9048
下田	-10.9048
大和	-10.905
表裏	-10.9052
食甚時刻	-10.9054
萬萬	-10.9054
不知步數	-10.9059
九億	-10.9061
水火	-10.9062
作一直線	-10.9062
未初	-10.9064
以此為	-10.9065
此因	-10.9067
股自乘	-10.9067
人馬	-10.9067
平行而	-10.907
遲行	-10.9071
卯初初刻	-10.9072
將此	-10.9075
萬二千七百	-10.9078
之矢	-10.9079
遼	-10.908
共母	-10.908
緯行	-10.908
日月兩	-10.9081
而變	-10.9081
右例	-10.9082
卯癸	-10.9082
今測	-10.9083
另置	-10.9085
而西	-10.9085
二十三度三十	-10.9085
為乙數	-10.9087
七萬六千	-10.9088
二百五十二	-10.9089
圓柱	-10.9089
土木二星	-10.909
相似而體勢等	-10.9091
上圖	-10.9091
無餘	-10.9096
四五二	-10.91
巳丙	-10.9102
在壬	-10.9103
不待	-10.9104
也今以	-10.9105
平均	-10.9106
一千五百二十	-10.9106
以位數	-10.9106
表髙	-10.911
三十六步	-10.9111
元形之	-10.9112
六因之得	-10.9112
正月丁未朔	-10.9114
漸移	-10.9115
也至於	-10.9116
食甚交周	-10.9118
日距限	-10.9118
總積六千三百	-10.9121
五十刻	-10.9121
作圖	-10.9122
論曰試作	-10.9123
十八人	-10.913
丑丙	-10.9131
甲乙丙丁戊	-10.9132
邊形之一邊	-10.9137
十字線	-10.9138
草中	-10.9142
者何	-10.9142
交黄道	-10.9145
五秒五十微	-10.9148
立方體	-10.915
先測	-10.915
之冪	-10.9153
滿象限	-10.9153
五十兩	-10.9155
九升	-10.9155
相較則	-10.916
生焉	-10.9162
九千六百	-10.9163
第十三	-10.9165
求丙角	-10.9167
最大者	-10.9167
依法求得	-10.9168
進而	-10.917
月己亥朔	-10.917
為冬至	-10.9171
以減於	-10.9171
常在	-10.9174
則將	-10.9177
徑為	-10.9178
初得數	-10.9179
二千五百二十	-10.918
百四十	-10.9182
之銀數	-10.9187
不差	-10.9191
赤道内外	-10.9192
太陽黄道經度	-10.9194
七十二步	-10.9203
初商次商	-10.9204
其象	-10.9205
各幾何荅曰	-10.9207
今據	-10.921
亭	-10.9213
六十四尺	-10.9214
年十二月	-10.9215
戊申朔十一月	-10.9215
折半之	-10.9217
中後	-10.9219
其經度	-10.9219
正相對	-10.922
後數	-10.9221
横直	-10.9222
小大	-10.9223
七千五百	-10.9228
如求	-10.9229
一六九	-10.9229
十四刻	-10.9231
譬	-10.9232
一十三秒	-10.9235
乗之為	-10.9236
一十一萬	-10.9237
心在	-10.9237
因知	-10.9238
乗之以	-10.9238
其平行	-10.9239
開立方法	-10.9241
紫	-10.9241
晝夜刻	-10.9245
正方面	-10.9245
㸃作	-10.9245
周率	-10.9245
九月朔	-10.9247
四十七秒	-10.925
先王	-10.9251
慮	-10.9252
長圎體	-10.9253
凑	-10.9253
堯典	-10.9254
腳	-10.9256
先論	-10.9256
瑟	-10.9258
巨	-10.9258
跡	-10.9258
全圏	-10.9259
尺書於原積	-10.9259
隙	-10.926
則雖	-10.926
𤓰	-10.9261
月一日	-10.9261
游儀	-10.9262
何承天	-10.9263
次商之	-10.9264
實用	-10.9265
提要	-10.9265
台	-10.9266
慎	-10.9266
喻	-10.9266
撫	-10.9266
閲二百十六期積七萬八千八百八十	-10.9267
蓍	-10.9267
乙戊丁	-10.9268
八之一	-10.9269
四直角	-10.9269
六千九百	-10.9269
罅	-10.927
溢	-10.927
之數即	-10.927
套	-10.9271
四分内一秒冬至應閏	-10.9272
為徵	-10.9272
圭表	-10.9273
較也	-10.9275
黄平限	-10.9275
五萬四千	-10.9278
下式	-10.9278
遊表	-10.9279
非一	-10.9279
行過	-10.9279
一百萬	-10.9281
仲冬	-10.9284
二兩五錢	-10.9285
開方而得	-10.9286
十二刻	-10.9286
至癸	-10.9286
一千一百五十	-10.9289
之號	-10.9289
卷三	-10.9293
欽若	-10.9293
層數	-10.9295
云我	-10.9297
此形	-10.9298
偶數	-10.9299
可得其	-10.93
所得銀數	-10.9303
二形	-10.9304
與甲壬	-10.9306
六十三分	-10.9309
萬四千九百	-10.9312
九萬里	-10.9313
餘句	-10.9314
從之	-10.9317
二十七年	-10.9318
相接	-10.932
娵訾宫	-10.9321
數少	-10.9321
寅癸	-10.9322
長亷法	-10.9324
平方積	-10.9327
四卷	-10.9328
向下	-10.9328
也言	-10.9331
乙角正弦	-10.9332
甚微	-10.9337
望策	-10.9337
二十三年	-10.9338
漸次	-10.9338
弦望	-10.9339
二百四十兩	-10.9342
先於	-10.9343
戌亥	-10.9344
遍乗上	-10.9345
卷中	-10.9349
三代	-10.935
三角形其	-10.9351
次於	-10.9352
密率	-10.9353
界度	-10.9356
有丁角	-10.9356
則亦	-10.9357
臺官	-10.9359
而見	-10.9359
正月丙辰朔	-10.936
相加共得	-10.936
更㸃	-10.9362
遍乗下	-10.9369
一系	-10.9375
所得四率	-10.9378
解之	-10.9381
六倍	-10.9382
大陽	-10.9382
冬至在	-10.9382
比例得	-10.9384
月食分秒	-10.9384
均角	-10.9384
十一日	-10.9387
近于	-10.9387
截去	-10.9387
兩數相加	-10.9389
癸為	-10.939
初四刻	-10.9394
然非	-10.9394
一百一十三	-10.9398
起數	-10.94
底弦	-10.9403
二百兩	-10.9404
午線	-10.9408
也推	-10.9409
平時	-10.9409
五十四度	-10.9411
辰午	-10.9412
黄米	-10.9425
但有	-10.9426
閏六月	-10.9428
求甲乙邊	-10.943
河南	-10.9431
形以	-10.9432
八百六十	-10.9432
上加	-10.9433
丈三尺	-10.9433
在天頂	-10.9433
十斤	-10.9433
引出	-10.9438
本宫	-10.9438
股自乗	-10.9438
某宿	-10.9441
句實	-10.9441
逓加	-10.9444
五年正月	-10.9445
句弦	-10.9448
俱與	-10.9449
何故	-10.9449
閏九月	-10.9449
何從	-10.9453
甲丙弦	-10.9456
兩頭	-10.9457
二分半	-10.9457
正交後	-10.9457
過九十度	-10.9458
三乘	-10.9459
西説	-10.9459
次商數	-10.9462
居其	-10.9466
得一千二百	-10.9467
印	-10.9469
爲少	-10.9469
拘	-10.947
他形	-10.9471
故加	-10.9472
甲申朔	-10.9473
心中	-10.9474
全數十萬	-10.9475
弧正弦	-10.9479
巳正	-10.9479
若先有	-10.9479
餘年	-10.948
三等邊形	-10.9482
經度差	-10.9486
前條	-10.9486
空中	-10.9486
今將	-10.9489
之理也	-10.9491
虎	-10.9492
貨	-10.9492
之右	-10.9492
兩圜分	-10.9493
底長	-10.9493
又以初商之	-10.9494
九十六尺	-10.9495
兊	-10.9495
判	-10.9496
邦	-10.9497
晰	-10.9501
瞻	-10.9502
銷	-10.9502
上取	-10.9502
歳餘	-10.9503
爾雅	-10.9503
遮	-10.9504
為對所求之角其正弦	-10.9506
丘	-10.9506
浸	-10.9506
亞	-10.9506
蕤賔	-10.9507
荒	-10.9507
太陰平行	-10.9507
本天心距地數	-10.9508
■	-10.9508
于黄道	-10.9508
酉戌	-10.9508
之正切線檢表得	-10.9509
核	-10.951
遣	-10.951
中法	-10.9511
吉凶	-10.9511
紅	-10.9512
遍乘	-10.9512
出没	-10.9512
堪	-10.9514
初啇	-10.9514
用事	-10.9515
學習	-10.9516
百尺	-10.9516
四分之	-10.9517
火星在	-10.9519
極弦	-10.9519
甚矣	-10.9522
相乘得數	-10.9523
正初刻	-10.9523
小輪上	-10.9524
三事和	-10.9525
圓心	-10.9528
三歸	-10.9528
恆星	-10.9528
○○/○○○)	-10.9531
名之	-10.9531
千百	-10.9534
比例四率	-10.9534
即前	-10.9534
則否	-10.9537
各線	-10.9538
物力	-10.9541
向後	-10.9541
角宿	-10.9542
也何也	-10.9544
復用	-10.9546
乙㸃	-10.9547
十刻	-10.9547
也問	-10.9548
若干日	-10.9549
不及步	-10.955
日南至	-10.9551
地方	-10.9552
六根	-10.9552
十等邊	-10.9554
每加一	-10.9554
此言	-10.9559
丁乙邉	-10.956
一八九	-10.956
非是	-10.9561
角俱	-10.9563
數及	-10.9565
本部	-10.9566
漢書	-10.9567
角亦等	-10.9567
辛㸃	-10.9568
心戊	-10.957
影差	-10.957
一丈三尺	-10.9571
一百兩	-10.9571
伏見行	-10.9573
寅正二刻	-10.9577
居中	-10.9578
徑也	-10.9582
鶉首宫	-10.9584
五十七度	-10.9586
測太陽	-10.9586
象限弧	-10.9594
斜角	-10.9595
再加之比例	-10.9595
甲戊己	-10.96
實距	-10.9603
每邊一尺二寸	-10.9605
其衝	-10.9606
者自	-10.9612
二五四	-10.9614
與己丁	-10.9616
宋史	-10.9616
同在	-10.9617
子在位	-10.9617
丙數	-10.9619
丙外角	-10.9619
隨天	-10.9621
一十六尺	-10.9622
加較	-10.9625
除之得數	-10.9627
月三十日	-10.9629
不須	-10.963
籌之	-10.9631
四周	-10.9632
往東	-10.9635
同在一	-10.9636
最髙在	-10.9636
直線上	-10.9637
/○)	-10.9638
邉形	-10.9642
等是	-10.9642
内寄	-10.9642
日軌髙	-10.9642
相與	-10.9643
在庚	-10.9644
則從	-10.9644
歲星	-10.9644
少半	-10.9646
舊術	-10.9648
三千八百	-10.9648
千五百	-10.9652
今按	-10.9654
日子正後	-10.9656
從地心	-10.9657
一十八分	-10.966
滿法	-10.9662
後行	-10.9669
步只云	-10.9676
必過	-10.9677
一百零五	-10.9677
弦筭	-10.9677
原列	-10.9681
為乙丁	-10.9685
變宮	-10.9686
以紀	-10.9687
大火宫	-10.9688
其率	-10.9688
史四月	-10.969
夏四月	-10.969
與後	-10.9695
自乙	-10.9697
若有	-10.9698
宫次	-10.9699
並與	-10.9699
月距地	-10.97
立方根	-10.9701
甲戊丙	-10.9701
五次	-10.9706
任取一	-10.9711
為正弦得	-10.9712
弧之度	-10.9712
宿曜經	-10.9714
總計	-10.9716
異號	-10.9717
形求	-10.9717
天樞	-10.9718
餘股	-10.9722
時刻分秒	-10.9722
章歲	-10.9725
戊心	-10.9727
飯	-10.9729
一百四十四尺	-10.9729
太陽之行	-10.973
即各得	-10.973
内徑	-10.9733
度五十八分	-10.9733
兩法	-10.9735
遍	-10.9735
復圓用時	-10.9736
辰為	-10.9738
内少	-10.9739
以從	-10.9739
属	-10.9739
故下紀	-10.974
所向	-10.9741
一分内二十一秒冬至	-10.9742
則所餘	-10.9744
粒	-10.9744
十數	-10.9744
括	-10.9745
更置	-10.9745
綴	-10.9745
自丙至	-10.9747
逮	-10.9747
日有食之	-10.9748
自古	-10.9749
襲	-10.9751
午庚	-10.9751
肖	-10.9753
得七十二	-10.9753
戊乙丙	-10.9754
柔	-10.9755
減半	-10.9756
舌	-10.9756
决	-10.9757
廉三長廉一小隅面積共得	-10.9757
時分秒	-10.9757
決	-10.9757
葉	-10.9757
蘇	-10.9757
乾隆	-10.9758
徑與	-10.9758
擔	-10.9758
霧	-10.9759
竭	-10.976
霜	-10.976
乙己丙	-10.9761
一千四百六十一	-10.9761
三百一十五	-10.9761
疎密	-10.9761
任用	-10.9763
皆然	-10.9763
緩	-10.9763
衞	-10.9763
交常度	-10.9764
之深	-10.9765
亦即為	-10.9767
宫度分秒	-10.9768
共多	-10.9768
毎度	-10.9773
各官	-10.9774
號為加	-10.9774
萬六千二百	-10.9774
十一秒	-10.9775
甲已	-10.9776
壬戌朔	-10.9777
線之比例	-10.9778
兩表相距	-10.978
西儒	-10.9781
乙丁丙角	-10.9781
求黄道	-10.9781
為實倍	-10.9782
躔離	-10.9782
弦和	-10.9785
各㡬何	-10.9785
二徑折半	-10.9786
者無	-10.9787
日月星	-10.9788
方亷	-10.9791
舉其	-10.9792
求弦	-10.9792
不改	-10.9792
各種	-10.9793
則謂之	-10.9795
界所作	-10.9797
六錢	-10.98
四歸	-10.9801
法首	-10.9802
其切線	-10.9803
欽此	-10.9803
十二面體之	-10.9804
為初	-10.9805
二弧	-10.9811
餘弦與	-10.9813
五等邊	-10.9814
在局	-10.9814
地平圏	-10.9814
三長廉	-10.9816
不正	-10.982
九百五十	-10.9822
邊之正弦	-10.9824
次依	-10.9824
䝉	-10.9826
十分内三十一秒冬至	-10.9828
五十九度	-10.9829
相割	-10.9829
一蔀	-10.9829
交周度	-10.9834
二二五	-10.9834
之正弦若	-10.9836
求得四率	-10.9837
五毫	-10.9839
别立	-10.984
之制	-10.984
是則	-10.9841
之數其	-10.9841
股圓差	-10.9844
先作	-10.9845
廿七	-10.9848
分體線	-10.9849
每一面	-10.9849
半嵗周	-10.985
周嵗	-10.9851
兩兩	-10.9852
甲戊為	-10.9854
其後	-10.9854
不見食	-10.9857
大畧	-10.9858
二長方	-10.9859
與戊庚	-10.9859
權線	-10.9861
加五	-10.9861
甲申朔十一月	-10.9866
戊丑	-10.9868
半弧	-10.9869
共銀數	-10.987
度一十四分	-10.9872
石五斗	-10.9874
甲與丙	-10.9874
一分五十秒	-10.9875
一三五	-10.9876
子未	-10.9876
為晝	-10.9877
定用	-10.9878
之四倍	-10.9881
本日太陽	-10.9885
行者	-10.9886
半徑線	-10.9889
密合	-10.989
虚差	-10.989
七三五	-10.9892
蔡氏	-10.9893
九道	-10.9897
為陽	-10.9897
二分内一十一秒冬至	-10.99
逺而	-10.9901
再用	-10.9901
蓋天	-10.9902
亷隅共	-10.9903
用表之法以	-10.9905
去極度	-10.9906
星紀宫	-10.9906
下袤	-10.9907
萬九千八百	-10.9908
甲乙丙圜	-10.9909
乘之爲	-10.9911
其名	-10.9914
丁數	-10.9917
併得	-10.9918
差以	-10.9919
與子丑	-10.9924
問每	-10.9924
二秒三十微	-10.9924
各置	-10.9928
月策	-10.9934
石八斗	-10.9937
所作之	-10.9938
午丑	-10.9939
大明厯	-10.9941
寅庚	-10.9943
得三十二	-10.9947
二疋	-10.9948
冬至日躔	-10.9948
癸子丑寅	-10.9949
然以	-10.995
萬一千二百	-10.9955
成甲	-10.9958
得七十	-10.9958
即圜内容	-10.9958
目視	-10.9958
所借	-10.9962
通閏	-10.9964
十四秒	-10.9965
也以此	-10.9965
分三十七秒	-10.9965
一百五十二	-10.9966
丑初	-10.9968
算者	-10.997
對衝	-10.997
北極距天頂	-10.997
扁	-10.9971
改商	-10.998
加四	-10.998
相乗得數	-10.998
九等邊形之	-10.9983
未定	-10.9986
不成	-10.9989
未詳	-10.999
也何則	-10.9992
七卷	-10.9992
減併	-10.9995
官生	-10.9996
便以	-10.9997
在内	-10.9998
爵	-10.9999
一星曰	-11
臣鸞曰	-11.0006
迭	-11.0006
欽定四庫全書厯算全書卷	-11.0006
變徵	-11.0007
洛	-11.0007
朓	-11.0008
㝛	-11.0009
天蝎	-11.001
輒	-11.0011
漸大	-11.0011
涉	-11.0011
饅首	-11.0012
其所以然	-11.0012
誕	-11.0014
升度時差	-11.0015
展轉	-11.0015
黄廣弦	-11.0016
三十斤	-11.0016
為三分	-11.0017
草曰立天元一為	-11.0018
等面	-11.0018
仲春	-11.002
比原	-11.002
釜	-11.0021
奪	-11.0023
恭進	-11.0025
輔臣	-11.0029
九九八	-11.0029
均分	-11.0031
丈六尺	-11.0031
子丑寅	-11.0038
萬八千九百	-11.004
六邊	-11.0041
三十六萬	-11.0042
其比例為	-11.0043
魏史	-11.0044
二行差	-11.0047
立天元	-11.0049
内子	-11.0049
金牛	-11.0049
亦必為	-11.005
亦宜	-11.0051
上田	-11.0053
得一百五十	-11.0056
所值	-11.0057
徴之	-11.006
體形	-11.0062
過冬至	-11.0062
遲疾厯	-11.0065
圏内	-11.0065
横量	-11.0066
原形	-11.0066
閏正月	-11.0066
三家	-11.0067
甲乙與丙丁	-11.0071
在辛	-11.0073
多三根	-11.0074
史稱	-11.0075
為隅法併	-11.0077
者加	-11.0079
外又	-11.0081
一分内一十一秒冬至	-11.0082
如上法	-11.0084
時有	-11.0085
為己	-11.0085
三十六兩	-11.0088
極近	-11.0092
之兩端	-11.0092
第十五	-11.0098
尺六寸	-11.0098
甲丙乙角	-11.0109
斷比例	-11.0109
度零三分	-11.0111
與乙己	-11.0111
月癸夘朔	-11.0116
五乘方	-11.0117
鶉尾宫	-11.0118
則太陽	-11.0118
又或	-11.0119
得太隂	-11.0122
家之	-11.0123
與丙辛	-11.0124
乃可	-11.0125
廿九	-11.0125
平行即	-11.0126
星象	-11.0126
可定	-11.0129
四百三十二	-11.013
紀月	-11.013
上年	-11.013
初宮	-11.0132
三十四分	-11.0132
等角形	-11.0138
至期	-11.0138
輻	-11.0138
為帶縱	-11.0139
不惟	-11.0141
乙卯日	-11.0143
度者	-11.0143
得若干	-11.0144
北至	-11.0144
星晷	-11.0146
亦必相等	-11.0148
與否	-11.0148
泛率	-11.0148
得一百四十	-11.0151
少故	-11.0152
圓燈	-11.0152
最中	-11.0153
步與左相消得	-11.0155
目力	-11.0155
本方	-11.0156
前所得	-11.0158
維乘	-11.0158
一直角	-11.0159
前來	-11.016
一秒四十微	-11.0161
按多	-11.0168
六分之五	-11.0169
一圖	-11.017
測影	-11.017
其大小	-11.0171
一於左上為法置一	-11.0171
歴書	-11.018
算數	-11.0181
又四之一	-11.0182
朔率	-11.0184
分三釐	-11.0185
不但	-11.0185
四錢	-11.0187
五曰	-11.0188
積二千	-11.0188
却以	-11.0189
左右各	-11.0189
對弧餘弦	-11.0191
而食	-11.0194
每期三百六十五日二時七刻	-11.0194
亦不等	-11.0198
紀元	-11.0201
一分内四十一秒冬至	-11.0204
建星	-11.0204
六十里	-11.0206
折中	-11.0208
失行	-11.0211
半强	-11.0212
酉中	-11.0214
亦小	-11.0215
同髙	-11.0217
推求	-11.022
増一	-11.0221
□○□	-11.0221
算家	-11.0223
近世	-11.0224
一十二步	-11.0225
愈近	-11.0225
云云	-11.0226
一千二百八十	-11.0226
周行	-11.0229
同經	-11.0229
一四四	-11.023
數求	-11.0231
之二倍	-11.0231
千分	-11.0231
四萬四千	-11.0232
十二歩	-11.0237
日行分	-11.0238
建丑	-11.0238
侵	-11.0238
兩个	-11.0239
荅	-11.0241
臣局	-11.0244
二十五刻	-11.0244
定表	-11.0245
交分	-11.0247
復置	-11.025
奏聞	-11.025
上兩	-11.0252
十分為一率	-11.0256
梅	-11.026
北極下	-11.0261
以十六	-11.0261
防	-11.0262
後來	-11.0263
太陽髙弧	-11.0263
切綫	-11.0265
嵗輪上	-11.0265
鼔	-11.0265
七錢五分	-11.0266
卯巳	-11.0267
含	-11.0267
寅子	-11.0267
戌初	-11.0268
酉正二刻	-11.0269
五九三	-11.027
輩	-11.027
䑓	-11.0271
偏北	-11.0271
畔	-11.0272
誣	-11.0272
炎	-11.0272
宰	-11.0273
疎宻	-11.0275
夲	-11.0276
并徑	-11.0277
欵	-11.0277
頓	-11.0278
察其所對之	-11.0278
茍	-11.0279
汝	-11.0279
與兩直角等	-11.0279
歛	-11.028
五行志	-11.028
港	-11.0281
湖	-11.0282
為厯元	-11.0283
朞	-11.0283
歴代	-11.0283
也此法葢因	-11.0284
榮	-11.0285
之比又	-11.0285
五行之	-11.0285
六合儀	-11.0285
黄赤距緯	-11.0286
鑒	-11.0286
高與闊	-11.0287
大綂	-11.0287
次取	-11.0288
以本日	-11.0289
織女	-11.0289
常法義曰	-11.0291
此問	-11.0292
右一條	-11.0292
一十二秒	-11.0292
已經	-11.0294
迎	-11.0298
時差分	-11.0302
三率法	-11.0303
為近	-11.0304
測逺	-11.0306
丙申朔十一月	-11.0308
此是	-11.0308
正方積	-11.0308
與甲等	-11.0309
小形之	-11.0311
一百六十九	-11.0314
等故以	-11.0315
不逺	-11.0317
分角線	-11.0323
試觀	-11.0323
倍其	-11.0324
二分之	-11.0324
四十八尺	-11.0325
四因之	-11.0326
不同也	-11.0327
除之為	-11.0327
極而	-11.0328
太陰經度	-11.033
實之	-11.0331
弧界	-11.0331
四斗	-11.0332
四十八秒	-11.0336
之所以	-11.0337
三眞數	-11.0339
問曰	-11.034
皆自	-11.034
度一十八分	-11.0341
永和	-11.0342
午位	-11.0347
少强	-11.0351
丙縣	-11.0352
用時東西差	-11.0353
二三四	-11.0354
六億	-11.0354
次得數	-11.0355
其較為	-11.0358
萬九千七百	-11.036
異而	-11.0361
八十九日	-11.0364
考其	-11.0365
以水	-11.0365
四十八度	-11.0365
元嘉	-11.0366
各依	-11.0368
閏年	-11.037
較冪	-11.0372
變化	-11.0373
造厯	-11.0375
近則	-11.0377
表上	-11.0377
為甲衰	-11.0378
徑自乘	-11.0382
九十兩	-11.0383
步至	-11.0388
三角形面積	-11.0388
五十七分	-11.0392
三百七十八	-11.0393
三種	-11.0396
二百步	-11.0396
尚在	-11.0399
較前	-11.04
以益	-11.0406
與左相消得	-11.0407
規矩	-11.0407
不同心圏	-11.0413
為三率求得四率為	-11.0415
也如甲乙丙丁	-11.0415
所有之	-11.0418
更以	-11.0418
與全	-11.0419
一毫	-11.0419
邊較	-11.0419
為單	-11.0419
否則	-11.042
月二十九日	-11.042
二十七尺	-11.042
復得	-11.0425
六千七百	-11.0426
百九十	-11.0428
等題言	-11.0429
之數與	-11.0429
四餘	-11.0431
甲斜行	-11.0431
黄道交角	-11.0443
通數	-11.0445
而未	-11.0446
減二	-11.0446
第二法	-11.0447
與三率	-11.0448
一二三	-11.045
形之邊	-11.0452
與半周相減	-11.0455
一十八萬	-11.0455
之宿	-11.0456
五聲	-11.0458
㑹于	-11.0459
夏至之日	-11.0461
夏時	-11.0465
帝座	-11.0466
半員	-11.047
此處	-11.0472
乘之得數	-11.0476
在中距	-11.0478
萬八千五百	-11.0478
距黄道北	-11.0488
乙銀	-11.049
百千	-11.049
之經緯	-11.0493
徑數	-11.0494
午丙	-11.0495
度下	-11.0496
藝	-11.0496
丁得	-11.0498
自乗再乗得	-11.0498
之圖	-11.0499
萬五千里	-11.05
即乙丁	-11.0502
三除之得	-11.0503
地在	-11.0504
歳周	-11.0504
四百零	-11.051
前論	-11.051
月壬戌朔	-11.051
傳云	-11.0511
為相當比例四率	-11.0514
戌初初刻	-11.0514
為角	-11.0515
又倍	-11.0515
戊丁丙	-11.0516
得一萬	-11.0519
洋	-11.0519
列籌	-11.0522
即命為	-11.0524
上有	-11.0525
得三百六十五日二十四刻	-11.0526
敗	-11.0526
丈四尺	-11.0527
明和	-11.0529
理分中末	-11.053
乾坤	-11.0531
用切線	-11.0531
太陽距天頂	-11.0532
得九十	-11.0534
黄道赤經交角	-11.0534
即戊	-11.0537
位故	-11.0537
齋	-11.0538
乙斜行	-11.0538
上下廣	-11.0538
磨羯	-11.0539
寒露	-11.0539
洪武	-11.0539
英	-11.054
三十微	-11.054
雍	-11.0541
由是觀之	-11.0542
垓	-11.0542
恩	-11.0543
為下法與上法相乘除實盡	-11.0544
夘初一刻	-11.0545
秋分至春分	-11.0545
烈	-11.0545
渺	-11.0545
遡	-11.0546
丙戊丁	-11.0546
覈	-11.0546
於辰	-11.0546
諭	-11.0547
白露	-11.0547
休	-11.0547
氷	-11.0547
丁角正弦	-11.0548
丑乙	-11.0548
辛卯朔	-11.0549
天竺	-11.0549
四時之	-11.0549
懼	-11.055
兩心之差	-11.055
男	-11.055
姓	-11.0551
九錢	-11.0552
迴	-11.0552
四十九度	-11.0552
盈末厯	-11.0553
初分	-11.0553
不宜	-11.0553
恒在	-11.0553
有竒而	-11.0553
得一百六十	-11.0554
雀	-11.0554
是非	-11.0555
化秒為二率	-11.0555
故不用	-11.0557
厘	-11.0557
四十秒	-11.0557
推得是年	-11.0558
欲知其	-11.0558
三歸之	-11.056
七等邊形之	-11.0561
衆界形	-11.0562
星距日	-11.0564
二十二度三十分	-11.0564
丙丁戊己	-11.0564
司馬	-11.0569
而能	-11.057
為小差	-11.057
正月癸丑朔	-11.0571
十二斤	-11.0571
髙與闊	-11.0573
彗星	-11.0575
丑為	-11.0575
陌	-11.0576
歳實	-11.0579
子時	-11.058
于天	-11.0581
其行度	-11.0582
與半周相減餘	-11.0587
十一分内一秒冬至應閏	-11.0588
三十八分	-11.059
昏明	-11.0591
加半	-11.0592
實高	-11.0597
八百八十	-11.0598
其變	-11.0598
平視	-11.0601
行天	-11.0601
取數	-11.0602
一一五	-11.0603
日食在	-11.0604
立天元一	-11.0605
股即	-11.0607
赤道經緯	-11.0607
黄道半徑	-11.0608
引數為	-11.0611
已上者	-11.0613
中廣	-11.0614
無二	-11.0615
時時不同	-11.0621
者雖	-11.0622
癸丑朔十一月	-11.0622
第一測	-11.0623
四十八兩	-11.0625
過午	-11.0625
首末	-11.0626
同上	-11.0627
圖說	-11.0632
此乃	-11.0633
一千九百二十	-11.0635
百位	-11.0635
邊形之毎一邊為	-11.0636
已下者	-11.0636
齊之	-11.0636
丁形	-11.0637
總價	-11.0639
乃是	-11.0641
景差	-11.0642
諸國	-11.0643
五除	-11.0644
爲句	-11.0646
之比即	-11.065
晦日	-11.065
方中	-11.0652
甲乙線上	-11.0652
一升	-11.0655
面皆	-11.0655
今在	-11.0656
為二率半徑一千萬為三率求得四率為	-11.0659
水土	-11.066
而言之	-11.0661
圓之半徑	-11.0662
測器	-11.0663
零八分	-11.0665
異者	-11.0666
西史	-11.0668
為一直線	-11.067
同減餘	-11.0671
得丨	-11.0678
正線	-11.068
為太陰	-11.0684
有逺近	-11.0686
卯寅	-11.0687
二段	-11.0687
分之則	-11.069
法當	-11.0692
十倍	-11.0694
建亥	-11.0695
中差	-11.0695
使之	-11.0697
三倍之	-11.0698
半徑也	-11.0699
三分之	-11.0699
月庚辰朔	-11.0701
為二率今	-11.0704
邊弦	-11.0704
元線	-11.0704
得二百四十	-11.0706
乙角之	-11.0706
並無	-11.0706
斤為	-11.0707
尺相乗得	-11.0709
數學	-11.0715
得四千	-11.0716
第二位	-11.0716
十有五	-11.072
為最	-11.0721
能見	-11.0723
此地	-11.0724
四千四百	-11.0727
中心至	-11.0733
安置	-11.0733
五十五度	-11.0739
又倍之	-11.0741
又引	-11.0745
太陽距地	-11.0745
一層	-11.0745
乙辰	-11.0745
無緯度	-11.0748
之日分	-11.0751
定積度	-11.0752
一七六	-11.0757
天頂線	-11.0758
尖圎體	-11.0758
五因	-11.0762
誤推	-11.0762
已有	-11.0764
相減所餘	-11.0767
鬼宿	-11.0774
于地平	-11.0774
總圖	-11.0775
倍大於	-11.0777
過天頂	-11.0778
日行度	-11.078
交線	-11.0783
皆相等	-11.0786
從春分	-11.0788
日行率	-11.0789
兩勾股形	-11.079
高弧交角	-11.079
遲厯	-11.0791
前商	-11.0793
三千七百	-11.0794
為較	-11.0794
戎	-11.0795
翻	-11.0795
為初商積	-11.0796
糴	-11.0796
次輪周	-11.0797
者當	-11.0798
在於	-11.0798
茫	-11.0799
八十二秒	-11.0802
七八五	-11.0804
二乗	-11.0806
丙與乙	-11.0807
五十秒	-11.0808
刻數	-11.0809
十億	-11.0809
形而	-11.0809
相減即得	-11.081
所多之	-11.0811
甲角之正弦	-11.0811
輯	-11.0812
極至交圏	-11.0813
一百七十八	-11.0813
眀	-11.0815
村	-11.0815
白虎	-11.0816
嶽	-11.0816
九秒一十微	-11.0816
杜	-11.0817
宅	-11.0817
暇	-11.0817
象限九十度	-11.0817
癸寅	-11.0818
更正	-11.0819
變率	-11.0819
臘	-11.082
宇	-11.082
願	-11.082
偽	-11.082
患	-11.0821
劉歆	-11.0821
内容渾圓	-11.0823
正升	-11.0824
餘切線	-11.0825
月自行	-11.0825
丑宫	-11.0825
洪範	-11.0826
測恒星	-11.0826
先于	-11.0826
長比闊多	-11.0826
三分内三十一秒冬至應閏	-11.0827
峻	-11.0828
與下	-11.0831
之立方	-11.0831
逹	-11.0833
二分内三十一秒冬至應閏	-11.0834
臨期	-11.0834
一千二百九十六	-11.0834
當食不食	-11.0835
三而一	-11.0835
永短	-11.0836
太史令	-11.0836
為勾求得股	-11.0836
帛	-11.0836
赤道極	-11.0837
新增	-11.0838
伏見實行	-11.0839
儀噐	-11.084
一百三十六	-11.0841
横徑	-11.0842
新星	-11.0843
直綫	-11.0843
其所以	-11.0844
虹	-11.0844
粟米	-11.0844
甲多	-11.0845
倚壁	-11.0845
乘之為	-11.0846
段一差	-11.0849
子午規	-11.085
發光	-11.0851
為城徑	-11.0853
五十一分	-11.0853
三百六十六日	-11.0855
者去之	-11.0855
得利銀	-11.0856
出本銀	-11.0857
與小	-11.0857
諸率	-11.0858
皆依	-11.0859
處作	-11.086
底闊	-11.086
二立方	-11.0861
二章	-11.0863
小月	-11.0863
赤道小弦	-11.0866
六爻	-11.0867
環田	-11.087
第一數	-11.0874
二萬二千	-11.0874
于太陽	-11.0876
厯術	-11.0879
四升	-11.0879
皆由	-11.0881
視高	-11.0881
之人	-11.0881
參直	-11.0881
勾股相乘	-11.0882
既内分	-11.0882
七億	-11.0883
置各	-11.0883
口徑	-11.0884
其理一也	-11.0888
末行	-11.0891
列衰	-11.0891
亦能	-11.0893
矣葢	-11.0893
凡星	-11.0893
則乙	-11.0895
氣䇿	-11.0896
再開	-11.0897
丙甲邊	-11.09
内減二	-11.09
從右	-11.09
外面積	-11.09
四等	-11.0901
三萬五千	-11.0901
馬數	-11.0904
六一八	-11.0906
未正	-11.0907
一十五萬	-11.0909
各若干法以	-11.0909
分度之一	-11.091
距黄道南	-11.091
候氣	-11.0911
次以初商	-11.0912
天柱	-11.0912
新法推	-11.0923
角之餘	-11.0927
日徑	-11.0927
二十四丈	-11.093
未入	-11.093
自戊至	-11.0932
戊形	-11.0932
平立	-11.0932
角旁兩弧	-11.0937
乙縣	-11.0937
正月己酉朔	-11.0938
耳若	-11.0941
轉中	-11.0944
三平均	-11.0944
與壬辛	-11.0945
月建	-11.0946
蓋以	-11.0947
陽生	-11.0947
赤道圏	-11.0949
一日一周	-11.0952
相乗之數	-11.0952
壽星宫	-11.0953
四三二	-11.0953
餘三十	-11.0954
貞	-11.0955
丈一尺	-11.0957
正東西	-11.096
最下	-11.0964
一尺八寸	-11.0964
分野	-11.0965
一八四	-11.0967
更加	-11.0967
為大弦	-11.0969
圓面積	-11.0973
其色	-11.0974
其半徑	-11.0975
冲日	-11.0978
大句股	-11.098
為下法	-11.098
不盡之數	-11.0982
年即魏	-11.0982
戊酉	-11.0983
表杆	-11.0985
數至	-11.0985
壽星	-11.0988
同徑	-11.0988
實如法而一	-11.099
髙四尺	-11.0991
兩數相加得	-11.0991
歲餘	-11.0992
解曰此	-11.0996
八因之得	-11.0998
地平上之	-11.1003
今之	-11.1006
所造	-11.1011
為立方	-11.1011
於上又以	-11.1017
厯積年	-11.1022
第十六	-11.1022
正月庚戌朔	-11.1023
直徑	-11.1024
如丁	-11.1024
七六六	-11.1025
又等則	-11.1027
火土	-11.1028
三合	-11.1029
四海	-11.1031
樞心	-11.1031
相因	-11.1032
為明	-11.1036
平方籌	-11.1038
又次	-11.1039
三百兩	-11.1039
乎故	-11.104
三五八	-11.1044
交處	-11.1048
十二步	-11.105
當黄道	-11.1052
其所得	-11.1052
史官	-11.1054
本圖	-11.1059
必小於	-11.106
所取	-11.106
也月	-11.1061
丙未	-11.1062
從亷	-11.1064
併法	-11.1064
九九七	-11.1066
黄鐘為	-11.1067
乗積	-11.1069
離徑	-11.1073
二萬三千	-11.1075
為太陽距	-11.1075
恒為	-11.1077
一事	-11.1077
算外	-11.1078
小差勾	-11.108
解曰甲乙丙	-11.1082
二測	-11.1083
荅曰	-11.1083
二十八尺	-11.1084
再置	-11.1085
又謂	-11.1086
之比也設如	-11.1088
正割線	-11.1088
匣	-11.1092
貝	-11.1094
弩	-11.1095
揺	-11.1096
天經	-11.1097
匪	-11.1097
月視黄緯	-11.1097
豐	-11.1098
辰正	-11.1099
数	-11.1099
軒轅大星	-11.1101
貴賤	-11.1103
遊旋赤道	-11.1103
爲所求率	-11.1103
袋	-11.1104
弦與勾股和之較	-11.1104
棗	-11.1104
豕	-11.1105
箏	-11.1105
為嵗首	-11.1106
曾	-11.1106
每邊之半	-11.1106
訣	-11.1107
芻蕘	-11.1107
簡平儀	-11.1108
在午正	-11.1108
最大兩心差	-11.1108
儀象志	-11.1108
往來	-11.1109
如是則	-11.1109
寺	-11.1109
尼	-11.111
南極入地	-11.111
怪	-11.1111
二十七寸	-11.1111
滋	-11.1111
距正交	-11.1111
數乘之	-11.1112
簫	-11.1112
一萬五千	-11.1112
銜	-11.1112
星距日次引	-11.1112
慶	-11.1113
蕤賓	-11.1113
勒	-11.1113
得一十六	-11.1114
䓁	-11.1115
萬六千七百	-11.1115
元豐	-11.1116
循環	-11.1116
走	-11.1116
燥	-11.1117
弧之通弦	-11.1119
太𤣥	-11.112
度一十九分	-11.1121
刻入食限	-11.1122
年正月辛丑朔十一月	-11.1122
之論	-11.1126
得三百六十	-11.113
第二星	-11.1131
在箕	-11.1131
戚	-11.1133
減半周之餘	-11.1134
言也	-11.1134
太虚弦	-11.1135
亥甲	-11.1135
與乙丙邊	-11.1136
其甲乙	-11.1138
十八倍	-11.1139
面積與	-11.1141
填星	-11.1141
斗牛	-11.1141
半弱	-11.1142
之小分	-11.1147
三十七分	-11.1148
分圓線	-11.1148
而自	-11.1149
泰西	-11.1149
十四兩	-11.1149
减之	-11.1149
故凡	-11.1149
因有	-11.1151
補之	-11.1153
四章	-11.1154
漏刻	-11.1154
每疋	-11.1155
欲測	-11.1155
至冬至	-11.1155
萬億	-11.1157
相和折半	-11.1159
水深	-11.1159
癸亥朔	-11.116
三角體	-11.1162
股冪	-11.1162
極下	-11.1163
兩盈	-11.1166
處士	-11.1166
成數	-11.1168
本局	-11.1171
轉儀	-11.1172
下編	-11.1174
有本行	-11.1177
初三日	-11.1178
時差總	-11.118
一兩五錢	-11.118
在中	-11.1182
正月丁丑朔	-11.1184
與壬癸	-11.1187
以上皆	-11.1187
向甲	-11.1187
四歸之得	-11.1192
五分内五十一秒冬至	-11.1193
小差弦	-11.1196
六五四	-11.1196
八十四度	-11.1197
髙低	-11.1199
之殊	-11.1199
乙卯朔	-11.1201
一三角形	-11.1202
近北	-11.1202
二百八十九	-11.1203
乙丁甲	-11.1204
加滿	-11.1206
乙丙弦	-11.1207
至秋分	-11.1208
與闊	-11.1209
兩地	-11.1209
加者	-11.121
六段	-11.1212
察其	-11.1214
行故	-11.1214
中前	-11.1214
二尺四寸	-11.1221
表内	-11.1223
八十七分	-11.1224
各率	-11.1226
辰丙	-11.1231
一頭	-11.1232
應得之數	-11.1232
金球	-11.1235
二丈四尺	-11.1236
丙辰朔十一月	-11.1238
肅	-11.1238
月交二十七日	-11.1238
最大差	-11.1238
太微	-11.124
之衝	-11.1241
故減	-11.1241
其制	-11.1243
偏度	-11.1244
宫八度	-11.1244
山頂	-11.1245
庚戌朔十一月	-11.1247
滿景	-11.1248
三廣	-11.1249
三時	-11.125
元統	-11.1251
改定	-11.1251
五千三百	-11.1253
一釐	-11.1253
長於	-11.1254
甲未	-11.1254
求用時	-11.1255
可施	-11.1263
無減	-11.1264
酉初二刻	-11.1265
七十二兩	-11.1267
若言	-11.1269
七尺五寸	-11.127
此題	-11.127
不當	-11.1273
四限	-11.1273
小角	-11.1275
餘弦檢表得	-11.1275
夘正三刻	-11.1279
如甲乙丙	-11.128
爲法以	-11.1281
太隂實行	-11.1281
法而	-11.1287
若此	-11.129
半月	-11.1292
加三	-11.1294
斜行步	-11.1295
二率三率	-11.1297
六十二度	-11.13
十二石	-11.1301
正方形之	-11.1302
癸卯朔	-11.1303
須用	-11.1303
外切立方	-11.1306
之視徑	-11.1308
距元	-11.131
成書	-11.1311
全在	-11.1312
二百尺	-11.1315
從古	-11.1315
兩切線	-11.1316
其視徑	-11.1316
去北極	-11.1317
庚㸃	-11.132
赤道之下	-11.132
此四	-11.1321
二百七十二	-11.1322
即乙丙	-11.1324
形相似而體勢等	-11.1324
年天正冬至	-11.1327
大梁宫	-11.133
甲丙弧	-11.1337
一千六百二十	-11.134
無疑	-11.1342
連乘	-11.1343
一座	-11.1343
亦復	-11.1344
皆可以	-11.1346
疇	-11.1347
十五丈	-11.1348
法先求	-11.1348
一宮	-11.135
而求其	-11.1352
辰寅	-11.1352
黄道宿次	-11.1353
之度展開勿令移動次取	-11.1353
萬九千三百	-11.1354
漸少	-11.1354
丁甲丙	-11.1355
二千一百六十	-11.1356
正月丙戌朔	-11.1357
若丁戊	-11.1359
經書	-11.1359
或云	-11.1359
未合	-11.136
又少	-11.136
出線	-11.1361
以補	-11.1361
一歳	-11.1362
東出	-11.1362
推其	-11.1362
立處	-11.1363
若是	-11.1367
其緯度	-11.137
一分半	-11.1375
掩食	-11.1377
滿一周	-11.1378
七倍	-11.1378
百一十	-11.1381
為正弦	-11.1382
用正弦	-11.1384
三事	-11.1387
壘	-11.1388
者反	-11.1389
糶	-11.1391
旬周	-11.1391
所問	-11.1392
脩	-11.1393
卓	-11.1393
于日	-11.1394
獅子	-11.1394
定限行度	-11.1395
一百二十二	-11.1395
為主而	-11.1395
庚辰朔	-11.1396
驟	-11.1398
单	-11.1398
交周升度差	-11.1399
則餘	-11.14
陀	-11.14
分九十三秒	-11.14
識其	-11.14
明邢雲路撰	-11.14
騰	-11.14
知道了	-11.1401
逐宫逐度	-11.1401
數相加得	-11.1401
尉	-11.1401
于後	-11.1401
最小兩心差	-11.1402
為勾求得	-11.1402
勾股求弦	-11.1402
煖	-11.1402
勾股形為同式形故	-11.1403
該部知道	-11.1403
不失	-11.1404
吹	-11.1404
寅甲	-11.1404
寓	-11.1404
削	-11.1406
三分益一	-11.1407
揜	-11.1407
斜倚	-11.1407
分為四	-11.1408
爲弦	-11.1408
新法厯書	-11.1409
之屬	-11.1409
底方	-11.1409
各幾何法借一根為	-11.1409
庶幾	-11.1409
然後以天元	-11.141
進呈	-11.141
三百六十五日四分日之一	-11.141
璣	-11.1411
亥初	-11.1412
即金	-11.1412
樞輪	-11.1413
平行實行之差	-11.1413
刑	-11.1413
天正經朔	-11.1418
一半	-11.1418
六十九度	-11.1422
月二十八日	-11.1422
南斗	-11.1422
漸減	-11.1423
朔朢	-11.1423
交赤道	-11.1424
平堆	-11.1424
不息	-11.1425
太祖	-11.1425
渾蓋	-11.1426
七八五三九八一六	-11.1426
一九七	-11.1427
日及分	-11.1429
知厯	-11.1433
出于	-11.1433
五十寸	-11.1433
同居	-11.1435
積求邊	-11.1435
筆算	-11.1436
于壬	-11.1437
四五五	-11.1437
分零八秒	-11.1438
可據	-11.1438
得一萬五千	-11.1439
其面	-11.144
綱目無	-11.144
則所	-11.1442
頒行	-11.1443
平面形	-11.1443
弦長	-11.1443
半規	-11.1444
故無	-11.1447
追及	-11.1448
至丑	-11.1449
二十四時	-11.1449
近於	-11.1453
向乙	-11.1454
南船	-11.1454
視之則	-11.1455
矣且	-11.1459
為闊	-11.146
即同於	-11.1462
推太陽	-11.1463
丁丙戊	-11.1465
與戊辛	-11.1468
作甲丁	-11.1468
餘八	-11.1468
不離	-11.1468
三步	-11.147
先儒	-11.1471
以合	-11.1471
至午	-11.1471
南北緯度	-11.1474
兩平分之	-11.1474
地影半徑	-11.1476
一百五十步	-11.1476
體勢	-11.1478
一體	-11.1479
如丙	-11.1482
相交於	-11.1482
于子	-11.1482
句股法	-11.1484
作角	-11.1484
千二百黍	-11.1484
末均	-11.1486
餘銀	-11.1489
上下左右	-11.1489
多二根	-11.1489
㡬何法以	-11.1489
實距時	-11.149
至九十度	-11.1491
則大	-11.1495
即半	-11.1495
四十兩	-11.1498
經緯度分	-11.1501
午壬	-11.1502
未正一刻	-11.1506
較得	-11.1509
十六萬	-11.151
九十尺	-11.1513
四十八刻	-11.1514
以并	-11.1515
一寸二分	-11.1517
三百六十五度	-11.1517
下同	-11.152
線相交	-11.1521
小異	-11.1524
二十四步	-11.1525
草曰	-11.1526
句與股	-11.1526
高庳	-11.1526
平方之	-11.1528
兩價	-11.153
也乃以	-11.1531
亦可用	-11.1532
三七五	-11.1533
七一五	-11.1534
得數以	-11.1537
從庚	-11.1538
風雨	-11.1539
系凡	-11.1539
月視行	-11.1541
圏上	-11.1542
案此	-11.1542
兩籌	-11.1544
長方體形	-11.1548
午乙	-11.155
法而一	-11.155
辰子	-11.1551
𢃄食	-11.1552
原長	-11.1552
歲行	-11.1553
七十兩	-11.1555
即赤道	-11.1556
距頂	-11.1558
所換	-11.1559
變通	-11.156
二支	-11.1563
儀上	-11.1566
大差弦	-11.1572
三十五日	-11.1574
小故	-11.1576
紀年	-11.1578
為廉法	-11.158
第二測	-11.1582
分零六秒	-11.1582
法曰視	-11.1583
二百二十四	-11.1584
相傳	-11.1589
外方	-11.1589
若乙丙	-11.159
午己	-11.1593
平邊	-11.1594
若依	-11.1596
從赤道	-11.1596
為樞	-11.1598
甲己為	-11.1599
如云	-11.1599
論曰凡	-11.1601
人所見	-11.1601
之使	-11.1602
乃在	-11.1603
與月	-11.1605
梯	-11.1605
收作	-11.1607
相交處	-11.1609
分母不同	-11.1611
萬五千三百	-11.1613
此論	-11.162
恒見	-11.1623
如法乗	-11.1624
為負隅	-11.1625
弧角	-11.1626
容員	-11.1626
為法以除	-11.1631
若設	-11.1633
之正中	-11.1639
八毫	-11.164
之總數	-11.1641
之較也	-11.1641
平亷法	-11.1641
不得其	-11.1642
周官	-11.1644
線而	-11.1648
變時得	-11.1648
盈初	-11.165
初出	-11.1652
若全數與	-11.1652
與末率	-11.1653
大小差	-11.1656
一年之	-11.1658
卯乙	-11.166
正四刻	-11.1661
兩勾	-11.1662
一七二	-11.1664
左氏	-11.1666
八千八百	-11.1667
三百尺	-11.1669
西地平	-11.167
朔望時	-11.167
今有粟	-11.1672
三五五	-11.1672
六十七度	-11.1674
之理同	-11.1675
與四率	-11.1675
月初二日	-11.1676
長一丈	-11.1678
今所求	-11.1679
最為	-11.168
穀雨	-11.1681
朦朧	-11.1683
二除之得	-11.1684
與甲辛	-11.1684
形則	-11.1685
于甲乙	-11.1685
相加為	-11.1686
楮	-11.1686
三斤	-11.1689
八萬一千	-11.1693
四十一分	-11.1693
不空	-11.1694
社	-11.1695
日有竒	-11.1696
日距月最高	-11.1696
契	-11.1696
爲所有率	-11.1698
本儀	-11.1698
為四十五度	-11.1698
粺米	-11.1698
一百二十步	-11.1699
臣部	-11.17
蕩	-11.17
平逺	-11.17
外徑	-11.1702
週	-11.1702
叠	-11.1703
為腰置尺	-11.1703
年正月己夘朔十一月	-11.1704
指線	-11.1704
逕	-11.1704
兩下相較則	-11.1704
為六十度	-11.1705
二三六	-11.1705
欽定四庫全書子部六	-11.1705
蘭	-11.1705
糳米	-11.1706
為對所知之角其正弦	-11.1706
之餘弦為二率	-11.1707
圓方	-11.1708
採	-11.1708
享	-11.1708
七十六兆一	-11.1708
輙	-11.1708
=	-11.1709
慿	-11.1709
僖	-11.1709
本論	-11.1709
羅睺	-11.171
欽定四庫全書御製數理精藴下編卷	-11.1711
辰戊	-11.1711
偃	-11.1711
赤道下	-11.1712
一千二百六十	-11.1712
丁戊弧	-11.1712
刺	-11.1712
振	-11.1713
所由	-11.1714
五百里	-11.1715
歐邏巴	-11.1716
正方體之每一邊	-11.1716
隊	-11.1717
耳今	-11.1718
有百	-11.1719
日午正	-11.172
授時推是年	-11.172
其周	-11.1721
續商	-11.1722
耗米	-11.1722
也右	-11.1723
六里	-11.1724
年正月辛酉朔十一月	-11.1724
丁角為	-11.1724
暗體	-11.1726
小弓	-11.1726
戌宫	-11.1728
月己夘朔	-11.1728
夕伏	-11.173
經云	-11.173
酉未	-11.173
年正月戊辰朔十一月	-11.1732
太隂實引	-11.1733
二二四	-11.1736
生數	-11.1737
七千九百	-11.174
與甲乙等	-11.174
一分内五十一秒冬至應閏	-11.174
南京	-11.1742
邵子	-11.1743
一千三百五十	-11.1744
年前	-11.1745
三測	-11.1745
之不同	-11.1746
至寅	-11.1747
轉球	-11.1748
黃道經度	-11.1749
百步	-11.1749
四一四	-11.175
黄道高弧交角	-11.175
二千一百八十七	-11.1751
合為一線	-11.1752
長也	-11.1755
并而	-11.1757
兩和	-11.176
則不然	-11.1762
段日	-11.1762
等邊三角形	-11.1763
直立	-11.1765
廿	-11.1765
夘正一刻	-11.1765
候至	-11.1765
千二百	-11.1767
同數	-11.1767
食甚後	-11.1768
補足	-11.177
一尺七寸	-11.1771
相會	-11.1771
見大	-11.1772
九服	-11.1774
術為以	-11.1775
此二線	-11.1776
收之得	-11.1776
復自	-11.1776
取用	-11.1777
三十時	-11.178
兩句股	-11.178
兩邊等	-11.1781
一十九分	-11.1794
太隂實	-11.1794
可為	-11.1795
入厯	-11.1797
年正月戊戌朔十一月	-11.1798
九執	-11.1801
甲丁弧	-11.1801
兩邊各	-11.1805
正月乙未朔	-11.1805
己庚辛壬	-11.1806
有一定之	-11.1808
有無	-11.1809
尖方體	-11.1809
人事	-11.1811
五九八	-11.1815
萬七千七百	-11.1816
五千一百	-11.1816
重差	-11.1817
年間	-11.1817
零六分	-11.1818
分作	-11.1818
七兆	-11.1819
二限	-11.1822
易知	-11.1823
八十里	-11.1823
年正月壬戌朔十一月	-11.1824
游表	-11.1826
除也	-11.1826
只以	-11.1827
庚辛為	-11.1829
數十年	-11.183
求月	-11.183
至第	-11.183
閏在	-11.1831
求丁角	-11.1835
乃視	-11.1836
五七一	-11.1836
縱線	-11.1838
四六七	-11.1838
漸多	-11.1839
數相併	-11.1841
餘二百	-11.1841
同式形	-11.1843
又乗	-11.1843
六十四步	-11.1844
若將	-11.1845
法視	-11.1845
癸巳朔十一月	-11.1846
一八三	-11.1848
丁卯朔	-11.1848
此星	-11.1849
半年	-11.1849
兩象限	-11.1849
乙丁邉	-11.185
地度	-11.185
無疑矣	-11.1851
算也	-11.1852
太半	-11.1853
收之	-11.1855
也故曰	-11.1856
甲丙丁角	-11.1857
歩數	-11.186
毎年	-11.186
逆數	-11.1861
退合	-11.1861
丙乙為	-11.1862
四二六	-11.1863
後倣此	-11.1863
隨之	-11.1866
一百九十八	-11.1866
以復圓	-11.1867
此條	-11.1867
相乗為實	-11.1871
加三倍	-11.1872
也於是	-11.1874
求乙丙邊	-11.1878
相等乃以	-11.1878
自相乘	-11.188
即甲角	-11.1881
又半之	-11.1882
正月乙酉朔	-11.1883
各曜	-11.1884
表長	-11.1885
變異	-11.1885
為隂厯	-11.1886
九十六分	-11.1887
萬三千七百	-11.1887
二分内五十一秒冬至	-11.1887
數也此	-11.1888
九二一	-11.1889
大形之	-11.189
小半	-11.1891
根必與	-11.1893
正月丙申朔	-11.1893
得二十九日五十三刻	-11.1893
全史日至源流卷	-11.1894
餘五十	-11.1894
亦多	-11.1896
一一六	-11.1897
者在	-11.1899
五七八	-11.1899
四百尺	-11.1899
數乃以	-11.19
漸長	-11.1901
元濶	-11.1902
冬正	-11.1904
三百九十六	-11.1904
以初虧	-11.1904
十萬分之	-11.1908
積相等	-11.1909
以對	-11.1911
于赤道	-11.1911
即股	-11.1911
皆得	-11.1915
天學	-11.1916
五官	-11.1916
不移	-11.1917
則甲丙	-11.1917
為陽厯	-11.1918
二星曰	-11.1922
自冬至	-11.1922
乙形	-11.1926
得二十一	-11.1927
首卷	-11.1932
天運	-11.1934
五因之	-11.1935
法曰以	-11.1935
差至	-11.1935
天盤	-11.1937
則其餘	-11.1938
形之面積	-11.1939
八斗	-11.194
約分	-11.1941
厯議	-11.1942
按舊	-11.1944
之比例則	-11.1944
二十一年	-11.1945
四十一度	-11.1947
有遲疾	-11.1947
必皆	-11.1948
依法求	-11.1948
從丁作	-11.195
若甲丙	-11.1951
甲乙弦	-11.1953
食十分	-11.1953
股共	-11.1955
兩人	-11.1955
心丁	-11.1956
萬四千三百	-11.1956
三百零	-11.1956
二根多	-11.1958
三角錐	-11.1959
以一率	-11.1961
為隅算	-11.1961
不等者	-11.1964
八九七	-11.1965
之髙度	-11.1972
有此	-11.1975
外面	-11.1978
太陽赤道經度	-11.1978
可省	-11.1979
己形	-11.198
二十五秒	-11.1985
三萬九千	-11.1985
四十七分	-11.1986
丙乙弧	-11.1987
互用	-11.1988
寅巳	-11.1993
以滿	-11.1993
一圜	-11.1993
長圓	-11.1994
相減得較	-11.1994
與所測	-11.1998
五九九	-11.2002
每時	-11.2002
賦	-11.2003
吏	-11.2004
犬	-11.2004
納糧	-11.2004
銳角形	-11.2005
塗	-11.2006
減一餘	-11.2006
爲股	-11.2008
以三乘	-11.2008
自上而下	-11.2008
大角星	-11.2009
桓公	-11.2009
葬	-11.2009
石數	-11.201
閣	-11.201
七乗	-11.2011
未經	-11.2011
淫	-11.2011
譜	-11.2011
匏	-11.2012
勘	-11.2013
鉅	-11.2013
㸔	-11.2013
至未	-11.2014
用加減	-11.2014
帶一縦	-11.2015
利瑪竇	-11.2015
季秋	-11.2015
鮮	-11.2016
潤	-11.2016
最卑行	-11.2017
同積	-11.2017
矣但	-11.2017
仙	-11.2017
袁	-11.2017
又何以	-11.2018
兒	-11.2018
翻譯	-11.2018
仲康	-11.2019
畏	-11.202
正月乙亥朔	-11.2021
丑正	-11.2021
斜絡	-11.2021
俱倣此	-11.2021
與九十度相減餘	-11.2021
刪	-11.2021
亟	-11.2022
對距弧角	-11.2022
肩	-11.2022
對兩心視相距角	-11.2022
味	-11.2022
賔	-11.2022
半強	-11.2023
甲乙二人俱在	-11.2023
距日天最高	-11.2023
臣李天經謹題為	-11.2023
見界	-11.2024
術曰先置	-11.2024
京房	-11.2026
三百五十四日	-11.2027
兵數	-11.2028
總米	-11.2029
所切	-11.2029
四萬五千	-11.2029
如圖甲為地心	-11.203
本圏之	-11.2032
黄赤交角	-11.2032
砌	-11.2033
實如法	-11.2033
為春分	-11.2034
角俱等	-11.2034
開皇	-11.2036
而列之	-11.2037
甲乙丁丙	-11.2038
取底	-11.2038
為第三	-11.2039
相聨	-11.204
一十一日	-11.204
在最高	-11.2041
三四二	-11.2043
八千七百	-11.2043
次曰	-11.2043
其勢	-11.2044
棄之	-11.2045
紀之	-11.2045
為第一率	-11.2047
六千三百	-11.2049
三畝	-11.2052
元長	-11.2053
二人共	-11.2058
間有	-11.2058
一五三	-11.2059
太初元年	-11.2059
互異	-11.206
甚小	-11.2061
得四十二	-11.2062
剖為	-11.2063
為長方積	-11.2063
又言	-11.2065
十九兆	-11.2065
共二十	-11.2065
長八尺	-11.2068
舊説	-11.2068
為垂線	-11.2068
平方數	-11.2068
厯成	-11.2069
弦求	-11.207
十三分内三十一秒冬至應閏	-11.207
甚㣲	-11.2073
四次	-11.2075
又復	-11.2076
求日月	-11.2076
第一行	-11.2077
之舊	-11.2077
互相視	-11.2078
二系	-11.208
四分為	-11.2081
兩箇	-11.2082
之厯	-11.2082
值宿	-11.2083
縱廉	-11.2084
初候	-11.2085
銀球	-11.2086
二亷	-11.2087
以減半周得	-11.2088
徧乘	-11.2088
常數	-11.2089
故將	-11.209
黄道圏	-11.2091
七萬二千	-11.2091
七二五	-11.2092
即位	-11.2096
無誤	-11.2097
離日	-11.2104
八分内二十一秒冬至	-11.2106
厥後	-11.2107
田苗	-11.2108
日夜	-11.2109
四十九分	-11.2109
一千四百四十分	-11.211
五升	-11.211
七十三度	-11.2111
疾厯	-11.2113
四象限	-11.2114
其面積	-11.2116
八時	-11.212
不足減	-11.212
金木	-11.2122
歟曰	-11.2122
方徑	-11.2123
居子午圏	-11.2126
根本	-11.2128
三率求得四率	-11.2129
至夏至	-11.2129
加上位	-11.2129
太陽所躔	-11.213
邊等形	-11.213
得一百三十	-11.2131
己夘日	-11.2132
一十四秒	-11.2132
自丁至	-11.2135
逺者	-11.2138
第二㸃	-11.2139
戊㸃	-11.214
欽定四庫全書全史日至源流卷	-11.2144
三二四	-11.2145
三象限	-11.2145
所函	-11.2147
一百二十尺	-11.2149
日之行	-11.2152
與第二	-11.2152
六因	-11.2152
加一為	-11.2154
一平方多	-11.2155
及諸	-11.2157
兩星之	-11.2159
二平行線	-11.216
四畝	-11.2162
以備	-11.2164
等官	-11.2165
其宿	-11.2165
於癸	-11.2167
相應之	-11.2168
匀分	-11.2168
即城徑	-11.2169
冪也	-11.2172
絲一斤	-11.2172
不合者	-11.2175
不可見	-11.2177
甲外角	-11.2178
一鈍	-11.2179
卯時	-11.2179
一百四十六	-11.2179
而推	-11.2182
一萬零	-11.2182
正月庚子朔	-11.2182
七三二	-11.2185
兩平分于	-11.219
推步之	-11.2193
正南北	-11.2195
勾率	-11.2196
二百五十五	-11.2198
二乙	-11.2198
亦必與	-11.2198
與丙庚	-11.2199
當日	-11.2199
見後	-11.2201
小方形	-11.2208
二丈五尺	-11.221
二條	-11.2212
本無	-11.2212
儀之	-11.2212
今於	-11.2213
比乙	-11.2213
丁丙為	-11.2216
各取	-11.2217
内分	-11.2217
有二其一	-11.2217
地平下	-11.2218
原是	-11.222
兩方形	-11.222
二十四年	-11.222
長廉法	-11.2224
正月己丑朔	-11.2225
癸夘日	-11.2227
氣盈	-11.2229
别作	-11.223
一百三十五度	-11.2231
七宫	-11.2232
為乙衰	-11.2233
三半徑	-11.2236
萬六千里	-11.2236
廉隅共	-11.2239
五萬六千	-11.2239
之聲	-11.2242
難定	-11.2244
距天頂之度	-11.2245
度一十一分	-11.2245
六七九	-11.2247
折半即得	-11.2248
月二十六日	-11.2254
為一邉	-11.2254
而不用	-11.2255
求矢	-11.2258
指寅	-11.2258
無中氣	-11.2259
赤道緯	-11.2259
所進	-11.226
兩句股形	-11.226
二數相併	-11.2266
三十丈	-11.2267
前人	-11.2267
卯丑	-11.2269
以就	-11.2274
或俱	-11.2275
丙戊為	-11.2275
寅丙	-11.2276
觀其	-11.2276
餘徑	-11.2278
與丁庚	-11.228
形之比例	-11.228
轉周	-11.2285
曰凡	-11.2286
距心	-11.2286
二十萬	-11.2287
日食時	-11.2288
太宗	-11.2289
平道	-11.229
一分内一秒冬至史	-11.2292
八一六	-11.2292
三十二日	-11.2294
八萬四千	-11.2294
始于	-11.2295
先數	-11.2298
以聞	-11.2298
等線	-11.2298
推歩之	-11.2299
減縱	-11.23
所應	-11.2305
差多	-11.2305
原母	-11.2306
卯子	-11.2306
兩叚	-11.2307
為根	-11.2308
甲己丙	-11.231
得各	-11.2311
減定差	-11.2312
日在最高	-11.2314
重測	-11.2319
古歌曰	-11.2319
地居	-11.232
乃知	-11.2322
西歌曰	-11.2322
七閏	-11.2323
邊之較	-11.2325
為水	-11.2326
十三兩	-11.2326
闇虛	-11.2327
冶	-11.2328
址	-11.2328
諳	-11.2329
橫	-11.233
直田	-11.2331
戒	-11.2332
凶	-11.2332
閣道	-11.2334
暴	-11.2334
冰	-11.2334
欽定儀象考成卷	-11.2335
五音	-11.2335
滯	-11.2335
逺臣湯若望	-11.2336
夜望月食	-11.2336
寬	-11.2338
疆	-11.2338
瓦	-11.2339
自相	-11.2339
丹	-11.2339
渾球	-11.234
璿璣	-11.234
乙角之切線	-11.234
畣曰	-11.234
傾	-11.234
三百六十五度四分度之一	-11.234
趨	-11.2341
壯	-11.2341
婦	-11.2342
富	-11.2342
恒星赤道經緯度表	-11.2342
糧數	-11.2343
侍	-11.2344
之正切線為三率求得四率為	-11.2345
擧	-11.2345
復加	-11.2345
各若干法借一根為	-11.2345
是已	-11.2346
夜食不書	-11.2347
壊	-11.2347
吸	-11.2348
己庚為	-11.2348
奉聖㫖這	-11.2348
把	-11.2348
年正月癸酉朔十一月	-11.2348
北星	-11.2348
六千五百六十一	-11.2351
之士	-11.2352
大籌	-11.2352
西北隅	-11.2353
乙角為	-11.2353
甲酉	-11.2354
斗建	-11.2355
我皇上	-11.2355
正義曰	-11.2356
遷就	-11.2357
中心行度	-11.2358
得一十九	-11.2358
下層少	-11.2359
巳甲	-11.236
月距日實行	-11.236
最遲	-11.2362
通軌	-11.2362
單環	-11.2363
此類	-11.2364
叅直	-11.2364
同此	-11.2366
明㫖	-11.2366
五忽	-11.2366
隂氣	-11.2368
月己未朔	-11.2368
宮界	-11.237
日高	-11.237
有六	-11.2374
一百七十四	-11.2374
六位	-11.2374
十卷	-11.2376
自圜心	-11.2377
爻限	-11.238
對弧矢	-11.2382
圓束	-11.2384
之三分之一	-11.2384
與辛	-11.2386
太弱	-11.2387
氣骨	-11.2389
見幾何原本	-11.239
四種	-11.2392
東西南北差	-11.2394
六四七	-11.2394
五十五日	-11.2396
一百一十六	-11.2397
在最庳	-11.2397
甲乙丙勾股形	-11.2399
五七六	-11.24
各成	-11.24
與乙辛	-11.2402
象限内	-11.2402
五十三刻	-11.2403
横列	-11.2404
何謂	-11.2405
是八月	-11.2406
乗減	-11.2406
為例	-11.2406
八十四分	-11.2406
幾何度分	-11.2408
史閏四月	-11.2408
假數尺	-11.2409
任以	-11.241
𢃄縱	-11.241
相減之餘	-11.2413
與城相叅直	-11.2413
為直線	-11.2414
丁寅	-11.2416
太初厯	-11.2418
十三度有竒	-11.2418
一分之數	-11.2419
皆無	-11.2419
後六宫	-11.242
又二之一	-11.242
既外	-11.2425
訛作	-11.2435
四百九十九	-11.2439
上推	-11.244
此又	-11.2442
萬一千七百	-11.2443
乙亥朔十一月	-11.2444
依赤道	-11.2446
六百兩	-11.2446
角等而	-11.2451
二千萬	-11.2452
近者	-11.2455
第三行	-11.2457
於寅	-11.2458
在丑	-11.2459
五七五	-11.2461
本形之	-11.2465
必小于	-11.2465
五九七	-11.2466
詳矣	-11.2468
重天	-11.2471
而差	-11.2471
地有	-11.2472
為二十	-11.2476
次輪最近	-11.2476
貫為	-11.2476
以致	-11.2477
子卯	-11.2478
四分内一秒冬至史	-11.2479
尺書於原積之下相減餘	-11.2479
直積	-11.248
六十四寸	-11.2483
小渾圓	-11.2485
氣至	-11.2487
挨次	-11.2488
未備	-11.2492
出水	-11.2492
日月皆	-11.2493
求真時	-11.2494
正交平行	-11.2494
其他	-11.2495
春分前	-11.2497
使人	-11.2497
於午	-11.2501
土木火	-11.2502
始能	-11.2502
南北二	-11.2506
無他	-11.2507
應用	-11.2509
則可	-11.251
戊丁為	-11.2511
月與日	-11.2513
己卯朔	-11.2513
七百六十八	-11.2514
筭得	-11.2515
四里	-11.2515
更大	-11.2515
紀限	-11.2523
作十字	-11.2524
里法	-11.2525
一三六	-11.2531
四度五十八分	-11.2531
八十三度	-11.2532
正月癸巳朔	-11.2532
始有	-11.2535
為明勾	-11.2536
也置	-11.2536
廿四	-11.2537
所帶	-11.2538
扁方	-11.2538
兩分之	-11.2541
者從	-11.2541
弦與勾股較之和二十四尺	-11.2542
問其	-11.2547
約數	-11.2552
三百四十五	-11.2553
晉書	-11.2554
為星	-11.2556
戊辰朔十一月	-11.2565
一百六十一	-11.2566
體之邊	-11.257
求積法	-11.257
數倍之	-11.2571
推日食	-11.2574
徑差	-11.2577
氣候	-11.2578
一百九十五	-11.258
與乙丙平行	-11.258
小餘六	-11.2581
分之五	-11.2582
矣是	-11.2582
與甲丙等	-11.2583
為兩个	-11.2583
出一	-11.2584
法當以	-11.2586
所著	-11.2586
五十七日	-11.2588
四四四	-11.2588
在月	-11.259
絲六忽	-11.2591
一四五	-11.2591
兩分子	-11.2592
二廉	-11.2592
九根	-11.2593
所繇	-11.2593
之非	-11.2595
之視差	-11.2595
見者	-11.2596
實朔望	-11.2598
太隂半徑	-11.2598
乙酉朔十一月	-11.2601
酉初	-11.2603
月二日	-11.2604
雙差	-11.2605
形體	-11.2607
若遇	-11.2607
在朔	-11.2611
置之	-11.2612
所得者	-11.2614
三十四步	-11.2617
申戌	-11.2619
面平行	-11.262
名爲	-11.262
正月己亥朔	-11.2621
而作	-11.2621
丙乙丁角	-11.2624
之年	-11.2625
成三角形	-11.2628
小餘八	-11.263
欲求其	-11.2631
二百七十度	-11.2632
尺即初商	-11.2633
杓	-11.264
九重	-11.264
六秒四十微	-11.2643
四十刻	-11.2643
概	-11.2644
三均數	-11.2645
戰	-11.2648
二十三度三十分	-11.2648
一一四	-11.2649
太乙	-11.2651
刀布	-11.2651
扣	-11.2654
四十二日	-11.2655
圓線	-11.2656
三較連乗	-11.2659
切形	-11.2662
時合朔交泛	-11.2662
欽定四庫全書欽定儀象考成卷	-11.2662
肆	-11.2662
五文	-11.2663
九八五	-11.2663
熙	-11.2663
昏分	-11.2664
漫	-11.2664
畢宿大星	-11.2665
辦	-11.2666
自乘得一	-11.2666
三九四	-11.2667
一貫	-11.2667
本卷界	-11.2667
留際	-11.2668
迤	-11.2669
様	-11.2669
釋曰此	-11.2669
呉	-11.267
朦	-11.267
三角積	-11.267
冀	-11.2671
銘	-11.2671
年正月己未朔十一月	-11.2671
子初二刻	-11.2671
肯	-11.2671
癸午	-11.2672
即見	-11.2672
須臾	-11.2672
敘	-11.2672
坡	-11.2673
敵	-11.2674
鄭伯	-11.2674
山東道御史許伯政撰壬子運	-11.2674
縫	-11.2674
距月天最高	-11.2675
寒露十五日一時一刻八分	-11.2675
夘初二刻	-11.2676
大寒十四日九時一刻十分	-11.2676
二因之得	-11.2676
奔	-11.2676
厯局	-11.2676
或大或小	-11.2676
白露十五日四時三刻九分	-11.2676
撥	-11.2676
單分	-11.2676
洛陽	-11.2677
掲	-11.2678
代之	-11.2678
恒星黄道經緯度表	-11.2678
面積之定率比例以定率之圜	-11.2678
與今所得之	-11.2679
忠	-11.2679
博士	-11.2681
今時	-11.2681
或謂	-11.2681
數學九章	-11.2682
䟽	-11.2683
裂	-11.2684
此方	-11.2685
隋書	-11.2685
斗杓	-11.2687
狩	-11.2688
在地平下	-11.2688
就分	-11.2689
七分五釐	-11.2689
與太陽同	-11.269
其實行	-11.2692
涼	-11.2694
而取其	-11.2694
句股積	-11.2695
不應食	-11.2695
距赤道度	-11.2696
五星伏見	-11.2697
劉向	-11.27
丁戊丙	-11.27
一術	-11.27
四千三百	-11.2701
年為萬厯	-11.2701
精宻	-11.2704
之法則	-11.2704
文昌	-11.2706
即外切	-11.2709
晨疾初	-11.2709
以受	-11.271
初㸃	-11.271
之初均數	-11.2711
同大	-11.2711
學士	-11.2712
每歲	-11.2712
上行	-11.2715
二十七萬	-11.2715
之十一	-11.2715
午初	-11.2716
一百五十三	-11.2716
各減去	-11.2717
某宫	-11.2717
疇人	-11.2718
倍弦	-11.2718
所經	-11.2718
空圍	-11.272
北船	-11.2721
丑未	-11.2723
譬如	-11.2725
正月辛丑朔	-11.2725
將來	-11.2725
晨夕	-11.2726
三分損益	-11.2726
分明	-11.2726
數相加	-11.2726
丁己戊	-11.2728
寅卯辰	-11.2728
太隂黄道經度	-11.273
度分即	-11.273
次均輪心	-11.2735
原體	-11.2736
乙丙句	-11.2737
歳十一月	-11.2737
壬申朔	-11.2738
用元度	-11.2739
與甲丙邊	-11.2739
庚申年	-11.2739
四五八	-11.2742
經線	-11.2742
如戊	-11.2742
丙夘	-11.2743
三尺五寸	-11.2748
乙外角	-11.2749
捷法以	-11.2753
圖中	-11.2754
天津	-11.2754
新圖	-11.2755
平行經度	-11.2755
四尺五寸	-11.2758
其弦	-11.2759
三人共	-11.276
單一	-11.276
三十度為	-11.2761
與今	-11.2762
故止	-11.2765
舊名	-11.2766
名家	-11.2768
六千八百	-11.2769
月二十四日	-11.2769
未敢	-11.277
在寅	-11.2771
以里法	-11.2773
正月戊午朔	-11.2773
引至	-11.2774
直體	-11.2775
乙戊為	-11.2778
二度四十分	-11.2778
己酉朔十一月	-11.2778
原係	-11.278
先得之	-11.2782
丈二尺五寸	-11.2783
二十五年	-11.2783
九數	-11.2783
上下各	-11.2785
線截	-11.2785
七十八度	-11.2785
乃命	-11.2786
為十萬	-11.2787
星之經度	-11.2792
五十五分	-11.2792
太隂自行	-11.2793
上十之	-11.2795
次月	-11.2796
月二十五日	-11.2796
易明	-11.2798
月戊午朔日食	-11.2799
不可用	-11.28
則多	-11.28
五一六	-11.2803
宜以	-11.2805
總積六千二百	-11.2806
向丁	-11.2806
為正方	-11.2807
之遺	-11.2807
不免	-11.2808
二一六	-11.2809
總積四千	-11.281
至底	-11.281
兩線等	-11.2811
帝堯	-11.2811
運價	-11.2813
為勾股較	-11.2814
本於	-11.2815
一隻	-11.2815
宿度分	-11.2817
先置	-11.2819
其加減	-11.2819
下半	-11.2823
三十二兩	-11.2828
求帶食	-11.2828
試於	-11.2828
為三倍	-11.2829
一分為	-11.2833
親測	-11.2833
南海	-11.2836
緯差	-11.2836
㑹通	-11.2838
五之三	-11.2838
七里	-11.2841
三邉形	-11.2842
先推	-11.2842
于初商	-11.2843
有數	-11.2844
監局	-11.2846
其氣	-11.2846
地勢	-11.2846
黄道正弦	-11.2847
二面	-11.2848
月䇿	-11.2849
夜長	-11.285
之數葢	-11.2851
則例	-11.2851
二里	-11.2852
已後	-11.2854
二表	-11.2854
得三萬	-11.2855
兩相等即	-11.2855
二十四石	-11.2856
之率也	-11.2857
自見	-11.2858
己卯朔十一月	-11.2859
酉乙	-11.2859
如圖甲乙丙	-11.2862
根之	-11.2864
球面	-11.2864
千八百五十	-11.2865
借用	-11.2867
之加減	-11.2867
積餘	-11.2868
愈小	-11.287
五十微	-11.287
止得	-11.2871
别作一	-11.2872
倍之加	-11.2872
線之上	-11.2874
六十四度	-11.2878
一九九	-11.2878
與庚丁	-11.2879
月食時	-11.2882
求外切	-11.2883
不經	-11.2891
俱有	-11.2891
矣故以	-11.2894
六七五	-11.2895
四十五秒	-11.2897
月景	-11.2897
望後	-11.2898
小麥	-11.29
必無	-11.2903
一具	-11.2903
經天	-11.2909
堯時	-11.291
虚積	-11.2912
一陽	-11.2912
諸人	-11.2913
必至	-11.2913
九四四	-11.2916
為星距	-11.2916
又如有	-11.2917
丙丁弧	-11.2918
正形	-11.2919
分面線	-11.2922
平實	-11.2924
之世	-11.2925
月距地心	-11.2929
一百四十一	-11.2931
適中	-11.2936
四十八萬	-11.2938
八分之一	-11.2938
辰己	-11.2938
晷影	-11.294
而滿	-11.2942
積一百	-11.2945
以乙為心	-11.2946
有時而	-11.2948
一六二	-11.2948
共納	-11.2949
三十五尺	-11.295
十二卷	-11.295
㑹同	-11.2951
初商數	-11.2952
四十四日	-11.2953
相叅直	-11.2954
斜徑	-11.2956
秒四十微	-11.2961
再減	-11.2964
前此	-11.2965
止以	-11.2965
又當	-11.2967
六八八	-11.2967
盈末	-11.2969
自庚	-11.297
五萬八千	-11.297
六五八	-11.2971
甲乙丙丁圜	-11.2972
天河	-11.2975
方冪	-11.2976
謂其	-11.2979
之餘角	-11.2981
太陽躔度	-11.2985
勾自乗	-11.2988
八等邊形之	-11.299
欹	-11.2992
一百四十五	-11.2992
月十三日	-11.2994
自是	-11.2994
餘矢	-11.2995
右中	-11.2997
溝	-11.2997
五之二	-11.2999
六年正月	-11.3
闢	-11.3
絫	-11.3002
必然	-11.3004
與乙壬	-11.3006
淳	-11.3006
全弦	-11.3006
甲丁丙角	-11.3007
模	-11.3008
闇	-11.3009
朱鳥	-11.3009
線引長	-11.3011
昇	-11.3012
十九年七閏	-11.3012
召	-11.3012
賀	-11.3013
懐	-11.3013
鳯	-11.3013
之所在	-11.3014
扶	-11.3014
册	-11.3014
傷	-11.3014
燠	-11.3014
癸未朔十一月	-11.3015
嘉靖	-11.3016
蟲	-11.3016
正月癸酉朔	-11.3017
月食限	-11.3017
弦與勾股較之較	-11.3017
其相當	-11.3018
黎	-11.3018
年正月丁夘朔十一月	-11.3018
併之共	-11.3019
為廉法以除	-11.3019
彗孛	-11.302
求勾股弦各幾何	-11.3021
問城徑釋曰	-11.3021
年正月庚辰朔十一月	-11.3022
日亥初初刻一分内一秒冬至	-11.3022
岐	-11.3023
卯初	-11.3023
忌	-11.3024
蔡邕	-11.3024
子初三刻	-11.3026
勾弦求股	-11.3026
最低	-11.3026
年正月丙子朔十一月	-11.3027
十三度十九分度之七	-11.3027
年正月乙夘朔十一月	-11.3028
不啻	-11.3028
黙	-11.3028
為勾求得弦	-11.3029
三角面	-11.3031
總得	-11.3031
前代	-11.3031
雙女	-11.3032
九分六釐	-11.3033
故借	-11.3034
法中	-11.3034
爲三率求得四率	-11.3036
之度故	-11.3038
樞軸	-11.3039
句股方錐	-11.3039
初度至	-11.304
石版	-11.304
晝夜平	-11.3041
加時減分	-11.3041
二畝	-11.3041
又以分母	-11.3041
直以	-11.3041
逐月	-11.3042
貞觀	-11.3042
實非	-11.3042
艮隅	-11.3043
相乘得一	-11.3044
三百一十二	-11.3044
庚未	-11.3045
者並	-11.3045
年正月戊午朔十一月	-11.3047
通其	-11.3049
衝日	-11.3049
月閏	-11.305
與球體	-11.305
一千一百六十	-11.3051
十斗	-11.3052
乎此	-11.3054
紀法六十	-11.3054
通用	-11.3057
十疋	-11.3057
七七一	-11.3057
季冬	-11.3058
一十一秒	-11.3058
年正月庚午朔十一月	-11.3059
四八四	-11.3063
壬卯	-11.3064
史六月	-11.3064
以丙為心	-11.3064
未可	-11.3064
初昏	-11.3066
五分内三十一秒冬至史	-11.3067
依上	-11.3067
諸圏	-11.307
四尺八寸	-11.3071
隔位	-11.3073
年正月壬寅朔	-11.3074
年正月癸巳朔十一月	-11.3075
正月甲辰朔	-11.3076
何所	-11.308
於是乎	-11.3082
限内	-11.3084
世間	-11.3087
初虧復圓距弧	-11.309
次啇	-11.3092
一五二	-11.3094
獨有	-11.3095
縱亷	-11.3097
一二九	-11.3097
置一自乘再乘	-11.3098
斜立	-11.3101
立成内	-11.3102
刻有竒	-11.3103
中位	-11.3105
長闊和	-11.3105
為本日	-11.3106
復員	-11.3108
從其	-11.311
本時太陽	-11.3111
内容立方	-11.3113
較求	-11.3113
對實	-11.3114
一百二十七	-11.3114
每戸	-11.3115
云爾	-11.3116
二十六年	-11.3116
一五五	-11.3116
統天	-11.3118
附於	-11.3118
火星平行	-11.3119
負數	-11.3119
既内	-11.312
二六五	-11.3121
丁乙甲	-11.3124
萬七千四百	-11.3126
第幾	-11.3128
可免	-11.3132
則甲乙丙	-11.3132
物也	-11.3133
黄道弧	-11.3133
兩縱	-11.3133
以右上	-11.3133
夜半後	-11.3136
月小	-11.3137
之軸	-11.3139
積為實	-11.3139
兩平行	-11.3139
正月戊戌朔	-11.3139
受日光	-11.314
食甚距時	-11.3141
平行故	-11.3141
推定	-11.3144
原為	-11.3144
皆曰	-11.3148
入陽厯	-11.315
從子	-11.3155
三段	-11.3156
用前法	-11.3156
焉故	-11.3156
最髙卑	-11.3157
近地	-11.3158
月初八日	-11.3158
太陽距北極	-11.3159
方邉	-11.3159
丁鈍角	-11.3159
二體	-11.316
孟子	-11.3161
則惟	-11.3161
人人	-11.3161
三萬八千	-11.3162
弦上方	-11.3162
一千零八十	-11.3165
俱為直角	-11.3167
爲率	-11.3167
函於	-11.3169
作直角	-11.3169
兩相等則一根必與	-11.317
六七八	-11.3171
交前後	-11.3171
角正弦	-11.3172
三三一九	-11.3173
九二五	-11.3177
加時定星	-11.3177
之各得	-11.3177
一千五百三十	-11.3181
十八丈	-11.3182
五十二分	-11.3183
星緯	-11.3185
千零九十	-11.3186
從來	-11.3186
刻弱	-11.3186
術求之	-11.3187
癸酉年	-11.3187
均平	-11.3188
四十二秒	-11.3195
為同類	-11.3196
盈縮積	-11.3197
爲實以	-11.3198
甲分角	-11.3198
稍大	-11.3202
置一自之	-11.3203
小矢	-11.3206
一十六步	-11.3206
至春分	-11.3211
原法	-11.3212
立負	-11.3214
不全	-11.3215
四季	-11.3216
九一四	-11.3218
剖至	-11.3219
五十九日	-11.3223
某數	-11.3224
距地心線	-11.3225
初見	-11.3225
比例而得	-11.3227
各乗	-11.3228
相似形	-11.3229
之管	-11.3229
西術	-11.3229
五十七刻	-11.3232
本體	-11.3232
猶有	-11.3232
必先求	-11.3234
初學	-11.3235
節氣時刻	-11.3235
形此形有	-11.3237
止于	-11.3238
最長	-11.3238
兩測之	-11.3241
虚和	-11.3246
句股相乗	-11.3247
赤道線	-11.3247
寅辰	-11.3249
新術	-11.325
不通	-11.325
俱用	-11.3252
甲丁乙角	-11.3253
之外面積	-11.3253
江南	-11.3254
友	-11.3254
則在	-11.3255
中空	-11.3257
益亷	-11.3258
不致	-11.326
𤣥枵宫	-11.3264
見幾何	-11.3265
正月壬戌朔	-11.3267
之交角	-11.327
南星	-11.327
高低	-11.327
上言	-11.327
别為	-11.327
鎮	-11.327
之比例亦若	-11.3271
位書之	-11.3272
夜食	-11.3276
有空位	-11.3277
斜正	-11.3278
與太隂	-11.3279
矣是故	-11.3283
八音	-11.3283
見四卷	-11.3285
八九六	-11.3287
加減法	-11.3288
辛弧	-11.3289
為轉終	-11.3291
第十七	-11.3292
道里	-11.3294
徴也	-11.3298
若干法借	-11.3299
寅辛	-11.33
氂	-11.3301
黄道宫度	-11.3302
求其正弦	-11.3305
周日一萬分	-11.3307
午正二刻	-11.331
上考	-11.331
為弦冪	-11.3311
二九六	-11.3312
視緯度	-11.3312
乙與戊	-11.3314
一百五十一	-11.332
巳初	-11.3322
又若	-11.3325
甲衰	-11.3325
自乘數	-11.3326
巳戊	-11.3327
動則	-11.3327
己亥朔十一月	-11.3328
後有	-11.3329
查其	-11.3332
沈	-11.3332
三八五	-11.3334
丁甲乙	-11.3336
在正交	-11.3337
方體積	-11.3338
月周	-11.3339
九倍	-11.3339
歸於	-11.3341
劉徽	-11.3344
計其	-11.3346
大小餘	-11.3348
北陸	-11.335
六觚	-11.3352
錘	-11.3355
丁乙線	-11.3357
甄鸞	-11.3358
甲南行步	-11.3358
耀	-11.3359
分元形	-11.3359
内容十二等面	-11.3362
穴	-11.3362
者今	-11.3363
與庚己	-11.3365
尚餘	-11.3365
或南或北	-11.3366
盟	-11.3367
眠	-11.3368
溪	-11.3369
丁乙丙角	-11.3369
堯舜	-11.337
爲所有數	-11.3371
積尸氣	-11.3371
穹	-11.3371
鹹	-11.3372
康熈	-11.3373
卜	-11.3373
伏乞	-11.3373
對兩心實相距角	-11.3373
菴	-11.3374
賓	-11.3374
起復方位	-11.3374
旅	-11.3374
融	-11.3374
几	-11.3375
數學鑰	-11.3375
孤	-11.3375
朝夕	-11.3376
內	-11.3376
憂	-11.3377
三百九十八日八十	-11.3377
殫	-11.3377
徑三分	-11.3378
兩經斜距	-11.3378
御製數理精藴下編卷	-11.3379
勾股弦總和	-11.338
忘	-11.338
依密率	-11.338
聮	-11.338
頻	-11.338
十六萬七千里	-11.338
兼有	-11.338
四㸃	-11.338
二百四十步即城徑也合問	-11.3381
彰	-11.3381
從地心甲計之當本天之	-11.3382
四石二斗	-11.3382
月天最高在	-11.3382
沉香	-11.3384
表末	-11.3384
多二眞數	-11.3385
閒	-11.3386
長方堆	-11.3386
拙	-11.3387
盟于	-11.3387
四面體之每一邊	-11.3387
爲歳首	-11.3388
其精	-11.3388
兩句	-11.3389
長方形其	-11.3391
墻	-11.3391
算經	-11.3391
立象	-11.3392
之終	-11.3398
乙位	-11.3399
則所存	-11.34
日未出	-11.34
共三十	-11.34
其南	-11.34
殊不知	-11.34
七十五刻	-11.3403
御之	-11.3403
虚形	-11.3403
年正月乙未朔十一月	-11.3404
北河	-11.3405
年五月	-11.3407
立一表	-11.3407
新舊	-11.3409
實在	-11.341
畆法	-11.3412
三之得	-11.3412
五十四尺	-11.3413
非真	-11.3418
日入分	-11.3418
一千一百四十	-11.3418
自戊	-11.3419
定朔弦望	-11.342
刻漏	-11.342
相當二界	-11.3421
帝王	-11.3421
依前論	-11.3422
九十二秒	-11.3422
二數相減餘	-11.3424
又安	-11.3424
九分内一十一秒冬至	-11.3426
告成	-11.3427
之比即如	-11.3427
時線	-11.343
見東方	-11.3431
多邊形	-11.3431
丙乙線	-11.3434
圎面積	-11.3434
圓錐	-11.3435
為正角	-11.3436
俱無	-11.3442
正月庚申朔	-11.3443
不及減者加	-11.3448
求句股弦	-11.3448
本緯	-11.3448
國家	-11.345
歩法	-11.3454
之度等	-11.3454
圓球半徑	-11.3455
第二題	-11.3456
辛壬弧	-11.3458
晨伏	-11.3459
距赤	-11.3461
令其	-11.3461
從前	-11.3462
八分内一十一秒冬至	-11.3463
以髙乗之	-11.3464
上文	-11.3465
不湏	-11.3465
勾弦差	-11.3469
七十六度	-11.347
推月食	-11.347
長方之長	-11.3472
本題	-11.3474
天地之中	-11.3476
皇極勾	-11.3478
等星	-11.348
界説	-11.348
得二千四百	-11.348
也何以	-11.3481
弦自乘	-11.3481
耳目	-11.3485
三九九	-11.3487
除之所得	-11.3487
己亥朔	-11.349
㸃位	-11.349
亦從	-11.3491
▁三率	-11.3494
八萬八千	-11.3495
世界	-11.35
呂氏	-11.3501
每次	-11.3502
千八百七十	-11.3503
月甲申朔	-11.3504
閏法	-11.3504
言天	-11.3506
九二九	-11.3507
多二平方	-11.3507
本朝	-11.3507
諸體	-11.3508
為小勾	-11.3508
有長短	-11.3515
真時視行	-11.3516
也再	-11.3518
之共銀數	-11.352
皆能	-11.3525
若半徑與	-11.3528
過赤道	-11.3531
視時	-11.3533
萬三千四百	-11.3534
即今	-11.3534
隂陽之	-11.3534
仰儀	-11.3536
倍差	-11.3538
萬餘里	-11.3539
之算	-11.3539
欲定	-11.354
甲辰朔十一月	-11.3542
之候	-11.3543
天之中	-11.3543
為丙衰	-11.3552
有法形	-11.3553
與之等	-11.3556
二尺二寸	-11.3557
但取	-11.3559
乙丁弧	-11.3559
下倣此	-11.3561
為三率得	-11.3562
心乙	-11.3565
五十里	-11.3565
二千里	-11.3565
省曰	-11.3566
司厯	-11.3569
表竿	-11.3571
定二	-11.3571
五邊	-11.358
食者	-11.3581
二分内四十一秒冬至應閏	-11.3582
四斤	-11.3582
丙乙戊	-11.3582
人立	-11.3583
半徑為髙	-11.3583
甲丁乙丙	-11.3583
乙戊線	-11.3584
義曰	-11.3589
立積	-11.359
通分内子得	-11.3591
石為二率	-11.3592
丙己丁	-11.3592
三百六十步	-11.3594
損益分	-11.3599
相等者	-11.3602
倍乙	-11.3603
可以互	-11.3608
底股	-11.3609
八秒二十微	-11.361
一十萬	-11.361
為分母	-11.3612
大辰	-11.3614
倍初商	-11.3616
二分内三十一秒冬至史	-11.362
十一月壬子日	-11.3621
一四九	-11.3622
近地平	-11.3622
而過	-11.3623
正月壬寅朔	-11.3623
未宫	-11.3626
二題	-11.3627
與長圓體	-11.3627
交子午圏	-11.3629
所函之	-11.3631
既定	-11.3632
冪内減	-11.3634
爲二率	-11.3634
有多寡	-11.3635
餘光	-11.3635
陸費墀	-11.3636
二忽	-11.3636
萬八千六百	-11.3638
四行	-11.3638
近南	-11.3639
至正	-11.3639
所食	-11.3641
不載	-11.3641
秒即所求之	-11.3643
定真時	-11.3648
根乘	-11.365
自北	-11.3652
中交後	-11.3655
兩家	-11.3656
申正	-11.3656
史閏正月	-11.3658
仍有	-11.3659
為法乘之	-11.3661
欲明	-11.3661
三千里	-11.3662
長濶和	-11.3664
依上法	-11.3666
反用	-11.3667
步八分	-11.3667
三分内一秒冬至應閏	-11.3668
四十四尺	-11.367
朔虚	-11.3671
儒者	-11.3671
凡三角形	-11.3671
一圏	-11.3672
與甲癸	-11.3676
一百一十度	-11.3676
一七七	-11.3677
無名	-11.3677
備矣	-11.3677
誤以	-11.3682
横表	-11.3682
萬四千六百	-11.3683
八八九	-11.3684
八萬里	-11.3689
六三一	-11.3692
二百五十四	-11.3692
在外	-11.3694
也合問或問	-11.3694
二五五	-11.3697
者乎	-11.3698
太陽年	-11.37
二行相減	-11.37
初虧近時	-11.3702
七萬五千	-11.3702
餘割線	-11.3703
八卷	-11.3706
與癸	-11.3707
三疋	-11.3711
三十六日	-11.3713
之難	-11.3714
廿三	-11.3714
宜有	-11.3715
凡物	-11.3716
周天之度	-11.3716
正方體積一	-11.3717
赤道高	-11.3718
初商得	-11.3721
太隂平行	-11.3721
於地平	-11.3722
同文算指	-11.3726
北極高四十度	-11.3727
供	-11.3729
著明	-11.373
四之得	-11.373
又非	-11.373
七分内一秒冬至應閏	-11.373
比舊	-11.3731
太甲	-11.3731
易之	-11.3731
肇	-11.3733
千位	-11.3734
以少減多	-11.3735
謂天	-11.3736
分撱圓面積	-11.3736
紛	-11.3737
廿二	-11.3738
禆	-11.3738
年正月辛巳朔十一月	-11.3738
厲	-11.3739
匿	-11.3739
普	-11.374
紹	-11.374
桑	-11.3741
前率	-11.3742
明其理	-11.3742
婆	-11.3742
遙	-11.3743
其假數為	-11.3743
次輪心距地	-11.3743
拱	-11.3744
赤經髙弧交角	-11.3744
謀	-11.3744
夘正二刻	-11.3745
上論	-11.3745
効	-11.3745
淆	-11.3745
泛立較	-11.3745
𢎞	-11.3746
太陽之光	-11.3746
之中數	-11.3747
撿表得	-11.3747
異乗同除	-11.3748
杵	-11.3748
之比亦同於	-11.3748
窄	-11.3748
六律	-11.3748
回奏	-11.3749
姜岌	-11.3749
+	-11.3749
夘正初刻	-11.3749
凹	-11.375
月影心	-11.375
立世阿毘曇	-11.375
臬	-11.375
認	-11.375
挈	-11.375
喪	-11.375
童	-11.3751
赴	-11.3751
月中旬	-11.3751
遊表看	-11.3751
廻	-11.3751
二十五度四十二分五十一秒有餘	-11.3751
激	-11.3753
朱氏曰	-11.3753
再置天元	-11.3755
十二面體之一邊	-11.3755
山川	-11.3756
二四六	-11.3756
九執暦	-11.3757
垜	-11.3758
砣	-11.3759
二之假數	-11.3759
可言	-11.376
可約	-11.3761
棗價	-11.3762
皇國	-11.3762
賞銀	-11.3763
為下亷	-11.3763
髙乘	-11.3765
以加于	-11.3765
七五六	-11.3771
四度五十	-11.3771
二百六十五	-11.3772
鐡	-11.3772
年正月己丑朔十一月	-11.3772
正方之邊	-11.3773
距子午圏	-11.3777
何以知	-11.3779
縂銀	-11.378
春分至秋分	-11.378
得一千四百	-11.3781
為初商實	-11.3782
日夘初三刻	-11.3783
方亭	-11.3784
初緯	-11.3785
恒星東行	-11.3785
為兩腰	-11.3786
又謂之	-11.3791
解曰甲乙丙丁	-11.3791
日月之行	-11.3792
四千尺	-11.3793
變赤道度	-11.3793
焉其	-11.3795
不窮	-11.3795
五四七	-11.3798
人所居	-11.3801
之象也	-11.3801
天常赤道	-11.3802
為寔	-11.3803
已知	-11.3805
赤道弧	-11.3805
復明	-11.3805
為南	-11.3805
七千八百	-11.3806
縮初	-11.3806
今改	-11.3809
四分内四十一秒冬至	-11.3809
斜望	-11.381
年正月己亥朔十一月	-11.381
添積	-11.3813
易曰	-11.3816
不行	-11.3817
一日行	-11.3819
隠見	-11.382
體之底	-11.3821
塹堵體	-11.3821
至極	-11.3823
此用	-11.3824
古率	-11.3824
每船	-11.3825
筭術	-11.3825
箇圓池	-11.3827
一正方形	-11.3829
月初六日	-11.383
夏至前後	-11.3831
雲氣	-11.3832
二行相減餘	-11.3833
司命	-11.3836
更之則	-11.3837
冪乗	-11.3838
非謂	-11.384
十二分内五十一秒冬至	-11.384
長濶差	-11.3841
平朔望	-11.3842
即同	-11.3845
亦成	-11.3846
今有術	-11.3848
其道	-11.3848
俱係	-11.3848
丙角之度	-11.3849
諸表	-11.3849
錐形	-11.3849
衆數	-11.385
二八三	-11.385
多則	-11.3851
五四四	-11.3852
時刻線	-11.3853
亦仍	-11.3853
月大	-11.3854
二一三	-11.386
銀一兩	-11.386
右方	-11.3862
未丁	-11.3864
漸漸	-11.3866
兩差	-11.3867
山東	-11.3868
六萬八千	-11.3868
囘囘厯	-11.387
然後置	-11.3871
考定	-11.3872
五百八十八	-11.3872
不多	-11.3872
爲勾	-11.3873
二百里	-11.3876
正月壬申朔	-11.3877
金銀	-11.3877
而太陽	-11.3879
黄道經緯度	-11.3879
立方數	-11.388
不效	-11.3884
三三九	-11.3885
二一二	-11.3887
為縱	-11.3891
一十五步	-11.3893
他線	-11.3895
己㸃	-11.3897
各體	-11.39
漸差	-11.39
不容	-11.39
平合	-11.3903
變律	-11.3904
面形	-11.3908
比例之理	-11.3909
下垂	-11.391
火氣	-11.391
為子午圏	-11.3911
以授時推	-11.3911
問今有	-11.3916
則于	-11.3917
九十二日	-11.3919
人之所	-11.3919
十四分内二十一秒冬至應閏	-11.3921
七毫	-11.3922
北極出地之度	-11.3922
七章	-11.3923
赤道半徑	-11.3923
思之	-11.3924
繩長	-11.3924
而獨	-11.3925
表影	-11.3926
合用	-11.3926
分度	-11.3927
細推	-11.3928
一一一	-11.393
八十斤	-11.3935
求甲乙	-11.3936
正方體之每邊	-11.3936
千古	-11.3936
底面	-11.3937
一字	-11.3938
南北東西	-11.3942
用矩度	-11.3942
詳後	-11.3946
他弦	-11.3947
員心	-11.3947
四十丈	-11.3948
七之一	-11.3948
三二一	-11.3951
減四	-11.3954
寸許	-11.3954
常度	-11.3956
從癸	-11.3958
與恒星	-11.3959
皆合	-11.3962
弧矢積	-11.3965
第十四	-11.3966
割員	-11.3966
本角	-11.3967
同日	-11.3967
水面	-11.3967
辛壬為	-11.3968
二七五	-11.3971
二尺一寸	-11.3973
之樂	-11.3974
并見	-11.3975
中旦	-11.3976
四十八步	-11.3977
兩餘弦相加	-11.3983
與丁辛	-11.3986
以戊為心	-11.3986
正月戊申朔	-11.3987
截弦	-11.3987
即兩	-11.3988
四七七	-11.3989
此㸃	-11.399
旁差	-11.3992
定向	-11.3993
千三百	-11.3993
七六八	-11.3995
算學	-11.3996
石三斗	-11.3997
九千九百	-11.3998
心線	-11.4007
一十五尺	-11.401
即原	-11.401
作垂線至	-11.4011
古圖	-11.4011
注曰	-11.4012
不及減者	-11.4013
一千四百六十	-11.4013
兩心線	-11.4017
其距度	-11.4018
則不能	-11.402
則因	-11.4021
一忽	-11.4023
引長至	-11.4025
一分内三十一秒冬至應閏	-11.4026
一疏	-11.4026
也以自之得	-11.4027
環行	-11.4027
得七百二十	-11.4028
線上方	-11.4028
如上圖甲	-11.4032
適等	-11.4033
十等邊形之	-11.4034
上直角方形與	-11.4036
而北	-11.4037
九分内四十一秒冬至	-11.4037
斗未	-11.4037
五百零	-11.4038
七三一	-11.4039
攷之	-11.4039
六萬里	-11.404
説見	-11.404
五十九刻	-11.4041
廣東	-11.4042
九州	-11.4043
甲己戊	-11.4043
時圏	-11.4044
正月甲申朔	-11.4045
乗率	-11.4045
多一平方	-11.4047
丙丁乙	-11.4049
圓羃	-11.405
景初	-11.405
半圈	-11.405
得二百五十	-11.405
與庚乙	-11.4051
厯算	-11.4053
卯壬	-11.4054
一百二十九	-11.4054
精於	-11.4055
仍得一	-11.4057
何以能	-11.4057
始皇	-11.4058
地平經緯	-11.4059
八億	-11.4059
四秒一十微	-11.4059
八一九	-11.4062
亦謂	-11.4063
互求	-11.4065
辰癸	-11.4068
減之餘為	-11.4069
崇禎九年	-11.4069
又法用	-11.4071
而且	-11.4071
理分中末線之全分	-11.4072
六八三	-11.4073
兩一錢	-11.4076
第二段	-11.4079
食甚距緯	-11.4079
亦異	-11.4079
三三八	-11.4082
數百年	-11.4085
綂	-11.4086
十四分内四十一秒冬至	-11.4086
切員	-11.4087
硯	-11.4089
何時	-11.4089
丑正二刻	-11.409
相加即得	-11.4091
之規	-11.4096
多四根	-11.4097
九枚	-11.4098
四六九	-11.4099
步常法	-11.4101
未子	-11.4101
帯	-11.4104
二百九十二	-11.4107
垂線即	-11.4108
督修厯法	-11.4108
均輸	-11.4108
刻半弱	-11.4109
兩長方	-11.411
焦	-11.411
通積	-11.4111
紂	-11.4113
弦與勾股和之較六尺	-11.4113
在晝	-11.4114
應食	-11.4114
宛	-11.4114
分母三	-11.4116
鴨	-11.4117
之比為相當比例四率也	-11.4118
下一位	-11.412
尺有五寸	-11.412
推食甚	-11.412
催	-11.4121
賾	-11.4121
僦	-11.4122
援	-11.4123
扇	-11.4123
盧	-11.4124
宻測	-11.4124
而一卽	-11.4125
有零分者按中比例法求之	-11.4126
戾	-11.4126
措	-11.4126
參宿	-11.4126
瑪	-11.4126
甚近	-11.4126
付	-11.4126
暫	-11.4127
王莽	-11.4127
具圖如後	-11.4127
伊	-11.4128
詞	-11.4128
一直線上	-11.4128
脫	-11.4128
弦與勾股較之和	-11.4129
突	-11.4129
一根自乘得一平方	-11.4129
歐	-11.413
戌初一刻	-11.413
勾股弦總和四十尺	-11.413
治厯明時	-11.4131
毋	-11.4131
長方之闊	-11.4131
五十三日	-11.4131
即辛	-11.4131
四分日之一	-11.4131
標	-11.4131
為法實如法而一得	-11.4132
鄧	-11.4132
僧一行	-11.4132
禍	-11.4133
暨	-11.4134
羲	-11.4134
姜	-11.4134
勾自乗之一正方	-11.4135
席	-11.4136
七十年	-11.4136
甲出西門南行四百八十步	-11.4136
毫六絲	-11.4137
潛	-11.4137
咎	-11.4137
滿紀法去之	-11.4138
常法也	-11.4139
必當	-11.4139
差一日	-11.4139
繪圖	-11.414
四宫七宫五宫六宫四宫七宫五宫六宫	-11.414
此云	-11.414
瞿曇	-11.414
希	-11.414
毫釐	-11.4141
求甲丙邊	-11.4141
不同然	-11.4142
撱圓差角	-11.4142
泛平差	-11.4142
斤兩	-11.4143
亦爲	-11.4144
角其度	-11.4148
嵗嵗	-11.4149
土功	-11.415
稍偏	-11.4151
占候	-11.4151
難見	-11.4151
相因得	-11.4152
五九二	-11.4153
前位	-11.4153
佛説	-11.4154
食限内	-11.4155
中孚	-11.4155
土星平行	-11.4156
午酉	-11.4157
圓環形	-11.4157
正月辛巳朔	-11.4159
天官書	-11.4159
三度四十五分	-11.416
不動處	-11.4162
二二八	-11.4164
末候	-11.4165
一百五十三步	-11.4166
實如法得一	-11.4166
隔二位	-11.4166
甲乙丁角	-11.4167
夕退	-11.4168
為立方實	-11.4168
南門外	-11.4169
安得有	-11.417
折色	-11.4171
右圖	-11.4171
太隂行	-11.4171
經差	-11.4171
加減號	-11.4172
開方數	-11.4174
五分内三十一秒冬至應閏	-11.4176
二四六八	-11.4178
持錢	-11.4178
九八四	-11.4179
用三角形法	-11.418
太陽在最高	-11.4182
東或西	-11.4183
今厯	-11.4183
元郭守敬	-11.4187
等户	-11.4191
會合	-11.4191
亦謂之	-11.4194
除盡	-11.4196
理則	-11.4199
已詳	-11.4202
九里	-11.4204
五萬五千	-11.4208
盖因	-11.4208
氣策	-11.421
可容	-11.4211
歳星	-11.4213
一十六寸	-11.4213
分三百六十度	-11.4214
講求	-11.4214
不過象限	-11.4217
夜子初	-11.4217
日出入時	-11.4219
正月戊辰朔	-11.422
大光	-11.4223
九分之一	-11.4224
六百四十八	-11.4226
六六七八	-11.4227
股較	-11.4227
内外周	-11.4228
對乗	-11.4229
甚難	-11.4232
九一五	-11.4232
各重	-11.4233
先得弦	-11.4233
與天合	-11.4233
地平規	-11.4233
新測	-11.4236
而周	-11.4236
爲袤	-11.4236
朔旦	-11.4239
丈二尺	-11.424
戊丙丁	-11.424
辰卯	-11.424
改易	-11.4245
切下	-11.4245
豈能	-11.4246
八十八度	-11.4246
審其	-11.4247
子己	-11.4247
三尺六寸	-11.4247
太隂年	-11.4247
司辰	-11.4249
甚明	-11.4252
算至	-11.4253
豈可	-11.4254
殷厯	-11.4256
今所設之	-11.4257
一與二	-11.4257
次輪面	-11.4259
日照	-11.4259
左右兩	-11.4261
如何	-11.4261
經行	-11.4263
隨處	-11.4265
無空	-11.4265
四八五	-11.4267
亦作	-11.427
三與五	-11.427
微強	-11.4272
歲首	-11.4272
二八四	-11.4273
舊㑹	-11.4274
七分之一	-11.4275
不平行	-11.4276
九寸為	-11.4278
萬五千五百	-11.428
而反	-11.428
三百六十五度二十五分	-11.4282
何度	-11.4283
恒星天	-11.4284
二十九日五十三刻	-11.4289
用灰	-11.429
九一六	-11.429
以直角交	-11.4291
用互乘	-11.4295
不見其	-11.4299
之比亦	-11.43
為寔以	-11.4301
自乗之數	-11.4301
以丁為心	-11.4302
在本輪之	-11.4305
以銅	-11.4306
大横線	-11.4306
日與月	-11.4306
為益亷	-11.4306
第三圖	-11.4308
矣何	-11.4308
乙丙丁角	-11.4308
原題	-11.4309
古有	-11.4312
丁丙線	-11.4321
法曰先	-11.4321
七寸五分	-11.4322
申正初刻	-11.4324
則明	-11.4324
正照	-11.4326
求容方	-11.433
面積一	-11.4333
癸亥朔十一月	-11.4333
受命	-11.4334
有誤	-11.4335
四二九	-11.4336
日五十刻	-11.4336
/○○)	-11.434
為實置	-11.434
宿鈐	-11.4341
以三除	-11.4342
供事	-11.4343
七四九	-11.4344
三百年	-11.4344
一書	-11.4344
萬物之	-11.4344
矣論	-11.4346
一十四萬	-11.4346
其距地	-11.4347
二行相乘	-11.4347
酉子	-11.4347
㸃之底	-11.4348
量體	-11.4349
一件	-11.435
和元年	-11.4351
日星	-11.4351
為最卑	-11.4352
天元赤道	-11.4352
第三位	-11.4358
卯丙	-11.436
十二等面之	-11.4361
未乙	-11.4362
本圈	-11.4363
大端	-11.4363
廿六	-11.4364
法如有甲乙	-11.4364
中列	-11.4369
四一六	-11.4371
四十五尺	-11.4371
之差數	-11.4372
毫二絲	-11.4378
右轉	-11.4378
減原實	-11.4378
中心至每邊正中之垂線	-11.4379
後論	-11.438
四等面體	-11.4382
塔髙	-11.4383
五十年	-11.4384
交宫	-11.4389
九百四十分	-11.4389
速於	-11.439
庚丑	-11.439
次視	-11.4391
室宿	-11.4392
卅二	-11.4394
一分三十秒	-11.4394
之六倍	-11.4395
體求積	-11.4395
三二八	-11.4395
三十二年	-11.4395
戊丙線	-11.4396
立方較	-11.4401
圓孔	-11.4402
太陽最髙	-11.4403
正月庚辰朔	-11.4405
加减度	-11.4415
欲令	-11.4417
朔酉時日食	-11.4423
太陽距地心	-11.4423
以日為心	-11.4424
例也	-11.4426
仍多	-11.4429
之旁	-11.443
遭	-11.4433
六而一	-11.4434
厯年	-11.4434
三分内三十一秒冬至史	-11.4434
一二八	-11.4436
乗之得數	-11.4439
面冪	-11.4439
施之	-11.444
方羃	-11.4441
物體	-11.4441
圜分角	-11.4442
明年	-11.4442
得二百一十	-11.4443
四一五	-11.4445
辰初	-11.4446
四一三	-11.4446
定朔在	-11.4451
所距	-11.4451
線引長至	-11.4452
第三人	-11.4452
七九七	-11.4452
作戊己	-11.4461
合初商次商	-11.4461
為日法	-11.4462
退一位	-11.4462
箕子	-11.4463
三八八	-11.4464
相交于	-11.4465
環面	-11.4468
乃復	-11.4468
次日子正初刻	-11.447
四六三	-11.4471
亦相等	-11.4474
光大	-11.4474
并記加減號求	-11.4477
既皆	-11.4479
出南門直行	-11.448
内衡	-11.4483
申未	-11.4483
儀心	-11.4484
一卷三	-11.4485
求得甲角	-11.4486
三二九	-11.4487
各有本	-11.4489
八二六	-11.4491
宋書	-11.4492
戌正	-11.4493
測深	-11.4493
上下弦	-11.4495
常法得	-11.4498
或加或減	-11.4498
為實併	-11.4499
之功	-11.4503
再乗得	-11.4504
太陰距地	-11.4506
萬零六百	-11.4509
所過	-11.4509
屯	-11.4509
午正後	-11.4512
九四三	-11.4512
時三刻	-11.4513
必依	-11.4514
巴	-11.4517
適與	-11.4517
為整	-11.4518
繋	-11.4518
不信	-11.4519
争	-11.4519
理分中末之大分	-11.4519
甲為直角	-11.452
罷	-11.4521
化整為零	-11.4521
夢	-11.4521
邊之半	-11.4522
穫	-11.4522
鴈	-11.4522
壍	-11.4523
和筭	-11.4524
圏心	-11.4524
九章算術卷	-11.4525
羅雅谷	-11.4525
撮和買	-11.4526
在地面	-11.4526
健	-11.4526
帙	-11.4526
列於下乃以下	-11.4527
甲出北門東行二百步	-11.4527
串	-11.4527
八二七	-11.4527
蜀	-11.4527
勸	-11.4528
香	-11.4529
趣	-11.4529
遁	-11.4529
一萬九千六百八十三	-11.4529
不同耳	-11.4529
洩	-11.453
日躔表	-11.4531
王良	-11.4532
立冬十四日十時二刻十一分	-11.4532
冬至十四日八時三刻十四分	-11.4533
得五十六	-11.4533
芒種十五日八時三刻十分	-11.4533
逺臣羅雅谷湯若望	-11.4533
夏至十五日八時七刻	-11.4533
鼠	-11.4533
法置所推	-11.4533
於上又	-11.4533
秋分十五日二時四刻十一分	-11.4533
小暑十五日八時五刻三分	-11.4533
處暑十五日五時六刻六分	-11.4533
夘初初刻	-11.4534
大暑十五日八時零八分	-11.4534
淳祐	-11.4534
罰	-11.4534
始悟	-11.4534
玻瓈	-11.4534
◇	-11.4535
黄道緯	-11.4535
距次交實行	-11.4535
可指	-11.4535
禀	-11.4536
韋	-11.4536
紫氣	-11.4537
自之為冪	-11.4537
帶兩縱	-11.4538
圍三徑一	-11.4539
三八九	-11.4539
草木	-11.454
二宫九宫三宫八宫二宫九宫三宫八宫	-11.454
捴弧	-11.454
觀象臺	-11.4542
長安	-11.4542
本位紀	-11.4543
麟徳	-11.4543
宣公	-11.4543
以六除	-11.4544
天左旋三百六	-11.4545
渾盖	-11.4547
不察	-11.4547
清濁	-11.4548
七十步	-11.4549
四二五	-11.455
精微	-11.455
二與三	-11.455
正月癸未朔	-11.4551
步為從	-11.4552
二三三	-11.4552
九千八百	-11.4552
池長	-11.4553
匝	-11.4554
各省直	-11.4555
為三率求得	-11.4555
邊勾	-11.4556
年正月壬申朔十一月	-11.4556
帶零分	-11.4557
後漢書	-11.4558
寅壬	-11.4558
每邊一尺二寸為三率求得四率	-11.4558
表説	-11.4559
梵名	-11.4562
相準	-11.4562
月距日倍度	-11.4563
難用	-11.4564
丙戊線	-11.4564
幾分之幾	-11.4564
三二五	-11.4565
二圏	-11.4567
中斗	-11.4569
小于直角	-11.4569
四度有竒	-11.4569
北極之下	-11.457
六三六	-11.457
第一格	-11.4571
髙于地平	-11.4572
得九百	-11.4573
尺度	-11.4573
所交	-11.4574
正立	-11.4574
新増	-11.4575
三九六	-11.4575
日影心	-11.4576
側立	-11.4577
無所不	-11.4577
督修厯法山東布政使司右叅政	-11.4579
夜短	-11.4579
為閏月	-11.4581
有不盡	-11.4582
七萬一千	-11.4583
侵入	-11.4583
必等而	-11.4584
可互	-11.4584
丁戊己庚	-11.4585
七秒三十微	-11.4585
甲乙甲丁	-11.4587
北京	-11.4588
五百九十二	-11.459
古來	-11.459
方束	-11.459
甲乙直線	-11.4591
之時刻也	-11.4593
兩數相併得	-11.4594
客星	-11.4595
再測	-11.4595
廿一	-11.4598
乙丙兩角	-11.46
無距度	-11.4603
如句	-11.4606
八百六十四	-11.4606
今改正	-11.4607
絲八忽	-11.4608
卯甲	-11.461
斜垂線	-11.4611
第三題	-11.4615
甲銀數	-11.4615
六十八度	-11.4617
九十五分	-11.4617
十之七	-11.4617
距地平之髙	-11.4621
五四六	-11.4622
得二百八十	-11.4623
宮度分	-11.4623
少一平方	-11.4623
斗一升	-11.4627
距日度	-11.4627
正月庚午朔	-11.4628
久而	-11.4628
諸器	-11.4628
于癸	-11.463
黄白二道	-11.4633
不均	-11.4634
母除	-11.4639
矢闊	-11.4639
勻分	-11.464
南道	-11.4641
為次商實	-11.4642
相加折半得	-11.4642
容員徑	-11.4643
乙丙丁形	-11.4643
其端	-11.4644
測火星	-11.4646
長圓形	-11.4647
凖此	-11.4651
甲乾	-11.4653
近處	-11.4655
河圖	-11.4659
丙戌朔十一月	-11.466
從最髙	-11.4664
五八五	-11.4664
方尺	-11.4664
之失	-11.4665
房心	-11.4667
云數相減	-11.4667
六八九	-11.4669
正方形之每邊	-11.467
者哉	-11.4671
較乗和	-11.4672
乘之為實	-11.4673
他處	-11.4673
為一類	-11.4675
分別	-11.4678
加時定星二百	-11.4678
人見	-11.4681
九十八度	-11.4682
之法而	-11.4688
百餘年	-11.4694
七度半	-11.4696
為二率現設之	-11.4697
得五十四	-11.47
三方廉	-11.4702
横剖	-11.4702
寅正	-11.4707
不等而	-11.4707
全同	-11.4709
弦也術曰	-11.4709
前一日	-11.4715
線既為	-11.4718
二十九年	-11.4721
廣差	-11.4721
莫能	-11.4722
徑自乗	-11.4725
春正月	-11.4727
六十八分	-11.4728
之性	-11.4728
局供事	-11.4729
誤矣	-11.4729
之半而	-11.4733
徑求周	-11.4733
月掩日	-11.4734
四八六	-11.4734
亥正	-11.4736
兩形之比例	-11.474
然必	-11.4743
餘二千	-11.475
實月距日	-11.475
度八七五	-11.4751
平方開	-11.4751
數可以度盡	-11.4755
月離表	-11.4759
在大火宫	-11.4761
星外増	-11.4762
八銖	-11.4766
於彼	-11.4768
七十二分	-11.4774
月法	-11.4774
遲疾差	-11.4774
二七一	-11.4776
總法	-11.4776
為二率半徑一千萬為三率求得四率	-11.4778
别之	-11.4778
冬至前後	-11.4779
天官	-11.478
二百四十尺	-11.4781
成一直線	-11.4783
一三二	-11.4787
之切線與	-11.4789
九卷	-11.479
每石	-11.479
半晝	-11.4791
水銀	-11.4793
千四百六十一	-11.4796
獨用	-11.4799
正月壬辰朔	-11.4805
聨之	-11.4805
表位	-11.4805
窺表	-11.4807
絲二忽	-11.4808
一千七百四十	-11.4808
一千二百一十	-11.4815
勻	-11.4817
小輪半徑	-11.4817
二和	-11.4818
不精	-11.482
四箇	-11.4821
作平行線	-11.4824
從心至	-11.4826
藏經	-11.4826
丙丁戊己庚	-11.4826
少二根	-11.4828
能知	-11.4828
丑寅卯	-11.4832
根作	-11.4835
原濶	-11.4837
爲一率	-11.4839
星増一星	-11.4841
七四七	-11.4843
初虧時	-11.4845
用句股	-11.4846
三尺四寸	-11.4846
地渾	-11.4847
西土	-11.4849
兩邊線	-11.4849
兩傍	-11.485
之義也	-11.4854
太陽天	-11.4855
八分八釐	-11.4857
又列	-11.4857
不煩	-11.4859
龍尾	-11.4859
自東	-11.4867
至若	-11.4868
某時	-11.4868
辛壬線	-11.4873
之割線若	-11.4876
巳未	-11.4877
異耳	-11.4878
一七八	-11.4882
赤道規	-11.4884
則甲己	-11.4885
法俱	-11.4886
一分内三十一秒冬至史	-11.4886
庚卯	-11.4888
亦止	-11.4888
之點	-11.4893
𦵏	-11.4896
五分内四十一秒冬至	-11.4896
二百四十步即城徑也合問或問	-11.4897
山西	-11.4901
丁乙弧	-11.4903
四幾何	-11.4903
弊	-11.4904
問有	-11.4912
正月丙子朔	-11.4912
朔弦望	-11.4913
吐	-11.4914
午申	-11.4916
五限	-11.4917
移於	-11.492
丁與戊	-11.492
問爲田幾何荅曰	-11.4922
與乙角之正弦	-11.4923
石塔	-11.4923
五六七	-11.4926
鴨蛋體	-11.4929
冬至之日	-11.4929
本卷	-11.493
胥	-11.4931
食甚前	-11.4933
首行	-11.4933
漆	-11.4933
所望	-11.4933
四形	-11.4934
柄	-11.4934
濫	-11.4936
廩	-11.4936
相加減得	-11.4936
握	-11.4936
為常法	-11.4937
先得數	-11.4937
簡而	-11.4939
寜	-11.4939
寳瓶	-11.494
六十一度	-11.4941
度午中赤道	-11.4941
暢	-11.4941
八節	-11.4941
暈	-11.4942
嬴	-11.4942
度午中黄道	-11.4942
二十七日二十一刻	-11.4942
頌	-11.4943
之比即同於今所設之	-11.4943
尺問積幾何	-11.4944
赤白二經交角	-11.4944
甫	-11.4944
甲數乙數	-11.4944
象弧	-11.4944
觸	-11.4945
威	-11.4945
帶一縱	-11.4945
跨	-11.4946
度牒	-11.4946
薛	-11.4946
年正月癸夘朔十一月	-11.4946
玉衡	-11.4946
源流	-11.4946
虚心	-11.4947
晝夜永短	-11.4947
㫁	-11.4947
三歸四因	-11.4947
躬	-11.4947
考真時兩心視相距	-11.4948
招	-11.4948
綜	-11.4948
周而復始	-11.4948
團	-11.4949
吏部	-11.4949
初宫至五宫	-11.495
太陽實躔	-11.495
耦	-11.495
主線	-11.495
周日平行表	-11.495
以地為心	-11.495
須曳	-11.495
連環求等	-11.495
3.3	-11.4951
3.1	-11.4951
3.4	-11.4951
2.1	-11.4951
1.1	-11.4951
2.2	-11.4951
摩登伽經	-11.4951
倶舎	-11.4951
明邢雲路撰厯法	-11.4951
東行三百二十步	-11.4951
森	-11.4951
鬴	-11.4951
2.3	-11.4952
甲角正弦	-11.4952
年正月丁亥朔十一月	-11.4952
3.2	-11.4952
察其所對之度分秒得	-11.4952
今所設之半徑六寸為三率求得四率	-11.4952
陜西	-11.4952
倍通步	-11.4952
1.2	-11.4952
是為減差以減於平行而得實行也	-11.4953
吾邦	-11.4953
一加減比敷立成	-11.4953
開禧	-11.4953
初虧復圓距時	-11.4954
托	-11.4954
翳	-11.4954
日丑初三刻三分止甲子運	-11.4954
等上田苗	-11.4954
沉	-11.4954
鋪	-11.4954
刀	-11.4955
𦙍	-11.4956
仲秋	-11.4956
黄白交角	-11.4957
月初五日	-11.4958
裹	-11.4959
三界	-11.4959
零二秒	-11.4959
求逐年	-11.4959
芒即得次年	-11.4959
林鍾	-11.4959
崇禎八年	-11.496
梯底	-11.496
正方體之一邊	-11.496
猪	-11.496
雄	-11.496
乙出東門直行	-11.4961
十一度日左旋三百六十度除天周外	-11.4962
隄	-11.4962
禽	-11.4962
相等即	-11.4962
無可疑	-11.4963
相參直	-11.4964
庚辛線	-11.4964
投	-11.4967
合而為一	-11.4968
一面三角尖堆積	-11.4969
為一率圜内容	-11.4969
階	-11.4969
本躔度	-11.4971
之類是也	-11.4971
行速	-11.4974
秋正後	-11.4974
此二者	-11.4976
過冬至之數	-11.4977
定四子	-11.4979
股自乗之一正方	-11.4981
秒四十九微	-11.4983
十六題	-11.4983
唐宋	-11.4983
不書朔	-11.4984
申初	-11.4984
正月丁亥朔	-11.4985
更無	-11.4985
平江	-11.4986
六十五度	-11.4987
第一題	-11.4987
除實盡	-11.4988
五八四	-11.4989
其聲	-11.499
為次率	-11.4991
毎日平行	-11.4993
年正月庚申朔十一月	-11.4996
欲分	-11.4997
似乎	-11.4998
分内一秒冬至戊午	-11.4999
八等邊形之面積	-11.5004
二邉	-11.5007
五商	-11.5007
極西	-11.5007
仲夏	-11.5009
九五三	-11.5011
之升度	-11.5011
兩半徑并	-11.5012
六歸之得	-11.5014
星距太陽	-11.5016
七四五	-11.5017
第四題	-11.5018
矩内	-11.5019
交錯	-11.5019
南北東西差	-11.5019
八分内五十一秒冬至	-11.5024
所展	-11.5026
較自乗	-11.5027
相距度分	-11.5031
從丙作	-11.5033
五十二度	-11.5033
八千三百	-11.5034
離地心	-11.5036
何如	-11.5036
度差	-11.5037
黄道經緯	-11.5043
生魄	-11.5045
法並同	-11.5048
史七月	-11.5049
帶食距弧	-11.505
丁丙乙	-11.5051
納數	-11.5052
赤道正弦	-11.5053
或先有	-11.5055
一千五百八十	-11.5056
鎮星	-11.5057
方燈	-11.5058
乙角之度	-11.5058
七十七度	-11.5059
二千八百八十	-11.506
八四八	-11.5061
一千一百三十	-11.5062
加日差	-11.5062
名義	-11.5063
餘一千	-11.5064
一千寸	-11.5067
與初商之長	-11.5067
減從開平方	-11.5068
四年十月	-11.5068
上法下實得	-11.5069
線上作	-11.5069
御米	-11.5072
三八七	-11.5073
運旋	-11.5073
已來	-11.5078
九百尺	-11.5079
終限	-11.5079
甲角之度	-11.5082
所識	-11.5084
順推	-11.5084
之兩數	-11.5085
八百二十分	-11.5085
小僧	-11.5088
五二四	-11.5088
弧之弦	-11.5089
二萬三千四百	-11.5089
測五星	-11.5091
遞加之數	-11.5093
不受	-11.5094
外餘	-11.5095
圓球積	-11.5095
面之中心	-11.5097
從戊作	-11.5099
歸竒	-11.5101
己心	-11.5102
尺續書於下共	-11.5104
視物	-11.5104
其故何也	-11.5105
先將	-11.5105
逐及	-11.5105
甚廣	-11.5108
白道經度	-11.511
百萬尺	-11.5112
共人數	-11.5112
五車	-11.5117
丑辛	-11.5118
二冪	-11.5119
已庚	-11.5119
滿半周	-11.5119
平安	-11.5121
三十二秒	-11.5121
海中	-11.5122
六十六分	-11.5123
歴法	-11.5123
六一七	-11.5125
各段	-11.5127
其立法	-11.5127
八千六百四十	-11.5132
黄道經	-11.5133
次候	-11.5134
太陰行	-11.5138
交會	-11.5144
留逆	-11.5146
第十九	-11.5147
也又論曰	-11.5154
准此	-11.5154
得二萬	-11.5156
乙丁弦	-11.5158
六十三兩	-11.516
兩垂線	-11.5161
獻公	-11.5162
四尺二寸	-11.5166
通為一	-11.5166
丁亥朔	-11.5169
月己酉朔日食	-11.5173
己庚線	-11.5173
九七九	-11.5174
不食也	-11.5174
一氣	-11.5179
容臣	-11.5179
六六四	-11.518
不覺	-11.518
北海	-11.5182
從辛	-11.5184
十七萬	-11.5188
法變通	-11.5189
一十步	-11.5189
相等則一根必與	-11.519
詳加	-11.519
圏半徑	-11.5191
一十二寸	-11.5192
五百尺	-11.5195
方與	-11.5195
甲乙丙丁四	-11.5197
距天頂度	-11.5197
為末率	-11.5198
略同	-11.5198
圍日	-11.5198
反用之	-11.52
不能及	-11.5201
正弦餘弦	-11.5204
大小不等	-11.5205
以明之	-11.5208
而得之	-11.5208
年四月	-11.5208
臺髙	-11.5211
按此即	-11.5215
言月	-11.5218
聚于	-11.522
作一㸃	-11.522
地頂	-11.5221
二百九十四	-11.5224
此説	-11.5225
乙夘日	-11.5225
理數	-11.5228
必為直角	-11.5229
又将	-11.5229
嵗氣	-11.523
山之高	-11.523
移一度	-11.5232
諸角	-11.5236
為異類	-11.5237
三重	-11.5243
日之光	-11.5245
巳乙	-11.5245
又更之	-11.5247
甲本銀	-11.5248
房甲	-11.5249
戊丙乙	-11.5251
宿初度	-11.5253
如所設	-11.5254
減象限	-11.5257
一十三萬	-11.5263
乾元	-11.5265
其本行	-11.5266
法還原	-11.5269
所用者	-11.527
苗	-11.527
日未初一刻十	-11.5271
為隂	-11.5271
方隅	-11.5273
午夘	-11.5273
九十九度	-11.5274
六百一十六	-11.5274
厯周	-11.5274
第二第三	-11.5276
二四八	-11.5278
安得不	-11.5281
天監	-11.5282
山上	-11.5282
為股冪	-11.5283
加詳	-11.5283
五度有竒	-11.5284
㡬分	-11.5285
何不	-11.5286
開方除之得	-11.5286
十一月乙未朔	-11.529
共得二十	-11.5292
從壬	-11.5293
六十七秒	-11.5293
又三之一	-11.5294
丙銀數	-11.5296
固不	-11.5305
丙丁乙角	-11.5308
一平年	-11.5309
等邊形面積	-11.5309
甲乙丙角形	-11.531
之道也	-11.5314
午正時	-11.5315
能盡	-11.5316
前例	-11.5317
設如甲乙丙	-11.532
每畝	-11.5321
天球	-11.5323
以求其	-11.5325
甚少	-11.5327
章法	-11.5327
得其真	-11.5328
第一第二	-11.5328
也一曰	-11.533
□□□□□	-11.5332
共米	-11.5338
偏斜	-11.5339
貳	-11.5345
五千二百	-11.5345
史載	-11.5348
厯志	-11.5349
僅得	-11.5349
十二面體之每一邊	-11.5351
六分内一十一秒冬至	-11.5351
之徒	-11.5352
遇于	-11.5352
球體外面積	-11.5353
相减得	-11.5354
上兩直角方形	-11.5355
列右	-11.5355
六邊形	-11.5359
即得今有	-11.536
日躔赤道	-11.5364
本輪周	-11.5365
二十三度二十九分	-11.5366
二斛	-11.5367
庚子朔十一月	-11.5367
二十七兩	-11.5367
碍	-11.5368
桶	-11.5368
六分内二十一秒冬至	-11.5369
併所進之	-11.5369
賛	-11.537
所據	-11.537
迷	-11.537
自下而上	-11.5371
墟	-11.5371
无	-11.5372
荆	-11.5372
競	-11.5372
相同者	-11.5373
五百二十五	-11.5374
悞	-11.5374
餉	-11.5374
曠	-11.5374
度昏正中	-11.5374
范	-11.5374
成王	-11.5375
之分野	-11.5375
勑	-11.5376
三分損一	-11.5376
子初初刻	-11.5376
曰我	-11.5377
醫	-11.5377
賴	-11.5378
半背弦差	-11.5379
四因隅法得	-11.5379
天池	-11.5379
秩	-11.538
二萬七千七百五十九	-11.538
鄙	-11.538
三一四一五九二六五	-11.538
天運環	-11.538
炤	-11.5381
鈔	-11.5381
陋	-11.5381
併初次商	-11.5381
嵩	-11.5381
捴	-11.5382
昨	-11.5382
愛	-11.5382
雉	-11.5382
年正月辛夘朔十一月	-11.5383
籮	-11.5383
切邊角	-11.5383
𨽻	-11.5384
之比例既若	-11.5384
泛平較	-11.5384
逈	-11.5384
十一萬九千里	-11.5384
真刻分	-11.5385
藥	-11.5385
逼	-11.5385
抹去	-11.5385
應天府	-11.5386
活	-11.5386
冝	-11.5386
婆羅門	-11.5386
閱	-11.5386
壺漏	-11.5387
一度三十分	-11.5387
太陰引數	-11.5387
紹興	-11.5387
玄	-11.5387
毎期三百六十五日二時六刻	-11.5387
應閏蓋後九月	-11.5388
有髙卑	-11.5388
距正午赤道度	-11.5389
四十五日	-11.5389
極逺處	-11.539
三稜束	-11.539
晏	-11.539
挾	-11.539
五日二十三刻	-11.539
繕	-11.5391
務求	-11.5392
次汎時	-11.5392
起算之端	-11.5393
笠	-11.5394
減頭位餘	-11.5395
幾何法先	-11.5395
巡	-11.5395
幽王	-11.5395
世祖	-11.5396
尺為長方積以	-11.5396
黄道赤道	-11.5396
䕶	-11.5399
御覽	-11.54
本輪行度	-11.5401
坎艮	-11.5402
尺爲次商廉法以除次商積足	-11.5402
連比例三率	-11.5402
長闊之較	-11.5402
幂開方得	-11.5403
次光	-11.5403
古九章	-11.5403
以乗負隅仍得	-11.5404
條叚	-11.5405
繞日	-11.5406
小孔	-11.5406
所截之闊	-11.5406
綱目書	-11.5406
小斜	-11.5407
樹一株	-11.5407
切㸃	-11.5408
四十一日	-11.5408
太陽實引	-11.541
抽竒	-11.541
電	-11.5411
合問按	-11.5411
相乗之長方	-11.5414
求近時	-11.5414
宣夜	-11.5415
初虧復圓時刻	-11.5416
先言	-11.5417
精密	-11.5418
日周一萬	-11.5419
月十八日	-11.542
之本行	-11.5422
二釐五毫	-11.5422
高庳差	-11.5424
幾位	-11.5424
箇月	-11.5427
子孫	-11.5428
九三九	-11.5428
三十二刻	-11.5428
直絹	-11.5428
平積	-11.5428
相約	-11.5431
一億八千	-11.5431
非常	-11.5433
並列	-11.5433
直角三邊形	-11.5433
九箇	-11.5433
汎差	-11.5435
暦術	-11.5437
星實行	-11.5437
所截之長	-11.5438
為勾冪	-11.5439
積尸	-11.5439
照本	-11.5442
寅月	-11.5443
在日前	-11.5444
數乗之	-11.5444
四十斤	-11.5446
素問	-11.5446
八一四	-11.5446
五代	-11.5448
之一分以	-11.5448
六百八十步	-11.5448
四十五步	-11.5449
昏刻	-11.5449
西士	-11.5451
磬折體	-11.5452
見伏	-11.5453
旁通	-11.5454
簡便	-11.5454
一日之行	-11.5454
減負	-11.5458
皆係	-11.5458
婁宿	-11.546
置一自之得	-11.5463
爲實實如法得一	-11.5463
晷刻	-11.5465
章第十	-11.5465
以下者	-11.5466
移置	-11.5466
過頂	-11.5467
小均輪	-11.5468
得二百九十	-11.5471
盤心	-11.5472
算外得	-11.5472
初三刻	-11.5472
之力	-11.5473
六之五	-11.5473
辛甲壬	-11.5473
申正二刻	-11.5474
術中	-11.5476
蒼龍	-11.5476
大體	-11.5477
十一月丁亥	-11.5477
八面體積	-11.5479
賜名	-11.5479
角之割線	-11.5483
兩弦時	-11.5484
本年首朔	-11.5485
十一月壬午	-11.5486
而三之得	-11.5487
又法曰	-11.5488
每一邊之數	-11.549
分斗之	-11.549
從上亷	-11.549
文帝	-11.5493
不得見	-11.5494
景短	-11.5495
斜球	-11.5495
斗四度	-11.5496
木星平行	-11.5496
不殊	-11.5496
不可通	-11.5499
三才	-11.55
亥戊	-11.55
二十三萬	-11.5501
萬國	-11.5503
反多	-11.5503
極短	-11.5507
箕四度	-11.5508
三九五	-11.551
天常	-11.551
或稱	-11.5513
明史	-11.5513
八百一十分	-11.552
乙甲邉	-11.5521
癸三角形	-11.5522
錢糧	-11.5522
六百步	-11.5523
全儀	-11.5523
引數宫度	-11.5523
第四段	-11.5523
象限儀	-11.5526
多步	-11.5527
地谷	-11.5529
月十九日	-11.5529
真時白經高弧交角	-11.553
千九百	-11.5531
縮末	-11.5539
作一線	-11.5539
八十四兩	-11.5541
不傳	-11.5547
應閏二百	-11.5547
股弦較二尺	-11.5548
大餘五十	-11.5553
昔人	-11.5553
七畝	-11.5556
四十五兩	-11.5557
綆	-11.556
耳然	-11.5562
補成	-11.5564
西門	-11.5565
月食方位	-11.5566
上廉	-11.5566
幾倍大	-11.5566
太陽半徑	-11.5567
難於	-11.5568
九十度之正弦	-11.5568
十二支	-11.5571
星之距	-11.5572
躔道	-11.5576
四八八	-11.5577
便知	-11.5579
進一度	-11.5579
上下方	-11.5582
之比也設如有	-11.5583
朢䇿	-11.5583
七十五尺	-11.5587
見小	-11.5588
一九一	-11.559
雖無	-11.5591
夏五月	-11.5594
月丁夘朔	-11.5594
兩弦之	-11.5595
八十二度	-11.5595
七千七百	-11.5597
月二十二日	-11.5603
千五百六十	-11.5605
月壬申朔	-11.5605
輪上	-11.5609
方田積	-11.5609
以三除之得	-11.5611
夘正	-11.5611
今考	-11.5612
平行而等	-11.5614
西無	-11.5615
十一題	-11.562
命之為	-11.5626
史閏二月	-11.563
二斗五升	-11.5634
矣設如有	-11.5634
日及分秒	-11.5635
七品	-11.5636
極長	-11.5637
十四分内三十一秒冬至應閏	-11.5639
五星皆	-11.5646
和較相乗	-11.5647
當黄道之	-11.5647
四天下	-11.5649
因太陽	-11.565
累測	-11.5651
二六二	-11.5652
丑庚	-11.5653
由于	-11.5656
其長短	-11.5661
之巧	-11.5662
云凡	-11.5662
内加入	-11.5664
若星在	-11.5664
次列	-11.5665
史志	-11.5667
相減之較	-11.5671
二二三	-11.5671
月九日	-11.5672
矣然則	-11.5672
命曰	-11.5675
數但知	-11.5676
星數	-11.5682
乙角之餘弦	-11.5683
囘囘	-11.5687
二千二百八十	-11.5689
過一象限	-11.5692
出地平上	-11.5694
可明	-11.5697
二八六	-11.5698
步術曰	-11.5699
定公	-11.5699
為地半徑	-11.5701
本食	-11.5701
附㑹	-11.5704
為丙數	-11.5704
長一尺	-11.5706
乘方法	-11.5706
田數	-11.5706
全書	-11.5707
觀天	-11.571
九二三	-11.5714
一萬分	-11.5715
大于象限	-11.5716
員半徑	-11.5719
三等邊	-11.5719
四分厯	-11.5721
五一四	-11.5722
升度表	-11.5726
五三六	-11.573
總銀數	-11.5731
二錢五分	-11.5733
六十三度	-11.5734
四十年	-11.5734
十九步	-11.5736
一百二十兩	-11.5738
莫如	-11.574
可名	-11.5744
斜角形	-11.5747
除之而得	-11.5749
一千六百八十	-11.5749
買米	-11.5751
互見	-11.5752
十四斤	-11.5753
减去	-11.5757
百隻	-11.5763
一萬二千九百	-11.5766
壬㸃	-11.5767
東壁	-11.5767
有餘為三率求得四率	-11.5767
謹按	-11.5769
為單數	-11.577
二分三十秒	-11.5771
千五百里	-11.5771
六九五	-11.5774
自乗得一百	-11.5774
邵	-11.5775
秤	-11.5776
者倣此	-11.5776
實如法而一得	-11.5778
三百一十五度	-11.578
三三七	-11.5784
等邊平面	-11.5784
互易	-11.5785
列左	-11.5791
故即以	-11.5791
角旁弧	-11.5792
倍句	-11.5794
丁銀	-11.5795
四十二步	-11.5799
自頂	-11.58
三萬里	-11.5801
一千零二十四	-11.5801
經論	-11.5801
五十三分	-11.5802
皆直角	-11.5804
蒲	-11.5804
原光	-11.5806
在太陽之	-11.5807
峰	-11.5813
埋	-11.5813
用時白經高弧交角	-11.5813
四分六釐	-11.5816
豪八絲	-11.5816
覺其	-11.5819
紫微垣	-11.5819
木閣	-11.5821
夘乙	-11.5822
合之則	-11.5822
豎	-11.5823
伍	-11.5823
麤	-11.5824
或左或右	-11.5825
酬	-11.5825
二八九	-11.5825
複	-11.5825
攝提格	-11.5826
玩	-11.5826
减于	-11.5826
驚	-11.5826
一步九分六釐	-11.5828
私種	-11.5828
璧	-11.5828
詭	-11.5828
遯	-11.5829
兩廉	-11.5829
薪	-11.583
乙出東門南行	-11.583
鎔	-11.583
羅㬋計都	-11.583
迥	-11.5831
迹	-11.5831
二十九萬	-11.5831
弑	-11.5831
宵	-11.5831
其縱横相遇即所求之	-11.5832
燦	-11.5833
沖	-11.5833
鮑	-11.5833
譔	-11.5834
卧	-11.5834
韶	-11.5835
次朔	-11.5835
譌	-11.5835
相等兩邊各加	-11.5835
其號為減	-11.5836
摘	-11.5836
三角形為同式形故	-11.5836
琴	-11.5836
年至此十一閏為一紀	-11.5836
劉洪	-11.5837
琮	-11.5837
面上	-11.5837
紐星	-11.5837
相等兩邊各減	-11.5837
二十三萬八千里	-11.5837
書於初商積之下相減	-11.5837
角之對邊	-11.5838
月高距日高	-11.5838
木匠	-11.5838
丙寅年戊子月	-11.5838
畧等	-11.5838
如圖甲為天頂甲乙丙丁	-11.5839
罕	-11.5839
己巳年甲子月	-11.5839
晦朔弦望	-11.5839
4.4	-11.5839
通大分	-11.5839
5.1	-11.5839
5.2	-11.5839
搃	-11.584
肉	-11.584
5.4	-11.584
去址	-11.584
實行足減本年	-11.584
艱	-11.584
薨	-11.584
5.3	-11.584
4.3	-11.5841
烟	-11.5841
4.1	-11.5841
乙亥年丙子月	-11.5841
4.2	-11.5841
薄蝕	-11.5841
馳	-11.5842
十七萬七千一百四十七	-11.5843
茲	-11.5843
牧	-11.5843
鋼	-11.5844
魏文魁	-11.5844
倍隅法得	-11.5844
兩角相對斜線	-11.5844
權衡	-11.5844
寢	-11.5845
滿周天一百二十九萬六千秒去之餘	-11.5845
𤣥武	-11.5846
範	-11.5846
介	-11.5846
窺筩	-11.5847
正弦為三率求得四率為秒以分収之得	-11.5847
廷	-11.5848
先所得	-11.5848
古無星	-11.5848
安髙弧	-11.5848
依條段求之	-11.585
嵗閏	-11.5851
多一根	-11.5851
庚辰朔日食	-11.5851
進一度即日右行退一度退十五度而	-11.5852
律吕	-11.5852
唐一行	-11.5853
史無	-11.5853
禮記	-11.5855
等謹按	-11.5855
之比即同於今所設之甲乙丙丁	-11.5855
軸本偏	-11.5855
窺管	-11.5855
為勾股和	-11.5856
置一於左上為法	-11.5857
億零	-11.5858
蘆	-11.5858
四三三	-11.5859
帶食兩心相距	-11.5859
初虧復圓用時	-11.586
在隂厯	-11.5861
駑馬	-11.5862
七段	-11.5862
設形	-11.5863
員柱	-11.5863
以畝法	-11.5864
旁帶縱	-11.5864
虚隅	-11.5866
寅己	-11.5866
二百二十八	-11.5867
五九一	-11.5868
宫末度	-11.5868
栗價	-11.5871
對角之弧	-11.5871
試依	-11.5871
展起	-11.5872
黃極	-11.5874
地平高下差	-11.5875
銅條	-11.5875
適盡	-11.5876
至丙作	-11.5876
用進法	-11.5877
經緯之度	-11.5878
大概	-11.5879
分内一十一秒冬至	-11.5879
四十萬	-11.5879
原本銀	-11.588
冲之	-11.5881
增損	-11.5881
為單位則	-11.5882
夘丁	-11.5883
隂雲	-11.5884
二分二至	-11.5884
新㑹	-11.5885
四與三	-11.589
上層多	-11.5893
隨地不同	-11.5894
註云	-11.5895
減半周得	-11.5897
太隂地半徑差	-11.5897
記加減號	-11.5902
七四六	-11.5904
為二率今所設之圓球徑一尺二寸	-11.5906
不能度盡	-11.5907
五十丈	-11.5907
寅戊	-11.5908
用儀器	-11.591
奏明	-11.5911
最短	-11.5914
七四四	-11.5915
上禾	-11.5915
小尖圓體	-11.5917
所掩	-11.5917
朢策	-11.5918
測木星	-11.592
四句股積	-11.592
三角尖堆積	-11.5921
叀股	-11.5922
月緯	-11.5922
一丈六尺	-11.5924
恰合	-11.5925
三十六石	-11.5926
省文	-11.5926
一百二十四	-11.5927
斤數	-11.5929
得一千八百	-11.5929
初行	-11.5932
象數	-11.5932
緯限	-11.5935
二六八	-11.594
同類之	-11.5942
亥巳	-11.5943
七四八	-11.5943
最少	-11.5943
得一億	-11.5944
全圈	-11.5944
髙衝	-11.5945
外圏	-11.5945
除餘實	-11.5945
太㣲	-11.5946
孫子	-11.5947
為隅法併從方	-11.5947
互視	-11.5948
得九千	-11.5949
然惟	-11.595
能生	-11.595
入宿	-11.5951
相參	-11.5955
乘之即得	-11.5956
面積相等	-11.5958
乎地	-11.5961
不能見	-11.5961
午初三刻	-11.5963
僖公五年	-11.5963
丑巳	-11.5964
尺自乘再乘得	-11.5968
一千三百八十	-11.5969
但見	-11.5974
續書	-11.5975
能掩	-11.5976
以己為心	-11.598
並用	-11.5982
求甲丙	-11.5985
能令	-11.5988
日没	-11.5988
後魏	-11.5988
然後可以	-11.5989
六巻	-11.599
虚黄方	-11.5998
相值	-11.5998
丙南行	-11.5999
髙五十度	-11.6
鶉首初度	-11.6004
一千七百五十	-11.6005
丁夘日	-11.6009
圏界	-11.6009
所乗之	-11.6011
不及一度	-11.6011
筭外	-11.6012
率乘之	-11.6012
練	-11.6014
在卯	-11.6014
亥角	-11.6015
在上六宫者用順度	-11.602
可信	-11.6021
凸面	-11.6022
如圖甲乙丙三角形	-11.6022
初無	-11.6024
十一月辛亥朔	-11.6025
各作直線	-11.6025
舊厯	-11.6026
又先得	-11.6027
半球體	-11.6027
均齊	-11.6029
癸卯年	-11.603
析為	-11.6031
原問	-11.6031
徑之比例	-11.6031
矣假如	-11.6032
出入黄道	-11.6033
兩兩相等	-11.6034
加減之即得	-11.6035
數端	-11.6037
一正方體	-11.6039
月離黄道	-11.604
術曰并	-11.6041
與己乙	-11.6042
照前	-11.6044
必更	-11.6045
腰線	-11.6048
天門	-11.6049
黄鍾之	-11.6051
相近者	-11.6054
之積也又法以	-11.6054
相加得一百	-11.6055
加減分	-11.6059
依表	-11.6059
與乙丙等	-11.6064
平冬至	-11.6064
監官	-11.6064
漸升	-11.6065
九三二	-11.6067
以法推	-11.6067
為三十六度	-11.607
交食表	-11.6073
符合	-11.6074
以配	-11.6077
寸自乗得	-11.6083
各㸃	-11.6084
麥價	-11.6085
與本天	-11.6086
是將	-11.6088
白道度	-11.6088
一寸四分	-11.609
兩九錢	-11.6091
線與線	-11.6093
一千五百六十	-11.6094
也或問	-11.6094
五釐	-11.6095
世人	-11.6098
庚戊辛	-11.6101
大業	-11.6102
大於月	-11.6102
云何	-11.6103
廉隅共法	-11.6103
用逺鏡	-11.6103
己戊庚	-11.6103
七十尺	-11.6106
角必等	-11.6108
有遲速	-11.6109
北齊	-11.611
三百五十九	-11.6111
諸節氣	-11.6115
初開	-11.6118
三平廉	-11.6119
與戊巳	-11.6121
二分八釐	-11.6122
乾隅	-11.6122
公子	-11.6124
十一月辛巳	-11.6126
九六六	-11.6126
作丁甲	-11.6128
共步得	-11.6131
十等邊形之面積	-11.6135
狼	-11.6136
千八百六十	-11.6136
子初一刻	-11.6138
統元	-11.6139
甲與丁	-11.614
兩零	-11.6143
計開甲	-11.6144
六七四	-11.6144
圓城	-11.6148
也此法因	-11.6152
甲至丁	-11.6156
九十四日	-11.6156
為一時	-11.6157
食甚近時	-11.6158
冬十一月	-11.616
所剖	-11.6161
從乙作	-11.6161
尾宿	-11.6164
至圜界	-11.6164
二道之交	-11.6166
千七百	-11.6167
月後天	-11.6167
䝉氣	-11.6169
為股圓差	-11.617
六一四	-11.6171
甲庚線	-11.6171
緯表	-11.6172
甚易	-11.6172
軸線	-11.6173
照地	-11.6175
六年十月	-11.6177
加減時	-11.6188
四分七釐	-11.6189
擇其	-11.619
乗之為實	-11.619
視角	-11.6191
庚戌朔	-11.6192
累減	-11.6193
也又按	-11.6194
作一圜	-11.6195
在冬至後	-11.6196
霜降十四日十一時五刻五分	-11.6202
每工	-11.6202
七分内五十一秒冬至	-11.6204
定刻分	-11.6204
亥正三刻	-11.6205
四百四十八	-11.6207
分寸	-11.6207
求積法以	-11.6208
六因之	-11.621
兩形等	-11.6215
求之即得	-11.6216
八五八	-11.6222
尖切	-11.6222
悉皆	-11.6224
戊辰朔日食	-11.6225
外圓徑	-11.6225
近時東西差	-11.6227
矩尺	-11.6231
乙甲丙形	-11.6232
為北極	-11.6233
刻夜半日度	-11.6234
二一四	-11.6234
酉角	-11.6234
十一月戊戌	-11.6236
甲丙丁三角形	-11.6237
巳壬	-11.6239
圓象	-11.6243
年天正冬至次日	-11.6245
兹不	-11.6246
皆非也	-11.6247
再查	-11.6248
無影	-11.625
列右行	-11.6251
永平	-11.6253
也若夫	-11.6258
三十六刻	-11.6258
西移	-11.6259
次輪心距	-11.626
在本道	-11.626
二分二十五秒	-11.6266
引數求	-11.6268
地圓	-11.6268
三寸九分	-11.627
丙戊邊	-11.627
考測	-11.6274
安於	-11.6278
各相似	-11.628
二十面體之每一邊	-11.6283
從地平	-11.6285
實盡	-11.629
元初	-11.6291
股和	-11.6295
子夘	-11.6296
鉞	-11.6297
冥	-11.6299
籠	-11.63
條下	-11.63
六十刻	-11.6301
瞡筩	-11.6301
黄赤二經交角	-11.6302
目見	-11.6303
叅相直	-11.6303
敦	-11.6303
善行者	-11.6304
體之積	-11.6304
為心甲為界	-11.6305
天市垣	-11.6305
茂	-11.6305
重心	-11.6305
隨地隨時	-11.6305
繹	-11.6306
瓦匠	-11.6306
櫃	-11.6306
奈何	-11.6306
鳩	-11.6307
清蒙之氣	-11.6307
身外加	-11.6308
郤	-11.6308
改憲	-11.6308
懷	-11.6308
湯若望	-11.6308
最難	-11.6309
八面體之每一邊	-11.6309
黃鐘	-11.6309
在高弧西	-11.631
隋志	-11.6311
貫索	-11.6311
輛	-11.6311
為三乘方實	-11.6312
浩	-11.6312
戈	-11.6312
虧食	-11.6313
窟	-11.6313
九百七十	-11.6313
梅文鼎	-11.6314
勉	-11.6314
杯	-11.6314
辛巳年戊子月	-11.6315
辛酉年戊子月	-11.6315
癸亥年壬子月	-11.6315
傭錢	-11.6315
戊午年壬子月	-11.6315
年至此十一閏一紀縮一年下起	-11.6315
壬午年庚子月	-11.6315
祠	-11.6315
日酉正初刻十	-11.6315
在食甚前	-11.6315
晴	-11.6315
癸丑年壬子月	-11.6316
財	-11.6316
虗	-11.6316
太白辰星	-11.6316
戊申年壬子月	-11.6316
辛丑年戊子月	-11.6316
丙午年戊子月	-11.6316
壬寅年庚子月	-11.6316
丁酉年庚子月	-11.6316
徑一圍三	-11.6316
丁亥年庚子月	-11.6316
丙申年戊子月	-11.6317
庚戌年丙子月	-11.6317
弧之正弦檢表得	-11.6317
禮部知道	-11.6317
庚寅年丙子月	-11.6317
丁直角	-11.6317
丁角之正弦	-11.6317
癸巳年壬子月	-11.6317
矩線内直角形	-11.6317
甲午年甲子月	-11.6317
圓球徑一尺二寸	-11.6317
該若干答曰	-11.6317
囤	-11.6318
辛卯年戊子月	-11.6318
容員半徑	-11.6318
灼然	-11.6319
未初三刻	-11.6319
龍柱	-11.6319
孔雀	-11.632
蔵	-11.632
諧	-11.6321
東西泛差	-11.6322
毎期三百六十五日二時五刻	-11.6322
訛舛	-11.6322
考靈耀	-11.6322
也此法蓋因	-11.6323
鷄	-11.6323
宻室	-11.6324
蒸	-11.6324
逰表	-11.6324
罔	-11.6324
厨	-11.6324
句弦并	-11.6325
心向	-11.6326
句股錐	-11.6327
江河	-11.6327
雩	-11.6327
兩行之差	-11.6328
洪武甲子	-11.6329
二十四銖	-11.6329
畧同	-11.6332
適足九十度	-11.6332
月行遲疾	-11.6332
術曰二行相乘	-11.6332
二十八舍	-11.6333
邊與半總之較	-11.6333
人分銀	-11.6333
白道限度	-11.6333
製器	-11.6333
毒	-11.6334
在天頂北	-11.6335
所紀	-11.6336
酉宫	-11.6336
退衝	-11.6337
最遠	-11.6337
朔朢時	-11.6338
圓窖	-11.6338
深淺	-11.6341
丑㸃	-11.6342
五星凌犯	-11.6342
三角法	-11.6344
禮臣	-11.6345
二八八	-11.6346
算書之	-11.6347
之比既得	-11.6348
轉際	-11.635
通率	-11.635
疾遲	-11.6354
終始	-11.6354
六十斤	-11.6355
六萬五千	-11.6356
率分母	-11.6356
日月諸星	-11.6357
在陽厯	-11.6359
約畧	-11.636
乘四次	-11.636
加減六宫	-11.6361
亥初二刻	-11.6362
白道實行	-11.6363
第五題	-11.6363
整齊	-11.6364
如甲乙丙三角形	-11.6366
髙祖	-11.6366
失光	-11.6367
異於	-11.6368
一百二十斤	-11.6368
分六十四秒	-11.6368
六九九	-11.6369
距交前後	-11.6369
本圏心	-11.637
楚子	-11.6371
第二格	-11.6372
十二宫減之	-11.6374
而後可以	-11.6375
面幂	-11.6377
三分三釐	-11.6378
卯中	-11.6379
相為比例	-11.6379
大陵	-11.638
合之成	-11.6382
而復于	-11.6382
以三因	-11.6383
二尺八寸	-11.6384
大槩	-11.6385
某㸃	-11.6386
最髙最卑	-11.6386
四萬二千	-11.6389
方法算之得	-11.6392
六八七五	-11.6392
平立差	-11.6393
户納糧	-11.6394
本圜	-11.6395
之時分	-11.6395
晝夜時刻	-11.6397
求次均數	-11.6399
月掩	-11.6403
樞線	-11.6404
四度四十六分	-11.6405
月離厯指	-11.6413
秒五十㣲	-11.6414
得每分	-11.6415
求積之法	-11.6417
太陽視半徑	-11.6417
相乗之積	-11.6417
初宫初度	-11.642
開方法	-11.642
漢人	-11.6421
乙形有	-11.6426
未聞	-11.6428
見本卷	-11.6429
星居	-11.643
萬一千一百	-11.6432
三支	-11.6434
五十一度	-11.6437
如法而一	-11.6437
二百九十六	-11.6438
四十一刻	-11.6439
明白	-11.644
立錐	-11.644
三十一秒	-11.6442
益逺	-11.6442
廿五	-11.6442
平方立方	-11.6443
寅夘	-11.645
尤多	-11.6456
虚宿	-11.6456
對待	-11.6457
之用也	-11.646
四十八日	-11.6461
所書	-11.6461
以全除之	-11.6462
東漢	-11.6466
刻一十三分	-11.6467
原非	-11.6467
繫之	-11.6467
七分六釐	-11.6468
八四五	-11.6469
兩端各	-11.6474
陽馬體	-11.6475
宜商	-11.6475
器測	-11.6477
月十一日	-11.6477
減之即得	-11.6484
長四尺	-11.6484
友人	-11.6489
兩均數	-11.6492
日月俱	-11.6495
食甚視緯	-11.6498
分中之	-11.6499
準此	-11.6504
然後可	-11.6506
物重	-11.6507
為實實如法而一	-11.6516
其度相等	-11.6518
平春分	-11.6521
也况	-11.6521
八八三	-11.6523
向位	-11.6524
依新法	-11.6533
南廣	-11.6536
辰辛	-11.6536
通徑	-11.6538
甲乙己戊	-11.6538
毎人	-11.6542
與日㑹	-11.6542
甲丙丙乙	-11.6543
年正月丙寅朔	-11.6543
在日之	-11.6543
既知	-11.6544
五分之四	-11.6545
二百二十三	-11.6546
勾較	-11.6546
九三七五	-11.6548
位列之	-11.6548
循黄道	-11.6549
辰刻	-11.6551
作記	-11.6553
角等則	-11.6556
此意	-11.6558
草曰以	-11.6558
始可	-11.6561
其積數	-11.6562
大小之比例	-11.6564
甲乙丁三角形	-11.6569
不勝	-11.6577
未斗	-11.6578
以定其	-11.6582
尖圓	-11.6583
為皇極弦	-11.6583
不獨	-11.6586
三分内一秒冬至史	-11.6586
六八六	-11.6588
加四倍	-11.659
并而半之	-11.6592
八年正月	-11.6592
四百七十六	-11.6594
線遇于	-11.6596
任以一	-11.6598
文字	-11.6605
過半周	-11.6609
全入	-11.661
夏六月	-11.6611
減半周餘	-11.6622
白道極	-11.6622
又㨗法	-11.6624
考古	-11.6627
所射	-11.6628
二十二日	-11.6629
平元年	-11.6629
尚多	-11.6633
三百八十六	-11.6633
四十里	-11.6634
此規	-11.6636
命分數	-11.6637
初商一百	-11.6638
卅一	-11.6642
四維	-11.6643
從天頂	-11.6648
甲乙丙句股形	-11.6648
日九十一刻	-11.6651
黄赤道差	-11.6651
乙癸線	-11.6658
甲乙偕	-11.6664
午癸	-11.6668
闇虚心	-11.6668
本輪均輪	-11.6673
平列	-11.6678
書所載	-11.6685
說見	-11.6688
大致	-11.6692
臣淳風	-11.6692
心之距	-11.6694
依此法	-11.6698
一歲之	-11.6699
十一月己酉	-11.6703
半面	-11.6705
羽林	-11.6705
春分距午時分	-11.6706
自之得一十	-11.6708
物象	-11.6709
又九之	-11.671
甲乙丁戊	-11.6713
諸形	-11.6716
六分内四十一秒冬至	-11.6717
九格	-11.6719
歩不盡	-11.6719
一百五十五	-11.672
盛米	-11.6721
於左上	-11.6723
第一食	-11.6724
建武	-11.6725
平行實行	-11.673
全邊	-11.6735
諸儒	-11.6736
諸儀	-11.6736
為實實如法而一得	-11.6748
彗	-11.6751
十尺自乘	-11.6753
抽	-11.6754
釐二毫	-11.6755
胡氏	-11.6759
二百二十五度	-11.6762
緯正弦	-11.6766
須先	-11.6767
角旁之	-11.6772
䵂	-11.6772
在形外	-11.6774
皆屬	-11.6774
下錦	-11.6774
先算	-11.6774
六尺六寸	-11.6775
約率	-11.6777
食之分	-11.6783
授時推	-11.6785
六錢五分	-11.6787
形之一邊	-11.6788
畜	-11.6789
次輪行	-11.679
不可謂	-11.6791
有畸零	-11.6794
午正一刻	-11.6794
比敷分	-11.6795
自南而北	-11.6796
數萬里	-11.6796
四寸八分	-11.6797
額	-11.6797
一八五	-11.6797
綰	-11.6799
枕	-11.6799
闔	-11.68
二十等面體	-11.68
草澤	-11.6801
攸	-11.6801
汲	-11.6802
釐七毫五絲	-11.6802
三角求邊	-11.6803
太昊	-11.6803
十一月乙亥日	-11.6804
賁	-11.6804
𦂳	-11.6805
御製厯象考成表卷	-11.6805
蟄	-11.6806
别置	-11.6806
欽定四庫全書御製厯象考成表卷	-11.6807
在實沈	-11.6808
徐光啟	-11.6808
四行時表	-11.6809
退一等	-11.6809
貫二百文	-11.681
波	-11.6811
猛	-11.6811
登臺	-11.6811
矣然而	-11.6812
於徽術當	-11.6812
闊不及長	-11.6812
禍福	-11.6812
問得幾何荅曰爲	-11.6812
欽遵	-11.6813
闊比髙多	-11.6813
播	-11.6813
亘	-11.6813
以減從方餘	-11.6813
祝	-11.6813
芻甍	-11.6814
除不除便以	-11.6814
參伍	-11.6814
閻浮	-11.6814
詣	-11.6814
二十三度九十分	-11.6815
律度量衡	-11.6815
花	-11.6815
祇	-11.6815
九九九八五七一	-11.6815
儻	-11.6815
度是為加差以加於平行而得實行也	-11.6816
為次商一小隅面積合三方	-11.6816
愽	-11.6816
察其所對之分秒得	-11.6816
曆	-11.6816
一率半徑一千萬為二率	-11.6816
等一户	-11.6816
年十一月丙午朔	-11.6816
草曰識别得	-11.6816
超進	-11.6816
諌	-11.6817
每期三百六十五日二時六刻	-11.6817
刻白爾	-11.6817
泛平積	-11.6817
蕐	-11.6817
朗	-11.6818
月與五星	-11.6818
隕	-11.6818
萌	-11.6818
失一閏	-11.6818
至朔同日	-11.6819
用交食北極髙四十度黄平象限表以	-11.6819
辰初一刻	-11.6819
為三率二三率相乘一率除之得四率	-11.6819
匠人	-11.682
為初商積以初商本位計之則	-11.682
用時太陽距午赤道度	-11.682
以乘上位得	-11.682
甲從乾隅	-11.6821
半較角切線	-11.6821
榆	-11.6822
刻少弱	-11.6822
監局官生	-11.6822
烝	-11.6823
齊侯	-11.6823
二百恒年表	-11.6824
又設如原數	-11.6824
縮末厯	-11.6824
趙君卿	-11.6824
若干畣曰	-11.6825
貫五百文	-11.6825
濃	-11.6826
乂	-11.6826
二十里	-11.6827
隠公	-11.6827
積年日法	-11.6827
四遊圏	-11.6827
聰	-11.6827
立方開之得	-11.6827
以數明之	-11.6828
一三五七九	-11.6828
幾許	-11.6829
半外角切線	-11.683
嘉量	-11.683
其餘弧	-11.6831
燒	-11.6831
夜漏	-11.6831
時憲書	-11.6832
星在黄道南	-11.6832
三十五步	-11.6835
求積幾何法以	-11.6835
縮初厯	-11.6836
所倍于	-11.6837
壕	-11.684
一百三十五步	-11.6841
穽	-11.6841
搬	-11.6843
良馬	-11.6844
奉命	-11.6845
年十一月壬子朔	-11.6846
乙丁與丁丙	-11.6849
六六六六	-11.6849
遞析	-11.6852
申正三刻	-11.6856
回回暦	-11.6856
一千七百一十	-11.686
億四千四百	-11.686
界限	-11.686
日出入時刻	-11.6861
中呂	-11.6861
時憲	-11.6861
自然之理	-11.6861
第三格	-11.6863
陰陽厯	-11.6865
相犯	-11.6866
弦自乗之一正方	-11.6866
寅初初刻十	-11.6867
為下法與上法相乗除	-11.6869
書於左	-11.6869
釐四豪	-11.687
珠算	-11.687
淮南子	-11.687
本動	-11.6871
屢測	-11.6872
有微差	-11.6872
八等面體	-11.6873
二與八	-11.6874
九十步	-11.6874
五百七十六尺	-11.6874
見本厯	-11.6876
一萬二千五百	-11.6877
欽天	-11.688
人目髙	-11.6881
三十八刻	-11.6882
地平高	-11.6889
分十五秒	-11.6889
三丈六尺	-11.6891
四百八十步	-11.6891
皆無減	-11.6894
交霜降	-11.6895
六九七	-11.6895
一千三百四十	-11.6895
至子午圏	-11.6898
入隂厯	-11.6899
為法除之即得	-11.6899
叀和	-11.6899
四分内二十一秒冬至應閏	-11.6901
兩平行方形	-11.6903
何以知其	-11.6903
一星増一星	-11.6907
郎中	-11.6907
日藏經	-11.6908
日出時	-11.6911
起筭	-11.6914
午未申酉	-11.6916
不可易	-11.6917
八十寸	-11.6918
未正二刻	-11.692
一二二	-11.6922
何必	-11.6923
戌初三刻	-11.6925
六分六釐	-11.6925
地影心	-11.6926
省乗	-11.6927
相隔	-11.6927
其食限	-11.693
長五尺	-11.6932
近代	-11.6935
以一根與	-11.6937
乙戊邊	-11.6937
月實引	-11.6939
於右下	-11.694
一七九二	-11.6941
十六兩八錢	-11.6941
定二子	-11.6946
戊己弧	-11.6947
之髙下	-11.6947
三千四十	-11.695
從事	-11.6952
如上圖甲乙	-11.6953
亥丁	-11.6954
次開方得一	-11.6957
所立之	-11.6958
每段	-11.6958
二丈二尺	-11.6959
西暦	-11.6962
十餘秒	-11.6964
太虛	-11.6965
易曉	-11.6966
過宫	-11.6968
任用一	-11.697
錦	-11.6971
千八百	-11.6974
縱界	-11.6978
正月戊子朔	-11.698
所占	-11.6983
申初三刻	-11.6988
第二十三	-11.6988
鄭氏	-11.6991
明帝	-11.6991
經傳	-11.6998
於頭位	-11.7001
一千四百八十	-11.7002
乙鈍角	-11.7005
五百八十三	-11.7007
算例	-11.7011
也注云	-11.7013
為兩直角	-11.7015
弧綫	-11.7018
月二十一日	-11.7019
甲鈍角	-11.7019
千九百七十	-11.702
星官	-11.7023
未正三刻	-11.7024
二寸八分	-11.7024
第三㸃	-11.7025
與末數	-11.7027
丙斜行	-11.7028
泰山	-11.7031
圜之半徑	-11.7035
一千一百二十	-11.7035
角亢	-11.7035
為三百六十度	-11.7035
通分内子	-11.7037
之所由	-11.7037
秒三十三微	-11.7037
論曰試于	-11.7037
十萬里	-11.704
甲乙丙丁戊五	-11.7048
八八七	-11.7053
徽術	-11.7055
積度全分	-11.7056
此事	-11.7057
相和半	-11.7058
最多	-11.7061
圍徑	-11.7063
六十一分	-11.7066
勾陳	-11.7067
多端	-11.7072
八綫	-11.7073
差二度	-11.7078
幂積	-11.7082
星座	-11.7083
九之四	-11.7083
十一月壬辰	-11.7085
四四九	-11.7085
如前例	-11.7086
甲丁甲戊	-11.7088
六十四刻	-11.7091
七十五萬	-11.7091
積較	-11.7092
丁乙邊	-11.7092
長一百二十尺	-11.7093
事理	-11.7094
不附	-11.7096
三斗二升	-11.71
辰初二刻	-11.7102
設時兩心視相距	-11.7103
相易	-11.7107
掩太陽	-11.7116
一八八	-11.7118
試法	-11.712
解見	-11.7123
丙角之切線	-11.7124
故特	-11.7125
正降	-11.7126
分形之	-11.713
年春	-11.7132
八箇	-11.7135
各自乘相減	-11.7138
六曜	-11.7141
距緯度	-11.7142
十一月癸丑日	-11.7145
舟行	-11.7147
按此條	-11.7153
亦可得	-11.7154
十四分内三十一秒冬至史	-11.7155
月交一十三日九	-11.7157
太隂距太陽	-11.7161
萬四千里	-11.7161
漸消	-11.7164
六品	-11.7165
四三七五	-11.7165
中分之	-11.7165
四千三百二十	-11.7165
黄赤經緯	-11.7166
何處	-11.7169
八八二	-11.7171
七三六	-11.7172
相加折半	-11.7173
至天頂	-11.7174
十四題	-11.7176
少陽	-11.7178
圏之心	-11.7182
三十畝	-11.7184
原書	-11.7186
四十八寸	-11.7187
弧之正	-11.7193
庚亥	-11.7193
億九千四百	-11.7195
真時差	-11.72
丙戊弧	-11.7201
併從方共	-11.7208
十餘年	-11.7211
置象限	-11.7217
真時東西差	-11.7217
用時兩心視相距	-11.722
仍舊	-11.7221
赤道上之	-11.7221
八三六	-11.7227
按右	-11.7228
線則成	-11.7233
月八日	-11.7235
不越	-11.7235
巳癸	-11.7237
光線	-11.7238
差而西	-11.7238
一千七百二十八	-11.7238
他物	-11.7247
三三六	-11.7248
東門外	-11.7258
奇數	-11.7261
十一月甲辰朔	-11.7262
東行步得	-11.7263
一十八步	-11.7267
同土木	-11.7268
元嘉厯	-11.7268
可證	-11.7269
者反是	-11.727
不遠	-11.7281
一百七十九	-11.7282
故必以	-11.7283
若干倍	-11.7286
乙庚線	-11.729
為太陽之	-11.7292
諸數皆	-11.7297
直剖	-11.7298
鶉	-11.7301
測晷	-11.7304
本年天正冬至	-11.7306
壽	-11.731
午丁	-11.731
為法除得	-11.7311
稟	-11.7313
底置尺	-11.7313
步天歌	-11.7315
體等三入	-11.7316
海島	-11.7317
晨疾	-11.7317
臼	-11.7318
倍初商加次商	-11.7319
在天頂南	-11.7322
𨼆	-11.7323
異乘同除	-11.7324
周三徑一	-11.7324
初數次數	-11.7324
火木土	-11.7324
六分内三十一秒冬至應閏	-11.7325
尺二寸五分	-11.7325
槃	-11.7326
弦與勾股較之較十尺	-11.7327
動的月	-11.7327
技	-11.733
彷	-11.7331
術曰如方程	-11.7332
葭	-11.7332
愆	-11.7333
奄	-11.7333
懿	-11.7333
徐光啓	-11.7333
哲	-11.7334
傭	-11.7334
紫炁	-11.7334
署	-11.7334
祖沖之	-11.7335
前多後少	-11.7335
昻	-11.7335
葛	-11.7336
棚道	-11.7336
虧至甚	-11.7336
距交加差	-11.7336
以存其位	-11.7336
黄赤道大弦	-11.7337
響	-11.7337
朕	-11.7337
綸	-11.7337
與二直角等	-11.7337
劄	-11.7337
根則餘	-11.7338
隨天左旋	-11.7338
紫薇	-11.7339
斟酌	-11.7339
脚跡	-11.7339
冩	-11.7339
少二眞數	-11.7339
籥	-11.734
芥	-11.7341
笇	-11.7341
慧	-11.7341
晨前夜半定星三百	-11.7341
置一於左次為上法	-11.7341
爲衰	-11.7341
商三方廉面積以除	-11.7341
範圍	-11.7341
藝文志	-11.7342
稀	-11.7342
割綫	-11.7342
為同數與左相消得丨	-11.7342
轍	-11.7342
為相連比例三率	-11.7342
揣	-11.7342
方程法算之	-11.7342
之假數書於減餘之下相減	-11.7342
上考往古則置	-11.7343
之假數即以一	-11.7343
途	-11.7343
歳輪	-11.7343
一正一負故相加得	-11.7344
安高弧	-11.7344
羅婆	-11.7344
乗之即得今有	-11.7344
徃徃	-11.7344
恒年表	-11.7344
佗	-11.7344
􁅙	-11.7344
顔	-11.7344
榖雨	-11.7345
淳熈	-11.7345
唐開元	-11.7345
尖設如原數	-11.7345
尺之上合初商共	-11.7346
瞬	-11.7346
在星紀宫	-11.7346
纂修	-11.7347
彈丸	-11.7347
渡	-11.7347
二月交一十四日	-11.7347
轄	-11.7347
兩三角形其	-11.7348
三分之每分	-11.7348
逸	-11.7348
慝	-11.7348
半徑六十	-11.7348
鸞	-11.7348
幾何法借	-11.7348
長闊相乘	-11.7348
食分多寡	-11.7348
闊之較用帶縱較數開平方法算之得闊	-11.7348
雷電	-11.7348
九兆三千	-11.7349
如圗甲乙丙丁	-11.7349
季春	-11.7349
阻	-11.7349
司禄	-11.735
晉侯	-11.735
溯	-11.735
宫一宫十宫初宫十一宫一宫十宫	-11.735
一小正方形	-11.735
圜之輻線	-11.735
列甲左	-11.735
貌	-11.735
年十一月甲午朔	-11.7351
卯正酉正	-11.7352
駕	-11.7352
保章	-11.7352
六十度之通弦	-11.7353
絃	-11.7353
七之三	-11.7353
聖賢	-11.7353
鼏	-11.7354
迄夏至	-11.7355
暢春園	-11.7356
嵩髙	-11.7356
雞母	-11.7357
上直角方形并與	-11.7357
愈遠	-11.7359
與甲乙平行	-11.736
大方積	-11.736
公羊	-11.736
年十一月丁亥朔	-11.736
噶西尼	-11.736
行里數	-11.7362
氐宿	-11.7362
囘奏	-11.7364
著書	-11.7365
中錦	-11.7366
之所多	-11.7366
六月戊申朔	-11.7367
年十一月癸未朔	-11.7369
分八十四秒	-11.737
距交九十度	-11.737
巳辛	-11.7371
之比也既得	-11.7372
西法謂之	-11.7372
不妨	-11.7373
曲折	-11.7373
入元嵗	-11.7374
在赤道外	-11.7375
定朔小餘	-11.7377
四千零	-11.738
五金線	-11.7381
先解	-11.7381
凌犯時刻	-11.7383
石之價	-11.7386
督率	-11.7386
酉巳	-11.7387
増損	-11.7387
業已	-11.7387
岸髙	-11.7388
小圈	-11.739
從坤隅	-11.739
南洲	-11.7393
静天	-11.7393
山海	-11.7393
又捷法	-11.7399
六藝	-11.7399
牙距	-11.7399
大距正弦	-11.7401
太陽在最卑	-11.7403
立天元一法	-11.7407
自天頂	-11.7409
弦求股	-11.7409
者俱倣此	-11.7409
十二段	-11.7409
銅儀	-11.741
不可不知	-11.7412
九百九十六	-11.7414
十二面體積	-11.7415
觀象	-11.7416
自乗之一正方	-11.7418
八十五度	-11.7421
偏東西	-11.7423
試于	-11.7425
三千四百六十	-11.7427
加隅	-11.7427
何獨	-11.7429
臺高	-11.7432
兩角必等	-11.7433
過半周者	-11.7434
六十九秒	-11.7438
與九十度相	-11.7439
臨時	-11.7441
者也其	-11.7452
兩數並	-11.7459
四兩四錢	-11.7459
子㸃	-11.746
對數表	-11.7461
釐五豪	-11.7466
立晷	-11.7467
未酉	-11.7468
推算之法	-11.7469
略舉	-11.747
審定	-11.7471
加時定星三百	-11.7471
零七秒	-11.7472
周遭	-11.7474
光色	-11.7476
七九二	-11.7478
八秒二十㣲	-11.7479
月初四日	-11.748
分母分子	-11.7481
若欲知	-11.7488
地平緯度	-11.7488
無庸	-11.7488
卯辰巳午	-11.7491
望月食	-11.7491
所由生	-11.7496
半日周	-11.7496
布列	-11.7498
在東井	-11.7499
圜之徑	-11.7504
如十字	-11.7509
可盡	-11.7509
斷其	-11.7509
分為一率總	-11.7512
先推太陽躔	-11.7513
六月交二十六日	-11.7516
泛差	-11.7517
尤甚	-11.7518
闊二十尺	-11.7519
南陸	-11.752
一百四十八	-11.7524
如上圖甲乙為	-11.7525
鄭注	-11.7526
縱廣	-11.7527
九十三度	-11.7528
每丈	-11.753
燈體邊	-11.7532
曲線形	-11.7532
甲丙丁己	-11.7534
距合伏	-11.7535
絹價	-11.7536
衆人	-11.7537
人給	-11.7543
無正負	-11.7545
九度四十分	-11.7547
第一亷	-11.7547
古謂之	-11.7549
所積之	-11.7551
書器	-11.7553
底弧	-11.7554
十字相交	-11.7559
卯辛	-11.7561
午辛	-11.7566
一十二丈	-11.7569
六七八九	-11.7575
不足減者	-11.7578
小句股形	-11.7579
乙與丁	-11.7579
始生	-11.758
相加成	-11.7597
三年十月	-11.76
萬分之	-11.7602
絲三忽	-11.7603
豈無	-11.7606
鼈臑體	-11.7614
宗動天之	-11.7617
一千零五十	-11.7626
歲二月	-11.7631
寅邜	-11.7631
七百零	-11.764
厯元後	-11.765
丁甲丙角	-11.7654
廿八	-11.7655
乙角丙角	-11.7657
萬尺之上而以	-11.7661
神明	-11.7663
自圜心至	-11.7665
省算法	-11.7666
萬三千一百二十	-11.7667
近時兩心視相距	-11.7667
天上之	-11.7668
母銀	-11.7671
五分内一秒冬至史	-11.7672
斛四斗	-11.7679
乃以初商之	-11.7681
崇禎元年戊辰	-11.7683
六宫初度	-11.7684
有髙下	-11.7687
勾筭	-11.769
周天三百六十五度	-11.7691
角所對	-11.7696
壬三角形	-11.7696
無疑也	-11.7696
七十刻	-11.7697
二百零八	-11.7699
三與二	-11.7703
辛丑朔日食	-11.7704
斜入	-11.771
須彌山	-11.7711
第一位	-11.7713
有三種	-11.7715
與丙等	-11.7718
宮初度	-11.772
太陽髙度	-11.7722
以别之	-11.7722
乙至丙	-11.7729
距黃道	-11.773
施於	-11.773
分零四秒	-11.7733
每斤	-11.7737
邊之一	-11.7739
上錦	-11.774
二與四	-11.774
太陽行度	-11.7742
數於共	-11.7749
尾箕	-11.7752
下端	-11.7753
角旁兩	-11.7753
七政經緯	-11.7755
平行度分	-11.7757
九分三十秒	-11.7768
三統厯	-11.7769
七二四	-11.7773
九三六	-11.7775
二十有四	-11.7777
二十四萬	-11.7778
三十二步	-11.778
東西定差	-11.7785
二千石	-11.7791
十一月丁夘日	-11.7797
相類	-11.78
七十六歲	-11.78
一十九萬	-11.7801
甲午朔日食	-11.7804
古稱	-11.7809
正月己夘朔	-11.7811
十有八	-11.7815
始終	-11.7817
副併	-11.7817
撱圎	-11.7824
正月乙夘朔	-11.7826
直線三角形	-11.7826
弧之矢	-11.7836
加股弦較	-11.7845
五年十月	-11.7849
八分五釐	-11.786
四百一十六	-11.7861
圓徑以自之	-11.7862
蠟	-11.7867
尅	-11.7869
為二率今所得之	-11.7871
包羲	-11.7872
心箕	-11.7873
倍東行	-11.7874
法為全與	-11.7874
體等二入	-11.7876
作線至	-11.7877
兩形相似	-11.7878
春王正月	-11.7878
理分中末線之大分	-11.7878
正弧三角形求	-11.7878
染	-11.7878
軰	-11.7878
炭	-11.7879
茶	-11.788
開闢	-11.788
軒	-11.7881
笑	-11.7881
膠	-11.7881
晷漏	-11.7881
秀	-11.7881
藴	-11.7882
議叙	-11.7883
與甲丁等	-11.7883
八十八日九	-11.7883
隋開皇	-11.7884
低昂	-11.7884
陟	-11.7885
芳	-11.7885
十百千萬	-11.7885
頼	-11.7886
倪	-11.7886
在本天最髙	-11.7887
百官	-11.7887
閔	-11.7888
不及故舎	-11.7889
為三率則得四率	-11.7889
望筒	-11.7889
衙門	-11.789
勾股求容圓	-11.789
聖裁	-11.789
斡	-11.789
黄宏憲	-11.789
懇	-11.7891
月距日次引	-11.7891
自心至	-11.7891
夏小正	-11.7891
棟	-11.7891
寥	-11.7892
中田苗米	-11.7892
今推至日合	-11.7892
十一月丁丑日	-11.7892
迂	-11.7892
溷	-11.7892
歎	-11.7893
更體線	-11.7893
下田苗米	-11.7894
瑞	-11.7894
奉明㫖	-11.7894
凉	-11.7894
攜	-11.7895
黄赤大距二十三度二十九分三十秒	-11.7895
繆	-11.7896
大僧饅首	-11.7896
縷	-11.7896
詆	-11.7896
董	-11.7896
尺爲初商積與	-11.7896
曚	-11.7896
合而觀之	-11.7897
龍頭龍尾	-11.7897
洛下閎	-11.7897
秬黍	-11.7897
一多一少	-11.7898
扐	-11.7898
更面線	-11.7898
糲飯	-11.7898
蚤	-11.7898
年十一月辛丑朔	-11.7898
性情	-11.7899
暉	-11.7899
1.3	-11.7899
靈憲	-11.7899
4.5	-11.7899
邇	-11.7899
嵗正月庚申朔十一月	-11.79
璇璣	-11.79
三之四而一	-11.79
開連枝	-11.79
㝠	-11.79
案呈到部	-11.7901
熾	-11.7901
攘	-11.7901
子午卯酉	-11.7901
周嵗三百六十五日二四二一八七五	-11.7902
敬授人時	-11.7903
五萬九千四十九	-11.7903
之比例亦大于	-11.7903
周嵗平行表	-11.7903
芻	-11.7904
為二率一分為三率推得四率	-11.7904
乏	-11.7904
月庚子朔日食	-11.7904
稼	-11.7905
日距地髙	-11.7905
地心所出	-11.7906
以減下廉餘	-11.7906
大赦	-11.7906
演紀上元甲子距	-11.7907
内容圓球徑	-11.7907
不及損者	-11.7907
所知之邊為三率求得四率	-11.7908
五邉形	-11.7908
日躔厯指	-11.7909
剪毛	-11.7909
谷白泥	-11.7909
促	-11.791
塔頂	-11.791
星距地心線	-11.791
上端	-11.7911
作甲丁垂線	-11.7911
遠鏡	-11.7911
叅訂	-11.7911
甲乙丙與丁戊己	-11.7912
細草	-11.7912
三百六十五日二十三刻	-11.7913
掩食凌犯	-11.7914
心宿第二星	-11.7914
茫然	-11.7914
一度五十分	-11.7914
十月交二十六日	-11.7914
旁負縱	-11.7914
辰夘	-11.7915
太陽全徑	-11.7915
人在地面	-11.7915
甄鸞按	-11.7916
鬼神	-11.7917
崇禎元年	-11.7917
勾弦較九尺	-11.7919
金陵	-11.7919
年十一月癸亥朔	-11.7921
濕氣	-11.7921
年十一月乙亥朔	-11.7923
月癸夘朔日食	-11.7923
七政行度	-11.7924
空際	-11.7924
均輪周	-11.7927
牛羊	-11.7928
積相等邊線不同之定率比例以定率之	-11.7929
題覆	-11.793
足減一	-11.7931
甲丁與丁乙	-11.7931
盈六兩	-11.7933
依前法求	-11.7933
謹將	-11.7934
箕九度	-11.7935
曲線三角形	-11.7936
明堂	-11.7937
和為帶縱	-11.7938
永久	-11.7939
辛酉朔十一月	-11.794
欲測其	-11.794
七尺二寸	-11.7943
牛宿	-11.7945
倍大之比例	-11.7948
查八線表	-11.7949
初七日	-11.795
六十律	-11.795
晷心	-11.795
為四叚	-11.7951
乾坎	-11.7956
乘上廉	-11.7957
七政恒星	-11.7958
赤道以南	-11.796
等項	-11.796
迄今	-11.7961
消長之法	-11.7961
線面體	-11.7967
了然	-11.7969
春夏	-11.797
作一垂線	-11.7971
一千八百二十	-11.7974
無可減	-11.7977
用加法	-11.7979
月癸丑朔日食	-11.7984
五六七八九	-11.7986
丑癸邊	-11.7986
千載	-11.7991
銀八兩	-11.7994
古今不同	-11.7996
王城	-11.8001
再閏	-11.8002
乙處	-11.8003
九百七十二	-11.8004
甲為地心	-11.8005
撱圓差	-11.8006
謂此也	-11.8007
庚夘	-11.8008
月髙下差	-11.8009
法曰凡	-11.8013
相乘為實	-11.8013
用通分	-11.8014
三系	-11.8015
法同前	-11.8019
象緯	-11.8019
應鍾	-11.802
周求徑	-11.8025
八斗四升	-11.8029
八之三	-11.8033
氣應七日六五六三七四九二六	-11.8034
一萬六千二百	-11.8038
二年十月	-11.8041
心圏	-11.8043
於右上	-11.8047
陸費墀欽定四庫全書	-11.8049
減廉	-11.805
千九百五十	-11.8051
最小者	-11.8051
盈虚	-11.8054
鋭角形	-11.8054
年號	-11.8058
昭公二十	-11.8061
癸㸃	-11.8062
崇禎三年	-11.8062
少弱	-11.8067
是編	-11.8067
昭然	-11.8068
十二分之一	-11.807
初度之初	-11.8076
距緯正弦	-11.8077
四邉形	-11.8077
絲四忽	-11.8078
三十度之正弦	-11.8078
度一十六分五十	-11.8079
今欲求	-11.8081
角又等	-11.8087
漢初	-11.8089
劉宋	-11.8089
相乘之長方	-11.8095
壬夘	-11.8096
所減之數	-11.8097
辛壬丙	-11.8097
竒偶	-11.8101
黄道之緯度	-11.8102
千二百四十	-11.8103
南北圏	-11.8104
相遇於	-11.8106
昬見	-11.8106
相背	-11.8108
月五日	-11.8109
圓田積	-11.811
既大於	-11.8116
有二種	-11.8118
七尺一寸	-11.812
相齊	-11.8123
千九百六十	-11.8129
自序	-11.813
加天元得	-11.8132
曜經曰	-11.8133
無闗	-11.8135
䇿實	-11.815
孝武	-11.8153
互換	-11.8156
太陽視徑	-11.8167
更近	-11.8169
今世	-11.8176
能容	-11.8181
歲圏	-11.8182
與乙丁等	-11.8186
圏之半徑	-11.8187
今欲作	-11.8189
三角形之甲角	-11.819
三百一十八	-11.8191
在黄道上	-11.8193
千零七	-11.8195
圜之界	-11.8212
刻合朔	-11.8224
赤道髙度	-11.8227
引之至	-11.8229
無遺	-11.823
何也曰此	-11.8244
城徑也合問或問	-11.8251
十九萬六千秒	-11.8252
黄道上之	-11.8258
房宿	-11.8259
秒四十㣲	-11.8259
五七九	-11.826
法為全數與	-11.8262
未嘗不	-11.8265
相乗所得	-11.8266
一寸一分	-11.8273
除倍積	-11.8275
漸逺漸	-11.8276
難知	-11.8284
小于象限	-11.8287
二萬五千九百	-11.8288
應閏六月	-11.8301
豈知	-11.8302
九千五百	-11.8305
月甲戌朔日食	-11.8314
毎期三百六十五日二時七刻	-11.8317
萬三千四百四十	-11.832
乙分角	-11.8324
崇禎戊辰	-11.8339
首朔太隂交周	-11.8345
望乙與城	-11.8352
安能	-11.8354
爲實實如法得	-11.8363
七政皆	-11.8366
戊辰年	-11.8366
日子正一刻十	-11.8367
各縣	-11.8371
圖明之	-11.8371
以通法除	-11.8374
食甚入盈縮厯	-11.8374
有定度	-11.8374
黄經度	-11.8375
壬癸子	-11.8377
除餘積	-11.838
驗諸	-11.8381
乙丑年丙子月	-11.8385
日六十二刻	-11.8387
尸	-11.8389
所行之度	-11.839
日今同	-11.8391
狗	-11.8398
十一月丁未朔	-11.8406
申初三刻十	-11.841
高八尺	-11.843
平方根	-11.8433
酉申	-11.8433
幾十幾	-11.8434
倍南行	-11.8444
三與四	-11.8446
正半弦	-11.8447
以周天分	-11.8448
斛五斗	-11.8451
一十一度三十	-11.8453
某時刻	-11.8454
建寅之月	-11.8454
雞翁	-11.8455
指時度表	-11.846
平廉約數	-11.8461
屠	-11.8463
五百六十七	-11.8464
五月交二十六日	-11.8464
己戊弧	-11.8466
盞	-11.8467
般	-11.8469
槐樹	-11.8469
擅	-11.847
為除出之分	-11.847
紊	-11.8471
也何以言之	-11.8471
賊	-11.8471
過極經圏	-11.8471
耿	-11.8472
族	-11.8472
儼	-11.8473
一十七秒	-11.8474
庻	-11.8474
立表取景	-11.8474
贍	-11.8475
盆	-11.8475
隋劉焯	-11.8475
祈	-11.8476
也表以十分為率若	-11.8477
在高弧東	-11.8477
如以真數明之	-11.8477
算經十書	-11.8478
王應遴	-11.8478
夾鍾	-11.8478
根旣與	-11.8478
貸	-11.8479
落下閎	-11.8479
赫	-11.8479
討	-11.8479
抽偶	-11.848
陶	-11.848
不入交不應食	-11.8481
周髀算經	-11.8481
墊	-11.8481
霞	-11.8481
旨	-11.8481
蕃	-11.8482
喙	-11.8482
揭	-11.8482
距午定分	-11.8482
藩	-11.8482
攝提	-11.8483
字今補	-11.8483
月初一	-11.8483
終古不易	-11.8483
遑	-11.8483
睿	-11.8483
乗之内子	-11.8483
互和折半	-11.8483
之比例為一與	-11.8484
埀線	-11.8484
快	-11.8484
變負為正	-11.8484
磬	-11.8484
訶	-11.8485
乾鑿度	-11.8485
馮	-11.8485
紫宫	-11.8485
嵗前冬至	-11.8485
相當各界	-11.8486
浙江	-11.8486
涸	-11.8486
漠	-11.8486
乳	-11.8486
交角在四十五度以	-11.8486
肉眼	-11.8486
紛紜	-11.8486
戰國	-11.8487
絰	-11.8487
夕留	-11.8487
圜面積一尺一十三寸零九分七十三釐	-11.8487
邢	-11.8487
据	-11.8488
率相對之假數	-11.8488
宝星經	-11.8488
妃	-11.8488
合退伏	-11.8488
鬱	-11.8489
為同理之比例	-11.8489
閻浮樹	-11.8489
上考往古	-11.8489
紛紛	-11.8489
補遺	-11.8489
并記南北號	-11.8489
年十一月庚午朔	-11.8489
鐵勒	-11.8489
年十一月庚寅朔	-11.849
天經或問	-11.849
馬三匹	-11.849
疉	-11.849
其理同也	-11.849
怒	-11.849
綱目漏	-11.8491
食甚入縮厯	-11.8491
四面體之一邊	-11.8491
雍正元年	-11.8491
螽	-11.8491
年十一月乙丑朔	-11.8492
天正閏餘	-11.8492
班固	-11.8492
元李冶撰	-11.8492
一晝一夜	-11.8492
恒星厯指	-11.8492
開三乗方	-11.8493
釐有餘三歸之得	-11.8493
此二率者	-11.8494
祚	-11.8494
鼈	-11.8494
地平以上	-11.8495
加時在晝	-11.8495
乙出東門南行三十步	-11.8495
銅二斤	-11.8496
凟	-11.8496
年十一月己亥朔	-11.8497
利氏	-11.8498
大於併徑	-11.8498
宮殿	-11.8498
絹一疋	-11.8499
食甚日躔黄道	-11.85
我朝	-11.85
目所見	-11.8501
嵗正月壬辰朔十一月	-11.8501
差而遲	-11.8502
黄赤道内外	-11.8502
上下相生	-11.8502
杜氏	-11.8502
伊尹	-11.8503
綱目載	-11.8503
一千六百九十	-11.8503
弦虚弦共	-11.8504
甚繁	-11.8505
約衍母	-11.8505
黄鐘九寸	-11.8506
仁均	-11.8506
空位籌	-11.8507
後代	-11.8507
此兩形	-11.8507
壬申朔日食	-11.8508
武徳	-11.8508
坎乾	-11.851
原銀數	-11.851
戰于	-11.8511
去之不滿	-11.8511
歸整	-11.8512
雖不同而	-11.8512
嵗正月丙辰朔十一月	-11.8514
十一月庚午日	-11.8515
年十一月甲寅朔	-11.8516
四面體之每邊	-11.8516
形外切圜	-11.8518
多邉形	-11.8518
交角加分	-11.8519
古聖人	-11.8519
江西	-11.8521
櫓	-11.8521
日之出入	-11.8522
自初虧至食甚	-11.8522
距地之立方	-11.8524
一大正方	-11.8525
旋規	-11.8525
六八七	-11.8528
如上甲乙丙	-11.8529
與前法同	-11.8531
分平圓面	-11.8531
連比例之中率	-11.8532
圜角形	-11.8532
甲乙丙丁四人	-11.8533
用不同心圏	-11.8533
八一八	-11.8533
漸遠	-11.8534
順帝	-11.8534
相和步	-11.8541
秒五十七微	-11.8541
二石一斗	-11.8541
辛形	-11.8542
一半徑一	-11.8543
直田積	-11.8544
已完	-11.8549
春分秋分	-11.855
一人一日	-11.8551
距等線	-11.8551
紐數	-11.8552
首位之一	-11.8552
白極在	-11.8554
著述	-11.8554
直射	-11.8555
得數復以	-11.8556
節候	-11.8557
亦不入食限	-11.8558
行九十度至	-11.856
界說	-11.8562
九九八十一	-11.8563
凡此皆	-11.8564
在其衝	-11.8564
星在次輪周	-11.8568
各項	-11.8568
行路	-11.8569
距黄極	-11.8569
詩曰	-11.8571
底濶	-11.8572
縂時	-11.8573
旁視	-11.8579
圖式	-11.858
躔次	-11.8583
疎逺	-11.8586
臣淳風等謹	-11.8586
原序	-11.8587
甲丁戊角	-11.8587
戊繩	-11.8588
以五除之	-11.8588
分兩之二	-11.8589
傳稱	-11.8589
任事	-11.8589
月三日	-11.859
小錠	-11.8591
宗廟	-11.8591
周天象限	-11.8592
人得銀	-11.8594
汎率	-11.8595
十一年正月	-11.8597
正相反	-11.8599
四釐六毫	-11.8599
以減頭位得	-11.86
三百步	-11.86
較求勾股弦	-11.8601
高卑差	-11.8601
失傳	-11.8603
今有田	-11.8604
丙乙邉	-11.8604
人君	-11.8609
一十三丈	-11.8613
放此	-11.8619
自乘之積	-11.862
南行六百步	-11.8622
三三九九	-11.8623
己巳朔十一月	-11.8626
所以然之故	-11.8629
窺測	-11.8629
假如有積	-11.8631
時四刻	-11.8631
與黄道相交	-11.8641
兩邊并	-11.8641
己未朔日食	-11.8644
乙得甲	-11.8647
曲面	-11.8649
相并減	-11.8655
角之正割	-11.8655
以法除實	-11.8659
第二亷	-11.866
具題本月	-11.8667
上横行	-11.8669
渾員之	-11.8672
寸六分六釐	-11.8675
圖是也	-11.8676
朔午時日食非	-11.8679
在外者	-11.8684
尾位	-11.8685
於左下	-11.8686
非一定	-11.8693
二三相乗	-11.8695
有定距	-11.8701
所撰	-11.8703
定真時距分	-11.8709
三角形之三角	-11.871
黄道九十度限	-11.8717
形勢	-11.8719
丙角之餘弦	-11.8719
兩内角	-11.8727
行之道	-11.8728
容方徑	-11.8742
過心線	-11.8747
月二十七日	-11.8754
乙角之割線	-11.8756
九百七十五	-11.8761
郭法	-11.8763
甲戊戊乙	-11.8769
五十四刻	-11.8769
寅午	-11.8769
部臣	-11.8775
辰初三刻	-11.8778
隔一位	-11.8783
辛壬癸子	-11.8785
匀	-11.879
一箇方	-11.8794
萬四千六百四十	-11.8796
十二宫次	-11.8797
兩餘弦相減	-11.8802
十六疋	-11.8804
相似之形	-11.8808
二丈八尺	-11.881
所述	-11.8819
萬貫	-11.882
所創	-11.8821
種行度	-11.883
此二數	-11.8832
章閏	-11.8832
兩星相距	-11.8838
實距度	-11.8839
絲七忽	-11.8841
内減了	-11.8875
千七百九十	-11.8877
不同類	-11.8884
周相減用其餘	-11.8887
長闊之和	-11.8897
井宿	-11.8901
有常度	-11.8901
減半徑得	-11.8902
距春分後	-11.8921
七兆六	-11.8924
梵法	-11.8924
正月丁夘朔	-11.8924
一率二率	-11.8925
大梁初度	-11.8927
從心作	-11.8929
過地心	-11.8931
建酉	-11.8932
寄位	-11.8935
一千二百二十五	-11.8948
黄道内外	-11.8954
十二等面邊	-11.8956
孔氏	-11.8963
小雪十四日九時二刻十二分	-11.8967
作甲丁線	-11.8969
二百二十五步	-11.8972
有定數	-11.8981
異説	-11.8992
二丈六尺	-11.9
一立方多	-11.9001
甲角之正切	-11.9003
寸為尺	-11.9008
其比例亦	-11.9012
以高乘	-11.9021
加減之法	-11.9021
四十八丈	-11.9034
無數可	-11.9038
填	-11.9046
依本法	-11.905
斗魁	-11.9051
距餘半	-11.9058
平圓面	-11.9066
東海	-11.9066
轉終分	-11.9075
絡絲	-11.9075
庚與辛	-11.9076
糳	-11.9077
九分内一秒冬至應閏	-11.9079
月六日	-11.9081
建子之月	-11.9083
光禄寺	-11.9083
蔓	-11.9084
徴應	-11.9085
螺	-11.9086
貯	-11.9089
堆垜	-11.9089
涯	-11.909
毬	-11.9091
僕	-11.9091
敏	-11.9092
坤隅	-11.9093
八八六二二六	-11.9096
灼	-11.9096
莽	-11.9096
初虧食甚復圓	-11.9096
睹	-11.9096
繞地	-11.9097
昧爽	-11.9097
刻七分	-11.9097
少昊	-11.9097
顛	-11.9097
初虧至食甚	-11.9098
可食之限	-11.9098
比例規解	-11.9099
畸	-11.9099
溺	-11.9099
妖祥	-11.9099
三角并	-11.9099
洽	-11.9099
駭	-11.91
長方面形	-11.91
嗟	-11.91
兢	-11.91
八面體之一邊	-11.91
右執法	-11.91
斬	-11.9101
鴻	-11.9101
弁	-11.9102
弼	-11.9102
之軌道	-11.9102
一石六斗	-11.9102
賤	-11.9102
用規器	-11.9102
赤道同升度	-11.9103
义	-11.9103
當期之日	-11.9103
距交加分	-11.9103
髙深廣逺	-11.9104
悮	-11.9104
行夏之時	-11.9104
層皆負故相減餘	-11.9104
恪	-11.9104
滑	-11.9105
駟	-11.9105
冇	-11.9105
七秒三十㣲	-11.9105
暘	-11.9107
鑑	-11.9107
食甚入盈縮厯行定度	-11.9107
隐	-11.9107
為本天半徑千萬分之	-11.9107
與城相叅直既而	-11.9107
諾	-11.9107
其比例仍同	-11.9107
朝廷	-11.9108
一甲與二乙	-11.9108
二十三度半强	-11.9108
本層少	-11.9108
嵗正月乙卯朔十一月	-11.9108
杠	-11.9109
筮	-11.9109
寳源	-11.9109
度萬七千八百六十分度之	-11.9109
辟	-11.9109
黃平象限	-11.9109
嵗正月乙未朔十一月	-11.9109
㽔賓	-11.9109
五分内五十一秒冬至應閏	-11.9109
渉	-11.9109
黨	-11.9109
歲正月己酉朔十一月	-11.9109
立夏十五日六時七刻	-11.9109
網	-11.9109
竄	-11.911
移動	-11.911
黄赤道小股	-11.911
歲正月乙酉朔十一月	-11.9111
未復光	-11.9111
嵗正月甲子朔十一月	-11.9111
丈零五寸	-11.9111
年十一月丁丑朔	-11.9111
璃	-11.9111
八月交一十四日	-11.9111
九百零四寸七百七十八分六百八十	-11.9111
與餘積相減恰盡是開得	-11.9111
年十一月癸酉朔	-11.9111
瓶	-11.9111
小於併徑	-11.9112
或等或小	-11.9112
夜半火星度	-11.9112
縀	-11.9112
七百七十九日九十	-11.9112
俞	-11.9112
薦	-11.9112
蟻	-11.9113
託	-11.9113
交周距弧	-11.9113
入月定日	-11.9113
毘	-11.9113
清淨	-11.9113
上下不等圎面體	-11.9113
諌經曰	-11.9113
下推將來	-11.9113
搖	-11.9113
乃以半徑十萬為一率	-11.9113
廣東廣州府	-11.9113
年十一月庚戌朔	-11.9114
正勾股定分之	-11.9114
就以次商	-11.9114
對弧大矢	-11.9114
五二三五九八七七五	-11.9114
桐	-11.9114
用順度	-11.9115
劉焯	-11.9115
句股求弦	-11.9115
有零分者	-11.9115
凖前論	-11.9116
二十九日九百四十分日之四百九十九	-11.9116
省一算	-11.9116
中數兩心差	-11.9116
以減益從方餘一百	-11.9116
太陽髙卑差	-11.9116
在平行線内	-11.9116
與法求等得	-11.9116
初虧用時兩心視相距	-11.9117
亨	-11.9117
以秒法通之即得	-11.9118
六月交一十四日	-11.9119
負圜角	-11.9119
慶厯	-11.9119
王蕃	-11.9119
内少个	-11.9119
距日加分	-11.9119
陳氏曰	-11.912
帳	-11.912
平差立差	-11.912
敝	-11.912
嵗正月庚子朔十一月	-11.912
歩天歌云	-11.912
公同測驗	-11.912
之定率比例以	-11.9121
繳	-11.9121
七萬零七百一十	-11.9121
星之經緯度	-11.9122
四七一四	-11.9122
年根以積日與	-11.9122
一小時之實行	-11.9122
本天半徑一千萬	-11.9122
臆説	-11.9123
二十四小時	-11.9123
焯	-11.9123
三石二斗	-11.9124
月初九日	-11.9124
依句股法	-11.9125
崇禎二年	-11.9125
同底同髙	-11.9126
通股筭	-11.9127
畿	-11.9127
二至前後	-11.9128
嵗正月甲申朔十一月	-11.913
嵗正月丙申朔十一月	-11.9131
也若欲	-11.9131
兩角各等	-11.9132
吉州	-11.9134
以天元乘之得	-11.9135
景符	-11.9136
參錯	-11.9136
食甚定真時	-11.9139
存弧餘弦	-11.9141
對弧丁丙	-11.9141
昴宿	-11.9142
罌	-11.9144
句弦差	-11.9144
流傳	-11.9146
依上論	-11.9147
弧之正切檢表得	-11.9147
未曽	-11.9147
諸乗方	-11.9147
立法之意	-11.9148
以規取	-11.9148
實緯在黄道北	-11.9151
又用圜	-11.9151
斜降	-11.9153
尺相等乃以	-11.9153
帯食	-11.9154
邉等形	-11.9156
凡開得	-11.9157
實朔交周	-11.9158
年十一月辛酉朔	-11.9159
汎積	-11.9159
須女	-11.9159
君臣	-11.9159
第六題	-11.9162
成一㸃	-11.9163
之一弧	-11.9164
旁縱	-11.9164
國語	-11.9165
何嘗	-11.9166
十分内三十一秒冬至應閏	-11.9167
停廣	-11.9167
多寡不等	-11.9168
太陽所行	-11.9169
分八十五秒	-11.917
羣臣	-11.917
工部	-11.9171
分本形為	-11.9173
午位黄道	-11.9178
漸短	-11.9181
空籌	-11.9182
小弧正弦	-11.9182
展開勿令移動	-11.9184
似㑹	-11.9185
嘉定	-11.9186
一兩三錢	-11.9192
下層多	-11.9194
秒四十三微	-11.9194
為三商實	-11.9195
半歳周	-11.9196
張宿	-11.92
太建	-11.9201
節日在	-11.9201
水漏	-11.9203
為實平方開之得	-11.9205
元祐	-11.9206
銀三千	-11.9206
海水	-11.9211
二升五合	-11.9212
古今注	-11.9218
御前	-11.9219
須知	-11.9228
又四之得	-11.9234
年十一月戊午朔	-11.9238
與甲丁平行	-11.9241
光芒	-11.9248
七分兩之	-11.9248
何耶	-11.9251
相減用其	-11.9256
七幅	-11.9268
句冪	-11.9269
此法葢以	-11.9276
相遇于	-11.9282
兩視線	-11.929
相違	-11.9297
此四者	-11.9297
外角之正弦	-11.9312
累乗	-11.9314
函圓	-11.9319
弦羃	-11.932
物之價	-11.932
詳見後	-11.9323
多一倍	-11.9323
有餘即所求	-11.9333
五十八刻	-11.9333
年丁卯	-11.9334
伏見輪心	-11.9344
丁卯朔十一月	-11.9345
聫	-11.9345
一百五十斤	-11.9346
告朔	-11.9349
甲乙與丁戊	-11.9351
可徴	-11.9354
三千八百四十	-11.9355
外路	-11.9355
等數約	-11.9358
撱圎體	-11.9362
極出地度	-11.9363
所麗	-11.9368
二千二百五十	-11.937
史漏	-11.938
又試以	-11.9381
七之五	-11.9384
十有六	-11.9385
本天最髙	-11.9397
月孛行	-11.9406
二千年	-11.9414
相聯	-11.9417
生儒	-11.9419
線交處	-11.9421
等邉形	-11.9423
先期	-11.9428
丙銳角	-11.9434
十一年十一月	-11.9435
戌正一刻	-11.9437
八百尺	-11.9442
十月之交	-11.9445
朔日食五月交	-11.945
四與六	-11.9454
十二月交二十六日	-11.9458
百由旬	-11.9467
率與二率	-11.9468
數草曰置	-11.9474
取其底	-11.9493
本號	-11.9495
四分内二十一秒冬至史	-11.9504
凸	-11.9509
三百八十九	-11.9517
宫七度	-11.9522
史閏九月	-11.9531
夏至影	-11.9536
六星曰	-11.9543
斜剖	-11.9543
自乘倍之	-11.9544
一七二八	-11.9555
寒氣	-11.9555
首卷第	-11.9561
赤道升度	-11.9563
毫四絲	-11.9582
度為乙角	-11.9584
十一月丙寅朔	-11.9602
為日食第	-11.9604
不必更	-11.9605
寅申	-11.9616
四與八	-11.9622
二千二百六十	-11.9625
一千六百步	-11.9627
問城徑釋曰此以通	-11.9642
句上方	-11.9644
該局	-11.9646
月戊子朔日食	-11.9646
[...]
