<unk>	0
<s>	0
</s>	0
之	-4.3115
也	-4.8491
/	-5.12837
爲	-5.12916
)	-5.13237
(	-5.14399
者	-5.18377
以	-5.19773
而	-5.21894
於	-5.35415
有	-5.43979
一	-5.56953
不	-5.65231
其	-5.68987
神	-5.72273
中	-5.73864
則	-5.74729
生	-5.75049
上	-5.77845
天	-5.7798
人	-5.82631
無	-5.90352
自	-5.97831
心	-6.03151
大	-6.03154
道	-6.04208
曰	-6.06435
)(	-6.10138
得	-6.11633
此	-6.12052
行	-6.12852
明	-6.15013
至	-6.19021
乃	-6.20535
在	-6.20602
眞	-6.21011
三	-6.21198
如	-6.218
是	-6.25186
下	-6.30049
子	-6.30777
故	-6.30893
日	-6.32874
見	-6.34392
入	-6.35352
即	-6.36531
與	-6.38019
氣	-6.39773
靈	-6.412
時	-6.41446
玄	-6.4241
法	-6.44417
皆	-6.46584
成	-6.48004
身	-6.48337
炁	-6.4946
出	-6.49483
水	-6.49987
所	-6.506
▁	-6.50629
名	-6.51903
言	-6.53754
矣	-6.53809
山	-6.54027
若	-6.55473
元	-6.56226
非	-6.57061
火	-6.58417
二	-6.58865
五	-6.59747
經	-6.60102
化	-6.60634
金	-6.60743
相	-6.61184
符	-6.61282
君	-6.61717
陽	-6.62455
无	-6.63806
用	-6.63852
精	-6.652
地	-6.65724
九	-6.66098
音	-6.67062
四	-6.67133
又	-6.68181
仙	-6.68602
後	-6.70657
或	-6.71084
來	-6.71352
命	-6.72707
玉	-6.73571
當	-6.73767
臣	-6.74547
我	-6.75095
作	-6.75176
常	-6.75893
主	-6.76204
令	-6.76349
帝	-6.77121
合	-6.77394
及	-6.77457
文	-6.79181
事	-6.7922
同	-6.79353
師	-6.79537
可	-6.79689
正	-6.80077
内	-6.80486
方	-6.80532
書	-6.81074
王	-6.81566
應	-6.81873
能	-6.82087
光	-6.82896
通	-6.83477
復	-6.83924
度	-6.84047
宫	-6.87356
諸	-6.87442
亦	-6.88519
云	-6.88625
龍	-6.88892
雲	-6.89863
眞人	-6.90014
形	-6.90341
乎	-6.90415
今	-6.90949
空	-6.92522
去	-6.92648
使	-6.9267
前	-6.9274
從	-6.93012
居	-6.93134
受	-6.93178
天地	-6.93963
長	-6.94454
月	-6.94603
妙	-6.94838
因	-6.95946
六	-6.95994
知	-6.9604
觀	-6.97433
運	-6.97887
欲	-6.9847
分	-6.99131
開	-6.99997
八	-7.00399
飛	-7.00531
字	-7.00551
丹	-7.00687
清	-7.00932
風	-7.0211
將	-7.02811
自然	-7.02986
本	-7.03583
然	-7.04249
歸	-7.04494
安	-7.05007
已	-7.06338
善	-7.06631
天帝	-7.07431
數	-7.0792
陰	-7.08081
立	-7.10434
門	-7.10763
真	-7.10932
右	-7.10987
華	-7.11245
降	-7.11359
先生	-7.12208
先	-7.12239
未	-7.13225
性	-7.13949
體	-7.14347
七	-7.14455
起	-7.1548
世	-7.15956
外	-7.1689
吾	-7.1698
處	-7.1743
隂	-7.17536
多	-7.18401
定	-7.18957
洞	-7.19473
景	-7.19664
取	-7.20449
白	-7.2046
物	-7.20626
傳	-7.20748
意	-7.2143
年	-7.2154
凡	-7.21602
死	-7.21929
流	-7.22416
德	-7.24546
聞	-7.25005
盡	-7.25199
過	-7.25691
虚	-7.25806
遂	-7.26191
修	-7.27286
寳	-7.27464
土	-7.27534
初	-7.27727
聲	-7.28137
存	-7.285
還	-7.28706
章	-7.28945
聖	-7.29127
次	-7.29193
始	-7.29361
重	-7.29755
青	-7.29987
萬	-7.30275
天尊	-7.30333
黄	-7.32086
變	-7.32118
何	-7.32324
離	-7.32349
謂	-7.32511
發	-7.32517
和	-7.32637
動	-7.33222
求	-7.33723
治	-7.34477
色	-7.34585
于	-7.34604
石	-7.34666
念	-7.34696
焉	-7.34718
星	-7.35095
結	-7.35866
鬼	-7.37497
雖	-7.38826
象	-7.39006
召	-7.39478
家	-7.41037
隨	-7.41049
十	-7.41991
公	-7.42172
各	-7.42826
朝	-7.43071
食	-7.43362
極	-7.43375
散	-7.4349
理	-7.43752
元始	-7.43765
難	-7.44093
守	-7.4449
功	-7.4486
會	-7.45281
木	-7.45762
說	-7.45818
等	-7.46204
耳	-7.46365
夫	-7.46643
東	-7.46661
遊	-7.46663
小	-7.46782
不可	-7.47111
南	-7.47234
實	-7.47328
解	-7.47359
位	-7.47556
周	-7.47705
必	-7.4772
官	-7.48396
並	-7.48463
日月	-7.48846
隱	-7.49651
都	-7.49872
衆	-7.49922
蓋	-7.50447
交	-7.50902
既	-7.51316
一切	-7.51622
惟	-7.52202
邪	-7.52465
藥	-7.52556
惡	-7.52801
願	-7.52897
靜	-7.52929
兩	-7.5293
雷	-7.53527
西	-7.53663
服	-7.53801
俱	-7.54168
號	-7.54413
高	-7.55245
張	-7.55502
根	-7.56012
易	-7.56202
問	-7.56244
深	-7.56345
絶	-7.56491
不得	-7.56689
奉	-7.57195
呪	-7.57631
之中	-7.57718
終	-7.58313
平	-7.5854
魂	-7.58655
諸天	-7.58915
女	-7.58942
保	-7.59128
目	-7.59268
滅	-7.59583
坐	-7.59723
藏	-7.60089
口	-7.60451
圖	-7.61316
信	-7.61753
樂	-7.61764
登	-7.62646
廣	-7.62829
思	-7.63074
北	-7.63219
左	-7.63378
教	-7.63683
香	-7.63741
不能	-7.63999
赤	-7.6411
福	-7.64143
致	-7.64221
上清	-7.64843
紫	-7.64994
便	-7.64997
爾	-7.65259
回	-7.6546
之道	-7.6573
除	-7.65896
府	-7.65939
太上	-7.66137
遇	-7.66143
宜	-7.66338
攝	-7.66766
陰陽	-7.67107
告	-7.67238
止	-7.67394
國	-7.68226
執	-7.68367
宗	-7.68453
更	-7.6889
但	-7.69194
向	-7.69271
力	-7.69417
息	-7.69867
乾	-7.69963
病	-7.70166
中有	-7.70252
間	-7.70285
請	-7.70376
集	-7.7134
持	-7.7195
制	-7.71961
千	-7.72001
全	-7.72018
汝	-7.72598
舉	-7.73046
轉	-7.7309
首	-7.73636
鍊	-7.73656
失	-7.73748
太	-7.73858
太一	-7.74434
異	-7.74447
授	-7.7446
九天	-7.74501
語	-7.74787
五行	-7.74952
少	-7.7522
母	-7.75696
須	-7.76109
衣	-7.76447
關	-7.76472
老	-7.76483
顯	-7.76646
臨	-7.76765
往	-7.7677
巳	-7.77226
永	-7.7729
夜	-7.77306
百	-7.78114
微	-7.78174
故曰	-7.78983
學	-7.7925
著	-7.79432
照	-7.79438
謂之	-7.79462
施	-7.79972
羅	-7.80089
衆生	-7.80398
且	-7.8044
幽	-7.80524
斗	-7.81076
節	-7.81122
到	-7.81189
畢	-7.81215
之炁	-7.81228
好	-7.81293
禮	-7.81707
萬物	-7.81783
伏	-7.81957
素	-7.82305
頭	-7.82494
感	-7.8261
司	-7.8291
朱	-7.82971
要	-7.83558
海	-7.83581
罪	-7.83956
長生	-7.84024
加	-7.8405
苦	-7.84218
神仙	-7.8457
三界	-7.84601
識	-7.84676
莫	-7.84694
留	-7.84906
遠	-7.85166
尊	-7.85294
别	-7.8542
養	-7.85428
依	-7.85525
訣	-7.85875
不知	-7.86436
民	-7.86535
延	-7.86599
由	-7.86628
積	-7.87298
建	-7.87377
甚	-7.87394
指	-7.87639
共	-7.87869
凝	-7.88047
固	-7.88211
業	-7.88328
情	-7.88549
旣	-7.88655
宿	-7.8909
覺	-7.89669
十方	-7.89736
直	-7.90024
哉	-7.90361
壽	-7.90454
面	-7.90733
興	-7.90946
進	-7.91364
壇	-7.91546
○	-7.92187
稱	-7.9232
戒	-7.92415
足	-7.92721
奏	-7.92863
升	-7.92887
變化	-7.92899
具	-7.92959
坤	-7.9316
志	-7.93294
滿	-7.93333
果	-7.93392
馬	-7.93394
天尊志心朝禮	-7.93677
機	-7.93972
造	-7.94175
玉女	-7.94179
兵	-7.94218
對	-7.95303
却	-7.95332
鉛	-7.95332
悟	-7.95393
虎	-7.95419
望	-7.95579
靈寳	-7.9584
所以	-7.96065
義	-7.96095
州	-7.96477
室	-7.97104
利	-7.97211
宣	-7.97509
花	-7.97522
啓	-7.97566
威	-7.9765
胎	-7.97681
齊	-7.97722
親	-7.9793
皇	-7.9819
雨	-7.98401
普	-7.98612
咸	-7.98667
珠	-7.98844
縁	-7.99193
震	-7.99235
引	-7.99319
録	-7.9935
魔	-7.99481
天下	-8.00048
輪	-8.005
玉清	-8.00579
塵	-8.0069
可以	-8.00721
古	-8.01284
備	-8.01594
春	-8.01599
落	-8.01786
順	-8.01897
期	-8.02306
總	-8.02839
陳	-8.02914
某	-8.02921
城	-8.02962
消	-8.03355
忽	-8.03413
黑	-8.03428
速	-8.03539
路	-8.03819
悉	-8.03829
所謂	-8.04163
劫	-8.04259
容	-8.04371
列	-8.04377
猶	-8.04797
就	-8.04813
品	-8.04863
乘	-8.05111
林	-8.05111
大道	-8.05154
昇	-8.05195
反	-8.05457
賜	-8.055
論	-8.05539
隂陽	-8.05754
屬	-8.05785
祖	-8.06131
汞	-8.06315
疾	-8.06352
淨	-8.06439
再	-8.06476
達	-8.06602
了	-8.06735
尋	-8.06771
益	-8.0708
帝君	-8.07084
餘	-8.07179
十二	-8.07589
臺	-8.07698
道士	-8.08101
聽	-8.0814
獨	-8.08337
住	-8.08377
兆	-8.08569
是也	-8.08621
布	-8.08713
生死	-8.08726
手	-8.0933
誦	-8.09484
弟子	-8.09592
寒	-8.09677
造化	-8.10223
太極	-8.10452
而不	-8.1046
慶	-8.10545
煙	-8.10553
視	-8.10676
聚	-8.10804
歌	-8.10909
害	-8.1095
酒	-8.1135
骨	-8.12002
昌	-8.12172
愛	-8.12333
於是	-8.12402
切	-8.1257
童	-8.12586
注	-8.1266
亂	-8.12761
乗	-8.12768
斷	-8.12931
返	-8.13134
煉	-8.1341
勝	-8.13793
被	-8.13819
仰	-8.1399
眞君	-8.14053
混	-8.14179
每	-8.14542
庭	-8.14913
予	-8.15283
歲	-8.1549
如此	-8.1566
然後	-8.15775
乾坤	-8.158
髙	-8.15902
報	-8.15979
水火	-8.16078
破	-8.1624
三元	-8.16241
勿	-8.16328
車	-8.16336
記	-8.16729
一日	-8.17012
承	-8.17059
寧	-8.17311
輕	-8.17361
齋	-8.17652
圓	-8.17888
以爲	-8.18121
災	-8.1819
收	-8.18206
簡	-8.18235
之所	-8.18573
印	-8.1858
封	-8.18784
李	-8.18954
盛	-8.18971
亡	-8.19172
想	-8.1918
智	-8.19241
謹	-8.19503
呼	-8.19514
恩	-8.19528
誠	-8.1956
駕	-8.19797
育	-8.19803
鬼神	-8.19875
父	-8.19906
使者	-8.19947
諱	-8.20182
勑	-8.20408
證	-8.20446
濟	-8.20665
之上	-8.20705
急	-8.20842
許	-8.20975
質	-8.21265
得道	-8.21288
冥	-8.21593
辭	-8.21797
遺	-8.21824
金丹	-8.21936
羽	-8.22041
傷	-8.22096
境	-8.22137
漢	-8.22176
泉	-8.22195
獲	-8.22198
己	-8.22335
辰	-8.22358
急急如律令	-8.2251
按	-8.22521
超	-8.22608
垂	-8.22898
卦	-8.22958
紀	-8.22967
殺	-8.23084
豈	-8.23172
童子	-8.2345
拜	-8.23538
浮	-8.23615
唯	-8.23657
卷	-8.23729
載	-8.24395
露	-8.24479
御	-8.24494
并	-8.24912
考	-8.2493
吉	-8.25138
萬神	-8.2528
如是	-8.25308
曲	-8.25614
瓊	-8.25771
之法	-8.26011
彼	-8.26184
喜	-8.26322
霞	-8.26582
尚	-8.26586
堂	-8.26792
源	-8.2705
連	-8.27138
魄	-8.27232
禁	-8.2734
似	-8.27502
之後	-8.27631
敕	-8.27758
澤	-8.2789
慈	-8.27994
氏	-8.28079
妄	-8.28307
姓	-8.28472
大神	-8.2874
比	-8.28742
碧	-8.28799
英	-8.29207
累	-8.29222
貴	-8.29233
種	-8.29321
疑	-8.29478
遣	-8.29621
夢	-8.29726
他	-8.2979
休	-8.29968
任	-8.30501
晨	-8.30503
表	-8.30863
近	-8.30874
乆	-8.31051
闕	-8.31262
鳳	-8.31382
窮	-8.31417
草	-8.31559
昔	-8.31581
江	-8.31646
而爲	-8.3213
驚	-8.32249
宮	-8.32554
侍	-8.32563
尸	-8.3262
密	-8.32683
忘	-8.32764
鼎	-8.32767
五帝	-8.32775
飲	-8.3302
劉	-8.33085
崇	-8.33153
血	-8.33209
含	-8.33347
清淨	-8.33435
迷	-8.33562
河	-8.34447
上帝	-8.34506
殿	-8.34568
坎	-8.34903
祕	-8.34998
冠	-8.35002
甲	-8.35176
詔	-8.35563
斯	-8.35637
黃	-8.35667
光明	-8.35835
籍	-8.36084
示	-8.36283
左右	-8.36296
蒙	-8.36315
候	-8.36377
凶	-8.36392
客	-8.36398
衛	-8.36404
眼	-8.36514
腎	-8.36872
聖人	-8.36921
三天	-8.36928
谷	-8.37089
採	-8.37297
契	-8.37539
士	-8.37737
惠	-8.38006
裏	-8.38066
儀	-8.38317
之氣	-8.38393
敬	-8.38573
恐	-8.3861
昭	-8.38788
嚴	-8.39158
耀	-8.39159
參	-8.39546
之時	-8.39588
㑹	-8.39601
秋	-8.39762
元君	-8.39774
慧	-8.39782
緑	-8.39888
池	-8.39954
禍	-8.40176
徒	-8.40181
天尊至心歸命信禮	-8.40368
賢	-8.40512
畫	-8.40901
逆	-8.40902
放	-8.40984
吏	-8.41011
無爲	-8.41024
嘗	-8.41118
只	-8.41336
穢	-8.41511
良	-8.4152
犯	-8.42059
謝	-8.4241
游	-8.42476
夫人	-8.42581
淵	-8.4266
鎮	-8.42887
液	-8.43028
宇	-8.43039
現	-8.43158
宅	-8.43196
父母	-8.43264
呪曰	-8.43449
之内	-8.43823
唐	-8.4402
而生	-8.4409
真人	-8.44196
術	-8.44314
榮	-8.44326
接	-8.44588
歷	-8.44666
推	-8.4486
房	-8.44969
田	-8.44982
部	-8.45169
世人	-8.45277
掌	-8.45357
堅	-8.45405
漸	-8.45412
功德	-8.45827
筆	-8.45845
新	-8.4589
懷	-8.45891
輔	-8.46101
武	-8.46147
代	-8.4621
无量	-8.46391
釋	-8.46462
寂	-8.46791
鶴	-8.46908
梵	-8.47036
北方	-8.47217
申	-8.47383
卿	-8.47494
舍	-8.47689
救	-8.47868
遷	-8.48024
詣	-8.48032
投	-8.48219
愈	-8.48226
篇	-8.4834
覆	-8.48384
肝	-8.48432
上下	-8.48554
類	-8.48969
味	-8.49008
序	-8.49032
之間	-8.49346
耶	-8.49446
護	-8.49549
兮	-8.49557
領	-8.4959
假	-8.49667
道君	-8.49859
神王	-8.49895
毒	-8.50044
遍	-8.50096
司命	-8.50172
迎	-8.50177
半	-8.50613
退	-8.5071
曜	-8.50747
履	-8.50772
映	-8.50801
端	-8.51025
勤	-8.51264
地獄	-8.51683
看	-8.51688
損	-8.51697
天人	-8.51714
乞	-8.5179
典	-8.52051
置	-8.52112
泥丸	-8.52179
俗	-8.52682
强	-8.53087
紅	-8.53148
不見	-8.53191
之神	-8.53281
伯	-8.53502
恭	-8.53667
而成	-8.53674
停	-8.53765
將軍	-8.53831
户	-8.54167
負	-8.54441
之人	-8.54625
移	-8.54643
太玄	-8.54652
五嶽	-8.54741
仁	-8.5518
䰟	-8.5529
逐	-8.55291
迴	-8.553
此經	-8.55303
愚	-8.55435
肺	-8.55579
舊	-8.55597
器	-8.55601
龍虎	-8.55651
東方	-8.55664
刑	-8.56155
鳴	-8.5644
鼓	-8.56493
詩	-8.56689
招	-8.56757
朗	-8.56795
井	-8.56909
太清	-8.57116
劍	-8.57308
佩	-8.57357
縣	-8.57694
幾	-8.57728
騰	-8.5797
殊	-8.58021
秀	-8.58119
兊	-8.58142
康	-8.58466
午	-8.58502
奔	-8.5864
付	-8.58724
人也	-8.58821
孫	-8.5888
今日	-8.59055
沉	-8.5941
迹	-8.59496
界	-8.59555
監	-8.5972
籙	-8.59841
津	-8.59894
稽首	-8.59996
三年	-8.60016
瑞	-8.60431
充	-8.60625
送	-8.60713
鎭	-8.60715
人之	-8.60937
調	-8.61002
㫖	-8.61273
剛	-8.61308
雷霆	-8.61357
徧	-8.6152
玉帝	-8.61727
納	-8.61778
獄	-8.61799
三官	-8.61852
原	-8.61921
人間	-8.61958
是以	-8.62238
妖	-8.62298
敷	-8.62326
追	-8.62608
像	-8.62655
頂	-8.62842
五色	-8.62924
角	-8.6327
魔王	-8.6329
盈	-8.63544
待	-8.6356
者也	-8.63686
梁	-8.63972
設	-8.63999
波	-8.64021
兼	-8.64026
天中	-8.64296
太陽	-8.64314
憂	-8.64418
奇	-8.64445
仍	-8.64615
黄帝	-8.64707
潜	-8.64801
揚	-8.64876
計	-8.65038
抱	-8.65224
南方	-8.65412
輝	-8.65518
八卦	-8.65538
松	-8.65551
徹	-8.65945
燈	-8.65983
賊	-8.66025
生於	-8.66201
之精	-8.66221
祝	-8.66487
出入	-8.66497
名曰	-8.66536
披	-8.66613
雪	-8.66651
役	-8.66654
又曰	-8.6717
无極	-8.67175
盜	-8.67244
樹	-8.67281
内外	-8.67587
蕩	-8.67739
曹	-8.67765
顧	-8.67776
炎	-8.68046
冲	-8.68158
刻	-8.68175
燒	-8.68555
洪	-8.68636
驗	-8.68708
閉	-8.68806
服之	-8.6888
違	-8.6889
艮	-8.68909
科	-8.68925
男女	-8.69348
專	-8.69399
三清	-8.69477
焚	-8.69501
夏	-8.69522
盖	-8.698
丘	-8.69877
走	-8.69917
群	-8.70259
詞	-8.70308
逺	-8.7037
無窮	-8.70414
帶	-8.7042
越	-8.70422
而去	-8.70499
仙人	-8.70618
鐵	-8.70642
職	-8.70724
美	-8.70918
鬱	-8.71029
廟	-8.71193
嶽	-8.7126
横	-8.71318
經云	-8.71338
逢	-8.71343
怪	-8.71465
習	-8.71544
適	-8.71869
五方	-8.71927
度人	-8.71965
飛天	-8.7212
□	-8.72134
察	-8.72227
吐	-8.72234
魚	-8.72351
第二	-8.72462
太虚	-8.72525
澄	-8.726
巽	-8.72698
資	-8.72745
閑	-8.72833
貪	-8.73081
蒼	-8.73195
仲	-8.7322
狀	-8.73256
西方	-8.73333
旋	-8.73507
學道	-8.73513
之事	-8.73529
否	-8.73647
火候	-8.73661
之士	-8.73783
而已	-8.74047
干	-8.74082
錬	-8.74104
背	-8.74158
驅	-8.74186
葉	-8.74353
扶	-8.74381
兹	-8.74484
條	-8.7458
錢	-8.7462
步	-8.74624
太微	-8.74647
侯	-8.74669
牛	-8.74727
祈	-8.74816
脾	-8.75066
野	-8.75254
北斗	-8.7551
統	-8.75619
寶	-8.75628
第一	-8.75704
阿	-8.75726
笑	-8.75802
館	-8.76029
鼻	-8.76038
三十六	-8.76072
之日	-8.76091
金闕	-8.76106
詳	-8.76153
巨	-8.7617
久	-8.76191
智慧	-8.76551
逸	-8.76606
種種	-8.76674
律	-8.7668
省	-8.76753
之理	-8.76774
雜	-8.76822
竹	-8.76828
學者	-8.76835
若有	-8.76945
末	-8.77433
盟	-8.77502
患	-8.77508
一炁	-8.77692
峰	-8.77783
縱	-8.78441
元始天尊	-8.78493
曰吾	-8.78507
玉皇大天尊玄穹髙上帝	-8.78629
吞	-8.7868
貫	-8.78892
七祖	-8.7909
廼	-8.79243
天子	-8.79277
徳	-8.79365
修行	-8.79403
邊	-8.79454
龜	-8.79657
曉	-8.7969
卧	-8.79706
演	-8.79757
宋	-8.79759
棄	-8.80037
權	-8.80098
不敢	-8.80429
鄉	-8.80732
中央	-8.80935
勞	-8.80947
特	-8.80979
索	-8.81167
嘉	-8.81216
孝	-8.81321
敢	-8.81337
穴	-8.81452
鳥	-8.81515
無量	-8.81533
試	-8.818
大洞	-8.81919
於此	-8.81972
一身	-8.81982
殃	-8.82088
基	-8.82213
免	-8.82319
男	-8.82401
眞炁	-8.8246
霄	-8.82466
幸	-8.82478
泰	-8.82556
拔	-8.82651
曾	-8.82654
四方	-8.82775
慮	-8.82789
暉	-8.82865
烏	-8.82883
昏	-8.82977
陵	-8.83016
玉京	-8.83042
溪	-8.83183
鉛汞	-8.83199
至道	-8.83222
禀	-8.83287
之下	-8.83343
隆	-8.83489
座	-8.83492
醉	-8.83642
丹田	-8.83736
也故	-8.83772
是謂	-8.83859
還丹	-8.84335
註	-8.84367
寅	-8.84406
濁	-8.84439
混合	-8.84662
紫微	-8.84852
冬	-8.84875
暗	-8.84934
老君	-8.85098
第三	-8.85308
煩惱	-8.8538
㝠	-8.85546
財	-8.85551
捨	-8.85576
罡	-8.85747
吹	-8.86122
營	-8.86203
誰	-8.86223
兒	-8.8632
務	-8.8648
天眞	-8.8652
雙	-8.86668
庵	-8.86677
格	-8.86784
約	-8.87074
助	-8.87087
二十四	-8.87202
爽	-8.87373
述	-8.87522
騎	-8.87551
略	-8.87611
京	-8.87698
世間	-8.877
化爲	-8.87722
煥	-8.87906
趙	-8.87936
八景	-8.88015
至於	-8.8802
無有	-8.88093
祥	-8.88193
希	-8.88231
爭	-8.88247
句	-8.88268
烈	-8.88441
謁	-8.8848
不動	-8.88487
之妙	-8.88511
里	-8.88637
虛	-8.88736
傾	-8.88898
悲	-8.89087
晝夜	-8.89159
市	-8.89393
尤	-8.89407
無所	-8.8943
克	-8.8968
題	-8.89939
一名	-8.90062
无上	-8.90086
黄庭	-8.9018
庶	-8.90231
夷	-8.90264
逍遥	-8.90307
早	-8.90318
因縁	-8.9033
沐浴	-8.90348
之數	-8.90621
敗	-8.90693
身中	-8.90818
無極	-8.90826
下降	-8.90827
屋	-8.90842
絳	-8.90866
賔	-8.91085
丁	-8.91172
俾	-8.91229
云何	-8.91241
訪	-8.91287
道德	-8.91363
化生	-8.91376
三光	-8.91406
萬里	-8.91414
混沌	-8.91471
天門	-8.91593
輿	-8.91635
爾時	-8.91721
環	-8.91828
喪	-8.91902
式	-8.91967
陶	-8.91978
潔	-8.92083
喻	-8.92111
校	-8.92137
各有	-8.92306
玄都	-8.92311
改	-8.92353
四時	-8.92506
天地之	-8.92726
綱	-8.92787
純	-8.92858
量	-8.92977
巖	-8.92984
太空	-8.93029
徑	-8.93046
産	-8.93242
坎離	-8.93283
泥	-8.93314
歳	-8.93385
爐	-8.93435
茅山	-8.93492
吿	-8.93496
斬	-8.93778
莫不	-8.93914
銀	-8.93935
潤	-8.93986
萬劫	-8.94279
史	-8.94322
補	-8.94547
危	-8.94566
虚空	-8.94626
一時	-8.94745
燿	-8.94941
衰	-8.95048
上昇	-8.95188
樓	-8.95197
擊	-8.95263
細	-8.95267
至眞	-8.95439
厚	-8.95514
性命	-8.95551
寄	-8.95575
差	-8.95678
答曰	-8.95825
響	-8.95876
薄	-8.959
功曹	-8.95983
樞	-8.96158
管	-8.96186
毛	-8.96471
不死	-8.96576
霹靂	-8.96602
是爲	-8.96654
錫	-8.96693
等志心歸命禮願	-8.96702
際	-8.96963
答	-8.96973
紙	-8.96997
誓	-8.97068
善男子	-8.97244
往來	-8.97342
熱	-8.97418
懸	-8.97526
純陽	-8.97605
誦經	-8.97722
染	-8.97725
一切衆生	-8.97732
十月	-8.97768
羣	-8.97788
塞	-8.97792
吴	-8.97975
衝	-8.98071
筭	-8.9814
影	-8.98591
吸	-8.98717
翠	-8.98737
徐	-8.98751
厭	-8.98868
朱書	-8.98986
鍾	-8.99011
贈	-8.99021
慕	-8.99273
跡	-8.99328
三十	-8.99389
脩	-8.99452
髮	-8.99517
禳	-8.99591
師曰	-8.99596
把	-8.99956
蟲	-9.00292
才	-9.00475
天君	-9.00526
軍	-9.00565
没	-9.00604
繼	-9.00756
長存	-9.00774
酉	-9.0079
之功	-9.00824
狂	-9.00828
軒	-9.00881
赴	-9.01001
孤	-9.01068
友	-9.01207
竟	-9.01403
委	-9.01431
竒	-9.01435
最	-9.01688
上聖	-9.01755
生成	-9.01766
頌	-9.01804
霧	-9.01824
先天	-9.019
洞章	-9.01974
四象	-9.02115
靈官	-9.02172
繫	-9.02268
郡	-9.02457
白虎	-9.0247
岀	-9.02542
晋	-9.02781
芝	-9.02813
符命	-9.02902
黒	-9.02973
元氣	-9.02997
眞氣	-9.03009
政	-9.03152
辛	-9.03344
微妙	-9.03612
卯	-9.03809
不生	-9.03835
▲	-9.03867
沈	-9.04181
振	-9.04183
世界	-9.04322
策	-9.04419
三日	-9.04435
佛	-9.04482
祖師	-9.04497
彰	-9.04504
戰	-9.04844
附	-9.04857
清微	-9.04907
砂	-9.04951
温	-9.05042
號曰	-9.05199
五臟	-9.05228
華陽	-9.05361
歩	-9.05401
脱	-9.05451
西北	-9.0564
壁	-9.05666
鏡	-9.05712
其中	-9.05883
豐	-9.05892
天機	-9.05933
道人	-9.06034
翁	-9.06067
占	-9.06206
底	-9.06221
經曰	-9.06234
惑	-9.06302
善惡	-9.0631
供養	-9.06329
東南	-9.06493
眞仙	-9.06503
顔	-9.06538
融	-9.06563
祠	-9.06612
亦不	-9.06846
分明	-9.06906
輒	-9.06965
誅	-9.06974
天道	-9.0715
棲	-9.07261
滯	-9.07298
奪	-9.07367
川	-9.0739
三炁	-9.07419
之象	-9.07443
再拜	-9.0752
暮	-9.07664
馳	-9.07669
僧	-9.07674
一人	-9.07836
珍	-9.07895
私	-9.08012
禄	-9.08017
係	-9.08035
摧	-9.08036
晦	-9.08041
精神	-9.08047
維	-9.08084
蛇	-9.08192
九宫	-9.08263
哀	-9.08286
霜	-9.0832
遥	-9.08444
解脫	-9.08445
如何	-9.08453
是故	-9.085
蜀	-9.0853
漏	-9.08597
偶	-9.08646
貌	-9.08763
旨	-9.08957
上元	-9.09001
包	-9.09096
獻	-9.0913
之門	-9.09207
大聖	-9.09213
怒	-9.09291
金剛	-9.09374
伐	-9.09375
肅	-9.0939
電	-9.09431
究	-9.09666
趣	-9.09748
大法	-9.09774
儒	-9.09813
不同	-9.09817
灌	-9.09865
愆	-9.0989
沙	-9.09944
萬靈	-9.09944
慈悲	-9.09979
舌	-9.1
佐	-9.10201
緫	-9.10245
上眞	-9.10418
二年	-9.10422
而有	-9.1045
竅	-9.10462
嗣	-9.10506
蕭	-9.10571
是時	-9.10581
上天	-9.10649
自在	-9.10652
靖	-9.10761
曰此	-9.10886
蘭	-9.10975
恒	-9.11057
茂	-9.11308
庚	-9.11416
增	-9.11604
故云	-9.11693
祐	-9.11779
醮	-9.11827
胡	-9.12066
痛	-9.12077
那	-9.12089
限	-9.12092
撰	-9.12132
沖	-9.12149
甘	-9.124
腹	-9.12492
三五	-9.12567
神氣	-9.12699
宴	-9.12716
三才	-9.12777
滋	-9.12819
席	-9.12833
彌	-9.12959
檢	-9.1296
貞	-9.13051
説	-9.13055
誤	-9.13229
階	-9.1334
亥	-9.1343
水銀	-9.13467
法師	-9.13502
嬰兒	-9.13513
人身	-9.13646
崑崙	-9.13661
況	-9.13673
工	-9.13706
默	-9.13793
神靈	-9.13857
酆都	-9.13921
保命	-9.13952
煞	-9.14155
麗	-9.14164
身心	-9.14288
辨	-9.14387
一氣	-9.14472
咽	-9.14477
魁	-9.14534
吟	-9.14548
汝等	-9.14548
神虎	-9.14564
效	-9.14766
妙道	-9.14835
玉皇	-9.14905
配	-9.15029
提	-9.15048
忠	-9.15154
廻	-9.15154
金液	-9.15188
頓	-9.15347
無形	-9.15349
一年	-9.15477
覩	-9.15506
毋	-9.15529
有所	-9.15548
無不	-9.15699
盤	-9.15727
天師	-9.15818
修眞	-9.15837
宻	-9.15897
三寳	-9.15917
鮮	-9.1593
東華	-9.15949
篆	-9.15957
丈人	-9.15994
卒	-9.16082
青龍	-9.16224
摩	-9.16249
嬰	-9.16446
箇	-9.16473
範	-9.1662
翼	-9.16629
太平	-9.16707
晝	-9.16885
枯	-9.16903
日中	-9.16934
峯	-9.17048
伸	-9.1705
讀	-9.17318
海空	-9.17361
獸	-9.17396
透	-9.17405
七寳	-9.17629
九幽	-9.17828
齒	-9.1794
墮	-9.18001
此乃	-9.18165
行之	-9.18215
即是	-9.18371
五星	-9.18443
激	-9.18462
枝	-9.18637
楊	-9.18749
十五	-9.18799
泄	-9.18991
勢	-9.19011
夭	-9.19055
西南	-9.19059
柔	-9.19255
爻	-9.19283
以此	-9.19298
植	-9.19349
謀	-9.19451
脫	-9.19523
不離	-9.19583
清靜	-9.19717
亦有	-9.19778
鑒	-9.19788
茅	-9.19817
之宫	-9.19861
熟	-9.19904
輩	-9.19919
俯	-9.19993
塗	-9.20004
孔	-9.20111
捉	-9.20232
虚無	-9.20434
山中	-9.20455
動靜	-9.2047
灾	-9.20539
湯	-9.20592
點	-9.20698
之術	-9.20903
神霄	-9.20955
而後	-9.21045
亭	-9.21074
辯	-9.2108
訖	-9.21204
秘	-9.21226
之地	-9.2134
脉	-9.21393
貧	-9.21397
弘	-9.2164
之心	-9.21804
議	-9.21863
壯	-9.21955
開度	-9.22121
傍	-9.22149
障	-9.22181
冰	-9.22264
大神無鞅之衆浮空而至	-9.22269
尺	-9.22375
郭	-9.22468
眉	-9.22478
玉符	-9.22566
梵炁	-9.22572
八方	-9.22575
着	-9.22592
飛昇	-9.22621
魂魄	-9.22633
巾	-9.22721
秦	-9.22787
黙	-9.22789
五十	-9.23006
冷	-9.23097
洞天	-9.23181
壞	-9.23211
金光	-9.23308
億	-9.23346
勸	-9.23359
廬	-9.23451
若能	-9.23525
廢	-9.23525
神通	-9.23672
錦	-9.23901
太乙	-9.24023
慾	-9.24129
東北	-9.24201
芒	-9.24287
肉	-9.24334
五老	-9.24336
有一	-9.24361
唱	-9.24409
辟	-9.24437
幻	-9.24466
九炁	-9.24476
燭	-9.24796
大帝	-9.24799
責	-9.24825
我今	-9.24859
無上	-9.2514
者乃	-9.25144
第	-9.25147
更生	-9.25234
二十	-9.25311
九轉	-9.2533
剋	-9.25473
吕	-9.25522
催	-9.25759
何以	-9.25773
太素	-9.25823
旛	-9.25905
仙道	-9.2597
者即	-9.2599
成就	-9.26001
也若	-9.26057
奉行	-9.26086
標	-9.26093
魏	-9.26101
飛仙	-9.26204
三洞	-9.26395
菴	-9.2644
舞	-9.26484
拘	-9.26516
妻	-9.26564
十六	-9.2657
神光	-9.26574
大丹	-9.26601
墨	-9.26676
鸞	-9.26855
率	-9.26881
為	-9.27012
丑	-9.27067
子孫	-9.27072
厄	-9.27217
之義	-9.27263
郷	-9.27322
七日	-9.27408
舒	-9.27436
老子	-9.27631
談	-9.27772
須臾	-9.27824
携	-9.27833
彩	-9.2784
上有	-9.27859
苟	-9.27981
昧	-9.28078
寫	-9.2815
混元	-9.2822
蘇	-9.28234
浩	-9.2824
五藏	-9.2839
學人	-9.28448
刀	-9.28449
旦	-9.28563
髙上	-9.28578
方便	-9.28622
自有	-9.28668
捧	-9.28686
杜	-9.28709
眞文	-9.28748
不復	-9.28753
導	-9.28801
而無	-9.28814
黄芽	-9.28822
洗	-9.28862
郎	-9.2909
髓	-9.29124
寢	-9.29166
嶺	-9.29473
玄元	-9.2949
觸	-9.29511
也夫	-9.29525
人能	-9.29569
灰	-9.29573
續	-9.2962
偏	-9.29639
雷公	-9.29654
六甲	-9.29678
六天	-9.29749
瑶	-9.29798
焚香	-9.29855
逹	-9.29863
余	-9.29994
巧	-9.30028
其人	-9.30047
所居	-9.3017
之以	-9.30293
院	-9.30302
富	-9.30352
功徳	-9.30383
風雨	-9.30431
之則	-9.30433
避	-9.30631
天上	-9.30651
行道	-9.30704
五雷	-9.30857
倒	-9.30873
者是	-9.30882
天之	-9.30918
折	-9.30921
此言	-9.31284
雄	-9.31727
博	-9.31744
六合	-9.32015
行持	-9.3207
道者	-9.32205
蓬萊	-9.32274
給	-9.323
瑩	-9.32307
孕	-9.32332
叔	-9.32425
王母	-9.32756
舟	-9.32761
國土	-9.32847
晶	-9.32928
歎	-9.3298
預	-9.33024
韓	-9.33146
元年	-9.33163
覽	-9.33192
殘	-9.33226
暫	-9.33247
衞	-9.33253
眞一	-9.33297
胞	-9.3331
元炁	-9.33321
第四	-9.33389
之初	-9.33512
羊	-9.33603
睡	-9.33639
諸法	-9.33707
南極	-9.33742
淫	-9.33813
金華	-9.33996
畏	-9.34076
祭	-9.34076
途	-9.34124
律令	-9.34158
皓	-9.3419
肇	-9.34203
誥	-9.34357
名山	-9.34427
尾	-9.34534
僊	-9.34583
燕	-9.34591
之機	-9.34593
之名	-9.34651
東曰	-9.34667
燒香	-9.34769
二人	-9.34854
爲人	-9.34867
修鍊	-9.34906
絳宫	-9.35039
忌	-9.35057
空洞	-9.35127
遵	-9.35128
得其	-9.3524
四海	-9.3537
隔	-9.35376
遐	-9.35483
草木	-9.3579
天罡	-9.35811
杖	-9.35917
爲之	-9.3597
三十二天	-9.36034
託	-9.3604
皆是	-9.3607
寒暑	-9.36115
昇天	-9.36136
下元	-9.36204
之外	-9.36234
人有	-9.36404
葬	-9.36419
幽棲曰	-9.36443
懼	-9.3646
龍漢	-9.36473
水中	-9.3691
不爲	-9.36926
清虚	-9.36973
臻	-9.36977
北極	-9.36999
中宫	-9.37032
誡	-9.3707
不信	-9.37109
君子	-9.37227
一一	-9.37259
曆	-9.37268
戸	-9.37284
七星	-9.37337
其所	-9.37352
誕	-9.37439
見之	-9.37469
暴	-9.37475
完	-9.37482
盧	-9.37494
名爲	-9.37508
夕	-9.37526
桃	-9.37568
言之	-9.37735
眞王	-9.37828
亡魂	-9.37849
鹿	-9.37904
北帝	-9.38008
神明	-9.38126
也此	-9.38179
令人	-9.382
詠	-9.38354
玉字	-9.38483
之音	-9.38488
天寳	-9.38641
瞻	-9.38777
太和	-9.38831
得之	-9.38837
一月	-9.38944
分别	-9.39007
口訣	-9.39037
之際	-9.39222
第五	-9.39261
南宫	-9.39428
輪轉	-9.39454
三塗	-9.39508
百神	-9.39541
大羅	-9.39605
工夫	-9.39612
尸解	-9.39613
婦	-9.39726
炁吹	-9.39782
戲	-9.39875
橋	-9.40142
域	-9.40232
束	-9.4025
千里	-9.40556
洞玄	-9.40594
以成	-9.40619
天一	-9.40712
翳	-9.40803
值	-9.40919
不出	-9.40921
之物	-9.41087
三月	-9.41156
琴	-9.41322
无窮	-9.41324
冬至	-9.4133
神炁	-9.41356
一云	-9.4137
膺	-9.41409
知其	-9.41423
入室	-9.4143
四十	-9.41601
支	-9.41745
神君	-9.41752
泛	-9.41839
鑑	-9.4187
仙官	-9.41888
陸	-9.42063
出於	-9.42102
元神	-9.42112
互	-9.42256
竊	-9.42356
罷	-9.42361
纔	-9.42393
竭	-9.42424
赦	-9.42462
戊己	-9.42465
側	-9.42511
閣	-9.42698
用之	-9.42765
暢	-9.42854
虞	-9.42941
攻	-9.42955
者皆	-9.43042
我身	-9.43266
五炁	-9.4337
薦	-9.43398
遲	-9.43426
纒	-9.43431
窺	-9.43433
凌	-9.43492
亦復如是	-9.43503
三田	-9.43723
无爲	-9.43771
三千	-9.43794
烟	-9.43891
屍	-9.43918
此道	-9.43922
是名	-9.43956
均	-9.43964
疏	-9.43974
大小	-9.43979
之本	-9.4405
錯	-9.44246
彭	-9.44307
循	-9.4436
邑	-9.44419
淳	-9.44421
則有	-9.44442
大梵	-9.44518
爲一	-9.44531
皆得	-9.44541
乙	-9.44722
之要	-9.44749
冀	-9.44878
享	-9.44961
荒	-9.44978
防	-9.44989
赤帝	-9.45076
射	-9.45106
受度	-9.45117
開明	-9.45117
升降	-9.45193
則爲	-9.45229
生人	-9.45287
甲子	-9.45362
短	-9.45398
紫陽	-9.45503
祅	-9.45564
欽	-9.45752
姓名	-9.45845
叩	-9.45977
墜	-9.45998
膽	-9.46028
慢	-9.46125
弟	-9.46163
急急如	-9.46245
擇	-9.46363
審	-9.46373
丹陽	-9.46472
併	-9.46493
何以故	-9.46517
决	-9.4652
頗	-9.4653
宸	-9.46567
姦	-9.46632
報應	-9.46673
之境	-9.46796
牢	-9.4702
翔	-9.47024
遭	-9.47107
醫	-9.47218
超度	-9.47258
平等	-9.47334
正炁	-9.47402
頌曰	-9.4753
稍	-9.476
淪	-9.47615
山川	-9.47616
十一	-9.47701
豈非	-9.47741
飲食	-9.47871
寓	-9.48135
白雲	-9.48149
戀	-9.48159
呼吸	-9.48191
欺	-9.48203
山林	-9.48256
長夜	-9.48341
人民	-9.48404
正一	-9.48467
隱居	-9.4852
宛	-9.48559
活	-9.48621
翻	-9.4865
堪	-9.4866
陽神	-9.48738
尅	-9.48747
神人	-9.4886
朔	-9.48927
太清樂	-9.49045
而得	-9.49067
真君	-9.49088
訓	-9.49099
禱	-9.49138
晴	-9.49152
通靈	-9.49213
拂	-9.49261
内音	-9.49292
金精	-9.4934
中元	-9.49342
虚无	-9.49415
廓	-9.49516
季	-9.49558
大夫	-9.4956
成眞	-9.49638
眞道	-9.49679
眞經	-9.49693
恍惚	-9.49698
禽	-9.49726
握	-9.4974
層	-9.49746
測	-9.49758
墓	-9.49763
繞	-9.49788
允	-9.49812
南嶽	-9.49903
瘟	-9.50049
眞鉛	-9.50073
虚皇	-9.50215
伏願	-9.50235
眷	-9.50247
歡	-9.50247
洞陽	-9.5026
商	-9.50279
一心	-9.50384
帥	-9.50476
皆有	-9.50555
自己	-9.50647
憑	-9.50791
編	-9.50858
惜	-9.50902
誦之	-9.50929
復有	-9.51039
怨	-9.51056
由是	-9.51317
悔	-9.51318
人心	-9.51338
姑	-9.5135
腦	-9.51359
缺	-9.51371
朱陵	-9.51418
呈	-9.51429
三宫	-9.51785
正道	-9.51854
延生	-9.5187
鎖	-9.51917
飛行	-9.51926
挺	-9.51986
䇿	-9.52099
十四	-9.52129
之位	-9.52254
毎	-9.52359
无有	-9.52491
腰	-9.52569
當以	-9.52598
七月	-9.52707
疾病	-9.52764
八月	-9.5295
鑪	-9.52997
常以	-9.53002
叩齒	-9.53028
脚	-9.53091
此是	-9.53136
名也	-9.53255
十三	-9.53382
族	-9.53443
浪	-9.53496
奚	-9.53499
未嘗	-9.5357
神化	-9.53603
南斗	-9.53608
穿	-9.53631
而行	-9.53636
穀	-9.53912
洛	-9.53934
正月	-9.54031
逮	-9.54032
丹成	-9.54069
自生	-9.54079
仗	-9.54085
丹砂	-9.54186
抽添	-9.5419
弗	-9.54205
圎	-9.54206
埋	-9.54213
牙	-9.54249
旬	-9.54379
具足	-9.54449
不成	-9.5465
主人	-9.54675
仙翁	-9.54685
胃	-9.54723
佑	-9.54736
青帝	-9.54744
牒	-9.54813
之用	-9.54843
妃	-9.54967
尊神	-9.55004
其身	-9.55068
知之	-9.55148
三一	-9.55313
飢	-9.55317
又云	-9.55329
罔	-9.55345
困	-9.55351
撫	-9.55376
鴻	-9.55386
據	-9.55389
程	-9.55406
曰我	-9.55474
盗	-9.55567
認	-9.5564
仙公	-9.55689
之根	-9.55785
遁	-9.55923
鄭	-9.55956
元陽	-9.55966
罪福	-9.5625
桑	-9.56445
希夷	-9.56453
烹	-9.56469
碑	-9.5654
溢	-9.56549
不在	-9.56704
靈文	-9.56725
不足	-9.56876
其道	-9.56906
躬	-9.5708
船	-9.57116
火鈴	-9.57168
夙	-9.57206
便是	-9.57207
幼	-9.57345
又有	-9.57412
之尊	-9.5744
眇	-9.57469
天王	-9.57495
正氣	-9.57504
絡	-9.57522
搯	-9.57553
太陰	-9.57554
罰	-9.57567
眞人曰	-9.57647
采	-9.57711
玉虚	-9.57808
生神	-9.57845
大慈	-9.57861
亦可	-9.57866
醜	-9.57918
我等	-9.57936
受持	-9.57946
逃	-9.58076
讃	-9.58087
擲	-9.58154
旺	-9.58188
上仙	-9.58232
箕	-9.58305
使人	-9.58311
吉凶	-9.58331
之文	-9.58536
漠	-9.58694
亦無	-9.58698
周天	-9.5873
棺	-9.5881
屈	-9.58859
副	-9.58866
徘徊	-9.58884
明堂	-9.59093
前後	-9.59194
元皇	-9.5925
孟	-9.59343
鍊形	-9.59392
岸	-9.59409
僕	-9.59486
若不	-9.59516
精氣	-9.5953
肆	-9.59741
一百	-9.59778
救苦	-9.59814
韻	-9.59893
弱	-9.59897
莫能	-9.59974
奥	-9.59983
睹	-9.60088
纏	-9.6011
班	-9.60121
故能	-9.6019
太元	-9.60224
禪	-9.60414
稽	-9.60571
俟	-9.60662
劒	-9.60701
繁	-9.60733
旗	-9.60735
靈書	-9.60744
戌	-9.6096
度命	-9.61069
掃	-9.61122
萬炁	-9.61142
利益	-9.61146
洞明	-9.61198
白帝	-9.61203
磨	-9.61241
荷	-9.61247
縛	-9.61258
上升	-9.61299
所在	-9.61397
二物	-9.61511
大將軍	-9.61546
靈光	-9.6158
一點	-9.61615
其心	-9.61703
輦	-9.61755
甘露	-9.61756
藴	-9.61773
侵	-9.61778
賦	-9.61802
元精	-9.61882
濟度	-9.61965
古今	-9.61995
慎	-9.62091
至人	-9.62163
祀	-9.625
柳	-9.62502
第六	-9.62506
局	-9.62579
皇帝	-9.62581
朕	-9.62583
不識	-9.62707
五日	-9.62889
十八	-9.62947
不覺	-9.63033
功成	-9.63062
繒	-9.63152
玄牝	-9.63152
萌	-9.63165
牽	-9.63231
丸	-9.63378
不祥	-9.63424
結成	-9.63507
玄武	-9.636
以來	-9.6368
芳	-9.63682
屢	-9.63795
飄	-9.63802
鋒	-9.63817
大乗	-9.63867
和合	-9.63975
不用	-9.64022
玄妙	-9.64117
戴	-9.64189
溟	-9.64314
虔	-9.64347
人皆	-9.64359
雞	-9.64366
探	-9.64382
萬象	-9.64409
一念	-9.64433
楚	-9.6446
上皇	-9.64572
九年	-9.64576
授以	-9.647
九霄	-9.64762
宫中	-9.64784
后	-9.64806
神將	-9.64945
萬化	-9.64951
蓮	-9.64952
之章	-9.6496
額	-9.64993
垢	-9.65009
曰汝	-9.65056
之意	-9.65074
洞房	-9.65109
畜	-9.65136
湖	-9.65192
二月	-9.65473
巍巍	-9.6548
太隂	-9.65497
徃	-9.65568
崖	-9.65596
相生	-9.65656
秉	-9.65683
綿	-9.65686
書符	-9.65734
之體	-9.65898
下方	-9.66266
富貴	-9.66423
之處	-9.66485
也又	-9.66656
悉皆	-9.66685
紫雲	-9.66691
孰	-9.6676
无形	-9.66774
兄	-9.66896
傅	-9.66953
眠	-9.66955
几	-9.66975
茶	-9.66987
道成	-9.66996
少微曰	-9.67054
旱	-9.67122
至此	-9.67212
守一	-9.6728
癸	-9.67288
玄珠	-9.67441
豈不	-9.67493
紹	-9.6756
裂	-9.67567
卜	-9.6757
隸	-9.67598
覓	-9.67601
玉童	-9.67612
躍	-9.67627
頃	-9.67636
齡	-9.67649
金木	-9.67673
帝王	-9.6789
人道	-9.67894
無礙	-9.67937
不可思議	-9.68019
道之	-9.68105
三素	-9.68259
女子	-9.68305
雷神	-9.68324
衡	-9.68342
第七	-9.68398
綿綿	-9.68406
即得	-9.68436
玉文	-9.6845
度世	-9.68485
第八	-9.68519
之天	-9.6854
邈	-9.68783
聖胎	-9.68894
蔽	-9.68898
屏	-9.68922
循環	-9.68977
鳯	-9.68986
譬如	-9.69093
碧落	-9.69109
華池	-9.69125
爰	-9.69136
柱	-9.69221
天仙	-9.69224
全眞	-9.69256
神水	-9.69279
三百	-9.69383
三十二	-9.69503
焕	-9.69567
牀	-9.69586
謬	-9.69594
遏	-9.69625
宰	-9.69701
十七	-9.69806
夫婦	-9.69959
洞神	-9.70032
治病	-9.70158
然而	-9.70165
三景	-9.70223
圍	-9.70232
擒	-9.70277
姹女	-9.7031
月中	-9.70311
丈	-9.7032
操	-9.70326
開化	-9.7041
潭	-9.7053
而出	-9.70543
齎	-9.70577
其文	-9.70658
文昌	-9.70673
八字	-9.70889
悦	-9.70899
呵	-9.70938
訟	-9.70939
八極	-9.71097
咎	-9.71131
六十	-9.71216
百年	-9.71313
右符	-9.71321
不及	-9.71334
成道	-9.71398
天關	-9.71434
供	-9.71441
厥	-9.71449
渾	-9.71524
歌曰	-9.71548
内義曰	-9.71579
恨	-9.71587
之始	-9.71595
婁	-9.71612
研	-9.71613
乖	-9.71665
良乆	-9.71698
以其	-9.71725
三尸	-9.71766
流行	-9.71794
白鶴	-9.71872
玉晨	-9.71974
世世	-9.72076
七十	-9.72102
葛	-9.72114
朱雀	-9.7212
曰子	-9.7215
寡	-9.72208
故有	-9.72226
牧	-9.72226
詩曰	-9.72276
陰符	-9.72323
詩云	-9.72369
赤子	-9.72395
陛下	-9.72422
聞之	-9.72423
軀	-9.72491
之前	-9.72497
之府	-9.7262
判	-9.72625
其事	-9.7263
赫	-9.72694
眞火	-9.72706
餌	-9.72768
兔	-9.72814
淺	-9.72885
劫運	-9.72887
卑	-9.72905
増	-9.72912
門人	-9.72932
謙	-9.72951
徴	-9.72991
偉	-9.73021
歡喜	-9.73041
衆眞	-9.73149
河車	-9.73184
添	-9.7323
俄	-9.73234
至于	-9.73378
五年	-9.73535
空中	-9.73541
内有	-9.73573
與之	-9.73574
百日	-9.73579
選	-9.73604
整	-9.73608
拱	-9.73639
頻	-9.73659
之光	-9.73661
桂	-9.73666
齋戒	-9.73667
魯	-9.73669
鐘	-9.73677
視之	-9.73686
倚	-9.73696
神丹	-9.73737
仙姑	-9.73758
修道	-9.7381
天尊曰	-9.73823
九靈	-9.73843
五苦	-9.73945
仕	-9.7404
其神	-9.74043
帝一	-9.74066
未能	-9.7415
二炁	-9.74187
憫	-9.74242
彈	-9.74284
告下	-9.74316
頼	-9.74342
况	-9.74365
扶桑	-9.74372
後世	-9.74375
九色	-9.74409
靈符	-9.74594
莊	-9.74615
於人	-9.74759
險	-9.75018
飾	-9.75052
天元	-9.75099
者則	-9.75118
北方八天	-9.75136
三百六十	-9.75255
玄關	-9.7526
斗中	-9.75294
又以	-9.75408
丞	-9.75571
囚	-9.75642
寃	-9.75667
削	-9.75732
托	-9.75805
延年	-9.75836
猛	-9.75895
庸	-9.75956
之類	-9.75957
天宫	-9.76031
中黄	-9.76121
贊	-9.76131
凝神	-9.76286
消除	-9.76322
虧	-9.76402
陀	-9.76404
内丹	-9.76406
大魔	-9.7641
遽	-9.76411
淡	-9.76438
紛	-9.76469
及諸	-9.76525
煇	-9.76528
礙	-9.7661
九玄	-9.76644
函	-9.76704
上生	-9.76748
自是	-9.76785
上宫	-9.76804
一曰	-9.76819
金石	-9.76836
網	-9.76855
帛	-9.76914
扇	-9.77008
懇	-9.77107
重陽	-9.77112
星君	-9.77166
南方八天	-9.77225
誘	-9.77225
廉	-9.77235
一旦	-9.77244
不失	-9.77333
侍衛	-9.774
二氣	-9.77402
帝諱	-9.7746
三關	-9.77463
正法	-9.77606
之謂	-9.77612
寸	-9.77652
規	-9.77681
嘯	-9.77701
栢	-9.77731
兇	-9.77804
赤明	-9.77811
鄰	-9.77854
之宗	-9.77882
掩	-9.77888
得一	-9.77904
垣	-9.77907
此法	-9.78012
世之	-9.78102
安寧	-9.78334
日用	-9.78347
之身	-9.784
抑	-9.78417
僞	-9.78429
消息	-9.78444
巴	-9.78497
顛倒	-9.7854
緒	-9.78578
雅	-9.78609
亨	-9.78622
借	-9.78652
之符	-9.78656
西方八天	-9.78692
寳珠	-9.78698
敎	-9.78709
死生	-9.78895
見其	-9.78941
本命	-9.78948
金甲	-9.79003
金水	-9.79031
斧	-9.79071
施行	-9.79115
功過	-9.7916
上品	-9.79162
髙眞	-9.79222
銅	-9.79246
疫	-9.79317
郁	-9.79353
倫	-9.79376
弦	-9.79387
神呪	-9.79455
杳	-9.79478
法身	-9.79488
形神	-9.79644
自此	-9.79857
偃	-9.79888
妙用	-9.79911
園	-9.79967
左手	-9.80089
姿	-9.80095
諭	-9.80098
當知	-9.80106
曠	-9.80133
華山	-9.80183
伏以	-9.80199
普度	-9.80222
煩	-9.80347
無邊	-9.80352
功行	-9.80441
大衆	-9.8059
者爲	-9.80606
膏	-9.80652
東西	-9.80669
阜	-9.80824
玄師曰	-9.8106
進火	-9.81075
五氣	-9.8115
南昌	-9.81244
道言	-9.81247
壘	-9.81258
太守	-9.8126
無所不	-9.81316
華蓋	-9.81449
玉光	-9.81482
騫	-9.81483
學士	-9.81652
眷屬	-9.81688
閉目	-9.81715
所有	-9.81735
凡人	-9.81765
一陽	-9.81772
藥物	-9.82049
者以	-9.82073
嘆	-9.82226
健	-9.82256
妙行	-9.82304
靄	-9.82318
天尊歸命信禮	-9.8232
有形	-9.82333
灑	-9.82341
勒	-9.82353
儲	-9.82365
忍	-9.82427
心中	-9.82437
賤	-9.82438
法輪	-9.82476
威儀	-9.82559
恣	-9.82559
朝元	-9.82584
時人	-9.82608
主者	-9.82653
手執	-9.82757
數十	-9.82762
各各	-9.82844
眞符	-9.8295
皮	-9.83022
革	-9.83022
藉	-9.83025
暑	-9.83028
殆	-9.83041
叙	-9.83055
篤	-9.83069
警	-9.831
暎	-9.83138
丹書	-9.83154
說法	-9.8325
幽冥	-9.83312
不行	-9.8342
方可	-9.83438
遊行	-9.83597
者謂	-9.83598
哭	-9.83687
威神	-9.8373
之方	-9.83732
六月	-9.83753
伺	-9.83826
駐	-9.83872
哲	-9.83874
之道也	-9.83993
交合	-9.84006
六丁	-9.84079
嚥	-9.84113
十二月	-9.84123
不聞	-9.84161
壬	-9.84172
主宰	-9.84183
蹤	-9.84216
六根	-9.84229
或有	-9.84231
消滅	-9.8426
受生	-9.84318
日辰	-9.84382
案	-9.84387
揮	-9.8449
躡	-9.84562
鄧	-9.84567
銜	-9.8459
毁	-9.84618
促	-9.84625
人以	-9.84658
蔚	-9.84683
先生曰	-9.84766
神室	-9.84792
不可以	-9.84944
蓬	-9.84948
金門	-9.84956
陽精	-9.84997
之源	-9.85038
精思	-9.85104
此文	-9.85116
大藥	-9.85156
煉度	-9.85194
下有	-9.85203
急急	-9.85258
吒	-9.85284
肩	-9.85304
口中	-9.85304
二字	-9.8531
曽	-9.85331
煎	-9.854
趨	-9.85402
掛	-9.85432
不知其	-9.8552
進退	-9.85553
圓明	-9.85566
胎息	-9.85598
五神	-9.85702
闡	-9.85761
亦名	-9.85794
水府	-9.85796
之曰	-9.85809
保舉	-9.85814
丙	-9.8584
經法	-9.85846
生化	-9.85955
與道	-9.85959
二八	-9.85971
好道	-9.86087
也今	-9.86134
出家	-9.86145
東海	-9.86155
佳	-9.86175
泯	-9.86197
運行	-9.86215
毀	-9.86233
宏	-9.8625
風雷	-9.86316
毫	-9.8639
是經	-9.86404
司馬	-9.86511
大有	-9.86599
▁(	-9.86643
可謂	-9.86707
成仙	-9.86801
勃	-9.86944
耗	-9.86946
戮	-9.86953
沐	-9.86955
真符	-9.87008
大吉	-9.87017
西山	-9.87026
諸衆生	-9.87089
星辰	-9.87091
法界	-9.8722
流光	-9.87305
爾時天尊	-9.87338
心不	-9.87339
有二	-9.8739
骸	-9.87468
億劫	-9.8747
祖炁	-9.8749
講	-9.87511
道法	-9.8757
區	-9.877
枉	-9.87711
溺	-9.87727
涉	-9.87753
爲主	-9.87756
敵	-9.87771
麟	-9.87793
而來	-9.87805
長跪	-9.87864
赤書	-9.88093
神變	-9.88188
未有	-9.88191
太眞	-9.88229
四字	-9.88246
旁	-9.88494
祗	-9.88553
嗟	-9.88572
濯	-9.88594
採藥	-9.88607
存思	-9.8866
雖有	-9.88701
元帥	-9.88846
導引	-9.88875
安鎮	-9.88901
无量度人	-9.8899
不言	-9.89034
耳目	-9.89137
四年	-9.8915
之性	-9.89172
入山	-9.89181
以至	-9.89204
九陽	-9.89232
有三	-9.89273
擁	-9.89307
崔	-9.89356
鑿	-9.89366
其形	-9.89486
太子	-9.89623
無復	-9.8965
玉堂	-9.89687
成形	-9.89708
玄玄	-9.89748
禹	-9.89752
九竅	-9.89772
紫虚	-9.89811
尹	-9.89815
展	-9.89916
運度	-9.89985
一卷	-9.9006
三人	-9.90143
饑	-9.90146
恊	-9.90165
二儀	-9.90171
之先	-9.90207
元始上帝	-9.9023
劵	-9.90236
上道	-9.90256
幽魂	-9.90284
三台	-9.90399
百姓	-9.9041
七年	-9.90424
凡有	-9.90424
死魂	-9.90501
猿	-9.90534
時有	-9.90548
終不	-9.90618
演說	-9.90653
九月	-9.90654
妙法	-9.90678
之說	-9.90696
勉	-9.90732
後天	-9.90733
青華	-9.90743
不絶	-9.90781
玉華	-9.90921
打	-9.90945
百里	-9.9097
枕	-9.90974
是非	-9.9098
項	-9.90996
煮	-9.91021
鑄	-9.91042
究竟	-9.91103
上朝	-9.91107
得見	-9.91184
運用	-9.91221
无所	-9.91308
身形	-9.91349
假令	-9.91383
愼	-9.91395
神也	-9.91425
吾今	-9.91442
太華	-9.91454
某人	-9.91466
所說	-9.91487
囊	-9.915
賓	-9.91507
能知	-9.91558
一十二	-9.91562
直符	-9.91613
焦	-9.91646
爲用	-9.91655
剪	-9.91666
云云	-9.91762
謫	-9.91809
衍	-9.91828
準	-9.9183
邀	-9.91839
逼	-9.91867
金液還丹	-9.91891
闊	-9.91973
不明	-9.92136
必有	-9.9215
蟾	-9.92192
子曰	-9.92214
轟	-9.92301
無方	-9.92332
一本	-9.92396
不悟	-9.92411
邦	-9.92529
驛	-9.92565
橘	-9.92583
色界	-9.92586
黎	-9.92595
天官	-9.92596
蔡	-9.9262
爛	-9.92646
窗	-9.92651
八十一	-9.92726
丙丁	-9.92753
相見	-9.92809
皆由	-9.92886
紫清	-9.92978
温養	-9.93012
乆之	-9.93016
不食	-9.93075
玉眞	-9.93121
人生	-9.93217
食之	-9.93237
竈	-9.93291
八難	-9.93319
旌	-9.93343
修齋	-9.93356
臍	-9.93371
競	-9.9341
叱	-9.93424
如意	-9.93431
勵	-9.9348
構	-9.93499
黨	-9.93504
之主	-9.93526
恃	-9.93527
乳	-9.93528
浴	-9.93539
妙化	-9.93594
軿	-9.9361
老人	-9.93625
眞形	-9.93722
片	-9.93749
易曰	-9.93755
入於	-9.93821
安樂	-9.93985
也其	-9.94014
之徒	-9.94049
抱一	-9.94107
亦如	-9.9416
郊	-9.9422
馭	-9.9428
擾	-9.94299
話	-9.94302
詰	-9.94329
頒	-9.94347
匪	-9.94352
冒	-9.94389
欣	-9.94391
七元	-9.94489
不相	-9.94565
般	-9.9461
金鼎	-9.94618
猶如	-9.94733
不息	-9.94788
滌	-9.9485
符使	-9.94945
不然	-9.94954
唵	-9.94964
白日	-9.94977
有餘	-9.9504
練	-9.95044
丕	-9.95065
璧	-9.95084
枚	-9.95139
筋	-9.95149
通玄	-9.95161
賴	-9.95167
蘂	-9.95177
征	-9.95178
飯	-9.95187
曷	-9.95197
化身	-9.95242
太上道君	-9.95426
武帝	-9.95472
五月	-9.95534
在人	-9.9561
與我	-9.95642
常存	-9.95744
宗師	-9.95805
𩲸	-9.95828
漿	-9.95839
眞靈	-9.95886
惱	-9.95907
妙經	-9.96
収	-9.96009
賞	-9.9603
刃	-9.9604
法象	-9.96048
之祖	-9.96061
遶	-9.96064
飽	-9.96071
漱	-9.9612
逝	-9.96133
昨	-9.96142
從此	-9.96177
祈禱	-9.96194
文字	-9.96215
恭敬	-9.96221
善功	-9.96246
腸	-9.9627
解釋	-9.96289
不過	-9.9634
天皇	-9.96446
佩之	-9.96458
大劫	-9.96478
甲乙	-9.96494
萬法	-9.96659
敢有	-9.96678
道場	-9.96684
若人	-9.96705
感應	-9.96767
百靈	-9.96824
村	-9.96842
思惟	-9.96864
延壽	-9.96879
寺	-9.96902
减	-9.96924
擬	-9.96927
始生	-9.9693
截	-9.96953
金玉	-9.96964
湛然	-9.97062
裳	-9.97256
天丁	-9.973
緯	-9.9734
上相	-9.97361
兩手	-9.97363
後學	-9.9744
黑帝	-9.97528
天蓬	-9.97551
於天	-9.97589
廣大	-9.97606
十年	-9.97649
津液	-9.9769
浄	-9.97719
十五日	-9.97745
傳授	-9.97794
膝	-9.97814
浩劫	-9.9788
内諱	-9.97912
犬	-9.97917
三陽	-9.97921
雷電	-9.97961
之狀	-9.97964
諸仙	-9.98104
飛空	-9.9814
不起	-9.98197
一道	-9.9821
四大	-9.98239
作用	-9.98426
從官	-9.98483
玉音	-9.98513
大王	-9.98614
棗	-9.9867
奴	-9.98671
介	-9.98696
大定	-9.98719
減	-9.98784
不受	-9.98855
不以	-9.98979
風雲	-9.99003
神風	-9.99037
八百	-9.99038
日月之	-9.99065
而至	-9.99102
五道	-9.99103
念念	-9.99135
符呪曰	-9.99176
如前	-9.99296
不壞	-9.99372
夏至	-9.99391
居之	-9.99417
芽	-9.99431
黄金	-9.99468
叟	-9.99498
无不	-9.99513
愁	-9.99514
陷	-9.99518
決	-9.99529
軌	-9.99533
次第	-9.99546
禦	-9.99573
斤	-9.9959
葉士表曰	-9.99597
有道	-9.99826
壺	-9.99851
生身	-9.99943
有無	-9.99986
皆爲	-10.0003
入道	-10.0006
不是	-10.001
仙眞	-10.0012
抵	-10.0019
與人	-10.0024
有大	-10.003
无色	-10.003
栖	-10.0036
生氣	-10.0038
築	-10.0039
碎	-10.0041
膀胱	-10.0044
朴	-10.0047
盻	-10.005
一物	-10.0051
鞭	-10.0052
冝	-10.0052
於道	-10.0053
六十四卦	-10.0056
二十八宿	-10.0058
相交	-10.0058
去來	-10.0058
大乘	-10.0063
焰	-10.0067
或爲	-10.0068
丹經	-10.0069
南北	-10.0071
何處	-10.0074
傳送	-10.0086
福德	-10.0088
大將	-10.0089
魂神	-10.0099
猷	-10.0106
卓	-10.0107
風火	-10.0127
上方	-10.0127
湛	-10.0129
萬天	-10.0129
抽	-10.0134
快	-10.0135
下手	-10.0136
揖	-10.0137
儻	-10.0139
汗	-10.014
萬物之	-10.014
顛	-10.0142
陣	-10.0142
雍	-10.0146
台	-10.0149
八威	-10.0149
四肢	-10.015
者亦	-10.0153
有人	-10.0154
或以	-10.016
五行之	-10.0165
祝曰	-10.0166
一粒	-10.0177
亦非	-10.0183
之㫖	-10.019
之災	-10.0193
道備	-10.0202
成丹	-10.0202
喬	-10.0204
役使	-10.0211
二百	-10.0217
兆身	-10.0229
静	-10.023
徵	-10.023
餐	-10.0231
袍	-10.0233
魁罡	-10.0235
快樂	-10.0238
三境	-10.0252
不肯	-10.0253
之靈	-10.0254
龍王	-10.026
得仙	-10.0272
九眞	-10.0273
子時	-10.0274
九光	-10.0276
終日	-10.0288
修之	-10.0291
自得	-10.0291
迅	-10.0298
明日	-10.0307
以應	-10.0309
甫	-10.031
已上	-10.0314
内觀	-10.0314
運轉	-10.0316
發生	-10.0317
勾	-10.032
癡	-10.0321
此時	-10.0322
歟	-10.0322
晩	-10.0326
好生	-10.033
澗	-10.0332
终	-10.0333
還元	-10.0334
九十	-10.0343
上奏	-10.0351
天文	-10.0356
一者	-10.0357
二者	-10.0365
八十	-10.0365
本來	-10.0369
眞水	-10.0373
億萬	-10.0375
幡	-10.0376
五賊	-10.0378
生而	-10.0379
玉宸	-10.0387
凝結	-10.0395
飛騰	-10.0405
瀆	-10.0405
也故曰	-10.0406
不散	-10.041
此天	-10.041
泣	-10.0411
跨	-10.0411
湘	-10.0414
幢	-10.0415
宇宙	-10.0416
對曰	-10.0417
歛	-10.0417
生生	-10.0417
冥冥	-10.0421
之號	-10.0422
丹元	-10.0423
臂	-10.0423
鍊丹	-10.0424
陽氣	-10.0428
生炁	-10.0428
修煉	-10.0428
玉章	-10.0429
之聲	-10.0434
不可得	-10.0435
三者	-10.0436
九地	-10.0449
夜半	-10.0463
何謂	-10.0468
服食	-10.0474
衣服	-10.0489
周流	-10.0494
米	-10.0502
寵	-10.0508
熙	-10.0509
鄙	-10.0509
費	-10.0509
得聞	-10.051
粉	-10.0511
獅子	-10.0512
乃至	-10.0512
闇	-10.0515
眞空	-10.0518
非人	-10.0519
之謂也	-10.0521
東向	-10.0522
家人	-10.0524
太上老君	-10.0529
太白	-10.0531
三寸	-10.0535
又問	-10.0537
眞陽	-10.0539
交媾	-10.0541
問曰	-10.0543
不解	-10.0565
之象也	-10.0566
長生不死	-10.0566
也乃	-10.0569
之色	-10.0571
說經	-10.0571
在世	-10.0574
琅	-10.059
能生	-10.0591
帔	-10.0596
捕	-10.0603
鱗	-10.0605
銘	-10.0606
紐	-10.0606
威靈	-10.0607
氤氲	-10.0608
例	-10.0608
奈何	-10.0609
憶	-10.061
邁	-10.0612
生靈	-10.0612
上登	-10.0612
堅固	-10.0624
戊	-10.0628
金書	-10.0629
人天	-10.0632
制伏	-10.0635
不欲	-10.0637
四衆	-10.0639
之言	-10.064
而言	-10.0641
禍福	-10.0646
有時	-10.0648
北向	-10.0654
白雪	-10.0657
紫府	-10.0661
爲陽	-10.0673
所生	-10.0682
神神	-10.069
所得	-10.0694
不已	-10.0694
范	-10.0696
其間	-10.0699
忽然	-10.07
異之	-10.07
弄	-10.0703
刀圭	-10.0708
玉闕	-10.0712
出離	-10.0714
太无	-10.0714
之力	-10.0718
變爲	-10.0718
玄微	-10.0722
千年	-10.0732
此符	-10.0732
在乎	-10.0735
一寸	-10.0746
於心	-10.0746
鼎器	-10.0748
群生	-10.0748
神符	-10.0748
如法	-10.0749
十過	-10.075
三魂	-10.0752
隅	-10.0763
橫	-10.0771
尊師	-10.0773
此皆	-10.0774
社	-10.0774
斷絶	-10.0775
飛天神王	-10.0776
苦惱	-10.0783
祚	-10.0789
絲	-10.0791
玉清樂	-10.0791
豫	-10.0792
祟	-10.0792
黃帝	-10.0793
矜	-10.0795
离	-10.0795
流精	-10.0795
岡	-10.0796
臭	-10.0798
熾	-10.08
𡨚	-10.0802
梵行	-10.0802
四月	-10.0802
真王	-10.0803
亶	-10.0811
受命	-10.0811
後人	-10.0827
人世	-10.0828
學仙	-10.0835
杳冥	-10.0836
布施	-10.0843
之臺	-10.0844
之難	-10.0855
其後	-10.0855
二景	-10.0868
皈	-10.0879
萬事	-10.0881
非常	-10.0883
叅	-10.0885
成功	-10.0887
在心	-10.0889
眞元	-10.0889
逾	-10.0891
敦	-10.0893
褒	-10.0896
變成	-10.0897
在天	-10.0898
帀	-10.09
侣	-10.0902
咽液	-10.0904
胎仙	-10.0909
玄一	-10.091
五味	-10.0915
西王母	-10.0919
一聲	-10.0921
存想	-10.0925
輪迴	-10.0926
命門	-10.0935
怠	-10.094
故得	-10.095
天真	-10.0951
道炁	-10.0965
飲酒	-10.0966
兩儀	-10.0974
穹	-10.0976
之鬼	-10.0981
二十八	-10.0986
攀	-10.0993
瓶	-10.0995
山下	-10.0995
低	-10.0995
熏	-10.0996
璇璣	-10.0997
的	-10.0998
道光曰	-10.1
則神	-10.1
罩	-10.1004
春秋	-10.1008
應化	-10.1026
簿	-10.1033
三皇	-10.1036
至今	-10.1046
若是	-10.105
之義也	-10.1051
分形	-10.1055
侍衞	-10.1067
上真	-10.1069
而入	-10.1069
是一病	-10.1071
不應	-10.1073
穆	-10.1079
具位	-10.1081
泰山	-10.1087
剥	-10.1088
排	-10.109
跪	-10.1091
飛玄	-10.1091
駭	-10.1092
板	-10.1093
粗	-10.1096
拒	-10.1097
奸	-10.1097
暖	-10.1097
酬	-10.1101
劔	-10.1101
莫測	-10.1107
亦是	-10.1109
消災	-10.1117
中指	-10.1118
而化	-10.1119
紫霄	-10.1119
洞中	-10.1119
无礙	-10.1122
紫房	-10.1123
亦曰	-10.1126
合道	-10.1132
眞精	-10.1141
五靈	-10.1148
教化	-10.1166
明年	-10.1179
昇仙	-10.1181
眞土	-10.1186
單	-10.1189
婬	-10.1191
馘	-10.1193
捷	-10.1195
括	-10.1196
辱	-10.1197
詐	-10.1198
壬癸	-10.1198
這	-10.12
月華	-10.1201
星在	-10.1209
以是因縁	-10.1212
之書	-10.1223
未知	-10.1224
東井	-10.1244
古人	-10.1245
定録	-10.1247
北都	-10.1264
泉曲	-10.1266
靈童	-10.1266
至真	-10.1269
諸惡	-10.1278
朽	-10.1282
三十日	-10.1283
爲一藥	-10.1285
洞淵	-10.1291
阻	-10.1296
遼	-10.1298
梅	-10.1299
法門	-10.1302
清齋	-10.1304
淸	-10.1305
釋氏	-10.1311
十餘	-10.1312
誦詠	-10.1312
過去	-10.1321
玉簡	-10.1323
攝召	-10.1326
巳上	-10.1329
歸於	-10.1332
臣某	-10.1339
有五	-10.1344
眇眇	-10.1346
大明	-10.1353
渡	-10.1355
九壘	-10.1356
北酆	-10.1361
玄眞	-10.1366
上陽子曰	-10.1371
寥	-10.1372
地仙	-10.1379
無名	-10.1381
不通	-10.1386
蛟	-10.1388
啼	-10.1391
拯	-10.1398
圭	-10.1399
羣生	-10.1401
大神无鞅之衆浮空而至	-10.1402
割	-10.1404
沸	-10.1405
轡	-10.1406
平叔	-10.1407
床	-10.1407
成數	-10.1407
白日昇天	-10.1412
換	-10.1415
良久	-10.1417
道性	-10.1419
之眞	-10.1426
鍾離	-10.143
普告	-10.1432
端坐	-10.1435
慶雲	-10.1435
清明	-10.1436
念呪	-10.145
陽光	-10.1451
雌	-10.1456
也然	-10.1463
换	-10.1476
廬山	-10.148
光照	-10.1481
怡	-10.1487
赤文	-10.1488
頑	-10.1493
四極	-10.1494
琳	-10.1498
婆	-10.15
饒	-10.1503
巡	-10.1506
耽	-10.1506
麤	-10.1507
經上清	-10.1513
做	-10.1515
豁落	-10.1516
靈章	-10.1517
一乘	-10.1523
洲	-10.1526
高眞	-10.1528
知此	-10.1537
聲色	-10.1544
之子	-10.1547
勤行	-10.1549
者非	-10.1551
拔度	-10.1553
狀如	-10.1553
其功	-10.1555
數日	-10.1557
九重	-10.157
陽炁	-10.1571
而下	-10.1574
陽生	-10.1582
此爲	-10.1588
難可	-10.1589
至神	-10.1591
飈	-10.1593
其上	-10.1601
弊	-10.1604
麻	-10.1607
屯	-10.1609
渺	-10.1612
漫	-10.1612
書之	-10.1612
銷	-10.1612
伊	-10.1612
憲	-10.1613
襲	-10.1615
乍	-10.1621
非有	-10.1626
上玄	-10.1634
洞眞	-10.1634
此章	-10.164
句曲	-10.1648
茅君	-10.1672
名字	-10.1673
謗	-10.1675
兄弟	-10.1675
仙王	-10.1678
人知	-10.1678
陰陽之	-10.168
金籙	-10.1686
玉液	-10.1687
故以	-10.1689
人物	-10.1701
罏	-10.1706
而行之	-10.1707
綵	-10.1708
子母	-10.1709
其氣	-10.1712
爵	-10.1712
奕	-10.1713
繩	-10.1715
粹	-10.1715
札	-10.1715
耕	-10.1715
之形	-10.1716
不必	-10.1717
寜	-10.1717
謾	-10.1718
若見	-10.1718
扉	-10.172
憎	-10.172
搜	-10.1722
撓	-10.1723
飬	-10.1724
醒	-10.1725
流通	-10.1729
度厄	-10.1736
靈根	-10.1737
之山	-10.1739
化成	-10.1741
遊宴	-10.1742
殊不知	-10.1743
萬年	-10.1746
靡	-10.1755
黄籙	-10.1755
子良	-10.1756
洞視	-10.1757
人事	-10.1759
剛柔	-10.1761
堯	-10.1764
是我	-10.1773
豈知	-10.1775
誦此經	-10.1775
至尊	-10.1779
寳經	-10.1781
通神	-10.1793
尚書	-10.1799
是知	-10.1801
動而	-10.1801
聰	-10.1803
翊	-10.1812
䝉	-10.1815
疊	-10.1819
七十二	-10.1822
倉	-10.1824
不變	-10.1825
吁	-10.1825
匡	-10.1827
歴	-10.1827
頃刻	-10.183
洒	-10.183
叩齒九通	-10.1831
縱横	-10.1837
三萬六千	-10.1837
不容	-10.1838
天光	-10.1862
藏於	-10.1867
流珠	-10.1889
可見	-10.1898
生萬物	-10.1902
當時	-10.1905
館主	-10.1909
天炁	-10.1911
陽明	-10.1912
所言	-10.1914
十九	-10.1915
右手	-10.1916
飛神	-10.1916
王君	-10.1919
岳	-10.1919
在於	-10.192
燥	-10.1924
斡	-10.1928
尉	-10.1928
不勝	-10.193
濕	-10.1931
鷄	-10.1932
渠	-10.1935
爍	-10.1936
顏	-10.1937
宥	-10.1938
浸	-10.1938
諒	-10.1943
療	-10.1945
愚人	-10.1961
九州	-10.1962
青童	-10.1962
於外	-10.1963
他人	-10.1969
若非	-10.197
赤炁	-10.1972
將吏	-10.1975
星宿	-10.199
中斗	-10.1993
鈴	-10.2
而歸	-10.2001
人人	-10.2011
紫光	-10.2013
天眞皇人	-10.2015
使之	-10.2018
訣曰	-10.2025
無生	-10.2029
至誠	-10.2031
登眞	-10.2033
豈有	-10.2034
存焉	-10.2035
其言	-10.2037
也蓋	-10.2038
闢	-10.2039
模	-10.2039
攸	-10.204
生民	-10.2041
己身	-10.2042
雀	-10.2043
蔭	-10.2043
冶	-10.2043
釣	-10.2045
窟	-10.2046
一二	-10.2048
亮	-10.2049
腥	-10.2051
杯	-10.2055
海空智藏	-10.2056
三華	-10.2061
故名	-10.2062
得此	-10.2064
一字	-10.2065
天有	-10.2065
少陽	-10.2068
聰明	-10.2069
終始	-10.2075
天下之	-10.2077
遠近	-10.2083
未來	-10.2085
不至	-10.2086
兆民	-10.2086
降眞	-10.209
安鎭	-10.209
不易	-10.2096
不測	-10.2115
森	-10.212
有此	-10.2125
在此	-10.2134
求之	-10.2134
中生	-10.2135
生滅	-10.2136
中嶽	-10.2137
而復	-10.214
神兵	-10.2143
長安	-10.2145
功滿	-10.215
子午	-10.2152
離宫	-10.2153
泊	-10.2153
飛升	-10.2153
之首	-10.216
第十	-10.216
心神	-10.216
灼	-10.2161
傲	-10.2161
安得	-10.2162
壑	-10.2164
碧霞	-10.2177
凡夫	-10.2177
六年	-10.2178
道經	-10.2179
數也	-10.2188
只是	-10.2189
欲界	-10.2203
百餘	-10.2208
相合	-10.2212
山嶽	-10.2221
无常	-10.2226
歸依	-10.2234
始終	-10.2235
五百	-10.224
其色	-10.2251
不須	-10.2257
洞靈	-10.2257
材	-10.2258
寂然	-10.226
債	-10.2263
賣	-10.2264
寬	-10.2266
聳	-10.2269
買	-10.2269
匿	-10.2272
內	-10.2272
日夜	-10.2274
蒸	-10.2274
縳	-10.2275
上通	-10.2281
勿令	-10.2283
嗔	-10.2284
二音	-10.2286
可得	-10.2289
之母	-10.2291
控	-10.2294
邪精	-10.2294
受鍊	-10.2299
力士	-10.2304
洞觀	-10.231
青衣	-10.232
二十五	-10.2322
萬聖	-10.2327
以致	-10.2334
吏兵	-10.2335
所見	-10.2337
元元	-10.2337
造化之	-10.2338
以生	-10.2339
言訖	-10.2343
精炁	-10.2346
明月	-10.236
運火	-10.2362
地官	-10.2365
萬人	-10.2366
長春	-10.2367
感通	-10.237
輕泄	-10.2372
爲陰	-10.2374
卵	-10.2381
虹	-10.2382
翹	-10.2382
涵	-10.2383
炳	-10.2384
之節	-10.2385
今以	-10.2388
仙君	-10.2388
靣	-10.2389
玉札	-10.239
蕩蕩	-10.2392
峻	-10.2392
方外	-10.2392
内名	-10.2395
此則	-10.2399
光華	-10.2413
日精	-10.2422
未幾	-10.2424
合於	-10.2427
萬丈	-10.2433
或曰	-10.2441
長年	-10.2442
運化	-10.2444
八門	-10.2446
精血	-10.2448
五斗	-10.2448
神公	-10.2466
神眞	-10.2468
未盡	-10.2476
開通	-10.2476
天尊言	-10.2478
火輪	-10.248
㧞	-10.2481
眞誥	-10.2487
妻子	-10.2491
至妙	-10.2491
霑	-10.2492
匠	-10.2493
晃	-10.2496
道也	-10.2497
其理	-10.2497
閱	-10.2498
者蓋	-10.2499
歸一	-10.25
髪	-10.25
畔	-10.25
逕	-10.2501
愚癡	-10.2502
此山	-10.2502
啖	-10.2503
泓	-10.2505
邪魔	-10.2506
隱韻	-10.2509
方寸	-10.2514
地上	-10.2519
口舌	-10.2521
飛雲	-10.2525
偈	-10.2534
妙理	-10.2535
精華	-10.2538
河圖	-10.2539
而不知	-10.254
養生	-10.2549
臣等	-10.2553
農	-10.2562
太歲	-10.2565
之官	-10.2567
之圖	-10.2574
十一月	-10.2577
師云	-10.2581
衆人	-10.2588
湧	-10.2595
於物	-10.2601
憐	-10.2602
懴悔	-10.2604
於中	-10.2607
言其	-10.2611
圓滿	-10.2612
九華	-10.2613
軒轅	-10.2614
愧	-10.2614
酸	-10.2615
玩	-10.2618
皈依	-10.2619
五臓	-10.2622
九祖	-10.2623
皆以	-10.2625
百骸	-10.2627
六十四	-10.2628
經典	-10.2631
九日	-10.2639
精進	-10.2644
隠	-10.2653
始於	-10.2654
常行	-10.2659
到此	-10.266
六畜	-10.2661
言語	-10.2663
爲天	-10.2663
身體	-10.268
之罪	-10.2681
形容	-10.2684
柄	-10.2684
無非	-10.2684
隱語	-10.2687
笑曰	-10.2687
求道	-10.2694
大師	-10.2701
心心	-10.2702
陞	-10.2703
玉訣	-10.2704
敕命	-10.2706
太初	-10.2708
希有	-10.2709
九龍	-10.2712
玄中	-10.2717
萬民	-10.2725
拙	-10.2726
郞	-10.2727
庚辛	-10.2731
奮	-10.2733
萬變	-10.2737
賛	-10.2739
丹靈	-10.274
通眞	-10.2741
昇入	-10.2745
而自	-10.2746
六府	-10.2747
混洞	-10.2758
仙都	-10.2759
祝云	-10.2761
白炁	-10.2762
無人	-10.2768
水旱	-10.277
爲我	-10.2773
自然之	-10.278
日月星辰	-10.2782
三氣	-10.2782
以明	-10.2789
復還	-10.2791
其數	-10.2814
乃是	-10.282
筌	-10.282
崩	-10.2827
鍊度	-10.2829
忽有	-10.283
用心	-10.2836
坦	-10.2836
揺	-10.2837
別	-10.2838
還山	-10.2838
下丹田	-10.2839
蝕	-10.2841
挹	-10.2843
苗	-10.2845
晚	-10.2847
賈	-10.2847
軫	-10.2848
洽	-10.2849
媒	-10.2851
唤	-10.2855
本無	-10.2866
之志	-10.2868
教人	-10.2868
眞官	-10.2875
無常	-10.2876
修持	-10.2877
餓鬼	-10.288
三要	-10.2889
乃得	-10.2891
眞常	-10.2891
皆從	-10.2892
開悟	-10.2893
愍	-10.2896
倍	-10.2909
之極	-10.291
在上	-10.2912
之大	-10.2916
簫	-10.2926
有異	-10.2928
孚	-10.2935
交會	-10.2939
雷火	-10.294
乃曰	-10.2943
桓	-10.2953
貴人	-10.2955
以象	-10.2957
姤	-10.2957
未聞	-10.2961
裙	-10.2963
陋	-10.2964
夀	-10.2968
潮	-10.2969
縮	-10.2972
檄	-10.2972
團	-10.2974
巢	-10.2975
蹈	-10.2977
浮黎	-10.2977
金母	-10.2978
壤	-10.298
不如	-10.2981
黄炁	-10.2981
悟眞篇	-10.2989
他日	-10.2991
不與	-10.2991
太霄	-10.2995
國王	-10.2996
衆聖	-10.2996
以道	-10.3
外藥	-10.3001
高士	-10.3008
妄想	-10.3015
羽蓋	-10.3023
觀其	-10.3023
玄明	-10.3034
通達	-10.3036
若以	-10.3037
受之	-10.3041
一千	-10.3045
及其	-10.3048
酆	-10.3051
九宮	-10.3072
寳籙	-10.3075
授之	-10.3076
徊	-10.3085
謝以聞	-10.3085
晏	-10.3088
厲	-10.3088
眞實	-10.309
眄	-10.309
者有	-10.3092
峙	-10.3093
惡業	-10.3093
柯	-10.3094
衷	-10.3094
塊	-10.3095
黍米	-10.3095
㝷	-10.3095
踰	-10.3096
自非	-10.3098
骨肉	-10.3099
書云	-10.3099
勇	-10.3099
也言	-10.3104
丞相	-10.3105
夫妻	-10.3107
京師	-10.3119
五穀	-10.3124
霐	-10.3136
物之	-10.3139
佩服	-10.3141
此人	-10.3141
可不	-10.3142
玄冥	-10.3146
既濟	-10.3149
薛	-10.315
和氣	-10.315
洞元	-10.3156
從來	-10.3162
陰德	-10.3171
癘	-10.3199
貺	-10.3203
煥明	-10.3207
禮拜	-10.3209
沓	-10.321
蒲	-10.3212
捐	-10.3212
諧	-10.3213
薰	-10.3214
梯	-10.3214
韶	-10.3214
陟	-10.3215
祛	-10.3215
不求	-10.3215
皎	-10.3217
摇	-10.3217
系	-10.3218
死者	-10.3224
歸根	-10.3227
黄婆	-10.3227
其性	-10.3232
而能	-10.3235
蓮花	-10.3237
所治	-10.3238
相傳	-10.3238
度人經	-10.3241
别有	-10.3246
沖和	-10.325
福地	-10.3253
自稱	-10.3267
冲和	-10.3272
宿命	-10.3279
得度	-10.328
妙行眞人	-10.3282
太皇	-10.3282
魅	-10.329
中來	-10.3296
河海	-10.3298
衣冠	-10.3298
群仙	-10.3305
公子	-10.3316
册	-10.3316
言曰	-10.3319
洞照	-10.3326
激切之至謹奉表	-10.3332
洞徹	-10.3333
笈	-10.3333
戎	-10.3335
眞人志心朝禮	-10.3337
蹟	-10.3337
遮	-10.3338
扣	-10.3338
紛紛	-10.3339
金龍	-10.3339
躋	-10.334
該	-10.3341
踈	-10.3342
袁公輔曰	-10.3342
與天地	-10.3344
速降	-10.3345
眀	-10.3345
絹	-10.3346
綂	-10.3347
鬰	-10.3348
狗	-10.3349
聖母	-10.3351
千萬	-10.336
但見	-10.3364
天魔	-10.3365
多少	-10.3366
中間	-10.3368
現形	-10.3373
形體	-10.3376
天台	-10.3376
一眞	-10.3377
玄英曰	-10.3379
未可	-10.3379
依法	-10.3381
贊曰	-10.3384
青宫	-10.3394
隱諱	-10.3395
照耀	-10.3403
其下	-10.3404
存亡	-10.3406
室中	-10.3409
七魄	-10.3409
未見	-10.341
鬼道	-10.3411
至聖	-10.3412
仙籍	-10.3414
玄門	-10.3427
人鬼	-10.343
吉祥	-10.343
始青	-10.3432
聖衆	-10.3432
得遇	-10.3435
不傳	-10.3435
調和	-10.3448
以示	-10.3452
第九	-10.3454
殻	-10.3462
姬	-10.3462
虬	-10.3464
伴	-10.3465
稟	-10.3467
帳	-10.3467
韋	-10.3469
罕	-10.3469
娥	-10.3469
豪	-10.3469
氛	-10.347
舘	-10.347
優	-10.3472
析	-10.3472
于天	-10.3473
更無	-10.3474
讃歎	-10.3476
何爲	-10.3478
青城	-10.3479
靈風	-10.3482
存神	-10.3486
俯仰	-10.3487
孔子	-10.3488
八年	-10.3495
西嶽	-10.3499
東嶽	-10.35
若無	-10.3503
萬鬼	-10.3507
次存	-10.3514
丹天	-10.3516
頂門	-10.3519
豈能	-10.3519
之至	-10.3527
之苦	-10.3529
太帝	-10.3531
小吉	-10.3539
黄老	-10.3546
乘雲	-10.3546
境界	-10.3548
復命	-10.3564
香火	-10.3567
真炁	-10.358
火車	-10.3584
洞清	-10.3586
日光	-10.3588
綺	-10.3592
冤	-10.3593
永無	-10.3593
算	-10.3593
播	-10.3594
油	-10.3594
嘘	-10.3596
聾	-10.3597
薪	-10.3598
頥	-10.3599
漂	-10.3599
鼠	-10.3601
昩	-10.3603
悟道	-10.3604
混融	-10.3605
朱砂	-10.3606
元始天王	-10.3608
之元	-10.361
小人	-10.3612
明眞	-10.3615
出世	-10.3615
天心	-10.3619
入口	-10.3628
空玄	-10.363
卷下	-10.363
流傳	-10.363
不免	-10.3634
也且	-10.3636
眞汞	-10.364
位爲	-10.3641
清濁	-10.3642
一體	-10.3652
神名	-10.3655
天氣	-10.3656
太宗	-10.3657
也是	-10.3666
動則	-10.3668
七曜	-10.3669
生門	-10.367
號令	-10.3673
皆當	-10.3675
勝先	-10.3678
身爲	-10.3683
四天	-10.3688
所受	-10.3689
作禮	-10.369
石室	-10.3691
靈臺	-10.3697
永保	-10.3702
其家	-10.3705
爲道	-10.3706
往往	-10.3707
洞府	-10.371
廷	-10.3711
靈音	-10.3713
囉	-10.3717
墳	-10.3718
互相	-10.3718
伍	-10.3721
肌	-10.3722
燦	-10.3722
遯	-10.3722
銖	-10.3722
詢	-10.3723
輕舉	-10.3723
無色	-10.3723
彦	-10.3723
翰	-10.3724
妾	-10.3726
襟	-10.3726
火光	-10.3727
宵	-10.3728
墟	-10.3728
數年	-10.3728
嫌	-10.3729
其法	-10.3729
汲	-10.3731
人得	-10.3731
上音	-10.3732
盲	-10.3733
一夕	-10.3733
奉道	-10.3734
流鈴	-10.374
無間	-10.374
塵世	-10.3741
福堂	-10.3742
十里	-10.3748
見在	-10.3749
少年	-10.3749
於内	-10.375
漸漸	-10.3754
微塵	-10.3754
神后	-10.3757
而立	-10.3758
顚倒	-10.3762
正眞	-10.3764
一十	-10.3772
何所	-10.3782
顔色	-10.3788
汝今	-10.3791
物外	-10.3796
或云	-10.3802
諸神	-10.3803
天曹	-10.3805
金眞	-10.3807
明皇	-10.381
蠱	-10.3814
䟽	-10.3817
見一	-10.3819
豈可	-10.3821
其地	-10.3843
要知	-10.3843
皇天	-10.3843
奎	-10.3846
寂滅	-10.3846
三辰	-10.3846
朱宫	-10.3847
蜕	-10.385
袖	-10.385
追魂	-10.3851
服氣	-10.3851
欻火	-10.3851
山水	-10.3852
紫金	-10.3853
翫	-10.3854
押	-10.3855
渴	-10.3855
董	-10.3857
安能	-10.3858
長生久視	-10.3858
馥	-10.3859
滴	-10.3859
榜	-10.386
十日	-10.386
瓜	-10.386
聖賢	-10.3861
永離	-10.3864
曇	-10.3864
龜蛇	-10.3864
流火	-10.3865
善男子譬如	-10.3867
以求	-10.387
十天	-10.3875
與道合眞	-10.3876
表裏	-10.3878
一本作	-10.3879
騫林	-10.3879
場	-10.3879
眞性	-10.389
守之	-10.3897
仙去	-10.3897
救度	-10.3898
此三	-10.3898
修習	-10.3899
修身	-10.3899
成都	-10.3904
玄機	-10.391
之師	-10.3916
分野	-10.3919
青陽	-10.3924
於世	-10.3925
之衆	-10.3931
道化	-10.3936
故言	-10.3939
隱顯	-10.394
其實	-10.394
玄壇	-10.3948
隱名	-10.395
各一	-10.3953
紫炁	-10.3956
肯	-10.3957
玉府	-10.3961
二十七	-10.3967
而曰	-10.3969
所行	-10.397
皂	-10.397
火龍	-10.3977
至寳	-10.3978
道本	-10.3978
仞	-10.3982
大臣	-10.3983
殷	-10.3983
洎	-10.3986
經中	-10.3988
暇	-10.3989
噴	-10.399
簇	-10.399
物物	-10.3991
戍	-10.3992
抗	-10.3993
舜	-10.3994
唾	-10.3997
得長生	-10.4004
五雲	-10.4005
玄虚	-10.4005
其時	-10.4011
神功	-10.4016
急急如律令召	-10.4017
晉	-10.4021
一息	-10.4022
荆	-10.4024
受苦	-10.4027
觀之	-10.403
天書	-10.4031
涯	-10.4033
將來	-10.4034
病者	-10.4035
五常	-10.4039
五符	-10.4042
萬類	-10.4042
紫庭	-10.4044
聖師	-10.4048
西華	-10.4052
天堂	-10.4052
之德	-10.4053
至精	-10.4054
採取	-10.4054
居中	-10.4055
金公	-10.4063
登仙	-10.4065
武夷	-10.4068
戈	-10.4086
孽	-10.4089
三教	-10.4094
豁	-10.4103
中天	-10.4104
生天	-10.4108
大千	-10.4115
服符	-10.4116
脂	-10.4117
徽	-10.4117
受煉	-10.4119
罄	-10.412
譴	-10.4121
制魔	-10.4122
唎	-10.4123
旅	-10.4124
踵	-10.4125
洞虚	-10.4126
閒	-10.4127
儉	-10.4128
裹	-10.4129
零	-10.4129
狐	-10.413
叉	-10.4131
桃康	-10.4131
玊	-10.4132
四十九	-10.4134
長齋	-10.4137
神僊	-10.4144
接引	-10.4147
延康	-10.4151
威光	-10.4168
一身之	-10.4169
飛龍	-10.4176
終於	-10.4181
根本	-10.4186
水之	-10.4188
遣使	-10.4188
其意	-10.4203
元洞	-10.4209
欲求	-10.4212
上士	-10.422
故知	-10.4228
之路	-10.4232
恬	-10.4239
天命	-10.424
故也	-10.4241
仙經	-10.4241
品訣在	-10.4241
而坐	-10.4254
級	-10.4256
而死	-10.4257
亟	-10.4259
噫	-10.4259
是道	-10.4263
屠	-10.4264
沾	-10.4264
縷	-10.4266
婦人	-10.4267
炭	-10.4267
塚	-10.4268
本性	-10.4276
之期	-10.4276
六道	-10.4278
參同契曰	-10.4281
煉丹	-10.4282
一如	-10.4287
離坎	-10.4297
然則	-10.4297
此之謂也	-10.4298
孰能	-10.4309
無差	-10.431
三業	-10.4311
青玄	-10.4316
黄素	-10.433
行於世	-10.4332
仙聖	-10.4338
青炁	-10.4341
十萬	-10.4343
此身	-10.4349
土地	-10.4352
常住	-10.4353
鈞	-10.4354
仙靈	-10.4355
視聽	-10.4356
則知	-10.4357
善哉	-10.4361
玄宗	-10.4362
疾速	-10.4366
未得	-10.4367
升入	-10.437
軸	-10.4374
皇君	-10.438
鬼官	-10.4396
蠲	-10.4397
貨	-10.4397
馮	-10.4398
幹	-10.4398
貼	-10.4399
濫	-10.4399
戾	-10.4399
繡	-10.44
猛獸	-10.4401
卯酉	-10.4401
裝	-10.4401
朱衣	-10.4402
則是	-10.4402
俞	-10.4402
二十年	-10.4403
驕	-10.4403
僅	-10.4405
迫	-10.4405
之教	-10.4406
段	-10.4407
赫赫	-10.4407
伏藏	-10.4412
日月星宿	-10.4416
藹	-10.4419
天樞	-10.4421
歡樂	-10.4422
非非	-10.4425
世上	-10.4432
數百	-10.4439
法相	-10.4441
其義	-10.4442
中出	-10.4444
太霞	-10.4445
應時	-10.4453
矣故	-10.4461
門下	-10.4472
心爲	-10.448
高上	-10.4481
月光	-10.4487
也頌曰	-10.4489
三茅	-10.4491
護持	-10.4491
有功	-10.4495
不去	-10.4495
七玄	-10.4501
大洞經	-10.4501
身命	-10.4505
列言	-10.4506
焚之	-10.4506
入水	-10.4515
種民	-10.4516
千餘	-10.4516
三十九	-10.4519
島	-10.4519
凉	-10.4527
牝	-10.4528
法籙	-10.4531
弼	-10.4534
創	-10.4536
梓	-10.4536
來迎	-10.4537
城隍	-10.4538
矯	-10.4538
麾	-10.4539
酷	-10.4539
讚	-10.4539
緩	-10.454
懽	-10.4541
尼	-10.4541
轅	-10.4542
繪	-10.4542
瓦	-10.4542
斑	-10.4545
而不能	-10.4545
抛	-10.4548
鼔	-10.4549
價	-10.4549
水官	-10.4555
吐納	-10.4558
之恩	-10.4558
年月日時	-10.4559
八節	-10.4561
雲霞	-10.4566
三塗五苦	-10.4567
元始符命	-10.4568
少女	-10.4569
二君	-10.457
字子	-10.4572
有物	-10.4573
谷神	-10.4578
自成	-10.458
學道者	-10.4594
君臣	-10.4595
以養	-10.46
其炁	-10.4602
發明	-10.4603
文章	-10.4606
之魂	-10.4607
白玉	-10.4612
非眞	-10.4617
金丹之	-10.4618
之訣	-10.4618
金陵	-10.4619
不正	-10.4619
入聖	-10.462
无復	-10.462
號爲	-10.4621
者言	-10.4622
老子曰	-10.4623
戒者	-10.4625
通天	-10.463
粒	-10.4635
用事	-10.4635
官吏	-10.4637
過度	-10.4637
胞胎	-10.4638
九元	-10.4643
自知	-10.4645
青天	-10.4645
霍	-10.4646
昊	-10.4647
不從	-10.4651
者不	-10.4655
九江	-10.4655
魔鬼	-10.4655
慈尊	-10.4659
周易	-10.466
璞	-10.4663
足以	-10.4671
無任感幸	-10.4673
復生	-10.4677
蝗	-10.4677
恢	-10.4679
善人	-10.468
旙	-10.4681
巫	-10.4682
踐	-10.4683
纓	-10.4683
貢	-10.4684
呪詛	-10.4687
金簡	-10.4687
幅	-10.4687
廕	-10.4687
生道	-10.4688
白元	-10.469
見於	-10.469
衢	-10.4691
囘	-10.4691
眞藏	-10.4693
運動	-10.4695
侍郎	-10.4696
之鄉	-10.4702
慧光	-10.4702
浮沉	-10.4704
道妙	-10.4708
無心	-10.4712
求仙	-10.4713
罪魂	-10.4714
倦	-10.472
吾身	-10.472
終南	-10.4723
萬福	-10.4729
如玉	-10.473
名書	-10.4738
諸侯	-10.4744
有數	-10.4748
者天	-10.4749
直至	-10.4749
之庭	-10.4749
輕重	-10.4753
赤龍	-10.4754
不遇	-10.4756
異人	-10.476
西斗	-10.4773
聞道	-10.4775
書名	-10.4776
黄房	-10.478
乃可	-10.4787
悟解	-10.4795
誦呪	-10.4803
結爲	-10.4806
崑	-10.4808
功夫	-10.4812
朝禮	-10.4812
不作	-10.4812
起於	-10.4814
懴	-10.4817
臟	-10.4817
員	-10.482
勘	-10.4823
鹽	-10.4824
春分	-10.4825
仇	-10.4827
劄	-10.4828
裔	-10.4828
協	-10.4828
八天	-10.4829
派	-10.4831
此心	-10.4831
忙	-10.4831
挾	-10.4832
較	-10.4832
辦	-10.4832
縈	-10.4834
圓成	-10.4834
簾	-10.4834
籠	-10.4835
茍	-10.4835
鳥獸	-10.4836
遊於	-10.484
沉淪	-10.4842
鍊成	-10.4854
情性	-10.4854
常人	-10.4857
神祇	-10.486
而求	-10.487
妙有	-10.4871
最上	-10.4876
正陽	-10.4879
當有	-10.4881
經緯	-10.4881
曰夫	-10.4889
不入	-10.4893
至理	-10.4893
此理	-10.4902
一徧	-10.4907
以手	-10.4911
經教	-10.4913
壽命	-10.4917
男子	-10.4925
萬道	-10.4928
上聞	-10.493
記名	-10.493
术	-10.4935
不昧	-10.4936
使我	-10.4937
煉形	-10.494
亦无	-10.4941
何不	-10.4947
傳曰	-10.4952
有象	-10.496
平坐	-10.4963
謡	-10.4965
大德	-10.4968
岩	-10.4969
皇人	-10.4969
九皇	-10.4969
羲	-10.4972
匹	-10.4973
稼	-10.4973
而作	-10.4974
邇	-10.4974
䕃	-10.4975
倘	-10.4977
鬚	-10.4977
賜號	-10.498
不滅	-10.4983
不善	-10.4985
淑	-10.4985
地府	-10.4986
屬陰	-10.4988
仙家	-10.499
風吹	-10.4999
元始天王曰	-10.5002
養氣	-10.5002
方知	-10.5006
風刀	-10.5014
丹藥	-10.5015
太始	-10.5018
玉曆	-10.5022
玉清訣	-10.5023
仙童	-10.5024
通明	-10.5028
群魔	-10.503
飲之	-10.5035
无極飛天神王長生大聖无量度人	-10.5035
在前	-10.5039
唯有	-10.5041
無知	-10.5043
一國	-10.5046
歷劫	-10.5055
也如	-10.5055
赤城	-10.5062
俱入	-10.5063
東斗	-10.5069
玄炁	-10.507
爲仙	-10.507
也凡	-10.5076
平生	-10.5079
三眞	-10.5085
恍	-10.5094
諦	-10.5097
等衆	-10.5103
四明	-10.5104
要在	-10.5108
魔試	-10.5112
鼎中	-10.5114
歸命	-10.5114
有生	-10.5114
掠	-10.5115
迸	-10.5116
化形	-10.5117
肥	-10.5118
禧	-10.5119
針	-10.512
鍊神	-10.512
墻	-10.5121
踏	-10.5121
扃	-10.5124
萬有	-10.5124
溥	-10.5126
汙	-10.5127
悅	-10.5127
當此之時	-10.5127
藏之	-10.5128
渺渺	-10.5128
咄	-10.5128
摶	-10.5129
討	-10.5131
填	-10.5133
清風	-10.5133
止於	-10.5134
於地	-10.5137
替	-10.5137
之東	-10.5144
至矣	-10.5148
轉輪	-10.5153
金銀	-10.5167
傳之	-10.517
見世	-10.517
之餘	-10.5171
休息	-10.5172
有爲	-10.5173
神鬼	-10.5174
頭戴	-10.5176
真文	-10.5179
其名	-10.5182
玄天	-10.5186
度脫	-10.5188
玉樞	-10.519
七世	-10.5191
先須	-10.5195
之變	-10.5199
火急	-10.52
三世	-10.5209
主之	-10.5219
天地萬物	-10.522
驂	-10.5221
黄道	-10.5221
金丹之道	-10.5233
雹	-10.5234
來往	-10.5239
乏	-10.525
手足	-10.5251
昇度	-10.5251
甚多	-10.5257
欻	-10.5263
宫殿	-10.5265
捲	-10.5265
撼	-10.5267
也人之	-10.5268
獵	-10.5269
秩	-10.5269
人不	-10.5271
梨	-10.5272
製	-10.5272
剖	-10.5273
未分	-10.5274
朋	-10.5275
蔣	-10.5275
瘡	-10.5276
吼	-10.5276
厨	-10.5277
相隨	-10.5277
紋	-10.5277
奠	-10.5278
羅酆	-10.5279
撥	-10.5281
黃芽	-10.5281
俠	-10.5281
誣	-10.5284
陁	-10.5284
瑛	-10.5285
二日	-10.5288
形質	-10.5289
其機	-10.529
時時	-10.5292
一句	-10.5296
靈飛	-10.5296
歲月	-10.5298
之時也	-10.53
不審	-10.53
不拘	-10.5301
五寸	-10.5311
譬	-10.5323
妙炁	-10.5323
日魂	-10.5324
飄飄	-10.5325
行者	-10.5326
羽衣	-10.5326
帝命	-10.5329
所爲	-10.5336
澄清	-10.534
百歲	-10.5344
師事	-10.5349
此二	-10.535
度生	-10.5352
三昧	-10.5353
合景	-10.5353
不住	-10.5353
千日	-10.5356
其餘	-10.5358
上香	-10.5362
祇	-10.5368
之辰	-10.5372
根源	-10.5375
唯願	-10.5375
說是	-10.5377
人所	-10.538
流水	-10.5381
流布	-10.5382
右法	-10.5383
七人	-10.539
千二百	-10.5394
後有	-10.5401
皇后	-10.5407
在下	-10.5408
道用	-10.5413
萬魔	-10.5415
淮	-10.5415
庫	-10.5417
一百二十	-10.5419
靜而	-10.5421
悶	-10.5426
滓	-10.5427
慰	-10.5427
偕	-10.5429
閏	-10.5429
漆	-10.5429
閭	-10.543
纖	-10.543
寇	-10.543
玄黄	-10.543
更有	-10.543
濃	-10.5431
舊註曰	-10.5432
赫奕	-10.5432
臘	-10.5432
靈應	-10.5432
搏	-10.5434
形神俱妙	-10.5434
則無	-10.5434
若夫	-10.5434
寔	-10.5434
竇	-10.5435
夾	-10.5436
相應	-10.5436
大哀天尊	-10.5437
凖	-10.5437
是時一國是男是女莫不傾心	-10.5437
鐡	-10.5437
外丹	-10.5441
迷惑	-10.5441
師子	-10.5442
金童	-10.5444
四者	-10.5444
玉池	-10.5445
髙明	-10.5447
不安	-10.5448
天經	-10.5449
若得	-10.5451
而退	-10.5457
玉童玉女	-10.5457
四季	-10.5464
一度	-10.5466
昇玄	-10.5467
河源	-10.5468
降伏	-10.547
靜坐	-10.5475
古之	-10.548
長樂	-10.548
五千	-10.5483
之患	-10.5486
方諸	-10.5498
有情	-10.5498
存心	-10.55
告行	-10.5506
幽關	-10.5507
乾之	-10.5512
三尺	-10.5512
下觀	-10.5513
失其	-10.5514
爲道士	-10.5518
九還	-10.5523
幽夜	-10.5527
受其	-10.5528
光景	-10.5531
不忘	-10.5533
无邊	-10.5533
五篇	-10.5534
天地之間	-10.5534
亦當	-10.5538
媾	-10.5539
午時	-10.5541
黒帝	-10.5546
登明	-10.555
記云	-10.555
挑	-10.5556
上靈	-10.5557
一斤	-10.5563
服餌	-10.5566
七轉	-10.5573
門户	-10.5578
樵	-10.558
黍	-10.5582
帝庭	-10.5584
諫	-10.5585
頤	-10.5585
兌	-10.5585
沃	-10.5585
拈	-10.5585
濛	-10.5586
徂	-10.5586
豆	-10.5586
隴	-10.5586
瓢	-10.5586
玉書	-10.5587
昆	-10.5587
藍	-10.5587
熈	-10.5587
果報	-10.5589
讓	-10.5591
訝	-10.5593
降臨	-10.5593
鈎	-10.5594
庚申	-10.5594
説經	-10.5594
誹謗	-10.5594
脱胎	-10.5595
其本	-10.5595
罹	-10.5595
翌日	-10.5596
又見	-10.5599
甲申	-10.5608
碧玉	-10.5609
諦聽	-10.561
甲午	-10.5615
無私	-10.5617
道術	-10.5617
之司	-10.5619
普天	-10.5624
忽見	-10.5628
雲篆	-10.5631
合成	-10.5648
殺害	-10.5654
紫微宫	-10.5655
百關	-10.5658
圓象	-10.5661
七返	-10.5663
黄華	-10.5663
節度	-10.5666
歎曰	-10.5667
在地	-10.567
生根	-10.5672
洞庭	-10.5672
上應	-10.5673
依科	-10.5675
天河	-10.5675
寳章	-10.5675
握固	-10.5679
無異	-10.568
八素	-10.5681
合符	-10.5684
心腎	-10.5691
同前	-10.5693
元化	-10.5698
者必	-10.5705
得道者	-10.5707
圃	-10.5713
丹臺	-10.5717
秋分	-10.5717
保生	-10.5721
讀誦	-10.5723
火也	-10.5725
怖	-10.5729
氐	-10.5732
雖然	-10.5732
不老	-10.5734
何有	-10.5735
岐	-10.5737
不異	-10.5738
起死	-10.5739
浮雲山聖壽萬年宮道士趙道一編修	-10.5742
訶	-10.5743
襄	-10.5743
斂	-10.5744
粟	-10.5744
道言行道之日皆當香湯沐浴齋戒入室	-10.5744
援	-10.5746
蟬	-10.5748
薈	-10.5749
閉塞	-10.5749
正音云	-10.5752
𩔖	-10.5752
攺	-10.5752
苑	-10.5752
芥	-10.5755
長生大君	-10.5757
不差	-10.5758
庶幾	-10.5758
三字	-10.5758
兵起	-10.5759
名號	-10.5759
吞之	-10.5761
不許	-10.5762
四面	-10.5765
生殺	-10.5768
自古	-10.5772
紫宸	-10.5772
空空	-10.5772
陽魂	-10.5775
一家	-10.5777
反覆	-10.578
玄洲	-10.5784
五人	-10.5788
差别	-10.5789
苦爽	-10.5794
復歸	-10.5795
之西	-10.5797
王子	-10.5803
直指	-10.581
无所不	-10.5813
一片	-10.5823
鍊氣	-10.5824
宣和	-10.583
無事	-10.5833
宫室	-10.5834
陰氣	-10.5835
生神章	-10.5844
以制	-10.5846
洞微	-10.5848
符呪	-10.5849
陽之炁	-10.5851
見形	-10.5853
爲害	-10.5854
心無	-10.5855
普濟	-10.5858
父子	-10.5859
爲物	-10.5864
若此	-10.5874
以聞	-10.588
准	-10.5881
景霄	-10.5888
戹	-10.589
正音	-10.5892
叢	-10.5894
闔	-10.5895
奢	-10.5896
二十三	-10.5898
狼	-10.5898
誨	-10.5902
擔	-10.5906
譚	-10.5907
需	-10.5907
有何	-10.5907
聊	-10.5907
麥	-10.5908
阮	-10.5909
疲	-10.591
大梵隱語	-10.591
嫁	-10.5911
訛	-10.5911
斥	-10.5912
渉	-10.5917
無象	-10.5919
靜室	-10.5922
其志	-10.5922
汞鉛	-10.5929
相連	-10.593
者當	-10.5931
有九	-10.5931
何也	-10.5936
皆可	-10.5936
七炁	-10.5936
玉經	-10.5938
帝敕	-10.5939
之年	-10.5942
由此	-10.5947
圓光	-10.5948
有四	-10.5951
一切諸法	-10.5955
衣食	-10.5956
羅列	-10.5963
清都	-10.5964
妖精	-10.5966
離合	-10.5966
不退	-10.5971
悟眞	-10.5974
所求	-10.5976
白素	-10.5976
精誠	-10.5981
筆書	-10.5984
修丹	-10.5991
和平	-10.5996
二曰	-10.6002
三曰	-10.6006
貴賤	-10.6009
欲得	-10.601
内藥	-10.6014
大海	-10.6016
大地	-10.6018
聖人之	-10.6019
玄化	-10.6029
七宿	-10.6035
飛符	-10.6042
問道	-10.6042
必先	-10.6047
建立	-10.6047
霆	-10.6051
髻	-10.6052
一言	-10.6053
腎爲	-10.6057
嵗	-10.6063
殄	-10.6065
糧	-10.6067
六氣	-10.6068
憩	-10.6068
仙師	-10.6069
衮	-10.607
伽	-10.6071
玄上	-10.6071
勅	-10.6071
尾閭	-10.6073
揭	-10.6073
叨	-10.6073
喫	-10.6073
絃	-10.6074
菩	-10.6074
超凡入聖	-10.6075
匝	-10.6075
猪	-10.6075
綬	-10.6075
叩齒三通	-10.6077
聿	-10.6077
溟涬	-10.6078
產	-10.6078
璣	-10.6078
柏	-10.6079
瞳	-10.608
一國男女	-10.6087
叩頭	-10.609
太衝	-10.6091
解脱	-10.6096
有命	-10.6097
其日	-10.61
召呪	-10.6101
七竅	-10.6101
不顧	-10.6109
順行	-10.6109
眞境	-10.6111
當得	-10.6112
地下	-10.6115
陰符經	-10.6117
金晶	-10.6119
莫知其	-10.6119
玄靈	-10.6124
真仙	-10.6126
洛書	-10.6127
刀山	-10.6131
擲火	-10.6133
超昇	-10.6134
者其	-10.6135
天雷	-10.6136
神龍	-10.6138
治在	-10.6141
上極	-10.6144
九氣	-10.6144
畜生	-10.6147
下田	-10.6147
所修	-10.6156
丹光	-10.6158
天中之	-10.616
十轉	-10.6162
下世	-10.6164
隱於	-10.617
天兵	-10.6178
四司	-10.6181
鉞	-10.6183
數足	-10.6188
之語	-10.619
天神	-10.6193
星斗	-10.6193
官將	-10.6194
所願	-10.6194
日在	-10.6194
是曰	-10.6199
若欲	-10.6203
其精	-10.6207
因果	-10.6208
九天之	-10.6208
上經	-10.6211
在其中	-10.6212
金虎	-10.6213
杳㝠	-10.6213
元命	-10.6215
保護	-10.6218
生育	-10.6219
奈	-10.6226
你	-10.6228
不能自	-10.6228
是諸	-10.623
沛	-10.6231
賀	-10.6232
子野曰	-10.6232
壓	-10.6234
經籙	-10.6235
株	-10.6236
倏	-10.6236
聞此	-10.6237
出臣身中三五功曹左右官使者侍香	-10.6237
褐	-10.6238
貽	-10.624
怕	-10.6243
虐	-10.6243
拭	-10.6244
莖	-10.6245
幘	-10.6248
甲寅	-10.6249
之格	-10.6256
九過	-10.6258
之數也	-10.626
非可	-10.6261
之家	-10.6261
呪畢	-10.6262
天根	-10.6266
謂曰	-10.627
地祇	-10.627
㝠㝠	-10.627
大如	-10.627
易遷	-10.6271
月之	-10.6271
律曰	-10.6271
一箇	-10.6273
閉息	-10.6277
三焦	-10.6278
玄臺	-10.6279
而巳	-10.6284
而起	-10.6286
輕慢	-10.6288
今人	-10.6294
妙音	-10.6298
分爲	-10.6298
侍經	-10.6299
福田	-10.63
紫煙	-10.63
之相	-10.6302
無餘	-10.6302
而上	-10.6319
衆妙	-10.6329
熒惑	-10.633
方得	-10.6331
其徒	-10.6332
聞其	-10.6333
央	-10.634
炁合	-10.6344
地户	-10.6347
不問	-10.635
靡不	-10.6353
金色	-10.6355
爲地	-10.636
祕訣	-10.6365
素靈	-10.6368
靈寶	-10.6373
參同	-10.6374
矣夫	-10.6375
消魔	-10.6379
雷雨	-10.6379
心拜	-10.6384
所欲	-10.6384
不止	-10.6385
十華	-10.6385
明了	-10.6389
羽化	-10.6392
三品	-10.6392
之役	-10.6395
故爲	-10.6396
方能	-10.6401
恕	-10.6405
浹	-10.6405
箭	-10.6406
鴉	-10.6406
浙	-10.6406
喧	-10.6407
玉童傳言玉女五帝直符直日香官	-10.6407
懿	-10.6408
婚	-10.641
歘	-10.6411
閲	-10.6411
劣	-10.6412
争	-10.6412
妬	-10.6412
酌	-10.6413
橐籥	-10.6413
竿	-10.6413
措	-10.6414
瀝	-10.6414
道果	-10.6415
萬氣	-10.6416
東極	-10.6419
執法	-10.6422
寂寂	-10.6423
會稽	-10.6424
莊嚴	-10.6425
各三十二人	-10.6429
考校	-10.643
鄉人	-10.643
不淨	-10.6431
隨意	-10.6431
太歳	-10.6432
之藥	-10.6432
上啓	-10.6436
苦海	-10.6437
洛陽	-10.6442
忠孝	-10.6447
日月五星	-10.6447
清靈	-10.6453
爲大	-10.6454
徃來	-10.6454
仙卿	-10.6467
眞宗	-10.647
飛歩	-10.6471
建壇	-10.6479
腎中	-10.648
爲水	-10.6482
玉京山	-10.6486
也人能	-10.6488
胸	-10.6489
非道	-10.649
二子	-10.6499
空有	-10.6501
之疾	-10.6504
周行	-10.6506
形如	-10.6517
電光	-10.6521
兩目	-10.6523
變易	-10.6526
之故	-10.6531
故聖人	-10.6533
空无	-10.6536
何必	-10.6544
則能	-10.6545
萬仙	-10.6546
之分	-10.6548
以意	-10.6553
禳災	-10.6557
亦當修齋行香誦經	-10.6559
存念	-10.6567
十六日	-10.6568
獨立	-10.6568
萊	-10.6569
異名	-10.6571
喉	-10.6572
償	-10.6573
僚	-10.6573
我之	-10.6577
也所謂	-10.6577
綸	-10.6578
潰	-10.6579
揆	-10.6579
刊	-10.6579
亘	-10.658
裴	-10.658
者從	-10.658
弓	-10.6581
詎	-10.6582
攬	-10.6583
諸經	-10.6583
内視	-10.6584
頁	-10.6584
悮	-10.6584
虎豹	-10.6585
帷	-10.6585
月餘	-10.6585
咒	-10.6586
海蟾	-10.6587
遘	-10.6587
周而復始	-10.6587
惶	-10.6588
勾陳	-10.659
澡	-10.659
十二人	-10.6591
俊	-10.6591
向上	-10.6591
𨽻	-10.6591
中國	-10.6591
當願一切	-10.6592
佩帶	-10.6598
貧窮	-10.66
救護	-10.6604
爲火	-10.6604
大慧	-10.6606
統御	-10.6608
以授	-10.6609
至大	-10.6613
女人	-10.6615
用此	-10.6619
救人	-10.6622
禁戒	-10.6625
安靜	-10.6627
下弦	-10.6629
不可得而	-10.6631
青城山	-10.6632
不足以	-10.6634
長史	-10.6639
常在	-10.6643
小腸	-10.6645
斬邪	-10.6647
或見	-10.6648
震動	-10.6648
隨時	-10.6652
定位	-10.6652
年月日	-10.6652
氣爲	-10.6654
夢中	-10.6654
筵	-10.6654
此謂	-10.6655
明師	-10.6656
成人	-10.6656
之可	-10.6657
虚心	-10.666
或問	-10.666
浮空	-10.6665
道家	-10.6666
不一	-10.6667
三十六天	-10.6669
心地	-10.6673
滅形	-10.6675
以神	-10.6677
虚靜	-10.6693
下音	-10.6695
天府	-10.67
大道君	-10.6701
爲民	-10.6703
養神	-10.6706
腹中	-10.6708
如斯	-10.6712
十二年	-10.6713
疆	-10.6714
催生	-10.6722
天冠	-10.6725
十餘年	-10.6727
若遇	-10.673
丹訣	-10.673
於身	-10.6731
吕曰	-10.6736
徙	-10.6741
神不	-10.6743
瀉	-10.6746
榻	-10.6751
萃	-10.6752
樸	-10.6752
頸	-10.6752
讎	-10.6753
濤	-10.6753
痊	-10.6753
髯	-10.6755
氷	-10.6756
十月長齋誦詠是經	-10.6756
高下	-10.6757
蹇	-10.6758
祉	-10.6758
裕	-10.6759
雌雄	-10.676
剔	-10.6761
箱	-10.6761
不自	-10.6761
▲▲	-10.6761
𠃔	-10.6763
驢	-10.6763
至真大神無鞅之衆浮空而至	-10.6763
紫氣	-10.6766
之表	-10.677
寳光	-10.6771
非一	-10.6775
九府	-10.6777
人見	-10.6778
徼	-10.6781
仙品	-10.6782
混成	-10.6786
得神仙	-10.679
外道	-10.679
傳道	-10.6793
鬱鬱	-10.6793
道眞	-10.6795
不盡	-10.6796
大道之	-10.6797
者是也	-10.6798
九醜	-10.6798
則不能	-10.6801
萬物生	-10.6801
炎炎	-10.6802
其德	-10.6813
已身	-10.6813
六爻	-10.6815
仙傳	-10.6815
紫霞	-10.6817
太無	-10.6819
何時	-10.6821
萬國	-10.6825
甚深	-10.6829
未悟	-10.6837
妖魔	-10.6842
符火	-10.6844
萬萬	-10.6846
亦得	-10.6847
從魁	-10.6863
純陰	-10.6867
億千	-10.6871
氣氣	-10.6873
帝尊	-10.6873
皓靈	-10.6875
南上	-10.6878
黄書	-10.688
陽火	-10.688
注云	-10.6887
立春	-10.6888
人爲	-10.6891
中和	-10.6894
之域	-10.6895
羣仙	-10.6897
女青	-10.6898
性命之	-10.6901
之卦	-10.6901
吉日	-10.6903
下界	-10.6903
亦能	-10.6906
吽	-10.6907
已而	-10.6908
魔精	-10.6914
言我	-10.6919
須是	-10.6921
坎中	-10.6922
取其	-10.6922
死亡	-10.6922
實相	-10.6926
旻	-10.6929
諾	-10.6931
之罪或	-10.6932
竺	-10.6932
嫉	-10.6932
太明	-10.6932
瘞	-10.6932
胥	-10.6932
腎氣	-10.6933
緬	-10.6933
盞	-10.6933
鴈	-10.6934
芬	-10.6934
架	-10.6936
嗣天子	-10.6938
南昌上宫	-10.6939
恱	-10.694
弭	-10.6941
㸃	-10.6942
朝廷	-10.6942
䘮	-10.6942
眞心	-10.6945
法事	-10.6949
既得	-10.6954
供飬	-10.6955
校録	-10.6955
鄉里	-10.6961
一生	-10.6961
曰爾	-10.6962
不窮	-10.6968
至靈	-10.6968
忘形	-10.6969
朝夕	-10.697
上法	-10.6971
長短	-10.6972
眞神	-10.6973
泥丸宫	-10.6975
小兒	-10.698
何故	-10.6985
當爲	-10.6985
一如告命	-10.6986
不修	-10.699
不知所在	-10.6991
北辰	-10.6991
元和	-10.6993
其方	-10.6994
八會	-10.6995
南宮	-10.6997
斗柄	-10.6998
伏望	-10.7
願得	-10.7002
當來	-10.7011
聖功	-10.7011
雲中	-10.7011
點化	-10.7015
六洞	-10.7016
千載	-10.7016
陽也	-10.7016
執著	-10.7018
今爲	-10.7019
自已	-10.7019
惡根	-10.702
朱履	-10.7021
相逢	-10.7023
法中	-10.7027
人自	-10.703
百六	-10.7031
世俗	-10.7032
其用	-10.7033
體用	-10.7033
登壇	-10.7046
自然之道	-10.7046
明矣	-10.7048
要妙	-10.7051
火鍊	-10.7053
陰也	-10.7056
其次	-10.7057
乆而	-10.7064
石上	-10.7074
殺人	-10.7074
次以	-10.7075
至藥	-10.7076
陛	-10.7077
十極	-10.7082
與天	-10.7082
件	-10.7085
爲災	-10.7085
批	-10.709
十徧	-10.7092
十二時	-10.7096
香花	-10.7096
明道	-10.7097
四人	-10.71
不停	-10.7102
二星	-10.7103
心火	-10.7104
依前	-10.7106
禎	-10.7109
閉氣	-10.711
斜	-10.7111
養之	-10.7111
彊	-10.7113
不堪	-10.7114
即非	-10.7114
炬	-10.7115
鋪	-10.7115
殁	-10.7116
無情	-10.7116
貯	-10.7117
酣	-10.7117
忱	-10.7117
歇	-10.7117
不交	-10.7118
敏	-10.7118
歸根復命	-10.7118
姚	-10.7119
忿	-10.712
磬	-10.7122
鑊湯	-10.7123
稽首再拜	-10.7123
大化	-10.7123
儔	-10.7124
眞一之水	-10.7125
結璘	-10.7126
青書	-10.7126
何人	-10.7126
在外	-10.7127
麻姑	-10.7129
御史	-10.713
經書	-10.7132
皆非	-10.7133
道要	-10.7133
疑惑	-10.7133
赤松子	-10.7136
揲	-10.7143
性也	-10.7145
也非	-10.7147
治之	-10.715
亦復	-10.7151
神仙之	-10.7154
光輝	-10.7157
無終	-10.7163
也昔	-10.7164
人多	-10.7164
致雨	-10.7169
北海	-10.717
四維	-10.7172
光玄曰	-10.7173
復以	-10.7173
而止	-10.7174
主領	-10.7174
其二	-10.7174
升仙	-10.7174
四十五	-10.7181
爲神	-10.7181
不干	-10.7184
太丹	-10.7187
隂符	-10.719
萬邪	-10.7193
又能	-10.7194
即爲	-10.7195
福慶	-10.7198
道流	-10.7199
月十五日	-10.7199
黙念	-10.7203
相通	-10.7204
解義	-10.7205
空歌	-10.7207
邪鬼	-10.7212
之火	-10.7213
之室	-10.7214
元靈	-10.7214
上詣	-10.7221
通於	-10.7223
萬二千	-10.7226
雷震	-10.7229
言此	-10.7229
地中	-10.7233
不立	-10.7235
無相	-10.7235
也但	-10.7236
善能	-10.7239
天理	-10.724
人不知	-10.7241
則无	-10.7242
遞	-10.7247
寳藏	-10.7247
故謂之	-10.7248
爲說	-10.7251
白天尊言	-10.7256
形魂	-10.7256
皇極	-10.7258
行事	-10.7259
而終	-10.7259
自身	-10.7262
本是	-10.7264
一通	-10.7266
名利	-10.7266
參同契	-10.7269
在内	-10.7276
亦以	-10.7276
如人	-10.7281
九清	-10.7281
緣	-10.729
轄	-10.7299
無遺	-10.7299
蘿	-10.73
盪	-10.7301
誇	-10.7302
数	-10.7303
裁	-10.7304
緊	-10.7304
火燒	-10.7304
殞	-10.7304
天地日月	-10.7305
瞑目	-10.7305
王者	-10.7306
囂	-10.7307
汨	-10.7308
飊	-10.7308
譬喻	-10.7309
裘	-10.7309
道人曰	-10.7311
駢	-10.7312
不見其	-10.7313
代諱	-10.7313
之基	-10.732
謡歌	-10.732
春夏	-10.732
烏兔	-10.7321
平旦	-10.7323
煙霞	-10.7324
喜怒	-10.7324
付之	-10.7326
生數	-10.733
无色界	-10.7332
黄衣	-10.7332
一切法	-10.7334
自可	-10.7334
萬生	-10.7334
文帝	-10.7336
甲辰	-10.7336
陰功	-10.7337
善根	-10.7339
思慮	-10.734
坐卧	-10.7343
寧海	-10.7344
其一	-10.7345
恩愛	-10.7352
不宜	-10.7353
靜則	-10.7353
到處	-10.7355
紫陽眞人	-10.7356
之水	-10.7357
歸去	-10.7357
爲一過	-10.7359
廣寒	-10.7361
祈雨	-10.7363
州刺史	-10.7369
之祕	-10.7372
持誦	-10.7374
傳言	-10.7375
四聖	-10.7375
之堂	-10.7377
收攝	-10.7378
存之	-10.7379
幽顯	-10.7382
萬遍	-10.7383
幽微	-10.7383
龍神	-10.7385
與道合	-10.739
有司	-10.7392
百病	-10.7397
二章	-10.7401
雌一	-10.7401
丹道	-10.7403
爲本	-10.7405
三分	-10.7408
今在	-10.7409
生焉	-10.741
我以	-10.7415
聦	-10.7431
相對	-10.7437
四百	-10.7439
五者	-10.7446
復卦	-10.7448
有如	-10.745
賁	-10.7451
二分	-10.7452
之戸	-10.7456
流金	-10.7458
合和	-10.746
而易	-10.746
閉炁	-10.7462
一味	-10.7463
鍊之	-10.7467
若有衆生	-10.7468
此事	-10.7469
六情	-10.747
流轉	-10.7472
嗜	-10.7473
玉臺	-10.7473
醴	-10.7473
明白	-10.7476
夜光	-10.748
穎	-10.7484
牖	-10.7485
持戒	-10.7485
譜	-10.7486
顚	-10.7488
拳	-10.7489
悖	-10.749
說此	-10.749
玄之又玄	-10.749
恪	-10.749
俓	-10.7491
瑠璃	-10.7491
懶	-10.7492
佇	-10.7493
貟	-10.7493
毫髮	-10.7493
區區	-10.7494
恬淡	-10.7494
嗚	-10.7494
曰君	-10.7495
代宗師	-10.7495
大茅	-10.7497
重樓	-10.7497
諮	-10.7497
衆中	-10.7498
料	-10.7498
下士	-10.7498
直入	-10.7499
玉房	-10.7499
紹興	-10.7499
掃蕩	-10.75
之理也	-10.75
浩浩	-10.7501
拆	-10.7501
贖	-10.7501
吾奉	-10.7505
餌之	-10.751
司命君	-10.7511
召龍	-10.7513
之儀	-10.7514
三千六百	-10.7514
頭上	-10.7516
)▲(	-10.7519
召靈	-10.7519
吾道	-10.7521
謹按	-10.7525
之法也	-10.7527
起火	-10.7528
即有	-10.7529
進士	-10.7529
不著	-10.7529
屬陽	-10.753
又如	-10.7531
亦然	-10.7532
土爲	-10.7535
政和	-10.7539
又何	-10.7541
殺之	-10.7541
財物	-10.7541
大哉	-10.7541
八日	-10.7542
彼此	-10.7542
公曰	-10.7542
加封	-10.7551
令我	-10.7553
徹視	-10.7557
罪業	-10.7563
每日	-10.7571
朝謁	-10.7575
一乘海空	-10.7576
周回	-10.7576
丹霞	-10.7577
應感	-10.7579
枯骨	-10.7581
下臨	-10.7582
邵	-10.7585
室内	-10.7585
君子以	-10.7594
冲虚	-10.7596
又名	-10.7596
一紀	-10.7596
三四	-10.7596
與日	-10.7596
有縁	-10.7599
至心	-10.7601
敢不	-10.7603
三府	-10.7604
吞服	-10.7606
之旨	-10.7608
處士	-10.7614
所作	-10.7615
莫知	-10.7619
青面	-10.762
樞機	-10.7625
六陽	-10.763
皆因	-10.763
歸來	-10.763
夫子	-10.7637
六日	-10.7641
不思	-10.7643
口吐	-10.7644
三卷	-10.7645
下鬼	-10.7646
得入	-10.7646
氣也	-10.7647
志心	-10.7648
朝眞	-10.7651
汞也	-10.7651
執符	-10.7652
驅除	-10.7653
次思	-10.7653
住於	-10.7654
漏泄	-10.7654
十遍	-10.7656
修誦	-10.7657
積金	-10.7658
崇寧	-10.7659
不可勝	-10.7659
璫	-10.7665
勳	-10.7671
䕶	-10.7673
艾	-10.7675
濱	-10.7677
鴻濛	-10.7678
幕	-10.7678
陪	-10.7678
凍	-10.7679
暈	-10.768
其體	-10.768
七月長齋誦詠是經	-10.7682
孩	-10.7682
淩	-10.7682
包含	-10.7682
之命	-10.7683
異香	-10.7683
街	-10.7683
潛	-10.7684
淚	-10.7684
肌膚	-10.7685
膚	-10.7685
𥘉	-10.7686
杓	-10.7687
寥廓	-10.7687
袁	-10.7688
姥	-10.7689
金木水火土	-10.7689
踴躍	-10.7689
擎	-10.7691
眞風	-10.7692
諸苦	-10.7692
玉蟾	-10.7693
浮雲	-10.7697
無盡	-10.7698
道生	-10.7699
只在	-10.7701
二卦	-10.7702
以自	-10.7707
化天帝	-10.7709
不二	-10.7709
道在	-10.771
燈儀	-10.7712
亡人	-10.7713
土也	-10.7715
其根	-10.7717
指示	-10.7717
丙子	-10.7721
五福	-10.7721
鬱羅	-10.7726
然如	-10.7727
與諸	-10.7727
月魄	-10.7731
來生	-10.7732
設醮	-10.7734
初生	-10.7735
八維	-10.7737
氣化	-10.7739
去後	-10.7739
配合	-10.774
天眞皇人曰	-10.7741
之郷	-10.7742
道德經曰	-10.7744
二陽	-10.7744
機也	-10.7749
樓觀	-10.775
以正	-10.7751
日日	-10.7752
及至	-10.7754
養炁	-10.7755
超出	-10.7756
信心	-10.776
眞宰	-10.776
爲先	-10.7761
司徒	-10.7761
也謂	-10.7768
爐鼎	-10.7769
百萬	-10.7771
止止	-10.7773
發心	-10.7775
爲三	-10.778
上弦	-10.7783
所至	-10.779
開圖	-10.7791
隨心	-10.7792
冨	-10.7792
功圓	-10.7793
大洞眞經	-10.7793
養性	-10.7796
今則	-10.7798
門外	-10.7799
乃以	-10.7801
返本	-10.7804
所由	-10.7807
人家	-10.7808
太易	-10.7808
不定	-10.7811
隨方	-10.7813
乾元	-10.7813
水火之	-10.7816
隨其	-10.782
未生	-10.782
火中	-10.7821
紫素	-10.7823
歸于	-10.7824
身入	-10.7824
天庭	-10.7825
九天之上	-10.7826
一小	-10.7827
勿以	-10.7828
一竅	-10.7829
無過	-10.7833
天符	-10.7835
身得	-10.7835
通用	-10.7839
下布	-10.784
精心	-10.784
玄宫	-10.7841
化作	-10.7842
身如	-10.7844
鼻引	-10.7845
金花	-10.7845
侍者	-10.785
終無	-10.7854
神吏	-10.7857
圓通	-10.7859
而逝	-10.786
萬歲	-10.7863
洞真	-10.7867
緘	-10.787
四指	-10.7872
糞	-10.7873
釜	-10.7873
壺中	-10.7874
琪	-10.7875
昴	-10.7875
稀	-10.7876
偷	-10.7876
文武	-10.7876
冢	-10.7877
與物	-10.7878
玄功	-10.7878
還家	-10.7878
無鞅之衆	-10.7878
刺	-10.7879
眞金	-10.7881
俄頃	-10.7883
侍宸	-10.7883
彤	-10.7884
綽	-10.7884
羸	-10.7885
不生不滅	-10.7886
洋	-10.7886
楅	-10.7886
雕	-10.7886
竦	-10.7887
翟	-10.7887
與神	-10.7889
九載	-10.7891
靈明	-10.7893
可知	-10.7893
即此	-10.7896
則曰	-10.7897
鬱儀	-10.79
㧞度	-10.7903
不假	-10.7906
修仙	-10.7906
者多	-10.7909
冠帶	-10.7909
滅度	-10.791
明珠	-10.791
神凝	-10.792
含眞	-10.7921
羅浮	-10.7923
梵天	-10.7926
已成	-10.7927
周迴	-10.7928
百二十	-10.7929
時年	-10.7929
無疆	-10.7933
二千	-10.7935
身有	-10.7935
六通	-10.7935
今當	-10.7937
相剋	-10.7941
千眞	-10.7945
旣濟	-10.7946
莽	-10.7955
夢見	-10.7955
間隔	-10.7957
教主	-10.7962
斷除	-10.7963
日出	-10.7965
梵氣	-10.7966
上白天尊	-10.7968
蕩除	-10.7971
眞眞	-10.7971
常樂	-10.7975
敢問	-10.7979
無由	-10.798
見聞	-10.7983
還返	-10.7986
坤之	-10.799
黃庭	-10.7997
三十年	-10.7997
祖宗	-10.7999
出没	-10.8001
靈通	-10.8004
無聲	-10.8004
口鼻	-10.8007
神識	-10.8011
兩腎	-10.8014
仙伯	-10.8014
七眞	-10.8015
祖考	-10.8016
炁炁	-10.8018
也或	-10.8019
聖君	-10.802
成真	-10.8021
山有	-10.8029
得爲	-10.8034
之職	-10.8036
一般	-10.8036
萬徧	-10.8039
三峰	-10.8045
不忍	-10.805
吉祥檀熾鈞	-10.8051
同類	-10.8053
行此	-10.8054
聽之	-10.8055
解化	-10.8056
榖	-10.8057
天威	-10.8062
見有	-10.8063
婢	-10.8065
始也	-10.8066
皆自	-10.8066
成文	-10.8066
永斷	-10.8066
九九	-10.8067
道無	-10.8068
蕃	-10.8068
心印	-10.8068
事也	-10.8068
玉樓	-10.8068
眸	-10.8068
版	-10.807
唇	-10.8073
王相	-10.8074
澆	-10.8074
谿	-10.8074
飢渴	-10.8075
漁	-10.8075
也黄帝曰	-10.8075
隋	-10.8076
蟄	-10.8077
沒	-10.8078
屯蒙	-10.8078
冉冉	-10.8079
螣蛇	-10.8079
巒	-10.8079
偽	-10.808
紏	-10.808
笙	-10.8081
檀	-10.8081
邃	-10.8081
娶	-10.8081
六腑	-10.8082
廵	-10.8083
辟穀	-10.8083
暨	-10.8083
刋	-10.8084
空寂	-10.8084
曳	-10.8085
抜	-10.8085
禽獸	-10.8086
稽首歸依虔誠讃詠	-10.8087
伏魔	-10.8087
靑	-10.8087
交感	-10.8088
地之	-10.8092
如是等	-10.8095
是日	-10.8098
於我	-10.8099
無名子曰	-10.8101
周遊	-10.8106
嵩山	-10.8107
白石	-10.8108
大力	-10.8108
宣揚	-10.811
江海	-10.8112
上元夫人	-10.8115
金丹大藥	-10.8119
之君	-10.8121
色如	-10.8122
大魔王	-10.8122
無物	-10.8123
之質	-10.8124
九道	-10.8126
歩虚	-10.8129
終身	-10.813
起居	-10.8135
光玄	-10.8135
不染	-10.8135
十人	-10.8138
之學	-10.8139
或問曰	-10.8139
登天	-10.814
升天	-10.8143
玄通	-10.8144
靈芝	-10.8146
應物	-10.8147
靜定	-10.8148
時加	-10.815
臨軒	-10.8154
爲衆生	-10.8157
精䰟	-10.8162
此書	-10.8162
前生	-10.8162
而用之	-10.8171
掌握	-10.8172
䰟神	-10.8174
流演	-10.8175
元老	-10.8176
不達	-10.8176
下入	-10.818
長乆	-10.8181
朗徹	-10.8184
隨縁	-10.8185
隱書	-10.8187
先師	-10.8194
不妄	-10.8194
亢	-10.8194
之運	-10.8205
所傳	-10.8206
真一	-10.8209
景雲	-10.821
度魂	-10.8214
召符	-10.8214
赦罪	-10.8215
眞人童子	-10.8223
隻	-10.8224
兵馬	-10.8225
之候	-10.8227
跛	-10.823
最靈	-10.8232
玉明	-10.8233
三師	-10.8235
火火	-10.8236
受經	-10.8236
社令	-10.8237
精光	-10.8238
知有	-10.8243
山河	-10.8245
符召	-10.8246
默默	-10.8246
神力	-10.8247
皇上	-10.8249
之化	-10.8249
衆仙	-10.825
所臨	-10.825
去矣	-10.8259
告盟	-10.8259
纂	-10.8266
亦同	-10.8267
山澤	-10.8267
日新	-10.827
元眞	-10.8271
之屬	-10.8273
態	-10.8274
涸	-10.8277
庇	-10.8277
无名	-10.8279
菜	-10.8279
蛻	-10.828
涕	-10.8281
鳩	-10.8282
迥	-10.8282
黄帝陰符經	-10.8282
奴婢	-10.8282
金碧	-10.8282
筠	-10.8283
潘	-10.8283
掾	-10.8283
轂	-10.8284
蠶	-10.8285
攪	-10.8285
凋	-10.8285
突	-10.8286
秋冬	-10.8286
道則	-10.8286
囑	-10.8287
鹹	-10.8287
而反	-10.8288
山海	-10.8288
牌	-10.8288
内景	-10.8288
土釜	-10.8289
故不	-10.8289
擕	-10.829
無鞅	-10.829
蔵	-10.829
開天	-10.8291
懐	-10.8291
鍾曰	-10.8292
太上大道君	-10.8292
桐	-10.8292
符籙	-10.8294
熊	-10.8294
眞聖	-10.8296
幽明	-10.8296
以度	-10.8298
頓首	-10.8299
令其	-10.8304
覺悟	-10.8306
輕清	-10.8306
少君	-10.8307
會合	-10.8307
其㫖	-10.8307
真靈	-10.8308
山谷	-10.8309
易之	-10.831
立於	-10.831
同歸	-10.8311
方丈	-10.8311
總領	-10.8313
辟邪	-10.8323
金火	-10.8329
齋醮	-10.8329
不有	-10.833
害人	-10.8331
法以	-10.8333
靈篇	-10.8333
執節	-10.8334
髙尊	-10.834
洞煥	-10.8344
告命	-10.8354
於斯	-10.836
度數	-10.8361
其母	-10.8363
飛走	-10.8366
無言	-10.8367
爲國	-10.8368
壬辰	-10.837
宫觀	-10.8371
無他	-10.8375
元景	-10.8376
一分	-10.8377
言人	-10.8379
之車	-10.838
玉隆	-10.8381
相與	-10.8382
虎嘯	-10.8382
散花	-10.8386
蟠	-10.8388
聖號	-10.8389
何如	-10.8389
在中	-10.8391
太真	-10.8394
之甚	-10.8397
妨	-10.8404
各以	-10.8405
賢者	-10.8406
皆在	-10.841
不待	-10.841
合眞	-10.841
取之	-10.8414
玄丹	-10.842
十六字	-10.842
宫主	-10.8421
二十一	-10.8423
因以	-10.8425
天然	-10.8426
道心	-10.8435
請問	-10.8437
三山	-10.8439
刻書	-10.8442
血食	-10.8443
太極眞人	-10.8443
交泰	-10.8446
城中	-10.8448
於上	-10.845
雲營	-10.845
九品	-10.8452
居於	-10.8453
之禮	-10.8455
昇降	-10.8465
說經十遍	-10.8466
躔	-10.8469
王亦保舉爾身得道者乃當洞明至言也	-10.847
之神也	-10.8471
法王	-10.8472
人不能	-10.8472
其子	-10.8473
拜章	-10.8474
績	-10.848
之民	-10.8481
是矣	-10.8482
合神	-10.8486
永不	-10.8486
爪	-10.8487
黜	-10.8487
剌	-10.8488
鬢	-10.8488
茲	-10.8489
霽	-10.849
鳳凰	-10.849
玄奥	-10.849
属	-10.849
不經	-10.849
確	-10.849
鬥	-10.849
天后	-10.8491
藻	-10.8491
葩	-10.8491
徇	-10.8491
璇	-10.8492
塘	-10.8492
熒	-10.8492
防危	-10.8494
腐	-10.8494
驟	-10.8494
四十年	-10.8495
丁亥	-10.8496
硯	-10.8496
符吏	-10.8497
寳符	-10.8498
玄科	-10.85
誑	-10.8501
無任懇倒之至謹詞	-10.8502
即時	-10.8503
勲	-10.8506
録籍	-10.8507
中一	-10.8509
吾之	-10.8512
以定	-10.8513
音吉祥檀熾鈞	-10.8513
詩彖	-10.8514
有志	-10.8518
傳於	-10.8519
靈天帝	-10.8519
更相	-10.8523
猶未	-10.8524
不可測	-10.8525
體道	-10.8525
後來	-10.8526
所載	-10.8526
變仙	-10.8527
宫闕	-10.8528
無令	-10.8531
昇遷	-10.8533
飛度	-10.8534
時刻	-10.8534
所出	-10.8536
周旋	-10.8541
於前	-10.8541
崑崙山	-10.8542
世法	-10.8542
追攝	-10.8545
大抵	-10.8549
一朝	-10.855
風月	-10.8554
各自	-10.8555
之誠	-10.8557
仙也	-10.8571
在我	-10.8575
曰天	-10.8576
而言之	-10.8578
受事	-10.8579
除邪	-10.8579
如雲	-10.858
靈眞	-10.8582
榮華	-10.8582
玉陽	-10.8592
神遊	-10.8594
多有	-10.8597
難言	-10.8603
紫極	-10.8606
知者	-10.8607
師友	-10.8608
如來	-10.8608
難得	-10.861
萬縁	-10.8612
注生	-10.8612
妙哉	-10.8613
含光	-10.8619
而知	-10.8619
莊子	-10.8632
三萬	-10.8635
之所以	-10.8642
開光	-10.8647
從之	-10.8648
合同	-10.8652
是人	-10.8652
國人	-10.8658
于時	-10.8658
飛霞	-10.8659
以是	-10.8659
我說	-10.866
會於	-10.8671
七遍	-10.8672
者如	-10.8672
中主	-10.8675
之月	-10.8681
之樂	-10.8686
署	-10.8687
黄白	-10.8688
珮	-10.8688
餓	-10.8692
後聖	-10.8692
禾	-10.8692
分度	-10.8694
江河	-10.8695
妹	-10.8696
迭	-10.8696
年正月	-10.8696
覬	-10.8698
荐	-10.8698
墉	-10.87
仙名	-10.87
七歲	-10.87
斛	-10.87
嚮	-10.8701
飮	-10.8701
随	-10.8701
仙曹	-10.8701
馨	-10.8701
巿	-10.8701
欲以	-10.8702
鎔	-10.8703
欲令	-10.8703
烈火	-10.8703
咀	-10.8703
羡	-10.8704
眞妙	-10.8705
空無	-10.8706
柴	-10.8707
驪	-10.8707
侮	-10.8707
無所不辟無所不禳無所不度無所不成	-10.8709
謹爲上請	-10.8709
丹華	-10.8709
栗	-10.871
錬度	-10.8711
白鹿	-10.8711
恠	-10.8712
中秋	-10.8712
直事	-10.8714
否泰	-10.8716
山福地仙官聖衆	-10.8716
帝曰	-10.8716
豫章	-10.8717
超脱	-10.8718
修眞之士	-10.8718
統領	-10.872
說經八遍	-10.872
卷之四	-10.8721
同志	-10.8726
住世	-10.8726
大仙	-10.8727
以下	-10.8731
解厄	-10.8732
是此	-10.8732
仁義	-10.8733
貪愛	-10.8735
玄風	-10.8736
群品	-10.8737
統攝	-10.8741
得生	-10.8742
二象	-10.8743
徒勞	-10.8744
敷落	-10.8746
累劫	-10.8749
之盛	-10.8752
無定	-10.8753
變通	-10.8758
興隆	-10.8758
得成	-10.8759
侍女	-10.8759
住持	-10.8766
元宫	-10.8766
重玄	-10.877
山遇	-10.8771
取捨	-10.8773
苦趣	-10.8773
西靈	-10.8774
洞天仙官	-10.8777
見性	-10.878
如一	-10.8782
無益	-10.8783
焚符	-10.8785
歸眞	-10.8788
龍蛇	-10.8791
又復	-10.8794
形骸	-10.8794
一遍	-10.8795
邪見	-10.8795
與道同	-10.8796
手把	-10.8799
勤苦	-10.88
一方	-10.8801
于此	-10.8805
立至	-10.8805
師道	-10.8809
能行	-10.8813
也於是	-10.8813
衆靈	-10.8817
呼爲	-10.8818
蓋以	-10.8823
頂上	-10.8825
何物	-10.8825
或作	-10.8826
而无	-10.8827
洞達	-10.8828
隨吾	-10.883
惡鬼	-10.8833
高宗	-10.8833
戒之	-10.8837
百千	-10.8842
下生	-10.8856
下土	-10.8862
玄文	-10.8863
此即	-10.8863
邪炁	-10.8867
一處	-10.8868
也是以	-10.8869
開元	-10.8869
混化	-10.887
姓某	-10.8873
一陽生	-10.8874
以傳	-10.8874
說經九遍	-10.8876
水神	-10.8876
外物	-10.888
無數	-10.888
神童	-10.889
九拜	-10.8897
道不	-10.8899
一丈	-10.8901
无英	-10.8905
入地	-10.8905
脊	-10.8912
謚	-10.8914
膜	-10.8914
欠	-10.8916
嗜慾	-10.8917
瑕	-10.8917
皆悉	-10.8917
笛	-10.8918
流金火鈴	-10.8918
雲氣	-10.8918
方平	-10.8919
闌	-10.8921
棋	-10.8921
葷	-10.8922
濡	-10.8924
光芒	-10.8925
汁	-10.8925
熖	-10.8926
某甲	-10.8926
滄	-10.8926
挈	-10.8928
玉珮	-10.8929
木爲	-10.8929
烹煎	-10.8929
玃	-10.8929
鄕	-10.893
澹	-10.893
三十二天三十二帝諸天隱諱諸天隱名	-10.8932
血脉	-10.8933
虎狼	-10.8935
人我	-10.8935
腎水	-10.8936
卷之二	-10.8936
解悟	-10.8937
靈寳大法	-10.8937
皇人曰	-10.8939
虎龍	-10.8939
其年	-10.8943
疫癘	-10.8944
百脉	-10.8945
之印	-10.8945
乾卦	-10.8953
包羅	-10.8955
無鞅數衆	-10.8961
傍門	-10.8962
森羅	-10.8962
奉命	-10.8964
海水	-10.8965
海嶽	-10.8966
爲吾	-10.8968
白金	-10.8969
鼎内	-10.897
隂陽之	-10.8971
靈壇	-10.8972
萬眞	-10.8976
云此	-10.8977
髙仙	-10.898
頓悟	-10.898
中指中	-10.8981
者乎	-10.8984
咸得	-10.8985
但能	-10.8986
不傾	-10.8988
於是天尊	-10.899
請命	-10.8995
滿室	-10.8995
正坐	-10.9
間有	-10.9
如故	-10.9003
超生	-10.9007
所主	-10.9009
欲知	-10.9012
之奥	-10.9014
身輕	-10.9016
一兩	-10.9017
元始以	-10.902
二十六	-10.9029
忻	-10.903
爲丹	-10.9034
無虧	-10.9035
隨機	-10.9038
天地人	-10.9042
容易	-10.9042
女也	-10.9042
真元	-10.9042
者即是	-10.9046
消散	-10.9046
使其	-10.9054
何由	-10.9055
福報	-10.9055
令得	-10.9056
九百	-10.9057
道之人	-10.9058
玉篇	-10.9059
無任	-10.906
者天地	-10.9061
道氣	-10.9061
賢人	-10.9063
得眞	-10.9067
白馬	-10.9067
自家	-10.9067
而傳	-10.907
會得	-10.9072
至公	-10.9072
大象	-10.9076
音聲	-10.9076
二神	-10.9076
乃命	-10.9079
有六	-10.9083
日行	-10.9083
帝王子	-10.9085
所能	-10.9086
召見	-10.9091
肖	-10.9092
復來	-10.9092
同一	-10.9092
錦衣	-10.9095
靈威	-10.9095
超然	-10.9096
太常	-10.9098
今古	-10.9099
是何	-10.9105
之界	-10.9106
說經七遍	-10.9114
帝前	-10.9114
騰空	-10.9114
也後	-10.9116
人主	-10.912
桐栢	-10.9123
閬	-10.9125
中有一	-10.9129
可爲	-10.913
諷	-10.9131
釘	-10.9134
艱	-10.9135
崆峒	-10.9135
姜	-10.9135
渥	-10.9135
辜	-10.9137
籥	-10.9137
縫	-10.9138
悃	-10.9139
滑	-10.914
二十四人	-10.9141
非也	-10.9141
無憂	-10.9141
若復有人	-10.9141
樊	-10.9142
貸	-10.9142
盡矣	-10.9143
迨	-10.9143
魔王保舉	-10.9144
盃	-10.9144
袋	-10.9144
玄都四極明科曰	-10.9145
擢	-10.9145
三部八景	-10.9145
甦	-10.9147
語言	-10.9148
甕	-10.9148
摘	-10.9149
淘	-10.9149
掘	-10.9149
鈍	-10.9149
叫	-10.9149
銅柱	-10.9149
飡	-10.9149
丁丑	-10.915
說經十徧	-10.915
指揮	-10.9151
坤宫	-10.9152
仙骨	-10.9153
嫉妬	-10.9154
大驚	-10.9155
嘿	-10.9156
眞誥云	-10.9158
禹餘	-10.9161
雲雨	-10.9162
物我	-10.9162
步虚	-10.9162
絳闕	-10.9162
法音	-10.9165
北斗七星	-10.9166
眞一之精	-10.9172
左目	-10.9172
白衣	-10.9173
細微	-10.918
保度	-10.9181
各隨	-10.9181
謹請	-10.9181
年上神	-10.9182
無上道	-10.9184
入妙	-10.9184
所授	-10.9184
慎勿	-10.9185
眞一之炁	-10.9186
開張	-10.9186
衝天	-10.9186
之科	-10.9186
驅邪	-10.9194
入泥丸	-10.9194
三十五	-10.9198
來者	-10.9202
火池	-10.9203
教法	-10.9203
龍山	-10.9207
復見	-10.9212
紫文	-10.9212
可與	-10.9213
换骨	-10.9215
三道	-10.9216
不可見	-10.9219
千古	-10.9222
萬世	-10.9222
下至	-10.923
年命	-10.9235
一周天	-10.9237
居此	-10.9242
蒼龍	-10.9242
虚靈	-10.9249
是夕	-10.9252
流霞	-10.9253
普度天人	-10.9253
常道	-10.9254
氣候	-10.9258
龍文	-10.926
鍊炁	-10.9262
長久	-10.9262
龜山	-10.9263
惟有	-10.9264
之館	-10.9265
真形	-10.9269
護命	-10.9273
慕道	-10.9278
道中	-10.9278
靈寳天尊	-10.928
三災	-10.9281
天醫	-10.9283
人或	-10.9286
孰爲	-10.9286
愚者	-10.9287
心生	-10.9288
此等	-10.9288
常居	-10.9293
爲樂	-10.9294
示人	-10.9296
天尊說	-10.9299
少隂	-10.9302
髙下	-10.9303
火府	-10.9305
始皇	-10.9308
之辭	-10.9309
常有	-10.931
了了	-10.9311
遍滿	-10.9312
無限	-10.9314
相承	-10.9318
帝皇	-10.9319
冕	-10.932
九鼎	-10.9321
天之道	-10.9325
即見	-10.933
髙真	-10.9332
成矣	-10.9334
大君	-10.9334
皆成	-10.9336
陽九	-10.934
金蓮	-10.9345
神全	-10.9349
百億	-10.935
三界之上	-10.9351
遠遊	-10.9354
時爲	-10.9355
腑	-10.9358
長者	-10.9358
叶	-10.9359
列仙	-10.936
薩	-10.9361
隊	-10.9361
胄	-10.9362
閻	-10.9364
慘	-10.9364
襌	-10.9365
擘	-10.9366
然燈	-10.9366
急急如律令敕	-10.9366
棟	-10.9366
矢	-10.9367
身外有身	-10.9367
皆空	-10.9367
净	-10.9368
杪	-10.9368
乃知	-10.9368
紺	-10.9368
昂	-10.9369
㖟	-10.9369
作丹	-10.9369
僻	-10.9369
竪	-10.9369
越衡天	-10.9371
藝	-10.9371
租	-10.9371
譽	-10.9372
核	-10.9372
祺	-10.9372
劾	-10.9372
混洞赤文	-10.9372
憚	-10.9373
說經七徧	-10.9373
睛	-10.9374
斬馘	-10.9375
効	-10.9375
脇	-10.9375
逰	-10.9376
伎	-10.9376
玄牝之門	-10.9376
噉	-10.9376
蔕	-10.9377
品道言昔於	-10.9378
而說偈曰	-10.9379
障礙	-10.9381
不雜	-10.9381
全身	-10.9382
滋味	-10.9385
貧賤	-10.9387
昭然	-10.9388
者死	-10.939
上言	-10.939
蛟龍	-10.9396
之場	-10.9397
清浄	-10.9399
飛入	-10.9402
永嘉	-10.9405
精氣神	-10.9405
道徳	-10.9406
在其中矣	-10.9408
稱揚	-10.9408
三島	-10.9408
寳華	-10.9409
無文不	-10.9409
殺伐	-10.9411
青靈	-10.9415
青牛	-10.942
展轉	-10.9421
牧童	-10.9421
老父	-10.9421
前有	-10.9423
罪人	-10.9424
護身	-10.9426
大腸	-10.9429
三度	-10.943
所奏	-10.9432
神真	-10.9433
紫陽曰	-10.9433
朗朗	-10.9438
諸子	-10.944
守護	-10.9441
布炁	-10.9442
修證	-10.9444
若无	-10.9444
靈府	-10.9452
道境	-10.9453
有神	-10.9453
未及	-10.9459
火星	-10.9461
十方三界	-10.9462
之用也	-10.9465
殺生	-10.9467
玉霄	-10.9474
元符	-10.9475
不衰	-10.9477
處處	-10.9478
祖先	-10.9478
堂堂	-10.9479
當先	-10.9479
智藏	-10.9482
戟	-10.9484
其象	-10.9489
分身	-10.9492
无上道	-10.9492
六炁	-10.9493
年八十	-10.9494
萬億	-10.9498
元素	-10.9499
也聖人	-10.95
心意	-10.9503
便宜	-10.9503
思之	-10.9503
光中	-10.9504
下爲	-10.9506
州人	-10.9508
炁也	-10.9508
地戸	-10.951
玉都	-10.9519
或在	-10.9523
司空	-10.9524
千人	-10.9525
回光	-10.9531
無傾	-10.9531
其位	-10.9533
則一	-10.9533
得以	-10.9536
位居	-10.9539
不難	-10.9543
大事	-10.9548
爲眞人	-10.9549
不知何	-10.9557
汝當	-10.9559
大過	-10.9561
碧落空歌	-10.9562
神威	-10.9564
萬方	-10.9565
降福	-10.9566
玄精	-10.9566
混然	-10.9571
臣今	-10.9571
可乎	-10.9572
詮	-10.9574
三色	-10.9574
法主	-10.9574
合明	-10.9578
故號	-10.9578
最爲	-10.9579
天帝君	-10.9582
無英	-10.9584
上帝敕	-10.9584
亡過某	-10.9588
來降	-10.9588
霖	-10.959
丐	-10.9591
疇	-10.9591
韜	-10.9592
靈神	-10.9592
家國	-10.9593
逞	-10.9594
呬	-10.9596
篋	-10.9596
距	-10.9596
不合	-10.9598
稚	-10.9599
遜	-10.9599
養命	-10.9599
人莫	-10.9599
敬之	-10.96
照徹	-10.96
隙	-10.9601
衘	-10.9601
盆	-10.9601
麽	-10.9602
列聖	-10.9602
說經八徧	-10.9604
戚	-10.9604
純粹	-10.9604
窒	-10.9604
佞	-10.9604
饌	-10.9604
蓊	-10.9605
登山	-10.9605
方圓	-10.9606
瘦	-10.9607
說經四徧	-10.9607
鑰	-10.9607
石壁	-10.9608
匹配	-10.9608
悠悠	-10.9609
蓄	-10.9609
端的	-10.961
倏忽	-10.9611
猜	-10.9612
爓	-10.9612
煅鍊	-10.9614
絶粒	-10.9615
湛寂	-10.9615
塵寰	-10.9615
身外	-10.9615
龍鳳	-10.9616
陽子	-10.962
嘆曰	-10.9621
不改	-10.9621
含生	-10.9622
儼然	-10.9623
無漏	-10.9625
樓臺	-10.9626
雲飛	-10.9626
刀兵	-10.9628
故稱	-10.9631
大梵之炁	-10.9631
細塵	-10.9632
吾將	-10.9633
瘟疫	-10.9633
氏之	-10.9634
善哉善哉	-10.9637
榮衛	-10.9638
五六	-10.964
太虛	-10.9645
玉泉	-10.9645
七政	-10.9647
削落	-10.9648
之流	-10.9648
紫皇	-10.9649
之異	-10.9651
事畢	-10.9653
之冠	-10.9657
太山	-10.9657
傳度	-10.9657
寐	-10.9662
咽之	-10.9663
寳文	-10.9667
從而	-10.9668
救拔	-10.9669
爲金	-10.9671
氣足	-10.9671
洞賔	-10.9672
不調	-10.9678
則氣	-10.9679
木液	-10.968
帝主	-10.968
修養	-10.968
可得而	-10.9683
爲眞	-10.9684
胎根	-10.9684
金帛	-10.9684
終南山	-10.9685
六宫	-10.9691
澄心	-10.9691
之輿	-10.9691
上景	-10.9691
金爲	-10.9692
百魔	-10.9694
庚子	-10.9694
元綱	-10.9696
實爲	-10.9698
無始	-10.9698
誠心	-10.9708
上將	-10.9711
君主	-10.9713
闕下	-10.9714
祥光	-10.9716
矣然	-10.9718
五濁	-10.9719
龍駕	-10.9721
身是	-10.9721
說偈	-10.9721
向來	-10.9722
黑鉛	-10.9723
道路	-10.9725
識之	-10.9725
呼之	-10.9726
中人	-10.973
見此	-10.9731
志士	-10.9732
保胎	-10.9736
衆真	-10.9737
昭昭	-10.9738
非凡	-10.9741
五金	-10.9741
風澤	-10.9745
一法	-10.9746
此物	-10.9748
也既	-10.9749
蒼生	-10.975
百千萬	-10.975
根基	-10.9753
今號	-10.9757
威德	-10.9759
白簡	-10.976
之根本	-10.9765
所不能	-10.9767
大壯	-10.9768
正教	-10.9769
曰可	-10.977
髙清	-10.977
爲君	-10.9771
受報	-10.9772
問之	-10.9776
也又曰	-10.9777
養素	-10.978
豈得	-10.9783
經文	-10.9785
身生	-10.9788
虚寂	-10.9789
結胎	-10.9793
自然之理	-10.9793
分布	-10.9799
四十八	-10.98
璽	-10.9801
殺機	-10.9801
不貪	-10.9804
定光	-10.9804
平日	-10.9804
宫名	-10.9808
法性	-10.9809
形狀	-10.9811
强名	-10.9812
或生	-10.9816
達者	-10.9819
名言	-10.982
九泉	-10.982
翅	-10.9826
受錬	-10.9826
誰知	-10.9827
紙上	-10.9828
聞是	-10.9829
持符	-10.983
某誠感誠慶頓首頓首再拜謹言	-10.983
溝	-10.983
了無	-10.9831
倪	-10.9831
遨	-10.9832
水爲	-10.9833
掖	-10.9833
蜜	-10.9834
浦	-10.9835
葫蘆	-10.9837
鄒	-10.9839
纎	-10.9839
撞	-10.9839
詭	-10.984
无量无邊	-10.984
箋	-10.984
年月	-10.984
降于	-10.984
祭祀	-10.9841
殖	-10.9842
擅	-10.9843
災厄	-10.9844
塵埃	-10.9845
屠割	-10.9845
倣	-10.9845
晦朔	-10.9846
鈆	-10.9846
長生乆視	-10.9846
岑	-10.9846
赤書玉字	-10.9847
八威龍文	-10.9847
說經五遍	-10.9847
睿	-10.9847
蹄	-10.9847
神水華池	-10.9847
七十二候	-10.9847
說經六遍	-10.9848
槐	-10.9848
不分	-10.9849
未甞	-10.985
說經三遍	-10.985
說經四遍	-10.985
說經二遍	-10.985
扄	-10.9851
土受元始度人	-10.9851
飛空之音	-10.9851
東方青	-10.9852
枷	-10.9853
玉匱	-10.9854
沼	-10.9854
三十九章	-10.9855
無功	-10.9857
玄景	-10.9858
混一	-10.9858
陽宫	-10.986
眉間	-10.9861
玉英	-10.9862
不顯	-10.9862
道俗	-10.9863
斡運	-10.9864
灌注	-10.9864
二十二	-10.9866
五彩	-10.9866
並是	-10.9868
彌羅	-10.9868
不犯	-10.987
丁卯	-10.9872
斬滅	-10.9873
因此	-10.9874
無二	-10.9875
白書	-10.9876
總監	-10.9876
至德	-10.9879
玉籙	-10.9879
靈源	-10.988
動植	-10.9881
高祖	-10.9882
見者	-10.9885
在人爲	-10.9887
二尺	-10.9889
幽隂	-10.989
含靈	-10.989
積善	-10.989
上文	-10.9892
受法	-10.9894
龍章	-10.9895
三晨	-10.9898
者此也	-10.9898
超升	-10.99
三尊	-10.9901
無疾	-10.9902
小有	-10.9903
丁未	-10.9904
洞宫	-10.9906
光彩	-10.9906
落落	-10.9909
召之	-10.991
卦象	-10.9916
山上	-10.9917
功名	-10.992
永劫	-10.9922
亦爲	-10.9925
齊到	-10.9927
子細	-10.9929
老君曰	-10.9932
右二	-10.9934
有五色	-10.9936
度師	-10.9936
上達	-10.994
天界	-10.9942
之報	-10.9944
三百日	-10.9948
十分	-10.9948
不遠	-10.995
爲首	-10.9959
初出	-10.9961
無欲	-10.9962
八㑹	-10.9964
不空	-10.9967
金錢	-10.9968
宫也	-10.9969
丈餘	-10.9971
凡欲	-10.9973
大齋	-10.9977
木之	-10.998
度仙	-10.9981
朝拜	-10.9983
惡人	-10.9985
不敬	-10.9987
未濟	-10.9989
色塵	-10.999
所以爲	-10.999
山名	-10.999
御前	-10.999
則生	-10.9994
鸞鶴	-10.9997
之始也	-11.0011
陰生	-11.0012
亡者	-11.0015
心存	-11.0017
日月星	-11.0019
當令	-11.0022
來歸	-11.0025
從容	-11.0026
厄難	-11.0026
須知	-11.003
並皆	-11.0032
諸天人	-11.0033
特賜	-11.0036
災殃	-11.0038
以今	-11.0039
先生姓	-11.004
尊重	-11.004
嵩	-11.0041
華房	-11.0043
不捨	-11.0046
殺鬼	-11.0047
鬼門	-11.0048
曹仙官太玄女青下元	-11.0049
者哉	-11.0053
靈藥	-11.0054
法服	-11.0055
鉛中	-11.0055
太古	-11.0059
解結	-11.0059
黄精	-11.0064
雲霧	-11.0064
陂	-11.0065
天恩	-11.0067
二道	-11.0067
豹	-11.0069
應運	-11.007
穩	-11.007
而升	-11.0073
𩀱	-11.0073
筌蹄	-11.0074
拾	-11.0075
我道	-11.0076
矧	-11.0076
袂	-11.0077
社稷	-11.0077
肘	-11.0078
鉤	-11.0078
杏	-11.0078
彖	-11.0079
天一生水	-11.0079
疾疫	-11.008
掐	-11.008
這箇	-11.0082
北元	-11.0083
神寳	-11.0083
挽	-11.0083
至心皈命禮	-11.0084
璘	-11.0084
丙午	-11.0085
須㬰	-11.0085
百邪	-11.0086
壅	-11.0086
覃	-11.0086
蝶	-11.0087
自言	-11.0088
𠔃	-11.0088
嘻	-11.0088
暁	-11.0088
說經五徧	-11.0088
炙	-11.0089
念道	-11.0089
輸	-11.0089
恰	-11.0089
說經三徧	-11.009
囿	-11.009
北都羅酆	-11.009
誰能	-11.009
金仙	-11.009
䖍	-11.0092
漢武帝	-11.0093
忍辱	-11.0093
瘵	-11.0093
鬱勃	-11.0093
彌綸	-11.0093
月爲	-11.0094
金璫	-11.0094
輙	-11.0094
必以	-11.0094
皇甫	-11.0095
懈怠	-11.0095
摹	-11.0096
葛洪	-11.0097
檢校	-11.0097
己之	-11.0098
無明	-11.01
小劫	-11.01
出乎	-11.0101
以俟	-11.0103
京兆	-11.0106
肘後	-11.0106
瞻仰	-11.0107
歷代	-11.0108
一枚	-11.0108
寳臺	-11.0109
亦如之	-11.0109
決定	-11.011
爲善	-11.0111
安穩	-11.0111
一神	-11.0112
血湖	-11.0113
金闕帝君	-11.0114
海上	-11.0115
應變	-11.0117
頑空	-11.0119
之房	-11.012
升度	-11.012
國祚	-11.0121
斬絶	-11.013
至士	-11.013
而還	-11.0133
無極無量品	-11.0136
具載	-11.0144
方隅	-11.0144
二十三日	-11.0146
總眞	-11.0151
升遷	-11.0152
之寳	-11.0157
論之	-11.0157
不知何許人也	-11.0158
訣云	-11.0159
金房	-11.0164
甲戌	-11.0166
鍊就	-11.0167
陽極	-11.0168
大旱	-11.017
所用	-11.0173
我有	-11.0176
之福	-11.0177
陰陽升降	-11.0178
三惡	-11.0181
天尊志心朝禮妙	-11.0182
以陽	-11.0183
今生	-11.0184
之南	-11.0185
靈丹	-11.0186
讃曰	-11.0187
謹言	-11.0188
成金	-11.0188
風伯	-11.019
王侯	-11.0194
普化	-11.0199
正位	-11.0201
黄寧	-11.0202
臨目	-11.0205
眞思	-11.0206
一歲	-11.0206
中藏	-11.0211
臣聞	-11.0216
雲宫	-11.022
前驅	-11.0222
追度	-11.0231
化育	-11.0232
虚无自然	-11.0234
陽爻	-11.0234
之稱	-11.0235
空虚	-11.0237
籟	-11.0237
侍從	-11.0239
月朔	-11.0242
從事	-11.0244
行藏	-11.0245
未明	-11.0248
紫蓋	-11.0248
吕公	-11.0249
四正	-11.0249
九五	-11.025
從心	-11.0251
過此	-11.0253
土皇	-11.0255
來朝	-11.0256
七覺	-11.0262
爰有	-11.0269
取炁	-11.0273
中庸	-11.0273
幽寥	-11.0273
門弟子	-11.0277
宫有	-11.028
不侵	-11.0283
要識	-11.0283
清微天	-11.0283
依時	-11.0286
散則	-11.0286
一室	-11.0288
骨髓	-11.029
之愆	-11.029
大赤	-11.0292
三界十方	-11.0294
以表	-11.0298
宗祖	-11.0299
死户	-11.0302
不得已	-11.0303
令行	-11.0306
財寳	-11.0308
如何是	-11.0313
掣電	-11.0313
利物	-11.0314
神機	-11.0315
同學	-11.0315
受道	-11.0315
之獄	-11.0315
神妙	-11.0322
冩	-11.0324
立教	-11.0325
賫	-11.0326
二弟	-11.0329
謨	-11.0329
喝	-11.033
鵠	-11.0331
苔	-11.0331
苴	-11.0331
綿綿若存	-11.0331
宦	-11.0332
蹊	-11.0332
於市	-11.0332
茹	-11.0333
燼	-11.0333
眞源	-11.0333
西江月	-11.0334
拍	-11.0334
無際	-11.0335
繇	-11.0335
臼	-11.0335
簪	-11.0336
屈伸	-11.0336
死籍	-11.0336
五臟六腑	-11.0336
燎	-11.0336
毓	-11.0337
栽	-11.0337
侈	-11.0337
鬭	-11.0338
也所以	-11.0338
爲二	-11.0339
皆受護度咸得長生道言是時	-11.0339
史崇	-11.0339
夬	-11.034
慈光	-11.034
邅	-11.034
斡旋	-11.0341
五天	-11.0341
盂	-11.0341
朵	-11.0342
塡	-11.0342
三過	-11.0342
化機	-11.0343
結而成	-11.0344
地上外音	-11.0344
虚白	-11.0344
面東	-11.0344
無端	-11.0344
痾	-11.0344
擺	-11.0346
仙童玉女	-11.0347
開皇	-11.0348
備矣	-11.0348
萬彚	-11.0348
祝融	-11.0348
妖氛	-11.0349
元一	-11.035
輔翼	-11.0351
湧泉	-11.0352
紫元	-11.0354
東方九炁	-11.0356
養育	-11.0357
三十五分	-11.0359
者此	-11.0359
七千	-11.036
唯願天尊	-11.0361
天闕	-11.0362
分別	-11.0364
相推	-11.0364
瓊輪	-11.0365
不孝	-11.0365
神魂	-11.0365
首尾	-11.0368
四瀆	-11.0369
浩然	-11.0371
眞一之氣	-11.0372
乃爲	-11.0372
此經微妙普度無窮一切天人莫不受慶	-11.0373
一大	-11.0379
開導	-11.0379
秘訣	-11.0382
七過	-11.0382
天性	-11.0383
破獄	-11.0385
九曲	-11.0386
學道之人	-11.0387
今有	-11.0388
十二河源	-11.0389
沖虚	-11.0389
往還	-11.039
識其	-11.0391
霍山	-11.0391
不違	-11.0392
一百八十	-11.0397
形影	-11.0398
制之	-11.0399
玄圃	-11.0402
差殊	-11.0403
也假令	-11.0403
願聞	-11.0404
何況	-11.0405
君名	-11.0407
九老	-11.0408
恭惟	-11.0409
勉之	-11.041
爐中	-11.0411
仰視	-11.0412
華陰	-11.0415
道教	-11.0416
幽玄	-11.0417
妙義	-11.0421
紫書	-11.0422
金壇	-11.0425
如嬰兒	-11.0427
學之士	-11.0429
玉芝	-11.043
不存	-11.0431
人無	-11.0432
一周	-11.0437
天上天下	-11.0439
讀書	-11.0444
洞門	-11.0448
大帥	-11.0452
王公	-11.0455
任意	-11.0456
莫知所	-11.0463
黄老君	-11.0465
西城	-11.0468
龍蟠	-11.0469
以兩手	-11.047
一千二百	-11.0471
猛火	-11.0471
也惟	-11.0473
子文	-11.0474
十八年	-11.048
善種	-11.0481
聖位	-11.0482
濟人	-11.0485
以心爲	-11.0487
十四年	-11.0489
郡人	-11.0489
正念	-11.0489
神仙之道	-11.0492
而未	-11.0497
直上	-11.0497
國家	-11.0498
卦爻	-11.0501
玄經	-11.0504
先亡	-11.0505
元來	-11.0507
金星	-11.051
神清	-11.0517
帝眞	-11.0518
不聽	-11.0518
帝真	-11.0519
悉得	-11.0521
五色雲	-11.0521
不可不	-11.0525
德之	-11.0525
四直	-11.0526
右有	-11.0528
不失其	-11.0528
字道	-11.0533
青雲	-11.0534
黑雲	-11.0535
上卷	-11.0535
圖書	-11.0538
即便	-11.054
坐忘	-11.0541
靈都	-11.0548
三寶	-11.0548
有病	-11.0549
惟願	-11.055
咸使	-11.055
存身	-11.0551
南丹	-11.0553
長生之道	-11.0556
月日	-11.0557
金寳	-11.0559
水帝	-11.056
返還	-11.056
婦女	-11.0562
上至	-11.0563
如有	-11.0564
生金	-11.0566
天生	-11.0568
人倫	-11.057
蒂	-11.0571
正心	-11.0573
畢矣	-11.0573
不順	-11.0574
聽法	-11.0575
亦猶	-11.0576
泰定	-11.0577
涼	-11.0579
恤	-11.058
有違	-11.058
葺	-11.058
天樂	-11.058
當其	-11.0582
筮	-11.0582
智者	-11.0583
斃	-11.0583
窈	-11.0583
狄	-11.0584
巷	-11.0584
之因	-11.0585
本源	-11.0585
尖	-11.0587
毗	-11.0588
伯陽	-11.0588
堆	-11.0588
七月七日	-11.0588
形神俱妙與道合眞	-11.0589
籌	-11.0589
菩提	-11.0589
九都	-11.059
衲	-11.0591
線	-11.0591
㣲	-11.0591
妙氣	-11.0592
下卷	-11.0592
耿	-11.0592
旂	-11.0592
荀	-11.0592
迂	-11.0592
兵馬各九億萬騎太玄	-11.0593
污	-11.0593
無量度人上品妙經	-11.0593
一合	-11.0593
當此之時喜慶難言法事粗悉諸天復位	-11.0593
靈宫	-11.0594
峨	-11.0595
媚	-11.0596
瞽	-11.0596
惚	-11.0596
廣成子	-11.0596
薰蒸	-11.0597
乘之	-11.0599
岫	-11.0599
無色之境梵行東方八天	-11.06
有名	-11.0601
廊	-11.0601
半斤	-11.0602
哺	-11.0602
吟詠	-11.0603
少頃	-11.0603
玉宸道君	-11.0603
乙未	-11.0603
罵	-11.0603
髣髴	-11.0603
脾胃	-11.0604
符圖	-11.0605
未必	-11.0607
下部	-11.0607
古歌曰	-11.0607
徐徐	-11.0608
夭傷	-11.0611
七百	-11.0612
影響	-11.0613
今者	-11.0615
清凉	-11.0617
卷之五	-11.0618
未判	-11.062
民物	-11.0621
何得	-11.0624
交結	-11.0624
如上	-11.0626
豁然	-11.0628
九星	-11.0628
非我	-11.0628
幽爽	-11.0629
火令	-11.0629
烹鍊	-11.063
丁巳	-11.0632
畢竟	-11.0635
誓願	-11.0635
三十三	-11.0636
丹霄	-11.0637
物爲	-11.064
死戸	-11.064
地司	-11.0641
可致	-11.0641
北嶽	-11.0641
江南	-11.0643
此義	-11.0644
束形	-11.0645
道自	-11.0645
是眞	-11.0645
五帝大魔	-11.0647
頂中	-11.0647
釋曰	-11.0648
王氏	-11.0649
之信	-11.0652
翠虚	-11.0653
生物	-11.0653
肅清	-11.0654
性情	-11.0654
重濁	-11.0655
不由	-11.066
元始一炁	-11.066
一尺	-11.0661
自後	-11.0661
請師	-11.0663
道合	-11.0665
報對	-11.0665
丹基	-11.0666
欣然	-11.0666
其處	-11.0667
謹召	-11.0668
深重	-11.0668
仙階	-11.0677
之世	-11.0678
須要	-11.0681
有一人	-11.0683
受符	-11.0684
所向	-11.0685
道以	-11.0687
冥官	-11.0688
江湖	-11.0691
死於	-11.0692
因而	-11.0693
通微	-11.0693
救之	-11.0694
无方	-11.0694
六度	-11.0695
無色界	-11.0696
鬼精	-11.07
青紙	-11.07
如日	-11.0703
拔出	-11.0704
妙樂	-11.0706
等閑	-11.0706
火焚	-11.0706
朗然	-11.0709
便有	-11.071
萬物皆	-11.0713
官君	-11.0715
不亦	-11.0716
呪水	-11.0718
陰炁	-11.0719
道德經	-11.072
專一	-11.0722
酒色	-11.0722
七曲	-11.0726
作大	-11.0726
世傳	-11.0729
數里	-11.073
不怠	-11.0732
者不可	-11.0734
大羅天	-11.0734
右目	-11.0736
金科	-11.0739
試之	-11.074
上宰	-11.0741
右手執	-11.0742
必當	-11.0742
九變	-11.0746
雲房	-11.0746
上乘	-11.0748
氣散	-11.0749
黄雲	-11.0749
行火	-11.0751
相續	-11.0752
只要	-11.0752
入腹	-11.0753
宣告	-11.0753
仰觀	-11.0755
衆神	-11.0756
中見	-11.0756
交接	-11.0756
劫劫	-11.0758
端正	-11.0759
流入	-11.0761
千千	-11.0763
蓮華	-11.0767
聚散	-11.0771
諸司	-11.0778
精勤	-11.0779
未有不	-11.078
自然成	-11.0781
在身	-11.0781
見我	-11.0782
所聞	-11.0782
種子	-11.0786
紫衣	-11.0788
洞隂	-11.079
三傳	-11.0792
玄光	-11.0793
司録	-11.0793
不可輕	-11.0795
但以	-11.0796
九鳳	-11.0797
心目	-11.0797
帝晨	-11.0801
伏聞	-11.0803
之權	-11.0805
十歲	-11.0805
飛華	-11.0807
離爲	-11.0808
或因	-11.0808
有心	-11.0809
曰昔	-11.081
我心	-11.0811
無以	-11.0813
正經	-11.0813
其中有	-11.0816
一篇	-11.0818
八兩	-11.0821
常生	-11.0823
立成	-11.0824
小童	-11.0826
同生	-11.0836
與汝	-11.0839
聖德	-11.084
南方火	-11.084
而返	-11.0843
儼	-11.0844
届	-11.0844
而致	-11.0845
頽	-11.0845
乃成	-11.0845
燄	-11.0846
興雲	-11.0849
汎	-11.0849
綴	-11.085
齊同慈愛異骨成親國安民豐欣樂太平	-11.085
峭	-11.085
躁	-11.085
輅	-11.0851
空洞之	-11.0852
攢簇	-11.0853
燔	-11.0853
𥙷	-11.0853
粤	-11.0854
曩	-11.0854
匀	-11.0855
紫微上宫	-11.0856
韞	-11.0856
炎光	-11.0856
霓	-11.0857
呌	-11.0857
汩	-11.0857
鵲	-11.0857
譔	-11.0858
上古	-11.0858
駿	-11.0858
觀天之道執天之行盡矣	-11.0858
陶鑄	-11.0858
鐸	-11.0858
德行	-11.0858
知道	-11.0859
呂	-11.0859
失之	-11.086
自然而然	-11.0862
圍繞	-11.0863
靈仙	-11.0863
凡遇	-11.0864
繡衣	-11.0864
六字	-11.0864
不全	-11.0864
沴	-11.0865
淮南	-11.0865
畢乃口微祝曰天上内音	-11.0865
何異	-11.0865
臍下	-11.0866
左有	-11.0866
始得	-11.0867
祖禰	-11.0867
溟泠	-11.0868
莫非	-11.0869
相因	-11.0869
出門	-11.087
百餘歲	-11.0871
判官	-11.0872
藥材	-11.0872
之君中有	-11.0874
單衣	-11.0874
下功	-11.0875
五榖	-11.0878
無用	-11.0878
經營	-11.0878
黑炁	-11.0881
長生大帝	-11.0888
行至	-11.089
炎帝	-11.0891
曹仙官太玄女青中元	-11.0891
哀尊	-11.0893
塵勞	-11.0899
傳云	-11.0899
非是	-11.0899
定中	-11.09
氣生	-11.09
除殃	-11.09
山頭	-11.0901
至眞大神无鞅之衆浮空而至	-11.0902
普告三界	-11.0902
八道	-11.0904
丹竈	-11.0905
混沌之中	-11.0907
不移	-11.0909
孟子	-11.091
降鑒	-11.091
遠矣	-11.0914
其有	-11.0915
有感	-11.0917
大慈悲	-11.0917
降下	-11.0919
偃月	-11.092
滅盡	-11.092
祕於	-11.0923
同於	-11.0926
對齋	-11.0927
於南	-11.0927
愼勿	-11.0929
尋眞	-11.0931
中書	-11.0933
至是	-11.0934
保鎮	-11.0935
布衣	-11.0936
之輦	-11.0939
人身中	-11.0942
明天尊志心朝禮	-11.0944
謝過	-11.0944
服藥	-11.0947
一見	-11.0948
隱形	-11.0948
章奏	-11.095
玄圖	-11.0953
諸大	-11.0955
凡所	-11.0956
孝道	-11.0957
有无	-11.0959
俗人	-11.096
安泰	-11.0964
毎日	-11.0965
文王	-11.0965
師資	-11.0965
不曾	-11.0965
玉真	-11.0966
光映	-11.0967
當於	-11.0967
九芒	-11.0967
六賊	-11.0969
慎之	-11.0974
鍊精	-11.0976
天降	-11.0983
極而	-11.0984
無體	-11.0986
者何也	-11.0987
掌中	-11.0988
一百五十	-11.0989
舉手	-11.0991
聖道	-11.0993
▲(	-11.1
一性	-11.1001
在焉	-11.1006
物類	-11.1007
應聲	-11.1009
夜夢	-11.1009
青童君	-11.1011
明天帝	-11.1012
一天	-11.1014
自無	-11.1015
證果	-11.1016
无我	-11.1016
命魔	-11.1019
某處	-11.1021
不答	-11.1026
也經曰	-11.1026
禮敬	-11.1027
盈虚	-11.1027
只此	-11.1028
之妙也	-11.1029
如初	-11.1036
普照	-11.1037
相和	-11.1038
設教	-11.104
而不可	-11.104
三花	-11.1041
與吾	-11.1043
合自然	-11.1046
聞見	-11.1049
土星	-11.105
黃金	-11.1052
觀者	-11.1057
雷聲	-11.1062
至靜	-11.1064
如火	-11.1065
七日七夜	-11.1067
可用	-11.1068
教門	-11.1069
洞經	-11.1069
東方八天	-11.1071
遇至人	-11.1074
勝因	-11.1076
君諱	-11.1078
腎炁	-11.108
水中金	-11.1088
冲天	-11.1089
行化	-11.1094
時也	-11.1099
也問	-11.11
擣	-11.11
書曰	-11.1102
幽㝠	-11.1103
氣合	-11.1105
元明	-11.1105
此非	-11.1106
屬金	-11.1106
守眞	-11.1107
跳	-11.1107
些	-11.1108
督	-11.1112
迪	-11.1112
奄	-11.1112
次念	-11.1112
四曰	-11.1113
稻	-11.1114
冑	-11.1114
九煉	-11.1115
遂以	-11.1117
粲	-11.1117
雷風	-11.1118
款	-11.1119
矩	-11.112
酥	-11.1121
臆	-11.1121
胷	-11.1122
券	-11.1123
敞	-11.1123
猶有	-11.1123
王屋山	-11.1124
夾脊	-11.1124
寤	-11.1125
徑御无上三十二天元始上帝至尊几前	-11.1125
聯	-11.1125
寂寞	-11.1125
忤	-11.1126
旦夕	-11.1126
流火之庭	-11.1127
嵎	-11.1128
祈晴	-11.1128
闘	-11.1129
緋	-11.1129
未易	-11.1129
魒	-11.1129
熠	-11.1129
說經二徧	-11.113
神聖	-11.113
鯨	-11.1131
百餘年	-11.1132
尚有	-11.1132
所指	-11.1133
不虚	-11.1133
千變萬化	-11.1134
竹杖	-11.1134
說言	-11.1135
燧	-11.1136
徽宗	-11.1136
吾當	-11.1137
總括	-11.1138
服此	-11.1139
遨遊	-11.1139
叩齒三十六通	-11.114
五老上帝	-11.1141
章謹請	-11.1141
不知所之	-11.1142
敢忘	-11.1143
句容	-11.1143
景貺	-11.1143
方來	-11.1143
自來	-11.1144
自明	-11.1145
正神	-11.1146
不乆	-11.1146
利貞	-11.1148
蚩尤	-11.1148
元始祖炁	-11.1149
學仙之人	-11.115
十方諸天	-11.115
法教	-11.1152
玄女	-11.1152
瑶臺	-11.1154
丹井	-11.1154
正直	-11.1155
問其	-11.1155
上境	-11.1157
碧霄	-11.1158
輪廻	-11.1159
救濟	-11.1165
長嘯	-11.1168
是其	-11.117
遊戲	-11.1171
三轉	-11.1171
復次	-11.1171
建康	-11.1172
能令	-11.1174
保安	-11.1177
妙成天	-11.1179
土木	-11.118
世有	-11.1181
黄紙	-11.1181
不勞	-11.1182
温温	-11.1184
積功	-11.1185
無涯	-11.1187
玄都玉京	-11.119
致使	-11.1193
伏尸	-11.1195
地肺	-11.1195
長沙	-11.1196
停輪	-11.1196
奉迎	-11.1197
瓊臺	-11.1197
向外	-11.1198
二仙	-11.12
立冬	-11.1202
每一	-11.1203
猛吏	-11.1209
女眞	-11.121
乃能	-11.1211
本始	-11.1211
無影	-11.1213
之次	-11.1213
四十二	-11.1214
之神中有	-11.1214
思念	-11.1215
以水	-11.1216
奉勑	-11.1216
離苦	-11.1221
中孚	-11.1222
長男	-11.1226
虚明	-11.1227
鏡中	-11.1227
某等	-11.1227
難以	-11.123
未始	-11.1235
甲子日	-11.1237
道力	-11.1239
戊子	-11.124
啓請	-11.1242
苦魂	-11.1244
亦云	-11.1247
青霞	-11.1249
能使	-11.1249
居山	-11.1254
非此	-11.1257
禀受	-11.126
陰鬼	-11.1261
之句	-11.1263
入靖	-11.1264
離諸	-11.1265
書於	-11.1266
之會	-11.1271
白氣	-11.1272
一條	-11.1273
天柱	-11.1274
至樂	-11.1275
巽風	-11.1277
形於	-11.1278
悉令	-11.1279
科曰	-11.1281
妙眞	-11.1282
隨所	-11.1283
賜之	-11.1285
安神	-11.1289
之仁	-11.1292
洞浮	-11.1293
疾苦	-11.1298
合天地	-11.13
心如	-11.1304
我神	-11.1304
劫數	-11.1305
鍊化	-11.1305
定志	-11.1307
絶滅	-11.131
郎君	-11.131
靜中	-11.1314
炁凝	-11.1316
笑而	-11.1317
冠衣	-11.132
精修	-11.1321
解說	-11.1321
必獲	-11.1321
謝罪	-11.1322
色青	-11.1323
飛輪	-11.1326
矣此	-11.1328
爲天下	-11.1328
善果	-11.1331
自當	-11.1332
一輪	-11.1333
不倦	-11.1333
吾昔	-11.1337
眞士	-11.1337
爲諸衆生	-11.1339
平地	-11.134
離中	-11.134
依此	-11.1342
仙樂	-11.1343
矣今	-11.1343
金烏	-11.1343
益筭	-11.1344
告文	-11.1345
人不識	-11.1345
誦持	-11.1347
上章	-11.1347
師之	-11.1348
幾時	-11.1349
月宫	-11.1349
亦不能	-11.1352
也右	-11.1354
仰天	-11.1357
受福	-11.1357
則必	-11.1358
手持	-11.136
方爲	-11.136
欲使	-11.1361
眞光	-11.1363
無量度人	-11.1363
如常	-11.1364
人之所	-11.1371
忘言	-11.1372
染著	-11.1373
與其	-11.1374
匱	-11.1378
如此則	-11.1378
自號	-11.138
皆即受度	-11.1381
備足	-11.1382
水星	-11.1382
精微	-11.1387
歩斗	-11.1387
一章	-11.1387
爲神仙	-11.1388
得失	-11.1389
簷	-11.1391
拓	-11.1392
關啓	-11.1392
鑽	-11.1393
不神	-11.1393
揚州	-11.1394
市中	-11.1394
勑劉混康	-11.1394
深處	-11.1394
亞	-11.1395
醖	-11.1395
在吾	-11.1396
畿	-11.1396
綏	-11.1396
娑	-11.1396
再三	-11.1397
十九日	-11.1398
世事	-11.1398
廚	-11.1399
圜	-11.1399
鮑	-11.1399
咨	-11.1399
灌溉	-11.14
婉	-11.14
匣	-11.14
五嶽四瀆	-11.14
揣	-11.1401
滄海	-11.1401
钁	-11.1401
眞訣	-11.1401
瘥	-11.1402
茫茫	-11.1402
渚	-11.1402
九層	-11.1402
掇	-11.1403
戊戌	-11.1403
眩	-11.1403
勃勃	-11.1403
咫尺	-11.1404
自心	-11.1404
龍虎交媾	-11.1405
煒	-11.1405
㦸	-11.1405
袐	-11.1405
兢	-11.1406
椿	-11.1406
戊辰	-11.1406
颺	-11.1406
喚	-11.1406
娱	-11.1406
浣	-11.1407
聘	-11.1407
昬	-11.1407
秪	-11.1407
暘谷	-11.1408
耦	-11.1408
衫	-11.1408
行香誦經	-11.1408
磚	-11.1408
本於	-11.1409
侔	-11.1409
心識	-11.1409
在人間	-11.141
鐺	-11.141
闈	-11.141
惒	-11.141
漬	-11.141
樞紐	-11.1411
天中空洞自然靈章諸天隱韻	-11.1413
汪	-11.1414
蠢動	-11.1414
沈淪	-11.1414
陽而	-11.1414
有知其音能齋而誦之者諸天皆遣	-11.1416
棄殻	-11.1417
庚辰	-11.1418
混合百神	-11.1418
無病	-11.1419
學道之士	-11.1419
太漠	-11.1419
己酉	-11.1419
仗劒	-11.1419
此明	-11.1421
圎滿	-11.1421
天地之根	-11.1421
十洲	-11.1422
於中宫	-11.1423
甘泉	-11.1424
聞而	-11.1424
開闢	-11.1425
二十四獄	-11.1425
修行之人	-11.1426
道眼	-11.1427
南海	-11.1429
耗散	-11.1429
吾不知其	-11.143
脫胎	-11.143
敷演	-11.143
玄恩	-11.1431
七祖父母	-11.1432
最勝	-11.1432
受氣	-11.1434
祕宻	-11.1436
微祝曰	-11.1437
明徹	-11.1438
四象五行	-11.144
間斷	-11.144
三君	-11.1441
所啓	-11.1442
延陵	-11.1443
乾道	-11.1444
得之者	-11.1445
相成	-11.1446
保神	-11.1446
大運	-11.1447
泛景	-11.1448
和暢	-11.1448
泉源	-11.1448
靈虚	-11.1449
視其	-11.145
得解脫	-11.1453
雲錦	-11.1454
童顔	-11.1455
如今	-11.1456
爲萬物	-11.146
四寸	-11.146
服色	-11.1464
甲庚	-11.1465
之造化	-11.1467
遂成	-11.1469
教以	-11.1469
雲輿	-11.1469
然後可以	-11.1469
呪天	-11.1473
識者	-11.1473
知是	-11.1474
此所以	-11.1475
數十年	-11.1476
與語	-11.1477
駕龍	-11.1478
正是	-11.1484
十通	-11.1486
地皇	-11.1486
思微	-11.1488
河伯	-11.1489
黄庭經	-11.1492
兵戈	-11.1492
之迹	-11.1497
莫能知	-11.1497
其味	-11.1504
九仙	-11.151
速至	-11.151
在人身	-11.1513
其門	-11.1522
祝畢	-11.1524
州縣	-11.1524
妙訣	-11.1525
惡道	-11.1525
壬子	-11.1527
每月	-11.1531
道體	-11.1533
而動	-11.1533
十三年	-11.1535
以付	-11.154
稱慶	-11.154
鬼賊	-11.1542
玄天帝	-11.1543
回旋	-11.1545
墮地獄	-11.1547
驚異	-11.1551
一變	-11.1552
彌明	-11.1553
奉戒	-11.1558
龍吟	-11.1559
未至	-11.1561
直下	-11.1562
身中之	-11.1562
孛	-11.1563
無法	-11.1564
去處	-11.1565
南陽	-11.1568
明明	-11.1569
何哉	-11.157
祕要	-11.1574
火生	-11.1574
已有	-11.1578
總是	-11.1579
斯文	-11.158
八冥	-11.158
無停	-11.158
南方赤	-11.1582
吾言	-11.1584
不來	-11.1589
三神	-11.1598
之情	-11.1598
聖境	-11.1599
黄龍	-11.16
我當	-11.1602
而往	-11.1604
赤色	-11.1606
上徹	-11.161
目前	-11.161
人中	-11.1611
碧空	-11.1613
七情	-11.1613
凱	-11.1615
中卷	-11.1615
符文	-11.1619
聞經	-11.1619
飛揚	-11.162
萬衆	-11.1633
丘山	-11.1635
良常	-11.1639
歸正	-11.1641
水上	-11.1641
白紙	-11.1649
精舍	-11.1651
子訓	-11.1654
走失	-11.1655
昨夜	-11.1657
穢氣	-11.1659
胎光	-11.1667
行功	-11.1668
不亂	-11.1668
天年	-11.1668
惟見	-11.1669
善者	-11.1673
地氣	-11.1675
杵	-11.1675
鉢	-11.1676
曹仙官太玄女青上元	-11.1677
掣	-11.1677
棘	-11.1677
夐	-11.1678
文昌大洞玉章第	-11.1678
皛	-11.1678
耆	-11.1679
膠	-11.168
精精	-11.168
賚	-11.1681
之位也	-11.1681
六時	-11.1682
共成	-11.1682
娠	-11.1684
脯	-11.1684
麓	-11.1684
菌	-11.1684
踞	-11.1684
檜	-11.1684
仭	-11.1685
劈	-11.1685
吝	-11.1685
攢	-11.1685
此日	-11.1686
來入	-11.1686
迓	-11.1686
靚	-11.1686
五帝直符各三十二人	-11.1687
廨	-11.1687
元亨利貞	-11.1687
返本還元	-11.1687
眞鉛眞汞	-11.1687
椎	-11.1688
釁	-11.1689
邢	-11.1689
周回十方	-11.1689
捻	-11.169
劑	-11.169
巍	-11.169
来	-11.1691
隨符	-11.1691
珏	-11.1691
洪崖	-11.1691
夔	-11.1691
麒麟	-11.1691
太微天帝君	-11.1692
御製	-11.1692
純熟	-11.1692
嘯詠	-11.1692
蓍	-11.1692
絕	-11.1692
查	-11.1692
法輪之門	-11.1693
五靈玄老	-11.1694
太倉	-11.1694
禮樂	-11.1695
無鞅數衆乗空而來	-11.1696
無窮萬神咸聽三界五帝列言上清	-11.1696
杏林	-11.1696
訥	-11.1696
𡨋	-11.1697
無妄	-11.1698
著書	-11.1698
筋骨	-11.1699
帖	-11.17
瑩徹	-11.17
傳得	-11.17
正中	-11.1701
枝葉	-11.1701
陶隱居	-11.1701
道道	-11.1702
瑶池	-11.1702
塵垢	-11.1703
一日有	-11.1705
運應滅度身經太隂臨過之時同學至人	-11.1706
佩身	-11.1706
鬼魅	-11.1707
軟	-11.1707
執斧	-11.171
十三日	-11.171
月圓	-11.1716
尊卑	-11.1716
通幽	-11.1716
講說	-11.1717
飄然	-11.1717
仗劔	-11.1718
鬱秀	-11.1718
也吾	-11.1718
无相	-11.1719
緫領	-11.172
關告	-11.1721
赤天	-11.1722
同體	-11.1723
曰某	-11.1724
而又	-11.1725
萬般	-11.1728
昔有	-11.1728
何能	-11.1729
者身	-11.173
禁上天	-11.1733
十惡	-11.1735
化生諸天	-11.1735
矣遂	-11.1737
辭曰	-11.1738
衆經	-11.1738
生命	-11.174
非法	-11.1742
一元	-11.1745
與君	-11.1745
其國	-11.1746
紫户	-11.1747
何在	-11.1748
如是則	-11.1748
元辰	-11.1749
至眞大神無鞅之衆浮空而至	-11.175
左右二	-11.175
有敕	-11.175
貪嗔	-11.175
虛無	-11.1752
常與	-11.1753
素書	-11.1754
黄河	-11.1755
丈夫	-11.1755
蕩穢	-11.1756
掃除	-11.1756
紫賢	-11.1765
始知	-11.1766
命根	-11.1766
皆受	-11.1767
是年	-11.1767
貪求	-11.1769
離火	-11.1772
書寫	-11.1772
手中	-11.1774
事見	-11.1775
立應	-11.1775
辰星	-11.1775
祈禳	-11.1776
大羅玉清	-11.1776
木也	-11.1777
眼目	-11.1778
專心	-11.1779
天數	-11.178
返老	-11.178
盟誓	-11.178
來此	-11.1784
辟非	-11.1785
此所謂	-11.1785
二卷	-11.1786
嘉定	-11.1786
可贈	-11.1787
屬水	-11.1787
示現	-11.1787
神烈	-11.1787
下統	-11.1791
即位	-11.1792
上遊	-11.1793
制御	-11.1794
神文	-11.1797
和釋	-11.1802
是皆	-11.1806
以前	-11.1811
太妙	-11.1813
十二辰	-11.1817
至極	-11.1817
仁者	-11.1821
果然	-11.1824
各一人	-11.1828
不和	-11.1828
以藥	-11.183
真經	-11.1835
萬卷	-11.1836
見前	-11.1837
即知	-11.1837
相接	-11.1842
合體	-11.1842
心无	-11.1845
極則	-11.1845
五隂	-11.1845
六陰	-11.1847
又言	-11.1848
萬品	-11.1849
竟不	-11.1849
五通	-11.1851
九真	-11.1855
妙元	-11.1856
舊文	-11.1858
焚修	-11.1861
衣裳	-11.1861
出現	-11.1861
雖不	-11.1861
衡山	-11.1865
交於	-11.1866
猶在	-11.1866
皆同	-11.1867
王法	-11.1868
左府	-11.1871
二十四氣	-11.1872
大範	-11.1874
濟物	-11.1879
善念	-11.1879
眞皇	-11.1882
喜曰	-11.1883
關節	-11.1883
而變	-11.1884
四序	-11.1884
九曜	-11.1888
内傳	-11.1889
斗極	-11.1889
召集	-11.1895
主吏	-11.1896
不知何許人	-11.1896
合炁	-11.1897
無無	-11.1898
木郎	-11.1898
三途	-11.1904
歌音	-11.1904
地雷	-11.1906
不樂	-11.1907
眞機	-11.1908
既有	-11.1909
道本無	-11.1909
攝氣	-11.191
而修	-11.1911
乃見	-11.1911
下及	-11.1913
地有	-11.1913
爾身	-11.1915
故經云	-11.1916
經師	-11.1917
下教	-11.192
五劫	-11.192
則傷	-11.1924
乾坤之	-11.1926
華陽洞	-11.1926
死人	-11.1931
諸天大聖	-11.1931
六親	-11.1932
五内	-11.1932
須延	-11.1934
正性	-11.1935
足矣	-11.1936
其父	-11.1944
積德	-11.1944
昔日	-11.1946
極樂	-11.1948
亦不可	-11.1949
守神	-11.1953
惡趣	-11.1954
三徧	-11.1962
寰	-11.1963
年七十	-11.1964
入丹田	-11.1964
始青天	-11.1965
先當	-11.1966
眞武	-11.1969
仙真	-11.1971
訴	-11.1973
駡	-11.1973
柰	-11.1974
汧	-11.1974
莭	-11.1974
金真	-11.1975
其聲	-11.1975
翮	-11.1976
茯苓	-11.1976
蟻	-11.1977
水水	-11.1978
監生大神	-11.1978
樣	-11.1979
涂	-11.1979
甄	-11.1979
憤	-11.198
壷	-11.198
倩	-11.198
上解祖考億劫種親	-11.198
爲惡	-11.1981
爲六	-11.1981
跣足	-11.1981
本起録云	-11.1982
欹	-11.1982
此三界之上飛空之中	-11.1982
鬻	-11.1983
醴泉	-11.1983
啞	-11.1984
召魂	-11.1984
飴	-11.1984
寂然不動	-11.1984
保胎護命	-11.1984
晷	-11.1985
多矣	-11.1985
明光	-11.1985
如彼	-11.1986
𨇠	-11.1986
慙	-11.1986
哀愍	-11.1987
濳	-11.1987
強	-11.1988
爲國王帝主君臣父子安	-11.1988
榆	-11.1988
弈	-11.1989
四分	-11.1989
蹠	-11.1989
諸天諸地	-11.1989
少好道	-11.199
恁	-11.199
也子野曰	-11.199
琚	-11.199
逍遙	-11.1992
墀	-11.1992
阿那	-11.1992
格皆九年受化更生得爲貴人	-11.1993
此意	-11.1993
彼岸	-11.1993
純一	-11.1994
艷	-11.1994
侍郞	-11.1995
三官九府	-11.1995
鵬	-11.1995
各三十二人關啓所言今日吉慶長齋	-11.1995
隱祕之音	-11.1996
虧盈	-11.1996
定息	-11.1997
賣藥	-11.1997
放下	-11.1998
法度	-11.2
玉眸	-11.2003
華胥	-11.2007
穆王	-11.2008
騰騰	-11.2009
營衛	-11.2009
能爲	-11.2011
着靴	-11.2011
書于	-11.2011
年中	-11.2012
拘制	-11.2013
朱陽	-11.2013
又存	-11.2014
必須	-11.2015
三徒	-11.2015
盡其	-11.2016
賢愚	-11.2017
自滅	-11.2017
坦然	-11.2017
尋常	-11.2017
淺深	-11.2018
至陽	-11.2019
九人	-11.2021
壇前	-11.2022
覆載	-11.2023
形相	-11.2023
辛苦	-11.2025
先存	-11.203
受教	-11.203
五芽	-11.2031
震兊	-11.2033
偈頌	-11.2035
吾所	-11.2035
大慶	-11.2036
四日	-11.2036
讀之	-11.2037
寒池	-11.2039
成象	-11.204
相尅	-11.2041
五湖	-11.2042
不相剋	-11.2042
聞於	-11.2043
愛河	-11.2044
邪氣	-11.2046
半夜	-11.2047
天五	-11.2048
如何得	-11.2049
感格	-11.2052
監舉	-11.2054
之别	-11.2054
有疾	-11.2067
治國	-11.2068
捷疾	-11.2069
伏火	-11.207
弱水	-11.207
死矣	-11.2071
旬日	-11.2072
其音	-11.2073
坤卦	-11.2073
墨書	-11.2073
乗雲	-11.2073
逆行	-11.2075
更不	-11.2076
崇奉	-11.2076
演化	-11.2077
仙者	-11.2077
長眞	-11.2078
一靈	-11.2078
九十日	-11.2079
昊天	-11.2079
未成	-11.208
天地間	-11.2081
法師曰	-11.2085
玄理	-11.2088
斗牛	-11.209
異類	-11.2091
得法	-11.2091
世宗	-11.2091
日時	-11.2094
十方无極	-11.2094
乗空	-11.2096
簡易	-11.2101
凶惡	-11.2102
善男子若有衆生	-11.2102
前功	-11.2105
芝草	-11.2106
金關	-11.2109
滅亡	-11.2113
剛風	-11.2117
隂精	-11.2117
潜形	-11.2117
道君諱	-11.2118
眞天帝	-11.212
老子云	-11.2121
修命	-11.2123
救苦天尊	-11.2124
元妙	-11.2127
四時之	-11.2129
无上玄元三天玉堂大法卷之	-11.2131
幽深	-11.2134
天運	-11.2134
六龍	-11.2136
勤修	-11.2136
我所	-11.2137
無思	-11.2143
開目	-11.2143
山頂	-11.2147
果有	-11.2148
九三	-11.2149
一毫	-11.215
太靈	-11.215
乙丑	-11.215
北府	-11.2155
焉能	-11.2157
陽符	-11.2159
五府	-11.2161
藏府	-11.2161
嘗有	-11.2169
莊子曰	-11.217
類也	-11.2172
左旋	-11.2173
去其	-11.2174
在目前	-11.2174
雲龍	-11.2177
位登	-11.2177
坐於	-11.2178
三時	-11.2181
上宮	-11.2184
福禄	-11.219
左官	-11.2191
本末	-11.2194
待之	-11.2201
髙聖	-11.2204
受之於	-11.2205
必得	-11.2205
有犯	-11.2208
九六	-11.2211
東都	-11.2213
神用	-11.2214
監度	-11.2216
此圖	-11.2216
林木	-11.2217
无間	-11.2218
入火	-11.2218
上篇	-11.2221
所感	-11.2221
玄老	-11.2222
死而	-11.2223
靈化	-11.2225
爲純陽	-11.2226
金金	-11.2227
在後	-11.2231
聖人以	-11.2232
一源	-11.2233
舍人	-11.2233
者可以	-11.2234
心氣	-11.2235
上書	-11.2236
知音	-11.2236
群靈	-11.2237
難遇	-11.2244
白龍	-11.2246
煉氣	-11.2247
之果	-11.2252
長養	-11.2252
入于	-11.2253
十卷	-11.2254
死炁	-11.2254
度去北辰	-11.2256
炁足	-11.2257
今年	-11.2258
无始	-11.226
×	-11.2261
引炁	-11.2264
扈	-11.2264
埃	-11.2268
真氣	-11.2269
吿下	-11.2269
丁酉	-11.2272
殯	-11.2274
陰中	-11.2275
一則	-11.2275
棹	-11.2276
色黑	-11.2277
災害	-11.2279
之未	-11.2279
靈炁	-11.2281
璿	-11.2281
輔弼	-11.2281
默菴曰	-11.2282
杳杳冥冥	-11.2282
番	-11.2282
薑	-11.2282
厠	-11.2283
痕	-11.2284
藪	-11.2284
東向叩齒三十二通上聞三十二	-11.2284
烜赫	-11.2284
大悲大願大聖大慈	-11.2284
嗽	-11.2285
明科	-11.2285
餅	-11.2285
癸亥	-11.2285
死則	-11.2285
光耀	-11.2286
菊	-11.2287
旡	-11.2287
妓	-11.2287
醇	-11.2287
址	-11.2288
羈	-11.2288
至學之士誦之十過則	-11.2288
疋	-11.2289
戊午	-11.2289
涌	-11.2289
霸	-11.2289
本命之日	-11.2289
中合五方飛玄之炁以和八字自然之音	-11.2289
艶	-11.2289
邪正	-11.229
嗚呼	-11.229
紛紜	-11.229
𧵥	-11.229
丗	-11.2291
天丁力士	-11.2291
昉	-11.2291
琢	-11.2291
數千	-11.2291
玉關	-11.2292
中央黄	-11.2293
拊	-11.2293
丙申	-11.2293
善心	-11.2293
鬱單	-11.2294
之籍	-11.2294
惺惺	-11.2295
太尉	-11.2295
機緘	-11.2295
肢體	-11.2295
鼓舞	-11.2296
天中人壽	-11.2297
雲水	-11.2298
彈指	-11.2299
吳	-11.2299
二十七日	-11.2299
眞身	-11.2299
庚寅	-11.2299
若人非人	-11.23
皆應	-11.2301
怖畏	-11.2302
超凌	-11.2306
子欲	-11.2306
太后	-11.2307
無可	-11.231
字皆廣長一丈	-11.2312
我我	-11.2316
紫戸	-11.2318
久久	-11.2318
返形	-11.2319
玉精	-11.2319
解除	-11.232
生長	-11.232
不復見	-11.232
天地之數	-11.2321
靈異	-11.2321
隱隱	-11.2324
羽客	-11.2324
未免	-11.2326
存見	-11.233
下照	-11.2331
反復	-11.2331
朗耀	-11.2331
列位	-11.2332
之殿	-11.2333
九寸	-11.2333
三毒	-11.2333
慈憫	-11.2333
時節	-11.2335
乾祐	-11.2336
毒害	-11.2338
要訣	-11.2338
和炁	-11.2338
流芳	-11.2339
不朽	-11.234
一出	-11.234
修真	-11.2341
蒙恩	-11.2343
一刻	-11.2344
一號	-11.2345
三界魔王	-11.2346
白光	-11.2346
惡星	-11.2348
滯魄	-11.2349
斯道	-11.2351
三合	-11.2351
曜洞	-11.2352
龍圖	-11.2353
相去	-11.2355
合爲	-11.2355
大則	-11.2355
爲其行香誦經十過以度屍形如法	-11.2358
修學	-11.2359
照臨	-11.2361
國主	-11.2361
與夫	-11.2362
色赤	-11.2362
車馬	-11.2363
玉漿	-11.2363
命也	-11.2363
蹤跡	-11.2363
玄真	-11.2365
度南宫	-11.2369
五月五日	-11.237
幼而	-11.2371
河東	-11.2372
與天地同	-11.2373
四眞	-11.2374
五十五	-11.2375
二星在	-11.2376
鬼兵	-11.2376
心念	-11.2379
入定	-11.2382
帝卿	-11.2383
年二十	-11.2383
天監	-11.2387
神運	-11.2387
感化	-11.2387
昭明	-11.2389
火炎	-11.2389
縱橫	-11.2389
拜謝	-11.2391
於西	-11.2394
也若以	-11.2395
玉洞	-11.2396
隨事	-11.2399
乎此	-11.2399
賜紫	-11.2404
失所在	-11.2405
而卒	-11.2408
獲福	-11.241
内守	-11.241
六七	-11.2411
等志心歸命禮	-11.2412
所存	-11.2413
耳聞	-11.2413
返照	-11.2414
百節	-11.2414
兵士	-11.2415
陽丹	-11.2419
氣中	-11.2422
二十九	-11.2422
之至也	-11.2425
解散	-11.2425
之微	-11.2426
海中	-11.2429
黒炁	-11.2429
彩雲	-11.2431
髙功	-11.2431
西方白	-11.2432
往昔	-11.2432
不仁	-11.2434
復位	-11.2438
未敢	-11.2439
閉口	-11.244
或謂	-11.244
動於	-11.2441
形化	-11.2441
亦不知	-11.2442
隨念	-11.2444
十五年	-11.2444
根性	-11.2445
玉室	-11.2448
自謂	-11.245
爲玄武	-11.2451
此八字	-11.2453
有相	-11.2454
應當	-11.2456
月十八日	-11.2456
護國	-11.2458
肝氣	-11.2458
業報	-11.2459
照燭	-11.246
無一物	-11.2461
初六	-11.2462
太上之	-11.2464
玄師	-11.2464
我界	-11.2464
也哉	-11.2465
出遊	-11.247
洗心	-11.247
急速	-11.2472
二十日	-11.2472
甚重	-11.2472
元降	-11.2474
祥雲	-11.2477
元王	-11.2479
天眞大神	-11.2482
仙宫	-11.2484
其室	-11.2485
即當	-11.2488
之祥	-11.2488
而可	-11.249
形像	-11.2493
上南宫	-11.2498
何事	-11.2504
一事	-11.251
玄母	-11.2513
敬禮	-11.2516
斬鬼	-11.2517
乆矣	-11.252
將欲	-11.2524
了悟	-11.2528
異於	-11.2531
昔在	-11.2531
吕眞人	-11.2531
直日	-11.2533
毫釐	-11.2534
復爲	-11.2535
一轉	-11.2539
火山	-11.2539
外魔	-11.2542
上清大洞	-11.2542
坎水	-11.2543
謂之曰	-11.2546
㝠心	-11.2548
以待	-11.2549
時當	-11.2549
炁一口	-11.255
珠玉	-11.2552
文理	-11.2554
存乎	-11.2558
現於	-11.2562
五分	-11.2563
三變	-11.2564
后土	-11.2564
不利	-11.2569
不斷	-11.257
雷呪	-11.257
侍中	-11.2571
同時	-11.2571
東陽	-11.2573
及夫	-11.2577
睽	-11.258
莫若	-11.2581
雷車	-11.2581
織	-11.2583
瓊文	-11.2584
當是	-11.2584
眞樂	-11.2585
桃康合延	-11.2586
則可	-11.2588
搬	-11.2588
劃	-11.2588
劉蔣	-11.2589
合而成	-11.2589
轍	-11.259
股	-11.259
誌	-11.2591
否則	-11.2592
叛	-11.2592
粥	-11.2592
宣說	-11.2592
汞汞	-11.2592
東西南北	-11.2593
金砂	-11.2593
引炁三十二過東向誦經元始	-11.2594
綜	-11.2594
鋤	-11.2595
罪消滅玉皇大天尊玄穹髙上帝	-11.2595
七返九還	-11.2595
麄	-11.2596
正則	-11.2596
遑	-11.2596
五色玉童三十二人	-11.2596
繡衣玉女三十二人	-11.2596
掬	-11.2596
相似	-11.2598
司命司録	-11.2598
煌	-11.2598
萬神朝禮名書上天功滿德就飛昇上清	-11.2599
說經六徧	-11.2599
洩	-11.2599
汾	-11.2599
所著	-11.2599
而好學至經功滿德就皆得神仙飛	-11.2599
萬劫一傳	-11.2599
皇笳天	-11.26
扁	-11.26
疫毒流行兆民死傷師友命過	-11.26
繕	-11.26
三百八十四爻	-11.26
忝	-11.26
說經九徧	-11.26
上部洞天八景自然靈寳神僊	-11.26
寛	-11.26
橐	-11.26
鑚	-11.26
胤	-11.2601
總監衆靈	-11.2601
六塵	-11.2601
曰无量洞章	-11.2601
中大梵隱語无量之音以付道君使教	-11.2602
猒	-11.2602
清泠	-11.2602
安國	-11.2602
化神	-11.2602
拷	-11.2603
北都除殃	-11.2603
中部洞玄八景自然靈寳神僊	-11.2603
燦爛	-11.2603
尹喜	-11.2604
羞	-11.2604
書生	-11.2604
腰帶	-11.2605
畀	-11.2605
寘	-11.2605
勁	-11.2605
下部洞靈八景自然靈寳神僊	-11.2605
笞	-11.2605
虚中	-11.2606
炯	-11.2606
九還七返	-11.2607
順時吐息誦玉經大洞玉經曰	-11.2607
金名	-11.2608
所以者何	-11.2608
謂其	-11.2608
清涼	-11.2608
妙光	-11.2609
造作	-11.261
木金	-11.261
煥爛	-11.261
遇一	-11.261
欽承	-11.2611
紫光丹靈	-11.2613
玉晨道君	-11.2614
□□	-11.2614
擁護	-11.2615
夙夜	-11.2617
之雲文	-11.2618
大寳	-11.2619
蕩滌	-11.2622
長生度世	-11.2622
羅絡	-11.2622
破壞	-11.2623
大法師	-11.2624
右件	-11.2625
方士	-11.2626
方始	-11.2627
禁忌	-11.2628
天谷	-11.2629
祕之	-11.2629
所知	-11.2631
參差	-11.2631
徊風	-11.2632
亦謂之	-11.2633
推遷	-11.2634
師傳	-11.2635
而取	-11.2636
牛馬	-11.2637
思邈	-11.2639
無處	-11.2639
祈恩	-11.2639
長春眞人	-11.264
吾家	-11.2642
不輟	-11.2645
諸山	-11.2647
消禳	-11.2647
雲鶴	-11.2651
色身	-11.2653
羣魔	-11.2654
且如	-11.2655
十二時中	-11.2656
莫可	-11.2656
者所以	-11.2656
金容	-11.266
命終	-11.2662
寒庭	-11.2666
穢濁	-11.2666
順天	-11.2668
城郭	-11.2668
主録	-11.2668
外則	-11.2669
伏地	-11.267
林泉	-11.267
妙本	-11.267
古仙	-11.267
太上曰	-11.267
情慾	-11.2671
仙境	-11.2671
毒龍	-11.2672
所召	-11.2673
既生	-11.2673
章表	-11.2673
爲始	-11.2674
夜來	-11.2674
内象	-11.2676
消亡	-11.2676
奏聞	-11.2676
莫之	-11.2677
萬炁齊	-11.2678
經絡	-11.2682
下文	-11.2683
綱維	-11.2685
斬妖	-11.2689
御氣	-11.2693
是以聖人	-11.2693
巳身	-11.2695
彭祖	-11.2696
法地	-11.2697
下仙	-11.2698
五億	-11.2699
考罰	-11.27
立夏	-11.2701
天猷	-11.2702
不泄	-11.2703
上部	-11.2705
五音	-11.2705
久而	-11.2706
宿對	-11.2706
坎位	-11.271
朝天	-11.2711
邪源	-11.2711
扶持	-11.2714
十有八	-11.2714
千歲	-11.2715
微言	-11.2716
頭面	-11.2717
咸陽	-11.2717
鬼帥	-11.272
在右	-11.2722
妄作	-11.2722
紫陽觀	-11.2725
羣臣	-11.2727
守中	-11.2728
皇老	-11.273
接物	-11.273
爽靈	-11.2731
天地之道	-11.2731
書篆	-11.2732
居西	-11.2732
去世	-11.2733
興雷	-11.2735
士人	-11.2738
冨貴	-11.274
大指	-11.2741
罪根	-11.2742
中庭	-11.2742
謂如	-11.2743
言說	-11.2744
微微	-11.2747
降於	-11.2749
妄言	-11.275
清和	-11.275
立功	-11.2756
節候	-11.2757
十八日	-11.2758
驅雷	-11.2758
混混	-11.276
二女	-11.2762
君異	-11.2765
水母	-11.2766
皆是大梵之言非世上常辭	-11.2769
生火	-11.2774
白骨	-11.2774
幽靈	-11.2775
之本也	-11.2776
十數	-11.2777
酒肆	-11.2778
來臨	-11.2779
仙子	-11.2782
中正	-11.2783
修善	-11.2785
皆獲	-11.2785
心不動	-11.2786
真道	-11.2786
木星	-11.2787
若在	-11.2787
有災	-11.2788
長保	-11.2792
不計	-11.2804
心常	-11.2804
星曜	-11.2804
一萬	-11.2806
貪欲	-11.281
同卷	-11.2812
先後	-11.2814
受胎	-11.2815
飛光	-11.2815
辰上神	-11.2816
入水中	-11.2818
即於	-11.282
合形	-11.2822
本眞	-11.2823
爾等	-11.2823
迎之	-11.2823
我是	-11.2825
四生	-11.2827
行年	-11.283
咽津	-11.2832
諸眞	-11.2832
語云	-11.2833
至重	-11.2836
三乗	-11.284
化氣	-11.2841
造物	-11.2842
干犯	-11.2844
山居	-11.2844
因問	-11.2846
能言	-11.2848
里人	-11.285
坎宫	-11.2852
以代	-11.2853
轉經	-11.2856
鎮星	-11.2856
飛去	-11.2858
之側	-11.2859
全其	-11.286
先是	-11.286
月在	-11.2862
口爲	-11.2866
玉清境	-11.2866
至孝	-11.2868
符篆	-11.2871
血氣	-11.2876
攝魂	-11.2878
黑書	-11.2878
許君	-11.2879
多生	-11.2879
而已矣	-11.288
諸人	-11.2886
槩	-11.2887
七七	-11.2887
心傳	-11.2887
春風	-11.2891
賢聖	-11.2894
隨風	-11.2897
華天帝	-11.2897
華林	-11.2898
光玉皇大天尊聖父天尊聖母元君	-11.2899
釡	-11.2899
洞室	-11.2899
降靈	-11.2899
翕	-11.2903
忽聞	-11.2904
昇眞	-11.2905
至如	-11.2905
岀入	-11.2906
所住	-11.2907
霈	-11.2911
相須	-11.2911
一節	-11.2911
觴	-11.2912
巧拙	-11.2912
常鎭我	-11.2912
焼	-11.2913
慚	-11.2914
蘆	-11.2915
馴	-11.2916
課	-11.2917
丙寅	-11.2917
玄關一竅	-11.2917
煅煉	-11.2918
兀	-11.2919
肚	-11.2919
故人	-11.2919
隷	-11.292
四句	-11.292
宜甫	-11.292
覲	-11.2921
東方朔	-11.2922
妍	-11.2923
螭	-11.2923
梗	-11.2923
孝悌	-11.2923
雷師皓翁	-11.2923
閩	-11.2924
四極明科	-11.2924
挂	-11.2924
胚	-11.2924
明八方元始下教使撰其字解其音合成	-11.2924
㓜	-11.2924
中宿有仙名者度應得道人也	-11.2925
瓦礫	-11.2925
瞬	-11.2925
幣	-11.2925
渭	-11.2926
甚麽	-11.2926
蔓	-11.2926
休咎	-11.2926
嫗	-11.2927
錢塘	-11.2927
名列太玄	-11.2927
此則元始以鎮	-11.2927
中有自然之書八字文曰	-11.2927
合爲一	-11.2927
芟邪	-11.2927
𨓜	-11.2927
逡巡	-11.2927
嬉	-11.2928
黒簿	-11.2929
不得拘留	-11.2929
伏羲	-11.2929
常融天	-11.2929
楊許	-11.293
不曉	-11.2931
唵吽吽	-11.2931
内文	-11.2931
十倍	-11.2931
根塵	-11.2932
隳	-11.2933
眞藏童子	-11.2933
一如告命風火驛傳	-11.2934
洗滌	-11.2934
役使鬼神	-11.2934
狀貌	-11.2934
玄元始	-11.2936
若男若女	-11.2939
青天魔王	-11.294
上告	-11.294
生前	-11.294
九幽地獄	-11.294
辰爲	-11.2941
與天齊	-11.2944
長生大聖	-11.2944
自能	-11.2946
昭彰	-11.2946
鶴鳴	-11.2947
河魁	-11.2947
雷平山	-11.2947
深淺	-11.2949
垂慈	-11.295
爲一功	-11.295
六寸	-11.295
盜賊	-11.295
不墮	-11.2953
于後	-11.2953
赴壇	-11.2955
妙門	-11.2958
大如黍米	-11.2959
十方世界	-11.296
戊寅	-11.296
人少	-11.2961
法橋	-11.2961
羅浮山	-11.2964
示以	-11.2964
前嘯	-11.2965
流星	-11.2966
上聖髙尊	-11.2967
生産	-11.2968
華景	-11.2968
普令	-11.2972
其妻	-11.2975
旌陽	-11.2975
充滿	-11.2976
鉛爲	-11.2977
失度	-11.298
玉衡	-11.2981
原其	-11.2981
註解	-11.2984
何用	-11.2987
降授	-11.299
頂禮	-11.299
聞吾	-11.2991
虚則	-11.2995
合德	-11.2996
何足	-11.2998
符水	-11.3001
周徧	-11.3002
反對	-11.3005
監生	-11.3005
心者	-11.3005
大雨	-11.3005
答言	-11.3008
俯伏	-11.3009
舉世	-11.3011
開八門	-11.3013
固濟	-11.3013
知識	-11.3015
相守	-11.3016
日月爲	-11.3017
冥關	-11.3018
光如	-11.3019
之風	-11.3019
固辭	-11.302
无極无量品	-11.3022
章云	-11.3023
聽受	-11.3024
各執	-11.3027
火發	-11.3027
一半	-11.3029
之宜	-11.3029
施功	-11.303
吾以	-11.3034
泰清	-11.3036
有作	-11.3037
司迎	-11.3038
貪著	-11.304
傾心	-11.304
五運	-11.3043
以此爲	-11.3043
丹法	-11.3044
秋石	-11.3044
在左	-11.3045
官屬	-11.3045
神農	-11.3046
攝炁	-11.3048
師眞	-11.305
玉山	-11.305
數百人	-11.3053
護受經者身道言正月長齋誦詠是經	-11.3054
出塵	-11.3056
稱善	-11.3057
天災	-11.3058
治身	-11.3059
第十二	-11.3059
洞口	-11.3059
解曰	-11.3061
咽氣	-11.3061
御書	-11.3062
陰陽造化	-11.3063
當用	-11.3063
每遇	-11.3063
無所得	-11.3064
返生	-11.3064
不令	-11.3066
妙思	-11.3066
右腎	-11.3066
曹治	-11.3067
聞有	-11.3069
世土	-11.3069
九遍	-11.3069
百寳	-11.307
木火	-11.3071
妄爲	-11.3073
老陽	-11.3074
靈胎	-11.3076
面目	-11.3076
末後	-11.3078
乗龍	-11.3079
符合	-11.3083
有道者	-11.3084
善行	-11.3084
秋月	-11.3084
遇眞師	-11.3085
不等	-11.3085
三部	-11.3086
門戸	-11.3088
四體	-11.3088
傳法	-11.3091
衆皆	-11.3095
小乘	-11.3101
來見	-11.3102
神女	-11.3104
洞妙	-11.3104
抱陽	-11.3104
降魔	-11.3105
後至	-11.3105
今世	-11.3106
深山	-11.3108
流雲	-11.3109
三玄	-11.3111
玉宸大道	-11.3116
降真	-11.3116
地十	-11.3116
震雷	-11.3118
冥心	-11.3122
外應	-11.3129
帝以	-11.3133
行雨	-11.3134
精專	-11.3138
五體	-11.3138
齋心	-11.3141
招真	-11.3143
凌空	-11.3144
瘟鬼	-11.3144
紫華	-11.3145
速去	-11.3146
驂駕	-11.3147
在山	-11.3148
瓊宫	-11.3148
置於	-11.3151
天馬	-11.3152
者道之	-11.3155
之妙用	-11.3157
西東	-11.3158
南華	-11.3159
遊觀	-11.3159
有神仙	-11.3161
上清樂	-11.3163
鬼妖	-11.3165
有識	-11.3165
脾爲	-11.317
去地	-11.3171
有道人	-11.3172
六者	-11.3172
永度	-11.3174
束首鬼精自亡琳琅振響十方肅清河海	-11.3174
作諸	-11.3178
機關	-11.3179
有德	-11.3181
人形	-11.3181
壇下	-11.3183
素雲	-11.3183
兩耳	-11.3183
處於	-11.3186
第十一	-11.3186
天地陰陽	-11.3187
大數	-11.319
三炁丹天	-11.3192
道藏	-11.3193
香爐	-11.3196
山人	-11.3197
其行	-11.3198
噀	-11.32
一劫	-11.3204
大通	-11.3205
洞空	-11.3205
意欲	-11.3205
無我	-11.3205
眼前	-11.3207
蠢	-11.3207
衣朱履	-11.3208
相遇	-11.3216
神王長生大聖无量度人西南无極	-11.3218
獨存	-11.322
先有	-11.3222
先祖	-11.3222
交并	-11.3224
神王長生大聖无量度人東南无極	-11.3224
金胎	-11.3224
紀録	-11.3228
十一年	-11.323
形形	-11.3231
一十五	-11.3234
此四	-11.324
建齋	-11.3241
沉滯	-11.3241
水源	-11.3241
招眞	-11.3242
先生云	-11.3242
漸入	-11.3243
言之則	-11.3243
周迴十方	-11.3245
亡靈	-11.3246
鐵笛	-11.3246
藩	-11.3247
咭	-11.3247
槁	-11.3247
球	-11.3248
八節之日誦詠是經	-11.3248
姪	-11.325
幃	-11.325
暝	-11.3251
思神	-11.3251
降生	-11.3251
硃砂	-11.3252
天心拜三十二過閉目靜思身坐	-11.3252
壼	-11.3253
闔闢	-11.3253
孳	-11.3253
剡	-11.3253
海南白玉蟾著	-11.3254
牟	-11.3254
甜	-11.3254
執符把籙	-11.3254
爾時元始天尊	-11.3254
中斗大魁	-11.3254
豕	-11.3255
閼	-11.3255
天眞皇人曰其章以	-11.3255
傑	-11.3255
魂神暫滅不經地獄即得返形遊行太空	-11.3256
嬪	-11.3256
榛	-11.3256
琳琅	-11.3256
坑	-11.3256
九天應元雷聲普化天尊	-11.3256
航	-11.3257
騁	-11.3257
吹嘘	-11.3258
冐	-11.3259
其八字飛玄自然之書字方一丈文彩煥	-11.3259
禎祥	-11.3259
收拾	-11.326
真天帝	-11.326
具法位	-11.326
死炁之門使	-11.326
龔	-11.326
无量度人上品妙經元始洞玄靈寳本章	-11.3261
壊	-11.3261
上品妙首	-11.3262
跛痾	-11.3262
黄帝之	-11.3262
涎	-11.3263
䆫	-11.3263
一乘海空智藏	-11.3264
綾	-11.3264
果得	-11.3265
讃詠	-11.3265
瘴癘	-11.3265
蘂珠	-11.3265
舅	-11.3267
至學之士	-11.3267
紫虚元君	-11.3267
衰老	-11.3267
抄	-11.3268
精魂	-11.3268
平育天	-11.3268
翛然	-11.3268
裾	-11.3269
雲路	-11.327
小則	-11.3271
嘉祥	-11.3272
災癘	-11.3272
士庶	-11.3272
病癘	-11.3273
津梁	-11.3273
勤而行之	-11.3273
宅舍	-11.3273
飛天神人	-11.3273
萬神之宗	-11.3274
恥	-11.3274
輔佐	-11.3274
武陵	-11.3275
墮落	-11.3275
芝英	-11.3277
青黄白	-11.3277
安坐	-11.3279
咸臻	-11.328
洞玄靈寳	-11.3281
罪消滅	-11.3281
劫仞	-11.3281
經同卷	-11.3281
預修	-11.3282
宛轉	-11.3282
戊已	-11.3283
虔誠	-11.3284
黑暗	-11.3284
吐毒	-11.3284
大還丹	-11.3284
啓途	-11.3285
本自	-11.3285
道源	-11.3287
又於	-11.3287
見人	-11.3288
廣運	-11.3288
紫字	-11.3289
旁門	-11.329
方一丈	-11.3291
不記	-11.3291
眞一之	-11.3292
衛護	-11.3293
與諸天	-11.3294
龜臺	-11.3294
毫分	-11.3294
容貌	-11.3295
超凡	-11.3295
降炁	-11.3296
好事	-11.3297
惠澤	-11.3297
放光	-11.3298
是法	-11.3298
枯木	-11.3299
遣人	-11.3302
方成	-11.3302
安期生	-11.3304
當年	-11.3305
舌根	-11.3306
病人	-11.331
應世	-11.331
直符從官十	-11.3312
火符	-11.3313
天台山	-11.3313
自幼	-11.3314
金生水	-11.3315
前導	-11.3317
黑虎	-11.3318
如是之人	-11.3319
玉局	-11.3319
百福	-11.332
若要	-11.332
散華	-11.332
巳午	-11.3321
敬仰	-11.3322
靜處	-11.3323
珍寳	-11.3323
妙體	-11.3326
題詩	-11.3326
爲青龍	-11.3326
品卷第	-11.3327
人問	-11.3329
下民	-11.3329
四溟	-11.333
總御	-11.3331
來去	-11.3331
地道	-11.3332
片時	-11.3332
氣海	-11.3334
可以爲	-11.3336
而非	-11.3338
寳號	-11.3339
誦此	-11.3341
照破	-11.3342
導從	-11.3345
不會	-11.3346
寳座	-11.3348
南山	-11.335
註曰	-11.3351
其說	-11.3352
一切天人	-11.3353
雷轟	-11.3353
三峯	-11.3356
逺離	-11.3358
傷害	-11.336
授子	-11.336
太祖	-11.3362
皆屬	-11.3365
降世	-11.3365
有差	-11.3366
聖像	-11.3366
似有	-11.3368
聽吾	-11.3368
得道之人	-11.3369
三丹田	-11.3369
祖劫	-11.3369
之效	-11.337
昇舉	-11.337
二篇	-11.3371
聦明	-11.3374
青精	-11.3374
中篇	-11.3375
服御	-11.3375
五曰	-11.3379
井中	-11.3381
輪驂駕	-11.3381
俄而	-11.3382
神王長生大聖无量度人東北无極	-11.3384
生魂	-11.3386
立降	-11.3389
七尺	-11.3389
虚妄	-11.339
屬火	-11.3393
爲母	-11.3394
既知	-11.3395
和同	-11.3395
能除	-11.3398
者衆	-11.3399
斯言	-11.34
萬事畢	-11.3403
有言	-11.3407
髙上神霄	-11.3409
用意	-11.3411
反胎	-11.3413
三十二天帝	-11.3415
九徧	-11.3421
丹房	-11.3421
心法	-11.3422
橋梁	-11.3423
小乗	-11.3423
次序	-11.3427
契合	-11.3429
之宅	-11.3429
數人	-11.3431
方是	-11.3434
狀若	-11.3435
胸中	-11.3436
陰宫	-11.3437
人欲	-11.3438
來謁	-11.3441
莫不由	-11.3444
告曰	-11.3447
居其中	-11.3447
煉己	-11.3448
安期	-11.3448
但有	-11.3449
炁聚	-11.3452
日月照	-11.3452
及以	-11.3453
宿有	-11.3456
歷世眞仙體道通鑑卷之	-11.3457
白元君	-11.3458
左腎	-11.3458
法要	-11.346
一夜	-11.3462
何曾	-11.3462
品物	-11.3466
明照	-11.3466
乘空	-11.3466
不知其所	-11.3469
白色	-11.3472
華盖	-11.3475
位列	-11.3475
壁上	-11.3482
地方	-11.3484
不使	-11.3485
三乘	-11.3486
魂爽	-11.3488
摩夷天	-11.3489
仙壇	-11.3489
無畏	-11.349
丹景	-11.349
列宿	-11.3491
炁結成	-11.3494
其罪	-11.3497
高尚	-11.3497
玉契	-11.3503
靈關	-11.3503
同聲	-11.3506
遍身	-11.3508
之座	-11.3509
相賊	-11.3513
妙應	-11.3518
忘機	-11.3518
在天爲	-11.3519
神王長生大聖无量度人上方无極	-11.352
慈父	-11.3522
滿口	-11.3524
授受	-11.3524
禁中	-11.3525
水精	-11.3525
靈魂	-11.3526
並與	-11.3526
左宫	-11.3527
不寧	-11.3528
靈山	-11.353
受用	-11.353
比者	-11.353
日月之精	-11.3532
登真	-11.3535
分司	-11.3535
既畢	-11.3536
光天帝	-11.3536
洞陽宫	-11.3539
金口	-11.354
自作	-11.3542
玄空	-11.3544
爲白虎	-11.3545
有得	-11.3546
霜雪	-11.3546
觀道士	-11.3548
不避	-11.3549
木公	-11.3549
而見	-11.3549
大功	-11.3552
爲藥	-11.3552
以補	-11.3553
用功	-11.3553
八風	-11.3553
而修之	-11.3555
墮於	-11.3555
之功也	-11.3556
雲炁	-11.3556
日宫	-11.3556
雲集	-11.3559
察其	-11.356
女曰	-11.3561
臨壇	-11.3561
下通	-11.3565
證道	-11.3566
玉寳	-11.3566
各得	-11.3567
未足	-11.3571
作如是	-11.3572
飲水	-11.3574
自巳	-11.3575
欲見	-11.3577
不竭	-11.3578
下濟	-11.3578
以鎮	-11.3579
靜黙	-11.3579
天有五賊見之者昌	-11.358
神王長生大聖无量度人南方无極	-11.358
在腎	-11.3583
虜	-11.3584
縻	-11.3587
甸	-11.3587
坼	-11.3587
宅經	-11.3588
天師志心朝禮	-11.3589
常念	-11.3589
回風混合	-11.359
夫人之	-11.3591
閬苑	-11.3591
散香	-11.3591
嶼	-11.3591
瓌	-11.3591
謐	-11.3592
刳	-11.3593
魍魎	-11.3594
一呼一吸	-11.3594
澮	-11.3594
岱	-11.3595
輻	-11.3595
皮膚	-11.3596
紊	-11.3596
上世亡䰟	-11.3596
觜	-11.3596
以詩	-11.3596
坐在立亡	-11.3596
抱元守一	-11.3596
中皇	-11.3597
稔	-11.3597
弩	-11.3597
鯉	-11.3597
萬神咸聽	-11.3597
陰符陽火	-11.3598
雲車	-11.3598
翦	-11.3598
功滿德就	-11.3599
心液	-11.3599
齋主某人	-11.3599
亘古	-11.3599
八角垂芒	-11.3599
見而	-11.3599
狹	-11.36
叩齒二十四通	-11.36
萬古	-11.36
眞陰眞陽	-11.36
大行梵炁	-11.36
在人則	-11.36
肱	-11.36
𠑽	-11.3601
渙	-11.3601
一陰一陽	-11.3601
鬼營	-11.3601
從座而起	-11.3602
𦍙	-11.3602
十眞	-11.3602
夢寐	-11.3603
神明之	-11.3603
浮空而至	-11.3603
䧟	-11.3604
啄	-11.3604
无鞅之衆	-11.3605
悵	-11.3605
疼	-11.3606
仲尼	-11.3606
紂	-11.3606
氣血	-11.3606
里域	-11.3607
蜂	-11.3607
推之	-11.3608
晋陵	-11.3608
打破	-11.3609
囬	-11.361
羙	-11.361
廣度	-11.3611
元綱流演	-11.3611
翥	-11.3611
收捕	-11.3611
昇金闕遊宴玉京也上學之士修誦是經	-11.3612
尾閭穴	-11.3612
八字之音	-11.3612
黍珠	-11.3614
白鵠	-11.3614
偃月爐	-11.3615
梳	-11.3616
可憐	-11.3616
鼓琴	-11.3617
鸞鳳	-11.3618
瓊漿	-11.3618
常如	-11.3619
𥟵首	-11.362
松竹	-11.3621
恐懼	-11.3622
甚難	-11.3622
毒蛇	-11.3622
北方五炁	-11.3623
玉爐	-11.3624
觸犯	-11.3625
隨我	-11.3625
錦帔	-11.3625
南向	-11.3626
潤澤	-11.3626
之美	-11.3626
元始无量度人上品妙經卷之	-11.3626
瑞氣	-11.3626
玉亰	-11.3628
以至於	-11.3628
盤旋	-11.3629
宗親	-11.3629
愆尤	-11.363
金甲朱衣	-11.363
之曲	-11.3634
隨運	-11.3635
保守	-11.3635
禍患	-11.3638
真官	-11.3638
法雨	-11.364
妖怪	-11.364
位號	-11.3641
幽棲曰旣	-11.3643
不喜	-11.3645
氲	-11.3645
太玄玉女	-11.3645
凝滯	-11.3646
金城	-11.3647
總統	-11.3647
變化無窮	-11.365
鐵面	-11.365
百丈	-11.365
棄之	-11.3652
妙在	-11.3652
亡過某人	-11.3652
逍遥上清	-11.3653
文昌大洞	-11.3656
小成	-11.3661
見一人	-11.3663
不獲	-11.3664
不得妄	-11.3665
出處	-11.3666
瓊林	-11.3668
博學	-11.3668
歸元	-11.3669
水火二	-11.3672
妖孽	-11.3672
三掠	-11.3673
公卿	-11.3673
合并	-11.3673
輕傳	-11.3677
禮謝	-11.3677
當修齋行香誦經夫齋戒誦經功德甚重	-11.3682
太師	-11.3683
柔和	-11.3689
如其言	-11.3689
風生	-11.3691
空浮	-11.3694
終不能	-11.3698
之夕	-11.3698
紫晨	-11.3704
鬼魔	-11.3705
散形	-11.3705
大元帥	-11.3706
圓羅	-11.3707
來詣	-11.3708
乘龍	-11.3709
嗣師	-11.3709
乆視	-11.371
頌云	-11.3711
各異	-11.3711
七百年	-11.3712
大福	-11.3713
長樓	-11.3713
威明	-11.3713
鍊質	-11.3714
有道之士	-11.3715
五文	-11.3716
信禮	-11.3717
吐氣	-11.3721
一部	-11.3721
天靈	-11.3723
死䰟	-11.3724
之名也	-11.3724
韓司	-11.3725
壇中	-11.3726
流血	-11.3732
秘於	-11.3737
究其	-11.3737
人也少	-11.3737
返胎	-11.3738
好學	-11.3739
茅山志卷之	-11.374
青色	-11.374
罪犯	-11.3743
一卦	-11.3746
云吾	-11.375
綱紀	-11.3754
具奏	-11.3756
追之	-11.3757
慈心	-11.3757
隱祕	-11.3757
是歲	-11.3759
爲體	-11.376
國中	-11.3763
張果	-11.3764
上一	-11.3767
西臺	-11.3767
何須	-11.3768
癸生	-11.3769
六神	-11.3769
坤位	-11.377
字元	-11.377
玉函	-11.3771
爲藥物	-11.3772
三盗	-11.3773
若知	-11.3777
聖眞	-11.3778
天福	-11.3783
赤光	-11.3783
則可以	-11.3784
砂汞	-11.3788
流形	-11.3788
至言	-11.379
命靈	-11.3791
塵俗	-11.3791
行業	-11.3792
日華	-11.3793
復歸於	-11.3795
年四月	-11.3799
潜通	-11.3801
上卿	-11.3802
化炁	-11.3802
居焉	-11.3803
籙上清	-11.3805
幾何	-11.3806
雷王	-11.3808
非特	-11.381
之丹	-11.3814
三次	-11.3815
錬形	-11.3818
火官	-11.3818
訪道	-11.3818
奪得	-11.3818
威力	-11.3819
萬精	-11.382
冠服	-11.3821
吹笙	-11.3824
服丹	-11.3826
師指	-11.3828
隨身	-11.383
火數	-11.384
覆之	-11.3841
元道	-11.3843
靈泉	-11.3849
雨露	-11.3861
各有所	-11.3861
知微	-11.3862
十載	-11.3863
玉篆	-11.3869
胎結	-11.3871
十七年	-11.3872
萬病	-11.3873
蠻	-11.3874
三兩	-11.3877
奏章	-11.3879
我形	-11.3881
所致	-11.3882
法寳	-11.3887
賜以	-11.3889
校定	-11.3889
成敗	-11.3899
天地造化	-11.39
示之	-11.3903
衆惡	-11.3903
靜心	-11.3903
許人	-11.3907
能致	-11.3911
謙之	-11.3911
運神	-11.3912
雲臺	-11.3912
神王長生大聖无量度人十方	-11.3921
神王長生大聖无量度人西方无極	-11.3921
之劫	-11.3924
華陽洞天	-11.3925
神王長生大聖无量度人西北无極	-11.3927
觀妙	-11.3928
宿天華	-11.3928
自從	-11.3929
以後	-11.3932
衆魔	-11.3934
亰	-11.3937
啓明	-11.3939
通真	-11.394
不義	-11.394
柩	-11.3942
由心	-11.3943
娘	-11.3946
某誠感誠慶頓首頓首再拜上言伏以	-11.3946
玄靜先生	-11.3947
啗	-11.3947
笏	-11.3947
且夫	-11.3948
織女	-11.3948
之宫也	-11.3948
風伯雨師	-11.3948
哩	-11.395
風清	-11.395
技	-11.395
藜	-11.3951
崐崘	-11.3951
名列	-11.3952
灝	-11.3952
八分	-11.3952
富國安民	-11.3952
葱	-11.3953
宙	-11.3953
宇宙在乎手萬化生乎身	-11.3953
彫	-11.3954
慄	-11.3954
邸	-11.3955
泗	-11.3955
啜	-11.3955
金闕玉房	-11.3955
喉嚨	-11.3955
許長史	-11.3955
八字雲篆鎮	-11.3956
嚼	-11.3956
槎	-11.3956
蓬瀛	-11.3956
葛仙翁	-11.3956
廓奕	-11.3957
守靜	-11.3957
塔	-11.3957
晡	-11.3958
自覺	-11.3958
甞	-11.3959
蟲蝗	-11.3959
𩲃	-11.3959
癩	-11.3959
月十四日	-11.3959
躭	-11.3959
弱冠	-11.396
滌蕩	-11.396
械	-11.396
趁	-11.396
應現	-11.396
嗇	-11.396
給玉童玉女各	-11.396
欄	-11.3961
恚	-11.3961
紏察	-11.3962
衡嶽	-11.3962
野戰	-11.3962
紅杏	-11.3963
咦	-11.3963
賈奕天	-11.3963
撻	-11.3963
湮	-11.3963
九玄七祖	-11.3963
怙	-11.3963
所以爾者	-11.3963
常守兆	-11.3963
敲	-11.3963
月華隂景	-11.3964
知之修鍊謂之聖人	-11.3964
玉暦	-11.3965
讖	-11.3965
荼	-11.3965
太玄都四極明科曰凡	-11.3965
楷	-11.3965
驛吏	-11.3965
正真	-11.3965
迍	-11.3966
㳙	-11.3967
子午卯酉	-11.3967
延夀	-11.3968
放大光明	-11.3968
六十卦	-11.3968
辛亥	-11.3968
善男子眞人童子	-11.3968
吴越	-11.3969
唐明皇	-11.3969
牢獄	-11.3969
朱陵火府	-11.3969
庚午	-11.3969
遙	-11.3969
髭	-11.397
名姓	-11.397
刻漏	-11.3973
赤天魔王	-11.3974
去奢	-11.3975
幞頭	-11.3977
北玄	-11.3977
神王長生大聖无量度人下方无極	-11.3978
焚於	-11.3979
屬木	-11.398
殿下	-11.3981
驅役	-11.3982
兩般	-11.3983
愛慾	-11.3983
慈仁	-11.3984
桃源	-11.3984
寅卯	-11.3985
涓子	-11.3987
部領	-11.3991
星主	-11.3992
白玉蟾	-11.3992
靈寳符命	-11.3992
玊札	-11.3992
騎吏	-11.3995
混同	-11.3995
臍中	-11.3996
酆山	-11.3997
無名子	-11.3998
樂道	-11.4
紫芝	-11.4
者死入	-11.4
所歸	-11.4001
萬善	-11.4004
承天	-11.4004
盛衰	-11.4005
赴闕	-11.4005
大智慧	-11.4006
海底	-11.4007
黃籙	-11.4007
一行	-11.4008
六甲六丁	-11.401
久視	-11.401
向道	-11.401
玉兔	-11.4013
生死受頼其福難勝故曰	-11.4014
廣陵	-11.4015
流浪	-11.4015
伯史	-11.4015
重泉	-11.4017
龍光	-11.4017
玉景	-11.4022
亦皆	-11.4023
移時	-11.4023
居下	-11.4024
之國	-11.4026
以濟	-11.4028
遂與	-11.4028
五兩	-11.4028
解禳	-11.4029
遭遇	-11.4031
注想	-11.4032
所造	-11.4033
囚死	-11.4033
素華	-11.4033
年九十	-11.4034
上清眞人	-11.4034
慳貪	-11.4034
玉妃	-11.4034
受書	-11.4037
栖巖	-11.4038
一切諸	-11.4038
太淵	-11.4038
有詩	-11.4038
玄華	-11.4039
斗口	-11.404
廓然	-11.404
秀樂	-11.4043
結習	-11.4043
與子	-11.4043
圓覺	-11.4043
招靈	-11.4044
之物也	-11.4046
乆乆	-11.4046
五苦八難	-11.4049
中田	-11.4052
死喪	-11.4053
浮羅	-11.4057
急須	-11.4058
改名	-11.406
乾乾	-11.406
乞食	-11.4061
但知	-11.4062
天輪	-11.4062
八靈	-11.4062
遞相	-11.4063
丹鼎	-11.4063
之中有	-11.4064
仁慈	-11.4065
道衆	-11.4066
諸國	-11.4066
雨師	-11.4066
浩蕩	-11.4066
龍車	-11.4076
炷香	-11.4078
宿縁	-11.4078
濟世	-11.4078
老氏	-11.4079
去地五丈	-11.4081
育萬物	-11.4081
萬端	-11.4082
上田	-11.4082
刑德	-11.4083
洞文	-11.4085
杳杳	-11.4089
空不空	-11.409
神府	-11.4091
本乎	-11.4092
清河	-11.4093
之序	-11.4093
雲霄	-11.4094
降祥	-11.4095
長壽	-11.4099
上開	-11.4102
九錫	-11.4102
猶存	-11.4102
哀哉	-11.4103
安和	-11.4107
度衆生	-11.4108
之厄	-11.4108
玄象	-11.4109
道之士	-11.4112
精邪	-11.4113
萬真	-11.4113
月建	-11.4114
衆苦	-11.4115
月孛	-11.4116
布化	-11.4119
五轉	-11.4122
立秋	-11.4124
七分	-11.4125
胎嬰	-11.4126
遵奉	-11.413
戒行	-11.4133
能變化	-11.4134
天尊答言	-11.4138
無染	-11.4138
百八十	-11.4138
大智	-11.4138
豈容	-11.414
作詩	-11.4141
陰降	-11.4143
赤符	-11.4144
韓君	-11.4144
親近	-11.4145
萬倍	-11.4148
合一	-11.4149
爲兆	-11.415
者此言	-11.4151
眞陰	-11.4151
苦樂	-11.4152
譬之	-11.4155
於人間	-11.4156
爲下鬼	-11.4156
吐火	-11.4159
白元尊神	-11.416
常乘	-11.4162
一時同	-11.4163
東北方	-11.4165
道門	-11.4166
萬機	-11.4172
百官	-11.4172
一十八	-11.4173
盡是	-11.4176
歩罡	-11.4177
傳經	-11.4179
黑白	-11.4179
舌下	-11.4179
必欲	-11.4181
頭頭	-11.4181
雲光	-11.4181
遷神	-11.4181
金符	-11.4186
榮枯	-11.4188
徧滿	-11.4192
二十五日	-11.4192
啓玄	-11.4196
赤氣	-11.4197
變現	-11.42
光射	-11.4201
宫中有	-11.4203
十六年	-11.4203
懈	-11.4208
嬰童	-11.4209
不傷	-11.421
虚無自然	-11.4211
其居	-11.4212
爲十過	-11.4214
光普照	-11.4214
公主	-11.4217
達道	-11.422
宿世	-11.4225
望見	-11.4227
高明	-11.423
俱忘	-11.423
楊君	-11.4231
九色之	-11.4238
於其間	-11.4239
旣至	-11.4239
天地之氣	-11.424
大悲	-11.4241
兵法	-11.4242
大洞仙經	-11.4242
願垂	-11.4243
天德	-11.4243
執持	-11.4244
散亂	-11.4245
玄極	-11.4245
受形	-11.4246
陰魄	-11.4248
九晨	-11.4249
三元八節	-11.4252
邑人	-11.4252
地根	-11.4253
善縁	-11.4257
方位	-11.4258
之頃	-11.4259
開發	-11.4261
須得	-11.4261
五方五帝	-11.4262
誅斬	-11.4263
神王長生大聖无量度人北方无極	-11.4264
大赤天	-11.4265
所學	-11.4265
回風	-11.4266
異日	-11.4266
至眞大神	-11.4266
幽精	-11.427
八海	-11.4271
得知	-11.4274
妖邪	-11.4275
既分	-11.4275
形貌	-11.4276
九丹	-11.4278
汝能	-11.4279
諸塵	-11.4281
右轉	-11.4281
養形	-11.4282
萬帝	-11.4285
不了	-11.4286
律令敕	-11.4286
身相	-11.4287
志心朝禮	-11.4291
引入	-11.4291
十有二	-11.4293
嘗以	-11.4295
黄紙朱書	-11.4296
一同	-11.4296
迦	-11.43
當爲汝	-11.4301
本體	-11.4306
煅	-11.4307
宿業	-11.4309
袪	-11.4312
天地之中	-11.4314
不念	-11.4314
河南	-11.4314
斲	-11.4314
筒	-11.4315
胎中	-11.4316
行此道	-11.4316
敬奉	-11.4317
忒	-11.4318
搗	-11.4319
諸家	-11.4319
閟	-11.4319
之憂	-11.4319
長一丈	-11.4319
天垂	-11.4319
頰	-11.432
臟腑	-11.432
巔	-11.4321
燮	-11.4321
元符萬寧宫	-11.4321
瘴	-11.4322
欵	-11.4322
刹	-11.4322
屑	-11.4322
閤	-11.4323
開明三景是爲天根	-11.4324
瀛洲	-11.4324
廡	-11.4324
太乙元精	-11.4324
暄	-11.4324
饑渴	-11.4324
陰中之陽	-11.4325
覔	-11.4325
僕射	-11.4326
帙	-11.4326
裸	-11.4326
淹	-11.4326
取諸	-11.4327
括蒼	-11.4327
白日飛昇	-11.4327
曇誓天	-11.4327
宋徽宗	-11.4327
捷徑	-11.4327
紱	-11.4327
勇猛	-11.4328
東向叩齒三十二通上聞三十二天心拜	-11.4328
嬰孩	-11.4328
一陽來復	-11.4328
梟	-11.4328
凛	-11.4328
煖	-11.4328
舄	-11.4328
儵	-11.4328
漕	-11.4328
歆	-11.4329
偷盜	-11.4329
聴	-11.433
干戈	-11.433
道言此諸天中大梵隱語无量之音舊文	-11.433
舛	-11.433
琅函	-11.433
三官九署	-11.433
十徧周竟十方无極	-11.4331
讃嘆	-11.4331
隱文	-11.4331
雉	-11.4332
降眞延壽	-11.4332
元洞玉曆	-11.4332
儛	-11.4333
瀛	-11.4333
恍恍惚惚	-11.4334
𥿄	-11.4334
水火交	-11.4335
淑眞曰	-11.4335
洞天福地	-11.4335
濟生度死	-11.4335
肌肉	-11.4335
己亥	-11.4335
嶽瀆	-11.4335
其他	-11.4336
鼻息	-11.4336
蹙	-11.4336
愕	-11.4336
大量玄玄	-11.4336
殺戮	-11.4336
辛勤	-11.4337
撮	-11.4337
仗劍	-11.4338
塑	-11.4338
長九寸	-11.4338
不死之道	-11.4338
金匱	-11.4339
摸	-11.4339
曠劫	-11.4339
五土	-11.434
下剋上	-11.434
六尺	-11.434
乙卯	-11.4341
達磨	-11.4341
兵革	-11.4342
昺	-11.4342
哀憫	-11.4342
腸胃	-11.4342
愔	-11.4343
把握	-11.4344
檢察	-11.4345
上丹田	-11.4346
无文不	-11.4346
一意	-11.4347
項負	-11.4347
壇場	-11.4348
肺中	-11.4349
化應聲天	-11.4352
六十甲子	-11.4353
篇云	-11.4353
奔走	-11.4353
視之不見	-11.4353
懴謝	-11.4354
扶衰	-11.4356
邵陽	-11.4356
古文	-11.4356
賔客	-11.4356
末學	-11.4357
既已	-11.4358
召萬神	-11.436
大丈夫	-11.436
誡者不得	-11.4361
般運	-11.4361
邪怪	-11.4362
本元	-11.4362
神燈	-11.4363
感而	-11.4363
次日	-11.4363
朱光	-11.4363
瓊樓	-11.4364
丹青	-11.4366
始青天中	-11.4368
大成	-11.4374
眞詮	-11.4376
若有一人	-11.4377
康寧	-11.4377
淨水	-11.4378
兩箇	-11.438
同天地	-11.4381
修奉	-11.4381
青山	-11.4381
紫精	-11.4382
在丹田	-11.4383
散禍	-11.4383
太公	-11.4385
全形	-11.4385
實腹	-11.4387
召將	-11.4389
遊行三界	-11.4391
率土	-11.4391
元初	-11.4391
色相	-11.4391
滅爽	-11.4392
百川	-11.4394
混俗	-11.4395
道院	-11.4396
口誦	-11.4402
後序	-11.4404
中部	-11.4405
宛然	-11.4405
也大洞	-11.4406
右四	-11.4406
九土	-11.4409
遍照	-11.441
要言	-11.441
恍然	-11.441
寒泉	-11.4414
蠻雷	-11.4415
歸心	-11.4415
養成	-11.4416
上明	-11.4417
勞神	-11.4419
内院	-11.4419
白銀	-11.4419
本有	-11.4425
初弦	-11.4427
純隂	-11.4427
玄英	-11.4428
祈求	-11.4432
寥寥	-11.4433
青霄	-11.4433
西京	-11.4437
便可	-11.4438
所犯	-11.444
壇所	-11.444
北炁	-11.444
嘗爲	-11.4442
往復	-11.4443
養就	-11.4447
豈無	-11.4447
勸君	-11.4447
四景	-11.4448
忽一日	-11.4449
窮極	-11.4449
執簡	-11.4449
母子	-11.445
我獨	-11.445
飛鳥	-11.4451
兩卦	-11.4452
江左	-11.4453
雷平	-11.4453
異常	-11.4454
卯文	-11.4454
房中	-11.4455
處世	-11.4457
其初	-11.4457
歷年	-11.4459
妙極	-11.446
濟生	-11.4465
返魂	-11.4466
所適	-11.4469
后妃	-11.4469
通徹	-11.447
故氣	-11.4472
成子	-11.4474
見之者	-11.4477
年五月	-11.448
當存	-11.4486
而言曰	-11.4486
無疑	-11.4489
願賜	-11.4492
經史	-11.4493
青龍白虎朱雀玄武	-11.4493
坤爲	-11.4494
與世	-11.4495
可知矣	-11.4495
微呪曰	-11.4496
四座	-11.4496
髙玄	-11.4501
可期	-11.4505
水流	-11.4505
福及	-11.4507
情欲	-11.451
文子	-11.4511
聽命	-11.4513
回頭	-11.4515
南面	-11.4518
皇人曰夫	-11.4519
用力	-11.4519
演教	-11.4521
回首	-11.4522
溪山	-11.4524
變遷	-11.4524
玉靈	-11.4525
二十四炁	-11.4526
薛幽棲	-11.4527
絶念	-11.4528
開示	-11.4531
成大藥	-11.4533
之都	-11.4534
鬼王	-11.4534
駕景	-11.4535
照見	-11.4537
鼻中	-11.4538
召攝	-11.454
原赦	-11.4541
從善	-11.4543
開元中	-11.4544
妄傳	-11.4544
受化	-11.4545
靈靈	-11.4547
數月	-11.4548
少時	-11.4549
法藏	-11.4556
難成	-11.4557
刺史	-11.4557
如春	-11.4561
莫敢	-11.4564
辭以	-11.4566
夜行	-11.4567
了然	-11.457
山上有	-11.4572
百鬼	-11.4573
一里	-11.4575
之威	-11.4575
王道	-11.4575
千劫	-11.4577
天章	-11.4577
舉家	-11.4577
苦志	-11.4578
雖得	-11.4579
妙果	-11.4581
忘情	-11.4583
亦由	-11.4584
邪道	-11.4587
信受	-11.4587
口授	-11.4588
旋轉	-11.4588
乗風	-11.4588
超登	-11.4588
龍頭	-11.4588
積日	-11.4589
方悟	-11.4589
玄明洞淵	-11.4591
問曰何謂	-11.4591
太極宫	-11.4593
七八	-11.4595
三十七	-11.46
鍊金丹	-11.4604
所屬	-11.4606
難名	-11.4607
明霞	-11.4609
爲地仙	-11.461
予乃	-11.4613
風塵	-11.4614
天癸	-11.4615
五十年	-11.4616
曲江	-11.4617
上清境	-11.4618
名之曰	-11.4622
或於	-11.4623
第三十	-11.4625
數盡	-11.4628
獄中	-11.4628
左足	-11.4631
之至謹	-11.4631
十一日	-11.4633
木木	-11.4634
智力	-11.4635
紅光	-11.4638
九霞	-11.4642
志在	-11.4642
爲宗	-11.4643
其源	-11.4647
敬信	-11.4647
度天人	-11.4648
天獄	-11.4648
至私	-11.4648
未備	-11.4651
人之有	-11.4651
不伏	-11.4653
太玄都	-11.4657
相會	-11.4658
輟	-11.4658
二爻	-11.4658
九尺	-11.4659
無成	-11.4659
高人	-11.4663
削罪	-11.4663
初學	-11.4666
幻化	-11.4675
人見之	-11.4676
目視	-11.4677
歷世眞仙體道通鑑	-11.4682
相親	-11.4683
同義	-11.4688
闓	-11.4693
向東	-11.4694
石室中	-11.4695
踊	-11.4697
踪	-11.4697
隨之	-11.4697
東宫	-11.4698
圈	-11.4699
蒼梧	-11.4699
嶷	-11.47
雷公電母	-11.47
礬	-11.47
三秀	-11.4701
籬	-11.4701
什	-11.4701
某誠感誠慶頓首頓首再拜上言	-11.4702
九夜	-11.4702
遵行	-11.4703
漲	-11.4704
顙	-11.4704
茨	-11.4704
蕪	-11.4705
梧桐	-11.4705
釀	-11.4706
摽	-11.4706
張子房	-11.4706
圖籙	-11.4706
鞋	-11.4706
咳	-11.4707
勦	-11.4707
巓	-11.4707
紗	-11.4708
嵐	-11.4708
各三十六人關啓所言今日吉慶長齋清	-11.4709
壬寅	-11.4709
火急奉行	-11.4709
鐶	-11.471
圗	-11.471
黄帝陰符經注	-11.471
諸行	-11.471
碩	-11.4711
謁帝	-11.4711
交姤	-11.4711
疰	-11.4712
未嘗有	-11.4712
搆	-11.4712
腫	-11.4712
辤	-11.4712
湛湛	-11.4713
娑訶	-11.4713
爲上世亡魂斷地逮役度上南宫	-11.4713
庠	-11.4713
衾	-11.4713
琅玕	-11.4713
孝芒天	-11.4714
水火既濟	-11.4714
茗	-11.4714
合而爲一	-11.4714
腴	-11.4714
卉	-11.4714
若亡若存	-11.4714
恩生於害害生於恩	-11.4714
盱	-11.4715
艱難	-11.4715
鉅	-11.4715
懺	-11.4716
開明三景	-11.4716
倏歘之間寂無遺響是時天人遇值經法	-11.4716
畧	-11.4716
些兒	-11.4716
師友命過	-11.4716
鄂	-11.4716
天將	-11.4716
塗炭	-11.4716
鏤	-11.4716
軰	-11.4716
懲	-11.4716
謹爲拜章一通上聞三天伏望	-11.4716
耐	-11.4717
壬午	-11.4717
鷹	-11.4717
煌煌	-11.4717
作是念	-11.4718
陽九百六	-11.4718
縹緲	-11.4718
祁	-11.4718
崇禧觀	-11.4718
北山	-11.4719
隂景	-11.4719
飛行鼓從	-11.4719
東方甲乙	-11.4719
潢	-11.472
皇曽天	-11.472
貧乏	-11.472
梏	-11.472
唐玄宗	-11.472
夏禹	-11.472
秦始皇	-11.4721
駟	-11.4722
鍾吕	-11.4722
太一救苦天尊	-11.4722
迮	-11.4723
戊申	-11.4725
周天火候	-11.4726
策杖	-11.4727
充塞	-11.4728
雷光	-11.4729
徙居	-11.473
無量無邊	-11.4731
迄今	-11.4732
烟霞	-11.4732
祭酒	-11.4732
魏夫人	-11.4732
安排	-11.4733
召十方	-11.4733
斤兩	-11.4733
博士	-11.4733
歌詠	-11.4734
困苦	-11.4734
既無	-11.4737
奔馳	-11.4738
戊巳	-11.4738
便門	-11.4738
激切	-11.4738
先天一炁	-11.4739
无鞅	-11.4739
飢寒	-11.474
芝田	-11.4741
汝可	-11.4741
仙宗	-11.4743
採訪	-11.4744
都督	-11.4744
束送	-11.4745
平安	-11.4746
急召	-11.4748
年限	-11.4749
却死	-11.4749
二十餘年	-11.475
送之	-11.475
塵沙	-11.475
特垂	-11.4751
罪惡	-11.4753
者謂之	-11.4755
欣慶	-11.4755
香湯	-11.4755
受業	-11.4756
六十四字	-11.4756
无量大神	-11.4756
勿使	-11.4757
求法	-11.4761
端嚴	-11.4763
訪之	-11.4763
隱藏	-11.4764
敷陳	-11.4764
返覆	-11.4764
无上玄元太上道君召	-11.4767
希夷先生	-11.4767
散髮	-11.4767
大略	-11.4768
見功	-11.4769
盗萬物	-11.4769
未然	-11.4769
光透	-11.477
炎火	-11.4773
經歷	-11.4773
陽升	-11.4774
周公	-11.4774
仙化	-11.4774
三性	-11.4775
髙奔	-11.4776
强名曰	-11.4776
雙關	-11.4776
一切神靈	-11.4778
者人之	-11.4779
通光	-11.478
聞說	-11.4781
萬八千	-11.4782
雨澤	-11.4783
六十日	-11.4784
紅鉛	-11.4785
牛頭	-11.4785
申酉	-11.4785
李氏	-11.4788
宴坐	-11.4788
因循	-11.4789
金馬	-11.4791
歲餘	-11.4791
入海	-11.4795
外來	-11.4797
所貴	-11.4797
人禀	-11.4801
瓊華	-11.4802
乾宫	-11.4802
雲芽	-11.4804
孝子	-11.4804
一陰生	-11.4806
咸寧	-11.4807
無縁	-11.4809
雷部	-11.481
仰望	-11.4812
宗壇	-11.4813
高奔	-11.4814
一爻	-11.4814
留心	-11.4819
三拜	-11.482
指迷	-11.4822
八角	-11.4823
還歸	-11.4823
未曾	-11.4824
五百年	-11.4827
自然之炁	-11.4827
道言凡誦是經十過諸天齊到	-11.4827
嘯歌	-11.4828
回向	-11.4828
以資	-11.4831
大都	-11.4832
也上陽子曰	-11.4833
續命	-11.4834
遂得	-11.4835
難知	-11.4837
觀之則	-11.4841
黒書	-11.4844
玉策	-11.4845
政事	-11.4846
在位	-11.4846
傾光	-11.4846
凡軀	-11.4846
心鏡	-11.4848
朔旦	-11.4848
四轉	-11.4848
生身受度劫劫長存隨劫輪轉與天齊年	-11.4848
兩忘	-11.4849
舊科	-11.4849
縣官	-11.4853
夜月	-11.4854
難窮	-11.4855
獅子白鶴羅列左右日月照明洞煥室内	-11.4855
登州	-11.4856
何其	-11.4856
咸皆	-11.4857
救物	-11.4858
去離	-11.4861
光徹	-11.4861
即使	-11.4861
黄鶴	-11.4862
羽服	-11.4862
清閑	-11.4863
三十二人	-11.4863
三茅君	-11.4864
水雷	-11.4867
長房	-11.4873
勿食	-11.4874
三百年	-11.4874
萬重	-11.4874
水晶	-11.4876
良曰	-11.4876
百事	-11.488
敕符呪曰	-11.4887
或遇	-11.4889
萬境	-11.489
諸天上帝	-11.4891
所宜	-11.4891
難尋	-11.4895
家家	-11.4895
死氣	-11.4898
滿足	-11.4899
赤面	-11.4899
日夕	-11.4899
大理	-11.4899
天尊說經	-11.49
黄氣	-11.4902
火煉	-11.4902
返眞	-11.4903
者即以	-11.4903
告之曰	-11.4904
朔望	-11.4904
大帝曰	-11.4905
重華	-11.4907
山東	-11.4909
炁所化	-11.491
人神	-11.491
予謂	-11.491
玄司	-11.4913
劉公	-11.4913
傳記	-11.4916
求師	-11.4917
天中之天	-11.4918
四氣	-11.4918
三載	-11.4921
武夷山	-11.4921
不畏	-11.4924
將帥	-11.4927
聲聞	-11.4928
命籍	-11.4929
度死	-11.4929
說與	-11.493
震靈	-11.4932
内鍊	-11.4937
主司	-11.494
十有三	-11.4942
交通	-11.4945
焚身	-11.4946
獨處	-11.4946
煉魂	-11.4947
百餘人	-11.4948
定籍	-11.495
所居之	-11.495
不煩	-11.4951
一百四十	-11.4952
外求	-11.4952
泄漏	-11.4954
超三界	-11.4957
龍虎交	-11.4959
不可名	-11.4959
師曰凡	-11.4961
可教	-11.4968
横天	-11.4975
是名眞	-11.4977
祥瑞	-11.4979
四靈	-11.4982
家門	-11.4983
遠離	-11.4986
侍立	-11.4988
三陰	-11.4988
恒山	-11.4994
丹經云	-11.4998
皆須	-11.4999
一吸	-11.5002
不語	-11.5005
待時	-11.5006
吹之	-11.5006
日午時	-11.5007
遂至	-11.5009
室之中	-11.5012
一國地土山川林木緬平一等無復髙下	-11.5012
醮謝	-11.5014
後從	-11.5018
與天相	-11.502
伏虎	-11.5025
右七	-11.5029
黃書	-11.5031
尚未	-11.5032
北隂	-11.5034
之根也	-11.5034
顯現	-11.5037
進修	-11.504
滅魔	-11.5046
如水	-11.5047
之體也	-11.5052
送迎	-11.5053
福地仙官聖衆	-11.5058
仍以	-11.5059
九河	-11.5059
雲軿	-11.5059
落死	-11.5067
葆	-11.5072
道一曰	-11.5073
世人受誦則	-11.5074
三遍	-11.5074
除穢	-11.5075
隨劫	-11.5076
發願	-11.5079
並同	-11.5079
寳蓋	-11.5079
攝伏	-11.5086
善惡之	-11.5088
臺上	-11.509
有限	-11.509
宫府	-11.5091
文登	-11.5092
也若夫	-11.5094
威猛	-11.5098
珪	-11.5099
脅	-11.5099
湍	-11.51
進道	-11.51
义	-11.51
凈	-11.51
鎚	-11.51
砌	-11.5102
拽	-11.5104
彷彿	-11.5104
齊并	-11.5104
葬之	-11.5105
拉	-11.5105
訊	-11.5106
正陽之氣	-11.5106
捫	-11.5106
藤	-11.5106
謹據齋意	-11.5106
本命之日誦詠是經	-11.5107
姝	-11.5107
撲	-11.5107
宗飄天	-11.5108
毗陵	-11.5108
戢	-11.5108
無中生有	-11.5108
逵	-11.5108
乂	-11.5109
性有巧拙可以伏藏	-11.5109
赤明和陽天	-11.5109
灰燼	-11.511
元封	-11.511
者何也鍾曰	-11.511
傘	-11.5111
曄	-11.5111
殂	-11.5111
噬	-11.5112
峨峨	-11.5112
繳	-11.5112
生者死之根死者生之根	-11.5112
鳧	-11.5113
猴	-11.5113
蠟	-11.5113
畝	-11.5113
𣗳	-11.5113
寮	-11.5113
金書祕于天之	-11.5113
至期	-11.5113
𡜍	-11.5113
章第二十	-11.5114
妙通	-11.5114
斫	-11.5114
貝	-11.5115
𡨚仇	-11.5115
徉	-11.5116
萬壽宫	-11.5116
劉海蟾	-11.5116
鍳	-11.5116
鍼	-11.5116
眇眇億劫	-11.5116
大修行人	-11.5117
販	-11.5117
高上玉皇	-11.5117
碍	-11.5117
儲祥	-11.5117
出有入無	-11.5117
滂	-11.5117
保制劫運使天長存	-11.5118
悴	-11.5118
姊	-11.5118
枯朽	-11.5118
女仙	-11.512
盛而	-11.512
洞陽之宫	-11.512
悚	-11.512
飛行太空	-11.5121
急急如玉清上帝律令	-11.5121
体	-11.5121
脣	-11.5122
山魈	-11.5122
琅琅	-11.5123
辛酉	-11.5123
帽	-11.5123
氛穢	-11.5125
凾	-11.5125
廽	-11.5125
孺子	-11.5125
壬申	-11.5125
七徧	-11.5125
纒綿	-11.5125
考掠	-11.5127
實非	-11.5128
讃揚	-11.5128
極風天	-11.5128
奉道之士	-11.5129
黑煞	-11.513
嗣續	-11.513
棲眞	-11.513
晨夕	-11.5132
暫停	-11.5132
衆妙門	-11.5133
出焉	-11.5133
得其眞	-11.5133
丙辰	-11.5134
正日時	-11.5134
殊途	-11.5136
五千文	-11.5136
其中有精	-11.5137
畢即	-11.5137
海内	-11.5139
祕法	-11.5139
噀水	-11.5139
善明童子	-11.514
皇道	-11.5141
積年	-11.5141
浮生	-11.5142
花開	-11.5143
厄大聖北斗七元君能解	-11.5143
齋法	-11.5145
委曲	-11.5145
刀利	-11.5146
陰陽二炁	-11.5149
瞻禮	-11.5149
結形	-11.515
好生君	-11.5151
戊土	-11.5154
司禄	-11.5154
累世	-11.5154
齎持	-11.5154
帝問	-11.5155
迷津	-11.5156
謂人曰	-11.5157
震巽	-11.5159
上造	-11.516
元始即於	-11.516
閬風	-11.516
其命	-11.5161
歷歷	-11.5162
霄漢	-11.5162
勿失	-11.5164
遥唱	-11.5166
代謝	-11.5166
以左手	-11.5167
入意	-11.5167
最尊	-11.5167
中夜	-11.5169
一壺	-11.5171
森然	-11.5171
三宮	-11.5171
未審	-11.5172
兆庶	-11.5172
畢又	-11.5173
祕諱	-11.5173
坎卦	-11.5174
合璧	-11.5174
紅塵	-11.5175
天帝覺	-11.5175
鶴唳	-11.5175
紅霞	-11.5177
神劍	-11.5178
解穢	-11.5181
以無爲	-11.5182
奏告	-11.5184
伏龍	-11.5185
又從	-11.5186
厥後	-11.5187
方見	-11.5187
分判	-11.5188
五緯	-11.519
幽䰟	-11.5191
與天同	-11.5191
棄家	-11.5193
回顧	-11.5193
石景	-11.5194
崑山	-11.5197
今日日辰	-11.5198
老翁	-11.5199
由來	-11.5202
救治	-11.5205
而成丹	-11.5206
也炁者	-11.5207
空洞之中	-11.5211
隱居云	-11.5212
深逺	-11.5215
妙感	-11.5216
吾始	-11.5218
于今	-11.5218
樹下	-11.5223
謝曰	-11.5224
五丈	-11.5224
知之者	-11.5225
虚皇天尊	-11.5225
無蹤	-11.5226
色欲	-11.5226
南方三炁	-11.5227
冥司	-11.5227
淨室	-11.5228
者水也	-11.5228
俄有	-11.5229
而視之	-11.523
酒果	-11.5231
泰華	-11.5233
逃形	-11.5236
眼根	-11.5237
旺於	-11.5238
天香	-11.5239
五芝	-11.524
斗訣	-11.5241
腦中	-11.5244
變形	-11.5244
八公	-11.5248
爾乃	-11.5248
寒夜	-11.525
開泰	-11.5251
四炁	-11.5254
請雨	-11.5254
眞僞	-11.5254
福庭	-11.5255
神官	-11.5257
殃及	-11.5259
眉山	-11.5259
元父	-11.5263
不負	-11.5268
西蜀	-11.527
賜福	-11.5274
呼曰	-11.5276
在手	-11.5281
到頭	-11.5287
金翁	-11.5287
得其道	-11.5288
陸地	-11.5289
斷滅	-11.5291
不論	-11.5291
遵承	-11.5297
下篇	-11.5299
諸魔	-11.5299
禪師	-11.53
散煙	-11.5302
瓊花	-11.5304
聖恩	-11.5306
靈旛	-11.5307
呼風	-11.531
而況	-11.5313
妄語	-11.5324
非世間	-11.5325
香符	-11.5325
火力	-11.5326
病苦	-11.5327
青林	-11.5327
玄樞	-11.5329
遇異人	-11.533
八節日	-11.5331
千百	-11.5332
六位	-11.5334
名香	-11.5335
五丁	-11.5336
可學	-11.5336
髙元	-11.5341
苦行	-11.5342
山石	-11.5346
未了	-11.5347
雖云	-11.5349
千靈	-11.5351
玉户	-11.5352
絳衣	-11.5353
玉壺	-11.5354
幽泉	-11.5358
威震	-11.5358
二十二日	-11.5359
蜀人	-11.536
齋日	-11.5361
一丸	-11.5364
一葉	-11.5368
復告	-11.5369
吿行	-11.5376
句曲山	-11.5376
取象	-11.5376
奉承	-11.5377
一百二十人	-11.538
野人	-11.5382
中宮	-11.5383
忽遇	-11.5384
主生死	-11.5384
大神呪	-11.5389
貴乎	-11.5392
祈福	-11.5395
氣聚	-11.5402
上表	-11.5402
肺氣	-11.5402
此之謂	-11.5403
六轉	-11.5403
今來	-11.5404
復連	-11.5404
千四百	-11.5407
中指中文	-11.5407
天篆	-11.5409
赤水	-11.5409
下關	-11.541
火焰	-11.5413
世人多	-11.5415
之異名	-11.5415
修眞之	-11.5415
但得	-11.5418
不被	-11.5422
諸大衆	-11.5422
非類	-11.5424
簿録	-11.5424
凡俗	-11.5426
不期	-11.5428
幽獄	-11.5437
青素	-11.5437
不能盡	-11.544
廣成	-11.5441
剛柔相	-11.5444
右足	-11.5444
相感	-11.5446
十有四	-11.5446
避之	-11.5447
異端	-11.545
後漢	-11.5454
通變	-11.5455
曰朕	-11.5464
此經微妙普度	-11.5464
都畢	-11.5467
仁壽	-11.5469
衆星	-11.547
玉庭	-11.5471
今將	-11.5474
五德	-11.5475
苟有	-11.5476
周君	-11.5477
老死	-11.5478
洞光	-11.5488
已來	-11.549
某日	-11.5492
是時天尊	-11.5492
識破	-11.5493
以居之	-11.5497
二炁交	-11.5497
玉樹	-11.5498
某事	-11.55
二弦	-11.5501
保劫	-11.5501
不着	-11.5501
再來	-11.5502
笥	-11.5506
宫參校曰别本註云帝主	-11.5507
火星守	-11.5507
琰	-11.5511
繫縛	-11.5513
近世	-11.5514
慨	-11.5516
卞	-11.5517
丹頭	-11.5517
承誥奉行	-11.5517
无英公子	-11.5518
哆	-11.5518
臧	-11.5519
手握	-11.5519
堯舜	-11.5519
天上地下	-11.5519
譏	-11.552
弁	-11.552
蔬	-11.552
繆	-11.5521
右一條	-11.5521
梢	-11.5522
孜孜	-11.5522
㖿	-11.5522
天政	-11.5522
燃	-11.5522
趙丞	-11.5522
覿	-11.5523
𠂻	-11.5523
濬	-11.5523
甯	-11.5523
窅	-11.5524
瀹	-11.5524
一乘海空寳藏	-11.5524
舟楫	-11.5525
三皇内文	-11.5525
鞠	-11.5525
嬌	-11.5525
顓頊	-11.5526
黄籙院	-11.5526
嶮	-11.5526
无量度人上品妙經卷之	-11.5526
犢	-11.5526
虚室生白	-11.5527
提挈	-11.5527
麈	-11.5527
燒香誦經十過皆諸天記名萬神侍衛	-11.5527
瑰	-11.5527
湊	-11.5528
厖	-11.5528
騾	-11.5528
躅	-11.5529
癸酉	-11.5529
彬	-11.5529
端靖天	-11.5529
少微曰此八字	-11.5529
璈	-11.5529
帆	-11.553
瑤	-11.553
贍	-11.553
丙戌	-11.553
元始祖劫化生諸天	-11.5531
天之至私用之至公	-11.5531
龕	-11.5531
松栢	-11.5531
遼廓	-11.5531
旋斗歷箕	-11.5531
賄	-11.5531
茭龍	-11.5531
說經三徧西方无極无量品	-11.5531
崐	-11.5531
趍	-11.5531
說經二徧南方无極无量品	-11.5531
一向	-11.5531
檐	-11.5532
荅	-11.5532
淋	-11.5532
喻人	-11.5532
㓂	-11.5532
朽骸	-11.5532
拾遺	-11.5533
西山記曰	-11.5533
玄元始三炁	-11.5533
繚繞	-11.5533
乙酉	-11.5533
舫	-11.5533
一點眞陽	-11.5533
栁	-11.5534
鎻	-11.5534
箇箇	-11.5534
火生於木	-11.5534
惕	-11.5534
臣衆等志心皈命	-11.5535
諶	-11.5535
驥	-11.5535
侍衛送迎	-11.5535
倐忽	-11.5535
端拱	-11.5535
二寸	-11.5536
然後而付焉道言夫	-11.5536
疑網	-11.5536
江由天	-11.5537
太𡻕	-11.5537
臉	-11.5537
玲瓏	-11.5537
惶懼	-11.5538
炊	-11.5538
刄	-11.5538
振響	-11.5538
贅	-11.5538
玉完天	-11.5539
殷勤	-11.5539
飲刀圭	-11.5539
煥赫	-11.5539
汝等徒衆	-11.554
遊行太空	-11.554
追魂使者	-11.5541
潯	-11.5541
煑	-11.5542
峨嵋山	-11.5543
臣道一曰	-11.5543
律吕	-11.5544
學仙者	-11.5544
明朗	-11.5544
轉誦	-11.5546
相投	-11.5546
欽崇	-11.5546
大慈大悲	-11.5547
尚存	-11.5547
𡻕	-11.5548
身有光明	-11.5548
五行顛倒	-11.555
道言夫	-11.5551
巨細	-11.5551
諦觀	-11.5553
米貴	-11.5556
帥班	-11.5556
阿丘	-11.5559
須憑	-11.556
再念	-11.5561
所以能	-11.5563
飛步	-11.5563
尋訪	-11.5563
上學之士	-11.5563
洪波	-11.5565
言無韻麗曲無華宛故謂玄奥難可尋詳	-11.5565
策役	-11.5566
延祐	-11.5566
聚則	-11.5568
皂衣	-11.5568
散景	-11.5569
度人无量	-11.5569
群迷	-11.5569
琳宫	-11.5569
易邈	-11.5569
寶珠	-11.557
也此二字書	-11.5571
通玄究微	-11.5572
復降	-11.5573
皈命	-11.5574
造惡	-11.5574
凡骨	-11.5574
用黄紙	-11.5575
者以其	-11.5575
數丈	-11.5575
洞賓	-11.5576
妙㫖	-11.5576
未曽	-11.5576
玉印	-11.5577
堅剛	-11.5577
光澤	-11.5579
煥落	-11.5579
茂實	-11.5581
無量劫	-11.5581
玄教	-11.5581
本命日	-11.5582
得成道	-11.5583
吾師	-11.5583
慧眼	-11.5583
用黄紙朱書	-11.5584
曰卿	-11.5584
宰相	-11.5588
寳誥	-11.5588
神芝	-11.5589
三十四	-11.5591
以杖	-11.5593
歲在	-11.5594
炎上	-11.5594
賦詩	-11.5594
密呪曰	-11.5595
帝圖	-11.5596
常修	-11.5596
道言正月長齋誦詠是經	-11.5596
昇騰	-11.5598
縣令	-11.5598
青鸞	-11.5599
金庭	-11.56
斗魁	-11.56
明梵	-11.5601
辭去	-11.5601
慈愛	-11.5606
囊中	-11.5607
達士	-11.5608
懷胎	-11.5609
命侍女	-11.5609
南陵	-11.5612
許眞君	-11.5612
足履	-11.5616
清虛	-11.5618
改易	-11.5618
丁公	-11.5619
勸人	-11.562
神翁	-11.5621
泄天機	-11.5621
至亥	-11.5622
數萬	-11.5623
玉册	-11.5623
元元之	-11.5624
右府	-11.5628
得免	-11.5629
棄官	-11.5629
昭示	-11.5629
篇目	-11.563
緑羅	-11.563
辛未	-11.5631
舊隱	-11.5631
符籍	-11.5634
奏請	-11.5634
畫夜	-11.5637
下賤	-11.564
調理	-11.5644
太一元君	-11.5646
上京	-11.5651
二百四十	-11.5653
不遵	-11.5654
太冥	-11.5654
眞種子	-11.5654
乾象	-11.5659
亦如是	-11.5659
啓奏	-11.566
金丹大道	-11.5661
必假	-11.5661
靈妃	-11.5661
致福	-11.5664
並用	-11.5665
華嶽	-11.5666
大笑	-11.5666
窮魂	-11.5667
小大	-11.5674
於空中	-11.5674
形軀	-11.5674
說經八徧西北无極无量品	-11.5679
慶會	-11.568
滿空	-11.5683
二郎	-11.5686
獨坐	-11.5687
邵子	-11.5687
妙範	-11.5689
自由	-11.569
所宗	-11.5692
玉石	-11.5693
奉符	-11.5694
坤母	-11.5695
日月之光	-11.5696
先世	-11.5696
度品	-11.5698
上界	-11.5699
五雷使者	-11.5701
啓告	-11.5702
千遍	-11.5703
五帝玉童玉女各二十四人營衛神文保	-11.5704
也雖然	-11.5705
驅使	-11.5706
之幡	-11.5709
屬土	-11.5712
小兆	-11.5712
呼召	-11.5712
也問曰何謂	-11.5715
言辭	-11.5718
迷途	-11.5723
三十過	-11.5723
合延	-11.5725
肺爲	-11.5725
氣象	-11.5727
預知	-11.5729
羽章	-11.573
物象	-11.5732
成熟	-11.5736
眞中有神	-11.5739
神洲	-11.5743
乎其中	-11.5743
凡流	-11.5749
上館	-11.5754
經訣	-11.5755
四時失度隂陽不調	-11.5755
玉津	-11.576
育物	-11.576
奉持	-11.5763
降致	-11.5763
永无	-11.5764
育養	-11.5766
東歸	-11.577
盡性	-11.5774
水怪	-11.5775
要須	-11.5776
皆禀	-11.5776
主帥	-11.5783
垂死	-11.5786
記曰	-11.5792
炁從兆泥丸中入兆乃口吸神雲咽津	-11.5793
帝宸	-11.5794
玉童玉女各	-11.5795
西方金	-11.5795
諸弟子	-11.5795
認得	-11.5797
川源	-11.5797
四卦	-11.5798
知汝	-11.5798
於此矣	-11.5798
兆能	-11.58
合會	-11.58
部第	-11.5801
顧謂	-11.5801
盛德	-11.5803
百步	-11.5805
毎一	-11.5806
勿忘	-11.5809
如式	-11.5821
保我	-11.5822
辰文	-11.5823
陰魔	-11.5823
甚易	-11.5824
味甘	-11.5825
祥煙	-11.5832
無拘	-11.5834
大怒	-11.5838
化現	-11.5845
流注	-11.5851
勑攝	-11.5855
泰玄	-11.5859
十絶	-11.5863
列名	-11.5864
初爻	-11.5864
文公	-11.5866
靜念	-11.587
於是元始	-11.5872
三省	-11.5873
内境	-11.5875
默然	-11.5877
東方木	-11.588
明燈	-11.588
右别	-11.5882
百物	-11.5883
又呪曰	-11.5884
飈輪	-11.5888
卿直符從官十	-11.5891
隂極	-11.5896
語默	-11.5897
他方	-11.5897
不納	-11.5898
花落	-11.5899
澄正	-11.59
呪唵	-11.5901
十餘人	-11.5902
萬歳	-11.5902
壁間	-11.5904
景福	-11.5909
墮地獄禍及七祖翁道言此二章並是	-11.5909
表奏	-11.5913
尋聲救苦	-11.5914
亥子	-11.5923
紫河車	-11.5926
饋	-11.593
丹田宫	-11.5933
涓	-11.5935
巖谷	-11.5936
引導	-11.5936
輕泄漏慢	-11.5939
舉仙	-11.5939
輕命	-11.594
幽暗	-11.594
經始出教一國以道預有至心宗奉禮敬	-11.5941
杞	-11.5941
僑	-11.5942
都司	-11.5943
瞿	-11.5945
罪録	-11.5948
通流	-11.5948
弔	-11.5949
霄度天	-11.595
承禎	-11.595
溜	-11.5951
山野	-11.5951
皷	-11.5952
大浮黎土	-11.5952
俱來	-11.5952
玄中太皇	-11.5952
峽	-11.5953
先聖	-11.5953
地二生火	-11.5954
汴	-11.5955
五賊在心	-11.5955
弛	-11.5956
昻	-11.5956
中理五炁混合百神	-11.5956
姓字	-11.5956
殽	-11.5956
坊	-11.5956
僣	-11.5956
鬱羅蕭臺	-11.5957
絢	-11.5957
翰林	-11.5957
地四生金	-11.5957
睠	-11.5957
膳	-11.5958
戶	-11.5958
胡麻	-11.5958
繿	-11.5958
樽	-11.5959
元載孔昇天	-11.5959
喜怒哀樂	-11.5959
渇	-11.5959
陽中之陰	-11.5959
茫	-11.5959
洙	-11.5959
保制劫運	-11.5959
瞋	-11.596
强兵戰勝	-11.596
神霄玉清	-11.596
品彚	-11.596
何也廣成子曰	-11.5961
涕唾	-11.5961
冥合	-11.5961
倡	-11.5961
耳目聰明	-11.5961
覧	-11.5962
時物文理	-11.5962
欒	-11.5962
優游	-11.5962
埏	-11.5962
殫	-11.5963
絪緼	-11.5963
姻	-11.5963
斟	-11.5963
嶠	-11.5963
畢引炁三十二過東向誦經元始	-11.5963
矚	-11.5963
凑	-11.5963
錯綜	-11.5963
拖	-11.5963
訂	-11.5963
違科犯	-11.5964
傭	-11.5965
腋	-11.5965
陜	-11.5965
梓潼帝君	-11.5965
馳騁	-11.5965
洋洋	-11.5966
說經四徧北方无極无量品	-11.5966
九州社令	-11.5966
爲帝王	-11.5966
天生天殺道之理也	-11.5966
付囑	-11.5967
六丁六甲	-11.5967
癸卯	-11.5967
蘊	-11.5967
一陰一陽之謂道	-11.5967
皆受護度咸得長生	-11.5967
蓬島	-11.5967
畋	-11.5967
懋	-11.5967
地藏發泄金玉露形	-11.5968
脱胎神化	-11.5968
艱辛	-11.5968
北鄷	-11.5968
乙亥	-11.5968
泝流	-11.5968
魄靈	-11.5969
渤	-11.5969
本來面目	-11.5969
赭	-11.5969
空洞靈章	-11.597
紆	-11.597
幾人	-11.597
珍奴	-11.597
刼	-11.5971
仗旛	-11.5971
道備剋得遊行三界昇入金門此音	-11.5971
恭慶天	-11.5971
攜	-11.5971
乹	-11.5971
汗漫	-11.5971
七寳林中	-11.5972
留形住世	-11.5972
是誰	-11.5972
長生大帝君	-11.5972
五十有五	-11.5972
元始祖劫	-11.5972
一切有情	-11.5972
滛	-11.5973
冊	-11.5973
昏昏	-11.5973
麾幢鼓節	-11.5973
門攝之若	-11.5973
售	-11.5973
猫	-11.5973
嬴	-11.5973
隕	-11.5974
育嬰	-11.5974
黄天魔王	-11.5975
活計	-11.5975
孔昇天	-11.5976
之類是也	-11.5976
天中之音天中之尊天中之神	-11.5976
這些	-11.5976
嵒	-11.5976
翩翩	-11.5977
嚥液	-11.5977
再拜稽首	-11.5977
這裏	-11.5978
纏綿	-11.5978
些子	-11.5979
各一拜	-11.598
官僚	-11.598
善信	-11.5981
瓊瑶	-11.5981
八騫	-11.5981
禱雨	-11.5982
緱	-11.5983
普皆	-11.5984
結就	-11.5984
絳霄	-11.5985
開朗	-11.5985
不可識	-11.5986
太玄都四極明科曰	-11.599
極瑶天	-11.599
參同契云	-11.5991
之秘	-11.5991
釗	-11.5991
何年	-11.5992
不退轉	-11.5992
爲五過	-11.5993
祠宇	-11.5993
癸巳	-11.5996
權衡	-11.5997
犯者過去受	-11.5998
監察	-11.5998
瞻望	-11.6
充盈	-11.6
甘雨	-11.6002
足躡	-11.6003
金臺	-11.6003
比喻	-11.6005
愚迷	-11.6007
隱奥	-11.6007
平常	-11.6008
致神仙	-11.6008
驚怖	-11.6009
飛行上清	-11.6011
三䰟	-11.6011
兩眉	-11.6011
東華帝君	-11.6011
推移	-11.6012
癸未	-11.6013
獄吏	-11.6013
雜類	-11.6014
山崩	-11.6015
道塲	-11.6015
太清境	-11.6016
艮卦	-11.6018
飛昇上清	-11.6018
水池	-11.6021
若有所	-11.6023
卷之六	-11.6023
無垠	-11.6024
時候	-11.6025
呪曰唵	-11.6026
色慾	-11.6028
無夢	-11.603
風浪	-11.6031
入壇	-11.6031
純乾	-11.6032
向北	-11.6034
怡然	-11.6034
陰中陽	-11.6035
養浩	-11.6035
逆順	-11.6036
調伏	-11.6037
三代	-11.604
流沙	-11.604
病患	-11.6041
泰和	-11.6041
吴郡	-11.6043
官事	-11.6044
洞景	-11.6045
絶句	-11.6049
遊乎	-11.6051
嘗聞	-11.6052
幽寂	-11.6054
無滯	-11.6056
火翳	-11.6057
虚危	-11.6059
香燈	-11.606
清虚眞人	-11.6061
相類	-11.6062
全體	-11.6063
兆形	-11.6063
氣力	-11.6064
夢覺	-11.6067
利濟	-11.6067
昭著	-11.607
規中	-11.6075
悔過	-11.6077
玉皇上帝	-11.6077
性好	-11.6079
青鳥	-11.6082
聞于	-11.6083
布氣	-11.6083
雪雹	-11.6084
三五一	-11.6084
諸縁	-11.6085
不原	-11.6086
行火候	-11.6089
身被	-11.6092
老莊	-11.6094
交映	-11.6094
毒藥	-11.6094
洞曉	-11.6094
百六十	-11.6095
清潔	-11.6096
列奏	-11.6096
召汝	-11.6097
案上	-11.6099
制魄	-11.6099
五帝直符	-11.61
此詩	-11.6102
爲朱雀	-11.6108
開關	-11.6112
盜萬物	-11.6114
飛霄	-11.6118
雪山	-11.6119
仙化成人	-11.6122
大羅天上	-11.6123
諸天記人功過毫分無失天中	-11.6123
支干	-11.6126
坤地	-11.6127
年少	-11.613
下愚	-11.6133
映照	-11.6135
洞映	-11.6135
總攝	-11.6136
患難	-11.6136
削除	-11.6137
下工	-11.6141
魚龍	-11.6141
土土	-11.6142
六律	-11.6145
諸苦惱	-11.6146
念頭	-11.6148
之門户	-11.6149
敬重	-11.6157
常服	-11.616
如人之	-11.6161
胎元	-11.6162
今日欣慶受度歷關諸天	-11.6169
應機	-11.617
素景	-11.6173
玉律	-11.6175
玄霜	-11.6175
思遠	-11.6175
萬災	-11.618
腦後	-11.6181
仙女	-11.6181
離離	-11.6183
心猿	-11.6185
五行之氣	-11.6186
同昇	-11.6188
得更生	-11.6188
冥曹	-11.6189
金堂	-11.619
十方大聖	-11.619
修建	-11.6193
神霄玉府	-11.6198
元洞天	-11.6199
何者爲	-11.6199
生津	-11.62
如此等	-11.6201
宗元	-11.6207
仍賜	-11.6211
下徹	-11.6212
樵者	-11.6213
居士	-11.6213
知足	-11.6217
吾元始	-11.6219
玄㝠	-11.622
萬壽	-11.6224
不虧	-11.6233
備守	-11.6235
之意也	-11.6237
一日忽	-11.6237
石頭	-11.6245
西極	-11.6248
不淫	-11.625
復何	-11.6258
宣德	-11.6259
神龜	-11.6261
青芽	-11.6261
面南	-11.6268
持盈	-11.6269
桃花	-11.627
秦時	-11.627
朝宗	-11.6272
不滯	-11.6274
嚥津	-11.6288
乘風	-11.629
善利	-11.629
爲道之	-11.6292
名諱	-11.6292
天真皇人	-11.6298
飛行三界	-11.6303
交遊	-11.6304
題曰	-11.6304
鍊師	-11.6307
毒蟲	-11.6309
赤衣	-11.631
雙手	-11.6312
始分	-11.6322
歌詩	-11.6322
夙有	-11.6324
大聖衆	-11.6326
年壽	-11.6327
演法	-11.6327
錬丹	-11.633
靜思	-11.6331
保固	-11.6331
火兵	-11.6338
赤明開圖運度自然	-11.6339
功業	-11.6341
爲妻	-11.6342
爻變	-11.6347
祕文	-11.635
經一卷	-11.6352
十二樓	-11.6355
侍左右	-11.6358
西遊	-11.6359
旋行	-11.6361
心懷	-11.6362
精凝	-11.6364
本位	-11.6366
來者有如	-11.6372
深妙	-11.6373
尺餘	-11.6375
三篇	-11.6379
元始无量度人上品妙經	-11.6386
所畏	-11.6387
土德	-11.6388
飛捷	-11.6391
顯然	-11.6391
泠	-11.6394
命駕	-11.6396
無傷	-11.6397
芙蓉	-11.6399
彼我	-11.6401
又問曰	-11.6403
陰陽之氣	-11.6403
於寅	-11.6406
未除	-11.6407
苞	-11.6407
廛	-11.6407
鷗	-11.6408
萍	-11.6408
所受記	-11.6408
貲	-11.6409
緜	-11.6409
眞大神上聖髙尊妙行眞人	-11.6409
牘	-11.6409
西城王君	-11.6409
菩薩	-11.641
灘	-11.641
蛙	-11.641
調燮	-11.641
兜	-11.641
也此四字書	-11.641
四字祕天之	-11.6411
兀兀	-11.6412
羶	-11.6412
别去	-11.6412
崿	-11.6412
譬諭	-11.6412
舐	-11.6412
裒	-11.6413
霓旌	-11.6413
霓裳	-11.6413
槌	-11.6414
縉雲	-11.6414
璇璣玉衡	-11.6415
蒿	-11.6415
顯定極風天	-11.6415
睦	-11.6415
巵	-11.6415
翱翔	-11.6415
宋眞宗	-11.6415
鬱單无量天	-11.6415
奕奕	-11.6415
曦	-11.6415
迅雷烈風莫不蠢然	-11.6415
噏	-11.6415
九竅之邪在乎三要可以動靜	-11.6415
腠	-11.6415
嘯歌噰噰	-11.6416
銳	-11.6416
彗	-11.6416
魂神澄正萬炁長存不經苦惱身有光明	-11.6416
幄	-11.6417
中有南上司命司録延壽益筭度厄尊神	-11.6417
朋友	-11.6417
隱韻離合自然	-11.6417
薫	-11.6417
降眞召靈	-11.6418
竄	-11.6418
說經都竟衆真監度以授於我當此之時	-11.6418
瑟	-11.6418
碁	-11.6418
賑	-11.6418
閽	-11.6418
南宮延生	-11.6419
婺	-11.6419
早晚	-11.6419
萬彙	-11.6419
兎	-11.6419
叩齒七通	-11.6419
臥	-11.642
說經七徧西南无極无量品	-11.642
迤邐	-11.642
専	-11.6421
詵詵	-11.6421
杖屨	-11.6421
曵	-11.6421
岱宗	-11.6421
修丹之士	-11.6421
獰	-11.6421
晞	-11.6421
萎	-11.6421
涣	-11.6422
崢嶸	-11.6422
片餉	-11.6422
吟詠洞章	-11.6422
玉珮金璫	-11.6422
擲火萬里	-11.6422
沿	-11.6422
莫大於	-11.6423
善種大王	-11.6423
不經地獄	-11.6423
疵	-11.6424
菖蒲	-11.6424
鄞鄂	-11.6424
隨其學功計日而得更生	-11.6425
說經十徧下方无極无量品	-11.6425
峩峩	-11.6425
悠	-11.6425
壟	-11.6425
恡	-11.6425
中天真皇人曰凡修飛仙之道當以	-11.6426
朱鳳	-11.6426
媪	-11.6427
飼	-11.6427
榮辱	-11.6427
渝	-11.6428
府眞神道	-11.6428
琯	-11.6428
遊觀太空	-11.6429
盈虧	-11.6429
評	-11.6429
三五功曹	-11.6429
蓋欲	-11.6429
無上至眞	-11.6429
焼香	-11.6429
快活	-11.643
諸公	-11.643
太一含眞	-11.6431
憂惱	-11.6431
黑天魔王	-11.6431
以是之故	-11.6431
飱	-11.6432
䰟𩲸	-11.6432
祀典	-11.6433
之罪懴悔弟子或	-11.6433
蠲消	-11.6433
烈焰	-11.6433
司馬大神	-11.6434
濛濛	-11.6434
晃朗	-11.6434
永延	-11.6435
晃耀	-11.6435
皇崖天	-11.6435
男兒	-11.6435
殄滅	-11.6436
毅	-11.6436
神異	-11.6436
飛天神王下觀其身書其功勤上奏諸天	-11.6437
驅馳	-11.6437
桑林	-11.6438
開闔	-11.6438
九龍符命	-11.6438
魏伯陽	-11.6438
罪籍	-11.6438
諸靈官臣聞	-11.6439
西方七炁	-11.644
延齡	-11.644
大羅之天	-11.6441
一尺二寸	-11.6441
十方无極世界	-11.6442
日月合明	-11.6443
馘滅	-11.6443
姑射	-11.6444
歌舞	-11.6445
因緣	-11.6445
剥盡	-11.6446
垂芒	-11.6447
黃白	-11.6448
九疇	-11.6448
爲人所	-11.6448
篇東方八天	-11.6448
亦須	-11.6449
竒特	-11.645
赤松	-11.6451
己卯	-11.6452
鍛鍊	-11.6453
血肉	-11.6453
破軍	-11.6453
廓落	-11.6454
黑錫	-11.6457
日月運行	-11.6459
飛裙	-11.6459
羣品	-11.646
三十六部	-11.646
蕭臺	-11.6461
定慧	-11.6468
黑色	-11.6468
輕健	-11.6469
聞其名	-11.647
洪災	-11.6471
受戒	-11.6474
競起	-11.6474
孤魂	-11.6475
災祥	-11.6475
叅同	-11.6475
超越	-11.6476
混康	-11.6476
今某人	-11.6478
張天師	-11.6478
簡寂	-11.6484
淨戒	-11.6485
昭報	-11.6486
結廬	-11.6487
玉司	-11.6488
脫離	-11.6489
地軸	-11.649
鼎爐	-11.6494
每歲	-11.6494
勝負	-11.6495
演道	-11.6495
即愈	-11.6497
許氏	-11.6499
萬物之母	-11.6501
開廓	-11.6506
誠能	-11.6507
除滅	-11.651
萬死	-11.6511
恭華天	-11.6512
二十八日	-11.6513
鬼趣	-11.6515
謹封	-11.6515
問之曰	-11.6516
方函	-11.6517
異同	-11.6518
入腦	-11.652
煉質	-11.652
道友	-11.652
通鑑	-11.6521
鬱絶	-11.6525
思量	-11.6525
乗駕	-11.6526
絶迹	-11.6531
落魄	-11.6532
賓主	-11.6533
侍眞	-11.6533
歸家	-11.6536
詩詞	-11.6537
宣通	-11.6541
依按	-11.6541
入法門	-11.6544
花木	-11.6545
宣布	-11.6545
玉郎	-11.6546
五行之數	-11.6548
切惟	-11.6552
境土	-11.6554
設象	-11.6554
己巳	-11.6556
毎月	-11.6559
是諸衆生	-11.6559
水陸	-11.6563
水灾	-11.6563
萬殊	-11.6564
四種	-11.6565
壇庭	-11.6566
安閑	-11.6566
示衆	-11.6566
皓華	-11.6566
辟除	-11.6571
下逮	-11.6572
問答	-11.6573
窮理	-11.6576
請降	-11.6579
蜀中	-11.658
冬夏	-11.6583
乗景	-11.6585
潜藏	-11.6586
酉文	-11.6588
傳付	-11.6589
尋詳	-11.6589
内名隱韻之音亦是	-11.6592
互用	-11.6594
腹内	-11.6595
玉虛	-11.66
玉笥山	-11.6602
清爽	-11.6607
百二十曹	-11.6608
寂靜	-11.6608
離卦	-11.6617
三旬	-11.6618
飛天眞人	-11.6618
公侯	-11.662
萬姓	-11.662
十方飛天神王	-11.662
大醜	-11.6621
豈敢	-11.6622
相識	-11.6623
在何處	-11.6623
散布	-11.6631
北面	-11.6632
紫宫	-11.6632
莫教	-11.6634
卯時	-11.6634
信向	-11.6637
腎府	-11.664
耳聽	-11.664
亡過	-11.664
之樞機	-11.6642
乗光	-11.6643
洞源	-11.6644
感動	-11.6644
閑居	-11.6645
金格	-11.6646
不仕	-11.6646
已乆	-11.6648
明旦	-11.6651
通逹	-11.6658
手指	-11.6659
假名	-11.6662
分付	-11.6664
死於物	-11.6664
開眼	-11.667
淨土	-11.6676
持齋	-11.6677
生天界	-11.6681
外國	-11.6682
玉清眞王	-11.6683
念誦	-11.6687
響應	-11.6687
紙筆	-11.6687
幽隱	-11.6688
垂光	-11.6691
歷關諸天	-11.6692
召制	-11.6693
了當	-11.6694
夕陽	-11.6695
獨步	-11.6697
而後能	-11.6699
弘道	-11.6701
治天下	-11.6702
可以長生	-11.6702
逐日	-11.6702
導前	-11.6703
西北方	-11.6706
易形	-11.6708
鍊己	-11.671
於此時	-11.6713
玉宇	-11.6718
瓊室	-11.6719
焚燒	-11.6721
誦洞章	-11.6722
伏念	-11.6724
年三十	-11.6729
公孫	-11.6735
玉檢	-11.6743
士大夫	-11.6743
之生數	-11.6746
龍虎山	-11.6746
我昔	-11.6747
捨身	-11.6755
外境	-11.6756
輝映	-11.6757
動止	-11.6766
元梵	-11.6766
五尺	-11.6768
嗣宗	-11.677
甚矣	-11.6774
也吕曰	-11.6774
永存	-11.6776
皇上帝	-11.678
皆得度世道言元始天尊說經中所言	-11.6783
玄暉	-11.6786
法鼓	-11.6794
獲罪	-11.6796
所部	-11.6796
四十四	-11.6798
漢時	-11.6798
重病	-11.6799
觀察	-11.6807
一百日	-11.6815
髙虚	-11.6817
三界侍衛五帝司迎	-11.6818
入蜀	-11.6823
脾神	-11.6829
敕召	-11.6831
紀綱	-11.6835
深淵	-11.684
不可知	-11.684
隱祕之音皆是大梵之言非世上常辭	-11.6841
成還丹	-11.685
怎	-11.6853
萬神朝禮	-11.6855
鍛	-11.6855
重陽祖師	-11.6856
月八日	-11.6857
神王長生大聖无量度人	-11.686
丹就	-11.6861
騰身	-11.6862
真人志心朝禮	-11.6863
帝主兆民行是功德有災之日發心修齋	-11.687
車駕	-11.687
峯上	-11.6872
主簿	-11.6874
香華	-11.6875
攷	-11.6876
笪	-11.6876
老聃	-11.6877
閃爍	-11.6879
玄都中宫女青律文受者明慎奉行	-11.688
笠	-11.688
閼伯	-11.6881
鑾	-11.6881
管轄	-11.6882
羅公曰	-11.6882
焦枯	-11.6882
陽臺	-11.6883
亢旱	-11.6883
笳	-11.6884
縊	-11.6884
剉	-11.6884
遄	-11.6885
晤	-11.6885
福壽	-11.6885
巘	-11.6885
何縁	-11.6886
插	-11.6886
燠	-11.6886
日魂月魄	-11.6886
隘	-11.6886
悼	-11.6887
八萬四千	-11.6887
餞	-11.6888
渾淪	-11.6888
粉碎	-11.6888
以爲效信	-11.6888
堂修行至經無量度人願所啓上徹	-11.6888
一段	-11.6888
惰	-11.6888
閃電	-11.6889
罙	-11.6889
譯	-11.6889
穰	-11.6889
沮	-11.6889
騶	-11.689
乃昇此天	-11.689
睫	-11.689
犀	-11.6891
淵通元洞天	-11.6891
眞一子曰	-11.6891
蟬蜕	-11.6891
杲	-11.6891
國安民	-11.6891
天神地祇	-11.6892
皓庭霄度天	-11.6892
杳杳㝠㝠	-11.6892
盍	-11.6893
機在目	-11.6893
鉉	-11.6893
螟	-11.6893
撒	-11.6893
彎	-11.6893
呉	-11.6894
歐	-11.6894
崗	-11.6894
三界侍衞五帝司迎	-11.6894
翺翔	-11.6894
眞龍眞虎	-11.6894
神仙抱一之道	-11.6895
濵	-11.6895
鏗	-11.6895
繹	-11.6895
凝然	-11.6896
璨	-11.6896
隣	-11.6896
落滅惡根	-11.6897
安鎮國祚	-11.6897
十遍周竟十方無極	-11.6897
脱殻	-11.6897
郝	-11.6897
中天眞皇人曰修飛仙之道當以	-11.6897
說經五徧東北无極无量品	-11.6897
嫩	-11.6897
或問何謂	-11.6897
櫛	-11.6897
諶姆	-11.6897
幨	-11.6898
蚪	-11.6898
珎	-11.6898
九月九日	-11.6898
逓	-11.6898
神煞	-11.6898
狸	-11.6898
佺	-11.6898
𡖖	-11.6898
龍漢延康	-11.6899
混而爲一	-11.6899
珞	-11.6899
滚	-11.6899
聮	-11.6899
清凈	-11.6899
雞犬	-11.6899
蓊鬱	-11.6899
禆	-11.69
阮樂天	-11.69
賞罰	-11.6901
南斗上生	-11.6901
泠泠	-11.6901
蛾	-11.6901
獲福无量	-11.6902
漚	-11.6902
宿命因縁	-11.6902
闡揚	-11.6902
牲	-11.6902
吁員	-11.6902
說經九徧上方无極无量品	-11.6902
爍爍	-11.6903
承受	-11.6903
霹	-11.6903
扣頭	-11.6903
壬戌	-11.6904
不忠不孝	-11.6904
叔火王	-11.6905
敷落五篇	-11.6905
醺	-11.6906
九炁青天	-11.6907
觀復曰	-11.6907
阿奕	-11.6907
悲泣	-11.6908
拂袖	-11.6908
辛丑	-11.6908
黎庶	-11.6908
涕泣	-11.6908
白天魔王	-11.6909
嗣敎	-11.6909
泉曲之府	-11.6909
癸丑	-11.6909
瀾	-11.6909
趾	-11.691
以是義故	-11.691
勘破	-11.691
序云	-11.691
風火無停	-11.691
韜光	-11.6911
提携	-11.6911
五氣朝元	-11.6912
兖	-11.6913
粧	-11.6913
玉篇東方八天	-11.6913
披髮	-11.6913
無生無滅	-11.6913
歸妹	-11.6914
充溢	-11.6914
燒灰	-11.6915
陰陽二氣	-11.6915
殗	-11.6916
桑田	-11.6916
觀天之道	-11.6916
庻	-11.6917
扶桑大帝	-11.6918
貪慾	-11.6919
牛羊	-11.6919
傾危	-11.6922
干試	-11.6922
隠語	-11.6925
獄卒	-11.6925
棲霞	-11.6927
三天門下	-11.6929
秀才	-11.693
隄防	-11.693
澄澄	-11.6933
大槩	-11.6934
罷對	-11.6934
揺動	-11.6937
能悉其章誦之十過諸天遥唱萬帝設禮	-11.6937
地獄罪第	-11.6937
坎男	-11.6938
屋宅	-11.6939
如是人者	-11.6939
遊五嶽	-11.6939
迸出	-11.694
古人云	-11.6942
補益	-11.6942
金鉞	-11.6942
六識	-11.6942
道言夫末學道淺或仙品未充	-11.6942
一時辰	-11.6943
敷榮	-11.6945
設齋	-11.6945
冀州	-11.6946
素女	-11.6947
醫藥	-11.6949
五岳	-11.6951
提舉	-11.6952
三十餘年	-11.6953
吴興	-11.6953
隂陽化生	-11.6957
難測	-11.6958
交錯	-11.6958
良由	-11.6959
科儀	-11.696
二十四年	-11.6961
疾傷	-11.6963
等事	-11.6965
觸處	-11.6966
誅滅	-11.6968
執籙把籍齊到帝前隨所應度嚴校諸天	-11.6968
五百里	-11.6969
多寡	-11.6969
苦惱身有光明三界侍衛五帝司迎	-11.6969
有祕上天文諸天共所崇泄慢墮地獄	-11.697
久守	-11.697
損益	-11.6971
郡守	-11.6972
洞然	-11.6973
巨海	-11.6974
罪愆	-11.6975
洗目	-11.698
源流	-11.6981
司察	-11.6983
四十九日	-11.6984
玄㫖	-11.6984
赫然	-11.6988
幽棲曰此	-11.6993
之驗也	-11.6993
恩害	-11.6994
煞鬼	-11.6995
上中下三	-11.6995
栢木	-11.6996
兩邊	-11.6996
結庵	-11.6998
須假	-11.6998
亦如此	-11.7004
滿堂	-11.7005
疾患	-11.7005
父母未生	-11.7007
增長	-11.7009
流響	-11.7009
燿靈	-11.7009
八寸	-11.7011
亦不得	-11.7013
生不信	-11.7015
碧海	-11.7019
風飄	-11.702
原夫	-11.7023
萬慮	-11.7024
體輕	-11.7024
相侵	-11.7024
入大乗	-11.7025
觀妙先生	-11.7026
王喬	-11.7027
師尊	-11.7031
惟恐	-11.7032
一國地土山川林木	-11.7033
塵不染	-11.7034
肝肺	-11.7036
未詳	-11.7037
五藴	-11.7041
陰爻	-11.7043
十戒	-11.7043
其術	-11.7044
鬼怪	-11.7047
少許	-11.7047
如電	-11.7048
仰啓	-11.7049
在人身中	-11.7052
又奚	-11.7053
吞符	-11.7054
各領	-11.7055
二十四字	-11.706
虛空	-11.7061
積劫	-11.7061
上中下	-11.7062
貞元	-11.7062
天帝伯	-11.7063
昌遇	-11.7069
守城	-11.7071
幾多	-11.7071
三惡道	-11.7071
上帝勑	-11.7076
教授	-11.7078
丹丘	-11.708
沖妙	-11.708
百數	-11.7081
朱砂鼎	-11.7082
黄冠	-11.7082
業縁	-11.7083
黄闕	-11.7084
位證	-11.7085
者心也	-11.709
客守	-11.709
得度世	-11.7091
鎮宅	-11.7098
二十一日	-11.7099
於水中	-11.7103
搯中指中	-11.7104
孰知	-11.7106
慈惠	-11.7107
酉時	-11.7109
發露	-11.7111
千和萬合自然成眞	-11.7112
事迹	-11.7114
未嘗不	-11.7117
害物	-11.7117
百徧	-11.7118
何勞	-11.7119
感激	-11.7121
消長	-11.7123
風俗	-11.7126
背書	-11.713
更須	-11.7131
西昇	-11.7131
各具	-11.7133
凡世	-11.7136
徒然	-11.7137
樓閣	-11.7143
西南方	-11.7144
官司	-11.7153
姓氏	-11.7158
元始靈寳	-11.7159
羣靈	-11.716
華麗	-11.7162
神而神	-11.7164
繫辭	-11.717
元祐	-11.7175
保養	-11.7177
億兆	-11.718
汝等當知	-11.7187
感降	-11.7197
三蟲	-11.7201
利益一切	-11.7203
始末	-11.7207
香煙	-11.7212
顔子	-11.7215
召請	-11.723
感召	-11.7232
天地之機	-11.7235
三千人	-11.7235
長夜之府	-11.7236
使者霹靂	-11.7237
梁武	-11.7237
祕藏	-11.7239
皆得度世	-11.7243
千餘人	-11.7243
度厄尊神	-11.7244
九淵	-11.7245
寒温	-11.7258
已死	-11.7259
末世	-11.7262
宜加	-11.7263
左手執	-11.7266
雲煙	-11.7277
天地運終	-11.7296
火宅	-11.7298
默運	-11.7302
罪簿	-11.7304
有聞靈音	-11.7306
妄泄	-11.7309
所陳	-11.731
爲灾	-11.7311
吾身之	-11.7324
篆文	-11.7325
順治	-11.7338
求哀	-11.7339
谷神不死	-11.734
了達	-11.7343
志誠	-11.7343
爻象	-11.736
依舊	-11.7364
幔亭	-11.7366
葉公曰	-11.7367
各得其	-11.7368
害風	-11.7369
雷也三乃	-11.7372
雷也二乃	-11.7373
護魂	-11.7374
蜃	-11.7374
鶉	-11.7375
舂	-11.7376
浮光	-11.7376
萇	-11.7377
天衢	-11.7377
誠惶誠恐	-11.7377
善男子汝	-11.7377
釋迦	-11.7378
跋	-11.7378
卜筮	-11.7378
澇	-11.7379
虫	-11.7379
徤	-11.7379
畞	-11.738
彗孛	-11.7381
百姓日用而不知	-11.7382
殤	-11.7382
屨	-11.7382
堂修行至經无量度人願所啓上徹	-11.7382
僉	-11.7383
衿	-11.7383
咤	-11.7383
大有妙庭	-11.7383
牡	-11.7384
熬	-11.7384
二十九日	-11.7384
痢	-11.7385
齊唱後吹	-11.7386
敖	-11.7387
一隂一陽	-11.7387
禺	-11.7387
覷	-11.7387
根宗	-11.7387
餒	-11.7387
牋	-11.7388
錐	-11.7388
靈寳无量度人上經	-11.7388
億曽萬祖	-11.7388
犧	-11.7388
瀟瀟	-11.7389
椒	-11.7389
寤寐	-11.7389
渟	-11.7389
五藏六府	-11.7389
緇	-11.739
坡	-11.739
玄都右宫女青律文受者明慎奉行	-11.739
執符把籙保命生根	-11.739
逆旅	-11.739
診	-11.7391
規矩	-11.7391
云何得	-11.7391
傾土歸仰咸行善心	-11.7391
棺槨	-11.7392
蚊	-11.7392
姨母	-11.7392
諂	-11.7393
嚙	-11.7393
踐履	-11.7393
閫	-11.7393
稜	-11.7393
𢖍	-11.7393
監眞度生	-11.7393
溉	-11.7394
蠅	-11.7394
倐	-11.7394
夤	-11.7394
蒼胡頡	-11.7394
𦤺	-11.7394
掀翻	-11.7394
猛烈	-11.7394
九和十合	-11.7394
叩齒十二通	-11.7394
鱠	-11.7395
五篇眞文	-11.7395
翼轅	-11.7395
一陽初動	-11.7395
抉	-11.7395
楓	-11.7395
說經六徧東南无極无量品	-11.7395
搯玉清訣	-11.7396
而作頌曰	-11.7396
相扶	-11.7396
鎮其方民稱太平八節之日誦詠是經	-11.7396
永斷輪轉	-11.7396
鎮國祚保天長存世世不絶常爲人君安	-11.7396
鋸	-11.7396
臣衆等志心歸命	-11.7396
矛	-11.7397
奉聖㫖	-11.7397
蚌	-11.7397
普掃不祥	-11.7397
郁馥	-11.7397
騭	-11.7397
下有强兵戰勝之術	-11.7397
純禧	-11.7398
奧	-11.7398
所以爾者學士	-11.7398
惹	-11.7398
坂	-11.7398
珊瑚	-11.7398
紳	-11.7398
擬議	-11.7398
蓐	-11.7398
泮	-11.7398
恢漠	-11.7398
无鞅數衆	-11.7399
春夏秋冬	-11.7399
硬	-11.74
翁重天	-11.74
齋沐	-11.74
詵	-11.74
用師萬倍	-11.74
轝	-11.7401
麻衣	-11.7401
貪嗔癡	-11.7401
清微元降大法	-11.7401
赤書玉篇眞文	-11.7401
北酆明檢鬼營不得容隱金馬驛呈普告	-11.7401
疾除罪簿落滅惡根不得拘留逼合鬼群	-11.7401
四象生八卦	-11.7401
懇禱	-11.7402
烜	-11.7402
三十二天三十二帝	-11.7402
雄黄	-11.7403
培	-11.7403
僖	-11.7403
過結作	-11.7403
玉山上京	-11.7403
天皇大帝	-11.7403
東向誦經	-11.7403
志心皈命	-11.7404
汶	-11.7404
不思議	-11.7404
頓超	-11.7405
何也天眞皇人曰	-11.7405
森列	-11.7405
𢍆	-11.7405
凡有此災	-11.7406
猖狂	-11.7406
鄷都	-11.7406
鑊	-11.7406
善男女等	-11.7406
生身受度	-11.7407
錄	-11.7407
咬	-11.7407
隱顯莫測	-11.7407
老嫗	-11.7408
慨然	-11.7409
雨雪	-11.7409
餐霞	-11.7409
律曆	-11.7409
雞鳴	-11.7409
陽中陰	-11.741
恍惚杳冥	-11.741
保命延生	-11.741
奇特	-11.7411
汎景	-11.7411
回骸起死	-11.7411
務猷	-11.7411
四司五帝	-11.7412
毛髮	-11.7412
得自在	-11.7412
給付	-11.7412
三界大魔	-11.7413
亡故某人	-11.7413
瀑	-11.7413
緑軿	-11.7413
談笑	-11.7414
金鎚	-11.7414
𡵯	-11.7415
靈寳无量度人上經大法卷之五十	-11.7415
轆	-11.7416
冥漠	-11.7418
醉卧	-11.742
鞍	-11.742
周匝	-11.7421
響徹	-11.7423
區别	-11.7423
東南方	-11.7424
艮巽	-11.7426
兇惡	-11.7427
上天度人	-11.7427
靈寳眞文	-11.7427
一顆	-11.7428
能令衆生	-11.743
保佑	-11.743
發善心	-11.743
銀河	-11.7433
黃紙	-11.7434
西方白帝	-11.7434
昏迷	-11.7435
乾坤坎離	-11.7435
一切有爲	-11.7436
罪垢	-11.7437
葆眞	-11.7439
孔氏	-11.744
刑獄	-11.7441
幽牢	-11.7441
太史	-11.7441
憐愍	-11.7441
紫烟	-11.7441
下禳毒害以度兆民	-11.7441
絳霞	-11.7442
珠口	-11.7442
復姤	-11.7442
筌曰	-11.7445
奥㫖	-11.7448
禹餘天	-11.7449
罔象	-11.7449
少壯	-11.745
戌亥	-11.7456
州人主	-11.7457
慾海	-11.7458
樞要	-11.7459
靜極	-11.746
眞中之	-11.7461
黃房	-11.7461
交併	-11.7463
咸遵	-11.7463
希微	-11.7468
省悟	-11.747
絳節	-11.7471
道德經云	-11.7472
直待	-11.7474
指根	-11.7475
翊聖	-11.7476
恍惚之中	-11.7477
八尺	-11.7478
海空藏	-11.7478
儒家	-11.7479
引領	-11.748
受書爲	-11.7482
帝座	-11.7482
者道也	-11.7483
玉斧	-11.7483
秋雨	-11.7485
閉關	-11.7487
飛翔	-11.749
波羅	-11.7491
光明照	-11.7494
宣示	-11.7495
憂患	-11.7495
法筵	-11.7499
忠信	-11.7503
難量	-11.7504
仙仗	-11.7505
純全	-11.7509
幽谷	-11.7512
偶然	-11.7513
敕制地祇	-11.7516
半月	-11.7516
内諱百靈之隱名也	-11.7517
鍊鉛	-11.7522
黙奏	-11.7522
暗昧	-11.7523
百刻	-11.7524
始悟	-11.7527
歲星	-11.7527
十干	-11.7527
戸興隆世世昌熾與善因縁萬災不干	-11.7534
臨卦	-11.7538
父老	-11.7546
三色雲炁	-11.7549
普現	-11.7549
不妨	-11.7549
具陳	-11.7551
罡風	-11.7554
一隻	-11.7555
罪苦	-11.7555
熟視	-11.7556
九宫眞人	-11.7558
流輝	-11.7559
小術	-11.756
攝御	-11.756
日上神	-11.7563
真宰	-11.7568
度量	-11.7569
絳雲	-11.7573
調息	-11.7574
欽奉	-11.7578
塵縁	-11.7578
福祥	-11.7581
无量品至眞大神无鞅之衆浮空而至	-11.7581
帝軒	-11.7582
此經功德	-11.7583
六卦	-11.7583
慧力	-11.7586
周竟	-11.7587
符一道	-11.7588
夜深	-11.7589
精炁神	-11.7589
浩氣	-11.7591
玄穹	-11.7594
咽喉	-11.7596
考召	-11.7596
永固	-11.7603
輕誦此章身則被殃供養尊禮門	-11.7603
寳鼎	-11.7605
斯須	-11.7612
所稱	-11.7613
壽域	-11.7617
内省	-11.7619
門庭	-11.762
聖祖	-11.762
修崇	-11.7621
器物	-11.7621
青簡	-11.7625
喪其	-11.7625
齋壇	-11.7626
碧虚	-11.7628
無咎	-11.7629
燈燭	-11.7632
毀謗	-11.7633
血液	-11.7635
天涯	-11.7635
種民天	-11.7636
苟非	-11.7637
奔雲	-11.764
人之心	-11.7642
八節之日	-11.7646
隂魄	-11.7649
漢書	-11.7653
髙上神霄玉清	-11.7656
公房	-11.7659
問其故	-11.7659
年十月	-11.766
死傷	-11.766
成道果	-11.7667
功德不可思議	-11.7669
九錬	-11.767
百千萬億	-11.7671
念衆生	-11.7672
愚夫	-11.7677
崑崙頂	-11.7679
如上法	-11.7679
只今	-11.7681
玉佩	-11.7683
保制	-11.7694
指掌	-11.7697
北都寒池	-11.7701
改元	-11.7709
積累	-11.7717
十方無極	-11.772
午後	-11.7724
眇莽	-11.7726
大魁	-11.7726
玉笥	-11.7747
科教	-11.7757
歷世眞仙體道通鑑卷之三十	-11.7772
恭奉	-11.7779
第十五	-11.7782
神王長生度世无量大神並乗	-11.7786
梵度天	-11.7788
亦嘗	-11.7791
三爻	-11.7797
結茅	-11.7799
歷世眞仙體道通鑑卷之二十	-11.7803
功勤	-11.7807
夫齋戒誦經功德甚重	-11.7808
不復出	-11.7819
蓬頭	-11.7821
不可窮	-11.7838
赤明開	-11.7844
搬運	-11.7854
暘	-11.7857
垂教	-11.7861
侵害	-11.7861
不惑	-11.7864
君度南極	-11.7879
道言此二章並是諸天上帝及至靈	-11.7879
電母	-11.7879
抱元	-11.7883
開演	-11.7884
年六十	-11.7884
七十三	-11.7889
敕赦	-11.7892
表一道玉皇嗣	-11.7896
沫	-11.7899
某誠感誠慶頓首頓首再拜謹言謝	-11.79
中央黄帝	-11.7901
化作微塵	-11.7901
鵝	-11.7903
泳	-11.7903
翛	-11.7904
峨嵋	-11.7904
窠	-11.7905
榦	-11.7905
夫行初品宗旨	-11.7905
吒唎	-11.7905
讒	-11.7906
乙未年六月	-11.7906
累功	-11.7907
日用常行	-11.7908
遷居	-11.7908
閃	-11.7908
左右官使者	-11.7909
羹	-11.791
頷	-11.791
斗樞	-11.791
牝牡	-11.7911
天三生木	-11.7911
旭	-11.7911
遒	-11.7912
母隱子胎	-11.7912
已上正文	-11.7912
燁	-11.7912
詹	-11.7913
太煥極瑶天	-11.7913
森羅淨霐	-11.7913
姆	-11.7913
江寧府	-11.7914
芻	-11.7914
歉	-11.7914
盥	-11.7915
葵	-11.7915
鶴馭	-11.7915
閡	-11.7915
抽鉛添汞	-11.7915
許旌陽	-11.7915
蔑	-11.7916
稠	-11.7916
秖	-11.7916
雷鳴	-11.7916
損之又損	-11.7916
㔶	-11.7916
葛仙公	-11.7916
浮空而來	-11.7916
玉符服符微祝曰	-11.7916
絶利一源	-11.7917
穹窿	-11.7917
東斗主筭	-11.7917
耄	-11.7917
狎	-11.7918
三千三百度	-11.7918
介祉	-11.7919
貪婪	-11.7919
頂戴	-11.7919
刀山食火二十四獄三塗五苦	-11.7919
迯	-11.792
無去無來	-11.792
杭	-11.792
五炁玄天	-11.792
廣成子曰	-11.792
嶂	-11.792
長養萬物	-11.792
喜慶難言法事粗悉諸天復位	-11.792
噬嗑	-11.792
窆	-11.7921
萬靈振伏	-11.7921
懶翁	-11.7921
嗅	-11.7921
如彈丸	-11.7922
氈	-11.7922
劇	-11.7922
戒律	-11.7922
硫黄	-11.7922
上消天災保鎭帝王下禳毒害以度兆民	-11.7922
滔	-11.7923
朱砂水銀	-11.7923
書此符	-11.7923
魘	-11.7923
驀	-11.7923
大梵隱語无量之音	-11.7924
登道岸	-11.7924
閤皂	-11.7924
諫議大夫	-11.7924
䑓	-11.7925
功成行滿	-11.7925
千和萬合	-11.7925
玄都左宫女青律文受者明愼奉行太	-11.7925
蕙	-11.7925
浚	-11.7925
持是經人名	-11.7925
昏衢	-11.7926
愚人以天地文理聖我以時物文理哲	-11.7926
斌	-11.7926
漑	-11.7926
田蠶	-11.7927
抽添運用	-11.7927
亹	-11.7927
潄	-11.7927
縑	-11.7927
玉清聖境	-11.7927
正心誠意	-11.7927
青腰玉女	-11.7927
青靈始老	-11.7928
南方丹天	-11.7928
五行順治	-11.7928
上品妙經	-11.7929
答云	-11.7929
蘄	-11.7929
魚鼈	-11.7929
當爾之時	-11.7929
窈冥	-11.7929
聾盲	-11.7929
澆灌	-11.793
一如吿命	-11.793
楮	-11.793
穹蒼	-11.7931
許遜	-11.7931
鐵圍	-11.7931
中央黄老君	-11.7931
芬芳	-11.7931
華池神水	-11.7931
生老病死	-11.7932
六道四生	-11.7932
𤔵	-11.7932
茫然	-11.7933
陰中有陽	-11.7933
滕	-11.7933
葆光	-11.7934
官寮	-11.7934
也義曰	-11.7934
大衍之數	-11.7934
木生火	-11.7934
赤明開圖	-11.7935
謂弟子曰	-11.7935
上下兩弦	-11.7935
獬	-11.7935
稽首皈依虔誠讃詠	-11.7935
泒	-11.7935
築室	-11.7936
夏四月	-11.7936
譙	-11.7936
妻妾	-11.7936
過去未來	-11.7936
嗜酒	-11.7937
髙上玉皇	-11.7937
甌	-11.7937
毫末	-11.7937
天尊告曰	-11.7939
韁	-11.7939
顔貌	-11.7939
道不遠	-11.794
寂寥	-11.794
差忒	-11.794
河上公	-11.794
當知是人	-11.794
柰何	-11.794
斬伐	-11.7941
何童天	-11.7941
金木水火	-11.7941
藥苗	-11.7942
曾孫	-11.7942
萬籟	-11.7942
降眞炁	-11.7942
二千石	-11.7943
師曰此	-11.7944
三茅眞君	-11.7944
篤志	-11.7944
黃婆	-11.7944
攀縁	-11.7945
無英君	-11.7946
加减	-11.7946
杰	-11.7946
靈寳无量度人上經大法卷之六十	-11.7946
皂履	-11.7947
三塗五苦之中	-11.7948
與天地齊	-11.7949
爾時元始天尊在	-11.7949
歷世眞仙體道通鑑卷之四	-11.7949
邪婬	-11.7949
直須	-11.7949
沖融	-11.7949
一百八十日	-11.795
變態	-11.7951
爾時天尊告	-11.7952
親族	-11.7952
嗜欲	-11.7952
俯察	-11.7953
各有生門中有	-11.7954
無幽不	-11.7956
冲融	-11.7959
緑輿	-11.796
輝輝	-11.796
云何有衆生	-11.7961
倒海	-11.7962
暉映	-11.7963
睡魔	-11.7963
全藉	-11.7964
大羅之上	-11.7964
天眞皇人昔書其文以爲正音	-11.7967
元始安鎮	-11.7967
休否	-11.7968
寒熱	-11.7969
慶幸	-11.7969
同氣皆當齊心修齋六時行香十遍轉經	-11.797
玉罏	-11.7971
東方青帝	-11.7971
寒冰	-11.7972
赫赤	-11.7974
前件	-11.7974
沉沉	-11.7975
生人道	-11.7976
凱曰	-11.7977
祕籙	-11.7977
琴高	-11.7978
魔障	-11.7978
一切人民	-11.798
李筌	-11.7982
謹奏	-11.7984
漸覺	-11.7984
頓息	-11.7985
江東	-11.7985
秘要	-11.7986
呪曰謹請	-11.7986
謝恩	-11.7987
丈人中有	-11.7988
損傷	-11.7988
屠割鬼爽	-11.7991
九嶷山	-11.7991
内諱名字鎭我	-11.7992
胞根	-11.7993
謹奉	-11.7994
并序	-11.7995
位登仙	-11.7995
練師	-11.7996
潜消	-11.7996
四隅	-11.7997
髙皇	-11.7999
岳陽	-11.8
度人經云	-11.8
十芒	-11.8
職司	-11.8005
武昌	-11.8006
至京師	-11.8008
阿母	-11.801
禮懴	-11.801
奪造化	-11.8011
禄存	-11.8011
増長	-11.8012
首謝	-11.8012
升沉	-11.8013
天眞自然之音也故誦之致	-11.8013
豈不聞	-11.8015
普救	-11.8015
仁宗	-11.8016
無所見	-11.8018
遍體	-11.8018
風后	-11.8019
灌我	-11.8019
品玄師曰	-11.8019
紫虛	-11.802
七寸	-11.8021
災福	-11.8021
准此	-11.8027
玉鑪	-11.8034
釐	-11.8034
七百二十	-11.8036
本行經	-11.8036
是何物	-11.8041
效心盟天而傳輕泄漏慢殃及九祖長役	-11.8041
曲直	-11.8051
莫窮	-11.8052
瑶光	-11.8053
簡奏	-11.8054
葛玄	-11.8054
拔苦	-11.8055
永鎮	-11.8055
不肖	-11.8059
巨石	-11.8061
可韓	-11.8061
周遍	-11.8067
忠臣	-11.807
崇寧五年	-11.807
跛者	-11.8074
天尊大慈	-11.8076
誥命	-11.8077
星皇君	-11.8078
奉詔	-11.8079
文彩	-11.8081
永消	-11.8081
品格	-11.8084
五方天尊	-11.8086
王祝曰	-11.8089
十部	-11.8095
苟能	-11.8096
抑亦	-11.8098
所産	-11.81
化導	-11.81
擇日	-11.8107
陽純	-11.8107
運度自然	-11.8107
勞苦	-11.8109
守衛	-11.8109
天籟	-11.8111
此二章	-11.8112
題云	-11.8114
靜默	-11.8122
鈞天	-11.8124
仰惟	-11.8138
世之人	-11.8144
五辛	-11.8145
人之一身	-11.8145
丁甲	-11.8151
何似	-11.8152
章詞	-11.8152
貫通	-11.8158
如世間	-11.816
以炁爲	-11.8171
口吸	-11.8176
字叔	-11.8182
豈不是	-11.8182
無生滅	-11.8186
天地之外	-11.8198
等志心歸命禮願稽首讃嘆	-11.82
熒惑星	-11.8206
北方水	-11.8208
念慮	-11.8209
茅峰	-11.8213
捨離	-11.8224
享年	-11.8225
泄慢	-11.8238
世人不知	-11.824
理禁	-11.8241
五瘟	-11.8251
破地獄	-11.8251
事業	-11.8276
中央土	-11.8278
正月一日	-11.8278
華芒	-11.8284
統制	-11.8311
忽見一	-11.8323
茅山志卷之二十	-11.8341
猛將	-11.8349
三十萬	-11.8355
我輩	-11.8356
獨往	-11.837
深奥	-11.8371
非遥	-11.8375
曹局	-11.8383
獨尊	-11.8387
茅山志卷之十	-11.839
天地運度否終日月五星虧盈至聖	-11.8396
丹一粒	-11.8397
歷世眞仙體道通鑑卷之十	-11.84
垠	-11.8413
寳不傳下世至士齎金寳效心盟天而傳	-11.8416
得此道	-11.8434
月二十三日	-11.8438
無氛穢地無祅塵冥慧洞清大量玄玄也	-11.8439
昔書其文以爲正音	-11.8447
五帝大魔萬神之宗	-11.8447
官曹	-11.8448
玉符羽章呪曰	-11.8448
傳於世	-11.8452
刁	-11.8453
嘔	-11.8454
雷也五乃	-11.8454
林靈素	-11.8454
之雷書曰一乃	-11.8454
雷也四乃	-11.8455
是爲大梵天中之天	-11.8457
億乗萬騎浮空而來	-11.8459
黔	-11.8459
愬	-11.846
叠	-11.8461
沆	-11.8461
發祥	-11.8461
趺坐	-11.8462
脆	-11.8462
喘	-11.8463
七炁素天	-11.8464
闠	-11.8464
元始洞玄靈寳本章	-11.8464
梭	-11.8464
滉	-11.8465
衆眞侍座	-11.8465
蹶	-11.8465
泝	-11.8466
馮夷	-11.8466
殃及九祖	-11.8467
輳	-11.8467
佯	-11.8467
悸	-11.8467
矅	-11.8468
役使萬靈	-11.8468
摧傾	-11.8468
三華離便	-11.8468
猥	-11.8469
上帝有敕	-11.847
不知所終	-11.847
啄齒	-11.847
颯	-11.847
溷	-11.847
撑	-11.8471
齊到帝前	-11.8471
半箇時	-11.8471
太素秀樂禁上天	-11.8471
風澤洞虚	-11.8471
磻溪	-11.8472
太微小童	-11.8472
掀	-11.8472
稚川	-11.8472
象帝之先	-11.8472
一乘海空祕宻寳藏	-11.8473
諠	-11.8473
顓	-11.8473
非長非短	-11.8473
五文開廓普植神靈	-11.8473
承誥奉行列師銜	-11.8473
瞑	-11.8473
慿	-11.8473
礴	-11.8473
太極濛翳天	-11.8474
感而遂通	-11.8474
揀	-11.8474
普受開度	-11.8474
五金八石	-11.8474
婬慾	-11.8474
玉清无極總眞文昌大洞仙經	-11.8474
鞏	-11.8474
閔	-11.8474
七返還丹	-11.8474
窈窕	-11.8474
和不可思議功德	-11.8474
殟	-11.8475
得爲九宫眞人本命之日誦詠是經	-11.8475
官君將吏	-11.8476
荆棘	-11.8476
週	-11.8476
軻	-11.8476
赤書眞文	-11.8476
朱陵度命天尊	-11.8476
倶	-11.8476
砥	-11.8477
吕洞賔	-11.8477
金木間隔	-11.8477
茹葷	-11.8477
刀山食火	-11.8477
魚兔	-11.8477
神變氣化	-11.8477
右篆是前	-11.8478
𩵄䰢	-11.8478
太安皇崖天	-11.8478
无上内祕眞藏經卷之	-11.8478
旒	-11.8478
信受奉行	-11.8478
舉進士	-11.8479
皁	-11.8479
唐高宗	-11.8479
虎之弦氣	-11.8479
倏歘之間寂無	-11.8479
誦詠是經	-11.8479
靉	-11.8479
告盟而傳	-11.848
太霄隱書	-11.848
瞽者善聽聾者善視	-11.848
太上靈寳朝天謝罪大懴卷之	-11.848
灑掃	-11.848
太上一乘海空智藏經卷之	-11.848
出死入生	-11.848
刮	-11.8481
天人合發	-11.8481
擲火萬里流鈴八衝	-11.8481
淳熙	-11.8481
磕	-11.8481
兜術天	-11.8481
謄	-11.8481
聰慧	-11.8481
慚愧	-11.8481
如雞子	-11.8481
凌三界逍遥上清上清之天天帝	-11.8482
以予爲	-11.8482
膈	-11.8482
受化更生	-11.8482
漠漠	-11.8482
无无上眞	-11.8482
馥郁	-11.8482
道言此諸天中大梵隱語無量之音舊文	-11.8482
濮	-11.8483
輻輳	-11.8483
榭	-11.8483
亳州	-11.8483
返老還童	-11.8483
膩	-11.8483
慜	-11.8483
魑魅	-11.8483
棒	-11.8484
中有度世司馬大神中有好生韓君丈人	-11.8484
踴	-11.8484
包括	-11.8484
霹靂一聲	-11.8484
汝等四衆	-11.8484
姤卦	-11.8484
三日三夜	-11.8484
塵境	-11.8484
萬六千	-11.8485
勺	-11.8485
瘖	-11.8485
後天地生	-11.8485
䖍誠	-11.8486
梧	-11.8486
大千世界	-11.8486
𤑔	-11.8486
湄	-11.8486
貞白先生	-11.8486
璚	-11.8486
旤	-11.8486
超凌三界	-11.8486
兩眉間	-11.8487
鷃	-11.8487
萬劫不原	-11.8487
心生於物	-11.8487
範圍	-11.8487
恢弘	-11.8488
今月某日	-11.8488
這般	-11.8488
北斗七元	-11.8488
休歇	-11.8488
我位上王	-11.8489
妙行真人	-11.8489
具位臣姓	-11.8489
蟒	-11.8489
仝	-11.8489
上生天堂	-11.8489
包絡	-11.8489
天真大神上聖髙尊妙行真人	-11.849
靈寳大法司	-11.849
咽液三過	-11.849
拱手	-11.849
月初三日	-11.8491
赦宥	-11.8491
五行顚倒	-11.8491
庚戌	-11.8492
四種民天	-11.8492
耆老	-11.8492
品秩	-11.8493
盗賊	-11.8493
靈寳无量度人上經大法卷之三十	-11.8493
億曾萬祖	-11.8493
凌犯	-11.8493
昆蟲	-11.8494
恢張	-11.8494
清微元降大法卷之十	-11.8494
㧞罪	-11.8495
蠲除	-11.8496
笄	-11.8496
靈寳五符	-11.8496
故來相	-11.8497
爲丹田者此是	-11.8498
張平叔	-11.8499
邪魅	-11.8499
評論	-11.8501
先天一氣	-11.8501
非色非	-11.8501
无極世界	-11.8502
異香滿室	-11.8502
蕭蕭	-11.8502
善知識	-11.8502
洪範	-11.8504
己丑	-11.8504
羲皇	-11.8505
寰海	-11.8505
動静	-11.8506
種種方便	-11.8507
金童玉女	-11.8507
愚昧	-11.8508
賜額	-11.8508
二百餘年	-11.8509
五老帝君	-11.8509
人之生也	-11.851
億載	-11.8511
惡奕	-11.8512
營營	-11.8512
重疊	-11.8512
絆	-11.8513
青龍白虎	-11.8513
城邑	-11.8514
採戰	-11.8514
切忌	-11.8514
魔賊	-11.8515
欽仰	-11.8515
列班	-11.8515
四星在	-11.8515
既判	-11.8515
衣食自然	-11.8516
金醴	-11.8517
文舉天	-11.8518
蠢然	-11.8519
魔群	-11.8519
和璞	-11.852
投詞	-11.852
昭格	-11.8521
路傍	-11.8522
南方赤帝	-11.8523
浮丘	-11.8525
靈寳无量度人上經大法卷之十	-11.8526
定録君	-11.8529
巳上並	-11.853
無恙	-11.8532
不相離	-11.8532
乙巳	-11.8532
放蕩	-11.8533
玉笈	-11.8534
普得濟度全其本年無有中傷傾土歸仰	-11.8536
完全	-11.8537
證驗	-11.8541
覆護	-11.8542
嵩高山	-11.8543
賢良	-11.8543
甚厚	-11.8544
含萬象	-11.8545
又一法	-11.8545
丁寧	-11.8545
魂生身身得受生上聞諸天諸天之上	-11.8546
巽卦	-11.8546
三髻	-11.8546
黑龜	-11.8546
守三一	-11.8547
玉晨觀	-11.8548
洪恩	-11.855
消蕩	-11.8554
紫極宫	-11.8554
空洞自然之	-11.8554
具述	-11.8555
布列	-11.8559
違犯	-11.856
伐惡	-11.8561
補腦	-11.8561
救苦眞人	-11.8568
羽士	-11.857
生成萬物	-11.8571
嘯命	-11.8573
禳解	-11.8573
違盟	-11.8574
黄帝中主	-11.8574
毛女	-11.8581
灌筆	-11.8583
却禍	-11.8584
珍重	-11.8586
白晝	-11.8586
文挑	-11.8588
顯揚	-11.8589
萬災不干	-11.8591
琅書	-11.8592
家園	-11.8598
成無上道	-11.8604
劉氏	-11.8605
考對	-11.8606
絳章	-11.8612
拜謁	-11.8613
對境	-11.8614
堅持	-11.8615
雷神呪	-11.8618
都監	-11.8618
身或作	-11.8619
九族	-11.8619
留連	-11.8624
兵災	-11.8627
䟽曰	-11.863
初階	-11.8634
雙景	-11.8635
無所不通	-11.8637
妖魅	-11.8656
玉嬰	-11.8661
在蜀	-11.8662
亦復不	-11.8674
交㑹	-11.8675
不能侵	-11.8686
丹書云	-11.8687
禍害	-11.8695
是謂無量普度無窮	-11.8698
赤明劫	-11.87
闡化	-11.8712
東郭	-11.8713
呪畢引	-11.8717
圖籍	-11.8725
訾	-11.8732
樵人	-11.8733
河沙	-11.8749
享福	-11.8749
天眞大神一時同至一國男女傾心歸仰	-11.8754
十八歲	-11.8755
等志心歸命禮願稽首讃嘆大	-11.8758
得度世道言元始天尊說經中所言並是	-11.8764
龍潭	-11.877
棄世	-11.8774
踊躍	-11.8774
淵源	-11.8778
尊崇	-11.88
白髮	-11.8802
損害	-11.8817
傳若有至人齎金寳質心依舊格告盟	-11.8817
上天所寳祕於	-11.8818
第十三	-11.8819
無極大道	-11.8824
修此道	-11.8829
鍊還丹	-11.8838
丁壬	-11.8841
今夕	-11.8849
年四十	-11.8857
盈滿	-11.8864
可長生	-11.8868
善男子汝等	-11.8895
史記	-11.8895
正一眞人	-11.8896
安寧急急如律令	-11.8899
恣縱	-11.8902
不寐	-11.8911
莫知其所	-11.8956
無不備	-11.8966
魁星	-11.8966
歌洞章	-11.8972
息綿綿	-11.8973
尊貴	-11.8976
諸天上帝及	-11.8979
宰制	-11.898
上消天災保鎮帝王下禳毒害以度兆民	-11.8993
君内諱名字鎭我	-11.8998
爾時海空智藏	-11.9002
尊敬	-11.901
六丁玉女	-11.9014
默契	-11.9016
崇禧	-11.9041
無量普度天人道言凡有是經能爲天地	-11.9043
𥋋	-11.9044
瑣	-11.9044
㝢	-11.9045
鈐	-11.9045
萬帝設禮	-11.9045
小人得之輕命	-11.9046
副帥	-11.9047
吊	-11.9047
今辰弟子	-11.9048
聻	-11.9048
糠	-11.9048
奬	-11.9049
卭	-11.9049
劉混康	-11.905
莱	-11.9051
廻骸起死	-11.9052
嫂	-11.9052
凭	-11.9052
攄	-11.9052
詛	-11.9053
惻	-11.9053
光玉皇天尊欽惟玉帝	-11.9054
憊	-11.9054
鰲	-11.9054
眚	-11.9054
哪	-11.9055
元明文舉天	-11.9056
鱉	-11.9056
鄷	-11.9056
隊仗	-11.9056
燾	-11.9057
持是經	-11.9057
兩儀生四象	-11.9057
渺茫	-11.9057
漾	-11.9058
太明玉完天	-11.9058
玄明恭華天	-11.9058
天發殺機龍蛇起陸	-11.9058
斬絶地根	-11.9058
噓	-11.9059
電掣	-11.9059
蓑	-11.9059
洫	-11.9059
沌	-11.9059
無量度人上品妙經元始洞玄靈寳本章	-11.9059
税	-11.906
九老仙都君	-11.906
楝	-11.906
脗	-11.906
蹉跎	-11.9061
秤	-11.9061
饗	-11.9061
行住坐卧	-11.9061
禽之制在炁	-11.9061
說經四遍北方無極無量品	-11.9061
直日香官	-11.9061
之臣良謹言	-11.9061
穹昊	-11.9062
說經三遍西方無極無量品	-11.9062
鬧	-11.9062
三魂七魄	-11.9062
咽液九過	-11.9062
笙簧	-11.9062
炁入玄玄	-11.9062
上聖高尊	-11.9062
霾	-11.9062
箴	-11.9062
昱	-11.9062
頡	-11.9062
牓	-11.9063
洪濛	-11.9063
他效此占	-11.9063
敢有干試	-11.9063
驤	-11.9063
四千三百二十	-11.9063
廉貞	-11.9063
十轉回靈萬炁齊仙	-11.9063
蟠桃	-11.9063
死入地獄	-11.9063
道言凡誦是經十過	-11.9063
北斗落死	-11.9063
摩尼	-11.9064
光無文不明無文不立無文不成無文不	-11.9064
横天擔力	-11.9064
梵炁彌羅	-11.9064
禬	-11.9064
號志心歸命禮	-11.9065
猗	-11.9065
鑠	-11.9065
䂓	-11.9065
恍愡	-11.9065
梵監須延天	-11.9065
莽莽	-11.9065
饑饉	-11.9065
僮	-11.9065
餉	-11.9065
汚	-11.9065
執天之行	-11.9065
聖祖天尊大帝	-11.9065
涿	-11.9066
太平興國	-11.9066
恍恍惚惚其中有物	-11.9066
不驕樂天	-11.9066
緡	-11.9066
名山洞府	-11.9066
全其本年	-11.9066
巴元醜伯	-11.9066
靴	-11.9066
彌羅無上天妙有玄	-11.9066
十回度人	-11.9066
肘後飛金精	-11.9067
暘谷神王	-11.9067
皇曾天	-11.9067
韓君丈人	-11.9067
青紙朱書	-11.9067
惻隱	-11.9067
瘧	-11.9067
黄芽白雪	-11.9067
峩	-11.9067
葛稚川	-11.9067
緋衣	-11.9067
玷	-11.9068
沽	-11.9068
𢹂	-11.9068
章第三十	-11.9068
宛黎	-11.9068
道言此諸天中	-11.9068
太張上	-11.9068
稷	-11.9069
鵲橋	-11.9069
石景水母	-11.9069
囗	-11.9069
黄素玉女	-11.9069
三百八十四銖	-11.9069
靈書中篇	-11.9069
四炁朗清	-11.907
太乙救苦天尊	-11.907
摳	-11.907
狠	-11.907
左日右月	-11.907
炫	-11.907
好生韓君丈人	-11.907
懺悔	-11.907
遣中使	-11.907
飜	-11.9071
靜黙山嶽吞煙萬靈振伏招集群仙天	-11.9071
宂	-11.9071
湫	-11.9071
褥	-11.9071
糜	-11.9071
九真妙戒	-11.9071
上天度人嚴攝北酆	-11.9071
琉璃	-11.9071
婆泥	-11.9071
下元水官	-11.9072
鏁	-11.9072
龍蹻經	-11.9072
眷祐	-11.9072
疫毒流行	-11.9072
上相青童君	-11.9072
無形無名	-11.9072
奉辭而退	-11.9073
八景神合	-11.9073
十洲三島	-11.9073
天尊曰善哉善哉	-11.9073
稽首作禮	-11.9073
潦	-11.9074
生死受賴其福難勝故曰无量普度天人	-11.9074
礪	-11.9074
道言是時元始天尊說經一徧東方	-11.9074
藥物火候	-11.9074
青帝護魂	-11.9074
一如吿命風火驛傳	-11.9074
具位臣某	-11.9074
黑簿	-11.9074
諸徒衆	-11.9075
救苦真符	-11.9075
上元天官	-11.9075
玄中之玄	-11.9075
誑惑	-11.9075
清堂修行至經无量度人願所啓上徹	-11.9075
黑帝通血	-11.9075
悞	-11.9075
召制十方	-11.9075
調匀	-11.9075
臣謹言曰	-11.9075
當知此人	-11.9076
狩	-11.9076
無量度人上品妙經卷之三十	-11.9076
嘯詠洞章	-11.9076
拏	-11.9076
偏陷	-11.9077
柔弱	-11.9078
楹	-11.9078
纖毫	-11.9079
霎時	-11.9079
封一通於	-11.9079
爾時衆中	-11.9079
千億	-11.9079
扶揺	-11.908
一粒金丹	-11.908
馘毒	-11.908
孤貧	-11.9081
大恩生	-11.9082
温凉	-11.9082
流涕	-11.9082
與天齊年	-11.9083
琅霄	-11.9083
淮南王	-11.9083
可加贈	-11.9084
望江南	-11.9084
爕	-11.9085
追薦	-11.9085
微妙經典	-11.9086
師曰學士	-11.9086
句容縣	-11.9086
今日之辰	-11.9086
七寳玄臺	-11.9087
惱亂	-11.9087
英雄	-11.9088
掾吏	-11.9088
天地文理	-11.9089
非空非有	-11.9089
羽裙	-11.909
入符中	-11.9091
金翅	-11.9091
懇切	-11.9092
遐想	-11.9093
騎九億萬衆九天玄元太空洞虚自然	-11.9093
癰	-11.9094
熾盛	-11.9094
劫刃	-11.9094
怎生	-11.9094
毒獸	-11.9095
北極大帝	-11.9096
最貴	-11.9096
風霆	-11.9096
積功累行	-11.9097
勤勞	-11.9098
猛馬	-11.9099
𡨚家	-11.91
煙霞洞	-11.91
根蒂	-11.91
其色白	-11.9101
甘河	-11.9102
仰瞻	-11.9102
跳出	-11.9103
炁而成	-11.9103
滯礙	-11.9104
高低	-11.9107
伏冀	-11.9108
俯視	-11.9108
青絲	-11.9111
藥餌	-11.9111
開度天人	-11.9112
再呪曰	-11.9112
屋宇	-11.9113
闡教	-11.9113
覩光明	-11.9114
斷障	-11.9115
數百歲	-11.9115
使者眞形符	-11.9116
離合自然	-11.9116
營護	-11.9117
鬼神驚	-11.9117
消灾	-11.9119
羽翼	-11.912
抱朴子	-11.9121
功曹使者	-11.9121
之鬼厭	-11.9122
曲阿	-11.9123
十方救苦天尊	-11.9123
天罡加	-11.9124
璽書	-11.9125
曾祖	-11.9125
逺近	-11.9126
晨燈	-11.9127
水噀	-11.9128
九轉還丹	-11.9128
无量爲萬道之宗巍巍大範德難可勝	-11.9131
破暗	-11.9132
綵雲	-11.9132
濟拔	-11.9134
叔卿	-11.9135
自然之章	-11.9137
歷試	-11.9139
無量大神	-11.9139
詣闕	-11.9139
盟威	-11.9139
躔度	-11.914
驛龍	-11.9141
台光	-11.9141
境域	-11.9141
劫量	-11.9143
湧出	-11.9144
葬于	-11.9145
寳曆	-11.9146
鐵馬	-11.9146
綿綿若存用之不勤	-11.9147
含笑	-11.9148
克己	-11.915
侍晨	-11.9151
凌虚	-11.9156
潜伏	-11.9161
恬然	-11.9161
第十四	-11.9164
洪州	-11.9164
積習	-11.9165
憂苦	-11.9165
牛車	-11.9167
長幼	-11.9169
虎賁	-11.917
發泄	-11.917
劫賊	-11.917
罪障	-11.9171
微笑	-11.9171
數千里	-11.9172
吉昌	-11.9172
雙目	-11.9175
與天地相	-11.9178
髙晨	-11.9185
和陽天	-11.9185
叔平	-11.9186
窮乏	-11.9192
長三尺	-11.9195
清旦	-11.9196
風扇	-11.9196
可不愼	-11.9198
之别名	-11.9201
金鈴	-11.9204
良馬	-11.9207
七𩲸	-11.9208
齎金寳	-11.9211
玉膏	-11.9228
何敢	-11.923
生死罪福	-11.9239
鳳髓	-11.9243
著述	-11.9245
辛巳	-11.9248
今日校録諸天臨軒	-11.9252
汝等衆生	-11.9253
勑制地祇	-11.9254
能修之	-11.9258
青華帝君	-11.9265
滌除	-11.9269
世網	-11.929
反掌	-11.9292
蟾光	-11.9292
尹眞人	-11.9297
陶公	-11.9298
盤石	-11.9311
照曜	-11.9365
月十二日	-11.9376
忻然	-11.938
百尺	-11.9382
威鎮	-11.9409
甘露降	-11.9411
添汞	-11.9418
帝堯	-11.9441
肺液	-11.9448
大神一時同至一國男女傾心歸仰來者	-11.946
泄露	-11.9469
仰遵	-11.9475
般若	-11.9477
亦非非	-11.9479
沙塵	-11.9482
削除罪	-11.9491
科律	-11.9514
衆生顚倒	-11.9527
土皆作	-11.9527
肺肺	-11.9528
修上道	-11.9532
輕泄漏慢殃及九祖長役鬼官侍經	-11.9536
遊名山	-11.9539
靈寳无量度人上經大法卷之四十	-11.9547
慳	-11.9569
說經二遍南方無極無量品	-11.9571
廻十過以召十方始當詣座	-11.9624
鞅	-11.9626
鎭國祚保天長存世世不絶常爲人君安	-11.9644
抱朴	-11.9656
兑	-11.9661
沔	-11.9662
是持經人	-11.9665
大神一時同至一國男女傾心歸仰	-11.9666
噪	-11.9667
盼	-11.9667
蘇幕遮	-11.9668
一動一靜	-11.9671
衆等志心皈命大	-11.9672
不得久停	-11.9673
瓔	-11.9673
明檢鬼營	-11.9673
歙	-11.9674
右别至人剋得爲聖君金闕之臣	-11.9674
宋徽宗政和	-11.9674
涪	-11.9674
疵癘	-11.9674
煆	-11.9676
眹	-11.9676
戕	-11.9676
蘚	-11.9677
穆天子傳	-11.9677
牽纏	-11.9677
飭	-11.9677
金能生水	-11.9677
魈	-11.9678
庾	-11.9678
無質生質	-11.9678
木星守	-11.9679
臓	-11.9679
蒞	-11.9679
歃血	-11.9679
楫	-11.968
刹那	-11.968
蟹	-11.968
飆	-11.968
君臣父子	-11.968
悛	-11.968
尺二寸	-11.968
䙱	-11.9681
憾	-11.9681
上剋下	-11.9681
組	-11.9682
侍香金童	-11.9682
叚	-11.9682
無罣礙	-11.9683
泡	-11.9683
龍變梵度天	-11.9683
裊	-11.9683
寨	-11.9683
吾儕	-11.9683
郴	-11.9683
磁	-11.9683
鍊神合道	-11.9684
本命元辰	-11.9684
满	-11.9684
潑	-11.9684
仰觀俯察	-11.9684
脛	-11.9684
斐	-11.9684
菲	-11.9685
螺	-11.9685
入闇獄	-11.9685
枯槁	-11.9685
刀利禪猷	-11.9685
盥漱	-11.9685
徑御無上三十二天元始上帝至尊几前	-11.9685
誼	-11.9685
口口相傳	-11.9685
窮理盡性	-11.9686
寰宇	-11.9686
澍	-11.9687
芙蓉冠	-11.9687
醎	-11.9687
我命在我	-11.9687
說經六遍東南無極無量品	-11.9687
斿	-11.9687
至簡至易	-11.9687
骨以受我	-11.9687
東嶽上卿	-11.9688
中部八景洞玄飛行自然靈寳神僊	-11.9688
觚	-11.9688
屐	-11.9688
一日一夜	-11.9688
昊天玉皇上帝	-11.9688
魁𩲃𩵄䰢魓𩳐魒	-11.9689
捍厄	-11.9689
非有非無	-11.9689
謟	-11.9689
吻	-11.9689
中部三十二天洞玄	-11.9689
聞吾呼召	-11.9689
努	-11.9689
䑕	-11.9689
參校曰	-11.969
羽葆	-11.969
淡泊	-11.969
總而言之	-11.969
無量之福生死蒙惠上天所	-11.969
潁	-11.969
陶弘景	-11.969
蒨	-11.969
以道用言	-11.9691
瞬息	-11.9691
閻浮	-11.9691
一撞三關	-11.9691
並是諸天上帝内名隱韻之音亦是	-11.9691
仆	-11.9691
櫃	-11.9691
柱下史	-11.9692
枯骨更生皆起成人	-11.9692
鼇	-11.9692
益算	-11.9692
下部八景洞靈飛行自然靈寳神僊	-11.9692
褻	-11.9692
硤	-11.9692
堵	-11.9692
聞是說巳	-11.9692
沉痾	-11.9692
牎	-11.9692
魓	-11.9693
國主有災兵革四興	-11.9693
屣	-11.9693
日月五星亦有虧盈至聖神人亦有休否	-11.9693
丙辛	-11.9693
角亢	-11.9693
昊天上帝	-11.9693
心生於物死於物機在目	-11.9694
上世亡魂	-11.9694
說經九遍上方無極無量品	-11.9694
阿繿	-11.9694
庖	-11.9694
貶	-11.9694
綻	-11.9694
怱	-11.9695
鍊氣成神	-11.9695
喘息	-11.9695
穢氣未消體未洞眞	-11.9695
𩵄	-11.9695
上部八景洞天飛行自然靈寳神僊	-11.9695
漙	-11.9695
總炁上元	-11.9695
金鈕	-11.9695
蚤	-11.9695
潺	-11.9695
螻蟻	-11.9695
慵	-11.9696
壯麗	-11.9696
蕆	-11.9696
同氣皆當齊心修齋六時行香十徧轉經	-11.9696
兟	-11.9696
鬢髮	-11.9696
休粮	-11.9696
犁	-11.9697
幽扃	-11.9697
河圖洛書	-11.9697
溫	-11.9697
陳景元	-11.9697
錮	-11.9697
旋斗歷箕回度五常	-11.9697
努力	-11.9697
善男子善女人	-11.9697
四千六百	-11.9697
太極未判	-11.9698
天地水三官	-11.9698
元符觀	-11.9698
蹔	-11.9698
具法位臣姓某	-11.9698
空起滅同故以是因縁	-11.9698
黄素朱書	-11.9699
大有之宫	-11.9699
誦之千徧	-11.9699
螢	-11.9699
因藉而生與之起滅不得相離是則皆空	-11.9699
靈篇辭參髙眞第一	-11.9699
决烈	-11.9699
北斗九皇	-11.9699
羅列左右	-11.9699
本行集經	-11.9699
臯	-11.9699
千千截首萬萬剪形	-11.97
莾	-11.97
闍	-11.97
陽中有陰	-11.97
字皆廣長一丈天真皇人	-11.97
天上天下無幽無㝠無形無影無極無窮	-11.97
熒熒	-11.9701
樞轄	-11.9701
與天地合德	-11.9701
夾脊雙關	-11.9702
槁木	-11.9702
賔友	-11.9702
叩齒三通咽液三過	-11.9702
柔順	-11.9702
盤桓	-11.9702
涬	-11.9703
臭穢	-11.9703
坎爲水	-11.9703
仰祝曰	-11.9704
黙黙	-11.9704
尸蟲	-11.9704
黄籙白簡	-11.9704
一斤之數	-11.9705
大神南昌上宫	-11.9705
騰勝天	-11.9706
絲竹	-11.9706
變化莫測	-11.9706
将	-11.9707
懈退	-11.9707
十方聖境	-11.9707
龍漢元年	-11.9708
和睦	-11.9708
劫劫長存	-11.9708
東坡	-11.9708
陶鎔	-11.9709
誕敷	-11.9709
九陽梵炁	-11.9709
虵	-11.9709
信香符	-11.9709
翶翔	-11.9709
豐熟	-11.9709
禳灾	-11.971
▁志心朝禮	-11.971
年月日時告下	-11.971
八十七萬二千	-11.9711
飛天法輪	-11.9711
𥨸	-11.9711
醮祭	-11.9712
衆生迷惑	-11.9712
供獻	-11.9713
千韶	-11.9713
辛卯	-11.9713
漂焚	-11.9713
冠褐	-11.9713
悔恨	-11.9714
内景呪曰	-11.9715
𣲖	-11.9715
北方黑帝	-11.9715
長生乆視之道	-11.9716
逍遥自在	-11.9716
布囊	-11.9716
斷穀	-11.9717
元亨	-11.9717
肝膽	-11.9718
十一曜	-11.9719
觸類	-11.9719
百榖	-11.972
長子也	-11.9721
奇器	-11.9721
五方正氣	-11.9721
假令正月	-11.9722
羊車	-11.9723
急急如靈寳大法律令	-11.9723
嚴整	-11.9723
騰燿	-11.9724
超脫	-11.9724
年十八	-11.9724
隨其所	-11.9726
仰荷	-11.9726
驅逐	-11.9726
奄然	-11.9727
跨虎	-11.9728
刑禍	-11.9728
華綺	-11.9728
冶鍊	-11.9729
奪筭	-11.9731
俯垂	-11.9731
拔宅	-11.9732
懇請	-11.9732
談論	-11.9732
先天之氣	-11.9733
嵩陽	-11.9733
父毋	-11.9735
全憑	-11.9735
天地八維	-11.9736
朱陵府	-11.9736
謹依	-11.9738
災咎	-11.9738
瑶壇	-11.9738
敬畏	-11.9739
三元眞一	-11.9739
穢慢	-11.974
滌色	-11.974
敷揚	-11.9742
憂愁	-11.9742
二十一年	-11.9746
九署	-11.9746
合明天帝	-11.9746
殃禍	-11.9747
翕然	-11.9748
晨昏	-11.9748
資財	-11.9749
執着	-11.975
群類	-11.9751
雨暘	-11.9752
財物或	-11.9753
桓帝	-11.9754
碧巖	-11.9755
磨滅	-11.9755
邪淫	-11.9755
歌頌	-11.9756
發揮	-11.9758
呪北帝	-11.9759
叢林	-11.976
殃注	-11.976
虛皇	-11.9763
唵吽	-11.9767
賢士	-11.9772
丕應	-11.9774
月望日	-11.9775
金蓮堂	-11.9777
竊念	-11.9779
奉之者	-11.9781
太素玉女	-11.9782
飛雲丹霄	-11.9791
列仙傳	-11.9796
災禍	-11.9807
五千言	-11.9818
威雄	-11.9819
甘美	-11.9821
一口吹	-11.9828
方諸宫	-11.983
罪咎	-11.9841
山之陽	-11.9846
玉京金闕	-11.9861
灌鍊	-11.9862
慈愍	-11.9865
迅雷	-11.9872
不懈	-11.9884
二物相	-11.9884
左右前後	-11.9897
染着	-11.9901
卓然	-11.9906
九幽長夜	-11.9924
數千人	-11.9931
至真大神	-11.9931
亢陽	-11.994
演説	-11.9947
聖君金闕之臣諸天記人功過毫分無失	-11.9958
從兆泥丸中入兆乃口吸神雲咽津	-11.9959
十餘歲	-11.9989
得長壽	-12.0015
歡喜踊躍	-12.0017
星宿錯度日月	-12.0039
光洞照	-12.0062
天真自然之音也故誦之致	-12.0073
月二十七日	-12.0089
執戟	-12.0092
十天然後而付焉道言夫	-12.0093
性圓明	-12.0099
能悉其章誦之十過	-12.011
中央黃	-12.0132
皇統	-12.0147
一炷	-12.0159
年十一月	-12.0166
無窮有祕上天文諸天共所崇泄慢	-12.0171
盟天而傳輕泄漏慢殃及九祖長役鬼官	-12.0189
升太空過度三界位登	-12.0208
悟之者	-12.0214
丈元始登引天眞大神上聖髙尊	-12.0223
曲赦	-12.0225
叔夜	-12.0238
禳謝	-12.0254
神仙兵馬無鞅數衆悉令下降	-12.0254
三十二過閉目靜思身坐青黄白三色雲	-12.0255
▲▲▲▲	-12.0271
元始靈書中篇	-12.0278
靈寳无量度人上經大法卷之二十	-12.0278
疫毒	-12.0288
誦之十過	-12.0308
言善哉善哉善男子	-12.031
禱祝	-12.031
萬劫還生不人之道	-12.0313
孺	-12.0323
蟉	-12.0328
瑯	-12.0332
飛神召靈	-12.0335
綉	-12.0335
顫	-12.0336
涅槃	-12.0339
使之然也	-12.0341
立天之道以定人也	-12.0342
以何因縁	-12.0343
天五生土	-12.0343
冽	-12.0343
婆娑	-12.0343
澈	-12.0343
人呼爲	-12.0343
絲毫	-12.0343
煬	-12.0344
如前吸咽吹水鏡	-12.0344
金星守	-12.0344
諸天仙衆	-12.0345
人發殺機天地反覆	-12.0347
見之者昌	-12.0347
摭	-12.0347
褚	-12.0348
孝廉	-12.0348
薊	-12.0348
滄浪	-12.0348
聞是語巳	-12.0349
鍵	-12.0349
邏	-12.0349
弋	-12.0349
猖	-12.0349
硃	-12.0349
寅申	-12.0349
磧	-12.0349
醪	-12.0349
怏	-12.035
郭璞	-12.035
五文開廓	-12.035
玄明恭慶天	-12.035
四字金書祕于天之	-12.035
歷關諸天請滅	-12.035
殳	-12.035
琛	-12.035
延壽益筭	-12.035
噠	-12.035
穿鑿	-12.035
三方主	-12.035
槍	-12.035
蒜	-12.035
玉符祝曰	-12.0351
郢	-12.0351
神明自來	-12.0351
天性人也人心機也立天之道以定人也	-12.0351
黄華蕩形	-12.0351
糾	-12.0352
駁	-12.0352
痰	-12.0352
剩	-12.0352
胸臆	-12.0352
斬馘不祥	-12.0352
深根固蒂	-12.0353
藁	-12.0353
漉	-12.0353
汲汲	-12.0353
保命生根	-12.0353
逼合鬼群	-12.0353
扆	-12.0353
虹蜺	-12.0353
莎	-12.0353
粘	-12.0353
謹上請	-12.0353
天發殺機	-12.0353
溟涬大梵	-12.0353
蓬萊都水	-12.0353
黄演之炁	-12.0353
說經五遍東北無極無量品	-12.0353
陰盡陽純	-12.0353
寵辱	-12.0354
逗	-12.0354
様	-12.0354
𩳐	-12.0354
視之不見聽之不聞	-12.0354
罵詈	-12.0354
又見地獄	-12.0354
玉谿子	-12.0354
動其機萬化安	-12.0355
姧	-12.0355
本命生辰	-12.0355
旄	-12.0355
生天生地	-12.0355
髏	-12.0355
監醜朗馥	-12.0355
氣養神	-12.0355
珊	-12.0355
寂然不動感而遂通	-12.0355
周流六虚	-12.0355
太玄道父	-12.0355
登眞隱訣云	-12.0355
嵬	-12.0355
嵳峩	-12.0355
出法度人	-12.0356
嚴攝北酆	-12.0356
結成聖胎	-12.0356
壇墠	-12.0356
廩	-12.0356
君子小人	-12.0356
廳	-12.0356
祈禳水旱	-12.0356
攴	-12.0357
負天擔石	-12.0357
貪狼	-12.0357
游泳	-12.0357
身得神仙諸天書名黄籙白簡削死上生	-12.0357
鉗	-12.0357
一如告命太歲年月日具位	-12.0357
合八字皆方一丈八角煥明	-12.0357
賾	-12.0357
顒	-12.0357
膿血	-12.0357
俛	-12.0357
蠧	-12.0357
㓕	-12.0357
葉文叔	-12.0357
身得神仙諸天書名黃籙白簡削死上生	-12.0358
可特封	-12.0358
凄	-12.0358
生生化化	-12.0358
抹	-12.0358
鳯凰	-12.0358
眞境渺渺紫金闕太微玉清宫	-12.0358
圓陀陀	-12.0358
無任精虔激切之至謹奉表奏告以聞	-12.0358
鬬	-12.0358
眇眇劫仞若亡若存	-12.0358
曖	-12.0359
諸天齊功	-12.0359
先天先地	-12.0359
无量之奥深不可詳	-12.0359
迅雷烈風	-12.0359
戰慄	-12.0359
西方七寳金門皓靈皇老	-12.0359
媒娉	-12.0359
故曰食其時百骸理動其機萬化安	-12.0359
淳朴	-12.0359
風刀之考	-12.036
品道言昔於始青天中	-12.036
說經十遍下方無極無量品	-12.036
誚	-12.036
萬象森羅	-12.036
鷺	-12.036
缾	-12.036
召赴闕	-12.036
銅鐵	-12.036
淆	-12.036
九九八十一	-12.0361
天龍鬼神	-12.0361
罌	-12.0361
龍虎相交	-12.0361
九哥	-12.0361
串	-12.0361
嘶	-12.0362
仕宦	-12.0362
啓道童子	-12.0362
東方九炁青天	-12.0362
蕤	-12.0362
鶯	-12.0362
鎗	-12.0362
難思議	-12.0362
昇天而去	-12.0362
正謂此也	-12.0362
嘹	-12.0363
溶溶	-12.0363
北方五炁玄天	-12.0363
某月某日	-12.0363
鷄犬	-12.0363
店	-12.0363
傾光回駕	-12.0364
帝嚳	-12.0364
階梯	-12.0364
億劫長存	-12.0364
繋	-12.0364
玉液還丹	-12.0364
會眞記	-12.0364
大赤靈文	-12.0365
靈飛六甲	-12.0365
逋	-12.0365
滓穢	-12.0365
鎬	-12.0365
公弼	-12.0365
羌	-12.0365
三界官屬	-12.0365
大吉臨	-12.0366
千乘萬騎	-12.0366
君一人官將一百二十人	-12.0366
江淮	-12.0366
元始符命時刻升遷	-12.0366
玄都下宫女青律文受者明愼奉行太	-12.0366
惋	-12.0367
衆妙之門	-12.0367
普吿三界	-12.0367
法自生是知	-12.0367
正音有知其音能齋而誦之者諸天皆遣	-12.0367
關捩	-12.0367
猶如虚空	-12.0367
痼疾	-12.0367
敢有干試拒遏	-12.0367
愷	-12.0367
瞋恚	-12.0368
精神魂魄意	-12.0368
劫仭	-12.0368
大隗	-12.0368
雲臺觀	-12.0368
虎兕	-12.0368
文始先生	-12.0369
到彼岸	-12.0369
穢汙	-12.0369
鈆汞	-12.037
縶	-12.037
誦詠洞章	-12.037
念呪一徧	-12.037
萼	-12.0371
燒香散花	-12.0371
李少君	-12.0371
囚徒	-12.0372
脊骨	-12.0372
金液鍊形	-12.0372
少室山	-12.0372
鄱陽	-12.0372
羙貌	-12.0372
憍	-12.0372
教誨	-12.0373
則延壽長年後皆得作尸解之道	-12.0374
碧潭	-12.0374
素奏丹符	-12.0375
𡨚愆	-12.0375
飽滿	-12.0375
淳祐九年	-12.0375
天立地	-12.0376
殃咎	-12.0377
飮食	-12.0377
名爲恬愉我說	-12.0378
粲然	-12.0378
愛惜	-12.0378
馨香	-12.0378
疑貳	-12.0379
滅三惡	-12.038
盈溢	-12.0381
胞樹	-12.0381
一念不生	-12.0382
憂懼	-12.0383
爲丹母	-12.0383
普掠	-12.0383
不啻	-12.0383
齊同慈愛異骨成親	-12.0384
貨藥	-12.0384
天王之内名	-12.0387
滯爽	-12.0387
肉眼	-12.0387
透徹	-12.0388
遁甲	-12.0389
緫統	-12.0389
通玄究微能悉其章誦之十過	-12.0389
諸天丞相	-12.039
等級	-12.0391
輕賤	-12.0393
舂山	-12.0393
皓庭	-12.0396
伯温	-12.0397
云何名爲	-12.0397
鐵杖	-12.0397
金丹一粒	-12.0399
收捉	-12.04
五行相生	-12.04
百穀	-12.0401
幻妄	-12.0402
黃鍾	-12.0404
衞護	-12.0404
忠良	-12.0405
穎悟	-12.0405
吐輝	-12.0406
堂曜天	-12.0406
邦家	-12.0407
侍軒	-12.041
莫得而	-12.041
弘濟	-12.0411
供奉	-12.0412
註釋	-12.0413
秦皇	-12.0416
十方國土	-12.0417
嘉瑞	-12.0417
猛虎	-12.0418
逾年	-12.0418
萬邦	-12.042
肅殺	-12.0422
種植	-12.0423
自子至	-12.0424
敢怠	-12.0425
灌煉	-12.0425
由是觀之	-12.0443
朱陽館	-12.0446
道言夫天地運終	-12.045
誦大洞經	-12.0459
臨過之時同學至人	-12.0475
上清之天天帝	-12.0475
鍊炁變仙	-12.0477
山嶽藏雲	-12.0493
死魂受鍊	-12.0503
冠冕	-12.0504
聞異香	-12.0507
生身受度劫劫長存	-12.0508
七日七夜諸天	-12.0513
四百萬歳	-12.0514
神明護門斯經尊妙獨歩玉京度人	-12.0527
普度無窮	-12.0551
茅嶺	-12.0552
差錯	-12.0562
末學道淺	-12.0564
紅蓮	-12.0593
二寸四分	-12.0594
摩夷	-12.0603
言無韻麗曲無華宛	-12.0605
渡江	-12.0617
父母兄弟	-12.0651
長齋誦詠是經	-12.0652
之靈九	-12.066
慈訓	-12.0669
道言凡有是經能爲天地	-12.0687
語之曰	-12.0716
青龍白虎朱雀玄武獅子白鶴羅列左右	-12.0759
普度天人今日欣慶受度	-12.0777
神霄玉清眞王	-12.0778
不孝父母	-12.0793
嗔怒	-12.0813
抱一守	-12.0814
淨霐	-12.0816
闊二寸	-12.0825
神王長生大聖無量度人上方無極	-12.0839
六百萬歳	-12.0866
奉道某	-12.0908
无量上品元始天尊當說是經周	-12.0915
▲▲▲	-12.0927
轉輪不惑便得神仙道言夫	-12.0928
神王長生大聖無量度人東北無極	-12.0934
神王長生大聖無量度人西南無極	-12.094
神王長生大聖無量度人東南無極	-12.0952
神王長生大聖無量度人西北無極	-12.0954
孝友	-12.0961
執籙把籍齊到帝前	-12.0965
著青衣	-12.0968
悲哀	-12.0975
上宫依玄科四萬劫一傳若有至人齎	-12.0979
神王長生大聖無量度人西方無極	-12.0983
神王長生大聖無量度人南方無極	-12.0989
氣周流	-12.0991
無極世界	-12.101
自號赫奕諸天齊功	-12.1018
三色雲氣之中内外蓊冥	-12.1018
吽吽	-12.1026
悟大乗	-12.1027
顆	-12.1028
指中文	-12.1029
者其德如	-12.1032
九嶷	-12.1032
著諸小兒	-12.1033
鈺	-12.1034
二五之精	-12.1038
毬	-12.1038
嵩高	-12.1041
佚	-12.1044
定録君㖟言	-12.1044
有王相氣	-12.1045
發改正	-12.1048
盎	-12.1049
馬鈺	-12.105
肢	-12.105
搖	-12.105
汴梁	-12.1051
元始即於寳珠之内	-12.1052
軺	-12.1052
大觀元年	-12.1053
宇宙在乎手	-12.1053
狡	-12.1053
旅邸	-12.1053
壙	-12.1053
薨	-12.1053
金甲朱衣朱履	-12.1054
天一地二	-12.1054
灣	-12.1054
賒	-12.1055
无所不辟无所不禳无所不度无所不成	-12.1056
衙	-12.1056
攅	-12.1057
鶩	-12.1057
罟	-12.1057
終而復始	-12.1057
之神龍宫官屬	-12.1057
哭泣	-12.1058
彝	-12.1058
捍	-12.1058
三反晝夜	-12.1058
翩	-12.1059
漪	-12.1059
鹵	-12.1059
黯	-12.1059
吉凶法第	-12.1059
萬神朝禮名書上天功滿徳就飛昇上清	-12.1059
到靈解山	-12.106
耘	-12.106
魔無干犯鬼無祅精	-12.106
怛	-12.1061
生於天地之先	-12.1061
猛馬四張	-12.1061
揈	-12.1061
企	-12.1061
傚	-12.1061
腕	-12.1061
人發殺機	-12.1061
筏	-12.1062
棠	-12.1062
鋭	-12.1062
混元實録	-12.1062
覈	-12.1062
懌	-12.1063
玄胎平育天	-12.1063
二三四五	-12.1063
光透簾幃	-12.1063
縟	-12.1063
匕	-12.1063
鬛	-12.1063
吠	-12.1064
瀟湘	-12.1064
以女妻	-12.1064
天人合發萬變定基	-12.1064
爇	-12.1064
凹	-12.1065
太皇翁重浮容天	-12.1065
閶	-12.1065
汰	-12.1065
恭準元降	-12.1065
魔王監舉無拘天門	-12.1065
至仁至孝至聖至慈聖	-12.1065
迤	-12.1065
自下而上	-12.1066
掉	-12.1066
憲宗元和	-12.1066
芸芸	-12.1066
蕊	-12.1066
善信男子女人	-12.1066
普受開度死魂生身	-12.1067
不敬三寳	-12.1067
綉衣	-12.1067
明炁四騫	-12.1067
睟	-12.1067
哂	-12.1067
臍下三寸	-12.1067
吉甫	-12.1068
知白守黑	-12.1068
渦	-12.1068
是男是女	-12.1068
木金間隔	-12.1068
元始天尊說經一徧東方无極无量品	-12.1068
八景玉輿	-12.1068
太釋玉隆騰勝天	-12.1068
觀明端靖天	-12.1068
焴	-12.1068
七八九六	-12.1068
招揺	-12.1068
灌漑	-12.1068
日月停景璇璣不行	-12.1068
妥	-12.1069
璉	-12.1069
我以時物文理哲	-12.1069
一得永得	-12.1069
靈寳本章	-12.1069
賺	-12.1069
宋高宗紹興	-12.1069
太極平育賈奕天	-12.1069
海棠	-12.1069
五行生成之數	-12.1069
茆	-12.1069
繖	-12.1069
瑜	-12.1069
旌旗	-12.1069
侵凌	-12.1069
說經八遍西北無極無量品	-12.107
膻	-12.107
闋	-12.107
熙熙	-12.107
皆方一丈八角煥明	-12.107
太素三元君	-12.1071
升此天釋云	-12.1071
周廻十方	-12.1071
雛	-12.1071
衒	-12.1072
仙道貴生无量度人	-12.1072
喗	-12.1072
竺落皇笳天	-12.1072
襃	-12.1072
迮國一半土皆偏䧟非可禁止於是元始	-12.1072
逭	-12.1072
日精陽明	-12.1072
牽牛	-12.1072
猿啼	-12.1072
靈風聚煙	-12.1073
體入自然	-12.1073
九垓	-12.1073
夜半子時	-12.1073
拯濟	-12.1073
神王長生大聖無量度人下方無極	-12.1073
行于世	-12.1073
鬱岡	-12.1073
㗸	-12.1073
迮國一半土皆偏陷非可禁止於是元始	-12.1073
上揲阮樂天	-12.1073
里社	-12.1073
叮嚀	-12.1073
敢有干試拒遏上眞	-12.1073
逈	-12.1073
睨	-12.1073
國人廓散地還平正無復欹陷元始即於	-12.1073
萬道之宗	-12.1073
說經七遍西南無極無量品	-12.1073
各一人官將各一百二十人	-12.1073
銀牙	-12.1073
西方七炁素天	-12.1074
魂神徑上南宫隨其學功計日而得更生	-12.1074
或問如何是	-12.1074
骨肉同飛	-12.1074
无文不光无文不明无文不立无文不	-12.1074
唵嚩	-12.1074
之難所以爲大不易者	-12.1074
檻	-12.1074
黄籙大齋	-12.1074
善男善女	-12.1075
希有希有	-12.1075
至尊几前	-12.1075
西斗記名	-12.1075
椽	-12.1075
億乘萬騎浮空而來	-12.1075
靈化梵輔天	-12.1075
三天扶教輔元大法	-12.1075
玉皇尊帝	-12.1075
殼	-12.1075
溟涬大梵遼廓無光	-12.1075
侶	-12.1075
八百萬歳	-12.1075
絮	-12.1076
承天效法	-12.1076
匆	-12.1076
濟度垂死絶而得生所以爾者學士	-12.1076
仲甫	-12.1076
鍚	-12.1076
左右中三府	-12.1076
八景冥合	-12.1076
不得留停	-12.1076
枷鎻	-12.1076
歌謡	-12.1076
瀘	-12.1076
蹻	-12.1076
三盜既宜三才既安	-12.1077
罪福禁戒宿命因縁普受開度	-12.1077
君子得之固躬小人得之輕命	-12.1077
矜憐	-12.1077
兩腎中間	-12.1077
解禳山谷瘴癘	-12.1077
琴瑟	-12.1077
𨚧	-12.1077
水生木	-12.1078
勉旃	-12.1078
岀臣身中三五功曹左右官使者侍香	-12.1078
誰肯	-12.1078
生生不窮	-12.1078
嬰兒姹女	-12.1078
跛痾積逮皆能起行	-12.1078
謳	-12.1079
頴	-12.1079
揉	-12.1079
十餘里	-12.1079
純陽帝君神化妙通紀卷之	-12.1079
纒絡	-12.1079
四維上下	-12.1079
流鈴八衝	-12.1079
无極曇誓天	-12.1079
魔魅	-12.1079
下鎮人身	-12.1079
南方梵寳昌陽丹靈眞老	-12.1079
滸	-12.108
祅氛	-12.108
蕭仞	-12.108
自午至亥	-12.108
供給	-12.108
渴飲	-12.108
負石填河	-12.1081
晻	-12.1081
塜訟	-12.1081
難可思議	-12.1081
髙上神霄玉清王祝曰	-12.1081
月二十八日	-12.1081
冥慧洞清	-12.1081
上天所寳祕於玄都紫微	-12.1081
陌	-12.1081
休糧	-12.1081
邛	-12.1081
毀壞	-12.1082
同時稱善	-12.1082
幽魂苦爽	-12.1082
竒偶	-12.1082
三十六部尊經	-12.1082
髙穹	-12.1082
淺薄	-12.1082
辭參髙真第一	-12.1082
元始上帝告左右侍眞曰	-12.1083
日月有數大小有定聖功生焉神明出焉	-12.1083
宋太祖	-12.1083
胃管	-12.1083
從劫至劫	-12.1083
沉溺	-12.1083
親戚	-12.1083
萬五千二百	-12.1083
朔單	-12.1083
㝠慧洞清大量玄玄也元始	-12.1083
靜黙山嶽吞煙萬靈振伏	-12.1084
辟斥	-12.1084
魑	-12.1085
大梵之言	-12.1085
九色之節	-12.1086
翽	-12.1086
禹步	-12.1086
風雨雷電	-12.1086
進陽火	-12.1086
謠	-12.1086
天仙地仙	-12.1087
陳摶	-12.1087
上件亡魂	-12.1088
臓腑	-12.1088
符師曰凡人	-12.1088
抽鉛	-12.1088
長七寸	-12.1088
杻	-12.1088
規模	-12.1089
一點靈光	-12.1089
三月三日	-12.1089
聒	-12.1089
眞君神呪	-12.1089
執鴈翎刀	-12.1089
片餉之間	-12.109
吟嘯	-12.109
墨黒	-12.109
泆	-12.109
司徒師坦	-12.1091
庫藏	-12.1091
祕宻眞藏	-12.1091
季夏	-12.1093
無拘天門東斗	-12.1094
虺	-12.1094
水火刀兵	-12.1095
敗壞	-12.1095
裝嚴	-12.1095
歡喜無量	-12.1096
淳祐	-12.1097
轉禮經懴	-12.1098
無人識	-12.1099
拯救	-12.11
修葺	-12.1101
眞水眞火	-12.1102
跨鶴	-12.1103
梵寳天	-12.1105
諷誦	-12.1105
野獸	-12.1106
臍輪	-12.1107
逃亡	-12.1107
煙焰	-12.1108
封皮	-12.1109
炁九口	-12.111
具足功德	-12.1112
梅福	-12.1117
氣之中内外蓊冥有青龍白虎朱雀玄武	-12.1119
塵網	-12.1121
神人休否末學之夫疾傷凡有此災	-12.1125
面三目	-12.1125
何妨	-12.1135
岷山	-12.1142
者何也蓋	-12.1142
乘白鹿	-12.1157
陀丘	-12.1161
吕曰所謂	-12.1165
有災之日發心修齋焼香誦經十過	-12.1168
神明護門	-12.1186
炁上騰	-12.1217
制魔保舉度品南宫	-12.1223
戒定慧	-12.1233
可不謹	-12.1239
月二十九日	-12.1274
之上說經一遍諸天大聖同時稱善是時	-12.1278
寳不傳下世至士齎金寳	-12.13
一年十二月	-12.1344
功德巍巍	-12.1355
然有聲	-12.1369
天丁前驅	-12.1389
仙化成人生身受度劫劫長存隨	-12.1405
符到處	-12.142
誦度人經	-12.1448
大力天丁	-12.1501
无上玄元三天玉堂大法卷之二十	-12.1512
非世之常辭上聖已成眞人通玄究微	-12.1533
元始符命時刻昇遷	-12.1557
復次善男子	-12.1576
喉舌	-12.1579
東海青童	-12.161
東極青華	-12.1623
送迎拔出地戸五苦八難七祖升遷永離	-12.1638
月二十五日	-12.1652
縁萬災不干神明護門斯經尊妙獨	-12.1673
之上說經一徧諸天大聖同時稱善是時	-12.168
荆州	-12.1697
昇天堂	-12.1698
唳	-12.1715
第九十	-12.1716
下觀其身書其功勤上奏諸天	-12.1728
金鉞前戮	-12.1752
供養尊禮	-12.1752
鬱藹	-12.1758
岷	-12.1776
塲	-12.1781
河海靜默	-12.1782
次第修	-12.1789
帝一尊君	-12.179
迄	-12.1793
哥	-12.1802
已身並充	-12.1803
紫皇太乙	-12.1813
鮓	-12.1814
執法眞宰	-12.1815
卿比平安好遣書指不多及	-12.1817
㠯	-12.1818
霹靂轟轟	-12.1819
麋	-12.182
慝	-12.182
𤤠	-12.182
估	-12.182
默朝上帝	-12.182
砭	-12.1821
罅	-12.1821
䘵	-12.1821
幟	-12.1821
闃	-12.1822
韓司主録	-12.1822
蛆	-12.1822
伶	-12.1822
臣某奉行	-12.1823
不得稽停	-12.1823
旱魃	-12.1823
三百六十五度	-12.1824
厢	-12.1825
坎中之陽	-12.1825
赤符丹光	-12.1826
故汝行	-12.1826
崙	-12.1826
攘	-12.1826
龍吟虎嘯	-12.1827
斟酌	-12.1827
摺	-12.1827
青玄救苦	-12.1828
三十萬兵	-12.1828
漳	-12.1828
普植神靈	-12.1828
冡	-12.1828
昏昏默默	-12.1828
濟度死䰟	-12.1829
環堵	-12.1829
五月二十日	-12.1829
高虚清明天	-12.1829
詧	-12.1829
芋	-12.183
擯	-12.183
有物混成先天地生	-12.183
漂溺	-12.1831
絛	-12.1831
泬	-12.1831
荘	-12.1831
信禮無上大羅天	-12.1831
屹	-12.1832
涘	-12.1832
恩生於害	-12.1832
八萬四千里	-12.1832
五嶽眞形圖	-12.1832
[...]
