<unk>	0
<s>	0
</s>	0
之	-3.88425
而	-4.69911
也	-4.72254
以	-4.89347
爲	-5.06445
者	-5.07534
)	-5.18705
(	-5.19685
有	-5.20006
其	-5.21984
不	-5.31584
一	-5.47225
於	-5.50683
則	-5.52914
無	-5.56292
人	-5.59445
曰	-5.6098
/	-5.71695
大	-5.86941
上	-5.92832
自	-5.93903
與	-5.9434
天	-5.97053
生	-5.98153
故	-6.04703
行	-6.05843
如	-6.08978
矣	-6.09825
乎	-6.11178
子	-6.11193
中	-6.11494
言	-6.12106
道	-6.13666
至	-6.1448
三	-6.15691
此	-6.16564
神	-6.1733
是	-6.19057
見	-6.19687
非	-6.24429
得	-6.24659
心	-6.26096
若	-6.2815
時	-6.28597
在	-6.28977
⬤	-6.32164
所	-6.34328
下	-6.34712
皆	-6.3539
事	-6.35652
水	-6.36941
日	-6.40593
乃	-6.41955
明	-6.4232
二	-6.44869
我	-6.44876
于	-6.45164
王	-6.45219
然	-6.4533
知	-6.46117
四	-6.49093
五	-6.52317
相	-6.53488
山	-6.54521
可	-6.55101
▁	-6.5531
出	-6.56165
亦	-6.56517
名	-6.57999
又	-6.58753
作	-6.59299
同	-6.61722
成	-6.62262
命	-6.6271
使	-6.65498
正	-6.66822
身	-6.66893
來	-6.67554
主	-6.67649
及	-6.6899
金	-6.69432
或	-6.69838
能	-6.70218
入	-6.70231
當	-6.70441
復	-6.71072
後	-6.71411
君	-6.71436
)(	-6.72075
公	-6.72277
德	-6.73382
用	-6.7378
文	-6.73897
氣	-6.74704
今	-6.75588
將	-6.76163
即	-6.77182
扵	-6.77658
欲	-6.78018
焉	-6.78215
已	-6.80594
從	-6.80636
帝	-6.81503
地	-6.81649
夫	-6.81771
未	-6.82137
多	-6.8388
居	-6.85117
何	-6.86332
高	-6.89381
常	-6.89554
眞	-6.89564
長	-6.89755
九	-6.90489
善	-6.90774
經	-6.9089
方	-6.91514
哉	-6.91843
雖	-6.92337
法	-6.9336
書	-6.93513
必	-6.9372
民	-6.94312
安	-6.94457
不可	-6.96539
化	-6.96674
火	-6.97886
立	-6.98024
重	-6.98153
吾	-6.98242
去	-6.98334
六	-6.98933
耳	-6.99575
天下	-6.9978
分	-7.00004
世	-7.00314
石	-7.0154
光	-7.01698
謂	-7.02524
靈	-7.0269
物	-7.03839
官	-7.03863
宫	-7.04126
師	-7.04624
觀	-7.04924
死	-7.04928
國	-7.04973
處	-7.0509
盡	-7.05301
禮	-7.0594
云	-7.06883
風	-7.07198
應	-7.08093
前	-7.08524
諸	-7.08888
歸	-7.0897
難	-7.09743
初	-7.10268
過	-7.10544
起	-7.11826
陽	-7.11858
臣	-7.12658
本	-7.1287
家	-7.12948
因	-7.13214
惟	-7.13381
聞	-7.13609
元	-7.13942
福	-7.13994
通	-7.14976
遂	-7.15013
先	-7.15188
令	-7.15819
信	-7.1626
且	-7.16321
始	-7.16608
合	-7.16634
傳	-7.16891
不能	-7.16922
雲	-7.17077
失	-7.17777
龍	-7.18099
八	-7.18099
星	-7.18635
外	-7.19993
度	-7.2012
門	-7.2044
形	-7.20522
玄	-7.21043
以爲	-7.21249
求	-7.21409
意	-7.22232
内	-7.2308
實	-7.23084
女	-7.23903
樂	-7.23924
聖	-7.24304
周	-7.24374
數	-7.24887
年	-7.2572
利	-7.25947
既	-7.26311
宜	-7.26644
終	-7.26833
清	-7.27126
東	-7.2714
定	-7.27388
為	-7.27504
玉	-7.27773
小	-7.28217
土	-7.29201
衆	-7.29205
受	-7.29541
深	-7.30342
而不	-7.30415
七	-7.30943
月	-7.31254
會	-7.3244
空	-7.32781
平	-7.32867
親	-7.34094
易	-7.3514
說	-7.35186
獨	-7.36181
食	-7.36211
木	-7.36437
所以	-7.36595
性	-7.36827
字	-7.37034
守	-7.37077
好	-7.38123
取	-7.38291
反	-7.3846
仙	-7.38648
和	-7.38749
凡	-7.39597
位	-7.39805
十	-7.3986
治	-7.40075
貴	-7.40091
問	-7.4019
莫	-7.40232
兩	-7.40568
開	-7.40606
舉	-7.41019
彼	-7.4107
少	-7.41545
朝	-7.4166
義	-7.42259
西	-7.42353
爾	-7.42899
發	-7.43777
馬	-7.4387
色	-7.44284
變	-7.44708
益	-7.44945
猶	-7.45157
惡	-7.45291
異	-7.45386
封	-7.45558
志	-7.457
飛	-7.46634
徃	-7.46649
流	-7.46756
服	-7.47743
思	-7.47848
兮	-7.47915
之所	-7.47998
節	-7.48349
教	-7.48438
父	-7.48557
遇	-7.48711
南	-7.48717
理	-7.48882
精	-7.49538
喜	-7.49652
直	-7.49654
望	-7.4966
白	-7.49714
母	-7.49767
請	-7.50087
張	-7.50544
齊	-7.51429
蓋	-7.51679
等	-7.51951
體	-7.51982
間	-7.5214
稱	-7.52585
真	-7.52924
極	-7.53198
致	-7.5339
亂	-7.53496
各	-7.53651
止	-7.539
甚	-7.54431
語	-7.54491
學	-7.54514
加	-7.54734
吉	-7.5476
聲	-7.54845
兵	-7.55022
論	-7.55245
坐	-7.55677
尚	-7.56024
動	-7.5607
臨	-7.56265
還	-7.57083
願	-7.57437
不知	-7.57556
功	-7.57816
順	-7.57833
萬	-7.58038
足	-7.58394
士	-7.58522
進	-7.58829
天地	-7.59223
興	-7.59788
邪	-7.60197
老	-7.60487
所謂	-7.61212
降	-7.61362
力	-7.61623
斯	-7.61812
北	-7.61898
陳	-7.62185
可以	-7.62558
君子	-7.6274
離	-7.63054
任	-7.6387
宗	-7.64155
目	-7.64297
衣	-7.64572
隨	-7.65326
己	-7.65342
念	-7.65431
遠	-7.65995
固	-7.66046
亡	-7.66082
漢	-7.66416
妙	-7.66497
古	-7.66658
口	-7.66672
象	-7.6718
尊	-7.67684
憂	-7.68141
華	-7.68238
遊	-7.68331
全	-7.6837
更	-7.6884
氏	-7.68841
仁	-7.68884
建	-7.68922
制	-7.69643
宋	-7.7007
登	-7.70087
州	-7.70459
號	-7.70701
奉	-7.70836
載	-7.71076
春	-7.71186
黄	-7.71782
交	-7.71811
絶	-7.71848
予	-7.72792
俱	-7.73509
不得	-7.73616
病	-7.74373
存	-7.74568
廣	-7.74877
隂	-7.7522
豈	-7.75645
汝	-7.75785
殺	-7.75857
嘗	-7.75873
誠	-7.76099
視	-7.7612
由	-7.76458
聖人	-7.77811
修	-7.78107
賢	-7.78891
自然	-7.78915
解	-7.7898
傷	-7.79151
章	-7.79453
敬	-7.79605
百	-7.79758
也夫	-7.8005
者也	-7.80306
室	-7.8059
照	-7.80697
陰	-7.80802
告	-7.81115
要	-7.81513
左	-7.81961
愛	-7.82052
青	-7.82237
乘	-7.82731
寳	-7.83233
果	-7.83386
疾	-7.8348
○	-7.83629
虛	-7.83836
執	-7.84106
□	-7.84625
永	-7.84851
近	-7.85274
美	-7.85592
恩	-7.85598
除	-7.86069
並	-7.862
耶	-7.8625
養	-7.86414
夜	-7.86798
右	-7.87112
車	-7.87385
勝	-7.87443
景	-7.87976
符	-7.88237
次	-7.89108
禍	-7.895
詩	-7.89502
太	-7.89723
比	-7.90176
苦	-7.90338
香	-7.90383
祖	-7.90511
感	-7.90536
田	-7.90649
運	-7.90736
刑	-7.90951
向	-7.90981
卒	-7.91304
記	-7.91837
廟	-7.91837
就	-7.91987
鬼	-7.92012
首	-7.92102
共	-7.92245
洞	-7.9233
伯	-7.92743
指	-7.93035
凶	-7.93093
計	-7.93141
壽	-7.93313
散	-7.93731
遺	-7.9426
音	-7.94268
圖	-7.94643
濟	-7.95411
李	-7.95419
城	-7.95629
適	-7.95808
武	-7.95899
故曰	-7.9594
頭	-7.96083
海	-7.96218
害	-7.96841
丹	-7.97102
賜	-7.97116
録曰	-7.97234
拜	-7.97795
結	-7.98038
藏	-7.98497
辭	-7.98832
財	-7.98835
路	-7.98887
業	-7.99144
酒	-7.99197
政	-7.99267
便	-7.99327
徒	-7.99378
持	-7.99479
后	-7.99885
秦	-7.99919
秋	-7.99926
施	-8.00028
千	-8.00532
舊	-8.00704
智	-8.0081
謀	-8.0086
承	-8.00889
留	-8.00952
顯	-8.01023
申	-8.01106
召	-8.01131
虎	-8.01387
情	-8.01392
識	-8.01558
伏	-8.01692
雨	-8.01717
危	-8.02143
保	-8.02145
戒	-8.02177
對	-8.02429
花	-8.02607
但	-8.02651
罪	-8.02724
乾	-8.02807
須	-8.03517
府	-8.03725
特	-8.03738
寧	-8.04062
疑	-8.0415
似	-8.04408
靜	-8.04839
都	-8.04854
无	-8.04959
授	-8.05
報	-8.05177
具	-8.05402
司	-8.05406
崇	-8.05412
屬	-8.05591
侯	-8.05673
而已	-8.05783
久	-8.0596
脩	-8.06029
歲	-8.06247
集	-8.06541
而後	-8.06626
新	-8.06754
盛	-8.0697
奏	-8.07012
回	-8.07019
息	-8.0709
著	-8.0713
顧	-8.07612
强	-8.07626
泰山	-8.07714
先生	-8.07919
忘	-8.08233
客	-8.08288
積	-8.08447
咸	-8.08668
河	-8.08889
其所	-8.09036
御	-8.0907
寒	-8.09076
俗	-8.09533
唐	-8.09595
澤	-8.0971
巳	-8.09957
蒙	-8.09996
泉	-8.10071
午	-8.10088
許	-8.1048
窮	-8.10786
林	-8.1086
富	-8.10988
謂之	-8.11011
損	-8.11282
推	-8.11464
夢	-8.11564
代	-8.1166
休	-8.11868
輕	-8.12146
懷	-8.12323
備	-8.12376
患	-8.12516
隱	-8.13023
手	-8.13032
日月	-8.13151
素	-8.13191
履	-8.1331
議	-8.13324
滅	-8.13333
魚	-8.13501
幾	-8.13625
孝	-8.13675
關	-8.13783
容	-8.13891
夏	-8.14008
别	-8.14343
看	-8.14346
轉	-8.14829
爭	-8.15048
詔	-8.15185
喪	-8.15203
佛	-8.15281
仰	-8.15477
斷	-8.1609
盖	-8.16183
堂	-8.16274
到	-8.16442
一切	-8.16867
再	-8.16932
面	-8.17037
每	-8.17074
無所	-8.1717
貞	-8.17479
人之	-8.17487
權	-8.17759
表	-8.18086
紀	-8.18116
獻	-8.18218
累	-8.18822
破	-8.1887
嚴	-8.19055
余	-8.19266
幸	-8.19352
群	-8.19635
禄	-8.19661
萬物	-8.19677
類	-8.19733
孤	-8.19737
達	-8.19779
惠	-8.19805
臺	-8.19918
升	-8.2006
是以	-8.20098
宿	-8.20671
也故	-8.20795
虚	-8.20991
弗	-8.21051
玉帝	-8.21271
忠	-8.21732
魯	-8.21968
逢	-8.22035
厚	-8.22356
祀	-8.2252
泰	-8.22551
殿	-8.22714
十二	-8.22772
垂	-8.22866
造	-8.2287
井	-8.22917
職	-8.23219
一日	-8.23438
切	-8.2368
軍	-8.23854
逆	-8.24039
唯	-8.24085
餘	-8.24449
真人	-8.24479
依	-8.2455
畢	-8.24579
不見	-8.24605
落	-8.24962
務	-8.24993
畫	-8.25066
歌	-8.25151
皇	-8.25317
幽	-8.25396
覺	-8.25516
獲	-8.2553
妄	-8.25608
牛	-8.25734
藥	-8.25782
舍	-8.25905
宣	-8.26098
才	-8.26459
坤	-8.26561
昭	-8.26633
設	-8.26691
忽	-8.26886
祠	-8.26984
孫	-8.27049
輔	-8.27135
壇	-8.27286
愈	-8.27462
慶	-8.27717
震	-8.27752
被	-8.27755
衛	-8.27934
謝	-8.28017
賊	-8.28167
冠	-8.28491
驚	-8.285
榮	-8.2855
良	-8.28687
期	-8.28791
不敢	-8.2893
退	-8.29002
之事	-8.29003
遷	-8.29223
聽	-8.2923
按	-8.2923
如此	-8.29266
悉	-8.29399
劉	-8.29482
引	-8.29654
辰	-8.29913
剛	-8.30027
端	-8.30078
愚	-8.30153
奇	-8.30338
勞	-8.30466
免	-8.30579
紫	-8.30695
里	-8.30699
啓	-8.30851
朕	-8.30892
誰	-8.31055
梁	-8.31057
克	-8.31519
眞人	-8.31548
勿	-8.31797
逐	-8.31922
列	-8.3225
待	-8.32256
廢	-8.3236
之道	-8.32464
孔子	-8.32785
置	-8.32987
尤	-8.33359
嘉	-8.33674
棄	-8.34212
歷	-8.34269
史	-8.34655
儀	-8.35003
不爲	-8.3514
迎	-8.35302
草	-8.35619
根	-8.35687
率	-8.35784
敗	-8.35859
私	-8.3637
羅	-8.36416
不足	-8.36504
齋	-8.3655
連	-8.36603
决	-8.36613
苟	-8.3666
改	-8.3673
專	-8.36903
友	-8.37363
卿	-8.37537
威	-8.3759
昔	-8.37987
恭	-8.38073
於是	-8.38173
鳥	-8.38246
聚	-8.386
吴	-8.38845
折	-8.39093
滿	-8.39165
典	-8.39321
之時	-8.39344
微	-8.39402
質	-8.3941
放	-8.39597
假	-8.39623
吏	-8.39768
布	-8.40117
戰	-8.40156
寅	-8.40517
曲	-8.40644
序	-8.40694
原	-8.41
庭	-8.41028
半	-8.41087
塵	-8.41101
漸	-8.41152
否	-8.4119
曾	-8.41258
考	-8.41735
險	-8.41917
他	-8.41935
堅	-8.41977
又曰	-8.4227
左右	-8.42529
謹	-8.42791
何以	-8.42846
困	-8.42878
延	-8.42917
谷	-8.42976
録	-8.43025
尋	-8.43043
父母	-8.43055
薄	-8.43246
叔	-8.43268
晋	-8.43268
刻	-8.43396
兹	-8.43447
赤	-8.43646
之心	-8.43662
嗣	-8.43881
覆	-8.44369
機	-8.44376
浮	-8.44377
毋	-8.4462
收	-8.44924
老子	-8.4517
灾	-8.45319
柔	-8.45474
脫	-8.45653
甲	-8.45659
江	-8.45915
徳	-8.46092
迷	-8.46154
野	-8.46168
趙	-8.46396
器	-8.46548
雷	-8.46634
寵	-8.4668
夫人	-8.46935
恐	-8.47236
負	-8.47273
魂	-8.47433
之言	-8.47463
哀	-8.47545
越	-8.47634
縁	-8.47919
背	-8.47924
掌	-8.48017
慈	-8.4812
昌	-8.48137
妻	-8.48222
殊	-8.48482
不及	-8.48525
怒	-8.4861
遣	-8.48663
效	-8.48822
道士	-8.48944
象曰	-8.49341
嵗	-8.49875
最	-8.49988
胡	-8.50117
兼	-8.50185
朱	-8.50191
卦	-8.50209
笑	-8.50221
鼎	-8.50462
丘	-8.50571
之間	-8.50692
楚	-8.50759
却	-8.51035
逺	-8.51147
夷	-8.51748
移	-8.51773
有所	-8.51843
助	-8.51897
悟	-8.52007
燕	-8.52022
消	-8.52038
曰吾	-8.5207
駕	-8.52236
况	-8.52299
峰	-8.52866
祭	-8.53082
救	-8.53124
縣	-8.5316
穴	-8.53206
工	-8.53436
呼	-8.53523
巽	-8.53674
露	-8.53715
斗	-8.53966
然後	-8.5419
筆	-8.54272
送	-8.54335
印	-8.54439
坎	-8.54513
維	-8.54603
大道	-8.54683
繼	-8.54839
接	-8.54847
薦	-8.54898
陵	-8.55136
走	-8.55539
碑	-8.55611
上下	-8.55661
步	-8.55787
鳴	-8.55923
簡	-8.56211
懼	-8.56422
天門	-8.56501
境	-8.56561
種	-8.5662
鄉	-8.56625
畏	-8.56669
之中	-8.56671
帶	-8.56829
招	-8.56834
松	-8.56939
未嘗	-8.5715
篇	-8.57239
季	-8.57604
參	-8.57666
災	-8.58158
揚	-8.58212
恒	-8.58321
革	-8.58372
怨	-8.58482
婦	-8.58506
伐	-8.58595
卯	-8.58697
庶	-8.5878
卷	-8.58931
秀	-8.59056
冬	-8.59534
三年	-8.59593
勤	-8.5984
省	-8.59843
功德	-8.59933
崖	-8.60066
至於	-8.6026
厥	-8.6072
護	-8.60805
然則	-8.61082
釋	-8.61133
魏	-8.61452
弟	-8.61526
早	-8.61556
儒	-8.61639
毒	-8.62154
是非	-8.62322
姓	-8.62538
敢	-8.6257
注	-8.62631
追	-8.62637
責	-8.62801
侍	-8.63066
辯	-8.6307
翼	-8.63232
部	-8.63292
違	-8.63422
大天王	-8.63426
英	-8.635
子孫	-8.63518
天子	-8.63587
游	-8.63676
乾坤	-8.63696
無窮	-8.63754
鄭	-8.64003
衰	-8.64115
春秋	-8.6448
商	-8.64579
約	-8.64621
淵	-8.64765
歟	-8.6486
九天	-8.64961
末	-8.65003
富貴	-8.65047
天下之	-8.65119
勢	-8.65142
秘	-8.65484
豐	-8.65552
飲	-8.65611
資	-8.65642
而無	-8.65878
盈	-8.65908
迹	-8.65937
避	-8.66013
鳳	-8.66109
慮	-8.66544
察	-8.66581
增	-8.66671
貧	-8.66718
惑	-8.66915
誦	-8.67265
壯	-8.67302
紅	-8.67636
犯	-8.67761
誅	-8.67834
詞	-8.67854
禁	-8.6791
太上	-8.67977
旦	-8.68024
品	-8.68039
錫	-8.684
急	-8.68849
雙	-8.68948
超	-8.69203
徐	-8.69256
是也	-8.69353
樹	-8.69449
細	-8.69483
廼	-8.69497
邑	-8.69508
普	-8.69648
名曰	-8.69697
役	-8.69735
户	-8.69792
想	-8.69816
没	-8.69871
變化	-8.69956
是故	-8.70131
之上	-8.70254
不同	-8.70388
獄	-8.70395
夫子	-8.7048
貪	-8.70564
舟	-8.70644
之意	-8.70724
旅	-8.70984
徹	-8.71139
悲	-8.71273
珠	-8.71395
角	-8.71631
㣲	-8.71814
亨	-8.71841
必有	-8.71871
格	-8.71996
大夫	-8.72145
炁	-8.72398
祝	-8.72513
後世	-8.72575
盤	-8.72588
雄	-8.72727
沉	-8.72758
密	-8.72765
賛	-8.72774
納	-8.72815
弟子	-8.72839
讀	-8.72971
奪	-8.73122
弱	-8.73157
如是	-8.73244
童	-8.73305
酉	-8.73394
骨	-8.73539
之後	-8.73587
仲	-8.73722
艮	-8.73894
策	-8.74285
讓	-8.74287
知其	-8.74328
影	-8.74386
懸	-8.7447
俾	-8.74535
堯	-8.74664
光明	-8.74694
暗	-8.74735
丑	-8.7474
嶽	-8.74756
投	-8.74795
甘	-8.74825
上帝	-8.74853
隂陽	-8.74915
祥	-8.75034
偏	-8.7525
抱	-8.75277
曹	-8.75401
只	-8.75415
髙	-8.75541
旣	-8.75665
謙	-8.75669
天尊	-8.75983
冥	-8.76015
訟	-8.76091
遍	-8.76141
雜	-8.76234
附	-8.76249
兄弟	-8.76365
曜	-8.76464
示	-8.76669
不如	-8.76739
凢	-8.76808
舜	-8.76883
貫	-8.76997
羊	-8.77134
了	-8.77213
振	-8.77317
禹	-8.77385
陸	-8.77399
式	-8.77411
豫	-8.77593
諸侯	-8.7782
亭	-8.77907
忌	-8.77928
虞	-8.78123
楊	-8.78239
鶴	-8.78499
来	-8.78566
葉	-8.78584
黄帝	-8.78722
攝	-8.78789
宇	-8.7886
邦	-8.78944
眼	-8.79008
傾	-8.79082
含	-8.79108
鎮	-8.79191
無有	-8.79343
男	-8.79442
某	-8.79471
而爲	-8.79515
錢	-8.79645
元始	-8.79667
爲之	-8.7995
玉女	-8.80199
跡	-8.80268
者皆	-8.803
扶	-8.80416
之人	-8.80479
縱	-8.8063
祈	-8.80788
現	-8.80807
蛇	-8.80908
畜	-8.80908
横	-8.80921
不然	-8.8093
池	-8.8102
試	-8.81021
兊	-8.81047
四方	-8.81108
弘	-8.81399
黑	-8.81622
享	-8.8163
訓	-8.81672
調	-8.81928
源	-8.81961
韓	-8.82441
愼	-8.82556
魔	-8.82704
杖	-8.82728
厲	-8.82809
鼓	-8.82854
朝廷	-8.82968
可謂	-8.83061
純	-8.83281
竊	-8.83477
昏	-8.83545
康	-8.83685
闕	-8.83708
小人	-8.83713
龜	-8.83877
默	-8.84094
曉	-8.84095
寶	-8.84115
并	-8.84128
鬼神	-8.84201
怪	-8.84211
鍾	-8.84221
吕	-8.84305
然而	-8.84488
奔	-8.84531
充	-8.84561
文王	-8.84644
住	-8.84991
統	-8.85011
孰	-8.85081
無爲	-8.85155
壁	-8.85212
習	-8.85337
碧	-8.85429
奚	-8.85693
兄	-8.85829
悔	-8.85938
希	-8.86073
界	-8.86136
輪	-8.86141
尅	-8.86265
雪	-8.86353
䟽	-8.86388
湏	-8.86439
衆生	-8.86502
亥	-8.8653
撫	-8.86558
烏	-8.86558
閑	-8.86614
羽	-8.86635
辱	-8.86677
管	-8.86732
不以	-8.86744
籍	-8.86866
神明	-8.86979
勸	-8.87037
詣	-8.87346
罷	-8.87374
倚	-8.8739
哭	-8.87542
塞	-8.87894
將軍	-8.87913
賦	-8.88268
速	-8.88284
竟	-8.88315
郡	-8.88425
禱	-8.88523
觧	-8.88637
神仙	-8.88754
而不知	-8.88921
輿	-8.89044
偶	-8.89092
欺	-8.89206
岳	-8.8944
賴	-8.89482
暴	-8.89584
刼	-8.89618
爲人	-8.89668
肅	-8.89841
諸天	-8.89851
領	-8.89933
雖有	-8.90064
諭	-8.90095
頂	-8.90179
育	-8.90248
房	-8.90252
卜	-8.9027
巧	-8.90361
十三	-8.90405
巖	-8.90547
頌	-8.90824
温	-8.90852
太子	-8.90889
郭註	-8.90949
之士	-8.90956
學者	-8.91078
殘	-8.91313
僧	-8.91563
慕	-8.91686
題	-8.91691
彌	-8.91827
辟	-8.91869
麗	-8.91991
旺	-8.92026
未有	-8.92111
人心	-8.92187
峯	-8.92284
足以	-8.92402
配	-8.92535
之功	-8.9254
仍	-8.92562
殷	-8.92923
歡	-8.93207
差	-8.93218
科	-8.93364
隆	-8.93527
亦有	-8.93599
不可以	-8.937
莫不	-8.93835
眞君	-8.93881
述	-8.93933
蘇	-8.9401
術	-8.94015
索	-8.94089
側	-8.94098
晨	-8.94159
仁義	-8.94332
量	-8.946
封禪	-8.94679
階	-8.94732
陛下	-8.94882
者非	-8.9489
圓	-8.94919
郷	-8.94968
兒	-8.95091
材	-8.95156
瞻	-8.9517
十方	-8.95171
毁	-8.95188
族	-8.95203
淫	-8.95311
孔	-8.95472
血	-8.95486
邊	-8.95717
此經	-8.95819
防	-8.95929
罔	-8.96002
鑒	-8.96113
營	-8.96569
悅	-8.96625
毛	-8.96788
萬里	-8.96806
融	-8.96866
介	-8.96928
補	-8.9694
驗	-8.97121
寄	-8.97307
禪	-8.97309
賈	-8.97479
均	-8.97906
市	-8.97913
俯	-8.97987
録曰愚觀	-8.97989
擇	-8.98124
委	-8.98294
晦	-8.9835
條	-8.98354
枝	-8.98536
陰陽	-8.98611
顔	-8.98663
擊	-8.98821
溪	-8.98867
㓕	-8.98911
無不	-8.98933
爵	-8.98961
囚	-8.99064
之則	-8.99235
勑	-8.99294
有餘	-8.99423
以其	-8.99606
當作	-8.9976
湯	-8.99767
射	-8.99808
醉	-8.99841
三十	-8.99985
今日	-9.00005
遭	-9.00099
孟	-9.00266
祐	-9.00337
而有	-9.00424
荒	-9.0044
瑞	-9.00472
徴	-9.00568
其心	-9.00849
干	-9.01138
屋	-9.0117
嗚呼	-9.01188
裏	-9.01198
舞	-9.01279
也今	-9.0128
屢	-9.01332
以來	-9.01431
貌	-9.01442
句	-9.01466
周公	-9.01468
之法	-9.01511
像	-9.01513
謁	-9.0167
長生	-9.01722
於此	-9.01759
死生	-9.01806
葬	-9.01922
憲	-9.02005
巨	-9.02062
稍	-9.0212
㫖	-9.02212
寡	-9.02215
蔽	-9.0276
潜	-9.02785
談	-9.02874
凝	-9.03052
繫	-9.03197
宅	-9.03303
亦不	-9.03378
賞	-9.0352
嶺	-9.03544
樓	-9.03553
僞	-9.03567
選	-9.03571
閣	-9.03588
例	-9.03754
賤	-9.038
冲	-9.0385
侵	-9.04123
瓊	-9.04292
茂	-9.04328
席	-9.04341
䖏	-9.04366
寬	-9.044
未詳	-9.04416
人間	-9.04478
彖曰	-9.04587
古今	-9.04672
幼	-9.04737
煉	-9.04774
限	-9.04833
祗	-9.04841
證	-9.04968
味	-9.04979
耗	-9.05018
遯	-9.05099
男女	-9.05225
對曰	-9.05338
三界	-9.05344
京	-9.05361
當時	-9.05387
醮	-9.05506
操	-9.05508
嘆	-9.05549
抑	-9.05568
晝	-9.05759
魄	-9.05773
采	-9.05822
戴	-9.05859
赴	-9.0591
剥	-9.06043
十六	-9.06277
旋	-9.06605
環	-9.06667
五行	-9.06681
十五	-9.068
三月	-9.07157
使人	-9.0716
圍	-9.07317
敵	-9.0745
允	-9.0745
包	-9.07452
屯	-9.07539
總	-9.07688
之義	-9.07902
夾	-9.08109
衍	-9.08219
以此	-9.08248
十一	-9.08276
之地	-9.08431
天師	-9.0847
尾	-9.08482
國家	-9.08764
趨	-9.08967
波	-9.08977
導	-9.0907
贈	-9.09125
據	-9.09139
途	-9.09152
二十	-9.09248
昇	-9.09295
焚	-9.09295
蕩	-9.09523
孚	-9.09586
川	-9.09619
岱宗	-9.0978
劒	-9.09893
之日	-9.09901
着	-9.09913
殆	-9.10258
給	-9.10269
誓	-9.10297
蒼	-9.10578
篤	-9.10591
不信	-9.10611
燈	-9.10626
蜀	-9.10642
一人	-9.10655
太平	-9.1074
齒	-9.10743
人也	-9.1076
覩	-9.10777
盜	-9.10903
也若	-9.11011
係	-9.1109
勇	-9.11099
乆	-9.1132
遵	-9.11339
卧	-9.11459
吟	-9.11483
敦	-9.11527
輙	-9.11557
觸	-9.11563
驅	-9.11659
返	-9.11804
無極	-9.12009
天之	-9.12011
相與	-9.12092
洪	-9.12124
刀	-9.12338
詩曰	-9.12344
无咎	-9.1247
略	-9.12521
座	-9.12549
子曰	-9.12855
狀	-9.1295
之情	-9.13155
燭	-9.13178
十四	-9.13477
則有	-9.13772
衡	-9.13935
千里	-9.13952
鹿	-9.13955
造化	-9.13958
詳	-9.13958
萃	-9.13993
攻	-9.13996
肆	-9.1405
未能	-9.14093
聞之	-9.14198
自是	-9.14251
父子	-9.14529
短	-9.14663
倫	-9.14688
天地之	-9.14719
躬	-9.14834
上清	-9.14859
竹	-9.14872
蹇	-9.14907
竒	-9.1493
墓	-9.15146
講	-9.15161
拘	-9.15172
兆	-9.15521
腹	-9.15543
無註	-9.15626
熟	-9.15824
拱	-9.16107
而能	-9.16117
欽	-9.16165
之所以	-9.16186
皇帝	-9.1632
完	-9.16361
烈	-9.16484
譽	-9.16511
遲	-9.16536
佑	-9.16575
朔	-9.16593
翠	-9.16664
諫	-9.16701
矣故	-9.16734
不成	-9.16853
註	-9.16883
辨	-9.16959
諱	-9.1698
天道	-9.17043
戌	-9.17064
羣	-9.17179
也而	-9.17304
卑	-9.17472
馳	-9.17505
混	-9.17511
杜	-9.17512
中有	-9.17611
五嶽	-9.18072
際	-9.18078
出入	-9.18114
支	-9.18161
循	-9.18199
穿	-9.18248
不過	-9.18262
而不能	-9.18384
征	-9.18408
痛	-9.18454
壞	-9.18474
旁	-9.18513
不明	-9.18629
太陽	-9.18675
廬	-9.18769
元年	-9.18816
付	-9.18824
監	-9.18868
惜	-9.18925
彰	-9.18957
趣	-9.18963
耀	-9.18966
愽	-9.19014
咎	-9.19045
㑹	-9.19179
預	-9.19221
愆	-9.19256
翁	-9.19261
恨	-9.19278
知之	-9.193
之說	-9.19377
襲	-9.1939
二年	-9.19449
文章	-9.19455
真君	-9.19511
文昌	-9.19523
妖	-9.19525
丁	-9.1956
洞賔	-9.19577
自得	-9.19892
溺	-9.19981
見其	-9.20083
胎	-9.201
津	-9.20228
白雲	-9.20305
第	-9.20363
不利	-9.20584
曰此	-9.20601
暮	-9.20694
班	-9.2072
占	-9.20969
萬世	-9.21022
費	-9.21023
天上	-9.21036
畧	-9.21079
阿	-9.21126
恃	-9.21396
其事	-9.2148
供	-9.21595
沙	-9.21719
一作	-9.2175
遥	-9.21914
逰	-9.21918
騎	-9.21935
叅	-9.21959
墨	-9.21961
契	-9.21992
蠱	-9.22029
自有	-9.221
百姓	-9.22156
勉	-9.22445
其人	-9.22454
是爲	-9.22515
遽	-9.22563
是謂	-9.22573
生於	-9.22757
肉	-9.22822
憑	-9.22921
堪	-9.2299
第一	-9.2305
與之	-9.23089
四時	-9.23269
黃	-9.23651
之徒	-9.23852
戎	-9.23874
涉	-9.23894
得其	-9.2402
世間	-9.24192
柱	-9.24272
屈	-9.24342
而去	-9.24474
徑	-9.24512
尺	-9.24526
穢	-9.2462
妾	-9.24635
烟	-9.24638
而下	-9.24724
耕	-9.24763
盗	-9.24789
殃	-9.24813
冀	-9.24816
墮	-9.24854
橋	-9.24856
無以	-9.25023
行人	-9.25142
㐫	-9.25174
候	-9.25559
騰	-9.25594
乞	-9.25688
潤	-9.25739
賁	-9.25757
昧	-9.25769
吐	-9.25771
基	-9.25832
需	-9.25853
湖	-9.26174
之下	-9.26572
閉	-9.26649
訪	-9.26652
宴	-9.26674
徧	-9.267
徵	-9.26787
削	-9.26802
靡	-9.26811
訣	-9.26854
一時	-9.27153
托	-9.27462
各有	-9.27571
錯	-9.27618
刃	-9.27624
鸞	-9.27697
劫	-9.27706
賔	-9.27732
寺	-9.2774
竭	-9.27756
採	-9.27768
其身	-9.27829
水火	-9.2791
視之	-9.27924
十七	-9.28165
天王	-9.28171
忍	-9.28224
四海	-9.2849
社	-9.28503
逹	-9.28773
之禮	-9.28889
是時	-9.28954
家人	-9.28973
匪	-9.29031
局	-9.29154
不足以	-9.29198
者不	-9.29313
綱	-9.29396
慢	-9.2968
虜	-9.29708
九五	-9.29801
屏	-9.29805
審	-9.29853
宰	-9.30038
之際	-9.3005
人皆	-9.30051
厭	-9.30121
用之	-9.30322
程	-9.30402
逃	-9.30457
伸	-9.305
泥	-9.30507
值	-9.30635
眀	-9.30659
爻	-9.30692
寢	-9.30733
飾	-9.30775
也其	-9.30906
爽	-9.30951
則爲	-9.30988
莊	-9.31079
道德	-9.311
風雨	-9.31255
尚書	-9.31342
矣夫	-9.31373
八卦	-9.31392
單	-9.31559
産	-9.31624
淺	-9.31662
佳	-9.31672
黨	-9.31681
煙	-9.31755
婚姻	-9.31762
何如	-9.3188
仕	-9.31947
五色	-9.32067
言其	-9.32245
霞	-9.32305
三日	-9.32398
枯	-9.32562
柳	-9.32621
姑	-9.32635
借	-9.32637
答	-9.32639
佐	-9.32688
拔	-9.32694
奈何	-9.32814
摩	-9.32829
稽首	-9.32872
之名	-9.33248
狂	-9.33593
潔	-9.33639
佩	-9.33709
雞	-9.3371
赦	-9.33731
誤	-9.33802
史記	-9.33881
歳	-9.33908
夕	-9.34004
覽	-9.34272
世人	-9.34463
續	-9.34559
見之	-9.34589
乗	-9.34732
東方	-9.34768
館	-9.34779
擁	-9.34858
之内	-9.3495
有司	-9.35256
有功	-9.35332
不聞	-9.35405
辛	-9.35455
孟子	-9.35456
無量	-9.35532
大有	-9.35532
正月	-9.35723
髮	-9.35755
矢	-9.35767
敷	-9.35783
三元	-9.35787
鐵	-9.35805
峻	-9.35818
恊	-9.35846
溢	-9.35852
筭	-9.35862
蔵	-9.35869
岩	-9.35875
不用	-9.35929
二十四	-9.35981
大龍王	-9.36087
而自	-9.36092
太極	-9.36122
一云	-9.36162
演	-9.36447
律	-9.36509
鄰	-9.36544
愁	-9.3664
戲	-9.36686
無形	-9.36796
傅	-9.36809
濁	-9.36819
庸	-9.36835
郊	-9.36849
鮮	-9.36889
墜	-9.36914
膺	-9.36925
大人	-9.36932
盟	-9.36986
至扵	-9.37247
帥	-9.37315
中國	-9.37379
爲主	-9.3739
誥	-9.37477
判	-9.37587
隔	-9.37689
逸	-9.3777
其言	-9.37829
古之	-9.37849
福禄	-9.37852
頓	-9.37887
擬	-9.37948
鑿	-9.37974
編	-9.37994
院	-9.38027
失其	-9.38045
厄	-9.38196
如何	-9.38364
儉	-9.38404
漏	-9.38478
雖然	-9.38591
神之	-9.38591
輝	-9.38617
缺	-9.38981
校	-9.39043
若有	-9.39072
賀	-9.39092
不言	-9.39105
聖人之	-9.39208
東西	-9.3948
泣	-9.39485
君臣	-9.39614
其德	-9.39771
禍福	-9.39794
庚	-9.39843
出於	-9.39853
塗	-9.3998
牧	-9.39981
其子	-9.40073
底	-9.4009
朋	-9.40155
生死	-9.40156
聴	-9.40165
探	-9.40194
乎其	-9.40329
禮樂	-9.40379
於人	-9.40386
金闕	-9.40605
也然	-9.40679
錦	-9.40846
斬	-9.4094
初九	-9.41234
盧	-9.41336
奮	-9.41375
司馬	-9.414
二人	-9.41447
相傳	-9.41609
凌	-9.41665
也故曰	-9.4186
則無	-9.41876
雅	-9.41999
之象	-9.42084
不相	-9.42149
寂	-9.422
者亦	-9.42212
垣	-9.42321
顛	-9.42327
歩	-9.42349
攸	-9.42418
六五	-9.42589
耳目	-9.42673
使者	-9.42871
鏡	-9.43004
傍	-9.43047
得道	-9.43093
所在	-9.43098
尸	-9.4313
徃來	-9.4321
之氣	-9.43362
郭	-9.43404
桑	-9.4343
褒	-9.4344
不肯	-9.4344
之謂	-9.43498
物之	-9.43502
矧	-9.43503
鼻	-9.43563
𣗳	-9.43616
大臣	-9.43679
蓬	-9.43731
岱	-9.43803
言之	-9.43816
姚	-9.44027
崩	-9.44049
桓	-9.44152
上有	-9.44386
不宜	-9.44492
至于	-9.44523
廉	-9.44535
甫	-9.44544
罗	-9.44587
桃	-9.44667
由是	-9.44733
帝君	-9.45052
饗	-9.45092
天人	-9.45318
吹	-9.45503
究	-9.45541
不至	-9.45556
子之	-9.45639
範	-9.45813
䧟	-9.45816
氷	-9.45843
牙	-9.45851
戍	-9.45864
矜	-9.4589
籖	-9.45915
内外	-9.45996
東海	-9.46077
山川	-9.4613
域	-9.46518
若是	-9.46644
磨	-9.46811
社稷	-9.46826
妃	-9.46864
稽	-9.46875
植	-9.46971
世界	-9.47005
案	-9.4701
慧	-9.47022
賓	-9.47041
逍遥	-9.47059
而非	-9.4717
玉堂	-9.47189
靖	-9.47401
道也	-9.47679
之德	-9.47975
不復	-9.48028
獸	-9.48139
倒	-9.48178
踰	-9.48202
而成	-9.48205
蔡	-9.48228
秉	-9.48236
繁	-9.48244
晴	-9.48278
頗	-9.4828
星辰	-9.48435
神通	-9.48575
又有	-9.48597
學道	-9.48758
銀	-9.48917
其中	-9.49008
闡	-9.49039
抵	-9.4919
不安	-9.49337
奸	-9.49339
鴻	-9.49366
禽	-9.49378
優	-9.49402
禦	-9.49406
貨	-9.49423
歛	-9.49425
埋	-9.49448
棲	-9.4945
緫	-9.49454
爲天下	-9.49689
五十	-9.50034
睽	-9.50111
醫	-9.50189
豈不	-9.50285
登泰山	-9.50343
踈	-9.5046
凈	-9.50489
劍	-9.50518
不免	-9.50533
副	-9.50537
併	-9.50588
洗	-9.50606
活	-9.50609
夀	-9.50624
民之	-9.50626
飢	-9.50665
璧	-9.50674
頼	-9.50705
録曰此	-9.50776
者以	-9.50794
又何	-9.50821
之理	-9.50885
無事	-9.5109
性命	-9.51229
十年	-9.51329
者乎	-9.51439
罰	-9.51691
倉	-9.51763
姦	-9.51797
瀆	-9.51798
唱	-9.51837
夭	-9.51874
輩	-9.51886
煩	-9.51887
播	-9.51905
馮	-9.51925
庶幾	-9.51992
太后	-9.52017
元君	-9.52054
堯舜	-9.5225
其後	-9.52408
日觀	-9.52459
則雖	-9.52503
受命	-9.52504
霧	-9.52576
武王	-9.52593
農	-9.52611
甲子	-9.52631
至今	-9.52718
而行	-9.52747
東南	-9.52812
弼	-9.52897
不許	-9.52983
僕	-9.52984
陶	-9.53039
眷	-9.53045
霜	-9.53079
婚	-9.53103
築	-9.53134
懽	-9.53137
飯	-9.5314
蘭	-9.53149
至人	-9.53175
帝王	-9.53254
披	-9.53505
嗟	-9.53509
吉凶	-9.53605
至是	-9.53686
道人	-9.53803
則不	-9.53875
荆	-9.53916
人之所	-9.54025
寸	-9.54062
詠	-9.5414
映	-9.54167
廷	-9.54169
姜	-9.54187
之故	-9.54242
規	-9.54274
頃	-9.54315
滯	-9.54412
庫	-9.54432
明堂	-9.54433
晝夜	-9.54446
蟲	-9.5445
篆	-9.54454
初六	-9.54513
不出	-9.54601
萬物之	-9.54712
明日	-9.5479
婦人	-9.54832
他日	-9.54867
豈非	-9.54982
莫能	-9.55262
詩云	-9.55483
鑑	-9.55545
捨	-9.55557
無上	-9.55592
腰	-9.55664
嬰	-9.55673
暫	-9.55675
掩	-9.55686
蔭	-9.55686
窺	-9.55702
寇	-9.55741
御史	-9.55773
而反	-9.5615
太宗	-9.56212
群臣	-9.56273
庇	-9.56352
渾	-9.56443
不食	-9.5661
響	-9.56695
仗	-9.56753
貢	-9.56758
障	-9.56769
莊子	-9.56798
也此	-9.56812
至此	-9.5682
憐	-9.56826
而已矣	-9.56841
悖	-9.56884
討	-9.56913
淮	-9.56944
阻	-9.5698
舌	-9.56987
亢	-9.56993
詐	-9.57018
吞	-9.57034
幻	-9.57068
廻	-9.57076
不在	-9.57185
羅义女	-9.57419
霄	-9.57481
觀之	-9.57568
六月	-9.57706
疆	-9.57715
終身	-9.57976
無心	-9.57986
眉	-9.58004
往	-9.58106
紹	-9.58126
擾	-9.58209
减	-9.58261
趾	-9.58272
朗	-9.58284
倍	-9.58288
鬱	-9.58293
偃	-9.58294
以成	-9.58334
拂	-9.58335
攀	-9.58355
難靈應藥王扁鵲君能救	-9.5837
進退	-9.58531
西南	-9.58616
其道	-9.58696
不忍	-9.58725
旱	-9.59083
之神	-9.5912
誕	-9.59179
頤	-9.59537
也録曰	-9.59544
不自	-9.59551
標	-9.59557
芳	-9.5957
軒	-9.59576
囊	-9.59611
輸	-9.59611
績	-9.59612
琴	-9.59621
九二	-9.5964
籙	-9.59684
援	-9.59695
那	-9.59704
皮	-9.59705
者爲	-9.59708
善惡	-9.59756
玉皇	-9.59835
不忘	-9.5984
不行	-9.59901
而生	-9.59925
仙人	-9.60273
何爲	-9.60348
𡚖	-9.60398
脉	-9.60458
之妙	-9.60483
珍	-9.6055
官事	-9.60637
矣此	-9.60796
澗	-9.60872
夙	-9.60883
狐	-9.609
草木	-9.60915
墻	-9.60941
刺	-9.60972
慾	-9.60976
粟	-9.60993
飽	-9.61002
綿	-9.61034
桂	-9.61043
三千	-9.61096
禪師	-9.61242
聦明	-9.61298
愧	-9.61429
星君	-9.61478
把	-9.61524
四月	-9.61681
提	-9.61749
道者	-9.61815
者有	-9.61828
無所不	-9.619
觀其	-9.6192
何也	-9.61949
停	-9.61966
七十	-9.62045
緑	-9.62149
皆有	-9.62167
不必	-9.62203
得以	-9.62254
故能	-9.62255
網	-9.62286
博	-9.62287
彭	-9.62297
岀	-9.62339
巢	-9.62339
勅	-9.62355
沈	-9.62355
翻	-9.62378
託	-9.62421
不欲	-9.62656
之大	-9.62829
之文	-9.63052
䘮	-9.63063
古人	-9.6327
至矣	-9.63289
童子	-9.63592
晉	-9.63648
措	-9.63668
茅	-9.63674
虔	-9.63683
壑	-9.63686
裂	-9.63711
徤	-9.63713
揖	-9.63727
随	-9.63751
蓬萊	-9.63753
摇	-9.63759
陷	-9.63768
銘	-9.63783
喻	-9.63796
枉	-9.6381
羙	-9.63892
王者	-9.63895
五年	-9.63937
聼	-9.63938
伏願	-9.64107
身命	-9.64179
姬	-9.64197
之至也	-9.64223
寓	-9.64227
曰子	-9.64266
穆	-9.64346
六二	-9.64408
京師	-9.64424
千古	-9.64611
樞	-9.6471
蕭	-9.64731
生民	-9.64744
⬤⬤	-9.64776
弊	-9.6497
老君	-9.64973
尹	-9.64991
檢	-9.65122
范	-9.65129
暢	-9.65144
叛	-9.65154
仁宗	-9.65238
地獄	-9.65561
從之	-9.65708
則是	-9.65766
不若	-9.65793
乎夫	-9.65827
精神	-9.65844
神人	-9.65927
號曰	-9.66
不受	-9.66004
及其	-9.6604
夫婦	-9.66063
其性	-9.66214
世之	-9.66222
東嶽	-9.66268
產	-9.66286
分明	-9.66313
嫁	-9.66317
不勝	-9.66359
敏	-9.66368
孛	-9.66372
炎	-9.66384
犬	-9.66432
在上	-9.66483
激	-9.66494
荷	-9.66501
雍	-9.66538
買	-9.66545
焦	-9.66555
陟	-9.66569
競	-9.66579
懿	-9.66598
暉	-9.6666
科名	-9.6677
古本作	-9.66786
扵是	-9.66854
也是故	-9.66891
皆以	-9.66972
三代	-9.66999
而言	-9.67009
曰汝	-9.67016
終始	-9.67147
閩	-9.67183
其名	-9.67198
帝之	-9.67679
竅	-9.67854
鍊	-9.6788
牽	-9.67884
三五	-9.67909
快	-9.67912
園	-9.67943
絲	-9.6797
澄	-9.67983
肯	-9.67984
讃	-9.67987
羞	-9.68007
浪	-9.68014
迴	-9.68031
與人	-9.68039
若此	-9.68044
銅	-9.68046
撰	-9.68099
整	-9.68145
億	-9.68186
前後	-9.68224
驕	-9.68247
不知所	-9.68291
太守	-9.68353
大過	-9.68368
不死	-9.68377
福德	-9.68389
丞相	-9.68421
點	-9.68636
以是	-9.68693
不離	-9.68705
乙	-9.6874
於道	-9.6886
天命	-9.68949
卓	-9.69113
古本	-9.69177
侈	-9.69283
爰	-9.69326
淑	-9.69354
醜	-9.69423
饑	-9.6948
十九	-9.69482
娶	-9.69501
曠	-9.69517
岸	-9.69519
乳	-9.69524
纔	-9.69548
慈悲	-9.69562
未必	-9.69635
仲尼	-9.69903
名山	-9.69974
洛	-9.70021
自在	-9.70042
西北	-9.70061
不動	-9.70093
曰我	-9.70326
時有	-9.7036
霸	-9.70789
貴人	-9.70836
之類	-9.70844
僅	-9.70863
百年	-9.70887
鎭	-9.70898
熱	-9.70921
麥	-9.70935
勳	-9.70948
滋	-9.70949
沖	-9.70967
猶有	-9.70993
偉	-9.7101
也然則	-9.71073
籠	-9.71085
六十	-9.71127
大小	-9.71243
帛	-9.71266
明夷	-9.71482
咒	-9.71601
上九	-9.71752
怠	-9.71832
之學	-9.71858
六四	-9.71976
下有	-9.71987
穀	-9.72111
使我	-9.72195
所以爲	-9.7222
芝	-9.72283
香火	-9.72362
戮	-9.72373
儲	-9.72438
麟	-9.72444
歸妹	-9.72464
携	-9.72516
鴈	-9.72524
慰	-9.72536
捧	-9.72554
胥	-9.72555
即位	-9.72564
亟	-9.72572
太乙	-9.72588
皷	-9.72636
聖賢	-9.72785
禄元	-9.72802
未知	-9.72875
其實	-9.72951
之外	-9.72969
聘	-9.7297
不待	-9.73026
龍虎	-9.73038
矣而	-9.73137
男子	-9.73158
一也	-9.73238
道之	-9.73238
十八	-9.73255
爲我	-9.73596
無私	-9.73638
之世	-9.73697
不生	-9.73752
大明	-9.73847
化爲	-9.73872
妙法	-9.73905
旡	-9.73946
輦	-9.73964
東北	-9.73973
乏	-9.73977
匿	-9.74004
恠	-9.74004
製	-9.74013
蹈	-9.74021
狗	-9.74028
几	-9.7403
繩	-9.74031
敝	-9.74048
宻	-9.74049
册	-9.7405
的	-9.7405
淡	-9.74066
者必	-9.741
其有	-9.74121
餌	-9.74124
肇	-9.7413
恤	-9.74209
成功	-9.74298
亦可	-9.74316
平生	-9.74397
之精	-9.74401
下䧏	-9.74458
受福	-9.74511
同人	-9.74573
巔	-9.74636
治天下	-9.74657
之禍	-9.74717
之變	-9.7473
喜神	-9.74739
祖宗	-9.74753
噫	-9.75088
然也	-9.7534
而天下	-9.75351
則知	-9.75414
之難	-9.75434
出門	-9.75461
之君	-9.75462
淨	-9.75475
冝	-9.7549
恣	-9.75499
嬰兒	-9.75537
晩	-9.75554
夬	-9.75556
絡	-9.75596
米	-9.75606
誣	-9.7562
萌	-9.75648
奎	-9.75652
亮	-9.7568
乎此	-9.75745
祕	-9.75959
在於	-9.76017
舒	-9.76047
終日	-9.76213
一身	-9.76242
君子之	-9.76451
不通	-9.7648
皇后	-9.76537
安得	-9.76647
豈有	-9.76682
未濟	-9.76741
丙	-9.76768
女子	-9.76792
不但	-9.76823
人物	-9.7685
以上	-9.76877
爐	-9.76895
鉛	-9.76925
而復	-9.76977
壺	-9.7698
旛	-9.7699
武帝	-9.77006
旌	-9.77079
割	-9.77102
握	-9.77107
八煞	-9.77141
䑓	-9.7717
鐘	-9.77184
咨	-9.77187
至誠	-9.77201
掛	-9.7722
䏻	-9.77238
矯	-9.77245
幹	-9.7725
淳	-9.77252
嘉靖	-9.77254
瓦	-9.77264
層	-9.77265
此日	-9.77296
枕	-9.77314
眞宗	-9.77323
䧏	-9.7739
家宅	-9.77448
南方	-9.77495
之志	-9.77562
箕	-9.776
不善	-9.77668
耻	-9.77671
之論	-9.77716
登岳	-9.77754
疾病	-9.77803
不祥	-9.77857
十月	-9.77978
自古	-9.78049
員	-9.78075
玉清	-9.78076
曷	-9.78182
不與	-9.78423
一旦	-9.7845
皈依	-9.78548
蓮	-9.78624
上天	-9.78652
啇	-9.78747
虐	-9.7875
㧞	-9.78752
臻	-9.78789
千年	-9.78799
文魁	-9.78804
物也	-9.78833
胃	-9.7884
爛	-9.78847
閱	-9.78857
圭	-9.78874
釣	-9.78881
睹	-9.78889
至道	-9.789
以致	-9.79015
齊魯	-9.79175
中孚	-9.79179
衆人	-9.79189
文公	-9.79262
七殺	-9.79285
有一	-9.79286
其志	-9.79394
姓名	-9.79427
之本	-9.79428
嫌	-9.79432
絶頂	-9.79666
可以爲	-9.79849
得失	-9.79955
死者	-9.80067
後人	-9.80132
一年	-9.80138
緒	-9.80155
文武	-9.80202
三清	-9.80241
不失	-9.8028
郤	-9.80282
旗	-9.80354
芒	-9.80364
以下	-9.80391
叩	-9.80391
截	-9.80396
吝	-9.80412
污	-9.80423
迫	-9.80425
伊	-9.80439
詭	-9.80446
七十二	-9.80452
淪	-9.80456
玩	-9.80475
峙	-9.80486
緩	-9.80492
牢	-9.80494
濡	-9.80498
灰	-9.80501
雀	-9.80547
祭祀	-9.80582
爲大	-9.80597
皈	-9.80613
飲食	-9.80627
逝	-9.80772
不止	-9.80885
亦無	-9.81021
歎	-9.81138
七日	-9.81285
此言	-9.81323
禄神	-9.81407
人所	-9.81425
貴元	-9.81727
非有	-9.81756
公孫	-9.8179
突	-9.81868
魁	-9.81936
艱	-9.81947
鄙	-9.81964
吁	-9.81968
㓂	-9.82017
催官	-9.82067
展	-9.82083
藉	-9.82102
捷	-9.82108
奠	-9.82123
賣	-9.82124
廵	-9.82129
天厨	-9.82134
練	-9.82137
遐	-9.82144
藩	-9.82144
距	-9.82147
括	-9.82147
禳	-9.8216
扶桑	-9.82169
本無	-9.8227
之數	-9.82303
也非	-9.8237
長安	-9.82396
正一	-9.82479
之患	-9.82604
山林	-9.82657
遣使	-9.82728
而况	-9.82871
崔	-9.83065
求之	-9.83107
二月	-9.83163
眞經	-9.83386
离	-9.83418
不求	-9.83421
浩	-9.83482
北斗	-9.83572
何其	-9.83596
束	-9.83626
無憂	-9.83633
不容	-9.83651
婁	-9.83701
庵	-9.83782
効	-9.8379
擢	-9.83812
禀	-9.83865
臂	-9.8387
再拜	-9.83956
故云	-9.8408
八月	-9.84153
之盛	-9.84246
九月	-9.8429
馬元	-9.84382
二子	-9.84407
人事	-9.84484
不得已	-9.84613
之位	-9.84772
宰相	-9.84826
虧	-9.84897
丈人	-9.85004
道家	-9.85023
飄	-9.85115
不絶	-9.85168
砂	-9.85208
以待	-9.85216
乎哉	-9.85244
一曰	-9.85368
清凈	-9.85371
排	-9.85373
低	-9.85396
創	-9.85421
飮	-9.85423
瑶	-9.85444
佞	-9.85479
四年	-9.85483
馭	-9.85519
董	-9.8552
繞	-9.85538
寫	-9.85542
弄	-9.85551
陋	-9.8557
乖	-9.8557
公曰	-9.85582
至尊	-9.85592
関	-9.8561
小畜	-9.85624
百里	-9.8563
至眞	-9.85642
孔子曰	-9.85661
登岱	-9.85667
之命	-9.85713
薦元	-9.85725
不知其	-9.85809
主人	-9.86043
可見	-9.86115
仁元	-9.86137
太和	-9.86147
五月	-9.86221
靈寳	-9.8649
何謂	-9.86495
以正	-9.86689
戊	-9.8669
之謂也	-9.867
人生	-9.8672
染	-9.86724
九四	-9.86733
偕	-9.86844
九年	-9.86889
之道也	-9.86912
帝曰	-9.8695
小過	-9.86978
大帝	-9.86992
饒	-9.87009
此皆	-9.87017
利益	-9.87021
彩	-9.87044
之子	-9.87076
魔耶女	-9.87097
旬	-9.87103
藝	-9.8712
高祖	-9.8712
俊	-9.87132
元帥	-9.87207
隋	-9.87251
懇	-9.87253
朴	-9.87267
徙	-9.87281
也蓋	-9.87295
敕	-9.87296
旨	-9.87299
袍	-9.87303
坊	-9.87305
腐	-9.87313
挾	-9.87321
樸	-9.87337
至聖	-9.87346
憫	-9.87349
嘆曰	-9.87385
相應	-9.8742
其上	-9.87445
如今	-9.87551
三十六	-9.87557
與物	-9.87776
百官	-9.87897
威靈	-9.88084
矣然	-9.88144
大吉	-9.88227
其神	-9.88241
而死	-9.8831
未嘗不	-9.88382
七月	-9.88407
西方	-9.88422
貴賤	-9.88446
王母	-9.88465
山東	-9.88718
以告	-9.88876
國之	-9.8891
人人	-9.88912
而又	-9.88931
動而	-9.88933
孕	-9.8894
争	-9.88992
汞	-9.89012
侮	-9.89066
紙	-9.89098
躡	-9.89112
貽	-9.89114
之主	-9.89117
種種	-9.89119
属	-9.89136
貧賤	-9.89136
茶	-9.89158
消息	-9.89226
太祖	-9.89372
故也	-9.89393
十五日	-9.89428
高宗	-9.89481
官印	-9.89509
五帝	-9.89509
自以爲	-9.89528
從容	-9.89743
未免	-9.89756
不可得	-9.89947
仇	-9.90042
祚	-9.90112
八百	-9.90121
聖母	-9.90183
以明	-9.90269
逮	-9.90348
甚矣	-9.90437
襄	-9.90513
以自	-9.90555
黄金	-9.90624
曆	-9.90658
踐	-9.9067
禽獸	-9.90751
穹	-9.908
伍	-9.90808
輒	-9.90851
鷄	-9.90873
逼	-9.90876
煥	-9.90887
久矣	-9.90901
豪	-9.90912
躍	-9.90917
漫	-9.90926
顏	-9.90936
其母	-9.91065
供養	-9.91081
之機	-9.91161
所有	-9.91244
有以	-9.91278
徃徃	-9.91312
渡	-9.91464
光武	-9.9158
一方	-9.91768
測	-9.91773
大壯	-9.91864
裳	-9.91904
而得	-9.92015
何必	-9.9204
天帝	-9.92041
曰君	-9.92047
無名	-9.92223
液	-9.92329
也又	-9.92343
勒	-9.9236
山之	-9.92383
額	-9.9242
食之	-9.92432
不已	-9.92458
不當	-9.9253
其間	-9.92543
頻	-9.92606
加封	-9.92623
羊刄	-9.92642
栢	-9.92659
闇	-9.92705
捕	-9.92711
薛	-9.92713
謗	-9.92716
奢	-9.92723
邁	-9.92741
潮	-9.92748
誌	-9.92772
噬嗑	-9.9278
牒	-9.92819
准	-9.92821
五星	-9.92822
可也	-9.92896
而知	-9.92924
而實	-9.92975
因縁	-9.93085
之初	-9.93124
惟神	-9.93215
大聖	-9.93244
登臨	-9.93272
太清	-9.9331
行之	-9.93679
異之	-9.9372
其下	-9.93729
德之	-9.93743
萬民	-9.93853
之書	-9.9388
人以	-9.93885
聖意	-9.93897
若夫	-9.93905
燒	-9.94156
暑	-9.9418
有大	-9.94248
吉星	-9.94305
所爲	-9.94352
之門	-9.94396
紛	-9.94416
汲	-9.94484
一言	-9.94495
公子	-9.94501
稷	-9.94508
技	-9.94526
頥	-9.94549
虛無	-9.94549
梯	-9.94563
遁	-9.94564
無間	-9.94567
而來	-9.94583
濕	-9.94585
添	-9.946
闢	-9.94608
紂	-9.94612
溥	-9.94638
聯	-9.94662
該	-9.94667
闊	-9.94672
裘	-9.94697
聳	-9.94718
他人	-9.9475
占病	-9.94761
之宫	-9.94828
威儀	-9.94837
飲酒	-9.95054
生者	-9.95057
明年	-9.95077
言也	-9.95138
未聞	-9.95152
時人	-9.95194
可得	-9.95303
太玄	-9.95311
忠信	-9.95418
忠孝	-9.95548
又云	-9.9564
大畜	-9.95714
相逢	-9.95725
所欲	-9.95827
哉故	-9.95944
天理	-9.95983
⬤(	-9.96027
聦	-9.96052
無情	-9.96073
得之	-9.96078
儒者	-9.96158
訖	-9.96178
之風	-9.96293
糧	-9.96349
失物	-9.96382
幣	-9.9641
所言	-9.96417
錬	-9.9642
飬	-9.9645
之術	-9.96485
潰	-9.96527
準	-9.96529
苗	-9.96531
眠	-9.96533
姤	-9.96538
槩	-9.96548
僣	-9.96559
戀	-9.96561
碎	-9.96574
吿	-9.96577
不見其	-9.96578
阜	-9.9658
戾	-9.96582
裁	-9.9659
膽	-9.96601
巫	-9.96602
巿	-9.96625
夷狄	-9.96638
神靈	-9.96701
紫微	-9.9672
太陰	-9.96729
爲君	-9.96789
反覆	-9.96796
少年	-9.96875
飛昇	-9.96902
北極	-9.96947
先天	-9.96973
梵	-9.97001
四十	-9.97052
謬	-9.97131
故有	-9.97163
既濟	-9.97243
之勢	-9.97267
其爲	-9.97279
者其	-9.97608
二三	-9.97762
治之	-9.97929
此是	-9.9795
先王	-9.97954
於天	-9.98041
其家	-9.98068
認	-9.98129
呪	-9.9827
邇	-9.98321
電	-9.98342
正法	-9.98366
四五	-9.98386
之樂	-9.98387
軫	-9.98403
噐	-9.98409
脚	-9.98421
其意	-9.98447
強	-9.98454
紛紛	-9.98481
遏	-9.98488
渠	-9.98493
两	-9.98511
貳	-9.98512
踵	-9.9855
捐	-9.98555
其餘	-9.98557
宇宙	-9.98558
苔	-9.98627
聖誕	-9.98661
一名	-9.9872
六年	-9.98731
八年	-9.98834
一生	-9.9892
亦非	-9.99134
莫若	-9.99204
不顧	-9.99267
固有	-9.9934
老人	-9.9935
或有	-9.99366
學士	-9.99377
三教	-9.99393
於外	-9.99437
南北	-9.99445
成王	-9.99558
妻子	-9.99559
而出	-9.99601
非其	-9.99762
場	-10.0007
掃	-10.0007
有言	-10.001
若人	-10.0011
涣	-10.002
不息	-10.0026
戚	-10.003
於天下	-10.0032
以示	-10.0032
之始	-10.0035
頑	-10.004
拒	-10.0042
皓	-10.0042
麻	-10.0047
烹	-10.0047
正直	-10.0048
抗	-10.0051
汙	-10.0052
肥	-10.0055
灌	-10.0055
警	-10.0056
韻	-10.0056
翔	-10.0059
莫之	-10.0061
人民	-10.0064
上元	-10.0066
賢者	-10.0066
不惟	-10.0089
莊公	-10.0089
萬神	-10.0091
謀望	-10.01
非人	-10.01
能知	-10.0105
第二	-10.0106
豈知	-10.0109
宫中	-10.011
紫氣	-10.0113
無知	-10.0114
公卿	-10.0118
教化	-10.0118
無聲	-10.013
者何	-10.0131
俟	-10.0141
不盡	-10.0153
有道	-10.016
六三	-10.018
解脫	-10.0181
中元	-10.0183
桓公	-10.0188
君之	-10.0195
以養	-10.0199
鄕	-10.0206
驪	-10.0207
癸	-10.0214
何所	-10.0219
項	-10.0226
八十	-10.0228
孽	-10.023
郞	-10.023
行者	-10.0231
召見	-10.0245
諧	-10.0247
零	-10.0248
巡	-10.025
陞	-10.0251
軌	-10.0251
泄	-10.0252
不覺	-10.0253
粗	-10.0254
床	-10.0255
殉	-10.0255
雷霆	-10.0256
瓜	-10.0258
酌	-10.0258
己之	-10.0259
遜	-10.0259
叙	-10.026
逈	-10.026
吊	-10.0261
逄	-10.0262
卦之	-10.0269
寡人	-10.0276
清淨	-10.0277
無常	-10.0296
以道	-10.0305
正道	-10.0308
和氣	-10.0313
父老	-10.0315
存亡	-10.0316
安能	-10.0325
令人	-10.0328
之㫖	-10.0331
貞吉	-10.0341
不變	-10.0342
自生	-10.0343
以至	-10.0347
以求	-10.0351
左傳	-10.0352
葛	-10.0359
有情	-10.0371
久之	-10.0372
所居	-10.0375
未可	-10.0381
晏	-10.0386
所得	-10.0392
元吉	-10.0396
君子以	-10.0403
閭	-10.0418
隙	-10.0449
恕	-10.0452
湧	-10.0453
裕	-10.0456
滑	-10.0456
黜	-10.0456
薪	-10.0457
駒	-10.0457
弃	-10.0458
翰	-10.046
潭	-10.046
摧	-10.046
渙	-10.0461
瑩	-10.0462
閔	-10.0462
查	-10.0462
洽	-10.0465
擅	-10.0465
獵	-10.0465
殁	-10.0465
跨	-10.0466
豕	-10.0466
拾	-10.0466
船	-10.0466
肝	-10.0468
也郭註	-10.0468
昩	-10.0469
舎	-10.0471
萬事	-10.0472
憶	-10.0473
三合	-10.0476
乃以	-10.0481
音吉祥檀熾鈞	-10.0486
妙道	-10.0496
諸將	-10.0499
讀書	-10.0503
大抵	-10.0507
人有	-10.0508
衣冠	-10.051
一念	-10.052
人情	-10.053
故以	-10.0555
而不可	-10.0558
無妄	-10.0563
廟在	-10.0565
萬年	-10.0572
般	-10.0574
漢之	-10.0578
數十	-10.058
玄都	-10.0597
九色	-10.0605
丈	-10.0612
其義	-10.0614
不作	-10.0634
北方	-10.0635
教之	-10.0641
功名	-10.0647
也吾	-10.0656
最上	-10.066
則以	-10.0663
禮義	-10.0664
縮	-10.0669
傲	-10.067
巾	-10.0671
絳	-10.0671
區	-10.0672
嚮	-10.0672
虗	-10.0672
板	-10.0675
揭	-10.0676
岐	-10.0677
竇	-10.0678
膏	-10.0679
曰臣	-10.068
橫	-10.068
聊	-10.0682
滄海	-10.0684
人者	-10.0685
筮	-10.0693
僊	-10.0696
洞天	-10.0706
人口	-10.0706
延年	-10.0711
氣象	-10.0711
其本	-10.072
欲以	-10.0721
奥	-10.0744
諸神	-10.0757
毫	-10.0758
空中	-10.0759
曾子	-10.076
百萬	-10.0769
三天	-10.0789
天宫	-10.0805
六親	-10.0809
神化	-10.0822
勃	-10.0833
而忘	-10.0833
箇	-10.0847
笑曰	-10.0864
流行	-10.0875
謫	-10.0877
始終	-10.0878
在天	-10.0878
洩	-10.0879
誇	-10.088
蕃	-10.0881
織	-10.0882
鵲	-10.0885
鉢	-10.0886
鼠	-10.0886
衝	-10.089
雌	-10.0892
棺	-10.0892
霽	-10.0894
倪	-10.0894
宏	-10.0895
非但	-10.0896
拯	-10.0898
毎	-10.0898
墳	-10.09
自謂	-10.09
泠	-10.0902
薰	-10.0902
荅	-10.0903
狥	-10.0903
態	-10.0906
陣	-10.0906
是經	-10.0913
思之	-10.0921
其所以	-10.0925
不得不	-10.0929
猶未	-10.0931
仁者	-10.0933
七年	-10.0934
九三	-10.0935
之可	-10.0936
鰲峰	-10.0949
九天玉闕	-10.0957
伏羲	-10.0966
水中	-10.0969
三公	-10.0971
何處	-10.0972
南山	-10.0972
風吹	-10.0974
也是以	-10.0975
十一月	-10.0991
十二月	-10.0991
有爲	-10.0995
無患	-10.1
遠矣	-10.1003
大將軍	-10.1005
之吉	-10.1008
中正	-10.1009
無邊	-10.1011
不識	-10.1016
忽然	-10.1018
天嗣	-10.102
遊於	-10.1023
代天師諱	-10.1036
金石	-10.104
無方	-10.1051
互	-10.1053
作福	-10.1057
所見	-10.1063
呈	-10.1067
豈無	-10.1069
生而	-10.107
日新	-10.1076
三十二	-10.1082
媚	-10.1082
駭	-10.1093
不易	-10.1094
鞭	-10.1098
者雖	-10.1104
匡	-10.1104
崑崙	-10.1105
督	-10.1105
上六	-10.1105
擎㳺	-10.1105
猛	-10.1105
弓	-10.1107
懲	-10.1108
兎	-10.1111
渉	-10.1111
之先	-10.1111
揺	-10.1112
虫	-10.1113
泛	-10.1113
彊	-10.1114
斧	-10.1114
即是	-10.1114
而不得	-10.1115
帳	-10.1115
罹	-10.1116
感應	-10.1117
憎	-10.1118
徼	-10.1118
垢	-10.1119
柴	-10.112
伏以	-10.1121
汎	-10.1122
屠	-10.1123
歴	-10.1124
諸仙	-10.1131
第三	-10.1132
天福	-10.1134
其形	-10.1142
白鶴	-10.1144
喜怒	-10.1148
山中	-10.1153
其君	-10.1155
殺之	-10.1156
道路	-10.1157
七政	-10.1166
永樂	-10.1189
有孚	-10.1192
至德	-10.1192
豈可	-10.1194
祉	-10.1195
便是	-10.12
祖師	-10.1213
所當	-10.1219
之前	-10.1222
玉京	-10.1228
爾時	-10.1229
人倫	-10.1237
柄	-10.1244
于此	-10.1249
無人	-10.1263
元神	-10.1264
冥冥	-10.127
以禮	-10.1271
書曰	-10.1299
晚	-10.13
甞	-10.1308
其功	-10.131
右第	-10.1311
峪	-10.1319
嘯	-10.1322
郎	-10.1323
冨	-10.1323
揮	-10.1327
翊	-10.1332
秩	-10.1334
剪	-10.1336
雉	-10.1336
丕	-10.1337
駢	-10.1337
自此	-10.1338
粹	-10.1341
汗	-10.1341
蟻	-10.1345
咫尺	-10.1345
盆	-10.1345
遮	-10.1347
軀	-10.1347
壤	-10.1348
貸	-10.1348
浴	-10.1349
牲	-10.1349
窟	-10.1351
須臾	-10.1351
𡨋	-10.1353
自爲	-10.1354
焚香	-10.1355
歷代	-10.137
道場	-10.1378
手足	-10.1388
其行	-10.1391
居中	-10.1392
蘇註	-10.1393
此道	-10.1393
物物	-10.1407
白日	-10.141
者無	-10.1412
求財	-10.1426
元氣	-10.1435
利貞	-10.1435
而至	-10.1445
邵	-10.1445
豈能	-10.1457
者矣	-10.1463
毀	-10.147
而歸	-10.1471
主有	-10.149
分别	-10.1494
片	-10.1503
中央	-10.1518
之聲	-10.1536
濯	-10.154
於前	-10.1544
明道	-10.1546
較	-10.1551
𥘉	-10.1555
軸	-10.1556
三四	-10.156
匹	-10.1561
肩	-10.1563
之宗	-10.1566
宥	-10.1567
斜	-10.1569
讒	-10.1569
涼	-10.157
豹	-10.1571
銳	-10.1571
頒	-10.1571
綏	-10.1572
倘	-10.1572
攷	-10.1573
汪	-10.1573
混沌	-10.1573
三寳	-10.1573
疊	-10.1574
蟠	-10.1574
躋	-10.1576
撓	-10.1578
罡	-10.1578
剖	-10.1581
巍巍	-10.1582
翳	-10.1583
蒸	-10.1583
岑	-10.1584
入廟	-10.1584
邀	-10.1584
夙夜	-10.1586
口舌	-10.1587
俄	-10.1593
未至	-10.1596
恍惚	-10.16
自知	-10.1604
之狀	-10.1616
者謂	-10.1625
之恩	-10.163
之極	-10.1634
先帝	-10.1638
三子	-10.1645
道教	-10.1661
有此	-10.1662
可不	-10.1666
太史	-10.1669
非常	-10.1669
終不	-10.1673
從此	-10.168
惡星	-10.1682
是以聖人	-10.1683
奉行	-10.1683
出于	-10.1686
之美	-10.1695
綸	-10.1705
誦經	-10.1719
在下	-10.1727
二十八	-10.173
命宫	-10.1741
妙化	-10.1745
靈濟	-10.1751
朽	-10.1755
而上	-10.1759
杯	-10.1763
六合	-10.1763
邉	-10.1764
取其	-10.1769
故無	-10.1785
謚	-10.1786
藴	-10.1788
筵	-10.179
泊	-10.1791
泯	-10.1793
自己	-10.1795
躔	-10.18
闘	-10.1803
桀	-10.1806
區區	-10.1807
孰爲	-10.1808
斥	-10.1808
沐	-10.1809
狼	-10.1813
畔	-10.1814
珪	-10.1814
冒	-10.1816
或曰	-10.1816
鋒	-10.1817
況	-10.1817
焕	-10.1817
鈎	-10.1819
咲	-10.1819
山河	-10.182
嫡	-10.1823
数	-10.1824
都御史	-10.1824
未得	-10.1824
平安	-10.1825
札	-10.1827
快樂	-10.183
門人	-10.1834
持經	-10.1842
一宫	-10.1845
一二	-10.185
麓	-10.1854
我心	-10.1866
註云	-10.1869
法界	-10.1872
高上	-10.1875
物而	-10.188
老氏	-10.1899
普度	-10.19
之力	-10.1902
五日	-10.1902
狄	-10.1918
壬	-10.1933
神功	-10.1943
臧	-10.1952
浮雲	-10.1953
者哉	-10.1955
古者	-10.1957
之餘	-10.1967
百世	-10.197
憚	-10.198
之才	-10.1989
其父	-10.1995
此其	-10.1999
榜	-10.2002
哲	-10.2029
睦	-10.2036
曰朕	-10.2039
茍	-10.2039
復生	-10.204
之用	-10.2042
昨	-10.2042
今之	-10.2045
吸	-10.2048
替	-10.2049
墟	-10.2051
恬	-10.2053
跂	-10.2053
株	-10.2054
伺	-10.2056
光大	-10.2056
而止	-10.2056
喧	-10.2057
腎	-10.2057
鬻	-10.2057
熙	-10.2057
鄧	-10.2058
伏㠯	-10.2058
濤	-10.206
諒	-10.206
者則	-10.2061
駐	-10.2061
惹	-10.2063
在人	-10.2065
擲	-10.2066
姿	-10.2067
綺	-10.2067
有二	-10.2071
文帝	-10.2071
吉祥檀熾鈞	-10.2074
徃而	-10.2078
太素	-10.2085
禄動	-10.2089
故其	-10.209
其始	-10.2095
其能	-10.2104
盍	-10.2111
修行	-10.2113
金陵	-10.212
爲本	-10.2132
當以	-10.2134
世俗	-10.2135
既而	-10.2137
二字	-10.2137
登封	-10.2138
信之	-10.2141
三百	-10.2141
而卒	-10.2148
衣食	-10.2151
哉夫	-10.2159
異也	-10.2164
扵此	-10.2179
不去	-10.2193
誰能	-10.2197
則又	-10.2204
子弟	-10.2208
此之謂	-10.2234
故聖人	-10.2234
隅	-10.2235
之要	-10.2258
耳非	-10.2264
天機	-10.2268
與我	-10.2271
之謀	-10.2277
青天	-10.2285
九十	-10.2288
皆得	-10.2289
而求	-10.2291
靈文	-10.2294
寍	-10.2297
歆	-10.2298
誨	-10.23
羡	-10.2302
子貢	-10.2302
河圖	-10.2302
劔	-10.2302
罕	-10.2303
膝	-10.2304
蓄	-10.2305
妬	-10.2306
鳳凰	-10.2306
鱗	-10.2308
弦	-10.2309
司命	-10.231
冤	-10.2311
頽	-10.2311
弑	-10.2311
纏	-10.2312
千萬	-10.2312
跳	-10.2312
扣	-10.2314
躁	-10.2317
衷	-10.2317
靄	-10.2321
是已	-10.2327
四象	-10.2328
經云	-10.2329
之實	-10.2331
混合	-10.2332
惜乎	-10.2341
五方	-10.2344
門户	-10.235
玄元	-10.2362
白虎	-10.2364
與天	-10.2365
鄉人	-10.2366
事之	-10.2366
之尊	-10.2371
無咎	-10.2375
宛	-10.2413
將以	-10.2416
玄宗	-10.2428
所能	-10.2441
存焉	-10.2441
不違	-10.2446
矣故曰	-10.2457
自然之	-10.2458
工夫	-10.2463
在岳	-10.2467
知人	-10.247
獨立	-10.2476
門外	-10.2481
莊子曰	-10.2492
日出	-10.2494
老聃	-10.2495
上曰	-10.25
可得而	-10.2506
三光	-10.2509
入於	-10.251
礙	-10.2512
若不	-10.2513
袖	-10.2519
不堪	-10.2524
得而	-10.2526
岱嶽	-10.2527
丸	-10.2527
心不	-10.253
公之	-10.2533
之方	-10.2535
可乎	-10.2543
黎	-10.2543
失之	-10.2546
何事	-10.2546
欣	-10.2548
赫赫	-10.2549
齡	-10.255
選擇	-10.2552
廿	-10.2554
无咎象曰	-10.2556
修道	-10.2557
確	-10.2559
叟	-10.2559
肺	-10.2559
滛	-10.256
繇	-10.2562
促	-10.2562
艾	-10.2563
天性	-10.2564
化生	-10.2565
詢	-10.2565
狹	-10.2565
梓	-10.2566
銷	-10.2566
菩薩	-10.2566
誼	-10.2567
拙	-10.2568
洒	-10.2568
湘	-10.2569
盛德	-10.2569
謨	-10.2572
餙	-10.2573
御帳	-10.2576
膠	-10.2577
而立	-10.258
俯仰	-10.2583
不可得而	-10.2591
譬如	-10.2595
諸子	-10.261
雖曰	-10.2612
之分	-10.2617
又以	-10.2618
毛頭	-10.262
之國	-10.2625
者乃	-10.2629
恭惟	-10.2644
有形	-10.2645
星斗	-10.265
利害	-10.2654
受其	-10.2667
吉祥	-10.2668
無復	-10.267
海上	-10.2684
人道	-10.2685
夫子之	-10.2689
王公	-10.2692
足矣	-10.2693
者言	-10.2695
相見	-10.2696
功成	-10.2715
署	-10.2716
壽命	-10.2716
无妄	-10.2733
偈	-10.2736
宗廟	-10.2736
峽	-10.2744
千載	-10.2754
歲合	-10.2768
不亦	-10.278
財帛	-10.2789
偷	-10.2802
萬古	-10.2806
徽	-10.2808
跪	-10.2813
奕	-10.2814
屍	-10.2818
誘	-10.2819
虹	-10.2819
渭	-10.2819
洲	-10.282
鑄	-10.282
臭	-10.2821
隣	-10.2822
譚	-10.2823
帝王之	-10.2824
赫	-10.2825
跋	-10.2825
諌	-10.2826
覓	-10.2827
寒暑	-10.2827
沐浴	-10.2828
黍	-10.2828
團	-10.2829
紅鸞	-10.2829
故不	-10.2829
元始天尊	-10.283
弔	-10.2831
孰能	-10.2832
徘徊	-10.2833
瀉	-10.2834
靈濟宫	-10.2837
群生	-10.284
閒	-10.2842
政事	-10.2842
斯文	-10.2844
未見	-10.2845
尚饗	-10.2845
若無	-10.2845
萬曆	-10.2846
称	-10.2847
裴	-10.2847
不疑	-10.2854
副使	-10.2857
不由	-10.2871
十二年	-10.2877
無益	-10.2878
而可	-10.289
厥後	-10.2893
忠臣	-10.2894
風雲	-10.2904
不思	-10.291
玉闕	-10.2913
方便	-10.2913
無功	-10.2914
有得	-10.2918
忘其	-10.2922
相從	-10.2947
此則	-10.295
自爾	-10.295
之憂	-10.2951
天心	-10.2955
太公	-10.2964
不我	-10.2965
之臣	-10.2968
之民	-10.2975
亦以	-10.2983
可與	-10.2989
聲名	-10.299
雖欲	-10.2993
在位	-10.2999
可以見	-10.3003
九州	-10.3006
而民	-10.3017
無用	-10.3018
乾之	-10.3029
知道	-10.3031
非是	-10.3036
不遇	-10.3039
暇	-10.3044
嵩	-10.3056
泰山之	-10.3056
退而	-10.3057
週	-10.3057
卄	-10.3058
有無	-10.3067
之家	-10.3068
腸	-10.3072
生靈	-10.3072
太山	-10.3075
莽	-10.3081
緯	-10.3084
吉象曰	-10.3087
戯	-10.3089
漁	-10.3089
生于	-10.3091
冰	-10.3092
函	-10.3094
慎	-10.3095
羸	-10.3096
髪	-10.3096
爲善	-10.3097
迯	-10.3098
不啻	-10.3098
太尉	-10.3098
隸	-10.3099
豊	-10.3099
煩惱	-10.31
跌	-10.3101
㸃	-10.3101
股	-10.3101
巒	-10.3102
兔	-10.3102
熊	-10.3103
田宅	-10.3103
竿	-10.3103
疲	-10.3105
憩	-10.3105
侍郎	-10.3106
餐	-10.3106
恪	-10.3107
扇	-10.3108
焰	-10.3111
初二	-10.3123
丹田	-10.3123
百餘	-10.3126
之誠	-10.3127
堅固	-10.3132
愛之	-10.3136
問曰	-10.3137
青帝	-10.3141
善人	-10.3147
易曰	-10.3153
明月	-10.3155
虚空	-10.3172
萬象	-10.318
臣之	-10.3181
三曰	-10.3189
靈應	-10.3192
難以	-10.3192
相得	-10.3193
江南	-10.3193
官禄	-10.3195
南極	-10.32
文明	-10.3201
與其	-10.3201
于天	-10.3205
者蓋	-10.3208
聲色	-10.321
宫室	-10.3226
宫主	-10.3229
之所爲	-10.3229
何不	-10.323
修眞	-10.3241
付之	-10.3243
東華	-10.3249
之制	-10.3255
遠近	-10.3261
凶星	-10.3264
天符	-10.3266
不敬	-10.3268
杳	-10.3269
服之	-10.3275
榖	-10.3277
孝子	-10.3291
之靈	-10.3292
問之	-10.3294
已而	-10.33
使其	-10.3319
一陽	-10.3324
仲尼曰	-10.3325
此所以	-10.333
幾何	-10.3332
也苟	-10.3339
止於	-10.3345
不須	-10.335
禾	-10.3353
恍	-10.3359
勉之	-10.336
嗜	-10.3363
其親	-10.3364
詰	-10.3367
苑	-10.3369
咽	-10.337
之職	-10.3371
沾	-10.3371
伊尹	-10.3371
暨	-10.3375
俞	-10.3376
謾	-10.3377
雕	-10.3377
媪	-10.3377
蠻	-10.3377
舅	-10.3378
贅	-10.3379
驟	-10.3379
灣	-10.3379
戈	-10.338
樊	-10.338
鷹	-10.3381
巷	-10.3383
償	-10.3384
和今將聖德虔誠讃	-10.3385
蒲	-10.3385
榻	-10.3386
勾	-10.3388
聞道	-10.3389
歲殿	-10.339
所生	-10.3394
高明	-10.3394
翟	-10.3395
皈命	-10.3399
歡喜	-10.3399
救苦	-10.3404
父兄	-10.3404
任其自	-10.3404
先君	-10.3408
夜半	-10.3408
名利	-10.3417
不義	-10.3428
未盡	-10.3437
度人	-10.3466
用兵	-10.3469
王之	-10.348
順行	-10.3484
祀之	-10.3487
三陽	-10.3493
殺人	-10.3497
一心	-10.3516
太虚	-10.3524
則必	-10.3529
至理	-10.3534
南宫	-10.3535
十日	-10.3536
生人	-10.3541
七八	-10.3542
第十	-10.3542
在焉	-10.3544
水府	-10.3556
岱岳	-10.3565
不應	-10.3566
爲相	-10.3576
去其	-10.3582
同心	-10.3584
不寧	-10.3589
所用	-10.359
其大	-10.359
鈞	-10.3593
斤	-10.36
不從	-10.3602
孟子曰	-10.3604
二五	-10.3607
侯王	-10.361
沛	-10.3612
豈惟	-10.3615
論語	-10.362
十里	-10.362
肖	-10.3622
而欲	-10.3623
取之	-10.3628
祇	-10.363
得地	-10.3635
傑	-10.3635
毅	-10.3636
海内	-10.3642
慙	-10.3645
無爲而	-10.3646
鈴	-10.3648
曰夫	-10.3649
汶	-10.365
嗔	-10.3652
匠	-10.3652
三皇	-10.3653
云云	-10.3654
蹟	-10.3654
漠	-10.3656
棟	-10.3656
唇	-10.3656
爲天子	-10.3657
番	-10.3657
衮	-10.3658
静	-10.3659
灼	-10.3659
鳩	-10.366
嗚	-10.3661
不仁	-10.3661
猷	-10.3662
竈	-10.3663
貝	-10.3663
磬	-10.3664
繪	-10.3664
銜	-10.3664
以生	-10.3664
於心	-10.3665
村	-10.3665
歇	-10.3665
骨肉	-10.3667
懋	-10.3667
痊	-10.3668
渴	-10.3668
彈	-10.3668
㳺	-10.3669
酒食	-10.3669
度主	-10.367
弘道録	-10.3671
脯	-10.3671
殖	-10.3673
臯	-10.3674
洛陽	-10.3675
萬壑	-10.3678
有不	-10.3678
智慧	-10.3681
航	-10.3682
之乾	-10.37
用事	-10.3703
有疾	-10.3709
乎天	-10.371
爲害	-10.3712
心而	-10.3726
則民	-10.373
之罪	-10.3733
不起	-10.3736
如在	-10.3737
中書	-10.3737
靈寶	-10.3746
三山	-10.3748
病者	-10.3762
也彼	-10.3765
女人	-10.3774
常以	-10.3784
王室	-10.3785
二曰	-10.3787
有感	-10.3799
乃知	-10.3804
者即	-10.3806
始也	-10.3816
因其	-10.3817
人能	-10.3821
各自	-10.3822
裔	-10.3838
中原	-10.384
無異	-10.3848
皆爲	-10.385
上皇	-10.3858
故事	-10.3862
虚無	-10.3875
即得	-10.3878
下降	-10.3888
山下	-10.3895
悠悠	-10.3896
則不能	-10.39
碧霞	-10.3906
則其	-10.3911
言而	-10.3913
事君	-10.3924
筆乘	-10.393
大國	-10.3937
浚	-10.3941
物皆	-10.3941
人主	-10.3944
奴	-10.3947
娱	-10.3948
荀	-10.3949
欝	-10.395
擒	-10.395
圡	-10.3951
粉	-10.3952
睡	-10.3953
話	-10.3953
貯	-10.3954
賞罰	-10.3954
寔	-10.3954
竄	-10.3955
抽	-10.3955
瘡	-10.3955
昴	-10.3956
搆	-10.3958
方時化曰	-10.3958
不吉	-10.3959
猿	-10.3959
蓮花	-10.3959
無註豐	-10.396
淚	-10.396
爪	-10.3961
奔走	-10.3962
了悟	-10.3964
管仲	-10.3966
莫測	-10.3966
茫茫	-10.3966
漿	-10.397
常在	-10.397
縹緲	-10.397
觀者	-10.3973
朝夕	-10.3974
此乃	-10.3979
與夫	-10.3979
無註師	-10.3982
▲	-10.3983
異日	-10.399
旣濟	-10.399
不平	-10.3999
先儒	-10.4
身心	-10.4008
太虛	-10.4012
江海	-10.4018
知者	-10.4028
好惡	-10.4031
人身	-10.4032
不改	-10.4037
始皇	-10.4039
尚未	-10.4057
有天下	-10.4061
開元	-10.4077
生生	-10.4078
所由	-10.4085
天仙	-10.4097
此其所以	-10.4101
東封	-10.4104
在我	-10.4124
大事	-10.4132
或以	-10.414
大義	-10.4146
其次	-10.4146
斯言	-10.4152
之母	-10.416
不可不	-10.4163
化身	-10.4166
信乎	-10.4169
此時	-10.4169
雲氣	-10.4169
造化之	-10.417
福地	-10.4174
從事	-10.418
行道	-10.4183
言者	-10.4185
戒之	-10.4191
相侵	-10.4193
不傷	-10.4193
三十年	-10.4196
矣今	-10.4196
亦然	-10.4197
而起	-10.4197
唐虞	-10.4202
上昇	-10.4202
之寳	-10.4204
中外	-10.4204
之性	-10.4206
𡻕	-10.4213
宦	-10.4214
非不	-10.4216
所遇	-10.422
台	-10.4224
敢有	-10.4226
大法	-10.4227
價	-10.423
神氣	-10.4241
闔	-10.4247
覲	-10.4247
叢	-10.4248
蟄	-10.4248
韶	-10.4249
矣其	-10.4249
轍	-10.4252
梅	-10.4252
尉	-10.4253
諛	-10.4254
耳夫	-10.4254
穩	-10.4254
縷	-10.4254
倡	-10.4255
擔	-10.4256
楹	-10.4256
薨	-10.4256
透	-10.4257
絹	-10.4257
派	-10.4257
愍	-10.4258
盻	-10.4258
迂	-10.4258
瘟	-10.4259
無註未濟	-10.4259
饋	-10.4259
忻	-10.426
恢	-10.426
嶂	-10.426
醇	-10.426
眩	-10.426
媒	-10.426
溝	-10.4261
無註謙	-10.4262
蝗	-10.4262
高下	-10.4263
壓	-10.4263
士大夫	-10.4266
譴	-10.4267
蓍	-10.4269
寃	-10.4269
勵	-10.4271
有異	-10.4273
六經	-10.4274
望之	-10.4279
太上老君	-10.4279
嫗	-10.428
匹夫	-10.428
昊天	-10.4287
恭敬	-10.4296
不正	-10.4299
篇云	-10.4308
神霄	-10.4314
成就	-10.4315
也雖	-10.4321
五岳	-10.4328
何須	-10.4328
列子	-10.4333
宫觀	-10.435
尋常	-10.435
從而	-10.4351
相生	-10.4355
大德	-10.4357
下民	-10.4359
太白	-10.436
二十六	-10.4365
其死	-10.437
九重	-10.4378
下方	-10.4381
積善	-10.4382
僧道	-10.4392
之境	-10.4399
天文	-10.44
無道	-10.4407
悉皆	-10.4408
照臨	-10.4413
而化	-10.4425
之私	-10.4426
黄河	-10.443
萬法	-10.4435
當其	-10.4436
詩書	-10.4437
之計	-10.4439
冬至	-10.4439
倦	-10.4442
必欲	-10.4442
未及	-10.4444
用其	-10.4448
一體	-10.4455
三才	-10.4457
見於	-10.4458
而何	-10.4459
生也	-10.446
遂以	-10.4467
貺	-10.447
也亦	-10.4473
二日	-10.4474
求其	-10.4479
歸之	-10.4487
萬方	-10.4487
在外	-10.4489
僚	-10.4495
世世	-10.4502
其可	-10.4511
所知	-10.4514
其妻	-10.4516
爲國	-10.4521
得一	-10.4524
自任	-10.4527
廟旺	-10.4533
系	-10.4544
喬	-10.4545
大學	-10.4546
址	-10.4549
法師	-10.4549
氛	-10.4549
復有	-10.455
檜	-10.4553
圃	-10.4553
無註兊	-10.4555
𢙣	-10.456
減	-10.4562
昆	-10.4562
頸	-10.4563
妹	-10.4564
檄	-10.4566
獅子	-10.4567
可知	-10.4568
酬	-10.4568
欲求	-10.4569
岡	-10.4569
黙	-10.4569
筐	-10.4569
廊	-10.457
濟度	-10.457
待之	-10.4571
鎻	-10.4571
億萬	-10.4571
爲福	-10.4571
蔑	-10.4571
中心	-10.4571
飭	-10.4572
啼	-10.4573
畒	-10.4573
曩	-10.4573
袁	-10.4573
驛	-10.4573
浸	-10.4574
膚	-10.4574
顛倒	-10.4574
瞻仰	-10.4575
襟	-10.4575
眺	-10.4576
周之	-10.4578
陪	-10.4579
無註井	-10.4579
萬靈	-10.458
構	-10.4582
乃至	-10.4583
宵	-10.4586
𨼆	-10.4586
惡乎	-10.4587
縈	-10.4588
也六二	-10.459
得此	-10.4593
朋友	-10.4596
入山	-10.4601
無他	-10.4606
良久	-10.4608
長短	-10.4612
雲房	-10.4614
出家	-10.4614
其時	-10.462
齊侯	-10.4628
山水	-10.4645
后土	-10.4646
金光	-10.465
未始有	-10.4653
氣之	-10.4656
經典	-10.4667
畆	-10.4671
其文	-10.4673
紫雲	-10.4675
常住	-10.4686
三人	-10.4688
也六五	-10.4694
事也	-10.4697
故謂之	-10.4697
大喜	-10.4703
金剛	-10.4706
太常	-10.4709
而不爲	-10.4711
守其	-10.4714
氏之	-10.4717
必先	-10.4717
漢書	-10.4719
所至	-10.4726
虛空	-10.4726
萬國	-10.4729
聖衆	-10.4733
此卦	-10.474
諸山	-10.4747
有德	-10.4748
之録曰	-10.475
不可爲	-10.4753
河南	-10.4755
苟非	-10.4756
吏民	-10.4759
山靈	-10.4759
下界	-10.4761
庶人	-10.4762
如意	-10.4768
當年	-10.477
可用	-10.4771
於物	-10.4774
泰嶽	-10.4777
國朝	-10.4778
日中	-10.478
於朝	-10.4784
在後	-10.4787
侣	-10.4794
十餘年	-10.4796
而未	-10.4799
自化	-10.481
三尺	-10.481
得志	-10.4813
直上	-10.4815
玄妙	-10.4821
州人	-10.4826
神宗	-10.4839
暈	-10.484
无所	-10.4841
聞其	-10.4855
長子	-10.4856
剛柔	-10.4856
天禄	-10.4861
曰今	-10.4876
成子	-10.4881
聰	-10.4881
寐	-10.4882
無註大壯	-10.4882
無註蹇	-10.4883
不窮	-10.4884
呵	-10.4884
漆	-10.4885
鬚	-10.4885
洋	-10.4886
而猶	-10.4887
懐	-10.4888
忤	-10.4888
邈	-10.489
租	-10.489
無註同人	-10.489
霑	-10.4891
尔	-10.4891
料	-10.4891
盜賊	-10.4893
臯陶	-10.4893
以後	-10.4894
孔雀	-10.4894
賫	-10.4894
三官	-10.4894
無註泰	-10.4895
迪	-10.4895
插	-10.4895
慘	-10.4896
麾	-10.4896
㤗	-10.4896
燔	-10.4897
虔誠	-10.4897
浩刼	-10.4897
臘	-10.4897
無註否	-10.4898
先是	-10.4899
繡	-10.4899
牀	-10.49
槐	-10.4901
滕	-10.4901
蹤	-10.4901
簫	-10.4902
符籙	-10.4902
做	-10.4903
隘	-10.4905
叨	-10.4905
所及	-10.4909
段	-10.4911
羽士	-10.4912
不是	-10.4916
配天	-10.4916
雷電	-10.4918
仙妃	-10.4919
婢	-10.4919
也上六	-10.4919
不肖	-10.492
恱喜	-10.4921
大慈	-10.4922
辭曰	-10.4922
榮華	-10.493
乎曰	-10.4935
周天	-10.4936
十八盤	-10.4938
叔向	-10.494
禮部	-10.4949
江西	-10.4954
神名	-10.496
其過	-10.4965
箕子	-10.4967
汝等	-10.4967
之域	-10.497
不論	-10.4973
廟食	-10.4983
始於	-10.4994
所好	-10.4996
輕重	-10.4997
有是	-10.4997
風俗	-10.4998
以死	-10.5
以德	-10.5008
九天金闕	-10.501
好學	-10.501
者豈	-10.5012
非吾	-10.5014
清靜	-10.5015
之表	-10.5021
此星	-10.5021
有限	-10.5022
一百	-10.5026
内有	-10.5032
本日	-10.504
有三	-10.5045
無疆	-10.5048
無二	-10.5051
方且	-10.5057
大衆	-10.5059
當世	-10.5059
得中	-10.5067
和合	-10.5069
江湖	-10.5071
則吉	-10.5075
其罪	-10.5077
巽上	-10.5077
矣録曰	-10.5082
亦曰	-10.5086
於是乎	-10.5095
授以	-10.5096
德也	-10.5105
周易	-10.5118
曰陛下	-10.5128
金華	-10.5128
不立	-10.5129
安寧	-10.5131
有名	-10.5136
不入	-10.5144
有知	-10.5149
不畏	-10.516
焉故	-10.5161
㓛	-10.5169
智者	-10.5172
曰昔	-10.5181
立祠	-10.5184
數里	-10.5186
必得	-10.5191
陛	-10.5191
祠下	-10.5193
子路	-10.5193
大光明	-10.5195
於上	-10.52
命也	-10.5203
忿	-10.5205
煞	-10.5209
簾	-10.5212
金丹	-10.5216
宸	-10.5217
諸儒	-10.5217
無愧	-10.5218
城隍	-10.522
甕	-10.522
幢	-10.5221
儔	-10.5221
讚	-10.5221
盥	-10.5222
卵	-10.5223
乍	-10.5223
漂	-10.5224
迨	-10.5224
黒	-10.5224
䜛	-10.5226
輯	-10.5227
正一嗣教	-10.5228
無註大有	-10.5231
簷	-10.5231
無註震	-10.5232
孩	-10.5232
個	-10.5233
悃	-10.5233
𠔃	-10.5234
洪武	-10.5235
之教	-10.5235
琅	-10.5235
敞	-10.5236
填	-10.5236
綴	-10.5236
炭	-10.5236
帖	-10.5239
說經	-10.524
歷刼	-10.524
夫妻	-10.5241
開闢	-10.5242
騫	-10.5243
報應	-10.5244
文字	-10.5249
終也	-10.5253
之期	-10.5254
亦可以	-10.5254
天台	-10.5257
安得不	-10.5259
隱隱	-10.526
諸人	-10.5262
許之	-10.5262
開明	-10.5265
六畜	-10.5266
弘治	-10.5268
說法	-10.527
安居	-10.5277
也嗚呼	-10.5278
何足	-10.5279
歸于	-10.528
其說	-10.5287
大業	-10.5289
及諸	-10.5291
不厭	-10.5291
秦封	-10.5293
著書	-10.5293
在前	-10.5294
動靜	-10.5296
以安	-10.53
正統	-10.5309
明神	-10.531
李氏	-10.5312
之象也	-10.5315
于今	-10.5318
金人	-10.5318
各有所	-10.532
聽之	-10.5321
皇上	-10.5325
本心	-10.5327
不任	-10.5327
承天	-10.5329
十一年	-10.5332
一毫	-10.5334
出而	-10.5335
衣服	-10.5338
守之	-10.5339
顔子	-10.5344
四夷	-10.5346
無言	-10.5351
之扵	-10.5355
宣帝	-10.5355
之典	-10.5355
天神	-10.5356
由此	-10.5361
其情	-10.5364
義也	-10.5365
王孫	-10.5368
而弗	-10.537
之害	-10.5373
治亂	-10.5374
一朝	-10.5374
不獲	-10.5376
地府	-10.5377
雲霧	-10.5382
妙行	-10.5385
受之	-10.5388
多矣	-10.539
何憂	-10.539
祀典	-10.5391
道德之	-10.5392
至元	-10.5395
之議	-10.5397
十三年	-10.5398
也惟	-10.5402
坤下	-10.5403
比之	-10.5428
經法	-10.5433
不順	-10.5444
萬物皆	-10.5444
如來	-10.5447
諸星	-10.545
子産	-10.5455
白石	-10.5467
之屬	-10.5469
上變	-10.5472
惟有	-10.5476
者衆	-10.5481
萬世之	-10.5482
所求	-10.5482
有慶	-10.5495
也九二	-10.5497
高功	-10.5497
不合	-10.5499
人臣	-10.5505
平地	-10.5505
者也故	-10.5506
可爲	-10.5509
非我	-10.551
以文	-10.5519
以義	-10.5522
天庫	-10.5524
或作	-10.5525
知此	-10.553
級	-10.5532
言語	-10.5532
賢人	-10.5533
在此	-10.5535
奪其	-10.5537
慚	-10.554
無非	-10.5541
無註旣濟	-10.555
無註艮	-10.5553
僉	-10.5554
狩	-10.5561
湛	-10.5562
恱	-10.5563
姻	-10.5563
癡	-10.5563
綿綿	-10.5563
昔者	-10.5563
遼	-10.5564
培	-10.5566
栗	-10.5566
刊	-10.5566
涵	-10.5568
斃	-10.5568
冕	-10.5568
迓	-10.5569
体	-10.557
苞	-10.5572
挹	-10.5572
稼	-10.5572
蝕	-10.5573
檻	-10.5574
無註中孚	-10.5574
針	-10.5574
鋪	-10.5575
鹽	-10.5575
谿	-10.5576
鎖	-10.5576
志在	-10.5577
無註巽	-10.5578
戟	-10.5579
塔	-10.558
姪	-10.558
菊	-10.558
藍	-10.558
異於	-10.5581
慝	-10.5581
在世	-10.5581
裝	-10.5582
黯	-10.5582
珮	-10.5582
録之	-10.5582
捲	-10.5582
嬴	-10.5583
庚午	-10.5583
寥	-10.5588
豆	-10.559
稔	-10.5591
修煉	-10.5594
若非	-10.5595
蕩蕩	-10.5596
耳故	-10.5596
變而	-10.5605
紫㣲	-10.561
也既	-10.5612
祈福	-10.5613
散花	-10.5615
嗣教	-10.5617
純陽	-10.5617
回首	-10.5619
執政	-10.5627
爲民	-10.5628
如故	-10.5638
太學	-10.5648
沿	-10.5648
八十一	-10.5656
尚有	-10.5661
一月	-10.5661
凡人	-10.5666
後有	-10.5668
乾下	-10.567
齎	-10.5672
於内	-10.5676
之報	-10.5678
太空	-10.5679
未有不	-10.568
其用	-10.5682
惡曜	-10.5685
請問	-10.5688
結成	-10.5689
教主	-10.5693
所願	-10.5694
何由	-10.5697
用心	-10.5699
憤	-10.5701
老子曰	-10.5705
明帝	-10.571
天之所	-10.572
刑刃	-10.5721
不可以不	-10.5724
號令	-10.5727
死不	-10.5728
一物	-10.573
秋毫	-10.573
皆非	-10.5732
其地	-10.5735
無能	-10.5739
啓請	-10.5745
亦不能	-10.5747
雲中	-10.5748
形容	-10.5748
登山	-10.575
金玉	-10.5754
其一	-10.5755
之稱	-10.5759
而動	-10.5772
於神	-10.5773
江河	-10.5774
洞玄	-10.5775
至大	-10.5778
人不	-10.5783
則天下	-10.5785
而終	-10.5798
善者	-10.5804
脩身	-10.5809
再三	-10.581
天寳	-10.5812
有子	-10.5819
丞	-10.5822
元皇	-10.5827
患難	-10.5829
數也	-10.583
僖公	-10.5833
而後能	-10.5834
無一	-10.5836
困於	-10.5839
詎	-10.584
小子	-10.5841
宣子	-10.5843
也九三	-10.5846
不樂	-10.585
入室	-10.5853
也上九	-10.5853
志心	-10.5853
十九年	-10.5862
陽明	-10.5864
恐其	-10.5866
炳	-10.5866
二十五	-10.5868
豁	-10.5874
不爭	-10.5874
未曾	-10.5881
不取	-10.5881
問於	-10.5881
之權	-10.5882
之所由	-10.5883
道法	-10.5884
未始	-10.5885
十三日	-10.5887
蛟	-10.589
之業	-10.5892
塊	-10.5892
伐之	-10.5894
五曰	-10.5895
必以	-10.59
其國	-10.59
也如	-10.5901
也九五	-10.5903
彬	-10.5903
碣	-10.5903
最爲	-10.5903
禮也	-10.591
無註小過	-10.5913
韋	-10.5916
燎	-10.5917
攘	-10.5918
自來	-10.5919
者多	-10.592
募	-10.592
急急如律令	-10.5921
酆都	-10.5922
僵	-10.5922
廓	-10.5923
彦	-10.5925
迭	-10.5925
涸	-10.5925
殄	-10.5926
無註大過	-10.5926
鳯	-10.5926
縛	-10.5926
隠	-10.5927
祈禱	-10.5927
踴躍	-10.5927
而退	-10.5928
辦	-10.5928
無註歸妹	-10.5928
綵	-10.5929
懺	-10.5929
椽	-10.593
釁	-10.5931
冶	-10.5931
麒麟	-10.5931
讎	-10.5931
濫	-10.5931
熾	-10.5933
掠	-10.5933
鬥	-10.5934
磴	-10.5934
這	-10.5934
御製	-10.5935
徂徠	-10.5935
塵埃	-10.5936
瘦	-10.5936
之氣更受鍊	-10.5938
梗	-10.5938
勉强	-10.5939
濃	-10.5939
神呪	-10.594
漢天師	-10.5942
黍稷	-10.5943
漢武帝	-10.5943
有事	-10.5944
聰明	-10.5944
陀	-10.5947
一切衆生	-10.5948
無爲也	-10.5948
彼我	-10.595
尊卑	-10.595
艱難	-10.5951
甘露	-10.5953
而入	-10.5953
道不	-10.5957
紫府	-10.5959
果有	-10.5967
以至於	-10.5968
南陽	-10.5972
秦松	-10.5973
之所謂	-10.5979
土地	-10.598
布衣	-10.5981
地支	-10.5985
也又曰	-10.5985
九霄	-10.5985
建立	-10.5986
好事	-10.5994
所宜	-10.5995
刻石	-10.5996
兩儀	-10.5998
齋戒	-10.6002
弗能	-10.6003
家貧	-10.6004
何人	-10.6005
於世	-10.6006
惡之	-10.6006
莫如	-10.6007
其氣	-10.601
天行	-10.6014
孰謂	-10.6019
中道	-10.6025
者如	-10.6029
之治	-10.603
玄天	-10.6031
在乎	-10.6031
止也	-10.6037
乎故	-10.6042
七寳	-10.6043
一度	-10.6046
自立	-10.6049
三者	-10.605
至仁	-10.6051
不得其	-10.6053
將何	-10.6053
但能	-10.607
者是	-10.607
見而	-10.6074
名爲	-10.6075
道德經	-10.6078
難也	-10.6082
桃花	-10.6083
蒼生	-10.6083
封爲	-10.6091
秦漢	-10.6098
數年	-10.6117
不能自	-10.612
諷	-10.6125
人君	-10.6126
於地	-10.6135
之哉	-10.614
成道	-10.6142
臣等	-10.6153
言曰	-10.6158
第四	-10.6163
立廟	-10.6168
久而	-10.6171
之智	-10.6174
者也夫	-10.6175
而作	-10.6179
入于	-10.6182
誦此經	-10.6183
聞而	-10.6187
自稱	-10.619
五代	-10.6191
以天下	-10.6197
辜	-10.6212
先王之	-10.6219
吾不知	-10.6219
其位	-10.6222
凡有	-10.6223
▁(	-10.6229
風雷	-10.6229
也聖人	-10.6232
昊	-10.6233
之界	-10.6234
彼此	-10.6235
由來	-10.6237
以此爲	-10.6239
無子	-10.6244
根本	-10.6245
東行	-10.6248
上書	-10.6248
之流	-10.6251
無註大畜	-10.6257
之師	-10.6263
不孝	-10.6266
扁	-10.6268
厨	-10.6269
朝元	-10.6271
涕	-10.6271
惡人	-10.6279
神神	-10.6283
不幸	-10.6283
門庭	-10.6283
神王	-10.6284
蚕	-10.6284
華山	-10.6284
無註萃	-10.6285
簿	-10.6285
之迹	-10.6286
聾	-10.6287
以濟	-10.6288
稀	-10.6289
瓶	-10.6289
隨時	-10.6289
笏	-10.6292
渥	-10.6293
冐	-10.6293
祟	-10.6294
魅	-10.6295
凋	-10.6295
冷	-10.6297
逾	-10.6298
霍	-10.6298
椎	-10.6299
峭	-10.6299
换	-10.6299
稼穡	-10.6299
鯉	-10.63
醒	-10.63
啖	-10.6301
悮	-10.6301
之能	-10.6301
邸	-10.6301
鞏	-10.6302
笠	-10.6302
無註頥	-10.6302
茹	-10.6302
脾	-10.6302
䰟	-10.6303
安樂	-10.6303
眇	-10.6303
解曰占家宅	-10.6303
蚤	-10.6303
伴	-10.6304
無註小畜	-10.6304
芽	-10.6305
梧	-10.6306
數百	-10.6306
纖	-10.6307
無註比	-10.6307
無註咸	-10.6307
醴	-10.6309
庚申	-10.631
紹興	-10.631
淮南	-10.6311
稻	-10.6311
祠宇	-10.6312
梟	-10.6314
増	-10.6314
昆弟	-10.6314
入覲	-10.6315
渝	-10.6316
無註臨	-10.6316
洞賓	-10.6317
以報	-10.6321
西山	-10.6321
無疑	-10.6323
飛騰	-10.6327
得見	-10.6329
而徃	-10.6333
何有	-10.6335
萬仞	-10.6337
諸生	-10.6342
始知	-10.6342
振衣	-10.6342
親親	-10.6343
劉氏	-10.6347
吾子	-10.635
乙丑	-10.635
堂堂	-10.635
吉曜	-10.6351
名號	-10.6353
或云	-10.6357
方其	-10.6359
神咒	-10.6359
斯人	-10.6359
此心	-10.636
也筆乘	-10.6361
許由	-10.6362
方可	-10.6367
舜之	-10.6368
南面	-10.6368
不失其	-10.6369
太華	-10.6371
大地	-10.6376
亨通	-10.6381
理也	-10.6385
六甲	-10.6386
居下	-10.6386
明矣	-10.6388
司徒	-10.639
難言	-10.6393
不測	-10.6394
兊下	-10.6398
夫唯	-10.6401
乎若	-10.6403
上聖	-10.6404
車馬	-10.6407
鰲峯	-10.6408
神妙	-10.6409
八日	-10.6415
不廢	-10.6417
不愛	-10.6418
本末	-10.6419
艮下	-10.6421
事業	-10.6422
玄功	-10.6423
相繼	-10.6423
皇經	-10.6424
亦主	-10.6427
太過	-10.6431
此所謂	-10.6431
方諸	-10.6431
甘心	-10.6435
復命	-10.6438
開張	-10.6439
白馬	-10.6443
賢聖	-10.6446
五松	-10.6449
歲德	-10.6452
開化	-10.6455
如法	-10.6457
)○	-10.6461
兆民	-10.6465
一氣	-10.6466
聖賢之	-10.6473
可免	-10.6473
而難	-10.6473
之詩	-10.6475
昭王	-10.6477
學問	-10.6485
本朝	-10.6486
全其	-10.6492
或者	-10.6493
長存	-10.6496
氣也	-10.65
可使之	-10.6504
之辰	-10.6513
言不	-10.6514
爲禍	-10.6517
是之謂	-10.6518
也六三	-10.6523
故言	-10.6523
而行之	-10.6527
相如	-10.6529
大同	-10.6531
三章	-10.6535
剛中	-10.6541
也及	-10.6544
非惟	-10.6548
周禮	-10.6549
之苦	-10.655
五老	-10.6551
以相	-10.6554
誰知	-10.6555
之所以爲	-10.6561
敢問	-10.6567
所聞	-10.6572
師曰	-10.6572
於後	-10.658
身在	-10.6581
何咎	-10.6592
河東	-10.6593
壊	-10.6593
自成	-10.6594
識之	-10.6595
存心	-10.6595
未嘗有	-10.6596
二女	-10.6616
怕	-10.6616
八方	-10.662
文學	-10.6621
者不能	-10.6625
自天	-10.6629
囂	-10.6641
上仙	-10.6646
斛	-10.6647
大賢	-10.6647
終身不	-10.6647
何故	-10.665
欲其	-10.6651
朋友之	-10.6652
秦皇	-10.6654
歸於	-10.666
形體	-10.6661
換	-10.6665
窒	-10.6665
踪	-10.6667
疏	-10.6668
龍王	-10.6669
無註坤	-10.667
壅	-10.6671
刖	-10.6672
匈奴	-10.6673
無註渙	-10.6673
君臣之	-10.6674
豪傑	-10.6675
捉	-10.6675
瘞	-10.6676
匣	-10.6676
而應	-10.6677
里許	-10.6677
椒	-10.6678
竪	-10.6679
僥倖	-10.668
繆	-10.668
健	-10.668
酷	-10.6681
罪人	-10.6681
奬	-10.6681
苛	-10.6681
貶	-10.6681
王曰	-10.6682
柯	-10.6682
軽	-10.6682
忙	-10.6682
無註夬	-10.6682
凍	-10.6683
盲	-10.6683
釐	-10.6683
鯀	-10.6684
幅	-10.6685
莒	-10.6685
兢	-10.6685
蠲	-10.6686
萬有	-10.6686
狎	-10.6686
丁亥	-10.6686
軿	-10.6686
跛	-10.6687
奉天	-10.6688
奉獻	-10.6688
伊川	-10.6688
趍	-10.6689
膳	-10.6689
汾	-10.6689
汜	-10.6689
囿	-10.669
乙卯	-10.6691
虬	-10.6692
慄	-10.6692
渺	-10.6693
嚥	-10.6693
佚	-10.6693
顔淵	-10.6695
沆	-10.6695
栖	-10.6696
理之	-10.6697
丁卯	-10.6697
日觀峰	-10.6698
腦	-10.6699
碧落	-10.6701
加以	-10.6702
其他	-10.6704
甲辰	-10.6706
儼然	-10.671
之仁	-10.6711
徒以	-10.6718
護國	-10.6725
未易	-10.6729
天杖	-10.6731
不遑	-10.6737
本來	-10.674
真仙	-10.6743
功曹	-10.6744
勞苦	-10.6745
之詞	-10.6747
五六	-10.6752
則非	-10.6753
演說	-10.6753
神農	-10.6761
中庸	-10.6764
不一	-10.6765
先後	-10.6775
二公	-10.6778
問道	-10.6787
無迹	-10.6789
光照	-10.6794
羣生	-10.6796
是亦	-10.6796
行而	-10.6797
日夜	-10.6798
矣吾	-10.6803
而己	-10.681
八景	-10.6811
不遠	-10.6812
無始	-10.6823
之政	-10.6824
也是	-10.6826
有如	-10.6826
巽下	-10.6833
曰卿	-10.6833
然其	-10.6836
道經	-10.6836
赤子	-10.684
存者	-10.6844
上䟽	-10.6848
高山	-10.6853
代之	-10.6856
南國	-10.686
八極	-10.6861
任之	-10.6863
小大	-10.6865
三卷	-10.6868
千金	-10.6869
可見矣	-10.6873
山谷	-10.6873
涯	-10.6878
兖	-10.688
無主	-10.688
幽王	-10.6883
吉利	-10.6888
過去	-10.6894
高帝	-10.6894
者又	-10.6897
譬之	-10.6897
皆是	-10.6905
此爲	-10.6907
宗師	-10.6919
興起	-10.6921
百日	-10.6932
飛龍	-10.6932
也六四	-10.6933
觀於	-10.6933
答曰	-10.6942
居之	-10.6943
敢不	-10.6945
出世	-10.695
時爲	-10.6952
之源	-10.6955
獨有	-10.6955
大神	-10.6957
秦王	-10.6958
自用	-10.696
謂其	-10.6963
然後知	-10.6969
上古	-10.6975
死而	-10.6975
殺生	-10.6977
罔不	-10.698
之號	-10.698
抱一	-10.6984
常人	-10.6986
二十二	-10.6987
天地萬物	-10.6993
順之	-10.6993
乃命	-10.6997
天官	-10.6997
無由	-10.7
六龍	-10.7003
樵	-10.7005
録曰夫	-10.7006
天虛	-10.7006
二十年	-10.7009
惕	-10.701
始生	-10.701
廣大	-10.701
中天	-10.7012
黄老	-10.7012
也豈	-10.7015
非所以	-10.7023
木爲	-10.7026
以象	-10.7027
迄	-10.7032
巍	-10.7036
有喜	-10.7036
謂曰	-10.7037
羲	-10.7041
字道	-10.7043
不治	-10.7044
左手	-10.7044
二者	-10.7049
事親	-10.7049
九宫	-10.705
吾聞	-10.7054
己而	-10.7054
悠	-10.7055
疇	-10.7056
催	-10.7066
菜	-10.7066
乃可	-10.7072
踏	-10.7072
神光	-10.7072
將安	-10.7073
勲	-10.7073
世家	-10.7074
䕃	-10.7074
惰	-10.7074
倏	-10.7074
涇	-10.7075
挺	-10.7075
挫	-10.7075
(□)	-10.7076
牝	-10.7077
滌	-10.7077
利有攸徃	-10.7078
萊	-10.7079
亘	-10.7079
萬物而	-10.7079
松栢	-10.708
笙	-10.708
剋	-10.708
霖	-10.7081
撥	-10.7081
璞	-10.7081
桐	-10.7081
壹	-10.7082
劇	-10.7082
無註坎	-10.7082
搏	-10.7082
幡	-10.7083
淹	-10.7083
呼吸	-10.7083
濬	-10.7083
帷	-10.7083
一時之	-10.7083
無註明夷	-10.7083
大悲大願大聖大慈	-10.7084
叫	-10.7084
庠	-10.7084
鉅	-10.7085
研	-10.7085
鉤	-10.7085
三十五	-10.7085
纓	-10.7086
罄	-10.7086
僻	-10.7086
訴	-10.7086
璋	-10.7087
無註賁	-10.7087
齧	-10.7087
繹	-10.7088
碩	-10.7088
衆妙	-10.7089
夸	-10.7089
參差	-10.709
綬	-10.709
控	-10.7091
養生	-10.7091
有意	-10.7092
㝠	-10.7092
賑	-10.7092
自言	-10.7092
英雄	-10.7092
悵	-10.7093
駟	-10.7094
非也	-10.7094
贊	-10.7095
亭亭	-10.7096
相對	-10.7096
妻妾	-10.7096
雖無	-10.7098
盪	-10.7098
侍郞	-10.7098
世所	-10.7099
宫観	-10.7099
孔孟	-10.71
粧	-10.71
矣然則	-10.7101
未成	-10.7109
用也	-10.7109
約束	-10.7111
叅政	-10.7111
好生	-10.7112
石上	-10.7114
延壽	-10.7114
洞庭	-10.7116
混元	-10.7119
鷟曰	-10.7121
子也	-10.7126
無敢	-10.7131
戊子	-10.7135
推之	-10.7135
水旱	-10.7135
及長	-10.714
而問	-10.7145
嵩山	-10.7146
青山	-10.7147
升降	-10.7148
今世	-10.715
梁父	-10.715
不獨	-10.7152
太一	-10.7154
憂患	-10.7159
判官	-10.7159
成化	-10.7169
震動	-10.7175
有光	-10.7177
無害	-10.7178
十餘	-10.718
二百	-10.7182
之福	-10.7184
天樂	-10.7186
爲義	-10.7187
謹告	-10.7188
嵗德	-10.7189
何哉	-10.7197
度世	-10.72
東山	-10.7201
身也	-10.7202
兹山	-10.7207
經功	-10.7208
萬人	-10.7211
凶象曰	-10.7218
難窮	-10.722
不暇	-10.7221
心無	-10.7222
其知	-10.7223
法也	-10.7224
室家	-10.7226
坎下	-10.7226
之節	-10.7226
一事	-10.7229
歲月	-10.723
靈光	-10.7231
而獨	-10.7236
更有	-10.7238
善星	-10.7239
爲二	-10.7248
之傳	-10.725
有定	-10.7251
哉此	-10.7252
偶然	-10.7252
宿天	-10.7255
咸使	-10.7256
四十九	-10.7258
成都	-10.7259
福星	-10.7266
之物	-10.7267
生成	-10.727
之賢	-10.7271
靈公	-10.7275
此詩	-10.7282
神鬼	-10.7284
造物	-10.729
聖德	-10.7297
兊上	-10.7297
兖州	-10.7302
之卦	-10.7313
於其間	-10.7313
中興	-10.7317
只是	-10.732
一炁	-10.732
未幾	-10.7321
即此	-10.7322
大王	-10.7325
傳曰	-10.7327
棄之	-10.7332
莫知	-10.7343
春風	-10.7344
爲汝	-10.735
但見	-10.7352
子思	-10.7356
止于	-10.7361
方知	-10.7363
其禍	-10.7373
人則	-10.7375
已成	-10.7381
故人	-10.7384
同於	-10.7391
順而	-10.7391
長者	-10.7393
事事	-10.7393
分也	-10.7395
力行	-10.7403
者天	-10.7407
夫人之	-10.7408
雖不	-10.7412
肅宗	-10.7421
其辭	-10.7435
來朝	-10.7437
一無	-10.7437
果然	-10.7442
王子	-10.7444
諾	-10.7445
四曰	-10.7446
也歟	-10.7446
鰲	-10.745
在岳頂	-10.7454
與天地	-10.7459
不傳	-10.7463
澹	-10.7465
五里	-10.7466
元祐	-10.7466
也雖然	-10.7467
間有	-10.747
椿	-10.747
療	-10.7472
惡業	-10.7472
三候到	-10.7472
皆可	-10.7473
本命	-10.7474
入朝	-10.7486
稅	-10.7488
無註需	-10.7488
呉	-10.7488
囬	-10.7489
之始也	-10.7489
詆	-10.7491
凖	-10.7491
匱	-10.7492
噴	-10.7492
惓惓	-10.7493
煎	-10.7494
𡨚	-10.7495
净	-10.7495
罵	-10.7495
凟	-10.7495
遶	-10.7496
壘	-10.7496
欠	-10.7497
芥	-10.7497
蛻	-10.7498
歌曰	-10.7499
崔嵬	-10.7499
敖	-10.7499
祁	-10.75
架	-10.75
馨	-10.75
子午	-10.75
無註屯	-10.7501
毗	-10.7501
而不敢	-10.7502
乙酉	-10.7502
菽	-10.7502
悚	-10.7502
濮	-10.7503
踞	-10.7503
辛酉	-10.7503
忱	-10.7503
六十四卦	-10.7504
頃刻	-10.7504
纂	-10.7504
梳	-10.7504
衘	-10.7505
泥丸	-10.7505
轡	-10.7506
浦	-10.7506
霖雨	-10.7506
噬	-10.7507
二十八宿	-10.7507
餓	-10.7507
卞	-10.7507
怒曰	-10.7507
儒墨	-10.7508
丙午	-10.7508
鷄鳴	-10.7508
都督	-10.7509
頓首	-10.7509
無註損	-10.7509
翰林	-10.751
打	-10.751
使民	-10.751
辛丑	-10.751
無註升	-10.7511
侍衛	-10.7512
挂	-10.7514
盗賊	-10.7514
甌	-10.7515
蘿	-10.7516
香稅	-10.7516
商人	-10.7518
什	-10.7518
一卷	-10.7522
北海	-10.7525
湛然	-10.7527
常存	-10.7527
甲寅	-10.7528
悔亡	-10.7528
對越	-10.7533
以見	-10.7536
祭酒	-10.7537
襄公	-10.7537
長跪	-10.754
聖人之道	-10.7541
我今	-10.7541
示人	-10.7541
不殆	-10.7543
無涯	-10.7543
六爻	-10.7544
德不	-10.7546
金銀	-10.7547
所作	-10.755
安石	-10.7551
未見其	-10.7552
得生	-10.7555
登壇	-10.7556
齊王	-10.7556
丙子	-10.7562
皇極	-10.7569
也唯	-10.757
受苦	-10.7583
其生	-10.7584
以進	-10.7586
不可見	-10.7586
庚子	-10.7589
祀事	-10.759
無礙	-10.7594
無端	-10.7595
不拘	-10.7598
而致	-10.7599
因以	-10.7603
尚存	-10.7607
之重	-10.761
之野	-10.7611
有過	-10.7612
矣乃	-10.7613
仙官	-10.7616
五行之	-10.7621
周公之	-10.7623
坦	-10.7624
告曰	-10.7624
莫知其	-10.7625
乹	-10.7634
世子	-10.764
不逮	-10.7643
塵世	-10.7646
堯之	-10.7648
使天下	-10.7648
人亦	-10.7648
安危	-10.7652
造命	-10.7657
普照	-10.766
死於	-10.7662
帝光	-10.7664
丈夫	-10.767
第五	-10.7674
不問	-10.7674
康寧	-10.7677
告成	-10.7679
讀之	-10.7681
玄靈	-10.7686
所不能	-10.7686
神主	-10.7702
坤之	-10.7708
數日	-10.7708
應物	-10.7712
而任	-10.7713
忠義	-10.7713
非道	-10.7714
號爲	-10.772
玄教	-10.7726
玄帝	-10.7729
無註睽	-10.7729
祖業	-10.7731
不屈	-10.7732
曰何	-10.7733
如此則	-10.7738
萬丈	-10.7751
大怒	-10.7755
水爲	-10.7755
即爲	-10.7757
外物	-10.7763
明明	-10.7763
明其	-10.7768
相去	-10.7768
於中	-10.7772
聖眞	-10.7773
不知其所	-10.7776
其教	-10.7776
玉虛	-10.7782
不終	-10.7782
之體	-10.7782
癸亥	-10.7784
三歲	-10.7786
或謂	-10.7787
胡爲	-10.779
考之	-10.7801
逢時	-10.7806
無遺	-10.7809
也使	-10.781
天地間	-10.7811
皆不	-10.7812
無註剥	-10.7813
始有	-10.7822
坎離	-10.7825
尊重	-10.7826
相隨	-10.7827
坤上	-10.783
今觀	-10.7836
而進	-10.7837
運限	-10.784
西王母	-10.7842
眞文	-10.7847
之威	-10.7849
必然	-10.7851
不以爲	-10.7853
必有所	-10.7856
也凡	-10.7856
未來	-10.7859
衢	-10.7868
十七年	-10.7871
道君	-10.7874
斯民	-10.7878
中國之	-10.788
油	-10.7887
道徳	-10.7891
前有	-10.7893
哀公	-10.7895
胷	-10.7896
注生	-10.7899
成而	-10.79
惱	-10.79
奈	-10.7904
哉若	-10.7905
身中	-10.7908
星主	-10.791
無註家人	-10.7913
震上	-10.7915
慨	-10.7919
欄	-10.7921
琦	-10.7923
筋	-10.7923
泮	-10.7923
殞	-10.7924
弩	-10.7925
盃	-10.7926
有聲	-10.7926
觴	-10.7927
鵠	-10.7927
知止	-10.7927
沃	-10.7928
仆	-10.7928
盜跖	-10.793
元亨利貞	-10.793
轂	-10.7931
法度	-10.7931
無註旅	-10.7932
鐫	-10.7932
圜	-10.7932
矩	-10.7932
枝葉	-10.7932
項羽	-10.7933
重重	-10.7933
干戈	-10.7933
髓	-10.7934
入聖	-10.7934
逞	-10.7934
不自知	-10.7934
規矩	-10.7934
貲	-10.7934
彙	-10.7935
謡	-10.7935
有常	-10.7936
鵬	-10.7936
彝	-10.7936
裹	-10.7936
不負	-10.7936
壼	-10.7937
壬寅	-10.7937
無註蠱	-10.7938
之義也	-10.7938
糞	-10.7938
鄒	-10.7938
刧	-10.7938
擎	-10.7939
婿	-10.7939
讖	-10.794
涓	-10.7941
雌雄	-10.7942
耿	-10.7942
謟	-10.7943
纒	-10.7943
輅	-10.7943
壬午	-10.7943
藹	-10.7944
郢	-10.7944
賂	-10.7944
富弼	-10.7944
芬	-10.7944
鴻濛	-10.7945
后妃	-10.7945
軾	-10.7945
無字碑	-10.7946
羿	-10.7947
秦始皇	-10.7948
壬申	-10.7949
哺	-10.7949
賓客	-10.7949
之資	-10.795
酣	-10.795
天堂	-10.795
盤古	-10.7952
晟	-10.7954
年嵗	-10.7954
奴僕	-10.7954
民安	-10.7955
之人也	-10.7955
爵禄	-10.7956
幽冥	-10.7956
挈	-10.7956
南海	-10.7957
巖巖	-10.7957
嵗殿	-10.7958
契丹	-10.7961
長嘯	-10.7961
太㣲	-10.7962
禎祥	-10.7963
支離	-10.7967
孔氏	-10.7968
之可也	-10.7968
武子	-10.7969
即今	-10.7969
靈官	-10.7979
與君	-10.798
辛未	-10.7983
顔色	-10.7984
問其故	-10.7986
龍虎山	-10.7986
目録	-10.7987
對照	-10.7987
天哭	-10.7989
周旋	-10.7993
以言	-10.7993
百歲	-10.7994
利用	-10.7996
識者	-10.7997
牛馬	-10.8003
正色	-10.8003
則亦	-10.8003
甲兵	-10.8004
十九日	-10.8005
言訖	-10.8006
飛鳥	-10.8008
哀樂	-10.8011
自取	-10.8015
第二十	-10.8019
主宰	-10.8021
碧霞宫	-10.8023
爲是	-10.8029
與子	-10.8031
一白	-10.8034
未敢	-10.8037
天書	-10.8037
動則	-10.8039
天壽	-10.804
互相	-10.8044
爲言	-10.8045
爲仁	-10.8047
六十四	-10.8047
是皆	-10.8055
石壁	-10.8055
以應	-10.8058
復起	-10.806
罪福	-10.8063
聖朝	-10.8064
進士	-10.8065
死矣	-10.8071
得之以	-10.8071
至真	-10.8073
吾身	-10.8073
青龍	-10.8078
十萬	-10.808
若能	-10.808
九轉	-10.8081
曰天下	-10.8084
者以爲	-10.8085
以表	-10.8088
大㐫	-10.8088
也於是	-10.8089
靈貺	-10.8091
自見	-10.8092
隱居	-10.8095
亦何	-10.8095
貞觀	-10.81
奉高	-10.8103
所載	-10.8105
曰若	-10.8109
經營	-10.8115
誠心	-10.8118
而且	-10.8119
四章	-10.8122
奇觀	-10.8123
成形	-10.8123
長夜	-10.8127
矣又	-10.8128
還丹	-10.8128
天刃	-10.8132
紫皇	-10.8132
爲憂	-10.8133
可畏	-10.8133
長久	-10.8134
昭昭	-10.8136
仁人	-10.8147
之化	-10.8149
爲物	-10.8153
喜曰	-10.8154
到頭	-10.8156
行則	-10.8161
保其	-10.8161
先聖	-10.8162
紫虛	-10.8162
皆自	-10.8163
昔之	-10.8167
萬劫	-10.8167
齊國	-10.8169
唐書	-10.817
爲患	-10.8172
宣仁	-10.8174
爲政	-10.8175
百神	-10.8175
在内	-10.8176
昇天	-10.8183
能使	-10.8186
仁義之	-10.8189
州刺史	-10.819
從來	-10.8191
坎上	-10.8191
之星	-10.8205
制度	-10.8205
飛仙	-10.8209
信其	-10.8211
泰安	-10.8215
得聞	-10.8217
民無	-10.8217
延生	-10.8219
而神	-10.8221
大觀	-10.8224
不和	-10.8226
五千	-10.8226
一代	-10.8231
生扵	-10.8231
而食	-10.8231
道學	-10.8234
情欲	-10.8234
其首	-10.8239
成人	-10.8244
方外	-10.8246
以定	-10.8249
母子	-10.8255
九日	-10.8256
出乎	-10.8257
二十七	-10.8257
多少	-10.8261
而物	-10.8262
生子	-10.8265
也且	-10.8265
故爲	-10.8267
大吉利	-10.8268
也予	-10.8269
下元	-10.8271
見一	-10.8272
道無	-10.8273
不得已而	-10.8276
心也	-10.8277
嵐	-10.8278
按春秋	-10.8282
至則	-10.8284
小者	-10.8284
庶民	-10.8286
土木	-10.8288
立身	-10.8291
文子	-10.8293
異乎	-10.8293
執事	-10.8295
也知	-10.8295
之孫	-10.8295
之妻	-10.8299
非所	-10.8301
於齊	-10.831
嘗謂	-10.8311
自今	-10.8317
此意	-10.8328
之容	-10.8332
無餘	-10.8335
相望	-10.8337
蹶	-10.8343
以奉	-10.8344
訛	-10.8348
而未嘗	-10.835
而爲之	-10.8351
相似	-10.8355
安有	-10.8361
何時	-10.8362
翕	-10.8369
檀	-10.8376
安民	-10.8377
亡其	-10.8378
脇	-10.8378
惇	-10.8379
断	-10.8379
大風	-10.838
三王	-10.8381
森	-10.8381
琢	-10.8381
或問	-10.8382
而走	-10.8382
藻	-10.8383
紳	-10.8384
芸	-10.8384
俠	-10.8384
悶	-10.8385
鞠	-10.8386
腥	-10.8386
廪	-10.8387
攺	-10.8387
懺悔	-10.8387
沂	-10.8387
曳	-10.8387
闌	-10.8387
我以	-10.8387
沸	-10.8387
渚	-10.8388
稿	-10.8388
叶	-10.8388
龐	-10.8388
洪範	-10.8388
規模	-10.8389
稚	-10.8391
籤	-10.8391
訝	-10.8392
劾	-10.8392
棗	-10.8392
星直日	-10.8392
蟬	-10.8392
股肱	-10.8393
莊嚴	-10.8393
胄	-10.8394
瘳	-10.8395
無註鼎	-10.8395
辛卯	-10.8396
無註革	-10.8396
戊辰	-10.8396
攬	-10.8397
鉞	-10.8397
穎	-10.8397
滴	-10.8397
屐	-10.8397
烟霞	-10.8398
悼	-10.8398
你	-10.8399
河伯	-10.84
戊午	-10.84
翩翩	-10.8401
岧嶢	-10.8401
閉目	-10.8404
婉	-10.8404
婆	-10.8404
圓滿	-10.8406
持誦	-10.8407
吏部	-10.8407
太傅	-10.8407
唐太宗	-10.8407
泰岱	-10.8409
民心	-10.841
漢王	-10.8412
玄化	-10.8413
必能	-10.8414
魂魄	-10.8415
湯武	-10.8416
消除	-10.8417
遷移	-10.8418
誓願	-10.842
三島	-10.842
三台	-10.842
千仞	-10.8422
石室	-10.8426
嘆息	-10.843
留連	-10.8431
刑罰	-10.844
壽考	-10.8441
既至	-10.8442
是其	-10.8442
居民	-10.8442
長房	-10.8443
告以	-10.8445
諸司	-10.8448
大仙	-10.845
有道者	-10.8453
從者	-10.8453
亡者	-10.8454
血食	-10.8457
否則	-10.8464
盛衰	-10.8466
□□	-10.8466
二十三	-10.8467
紫極	-10.8469
七星	-10.8477
清明	-10.8479
譏	-10.848
何用	-10.8482
堯舜之	-10.8482
龍穴	-10.8484
之疾	-10.8485
誕生	-10.8486
其聲	-10.8488
知有	-10.8491
仰視	-10.8492
天下皆	-10.8492
議論	-10.8493
也况	-10.8493
青衣	-10.8497
罪業	-10.8507
眞氣	-10.8513
百事	-10.8516
其初	-10.8516
復見	-10.8517
我家	-10.8517
愚按	-10.8517
危殆	-10.8519
道合	-10.8519
六氣	-10.8519
之辭	-10.8519
相保	-10.8521
大海	-10.8526
皇圖	-10.853
不齊	-10.8532
群仙	-10.8532
九幽	-10.8539
五陽	-10.854
仞	-10.8541
一點	-10.8542
幸而	-10.8544
永無	-10.8547
詔曰	-10.8547
達者	-10.8548
爲己	-10.8552
乃能	-10.8554
事有	-10.8558
太師	-10.8561
成敗	-10.8562
在扵	-10.8562
傳之	-10.8563
經中	-10.8565
燒香	-10.8566
執之	-10.8571
志心皈命禮德配乾坤九天金闕	-10.8584
侍中	-10.8589
千歲	-10.859
豈其	-10.859
不解	-10.8591
最大	-10.8593
愛人	-10.8593
百靈	-10.8594
重之	-10.8596
宣王	-10.8599
不反	-10.8601
經史	-10.8608
分野	-10.8608
四面	-10.8608
于上	-10.8609
十二宫	-10.861
直星	-10.8611
依然	-10.8611
如有	-10.8612
其分	-10.8613
刺史	-10.8614
神也	-10.8615
爲臣	-10.8615
天風	-10.8615
之府	-10.862
有神	-10.8625
東岳	-10.8634
成公	-10.8635
者邪	-10.8641
經籙	-10.8642
爲首	-10.8642
易之	-10.8644
此亦	-10.8645
凡事	-10.8651
禮記	-10.8653
流傳	-10.8653
仙道	-10.8658
世傳	-10.866
性分	-10.866
不克	-10.8661
遠而	-10.8673
明皇	-10.8676
長而	-10.8676
不盈	-10.8689
難得	-10.8692
附録	-10.8693
楚之	-10.8705
不雨	-10.871
爲人所	-10.871
萬一	-10.8712
太歲	-10.8713
悟道	-10.8714
日是	-10.8719
有人	-10.872
入門	-10.8724
中宫	-10.8727
亦未	-10.8727
元陽	-10.8733
不能以	-10.8734
征凶	-10.8738
聞見	-10.8742
遣人	-10.8742
雷雨	-10.8747
頌曰	-10.875
有成	-10.8752
司天	-10.8756
爲名	-10.8757
功行	-10.8764
而後有	-10.8764
吾今	-10.8765
有待	-10.877
一家	-10.8773
録曰自	-10.8774
隂柔	-10.878
有罪	-10.8783
一家之	-10.8787
野人	-10.879
珠玉	-10.8794
保命	-10.8799
曰先生	-10.88
得人	-10.8801
一聲	-10.8801
爲吾	-10.8806
意也	-10.8807
不遂	-10.8811
世有	-10.8813
迅	-10.8814
夫何	-10.8817
柰	-10.8819
故稱	-10.8822
故知	-10.8825
冠服	-10.8825
一室	-10.8825
者所以	-10.8826
府君	-10.8826
于是	-10.883
不竭	-10.883
龍神	-10.8832
千餘	-10.8833
如日月	-10.8833
孫子	-10.8837
三寸	-10.8839
生平	-10.8841
無註离	-10.8842
摘	-10.8849
簇	-10.8849
鴟	-10.8852
変	-10.8852
乾上	-10.8853
拳	-10.8854
耆	-10.8855
能以	-10.8855
無註噬嗑	-10.8855
娣	-10.8856
坑	-10.8856
譛	-10.8856
之責	-10.8857
蔚	-10.8857
庥	-10.8859
見聞	-10.8859
夫豈	-10.8859
翌日	-10.886
委蛇	-10.886
枚	-10.8861
怯	-10.8861
陂	-10.8861
汴	-10.8861
虎豹	-10.8861
俸	-10.8862
猪	-10.8862
馴	-10.8863
捍	-10.8863
雛	-10.8863
隻	-10.8863
挑	-10.8863
無註姤	-10.8863
不聽	-10.8863
丗	-10.8864
牖	-10.8864
蒿里	-10.8864
殫	-10.8864
王畿曰	-10.8865
阪	-10.8865
化也	-10.8865
氐	-10.8866
宮	-10.8866
裒	-10.8866
贍	-10.8867
狙	-10.8867
娘	-10.8867
隕	-10.8868
戊申	-10.8868
評	-10.8869
禾刀	-10.8869
丹砂	-10.887
無註困	-10.887
無註履	-10.887
粤	-10.887
聆	-10.8871
枯槁	-10.8871
瞰	-10.8871
熙寧	-10.8871
廣成子	-10.8871
觧見前	-10.8872
虎狼	-10.8872
坡	-10.8873
無註訟	-10.8873
柩	-10.8873
至心皈命禮	-10.8873
沴	-10.8873
沮	-10.8873
仲淹	-10.8873
巓	-10.8874
喉	-10.8874
無註漸	-10.8875
隊	-10.8875
奄	-10.8875
藜	-10.8875
姊	-10.8876
版	-10.8878
款	-10.8878
丙寅	-10.8878
星名	-10.8879
后稷	-10.8879
叩齒	-10.888
褐	-10.888
泰安州	-10.888
無註蒙	-10.8881
表裏	-10.8882
懴	-10.8882
暖	-10.8882
有時	-10.8883
石磴	-10.8884
年月日時	-10.8884
疾厄	-10.8884
無註益	-10.8884
各以	-10.8885
瓢	-10.8889
捫	-10.8892
陳蔡	-10.8892
癸未	-10.8896
蛟龍	-10.8897
日光	-10.8898
天下之大	-10.8898
教人	-10.8899
神異	-10.8899
尚可	-10.89
封泰山	-10.89
吉㐫	-10.8901
沛公	-10.8901
莫敢	-10.8901
吕氏	-10.8903
便獲	-10.8906
風波	-10.8908
妖星	-10.8909
靈芝	-10.891
無足	-10.8911
妙有	-10.8911
流水	-10.8912
莊周	-10.8913
皇王	-10.8915
昔有	-10.8917
微妙	-10.8918
是用	-10.8922
眞仙	-10.8924
化形	-10.8924
聖帝	-10.8926
英宗	-10.8927
皆在	-10.8927
天曹	-10.8931
五章	-10.8934
本於	-10.8935
穆公	-10.8939
下同	-10.8946
遣吾	-10.8946
此地	-10.895
夜光	-10.8954
九炁	-10.8955
生我	-10.8958
損益	-10.8965
太隂	-10.8967
吕公	-10.8968
於彼	-10.8973
也若夫	-10.8974
凡所	-10.8974
而嘆	-10.8978
星宿	-10.8979
君親	-10.8982
雖以	-10.8982
歸根	-10.8989
安知	-10.8991
一切諸	-10.8993
出奔	-10.8993
元亨	-10.8994
吾將	-10.8996
已上	-10.9001
其門	-10.9008
不悅	-10.9009
四季	-10.901
於魯	-10.9012
玄武	-10.9016
老聃曰	-10.9017
奏告	-10.9021
福壽	-10.9025
皆當	-10.9025
可比	-10.9026
清虛	-10.9032
巳亥	-10.9033
太初	-10.9033
水上	-10.9038
到此	-10.904
爲哉	-10.904
天真	-10.9042
日暮	-10.9049
江水	-10.9053
既有	-10.9055
風流	-10.9059
江王	-10.9059
立春	-10.9067
可知矣	-10.9068
相合	-10.9069
南行	-10.907
賢而	-10.9075
王氏	-10.9076
受持	-10.9077
二章	-10.9078
有終	-10.9078
無象	-10.9094
而今	-10.9095
艮上	-10.9095
今人	-10.9096
爲學	-10.9097
一一	-10.91
和平	-10.9103
二世	-10.9105
不毁	-10.9107
然亦	-10.9107
安在	-10.9108
崇奉	-10.911
夜月	-10.9111
列聖	-10.9112
無所得	-10.9113
疾苦	-10.9117
此書	-10.9118
已矣	-10.9119
冠帶	-10.912
魔王	-10.9121
但知	-10.9122
焉其	-10.9125
以前	-10.913
釋之	-10.9135
景帝	-10.9136
青雲	-10.9136
善行	-10.9136
水泉	-10.9139
以仁義	-10.9141
之灾	-10.9141
法會	-10.9142
士也	-10.9143
諸衆生	-10.9144
也然而	-10.9146
尚賢	-10.9147
處士	-10.9149
相承	-10.915
起於	-10.915
五子	-10.915
符命	-10.9151
仁也	-10.9152
俱有	-10.9155
爲宗	-10.9156
于道	-10.9157
正氣	-10.9158
不辭	-10.9159
自安	-10.9159
以及	-10.9161
禄山	-10.9165
記曰	-10.9171
福建	-10.9177
義理	-10.9184
至順	-10.9186
終無	-10.9187
無生	-10.919
于時	-10.9191
物則	-10.92
之儀	-10.92
天下之至	-10.9202
所學	-10.9204
安然	-10.9206
夏至	-10.9207
是知	-10.9207
道理	-10.921
子儀	-10.9211
夫道	-10.9217
一世	-10.9225
六道	-10.923
何患	-10.9231
無定	-10.9235
遊乎	-10.9237
來者	-10.9239
中和	-10.9241
猶存	-10.9247
方位	-10.9247
將來	-10.9247
立而	-10.9255
心生	-10.9255
若乃	-10.9255
天生	-10.9257
之秘	-10.926
水帝大龍王	-10.9261
魔鬼	-10.9265
然猶	-10.9266
於斯	-10.9268
小人之	-10.9269
不假	-10.9269
不貴	-10.9271
誰敢	-10.9273
難爲	-10.9276
天君	-10.9276
非眞	-10.9277
不滅	-10.9279
天尊言	-10.9279
者歟	-10.9279
道本	-10.9281
宣化扶教上仙昭靈博濟高明弘靜冲湛	-10.9287
死也	-10.9289
有加	-10.929
安坐	-10.9293
處處	-10.9293
爾其	-10.9293
不就	-10.9294
本宫	-10.9298
元和	-10.9301
之異	-10.9301
時刻	-10.9303
既已	-10.9304
儼	-10.9307
三千大千	-10.9309
求福	-10.9312
上宫	-10.9313
禎	-10.9318
道則	-10.932
大驚	-10.9321
四日	-10.9322
遂爲	-10.9324
不遺	-10.9324
何能	-10.9327
譬	-10.933
二卷	-10.9331
之失	-10.9332
其體	-10.9332
皆然	-10.9332
福慶	-10.9334
天異	-10.9336
之弊	-10.9337
怡	-10.9341
九章	-10.9341
頴	-10.9347
脊	-10.9348
紏	-10.9349
爲用	-10.9349
鈆	-10.9351
於今	-10.9351
安世	-10.9352
一章	-10.9352
乂	-10.9353
竦	-10.9355
箱	-10.9356
治民	-10.9356
羈	-10.9356
隴	-10.9356
無光	-10.9358
搔	-10.9358
珎	-10.9358
矣遂	-10.9359
昬	-10.9359
萬萬	-10.9359
南斗下䧏	-10.936
課	-10.936
厠	-10.9361
虵	-10.9361
曽	-10.9362
旄	-10.9363
佈	-10.9363
大夫松	-10.9363
扉	-10.9364
緣	-10.9364
模	-10.9364
虺	-10.9364
㓙	-10.9364
棠	-10.9364
隗	-10.9364
算	-10.9364
乱	-10.9364
妓	-10.9365
叱	-10.9365
侃	-10.9365
迥	-10.9365
郁	-10.9365
者謂之	-10.9366
鴉	-10.9366
姧	-10.9366
怙	-10.9366
蠶	-10.9366
甸	-10.9366
甘棠	-10.9366
掖	-10.9367
漕	-10.9367
皂	-10.9367
耽	-10.9368
僕射	-10.9368
蒞	-10.9368
刹	-10.9369
挽	-10.9369
箭	-10.937
盂	-10.937
嫁娶	-10.937
是眞	-10.937
繕	-10.937
者莫不	-10.9371
髯	-10.9371
紺	-10.9371
軒轅	-10.9371
潦	-10.9371
壬辰	-10.9371
樽	-10.9371
猜	-10.9371
慷慨	-10.9372
絃	-10.9372
彘	-10.9372
弓矢	-10.9373
曙	-10.9373
堆	-10.9373
癸丑	-10.9373
寘	-10.9374
闈	-10.9374
慟	-10.9375
丙戌	-10.9375
汨	-10.9375
藁	-10.9375
優游	-10.9376
無註豫	-10.9376
鳧	-10.9377
閽	-10.9377
桎梏	-10.9377
眷屬	-10.9378
崎嶇	-10.9379
湫	-10.9379
秪	-10.9379
弧	-10.938
簪	-10.938
皇太后	-10.938
徽號	-10.9381
彭祖	-10.9382
薩	-10.9382
之端	-10.9383
非無	-10.9384
舄	-10.9384
衫	-10.9385
孺子	-10.9386
信也	-10.9387
利涉大川	-10.9387
玉女池	-10.9389
氏女	-10.9389
或星	-10.939
叔孫	-10.9392
清濁	-10.9393
二十七日	-10.9393
紫霄	-10.9394
而不知其	-10.9397
玉檢	-10.9397
聶	-10.9397
雨露	-10.9397
大丈夫	-10.9399
老莊	-10.94
天刑	-10.9401
次第	-10.9403
壬子	-10.9407
無註觀	-10.9409
一隂	-10.9409
三代之	-10.9409
經書	-10.941
太微	-10.941
五穀	-10.9411
唯有	-10.9412
長沙	-10.9413
情也	-10.9413
王弼	-10.9415
南京	-10.9415
州縣	-10.9417
太原	-10.9421
此義	-10.9426
其理	-10.9427
先人	-10.9429
占身	-10.9429
多有	-10.9431
諸玉女	-10.9432
千秋	-10.9434
道中	-10.9434
不避	-10.9435
及至	-10.9436
其子孫	-10.9436
釋氏	-10.9438
其㫖	-10.9439
子丑	-10.944
親睦	-10.9441
其根	-10.9451
者自	-10.9453
之交	-10.9457
勑命	-10.9457
㐫星	-10.9459
也乃	-10.9463
卿士	-10.9466
今日之	-10.9479
邪魔	-10.948
天蓬	-10.9482
矣雖	-10.9483
古本下	-10.9487
濟南	-10.9489
司空	-10.9498
凶惡	-10.9498
政和	-10.9498
修真	-10.9502
之光	-10.9502
時時	-10.9504
耳若	-10.9505
絶學	-10.9505
念念	-10.9506
身體	-10.9508
律令	-10.9514
七祖	-10.9514
終焉	-10.9515
諸佛	-10.9515
超然	-10.9516
玄冥	-10.9518
告之	-10.9522
所感	-10.9524
祭之	-10.9524
孝宗	-10.9529
周室	-10.953
四維	-10.953
復何	-10.9532
之南	-10.9534
威德	-10.9536
不常	-10.9536
未定	-10.9538
者當	-10.954
陽剛	-10.954
行限	-10.9544
法身	-10.9545
六日	-10.9546
生萬物	-10.9546
遣官	-10.9548
五雲	-10.9549
違者	-10.9556
普濟	-10.9557
召之	-10.9559
中間	-10.956
一女	-10.956
高强	-10.956
其勢	-10.9561
出處	-10.9561
君曰	-10.9565
兮何	-10.9566
者以其	-10.9571
丹書	-10.9571
即有	-10.9571
靈符	-10.9571
其臣	-10.958
衣裳	-10.958
以聞	-10.9581
功業	-10.9581
大悅	-10.9583
道術	-10.9585
流年	-10.9591
通天	-10.9594
斷其	-10.9595
二十一	-10.9595
之由	-10.9597
勿用	-10.9597
地方	-10.9601
物之所	-10.9602
雲雨	-10.9605
幽明	-10.9606
非禮	-10.9607
爲道	-10.9613
我獨	-10.962
乃有	-10.9621
重修	-10.9623
爲鬼	-10.9634
吴王	-10.9635
年八十	-10.9638
不服	-10.9638
之咎	-10.9641
有事於	-10.9641
初五	-10.9644
惠王	-10.965
以俟	-10.9652
嗟乎	-10.9656
萬化	-10.9657
乃得	-10.9658
人專	-10.9659
爲身	-10.9663
無欲	-10.9665
並作	-10.9669
三方	-10.9673
也帝	-10.9674
遂至	-10.9674
一片	-10.9675
主事	-10.968
又非	-10.968
郷人	-10.9685
人之心	-10.9688
日月之	-10.9688
龍門	-10.9696
之時也	-10.97
不察	-10.9701
賴以	-10.9703
可使	-10.9704
錦衣	-10.9706
昭明	-10.9709
是何	-10.971
道衆	-10.9713
必不	-10.9723
物無	-10.9727
修身	-10.9729
之請	-10.9731
曰公	-10.9734
遇之	-10.9737
四衆	-10.9738
所稱	-10.9743
道化	-10.9749
于世	-10.9755
有何	-10.9755
我來	-10.9762
王道	-10.9763
二隂	-10.9767
之女	-10.9768
人言	-10.9768
耶夫	-10.9774
十四年	-10.9776
天皇	-10.9776
火星	-10.9776
與汝	-10.9776
與道	-10.9782
因而	-10.9785
爲王	-10.9793
也蘇註	-10.9795
矣是故	-10.9798
夫以	-10.9798
不悟	-10.9801
十六年	-10.9803
爲功	-10.9806
變爲	-10.9807
諭祭	-10.9807
百千萬	-10.9808
洞中	-10.9809
盡心	-10.981
將相	-10.9815
期於	-10.9819
之氣諱	-10.9819
陜	-10.9819
之圖	-10.9821
其誰	-10.9824
古人之	-10.9825
孰知	-10.9829
必無	-10.9832
理宗	-10.9833
惟恐	-10.9835
今吾	-10.9836
粒	-10.9838
也九四	-10.9838
苐	-10.984
玄玄	-10.9844
彖	-10.9844
而遂	-10.9845
燥	-10.9847
観	-10.985
儉者	-10.985
有益	-10.9852
一分	-10.9853
其始也	-10.9854
天花	-10.9856
樂其	-10.9858
在己	-10.9858
之基	-10.9859
會稽	-10.9861
六章	-10.9864
下士	-10.9864
重玄	-10.9868
也孔子	-10.9868
寰	-10.987
蠢	-10.9876
惶	-10.9876
則亂	-10.9878
四字	-10.9878
東西南北	-10.988
幕	-10.9882
唾	-10.9883
遘	-10.9884
鳬	-10.9884
售	-10.9885
拍	-10.9885
孔雀明王	-10.9885
𩔗	-10.9885
兇	-10.9886
蜂	-10.9886
洋洋	-10.9887
槨	-10.9888
空洞	-10.9888
鋤	-10.9888
在岳之	-10.9889
舡	-10.9889
菑	-10.9889
疫	-10.9889
遂得	-10.989
一粒	-10.989
彤	-10.989
䑕	-10.989
夔	-10.9891
閎	-10.9892
之所能	-10.9892
葱	-10.9892
弁	-10.9892
籌	-10.9892
㓗	-10.9892
睿	-10.9893
斑	-10.9893
銓	-10.9893
彖曰天	-10.9893
煞貢	-10.9894
騐	-10.9894
粮	-10.9895
陰隲	-10.9895
侔	-10.9895
裡	-10.9895
無註之乾	-10.9895
徇	-10.9895
沉淪	-10.9896
騷	-10.9896
鶉	-10.9896
濠	-10.9897
瑜	-10.9897
指揮	-10.9898
悍	-10.9898
瞿	-10.9898
牢獄	-10.9898
蜩	-10.9899
溟	-10.9899
德行	-10.9899
逕	-10.9899
戊寅	-10.9899
窗	-10.99
丙申	-10.99
磚	-10.99
賜宴	-10.9901
何妨	-10.9901
琉璃	-10.9902
扃	-10.9903
諦	-10.9904
及於	-10.9904
晨昏	-10.9905
炙	-10.9906
袴	-10.9907
拊	-10.9907
涕泣	-10.9907
滂	-10.9907
黄籙	-10.9907
榆	-10.9908
聿	-10.9908
丁酉	-10.9909
廟貌	-10.9911
庚寅	-10.9913
裙	-10.9914
無徃而不	-10.9916
發明	-10.9921
之别	-10.9921
知府	-10.9922
其利	-10.9922
萬邦	-10.9923
自當	-10.9923
誅之	-10.9923
懿夫人	-10.9924
顔回	-10.9925
金鰲	-10.9926
消災	-10.9929
此非	-10.9929
四十里	-10.9929
忠厚	-10.9931
意者	-10.9932
殿宇	-10.9932
司馬光	-10.9935
此則反	-10.9937
家門	-10.9937
平等	-10.9937
吾心	-10.9942
士之	-10.9944
必爲	-10.9944
卜木	-10.9944
不惑	-10.9946
迄今	-10.9951
孔門	-10.9952
黄庭	-10.9953
大哉	-10.9953
根源	-10.9954
乎郭註	-10.9955
清㣲	-10.9955
若遇	-10.9958
諸侯之	-10.9959
七十二君	-10.996
不多	-10.9961
方士	-10.9961
韓信	-10.9961
曰予	-10.9962
如一	-10.9962
人在	-10.9964
圓光	-10.9965
八字	-10.9966
未生	-10.9968
之愛	-10.997
太上皇	-10.9971
亦知	-10.9976
端坐	-10.9977
思慮	-10.9979
超度	-10.998
人世	-10.9981
救度	-10.9988
吉慶	-10.9991
建武	-10.9993
日觀峯	-10.9993
也不知	-10.9993
于五	-10.9994
爾時元始天尊	-10.9996
三尸	-10.9997
在身	-10.9999
靜而	-11.0001
金碧	-11.0001
之緒	-11.0001
自得也	-11.0002
額曰	-11.0006
疑其	-11.0007
何也蓋	-11.0008
皇明	-11.0009
者惟	-11.0009
不經	-11.0009
不輕	-11.001
寳蓋	-11.001
謝過	-11.0014
也余	-11.0015
爲心	-11.0016
雲臺	-11.0017
萬乘	-11.0019
隨其	-11.0023
大洞	-11.0028
東向	-11.0029
渡江	-11.003
之累	-11.0031
無盡	-11.0031
教授	-11.0032
事無	-11.0032
師友	-11.0039
人謂	-11.0042
興亡	-11.0043
遺之	-11.0046
公私	-11.0048
靡不	-11.0054
之事也	-11.0055
以利	-11.0056
其迹	-11.0056
皆由	-11.006
之精思之還反真形修行	-11.0061
尊經	-11.0065
乾元	-11.0065
不願	-11.0068
之祥	-11.0069
而无	-11.007
卒以	-11.0072
浙	-11.0085
天人之	-11.0087
矣録之	-11.0087
也録曰愚觀	-11.009
此理	-11.009
漢唐	-11.0091
苟有	-11.0091
爲樂	-11.0091
至公	-11.0092
其源	-11.0095
柔弱	-11.0096
感動	-11.0097
係於	-11.0097
獲福	-11.0098
召公	-11.0101
曰不然	-11.0103
更相	-11.0108
有道人	-11.0108
于人	-11.0108
秦之	-11.0109
語曰	-11.0109
九祖	-11.0112
人性	-11.0112
伯仲	-11.0114
秋分	-11.0117
國人	-11.0117
為之	-11.012
相遇	-11.012
未足以	-11.012
變也	-11.0123
自足	-11.0126
以觀	-11.0128
一覽	-11.013
之亂	-11.0131
或在	-11.0133
無聞	-11.0134
作事	-11.0134
洪恩眞君	-11.0139
惟願	-11.014
人惟	-11.0144
四十八	-11.0147
朱子	-11.0148
之愈	-11.0149
之路	-11.0151
至正	-11.0153
傍人	-11.0154
正應	-11.0154
道傍	-11.0156
帝號	-11.0156
成名	-11.0157
子丹	-11.016
平王	-11.0161
無際	-11.0164
山上	-11.0166
化成	-11.0166
正性	-11.0168
聖位	-11.0171
吾之	-11.0174
欲使	-11.0177
或爲	-11.0183
極其	-11.0183
天貴	-11.0185
去聲	-11.0187
與衆	-11.0192
歎曰	-11.0192
其視	-11.0193
勞心	-11.0197
奉祀	-11.0198
無鞅	-11.02
少陽	-11.0201
爲文	-11.0202
天時	-11.0202
以備	-11.0209
數千	-11.021
右手	-11.021
又問	-11.0212
守臣	-11.0213
於民	-11.0215
吾夫子	-11.022
復爲	-11.0222
上相	-11.0224
而亡	-11.0228
也盖	-11.0232
今以	-11.0233
八章	-11.0233
十八年	-11.0235
安定	-11.0237
失利	-11.0238
嬖	-11.0244
之運	-11.0252
世忠	-11.0253
加臨	-11.0253
不爽	-11.0256
哉今	-11.0261
何况	-11.0264
三三	-11.0269
曾是	-11.0272
迎之	-11.0273
民物	-11.0277
列於	-11.0278
邪正	-11.0282
本是	-11.0283
心意	-11.0288
九五之	-11.0288
蒙恩	-11.0289
其詞	-11.0292
張氏	-11.0301
次之	-11.0304
本自	-11.0305
諸公	-11.0305
以無爲	-11.0307
吾所	-11.0308
明德	-11.0309
宗祖	-11.031
務在	-11.0314
子爲	-11.0314
之西	-11.0315
故君子	-11.0317
去就	-11.0319
過此	-11.0319
祖廟	-11.0326
所受	-11.0329
生神	-11.0333
世祖	-11.0336
未爲	-11.0338
丹成	-11.0339
别有	-11.0343
子夏	-11.0349
以金	-11.0349
自相	-11.0353
金仙	-11.036
二十九	-11.036
臣某	-11.0363
世俗之	-11.0365
將吏	-11.0366
聖明	-11.0366
莫非	-11.0369
不恤	-11.0372
之東	-11.0373
無求	-11.0375
且夫	-11.0376
使君	-11.0376
生長	-11.0382
有五	-11.0385
南向	-11.0386
則與	-11.0387
天空	-11.0389
十數	-11.0389
之役	-11.0391
氣運	-11.0399
歲時	-11.0402
徃也	-11.0404
不害	-11.0406
金水	-11.0407
之祖	-11.0411
願得	-11.0415
形勝	-11.0415
鞅	-11.0416
不可窮	-11.0419
籟	-11.0419
牌	-11.0424
日諸神在天	-11.0425
牟	-11.0426
降生	-11.0428
日用	-11.0429
之利	-11.0433
等皆	-11.0433
伏念某	-11.0433
聞之曰	-11.0435
則可	-11.0436
鉗	-11.0436
爲治	-11.0436
嗇	-11.0436
致仕	-11.0437
鐡	-11.0437
島	-11.0438
拇	-11.044
熏	-11.0441
民間	-11.0441
𣇄	-11.0441
施行	-11.0442
昊天上帝	-11.0442
陵人	-11.0442
粥	-11.0442
錬度	-11.0443
覬	-11.0443
𦔳	-11.0443
煙霞	-11.0443
鉉	-11.0444
誡	-11.0444
緊	-11.0444
與帝同	-11.0445
讐	-11.0446
蚊	-11.0446
抛	-11.0446
寛	-11.0446
餒	-11.0446
尼	-11.0447
汚	-11.0447
蘂	-11.0447
訾	-11.0447
濱	-11.0448
墉	-11.0448
逋	-11.0448
金龍	-11.0448
羹	-11.0448
衿	-11.0448
庖	-11.0448
藤	-11.0448
閃	-11.0449
蘆	-11.0449
拆	-11.0449
販	-11.0449
姒	-11.0449
徂	-11.0449
酆	-11.045
歉	-11.045
湮	-11.0451
窘	-11.0451
灘	-11.0451
拓	-11.0452
圯	-11.0453
篡	-11.0453
燁	-11.0453
踪跡	-11.0453
稽首皈依	-11.0453
尭	-11.0453
眸	-11.0453
艷	-11.0453
壙	-11.0454
鑰	-11.0454
葺	-11.0454
大作	-11.0454
不喜	-11.0454
狡	-11.0455
袋	-11.0455
嫉	-11.0455
形骸	-11.0456
鬢	-11.0456
刮	-11.0456
雞鳴	-11.0456
寂寂	-11.0456
肌	-11.0457
水簾洞	-11.0457
灑	-11.0458
翹	-11.0458
禧	-11.0458
蓬瀛	-11.0458
莫大於	-11.0458
延夀	-11.0458
潘	-11.0458
刁	-11.0459
清微天	-11.0459
鳥獸	-11.0459
覔	-11.0459
睨	-11.046
禆	-11.046
堤	-11.046
搜	-11.046
無上尊	-11.0461
廖	-11.0461
閉塞	-11.0461
實爲	-11.0461
充滿	-11.0462
状	-11.0462
褥	-11.0463
獨能	-11.0464
營營	-11.0464
化育	-11.0465
今年	-11.0465
輕慢	-11.0465
林甫	-11.0466
餅	-11.0466
獲麟	-11.0466
萬歲	-11.0467
洛書	-11.0467
蔣	-11.0468
法筵	-11.0468
蹲	-11.0468
飮酒	-11.0468
襄陽	-11.047
子房	-11.047
欵	-11.047
攖	-11.0472
則無以	-11.0473
醴泉	-11.0473
伯温	-11.0473
刼衣食自然其中亦有男女身長二十	-11.0474
日益	-11.0475
無註隨	-11.0475
記畧	-11.0475
童蒙	-11.0477
甘雨	-11.0478
無忝	-11.0478
孝友	-11.0479
止而	-11.048
容貌	-11.0482
輪轉	-11.0483
凌空	-11.0484
明君	-11.0486
隴西李叔義	-11.0487
宋眞宗	-11.0487
無註節	-11.0487
伯夷	-11.0488
妖邪	-11.0488
通鑑	-11.0488
春三月	-11.0489
无悔	-11.049
方來	-11.049
淺深	-11.0492
必主	-11.0493
晋侯	-11.0495
其民	-11.0495
莫量	-11.0496
印壽	-11.0496
興隆	-11.0496
代張	-11.05
度厄	-11.0501
篤信	-11.0501
曾孫	-11.0502
子息	-11.0502
苦惱	-11.0508
財禄	-11.051
玄科	-11.0512
亡魂	-11.0513
而用之	-11.0513
天光	-11.0514
自漢	-11.0516
其職也	-11.0517
人多	-11.0518
治道	-11.0521
道成	-11.0524
可知也	-11.0528
以從	-11.0533
何異	-11.0538
大師	-11.0543
丹青	-11.0544
若然者	-11.0544
穆王	-11.0545
歸去	-11.0546
傷人	-11.0546
濟世	-11.0551
八九	-11.0553
縣令	-11.0554
雖異	-11.0556
如雲	-11.056
不亂	-11.0561
一般	-11.0562
者唯	-11.0564
者固	-11.0564
洪水	-11.0566
坐忘	-11.0566
長大	-11.0566
之奥	-11.0573
蓋以	-11.0573
初爲	-11.0574
未足	-11.0575
帝命	-11.0575
欽哉	-11.0578
金童	-11.0581
紫陽	-11.0585
次序	-11.0587
不可言	-11.059
無所用	-11.0594
吾當	-11.0595
異而	-11.0596
於天地	-11.0597
龍首	-11.0601
異者	-11.0601
而求之	-11.0601
繼之以	-11.0602
簡易	-11.0602
天之道	-11.0603
大神通	-11.0603
在地	-11.0604
願聞	-11.0606
萬刼	-11.0607
衆等	-11.0609
物者	-11.0614
矣若	-11.0614
而强	-11.0616
也世	-11.0619
光輝	-11.0621
仰觀	-11.0623
可大	-11.0624
慈光	-11.0627
荆州	-11.0627
出走	-11.0628
也孔子曰	-11.063
以興	-11.063
護持	-11.063
竟不	-11.0631
者莫如	-11.0633
三二	-11.0634
血氣	-11.0635
稱其	-11.0637
固辭	-11.0639
稱之	-11.064
于外	-11.0641
應感	-11.0643
閩人	-11.0644
年少	-11.0653
玄黄	-11.0655
景福	-11.0656
志心皈命禮威震雷霆九天玉闕	-11.066
果報	-11.0664
扵天	-11.0667
此眞經	-11.0669
華盖	-11.0669
太古	-11.0671
明王	-11.0673
子亦	-11.0673
思其	-11.0678
龜山	-11.0678
不可復	-11.0679
侍御	-11.068
於東	-11.068
吉日	-11.0684
非特	-11.0685
三品	-11.0689
何疑	-11.0695
者主	-11.0695
善果	-11.0702
得位	-11.0702
宣公	-11.0702
役使	-11.0704
王王	-11.0705
爲天	-11.0708
常行	-11.0709
則反	-11.0712
居上	-11.0713
河北	-11.0713
寄之	-11.0714
者可	-11.0714
斗中	-11.0715
白玉	-11.0718
眞一	-11.0718
無益於	-11.072
豈得	-11.072
雖未	-11.072
生物	-11.0721
對曰臣	-11.0723
矣何	-11.0723
爲重	-11.0724
天與	-11.0727
同異	-11.073
朕惟	-11.0735
不修	-11.0742
無物	-11.0743
前代	-11.0743
相爲	-11.0745
及此	-11.0749
西東	-11.0749
默然	-11.0752
之易	-11.0753
豈徒	-11.0754
顯靈	-11.0756
國公	-11.0757
四顧	-11.0758
生焉	-11.0758
天地之間	-11.0759
妙經	-11.076
三世	-11.0762
秦觀	-11.0767
夫子曰	-11.077
俄而	-11.0771
此又	-11.0773
陰德	-11.0773
不交	-11.0775
元始天尊說	-11.0775
五藏	-11.0776
哉其	-11.0778
之徳	-11.0778
喜慶	-11.0788
大盜	-11.0794
專言	-11.0799
爲事	-11.08
天資	-11.08
祥光	-11.0801
焉曰	-11.0803
玄門	-11.0804
不聼	-11.0805
無過	-11.0805
不脩	-11.0808
十人	-11.081
大乘	-11.0814
二陽	-11.0815
相同	-11.0816
甚多	-11.0816
申酉	-11.0816
斯道	-11.0818
至孝	-11.0819
豈敢	-11.082
公主	-11.0826
則雖有	-11.0826
曰吾聞	-11.0832
將士	-11.0832
予曰	-11.0832
凝神	-11.0839
己未	-11.084
其制	-11.0841
也所以	-11.0844
無成	-11.0846
吾以	-11.0852
文德	-11.0855
亦當	-11.086
主者	-11.086
正德	-11.0862
傳云	-11.0862
也若乃	-11.0862
孰與	-11.0867
不居	-11.0867
賜號	-11.0876
不異	-11.0878
故耳	-11.0879
二十日	-11.088
玄光	-11.0881
自信	-11.0881
是日	-11.0882
仙籍	-11.0884
白龍	-11.0889
平日	-11.0892
有悔	-11.0896
利名	-11.0897
而不窮	-11.0902
胷中	-11.0905
盡矣	-11.0906
乎對曰	-11.0906
龍之	-11.0908
公侯	-11.0908
水星	-11.0909
方平	-11.0914
焉録曰	-11.0922
不可易	-11.0922
情而	-11.0922
金書	-11.0927
海水	-11.0927
源流	-11.0927
著於	-11.0928
乾道	-11.0931
身輕	-11.0931
憂心	-11.0932
國王	-11.0932
每月	-11.0945
之衆	-11.0945
無幾	-11.0945
子臧	-11.0945
隨物	-11.0946
扵民	-11.0947
誠有	-11.0956
善矣	-11.0956
利得	-11.0957
其盛	-11.0959
舉手	-11.0963
狀如	-11.0966
喪其	-11.0972
輟	-11.0975
妙用	-11.0978
金星	-11.0982
小民	-11.0993
正而	-11.0998
以仁	-11.0999
而坐	-11.1
外事	-11.1001
寨	-11.1002
忝	-11.1002
動之	-11.1002
一國	-11.1007
當位	-11.1011
戸	-11.1013
視其	-11.1015
窩	-11.1016
掘	-11.1018
烝	-11.1019
痴	-11.102
鬭	-11.1023
僖	-11.1024
不可以爲	-11.1025
骸	-11.1025
顓	-11.1025
恵	-11.1025
譙	-11.1025
朵	-11.1026
洪恩靈濟宫	-11.1026
龔	-11.1027
嶼	-11.1027
㢤	-11.1027
以知	-11.1028
匏	-11.1029
囑	-11.103
紛紜	-11.103
琳	-11.103
性也	-11.103
絆	-11.103
捌	-11.1031
彪	-11.1032
緘	-11.1032
又得	-11.1033
爍	-11.1033
譜	-11.1033
釜	-11.1033
無數	-11.1033
芮	-11.1033
蒼蒼	-11.1033
㨿	-11.1033
世之所	-11.1033
躓	-11.1034
錐	-11.1034
倖	-11.1034
撻	-11.1034
歐陽	-11.1035
朱雀	-11.1035
贖	-11.1035
五臟	-11.1035
羨	-11.1035
伯夷叔齊	-11.1036
塘	-11.1036
耦	-11.1036
弘道録卷之二十	-11.1036
粢盛	-11.1036
腋	-11.1037
瀝	-11.1037
鮑	-11.1037
阮	-11.1037
啄	-11.1038
餓鬼	-11.1039
毓	-11.1039
遨遊	-11.1039
瑕	-11.1039
詩小雅	-11.1039
玅	-11.104
監察御史	-11.104
辛亥	-11.104
舅姑	-11.104
詮	-11.104
夣	-11.1041
喘	-11.1041
滄溟	-11.1041
肩輿	-11.1041
廵狩	-11.1041
渺渺	-11.1041
也謂	-11.1042
䕶	-11.1042
飱	-11.1042
葦	-11.1042
嘔	-11.1042
苴	-11.1043
債	-11.1043
籤下下	-11.1043
塵寰	-11.1044
顓頊	-11.1045
琰	-11.1045
礪	-11.1045
畿	-11.1045
庫貫	-11.1046
甲戌	-11.1046
饌	-11.1046
眚	-11.1046
茗	-11.1046
庚辰	-11.1046
瑶池	-11.1047
司馬遷	-11.1047
𡖥	-11.1047
太上中道妙法蓮華經卷之	-11.1048
燄	-11.1048
庚戌	-11.1049
憊	-11.1049
霜降	-11.1049
愬	-11.1049
丙辰	-11.105
圮	-11.1051
冩	-11.1052
炊	-11.1054
國無	-11.1054
尼父	-11.1054
吒	-11.1055
寤	-11.1056
紅塵	-11.1056
飄風	-11.1057
安於	-11.1059
太宰	-11.1062
子丑寅	-11.1062
僉事	-11.1063
洪恩	-11.1063
三觀	-11.1063
社首	-11.1064
以取	-11.1065
王安石	-11.1065
維持	-11.1066
家國	-11.1067
遺跡	-11.1068
榮辱	-11.1069
資財	-11.107
次日	-11.107
角巳	-11.1071
吴越	-11.1072
斗牛	-11.1072
唎	-11.1074
權衡	-11.1078
東平	-11.1083
羽衣	-11.1085
惡死	-11.1087
季氏	-11.1087
羣臣	-11.1088
金籙	-11.1089
不可得也	-11.1092
天意	-11.1094
物外	-11.1095
二十三年	-11.1097
饒王	-11.1098
乃見	-11.1099
不輟	-11.1099
所著	-11.11
究其	-11.1101
于地	-11.1102
鰌	-11.1102
丹臺	-11.1102
龍吟	-11.1102
賈守	-11.1103
嘗曰	-11.1104
致祭	-11.1107
趙氏	-11.1107
回向	-11.1108
無惡	-11.1108
之首	-11.1108
傷我	-11.1109
養氣	-11.111
天姚	-11.1111
新羅	-11.1112
龍蛇	-11.1114
長乆	-11.1114
長樂	-11.1115
覆載	-11.1116
以孝	-11.1118
無註復	-11.1121
上清宫	-11.1124
冠衣	-11.1125
余曰	-11.1127
竟無	-11.1127
四正	-11.1128
瑞應	-11.1129
非若	-11.1129
寂然	-11.1133
無是非	-11.1134
見者	-11.1137
九品	-11.1139
漢武	-11.1139
國中	-11.1139
異端	-11.114
禮畢	-11.1142
傷害	-11.1143
此三	-11.1143
古之人	-11.1144
玄機	-11.1145
身爲	-11.1146
聞經	-11.1147
同宫	-11.1147
人之生也	-11.1148
其咎	-11.1151
之敬	-11.1152
柔順	-11.1154
立早	-11.1154
本作	-11.1164
必自	-11.1165
危亡	-11.1166
持經人	-11.1166
伐木	-11.1167
惜哉	-11.1168
不憂	-11.1175
全也	-11.1176
良因	-11.1179
莫知所	-11.1181
皆從	-11.1181
天印	-11.1183
上山	-11.1184
矣郭註	-11.1185
殺害	-11.1186
莫之能	-11.1188
道義	-11.1194
兩頭	-11.1196
己也	-11.1199
二君	-11.1199
欲得	-11.12
非爲	-11.1201
自少	-11.1202
常有	-11.1205
夜行	-11.1206
不染	-11.1207
爲灾	-11.1207
祝曰	-11.1208
第六	-11.1208
水池	-11.1209
動也	-11.121
聲音	-11.1211
顯應	-11.1216
天樞	-11.1217
明珠	-11.1218
天干	-11.122
同前	-11.1224
神祗	-11.1226
爲寳	-11.123
門下	-11.1235
二卦	-11.1235
誠信	-11.1235
主上	-11.1236
之瑞	-11.1238
清風	-11.1241
宣德	-11.1242
破家	-11.1244
則神	-11.1244
主旺	-11.1244
未達	-11.1246
誦之	-11.1247
晋之	-11.1247
相反	-11.1248
明鏡	-11.1253
無心而	-11.1255
人家	-11.1257
有理	-11.1259
而任之	-11.1259
何在	-11.1263
行事	-11.1264
不爲也	-11.1267
各各	-11.1269
嘗言	-11.127
莫教	-11.1272
朝服	-11.1275
除去	-11.1276
上聞	-11.1277
以存	-11.1278
多言	-11.1279
四時之	-11.1281
與時	-11.1283
為人	-11.1286
乃復	-11.1287
好色	-11.1289
至妙	-11.1293
一字	-11.1294
一夕	-11.1296
治國	-11.13
誠以	-11.1303
黄白	-11.1307
救人	-11.1309
離上	-11.1309
眞心	-11.1309
而不見	-11.1309
泣曰	-11.1317
自守	-11.1319
相尅	-11.1319
于下	-11.1322
齋醮	-11.1324
其徒	-11.1326
信而	-11.1326
小心	-11.1332
定位	-11.1332
本原	-11.1333
更生	-11.1335
吾所以	-11.134
十卷	-11.1344
飛行	-11.1351
亦云	-11.1355
魯國	-11.1358
猶在	-11.1359
之北	-11.1366
謂之曰	-11.1367
天際	-11.1368
則無所	-11.1368
我身	-11.1374
謝曰	-11.1374
便有	-11.1375
神像	-11.1379
六白	-11.1384
寧不	-11.1385
事畢	-11.1389
後代	-11.139
五人	-11.1395
文武之	-11.1396
果能	-11.14
天順	-11.1401
修齋	-11.1402
聖門	-11.1402
昂	-11.1405
出行	-11.1406
乃止	-11.1407
志心皈命禮德配乾坤	-11.1407
中人	-11.1408
其終	-11.1413
之勞	-11.1414
敬信	-11.1415
方圓	-11.1419
水土	-11.1422
朝禮	-11.1422
剛强	-11.1423
文正	-11.1423
發於	-11.1426
之望	-11.143
過於	-11.1432
五神	-11.1437
誰無	-11.1439
七十一	-11.1445
又言	-11.1446
君王	-11.1451
神兵	-11.1454
世道	-11.1454
也至於	-11.1455
則見	-11.1459
七章	-11.1459
仁孝	-11.1461
其處	-11.1477
在心	-11.1477
縱有	-11.148
碑本	-11.1481
秋月	-11.1484
命醮	-11.1484
以代	-11.1485
惟我	-11.1486
無傷	-11.1487
故雖	-11.1492
神通品	-11.1494
某人	-11.1494
五卷	-11.1496
不在於	-11.1503
凡夫	-11.1504
仙公	-11.1507
妄言	-11.1508
弘道録卷之三十	-11.1508
不致	-11.1509
永不	-11.1509
愚者	-11.1517
不休	-11.1522
爲難	-11.1525
之戒	-11.1525
乃大	-11.1525
動作	-11.1534
美也	-11.1535
士庶	-11.1537
苟能	-11.1537
能勝	-11.1539
乎且	-11.1541
中藏	-11.1542
呼曰	-11.1543
六百	-11.1547
可愛	-11.1547
矣聖人	-11.1548
季子	-11.1551
又奚	-11.1552
而逝	-11.1554
已久	-11.1555
凡此	-11.1555
邑人	-11.1557
諸眞	-11.1557
于前	-11.156
中山	-11.156
尺許	-11.156
之所在	-11.1562
復出	-11.1563
復位	-11.1567
未發	-11.1569
反以	-11.1569
罪衆	-11.157
成仙	-11.1571
祖母	-11.1573
不壞	-11.1573
要知	-11.1574
大雨	-11.1575
祠之	-11.1577
千二百	-11.158
决之	-11.158
心心	-11.1585
憾	-11.1588
惻	-11.1591
欲盡	-11.1591
小兒	-11.1595
失時	-11.1598
之盟	-11.1599
還山	-11.1601
者今	-11.1601
多方	-11.1601
金木	-11.1603
岳飛	-11.1604
正當	-11.1604
要之	-11.1606
爲眞	-11.1607
巳身	-11.1607
豈但	-11.161
物有	-11.1614
故物	-11.1616
胸	-11.1618
五百	-11.1618
神祠	-11.162
讀者	-11.1622
沼	-11.1627
責其	-11.1627
古文	-11.1632
所惡	-11.1633
深入	-11.1634
璽	-11.1635
重耳	-11.1636
旦夕	-11.1637
豈復	-11.1637
冬則	-11.1637
御前	-11.1638
昔在	-11.1638
臍	-11.164
即日	-11.164
熒惑	-11.1642
韓琦	-11.1643
何可	-11.1644
高大	-11.1644
亡國	-11.1644
揆	-11.1644
燃	-11.1644
熊過曰	-11.1645
蔓	-11.1646
笞	-11.1649
癘	-11.165
析	-11.165
葷	-11.165
疵	-11.1651
迸	-11.1652
泓	-11.1652
內	-11.1652
九靈	-11.1653
瑰	-11.1654
咒詛	-11.1654
魍魎	-11.1654
畦	-11.1654
菲	-11.1654
精氣	-11.1655
蛾	-11.1656
暘	-11.1656
荼	-11.1656
翰林學士	-11.1656
塟	-11.1657
萍	-11.1657
紆	-11.1658
譯	-11.1658
耄	-11.1658
撑	-11.1658
杏	-11.1658
如是而	-11.1658
青蠅	-11.1658
閤	-11.1659
娥	-11.1659
封號	-11.1659
所造	-11.1659
隳	-11.1659
袂	-11.1659
脂	-11.166
劣	-11.166
轅	-11.166
叠	-11.166
弛	-11.1661
紗	-11.1661
晶	-11.1661
瞽	-11.1661
阯	-11.1661
琴瑟	-11.1661
不亦宜乎	-11.1661
弋	-11.1661
劵	-11.1662
愕	-11.1662
忍辱	-11.1662
瞳	-11.1662
無註晉	-11.1662
遞	-11.1662
剔	-11.1662
圉	-11.1662
卜筮	-11.1662
𩲸	-11.1663
天府	-11.1663
驢	-11.1663
蠧	-11.1663
安國	-11.1664
衹	-11.1664
桀紂	-11.1664
案判官主管	-11.1664
神龍	-11.1664
笛	-11.1664
訊	-11.1666
澆	-11.1666
麻姑	-11.1666
堵	-11.1667
酸	-11.1667
撲	-11.1667
蠹	-11.1667
道塲	-11.1667
嫉妬	-11.1668
砌	-11.1668
籤大吉	-11.1668
痕	-11.1668
窆	-11.1668
廡	-11.1669
𣲖	-11.1669
迦	-11.167
〇	-11.167
刀圭	-11.1671
録曰夫所謂	-11.1671
行人未至	-11.1672
扈	-11.1673
宫闕	-11.1673
无不利	-11.1673
麽	-11.1673
磨崖碑	-11.1674
菩提	-11.1674
輪迴	-11.1675
菴	-11.1675
水簾	-11.1675
祈雨	-11.1675
按史記	-11.1676
媿	-11.1677
三十七	-11.1678
快活三	-11.1678
左旋	-11.1679
醢	-11.1679
森嚴	-11.168
祥符	-11.168
懸崖	-11.168
叩頭	-11.1681
靈濟眞人	-11.1681
倉卒	-11.1682
漱	-11.1682
吐納	-11.1683
康叔	-11.1683
欽崇	-11.1683
者宜	-11.1683
浩浩	-11.1683
貧窮	-11.1684
浮沉	-11.1684
玉晨	-11.1685
些	-11.1685
作詩	-11.1685
當今	-11.1685
天文志	-11.1687
更冀	-11.1688
孝皇	-11.1688
淵源	-11.169
此去	-11.1691
郡縣	-11.1691
一線	-11.1693
老父	-11.1693
異人	-11.1694
妖孽	-11.1695
盛時	-11.1696
圖像	-11.1697
豫章	-11.1697
樓臺	-11.1698
青黄	-11.1698
正言	-11.17
爲太子	-11.17
比干	-11.1701
又次	-11.1702
秋冬	-11.1704
刀兵	-11.1704
三宫	-11.1704
誰與	-11.1705
教以	-11.1706
維新	-11.1706
丑寅	-11.1707
方寸	-11.1708
等閑	-11.1708
交錯	-11.1709
愛民	-11.171
宿大天王	-11.1711
雲霞	-11.1711
乙未	-11.1712
爲士者	-11.1712
刑獄	-11.1717
存乎	-11.1717
迷惑	-11.1718
浩然	-11.1718
布施	-11.1718
萬姓	-11.1718
蒼龍	-11.172
循理	-11.1722
典刑	-11.1722
步虛	-11.1726
刼數	-11.1726
金帛	-11.1727
太嵗	-11.1727
前程	-11.1729
太甲	-11.1732
旬日	-11.1733
未甞	-11.1734
北辰	-11.1734
秦時	-11.1736
云爾	-11.1741
丁未	-11.1742
七寶	-11.1744
玉液	-11.1745
孝弟	-11.1745
聖祖	-11.1745
一念之	-11.1745
十五年	-11.1748
無比	-11.1748
山人	-11.1749
五福	-11.175
因是	-11.1751
者不以	-11.1752
遂使	-11.1752
如斯	-11.1755
南昌	-11.1755
大士	-11.1757
自然也	-11.1758
所以能	-11.1761
國君	-11.1763
亂我	-11.1764
兹特	-11.1765
玉簡	-11.1766
告文	-11.1766
乎蓋	-11.1766
三分	-11.1766
初非	-11.1768
有權	-11.1771
臣願	-11.1772
虛虛	-11.1774
王者之	-11.1777
慶父	-11.1778
宜乎	-11.1779
衆山	-11.1781
獨宿	-11.1782
列位	-11.1783
故榜	-11.1785
君子不	-11.1785
而不知其所	-11.1787
石刻	-11.1789
固不可	-11.179
雲烟	-11.179
三塗	-11.179
玄壇	-11.1795
之形	-11.1795
百代	-11.1795
不顯	-11.1796
大都	-11.1799
信哉	-11.1799
揚州	-11.1799
未悟	-11.1799
異類	-11.1801
故名	-11.1802
清虚	-11.1805
曰彼	-11.1806
物各	-11.181
扶持	-11.1811
非徒	-11.1811
愚人	-11.1811
一書	-11.1812
焉能	-11.1814
如之何	-11.1815
母曰	-11.1816
所說	-11.1821
鄕人	-11.1822
晋書	-11.1823
大矣	-11.1824
之微	-11.1828
不朽	-11.1831
見吾	-11.1832
愽士	-11.1832
和尚	-11.1833
生成之	-11.1834
靈臺	-11.1834
禮謝	-11.1835
千人	-11.1838
聞知	-11.1838
之裔	-11.184
無明	-11.184
出自	-11.1842
十有九	-11.1848
等衆	-11.1849
王母池	-11.1856
良善	-11.1861
我國家	-11.1863
不徃	-11.1869
語言	-11.1872
四十年	-11.1874
百家	-11.1878
洞真	-11.1889
聖號	-11.1889
端正	-11.189
居止	-11.1892
並起	-11.1894
中行	-11.1895
仰止	-11.1896
賜以	-11.1899
道言	-11.19
豈特	-11.19
所行	-11.1901
我者	-11.1901
直道	-11.1903
乃與	-11.191
有奇	-11.1913
成帝	-11.1914
杳冥	-11.1916
言於	-11.1917
一爻	-11.1918
太保	-11.1919
不加	-11.192
衆真	-11.192
用智	-11.1922
法言	-11.1923
也已	-11.1928
泰岳	-11.1931
斯爲	-11.1933
方得	-11.1936
爲正	-11.1936
既成	-11.1937
既無	-11.1937
不能及	-11.1937
于天下	-11.194
四人	-11.194
相迎	-11.1941
臣下	-11.1941
自號	-11.1942
無拘	-11.1946
生時	-11.1946
三爻	-11.1946
有徳	-11.1949
祥雲	-11.195
情性	-11.1951
永爲	-11.1953
之質	-11.1955
天中	-11.1957
昭然	-11.1957
周流	-11.1969
異香	-11.1972
二首	-11.1972
爲神	-11.1973
與世	-11.1975
既以	-11.1975
宋之	-11.1976
物而不	-11.1976
五斗	-11.1982
入道	-11.1984
八節	-11.1985
小國	-11.1988
也因	-11.1989
下詔	-11.1993
震下	-11.1996
所用之	-11.1996
若水	-11.1997
東土	-11.1998
不可知	-11.1999
下土	-11.2
尊貴	-11.2
諸經	-11.2002
咒曰	-11.2002
飛雲	-11.2003
尊神	-11.2006
設使	-11.2006
剛而	-11.201
殿下	-11.201
曰天	-11.201
家道	-11.2012
記之	-11.2017
不能知	-11.2018
亨也	-11.2019
五色雲	-11.202
年二月	-11.2024
向使	-11.2025
傷其	-11.2025
悲夫	-11.2026
乎是故	-11.2029
俱在	-11.2031
作禮	-11.2033
題曰	-11.2034
其禮	-11.2035
惟爾	-11.2036
曰王	-11.2043
職事	-11.2046
山神	-11.2047
天祥	-11.2047
王侯	-11.2048
此山	-11.2052
同郡	-11.2053
則曰	-11.2055
而使	-11.2059
祖宗之	-11.2062
立志	-11.2063
美惡	-11.2063
衆念	-11.2064
吾亦	-11.2066
有間	-11.2067
不學	-11.2068
大患	-11.2069
學道者	-11.2072
尊崇	-11.2073
浮生	-11.2074
聖主	-11.2074
置之	-11.2075
養其	-11.2075
之勇	-11.2075
後世之	-11.2075
道妙	-11.208
用此	-11.2082
録曰以	-11.2083
故又曰	-11.2084
登仙	-11.2089
止之	-11.2092
以教	-11.2093
君隨四時形影在上清	-11.2094
何日	-11.2095
一歲	-11.2095
我聞	-11.2096
一十五	-11.2096
今有	-11.2098
而喜	-11.2102
受其福	-11.2103
其學	-11.2107
爲何如	-11.2108
五氣	-11.2109
諸魔	-11.211
一統	-11.2111
焉夫	-11.2112
諸聖	-11.2114
者必有	-11.2116
益以	-11.2117
五黄	-11.2123
所傷	-11.2126
若驚	-11.2129
者二人	-11.2132
亦宜	-11.2136
宫殿	-11.2146
因心	-11.2148
正所謂	-11.2151
後學	-11.2153
徃矣	-11.2155
上問	-11.2157
當爲	-11.2157
救之	-11.2162
其眞	-11.2162
其精	-11.2168
世事	-11.217
象也	-11.2172
洞明	-11.2176
雲山	-11.2179
東都	-11.2181
以至扵	-11.2181
先帝之	-11.2182
也象曰	-11.2183
之會	-11.2184
俱徃	-11.2186
九六	-11.2188
而後知	-11.2188
乎吾	-11.2192
知名	-11.2193
喜事	-11.2201
之英	-11.2205
精誠	-11.2205
黔	-11.2205
儒家	-11.221
尚在	-11.2217
不知何	-11.222
無忌	-11.2224
隄防	-11.2224
吉人	-11.2224
受業	-11.2229
北面	-11.2232
得財	-11.2235
則已	-11.2236
此身	-11.2236
天眞	-11.2238
能言	-11.2239
黄帝之	-11.225
今古	-11.2251
固請	-11.2251
之行也	-11.2252
俱得	-11.2252
士民	-11.2256
仙樂	-11.2256
更無	-11.2257
奏曰	-11.2257
陳平	-11.2258
何也曰	-11.2259
好善	-11.2263
吾道	-11.2264
于後	-11.227
不知所以	-11.227
聞者	-11.2281
今則	-11.2282
瑋	-11.2283
非義	-11.2294
不期	-11.2294
拜禮	-11.2298
其外	-11.2298
之剛	-11.2299
二星	-11.2299
不分	-11.23
特以	-11.2303
屹	-11.2304
頂上	-11.2305
以避	-11.2306
忮	-11.2307
待時	-11.2307
天降	-11.2307
仲山甫	-11.2308
䖍	-11.2309
蟾	-11.2309
耳今	-11.2309
此之謂也	-11.2311
煖	-11.2311
媵	-11.2313
恰	-11.2313
母之	-11.2314
气	-11.2314
庻	-11.2315
瀛	-11.2315
躭	-11.2315
傭	-11.2315
將爲	-11.2316
犧	-11.2316
之不足	-11.2317
腓	-11.2317
鰥寡	-11.2318
熹	-11.2319
鵝	-11.2319
勁	-11.2319
璨	-11.232
嬀	-11.232
冽	-11.232
今子	-11.2321
蜿蜒	-11.2321
閏	-11.2321
顥	-11.2322
睢	-11.2322
蝦蟇	-11.2322
核	-11.2322
玷	-11.2322
讙	-11.2322
杼	-11.2323
犀	-11.2323
件	-11.2323
清白	-11.2323
天樞院	-11.2323
譎	-11.2323
泗	-11.2324
王輔嗣	-11.2324
街	-11.2325
峴	-11.2325
揣	-11.2325
肘	-11.2325
潢溪	-11.2325
廽	-11.2326
豚	-11.2326
葆	-11.2326
掉	-11.2327
屑	-11.2327
喫	-11.2327
緬	-11.2327
起居	-11.2327
一行法官	-11.2328
豁落	-11.2328
胞	-11.2328
鶴鳴	-11.2329
展轉	-11.2329
紋	-11.2329
右玉皇誥命以錫	-11.233
儻	-11.233
煦	-11.233
詞伏以	-11.233
寂寞	-11.233
穉	-11.233
㩀	-11.233
咏	-11.2331
餉	-11.2331
押	-11.2331
訥	-11.2331
馳騁	-11.2331
覈	-11.2331
雎	-11.2331
鴛	-11.2331
四牡	-11.2331
殛	-11.2331
盾	-11.2331
駁	-11.2332
碌碌	-11.2332
傅奕	-11.2332
則可以	-11.2332
脅	-11.2332
芻	-11.2332
冢	-11.2332
亶	-11.2333
弘道録卷之四十	-11.2333
北斗出逰	-11.2333
穹蒼	-11.2334
億兆	-11.2334
漲	-11.2334
逡巡	-11.2334
二氣	-11.2334
璘	-11.2334
巴	-11.2334
癸巳	-11.2334
篋	-11.2334
甥	-11.2335
論之	-11.2335
感慨	-11.2335
縫	-11.2335
弭	-11.2336
儒書	-11.2336
閨門	-11.2336
無厭	-11.2337
筴	-11.2337
侑	-11.2337
癸酉	-11.2338
無註遯	-11.2338
遺蹟	-11.2338
寂寥	-11.2339
丁巳	-11.2339
嚼	-11.2339
波濤	-11.2339
閫	-11.234
祈禳	-11.234
脢	-11.234
青霄	-11.234
綘	-11.234
超昇	-11.234
塚	-11.234
丁丑	-11.2342
漾	-11.2342
蹙	-11.2342
夭折	-11.2342
腫	-11.2342
而吾	-11.2343
磨崖	-11.2344
辟穀	-11.2344
專一	-11.2345
誑	-11.2345
玉宸	-11.2345
恭儉	-11.2346
朝覲	-11.2348
存神	-11.2348
流涕	-11.2348
禱雨	-11.2349
循環	-11.235
採藥	-11.235
也初	-11.235
宗社	-11.2352
月明	-11.2352
伏魔	-11.2355
齊人	-11.2355
者常	-11.2355
之悔	-11.2356
嚚	-11.2356
羽翼	-11.2357
杵臼	-11.2358
諸葛	-11.2359
人力	-11.2359
世傑	-11.236
即時	-11.236
道人曰	-11.236
鳴呼	-11.236
武昌	-11.2361
絶無	-11.2361
狂妄	-11.2361
飄飄	-11.2362
萬餘	-11.2363
無註解	-11.2364
尅害	-11.2364
玄範	-11.2364
諸品	-11.2364
頭戴	-11.2365
四十五	-11.2367
徃見	-11.2369
又何疑	-11.237
接引	-11.237
秀才	-11.2372
扵人	-11.2374
甲午	-11.2374
而就	-11.2376
多得	-11.2377
歷歷	-11.2377
作一	-11.2377
忠良	-11.2378
士卒	-11.2379
感格	-11.2379
玉樓	-11.2379
車駕	-11.238
秦碑	-11.2381
譬則	-11.2381
宗正	-11.2383
興旺	-11.2384
威權	-11.2386
不留	-11.2387
藏於	-11.2387
妙理	-11.2389
千五百	-11.2389
休息	-11.2392
週天	-11.2393
只因	-11.2394
徐氏	-11.2395
孝慈	-11.2395
元洞	-11.2395
峰頭	-11.2396
隨之	-11.2396
奉持	-11.2396
六丁	-11.2397
兵革	-11.2398
太史公	-11.24
襄王	-11.24
仁徳	-11.2402
巍然	-11.2403
陶朱	-11.2403
崇寧	-11.2404
隂人	-11.2404
加之以	-11.2405
油然	-11.2405
設施	-11.2406
以比	-11.2407
權勢	-11.2409
諸峯	-11.241
黄冠	-11.2411
若存	-11.2413
景泰	-11.2415
功滿	-11.2415
玉帶	-11.2416
金泥	-11.2417
事不成	-11.2418
居其	-11.2418
千百	-11.242
合於	-11.242
之間而	-11.2421
春夏	-11.2422
善則	-11.2423
文王之	-11.2425
信矣	-11.2427
擊之	-11.2427
姓字	-11.2428
安在其	-11.2429
唐之	-11.2432
典禮	-11.2432
己亥	-11.2434
少卿	-11.2436
永久	-11.2436
能守	-11.2437
十一日	-11.2438
運用	-11.244
含靈	-11.2442
不可測	-11.2443
貴也	-11.2443
皇天	-11.2445
視聽	-11.2447
瑞光	-11.2447
其前	-11.2449
論道	-11.2451
之貌	-11.2455
神女	-11.2455
所屬	-11.2457
大君	-11.2457
而視	-11.2459
祝文	-11.246
雷動	-11.2462
而易	-11.2463
若還	-11.2463
音聲	-11.2464
武功	-11.2465
神聖	-11.2466
掃除	-11.2466
大元帥	-11.2466
立功	-11.2467
流俗	-11.2469
向者	-11.2469
仙衆	-11.2473
不妨	-11.2478
越觀	-11.2479
相貌	-11.2482
知其爲	-11.2482
大旱	-11.2483
直指	-11.2484
願陛下	-11.2484
有窮	-11.2486
勒石	-11.2488
主管	-11.249
三洞	-11.2491
其書	-11.2492
秘文	-11.2492
通神	-11.2496
腹心	-11.2498
侍從	-11.2498
若干	-11.2498
其諸	-11.2498
四十二	-11.2502
如響	-11.2502
拱手	-11.2503
九紫	-11.2503
三十日	-11.2504
皆曰	-11.2505
至重	-11.2506
無以爲	-11.2511
斬之	-11.2512
西伯	-11.2513
氣和	-11.2513
東宫	-11.2514
大雅	-11.2515
玄德	-11.2515
人鬼	-11.2516
三途	-11.2518
相國	-11.2519
者是也	-11.2519
則不然	-11.2521
藥石	-11.2522
百餘年	-11.2525
縣人	-11.2525
目視	-11.2528
五大夫	-11.2529
寡言	-11.2531
録曰帝之	-11.2536
陳公	-11.2537
安可	-11.2537
去來	-11.254
尊號	-11.2542
如玉	-11.2543
五雷	-11.2543
相和	-11.255
玄同	-11.2553
敬之	-11.2553
六情	-11.2555
月會於	-11.2556
等事	-11.2558
猶可	-11.2559
乾封	-11.2559
老者	-11.2562
靈異	-11.2562
嘗聞	-11.2565
是以君子	-11.2569
畜生	-11.257
知天	-11.2571
投之	-11.2572
生氣	-11.2575
禍及	-11.258
或以爲	-11.258
也噫	-11.2581
一定之	-11.2583
自能	-11.2586
定天下	-11.2587
將帥	-11.2587
不免於	-11.2588
由於	-11.2588
爲凶	-11.259
惠公	-11.259
生意	-11.2591
面目	-11.2593
建功	-11.2594
生日	-11.2597
奚以	-11.2599
然若	-11.26
通靈	-11.2602
元元	-11.2603
作爲	-11.2603
爲先	-11.2608
于朝	-11.261
示之	-11.2612
奉道	-11.2618
豈可以	-11.2619
王季	-11.2622
以次	-11.2623
不備	-11.2633
貨財	-11.2636
家庭	-11.2638
臨身	-11.264
多難	-11.2641
而不言	-11.2641
性情	-11.2641
大慈悲	-11.2642
稱意	-11.2643
人以爲	-11.2643
辭去	-11.2644
乎然則	-11.2645
所樂	-11.2645
與三	-11.2648
堂前	-11.2649
吾欲	-11.2651
春分	-11.2652
皆自然	-11.2652
不同也	-11.2655
始得	-11.2655
亡靈	-11.2657
失道	-11.2659
下至	-11.266
經歷	-11.2661
傳授	-11.2661
仙眞	-11.2662
可言	-11.2664
不答	-11.2667
受天	-11.2668
其弟	-11.2669
諸鬼	-11.2669
世爲	-11.2671
群山	-11.2672
經綸	-11.2673
題詩	-11.2674
長城	-11.2675
方爲	-11.2676
殊不知	-11.268
名士	-11.2681
者由	-11.2684
柔而	-11.2685
惑於	-11.2686
三八	-11.2689
而用	-11.269
不來	-11.2691
皆出	-11.2693
孰不	-11.2695
雖至	-11.2695
廬山	-11.2696
每日	-11.2697
重建	-11.2699
無親	-11.2702
輕泄	-11.2707
通玄	-11.2707
若之何	-11.271
假如	-11.2711
時行	-11.2714
守道	-11.2715
諫曰	-11.2718
風水	-11.2723
治平	-11.2726
莫與	-11.2728
使物	-11.2728
當先	-11.2728
外道	-11.2729
辰星	-11.2729
此謂	-11.273
之厄	-11.2731
宛然	-11.2732
自明	-11.2736
降福	-11.2739
將至	-11.274
必不能	-11.274
一句	-11.2741
有生	-11.2741
爲惡	-11.2741
寒水	-11.2741
只在	-11.2744
應驗	-11.2744
有縁	-11.2746
獻子	-11.2747
㣲子	-11.2747
少子	-11.2753
誥命	-11.2754
然如	-11.2756
不斷	-11.2757
千丈	-11.2764
祖龍	-11.2765
之辯	-11.2765
令星	-11.2767
宫龍女	-11.2768
何待	-11.2768
尤爲	-11.2774
無爲之	-11.2776
者耶	-11.2778
禮法	-11.2778
五十一	-11.2778
未可以	-11.2778
饗之	-11.2785
在家	-11.2786
利以	-11.279
也天地	-11.279
魯君	-11.2791
以立	-11.2792
之乹	-11.2792
天柱	-11.2792
無偏	-11.2794
亦必	-11.2795
威神	-11.2796
有如此	-11.2796
雖在	-11.2798
欲立	-11.2802
以便	-11.2803
州城	-11.2805
奉命	-11.2805
得其所	-11.2808
命汝	-11.2811
豈獨	-11.2813
平平	-11.2814
破祖	-11.2816
亦復	-11.2817
貴重	-11.2817
帝德	-11.2818
惡者	-11.2819
在彼	-11.2822
心欲	-11.2824
獻公	-11.2824
皇皇	-11.2826
三素	-11.2834
七百	-11.2839
度數	-11.2839
復還	-11.284
報國	-11.2843
統制	-11.2843
之炁	-11.2844
君子曰	-11.2845
康王	-11.2846
不懼	-11.2847
妻之	-11.2848
已知	-11.2849
法官	-11.2851
也而况	-11.2858
用神	-11.2858
七人	-11.2863
其才	-11.2864
舉世	-11.2866
告者	-11.2867
不類	-11.287
張公	-11.2871
雨雪	-11.2874
者爲之	-11.2874
則萬物	-11.2875
心思	-11.2881
應時	-11.2881
載之	-11.2883
三度	-11.2884
其末	-11.2888
今夫	-11.2889
方丈	-11.289
福田	-11.2891
天地之大	-11.2893
而足	-11.2898
月十八日	-11.29
金蓮	-11.2904
靈明	-11.2911
誠意	-11.2916
多所	-11.2918
平居	-11.292
夢中	-11.2925
七元	-11.2928
不全	-11.293
任性	-11.2934
二帝	-11.2936
故因	-11.2937
第八	-11.2938
林木	-11.2939
者各	-11.2941
安所	-11.2943
上玄	-11.2945
得無	-11.2949
左右曰	-11.2953
情不	-11.2955
登高	-11.2955
之益	-11.2957
上應	-11.2958
精靈	-11.2961
太王	-11.2966
不念	-11.2966
異同	-11.297
懈	-11.2973
狀元	-11.2976
至京	-11.2976
焉知	-11.2978
删	-11.2979
外有	-11.2979
不昧	-11.2981
一息	-11.2985
戰國	-11.2988
古禮	-11.2991
龍峪	-11.2993
宋史	-11.2997
安敢	-11.2997
士人	-11.3
入宫	-11.3005
近貴	-11.3006
吾家	-11.3007
設醮	-11.3008
然皆	-11.3009
四望	-11.3009
老成	-11.3011
本以	-11.3012
蓋有	-11.3013
無虞	-11.3013
吾言	-11.3017
所尚	-11.3018
𣑽	-11.3018
天界	-11.3019
吳	-11.302
潛	-11.302
辯者	-11.3021
咽液	-11.3021
㡌	-11.3021
諶	-11.3023
信任	-11.3024
無實	-11.3026
塑	-11.3027
闚	-11.3028
葫蘆	-11.3028
杭	-11.3029
栽	-11.3029
卻	-11.303
炷	-11.303
持經者	-11.303
拭	-11.3031
猛獸	-11.3031
暌	-11.3032
犢	-11.3033
旡咎象曰	-11.3034
晃	-11.3034
倉庫	-11.3035
無時	-11.3035
邯鄲	-11.3035
喚	-11.3035
犬戎	-11.3036
嬌	-11.3036
撼	-11.3036
貼	-11.3036
妣	-11.3036
潞公	-11.3036
焉得	-11.3036
衒	-11.3037
祛	-11.3037
饕	-11.3037
顙	-11.3037
旡咎	-11.3037
瘠	-11.3037
明道達德大仙顯靈溥濟清微洞玄冲虛	-11.3037
衙	-11.3038
尅洩	-11.3038
莫大焉	-11.3038
蹴	-11.3038
硃	-11.3038
戢	-11.3039
寮	-11.3039
劎	-11.3039
紱	-11.3039
郵	-11.3041
韜	-11.3042
嬪	-11.3042
俻	-11.3042
唤	-11.3042
暝	-11.3043
彜	-11.3043
店	-11.3043
勺	-11.3043
伎	-11.3044
擘	-11.3044
嘘	-11.3044
迍	-11.3044
衞	-11.3045
舂	-11.3045
乙亥	-11.3045
冑	-11.3045
大矣哉	-11.3045
䧏現	-11.3045
曼	-11.3046
欻	-11.3046
知磬舉	-11.3046
髻	-11.3046
翅	-11.3046
禦寇	-11.3047
餘慶堂	-11.3047
爲貴	-11.3047
石經峪	-11.3047
經一部	-11.3048
顚	-11.3048
霍光	-11.3048
閼	-11.3048
一人之	-11.3048
䇿	-11.3048
吝象曰	-11.3048
拖	-11.3049
棘	-11.3049
四肢	-11.3049
𢦙	-11.3049
攘臂	-11.3049
絢	-11.3049
京兆	-11.3049
汲汲	-11.305
倣此	-11.305
舛	-11.305
里中迴真下映入兆	-11.305
深矣	-11.305
彷彿	-11.305
螻蟻	-11.305
娠	-11.305
曠然無	-11.3051
葩	-11.3051
賢於	-11.3051
彫	-11.3051
錮	-11.3051
詹	-11.3052
賽	-11.3052
卯酉	-11.3052
叚	-11.3052
大慈大悲	-11.3052
紊	-11.3052
鄒魯	-11.3052
嚙	-11.3053
爾時天尊	-11.3053
仝	-11.3053
醮壇	-11.3053
初八日	-11.3054
滋味	-11.3054
𡍼	-11.3054
變易	-11.3054
悠久	-11.3054
杵	-11.3054
馨香	-11.3054
舘	-11.3055
徐徐	-11.3055
狠	-11.3055
延禧	-11.3055
僂	-11.3055
槎	-11.3055
壽夭	-11.3056
瓘	-11.3056
季孫	-11.3056
蒼茫	-11.3056
曰美哉	-11.3056
湏臾	-11.3056
斟酌	-11.3056
覃	-11.3056
詫	-11.3057
誰肯	-11.3057
神呪品	-11.3058
問之曰	-11.3058
丐	-11.3059
殿上	-11.3059
秘訣	-11.3059
敗於	-11.3059
依科	-11.306
棣	-11.306
一切世界	-11.306
黎民	-11.3062
𣈆	-11.3062
梁甫	-11.3062
倏忽	-11.3062
紫霞	-11.3063
親睦堂	-11.3063
乃自	-11.3064
覆護	-11.3064
不能言	-11.3065
攻之	-11.3066
海中	-11.3067
碑銘	-11.3067
雖小	-11.3068
津梁	-11.3068
建醮	-11.3069
須彌山	-11.3069
羅浮	-11.3069
褻	-11.3069
證穴	-11.3069
洞裏	-11.3069
遇一	-11.307
不老	-11.307
千日	-11.3071
登覽	-11.3071
稽古	-11.3072
武侯	-11.3073
會吉星	-11.3073
風化	-11.3073
桃李	-11.3073
濛	-11.3074
辛苦	-11.3074
祖天師	-11.3074
慨然	-11.3076
石閭	-11.3076
唵	-11.3078
牛羊	-11.3079
人頭	-11.3081
章句	-11.3082
約而	-11.3082
符水	-11.3084
同居	-11.3084
乃曰	-11.3084
忘言	-11.3087
不能盡	-11.3087
廟宇	-11.3089
大慈尊	-11.309
峻極	-11.309
羅列	-11.3092
淑女	-11.3092
以保	-11.3092
河源	-11.3094
住持	-11.3094
消散	-11.3095
武陵	-11.3096
邪淫	-11.3096
也所謂	-11.3096
今朝	-11.3097
嘗與	-11.3097
亦不知	-11.3098
金液	-11.3098
設齋	-11.31
赫然	-11.3101
昇平	-11.3101
廟祀	-11.3103
置酒	-11.3103
安排	-11.3104
通判	-11.3105
困苦	-11.3105
廣陵	-11.3105
閉門	-11.3106
布政	-11.3106
世之人	-11.3106
天籟	-11.3107
泊然	-11.3108
又伏以	-11.3109
數萬	-11.3109
郡守	-11.311
冲舉	-11.311
於衆	-11.3111
賢愚	-11.3113
死亡	-11.3113
必須	-11.3114
甲申	-11.3115
自失	-11.3115
郎中	-11.3116
前驅	-11.3116
魯侯	-11.3117
石屋	-11.3117
萬户	-11.3117
比者	-11.3118
二仙	-11.3118
法門	-11.312
顯達	-11.312
内則	-11.3121
之費	-11.3122
虚危	-11.3122
白羊	-11.3122
往來	-11.3123
大梵	-11.3123
祀天	-11.3124
南嶽	-11.3124
小事	-11.3127
云録曰愚觀	-11.3127
燕齊	-11.3128
未可知也	-11.3128
化形爲	-11.3129
解也	-11.3129
諸吕	-11.313
武后	-11.3131
棄其	-11.3131
黄鳥	-11.3133
飛揚	-11.3133
半夜	-11.3134
之設	-11.3137
雷聲	-11.3139
東京	-11.3139
諸郡	-11.3139
非有所	-11.3139
生涯	-11.3139
以迎	-11.3142
因果	-11.3145
楚王	-11.3149
九天玉闕宣化扶教上仙昭靈博濟	-11.3149
其象爲	-11.315
胡不	-11.3152
瀑布	-11.3152
賜之	-11.3152
幽顯	-11.3152
相公	-11.3152
敵國	-11.3152
而趨	-11.3152
國土	-11.3153
天衢	-11.3153
盡性	-11.3155
岱山	-11.3156
則死	-11.3157
黄泉	-11.3158
書云	-11.316
紅門	-11.3162
吾與	-11.3162
恃其	-11.3163
眞聖	-11.317
率土	-11.3172
何年	-11.3173
謚曰	-11.3175
一十八	-11.3179
九鼎	-11.318
尊嚴	-11.3181
或勸	-11.3181
是夕	-11.3181
神道	-11.3182
一變	-11.3182
青華	-11.3184
不欺	-11.3185
目前	-11.3187
立法	-11.3189
正也	-11.319
坐向	-11.319
哉蓋	-11.3191
心勞	-11.3191
窮理	-11.3192
之速	-11.3194
不依	-11.3194
何以能	-11.3195
便殿	-11.3197
金輪	-11.3198
宣說	-11.3201
妄語	-11.3201
内史	-11.3201
遇雨	-11.3203
之元氣	-11.3203
禄位	-11.3204
天醫	-11.3206
葬於	-11.3206
吴門	-11.3207
不勞	-11.3209
開天	-11.3211
一百二十	-11.3213
金鼎	-11.3213
土人	-11.3214
相扶	-11.3214
孔明	-11.3215
十四十	-11.3215
疑惑	-11.3216
妄想	-11.3218
艮止	-11.3218
平原	-11.3218
四十四	-11.3219
不患	-11.322
幾度	-11.322
之厚	-11.3221
但有	-11.3224
如水	-11.3227
江水帝大龍王	-11.3228
何物	-11.3237
雨澤	-11.3238
以物	-11.3239
不擇	-11.3241
無縁	-11.3242
靈根	-11.3242
大化	-11.3248
養之	-11.3249
道藏	-11.3251
尊賢	-11.3251
十八日	-11.3253
肅然	-11.326
咸陽	-11.3261
爲之歌	-11.3261
適有	-11.3261
齊州	-11.3264
直以	-11.3268
得罪	-11.327
施於	-11.3271
又嘗	-11.3272
知足	-11.3273
月華	-11.3276
東井	-11.3276
也以其	-11.3278
命主	-11.3279
誠敬	-11.328
一處	-11.328
在中	-11.3282
通達	-11.3282
獨行	-11.3284
空亡	-11.3285
懷憂	-11.3288
蓮華	-11.3289
一丈	-11.329
三畫	-11.3293
化機	-11.3293
靈府	-11.3294
知我	-11.3295
郡中	-11.3295
伯陽	-11.3297
財物	-11.3299
仁聖	-11.3304
臣聞	-11.3306
五更	-11.3307
大寳	-11.3308
全身	-11.3309
之比	-11.3309
之策	-11.3313
近臣	-11.3313
年間	-11.3314
之柄	-11.3318
口中	-11.332
此處	-11.332
初四	-11.3321
三足	-11.3321
韓非	-11.3323
之意也	-11.3323
多智	-11.3324
禮儀	-11.3326
五歲	-11.3327
流血	-11.3327
正位	-11.3328
達於	-11.3328
曾子曰	-11.3328
亦猶	-11.3329
公論	-11.3331
師道	-11.3333
在其中	-11.3333
上起	-11.3333
心與	-11.3333
法音	-11.3334
乃成	-11.3335
其象	-11.3335
親見	-11.3335
夷吾	-11.3337
遂與	-11.3337
失國	-11.3339
有年	-11.3342
於家	-11.3342
幽人	-11.3345
者聖人	-11.3348
/□)	-11.3349
晋人	-11.3354
生扶	-11.3354
陽春	-11.3354
聖人所以	-11.3354
功過	-11.336
民力	-11.336
申公	-11.3363
昔人	-11.3364
三司	-11.3365
二儀	-11.3372
無灾	-11.3378
爲仇	-11.3378
告之曰	-11.3379
眞性	-11.3381
公署	-11.3384
聖父	-11.3388
五道	-11.339
動止	-11.339
二十餘	-11.3391
陰功	-11.3394
諸惡	-11.3397
百人	-11.3398
乃心	-11.3402
氣化	-11.3403
不殺	-11.3404
少女	-11.3404
雲水	-11.3409
輔相	-11.341
遂致	-11.3411
上方	-11.3411
無根	-11.3415
報之	-11.3415
但當	-11.3417
大如	-11.342
成章	-11.3421
形如	-11.3421
曰今日	-11.3421
則天	-11.3424
客氣	-11.3431
不能用	-11.3432
丈餘	-11.3433
辯之	-11.3435
山頭	-11.3435
孰敢	-11.3435
人才	-11.3437
以順	-11.3437
不稱	-11.3438
而愈	-11.3439
開度	-11.344
河洛	-11.3444
登科	-11.3444
世代	-11.3445
三聖	-11.3448
之徒也	-11.3451
之科	-11.3453
吾聞之	-11.3453
觀日	-11.3454
舉家	-11.3456
過失	-11.346
之材	-11.346
之子也	-11.3461
不到	-11.3462
香帛	-11.3466
仙家	-11.3467
其誠	-11.3467
皆吾	-11.3469
上通	-11.3471
老而	-11.3479
事未	-11.3479
寸許	-11.3479
不進	-11.3479
手執	-11.348
當得	-11.348
山澤	-11.3482
得免	-11.3482
帝后	-11.3482
侍香	-11.3483
不辨	-11.3483
者不得	-11.3484
流光	-11.3484
風聲	-11.3485
貴乎	-11.3485
然後能	-11.3488
帝座	-11.349
飛去	-11.349
大羅	-11.3499
温公	-11.3499
賦詩	-11.3499
察之	-11.3499
卒之	-11.3502
唯其	-11.3504
制作	-11.3512
飛入	-11.3514
寅卯	-11.3514
非止	-11.3516
不可不知	-11.3518
江上	-11.3521
雨水	-11.3521
遂意	-11.3531
人必	-11.3532
廓然	-11.3536
德宗	-11.3539
也但	-11.3544
岱史第	-11.3544
五隂	-11.3545
以授	-11.3545
明徳	-11.3546
避之	-11.3549
於人也	-11.3551
福喜	-11.3552
也孟子曰	-11.3558
長女	-11.3558
何害	-11.3563
也由	-11.3564
傳道	-11.357
何益	-11.3571
正理	-11.3571
憂樂	-11.3573
周人	-11.3574
一枝	-11.3579
舒公	-11.3581
玄風	-11.3581
與吾	-11.3582
天地人	-11.3583
敢忘	-11.3586
矣彼	-11.3588
家法	-11.3591
妨	-11.3594
聘之	-11.3597
八風	-11.3599
羽人	-11.3601
李文	-11.3601
内殿	-11.3603
高士	-11.3617
同體	-11.362
足而	-11.362
也其曰	-11.3624
杓	-11.3624
白鹿	-11.3628
繼之	-11.3631
金精	-11.3635
是人	-11.3636
逆行	-11.3637
衆眞	-11.3642
一門	-11.3644
加刑	-11.3647
四卷	-11.3649
殿前	-11.3655
運行	-11.3656
與共	-11.3659
因此	-11.3662
因問	-11.3663
虛皇	-11.3664
進曰	-11.3665
皆如	-11.3665
尹喜	-11.3668
同其	-11.3671
之譏	-11.3674
焉有	-11.3676
眼前	-11.3679
爲小人	-11.3681
玉經	-11.3682
三業	-11.3682
濟之	-11.3683
海日	-11.3684
汝爲	-11.3686
一言而	-11.3687
若要	-11.3689
告我	-11.3689
始以	-11.3691
重則	-11.3691
法令	-11.3693
逺行	-11.3694
治世	-11.3694
傷身	-11.37
十有四	-11.3703
失其所	-11.3704
宋公	-11.3704
靈風	-11.3704
安全	-11.3704
方將	-11.371
要在	-11.3711
華陽	-11.3713
毋得	-11.3714
不材	-11.3715
伏念	-11.3716
以資	-11.3716
保安	-11.3717
上言	-11.372
序曰	-11.3721
帝乃	-11.3721
中出	-11.3723
百二十	-11.3724
其力	-11.3724
冬月	-11.3724
曰泰山	-11.3725
爲賊	-11.3727
今受元君勑	-11.3729
天下莫不	-11.3731
衆聖	-11.3731
燦	-11.3733
非聖人	-11.3739
求道	-11.374
益州	-11.3741
之末	-11.3743
與此	-11.3743
二十八年	-11.3744
常情	-11.3744
封侯	-11.3749
於秦	-11.375
碍	-11.3753
線	-11.3753
天運	-11.3753
變成	-11.3755
過矣	-11.3757
崑崙之	-11.376
道門	-11.3762
濟濟	-11.3763
語云	-11.3767
木火	-11.3767
汝南	-11.3768
爲市	-11.3768
立朝	-11.377
開門	-11.377
爲君子	-11.3773
者也其	-11.3775
錡	-11.3775
十五里	-11.3777
五彩	-11.3777
畛	-11.378
萬倍	-11.3781
若人求福	-11.3784
誰爲	-11.3784
天外	-11.3784
縊	-11.3788
旭	-11.3789
武王伐紂	-11.379
曰臣聞	-11.379
冉	-11.379
伋	-11.3791
跖	-11.3791
之德也	-11.3791
蘄	-11.3792
盞	-11.3794
荘	-11.3797
梨	-11.3797
竝	-11.3798
愿	-11.3798
无攸利	-11.3799
煑	-11.3801
螫	-11.3802
二千	-11.3802
鬯	-11.3802
及其至也	-11.3802
橐	-11.3803
賚	-11.3803
魴	-11.3804
企	-11.3804
城郭	-11.3805
驩	-11.3805
驥	-11.3805
瞑	-11.3806
眞知	-11.3806
愉	-11.3806
凛凛	-11.3807
嶙	-11.3807
欣欣	-11.3807
啜	-11.3807
歐	-11.3807
嬉	-11.3807
賄	-11.3807
凉	-11.3807
訂	-11.3807
無是無非	-11.3808
蹉跎	-11.3808
焱	-11.3808
綾	-11.3808
不可思議	-11.3808
欒	-11.3809
攣	-11.3809
畋	-11.3809
縉紳	-11.3809
搬	-11.3809
盎	-11.3809
妍	-11.3809
黽勉	-11.381
璟	-11.381
沓	-11.381
居官	-11.381
希夷	-11.381
颺	-11.381
徐仙翰藻	-11.3811
樣	-11.3811
與道合眞	-11.3811
㡬	-11.3811
邃	-11.3811
擎游	-11.3812
蹄	-11.3812
羔	-11.3812
霈	-11.3812
駿	-11.3813
藐	-11.3813
荐	-11.3813
郝	-11.3813
呴	-11.3814
給事中	-11.3814
蒂	-11.3814
當用	-11.3814
賈誼	-11.3814
刳	-11.3814
赤松子	-11.3814
忒	-11.3814
愠	-11.3814
秘籙一階此籙	-11.3814
化作	-11.3814
友聞	-11.3814
范仲淹	-11.3814
沫	-11.3814
四大	-11.3815
咀	-11.3816
都尉	-11.3816
買賣	-11.3816
六甲生男	-11.3816
俘	-11.3816
橘	-11.3816
抄	-11.3817
碧霞元君	-11.3817
巉巖	-11.3817
偽	-11.3817
燿	-11.3817
袒	-11.3817
誚	-11.3817
屛	-11.3818
莊子翼卷之	-11.3818
楓	-11.3818
掇	-11.3818
翫	-11.3819
鄷都	-11.3819
億刼	-11.3819
蒿	-11.3819
惜也	-11.3819
閶闔	-11.382
狼虎	-11.382
元至正十三年贈	-11.382
妥	-11.3821
旱魃	-11.3821
殽	-11.3821
毫釐	-11.3821
三隂	-11.3821
筮龜	-11.3821
嗣續	-11.3821
失其寵	-11.3821
其爲人	-11.3822
假借	-11.3822
勿恤	-11.3822
高老橋	-11.3822
節度使	-11.3822
赫奕	-11.3822
惟此	-11.3822
會同	-11.3823
皇明恩命世録卷之	-11.3823
其兄	-11.3823
彌羅	-11.3823
祝釐	-11.3823
者異矣	-11.3823
釀	-11.3823
崧	-11.3823
玄牝	-11.3824
道前	-11.3824
崆峒	-11.3825
冠冕	-11.3825
逭	-11.3826
徽宗	-11.3826
澡	-11.3826
可測	-11.3826
嵓	-11.3826
廵撫	-11.3827
蟒	-11.3827
兜	-11.3827
恬淡	-11.3827
曄	-11.3827
頡	-11.3828
不敢言	-11.3828
枳	-11.3828
堪輿	-11.3829
桑田	-11.3829
旡妄	-11.383
哲宗	-11.383
緝	-11.383
鶯	-11.383
辛巳	-11.3831
何啻	-11.3831
獨得	-11.3831
諦聽	-11.3831
於泰山	-11.3832
㦸	-11.3832
伯禽	-11.3832
禱於	-11.3833
知諤	-11.3833
鯨	-11.3834
持是經人	-11.3834
其方	-11.3835
塵垢	-11.3836
無妨	-11.3836
百丈	-11.3836
莫大乎	-11.3837
江淮	-11.3837
仙姑	-11.3837
休咎	-11.3838
只恐	-11.3838
降婁	-11.3838
也夫子	-11.3839
不可不察	-11.3839
精思	-11.384
裊	-11.384
善善	-11.384
轉輪	-11.3841
澹然	-11.3842
築室	-11.3843
揖讓	-11.3843
斯乃	-11.3843
絳節	-11.3843
鶴駕	-11.3844
關尹	-11.3844
年九月	-11.3845
地理	-11.3845
保安寍	-11.3845
兒孫	-11.3845
世系	-11.3846
仁義禮樂	-11.3847
水晶	-11.3848
利濟	-11.3848
實沈	-11.3848
一刻	-11.3849
預修	-11.385
燥金	-11.385
恐懼	-11.385
禁約	-11.3852
漢栢	-11.3852
爭訟	-11.3852
其妙	-11.3852
清規	-11.3853
趙普	-11.3854
曾史	-11.3855
驚駭	-11.3855
流霞	-11.3856
翠微	-11.3856
咸池	-11.3856
月日在	-11.3856
所事	-11.3858
諸天人	-11.3859
命坐	-11.3861
九齡	-11.3862
騰空	-11.3863
孤魂	-11.3864
所養	-11.3864
統御	-11.3865
借問	-11.3866
我朝	-11.3866
解釋	-11.3866
枯木	-11.3868
天律	-11.3868
己酉	-11.3868
羅計	-11.3868
宗族	-11.3869
法籙	-11.3869
己丑	-11.3869
西溪	-11.3869
自此始	-11.3869
所指	-11.3871
有節	-11.3871
養民	-11.3872
周徧	-11.3873
昇仙	-11.3873
毅然	-11.3874
破財	-11.3875
夏商	-11.3875
建康	-11.3876
隆慶	-11.3876
稱爲	-11.3877
自慚	-11.3877
王珪	-11.3878
夜鳴	-11.388
弟也	-11.3883
欣然	-11.3884
施設	-11.3885
昭儀	-11.3885
無狀	-11.3888
瑞氣	-11.3889
南斗	-11.3889
不可缺	-11.3889
離坎	-11.3889
柰何	-11.3889
不收	-11.389
而觀之	-11.389
務要	-11.3891
侈心	-11.3892
每歲	-11.3893
安用	-11.3893
四分	-11.3895
加哭	-11.3896
戒之曰	-11.3899
月光	-11.39
二十四年	-11.3901
厥功	-11.3902
親踈	-11.3902
吴氏	-11.3903
命官	-11.3903
千餘人	-11.3906
浙之	-11.3906
有咎	-11.3909
持戒	-11.3909
吾有	-11.3909
能止	-11.3909
然後可以	-11.391
郡人	-11.391
斡運	-11.3913
以成其	-11.3913
修造	-11.3915
青城	-11.3915
財利	-11.3916
玄珠	-11.3916
血光	-11.3916
斷絶	-11.3917
所向	-11.392
大官	-11.3921
也不以	-11.3921
曰諾	-11.3923
則凶	-11.3925
之根	-11.3926
長春	-11.3926
飄然	-11.3927
飛空	-11.3929
曲直	-11.393
玉華	-11.393
清衆	-11.3931
賛曰	-11.3932
華夏	-11.3933
七赤	-11.3935
無後	-11.3936
徃昔	-11.3937
龍鳳	-11.3938
宣和	-11.3939
二程	-11.3939
大天尊	-11.3942
實録	-11.3942
孝服	-11.3945
又名	-11.3945
無限	-11.3947
兩手	-11.3948
始悟	-11.3949
入宅	-11.3951
嵗星	-11.3951
青州	-11.3953
聚會	-11.3953
江東	-11.3958
斯須	-11.3959
廟堂	-11.3961
秘法	-11.3966
惟其	-11.3968
五味	-11.397
屬土	-11.397
幾年	-11.3973
歸來	-11.3973
風塵	-11.3973
訪之	-11.3974
名之曰	-11.3976
晚年	-11.3979
山之陽	-11.398
秘書	-11.3981
中年	-11.3982
天地之氣	-11.3983
聲聞	-11.3984
曲盡	-11.3986
夏五月	-11.3987
利物	-11.3987
李白	-11.3992
知證	-11.3992
一杯	-11.3993
六度	-11.3994
伏義	-11.3995
兩先生	-11.3996
常侍	-11.3997
各得其	-11.3997
自强	-11.3998
不達	-11.3998
靜則	-11.3999
示之以	-11.4001
丈許	-11.4003
伯氏	-11.4003
海色	-11.4003
大則	-11.4005
安康	-11.4006
但以	-11.4008
者不可以	-11.4008
學術	-11.4009
有序	-11.4009
譬若	-11.401
顯於	-11.4011
七情	-11.4012
子貢曰	-11.4013
出一	-11.4014
我當	-11.4014
朝野	-11.4015
更衣	-11.4016
天池	-11.4017
官吏	-11.4022
玄眞	-11.4022
有數	-11.4023
衛國	-11.4025
者猶	-11.4025
功臣	-11.4027
爲官	-11.4028
身受	-11.4029
五炁	-11.4029
人馬	-11.4031
赤帝	-11.4031
鄭國	-11.4032
權貴	-11.4037
仲冬	-11.4037
器之	-11.4039
何曾	-11.4039
不怠	-11.4043
甚於	-11.4043
无應	-11.4045
窮通	-11.4046
不久	-11.4049
賜福	-11.4052
拱照	-11.4052
出遊	-11.4054
陳氏	-11.4054
海外	-11.4055
不足則	-11.4057
永平	-11.4057
此必	-11.4057
不告	-11.4058
也或曰	-11.4058
全體	-11.406
年十月	-11.4068
作春秋	-11.4069
朝天	-11.407
春月	-11.4072
伏念臣	-11.4076
列傳	-11.4078
紅日	-11.4079
召對	-11.4079
告於	-11.408
衆皆	-11.4081
東漢	-11.4084
申生	-11.4085
重脩	-11.4086
同時	-11.4086
氣散	-11.4087
太始	-11.4087
自幼	-11.4088
爲災	-11.4088
同列	-11.4089
諸君	-11.4089
不怒	-11.4089
衆庶	-11.409
復問	-11.4093
玄虛	-11.4095
也録之	-11.4096
一紀	-11.4099
形貌	-11.4101
者盖	-11.4105
都統	-11.4113
形影	-11.4114
同知	-11.4115
魏王	-11.4118
非我也	-11.4119
唯聖人	-11.4123
極言	-11.4124
更始	-11.4124
諸賢	-11.4126
望岳	-11.4127
聽命	-11.413
接物	-11.4132
足下	-11.4133
一員	-11.4134
無違	-11.4137
惟一	-11.4138
以居	-11.4139
歸家	-11.4141
故無不	-11.4141
十有五	-11.4143
冲虚	-11.4143
楚子	-11.4147
北京	-11.4148
不干	-11.415
元伯	-11.4152
鳥飛	-11.4156
亦可謂	-11.4158
其法	-11.4159
心印	-11.4161
先亡	-11.4162
仁愛	-11.4163
不爲而自	-11.4164
從事於	-11.4165
皆用	-11.4167
大政	-11.4168
扵前	-11.4168
遣之	-11.4172
聖人之心	-11.4176
無所見	-11.4183
慶雲	-11.4185
元兵	-11.419
不曉	-11.4193
靈運	-11.4194
求我	-11.4194
丹皇	-11.4195
五靈	-11.4196
常乘	-11.4198
出扵	-11.4198
家語	-11.4199
一十四	-11.4199
福善	-11.4199
梵天	-11.4205
詩人	-11.4206
儉於	-11.4208
或遭	-11.4208
特命	-11.4209
無倫	-11.4212
大難	-11.4214
立命	-11.4217
先見	-11.4219
不衰	-11.4221
終不可	-11.4222
萬重	-11.4222
相通	-11.4222
落日	-11.4223
辰時	-11.4224
大限	-11.4225
衆神	-11.4225
三炁	-11.4225
通志	-11.4225
流通	-11.4226
及時	-11.4229
專心	-11.423
得遇	-11.4234
此云	-11.4234
相因	-11.4239
功化	-11.4243
過人	-11.4245
大書	-11.4247
今時	-11.4248
者未必	-11.4249
合道	-11.4251
毫末	-11.4256
十分	-11.4261
本年	-11.4262
吏兵	-11.4263
安身	-11.4263
無可	-11.4264
者多矣	-11.4265
自責	-11.4266
乎故曰	-11.4266
西行	-11.4268
大禹	-11.427
各得	-11.4272
老君曰	-11.4274
獨存	-11.4275
之甚也	-11.4277
生此	-11.4279
道録	-11.4279
猶能	-11.4279
姚異	-11.4279
鳥道	-11.4281
以獻	-11.4287
何所不	-11.4288
妙樂	-11.4289
矣是以	-11.4292
之隆	-11.4295
土星	-11.4299
立教	-11.4306
矣又曰	-11.431
變通	-11.4312
則易	-11.4312
了無	-11.4313
永保	-11.4313
輔國	-11.4317
昭靈	-11.4321
攝生	-11.4322
之途	-11.4326
求利	-11.4327
化度	-11.4328
無力	-11.4332
嶽廟	-11.4335
行而不	-11.4335
於廟	-11.4337
四天	-11.4339
而莫知	-11.434
此正	-11.4345
必多	-11.4345
五經	-11.4347
去矣	-11.4352
六曰	-11.4354
白帝	-11.4356
不巳	-11.4364
若問	-11.4365
多福	-11.4367
手書	-11.4372
以寧	-11.4373
分則	-11.4375
慈仁	-11.4375
而發	-11.4376
河水	-11.438
又當	-11.4381
忽有	-11.4384
生尅	-11.4385
教民	-11.4388
勢不	-11.4389
與弟	-11.4389
其夫	-11.4391
通真	-11.4393
祖考	-11.4395
周官	-11.4398
顯化	-11.4402
城人	-11.4403
忽見	-11.4403
子胥	-11.4404
河海	-11.4404
其名爲	-11.4404
能用	-11.4405
一貫	-11.441
無罪	-11.4413
而後可	-11.4413
自得之	-11.4414
會合	-11.4416
天德	-11.4419
若將	-11.4421
内傳	-11.4422
難行	-11.4423
一致	-11.4425
而已哉	-11.4427
其名曰	-11.443
相忘	-11.4432
其明	-11.4434
諸家	-11.4436
相親	-11.4437
不滿	-11.4437
眞空	-11.4439
之半	-11.444
大願	-11.444
莫有	-11.4441
苦海	-11.4445
耳此	-11.4452
之本也	-11.4457
物理	-11.4459
是歲	-11.446
眞龍	-11.4461
曰天子	-11.4461
德音	-11.4466
致使	-11.4468
里人	-11.4472
山陵	-11.4472
即死	-11.4473
蓋公	-11.4474
志行	-11.4477
觀乎	-11.448
又爲	-11.448
封人	-11.4481
梁王	-11.4482
紫元	-11.4483
言之則	-11.4484
必定	-11.4484
用力	-11.4486
之謂乎	-11.4489
失去	-11.449
慶會	-11.4491
相待	-11.4492
後果	-11.4495
無擇	-11.4496
官至	-11.4497
下流	-11.45
卯時	-11.4502
乘風	-11.4504
不可勝	-11.4505
亦在	-11.4511
公乃	-11.4514
上表	-11.4516
郡王	-11.4528
禮拜	-11.4531
以柔	-11.4531
仰望	-11.4534
道之大	-11.4538
之俗	-11.4541
無敵	-11.4543
定主	-11.4559
富而	-11.456
至地	-11.4561
加毛	-11.4568
火燒	-11.4572
家無	-11.4576
既曰	-11.4578
也夫以	-11.4578
八子	-11.4579
身宫	-11.4581
黄道	-11.4586
如初	-11.4588
日精	-11.4588
向來	-11.4589
百步	-11.4597
大功	-11.4598
亦能	-11.4599
化現	-11.4601
遺我	-11.4602
央	-11.4603
孺	-11.4608
火土	-11.4618
初三刻起至正二刻止方是	-11.4619
正三刻起至	-11.4619
法此法䏻	-11.4619
初二刻止此屬	-11.4619
倣	-11.4622
臆	-11.4622
淂	-11.4622
蔬	-11.4624
贏	-11.4625
螟	-11.4626
蝦	-11.4627
輻	-11.4629
塋	-11.4629
鎬	-11.463
矦	-11.463
瑀	-11.463
岳陽	-11.4631
㳒	-11.4631
不旋踵	-11.4631
頴川	-11.4632
公羊傳	-11.4632
滄	-11.4632
北向	-11.4632
妙感慈惠護國庇民崇福洪恩眞君	-11.4632
奈之何	-11.4632
荼毒	-11.4632
庾	-11.4633
猾	-11.4633
参	-11.4633
䖍誠	-11.4633
此可見	-11.4633
掊	-11.4633
璚	-11.4634
衲	-11.4634
紿	-11.4634
揲	-11.4634
宫度在天屬	-11.4634
閬	-11.4635
人咸	-11.4635
興雲	-11.4635
鍳	-11.4636
猥	-11.4636
拈	-11.4637
朂	-11.4637
御帳坪	-11.4637
旋遶	-11.4637
瑟	-11.4637
冢宰	-11.4638
曲阜	-11.4638
兕	-11.4638
吐蕃	-11.4638
埃	-11.4639
孟軻	-11.4639
届	-11.4639
棋	-11.4639
券	-11.4639
廷尉	-11.4639
叁	-11.4639
桀跖	-11.464
塗炭	-11.464
洎	-11.464
勣	-11.464
冗	-11.464
它	-11.4641
乙巳	-11.4641
三年之喪	-11.4641
高功黙念	-11.4641
拳拳	-11.4641
惚	-11.4641
顒	-11.4641
漬	-11.4641
朦朧	-11.4641
瀾	-11.4642
姝	-11.4642
爨	-11.4642
其别八	-11.4642
蹕	-11.4642
劉用相曰	-11.4642
寖	-11.4642
皇經集註卷之	-11.4642
孳孳	-11.4643
錫之誥命	-11.4643
求財未遂	-11.4643
舍身崖	-11.4643
孑	-11.4643
簧	-11.4644
坂	-11.4644
矣蓋	-11.4644
道流	-11.4644
圈	-11.4644
黛	-11.4644
膂	-11.4644
鈍	-11.4644
運化	-11.4645
嵒	-11.4645
耐	-11.4645
紐	-11.4645
浹	-11.4646
過也	-11.4646
戕	-11.4646
趺	-11.4646
渾沌	-11.4647
者道之	-11.4647
蓐	-11.4647
黄芽	-11.4647
逶迤	-11.4647
俛	-11.4647
壬戌	-11.4648
輪廻	-11.4648
峭壁	-11.4648
撮	-11.4648
癰	-11.4648
祜	-11.4648
籥	-11.4648
揀	-11.4648
默默	-11.4649
贄	-11.4649
竺	-11.4649
位不當也	-11.4649
旻	-11.4649
秦檜	-11.4649
絜	-11.4649
泠泠	-11.4649
則自然	-11.465
影響	-11.465
嶠	-11.465
之次其辰在	-11.465
佈亡魂	-11.465
視者	-11.4651
信受奉行	-11.4651
嘻	-11.4651
憇	-11.4651
較之	-11.4651
釋迦	-11.4651
剡剡	-11.4652
漳	-11.4652
是時天尊	-11.4652
旌旗	-11.4652
溶	-11.4652
𩛙	-11.4653
俎豆	-11.4653
蜜	-11.4653
酋	-11.4653
艶	-11.4654
層霄	-11.4654
悌	-11.4654
護國廣	-11.4654
亡身	-11.4654
騁	-11.4654
雩	-11.4655
祻	-11.4655
蘇軾	-11.4655
啣	-11.4655
劓	-11.4655
告嶽文	-11.4655
帽	-11.4656
俄頃	-11.4656
按察使	-11.4656
蝎	-11.4657
險阻	-11.4657
儋	-11.4657
田疇	-11.4657
槁	-11.4657
失物不見	-11.4658
八分書	-11.4658
哭泣	-11.4659
奔馳	-11.4659
杞	-11.4659
石崖	-11.4659
抹	-11.4659
吹笙	-11.4659
丹竈	-11.4659
季札	-11.466
淹留	-11.466
官禄宫	-11.466
九光	-11.4661
趕	-11.4661
寑	-11.4661
甲乙	-11.4661
羊刃	-11.4662
飈	-11.4662
淵默	-11.4662
謐	-11.4662
牘	-11.4663
匠石	-11.4663
酢	-11.4664
泥塗	-11.4664
屨	-11.4664
酒肉	-11.4665
壇場	-11.4665
楷	-11.4665
賢士	-11.4665
䄂	-11.4665
主簿	-11.4666
睿宗	-11.4666
市井	-11.4667
項負	-11.4667
玄中	-11.4668
層巒	-11.4668
徼福	-11.4668
瑶臺	-11.4669
匹練	-11.4669
吁嗟	-11.467
著聞	-11.467
訶	-11.467
陽精	-11.467
鶴鳴山	-11.467
丹霞	-11.4671
羽毛	-11.4672
燈圖	-11.4672
阨	-11.4672
荒唐	-11.4673
前定	-11.4673
孤寡	-11.4675
爕	-11.4675
旦暮	-11.4676
太監	-11.4676
言雖	-11.4677
順天	-11.4677
自縊	-11.4677
歌舞	-11.4677
除邪	-11.4678
身命二宫	-11.4678
者未之有也	-11.4678
少昊	-11.4678
翼翼	-11.4679
登眺	-11.4679
潤澤	-11.4679
中氣後太陽躔	-11.4679
提學	-11.468
欽承	-11.4681
低頭	-11.4681
艱貞	-11.4682
他方	-11.4683
必將	-11.4683
如前	-11.4684
博學	-11.4685
勤勞	-11.4685
修之于	-11.4687
征伐	-11.4687
包荒	-11.4687
瓊花	-11.4688
清涼	-11.4688
朱陵	-11.4688
非言	-11.4688
又從而	-11.4688
之後而有	-11.4689
强弱	-11.4691
曰願	-11.4691
鄉里	-11.4692
鍾鼓	-11.4693
流芳	-11.4694
逆旅	-11.4695
宣揚	-11.4696
到底	-11.4696
奏請	-11.4697
盈虛	-11.4697
尚冀	-11.4699
至神	-11.4699
僅存	-11.4699
誠能	-11.47
慈惠	-11.4702
江州	-11.4703
髙祖	-11.4703
寅申	-11.4704
曆數	-11.4705
陽人	-11.4707
上升	-11.4707
拒之	-11.4709
我欲	-11.4709
心地	-11.4709
厄難	-11.471
命宫度	-11.4712
金幣	-11.4712
壯麗	-11.4715
仙去	-11.4716
切切	-11.4716
稱量	-11.4716
消滅	-11.4717
山麓	-11.4718
惟天	-11.4718
解悟	-11.4719
不拜	-11.4719
仙階	-11.4719
白露	-11.4721
二十五日	-11.4721
前日	-11.4722
方始	-11.4724
恍然	-11.4724
易林卷第	-11.4725
者可謂	-11.4725
暗室	-11.4726
興衰	-11.4726
人主之	-11.4726
鎡	-11.4727
雷風	-11.4729
年九十	-11.4731
乃作	-11.4732
聚散	-11.4732
華夷	-11.4735
吕字	-11.4736
遇事	-11.4737
不因	-11.4737
肅清	-11.4737
喜捨	-11.4737
天寶	-11.4738
虛驚	-11.4739
時師	-11.474
樹木	-11.4742
可憐	-11.4742
紫金	-11.4745
南至	-11.4747
初一二	-11.4748
智惠	-11.475
古松	-11.475
保奏	-11.4753
蕭何	-11.4754
但得	-11.4754
日食	-11.4755
不怕	-11.4755
矣惜乎	-11.4757
語默	-11.4759
長幼	-11.476
限主	-11.476
指顧	-11.4762
復興	-11.4763
君子小人	-11.4763
不犯	-11.4765
手持	-11.4766
河車	-11.4769
史稱	-11.4769
直待	-11.477
西向	-11.477
幾時	-11.477
聖天子	-11.4771
於禮	-11.4771
太廟	-11.4773
無良	-11.4773
九族	-11.4774
凡此皆	-11.4774
紫白	-11.4776
内侍	-11.4776
南天門	-11.4777
邦家	-11.4778
踐履	-11.4781
香花	-11.4781
張良	-11.4784
經義	-11.4785
八萬	-11.4787
嵗月	-11.4787
灾害	-11.4789
兹土	-11.479
聖王之	-11.4791
清江	-11.4794
神居	-11.4796
取舍	-11.4796
以手	-11.4799
公族	-11.4799
知誥	-11.48
空虚	-11.4801
各一	-11.4802
來謁	-11.4803
古之聖人	-11.4803
十有三	-11.4806
清齋	-11.4806
神物	-11.4807
九點	-11.4808
元精	-11.4809
登泰	-11.4809
責之	-11.481
李斯	-11.4812
完成	-11.4813
財官	-11.4813
大方	-11.4814
嘉定	-11.4815
臣妾	-11.4817
勸君	-11.4819
卓然	-11.4821
夏月	-11.4821
社稷之	-11.4824
惠子曰	-11.4824
效靈	-11.4826
諸峰	-11.4828
妙藥	-11.4828
俱是	-11.4831
伏望	-11.4831
金錢	-11.4834
軍中	-11.4835
欽若	-11.4836
名譽	-11.4839
修奉	-11.484
勿令	-11.484
證明	-11.4841
不愧	-11.4841
也能	-11.4841
改過	-11.4842
草木之	-11.4842
化胡	-11.4846
隂功	-11.4846
三軍	-11.4847
舊志	-11.4848
華池	-11.4848
可觀	-11.4851
便爲	-11.4851
留守	-11.4852
王長	-11.4852
之果	-11.4853
守舊	-11.4854
遂良	-11.4855
天涯	-11.4855
奏事	-11.4857
末世	-11.4858
㫖酒	-11.4859
俯伏	-11.4862
等物	-11.4863
照耀	-11.4863
特遣	-11.4863
良臣	-11.4865
當其時	-11.487
而論之	-11.4874
欽此	-11.4874
則彼	-11.4875
而尚	-11.4877
偕行	-11.4881
縱然	-11.4883
不足爲	-11.4885
力士	-11.4887
三千里	-11.4888
揚靈	-11.4891
法輪	-11.4892
酉戌	-11.4898
名賢	-11.4899
不可一日	-11.4901
令尹	-11.4906
五十七	-11.4907
不令	-11.4912
偈曰	-11.4912
可期	-11.4912
宿世	-11.4912
越人	-11.4912
金簡	-11.4916
成物	-11.492
與母	-11.4921
而不見其	-11.4925
示以	-11.4926
而巳	-11.4928
七九	-11.4929
方面	-11.493
洞陽	-11.4934
之災	-11.4937
不失其所	-11.4941
尚父	-11.4941
爾等	-11.4945
故一	-11.4946
老少	-11.4947
心存	-11.4948
爲之記	-11.4949
臨朝	-11.4952
冥心	-11.4952
崇重	-11.4955
光榮	-11.4955
紫文	-11.4958
反對	-11.4958
也附録	-11.4959
金牛	-11.496
何以言	-11.4961
無虧	-11.4963
壬癸	-11.4964
不良	-11.4965
此豈	-11.4965
奚足	-11.4965
俄有	-11.4966
各自得	-11.4968
諫官	-11.4968
以供	-11.4969
大通	-11.4971
一法	-11.4976
廣漢	-11.4976
獨見	-11.4978
虛哭	-11.4978
氣機	-11.4981
楊公	-11.4981
監生	-11.4984
于兹	-11.4988
大成	-11.4989
矧於	-11.4991
輔臣	-11.4991
之女也	-11.4992
佛法	-11.4993
碑刻	-11.4993
相連	-11.4994
子瞻	-11.4995
因與	-11.4996
河沙	-11.4996
碧玉	-11.4998
天命之	-11.4999
所在皆	-11.5002
十歲	-11.5003
生前	-11.5004
習坎	-11.5005
其所以然	-11.5006
四陽	-11.5006
可致	-11.5006
節義	-11.5008
𡚖於	-11.5009
慕道	-11.501
造作	-11.5011
至當	-11.5013
任自然	-11.5013
爲母	-11.5015
御風	-11.5015
移時	-11.5017
王君	-11.5018
在山	-11.5019
若諸	-11.5021
帝怒	-11.5021
用壯	-11.5022
人之生	-11.5023
感通	-11.5023
兩人	-11.5031
悅之	-11.5032
門内	-11.5038
變形	-11.5039
國祚	-11.504
朱氏	-11.5041
空空	-11.5042
而視之	-11.5046
乎雖然	-11.5047
上下相	-11.505
不得行	-11.505
可容	-11.505
不毀	-11.5051
君心	-11.5053
喜樂	-11.5054
靈章	-11.5057
矣雖然	-11.5059
願與	-11.5061
録曰按	-11.5061
不能免	-11.5061
禍亂	-11.5065
决不可	-11.5065
不散	-11.507
不除	-11.5071
國安民	-11.5071
改元	-11.5072
子欲	-11.5074
華光	-11.5075
世業	-11.508
大理	-11.508
君子觀	-11.5081
九子	-11.5083
分離	-11.5084
不存	-11.5085
所恃	-11.5093
傍有	-11.5094
風動	-11.5096
來迎	-11.5098
陽間	-11.5101
業報	-11.5101
篤於	-11.5101
之所不能	-11.5103
不能容	-11.5104
失位	-11.5113
自全	-11.5113
講學	-11.5115
兹者	-11.5115
先朝	-11.5115
信義	-11.5118
䘮其	-11.5118
去也	-11.512
顯名	-11.5123
欲識	-11.5124
未始不	-11.5124
千百年	-11.5125
之一字	-11.5126
並行	-11.5129
直入	-11.513
不自得	-11.513
或言	-11.513
止有	-11.5131
以我爲	-11.5134
少時	-11.5137
乎録曰	-11.5141
真形	-11.515
更爲	-11.5152
時老子降于	-11.516
歲在	-11.5161
歷年	-11.5163
以見其	-11.5165
吉而	-11.5166
豈直	-11.5167
微子	-11.517
眞香	-11.5172
此三者	-11.5173
如或	-11.5173
運動	-11.5175
名聞	-11.5176
山西	-11.5177
其政	-11.5177
五音	-11.5179
須知	-11.5181
巳午	-11.5182
月令	-11.5184
玄母	-11.5184
以道德	-11.5186
混一	-11.5188
則思	-11.5189
法事	-11.5195
風木	-11.5197
如子	-11.5198
獨處	-11.5199
魯人	-11.5199
藏其	-11.5201
一品	-11.5204
不處	-11.5206
君家	-11.5206
來徃	-11.5206
仙經	-11.5207
雲散	-11.5208
而存	-11.5211
自後	-11.5213
東風	-11.5216
稱心	-11.5216
吾君	-11.5216
異名	-11.5217
福祉	-11.5217
至期	-11.5217
之願	-11.522
自負	-11.5221
南遊	-11.5221
出焉	-11.5224
得喪	-11.5225
東至	-11.5228
木石	-11.5228
雲龍	-11.5229
察其	-11.5235
相照	-11.5237
高飛	-11.5238
少隂	-11.524
難遇	-11.5242
家世	-11.5242
三面	-11.5244
有嘉	-11.5246
怪之	-11.5248
一輪	-11.5249
總領	-11.5251
自合	-11.5255
悲哀	-11.5257
固當	-11.5259
必待	-11.526
于野	-11.5266
仰惟	-11.5267
白金	-11.5267
道之所	-11.527
用之以	-11.5271
雲漢	-11.5273
夏則	-11.5275
官職	-11.5276
雲開	-11.528
乃令	-11.5284
寅亥	-11.5287
並用	-11.5292
我何	-11.5294
雹	-11.5295
天地之道	-11.5304
百王	-11.5305
節氣	-11.5305
大將	-11.5305
不虛	-11.5306
其像	-11.5311
面如	-11.5312
守眞	-11.5314
六國	-11.5318
國事	-11.5323
莫道	-11.5324
不前	-11.5324
洞賔曰	-11.5324
之分野	-11.5325
正在	-11.5325
灾禍	-11.5336
惠子	-11.5337
難矣	-11.5338
伯魚	-11.5343
之過也	-11.5343
其職	-11.5345
大定	-11.5346
順德	-11.5355
北山	-11.5357
喪矣	-11.5359
鷟	-11.5359
品第	-11.5367
火龍	-11.5369
流金	-11.537
今歲	-11.5372
之罪也	-11.5373
相聞	-11.5376
頂西	-11.5383
不傾	-11.5387
難知	-11.539
舍人	-11.5392
非不知	-11.5393
衆多	-11.5394
神丹	-11.5399
功夫	-11.5401
其終也	-11.5403
沙界	-11.5406
六十五	-11.5409
不豫	-11.541
唐玄宗	-11.5421
君主	-11.5422
者何也	-11.5425
實非	-11.5425
靈源	-11.5427
前世	-11.5431
惡能	-11.5435
不審	-11.544
之羙	-11.544
宫辰星君	-11.544
爐中	-11.5441
好道	-11.5442
能如是	-11.5446
積功	-11.5448
神遊	-11.5452
所云	-11.5454
有命	-11.5456
離明	-11.5461
只爲	-11.5462
二宫	-11.5466
此等	-11.5467
東遊	-11.5473
親愛	-11.5475
凛	-11.5476
當空	-11.5478
喜得	-11.5484
亦是	-11.549
官屬	-11.5492
生化	-11.5494
同歸	-11.5495
弗及	-11.5497
本性	-11.5497
持節	-11.55
疑之	-11.5501
異常	-11.5502
又謂	-11.5504
南榮趎	-11.5505
兀术	-11.5506
江右之	-11.5507
贛	-11.5509
小人由是知	-11.5522
賜廟額曰	-11.5524
第九	-11.5525
立秋	-11.5525
年豐	-11.5526
不然則	-11.5527
鏤	-11.5528
出外	-11.5533
禋	-11.5533
清明天主	-11.5534
巳辰卯寅	-11.5535
亦未嘗	-11.5536
騂	-11.5536
之態	-11.5536
泡	-11.5536
襍	-11.5538
頋	-11.5539
楮	-11.554
之次在地則分野屬	-11.554
尖	-11.5541
杉	-11.5541
疋	-11.5541
箒	-11.5542
劬勞	-11.5542
軒冕	-11.5543
厘	-11.5543
狸	-11.5544
大寒	-11.5544
蕪	-11.5544
霆	-11.5544
摶	-11.5544
鳯凰	-11.5544
翌	-11.5544
古來	-11.5545
怍	-11.5545
皇太子	-11.5545
疊嶂	-11.5545
火沼	-11.5545
玉嵓	-11.5545
兀	-11.5545
琮	-11.5546
翛然	-11.5546
馥	-11.5546
潢	-11.5546
批	-11.5547
柒	-11.5547
之言曰	-11.5547
暘谷	-11.5547
靠	-11.5547
玖	-11.5547
㬋	-11.5547
吼	-11.5548
啾	-11.5548
綜	-11.5548
鰥	-11.5548
桃源	-11.5548
肱	-11.5548
沽	-11.5548
箴	-11.5548
歐陽脩	-11.5548
慿	-11.5548
龍口	-11.5549
怖	-11.5549
陌	-11.5549
旃	-11.5549
扞	-11.5549
将	-11.5549
受其殃	-11.5549
蜃	-11.555
綽	-11.555
彗	-11.555
陬	-11.555
沱	-11.555
湎	-11.555
喝	-11.555
獐	-11.555
黄婆	-11.5551
齧缺	-11.5551
愴	-11.5551
吕祖志	-11.5551
櫝	-11.5551
二千石	-11.5551
欎	-11.5551
諸天仙衆	-11.5552
杪	-11.5552
漠漠	-11.5552
玉清聖境	-11.5552
鞍	-11.5552
猬	-11.5552
月鼎	-11.5552
九天金闕明道達德大仙顯靈溥濟清微	-11.5553
玉皇上帝	-11.5553
性命之情	-11.5553
諉	-11.5553
閨	-11.5553
天河	-11.5553
後宫	-11.5553
人材	-11.5554
鈺	-11.5554
炁混元將軍	-11.5554
徘	-11.5554
純粹	-11.5554
臭腐	-11.5554
鑠	-11.5554
聰明正直	-11.5554
奭	-11.5554
潄	-11.5554
䖝	-11.5554
裾	-11.5555
疣	-11.5555
叉	-11.5555
朱熹	-11.5555
河流	-11.5555
遐齡	-11.5555
罩	-11.5555
劄	-11.5556
巡狩	-11.5556
圎	-11.5556
盱	-11.5556
緡	-11.5556
灝	-11.5556
褁	-11.5556
慊	-11.5556
詘	-11.5556
𨑰	-11.5556
薇	-11.5557
垂簾	-11.5557
穫	-11.5557
寤寐	-11.5557
已盡	-11.5557
躑躅	-11.5557
伏念某等	-11.5557
瘴	-11.5557
茨	-11.5557
枯骨	-11.5558
還家	-11.5558
㳟	-11.5558
五嶽四瀆	-11.5558
窅	-11.5558
有虞氏	-11.5558
翰苑	-11.5558
搜神記	-11.5558
偪	-11.5558
擺	-11.5558
迕	-11.5558
眥	-11.5559
燃燈	-11.5559
湍	-11.5559
懌	-11.5559
墀	-11.5559
𦵏	-11.5559
杲	-11.5559
駡	-11.556
痾	-11.556
𥝠	-11.556
雨暘	-11.556
蒼梧	-11.556
霾	-11.556
蠅	-11.556
錦袍	-11.5561
休戚	-11.5561
撤	-11.5561
騶	-11.5561
愆尤	-11.5561
觀者詳之	-11.5561
寥廓	-11.5561
囹圄	-11.5561
大厦	-11.5561
之分野屬	-11.5561
弗克	-11.5562
鉄	-11.5562
隼	-11.5562
彷	-11.5562
争訟	-11.5562
媾	-11.5562
暴虐	-11.5562
錢塘	-11.5562
炎炎	-11.5562
徐仙翰藻卷之	-11.5562
泣涕	-11.5563
姥	-11.5563
靖康	-11.5563
鞋	-11.5563
嗄	-11.5563
紫芝	-11.5563
雍熙	-11.5563
浮黎	-11.5563
吏部尚書	-11.5564
然後有	-11.5564
玄之又玄	-11.5564
閃閃	-11.5564
囂囂	-11.5565
丙丁	-11.5565
躬耕	-11.5565
思之還反真形夏三月	-11.5565
糜	-11.5565
欽哉制誥	-11.5565
枯楊	-11.5566
巡撫	-11.5566
燼	-11.5566
可不務	-11.5566
輔弼	-11.5566
縱横	-11.5567
崑	-11.5567
攫	-11.5567
㑹稽	-11.5567
藝祖	-11.5567
苐五十	-11.5567
遼東	-11.5567
樂毅	-11.5567
甦	-11.5568
(○/	-11.5568
許真君	-11.5568
與化俱	-11.5568
求官必達	-11.5568
樓閣	-11.5568
饑饉	-11.5568
汩	-11.5569
隹	-11.5569
三界十方	-11.557
大造	-11.557
巵	-11.557
甘霖	-11.557
磐石	-11.5571
棟梁	-11.5571
女人見之	-11.5571
廵撫都御史	-11.5571
罰二十拜若	-11.5571
年月日	-11.5571
穿鑿	-11.5572
貿	-11.5572
慶曆	-11.5572
躚	-11.5572
昭烈	-11.5573
頴士	-11.5573
侍御史	-11.5573
徽稱	-11.5573
奉符縣	-11.5573
祝融	-11.5573
綱紀	-11.5574
碑本作	-11.5574
安寍	-11.5574
解見前	-11.5575
肅肅	-11.5575
鉛汞	-11.5575
撫育	-11.5576
夢寐	-11.5576
群倫	-11.5576
之妖	-11.5578
張浚	-11.5578
三女	-11.5578
七竅	-11.5579
彖曰卯	-11.5579
樞機	-11.5581
吕翁	-11.5582
彖曰寅	-11.5582
事理	-11.5583
微茫	-11.5583
當是時	-11.5584
秃翁曰	-11.5585
濕土	-11.5585
采采	-11.5586
陟降	-11.5586
掌握	-11.5586
孔丘	-11.5587
之道當以	-11.5587
丹梯	-11.5587
腊	-11.5588
紀綱	-11.5588
萬卷	-11.5588
皇甫	-11.5588
章惇	-11.5589
魏徴	-11.559
寂滅	-11.559
鬼帥	-11.559
商賈	-11.5591
紫鳳	-11.5592
于物	-11.5592
犬馬	-11.5593
金匱	-11.5593
肩吾	-11.5594
商旅	-11.5595
爾雅	-11.5595
山頂	-11.5595
敷奏	-11.5595
丈人峰	-11.5596
敬以	-11.5596
危厲	-11.5596
寒露	-11.5597
温良	-11.56
少頃	-11.56
微塵	-11.56
王莽	-11.56
彖曰午	-11.56
消灾	-11.56
初七日	-11.5601
罪愆	-11.5603
彖曰申	-11.5603
軍旅	-11.5604
境界	-11.5604
白雲洞	-11.5605
皇考	-11.5605
陶氏	-11.5605
終南山	-11.5607
曰善哉	-11.5608
在卯	-11.561
横財	-11.5611
吕先生	-11.5611
字子	-11.5611
顯跡	-11.5612
二十餘年	-11.5613
吉甫	-11.5613
親戚	-11.5615
南唐	-11.5616
夕陽	-11.5616
惻然	-11.5616
聖道	-11.5618
鍊形	-11.5618
二公之	-11.5618
凶咎	-11.5618
端嚴	-11.5619
夢覺	-11.5619
是以大人	-11.562
鍾離	-11.562
兊口	-11.5623
明哲	-11.5623
落落	-11.5623
間隔	-11.5624
東鄰	-11.5624
神祇	-11.5624
弘濟	-11.5624
之道而	-11.5625
初生	-11.5625
恣其	-11.5625
無斁	-11.5625
朔望	-11.5627
苟免	-11.5628
此章	-11.5629
普告	-11.5629
斷碑	-11.5629
際會	-11.563
篤志	-11.563
數十萬	-11.563
於天地之間	-11.5631
困窮	-11.5631
孚化	-11.5631
昨日	-11.5632
四緑	-11.5633
朝謁	-11.5633
沙門	-11.5634
虚皇	-11.5635
仙翁	-11.5636
取諸	-11.5636
灾殃	-11.5636
輝光	-11.5637
青布	-11.5638
北嶽	-11.5639
不徒	-11.5639
某等	-11.5639
衛侯	-11.564
而藏之	-11.5641
後漢書	-11.5642
演法	-11.5642
其巧	-11.5642
滿室	-11.5643
帝乙	-11.5643
一人而已	-11.5645
郞中	-11.5646
二十一日	-11.5647
州治	-11.5647
堯舜之道	-11.5648
小天下	-11.5648
之爲物	-11.565
命之曰	-11.5652
尚祈	-11.5652
中庸曰	-11.5654
典章	-11.5654
與人同	-11.5656
終不能	-11.5657
而已故	-11.5657
慈愛	-11.5659
塊然	-11.566
仙童	-11.5661
一曲	-11.5661
平時	-11.5662
西嶽	-11.5662
隱顯	-11.5665
八荒	-11.5666
子獨	-11.5666
則休	-11.5666
三十里	-11.5667
巳申	-11.5668
斗母	-11.5668
切近	-11.5668
隂徳	-11.5669
人不識	-11.5669
萬品	-11.5669
殆盡	-11.567
流入	-11.5671
農夫	-11.5672
入垣	-11.5673
不具	-11.5674
壺中	-11.5674
宴樂	-11.5674
三郤	-11.5674
先公	-11.5675
碧雲	-11.5675
深慮	-11.5679
既醉	-11.5679
衣禄	-11.568
銀河	-11.5681
開悟	-11.5682
尊親	-11.5682
天下後世	-11.5685
龍德	-11.5685
衰老	-11.5686
諸界	-11.5687
四瀆	-11.5689
豁然	-11.5689
俯視	-11.5689
義士	-11.5691
大暑	-11.5691
第七	-11.5691
亦難	-11.5693
星君北斗	-11.5693
豐年	-11.5693
愛河	-11.5694
永貞	-11.5696
録曰孟子曰	-11.5697
所司	-11.5698
呈祥	-11.5698
得長生	-11.57
曰古者	-11.57
上真	-11.57
則天下無	-11.5701
三十六天	-11.5702
綱常	-11.5703
尤甚	-11.5706
住世	-11.5706
田財	-11.5706
一丸	-11.5706
具載	-11.5706
官爵	-11.5708
知幾	-11.5708
入蜀	-11.5709
嵐光	-11.571
初九日	-11.5712
大羅天	-11.5712
爲友	-11.5714
仁慈	-11.5716
聼之	-11.5717
遇吉星	-11.5717
世之士	-11.5718
演道	-11.5719
因循	-11.5719
廣運	-11.572
失却	-11.5726
不免于	-11.5728
靜坐	-11.5729
憂疑	-11.5729
十二色	-11.5731
凶憂	-11.5732
限量	-11.5736
遂成	-11.5736
仁政	-11.5737
未足爲	-11.5739
何愁	-11.5742
又安能	-11.5744
飛泉	-11.5744
玄微	-11.5746
名聲	-11.5749
不敢忘	-11.5749
存想	-11.5751
寅宫	-11.5752
畏之	-11.5752
禄馬	-11.5753
始見	-11.5753
山嶽	-11.5753
秀夫	-11.5754
卒無	-11.5754
殿中	-11.5757
所係	-11.5757
擇日	-11.5758
勃然	-11.5759
其弊	-11.576
斷障之	-11.5762
相仍	-11.5762
星家	-11.5763
夫子之言	-11.5764
宗室	-11.5766
題名	-11.5768
發財	-11.5769
萬壽	-11.5769
朝拜	-11.577
道里	-11.5771
白頭	-11.5771
仁厚	-11.5772
永世	-11.5775
哉郭註	-11.578
令名	-11.5781
英靈	-11.5782
毫光	-11.5782
貴顯	-11.5783
西施	-11.5784
有之矣	-11.5785
天魔	-11.5786
於夏	-11.5788
日月星辰	-11.579
其孰能	-11.5792
書生	-11.5792
不可用	-11.5793
孤雲	-11.5794
中丞	-11.5794
俱全	-11.5797
人有言	-11.5798
之主也	-11.5799
其詳	-11.58
大家	-11.5801
氣局	-11.5801
穆子	-11.5806
玉爐	-11.5806
傳世	-11.5809
入局	-11.581
立心	-11.5812
老矣	-11.5812
威光	-11.5819
之榮	-11.582
身安	-11.5821
六根	-11.5822
有餘而	-11.5823
權也	-11.5823
而不應	-11.5827
安期	-11.583
法駕	-11.583
定制	-11.5836
是名	-11.5836
天丁	-11.5837
華蓋	-11.5837
脫身	-11.5842
忠武	-11.5846
不憚	-11.5846
録曰孔子曰	-11.5848
大計	-11.5849
其德乃	-11.5849
立夏	-11.585
未明	-11.5853
好事者	-11.5854
弱水	-11.5857
滅火	-11.5859
妄作	-11.5861
洞淵	-11.5861
春秋左傳	-11.5862
哀哉	-11.5865
天關	-11.5869
則必有	-11.5871
吴主	-11.5872
一脉	-11.5873
稱制	-11.5876
九玄	-11.5879
九十四	-11.5879
千萬億	-11.588
一語	-11.588
而人不	-11.5881
大水	-11.5881
鹿鳴	-11.5882
師保	-11.5883
自新	-11.5885
五位	-11.5886
大道君	-11.5886
而與之	-11.5887
不中	-11.5888
觀音	-11.5891
仙班	-11.5891
年命	-11.5893
並立	-11.5894
以彰	-11.5896
天下太平	-11.5896
二十二年	-11.5897
出没	-11.5902
記云	-11.5904
累世	-11.5905
汝當	-11.591
爲證	-11.5916
十極	-11.5924
必使	-11.5926
子張	-11.5929
坎水	-11.5934
安靜	-11.5939
以防	-11.594
又何以	-11.5944
所寓	-11.5944
格言	-11.5947
圖書	-11.595
微微	-11.5955
公權	-11.5957
陽氣	-11.5959
將死	-11.596
兒女	-11.596
風行	-11.5964
動故	-11.5969
諷誦	-11.5969
各自有	-11.597
身後	-11.5973
育萬物	-11.5977
東極	-11.5977
亦不得	-11.5978
也及其	-11.5979
龍興	-11.598
乎抑	-11.598
列仙	-11.5982
行化	-11.5984
家事	-11.5994
上卿	-11.5995
眞持經	-11.5996
舜禹	-11.5996
猶恐	-11.5997
武夫	-11.5997
力辭	-11.5997
彼方	-11.5997
始青	-11.5998
等星	-11.5999
易服	-11.5999
西有	-11.6001
婦女	-11.6003
自陳	-11.6004
堯曰	-11.6008
到處	-11.6008
望見	-11.6009
聞聲	-11.6012
多事	-11.6014
離宫	-11.6015
調和	-11.6016
神之靈	-11.6017
咸得	-11.6017
哉雖然	-11.6018
天下之物	-11.6019
二八	-11.6021
妻曰	-11.6023
非所謂	-11.6026
也後世	-11.6031
節度	-11.6032
之大者	-11.6037
列于	-11.6038
上界	-11.6039
中秋	-11.604
恩愛	-11.6044
臣子	-11.6045
和樂	-11.6051
以是知	-11.6055
無待	-11.6059
仙靈	-11.6061
年月	-11.6061
勤行	-11.6061
懼其	-11.6061
其猶	-11.6061
上親	-11.6066
玄宫	-11.6068
之操	-11.607
善心	-11.6072
渡河	-11.6075
孚信	-11.6075
婦道	-11.6077
凡世	-11.6078
千卷	-11.6087
諸天帝	-11.6092
戰於	-11.6095
退居	-11.6097
先世	-11.61
神機	-11.61
相交	-11.6103
邵子	-11.6105
手把	-11.6109
泰山絶頂	-11.6112
消長	-11.6113
思念	-11.6115
雷神	-11.6116
還歸	-11.6117
得之矣	-11.6118
形名	-11.6122
至精	-11.6128
城門	-11.6129
所居之	-11.6129
大雪	-11.6129
漢中	-11.613
入海	-11.6131
六時	-11.6134
取義	-11.6137
齊桓公	-11.614
玄文	-11.614
也豈非	-11.6141
人之形	-11.6141
功徳	-11.6146
仙聖	-11.615
而雨	-11.6151
明靈	-11.6152
照破	-11.6156
伏羲之	-11.6158
財貨	-11.616
矣但	-11.6163
不臧	-11.6164
道力	-11.6164
高真	-11.6168
嘗問	-11.6171
楚人	-11.6174
清光	-11.6174
窮盡	-11.618
相接	-11.6181
五苦	-11.6189
不與物	-11.6191
南麓	-11.6191
不仕	-11.6195
發憤	-11.6196
各異	-11.6197
其業	-11.62
百八十	-11.6205
哉吾	-11.6206
不能止	-11.6209
禍患	-11.6213
後進	-11.6218
嶽頂	-11.6221
景德	-11.6222
登第	-11.6223
匪人	-11.6227
萬變	-11.6227
天下萬世	-11.6231
具在	-11.6232
其旁	-11.6238
井中	-11.6249
而不失其	-11.625
一對	-11.6252
又安得	-11.6254
眞宰	-11.6256
下愚	-11.6257
知音	-11.6257
大亨	-11.626
從政	-11.6262
妖魔	-11.6269
中流	-11.6279
天下之事	-11.628
初年	-11.6283
者四人	-11.6286
水流	-11.6288
何得	-11.6292
無停	-11.6293
何以故	-11.6294
進賢	-11.6294
按詩	-11.6296
以忠	-11.6296
及門	-11.6298
者物之	-11.6298
制作之	-11.6299
曾祖	-11.6307
己身	-11.6312
來去	-11.6315
詔書	-11.6318
舟行	-11.6321
不可解	-11.6322
容易	-11.6323
五華	-11.6325
一十九	-11.633
道之人	-11.6334
焉録曰愚觀	-11.6337
奉詔	-11.6338
辨之	-11.6338
而不可得	-11.6342
庸人	-11.6343
正殿	-11.6343
之迹也	-11.6351
科甲	-11.6353
任物	-11.6361
長年	-11.6362
樂道	-11.6363
一道人	-11.6367
玉童	-11.637
昭著	-11.6372
念此	-11.6377
彖曰子	-11.6377
作亂	-11.6377
非常之	-11.6377
何暇	-11.6379
黎庶	-11.638
眞實	-11.6381
不能忘	-11.6383
加姚	-11.6385
爾民	-11.6386
大江	-11.6386
也莊子曰	-11.6392
不言而	-11.6394
立冬	-11.6396
城南	-11.6398
又恐	-11.64
不驕	-11.6403
斡	-11.6405
上卷	-11.6406
遑	-11.6412
豈易	-11.6416
東門	-11.6422
諸臣	-11.643
曾聞	-11.6434
百千	-11.644
思之還反真形秋三月	-11.6451
光景	-11.6458
王后	-11.6462
文辭	-11.6464
何爲而	-11.6465
心齋	-11.6472
水木	-11.6475
未到	-11.6476
未有所	-11.6482
大敗	-11.6487
顆	-11.6488
復歸其	-11.6494
自照	-11.6497
不可行	-11.6498
經術	-11.6498
之神也	-11.6499
可否	-11.6505
官福	-11.6508
岱史	-11.6508
訣師曰	-11.6509
而吉氣正躔	-11.6511
在岳頂西	-11.6514
徐無鬼	-11.652
紇	-11.6523
鍾靈	-11.6523
戎狄	-11.6524
響應	-11.6524
明白	-11.6525
𥁞	-11.6526
相信	-11.6526
匕	-11.6527
瞞	-11.6528
縱橫	-11.6531
十二河源	-11.6532
靈丹	-11.6533
日久	-11.6533
慳	-11.6533
埏	-11.6534
脛	-11.6534
糴	-11.6534
神武	-11.6535
閟	-11.6537
岏	-11.6537
諄諄	-11.6537
苐三十	-11.6537
於唐	-11.6538
達人	-11.6539
文成侯	-11.6539
嗜慾	-11.6539
齚	-11.6539
蛙	-11.654
掬	-11.654
寅午戌	-11.654
蓆	-11.654
輹	-11.654
营	-11.6541
不退轉	-11.6541
逓	-11.6541
牂	-11.6541
無盡量	-11.6542
摹	-11.6542
螺	-11.6542
筋骨	-11.6543
貉	-11.6543
形形	-11.6543
儆	-11.6543
菌	-11.6543
商紂無道	-11.6543
帑	-11.6543
佗	-11.6544
身命居之者以	-11.6544
藪	-11.6545
藿	-11.6545
齋戒沐浴	-11.6545
國政	-11.6545
倅	-11.6546
誹謗	-11.6546
奴婢	-11.6546
耿耿	-11.6546
覇	-11.6547
螭	-11.6547
踊躍	-11.6547
瘟疫	-11.6547
慵	-11.6548
京兆尹	-11.6549
褚	-11.6549
坼	-11.6549
剩	-11.6549
何有於	-11.6549
憒	-11.6549
履危	-11.655
狐狸	-11.655
蜚	-11.655
翦	-11.655
層層	-11.655
駱	-11.655
劈	-11.655
穆穆	-11.655
高山流水	-11.655
哭星	-11.655
旂	-11.6551
瘵	-11.6551
吹簫	-11.6551
迺	-11.6551
河上公	-11.6551
娄	-11.6551
高峰	-11.6551
悽	-11.6551
肘後	-11.6551
犖	-11.6551
翺翔	-11.6551
蠻夷	-11.6552
餽	-11.6552
汁	-11.6552
驂	-11.6552
天尊衆和一聲志心皈命禮請	-11.6552
扆	-11.6553
伽	-11.6553
燋	-11.6553
障礙	-11.6553
柏	-11.6553
襦	-11.6553
里中廽真下映入兆	-11.6553
瘁	-11.6553
優劣	-11.6553
氓	-11.6553
祖父	-11.6554
塢	-11.6554
兌	-11.6554
組	-11.6554
髑髏	-11.6554
𥙷	-11.6554
𥿄	-11.6554
桴	-11.6554
者幾希	-11.6554
癸卯	-11.6554
瞑目	-11.6554
禹貢	-11.6554
笱	-11.6554
蓊	-11.6554
𣣔	-11.6554
皎	-11.6554
菓	-11.6555
户牖	-11.6555
長生乆視	-11.6555
矛	-11.6555
吠	-11.6555
景貺	-11.6555
渇	-11.6555
笥	-11.6555
渤海	-11.6555
真武下䧏	-11.6555
悴	-11.6556
蠢動	-11.6556
躋攀	-11.6556
隧	-11.6556
鴻毛	-11.6556
希哲	-11.6556
伊吕	-11.6556
此經䏻	-11.6556
煬	-11.6557
詈	-11.6557
寥寥	-11.6557
召赴闕	-11.6557
疾疫	-11.6557
灌溉	-11.6557
鬱鬱	-11.6558
棊	-11.6558
冉冉	-11.6558
怵	-11.6558
瑤	-11.6558
太子太保	-11.6558
繚繞	-11.6558
六甲生女	-11.6558
回馬嶺	-11.6558
牽纏	-11.6558
護持品	-11.6558
溟涬	-11.6558
苐二十	-11.6558
矚	-11.6559
膚寸	-11.6559
娯	-11.6559
逵	-11.6559
窈冥	-11.6559
束帶	-11.6559
萼	-11.6559
這箇	-11.6559
無爲而無不爲	-11.6559
如經故難遇設使	-11.6559
簽	-11.656
揲蓍	-11.656
匍匐	-11.656
釡	-11.656
羶	-11.656
涉川	-11.656
無註無妄	-11.656
斗柄	-11.656
涅槃	-11.656
榭	-11.656
者萬物之	-11.6561
臚	-11.6561
潯陽	-11.6561
茵	-11.6561
雨暘時若	-11.6561
民之心	-11.6561
錦繡	-11.6561
慟哭	-11.6561
醯	-11.6561
頰	-11.6561
歲男子土星女人火星	-11.6561
以私	-11.6562
瀛洲	-11.6562
迩	-11.6562
供飬	-11.6562
烟霧	-11.6562
僮	-11.6562
闥	-11.6562
嵌	-11.6562
玉笈	-11.6562
九天丈人	-11.6562
凾	-11.6563
憂惶	-11.6563
晡	-11.6563
靈妃玉女	-11.6563
蓍龜	-11.6563
鬧	-11.6563
罐	-11.6563
濓	-11.6563
年春正月	-11.6563
熒	-11.6564
予小子	-11.6564
伊誰	-11.6564
驚惶	-11.6564
揜	-11.6564
跣足	-11.6564
利見大人	-11.6564
仰荷	-11.6564
殯	-11.6565
曙色	-11.6565
郭子儀	-11.6565
封泰山禪	-11.6566
由此觀之	-11.6566
爲衆所	-11.6566
霜露	-11.6566
程正叔曰	-11.6566
咸淳	-11.6566
妙行真人	-11.6566
搖	-11.6566
者鮮矣	-11.6567
鷖	-11.6567
束帛	-11.6567
噉	-11.6567
利建侯	-11.6567
峩	-11.6567
荔	-11.6567
寰宇	-11.6568
稽首大光明王尊	-11.6568
襌	-11.6568
鮑叔	-11.6568
牽引	-11.6568
延陵季子	-11.6568
駰	-11.6568
庚辛	-11.6569
㝷	-11.6569
汲黯	-11.6569
絰	-11.6569
陳希夷	-11.6569
者甚衆	-11.657
皇經集註	-11.657
梁武帝	-11.657
整肅	-11.6571
上中下	-11.6571
和大光明王尊孔雀明王經消災保安寧	-11.6571
泌	-11.6572
羲聖	-11.6572
疫癘	-11.6572
閻羅	-11.6572
杳杳	-11.6572
九宸	-11.6573
秋七月	-11.6573
俛首	-11.6573
紫翠	-11.6573
璇	-11.6574
婚姻不成	-11.6574
未遑	-11.6574
漢文帝	-11.6574
闡揚	-11.6574
哀矜	-11.6574
械	-11.6575
曹操	-11.6575
懴悔	-11.6575
羊腸	-11.6575
壮	-11.6575
講習	-11.6575
紙筆	-11.6575
虚靖	-11.6576
鼓琴	-11.6576
佞人	-11.6576
禺	-11.6576
哀悲	-11.6576
苐六十	-11.6577
利艱貞	-11.6577
刼刼	-11.6578
麄	-11.6578
克艱	-11.6578
安期生	-11.6579
苐七十	-11.6579
尚不能	-11.6579
鶴氅	-11.6579
燧人	-11.6579
鑚	-11.658
芝蘭	-11.658
俶	-11.658
雙闕	-11.658
部八萬卷	-11.658
十七六十	-11.6581
擁護	-11.6581
羅網	-11.6581
儒術	-11.6582
管叔	-11.6582
魏徵	-11.6582
尸解	-11.6582
熙熙	-11.6583
酉亥	-11.6583
忠恕	-11.6583
壽域	-11.6583
律吕	-11.6584
户部	-11.6585
秉政	-11.6585
監齋	-11.6585
之愆免	-11.6585
四百餘年	-11.6586
殿閻君	-11.6586
碧霞經	-11.6586
霜雪	-11.6587
儉約	-11.6587
笻	-11.6588
東漢書	-11.6588
江陵	-11.6588
日出行者	-11.6588
延齡	-11.6589
胸中	-11.659
房杜	-11.659
妖氛	-11.659
不得已也	-11.6591
瓊臺	-11.6591
飢寒	-11.6591
反蘇註	-11.6591
導引	-11.6592
清净	-11.6592
悲鳴	-11.6593
愁苦	-11.6594
彖曰辰	-11.6594
指點	-11.6594
父母兄弟	-11.6594
秘密	-11.6595
無恙	-11.6595
觧脫	-11.6595
已明而	-11.6596
舉進士	-11.6596
交輝	-11.6596
此誠	-11.6596
煉丹	-11.6597
須憑	-11.6597
玄穹	-11.6597
十倍	-11.6598
旗龍	-11.6598
彭城	-11.6598
顔闔	-11.6598
療治	-11.6599
與天合	-11.6599
携手	-11.6599
玉牒	-11.6599
襄城	-11.66
根基	-11.66
思邈	-11.66
賢妃	-11.66
奕世	-11.66
録曰史稱	-11.6601
六藝	-11.6601
貞厲	-11.6601
佩玉	-11.6602
輔佐	-11.6602
真誥	-11.6604
伏乞	-11.6604
天下無道	-11.6604
姑息	-11.6605
晩年	-11.6606
雲集	-11.6606
年十八	-11.6606
萬頃	-11.6607
百川	-11.6608
玉帝功德	-11.6608
祠堂	-11.6608
雲逰	-11.6608
夀星	-11.6609
儼若	-11.6609
玉籙	-11.661
與月會於	-11.661
悠然	-11.6611
升中	-11.6611
酒肆	-11.6611
無碍	-11.6612
所以者何	-11.6613
丘陵	-11.6613
必死	-11.6613
雖欲不	-11.6614
粲然	-11.6614
權柄	-11.6614
廷臣	-11.6615
瑞旦	-11.6615
浮丘	-11.6616
值遇	-11.6616
褒封	-11.6617
泯然	-11.6617
季友	-11.6617
安其居	-11.6618
列侯	-11.6618
乘輿	-11.6618
翠華	-11.6618
羲皇	-11.6619
紫炁	-11.662
石室中	-11.6622
侵害	-11.6622
按史	-11.6623
雲霄	-11.6624
真炁	-11.6625
一無所	-11.6625
良縁	-11.6626
經筵	-11.6626
老子之言	-11.6627
勤苦	-11.6628
群峰	-11.6628
臨事	-11.6628
光彩	-11.6629
庶政	-11.6629
始于	-11.6629
善惡之	-11.6629
遷轉	-11.6629
絶壁	-11.6629
有客	-11.663
憲宗	-11.663
履歷	-11.663
乗龍	-11.663
亡羊	-11.663
卦辭	-11.663
碧虛	-11.663
青蛇	-11.6631
爲皇太子	-11.6632
降鑒	-11.6634
全德	-11.6636
敬仲	-11.6636
群魔	-11.6636
北闕	-11.6637
敬愼	-11.6637
哉録曰	-11.6637
黄現	-11.6637
故址	-11.6638
登髙	-11.6638
白雪	-11.6639
稱㫖	-11.6639
楊氏	-11.6639
賞賜	-11.664
保護	-11.664
持齋	-11.6641
朱子曰	-11.6642
白沙	-11.6642
坐卧	-11.6646
西海	-11.6647
慈濟	-11.6647
淫亂	-11.6647
無能勝	-11.6648
丹霄	-11.6649
不磨	-11.6649
私恩	-11.665
思議	-11.665
震驚	-11.6651
萬炁	-11.6653
身可也	-11.6653
谷客	-11.6655
數千里	-11.6656
天下國家	-11.6656
未判	-11.6658
懸絶	-11.6659
羽蓋	-11.6663
奇勝	-11.6664
之歌	-11.6664
管取	-11.6665
之辜	-11.6666
二篇	-11.6666
片言	-11.6667
青史	-11.6668
與天地同	-11.6669
執迷	-11.667
篤實	-11.667
孔老	-11.6671
扁曰	-11.6671
乞靈	-11.6671
朕以	-11.6671
楊州	-11.6672
厥靈	-11.6672
紛然	-11.6672
青鳥	-11.6673
高皇帝	-11.6675
當是時也	-11.6677
無辜	-11.6678
轉運	-11.6678
洞府	-11.6679
徃事	-11.668
近代	-11.6682
正信	-11.6683
數百人	-11.6684
公尸	-11.6685
蓋不但	-11.6685
无疑	-11.6688
碣石	-11.6688
東壁	-11.6689
悔過	-11.6689
攝受	-11.6691
安得而不	-11.6691
符投	-11.6692
拜謝	-11.6692
非凡	-11.6693
考功	-11.6693
稱揚	-11.6695
世衡	-11.6696
隨機	-11.6697
萬機	-11.6701
報施	-11.6705
漢封	-11.6707
引兵	-11.6707
嘉喜	-11.6708
召伯	-11.6708
刑害	-11.671
香客	-11.6711
蕩然	-11.6714
得其人	-11.6714
單于	-11.6714
勿論	-11.6716
廟庭	-11.6717
一則曰	-11.6718
彖曰未	-11.6718
執戒	-11.6718
泣下	-11.672
千乘	-11.6723
無所不在	-11.6726
元老	-11.6726
萬恭	-11.6727
主氣	-11.6729
哉然而	-11.673
大學士	-11.673
短命	-11.6731
駕龍	-11.6732
夜宿	-11.6733
眉山	-11.6735
子產	-11.6735
謁者	-11.6736
内觀	-11.6736
洞章	-11.6737
剛柔相	-11.6739
許氏	-11.6739
大略	-11.674
間斷	-11.674
已竟	-11.6742
降伏	-11.6744
性剛	-11.6748
品物	-11.6748
外夷	-11.6748
難逃	-11.675
元豐	-11.6751
服藥	-11.6752
海東	-11.6755
即以	-11.6758
溺死	-11.6759
直堂	-11.6759
色之光	-11.6759
百病	-11.6759
似道	-11.6764
云録曰	-11.6767
萬代	-11.6769
六卷	-11.6769
峽江	-11.6772
石表	-11.6772
嗣師	-11.6774
其母曰	-11.6774
唯知	-11.6776
永固	-11.6777
神通品十	-11.6778
有若無	-11.6778
化工	-11.6779
多憂	-11.6779
思之還反真形冬三月	-11.6783
不遵	-11.6783
天威	-11.6784
無能爲	-11.679
不了	-11.6791
故致	-11.6791
一箇	-11.6791
華陰	-11.6793
諸世界	-11.6794
說悅	-11.6796
黄華	-11.6797
兩忘	-11.6798
覺悟	-11.6798
牧羊	-11.68
山僧	-11.6802
謂人曰	-11.6807
玄關	-11.6809
不曾	-11.6809
繫辭	-11.6811
題主	-11.6811
渾然	-11.6812
引去	-11.6814
誰謂	-11.6815
混然	-11.6816
章表	-11.6817
此例	-11.6818
莫適	-11.6818
治病	-11.6818
而不用	-11.6818
人耳目	-11.682
諸軍	-11.6821
復召	-11.6823
德秀	-11.6823
孝敬	-11.6823
之福也	-11.6825
祠前	-11.6829
乎其間	-11.6829
録曰宋	-11.6831
晏子	-11.6831
也易曰	-11.6832
將恐	-11.6833
辰戌	-11.6833
豈若	-11.6837
于壁	-11.6838
聖智	-11.6838
不倦	-11.6841
九卿	-11.6843
上達	-11.6844
四卦	-11.6847
開寳	-11.6848
學仙	-11.685
海岱	-11.6851
指示	-11.6853
庇民	-11.6853
漢興	-11.6855
依舊	-11.6856
逆順	-11.6856
二黑	-11.6858
離離	-11.6858
數十年	-11.686
廣西	-11.6863
小學	-11.6868
可求	-11.687
簡公	-11.6872
列宿	-11.6872
引從	-11.6873
罪報	-11.6877
以至于	-11.6878
將何以	-11.6878
絶倫	-11.6889
全眞	-11.6889
河漢	-11.6892
奏聞	-11.6894
上帝命	-11.6894
五季	-11.6894
丹陽	-11.6895
歸路	-11.6896
愛惡	-11.6899
十號	-11.69
苟或	-11.69
官府	-11.6902
至親	-11.6903
未獲	-11.6904
武臣	-11.6904
家富	-11.6905
止扵	-11.6906
尚矣	-11.6906
音信	-11.6907
西華	-11.6915
古木	-11.6916
萬物生	-11.6917
交會	-11.6918
雨師	-11.6919
病矣	-11.6924
所關	-11.6924
而不能自	-11.6924
私意	-11.6927
畫卦	-11.6936
都來	-11.6938
以下皆	-11.6938
所部	-11.6944
聖像	-11.6944
年七十	-11.6945
獨尊	-11.6946
憂危	-11.6947
山半	-11.6948
普天	-11.695
求賢	-11.695
虚文	-11.6951
終古	-11.6956
不誠	-11.696
邪說	-11.6961
滿堂	-11.6963
智識	-11.6965
九載	-11.6967
四十二代天師	-11.6968
九陽	-11.6972
昂發	-11.6974
禮讓	-11.6974
慈尊	-11.6975
獨坐	-11.6975
雲外	-11.6975
國之君	-11.6977
隨意	-11.6977
凡遇	-11.6978
相率	-11.6979
俱亡	-11.6982
愚民	-11.6986
財寳	-11.6986
終南	-11.6992
自誓	-11.6993
誰是	-11.6996
而棄之	-11.7
十餘人	-11.7004
聖學	-11.7004
隂陽相	-11.7005
而遽	-11.7008
巳巳	-11.7013
葛藟	-11.7017
無怨	-11.7019
三里	-11.702
禁中	-11.702
即便	-11.7026
昔日	-11.7027
美矣	-11.7027
期年	-11.7029
生旺	-11.7029
卿雲	-11.7033
古公	-11.7043
他時	-11.7046
非敢	-11.7047
章帝	-11.7047
无妄之	-11.7047
石徑	-11.7048
便欲	-11.7052
易字	-11.7053
曉日	-11.7057
里受持五戒十善得生其中其第	-11.7057
無故而	-11.7058
孝公	-11.7061
平和	-11.7062
心術	-11.7069
而不知所	-11.7076
用之則	-11.7083
易易	-11.7085
吴人	-11.7086
丑未	-11.7089
有愧	-11.7095
靡有	-11.7095
六十三	-11.7096
已徃	-11.7098
精兵	-11.7102
仙源	-11.7104
帝崩	-11.7106
壁上	-11.7109
度衆生	-11.7113
遂棄	-11.7118
天淵	-11.7118
於予予	-11.7121
於晋	-11.7122
守靜	-11.7127
既平	-11.7135
不停	-11.7138
而况於	-11.7139
不然何	-11.7143
嗣子	-11.7144
新法	-11.7146
累日	-11.7146
夫是而	-11.7149
强暴	-11.7151
數月	-11.7151
聖師	-11.7151
未絶	-11.7153
若是則	-11.7159
舊典	-11.7163
蒼天	-11.7169
惡口	-11.7171
玄天上帝感應靈籤第	-11.7174
福澤	-11.7175
二三四	-11.7182
辰巳	-11.7184
生物之	-11.7189
玄女	-11.7189
叔子	-11.7189
嫌其	-11.719
樂無憂	-11.719
不返	-11.7192
物各有	-11.7197
文靖	-11.7199
(□/	-11.72
著于	-11.7208
恒山	-11.7211
雲端	-11.7213
所薦	-11.7213
應聲	-11.7214
片雲	-11.7217
高宗之	-11.7218
祀焉	-11.7222
外内	-11.7223
豈謂	-11.7224
應驗品續二十	-11.7235
老夫	-11.7236
文詞	-11.7237
三十二天	-11.7238
蓬玄	-11.7247
大悟	-11.7249
泰然	-11.7253
不出於	-11.7255
而致之	-11.7257
孫公	-11.7258
戌亥	-11.7268
不出乎	-11.727
知之矣	-11.7272
帝即位	-11.7273
即所謂	-11.7273
其墓	-11.7274
始祖	-11.7274
福州	-11.7276
聞說	-11.7288
不與焉	-11.7293
仙骨	-11.7294
殷人	-11.7301
初度	-11.7309
靈秀	-11.7311
虞舜	-11.7315
奉使	-11.7315
内卦	-11.7316
不省	-11.7317
既知	-11.7321
禮宜	-11.7321
各以其	-11.7323
隂德	-11.7326
得其道	-11.7328
按春秋魯	-11.7329
尾初	-11.7333
以天下爲	-11.7334
雖聖人	-11.7341
玄通	-11.7349
朝朝	-11.7349
福厚	-11.735
爲咎	-11.7353
天尊曰	-11.7353
左丞	-11.7366
閩中	-11.737
東皇	-11.7372
天庭	-11.7372
而使之	-11.7374
整衣	-11.7377
驅邪	-11.7378
池水	-11.7379
按古	-11.7384
玄孫	-11.7388
君子之道	-11.7392
貞元	-11.7395
有㫖	-11.7407
空虛	-11.7416
觀其所	-11.7435
道童	-11.7446
太伯	-11.7454
時節	-11.7462
盍不	-11.7463
沖破	-11.7468
豈容	-11.7477
十餘萬	-11.7482
致治	-11.7484
妙應仁惠輔國佑民隆福洪恩眞君	-11.7485
精光	-11.7485
南華	-11.749
流蕩	-11.7499
無徃不	-11.75
勢利	-11.7505
年歳	-11.7511
其一在	-11.7521
不云乎	-11.7522
曰筮	-11.7524
稱讃	-11.7525
峯頭	-11.7525
鬼落	-11.7527
八七	-11.7535
城東	-11.754
孰可	-11.755
逹於	-11.7552
甚明	-11.7559
十善	-11.7574
七卷	-11.7576
無心者	-11.7588
受罪	-11.7602
粲	-11.7603
直前	-11.7607
無鞅數衆	-11.7608
紫晨	-11.7612
紘	-11.7617
西京	-11.7617
天地日月	-11.7619
問疾	-11.7622
踴	-11.7624
日喜神東北貴神	-11.7624
道統	-11.7626
仔細	-11.7628
輿尸	-11.7633
軟	-11.7634
曹子	-11.7635
斟	-11.7636
跣	-11.7637
無疾	-11.7637
駝	-11.764
褒姒	-11.764
淋	-11.7641
玉字	-11.7642
鬛	-11.7642
荃	-11.7643
肚	-11.7643
曰善哉善哉	-11.7644
揉	-11.7645
曰始作	-11.7645
餘倣此	-11.7646
霓	-11.7646
鬰	-11.7647
只此	-11.7647
黿	-11.7647
塡	-11.7648
玲瓏	-11.7648
鉏	-11.7648
上古之	-11.7648
鵰	-11.7648
缾	-11.7649
抃	-11.7649
謄	-11.7649
𢡖	-11.7649
婺	-11.7649
鎔	-11.765
攔	-11.765
譁	-11.7651
瞬	-11.7651
疽	-11.7651
臟	-11.7652
𦕈	-11.7652
犇	-11.7652
㣧	-11.7652
長太息	-11.7653
三惡道	-11.7653
舉孝廉	-11.7653
過峽	-11.7653
坵	-11.7653
淳熙	-11.7653
磯	-11.7653
纉	-11.7653
釋之者曰	-11.7653
髠	-11.7653
炤	-11.7654
竑	-11.7654
秃	-11.7654
稠	-11.7655
貟	-11.7655
俎	-11.7655
誳	-11.7655
臝	-11.7655
犬吠	-11.7656
鯤	-11.7656
書禹貢	-11.7656
𨽻	-11.7656
濺	-11.7656
凑	-11.7656
糗	-11.7656
螽	-11.7656
燾	-11.7656
鈔	-11.7656
郡太守	-11.7657
勘	-11.7657
保釐	-11.7657
不給	-11.7657
痼	-11.7657
芬芳	-11.7657
熬	-11.7658
簒	-11.7659
疥	-11.7659
會眞宫	-11.7659
懶	-11.7659
烹煎	-11.7659
猴	-11.7659
濟生度死	-11.7659
灑掃	-11.7659
淸	-11.7659
兵部尚書	-11.766
蝟	-11.766
端的	-11.766
愜	-11.766
稟	-11.766
綜理	-11.766
衮冕	-11.766
晞	-11.7661
窈	-11.7661
妙法蓮華經	-11.7661
僑	-11.7661
甄	-11.7661
様	-11.7662
巉	-11.7662
飡	-11.7662
汪本鈳曰	-11.7662
羖	-11.7662
金木水火土	-11.7662
厢	-11.7662
㛰	-11.7662
霹靂	-11.7662
修道之士	-11.7663
剌	-11.7663
昱	-11.7663
𤼵	-11.7663
夏后氏	-11.7663
團圓	-11.7663
受大福	-11.7663
最上一乘	-11.7663
卬	-11.7664
桃花峪	-11.7664
蘧	-11.7664
𦎟	-11.7664
北隂下䧏	-11.7664
蚓	-11.7664
幹父之蠱	-11.7664
籲	-11.7664
葛仙翁	-11.7665
斧鉞	-11.7665
夫音符	-11.7665
啓請地府	-11.7665
雁	-11.7665
汹	-11.7665
撞	-11.7665
勅勅	-11.7666
天宫玉女	-11.7666
清靜無爲	-11.7666
糟	-11.7666
莆	-11.7667
立生祠	-11.7667
耆老	-11.7667
無註无妄	-11.7667
掾	-11.7667
繳	-11.7667
䆒	-11.7667
玻	-11.7667
晋獻公	-11.7667
髦	-11.7667
甑	-11.7667
怠慢	-11.7668
嘏	-11.7668
參知政事	-11.7668
好生之德	-11.7668
隋文帝	-11.7668
魘	-11.7669
合拱	-11.7669
再拜稽首	-11.7669
觀經者	-11.7669
鍼	-11.7669
穗	-11.767
㓜	-11.767
煌	-11.767
隈	-11.767
憧憧	-11.767
禾稼	-11.767
十方世界	-11.767
终	-11.767
悛	-11.7671
璽書	-11.7671
元符	-11.7671
貪嗔	-11.7671
娟	-11.7671
羊祜	-11.7671
彥	-11.7671
樗	-11.7671
輜	-11.7671
𧇊	-11.7671
明恕	-11.7672
氊	-11.7672
几案	-11.7672
賒	-11.7672
套	-11.7672
喙	-11.7672
懟	-11.7672
榮華富貴	-11.7672
𦖟	-11.7672
提點	-11.7673
煌煌	-11.7673
琪	-11.7673
牆	-11.7673
稷契	-11.7673
媛	-11.7673
歲男子太隂星女人金星	-11.7673
靴	-11.7673
荒蕪	-11.7674
闔闢	-11.7674
中㣲祝曰	-11.7674
厮	-11.7674
遨	-11.7674
虎嘯	-11.7674
楊廷秀曰	-11.7674
曇	-11.7674
修之九年	-11.7674
禳灾	-11.7674
鄂	-11.7674
登進士	-11.7675
絮	-11.7675
凍餒	-11.7675
封泰山禪云云	-11.7675
不可以不察也	-11.7675
白日上昇	-11.7675
巴蜀	-11.7675
啞	-11.7676
义	-11.7676
泝	-11.7676
右第二十	-11.7676
曰妾聞	-11.7676
同日語哉	-11.7676
即皇帝位	-11.7676
草莽	-11.7678
閭里	-11.7678
騖	-11.7678
瞀	-11.7678
金汝白曰	-11.7678
戊戌	-11.7678
躅	-11.7678
曦	-11.7678
呌	-11.7678
檀越	-11.7678
延頸	-11.7678
西狩	-11.7678
穰	-11.7679
敷揚	-11.7679
歙	-11.7679
𥘉八日	-11.7679
鬼魅	-11.7679
髣髴	-11.7679
詒	-11.7679
逐狐	-11.7679
涌	-11.7679
楝	-11.768
東萊	-11.768
匹夫匹婦	-11.768
昧爽	-11.768
悶悶	-11.768
遭時	-11.7681
暦	-11.7681
爲民害	-11.7681
緑衣	-11.7681
苐四十	-11.7681
之所致也	-11.7682
姻親	-11.7682
零落	-11.7682
爭奈	-11.7682
靡靡	-11.7682
攷證	-11.7682
麻衣	-11.7682
飛行上清	-11.7683
夷夏之	-11.7683
瑄	-11.7683
靈濟眞君	-11.7683
浩劫	-11.7683
申状	-11.7684
蕡	-11.7684
農桑	-11.7684
寳瓶	-11.7684
蒼翠	-11.7684
頓悟	-11.7684
五老上帝	-11.7684
血湖	-11.7684
堯舜禹湯	-11.7685
百骸	-11.7685
司農	-11.7685
漸也貞觀初	-11.7685
祠官	-11.7685
觔	-11.7685
護衛	-11.7686
氷雪	-11.7686
魯哀公	-11.7686
傾頽	-11.7686
譬猶	-11.7686
户部尚書	-11.7686
荆棘	-11.7687
壷	-11.7687
籬	-11.7687
對曰陛下	-11.7687
芝草	-11.7687
曰此兒	-11.7687
知識	-11.7688
侵凌	-11.7688
宣尼	-11.7688
彖曰戌	-11.7688
無可無不可	-11.7688
福善禍淫	-11.7688
淩	-11.7688
滔滔	-11.7688
輙敢	-11.7688
則有時而	-11.7689
又五里至	-11.7689
文中子	-11.7689
蔬食	-11.7689
泚	-11.769
玄圃	-11.769
等項	-11.769
登封臺	-11.769
怛	-11.7691
太嵗一星	-11.7691
仍名曰	-11.7691
梅花	-11.7691
絶巘	-11.7691
釵	-11.7691
咥	-11.7691
萬籟	-11.7692
屹立	-11.7692
欺罔	-11.7694
是持經人	-11.7694
仰天而	-11.7695
雨霽	-11.7695
娑	-11.7695
海底	-11.7695
夀考	-11.7695
樞要	-11.7695
里社	-11.7696
岌	-11.7697
寵辱	-11.7697
離地獄	-11.7697
謙讓	-11.7698
史册	-11.7698
仰干	-11.7698
幽暗	-11.7701
稜	-11.7702
本始	-11.7703
幹蠱	-11.7703
嫌疑	-11.7704
枋得	-11.7704
滔天	-11.7704
爲名臣	-11.7705
儲精	-11.7705
一人執	-11.7705
韓非作	-11.7705
莫敖	-11.7706
父子之間	-11.7706
馳逐	-11.7706
功德品	-11.7706
玉皇祠	-11.7707
宰輔	-11.7707
各世界	-11.7707
東王公	-11.7709
鎭星	-11.7709
刑戮	-11.771
布帛	-11.771
爲己任	-11.771
教誨	-11.771
二與五	-11.771
王欽若	-11.7711
太倉	-11.7711
獄訟	-11.7711
今之人	-11.7711
魯大夫	-11.7713
虛耗	-11.7713
之炁為	-11.7714
澄清	-11.7714
磨滅	-11.7715
族屬	-11.7718
舟次	-11.7718
殺盗	-11.7718
歷試	-11.7719
踰年	-11.772
康齋	-11.772
守令	-11.772
綱目	-11.7721
學校	-11.7722
吴楚	-11.7722
未始有始	-11.7723
浸長	-11.7723
韓愈	-11.7723
潜伏	-11.7724
香燈	-11.7725
白銀	-11.7727
經緯	-11.7727
顯著	-11.7727
鴻蒙	-11.7727
電光	-11.7728
王喬	-11.7728
老翁	-11.7728
落魄	-11.7729
發揮	-11.7729
兊澤	-11.7729
苐十	-11.7729
君臣之間	-11.7729
頻復	-11.7729
五藴	-11.7729
峯白湖郭廙	-11.7729
東郭	-11.7729
申亥	-11.773
神通品二十	-11.7731
保佑	-11.7731
君臣之義	-11.7732
胡越	-11.7732
辰酉	-11.7733
潭州	-11.7733
曲折	-11.7734
官員	-11.7735
洞賔遊	-11.7735
數世	-11.7735
體道者	-11.7736
寳籙	-11.7736
怡然	-11.7737
千巖	-11.7737
紹聖	-11.7738
封禪壇	-11.7738
班固	-11.7738
嶽府	-11.7739
湧出	-11.774
真宰	-11.774
康伯	-11.7741
胡爲乎	-11.7741
吾恐	-11.7741
每每	-11.7741
十有八	-11.7741
小雅	-11.7741
凈土	-11.7742
汶水	-11.7742
門閭	-11.7743
猖狂	-11.7743
目擊	-11.7744
西域	-11.7744
品類	-11.7744
孝婦	-11.7745
九竅	-11.7745
蹶然	-11.7745
移徒	-11.7745
砂水	-11.7746
察察	-11.7746
失律	-11.7746
仙閭	-11.775
只要	-11.775
耶抑	-11.775
言之也	-11.7751
十五十三	-11.7751
詞章	-11.7752
祗奉	-11.7753
良辰	-11.7753
八㑹	-11.7754
未暇	-11.7754
玄覽	-11.7754
御極	-11.7756
畜生道	-11.7757
浮圖	-11.7757
乙已	-11.7757
唯唯	-11.7759
其迹則	-11.776
刼運	-11.776
不可及也	-11.7761
青童	-11.7762
歩象	-11.7763
破敗	-11.7763
堅强	-11.7763
農民	-11.7764
鄰國	-11.7765
二十九日	-11.7766
炎帝	-11.7766
絶糧	-11.7766
勝負	-11.7766
不敢辭	-11.7768
眼目	-11.7768
仲春	-11.7768
朕懷	-11.7771
大龍王廣	-11.7772
瞻望	-11.7773
黑白	-11.7774
觀日出	-11.7776
十干	-11.7776
身命坐	-11.7776
忠貞	-11.7777
高辛	-11.7777
六律	-11.7778
衣帶	-11.7778
己卯	-11.778
不思議	-11.778
小腸	-11.7781
同清凈	-11.7781
咸聽	-11.7782
求醫	-11.7784
火候	-11.7784
絶塵	-11.7784
上下交	-11.7784
北走	-11.7785
小雪	-11.7785
姓氏	-11.7786
冠履	-11.7788
安逸	-11.7788
所忌	-11.7788
天下有道	-11.7789
兩邊	-11.7789
僕從	-11.779
王霸	-11.779
无敢	-11.779
再召	-11.7791
業趣	-11.7792
陰氣	-11.7792
輔政	-11.7792
胡氏	-11.7794
奇花	-11.7795
儒學	-11.7796
泰伯	-11.7796
一周天	-11.7797
唐堯	-11.7798
玄天上帝感應靈籤第三十	-11.7799
仕宦	-11.78
七曜	-11.7801
絶筆	-11.7801
劉向	-11.7802
而新之	-11.7802
不敢近	-11.7803
助侯	-11.7803
遥望	-11.7804
皇祖	-11.7805
配合	-11.7806
真經	-11.7806
弘深	-11.7806
損害	-11.7807
人所難	-11.7807
乆長	-11.7808
用伸	-11.7808
貞吉象曰	-11.7809
濯足	-11.7809
得其眞	-11.781
清源	-11.7811
可不謂	-11.7812
何敢	-11.7813
後裔	-11.7816
皆道也	-11.7817
現形	-11.7819
仙仗	-11.7819
夷齊	-11.782
吾與之	-11.782
紫衣	-11.7822
未嘗有所	-11.7823
巨石	-11.7823
靈巖	-11.7823
存問	-11.7824
孝謹	-11.7824
廢興	-11.7825
差官	-11.7825
郡國	-11.7826
四鄰	-11.7827
長驅	-11.7828
相續	-11.7828
守護	-11.7829
扦之	-11.783
何忍	-11.783
沛然	-11.783
靈驗	-11.7831
和鳴	-11.7831
充實	-11.7831
興廢	-11.7831
古昔	-11.7832
奪其一	-11.7833
釋教	-11.7835
大天宫	-11.7835
陜西	-11.7835
多寡	-11.7835
易姓	-11.7835
慈母	-11.7838
蕭然	-11.7838
甲子起	-11.7838
谷風	-11.7838
機會	-11.784
有人焉	-11.784
若鏡	-11.784
下堂	-11.7841
彌遠	-11.7841
亦如之	-11.7842
頂禮	-11.7843
而不顧	-11.7844
别號	-11.7845
之類皆	-11.7846
增福	-11.7849
林宗	-11.785
侍女	-11.7851
何罪	-11.7852
遊泰山	-11.7854
解散	-11.7855
限逢之	-11.7856
誠恐	-11.7857
惕然	-11.7857
子般	-11.7857
謹守	-11.7858
精魂	-11.7859
君人者	-11.786
更新	-11.7862
火輪	-11.7863
寡欲	-11.7865
脩建	-11.7866
小滿	-11.7867
動必	-11.7868
赤龍	-11.7869
繼先	-11.7875
未曉	-11.7875
忘其所	-11.7876
咸稱	-11.7877
生天上	-11.7878
改封	-11.7878
萬類	-11.7879
寧宗	-11.7883
每遇	-11.7885
氣候	-11.7886
奉符	-11.7887
九變	-11.7887
煉成	-11.7888
在泰山	-11.7888
本根	-11.7891
民庶	-11.7892
邦國	-11.7892
繫於	-11.7893
保汝	-11.7893
可辨	-11.7894
憂凶	-11.7895
神王大	-11.7896
勿失	-11.7896
惟謹	-11.7902
酒色	-11.7907
代代	-11.7909
難尋	-11.7911
月餘	-11.7913
每年	-11.7914
輕舉	-11.7915
以金爲	-11.7919
人君之	-11.792
殿内	-11.7926
有天下者	-11.7926
江漢	-11.7927
止而不	-11.7928
遇害	-11.7928
衆陽	-11.793
宣聖	-11.7932
不壊	-11.7932
役夫	-11.7933
何人哉	-11.7936
保全	-11.7943
無所不至	-11.7945
常恐	-11.7947
樵人	-11.7949
縱使	-11.7949
八表	-11.7951
異姓	-11.7952
刑異	-11.7954
春秋魯昭公	-11.7955
華隂	-11.7956
傳舍	-11.7958
不敬天地	-11.7959
黄衣	-11.796
取象	-11.796
矣而猶	-11.7962
知足者	-11.7965
無耻	-11.7965
青白	-11.7966
伏地	-11.7967
三昧	-11.797
鈞天	-11.7973
今之世	-11.7973
損己	-11.7977
玉府	-11.7978
奏樂	-11.7979
厥德	-11.798
行方便	-11.7981
必湏	-11.7983
憂懼	-11.7985
歲星	-11.799
謹奉	-11.799
内助	-11.799
變化之道	-11.7993
徐州	-11.8001
玉音	-11.8005
全真	-11.8012
陽虎	-11.8013
一日忽	-11.8013
百物	-11.8016
曰議	-11.8023
視彼	-11.803
二百里	-11.8032
百口	-11.8032
不復見	-11.8039
九皇	-11.8041
仙侣	-11.8041
而讀之	-11.8043
災祥	-11.805
大闡	-11.8051
人皆曰	-11.8052
在丑	-11.8053
如其言	-11.8053
精邪	-11.8054
道本無	-11.8056
事上帝	-11.8056
諸路	-11.8057
三碧	-11.806
開口	-11.806
靜處	-11.806
録曰孔子	-11.806
又不但	-11.8062
方許	-11.8064
證聖	-11.8065
夾道	-11.8067
而今也	-11.8068
矣豈非	-11.8072
别去	-11.8074
雖殊	-11.8077
聖人之所以	-11.8082
日輪	-11.8084
誰復	-11.8085
盤旋	-11.8088
一世之	-11.8091
子輿	-11.8093
授受	-11.8094
篤行	-11.8099
變革	-11.8099
何許	-11.8107
提舉	-11.8109
青陽	-11.8112
利澤	-11.8113
欲速	-11.8114
字士	-11.8114
傾心	-11.8116
塵凡	-11.8118
方列	-11.8118
先祖	-11.8119
老親	-11.8121
兩間	-11.8122
皆出於	-11.8125
而後可以	-11.8126
王姬	-11.8129
曰昔者	-11.8134
舊例	-11.8134
之力也	-11.8136
皆有所	-11.8136
平聲	-11.8144
西望	-11.8146
生産	-11.8147
王曾	-11.8152
白衣	-11.8152
而不失	-11.8158
稱之曰	-11.816
報祀	-11.8163
入口	-11.8165
暗中	-11.8165
最高	-11.8168
之末也	-11.8172
縱欲	-11.8173
受學	-11.8174
岱史第十	-11.8179
無爲謂	-11.818
如天之	-11.8184
趙王	-11.8187
莫問	-11.8187
圖經	-11.8188
詩篇名	-11.819
感應之	-11.8196
兩教	-11.8199
爾祖	-11.82
字仲	-11.8202
歸于齊	-11.8202
舉足	-11.8207
在亥	-11.8207
何由而	-11.8219
賜勑	-11.822
儒道	-11.8222
凌霄	-11.8225
均蒙	-11.8226
隱公	-11.8236
下卷	-11.8255
言而信	-11.8257
亦不過	-11.8266
通神明	-11.827
玉篇	-11.8271
在酉	-11.8273
了然	-11.8278
又况	-11.8279
止息	-11.8287
統天	-11.8289
人莫之	-11.8292
可與言	-11.8297
因其自	-11.8298
來到	-11.8299
語之曰	-11.83
獨任	-11.8309
自給	-11.8312
近世	-11.8313
畏死	-11.832
灾難	-11.8323
億劫	-11.8326
形勢	-11.8351
寅辰	-11.8361
相逐	-11.8362
佛家	-11.8376
召問	-11.8377
盡忠	-11.8381
里受持五戒十善得生其中其第十	-11.8391
兵馬無鞅	-11.8396
南望	-11.8396
霄漢	-11.8397
五十年	-11.84
歸期	-11.8402
百家之	-11.8406
碧桃	-11.8406
余嘗	-11.8411
又何必	-11.842
物無不	-11.8432
狄人	-11.8435
後嗣	-11.8455
最尊	-11.8465
坦然	-11.8467
無乎不	-11.8476
因物	-11.8483
好古	-11.8492
紫清	-11.8497
更張	-11.8502
神化之	-11.8509
任之則	-11.8517
扵己	-11.8525
而後得	-11.8554
不得謂之	-11.8577
星名曰	-11.8581
勑諭	-11.8589
忘己	-11.8593
鍾山	-11.8603
小兆	-11.8608
老子翼卷之	-11.861
哉觀	-11.8613
十六字	-11.8616
貞固	-11.863
虞書	-11.8633
眞境	-11.8647
丹藥	-11.8654
濟南府	-11.8668
卷之三	-11.8668
欽奉	-11.867
一法官職列	-11.8681
夜夢	-11.8683
也是其	-11.8695
仙境	-11.8697
不捨	-11.8718
禍災	-11.8724
守節	-11.8732
其所不能	-11.8734
榮貴	-11.8743
日午時	-11.8744
十八星	-11.875
易林卷第十	-11.8757
北斗下䧏	-11.8758
甚盛	-11.8759
紅光	-11.8766
奇絶	-11.8769
以下至	-11.8772
光映	-11.8778
應驗品續十	-11.8781
流沙	-11.8786
加杖	-11.8799
州牧	-11.881
無滯	-11.8812
照身命	-11.8819
妙香	-11.8819
於物而	-11.8826
傳註	-11.8834
妙景	-11.8839
久居	-11.8844
養育	-11.8848
業根	-11.8855
也今觀	-11.886
翊衛	-11.8864
四季月	-11.8866
立廟於	-11.8866
之次者官禄多在	-11.8868
吕望	-11.8868
酉戌亥	-11.8869
岳祠	-11.8876
臨御	-11.8877
埴	-11.8879
瑾	-11.888
辰戌丑未	-11.8881
塲	-11.8881
侍宸	-11.8883
諤	-11.8886
翥	-11.8886
磁	-11.8887
量天尺	-11.8887
湊	-11.8887
樞紐	-11.8887
懦	-11.8888
玉匣記	-11.8889
衣禄足	-11.889
蛛	-11.8892
鴻鴈	-11.8893
祭告	-11.8893
難得之貨	-11.8893
鴆	-11.8894
元永貞	-11.8894
樊遲	-11.8895
埒	-11.8896
三代以下	-11.8896
豚魚	-11.8896
中巽震坤坎離艮兊	-11.8896
韓彭	-11.8896
殻	-11.8896
瞢	-11.8896
管見云人	-11.8897
禮義廉耻	-11.8897
衾	-11.8897
泗州	-11.8898
校尉	-11.8898
歧	-11.8898
書舜典	-11.8898
刋	-11.8899
婆娑	-11.8899
楯	-11.8899
塜	-11.8899
之爲卦也	-11.89
耒	-11.89
餼	-11.89
閻	-11.89
子午卯酉	-11.8901
瓌	-11.8901
專氣致柔	-11.8901
牡	-11.8901
凄	-11.8901
痒	-11.8901
匝	-11.8901
忘身	-11.8901
汯	-11.8902
巖巖亭	-11.8902
叔孫氏之	-11.8902
蹷	-11.8902
蓼	-11.8902
榷	-11.8903
膾	-11.8903
陶弘景	-11.8903
踊	-11.8903
者徒二年	-11.8903
佯	-11.8903
鼎沸	-11.8903
廕	-11.8903
鹵莽	-11.8903
拄杖	-11.8904
申酉戍	-11.8904
大中祥符	-11.8904
隤	-11.8904
歘	-11.8905
糊	-11.8905
欝欝	-11.8905
嵗會天符	-11.8905
之象恭聞	-11.8905
阡陌	-11.8905
茀	-11.8906
巫祝	-11.8906
芝嶼	-11.8906
烜赫	-11.8906
璣	-11.8906
玆	-11.8906
卹	-11.8906
悔亡象曰	-11.8907
摭	-11.8907
痼疾	-11.8907
凱	-11.8907
蠟	-11.8907
穰穰	-11.8907
醮於朝天宫	-11.8907
以求大道玄或有諸仙子	-11.8907
獰	-11.8907
一切威靈符命所臨如誥奉行	-11.8908
駑	-11.8908
憔悴	-11.8908
餔	-11.8908
囘	-11.8908
驚蟄	-11.8909
不知何許人	-11.8909
宄	-11.8909
弢	-11.8909
炬	-11.8909
陡	-11.8909
耘	-11.8909
擾擾	-11.8909
夬夬	-11.8909
觀音保	-11.8909
矰	-11.8909
雒	-11.8909
樞密院	-11.8909
皎皎	-11.8909
踒	-11.8909
日昃	-11.8909
燬	-11.8909
謔	-11.891
蚌	-11.891
槃瓠	-11.891
癃	-11.891
貪嗔癡	-11.891
天帝逰東井	-11.891
鎗	-11.8911
軒昂	-11.8911
縟	-11.8911
繩繩	-11.8911
鵉	-11.8911
堯佐	-11.8911
洞玄冲虛妙感慈惠護國庇民洪恩眞君	-11.8911
嘿	-11.8911
懇禱	-11.8911
蔀	-11.8911
銖	-11.8911
昉	-11.8911
犂	-11.8911
痰	-11.8912
遡	-11.8912
从	-11.8912
嶷	-11.8912
杖屨	-11.8912
恍惚窈冥	-11.8912
秒	-11.8912
鳶	-11.8912
劉海蟾	-11.8912
萬章問曰	-11.8913
韙	-11.8913
劭	-11.8913
觜	-11.8913
燮	-11.8913
吻	-11.8913
扎	-11.8913
邳	-11.8913
說文云	-11.8913
麟鳯	-11.8913
興雲致雨	-11.8913
褰衣	-11.8913
棹	-11.8914
鄷	-11.8914
羅洪先	-11.8914
莊姜	-11.8914
不遠千里	-11.8914
燠	-11.8914
完孝録	-11.8914
寕	-11.8915
大中祥符元年	-11.8915
怎	-11.8915
斧斤	-11.8915
焞	-11.8915
貔	-11.8915
嚴君平	-11.8915
黼黻	-11.8915
之時老君下爲師號曰	-11.8915
熊南沙曰	-11.8915
机	-11.8916
五方五帝	-11.8916
魚鱉	-11.8916
列女傳	-11.8916
壅塞	-11.8916
無註遘	-11.8916
二帝三王	-11.8916
芷	-11.8916
朋黨	-11.8916
大聖大賢	-11.8916
詛	-11.8917
巘	-11.8917
糠	-11.8917
同平章事	-11.8917
天無二日	-11.8917
怳	-11.8917
畢仰嚥九氣止	-11.8917
幣帛	-11.8917
矯誣	-11.8917
衆和一聲	-11.8917
媲美	-11.8918
殳	-11.8918
蛤	-11.8918
解曰占家宅人口平安	-11.8918
階級	-11.8918
柳下季	-11.8918
御史大夫	-11.8918
筠	-11.8918
卉	-11.8918
禹治水	-11.8918
肌膚	-11.8918
八萬四千	-11.8918
洋溢	-11.8918
塑像	-11.8918
颯	-11.8918
喘息	-11.8919
羗	-11.8919
撒	-11.8919
散渙	-11.8919
潑	-11.8919
鏗	-11.8919
父母妻子	-11.8919
轟	-11.892
峥嶸	-11.892
宗廟社稷	-11.892
太常卿	-11.892
袤	-11.892
秤	-11.892
簮	-11.892
正氣天符	-11.892
脩葺	-11.892
鶉首	-11.892
毫髮	-11.892
溟渤	-11.892
縲絏	-11.892
腑	-11.892
遄徃	-11.892
諫議大夫	-11.892
星行年值	-11.892
燕喜堂	-11.892
沔	-11.8921
繒	-11.8921
勤拳	-11.8921
東華帝君	-11.8921
擅權	-11.8921
淫慾	-11.8921
君之道常以	-11.8921
擣	-11.8922
沒	-11.8922
黍米	-11.8922
蒼苔	-11.8922
剜	-11.8922
之教也	-11.8922
百丈崖	-11.8922
獘	-11.8922
焯	-11.8922
玉京金闕	-11.8922
錢穀	-11.8922
飢渴	-11.8922
徐世隆	-11.8922
房玄齡	-11.8922
楊墨	-11.8922
梓潼	-11.8923
登日觀峰	-11.8923
年歲次	-11.8923
耋	-11.8923
提携	-11.8923
𠕂	-11.8923
郭璞	-11.8923
求官未達	-11.8923
嫂	-11.8923
忙忙	-11.8923
磅礴	-11.8924
馘	-11.8924
浣	-11.8924
萬曆十四年	-11.8924
妬忌	-11.8924
歲男子火星女人羅睺星	-11.8924
睫	-11.8924
諺	-11.8924
決	-11.8924
訐	-11.8924
無惑乎	-11.8924
韞	-11.8924
姻縁	-11.8924
神道設教	-11.8924
籓	-11.8924
鍾皷	-11.8925
喬嶽	-11.8925
箋	-11.8925
觀峽	-11.8925
鄧曼	-11.8925
格局	-11.8925
鋾	-11.8926
凭	-11.8926
天真皇人	-11.8926
偵	-11.8926
張彦頨	-11.8926
摯	-11.8926
百世之下	-11.8926
尺寸	-11.8926
湛寂	-11.8926
邾	-11.8926
二月十五日	-11.8926
附録坡公解曰	-11.8926
廓落	-11.8926
張紫陽	-11.8926
歌謡	-11.8926
劑	-11.8926
鱉	-11.8926
塵染	-11.8927
苧	-11.8927
蓬蒿	-11.8927
陶鑄	-11.8927
咄	-11.8927
魯桓公夫人	-11.8927
嗽	-11.8927
大明萬曆三十五年歲次丁未上元吉	-11.8927
倨	-11.8927
惧	-11.8927
上天下地	-11.8927
雄雉	-11.8928
懾	-11.8928
秦穆公	-11.8928
宋徽宗	-11.8928
芴	-11.8928
諜	-11.8928
閶	-11.8928
陰翊	-11.8928
桑梓	-11.8929
盤桓	-11.8929
蒼松	-11.8929
陲	-11.8929
環珮	-11.8929
太姒	-11.8929
贖罪	-11.8929
若誦此經即得	-11.8929
上白天尊曰	-11.893
稽顙	-11.893
蓬菜	-11.893
各安其	-11.8931
嘉禾	-11.8931
秩祀	-11.8931
漢畤	-11.8931
論格局	-11.8931
桑榆	-11.8931
窈窕	-11.8931
臼	-11.8931
薊	-11.8931
髀	-11.8931
蠡	-11.8931
仁義禮智	-11.8931
醖	-11.8932
出將入相	-11.8932
明禋	-11.8932
寺僧	-11.8932
東方朔	-11.8932
噪	-11.8932
仁傑	-11.8932
白湖郭廙	-11.8932
羝	-11.8933
咳	-11.8933
司㓂	-11.8933
拷	-11.8933
黄石公	-11.8933
告請天之	-11.8933
踪由	-11.8933
天目山	-11.8933
孤寡不穀	-11.8933
老耄	-11.8933
鼓瑟	-11.8933
惟神鑒	-11.8933
大衍之	-11.8934
鸞鳳	-11.8934
既見君子	-11.8934
臓	-11.8934
澗底	-11.8934
藥餌	-11.8934
丈人峯	-11.8934
子綦曰	-11.8934
均霑	-11.8934
遲遲	-11.8935
七月七日	-11.8935
致祭于	-11.8935
怡怡	-11.8935
謙遜	-11.8935
衣食自然	-11.8936
屈曲	-11.8936
崗	-11.8936
罅	-11.8936
搜神記卷之	-11.8937
攄	-11.8937
洗濯	-11.8937
陳蕃	-11.8937
几席	-11.8937
秦漢以來	-11.8937
謳	-11.8937
春夏秋冬	-11.8937
紹述	-11.8937
禋祀	-11.8937
五代史	-11.8937
竹林	-11.8938
冬十月	-11.8938
麝	-11.8939
睢陽	-11.8939
晁	-11.8939
搥	-11.8939
方寸地	-11.8939
君子萬年	-11.8939
計較	-11.8939
貫索	-11.8939
涵養	-11.894
簡册	-11.894
萬石君	-11.894
奕奕	-11.894
盟威	-11.894
狐疑	-11.894
謳歌	-11.8941
衣鉢	-11.8941
拱辰	-11.8941
蘚	-11.8941
血肉	-11.8942
急急	-11.8942
攀躋	-11.8942
災殃	-11.8942
拜跪	-11.8942
部八千卷	-11.8942
荀息	-11.8942
譲	-11.8942
管蔡	-11.8942
鉢堂	-11.8942
斷障之法	-11.8943
確論	-11.8943
内帑	-11.8943
彖傳	-11.8943
烝民	-11.8943
縵	-11.8943
雲衢	-11.8943
鳳篆	-11.8944
鸞鶴	-11.8944
賣藥	-11.8944
功德無量	-11.8944
十洲	-11.8944
每一時	-11.8944
閻王聖誕	-11.8944
罪障	-11.8945
曰何謂也	-11.8945
渿	-11.8946
青城山	-11.8946
羲和	-11.8946
融融	-11.8947
天慶觀	-11.8947
遺踪	-11.8947
逸豫	-11.8948
建炎	-11.8948
黎元	-11.8948
有莘	-11.8948
如彼其	-11.8948
三月三日	-11.8948
久旱	-11.8949
白茅	-11.8949
雍容	-11.8949
朝堂	-11.8949
五千文	-11.895
瑶草	-11.895
鼓舞	-11.895
遲留	-11.895
聚歛	-11.895
戊巳	-11.895
四與五	-11.8951
差殊	-11.8951
仙人橋	-11.8951
台輔	-11.8951
秋八月	-11.8951
咎殃	-11.8951
系師	-11.8952
賢不肖	-11.8952
統領	-11.8952
閻君	-11.8953
調息	-11.8953
積善之家	-11.8953
綵雲	-11.8953
繫獄	-11.8953
忿怒	-11.8953
臨軒	-11.8954
禹湯	-11.8956
香烟	-11.8957
吾不忍	-11.8957
彖曰亥	-11.8957
田園	-11.8957
青帝觀	-11.8959
彖曰酉	-11.8959
無所逃	-11.8959
日磾	-11.8959
宗㫖	-11.896
玄苑	-11.896
章甫	-11.896
烈士	-11.896
晦冥	-11.8961
太𥘉	-11.8961
二十有五	-11.8962
介丘	-11.8962
豈非天	-11.8962
窀穸	-11.8962
神之惠	-11.8963
慶賀	-11.8963
莫得而	-11.8963
何辜	-11.8963
香吉祥檀熾鈞	-11.8963
知和曰	-11.8963
曹參	-11.8964
賔客	-11.8965
損壞	-11.8965
討論	-11.8965
衰微	-11.8965
不識不知	-11.8965
救衆生	-11.8965
都講	-11.8965
卯戌	-11.8966
宋太宗	-11.8966
夕曛	-11.8968
玉几	-11.8968
固不若	-11.8968
舉措	-11.8968
漁父	-11.8968
暮夜	-11.8968
初四日	-11.8969
方隅	-11.8969
遭逢	-11.8969
謫經	-11.897
潜消	-11.8971
悖亂	-11.8971
數丈	-11.8972
純素	-11.8972
弱冠	-11.8973
地祇	-11.8973
享祀	-11.8973
口訣	-11.8974
玉帛	-11.8974
湖海	-11.8974
臺諫	-11.8974
峕	-11.8974
三百六十	-11.8975
高低	-11.8976
柳氏	-11.8976
雷部	-11.8977
不敢犯	-11.8977
斜陽	-11.8978
回道人	-11.8979
三里許	-11.898
量計	-11.898
胡亥	-11.898
工部	-11.8981
清凈自然	-11.8981
三二十一	-11.8982
觧疑	-11.8982
郭氏	-11.8983
大忿怒明王	-11.8983
闕里	-11.8983
卓爾	-11.8984
黄金闕	-11.8984
動植	-11.8985
東嶽廟	-11.8985
月孛	-11.8986
數衆悉令下降覆護受持是此經者勑命	-11.8986
二十六年	-11.8987
博士	-11.8987
駭異	-11.8988
貪狼	-11.8988
竭力	-11.8988
仁恕	-11.8988
二則曰	-11.8989
夷簡	-11.899
仕進	-11.899
冝家	-11.8991
祖儉	-11.8991
宫啇	-11.8992
巳丑	-11.8992
車騎	-11.8992
驚懼	-11.8992
首尾	-11.8993
詳察	-11.8993
飛廉	-11.8994
京城	-11.8994
知其不可	-11.8995
之爲人也	-11.8996
景皇帝	-11.8996
深愧	-11.8996
不知所終	-11.8996
驚恐	-11.8997
軫十	-11.8997
九天之上	-11.8997
手筆	-11.8997
星君紫極天	-11.8999
遍照	-11.9
演教	-11.9002
對揚	-11.9002
年穀	-11.9002
梵氣	-11.9002
傅母	-11.9004
罔象	-11.9004
加刃	-11.9004
聖胎	-11.9005
由己	-11.9005
幽谷	-11.9006
無知無	-11.9006
機關	-11.9006
五大夫松	-11.9006
絶句	-11.9007
圖籍	-11.9007
開基	-11.9007
殘害	-11.9007
凶曜	-11.9008
轉移	-11.9008
憑虚	-11.9009
紫庭	-11.9009
榮禄	-11.9009
光芒	-11.9013
城邑	-11.9013
漸漸	-11.9013
茍非	-11.9015
每嵗	-11.9015
嘗試	-11.9016
奸臣	-11.9017
白雲封	-11.9017
上疏	-11.9017
死生之變	-11.9018
幽隱	-11.9019
弟兄	-11.9019
群迷	-11.902
蘇秦	-11.902
山海經曰	-11.9021
塵俗	-11.9021
雲將曰	-11.9022
未肯	-11.9023
入廟旺	-11.9024
又何待	-11.9024
忘機	-11.9024
勝境	-11.9025
忽一日	-11.9026
雙全	-11.9026
碑記	-11.9027
邇來	-11.9027
大神呪	-11.903
感悟	-11.9031
七返	-11.9032
赤城	-11.9032
合爲一	-11.9032
精爽	-11.9032
兼忘	-11.9033
亦甚矣	-11.9035
厚薄	-11.9035
千峰	-11.9035
丹一粒	-11.9036
千尋	-11.9037
超絶	-11.9037
孔聖	-11.9037
康節	-11.9038
偷生	-11.9038
聖躬	-11.9039
精氣神	-11.9039
惠澤	-11.9039
登嶽	-11.9041
絶迹	-11.9041
吾民之	-11.9041
里克	-11.9042
向背	-11.9045
崑崙山	-11.9045
噐用	-11.9045
最勝	-11.9045
剛正	-11.9048
辭謝	-11.905
离下	-11.905
老婦	-11.905
伏逆	-11.9052
歡樂	-11.9052
百工	-11.9053
户口	-11.9053
西北方	-11.9054
恭對	-11.9054
友愛	-11.9054
張仲	-11.9054
英廟	-11.9055
文姜	-11.9056
老子之道	-11.9056
捨身	-11.9057
大椿	-11.9057
卄二	-11.9057
碑陰	-11.9059
敬畏	-11.9061
隱伏	-11.9061
在廟旺	-11.9061
五月五日	-11.9062
年五十	-11.9064
歲寒	-11.9066
洞達	-11.9067
繼體	-11.9067
司禄	-11.9068
萬慮	-11.9069
太和山	-11.907
破車	-11.9073
有時而	-11.9075
千般	-11.9075
宿業	-11.9076
辭還山	-11.9078
光耀	-11.9078
府庫	-11.908
分爲二	-11.908
隨縁	-11.9083
永懷	-11.9083
玉京山	-11.9084
小童	-11.9086
而人自	-11.9087
爰及	-11.9088
推恩	-11.909
過房	-11.9091
黄牛	-11.9091
留侯	-11.9093
之間可以	-11.9093
婦順	-11.9097
恩澤	-11.9099
慈父	-11.91
執手	-11.91
乎曰然	-11.9103
順逆	-11.9104
左輔	-11.9104
斗極	-11.9104
者正以	-11.9106
孫登	-11.9106
數百年	-11.9108
注意	-11.9108
曹氏	-11.9109
業業	-11.9109
澗水	-11.911
敏中	-11.9114
撫臣	-11.9115
命有司	-11.9115
眞鉛	-11.9118
他年	-11.9118
恭遇	-11.9119
流布	-11.9119
叔父	-11.912
聖境	-11.9124
水銀	-11.9125
甚厚	-11.9127
怪異	-11.9128
宇初	-11.9132
寳藏	-11.9133
旁門	-11.9134
亭長	-11.9134
使之然	-11.9136
整齊	-11.9138
离上	-11.9138
無邉	-11.9141
如此録曰愚觀	-11.9141
崇祀	-11.9141
修持	-11.9142
各得其所	-11.9142
有㓛	-11.9143
壁立	-11.9143
小吏	-11.9143
不幸而	-11.9147
象罔	-11.915
渾如	-11.9151
相謂曰	-11.9152
征吉	-11.9154
增光	-11.9156
開啓	-11.9156
使我心	-11.9157
宣封	-11.9159
桓帝	-11.916
法品	-11.9162
足履	-11.9162
開皇	-11.9164
朝天宫	-11.9165
罔敢	-11.9165
无功	-11.9166
無倦	-11.9167
究心	-11.9167
普光	-11.9167
靈跡	-11.917
驪山	-11.917
聽其自	-11.9171
一隅	-11.9172
四圍	-11.9175
臣不如	-11.9175
但要	-11.9177
二十二二	-11.9179
焉詩曰	-11.9179
㓕身	-11.918
認得	-11.9185
門之外	-11.9185
還須	-11.9188
帝堯	-11.9189
豈待	-11.9192
險難	-11.9194
哉是故	-11.9198
不知其幾	-11.92
苟且	-11.9203
聞空中	-11.9204
觀察	-11.9208
八卦言	-11.9209
著述	-11.921
落托	-11.9211
既畢	-11.9213
還報	-11.9218
官灾	-11.9219
功利	-11.9219
敬奉	-11.9221
元年正月	-11.9231
十斤	-11.9233
穿雲	-11.9238
奉聖㫖	-11.9242
康公	-11.9242
雖不同	-11.9257
年六十	-11.9261
之常也	-11.9263
小天門	-11.9265
力不能	-11.9275
是時元始天尊	-11.9278
烏飛	-11.9282
笑曰此	-11.9293
禁止	-11.9297
碧海	-11.9297
無異於	-11.9298
而安之	-11.9319
惡惡	-11.9323
損傷	-11.9325
海宇	-11.9329
於其間哉	-11.9341
黃帝	-11.9345
繼世	-11.9346
祐二年	-11.9352
受尅	-11.9356
寓言	-11.9357
節儉	-11.9383
文姬	-11.9384
八尺	-11.9391
嗣守	-11.9391
精微	-11.9397
在嶽頂	-11.9401
用之大吉	-11.9402
領道教	-11.9407
合格	-11.9409
賢良	-11.9409
可不愼	-11.941
自若也	-11.9418
靜默	-11.9431
人間世	-11.9438
不知誰	-11.9439
真人掌天下道教事	-11.9443
嶽祠	-11.9446
志心皈命禮威震雷霆	-11.9457
彖曰巳	-11.9481
廓然無	-11.9487
有爲有	-11.9506
哀公十四年	-11.9515
以我之	-11.952
孰知其	-11.9527
晋國	-11.9537
唯恐	-11.9538
心無心	-11.9539
初十八	-11.9541
十有一	-11.9571
不耻	-11.9584
得解脫	-11.9584
臨身命	-11.9593
乎何有	-11.9603
管子	-11.9608
假令	-11.9609
入閩	-11.9624
此所以爲	-11.9637
白黑	-11.9647
者詳之	-11.9727
儒典	-11.9736
招財	-11.9755
養賢	-11.9759
山巔	-11.9759
十四十三	-11.9766
火焚	-11.9771
亦以此	-11.9779
所資	-11.9819
其略	-11.9826
小限	-11.9829
弗敢	-11.9852
史遷	-11.9854
披雲	-11.986
謬矣	-11.986
近習	-11.9871
矧兹	-11.9873
幽微	-11.989
逺避	-11.9898
旋轉	-11.9906
矣又何	-11.9907
永康	-11.9908
十有六	-11.9919
未有天地	-11.9934
年十二月	-11.9953
除妖	-11.9988
雲錦	-12.001
日月之光	-12.003
斷障	-12.0034
丹訣	-12.0046
三百餘	-12.0049
勞力	-12.0086
月望日	-12.0128
禍殃	-12.0139
聖㫖	-12.0149
神通妙	-12.0167
法律	-12.0182
五品以上	-12.0193
二十九年	-12.0199
嬰孩	-12.0225
品第十	-12.0261
涉大川	-12.0262
脉定穴	-12.0268
山海經	-12.027
棟橈	-12.0271
降勑	-12.0279
趎	-12.028
西斗下䧏	-12.0285
愚按人之	-12.029
一法官道士	-12.0291
混茫	-12.0293
之位也凡居於其上者	-12.0293
四宿皆	-12.0293
有攸徃	-12.0294
刃哭	-12.0305
茫	-12.0305
濵	-12.0308
韄	-12.0309
亢牛婁鬼	-12.031
爲卦主故稱我	-12.031
寅申巳亥	-12.0311
魔瑘女	-12.0311
萇	-12.0311
如法持念眞經	-12.0312
快活	-12.0312
纍	-12.0315
珏	-12.0316
硬	-12.0318
章拜表	-12.0318
玉帝夙修常清凈	-12.0319
矣諸玉女徃刼妙行亦同此清凈	-12.0319
坎離艮兊乾	-12.0319
狃	-12.032
尾室觜	-12.0321
愧矣	-12.0321
爇	-12.0321
頷	-12.0321
袵	-12.0322
品彙	-12.0323
功德品續二十	-12.0323
証	-12.0323
崚𡾓	-12.0323
芹	-12.0324
正位乎外	-12.0324
汰	-12.0324
覯	-12.0324
溜	-12.0325
奧	-12.0325
剡	-12.0326
瘥	-12.0326
鑣	-12.0326
恢恢	-12.0326
羅㬋	-12.0326
捨其國	-12.0326
淄	-12.0326
麋鹿	-12.0326
九玄七祖	-12.0326
覘	-12.0327
渺茫	-12.0327
一本云	-12.0327
喑啞	-12.0327
冊	-12.0327
蕊	-12.0327
肴	-12.0327
駈	-12.0327
下情無任	-12.0328
捨身崖	-12.0328
橐籥	-12.0328
晨君姓	-12.0328
怏	-12.0329
勾踐	-12.0329
涎	-12.0329
法子主	-12.033
估	-12.033
斡旋	-12.033
鵲巢	-12.033
扵地下	-12.033
蜿	-12.033
鹹	-12.033
利無所得無註	-12.033
洙泗	-12.033
采薇	-12.033
八紘	-12.033
司天在泉	-12.033
陔	-12.033
炮	-12.033
官事有理	-12.0331
蚩	-12.0331
洒掃	-12.0331
無有休息	-12.0331
抉	-12.0331
魁罡	-12.0331
奂	-12.0331
遄	-12.0332
坡公解曰	-12.0332
諄	-12.0332
甜	-12.0332
嘴	-12.0332
隗囂	-12.0332
蠁	-12.0332
諂	-12.0332
帙	-12.0332
竹君之二子	-12.0332
箸	-12.0332
笈	-12.0332
虢	-12.0333
瓣香	-12.0333
瞪	-12.0333
商鞅	-12.0333
敘	-12.0333
鷇	-12.0333
万	-12.0333
廉耻	-12.0333
附録楊簡曰	-12.0333
之所利見	-12.0333
工倕	-12.0333
狡猾	-12.0333
覷	-12.0334
明年正月	-12.0334
苞桑	-12.0334
天仙玉女碧霞元君	-12.0334
辝	-12.0334
羌	-12.0334
豈弟君子	-12.0334
除罪簿	-12.0334
鴻漸于	-12.0334
墩	-12.0335
在下爲主于内加八卦于上以發明	-12.0335
放大光明	-12.0335
讞	-12.0335
蹊	-12.0335
縞	-12.0335
又降于	-12.0335
樞密	-12.0336
漓	-12.0336
不宜殺生	-12.0336
泳	-12.0336
亞獻	-12.0336
天君下䧏	-12.0336
真君孔雀明王明王經消災延壽保安寍	-12.0336
鼫鼠	-12.0336
懊	-12.0336
寜	-12.0336
筲	-12.0336
少人知	-12.0336
者於是有	-12.0336
覿	-12.0336
偹	-12.0336
酆都鐵圍	-12.0336
幄	-12.0337
終則有始	-12.0337
爲之語曰	-12.0337
腆	-12.0337
崒嵂	-12.0337
某官某	-12.0337
毫芒	-12.0337
䥫	-12.0337
瑣瑣	-12.0337
叢棘	-12.0337
閬苑	-12.0337
自得之場	-12.0338
十三年冬	-12.0338
郭林宗	-12.0338
旒	-12.0338
蘋蘩	-12.0338
訕	-12.0338
泆	-12.0339
玦	-12.0339
萊蕪	-12.0339
不得入仙	-12.0339
岫	-12.0339
洿	-12.0339
蘖	-12.0339
員外郞	-12.0339
砦	-12.0339
胎卵濕化	-12.0339
崿	-12.0339
不相徃來	-12.0339
忉	-12.0339
塩	-12.0339
牋	-12.0339
臬	-12.034
五日天蓬下䧏	-12.034
衆和一聲志心皈命禮請	-12.034
㫁	-12.034
雞犬	-12.034
程子曰	-12.034
在天之靈	-12.034
睇	-12.034
範圍	-12.034
齕	-12.034
於大野	-12.034
帝嚳	-12.0341
无不利象曰	-12.0341
絳侯	-12.0341
胡蝶	-12.0341
冦	-12.0341
厪	-12.0341
坦途	-12.0341
濶	-12.0341
鷙鳥	-12.0341
回紇	-12.0341
瓉	-12.0341
聾盲	-12.0341
阼	-12.0341
靳	-12.0341
睽孤	-12.0342
丘墟	-12.0342
閭閻	-12.0342
去彼取此	-12.0342
娵訾	-12.0342
無毁淪	-12.0342
愚按人身	-12.0342
冠衣九色	-12.0342
訃	-12.0342
武當山	-12.0342
羊舌氏	-12.0342
藺	-12.0342
君臣父子之間	-12.0342
糓	-12.0342
爲宫主喜忌見前	-12.0342
運限流年	-12.0342
駘	-12.0342
喬木	-12.0342
宙	-12.0342
集賢院	-12.0342
榼	-12.0342
孝子順孫	-12.0342
咨嗟	-12.0342
廐	-12.0342
張道陵	-12.0343
侍軄焚	-12.0343
春秋成公十	-12.0343
匹婦	-12.0343
利貞彖曰	-12.0343
繄	-12.0343
槌	-12.0343
年夏四月	-12.0343
持念此經	-12.0343
雍雍	-12.0343
和願此燈光回向眞君	-12.0343
幟	-12.0343
殤	-12.0343
輈	-12.0343
鍾離權	-12.0343
掣	-12.0343
徐仙眞録	-12.0344
杳杳冥冥	-12.0344
児	-12.0344
洞玄靈寳	-12.0344
磔	-12.0344
生生之厚	-12.0344
顛沛	-12.0344
鼔	-12.0344
苓	-12.0344
徭役	-12.0345
風霆	-12.0345
以安史記	-12.0345
葛洪	-12.0345
夥	-12.0345
汀	-12.0345
幘	-12.0345
烱	-12.0345
租稅	-12.0345
葵丘	-12.0345
青門邵墉	-12.0345
髙陽氏有才子八人	-12.0345
踟	-12.0345
踦	-12.0345
也固宜	-12.0345
由是觀之	-12.0345
成始成終	-12.0345
騎白鹿	-12.0345
九月九日	-12.0345
存乎其人	-12.0345
禴	-12.0345
鶉尾	-12.0345
兢兢	-12.0345
無註易林卷第	-12.0345
餞	-12.0345
亦孔之	-12.0345
祭祀遷移	-12.0345
揖遜	-12.0346
唐之太宗	-12.0346
閉户	-12.0346
光明奕奕	-12.0346
倒懸	-12.0346
關睢	-12.0346
飛天神王	-12.0346
麋	-12.0347
煒	-12.0347
白龍池	-12.0347
凹	-12.0347
瘧	-12.0347
片片	-12.0347
持是經人不但名	-12.0347
樾	-12.0347
酥	-12.0347
𩥵	-12.0347
娼	-12.0347
勞碌	-12.0347
箕箒	-12.0347
日下界用燈	-12.0347
登道岸	-12.0347
胤	-12.0347
綦	-12.0347
淘	-12.0347
聯芳	-12.0347
下嫁於	-12.0347
驅邪院	-12.0348
彬彬	-12.0348
礎	-12.0348
臆說	-12.0348
傴僂	-12.0348
吕純陽	-12.0348
弹	-12.0348
森羅	-12.0348
稽首再拜	-12.0348
经	-12.0348
蓬島	-12.0348
熏修	-12.0348
牽羊	-12.0348
繚	-12.0348
八胃初四	-12.0348
浩蕩	-12.0348
嚶	-12.0348
彈冠	-12.0348
嘻嘻	-12.0348
抱朴子	-12.0348
咈	-12.0348
慱	-12.0348
暎	-12.0349
縈廻	-12.0349
紵絲	-12.0349
乆乆	-12.0349
埃塵	-12.0349
范滂	-12.0349
五千餘言	-12.0349
亢龍有悔	-12.0349
洞映上清	-12.0349
藩臬	-12.035
魏伯陽	-12.035
鮒	-12.035
癖	-12.035
易繫辭	-12.035
爼	-12.035
絲毫	-12.035
舟航	-12.035
光明流焕	-12.035
則受制凢	-12.035
廳	-12.035
芝房	-12.035
蕉	-12.035
所以覺天下之	-12.035
𠁗	-12.035
須彌	-12.035
救苦天尊	-12.0351
惶恐	-12.0351
監殷	-12.0351
賾	-12.0351
噀	-12.0351
猛虎	-12.0351
縢	-12.0351
生貴子	-12.0351
毓秀	-12.0351
太皇太后	-12.0351
舟楫	-12.0351
彖辭	-12.0351
沭	-12.0351
都指揮	-12.0351
駿馬	-12.0351
耨	-12.0351
玄牝之門	-12.0351
六四十六	-12.0352
初十四十四十六	-12.0352
不亦可乎	-12.0352
恢廓	-12.0352
爾雅云	-12.0352
尼丘	-12.0352
應劭	-12.0352
披閱	-12.0352
巋	-12.0352
湮没	-12.0352
蓬壼	-12.0352
爲人上者	-12.0352
磐	-12.0353
隨四時形影在	-12.0353
歲男子羅睺星女人計都星	-12.0353
有憂色	-12.0353
溝壑	-12.0353
巴陵	-12.0353
無色界	-12.0353
當此之時	-12.0353
褒奬	-12.0353
周太王	-12.0353
壇墠	-12.0353
軋	-12.0353
漁陽	-12.0353
潺	-12.0354
熄	-12.0354
鄂渚	-12.0354
儷	-12.0354
笄	-12.0354
顚倒	-12.0354
端冕	-12.0354
鐘皷	-12.0354
纘	-12.0354
倶	-12.0354
瞶	-12.0354
愷	-12.0354
蕨	-12.0354
鄧禹	-12.0354
爲財逄	-12.0354
東方九炁	-12.0354
於内庭	-12.0354
日月五星	-12.0354
玃	-12.0354
劌	-12.0354
此日大㐫	-12.0354
嘉奬	-12.0354
歲男子金星女人太隂星	-12.0354
虫獸	-12.0355
攅	-12.0355
孝悌	-12.0355
摠	-12.0355
上合志	-12.0355
疚	-12.0355
陞壇	-12.0356
璇璣	-12.0356
鶻	-12.0356
履虎尾	-12.0356
慳貪	-12.0356
翮	-12.0356
堦	-12.0356
枷	-12.0356
桃夭	-12.0356
趙盾	-12.0357
眄	-12.0357
乘雲駕	-12.0357
膩	-12.0357
范蠡	-12.0357
酧	-12.0357
釣臺李溥	-12.0357
千乘萬騎	-12.0357
斲	-12.0357
痔	-12.0357
解𡨚	-12.0357
匀	-12.0357
粟帛	-12.0357
長樂陳棠	-12.0357
突厥	-12.0357
蹬	-12.0357
邠	-12.0357
軄	-12.0358
拉	-12.0358
剛毅	-12.0358
伊洛	-12.0358
弦歌	-12.0358
歲男子太陽星女人土星	-12.0358
罰十拜若	-12.0358
皦	-12.0359
役鬼神	-12.0359
總管	-12.0359
良有以也	-12.0359
或有衆生	-12.0359
瀑	-12.0359
莱	-12.0359
筌	-12.036
舁	-12.036
元昊	-12.036
晚景	-12.036
沉溺	-12.036
在上清之上	-12.036
緇衣	-12.036
煩苛	-12.036
繪像	-12.036
术	-12.036
庠序	-12.036
不事王侯	-12.036
踣	-12.036
勤儉	-12.036
海濱	-12.036
月𥘉一日	-12.0361
雲雷	-12.0361
屣	-12.0361
何以異哉	-12.0361
百里奚	-12.0361
又何如哉	-12.0361
殃咎	-12.0361
鰥寡孤獨	-12.0361
入于險	-12.0361
齎賜	-12.0361
不生不死	-12.0362
昆蟲	-12.0362
矅	-12.0362
懵	-12.0362
矉	-12.0362
猗	-12.0362
浩嘆	-12.0362
楫	-12.0362
十餘里	-12.0363
穀雨	-12.0363
工匠	-12.0363
泯滅	-12.0363
牲醴	-12.0363
聞是說已	-12.0363
掖庭	-12.0363
遥叅亭	-12.0363
玉皇君兆若	-12.0363
聃	-12.0363
子鉏	-12.0363
名臣録	-12.0363
義君臣之義	-12.0363
扶摇	-12.0363
煢煢	-12.0363
噦	-12.0363
絺	-12.0363
三百五十	-12.0364
神通品三十	-12.0364
太清仙境	-12.0364
顯赫	-12.0364
鉅鹿	-12.0364
計都星	-12.0364
畤	-12.0364
幃	-12.0365
緩急	-12.0365
拏	-12.0365
航海	-12.0365
太祖高皇帝	-12.0365
懇祈	-12.0365
庚桑子	-12.0366
詵	-12.0366
桐栢	-12.0366
孕秀	-12.0366
施捨	-12.0366
鑾	-12.0366
其可得乎	-12.0366
犧牲	-12.0366
儒雅	-12.0366
駐蹕	-12.0366
煉藥	-12.0366
靄靄	-12.0366
宻雲不雨	-12.0366
越三日	-12.0366
說稅	-12.0366
醬	-12.0366
進退存亡	-12.0366
闔户	-12.0366
五老帝君	-12.0366
湣	-12.0366
草叅	-12.0367
旄頭	-12.0367
琳宫	-12.0367
舉觴	-12.0367
暫停	-12.0367
無以異也	-12.0367
真人飛昇	-12.0367
掃蕩	-12.0368
同事者	-12.0368
堕	-12.0368
元世祖	-12.0368
恥	-12.0368
霊	-12.0368
陸贄	-12.0368
掛搭	-12.0368
茅屋	-12.0369
劫劫	-12.0369
官僚	-12.0369
瓊瑶	-12.0369
翩	-12.0369
鋸	-12.0369
邢	-12.0369
纏綿	-12.0369
懇切	-12.0369
之罪人也	-12.037
漠北	-12.037
蕃息	-12.037
之苦或作	-12.037
牧野	-12.0371
騾	-12.0371
殷鑒	-12.0371
爐烟	-12.0372
羽翰	-12.0372
上清眞境	-12.0372
太上道君	-12.0372
伐鄭	-12.0372
無乎不在	-12.0372
所由分也	-12.0372
名山大川	-12.0372
悔恨	-12.0372
溪谷	-12.0372
部十萬卷	-12.0372
聯屬	-12.0373
洪武初	-12.0373
廟社	-12.0373
橋梁	-12.0374
䧟溺	-12.0374
鱠	-12.0374
鬼神欽	-12.0374
太上正一	-12.0374
引領	-12.0375
遍覆	-12.0375
周宣王	-12.0375
星又名	-12.0375
結繩	-12.0375
荘公	-12.0375
王弼作	-12.0375
知足不辱知止不殆	-12.0375
巨𡖖	-12.0375
廷赦	-12.0375
牽牛	-12.0375
毛羽	-12.0375
嚴潔	-12.0375
析木	-12.0376
部領	-12.0376
俄不見	-12.0376
印綬	-12.0376
救度衆生	-12.0377
禱祝	-12.0377
伏羲氏	-12.0378
禱祈	-12.0378
珍寳	-12.0378
皇帝遣	-12.0378
籩豆	-12.0378
飽滿	-12.0378
九疇	-12.0378
趣舍	-12.0379
滯魄	-12.0379
程朱	-12.0379
文王之化	-12.0379
聖賢之學	-12.0379
講讀	-12.0379
䙱	-12.038
歩罡	-12.038
破壞	-12.038
彌逺	-12.038
在岳南	-12.0381
碧霄	-12.0381
公卿大夫	-12.0381
虎尾	-12.0381
獻替	-12.0381
醫藥	-12.0381
役役	-12.0381
收歛	-12.0381
黄巾	-12.0381
張元吉	-12.0381
李綱	-12.0382
闋	-12.0382
慈顔	-12.0382
変化	-12.0382
朕躬	-12.0382
玄藴	-12.0383
孔顔	-12.0384
有道之士	-12.0384
校録	-12.0384
雷擊	-12.0384
諸大衆	-12.0384
公綽	-12.0384
李膺	-12.0384
彖曰丑	-12.0385
在岳陽	-12.0386
豐盈	-12.0386
負荷	-12.0386
平勃	-12.0386
館舍	-12.0386
墓絶	-12.0387
胡僧	-12.0387
父子之分	-12.0387
握固	-12.0387
屹然	-12.0387
編脩	-12.0387
妻兒	-12.0387
房屋	-12.0387
普徧	-12.0387
安禄山	-12.0388
火鈴	-12.0388
紅異毛	-12.0388
矣而又	-12.0388
扶蘇	-12.0389
聖哲	-12.0389
老萊	-12.0389
湧泉	-12.039
叅議	-12.039
仲舒	-12.0391
東坡	-12.0391
綱維	-12.0391
坐九色	-12.0391
靡所不	-12.0391
繫之曰	-12.0392
之死地	-12.0393
朕兆	-12.0393
郊祀	-12.0393
畏壘	-12.0394
草廬	-12.0394
録曰此可見	-12.0395
歎息	-12.0395
成化間	-12.0395
自然而然	-12.0395
野鶴	-12.0396
殷勤	-12.0396
被髮	-12.0396
官禄宫主	-12.0396
闚觀	-12.0396
百餘歲	-12.0396
處士松	-12.0396
原憲	-12.0397
南閩	-12.0397
寬鄉	-12.0397
外戚	-12.0398
嗜欲	-12.0398
胎息	-12.0399
出涕	-12.0399
三教聖人	-12.04
華胥	-12.04
乘剛也	-12.0401
何謂也子曰	-12.0401
夕照	-12.0401
古蹟	-12.0401
白玉蟾	-12.0402
鳳鳴	-12.0402
宣撫	-12.0402
伯姬	-12.0402
離曠	-12.0402
鳴謙	-12.0402
柳侯	-12.0403
擾亂	-12.0404
翕然	-12.0404
何益哉	-12.0405
感激	-12.0405
宫龍女禮謝	-12.0405
冲虛	-12.0405
特憑	-12.0405
按察	-12.0406
祈雨王	-12.0406
太霞	-12.0406
結習	-12.0407
者同于	-12.0407
凌漢	-12.0408
俯垂	-12.0408
寰中	-12.0408
宦官	-12.0408
石函	-12.0408
斬邪	-12.0409
會惡星	-12.0409
群品	-12.0409
玉册	-12.041
丁寧	-12.041
吾所不能	-12.041
特伸	-12.041
稱歎	-12.041
咸賴	-12.0411
探奇	-12.0411
岱廟	-12.0412
千錢	-12.0412
勝覽	-12.0413
字號第	-12.0413
解厄	-12.0414
絶域	-12.0414
織女	-12.0414
垂示	-12.0414
縮高	-12.0415
過隙	-12.0415
衛太子	-12.0415
脩煉	-12.0416
旌陽	-12.0417
瞻依	-12.0417
都監	-12.0417
諫議	-12.0418
即其地	-12.0418
方凾	-12.0418
青鸞	-12.042
五十餘年	-12.042
受籙	-12.0421
大𣑽	-12.0423
昭格	-12.0423
與喜相	-12.0423
錢財	-12.0424
與人交	-12.0424
一顆	-12.0427
保障	-12.0427
凶荒	-12.0429
弘㣲	-12.0429
韓休	-12.0429
灾祥	-12.0429
門墻	-12.0429
丙吉	-12.043
與物化	-12.043
甘泉	-12.0431
吕后	-12.0432
冥府	-12.0432
千峯	-12.0433
少伸	-12.0433
莫把	-12.0433
癸已	-12.0434
車輪	-12.0435
勉力	-12.0435
孝廉	-12.0435
紅紫	-12.0435
欲殺之	-12.0435
鍊度	-12.0435
量力	-12.0436
蕩除	-12.0437
作孽	-12.0438
威震	-12.0438
修醮	-12.0438
八十里	-12.044
愽學	-12.044
焚修	-12.044
季歷	-12.0441
郊廟	-12.0441
五千言	-12.0442
聲價	-12.0442
分度之	-12.0443
地軸	-12.0444
百辟	-12.0444
泰山吟	-12.0444
巔石	-12.0445
孤峰	-12.0445
逸樂	-12.0446
奉勑	-12.0447
容顔	-12.0448
軍吏	-12.0449
智慮	-12.0449
訛言	-12.045
謹按	-12.045
宰臣	-12.0451
頭角	-12.0451
看了	-12.0451
危急	-12.0452
丹丘	-12.0452
顯揚	-12.0452
醜惡	-12.0453
鄙夫	-12.0453
草草	-12.0454
初五日	-12.0456
貞良	-12.0456
遭遇	-12.0457
較然	-12.0457
飮食	-12.0457
日之寳本年	-12.0458
災患	-12.0459
妙訣	-12.0459
高虚清明天主	-12.046
凌風	-12.046
千盤	-12.0462
致太平	-12.0464
韓氏	-12.0464
莫辨	-12.0465
斗府	-12.0465
玄天上帝感應靈籤第四十	-12.0465
帝曰朕	-12.0465
辟邪	-12.0466
白晝	-12.0467
玉皇宫	-12.0467
拔度	-12.0467
曰南朝	-12.0468
周覽	-12.0468
秦越	-12.0469
燦然	-12.047
隆興	-12.047
白髮	-12.0471
凌雲	-12.0471
張天師	-12.0471
報怨	-12.0472
招禍	-12.0474
純誠	-12.0474
忽不見	-12.0475
完節	-12.0476
投誠	-12.0476
維兹	-12.0476
烟雲	-12.0477
禁戒	-12.0479
純仁	-12.0479
思量	-12.0482
奇特	-12.0482
講說	-12.0483
宫眷	-12.0484
再造	-12.0484
迷路	-12.0484
無所依	-12.0484
均平	-12.0485
乾兊	-12.0485
囂然	-12.0486
純白	-12.0486
及即位	-12.0486
靈濟王	-12.0487
晏然	-12.0487
萬斛	-12.0487
繼恩	-12.0491
配食	-12.0491
勑封	-12.0492
罔兩	-12.0492
鷟曰自	-12.0492
天地人物	-12.0496
突出	-12.0498
年十六	-12.0501
堪誇	-12.0502
齊眉	-12.0502
七魄	-12.0503
項王	-12.0505
嶧山	-12.0505
矢石	-12.0506
物莫能	-12.0507
昭代	-12.0509
孟氏	-12.0509
怠忽	-12.0509
梵炁	-12.0513
弘景	-12.0518
或化爲	-12.052
有意乎	-12.0525
以天地爲	-12.0525
不懈	-12.0528
志於道	-12.0528
無憾	-12.0531
三十度	-12.0532
道經云	-12.0533
太公吕	-12.0542
孟子不云	-12.0557
吉昌	-12.056
眞持經人	-12.0562
七十餘	-12.0574
春秋之義	-12.0575
乎若乃	-12.0584
女嫁	-12.0586
讃詠	-12.0587
嗟嘆	-12.0599
十五十一	-12.0608
隄	-12.0609
宋史太祖	-12.0614
袖中	-12.0619
餘慶	-12.0619
之有哉	-12.0627
善不善	-12.063
請於朝	-12.063
况敢	-12.0635
可及哉	-12.0647
事悠悠	-12.0657
臣僚	-12.066
照映	-12.0661
則未也	-12.0661
但恐	-12.0683
至今猶	-12.0689
持眞經	-12.0697
杖刃	-12.0699
御座	-12.0707
詎可	-12.0708
其或不	-12.0717
財帛宫	-12.0725
現十方	-12.0728
惡趣	-12.0736
九天金闕志心皈命禮威震雷霆	-12.0737
情狀	-12.074
井井	-12.0744
兒戲	-12.0764
於胷中	-12.0779
岳頂	-12.0779
終無禍	-12.0808
是何人	-12.0826
益之以	-12.0834
萬物之理	-12.0837
足以當之	-12.0848
備録	-12.0863
年榖	-12.0876
兹東土	-12.0881
楚楚	-12.0888
隨四時形影在上清	-12.0909
元始說	-12.0917
厭世	-12.0936
人爲立廟	-12.0946
之適也	-12.0946
然明白	-12.0952
冬夏	-12.097
滿眼	-12.0995
其詞曰	-12.0997
星得地	-12.1007
動其心	-12.1055
而得其	-12.1056
曰諸君	-12.1062
源源	-12.1067
玄奥	-12.109
有大功	-12.1114
齎香	-12.1118
請封禪	-12.1121
人所不能	-12.1143
浙江	-12.1153
十仞	-12.117
之謂也夫	-12.1173
財寶	-12.1173
無物不	-12.1188
九十一十九	-12.1208
傳哀公十四年	-12.1229
八十八	-12.1234
都市	-12.132
孫叔敖	-12.1496
奉天承運皇帝制曰朕惟	-12.1537
玄君誥	-12.1545
立廟祀之	-12.1562
沿江	-12.1573
正月十五日	-12.1594
惑世	-12.1621
扦	-12.1648
飛瀑	-12.1772
祥瑞	-12.1772
卯辰巳午未申	-12.1776
翊聖真君下䧏	-12.1819
千萬年	-12.1832
南渡	-12.1876
天齊仁聖帝	-12.1877
蘇註聖人	-12.188
曛	-12.1892
斁	-12.1898
未之有也	-12.1931
莘	-12.1935
向朝如	-12.1936
戍主有	-12.1953
啍	-12.1956
思之還反真形春三月	-12.1958
枋	-12.1958
伶仃	-12.1959
禍福甚緊	-12.1962
淵濟公	-12.1963
日喜神西北貴神	-12.1964
齋沐	-12.1965
問仁子曰	-12.1967
憯	-12.1968
廚	-12.1969
叠叠	-12.197
燥濕	-12.1972
𥘉階	-12.1972
輻輳	-12.1973
姆	-12.1973
打供	-12.1973
治曆明時	-12.1976
經註觧	-12.1976
覧	-12.1977
祈夀	-12.1978
錠	-12.1978
鄲	-12.1979
緝熙	-12.1979
竹林寺	-12.1979
氐女胃柳	-12.1979
捻香	-12.1979
箕壁參軫	-12.1979
劉大夏	-12.198
佑聖真君	-12.1981
懈怠	-12.1981
星躔度定局	-12.1982
萎	-12.1982
相交錯也	-12.1982
此是徃生	-12.1983
蝸	-12.1983
卭	-12.1983
燧	-12.1983
甃	-12.1984
何思何慮	-12.1984
象曰山下有	-12.1984
長生保命天尊	-12.1985
嫩	-12.1985
畋獵	-12.1986
雝雝	-12.1986
金剛力士	-12.1987
應驗品續三十	-12.1987
水旱疾疫	-12.1987
玉品山	-12.1987
羿古之善射者	-12.1988
劉濬伯曰	-12.1988
眯	-12.1988
銅鉄	-12.1988
嬉戲	-12.1988
縯	-12.1988
惺惺	-12.1988
凌絶頂	-12.1989
兹特贈	-12.1989
諍	-12.1989
祭竈	-12.1989
琛	-12.199
傲慢	-12.199
剛中而應	-12.199
即今靈濟宫	-12.199
海蟾	-12.199
緇	-12.199
臣周玄貞	-12.199
臾	-12.199
絳灌	-12.1991
溝渠	-12.1991
鬷	-12.1991
瓦礫	-12.1991
不忠不孝	-12.1991
成家之命	-12.1991
皇高祖	-12.1991
球	-12.1991
魯仲連	-12.1991
峰巒	-12.1991
鸇	-12.1991
侗	-12.1991
曏	-12.1991
黷	-12.1992
閻浮提	-12.1992
瀨	-12.1992
恬惔	-12.1992
飧	-12.1992
明入地中	-12.1992
缸	-12.1992
蟹	-12.1993
𡖖	-12.1993
蠆	-12.1993
礼	-12.1993
傀	-12.1993
賡	-12.1993
廩	-12.1993
潞	-12.1993
箎	-12.1994
日觀峰頭	-12.1994
縂	-12.1994
膈	-12.1994
洸	-12.1994
帯	-12.1994
韐	-12.1994
彦愽	-12.1995
異毛刃	-12.1995
𠏉	-12.1995
冏	-12.1995
森森	-12.1996
苟有一毫	-12.1996
卦畫之易	-12.1996
眞清眞凈	-12.1996
濡其尾	-12.1996
江西吉水	-12.1996
恂	-12.1997
芻狗	-12.1997
靦	-12.1997
両	-12.1997
提督	-12.1997
亥卯未	-12.1997
蕩滌	-12.1997
㝎	-12.1997
繫滯	-12.1997
同姓諸侯	-12.1997
木木名在崑崙西極其華光照下地	-12.1997
旋繞	-12.1998
在他卦之上則不爲主而爲他卦之别	-12.1998
缶	-12.1998
螢	-12.1998
淬	-12.1998
申子辰	-12.1998
馬棚崖	-12.1998
旦正一嗣教凝誠志道闡玄弘教大	-12.1998
南昌上宫	-12.1998
小人剥廬	-12.1998
禫	-12.1998
正位乎内	-12.1998
木以拂日	-12.1998
垠	-12.1998
徹上徹下	-12.1999
天倪子	-12.1999
凡事大吉玄天上帝感應靈籤第	-12.1999
顱	-12.1999
宋眞宗駐蹕	-12.1999
河圖洛書	-12.1999
麟孔子作春秋	-12.1999
楚詞折	-12.1999
汗漫	-12.1999
注四卷	-12.1999
瘖	-12.1999
醜虜	-12.1999
洞賔詭爲	-12.1999
以享上帝	-12.1999
鷟曰此經卦之	-12.1999
國之大事	-12.1999
阿羅漢	-12.1999
西平侯	-12.1999
鋟	-12.1999
相加而爲	-12.1999
浄	-12.2
伊尹耕於有莘之野	-12.2
勸君休	-12.2
祝文維	-12.2
豺狼	-12.2
以是爲訓	-12.2
奚啻	-12.2
鷦	-12.2
擠	-12.2
星拱限主	-12.2
蔡介夫曰	-12.2
赭	-12.2
趐	-12.2
則不可謂之	-12.2
太宗文皇帝	-12.2001
澹泊	-12.2001
盲聾	-12.2001
吕洞賔也	-12.2001
淤	-12.2001
禰	-12.2001
燦爛	-12.2001
倫攸叙	-12.2001
莭	-12.2001
春秋魯莊公元年	-12.2002
焼	-12.2002
與時偕行	-12.2002
人濟物	-12.2002
吕大防	-12.2002
兕觥	-12.2002
螳蜋	-12.2002
雷霆玄省	-12.2002
太素三元君朝真	-12.2002
嵬	-12.2002
東斗下䧏	-12.2002
東嶽泰山之神	-12.2003
遣中使	-12.2003
宜矣其别卦而皆謂之作	-12.2003
炫	-12.2003
河水帝大龍王	-12.2003
剉	-12.2003
求官得位	-12.2003
髫	-12.2003
厓山	-12.2003
君子得輿	-12.2003
尓	-12.2003
終无尤	-12.2003
志心皈命禮	-12.2003
陰翊皇度	-12.2003
瀚	-12.2004
勇猛	-12.2004
强凌弱	-12.2004
南極注生	-12.2004
敺	-12.2004
栽培	-12.2004
釋經云	-12.2004
不崇朝而雨	-12.2004
江河淮海	-12.2004
玉虚上帝	-12.2004
芒種	-12.2004
笙鶴	-12.2005
交媾	-12.2005
筦	-12.2005
柱下史	-12.2005
束縛	-12.2005
產厄	-12.2005
蹻	-12.2005
皺	-12.2005
口是心非	-12.2005
蜲	-12.2005
謢	-12.2005
進太上延禧籙	-12.2005
九天金闕明道達德大仙顯靈溥濟	-12.2006
白日昇天	-12.2006
魑魅	-12.2006
墮地獄	-12.2006
喈喈	-12.2006
𣏌	-12.2006
皇天后土	-12.2006
陟岵	-12.2006
積功累仁	-12.2006
緦	-12.2006
閻浮	-12.2006
澶	-12.2006
臰	-12.2006
揔	-12.2006
太乙救苦天尊下䧏	-12.2006
深不可測	-12.2006
淆	-12.2007
元吉无咎	-12.2007
恂恂	-12.2007
擴	-12.2007
洞天福地	-12.2007
都功籙	-12.2007
按察司	-12.2007
澶州	-12.2007
正一盟威	-12.2007
永樂十七年	-12.2007
默朝上帝	-12.2007
宓	-12.2007
毁謗	-12.2007
登泰山而小天下	-12.2007
俯瞰	-12.2007
捶	-12.2007
所臨之方	-12.2007
嘿嘿	-12.2007
怩	-12.2007
衰絰	-12.2007
宋真宗	-12.2007
涓涓	-12.2007
軒轅黄帝	-12.2008
莎	-12.2008
魏文侯	-12.2008
夜叉	-12.2008
淫僻	-12.2008
題詠	-12.2008
京畿	-12.2008
轝	-12.2008
么	-12.2008
十六十四十一九五	-12.2008
易乾卦	-12.2008
侍軄焚化生	-12.2008
籙一部	-12.2009
穡	-12.2009
遒勁	-12.2009
葭	-12.2009
螳	-12.2009
唳	-12.2009
社飯	-12.2009
規規	-12.2009
呪咀	-12.2009
跟	-12.2009
三千大界	-12.2009
太明上皇君	-12.2009
祲	-12.201
大光明王尊	-12.201
𢹂	-12.201
嘶	-12.201
纊	-12.201
㗸	-12.201
栝	-12.201
長生不死	-12.201
价	-12.201
另	-12.201
五方雷神下䧏	-12.201
噲	-12.201
猨	-12.201
雷霆都司事從	-12.2011
墠	-12.2011
死而不亡	-12.2011
麟鳳	-12.2011
侈靡	-12.2011
昭公二十五年九月	-12.2011
爪牙	-12.2011
腥臊	-12.2011
豈其然哉	-12.2011
褻瀆	-12.2011
丁壬	-12.2011
滄峽	-12.2011
亞	-12.2012
菩薩聖誕	-12.2012
献	-12.2012
班荆	-12.2012
嘯歌	-12.2012
瓊漿	-12.2012
寂然不動	-12.2012
蚩尤	-12.2012
撝	-12.2012
章持是經人名	-12.2012
攢	-12.2012
緱	-12.2012
餧	-12.2012
翬	-12.2012
三人俱行	-12.2012
五方五靈	-12.2012
伏念妾	-12.2012
舟船	-12.2012
二簋	-12.2012
炭屑	-12.2012
盬	-12.2012
冤讎	-12.2013
萋萋	-12.2013
䰟𩲸	-12.2013
邕	-12.2013
憒憒	-12.2013
欽承上命	-12.2013
行人有信	-12.2013
襁褓	-12.2013
天尊地卑	-12.2013
孟縶	-12.2013
𥂁之弊	-12.2013
市廛	-12.2014
灾迍	-12.2014
征討	-12.2014
十月之交	-12.2014
與道合真	-12.2014
馬端臨	-12.2014
儘	-12.2014
疹	-12.2014
脣	-12.2014
胚	-12.2014
逼迫	-12.2014
文王曰咨咨女殷商	-12.2014
真人昇仙	-12.2014
匹配	-12.2014
帝八威策文	-12.2014
仁智殿	-12.2014
𥘉三日	-12.2014
奉天承運皇帝制曰	-12.2014
蔑以加	-12.2014
怵惕	-12.2014
攪	-12.2015
汭	-12.2015
筥	-12.2015
仄	-12.2015
千餘里	-12.2015
辟雍	-12.2015
酖	-12.2015
春秋魯成公二年	-12.2015
春齊侯伐我北鄙圍龍頃公之嬖人盧蒲	-12.2015
靈寶赤書玉篇眞文合一百	-12.2015
𨂷	-12.2015
坪	-12.2015
涘	-12.2015
紏察	-12.2015
卑賤	-12.2015
筏	-12.2015
櫛	-12.2015
峩峩	-12.2015
工部尚書	-12.2015
慴	-12.2015
灸	-12.2015
簿籍	-12.2015
化卷第	-12.2015
吉凶悔吝	-12.2015
更衣亭	-12.2015
籛	-12.2015
者减夀半紀知而故犯者加一等一法官	-12.2015
障蔽	-12.2015
剽	-12.2015
善男子善女人	-12.2015
歲男子水星女人水星	-12.2016
迤	-12.2016
黄潜善汪伯彦	-12.2016
晷	-12.2016
查志隆	-12.2016
若何對曰	-12.2016
太陽太陰	-12.2016
澥	-12.2016
襖	-12.2016
銑	-12.2016
塞而閉之	-12.2016
廊廡	-12.2016
榦	-12.2016
粉黛	-12.2016
大明永樂	-12.2016
魚鼈	-12.2016
沌沌	-12.2016
泱泱	-12.2016
臣誠恐誠惶頓首頓首	-12.2016
蕭瑀	-12.2016
鮑叔不以爲	-12.2016
自今觀之	-12.2017
以師禮	-12.2017
晋開運	-12.2017
不得一未遽	-12.2017
李梅	-12.2017
夕惕	-12.2017
遐邇	-12.2017
孫思邈	-12.2017
三界齊臨	-12.2017
洪濛	-12.2017
縳	-12.2017
諏	-12.2017
以剛中也	-12.2017
縣尉	-12.2017
恁	-12.2017
枲	-12.2017
緜	-12.2017
錢粮	-12.2017
門擊柝	-12.2017
港	-12.2018
纍纍	-12.2018
月二十三日	-12.2018
䂓	-12.2018
收拾	-12.2018
耳目口鼻	-12.2018
心廣體胖	-12.2018
碁	-12.2018
范增	-12.2018
高上玉皇本行集經	-12.2018
弘道録俠	-12.2018
驎	-12.2018
棟宇	-12.2018
蹠	-12.2018
祈晴	-12.2019
百執事	-12.2019
伺候	-12.2019
兕虎	-12.2019
禦災捍患	-12.2019
鄭文公	-12.2019
吕夷簡	-12.2019
堊	-12.2019
雷巾	-12.2019
鷂	-12.2019
峨	-12.2019
千變萬化	-12.202
金石絲竹	-12.202
枷鎖	-12.202
驄	-12.202
以馭其	-12.202
檐	-12.202
囁	-12.202
眞人掌天下道教事張國祥奉㫖校梓	-12.202
絞	-12.202
雲霓	-12.202
果何益哉	-12.202
狀貌	-12.202
嗷嗷	-12.202
幕府	-12.202
氈	-12.202
葵	-12.202
咬	-12.202
歲男子計都星女人太陽星	-12.202
青天白日	-12.2021
不可勝計	-12.2021
洵	-12.2021
畚	-12.2021
風伯雨師	-12.2021
介然有知	-12.2021
滎	-12.2021
紫宸	-12.2021
七三六四九	-12.2021
荆軻	-12.2021
向三拜朝	-12.2021
百揆	-12.2021
歲男子水星女人木星	-12.2021
不崇朝	-12.2021
一以貫之	-12.2022
妻以女	-12.2022
供給	-12.2022
削芙蓉	-12.2022
復性則	-12.2022
捄	-12.2022
栩	-12.2022
淮南子曰	-12.2022
滄浪	-12.2022
爲灌壇令	-12.2022
仸	-12.2022
大真人張彦頨	-12.2022
歲男子木星女人水星	-12.2022
突兀	-12.2022
黄峴嶺	-12.2022
漂沉	-12.2022
𩐎	-12.2022
宸翰	-12.2022
彼何人斯	-12.2022
文彦愽	-12.2022
果而勿	-12.2022
生而神靈	-12.2022
符衆念	-12.2023
至道之精	-12.2023
玉皇殿	-12.2023
張懋丞	-12.2023
振宗風	-12.2023
謂弟子曰	-12.2023
疆域	-12.2023
警蹕	-12.2023
童僕	-12.2023
而作頌曰	-12.2023
天朗氣清	-12.2023
自古及今	-12.2023
蜂蠆	-12.2023
殪	-12.2023
毛髮	-12.2023
鼃	-12.2023
贋	-12.2023
妃嬪	-12.2024
桷	-12.2024
鞭撻	-12.2024
飜	-12.2024
帔	-12.2024
秩秩	-12.2024
與其部	-12.2024
嵯峨	-12.2024
與物冥	-12.2025
罣	-12.2025
伉	-12.2025
呻吟	-12.2025
徭	-12.2025
壅蔽	-12.2025
今從韓非本蘇註	-12.2025
旆	-12.2025
清凈無染	-12.2025
衽席	-12.2025
大悲大願大聖大慈無量度人	-12.2025
瑶壇	-12.2026
濩	-12.2026
凂	-12.2026
升元觀	-12.2026
痢	-12.2026
籤中平	-12.2026
南極上元君曰	-12.2026
季姜	-12.2026
無量度人	-12.2027
掘地	-12.2027
洄	-12.2027
良醫	-12.2027
許諾	-12.2027
廵按御史	-12.2027
堞	-12.2027
打破	-12.2027
都察院	-12.2027
鷗	-12.2027
溝瀆	-12.2027
王子搜	-12.2027
酬恩	-12.2027
隂隲	-12.2027
褫	-12.2028
草創	-12.2028
鎸	-12.2028
徐仙眞録卷之	-12.2028
賤妾	-12.2028
九垓	-12.2028
一炁七遍	-12.2028
餘米	-12.2028
卹典	-12.2028
百僚	-12.2028
屈伸	-12.2029
綫	-12.2029
畢嚥氣	-12.2029
宰孔	-12.2029
食周粟	-12.2029
𩬊	-12.2029
御史中丞	-12.2029
鶩	-12.2029
朝陽洞	-12.203
逍遥自在	-12.203
接踵	-12.203
不一而足	-12.203
以是論之	-12.203
吞吐	-12.203
周匝	-12.203
灰隔	-12.203
修行九年	-12.203
獲戾	-12.203
驅馳	-12.203
攝太尉充	-12.203
𥘉九日	-12.203
觜初	-12.203
嗑	-12.203
戚戚	-12.203
瑯	-12.203
戮辱	-12.203
李斯篆	-12.203
叩齒三通	-12.203
戊戍	-12.203
世間衆生	-12.203
圗	-12.203
溥博	-12.2031
疇昔	-12.2031
火棗	-12.2031
恚	-12.2031
萬乘之主	-12.2031
釃	-12.2031
擊壤	-12.2031
淹滯	-12.2031
鳥鵲	-12.2031
錫宴	-12.2032
陀羅	-12.2032
燈燭	-12.2032
倐	-12.2032
夜光玉女	-12.2032
枯稿	-12.2032
狹鄉	-12.2032
分理官	-12.2032
厲聲曰	-12.2033
董仲舒	-12.2033
紫薇	-12.2033
十二華光	-12.2033
未之聞也	-12.2033
巇	-12.2033
知之所知	-12.2033
閟宫	-12.2034
蜺	-12.2034
枸	-12.2034
嗔怒	-12.2034
命過之後	-12.2034
根抵	-12.2034
痛哭	-12.2035
絪緼	-12.2035
不自見故	-12.2035
豈偶然哉	-12.2035
輪扁	-12.2036
丕顯	-12.2036
甖	-12.2036
彚	-12.2036
執鞭	-12.2036
道統之傳	-12.2036
鴟鳶	-12.2036
猶可言也	-12.2036
上得九六則之	-12.2036
邦乂	-12.2036
弗若也	-12.2036
蛟精	-12.2036
絲竹	-12.2036
烏兔	-12.2037
𩔖	-12.2037
深邃	-12.2037
王侍宸	-12.2037
修葺	-12.2037
小徃大來	-12.2037
輝煌	-12.2037
品秩	-12.2037
寡婦	-12.2037
田禾	-12.2037
元始天王	-12.2037
遲速	-12.2037
既塟	-12.2037
砥	-12.2037
眞人之號	-12.2037
不旋踵間	-12.2037
猜忌	-12.2037
活計	-12.2038
哩	-12.2038
迫切	-12.2038
蟾光	-12.2038
纛	-12.2038
邑姜	-12.2038
细目見	-12.2038
軒轅氏	-12.2038
冠裳	-12.2038
蕭條	-12.2038
坳	-12.2038
巡撫山東	-12.2038
救拔	-12.2038
波浪	-12.2038
瓊英	-12.2038
洛邑	-12.2039
猶難之	-12.2039
顰	-12.2039
馬蹄	-12.2039
創業	-12.2039
爭闘	-12.2039
粒食	-12.2039
劍印	-12.204
秣	-12.204
崢嶸	-12.204
順軌	-12.204
姑蘇	-12.2041
錄	-12.2042
悖逆	-12.2042
軒皇	-12.2042
複	-12.2042
宿之次	-12.2042
坦平	-12.2043
金莖	-12.2043
屋宇	-12.2043
嵐氣	-12.2043
祚胤	-12.2043
撥亂	-12.2043
石守道	-12.2043
禮部尚書	-12.2043
默契	-12.2043
賜金帛	-12.2043
相得而合爲	-12.2043
茫然	-12.2043
薄暮	-12.2044
何敢望	-12.2044
如是如是	-12.2044
玉鉉	-12.2044
卑弱	-12.2044
晦庵	-12.2044
覆轍	-12.2044
貧乏	-12.2044
紫烟	-12.2044
憮然	-12.2045
玉皇閣	-12.2045
初㬋符頭	-12.2045
徧滿	-12.2045
九天雷祖大	-12.2045
避席	-12.2046
高上玉皇尊	-12.2046
鬼入人	-12.2046
妻孥	-12.2046
注生堂	-12.2046
和諧	-12.2046
膏澤	-12.2046
牝馬	-12.2046
市肆	-12.2046
比肩	-12.2047
鑿井	-12.2047
八十一章	-12.2047
暗裏	-12.2047
登覽志	-12.2048
竚	-12.2048
青苗	-12.2048
不幾於	-12.2048
十六卦	-12.2048
艮離坎坤震巽中	-12.2049
陷弱	-12.2049
七級	-12.2049
古之眞人	-12.2049
芳草	-12.2049
闔門	-12.205
列仙傳	-12.205
下降人間	-12.205
之不置	-12.205
凈醮	-12.205
嗇夫	-12.205
陽燧	-12.205
毁譽	-12.205
戊己	-12.205
張俊	-12.2051
寥落	-12.2051
蔡京	-12.2052
目錄	-12.2052
枘	-12.2052
歡悅	-12.2053
桑林	-12.2053
文武周公	-12.2053
靈觀大聖	-12.2053
荳	-12.2053
亷	-12.2054
韋氏	-12.2054
褒顯	-12.2054
詩一章	-12.2055
充塞	-12.2055
蒼穹	-12.2055
昭鑑	-12.2055
赴闕	-12.2055
唐開元	-12.2056
㖿	-12.2056
營丘	-12.2056
奔波	-12.2056
殷湯	-12.2056
君臣上下	-12.2057
生死之道	-12.2057
豈料	-12.2057
𨇠	-12.2058
鳴條	-12.2058
伐紂	-12.2058
之深意	-12.2059
驚怖	-12.2059
默佑	-12.2059
繩墨	-12.206
披髮	-12.206
却封禪	-12.206
銳意	-12.206
玄齡	-12.206
道經師	-12.2061
貞觀初	-12.2061
州吁	-12.2061
衰弱	-12.2061
霜寒	-12.2061
饑寒	-12.2062
玉蟾	-12.2062
與天齊	-12.2063
雖危不	-12.2063
伏尸	-12.2063
公瑾	-12.2064
讒間	-12.2064
昭彰	-12.2065
急急如	-12.2065
哀慕	-12.2065
秩宗	-12.2065
録曰此唐	-12.2066
故授之以	-12.2067
仙蹤	-12.2067
他郷	-12.2069
諷經	-12.2069
達磨	-12.2069
端莊	-12.2069
坦坦	-12.207
貴戚	-12.207
神怒不	-12.2072
百穀	-12.2072
寃枉	-12.2073
宫龍女啓請	-12.2073
昌隆	-12.2074
暴露	-12.2074
異鵲	-12.2074
翠壁	-12.2075
虛無自然	-12.2075
何仙姑	-12.2075
倒景	-12.2076
出于性	-12.2076
此四者	-12.2076
滿腹	-12.2077
題刻	-12.2077
終日戒	-12.2078
結茅	-12.2078
榮枯	-12.2079
禁忌	-12.2079
百畆	-12.208
羔羊	-12.208
頓息	-12.2081
按詩傳	-12.2081
高二丈	-12.2084
委質	-12.2084
嘉祐	-12.2085
杭州	-12.2086
太醫	-12.2086
杖策	-12.2086
奢侈	-12.2087
驕恣	-12.2088
昇遷	-12.2089
偏枯	-12.2092
玉帝所居	-12.2093
以身任	-12.2098
第幾	-12.2099
按春秋傳	-12.2104
著靈異	-12.2104
與道俱	-12.2106
可不愼哉	-12.2106
姚淫	-12.2106
小龍口	-12.2111
以己爲	-12.2113
忠烈	-12.2126
心腹無註	-12.2127
月二十六日	-12.2129
上焉者	-12.2142
凛然	-12.2147
其畧曰	-12.2154
與天地並	-12.2159
微㫖	-12.2167
星君南斗天	-12.2178
呈瑞	-12.2179
賊盜	-12.2195
迅雷	-12.2197
不知者以爲	-12.2201
身命宫主	-12.2218
元神御	-12.2221
聖人之迹	-12.2224
小龍峪	-12.2229
其極則	-12.2229
太平頂	-12.2233
彩霞	-12.2233
謁元君	-12.224
育群生	-12.2241
遣官祭	-12.2244
岳麓	-12.2251
十有二年	-12.2271
不能保其	-12.2281
至聖至靈至	-12.2283
歸其室	-12.229
保安寧	-12.2302
者有所不	-12.2303
晨之氣諱	-12.2304
玄宗開元	-12.2316
濂溪	-12.2349
山東濟南	-12.2353
持是經	-12.236
惡星沖	-12.236
玉皇頂	-12.2372
炳靈	-12.2392
齎勑	-12.2419
蕩穢	-12.2437
千𡻕	-12.2449
雨雹	-12.2473
以感人	-12.2497
玄君誥奉天承運皇帝制曰	-12.2507
玄天上帝感應靈籤第二十	-12.2512
春秋魯僖公	-12.2539
珍珠	-12.2573
者比也	-12.2594
機巧	-12.262
峰頂	-12.2621
夢神人	-12.2627
十餘歲	-12.2656
曷敢	-12.2729
神仙兵馬	-12.2758
千尺	-12.2833
侵奪	-12.2855
崔氏	-12.2939
安處無註	-12.3053
高明弘靜冲湛妙應仁惠輔國佑民	-12.3079
可勝言	-12.3123
高明弘靜冲湛妙應仁惠輔國佑民洪恩	-12.3136
鰲頂	-12.32
邪精鬼賊	-12.327
猶未足	-12.334
十畆	-12.335
寸餘	-12.3419
所以然者	-12.3522
宋濂	-12.3575
科第	-12.3673
中神仙諸靈官謹燃璣衡七政神燈上布	-12.3683
太祖皇帝	-12.3685
至聖至靈	-12.3711
寳月光皇后	-12.3777
按春秋昭公二	-12.3779
嶧	-12.3845
天樞院事從	-12.3908
猖	-12.3918
洪恩真君	-12.3937
焕爛	-12.3944
奉獻奉獻上帝前	-12.3948
瓴	-12.3954
年月日時爲有氣生旺吉墓絶㐫	-12.3956
敲	-12.3957
渫	-12.396
二宫併	-12.396
渦	-12.3963
勸汝莫	-12.3964
恭己南面	-12.3966
艮其背	-12.3967
袁盎	-12.3967
官之臣所謂	-12.3968
簋	-12.3968
皋	-12.397
旱既大甚	-12.397
蚿	-12.397
難以水孛爲仇以火羅爲恩以金爲用	-12.3971
鵲噪	-12.3971
以木氣爲	-12.3971
五岳四瀆	-12.3972
石榴	-12.3974
兠	-12.3974
莫不隸焉	-12.3974
十五日之寳	-12.3974
磊	-12.3975
在州南	-12.3975
四海九江	-12.3975
角斗奎井	-12.3975
埜	-12.3977
景星慶雲	-12.3977
觀音菩薩	-12.3977
山林川澤	-12.3977
超凡入聖	-12.3978
豈非千古之	-12.3978
郁郁	-12.3978
或有能聞是此香者	-12.3978
篷	-12.3979
善養生者	-12.3979
廣生帝君	-12.3979
蘋	-12.398
出扵天性	-12.398
英宗即位	-12.3981
崛起	-12.3981
孚于剥	-12.3982
萃有位	-12.3982
陛辭而還	-12.3982
月爲令星	-12.3982
回心向道	-12.3982
聖誕十五日	-12.3983
掌天下道教事	-12.3983
嵎	-12.3983
蜒	-12.3983
睛	-12.3983
瑛	-12.3983
黼	-12.3983
繟	-12.3983
止止則	-12.3984
驊騮	-12.3984
難以金爲仇以木氣爲恩以土計爲用	-12.3984
利有攸徃彖曰	-12.3984
足以解憂	-12.3984
巽震坤	-12.3985
以水孛爲	-12.3985
蔡確	-12.3985
革言三就	-12.3986
聒	-12.3986
難以木氣爲仇以土計爲恩以水孛爲用	-12.3986
狄梁公	-12.3987
傲來山	-12.3987
徒九年一法官道士	-12.3987
以火羅爲	-12.3987
至聖炳靈王	-12.3987
天下歸仁	-12.3987
[...]
