<unk>	0
<s>	0
</s>	0
也	-4.06595
之	-4.11151
而	-4.52681
者	-4.6512
/	-4.77534
以	-4.78824
爲	-5.01712
則	-5.01869
)	-5.07559
(	-5.09223
其	-5.158
有	-5.1675
不	-5.19527
於	-5.30989
故	-5.35792
無	-5.41417
人	-5.49574
一	-5.66179
生	-5.67464
矣	-5.7609
大	-5.79594
道	-5.82961
曰	-5.87153
)(	-5.88446
言	-5.88894
自	-5.93915
此	-5.9468
用	-5.97097
是	-6.00188
心	-6.01021
乎	-6.01959
上	-6.02153
中	-6.04303
子	-6.04411
如	-6.05857
非	-6.08154
天	-6.09897
下	-6.12062
,	-6.13348
若	-6.13884
與	-6.13893
知	-6.15619
至	-6.16848
行	-6.19103
得	-6.19542
能	-6.21745
神	-6.2572
明	-6.27708
皆	-6.29653
物	-6.29858
所	-6.31285
○	-6.31495
見	-6.32959
即	-6.33716
在	-6.35149
然	-6.36881
成	-6.37073
名	-6.37226
亦	-6.38039
氣	-6.40975
夫	-6.4234
可	-6.4305
出	-6.44281
三	-6.44717
時	-6.45679
作	-6.47322
事	-6.47401
乃	-6.4783
又	-6.48411
水	-6.48579
同	-6.51058
謂	-6.51155
入	-6.53441
▁	-6.54286
常	-6.56216
欲	-6.58105
反	-6.61109
眞	-6.64701
德	-6.64804
今	-6.66377
或	-6.66506
法	-6.66588
去	-6.66955
相	-6.67925
身	-6.68673
内	-6.69738
日	-6.7058
及	-6.71486
形	-6.72232
取	-6.73211
當	-6.73747
方	-6.74192
本	-6.75494
云	-6.75768
天下	-6.7648
為	-6.76837
合	-6.77186
而不	-6.77547
雖	-6.77746
聖人	-6.77877
善	-6.78273
使	-6.7852
焉	-6.7978
主	-6.81156
我	-6.81198
已	-6.81202
多	-6.83156
化	-6.83327
正	-6.84143
後	-6.84184
必	-6.8478
五	-6.84865
二	-6.84951
地	-6.85258
外	-6.85634
將	-6.85858
令	-6.86603
音	-6.8662
所以	-6.87867
死	-6.88363
吾	-6.8839
治	-6.88437
處	-6.88628
耳	-6.89413
君	-6.89702
山	-6.91245
通	-6.91385
不可	-6.91451
和	-6.92932
四	-6.93019
理	-6.93151
先	-6.93273
猶	-6.94373
不能	-6.94719
天地	-6.94875
因	-6.95155
萬物	-6.95706
精	-6.96052
安	-6.96436
金	-6.97272
火	-6.97612
復	-6.98152
哉	-6.98364
從	-6.98529
故曰	-6.99222
性	-7.00545
經	-7.00913
實	-7.01727
服	-7.0269
王	-7.03143
小	-7.03314
民	-7.03943
來	-7.05139
居	-7.05464
命	-7.05504
長	-7.05643
既	-7.05951
陽	-7.05956
世	-7.07211
九	-7.0731
白	-7.07822
食	-7.07849
風	-7.07894
。	-7.08174
无	-7.08321
分	-7.08953
應	-7.09518
何	-7.09987
䟽	-7.11458
文	-7.12172
觀	-7.1235
前	-7.13714
盡	-7.1423
師	-7.15047
體	-7.15253
重	-7.1571
立	-7.15749
動	-7.16313
失	-7.17652
玄	-7.18033
惡	-7.18285
未	-7.18462
注	-7.18637
靈	-7.1865
虚	-7.19029
求	-7.22582
以爲	-7.23173
養	-7.23187
意	-7.23312
諸	-7.24257
始	-7.24482
易	-7.24625
字	-7.24849
蓋	-7.25156
不知	-7.25293
藥	-7.25349
石	-7.25818
高	-7.26393
國	-7.26485
利	-7.26607
聖	-7.26688
數	-7.26943
者也	-7.27479
⬤	-7.27685
彼	-7.27695
衆	-7.27749
好	-7.28056
六	-7.28538
凡	-7.28976
歸	-7.3023
自然	-7.30701
難	-7.32084
守	-7.32349
切	-7.3284
平	-7.33415
過	-7.3344
足	-7.33579
極	-7.34418
止	-7.34484
邪	-7.34672
公	-7.3506
變	-7.35078
所謂	-7.35557
兩	-7.35901
定	-7.36221
于	-7.36306
受	-7.36382
樂	-7.36425
臣	-7.37002
各	-7.37146
信	-7.37492
七	-7.38409
聞	-7.38519
陰	-7.38874
全	-7.39154
謂之	-7.39449
義	-7.39576
己	-7.3969
起	-7.39739
惟	-7.3991
書	-7.40041
智	-7.40329
色	-7.40479
說	-7.41396
靜	-7.41643
清	-7.41832
解	-7.4199
存	-7.42156
木	-7.43011
之所	-7.43151
丹	-7.4328
且	-7.43431
光	-7.43505
萬	-7.43697
教	-7.43794
爾	-7.44172
傳	-7.44426
根	-7.4452
黄	-7.44565
固	-7.44924
門	-7.45209
深	-7.45936
不得	-7.46068
異	-7.46088
土	-7.46132
功	-7.46529
微	-7.46543
終	-7.47938
志	-7.48002
遂	-7.4847
貴	-7.48638
仙	-7.48901
妙	-7.49042
著	-7.49787
目	-7.49863
修	-7.49895
註	-7.50021
斯	-7.50062
元	-7.50142
忘	-7.50294
家	-7.50628
絶	-7.50816
發	-7.51188
亂	-7.51644
情	-7.51705
力	-7.51934
流	-7.52023
開	-7.52197
口	-7.52321
少	-7.52355
藏	-7.52529
之道	-7.52815
可以	-7.53197
豈	-7.53247
年	-7.54315
直	-7.54997
强	-7.55121
符	-7.55293
章	-7.55439
玉	-7.56299
禮	-7.56665
似	-7.56872
隨	-7.57011
但	-7.57544
學	-7.57867
炁	-7.58022
帝	-7.58402
八	-7.58814
致	-7.59216
初	-7.59278
勝	-7.5965
問	-7.59709
執	-7.59763
而已	-7.59807
散	-7.6005
宜	-7.60263
古	-7.60408
唯	-7.60418
次	-7.60551
由	-7.60597
末	-7.61785
馬	-7.61813
無爲	-7.61823
遠	-7.62086
運	-7.62889
任	-7.63058
莫	-7.63387
汝	-7.6359
州	-7.64928
離	-7.64984
病	-7.65038
甚	-7.65053
等	-7.65267
周	-7.65886
宫	-7.65982
聲	-7.66531
亡	-7.66673
制	-7.67104
兵	-7.67187
空	-7.67298
右	-7.67486
是以	-7.6844
如此	-7.68509
息	-7.68669
月	-7.68686
官	-7.68886
伏	-7.68945
視	-7.68954
獨	-7.68986
舉	-7.7002
益	-7.7006
百	-7.70066
並	-7.70375
無所	-7.70423
度	-7.70757
青	-7.70849
稱	-7.70979
鬼	-7.71063
順	-7.71646
更	-7.718
龍	-7.71895
便	-7.72269
殺	-7.73055
還	-7.73081
尚	-7.73188
草	-7.73244
隱	-7.73416
積	-7.73475
結	-7.73666
象	-7.73959
熱	-7.74286
傷	-7.74465
一名	-7.74572
適	-7.74616
華	-7.74795
十	-7.75202
陰陽	-7.75255
位	-7.75515
赤	-7.76129
損	-7.76283
降	-7.76383
飛	-7.76853
進	-7.77398
寒	-7.77422
仁	-7.78235
愛	-7.7836
母	-7.78666
除	-7.78686
語	-7.78998
往	-7.79029
要	-7.79296
齊	-7.79685
人之	-7.79724
老	-7.79995
葉	-7.8007
尊	-7.80257
疾	-7.80302
思	-7.80614
雲	-7.80944
俱	-7.81238
俗	-7.8133
指	-7.8206
害	-7.82296
厚	-7.82311
寳	-7.8255
眞人	-7.82653
頭	-7.82755
節	-7.82816
遊	-7.82988
間	-7.83412
向	-7.83625
顯	-7.83681
親	-7.84201
朝	-7.84626
也夫	-7.85266
論	-7.85402
廣	-7.85484
號	-7.85686
福	-7.85933
美	-7.86194
加	-7.86594
滿	-7.86729
識	-7.86849
賢	-7.86938
會	-7.87495
别	-7.87511
士	-7.87636
乆	-7.88511
轉	-7.89901
也故	-7.89999
毒	-7.90008
窮	-7.90471
魚	-7.90609
容	-7.90979
南	-7.91159
乾	-7.92428
興	-7.92544
而無	-7.92562
了	-7.92752
保	-7.92995
患	-7.93063
近	-7.93491
持	-7.93568
須	-7.95383
西	-7.95485
太	-7.95687
交	-7.96589
東	-7.96667
累	-7.96954
滅	-7.97129
苦	-7.97487
衣	-7.97605
香	-7.97937
星	-7.98259
汞	-7.98867
老子	-7.98981
之人	-7.99142
陳	-7.99356
輕	-7.99486
花	-7.99787
老君	-7.99833
至於	-8.00178
紫	-8.00478
温	-8.00485
并	-8.00707
照	-8.00831
感	-8.01082
爭	-8.01771
女	-8.02532
達	-8.02638
氏	-8.02665
血	-8.02787
味	-8.02903
戒	-8.02913
棄	-8.02988
果	-8.03081
盛	-8.03533
禍	-8.03799
施	-8.04102
就	-8.04605
遇	-8.05265
備	-8.05405
迹	-8.0543
然後	-8.05643
妄	-8.05705
是也	-8.05776
請	-8.05913
奉	-8.05995
載	-8.06147
造	-8.06173
大道	-8.06205
細	-8.06604
器	-8.06661
故云	-8.06727
其所	-8.0718
車	-8.076
念	-8.0791
都	-8.07926
共	-8.07984
張	-8.08652
壽	-8.08709
宗	-8.0908
遺	-8.09123
愈	-8.09123
有所	-8.09326
具	-8.10727
真	-8.11299
篇	-8.11307
勞	-8.11313
誠	-8.11517
夜	-8.11699
酒	-8.11726
聽	-8.11758
故能	-8.12243
海	-8.12312
辯	-8.1246
勿	-8.12696
巳	-8.12855
不足	-8.13131
迷	-8.13559
待	-8.13801
却	-8.13868
道之	-8.14309
夢	-8.14455
黑	-8.14556
辭	-8.14709
太上	-8.14803
每	-8.14893
逆	-8.14972
引	-8.15555
而後	-8.15904
歲	-8.16047
莊子	-8.16133
鉛	-8.16327
類	-8.16547
魂	-8.16696
餘	-8.17028
御	-8.17201
變化	-8.17204
喪	-8.17336
依	-8.17514
薄	-8.1769
坐	-8.17766
喜	-8.17789
屬	-8.18319
之中	-8.18453
首	-8.18519
不爲	-8.18521
湯	-8.19201
:「	-8.19211
砂	-8.19505
悟	-8.19682
代	-8.19695
授	-8.19709
手	-8.19762
父	-8.20175
罪	-8.20218
告	-8.20418
再	-8.205
對	-8.205
室	-8.21072
喻	-8.21335
是非	-8.21475
服之	-8.21716
假	-8.21762
北	-8.22109
舍	-8.22242
乗	-8.22299
道德	-8.22306
疑	-8.22519
仁義	-8.22917
願	-8.23062
憂	-8.23101
肉	-8.24355
愚	-8.24367
覺	-8.24371
景	-8.24922
新	-8.24982
堅	-8.24986
旣	-8.24992
耶	-8.25005
報	-8.25299
先生	-8.25306
推	-8.25358
骨	-8.25432
懷	-8.25577
務	-8.2569
爲之	-8.2591
素	-8.26017
建	-8.26044
敗	-8.2618
封	-8.2633
天下之	-8.26346
鍊	-8.26471
是謂	-8.26526
覆	-8.26947
慮	-8.27166
政	-8.27719
弱	-8.27822
汁	-8.27868
徒	-8.27871
之意	-8.27951
消	-8.28116
孔子	-8.28153
司	-8.28247
蟲	-8.28508
盈	-8.28516
留	-8.28543
之間	-8.28925
縁	-8.29006
嘗	-8.2901
不以	-8.30062
急	-8.301
半	-8.30142
畏	-8.30149
無不	-8.30573
退	-8.30785
曲	-8.30873
質	-8.30943
寧	-8.30999
危	-8.31017
君子	-8.31127
機	-8.31441
洞	-8.31456
業	-8.31503
放	-8.31678
李	-8.31839
聚	-8.32191
敬	-8.32311
刑	-8.32606
威	-8.32717
左	-8.32729
千	-8.32986
塵	-8.33026
冷	-8.33188
私	-8.333
兮	-8.33302
也䟽	-8.33306
濟	-8.33397
許	-8.33528
煮	-8.33547
不敢	-8.33664
良	-8.33694
廢	-8.33722
皮	-8.34049
貪	-8.34212
臨	-8.34503
殊	-8.34871
卷	-8.35345
;	-8.35422
未嘗	-8.35737
計	-8.35754
畢	-8.35779
無窮	-8.36088
魄	-8.36153
冥	-8.36215
忽	-8.36267
釋	-8.36424
榮	-8.36574
調	-8.36788
春	-8.36858
資	-8.36992
望	-8.37124
用之	-8.37159
面	-8.37478
含	-8.37599
境	-8.37777
比	-8.37814
破	-8.38017
恐	-8.38109
皇	-8.38127
示	-8.38326
圖	-8.38507
貌	-8.38563
逐	-8.38732
幽	-8.38763
日月	-8.39262
候	-8.39334
布	-8.39337
兼	-8.39357
驚	-8.39645
一兩	-8.39676
之心	-8.39869
役	-8.3996
集	-8.4003
銀	-8.40126
林	-8.40535
夏	-8.40631
怨	-8.40881
武	-8.4118
不見	-8.4135
徳	-8.41461
召	-8.41702
游	-8.41747
長生	-8.41989
被	-8.42279
隂	-8.42357
田	-8.42568
種	-8.42686
權	-8.42854
之事	-8.43304
賤	-8.43444
柔	-8.43769
熟	-8.4397
谷	-8.44414
收	-8.44662
上下	-8.44968
圓	-8.45021
置	-8.45174
慈	-8.45502
烏	-8.45547
效	-8.45675
卒	-8.45696
淵	-8.45766
暴	-8.45828
紀	-8.45856
物之	-8.46173
齋	-8.4622
察	-8.46292
飲	-8.46472
而生	-8.46762
斷	-8.46851
永	-8.46982
道者	-8.47099
救	-8.47139
以其	-8.47235
登	-8.47499
設	-8.479
契	-8.48021
恩	-8.48455
表	-8.48579
昔	-8.48718
牛	-8.49078
漸	-8.49289
遣	-8.49359
巧	-8.4936
生於	-8.49584
甘	-8.49658
幾	-8.49897
原	-8.50071
專	-8.5024
虎	-8.50249
落	-8.5043
府	-8.50677
違	-8.50759
以此	-8.51007
而爲	-8.51016
衰	-8.51273
列	-8.51896
謀	-8.52694
縣	-8.52739
富	-8.52799
精神	-8.52976
雜	-8.53191
粉	-8.5347
路	-8.53561
差	-8.53576
之理	-8.53693
丘	-8.53693
痛	-8.53791
宿	-8.53813
返	-8.53847
賜	-8.53891
納	-8.5396
久	-8.54009
約	-8.54371
一日	-8.54477
惑	-8.54564
關	-8.54707
之時	-8.54777
唐	-8.54901
澤	-8.54911
吉	-8.55447
戰	-8.55663
其心	-8.55683
偏	-8.55909
辱	-8.5591
水銀	-8.56412
不同	-8.56461
於此	-8.56465
疏	-8.56603
投	-8.56751
採	-8.56803
老子曰	-8.56834
有餘	-8.57025
按	-8.57126
燒	-8.57186
療	-8.57304
神仙	-8.57407
不可以	-8.57422
河	-8.57653
回	-8.57729
而有	-8.57737
記	-8.57929
灰	-8.5804
知其	-8.58114
閉	-8.58208
哀	-8.58276
百姓	-8.58289
量	-8.583
履	-8.58435
況	-8.58451
瘡	-8.58453
冬	-8.58752
勢	-8.58902
言其	-8.58962
術	-8.58988
則無	-8.59033
濁	-8.59291
期	-8.5934
漢	-8.59444
足以	-8.59484
奇	-8.59585
咸	-8.59667
他	-8.59757
也言	-8.59779
塞	-8.59833
天地之	-8.59927
悦	-8.60094
之以	-8.60196
姓	-8.60453
弟子	-8.60476
堯	-8.60616
胎	-8.60774
盜	-8.60813
予	-8.60973
簡	-8.61116
造化	-8.61142
凝	-8.61189
浮	-8.61241
崇	-8.61466
才	-8.61743
死生	-8.61875
無形	-8.6191
五行	-8.61943
一切	-8.62081
夷	-8.62128
到	-8.62232
仰	-8.62425
朱	-8.62453
無有	-8.62579
垂	-8.62586
奏	-8.62684
承	-8.62775
可謂	-8.62887
河曰	-8.62916
塗	-8.62958
乘	-8.63017
蛇	-8.63077
於是	-8.63105
天道	-8.6313
矜	-8.63227
補	-8.63324
特	-8.63566
禁	-8.63868
之則	-8.6393
髙	-8.64125
序	-8.64141
鳥	-8.64143
伯	-8.6426
剛	-8.64389
孰	-8.64458
寂	-8.64495
至人	-8.64539
財	-8.64605
苟	-8.64678
樹	-8.64678
甲	-8.64778
怒	-8.64897
飾	-8.65215
宋	-8.65376
謹	-8.65408
秋	-8.65431
角	-8.65917
録	-8.65923
柔弱	-8.66052
出於	-8.66143
之言	-8.662
鼎	-8.66242
雄	-8.66406
之士	-8.66548
凶	-8.66732
十二	-8.66767
樸	-8.66939
秦	-8.66977
賊	-8.67163
丹砂	-8.67202
城	-8.67579
端	-8.67708
攝	-8.67755
令人	-8.67796
縱	-8.67871
遷	-8.68003
越	-8.68117
四時	-8.68296
密	-8.68437
食之	-8.68754
人也	-8.6895
道也	-8.69142
紅	-8.69711
某	-8.69804
臺	-8.69812
也故曰	-8.69907
抱	-8.69972
連	-8.70035
背	-8.70066
仍	-8.70175
雨	-8.7022
衛	-8.70222
總	-8.70304
鐵	-8.70421
其道	-8.7053
世人	-8.70666
斗	-8.70717
清靜	-8.70779
名曰	-8.70973
於人	-8.71022
冠	-8.71214
歷	-8.71342
其身	-8.71463
自得	-8.71559
生死	-8.71589
之後	-8.71678
敵	-8.71781
祖	-8.71909
堂	-8.71924
拜	-8.72063
最	-8.72122
休	-8.72235
無名	-8.72509
知之	-8.72612
啓	-8.72621
伐	-8.72786
尋	-8.72841
腹	-8.72869
庭	-8.72893
禀	-8.72988
源	-8.73253
淨	-8.73355
怪	-8.73396
里	-8.73433
而不知	-8.73479
習	-8.73553
野	-8.7356
均	-8.73583
獲	-8.73682
卑	-8.73873
寄	-8.73883
一斤	-8.73953
丸	-8.74273
博	-8.74324
狀	-8.74339
驗	-8.74366
道士	-8.74369
壇	-8.74372
訣	-8.74384
雖有	-8.74587
句	-8.74742
奚	-8.74793
黃	-8.75051
則有	-8.75145
徐	-8.75427
謝	-8.755
是以聖人	-8.75527
研	-8.75557
住	-8.75574
充	-8.75643
只	-8.75665
折	-8.75689
呼	-8.75708
跡	-8.7576
泉	-8.75866
不及	-8.75947
衆人	-8.75988
陸	-8.76103
胡	-8.76104
延	-8.76257
接	-8.76411
犯	-8.76449
附	-8.76652
慕	-8.76697
珠	-8.7674
助	-8.7683
證	-8.76902
眼	-8.77051
梁	-8.77145
敢	-8.77393
蒙	-8.77453
也故云	-8.77465
使人	-8.77548
不足以	-8.77555
言之	-8.7778
屈	-8.77795
天尊至心信禮	-8.77882
泥	-8.78077
蕩	-8.78085
昌	-8.78308
楚	-8.78586
枝	-8.78656
河上公曰	-8.78868
於道	-8.78938
必有	-8.78991
黄帝	-8.7913
况	-8.79244
詳	-8.79261
也若	-8.79393
超	-8.79678
群	-8.79848
之法	-8.79848
宣	-8.80094
之名	-8.8019
略	-8.80268
羊	-8.8029
匱	-8.80301
煎	-8.80511
經云	-8.80624
之功	-8.80641
鹽	-8.80728
淫	-8.80734
則不	-8.8096
錢	-8.81185
又云	-8.81627
移	-8.81652
弊	-8.81666
者不	-8.81802
工	-8.81885
而成	-8.81981
得之	-8.81994
然則	-8.82021
虛	-8.82061
僞	-8.82083
歌	-8.82247
惠	-8.82357
勇	-8.82436
考	-8.82699
免	-8.82702
者非	-8.82725
得其	-8.82767
其德	-8.82803
逺	-8.82893
㫖	-8.83075
影	-8.83256
參	-8.83293
以道	-8.83312
者必	-8.83384
孝	-8.83442
彰	-8.83465
舊	-8.83494
忠	-8.83573
泰	-8.83589
者皆	-8.83673
孔	-8.83753
改	-8.83771
鬼神	-8.83961
無心	-8.84038
客	-8.84215
勤	-8.84238
申	-8.84307
羅	-8.84462
速	-8.84499
羣	-8.8461
露	-8.84949
毛	-8.8507
責	-8.85095
神明	-8.85263
之謂	-8.85435
鼻	-8.85448
四兩	-8.85454
與物	-8.85479
不用	-8.85594
負	-8.85806
昇	-8.85824
髮	-8.85859
徹	-8.85914
御註	-8.85915
謙	-8.85931
滯	-8.86055
職	-8.8606
煩	-8.86375
吐	-8.86461
走	-8.86496
潤	-8.86578
輔	-8.86613
殿	-8.86688
宅	-8.86699
齒	-8.86783
嚴	-8.86848
託	-8.86853
辨	-8.87017
不生	-8.8706
未有	-8.8713
列子	-8.87217
孫	-8.87297
水火	-8.8737
昏	-8.87419
笑	-8.87444
陵	-8.87594
傾	-8.87685
鳴	-8.87721
於物	-8.87723
升	-8.8777
矣故	-8.87781
是故	-8.87817
井	-8.87921
混	-8.88085
趣	-8.88171
父母	-8.8847
審	-8.88659
。」	-8.88707
貨	-8.88911
劍	-8.88973
誰	-8.89011
儀	-8.89223
隂陽	-8.89275
悉	-8.89462
純	-8.89548
捨	-8.89838
竭	-8.8986
恃	-8.89922
穢	-8.90131
盖	-8.90337
二兩	-8.90501
印	-8.90505
委	-8.90505
毁	-8.90611
侍	-8.90674
尤	-8.90683
古之	-8.90765
沉	-8.90765
悲	-8.90813
普	-8.90823
寡	-8.90894
與之	-8.9097
不爭	-8.91069
之地	-8.91098
莖	-8.91278
莊子曰	-8.91573
營	-8.91733
天之	-8.9177
晋	-8.91776
循	-8.91911
希	-8.92056
史	-8.92265
之義	-8.92278
魏	-8.92341
三年	-8.92384
眞君	-8.92447
户	-8.92508
壯	-8.92673
據	-8.92779
淳	-8.9283
無欲	-8.92914
義曰	-8.9297
歟	-8.93127
之於	-8.93135
其性	-8.93182
通玄經曰	-8.93224
左右	-8.93278
係	-8.93353
恒	-8.93387
忌	-8.93392
奪	-8.93534
商	-8.93534
條	-8.93554
而能	-8.93674
决	-8.93699
有爲	-8.93724
然而	-8.93792
扶	-8.9383
腎	-8.93868
至道	-8.93874
經曰	-8.93878
偽	-8.93888
禹	-8.94225
干	-8.94303
夫子	-8.94398
懼	-8.94438
雱曰	-8.94485
中有	-8.94515
軍	-8.94564
聖人之	-8.94661
辟	-8.94812
刀	-8.9495
亦有	-8.95052
帶	-8.95107
吏	-8.9519
者亦	-8.95408
者爲	-8.95443
之氣	-8.95482
潜	-8.95516
育	-8.95913
避	-8.95937
辰	-8.96062
莫不	-8.96224
七日	-8.96309
之道也	-8.96313
鼓	-8.96314
羽	-8.96334
顧	-8.96371
包	-8.96448
述	-8.96452
者是	-8.96497
無知	-8.9663
而自	-8.97281
司馬云	-8.97343
厭	-8.97428
岀	-8.97457
虚無	-8.97486
亦不	-8.97579
魯	-8.97592
慶	-8.97604
卧	-8.97675
之上	-8.97698
淺	-8.97899
此言	-8.98012
者謂	-8.98112
默	-8.98129
之所以	-8.982
竊	-8.98358
昭	-8.986
遍	-8.98728
鄉	-8.98954
第三	-8.99112
率	-8.99118
劫	-8.99234
化爲	-8.99288
於外	-8.99294
竹	-8.99418
弗	-8.99488
㝠	-8.99513
川	-8.99632
步	-8.99811
部	-8.99842
舜	-8.99861
點	-8.99917
勸	-8.99946
不如	-9.00405
禄	-9.01094
逃	-9.01131
以為	-9.01222
爲末	-9.01324
學者	-9.01348
增	-9.01417
困	-9.01463
趨	-9.01648
苗	-9.01652
膏	-9.01777
如是	-9.01804
出入	-9.01866
又曰	-9.01929
無極	-9.0215
卦	-9.02227
想	-9.02283
余	-9.02423
兹	-9.0243
無私	-9.02451
懸	-9.02497
虧	-9.02542
夭	-9.0272
遭	-9.02762
肝	-9.02797
諸侯	-9.02819
何以	-9.02862
内外	-9.02971
太極	-9.0298
吹	-9.03131
祭	-9.03326
所以爲	-9.03341
第一	-9.035
射	-9.03522
看	-9.03565
庶	-9.03757
趙	-9.03827
統	-9.04041
讀	-9.04108
短	-9.04224
後世	-9.04326
富貴	-9.0433
江	-9.04333
領	-9.04349
克	-9.04428
脩	-9.04526
旋	-9.04609
見其	-9.04825
染	-9.04839
脱	-9.04945
米	-9.04958
童	-9.05254
五色	-9.05367
祥	-9.05432
涉	-9.05518
未能	-9.05584
耳目	-9.05622
底	-9.05679
得道	-9.05777
者言	-9.06235
晦	-9.06244
不言	-9.06349
煑	-9.06387
傅	-9.06502
逸	-9.06805
人皆	-9.07001
銅	-9.07102
競	-9.07147
故也	-9.07336
闕	-9.07449
之德	-9.07526
雞	-9.07926
夫人	-9.08036
明皇曰	-9.08071
詩	-9.08093
生者	-9.08202
洗	-9.08212
有無	-9.08436
燕	-9.08443
早	-9.08659
乳	-9.08669
之妙	-9.08681
取出	-9.08712
卷之	-9.08782
産	-9.08783
五藏	-9.08897
而不能	-9.08927
溺	-9.09051
鑒	-9.09357
龜	-9.09442
不失	-9.0948
市	-9.0951
馳	-9.09528
狂	-9.09824
爐	-9.09851
脚	-9.1004
品	-9.10094
不相	-9.10246
不自	-9.10323
祕	-9.10328
眞武	-9.10381
揚	-9.10605
穀	-9.10644
卿	-9.10783
壞	-9.10896
第二	-9.109
殆	-9.11212
駕	-9.11381
無事	-9.11415
幸	-9.11564
貧	-9.11619
?	-9.11907
活	-9.12124
尸	-9.12303
輪	-9.12304
肺	-9.1236
人君	-9.12487
迎	-9.12557
爲人	-9.12812
躁	-9.1301
三十六	-9.13035
灾	-9.1308
在於	-9.13175
世之	-9.13215
儒	-9.1331
省	-9.13321
不過	-9.13613
劉	-9.13629
刻	-9.13642
房	-9.13645
彌	-9.13746
各有	-9.13901
不信	-9.13993
獸	-9.14026
兆	-9.1407
御注曰	-9.1412
暗	-9.14266
成䟽	-9.14513
滋	-9.14576
仲	-9.14622
英	-9.1466
而不可	-9.14734
三日	-9.1474
詔	-9.14748
往來	-9.14857
材	-9.15001
之外	-9.15072
没	-9.15163
抑	-9.15412
天子	-9.15465
畜	-9.15484
繫	-9.15536
招	-9.15543
曾	-9.15544
潔	-9.15594
澄	-9.15692
曰吾	-9.15737
玉女	-9.15806
賔	-9.15846
丁	-9.15874
試	-9.15953
波	-9.15967
議	-9.15971
泄	-9.15998
攻	-9.16098
貞	-9.1621
蜜	-9.16296
不欲	-9.16309
徽宗註曰	-9.16382
霜	-9.16585
則知	-9.16599
人之所	-9.16621
蔽	-9.16638
萬物之	-9.16804
管	-9.17015
故無	-9.17131
尾	-9.17132
而已矣	-9.1715
徑	-9.17204
籍	-9.17213
搗	-9.17618
舟	-9.1774
雌	-9.17753
殘	-9.17793
臣義曰	-9.1788
驕	-9.1794
峰	-9.1797
偶	-9.18106
人心	-9.18124
護	-9.18144
三十	-9.18147
畫	-9.18186
大小	-9.18389
屋	-9.18483
兒	-9.18492
恭	-9.18552
此乃	-9.186
將軍	-9.18647
即是	-9.18705
獻	-9.18733
䟽義曰	-9.18754
叔	-9.18823
?」	-9.18956
導	-9.18977
詐	-9.19074
而非	-9.19143
亦可	-9.19162
友	-9.19166
於天下	-9.19183
徧	-9.1936
徵	-9.19415
歎	-9.19483
無以	-9.19579
廉	-9.19584
訖	-9.19587
蜀	-9.19666
枯	-9.19704
自有	-9.19713
性命	-9.1974
之物	-9.19759
其名	-9.19869
廟	-9.19897
不善	-9.1993
儉	-9.20076
寓	-9.20094
榮曰	-9.20111
現	-9.20386
寵	-9.20583
不死	-9.20615
閑	-9.20746
譽	-9.20807
雷	-9.20838
誤	-9.2085
善惡	-9.2085
誦	-9.20878
拘	-9.2093
四方	-9.20946
擇	-9.20953
尺	-9.21088
有形	-9.21119
春秋	-9.21134
邊	-9.21255
朴	-9.21268
桑	-9.21349
荒	-9.21437
戴	-9.21477
付	-9.21486
其神	-9.21565
醫	-9.21598
際	-9.21759
斤	-9.2177
殃	-9.21859
牙	-9.21866
欺	-9.21892
竟	-9.21899
煉	-9.21993
災	-9.22018
也又	-9.22168
北斗	-9.2223
行之	-9.22326
徇	-9.22349
也此	-9.22405
太一	-9.2256
聞之	-9.22599
滑	-9.22719
眀	-9.22724
不在	-9.2291
!	-9.2291
小人	-9.2295
之謂也	-9.22999
讓	-9.23118
弘	-9.23147
衍義云	-9.23178
者以	-9.23215
詞	-9.23231
草木	-9.23258
墨	-9.23271
浸	-9.23292
昧	-9.23299
亦無	-9.23316
衆生	-9.23406
朱砂	-9.23633
侯	-9.23696
故言	-9.23779
側	-9.2397
答	-9.23972
觸	-9.23978
見之	-9.23995
二十四	-9.24051
洪	-9.24165
穴	-9.24225
終始	-9.24366
其形	-9.24413
訓	-9.24421
仲尼	-9.24426
典	-9.24457
像	-9.24509
操	-9.24617
錯	-9.24641
翼	-9.24645
也今	-9.24692
此章	-9.24693
旦	-9.24775
醋	-9.24833
貫	-9.24847
貴賤	-9.24887
咽	-9.25032
杜	-9.25041
元氣	-9.25044
逍遥	-9.25255
否	-9.25361
舌	-9.25428
肆	-9.25512
沈	-9.25714
李云	-9.25804
得一	-9.25805
打	-9.2583
三兩	-9.25854
乖	-9.25872
律	-9.25978
添	-9.26022
治國	-9.26044
液	-9.26109
人間	-9.2611
沖	-9.26242
蘇	-9.26247
抱一	-9.26328
宇	-9.26418
擣	-9.26584
爲一	-9.26598
不止	-9.26782
津	-9.26805
男	-9.26958
送	-9.27026
瑞	-9.27047
繼	-9.27064
此道	-9.27104
豈有	-9.27119
其功	-9.27295
御䟽	-9.27298
故有	-9.27315
曉	-9.27371
介	-9.27421
之用	-9.27451
矯	-9.27462
鍾	-9.2747
停	-9.27506
體道	-9.27603
防	-9.27702
擊	-9.27741
不離	-9.278
蒸	-9.27847
陶	-9.27967
之本	-9.27969
沙	-9.28007
修身	-9.28031
之術	-9.28138
無所不	-9.28248
之精	-9.28391
還丹	-9.28556
豐	-9.28627
則是	-9.28678
子孫	-9.28759
歩	-9.28796
爲善	-9.28835
圖經曰	-9.28897
之說	-9.28901
死者	-9.28916
而天下	-9.28922
紙	-9.2894
大夫	-9.28951
太清	-9.29013
錫	-9.29252
分别	-9.29259
油	-9.29435
費	-9.29475
誅	-9.29476
鄭	-9.29494
慧	-9.29572
狗	-9.29581
則爲	-9.29628
横	-9.29658
者乃	-9.29734
古今	-9.29888
生而	-9.29967
域	-9.30036
聰明	-9.30112
三月	-9.30151
鎭	-9.30158
及其	-9.30161
有道	-9.30237
慎	-9.30568
元年	-9.30592
故不	-9.30618
賞	-9.30637
一人	-9.30734
豆	-9.30829
筆	-9.30845
鄙	-9.3104
失其	-9.31099
其言	-9.31115
刺	-9.31276
之内	-9.31318
粗	-9.31358
小兒	-9.31367
晝夜	-9.31531
席	-9.31536
不成	-9.31541
淡	-9.31785
此皆	-9.32022
入於	-9.32069
與人	-9.32084
天師	-9.32307
之類	-9.32308
觀之	-9.32468
▁(	-9.32565
堪	-9.32656
不然	-9.32799
漏	-9.32919
無常	-9.32966
譬	-9.33033
衍義曰	-9.33148
佐	-9.33374
之迹	-9.33457
厄	-9.33471
婦人	-9.3349
〇	-9.33538
巖	-9.33552
塊	-9.33597
無爲而	-9.33616
科	-9.33628
以明	-9.3367
其實	-9.33724
而行	-9.33759
之徒	-9.33913
佳	-9.3396
舊註	-9.34003
濕	-9.34031
脂	-9.34035
索	-9.34059
應物	-9.34104
巨	-9.34157
嬰兒	-9.34332
煙	-9.34458
不動	-9.34493
不可得而	-9.34553
嘉	-9.34578
物也	-9.34579
魔	-9.34694
庚	-9.34706
膽	-9.34709
物物	-9.34714
霞	-9.34758
池	-9.34768
利害	-9.34799
、	-9.35013
皆有	-9.35127
碎	-9.35202
芒	-9.35309
勑	-9.3531
動而	-9.35435
咎	-9.35469
外物	-9.35477
無方	-9.35515
一也	-9.35607
百日	-9.35752
響	-9.35758
輿	-9.35835
脾	-9.35867
第四	-9.35871
曹	-9.35899
則民	-9.35922
敦	-9.3596
祝	-9.35997
不必	-9.36006
式	-9.36053
暫	-9.3621
緩	-9.36224
侯王	-9.36325
醮	-9.36502
季	-9.36535
睹	-9.36568
德之	-9.36616
鏡	-9.36664
不出	-9.36699
頂	-9.36792
北方	-9.36815
矣故曰	-9.36882
於天	-9.369
松	-9.36912
邑	-9.36996
腫	-9.37113
繩	-9.37243
人能	-9.37267
功成	-9.37283
其本	-9.37347
爲天下	-9.37699
愼	-9.37701
徃	-9.37784
晝	-9.37891
也然	-9.37938
配	-9.37945
郭	-9.38144
之有	-9.38289
鼠	-9.38342
瓊	-9.38382
世間	-9.3841
䟽夫	-9.38441
君臣	-9.38499
顔	-9.38519
彊	-9.38645
溢	-9.38657
座	-9.387
子曰	-9.38717
之行	-9.38735
弼曰	-9.38891
鑿	-9.38923
硫黄	-9.39002
祈	-9.39116
鮮	-9.39132
詣	-9.39172
於内	-9.39177
犬	-9.39379
治天下	-9.39386
如字	-9.39437
京	-9.39466
界	-9.3957
使民	-9.39629
堯舜	-9.39639
帛	-9.39807
冲	-9.39825
辛	-9.39844
於世	-9.39844
謁	-9.39902
雄黄	-9.40006
震	-9.40026
吴	-9.40051
標	-9.40106
不復	-9.40213
康	-9.40218
鈔	-9.40252
自生	-9.40346
孤	-9.40351
賢人	-9.4043
是知	-9.40586
妖	-9.40618
給	-9.40681
則其	-9.40763
故謂之	-9.40812
之門	-9.40838
借	-9.40856
耀	-9.40898
姦	-9.40906
以成	-9.41044
太虚	-9.4107
強	-9.41106
追	-9.41193
者有	-9.41208
治之	-9.41223
飲食	-9.41262
宰	-9.41269
郡	-9.41511
族	-9.41554
在上	-9.41559
鳳	-9.41625
惜	-9.41629
乾坤	-9.41726
芝	-9.41933
豈不	-9.41934
呪	-9.4197
掌	-9.42291
名也	-9.42364
裏	-9.4237
頓	-9.42412
丈	-9.42445
莊	-9.42474
司馬	-9.42499
而得	-9.42573
坎	-9.42668
矣夫	-9.4279
一升	-9.4283
二十	-9.42852
不知其	-9.42915
枉	-9.42923
楊	-9.42973
五臟	-9.43102
恣	-9.43123
竅	-9.43185
之際	-9.43218
坤	-9.43219
男女	-9.43224
弟	-9.43252
雪	-9.43297
麗	-9.43433
無物	-9.43536
不行	-9.43652
臭	-9.4371
削	-9.43718
帝王	-9.43727
終日	-9.43729
能知	-9.43761
一氣	-9.43828
老君曰	-9.43868
二年	-9.43902
逢	-9.43958
侵	-9.43961
焦	-9.4407
牝	-9.44089
清淨	-9.44157
爵	-9.4424
下同	-9.44274
大國	-9.44425
奔	-9.44476
鑑	-9.44503
之情	-9.44567
杖	-9.44663
是爲	-9.44718
續	-9.44775
歸於	-9.44952
寢	-9.45001
相與	-9.45043
拔	-9.45093
自化	-9.45123
倫	-9.45156
老氏	-9.45257
傍	-9.45279
摩	-9.45304
萌	-9.45444
三皇	-9.45536
監	-9.45605
仙人	-9.45639
十三	-9.45665
世俗	-9.45803
生成	-9.45934
又有	-9.4594
火候	-9.46046
圍	-9.46069
無為	-9.46079
雖然	-9.46196
鶴	-9.46218
暢	-9.46265
釜	-9.4628
㑹	-9.46588
餌	-9.4665
有此	-9.46728
吕	-9.46777
阿	-9.46804
罔	-9.46823
炒	-9.46839
預	-9.46845
自知	-9.46964
一物	-9.47087
鎮	-9.47146
動靜	-9.47173
其用	-9.4719
究	-9.47482
也聖人	-9.47504
爲用	-9.47523
割	-9.47648
墜	-9.47666
江海	-9.47699
天理	-9.47767
校	-9.47919
炙	-9.48028
千里	-9.48034
繁	-9.48198
寒暑	-9.48251
靈砂	-9.48267
非道	-9.48301
撫	-9.48476
麤	-9.48479
燈	-9.48497
尹	-9.48545
可得	-9.48667
爛	-9.48724
險	-9.48761
若能	-9.48772
嗣	-9.48826
十五	-9.48844
之下	-9.48921
黄芽	-9.4896
慢	-9.48983
之君	-9.49001
厥	-9.4905
不明	-9.49132
之至	-9.49189
四海	-9.4919
如何	-9.4921
籙	-9.49219
闇	-9.493
九天	-9.49389
后	-9.49513
奥	-9.49515
昩	-9.49522
稍	-9.49558
豫	-9.49643
者乎	-9.49797
神人	-9.49842
歳	-9.49893
在乎	-9.50049
倚	-9.5009
規	-9.50092
披	-9.50142
用兵	-9.50235
五日	-9.50336
禍福	-9.50365
缺	-9.5042
肥	-9.50422
五兩	-9.5043
在我	-9.50677
耕	-9.50697
之數	-9.50706
飢	-9.50714
喜怒	-9.50757
之主	-9.50806
菜	-9.50918
禽	-9.50939
麻	-9.51136
渾	-9.51151
筋	-9.51164
妻	-9.51193
碧	-9.51216
蒼	-9.51252
聰	-9.51266
固濟	-9.5141
盤	-9.51468
逝	-9.51502
其事	-9.51647
瓦	-9.51692
神丹	-9.51771
迴	-9.51818
不求	-9.51853
之患	-9.51887
之性	-9.52086
金石	-9.52096
不勝	-9.52107
限	-9.52185
所言	-9.52219
號曰	-9.52336
賴	-9.52376
棗	-9.52384
又何	-9.52391
不待	-9.52475
內	-9.52504
天尊	-9.52513
曠	-9.52546
此是	-9.52719
支	-9.52745
治身	-9.52769
之至也	-9.52807
有名	-9.52998
以至	-9.53071
腸	-9.53113
磨	-9.53186
撓	-9.5326
不若	-9.53279
至理	-9.5345
技	-9.5347
隆	-9.53545
其中	-9.53583
上德	-9.53588
南方	-9.53638
環	-9.53751
不通	-9.53985
山谷	-9.5404
矢	-9.5406
緑	-9.54106
一身	-9.54108
厲	-9.54124
四十	-9.54193
養生	-9.54209
爲道	-9.54296
卵	-9.54343
撰	-9.54398
可見	-9.54653
騰	-9.54679
須臾	-9.54685
常存	-9.54767
孰能	-9.55
至矣	-9.55106
關尹子曰	-9.55244
祀	-9.55252
秀	-9.55254
思慮	-9.55293
道德眞經	-9.55549
無用	-9.5555
桃	-9.5572
荆	-9.55773
賦	-9.55832
故知	-9.55929
炭	-9.55967
歡	-9.56
五帝	-9.56064
若此	-9.56073
午	-9.56111
黃帝	-9.56384
祠	-9.56441
使之	-9.56472
伏火	-9.5652
莫能	-9.56644
靡	-9.56653
生之	-9.56664
鹿	-9.56957
所爲	-9.56963
若夫	-9.56966
鷄	-9.56974
不聞	-9.56985
耗	-9.57005
水中	-9.57062
本無	-9.57066
和氣	-9.57093
晨	-9.57237
至于	-9.57333
談	-9.57343
天門	-9.57366
於身	-9.57373
太平	-9.57462
以求	-9.57502
膠	-9.57528
藉	-9.57621
吞	-9.57678
此則	-9.5768
之可	-9.57821
妙本	-9.57883
人有	-9.57979
日華子云	-9.58011
珍	-9.58159
享	-9.58206
其生	-9.58246
不與	-9.58329
紛	-9.58368
求之	-9.58371
三者	-9.58403
擾	-9.5845
則非	-9.58451
陶隱居云	-9.58569
依前	-9.58635
赤子	-9.58687
説	-9.58742
若有	-9.58771
佩	-9.58778
漿	-9.58816
砒	-9.58839
再拜	-9.58856
農	-9.58906
取其	-9.58957
葬	-9.58962
十六	-9.59005
之始	-9.59071
赴	-9.5914
庸	-9.59144
道而	-9.59393
魂魄	-9.59493
學道	-9.59719
哭	-9.59725
合於	-9.59739
孔子曰	-9.5995
以自	-9.60005
澆	-9.60021
凌	-9.60029
故聖人	-9.60031
硫	-9.60144
與道	-9.60146
有生	-9.60172
自是	-9.60213
孟	-9.60244
之貌	-9.60257
臂	-9.60289
牽	-9.60293
恍惚	-9.60387
牧	-9.6039
非有	-9.60425
金丹	-9.60435
寸	-9.60479
蓬	-9.60596
民之	-9.60637
光明	-9.60768
驅	-9.60777
有物	-9.60836
虞	-9.60913
案	-9.6092
眞常	-9.60935
格	-9.60941
無爲也	-9.60975
易曰	-9.60988
得失	-9.61118
故以	-9.61123
樓	-9.61143
人身	-9.61224
所在	-9.61313
無情	-9.61348
腦	-9.61401
殺人	-9.61423
不得已	-9.61486
成功	-9.6154
上清	-9.61567
在人	-9.61651
寒熱	-9.61719
十日	-9.61739
隔	-9.6181
暖	-9.61853
裂	-9.61861
嘆	-9.62
祐	-9.62171
四月	-9.62193
墮	-9.6242
以來	-9.62632
鬱	-9.62784
誕	-9.62824
跂	-9.62827
便是	-9.62865
乞	-9.62879
太上老君	-9.63019
邦	-9.63021
虚而	-9.63053
取之	-9.63065
樞	-9.63104
諱	-9.63114
修之	-9.63142
中央	-9.63166
而去	-9.63193
解曰	-9.63276
此之謂	-9.63375
無聲	-9.634
同於	-9.63438
於己	-9.63537
其意	-9.63561
嗇	-9.63683
爽	-9.63711
飽	-9.63796
與天地	-9.63861
夫道	-9.63863
禮樂	-9.63886
脫	-9.63988
寬	-9.64031
□	-9.64035
冰	-9.64036
今日	-9.6408
爲主	-9.64112
而求	-9.64189
綱	-9.6442
網	-9.64625
形容	-9.64646
謬	-9.64707
箇	-9.64713
三五	-9.64769
朕	-9.64829
書云	-9.6483
之處	-9.64901
植	-9.64976
壁	-9.65001
大人	-9.65029
躬	-9.65333
旁	-9.65348
失之	-9.6539
者以其	-9.65464
德者	-9.65561
一年	-9.65567
遠矣	-9.65568
徼	-9.65637
提	-9.65638
誘	-9.65677
淋	-9.65783
鄰	-9.65845
生物	-9.65849
銷	-9.65919
柳	-9.65922
其理	-9.65935
遁	-9.65949
健	-9.65965
自然之	-9.66009
水之	-9.66123
聲色	-9.66164
於心	-9.66253
弦	-9.66294
丹陽	-9.66394
焚	-9.66399
延年	-9.66416
人所	-9.66471
片	-9.66473
三界	-9.66511
窺	-9.66643
輒	-9.66646
融	-9.66648
大聖	-9.66685
沸	-9.66898
豈非	-9.66905
勉	-9.66982
五月	-9.66989
燭	-9.67001
礙	-9.67007
天人	-9.67017
嶽	-9.67025
好惡	-9.67138
其子	-9.67163
人事	-9.67258
國家	-9.67273
單	-9.67274
竒	-9.67282
篤	-9.67285
鋭	-9.67295
造物	-9.67377
稽	-9.67565
不免	-9.67608
入藥	-9.67614
逹	-9.6765
十一	-9.67723
頌曰	-9.6775
溪	-9.67935
階	-9.67948
肅	-9.67983
霄	-9.68145
知者	-9.68152
不忘	-9.68185
忘其	-9.68192
生萬物	-9.68202
痢	-9.68255
無我	-9.6826
因其	-9.68282
非我	-9.68518
五味	-9.68545
茂	-9.68556
有一	-9.68557
若不	-9.68622
而言	-9.68642
无所	-9.68668
守其	-9.68687
汗	-9.68702
道則	-9.68712
十四	-9.68727
所見	-9.68912
盟	-9.68937
凡人	-9.68946
瞻	-9.68974
所能	-9.69146
偃	-9.69188
途	-9.69191
聖智	-9.6929
有心	-9.69487
之日	-9.69499
勿令	-9.69586
奢	-9.69597
飯	-9.69618
雙	-9.69619
長存	-9.69789
眞經	-9.69819
上有	-9.69851
革	-9.69888
名爲	-9.69911
以生	-9.70033
互	-9.701
覽	-9.70186
眞空	-9.70201
崔	-9.70314
而不爲	-9.70392
崖	-9.70409
葛	-9.70529
有三	-9.70532
其所以	-9.70566
礬	-9.7058
演	-9.70602
三元	-9.70799
相似	-9.70802
乎其	-9.70803
不得不	-9.70936
不至	-9.70941
三才	-9.70957
醜	-9.70963
真人	-9.70966
理國	-9.71043
爲大	-9.7107
陰陽之	-9.71107
北極	-9.71197
静	-9.71234
德也	-9.71273
酸	-9.71283
怠	-9.71333
叙	-9.71348
敕	-9.71355
不知所	-9.71434
崑崙	-9.71609
寇	-9.71654
十八	-9.71737
覩	-9.71784
何謂	-9.71785
而民	-9.71797
者無	-9.71814
失道	-9.71834
者即	-9.72077
注云	-9.72141
觀其	-9.72227
百年	-9.72236
歸之	-9.72272
薦	-9.72354
上古	-9.72389
韓	-9.72422
二月	-9.72443
无爲	-9.72461
小國	-9.72491
人主	-9.72492
爲度	-9.72572
之極	-9.72633
人以	-9.72634
太陽	-9.72638
醉	-9.72647
秘	-9.72662
物我	-9.72672
烈	-9.72699
之變	-9.72725
襲	-9.72752
味甘	-9.72784
多少	-9.72857
不祥	-9.72896
則天下	-9.72919
采	-9.72933
前後	-9.72942
而知	-9.72958
若是	-9.72983
善人	-9.72991
殷	-9.73005
舞	-9.73058
無言	-9.73182
十兩	-9.7329
用也	-9.73345
也蓋	-9.73401
其有	-9.7348
養之	-9.73481
測	-9.73536
長乆	-9.73605
罰	-9.73656
箭	-9.73698
遽	-9.73749
山林	-9.73758
龍虎	-9.73874
硃砂	-9.7396
神氣	-9.74049
振	-9.74085
俾	-9.74115
而況	-9.74232
進退	-9.74246
聖人之道	-9.74302
亦猶	-9.74302
存亡	-9.74341
泯	-9.7438
沐浴	-9.74438
囊	-9.74466
不為	-9.74469
𤣥	-9.74528
然也	-9.74585
盞	-9.7475
不可得	-9.74778
薪	-9.74781
匿	-9.748
而無所	-9.74957
脉	-9.75016
當時	-9.75053
倒	-9.75086
精氣	-9.75094
誓	-9.7516
不測	-9.75209
恬	-9.75214
使者	-9.75305
基	-9.75312
程	-9.75415
殻	-9.75472
夕	-9.7551
靑	-9.75515
汙	-9.75524
子貢	-9.7557
物而	-9.75632
大丹	-9.75636
古人	-9.75723
皆是	-9.75799
亦如	-9.75828
把	-9.75855
者道之	-9.75876
戲	-9.75885
芽	-9.75903
西方	-9.76061
又以	-9.76121
砂子	-9.76169
猛	-9.76216
遥	-9.76222
五十	-9.76441
大者	-9.76554
柱	-9.76585
之大	-9.76586
老聃	-9.76668
華池	-9.76679
彼我	-9.7683
曜	-9.76864
弓	-9.76892
衝	-9.76938
終身	-9.76944
僕	-9.7695
虚靜	-9.76955
天之道	-9.76981
邪氣	-9.77072
智者	-9.77098
陽氣	-9.77159
妙道	-9.77169
甫	-9.77183
山中	-9.77191
編	-9.77285
仕	-9.77332
以水	-9.77431
莫之	-9.77478
甲子	-9.77583
風雨	-9.77593
匠	-9.77609
埋	-9.77619
穿	-9.77628
淪	-9.7763
者蓋	-9.77739
文王	-9.77836
抽	-9.77945
豈能	-9.77969
吉凶	-9.78086
星君	-9.78089
九轉	-9.78114
第五	-9.78172
與我	-9.78216
不識	-9.78236
蔓	-9.78284
軟	-9.78319
减	-9.78361
十月	-9.78473
垢	-9.78608
不窮	-9.78674
視聽	-9.78769
矣此	-9.78773
訪	-9.78778
策	-9.78792
之形	-9.78839
譬如	-9.78859
正一	-9.78907
服食	-9.78973
佛	-9.79132
禱	-9.79142
碑	-9.79176
此明	-9.79244
二人	-9.79252
王者	-9.7926
我之	-9.79298
不已	-9.79343
未知	-9.7945
則雖	-9.79483
靜而	-9.79498
的	-9.79506
第六	-9.79517
小便	-9.79599
其根	-9.79643
歌曰	-9.79794
糞	-9.79842
炎	-9.7987
錦	-9.79876
安靜	-9.79912
屑	-9.79947
也凡	-9.79983
爲君	-9.80141
皇帝	-9.80408
而无	-9.80413
刃	-9.80443
暮	-9.80507
講	-9.80583
踐	-9.80637
社	-9.80662
奈何	-9.80701
不入	-9.80821
而死	-9.80858
駭	-9.80983
上士	-9.8099
唱	-9.81008
微妙	-9.811
一時	-9.81254
茍	-9.81336
腹中	-9.8136
鉛汞	-9.81381
之境	-9.81395
所欲	-9.8145
以致	-9.81456
東方	-9.81548
絳	-9.81625
生化	-9.8175
敝	-9.81754
至德	-9.81763
遵	-9.8178
陰乾	-9.8192
物皆	-9.81922
洛	-9.81951
乎此	-9.81969
綿	-9.82082
斂	-9.82108
斬	-9.82142
蹈	-9.82147
頑	-9.82165
迫	-9.8219
腰	-9.82403
悔	-9.8246
虚心	-9.82647
之神	-9.82673
爲本	-9.82876
手足	-9.8291
視之	-9.82913
例	-9.82919
俯	-9.83279
四肢	-9.83307
運動	-9.83405
味苦	-9.83411
幻	-9.83412
知道	-9.83466
十方	-9.83501
髓	-9.83553
之狀	-9.83614
自以爲	-9.83724
之域	-9.83768
裹	-9.83842
而動	-9.83845
倍	-9.83903
絲	-9.83996
其上	-9.84042
頗	-9.84058
壅	-9.84059
輝	-9.84061
八月	-9.84079
其次	-9.84091
賢者	-9.84147
本作	-9.8424
白虎	-9.84433
悶	-9.84436
其人	-9.84464
諫	-9.84514
出乎	-9.84519
道以	-9.84681
從之	-9.84703
瓜	-9.84712
已上	-9.84815
朔	-9.84845
桂	-9.85005
慾	-9.85031
極則	-9.85053
不絶	-9.85172
檢	-9.85207
乏	-9.85263
爲物	-9.85305
可得而	-9.85419
丹田	-9.85437
煅	-9.85491
金闕	-9.85531
而復	-9.85593
殺之	-9.85598
供養	-9.85604
夫唯	-9.85658
天地之間	-9.85688
玄元	-9.85734
未始	-9.85797
也謂	-9.85804
今人	-9.85825
乃能	-9.85876
硝石	-9.85884
長春	-9.85967
凉	-9.85976
雖復	-9.86159
所居	-9.86221
不息	-9.86222
空虚	-9.86294
是之謂	-9.86298
漆	-9.86309
存焉	-9.86387
狹	-9.86406
敷	-9.86407
孟子	-9.86436
禽獸	-9.86444
生生	-9.86594
判	-9.8667
旬	-9.86672
忍	-9.86757
無爲之	-9.86764
黨	-9.86835
玄牝	-9.86919
至此	-9.87087
核	-9.87133
有道者	-9.8714
金玉	-9.87166
威儀	-9.87236
認	-9.87255
八兩	-9.87289
一百	-9.87325
衡	-9.87339
智慧	-9.8739
夫惟	-9.87418
混沌	-9.87473
何所	-9.87503
製	-9.87525
道德之	-9.87598
芻狗	-9.87617
嗜欲	-9.87751
壤	-9.87793
情欲	-9.87866
題	-9.87951
上帝	-9.87956
則人	-9.87965
隅	-9.88006
金液	-9.88006
摇	-9.88066
所不能	-9.8813
蒿	-9.88378
常以	-9.88387
自爲	-9.88498
今之	-9.885
去其	-9.88628
所用	-9.88635
不受	-9.88729
瀉	-9.88739
寶	-9.88809
將欲	-9.8881
未始有	-9.8893
亦然	-9.88941
不盡	-9.89037
卜	-9.89177
悅	-9.89207
兊	-9.89223
下士	-9.89265
日夜	-9.8929
湛	-9.89331
或有	-9.89431
之教	-9.89446
眞性	-9.89476
十年	-9.8953
雀	-9.89572
筋骨	-9.89597
伸	-9.89605
拱	-9.89623
靜則	-9.89656
以下	-9.89721
鑪	-9.89741
棲	-9.8983
排	-9.89872
蒼生	-9.89943
爻	-9.89987
戾	-9.90076
時有	-9.90087
故爲	-9.90128
性之	-9.90164
無間	-9.90183
理也	-9.90203
六月	-9.90253
子之	-9.9027
有欲	-9.90275
則能	-9.90339
事之	-9.90363
束	-9.90447
則物	-9.90488
形而	-9.90613
美惡	-9.90683
半兩	-9.90719
守一	-9.90742
不仁	-9.90747
寓言	-9.90769
功名	-9.90777
不安	-9.90785
眉	-9.90828
殉	-9.90855
挫	-9.9086
靈寳	-9.90895
無非	-9.90982
之體	-9.91009
於無	-9.91016
清虚	-9.91229
南華經曰	-9.91275
閣	-9.91279
蒲	-9.91282
莫若	-9.91308
魁	-9.9132
者道也	-9.91391
之位	-9.91427
十七	-9.9152
異於	-9.9161
閒	-9.91632
不一	-9.91656
顔色	-9.91659
鴻	-9.91666
吾之	-9.91671
無毒	-9.91735
舒	-9.91747
萬物皆	-9.91748
饑	-9.91767
不傷	-9.91876
握	-9.9204
教之	-9.92049
築	-9.92121
兄	-9.92122
鉤	-9.92139
一錢	-9.92178
之與	-9.92184
之罪	-9.92197
而欲	-9.92223
御註曰	-9.9225
不厭	-9.92267
六十	-9.92287
修行	-9.92299
之炁	-9.92331
之辭	-9.92344
而出	-9.92373
之㫖	-9.92461
而忘	-9.92511
亭	-9.92522
黒	-9.92547
禦	-9.92556
憑	-9.92578
輩	-9.92598
燥	-9.92606
之聲	-9.92683
不定	-9.92747
覆載	-9.9278
下文	-9.92858
利物	-9.92934
桀	-9.92965
以養	-9.93075
忘言	-9.93089
其間	-9.93191
未必	-9.9323
之學	-9.93261
己之	-9.93303
遊於	-9.93327
行道	-9.93347
未可	-9.93361
萬民	-9.93372
恥	-9.93375
拂	-9.93453
奸	-9.93474
攪	-9.93533
自此	-9.93554
以喻	-9.93566
之初	-9.93566
而反	-9.93583
欲以	-9.9359
神農	-9.93621
無迹	-9.93665
而用之	-9.93743
纔	-9.93764
荷	-9.93772
物有	-9.93793
太和	-9.93828
玄妙	-9.9383
而不得	-9.9385
粒	-9.93895
古者	-9.93944
此經	-9.93951
國之	-9.93984
昇天	-9.9399
供	-9.94057
對曰	-9.94145
其眞	-9.94206
此章明	-9.94238
頃	-9.94254
不覺	-9.94281
朗	-9.943
也且	-9.94353
妨	-9.94433
形骸	-9.94499
其大	-9.94554
修道	-9.94693
藴	-9.9472
蕃	-9.94799
玄帝	-9.9485
同乎	-9.94873
若無	-9.94951
人不	-9.95039
六合	-9.95043
元君	-9.9508
六甲	-9.95097
完	-9.95127
嫌	-9.95155
孕	-9.95156
以知	-9.95177
稽首	-9.95247
一曰	-9.95258
一體	-9.95288
不化	-9.95355
剛强	-9.95381
未嘗不	-9.95457
其志	-9.95467
牢	-9.95533
不堪	-9.95544
浴	-9.95551
搏	-9.95576
闊	-9.9558
嗟	-9.9559
蠶	-9.95593
吸	-9.95605
矣然	-9.9564
郭註	-9.95745
大道之	-9.95808
所生	-9.95818
於我	-9.95866
太玄	-9.95879
盲	-9.95908
二者	-9.95913
攖	-9.95981
其迹	-9.95982
芳	-9.9602
社稷	-9.96032
萬事	-9.96094
之使	-9.96112
贊	-9.96176
聞道	-9.96216
措	-9.96345
者所以	-9.96375
胥	-9.96395
由是	-9.96421
隨時	-9.96469
狐	-9.9647
院	-9.9651
而下	-9.96514
茅	-9.96587
浪	-9.96641
維	-9.96772
知足	-9.96789
葵	-9.96802
則可以	-9.96805
忽然	-9.9688
睡	-9.96882
隸	-9.96898
析	-9.96903
黄白	-9.96936
婦	-9.96937
何爲	-9.97021
之先	-9.97141
非人	-9.97193
將以	-9.97289
之前	-9.97294
雅	-9.97308
葉似	-9.97328
其國	-9.97382
自見	-9.97429
疲	-9.97761
軒	-9.97762
毎	-9.97787
掃	-9.97798
乆矣	-9.97832
童子	-9.97946
此意	-9.9797
女子	-9.9804
形體	-9.98117
急急如律令	-9.98154
之分	-9.98212
得而	-9.98212
愆	-9.98222
名之	-9.98306
血氣	-9.98475
拌	-9.98581
蘭	-9.98582
高下	-9.98601
遐	-9.98671
誡	-9.98691
館	-9.98703
冀	-9.9871
筭	-9.98769
方可	-9.9881
如此則	-9.98866
本命	-9.98945
第	-9.9896
終不	-9.9897
大藥	-9.9908
亢	-9.99087
耽	-9.99114
也是以	-9.99117
粟	-9.99118
天下者	-9.99154
郊	-9.99164
所得	-9.99201
九月	-9.99238
則神	-9.99289
夸	-9.99317
人家	-9.99319
可名	-9.99351
杵	-9.9944
戎	-9.9952
銳	-9.99555
障	-9.99556
肯	-9.99559
嚮	-9.99564
捐	-9.99573
巢	-9.99577
項	-9.99597
二儀	-9.99666
研細	-9.99678
日新	-9.99708
未嘗有	-9.99771
翠	-9.99993
逰	-10.0001
廣大	-10.0006
而巳	-10.0018
胎息	-10.002
各自	-10.0021
訣曰	-10.0026
璧	-10.0028
惠子	-10.0032
和之	-10.0033
法師	-10.0036
般	-10.0037
𩔖	-10.0042
玄德	-10.0044
臧	-10.0048
愧	-10.0049
碧虚子陳景元曰	-10.0052
問曰	-10.0059
或以	-10.0063
無上	-10.0069
教人	-10.007
獨立	-10.0075
可用	-10.0078
虚空	-10.0085
盧曰	-10.0088
皆以	-10.009
姑	-10.0093
濡	-10.0105
文字	-10.0107
獄	-10.0113
養神	-10.0117
傳曰	-10.0123
法度	-10.0124
香火	-10.0125
麥	-10.0126
二錢	-10.0129
猪	-10.0131
之喻	-10.0132
一者	-10.0135
盗	-10.0135
可知	-10.0137
倉	-10.014
泛	-10.014
自然之道	-10.0142
南華	-10.0145
無憂	-10.0147
狀如	-10.0147
三升	-10.0165
不當	-10.0167
山川	-10.0173
戸	-10.0181
安能	-10.0181
或云	-10.0188
騎	-10.0194
玄同	-10.0198
七十二	-10.0203
枚	-10.0207
莫之能	-10.0208
元炁	-10.021
知而	-10.0222
不應	-10.0229
陷	-10.0229
揺	-10.0232
展	-10.0232
其氣	-10.0233
宻	-10.0235
聖賢	-10.0238
自然也	-10.0241
見於	-10.0242
物者	-10.025
何也	-10.0259
其情	-10.0259
有功	-10.0261
之要	-10.0262
幼	-10.0273
誇	-10.0278
腐	-10.0278
其行	-10.0281
元始	-10.0286
唐本注云	-10.0289
萬里	-10.0297
用其	-10.0306
故其	-10.0314
在内	-10.0321
所知	-10.0323
相生	-10.0323
賈	-10.0325
籠	-10.0326
不肖	-10.0327
齋戒	-10.0328
根本	-10.0329
此謂	-10.0335
自在	-10.0337
拙	-10.0346
道無	-10.035
三寳	-10.035
許由	-10.0351
哉故	-10.0354
不容	-10.0364
戮	-10.0365
准	-10.0366
帥	-10.0366
透	-10.0366
强梁	-10.0373
谷神	-10.0373
賣	-10.0376
明目	-10.0377
名山	-10.0381
人生	-10.0382
藏於	-10.0383
則必	-10.0384
甘草	-10.0385
庵	-10.0385
不居	-10.0391
欲得	-10.0396
必須	-10.04
聾	-10.0405
洞天	-10.0411
紫微	-10.0415
污	-10.0419
罷	-10.042
拒	-10.0421
額	-10.0422
選	-10.0423
徴	-10.0425
世俗之	-10.0431
乃是	-10.0432
渴	-10.0446
之文	-10.0448
其於	-10.0453
之異	-10.0454
不食	-10.0466
不易	-10.0469
橐籥	-10.047
枕	-10.0471
小大	-10.0471
夾	-10.0475
而萬物	-10.048
豈可	-10.0487
用心	-10.0494
爲上	-10.0498
混元	-10.0505
换	-10.0508
始於	-10.051
闔	-10.051
冒	-10.0516
斥	-10.0519
煞	-10.052
俟	-10.052
物無	-10.0521
寫	-10.0523
瓶	-10.0525
言道	-10.0526
以應	-10.0533
人者	-10.0539
故名	-10.0543
道術	-10.0545
一分	-10.0547
而人	-10.0552
彭	-10.056
化而	-10.0562
萬世	-10.0562
銜	-10.0562
扇	-10.0563
陋	-10.0564
探	-10.0564
喫	-10.0566
南華眞經義海纂微卷之	-10.0566
茶	-10.0568
噫	-10.0568
翳	-10.0569
函	-10.0569
占	-10.0569
則不能	-10.0574
太子	-10.0574
惡乎	-10.058
不失其	-10.0581
惡瘡	-10.0581
天下之人	-10.0589
或作	-10.0596
善行	-10.06
形質	-10.0604
不違	-10.0604
理之	-10.0605
激	-10.0607
自爾	-10.061
不言而	-10.0612
併	-10.0612
萬化	-10.0613
夀	-10.0613
顔回	-10.0621
二氣	-10.0623
反又	-10.0631
在天	-10.0633
青龍	-10.0636
銖	-10.0636
妙用	-10.0638
王公	-10.0638
善者	-10.0641
莫知其	-10.0641
帝君	-10.0645
絹	-10.0652
故雖	-10.0652
盜賊	-10.0657
晚	-10.0658
侈	-10.066
之書	-10.0661
鑄	-10.0661
能生	-10.068
一月	-10.0683
彩	-10.0683
凡有	-10.0686
!」	-10.0692
日中	-10.0693
始終	-10.0698
出而	-10.0703
天命	-10.0703
遲	-10.0705
嬰	-10.0708
班	-10.071
潁濱蘇轍曰	-10.0712
值	-10.0714
之師	-10.0716
金銀	-10.0722
五金	-10.0726
三清	-10.0729
神者	-10.0731
亥	-10.0735
下有	-10.0739
湛然	-10.0741
而未嘗	-10.0748
之方	-10.0752
讎	-10.0759
緒	-10.0759
本經	-10.0773
十九	-10.0776
亦是	-10.0781
常有	-10.0783
胸中	-10.0783
下降	-10.0791
惟其	-10.0796
椒	-10.0796
琴	-10.0802
歛	-10.0807
寅	-10.0809
祚	-10.0811
成也	-10.0814
可爲	-10.0819
其體	-10.0824
黄金	-10.0834
事也	-10.0836
死也	-10.0838
而未	-10.0843
襄	-10.085
尖	-10.085
土地	-10.0851
此所以	-10.0853
猶有	-10.0854
賞罰	-10.0856
頤	-10.0857
佞	-10.0864
日用	-10.0874
常道	-10.0876
修眞	-10.0883
成形	-10.0896
不盈	-10.0897
嶺	-10.0898
快	-10.0901
付之	-10.0903
熬	-10.0904
諭	-10.091
譏	-10.091
所有	-10.0911
欽	-10.0912
者不能	-10.0913
桓公	-10.0924
之實	-10.0925
者是也	-10.0931
不異	-10.0937
謂其	-10.0941
澗	-10.0946
川谷	-10.095
下氣	-10.095
粥	-10.0952
鵬	-10.0955
匡	-10.096
導引	-10.0961
不可見	-10.0961
於一	-10.0978
之機	-10.099
肖	-10.0991
取天下	-10.0997
釣	-10.1004
命之	-10.1008
秉	-10.1008
仁者	-10.1011
通於	-10.1013
天帝	-10.1015
至樂	-10.1017
有德	-10.1026
三千	-10.1029
為天下	-10.1035
蓮	-10.1047
與天	-10.105
此法	-10.105
靖	-10.1054
減	-10.1054
兔	-10.1057
大患	-10.1058
泣	-10.1059
翻	-10.1059
華蓋	-10.1064
細研	-10.1064
自然之理	-10.1066
莫測	-10.1069
受之	-10.1072
不妄	-10.1074
傷人	-10.1077
其可	-10.1082
頌	-10.1083
生人	-10.1084
葱	-10.1094
者豈	-10.1097
着	-10.1102
也既	-10.1102
之化	-10.1103
劒	-10.1106
迭	-10.1109
園	-10.1109
纏	-10.1109
映	-10.1112
盧	-10.1116
所遇	-10.112
曰子	-10.1121
亦得	-10.1124
此亦	-10.1126
姓名	-10.1127
此三者	-10.1131
則失	-10.1131
滓	-10.1141
曰我	-10.1143
曰汝	-10.1149
起於	-10.1153
将	-10.1154
諸天	-10.1156
梅	-10.1157
畔	-10.1157
膝	-10.1159
者當	-10.1159
屢	-10.116
人道	-10.1171
只是	-10.1175
為之	-10.1179
有毒	-10.1179
有人	-10.119
暇	-10.1196
糧	-10.1208
不貴	-10.1209
者也故	-10.1213
書曰	-10.1229
五嶽	-10.123
三十日	-10.1232
竈	-10.1236
毫	-10.1238
本草	-10.1244
言者	-10.1244
不勞	-10.1248
服氣	-10.125
止於	-10.1251
太山	-10.1252
九年	-10.1252
也䟽夫	-10.1253
一心	-10.1259
黙	-10.126
曆	-10.1262
呪曰	-10.1267
相應	-10.127
男子	-10.1272
尅	-10.1275
知此	-10.1277
七月	-10.1283
則生	-10.1284
崩	-10.1292
名利	-10.1294
動作	-10.13
肌	-10.13
亦非	-10.1301
行者	-10.1312
岸	-10.1317
他人	-10.1321
其能	-10.1322
神靈	-10.1324
之國	-10.1327
性也	-10.1327
事而	-10.1327
忠信	-10.1333
吾身	-10.1341
眩	-10.1346
成寳	-10.1353
痰	-10.1356
谿	-10.1361
顆	-10.1365
旨	-10.1367
何有	-10.1371
無異	-10.1379
之義也	-10.138
其後	-10.1382
御曰	-10.1389
武王	-10.14
鋪	-10.1402
不能自	-10.1402
不以爲	-10.1405
皆由	-10.1407
而歸	-10.1409
而化	-10.1417
頻	-10.1419
湖	-10.142
篇云	-10.1423
道德經	-10.1424
固有	-10.143
明道	-10.1435
氏之	-10.1435
利器	-10.1437
漠	-10.1446
之病	-10.1446
味辛	-10.1449
至大	-10.145
應之	-10.145
天下皆	-10.1452
褁	-10.1452
屎	-10.1466
晏	-10.1467
藥性論云	-10.1467
臻	-10.147
踵	-10.1472
爰	-10.1472
侮	-10.1474
半斤	-10.1475
匀	-10.1481
人多	-10.149
在下	-10.1494
而心	-10.1496
不得已而	-10.1496
以言	-10.1502
鍋	-10.1502
逮	-10.1507
先天	-10.1507
心腹	-10.151
不亂	-10.1511
擬	-10.152
剖	-10.1524
恬淡	-10.1525
懐	-10.1526
針	-10.1526
七十	-10.1527
暈	-10.1529
先後	-10.1534
一本作	-10.1542
是已	-10.1543
身中	-10.1545
兩忘	-10.1558
鎔	-10.1567
超然	-10.1568
相類	-10.1574
二字	-10.1577
功德	-10.1583
正月	-10.1588
而行之	-10.1598
此所謂	-10.16
一種	-10.1602
於中	-10.1605
寥	-10.1616
胃	-10.1617
彼此	-10.1617
父子	-10.1618
盡其	-10.163
烟	-10.1631
區	-10.1632
奴	-10.1632
跨	-10.1633
橋	-10.1634
飲之	-10.164
有知	-10.164
化人	-10.1641
其色	-10.1647
形如	-10.1649
九竅	-10.165
天機	-10.165
第七	-10.1653
而常	-10.1662
殊不知	-10.1666
硃	-10.1666
己而	-10.1675
寵辱	-10.1686
知也	-10.1688
天眞	-10.1688
準	-10.1688
玄武	-10.1689
不去	-10.1692
任物	-10.1693
莫大於	-10.1696
眞道	-10.1698
卓	-10.1707
所行	-10.1724
此藥	-10.1727
俄	-10.1734
餅	-10.1738
薰	-10.1738
忤	-10.1738
悖	-10.174
僻	-10.1741
躍	-10.1741
以無爲	-10.1742
錬	-10.1742
爲臣	-10.1744
知止	-10.1744
疾病	-10.1744
謚	-10.1748
自足	-10.1749
强名	-10.1755
門人	-10.1755
於彼	-10.1757
有大	-10.1762
之弊	-10.1762
於萬物	-10.1777
而止	-10.1782
大吉	-10.1783
憐	-10.1783
緊	-10.1784
鬼名	-10.1788
一云	-10.179
宇宙	-10.1794
爲我	-10.1795
繞	-10.1799
豪	-10.1799
紂	-10.18
雌雄	-10.1812
始也	-10.1815
十二月	-10.1815
貼	-10.1821
復命	-10.1826
三尺	-10.183
歸根	-10.1831
身心	-10.1836
其義	-10.1839
孟子曰	-10.1847
綿綿	-10.1847
態	-10.1848
墓	-10.1849
相和	-10.1856
當以	-10.1857
善之	-10.186
二物	-10.1865
萬物而	-10.1869
結成	-10.1875
以道爲	-10.1876
霧	-10.1877
消息	-10.1879
中國	-10.1882
宮	-10.1897
淘	-10.1898
爪	-10.19
於事	-10.1901
掩	-10.1903
槩	-10.1905
林氏曰	-10.1909
轂	-10.1911
三斤	-10.1912
江南	-10.1918
傅之	-10.1919
異乎	-10.1925
本亦作	-10.1927
上昇	-10.1928
長短	-10.1937
是時	-10.1942
而立	-10.1949
蜂	-10.195
巾	-10.195
曰此	-10.1951
鱗	-10.1956
守道	-10.1961
一家	-10.1961
豕	-10.1961
薑	-10.1962
藝	-10.1962
烹	-10.1964
創	-10.1966
二日	-10.1967
丈人	-10.1974
而至於	-10.1975
榮辱	-10.1982
愛之	-10.1982
世之人	-10.199
其分	-10.2
硇砂	-10.2005
寐	-10.2013
稀	-10.2013
偕	-10.2013
陳藏器云	-10.2014
不處	-10.2015
淳樸	-10.2017
之世	-10.2019
灌	-10.2022
萬方	-10.2023
五寸	-10.2039
寂然	-10.2042
合道	-10.2044
附子	-10.2044
安得	-10.2049
法天	-10.205
成云	-10.205
而爲之	-10.2054
無爲則	-10.2055
合子	-10.2057
旱	-10.2058
命也	-10.2059
不起	-10.2063
彈	-10.2063
衞	-10.2068
虐	-10.2069
眇	-10.2072
磁石	-10.208
著書	-10.2083
有常	-10.2084
而不知其	-10.2085
常在	-10.2091
而又	-10.2092
又名	-10.2092
少許	-10.2095
小者	-10.2103
靜也	-10.2106
哀樂	-10.2117
也〇	-10.2118
盈滿	-10.2121
道家	-10.2123
兀	-10.2125
一處	-10.2126
白礬	-10.2128
傲	-10.2128
求其	-10.2129
整	-10.2132
未足	-10.2135
得此	-10.2135
者雖	-10.2136
分明	-10.214
豈知	-10.2141
以智	-10.2143
雖欲	-10.2149
爲事	-10.2159
其民	-10.216
人民	-10.216
復於	-10.2162
層	-10.2163
莫知	-10.2163
莊子所謂	-10.2167
爲體	-10.2168
仲尼曰	-10.2175
形神	-10.2177
坑	-10.2179
仞	-10.218
捉	-10.2184
叛	-10.2189
不變	-10.2191
不立	-10.2211
胸	-10.2212
所出	-10.2213
者衆	-10.2216
先以	-10.2223
道不	-10.2229
我者	-10.2229
太初	-10.2234
劣	-10.2235
疼	-10.2237
尹子曰	-10.2238
沖虚	-10.2242
無由	-10.2244
相反	-10.2245
也右	-10.2245
而我	-10.2247
四者	-10.2247
明矣	-10.2251
愚者	-10.2255
之力	-10.2262
不假	-10.2265
心不	-10.2269
答曰	-10.2271
動也	-10.2273
徙	-10.2273
本末	-10.2275
牡	-10.2283
板	-10.2288
副	-10.2293
咬	-10.2293
瑩	-10.2294
勃	-10.2295
物則	-10.2297
贍	-10.2297
剋	-10.2298
軌	-10.2299
爾雅云	-10.2302
死矣	-10.2302
方治	-10.2309
於前	-10.2312
我獨	-10.232
則易	-10.2328
玄黄	-10.2333
衍	-10.2335
不由	-10.2338
一箇	-10.2341
如前	-10.2345
縮	-10.2348
叩	-10.235
毀	-10.2351
又方治	-10.2354
上文	-10.236
不虧	-10.2361
遠近	-10.2368
煆	-10.2371
太微	-10.2372
所由	-10.2373
大同	-10.2377
尹喜	-10.2384
孰爲	-10.2387
疵	-10.2389
崔云	-10.239
所以能	-10.2393
神化	-10.2393
之由	-10.2397
以待	-10.2399
縛	-10.24
黑色	-10.2401
而致	-10.2402
天地萬物	-10.2405
何嘗	-10.2406
橫	-10.2409
益氣	-10.241
鸞	-10.2411
每服	-10.2415
捷	-10.2416
黄色	-10.2416
去之	-10.2422
一二	-10.2431
相合	-10.2433
段	-10.2441
范曰	-10.2442
政和	-10.2452
善也	-10.2454
藤	-10.2455
粉霜	-10.2456
文子	-10.2458
暑	-10.2459
堅强	-10.2465
几	-10.2467
五年	-10.2469
曷	-10.247
方且	-10.247
揣	-10.2471
紫色	-10.2473
自來	-10.2473
任其	-10.2479
心無	-10.2481
嗜	-10.2505
乎天	-10.2505
者可以	-10.251
東海	-10.2516
其下	-10.2516
沖和	-10.2518
距	-10.252
不治	-10.2523
乃可	-10.2525
不肯	-10.2525
嗜慾	-10.2526
佚	-10.2529
呼吸	-10.2531
匪	-10.2531
生則	-10.2535
何氏曰	-10.2535
此二	-10.2538
爲德	-10.2544
言語	-10.2548
凡物	-10.2549
物之所	-10.2556
無量	-10.2562
而來	-10.2566
之意也	-10.2567
死地	-10.2567
了悟	-10.257
然後能	-10.2571
三天	-10.2576
柏	-10.258
可乎	-10.258
三百	-10.2582
耳非	-10.2582
所好	-10.2584
盜跖	-10.2588
贈	-10.2589
君之	-10.259
之累	-10.2592
漱	-10.2592
燒香	-10.2602
天下之至	-10.2605
此理	-10.2607
害人	-10.2608
王曰	-10.2616
用此	-10.2622
廬	-10.2625
不正	-10.2627
之屬	-10.2631
一本	-10.2637
脊	-10.264
抱一子曰	-10.2641
隳	-10.2643
鹹	-10.2645
裁	-10.2645
五方	-10.2646
憫	-10.2646
岐	-10.2646
異也	-10.2649
則心	-10.2649
之論	-10.265
宴	-10.2651
直符	-10.2653
在此	-10.2654
不宜	-10.2655
者不可	-10.2668
燒之	-10.2679
聽之	-10.268
去皮	-10.2681
多食	-10.2682
第九	-10.2684
易之	-10.2687
口訣	-10.2688
狙	-10.2691
止也	-10.2695
死而	-10.2698
眞知	-10.2698
自成	-10.27
栗	-10.2701
翔	-10.2702
冶	-10.2703
蹶	-10.2703
霍亂	-10.2704
孩	-10.2704
憂患	-10.2704
行注	-10.2707
吕氏曰	-10.271
欣	-10.2714
去滓	-10.2717
焚香	-10.2721
碧虚	-10.2721
道不可	-10.2722
西北	-10.2725
至眞	-10.2725
人情	-10.2726
全眞	-10.2734
子列子	-10.2734
自正	-10.2736
往而不	-10.2738
或曰	-10.2741
匹	-10.2747
不畏	-10.2751
造化之	-10.2753
蛤	-10.2755
者矣	-10.2756
上元	-10.2758
之利	-10.2758
斛	-10.2759
時人	-10.2763
順物	-10.2764
濫	-10.2765
纖	-10.2771
百病	-10.2772
如是則	-10.2776
亦何	-10.2778
不知所以	-10.2779
萬變	-10.2788
後人	-10.279
眞氣	-10.279
曾青	-10.2795
曰夫	-10.2797
兼忘	-10.2798
所聞	-10.2801
之所能	-10.2803
口中	-10.2809
百餘	-10.2814
忿	-10.2818
養七日	-10.282
閲	-10.2828
之勢	-10.2828
漫	-10.283
之表	-10.283
註夫	-10.2835
乎道	-10.2835
不見其	-10.2838
六兩	-10.2841
我則	-10.2845
盆	-10.2851
乃至	-10.2853
爲治	-10.2854
此物	-10.2854
方圓	-10.2856
昭昭	-10.2857
聖人不	-10.2863
二子	-10.2866
其聲	-10.2869
癰	-10.2869
有情	-10.2872
焉故	-10.2875
有時而	-10.2878
精誠	-10.2879
必先	-10.288
正道	-10.2883
而終	-10.2886
如水	-10.2889
猒	-10.289
不恃	-10.2898
八卦	-10.291
河上公	-10.2911
道在	-10.2923
五穀	-10.2926
太陰	-10.2927
朽	-10.293
爲心	-10.2931
何如	-10.2934
化之	-10.2935
鐘	-10.2938
文云	-10.2941
察察	-10.2941
十五日	-10.2942
用火	-10.2943
別	-10.2945
鈞	-10.2947
爲器	-10.2949
蕭	-10.2949
峻	-10.2949
使我	-10.2949
幹	-10.2951
之所爲	-10.2953
希夷	-10.2953
甚多	-10.2953
朝廷	-10.2955
㸃	-10.2955
既無	-10.2955
船	-10.2959
葉如	-10.2962
性命之	-10.2967
傷寒	-10.297
礬石	-10.297
件	-10.2975
聖人所以	-10.2975
可以爲	-10.2976
之令	-10.2981
爲己	-10.2984
不須	-10.2988
以生爲	-10.2989
痔	-10.2995
可欲	-10.3009
詭	-10.301
而後能	-10.3011
墟	-10.3011
歙	-10.3012
獨化	-10.3017
天地之道	-10.3017
玉清	-10.302
以德	-10.3027
億	-10.3028
於民	-10.3031
爲義	-10.3031
器中	-10.3032
銘	-10.3035
不害	-10.304
守之	-10.3041
所適	-10.3045
地名	-10.3047
第八	-10.3049
古之人	-10.3053
其說	-10.3057
以示	-10.3061
括	-10.3069
灑	-10.3069
群生	-10.3071
瀆	-10.3072
得以	-10.3072
伊	-10.3073
巫	-10.3073
墻	-10.3075
十餘	-10.3076
無功	-10.3076
禪	-10.3077
故得	-10.3077
皮膚	-10.3078
有言	-10.308
漬	-10.3083
相因	-10.3088
從此	-10.3093
者多	-10.3098
謙下	-10.3098
流行	-10.3101
苛	-10.3102
不老	-10.3107
之本也	-10.3117
絡	-10.3117
相忘	-10.3117
矣若	-10.3118
之源	-10.3122
不亦	-10.3123
泥丸	-10.3125
飄	-10.3125
上天	-10.3125
秤	-10.3126
七年	-10.3128
玩	-10.3131
多言	-10.3132
愁	-10.3137
賢愚	-10.3144
坐忘	-10.3148
司命	-10.315
若然者	-10.3155
莊子云	-10.3167
人欲	-10.3174
者謂之	-10.3182
既有	-10.3188
臼	-10.3188
蟬	-10.3189
萬神	-10.3193
牀	-10.3193
柄	-10.3194
不悟	-10.3195
脆	-10.3196
恨	-10.3197
促	-10.3198
千年	-10.32
以觀	-10.3209
神符	-10.3212
四象	-10.3216
百里	-10.3223
形者	-10.3234
隨物	-10.3236
之治	-10.3238
道徳	-10.3242
癢	-10.325
不樂	-10.3253
驟	-10.3257
黍	-10.3257
輕重	-10.3257
崔本作	-10.3258
文武	-10.3258
保其	-10.3259
逾	-10.326
人物	-10.3261
昔者	-10.3263
性命之情	-10.3265
天行	-10.3272
之過	-10.3274
空心	-10.3283
令乾	-10.3289
至極	-10.3296
自勝	-10.3302
點化	-10.3314
若以	-10.3314
擁	-10.3315
使其	-10.3317
截	-10.3318
次之	-10.3319
惡之	-10.332
合乎	-10.3321
毋	-10.3321
僧	-10.3322
至妙	-10.3322
敖	-10.3323
成汁	-10.3324
洽	-10.3324
之器	-10.3328
謹按	-10.3329
戒者不得	-10.333
養火	-10.333
也雖	-10.3339
無所用	-10.3341
去來	-10.3342
萬象	-10.3343
與此	-10.3344
皆非	-10.3347
則無所	-10.3362
東西	-10.3364
順之	-10.3364
有爲之	-10.3367
隨之	-10.3368
大盜	-10.3376
行而	-10.3379
褐	-10.3381
不可名	-10.3381
唾	-10.3382
雕	-10.3385
痹	-10.3385
蘆	-10.3385
全其	-10.3386
中和	-10.3387
左手	-10.3388
鳥獸	-10.3389
在位	-10.339
以身	-10.3392
輕身	-10.3394
巽	-10.3396
無始	-10.3396
且夫	-10.3397
非眞	-10.34
而弗	-10.3402
兄弟	-10.3408
此章言	-10.341
三寸	-10.3413
之美	-10.3417
臍	-10.3422
人之生也	-10.3424
者如	-10.3434
自然而	-10.3434
貸	-10.344
終無	-10.3445
蝕	-10.3448
軀	-10.3451
馳騁	-10.3451
祛	-10.3451
馭	-10.3452
旌	-10.3452
艮	-10.3454
䰟	-10.3455
爲而不恃	-10.3455
絶學	-10.3456
播	-10.3456
人之心	-10.3463
爲正	-10.3465
三代	-10.3471
山之	-10.3477
教化	-10.3481
於地	-10.3486
不從	-10.3486
見聞	-10.349
纂	-10.349
肩	-10.3495
眞仙	-10.3498
可不	-10.3499
神之	-10.3505
柴	-10.3505
霸	-10.3507
吿	-10.3507
數十	-10.3512
規矩	-10.3513
熊	-10.3513
無厭	-10.3514
猶如	-10.3515
屏	-10.3517
之相	-10.3534
之象	-10.3534
之哉	-10.3541
接物	-10.3547
修鍊	-10.3552
爲天	-10.3552
無益	-10.3554
盛德	-10.3567
本性	-10.3568
衆人之	-10.3571
五音	-10.3574
更相	-10.3574
斧	-10.3575
䟽此	-10.3576
羲	-10.3576
安於	-10.3577
剪	-10.3577
協	-10.3581
練	-10.3583
闢	-10.3583
甘露	-10.3587
五星	-10.3589
雲母	-10.3596
汎	-10.36
宗師	-10.36
八石	-10.3602
之宗	-10.3602
其文	-10.3605
唯聖人	-10.361
之樂	-10.3612
十斤	-10.3615
使天下	-10.3621
一道	-10.3627
矣䟽	-10.3628
所宜	-10.3629
五斤	-10.3629
法也	-10.3631
應變	-10.3636
茯苓	-10.3636
曰道	-10.3638
死之徒	-10.3639
消渴	-10.3643
鈎	-10.3644
較	-10.3645
黎	-10.3646
闡	-10.3649
韋	-10.3657
萬有	-10.3657
中心	-10.3658
之稱	-10.3665
重陽	-10.3668
以心	-10.3669
物故	-10.367
遊乎	-10.3671
龍芽	-10.3674
存乎	-10.3674
李曰	-10.3678
不思	-10.368
樓觀	-10.3683
言教	-10.3684
推之	-10.3688
入山	-10.3689
能行	-10.3691
天尊志心朝禮	-10.3692
不拘	-10.3693
也義曰	-10.3694
人亦	-10.3694
至柔	-10.3695
儻	-10.3701
臟	-10.3701
嚥	-10.3701
而言之	-10.3703
榖	-10.3704
攘	-10.3707
與汝	-10.3707
白色	-10.3708
門户	-10.3709
詰	-10.371
鼔	-10.3711
該	-10.3712
窮極	-10.3713
運行	-10.3717
訟	-10.3717
前章	-10.3719
於上	-10.3724
禍患	-10.3725
未有不	-10.373
此篇	-10.373
尊卑	-10.3734
無爲之道	-10.3738
傳之	-10.3739
東南	-10.374
理身	-10.3749
諸藥	-10.375
治人	-10.3754
恍	-10.3773
争	-10.3774
遜	-10.3777
範	-10.3779
綺	-10.3779
挺	-10.3779
雷霆	-10.3779
體用	-10.378
旺	-10.3782
軸	-10.3782
閉氣	-10.3789
取汁	-10.3791
此即	-10.3792
此三	-10.3799
夜半	-10.3805
功用	-10.3808
入道	-10.3809
火之	-10.3814
皆得	-10.3815
伏願	-10.3817
無復	-10.3818
百官	-10.382
物自	-10.3821
壺	-10.3822
功曹	-10.383
成而	-10.3833
自謂	-10.3833
一字	-10.3834
未至	-10.3837
鋒	-10.3838
恱	-10.3838
豉	-10.3838
莽	-10.384
王元澤曰	-10.384
捕	-10.3841
彭祖	-10.3842
無求	-10.3845
扁	-10.3846
問之	-10.3847
赦	-10.3848
以正	-10.3852
俗人	-10.3854
千萬	-10.386
而見	-10.3863
去聲	-10.3866
在外	-10.3868
中風	-10.3869
以告	-10.3877
論之	-10.3879
抵	-10.388
三一	-10.3883
聖人以	-10.3889
神室	-10.3894
不尚賢	-10.3902
蟻	-10.3904
同異	-10.3906
歇	-10.3906
皆可	-10.3907
轍	-10.3908
壓	-10.3909
篆	-10.391
渡	-10.3913
一斗	-10.3921
復有	-10.3923
四時之	-10.3927
苦酒	-10.3933
未得	-10.3933
有道之士	-10.3936
欲使	-10.3944
積聚	-10.3946
之志	-10.3952
形之	-10.3952
玄珠	-10.3954
開元	-10.396
變而	-10.396
掘	-10.3963
不齊	-10.3965
之質	-10.3967
藍	-10.3968
冥冥	-10.3971
惡人	-10.3971
贅	-10.3974
脅	-10.3974
羡	-10.3975
器也	-10.3976
詮	-10.3979
允	-10.3982
和合	-10.3982
涯	-10.3983
天上	-10.3991
陰氣	-10.3991
碧虚註	-10.3998
此書	-10.3999
混成	-10.4
無爲而無不爲	-10.4004
也惟	-10.4008
祝曰	-10.4008
倦	-10.4014
而實	-10.4022
者能	-10.4029
滴	-10.4036
爲先	-10.4037
未盡	-10.404
亦不能	-10.404
戊	-10.4041
道之體	-10.4041
有待	-10.4041
泠	-10.4042
九州	-10.4042
芥	-10.4044
瘦	-10.4045
劑	-10.4046
齡	-10.4047
何由	-10.4056
漸漸	-10.4056
之語	-10.4058
而不自	-10.4059
六丁	-10.4059
寡人	-10.4062
羸	-10.407
萬法	-10.4071
丹經	-10.4077
本也	-10.4077
道行	-10.4081
本來	-10.4083
太白	-10.4088
二百	-10.4093
名實	-10.4094
大將軍	-10.4098
矣又	-10.4099
生焉	-10.41
道非	-10.4102
方外	-10.4104
運轉	-10.4107
狸	-10.411
大順	-10.411
憲	-10.4113
由此	-10.4113
賀	-10.4114
一句	-10.4115
罕	-10.4115
二寸	-10.4116
心者	-10.4116
杯	-10.4116
以此爲	-10.4117
鳩	-10.4119
燒灰	-10.4122
其力	-10.413
必以	-10.4133
形也	-10.4135
山澤	-10.4138
則可	-10.4138
天一	-10.4142
身之	-10.4144
楊朱	-10.4154
爲惡	-10.4154
三光	-10.4157
台	-10.4167
難得	-10.417
鄕	-10.4172
别有	-10.4175
艾	-10.4177
摶	-10.418
道人	-10.4181
墳	-10.4181
朋	-10.4181
殖	-10.4181
剥	-10.4182
禳	-10.4183
三尸	-10.4183
棘	-10.4186
梵	-10.4186
以至於	-10.4195
不利	-10.4196
因而	-10.4196
渾沌	-10.4199
以神	-10.4199
非常	-10.4204
忘我	-10.4211
色如	-10.4213
之末	-10.4213
人倫	-10.4214
榮華	-10.4216
火燒	-10.4216
禮義	-10.4217
丑	-10.4218
三王	-10.4218
眞鉛	-10.4218
清濁	-10.4226
明白	-10.4226
者猶	-10.4229
硝	-10.4229
下德	-10.4232
乙	-10.4234
不言之教	-10.4235
任其自	-10.4238
所求	-10.4241
君子之	-10.4241
當其	-10.4246
詩曰	-10.4248
眠	-10.4248
皓	-10.425
弔	-10.4251
摧	-10.4251
相爲	-10.4252
懇	-10.4255
不免於	-10.4255
企	-10.4255
巡	-10.4255
斲	-10.4256
於下	-10.4262
之根	-10.4266
而入	-10.4273
白雪	-10.4273
不作	-10.4278
也彼	-10.4285
終身不	-10.4285
受其	-10.4292
無外	-10.4295
太古	-10.4295
爲名	-10.4296
學人	-10.4296
發明	-10.4296
每日	-10.4298
傳云	-10.4299
不二	-10.4301
至精	-10.4302
宥	-10.4303
各有所	-10.4303
則道	-10.4305
之具	-10.431
戚	-10.4313
桓	-10.4315
封固	-10.4315
叟	-10.432
聘	-10.4321
啼	-10.4321
是則	-10.4322
潰	-10.4322
棄之	-10.4322
料	-10.4323
之民	-10.4323
尊貴	-10.4323
俞	-10.4324
蒂	-10.4324
亦以	-10.4325
脯	-10.4326
囿	-10.4327
墨子	-10.4333
以形	-10.4338
皆爲	-10.4355
往往	-10.4356
妙理	-10.4357
君曰	-10.4364
之而不	-10.4366
三分	-10.4378
邈	-10.4383
道君	-10.4384
五升	-10.4384
人人	-10.4387
渠	-10.439
大王	-10.4392
无形	-10.4392
天尊志心歸命	-10.4394
冝	-10.4395
呵	-10.4395
章第十	-10.4399
至誠	-10.4401
豈得	-10.4403
也然則	-10.4404
自非	-10.4407
調和	-10.4408
一粒	-10.4419
海内	-10.4422
養性	-10.4427
庶幾	-10.4432
喪其	-10.4434
通神	-10.4441
於德	-10.4448
白雲	-10.4449
瘧	-10.445
而退	-10.4455
硬	-10.4456
稷	-10.4461
鬥	-10.4466
屯	-10.4467
托	-10.4467
踈	-10.4467
何以知	-10.4469
敏	-10.447
之風	-10.4483
無能	-10.4493
若欲	-10.4496
大宗師	-10.45
至今	-10.45
樂也	-10.4506
已來	-10.4506
求道	-10.4507
能勝	-10.4509
劉曰	-10.4514
問於	-10.4523
菌	-10.4527
䘮	-10.453
謗	-10.453
沐	-10.4531
人自	-10.4532
偉	-10.4532
動則	-10.4534
隙	-10.4534
斯乃	-10.4537
謫	-10.4539
蠱毒	-10.4541
儒墨	-10.4542
六根	-10.4542
之端	-10.4549
聖德	-10.456
卯	-10.4563
時也	-10.4569
於天地	-10.4573
穆	-10.4578
之家	-10.4581
度人	-10.4581
有爲也	-10.4582
是其	-10.4582
浩	-10.4587
其内	-10.4589
處於	-10.4596
成就	-10.4596
將來	-10.46
團	-10.4602
邀	-10.4604
嘘	-10.4604
陣	-10.4605
無道	-10.4605
難得之貨	-10.4607
禾	-10.4608
駐	-10.4608
揭	-10.4609
愍	-10.4609
斑	-10.4611
一炁	-10.4612
貧賤	-10.4612
輻	-10.4612
貼身	-10.4616
在己	-10.4617
四句	-10.4617
壽夭	-10.4619
安知	-10.462
逼	-10.4622
煎取	-10.4625
庚申	-10.4626
勿食	-10.4627
産後	-10.463
終南	-10.464
夫聖人	-10.4646
誰能	-10.4646
制之	-10.4646
吾心	-10.4647
常無	-10.4648
我以	-10.4648
喉	-10.4648
箕	-10.4648
而物	-10.4655
自古	-10.4661
度世	-10.4664
翁	-10.467
以慈	-10.4673
馮	-10.4678
不離於	-10.4678
寂然不動	-10.4679
肇	-10.468
躡	-10.4681
曽	-10.4681
涕	-10.4682
讚	-10.4683
化生	-10.4687
术	-10.4687
麟	-10.4688
通靈	-10.4689
存神	-10.4693
不學	-10.4693
如法	-10.4697
可道	-10.4702
金水	-10.4706
愛人	-10.4708
受命	-10.4708
中道	-10.471
欲明	-10.4711
四子	-10.4714
於國	-10.4714
害也	-10.4715
在彼	-10.4716
全生	-10.4716
義云	-10.4716
佑	-10.4723
盡矣	-10.4725
不矜	-10.4728
之自然	-10.473
天下之物	-10.4738
降生	-10.4738
恠	-10.4746
等分	-10.4747
戀	-10.4747
其知	-10.4749
征	-10.4749
踰	-10.475
腥	-10.4753
循環	-10.4753
也若夫	-10.4754
囚	-10.4754
挈	-10.4756
衆妙之門	-10.4756
無害	-10.4759
屨	-10.476
命者	-10.4762
失也	-10.4763
莊周	-10.4767
冷氣	-10.4767
一一	-10.477
之流	-10.4772
者常	-10.4781
暴乾	-10.4787
爲利	-10.4787
無爲者	-10.4787
者良	-10.4791
可知矣	-10.4797
則死	-10.4808
一國	-10.4812
爲貴	-10.4813
桐	-10.4818
自矜	-10.4821
拯	-10.4821
纂微	-10.4823
二三	-10.4823
雍	-10.4824
迕	-10.4824
異名	-10.4824
貨財	-10.4825
順也	-10.4826
爲師	-10.4826
阜	-10.4828
入水	-10.483
牒	-10.483
江湖	-10.4831
電	-10.4832
四年	-10.4839
役使	-10.4839
無德	-10.484
聖惠方治	-10.4846
之爲物	-10.4846
初生	-10.4849
欲令	-10.4849
從事	-10.486
反司馬云	-10.4865
爲下	-10.4867
通玄	-10.4869
在地	-10.4872
此又	-10.4873
師之	-10.4874
磁	-10.4879
病也	-10.4887
庖	-10.4896
僅	-10.4896
掇	-10.4897
餐	-10.4897
鬚	-10.4897
邁	-10.4898
瑶	-10.4898
不散	-10.4899
玄之又玄	-10.4899
又法	-10.4899
不遇	-10.49
上聖	-10.4901
抗	-10.4902
有聲	-10.4904
圃	-10.4904
不可測	-10.4904
蒜	-10.4905
四大	-10.4909
識之	-10.4909
玉皇	-10.4909
戒之	-10.4913
第三十	-10.492
飲酒	-10.4925
神通	-10.4927
從而	-10.4931
之首	-10.4937
能爲	-10.4941
澹	-10.4941
丈夫	-10.4942
紫金	-10.4943
此心	-10.4943
大通	-10.4946
兩手	-10.495
一尺	-10.4951
從容	-10.4954
以相	-10.4955
所作	-10.4959
而况	-10.4959
大如	-10.496
亦不可	-10.4963
疳	-10.4967
齎	-10.497
五常	-10.4971
人爲	-10.4971
陟	-10.4972
而不窮	-10.4973
援	-10.4973
挾	-10.4976
矩	-10.4977
討	-10.498
祭祀	-10.4981
第一百	-10.4983
五百	-10.4984
窈冥	-10.4985
服藥	-10.4989
能使	-10.4991
南北	-10.4992
物莫能	-10.4994
以虚	-10.4995
星辰	-10.4997
不顧	-10.4998
有數	-10.4998
深遠	-10.4999
九日	-10.5009
解之	-10.501
而可	-10.5012
清和	-10.5013
非所	-10.5014
羣生	-10.5015
八十	-10.5016
而應	-10.5023
三百六十	-10.5027
袋	-10.5031
虎狼	-10.5034
亦能	-10.5035
反本	-10.5036
言我	-10.5037
赤色	-10.5039
縫	-10.504
純陽	-10.5042
粹	-10.5047
顚	-10.505
酥	-10.505
蠻	-10.5054
亢倉子	-10.5057
亦名	-10.5058
萬人	-10.5058
則萬物	-10.5059
感應	-10.5059
貪求	-10.506
猶未	-10.506
者哉	-10.5061
無他	-10.5062
兩儀	-10.5063
示人	-10.5064
孝慈	-10.5066
居之	-10.5068
難矣	-10.507
乆服	-10.5074
王母	-10.5082
盡性	-10.509
曰天	-10.5092
百二十	-10.5094
分爲	-10.5096
而外	-10.5097
方其	-10.5098
空中	-10.5098
詩云	-10.5103
言此	-10.5106
上仙	-10.511
三公	-10.5113
天性	-10.5115
而不失	-10.5117
局	-10.5122
不與物	-10.5122
郎	-10.5124
槐	-10.5126
仗	-10.5126
邇	-10.5127
吟	-10.5127
頸	-10.5129
三人	-10.5132
冲和	-10.5133
徐徐	-10.5138
言人	-10.5139
六經	-10.514
二升	-10.5143
不差	-10.5145
之禮	-10.5147
十一月	-10.5152
其家	-10.5153
右手	-10.5153
心痛	-10.5157
皆自	-10.5159
者言其	-10.5161
其精	-10.5163
太素	-10.5164
惟聖人	-10.517
章句	-10.5175
其母	-10.5176
爲物所	-10.5177
聞見	-10.518
明日	-10.5181
地獄	-10.5181
生薑	-10.5181
子路	-10.5187
不知道	-10.5187
之盛	-10.5188
能制	-10.5188
其外	-10.5189
緯	-10.519
拭	-10.5195
搜	-10.5197
爲無爲	-10.5199
籥	-10.5204
二斤	-10.5204
寤	-10.5204
綵	-10.5204
詠	-10.5208
仙官	-10.5211
於理	-10.5214
復歸	-10.5216
而後有	-10.522
於其間	-10.523
而易	-10.523
本又作	-10.5233
皆有之	-10.5234
道本	-10.524
不達	-10.524
法用	-10.5242
酉	-10.5244
藏之	-10.5245
能治	-10.5247
鈔莊子	-10.5248
也此章明	-10.5248
結繩	-10.5249
蹄	-10.5261
任之	-10.5262
五千	-10.5263
榆	-10.5265
而往	-10.5271
非其	-10.5271
兼愛	-10.5274
千二百	-10.5274
螫	-10.5276
握固	-10.5277
安其	-10.5277
澀	-10.5278
羞	-10.5278
鬻	-10.5278
蘄	-10.5279
疼痛	-10.5281
苑	-10.5283
狄	-10.5283
亨	-10.5284
精微	-10.5285
清明	-10.5286
之業	-10.5295
無敵	-10.5299
諸家	-10.5303
天皇	-10.5304
壑	-10.5311
而不用	-10.5312
四面	-10.5318
不載	-10.5322
取此	-10.5324
世界	-10.5325
𤇨	-10.5335
室中	-10.5338
爲是	-10.5339
蠱	-10.5343
又用	-10.5343
章第二十	-10.5349
不敢爲	-10.5349
宫室	-10.535
黜	-10.5354
不竭	-10.5354
西南	-10.5354
呈	-10.5358
熙	-10.5358
慰	-10.5358
廼	-10.536
道眞仁靜先生曹道冲曰	-10.5361
勤行	-10.5369
全也	-10.537
不問	-10.5376
滌	-10.5384
大方	-10.5385
欲求	-10.5394
地之	-10.5407
信之	-10.5419
蜩	-10.5427
啖	-10.5432
奮	-10.5435
秋毫	-10.5436
俯仰	-10.5436
隱於	-10.5436
飮	-10.5436
内觀	-10.5436
公子	-10.5437
純粹	-10.5438
名字	-10.5443
雌黄	-10.5444
華山	-10.5444
章第六	-10.5445
大成	-10.5448
公曰	-10.545
形形	-10.5453
夫婦	-10.5455
叢	-10.5465
記云	-10.5471
所貴	-10.5477
忘形	-10.5487
良乆	-10.5491
金瘡	-10.5493
千歲	-10.5498
情性	-10.5505
肌膚	-10.5506
焰	-10.5507
跪	-10.5509
隋	-10.5512
渾淪	-10.5513
津液	-10.5517
憚	-10.5517
恤	-10.5517
滋味	-10.5522
先須	-10.5526
執之	-10.5527
其君	-10.5527
無涯	-10.5529
日乾	-10.553
何哉	-10.5539
嚴曰	-10.554
平旦	-10.554
尚書	-10.5541
仙經	-10.5542
飛昇	-10.5546
王之	-10.5546
無味	-10.5552
仁義之	-10.556
所載	-10.5563
與世	-10.558
膚	-10.558
梨	-10.5581
未生	-10.5582
損益	-10.5582
狼	-10.5585
在身	-10.5585
耻	-10.5586
並作	-10.5587
爲宗	-10.5588
无窮	-10.5588
嗽	-10.5589
愚人	-10.5591
蓄	-10.5591
醇	-10.5594
雖異	-10.5594
樊	-10.5595
洎	-10.5597
心神	-10.5599
吴氏曰	-10.5599
天然	-10.5605
害之	-10.5609
不逆	-10.5616
大矣	-10.5621
化者	-10.5622
道經	-10.5623
自然而然	-10.5628
湯武	-10.563
物各	-10.5635
反徐	-10.5637
已而	-10.5639
廓	-10.5639
濃	-10.5639
壬	-10.5645
道之所	-10.5648
爲美	-10.565
安有	-10.5651
眞人曰	-10.5652
非無	-10.5653
繼之	-10.5656
但見	-10.5661
疫	-10.5664
姜	-10.5665
庫	-10.5666
乃爲	-10.5666
敢問	-10.5667
詎	-10.5669
栖	-10.5671
凋	-10.5673
梓	-10.5673
床	-10.5673
世世	-10.5674
亘	-10.5675
歸往	-10.5675
衒	-10.5676
宏	-10.5677
多則	-10.5677
爲丸	-10.5677
爵禄	-10.5678
何異	-10.5679
一伏時	-10.568
子綦	-10.5681
一寸	-10.5682
髪	-10.5682
將恐	-10.5687
如嬰兒	-10.5697
倪	-10.5701
之原	-10.5705
之禍	-10.5706
一丸	-10.5708
爲非	-10.5708
亦曰	-10.5711
有國	-10.5713
神全	-10.5715
用藥	-10.5716
不移	-10.5719
貢	-10.5723
悉皆	-10.5723
何能	-10.5727
所說	-10.5729
往而	-10.5731
勝人	-10.5733
三曰	-10.5735
多有	-10.574
關尹	-10.5746
告之	-10.5746
世有	-10.5746
治亂	-10.5747
臘	-10.5751
立言	-10.5753
秪	-10.5755
中宫	-10.5755
伏羲	-10.5757
叅	-10.576
也吕註	-10.5765
望之	-10.5775
其餘	-10.5782
王侯	-10.5787
大抵	-10.5793
建立	-10.58
無傷	-10.5801
逆順	-10.5803
欲其	-10.5804
相去	-10.581
妙有	-10.5812
何足以	-10.5818
皆在	-10.5821
不亡	-10.5825
若是者	-10.5827
昆	-10.5828
優	-10.5828
昨	-10.5831
人得	-10.5831
摘	-10.5831
俗學	-10.5832
蜕	-10.5832
溟	-10.5832
恢	-10.5833
橐	-10.5833
眞一	-10.5834
穆王	-10.5845
之害	-10.5845
不可知	-10.5847
二十日	-10.5851
明其	-10.5851
章第七	-10.5853
爲常	-10.5856
六氣	-10.586
也崔云	-10.5862
無人	-10.5863
水土	-10.5863
既而	-10.5864
呼爲	-10.5867
天之所	-10.5867
事事	-10.5868
十有三	-10.5871
南面	-10.5873
化也	-10.5874
至虚	-10.5878
我身	-10.5883
智巧	-10.5889
和平	-10.5893
而不知其所	-10.5895
小腸	-10.5901
而不見	-10.5905
也老子曰	-10.5909
裝	-10.591
栢	-10.5913
茹	-10.5913
饒	-10.5914
控	-10.5914
構	-10.5916
填	-10.5916
爾雅	-10.5916
哲	-10.5917
貺	-10.5918
悶悶	-10.5919
又方	-10.5919
子産	-10.5923
酬	-10.5924
八極	-10.5924
携	-10.5926
册	-10.5926
聖祖	-10.5927
刑罰	-10.5927
體之	-10.5928
能無	-10.593
貴乎	-10.5931
制伏	-10.5935
禮者	-10.5936
秋冬	-10.5936
無名之樸	-10.594
然自	-10.5954
之大者	-10.5955
而猶	-10.5955
御注	-10.5966
不可食	-10.5966
變爲	-10.5966
史記	-10.5973
繡	-10.5974
罡	-10.5976
偷	-10.5976
通達	-10.5977
無端	-10.5982
也苟	-10.5982
老聃曰	-10.5984
至言	-10.599
正也	-10.5992
貯	-10.5992
以治	-10.5995
皂	-10.5995
者何	-10.5997
從官	-10.5997
國王	-10.5998
二分	-10.5998
織	-10.6
衆妙	-10.6
怡	-10.6002
叩齒	-10.6003
味鹹	-10.6003
清源子劉驥曰	-10.6004
姚	-10.6006
幣	-10.6006
者先	-10.6008
河車	-10.6009
洩	-10.6009
妃	-10.6009
表裏	-10.6011
則所謂	-10.6014
奕	-10.6015
之時也	-10.6018
人知	-10.6027
候乾	-10.603
萬物之母	-10.603
代之	-10.603
故常	-10.6037
自愛	-10.6041
消滅	-10.6042
危殆	-10.6045
魅	-10.6051
亂也	-10.6055
有身	-10.6066
天下莫不	-10.6067
椿	-10.6067
故不可	-10.6067
聖知	-10.6069
德之人	-10.6071
三官	-10.6071
相感	-10.6075
獵	-10.6076
自己	-10.6076
一合	-10.6076
名者	-10.6078
遣使	-10.608
郷	-10.6081
瘟	-10.6081
垣	-10.6084
枯槁	-10.6087
鎖	-10.6087
窒	-10.6087
性而	-10.6089
主於	-10.6089
柰何	-10.6089
之藥	-10.609
也是以聖人	-10.6092
居其	-10.6098
字子	-10.6108
終於	-10.6111
樂之	-10.6115
一致	-10.6117
洞神	-10.6123
也唯	-10.6125
三四	-10.6126
爲地	-10.6127
甲兵	-10.6128
老氏之	-10.6129
盈虚	-10.6132
而已故	-10.6134
但以	-10.6137
有二	-10.6137
治也	-10.6138
未聞	-10.6142
土釜	-10.6148
以天	-10.6149
有分	-10.6152
如人	-10.6154
蠟	-10.6154
無心而	-10.6157
之難	-10.6157
用則	-10.6158
涎	-10.6159
剉	-10.616
何足	-10.616
舎	-10.616
株	-10.6164
喙	-10.6164
郤	-10.6165
得所	-10.6167
是謂玄德	-10.6167
瑕	-10.6167
杳冥	-10.6168
裘	-10.6168
黃茂材曰	-10.6169
羿	-10.617
揆	-10.617
塵垢	-10.617
枝葉	-10.6173
警	-10.6175
此語	-10.6177
可與	-10.618
河東	-10.6182
窮通	-10.6183
所受	-10.6184
愛民	-10.619
而神	-10.6192
圖經	-10.6196
生而不有	-10.6196
爲眞	-10.6197
者自	-10.6199
法式	-10.6202
達於	-10.6205
不修	-10.6205
迷惑	-10.6205
謂道	-10.6212
物理	-10.6212
遂使	-10.6212
請問	-10.6213
而至	-10.6213
混然	-10.6214
周天	-10.6219
有五	-10.6223
大象	-10.6224
不殆	-10.6225
應用	-10.6231
相傳	-10.6231
六年	-10.6233
無二	-10.6234
爲盜	-10.6236
尚賢	-10.6238
法令	-10.6239
玄天	-10.6239
其在	-10.6246
勒	-10.6246
巴	-10.6246
俗爲	-10.6247
寰	-10.6248
此爲	-10.625
熏	-10.6251
是乃	-10.6253
細剉	-10.6254
齧缺	-10.6255
孚	-10.6256
重玄	-10.6257
德不	-10.6264
也盧曰	-10.6266
汲	-10.627
貴也	-10.6271
乎哉	-10.6272
域中	-10.6272
不順	-10.6275
持之	-10.6276
行則	-10.6278
一盞	-10.6288
相隨	-10.6292
之鄉	-10.6294
能守	-10.6298
乃得	-10.63
而不以	-10.6302
保命	-10.6302
失性	-10.631
其極	-10.6311
不解	-10.6313
一宿	-10.6314
一方	-10.6318
:	-10.6318
爲國	-10.6321
血脉	-10.6321
教以	-10.6321
道生一	-10.6322
所及	-10.6323
癸	-10.6324
無定	-10.6324
喘	-10.6325
於是乎	-10.6327
生育	-10.6328
日出	-10.6333
胞	-10.6334
尉	-10.6334
不合	-10.6334
穹	-10.6334
毗	-10.6335
暉	-10.6335
吕吉甫曰	-10.6337
守靜	-10.6338
拳	-10.6339
揖	-10.634
遯	-10.6343
之辭也	-10.6343
厨	-10.6343
道之用	-10.6345
此其	-10.635
是皆	-10.6352
上善	-10.6352
傷害	-10.6352
則不然	-10.6353
者何也	-10.6354
春夏	-10.6357
畏之	-10.636
養形	-10.6362
莖葉	-10.6362
爲佳	-10.6362
知有	-10.6363
識者	-10.6363
八景	-10.6371
其法	-10.6372
不傷人	-10.6375
杏	-10.6381
夫至人	-10.6384
之人也	-10.6385
未見	-10.6392
處下	-10.6396
河伯	-10.6398
知所	-10.6399
以道德	-10.6405
沖氣	-10.6411
戌	-10.6414
弄	-10.6415
那	-10.6415
眞實	-10.6415
江河	-10.6419
輸	-10.6422
郞	-10.6422
怖	-10.6422
沫	-10.6422
汨	-10.6424
剛柔	-10.6424
知常	-10.6425
炊	-10.6426
得道之	-10.6427
増	-10.6427
更生	-10.6429
白馬	-10.6433
配天	-10.6436
祖庭	-10.6437
生故	-10.6441
金色	-10.6442
而形	-10.6443
未免	-10.6446
之容	-10.6446
反覆	-10.6447
一半	-10.6451
天下也	-10.6451
也莊子	-10.6453
疑獨註	-10.6455
化成	-10.6455
吾將	-10.6456
既不	-10.6458
有心於	-10.646
輕敵	-10.6461
自出	-10.6463
而獨	-10.6464
有力	-10.6465
全而	-10.6469
一枚	-10.6469
同塵	-10.6471
生死之	-10.6471
之類也	-10.6472
釋氏	-10.6476
其猶	-10.6478
聲也	-10.6482
微寒	-10.6487
因物	-10.6488
者不以	-10.6495
以利	-10.6501
事物	-10.6502
東北	-10.6502
鄧	-10.6507
駢	-10.6509
丗	-10.6509
一節	-10.651
傳授	-10.6512
鵲	-10.6513
無象	-10.6515
德經注云	-10.6515
其方	-10.6516
百川	-10.6516
至無	-10.6518
身體	-10.6518
不懼	-10.6523
此之謂也	-10.6524
天柱	-10.6528
久服	-10.6528
又音	-10.6529
於水	-10.6534
道之士	-10.6538
於俗	-10.654
炭火	-10.6541
以天下爲	-10.6542
正氣	-10.6542
吞之	-10.6548
甚矣	-10.655
不聽	-10.6553
各得其	-10.6555
不可不	-10.6565
往也	-10.657
爲仁	-10.6571
多用	-10.6571
妾	-10.6572
無心於	-10.6575
由其	-10.6581
惟道	-10.6584
一言	-10.6586
石膽	-10.6587
先王	-10.6587
瓷	-10.6593
蛻	-10.6593
已有	-10.6594
鞭	-10.6594
恐其	-10.6598
諾	-10.6598
不貴難得之貨	-10.6598
不愛	-10.6599
擅	-10.6599
衆人之所	-10.66
酌	-10.66
桀紂	-10.66
鼎中	-10.6603
買	-10.6603
故稱	-10.6604
秩	-10.6604
屈伸	-10.6607
犀	-10.6608
老人	-10.6611
自守	-10.6612
是非之	-10.6612
爲政	-10.6613
一章	-10.6615
衣食	-10.6618
有事	-10.662
下血	-10.6621
疆	-10.6623
頭痛	-10.6625
義也	-10.6626
道矣	-10.6627
天文	-10.6629
流珠	-10.663
用智	-10.6632
也莊子曰	-10.6638
福地	-10.664
顔子	-10.665
其地	-10.6651
故物	-10.6652
之甚	-10.6652
其妙	-10.6652
二十五	-10.6655
指歸	-10.6657
授以	-10.6663
揮	-10.6665
濟物	-10.6665
無待	-10.6668
非所以	-10.6672
梧	-10.6673
瓠	-10.6675
無礙	-10.6675
不惑	-10.6679
喬	-10.6679
乆而	-10.6683
濱	-10.6687
効	-10.6687
而失	-10.6688
憤	-10.6693
數也	-10.6694
無失	-10.6698
朱書	-10.6701
心中	-10.6704
至神	-10.6705
所惡	-10.6705
千變萬化	-10.6706
亦作	-10.6713
我也	-10.6713
而勿	-10.6715
以禮	-10.6717
在心	-10.672
范	-10.672
所不知	-10.6721
支離	-10.6722
黄庭	-10.6725
難知	-10.6728
又能	-10.6729
牛馬	-10.673
雞子	-10.6734
可畏	-10.6739
難治	-10.674
理而	-10.674
物情	-10.674
神王	-10.6745
坦	-10.6746
用力	-10.6747
生之畜之	-10.6747
以有爲	-10.6748
廣成子	-10.6749
宗廟	-10.6749
凡此	-10.675
之所生	-10.675
不顯	-10.6752
大熱	-10.6753
非特	-10.6753
無滯	-10.6754
用道	-10.6756
此事	-10.6757
不足以爲	-10.6762
爲樂	-10.6763
於自然	-10.6765
虚則	-10.6765
言之則	-10.6766
槁	-10.6766
邵	-10.6767
裴	-10.6767
朴硝	-10.6768
韜	-10.677
立功	-10.677
㣲	-10.677
但當	-10.6771
流水	-10.6772
六日	-10.6772
也萬物	-10.6773
彼之	-10.6773
貽	-10.6774
脛	-10.6774
芸芸	-10.6777
轡	-10.6777
畝	-10.6777
必至	-10.678
漂	-10.6781
不怒	-10.6784
一旦	-10.6786
過於	-10.6788
而莫	-10.6791
疇	-10.6791
十分	-10.6791
於大	-10.6795
不滯	-10.6805
也吾	-10.6809
兩句	-10.6811
安寧	-10.6813
弼	-10.6818
容貌	-10.6819
金木	-10.6819
目之	-10.6821
名譽	-10.6832
則與	-10.6833
所致	-10.6835
究其	-10.6837
精華	-10.6839
其明	-10.684
乃以	-10.6841
互相	-10.6842
而明	-10.6845
泰山	-10.685
酒服	-10.6853
本乎	-10.6854
低	-10.6858
方寸	-10.6858
日月之	-10.6859
伺	-10.686
動之死地	-10.6863
惚	-10.6864
徂	-10.6865
阻	-10.6865
誣	-10.6866
貝	-10.6869
餓	-10.6869
虔	-10.6869
天樂	-10.6873
陛下	-10.6873
天地之始	-10.6876
者欲	-10.6876
要在	-10.6876
而治	-10.6879
匹夫	-10.6886
流俗	-10.6886
者明	-10.6889
於人也	-10.6893
不務	-10.6895
先人	-10.6898
遠也	-10.6901
滯於	-10.6901
雖不	-10.6907
八方	-10.6909
不可爲	-10.6912
必得	-10.6913
其一	-10.6917
三錢	-10.6919
泊	-10.6922
大帝	-10.6927
忘功	-10.6928
於後	-10.6942
不改	-10.6947
治世	-10.6948
洲	-10.6954
玄都	-10.6954
神光	-10.6955
順天	-10.6957
酢	-10.6958
灼	-10.6959
凍	-10.696
半夏	-10.6964
衮	-10.6969
損之	-10.6969
道化	-10.6974
不存	-10.6974
不中	-10.6977
咽之	-10.698
自全	-10.6982
塗之	-10.6983
之基	-10.6992
不著	-10.6992
堯之	-10.6992
黄土	-10.6997
惡死	-10.7
德而	-10.7001
得道者	-10.7008
有象	-10.7008
亦云	-10.7016
死之	-10.7021
病者	-10.7026
能化	-10.7029
大師	-10.7031
憎	-10.7031
之長	-10.7033
其自然	-10.7034
豹	-10.7035
兩者	-10.7037
次用	-10.704
然有	-10.7041
三黄	-10.7042
憍	-10.7044
屠	-10.7046
員	-10.7047
聃	-10.7048
鬭	-10.7051
未始有物	-10.7051
寂寞	-10.7051
濯	-10.7052
替	-10.7053
換	-10.7053
蕩蕩	-10.7054
無可	-10.7055
巳上	-10.7055
幾何	-10.7056
癰腫	-10.7056
人不能	-10.7058
失於	-10.7059
則我	-10.7062
日益	-10.7063
五行之	-10.7063
珪	-10.7065
而任之	-10.7066
無時	-10.7066
種種	-10.7066
分外	-10.7067
道體	-10.7069
衣服	-10.707
坎離	-10.7073
為人	-10.7073
近於	-10.7076
周公	-10.7077
樂推	-10.7079
明者	-10.7079
其要	-10.7088
丙	-10.7095
覆之	-10.7096
以上	-10.7097
出處	-10.7098
貴於	-10.7099
脹	-10.7102
神神	-10.7104
於物而	-10.7105
不下	-10.7106
不任	-10.7107
猶言	-10.711
萬殊	-10.7113
利用	-10.7115
誥	-10.7117
則傷	-10.7119
簿	-10.7119
中庸	-10.7119
不得其	-10.7121
乎故	-10.7121
善言	-10.7123
頓服	-10.7123
復爲	-10.7129
草木之	-10.7132
之色	-10.7133
糝	-10.7135
上善若水	-10.7137
訛	-10.7138
捧	-10.7139
竿	-10.7139
之尊	-10.714
慄	-10.7141
寡欲	-10.7148
煥	-10.7148
心則	-10.7148
上品	-10.7148
穗	-10.715
空青	-10.7151
次以	-10.7152
復性	-10.7156
而何	-10.7157
爲道者	-10.7157
身也	-10.7159
人之性	-10.7161
李氏曰	-10.7162
動植	-10.7164
腸胃	-10.7164
道場	-10.7165
自伐	-10.7168
各異	-10.717
若乃	-10.7175
昭王	-10.7175
太清宫	-10.7176
與萬物	-10.7176
二味	-10.7182
無過	-10.7183
帝王之	-10.7184
而不敢	-10.7193
爲病	-10.7202
之政	-10.7203
危亡	-10.7205
入鼎	-10.7206
明年	-10.721
二尺	-10.7213
已下	-10.7214
應世	-10.7222
待之	-10.7223
屍	-10.7228
不和	-10.7229
甕	-10.723
煮之	-10.7231
無體	-10.7231
閭	-10.7232
模	-10.7232
飛仙	-10.7235
節解曰謂	-10.7235
卯酉	-10.7235
緫	-10.7235
壘	-10.7237
督	-10.7237
長安	-10.7238
不令	-10.7239
不材	-10.7241
盡也	-10.7241
不尚	-10.7242
如彼	-10.7242
文章	-10.7246
一大	-10.7247
辯者	-10.7247
守柔	-10.7248
土木	-10.7248
已矣	-10.7249
必然	-10.7251
處處	-10.7252
知天	-10.7254
平易	-10.7255
不全	-10.7256
元和	-10.7257
骨肉	-10.7257
哉夫	-10.7263
同研	-10.7263
善哉	-10.7264
次第	-10.7269
二曰	-10.7269
積德	-10.7272
萬靈	-10.7274
不擇	-10.7275
麻子	-10.7281
含德	-10.7281
其自	-10.7287
以全	-10.7287
楊子	-10.7294
無往而不	-10.7296
復歸於	-10.7296
依法	-10.7299
於道也	-10.7306
道與	-10.7315
太空	-10.7315
耆	-10.7316
之善	-10.7317
一世	-10.7318
刖	-10.7323
知常曰明	-10.7325
無一	-10.7326
曲則全	-10.7326
煖	-10.7326
金精	-10.7327
蹤	-10.7327
彫	-10.7327
湧	-10.7327
孤寡不穀	-10.7328
熙熙	-10.7329
檀	-10.733
怕	-10.7331
署	-10.7335
村	-10.7337
五者	-10.7339
與夫	-10.7339
南華眞經	-10.7339
潤澤	-10.7341
有形者	-10.7341
篇曰	-10.7342
於無形	-10.7343
極也	-10.7343
来	-10.7345
小而	-10.735
合而	-10.7356
足矣	-10.7356
行不言之教	-10.7361
有司	-10.7362
不自見	-10.7365
以仁義	-10.7371
忠臣	-10.7371
變也	-10.7377
乎夫	-10.738
之深	-10.7381
其父	-10.7384
正直	-10.7386
聖母	-10.7388
者可	-10.739
無足	-10.7391
眾	-10.7398
成道	-10.7398
有迹	-10.7401
謂之道	-10.7405
莫如	-10.7409
不能知	-10.741
耳夫	-10.7416
類也	-10.7418
救之	-10.742
篩	-10.7422
孽	-10.7422
擒	-10.7423
梗	-10.7423
故可	-10.7423
雉	-10.7423
軒冕	-10.7424
姬	-10.7424
九鼎	-10.7425
知人	-10.7425
晶	-10.7425
廣雅云	-10.7426
臭腐	-10.7426
絃	-10.7426
擲	-10.743
非聖人	-10.7431
章第三十	-10.7433
體道者	-10.7434
妻子	-10.7436
提點	-10.7436
後學	-10.7437
之號	-10.7439
可使	-10.744
以事	-10.7451
白日	-10.7451
大定	-10.7452
吾所	-10.7454
此一句	-10.7454
逐物	-10.7457
升降	-10.7458
有道之君	-10.7461
之始也	-10.7464
至藥	-10.7464
與衆	-10.7464
溺於	-10.7469
有爲而	-10.7472
執一	-10.7472
大德	-10.7475
不雜	-10.7476
最爲	-10.7482
乾汞	-10.7486
自明	-10.7486
知道者	-10.7493
生有	-10.7494
此兩者	-10.7496
眞死	-10.7499
言有	-10.75
爲神	-10.7502
爲害	-10.7506
熱毒	-10.751
癡	-10.7514
恬惔	-10.7516
然無	-10.7517
確	-10.7517
潭	-10.7517
嘯	-10.7518
奉行	-10.7519
裙	-10.752
牖	-10.7522
形似	-10.7522
棺	-10.7523
應感	-10.7523
沃	-10.7523
採無時	-10.7525
道之人	-10.7527
名號	-10.7527
雖殊	-10.753
得仙	-10.7532
伯夷	-10.7532
即有	-10.7534
道無形	-10.7536
叩頭	-10.7536
五神	-10.754
不遠	-10.754
和光	-10.7542
以救	-10.7543
臣某	-10.7544
生乎	-10.7545
腹痛	-10.7545
毫末	-10.7546
主人	-10.7548
目視	-10.7549
既已	-10.7549
骸	-10.7557
與道合	-10.7558
以奉	-10.7561
智力	-10.7562
與道同	-10.7566
其死	-10.7568
則無以	-10.7569
美之	-10.7584
冲氣	-10.7593
耳故	-10.7595
戰勝	-10.7595
火煅	-10.7596
之憂	-10.7602
萬物之宗	-10.7604
不貪	-10.7605
傷也	-10.761
與神	-10.761
旅	-10.761
膀胱	-10.7611
善治	-10.7611
有爲則	-10.7612
撮	-10.7614
匕	-10.7614
同其塵	-10.7615
净	-10.7615
決	-10.7616
晴	-10.7616
金鼎	-10.7617
怯	-10.7617
匙	-10.7619
同謂之玄	-10.7619
翦	-10.7619
吁	-10.762
有罪	-10.7621
其化	-10.7622
猿	-10.7622
形名	-10.7622
礜石	-10.7625
載之	-10.7628
與時	-10.7632
吐納	-10.7633
譬喻	-10.7634
而進	-10.7638
爲身	-10.7639
章第四	-10.7639
久矣	-10.7639
慈悲	-10.764
甚易	-10.7641
文公	-10.7642
及諸	-10.7642
之智	-10.7646
至元	-10.7649
救人	-10.7649
言無	-10.765
宫觀	-10.765
此段	-10.765
不憂	-10.7651
政教	-10.7652
盛衰	-10.7654
不善人	-10.7655
或爲	-10.7659
女人	-10.7666
不染	-10.7667
順其	-10.7668
之寳	-10.7669
无有	-10.7673
七元	-10.7674
神炁	-10.7675
其書	-10.7677
不停	-10.7684
無以爲	-10.769
人不知	-10.7691
物而不	-10.7691
我我	-10.7693
如斯	-10.7696
祖師	-10.7702
天曹	-10.7702
侮之	-10.7703
而强	-10.7705
中士	-10.7705
惑於	-10.7705
知其所	-10.7705
一念	-10.7706
蓼	-10.7708
晉	-10.7708
菴	-10.771
一毫	-10.771
有形之	-10.771
焉能	-10.7711
桎梏	-10.7711
天神	-10.7711
倡	-10.7712
勾	-10.7712
禍亂	-10.7712
鶉	-10.7717
二篇	-10.7718
曳	-10.7718
遏	-10.7718
祅	-10.7718
此符	-10.772
婁	-10.7722
吾聞	-10.7722
瘥	-10.7722
爲人所	-10.7723
學士	-10.7726
反於	-10.7728
曾史	-10.773
以小	-10.7731
米醋	-10.7732
無爭	-10.7735
觀之則	-10.7736
四十九	-10.7742
赤白	-10.7746
之理也	-10.775
五六	-10.7751
以己	-10.7755
所歸	-10.7757
也一云	-10.7761
隨其	-10.7761
未兆	-10.7765
在世	-10.7767
故次之以	-10.7767
皆同	-10.7767
服餌	-10.7768
使物	-10.7769
門下	-10.7772
三魂	-10.7773
臣按	-10.7774
皆因	-10.7783
而走	-10.7784
萬物之所	-10.7785
即止	-10.7787
立教	-10.7789
不平	-10.7795
之野	-10.7797
無不爲	-10.7803
善則	-10.7804
之祖	-10.7807
本或作	-10.7808
蔡	-10.7808
生之徒	-10.7809
其鬼不神	-10.7812
旗	-10.7812
之事也	-10.7814
形色	-10.7815
婆	-10.7815
舉其	-10.7815
地仙	-10.782
而起	-10.7823
要妙	-10.7824
烏頭	-10.7824
之過也	-10.783
仁也	-10.7833
莫非	-10.784
千金	-10.7842
之中有	-10.7843
之北	-10.7844
精思	-10.7844
聖迹	-10.7845
丘山	-10.7846
法地	-10.7851
淮南	-10.7851
嵗	-10.7856
功行	-10.7858
人參	-10.7864
延生	-10.7869
見而	-10.7869
心之所	-10.7875
然後可以	-10.7875
因時	-10.7876
内視	-10.7878
吾道	-10.7883
受氣	-10.7884
若存	-10.7887
則難	-10.7888
其利	-10.7891
樗	-10.7899
成金	-10.7899
不留	-10.79
聞而	-10.7901
信也	-10.7901
可作	-10.7903
甜	-10.7903
神水	-10.7906
乾薑	-10.7908
這	-10.7911
侣	-10.7912
宛	-10.7913
綸	-10.7914
突	-10.7915
也但	-10.7915
各一	-10.7915
蔬	-10.7915
也是故	-10.7917
姿	-10.7917
虎豹	-10.7919
三句	-10.7919
無餘	-10.792
何處	-10.7923
來者	-10.7925
介然	-10.7927
成丹	-10.7927
兮若	-10.793
哉此	-10.7932
半日	-10.7935
若人	-10.7936
故舉	-10.7938
眞精	-10.7939
百歲	-10.794
德則	-10.794
日日	-10.7942
平等	-10.7944
是猶	-10.7944
之母	-10.7946
視而	-10.7946
見者	-10.7955
其術	-10.7965
無盡	-10.7968
國君	-10.7969
金剛	-10.797
之而已	-10.7971
道之爲物	-10.7972
休息	-10.7975
天地間	-10.7979
無怨	-10.7982
至一	-10.7982
水調	-10.7984
即此	-10.7987
四達	-10.7988
也然而	-10.7988
治病	-10.7988
膿	-10.7989
虚其心	-10.7991
俗呼	-10.7998
不饑	-10.7999
之命	-10.7999
古之善	-10.8
向云	-10.8002
主宰	-10.8004
法道	-10.8005
僂	-10.8007
唇	-10.8009
多事	-10.8012
做	-10.8013
熒	-10.8013
勅	-10.8014
無已	-10.8015
之餘	-10.8016
不忍	-10.8016
滄	-10.8017
貪欲	-10.8018
功成不居	-10.802
韶	-10.802
嗚呼	-10.8021
之跡	-10.8023
文武火	-10.8024
害物	-10.8025
前章明	-10.8025
忽有	-10.8026
長久	-10.8027
其德乃	-10.8031
不可得也	-10.8037
觀於	-10.8038
異而	-10.8041
不終	-10.8041
五斗	-10.8041
武帝	-10.8044
外道	-10.8057
淳和	-10.8061
之微	-10.8062
之不可	-10.8062
今以	-10.8065
既得	-10.8066
赫	-10.8067
德行	-10.8069
不知其所	-10.8074
復乎	-10.8088
冲虚	-10.8092
道成	-10.8094
故君子	-10.8099
以和	-10.81
何必	-10.81
肘	-10.8104
各得	-10.8104
若愚	-10.8106
戈	-10.8108
麫	-10.8108
而得之	-10.8115
也碧虚註	-10.8115
訾	-10.8115
蕪	-10.8115
媒	-10.8117
系	-10.8118
因以	-10.8119
視之不見	-10.812
轅	-10.812
此等	-10.8121
咒	-10.8123
股	-10.8124
之用也	-10.8125
行乎	-10.8126
平無毒主	-10.813
馬之	-10.8131
不期	-10.8137
樂其	-10.8141
内篇	-10.8141
言曰	-10.8143
冷水	-10.8144
身存	-10.8144
四十九日	-10.8146
於衆	-10.8146
内有	-10.8148
天寳	-10.8148
哀公	-10.8148
多方	-10.8155
處其	-10.8162
其宜	-10.8166
三蟲	-10.8169
蓋以	-10.817
善用	-10.8173
中黄	-10.8175
萬國	-10.8176
者所謂	-10.8177
異類	-10.8179
依前法	-10.8184
問道	-10.819
丸如	-10.8193
而不言	-10.8198
惠施	-10.8199
謂我	-10.82
爲王	-10.8202
其來	-10.8203
全身	-10.8206
無分别	-10.8206
萊	-10.821
勿以	-10.8211
風俗	-10.8214
河上	-10.8214
及至	-10.8214
聖王	-10.8215
與天地同	-10.8217
必至於	-10.8218
日損	-10.8218
僚	-10.8219
呴	-10.8219
試之	-10.8219
和光同塵	-10.822
有限	-10.8221
長而不宰	-10.8221
期於	-10.8223
疊	-10.8224
朱雀	-10.8224
形器	-10.8225
皆出於	-10.8226
劵	-10.8227
管仲	-10.8228
爲奇	-10.8228
稼	-10.8229
窟	-10.8229
松脂	-10.823
俄而	-10.8232
嶺南	-10.8234
也昔	-10.8237
吐血	-10.8245
注夫	-10.8245
之所由	-10.8249
有神	-10.8252
迹也	-10.8255
立而	-10.8255
鉛中	-10.8257
何者	-10.8261
精粗	-10.8266
柔弱者	-10.8266
同食	-10.8268
自貴	-10.8269
亦有之	-10.8272
上眞	-10.8272
無遺	-10.8273
也雖然	-10.8274
不廢	-10.8278
反李云	-10.828
於形	-10.8281
以御	-10.8281
皆然	-10.8286
道理	-10.8289
性情	-10.8292
寒主	-10.8293
正法	-10.8294
隴	-10.8295
昊	-10.8299
三洞	-10.8299
洞眞	-10.8301
不常	-10.8306
大聖北斗七元君能解	-10.8308
者唯	-10.8309
若是則	-10.8309
以酒	-10.8311
矣今	-10.8313
微言	-10.8313
無累	-10.8314
歎曰	-10.8315
物不能	-10.8319
犧	-10.8319
在物	-10.8321
石灰	-10.8321
鈍	-10.8321
狎	-10.8322
天長地乆	-10.8322
蓬萊	-10.8322
攫	-10.8323
乍	-10.8324
臣等	-10.8324
侔	-10.8325
婢	-10.8328
譎	-10.8329
色青	-10.833
定也	-10.8334
少而	-10.8335
止渴	-10.8335
不宰	-10.8338
羊角	-10.8339
不輕	-10.834
於斯	-10.8341
鄉里	-10.8343
以前	-10.8344
多欲	-10.8344
三七日	-10.8349
自無	-10.8349
石上	-10.8349
八日	-10.835
者佳	-10.8351
七寳	-10.8354
爲之使	-10.8355
兵强	-10.8359
水旱	-10.8361
七星	-10.837
其位	-10.837
採得	-10.8373
發於	-10.8375
何不	-10.8379
無色	-10.8381
之疾	-10.8382
南斗	-10.8383
鼻口	-10.8389
聞其	-10.839
然若	-10.8391
丹成	-10.8395
堅固	-10.8401
絞	-10.8403
千日	-10.8408
黄精	-10.8408
輕清	-10.8408
天德	-10.8409
事則	-10.8414
始有	-10.8415
實無	-10.8416
焼	-10.8416
苟得	-10.8418
死生之	-10.8419
焙乾	-10.8421
渉	-10.8422
將何	-10.8423
刮	-10.8424
素樸	-10.8426
毅	-10.8426
稠	-10.8426
浮丘	-10.8428
睿	-10.8429
涸	-10.8429
驪	-10.843
纘義	-10.843
干戈	-10.843
之所不能	-10.8432
天官	-10.8433
嘻	-10.8433
離散	-10.8433
頽	-10.8434
它	-10.8434
猛獸	-10.8435
周行	-10.8435
已成	-10.8437
生靈	-10.844
倚伏	-10.8444
澆汞	-10.8445
億萬	-10.8446
名之曰	-10.8446
乃知	-10.8448
元神	-10.845
本於	-10.8451
爲不善	-10.8453
事有	-10.8457
則氣	-10.8458
沛	-10.8458
於道者	-10.8461
常行	-10.8462
自稱	-10.8463
兵馬	-10.8463
輕死	-10.8464
向之	-10.8469
則无	-10.8471
而後知	-10.8471
守雌	-10.8473
去彼	-10.8477
雖多	-10.8477
上章	-10.848
致其	-10.8482
師曠	-10.8486
正性	-10.8487
氣候	-10.8488
自失	-10.8488
天地之大	-10.8489
以制	-10.8489
渝	-10.8498
數日	-10.8498
相傾	-10.85
眞宰	-10.8502
以順	-10.8515
子母	-10.8516
形狀	-10.8517
不可勝	-10.8517
堝	-10.8521
隱顯	-10.8521
南海	-10.8522
長生乆視	-10.8523
臣聞	-10.8525
吳	-10.8527
至尊	-10.8528
芋	-10.8531
運用	-10.8531
萬類	-10.8532
從事於	-10.8532
劌	-10.8532
赤石脂	-10.8533
中間	-10.8534
掛	-10.8534
覓	-10.8535
六十時	-10.8535
此非	-10.8536
由於	-10.8536
償	-10.8537
迨	-10.8538
宸	-10.8539
行事	-10.8539
悠	-10.854
又將	-10.8542
諸法	-10.8545
金華	-10.8545
相對	-10.8545
長生不死	-10.8546
反下同	-10.8546
甲寅	-10.8547
非常道	-10.8548
九丹	-10.855
物化	-10.8551
子云	-10.8555
乃所以	-10.8556
曾不	-10.8561
未達	-10.8563
法以	-10.8572
都忘	-10.8573
有實	-10.8575
甲乙	-10.8577
長也	-10.8578
六畜	-10.8579
此名	-10.858
禮記	-10.8583
同歸	-10.8583
爲福	-10.8592
天地者	-10.8595
不輟	-10.8597
道常無名	-10.8602
之才	-10.8607
身外	-10.8607
非道也	-10.8607
一卷	-10.861
又作	-10.8613
玉京	-10.8614
得喪	-10.8614
固非	-10.8617
鐺	-10.8618
無識	-10.862
未悟	-10.862
以善	-10.862
爲萬物	-10.862
者易	-10.8622
碗	-10.8627
察其	-10.8627
而取	-10.8627
千餘	-10.8628
陽之	-10.8628
美善	-10.8629
至仁	-10.8629
上好	-10.863
宫中	-10.8631
結氣	-10.8632
鑽	-10.8633
遶	-10.8639
此道者	-10.864
酷	-10.864
象帝之先	-10.8641
寵辱若驚	-10.8641
是何	-10.8641
韻	-10.8642
而去之	-10.8644
攀	-10.8644
之主也	-10.8645
溝	-10.8645
貳	-10.8645
無乎不在	-10.8645
五月五日	-10.8646
攸	-10.8647
夙	-10.8649
叱	-10.8649
令其	-10.8651
皎	-10.8652
者由	-10.8654
聖人之心	-10.8655
恭敬	-10.8655
不辭	-10.8655
實而	-10.8659
爲寳	-10.8661
主者	-10.8664
一重	-10.8665
離道	-10.8666
設教	-10.8667
丹法	-10.8668
祕之	-10.867
其藥	-10.8671
作匱	-10.8673
細末	-10.8674
法取	-10.8676
下流	-10.8676
以理	-10.8681
骨髓	-10.8685
多矣	-10.8688
觔	-10.8688
因縁	-10.869
示之以	-10.8694
以見	-10.8697
但能	-10.8702
四日	-10.8703
人力	-10.8706
學之	-10.8706
更有	-10.8709
不遺	-10.871
虚通	-10.871
再服	-10.871
日三	-10.8712
一百二十	-10.8718
歲月	-10.8718
告以	-10.8719
傷生	-10.8725
淳風	-10.8729
不煩	-10.8732
矣且	-10.8733
死亡	-10.8736
死人	-10.8738
者固	-10.8739
不虚	-10.8746
圭	-10.8747
癥	-10.8748
刊	-10.8752
雷公云凡使	-10.8753
所施	-10.8753
儲	-10.8753
巍巍	-10.8754
豚	-10.8756
派	-10.8758
駟馬	-10.8759
下及	-10.8759
窮理	-10.8759
相通	-10.8761
希言自然	-10.8762
半錢	-10.8763
縱横	-10.8766
諂	-10.8768
大豆	-10.8769
之路	-10.8773
成眞	-10.8774
推移	-10.8776
音聲	-10.8778
合和	-10.8781
萬物之理	-10.8781
元宫	-10.8782
衣冠	-10.8783
道雖	-10.8783
吕註	-10.8784
唯其	-10.8785
四五	-10.8788
入火	-10.8791
塊然	-10.8793
此其所以	-10.8796
處世	-10.8798
二十七	-10.8798
人必	-10.8801
虚實	-10.8808
同體	-10.8811
鼎内	-10.8812
水氣	-10.8812
吏兵	-10.8821
而民自	-10.8823
氣者	-10.8827
各安其	-10.8829
遞	-10.8829
交相	-10.883
不取	-10.8833
輕舉	-10.8834
變易	-10.8835
願聞	-10.8835
之所起	-10.8837
之期	-10.8838
師曰	-10.8844
作汁	-10.8844
諧	-10.8851
和其光	-10.8853
鄧析	-10.8853
弩	-10.8853
瓢	-10.8855
明王	-10.8855
襌	-10.8855
涣	-10.8856
漁	-10.8857
姹女	-10.8857
當須	-10.8858
口鼻	-10.8858
蟠	-10.8858
汗出	-10.8859
則多	-10.8861
簫	-10.8862
寺	-10.8862
懽	-10.8863
蹇	-10.8863
洒	-10.8864
者宜	-10.8865
代大匠斲	-10.8865
即成	-10.8866
而不見其	-10.8866
輦	-10.8867
己身	-10.8868
得矣	-10.8868
强其骨	-10.8868
與人同	-10.8869
何則	-10.887
爲陽	-10.8872
神不	-10.8875
武侯	-10.8875
思之	-10.8879
不可執	-10.888
周之	-10.8888
莫知所	-10.8889
信不足	-10.889
法服	-10.8893
未能忘	-10.8894
大風	-10.89
紫雲	-10.8903
載營魄	-10.8903
譽之	-10.8905
水腫	-10.8907
而不辭	-10.8912
大黄	-10.8913
譬猶	-10.8916
弱其志	-10.8916
至貴	-10.8917
候冷	-10.8918
益生	-10.8918
亦當	-10.8919
任自然	-10.8923
所同	-10.8928
忘其所	-10.893
如水之	-10.8931
靈應	-10.8931
能應	-10.8933
雖大	-10.8933
者或	-10.8934
太易	-10.8935
雖曰	-10.8935
不可與	-10.8938
得之以	-10.8939
籟	-10.8941
立法	-10.8942
率性	-10.8942
即今	-10.8945
可見矣	-10.895
青金	-10.8951
脚氣	-10.8951
鷄子	-10.8952
却用	-10.8952
絕	-10.8957
雖知	-10.8958
必敗	-10.8959
誨	-10.8961
食療云	-10.8963
故天下	-10.8966
惡氣	-10.8967
疰	-10.8968
我亦	-10.8968
縈	-10.8968
饌	-10.897
琅	-10.897
紛紛	-10.8971
寛	-10.8971
師資	-10.8971
洋	-10.8972
溲	-10.8973
拊	-10.8973
味酸	-10.8974
筒	-10.8974
不休	-10.8975
沾	-10.8975
裕	-10.8976
實其腹	-10.8976
趍	-10.8976
公孫龍	-10.8976
斃	-10.8976
外其身	-10.8978
丁卯	-10.8979
恕	-10.8979
不與物爭	-10.8979
擢	-10.8983
昭然	-10.8986
武當	-10.8988
隱居	-10.8989
獨有	-10.8992
難也	-10.8997
好生	-10.8998
實也	-10.9001
當作	-10.9002
未萌	-10.9003
云云	-10.9003
至人之	-10.9004
八年	-10.9006
再用	-10.9007
流沙	-10.9008
一千	-10.901
天罡	-10.9018
於小	-10.9019
覺夢	-10.902
夫子之	-10.9025
身而	-10.9025
養生之	-10.9031
意而	-10.9033
昔之	-10.9035
役於	-10.9036
即無	-10.9038
還淳	-10.9039
毬	-10.904
亡也	-10.9041
帝曰	-10.9044
配合	-10.905
利之	-10.9051
常無欲	-10.9052
母砂	-10.9057
玄通	-10.9058
陽精	-10.9058
之辯	-10.9059
鬳齋云	-10.9061
貴者	-10.9062
雜篇	-10.9069
悲夫	-10.907
無容心	-10.9071
三業	-10.9072
糊	-10.9072
惡者	-10.9073
椎	-10.9078
犢	-10.908
蘂	-10.9081
鮑	-10.9081
書符	-10.9081
鵝	-10.9082
妙行	-10.9082
儒者	-10.9082
不擾	-10.9084
唤	-10.9084
瞽	-10.9084
以賤爲本	-10.9085
二種	-10.9085
煩悶	-10.9086
於物也	-10.9086
神器	-10.9087
森	-10.9087
夢中	-10.9087
逕	-10.9087
徐音	-10.9088
遼	-10.9088
諦	-10.9089
蔭	-10.9089
裳	-10.909
鳯	-10.909
户牖	-10.9091
士庶	-10.9093
委蛇	-10.9095
結實	-10.9095
未成	-10.9096
散則	-10.9097
無主	-10.9097
而存	-10.9098
人謂之	-10.9099
他日	-10.91
安危	-10.9101
其智	-10.9102
有異	-10.9106
道經注云	-10.9107
謙卑	-10.9111
雖未	-10.9112
不可言	-10.9113
其數	-10.9113
變化之	-10.9114
宜其	-10.9114
言聖人	-10.9119
得水	-10.9121
子欲	-10.9121
千載	-10.9121
石室	-10.9122
當歸	-10.9125
不昧	-10.9126
上用	-10.9128
雌靜	-10.9128
聖道	-10.9129
陶隱居云今	-10.913
名聲	-10.9132
瓶子	-10.9135
萬劫	-10.9137
火上	-10.9137
其辭	-10.9138
淮南子	-10.9141
應化	-10.9141
黄丹	-10.9148
王子	-10.9148
槁木	-10.915
無門	-10.9151
而愈	-10.9154
煮汁	-10.9154
亦將	-10.9155
見道	-10.916
而遊	-10.916
弗能	-10.9164
終也	-10.9166
靈符	-10.9172
敗之	-10.9172
矣惟	-10.9172
有間	-10.9177
知道之	-10.9179
天下有道	-10.9181
而小	-10.9183
以爲己	-10.9183
化物	-10.9184
愛惡	-10.919
瘻	-10.9191
也以此	-10.9192
杳	-10.9195
己也	-10.9195
膩	-10.9197
兇	-10.9197
谷神不死	-10.9198
漁父	-10.9198
牲	-10.9198
恚	-10.9198
西王母	-10.9198
聊	-10.9198
瞀	-10.9199
至德之世	-10.9199
算	-10.9199
鯢	-10.9201
今處處有之	-10.9203
無不成	-10.9204
乎故曰	-10.9204
意也	-10.9205
忠孝	-10.9207
靈官	-10.9207
治小兒	-10.9207
雄雌	-10.9207
毁譽	-10.9212
知我	-10.9212
大功	-10.9215
孰知其	-10.9219
亦無所	-10.922
匠石	-10.9225
千金方治	-10.9226
勝物	-10.9226
繩繩	-10.9234
鼈	-10.9237
高明	-10.9238
勝於	-10.9241
凡欲	-10.9244
雖小	-10.9245
其中有	-10.9245
玄門	-10.9247
之中而	-10.9249
譬之	-10.925
性分	-10.925
青牛	-10.9253
所樂	-10.9255
漢中	-10.9256
深矣	-10.9258
外無	-10.926
此蓋	-10.9261
鍋子	-10.9263
聖者	-10.9263
近道	-10.9265
德化	-10.9268
華子	-10.9272
靈臺	-10.9275
施之	-10.9281
蓋之	-10.9281
人之情	-10.9282
至寳	-10.9282
豁	-10.9284
形氣	-10.9284
王弼	-10.9284
靈府	-10.9285
无心	-10.9288
制於	-10.9293
之靈	-10.9295
:『	-10.9296
窈	-10.9298
其末	-10.9298
匱養	-10.9302
簡易	-10.9302
稜	-10.9304
未分	-10.9304
年月	-10.9304
蟹	-10.9306
不加	-10.9307
四寸	-10.9307
夔	-10.9309
嫩	-10.9309
皆從	-10.9309
天下之事	-10.9311
出生入死	-10.9313
菖蒲	-10.9313
迂	-10.9313
爍	-10.9314
褒	-10.9315
荀	-10.9315
復以	-10.9315
多言數窮不如守中	-10.9315
嗚	-10.9316
難於	-10.9316
治民	-10.9316
勵	-10.9317
翹	-10.932
方用	-10.9324
級	-10.9324
凡所	-10.9328
甲申	-10.9331
末世	-10.9332
恃其	-10.9334
悟道	-10.9335
參差	-10.9335
其始	-10.9336
庚辛	-10.9336
爲能	-10.9336
所在皆	-10.9339
能自	-10.9343
三台	-10.9343
甚於	-10.9344
識其	-10.9344
一十二	-10.9345
不住	-10.9345
處上	-10.9348
方術	-10.9349
不化者	-10.9349
歷代	-10.9349
非一	-10.935
無疵	-10.9351
頂火	-10.9359
珠玉	-10.9359
鍊丹	-10.9359
如玉	-10.9361
而足	-10.9361
者存	-10.9361
公主	-10.9361
到此	-10.9362
世事	-10.9362
而居	-10.937
不自知	-10.937
无名	-10.9374
學而	-10.9377
則亂	-10.9379
存身	-10.9381
尚不能	-10.9383
齊國	-10.9384
豈復	-10.9387
人間世	-10.939
無毒主	-10.9392
河上本	-10.9394
出者	-10.9395
五千言	-10.9397
故去彼取此	-10.9398
而必	-10.9402
注同	-10.9403
行氣	-10.9405
刳	-10.9405
銚	-10.9405
水水	-10.9412
自然之性	-10.9414
鴨	-10.9415
甑	-10.9419
之恩	-10.942
稻	-10.942
於無爲	-10.9427
蓋言	-10.9427
没身不殆	-10.9427
書之	-10.9427
拾	-10.943
媚	-10.943
跖	-10.9432
饗	-10.9432
耐	-10.9433
在前	-10.9433
鵠	-10.9433
不彰	-10.9434
札	-10.9435
弑	-10.9435
黄茂材曰	-10.9436
苔	-10.9437
何故	-10.9437
行於	-10.9438
跳	-10.9438
軒轅	-10.9438
驛	-10.9439
足則	-10.944
光而不耀	-10.944
繆	-10.944
達者	-10.9441
淳淳	-10.9441
勇敢	-10.9441
董	-10.9442
混同	-10.9442
以靜	-10.9445
貴之	-10.9448
日以	-10.945
神藥	-10.9451
聚也	-10.9452
有不信	-10.9452
愼之	-10.9454
者未嘗	-10.9454
復還	-10.9455
成器	-10.9457
無益於	-10.9457
有四	-10.9462
六極	-10.9464
聖人體道	-10.9464
乃有	-10.9465
精炁	-10.9467
堅白	-10.9468
先物	-10.9471
生於有	-10.9471
方能	-10.9473
有益	-10.9473
致柔	-10.9475
則天地	-10.9478
大丈夫	-10.9479
以手	-10.948
骨節	-10.9481
人若	-10.9483
而趨	-10.9492
趾	-10.9496
庚桑子	-10.9501
無敗	-10.9503
曲直	-10.9505
明於	-10.9508
亦不知	-10.9508
靜者	-10.951
比之	-10.9512
羹	-10.9513
不爲物	-10.9514
成敗	-10.9517
重濁	-10.952
所以生	-10.9521
知則	-10.9523
只爲	-10.9528
一人之	-10.9534
號爲	-10.9535
消石	-10.9536
神聖	-10.9539
細辛	-10.9539
也至於	-10.954
話	-10.9542
疑其	-10.9543
虚也	-10.9545
我好靜而民自正	-10.9545
咦	-10.9545
玊	-10.9545
騁	-10.9546
紋	-10.9547
輪迴	-10.9547
鳶	-10.9549
一曲	-10.9549
不敢爲天下先	-10.9549
扣	-10.955
埋之	-10.955
焕	-10.9551
價	-10.9551
苞	-10.9555
章第五	-10.9556
大羅	-10.9558
一生	-10.9563
雷公	-10.9565
是道	-10.9566
之序	-10.957
君主	-10.957
乃成	-10.9573
壺子	-10.9574
德曰	-10.9575
須是	-10.9579
䟽言	-10.9582
因此	-10.9583
如前法	-10.9588
也所謂	-10.9589
莫見其	-10.959
也人能	-10.9592
心有所	-10.9592
其勢	-10.9594
之極也	-10.96
意在	-10.9605
攝生	-10.9608
五龍	-10.9609
平微	-10.9611
心虚	-10.9617
禍福之	-10.9625
罐	-10.9625
弱者道之用	-10.9626
何得	-10.9628
今子	-10.9629
卑下	-10.9629
其㫖	-10.9632
木爲	-10.9632
色白	-10.9636
可知也	-10.964
政事	-10.9644
而受	-10.9646
相連	-10.9647
聖人之言	-10.965
功力	-10.9652
淮	-10.9654
黄老	-10.9654
修道之	-10.9655
不使	-10.9655
若驚	-10.9655
財貨	-10.9656
一石	-10.9656
執持	-10.9658
渾然	-10.966
怛	-10.966
娛	-10.966
良久	-10.9661
醬	-10.9662
裔	-10.9663
窪	-10.9664
此數	-10.9664
廻	-10.9665
詢	-10.9665
寜	-10.9666
身退	-10.9668
煩惱	-10.9668
臨川王安石曰	-10.9669
纉義	-10.9669
無之以爲用	-10.967
爲學	-10.9672
罹	-10.9673
力士	-10.9673
江東	-10.9674
上香	-10.9675
爲天下谷	-10.9679
鋪蓋	-10.9681
道曰	-10.9682
自然而已	-10.9684
不消	-10.9684
群品	-10.9685
方便	-10.9685
西域	-10.9685
自私	-10.9686
得長生	-10.9686
汞一斤	-10.9687
田野	-10.9688
善勝	-10.9689
不能行	-10.969
損人	-10.9693
庚辰	-10.9694
煩熱	-10.9697
以天下	-10.9699
之節	-10.9699
而食	-10.9699
不幸	-10.9702
即爲	-10.9703
周旋	-10.9703
不喜	-10.971
有成	-10.9711
上皇	-10.9712
所主	-10.9712
與彼	-10.9715
糠	-10.9718
人謂	-10.9718
廓然	-10.9722
此人	-10.9723
物來	-10.9723
長而	-10.9724
中元	-10.9727
能盡	-10.973
妄作	-10.9731
正而	-10.9743
任意	-10.9743
而有之	-10.9744
唐本注云此	-10.9744
白者	-10.9746
歸焉	-10.9749
吾所以	-10.975
而不爭	-10.975
風氣	-10.9756
黑鉛	-10.9757
而樂	-10.976
韋曰	-10.9766
不屬	-10.9767
陀	-10.9769
安樂	-10.977
亡身	-10.977
常德	-10.9771
羌	-10.9773
觀乎	-10.9773
笑曰	-10.9776
向秀曰	-10.9776
巴豆	-10.9777
育萬物	-10.9777
誠能	-10.9777
所屬	-10.9778
第十	-10.9778
栽	-10.9778
一氣之	-10.978
多端	-10.978
損之又損	-10.978
靣	-10.9783
無差	-10.9784
禹錫云按藥性論云	-10.9784
橘	-10.9786
者歟	-10.9786
眹	-10.9786
羶	-10.9787
癸丑	-10.9788
翫	-10.9789
孤寡	-10.979
績	-10.9791
顚倒	-10.9792
藻	-10.9792
亟	-10.9793
言行	-10.9794
王駘	-10.9794
所化	-10.9795
唐虞	-10.9796
莫能知	-10.9796
逆旅	-10.9796
守中	-10.9796
比於	-10.9797
强爲	-10.9798
皆須	-10.9798
然哉	-10.98
于此	-10.9802
所禀	-10.9805
飛之	-10.9805
此身	-10.9806
謙之	-10.9806
學道者	-10.9808
地上	-10.9809
不病	-10.9811
重言	-10.9813
一音	-10.9817
說文	-10.9823
與天同	-10.9824
動者	-10.9825
官長	-10.9827
爲水	-10.9827
玄精	-10.9831
勝負	-10.9833
有用	-10.9833
入爐	-10.9836
無一物	-10.9843
身輕	-10.9845
成者	-10.9845
流通	-10.985
猶云	-10.9851
道乃	-10.9851
失其所	-10.9853
者不得	-10.9858
不壞	-10.9864
於天地之間	-10.9868
平澤	-10.9868
者取	-10.9871
鼓之	-10.9872
二炁	-10.9872
與化	-10.9874
動用	-10.9874
者必有	-10.9876
正眞	-10.9877
其死也	-10.9878
而忘其	-10.9878
者名	-10.9879
解釋	-10.9886
不殊	-10.9888
實有	-10.9889
全矣	-10.9889
强大	-10.989
寒無毒主	-10.9892
白石	-10.9892
則不可	-10.9893
施行	-10.9897
零	-10.9899
氣氣	-10.99
峨	-10.9904
慢火	-10.9904
目前	-10.9907
薛	-10.9908
眷	-10.9908
累也	-10.9908
攘臂	-10.9909
眄	-10.9909
霑	-10.991
生民	-10.9912
而身	-10.9913
道德眞經廣聖義卷之	-10.9913
百骸	-10.9914
倣	-10.9914
德以	-10.9916
稱之	-10.9918
爲天下式	-10.9918
先將	-10.9918
比干	-10.992
影響	-10.992
不損	-10.992
緒餘	-10.9921
甘鍋	-10.9923
東嶽	-10.9923
太公	-10.9923
㝠㝠	-10.9924
乎䟽	-10.9925
孔丘	-10.9925
者不知	-10.9926
鼻中	-10.9929
酒下	-10.9934
其師	-10.9938
夭下	-10.9939
無爲故	-10.9939
故民	-10.9941
易以	-10.9942
滌除	-10.9942
榮衛	-10.9944
故幾於道	-10.9949
左味	-10.9952
游於	-10.9955
固然	-10.9956
爲喻	-10.9956
報應	-10.9958
無患	-10.9961
何可	-10.9961
散而	-10.9964
刑名	-10.9966
爾時	-10.997
大神	-10.9972
解其紛	-10.9973
切司馬云	-10.9975
所願	-10.9976
舉世	-10.9982
道本無	-10.9987
孰知	-10.9988
有何	-10.9989
求生	-10.999
若不足	-10.9992
萬年	-10.9992
也疑獨註	-10.9992
立於	-10.9994
病矣	-10.9995
萬古	-10.9998
未形	-10.9999
無疑	-11.0005
相見	-11.0005
硇	-11.0005
徐曰	-11.0006
無爲無事	-11.0007
也以其	-11.0011
櫃	-11.0011
先師	-11.0013
妄情	-11.0015
非吾	-11.0016
同出	-11.0016
大笑	-11.0018
人世	-11.0019
石榴	-11.002
艱	-11.0025
浄	-11.0025
恂	-11.0026
瘀血	-11.0026
加火	-11.0027
粱	-11.0028
顛	-11.0029
什	-11.0032
而好	-11.0032
跋	-11.0032
圎	-11.0032
竄	-11.0032
攻之	-11.0033
旡	-11.0033
眞汞	-11.0033
庶人	-11.0033
相代	-11.0036
大象無形	-11.0036
窈㝠	-11.0037
容心	-11.0037
以立	-11.0037
虚極	-11.0039
夫道者	-11.0041
趎	-11.0041
渺	-11.0042
一身之	-11.0042
樞機	-11.0043
智也	-11.0043
叫	-11.0046
民之所	-11.0047
以身爲	-11.0048
先王之	-11.005
明則	-11.0051
陰符	-11.0053
耳聾	-11.0053
前言	-11.0055
也又曰	-11.0056
餌之	-11.0058
天下之心	-11.0058
德全	-11.0058
未足以	-11.0059
理自	-11.0059
則謂之	-11.0061
其生也	-11.0063
保身	-11.0064
吾亦	-11.0066
物亦	-11.0066
得其所	-11.0068
貪生	-11.0069
空腹	-11.0071
質樸	-11.0071
火養	-11.0071
水流	-11.0072
九重	-11.0072
車之	-11.0074
太過	-11.0079
故爲天下貴	-11.008
論語	-11.0081
信者	-11.0081
而貴	-11.0083
是亦	-11.0086
耳若	-11.0089
今夫	-11.0089
因其所	-11.009
厚薄	-11.009
貴高	-11.009
變通	-11.0091
之所欲	-11.0092
有感	-11.0096
也政和	-11.0098
當有	-11.0099
又奚	-11.0102
諸子	-11.0107
于天	-11.0107
律令	-11.0109
笑之	-11.0112
篇之文	-11.0114
周流	-11.0114
或謂	-11.0118
異之	-11.012
益人	-11.0124
之宫	-11.0125
妙經	-11.0125
不備	-11.0131
道之大	-11.0132
之鬼	-11.0133
生長	-11.0134
閉目	-11.0136
忘身	-11.0142
峯	-11.0145
帔	-11.0145
去矣	-11.0147
抄	-11.0148
混而爲一	-11.0152
税	-11.0152
含德之厚	-11.0153
忻	-11.0153
五石	-11.0154
綿綿若存用之不勤	-11.0154
頼	-11.0154
曝	-11.0155
疽	-11.0155
鈴	-11.0156
之行也	-11.0156
牟	-11.0156
醴	-11.0157
軫	-11.0157
惑也	-11.0158
譚	-11.0159
自治	-11.0159
八節	-11.0159
熾	-11.016
歴	-11.0161
正言若反	-11.0162
道生	-11.0162
仇	-11.0162
有之以爲利	-11.0164
郢	-11.0167
二七日	-11.0168
臣眞述曰	-11.0168
盡爲度	-11.0169
亡國	-11.0169
依此	-11.017
未若	-11.0172
此說	-11.0174
心心	-11.0174
丹頭	-11.0175
兵革	-11.0176
之塗	-11.0177
寄託	-11.0179
不重	-11.0182
若使	-11.0184
不同而	-11.0184
河上名	-11.0185
丙丁	-11.019
與俗	-11.0191
而求之	-11.0204
開化	-11.0204
讀書	-11.0209
主之	-11.021
而難	-11.021
有虞氏	-11.021
以死爲	-11.0211
反郭	-11.0217
止水	-11.0219
我之所	-11.022
心智	-11.0221
無係	-11.0223
仙公	-11.0224
與其	-11.0226
天元	-11.0227
太宗	-11.0229
平王	-11.0231
交感	-11.0238
免於	-11.0238
大塊	-11.024
致一	-11.0242
太始	-11.0243
廣成	-11.0245
飽食	-11.0256
道常	-11.0258
之謂歟	-11.0262
漿水	-11.0262
也如此	-11.0263
能容	-11.0263
水性	-11.0264
壬癸	-11.0267
有善	-11.0271
澁	-11.0272
吾所謂	-11.0275
蛟	-11.0275
陽也	-11.0276
丁巳	-11.0276
鱉	-11.0278
未及	-11.028
物或惡之故有道者不處	-11.028
讃	-11.0281
斫	-11.0281
有志	-11.0281
如泥	-11.0281
者寡	-11.0282
鄰國相望	-11.0282
窠	-11.0282
小國寡民	-11.0282
立身	-11.0282
教也	-11.0282
鍋内	-11.0283
事物之	-11.0283
潛	-11.0283
蝶	-11.0284
陜	-11.0284
瓮	-11.0284
失眞	-11.0284
翕	-11.0285
膜	-11.0285
綽	-11.0285
於道而	-11.0286
娱	-11.0286
䖍	-11.0286
大音希聲	-11.0286
一如	-11.0286
戎鹽	-11.0287
晩	-11.0288
捻	-11.0288
殫	-11.0289
葉夢得曰	-11.0289
視其	-11.0291
閼	-11.0291
可觀	-11.0292
入合	-11.0293
可以長乆	-11.0294
更以	-11.0296
貧富	-11.0296
眞炁	-11.0296
及乎	-11.0299
若見	-11.0299
冬至	-11.0299
充塞	-11.03
萬物之上	-11.03
孰敢	-11.03
立名	-11.0301
大洞	-11.0305
玄玄	-11.0308
而使之	-11.0309
胡麻	-11.031
莫知其所	-11.031
唐明皇曰	-11.031
原㫖曰	-11.0311
石硫黄	-11.0313
居處	-11.0314
浩然	-11.0315
難測	-11.0316
玄微	-11.0316
至則	-11.0317
不知有	-11.0318
形聲	-11.032
之德也	-11.0322
神奇	-11.0326
東向	-11.0328
不爾	-11.0329
遂以	-11.033
妄爲	-11.0331
守眞	-11.0332
施爲	-11.0334
關節	-11.0337
百谷	-11.0338
玄覽	-11.0338
少時	-11.0345
文帝	-11.0345
爲累	-11.0347
非但	-11.0347
亦同	-11.0348
奚爲	-11.0352
得之於	-11.0353
則身	-11.0354
天下之所	-11.0356
道之所以	-11.0359
澤及	-11.0362
天降	-11.0367
朝元	-11.0371
積善	-11.0371
變而爲	-11.0373
不察	-11.0375
一時之	-11.0376
大哉	-11.0378
尊師	-11.0379
念呪	-11.0379
不可輕	-11.0384
美者	-11.0384
皇天	-11.0386
手執	-11.0389
甞	-11.039
至於此	-11.0392
當得	-11.0392
炒令	-11.0396
安可	-11.0397
瘴	-11.04
丞	-11.0401
賓	-11.0401
面上	-11.0404
者又	-11.0405
何物	-11.0406
非獨	-11.0406
拆	-11.0407
鐵線	-11.0407
飛龍	-11.0408
揀	-11.0409
悴	-11.0409
功成事遂	-11.0409
無所容	-11.0409
應時	-11.0409
作爲	-11.041
闚	-11.041
尼	-11.0411
動善時	-11.0411
怵	-11.0412
寔	-11.0412
下元	-11.0412
緡	-11.0412
伊尹	-11.0413
耦	-11.0413
信矣	-11.0414
守之以	-11.0414
其徒	-11.0415
優劣	-11.0415
版	-11.0416
聖人者	-11.0416
己者	-11.0416
成都	-11.0417
問答	-11.0417
異故	-11.0418
田獵	-11.0418
劇	-11.0418
紹	-11.0418
椀	-11.0418
益精	-11.042
無邊	-11.0421
亡其	-11.0421
爲禍	-11.0423
可愛	-11.0423
相遇	-11.0424
也言人	-11.0425
洗心	-11.0426
舜之	-11.0426
恐懼	-11.0427
元陽	-11.0428
王倪	-11.0429
腎氣	-11.043
純素	-11.043
利小便	-11.0432
楚王	-11.0434
九炁	-11.0437
授之	-11.0437
獨見	-11.0439
賢聖	-11.0444
天籟	-11.0445
不多	-11.0445
耳目之	-11.0446
諸仙	-11.0448
長年	-11.0449
天時	-11.0449
自取	-11.045
十餘年	-11.0454
其狀	-11.0456
即得	-11.0457
濕痹	-11.0458
其親	-11.0458
司馬本作	-11.046
愛養	-11.0462
汎然	-11.0465
輕易	-11.0466
化則	-11.0466
上經	-11.0467
忽見	-11.0467
經中	-11.0471
十二兩	-11.0472
假令	-11.0475
國有	-11.0476
入室	-11.0476
无為	-11.0485
無身	-11.0487
不自矜	-11.049
樸散	-11.0491
因循	-11.0491
修學	-11.0492
丹書	-11.0493
天光	-11.0494
上仁	-11.0496
六府	-11.0496
無有不	-11.0497
各一兩	-11.0498
親疏	-11.0499
則天	-11.0501
雲中	-11.0501
之失	-11.0506
爲妙	-11.0508
制汞	-11.051
而任	-11.0518
而自得	-11.0523
禹錫云按	-11.0529
六十日	-11.053
矣是以	-11.0531
攣	-11.0531
也人之	-11.0531
則止	-11.0532
塞其	-11.0533
循理	-11.0534
知之所	-11.0535
麵	-11.0535
乃復	-11.0536
惵惵	-11.0536
翰	-11.0537
曼	-11.0538
筴	-11.0539
非有非無	-11.054
神妙	-11.054
湛兮似或存	-11.054
籌	-11.0541
薊	-11.0541
信不足有不信	-11.0542
包裹	-11.0543
蓋頭	-11.0543
淹	-11.0543
葦	-11.0544
沬	-11.0545
炳	-11.0545
曝乾	-11.0546
此義	-11.0546
爲母	-11.0548
冤	-11.0548
不侵	-11.0548
二名	-11.055
日月星辰	-11.055
之名也	-11.0552
鼓舞	-11.0554
藥物	-11.0557
則又	-11.0558
四支	-11.0559
天下莫	-11.0565
進火	-11.0565
志云	-11.0566
馬蹄	-11.0569
後有	-11.0572
古之眞人	-11.0573
丹一名	-11.0574
故能長生	-11.0581
不遷	-11.0582
下火	-11.0584
此方	-11.0586
大器	-11.0588
易也	-11.0591
求之於	-11.0593
萬物化	-11.0594
前識	-11.0596
何用	-11.0598
執著	-11.06
爲細末	-11.0602
死灰	-11.0602
達眞	-11.0602
至乎	-11.0602
二千	-11.0605
與造化	-11.0605
高而	-11.0607
善於	-11.0612
眞官	-11.0612
物莫	-11.0613
所造	-11.0614
白銀	-11.0614
爲聖	-11.0614
游乎	-11.0616
隨機	-11.0617
散也	-11.0619
者物之	-11.0621
無偏	-11.0621
勿使	-11.0622
既知	-11.0628
外臺秘要	-11.063
人各	-11.063
重靜	-11.0634
誦經	-11.0635
罪福	-11.0635
相聞	-11.0638
德經云	-11.0641
自然之理也	-11.0643
關令	-11.0643
引之	-11.0652
道之妙	-11.0653
簇	-11.0655
畏死	-11.0657
自然者	-11.0658
扈	-11.0662
癖	-11.0666
則有所	-11.0666
之言也	-11.0666
炮	-11.0667
欠	-11.0668
三炁	-11.0669
架	-11.0669
粘	-11.0669
丙午	-11.067
鷇	-11.067
絶學無憂	-11.067
吠	-11.0671
黍米	-11.0672
翅	-11.0672
藪	-11.0673
汲汲	-11.0674
芻	-11.0675
嫁	-11.0675
黔	-11.0675
地黄	-11.0675
弛	-11.0675
劔	-11.0676
汩	-11.0677
由此觀之	-11.0677
膳	-11.0677
捶	-11.0678
圖經曰文具	-11.0678
喘息	-11.068
乙卯	-11.0681
曲全	-11.0681
妙體	-11.0682
不滅	-11.0682
安心	-11.0682
孔子之	-11.0683
北海	-11.0683
蒸之	-11.0684
事業	-11.0686
所守	-11.0688
乎天地	-11.0689
南嶽	-11.0689
一偏	-11.069
虚寂	-11.0691
戊己	-11.0694
天年	-11.0696
道之常	-11.0696
以文	-11.0697
在我者	-11.0702
乃止	-11.0703
一服	-11.0704
聖人之治	-11.0704
天心	-11.0705
用水	-11.0706
爲患	-11.0706
不同也	-11.0706
鯉魚	-11.0707
言善信	-11.0709
陽生	-11.0709
生生者	-11.0709
七返	-11.0714
北面	-11.0716
重者	-11.0716
愈有	-11.0717
以教	-11.0717
光照	-11.0718
數足	-11.0719
勝也	-11.0723
抱樸	-11.0734
今古	-11.0735
物以	-11.0737
居於	-11.0738
性命之理	-11.074
自相	-11.074
離於	-11.074
神名	-11.0743
百姓之	-11.0746
變成	-11.0747
好道	-11.0748
七魄	-11.0753
事無事	-11.0753
無名天地之始	-11.0756
亮	-11.0756
凝神	-11.0759
和則	-11.076
君上	-11.0763
加之	-11.0764
無所施	-11.0764
又解	-11.0766
法象	-11.0766
過去	-11.0766
間有	-11.0768
則反	-11.0769
中書	-11.0769
飲水	-11.0769
專一	-11.0769
而不能自	-11.077
自安	-11.0773
美也	-11.0775
無思	-11.0776
伯樂	-11.0779
胷	-11.0779
從心	-11.078
相得	-11.0782
星官	-11.0783
玄冥	-11.0784
丹華	-11.0787
訥	-11.0788
嵩	-11.0791
其命	-11.0791
右件	-11.0792
之仁	-11.0793
及於	-11.0793
公孫	-11.0795
驢	-11.0795
再入	-11.0796
吾今	-11.0797
甘美	-11.0797
凡夫	-11.0798
鴟	-11.0803
沒	-11.0804
先天地生	-11.0805
暨	-11.0806
嚼	-11.0807
緣	-11.0807
擣篩	-11.0807
鼎器	-11.0808
也及其	-11.0808
藩	-11.0809
區區	-11.0809
不見可欲使心不亂	-11.0809
子貢曰	-11.0812
白日昇天	-11.0814
列子曰	-11.0815
汴	-11.0815
不干	-11.0815
陶鑄	-11.0816
爲天下正	-11.0817
平主	-11.0817
魯侯	-11.0817
百萬	-11.082
靈飛	-11.0822
韭	-11.0826
太隂	-11.0828
治矣	-11.0828
更無	-11.0831
三十二	-11.0832
未定	-11.0833
入地	-11.0833
而不已	-11.0833
黄花	-11.0834
赫赫	-11.0834
庚子	-11.0837
常然	-11.0837
當年	-11.0839
無棄人	-11.0839
不自貴	-11.0841
九十	-11.0841
泊然	-11.0842
之臣	-11.0842
不伐	-11.0842
利益	-11.0843
須用	-11.0844
八十一	-11.0845
宋人	-11.0848
無名者	-11.0849
自任	-11.085
注言	-11.0853
言訖	-11.0856
經所謂	-11.0857
以證	-11.0862
且如	-11.0864
不周	-11.0866
非徒	-11.0867
常寂	-11.0867
一生二	-11.0868
自適	-11.0868
又如	-11.087
不避	-11.0872
弟子某	-11.0873
功能	-11.0874
問其故	-11.0875
土也	-11.0878
能如嬰兒	-11.0878
無得而	-11.088
故能成其大	-11.088
乗之	-11.0881
二十八	-11.0882
不犯	-11.0882
不見可欲	-11.0882
爲散	-11.0883
後其身	-11.0884
但知	-11.0884
善爲	-11.0885
用炭	-11.0886
之問	-11.0888
夫何故	-11.0892
聚散	-11.0893
百鬼	-11.0894
十九年	-11.0895
盒	-11.0901
也夫道	-11.0901
則事	-11.0903
充滿	-11.0906
之生也	-11.0906
復何	-11.0906
以遊	-11.0908
善能	-11.0908
之丹	-11.0911
受命於	-11.0911
自然故	-11.0912
不可謂	-11.0913
無疆	-11.0916
焉則	-11.0918
唯有	-11.0918
幽冥	-11.0919
通玄經	-11.0921
得之矣	-11.0921
此四	-11.0925
猶存	-11.0925
易所謂	-11.0932
綦	-11.0934
當爲	-11.0935
敎	-11.0935
肚	-11.0936
任其自然	-11.0936
不乆	-11.0936
樣	-11.0937
涓	-11.0938
虱	-11.0939
五氣	-11.0939
月十五日	-11.0939
囿於	-11.0939
咳嗽	-11.0941
顙	-11.0942
奄	-11.0943
憊	-11.0943
鼓琴	-11.0944
釐	-11.0944
彦	-11.0945
匝	-11.0945
夲	-11.0946
郭云	-11.0947
勤勞	-11.0948
殃咎	-11.0948
宣王	-11.0948
御䟽此	-11.0951
生氣	-11.0951
與道爲一	-11.0952
丁亥	-11.0953
季咸	-11.0953
道無不在	-11.0954
髻	-11.0954
動止	-11.0954
故無所	-11.0954
三十輻	-11.0956
此云	-11.0958
乎曰	-11.0958
仙翁	-11.096
事善能	-11.0964
徽	-11.0964
代謝	-11.0968
得意	-11.0968
不適	-11.0969
即以	-11.0969
三宫	-11.0971
可致	-11.0974
果有	-11.0974
生殺	-11.0976
也劉曰	-11.0978
黄帝曰	-11.0979
極其	-11.098
語曰	-11.0981
堯舜之	-11.0982
三字	-11.0983
山名	-11.0985
中用	-11.0985
也鬳齋云	-11.0985
道亦	-11.0985
如小豆	-11.0987
異物	-11.0992
禮拜	-11.0998
求諸	-11.0999
皆當	-11.1001
當其無	-11.1003
矣蓋	-11.1003
役役	-11.1004
能致	-11.1004
懷道	-11.1006
石膏	-11.1006
芽子	-11.1008
一條	-11.101
通乎	-11.1014
皇君	-11.1014
莫能行	-11.1016
中人	-11.1019
武火	-11.102
施於	-11.1022
自苦	-11.1023
汞一兩	-11.1025
火火	-11.1029
窮達	-11.1029
之宜	-11.1036
夫有	-11.1037
之心則	-11.1037
分野	-11.1039
人之生	-11.104
生理	-11.1041
安其居	-11.1043
唯道	-11.1043
是故聖人	-11.1045
之場	-11.1047
今世	-11.1048
惚恍	-11.1049
如此也	-11.1049
無勞	-11.1053
井中	-11.1054
出焉	-11.1054
在其中	-11.1056
玄默	-11.1058
方將	-11.1059
缸	-11.1065
貴其	-11.1065
無令	-11.1065
長者	-11.1066
狀若	-11.1067
弃	-11.1068
知識	-11.1069
天氣	-11.107
得之者	-11.1071
牡蠣	-11.1071
玄道	-11.1075
𨼆	-11.1075
踏	-11.1076
鮑叔	-11.1076
煬	-11.1076
觀者	-11.1076
亦可以	-11.1078
亳	-11.1078
爨	-11.1079
碩	-11.1079
置之	-11.1079
服炁	-11.108
功成名遂身退天之道	-11.108
七尺	-11.1081
無形無	-11.1081
挹	-11.1081
中出	-11.1081
蹔	-11.1083
樂音洛	-11.1084
希言	-11.1084
啄	-11.1086
況於人乎	-11.1086
問其	-11.1087
夫欲	-11.1087
勘	-11.1087
胡蝶	-11.109
可食	-11.1093
盈則	-11.1095
肌肉	-11.1095
非欲	-11.1095
六七	-11.1096
飄風	-11.1096
嵩山	-11.1097
不辯	-11.1098
物得	-11.11
第二明	-11.1101
婬	-11.1101
切下同	-11.1104
無意	-11.1106
果敢	-11.1109
輪轉	-11.1109
治道	-11.111
復見	-11.111
九霄	-11.1112
養氣	-11.1113
壽命	-11.1116
七竅	-11.112
哉蓋	-11.1123
疥	-11.1126
則形	-11.1126
惑者	-11.1127
有爲者	-11.1129
欲心	-11.113
二十六	-11.1135
如上	-11.1136
以仁	-11.1137
非指	-11.114
之所以爲	-11.1142
答以	-11.1144
此一章	-11.1146
所以成	-11.1147
爲妖	-11.1152
中來	-11.1153
至微	-11.1155
靈公	-11.1157
白公	-11.1174
其質	-11.118
之效	-11.1181
玄元皇帝	-11.1183
百體	-11.1184
分内	-11.1184
形全	-11.1185
四聖	-11.1186
仁義者	-11.1186
仁愛	-11.1187
二八	-11.1188
正炁	-11.1193
脩身	-11.1198
滑石	-11.1202
營爲	-11.1202
「	-11.1202
示以	-11.1203
化而爲	-11.1203
自後	-11.1203
與之俱	-11.1206
聳	-11.1209
二十年	-11.1212
似不肖	-11.1212
反者道之動	-11.1212
荅	-11.1212
知音智	-11.1213
醯	-11.1213
心善淵	-11.1213
梅師方治	-11.1213
玄之又玄衆妙之門	-11.1214
居善地	-11.1215
莢	-11.1215
薤	-11.1216
岳	-11.1216
膺	-11.1217
鬢	-11.1218
蟾	-11.1219
得志	-11.1219
補虚	-11.122
以示人	-11.122
氣和	-11.122
嗔	-11.122
所養	-11.1221
冕	-11.1221
潘	-11.1221
懲	-11.1223
或使	-11.1223
七兩	-11.1224
窺牖	-11.1225
冢	-11.1226
翊	-11.1226
瞬	-11.1226
騫	-11.1226
款	-11.1227
壬午	-11.1227
天下之民	-11.1228
張弓	-11.1228
盛之	-11.1229
甲午	-11.1231
不以物	-11.1232
無擇	-11.1234
大禹	-11.1237
混合	-11.1238
在道	-11.124
朝夕	-11.1241
巵言	-11.1241
無知無欲	-11.1242
昊天	-11.1244
可貴	-11.1245
相繼	-11.1246
日三服	-11.1249
忘己	-11.1251
第五十	-11.1252
全德	-11.1254
於道矣	-11.1256
不朽	-11.1257
所以有	-11.1258
反又音	-11.1261
住持	-11.1262
善應	-11.1266
謙退	-11.1267
深妙	-11.1273
畜之	-11.1275
善惡之	-11.1278
難易	-11.1278
應帝王	-11.128
物無不	-11.128
忘懷	-11.1281
玉石	-11.1282
屬於	-11.1282
補不足	-11.1283
愈多	-11.1286
玄教	-11.1287
而莫之	-11.1291
長大	-11.1292
金砂	-11.1292
已死	-11.1295
不能忘	-11.1295
之妙也	-11.1296
合内	-11.1297
𩐎	-11.1301
君王	-11.1301
高祖	-11.1303
常使民無知無欲	-11.1306
以彰	-11.1306
住火	-11.1309
當是	-11.1311
返本	-11.1312
患也	-11.1313
契道	-11.1313
歸眞	-11.132
樂殺人	-11.1322
一轉	-11.1322
仙道	-11.1325
天下之理	-11.1325
天和	-11.1325
則應	-11.1326
病病	-11.1329
高宗	-11.1329
誰與	-11.133
不可以爲	-11.1332
哉故曰	-11.1332
不至於	-11.1333
金碧	-11.1333
腹内	-11.1334
人臣	-11.1337
勤苦	-11.1338
六腑	-11.1342
法則	-11.1343
之貌也	-11.1346
糖	-11.1347
修養	-11.1348
百節	-11.1348
分作	-11.1348
譴	-11.1351
蘿	-11.1351
瀝	-11.1352
深不可識	-11.1352
挫其鋭	-11.1353
帳	-11.1353
癇	-11.1354
白皮	-11.1354
拍	-11.1354
島	-11.1354
天運	-11.1355
扁鵲	-11.1356
鳧	-11.1356
奠	-11.1357
勁	-11.1357
衢	-11.1357
倘	-11.1357
蚌	-11.1358
妬	-11.1358
霜雪	-11.1359
腰痛	-11.1359
生而不有爲而不恃長而不宰是謂玄德	-11.1359
盒子	-11.1359
蛙	-11.136
物壯則老	-11.136
有名萬物之母	-11.136
掠	-11.1361
寃	-11.1362
道教	-11.1362
䇿	-11.1362
搆	-11.1363
十里	-11.1363
太乙	-11.1364
元始天尊	-11.1364
袍	-11.1364
樵	-11.1364
弋	-11.1365
庇	-11.1365
磬	-11.1365
詳道註	-11.1366
爲道日損	-11.1366
於道德	-11.1366
不交	-11.1367
乗雲	-11.1367
陳象古曰	-11.1367
一朝	-11.1368
一息	-11.137
自然汁	-11.137
天地雖大	-11.1376
求名	-11.1379
閉塞	-11.1381
之誠	-11.1382
十七章	-11.1382
不似	-11.1382
利則	-11.1383
聖君	-11.1386
不美	-11.1386
凝寂	-11.1389
老莊	-11.1391
齊之	-11.1398
上言	-11.1401
妄想	-11.1403
相交	-11.1405
數百	-11.1405
拘於	-11.1408
六尺	-11.1413
不可解	-11.1417
黄連	-11.1418
奚足	-11.1419
積氣	-11.1421
丹藥	-11.1422
投之	-11.1425
金金	-11.1426
非是	-11.1429
始生	-11.1431
彼且	-11.1432
陰也	-11.1433
傷性	-11.1437
天地萬物之	-11.1438
而不失其	-11.1439
用之則	-11.1439
有爲有	-11.1439
無崖	-11.1441
無心也	-11.1441
由人	-11.1443
大迷	-11.1444
投於	-11.1445
黄華	-11.1446
不暇	-11.1449
氣散	-11.1449
不脱	-11.1451
下痢	-11.1453
者因	-11.1453
常情	-11.1456
風雲	-11.1456
不忒	-11.1458
過分	-11.1463
若亡	-11.1463
公私	-11.1464
夏至	-11.1465
不獲	-11.1466
頭風	-11.1466
純一	-11.1467
王郭	-11.1467
歸本	-11.1468
論曰	-11.1468
隱士	-11.147
太史	-11.1474
此聖人	-11.1474
不得已而用之	-11.1474
能通	-11.1475
去道	-11.148
清水	-11.1482
非物	-11.1483
兵者	-11.1485
而益	-11.1486
能止	-11.1487
。』	-11.1488
也若以	-11.1488
三度	-11.1488
蠢	-11.1489
膈	-11.1491
以意	-11.1493
浙	-11.1494
二斗	-11.1495
禮法	-11.1496
衷	-11.1498
不疑	-11.1498
十二年	-11.15
味甘平無毒主	-11.15
卻	-11.1502
瘕	-11.1502
曰吾聞	-11.1502
翛然	-11.1503
自悟	-11.1503
祟	-11.1503
愛民治國	-11.1504
伍	-11.1504
韜光	-11.1505
妄言	-11.1505
純白	-11.1505
一片	-11.1505
感而遂通	-11.1505
睢	-11.1506
至堅	-11.1507
殁	-11.1507
徐無鬼	-11.1508
初無	-11.1509
筩	-11.1509
感動	-11.1509
莫大焉	-11.151
清酒	-11.151
無欲則	-11.151
研如粉	-11.1512
心動	-11.1513
難以	-11.1514
登山	-11.1516
十二時	-11.1517
如神	-11.1517
如粉	-11.1518
性分之	-11.1521
開闔	-11.1522
消災	-11.1524
以義	-11.1524
舟車	-11.1524
非知	-11.1524
在焉	-11.1529
曆數	-11.153
風化	-11.1536
頂上	-11.1538
所食	-11.1541
而理	-11.1542
可行	-11.1543
白鹿	-11.1543
尸解	-11.1546
則失其	-11.1547
家國	-11.1547
而民不	-11.1548
哉䟽	-11.1549
川澤	-11.1549
枯木	-11.1554
條下	-11.1554
所傳	-11.1556
大寒	-11.1558
⬤(	-11.1561
治大國	-11.1565
十一年	-11.1566
而笑	-11.1567
之殊	-11.1567
可與言	-11.1568
矣老子曰	-11.157
大腸	-11.1575
尋常	-11.1579
四尺	-11.1584
而長	-11.1585
變動	-11.1585
淳朴	-11.1586
熱氣	-11.1588
今有	-11.159
樂天	-11.159
非常名	-11.1591
何暇	-11.1592
言人君	-11.1593
射之	-11.1594
蓋謂	-11.1599
海中	-11.16
終南山	-11.16
勇於	-11.1601
通明	-11.1602
灰汁	-11.1604
天下皆知	-11.1606
安神	-11.1608
鄭人	-11.1608
魚鼈	-11.161
之妙用	-11.1611
相須	-11.1611
能忘	-11.1615
化身	-11.1618
必致	-11.1618
之象也	-11.162
是矣	-11.162
州郡	-11.1623
數年	-11.1623
若之何	-11.1624
採根	-11.1626
降于	-11.1627
些	-11.1631
立乎	-11.1632
同前	-11.1636
孟詵云	-11.1639
宵	-11.1639
麝香	-11.1639
而相	-11.164
字之曰道	-11.1641
踞	-11.1642
家有北斗經	-11.1642
以喪禮處之	-11.1643
色黄	-11.1643
鼃	-11.1643
徘徊	-11.1644
齊物	-11.1645
綿綿若存	-11.1645
萬機	-11.1645
翟	-11.1645
懸胎	-11.1645
醒	-11.1646
伎	-11.1647
銅鐵	-11.1647
惱	-11.1647
妹	-11.1647
秃	-11.1648
砂中	-11.1648
筌	-11.1649
誑	-11.165
脣	-11.165
安在	-11.165
爲萬物之	-11.1651
涑水司馬光曰	-11.1651
葷	-11.1651
益州	-11.1652
小豆	-11.1652
接輿	-11.1652
腰脚	-11.1654
顓頊	-11.1655
忘情	-11.1655
示其	-11.1656
繒	-11.1656
不爲主	-11.1656
輙	-11.1656
此莊子	-11.1657
脇	-11.1658
紀綱	-11.1659
文始	-11.166
白金	-11.166
則國	-11.1661
禁忌	-11.1662
之元	-11.1663
昏昏	-11.1665
其美	-11.1667
之地也	-11.1667
大寳	-11.1668
太后	-11.1671
六情	-11.1678
寂寥	-11.1678
其過	-11.1679
十萬	-11.168
兩足	-11.168
者天地	-11.1681
而不以爲	-11.1682
十七年	-11.1683
衰老	-11.1685
白花	-11.1686
坦然	-11.1687
經世	-11.1693
色聲	-11.1693
此草	-11.1694
未免於	-11.1697
益之	-11.1699
相離	-11.17
者耳	-11.17
乃曰	-11.1702
長生之	-11.1704
玄女	-11.1709
澹然	-11.1711
非由	-11.1713
道氣	-11.1714
志在	-11.1715
淡然	-11.1715
之所致也	-11.1715
又言	-11.1718
順理	-11.1719
陰陽之氣	-11.1721
十三年	-11.1721
語汝	-11.1722
惠子曰	-11.1724
天生	-11.1725
出則	-11.1727
均平	-11.1727
大臣	-11.1728
逐末	-11.1729
和柔	-11.173
善士	-11.1735
彌遠	-11.1735
者正	-11.1737
不恃其	-11.1738
自處	-11.1739
以死	-11.174
行化	-11.174
一塊	-11.174
民心	-11.1743
同志	-11.1746
交會	-11.1746
虚中	-11.1748
從道	-11.1751
修德	-11.1752
温無毒主	-11.1753
無所不爲	-11.1755
止痛	-11.1766
䟽姓	-11.1768
周易	-11.1769
莫過於	-11.177
致虚	-11.177
避之	-11.177
頭上	-11.1771
無所不通	-11.1776
三子	-11.1776
一小	-11.1776
異於人	-11.1778
也易曰	-11.1779
難成	-11.178
庶物	-11.1783
紫河車	-11.1783
瞑	-11.1784
謨	-11.1785
王云	-11.1785
又況	-11.1786
滚	-11.1788
地中	-11.1789
葆	-11.1789
刋	-11.179
至道之	-11.179
臯	-11.1791
柿	-11.1791
琳	-11.1791
墨翟	-11.1792
慘	-11.1792
大白若辱	-11.1793
舛	-11.1794
以道莅天下	-11.1794
鬼疰	-11.1794
入灰池	-11.1794
躭	-11.1796
明白四達	-11.1796
傑	-11.1796
涵	-11.1796
絶聖棄智	-11.1796
稚	-11.1797
邃	-11.1798
程大昌曰	-11.1799
合自然	-11.18
用兵有言	-11.1801
沴	-11.1802
寄之	-11.1803
菑	-11.1803
不出户	-11.1803
袋盛	-11.1804
微温	-11.1805
隨意	-11.1805
齊物論	-11.1805
尊之	-11.1806
以爲有	-11.1807
先用	-11.1809
小異	-11.181
九宫	-11.1811
龜蛇	-11.1814
▁䟽	-11.1814
然猶	-11.1814
化育	-11.1815
之所在	-11.1817
以清	-11.1818
不失其所	-11.1819
其源	-11.1823
即須	-11.1829
圓明	-11.183
而應之	-11.183
默然	-11.183
有道則	-11.183
逐境	-11.183
度數	-11.1834
神凝	-11.1835
守母	-11.1837
所以貴	-11.1838
未爲	-11.1838
以成其	-11.1838
之心也	-11.1839
非其人	-11.184
其妻	-11.1842
充實	-11.1843
紫府	-11.1845
足下	-11.1846
物性	-11.1849
爲功	-11.1849
治國者	-11.1849
利人	-11.185
地氣	-11.185
遂其生	-11.1852
善下	-11.1855
不可爲也	-11.1856
靈光	-11.186
遊行	-11.1862
天仙	-11.1863
口縫	-11.1864
河水	-11.1865
有為	-11.1866
十二日	-11.1867
第一明	-11.1868
七祖	-11.1871
鉢	-11.1871
不傳	-11.1873
其細	-11.1874
經營	-11.1879
王天下	-11.188
因是	-11.188
定矣	-11.1882
莫得而	-11.1882
五聲	-11.1883
有光	-11.1883
以勸	-11.189
十五章	-11.1891
明堂	-11.1891
天地陰陽	-11.1892
金公	-11.1892
一度	-11.1893
心意	-11.1897
不拔	-11.1899
九幽	-11.1903
有病	-11.1904
池澤	-11.1907
無執	-11.1909
宇内	-11.1909
有無之	-11.1911
六寸	-11.1912
合於道	-11.1912
記曰	-11.1914
之南	-11.1917
功過	-11.1921
既成	-11.1923
下至	-11.1924
也經曰	-11.1929
盧曰夫	-11.193
其弊	-11.193
菊	-11.1931
一丈	-11.1932
尿	-11.1935
不好	-11.1935
復樸	-11.1936
穎	-11.1936
唐本先附	-11.1937
少私寡欲	-11.1939
當是時也	-11.1939
灸	-11.1939
感而後應	-11.1939
緋	-11.194
曩	-11.1941
十二章	-11.1942
不出於	-11.1943
飬	-11.1944
瘳	-11.1944
與天爲徒	-11.1944
凝結	-11.1945
祗	-11.1945
也范曰	-11.1945
簡文云	-11.1945
陸佃曰	-11.1945
鑠	-11.1946
所制	-11.1946
於君	-11.1946
蟄	-11.1946
猶龍	-11.1947
三丸	-11.1947
慚	-11.1947
鬳齋口義	-11.1948
瑟	-11.1948
釁	-11.1948
棟	-11.195
寬大	-11.1951
䟽前章明	-11.1952
亞	-11.1954
耳聽	-11.1954
心無所	-11.1955
神明之	-11.1955
於胸中	-11.1958
無力	-11.196
時時	-11.196
紫霄	-11.1961
聦明	-11.1961
六天	-11.1962
億劫	-11.1963
高上	-11.1964
爲友	-11.1964
昏亂	-11.1965
君子小人	-11.1966
此山	-11.1968
日足	-11.1971
存之	-11.1972
清靜無爲	-11.1973
柔和	-11.1974
以謙	-11.1975
濟度	-11.1975
臣妾	-11.1976
已具	-11.1978
鐺中	-11.1979
好靜	-11.1981
不止於	-11.1982
之别	-11.1982
殺身	-11.1982
罔兩	-11.1984
事君	-11.1985
守神	-11.1985
長養	-11.1986
無是非	-11.1987
有時	-11.1988
相近	-11.1989
相親	-11.1989
不善之人	-11.1991
京師	-11.1992
幽深	-11.1995
學仙	-11.1997
祖宗	-11.2
雲氣	-11.2001
損有餘	-11.2003
小成	-11.2005
莊公	-11.2005
家有	-11.2005
執滯	-11.2006
斯爲	-11.2008
聖人無心	-11.2009
民皆	-11.2009
屬火	-11.2011
並無	-11.2012
天下之交	-11.2017
賢良	-11.2018
自信	-11.2024
攪之	-11.2024
正正	-11.2026
一法	-11.2026
嘆曰	-11.2027
先聖	-11.2028
病人	-11.2029
亂之首	-11.2029
煎之	-11.2029
冷熱	-11.2029
者可謂	-11.203
吾師	-11.203
神將	-11.2031
入甘鍋	-11.2037
不出乎	-11.2038
不可復	-11.2039
入口	-11.2039
却將	-11.204
是我	-11.2042
列仙	-11.2045
爲首	-11.2046
王弼曰	-11.2047
之職	-11.2048
仙聖	-11.2056
察之	-11.206
大火	-11.2062
伯陽	-11.2063
无知	-11.2068
何事	-11.2068
貴而	-11.2069
七寸	-11.2072
虚者	-11.2074
䑕	-11.2075
不服	-11.2078
得遇	-11.208
乆視	-11.208
不許	-11.2083
絮	-11.2086
合丹	-11.2086
四夷	-11.2086
之大也	-11.209
懴	-11.2091
爲陰	-11.2091
吝	-11.2091
汾	-11.2091
蚊	-11.2091
為一	-11.2092
揩	-11.2093
世之所	-11.2093
味苦辛	-11.2094
紐	-11.2094
𡨚	-11.2095
不亦宜乎	-11.2096
非樂	-11.2096
喉痹	-11.2096
使夫知者不敢爲也	-11.2096
挽	-11.2097
而亡	-11.2097
欻	-11.2098
衛生之經	-11.2098
上德不德	-11.2098
此四者	-11.2099
二卷	-11.2099
襟	-11.2099
窗	-11.2099
去就	-11.21
陂	-11.21
處無爲之事	-11.21
笈	-11.2101
渇	-11.2101
愛欲	-11.2102
精進	-11.2102
中惡	-11.2103
辦	-11.2103
征伐	-11.2103
圭角	-11.2103
刑戮	-11.2105
以濟	-11.2106
夫何故哉	-11.2107
採之	-11.2108
三毒	-11.2108
物而物	-11.2112
而物自	-11.2113
地道	-11.2114
長跪	-11.2114
三品	-11.2116
綱紀	-11.2116
神鬼	-11.2117
教民	-11.212
三物	-11.2121
同其	-11.2122
遠而	-11.2123
逺矣	-11.2125
彼是	-11.2126
必能	-11.2128
其患	-11.2129
色赤	-11.2129
外臺秘要治	-11.213
又玄	-11.2132
何其	-11.2132
久久	-11.2135
八史	-11.2138
居下	-11.2143
雲將	-11.2146
微寒無毒主	-11.2147
不足者	-11.2148
絶句	-11.2148
汝之	-11.2149
山有	-11.2149
司殺者	-11.215
釜中	-11.215
委順	-11.2151
四季	-11.2153
奚以	-11.2153
虚勞	-11.2155
其巧	-11.2156
天下之大	-11.2158
過也	-11.2159
爲民	-11.2162
祇	-11.2167
無心故	-11.2168
長保	-11.2169
觀其妙	-11.217
可言	-11.2174
玉帝	-11.2178
長生之道	-11.218
則彼	-11.2181
執政	-11.2181
衆眞	-11.2182
餘事	-11.2182
焉得	-11.2184
見小	-11.2185
言哉	-11.2186
當於	-11.2189
受道	-11.2189
求勝	-11.2191
不可以言	-11.2191
以謂	-11.2191
也故聖人	-11.2193
天地造化	-11.2196
却入	-11.2198
爲教	-11.2202
開悟	-11.2203
開花	-11.2203
人莫不	-11.2205
面目	-11.2205
夫妻	-11.2207
有涯	-11.2209
地户	-11.2216
天有	-11.2218
係於	-11.2218
波流	-11.222
長於	-11.2224
相非	-11.2231
吾子	-11.2234
顏	-11.2235
斗中	-11.2236
流於	-11.2238
人呼爲	-11.2239
巧利	-11.224
不足爲	-11.2242
沖虚經曰	-11.2242
辱也	-11.2242
公子牟	-11.2243
觴	-11.2243
鏤	-11.2244
道經云	-11.2244
脹滿	-11.2244
猪脂	-11.2246
南榮趎	-11.2247
誌	-11.2249
孺	-11.2249
纓	-11.2249
嬰孩	-11.225
少則得	-11.225
駒	-11.225
政善治	-11.225
若存若亡	-11.225
勇於敢	-11.2251
猴	-11.2252
丁酉	-11.2252
咨	-11.2253
降於	-11.2253
不自見故明	-11.2255
無咎	-11.2258
藏室	-11.2258
隱几	-11.2259
無病	-11.226
殞	-11.226
爲之使惡	-11.2262
只在	-11.2262
虚己	-11.2263
聖人知	-11.2263
由是觀之	-11.2265
開闢	-11.2266
不可窮	-11.2267
即所謂	-11.2267
寓於	-11.227
稱其	-11.2276
眞元	-11.2277
祭酒	-11.2285
歸于	-11.2285
史記云	-11.2285
王君	-11.2286
太祖	-11.2288
泯然	-11.2288
其類	-11.2289
之物也	-11.229
此丹	-11.2291
涉於	-11.2293
經教	-11.2294
古方	-11.2294
之常也	-11.2295
以治天下	-11.2295
水浸	-11.2295
早已	-11.2297
三次	-11.2299
五合	-11.2303
慎之	-11.2304
抱朴子	-11.2308
聖人之所以	-11.2309
木也	-11.231
相望	-11.2311
不執	-11.2311
老者	-11.2311
深淺	-11.2314
爾義曰	-11.2314
濕地	-11.2315
道可道	-11.2315
文侯	-11.2317
見一	-11.2318
受生	-11.2318
紫陽	-11.2319
之訣	-11.2321
遂至	-11.2323
可傳	-11.2324
氣象	-11.2325
關尹子	-11.233
方平	-11.233
也於是	-11.2332
心存	-11.2334
相資	-11.2334
不自生	-11.2335
召之	-11.2335
感通	-11.2337
飛行	-11.2338
百神	-11.2338
大滌	-11.2339
大事	-11.234
書爲	-11.2341
斯言	-11.2346
此一段	-11.2347
啓聖	-11.2352
常守	-11.2355
天下有	-11.2356
之年	-11.2358
不飢	-11.2358
外篇	-11.2362
爲汝	-11.2364
順則	-11.2367
性冷	-11.2368
善否	-11.2369
者神之	-11.237
滅亡	-11.2374
財物	-11.2375
見素	-11.2376
藥成	-11.2377
以表	-11.2384
教門	-11.2384
開其	-11.2385
利欲	-11.239
知覺	-11.239
知命	-11.2391
温服	-11.2393
豆蔻	-11.2394
驂	-11.2395
自以為	-11.2396
而歸之	-11.2396
駿	-11.2397
膿血	-11.2397
癥瘕	-11.2398
忌諱	-11.2398
虹	-11.2399
𧏾	-11.24
囑	-11.2401
人處	-11.2402
岩	-11.2402
杓	-11.2403
遮	-11.2403
代赭	-11.2403
糟	-11.2403
諒	-11.2403
賾	-11.2404
用之不勤	-11.2404
我無爲而民自化	-11.2404
叶	-11.2405
二眞	-11.2405
筌蹄	-11.2405
謾	-11.2406
吾之所	-11.2406
憶	-11.2407
凑	-11.2407
其口	-11.2407
畛	-11.2408
慙	-11.2409
閱	-11.241
題曰	-11.2411
旦暮	-11.2413
東西南北	-11.2413
鍛	-11.2414
處乎	-11.2415
云是	-11.2419
二十一日	-11.2419
默默	-11.2423
鬼魅	-11.2424
未甞	-11.2424
首標	-11.2425
其樂	-11.2426
甲辰	-11.2429
治風	-11.2432
此所以爲	-11.2435
宜僚	-11.2436
七八	-11.2437
空洞	-11.2438
衆甫	-11.2439
億萬人	-11.2439
貴愛	-11.2441
入藥用	-11.2441
至聖	-11.2442
之兆	-11.2442
二十七日	-11.2443
不在於	-11.2446
入腹	-11.2446
吉祥	-11.2457
擊之	-11.2466
一指	-11.2466
水煮	-11.2469
洞徹	-11.247
也又云	-11.247
身死	-11.2472
患難	-11.2478
石鹽	-11.248
之衆	-11.2481
微微	-11.2484
用兵者	-11.2485
並行	-11.2486
刑者	-11.2487
假借	-11.2488
山嶽	-11.2489
困於	-11.2491
眞文	-11.2491
不能傷	-11.2492
不得其死	-11.2502
天中	-11.2503
辜	-11.2512
五符	-11.2514
爲小	-11.2518
專氣	-11.2519
五分	-11.252
卷中	-11.2521
刀圭	-11.2525
無不容	-11.2525
光大	-11.2527
寒温	-11.2528
十六日	-11.2531
歸一	-11.2531
赤帝	-11.2532
線	-11.2532
不調	-11.2533
異哉	-11.2534
於物者	-11.2534
改元	-11.2535
乳汁	-11.2535
爲哉	-11.2537
其難	-11.2538
念道	-11.2538
經文	-11.2543
睦	-11.2544
捍	-11.2544
也按	-11.2548
順時	-11.2549
君父	-11.2551
厠	-11.2551
生畜	-11.2552
眞靈	-11.2554
原其	-11.2555
知者不言言者不知	-11.2555
嘔	-11.2555
需	-11.2556
九地	-11.2557
牝牡	-11.2558
登眞	-11.2558
蹷	-11.2559
與善仁	-11.256
乆之	-11.256
鋸	-11.256
伴	-11.256
似有	-11.2561
其所由	-11.2561
老子云	-11.2561
穰	-11.2561
蘧	-11.2561
昇仙	-11.2562
楷式	-11.2563
敦能	-11.2563
芍藥	-11.2563
菽	-11.2565
自古及今其名不去	-11.2566
勳	-11.2567
不可多食	-11.2567
俊	-11.2568
蠹	-11.2568
綴	-11.2568
馴	-11.2568
之巧	-11.2568
六合之外	-11.2569
頒	-11.257
眞僞	-11.257
安其性命之情	-11.257
鴻蒙	-11.257
相承	-11.2572
衆聖	-11.2573
而坐	-11.2575
近也	-11.2577
入匱	-11.2578
熒惑	-11.2579
觀妙	-11.258
水上	-11.2583
天竺	-11.2583
獨行	-11.2584
下品	-11.2588
忘生	-11.2589
天符	-11.259
豈唯	-11.2591
神功	-11.2594
所爭	-11.2594
工夫	-11.2595
之冠	-11.2597
非自然	-11.2605
道之華	-11.2606
仁義禮樂	-11.2607
同於失	-11.2608
茅山	-11.2608
也此言	-11.2611
肩吾	-11.2613
朝拜	-11.2613
與物化	-11.2614
萬形	-11.2616
設問	-11.2616
紫粉	-11.2619
事理	-11.2628
午時	-11.263
冬月	-11.263
無所得	-11.2631
延壽	-11.2632
威靈	-11.2635
希聲	-11.2636
以供	-11.2637
仙觀	-11.264
漠然	-11.2642
二十八日	-11.2644
圓通	-11.2645
節候	-11.2647
九章	-11.2647
莊生	-11.2649
可點	-11.2649
自歸之	-11.265
而爲一	-11.2652
移是	-11.2655
取强	-11.2656
漢書	-11.2656
博學	-11.2658
不衰	-11.2661
祭之	-11.2662
德合	-11.2668
使然	-11.267
至靈	-11.2674
每一	-11.2674
則見	-11.2674
經法	-11.2675
眞形	-11.2675
始得	-11.2677
口乾	-11.2678
廣州	-11.2678
密用	-11.268
於人而	-11.2681
凡俗	-11.2681
者未之有也	-11.2688
儼	-11.2688
於魯	-11.2689
眞常之道	-11.269
令匀	-11.2691
權道	-11.2693
而異	-11.2694
而遺	-11.2696
無所見	-11.2697
使然也	-11.2698
消食	-11.2698
其砂	-11.2698
將前	-11.2699
玄宗	-11.2704
十惡	-11.2705
大道也	-11.2706
十四章	-11.2708
論道	-11.2712
牛膝	-11.2715
和同	-11.2716
糯米	-11.2717
非吾所謂	-11.2717
猛火	-11.2718
縷	-11.2719
櫟	-11.2719
抱守	-11.272
氷	-11.272
而與之	-11.2721
有物混成	-11.2721
芬	-11.2722
助之	-11.2722
可名於大	-11.2722
泪	-11.2723
髭	-11.2723
曲成	-11.2723
大成若缺	-11.2723
粮	-11.2724
讒	-11.2724
知其榮守其辱	-11.2724
檜	-11.2725
吃	-11.2725
霍	-11.2725
葺	-11.2725
邯鄲	-11.2725
唯能	-11.2726
慨	-11.2726
蔚	-11.2726
執左契	-11.2728
南華眞經口義卷之	-11.2728
是以聖人終不爲大故能成其大	-11.2729
如有	-11.2729
囂	-11.2729
機械	-11.2729
宛轉	-11.273
街	-11.273
彼其	-11.2731
又問	-11.2732
其可得乎	-11.2733
京兆	-11.2733
東流水	-11.2733
不相往來	-11.2734
有生於無	-11.2734
惶	-11.2734
極於	-11.2734
制度	-11.2735
大慈	-11.2736
諛	-11.2737
鼻納	-11.2738
楊墨	-11.2739
詐僞	-11.2739
行持	-11.2741
時爲	-11.2743
戰國	-11.2747
郭象曰	-11.2748
抱道	-11.275
道沖	-11.2751
當先	-11.2752
同類	-11.2752
而適	-11.2752
四字	-11.2752
又取	-11.2754
包容	-11.2754
護持	-11.2755
閉口	-11.2758
古之聖人	-11.2758
楚之	-11.2761
關中	-11.2761
可解	-11.2761
矜伐	-11.2766
縱欲	-11.2767
三味	-11.2771
而輕	-11.2773
祕訣	-11.2775
六親	-11.2776
不乖	-11.2776
无極	-11.2777
親愛	-11.2781
教令	-11.2781
使之然	-11.2781
五彩	-11.2781
音義	-11.2781
不滿	-11.2782
治天下者	-11.2783
而視之	-11.2783
道炁	-11.2783
一性	-11.2783
之木	-11.2785
任性	-11.2785
本經云	-11.2786
三轉	-11.2789
臍下	-11.2789
司殺	-11.279
山水	-11.2792
二十一	-11.2792
輕躁	-11.2795
飛走	-11.2797
大頂	-11.2798
傾入	-11.28
數千	-11.28
不滯於	-11.2802
事天	-11.2803
具足	-11.2804
亦未	-11.2807
之要也	-11.2811
而多	-11.2812
藥石	-11.2817
萬物歸之	-11.2821
大海	-11.2826
以避	-11.2827
善建	-11.2831
則必有	-11.2831
貴身	-11.2834
嗄	-11.2834
紫氣	-11.2837
强弱	-11.2838
柱下	-11.2841
奈	-11.2843
異端	-11.2849
人將	-11.285
三斗	-11.2851
本自	-11.2852
不越	-11.2857
不施	-11.286
上請	-11.286
地皇	-11.2863
達生	-11.2868
上面	-11.2869
怒而	-11.2871
陶隱居	-11.2872
四神	-11.2873
笋	-11.2874
不尚賢使民不爭	-11.2874
交接	-11.2875
研之	-11.2875
藕	-11.2875
知其然	-11.2876
凡事	-11.2877
十四年	-11.2882
明乎	-11.2883
捺	-11.2883
閉其門	-11.2884
死而不亡者壽	-11.2886
懈	-11.2887
巷	-11.2887
蔕	-11.2887
丁丑	-11.2887
炫	-11.2888
通玄經曰古者	-11.2888
明照	-11.2888
淵兮似萬物之宗	-11.2889
挼	-11.2889
惕	-11.2889
復歸於嬰兒	-11.2891
爲者敗之執者失之	-11.2891
鯤	-11.2892
啇	-11.2892
聖人不仁以百姓爲芻狗	-11.2892
應聲	-11.2893
成其私	-11.2893
一般	-11.2894
姑射	-11.2895
王道	-11.2895
名與身孰親	-11.2896
草藥	-11.2896
不能相	-11.2898
何患	-11.29
固不可	-11.29
者邪	-11.2904
垂訓	-11.2904
莫能與之爭	-11.2905
爐中	-11.2907
包含	-11.2908
明皇	-11.291
長生乆視之道	-11.291
乎其中	-11.2912
設醮	-11.2913
百五十	-11.2914
極細	-11.2915
甚愛	-11.2915
天關	-11.2916
不可長保	-11.2916
清静	-11.2916
必待	-11.2917
天道之	-11.2919
孝子	-11.2921
魯之	-11.2923
纂云	-11.2923
弗知	-11.2924
善不善	-11.2927
上應	-11.2929
食後	-11.293
天地之根	-11.2932
知之者	-11.2932
取諸	-11.2936
清源	-11.294
守分	-11.2943
今乃	-11.2945
犯之	-11.2949
浮雲	-11.295
二七	-11.2952
其罪	-11.2952
丁未	-11.2954
元辰	-11.2955
服方寸七	-11.2955
不倦	-11.2957
造物者	-11.296
而不自知	-11.2961
刻意	-11.2966
李音	-11.2967
書無名	-11.2967
不爲而成	-11.297
所見者	-11.2971
十八章	-11.2973
諸石	-11.2975
⬤⬤	-11.2976
然後有	-11.2976
河南	-11.298
氣力	-11.298
萬歲	-11.2981
鹽花	-11.2983
東華	-11.299
上義	-11.2991
善信	-11.2993
舉事	-11.2999
奪之	-11.3001
常名	-11.3003
爲天子	-11.3006
故能成其	-11.3006
一遍	-11.3009
有命	-11.301
下句	-11.3015
不專	-11.3015
不辱	-11.3026
求仙	-11.3028
九龍	-11.303
辯之	-11.3033
反復	-11.3034
也孔子	-11.3036
欲惡	-11.3039
以柔	-11.304
第十二	-11.3041
或問	-11.3041
怳	-11.3045
之談	-11.3046
發生	-11.3046
藿	-11.3046
會稽	-11.3047
彘	-11.3048
琢	-11.3049
碾	-11.3049
酪	-11.305
茨	-11.305
畧	-11.3051
隧	-11.3052
元精	-11.3053
始制有名	-11.3054
參同契	-11.3054
雕琢	-11.3054
弢	-11.3055
是以聖人猶難之	-11.3055
鰌	-11.3055
南山	-11.3055
是謂不爭之德	-11.3056
覃	-11.3056
緇	-11.3057
婚	-11.3057
莅	-11.3058
氤氲	-11.3058
退藏於密	-11.3058
工倕	-11.3059
轄	-11.3059
然後知	-11.3059
宦	-11.306
自古及今	-11.306
栀子	-11.3061
雞犬	-11.3061
憂樂	-11.3061
瀛	-11.3061
明白四達能無知乎	-11.3061
無際	-11.3062
下土	-11.3062
瞿	-11.3062
永無	-11.3062
是謂玄同	-11.3062
陜西	-11.3064
之道則	-11.3065
袖	-11.3065
鍾乳	-11.3066
以靜爲下	-11.3068
不死不生	-11.3069
陰德	-11.307
伏汞	-11.3073
莫知其極	-11.3074
當世	-11.3076
嚴君平曰	-11.3077
漉出	-11.3077
能受	-11.3077
均於	-11.3078
上界	-11.3081
一焉	-11.3082
如初	-11.3083
海上	-11.3083
夫子曰	-11.3084
道之本	-11.3084
日鬼名	-11.3085
歸乎	-11.3085
切成云	-11.3088
玄牝之門是謂天地根	-11.3089
此文	-11.3092
膽礬	-11.3096
發狂	-11.31
成銀	-11.31
曾無	-11.3101
況於	-11.3101
將死	-11.3104
以無爲爲	-11.3105
容易	-11.3105
相接	-11.3106
熟火	-11.311
救世	-11.311
合藥	-11.311
數數	-11.3111
反李	-11.3111
不死之道	-11.3111
人之所惡	-11.3114
以兩手	-11.3115
方得	-11.3115
前藥	-11.3116
遞相	-11.3117
物或	-11.3118
肘後方治	-11.3119
舊說	-11.3125
飛鳥	-11.3126
宰制	-11.3127
無心者	-11.3128
之甚也	-11.313
壬子	-11.3132
虚明	-11.3133
其處	-11.3135
道之要	-11.3136
鍊形	-11.3136
研令	-11.314
三七	-11.3142
烏能	-11.3142
萬姓	-11.3142
有窮	-11.3149
無危殆	-11.3151
新成	-11.3152
何憂	-11.3152
符籙	-11.3153
而安之	-11.3155
自恃	-11.3155
十六章	-11.3158
與物同	-11.3166
用事	-11.3166
乃命	-11.3168
交通	-11.3169
器用	-11.3169
聖人之所	-11.3171
所資	-11.3172
諸己	-11.3172
豈直	-11.3177
後入	-11.3182
而化之	-11.3186
春生	-11.3188
上聲	-11.3188
第十一	-11.319
太古之	-11.3195
一味	-11.3196
喜曰	-11.3197
萬端	-11.3197
冲曰	-11.3197
道陵	-11.3198
衍義	-11.3198
者氣之	-11.3202
無親	-11.3207
離乎	-11.3208
玄者	-11.3209
戶	-11.3211
四卷	-11.3211
殉名	-11.3212
斜	-11.3215
琥珀	-11.3215
插	-11.3216
慈仁	-11.3217
番	-11.3218
皺	-11.3219
熨	-11.3221
燔	-11.3221
梯	-11.3221
腑	-11.3221
七月七日	-11.3223
憾	-11.3223
榦	-11.3223
彷徨	-11.3223
淄	-11.3223
如石	-11.3223
其才	-11.3224
微妙玄通	-11.3224
雖有甲兵無所陳之	-11.3225
逞	-11.3226
應而不藏	-11.3226
偈	-11.3226
哺	-11.3226
圓光	-11.3226
迺	-11.3226
抽添	-11.3226
撥	-11.3227
不責	-11.3228
涌	-11.3228
佗	-11.323
岑	-11.323
拱璧	-11.323
子母秘録	-11.3231
各正性命	-11.3234
擾擾	-11.3234
宗本	-11.3235
皆歸	-11.3236
玄水	-11.3236
味無味	-11.3237
此類	-11.3237
六一泥	-11.3241
至老	-11.3243
厚三分	-11.3246
山海經	-11.3248
潔白	-11.3252
申徒	-11.3252
之類是也	-11.3254
先生曰	-11.3255
制禮	-11.3256
瘡疥	-11.3258
亂矣	-11.3264
常居	-11.3264
議論	-11.3265
仙家	-11.3267
斯須	-11.327
發泄	-11.3273
物之性	-11.3273
道生之	-11.3276
自我	-11.3276
斯道	-11.3278
存則	-11.3279
尹氏	-11.328
七分	-11.3281
之苦	-11.3282
必當	-11.3282
埏埴	-11.3283
並是	-11.3283
一夜	-11.3284
必欲	-11.3285
交合	-11.3286
收之	-11.329
天之道也	-11.3291
神祇	-11.3294
過當	-11.3295
不答	-11.3306
聖人雖	-11.3307
王屋	-11.3308
三塗	-11.3313
讓王	-11.3314
智詐	-11.3316
莫不由	-11.3318
古道	-11.3323
多聞	-11.3329
中品	-11.333
德衰	-11.3331
善救	-11.3331
品物	-11.3336
其鬼	-11.3338
如愚	-11.3338
恐人	-11.3341
之鬼次收	-11.3345
無樂	-11.3346
兆民	-11.3346
無爲而治	-11.3349
喪禮	-11.3349
賢士	-11.3351
八百	-11.3353
動其心	-11.3355
建德	-11.3355
窮盡	-11.3356
化民	-11.3363
六欲	-11.3367
萬物莫不	-11.3369
若昏	-11.3373
者也故曰	-11.3374
三十五	-11.3374
楮	-11.3377
當願一切	-11.3379
羔	-11.3384
斤兩	-11.3384
若遇	-11.3384
分形	-11.3384
從何	-11.3385
止血	-11.3386
一無所	-11.3386
紙上	-11.3386
亦由	-11.3387
搖	-11.3387
此句	-11.339
爲天下谿	-11.339
茵	-11.339
以德爲	-11.3391
恢恢	-11.3392
恰	-11.3392
鷙	-11.3392
驥	-11.3392
玄理	-11.3392
戢	-11.3393
復命曰常	-11.3393
謳	-11.3393
實録	-11.3394
廷	-11.3394
塡	-11.3395
二生三	-11.3395
治大國若烹小鮮	-11.3396
得其道	-11.3397
攬	-11.3397
聾盲	-11.3398
質眞若渝	-11.3398
躋	-11.3398
吊	-11.3398
伯夷叔齊	-11.3398
覲	-11.3399
醴泉	-11.3399
飈	-11.34
噴	-11.34
二十八宿	-11.34
被褐	-11.34
畜養	-11.34
罄	-11.3402
忝	-11.3403
螺	-11.3403
翰林	-11.3404
目中	-11.3405
櫛	-11.3406
成黄金	-11.3407
渭	-11.3408
蒼蒼	-11.3408
竇	-11.3408
痊	-11.3409
一夕	-11.3409
輔佐	-11.341
羣品	-11.341
紏	-11.341
五月採	-11.3412
是以輕死	-11.3412
青羊	-11.3413
莫爲	-11.3414
一說	-11.3419
之所及	-11.342
不可識	-11.3422
今出	-11.3422
物類	-11.3424
上等	-11.3426
常處	-11.3426
虛無	-11.3426
南極	-11.3427
成膏	-11.3427
百脉	-11.3427
不識不知	-11.3431
陶隱居云此	-11.3433
玄經	-11.3434
北辰	-11.3434
可乆	-11.3435
胡粉	-11.3436
委曲	-11.3436
趣舍	-11.3437
去欲	-11.344
結以	-11.3443
除邪	-11.3444
而不絶	-11.3444
學道之人	-11.3445
害生	-11.3446
待物	-11.3447
賢不肖	-11.3449
走馬	-11.345
和順	-11.345
物物皆	-11.3451
温主	-11.3451
滿足	-11.3452
各隨	-11.3454
繫辭	-11.3455
大澤	-11.3456
喉中	-11.346
淺深	-11.346
掌教	-11.346
醋調	-11.3469
六句	-11.347
離朱	-11.3473
雲霧	-11.3473
邪魔	-11.3474
楊朱曰	-11.3477
李氏	-11.3478
之室	-11.3482
莊子之言	-11.3483
臣下	-11.3488
自覺	-11.3489
柔順	-11.3495
幾乎	-11.3495
三生萬物	-11.3496
無數	-11.3496
宗皇帝	-11.3498
最靈	-11.3507
肘後方	-11.3508
銘曰	-11.3509
八十一章	-11.3511
被髮	-11.3513
含光	-11.3514
之詞也	-11.3516
奉道	-11.3517
起居	-11.3519
次下	-11.3523
即差	-11.3524
煎湯	-11.3525
上達	-11.3526
三名	-11.3529
義同	-11.3529
得之則	-11.353
人見其	-11.353
過度	-11.3531
燧	-11.3531
不積	-11.3531
將迎	-11.3531
陳迹	-11.3533
加至	-11.3533
兵士	-11.3533
灌之	-11.3541
窅	-11.3542
箔	-11.3542
隻	-11.3544
竟無	-11.3545
風雷	-11.3546
即愈	-11.3547
正言	-11.355
大木	-11.3552
聦	-11.3554
捲	-11.3561
岡	-11.3563
冨	-11.3563
尻	-11.3563
萃	-11.3563
械	-11.3564
服丹	-11.3564
分兩	-11.3564
一鄉	-11.3564
不是	-11.3566
其日	-11.3567
周禮	-11.3568
十六年	-11.3569
塵境	-11.3569
壹	-11.3569
千里之行始於足下	-11.357
忘心	-11.357
蚿	-11.3571
獨異	-11.3571
之益	-11.3571
坯	-11.3572
第八十	-11.3573
以道佐人主	-11.3573
桔梗	-11.3573
瘍	-11.3574
窮理盡性	-11.3574
失者同於失	-11.3575
葢	-11.3575
催	-11.3575
聴	-11.3575
蛾	-11.3575
達眞子曰	-11.3576
多則惑	-11.3577
仁義禮智	-11.3577
氛	-11.3578
有無相生	-11.3579
以我之	-11.3579
函谷關	-11.3579
覬	-11.358
袤	-11.358
是以不病	-11.3582
施惠	-11.3583
之有哉	-11.3585
一理	-11.3585
侍郞	-11.3586
天地之氣	-11.3586
曰月	-11.3586
營營	-11.3588
進道	-11.3592
形數	-11.3592
半升	-11.3593
咽氣	-11.3595
仙去	-11.3596
石一名	-11.3599
諸解	-11.3599
巨細	-11.3599
誠信	-11.3601
羊肉	-11.3601
也此章	-11.3603
亦須	-11.3603
一篇	-11.3603
上下相	-11.3605
必固	-11.3607
我與若	-11.3607
求福	-11.3608
醫家	-11.3608
布施	-11.3608
觀其徼	-11.361
芒硝	-11.3617
作羹	-11.3619
善閉	-11.3621
開看	-11.3621
形雖	-11.3621
嘗試	-11.3622
交泰	-11.3624
紅色	-11.3626
下部	-11.363
羽化	-11.363
德經	-11.3631
之心故	-11.3631
太守	-11.3632
其致之	-11.3637
眞源	-11.3642
於其間哉	-11.3643
又按	-11.3645
丈餘	-11.3647
以導	-11.3647
戒者	-11.3648
也若乃	-11.3652
苟能	-11.3652
者天也	-11.3652
根源	-11.3656
意同	-11.3657
冷取出	-11.366
制御	-11.3666
日精	-11.3668
眞聖	-11.3672
身先	-11.3674
者多矣	-11.3674
民之迷	-11.3675
義理	-11.3677
叢生	-11.3677
無往不	-11.3678
五兵	-11.3681
集解	-11.3685
凶器	-11.3685
天子之	-11.3689
萬境	-11.369
湯下	-11.3698
流光	-11.3703
諸國	-11.3703
即位	-11.3703
清齋	-11.3704
語之	-11.3709
大衆	-11.3711
夢見	-11.3711
以醋	-11.3714
問焉	-11.3716
務光	-11.3718
經歷	-11.3721
人之所以	-11.3721
元君曰	-11.3723
九五	-11.3724
青色	-11.3726
自無而	-11.3728
聲音	-11.3728
未忘	-11.3732
器物	-11.3735
而仁	-11.3736
離形	-11.3737
再三	-11.3738
場	-11.3739
枸杞	-11.3741
安期	-11.3742
郭象注	-11.3742
不可致詰	-11.3743
藜	-11.3743
不足則	-11.3744
不謀	-11.3745
枉則直	-11.3745
淚	-11.3746
極妙	-11.3746
不知所以然而然	-11.3746
大匠	-11.3746
若谷	-11.3748
鄒	-11.3748
大道廢有仁義	-11.3749
功成名遂	-11.3749
玄功	-11.3749
食醫心鏡	-11.375
溥	-11.375
不以智治國國之福	-11.3751
糾	-11.3751
劓	-11.3751
昬	-11.3751
慊	-11.3752
根似	-11.3752
狩	-11.3752
法令滋彰盜賊多有	-11.3753
成熟	-11.3753
惰	-11.3753
輅	-11.3754
爲學日益	-11.3754
樂天知命	-11.3755
撲	-11.3755
淩	-11.3755
由乎	-11.3755
愼勿	-11.3756
長生久視	-11.3756
七遍	-11.3757
澡	-11.3757
閬	-11.3757
禺	-11.3757
西昇經云	-11.3758
駢枝	-11.3761
方寸匕	-11.3761
亦宜	-11.3763
見獨	-11.3763
有德者	-11.3764
倒置	-11.3766
一切衆生	-11.3767
㧞	-11.3767
老君降于	-11.3768
好憎	-11.3772
雨露	-11.3774
有其身	-11.3778
無爲之益	-11.3779
勞神	-11.378
經緯	-11.378
青白	-11.3781
一兩半	-11.3781
殺蟲	-11.3782
賢臣	-11.3782
青天	-11.3784
山下	-11.3785
遺其	-11.3785
酒中	-11.3787
大化	-11.3788
愛利之	-11.3794
是以聖人之治	-11.3799
外内	-11.3801
入汞	-11.3801
迎之	-11.3803
順化	-11.3806
刑法	-11.3807
屬陽	-11.3812
去取	-11.3813
亦无	-11.3814
二十二	-11.3815
去彼取此	-11.3816
道路	-11.3819
切李云	-11.382
三章	-11.3821
五千文	-11.3822
澄心	-11.3823
一口	-11.3829
之所由生	-11.3831
樸素	-11.3835
第十三	-11.3835
其動也	-11.3835
少君	-11.3837
非理	-11.3837
傷身	-11.3838
研匀	-11.384
楚人	-11.3843
金星	-11.3844
總結	-11.3847
俱化	-11.3849
而不變	-11.3851
古人之	-11.3852
不畏死	-11.3853
承天	-11.3854
精精	-11.3854
一段	-11.3857
心術	-11.386
修習	-11.3861
消除	-11.3862
欣然	-11.3863
物之情	-11.3864
一而不變	-11.3866
有是非	-11.3871
憂苦	-11.3872
第二十	-11.3873
之法也	-11.3873
衆皆	-11.3874
不私	-11.3878
戒勿	-11.3878
達道	-11.3879
曰朕	-11.3879
鉛精	-11.3887
如之何	-11.3889
既生	-11.3889
與形	-11.3895
光澤	-11.3897
宜食	-11.3897
未曾	-11.3901
一次	-11.3903
六塵	-11.3903
響應	-11.3906
取捨	-11.391
芫花	-11.3916
此喻	-11.3918
知足者	-11.3919
曰昔	-11.3922
茱萸	-11.3922
下丹田	-11.3923
青童	-11.3924
侯王若能守	-11.3925
信實	-11.3926
大喜	-11.3926
賢於貴生	-11.3927
直而不肆	-11.3928
畦	-11.3928
是道也	-11.3929
絞取汁	-11.393
天將救之以慈衛之	-11.3931
舒王曰	-11.3931
祿	-11.3931
嘔逆	-11.3932
潮	-11.3932
叨	-11.3932
崆峒	-11.3932
篋	-11.3932
猨	-11.3933
蚤	-11.3933
戕	-11.3933
沮	-11.3933
亶	-11.3933
距縣	-11.3933
易知	-11.3933
碌	-11.3933
大業	-11.3934
不言而善應	-11.3934
姤	-11.3934
諜	-11.3935
槌	-11.3936
竪	-11.3936
纍	-11.3937
三軍	-11.3937
五尺	-11.3937
閡	-11.3937
綏	-11.3938
无所不	-11.3939
不窺牖見天道	-11.3939
饋	-11.3939
终	-11.3939
濤	-11.394
券	-11.394
虜	-11.394
天下樂推而不厭	-11.394
燼	-11.394
安民	-11.3942
隘	-11.3944
繪	-11.3944
柯	-11.3946
終其天年	-11.3948
造作	-11.3949
牡丹	-11.395
肺氣	-11.3951
登天	-11.3952
二十三	-11.3955
五痔	-11.3956
乙未	-11.3957
明德	-11.3958
惟恐	-11.3961
幾於道	-11.3962
之君也	-11.3962
無不應	-11.3963
五雲	-11.3963
益筭	-11.3963
屬水	-11.3965
恣其	-11.3965
絞汁	-11.3965
者有之	-11.3967
天地之德	-11.3972
開口	-11.3975
玉帛	-11.3976
口舌	-11.3976
指揮	-11.3976
與之爭	-11.3979
不斷	-11.3983
大道君	-11.3985
八荒	-11.3985
作末	-11.3989
去智	-11.3991
固已	-11.3994
百步	-11.3996
少壯	-11.3998
非譽	-11.3998
虚玄	-11.4
六律	-11.4
武都	-11.4001
苦縣	-11.4001
丹石	-11.4001
而成形	-11.4004
絳宫	-11.4005
則天下無	-11.4006
者爲上	-11.4006
龍漢	-11.4007
列於	-11.4012
果何	-11.4013
宫商	-11.4015
度關	-11.4016
首尾	-11.4017
照臨	-11.4018
西戎	-11.4018
各得其所	-11.4019
某甲	-11.402
陶云	-11.4021
而天下治	-11.4022
念念	-11.4022
以正治國	-11.4023
不曉	-11.4024
救物	-11.4027
八寸	-11.4028
經驗方治	-11.403
起火	-11.4033
尤甚	-11.4033
難窮	-11.4039
行於世	-11.4039
桂心	-11.4039
定名	-11.4042
同出於	-11.4042
誠心	-11.4042
智慮	-11.4043
河曰言	-11.4048
土石	-11.4048
也夫唯	-11.4055
百靈	-11.4055
如雞子	-11.4058
齊人	-11.4062
絶棄	-11.4067
無不通	-11.4067
爲天下之	-11.407
所以不能	-11.4072
温中	-11.4077
洞府	-11.4078
淵深	-11.4078
語道	-11.4079
龍蛇	-11.4081
玄風	-11.4082
而已故曰	-11.4083
若屈	-11.4084
虚无	-11.4089
太上曰	-11.409
保之	-11.4094
高遠	-11.4101
十四日	-11.4103
根深	-11.4104
非其所	-11.4104
擎	-11.4105
㳺	-11.4106
瘰癧	-11.411
奔馳	-11.4111
以授	-11.4111
猷	-11.4112
窪則盈	-11.4113
娥	-11.4113
緘	-11.4114
二月八月採	-11.4114
埴	-11.4114
楮汁	-11.4114
倏	-11.4114
蹙	-11.4115
道常無爲而無不爲	-11.4115
第十六	-11.4115
璽	-11.4115
自古以固存	-11.4115
孰能與於此	-11.4116
擔	-11.4116
進道若退	-11.4116
獨存	-11.4117
字林云	-11.4117
蚩尤	-11.4117
噓	-11.4118
汪	-11.4118
繹	-11.4118
心若死灰	-11.4118
商丘開	-11.4119
爲匱	-11.4119
葛洪	-11.4119
閔	-11.412
燦	-11.412
苴	-11.412
專氣致柔	-11.412
闘	-11.412
煦	-11.4122
謡	-11.4122
馨	-11.4122
顔闔	-11.4122
豈若	-11.4123
悔吝	-11.4123
羈	-11.4123
形而上者	-11.4123
樂其俗	-11.4124
其安易持	-11.4124
大隗	-11.4124
娶	-11.4124
罏	-11.4125
物壯則老是謂不道不道早已	-11.4126
故能長乆	-11.4127
兩頭	-11.4127
綬	-11.4128
土苴	-11.4128
終不能	-11.4128
爲學者	-11.4128
懿	-11.4128
與化俱	-11.4128
悲哀	-11.4129
蕉	-11.413
蜜丸	-11.4131
太牢	-11.4132
蝸	-11.4132
收取	-11.4133
遨遊	-11.4134
眞理	-11.4134
不耀	-11.4134
所以言	-11.4134
左手執	-11.4134
殺戮	-11.4136
雷電	-11.4136
左傳	-11.4137
玄眞	-11.4139
學不學	-11.4141
未發	-11.4141
有大毒	-11.4142
天之所惡	-11.4143
屬陰	-11.4145
惟能	-11.4148
應之以	-11.4149
五榖	-11.4149
蜜和	-11.4152
道之眞	-11.4154
各足	-11.4156
靈驗	-11.4157
爭競	-11.416
聲聲	-11.4164
重重	-11.4164
荘子	-11.4165
灰中	-11.4167
不孝	-11.4169
諸神	-11.4169
泰氏	-11.4173
眞宗	-11.4176
未散	-11.4178
澄清	-11.4178
昇降	-11.4181
經訣	-11.4182
破血	-11.4185
深山	-11.4185
於其中	-11.4186
何言哉	-11.4187
來往	-11.4188
門弟子	-11.4188
易繫	-11.4191
有意於	-11.4194
夏月	-11.4195
不可使	-11.4196
天倪	-11.4196
盆中	-11.4198
因以爲	-11.4203
三種	-11.4206
無心則	-11.4208
俱忘	-11.4209
胃中	-11.4209
大還丹	-11.4211
而不息	-11.4213
大威	-11.4213
可不愼	-11.4214
五老	-11.4217
幻化	-11.4223
形象	-11.4223
致遠	-11.4224
浸一宿	-11.4226
可不慎	-11.423
神驗	-11.4231
斷絶	-11.4237
水鼎	-11.4243
而不去	-11.4245
七枚	-11.4248
不爲盜	-11.4249
百物	-11.425
來世	-11.4251
說得	-11.4251
不獨	-11.4254
昧者	-11.4256
夭地	-11.4261
如日月	-11.4263
所存	-11.4264
其弟	-11.4265
令尹	-11.4267
甲子日	-11.427
苦海	-11.4271
乙巳	-11.4272
平無毒	-11.4272
合德	-11.428
惡血	-11.4285
才能	-11.4286
凡情	-11.4288
天雄	-11.4289
駟	-11.4294
淨水	-11.4295
弘道	-11.4295
謙虚	-11.4297
髑髏	-11.4299
復歸於無物	-11.4299
驕奢	-11.4301
圈	-11.4301
常住	-11.4301
丸如梧桐子大	-11.4301
殤	-11.4302
誠明	-11.4303
湘	-11.4303
孫叔敖	-11.4304
䕶	-11.4305
道隱無名	-11.4305
稅	-11.4305
大方無隅	-11.4306
糜	-11.4306
瞋	-11.4306
欬	-11.4306
道法自然	-11.4307
麽	-11.4307
不貴難得之貨使民不爲盜	-11.4307
狡	-11.4307
澆淋	-11.4308
天地不仁以萬物爲芻狗	-11.4308
盍	-11.4309
子細	-11.4309
蘇恭	-11.431
辰砂	-11.431
擘	-11.431
言汝	-11.431
瓦礫	-11.4311
畏壘	-11.4311
靈文	-11.4311
慤	-11.4311
驚悸	-11.4311
至公	-11.4312
安居	-11.4312
庚寅	-11.4312
鬬	-11.4312
天門冬	-11.4312
奢泰	-11.4312
曼衍	-11.4313
殄	-11.4313
服一丸	-11.4313
麾	-11.4313
辛卯	-11.4313
第七十	-11.4313
專氣致柔能如嬰兒乎	-11.4313
槃	-11.4314
愈遠	-11.4314
天下有始	-11.4314
俄頃	-11.4314
諷	-11.4315
彼之所	-11.4315
幽王	-11.4317
訴	-11.4317
不堪用	-11.432
袁	-11.432
炷	-11.432
顔淵	-11.4321
伯昏	-11.4322
若要	-11.4324
與民同	-11.4324
翣	-11.4324
封人	-11.4324
天王	-11.4324
向上	-11.4327
鹽泥固濟	-11.4329
誰知	-11.4329
日時	-11.433
子張	-11.4331
紅銀	-11.4331
吴王	-11.4332
五更	-11.4334
遷善	-11.4336
天下神器	-11.4337
不責於人	-11.4338
無譽	-11.4342
七眞	-11.4346
多知	-11.4347
求利	-11.4351
萬物之生	-11.4357
未然	-11.4357
前明	-11.4358
濟人	-11.4359
百倍	-11.436
玉童	-11.4363
光耀	-11.4366
行止	-11.4367
藥末	-11.4367
左契	-11.437
謙柔	-11.4374
東門	-11.4375
中嶽	-11.4376
果然	-11.4379
風波	-11.4388
一點	-11.4388
有名者	-11.4394
深玄	-11.4395
不善者	-11.4395
名位	-11.4395
具載	-11.4396
調中	-11.4397
百關	-11.4398
莫過	-11.44
月華	-11.4404
味甘平	-11.4408
公侯	-11.4411
造乎	-11.4412
境界	-11.4417
此二者	-11.4418
萬物之情	-11.4424
洞玄	-11.4425
下界	-11.443
恬然	-11.4434
第十四	-11.4437
仰天	-11.4437
義曰夫	-11.4441
昔有	-11.4442
亦未嘗	-11.4449
古人有	-11.445
愛氣	-11.4451
詔曰	-11.4452
未幾	-11.4458
登仙	-11.4458
之奥	-11.4461
氣息	-11.4463
咸得	-11.4465
郭音	-11.4468
堇	-11.4469
菰	-11.4471
不皦	-11.4473
不離乎	-11.4473
夢覺	-11.4477
漬之	-11.4479
攪匀	-11.4481
淸	-11.4483
徽宗	-11.4484
全其生	-11.4485
癭	-11.4485
曬乾	-11.4485
隰朋	-11.4485
可以爲天下母	-11.4486
蜘蛛	-11.4486
誤矣	-11.4488
改爲	-11.4488
瘢	-11.4488
歸於無	-11.4489
皂角	-11.4489
有小毒	-11.4489
雁	-11.4489
妊娠	-11.4489
持戒	-11.4489
德充	-11.449
僊	-11.4491
迅	-11.4492
甘其食	-11.4492
眞偽	-11.4492
外其身而身存	-11.4493
禹錫等按	-11.4495
以道蒞天下	-11.4495
痕	-11.4495
是謂要妙	-11.4496
泮	-11.4496
鐡	-11.4497
岱	-11.4497
盪	-11.4497
吾何以知天下之然哉以此	-11.4497
物莫不	-11.4497
空寂	-11.4499
粟米	-11.45
壺子曰	-11.45
乆服輕身	-11.4501
不善人之所保	-11.4501
癩	-11.4501
朝禮	-11.4501
勇於不敢	-11.4502
善戰者不怒	-11.4502
壬辰	-11.4502
矧	-11.4502
不可思議	-11.4503
飴	-11.4503
愛民治國能無爲乎	-11.4504
嫉	-11.4504
泳	-11.4504
賁	-11.4505
繕性	-11.4505
哭泣	-11.4505
噀	-11.4505
打破	-11.4506
垂教	-11.4508
郭注云	-11.4508
亭毒	-11.4509
不以多少	-11.4509
殷湯	-11.451
最佳	-11.451
悼	-11.451
言辯	-11.451
知者不言	-11.4512
肝膽	-11.4516
飢渴	-11.4518
内丹	-11.4519
老翁	-11.452
玄靈	-11.452
之器也	-11.4524
遍身	-11.4525
說經	-11.4526
不知其所以然	-11.4526
君親	-11.453
爲客	-11.453
超乎	-11.453
其孰能	-11.4531
添汞	-11.4531
必有所	-11.4533
資始	-11.4534
以智治國	-11.4534
權謀	-11.4535
蓮花	-11.4535
玉晨	-11.4538
合子内	-11.4538
萬二千	-11.4539
百家	-11.454
異同	-11.4541
妄見	-11.4542
長幼	-11.4542
登假	-11.4542
動動	-11.4547
無所不至	-11.4549
武曲	-11.4553
須知	-11.4555
捨其	-11.4556
章云	-11.4558
難行	-11.4562
佳兵	-11.4565
向日	-11.4568
西伯	-11.457
物得以生	-11.4574
詩書	-11.4576
貴重	-11.4578
須得	-11.458
也李曰	-11.4583
只用	-11.4585
杏人	-11.459
而成之	-11.459
高飛	-11.459
備矣	-11.4591
尸居	-11.4591
老子之言	-11.4594
至治	-11.4599
小白	-11.4605
藏府	-11.4608
歸依	-11.461
凡修	-11.461
夫人之	-11.4613
篇首	-11.4621
懷玉	-11.4622
壇上	-11.4622
巧者	-11.4627
無限	-11.4627
法造	-11.4631
細切	-11.4633
發動	-11.4635
主療	-11.4639
人皇	-11.464
見於外	-11.4646
三卷	-11.4646
傷神	-11.4655
降臨	-11.4656
禁止	-11.4656
次日	-11.4667
無時而	-11.4669
非常之	-11.4672
曾子	-11.4678
開合	-11.4679
產	-11.4681
食肉	-11.4683
虚皇	-11.4683
鴈	-11.4683
等分爲末	-11.4685
補中	-11.4687
有毛	-11.4687
周室	-11.4688
敦兮其若樸	-11.4689
憒	-11.4689
味辛温無毒主	-11.4689
譙	-11.469
出於自然	-11.469
于世	-11.469
箸	-11.4691
用鉛	-11.4691
蜚	-11.4691
以六一泥	-11.4693
兩不相傷	-11.4693
塞其兊閉其門	-11.4693
虎兕	-11.4693
鬰	-11.4694
痺	-11.4694
口吐	-11.4694
而守之	-11.4694
迫而後動	-11.4694
明窗塵	-11.4695
此兩句	-11.4695
一萬事畢	-11.4695
髀	-11.4695
吾不知誰之子象帝之先	-11.4696
猜	-11.4696
熬令	-11.4696
嗅	-11.4696
江海所以能爲百谷王者以其善下之	-11.4696
褚伯秀	-11.4696
僣	-11.4696
執者失之	-11.4697
復歸於樸	-11.4697
蔑	-11.4698
贏	-11.4698
凖	-11.4698
塚	-11.4698
餘杭	-11.4699
陵舄	-11.4699
劉蔣	-11.4699
一陰一陽之謂道	-11.4699
古之所以貴此道者何	-11.4699
蓍	-11.4701
昂	-11.4702
㓕	-11.4702
繳	-11.4702
荆棘	-11.4702
狠	-11.4702
不自以爲	-11.4703
貶	-11.4704
金液還丹	-11.4704
射干	-11.4704
早晚	-11.4704
庖丁	-11.4705
護身	-11.4705
亳州	-11.4706
頃刻	-11.4706
金書	-11.4706
與天爲一	-11.4708
紫石英	-11.4708
啻	-11.4708
不自得	-11.4708
衣裳	-11.4708
玉童玉女	-11.4708
下愚	-11.4709
燒令	-11.4713
不昩	-11.4714
昉	-11.4716
時須	-11.4723
和之至也	-11.4724
花葉	-11.4724
營魄	-11.4725
侍衛	-11.4725
亦謂之	-11.4725
往復	-11.4726
舉動	-11.4728
現於	-11.4728
而無不爲	-11.473
毒氣	-11.4732
者此也	-11.4736
受持	-11.4736
夜卧	-11.4737
道本無名	-11.4738
青鹽	-11.4738
心齋	-11.4742
而不厭	-11.4742
爲天下母	-11.4744
或不盈	-11.4745
子桑	-11.4748
九兩	-11.4749
不能逃	-11.4751
朴消	-11.4753
號令	-11.4755
常性	-11.4761
無爲而爲	-11.4765
未離乎	-11.477
竹葉	-11.4772
行仁義	-11.4772
邪正	-11.4772
自立	-11.4776
子輿	-11.4776
與物交	-11.4777
左足	-11.4778
崩中	-11.4778
修煉	-11.4779
問禮	-11.4781
於有爲	-11.4782
忘物	-11.4783
而況於	-11.4792
與道相	-11.4793
上件	-11.4793
癬	-11.4794
疥癬	-11.4795
所以然者	-11.4797
文王之	-11.4798
奏聞	-11.4801
機心	-11.4802
生瘡	-11.4806
卓然	-11.4809
於物則	-11.481
主小兒	-11.481
本始	-11.4812
在人間	-11.4817
神龜	-11.4817
氣而生	-11.4818
子夏	-11.482
具位	-11.4822
幽微	-11.4823
帝時	-11.4826
水和	-11.4828
而後可	-11.4832
建德若偷	-11.4832
以無事	-11.4834
者心也	-11.4834
十五年	-11.4835
將吏	-11.4836
言人之	-11.4838
浮華	-11.4838
退身	-11.4841
福德	-11.4844
未易	-11.4845
少室	-11.4846
無所不知	-11.4847
者未必	-11.4856
開胃	-11.4856
失道而後德失德而後仁失仁而後義	-11.4857
三十年	-11.4858
生滅	-11.4859
穩	-11.4864
而不可以	-11.4865
也或云	-11.4866
執古之道以御今之有	-11.4868
物之初	-11.4876
蔽於	-11.4876
鷹	-11.4876
定分	-11.4876
灰池	-11.4879
前境	-11.4881
憂畏	-11.4881
勞形	-11.4882
皈	-11.4885
第十五	-11.4885
若缺	-11.4885
辟惡	-11.4885
藜蘆	-11.4887
烏足	-11.4887
濠	-11.4887
嗌	-11.4888
傴	-11.4888
鴉	-11.4888
迥	-11.489
絶仁棄義	-11.4891
搗篩	-11.4891
寒水石	-11.4892
篡	-11.4892
悠悠	-11.4893
莫知其極可以有國	-11.4893
妄動	-11.4894
稔	-11.4894
妍醜	-11.4894
皆知善之爲善斯不善已	-11.4894
芹	-11.4895
喑	-11.4895
不召而自來	-11.4895
旛	-11.4895
無可無不可	-11.4896
强名曰道	-11.4896
帷	-11.4897
相忘於江湖	-11.4897
是以萬物莫不尊道而貴德	-11.4897
善人之寳	-11.4897
故能成其私	-11.4898
當此之時	-11.4898
噬	-11.4899
爲基	-11.4899
無名天地之始有名萬物之母	-11.49
燿	-11.49
幕	-11.4901
爲者敗之	-11.4902
張仲景	-11.4902
剔	-11.4902
柔弱勝剛强	-11.4902
務外	-11.4902
韄	-11.4902
喜怒哀樂	-11.4903
丕	-11.4903
光輝	-11.4903
我獨異於人	-11.4904
壊	-11.4904
天皇大帝	-11.4904
百八十	-11.4905
執大象	-11.4905
咽液	-11.4905
愛憎	-11.4905
羸瘦	-11.4907
致虚極	-11.4909
四海之内	-11.4909
㝷	-11.4912
有驗	-11.4913
德交歸	-11.4914
人皆知	-11.4918
九色	-11.4919
窅然	-11.492
者此人先身	-11.4922
爲無爲則無不治矣	-11.4922
赤子之心	-11.4924
毛髮	-11.4925
用其光	-11.493
一隻	-11.4931
虧盈	-11.4934
失道而後德	-11.4934
逍遥遊	-11.4934
墮於	-11.4935
十枚	-11.4936
求諸己	-11.4936
玉陽	-11.4937
巨勝	-11.4937
靡不	-11.494
百六十	-11.4941
川谷及	-11.4941
花紅	-11.4944
經脉	-11.4946
玉液	-11.4947
材器	-11.4948
奇特	-11.4949
光華	-11.495
三月三日	-11.4957
遠志	-11.4959
孔氏	-11.4961
葉青	-11.4962
者神也	-11.4962
妄傳	-11.4962
䟽此明	-11.4964
勝敵	-11.4972
務在	-11.4972
十有二	-11.4972
夜夢	-11.4974
衆多	-11.4975
常理	-11.4977
古之所謂	-11.4978
亡羊	-11.4983
有益於	-11.4987
常足	-11.4988
日華子云治	-11.4988
諸惡	-11.4991
適足以	-11.4993
所以致	-11.4995
而問之	-11.5001
於物故	-11.5003
若拙	-11.5003
成疏	-11.5004
首章	-11.5007
夏禹	-11.5014
通變	-11.5027
任用	-11.5034
九祖	-11.5034
天下太平	-11.5037
無對	-11.5039
飛伏	-11.5043
方家	-11.5043
杜光庭	-11.5044
合爲一	-11.5045
孰有	-11.5045
開度	-11.5046
而後行	-11.5056
之所歸	-11.5057
殿宇	-11.5057
酒調	-11.5057
八尺	-11.5058
清寧	-11.5059
無以知	-11.5063
色界	-11.5067
活身	-11.5069
驚癇	-11.5072
安得不	-11.5074
豈待	-11.5075
存思	-11.5077
各以其	-11.508
或問道	-11.508
甆	-11.5082
痿	-11.5083
子列子曰	-11.5083
用紙	-11.5085
泰然	-11.5089
龍膏	-11.509
赤白痢	-11.509
同於道	-11.5091
挑	-11.5091
不可聞	-11.5091
太眞	-11.5092
浣	-11.5092
山河	-11.5093
奴婢	-11.5093
汚	-11.5094
大巧若拙	-11.5094
人能知	-11.5095
後其身而身先	-11.5095
善結無繩約而不可解	-11.5095
民之難治以其智多	-11.5095
帶利劍	-11.5096
動而愈出	-11.5096
坡	-11.5096
華陽	-11.5096
視之不見聽之不聞	-11.5096
舂	-11.5096
湧泉	-11.5097
受國之垢	-11.5097
釀	-11.5097
要訣	-11.5097
塞其兊	-11.5097
浹	-11.5098
蹍	-11.5098
鍼	-11.5099
痼疾	-11.5099
瘁	-11.5099
愷	-11.5099
相去幾何	-11.51
剌	-11.51
俎	-11.51
愉	-11.5101
天門開闔	-11.5101
不祥之器	-11.5101
不言之辯	-11.5101
無是無非	-11.5101
淡泊	-11.5101
有小毒主	-11.5102
柔弱者生之徒	-11.5102
悚	-11.5102
環中	-11.5103
辛酉	-11.5103
百姓日用而不知	-11.5103
三日三夜	-11.5104
陶冶	-11.5104
庚桑楚	-11.5104
年八十	-11.5104
憩	-11.5104
桀跖	-11.5105
睨	-11.5105
萬乘之主	-11.5105
滌除玄覽能無疵乎	-11.5105
差忒	-11.5106
卿大夫	-11.5106
徼妙	-11.5106
墮胎	-11.5107
三遍	-11.5107
生而不有爲而不恃	-11.5108
眎	-11.5109
后稷	-11.5111
在宥天下	-11.5112
劫運	-11.5113
祈禱	-11.5113
多忌諱	-11.5115
詬	-11.5117
本根	-11.5117
地祇	-11.5117
無用之用	-11.5121
乳香	-11.5123
故不爲	-11.5127
南郭子	-11.5127
歡喜	-11.513
二者皆	-11.5132
顧謂	-11.5132
飛騰	-11.5133
故大制不割	-11.5135
内修	-11.5138
纔有	-11.5138
江淮	-11.5144
唯阿	-11.5145
久食	-11.5145
儼然	-11.5147
語默	-11.5148
平正	-11.515
胷中	-11.5151
欲不欲	-11.5151
其所見	-11.5152
覺悟	-11.5157
一百八十	-11.5159
木石	-11.516
水之性	-11.5162
至於命	-11.5163
一刀圭	-11.5163
鄭君	-11.5164
不有其	-11.5164
一層	-11.5165
千百	-11.5166
唯有道者	-11.5173
天地之心	-11.5176
白蜜	-11.5179
防風	-11.5181
風痹	-11.5186
宫殿	-11.5189
故寄	-11.5193
個	-11.5195
瓶中	-11.5197
以此知	-11.5202
暢然	-11.5206
自以爲是	-11.5208
復朴	-11.5208
除害	-11.5209
昔日	-11.5209
紫衣	-11.5212
慈愛	-11.5213
毒蟲	-11.5214
機巧	-11.5215
失其性	-11.5216
存想	-11.5223
尹眞人	-11.5228
泥塗	-11.5228
百一十	-11.5229
愚之始	-11.5232
無形無名	-11.5238
所役	-11.5239
百家之	-11.5243
答云	-11.5243
早服	-11.5244
洞達	-11.5248
玄關	-11.5254
不曾	-11.5255
豈特	-11.5256
火逼	-11.5258
而不顧	-11.5264
乆長	-11.5276
虚損	-11.5283
魯國	-11.5284
槽	-11.5286
不累於	-11.5287
扎定	-11.529
旣得	-11.5293
三伏時	-11.5294
焰硝	-11.5294
風毒	-11.5294
烏梅	-11.5296
獨立而不改	-11.5297
鳳凰	-11.5298
井花水	-11.5298
皂莢	-11.5299
保此道者不欲盈	-11.5299
弊則新	-11.53
滌除玄覽	-11.5301
廊	-11.5302
西昇經	-11.5303
㡬	-11.5303
饕	-11.5303
涼	-11.5303
我無事而民自富	-11.5303
挂	-11.5303
南華經曰古者	-11.5304
妍	-11.5304
其次親之譽之	-11.5305
含德之厚比於赤子	-11.5305
錐	-11.5305
冐	-11.5305
宙	-11.5305
軿	-11.5306
流轉	-11.5306
聽之不聞	-11.5306
厚一寸	-11.5306
恬澹	-11.5306
牝常以靜勝牡	-11.5306
不亦難乎	-11.5307
常無欲以觀其妙常有欲以觀其徼	-11.5307
以奇用兵	-11.5307
廣德若不足	-11.5307
孳	-11.5307
繇	-11.5308
孟孫陽	-11.5308
粳米	-11.5308
能爲百谷王	-11.5309
環堵	-11.5309
崑	-11.5309
善勝敵者不爭	-11.531
祁	-11.531
鼇	-11.531
生之徒十有三死之徒十有三	-11.5311
礪	-11.5311
玄牝之門	-11.5312
髯	-11.5312
兕虎	-11.5313
蛟龍	-11.5313
是以天下樂推而不厭	-11.5313
驟雨	-11.5314
隕	-11.5314
復其初	-11.5314
梳	-11.5314
幾近也	-11.5315
者其唯	-11.5315
昆蟲	-11.5316
蠲	-11.5316
賂	-11.5316
功成而不居	-11.5316
嬴	-11.5317
其出彌遠其知彌少	-11.5318
温公曰	-11.532
御製	-11.532
屬金	-11.532
登高	-11.5323
第十八	-11.5323
酆都	-11.5324
不爭之德	-11.5324
籙籙中	-11.5324
胃氣	-11.5326
鋤	-11.5326
雷公云	-11.5326
碧落	-11.5328
結砂子	-11.533
鍾鼓	-11.533
咽喉	-11.5334
防己	-11.5335
其中有精	-11.5337
黄礬	-11.534
二十五日	-11.5341
良醫	-11.5344
石腦	-11.5351
四黄	-11.5353
成至寳	-11.5356
萬物並作	-11.5356
四方上下	-11.5357
皇皇	-11.5358
抱陽	-11.536
臨時	-11.5361
萬世之	-11.5364
補益	-11.5364
百草	-11.5367
兼濟	-11.5369
四維	-11.537
功業	-11.5372
孫眞人	-11.5375
君臣父子	-11.5376
不逮	-11.5377
永壽	-11.5378
無古今	-11.5378
累於物	-11.538
不道之道	-11.5382
命門	-11.5386
兩間	-11.5389
虚無自然	-11.539
垂象	-11.5392
濟世	-11.5393
永保	-11.5393
小大之	-11.5397
南陽	-11.5397
故以智治國國之賊	-11.5399
須要	-11.5399
泰清	-11.5403
衆惡	-11.5406
萬餘	-11.5411
者爲勝	-11.5411
劉向	-11.5421
虚忘	-11.5421
覩其	-11.5423
也夫聖人	-11.5427
次序	-11.5428
仙藥	-11.5429
玉華	-11.5434
天壤	-11.5434
與語	-11.5434
適時	-11.5438
相推	-11.5439
三焦	-11.544
厚載	-11.5443
贊曰	-11.5443
之根本	-11.5445
水洗	-11.5445
箇月	-11.5469
假設	-11.5472
隂氣	-11.5477
已止也	-11.5478
有所待	-11.5478
《	-11.548
》	-11.548
自然之分	-11.5481
天池	-11.5482
二十四氣	-11.5483
氣海	-11.5485
降迹	-11.5499
陳藏器	-11.5499
武當山	-11.5499
盂	-11.5504
郁	-11.5507
隨其所	-11.5508
波斯國	-11.5509
頥	-11.5511
蔞	-11.5511
俠	-11.5513
癰疽	-11.5513
任智	-11.5514
鴞	-11.5515
不離輜重	-11.5515
堊	-11.5515
僵	-11.5515
復衆人之所過	-11.5516
雖有榮觀燕處超然	-11.5516
行住坐卧	-11.5517
善言無瑕謫	-11.5517
使民復結繩而用之	-11.5517
知止不殆	-11.5518
我無欲而民自樸	-11.5518
俛	-11.5518
兢	-11.5518
羊蹄	-11.5518
復歸於無極	-11.5518
畋	-11.5518
黏	-11.5518
知和曰常	-11.5519
戚戚	-11.5519
不復重録	-11.5519
概	-11.5519
三萬六千	-11.5519
楷	-11.552
薇	-11.552
擁腫	-11.552
扼	-11.552
頁	-11.552
庚戌	-11.5521
終身不勤	-11.5521
肢體	-11.5522
兵者不祥之器	-11.5522
皁	-11.5522
訊	-11.5522
矜誇	-11.5522
道生一一生二二生三三生萬物	-11.5523
商太宰	-11.5523
五勞七傷	-11.5523
滛	-11.5523
駢拇	-11.5523
瞳	-11.5523
勞苦	-11.5524
而不盈	-11.5524
樽	-11.5524
身與貨孰多	-11.5524
來迎	-11.5524
霹靂	-11.5524
儵	-11.5525
天下皆知美之爲美斯惡已	-11.5525
尤佳	-11.5525
柢	-11.5525
蠐螬	-11.5525
蹊	-11.5526
惛	-11.5526
閎	-11.5527
衍義云若	-11.5527
閽	-11.5527
不見而名	-11.5528
菊花	-11.5529
邠	-11.5529
州刺史	-11.5529
戍	-11.553
閏	-11.553
汋	-11.5531
簧	-11.5531
摭	-11.5533
筵	-11.5539
與道同體	-11.5542
難言	-11.5544
丘陵	-11.5544
穆公	-11.5547
狼毒	-11.5555
偃兵	-11.5555
絶粒	-11.5556
西蜀	-11.5557
萬杵	-11.556
仁義禮	-11.556
凝滯	-11.5561
權勢	-11.5562
長房	-11.5566
天地不仁	-11.557
四升	-11.5571
何爲哉	-11.5575
八月採	-11.5576
桃花	-11.5578
災害	-11.5579
在宥	-11.5579
周徧	-11.5581
十萬人	-11.5584
心腹痛	-11.5584
相違	-11.5585
高士	-11.5586
而不動	-11.5586
積習	-11.5587
人之所爲	-11.5588
非關	-11.5588
十丸	-11.5589
不見其形	-11.5592
右將	-11.5592
北帝	-11.5599
文火養	-11.5599
李公	-11.56
天地之先	-11.5602
三十丸	-11.5606
官屬	-11.5606
患害	-11.5608
人身中	-11.561
一錢七	-11.5613
素分	-11.5614
感而應	-11.5615
千古	-11.5615
手指	-11.5616
萬病	-11.5617
庚午	-11.562
在其中矣	-11.562
逐日	-11.5621
他物	-11.5624
欲速	-11.5625
亦好	-11.5629
産後血	-11.5636
三者皆	-11.564
不可不爲	-11.5645
喪身	-11.5652
糠火	-11.5652
今之人	-11.5653
形貌	-11.5653
克己	-11.5657
房中	-11.5665
生之本	-11.5667
豈容	-11.5672
身後之	-11.5676
而後可以	-11.5678
解散	-11.5679
洗淨	-11.568
文飾	-11.5682
是樂殺人	-11.5685
無物不	-11.5686
群動	-11.5687
北向	-11.5689
戎馬	-11.5692
丸散	-11.5697
訣云	-11.5697
吾與之	-11.5701
躁動	-11.5707
腸風	-11.5708
只可	-11.5712
南宫	-11.5714
三日夜	-11.5715
必資	-11.5716
扎	-11.5717
蚯蚓	-11.5718
本源	-11.572
鶩	-11.5721
陽縣	-11.5722
屬木	-11.5723
㘽蓮	-11.5725
睫	-11.5725
熈	-11.5725
狶	-11.5727
冦	-11.573
曏	-11.573
娠	-11.573
躊躇	-11.5731
芙蓉	-11.5731
善行無轍迹	-11.5731
噉	-11.5731
不知足	-11.5733
坼	-11.5733
囘	-11.5734
苣	-11.5734
訶	-11.5734
榜	-11.5735
明道若昧	-11.5736
耳目鼻口	-11.5736
徇名	-11.5736
其不欲見賢	-11.5736
餒	-11.5736
以無事取天下	-11.5737
故下文云	-11.5737
自見者不明	-11.5737
祉	-11.5737
壬寅	-11.5737
以身觀身	-11.5737
人之國	-11.5737
霓	-11.5737
故大國以下小國則取小國	-11.5738
關令尹喜	-11.5738
劄	-11.5738
人之所畏不可不畏	-11.5739
不出户知天下	-11.5739
峙	-11.5739
奉聖㫖	-11.574
蝎	-11.574
靜勝熱	-11.5741
攻堅强	-11.5741
生天生地	-11.5741
坊	-11.5742
龍骨	-11.5742
咳逆	-11.5743
擬議	-11.5743
朋友	-11.5743
煙霞	-11.5744
彀	-11.5744
歉	-11.5745
地榆	-11.5746
蜜調	-11.5747
金木水火土	-11.5747
是謂玄牝	-11.5747
僖	-11.5747
丐	-11.5748
垂拱	-11.5748
勤儉	-11.5748
覆盆	-11.5748
懺	-11.575
芒消	-11.5751
牛糞	-11.5751
莫大乎	-11.5752
河海	-11.5753
升天	-11.5754
亦佳	-11.5754
愕	-11.5754
玄妙玉女	-11.5757
孰得而	-11.5757
松栢	-11.5758
長養萬物	-11.5758
故無尤	-11.5758
不得已而後起	-11.5759
純純	-11.576
無厭其所生	-11.5761
右手執	-11.5763
乗風	-11.5764
伯昏瞀人	-11.5764
長春宫	-11.5764
青雲	-11.5766
告之曰	-11.5769
丑時	-11.5769
九萬里	-11.577
慎勿	-11.577
是以不去	-11.5771
不言而信	-11.5771
珍寳	-11.5771
風濕	-11.5773
河内	-11.5773
卑賤	-11.5773
修道之士	-11.5775
頓首	-11.5775
虚幻	-11.5775
唯恐	-11.5776
麻黄	-11.5776
聖人不積	-11.5776
第十七	-11.5779
解脫	-11.5781
苗似	-11.5785
反樸	-11.5787
安排	-11.5789
謹請	-11.5793
應須	-11.5796
反胃	-11.5796
譬彼	-11.5798
教父	-11.5798
可以長生	-11.5801
焚修	-11.5806
無辜	-11.5808
泄精	-11.581
消長	-11.5813
掌握	-11.5815
茸	-11.5816
禀受	-11.5817
葉圓	-11.5818
殺害	-11.5821
輟	-11.5825
豈止	-11.5826
乾元	-11.5828
山福地眞人	-11.583
憂喜	-11.5833
家貧	-11.5837
於聲色	-11.5838
芝草	-11.584
腫毒	-11.5841
箕子	-11.5841
年七十	-11.5843
無趾	-11.5845
世之所謂	-11.5848
有如此者	-11.5849
緑色	-11.5859
奉請	-11.586
二十餘	-11.5861
人之身	-11.5864
縣解	-11.5864
相生相	-11.5866
五種	-11.5868
天地人物	-11.5868
若沖	-11.5868
頭面	-11.587
天下無道	-11.5884
睹其	-11.5886
東方青	-11.5887
不由於	-11.5894
見小曰明	-11.5902
切忌	-11.5908
黑白	-11.5914
相靡	-11.5917
五十日	-11.5917
五句	-11.5918
聖功	-11.5921
戟	-11.5925
者道之用也	-11.5926
含靈	-11.5929
色黑	-11.5932
節度	-11.5934
不撓	-11.5936
洞照	-11.5941
枳	-11.5942
萍	-11.5948
磚	-11.5948
無狀之狀	-11.5949
駘	-11.595
補五臟	-11.595
宋通直郎辨驗藥材寇宗奭編撰宋	-11.5951
逡巡	-11.5951
煨	-11.5951
拓	-11.5951
罩	-11.5951
善建者不拔	-11.5952
棠	-11.5952
沓	-11.5952
盻	-11.5953
一握	-11.5953
多言數窮	-11.5954
攘無臂	-11.5954
𥙷	-11.5955
絶仁棄義民復孝慈	-11.5955
橘皮	-11.5955
人法地地法天天法道道法自然	-11.5955
衂	-11.5956
胸膈	-11.5956
悍	-11.5956
却走馬以糞	-11.5956
爲人臣	-11.5957
澹泊	-11.5958
處衆人之所惡	-11.5958
恬愉	-11.5959
菟絲	-11.5959
咄	-11.5959
暝	-11.5959
知足不辱	-11.5959
腰膝	-11.5959
杭	-11.5959
建言有之	-11.596
之類皆	-11.596
皥	-11.5961
皋	-11.5961
消息盈虚	-11.5961
驁	-11.5961
阮	-11.5961
倨	-11.5961
弭	-11.5961
霖	-11.5962
叉	-11.5962
斡	-11.5962
爲之於未有治之於未亂	-11.5962
浮腫	-11.5963
執大象天下往	-11.5963
浩浩	-11.5963
痃癖	-11.5963
丙申	-11.5964
晃	-11.5964
舟輿	-11.5964
稟	-11.5964
黜聰明	-11.5964
而不易	-11.5964
道者萬物之奥	-11.5965
匣	-11.5965
知常容	-11.5965
奇異	-11.5965
詩書禮樂	-11.5966
六合之内	-11.5967
甲戌	-11.5968
軰	-11.5969
五金八石	-11.5969
廣聖義	-11.597
柔之勝剛弱之勝强	-11.5971
四海之外	-11.5971
頰	-11.5971
齕	-11.5973
葫	-11.5977
殷勤	-11.5977
億兆	-11.5978
其所知	-11.5982
天網	-11.5982
小國以下大國則取大國	-11.5983
弊弊	-11.5984
故貴以賤爲本高以下爲基	-11.599
空谷	-11.599
發揮	-11.5991
尊榮	-11.5993
皇后	-11.5996
五霸	-11.5997
快樂	-11.5998
若訥	-11.6001
强梁者	-11.6002
愛其身	-11.6002
貧窮	-11.6003
祈福	-11.6004
虚懷	-11.6007
腫痛	-11.6008
三十里	-11.6009
繩約	-11.6015
谷神不死是謂玄牝	-11.6015
光明砂	-11.6015
如赤子	-11.6016
爲治者	-11.6018
九寸	-11.6024
陽子居	-11.6026
杜光庭曰	-11.6026
返照	-11.6028
甚微	-11.603
五十丸	-11.6031
物之自然	-11.6033
既悟	-11.6033
扶持	-11.6034
閉門	-11.6036
上升	-11.6036
辭讓	-11.6043
機關	-11.6046
以我爲	-11.6048
三十九	-11.6049
腹脹	-11.6055
以物爲	-11.6055
受垢	-11.6058
爲之累	-11.6062
群臣	-11.6068
戊子	-11.6069
洛陽	-11.6071
爲天下貴	-11.6071
夷齊	-11.6076
火炙	-11.6077
州縣	-11.6078
雲雨	-11.608
細微	-11.6081
於道道	-11.6083
脾胃	-11.6083
汁煮	-11.6084
歷劫	-11.6085
求益	-11.6086
瓶内	-11.6087
達理	-11.6087
親譽	-11.6092
秋水	-11.61
反注同	-11.6101
救度	-11.6101
輕泄	-11.6107
取岀	-11.6107
九十日	-11.6109
康王	-11.6112
五錢	-11.6117
年代	-11.6123
任理	-11.6125
尤多	-11.6126
曠然	-11.6127
所施爲	-11.6128
帝堯	-11.6128
道之出口淡乎其無味	-11.613
有道之人	-11.6133
襲明	-11.6137
成象	-11.6139
一煅	-11.6144
皇極	-11.6146
情之所	-11.6148
宅中	-11.6154
二十一年	-11.6162
衣被	-11.6163
西遊	-11.6164
持勝	-11.6164
鹿角	-11.6169
豈可以	-11.6169
由之而	-11.617
芎藭	-11.6173
沼	-11.6174
不猒	-11.6176
曠兮其若谷	-11.6176
迎之不見其首隨之不見其後	-11.6177
虚假	-11.6178
欄	-11.6178
噲	-11.6179
燄	-11.618
揉	-11.618
楷模	-11.618
鹵	-11.618
眸	-11.6181
天道無親常與善人	-11.6182
大辯若訥	-11.6182
什伯之器	-11.6182
故次此章	-11.6183
闉	-11.6183
信言不美	-11.6183
辛亥	-11.6184
聖人無常心以百姓心爲心	-11.6184
茄	-11.6184
虬	-11.6184
評	-11.6184
道可道非常道	-11.6184
絶巧棄利盜賊無有	-11.6185
閩	-11.6185
見素抱樸少私寡欲	-11.6185
橛	-11.6185
𩲸	-11.6185
罵	-11.6186
癲	-11.6186
其政悶悶	-11.6186
損之而益	-11.6187
鐻	-11.6187
麻姑	-11.6187
臟腑	-11.6188
謷	-11.6188
廡	-11.6188
是以聖人去甚去奢去泰	-11.6188
萬物恃之以生而不辭	-11.6188
報怨以德	-11.6188
侯王若能守萬物將自化	-11.6188
亷	-11.6188
案明刋本	-11.6188
譆	-11.6189
揖讓	-11.619
戊申	-11.619
䏻	-11.619
蝗	-11.619
奢侈	-11.619
一貫	-11.6191
戊戌	-11.6191
諺	-11.6191
常有司殺者殺	-11.6191
周穆王	-11.6192
禹餘糧	-11.6192
絜	-11.6192
三十輻共一轂當其無有車之用	-11.6192
胚	-11.6192
賦斂	-11.6193
拇	-11.6193
賛	-11.6193
靄	-11.6194
筠	-11.6194
偁	-11.6194
耳目聰明	-11.6196
猪肉	-11.6196
泄痢	-11.6197
國之君	-11.6198
戹	-11.6198
璇璣	-11.6199
缺缺	-11.6199
之爲言	-11.62
眷屬	-11.62
三皇五帝	-11.6201
碑銘	-11.6202
謹出太上正一	-11.6204
吒	-11.6204
無棄物	-11.6205
美其服	-11.6207
稽首再拜	-11.6208
住世	-11.6209
包羅	-11.6212
總管	-11.6213
酒調下	-11.6215
兵戈	-11.6216
青腰	-11.6219
陰陽不測	-11.622
儻來	-11.6221
無爲之化	-11.6224
道之極	-11.6226
破軍	-11.6228
春臺	-11.6232
靈籙	-11.6232
無意於	-11.6233
共工	-11.6235
沌沌	-11.6243
黄籙	-11.6247
苦參	-11.6248
骨弱筋柔而握固	-11.6248
微寒主	-11.6251
變化無窮	-11.6254
盤古	-11.6255
吐氣	-11.6256
華蓋山	-11.6262
急急	-11.6263
太原	-11.6268
群物	-11.6272
西極	-11.6273
金籙	-11.6275
度量	-11.6276
人所不	-11.6277
無所歸	-11.6278
任化	-11.6281
發背	-11.6281
相攻	-11.6284
武丁	-11.6286
染著	-11.6289
慈儉	-11.6292
悲哉	-11.6295
羣臣	-11.6297
聖人之德	-11.63
照耀	-11.6301
未始有極	-11.6304
越分	-11.6305
驅使	-11.6307
丹竈	-11.6307
天法道	-11.6313
而得其	-11.632
修齋	-11.6332
許多	-11.6334
莊子外篇	-11.6338
數百人	-11.6343
鑪中	-11.6343
立秋	-11.6349
立差	-11.6354
髙眞	-11.6355
潜通	-11.6357
實腹	-11.636
以無爲用	-11.6362
若然則	-11.6363
多寡	-11.6364
安泰	-11.6365
何況	-11.6366
恃强	-11.6375
大曰逝	-11.6375
曾不知	-11.638
疑惑	-11.6382
與造物	-11.6383
無爲自然	-11.6388
日月之光	-11.6388
四兩火	-11.639
除熱	-11.6392
靜默	-11.6394
形影	-11.6394
由是知	-11.6395
前件	-11.6396
有物混成先天地生	-11.6401
對待	-11.6401
經宿	-11.6402
摻	-11.6402
蜈蚣	-11.6408
麝	-11.6408
秋石	-11.641
分毫	-11.641
戊寅	-11.641
掖	-11.6411
渾兮其若濁	-11.6411
致虚極守靜篤	-11.6411
大直若屈	-11.6412
于僞反	-11.6412
禹錫等按蜀本圖經云	-11.6413
下知有之	-11.6413
志心朝禮	-11.6413
儔	-11.6414
柤	-11.6414
丙戌	-11.6414
㝢	-11.6414
撻	-11.6414
殺人衆多以悲哀泣之	-11.6415
雄黄雌黄	-11.6415
毎日	-11.6415
幢	-11.6415
金箔	-11.6415
辛丑	-11.6415
聶	-11.6416
腋	-11.6416
蹲	-11.6416
㦸	-11.6417
蘖	-11.6417
執無兵	-11.6417
忮	-11.6417
奬	-11.6417
益生曰祥	-11.6417
麴	-11.6417
朝甚除	-11.6417
悌	-11.6417
姝	-11.6418
侗	-11.6418
楹	-11.6418
同於道者道亦得之	-11.6419
吉事尚左凶事尚右	-11.6419
芴	-11.6419
諌	-11.6419
𨥥	-11.642
伏犧	-11.6421
以其言下	-11.6421
惻	-11.6421
誶	-11.6421
修之身其德乃眞	-11.6421
洞靈經曰	-11.6421
廕	-11.6422
専	-11.6422
黄疸	-11.6423
陪	-11.6423
其精甚眞其中有信	-11.6424
道之全體	-11.6424
細研如粉	-11.6424
顛倒	-11.6425
批	-11.6425
猖狂	-11.6426
亦若是而已	-11.6426
勤而行之	-11.6426
歧	-11.6426
容乃公	-11.6426
其微易散	-11.6429
塵垢之外	-11.6429
薺	-11.6429
益氣力	-11.643
爲之於未有	-11.6431
陳蔡	-11.6431
權衡	-11.6432
役使鬼神	-11.6433
虞舜	-11.6433
鄉黨	-11.6433
纒	-11.6434
水一升	-11.6435
奔走	-11.6436
雞鳴	-11.6436
粃	-11.6437
惑亂	-11.6437
遊心於	-11.6438
其中有信	-11.6438
優游	-11.6439
夫慈故能勇	-11.644
判官	-11.644
二十三日	-11.6444
教誨	-11.6446
癸未	-11.6448
銅器中	-11.6451
坐卧	-11.6451
孰知其極	-11.6451
乃所以爲	-11.6454
密移	-11.6455
何耶	-11.6455
至道之精	-11.6456
白茅	-11.6457
反崔云	-11.6459
太史公	-11.6461
第一轉	-11.6461
謙和	-11.6462
善貸	-11.6464
煩滿	-11.6472
吾不知其	-11.6475
不可逃	-11.6475
混迹	-11.6476
德畜之	-11.6481
無事無爲	-11.6486
歡樂	-11.6489
邦國	-11.649
赫然	-11.6497
鍋中	-11.65
安五臟	-11.6504
各二兩	-11.6507
無貴賤	-11.651
鉢中	-11.6517
洞靈	-11.6519
以道觀之	-11.6522
累其心	-11.6524
五辛	-11.6525
而人自	-11.6528
二句	-11.6534
生成萬物	-11.6536
玄機	-11.6536
疏云	-11.6544
交爭	-11.6556
獻公	-11.6559
温養	-11.6564
仙骨	-11.6583
借喻	-11.6594
消亡	-11.6594
虞氏	-11.6605
一日夜	-11.661
養三日	-11.6611
可謂至	-11.662
郭象	-11.6627
化胡	-11.6634
空心服	-11.6635
物形之	-11.664
茫茫	-11.6641
鋪底	-11.6644
物各自	-11.6645
千金方	-11.6645
俏	-11.6645
周行而不殆	-11.6647
偊	-11.6649
淬	-11.6649
你	-11.665
萎	-11.665
故道大天大地大王亦大	-11.6651
無象之象	-11.6652
謟	-11.6652
帀	-11.6652
縵	-11.6652
兜	-11.6653
售	-11.6653
聽之不聞名曰希	-11.6654
喧	-11.6654
知此兩者亦楷式	-11.6654
懃	-11.6655
髣髴	-11.6655
守而勿失	-11.6655
箱	-11.6656
惴	-11.6656
塩	-11.6656
删	-11.6656
忙	-11.6657
深根固蒂	-11.6657
汰	-11.6657
是謂襲明	-11.6657
濛	-11.6657
弇	-11.6658
粤	-11.6658
歸根復命	-11.6658
鹵鹹	-11.6659
處無爲之事行不言之教	-11.6659
癸酉	-11.6659
化而欲作	-11.6659
烹小鮮	-11.6659
笙	-11.6659
死而不亡	-11.666
道可道非常道名可名非常名	-11.666
鬳齋林希逸	-11.666
三千六百	-11.666
純氣之守	-11.666
治人事天	-11.6661
脱於淵	-11.6662
眥	-11.6662
以其不爭故天下莫能與之爭	-11.6662
鼠瘻	-11.6662
隠	-11.6662
恪	-11.6662
善用人者爲之下	-11.6663
綿裹	-11.6663
其用不窮	-11.6663
鬱鬱	-11.6663
逄	-11.6663
蜀郡	-11.6664
奎	-11.6665
一以貫之	-11.6667
拾遺	-11.6667
利水道	-11.6667
勢成之	-11.6667
知雄守雌	-11.6669
蠡	-11.6669
獺	-11.6669
漆園	-11.667
圜	-11.667
耨	-11.6671
沉淪	-11.6671
皦	-11.6672
泰和	-11.6673
不爲而自	-11.6673
五臓	-11.6673
杳杳	-11.6675
濟其事	-11.6675
礦	-11.6676
沸湯	-11.6678
春生苗	-11.668
毬子	-11.6682
澆淳	-11.6682
節度使	-11.6683
入於機	-11.6684
門戸	-11.6684
故立天子置三公	-11.6684
龍腦	-11.6685
以其不自生	-11.6686
小兒驚癇	-11.6687
温瘧	-11.6688
宅舍	-11.6697
無思無爲	-11.6704
食令人	-11.6704
而一之	-11.6705
逺近	-11.6705
雞頭	-11.6708
河北	-11.6709
搗末	-11.6713
飛揚	-11.6714
得此道	-11.6714
端坐	-11.6717
伏尸	-11.6719
瓦石	-11.6721
小腹	-11.6723
分胎	-11.6728
萬品	-11.6732
博士	-11.6732
殺伐	-11.6737
變轉	-11.6738
生南海	-11.6738
百千萬	-11.6739
不渝	-11.6739
載營魄抱一能無離乎	-11.6745
鄰國	-11.6747
衆竅	-11.6759
不妨	-11.6762
震動	-11.6765
與物俱	-11.6766
調理	-11.6766
無爲無不爲	-11.6772
深不可測	-11.6776
句曲	-11.6778
所從出	-11.678
國之福	-11.6782
葉細	-11.6782
候冷取出	-11.6786
三丹田	-11.6793
有言曰	-11.6793
太保	-11.6801
士卒	-11.6809
忘其身	-11.6813
水火相	-11.6834
道而行	-11.6834
所存者	-11.6835
遂至於	-11.6846
能成其大	-11.6847
鹽泥	-11.6848
敵國	-11.6855
視之如	-11.6859
茫	-11.6869
衛君	-11.687
者心之	-11.687
成砂子	-11.6876
通紅	-11.6877
蹢	-11.6878
肢	-11.6879
愚智	-11.6879
何術	-11.6883
谷虚	-11.6885
呬	-11.6885
遨	-11.6886
琅玕	-11.6886
蔣	-11.6892
剩	-11.6892
溶	-11.6892
齋醮	-11.6893
埃	-11.6896
詒	-11.6897
綢繆	-11.6897
丙寅	-11.6898
疣	-11.6898
塘	-11.6898
冉	-11.6898
不可得而利不可得而害	-11.6898
苓	-11.6899
檳榔	-11.6899
閻	-11.6899
鞴	-11.6899
其次畏之侮之	-11.69
惔	-11.69
竦	-11.69
䘒	-11.69
址	-11.69
鉗	-11.6901
籬	-11.6901
勇於敢則殺勇於不敢則活	-11.6901
昃	-11.6901
不失其所者乆	-11.6901
觀察	-11.6902
壼	-11.6902
道沖而用之	-11.6902
躁勝寒	-11.6902
不知常妄作凶	-11.6903
鷃	-11.6903
臠	-11.6903
上德若谷	-11.6903
曠然無	-11.6904
診	-11.6904
顓	-11.6904
飄風驟雨	-11.6904
金玉滿堂莫之能守	-11.6904
大者宜爲下	-11.6905
老萊	-11.6905
燋	-11.6905
蔵	-11.6905
酣	-11.6905
疹	-11.6906
湮	-11.6906
喟然	-11.6906
蝦蟆	-11.6907
珊	-11.6907
謌	-11.6907
譜	-11.6907
道沖而用之或不盈	-11.6908
鍜	-11.6908
王乃天	-11.6908
汜	-11.6908
終而復始	-11.6908
郝	-11.6908
及冤句	-11.6909
歆	-11.6909
彷	-11.691
孑	-11.691
沖和之氣	-11.6911
棗肉	-11.6911
眯	-11.6911
幡	-11.6913
臘月	-11.6913
繩墨	-11.6914
益壽	-11.6914
愚癡	-11.6914
巖穴	-11.6915
無爲之事	-11.6915
牙齒	-11.6915
國之賊	-11.6917
黑卵	-11.6917
九日九夜	-11.6918
丞相	-11.692
十八年	-11.692
九轉還丹	-11.6922
泥泥	-11.6923
浮屠	-11.6924
否泰	-11.6924
吾不知其名	-11.6925
儉約	-11.6925
狂屈	-11.6926
納竹筒中	-11.6931
心不動	-11.6933
頓悟	-11.6933
穢濁	-11.6936
蠢動	-11.6937
救護	-11.6937
古之至人	-11.6938
各不同	-11.6939
出没	-11.6941
襄公	-11.6941
皆禀	-11.6942
一國之	-11.6942
驚懼	-11.6946
道乃乆	-11.6947
反司馬	-11.6949
紛然	-11.6949
刳心	-11.696
司契	-11.6966
何從而	-11.6979
必獲	-11.698
抱一能無離	-11.698
馬齒	-11.6982
雖不同	-11.6985
護國	-11.6986
未判	-11.699
救苦	-11.6992
夷節	-11.6995
旬日	-11.7
遂其性	-11.7001
亮反	-11.7005
形兆	-11.7008
四邊	-11.7013
庚桑	-11.7017
一尺二寸	-11.7024
源流	-11.7026
偶然	-11.7028
寂寂	-11.7041
天下莫能	-11.7047
則萬物莫不	-11.705
開皇	-11.7053
少私	-11.7057
紛紜	-11.7061
金錢	-11.7063
抱朴	-11.7063
煮食之	-11.7066
以仁爲	-11.7067
聖㫖	-11.7069
通暢	-11.7071
七錢	-11.7073
神仙之道	-11.7087
晋國	-11.7088
狀似	-11.7107
能知古始是謂道紀	-11.712
柰	-11.712
纂微司馬蘇曹	-11.7126
盜竊	-11.7132
安得而	-11.7133
凡此皆	-11.7135
硼	-11.7136
釡	-11.7142
殽	-11.7144
鉅	-11.7144
窶	-11.7145
淖	-11.7146
笛	-11.7146
抛	-11.7147
言有宗事有君	-11.7147
蒺藜	-11.7148
賄	-11.7148
鈎吻	-11.7148
前識者道之華而愚之始	-11.7149
常善救人	-11.7149
霆	-11.7149
莧	-11.715
瘤	-11.715
田子方	-11.715
智慧出有大僞	-11.7151
常德乃足	-11.7151
培	-11.7151
仍無敵	-11.7151
塑	-11.7152
有國之母可以長乆	-11.7152
鞅掌	-11.7152
殁身不殆	-11.7152
特未定也	-11.7152
窘	-11.7152
嗛	-11.7152
萬物作而不辭	-11.7152
蘇子由曰	-11.7152
綜	-11.7153
戊辰	-11.7153
掣	-11.7153
三十輻共一轂	-11.7153
常無欲以觀其妙	-11.7153
言者不知	-11.7153
黥	-11.7153
橘柚	-11.7154
一曰慈二曰儉三曰不敢爲天下先	-11.7154
所在有之	-11.7154
悞	-11.7154
硋	-11.7155
箋	-11.7155
雖有拱璧以先駟馬不如坐進此道	-11.7155
常德不離	-11.7155
牌	-11.7155
冑	-11.7155
是以聖人抱一爲天下式	-11.7156
憯	-11.7156
搗爲末	-11.7157
上禮爲之而莫之應則攘臂而仍之	-11.7157
泆	-11.7157
迦	-11.7157
軋	-11.7158
貲	-11.7158
大小多少	-11.7159
經新傳卷之	-11.7159
厭飲食	-11.7159
未央	-11.716
黄帝九鼎神丹經訣卷	-11.716
文子問曰	-11.716
沿	-11.7161
勞役	-11.7161
乙酉	-11.7162
换骨	-11.7163
葆光	-11.7163
漢武帝	-11.7164
天尊志心朝禮太	-11.7165
葉一行	-11.7165
淫僻	-11.7166
知其雄守其雌爲天下谿	-11.7167
重積德	-11.7167
罪莫大於可欲	-11.7167
貪狼	-11.7174
郭象註	-11.7177
散而爲	-11.7178
是以君子	-11.7179
驕矜	-11.718
第十九	-11.718
竹筒中	-11.7183
人之所畏	-11.7187
洞房	-11.719
罐子	-11.7192
親戚	-11.7192
二十五年	-11.7193
二十四日	-11.7194
齊侯	-11.7197
石淋	-11.7198
消灾	-11.72
弄丸	-11.72
與人爭	-11.7203
特賜	-11.7206
困苦	-11.7211
無死地	-11.7222
丙子	-11.7227
近於道	-11.7228
穀炁	-11.7234
隴西	-11.724
益謙	-11.7242
有所不及	-11.7247
不以兵强天下	-11.7252
冷無毒	-11.7263
羣仙	-11.7265
莫敢	-11.7268
知此道	-11.7272
一個	-11.7275
略舉	-11.728
貴富	-11.7285
宰相	-11.7289
星之精	-11.729
𤣥同	-11.73
汞二兩	-11.7306
河圖	-11.7307
之驗也	-11.7308
鯉	-11.7313
甲庚	-11.7316
天下歸之	-11.7338
守柔曰强	-11.7343
以知爲	-11.7344
不欲盈	-11.7344
不濡	-11.7354
休止	-11.7359
相續	-11.7365
同乎天	-11.7365
銚内	-11.7368
常有欲	-11.7371
酒漬	-11.7372
洗滌	-11.7374
約束	-11.7376
五倍子	-11.7382
纂微曰	-11.7382
故授之以	-11.7384
雌柔	-11.7386
何所不	-11.7388
犯法	-11.7395
瑶池	-11.7396
悮	-11.7396
搏之不得	-11.7396
蝱	-11.7397
拘攣	-11.7399
忠信之薄	-11.74
迄	-11.74
巵	-11.74
川椒	-11.74
交媾	-11.7401
物或惡之	-11.7401
善貸且成	-11.7401
郭璞	-11.7402
復扶又反	-11.7402
兕	-11.7402
𡨕	-11.7403
貴大患若身	-11.7403
混茫	-11.7403
是以聖人後其身而身先外其身而身存	-11.7403
戎馬生於郊	-11.7403
其寢不夢	-11.7404
庸詎	-11.7404
和其光同其塵	-11.7405
入神室	-11.7405
此章南華經	-11.7405
麥門冬	-11.7405
戊午	-11.7406
欵	-11.7406
將以愚之	-11.7406
不亦悲乎	-11.7407
枷	-11.7407
君子居則貴左用兵則貴右	-11.7407
是以聖人被褐懷玉	-11.7407
噎	-11.7407
錦帔	-11.7408
什伯	-11.7408
愠	-11.7408
代司殺者殺	-11.7408
紫微大帝	-11.7408
耜	-11.7408
鏃	-11.7408
猗	-11.7408
毓	-11.7409
鮓	-11.7409
民至老死不相往來	-11.7409
輯	-11.7409
通乎物之所造	-11.7409
胠篋	-11.7409
蕭炳云	-11.741
各當其分	-11.741
民不畏威	-11.741
鬼一曰	-11.741
民之從事常於幾成而敗之	-11.741
古之善爲道者非以明民將以愚之	-11.741
果而勿强	-11.741
萬物與我爲一	-11.7411
不知知病	-11.7411
遑	-11.7411
旦夕	-11.7411
軼	-11.7411
伎巧	-11.7412
天南星	-11.7412
海藻	-11.7412
富貴而驕自遺其咎	-11.7412
以百姓心爲心	-11.7412
苧	-11.7412
道院	-11.7413
鐘鼓	-11.7413
知白守黑	-11.7414
衆人皆有以	-11.7414
師之所處荆棘生焉大軍之後必有凶年	-11.7415
終不爲大	-11.7415
澶	-11.7416
塵埃	-11.7416
嬪	-11.7417
炬	-11.7417
偃卧	-11.7417
酬酢	-11.7417
與音餘	-11.7417
究竟	-11.7419
賫	-11.742
盥	-11.7421
棺槨	-11.7422
綱維	-11.7422
味辛苦	-11.7423
舉喻	-11.7424
可名於小	-11.7425
稍稍	-11.7427
侍郎	-11.7427
轉徙	-11.7428
部尚書	-11.743
瞿麥	-11.7431
扶桑	-11.7431
肘後	-11.7432
說話	-11.7432
飢寒	-11.7433
飮食	-11.744
驕盈	-11.7442
欣欣	-11.7442
奉勑	-11.7446
學道之士	-11.7448
悔過	-11.745
古本作	-11.7451
未見其	-11.7452
砒黄	-11.7453
辛巳	-11.7457
死生之變	-11.7458
茅君	-11.746
燧人	-11.7462
天下之至精	-11.7465
羽衣	-11.7472
祥雲	-11.7474
智謀	-11.7479
若偷	-11.748
如大豆	-11.7481
巨門	-11.7484
大矣哉	-11.7493
方丈	-11.7494
德之至	-11.7507
崔本	-11.7507
見可欲	-11.7513
天下國家	-11.7515
麋鹿	-11.7522
水火鼎	-11.7532
不可得而名	-11.7532
爲天下王	-11.7533
兵刃	-11.7534
化導	-11.7535
無所分别	-11.7541
所拘	-11.7543
浮遊	-11.755
西嶽	-11.7553
和研	-11.7571
未始不	-11.7573
爭奪	-11.7589
早復	-11.7592
蟲蛇	-11.7599
萬物之變	-11.7599
商周	-11.7624
甚良	-11.7629
以天下觀天下	-11.7642
修道於	-11.7647
水二升	-11.7648
福禄	-11.765
粲	-11.765
陛	-11.7651
虚而不屈動而愈出	-11.7655
痞	-11.7658
惠盎	-11.7659
十二辰	-11.7661
硼砂	-11.7661
釵	-11.7661
㬠乾	-11.7661
涣若冰將釋	-11.7662
蹟	-11.7662
何以知其然邪	-11.7662
寂兮寥兮	-11.7663
兖	-11.7663
妊	-11.7663
比於赤子	-11.7664
陰痿	-11.7665
深根寧極	-11.7665
關楗	-11.7666
揵	-11.7667
管夷吾	-11.7667
仆	-11.7668
橡	-11.7668
經驗後方治	-11.7668
錄	-11.7668
芸	-11.7669
損之又損以至於無爲	-11.7669
口噤	-11.7669
扃	-11.7669
毒蟲不螫猛獸不據攫鳥不搏	-11.767
公乃王	-11.767
觜	-11.7671
金玉滿堂	-11.7671
城隍	-11.7671
臆	-11.7671
頡	-11.7671
纆	-11.7671
暘	-11.7671
周而復始	-11.7672
夫何故以其生生之厚	-11.7672
尸祝	-11.7672
夫慈以戰則勝以守則固	-11.7672
胤	-11.7672
搶	-11.7673
善攝生者	-11.7673
䟽此覆釋	-11.7673
盱	-11.7673
飄風暴雨	-11.7673
舊不著所出州土	-11.7674
菘	-11.7674
衛靈公	-11.7675
强梁者不得其死	-11.7675
踶	-11.7675
賑	-11.7676
嫗	-11.7676
常勝之道	-11.7676
重陽祖師	-11.7676
邴	-11.7676
俗人昭昭	-11.7676
寂泊	-11.7677
斟酌	-11.7677
溟涬	-11.7678
滔	-11.7678
帝嚳	-11.7678
肅肅	-11.7678
貫穿	-11.7678
符璽	-11.7678
瓣	-11.7678
僉	-11.7678
懦	-11.7679
穿鑿	-11.7679
八紘	-11.7679
毫毛	-11.768
蓬蒿	-11.7682
操舟	-11.7682
嚙	-11.7682
研爲末	-11.7684
聯	-11.7684
不行而至	-11.7684
或益之而損	-11.7686
任萬物之自	-11.7686
彌貧	-11.7689
靈芝	-11.769
今醫家	-11.769
刻漏	-11.7691
雙遣	-11.7691
千里之外	-11.7693
澤瀉	-11.7693
廉貞	-11.7694
貴其身	-11.7695
鞋	-11.7696
葛根	-11.7697
漢武	-11.7702
之本在於	-11.7704
蹴然	-11.7706
長三寸	-11.7706
出乎衆	-11.7706
與道合眞	-11.7708
亦猶是也	-11.7713
准前	-11.7718
吐逆	-11.7719
不言之言	-11.7728
可以長久	-11.773
守其分	-11.7731
質朴	-11.7733
壯熱	-11.7736
煑一日	-11.7738
狗馬	-11.7746
白鶴	-11.7747
卯時	-11.7751
别録	-11.7753
一觔	-11.7756
體道之人	-11.776
星宿	-11.7761
司徒	-11.7761
天乃道	-11.7765
驚恐	-11.7765
火煆	-11.7768
必招	-11.7769
政和曰	-11.777
萬物之奥	-11.778
徐清	-11.7786
流蕩	-11.7788
閑居	-11.779
玉泉	-11.7792
西斗	-11.7799
徃來	-11.78
無所係	-11.7807
四十年	-11.7813
虚羸	-11.7815
不相離	-11.7817
命駕	-11.7823
聖像	-11.7828
係累	-11.783
矜夸	-11.7833
天尊志心朝禮空	-11.7835
大壑	-11.7838
因其自然	-11.7848
無有入於無間	-11.7872
其有不	-11.7874
天下之至柔馳騁天下之至堅	-11.7879
日夕	-11.7879
失義而後禮	-11.7885
汞五兩	-11.789
以萬物爲	-11.7892
天尊志心朝禮上	-11.79
無極大道	-11.79
兵者不祥之器非君子之器	-11.7913
嗣教	-11.7915
道常無爲	-11.7919
竹筒	-11.7922
詹	-11.7925
古之善爲士者	-11.7925
栝樓	-11.7927
癘	-11.7929
麩	-11.793
桁楊	-11.7931
兑	-11.7931
禦寇	-11.7932
蠅	-11.7933
也亦言	-11.7933
虺	-11.7934
罽賔	-11.7935
痾	-11.7935
跌	-11.7935
有憂色	-11.7935
絶聖棄知	-11.7935
翌日	-11.7936
嘔吐	-11.7936
葛仙翁	-11.7936
接上章	-11.7937
輕則失臣躁則失君	-11.7937
潦	-11.7937
悸	-11.7937
廪	-11.7937
古之善爲士者微妙玄通深不可識	-11.7937
耄	-11.7937
其日固乆	-11.7937
亦樂得之	-11.7938
侯王若能守萬物將自賔	-11.7938
吾何以知其然哉	-11.7938
善利萬物	-11.7939
甄	-11.7939
泓	-11.794
故聖人云我無爲而民自化	-11.794
天無以清將恐裂地無以寧將恐發	-11.794
天下之物生於有有生於無	-11.794
玄天上帝	-11.7941
袂	-11.7941
以戰則勝	-11.7941
不貴其師不愛其資	-11.7941
持而盈之不如其已	-11.7942
有國之母	-11.7942
三蒼云	-11.7942
高良薑	-11.7942
春夏秋冬	-11.7942
猫	-11.7942
孰誰也	-11.7942
梟	-11.7942
徒勞	-11.7942
范蠡	-11.7943
股肱	-11.7943
安可以爲善	-11.7943
兌	-11.7943
知其白守其黑爲天下式	-11.7943
非陰非陽	-11.7943
鸇	-11.7944
敞	-11.7944
砒霜	-11.7944
砥	-11.7944
貝母	-11.7944
寂漠	-11.7945
與物反矣	-11.7945
松柏	-11.7945
堅强者死之徒	-11.7945
文定曰	-11.7946
無爲之有益	-11.7946
倖	-11.7946
味苦甘	-11.7947
忿怒	-11.7947
糟粕	-11.7947
馘	-11.7947
焱	-11.7948
不敢以取强	-11.7948
天慶觀	-11.7948
扞	-11.7948
壬戌	-11.7948
不言之教無爲之益天下希及之	-11.7949
滑稽	-11.7949
外臺秘要方治	-11.7949
漚	-11.795
承蜩	-11.7951
受其殃	-11.7951
牧羊	-11.7951
鹵莽	-11.7951
白石英	-11.7951
欒	-11.7953
酸鹹	-11.7953
雍州	-11.7955
混融	-11.7955
彭城	-11.7955
鯤鵬	-11.7956
支離其德	-11.7956
濕灰	-11.7957
上仙上靈	-11.7959
癸巳	-11.796
治身治國	-11.7961
偏枯	-11.7963
和睦	-11.7964
季梁	-11.7964
酒浸	-11.7966
見張本舊作	-11.7968
馳騖	-11.7968
骨蒸	-11.7969
夭折	-11.797
浮沉	-11.7971
堂堂	-11.7976
玉局	-11.7976
靡所不	-11.7976
衆狙	-11.7981
羣才	-11.7982
保護	-11.7982
一百丸	-11.7984
鉛錫	-11.7987
虚淡	-11.7987
鈃	-11.7989
己卯	-11.7991
知其雄	-11.7993
通血脉	-11.7993
脗合	-11.7994
晦迹	-11.7995
皮毛	-11.7995
御史	-11.7996
曲折	-11.7996
呼召	-11.7998
如上法	-11.7998
多食令人	-11.7999
演教	-11.8001
房室	-11.8003
唐堯	-11.8004
不足恃	-11.8005
之總名	-11.8005
文彩	-11.8006
豁然	-11.8006
文采	-11.8006
度厄	-11.8008
十日成水	-11.801
天尊志心朝禮靈	-11.8011
元帥	-11.8012
以靜爲	-11.8021
羅列	-11.8021
赤鹽	-11.8023
宗族	-11.8025
小麥	-11.8025
懸解	-11.8036
戰爭	-11.8039
兩脚	-11.8045
愚迷	-11.8046
廬山	-11.8055
寧海	-11.8055
牛乳	-11.8056
天尊志心朝禮一	-11.8057
無所不容	-11.8058
同歸於	-11.8058
毒腫	-11.8076
棲眞	-11.8097
發汗	-11.8114
駕龍	-11.8125
猶豫	-11.8132
是謂微明	-11.8146
道之妙用	-11.8161
天尊志心朝禮道	-11.817
餘怨	-11.819
碧色	-11.8195
檗	-11.8196
焙	-11.8201
鯽魚	-11.8205
儼若客	-11.8207
桴	-11.8208
絹袋盛	-11.8209
蛔蟲	-11.821
不如守中	-11.8211
笥	-11.8212
拈	-11.8213
䧟	-11.8214
癤	-11.8214
惡音烏	-11.8214
萬物無以生將恐滅	-11.8214
垠	-11.8215
挫其銳	-11.8215
濾	-11.8215
萬物將自賔	-11.8215
田甚蕪	-11.8216
壙	-11.8216
爲柱下史	-11.8216
慝	-11.8216
儉故能廣	-11.8216
味甘温無毒主	-11.8216
巍	-11.8217
虚心實腹	-11.8217
分爲二	-11.8217
嗤	-11.8217
合抱之木生於毫末九層之臺起於累土	-11.8217
堆	-11.8217
𣗳	-11.8218
胞胎	-11.8218
既知其子復守其母	-11.8218
是以大丈夫處其厚	-11.8218
缾	-11.8218
天下有始以爲天下母	-11.8218
鱠	-11.8218
使民重死而不遠徙	-11.8219
蒞	-11.8219
餘食贅行	-11.8219
復歸其明	-11.8219
夫兩不相傷故德交歸焉	-11.8219
鯨	-11.8219
善用人者	-11.8219
前後之相隨	-11.822
丙辰	-11.822
得與亡孰病	-11.822
顧歡曰	-11.8221
圖難於其易爲大於其細	-11.8221
宄	-11.8221
溜	-11.8221
跬	-11.8222
杳㝠	-11.8222
陽起石	-11.8222
知不知上	-11.8222
滀	-11.8223
薺苨	-11.8223
馥	-11.8223
之極致	-11.8224
何思何慮	-11.8225
祈禳	-11.8225
再拜稽首	-11.8225
慳	-11.8225
有無之相生	-11.8225
押	-11.8225
杞	-11.8226
燠	-11.8226
終身不救	-11.8226
茗	-11.8226
柴胡	-11.8227
瑕疵	-11.8227
天尊至心信禮玄	-11.8227
野葛	-11.8228
祝融	-11.8229
懋	-11.8229
課	-11.8229
虫	-11.823
鳳翔	-11.823
傖	-11.823
服膺	-11.8231
撞	-11.8231
有車之用	-11.8231
黄庭經云	-11.8231
心使氣	-11.8232
尾閭	-11.8232
妖孽	-11.8232
萬物之祖	-11.8232
如梧子	-11.8233
行於大道	-11.8234
曷嘗	-11.8236
孔孟	-11.8236
非道也哉	-11.8236
傚	-11.8238
百餘年	-11.824
不可得而賤	-11.824
志心敬禮	-11.824
鶴鳴	-11.8242
少昊	-11.8243
咸池	-11.8244
朝暮	-11.8245
令浥浥	-11.8246
澆薄	-11.8247
端倪	-11.8247
大戟	-11.8251
安穩	-11.8252
了却	-11.8253
長梧	-11.8253
逝曰遠	-11.8256
茂盛	-11.8257
六爻	-11.8263
乘乘	-11.8263
光彩	-11.8266
寒無毒	-11.8267
柱史	-11.8267
放縱	-11.8268
血痢	-11.8269
恩惠	-11.8269
孟子所謂	-11.8269
萬八千	-11.827
侍女	-11.8276
此莊子所以	-11.8276
依舊	-11.8279
經絡	-11.8279
巧僞	-11.828
萬物生焉	-11.8281
能全其	-11.8281
束縛	-11.8282
市南	-11.8285
以天地爲	-11.8286
壽考	-11.8286
下皆同	-11.8287
北庭	-11.8289
不釋然	-11.8298
汁飲之	-11.8302
恭惟	-11.8306
汁煑	-11.8306
每一兩	-11.8306
可測	-11.8318
天尊志心朝禮大	-11.8355
忘其形	-11.8356
侯王無以	-11.8362
仍須	-11.8366
宗祖	-11.8371
邊際	-11.8371
老君降	-11.8375
聖人不仁	-11.838
矜其能	-11.8386
長一尺	-11.8413
祥光	-11.8431
天下將自正	-11.8431
濃汁	-11.8432
不生不死	-11.8441
不知其幾	-11.8455
第二十三	-11.8467
以其無死地	-11.848
黄芩	-11.8483
嗌不嗄	-11.8483
芮	-11.8486
壷	-11.8487
北海若曰	-11.8492
懴悔	-11.8494
咳	-11.8495
棱	-11.8495
冬涉川	-11.8496
守靜篤	-11.8498
扉	-11.8499
澹漠	-11.8499
匈	-11.85
和大怨	-11.85
大道汎兮	-11.85
畋獵	-11.85
胝	-11.85
不敢爲主而爲客	-11.8501
堵	-11.8501
儋	-11.8501
䝉	-11.8501
瘞	-11.8502
聵	-11.8502
喚	-11.8503
不畏威	-11.8503
通玄眞經卷之	-11.8503
蒐	-11.8503
肴	-11.8503
摳	-11.8503
愀	-11.8503
藹	-11.8503
塜	-11.8503
巒	-11.8503
踴躍	-11.8504
寒有毒主	-11.8504
嘿	-11.8504
雷公云凡使勿用	-11.8504
其事好還	-11.8504
如享太牢	-11.8504
瘙	-11.8504
這箇	-11.8504
奇物滋起	-11.8505
無狀之狀無物之象	-11.8505
堅硬	-11.8505
塞其兊閉其門終身不勤	-11.8505
渺渺	-11.8505
渚	-11.8505
瀾	-11.8506
紳	-11.8506
溷	-11.8506
酆	-11.8506
鏌鎁	-11.8506
銛	-11.8506
天門開闔能無雌乎	-11.8507
大國不過欲兼畜人小國不過欲入事人	-11.8507
隄	-11.8507
棋	-11.8507
腴	-11.8508
器械	-11.8508
不自矜故長	-11.8509
一以靈谷得一以盈萬物得一以生	-11.8509
彖	-11.8509
天下神器不可爲也爲者敗之執者失之	-11.8509
林東曰	-11.851
▲	-11.851
秦穆公	-11.851
寨	-11.851
於未亂	-11.8511
枘	-11.8511
芚	-11.8511
摯	-11.8512
輔萬物之自然	-11.8512
餔	-11.8513
衺	-11.8513
東坡	-11.8514
有室之用	-11.8514
天網恢恢疏而不失	-11.8515
無思無慮	-11.8516
䑛	-11.8516
秋豪	-11.8516
林疑獨註	-11.8517
兎	-11.8517
隣	-11.8518
婦女	-11.8518
道德二篇	-11.8519
考校	-11.852
荷葉	-11.852
失其常然	-11.852
屋宇	-11.852
傷其手	-11.8521
舶上	-11.8522
禹錫云按日華子云	-11.8522
遁甲	-11.8523
鈔曰此	-11.8523
楊雄	-11.8524
僖公	-11.8524
含垢	-11.8525
貪財	-11.8526
齊諧	-11.8527
硫黃	-11.8527
功曹使者	-11.8532
死肌	-11.8533
地籟	-11.8535
葱白	-11.8536
脩短	-11.8536
神農氏	-11.8539
無狹其所居	-11.8541
楚越	-11.8541
導諛	-11.8542
一日一夜	-11.8544
謙讓	-11.8545
無名有名	-11.8546
日華子	-11.8548
方寸七	-11.8551
解紛	-11.8551
雲霞	-11.8557
火焚	-11.856
洞庭	-11.8564
昭王時	-11.8565
果决	-11.8565
鐵銚	-11.8574
宫宇	-11.8575
忒	-11.858
微温無毒主	-11.8585
甚佳	-11.8588
戊已	-11.8603
目擊	-11.8616
持誦	-11.8621
贅疣	-11.8625
本然之	-11.8637
慈惠	-11.8639
無以異	-11.8669
衡山	-11.8681
第二十五	-11.8687
作匱養	-11.8705
尺許	-11.8705
相尅	-11.8705
普濟	-11.8728
央	-11.8732
新汲水	-11.8735
南華經	-11.8745
此六者	-11.8748
月採陰乾	-11.8767
以至於無爲	-11.8769
及其有事不足以取天下	-11.8771
西川	-11.8774
道德眞經玄德纂䟽卷之	-11.8781
翩	-11.8786
辛苦	-11.8786
勇於敢則殺	-11.8788
齧	-11.8788
太醫助教辨驗藥材許洪校正	-11.879
無轍迹	-11.879
駁	-11.8791
蘸	-11.8791
大道甚夷	-11.8792
日見恠	-11.8792
夫惟不爭故無尤	-11.8792
豺	-11.8793
食於母	-11.8793
不敢進寸而退尺	-11.8794
善抱者不脱	-11.8794
古之道術有在於是者	-11.8794
域中有四大	-11.8794
不道早已	-11.8795
巓	-11.8795
夷希微	-11.8795
猶若畏四鄰	-11.8795
隤	-11.8796
不如其已	-11.8796
飼	-11.8796
秫	-11.8797
以家觀家	-11.8797
自遺其咎	-11.8797
知足者富	-11.8797
同焉皆得	-11.8798
禍兮福所倚福兮禍所伏孰知其極	-11.8798
去智與故	-11.8798
存而不論	-11.8798
籌策	-11.8798
養火七日	-11.8798
循天之理	-11.8799
神無以靈將恐歇谷無以盈將恐竭	-11.8799
癸卯	-11.8799
俚	-11.8799
殂	-11.88
萬乘之	-11.88
冬瓜	-11.88
倐	-11.88
謵	-11.88
柩	-11.8801
詛	-11.8801
掊擊	-11.8801
神鬼神帝生天生地	-11.8801
蚊虻	-11.8801
我獨悶悶	-11.8801
若槁木之枝	-11.8802
蜂蠆	-11.8802
錘	-11.8803
鶴脛	-11.8803
人之不善何棄之有	-11.8803
夫惟不居是以不去	-11.8803
我獨若昏	-11.8803
斡旋	-11.8804
鐵器中	-11.8804
天台山	-11.8804
蠙	-11.8804
蕤	-11.8804
屣	-11.8804
瘟疫	-11.8804
天一生水	-11.8804
相去何若	-11.8804
不足以取天下	-11.8804
廳	-11.8805
犀角	-11.8806
娘	-11.8806
率性而動	-11.8806
沖虚至德眞經解卷之	-11.8807
凋弊	-11.8807
墉	-11.8808
桎	-11.8808
黎庶	-11.8808
輜重	-11.8808
是以聖人處無爲之事行不言之教	-11.8808
引蔓	-11.8809
王郭二眞	-11.881
機緘	-11.881
難得之貨令人行妨	-11.8811
淑	-11.8811
疋	-11.8814
瞑目	-11.8815
節解曰	-11.8816
豬	-11.8816
善爲士者不武	-11.8816
莊列	-11.8816
妖魔	-11.8819
于僞切	-11.8819
觸犯	-11.8819
形而下者	-11.8819
乳細	-11.8819
原㫖	-11.882
技巧	-11.882
知與不知	-11.882
濮	-11.8822
責於人	-11.8823
茫然	-11.8824
枝條	-11.8826
諍	-11.8826
陷溺	-11.883
取二升	-11.8831
補中益氣	-11.8831
展轉	-11.8833
斷穀	-11.8836
第二十一	-11.8836
淵默	-11.8837
二十八年	-11.8839
掘地	-11.8845
蜀都	-11.8846
癸亥	-11.8849
是以難治	-11.885
排膿	-11.8859
厚朴	-11.8861
措意	-11.8862
接引	-11.8864
衛護	-11.8869
主簿	-11.8874
十五里	-11.8887
此二句	-11.8892
遠徙	-11.8903
不自有其	-11.8903
殊途	-11.8906
曹上元	-11.8907
道篇第	-11.8952
天下無道戎馬生於郊	-11.8958
十五行	-11.896
道一而已	-11.899
泉源	-11.9021
父子兄弟	-11.9023
淨洗	-11.9031
樂與餌過客止	-11.9034
竺	-11.9044
九月採	-11.9052
杉	-11.9076
車前子	-11.9085
椹	-11.9088
鐶	-11.9092
故有道者不處	-11.9093
歸根曰靜	-11.9093
摸	-11.9093
視之不見名曰夷	-11.9094
以萬物爲芻狗	-11.9095
黯	-11.9095
不善者吾亦善之	-11.9095
輳	-11.9095
卞	-11.9096
釘	-11.9096
潞	-11.9096
倶	-11.9096
疎	-11.9096
籤	-11.9096
無入而不自得	-11.9097
凱	-11.9097
言有宗	-11.9097
是謂襲常	-11.9097
鞅	-11.9098
或下而取	-11.9098
飭	-11.9098
非以其無私耶故能成其私	-11.9098
峭	-11.9098
肱	-11.9098
禹錫云按蜀本圖經云	-11.9098
楯	-11.9099
絶巧棄利	-11.9099
絶聖棄智民利百倍	-11.9099
雹	-11.9099
又有一種	-11.9099
知北遊	-11.9099
荒兮其未央哉	-11.9099
福善禍淫	-11.9099
七月採	-11.9099
五味令人口爽	-11.9099
礴	-11.9099
嘗試論之	-11.9099
列御寇	-11.9099
大器晚成	-11.91
渦	-11.91
烝	-11.91
孔德之容	-11.91
鎚	-11.9101
犁	-11.9101
綉	-11.9101
蝨	-11.9101
緝	-11.9101
下士聞道大笑之不笑不足以爲道	-11.9101
其天守全	-11.9102
嶮	-11.9102
痒	-11.9102
查	-11.9102
絯	-11.9102
和而不唱	-11.9102
埒	-11.9102
闋	-11.9102
珮	-11.9102
寵爲下	-11.9102
鴳	-11.9102
徭	-11.9103
唯之與阿相去幾何善之與惡相去何若	-11.9103
有德司契	-11.9103
獐	-11.9103
逍	-11.9103
發乎天光	-11.9103
鴻烈解	-11.9103
頡滑	-11.9103
鸛	-11.9103
常無欲可名於小	-11.9103
同於大通	-11.9103
攘臂而仍之	-11.9103
天下希及之	-11.9103
憺	-11.9104
僥倖	-11.9104
去道遠矣	-11.9104
故物或損之而益益之而損	-11.9104
挫其鋭解其紛和其光同其塵	-11.9104
夫輕諾必寡信多易必多難	-11.9104
荆棘生焉	-11.9104
壬申	-11.9104
斧鉞	-11.9104
勾踐	-11.9104
俛仰	-11.9104
心使氣曰强	-11.9105
芘	-11.9105
枳實	-11.9105
鱔	-11.9105
栁	-11.9105
形變之始	-11.9105
韞	-11.9106
殷紂	-11.9106
九月九日	-11.9106
湛然常寂	-11.9106
駡	-11.9106
治人事天莫若嗇	-11.9106
列禦寇	-11.9107
窾	-11.9107
貪嗔	-11.9107
是以聖人執左契而不責於人	-11.9107
夷平也	-11.9107
太上下知有之	-11.9107
乙丑	-11.9107
豪傑	-11.9107
名可名非常名	-11.9107
商賈	-11.9108
悃	-11.9108
治之於未亂	-11.9108
吕惠卿註	-11.9108
氐	-11.9108
猥	-11.9109
暫停	-11.9109
各任其	-11.911
萬壽宫	-11.911
冉冉	-11.911
啞	-11.911
痛不可忍	-11.911
函關	-11.9111
吏官各二人出	-11.9111
獅子	-11.9114
其未兆易謀	-11.9114
禍莫大於不知足	-11.9114
萌芽	-11.9114
稼穡	-11.9114
旒	-11.9114
歘	-11.9115
軍旅	-11.9115
咎莫大於欲得	-11.9116
冰釋	-11.9116
詐偽	-11.9118
輻轂	-11.9119
端拱	-11.912
躁競	-11.912
灾厄	-11.9121
遲速	-11.9122
童蒙	-11.9123
張湛	-11.9124
吴越	-11.9125
赤土釜	-11.9127
嵩高	-11.9128
餘糧	-11.9128
萬億	-11.913
嗜好	-11.9133
無所措其	-11.9135
羽毛	-11.9137
全德之人	-11.914
和匀	-11.9147
紫蘇	-11.9147
光曜	-11.9151
善養生者	-11.9153
開題	-11.9159
水銀一斤	-11.9162
銅器	-11.9162
邪魅	-11.9165
淡乎其無味	-11.9172
虚靖	-11.9176
未之有也	-11.9182
至人之德	-11.9193
萬四千	-11.9194
三十二天	-11.9195
天尊志心朝禮至	-11.9206
眞誥	-11.9215
眞武殿	-11.9217
消痰	-11.923
是以有德	-11.9231
古帝王	-11.9232
煮一伏時	-11.9243
情慾	-11.9253
帝王之功	-11.9263
流浪	-11.9284
曹參	-11.9284
無也字	-11.9306
泄天機	-11.9315
泥固濟	-11.9317
銖半	-11.9335
秋七月	-11.9347
之别名	-11.9365
說經臺	-11.9381
樂推而不厭	-11.9385
黛	-11.9394
疸	-11.9395
靜之徐清	-11.9396
好呼報反	-11.9398
茆	-11.9398
藁	-11.9399
凈	-11.9402
味苦平無毒主	-11.9402
升麻	-11.9403
陌	-11.9405
輜	-11.9406
美言不信	-11.9406
皷	-11.9407
心之所念	-11.9408
悵	-11.9408
擿	-11.9408
至三更	-11.9408
膾	-11.9408
故天下莫能與之爭	-11.9409
駑	-11.9409
掊	-11.9409
應化天尊志心朝禮	-11.9409
故不可得而親	-11.941
資財有餘	-11.941
子孫祭祀不輟	-11.941
漻	-11.941
或行或隨	-11.941
盃	-11.9411
禹錫云	-11.9411
小便不通	-11.9411
紊	-11.9411
艷	-11.9411
偏將軍處左	-11.9411
劈	-11.9411
盗賊	-11.9411
愼終如始則無敗事	-11.9412
無遺身殃	-11.9412
上將軍處右	-11.9412
啜	-11.9412
贄	-11.9412
以守則固	-11.9412
千九百	-11.9413
勇於不敢則活	-11.9413
紺	-11.9413
生生化化	-11.9413
梏	-11.9413
漓	-11.9413
百姓謂我自然	-11.9414
夫樂殺人者不可得志於天下	-11.9414
蒔	-11.9414
汶	-11.9414
耒	-11.9415
刷	-11.9415
此兩者同出而異名	-11.9415
涇	-11.9415
泔	-11.9415
跛	-11.9415
鏗	-11.9415
跣	-11.9416
道德眞經䟽義卷之	-11.9416
衹	-11.9416
關鍵	-11.9416
嗒	-11.9416
久服輕身	-11.9416
紹興	-11.9416
與物委蛇而同其波	-11.9416
詆	-11.9416
嫉妬	-11.9416
廵	-11.9417
斄	-11.9417
荽	-11.9418
玷	-11.9418
寮	-11.9418
萬物並作吾以觀其復	-11.9418
成玄英	-11.9418
菓	-11.9419
踶跂	-11.9419
甦	-11.9419
與神爲一	-11.9419
縳	-11.9419
不可勝計	-11.9419
白馬牙	-11.9419
竊竊然	-11.9419
韜晦	-11.9419
常道常名	-11.9419
黄耆	-11.9419
耿	-11.9419
謐	-11.942
清靜爲天下正	-11.942
德充符	-11.942
僨驕	-11.942
各二人出	-11.942
生生不窮	-11.942
者甚衆	-11.942
冗	-11.9421
知者不博博者不知	-11.9421
魚不可脱於淵國之利器不可以示人	-11.9421
魚鱉	-11.9421
範圍	-11.9421
衾	-11.9422
剽	-11.9422
酸棗	-11.9422
筦	-11.9422
俗人察察	-11.9422
竽	-11.9423
舄	-11.9423
産婦	-11.9423
强知之病	-11.9424
處上而人不重處前而人不害	-11.9425
寥廓	-11.9426
迄今	-11.9426
埏	-11.9426
痔瘻	-11.9427
低頭	-11.9427
孟浪	-11.9428
䂓	-11.9428
虚極妙本	-11.9429
赤松子	-11.9429
耆艾	-11.9429
蝦	-11.9429
夏革	-11.9429
緬	-11.943
以其生生之厚	-11.943
筋脉	-11.9431
心凝形釋	-11.9431
遷徙	-11.9432
龔	-11.9432
攀縁	-11.9433
柚	-11.9435
呪詛	-11.9436
見江南古藏本舊作	-11.9437
玉陛下	-11.9437
明慎奉行如律令老君曰	-11.9441
詹何	-11.9441
漆固口	-11.9441
聖智仁義	-11.9442
四十里	-11.9442
微温主	-11.9445
半盞	-11.9445
抱朴子云	-11.9447
己亥	-11.9449
温凉	-11.9451
八十一年	-11.9452
朱陵	-11.9454
枯骨	-11.9454
入水火鼎	-11.9458
太宰	-11.9459
毫芒	-11.9469
所從來	-11.9498
昔之得一者	-11.9522
目眩	-11.9531
味辛温	-11.954
日足取出	-11.9542
佑聖	-11.9569
麋	-11.9589
以智治國國之賊	-11.9589
濃煎	-11.9601
京城	-11.9611
二十丸	-11.9622
爐鼎	-11.9643
是謂不道	-11.9677
晬	-11.969
胡桃	-11.9701
一定之	-11.9713
帝君臣等至心歸命	-11.9715
益之而損	-11.9718
罨	-11.9719
鎔成汁	-11.9722
哇	-11.9722
生生之厚	-11.9722
瘖	-11.9723
潁	-11.9723
天下柔弱莫過於水	-11.9725
不爭而善勝	-11.9726
螳蜋	-11.9726
躓	-11.9727
靜曰復命	-11.9727
蹵	-11.9727
蕎麥	-11.9728
葉二行	-11.9729
芧	-11.9729
豫若冬涉川	-11.9729
是謂行無行	-11.973
袐	-11.973
槍	-11.973
畸	-11.973
吾不知其名字之曰道	-11.973
次前者前章	-11.973
蠓	-11.9731
難易相成	-11.9731
斗門方治	-11.9731
無始無終	-11.9731
秋毫之末	-11.9731
千金翼	-11.9732
紗	-11.9732
常善救物	-11.9732
知止所以不殆	-11.9733
躔	-11.9733
鵰	-11.9733
璞	-11.9733
呉	-11.9734
渤海	-11.9734
愛以身爲天下	-11.9734
鑊	-11.9734
王子搜	-11.9734
靳	-11.9734
此三者不可致詰故混而爲一	-11.9734
悗	-11.9735
失德而後仁	-11.9735
亦可單用	-11.9735
能無知乎	-11.9736
跂者不立	-11.9736
皈依	-11.9736
吾言甚易知甚易行天下莫能知莫能行	-11.9736
强梁者不得其死吾將以爲教父	-11.9736
弧	-11.9737
是故甚愛必大費多藏必厚亡	-11.9737
須㬰	-11.9737
数	-11.9737
不將不迎	-11.9737
衿	-11.9738
善閉無關楗而不可開	-11.9738
知不知上不知知病	-11.9738
浩劫	-11.9738
聖人亦不傷人	-11.9738
温伯雪子	-11.9738
天之道不爭而善勝	-11.9738
清凈	-11.9738
勝而不美	-11.9739
怳惚	-11.9739
道之眞以治身	-11.9739
一陰一陽	-11.9739
不自是故彰	-11.9739
形神俱妙	-11.9739
斑猫	-11.9739
詘	-11.9739
天之道利而不害	-11.9739
釀酒	-11.974
後且先	-11.974
譔	-11.974
擯	-11.974
臚	-11.974
摶之不得	-11.974
物得以生謂之德	-11.974
同於德者德亦得之同於失者失亦得之	-11.974
昏昏默默	-11.9741
長之育之	-11.9741
氾	-11.9741
琭琭	-11.9741
孟孫	-11.9741
屠羊說	-11.9741
以閲衆甫	-11.9741
禧	-11.9741
販	-11.9741
兩者各得其所欲故大者宜爲下	-11.9742
有罪以免耶	-11.9742
土苴以治天下	-11.9742
其政察察其民缺缺	-11.9742
打碎	-11.9742
菟	-11.9742
包褁	-11.9743
人之道則不然損不足以奉有餘	-11.9743
觚	-11.9743
梁惠王	-11.9744
長於上古	-11.9744
建盞	-11.9744
㡭	-11.9745
下德爲之而有以爲	-11.9745
俗人昭昭我獨若昏俗人察察我獨悶悶	-11.9745
訝	-11.9745
名實不入	-11.9745
彌綸	-11.9745
冨貴	-11.9745
奔競	-11.9745
誚	-11.9745
倩	-11.9745
簾	-11.9746
忿爭	-11.9746
璣	-11.9746
零落	-11.9746
盎	-11.9746
弦歌	-11.9747
衽	-11.9747
城郭	-11.9747
离	-11.9748
弁	-11.9748
攺	-11.9749
其義亦然	-11.9749
校量	-11.9751
夫唯嗇	-11.9751
闇昧	-11.9751
組	-11.9752
雒	-11.9753
寬裕	-11.9754
疵癘	-11.9754
扵	-11.9754
春正月	-11.9756
湛寂	-11.9756
行下孟切	-11.9756
民不畏死	-11.9758
而竊之	-11.976
六骸	-11.9762
輕諾	-11.9766
孤竹	-11.9767
襌家	-11.9767
粲然	-11.9768
見張本舊闕	-11.9768
華胥	-11.9768
統領	-11.977
己丑	-11.979
第二十四	-11.9836
第二十二	-11.984
第二十八	-11.984
太上玄元	-11.9882
苛察	-11.9908
郡縣	-11.9912
不貴貨	-11.9923
福地眞人	-11.9962
是以聖人常善救人故無棄人	-11.9974
開其兊濟其事終身不救	-11.9989
往而不害安平泰	-11.9992
銀石器中	-12.003
嚴君平	-12.0037
澼	-12.0045
梭	-12.0049
自極七息	-12.0051
德乃豐	-12.0051
山茱萸	-12.0052
蜂房	-12.0052
開其兊	-12.0057
常生常化	-12.0059
葡萄	-12.006
闗	-12.006
藐	-12.006
推功於物	-12.0061
讁	-12.0061
顏回	-12.0061
惡烏路反	-12.0062
持而盈之	-12.0062
丹陽宗師	-12.0063
蕪菁	-12.0064
瓤	-12.0064
渥	-12.0064
逍遙	-12.0065
樸雖小天下不敢臣	-12.0065
航	-12.0065
萹	-12.0065
裸	-12.0065
蓏	-12.0066
畿	-12.0066
失仁而後義	-12.0066
罔罟	-12.0066
鉞	-12.0066
然後乃至大順	-12.0066
大威至矣	-12.0066
之精也一名	-12.0066
鴆	-12.0067
胼	-12.0067
是以君子終日行不離輜重	-12.0067
搗取汁	-12.0067
簞	-12.0067
夫唯不爭故天下莫能與之爭	-12.0067
悪	-12.0067
汒	-12.0067
臺榭	-12.0068
飫	-12.0069
知者不博	-12.0069
皿	-12.0069
唐玄宗	-12.0069
長短之相形	-12.0069
亦復如是	-12.0069
以死懼之	-12.0069
難終難窮	-12.0069
不可得志於天下	-12.0069
是以聖人爲腹不爲目故去彼取此	-12.007
美言可以市	-12.007
故善人不善人之師不善人善人之資	-12.007
檻	-12.007
幘	-12.0071
璇	-12.0071
體合於心	-12.0071
此三者以爲文不足故令有所屬	-12.0071
感而遂通天下之故	-12.0071
捨其慈且勇捨其儉且廣捨其後且先	-12.0071
不射之射	-12.0071
孰能以有餘奉天下	-12.0071
圍於陳蔡	-12.0071
吾不敢爲主而爲客不敢進寸而退尺	-12.0071
漢文帝	-12.0071
喝	-12.0071
儉且廣	-12.0071
重爲輕根	-12.0072
是謂用人之力是謂配天古之極	-12.0072
庻	-12.0072
臛	-12.0072
翰林學士	-12.0073
取足於身	-12.0073
黷	-12.0073
卜筮	-12.0073
難易之相成	-12.0073
佯	-12.0074
鑰	-12.0074
塞兊閉門	-12.0074
誰之子	-12.0074
懈怠	-12.0074
吾是以知無爲之有益	-12.0074
溉	-12.0075
梧桐	-12.0075
𦍙	-12.0075
枸	-12.0075
是以聖人欲不欲不貴難得之貨學不學	-12.0075
噏	-12.0075
如彈丸	-12.0075
洫	-12.0075
天門開闔能爲雌乎	-12.0076
坦然而善謀	-12.0076
窈兮	-12.0076
蘧廬	-12.0076
唵	-12.0076
善者不辯辯者不善	-12.0076
慟	-12.0076
尼父	-12.0076
攢	-12.0077
龐	-12.0077
有器之用	-12.0078
噐	-12.0078
黃芽	-12.0078
緑豆	-12.0079
虚室生白	-12.0079
凛	-12.0079
麗姬	-12.0079
晦朔	-12.008
𡨋	-12.008
睛	-12.008
昴	-12.0081
原憲	-12.0081
盤桓	-12.0082
黄蠟	-12.0083
巧拙	-12.0083
出入無間	-12.0083
軻	-12.0083
扆	-12.0083
夙夜	-12.0083
紛擾	-12.0084
郭璞云	-12.0084
萬物皆備於我	-12.0085
零陵	-12.0085
浮丘公	-12.0085
煩渴	-12.0086
月十八日	-12.0087
冬十月	-12.0088
彝	-12.0088
陳詳道註	-12.0089
洪範	-12.0092
上善之人	-12.0095
太陽之精	-12.0097
有萬不同	-12.0099
有人於此	-12.01
六一泥固濟	-12.0103
抑揚	-12.0103
感激	-12.0104
故或下以取或下而取	-12.0104
爪兵無所容其刃夫何故以其無死地	-12.0106
澤蘭	-12.0107
右件藥	-12.0107
己酉	-12.0122
蓋聞善攝生者	-12.0123
牂	-12.0149
國安民	-12.017
十有八	-12.0212
第二十七	-12.0257
生之畜之長之育之成之熟之養之覆之	-12.0287
齊物篇	-12.0291
第二十六	-12.0306
濕紙	-12.0346
及吾無身吾有何患	-12.0354
』	-12.0383
蛭	-12.04
海藥云謹按	-12.0402
白芷	-12.0403
飄飄	-12.0404
餳	-12.0405
隨之不見其後	-12.0405
守藏史	-12.0406
傀	-12.0406
拏	-12.0406
同出而異名	-12.0406
上德不德是以有德	-12.0406
以人滅天	-12.0406
迎之不見其首	-12.0407
躁則失君	-12.0407
躑躅	-12.0407
善者吾善之	-12.0407
柘	-12.0407
魍魎	-12.0408
肪	-12.0408
天下莫能知莫能行	-12.0409
掲	-12.0409
勞形怵心	-12.0409
方而不割	-12.041
聖人之道爲而不爭	-12.041
羨	-12.041
混元式	-12.041
疝	-12.0411
吴茱萸	-12.0411
嘗又與來明日又與之見壺子	-12.0411
窈窈冥冥	-12.0412
繟然而善謀	-12.0412
見賢遍反	-12.0412
常知楷式是謂玄德	-12.0412
其精甚眞	-12.0412
是以聖人方而不割	-12.0412
誹	-12.0412
德至同於初	-12.0412
天得一以清	-12.0412
强行者有志	-12.0412
不可得而親不可得而疏	-12.0412
阨	-12.0413
德者同於德	-12.0413
用人之力	-12.0413
榛	-12.0413
菀	-12.0413
智周萬物	-12.0414
絶而棄之	-12.0414
物而不慴	-12.0414
萇弘	-12.0414
與陽同波	-12.0414
以道佐人主者不以兵强天下其事好還	-12.0415
搗碎	-12.0415
天下難事必作於易天下大事必作於細	-12.0415
懟	-12.0415
扔	-12.0415
金玉滿堂莫之能守富貴而驕自遺其咎	-12.0415
無古無今	-12.0415
菹	-12.0415
上義爲之而有以爲	-12.0415
而貴食母	-12.0415
楸	-12.0415
旬之時	-12.0415
燒作灰	-12.0415
煌煌	-12.0416
黄轝	-12.0416
菁	-12.0416
鈔論語	-12.0416
愿	-12.0416
錢塘	-12.0416
水善利萬物而不爭處衆人之所惡	-12.0416
爲天下式常德不忒復歸於無極	-12.0416
朵	-12.0416
涘	-12.0416
畎	-12.0416
随	-12.0416
日夜相代	-12.0417
呷	-12.0417
和以天倪	-12.0417
斵	-12.0417
吐故納新	-12.0417
乂	-12.0417
今按别本注云	-12.0417
爲天下谷爲天下谷常德乃足復歸於樸	-12.0417
旄	-12.0418
耎	-12.0418
洞霄宫	-12.0418
天道無親	-12.0418
忱	-12.0418
芻豢	-12.0418
郵	-12.0418
善者果而已	-12.0418
與天合德	-12.0418
瀨鄉	-12.0418
繚	-12.0418
人哭亦哭	-12.0419
樸散則爲器聖人用之則爲官長	-12.0419
人之所教亦我義教之	-12.0419
纎	-12.0419
至仁無親	-12.0419
天之道其猶張弓乎	-12.042
管籥	-12.042
不可不察也	-12.042
與接爲構	-12.042
不自伐故有功	-12.042
汧	-12.042
延年益壽	-12.042
深根固蔕	-12.042
建之以常無有	-12.042
尿血	-12.0421
涅	-12.0421
贖	-12.0421
隊	-12.0421
上仁爲之而無以爲	-12.0422
背叛	-12.0422
奈何以死懼之	-12.0422
澈	-12.0422
本來妙心	-12.0422
玲瓏	-12.0423
若有若無	-12.0423
萑	-12.0423
䧺	-12.0423
以手摩	-12.0424
絲竹	-12.0424
歸根曰靜靜曰復命	-12.0424
巾櫛	-12.0424
戯	-12.0424
相去遠矣	-12.0424
赤小豆	-12.0424
黔首	-12.0424
禍福倚伏	-12.0424
圾	-12.0425
驚怖	-12.0426
馳騁田獵令人心發狂	-12.0427
牘	-12.0427
甌	-12.0427
倏忽	-12.0429
陞	-12.0429
塗炭	-12.0429
知其所由然	-12.0429
紿	-12.043
勛	-12.043
冰雪	-12.043
規規	-12.0431
旋添	-12.0431
正月七日	-12.0432
二百餘年	-12.0432
卉	-12.0432
見江南古藏本舊闕	-12.0433
奏朝廷	-12.0434
網羅	-12.0434
三百八十四	-12.0435
與化爲人	-12.0436
此數語	-12.044
驚駭	-12.0442
百里奚	-12.0444
溪谷	-12.0445
艱難	-12.0445
憎愛	-12.0446
玉笋	-12.0447
燮	-12.0447
虢	-12.0448
何往不	-12.0454
符此符	-12.0458
乾地黄	-12.0471
范氏	-12.048
者異矣	-12.0514
煑一伏時	-12.0523
固濟口縫	-12.0575
如法固濟	-12.0655
民自富	-12.0669
天之道損有餘補不足	-12.0706
可不謹	-12.074
二十四三十六三十	-12.0745
天下多忌諱而民彌貧	-12.0746
崗	-12.0751
浮萍	-12.0757
鈇	-12.0757
傷寒類要	-12.0758
状	-12.0758
擠	-12.0759
枋	-12.076
䜴	-12.076
楊氏産乳	-12.0761
神符白雪	-12.0762
窩	-12.0762
纇	-12.0762
無名之朴	-12.0762
炁四十九口吹	-12.0762
坳	-12.0762
行下孟反	-12.0763
高者抑之下者舉之有餘者損之不足者	-12.0764
氣形質具而未相離	-12.0764
怙	-12.0764
孰能濁以靜之徐清	-12.0764
蚛	-12.0765
緼	-12.0765
民之難治	-12.0766
溫	-12.0767
䵟	-12.0767
痂	-12.0767
蒭	-12.0767
腠	-12.0767
白玉蟾	-12.0768
擦	-12.0768
得之若驚失之若驚是謂寵辱若驚	-12.0768
地得一以寧	-12.0768
筍	-12.0768
蘘	-12.0768
金闕帝君	-12.0768
已乎已乎	-12.0768
合氣於漠	-12.0769
詵	-12.0769
故貴以身爲天下若可寄天下	-12.0769
富有天下	-12.0769
樸散則爲器	-12.0769
自本自根	-12.0769
伯昏無人	-12.0769
猨狙	-12.0769
非以其無私邪故能成其私	-12.0769
口不能言	-12.077
翮	-12.077
揣而鋭之不可長保	-12.077
沂	-12.077
筐	-12.0771
利而不害	-12.0771
簣	-12.0771
宎	-12.0771
乘乘兮若無所歸	-12.0771
我愚人之心也哉純純兮	-12.0771
褚	-12.0771
曰吾惡乎知之	-12.0771
虵	-12.0772
塋	-12.0772
搉	-12.0772
二曰儉	-12.0772
失之若驚	-12.0772
天下皆謂我道大似不肖	-12.0772
虚而不屈	-12.0772
尸疰	-12.0772
嬉	-12.0772
廣利方治	-12.0772
認而有之	-12.0772
賅	-12.0772
慈且勇	-12.0773
槖	-12.0773
沍	-12.0773
遘	-12.0773
抗兵相加	-12.0773
矛	-12.0773
萬物負陰而抱陽冲氣以爲和	-12.0773
諠	-12.0773
誼	-12.0773
故堅强者死之徒柔弱者生之徒	-12.0774
眡	-12.0774
浦	-12.0774
郄	-12.0774
使心不亂	-12.0774
是以聖人無爲故無敗無執故無失	-12.0774
烘	-12.0774
盗跖	-12.0774
修之國其德乃豐修之天下其德乃普	-12.0774
申徒狄	-12.0774
道生之德畜之物形之勢成之	-12.0774
可以盡年	-12.0775
灌溉	-12.0775
辯者不善	-12.0775
民之飢	-12.0775
上士聞道勤而行之中士聞道若存若亡	-12.0776
嬌	-12.0776
荐	-12.0776
菱	-12.0776
成上色	-12.0777
𤺋	-12.0777
無聲之聲	-12.0777
鷂	-12.0777
徤	-12.0777
音聲相和	-12.0777
安平泰	-12.0777
嘶	-12.0777
緜	-12.0777
諄諄	-12.0777
而貴求食於母	-12.0777
子午卯酉	-12.0777
美言可以市尊行可以加人	-12.0778
嘘吸	-12.0778
螻蟻	-12.0778
坂	-12.0778
自本自根未有天地自古以固存	-12.0778
如梧桐子	-12.0778
寘	-12.0778
可道可名	-12.0778
掾	-12.0779
狶韋氏	-12.0779
吹萬不同	-12.0779
博者不知	-12.0779
博大眞人	-12.0779
誅戮	-12.0779
孟孫氏	-12.0779
彭蒙	-12.0779
亦將不欲	-12.078
頊	-12.078
近取諸身	-12.0781
藏諸用	-12.0782
穎濱蘇轍曰	-12.0782
楓	-12.0782
肺痿	-12.0783
董氏曰	-12.0783
申酉	-12.0784
道生之德畜之	-12.0784
邕	-12.0785
駝	-12.0785
蹇淺	-12.0785
文始先生	-12.0785
儛	-12.0786
高者抑之下者舉之	-12.0787
虔誠	-12.0788
二十九日	-12.0788
寤寐	-12.0788
古之道術	-12.0788
吴郡	-12.0788
潄	-12.0789
寅申	-12.0789
市南宜僚	-12.0789
魒	-12.079
膲	-12.0791
㕮咀	-12.0792
檢校	-12.0796
蕩滌	-12.0797
蝸牛	-12.0798
亡過某	-12.0806
故以身觀身以家觀家以	-12.0812
一錢點	-12.0831
味甘辛	-12.0846
紙筋	-12.0862
百嵗	-12.096
鹿茸	-12.1011
痰飲	-12.1028
荘	-12.1042
採根暴乾	-12.1066
狹其所居	-12.1081
寅卯	-12.1095
厭其所生	-12.1097
伏龍肝	-12.1111
唐明皇	-12.1116
縁於不得已	-12.1117
二月三月	-12.1126
躅	-12.1128
五千餘言	-12.1129
鴻濛	-12.1131
𥐼砂	-12.1131
爻三十時加至	-12.1131
豫兮若冬涉川	-12.1132
町	-12.1133
膻	-12.1134
我獨若遺	-12.1134
長短相形	-12.1134
以百姓爲芻狗	-12.1134
萬物將自化	-12.1135
蜜陀僧	-12.1135
逗機	-12.1135
鑿枘	-12.1135
蒯	-12.1135
捜	-12.1136
域中有四大而王居其一焉	-12.1136
璨	-12.1137
既得其母以知其子	-12.1137
可以託天下	-12.1137
伽	-12.1137
繕	-12.1137
丸如菉豆大	-12.1137
唯之與阿	-12.1138
信者吾信之不信者吾亦信之德信	-12.1138
猶兮其貴言	-12.1138
味苦寒無毒主	-12.1138
非以明民	-12.1138
遠曰反	-12.1139
自伐者無功	-12.1139
至言去言	-12.1139
北宫子	-12.1139
倉廪	-12.114
巿	-12.114
愛以身爲天下若可託天下	-12.114
熔	-12.114
鈐	-12.114
高下相傾	-12.114
善者不辯	-12.1141
勞而無功	-12.1141
呻吟	-12.1141
何謂貴大患若身	-12.1141
涬	-12.1141
長春宗師	-12.1141
故抗兵相加哀者勝矣	-12.1141
褚氏管見	-12.1141
用其光復歸其明	-12.1141
或下以取	-12.1141
孛	-12.1141
天尊地卑	-12.1141
挫其銳解其紛和其光同其塵	-12.1141
縞	-12.1141
鬳齋	-12.1142
不欲琭琭如玉落落如石	-12.1142
巋	-12.1142
螟	-12.1142
狐剛子	-12.1142
形全精復	-12.1143
落落如石	-12.1143
女媧	-12.1143
奸詐	-12.1143
流浪生死	-12.1144
人以其言下之欲先人以其身後之	-12.1144
孝悌	-12.1144
不榮通不醜窮	-12.1144
飂	-12.1144
不處其薄居其實不居其華故去彼取此	-12.1144
爲腹不爲目	-12.1144
吾得執而殺之	-12.1144
故終無難	-12.1144
柔勝剛弱勝强	-12.1144
黿	-12.1144
常有欲以觀其徼	-12.1145
僨	-12.1145
兵兕無所投其角虎無所措其	-12.1145
其政察察	-12.1145
出而謂列子曰	-12.1145
萬物負陰而抱陽	-12.1145
曵	-12.1146
庶人之劍	-12.1146
羅什	-12.1146
吾見其不得已	-12.1146
爲無爲事無事	-12.1147
感物而動	-12.1147
輔弼	-12.1147
鶚	-12.1147
擁護	-12.1147
此兩者同出而異名同謂之玄	-12.1147
草木之生也柔脆其死也枯槁	-12.1148
眉睫	-12.1148
歅	-12.1148
臯陶	-12.1148
呌	-12.1149
䕃	-12.1149
嶠	-12.1149
是以侯王自謂孤寡不穀	-12.1149
搰	-12.115
聒	-12.115
機發於踵	-12.1151
膠漆	-12.1151
强大處下柔弱處上	-12.1151
遐邇	-12.1152
上德無爲而無以爲	-12.1152
笏	-12.1153
仰觀俯察	-12.1153
哽	-12.1153
誠惶誠恐稽首	-12.1153
五帝三王	-12.1154
闈	-12.1155
姻	-12.1155
簪	-12.1156
鋒刃	-12.1156
藏天下於天下	-12.1157
自此以下	-12.1157
張君房	-12.1158
後之學者	-12.1159
餽	-12.1159
馬牙硝	-12.1161
法右用	-12.1162
鬚髮	-12.1162
骨肉都融	-12.1163
㸔	-12.1163
諄	-12.1166
瓜蒂	-12.1167
耘	-12.117
每日空心	-12.1177
必然之理	-12.118
終日號而嗌不嗄和之至	-12.1182
紙裹	-12.1208
以死生爲	-12.1212
奪之必固與之是謂微明	-12.1239
七月八月	-12.124
知其所以然	-12.1262
將欲奪之必固與之	-12.1435
沌	-12.144
誠全而歸之	-12.1483
蔗	-12.1503
入灰缸	-12.1507
芨	-12.1508
鍵	-12.1508
牛蒡	-12.1509
恁	-12.151
棒	-12.1513
䛕	-12.1515
易知易行	-12.1516
見素抱樸	-12.1516
潑	-12.1516
泡	-12.1517
鱉甲	-12.1518
猶兮若畏四鄰	-12.1519
懾	-12.1519
鯁	-12.1519
純粹而不雜	-12.1519
鍔	-12.1519
秦艽	-12.1519
良賈深藏若虚君子盛德容貌若愚	-12.1519
萬物皆往資焉而不匱	-12.152
猶其貴言	-12.152
醪	-12.152
㤀	-12.152
禹錫等按藥性論云	-12.152
百姓皆注其耳目	-12.1521
高三四尺	-12.1521
迸	-12.1521
多藏必厚亡	-12.1521
天地相合以降甘露	-12.1522
咳逆上氣	-12.1522
獨往獨來	-12.1522
能長且乆	-12.1522
除情去欲	-12.1523
必有餘怨	-12.1523
無端之紀	-12.1523
民至老死	-12.1523
何棄之有	-12.1524
倉甚虚	-12.1524
柔勝剛	-12.1524
運而無所積	-12.1524
魘	-12.1524
杼	-12.1524
德充於内	-12.1524
物物而不物於物	-12.1524
網罟	-12.1524
澆漓	-12.1524
宂	-12.1524
凄	-12.1525
大國者下流	-12.1525
摽	-12.1525
方而不割廉而不劌直而不肆光而不耀	-12.1525
棗核	-12.1525
覧	-12.1525
婪	-12.1525
古之善爲道者	-12.1525
恬淡爲上	-12.1525
前後相隨	-12.1526
湍	-12.1526
天地相合以降甘露人莫之令而自均	-12.1526
豨	-12.1526
涿鹿	-12.1526
弱之必固强之將欲廢之必固興之將欲	-12.1526
大無不包	-12.1526
籌筭	-12.1526
菲	-12.1526
鮑焦	-12.1526
豎	-12.1527
道者同於道	-12.1527
與天地合德	-12.1527
毫釐	-12.1527
山無蹊隧澤無舟梁	-12.1527
此合喻也	-12.1527
如字又音	-12.1527
常因自然而不益生	-12.1527
天下之至柔章第四十三	-12.1527
肋	-12.1527
塼	-12.1527
撃	-12.1528
痼	-12.1528
啍啍	-12.1528
栝	-12.1528
愴	-12.1528
鏌	-12.1528
慎終如始則無敗事	-12.1528
大道汎兮其可左右	-12.1528
其死也枯槁	-12.1528
茲	-12.1528
民之難治以其上之有爲是以難治	-12.1528
咀	-12.1528
生之所無以爲	-12.1529
蘧伯玉	-12.1529
駴	-12.1529
知足不辱知止不殆可以長乆	-12.1529
死生亦大矣	-12.1529
殛	-12.1529
將欲廢之必固興之	-12.1529
圍繞	-12.1529
陸希聲曰	-12.1529
様	-12.1529
甘其食美其服安其居樂其俗	-12.1529
参	-12.1529
織而衣	-12.153
是謂用人之力	-12.153
桔	-12.153
繙	-12.153
抉	-12.1531
縶	-12.1531
岫	-12.1532
黼黻	-12.1532
此兩者或利或害天之所惡孰知其故	-12.1532
吾將以爲教父	-12.1532
遡	-12.1532
愜	-12.1533
體盡無窮	-12.1533
天下莫柔弱於水而攻堅强者莫之能先	-12.1533
涽	-12.1533
知美之爲美	-12.1533
訞	-12.1534
裒	-12.1534
虗	-12.1534
檄	-12.1534
蜀葵	-12.1534
挫鋭	-12.1534
是以聖人猶難之故終無難	-12.1534
悛	-12.1535
瓦甓	-12.1535
惡能正之	-12.1535
日月星宿	-12.1535
鯀	-12.1535
棲霞	-12.1536
似無所止	-12.1536
蕪荑	-12.1536
斁	-12.1536
寞	-12.1537
公閲休	-12.1537
擺	-12.1537
及其有事	-12.1537
邢	-12.1537
受國之垢是謂社稷主	-12.1537
日甲一月	-12.1538
厢	-12.1538
佇	-12.1539
蠍	-12.1539
理之必然	-12.1539
况於人乎	-12.1539
鍮石	-12.154
萬彙	-12.154
脱肛	-12.154
捽	-12.154
塵垢粃糠	-12.154
復衆人之所過以輔萬物之自然而不敢	-12.154
所遇而安	-12.154
諮	-12.154
債	-12.1541
糞壤	-12.1541
青羊肆	-12.1542
寓言十九	-12.1542
鈔尚書	-12.1542
榻	-12.1545
不欲以靜	-12.1545
德不德是以有德下德不失德是以無德	-12.1545
常無常有	-12.1547
𩲃	-12.1553
壇場	-12.1554
傘	-12.1556
泌	-12.1559
以告壺子	-12.1566
汎汎	-12.1566
饑渴	-12.1569
鄉觀鄉以國觀國以天下觀天下	-12.1572
撝謙	-12.1572
經驗方	-12.1706
無名之樸亦將不欲	-12.1812
地黄汁	-12.1849
脗	-12.1851
漉	-12.1855
騖	-12.1891
天地之間其猶橐籥乎	-12.1899
桶	-12.1903
悽	-12.1906
蝍蛆	-12.1908
蓯蓉	-12.1908
楝	-12.1909
鴝	-12.1909
駐顔	-12.191
動之徐生	-12.1911
臣有道於此	-12.1912
治直吏反	-12.1914
牡荆	-12.1915
蘿蔔	-12.1915
鐔	-12.1916
豳	-12.1916
知人者智	-12.1917
翼軫	-12.1918
佹	-12.1918
故令有所屬	-12.1918
㓗	-12.1918
瑋	-12.1918
菔	-12.1919
蜣	-12.1919
勝人者有力	-12.1919
衆父父	-12.192
復守其母	-12.192
垛	-12.192
神得一以靈	-12.192
德配天地	-12.192
無瑕謫	-12.192
無何有之鄉	-12.1921
鮒	-12.1921
滕	-12.1921
竹瀝	-12.1921
州郡皆有之	-12.1921
褊	-12.1921
上將軍居右	-12.1921
侯王得一以爲天下正	-12.1921
璋	-12.1922
善者吾善之不善者吾亦善之德善	-12.1922
人之道則不然	-12.1922
簷	-12.1922
深根固柢	-12.1922
麄	-12.1923
扃鐍	-12.1923
谷得一以盈	-12.1923
淡乎無味	-12.1923
微火煎	-12.1923
壺丘子林	-12.1923
嘷	-12.1923
爝	-12.1924
禍莫大於輕敵	-12.1924
勲	-12.1924
纊	-12.1924
夫唯不爭故無尤	-12.1924
𥐼	-12.1924
雖有榮觀	-12.1924
不可以情求	-12.1924
强爲之容	-12.1924
廟堂之上	-12.1924
蟪蛄	-12.1924
味甘寒無毒主	-12.1925
童子小便	-12.1925
鶂	-12.1925
吾言甚易知甚易行	-12.1925
冩	-12.1925
讙	-12.1925
道家者流	-12.1925
使我介然章第五十三	-12.1925
揄	-12.1925
將欲歙之必固張之將欲	-12.1925
此章通玄經	-12.1926
遺物離人	-12.1926
乙亥	-12.1926
蟯	-12.1926
盜賊多有	-12.1926
王相日	-12.1926
螳螂	-12.1926
章所以次	-12.1926
騞	-12.1926
善與不善	-12.1926
唯恍唯惚	-12.1927
用之不可旣	-12.1927
與天地合其德	-12.1927
金瘡止血	-12.1927
受天下之垢	-12.1927
天長地久	-12.1927
晞	-12.1927
道生一章第四十二	-12.1927
百姓皆注其耳目聖人皆孩之	-12.1927
漕	-12.1927
功成不名有	-12.1927
橈	-12.1928
畚	-12.1928
天之所惡孰知其故	-12.1928
橰	-12.1928
藺	-12.1928
宇泰定	-12.1928
人貌而天	-12.1929
修之家其德乃餘修之鄉其德乃長	-12.1929
令人目盲五音令人耳聾五味令人口爽	-12.1929
視之不足見聽之不足聞	-12.1929
自强不息	-12.1929
故從事於道者	-12.1929
不如坐進此道	-12.1929
輾	-12.1929
人多伎巧奇物滋起	-12.1929
持而盈之章第九	-12.1929
鎰	-12.193
道之爲物惟恍惟惚	-12.193
瘵	-12.193
砌	-12.193
殯	-12.193
居善地心善淵	-12.193
陳景元	-12.193
寒爐取出	-12.193
人之所惡唯孤寡不穀而王公以爲稱	-12.193
人生而靜天之性	-12.193
炎炎	-12.193
鬢髮	-12.193
六親不和有孝慈國家昏亂有忠臣	-12.1931
人之生也柔弱其死也堅强	-12.1931
訂	-12.1931
溼	-12.1931
搥	-12.1931
夫代大匠斲希有不傷其手矣	-12.1931
木强則共	-12.1931
志乎期費	-12.1932
國之利器	-12.1932
懷道抱德	-12.1932
子孫相承	-12.1933
禹錫云按孟詵云	-12.1933
叩齒三通	-12.1933
窈兮冥兮其中有精	-12.1933
與人爲徒	-12.1933
故從事於道者道者同於道德者同於德	-12.1933
長於上古而不爲老	-12.1933
注焉而不滿酌焉而不竭	-12.1933
胈	-12.1934
噦	-12.1934
夜半子時	-12.1934
上德不德章第三十八	-12.1934
大小多少報怨以德	-12.1934
松蘿	-12.1935
萬物負陰而抱陽沖氣以爲和	-12.1935
其安易持章第六十四	-12.1935
潼	-12.1935
秦始皇	-12.1935
艶	-12.1935
將欲取天下而爲之吾見其不得已	-12.1935
囊括	-12.1936
瞿鵲	-12.1936
煌	-12.1936
匆	-12.1937
崐崘	-12.1937
大事必作於	-12.1937
亦虚而已	-12.1937
坏	-12.1938
研爲細末	-12.1939
見有於人	-12.194
螢	-12.194
能無爲乎	-12.194
其脆易破	-12.1941
腰脊	-12.1942
障礙	-12.1942
下章同	-12.1951
條下陶隱居云	-12.1955
君平曰	-12.1961
之所謂曲則全者豈虚言哉誠全而歸之	-12.1968
木生火	-12.1968
自知不自見自愛不自貴	-12.1988
五臟六腑	-12.1997
號而不嗄	-12.2054
疣贅	-12.2156
守其雌	-12.2182
谷神不死是謂玄牝玄牝之門是謂天地	-12.2244
係下界	-12.2269
葉六行	-12.2316
樟	-12.2317
瀵	-12.2324
檐	-12.2324
非君子之器	-12.2325
利大小便	-12.2328
渙	-12.2328
憔	-12.2329
芷	-12.2329
錙銖	-12.233
芫	-12.2331
杜蘅	-12.2331
桑螵蛸	-12.2332
近道處處有	-12.2332
魭	-12.2332
其上不皦	-12.2332
葂	-12.2332
葉四行	-12.2334
皯	-12.2334
百姓皆謂我自然	-12.2334
爚	-12.2335
麓	-12.2335
蠆	-12.2336
饕餮	-12.2336
丸如麻子大	-12.2336
國之利器不可以示人	-12.2336
反一無迹	-12.2336
潁川	-12.2337
不得已而用之恬淡爲上	-12.2337
愛養萬物而不爲主	-12.2337
五色令人目盲	-12.2337
覿	-12.2337
聆	-12.2338
怵惕	-12.2338
梱	-12.2338
瘀	-12.2338
穫	-12.2338
夫亦將知止	-12.2338
蛀	-12.2338
韜光晦迹	-12.2338
黬	-12.2339
暄	-12.2339
禎	-12.2339
名亦既有	-12.2339
馬巨濟曰	-12.2339
斯不善已	-12.234
翺翔	-12.234
遣之又遣	-12.2341
正復爲奇	-12.2341
裁非之義	-12.2341
褥	-12.2341
蒴藋	-12.2341
翶翔	-12.2341
或强或羸	-12.2341
夫佳兵者不祥之器	-12.2342
嚇	-12.2342
畤	-12.2342
楚莊王	-12.2343
用兵有言章第六十九	-12.2343
受國不祥	-12.2343
吾言甚易知章第七十	-12.2343
不得與之變	-12.2343
唯施是畏	-12.2343
道德二經	-12.2343
無思不服	-12.2344
道可道章第一	-12.2344
解酒毒	-12.2344
撒	-12.2344
兕無所投其角	-12.2344
其民缺缺	-12.2344
孜孜	-12.2344
餉	-12.2344
廊廡	-12.2344
喁	-12.2344
是以兵强則不勝	-12.2344
覷	-12.2345
琴瑟	-12.2345
可以寄天下	-12.2345
失義而後禮夫禮者忠信之薄而亂之首	-12.2345
知人者智章第三十三	-12.2345
雖有舟輿無所乘之	-12.2345
箴	-12.2345
天下皆知章第二	-12.2345
幅	-12.2345
怍	-12.2345
覈	-12.2345
聖人不病以其病病是以不病	-12.2345
國家昏亂有忠臣	-12.2345
用志不分	-12.2345
黿鼉	-12.2345
令人肥健	-12.2346
洋洋	-12.2346
騷	-12.2346
不亦遠乎	-12.2346
荆芥	-12.2346
儘	-12.2346
自是者不彰自伐者無功自矜者不長	-12.2346
踊躍	-12.2346
爲天下渾其心	-12.2347
彫琢	-12.2347
闔闢	-12.2347
有天下而不與	-12.2347
玄聖素王	-12.2348
不限多少	-12.2348
啓迪	-12.2348
腸風瀉血	-12.2348
蜩鳩	-12.2348
圉	-12.2348
顫	-12.2348
豈不惑哉	-12.2348
和大怨章第七十九	-12.2348
庖厨	-12.2349
道德眞經取善集卷之	-12.2349
我愚人之心也哉	-12.2349
我有三寳保而持之	-12.2349
以道佐人主章第三十	-12.2349
葉三行	-12.2349
道生之章第五十一	-12.235
埏和也埴	-12.235
櫻桃	-12.235
刄	-12.235
覦	-12.2351
此舉喻也	-12.2351
此意蓋謂	-12.2351
蚹	-12.2351
同乎無知其德不離	-12.2351
有兩種	-12.2352
缶	-12.2352
莒	-12.2352
薫	-12.2352
蹩躠	-12.2352
六十四卦	-12.2352
輕身耐老	-12.2353
形諜成光	-12.2353
疫癘	-12.2353
瀘	-12.2354
晷	-12.2354
蘁	-12.2354
道尊德貴	-12.2354
不自是故彰不自伐故有功不自矜故長	-12.2354
收視反聽	-12.2355
蒓	-12.2355
荔枝	-12.2355
蕩蕩乎民無能名	-12.2355
吉凶與民同患	-12.2355
禮樂刑政	-12.2355
楞	-12.2356
奈之何	-12.2356
茅茨	-12.2356
駙	-12.2357
磅礴	-12.2357
迓	-12.2357
瞰	-12.2358
廚	-12.2358
不疾而速不行而至	-12.2358
富貴而驕	-12.2358
嶷	-12.2358
咀嚼	-12.2359
貿	-12.236
斟	-12.236
盼	-12.2364
見張君房本舊作	-12.2364
飢渇	-12.2365
有在於是	-12.2374
主爲臣某	-12.2388
所從生	-12.2396
者誰乎	-12.2401
峕	-12.2404
之至柔馳騁天下之至堅無有入於無間	-12.2454
無適而不	-12.2496
其無正邪	-12.2499
以兵强天下	-12.2625
聞善攝生者陸行不遇兕虎入軍不被甲	-12.2711
堥	-12.2737
寅時卯時辰時巳時午時	-12.2745
猪苓	-12.2752
知其雄守其雌	-12.2759
莪	-12.2761
鰻	-12.2761
疝瘕	-12.2763
穉	-12.2764
稊	-12.2765
羖	-12.2765
相視而笑	-12.2765
虻	-12.2766
繟	-12.2766
語有之曰	-12.2766
糺	-12.2767
燒爲灰	-12.2768
罯	-12.2768
去起吕反	-12.2768
官天地府萬物	-12.2768
不笑不足以爲道	-12.2768
是謂道紀	-12.2769
膂	-12.2769
葳	-12.2769
一闔一闢	-12.2769
𫝊	-12.2771
楫	-12.2772
庾	-12.2772
鏑	-12.2772
厦	-12.2772
春生夏長	-12.2772
其動若水	-12.2772
墊	-12.2773
五嶽四瀆	-12.2773
譬道之在天下猶川谷之與江海	-12.2773
脤	-12.2774
㓜	-12.2774
善人不善人之師	-12.2774
吾何以知衆甫之然哉	-12.2774
吾不知其名字之曰道强爲之名曰大	-12.2774
蚉	-12.2774
其於道也曰餘食贅行	-12.2774
幾喪吾寳	-12.2774
視之不足見	-12.2774
麈	-12.2774
道隱於小成	-12.2774
聖人皆孩之	-12.2774
能知古始	-12.2774
知我者希	-12.2774
知之所無奈何	-12.2775
俋	-12.2775
川谷之與江海	-12.2775
親之譽之	-12.2775
煒	-12.2775
如春登臺	-12.2775
萇	-12.2775
蔽於一曲	-12.2775
梢	-12.2775
高下之相傾	-12.2775
或利或害	-12.2775
春秋冬夏	-12.2776
治人事天章第五十九	-12.2776
蘩	-12.2776
燎	-12.2776
淋瀝	-12.2776
天道虧盈而益謙	-12.2777
胜	-12.2777
内聖外王	-12.2777
吾不知誰之子	-12.2777
具茨之山	-12.2777
滲	-12.2777
謦	-12.2777
夷道若類	-12.2777
天何言哉四時行焉百物生焉	-12.2777
重積德則無不克	-12.2778
蚋	-12.2778
複	-12.2778
勝而不美而美之者是樂殺人	-12.2778
抑高舉下	-12.2778
鷽	-12.2778
鞠	-12.2778
楗	-12.2778
吾是以知	-12.2778
筮	-12.2779
聖人無常心章第四十九	-12.2779
挫其鋭解其紛	-12.2779
螻	-12.2779
基址	-12.2779
趺	-12.2779
素樸而民性得矣	-12.2779
其政悶悶章第五十八	-12.2779
善人之資	-12.2779
地道變盈而流謙	-12.2779
福兮禍所伏	-12.2779
聿	-12.278
棟宇	-12.278
鬲	-12.278
夫唯病病是以不病	-12.278
輕諾必寡信	-12.2781
剡	-12.2781
机	-12.2781
鋼	-12.2781
品物流形	-12.2781
怫	-12.2781
鑚	-12.2781
受國不祥是謂天下王	-12.2782
故有無之相生難易之相成長短	-12.2782
温有毒主	-12.2782
刈	-12.2782
文惠君	-12.2782
賒	-12.2782
六通四闢	-12.2782
豈虚言哉	-12.2782
絹篩	-12.2782
人與之名	-12.2782
荼	-12.2782
其死也堅强	-12.2783
翱翔	-12.2783
民常不畏死奈何以死懼之	-12.2783
元嘉本作	-12.2783
上仁爲之而無以爲上義爲之而有以爲	-12.2783
薨	-12.2783
敬聞命矣	-12.2783
崩中帶下	-12.2783
天之道利而不害聖人之道爲而不爭	-12.2783
呺	-12.2784
謂下文也	-12.2784
用鉛不用鉛	-12.2784
不曰求以得	-12.2784
離道以善	-12.2785
纛	-12.2785
僑	-12.2785
騾	-12.2785
三十輻章第十一	-12.2785
能無疵乎	-12.2785
大盈若冲其用不窮	-12.2785
民不畏威則大威至	-12.2785
惛然若亡而存	-12.2786
黶	-12.2786
邉	-12.2786
是以聖人不行而知不見而名不爲而成	-12.2786
詩大雅	-12.2787
諔詭	-12.2787
嵇康	-12.2788
堤	-12.2788
禆	-12.2789
惡與不善	-12.2789
譯	-12.2789
搔	-12.279
顧盻	-12.279
七伏時	-12.2791
以約爲紀	-12.2791
戌亥	-12.2791
白馬非馬	-12.2792
櫟社	-12.2792
海藥云	-12.2793
德者得也	-12.2795
以其無以易之也	-12.2795
玄中大法師	-12.2795
嗃	-12.2795
其意蓋謂	-12.2795
吷	-12.2796
受國之不祥是謂天下王	-12.2796
䰢	-12.2799
救苦天尊	-12.28
衙	-12.2803
厄章解	-12.2804
耰	-12.2811
執古之道	-12.2814
不欲以靜天下將自正	-12.2893
能無離乎	-12.2929
天得一以清地得一以寧神得	-12.2935
若使民常畏死	-12.3128
赫奕	-12.3155
信言不美美言不信	-12.3194
南華真經卷第	-12.3201
薏苡人	-12.3212
錠	-12.3215
臥	-12.3215
無上三天玉司正法律曰	-12.3216
蹴	-12.3216
满	-12.3216
本經不載所出州土	-12.3217
三七母砂	-12.3218
茯	-12.3218
鼻衄	-12.3219
上士聞道勤而行之	-12.3219
其上不皦其下不昧	-12.3219
椄槢	-12.322
柳下季	-12.322
䋲	-12.322
其無以易之	-12.3221
愽	-12.3223
狌	-12.3223
目不妄視	-12.3223
六親不和	-12.3223
譊	-12.3223
中士聞道若存若亡	-12.3223
絖	-12.3224
被其澤	-12.3224
蹉	-12.3224
地膚子	-12.3224
善計不用籌策	-12.3224
柑	-12.3225
醍	-12.3225
赫胥氏	-12.3225
罪莫大於可欲禍莫大於不知足咎莫	-12.3226
萼	-12.3226
蹎	-12.3226
廉而不劌	-12.3226
雖智大迷	-12.3226
伋	-12.3227
咫尺	-12.3227
古之善爲士章第十五	-12.3228
服文采帶利劍厭飲食	-12.3228
青木香	-12.3228
既以與人己愈多	-12.3228
注其耳目	-12.3228
誙	-12.3228
使我介然有知行於大道	-12.3229
有乎生而莫見其根	-12.3229
蝮	-12.3229
努	-12.3229
合抱之木生於毫末	-12.3229
解音蟹	-12.3229
兩者各得其所欲	-12.3229
奂	-12.3229
以國觀國	-12.3229
劉惟永	-12.3229
早服謂之重積德	-12.3229
善爲士者	-12.3229
週	-12.3229
行年六十而六十化	-12.3229
引之盈貫	-12.3229
是謂盜誇	-12.3229
道無問問無應	-12.3229
㘽	-12.3229
知魚之樂	-12.3229
果而勿矜	-12.323
造乎不形	-12.323
外物不可必	-12.323
蠕	-12.323
重積德則無不克無不克則莫知其極	-12.323
閤	-12.323
使我介然有知行於大道唯施是畏	-12.323
氈	-12.323
霍亂轉筋	-12.323
卑以自牧	-12.323
醋調赤石脂	-12.323
名山大川	-12.323
能陰能陽	-12.3231
雛	-12.3231
知我者希則我者貴	-12.3231
未免乎累	-12.3231
勝金方治	-12.3232
㫁	-12.3232
提點觀事	-12.3232
知其白守其黑	-12.3232
人皆取先己獨取後	-12.3232
惟施是畏	-12.3232
破癥結	-12.3232
見其所不見	-12.3232
不以利累形	-12.3232
齏	-12.3233
杪	-12.3233
瑠璃	-12.3233
古之善爲道章第六十五	-12.3233
受國之不祥	-12.3234
在己無居	-12.3234
大國者下流天下之交	-12.3234
顙頯	-12.3234
稊稗	-12.3234
假設疑問	-12.3234
俘	-12.3234
被褐懷玉	-12.3234
粧	-12.3234
紈	-12.3234
徉	-12.3234
幷	-12.3234
畀	-12.3234
無德司徹	-12.3234
寂然不動感而遂通天下之故	-12.3234
毳	-12.3234
以正治國以奇用兵以無事取天下	-12.3235
士成綺	-12.3235
蚊蚋	-12.3235
痩	-12.3235
偎	-12.3235
形而上者謂之道形而下者謂之器	-12.3235
音義曰以	-12.3235
商角徵羽	-12.3236
蟬蜕	-12.3236
與陰同德	-12.3236
猛獸不據	-12.3236
劉仲平曰	-12.3236
玄德深矣遠矣	-12.3236
鬛	-12.3236
除垢止念	-12.3236
揲	-12.3236
婉	-12.3237
掉	-12.3237
詈	-12.3237
渟	-12.3237
飡	-12.3237
釅醋	-12.3237
善刀而藏	-12.3238
瀹	-12.3238
鰥	-12.3238
詩小雅	-12.3238
何容心哉	-12.3238
牡蠣赤石脂	-12.3238
壠	-12.3238
赤張滿稽	-12.3238
雲行雨施	-12.3238
馳騁天下之至堅	-12.3239
叚	-12.3239
合異以爲同	-12.3239
吸風飲露	-12.3239
霽	-12.3239
難事必作於易	-12.3239
多易必多難	-12.3239
倕	-12.3239
則婦姑	-12.3239
躁勝寒靜勝熱清靜爲天下正	-12.3239
木火土	-12.3239
縑	-12.324
盈虚消息	-12.324
劬	-12.324
妙萬物而爲言	-12.324
榔	-12.324
謙以自牧	-12.324
繭	-12.3241
不計時候	-12.3241
阫	-12.3241
行其所無事	-12.3242
鋟	-12.3242
夫惟不爭故天下莫能與之爭	-12.3242
大直若屈大巧若拙大辯若訥	-12.3242
嵐	-12.3243
犧樽	-12.3243
卹	-12.3243
髢	-12.3243
犠	-12.3244
琪	-12.3244
鎸	-12.3245
劉涇曰	-12.3245
埏埴以爲器	-12.3245
蹻	-12.3247
胸臆	-12.3248
赧	-12.3248
漲	-12.3249
禎祥	-12.3249
邸	-12.3249
和以龍膏	-12.325
凰	-12.325
無中之有	-12.325
鎻	-12.3251
吟詠	-12.3251
迍	-12.3255
秖	-12.3257
𩳐	-12.3257
地之間其猶橐籥乎虚而不屈動而愈出	-12.3271
天下常以無事及其有事不足以取天下	-12.3284
爲吾有身及吾無身吾有何患	-12.3306
二千五百	-12.3445
埏埴以爲器當其無有器之用	-12.3569
八月九月採	-12.3603
人元甲子	-12.3615
石龍芮	-12.3663
則無不治矣	-12.3664
雱	-12.3682
言外之㫖	-12.369
犍	-12.369
葈	-12.3691
葉八行	-12.3691
鋪底蓋頭	-12.3694
疱	-12.3695
民復孝慈	-12.3696
萎蕤	-12.3696
凢	-12.3696
符用黃帛五寸右	-12.3698
東郭先生	-12.3698
杷	-12.3698
靚	-12.3699
代大匠斵	-12.3699
何謂寵辱寵爲下	-12.3699
殗	-12.3699
蓽	-12.37
莨菪	-12.37
而以身輕天下	-12.37
覕	-12.3701
雩	-12.3701
盛德容貌若愚	-12.3701
醷	-12.3702
太初者氣之始	-12.3702
臰	-12.3702
吻	-12.3702
若肖乆矣其細也夫	-12.3703
塊然獨以其形立	-12.3703
為而不恃	-12.3703
鋏	-12.3703
小國不過欲入事人	-12.3703
方矢復寓	-12.3703
夫禮者忠信之薄而亂之首	-12.3704
其覺無憂	-12.3704
唯道是從	-12.3704
孰能安以乆動之徐生	-12.3704
執言滯教	-12.3705
儉故能廣不敢爲天下先故能成器長	-12.3705
徨	-12.3705
何謂貴大患若身吾所以有大患者	-12.3705
其在兹乎	-12.3705
夫唯大故似不肖	-12.3705
狥	-12.3705
聖人用之則爲官長	-12.3705
洿	-12.3705
痀	-12.3705
揣而銳之	-12.3706
正容悟物	-12.3706
民之輕死以其求生之厚	-12.3706
終則有始	-12.3706
監河侯	-12.3706
白頭翁	-12.3706
紬	-12.3706
軱	-12.3706
自是而非彼	-12.3706
諸侯之劍	-12.3706
數車無車	-12.3706
萬物作焉而不辭	-12.3707
法令滋彰	-12.3707
道之尊德之貴	-12.3707
將欲歙之章第三十六	-12.3707
我無事而民自富我無欲而民自樸	-12.3707
不生者能生生	-12.3707
衆人熙熙如享太牢如登春臺	-12.3707
豢	-12.3708
鷗	-12.3708
迪	-12.3708
荏	-12.3708
筯	-12.3708
瘑	-12.3708
用其光復歸其明無遺身殃是謂襲常	-12.3708
縻	-12.3708
今按陳藏器本草云	-12.3708
集驗方治	-12.3708
魚不可脱於淵	-12.3709
媧	-12.3709
未知牝牡之合	-12.3709
莫之爵而常自然	-12.3709
所以能長且乆者以其不自生故能長生	-12.3709
瀟	-12.3709
我有三寳寳而持之	-12.371
彤	-12.371
名者實之賔	-12.371
勗	-12.371
是以聖人不行而知	-12.371
是以聖人之治虚其心	-12.371
鄂	-12.371
癱	-12.371
蜃	-12.371
視之不足見聽之不足聞用之不可既	-12.371
不可得而貴不可得而賤故爲天下貴	-12.371
故老經云	-12.371
故致數輿無輿	-12.3711
帽	-12.3711
晡	-12.3711
張沖應曰	-12.3711
吴氏云	-12.3711
其政悶悶其民淳淳其政察察其民缺缺	-12.3711
鞍	-12.3712
安時處順	-12.3712
既以爲人己愈有既以與人己愈多	-12.3712
玄者天之色	-12.3712
倮	-12.3712
滂	-12.3712
油然不形而神	-12.3713
與造物者遊	-12.3713
江海爲百谷王章第六十六	-12.3713
五日爲一候	-12.3713
夫音符	-12.3713
居不知所爲行不知所之	-12.3713
無灰酒	-12.3714
恙	-12.3714
其知彌少	-12.3714
棧	-12.3714
魁𩲃𩵄䰢魓𩳐魒	-12.3714
無狹其所居無厭其所生	-12.3714
知我者希則我貴矣	-12.3714
癃	-12.3714
葭	-12.3715
燁	-12.3715
曲仁里	-12.3715
七日七夜	-12.3715
通天下一氣	-12.3715
爲善無近名	-12.3715
岐山之陽	-12.3715
躑	-12.3716
飄風不終朝驟雨不終日孰爲此	-12.3716
分别求哀	-12.3716
䃣	-12.3716
大器晩成	-12.3716
未嘗過而問焉	-12.3716
與物爲春	-12.3717
尓	-12.3717
瑰	-12.3717
黼	-12.3717
隩	-12.3718
劾	-12.3718
以閲衆甫吾何以知衆甫之然哉以此	-12.3718
以濡弱謙下爲表	-12.3718
遹	-12.3718
未嘗生未嘗死	-12.3718
莎	-12.3719
笞	-12.3719
不日求以得	-12.3719
拽	-12.3719
猵	-12.372
端坐生腰	-12.372
勝音升	-12.372
碁	-12.3721
譖	-12.3721
蘇氏曰	-12.3721
凭	-12.3721
癲癇	-12.3722
龍伯之	-12.3723
腸澼	-12.3723
吼	-12.3727
惘	-12.3727
夫物芸芸各復歸其根	-12.3728
懌	-12.3728
鄆	-12.373
有古先生	-12.3732
足以定天下	-12.3739
果而不得已	-12.3779
正復爲奇善復爲妖	-12.3889
鑿户牖以爲室	-12.4054
萬化而未始有極	-12.41
吾所以有大患者爲吾有身	-12.4128
知人者智自知者明	-12.4136
蓽撥	-12.4177
碢	-12.4179
申時酉時戌時亥時子時	-12.4179
鵂	-12.4183
曬	-12.4189
圖經衍義本草卷之二十	-12.419
蛇床子	-12.419
茜	-12.419
信者吾信之	-12.4192
上士聞道章第四十一	-12.4192
甥	-12.4195
五音令人耳聾	-12.4196
㳙	-12.4196
泗	-12.4196
軦	-12.4197
櫻	-12.4198
凝水石	-12.4198
菉	-12.4198
道德眞經衍義手鈔卷之十	-12.4198
𢎞	-12.4199
囂囂	-12.4199
矉	-12.4199
囷	-12.4199
强爲之名曰大	-12.4199
蘋	-12.4199
圖經衍義本草卷之十	-12.42
材與不材	-12.42
鎗	-12.42
不計多少	-12.42
跨者不行	-12.42
不善人善人之資	-12.42
不以故自持	-12.42
無轍跡	-12.4201
民常不畏死	-12.4201
癥癖	-12.4201
乾餘骨	-12.4201
搗羅爲末	-12.4202
執而殺之	-12.4202
輐	-12.4202
騏驥	-12.4202
聽止於耳	-12.4202
大秦國	-12.4203
何勤之有	-12.4203
樅	-12.4203
係華蓋道場	-12.4203
沖氣以爲和	-12.4203
南華眞經循本卷之二十	-12.4203
太上老君混元上德皇帝	-12.4203
飴糖	-12.4203
大盈若沖其用不窮	-12.4204
太公調曰	-12.4204
夫惟不可識故强爲之容	-12.4204
夫物芸芸	-12.4204
伯成子高	-12.4204
六親不和有孝慈	-12.4204
傅瘡上	-12.4204
曄	-12.4204
侈於性	-12.4204
果而勿伐	-12.4204
其應若響	-12.4204
二月八月採根暴乾	-12.4204
使夫知者	-12.4204
與變俱	-12.4205
舜以天下讓	-12.4205
赭	-12.4205
吾以觀其復	-12.4205
搢	-12.4205
若嬰兒之未孩	-12.4205
莫之爲而常自然	-12.4206
開度亡過某靈魂	-12.4206
唐玄宗御製道德眞經䟽卷之	-12.4206
聽之不聞名曰希搏之不得名曰微	-12.4206
圖經衍義本草卷之三十	-12.4206
由中出者	-12.4206
如嬰兒之未孩	-12.4206
夫唯無以生爲者是賢於貴生	-12.4206
不灰木	-12.4206
弊不新成	-12.4207
娑	-12.4207
無不克則莫知其極	-12.4207
砉	-12.4207
無物不然無物不可	-12.4207
天覆地載	-12.4207
姓某上表	-12.4207
犿	-12.4207
果而勿驕	-12.4207
超凡入聖	-12.4207
水仙源録卷之	-12.4207
此兩者或利或害	-12.4207
跐	-12.4208
届	-12.4208
長於水而安於水	-12.4208
貟	-12.4208
罅	-12.4208
述而不作	-12.4208
凝遠大師常德路玄妙觀	-12.4208
鏌鋣	-12.4208
恡	-12.4208
槿	-12.4208
邱	-12.4208
宋王元澤傳	-12.4208
與造物者爲人	-12.4208
椽	-12.4208
蠧	-12.4209
前朝奉大夫	-12.4209
舘	-12.4209
從本降迹	-12.4209
萬物恃之以生	-12.4209
有情有信	-12.4209
螘	-12.4209
執弟子禮	-12.421
名與身孰親身與貨孰多得與亡孰病	-12.421
腊	-12.421
夫惟病病是以不病	-12.421
果而不得已是果而勿强	-12.421
知止其所不知	-12.421
駮	-12.421
霏	-12.421
樠	-12.421
知足者富强行者有志	-12.421
頷	-12.421
錙	-12.4211
生太山山谷	-12.4211
此其以賤爲本邪非乎	-12.4211
苕	-12.4211
堯舜禹湯	-12.4211
我獨頑似鄙	-12.4211
蜳	-12.4212
常善救物故無棄物是謂襲明	-12.4212
持而盈之不如其已揣而鋭之不可長保	-12.4212
粢	-12.4212
螴	-12.4213
盜跖死利	-12.4213
無生無死	-12.4213
形之不形	-12.4213
和大怨必有餘怨安可以爲善	-12.4213
蝡	-12.4213
迢	-12.4213
棣	-12.4213
上德無爲而無以爲下德爲之而有以爲	-12.4213
拄	-12.4213
爲社稷主	-12.4213
其政悶悶其民淳淳	-12.4213
和大怨必有餘怨	-12.4214
敲	-12.4214
戒云不得	-12.4214
嗑	-12.4214
觭	-12.4214
聏	-12.4214
恍兮惚兮其中有物	-12.4215
殘生傷性	-12.4215
不欲琭琭如玉	-12.4215
無所逃於天地之間	-12.4215
將欲弱之必固强之	-12.4215
醨	-12.4215
吉祥止止	-12.4215
綟	-12.4215
不藏是非美惡	-12.4216
掬	-12.4216
惚兮恍兮其中有象	-12.4216
内誠不解	-12.4216
眴	-12.4216
黄茂村曰	-12.4216
萆麻	-12.4217
我獨怕兮其未兆如嬰兒之未孩	-12.4217
水之潘爲淵	-12.4217
使者二人出	-12.4217
潢	-12.4218
通於一而萬事畢	-12.4218
臨莅天下	-12.4218
車器室	-12.4218
跈	-12.4218
朝至暮	-12.4218
吾不知其誰之子象帝之先	-12.4218
勺	-12.4219
某誠惶誠恐稽首頓首再拜上言	-12.4219
末酒服方寸七	-12.4219
下德不失德	-12.422
孔德之容唯道是從	-12.422
易有太極	-12.422
蚊蝱	-12.422
無有室之用故有之以爲利無之以爲用	-12.422
鬼谷子	-12.422
蟾蜍	-12.422
帖	-12.4221
黠	-12.4221
宕	-12.4222
武王伐紂	-12.4223
惡烏路切	-12.4223
腓	-12.4223
道生德畜	-12.4223
離形去智	-12.4223
仙童玉女	-12.4225
陁	-12.4226
右勝府	-12.4226
野馬塵埃	-12.4226
慿	-12.4227
𧵥	-12.423
直使功曹	-12.4232
坐在立亡	-12.4232
隼	-12.4232
民自樸	-12.4233
相類門第	-12.4234
爲出於無爲	-12.4236
蚕	-12.4242
襲氣母	-12.4247
故今身爲人	-12.4249
力智切	-12.4306
器當其無有器之用鑿户牖以爲室當其	-12.4375
勝人者有力自勝者强	-12.4655
萆	-12.4662
取天下常以無事	-12.4671
大道甚夷而民好徑	-12.4694
跰	-12.4708
疥瘙	-12.4715
五加皮	-12.4717
每修事	-12.4718
萱	-12.4718
不愛其資	-12.4718
螻蛄	-12.4719
鬐	-12.4719
惹	-12.472
搽	-12.472
屛	-12.472
骰	-12.472
鉛白霜	-12.4721
民利百倍	-12.4721
臓	-12.4722
處前而人不害	-12.4722
馬齒莧	-12.4723
井華水	-12.4723
琉璃	-12.4723
陳士良云	-12.4723
硏	-12.4723
蕘	-12.4723
别說云謹按	-12.4724
天奪筭	-12.4724
窖	-12.4724
華胥氏之國	-12.4724
下德不失德是以無德	-12.4724
天網恢恢	-12.4725
抹	-12.4725
餞	-12.4725
収	-12.4725
急急如律令此法於	-12.4725
德又下衰	-12.4726
惺	-12.4726
滑欲於俗	-12.4727
㓂	-12.4727
真人真人名	-12.4727
閃	-12.4727
鼓盆而歌	-12.4727
尊行可以加人	-12.4727
修之於家	-12.4727
達生之情者	-12.4727
䕡	-12.4728
樂正子輿	-12.4728
捏	-12.4728
春秋昭公	-12.4728
曇	-12.4728
暁	-12.4728
霈	-12.4729
胲	-12.4729
攤	-12.4729
垍	-12.4729
或載或隳	-12.4729
奈何萬乘之主而以身輕天下	-12.4729
其息深深	-12.4729
胥易技係	-12.473
用之不可既	-12.473
牆	-12.473
自勝者强	-12.473
膍	-12.473
徊	-12.4731
自是者不彰	-12.4731
受而喜之	-12.4731
凡此數者	-12.4731
一以是終	-12.4731
遑遑	-12.4731
形神俱妙與道合眞	-12.4731
蘼	-12.4732
駸	-12.4732
崔元亮海上方	-12.4732
撤	-12.4732
重爲輕根靜爲躁君	-12.4732
陬	-12.4732
惋	-12.4732
芻爲狗	-12.4733
是謂天地根	-12.4733
隨變任化	-12.4733
周流六虚	-12.4734
齋心服形	-12.4734
儕	-12.4734
刦	-12.4734
鐃	-12.4734
禹錫云謹按藥性論云	-12.4734
離力智反	-12.4734
簡要濟衆方治	-12.4734
人之所畏不可不畏荒兮其未央哉	-12.4735
能柔能剛	-12.4735
禍兮福所倚	-12.4735
幾成而敗	-12.4735
長丁丈反	-12.4735
子孫以祭祀不輟	-12.4735
眞武靈應眞君	-12.4736
蠛	-12.4736
不敢爲天下先故能成器長	-12.4736
墠	-12.4736
故貴以身爲天下	-12.4736
歃	-12.4736
司馬子微	-12.4736
墀	-12.4736
緘縢	-12.4736
湛兮似若存	-12.4736
謹按修眞第	-12.4736
濬	-12.4737
原始反終	-12.4737
形高下之相傾音聲之相和前後之相隨	-12.4737
肛	-12.4737
天下莫柔弱於水	-12.4737
有乎出而莫見其門	-12.4737
琰	-12.4737
蹈火不熱行乎萬物之上而不慄	-12.4737
糵	-12.4737
與日月參光	-12.4737
仿	-12.4737
募	-12.4737
將欲歙之必固張之	-12.4737
太府寺簿兼	-12.4737
蝟	-12.4738
黮	-12.4738
皆知善之爲善	-12.4738
縠	-12.4738
攦	-12.4738
跟	-12.4738
不旋踵	-12.4738
目擊道存	-12.4738
縉	-12.4738
夫唯道善貸且成	-12.4738
煴	-12.4738
大仁不仁	-12.4738
稽首禮謝	-12.4739
一化之所待	-12.4739
故能爲百谷王是以聖人欲上	-12.4739
先天地生而不爲乆長於上古而不爲老	-12.4739
天之戮民	-12.4739
塔	-12.4739
醢	-12.4739
玃	-12.4739
毒蟲不螫	-12.4739
飄風不終朝驟雨不終日	-12.474
何常之有	-12.474
兩者交通成和而物生焉	-12.474
眚	-12.474
螯	-12.474
絪緼	-12.474
良有以也	-12.4741
一與言爲二二與一爲三	-12.4741
窈窈㝠㝠	-12.4741
服丹石人	-12.4741
是以兵强則不勝木强則共	-12.4741
以爲人己愈	-12.4741
篦	-12.4741
笄	-12.4741
闞	-12.4741
天地之於萬物聖人之於百姓	-12.4742
未始出其宗	-12.4742
璉	-12.4742
跂者不立跨者不行	-12.4742
屐	-12.4742
獼猴	-12.4742
罝罘	-12.4743
使道而可	-12.4743
共一轂	-12.4743
有一而未形	-12.4743
故知足之足常足矣	-12.4744
右第二章	-12.4744
八月採根陰乾	-12.4744
兩臂重於天下	-12.4744
神道設教	-12.4744
又奚事焉	-12.4745
柔之勝剛	-12.4746
大國以下小國	-12.4746
入乳鉢	-12.4746
遄	-12.4746
西方庚辛金	-12.4746
蛇蚹蜩翼	-12.4747
罟	-12.4747
垓	-12.4748
匍匐	-12.4748
九老仙都君	-12.4749
泝	-12.475
九九八十一	-12.4751
漢明帝	-12.4752
恵	-12.4752
濳	-12.4753
馬鞭草	-12.4753
披髮跣足	-12.4753
芭蕉	-12.4753
訕	-12.4753
兩火養三日	-12.4754
名之樸亦將不欲不欲以靜天下將自正	-12.4754
翏	-12.4755
日火行十	-12.4761
鼻中息肉	-12.4762
𩵄	-12.4767
溞	-12.4769
义	-12.477
戛	-12.4771
前者前章	-12.4807
陸行不遇兕虎入軍不被甲兵	-12.4826
道之尊德之貴夫莫之爵而常自然	-12.4889
聖惠方	-12.5105
地元甲子	-12.5193
大制不割	-12.5207
慈故能勇	-12.5235
虎無所措其爪兵無所容其刃	-12.5238
朝甚除田甚蕪倉甚虚	-12.5239
寂兮寥兮獨立而不改周行而不殆	-12.5247
臨川縣	-12.5247
》、《	-12.5251
雚	-12.5261
浥浥	-12.5261
薢	-12.5264
得之以襲氣	-12.5266
以鐵匙	-12.5267
蚱	-12.5268
斔	-12.5268
蒟	-12.5269
纂微蘇曹	-12.527
何首烏	-12.5272
瀨	-12.5272
鷦鷯	-12.5273
夫物芸芸各歸其根	-12.5274
徐无鬼	-12.5274
睽	-12.5274
阡	-12.5275
糯	-12.5276
男左女右	-12.5276
孔公孽	-12.5276
賽	-12.5276
窨	-12.5276
故能成器長	-12.5277
箠	-12.5278
以輔萬物之自然而不敢爲	-12.5278
黣	-12.5279
不信者吾亦信之	-12.5279
吡	-12.528
鵷鶵	-12.528
儼若容	-12.528
衆人皆有餘	-12.5281
聽之不足聞	-12.5281
不得一未遽	-12.5281
朂	-12.5282
細無不入	-12.5282
之王天下也我太上	-12.5282
笠	-12.5282
道徳眞經廣聖義卷之	-12.5282
天地所以能長且乆者	-12.5283
五峯清安逸士王守正集	-12.5283
魑	-12.5283
碣	-12.5283
庚道集卷之	-12.5283
愼終如始	-12.5283
彎	-12.5284
自利利他	-12.5284
白膠香	-12.5284
珥	-12.5284
偏將軍處左上將軍處右言以喪禮處之	-12.5284
水善利萬物而不爭	-12.5284
[...]
