<unk>	0
<s>	0
</s>	0
。	-1.89651
之	-5.23863
,	-5.35211
曰	-5.43144
也	-5.46726
云	-5.58904
有	-5.59914
者	-5.63169
師曰	-5.63761
師云	-5.64502
不	-5.65112
為	-5.73063
一	-5.78777
無	-5.79373
師	-5.80028
而	-5.81956
問	-5.85459
(	-5.87975
人	-5.88555
以	-5.92536
是	-5.95929
)	-6.02338
如	-6.0807
於	-6.08641
得	-6.12251
▁	-6.12335
來	-6.14967
道	-6.16798
見	-6.20053
心	-6.22239
在	-6.23786
則	-6.24046
其	-6.26696
自	-6.27267
中	-6.30335
時	-6.30347
大	-6.37531
即	-6.39147
與	-6.40519
生	-6.41102
處	-6.43322
此	-6.44326
我	-6.45089
行	-6.46509
」「	-6.46895
若	-6.47684
去	-6.48916
上堂	-6.4997
又	-6.51271
禪師	-6.51459
山	-6.52731
作	-6.54179
上	-6.54469
子	-6.57877
非	-6.57982
故	-6.58113
出	-6.58175
事	-6.65791
和尚	-6.68433
下	-6.69443
三	-6.72133
法	-6.72246
入	-6.73016
說	-6.74089
明	-6.74155
至	-6.74163
相	-6.74258
乃	-6.77304
佛	-6.77347
後	-6.82003
水	-6.82752
天	-6.83091
空	-6.85207
亦	-6.87446
同	-6.88016
因	-6.88182
汝	-6.88224
盡	-6.88855
成	-6.89975
舉	-6.90736
言	-6.91072
公	-6.9388
知	-6.95566
身	-6.95845
僧	-6.95944
▁*	-6.97367
便	-6.97436
地	-6.98363
不得	-6.99528
日	-7.01013
將	-7.02283
向	-7.02437
頭	-7.02689
然	-7.03376
名	-7.03395
真	-7.03807
能	-7.04029
可	-7.04648
過	-7.04958
聞	-7.05764
看	-7.06743
二	-7.06783
所	-7.07134
到	-7.09399
矣	-7.09441
從	-7.10549
起	-7.11168
了	-7.11194
巳	-7.11379
開	-7.115
語	-7.11648
前	-7.11851
未	-7.12341
雲	-7.12512
復	-7.12694
歸	-7.13392
當	-7.13591
進云	-7.14666
月	-7.1503
他	-7.16477
底	-7.16697
難	-7.17399
今日	-7.17417
皆	-7.17671
用	-7.17702
遂	-7.18377
僧問	-7.18747
如何是	-7.18977
何	-7.19488
著	-7.19638
長	-7.20501
正	-7.20667
今	-7.22451
你	-7.22794
好	-7.23794
且	-7.24686
本	-7.24734
:「	-7.24841
欲	-7.24955
還	-7.25269
風	-7.25804
要	-7.26179
多	-7.26574
眾	-7.26802
意	-7.27039
莫	-7.27132
山僧	-7.27348
既	-7.27353
門	-7.28014
更	-7.3041
常	-7.31109
且道	-7.31533
住	-7.3192
于	-7.32421
却	-7.32847
重	-7.3292
會	-7.33133
乎	-7.34284
請	-7.35018
或	-7.35034
諸	-7.35722
深	-7.36035
。」【	-7.36534
高	-7.36659
方	-7.36893
分	-7.37115
參	-7.3712
解	-7.37238
教	-7.37272
坐	-7.37438
謂	-7.37707
老	-7.38748
善	-7.39053
光	-7.39471
觀	-7.40102
經	-7.4094
別	-7.41164
雖	-7.41172
祖	-7.41237
世	-7.41748
王	-7.41835
轉	-7.4198
不知	-7.43338
通	-7.43432
及	-7.44528
眼	-7.44744
不是	-7.44849
四	-7.45122
定	-7.45459
麼	-7.45803
書	-7.4674
性	-7.46811
立	-7.47416
耳	-7.48201
悟	-7.48415
聲	-7.48564
吾	-7.48749
先	-7.48894
。】「	-7.49177
求	-7.49374
石	-7.49781
等	-7.50004
清	-7.50654
春	-7.50965
耶	-7.5115
令	-7.51193
傳	-7.51251
似	-7.51492
安	-7.51729
打	-7.51923
禪	-7.51936
五	-7.52622
僧云	-7.52729
破	-7.53698
識	-7.53766
家	-7.53926
金	-7.54205
路	-7.54379
覺	-7.54582
念	-7.54631
裏	-7.55028
外	-7.55529
香	-7.55542
初	-7.56538
宗	-7.56602
取	-7.57044
居	-7.57845
智	-7.5789
兩	-7.58289
花	-7.58676
一切	-7.59438
化	-7.59466
絕	-7.59549
不可	-7.59782
應	-7.59968
但	-7.60174
發	-7.6054
物	-7.6075
文	-7.60791
如何	-7.61036
白	-7.61223
合	-7.61514
受	-7.61695
理	-7.61715
義	-7.61742
信	-7.62708
隨	-7.62781
大眾	-7.62912
親	-7.63151
寺	-7.63341
所以	-7.63363
老僧	-7.64022
德	-7.64525
實	-7.64684
口	-7.65267
遠	-7.65343
死	-7.65584
色	-7.66265
須	-7.66429
一日	-7.6679
古	-7.67807
照	-7.67867
不能	-7.67943
主	-7.68314
寒	-7.6903
海	-7.69632
體	-7.69726
聖	-7.69733
學	-7.70001
力	-7.70132
居士	-7.70165
被	-7.7099
神	-7.71014
指	-7.71051
火	-7.71259
離	-7.71267
藏	-7.71882
斷	-7.72979
緣	-7.73371
猶	-7.75116
機	-7.75221
使	-7.75853
命	-7.766
小	-7.7677
俱	-7.77344
已	-7.77461
新	-7.7806
。」	-7.78153
眾生	-7.78666
動	-7.78845
修	-7.7885
落	-7.79103
具	-7.79139
論	-7.80091
病	-7.80132
境	-7.80308
爾	-7.80319
全	-7.80375
衣	-7.80843
妙	-7.81041
六	-7.81202
華	-7.81208
年	-7.81225
如是	-7.81402
次	-7.81527
現	-7.81549
淨	-7.82897
流	-7.83448
情	-7.83867
果	-7.84103
手	-7.84388
龍	-7.84419
元	-7.85319
卻	-7.85343
佛法	-7.85873
依	-7.85914
雪	-7.85975
夜	-7.86097
豈	-7.868
禮	-7.87453
南	-7.88005
共	-7.88075
直	-7.88286
總	-7.88636
苦	-7.88762
只	-7.89081
必	-7.89193
哉	-7.89194
誰	-7.89491
玉	-7.89513
寶	-7.89865
不見	-7.89887
內	-7.90223
笑	-7.90229
異	-7.90406
西	-7.90891
秋	-7.9138
思	-7.91613
生死	-7.91973
獨	-7.92283
話	-7.9233
雲門	-7.92443
東	-7.93054
惟	-7.93366
回	-7.93664
七	-7.9375
漢	-7.93839
業	-7.94013
足	-7.94124
始	-7.94325
答	-7.94815
彼	-7.95082
滿	-7.95789
句	-7.9607
慧	-7.96128
休	-7.96531
對	-7.97071
菴	-7.97252
雨	-7.98294
州	-7.98489
國	-7.98707
度	-7.98743
林	-7.98863
靈	-7.98939
和	-7.99398
往	-8.00224
數	-8.00467
君	-8.00654
諸人	-8.01008
示	-8.01388
箇	-8.01553
凡	-8.01611
樹	-8.01761
圓	-8.01782
迷	-8.0202
滅	-8.02063
就	-8.02635
樂	-8.02874
持	-8.03176
間	-8.03176
兮	-8.03414
趙州	-8.03479
客	-8.03563
夢	-8.03792
放	-8.03809
八	-8.03914
少	-8.04361
字	-8.04813
時如何	-8.04943
嗣	-8.04948
願	-8.05039
如來	-8.05291
證	-8.05308
尋	-8.05312
夫	-8.05319
塵	-8.05454
曾	-8.0552
氣	-8.05597
聽	-8.05783
疑	-8.0602
焉	-8.06067
古人	-8.06116
廣	-8.06128
九	-8.06213
頌	-8.06338
閒	-8.06492
甚	-8.06629
唯	-8.06679
一句	-8.06985
飛	-8.07032
勝	-8.07251
十	-8.07674
顯	-8.07677
戒	-8.07761
菩薩	-8.07936
萬	-8.08035
千	-8.0835
食	-8.08526
露	-8.08535
」	-8.08588
易	-8.08821
稱	-8.08979
臨濟	-8.09245
尚	-8.0925
報	-8.09257
久	-8.09546
予	-8.09887
上座	-8.10047
余	-8.10751
望	-8.10764
終	-8.10814
各	-8.10851
遊	-8.10916
峰	-8.1111
失	-8.11347
分明	-8.12173
影	-8.12887
惡	-8.132
佛祖	-8.1325
玄	-8.13318
也無	-8.13326
堂	-8.13359
待	-8.13859
的	-8.13994
否	-8.14188
?」	-8.14397
草	-8.14579
忽	-8.14604
位	-8.14613
百	-8.14866
志	-8.14889
根	-8.15692
如此	-8.15918
一時	-8.16334
齊	-8.16385
靜	-8.16427
平	-8.17267
遇	-8.17667
執	-8.17717
作麼生	-8.17751
蓋	-8.17825
結	-8.18098
馬	-8.18586
下座	-8.18984
關	-8.19201
沒	-8.19723
任	-8.19954
止	-8.19958
面	-8.20243
喜	-8.20478
即是	-8.20664
若是	-8.20896
福	-8.21016
倒	-8.21075
了也	-8.21248
僧曰	-8.21825
卷	-8.22485
半	-8.22596
木	-8.22909
施	-8.23132
頌曰	-8.23175
某甲	-8.23256
亂	-8.23385
由	-8.23421
諸方	-8.2405
極	-8.24152
再	-8.24615
目	-8.24684
都	-8.247
走	-8.24893
愛	-8.25009
城	-8.25494
青	-8.25573
妄	-8.25762
留	-8.26165
忘	-8.26292
興	-8.26545
這	-8.26577
諸佛	-8.27038
說法	-8.27276
切	-8.27384
士	-8.27412
種	-8.27481
不會	-8.27741
巖	-8.27871
乃云	-8.27899
牛	-8.28132
那	-8.28191
利	-8.28297
隱	-8.28673
去也	-8.28873
拈	-8.29223
垂	-8.29338
白雲	-8.2975
侍者	-8.29976
老人	-8.30485
把	-8.30492
雖然	-8.30805
朝	-8.31106
接	-8.31179
喫	-8.31216
.	-8.31447
恁麼	-8.31462
松	-8.31582
自然	-8.31732
送	-8.31797
守	-8.31848
形	-8.32032
橫	-8.32038
脫	-8.32313
邊	-8.32382
辭	-8.32455
集	-8.32685
土	-8.32922
骨	-8.32978
窮	-8.32981
出家	-8.33065
示眾	-8.33198
謝	-8.33696
邪	-8.3388
始得	-8.33892
所謂	-8.34751
宜	-8.34921
江	-8.35413
登	-8.35488
幾	-8.35574
珠	-8.35681
餘	-8.3589
密	-8.35926
容	-8.36248
文殊	-8.36362
世尊	-8.36395
普	-8.36516
歲	-8.36559
奇	-8.36586
進	-8.36953
舊	-8.36985
天下	-8.37009
音	-8.37459
還有	-8.37781
虛	-8.38217
院	-8.38375
太	-8.3838
某	-8.384
懷	-8.38592
印	-8.38942
大師	-8.39002
壽	-8.39101
慈	-8.39198
近	-8.39807
引	-8.3981
母	-8.39845
臨	-8.39944
達	-8.40188
纔	-8.40615
有時	-8.40634
塔	-8.40676
因緣	-8.41254
承	-8.4131
如今	-8.41372
輕	-8.41695
黃	-8.42057
除	-8.42356
殺	-8.42393
叢林	-8.42454
燈	-8.42642
洞山	-8.42677
永	-8.42787
首	-8.43037
變	-8.43215
尊	-8.43248
微	-8.43268
超	-8.43441
想	-8.43514
錯	-8.4403
遍	-8.44044
寧	-8.44047
收	-8.4413
飯	-8.44313
畢竟	-8.44774
節	-8.45182
一人	-8.45411
。「	-8.45707
竹	-8.45732
而不	-8.45804
致	-8.45924
爭	-8.45943
造	-8.46066
供養	-8.46155
驚	-8.46276
覓	-8.46467
濟	-8.46492
散	-8.4681
祇	-8.46869
何故	-8.47271
擬	-8.474
鼻孔	-8.47631
功	-8.47766
陽	-8.47877
存	-8.4801
今朝	-8.48075
未審	-8.48098
南泉	-8.48487
?	-8.48555
早	-8.49202
鐵	-8.49235
良久云	-8.49261
問如何是	-8.49542
浪	-8.49691
虎	-8.49805
兒	-8.49845
相見	-8.49911
徹	-8.50009
期	-8.50241
喚	-8.50248
辨	-8.5033
墮	-8.50788
波	-8.50969
便是	-8.51084
父	-8.51461
奉	-8.5156
貴	-8.51805
昔	-8.51845
庵	-8.51912
弟子	-8.51913
斯	-8.52205
茶	-8.52222
虛空	-8.52287
當時	-8.5229
誠	-8.52302
孤	-8.52533
代	-8.52563
紅	-8.52727
一念	-8.52919
不識	-8.53177
透	-8.53215
交	-8.53258
幻	-8.53345
退	-8.53438
假	-8.53464
點	-8.53467
乾坤	-8.53572
息	-8.53792
般若	-8.53818
益	-8.53858
寂	-8.53981
溪	-8.54014
徒	-8.54115
提	-8.54125
)」「	-8.54178
曉	-8.54309
許	-8.54343
法身	-8.54679
號	-8.54772
畫	-8.54951
記	-8.5497
順	-8.54984
鳴	-8.5511
源	-8.55149
消	-8.55191
煙	-8.55275
唱	-8.55313
住持	-8.55387
宿	-8.55497
北	-8.55631
嚴	-8.55753
賢	-8.55855
鼓	-8.56377
周	-8.56431
清淨	-8.56495
祖師	-8.5661
推	-8.56719
衲僧	-8.57086
溈山	-8.57113
原	-8.57139
暗	-8.57315
三昧	-8.57475
以為	-8.5751
帝	-8.57608
每	-8.57817
曲	-8.57889
又作麼生	-8.57901
端	-8.57926
禮拜	-8.58339
未免	-8.58371
喚作	-8.58376
泉	-8.58641
顧	-8.5882
雙	-8.59172
官	-8.59434
法界	-8.5958
出世	-8.59731
學人	-8.59923
象	-8.60047
恐	-8.60129
又云	-8.60271
○	-8.6028
急	-8.60561
設	-8.60647
乘	-8.60963
俗	-8.60979
張	-8.6105
翁	-8.61063
古今	-8.61097
百丈	-8.61326
首座	-8.6138
法門	-8.61435
像	-8.61479
臥	-8.61721
德山	-8.62126
渠	-8.62183
領	-8.62191
虗空	-8.62565
步	-8.62597
伊	-8.62739
魚	-8.6285
拄杖	-8.6297
陰	-8.63029
活	-8.6315
固	-8.63256
載	-8.63461
亦不	-8.63645
建	-8.63663
此是	-8.63796
悉	-8.63811
天地	-8.63823
仰	-8.63862
捨	-8.6408
齋	-8.64181
不在	-8.64302
況	-8.64328
弄	-8.64431
逢	-8.64529
盛	-8.64841
幽	-8.64855
頓	-8.65013
旨	-8.65075
錄	-8.65223
畢	-8.65268
方便	-8.65335
閑	-8.65361
呈	-8.65369
精	-8.6542
做	-8.65537
跡	-8.65724
可謂	-8.65801
藥	-8.66008
乃至	-8.663
座	-8.66461
角	-8.66547
虗	-8.66646
特	-8.66647
先師	-8.66819
移	-8.66981
:	-8.67076
勢	-8.67206
秀	-8.67359
舟	-8.67694
代云	-8.67739
世間	-8.678
雪峰	-8.67841
不肯	-8.67978
祖曰	-8.67986
世界	-8.6815
山云	-8.68306
冷	-8.68347
直得	-8.68439
也是	-8.68469
疏	-8.68563
黃檗	-8.68775
尋常	-8.68861
於此	-8.69076
徑山	-8.69129
習	-8.69174
菩提	-8.692
不用	-8.69361
布	-8.69502
天童	-8.6964
感	-8.6997
請師	-8.70133
痛	-8.70285
視	-8.70343
錢	-8.70537
夏	-8.70657
偈	-8.71216
謂之	-8.71284
竟	-8.71444
示眾云	-8.71477
直下	-8.71486
翻	-8.71496
個	-8.71498
嘗	-8.71564
契	-8.71625
陳	-8.71653
小參	-8.71966
投	-8.71981
歌	-8.7244
若不	-8.72466
亦無	-8.7272
量	-8.72722
無心	-8.72829
圖	-8.72982
不妨	-8.72985
民	-8.73325
逐	-8.73369
屬	-8.73558
縱	-8.73613
涅槃	-8.73945
詩	-8.73972
一一	-8.73993
為人	-8.74027
鏡	-8.74066
氏	-8.74123
覆	-8.74296
日月	-8.74476
學者	-8.74478
不曾	-8.74544
魔	-8.7477
折	-8.74834
無人	-8.74894
強	-8.75022
謁	-8.75135
山曰	-8.75173
背	-8.75613
穿	-8.75615
雪竇	-8.75692
供	-8.75864
羅	-8.76094
付	-8.76137
一箇	-8.76159
只是	-8.76264
運	-8.76272
舌	-8.7633
慶	-8.76382
室	-8.76428
霜	-8.7645
最	-8.7648
計	-8.76526
因甚	-8.76609
不同	-8.76703
連	-8.76742
「	-8.76793
棒	-8.76797
解脫	-8.76854
自在	-8.76871
不敢	-8.76989
即今	-8.7702
枝	-8.77128
不動	-8.77143
十方	-8.77157
展	-8.77165
長老	-8.77167
只如	-8.77178
談	-8.77253
禪師法嗣	-8.77351
輪	-8.77512
熱	-8.77528
不覺	-8.77566
商量	-8.77676
讀	-8.77733
敬	-8.77738
分別	-8.77956
光明	-8.78056
宣	-8.782
女	-8.78257
良久	-8.78348
珍重	-8.78522
冬	-8.7865
賊	-8.78686
越	-8.78804
亡	-8.78912
晚	-8.7923
擊	-8.79357
據	-8.79529
煩惱	-8.79577
喝	-8.7964
李	-8.79805
才	-8.79818
隔	-8.79898
類	-8.79898
境界	-8.79977
野	-8.80003
喝一喝	-8.80132
恩	-8.80187
寄	-8.80272
細	-8.80487
素	-8.80583
、	-8.80644
索	-8.80731
疾	-8.80831
現前	-8.80836
此事	-8.80845
種種	-8.81109
拜	-8.81175
直饒	-8.81214
不如	-8.81257
略	-8.81465
無所	-8.81622
適	-8.81668
師便打	-8.81735
舍	-8.81859
呼	-8.82177
泥	-8.82214
星	-8.8224
沙	-8.82281
加	-8.82583
作麼	-8.82671
田	-8.8269
洞	-8.82716
偏	-8.82848
碧	-8.82879
堪	-8.82971
葉	-8.83083
可以	-8.83124
增	-8.83132
脚	-8.83324
歷	-8.8334
仰山	-8.83486
勞	-8.83504
鳥	-8.83779
人天	-8.83842
眉	-8.83961
遺	-8.84026
燒	-8.84043
蒙	-8.84255
并	-8.84282
負	-8.84317
上堂云	-8.84392
肯	-8.84419
不出	-8.84475
堅	-8.84563
大地	-8.84654
奪	-8.8487
咸	-8.84976
遮	-8.85065
辯	-8.85067
無有	-8.85083
攝	-8.85156
反	-8.85183
這箇	-8.85602
治	-8.86174
良	-8.86282
養	-8.86522
功德	-8.86686
筆	-8.86894
備	-8.8695
劫	-8.86973
金剛	-8.87005
試	-8.8709
達磨	-8.87151
相似	-8.8731
獲	-8.87329
章	-8.87371
父母	-8.87413
仁	-8.87706
乾	-8.87802
啟	-8.87821
問曰	-8.8788
並	-8.88317
帶	-8.88498
河	-8.88705
尊者	-8.88764
振	-8.88866
是非	-8.88973
府	-8.88979
返	-8.89094
罪	-8.89152
遷	-8.89174
拈云	-8.89397
鬼	-8.89753
約	-8.89764
谷	-8.8981
頂	-8.90072
臺	-8.90186
為甚麼	-8.90226
刀	-8.90337
表	-8.90366
須是	-8.90417
借	-8.90485
峯	-8.90498
愚	-8.90686
真實	-8.90717
吹	-8.90768
何不	-8.90833
玄沙	-8.90856
大似	-8.90917
臣	-8.91164
處處	-8.91202
救	-8.9133
權	-8.9139
告	-8.91396
頌云	-8.91459
含	-8.91462
唐	-8.91616
愈	-8.92145
老漢	-8.92151
馬祖	-8.92179
器	-8.9228
真如	-8.92351
與麼	-8.92356
梅	-8.92363
謾	-8.92647
忽然	-8.92665
鶴	-8.92778
人人	-8.9282
敢	-8.92856
浮	-8.93001
無明	-8.93028
拄杖子	-8.93045
置	-8.93114
裡	-8.93121
無量	-8.93145
殿	-8.93217
繼	-8.93232
氏子	-8.93342
磨	-8.93406
觸	-8.93546
放下	-8.9363
界	-8.93635
請上堂	-8.93754
幸	-8.93837
胡	-8.93839
群	-8.93962
吞	-8.94006
不離	-8.94031
驗	-8.94124
咄	-8.94366
春風	-8.94397
闍黎	-8.94519
短	-8.94561
喪	-8.94894
所以道	-8.94936
省	-8.94963
罷	-8.95098
又問	-8.95104
惑	-8.95308
棄	-8.95642
服	-8.95894
道人	-8.96033
偶	-8.96269
障	-8.96283
兼	-8.9681
味	-8.97011
乞	-8.97131
響	-8.97148
黑	-8.9719
乃曰	-8.97311
屋	-8.97594
律	-8.97836
第一	-8.97872
石頭	-8.98025
之心	-8.9812
孝	-8.98137
鼻	-8.98171
無生	-8.98293
相逢	-8.98293
徑	-8.98347
刻	-8.98352
己	-8.98685
公案	-8.98729
道場	-8.98793
仙	-8.9887
】	-8.99041
喻	-8.99047
釋	-8.99134
者箇	-8.99273
殊	-8.99382
無事	-8.9967
青山	-8.99691
會得	-8.99725
縣	-8.99822
劍	-8.99864
徧	-8.99985
資	-9.00147
之所	-9.00163
值	-9.00198
會麼	-9.00287
直須	-9.00312
悲	-9.00387
勿	-9.00464
參禪	-9.00524
侍	-9.00588
末	-9.00847
儒	-9.00902
仍	-9.0093
法眼	-9.01259
何處	-9.01278
美	-9.01297
念佛	-9.01424
聖人	-9.01557
遣	-9.01714
玅	-9.01916
續	-9.0196
姓	-9.02011
華嚴	-9.0221
然後	-9.02216
聚	-9.02272
忍	-9.02391
萬里	-9.0243
比	-9.02469
勤	-9.02527
迎	-9.02566
游	-9.02576
池	-9.02643
葢	-9.02796
船	-9.02955
一片	-9.03036
盤	-9.0305
多少	-9.03136
身心	-9.03326
披	-9.0362
出來	-9.03622
雖然如是	-9.0372
一聲	-9.03786
茲	-9.04024
甞	-9.04053
汝等	-9.04064
默	-9.0415
若也	-9.04164
敲	-9.04169
護	-9.04228
釋迦	-9.04239
不為	-9.04274
從來	-9.04307
便打	-9.04417
便下座	-9.04446
山中	-9.04505
講	-9.04535
傾	-9.04544
良久曰	-9.04569
有人	-9.04716
懸	-9.04989
漸	-9.04993
修行	-9.05131
師問	-9.05231
伏	-9.05321
適來	-9.05345
自心	-9.05484
若有	-9.05548
楚	-9.05677
衲子	-9.05744
而今	-9.05923
壞	-9.0594
須彌	-9.05952
融	-9.06066
酒	-9.06145
熟	-9.06172
醉	-9.0622
識得	-9.06321
狂	-9.06408
大士	-9.06496
不著	-9.06715
免	-9.06756
千古	-9.06873
是甚麼	-9.06922
賣	-9.06933
涉	-9.06979
曹溪	-9.0698
秪	-9.07087
三界	-9.07364
兄	-9.07383
延	-9.07524
鐘	-9.07788
鑑	-9.07829
弘	-9.07852
訪	-9.07886
米	-9.07968
單	-9.08001
崇	-9.0802
掌	-9.08117
趣	-9.08125
壁	-9.08229
品	-9.08279
潛	-9.08314
挂	-9.08346
染	-9.08389
拔	-9.08484
決	-9.08627
甚麼	-9.08716
快	-9.08733
川	-9.08753
累	-9.08766
方丈	-9.08876
自已	-9.08906
睡	-9.08942
拂	-9.09056
阿	-9.09138
降	-9.09179
吐	-9.09184
家風	-9.09318
一心	-9.09418
比丘	-9.0948
遭	-9.09556
殘	-9.09868
兒孫	-9.09885
孫	-9.09966
者麼	-9.09968
不然	-9.1004
;	-9.10104
扶	-9.10112
調	-9.10113
題	-9.10137
贊	-9.1038
怪	-9.10499
雪峯	-9.10634
眠	-9.10634
瑞	-9.10652
無為	-9.10721
迦葉	-9.10733
以此	-9.1079
師乃	-9.10797
庭	-9.10927
於是	-9.10937
列	-9.11146
大小	-9.11227
成佛	-9.1125
至今	-9.11454
血	-9.1149
維那	-9.11532
岸	-9.11544
授	-9.1157
弗	-9.11607
招	-9.1169
添	-9.11731
抱	-9.11849
彌勒	-9.11906
將來	-9.12012
景	-9.12064
皆是	-9.12116
柳	-9.123
無礙	-9.12338
問僧	-9.12361
村	-9.12668
妄想	-9.12732
翠	-9.12746
一喝	-9.12914
倚	-9.12975
本無	-9.13204
向上	-9.1328
天台	-9.13288
酬	-9.13303
赤	-9.13318
一任	-9.13349
正是	-9.13563
雲居	-9.13594
顏	-9.13739
補	-9.13902
殊不知	-9.14131
揚	-9.14226
時節	-9.14288
工夫	-9.14368
受用	-9.14435
千里	-9.14512
癡	-9.14718
經云	-9.14883
掃	-9.14921
蛇	-9.14925
圓通	-9.14987
者也	-9.15131
本來	-9.15235
傷	-9.15305
助	-9.15371
三年	-9.15441
湖	-9.15447
礙	-9.15476
貧	-9.15544
誦	-9.15621
洗	-9.1575
演	-9.15763
追	-9.15826
恁麼則	-9.15904
恒	-9.15919
曰如何是	-9.15929
一點	-9.15959
鳳	-9.16136
左	-9.16372
外道	-9.16377
是故	-9.16414
簡	-9.16463
賜	-9.16496
目前	-9.1659
旋	-9.16728
三世諸佛	-9.16895
艸	-9.16909
切忌	-9.1705
趨	-9.17052
惠	-9.17108
腳	-9.17194
封	-9.17434
意旨如何	-9.1751
吳	-9.17614
即不問	-9.17636
作麼生是	-9.17647
甘	-9.1772
在甚麼處	-9.17963
烏	-9.18085
憶	-9.18154
不及	-9.18165
終日	-9.18205
梁	-9.18343
道理	-9.18408
積	-9.18443
第二	-9.18456
雜	-9.1848
婆	-9.18573
際	-9.18648
宋	-9.18649
承當	-9.18693
閣	-9.18826
總是	-9.18826
網	-9.1884
未曾	-9.18877
愁	-9.1899
貪	-9.191
認	-9.19168
無端	-9.1919
紫	-9.19237
門下	-9.19248
名為	-9.19336
塞	-9.1936
縱橫	-9.19378
枯	-9.19478
究竟	-9.19522
無不	-9.1955
傍	-9.19607
藥山	-9.19613
明月	-9.19681
得麼	-9.19819
消息	-9.20004
巧	-9.20038
者裏	-9.20049
不生	-9.20059
樓	-9.20113
釋迦老子	-9.20216
凡聖	-9.20354
黃龍	-9.20354
恁麼道	-9.20376
序	-9.20406
床	-9.20414
忠	-9.20572
碎	-9.20604
云何	-9.20701
車	-9.20773
有箇	-9.20812
驀	-9.20901
太平	-9.20916
自有	-9.20918
條	-9.20966
右	-9.21001
寬	-9.21229
澄	-9.21293
入室	-9.21472
板	-9.21552
善知識	-9.2156
一切眾生	-9.21569
輝	-9.21671
常住	-9.21676
有一	-9.21787
譬如	-9.21801
嶺	-9.21834
從此	-9.22005
毒	-9.22036
這僧	-9.22063
皇	-9.22065
是以	-9.22289
寫	-9.22335
拈出	-9.22339
納	-9.22522
神通	-9.22587
知音	-9.22603
師子	-9.22654
何以	-9.2267
州云	-9.22731
富	-9.22783
須知	-9.22798
既是	-9.22922
昨日	-9.23033
究	-9.23095
犯	-9.23211
履	-9.23545
撥	-9.23549
爭奈	-9.2357
彰	-9.23643
更有	-9.23656
亦非	-9.23696
陞座	-9.2392
賓	-9.23998
思量	-9.24026
一生	-9.24073
莊嚴	-9.24183
報恩	-9.2421
依舊	-9.24212
雷	-9.24241
為什麼	-9.24382
薦	-9.24584
詣	-9.24627
不須	-9.2467
赴	-9.24754
者僧	-9.2495
人間	-9.25135
曹山	-9.25244
恨	-9.25309
屈	-9.25314
皮	-9.25314
橋	-9.25329
速	-9.25383
違	-9.2561
擬議	-9.25631
縛	-9.2564
不住	-9.25642
坐斷	-9.25808
驢	-9.25901
蓮	-9.25928
平生	-9.26001
質	-9.26194
無相	-9.26201
方知	-9.26283
飲	-9.263
也未	-9.26309
▁「	-9.26318
佛性	-9.26335
凡夫	-9.26372
務	-9.26373
日用	-9.26442
釣	-9.26461
私	-9.26623
毛	-9.26672
眼睛	-9.26777
若無	-9.26838
昧	-9.26873
冰	-9.26891
荒	-9.26958
牽	-9.26992
剛	-9.27024
戶	-9.27039
猶是	-9.27045
途	-9.27069
人也	-9.27077
專	-9.2711
踏	-9.27134
沉	-9.27138
興化	-9.27175
忙	-9.27223
英	-9.27293
飽	-9.27414
不免	-9.27468
謹	-9.27526
友	-9.27632
荷	-9.27771
夾山	-9.27785
席	-9.27808
晴	-9.27835
這裏	-9.27931
閱	-9.27987
沈	-9.27997
狀	-9.28033
知識	-9.28048
鄉	-9.28159
震	-9.28299
萬物	-9.286
今時	-9.28607
何曾	-9.28616
地獄	-9.28736
杖	-9.28747
底人	-9.28832
綠	-9.28914
文字	-9.28966
一言	-9.28983
巖頭	-9.29134
洪	-9.29136
改	-9.2923
石霜	-9.29252
念念	-9.29322
榮	-9.29327
有省	-9.29366
平等	-9.29454
奇特	-9.29528
老和尚	-9.29561
昔日	-9.29664
韻	-9.29803
憑	-9.29833
國師	-9.29859
宮	-9.29888
偈曰	-9.2994
舞	-9.2998
險	-9.29995
彌	-9.30002
萬法	-9.30088
別有	-9.30349
山河大地	-9.30396
道者	-9.30643
里	-9.3067
鑒	-9.30685
行脚	-9.30732
終不	-9.30876
尾	-9.30902
歇	-9.30933
不解	-9.30967
風吹	-9.31021
劒	-9.31514
儞	-9.3165
威	-9.31671
淨土	-9.31707
差	-9.31713
禪人	-9.31721
分付	-9.31787
暮	-9.31931
箇甚麼	-9.32086
之人	-9.32323
生滅	-9.32421
崖	-9.32665
到此	-9.32669
遲	-9.3282
紙	-9.32891
葛藤	-9.32897
尤	-9.32901
遙	-9.3295
銀	-9.32957
:『	-9.32963
祝	-9.32991
渡	-9.33048
祇如	-9.33452
儀	-9.33521
自巳	-9.33603
之中	-9.3362
薄	-9.33955
六祖	-9.34015
淺	-9.34027
獻	-9.34181
符	-9.34203
打破	-9.34213
觀音	-9.34241
避	-9.34307
兵	-9.3449
拈起	-9.34581
爐	-9.34598
讚	-9.34623
搖	-9.3468
中有	-9.34714
清風	-9.34782
隆	-9.34936
僧禮拜	-9.34962
至於	-9.35049
制	-9.35068
聲色	-9.35183
郎	-9.35395
不受	-9.35485
知見	-9.35597
各各	-9.35644
澤	-9.35694
擔	-9.35698
自性	-9.35789
井	-9.35839
通身	-9.3588
拳	-9.35939
知有	-9.35944
又曰	-9.36042
憂	-9.36152
而巳	-9.3616
醒	-9.36171
摩	-9.36215
諸法	-9.36289
亦是	-9.36365
危	-9.36392
錦	-9.3641
蹤	-9.3642
買	-9.36513
輩	-9.36571
一切法	-9.36686
阿難	-9.36861
無語	-9.36888
厚	-9.37229
迴	-9.37373
宗旨	-9.37445
支	-9.37662
為甚	-9.3769
吉	-9.37739
湯	-9.37758
大道	-9.37778
露柱	-9.37811
慮	-9.37933
莫是	-9.38029
拂子	-9.38148
尼	-9.38155
大家	-9.38181
谿	-9.38234
不成	-9.38278
君子	-9.38306
明日	-9.3832
廢	-9.38336
渾	-9.38397
到這裏	-9.38533
盡是	-9.38581
害	-9.3864
瞎	-9.38643
豎	-9.38678
工	-9.3885
召	-9.38907
具足	-9.38933
陵	-9.38986
行者	-9.39046
悅	-9.39081
聊	-9.39301
卓	-9.39322
往來	-9.39345
掩	-9.39393
全身	-9.39522
十二	-9.39606
慕	-9.39649
箭	-9.39653
眉毛	-9.39663
之法	-9.39686
故曰	-9.39694
昌	-9.39732
之道	-9.39819
有何	-9.39932
肉	-9.39959
絲	-9.39982
園	-9.40093
獅子	-9.40097
候	-9.4014
是什麼	-9.40182
顛倒	-9.40199
潭	-9.40287
三十	-9.40369
四海	-9.40384
無盡	-9.40437
管	-9.40447
芳	-9.40493
如何是佛	-9.40513
楊	-9.40564
滯	-9.40639
辦	-9.40651
今古	-9.40655
復舉	-9.41068
當陽	-9.41104
拋	-9.41302
覿面	-9.41345
萬象	-9.4143
吟	-9.41492
丈	-9.41666
相應	-9.4173
詔	-9.41859
投子	-9.41987
千聖	-9.41997
阿誰	-9.42004
冥	-9.42076
武	-9.42181
智慧	-9.42267
便喝	-9.42354
圓明	-9.42607
面目	-9.42662
附	-9.4273
述	-9.42741
問訊	-9.42753
擲	-9.42875
晚參	-9.43029
孰	-9.43062
讓	-9.43223
頻	-9.43317
換	-9.43378
惜	-9.43415
逆	-9.43494
揮	-9.43511
鋒	-9.43837
末後	-9.43952
混	-9.43969
標	-9.43978
不信	-9.44028
也須	-9.44139
大慧	-9.44141
去來	-9.4416
轉身	-9.44164
󲊛	-9.44246
囑	-9.44261
不必	-9.44417
左右	-9.44459
瞞	-9.44508
答曰	-9.44517
不落	-9.44598
若能	-9.44678
不明	-9.44707
隨緣	-9.44757
賴	-9.44785
不聞	-9.44798
沙門	-9.44823
不盡	-9.44882
僧無語	-9.45022
規	-9.45057
其中	-9.45118
駕	-9.45262
到者裏	-9.45314
畔	-9.45339
自是	-9.45376
博	-9.45436
保	-9.45539
討	-9.45889
雄	-9.45895
話頭	-9.45939
瞻	-9.46009
普賢	-9.46047
泰	-9.46068
黃金	-9.46104
霞	-9.46123
部	-9.46126
昭	-9.46128
勸	-9.46209
啼	-9.4621
妙喜	-9.4623
喝一喝云	-9.46352
而去	-9.46504
伯	-9.46593
舉似	-9.46687
楊岐	-9.46769
舌頭	-9.46807
舒	-9.46843
不起	-9.46857
聻	-9.46863
歸宗	-9.46931
充	-9.46943
徵	-9.47057
令人	-9.47118
一句作麼生道	-9.47178
秦	-9.47256
亭	-9.47307
希	-9.47339
還會麼	-9.47417
浴	-9.47425
哭	-9.47542
棲	-9.47552
時如何師云	-9.47583
舍利	-9.47676
騎	-9.47678
奏	-9.47701
鎮	-9.47847
埋	-9.4796
苟	-9.48031
繫	-9.48045
作家	-9.48072
欽	-9.48256
誰知	-9.48283
拙	-9.48322
西天	-9.48425
爛	-9.48478
語錄	-9.48492
覩	-9.48539
朱	-9.48555
統	-9.48563
不許	-9.48597
顛	-9.48616
詞	-9.48782
衰	-9.48817
斬	-9.4883
大乘	-9.48848
莫道	-9.48881
髮	-9.49012
自己	-9.49139
一法	-9.4917
何人	-9.49243
無邊	-9.49379
將謂	-9.49387
成就	-9.49474
昏	-9.49484
烟	-9.49505
指示	-9.49526
幼	-9.49548
南嶽	-9.4957
困	-9.49613
罵	-9.49655
秖	-9.49671
淵	-9.49686
大事	-9.49714
兄弟	-9.49738
扣	-9.49752
什麼	-9.49808
哀	-9.49872
猶如	-9.49876
明明	-9.49883
編	-9.49939
童	-9.49994
房	-9.50009
公曰	-9.50071
射	-9.5018
雲巖	-9.50236
弟	-9.50335
柴	-9.50362
懶	-9.5053
此心	-9.50587
是誰	-9.50592
古佛	-9.50847
慈悲	-9.5087
迹	-9.50908
怒	-9.50996
四大	-9.51049
珍	-9.51171
元來	-9.51214
牙	-9.51232
紹	-9.51245
齒	-9.5131
見得	-9.51385
第	-9.5155
預	-9.51579
不可得	-9.51692
法華	-9.51694
貫	-9.51738
朗	-9.5177
按	-9.51831
純	-9.51842
五祖	-9.51863
誤	-9.51958
無對	-9.51965
卓拄杖云	-9.52008
從上	-9.52203
剎	-9.52292
無可	-9.52501
有無	-9.52594
掛	-9.5274
拍	-9.52791
伸	-9.52819
許多	-9.52842
靈山	-9.52845
何如	-9.5285
饑	-9.52904
東山	-9.52915
開口	-9.53122
費	-9.53154
禁	-9.53165
豈不是	-9.53259
自家	-9.53273
恭	-9.53317
內外	-9.53326
稍	-9.5335
孔	-9.53394
等閒	-9.53545
何必	-9.53678
騰	-9.537
未有	-9.53759
議	-9.53823
闊	-9.5385
狗	-9.53926
一般	-9.54024
映	-9.54092
競	-9.54106
請和尚	-9.54117
錫	-9.54118
畢竟如何	-9.54144
不到	-9.54184
在什麼處	-9.54219
請益	-9.54361
互	-9.54557
莊	-9.54728
不顧	-9.54755
嘉	-9.5481
荅	-9.54938
聖凡	-9.54944
十八	-9.55014
翻身	-9.55106
膽	-9.5514
彼此	-9.55155
檀越	-9.5523
操	-9.55462
要且	-9.55546
墨	-9.55635
財	-9.55846
市	-9.55876
法師	-9.55951
昨夜	-9.56008
潤	-9.56133
清涼	-9.56166
克	-9.5621
第三	-9.56335
冠	-9.5659
瓶	-9.56609
淡	-9.56732
從前	-9.56866
不見道	-9.56869
當下	-9.56912
毀	-9.5709
無非	-9.57177
塵勞	-9.57383
一字	-9.57395
較	-9.57412
宗風	-9.57585
特地	-9.5763
梵	-9.57636
之後	-9.57675
不易	-9.57802
後來	-9.5791
凝	-9.57957
佛殿	-9.57964
御	-9.58012
大法	-9.58035
損	-9.5811
灰	-9.58248
無私	-9.58357
宗門	-9.58448
龕	-9.5855
風流	-9.58569
其或未然	-9.58572
喫飯	-9.58588
祖云	-9.5861
無異	-9.58679
委	-9.58702
亦有	-9.58732
開堂	-9.58778
歎	-9.58845
為之	-9.5907
擇	-9.59097
欺	-9.59198
沙彌	-9.59258
底事	-9.5929
奔	-9.59323
政	-9.59349
大海	-9.59387
大悟	-9.594
鉢	-9.59408
圓悟	-9.59495
僧擬議	-9.59519
作禮	-9.59564
之時	-9.5964
慈明	-9.59659
不足	-9.59673
窗	-9.59767
暫	-9.59776
大德	-9.59783
穴	-9.59846
睹	-9.59859
道吾	-9.59925
遵	-9.60236
肩	-9.6024
因僧問	-9.60286
面前	-9.60311
丘	-9.6032
即得	-9.6034
覔	-9.60404
患	-9.60405
藉	-9.60444
謗	-9.60538
臂	-9.60549
竊	-9.60566
羣	-9.60567
鎖	-9.60799
法嗣	-9.60821
豈不	-9.60838
西來	-9.6091
伎倆	-9.61009
盈	-9.61027
龜	-9.61058
頭頭	-9.61122
怨	-9.61168
率	-9.6117
端的	-9.61173
其人	-9.61212
見聞	-9.6122
花開	-9.61223
鼎	-9.61247
師便喝	-9.61321
歸來	-9.61418
蕩	-9.61422
霧	-9.6152
丈夫	-9.61564
若道	-9.61637
探	-9.61697
差別	-9.61749
戲	-9.61781
提起	-9.61868
三千	-9.61873
本分	-9.61879
缺	-9.61896
不昧	-9.61931
醫	-9.6209
典	-9.62099
室中	-9.62142
耕	-9.62277
童子	-9.62297
三寶	-9.62403
無常	-9.62503
桂	-9.62578
門云	-9.62744
與人	-9.62769
卒	-9.62774
何事	-9.62787
吼	-9.62914
到處	-9.63021
程	-9.63045
豈有	-9.63151
不假	-9.63162
頭上	-9.63323
馳	-9.63353
昇	-9.63389
夙	-9.63422
護法	-9.63436
。○	-9.6345
彈指	-9.63574
建立	-9.63718
汝等諸人	-9.63816
箇箇	-9.63846
空中	-9.63879
維摩	-9.6389
只為	-9.63908
大覺	-9.63934
古人道	-9.63947
賞	-9.63959
注	-9.6397
彩	-9.64126
更無	-9.64382
見解	-9.64389
蜀	-9.64476
未嘗	-9.64482
南山	-9.64504
自知	-9.64512
父子	-9.64555
開示	-9.64565
無二	-9.6457
是名	-9.64591
以拄杖	-9.64632
不少	-9.64682
怕	-9.64719
軍	-9.64721
窟	-9.64793
廓	-9.64801
少林	-9.64848
與你	-9.64898
正好	-9.64958
無窮	-9.64992
丹	-9.65053
悔	-9.65067
寮	-9.65176
實相	-9.65222
正眼	-9.65281
逸	-9.65335
牧	-9.65452
郡	-9.65548
佛事	-9.65575
插	-9.65578
動靜	-9.65661
十五	-9.65751
學道	-9.65767
發明	-9.6577
魂	-9.65855
尺	-9.65895
扇	-9.65895
漫	-9.65922
片	-9.65976
何所	-9.66061
菜	-9.66071
三月	-9.66138
有餘	-9.66387
漏	-9.66422
便見	-9.66436
智者	-9.66479
有所	-9.66506
二十	-9.66553
其所	-9.66574
截	-9.66621
天寧	-9.66633
麤	-9.66645
戰	-9.66664
而無	-9.66736
煩	-9.66821
寸	-9.66859
西方	-9.66948
躬	-9.67019
慣	-9.67043
時人	-9.67074
司	-9.67094
睦州	-9.67142
正法	-9.67186
嫌	-9.67191
只得	-9.6724
袈裟	-9.67258
不作	-9.67274
上人	-9.67363
之事	-9.67489
基	-9.67507
放過	-9.67552
汾陽	-9.67659
不過	-9.67695
不壞	-9.67697
因果	-9.6779
不二	-9.67852
何須	-9.68008
門人	-9.68057
重重	-9.68066
與他	-9.68119
盧	-9.68176
歡喜	-9.68215
詳	-9.68259
故云	-9.68276
逼	-9.68326
古德	-9.68335
蘇	-9.68356
窺	-9.68392
捉	-9.68526
徐	-9.6854
斗	-9.68548
一棒	-9.68566
祥	-9.68611
敗	-9.68617
乳	-9.68629
三十年	-9.68632
嶽	-9.68649
我今	-9.68664
豐	-9.68781
合掌	-9.68815
山門	-9.68836
說話	-9.68902
枯木	-9.68906
蘊	-9.68964
與汝	-9.68999
此語	-9.69027
出入	-9.69035
然則	-9.69171
靈隱	-9.6925
當年	-9.6925
香嚴	-9.69293
」】「	-9.6946
冤	-9.69466
機緣	-9.69467
大悲	-9.69593
如斯	-9.69627
不說	-9.69643
銕	-9.69682
到來	-9.69691
一向	-9.69828
性命	-9.6986
蘭	-9.69887
瓦	-9.69948
峻	-9.70077
還知	-9.70096
薦得	-9.70114
龍門	-9.70132
拈拄杖	-9.70226
一味	-9.7025
尊宿	-9.70251
熏	-9.7026
羅漢	-9.70283
鍾	-9.70292
諱	-9.70353
其僧	-9.70401
氷	-9.70434
丹霞	-9.70479
如何是祖師西來意	-9.7048
流水	-9.70484
旁	-9.7051
佗	-9.7056
之言	-9.70734
不了	-9.708
言語	-9.70861
何得	-9.70868
決定	-9.70889
之旨	-9.70916
炤	-9.70951
雅	-9.71006
始知	-9.71032
握	-9.71067
猛	-9.71072
何用	-9.71195
鞭	-9.71288
善財	-9.71294
殺人	-9.71368
然雖如是	-9.71471
結制	-9.71584
一枝	-9.71631
來也	-9.71716
果然	-9.71736
何也	-9.71751
未能	-9.71794
山河	-9.71805
寂滅	-9.71825
抵	-9.71868
金粟	-9.71947
十年	-9.71991
看看	-9.72176
無言	-9.72275
伴	-9.72342
一個	-9.7254
長慶	-9.72554
郤	-9.72657
由是	-9.72696
繞	-9.72736
纏	-9.72758
俾	-9.72771
厭	-9.72829
播	-9.73075
先生	-9.73076
復云	-9.73106
七日	-9.73144
油	-9.73235
辜負	-9.73238
墜	-9.73267
廣大	-9.73408
後如何	-9.73454
賓主	-9.73542
岳	-9.736
東西	-9.73602
門庭	-9.73622
叫	-9.73721
干	-9.73814
博山	-9.7388
涼	-9.73962
入山	-9.73996
一條	-9.74047
場	-9.74274
直指	-9.74275
證明	-9.74313
人之	-9.74376
包	-9.74423
示寂	-9.74429
欠	-9.74429
托	-9.74451
三聖	-9.74611
善惡	-9.74626
三十棒	-9.74631
精進	-9.74636
法王	-9.74643
一著	-9.74672
又道	-9.74693
問云	-9.74733
門前	-9.74768
不涉	-9.74781
語言	-9.74813
不立	-9.74958
不異	-9.75036
道得	-9.75096
秪如	-9.75106
停	-9.75115
麻	-9.75194
無限	-9.75204
謀	-9.753
遶	-9.75317
江西	-9.75319
對曰	-9.75334
升	-9.75355
座主	-9.75376
正恁麼時	-9.75385
時時	-9.75521
察	-9.75533
貌	-9.75628
巢	-9.75826
門外	-9.75885
那箇	-9.759
夜半	-9.75985
祇是	-9.76036
銘	-9.76077
安樂	-9.76077
兩箇	-9.76115
敘	-9.76139
跳	-9.76199
見性	-9.76243
則不然	-9.76313
枕	-9.76407
樣	-9.7644
者個	-9.76441
五百	-9.76522
天子	-9.76527
當人	-9.7654
無別	-9.76583
大千	-9.76591
撫	-9.76647
排	-9.76733
上下	-9.76752
額	-9.76873
前後	-9.76914
憐	-9.76964
燭	-9.76998
拽	-9.77024
桃花	-9.7709
岩	-9.77147
風穴	-9.77153
抑	-9.77203
不以	-9.77423
雞	-9.77443
侵	-9.77446
三下	-9.77467
占	-9.77475
而為	-9.77483
過去	-9.77492
為汝	-9.77542
雖則	-9.77585
生平	-9.77621
庶	-9.77785
燒香	-9.77829
當機	-9.77918
脩	-9.77953
耀	-9.77967
羊	-9.78047
直是	-9.78061
所見	-9.78114
簾	-9.78127
不入	-9.78182
行腳	-9.78221
舉僧問	-9.78256
裂	-9.78277
士曰	-9.78399
且置	-9.78469
價	-9.78479
百千	-9.78616
歡	-9.78618
不思議	-9.78626
籠	-9.78707
心地	-9.78819
當頭	-9.78826
徹底	-9.79032
陷	-9.79052
大用	-9.79093
着	-9.79127
咦	-9.79134
天然	-9.79135
一則	-9.79181
捧	-9.79188
繩	-9.79244
闕	-9.79279
季	-9.79357
長者	-9.79434
堂堂	-9.79443
進云如何是	-9.79786
者是	-9.79795
鮮	-9.79832
鼓山	-9.79879
賤	-9.79934
之間	-9.79997
衲	-9.80042
現成	-9.80058
聞之	-9.80099
甲	-9.802
流通	-9.80211
往往	-9.80218
抽	-9.80244
錐	-9.80278
僧無對	-9.80311
濕	-9.80338
楞嚴	-9.80348
旦	-9.80414
鉤	-9.80481
舉揚	-9.80488
稟	-9.80496
囊	-9.80508
栽	-9.80559
稽首	-9.80577
壯	-9.8062
愧	-9.80622
巨	-9.80633
趁	-9.80659
茂	-9.80756
肅	-9.80784
普請	-9.8079
草鞋	-9.80797
三世	-9.80802
勘破	-9.80809
陸	-9.80833
親見	-9.80882
擎	-9.80961
只要	-9.81002
敵	-9.81041
作甚麼	-9.81051
見處	-9.81108
箇什麼	-9.81184
淚	-9.81194
不容	-9.81201
晦	-9.81206
髑髏	-9.81255
進云恁麼則	-9.81413
歸方丈	-9.81453
畏	-9.81549
攀	-9.81691
乖	-9.81694
而出	-9.81739
屏	-9.81886
富貴	-9.81914
低	-9.82018
師打云	-9.82063
殺活	-9.82102
若論	-9.82209
一場	-9.82228
參學	-9.8228
鄰	-9.82295
一回	-9.82337
而後	-9.8245
少室	-9.82478
咬	-9.82569
該	-9.82601
長安	-9.82742
雖有	-9.82743
諦	-9.82782
撒	-9.82797
嗟	-9.8302
宇宙	-9.83024
夕	-9.83039
江南	-9.83046
訓	-9.83143
慎	-9.83216
針	-9.83242
蒼	-9.83309
瞿曇	-9.8335
蹉過	-9.83391
而有	-9.83447
一齊	-9.8355
垢	-9.83582
胎	-9.83597
死生	-9.83634
晝夜	-9.83669
之意	-9.83741
燕	-9.83779
戀	-9.83826
之士	-9.83846
頗	-9.83878
中間	-9.83879
些	-9.83893
挑	-9.83905
所說	-9.83915
寓	-9.83937
禍	-9.83962
饒	-9.83979
營	-9.83996
彌陀	-9.84028
史	-9.84078
悉皆	-9.84113
與我	-9.84165
凍	-9.84267
思惟	-9.84303
即此	-9.8435
叟	-9.84352
便行	-9.84358
伏願	-9.84415
若人	-9.84503
茅	-9.8451
法性	-9.8454
淨慈	-9.84586
註	-9.84593
侯	-9.84663
審	-9.84682
更不	-9.84765
出門	-9.84787
這個	-9.84812
臭	-9.84895
大笑	-9.85068
腰	-9.85102
有甚	-9.85114
而逝	-9.85264
言句	-9.85287
趙	-9.85298
勉	-9.85336
申	-9.85344
。』	-9.85359
士云	-9.85394
甘露	-9.85432
側	-9.85498
獨露	-9.85533
堂中	-9.85539
斜	-9.85559
那箇是	-9.8561
一語	-9.85691
既無	-9.85802
猶未	-9.85842
格	-9.85863
溫	-9.85935
彈	-9.85985
軒	-9.86065
拈來	-9.86066
老宿	-9.8607
卜	-9.8621
此人	-9.86225
頃	-9.86301
焚	-9.86309
腹	-9.86385
逃	-9.86385
澗	-9.86401
六月	-9.86404
如意	-9.86408
同參	-9.86419
責	-9.86447
津	-9.86449
勘	-9.86468
奚	-9.86486
惟有	-9.86511
謙	-9.86533
一下	-9.8657
根本	-9.86618
梅花	-9.86714
乍	-9.86723
檀	-9.86861
何以故	-9.86873
便問	-9.86891
二人	-9.86929
遽	-9.86929
夷	-9.87
湛	-9.87024
安排	-9.87035
莫不	-9.87107
俊	-9.87116
同一	-9.87131
篇	-9.87142
之曰	-9.87167
暖	-9.87198
本來面目	-9.87283
真心	-9.87313
銅	-9.87333
全彰	-9.87354
諸仁者	-9.87371
環	-9.87492
粥	-9.87556
豁	-9.8759
示眾曰	-9.87727
贈	-9.8774
不自	-9.87785
陀	-9.87787
高峰	-9.87858
不可以	-9.87868
豈可	-9.87881
無我	-9.87922
銷	-9.87927
如何得	-9.87984
仲	-9.8812
不忘	-9.88125
正法眼藏	-9.88152
逢人	-9.88173
底麼	-9.88203
不從	-9.88207
廬山	-9.88269
依然	-9.88291
幢	-9.88301
聲聞	-9.88331
琴	-9.88369
之際	-9.88378
一見	-9.8842
還見	-9.88422
何妨	-9.88424
減	-9.88435
老子	-9.88486
是佛	-9.88486
二十年	-9.88504
與諸人	-9.88606
塗	-9.88623
歟	-9.88625
從教	-9.88666
個甚麼	-9.887
線	-9.88702
行人	-9.88708
泛	-9.88832
兔	-9.88841
覷	-9.88857
案	-9.88915
學云	-9.88918
二年	-9.88933
緇素	-9.88968
記得	-9.89028
不堪	-9.89071
陶	-9.89106
迷悟	-9.89269
杜	-9.893
只在	-9.89354
便道	-9.89395
鹿	-9.89426
屢	-9.89474
嗚呼	-9.89498
商	-9.89558
躍	-9.89576
在此	-9.89592
派	-9.89637
未得	-9.89658
師乃云	-9.89662
育王	-9.89676
佳	-9.8972
僧問如何是	-9.89745
拘	-9.8975
奴	-9.89811
黃梅	-9.89815
未幾	-9.89864
住山	-9.90036
其心	-9.90089
晝	-9.90136
堆	-9.9014
匪	-9.90159
倫	-9.90204
南方	-9.90283
本師	-9.90323
莫能	-9.90343
揀	-9.90403
些子	-9.90409
用心	-9.90416
人情	-9.90459
毋	-9.90462
有僧	-9.90509
偈云	-9.90554
手裏	-9.90584
石女	-9.90633
且喜	-9.90753
必有	-9.90757
無上	-9.90811
山僧今日	-9.90816
繁	-9.909
四眾	-9.90901
後人	-9.90964
宗乘	-9.90977
泯	-9.91022
辱	-9.91188
惺惺	-9.91275
那邊	-9.91338
是何	-9.9135
當知	-9.9137
壑	-9.91389
例	-9.91424
之理	-9.9144
猿	-9.91465
回首	-9.91496
考	-9.91565
他日	-9.91639
之機	-9.91679
之門	-9.91735
一僧	-9.91792
坐禪	-9.91839
妙用	-9.91871
看他	-9.91882
拈拄杖云	-9.91916
不通	-9.91991
盆	-9.92048
默然	-9.92058
意作麼生	-9.92064
宗師	-9.92119
驅	-9.92151
近前	-9.92247
叩	-9.92273
夢中	-9.92281
草木	-9.92308
剖	-9.92336
導	-9.92394
亦如是	-9.92411
兩頭	-9.92507
勇	-9.92523
宅	-9.92601
有一人	-9.92613
田地	-9.92619
三日	-9.92628
可惜	-9.92641
示之	-9.9265
答云	-9.9265
國土	-9.92657
不合	-9.92673
術	-9.92949
鴻	-9.93009
唯有	-9.93022
未是	-9.93032
劉	-9.93038
要知	-9.93123
無門	-9.93153
於中	-9.93186
冀	-9.93187
一笑	-9.93306
欣	-9.9331
聖賢	-9.93402
龍象	-9.93483
所得	-9.93487
三藏	-9.93536
譚	-9.93573
截斷	-9.9362
各自	-9.93665
不問	-9.93671
無住	-9.93748
十六	-9.93782
全提	-9.93906
一路	-9.93909
次第	-9.93924
將軍	-9.93968
婆子	-9.93969
他人	-9.9397
它	-9.93972
一塵	-9.94035
無知	-9.94053
蟲	-9.94092
四方	-9.94168
採	-9.94169
不與	-9.94261
足下	-9.9428
誰是	-9.94308
以手	-9.9431
忌	-9.9433
穩	-9.94357
社	-9.94425
陞堂	-9.94466
飄	-9.9447
天王	-9.94481
歸去	-9.94481
祈	-9.94487
誇	-9.94525
豈非	-9.94549
久之	-9.94554
次日	-9.94781
二祖	-9.94798
世人	-9.9482
範	-9.94825
諸禪德	-9.94862
疎	-9.94872
鴈	-9.9491
眼目	-9.95083
隨處	-9.95089
千峰	-9.95114
一步	-9.95133
你道	-9.95147
枉	-9.95168
手中	-9.95203
選	-9.95255
跨	-9.95367
此時	-9.95402
現在	-9.95422
孤負	-9.95526
西堂	-9.95537
是同是別	-9.95564
今年	-9.95658
喫茶	-9.9566
閩	-9.95722
澹	-9.95751
得箇	-9.95841
不被	-9.95853
)」】「	-9.95858
三乘	-9.95867
天下人	-9.95891
倘	-9.95898
頓悟	-9.9591
微塵	-9.95933
鬼神	-9.96133
戴	-9.96136
缽	-9.96183
種子	-9.9623
故知	-9.9628
燈籠	-9.96288
不應	-9.96332
頂門	-9.9635
曰恁麼則	-9.96354
教人	-9.96367
始終	-9.96378
搆	-9.96434
黃蘗	-9.96507
潔	-9.96514
噫	-9.96548
馬大師	-9.96548
闢	-9.96554
是箇	-9.96622
拖	-9.96639
刃	-9.96676
奮	-9.96686
託	-9.96722
盜	-9.96815
貞	-9.969
出頭	-9.96903
院主	-9.96923
一身	-9.96956
宇	-9.97031
介	-9.97037
邊事	-9.97038
式	-9.97076
蓮花	-9.97104
乃問	-9.97117
袖	-9.97124
平地	-9.97152
柄	-9.97174
埋沒	-9.97257
邑	-9.97272
悟道	-9.97288
點頭	-9.97319
不斷	-9.97356
千年	-9.9739
孔子	-9.97419
秉	-9.97431
以來	-9.97442
坑	-9.97485
臘	-9.97485
等閑	-9.9749
湧	-9.9754
活計	-9.97583
燄	-9.97588
到家	-9.97667
把住	-9.97851
了無	-9.97916
可憐	-9.97944
眾中	-9.97979
未甞	-9.98006
亦名	-9.98056
有什麼	-9.98098
神光	-9.98129
一切處	-9.98166
蒲團	-9.98171
參究	-9.98213
所有	-9.9829
判	-9.98311
倦	-9.98323
一曲	-9.98343
之地	-9.9835
訣	-9.98384
翳	-9.98387
碑	-9.98393
誓	-9.9849
須彌山	-9.98497
曹	-9.98611
一段	-9.98696
韓	-9.98714
役	-9.98808
)。【	-9.98867
然而	-9.98884
慰	-9.98909
百年	-9.99037
粟	-9.99079
丁	-9.99109
泣	-9.99158
道德	-9.9917
你若	-9.99176
蹋	-9.99179
柱	-9.9922
悠悠	-9.99242
腸	-9.99358
胸	-9.9937
祖道	-9.99401
未來	-9.99416
佛日	-9.99418
與麼道	-9.99435
休去	-9.99454
不疑	-9.99493
是否	-9.99551
或有	-9.99553
明白	-9.99557
即不然	-9.99687
段	-9.99709
你諸人	-9.9971
曇	-9.99728
將去	-9.99734
是為	-9.99807
風雨	-9.9981
同時	-9.99863
無情	-9.99977
槌	-10.0003
主人	-10.0013
夜來	-10.0017
不相	-10.0021
輒	-10.0022
知解	-10.0023
輪迴	-10.0026
無間	-10.0026
回頭	-10.003
敕	-10.0034
是也	-10.0035
頑	-10.0041
併	-10.0043
茫茫	-10.0044
堂前	-10.0049
誰能	-10.005
不勞	-10.0052
柔	-10.0057
淳	-10.006
翼	-10.0065
看來	-10.0066
限	-10.0074
箇中	-10.0077
盖	-10.0081
六根	-10.0086
效	-10.01
鋪	-10.0103
謬	-10.0104
以至	-10.0104
既不	-10.0108
還見麼	-10.011
未知	-10.0121
將何	-10.0121
浦	-10.0124
詮	-10.0126
竿	-10.0138
法堂	-10.0145
近日	-10.0145
康	-10.0151
若要	-10.0155
金陵	-10.0156
還委悉麼	-10.016
維	-10.0166
呵呵大笑	-10.0168
窠臼	-10.0169
地藏	-10.0171
裁	-10.0173
若言	-10.0181
階	-10.0182
揭	-10.019
師拈云	-10.0191
作麼生道	-10.0193
撞著	-10.0194
格外	-10.02
皷	-10.021
準	-10.0217
為我	-10.0217
懺悔	-10.0218
不負	-10.0218
膝	-10.0221
拾得	-10.0221
完	-10.0228
何為	-10.0228
付囑	-10.0228
烹	-10.0231
泉云	-10.0242
晉	-10.0253
均	-10.0259
大丈夫	-10.0259
策	-10.0261
還他	-10.0261
時有	-10.0261
風光	-10.0267
禪者	-10.0273
發心	-10.0274
知其	-10.0275
撞	-10.029
先聖	-10.0297
泥牛	-10.0303
問答	-10.0307
賺	-10.031
輸	-10.0311
偷	-10.0313
非但	-10.0313
十二時中	-10.0316
見之	-10.0318
!	-10.032
之外	-10.0326
懼	-10.0345
要見	-10.0347
潑	-10.0353
藤	-10.0354
若非	-10.0355
天上	-10.0359
何似	-10.0368
為法	-10.037
一滴	-10.0371
不待	-10.0371
倍	-10.0372
算	-10.0372
陣	-10.0374
未見	-10.0375
頭角	-10.0375
揖	-10.038
師翁	-10.0386
烈	-10.039
汝諸人	-10.0397
說得	-10.0401
飢	-10.0411
卿	-10.0412
作什麼	-10.0414
自此	-10.042
魯	-10.0429
麗	-10.0432
餐	-10.0433
閉	-10.0438
是真	-10.044
割	-10.0445
喧	-10.0451
竭	-10.0458
掀翻	-10.0466
潮	-10.047
得失	-10.047
焰	-10.0471
闍梨	-10.0477
若以	-10.0486
轍	-10.0494
一番	-10.0494
有情	-10.0496
族	-10.0497
上來	-10.0501
無處	-10.0501
青天	-10.0502
便休	-10.0507
師便	-10.051
敷	-10.0511
鑿	-10.0514
萬古	-10.0515
濃	-10.052
靈雲	-10.052
寒暑	-10.0538
徒勞	-10.0541
即心即佛	-10.0551
植	-10.0552
慢	-10.0553
一色	-10.0554
雖是	-10.0556
侶	-10.0556
滄海	-10.0563
不變	-10.0564
不肖	-10.0566
法法	-10.0566
日日	-10.0568
禪客	-10.0574
伹	-10.0576
廬	-10.0582
五十	-10.0586
切莫	-10.0588
育	-10.0588
福州	-10.0594
莫有	-10.0604
椎	-10.0605
一毫	-10.0616
擁	-10.0617
个	-10.0617
弱	-10.0622
鼠	-10.0623
職	-10.0626
奈何	-10.0629
入門	-10.0633
拾	-10.0634
遍界	-10.0635
豁然	-10.0637
春色	-10.0638
聯	-10.0642
應諾	-10.0643
莫教	-10.0648
呵	-10.0655
仗	-10.0657
毫	-10.0662
雪竇云	-10.0665
三十年後	-10.0671
痕	-10.0671
末後句	-10.0684
便禮拜	-10.0696
嗔	-10.0705
牀	-10.0708
甚處來	-10.0712
京	-10.0714
覽	-10.0714
剎那	-10.0719
圓覺	-10.0719
懺	-10.0722
禪宗	-10.0725
成道	-10.0725
諸聖	-10.0729
而生	-10.0729
岐	-10.0731
要識	-10.0735
剪	-10.074
南北	-10.0742
祗	-10.0745
春秋	-10.075
鑽	-10.0752
提持	-10.0761
用處	-10.0765
石門	-10.0775
桃	-10.078
濁	-10.0787
步步	-10.0788
衝	-10.0795
逍遙	-10.0802
不消	-10.0804
鈍	-10.0806
三人	-10.0809
八十	-10.0811
胸中	-10.0815
斫	-10.0821
叅	-10.0824
男	-10.0828
薪	-10.0829
蓮華	-10.0833
嚼	-10.0837
催	-10.0839
軀	-10.085
摧	-10.0855
盲	-10.0859
五色	-10.0864
今人	-10.0864
紛紛	-10.0866
誕	-10.0867
紀	-10.0868
洲	-10.0871
十四	-10.0878
有二	-10.0882
敏	-10.0883
月明	-10.0883
笑曰	-10.0887
作麼生會	-10.0891
鐵牛	-10.0902
瞌睡	-10.0903
具眼	-10.0905
豪	-10.0906
十七	-10.0915
落處	-10.0915
呌	-10.0915
之下	-10.0917
又如何	-10.0917
是知	-10.0917
循	-10.0918
便出	-10.0922
名字	-10.0924
無位真人	-10.0935
巳前	-10.0955
東林	-10.0957
禪師語錄	-10.096
初參	-10.0961
此經	-10.0964
失却	-10.0965
二乘	-10.0966
不來	-10.0966
光陰	-10.0975
昨	-10.098
瘦	-10.098
壇	-10.0982
精神	-10.0984
蘆	-10.0986
上堂舉	-10.0986
祐	-10.0987
魏	-10.0994
作佛	-10.0998
是則	-10.1004
非是	-10.1005
防	-10.1006
棹	-10.1009
又是	-10.1011
六年	-10.1026
貼	-10.1031
有分	-10.1031
堪笑	-10.1033
突出	-10.1041
荊棘	-10.1043
木人	-10.1047
之則	-10.1051
警	-10.1053
十分	-10.1059
薦取	-10.1064
劣	-10.1064
慚	-10.1068
林下	-10.1071
壽昌	-10.1072
叢	-10.1081
鈎	-10.1082
之義	-10.1085
未到	-10.1088
俄	-10.1092
普化	-10.1098
一旦	-10.1104
容易	-10.1111
辰	-10.1117
逾	-10.1118
歲月	-10.1119
了知	-10.112
街	-10.1123
事如何	-10.1127
向者裏	-10.1134
緊	-10.1142
佛眼	-10.1146
卓拄杖下座	-10.1146
不惟	-10.1156
底是	-10.1165
無漏	-10.1167
歷歷	-10.118
卓拄杖	-10.1182
或云	-10.1183
剌	-10.1187
不契	-10.1194
知事	-10.1198
安居	-10.1201
撒手	-10.1204
之說	-10.1205
糞	-10.1212
何有	-10.1217
落在	-10.1221
眼裏	-10.1223
湘	-10.124
不屬	-10.1247
保福	-10.1253
未必	-10.1253
一物	-10.1256
賀	-10.126
此間	-10.1265
束	-10.1266
菴主	-10.1275
大溈	-10.1275
撐	-10.128
是汝	-10.1283
衛	-10.1285
衡	-10.1289
鬧	-10.1302
榻	-10.1304
此日	-10.1308
老師	-10.1317
聳	-10.1339
番	-10.134
和合	-10.1341
暑	-10.1345
早是	-10.1347
午	-10.1348
法席	-10.1349
何異	-10.1356
聰	-10.1358
鏡清	-10.136
師僧	-10.1368
無依	-10.1369
措	-10.138
豈不見	-10.1381
龍潭	-10.1383
便與	-10.1384
拈香	-10.1386
聰明	-10.1387
說破	-10.1389
貧道	-10.1394
故名	-10.1395
踏著	-10.1396
明年	-10.14
秋風	-10.1404
親近	-10.1405
曠	-10.1405
繇	-10.1409
圓滿	-10.141
竹篦	-10.1414
大王	-10.142
蹈	-10.1422
而能	-10.1425
以拂子	-10.1427
後學	-10.1429
喫棒	-10.1429
陰陽	-10.143
)。」【	-10.1431
得來	-10.1432
悟去	-10.1434
嵩	-10.1435
逝	-10.144
做工夫	-10.1448
若見	-10.145
慚愧	-10.1451
第一義	-10.1452
籌	-10.1453
局	-10.1457
那裏	-10.1467
函	-10.147
二月	-10.147
產	-10.1475
創	-10.1476
五位	-10.1476
有言	-10.1485
誨	-10.1485
見其	-10.1485
搭	-10.1489
㵎	-10.1489
瞋	-10.149
寂寂	-10.1491
非有	-10.1503
忽遇	-10.1504
山頭	-10.1512
習氣	-10.1513
頭陀	-10.1516
之語	-10.1519
則無	-10.1528
問取	-10.1528
生涯	-10.153
有個	-10.1532
本分事	-10.1532
遷化	-10.1538
透脫	-10.1539
蓬	-10.154
底道理	-10.155
若向	-10.1552
璧	-10.1553
全體	-10.1553
得法	-10.1553
各有	-10.1553
雪山	-10.156
分上	-10.1566
削	-10.1572
唾	-10.1577
宏	-10.158
方可	-10.1591
鹽	-10.1596
今之	-10.1596
沒交涉	-10.1604
平常	-10.1605
嘆	-10.1605
得一	-10.1606
見佛	-10.1608
師兄	-10.1609
明珠	-10.1613
之功	-10.1615
被人	-10.1618
浩浩	-10.162
本有	-10.1621
解制	-10.1627
互相	-10.1632
可得	-10.1634
誰敢	-10.1639
絃	-10.1641
向這裏	-10.1643
之者	-10.1645
靡	-10.1647
無著	-10.1651
苔	-10.1651
此中	-10.1654
料	-10.1654
道不得	-10.166
萬壽	-10.1661
寒山	-10.1663
未明	-10.1664
寡	-10.1666
沾	-10.1668
邦	-10.167
嵒	-10.1675
靈源	-10.1675
座下	-10.1689
紅塵	-10.169
師以	-10.1691
弊	-10.1699
樵	-10.1701
一事	-10.1702
增收	-10.1703
長空	-10.1707
整	-10.171
十九	-10.1715
穢	-10.1716
絲毫	-10.1718
綱	-10.1726
底句	-10.1726
伽藍	-10.1732
向道	-10.1738
▁|	-10.1743
不要	-10.1749
再來	-10.1749
竅	-10.175
甚處	-10.1758
山川	-10.1763
六十	-10.1765
不恁麼	-10.1769
師問僧	-10.1771
最初	-10.1776
醜	-10.1777
溺	-10.178
便歸方丈	-10.1783
放出	-10.1787
帳	-10.1789
為眾	-10.1792
何況	-10.1797
開法	-10.1798
大慈	-10.1798
眼中	-10.18
十字街頭	-10.1801
荊	-10.1808
透得	-10.1808
翠巖	-10.181
布袋	-10.1813
作用	-10.1813
及至	-10.1819
未了	-10.1819
寥寥	-10.1821
無數	-10.1823
尊貴	-10.1825
到底	-10.1825
趂	-10.1835
恰	-10.1838
真空	-10.184
也不	-10.184
龍池	-10.1856
向甚麼處去	-10.1859
疑情	-10.1859
拄	-10.1863
則有	-10.1866
得之	-10.1872
東土	-10.1872
難得	-10.1873
施主	-10.1876
挽	-10.188
開眼	-10.1887
半夜	-10.1891
言下	-10.1893
三句	-10.1903
得其	-10.1908
帝釋	-10.191
女子	-10.1911
芙蓉	-10.1912
不勝	-10.1916
心性	-10.1919
明得	-10.1924
性空	-10.1925
猶在	-10.1925
為一	-10.193
諸上座	-10.1934
個個	-10.1934
今夜	-10.1936
向甚麼處	-10.1936
藏身	-10.1942
還是	-10.1949
見聞覺知	-10.1954
紅爐	-10.1957
青原	-10.1959
還識	-10.1964
奈	-10.1971
誑	-10.1971
畜	-10.1979
經論	-10.1982
替	-10.1986
對眾	-10.1989
行住坐臥	-10.199
十月	-10.1991
牢	-10.1998
層	-10.2
眾人	-10.2
泐潭	-10.2001
撰	-10.2005
芝	-10.2008
麥	-10.2015
事作麼生	-10.202
一朝	-10.2023
西山	-10.2024
理事	-10.2024
攜	-10.2028
心法	-10.2032
棒喝	-10.2033
築	-10.2033
別人	-10.2034
電	-10.2035
羽	-10.2039
吾師	-10.2039
無形	-10.2041
得恁麼	-10.2042
賦	-10.2047
八月	-10.2053
瓦礫	-10.206
康熙	-10.2064
須臾	-10.2065
亦可	-10.2066
無念	-10.2068
長沙	-10.2069
大智	-10.207
古德云	-10.2071
収	-10.2072
何物	-10.2073
以何為	-10.2076
逞	-10.2077
傳燈	-10.2081
暴	-10.2084
州曰	-10.2087
而行	-10.2089
來者	-10.2091
堯	-10.2093
渴	-10.2094
更須	-10.2103
說甚	-10.2103
硬	-10.2106
巾	-10.2107
啞	-10.2109
被他	-10.2109
自由	-10.211
及乎	-10.2112
為諸人	-10.2113
有甚麼	-10.2115
一大藏教	-10.2116
不可思議	-10.2118
五年	-10.2119
聾	-10.212
受戒	-10.2138
因甚麼	-10.2141
大愚	-10.2142
庵主	-10.2147
師遂	-10.2149
不悟	-10.2152
綱宗	-10.2154
唯心	-10.2156
師云你	-10.2158
畵	-10.2166
文章	-10.2166
全無	-10.2168
鋤	-10.217
堅固	-10.217
又何	-10.2172
偽	-10.2172
手眼	-10.2174
端坐	-10.2177
劄	-10.2178
此道	-10.2183
廿	-10.2185
汗	-10.2187
僧堂	-10.2191
峰云	-10.2191
臻	-10.2193
正當	-10.2193
十三	-10.2212
真淨	-10.2213
衲僧家	-10.2215
受具	-10.2217
論云	-10.2219
太子	-10.2221
幾度	-10.2227
而成	-10.2233
其間	-10.2233
臨終	-10.224
蔽	-10.224
如人	-10.2242
舉起	-10.2253
心心	-10.2255
不去	-10.2264
有異	-10.2267
瑞巖	-10.2275
天下老和尚	-10.2275
白日	-10.2278
大夫	-10.2283
年來	-10.2285
梓	-10.2295
七十	-10.2299
委悉	-10.2301
特為	-10.2303
之相	-10.2307
台	-10.2307
正當恁麼時	-10.2313
向汝道	-10.232
綿	-10.2325
而立	-10.2326
婦	-10.2341
明暗	-10.2349
喝一喝下座	-10.2351
如何是道	-10.2359
若作	-10.2362
輔	-10.2367
曰和尚	-10.2367
腦後	-10.237
叔	-10.2371
五臺	-10.2377
不求	-10.2381
灼然	-10.2382
問著	-10.2385
嵩山	-10.2386
科	-10.2389
唯識	-10.2389
詠	-10.239
獅	-10.2393
多年	-10.2406
而來	-10.2414
佛果	-10.2426
撲	-10.2427
昭覺	-10.2429
也要	-10.2431
麟	-10.2433
問道	-10.2433
不墮	-10.2435
庸	-10.2438
僅	-10.244
集眾	-10.2442
每日	-10.2445
攪	-10.2449
稀	-10.2451
有僧問	-10.2461
子細	-10.2465
法道	-10.2468
祭	-10.2474
罰	-10.2476
殷勤	-10.2476
眷屬	-10.248
濤	-10.2484
般	-10.2484
摸	-10.2492
知之	-10.2494
無性	-10.2496
言之	-10.2496
爭得	-10.2501
譽	-10.2506
安得	-10.2517
門戶	-10.2517
管取	-10.2528
而自	-10.2531
本心	-10.254
狐	-10.254
殊勝	-10.2549
雲水	-10.2553
煉	-10.2558
回互	-10.2559
行履	-10.2563
施設	-10.2563
野狐	-10.2568
一機	-10.2569
必須	-10.2574
如如	-10.2575
尖	-10.2576
材	-10.2577
三門	-10.258
腳跟	-10.258
意旨	-10.2582
天人	-10.2585
二老	-10.2585
欲得	-10.2586
千載	-10.2591
變化	-10.2598
子孫	-10.26
親切	-10.2601
久矣	-10.2603
洎	-10.2606
任運	-10.2609
葬	-10.2621
蕭	-10.2623
蒲	-10.2624
酸	-10.2624
傑	-10.2625
之以	-10.2628
罔	-10.2634
幾人	-10.2636
釘	-10.264
鎻	-10.2646
而得	-10.2648
廟	-10.2648
臨機	-10.2649
無疑	-10.2659
羞	-10.2666
雁	-10.2669
峰曰	-10.267
仁者	-10.2673
三尺	-10.2676
汝若	-10.2679
副	-10.2679
激	-10.2688
出沒	-10.2688
識取	-10.2689
好箇	-10.2691
輥	-10.2692
𨁝跳	-10.2692
怎	-10.2706
脚跟下	-10.271
滑	-10.2712
凌	-10.2714
幾時	-10.2716
主人公	-10.2718
斧	-10.2724
喚甚麼作	-10.2726
直截	-10.2726
水中	-10.2728
路頭	-10.2731
師之	-10.2732
晤	-10.2733
天真	-10.2743
帆	-10.2746
禽	-10.2747
却是	-10.2747
言說	-10.2751
師因	-10.276
寶藏	-10.2765
定慧	-10.2766
滋	-10.2769
同安	-10.2769
不知有	-10.2769
鱗	-10.2772
山水	-10.2774
太虛	-10.2776
機鋒	-10.2783
樓閣	-10.2784
無餘	-10.2785
翰	-10.279
饒舌	-10.2793
呪	-10.2793
捐	-10.2794
首山	-10.2797
從他	-10.2801
偉	-10.2803
豈是	-10.2808
隊	-10.2819
上堂僧問	-10.2822
人事	-10.2827
之性	-10.2832
猛虎	-10.2838
吾宗	-10.2838
只管	-10.2847
直教	-10.2847
虧	-10.2848
不見有	-10.2848
凡有	-10.2852
八萬四千	-10.2852
船子	-10.2858
全機	-10.2858
湛然	-10.2866
動著	-10.2871
屎	-10.2873
九月	-10.2873
禾	-10.2874
晨	-10.2875
縱有	-10.2881
五月	-10.2884
如來藏	-10.2884
朕	-10.2888
人心	-10.2891
根源	-10.2891
師在	-10.2896
竺	-10.2897
籬	-10.2898
根塵	-10.2899
信心	-10.2902
利益	-10.2904
四十九年	-10.2908
是你	-10.2911
禪定	-10.2913
不分	-10.2919
向上一路	-10.292
拶	-10.2921
不犯	-10.2924
圍	-10.2926
班	-10.2931
死心	-10.2934
哲	-10.2935
一處	-10.2944
恰似	-10.2952
山下	-10.2954
牌	-10.2954
暢	-10.2958
龐居士	-10.2959
墻	-10.2963
出去	-10.2964
祖佛	-10.2966
鄙	-10.2966
之有	-10.2969
宰	-10.2969
僧便喝	-10.2976
十一	-10.2979
寢	-10.2981
本自	-10.2982
相續	-10.2983
圜	-10.3001
永嘉	-10.3004
心中	-10.3004
萬年	-10.3006
諾	-10.3006
所作	-10.3008
無能	-10.3012
安心	-10.3012
便知	-10.3014
惺	-10.3015
弓	-10.3019
有道	-10.3021
有為	-10.3032
蔣山	-10.3038
巳是	-10.3042
從頭	-10.3043
拈拄杖曰	-10.3044
棒頭	-10.3047
不留	-10.3051
設齋	-10.3059
杭州	-10.3061
自從	-10.3061
兆	-10.3062
諸兄弟	-10.3066
欲識	-10.3067
悟入	-10.3075
侍郎	-10.3076
諭	-10.3077
踞	-10.3078
於人	-10.3079
頂上	-10.3083
兜率	-10.3085
華藏	-10.3085
意識	-10.3093
鄭	-10.31
色身	-10.3103
此土	-10.311
迥	-10.3112
未在	-10.3113
龍牙	-10.3113
夜深	-10.3114
深山	-10.3118
滴	-10.3118
亦然	-10.312
苑	-10.3122
N	-10.3132
途中	-10.3133
看取	-10.3135
依前	-10.314
鈍置	-10.3141
出得	-10.3143
元年	-10.3145
如幻	-10.3146
亦復如是	-10.3148
䇿	-10.3149
而化	-10.315
僊	-10.3152
尚書	-10.3153
萬仞	-10.3153
柏	-10.3154
不定	-10.3156
布施	-10.3159
入院	-10.3169
孟	-10.3171
法語	-10.3173
只有	-10.3177
諸公	-10.3183
不復	-10.3184
一年	-10.3185
歎曰	-10.3186
不因	-10.3186
起來	-10.3189
下手	-10.3193
懇	-10.3204
佛言	-10.3206
裝	-10.3206
師於	-10.3208
觸處	-10.321
。【	-10.3213
恣	-10.3213
出氣	-10.3214
日出	-10.3215
架	-10.3222
久立	-10.3225
燦	-10.3227
郭	-10.3229
峯云	-10.3231
龍華	-10.3234
一夕	-10.3235
譬	-10.3237
四句	-10.324
佛心	-10.3246
纖毫	-10.3253
領眾	-10.3258
威儀	-10.3266
三玄	-10.3267
眾僧	-10.3268
而至	-10.3271
禪寺	-10.3274
其事	-10.328
師一日	-10.328
是我	-10.3282
炭	-10.329
獄	-10.329
為師	-10.3294
一偈	-10.3295
小乘	-10.3296
人皆	-10.3297
有此	-10.3298
模	-10.33
一問	-10.3301
上堂曰	-10.3303
殆	-10.3304
錯過	-10.3305
描	-10.3308
監院	-10.3314
讚歎	-10.3314
嘴	-10.3315
謂眾曰	-10.3324
之句	-10.3327
向他道	-10.333
總不	-10.3331
優	-10.3337
龐公	-10.3338
斥	-10.3342
垂手	-10.3346
撼	-10.3351
庭前	-10.3356
新到	-10.3361
姑	-10.3366
)○	-10.3367
別云	-10.3368
世之	-10.3375
圓相	-10.3378
一夜	-10.338
玄妙	-10.3381
路上	-10.3382
儼然	-10.3384
滋味	-10.3384
不言	-10.3385
琉璃	-10.3389
踢	-10.3393
漁	-10.3394
著力	-10.3399
經行	-10.3399
儻	-10.3402
蔭	-10.3403
勒	-10.3403
之志	-10.3404
諸天	-10.3406
喝一喝曰	-10.3411
慧命	-10.3416
粗	-10.3423
太虗	-10.3424
哮吼	-10.3427
闡	-10.3431
門曰	-10.3432
水流	-10.3433
故有	-10.3434
為君	-10.3435
肥	-10.3436
秉拂	-10.3438
芭蕉	-10.3443
男女	-10.345
甫	-10.3453
污	-10.3458
脚下	-10.3463
不礙	-10.3463
相傳	-10.3464
正宗	-10.3466
孚	-10.3468
而已	-10.3468
訖	-10.3472
不存	-10.3472
不善	-10.3476
蕩蕩	-10.3482
好手	-10.3486
願力	-10.3486
向前	-10.3489
不管	-10.3493
鉗鎚	-10.3493
橫身	-10.3495
鬥	-10.35
放光	-10.3504
意氣	-10.3504
超然	-10.3504
鑄	-10.3505
與之	-10.3511
汝今	-10.3513
水月	-10.3514
生也	-10.3516
餅	-10.3518
九年	-10.3521
嗣法門人	-10.3522
典座	-10.3522
鞋	-10.3523
面壁	-10.3528
為僧	-10.3531
享	-10.3534
雲棲	-10.3537
快活	-10.354
推倒	-10.3542
巳後	-10.3544
不失	-10.3545
碗	-10.3545
又如	-10.3546
偕	-10.3548
遊戲	-10.3554
沙云	-10.3555
誡	-10.3558
護國	-10.3562
見麼	-10.3564
此一	-10.3566
北斗	-10.3566
莖	-10.3567
係	-10.3573
觀之	-10.3575
在這裏	-10.3576
債	-10.3576
訶	-10.3578
光輝	-10.3579
舜	-10.3579
銜	-10.3579
非真	-10.3584
脈	-10.3585
阿呵呵	-10.3585
浩	-10.3586
涌	-10.3587
看經	-10.3589
休歇	-10.3589
山前	-10.359
彥	-10.3591
如是則	-10.3604
鍼	-10.3609
圓融	-10.361
蜜	-10.3615
低頭	-10.3615
便乃	-10.3616
焚香	-10.3618
只知	-10.3622
手段	-10.3626
進前	-10.3628
踰	-10.3631
且道是	-10.3637
剝	-10.3639
俟	-10.3643
非心非佛	-10.3645
逮	-10.3645
擒	-10.3663
一半	-10.3668
笠	-10.3671
泊	-10.3674
茫然	-10.3676
無路	-10.3678
卦	-10.3679
自謂	-10.3679
蘆花	-10.3681
所在	-10.3681
縫	-10.3683
唇	-10.3686
妻	-10.3687
甚麼處	-10.3693
諸祖	-10.3694
設有	-10.3695
便去	-10.3695
一體	-10.3697
王老師	-10.3697
二字	-10.3698
卓拄杖曰	-10.37
纖	-10.3703
乏	-10.3704
擔荷	-10.3708
罔措	-10.3709
四時	-10.3713
末法	-10.3714
盡情	-10.3714
萬峰	-10.3714
不露	-10.3723
竪	-10.3733
使人	-10.3733
文殊普賢	-10.3739
以其	-10.3739
便能	-10.3739
指出	-10.3745
佩	-10.3752
凉	-10.3752
我若	-10.3755
高聲	-10.3756
時有僧問	-10.3761
匠	-10.3767
猶有	-10.3767
有心	-10.377
面門	-10.377
玩	-10.3775
緩	-10.3778
黃葉	-10.3779
高低	-10.3779
呵呵	-10.3783
壓	-10.3786
灑	-10.3786
祖意	-10.3791
書記	-10.3792
擊碎	-10.3793
師舉	-10.3798
作者	-10.3798
千山	-10.3802
師與	-10.3803
事理	-10.3804
不滅	-10.3804
若謂	-10.3805
瓊	-10.3808
陛下	-10.381
藍	-10.3812
與師	-10.3813
歸家	-10.3814
一道	-10.3815
許你	-10.3821
不行	-10.3821
為復	-10.3823
薰	-10.3833
夾	-10.3835
襲	-10.3839
行道	-10.3841
不開	-10.3846
天龍	-10.3849
試問	-10.3853
名曰	-10.3855
閙	-10.3858
捏	-10.3861
三拜	-10.3861
無差	-10.3866
示現	-10.3869
出現	-10.387
一期	-10.3872
桑	-10.3875
峰頭	-10.3879
施為	-10.3885
者乎	-10.3886
實無	-10.3887
豈能	-10.3887
毗盧	-10.3888
打鼓	-10.3889
若欲	-10.3896
卷之	-10.3903
空花	-10.3904
雲山	-10.3906
旗	-10.3906
心印	-10.3907
光中	-10.3908
人來	-10.3909
項	-10.391
阿師	-10.3911
也有	-10.3913
能所	-10.3916
可見	-10.392
希有	-10.392
真性	-10.3922
向後	-10.3923
初心	-10.3923
石上	-10.3924
印可	-10.3927
隨機	-10.3927
與麼則	-10.3928
恃	-10.3928
夫人	-10.3929
主賓	-10.393
無物	-10.3933
圓成	-10.3937
突	-10.3937
區區	-10.3939
曹洞	-10.3939
四月	-10.3946
禪床	-10.3947
確	-10.3948
寶壽	-10.3949
金烏	-10.395
二者	-10.3958
得度	-10.396
祿	-10.3961
天目	-10.3962
先德	-10.3962
就中	-10.3964
樹下	-10.3971
岑	-10.3974
恒沙	-10.3975
峰頂	-10.3983
未盡	-10.3988
驀然	-10.3989
之徒	-10.3991
達磨大師	-10.3994
則知	-10.3995
幹	-10.3999
肆	-10.4
拈花	-10.4003
蘇州	-10.4004
千差	-10.4006
早巳	-10.401
薦福	-10.4013
杳	-10.4025
觸著	-10.4033
呂	-10.4039
衣鉢	-10.404
笛	-10.4042
一句子	-10.4046
爪牙	-10.4048
所知	-10.405
盡道	-10.4052
生緣	-10.4054
拍手	-10.4058
古人云	-10.4062
不道	-10.4062
瓜	-10.4064
父母未生前	-10.4068
我不	-10.4069
作舞	-10.4069
三更	-10.4076
禪和	-10.4079
中道	-10.408
黃河	-10.4081
南無	-10.4082
無始	-10.409
未可	-10.4092
若知	-10.4093
抹	-10.4093
且作麼生	-10.4099
喫茶去	-10.41
篤	-10.4101
監	-10.4103
本源	-10.4108
遠近	-10.4118
埽	-10.4124
巡	-10.4128
乾屎橛	-10.4134
道流	-10.4135
刺	-10.4139
無一物	-10.4139
誘	-10.415
正令	-10.4151
五蘊	-10.4154
秘	-10.4161
物外	-10.4164
搜	-10.4166
入道	-10.4167
粉碎	-10.417
陞	-10.4172
疊	-10.4177
自古	-10.418
偃	-10.4181
了不可得	-10.4186
厥	-10.4187
不破	-10.4187
和尚道	-10.4188
金山	-10.4188
焦	-10.4189
卜度	-10.4192
畜生	-10.4192
便有	-10.4194
怖	-10.4203
臘月	-10.4205
齡	-10.4207
捲	-10.4213
逆順	-10.422
音聲	-10.4222
丈室	-10.4224
山林	-10.4225
百億	-10.423
有大	-10.4235
看破	-10.4235
承天	-10.4238
曹谿	-10.4239
髓	-10.4242
災	-10.4245
我亦	-10.4248
何時	-10.4249
二六時中	-10.4251
至此	-10.4251
予曰	-10.4252
回向	-10.4255
又有	-10.426
和尚云	-10.4261
不下	-10.4263
本色	-10.4266
繡	-10.4267
詎	-10.4275
靈光	-10.4275
一口	-10.4276
囉	-10.4277
檗	-10.4277
錯會	-10.4278
巍巍	-10.4278
有三	-10.4279
事事	-10.4281
濟云	-10.4283
有人問	-10.4284
𦦨	-10.4285
山色	-10.4286
皆有	-10.4289
森羅萬象	-10.4289
爺	-10.4289
這老漢	-10.4298
一隻	-10.4301
甜	-10.4304
僧參	-10.4317
迸	-10.4318
取捨	-10.4323
沖	-10.4324
退後	-10.4325
不向	-10.4327
靠	-10.4336
老婆	-10.4339
年年	-10.4344
莫怪	-10.4344
元是	-10.4345
流出	-10.435
一線	-10.4353
其道	-10.4354
溈	-10.436
庫	-10.4362
驚起	-10.4362
洛浦	-10.4364
教中	-10.4366
石人	-10.4366
邁	-10.4367
塵塵	-10.4372
本性	-10.4374
十方世界	-10.4381
一分	-10.4389
山野	-10.4394
善根	-10.4394
極樂	-10.4395
娑婆	-10.4395
惱	-10.4396
瑩	-10.4398
濫	-10.4401
緒	-10.4402
向上事	-10.4406
好與三十棒	-10.4407
恭惟	-10.4408
命根	-10.4408
芥	-10.4409
者多	-10.4411
)(	-10.4414
海底	-10.4415
吉祥	-10.4415
真正	-10.4424
去年	-10.4427
剩	-10.4429
歸依	-10.443
乞師	-10.443
常在	-10.4432
知客	-10.4432
桶	-10.4435
筵	-10.4436
了然	-10.4438
不死	-10.4441
觀心	-10.4443
信手拈來	-10.4443
這箇是	-10.4444
天明	-10.4451
羨	-10.4453
幾箇	-10.4454
革	-10.4455
隨後	-10.4455
評	-10.4457
性相	-10.4461
入塔	-10.4463
不取	-10.4463
言訖	-10.4469
叉手	-10.4471
洪州	-10.4485
進曰	-10.4488
觸目	-10.4488
爾時	-10.4493
衍	-10.4497
此乃	-10.4501
隨時	-10.4502
狼藉	-10.4504
何在	-10.4506
掉	-10.4507
晦堂	-10.4516
帖	-10.4518
是心	-10.4519
風月	-10.4519
喪身失命	-10.4523
腳下	-10.4523
籃	-10.4527
<	-10.4527
i	-10.4527
m	-10.4527
g	-10.4527
:>	-10.4527
復何	-10.4527
是甚麼人	-10.4532
但有	-10.4532
飾	-10.4532
無以	-10.4535
放行	-10.4537
切音	-10.454
二十五	-10.4542
臨時	-10.4544
苗	-10.455
廓然	-10.4551
牆	-10.4553
仔細	-10.4562
二俱	-10.4563
第六	-10.4568
扶起	-10.4576
煖	-10.4577
即有	-10.4579
坦	-10.4579
堂上	-10.458
挺	-10.458
理會	-10.4581
此身	-10.4584
十地	-10.4587
江上	-10.4602
測	-10.461
綻	-10.461
萬象森羅	-10.4617
金輪	-10.4617
不論	-10.462
南院	-10.4625
不巳	-10.4626
莫測	-10.463
正法眼	-10.4632
撫掌	-10.4632
飜	-10.4633
之日	-10.4639
不安	-10.4643
認得	-10.4645
心不	-10.4653
盡力	-10.4655
携	-10.4656
機關	-10.4657
普說	-10.466
緣起	-10.467
投機	-10.4674
箇事	-10.4674
瞎漢	-10.4677
暨	-10.4679
都是	-10.4682
憨	-10.4682
此一瓣香	-10.4691
天涯	-10.4695
應須	-10.4695
干戈	-10.47
雀	-10.4703
此意	-10.4705
之流	-10.4705
即不無	-10.4709
能知	-10.471
鉢盂	-10.4712
長短	-10.4712
古鏡	-10.4715
一切人	-10.4716
英雄	-10.4721
國王	-10.4727
後世	-10.4727
朽	-10.4728
落花	-10.4729
允	-10.4737
名相	-10.4738
方外	-10.4738
還知麼	-10.4738
了了	-10.4739
相公	-10.4745
摘	-10.4747
却來	-10.475
罕	-10.4756
筭	-10.4758
資福	-10.4761
欄	-10.4761
什	-10.4762
之妙	-10.4767
漆桶	-10.477
無他	-10.4773
地上	-10.4775
處麼	-10.4777
諸山	-10.4779
歛	-10.4782
隣	-10.4783
刊	-10.4786
誰家	-10.4786
逈	-10.4793
氣息	-10.4795
皆為	-10.4799
之本	-10.4805
縮	-10.4806
事若何	-10.4809
玲瓏	-10.481
罪過	-10.481
歷代祖師	-10.481
第四	-10.4811
收拾	-10.4815
磬	-10.4821
其餘	-10.4823
邀	-10.4824
瞎驢	-10.4826
相看	-10.4826
鹽官	-10.4827
識者	-10.4828
他家	-10.4828
0	-10.4828
作主	-10.483
浸	-10.483
會取	-10.4832
毘盧	-10.4836
召大眾云	-10.4838
獨步	-10.4848
籍	-10.4854
無一	-10.4854
在者裏	-10.4856
入堂	-10.4858
汝道	-10.4859
員	-10.4862
方能	-10.4862
棺	-10.4863
師資	-10.4863
不欲	-10.4868
之恩	-10.4869
亦云	-10.4871
齩	-10.4873
立地	-10.4873
子曰	-10.4878
正覺	-10.4883
贊曰	-10.4889
一眾	-10.489
牛頭	-10.489
提撕	-10.4892
渾身	-10.4894
亮	-10.4898
馬師	-10.4909
虎丘	-10.4911
不似	-10.4913
本是	-10.4915
師指	-10.4915
一掌	-10.4915
詰	-10.4916
同行	-10.4918
四十	-10.4921
任他	-10.4923
九峰	-10.4923
伐	-10.4924
》	-10.4925
驀地	-10.4931
飲食	-10.4936
在何處	-10.4937
簷	-10.4943
何謂	-10.4945
一二	-10.4949
為他	-10.4952
昔年	-10.4952
見人	-10.4953
俯	-10.4953
奉為	-10.4954
教外別傳	-10.4957
狗子	-10.4959
叱	-10.4959
衫	-10.496
春光	-10.496
龍王	-10.4961
豆	-10.4961
不列章次	-10.4967
大機	-10.497
几	-10.4973
不隔	-10.4973
醍醐	-10.4974
煙霞	-10.4975
藏主	-10.4976
禮謝	-10.4977
窠	-10.4977
水牯牛	-10.499
於心	-10.4996
萬行	-10.4999
一輪	-10.5004
征	-10.501
掣	-10.5014
心境	-10.5021
四年	-10.503
若論此事	-10.5034
穎	-10.504
兩序	-10.5041
證據	-10.5043
歷劫	-10.5049
阻	-10.505
栖	-10.5051
煮	-10.5052
𦘕	-10.5054
憲	-10.5054
舍利弗	-10.5058
透過	-10.5064
三載	-10.5072
祖庭	-10.5073
者漢	-10.5076
檢點將來	-10.5083
練	-10.5085
一百	-10.5085
跪	-10.509
遁	-10.5093
千萬	-10.5093
亦如	-10.5098
言詮	-10.5098
有眼	-10.51
菊	-10.5102
儔	-10.5106
持戒	-10.5106
這般	-10.5107
密密	-10.5108
我有	-10.5109
說禪	-10.5118
這一	-10.5122
帽	-10.5127
不辭	-10.5131
不到處	-10.5131
寂寥	-10.5133
天界	-10.514
豎拂子云	-10.514
閻浮	-10.514
一拶	-10.5142
相對	-10.5149
杲	-10.5153
爻	-10.5156
一頓	-10.5165
崑崙	-10.5165
之名	-10.5169
努力	-10.5171
訛	-10.5172
覷破	-10.5177
即便	-10.5184
提唱	-10.5185
斑	-10.5189
蒼天蒼天	-10.5191
無法	-10.5198
佛說	-10.5204
腳跟下	-10.5233
世出世間	-10.5236
波斯	-10.5242
太守	-10.5244
煎	-10.5247
坡	-10.5257
恁麼去	-10.5259
淮	-10.5259
合作麼生	-10.5261
湖南	-10.5261
江湖	-10.5263
禱	-10.5264
不惜	-10.5264
昔有	-10.5264
為甚麼不	-10.5267
浙	-10.5269
三千里外	-10.5272
吞却	-10.5276
業識	-10.5276
大方	-10.528
而不能	-10.5281
王曰	-10.5283
若不是	-10.5286
穀	-10.5286
旬	-10.5286
修證	-10.529
正因	-10.529
說偈	-10.5292
微笑	-10.5293
滅度	-10.5294
出山	-10.5294
其實	-10.53
炬	-10.5307
誰人	-10.531
壺	-10.5318
向你道	-10.5321
千秋	-10.5324
婬	-10.5326
正偏	-10.5327
一轉語	-10.5331
語句	-10.5331
曾到	-10.5337
解制上堂	-10.5341
何勞	-10.5345
第五	-10.5347
大梅	-10.5348
便請	-10.5349
僻	-10.5351
設使	-10.5357
蹄	-10.5359
有問	-10.5364
迦	-10.5369
火裏	-10.537
覰	-10.5374
借問	-10.5375
丞相	-10.5377
于此	-10.5379
道將一句來	-10.5379
執事	-10.5379
之力	-10.5383
不審	-10.5387
河沙	-10.5388
魚龍	-10.5389
官人	-10.539
鴉	-10.539
本覺	-10.5391
而非	-10.5391
健	-10.5392
無字	-10.5397
太陽	-10.5398
欣然	-10.5406
佛道	-10.5415
永明	-10.5417
近離甚處	-10.5417
在甚處	-10.5418
膠	-10.5418
視之	-10.542
曰某甲	-10.5425
我也	-10.5427
法輪	-10.5428
我見	-10.5432
下語	-10.5438
獨坐	-10.5439
同歸	-10.544
此去	-10.5442
傲	-10.5443
流轉	-10.5447
玄旨	-10.5448
安能	-10.545
來時	-10.5454
脚跟	-10.5457
余曰	-10.5457
世諦	-10.5459
爪	-10.546
雕	-10.5462
吏	-10.5463
師即	-10.5464
造化	-10.5467
火燒	-10.5475
凋	-10.5475
非常	-10.5479
奧	-10.5482
庶幾	-10.5486
去也師云	-10.5486
大人	-10.5487
無過	-10.549
老胡	-10.5491
邪正	-10.5491
羅山	-10.5491
織	-10.5493
且莫	-10.5495
卑	-10.5496
何能	-10.5496
聽法	-10.5496
一種	-10.5499
爭似	-10.5503
廝	-10.5504
紹興	-10.5506
於斯	-10.5507
泉曰	-10.5513
福嚴	-10.5514
拈香云	-10.5516
塘	-10.5518
自得	-10.552
稜	-10.552
挾	-10.5523
會中	-10.5524
明心	-10.5528
六道	-10.5532
潭州	-10.5532
矢	-10.5532
烏龜	-10.5532
隱顯	-10.5533
受業	-10.5535
伽	-10.5538
示人	-10.554
以前	-10.5542
巖曰	-10.5542
以偈	-10.5544
曰不會	-10.5546
保寧	-10.5548
韶	-10.5551
虞	-10.5555
盞	-10.5556
物物	-10.5558
保寧勇	-10.5561
訥	-10.5563
東風	-10.5564
人生	-10.5572
故也	-10.5574
爽	-10.5575
犬	-10.558
那堪	-10.5581
莫將	-10.5584
第十	-10.5584
多少人	-10.559
翠微	-10.559
攻	-10.5595
慧日	-10.5596
糧	-10.5599
之上	-10.5602
心空	-10.5605
甕	-10.5605
萬事	-10.5607
秖如	-10.5608
嗣法	-10.5609
五更	-10.561
擾	-10.5612
亦乃	-10.5617
睛	-10.5618
不是心不是佛不是物	-10.5618
劈	-10.5623
人我	-10.5623
葛	-10.5628
匡	-10.5632
大眾且道	-10.5634
此法	-10.5634
太白	-10.5638
疲	-10.5639
竝	-10.5641
毬	-10.5642
盡大地	-10.5644
萬劫	-10.5645
第八	-10.5647
詢	-10.5648
且如	-10.5649
愍	-10.5651
有口	-10.5658
山高	-10.5658
當初	-10.5662
腦	-10.5663
深處	-10.5666
爍	-10.5676
頷之	-10.5677
為什麼不	-10.5678
向什麼處	-10.5684
古路	-10.5685
體用	-10.5686
勵	-10.5687
亦得	-10.5688
一上	-10.5689
而退	-10.569
衲僧門下	-10.5691
遊方	-10.5693
開悟	-10.5694
機用	-10.57
劫外	-10.5701
把定	-10.5704
得出	-10.5705
軸	-10.5706
頹	-10.571
灌	-10.5712
風動	-10.5717
五陰	-10.5719
膺	-10.572
猜	-10.572
法中	-10.5722
萬曆	-10.5723
桐	-10.5728
實有	-10.5729
道無	-10.5731
見一	-10.5733
諸緣	-10.5734
生於	-10.5734
曷	-10.5747
駭	-10.5752
住處	-10.5752
塊	-10.5752
初住	-10.5756
原來	-10.5759
個中	-10.5763
龜毛	-10.5767
最後	-10.5772
一如	-10.5777
少年	-10.5777
從今	-10.5778
為甚麼却	-10.5779
未出	-10.5782
帶累	-10.5787
所言	-10.5788
著眼	-10.579
道我	-10.5791
百雜碎	-10.5794
刑	-10.5795
幾多	-10.5797
背後	-10.5798
挨	-10.5799
如是如是	-10.58
妄心	-10.5803
波瀾	-10.5803
祝聖	-10.5804
浮雲	-10.5804
善男子	-10.5804
有法	-10.5805
師至	-10.5806
如水	-10.5806
達磨西來	-10.5806
則不	-10.5807
活人	-10.5807
真常	-10.5809
護持	-10.5811
還我	-10.5811
如無	-10.5813
葫蘆	-10.5814
秤	-10.5814
萬緣	-10.5815
妖	-10.5816
瀉	-10.5817
展轉	-10.5821
虔	-10.5821
復有	-10.5822
無所得	-10.5824
會下	-10.5824
佐	-10.5835
巴	-10.5838
入定	-10.5839
不無	-10.5844
接引	-10.5844
明眼	-10.5844
曆	-10.5846
雙林	-10.5846
中興	-10.5846
煞	-10.5846
邈	-10.5846
出格	-10.5848
儘	-10.5849
這漢	-10.5851
無際	-10.5851
撥轉	-10.5854
三玄三要	-10.5854
岫	-10.5856
踏破	-10.586
一擊	-10.5864
邪見	-10.587
接人	-10.5875
開爐	-10.5879
松風	-10.5883
眾皆	-10.5885
琦	-10.5891
和上	-10.5892
無錄	-10.59
真機	-10.5907
夫子	-10.5912
說甚麼	-10.5913
苦海	-10.5915
痛棒	-10.5916
笑殺	-10.5916
疎山	-10.5917
茆	-10.5917
觜	-10.592
萬機	-10.592
億	-10.5923
此等	-10.5926
蒸	-10.593
作箇	-10.5933
鈴	-10.5937
剎竿	-10.5937
爇	-10.5941
曰我	-10.5945
福田	-10.5945
則是	-10.5947
三百	-10.595
不打	-10.5951
若為	-10.5955
涵	-10.5959
分外	-10.5962
來問	-10.5962
屙	-10.5965
來日	-10.5968
但能	-10.5976
觀察	-10.5977
七年	-10.5977
一拳	-10.5979
缾	-10.5981
蘿	-10.5984
沐	-10.5989
兩手	-10.5991
往生	-10.5991
直至	-10.5996
拱	-10.5996
湊泊	-10.5997
第七	-10.5997
噴	-10.6001
滿目	-10.6002
大蟲	-10.6003
初祖	-10.6006
一夏	-10.6011
顢頇	-10.6013
撮	-10.6014
得此	-10.6014
隨眾	-10.6016
空寂	-10.6019
獸	-10.6025
思之	-10.6026
新羅	-10.603
一卷	-10.6034
嬾	-10.6036
的的	-10.6036
霄	-10.6036
麻谷	-10.6044
住後	-10.6045
有漏	-10.6046
之體	-10.6046
團	-10.6047
之至	-10.6053
雲門云	-10.6054
高僧	-10.6054
開山	-10.6055
祇為	-10.6056
鬚	-10.606
緇	-10.6062
風雲	-10.6062
得力	-10.6064
臨行	-10.6066
孤峰	-10.6066
若問	-10.6068
名山	-10.6074
趺坐	-10.6075
主云	-10.6075
中秋	-10.6076
威音	-10.608
問話	-10.6081
好惡	-10.6089
舉前話	-10.6089
復問	-10.6094
筋	-10.6099
滿地	-10.6101
拈却	-10.6102
尚未	-10.6102
俱胝	-10.6109
滄溟	-10.6109
掃地	-10.6113
如何是佛法大意	-10.6116
禪門	-10.6118
捷	-10.6119
獨立	-10.612
氣力	-10.6121
性海	-10.6127
對云	-10.6128
梁山	-10.613
擲下	-10.613
喚什麼作	-10.6131
遐	-10.6132
鉗錘	-10.6142
不遠	-10.6144
照用	-10.6148
枝頭	-10.6149
還有人	-10.615
舊時	-10.615
解會	-10.6153
漏泄	-10.6154
普照	-10.6155
無作	-10.6156
缽盂	-10.6157
能仁	-10.6157
東西南北	-10.6158
黨	-10.6159
農	-10.6159
之謂	-10.6163
梢	-10.6164
正念	-10.6167
利生	-10.6167
若此	-10.6174
一乘	-10.6176
不思	-10.6177
當面	-10.6178
向伊道	-10.6179
坐具	-10.618
不辨	-10.6183
砂	-10.6184
可知	-10.6185
研	-10.6187
之與	-10.6188
蜂	-10.619
計較	-10.6191
靈巖	-10.6195
是個	-10.6196
慈雲	-10.6197
終身	-10.6207
而不知	-10.6208
崇禎	-10.6209
僧便問	-10.6212
頭曰	-10.6215
露布	-10.6221
而起	-10.6223
仙人	-10.6225
說偈曰	-10.6225
丈云	-10.6227
揀擇	-10.6232
傅大士	-10.6232
諸子	-10.6235
天下衲僧	-10.6235
軟	-10.6235
在家	-10.6237
後生	-10.6237
公之	-10.6239
纔見	-10.624
其言	-10.6241
象王	-10.6244
而知	-10.625
徑山杲云	-10.6254
惹	-10.6258
既有	-10.626
雲外	-10.6263
苦樂	-10.6263
促	-10.6265
無聞	-10.6266
門風	-10.6272
但以	-10.6286
誵訛	-10.629
拂袖	-10.629
來去	-10.6292
󵊮	-10.6296
咒	-10.6297
五湖	-10.6301
日夜	-10.6302
無定	-10.6302
吹毛	-10.631
女人	-10.631
東海	-10.6311
霹靂	-10.6314
功勳	-10.6315
榜	-10.6315
之用	-10.6315
士大夫	-10.6316
衢	-10.6318
天下之	-10.6323
無說	-10.6324
坤	-10.6325
勉之	-10.6334
辛苦	-10.6335
異類	-10.6338
遊山	-10.6343
闇	-10.6343
洞明	-10.6352
馮	-10.6352
劃	-10.6354
輿	-10.6355
也無師云	-10.6356
未聞	-10.6358
或曰	-10.6359
窄	-10.6361
作何	-10.6361
至理	-10.6362
當時若	-10.6363
口裏	-10.6364
紛	-10.6366
在裏許	-10.6366
門頭	-10.6372
驀拈拄杖云	-10.6372
日輪	-10.6377
彭	-10.6378
淨名	-10.6381
試道看	-10.6385
毘	-10.6392
恠	-10.6393
再三	-10.6396
對面	-10.6396
之處	-10.6399
英靈	-10.6402
雲中	-10.6404
溈云	-10.6406
玄關	-10.6408
五宗	-10.6408
王子	-10.6409
不捨	-10.6409
波濤	-10.6411
意在	-10.6412
起滅	-10.6414
千佛	-10.6415
分身	-10.6418
四面	-10.6419
衷	-10.6421
得見	-10.6422
頴	-10.6423
挈	-10.6424
暉	-10.6426
神力	-10.6428
小兒	-10.6429
不傳	-10.6429
者老漢	-10.6429
落落	-10.6429
萬世	-10.6433
那個	-10.6436
月下	-10.6437
鍋	-10.644
故鄉	-10.644
亦能	-10.6442
深深	-10.6442
數年	-10.6445
與佛	-10.6445
不借	-10.6447
玉兔	-10.6447
漚	-10.6448
恁麼說話	-10.6448
若在	-10.645
我心	-10.6459
迴避	-10.6459
有路	-10.6463
死人	-10.6467
也得	-10.6469
鵬	-10.6472
中之	-10.6475
二十四	-10.6476
放過一著	-10.6476
小人	-10.6477
男兒	-10.6478
不忍	-10.648
君不見	-10.6482
問師	-10.6482
師復	-10.6486
杯	-10.6487
出來道	-10.6489
咲	-10.6491
之風	-10.6494
結夏	-10.6495
亨	-10.6498
淺深	-10.6499
域	-10.6499
峭	-10.6502
應用	-10.6502
化為	-10.6505
只此	-10.651
椀	-10.6511
法幢	-10.6512
木馬	-10.6512
梵語	-10.6513
東坡	-10.6514
此處	-10.652
皆從	-10.652
即不	-10.6525
真金	-10.6526
曠劫	-10.6526
甚麼人	-10.6528
僕	-10.6528
穆	-10.6529
跳出	-10.6529
契悟	-10.654
譏	-10.654
林間	-10.6542
恰好	-10.6542
向什麼處去	-10.6549
語話	-10.6551
果能	-10.6551
二大老	-10.6551
一切諸法	-10.6553
轉大法輪	-10.6553
檢點	-10.6554
貨	-10.6556
示眾舉	-10.6556
淆訛	-10.6556
道箇	-10.6557
大地山河	-10.6557
廊	-10.6559
七佛	-10.6559
付法	-10.6561
群生	-10.6562
誰為	-10.6564
直至如今	-10.6568
幾乎	-10.6569
玉泉	-10.6574
當軒	-10.6577
協	-10.658
方得	-10.6582
店	-10.6583
天上人間	-10.6588
為道	-10.6589
鷄	-10.659
艱	-10.659
天外	-10.6595
萬法歸一	-10.6597
止觀	-10.6597
只今	-10.6599
溼	-10.6603
芽	-10.661
輕輕	-10.6611
《	-10.6613
真箇	-10.6613
不移	-10.6615
可也	-10.6616
道著	-10.6621
▁(	-10.6621
法華經	-10.6625
我這裏	-10.6627
指南	-10.6629
至于	-10.6633
語默	-10.6635
給	-10.6636
個什麼	-10.6636
未悟	-10.664
聖僧	-10.6641
當處	-10.6645
明州	-10.6646
所生	-10.6648
一下云	-10.665
償	-10.6654
之大	-10.6656
爆	-10.6665
又不	-10.6677
塵埃	-10.6687
未夢見在	-10.669
足以	-10.6696
翅	-10.6696
門中	-10.6698
瘡	-10.6699
去住	-10.6699
我說	-10.67
不怕	-10.6703
虛妄	-10.6704
傳法	-10.6704
奇哉	-10.6707
把手	-10.6712
課	-10.6712
清光	-10.6717
聲聲	-10.6719
方始	-10.6719
答話	-10.6721
洪武	-10.6725
兩個	-10.6727
其志	-10.6731
十日	-10.6736
製	-10.6736
白雲端	-10.6736
面皮	-10.6742
四生	-10.6742
相違	-10.6745
踪	-10.6746
六塵	-10.6746
古之	-10.6747
屑	-10.6747
闍維	-10.6747
法兄	-10.6748
放生	-10.675
殃	-10.675
教伊	-10.6755
是箇甚麼	-10.676
云云	-10.6762
隻	-10.6763
等編	-10.6764
恥	-10.6766
建塔	-10.6768
知歸	-10.6769
培	-10.6775
填	-10.6775
京師	-10.6775
二種	-10.6777
百尺竿頭	-10.6778
有何言句	-10.6779
盡大地人	-10.6785
皇帝	-10.6785
東方	-10.6788
岡	-10.6789
概	-10.6789
優游	-10.679
裹	-10.6792
明星	-10.6798
頭云	-10.6798
何等	-10.68
嚮	-10.6802
崩	-10.6805
乞師指示	-10.6809
灘	-10.6811
鶯	-10.6814
請問	-10.6817
耳目	-10.682
眼見	-10.6822
禮佛	-10.6825
踏翻	-10.6825
我是	-10.6828
海上	-10.6828
雲峰	-10.6832
正月	-10.6834
樞	-10.6834
版	-10.6835
吾今	-10.684
云如何是	-10.684
老古錐	-10.6843
諍	-10.6844
誌公	-10.6845
若干	-10.6847
梯	-10.6851
東南	-10.6852
無地	-10.6855
名利	-10.6856
陋	-10.6858
讀書	-10.6859
凶	-10.6859
師亦	-10.6865
不別	-10.6866
屠	-10.6866
滲漏	-10.6866
有年	-10.6867
渠儂	-10.6869
得人	-10.6874
爰	-10.6875
海內	-10.6876
宗鏡	-10.6878
不徹	-10.688
到頭	-10.6884
覿體	-10.6886
觧	-10.6888
當作	-10.6891
兩人	-10.6895
儼	-10.69
石橋	-10.69
窓	-10.6902
特來	-10.6904
始信	-10.691
綴	-10.6911
巖前	-10.6913
心外	-10.6913
不甘	-10.6918
溈曰	-10.6918
洒	-10.692
造作	-10.6922
別無	-10.6922
顯現	-10.6928
佛子	-10.6933
百萬	-10.6934
相隨	-10.6935
諸昆仲	-10.6936
隨分	-10.6937
道甚麼	-10.6938
襟	-10.6944
者般	-10.6946
葉落	-10.6948
人前	-10.6949
知是	-10.6951
情識	-10.6951
假名	-10.6952
法座	-10.6956
領略	-10.6963
嶮	-10.6963
昔人	-10.6964
大凡	-10.6966
直下承當	-10.6967
摸索	-10.6967
高明	-10.6968
之類	-10.6972
宰官	-10.6972
三箇	-10.6972
款	-10.6973
山谷	-10.6975
來參	-10.6975
態	-10.6976
又且如何	-10.6979
不染	-10.6981
點破	-10.6982
蟾	-10.6987
沼	-10.6991
寰中	-10.6993
橛	-10.6994
君臣	-10.6994
還同	-10.6997
什摩	-10.7
斤	-10.7001
遮箇	-10.7002
出頭來	-10.7003
神鼎	-10.7005
本空	-10.7007
堯舜	-10.7008
則為	-10.7009
即無	-10.7011
塔于	-10.7012
獵	-10.7012
祇對	-10.7014
檀那	-10.7014
五日	-10.7015
溈山云	-10.7017
豎起	-10.7021
太煞	-10.7021
翻成	-10.7023
深入	-10.7023
則不無	-10.7024
咨	-10.7027
便好	-10.7028
禪院	-10.703
歸堂	-10.7032
將心	-10.7033
月落	-10.7035
鎔	-10.7037
絆	-10.7038
決擇	-10.7038
規矩	-10.704
免得	-10.7042
驀拈拄杖	-10.7042
華嚴經	-10.7043
蟻	-10.7044
仝	-10.7044
乃是	-10.7046
却問	-10.7046
炎	-10.705
居士問	-10.7055
裕	-10.7057
校	-10.7059
通身是	-10.7061
秀才	-10.7062
媿	-10.7062
金鱗	-10.7064
不獨	-10.7064
分曉	-10.7065
檢	-10.7065
不干	-10.707
親到	-10.7073
聞者	-10.7074
如何是和尚家風	-10.7077
恁	-10.708
苦行	-10.7081
只恐	-10.7085
不拘	-10.7086
朝夕	-10.7086
悶	-10.7087
萬丈	-10.7088
翫	-10.7088
帝曰	-10.7089
何不道	-10.7092
]	-10.7093
知得	-10.7095
金色	-10.7098
佛鑑	-10.7099
露出	-10.71
太史	-10.71
信得及	-10.7102
聞聲	-10.7104
大好	-10.7104
中人	-10.7104
磚	-10.7105
有佛	-10.7107
向甚處	-10.7108
無用	-10.7112
萬松	-10.7114
禪林	-10.7116
作此	-10.7118
自悟	-10.7121
學士	-10.7122
刮	-10.7122
遠離	-10.7135
是謂	-10.7135
粥飯	-10.7135
濶	-10.7138
鳥道	-10.7149
幻化	-10.7152
忘却	-10.7152
不唯	-10.7153
粉	-10.7159
只因	-10.7169
哩	-10.7169
放開	-10.717
靈骨	-10.7171
鯨	-10.7178
洞庭	-10.718
屋裏	-10.7182
剗	-10.7183
世緣	-10.7184
不遷	-10.7188
津梁	-10.7195
道眼	-10.7198
空華	-10.7199
摩尼	-10.7201
路絕	-10.7205
勅	-10.7205
不生不滅	-10.7205
栢	-10.7205
我道	-10.7206
學佛	-10.7206
寂照	-10.7208
之子	-10.7208
教中道	-10.7208
垂示	-10.7209
孰能	-10.7216
水上	-10.722
稽	-10.7221
人多	-10.7221
魄	-10.7221
於今	-10.7223
為伊	-10.7224
縱使	-10.7225
三種	-10.7227
入滅	-10.7229
悟曰	-10.723
第一座	-10.7231
禪道	-10.7232
怠	-10.7234
宛然	-10.7234
辨得	-10.724
一門	-10.7244
出身	-10.7245
淫	-10.7249
誣	-10.725
毫端	-10.7251
顧視	-10.7254
眾無對	-10.7254
猫兒	-10.7255
無見	-10.7255
直入	-10.7256
踐	-10.7257
應機	-10.726
依稀	-10.7261
有四	-10.7265
拓	-10.7266
忝	-10.7267
不平	-10.7268
寂寞	-10.7269
猷	-10.7269
不虗	-10.7269
相分	-10.727
震旦	-10.727
洞上	-10.7276
速道速道	-10.7277
之為	-10.7277
從容	-10.7277
野老	-10.7278
贏得	-10.7281
灣	-10.7282
生生	-10.7284
林泉	-10.7286
名言	-10.7289
作略	-10.7289
磬山	-10.7293
株	-10.7293
進步	-10.7295
終是	-10.7308
舉手	-10.731
却被	-10.731
為你	-10.7312
遞相	-10.7313
通達	-10.7318
落地	-10.7325
無方	-10.7328
打開	-10.7334
斂	-10.7334
授記	-10.7335
宵	-10.7337
不由	-10.7339
鼻頭	-10.7341
得聞	-10.7342
福德	-10.7344
所證	-10.7347
由來	-10.7349
無聲	-10.7349
一隊	-10.735
讖	-10.7353
炊	-10.7353
示疾	-10.7354
喚侍者	-10.7357
都來	-10.7357
不是佛	-10.7358
冤家	-10.7359
意旨如何師云	-10.7362
柰	-10.7362
自生	-10.7362
杖人	-10.7363
此山	-10.7363
起身	-10.7364
打出	-10.7365
禹門	-10.7365
衣缽	-10.7365
佛身	-10.7365
攀緣	-10.7377
只解	-10.7377
既而	-10.7378
紅日	-10.738
於世	-10.7387
杖頭	-10.7389
何日	-10.739
世法	-10.7391
之境	-10.7392
茗	-10.7392
悟得	-10.7395
贓	-10.7395
平日	-10.7396
出眾	-10.7398
切須	-10.7399
證得	-10.74
此老	-10.74
幾回	-10.7401
還得	-10.7403
茶毗	-10.7403
栴檀	-10.7404
其身	-10.7405
清云	-10.7407
管教	-10.7409
還曾	-10.7409
教你	-10.741
歸位	-10.7415
雨過	-10.7419
柯	-10.7422
玄機	-10.7422
我者裏	-10.7422
向火	-10.7423
說箇	-10.7427
青松	-10.7427
由此	-10.743
入方丈	-10.7431
欵	-10.7436
後住	-10.7442
長年	-10.7447
法者	-10.7447
無意	-10.7447
盤山	-10.7449
十里	-10.745
驟	-10.7455
更問	-10.7459
三際	-10.746
云和尚	-10.746
迫	-10.7462
爐鞴	-10.7464
爭柰	-10.7465
好與	-10.7467
佛海	-10.7469
十方諸佛	-10.747
無影	-10.7472
劈面	-10.7476
穿鑿	-10.7478
聞得	-10.7484
者哉	-10.7484
展手	-10.7485
須菩提	-10.7486
坐次	-10.7489
病僧	-10.7496
塔於	-10.7503
禪堂	-10.7508
無名	-10.7508
微細	-10.751
千般	-10.7511
得入	-10.7512
於法	-10.7517
秋水	-10.7521
肚	-10.7521
巳上	-10.7521
豁開	-10.7526
蝦蟆	-10.7528
譯	-10.7528
且道如何是	-10.7528
瓢	-10.7531
得去	-10.7535
龍蛇	-10.7535
不虛	-10.7544
見者	-10.7546
不空	-10.7547
海門	-10.7552
成正覺	-10.7554
牢關	-10.7555
弁山	-10.7555
只見	-10.7555
爇向爐中	-10.7558
之德	-10.756
說夢	-10.7561
不有	-10.7562
自他	-10.7562
本地風光	-10.7564
西來意	-10.7565
朋	-10.7566
普明	-10.7567
一陣	-10.7567
冲	-10.7567
所至	-10.7569
矜	-10.757
此生	-10.7573
錯認	-10.7579
大有	-10.7579
不退	-10.758
總在	-10.7583
憫	-10.7584
I	-10.7584
本山	-10.7585
原是	-10.7587
多生	-10.7592
不立文字	-10.7594
楞伽	-10.7594
受持	-10.7595
炙	-10.7597
超越	-10.7598
四明	-10.7599
窠窟	-10.76
雙徑	-10.76
人家	-10.76
靖	-10.76
將甚麼	-10.76
從何	-10.7601
E	-10.7602
何法	-10.7613
?』	-10.7613
煑	-10.7616
皈	-10.7617
仰山云	-10.7619
七月	-10.762
欲求	-10.7621
塵中	-10.7624
青州	-10.7624
安身立命	-10.7626
忽有人問	-10.7628
三峰	-10.7639
張公	-10.7639
本來人	-10.764
觀其	-10.7642
履踐	-10.7642
配	-10.7643
江山	-10.7645
嶺南	-10.7648
渡江	-10.7648
其名	-10.7651
老鼠	-10.7651
恁麼會	-10.7651
在其中	-10.7652
霑	-10.7652
范	-10.7655
二僧	-10.7656
璞	-10.7656
秋月	-10.7659
通玄	-10.7659
西風	-10.7661
王公	-10.7662
此意如何	-10.7662
師又打	-10.7665
異之	-10.7666
文彩	-10.7667
以手指	-10.7669
情與無情	-10.7671
光孝	-10.7672
短長	-10.7672
戈	-10.7673
靡不	-10.7677
轉法輪	-10.7679
祠	-10.768
落髮	-10.768
屍	-10.7686
不得巳	-10.7687
用之	-10.7691
之餘	-10.7691
無垢	-10.7695
不依	-10.7696
甚深	-10.7699
盂	-10.77
風規	-10.77
禪師法嗣一人	-10.77
話會	-10.7702
墮在	-10.7703
竇	-10.7703
十載	-10.7705
山上	-10.771
無佛	-10.771
蚤	-10.7711
諦當	-10.7712
長生	-10.7713
若據	-10.7715
祖師禪	-10.7723
廉	-10.7726
師代云	-10.7727
難為	-10.7727
滔滔	-10.7728
白椎	-10.7728
彷彿	-10.7728
婆心	-10.773
采	-10.7737
一邊	-10.7739
殷	-10.7739
漆	-10.7745
靄	-10.7748
祕	-10.7749
欽山	-10.7749
一方	-10.7749
亟	-10.7751
見師	-10.7752
道俗	-10.7754
遠來	-10.7754
開門	-10.7756
從茲	-10.7757
莫向	-10.7759
且無	-10.7761
嘯	-10.7762
化主	-10.7765
不當	-10.7765
此理	-10.7765
心要	-10.7771
只這	-10.7774
莫謂	-10.7775
不止	-10.7776
源流	-10.7777
香爐	-10.7778
韋	-10.7779
他方	-10.7779
鷹	-10.7781
掘	-10.7786
羈	-10.7786
之行	-10.7786
踈	-10.7792
嗜	-10.7793
大陽	-10.7794
見性成佛	-10.7795
風雷	-10.7796
狼	-10.78
胷	-10.7801
洋	-10.7807
羹	-10.7819
貯	-10.7821
陪	-10.7821
不可說	-10.7831
不停	-10.7832
行之	-10.7833
自覺	-10.7834
獨脫	-10.7834
皆以	-10.7836
萬歲	-10.7843
為誰	-10.7843
跏趺	-10.7844
攢	-10.7848
其徒	-10.7849
亘	-10.7849
數日	-10.785
咽喉	-10.7853
云我	-10.7854
奢	-10.7857
二十八	-10.7858
勇猛	-10.7859
扇子	-10.7866
不淨	-10.7868
不息	-10.7869
火宅	-10.787
鎚	-10.7871
聲前	-10.7872
但得	-10.7873
蔬	-10.7879
進退	-10.7882
枝葉	-10.7885
長蘆	-10.7885
隨流	-10.7888
陽春	-10.7889
障礙	-10.789
蟬	-10.7896
韶陽	-10.7897
結制上堂	-10.7897
行處	-10.7903
去處	-10.7905
相與	-10.7906
圍繞	-10.7909
迢迢	-10.7912
影裏	-10.7915
趁出	-10.7918
蔡	-10.7919
也不得	-10.7922
修道	-10.7924
引得	-10.7925
豁然大悟	-10.7926
不達	-10.7929
今生	-10.7933
篆	-10.7936
拈起拄杖云	-10.7937
厲	-10.7938
蹤跡	-10.7938
相去多少	-10.7943
謂曰	-10.7946
宛	-10.7949
已上	-10.795
法雲	-10.7954
師聞	-10.7955
冒	-10.7955
根器	-10.7955
不遇	-10.7957
餓	-10.7957
耳聾	-10.7959
回避	-10.7961
兩岸	-10.7962
翔	-10.7963
禾山	-10.7968
此則	-10.7971
娘	-10.7971
師承	-10.7972
上方	-10.7974
光影	-10.7975
諒	-10.7976
眸	-10.7982
曰汝	-10.7982
尸	-10.7984
眷	-10.7984
董	-10.7989
什麼處	-10.799
浮山	-10.7992
祀	-10.7993
須要	-10.7994
實際	-10.7994
而入	-10.7994
淨瓶	-10.7995
水底	-10.7995
焉知	-10.7995
微妙	-10.7997
真佛	-10.8001
道什麼	-10.8006
回顧	-10.8008
颺	-10.8009
芒鞋	-10.8009
揑	-10.801
一粒	-10.8014
金針	-10.8014
不休	-10.8025
得意	-10.8028
恁麼來	-10.8032
宴坐	-10.8035
粘	-10.8043
三教	-10.8044
恕	-10.8046
無論	-10.8048
棗	-10.8048
拋向	-10.8049
無你	-10.805
久參	-10.805
肇	-10.8051
重新	-10.8051
麻三斤	-10.8054
花落	-10.8055
開堂日	-10.806
甌	-10.8065
巔	-10.8065
遯	-10.8066
大雄	-10.8067
師子吼	-10.8067
固是	-10.8068
極則	-10.807
見有	-10.8071
著衣喫飯	-10.8071
莫錯	-10.8072
怡	-10.8074
變易	-10.8075
之宗	-10.8078
致使	-10.8081
祝髮	-10.8084
律師	-10.8087
妄念	-10.8091
總持	-10.8092
拳頭	-10.8093
參差	-10.8094
壁立萬仞	-10.8095
獨有	-10.8096
弦	-10.8096
鍊	-10.8097
謚	-10.8097
求之	-10.8098
空劫	-10.8099
為是	-10.8102
汲	-10.8103
造次	-10.8103
□	-10.8104
毒藥	-10.8105
正位	-10.8106
蹟	-10.811
千江	-10.8111
其奈	-10.8112
座云	-10.8112
發願	-10.8113
片片	-10.8114
順治	-10.8116
華亭	-10.8122
僧堂前	-10.8123
多聞	-10.8124
總不恁麼	-10.8125
你作麼生	-10.8126
卷舒	-10.8134
鵝	-10.8137
土地	-10.8139
揚眉	-10.8144
坐在	-10.8149
有力	-10.815
有緣	-10.8154
鳳凰	-10.8155
詐	-10.8161
姿	-10.8163
鐘聲	-10.8163
洛	-10.8167
蝦	-10.817
何處不	-10.8171
未生	-10.8173
二三	-10.8175
鱉	-10.8175
寂靜	-10.818
不薦	-10.8181
遍地	-10.8182
吸	-10.8183
天竺	-10.8185
餌	-10.8189
雖不	-10.819
壁上	-10.819
愚癡	-10.8191
大藏	-10.8192
呈偈曰	-10.8194
是時	-10.8194
淪	-10.8198
湏	-10.82
僧問趙州	-10.8204
妨	-10.8206
法海	-10.8207
卸	-10.8207
相承	-10.8212
禿	-10.8212
翛然	-10.8219
大聖	-10.822
偷心	-10.8224
甲子	-10.8226
將錯就錯	-10.8228
緣生	-10.8228
自肯	-10.8232
若將	-10.8233
失卻	-10.8233
梵天	-10.8238
風前	-10.8239
流傳	-10.824
三度	-10.8243
近前來	-10.8248
猢猻	-10.8249
偶然	-10.825
皈依	-10.825
吐舌	-10.8251
猶自	-10.8251
扭	-10.8256
上首	-10.8257
鬱	-10.8258
更要	-10.8265
賢聖	-10.8266
鬬	-10.8267
忍俊不禁	-10.8268
何者	-10.8269
縱饒	-10.8269
來處	-10.8272
百川	-10.8273
乞食	-10.8276
阿彌陀佛	-10.8278
此箇	-10.828
纔有	-10.8281
便成	-10.8285
方寸	-10.8286
非我	-10.8287
以杖	-10.8288
軌	-10.8289
以是	-10.8289
脊	-10.829
怎奈	-10.829
師諱	-10.8291
倉	-10.8291
勳	-10.8291
貓兒	-10.8293
那知	-10.8295
箇裏	-10.8299
好事	-10.83
一家	-10.8302
便作	-10.8304
孝子	-10.8304
獼猴	-10.8308
拭	-10.8309
卓拄杖一下	-10.831
不減	-10.8311
廁	-10.8311
亦爾	-10.8311
又作麼生師云	-10.8312
曾見	-10.8314
冷地	-10.8318
相識	-10.8321
初機	-10.8323
禹	-10.8323
師打	-10.8326
其後	-10.8326
熈	-10.8326
卓一下	-10.8326
為宗	-10.8328
欲知	-10.8332
單提	-10.8333
激揚	-10.8337
佛國	-10.8338
不識好惡	-10.8339
一貫	-10.834
百歲	-10.8343
退步	-10.8345
頭首	-10.8345
事如何師云	-10.8348
漢月	-10.8349
朴	-10.8356
砌	-10.8357
眼前	-10.8359
尚有	-10.8365
空空	-10.8366
五葉	-10.8366
染淨	-10.8368
抖擻	-10.8368
輙	-10.8369
法雨	-10.837
諳	-10.8371
熊	-10.8372
衲衣	-10.8372
冊	-10.8382
學人不會	-10.8384
漫漫	-10.8385
便出去	-10.8386
一微塵	-10.8386
妙明	-10.8388
溈仰	-10.8389
倩	-10.8391
鳩	-10.8393
八年	-10.8393
非心	-10.8399
石室	-10.8404
他不得	-10.8407
落處麼	-10.8408
武帝	-10.8409
夜月	-10.8413
羡	-10.8417
且止	-10.8417
龍頭蛇尾	-10.842
于今	-10.8421
會去	-10.8422
試看	-10.8422
四天下	-10.8423
吾道	-10.8425
法要	-10.8425
笻	-10.8426
訝	-10.8429
春來	-10.8431
上樹	-10.8432
千尺	-10.8432
天寒	-10.8433
百花	-10.8437
鸞	-10.8437
掀	-10.8439
若道是	-10.844
在目前	-10.844
瞥	-10.8442
擲下拄杖	-10.8444
隻履	-10.8444
脉	-10.8448
溟	-10.8453
霽	-10.8453
乃知	-10.8454
請上堂僧問	-10.8454
及諸	-10.8455
析	-10.8455
忠國師	-10.8459
別處	-10.846
震動	-10.8461
一絲毫	-10.8461
眾曰	-10.847
。」【「	-10.8471
聆	-10.8471
娘生	-10.8475
家珍	-10.8476
三乘十二分教	-10.8477
縱奪	-10.8478
亦須	-10.8479
隨順	-10.8485
而復	-10.8486
毫髮	-10.8486
塔銘	-10.8486
家家	-10.8487
亞	-10.8489
晏	-10.849
提綱	-10.8495
盡在	-10.85
滴水	-10.8501
不食	-10.8503
機先	-10.8504
竈	-10.8505
一度	-10.8508
之情	-10.851
都盧	-10.8515
獨自	-10.8517
聖壽	-10.8518
不若	-10.8521
淹	-10.8521
夕陽	-10.8524
亦未	-10.8526
若能如是	-10.8529
週	-10.8531
徹骨	-10.8531
帛	-10.8531
風生	-10.8532
是法	-10.8535
無分	-10.8536
大徹	-10.8537
豈容	-10.8538
金剛經	-10.8541
與道	-10.8541
顧左右云	-10.8543
猶較些子	-10.8543
尿	-10.8544
出生死	-10.8545
捕	-10.8545
湊	-10.8546
寶劍	-10.8548
儉	-10.8548
若得	-10.855
膏	-10.855
有偈曰	-10.855
瞥地	-10.8554
古云	-10.8559
姪	-10.8564
玄要	-10.8565
療	-10.8566
寶所	-10.8567
朔	-10.8568
袋	-10.8571
不朽	-10.8571
捉敗	-10.8576
生而	-10.8578
無量壽	-10.8579
十萬	-10.8579
君王	-10.858
和尚語錄	-10.8584
南陽	-10.8586
召眾云	-10.8587
匹	-10.8589
能生	-10.8589
其意	-10.859
法燈	-10.8593
若到	-10.8593
印證	-10.8595
十五日	-10.8602
峰前	-10.8603
冬至	-10.8603
不是心	-10.8604
婆羅門	-10.8605
楊柳	-10.8606
△	-10.8606
本體	-10.8606
不違	-10.8609
華開	-10.8609
島	-10.8609
嵐	-10.8609
嵓	-10.8611
教化	-10.8612
專使	-10.8613
是何物	-10.8618
恬	-10.862
坊	-10.8621
竹林	-10.8622
香林	-10.8627
箸	-10.8627
一月	-10.8628
欠少	-10.8628
遜	-10.863
辭去	-10.8632
杲日	-10.8632
迨	-10.8633
雖然如此	-10.8635
虵	-10.8635
募	-10.8635
覺禪師	-10.8637
擘	-10.8637
丹青	-10.8637
一歸何處	-10.8641
靈山會上	-10.8642
長江	-10.8642
白頭	-10.8644
腮	-10.8645
所能	-10.8646
之內	-10.8648
上士	-10.8648
我等	-10.8648
翠竹	-10.865
共相	-10.8651
旃檀	-10.8652
度眾生	-10.8659
者曰	-10.8659
意如何	-10.866
在手	-10.8662
明朝	-10.8663
便可	-10.8665
故能	-10.8668
塢	-10.8671
去在	-10.8672
指頭	-10.8672
且向	-10.8675
風清	-10.8676
南北東西	-10.8684
千峯	-10.8686
沿	-10.8686
師到	-10.8687
汾陽昭	-10.8687
一葉	-10.8687
鬢	-10.869
祖師西來	-10.8691
仰曰	-10.8693
喝云	-10.8693
於言下	-10.8694
嘆曰	-10.8694
三祖	-10.8695
得自由	-10.8695
未會	-10.8696
三十六	-10.8702
便恁麼	-10.8703
身中	-10.8708
竪起	-10.8709
爐中	-10.8709
達摩	-10.871
三毒	-10.8713
半月	-10.8713
旅	-10.8716
搬	-10.8725
三寸	-10.8725
垂慈	-10.8726
下去	-10.8728
世事	-10.8728
留心	-10.8729
棘	-10.8731
優曇	-10.8731
但是	-10.8731
襄州	-10.8731
心體	-10.8732
接得	-10.8734
數珠	-10.8734
問如何是佛	-10.8735
棒下	-10.8736
繼席	-10.8737
清凉	-10.8738
那裏是	-10.8746
六合	-10.8749
咎	-10.875
瀑	-10.875
T	-10.875
什麼人	-10.8752
僧近前	-10.8753
西湖	-10.8755
在我	-10.8756
仰云	-10.8757
何曾有	-10.8757
宗教	-10.876
釆	-10.8764
雲門大師	-10.8764
啄	-10.8764
森羅	-10.8765
為本	-10.8769
伏惟	-10.877
D	-10.8771
S	-10.8771
J	-10.8771
叉	-10.8771
要會	-10.8772
凜凜	-10.8781
打殺	-10.8783
執著	-10.8787
餓鬼	-10.8788
PER	-10.8791
南來	-10.8794
即非	-10.8795
以致	-10.8796
示微疾	-10.8803
通一線	-10.8804
推出	-10.8804
威音那畔	-10.8805
故經云	-10.8807
帥	-10.8807
即為	-10.881
此二	-10.881
四祖	-10.881
事畢	-10.8811
臨濟宗	-10.8817
普門	-10.8819
去就	-10.8822
酌	-10.8826
麵	-10.8826
畢竟作麼生	-10.8832
耆舊	-10.8832
影像	-10.8833
菩提涅槃	-10.8835
達觀	-10.884
綿綿	-10.884
煥	-10.8847
嶺上	-10.8847
非一	-10.8847
起處	-10.8849
下禪床	-10.8853
踵	-10.8853
即且置	-10.8853
是何人	-10.8855
眾無語	-10.8855
夢幻	-10.8856
書偈	-10.8857
眾生心	-10.8859
云某甲	-10.886
庫司	-10.8862
人說	-10.8862
上堂問	-10.8865
橈	-10.8866
無縫塔	-10.8867
貴賤	-10.8871
方圓	-10.8871
之矣	-10.8871
梨	-10.8872
顒	-10.8872
其旨	-10.888
始見	-10.8881
透出	-10.8883
一僧云	-10.8884
活路	-10.8884
覿面相呈	-10.8885
馳求	-10.8885
無畏	-10.8885
罔明	-10.8886
不知其	-10.8887
白雪	-10.8888
師良久	-10.8888
禪師上堂	-10.8888
至晚	-10.8889
徙	-10.889
此非	-10.8891
空王	-10.8891
句句	-10.8892
蠻	-10.8893
愆	-10.8894
芒	-10.8895
西江	-10.8896
巖云	-10.8896
鳥啼	-10.8902
擬開口	-10.8904
悟處	-10.8905
憎	-10.8906
將此	-10.8909
中無	-10.8909
者箇是	-10.891
無差別	-10.8914
溪山	-10.8915
離此	-10.8916
喫了	-10.8918
臥龍	-10.8922
汝作麼生	-10.8923
要得	-10.8924
掇	-10.8925
剔	-10.8925
明了	-10.8926
海會	-10.8928
無體	-10.8928
粒	-10.893
之見	-10.8931
青龍	-10.8932
之學	-10.8935
道道	-10.8936
不具	-10.8937
與君	-10.8937
又喝	-10.8938
傳授	-10.8938
百千萬億	-10.8938
舉趙州	-10.8938
有過	-10.8942
化城	-10.8945
俱是	-10.8945
生死事大	-10.8949
溢	-10.8956
藝	-10.8957
單傳	-10.8958
道士	-10.8958
廣慧	-10.8959
忻	-10.8959
僧俗	-10.896
奠	-10.8963
從上諸聖	-10.8965
栗棘蓬	-10.8969
以自	-10.8971
聞見	-10.8971
闌	-10.8972
無力	-10.8972
盡大地是	-10.8975
若何	-10.8981
監寺	-10.8984
未為	-10.8985
麒麟	-10.8989
見他	-10.899
拊	-10.8991
丈曰	-10.8992
萬國	-10.8992
莫作	-10.8992
無底	-10.8993
那個是	-10.8995
高著眼	-10.8996
一指	-10.8996
堂頭	-10.8997
蕭蕭	-10.8997
灶	-10.8998
人物	-10.9001
功名	-10.9011
金明	-10.9011
見僧	-10.9014
如上	-10.9015
青霄	-10.9016
雍	-10.9017
此猶是	-10.9019
同體	-10.902
小師	-10.9021
安身	-10.9023
正與麼時	-10.9027
數載	-10.9028
佛智	-10.903
不隨	-10.903
之身	-10.903
道也	-10.9033
括	-10.9035
與眾	-10.9035
鏡中	-10.9038
數十	-10.9039
一重	-10.904
徘徊	-10.9041
國清	-10.9045
而言	-10.9046
大用現前	-10.9048
因什麼	-10.9052
豎拂云	-10.9052
醋	-10.9053
即心是佛	-10.9056
問和尚	-10.9058
可為	-10.9064
蓋覆	-10.9066
廚	-10.9071
侍立	-10.9072
涅槃經	-10.9074
翹	-10.9076
記取	-10.9077
擬欲	-10.9077
徽	-10.9077
大都	-10.9078
若向這裏	-10.908
為主	-10.9082
臺山	-10.9083
選佛	-10.9087
顯露	-10.9089
五戒	-10.9089
威光	-10.909
拄杖云	-10.9093
山居	-10.9093
重關	-10.9094
真風	-10.9094
寶鏡	-10.9095
沸	-10.9097
八識	-10.91
濯	-10.9103
楷	-10.9103
八面	-10.9105
十二年	-10.9105
宗匠	-10.9109
和尚作麼生	-10.9111
令行	-10.9114
後代兒孫	-10.9116
其體	-10.9118
如夢	-10.9118
搏	-10.912
鐘鼓	-10.9126
隨人	-10.9127
太極	-10.913
利害	-10.9131
法衣	-10.9132
天堂	-10.9132
𢹂	-10.9135
三千大千世界	-10.9136
近來	-10.9138
眾請	-10.914
雲散	-10.914
入水	-10.914
與伊	-10.9141
無蹤	-10.9142
中峰	-10.9142
來往	-10.9143
金毛	-10.9143
繪	-10.9143
賒	-10.9144
宗皇帝	-10.9147
請陞座	-10.915
一等	-10.9151
李公	-10.9153
物我	-10.9154
或時	-10.9154
惡業	-10.916
惑亂	-10.9161
大隨	-10.9162
螺	-10.9164
亦不得	-10.9165
而坐	-10.9166
影響	-10.9169
樓臺	-10.917
向外	-10.9173
一者	-10.9173
話墮	-10.9173
佛之	-10.9177
未識	-10.9182
湛堂	-10.9183
埜	-10.9183
九重	-10.9185
且作麼生是	-10.9188
訃	-10.9189
祖師意	-10.9189
帀	-10.9189
)」	-10.9196
異日	-10.92
髻	-10.9201
卵	-10.9202
鐵壁	-10.9202
熾然	-10.9204
既然	-10.9205
融通	-10.9206
幸有	-10.9208
盟	-10.9208
需	-10.9209
者裡	-10.9209
九十	-10.9211
掩關	-10.9217
芳草	-10.9218
四十年	-10.9224
普天	-10.9225
空山	-10.9225
林中	-10.9229
從心	-10.9231
打失	-10.9232
閃電	-10.9233
皓	-10.9238
寺裏	-10.9238
照破	-10.9238
旭	-10.9239
豈無	-10.9245
大顛	-10.9246
多時	-10.9247
碧潭	-10.9248
心源	-10.9249
無向背	-10.9252
泉州	-10.9252
钁	-10.9252
即心	-10.9257
此子	-10.9258
為生死	-10.9261
開先	-10.9262
脫去	-10.9266
騎牛	-10.9266
其或	-10.9266
雲開	-10.9269
馨香	-10.927
有生	-10.9275
不語	-10.9281
一莖	-10.9286
至正	-10.9286
后	-10.9287
十餘年	-10.9288
無上菩提	-10.9288
榜樣	-10.929
佛出世	-10.9291
過在什麼處	-10.9291
嘉禾	-10.9292
援	-10.9292
龍泉	-10.9293
也好	-10.9296
未徹	-10.9298
稻	-10.9308
攢眉	-10.931
棒打	-10.931
隋	-10.9311
不奈何	-10.9314
隙	-10.9316
如何是和尚	-10.9316
吾人	-10.9316
春日	-10.9317
枕子	-10.932
有如是	-10.932
一雙	-10.9324
夢裏	-10.9329
唵	-10.933
大和尚	-10.9331
死屍	-10.9331
未發	-10.9332
我在	-10.9332
瑕	-10.9334
方來	-10.9334
藻	-10.9336
第一義諦	-10.9336
兩忘	-10.9337
老婆心	-10.9339
杓	-10.9342
龍吟	-10.9343
有麼有麼	-10.9348
者少	-10.9349
座前	-10.935
自看	-10.935
汁	-10.9353
亦復	-10.9355
因此	-10.9355
則且置	-10.9359
渚	-10.9359
忽見	-10.936
豈知	-10.936
魔王	-10.9362
付與	-10.9367
還聞麼	-10.9369
因何	-10.9372
化身	-10.9373
巒	-10.9374
眾集	-10.9376
無憂	-10.9376
晴空	-10.9377
圓照	-10.938
清規	-10.9381
明曰	-10.9381
圜悟	-10.9382
之教	-10.9384
喚作甚麼	-10.9384
絕頂	-10.9386
交參	-10.9387
有意	-10.9388
作偈	-10.9392
北山	-10.9392
展兩手	-10.9394
纖塵	-10.9395
賣弄	-10.9395
團團	-10.9396
師又	-10.9398
錢塘	-10.9399
善能	-10.94
祖宗	-10.94
與和尚	-10.94
辛	-10.94
教他	-10.9403
狹	-10.9403
聚雲	-10.9403
相為	-10.941
傍觀	-10.9411
九十日	-10.9411
之不	-10.9418
而求	-10.9419
而歸	-10.9421
北禪	-10.9422
你看	-10.9423
山頂	-10.9424
白雲萬里	-10.9427
裂破	-10.9433
過在甚麼處	-10.9433
古寺	-10.9434
是什麼人	-10.9435
應物	-10.9438
入海	-10.9438
豫	-10.944
碩	-10.944
知非	-10.944
本來無	-10.9441
安國	-10.9445
當日	-10.9448
出塵	-10.9451
金湯	-10.9451
麁	-10.9456
不墜	-10.9458
八字	-10.9458
末世	-10.9459
豬	-10.9462
圓悟勤	-10.9466
從何來	-10.9466
中天	-10.9467
臨濟大師	-10.947
豎拳	-10.9471
黃花	-10.9472
客來	-10.9472
學得	-10.9473
明鏡	-10.9474
須信	-10.9476
有語	-10.9479
授受	-10.9481
別求	-10.9482
優劣	-10.9482
躡	-10.9483
象曰	-10.9483
憎愛	-10.9484
這裡	-10.9489
雪竇顯云	-10.9489
保任	-10.9489
那得	-10.949
出生	-10.949
疑著	-10.9491
拏	-10.9493
無根	-10.9503
青蓮	-10.9504
道是	-10.9505
門開	-10.9509
故人	-10.951
黔	-10.9512
老病	-10.9512
莊子	-10.9514
如雷	-10.9515
慳	-10.9515
波浪	-10.952
撈	-10.9521
寶峰	-10.9523
涕	-10.9523
波羅蜜	-10.9523
鑪	-10.9524
金剛圈	-10.9525
寒潭	-10.9526
圈	-10.9528
憩	-10.953
樹頭	-10.9533
若恁麼	-10.9534
憤	-10.9535
旱	-10.954
自欺	-10.954
恁麼事	-10.9542
者何	-10.9543
趣向	-10.9543
不但	-10.9546
照顧	-10.9551
鶯啼	-10.9552
又打	-10.9553
不逢	-10.9561
三家村裏	-10.9563
是阿誰	-10.9567
文武	-10.9569
見道	-10.9572
此義	-10.9575
兩眼	-10.9576
智海	-10.9578
▁上堂	-10.9579
雪竇顯	-10.958
體究	-10.958
相投	-10.9582
指點	-10.9584
龍山	-10.9585
諸菩薩	-10.9586
入處	-10.9587
早晚	-10.959
脣	-10.9591
後有	-10.9593
致令	-10.9593
祚	-10.9594
媚	-10.9597
但知	-10.9598
佇思	-10.9599
傳衣	-10.9601
說什麼	-10.9601
霄漢	-10.9602
驚人	-10.9603
風高	-10.9606
泥水	-10.9606
嶠	-10.9611
跋	-10.9615
駐	-10.9615
隴	-10.9616
諫	-10.9617
台州	-10.9618
歿	-10.9618
與諸	-10.9618
本寺	-10.9619
真宗	-10.9619
三十二	-10.9623
而作	-10.9625
可不	-10.9628
道看	-10.9631
現身	-10.9633
得旨	-10.9633
開元	-10.9633
龍樹	-10.9635
艸鞋	-10.964
有相	-10.9641
迅	-10.9642
僧作禮	-10.9644
不可不	-10.9648
汝當	-10.9649
拊掌	-10.9651
徑山杲	-10.9652
妄生	-10.9656
琇	-10.9657
勾	-10.9659
好笑	-10.966
是甚	-10.9661
半邊	-10.9662
越州	-10.9663
祖師門下	-10.9663
學道人	-10.9665
要會麼	-10.9666
無功	-10.9668
誼	-10.9669
幡	-10.9669
無量劫來	-10.9669
一念不生	-10.967
之前	-10.9674
南岳	-10.9676
吐露	-10.9677
降生	-10.968
破沙盆	-10.968
祗對	-10.9682
明眼人	-10.9683
不就	-10.9683
頓超	-10.9683
麓	-10.9683
衲僧巴鼻	-10.9684
獎	-10.9684
不絕	-10.9689
任是	-10.9689
坦然	-10.9692
正如	-10.9693
無涯	-10.9693
雖無	-10.9693
海中	-10.9696
一槌	-10.9697
餬餅	-10.9699
文殊師利	-10.9699
之物	-10.97
儱侗	-10.97
觀者	-10.9701
罏	-10.9704
七歲	-10.9705
流布	-10.9707
阿羅漢	-10.9707
無緣	-10.9709
一燈	-10.971
別傳	-10.9711
猶存	-10.9711
三山	-10.9717
驀頭	-10.9719
好看	-10.9721
凡情	-10.9723
遞	-10.9724
人身	-10.9724
慵	-10.9727
熙	-10.9728
乃舉	-10.9731
得者	-10.9731
是一	-10.9732
却向	-10.9732
有疑	-10.9734
入地獄	-10.9734
三業	-10.9736
是他	-10.9736
九峯	-10.9738
手脚	-10.974
多少時	-10.9743
出住	-10.9748
鴛鴦	-10.9749
的人	-10.9751
未足	-10.9752
子之	-10.9752
擅	-10.9753
寵	-10.9754
仁義	-10.9756
萬有	-10.9756
便云	-10.9756
館	-10.9756
非唯	-10.9759
攔	-10.9768
念誦	-10.9769
底漢	-10.9769
久久	-10.9769
西禪	-10.977
應知	-10.977
拈提	-10.9771
參堂去	-10.9772
老祖	-10.9773
吒	-10.9774
瑤	-10.9775
登座	-10.9775
靈苗	-10.9778
莫待	-10.978
不至	-10.9783
笑倒	-10.9784
臼	-10.9785
碧天	-10.9787
五十三	-10.9789
鬪	-10.9789
黑白	-10.9792
了義	-10.9793
庭前柏樹子	-10.9793
曜	-10.9793
未審和尚	-10.9794
擡	-10.9795
藏經	-10.9797
相契	-10.9803
發菩提心	-10.9806
僧喝	-10.9807
肚皮	-10.9808
功成	-10.9808
妄語	-10.9809
梭	-10.9814
喝曰	-10.9818
事業	-10.9818
本郡	-10.982
死漢	-10.9821
未及	-10.9821
成都	-10.9822
但見	-10.9822
遣使	-10.9823
都無	-10.9828
秪是	-10.9828
萌	-10.983
新豐	-10.9831
或問	-10.9832
爭如	-10.9833
舒州	-10.9833
位中	-10.9836
綸	-10.9837
蓋為	-10.9838
妍	-10.9842
滌	-10.9844
巴鼻	-10.9845
瞻仰	-10.9848
此云	-10.9849
公子	-10.9856
悞	-10.9857
天上天下	-10.986
非法	-10.9862
須知有	-10.9862
鵲	-10.9862
現成公案	-10.9863
弔	-10.9865
墓	-10.9866
不難	-10.9866
駒	-10.9867
迺	-10.9867
暫時	-10.9868
高下	-10.987
思議	-10.9871
戲論	-10.9872
貶	-10.9872
海水	-10.9875
猿啼	-10.9876
西院	-10.9882
於諸	-10.9884
盡十方世界	-10.9886
稿	-10.989
舉拂子云	-10.9892
此三	-10.9893
皓月	-10.9894
萬壑	-10.9896
拂袖便行	-10.99
香積	-10.9901
而終	-10.9902
未肯	-10.9904
檐	-10.9904
斷臂	-10.9905
跌	-10.9906
逗	-10.9907
忘卻	-10.9908
師為	-10.9908
之談	-10.9908
忙忙	-10.9909
樹上	-10.9909
隨喜	-10.9912
十二時	-10.9912
天地之	-10.9915
拋下	-10.9918
惹得	-10.9918
闔	-10.9919
力量	-10.9919
祖印	-10.9922
如雲	-10.9924
遂問	-10.9925
璨	-10.9929
空手	-10.9931
躋	-10.9934
因地	-10.9934
隨宜	-10.9935
誅	-10.994
所依	-10.9941
問汝	-10.9943
稱為	-10.9946
卓一下云	-10.9946
飡	-10.9948
秊	-10.9949
二邊	-10.9954
曳	-10.9956
驢年	-10.9956
勑	-10.9967
不宜	-10.9968
識心	-10.997
會佛法	-10.9971
舉頭	-10.9972
休休	-10.9975
皆由	-10.9979
七寶	-10.9985
耳根	-10.9986
如法	-10.9986
從緣	-10.9987
諸仁	-10.999
入地獄如箭射	-10.9991
增長	-10.9992
敢保	-10.9993
涯	-10.9994
芥子	-10.9998
匿	-10.9999
司馬	-10.9999
敦	-10.9999
頤	-11.0002
無滯	-11.0003
頌古	-11.0005
和尚示眾云	-11.0007
宴	-11.0007
傳語	-11.0008
以何	-11.0009
一日問	-11.0009
元旦上堂	-11.001
隨身	-11.001
若說	-11.0011
作得主	-11.0014
見地	-11.0015
請住	-11.0015
心王	-11.0016
有聲	-11.0016
靈明	-11.0017
寒巖	-11.0018
鷲嶺	-11.0024
寒灰	-11.0024
茶話	-11.0025
九旬	-11.0027
長松	-11.0027
前日	-11.003
眾中還有	-11.0036
直指人心	-11.0036
普濟	-11.0038
牧牛	-11.0039
脫體	-11.0043
既知	-11.0044
煆	-11.0045
盤桓	-11.0047
火爐	-11.0048
瞎却	-11.0049
游戲	-11.005
一團	-11.0053
權實	-11.0056
座曰	-11.0057
語云	-11.0058
青青	-11.0059
無所不	-11.006
卻被	-11.0061
方見	-11.0062
點出	-11.0064
鎮州	-11.0067
郊	-11.0069
懸崖	-11.007
除却	-11.0073
魯祖	-11.0075
福慧	-11.0075
白髮	-11.0076
不啻	-11.0078
淂	-11.0078
蝶	-11.0078
領旨	-11.0081
是汝諸人	-11.0082
西東	-11.0085
老老大大	-11.0085
玄微	-11.0089
巷	-11.009
靈機	-11.009
古聖	-11.009
新舊	-11.0093
銳	-11.0093
現量	-11.0098
一箭	-11.0099
顏色	-11.0101
省力	-11.0109
招慶	-11.0109
知此	-11.011
覺範	-11.0111
心是	-11.0111
為大	-11.0114
拒	-11.0116
禪牀	-11.0117
慘	-11.0121
不是物	-11.0125
知恩	-11.0127
壁立千仞	-11.0129
濟曰	-11.013
請師道	-11.0131
隻眼	-11.0132
默默	-11.0134
不厭	-11.0136
徇	-11.0139
一摑	-11.0139
年二十	-11.0142
徧界	-11.0142
攸	-11.0143
三要	-11.0147
仲尼	-11.0148
文學	-11.015
六識	-11.015
諸老	-11.0152
從上佛祖	-11.0153
相將	-11.0155
侍立次	-11.0156
中來	-11.0156
大善知識	-11.0157
陀羅尼	-11.016
級	-11.016
粧	-11.016
生佛	-11.0161
貓	-11.0161
無分別	-11.0161
嫩	-11.0162
譬喻	-11.0162
放下著	-11.0163
元無	-11.0163
要與	-11.0164
零	-11.0166
依依	-11.0166
非惟	-11.0166
復曰	-11.0167
須具	-11.0167
德山臨濟	-11.0168
往還	-11.0172
皎皎	-11.0173
空裏	-11.0174
暇	-11.0175
求其	-11.0176
閉門	-11.018
上元	-11.0181
高山	-11.0181
虗妄	-11.0182
婆曰	-11.0183
你是	-11.0185
不改	-11.0185
珊瑚	-11.0186
斷絕	-11.0187
賈	-11.0189
甚處去	-11.0189
色相	-11.0189
著衣	-11.019
是處	-11.0196
萬派	-11.0201
高人	-11.0201
若夫	-11.0202
曾無	-11.0212
俊哉	-11.0215
有錄	-11.0215
何嘗	-11.0215
西域	-11.0216
坎	-11.0219
佛是	-11.0224
寶華	-11.0224
至人	-11.0225
脫落	-11.0225
吉州	-11.0226
心力	-11.0227
祇要	-11.0233
貽	-11.0234
投子青	-11.0236
命師	-11.0236
聞舉	-11.0237
左邊	-11.0238
句中	-11.0241
今巳	-11.0244
坐道場	-11.0246
筍	-11.025
要人	-11.025
兔角	-11.025
大意	-11.0253
惡道	-11.0254
即以	-11.0255
姚	-11.0257
便得	-11.0259
寶林	-11.0261
即同	-11.0264
寂然	-11.0264
只者	-11.0266
吳越	-11.0268
住住	-11.0269
楔	-11.0269
度生	-11.0269
未至	-11.027
郎當	-11.027
明招	-11.0271
不放	-11.0271
吃	-11.0272
不是不是	-11.0275
僧一喝	-11.028
忽爾	-11.028
辭眾	-11.0282
刪	-11.0283
無益	-11.0283
碧落	-11.0285
雲集	-11.0291
一世	-11.0292
太尉	-11.0293
況復	-11.0293
卻是	-11.0294
忽聞	-11.0294
度人	-11.0296
襄	-11.0299
珪	-11.0301
肝膽	-11.0303
色空	-11.0306
棟	-11.0306
覲	-11.0308
天童覺	-11.031
本末	-11.0316
骨髓	-11.0321
過在	-11.0321
八字打開	-11.0322
報慈	-11.0323
法也	-11.0326
何足	-11.033
橫行	-11.033
彼中	-11.0332
一手	-11.0334
未分	-11.0334
座上	-11.0335
全真	-11.0337
兩般	-11.0337
上曰	-11.0337
心生	-11.034
天皇	-11.0341
者皆	-11.0343
一似	-11.0345
鈔	-11.0346
住世	-11.0348
教乘	-11.0349
且去	-11.0352
窩	-11.0354
活埋	-11.0355
歸去來	-11.0356
明禪師	-11.0358
毛孔	-11.0358
區	-11.036
時至	-11.0364
背上	-11.0369
石鞏	-11.0371
墖	-11.0371
動地	-11.0372
洞山云	-11.0375
非色	-11.0375
仕	-11.0378
受請	-11.0379
者亦	-11.0385
僧擬	-11.0388
染污	-11.039
洞徹	-11.0392
終無	-11.0392
如來禪	-11.0392
傅	-11.0393
扁舟	-11.0396
沙曰	-11.0398
至道	-11.0398
落葉	-11.0399
明教	-11.04
列祖	-11.0403
頒	-11.0403
飛來	-11.0403
何名	-11.0404
百餘	-11.0405
不錯	-11.0407
山主	-11.0408
作務	-11.0413
此言	-11.0417
栗	-11.042
得否	-11.0421
八百	-11.0421
三途	-11.0423
我此	-11.0425
除夕	-11.0426
為什麼却	-11.0427
千尋	-11.043
一樣	-11.0431
忽有	-11.0432
且要	-11.0432
澆	-11.0433
然燈	-11.0433
終始	-11.0433
木杓	-11.0433
十五年	-11.0437
瑞氣	-11.0439
諸大	-11.044
十餘	-11.0441
坐臥	-11.0443
狼籍	-11.0443
疆	-11.0443
蛙	-11.0444
明眼衲僧	-11.0444
騰騰	-11.0444
褒	-11.0444
花香	-11.0445
出手	-11.0446
▁示	-11.0446
霜曰	-11.0448
聞說	-11.0456
雲蓋	-11.0457
為人處	-11.0458
天之	-11.0458
拈得	-11.0459
靈利	-11.0459
忽若	-11.0459
舡	-11.0461
一踏	-11.0466
同門	-11.0468
堤	-11.0471
心識	-11.0475
徒自	-11.048
導師	-11.0486
參見	-11.0487
不足以	-11.0489
有一物	-11.049
雨露	-11.0492
在人	-11.0492
只向他道	-11.0492
擯	-11.0494
禦	-11.0495
帙	-11.0496
鐙	-11.0496
罄	-11.05
事也	-11.05
敗闕	-11.0501
卓主丈	-11.0504
求佛	-11.0508
實法	-11.0509
鐸	-11.0512
扶桑	-11.0515
蔓	-11.0522
悟心	-11.0522
記莂	-11.0527
若會	-11.0528
當來	-11.0528
亡僧	-11.0529
主丈	-11.0529
乃能	-11.0531
慨	-11.0536
寶塔	-11.0538
殺人刀	-11.0539
東京	-11.0541
問處	-11.0543
逕	-11.0544
入此	-11.0546
叨	-11.0548
一頌	-11.0548
即名	-11.055
禪流	-11.0551
大開	-11.0552
舉火	-11.0555
作聲	-11.056
狐疑	-11.0562
設供	-11.0562
璉	-11.0565
真妄	-11.0565
隨方	-11.0571
敝	-11.0573
熾	-11.0581
震威一喝	-11.0583
白馬	-11.0584
捺	-11.0586
得與麼	-11.0588
汪	-11.0588
洞然	-11.0589
誰道	-11.0589
漏逗	-11.059
一句又作麼生	-11.0592
痴	-11.0593
伶俐	-11.0596
居之	-11.0599
得道	-11.0599
不現	-11.0601
畝	-11.0601
師以手	-11.0601
他道	-11.0603
一匝	-11.0605
祖祖相傳	-11.0607
如山	-11.061
天曉	-11.0612
出此	-11.0612
恆	-11.0612
不挂	-11.0613
千里萬里	-11.0616
乾峰	-11.0621
道之	-11.0622
不居	-11.0623
非無	-11.0624
請小參	-11.0625
救得	-11.0625
末後一句	-11.0626
收得	-11.0627
拈棒	-11.0627
讀之	-11.0628
永劫	-11.0629
嘉興	-11.0632
觀世音	-11.0635
鴨	-11.0635
之樂	-11.0635
六度	-11.0636
善哉	-11.0636
兩處	-11.0637
得個	-11.0638
繩床	-11.0638
莫問	-11.0639
作一	-11.064
下得	-11.0648
濂	-11.0651
婆云	-11.0652
後參	-11.0653
瑠璃	-11.0653
陳氏子	-11.0655
一塊	-11.0657
之辰	-11.066
紋	-11.0662
便宜	-11.0666
腐	-11.0666
山之	-11.0666
禪寺語錄	-11.0666
氣象	-11.0667
綿密	-11.0672
撩	-11.0674
呵呵笑	-11.0675
那畔	-11.0675
兩句	-11.0675
可說	-11.0676
始覺	-11.0684
諸佛出世	-11.0684
蠅	-11.0687
豹	-11.0687
一顆	-11.0687
天宮	-11.0688
諸眾生	-11.0688
燎	-11.0689
腥	-11.0691
澄潭	-11.0691
接待	-11.0692
向人	-11.0693
脫空	-11.0694
昂	-11.0699
祖塔	-11.07
作摩生	-11.0702
不惜眉毛	-11.0705
起舞	-11.0706
僧問雲門	-11.0707
云會麼	-11.0708
袁	-11.0709
光彩	-11.071
亦不可得	-11.071
是有	-11.0716
一致	-11.0718
殿上	-11.0721
陌	-11.0724
一室	-11.0727
漢子	-11.0728
僧舉似	-11.073
也不識	-11.0733
一隻眼	-11.0735
假使	-11.0739
團圞	-11.074
三身	-11.0744
顯示	-11.0745
頑石	-11.0745
現行	-11.0746
還須	-11.0748
出於	-11.0751
盃	-11.0759
觀世音菩薩	-11.0759
卓一卓云	-11.0761
則不問	-11.0762
自信	-11.0762
1	-11.0763
徧參	-11.0766
謂是	-11.0767
隅	-11.0768
即向汝道	-11.0771
驕	-11.0772
丸	-11.0773
不獲	-11.0774
摸著	-11.0775
人天眼目	-11.0775
皮袋	-11.0776
大抵	-11.0777
下山	-11.0777
直上	-11.0778
茱萸	-11.0778
妙覺	-11.0778
日月星辰	-11.0779
瞻禮	-11.0779
中夜	-11.0781
鷗	-11.0785
大人相	-11.0785
漲	-11.0786
檀信	-11.0786
掩耳	-11.0788
峯頂	-11.0791
入寺	-11.0791
腔	-11.0792
何處有	-11.0793
不避	-11.0793
三冬	-11.0795
帝王	-11.0795
一丈	-11.0796
忞	-11.0796
溪邊	-11.0797
安知	-11.08
真言	-11.0801
透徹	-11.0802
遊人	-11.0802
一天	-11.0803
得到	-11.0805
楖栗	-11.0809
叮嚀	-11.0811
西北	-11.0811
癡人	-11.0811
去後	-11.0811
虹	-11.0813
居山	-11.0813
真諦	-11.0813
一念心	-11.0815
犬吠	-11.0815
說不得	-11.0816
如鏡	-11.0823
無遺	-11.0824
隱隱	-11.0824
頂𩕳	-11.0825
俱忘	-11.0827
和泥合水	-11.0828
最上	-11.0829
照用同時	-11.083
昆	-11.0831
妙悟	-11.0833
濟公	-11.0834
廼	-11.0836
馬鳴	-11.0836
黎	-11.0839
心如	-11.0839
生心	-11.0842
魁	-11.0843
禪和子	-11.0845
間斷	-11.0846
無處不	-11.0848
同異	-11.0852
侍僧	-11.0853
俗人	-11.0853
我師	-11.0854
每見	-11.0856
七縱八橫	-11.0856
塵沙	-11.0857
難逃	-11.0858
再問	-11.0859
起龕	-11.086
弁	-11.0861
求法	-11.0862
子云	-11.0862
師云汝	-11.0863
寔	-11.0864
作偈曰	-11.0864
諸佛菩薩	-11.0865
潘	-11.0869
堦	-11.0871
苟能	-11.0871
所為	-11.0872
覺知	-11.0876
精勤	-11.0876
六通	-11.0876
飲光	-11.0877
街頭	-11.088
禪德	-11.0881
十字	-11.0882
以成	-11.0882
古者道	-11.0882
變作	-11.0882
撾	-11.0882
寰宇	-11.0885
及其	-11.0885
圓寂	-11.0887
正脈	-11.0887
睿	-11.0888
陟	-11.089
難以	-11.089
人自	-11.089
莫便是	-11.0892
明歷歷	-11.0893
五峰	-11.0895
之盛	-11.0898
雙桂	-11.09
經中	-11.09
啐啄同時	-11.0901
連天	-11.0902
風塵	-11.0902
崔	-11.0903
不實	-11.0903
圓頓	-11.0905
心者	-11.0906
剃髮	-11.0909
蒼天	-11.0909
獅子吼	-11.0913
大解脫	-11.0915
子也	-11.0915
肰	-11.0917
前話	-11.0917
是則是	-11.092
九年面壁	-11.0925
恍	-11.0927
生鐵	-11.0928
焉能	-11.0929
男子	-11.093
不迷	-11.0933
石虎	-11.0934
人天眾前	-11.0934
覧	-11.0934
請上堂問	-11.0937
訴	-11.094
木上座	-11.0941
自代云	-11.0943
二則	-11.0944
良由	-11.0944
便了	-11.0944
書云	-11.0946
場中	-11.0947
頌出	-11.095
心意識	-11.095
苟非	-11.0951
尊者曰	-11.0951
擊拂子云	-11.0952
胡餅	-11.0956
誓願	-11.0957
藏鋒	-11.0957
眾兄弟	-11.0957
不真	-11.0958
一莖草	-11.0959
待他	-11.0961
有志	-11.0961
潦倒	-11.0962
遮裏	-11.0963
苦心	-11.0964
二句	-11.0965
情塵	-11.0966
枝上	-11.0968
冶	-11.0968
肘	-11.0968
於我	-11.0969
重陽	-11.097
垣	-11.097
隨他	-11.0971
暗中	-11.0973
恩愛	-11.0976
後昆	-11.0976
嗟乎	-11.0977
墮地	-11.0979
如風	-11.098
萬人	-11.0981
之緣	-11.0981
來機	-11.0983
骨董	-11.0986
舖	-11.0988
得他	-11.0988
揆	-11.0989
百里	-11.0989
將什麼	-11.099
清淨法身	-11.099
祖翁	-11.0992
傳持	-11.0995
可笑	-11.1002
蝦蟇	-11.1002
自救不了	-11.1004
問你	-11.1005
毗	-11.1006
五識	-11.1009
匝地	-11.101
一毫端	-11.1013
若向者裏	-11.1013
世上	-11.1016
玄沙云	-11.1016
咄哉	-11.1016
此話	-11.1027
高懸	-11.1028
一言半句	-11.103
神仙	-11.103
枷	-11.1031
未易	-11.1032
如龍	-11.1032
盡未來際	-11.1033
之苦	-11.1034
慇懃	-11.1036
誦經	-11.1038
老婆心切	-11.1041
心肝	-11.1041
戒定慧	-11.1042
發揮	-11.1042
旨趣	-11.1043
扉	-11.1043
戚	-11.1044
扶持	-11.1045
靜坐	-11.1048
棲賢	-11.105
沙界	-11.105
昨夜三更	-11.1052
可乎	-11.1052
行藏	-11.1053
隨其	-11.1054
當空	-11.1054
賓主歷然	-11.1055
會也	-11.1058
拈曰	-11.1059
知者	-11.1064
入得	-11.1065
掬	-11.1067
荷擔	-11.1067
字字	-11.1068
尹	-11.1068
須向	-11.1069
開爐上堂	-11.1071
出離	-11.1071
或謂	-11.1072
不輕	-11.1073
二義	-11.1077
穿過	-11.1078
直待	-11.1084
城中	-11.1085
佛陀	-11.1086
恭敬	-11.1086
三者	-11.1086
檀護	-11.1088
曩	-11.1091
儲	-11.1092
雪巖	-11.1093
初一	-11.1095
如故	-11.1097
主事	-11.1098
渾無	-11.1101
中事	-11.1101
若也不會	-11.1102
周旋	-11.1104
不與麼	-11.1105
若遇	-11.1106
不坐	-11.1108
窻	-11.1109
任意	-11.1111
我聞	-11.1112
祖燈	-11.1112
之念	-11.1112
何益	-11.1112
既得	-11.1115
巴陵	-11.1115
示以	-11.1117
過夏	-11.1118
照禪師	-11.1119
真禪師	-11.1122
我所	-11.1126
參方	-11.1126
擊拂子	-11.1126
其一	-11.1127
清明	-11.1127
掣電	-11.1128
無因	-11.1131
以下	-11.1133
行次	-11.1133
問如何是祖師西來意	-11.1135
指天指地	-11.1135
中丞	-11.114
皆悉	-11.1142
元旦	-11.1146
諸人還	-11.1148
定當	-11.1149
草堂	-11.1149
那時	-11.115
指月	-11.1151
所問	-11.1153
自成	-11.1154
超方	-11.1154
不禁	-11.1157
鎗	-11.116
而可	-11.1162
古殿	-11.1162
無一法	-11.1163
身命	-11.1164
銘曰	-11.1166
饅頭	-11.1166
活句	-11.1172
無實	-11.1173
又僧問	-11.1175
鬧市	-11.1177
同風	-11.118
綠水	-11.1183
禮三拜	-11.1183
可觀	-11.1186
佛語	-11.1186
之源	-11.1187
知他	-11.1187
於一	-11.1187
月照	-11.119
善權	-11.119
乘時	-11.1195
肚裏	-11.1196
上根	-11.1196
午夜	-11.1197
聞師	-11.1197
解脫門	-11.1198
匡廬	-11.1198
膚	-11.12
一著子	-11.1201
火中	-11.1201
智門	-11.1206
誌	-11.1206
肝	-11.1208
景德	-11.1214
眾中有	-11.1215
他後	-11.1216
作活計	-11.1218
有來由	-11.1218
輪王	-11.1219
此地	-11.1221
何言	-11.1223
寶座	-11.1223
天機	-11.1227
却成	-11.1227
僧舉	-11.1228
又被	-11.1229
慶云	-11.1229
具大	-11.123
汙	-11.123
無由	-11.1232
縱然	-11.1232
寐	-11.1233
即佛	-11.1236
此皆	-11.1236
黃昏	-11.1237
宗云	-11.1242
敢問諸人	-11.1243
萬境	-11.1244
出不得	-11.1244
迸出	-11.1244
姑蘇	-11.1245
蠶	-11.1247
吝	-11.1249
顯聖	-11.1249
華山	-11.125
岐路	-11.125
規模	-11.1254
急須	-11.1255
密雲	-11.1256
撥開	-11.1258
高峯	-11.126
蘭若	-11.1264
拈主丈	-11.1264
拖泥帶水	-11.1265
悟了	-11.1267
攬	-11.127
嫁	-11.127
途路	-11.1271
至上堂	-11.1272
無外	-11.1273
拄杖曰	-11.1273
汝心	-11.1275
第一句	-11.1276
登山	-11.1278
然此	-11.1282
一轉	-11.1285
不學	-11.1286
而說	-11.129
且喜沒交涉	-11.1291
世俗	-11.1293
鉏	-11.1293
武林	-11.1294
白牛	-11.1298
抂	-11.1299
白衣	-11.1301
所緣	-11.1305
趕	-11.1311
南嶽下	-11.1311
親承	-11.1313
惜乎	-11.1316
噇	-11.1319
婁	-11.1324
艾	-11.1325
什麼處來	-11.1325
語言文字	-11.1326
返照	-11.1327
眀	-11.133
這邊	-11.1332
萬頃	-11.1333
不多	-11.1336
雲生	-11.1339
亦不可	-11.1339
壁立	-11.134
誰識	-11.1341
苦哉	-11.1341
月輪	-11.1342
初生	-11.135
打得	-11.1352
樸	-11.1353
通云	-11.1353
檗曰	-11.1353
黃面老子	-11.1353
譜	-11.1355
僧又喝	-11.1357
成褫	-11.1358
不修	-11.136
且問	-11.1362
信知	-11.1363
已前	-11.1366
遲疑	-11.1368
鄧	-11.1369
叢中	-11.137
眼底	-11.1372
今時人	-11.1375
幅	-11.1378
在你	-11.138
者即	-11.1382
矯	-11.1382
問如何	-11.1383
舉著	-11.1386
雖未	-11.1389
轟	-11.139
無傳	-11.139
為心	-11.1392
汝但	-11.1392
敢問大眾	-11.1392
瀾	-11.1393
即真	-11.1396
上藍	-11.1398
妙喜曰	-11.1399
要津	-11.1399
䟦	-11.1401
剃度	-11.1402
與摩	-11.1409
鋒鋩	-11.1409
僧出	-11.1412
洛陽	-11.1412
▁【	-11.1413
心也	-11.1413
炷香	-11.1415
稠	-11.142
脊梁	-11.142
側耳	-11.1421
不名	-11.1422
耽	-11.1423
做得	-11.1423
千餘	-11.1424
提不起	-11.1424
謝和尚	-11.1425
時有僧出	-11.1425
精舍	-11.1425
言言	-11.1427
錦鱗	-11.1427
不答	-11.1429
墳	-11.1433
傍人	-11.1435
郡之	-11.1436
用得	-11.1438
輪轉	-11.1438
知巳	-11.144
偏正	-11.1442
佛乘	-11.1442
自來	-11.1445
精明	-11.145
開花	-11.1452
靈峰	-11.1453
崢嶸	-11.1453
猴	-11.1454
惶	-11.1454
裴	-11.1455
有智	-11.1456
堂曰	-11.1459
是大	-11.1459
因循	-11.1465
一切諸	-11.1465
正所謂	-11.1465
人境	-11.1468
往參	-11.147
如何是西來意	-11.1473
劇	-11.1476
不差	-11.1477
鰲	-11.148
只恁麼	-11.1481
此僧	-11.1483
打成一片	-11.1484
大明	-11.1489
兩班	-11.1489
頂禮	-11.1492
海印	-11.1492
如何是主中主	-11.1494
擊鼓	-11.1499
一會	-11.1501
縷	-11.1502
佛鑑懃	-11.1505
清香	-11.1508
剎海	-11.1509
過了	-11.151
洽	-11.151
裘	-11.151
初無	-11.1511
參頭	-11.1511
宸	-11.1513
之要	-11.1513
蔚	-11.1513
得底	-11.1517
嬰兒	-11.1518
吽	-11.152
眉間	-11.1523
吾佛	-11.1525
厨	-11.1528
如許	-11.153
通箇消息	-11.153
擬心	-11.1535
椿	-11.1536
六載	-11.1537
宮商	-11.1538
大機大用	-11.1539
了生死	-11.1539
爭知	-11.1539
邇	-11.1542
東明	-11.1542
依他	-11.1543
佞	-11.1544
森	-11.1546
無奈	-11.1549
摩訶	-11.1549
分座	-11.155
赫	-11.1551
所不能	-11.1552
虎頭	-11.1553
懈怠	-11.1554
正當十五日	-11.1554
千聖不傳	-11.1554
鹿門	-11.1554
萬德	-11.1555
緘	-11.1556
披剃	-11.1559
在前	-11.156
塚	-11.1561
使其	-11.1561
寂子	-11.1562
個事	-11.1562
系	-11.1564
魔外	-11.1565
普應	-11.1566
道業	-11.1566
楹	-11.157
菩提心	-11.157
猛省	-11.1571
法爾	-11.1571
三關	-11.1577
應緣	-11.1577
如何即是	-11.1578
旛	-11.1578
之於	-11.158
如日	-11.158
三五	-11.1581
旻	-11.1581
相待	-11.1581
無虧	-11.1581
果報	-11.1582
臘月三十日	-11.1585
捋虎鬚	-11.1585
金襴	-11.1586
法筵	-11.1587
拄杖頭上	-11.159
諧	-11.159
善用	-11.1591
桃李	-11.1593
簿	-11.1593
喝下	-11.1595
匙	-11.1596
莽	-11.1597
心無	-11.1598
和氣	-11.1598
雲收	-11.1599
便休去	-11.1599
佇	-11.16
歷代	-11.16
竹杖	-11.1604
闡提	-11.1607
橫按	-11.1607
古來	-11.1609
也不知	-11.1613
九日	-11.1614
豐干	-11.1615
阜	-11.1616
圓具	-11.1617
在彼	-11.1617
之異	-11.162
辟	-11.1621
敢問	-11.1621
可惜許	-11.1621
風來	-11.1623
牧童	-11.1624
講經	-11.1626
兼帶	-11.1627
僧伽	-11.1627
塗毒鼓	-11.1628
先後	-11.1634
遍參	-11.1635
昭覺勤云	-11.1635
不滯	-11.1635
散亂	-11.1636
一株	-11.1638
師住	-11.1638
薙染	-11.1639
釋然	-11.164
愜	-11.1642
至尊	-11.1643
空有	-11.1644
巳成	-11.1644
兀	-11.1644
耑	-11.1646
嶺頭	-11.1646
種草	-11.1647
權衡	-11.1647
豎拂	-11.1649
汝是	-11.1649
絲綸	-11.1651
那一	-11.1653
佛前	-11.1654
道破	-11.1655
親證	-11.1656
了達	-11.1657
堂奧	-11.1658
竭力	-11.1661
家私	-11.1661
是作家	-11.1661
彎	-11.1665
塵剎	-11.1665
崔嵬	-11.1668
雲門道	-11.1668
壽山	-11.1669
不相識	-11.167
片雲	-11.1671
元宵	-11.1671
頭來	-11.1672
勁	-11.1672
疑團	-11.1674
勝負	-11.1676
但向	-11.1676
應菴	-11.1677
中流	-11.1678
因事	-11.1678
等事	-11.1679
實性	-11.1679
大樹	-11.1679
下禪牀	-11.1679
歷然	-11.1679
倡	-11.168
三生	-11.1683
人不識	-11.1683
巳而	-11.1683
眼開	-11.1686
若未	-11.1686
放汝三十棒	-11.1691
畫一圓相	-11.1691
斬新	-11.1693
失利	-11.1693
外求	-11.1693
自身	-11.1693
多是	-11.1694
驪珠	-11.1696
泰山	-11.1696
追風	-11.1697
皆空	-11.1699
開發	-11.1699
可憐生	-11.17
作佛事	-11.1701
爍破	-11.1703
此際	-11.1704
贅	-11.1706
置之	-11.171
其源	-11.1711
寒光	-11.1711
二十餘年	-11.1712
若於	-11.1712
決不	-11.1713
言也	-11.1719
還山	-11.1719
行也	-11.1719
舁	-11.1721
夜叉	-11.1721
自能	-11.1721
壽量	-11.1722
其義	-11.1723
若道不得	-11.1723
當門	-11.1723
彼岸	-11.1727
壘	-11.1729
始是	-11.1729
動用	-11.1729
踏倒	-11.173
航	-11.1733
霜云	-11.1737
便恁麼去	-11.1737
皎	-11.1738
後到	-11.1739
點茶	-11.1739
成現	-11.1741
行矣	-11.1741
豈得	-11.1742
舉世	-11.1742
老兄	-11.1745
因僧問如何是	-11.1748
一絲	-11.1748
諸禪	-11.175
衙	-11.1752
婺州	-11.1752
書曰	-11.1752
揚州	-11.1754
非佛	-11.1755
忍辱	-11.1755
錦繡	-11.176
教外	-11.1761
則易	-11.1761
至誠	-11.1761
打坐	-11.1766
無眼	-11.1767
水雲	-11.1767
人難	-11.1771
眾中莫有	-11.1772
屈指	-11.1773
成等正覺	-11.1774
沐浴	-11.1776
誰不	-11.1776
劈脊	-11.1777
掉臂	-11.1777
萬法歸一一歸何處	-11.1777
能見	-11.1778
大千沙界	-11.1778
幕	-11.178
諸相	-11.1781
相親	-11.1782
踢倒	-11.1782
遇著	-11.1784
督	-11.1785
梵音	-11.1787
但云	-11.1788
滿面	-11.1791
主曰	-11.1793
七十二	-11.1796
金風	-11.1796
曲調	-11.1797
溥	-11.1803
怛	-11.1804
淑	-11.1805
無人識	-11.1805
妙法	-11.1809
斷滅	-11.181
語也	-11.181
一曰	-11.1811
祖父	-11.1811
相國	-11.1811
風波	-11.1811
委曲	-11.1813
刈	-11.1814
散去	-11.1816
之室	-11.1817
應時	-11.1824
嬰	-11.1824
大悅	-11.1826
靈鷲	-11.1826
為說	-11.1827
從來不	-11.1828
碓	-11.1829
通天	-11.1831
和尚如何	-11.1832
維摩詰	-11.1833
真消息	-11.1833
幾個	-11.1835
聞其	-11.1835
天衣	-11.1836
貴在	-11.1837
住此山	-11.1838
費力	-11.184
無消息	-11.1843
我要	-11.1843
三塗	-11.1843
東邊	-11.1845
信手	-11.1847
知我	-11.185
無回互	-11.1851
依此	-11.1852
鳥語	-11.1854
諡	-11.1854
萬福	-11.1854
令侍者	-11.1855
筏	-11.1856
不一	-11.1857
多事	-11.1857
青天白日	-11.1857
!」	-11.186
假饒	-11.1865
其語	-11.1865
另	-11.1865
矩	-11.1865
朝廷	-11.1868
汝還	-11.1868
行世	-11.1869
為復是	-11.1869
的是	-11.187
呈似	-11.1871
件	-11.1875
不久	-11.1875
重興	-11.1877
相訪	-11.1877
年多少	-11.1883
隨意	-11.1883
懡㦬	-11.1884
涅槃妙心	-11.1885
水陸	-11.1885
拂袖便出	-11.1885
椽	-11.1886
今日失利	-11.1886
裙	-11.1887
煨	-11.1888
更莫	-11.1888
辣	-11.1889
得力處	-11.1892
魔軍	-11.1893
沉吟	-11.1895
盍	-11.1896
全是	-11.1897
不致	-11.1899
不著便	-11.19
世尊云	-11.1907
園林	-11.1909
手足	-11.1911
來時如何	-11.1911
合道	-11.1911
笋	-11.1911
勦絕	-11.1912
聞道	-11.1916
嬌	-11.1916
勢云	-11.1918
沃	-11.1918
更與	-11.1919
孟子	-11.192
句下	-11.192
右邊	-11.1921
技	-11.1922
泉石	-11.1922
恒河沙	-11.1923
平田	-11.1923
能為	-11.1924
不將	-11.1924
慈氏	-11.1924
一句作麼生	-11.1924
韶州	-11.1926
僧便	-11.1926
自非	-11.1926
病在	-11.1929
匡山	-11.1929
未生時	-11.1931
空谷	-11.1933
六代祖師	-11.1934
斷橋	-11.1935
盌	-11.1936
右手	-11.1936
氣宇	-11.1937
收放	-11.1939
穿雲	-11.1941
以示	-11.1944
塵劫	-11.1945
野狐精	-11.1946
若不會	-11.1949
雪嶺	-11.1949
幾年	-11.195
巡堂	-11.195
誰解	-11.1951
徃	-11.1951
取之	-11.1951
未許	-11.1954
形骸	-11.1954
且看	-11.1954
家聲	-11.1955
從之	-11.1957
令其	-11.1958
未忘	-11.1958
因僧	-11.1962
嗅	-11.1968
見色	-11.1968
其德	-11.1971
塑	-11.1972
艸木	-11.1972
侍者云	-11.1972
點首	-11.1972
恁麼即	-11.1973
原無	-11.1973
上山	-11.1973
莫非	-11.1974
之可	-11.1974
道底	-11.1977
臨濟德山	-11.1979
千金	-11.1979
胤	-11.1979
轉得	-11.1981
底時節	-11.1981
力行	-11.1981
要須	-11.1983
雙眼	-11.1985
佛土	-11.1988
是事	-11.1988
一真	-11.1988
演說	-11.1989
未敢	-11.1991
最為	-11.1991
達者	-11.1993
參尋	-11.1997
嚇	-11.1998
擺	-11.2
轉見	-11.2
尚不	-11.2
若約	-11.2002
如何是向上事	-11.2002
為佛事	-11.2004
心所	-11.2005
師召	-11.2007
白玉	-11.2009
元來是	-11.2009
之初	-11.201
悠	-11.2012
求人	-11.2015
龍翔	-11.2016
不共	-11.2016
自相	-11.2018
一陽	-11.2021
笑呵呵	-11.2022
剋	-11.2022
家業	-11.2024
東禪	-11.2024
摩竭	-11.2024
翌日	-11.2024
若了	-11.2025
未曾有	-11.2029
時光	-11.2029
懿	-11.2029
署	-11.2031
從何而	-11.2033
百千三昧	-11.2035
之謂也	-11.2037
偈頌	-11.2039
天華	-11.204
佛法無多子	-11.204
是人	-11.2042
蒼蒼	-11.2042
香山	-11.2045
有一僧	-11.2046
第二句	-11.2047
教意	-11.2047
有五	-11.2048
付之	-11.205
飲水	-11.2052
愚人	-11.2052
壽六十	-11.2057
抗	-11.2058
伴侶	-11.2058
空過	-11.206
梵王	-11.2063
抽身	-11.2065
楚石	-11.2065
慶快	-11.2066
胸襟	-11.2066
則能	-11.2067
較些子	-11.2068
證入	-11.2071
一日云	-11.2073
不讓	-11.2076
人所	-11.2076
百世	-11.2078
與一掌	-11.2082
皎潔	-11.2082
如何是諸佛出身處	-11.2082
掃除	-11.2084
增減	-11.2085
萍	-11.2086
惟願	-11.2086
法無	-11.2089
旌	-11.209
一氣	-11.2093
一粒米	-11.2093
法乳	-11.2095
一切諸佛	-11.2097
圓禪師	-11.2098
真俗	-11.2099
說戒	-11.2099
山問	-11.2102
劫前	-11.2106
二十棒	-11.2108
師復打	-11.2109
凌霄	-11.2109
拆	-11.211
萬別千差	-11.211
回光	-11.2114
火炬云	-11.2115
安置	-11.2115
上方丈	-11.2115
風起	-11.2117
我來	-11.2119
賴有	-11.212
祖堂	-11.2121
巳過	-11.2123
宛轉	-11.2124
三平	-11.2124
掌中	-11.2128
其形	-11.2128
殺生	-11.2129
平實	-11.213
與大眾	-11.2132
巳來	-11.2133
起居	-11.2133
超佛越祖	-11.2136
是道	-11.2138
王宮	-11.214
唯一	-11.2144
好個	-11.2145
求道	-11.2145
之一字	-11.2147
便入	-11.2149
袍	-11.215
又見	-11.2153
為真	-11.2154
衲僧分上	-11.2154
揣	-11.2155
月上	-11.2156
如實	-11.2158
之氣	-11.2158
漂	-11.2159
趯	-11.2163
以偈曰	-11.2163
通消息	-11.2163
問佛	-11.2165
說道理	-11.2165
第九	-11.2166
肌	-11.2169
恰是	-11.2169
鷂子	-11.2169
保壽	-11.2169
一派	-11.217
藹	-11.2172
耆宿	-11.2173
吾有	-11.2174
上古	-11.2175
楓	-11.2175
展坐具	-11.2176
即知	-11.2177
覺云	-11.2178
青黃	-11.2181
寒山子	-11.2181
杭	-11.2182
所以云	-11.2182
筠	-11.2186
國師云	-11.2188
來此	-11.2189
佛教	-11.2189
根性	-11.2192
亙	-11.2193
豈肯	-11.2193
一箇半箇	-11.2196
夭	-11.2197
聲名	-11.2199
奕	-11.2199
安然	-11.2199
兩邊	-11.22
其本	-11.2206
過量	-11.2207
不意	-11.2208
打睡	-11.2209
木石	-11.2212
時節因緣	-11.2213
壽命	-11.2213
淨因	-11.2214
師於言下	-11.2219
後事	-11.222
先須	-11.2221
向下	-11.2223
薙髮	-11.2226
之能	-11.2227
荒草	-11.2228
綺	-11.2229
2	-11.2229
柱杖	-11.2229
無不是	-11.2229
鐺	-11.223
舉步	-11.223
具戒	-11.2231
稔	-11.2231
不費	-11.2232
宦	-11.2233
就座	-11.2234
綠楊	-11.2235
破戒	-11.2237
勘破了也	-11.2237
草草	-11.2241
二十七	-11.2243
待我	-11.2243
還鄉	-11.2246
嫡	-11.2247
兩度	-11.225
過患	-11.2251
銀山鐵壁	-11.2252
毗尼	-11.2252
當有	-11.2254
竿頭	-11.2255
虫	-11.2255
大有人	-11.2256
埃	-11.2256
戎	-11.2258
甦	-11.2258
擔板	-11.2262
徒眾	-11.2262
如何是境中人	-11.2264
以兩手	-11.2265
佛來	-11.2265
秘密	-11.2267
兩堂	-11.2268
夢見	-11.2269
孤危	-11.2274
豎拂子曰	-11.2275
當以	-11.2276
瓣香	-11.2277
世諦流布	-11.2279
居士請上堂	-11.2281
奇特事	-11.2283
無情說法	-11.2283
靈根	-11.2283
白蓮	-11.2283
山花	-11.2283
室內	-11.2286
月色	-11.2287
喚作什麼	-11.2287
鳥窠	-11.229
者矣	-11.229
也大奇	-11.2291
幻有	-11.2298
為物	-11.2298
五欲	-11.2299
妙旨	-11.2301
向上一著	-11.2301
千巖	-11.2303
茶湯	-11.2304
六人	-11.2304
充滿	-11.2305
法器	-11.2306
如我	-11.2306
明宗	-11.2307
法藏	-11.2311
琢	-11.2311
既巳	-11.2312
光照	-11.2312
黃鸝	-11.2312
臉	-11.2313
聞法	-11.2315
脅	-11.2316
師友	-11.2317
桌	-11.2319
幾何	-11.2319
自爾	-11.2319
沛	-11.232
生天	-11.2321
薰風	-11.2325
立雪	-11.2328
安身立命處	-11.2331
瀟灑	-11.2335
快樂	-11.2336
琛	-11.2338
下落	-11.2339
此篇	-11.234
待伊	-11.234
禮樂	-11.2341
自恣	-11.2341
噪	-11.2342
孕	-11.2343
瑯琊	-11.2343
虎嘯	-11.2345
閭	-11.2346
出家兒	-11.2347
攝受	-11.2347
自體	-11.235
也只	-11.2351
在汝	-11.2353
和南	-11.2353
萬山	-11.2355
超出	-11.2357
遠公	-11.2361
生死大事	-11.2362
此亦	-11.2363
什麼處去	-11.2363
正信	-11.2367
世尊拈花	-11.2372
去了	-11.2373
諦觀	-11.2378
漾	-11.2379
我輩	-11.2379
何不問	-11.2381
師自	-11.2381
些些	-11.2386
至矣	-11.2387
用不著	-11.2389
達本	-11.2389
辜	-11.239
著眼看	-11.2393
車馬	-11.2393
還家	-11.2396
五雲	-11.2397
俞	-11.2398
殞	-11.24
峩	-11.24
遂成	-11.2404
茸	-11.2404
而下	-11.2406
心念	-11.2406
迭	-11.2407
後至	-11.2408
一喝不作一喝用	-11.2409
所現	-11.241
梵志	-11.2413
又以	-11.2414
三角	-11.2414
金牛	-11.2416
空生	-11.2419
深坑	-11.242
以明	-11.2421
即如	-11.2423
青嶂	-11.2429
琳	-11.2429
口頭	-11.243
破山	-11.2432
正在	-11.2433
成佛道	-11.2434
梧桐	-11.2434
不亂	-11.2435
熊耳	-11.2436
汝作麼生會	-11.2438
龍宮	-11.244
既非	-11.2441
遊行	-11.2442
我者	-11.2443
湖州	-11.2443
對治	-11.2444
善法	-11.2444
殿閣	-11.2445
境緣	-11.2447
金峰	-11.245
酬價	-11.2451
趙州道	-11.2452
乃可	-11.2452
灼	-11.2452
僧禮拜師云	-11.2454
無拘	-11.2456
開田	-11.2456
手書	-11.2461
放去	-11.2462
遂舉	-11.2463
趂出	-11.2466
『	-11.2466
門弟子	-11.2466
其為	-11.2467
千丈	-11.2467
動念	-11.2468
漸次	-11.2468
總不知	-11.2469
道行	-11.247
相從	-11.2472
湛湛	-11.2472
主中主	-11.2472
無塵	-11.2472
相繼	-11.2474
尉	-11.2475
明覺	-11.2475
兩段	-11.2479
著著	-11.2479
劈脊便棒	-11.2482
有句無句	-11.2483
荷葉	-11.2483
尋思	-11.2484
心行	-11.2484
𡎺	-11.2486
賢者	-11.2488
擲拄杖	-11.2491
不暇	-11.2492
騷	-11.2493
斯道	-11.2493
訊	-11.2494
藩	-11.2494
不得不	-11.2496
持鉢	-11.2496
即與	-11.2497
寥廓	-11.2497
春水	-11.2498
一堆	-11.2499
一句師云	-11.2501
閙市	-11.2504
不曉	-11.2504
若離	-11.2505
莫言	-11.2506
當體	-11.2508
生殺	-11.2512
賺殺	-11.2512
檻	-11.2513
撑	-11.2515
此理如何	-11.2515
不回	-11.2516
祖師心印	-11.2516
鑰	-11.2519
蕊	-11.2522
人道	-11.2523
化云	-11.2524
遠矣	-11.2526
不喚作	-11.2531
正中偏	-11.2531
言教	-11.2533
孝廉	-11.2533
漁父	-11.2535
入城	-11.2539
脫然	-11.2539
為體	-11.2541
截斷眾流	-11.2541
過於	-11.2541
罔測	-11.2542
畬	-11.2542
教汝	-11.2543
赤手	-11.2543
書偈曰	-11.2544
燈籠露柱	-11.2545
縈	-11.2547
犢	-11.2547
有功	-11.2548
舉一	-11.2548
知心	-11.2549
吉凶	-11.2551
槐	-11.2552
通方	-11.2552
行業	-11.2552
機輪	-11.2554
百千諸佛	-11.2554
請山僧	-11.2554
世尊曰	-11.2554
酉	-11.2555
此偈	-11.2555
傳心	-11.2555
且如何是	-11.2555
此性	-11.2556
靣	-11.2556
句師云	-11.2557
萬像	-11.2557
多羅	-11.2558
先是	-11.2565
說底	-11.2566
鞏	-11.2567
真覺	-11.2567
甚分明	-11.2569
丹霞淳	-11.2569
佛告	-11.2571
鳥飛	-11.2573
醬	-11.2573
梵行	-11.2575
便起	-11.2578
代曰	-11.2579
楞伽經	-11.2579
讎	-11.258
聞而	-11.2582
而常	-11.2584
亂統	-11.2586
你還	-11.2586
十五日巳前	-11.2587
驪龍	-11.2587
道路	-11.2589
趙州茶	-11.259
井底	-11.2594
當為	-11.2595
耐	-11.2597
四種	-11.2598
白棒	-11.26
無縫	-11.26
此方	-11.26
以表	-11.2601
璣	-11.2602
蓄	-11.2603
所居	-11.2603
若識得	-11.2604
不歇	-11.2604
之光	-11.2605
杜撰	-11.2606
擾擾	-11.2606
即不問如何是	-11.2606
既然如是	-11.2608
嘻	-11.2609
勘驗	-11.2609
肖	-11.261
院事	-11.261
叢席	-11.2611
外護	-11.2612
舉臨濟	-11.2613
句子	-11.2613
址	-11.2615
淵源	-11.2616
過量人	-11.2616
者邊	-11.2617
有物	-11.2618
百鳥	-11.2619
依止	-11.2619
有幾人	-11.2621
意根	-11.2622
再參	-11.2622
亦自	-11.2622
普願	-11.2623
烏藤	-11.2623
慧禪師	-11.2625
者誰	-11.2625
曰學人不會	-11.2627
牕	-11.2627
海嶽	-11.2628
九夏	-11.2629
壤	-11.263
不守	-11.263
識情	-11.2634
無文	-11.2634
為甚不	-11.2635
隈	-11.2637
汎	-11.2637
以此為	-11.2639
無生死	-11.2641
胸次	-11.2642
寤	-11.2642
也恁麼	-11.2643
塗毒	-11.2643
追尋	-11.2644
便掌	-11.2645
峙	-11.2645
三歲	-11.2646
圭	-11.2646
往見	-11.2647
叱之	-11.2648
矧	-11.2649
從何處	-11.2649
罪福	-11.2651
千人	-11.2653
不重	-11.2653
秋色	-11.2653
寶月	-11.2655
顆	-11.2655
何其	-11.266
乎哉	-11.266
的旨	-11.266
無所有	-11.2661
二師	-11.2664
謂師曰	-11.2665
乾矢橛	-11.2665
犁	-11.2666
雲間	-11.2667
身為	-11.2667
使者	-11.2671
與古人	-11.2672
多矣	-11.2673
深信	-11.2675
更深	-11.2675
向此	-11.2677
河北	-11.2677
霖	-11.2679
眼曰	-11.2682
頓漸	-11.2683
不殺	-11.2683
離却	-11.2683
所轉	-11.2685
僧罔措	-11.2686
舉僧問雲門	-11.2687
法昌	-11.2687
始可	-11.2688
鍾山	-11.2689
人知	-11.269
菩薩摩訶薩	-11.269
初見	-11.2691
久嚮	-11.2694
瞠	-11.2695
契合	-11.2695
馬駒	-11.2696
佛也	-11.2697
噉	-11.2698
獃	-11.2698
惟我	-11.27
煆煉	-11.2701
脫生死	-11.2701
無咎	-11.2702
不憚	-11.2702
幾番	-11.2705
實為	-11.2706
無瑕	-11.2714
法會	-11.2715
雪裏	-11.2716
僧眾	-11.2717
吞吐	-11.2718
了悟	-11.2719
叉手而立	-11.272
檢點得出	-11.2722
必欲	-11.2724
遇緣	-11.2724
擲下拂子	-11.2725
孜孜	-11.2726
月影	-11.2726
忽地	-11.2727
脫却	-11.2729
奮迅	-11.273
新年	-11.273
吾云	-11.2731
天魔	-11.2731
波旬	-11.2732
未嘗不	-11.2734
我當時若見	-11.2734
妄見	-11.2735
諸經	-11.2735
飄飄	-11.2737
學問	-11.2737
告眾曰	-11.2738
家中	-11.2738
向上宗乘	-11.2742
西來大意	-11.2742
皆同	-11.2745
生前	-11.2747
其理	-11.2747
十善	-11.2751
頭上安頭	-11.2752
万	-11.2752
鷺	-11.2752
那吒	-11.2752
東塔	-11.2755
興善	-11.2756
穿衣喫飯	-11.2758
互換	-11.2758
還自	-11.276
悲願	-11.276
啣	-11.2762
韶山	-11.2763
既爾	-11.2764
直捷	-11.2766
時中	-11.2766
問他	-11.2768
▁住	-11.2769
只將	-11.2769
聚頭	-11.2771
釋云	-11.2771
前輩	-11.2775
修羅	-11.2777
道林	-11.2777
唱和	-11.2779
無影樹	-11.2781
昔時	-11.2782
更為	-11.2784
樁	-11.2786
果有	-11.279
毗耶	-11.2791
荊山	-11.2791
水面	-11.2792
了得	-11.2793
有二種	-11.2793
老翁	-11.2796
稱尊	-11.2799
濱	-11.2799
道得即	-11.28
合眼	-11.2801
便會	-11.2802
恁麼問	-11.2802
安名	-11.2804
無思	-11.2806
樣子	-11.2809
呼為	-11.2813
電光	-11.2814
提婆	-11.2816
毘耶	-11.2817
抄	-11.2817
佛剎	-11.2818
絡	-11.2826
粵	-11.2829
秖是	-11.283
更須知有	-11.2832
如前	-11.2833
潑天	-11.2836
囊藏	-11.2837
把斷	-11.2837
通禪師	-11.2839
忘機	-11.2839
此宗	-11.284
幽谷	-11.284
龐	-11.2842
業識茫茫	-11.2843
槩	-11.2844
相好	-11.2845
自見	-11.2845
生來	-11.2846
疇	-11.2846
知道	-11.2846
玷	-11.2848
浣	-11.285
殼	-11.2851
夜靜	-11.2854
夢覺	-11.2854
剎塵	-11.2858
甚麼處去	-11.286
曰未審	-11.2861
凝然	-11.2865
晚年	-11.2868
有以	-11.2869
十二月	-11.287
也只是	-11.2871
人世	-11.2871
師以拄杖	-11.2871
捋	-11.2878
報佛恩	-11.2881
其家	-11.2882
一座	-11.2886
言外	-11.2887
拱手	-11.2887
青原下	-11.2888
無極	-11.289
逢渠	-11.289
豎起拂子	-11.2892
刻舟	-11.2892
折合	-11.2895
楞嚴經	-11.2896
形容	-11.2897
云你	-11.2897
體性	-11.2898
天地懸隔	-11.2898
法空	-11.2904
泄	-11.2906
鶻	-11.2906
大義	-11.2907
噓	-11.2908
未離	-11.2909
漏洩	-11.2909
得大自在	-11.2909
豈止	-11.2911
舉似大眾	-11.2912
松源	-11.2912
德山棒	-11.2913
伍	-11.2914
十五日巳後	-11.2914
師子兒	-11.2915
未休	-11.2915
佛所	-11.2917
莽鹵	-11.2918
慎勿	-11.2921
山僧道	-11.2923
某等	-11.2923
心頭	-11.2924
入於	-11.2924
囑曰	-11.2926
情忘	-11.2927
主張	-11.2929
金沙	-11.293
浴佛	-11.2931
若會得	-11.2932
與老僧	-11.2932
二尊宿	-11.2934
使得	-11.2935
無主	-11.2935
本來無一物	-11.2936
一場懡㦬	-11.2937
果熟	-11.2937
今夏	-11.2937
一椎	-11.2938
瞳	-11.2938
薩	-11.2938
飯僧	-11.294
外無	-11.2941
大地眾生	-11.2941
觔	-11.2941
獨許	-11.2942
鼓山珪	-11.2942
扯	-11.2943
笏	-11.2943
只貴	-11.2944
無記	-11.2945
適纔	-11.2947
都寺	-11.2949
張無盡	-11.295
於佛	-11.2952
法鼓	-11.2953
便向	-11.2959
把火	-11.296
白浪	-11.296
唯是	-11.296
饒你	-11.2963
未生前	-11.2967
請和尚道	-11.2971
瀟湘	-11.2971
有耳	-11.2971
日午	-11.2971
七尺	-11.2974
報身	-11.2974
誕生	-11.2975
歬	-11.2976
愛憎	-11.2976
歲寒	-11.2977
苦口	-11.2977
兩片皮	-11.2982
契證	-11.2982
三四	-11.2982
之病	-11.2984
年老	-11.2985
面孔	-11.2987
善友	-11.2987
我即	-11.2991
朝宗	-11.2991
天下太平	-11.2991
行履處	-11.2992
向何處	-11.2993
著語云	-11.2993
鼈	-11.2994
無得	-11.2994
安禪	-11.2994
之先	-11.2995
喫粥	-11.2997
不倦	-11.2997
東山水上行	-11.2998
州人	-11.2998
黑漆	-11.2999
直指人心見性成佛	-11.3001
忽然大悟	-11.3004
同學	-11.3006
即是佛	-11.3007
不孝	-11.3008
支離	-11.3008
所著	-11.3011
犀	-11.3013
隨風	-11.3014
以心	-11.3014
本非	-11.3017
左手	-11.3017
佛知見	-11.3018
裔	-11.3019
知不知	-11.3019
一頭	-11.302
正見	-11.3021
舉雲門	-11.3021
見僧來	-11.3022
危坐	-11.3022
如大	-11.3023
渺	-11.3027
問學人	-11.3028
無有是處	-11.3029
謳歌	-11.303
之寶	-11.303
功夫	-11.3031
收來	-11.3032
頻頻	-11.3032
灌溪	-11.3033
爛熳	-11.3034
汝州	-11.3034
先天	-11.3035
大事因緣	-11.3038
見分	-11.304
來看	-11.3041
退居	-11.3044
消得	-11.3045
徹證	-11.305
未成	-11.305
數百	-11.3051
夜夜	-11.3051
遼	-11.3052
萬善	-11.3053
靈照	-11.3054
問我	-11.3054
判斷	-11.3055
久住	-11.3056
一畫	-11.3056
試舉看	-11.3056
目之	-11.3057
成佛作祖	-11.3058
真理	-11.3059
法爾如然	-11.306
瀝	-11.3063
杵	-11.3064
喝出	-11.3064
清禪師	-11.3065
之場	-11.3066
翩翩	-11.3066
閏	-11.3066
彊	-11.3066
於道	-11.3067
鐫	-11.3067
展開	-11.3069
五人	-11.307
吾徒	-11.3071
有事	-11.3074
果子	-11.3074
之輩	-11.3077
西蜀	-11.3084
安隱	-11.3084
可與	-11.3084
真智	-11.3084
作女人拜	-11.3089
掦	-11.309
眼上	-11.3091
過時	-11.3096
應當	-11.3097
盲龜	-11.3098
摶	-11.31
當今	-11.3101
皆因	-11.3106
三千里	-11.3108
兀兀	-11.311
獅子兒	-11.311
突兀	-11.3111
有能	-11.3112
有一句	-11.3115
之因	-11.3116
高風	-11.3118
之智	-11.3118
僚	-11.3119
珍寶	-11.3119
水火	-11.3121
眾生界	-11.3121
江河	-11.3121
秋光	-11.3122
打著	-11.3123
轉變	-11.3123
師將	-11.3123
伎	-11.3125
具眼者	-11.3126
蹲	-11.3128
大殿	-11.3129
勃	-11.3132
若然者	-11.3133
然之	-11.3133
信施	-11.3133
之真	-11.3134
柰何	-11.3135
古木	-11.3135
都不	-11.3136
縉紳	-11.3137
郡守	-11.3137
一相	-11.3138
義理	-11.314
霜雪	-11.314
請主	-11.3144
萬松道	-11.3144
寶珠	-11.3146
正覺云	-11.3148
即空	-11.3151
心為	-11.3153
未在更道	-11.3153
兩手分付	-11.3153
絮	-11.3154
者如何	-11.3157
又不見	-11.3159
耳聞	-11.3159
不喜	-11.316
亦不能	-11.316
之乎	-11.3161
乃為	-11.3162
揚家醜	-11.3163
十三年	-11.3163
在處	-11.3163
日照	-11.3164
兀坐	-11.3165
何期	-11.3168
且道與	-11.3171
)。○	-11.3171
藕	-11.3172
褁	-11.3175
後因	-11.3177
住持人	-11.3178
慧曰	-11.3178
方是	-11.3178
笑破	-11.318
深藏	-11.3181
難明	-11.3183
樹倒藤枯	-11.3184
攛	-11.3185
便歸	-11.3188
以何為驗	-11.3188
模樣	-11.3189
稅	-11.3189
跳不出	-11.3191
違背	-11.3191
輯	-11.3192
甚處得來	-11.3193
諸有	-11.3193
寇	-11.3194
惡發	-11.3194
吳江	-11.3197
八萬	-11.3197
悵	-11.3198
天花	-11.32
其二	-11.3202
匣	-11.3203
法寶	-11.3203
東家	-11.3205
大寂	-11.3209
瞬	-11.3209
標格	-11.3211
日頭	-11.3214
揚眉瞬目	-11.3214
伏惟珍重	-11.3215
無孔鐵鎚	-11.3215
旁觀	-11.3216
卓拄杖一下云	-11.3216
懽	-11.3219
堂頭和尚	-11.3219
說與	-11.322
鳳山	-11.3221
修習	-11.3222
布衫	-11.3222
告眾	-11.3224
小小	-11.3224
人間天上	-11.3224
齎	-11.3226
鼻孔遼天	-11.3226
茶飯	-11.3226
臨濟喝	-11.3228
一部	-11.3228
陰界	-11.3229
終不能	-11.323
眼光	-11.3234
溫州	-11.3234
談笑	-11.3236
述偈曰	-11.3238
漸漸	-11.3238
怡然	-11.3238
蹉	-11.3238
為善	-11.324
蒙師指	-11.324
崇寧	-11.324
▁○	-11.324
二時	-11.3245
非有非無	-11.3247
泡	-11.3248
妄想執著	-11.3253
不回頭	-11.3258
即日	-11.3258
受苦	-11.3259
觀自在	-11.326
慾	-11.326
出處	-11.3262
穴云	-11.3262
摑	-11.3265
浮生	-11.3265
一宿	-11.3267
許汝	-11.3267
僧家	-11.3267
簇	-11.3271
不對	-11.3272
闡揚	-11.3272
張氏子	-11.3275
便回	-11.3275
萬億	-11.3276
前頭	-11.3277
走馬	-11.3278
春雨	-11.3279
又復	-11.328
寄語	-11.3282
沒處	-11.3283
陂	-11.3283
那裏來	-11.3284
龍女	-11.3284
階級	-11.3284
師拈	-11.3284
行路	-11.3289
悼	-11.3289
悟後	-11.329
荊棘林	-11.3293
訂	-11.3293
羯磨	-11.3293
國師曰	-11.3297
遂以	-11.3297
凡所	-11.3298
一對	-11.33
忽有箇	-11.3301
何處去	-11.3302
生死之	-11.3305
向甚處去	-11.3305
中庸	-11.3308
洪波	-11.3308
汀	-11.3309
槃	-11.3311
探竿影草	-11.3311
有情無情	-11.3312
峨	-11.3312
揭示	-11.3313
難分	-11.3316
舂	-11.3316
見如來	-11.3317
某人	-11.3318
非實	-11.3319
老大	-11.3319
擿	-11.332
謂其	-11.332
若還	-11.332
弘法	-11.3321
如何是主中賓	-11.3322
七百	-11.3322
塞却	-11.3323
塲	-11.3325
汝既	-11.3325
但看	-11.3325
主宰	-11.3329
大願	-11.3329
我慢	-11.3329
生日	-11.333
師家	-11.3334
一等是	-11.3334
為汝說	-11.3335
流注	-11.3337
舉唱	-11.3339
還如	-11.3341
殻	-11.3342
大冶	-11.3342
穿却	-11.3344
為眾生	-11.3344
精金	-11.3344
山裏	-11.3345
五千	-11.3345
京兆	-11.3346
放逸	-11.3348
發生	-11.3348
紹隆	-11.3349
饌	-11.3349
王氏子	-11.335
咽	-11.3351
o	-11.3352
釋迦彌勒	-11.3353
花雨	-11.3355
無疆	-11.3356
階前	-11.3356
始有	-11.3357
葵	-11.3359
為先	-11.3359
於前	-11.3362
死也	-11.3364
此外	-11.3364
堆裏	-11.3365
師打曰	-11.3366
寶印	-11.3366
金鎖	-11.3367
同源	-11.3367
法印	-11.3371
春山	-11.3372
俱不	-11.3374
隨波逐浪	-11.3374
雙眉	-11.3375
有多少	-11.3375
如何是奪境不奪人	-11.3377
以道	-11.3377
妙喜云	-11.3377
時也	-11.3378
骨肉	-11.3378
不除	-11.3379
維摩經	-11.338
老居士	-11.338
莫把	-11.338
牙齒	-11.3381
撒沙	-11.3383
日中	-11.3383
草木叢林	-11.3384
怯	-11.3385
梧	-11.3385
難消	-11.3385
翁曰	-11.3387
衣食	-11.3388
偏中正	-11.339
寶殿	-11.3391
道一句	-11.3391
汝自	-11.3392
善為	-11.3393
重來	-11.3394
不煩	-11.3394
法相	-11.3394
輕重	-11.3395
擒住	-11.3397
目視	-11.3397
無事人	-11.3399
三十餘年	-11.3399
一舉	-11.3401
其說	-11.3405
耽源	-11.3406
翻轉	-11.3406
又謂	-11.3407
蘿蔔	-11.3408
如何是人境俱不奪	-11.3408
匝	-11.3408
棚	-11.3409
庚子	-11.3409
無復	-11.3409
者非	-11.341
為母	-11.3412
牙爪	-11.3412
法名	-11.3412
卓云	-11.3413
釣魚	-11.3415
塹	-11.3416
丐	-11.3418
攘	-11.3418
南華	-11.3419
大振	-11.342
囂	-11.3421
久而	-11.3421
方有	-11.3423
荷負	-11.3424
放身	-11.3424
一剎那	-11.3426
舉目	-11.3427
春回	-11.3428
註腳	-11.3429
好好	-11.343
園頭	-11.3432
隨例	-11.3433
死蛇	-11.3434
七八	-11.3435
荊州	-11.3437
甚麼處來	-11.3437
何止	-11.3439
跛	-11.3442
而住	-11.3442
淘	-11.3445
下口	-11.3445
頭戴	-11.3446
請師直指	-11.3446
無染	-11.3447
憶昔	-11.3447
萃	-11.345
師見	-11.3451
毒蛇	-11.3451
孰為	-11.3452
一性	-11.3453
墮落	-11.3453
今既	-11.3455
禪家	-11.3458
儒者	-11.346
何者是	-11.3462
第八識	-11.3463
智眼	-11.3463
行化	-11.3464
無禪	-11.3465
羅籠	-11.3465
出院	-11.3465
龍天	-11.3468
大喜	-11.3469
露堂堂	-11.3469
還許學人	-11.347
謝師答話	-11.3471
何緣	-11.3475
寧有	-11.3477
無妨	-11.3477
海禪師	-11.3478
佛手	-11.3481
是日	-11.3483
日久	-11.3485
雖在	-11.3488
直透	-11.3489
壓良為賤	-11.3489
落在第二	-11.349
家山	-11.3491
我以	-11.3491
打某甲	-11.3493
得解脫	-11.3494
果是	-11.3495
吾家	-11.3495
莫知	-11.3496
切切	-11.3497
禁足	-11.3498
以後	-11.3499
誓不	-11.35
谷隱	-11.3502
不透	-11.3502
同心	-11.3503
懸崖撒手	-11.3503
向上一竅	-11.3504
惟心	-11.3506
人家男女	-11.3506
一尺	-11.3506
利人	-11.3507
鹹	-11.3508
甚麼處是	-11.3508
光景	-11.351
一條拄杖	-11.351
紛紜	-11.3512
迂	-11.3512
行行	-11.3513
釋迦如來	-11.3514
槎	-11.3515
之極	-11.3515
聯芳	-11.3516
空門	-11.3518
我與你	-11.3518
諷經	-11.3519
下來	-11.3522
永安	-11.3523
我於	-11.3523
天空	-11.3524
方為	-11.3525
孤雲	-11.3527
憨山	-11.3527
師意如何	-11.3529
南詢	-11.3531
何待	-11.3533
不赴	-11.3534
威音王	-11.3534
與麼來	-11.3535
慧林	-11.3535
憑何	-11.3536
最勝	-11.3537
家鄉	-11.3537
狸奴白牯	-11.3538
之西	-11.3539
鏤	-11.3544
漁翁	-11.3547
爆竹	-11.355
大護法	-11.3551
僧云如何是	-11.3551
真是	-11.3552
四諦	-11.3553
圓光	-11.3556
在天	-11.3556
師笑曰	-11.3557
不得動著	-11.3558
待汝	-11.356
師唱誰家曲	-11.356
華頂	-11.3561
傳來	-11.3563
名號	-11.3563
煙波	-11.3565
報國	-11.3566
召大眾曰	-11.3569
走入	-11.357
和尚今日	-11.3572
裏有	-11.3572
逐日	-11.3573
貪欲	-11.3573
一人見錄	-11.3574
漿	-11.3574
與麼說話	-11.3575
寺僧	-11.3576
知君	-11.3576
句後	-11.3576
僉	-11.3577
落在甚麼處	-11.3577
却道	-11.3577
皮膚	-11.3577
超群	-11.3579
設利	-11.3581
皆如	-11.3581
札	-11.3584
信得	-11.3585
千歲	-11.3586
頂相	-11.3587
所聞	-11.3587
妙義	-11.3589
皆成	-11.3592
真人	-11.3592
明矣	-11.3595
周遮	-11.3596
踞地	-11.3596
寐語	-11.3596
劈頭	-11.3597
龍興	-11.3597
盡皆	-11.3597
用盡	-11.36
喃喃	-11.36
從東過西	-11.3601
弄巧成拙	-11.3602
南海	-11.3604
方纔	-11.3607
躊躇	-11.3607
不能自	-11.3608
心若	-11.3609
蹇	-11.3609
本命元辰	-11.3611
隨類	-11.3611
心空及第歸	-11.3612
伏以	-11.3612
上天	-11.3613
遼天	-11.3613
懈	-11.3613
𠊳	-11.3615
三日後	-11.3615
無所住	-11.3617
知也	-11.3617
捉得	-11.3619
冬瓜	-11.362
何須更	-11.362
疊疊	-11.3621
舌根	-11.3623
太阿	-11.3626
有主	-11.3627
堂司	-11.3628
大病	-11.3628
早知	-11.3629
一僧出	-11.3631
清平	-11.3633
掠	-11.3635
向外馳求	-11.3635
狗子還有佛性也無	-11.3635
始解	-11.3636
甎	-11.3637
須彌頂上	-11.3638
參請	-11.3639
潭吉	-11.3639
剜	-11.3639
波羅	-11.3641
巳知	-11.3642
遏	-11.3643
首楞嚴	-11.3644
倒卓	-11.3645
檗云	-11.3646
無自性	-11.3648
直到	-11.3649
二十二	-11.365
最難	-11.3651
為侍者	-11.3653
十一月	-11.3653
參玄	-11.3653
省覲	-11.3654
近代	-11.3654
速道	-11.3655
即今在甚麼處	-11.3656
前來	-11.3656
入涅槃	-11.366
是好手	-11.3661
草賊大敗	-11.3664
竪起拂子	-11.3666
韜	-11.3667
而欲	-11.3668
不計	-11.3668
異見	-11.3669
不風流處也風流	-11.367
雪上加霜	-11.367
鞍	-11.3673
不全	-11.3674
生時	-11.3676
合喫	-11.3676
有僧出	-11.3677
而寂	-11.3677
昏沉	-11.3677
戒律	-11.3678
亦何	-11.3678
法社	-11.3679
佛佛	-11.3679
滴滴	-11.3681
咬著	-11.3681
碌碌	-11.3682
所疑	-11.3684
世情	-11.3684
先覺	-11.3684
花發	-11.3685
蒙和尚	-11.3686
九天	-11.3689
歸眾	-11.3689
第三十	-11.369
誰云	-11.369
眨眼	-11.3691
承嗣	-11.3692
並無	-11.3695
據室	-11.3695
大同	-11.3698
發現	-11.3699
奇怪	-11.3699
口似	-11.37
頂門眼	-11.37
國人	-11.3701
萬般	-11.3701
莫可	-11.3702
業障	-11.3703
迦葉微笑	-11.3704
揩	-11.3705
頸	-11.3707
不謬	-11.3708
金雞	-11.3709
控	-11.371
未透	-11.3712
善巧	-11.3714
城裏	-11.3715
今則	-11.3715
往復	-11.3716
是個甚麼	-11.3716
密印	-11.3717
湛寂	-11.3719
盡其	-11.372
所行	-11.372
具威儀	-11.3723
只消	-11.3724
蔣	-11.3726
那裡	-11.373
眼云	-11.3732
孺人	-11.3732
枯樁	-11.3733
巳竟	-11.3735
善人	-11.3735
隨聲	-11.3736
孤舟	-11.3737
鏃	-11.3741
時當	-11.3742
何啻	-11.3743
拈華	-11.3744
形影	-11.3747
復是何物	-11.3747
禪師因	-11.3748
覷著	-11.3749
因而	-11.3751
衣服	-11.3752
于是	-11.3755
天晴	-11.3755
公云	-11.3756
宮殿	-11.3756
即成	-11.3758
瞥然	-11.376
大眾會麼	-11.3763
齋時	-11.3763
胡僧	-11.3764
萬重	-11.3765
道友	-11.3767
志氣	-11.3768
恢	-11.3768
由心	-11.3768
斬釘截鐵	-11.3769
離四句絕百非	-11.3769
峯曰	-11.3771
貢	-11.3773
知已	-11.3774
捫	-11.3775
顧視大眾	-11.3775
設或	-11.3776
嶼	-11.3777
還許	-11.3777
點燈	-11.3777
絹	-11.3778
長夜	-11.378
娛	-11.378
朝朝	-11.3783
化門	-11.3783
酣	-11.3784
莫妄想	-11.3786
異熟	-11.379
禪師法嗣二人	-11.3791
不可見	-11.3792
聖人之	-11.3795
寶劒	-11.3796
如何是賓中主	-11.3796
荊南	-11.3796
炳	-11.3797
情知	-11.3797
如何是道中人	-11.3799
擊禪牀	-11.38
至若	-11.38
浩然	-11.38
即時	-11.3803
還來	-11.3803
十萬八千	-11.3804
穩坐	-11.3807
狗子無佛性話	-11.3808
悄然	-11.3809
周沙界	-11.381
露地白牛	-11.381
三春	-11.381
無多	-11.3814
寶山	-11.3814
當恁麼時	-11.3819
壽七十	-11.382
和尚慈悲	-11.3821
行到	-11.3822
仍舊	-11.3823
簡點	-11.3824
宗風嗣阿誰	-11.3825
不妄	-11.3828
高臥	-11.3828
自作	-11.3829
不轉	-11.3832
一帶	-11.3832
舊處	-11.3832
塵緣	-11.3833
這个	-11.3833
此即	-11.3835
石火	-11.3836
愽	-11.3837
瞽	-11.3838
子湖	-11.3838
學徒	-11.3838
日午打三更	-11.3839
諸師	-11.384
水乳	-11.384
黏	-11.384
伺	-11.3841
也哉	-11.3841
去時	-11.3844
門入	-11.3844
徹見	-11.3845
厄	-11.3847
比丘尼	-11.3848
豈不聞	-11.3848
蛻	-11.3849
廣教	-11.3849
不從人得	-11.385
降伏	-11.3851
更道	-11.3853
首眾	-11.3855
高菴	-11.3856
少人知	-11.3856
祕密	-11.3857
更無別	-11.3858
那有	-11.3861
續收	-11.3861
煙雲	-11.3865
此瓣香	-11.3865
新長老	-11.3867
寶應	-11.3868
纔生	-11.3868
要在	-11.3869
此名	-11.3869
指歸	-11.3869
共一	-11.387
分上事	-11.3871
結夏上堂	-11.3872
不愛	-11.3874
杏	-11.3874
伸手	-11.3875
寶峯	-11.3877
羣生	-11.3877
踊躍	-11.3878
絡索	-11.3878
鏟	-11.3878
無病	-11.3879
應是	-11.388
構	-11.3881
得自在	-11.3881
圃	-11.3883
滯貨	-11.3884
粹	-11.3885
正中來	-11.389
含靈	-11.3892
第二座	-11.3894
今晚	-11.3895
我當時	-11.3897
向人前	-11.3899
何方	-11.39
國家	-11.3901
雙忘	-11.3901
所感	-11.3902
抬	-11.3903
去此二途	-11.3904
能令	-11.3904
只是箇	-11.3907
須得	-11.3908
鋸	-11.3908
星斗	-11.3909
言其	-11.3909
一音	-11.3909
馨	-11.3909
芬	-11.3914
談玄	-11.3915
忽有省	-11.3916
咬人	-11.3916
湖海	-11.3916
識之	-11.3918
此座	-11.3918
釋子	-11.3918
胥	-11.3919
屯	-11.3919
平昔	-11.3921
為佛	-11.3922
東君	-11.3927
至元	-11.3927
大洪	-11.3928
南源	-11.3928
般涅槃	-11.3929
發足	-11.3931
一遍	-11.3933
不樂	-11.3934
此段	-11.3936
無繩自縛	-11.3936
出問	-11.3939
一棒打殺	-11.3939
燃	-11.3939
鸚鵡	-11.394
則曰	-11.394
丈六金身	-11.3941
徒然	-11.3942
効	-11.3944
憚	-11.3944
獨尊	-11.3946
向諸人	-11.3947
香風	-11.3947
敗壞	-11.395
死水	-11.3951
打一棒	-11.3952
舉足	-11.3954
十七年	-11.3954
庇	-11.3955
觀音大士	-11.3956
鼓聲	-11.3957
鼻孔裏	-11.3958
嘶	-11.3961
今日是	-11.3961
僧云和尚	-11.3963
入草	-11.3963
別後	-11.3963
是年	-11.3965
教我	-11.3966
祥雲	-11.3968
頓息	-11.3973
二首	-11.3974
鈞	-11.3975
一堂	-11.3976
嫉	-11.3976
郢州	-11.3977
天高	-11.398
度與	-11.398
烜赫	-11.398
舉拂子曰	-11.3982
講肆	-11.3983
可中	-11.3983
佛法中	-11.3984
心宗	-11.3985
三十年前	-11.3986
參取	-11.3988
天童覺云	-11.3994
如何是禪	-11.3994
靈山一會	-11.3996
江陵	-11.3998
起時	-11.4
㘞	-11.4001
三日耳聾	-11.4004
不關	-11.4005
如有	-11.4006
只道	-11.4007
吽吽	-11.4008
中原	-11.4009
稚	-11.4011
千古萬古	-11.4011
玄路	-11.4012
先佛	-11.4012
之手	-11.4014
痛快	-11.4015
㘞地一聲	-11.4016
好生	-11.402
一切智	-11.4021
僧回舉似	-11.4022
現前大眾	-11.4024
能入	-11.4025
山嶽	-11.4026
尾巴	-11.4028
斷常	-11.4029
天際	-11.4029
詰之	-11.4029
源頭	-11.4031
任從	-11.4031
勤苦	-11.4031
知落處	-11.4031
我自	-11.4032
不生滅	-11.4033
著意	-11.4035
若更	-11.4035
拈拂子	-11.4035
目前無法	-11.4035
不二門	-11.4038
相送	-11.4038
一竅	-11.4039
是何言歟	-11.4039
又要	-11.404
俗諦	-11.404
曰此	-11.4041
院裏	-11.4041
其門	-11.4044
西峰	-11.4045
地水火風	-11.4045
蓮池	-11.4045
竄	-11.4046
全憑	-11.4046
然也	-11.405
所傳	-11.4053
無一人	-11.406
白拈	-11.4061
神變	-11.4061
時作麼生	-11.4061
一面	-11.4062
貧窮	-11.4063
見我	-11.4063
庚	-11.4063
宣揚	-11.4066
精靈	-11.4069
吾兄	-11.4071
師往	-11.4071
二途	-11.4072
城市	-11.4072
切不可	-11.4073
實難	-11.4073
故紙	-11.4079
楊州	-11.408
皆可	-11.4082
曾經	-11.4082
孽	-11.4083
再拜	-11.4083
一覺	-11.4084
熱惱	-11.4085
靈驗	-11.4086
弄精魂	-11.4087
諸弟子	-11.4088
隨心	-11.4089
所成	-11.409
臘八上堂	-11.4091
我欲	-11.4092
淨穢	-11.4095
其時	-11.4098
提掇	-11.4099
任縱橫	-11.4099
如雨	-11.41
今以	-11.4102
五載	-11.4103
拍禪牀	-11.4103
壽八十	-11.4105
印印	-11.4106
完全	-11.4108
雪屈	-11.4108
雲霧	-11.4109
選佛場	-11.4113
赤灑灑	-11.4114
啾啾	-11.4114
賔	-11.4115
鵠	-11.4116
提刑	-11.4117
蠡	-11.4119
西邊	-11.4122
露地	-11.4123
以書	-11.4123
操履	-11.4123
大川	-11.4127
此也	-11.4127
阿那箇是	-11.4128
吳門	-11.413
外境	-11.413
者必	-11.4131
香煙	-11.4131
說個	-11.4133
卓卓	-11.4134
舉僧問趙州	-11.4135
自稱	-11.4136
世外	-11.4139
了却	-11.414
具一隻眼	-11.414
白巖符云	-11.4142
天生	-11.4143
獰	-11.4148
二百	-11.4148
若有人	-11.4149
影現	-11.415
栽松	-11.415
妙峰	-11.415
峽	-11.415
三觀	-11.415
破草鞋	-11.415
之文	-11.4152
影子	-11.4153
脫白	-11.4153
一杓	-11.4153
下喝	-11.4153
安在	-11.4153
淨盡	-11.4155
侍者曰	-11.4155
門門	-11.4156
除卻	-11.4157
慧寂	-11.4157
訟	-11.4159
若如是	-11.4159
情見	-11.4161
佛與眾生	-11.4161
諸塵	-11.4163
如此則	-11.4167
寧可	-11.4168
非關	-11.4168
趙州云	-11.4169
釋曰	-11.4171
近世	-11.4171
安禪師	-11.4173
三千界	-11.4173
聖恩	-11.4175
解夏	-11.4176
悚	-11.4177
其性	-11.4177
擬向	-11.4179
喬	-11.4181
笊籬	-11.4181
袴	-11.4181
一宗	-11.4181
前後際斷	-11.4182
方信	-11.4184
宗猷	-11.4185
率眾	-11.4185
桃華	-11.4186
一千	-11.4187
梳	-11.4187
寒泉	-11.4188
二公	-11.4189
蟄	-11.4189
自家底	-11.4192
汾州	-11.4192
常情	-11.4192
睦	-11.4193
告之曰	-11.4194
元和	-11.4197
二十九	-11.4197
真乘	-11.4198
三十年來	-11.42
華嚴經云	-11.42
分歲	-11.4203
一大事因緣	-11.4203
之深	-11.4204
山僧則不然	-11.4204
師又喝	-11.4206
謂此	-11.4207
金石	-11.4207
些兒	-11.4208
駿	-11.4209
相知	-11.421
是僧	-11.421
事不獲巳	-11.4212
至道無難	-11.4213
造業	-11.4217
妙心	-11.4217
其有	-11.4218
拂子頭上	-11.4218
帚	-11.4218
牒	-11.4219
召云	-11.4219
不欺	-11.422
後之	-11.4221
錘	-11.4223
賽	-11.4223
林云	-11.4224
謨	-11.4227
護惜	-11.4227
濟北	-11.4228
乃以	-11.4231
少頃	-11.4231
化龍	-11.4232
行脚時	-11.4232
未曉	-11.4232
覺性	-11.4233
用心處	-11.4234
堆頭	-11.4236
法眼云	-11.4236
布毛	-11.4236
寒梅	-11.4238
波心	-11.4239
山寺	-11.424
取一	-11.424
住院	-11.4243
何由	-11.4243
石火電光	-11.4244
僧無語師云	-11.4244
師禮拜	-11.425
秪為	-11.4251
漪	-11.4252
紳	-11.4252
擕	-11.4253
法堂前	-11.4253
面門出入	-11.4253
篙	-11.4255
若識	-11.4255
結茅	-11.4255
更有一	-11.4256
醫王	-11.4256
哥	-11.4257
森森	-11.4258
浮圖	-11.4259
多方	-11.4261
心外無法	-11.4261
儒釋	-11.4261
隘	-11.4262
伽陀	-11.4262
佛照	-11.4263
領悟	-11.4263
應聲	-11.4263
恰恰	-11.4263
若也會得	-11.4263
次遷	-11.4264
法化	-11.4264
孃	-11.4267
留與	-11.4267
服勤	-11.4268
端然	-11.427
法施	-11.427
來這裏	-11.427
休將	-11.4271
無恙	-11.4274
煙水	-11.4275
無禮	-11.4276
難逢	-11.4276
事若何師云	-11.4276
迥出	-11.4277
大寶	-11.4278
插香	-11.4279
王氏	-11.428
未具	-11.428
其法	-11.4281
蚊	-11.4283
荅云	-11.4283
披毛戴角	-11.4284
悟者	-11.4287
何來	-11.4287
重添	-11.4288
法林音	-11.4289
菓	-11.4289
問如何是和尚家風	-11.429
百年後	-11.4291
攙	-11.4291
摩尼珠	-11.4292
搔	-11.4294
循環	-11.4294
受之	-11.4295
無量劫	-11.4295
自繇	-11.4296
向來	-11.4296
百姓	-11.4296
針鋒	-11.4298
漠	-11.4299
自餘	-11.4302
手腳	-11.4304
頓教	-11.4305
解道	-11.4306
自照	-11.4307
為何	-11.4307
何故聻	-11.4308
聲光	-11.431
與世	-11.4311
誰謂	-11.4311
舉南泉	-11.4313
利物	-11.4316
祖令	-11.4317
謝師指示	-11.4318
是凡是聖	-11.4321
靴	-11.4321
常州	-11.4322
躲	-11.4323
冷坐	-11.4324
郢	-11.4324
應世	-11.4324
行不得	-11.4327
亦隨	-11.4328
發言	-11.4328
瓔珞	-11.4328
落堂	-11.4329
清白	-11.4329
戾	-11.4331
滹沱	-11.4332
又無	-11.4333
四月八日	-11.4335
彼我	-11.4335
鬚髮	-11.4337
病者	-11.4338
總被	-11.4342
胡為	-11.4343
無法可說	-11.4344
一把	-11.4345
撫州	-11.4347
似有	-11.4347
和尚問	-11.4348
復來	-11.4348
只可	-11.4349
招提	-11.4349
祖師道	-11.4353
兩浙	-11.4353
且聽	-11.4353
築著磕著	-11.4353
立志	-11.4355
真面目	-11.4355
三生六十劫	-11.4356
認著	-11.4356
透頂透底	-11.4357
二十年前	-11.4358
善自護持	-11.4359
曹源	-11.436
曰吾	-11.4361
鞠	-11.4362
你問我	-11.4364
查	-11.4368
荅話	-11.4368
以報	-11.4371
雷霆	-11.4371
祖席	-11.4377
卒難	-11.4378
文字語言	-11.4379
何處來	-11.438
佛祖之	-11.438
你不得	-11.438
為甚如此	-11.438
皆得	-11.4384
提起坐具	-11.4384
反覆	-11.4385
平地上	-11.4385
如何是第一句	-11.4385
鵶	-11.4386
未審如何	-11.4386
口中	-11.4387
進一步	-11.4394
斯人	-11.4395
千百	-11.4396
豫章	-11.4397
普天匝地	-11.4397
雨花	-11.4397
芬芳	-11.4398
拯	-11.4399
驥	-11.4401
眾緣	-11.4401
佛印	-11.4401
慟	-11.4403
過得	-11.4403
駢	-11.4403
赤脚	-11.4405
大唐	-11.4405
祖風	-11.4406
戍	-11.4406
八面玲瓏	-11.4406
與爾	-11.4406
向他	-11.4406
無縫罅	-11.4409
用也	-11.4413
只如此	-11.4414
三三	-11.4414
我佛	-11.4416
克家	-11.4416
不觸	-11.4418
眼識	-11.4419
象骨	-11.4419
盡底	-11.442
錯錯	-11.4421
五家	-11.4424
雨滴	-11.4424
猪	-11.4424
木佛	-11.4424
大慈悲	-11.4425
雕琢	-11.4425
到岸	-11.4426
還信得及麼	-11.4426
曰是	-11.4427
處也	-11.4427
拽杖	-11.4429
腕	-11.443
諦聽	-11.443
應喏	-11.443
久立珍重	-11.4432
歸何處	-11.4434
豈在	-11.4434
渝	-11.4435
堪作	-11.4439
赦	-11.444
未入	-11.444
妻子	-11.4442
用力	-11.4445
龐老	-11.4445
藏云	-11.4446
同志	-11.4451
安可	-11.4455
天地間	-11.4456
麼師云	-11.4456
對靈小參	-11.4457
東去西去	-11.4463
爭敢	-11.4464
也如是	-11.4465
明知	-11.4465
剔起眉毛	-11.4465
關中	-11.4466
倒騎	-11.4466
白晝	-11.4468
婢	-11.4469
元禪師	-11.4469
境師云	-11.447
號令	-11.447
覓箇	-11.4472
只須	-11.4472
正恁麼時如何	-11.4473
陸地	-11.4474
懷胎	-11.4475
有些	-11.4476
悉達	-11.4477
或以	-11.4477
主之	-11.4478
難忘	-11.4479
拋却	-11.4479
留得	-11.4482
鞭影	-11.4484
老成	-11.4485
之過	-11.4485
十歲	-11.4487
佛意	-11.4489
破衲	-11.449
焦山	-11.4491
和尚曰	-11.4491
禍福	-11.4493
他年	-11.4494
喏	-11.4494
昭昭靈靈	-11.45
逗到	-11.45
面南看北斗	-11.4501
繫縛	-11.4504
所云	-11.4506
蘄州	-11.4506
舉拂子	-11.4507
廉纖	-11.4508
後於	-11.4508
將為	-11.4508
必以	-11.4509
侮	-11.4509
不期	-11.451
白槌	-11.4515
曉得	-11.4517
啼鳥	-11.4525
不答話	-11.4525
成一片	-11.4528
峰巒	-11.4529
間有	-11.4529
如麻似粟	-11.4531
長天	-11.4533
證菩提	-11.4534
神機	-11.4535
蚯蚓	-11.4535
懃	-11.4536
交加	-11.4539
若果	-11.4539
末山	-11.4539
慚惶	-11.4541
遠禪師	-11.4541
有許多	-11.4541
因齋慶讚	-11.4541
簫	-11.4544
接物	-11.4544
內翰	-11.4546
世世	-11.4546
尊卑	-11.4547
正傳	-11.4547
松柏	-11.4551
相忘	-11.4551
五世	-11.4551
既久	-11.4551
與麼去	-11.4552
尊重	-11.4553
拶著	-11.4554
未兆	-11.4556
作道理	-11.4556
世所	-11.4559
迄	-11.4561
妙音	-11.4563
』	-11.4564
與語	-11.4564
祖師西來意	-11.4566
云不會	-11.4567
在諸人	-11.4568
白云	-11.4568
如常	-11.4569
如麻	-11.457
吾曰	-11.4571
發機	-11.4572
放光動地	-11.4573
遲遲	-11.4575
解夏上堂	-11.4576
毫釐	-11.4576
肇法師	-11.4576
如或未然	-11.4576
呆	-11.4577
二諦	-11.4577
禮拜起	-11.4578
益州	-11.4578
無覓處	-11.4578
褲	-11.4579
海岸	-11.4581
各別	-11.4581
水清	-11.4581
內有	-11.4582
自幼	-11.4583
方堪	-11.4583
企	-11.4584
無口	-11.4584
粲	-11.4587
慈航	-11.4588
來朝	-11.4588
四十八	-11.4591
見錄	-11.4592
人見錄	-11.4592
僧乃	-11.4594
參天	-11.4595
所以古人道	-11.4596
熱瞞	-11.4597
前人	-11.4601
曾聞	-11.4601
進士	-11.4603
玄門	-11.4604
喫粥喫飯	-11.4604
鐵樹	-11.4606
曰如何是境中人	-11.4606
吞卻	-11.4606
六日	-11.4606
臨風	-11.4607
也不消得	-11.4607
兒子	-11.4609
過日	-11.4609
接物利生	-11.461
覆船	-11.461
活鱍鱍	-11.461
某甲不會	-11.4611
人不知	-11.4611
在那裏	-11.4611
無學	-11.4612
千里同風	-11.4612
豪傑	-11.4612
臨筵	-11.4612
天寧琦	-11.4613
廷	-11.4613
不相應	-11.4614
慈受深	-11.4614
保社	-11.4615
合轍	-11.4616
今此	-11.4616
化導	-11.4616
不相干	-11.4618
咫尺	-11.4619
純熟	-11.4619
雪中	-11.462
爵	-11.4622
雪竇道	-11.4622
道在	-11.4622
居士曰	-11.4622
絕跡	-11.4623
驀直去	-11.4624
執侍	-11.4625
以拂子擊禪床	-11.4626
便解	-11.4626
之始	-11.4627
夜行	-11.4628
前語	-11.4629
為報	-11.4629
茫	-11.463
擲下云	-11.463
钁頭	-11.4631
說是	-11.4631
生機	-11.4633
王臣	-11.4633
布衲	-11.4636
多見	-11.4636
祇這	-11.4636
師呵呵大笑	-11.4637
所造	-11.4638
生死根本	-11.4639
奔走	-11.464
還有過也無	-11.4642
陜府鐵牛	-11.4642
十二世	-11.4643
諸根	-11.4643
剃染	-11.4645
我手何似佛手	-11.4645
定動	-11.4645
同途	-11.4645
真偽	-11.4646
撩起便行	-11.4648
巍巍堂堂	-11.4649
恁麼不恁麼	-11.465
庚申	-11.4651
冰霜	-11.4651
主人翁	-11.4652
無佛性	-11.4652
祇知	-11.4653
涎	-11.4655
途轍	-11.4658
目擊	-11.4658
溯	-11.466
印心	-11.4667
後謁	-11.467
難見	-11.4672
能如是	-11.4672
昭昭	-11.4673
和尚莫	-11.4673
勘過	-11.4674
甚多	-11.4675
省悟	-11.4676
香象	-11.4677
箭鋒	-11.4677
以求	-11.4678
佳人	-11.4681
搥	-11.4682
河南	-11.4682
失其	-11.4682
到山	-11.4683
羸	-11.4683
垂語云	-11.4684
遂往	-11.4685
格物	-11.4686
湫	-11.4687
本自無	-11.4688
水潦	-11.4689
青林	-11.4691
詣方丈	-11.4692
衡陽	-11.4694
今有	-11.4695
說箇甚麼	-11.4695
領話	-11.4696
師云山僧	-11.47
其母	-11.47
共語	-11.4701
不收	-11.4702
絕無	-11.4703
近傍	-11.4704
耶是	-11.4704
識破	-11.4705
朵	-11.4705
一見便	-11.4705
成辦	-11.4705
正體	-11.4706
打眠	-11.4707
少時	-11.4707
飛去	-11.4708
諸佛諸祖	-11.4709
老婆禪	-11.471
唱道	-11.4712
湖山	-11.4714
猫	-11.4714
周行七步	-11.4714
不上	-11.4716
佛地	-11.4717
荊棘林中	-11.472
勞生	-11.472
膏肓	-11.472
疑之	-11.4721
惆悵	-11.4722
黃龍南	-11.4724
舉世尊	-11.4725
擎拳	-11.4726
堪作甚麼	-11.4726
僧擬進語	-11.4727
舜日	-11.4727
說著	-11.4727
襯	-11.4727
一拜	-11.4731
然雖	-11.4732
一默	-11.4733
十成	-11.4735
遍十方	-11.4736
齋僧	-11.4737
道個	-11.4738
僧便喝師云	-11.4739
玉線	-11.474
紫雲	-11.4741
師叔	-11.4741
山青	-11.4744
當世	-11.4744
思大	-11.4745
一橛	-11.4745
緣覺	-11.4745
機語	-11.4746
向去	-11.4747
頂門上	-11.4747
好醜	-11.4747
隱居	-11.4748
世間法	-11.4749
古道	-11.4751
溈山問仰山	-11.4753
風行草偃	-11.4754
及第	-11.4754
表裏	-11.4754
任你	-11.4755
一切皆	-11.4755
而不可	-11.4757
夜坐	-11.4758
說有	-11.4758
如其	-11.4759
安養	-11.4759
師後	-11.4759
駝	-11.4759
璋	-11.4759
白拈賊	-11.476
蕭然	-11.476
演祖	-11.4761
邇來	-11.4761
倪	-11.4761
家常	-11.4764
断	-11.4764
無多子	-11.4764
猶可	-11.4765
向上機	-11.4766
修多羅	-11.4766
見此	-11.4767
一切時	-11.4767
楮	-11.4768
論量	-11.4768
豎指	-11.4768
相依	-11.4768
梵剎	-11.4768
師休去	-11.477
海印信	-11.4771
除此	-11.4773
應之	-11.4773
信受	-11.4773
進云和尚	-11.4774
端正	-11.4775
禍事	-11.4776
咸通	-11.478
問如何是佛法大意	-11.478
異同	-11.4783
千日	-11.4784
當念	-11.4787
西河	-11.4787
行事	-11.4787
感應	-11.4787
驚異	-11.4789
教之	-11.479
什麼處是	-11.479
從西過東	-11.4791
却回	-11.4791
鶖子	-11.4791
甲申	-11.4792
階梯	-11.4795
鷓鴣	-11.4796
去問	-11.4797
僧繇	-11.4797
嘿	-11.48
酷	-11.4802
今日事	-11.4802
復還	-11.4805
莫大	-11.4806
沉沉	-11.4807
歸真	-11.4808
巽	-11.4809
廣長舌	-11.4809
吁	-11.4813
衣法	-11.4813
風幡	-11.4815
閩中	-11.4817
更加	-11.4817
之期	-11.4818
閃	-11.482
踏斷	-11.482
道合	-11.4821
隨他去	-11.4822
幡動	-11.4825
毒氣	-11.4825
雷轟	-11.4825
屆	-11.4826
其功	-11.4827
妙訣	-11.4828
一刀兩段	-11.4829
不測	-11.4832
嗄	-11.4832
黑豆	-11.4833
疏鈔	-11.4833
釜	-11.4834
未舉	-11.4835
籟	-11.4836
幾許	-11.4837
吾將	-11.4838
艷	-11.4838
心光	-11.4839
亦當	-11.4841
調伏	-11.4841
不聽	-11.4842
放光明	-11.4842
上乘	-11.4842
死後	-11.4843
關捩子	-11.4844
孩兒	-11.4844
高士	-11.4845
霜風	-11.4845
日新	-11.4846
滇	-11.4847
下堂	-11.485
言前	-11.4851
大涅槃	-11.4852
寒松	-11.4854
風顛	-11.4854
耆	-11.4855
而況	-11.4855
者一喝	-11.4855
是即是	-11.4857
信之	-11.4858
始於	-11.4858
塞北	-11.4859
自云	-11.4859
往返	-11.4859
聽取	-11.4862
土木	-11.4862
一頭水牯牛	-11.4863
能以	-11.4863
水邊	-11.4863
變通	-11.4864
柴門	-11.4865
䭾	-11.4865
五祖演	-11.4866
讀誦	-11.4866
各人	-11.4869
牡丹	-11.4871
密付	-11.4872
卻來	-11.4873
法令	-11.4873
爭解	-11.4873
邵	-11.4874
案山	-11.4874
棋	-11.4874
鹿苑	-11.4876
以法	-11.4877
憾	-11.4877
籠罩	-11.4877
行實	-11.4878
大丈夫漢	-11.4878
舉首	-11.4879
兒戲	-11.488
醇	-11.488
驀面	-11.4882
悟門	-11.4885
第二月	-11.4886
言而	-11.4886
巳得	-11.4887
異類中行	-11.4888
松下	-11.4889
放大光明	-11.489
我身	-11.4893
他時	-11.4893
狂心	-11.4894
師云老僧	-11.4894
生死海	-11.4898
下有	-11.4898
遇人	-11.4899
下火	-11.49
空劫巳前	-11.4903
是一是二	-11.4904
擊竹	-11.4907
古風	-11.4907
直歲	-11.4908
耳朵	-11.4909
古廟	-11.4913
昭然	-11.4916
銕牛	-11.4916
亦喝	-11.4917
毫無	-11.4918
耿	-11.4918
無面目	-11.4919
雲峯	-11.4919
談禪	-11.492
聚首	-11.4921
口邊	-11.4922
歸寂	-11.4923
鶴林	-11.4923
大行	-11.4924
之所以	-11.4926
難思	-11.4927
因思	-11.4928
堪為	-11.4929
離諸	-11.4929
示滅	-11.4929
天眼	-11.4931
成立	-11.4931
鍬	-11.4931
你們	-11.4932
但只	-11.4934
人中	-11.4934
拈起拂子	-11.4935
也大難	-11.4935
同居	-11.4936
一脈	-11.4936
見後如何	-11.494
直下便	-11.4941
溪聲	-11.4941
向背	-11.4941
十方同聚會	-11.4942
一食	-11.4942
浮漚	-11.4943
賢愚	-11.4944
底心	-11.4945
無殊	-11.4945
忿	-11.4945
獰龍	-11.4947
因甚不	-11.4947
四十二	-11.4948
如何是賓中賓	-11.4948
長壽	-11.4951
騰空	-11.4951
萬一	-11.4951
」(	-11.4952
癸未	-11.4952
傾心	-11.4954
壬子	-11.4954
明之	-11.4959
亦同	-11.4959
孤峻	-11.496
有理	-11.4962
二子	-11.4964
孤峯	-11.4964
參禪學道	-11.4965
煎茶	-11.4965
頂戴	-11.4967
十人	-11.4967
讚嘆	-11.4968
不正	-11.4968
勸君	-11.4969
敷揚	-11.4969
炷	-11.4969
悠然	-11.4971
龍淵	-11.4972
得破	-11.4972
筯	-11.4972
常存	-11.4974
便棒	-11.4977
故我	-11.4977
若解	-11.4977
無蹤跡	-11.4977
還源	-11.4978
一狀領過	-11.4979
講得	-11.498
克賓	-11.4981
傀儡	-11.4981
受記	-11.4983
閒閒	-11.4983
今當	-11.4985
鵝湖	-11.4985
豈易	-11.4986
鍛	-11.4987
知覺	-11.4987
誾	-11.4987
丈六	-11.4989
坐脫	-11.4989
鈍根	-11.499
十卷	-11.499
自負	-11.499
設齋請上堂	-11.499
降誕	-11.499
信步	-11.4991
何往	-11.4993
會處	-11.4994
信口	-11.4994
夜夢	-11.4994
經文	-11.4994
如火	-11.4995
大心	-11.4998
出世間	-11.5001
未始	-11.5004
孩	-11.5011
大哉	-11.5012
二十六	-11.5014
迥絕	-11.5015
彌勒下生	-11.5016
祇得	-11.5017
我法	-11.5018
相救	-11.502
要你	-11.502
歲歲	-11.5021
機宜	-11.5021
蒂	-11.5022
箇是	-11.5022
疑惑	-11.5022
一歲	-11.5023
准	-11.5026
亦以	-11.5026
愕然	-11.5026
奸	-11.5028
成壞	-11.503
太原	-11.503
普陀	-11.5032
放不下	-11.5034
德云	-11.5035
安閒	-11.5036
斯言	-11.5036
固有	-11.5039
卓一下曰	-11.504
世閒	-11.5043
見而	-11.5045
落空	-11.5046
道風	-11.5046
則非	-11.5046
亂走	-11.5047
從人	-11.5048
二十三	-11.5048
地軸	-11.5049
清波	-11.5049
智禪師	-11.505
會禪	-11.5052
告曰	-11.5053
不幸	-11.5053
法孫	-11.5053
有誰	-11.5054
玉樓	-11.5054
噓一聲	-11.5054
耀古騰今	-11.5054
地位	-11.5056
聚會	-11.5057
撥草瞻風	-11.5057
點檢	-11.5058
初謁	-11.5059
下一轉語	-11.5059
咬嚼	-11.5059
得箇甚麼	-11.506
荳	-11.506
化作	-11.5061
無上道	-11.5061
綽	-11.5063
柏樹子	-11.5063
一代	-11.5066
巫	-11.5066
套	-11.5066
歸源	-11.5066
必定	-11.5068
良醫	-11.5069
據坐	-11.507
香水海	-11.507
傳至	-11.507
想見	-11.5072
不散	-11.5073
僧請益	-11.5073
涓滴	-11.5073
耳聽	-11.5075
月滿	-11.5075
當行	-11.5076
點眼	-11.5078
截流	-11.5078
你作麼生會	-11.5079
國中	-11.508
辯才	-11.5081
行持	-11.5082
釋氏	-11.5083
還知落處麼	-11.5084
什摩處	-11.5086
先宗	-11.5087
未然	-11.5087
打葛藤	-11.5088
普眼	-11.5089
有時一喝	-11.5094
錯認定盤星	-11.5095
久遠	-11.5097
蓑	-11.5099
)「	-11.5099
不為分外	-11.5099
住菴	-11.5101
忘情	-11.5101
如在	-11.5102
鬻	-11.5104
拈卻	-11.5104
猒	-11.5104
見前	-11.5106
重開	-11.5106
六趣	-11.5107
蒼苔	-11.5107
出自	-11.5107
恁麼時	-11.5111
寶積	-11.5113
脚踏	-11.5114
山雲	-11.5115
汗流	-11.5116
高高	-11.512
南臺	-11.5122
許伊	-11.5123
肉身	-11.5123
佛像	-11.5127
理論	-11.5129
恁麼不恁麼總不得	-11.5129
常寂	-11.513
三頓棒	-11.513
廓然無聖	-11.5131
金剛王寶劍	-11.5132
化去	-11.5132
有幾	-11.5132
極目	-11.5135
應供	-11.5135
於言下大悟	-11.5136
端坐而逝	-11.5136
無量無邊	-11.5137
塞斷	-11.5137
二十一	-11.5137
東來	-11.5137
位次	-11.5138
輥毬	-11.5139
扁	-11.5141
聞風	-11.5141
省要	-11.5141
身世	-11.5142
𥁞	-11.5143
贖	-11.5143
澂	-11.5144
紫柏	-11.5144
悖	-11.5144
剃	-11.5144
烈燄	-11.5144
彌天	-11.5146
一日因	-11.5146
生花	-11.5147
九世	-11.5149
自念	-11.5149
即不得	-11.5149
金蓮	-11.515
寶光	-11.5152
持來	-11.5153
少人	-11.5154
四方八面	-11.5158
潛蹤	-11.5159
迷人	-11.516
持缽	-11.5161
忘言	-11.5163
添得	-11.5164
幽鳥	-11.5164
治平	-11.5165
年深	-11.5166
都尉	-11.5166
未動	-11.5167
勞而無功	-11.5168
大虫	-11.517
吐出	-11.5173
謂之曰	-11.5174
照徹	-11.5174
筌	-11.5175
鑼	-11.5176
此為	-11.5176
赤條條	-11.5177
瞿	-11.5177
積翠	-11.5178
滿天	-11.5178
蹉跎	-11.5178
能緣	-11.5181
澄清	-11.5184
學解	-11.5184
冬至上堂	-11.5185
濡	-11.5187
隔礙	-11.5191
厲聲曰	-11.5191
惟一	-11.5192
兩字	-11.5193
茅屋	-11.5195
有一句子	-11.5197
能使	-11.5198
報道	-11.5199
月八日	-11.5199
良遂	-11.52
後語	-11.52
斜陽	-11.5202
謝師	-11.5202
野鶴	-11.5203
放參	-11.5205
未夢見	-11.5205
武陵	-11.5206
得成	-11.5206
無絲毫	-11.5207
一片田地	-11.5207
萬里無雲	-11.5207
咄咄	-11.5211
葉落歸根	-11.5212
對待	-11.5213
修山主	-11.5214
梁武帝	-11.5216
猶若	-11.5217
攫	-11.5217
三分	-11.5218
巖下	-11.5222
傳之	-11.5223
乾峯	-11.5224
金毛獅子	-11.5226
故以	-11.5226
西京	-11.5227
終難	-11.5227
如大火聚	-11.5228
手把	-11.5229
風旛	-11.5231
惡辣	-11.5232
勉強	-11.5232
其子	-11.5232
杜口	-11.5233
月冷	-11.5234
高安	-11.5235
不亦	-11.5238
哀哉	-11.5239
覆藏	-11.5241
生疑	-11.5241
一遭	-11.5242
之鄉	-11.5243
不好	-11.5243
界中	-11.5244
作夢	-11.5244
慈心	-11.5244
年少	-11.5245
不爾	-11.5246
師云我	-11.5247
黃面瞿曇	-11.5247
會裏	-11.5248
一絲頭	-11.5249
氏之	-11.5249
峯前	-11.5249
打云	-11.5249
增上	-11.525
抉	-11.5251
海眾	-11.5251
仙陀	-11.5252
應以	-11.5253
俱無	-11.5253
裏坐	-11.5253
見月	-11.5254
蕉	-11.5254
據此	-11.5254
拈香云此一瓣香	-11.5255
酒肆	-11.5256
一往	-11.5256
以待	-11.5257
复	-11.5258
)。「	-11.5261
之命	-11.5262
一鉢	-11.5262
拶破	-11.5263
有病	-11.5264
洎合	-11.5264
百尺	-11.5264
定是	-11.5265
疏山	-11.5265
見說	-11.5266
風霜	-11.5268
智藏	-11.5269
剃頭	-11.527
當得	-11.527
如空	-11.5274
我家	-11.5274
香火	-11.5275
進語	-11.5277
鐵船	-11.5278
拋出	-11.5278
密菴	-11.5279
傳曰	-11.5279
八兩	-11.528
蘗	-11.528
盡日	-11.5282
菴曰	-11.5282
雲深	-11.5282
千人萬人	-11.5284
長連床上	-11.5286
金峯	-11.5287
靠拄杖	-11.5288
出關	-11.5288
蟭螟	-11.5289
參禮	-11.5291
丁亥	-11.5292
振錫	-11.5292
决	-11.5292
滄	-11.5293
無生滅	-11.5294
不得處	-11.5295
累及	-11.5295
深淺	-11.5296
於彼	-11.5296
混融	-11.5297
紺	-11.5297
調御	-11.5298
月在	-11.5298
當其	-11.53
拄杖頭	-11.53
信不及	-11.5302
許他	-11.5302
主丈子	-11.5303
雲曰	-11.5303
猛利	-11.5303
種性	-11.5303
不丈夫	-11.5303
廓徹	-11.5304
一文	-11.5304
如海	-11.5305
田中	-11.5306
三德	-11.5306
禮拜著	-11.5309
愚菴	-11.531
及見	-11.531
晚參舉	-11.5311
呵呵大笑云	-11.5314
護念	-11.5314
不驚	-11.5314
行時	-11.5314
天性	-11.5316
玉露	-11.5318
亦不知	-11.5318
驢鳴	-11.5318
瘂	-11.5319
婆婆	-11.532
未離兜率	-11.5322
秀禪師	-11.5323
痛處	-11.5324
請法	-11.5324
師弟	-11.5325
鐘鳴	-11.5325
大鑑下	-11.5325
蒼龍	-11.5325
滿口	-11.5325
賓主句	-11.5327
目連	-11.5328
南泉云	-11.5328
出家人	-11.5328
神會	-11.5331
廣德	-11.5332
寅	-11.5332
自如	-11.5336
茹	-11.5338
休息	-11.5338
度脫	-11.5339
還肯	-11.5339
丙丁	-11.5339
冥冥	-11.534
失色	-11.534
雲飛	-11.5342
之靈	-11.5343
安坐	-11.5345
卷第三	-11.5345
可成	-11.5346
脚底	-11.5346
群機	-11.5347
者些	-11.5348
南明	-11.5349
若使	-11.5349
來時路	-11.535
日光	-11.535
受人	-11.535
還會	-11.5351
會稽	-11.5352
落草	-11.5352
鼇	-11.5352
義也	-11.5352
延壽	-11.5353
手握	-11.5354
穿卻	-11.5356
空王殿	-11.5357
上大人	-11.5357
我當	-11.5358
則又	-11.5361
絕學	-11.5362
身上	-11.5362
不是目前法	-11.5362
相見了也	-11.5362
有佛性	-11.5363
殃崛	-11.5365
免見	-11.5366
簸	-11.5366
藂林	-11.5367
天堂地獄	-11.5367
𩯭	-11.5369
有麼	-11.5369
至寶	-11.5369
設教	-11.5369
應現	-11.537
雨打	-11.537
浴佛上堂	-11.537
直至而今	-11.5371
無偏	-11.5371
▁第	-11.5371
西川	-11.5372
挂搭	-11.5373
凄	-11.5373
莫若	-11.5373
仇	-11.5373
一名	-11.5374
君臣道合	-11.5376
則可	-11.5378
妙理	-11.5378
慶忠	-11.5379
剎剎塵塵	-11.538
瞞人	-11.538
又爭得	-11.5383
復以	-11.5383
洗脚	-11.5383
冰雪	-11.5384
今宵	-11.5388
作麼生得	-11.5389
盡屬	-11.539
神通妙用	-11.5392
授以	-11.5392
只好	-11.5394
動搖	-11.5395
終朝	-11.5396
究其	-11.5396
卓一卓	-11.5397
公卿	-11.5399
出來與	-11.5399
動也	-11.54
花枝	-11.54
則難	-11.5401
巨海	-11.5402
當時若見	-11.5402
道本無	-11.5403
酬唱	-11.5404
不自知	-11.5405
無準	-11.5405
六七	-11.5405
沒有	-11.5406
之嗣	-11.5407
有賴	-11.5408
誰肯	-11.5409
袞	-11.541
師於言下大悟	-11.541
燦爛	-11.541
嘔	-11.5411
師出	-11.5413
則成	-11.5414
無餘事	-11.5415
淨業	-11.5415
馴	-11.5416
必然	-11.5416
猶欠	-11.5417
鈍漢	-11.5417
不懼	-11.5418
點額	-11.5419
文遠	-11.542
受生	-11.542
不撥	-11.542
註脚	-11.542
名之曰	-11.542
急急	-11.5421
皇恩	-11.5422
披衣	-11.5423
之方	-11.5423
難藏	-11.5424
廊下	-11.5424
深恩	-11.5425
叱曰	-11.5426
弟兄	-11.5426
磕	-11.5427
塔院	-11.5427
不特	-11.5428
踈山	-11.5428
漳州	-11.543
雙雙	-11.5431
佛魔	-11.5432
諸家	-11.5432
奯	-11.5433
所願	-11.5433
無求	-11.5434
僧寶	-11.5435
安住	-11.5437
一行	-11.5437
掀倒禪牀	-11.5438
亘古亘今	-11.5441
無常迅速	-11.5444
和風	-11.5444
觸境	-11.5444
上供	-11.5445
如喪考妣	-11.5445
直心	-11.5446
蚌	-11.5448
欲以	-11.5449
彬	-11.5449
野干	-11.545
最上乘	-11.545
衡嶽	-11.5451
A	-11.5451
中國	-11.5452
婚	-11.5453
安立	-11.5456
葦	-11.5458
目為	-11.5459
道一句看	-11.546
應真	-11.546
無遮	-11.5461
除非	-11.5461
無風	-11.5461
無智	-11.5463
太湖	-11.5463
走作	-11.5464
渡水	-11.5464
一刀	-11.5465
吠	-11.5467
若喚作	-11.5469
之難	-11.5471
嚴云	-11.5474
留不住	-11.5474
忠孝	-11.5475
大通	-11.5475
所載	-11.5475
有形	-11.5477
如何是學人	-11.5477
出世法	-11.548
眾居士	-11.548
若悟	-11.5481
俱空	-11.5482
六門	-11.5482
痒	-11.5483
時流	-11.5483
俗姓	-11.5483
鐵壁銀山	-11.5485
眾纔集	-11.5485
鹽醬	-11.5485
汝何	-11.5486
秤錘	-11.5486
擔子	-11.5486
屨	-11.5489
佛成道日	-11.5489
直使	-11.5489
販	-11.549
丁酉	-11.549
年七十	-11.549
炎炎	-11.5491
筒	-11.5491
必先	-11.5492
紳衿	-11.5494
毘尼	-11.5494
院云	-11.5495
器之	-11.5496
須明	-11.5497
故名為	-11.5497
出三界	-11.5498
乞命	-11.5502
不覺不知	-11.5504
師亦打	-11.5505
筋骨	-11.5506
之禮	-11.5507
要明	-11.5507
得髓	-11.5508
密意	-11.5509
誰信	-11.5509
此節	-11.551
十四年	-11.5512
騎驢	-11.5513
舒卷	-11.5513
神龍	-11.5516
之業	-11.5516
兼中到	-11.5517
深知	-11.5517
且坐喫茶	-11.5517
般若之	-11.552
免教	-11.5522
聲未絕	-11.5522
幞頭	-11.5523
又豈	-11.5523
義學	-11.5523
龍門遠	-11.5524
槍	-11.5524
䖍	-11.5524
皺	-11.5525
密室	-11.5525
施者	-11.5526
別峰	-11.5527
摵	-11.5527
菩薩行	-11.5527
恁麼告報	-11.5527
不窮	-11.5529
十方坐斷	-11.5529
無言說	-11.5531
亦難	-11.5531
石壁	-11.5531
其父	-11.5532
即見	-11.5532
妒	-11.5535
無痕	-11.5535
應化	-11.5536
鳴鐘	-11.5537
名之為	-11.5538
翰墨	-11.5539
臨濟正宗	-11.554
出眾云	-11.554
天關	-11.5542
羅剎	-11.5547
無盡藏	-11.5547
豈況	-11.5548
相別	-11.5549
齒牙	-11.5552
良以	-11.5552
悟此	-11.5552
掀倒禪床	-11.5553
雖多	-11.5553
未開口	-11.5555
一代時教	-11.5559
清淨本然	-11.556
問世尊	-11.556
夜參	-11.5561
鏡裏	-11.5561
四百	-11.5562
水到渠成	-11.5564
樓閣門開	-11.5565
禪板	-11.5566
飯喫	-11.5566
遇緣即宗	-11.5566
邃	-11.5568
糝	-11.5568
娥	-11.5569
慍	-11.557
隹	-11.5573
溝	-11.5573
草鞋錢	-11.5575
有所得	-11.5575
同證	-11.5578
指云	-11.5578
化緣	-11.5579
有一種	-11.558
懸河	-11.5581
從上宗乘	-11.5582
月朔	-11.5583
時有僧	-11.5583
直言	-11.5585
道心	-11.5585
見箇甚麼	-11.5585
翠峰	-11.5588
立定	-11.5588
中的	-11.5589
單單	-11.5589
之故	-11.5591
莫謗	-11.5591
如何指示	-11.5594
迄今	-11.5594
茲者	-11.5595
隱山	-11.5598
數聲	-11.5598
傷心	-11.5599
過去諸佛	-11.5599
四事	-11.56
入泥入水	-11.5602
甚是	-11.5602
鑊湯爐炭	-11.5602
又且不然	-11.5606
我何	-11.5606
吾有正法眼藏	-11.5606
闌干	-11.5607
世尊初生	-11.5607
如金	-11.5607
自利	-11.5608
將欲	-11.5609
尊官	-11.561
從事	-11.5611
烈焰	-11.5611
誰得	-11.5612
塵世	-11.5612
之甚	-11.5613
真寂	-11.5614
得悟	-11.5615
說了	-11.5618
若道得	-11.562
舉洞山	-11.562
日用中	-11.5622
眾苦	-11.5622
偶爾	-11.5623
深夜	-11.5624
師陞座	-11.5624
太多	-11.5626
在後	-11.5627
指法座云	-11.5629
不齊	-11.5631
補處	-11.5632
為事	-11.5632
棄之	-11.5632
和尚還	-11.5633
少分	-11.5635
一毛	-11.5637
寥	-11.5637
兩重公案	-11.5638
國一	-11.5639
無一事	-11.5641
不願	-11.5641
所悟	-11.5642
劫火洞然	-11.5642
言行	-11.5643
悟禪師	-11.5643
為第一	-11.5643
一首	-11.5644
去却	-11.5647
為天下	-11.5648
過此	-11.5649
綵	-11.5649
悽	-11.5649
功用	-11.565
悟明	-11.5651
討甚	-11.5651
賴遇	-11.5653
流入	-11.5654
無味	-11.5655
自證	-11.5656
俗漢	-11.5656
全在	-11.5658
寢食	-11.5659
歸根	-11.566
艮	-11.566
則不可	-11.5665
雷音	-11.5665
擡頭	-11.5669
文公	-11.567
還歸	-11.5671
於一切	-11.5673
云恁麼則	-11.5675
一念萬年	-11.5675
雲霄	-11.5675
只教	-11.5676
忽一日	-11.5676
名宿	-11.5678
抽釘拔楔	-11.5681
法喜	-11.5681
向上人	-11.5682
或者	-11.5683
平等性智	-11.5684
不通風	-11.5685
同人	-11.5686
皋亭	-11.5686
囚	-11.5688
摟	-11.5689
真實相	-11.569
之聲	-11.5692
襪	-11.5692
O	-11.5692
U	-11.5692
Z	-11.5692
師却	-11.5692
掃蕩	-11.5695
皇風	-11.5695
龍光	-11.5695
不貴	-11.5696
氛	-11.5697
傳燈錄	-11.5698
佛界	-11.5698
善財童子	-11.5698
臧	-11.5699
不孤	-11.5699
貲	-11.57
或現	-11.5702
遭他	-11.5704
末上	-11.5706
詩云	-11.5706
默契	-11.5711
睹明星	-11.5711
極力	-11.5712
賜號	-11.5712
苟不	-11.5713
問如何是西來意	-11.5713
此正	-11.5715
共住	-11.5716
你在	-11.5716
結集	-11.5719
家法	-11.5719
披雲	-11.572
西竺	-11.5723
山堂	-11.5723
證之	-11.5724
四大五蘊	-11.5724
四顧	-11.5725
前面	-11.5725
僧纔出	-11.5727
明暗色空	-11.5728
語曰	-11.5729
閫外	-11.5729
浙江	-11.5729
白浪滔天	-11.573
便為	-11.573
世壽七十	-11.5731
升座	-11.5731
築著	-11.5732
飯頭	-11.5732
P	-11.5733
R	-11.5733
出窟	-11.5734
智人	-11.5735
沉淪	-11.5735
又一日	-11.5736
師問曰	-11.5737
使之	-11.5738
上生	-11.5739
漁人	-11.5739
漳	-11.574
蛟龍	-11.5742
汗下	-11.5743
士庶	-11.5744
梁王	-11.5745
四字	-11.5745
相云	-11.5746
錢買	-11.5746
庭前栢樹子	-11.5746
祇有	-11.5747
五十年	-11.5748
聖智	-11.5749
章敬	-11.575
十虛	-11.5751
京都	-11.5752
宗禪師	-11.5754
乃有	-11.5757
數語	-11.5758
一日聞	-11.5759
倏	-11.576
清濁	-11.576
野人	-11.5762
太宗	-11.5763
先照後用	-11.5763
丑	-11.5765
令我	-11.5765
全威	-11.5766
曬	-11.5766
消滅	-11.5767
更待	-11.5767
鑊湯	-11.5768
不相見	-11.5769
丁巳	-11.5769
黑暗	-11.5769
杷	-11.5771
落今時	-11.5774
笑云	-11.5774
學人問	-11.5774
浙中	-11.5776
無障礙	-11.5777
江心	-11.5777
袂	-11.5778
同眾	-11.578
堵	-11.5781
山便打	-11.5781
草裏	-11.5781
豈無方便	-11.5781
故稱	-11.5782
渡頭	-11.5785
信解	-11.5785
徹去	-11.5785
真淨文	-11.5791
否師云	-11.5792
之號	-11.5793
寶坊	-11.5794
一切時中	-11.5795
首座云	-11.5795
俱非	-11.5796
易之	-11.5796
禪師因僧問	-11.5796
展演	-11.5797
不掛	-11.5797
出堂	-11.5798
善信	-11.58
當自	-11.58
真體	-11.5801
知麼	-11.5801
小事	-11.5804
眨上眉毛	-11.5804
為眾竭力	-11.5805
頭出頭沒	-11.5806
偏圓	-11.5807
我會也	-11.5808
而弗	-11.5809
有出身之路	-11.5809
鷺鷥	-11.581
何處是	-11.5811
麈	-11.5811
對境	-11.5813
甲寅	-11.5813
擲拂子	-11.5815
師却問	-11.5815
亢	-11.5815
只向	-11.5816
罹	-11.5816
笙歌	-11.5816
歸心	-11.5817
丁丑	-11.5817
無處所	-11.5818
峯頭	-11.5818
所重	-11.582
春風吹	-11.582
幸遇	-11.5822
淨戒	-11.5822
劫火	-11.5822
與山僧	-11.5823
鼻孔撩天	-11.5823
行願	-11.5824
問甚處來	-11.5826
護生	-11.5827
光生	-11.5827
作意	-11.5827
喻如	-11.5828
遠山	-11.583
絲髮	-11.583
妄情	-11.5831
四十九	-11.5832
今日被	-11.5833
信禪師	-11.5833
在世	-11.5834
叢林中	-11.5834
即易	-11.5835
意欲	-11.5837
天童悟	-11.5837
切不得	-11.5837
取次	-11.5837
一老宿	-11.5838
惟恐	-11.5839
纔動	-11.5839
所變	-11.584
以及	-11.584
本位	-11.584
分明舉似	-11.5841
問津	-11.5841
道力	-11.5841
之請	-11.5842
臺上	-11.5842
熏習	-11.5844
先用後照	-11.5846
誕辰	-11.5847
良馬	-11.5847
宣和	-11.5849
深深海底行	-11.5849
五嶽	-11.585
與夫	-11.5851
故得	-11.5852
打你	-11.5853
便將	-11.5853
澧州	-11.5853
雲興	-11.5854
渤	-11.5855
紙墨	-11.5855
搆得	-11.5855
皋	-11.5857
紗	-11.5859
誥	-11.586
師頌云	-11.5863
水草	-11.5864
教誰	-11.5864
爭見	-11.5865
露柱燈籠	-11.5866
腰包	-11.5867
中下	-11.5867
觀此	-11.5867
上上	-11.5868
常流	-11.5868
張三	-11.5871
只麼	-11.5874
底法	-11.5875
變為	-11.5877
頭尾	-11.5879
許之	-11.5879
十九日	-11.588
翰林	-11.588
解說	-11.5881
曾未	-11.5881
聖教	-11.5881
分析	-11.5882
或有人問	-11.5883
可畏	-11.5885
議論	-11.5886
半偈	-11.5886
做箇	-11.5887
再見	-11.5887
師以杖	-11.5888
不親	-11.5888
無孔笛	-11.5889
為實	-11.5889
笙	-11.5889
疋	-11.589
洩	-11.589
莫言不道	-11.5891
新歲	-11.5891
三界唯心	-11.5892
昏散	-11.5892
少有	-11.5894
身口意	-11.5894
硯	-11.5894
是何意旨	-11.5895
糊	-11.5896
大驚	-11.5898
不畏	-11.5898
五位君臣	-11.5898
莊主	-11.5898
真解脫	-11.5898
林泉道	-11.5899
聽吾偈曰	-11.59
之誠	-11.5901
頭邊	-11.5902
蓮社	-11.5904
乾坤大地	-11.5906
長明	-11.5907
三學	-11.5909
南禪	-11.5912
藕絲	-11.5912
參問	-11.5913
杲日當空	-11.5915
有箇漢	-11.5918
甚奇特	-11.5919
大圓	-11.5919
掌握	-11.5921
妙性	-11.5922
三個	-11.5922
政和	-11.5922
苦苦	-11.5922
開士	-11.5924
利根	-11.5928
照用不同時	-11.5929
限量	-11.593
領會	-11.593
謐	-11.593
海晏河清	-11.5931
千差萬別	-11.5931
有句無句如藤倚樹	-11.5932
裏許	-11.5933
曰意旨如何	-11.5934
撓	-11.5935
翻筋斗	-11.5937
受屈	-11.5937
閬	-11.5937
僧云不會	-11.5937
擔板漢	-11.5937
卯	-11.5937
其上	-11.5939
多端	-11.5941
誕日	-11.5942
驀豎拂子云	-11.5942
鬼窟	-11.5943
早參	-11.5943
擲筆	-11.5943
臘八	-11.5944
不歷	-11.5945
老瞿曇	-11.5947
是箇什麼	-11.5948
近離	-11.5949
變異	-11.5949
怎生	-11.5949
秋江	-11.5951
知足	-11.5952
師乃曰	-11.5954
為究竟	-11.5955
之分	-11.5955
尋討	-11.5956
見佛性	-11.5957
但願	-11.5961
兒童	-11.5962
念起	-11.5962
高麗	-11.5963
李氏子	-11.5966
召眾曰	-11.5967
恰如	-11.5967
著地	-11.5967
盡處	-11.5968
世尊因	-11.5968
佛法僧	-11.5969
::	-11.597
貴圖天下太平	-11.5971
一口氣不來	-11.5971
垂語曰	-11.5973
握手	-11.5973
斫額	-11.5973
而止	-11.5973
底事作麼生	-11.5974
單刀直入	-11.5974
顧視左右云	-11.5974
恩大難酬	-11.5974
生處	-11.5975
哂	-11.5977
烏臼	-11.5977
色心	-11.5978
混沌	-11.5978
與三十棒	-11.5979
夜明簾外	-11.598
馥	-11.598
應庵	-11.5981
國裏	-11.5982
退身	-11.5983
百城	-11.5985
更添	-11.5986
滿堂	-11.5986
蒞	-11.5986
白水	-11.5986
且從	-11.5988
賢首	-11.5988
法身邊事	-11.5988
自何來	-11.5989
無有不	-11.599
奪得	-11.5993
燒火	-11.5994
楚山	-11.5994
獨行	-11.5996
下劣	-11.5996
得底人	-11.5997
起倒	-11.5997
笑巖	-11.5997
飄然	-11.5998
之家	-11.6
各具	-11.6003
如同	-11.6003
同事	-11.6003
收不得	-11.6004
海月	-11.6004
本覺一	-11.6004
□□	-11.6005
白紙	-11.6006
不可得而	-11.6009
他古人	-11.601
心空及第	-11.6012
無風起浪	-11.6012
頷	-11.6013
忽大悟	-11.6014
萬象之中獨露身	-11.6015
氣宇如王	-11.6015
蓆	-11.6016
白椎竟	-11.6017
庄	-11.6017
妙行	-11.6018
跛鱉	-11.6019
挫	-11.602
黃鶴樓	-11.602
憑誰	-11.6021
忘其	-11.6021
不漏	-11.6022
著得	-11.6022
燼	-11.6023
磯	-11.6023
腦裂	-11.6023
先賢	-11.6023
蹋著	-11.6024
演法	-11.6025
無價	-11.6025
名藍	-11.6026
切念	-11.6026
批	-11.6026
撾鼓	-11.6027
出水	-11.6028
一串穿	-11.6036
孤峰頂上	-11.6037
行正令	-11.6039
橫拈	-11.6039
竹篦子	-11.6039
不枉	-11.604
十三日	-11.6043
天邊	-11.6043
著不得	-11.6046
實地	-11.6046
大中	-11.6047
貪愛	-11.6048
祖意教意	-11.605
亦且	-11.605
香臺	-11.605
辨別	-11.605
之果	-11.6051
因茲	-11.6052
之珠	-11.6053
不度	-11.6054
來麼	-11.6054
如何是奪人不奪境	-11.6054
把手共行	-11.6054
出興	-11.6055
覺海	-11.6055
饒益	-11.6056
直道	-11.6056
出語	-11.6056
時如何師曰	-11.6057
軌則	-11.6057
脫或未然	-11.6058
燒却	-11.6058
鵰	-11.6059
弼	-11.6059
漱	-11.6064
鎧	-11.6064
度量	-11.6065
衒	-11.6065
香花	-11.6066
高亭	-11.6066
纔出	-11.6066
掖	-11.6067
金毛師子	-11.6069
千重	-11.6069
十餘載	-11.607
雪嶠	-11.607
目錄	-11.6074
舉拳	-11.6075
於師	-11.6075
如何若何	-11.6076
純一	-11.6077
又非	-11.6077
罰錢	-11.6079
無隱	-11.6079
聰禪師	-11.608
若肯	-11.608
聖箭	-11.6081
會末後句	-11.6082
波波	-11.6082
塔曰	-11.6084
無為法	-11.6084
太無端	-11.6084
登高	-11.6084
八十四	-11.6088
裳	-11.6088
者稀	-11.609
難辨	-11.6091
兩三	-11.6092
會則	-11.6093
菩薩戒	-11.6095
生成	-11.6095
後如何師云	-11.6095
決志	-11.6096
价	-11.6097
侍御	-11.6097
汝能	-11.6098
圈繢	-11.61
千七百則	-11.61
淋	-11.6101
也解	-11.6102
老僧今日	-11.6102
十界	-11.6102
一劄	-11.6102
腳底	-11.6103
􂋧	-11.6104
酧	-11.6104
莫及	-11.6105
丙辰	-11.6105
心地法門	-11.6107
問僧甚處來	-11.6107
轉遠	-11.6108
不恁麼也不得	-11.6108
開導	-11.611
韶國師	-11.6111
雲霞	-11.6113
更多	-11.6115
生兒	-11.6115
佛未出世時如何	-11.6115
不加	-11.6115
菩提樹	-11.6118
三匝	-11.6119
月華	-11.6121
命終	-11.6121
非不	-11.6121
不及處	-11.6122
掌上	-11.6122
上頭關	-11.6122
脫灑	-11.6122
貪著	-11.6124
勞形	-11.6125
照見	-11.6125
無跡	-11.6125
視聽	-11.6127
似鏡	-11.6127
周公	-11.6127
顧左右曰	-11.6127
流芳	-11.6128
不覆藏	-11.6129
不出門	-11.6129
記云	-11.613
為緣	-11.6131
知端的	-11.6131
決疑	-11.6132
難尋	-11.6132
敢道	-11.6133
有問有答	-11.6134
其如	-11.6134
古剎	-11.6135
惡水	-11.6136
貪瞋癡	-11.6137
拈起拄杖曰	-11.6137
目顧四方	-11.6138
啐啄	-11.6139
至化	-11.6139
青黃赤白	-11.6139
除夜小參	-11.6139
僧辭	-11.614
一二三四五	-11.614
邏	-11.614
依而行之	-11.6142
如何是人境兩俱奪	-11.6142
擘開	-11.6142
是謗	-11.6143
知師	-11.6144
國主	-11.6145
藜	-11.6146
西來祖意	-11.6146
拈掇	-11.6146
無二無別	-11.6147
壬午	-11.6147
祥符	-11.6147
石牛	-11.6147
且待	-11.6148
篩	-11.6148
六相	-11.6148
千鈞	-11.6149
戴角	-11.6149
願聞	-11.615
因甚如此	-11.615
溪水	-11.615
泐	-11.6151
換却	-11.6153
貝葉	-11.6153
供眾	-11.6153
繫念	-11.6154
辨的	-11.6154
海闊	-11.6155
不妨奇特	-11.6156
老盧	-11.6158
桃源	-11.6158
正道	-11.6158
孰敢	-11.6159
豎起拂子云	-11.6163
在外	-11.6164
無人會	-11.6165
百億須彌	-11.6166
有客	-11.6167
祥光	-11.6167
所攝	-11.6169
悟本	-11.6171
以上	-11.6174
即是如來	-11.6174
周遍	-11.6174
有據	-11.6177
一毫頭	-11.6178
娑羅	-11.6178
劈脊便打	-11.6178
德山入門便棒	-11.6178
無少	-11.618
寸步	-11.618
南禪師	-11.6181
種智	-11.6181
是諸佛	-11.6181
鷂子過新羅	-11.6182
初學	-11.6183
諦信	-11.6183
無罣礙	-11.6184
南昌	-11.6185
開口便	-11.6185
造物	-11.6186
朕兆	-11.6187
杖子	-11.6187
崛	-11.6187
蒿	-11.6188
始末	-11.6188
羮	-11.6189
痾	-11.619
城東	-11.6191
耳裏	-11.6192
諸大老	-11.6193
榮辱	-11.6194
雲堂	-11.6195
詆	-11.6195
蠢	-11.6195
問如何是道	-11.6196
所歸	-11.6197
此珠	-11.6199
浪滔天	-11.6199
太虛空	-11.62
超宗	-11.62
意在目前	-11.6201
任汝	-11.6201
此書	-11.6201
正值	-11.6203
松竹	-11.6204
暗裏	-11.6204
南康	-11.6205
如天	-11.6205
恁麼也不得	-11.6206
關頭	-11.6207
孺	-11.6208
甚奇怪	-11.6209
這些	-11.6209
一柄	-11.6211
主伴	-11.6211
到遮裏	-11.6212
汪洋	-11.6214
一佛	-11.6214
祇在	-11.6214
共知	-11.6215
寂光	-11.6215
中秋上堂	-11.6215
程途	-11.6215
不廢	-11.6216
有神	-11.6221
翠巖芝云	-11.6222
皆然	-11.6223
或見	-11.6223
虛名	-11.6224
放過即不可	-11.6224
相去幾何	-11.6225
相伴	-11.6225
其所以	-11.6226
逢人不得錯舉	-11.6227
功不浪施	-11.6228
忒	-11.6228
心是佛	-11.6228
得法於	-11.623
入室次	-11.623
於生死	-11.6231
喉	-11.6232
峨嵋	-11.6232
正令全提	-11.6232
資聖	-11.6236
瀆	-11.6236
上流	-11.6236
遐邇	-11.6237
滅盡	-11.6237
丙子	-11.6237
總結	-11.6238
解者	-11.6239
繹	-11.6241
撥著	-11.6242
海雲	-11.6242
過水	-11.6245
何故如此	-11.6245
却須	-11.6249
證悟	-11.6249
怪石	-11.625
定乾坤	-11.6251
愁人	-11.6252
隨所	-11.6254
管帶	-11.6254
玅用	-11.6255
灘頭	-11.6255
大路	-11.6255
識性	-11.6257
艱難	-11.6258
多有	-11.6259
舊日	-11.626
聽者	-11.626
如電	-11.6265
好事不如無	-11.6266
太古	-11.6266
出身處	-11.6266
如虛空	-11.6267
批判	-11.6267
何幸	-11.6268
死去	-11.6268
嶂	-11.6269
十世古今	-11.6269
搦	-11.627
萬靈	-11.6271
而死	-11.6271
紫金	-11.6272
打皷	-11.6272
怖畏	-11.6273
令他	-11.6274
康熈	-11.6274
八方	-11.6275
吻	-11.6275
異香	-11.6275
逢春	-11.6275
讐	-11.6276
十種	-11.6276
脫略	-11.6276
上坐	-11.6277
拈古	-11.6277
萼	-11.6278
離文字	-11.6278
土塊	-11.6278
戮	-11.6281
之罪	-11.6281
見後	-11.6282
青雲	-11.6282
彩鳳	-11.6282
自小	-11.6283
非道	-11.6283
磕著	-11.6283
鳴鼓	-11.6284
即入	-11.6284
立處	-11.6287
一源	-11.6287
現全身	-11.6288
終歸	-11.6288
有底	-11.6291
此頌	-11.6291
天池	-11.6291
吐氣	-11.6294
鐵圍	-11.6296
峰高	-11.6296
汾	-11.6299
數十年	-11.63
示偈曰	-11.63
五濁	-11.6302
林曰	-11.6303
堪悲	-11.6305
及盡	-11.6305
嗣馬祖	-11.6306
論義	-11.6308
放一線道	-11.6309
相即	-11.6309
多般	-11.6309
無佛處急走過	-11.631
月皎	-11.6311
一生參學事畢	-11.6311
同於	-11.6311
點鐵成金	-11.6312
妙道	-11.6312
拂袖而出	-11.6312
曳杖	-11.6315
江海	-11.6316
料掉沒交涉	-11.6316
精嚴	-11.6317
順逆	-11.6317
別是一	-11.6317
暹	-11.6319
芋	-11.6319
糠	-11.6321
遍天下	-11.6322
學人上來	-11.6324
妥	-11.6325
戊子	-11.6326
則不能	-11.6327
剃落	-11.6327
歸於	-11.6327
關山	-11.6327
再舉	-11.6328
錯了也	-11.633
喚回	-11.6331
不肯承當	-11.6332
百千萬	-11.6333
層層	-11.6334
抑且	-11.6334
佛號	-11.6335
相貌	-11.6336
前程	-11.6336
猛烈	-11.634
卷第二	-11.634
聞名	-11.6341
處分	-11.6343
開正眼	-11.6343
澄澄	-11.6344
與誰	-11.6347
支那	-11.6348
喚作拂子	-11.6348
斯則	-11.6349
首謁	-11.635
凜	-11.6352
著忙	-11.6353
彈指一下	-11.6353
唇吻	-11.6353
淨潔	-11.6354
莫學	-11.6354
空拳	-11.6355
亦曾	-11.6356
澡	-11.6357
化生	-11.6357
十一世	-11.6357
沒絃琴	-11.6358
彫	-11.6358
朵朵	-11.6358
蕩盡	-11.6358
之表	-11.6359
蓋天蓋地	-11.6359
貪嗔癡	-11.636
為一大事因緣	-11.636
可知禮也	-11.6361
揮拂子云	-11.6361
朔風	-11.6362
直造	-11.6362
迷時	-11.6363
不能得	-11.6363
昱	-11.6363
阿育王	-11.6367
戊戌	-11.6368
根境	-11.6368
聖道	-11.6369
比來	-11.6369
真歇	-11.6371
飛騰	-11.6372
可比	-11.6373
聖主	-11.6373
則觸	-11.6374
廣福	-11.6375
當道	-11.6375
千生	-11.6376
今欲	-11.6376
多福	-11.6376
罔極	-11.6376
四分	-11.6377
有六	-11.6378
浮沉	-11.6379
佛經	-11.6379
未開	-11.6379
如何是清淨法身	-11.638
撞破	-11.6381
菴中	-11.6382
撞入	-11.6382
猶為	-11.6384
那管	-11.6384
一鎚	-11.6387
流光	-11.6387
垂問	-11.6387
不辦	-11.6387
聞麼	-11.639
三十二相	-11.639
不能知	-11.6391
告報	-11.6392
南堂	-11.6393
天地懸殊	-11.6394
黃鶯	-11.6395
馳書	-11.6397
六度萬行	-11.6398
銅頭鐵額	-11.6399
半箇	-11.6399
有頭無尾	-11.64
之資	-11.64
首尾	-11.6401
堂內	-11.6401
黃面老	-11.6402
作麼生商量	-11.6403
山翁	-11.6403
不傷	-11.6404
贏	-11.6405
吹毛劍	-11.6406
忖	-11.6406
戊申	-11.6407
治之	-11.6407
甄別	-11.6407
箋	-11.6409
分中	-11.6409
師辭	-11.641
化育	-11.6411
圍爐	-11.6411
路逢	-11.6412
自後	-11.6414
五味	-11.6415
豎拂子	-11.6416
多口	-11.6416
奉重	-11.6417
中求	-11.6418
若不如是	-11.6419
雙眸	-11.642
妙體	-11.642
境智	-11.642
召曰	-11.642
猶帶	-11.6422
已後	-11.6424
師亦喝	-11.6425
有一般	-11.6428
腦門	-11.6429
一別	-11.6429
悉是	-11.6432
愚者	-11.6433
而又	-11.6434
真源	-11.6438
答言	-11.6439
劫中	-11.6439
話作兩橛	-11.644
萬化	-11.6441
女子出定	-11.6442
廛	-11.6443
轉凡成聖	-11.6443
自利利他	-11.6444
胞胎	-11.6444
法堂上	-11.6444
歸堂喫茶	-11.6445
三世諸佛不知有	-11.6448
和盤托出	-11.6448
堆堆	-11.6449
卉	-11.6451
難易	-11.6451
求解脫	-11.6453
老衲	-11.6454
大地無寸土	-11.6454
佛種	-11.6454
橐	-11.6455
不擇	-11.6455
傑出	-11.6456
一星	-11.6461
作麼生說箇	-11.6464
一篇	-11.6465
死了	-11.6471
若不得	-11.6473
盡大地是箇	-11.6473
乞兒	-11.6473
之主	-11.6475
相酬	-11.6476
心意	-11.6478
實是	-11.6478
中峯	-11.6478
法姪	-11.6478
性本	-11.648
師作	-11.6481
依法	-11.6483
會不得	-11.6484
行棒行喝	-11.6484
一雨	-11.6486
流俗	-11.6486
麼莫是	-11.6487
折旋俯仰	-11.6488
逢場作戲	-11.6488
蘸	-11.6488
永無	-11.6488
沒量大人	-11.6488
穩當	-11.6489
之福	-11.6491
沒量	-11.6492
此問	-11.6492
門庭施設	-11.6492
若教	-11.6493
賸	-11.6493
篾	-11.6493
砥	-11.6494
佑	-11.6496
屹	-11.6496
白汗	-11.6497
萬木	-11.6497
馭	-11.6498
逐物	-11.6498
清泉	-11.65
則同	-11.6502
金殿	-11.6502
取其	-11.6502
奪却	-11.6503
如或	-11.6504
乙未	-11.6505
安著	-11.6507
母夢	-11.6508
甚麼物	-11.6511
事上	-11.6512
就裏	-11.6512
月映	-11.6512
坐地	-11.6513
出世後如何	-11.6513
更有何	-11.6514
詩書	-11.6516
成熟	-11.6518
早已	-11.6518
寒食	-11.6519
此識	-11.6521
恍然	-11.6522
徧地	-11.6525
之水	-11.6525
臨濟入門便喝	-11.6527
掃帚	-11.6527
從空	-11.6527
眉鬚墮落	-11.6528
剩語	-11.6528
七穿八穴	-11.6529
試出來	-11.6531
參堂	-11.6531
但將	-11.6531
山乃	-11.6531
南屏	-11.6532
記錄	-11.6532
正要	-11.6533
馬蹄	-11.6534
威德	-11.6535
倣	-11.6536
色界	-11.6537
照耀	-11.6541
斯旨	-11.6541
無背面	-11.6543
四世	-11.6543
心經	-11.6543
巳畢	-11.6544
轉語	-11.6544
真善知識	-11.6545
妙德	-11.6545
鉅	-11.6545
持經	-11.6546
一兩	-11.6546
者耶	-11.6546
展具	-11.6547
秋毫	-11.6549
若從	-11.6549
淨心	-11.655
泥牛吼	-11.655
鄉人	-11.655
住後上堂	-11.655
毒手	-11.6552
金剛眼	-11.6553
不會禪	-11.6554
你又	-11.6554
圓教	-11.6555
杓柄	-11.6555
透關	-11.6556
別號	-11.6557
幻身	-11.6558
之所能	-11.6558
玄覺云	-11.6558
僧擬議師便打	-11.656
鐵圍山	-11.656
示徒	-11.656
寧不	-11.6561
破顏	-11.6561
猶較	-11.6562
獨耀	-11.6563
一下曰	-11.6563
落在什麼處	-11.6563
剎土	-11.6564
照臨	-11.6564
自由自在	-11.6565
古德道	-11.6565
乙	-11.6565
不見一法	-11.6566
以理	-11.6566
官不容針	-11.6567
著述	-11.6567
待你	-11.6568
須教	-11.6568
同條	-11.6569
江水	-11.6569
骸	-11.6569
魅	-11.6572
拋卻	-11.6572
的麼	-11.6573
苦瓠連根苦	-11.6574
一盞	-11.6576
寺主	-11.6576
癩	-11.6576
若有人問	-11.6576
威神	-11.6578
舌上	-11.6578
深明	-11.6579
以告	-11.6579
莫窮	-11.6581
如何是你	-11.6581
為最	-11.6581
袁州	-11.6582
廻	-11.6582
郵	-11.6583
滓	-11.6584
持此	-11.6588
彼曰	-11.6589
歸鄉	-11.659
影落	-11.6594
打七	-11.6595
而食	-11.6595
三十三	-11.6596
罕遇	-11.6598
大象	-11.6598
得得	-11.6598
真法	-11.6598
稱之	-11.6599
魔佛	-11.6599
天目禮	-11.66
拂云	-11.6602
後代	-11.6603
何可	-11.6604
不圓	-11.6604
簇簇	-11.6604
孃生	-11.6604
我得	-11.6607
碧漢	-11.6609
聞此	-11.6609
珍珠	-11.661
貴人	-11.6613
從地	-11.6614
莊周	-11.6614
喜曰	-11.6615
濟濟	-11.6615
吾心	-11.6616
釘橛	-11.6616
填溝塞壑	-11.6617
絕待	-11.6617
火燄	-11.6617
明道	-11.6618
始能	-11.6618
破壞	-11.6619
不可說不可說	-11.6619
𢬵	-11.6619
全體現	-11.6619
不為人	-11.6619
歸家穩坐	-11.662
太傅	-11.6621
紅輪	-11.6621
碍	-11.6621
網羅	-11.6622
離心	-11.6622
遇知音	-11.6623
滿眼	-11.6624
霈	-11.6624
今上皇帝	-11.6626
枝枝	-11.6627
古佛家風	-11.6627
禪師福州	-11.6628
須還	-11.6628
宮中	-11.6632
諄諄	-11.6632
張口	-11.6632
有老宿	-11.6634
把住曰	-11.6635
萬戶	-11.6635
二門	-11.6636
五行	-11.6637
必能	-11.6637
羅浮	-11.6639
但向道	-11.6639
榆	-11.6639
證果	-11.6639
欲明	-11.664
數量	-11.664
闔國	-11.6643
貧賤	-11.6645
長三尺	-11.6646
然亦	-11.6646
喫得	-11.6647
以坐具	-11.6648
且道是甚麼	-11.6648
觀音菩薩	-11.665
水牯	-11.6651
萬指	-11.6651
寒溫	-11.6651
雷聲	-11.6651
但於	-11.6651
夢想	-11.6651
鷂	-11.6653
流泉	-11.6654
虛度	-11.6654
爭肯	-11.6655
未詳	-11.6655
厲聲	-11.6656
黑漫漫	-11.6656
帶雨	-11.6657
私通車馬	-11.6657
非空	-11.6657
禪學	-11.6658
恩力	-11.6658
非義	-11.6659
家貧	-11.666
見色明心	-11.6661
大光	-11.6662
安有	-11.6662
七顛八倒	-11.6664
自瞞	-11.6665
一夢	-11.6666
放曠	-11.6666
烏石	-11.6666
毳	-11.6667
杭之	-11.6667
六時	-11.6669
冷眼	-11.667
二法	-11.667
七識	-11.667
赫赫	-11.6671
端倪	-11.6671
狹路相逢	-11.6671
本無生	-11.6671
九五	-11.6673
相聚	-11.6673
捨此	-11.6673
英俊	-11.6674
落第二	-11.6674
乙巳	-11.6674
曙	-11.6674
香燈	-11.6675
號為	-11.6677
靈樹	-11.6677
上品	-11.668
古人有言	-11.6681
我觀	-11.6681
總無	-11.6682
不出戶	-11.6682
鳳林	-11.6683
東寺	-11.6683
復次	-11.6685
以手掩	-11.6686
尚云	-11.6687
剔起	-11.6687
求出	-11.6689
本禪師	-11.6692
生死到來	-11.6695
皮毛	-11.6695
相遇	-11.6695
裏藏身	-11.6697
儂家	-11.6698
塵塵剎剎	-11.67
日益	-11.6702
僧回首	-11.6702
陳年	-11.6704
放汝	-11.6706
曇華	-11.6706
撲落	-11.6707
貶剝	-11.6707
上法堂	-11.6708
拗折	-11.6708
話頭也不識	-11.6709
復見	-11.671
撿點將來	-11.671
說似	-11.6712
遭人	-11.6713
存焉	-11.6713
【	-11.6713
在當人	-11.6713
當鋒	-11.6715
塵垢	-11.6715
肅宗	-11.6715
橘	-11.6716
血脈	-11.6716
自當	-11.6716
苐	-11.6717
之明	-11.6717
踴躍	-11.6717
􂐔	-11.6719
撇	-11.672
劈口	-11.672
辛亥	-11.6721
新月	-11.6721
惡人	-11.6722
謫	-11.6722
虗席	-11.6725
若實	-11.6725
出匣	-11.6725
智光	-11.6727
往謁	-11.673
為禪	-11.6732
太虗空	-11.6732
無雜	-11.6732
如何是正法眼	-11.6732
不輟	-11.6734
所緣緣	-11.6735
癢	-11.6736
天命	-11.6736
纔舉	-11.6738
福壽	-11.6738
齋次	-11.6739
非同	-11.674
五百年	-11.674
後出世	-11.6742
有三種	-11.6742
秋空	-11.6743
本州	-11.6744
說時	-11.6745
揭開	-11.6745
目前機	-11.6745
穩密	-11.6745
供佛	-11.6746
亦不是	-11.6746
臨川	-11.6746
儂	-11.6747
於後	-11.6747
不得錯舉	-11.6748
枯骨	-11.6748
風送	-11.6749
頓明	-11.675
日日是好日	-11.6751
把住云	-11.6751
燈錄	-11.6751
又却	-11.6751
洞山曰	-11.6751
有佛處不得住	-11.6751
入內	-11.6752
禮辭	-11.6752
洞口	-11.6753
出門便是草	-11.6753
秪要	-11.6753
須識	-11.6754
前身	-11.6754
不得已	-11.6754
也不是	-11.6754
十智同真	-11.6755
有事在	-11.6758
鉢囊	-11.6758
椒	-11.6759
涸	-11.6759
忘緣	-11.6759
機前	-11.6761
加鞭	-11.6761
丙寅	-11.6761
逐塊	-11.6762
幟	-11.6763
死句	-11.6763
丕	-11.6764
紛飛	-11.6765
直示	-11.6766
豈可以	-11.6767
抑揚	-11.6767
有般	-11.6767
趙州關	-11.6767
迷悶	-11.6768
何山	-11.677
旬日	-11.677
我今日	-11.6774
我有一	-11.6774
保護	-11.6775
雜毒	-11.6775
箇漢	-11.6777
紙上	-11.6777
回途	-11.6777
雲溪	-11.6778
吳山	-11.6781
離微	-11.6781
陳氏	-11.6781
猶隔	-11.6782
有些子	-11.6785
白月	-11.6786
師一喝	-11.679
仔細看	-11.6793
亦為	-11.6793
但恁麼	-11.6793
不得道	-11.6796
如何舉唱	-11.6797
有意氣時添意氣	-11.6797
崇福	-11.6797
惱亂春風卒未休	-11.6798
破顏微笑	-11.6798
你又作麼生	-11.6798
亦空	-11.6798
衣冠	-11.6799
總不與麼	-11.6799
天心	-11.68
長慶云	-11.68
常自	-11.68
如玉	-11.6801
頓忘	-11.6801
現瑞	-11.6801
疼	-11.6803
脂	-11.6803
巳久	-11.6804
困來	-11.6804
敗缺	-11.6805
污染	-11.6805
活人劍	-11.6805
外物	-11.6806
伶俐衲僧	-11.6808
襄陽	-11.6808
眼觀	-11.681
何年	-11.6811
入僧堂	-11.6811
由旬	-11.6813
亦打	-11.6813
討箇	-11.6814
五眼	-11.6814
况	-11.6816
喚作拄杖	-11.6818
三十拄杖	-11.682
一缽	-11.682
五峯	-11.6823
口說	-11.6824
此四	-11.6827
巳見	-11.6827
七世	-11.6829
三賢	-11.683
世間人	-11.683
變現	-11.683
心眼	-11.6832
隨情	-11.6832
故號	-11.6832
狗子無佛性	-11.6834
卓錫	-11.6836
令僧	-11.6836
學禪	-11.6838
謗佛	-11.6838
未圓	-11.684
入理	-11.6842
靈知	-11.6844
換卻	-11.6849
利養	-11.6851
行門	-11.6852
蓬萊	-11.6852
意思	-11.6854
嬉	-11.6854
未解	-11.6854
濟便打	-11.6856
座元	-11.6857
稱揚	-11.6857
眺	-11.6858
臨濟兒孫	-11.6858
碧雲	-11.6858
放捨	-11.6858
悚然	-11.6859
佛慧	-11.6859
掩室	-11.6859
當前	-11.6859
修身	-11.6859
覺曰	-11.686
袈裟角	-11.6861
誰是知音	-11.6867
動轉	-11.6868
三世如來	-11.6868
悟則	-11.6871
之路	-11.6872
金銀	-11.6873
苦惱	-11.6873
虎尾	-11.6874
宗通	-11.6876
即今在什麼處	-11.6876
有德	-11.6876
雖殊	-11.6878
打箇	-11.6881
雪老	-11.6882
以手作	-11.6882
麼僧云	-11.6882
茶次	-11.6884
勞神	-11.6884
乞和尚	-11.6885
非耳目之所到	-11.6886
報化	-11.6887
自笑	-11.6887
四相	-11.6888
高眠	-11.6889
滅却	-11.6889
撿點	-11.6891
初發心	-11.6891
此四句	-11.6892
戟	-11.6893
翠峰顯	-11.6893
曾問	-11.6896
興教	-11.6896
浹	-11.6897
封疆	-11.6898
燈燭	-11.69
癸卯	-11.69
不令	-11.69
股	-11.6901
劬勞	-11.6901
為家	-11.6901
聞云	-11.6901
四恩	-11.6901
聖明	-11.6903
來者裏	-11.6903
月中	-11.6904
佛境界	-11.6904
兩喝	-11.6905
放教	-11.6905
疏親	-11.6907
石佛	-11.6908
許可	-11.6908
大丈夫兒	-11.6909
葺	-11.6909
既見	-11.6909
頓入	-11.691
緇白	-11.6911
禪那	-11.6912
之年	-11.6915
無用處	-11.6915
可以為	-11.6916
斛	-11.6916
偏枯	-11.6917
答得	-11.6918
僧云某甲	-11.692
諸惡	-11.692
異相	-11.6922
難瞞	-11.6923
如然	-11.6925
費盡	-11.6926
及時	-11.6926
點著	-11.6926
無容	-11.6927
降魔	-11.6927
無舌人	-11.6928
宗眼	-11.6928
金華	-11.6929
眉目	-11.693
和聲	-11.6931
婆娑	-11.6933
十方三世	-11.6934
九九八十一	-11.6934
舉話	-11.6936
變遷	-11.6937
拗	-11.6937
為樂	-11.6938
守護	-11.694
西歸	-11.694
休去歇去	-11.6941
這是	-11.6941
稍有	-11.6941
便當	-11.6942
膩	-11.6943
瑞光	-11.6943
用功	-11.6943
在門外	-11.6944
不濕	-11.6946
個裏	-11.6947
火焰	-11.6947
僧禮拜師乃云	-11.6948
少許	-11.6948
縱橫自在	-11.6949
奔馳	-11.695
天平	-11.6951
後無傳	-11.6953
及此	-11.6953
僧禮拜云	-11.6954
僧來參	-11.6955
妙在	-11.6955
擬對	-11.6957
且不是	-11.6957
當風	-11.6958
童曰	-11.6958
逢緣	-11.696
行脚事	-11.696
如何領會	-11.696
火爐頭	-11.6961
中途	-11.6962
藏識	-11.6962
觸忤	-11.6966
底意	-11.6966
拈弄	-11.6967
祇見	-11.6967
不脫	-11.6967
滔天	-11.6967
蒼松	-11.6968
心內	-11.6968
泥團	-11.6971
而實	-11.6972
究明	-11.6973
喪我兒孫	-11.6974
妄自	-11.6975
謾道	-11.6975
山僧即不然	-11.6975
從上來	-11.6976
雷震	-11.6976
當晚小參	-11.6977
煅	-11.6978
還有為人處也無	-11.6979
本法	-11.698
據令而行	-11.698
大通智勝佛	-11.6983
遷變	-11.6983
頭正尾正	-11.6984
如虗空	-11.6984
剎剎	-11.6984
料揀	-11.6985
禧	-11.6987
當為何事	-11.6987
山海	-11.6987
俱泯	-11.6988
多劫	-11.6988
纂	-11.6989
喘	-11.6989
泮	-11.6989
端居	-11.6989
二上座	-11.699
大海水	-11.699
老矣	-11.699
癸丑	-11.6991
游方	-11.6992
癸亥	-11.6992
法音	-11.6993
若人識得	-11.6995
瀑布	-11.6995
欲界	-11.7
樓上	-11.7
往依	-11.7
得妙	-11.7001
高超	-11.7002
未審意旨如何	-11.7003
不得力	-11.7004
撲破	-11.7004
前塵	-11.7005
莫認	-11.7006
古南門	-11.7006
建州	-11.7007
瀛	-11.7007
隨流水	-11.7009
諸見	-11.7009
此法門	-11.7011
還假	-11.7011
元豐	-11.7013
無非是	-11.7014
故其	-11.7015
多種	-11.7017
欲令	-11.7017
久依	-11.7017
可知矣	-11.7018
擬進語	-11.7019
不二法門	-11.702
自領出去	-11.702
洞中	-11.702
為霖	-11.7023
閉却門	-11.7023
老來	-11.7024
箇話頭	-11.7024
八九	-11.7024
丹霞燒木佛	-11.7026
住於	-11.7026
為業	-11.7027
普通	-11.7028
是則名為報佛恩	-11.7028
斯文	-11.7028
結夏小參	-11.7029
板頭	-11.7029
浮山遠	-11.703
不圖	-11.703
新婦騎驢阿家牽	-11.703
吾無隱乎爾	-11.703
笑看	-11.703
燈燈	-11.7031
淛	-11.7032
體露金風	-11.7032
承誰恩力	-11.7032
沽	-11.7033
献	-11.7035
含識	-11.7035
高流	-11.7035
毫末	-11.7035
懺罪	-11.7037
二十餘	-11.7038
桓	-11.7039
無勞	-11.704
惕	-11.7041
瑟	-11.7042
睡眠	-11.7042
之勝	-11.7044
倒地	-11.7044
六祖大師	-11.7045
_	-11.7048
就是	-11.7049
著實	-11.7049
是如何	-11.705
頓釋	-11.7051
雪曲	-11.7052
離念	-11.7052
延慶	-11.7052
南遊	-11.7052
千燈	-11.7055
持齋	-11.7056
百草頭邊	-11.7056
朝陽	-11.7056
未達	-11.706
雪庭	-11.7063
長嘯	-11.7064
十九年	-11.7064
無比	-11.7064
苟或	-11.7065
三兩	-11.7066
言中	-11.7066
今日山僧	-11.7068
摘茶	-11.7068
召大眾	-11.7069
脫卻	-11.707
大雪	-11.707
大師云	-11.707
子期	-11.707
如何是透法身句	-11.7071
大龍	-11.7072
如何是法身	-11.7072
飯錢	-11.7072
四喝	-11.7072
聞聲悟道	-11.7072
無欠無餘	-11.7076
琵琶	-11.7076
核	-11.7077
非特	-11.7078
隱身	-11.708
齊彰	-11.708
打一拂子	-11.7081
秘魔	-11.7081
天衣懷	-11.7082
非異	-11.7083
但自	-11.7083
鳧	-11.7083
渾然	-11.7084
涇	-11.7084
辦道	-11.7085
修持	-11.7085
生死涅槃	-11.7086
踢翻	-11.7086
和光	-11.7087
。」「(	-11.7087
櫂	-11.7087
師震威一喝	-11.7089
一聞	-11.709
已是	-11.709
佛菩薩	-11.7091
氣吞	-11.7091
竣	-11.7093
相當	-11.7094
老朽	-11.7095
烏雞	-11.7096
勿以	-11.7098
求出家	-11.7098
。』」	-11.7099
得箇什麼	-11.7099
發揚	-11.7101
即現	-11.7101
皎然	-11.7103
累劫	-11.7104
把臂	-11.7106
歷盡	-11.7107
十六年	-11.7108
餘人	-11.7109
證無生	-11.7113
在麼	-11.7113
結果	-11.7115
一拂	-11.7115
惟此	-11.7116
若與麼	-11.7117
脇	-11.7118
得箇入處	-11.7118
幻住	-11.7118
住此	-11.7118
色聲	-11.7119
不知落處	-11.7121
透網金鱗	-11.7121
一寸	-11.7123
帶水拖泥	-11.7124
未出母胎	-11.7125
幸甚	-11.7126
常樂	-11.7127
赤肉團上	-11.7128
驚群	-11.7128
簡點將來	-11.7129
惰	-11.713
間隔	-11.7131
改元	-11.7132
倚杖	-11.7132
瘴	-11.7133
搖頭	-11.7133
一切事	-11.7133
真個	-11.7133
仆	-11.7134
賁	-11.7135
起佛見法見	-11.7135
若道有	-11.7137
即能	-11.7138
夏末	-11.7138
百煉	-11.7138
彼時	-11.714
實頭	-11.714
望風	-11.714
收取	-11.7141
宏智	-11.7141
堪嗟	-11.7142
親炙	-11.7142
太夫人	-11.7143
何愁	-11.7146
人之所	-11.7147
教法	-11.7148
和尚處	-11.7148
一花	-11.7149
舊年	-11.7151
廣錄	-11.7152
西家	-11.7154
經過	-11.7154
喜得	-11.7154
差別智	-11.7154
住徑山	-11.7155
臨安	-11.7156
眾流	-11.7158
方便門	-11.7158
長髭	-11.7158
佛殿裏	-11.7159
不帶	-11.716
四壁	-11.716
百丈野狐	-11.716
抹過	-11.7162
)。】「	-11.7163
北鬱單越	-11.7164
患聾	-11.7164
向上還有事也無	-11.7165
面上	-11.7166
閻羅	-11.7169
吾當	-11.717
磁	-11.7172
耘	-11.7173
翱翔	-11.7174
迥超	-11.7174
寒山拾得	-11.7175
姊	-11.7175
有限	-11.7176
口喃喃	-11.7176
先師道	-11.7176
半斤	-11.7177
宗曰	-11.7177
卷第四	-11.7178
貪嗔	-11.7178
放下手	-11.7178
梗	-11.7179
可傳	-11.7179
今歲	-11.718
搖手	-11.718
師喝曰	-11.7182
葢為	-11.7183
恤	-11.7185
無法可	-11.7187
笑我	-11.7187
雪消	-11.7187
忌拈香	-11.7189
渾忘	-11.719
東流	-11.7191
故言	-11.7191
經年	-11.7192
慶讚	-11.7193
為渠	-11.7196
初度	-11.7196
示之曰	-11.7196
書之	-11.7198
二日	-11.7198
牛頭未見四祖時如何	-11.7198
小叅	-11.7199
藥師	-11.7201
難免	-11.7201
一段光明	-11.7203
九歲	-11.7204
恙	-11.7208
參馬祖	-11.7209
雙峰	-11.721
見在	-11.721
性情	-11.721
那能	-11.721
若如此	-11.7212
重說偈言	-11.7215
之東	-11.7215
亥	-11.7216
推之	-11.7217
見文殊	-11.7219
而修	-11.722
涕唾	-11.722
葷	-11.722
年三十	-11.7221
娶	-11.7221
慕道	-11.7222
溢目	-11.7223
宕	-11.7223
艇	-11.7223
妃	-11.7223
遞代	-11.7224
服膺	-11.7224
一籌	-11.7224
啜	-11.7225
璽	-11.7226
幽深	-11.7226
雲月	-11.7227
克符	-11.7227
金剛眼睛	-11.7227
大啟	-11.7227
合得	-11.7227
請師指示	-11.7229
真身	-11.7229
萬年松	-11.7229
勸請	-11.723
建法幢	-11.723
入道之	-11.723
空不空	-11.723
四智	-11.7233
敦請	-11.7233
黃連	-11.7234
較量	-11.7234
蟠桃	-11.7235
無間斷	-11.7236
受報	-11.7236
四十餘年	-11.7236
思慮	-11.7237
漁歌	-11.7237
江州	-11.7237
師擬議	-11.7239
太祖	-11.724
老人云	-11.7241
雲起	-11.7242
相接	-11.7242
騎馬	-11.7242
奇之	-11.7243
道得也	-11.7243
和尚又作麼生	-11.7244
慧可	-11.7246
玉樹	-11.725
滿月	-11.725
古尊宿	-11.7252
橫眠	-11.7253
祇園	-11.7254
紀綱	-11.7255
也夫	-11.7256
孝順	-11.7257
榮枯	-11.7257
撿	-11.7258
禪道佛法	-11.7258
僧亦喝	-11.7259
當斷不斷	-11.726
師子尊者	-11.7261
淨裸裸	-11.7262
當堂	-11.7263
中流出	-11.7264
壬申	-11.7264
欺人	-11.7265
驀直	-11.7265
中央	-11.7266
鄂州	-11.7267
戊午	-11.7267
姜	-11.7268
承當得	-11.7269
大迦葉	-11.727
疑殺	-11.727
擲拄杖下座	-11.727
沒巴鼻	-11.7271
盡向	-11.7271
壬辰	-11.7272
輪回	-11.7272
三轉語	-11.7272
鼻孔出氣	-11.7273
牘	-11.7275
丹桂	-11.7276
在在	-11.7276
迎師	-11.7278
坐却	-11.7278
摩醯	-11.7282
李氏	-11.7284
百獸	-11.7284
筠州	-11.7284
行於世	-11.7287
晚叅	-11.7288
四人	-11.7289
巳躬	-11.729
僧喝師云	-11.7291
浩蕩	-11.7293
本具	-11.7293
之量	-11.7293
不禮拜	-11.7294
藤條	-11.7298
救取	-11.7299
急切	-11.7299
廓爾	-11.73
正受	-11.7301
曹洞宗	-11.7303
大珠	-11.7303
滅後	-11.7303
十世	-11.7303
披緇	-11.7304
▁答	-11.7304
日夕	-11.7305
真珠	-11.7306
並是	-11.7309
土曠人稀	-11.7309
無本可據	-11.7309
趙老	-11.731
巳蒙師指示	-11.731
搬柴	-11.7312
還有優劣也無	-11.7312
棒喝交馳	-11.7312
與麼會	-11.7313
牓	-11.7314
酬恩	-11.7315
閉戶	-11.7316
建炎	-11.7319
妾	-11.7319
王老	-11.7319
二千年	-11.732
又成	-11.732
盡謂	-11.732
而心	-11.7321
亙古亙今	-11.7321
駁	-11.7322
晨昏	-11.7323
指陳	-11.7324
頃刻	-11.7324
法弟	-11.7325
出隻手	-11.7325
大鵬	-11.7326
爐韝	-11.7326
廓落	-11.7326
只許	-11.7327
金鍼	-11.7328
大眾證明	-11.7328
故園	-11.7329
乘風	-11.7332
不委	-11.7335
中和	-11.7336
看腳下	-11.7339
洗面	-11.7339
高原	-11.7339
法界眾生	-11.7341
若執	-11.7342
所解	-11.7342
寒風	-11.7343
飽參	-11.7345
得恰好	-11.7346
而證	-11.7347
將謂是	-11.7351
記曰	-11.7352
高樓	-11.7356
擊節	-11.7357
眼花	-11.7357
路見不平	-11.7358
人境俱奪	-11.7359
號曰	-11.736
崇壽	-11.736
把斷要津	-11.7361
出現於世	-11.7361
就地	-11.7361
入叢林	-11.7362
恚	-11.7362
晟	-11.7363
乾明	-11.7365
榾柮	-11.7365
蹋破	-11.7365
罅	-11.7366
剏	-11.7366
未有不	-11.7366
颯颯	-11.7366
攝心	-11.7367
屐	-11.7368
煙雨	-11.7368
不施	-11.7368
拈頌	-11.7369
禪悅	-11.7369
挨拶	-11.7369
冷暖	-11.737
黍	-11.7371
五種	-11.7373
寰	-11.7373
者罰	-11.7373
撩天	-11.7374
阿那	-11.7374
且緩緩	-11.7375
由是觀之	-11.7375
返擲	-11.7376
幽州	-11.7378
一衲	-11.7378
待他道	-11.7378
慶雲	-11.7378
空界	-11.738
曾參	-11.738
離卻	-11.738
刱	-11.7382
插鍬	-11.7382
瑞草	-11.7382
山陰	-11.7383
敲唱	-11.7389
祖師關	-11.7389
高歌	-11.7393
慨然	-11.7394
註破	-11.7395
題目	-11.7395
謾說	-11.7396
肘後	-11.7397
同別	-11.7398
非吾	-11.7399
如藤倚樹	-11.7399
送客	-11.7399
結冬	-11.74
撥火	-11.7401
流行	-11.7402
且道他	-11.7403
一切智智清淨	-11.7403
是同是別師云	-11.7404
竟日	-11.7406
一口吸盡西江水	-11.7406
如水中月	-11.7406
然雖如此	-11.7407
托缽	-11.7408
李四	-11.7409
平沉	-11.7409
相隨來也	-11.741
橫肩	-11.741
覩明星	-11.7411
萎	-11.7411
山深	-11.7411
匾	-11.7412
立身	-11.7412
不曾見	-11.7412
胡亂	-11.7412
向上一路千聖不傳	-11.7413
榴	-11.7413
橫說豎說	-11.7413
結舌	-11.7414
差殊	-11.7414
驛	-11.7415
立下風	-11.7416
不比	-11.7416
為吾	-11.7416
纔到	-11.7417
辛丑	-11.7417
澄禪師	-11.7419
勸人	-11.7419
熱鬧	-11.7423
繇是	-11.7423
大鑒下	-11.7425
肇公	-11.7425
法體	-11.7426
打落	-11.7426
非獨	-11.7426
省發	-11.7426
南公	-11.7426
能轉	-11.7427
聖凡情	-11.7427
運用	-11.7428
定業	-11.743
有者道	-11.743
何從	-11.7431
猛火	-11.7433
曰學人	-11.7433
庵中	-11.7437
嚬呻	-11.7437
三點	-11.7438
不曾到	-11.7438
問將來	-11.7441
拘束	-11.7442
香飄	-11.7442
半生	-11.7442
向北	-11.7443
年八十	-11.7443
含生	-11.7443
千家	-11.7444
足矣	-11.7445
好消息	-11.7445
飲酒	-11.7445
父母未生	-11.7447
師喚	-11.7449
伏牛	-11.745
巍	-11.745
回光返照	-11.745
今又	-11.745
能為萬象主	-11.7455
摸索不著	-11.7456
宗門中事	-11.7457
自省	-11.7458
舉雪峰	-11.7459
內心	-11.7459
純真	-11.7459
簑	-11.7459
大圓覺	-11.7459
喆	-11.746
波羅提	-11.746
砧	-11.7461
媒	-11.7461
魚躍	-11.7462
入手	-11.7462
丙申	-11.7463
與吾	-11.7463
九品	-11.7464
幾經	-11.7465
驀口	-11.7465
於地上	-11.7465
兩片	-11.7466
卓杖	-11.7466
毓	-11.7467
主意	-11.7469
消除	-11.7469
一切境界	-11.7469
尋師	-11.747
於此有省	-11.7472
承聞	-11.7472
普菴	-11.7472
谷口	-11.7474
第三句	-11.7475
入閩	-11.7479
高臺	-11.748
斯乃	-11.7481
祇解	-11.7482
百八	-11.7485
數人	-11.7486
落盡	-11.7486
師擬對	-11.7487
日暮	-11.7487
月光	-11.7489
仰山曰	-11.7489
曰與麼則	-11.749
唯我	-11.749
風景	-11.7493
若不見	-11.7494
忌日	-11.7496
報答	-11.7496
一路涅槃門	-11.7497
滿足	-11.7498
鏁	-11.75
理合	-11.7501
清源	-11.7501
平常心是道	-11.7501
斷腸	-11.7501
我愛	-11.7502
野干鳴	-11.7503
塗糊	-11.7503
遮那	-11.7503
示誨	-11.7503
疏云	-11.7503
歲旦上堂	-11.7505
數千	-11.7507
月半	-11.7507
三百餘會	-11.7507
雞鳴	-11.7508
9	-11.751
相委	-11.7511
證義曰	-11.7512
鶴唳	-11.7512
不唧溜	-11.7513
奚為	-11.7514
同入	-11.7515
則背	-11.7516
真際	-11.7517
夫婦	-11.7517
方名	-11.7519
取舍	-11.7526
的事	-11.7528
一日見	-11.7528
祖師云	-11.7529
辛未	-11.7532
士禮拜	-11.7532
勞勞	-11.7533
不喫	-11.7533
燈明	-11.7534
和尚出世	-11.7534
知幾	-11.7536
迷津	-11.7537
衲僧鼻孔	-11.7538
一義	-11.754
乃謂	-11.754
塵境	-11.7542
一擔	-11.7542
便爾	-11.7544
垢淨	-11.7545
稱性	-11.7545
點點	-11.7546
竪起拂子云	-11.7546
有何祥瑞	-11.7548
呵曰	-11.7549
秤鎚	-11.755
圓音	-11.755
莫嫌	-11.755
我宗無語句	-11.755
忉忉	-11.7552
返觀	-11.7552
刁	-11.7553
應時及節	-11.7553
瓦解冰消	-11.7553
便生	-11.7553
蒙印可	-11.7554
參學事畢	-11.7555
碁	-11.7555
朦朧	-11.7556
辛酉	-11.7558
你試	-11.7559
礪	-11.756
白槌云	-11.756
曰會麼	-11.756
取證	-11.7561
印禪師	-11.7563
覺悟	-11.7563
于中	-11.7563
諸人還知	-11.7565
模範	-11.7566
壬寅	-11.7566
𣗳	-11.7567
有感	-11.7567
盲人	-11.7568
殫	-11.7568
千眼	-11.7569
如何得不	-11.7569
那事	-11.7569
一徑	-11.757
一書	-11.7572
聖云	-11.7573
叢裏	-11.7575
此機	-11.7576
法華經云	-11.7578
白石	-11.7579
落節	-11.7581
相去	-11.7584
那容	-11.7585
承古有言	-11.7587
戒行	-11.7587
而問曰	-11.7589
邊際	-11.7591
道果	-11.7591
經歷	-11.7593
起信論	-11.7594
雨似盆傾	-11.7596
拍一拍	-11.7597
本分草料	-11.7597
當觀時節因緣	-11.7597
畫一畫云	-11.7598
歸何所	-11.7599
打一圓相	-11.7601
送出	-11.7603
不逐四時凋	-11.7603
諸人還見麼	-11.7606
撥動	-11.7606
子韶	-11.7606
利濟	-11.7606
爾若	-11.7606
活潑潑	-11.7606
妍醜	-11.7606
鄮	-11.7606
不相饒	-11.7607
經卷	-11.7607
大會	-11.7608
依俙	-11.7608
躁	-11.761
然非	-11.761
不愁	-11.7611
瞥爾	-11.7613
洵	-11.7613
北方	-11.7614
太殺	-11.7615
悟無生	-11.7615
三十五	-11.7615
深肯之	-11.7616
咄咄咄	-11.7616
訪道	-11.7616
先以	-11.7616
肝腸	-11.7616
無計	-11.7618
這箇道理	-11.7619
未歸	-11.7619
慧光	-11.7619
士問	-11.7623
不逐	-11.7624
華嶽	-11.7626
既到	-11.7627
帝網	-11.7628
第一要	-11.7629
先知	-11.7629
賜紫	-11.7631
何太	-11.7634
買賣	-11.7637
罩	-11.7641
赤水	-11.7642
一目	-11.7642
動則	-11.7643
百日	-11.7646
為什摩	-11.7646
淨躶躶	-11.7646
神明	-11.7647
苗稼	-11.7647
諲	-11.7648
不備	-11.7648
錯下名言	-11.7649
色色	-11.7649
嫂	-11.765
饑來喫飯	-11.765
成功	-11.7651
更若	-11.7652
演出	-11.7652
信入	-11.7652
師拈起	-11.7652
於地	-11.7652
攔胸	-11.7653
分明記取	-11.7653
江頭	-11.7653
迅速	-11.7653
而反	-11.7654
漠漠	-11.7654
失之	-11.7654
鬱鬱	-11.7655
一動一靜	-11.7655
當午	-11.7655
諸大菩薩	-11.7655
裴相國	-11.7655
拿	-11.7657
較之	-11.7658
碧巖	-11.766
功業	-11.7661
池中	-11.7663
一僧曰	-11.7664
靠倒	-11.7665
門裏	-11.7665
幸得	-11.7666
四威儀中	-11.7668
喪盡	-11.7668
大難	-11.7669
如許多	-11.7669
劈破	-11.7672
之憂	-11.7673
一毫頭上	-11.7673
牛兒	-11.7673
底出來	-11.7675
越格	-11.7677
歸山	-11.7678
靈通	-11.7679
之弊	-11.7679
意想	-11.7679
發起	-11.7679
碧眼	-11.7682
張弓	-11.7684
迥然	-11.7684
萬斛	-11.7685
有差別	-11.7685
檀度	-11.7685
雪堂	-11.7686
松門	-11.7687
外人	-11.7688
暗室	-11.7692
丞	-11.7692
死關	-11.7693
法王法如是	-11.7694
或作	-11.7694
久長	-11.7694
萬疊	-11.7694
有什麼過	-11.7695
僧徒	-11.7695
之願	-11.7695
曉來	-11.7696
誰管	-11.7696
吹萬	-11.7697
人境俱不奪	-11.7697
毅	-11.7697
如春	-11.7697
連日	-11.7699
甜瓜徹蒂甜	-11.7699
放憨	-11.77
以拄杖打	-11.7701
知恩報恩	-11.7702
奉旨	-11.7702
耆婆	-11.7703
無夢無想	-11.7704
天柱	-11.7705
無足	-11.7706
莓苔	-11.7706
阿賴耶識	-11.7707
白鷺	-11.7707
經營	-11.7707
俗士	-11.7708
丰	-11.7709
輦	-11.7709
閨	-11.771
惱亂	-11.771
棄去	-11.7711
歉	-11.7712
扃	-11.7714
距	-11.7715
心不是佛	-11.7717
八極	-11.7718
敲門	-11.7718
香飯	-11.7723
歸舉似	-11.7723
雙足	-11.7723
毒龍	-11.7724
從者裏	-11.7725
聽之	-11.7725
如是等	-11.7727
一錢	-11.7727
皇圖	-11.7728
終南	-11.7728
同遊	-11.7729
遍法界	-11.7731
喚醒	-11.7731
鐵橛	-11.7732
五逆	-11.7732
玅喜	-11.7734
淡薄	-11.7735
仁禪師	-11.7735
咬破	-11.7736
薄福	-11.7736
應難	-11.7737
鐵山	-11.774
不相知	-11.774
第二頭	-11.7743
天女	-11.7743
勢至	-11.7744
▁序	-11.7746
無去無來	-11.7747
紫氣	-11.7747
說心說性	-11.7748
三十三天	-11.7749
付法偈曰	-11.7749
旨明	-11.7749
斟酌	-11.7749
無厭	-11.775
蹊	-11.7751
平地起	-11.7751
皺眉	-11.7752
不相似	-11.7752
依正	-11.7752
策杖	-11.7755
佯	-11.7756
誚	-11.7756
湍	-11.7756
泓	-11.7757
居常	-11.7757
祝壽	-11.7757
驗人	-11.776
你且	-11.7761
古人公案	-11.7762
而巳矣	-11.7763
處世	-11.7763
秋來	-11.7764
篋	-11.7765
實語	-11.7766
佛印元	-11.7766
掃塔	-11.7767
辭歸	-11.7767
一輪明月	-11.7771
非干	-11.7773
火光	-11.7775
鐵石	-11.7775
之塔	-11.7779
副寺	-11.7779
聞雷	-11.7779
月印	-11.7779
婦人	-11.778
答處	-11.7781
非他	-11.7781
藥石	-11.7781
聲中	-11.7782
汝試	-11.7783
寂默	-11.7783
一息	-11.7784
為法門	-11.7785
一炷香	-11.7786
推窮	-11.7786
來年	-11.7788
法門之	-11.7788
脫盡	-11.7788
五六	-11.7789
雷電	-11.779
豈敢	-11.779
諸苦	-11.7791
其數	-11.7793
日暖	-11.7793
死灰	-11.7793
大圓鏡	-11.7796
大闡	-11.7796
墮坑落塹	-11.7797
千七百	-11.7797
三軍	-11.7797
向下文長	-11.7797
大慧杲	-11.7797
迅雷	-11.7798
垛	-11.7798
閫	-11.7798
殃及	-11.7799
遑	-11.7799
淨光	-11.78
此是選佛場	-11.78
行狀	-11.7801
薛	-11.7802
珠走盤	-11.7804
前村	-11.7804
叵耐	-11.7804
莎	-11.7804
六種	-11.7805
慶快平生	-11.7805
篁	-11.7806
魔魅	-11.7806
泉聲	-11.7807
閻羅王	-11.7807
杉	-11.7808
關捩	-11.7809
遨遊	-11.7809
蕪	-11.7809
蘚	-11.781
精微	-11.7811
砥柱	-11.7812
於天下	-11.7812
拈杖	-11.7812
老倒	-11.7813
前問訊	-11.7814
問其故	-11.7814
俯仰	-11.7815
前境	-11.7816
心腸	-11.7816
赫日	-11.7817
難測	-11.7818
師便禮拜	-11.7819
有日在	-11.7819
笠子	-11.782
境上	-11.782
妙相	-11.7821
九曲	-11.7822
一大事	-11.7822
湧出	-11.7823
遷流	-11.7824
今何在	-11.7825
鐵面	-11.7826
新戒	-11.7826
九州	-11.7827
何殊	-11.7829
忽悟	-11.7829
秀水	-11.783
靈龜	-11.7832
至夜	-11.7835
一箇箇	-11.7837
一件	-11.7838
無色	-11.7842
矮	-11.7843
每每	-11.7844
不越	-11.7844
火聚	-11.7844
一朵	-11.7846
參詳	-11.7849
甘心	-11.785
利名	-11.785
零落	-11.785
明甚麼邊事	-11.785
有物先天地	-11.785
眼光落地	-11.7851
三十四	-11.7851
焉得	-11.7852
忘懷	-11.7852
拈香祝聖畢	-11.7853
之道也	-11.7853
火坑	-11.7854
毒鼓	-11.7855
拓開	-11.7857
餉	-11.7857
袒	-11.7859
萬籟	-11.7859
亙古	-11.7859
心田	-11.7859
遘	-11.7861
拳拳	-11.7861
木頭	-11.7861
全提正令	-11.7861
帝云	-11.7862
一枚	-11.7863
禪師徑山	-11.7865
記之	-11.7865
讒	-11.7865
旁出	-11.7866
中竺	-11.7868
點胸	-11.7868
是伊	-11.7869
深心	-11.7869
賀太平	-11.7869
甕裏	-11.787
輕安	-11.787
辛巳	-11.7871
居士請	-11.7871
鋤頭	-11.7871
東村	-11.7873
日裏	-11.7876
歌舞	-11.7876
窮盡	-11.7877
聚落	-11.7877
園中	-11.7879
白佛言	-11.7879
不識字	-11.788
拍禪床	-11.7882
貴乎	-11.7883
隔江	-11.7883
五百生	-11.7885
五彩	-11.7886
薑	-11.7886
張氏	-11.7887
正當今日	-11.7888
六國	-11.7888
開口不得	-11.7888
通身是口	-11.7889
料理	-11.7889
無孔	-11.7889
也須是	-11.789
抵對	-11.7894
雲門因僧問	-11.7894
祖祖	-11.7895
不遺	-11.7896
順世	-11.7897
所集	-11.7897
向上向下	-11.7898
三種病人	-11.7898
暄	-11.7898
長慶稜	-11.7899
一句又作麼生道	-11.79
當面蹉過	-11.79
黑似漆	-11.7901
臺山路	-11.7901
不顧危亡	-11.7902
懵懂	-11.7902
瑜伽	-11.7903
異常	-11.7903
事事無礙	-11.7903
攪長河為酥酪	-11.7904
四山	-11.7905
豔	-11.7905
灑灑落落	-11.7905
南泉斬貓	-11.7906
醻	-11.7906
等語	-11.7907
檜	-11.7907
又能	-11.7907
曝	-11.7908
廬陵	-11.7908
卷上	-11.7909
葩	-11.7909
堅請	-11.7909
天親	-11.7909
而往	-11.791
甲午	-11.7913
後聞	-11.7913
比量	-11.7915
那一通	-11.7915
舉措	-11.7916
吹滅	-11.7917
依倚	-11.7918
入虎穴	-11.7918
嵗	-11.7919
打圓相云	-11.7919
知去處	-11.7919
樞密	-11.792
為首座	-11.7921
法眷	-11.7921
光耀	-11.7922
雨後	-11.7923
措足	-11.7923
大小德山	-11.7923
半載	-11.7923
便謂	-11.7926
海舟	-11.7928
臨際	-11.7929
仞	-11.7931
更向	-11.7931
眼耳	-11.7932
星月	-11.7933
未審和尚如何	-11.7933
十數	-11.7934
不執	-11.7935
便恁麼去時如何	-11.7936
作家宗師	-11.7937
而應	-11.7938
三代	-11.7938
不得草草	-11.7938
手持	-11.7939
龍蟠	-11.7941
之辭	-11.7941
師前	-11.7942
恁麼會得	-11.7943
所宜	-11.7943
之患	-11.7943
非止	-11.7943
受具戒	-11.7944
同流	-11.7945
業緣	-11.7948
不較多	-11.795
阿僧祇	-11.795
火發	-11.7953
大年	-11.7953
沐浴更衣	-11.7954
實非	-11.7955
百萬人天	-11.7955
知痛癢	-11.7955
胃	-11.7956
百餘年	-11.7956
滾	-11.7956
不直	-11.7957
片石	-11.7957
除夕小參	-11.7958
聘	-11.7958
正覺逸	-11.7958
不知誰	-11.7959
吹落	-11.796
有旨	-11.796
嘉聲	-11.796
般若多羅	-11.7961
磨云	-11.7962
如何話會	-11.7962
把將	-11.7963
大千世界	-11.7964
不可言	-11.7965
吾祖	-11.7966
為甚麼如此	-11.7966
四禪	-11.7966
摹	-11.7967
煙塵	-11.7967
書寫	-11.7969
裝香	-11.797
千仞	-11.797
子細看	-11.7971
趙州因僧問	-11.7972
黃山	-11.7973
不可更	-11.7973
海東	-11.7973
迎之	-11.7973
擲下拄杖云	-11.7974
希奇	-11.7975
挂角	-11.7975
平人	-11.7975
謂我	-11.7975
唐言	-11.7976
藥病	-11.7977
實證	-11.7977
奉全身	-11.7981
簷前	-11.7983
心思	-11.7985
衣裳	-11.7986
燕語	-11.7986
幾句	-11.7988
掃盡	-11.7988
高提	-11.7988
句裏	-11.7989
三諦	-11.7989
長養	-11.799
師忽	-11.799
授之	-11.7995
真切	-11.7995
頂𩕳上	-11.7997
無疾	-11.7997
僧問如何是佛	-11.7997
大悲千手眼	-11.7998
行布	-11.7998
見得徹	-11.7999
魚行	-11.8
倜儻分明	-11.8
難道	-11.8
明如日	-11.8001
無異路	-11.8001
錦江	-11.8002
徹骨徹髓	-11.8003
滴水滴凍	-11.8003
趍	-11.8005
明鏡當臺	-11.8005
不辯	-11.8006
鴛湖	-11.8008
站	-11.8009
衣拂	-11.8009
元宵上堂	-11.8009
汩	-11.801
個漢	-11.8011
旵	-11.8011
百草頭上	-11.8013
永固	-11.8014
喜怒哀樂	-11.8017
五臺山	-11.8017
州人也	-11.8018
萬菴	-11.8019
祇管	-11.802
詩曰	-11.802
了卻	-11.802
一切世間	-11.802
杖云	-11.8023
病中	-11.8024
蘇之	-11.8024
香餌	-11.8024
何更	-11.8025
固非	-11.8025
閉關	-11.8026
巡寮	-11.8026
誠為	-11.8027
坐斷十方	-11.8027
跟	-11.8027
全收	-11.8028
穴曰	-11.8028
照燭	-11.8029
好處	-11.8029
測度	-11.803
尚自	-11.803
難成	-11.8033
性地	-11.8034
千波	-11.8034
圭峰	-11.8035
十八年	-11.8035
著到	-11.8037
執持	-11.8037
踏遍	-11.8037
天啟	-11.8038
梅華	-11.8038
諷	-11.8038
細雨	-11.8038
古帆	-11.8039
不展	-11.804
天香	-11.804
田園	-11.8041
續燈	-11.8043
貴圖	-11.8047
常侍	-11.8047
此病	-11.8048
等覺	-11.8049
罪性	-11.805
遍歷	-11.805
能持	-11.8051
古林	-11.8053
般若波羅蜜	-11.8054
有甚長處	-11.8054
五里	-11.8055
不奈	-11.8055
所貴	-11.8056
宗門中	-11.8056
血氣	-11.8058
若是箇	-11.8058
戊辰	-11.8059
捩轉	-11.8059
大觀	-11.806
兜	-11.806
落日	-11.8061
禪關	-11.8061
並行	-11.8061
而不為	-11.8062
猶恐	-11.8062
贍	-11.8063
碧空	-11.8064
遂陞座	-11.8066
浪裏	-11.8066
覓心	-11.8066
讚曰	-11.8067
孚上座	-11.8067
那一句	-11.8068
峨眉	-11.807
黃泉	-11.8072
總成	-11.8072
寮舍	-11.8074
無生曲	-11.8075
無高下	-11.8075
相共	-11.8076
韜光	-11.8076
夜光	-11.8076
蠟	-11.8077
連城	-11.8078
老夫	-11.808
山僧拄杖子	-11.8081
白日青天	-11.8081
聖躬	-11.8082
高峰妙	-11.8084
過一邊	-11.8084
尖新	-11.8086
侍者請	-11.8086
祖位	-11.8087
雪滿	-11.809
片雪	-11.8091
疑猜	-11.8092
閩王	-11.8095
師頌曰	-11.8095
雲居錫云	-11.8097
遙望	-11.8097
殃及兒孫	-11.8097
外緣	-11.8098
為何事	-11.8099
掘地	-11.81
曇花	-11.81
久雨不晴	-11.8101
蠢動含靈	-11.8101
放下也	-11.8103
十一年	-11.8103
微言	-11.8104
孟春猶寒	-11.8105
繫驢橛	-11.8105
信根	-11.8105
壁間	-11.8105
佛制	-11.8106
大地撮來	-11.8106
產難	-11.8106
菩提達磨	-11.8106
霸	-11.8107
隱於	-11.8107
肯之	-11.8107
滄洲	-11.8109
大慧禪師	-11.8109
無邊剎海	-11.8109
一百二十	-11.811
塗污	-11.811
僧出禮拜	-11.8113
人人本具	-11.8113
踐履	-11.8114
臆	-11.8114
要且無	-11.8115
廬陵米價	-11.8115
復喝一喝	-11.8115
鼾	-11.8115
得力句	-11.8117
利劍	-11.8119
根深	-11.812
理性	-11.8122
夏日	-11.8122
冗	-11.8122
低聲	-11.8124
被我	-11.8124
舒光	-11.8124
阿鼻	-11.8125
萊	-11.8125
名聞	-11.8125
皎月	-11.8125
沒奈何	-11.8126
邪魔	-11.8127
禪師云	-11.8128
丁未	-11.8132
眼豁開	-11.8132
福建	-11.8133
復歸	-11.8134
幸自	-11.8134
八歲	-11.8136
有司	-11.8138
倚天	-11.8139
動步	-11.8139
乃爾	-11.8141
豈同	-11.8141
輟	-11.8142
曰恁麼即	-11.8143
為極則	-11.8143
其機	-11.8147
丁卯	-11.8148
識神	-11.8151
赤子	-11.8152
說何法	-11.8153
不唧𠺕	-11.8153
合取狗口	-11.8153
臈	-11.8153
何不向	-11.8154
籮	-11.8155
原非	-11.8155
契經	-11.8156
皆歸	-11.8157
畫一畫	-11.8158
娠	-11.8158
十法界	-11.8158
若到諸方	-11.8159
堂司行者	-11.816
赴堂	-11.816
業力	-11.8161
之暇	-11.8161
濵	-11.8161
脾	-11.8163
謝事	-11.8163
乙酉	-11.8163
無妄	-11.8163
大功	-11.8163
多寶	-11.8164
踪跡	-11.8165
西南	-11.8165
觸禮一拜	-11.8166
與物	-11.8166
轡	-11.8166
卓杖云	-11.817
天邊月	-11.817
是第幾	-11.8171
知己	-11.8171
臘五十	-11.8173
當場	-11.8173
作個	-11.8173
侍司	-11.8174
柳絮	-11.8176
常見	-11.8177
綠陰	-11.8178
水聲	-11.8179
徹困	-11.818
流落	-11.8181
神珠	-11.8183
參學人	-11.8185
少間	-11.8186
一杯	-11.8186
金玉	-11.8186
更欲	-11.8187
遺風	-11.819
蠟人	-11.819
僧又問	-11.8194
振起	-11.8195
為什麼如此	-11.8197
只圖	-11.8197
女身	-11.8197
還有人道得麼	-11.8202
入地	-11.8203
畫圖	-11.8204
東海鯉魚打一棒	-11.8205
苟或未然	-11.8206
皆能	-11.8206
設若	-11.8207
主持	-11.8208
一飽	-11.8208
呵佛罵祖	-11.8209
難提	-11.8209
遺書	-11.821
汝輩	-11.8211
有般漢	-11.8211
重光	-11.8211
不昧因果	-11.8215
豎拄杖云	-11.8215
棟梁	-11.8216
寤寐	-11.8216
賞罰	-11.8216
3	-11.8217
乙丑	-11.8217
理會得	-11.8219
虎狼	-11.8219
正當恁麼時如何	-11.822
君看	-11.8221
煇	-11.8222
向外求	-11.8223
囑付	-11.8224
毘盧頂上	-11.8224
即應	-11.8224
劃斷	-11.8224
家醜	-11.8224
拽拄杖	-11.8225
五燈	-11.8226
等法	-11.8229
隻手	-11.8229
白佛	-11.8229
之殊	-11.8229
眨	-11.8232
垢衣	-11.8233
石鼓	-11.8233
這回	-11.8234
芻	-11.8234
忽起	-11.8237
用底	-11.8238
學佛法	-11.8239
總不出	-11.8241
蒼生	-11.8241
國師三喚侍者	-11.8246
打鐘	-11.8246
師便掌	-11.8247
相照	-11.8247
古人恁麼道	-11.8248
舉似師	-11.8251
開合	-11.8251
脫或	-11.8256
到者裡	-11.8257
風颯颯	-11.8257
人人盡有	-11.8259
洞山道	-11.8259
唯唯	-11.826
九旬禁足	-11.826
師展兩手	-11.826
高挂	-11.8261
通身是眼	-11.8261
覺來	-11.8261
喜怒	-11.8262
如彼	-11.8263
穽	-11.8263
甚矣	-11.8265
恁般	-11.8266
狂風	-11.8266
聦	-11.8266
松源岳	-11.8266
塔樣	-11.8266
明心見性	-11.8267
頰	-11.8267
常寂光	-11.8268
佛燈珣	-11.8269
氈	-11.8269
虗明	-11.8269
崎嶇	-11.8269
畣	-11.8269
匆匆	-11.827
真誠	-11.827
便作禮	-11.8271
退一步	-11.8271
漸源	-11.8271
天台山	-11.8272
石田	-11.8273
行李	-11.8274
自適	-11.8275
閻浮提	-11.8276
佛性泰	-11.8277
一蹋	-11.8277
若道無	-11.8279
睡著	-11.8279
觀照	-11.828
急著眼	-11.828
出定	-11.8283
小釋迦	-11.8285
奉詔	-11.8287
乳峰	-11.8288
一爐	-11.8288
放你	-11.8289
常光	-11.829
興陽	-11.829
萬類	-11.8291
法眼益	-11.8292
玉女	-11.8292
什處	-11.8292
之域	-11.8294
高聲云	-11.8295
月圓	-11.8299
彼彼	-11.8299
啟建	-11.8302
趺	-11.8302
滿口道	-11.8303
第一不得	-11.8303
司空	-11.8303
任君	-11.8303
英靈漢	-11.8304
報本	-11.8304
偏位	-11.8305
最苦	-11.8306
這話	-11.8307
兩錯	-11.831
經書	-11.8311
十二分教	-11.8312
琅邪	-11.8312
柱石	-11.8312
止止不須說	-11.8313
巖畔	-11.8314
具擇法眼	-11.8314
皆名	-11.8314
大教	-11.8314
齋戒	-11.8314
稱善	-11.8316
窣堵	-11.8316
蟹	-11.8316
伏龍	-11.8317
楫	-11.8317
甑	-11.8318
襖	-11.8318
蠲	-11.8318
瘥	-11.8319
學人未曉	-11.8319
言思	-11.8319
閃爍	-11.832
信州	-11.832
眩	-11.832
臺前	-11.8321
抖	-11.8322
性燥	-11.8322
邸	-11.8322
匠人	-11.8323
大地平沉	-11.8323
蹙	-11.8323
恰值	-11.8324
年十九	-11.8325
擬問	-11.8325
者個是	-11.8326
三寸舌	-11.8326
師又問	-11.8326
合成	-11.8327
霛	-11.8328
王侯	-11.8329
有長處	-11.8331
住庵	-11.8331
翠巖真	-11.8332
塵寰	-11.8332
不殊	-11.8333
嘉靖	-11.8333
春到	-11.8336
花鳥	-11.8337
不與萬法為侶	-11.8339
世尊良久	-11.834
辨得出	-11.834
妄執	-11.834
潮音	-11.8342
松聲	-11.8342
魔說	-11.8344
月朗	-11.8345
恁麼舉	-11.8346
賊賊	-11.8348
尖頭	-11.8349
舉古	-11.835
出來道看	-11.835
本無心	-11.835
悔過	-11.8352
經典	-11.8352
無舌	-11.8352
告香	-11.8358
太過	-11.8359
露滴	-11.8361
方成	-11.8361
一葦	-11.8362
會不會	-11.8363
帶月	-11.8363
解夏小參	-11.8363
手裡	-11.8363
明眼人前	-11.8363
珣	-11.8365
言語道斷	-11.8366
震聲一喝	-11.8366
嫡子	-11.8366
密語	-11.8367
脛	-11.8369
絕後再甦	-11.8369
誰與	-11.837
勿論	-11.837
聵	-11.8372
祖意西來	-11.8373
因甚却	-11.8373
供奉	-11.8373
擺手	-11.8373
後架	-11.8374
忌辰	-11.8374
庚辰	-11.8374
念頭	-11.8374
大洋海底	-11.8374
巳上二人	-11.8378
十虗	-11.8378
霍	-11.8379
應身	-11.838
師便打乃云	-11.838
雛	-11.838
滄浪	-11.8381
麤心	-11.8381
緫	-11.8381
文王	-11.8381
又恐	-11.8382
白骨	-11.8382
不相到	-11.8383
究心	-11.8384
雞啼	-11.8384
枕頭	-11.8384
要使	-11.8385
陽曰	-11.8385
米胡	-11.8387
流浪	-11.8388
崑山	-11.8391
生靈	-11.8394
竪拂	-11.8399
現出	-11.8402
刀山	-11.8402
要且未	-11.8402
吸盡	-11.8402
托出	-11.8403
千斤	-11.8404
全該	-11.8404
湖光	-11.8405
幾處	-11.8405
惟冀	-11.8407
木馬嘶	-11.8409
四卷	-11.841
修造	-11.841
之象	-11.8411
必要	-11.8413
叶	-11.8413
一日入室	-11.8415
厥後	-11.8415
遍計	-11.8415
務要	-11.8416
鍬子	-11.8416
永斷	-11.8417
退身三步	-11.8418
透長安	-11.8418
出水後如何	-11.8418
蜆	-11.8419
一理	-11.842
憐兒不覺醜	-11.842
詶	-11.8421
歛衣就座	-11.8421
打地	-11.8421
道契	-11.8421
功能	-11.8421
巖中	-11.8422
墮地獄	-11.8422
可稱	-11.8422
師又曰	-11.8422
栗棘	-11.8423
無彼此	-11.8423
乙卯	-11.8424
冤親	-11.8424
轉身吐氣	-11.8425
癸酉	-11.8425
乾坤之內	-11.8426
嗚	-11.8426
名色	-11.8427
鯤	-11.8428
煦	-11.8428
未形	-11.8428
隄	-11.8429
凌空	-11.843
普現	-11.843
動止	-11.843
劍刃上	-11.843
頓見	-11.8431
嵯峨	-11.8431
姦	-11.8432
三百六十	-11.8433
拼	-11.8433
蝸	-11.8433
狂瀾	-11.8433
林木	-11.8434
罔象	-11.8434
年月日	-11.8435
蕃	-11.8435
髑髏前	-11.8435
玄中	-11.8436
四果	-11.8437
可悲	-11.8438
後念	-11.8441
陀羅	-11.8446
▁卷第十	-11.8447
億劫	-11.8448
默坐	-11.8448
聞鐘聲	-11.8448
本來清淨	-11.8449
有待	-11.845
踞地獅子	-11.845
罔知	-11.845
從來無	-11.8451
諸法空	-11.8456
在握	-11.8456
余云	-11.8457
窮子	-11.8457
二千	-11.8457
寶蓋	-11.8458
亦無所	-11.8458
調達	-11.8461
空印	-11.8462
閒坐	-11.8462
努	-11.8463
拈香曰	-11.8465
大智慧	-11.8469
以拂子擊禪牀	-11.8469
祖曰汝	-11.8469
不識羞	-11.847
兩行	-11.847
年十五	-11.847
還有麼	-11.8472
不竭	-11.8472
隻履西歸	-11.8472
有甚交涉	-11.8474
多子塔前	-11.8474
腳踏	-11.8475
好大哥	-11.8475
清眾	-11.8475
具有如來智慧德相	-11.8476
冰消瓦解	-11.8476
無下手處	-11.8476
一尊	-11.8476
波羅密	-11.8478
耻	-11.8478
簣	-11.8479
三聖道	-11.8479
蝴蝶	-11.8479
乙亥	-11.8479
回來	-11.848
雞足	-11.8481
有過無過	-11.8481
水裏	-11.8482
本來空	-11.8484
陳公	-11.8484
與奪	-11.8484
輔弼	-11.8484
笑指	-11.8485
穹	-11.8485
廣說	-11.8487
一口吞	-11.8487
賓中主	-11.8488
侄	-11.8488
籬邊	-11.8489
總未	-11.8489
相交	-11.849
一毛孔	-11.849
形相	-11.8491
不換	-11.8491
有頌曰	-11.8493
賢禪師	-11.8493
剖露	-11.8494
聽得	-11.8494
許誰	-11.8495
狀元	-11.8496
若信得及	-11.8497
普潤	-11.8498
今復	-11.8499
高枕	-11.8499
雪霜	-11.8499
泰首座	-11.8499
十二因緣	-11.85
靈靈	-11.85
紅蓮	-11.8502
火把	-11.8502
所致	-11.8502
增輝	-11.8503
千萬里	-11.8507
不肯住	-11.8508
相宜	-11.8509
律儀	-11.8509
玄風	-11.8509
那許	-11.8515
被者僧	-11.8515
識病	-11.8517
無敢	-11.8517
年十二	-11.8521
教授	-11.8521
何哉	-11.8522
而愈	-11.8522
八千	-11.8523
十方虗空	-11.8524
悲智	-11.8525
寒色	-11.8525
不祥	-11.8525
揚聲	-11.8526
瓊樓玉殿	-11.8526
還有佛法也無	-11.8527
遂令	-11.8527
點撿	-11.8527
相許	-11.8528
職事	-11.8528
捲簾	-11.8528
俊鶻	-11.8529
還識得	-11.8529
與汝道	-11.8529
磊	-11.853
江西湖南	-11.853
停機	-11.853
艶	-11.853
翻然	-11.8531
钁頭邊	-11.8531
舶	-11.8531
噁	-11.8532
嚴曰	-11.8533
父母所生	-11.8534
佛名	-11.8534
羲	-11.8534
牖	-11.8534
洞宗	-11.8537
㕘	-11.8537
澹泊	-11.8538
斬蛇	-11.8539
宣說	-11.8539
半點	-11.854
如愚	-11.8541
開福	-11.8541
聿	-11.8541
皇上	-11.8543
異端	-11.8543
行坐	-11.8545
趾	-11.8546
到這裡	-11.8547
冷淡	-11.8547
諸比丘	-11.8548
但向他道	-11.8549
多言	-11.8553
無根樹	-11.8553
一手指天	-11.8555
達士	-11.8558
金臺	-11.8563
機契	-11.8563
惡口	-11.8564
兼中至	-11.8565
聚散	-11.8565
百步	-11.8567
明上座	-11.857
普利	-11.857
靈臺	-11.857
亡僧遷化	-11.8575
指揮	-11.8576
洞達	-11.8576
名德	-11.8577
一千五百人善知識	-11.8578
朝暮	-11.8578
解粘去縛	-11.8578
猶未是	-11.858
增上慢	-11.8581
近時	-11.8581
卻成	-11.8582
此事如	-11.8582
鑊	-11.8583
仁王	-11.8584
赤骨	-11.8586
不是好心	-11.8586
應如是	-11.8586
啐	-11.8587
然燈佛	-11.8587
說不到	-11.8587
名剎	-11.8587
諗	-11.8587
庠	-11.8588
瘳	-11.8589
從何起	-11.8589
幃	-11.859
行解相應	-11.859
正知見	-11.8591
頹綱	-11.8591
三世諸佛歷代祖師	-11.8592
畢竟如何是	-11.8592
狎	-11.8594
行脚僧	-11.8595
掛搭	-11.8596
諸剎	-11.8597
曰見後如何	-11.8597
功位	-11.86
年十七	-11.86
高賢	-11.8601
實悟	-11.8601
浮屠	-11.8601
欽禪師	-11.8602
祗如	-11.8602
紅葉	-11.8603
從上來事	-11.8603
夜雨	-11.8603
中邑	-11.8603
劃一劃云	-11.8603
四五	-11.8604
清風明月	-11.8605
否則	-11.8605
塔前	-11.8606
青山綠水	-11.8607
高座	-11.8609
利鈍	-11.8609
不覩	-11.8612
佛弟子	-11.8612
問疾	-11.8612
乃召	-11.8613
擊之	-11.8614
罪業	-11.8616
肇論	-11.8621
煥然	-11.8622
殊途	-11.8622
女曰	-11.8622
昇平	-11.8623
也不難	-11.8623
汗出	-11.8624
帝問	-11.8627
最親	-11.8627
笑他	-11.8627
片月	-11.8628
老賊	-11.8629
情解	-11.863
三七日	-11.863
直向	-11.8631
法眼別云	-11.8632
信受奉行	-11.8633
十方佛	-11.8633
豈不快哉	-11.8633
大器	-11.8634
衝開	-11.8634
鵓鳩	-11.8635
六六三十六	-11.8635
事無一向	-11.8637
師拈拄杖云	-11.8637
本自圓成	-11.8637
有人道得	-11.8638
光燦爛	-11.8639
前念	-11.8641
摺	-11.8641
獘	-11.8641
澀	-11.8642
崗	-11.8643
方許	-11.8643
詭	-11.8643
直令	-11.8644
百草頭	-11.8644
壞不壞	-11.8644
白蘋	-11.8644
複	-11.8645
庚戌	-11.8646
點地	-11.8646
蟠龍	-11.8647
倒斷	-11.8647
拍掌	-11.8648
熒	-11.8649
非他物	-11.8649
㱕	-11.865
一心不生	-11.8651
閉目	-11.8652
所以者何	-11.8652
捷徑	-11.8652
若也見得	-11.8654
隊裏	-11.8655
不彰	-11.8657
走出	-11.8659
不凡	-11.866
亂做	-11.866
得便宜	-11.8662
一日忽	-11.8663
走過	-11.8664
換骨	-11.8664
垂釣	-11.8664
在面前	-11.8665
把捉	-11.8666
度夏	-11.8666
慈恩	-11.8666
臨江	-11.8667
殿前	-11.8668
只這是	-11.8668
首肯	-11.8669
實義	-11.867
唐宋	-11.867
不得喚作	-11.8671
拈起拄杖	-11.8671
師無語	-11.8671
徧歷	-11.8673
金剛般若	-11.8674
取相	-11.8675
而為之	-11.8675
兩家	-11.8676
貧衲	-11.868
達磨面壁	-11.8682
能破	-11.8683
犀牛	-11.8683
賊過後張弓	-11.8684
只緣	-11.8684
海外	-11.8685
廣陵	-11.8686
西瞿耶尼	-11.8687
細細	-11.8687
市廛	-11.8687
苦辛	-11.8688
復誰	-11.8688
愚菴盂云	-11.8688
忽被	-11.8688
遍界不曾藏	-11.8689
從這裏	-11.869
益州馬腹脹	-11.8691
四月八	-11.8691
折脚鐺	-11.8691
倐	-11.8692
主賓互換	-11.8692
箱	-11.8692
兩彩一賽	-11.8693
寨	-11.8693
捻	-11.8693
勤舊	-11.8693
豈獨	-11.8694
一棒一條痕	-11.8695
闍	-11.8696
乘興	-11.8696
沫	-11.8697
堆中	-11.8697
哄	-11.8697
利他	-11.8697
杪	-11.8699
釀	-11.8701
佛心才	-11.8701
押	-11.8701
流沙	-11.8702
纔起	-11.8702
大嶺	-11.8702
蹶	-11.8703
禎	-11.8703
致書	-11.8703
霜花	-11.8704
得遇	-11.8705
會元	-11.8705
請問和尚	-11.8706
荷澤	-11.8707
試為	-11.8708
喚來	-11.8708
起坐	-11.871
病苦	-11.8713
永絕	-11.8714
如虎	-11.8715
法身無相	-11.8715
作家相見	-11.8716
窮源	-11.8719
蘆華	-11.8719
何假	-11.872
浦云	-11.872
迴光	-11.8722
大疑	-11.8723
裴休	-11.8723
晏坐	-11.8724
本懷	-11.8725
馬頭	-11.8725
未委	-11.873
勤修	-11.873
何不早	-11.8731
無罪	-11.8733
師拈拄杖	-11.8733
切勿	-11.8733
鑑禪師	-11.8734
玉石	-11.8735
師無對	-11.8736
之儀	-11.8736
向南方	-11.8737
標榜	-11.874
互用	-11.8742
慧眼	-11.8743
汝身	-11.8743
沒可把	-11.8743
殿後	-11.8744
乞師方便	-11.8744
平時	-11.8745
無令斷絕	-11.8745
知恩者少	-11.8745
清溪	-11.8746
老趙州	-11.8747
八十一	-11.8748
清虛	-11.8749
建寧	-11.8749
今辰	-11.8749
兩堂首座	-11.8749
蟠	-11.8749
從何處來	-11.8749
雨華	-11.8751
又恁麼去也	-11.8751
通個消息	-11.8752
劵	-11.8752
䟽	-11.8752
樂昇平	-11.8752
隕	-11.8752
底消息	-11.8753
庚午	-11.8755
拍盲	-11.8755
百事	-11.8755
千林	-11.8755
瀰	-11.8756
慈父	-11.8757
此一心	-11.8758
十惡	-11.8759
便覺	-11.876
五須彌	-11.8761
威權	-11.8763
免使	-11.8763
做處	-11.8764
凜然	-11.8766
馬嘶	-11.8767
萬邦	-11.8767
無愧	-11.8768
懷中	-11.8769
無想	-11.8769
西乾	-11.877
也難得	-11.8771
須用	-11.8773
親疎	-11.8774
僧便出	-11.8775
割愛	-11.8777
不相離	-11.8778
阿那箇	-11.8781
物格	-11.8782
廚庫	-11.8783
百草	-11.8784
本願	-11.8784
起立	-11.8784
佛祖之道	-11.8785
許多般	-11.8785
亦不曾	-11.8786
得其用	-11.8788
古佛心	-11.8789
一手指地	-11.879
慈母	-11.8792
飲者如何	-11.8792
固辭	-11.8793
先哲	-11.8793
汝欲	-11.8794
渡河	-11.8794
髮白	-11.8794
吐却	-11.8794
五天	-11.8794
紛然	-11.8795
章句	-11.8796
舉一不得舉二	-11.8797
中有一寶	-11.8798
半年	-11.8798
許多時	-11.8798
居何國土	-11.8799
從朝至暮	-11.8799
自代曰	-11.8799
覓心了不可得	-11.88
傾湫倒嶽	-11.88
對機	-11.88
金色頭陀	-11.8801
壅	-11.8802
破家	-11.8802
怗	-11.8803
傘	-11.8804
二三子	-11.8804
登臨	-11.8804
昏昏	-11.8806
冷灰	-11.8807
絳	-11.8807
未斷	-11.8807
得失是非	-11.8807
赤腳	-11.8808
郁	-11.8809
谿山	-11.8809
8	-11.8809
邂逅	-11.8809
▁小參	-11.8809
箇入路	-11.8811
唯識論	-11.8811
五根	-11.8812
自許	-11.8812
藪	-11.8813
三藏十二部	-11.8813
甲辰	-11.8813
落二三	-11.8814
蕨	-11.8814
▁△	-11.8814
未久	-11.8815
如箭	-11.8815
忠禪師	-11.8822
渴飲	-11.8824
摩訶般若波羅蜜	-11.8825
舊時人	-11.8825
研窮	-11.8825
第一機	-11.8827
王化	-11.883
梵網	-11.8831
現今	-11.8832
一瓣香	-11.8832
激發	-11.8832
如癡	-11.8832
告寂	-11.8833
著賊	-11.8836
南嶽讓	-11.8836
只說	-11.8836
所惑	-11.8837
終成	-11.8838
首參	-11.8841
師拈棒	-11.8841
怎得	-11.8841
堂主	-11.8841
辨取	-11.8842
却將	-11.8842
話墮也	-11.8844
全歸	-11.8844
累他	-11.8847
皆不契	-11.8848
習禪	-11.8849
坐斷天下人舌頭	-11.885
禪師天童	-11.8851
南宗	-11.8853
出一隻手	-11.8854
慙	-11.8854
雲峰悅	-11.8854
大庾嶺頭	-11.8854
脩行	-11.8855
思想	-11.8855
師姑	-11.8855
你無拄杖子	-11.8855
雖復	-11.8855
興化道	-11.8856
毗盧遮那	-11.8856
背覺合塵	-11.8857
迎請	-11.8857
鷓鴣啼	-11.8858
禪教	-11.8858
辛勤	-11.8859
窗前	-11.8859
啟口	-11.886
金剛寶劍	-11.886
眎	-11.8861
時有僧出禮拜	-11.8861
天氣	-11.8861
萬方	-11.8862
辛卯	-11.8863
4	-11.8863
拈拄杖卓一下	-11.8863
叛	-11.8865
當家	-11.8865
渾家	-11.8866
箇中消息	-11.8866
廣州	-11.8866
禪寺住持	-11.8866
斬斷	-11.8866
必死	-11.8867
液	-11.8868
与	-11.8868
寂然不動	-11.8869
所修	-11.8869
名甚麼	-11.887
不許人	-11.887
光吞萬象	-11.8871
放下拂子	-11.8872
滿庭	-11.8872
逼拶	-11.8873
給侍	-11.8875
城南	-11.8876
說偈云	-11.8878
慶喜	-11.8878
大光明藏	-11.8879
坐夏	-11.888
無邊際	-11.8881
佛法世法	-11.8882
紙錢	-11.8882
正脉	-11.8882
也在我	-11.8883
露箇消息	-11.8884
向十字街頭	-11.8884
老僧罪過	-11.8885
閱世	-11.8885
姓名	-11.8886
所習	-11.8886
鼓腹	-11.8888
歸院	-11.8888
樵子	-11.8888
本來心	-11.8888
圓覺經	-11.8889
薦嚴	-11.8891
福城	-11.8893
倘或	-11.8894
不省	-11.8895
承事	-11.8895
先君	-11.8896
世出世法	-11.8896
新鮮	-11.8898
雷奔	-11.8902
唯我獨尊	-11.8904
若是山僧	-11.8905
深遠	-11.8906
放你三十棒	-11.8907
學人乍入叢林	-11.8907
香氣	-11.8908
旛動	-11.8908
㖿	-11.8909
一箭射	-11.891
直截根源	-11.8911
赤心片片	-11.8911
是有是無	-11.8911
電光石火	-11.8912
油餈	-11.8912
一棒打殺與狗子喫	-11.8913
薙	-11.8913
實際理地	-11.8913
偷安	-11.8914
永樂	-11.8914
箭鋒相拄	-11.8916
痛念	-11.8917
吾滅後	-11.8917
使我	-11.8917
樊	-11.8918
耿耿	-11.8919
無去來	-11.892
髭	-11.8922
龍濟	-11.8923
祁	-11.8926
封侯	-11.8926
歇去	-11.8926
繩墨	-11.8926
為害	-11.8927
寒熱	-11.8928
兌	-11.8928
高飛	-11.893
滿天下	-11.893
荊溪	-11.893
強為	-11.8931
明妙	-11.8932
直須向	-11.8932
捉住	-11.8932
堪任	-11.8932
入路	-11.8933
一幅	-11.8933
鳥獸	-11.8934
郎中	-11.8935
碧玉	-11.8935
當時待	-11.8936
不起一念	-11.8937
東籬	-11.8938
散花	-11.894
智愚	-11.894
立僧	-11.8941
甲戌	-11.8941
周徧	-11.8942
後面	-11.8944
父母未生時	-11.8947
殊云	-11.8951
靈泉	-11.8951
趨向	-11.8952
卻又	-11.8953
錯舉	-11.8954
豎起拳	-11.8955
相稱	-11.8955
颺下	-11.8955
不貪	-11.8956
以拄杖指	-11.8957
報德	-11.8957
機辯	-11.8957
而致	-11.8957
孰不	-11.8958
谷山	-11.8958
傷人	-11.8958
妙智	-11.8959
酬對	-11.896
親聞	-11.8962
光揚	-11.8962
進云與麼則	-11.8962
作丈六金身	-11.8962
連雲	-11.8964
初至	-11.8964
奉佛	-11.8965
海印發光	-11.8965
繩牀	-11.8966
鬼家活計	-11.8967
此話大行	-11.8967
如何是古佛心	-11.8969
瞖	-11.8969
拽耙	-11.897
元正啟祚	-11.8971
變大地作黃金	-11.8971
去聖時遙	-11.8971
鍛鍊	-11.8972
吾輩	-11.8973
酥	-11.8973
何慮	-11.8973
向上宗乘事若何	-11.8973
街坊	-11.8974
菌	-11.8974
機緣語句不錄	-11.8976
幣	-11.8976
或有問	-11.8977
寢堂	-11.8977
立地處	-11.8978
緬	-11.8978
燈光	-11.8979
貫通	-11.8979
菽	-11.8979
諸方老宿	-11.898
肉眼	-11.8981
酬酢	-11.8982
真如佛性	-11.8982
盧行者	-11.8985
會也麼	-11.8987
智通	-11.8988
師便歸方丈	-11.8989
于斯	-11.899
依教	-11.8991
臣僧	-11.8991
繁興	-11.8992
曉風	-11.8997
便走	-11.8998
棲霞	-11.9002
釋迦牟尼佛	-11.9003
打翻	-11.9003
生死去來	-11.9003
鏡像	-11.9004
現宰官身	-11.9004
天光	-11.9005
先祖	-11.9006
妙門	-11.9006
次參	-11.9008
何敢	-11.9009
弄影	-11.9009
生淨土	-11.901
免被	-11.9011
最高	-11.9012
當觀第一義	-11.9015
令彼	-11.9015
天寶	-11.9015
至方丈	-11.9019
有一等	-11.9019
令參	-11.902
我且問你	-11.902
南贍部洲	-11.902
二載	-11.9021
入法界	-11.9021
羚羊	-11.9022
學語之流	-11.9023
再犯不容	-11.9023
纖塵不立	-11.9024
象王行處絕狐蹤	-11.9024
勗	-11.9025
莫謗如來正法輪	-11.9025
喚鐘作甕	-11.9026
迦文	-11.9026
將此深心奉塵剎	-11.9026
都緣	-11.9027
豁然有省	-11.9027
簸箕	-11.9027
師近前	-11.9027
藐	-11.9027
埀	-11.9028
抓	-11.9028
泊然	-11.9028
鹵莽	-11.9029
矚	-11.9029
自號	-11.9029
各各自	-11.903
刼	-11.9031
見面	-11.9031
歸路	-11.9032
盡乾坤大地	-11.9033
馳騁	-11.9035
欹	-11.9035
潺湲	-11.9036
開光	-11.9037
三拳	-11.9038
虛堂	-11.9038
逐隊	-11.9038
勺	-11.9038
挹	-11.9039
大檀越	-11.9041
觸禮三拜	-11.9041
碧眼胡	-11.9042
銀山	-11.9042
後先	-11.9046
以拄杖卓一卓	-11.9046
來諭	-11.9047
進云只如	-11.9048
客堂	-11.905
不可測	-11.9051
只箇	-11.9052
充塞	-11.9053
悲夫	-11.9055
入京	-11.9057
節目	-11.906
妙高	-11.9066
即位	-11.9066
不錄	-11.9067
輕忽	-11.9067
尚在	-11.9067
中邊	-11.9068
各異	-11.9068
黃鳥	-11.9069
洋洋	-11.907
鈍鐵	-11.9071
無依倚	-11.9074
饒州	-11.9076
臨安府	-11.9077
以資	-11.9077
交互	-11.9078
其中有	-11.9078
鞵	-11.9078
家家門	-11.9078
聲不是聲	-11.9079
令看	-11.9079
鶻臭布衫	-11.9079
羚羊挂角	-11.9079
機境	-11.908
薰風自南來	-11.908
弃	-11.908
苦哉苦哉	-11.9081
甘贄	-11.9082
好肉剜瘡	-11.9083
未起	-11.9083
便合	-11.9083
螻蟻	-11.9084
摩訶般若	-11.9084
宇宙之間	-11.9085
知事頭首	-11.9085
歐	-11.9085
赤心	-11.9085
溪西	-11.9087
一條白棒	-11.9087
不有不無	-11.9087
皮穿	-11.9088
百二十	-11.9088
當面錯過	-11.9088
後遷	-11.909
6	-11.909
十指	-11.909
箕	-11.909
翊	-11.9091
曰祇如	-11.9092
簪	-11.9092
盡乾坤	-11.9094
池塘	-11.9095
廣南	-11.9095
白雲深處	-11.9096
何謂也	-11.9097
卓立	-11.9098
世出世	-11.9099
金剛王	-11.9099
大興	-11.9099
一錐	-11.9101
劫石	-11.9101
未暇	-11.9103
滿盤	-11.9103
卓然	-11.9104
乃呵呵大笑	-11.9104
如何施設	-11.9105
燒卻	-11.9111
二人見錄	-11.9112
問荅	-11.9116
無滲漏	-11.9117
不動步	-11.9118
五歲	-11.9119
卓一卓曰	-11.912
祈雨	-11.9121
夥	-11.9123
顛狂	-11.9125
想念	-11.9126
堯天	-11.9126
方廣	-11.9127
義海	-11.9129
坦平	-11.9131
覆載	-11.9132
劉公	-11.9132
青草	-11.9132
撞倒	-11.9132
漕	-11.9134
誰是得者	-11.9134
〔	-11.9135
〕	-11.9135
小出大遇	-11.9135
瑯瑘	-11.9135
鴛	-11.9135
遇作家	-11.9136
人天之	-11.9137
塟	-11.9138
天上天下唯我獨尊	-11.9139
泗州	-11.9139
三十七	-11.914
只者是	-11.914
帶雪	-11.914
吳興	-11.914
親切處	-11.9141
連棒打出	-11.9141
䞋	-11.9142
當仁不讓	-11.9143
顧眾云	-11.9143
曲彔木	-11.9143
蓉	-11.9143
滅卻	-11.9143
幸是	-11.9144
不落因果	-11.9144
著語	-11.9145
緣會	-11.9145
捶	-11.9146
荼	-11.9146
丙戌	-11.9146
頗多	-11.9146
擊拂子下座	-11.9146
愿	-11.9147
端禪師	-11.9148
四大海	-11.9148
玄覺	-11.9148
樽	-11.9148
弘開	-11.9148
啖	-11.9149
膳	-11.915
志願	-11.915
嶷	-11.9151
次年	-11.9152
百千法門	-11.9153
未證	-11.9153
鐵鑄	-11.9153
翠色	-11.9155
沾恩	-11.9156
巍然	-11.9156
明月清風	-11.9157
更有一般	-11.9157
師範	-11.9159
眾護法	-11.9161
佛慧泉	-11.9161
橋上	-11.9161
退院	-11.9162
新州	-11.9162
師喝云	-11.9163
便登	-11.9164
師或云	-11.9165
得也未	-11.9167
的意思	-11.9167
劑	-11.9168
師大笑	-11.9169
如夢幻	-11.917
妙湛	-11.9171
裴公	-11.9171
冷笑	-11.9171
金翅	-11.9172
俱備	-11.9173
無量法門	-11.9173
禪師潭州	-11.9173
隨我	-11.9174
出世間法	-11.9174
未穩	-11.9174
印度	-11.9176
每以	-11.9176
聖諦	-11.9177
古柏	-11.9179
舊歲	-11.9179
白雲飛	-11.9179
入藏	-11.918
箭射	-11.9181
如今還有	-11.9183
豈不見道	-11.9187
山房	-11.9187
諸人分上	-11.9187
驀拈拄杖曰	-11.9187
小子	-11.9188
處士	-11.9189
心量	-11.9189
萸	-11.9191
威音王巳前	-11.9192
嘉州	-11.9192
勿謂	-11.9194
肩上	-11.9196
迴向	-11.9196
說無生	-11.9197
一頭驢	-11.9197
轆轆	-11.9198
躅	-11.9199
須憑	-11.9199
日面月面	-11.9199
進修	-11.92
嚙	-11.92
一機一境	-11.92
續佛慧命	-11.9201
柴頭	-11.9201
肋	-11.9201
善哉善哉	-11.9201
翮	-11.9202
堂外	-11.9203
初到	-11.9203
立地成佛	-11.9203
徹悟	-11.9205
爛泥	-11.9205
弱冠	-11.9205
蹴	-11.9205
巧妙	-11.9206
不吝	-11.9206
何堪	-11.9208
跳入	-11.9208
燃燈	-11.9208
興福	-11.921
摩羅	-11.9211
拄杖頭邊	-11.9211
大圓鏡智	-11.9212
望見	-11.9213
九霄	-11.9214
正觀	-11.9214
倒跨	-11.9215
受用不盡	-11.9215
圭峯	-11.9215
奉持	-11.9216
出城	-11.9216
大解脫門	-11.9216
此回	-11.9217
聲價	-11.9217
吾聞	-11.9217
勝妙	-11.9218
所執	-11.9218
取笑	-11.9218
家國	-11.9219
遊歷	-11.9219
逆風	-11.9219
惺惺著	-11.9219
粒米	-11.9222
此輩	-11.9223
四威儀	-11.9223
又如何師云	-11.9224
猶自可	-11.9225
到此間	-11.923
謝恩	-11.923
忉利天	-11.9234
霞曰	-11.9234
預知	-11.9234
持誦	-11.9234
電掣	-11.9235
知藏	-11.9235
須當	-11.9237
親從	-11.9239
指注	-11.9239
曲盡	-11.924
佛誕日	-11.9241
白鶴	-11.9241
懵	-11.9242
麈尾	-11.9243
安敢	-11.9244
八載	-11.9245
施功	-11.9245
唯嫌揀擇	-11.9247
增益	-11.9248
世尊不說說	-11.925
跨門	-11.925
題詩	-11.925
爾等	-11.925
看箭	-11.925
如之何	-11.9251
峭巍巍	-11.9251
作死馬醫	-11.9251
片言	-11.9252
註解	-11.9252
路逢一	-11.9253
因風吹火	-11.9253
】【	-11.9253
村裏	-11.9253
腦後見腮	-11.9254
柏子	-11.9255
祇恁麼	-11.9256
濛	-11.9257
壬戌	-11.9257
語默動靜	-11.9257
寶公	-11.9259
珊瑚枝	-11.9261
鑒禪師	-11.9262
徵詰	-11.9262
狐兔	-11.9264
誕日上堂	-11.9264
如何會	-11.9265
洞山价	-11.9266
苴	-11.9266
橫擔	-11.9266
靜處	-11.9266
永作	-11.9267
為眾說法	-11.9269
記持	-11.927
東壁	-11.9274
有頌云	-11.9276
憑據	-11.9277
不是風動	-11.9277
求開示	-11.9279
頭頂	-11.928
迥脫	-11.9281
從人得	-11.9281
鬼窟裏	-11.9284
忽有人	-11.9285
不得巳而	-11.9285
黃菊	-11.9285
鼓舞	-11.9286
出蜀	-11.9286
諸人還會麼	-11.9286
風飄	-11.9291
飜身	-11.9291
靜室	-11.9291
忽憶	-11.9292
難窺	-11.9292
如何免得	-11.9294
飛龍	-11.9294
新年頭	-11.9295
三步	-11.9299
野鴨	-11.9301
轉身句	-11.9302
飛鳥	-11.9302
領取	-11.9304
陷虎之機	-11.9307
良藥	-11.9307
長往	-11.9309
佛法不現前	-11.9309
請師速道	-11.9311
更請	-11.9311
鼻祖	-11.9312
問伊	-11.9312
之右	-11.9313
他時後日	-11.9314
全體露	-11.9314
惹塵埃	-11.9314
七通八達	-11.9314
牽牛	-11.9314
岩頭	-11.9315
摝	-11.9315
四大本空	-11.9315
這個是	-11.9315
隨手	-11.9315
梵宮	-11.9315
收攝	-11.9316
是甚麼心行	-11.9316
破砂盆	-11.9317
慷慨	-11.9317
瞑目	-11.9317
一毛頭	-11.9318
針錐	-11.9318
光明藏	-11.9319
小參舉	-11.9319
檇李	-11.9319
有纖毫	-11.9319
洞庭湖	-11.9321
老比丘	-11.9321
涅槃生死	-11.9322
蝕	-11.9322
照管	-11.9325
妹	-11.9325
祥麟	-11.9325
如何保任	-11.9326
煎點	-11.9326
鳶	-11.9327
夜間	-11.9327
無生法忍	-11.9327
坐斷千差	-11.9328
古南	-11.9329
無可不可	-11.933
庖	-11.9331
威風	-11.9331
功行	-11.9331
最是	-11.9334
一頭地	-11.9337
寥落	-11.9337
金仙	-11.9337
交馳	-11.9337
轟霹靂	-11.9337
拈一莖草	-11.9338
銀河	-11.9341
大眾見麼	-11.9342
為汝諸人	-11.9343
隨侍	-11.9343
一一皆	-11.9343
帝鄉	-11.9344
分疏	-11.9345
獨存	-11.9346
翻思	-11.9346
齋後	-11.935
者是也	-11.9351
廣長舌相	-11.9351
扣門	-11.9351
延師	-11.9352
天神	-11.9353
向南	-11.9354
鸞鳳	-11.9355
各得	-11.9355
大患	-11.9356
絕塵	-11.9358
袖手	-11.9359
果滿	-11.9361
琦曰	-11.9361
其首	-11.9362
打失鼻孔	-11.9362
無交涉	-11.9364
不看經	-11.9364
大安樂	-11.9364
物物上	-11.9365
鑽龜打瓦	-11.9366
斯時	-11.9368
盧舍那	-11.9369
十萬里	-11.9369
劫外春	-11.9369
打徹	-11.937
此所謂	-11.937
一棒打	-11.937
水泄不通	-11.937
眼目定動	-11.9371
存亡	-11.9373
新羅國	-11.9373
聞偈	-11.9373
三山來云	-11.9373
是聖是凡	-11.9374
擲拂子下座	-11.9375
上林	-11.9375
優婆塞	-11.9376
月堂昌	-11.9377
鑠	-11.9378
俸	-11.9378
文義	-11.9379
佛之知見	-11.9379
普度	-11.938
渙	-11.938
台教	-11.9381
哀哀	-11.9383
答他	-11.9384
水東流	-11.9387
輕易	-11.9387
後進	-11.9388
圓鑑	-11.9388
幾人知	-11.9388
雲葢	-11.9389
人倫	-11.9389
盞子	-11.9389
正理	-11.9389
賢劫	-11.939
平江	-11.939
滿路	-11.9393
華林	-11.9393
玉帶	-11.9394
多少眾	-11.9394
更覓	-11.9394
福報	-11.9395
隆慶	-11.9396
何處得	-11.9397
盲者	-11.9398
澗水	-11.9399
殺天下人	-11.9402
度日	-11.9403
盡十方	-11.9405
多意氣	-11.9406
歸省	-11.9407
聞此語	-11.9407
辭親	-11.9408
難通	-11.9408
頭腦	-11.9409
僧祇	-11.941
遍滿	-11.9414
四箇	-11.9414
附府	-11.9414
重圍	-11.9415
龍圖	-11.9415
天主	-11.942
勝因	-11.9421
入市	-11.9421
各宜	-11.9422
蹤由	-11.9422
頓覺	-11.9423
繼之	-11.9423
放身命處	-11.9428
拈香云此瓣香	-11.9429
即此用離此用	-11.943
前三三後三三	-11.943
雖異	-11.9431
不是你	-11.9433
不勞拈出	-11.9433
徤	-11.9434
恁麼說	-11.9434
瓠	-11.9435
鉗	-11.9435
辟支佛	-11.9436
翦	-11.9436
助道	-11.9437
緘口	-11.9437
慶幸	-11.9437
神秀	-11.9437
刳	-11.9438
寰區	-11.9439
繭	-11.9439
大臣	-11.9439
阬	-11.9441
警策	-11.9442
眼根	-11.9442
紫栢	-11.9443
官員	-11.9443
任性	-11.9444
功圓	-11.9445
千頃	-11.9445
丘壑	-11.9446
墟	-11.9447
祗園	-11.9447
直說	-11.9447
仰面	-11.9447
是如何師云	-11.9447
捏怪	-11.9448
曰為甚麼不	-11.9449
因甚道	-11.9454
戶外	-11.9455
弘覺	-11.9456
錯用心	-11.9456
野水	-11.946
所思	-11.9461
其或未	-11.9462
後堂	-11.9465
天下後世	-11.9465
三頓	-11.9466
當何	-11.9466
橫按拄杖	-11.9466
玄奧	-11.9467
僧應諾	-11.9468
閒雲	-11.9471
侍奉	-11.9471
子規	-11.9473
黃公	-11.9474
無一字	-11.9474
豈待	-11.9474
變成	-11.9475
不失其	-11.9476
頓首	-11.9478
萬佛	-11.9478
何時得	-11.9478
智旭	-11.9479
快便	-11.9479
大闡提	-11.948
如何是不動尊	-11.948
袖裏	-11.9482
擯出	-11.9482
抹殺	-11.9483
看脚下	-11.9483
幻出	-11.9484
驢前馬後	-11.9487
更求	-11.9487
洞然明白	-11.9487
迷頭認影	-11.9487
皮下有血	-11.9488
午後	-11.9488
保福云	-11.9488
灰頭土面	-11.9489
壇經	-11.9489
供養大眾	-11.9489
認賊為子	-11.949
九十六種	-11.949
緜	-11.949
懊惱	-11.9491
帶露	-11.9491
顯發	-11.9492
誑惑	-11.9492
照天照地	-11.9492
定力	-11.9493
珍御	-11.9493
歌謠	-11.9493
十二日	-11.9494
雪覆	-11.9494
俏	-11.9494
▁頌古	-11.9494
不妨疑著	-11.9494
芟	-11.9494
[...]
