<unk>	0
<s>	0
</s>	0
之	-3.95938
/	-4.24446
(	-4.5824
)	-4.65636
也	-4.77702
而	-4.91786
以	-4.95872
者	-4.97115
其	-5.1552
有	-5.20175
為	-5.24489
則	-5.30682
)(	-5.34251
不	-5.38187
於	-5.45801
一	-5.47948
水	-5.64515
又	-5.71265
曰	-5.73926
中	-5.75206
大	-5.76571
用	-5.8146
子	-5.81523
如	-5.83049
生	-5.83519
種	-5.83819
上	-5.89101
人	-5.9646
作	-5.97833
無	-5.98601
下	-5.98987
▁	-6.03494
可	-6.05815
地	-6.0883
多	-6.12107
時	-6.13251
亦	-6.18448
三	-6.2057
即	-6.20604
此	-6.21563
葉	-6.21892
白	-6.22685
至	-6.24768
出	-6.2491
于	-6.25665
田	-6.26323
或	-6.26713
與	-6.26927
長	-6.28071
令	-6.28118
土	-6.2822
食	-6.30565
宜	-6.33184
皆	-6.35773
法	-6.36231
小	-6.37619
二	-6.3886
日	-6.38892
自	-6.39906
故	-6.40376
得	-6.43225
若	-6.44418
所	-6.44736
今	-6.45634
及	-6.5043
一名	-6.52125
民	-6.53454
成	-6.54163
矣	-6.54668
取	-6.54849
實	-6.55104
方	-6.55634
在	-6.56784
凡	-6.58078
黄	-6.58273
草	-6.5877
去	-6.59219
根	-6.63354
熟	-6.64548
是	-6.66209
木	-6.66233
收	-6.66994
花	-6.67271
入	-6.67659
四	-6.68075
行	-6.68501
五	-6.69231
樹	-6.70785
後	-6.71101
山	-6.71937
髙	-6.77055
分	-6.77641
名	-6.77717
乃	-6.7818
米	-6.78435
欲	-6.80731
蠶	-6.81483
必	-6.8287
然	-6.84544
内	-6.84588
云	-6.84972
穀	-6.85579
榖	-6.85853
豆	-6.86057
當	-6.8758
氣	-6.88153
數	-6.88214
同	-6.88324
麥	-6.8847
本	-6.88523
青	-6.89983
州	-6.90113
治	-6.9037
言	-6.90428
開	-6.91149
風	-6.92292
稻	-6.9319
天	-6.94039
春	-6.9462
使	-6.95049
平	-6.95805
細	-6.97159
各	-6.97725
非	-6.98333
雨	-6.98494
爲	-6.99325
易	-6.99598
粟	-6.99711
事	-6.99757
謂	-7.00275
頭	-7.01444
未	-7.01568
/)	-7.01717
既	-7.01824
先	-7.01867
相	-7.02365
石	-7.02513
兩	-7.02735
官	-7.02777
處	-7.03582
已	-7.04617
焉	-7.04798
火	-7.05171
深	-7.05372
高	-7.05476
間	-7.06043
嵗	-7.06299
切	-7.06993
復	-7.0762
見	-7.07768
將	-7.08134
少	-7.08522
耕	-7.08901
色	-7.09031
須	-7.10147
過	-7.10913
苗	-7.12639
常	-7.13193
重	-7.13434
每	-7.1423
赤	-7.14674
似	-7.1485
河	-7.1536
前	-7.16491
惟	-7.16629
糯	-7.17001
利	-7.17566
便	-7.18111
著	-7.18229
和	-7.18381
禾	-7.18606
等	-7.18683
十	-7.1874
正	-7.1884
置	-7.19228
耳	-7.19297
能	-7.1931
合	-7.19868
初	-7.2024
早	-7.2089
縣	-7.21195
桑	-7.21936
秋	-7.22013
家	-7.22049
盡	-7.22065
南	-7.22454
牛	-7.22715
紅	-7.22788
明	-7.23322
甚	-7.24174
通	-7.24911
乾	-7.24916
菜	-7.25407
音	-7.25458
雖	-7.25562
年	-7.26143
夫	-7.26396
莖	-7.26993
從	-7.27658
皮	-7.28317
但	-7.2837
廣	-7.28471
諸	-7.28824
物	-7.29323
力	-7.29347
安	-7.29546
謂之	-7.30011
來	-7.30215
馬	-7.3025
近	-7.30387
口	-7.316
香	-7.32098
更	-7.3254
起	-7.32783
蓋	-7.34412
餘	-7.35404
陽	-7.35574
布	-7.35645
竹	-7.35731
六	-7.35897
經	-7.36342
味	-7.37413
足	-7.37647
盛	-7.37698
夏	-7.37737
百	-7.38437
微	-7.38705
條	-7.39179
半	-7.39392
冬	-7.39833
農	-7.4089
始	-7.41013
心	-7.41254
何	-7.42241
麻	-7.42478
因	-7.42614
書	-7.42618
八	-7.42778
新	-7.42892
文	-7.43381
畝	-7.43588
定	-7.43669
主	-7.44884
厚	-7.45041
加	-7.45097
知	-7.45105
九	-7.45813
外	-7.45826
立	-7.45901
枝	-7.45943
糞	-7.45983
直	-7.46503
古	-7.47428
収	-7.47517
節	-7.48238
傳	-7.48502
乎	-7.48619
車	-7.48814
魚	-7.4914
歲	-7.49465
附	-7.49857
道	-7.49978
積	-7.50082
流	-7.5023
七	-7.50474
注	-7.51136
月	-7.51222
好	-7.51514
薄	-7.51735
寒	-7.51936
熱	-7.51943
倉	-7.5221
止	-7.52309
臣	-7.52723
難	-7.52915
次	-7.5313
發	-7.53502
稍	-7.54084
東	-7.54496
黑	-7.54891
不可	-7.55072
接	-7.55081
黍	-7.55287
北	-7.56631
肥	-7.57236
計	-7.58115
酒	-7.58261
並	-7.5896
居	-7.59164
桃	-7.59325
要	-7.60042
俱	-7.60499
金	-7.60607
泥	-7.60623
功	-7.61024
隨	-7.61825
黏	-7.62133
齊	-7.62446
别	-7.62448
應	-7.62538
野	-7.63005
之法	-7.63079
西	-7.63116
久	-7.6356
疏	-7.638
肉	-7.64427
以為	-7.64862
性	-7.64961
王	-7.65908
可以	-7.6632
絲	-7.66352
李	-7.66531
鋤	-7.67444
美	-7.67481
澤	-7.67503
聲	-7.67646
且	-7.67958
苦	-7.67996
比	-7.68318
旱	-7.68354
國	-7.68573
留	-7.68793
海	-7.69377
畆	-7.70029
清	-7.70416
隂	-7.70632
度	-7.70973
極	-7.71001
果	-7.71051
器	-7.71445
黒	-7.71624
井	-7.72051
再	-7.72145
棗	-7.72222
盖	-7.72751
轉	-7.72935
工	-7.73443
興	-7.73551
備	-7.74217
鹽	-7.74504
葢	-7.75043
省	-7.75358
候	-7.76099
異	-7.76615
具	-7.76777
濕	-7.76881
萬	-7.77044
原	-7.7706
仍	-7.77342
𤓰	-7.77572
角	-7.7794
不得	-7.78038
反	-7.7834
命	-7.78446
瓜	-7.78634
門	-7.78708
煑	-7.78745
給	-7.78996
公	-7.79052
類	-7.79204
不能	-7.7928
汁	-7.79409
毛	-7.79676
就	-7.80255
底	-7.80366
修	-7.80898
圓	-7.80952
藏	-7.81256
甘	-7.81302
㣲	-7.81442
急	-7.81599
尺	-7.81897
雲	-7.82278
養	-7.82509
量	-7.82619
末	-7.82631
最	-7.82713
周	-7.83008
受	-7.8366
江	-7.83688
千	-7.83706
理	-7.83792
元	-7.83865
蒸	-7.8412
散	-7.84313
身	-7.84588
手	-7.84619
獨	-7.85412
制	-7.85414
死	-7.85434
齊民要術	-7.85785
葉似	-7.8582
户	-7.86121
泉	-7.86273
栽	-7.86513
除	-7.86883
病	-7.86903
落	-7.86979
逺	-7.87142
湖	-7.87144
老	-7.87546
稱	-7.87618
傷	-7.87873
勤	-7.87952
結	-7.88028
所以	-7.88064
堅	-7.88284
鄉	-7.88566
晚	-7.88759
全	-7.89162
舉	-7.89479
邊	-7.90301
益	-7.90347
食之	-7.90656
良	-7.90718
輕	-7.91073
種之	-7.9142
猶	-7.91469
科	-7.91517
形	-7.91583
舊	-7.9159
化	-7.91634
漢	-7.91755
亦可	-7.91905
紫	-7.92151
勞	-7.92437
按	-7.92807
解	-7.92901
許	-7.93074
覆	-7.93364
勝	-7.9339
遂	-7.94032
烏	-7.94034
油	-7.94933
糓	-7.94959
雞	-7.94965
載	-7.94973
待	-7.9508
陳	-7.95093
善	-7.95452
連	-7.95528
乆	-7.95547
漸	-7.96342
還	-7.96836
八月	-7.96948
灰	-7.97025
冝	-7.97388
軍	-7.97967
太	-7.98348
差	-7.98831
損	-7.98871
之地	-7.98937
動	-7.98952
歸	-7.99092
首	-7.99361
哉	-7.99728
任	-7.99977
兮	-8.00007
致	-8.00007
􁀙	-8.00147
羊	-8.00188
神	-8.00506
二月	-8.00656
朕	-8.00938
五月	-8.01011
滿	-8.01307
引	-8.0131
浸	-8.01467
𤣥扈先生曰	-8.01573
而不	-8.01589
里	-8.01754
毎	-8.01933
務	-8.02291
築	-8.02647
衣	-8.02948
城	-8.03105
蟲	-8.03116
屬	-8.03865
屋	-8.03903
府	-8.04323
採	-8.04905
貴	-8.05161
斗	-8.05311
均	-8.05364
悉	-8.05821
世	-8.06059
淨	-8.06368
夜	-8.06903
三年	-8.07018
聞	-8.07061
冷	-8.07655
倍	-8.07707
祭	-8.07911
放	-8.07939
衆	-8.08294
横	-8.08627
然後	-8.08726
體	-8.08752
梨	-8.09049
志	-8.09149
可食	-8.09184
水利	-8.09379
錢	-8.09455
樂	-8.09704
穂	-8.09858
繭	-8.10006
光	-8.10058
移	-8.10067
雜	-8.10093
池	-8.10164
固	-8.10182
詩云	-8.10233
求	-8.10246
濶	-8.10447
輪	-8.10592
核	-8.1066
藥	-8.10893
向	-8.10946
龍	-8.10956
共	-8.11146
字	-8.11518
歳	-8.11731
也又	-8.1271
論	-8.1296
圖	-8.12985
勿	-8.13006
變	-8.13041
飯	-8.13406
尖	-8.13484
照	-8.13559
穗	-8.14071
我	-8.14093
荒	-8.14211
社	-8.14318
六月	-8.14399
骨	-8.14438
面	-8.14552
饑	-8.14594
失	-8.15202
天下	-8.15377
彼	-8.15383
請	-8.1558
視	-8.15761
磨	-8.16097
如此	-8.16431
沙	-8.16859
由	-8.16869
兒	-8.16877
恐	-8.17165
湏	-8.17168
業	-8.17386
露	-8.17599
造	-8.17683
短	-8.18068
糧	-8.18108
豐	-8.18168
溝	-8.18265
茶	-8.18488
帶	-8.18678
粒	-8.1869
註	-8.18772
望	-8.19649
并	-8.19657
絶	-8.19789
設	-8.2001
葱	-8.20616
又有	-8.20694
渠	-8.20695
詩	-8.20832
都	-8.21132
畢	-8.21241
殺	-8.2148
嘗	-8.21739
刈	-8.21759
植	-8.21788
率	-8.22089
尤	-8.22214
朝	-8.22332
葵	-8.22433
目	-8.22673
将	-8.22914
聚	-8.23023
仁	-8.23402
華	-8.23428
他	-8.23477
犂	-8.23685
遍	-8.23841
總	-8.23903
煮	-8.23935
粉	-8.23978
廢	-8.24131
列	-8.24158
報	-8.24458
意	-8.24597
秫	-8.24624
七月	-8.24983
却	-8.25058
梅	-8.25196
二十	-8.25323
旋	-8.25523
唐	-8.25554
星	-8.25628
雪	-8.25638
議	-8.25645
岸	-8.25873
徧	-8.26435
密	-8.26553
温	-8.26667
虚	-8.26678
川	-8.26731
空	-8.26826
氏	-8.26984
永	-8.27091
遲	-8.27109
栗	-8.27248
之後	-8.27307
芋	-8.27411
稷	-8.27544
兼	-8.27866
害	-8.28051
調	-8.281
軸	-8.28235
破	-8.28682
遇	-8.29008
減	-8.29012
斷	-8.29021
味甘	-8.29422
惡	-8.29612
思	-8.29623
納	-8.29763
賦	-8.30348
殻	-8.30353
服	-8.30476
禮	-8.30504
麴	-8.30504
苖	-8.30668
頗	-8.30752
浮	-8.3079
三月	-8.31051
脚	-8.31196
息	-8.31326
卷	-8.31414
精	-8.31436
依	-8.31546
濟	-8.31628
湯	-8.31648
産	-8.3165
是也	-8.3183
説	-8.31864
忌	-8.31887
爾	-8.32268
尚	-8.32287
簇	-8.32294
飲	-8.32373
俗	-8.3243
所謂	-8.32742
宻	-8.33091
稼	-8.33175
教	-8.33437
辛	-8.33565
速	-8.33602
胡	-8.337
芽	-8.33979
四月	-8.34173
指	-8.34384
郡	-8.3457
潤	-8.34586
爛	-8.34668
林	-8.34833
盤	-8.34881
奏	-8.3494
晴	-8.35382
曲	-8.35572
燥	-8.35573
補	-8.35636
飢	-8.35845
管	-8.35858
擇	-8.36375
不知	-8.36492
大小	-8.36614
保	-8.36711
梁	-8.36831
呼	-8.36879
正月	-8.37014
順	-8.37377
房	-8.37886
圖說	-8.37995
張	-8.38095
南方	-8.38159
特	-8.38415
蜜	-8.38435
說	-8.38602
闊	-8.38626
交	-8.38655
政	-8.3882
升	-8.3892
容	-8.39141
耘	-8.39416
篇	-8.39959
丁	-8.39971
鐵	-8.40027
橘	-8.40216
占	-8.40434
墻	-8.40903
茂	-8.41136
甲	-8.41137
誠	-8.41332
費	-8.41467
齒	-8.415
韭	-8.41836
女	-8.41845
圍	-8.41859
仰	-8.41879
蒲	-8.41904
存	-8.41931
旁	-8.42196
十月	-8.42271
晩	-8.42328
刀	-8.42352
資	-8.4252
縣物産	-8.42901
畜	-8.43117
親	-8.43162
園	-8.43172
寛	-8.43214
停	-8.43278
大如	-8.435
以上	-8.43516
陰	-8.43521
繁	-8.43894
帝	-8.4398
充	-8.44034
區	-8.44126
約	-8.44171
塞	-8.44279
終	-8.44286
箔	-8.44303
北方	-8.44404
富	-8.44469
吳	-8.4448
降	-8.44535
畦	-8.4458
九月	-8.44616
麵	-8.44645
甕	-8.44787
洗	-8.44958
看	-8.45225
牆	-8.45262
灌	-8.45345
封	-8.45565
役	-8.45725
佳	-8.45811
綿	-8.46477
玉	-8.4662
盈	-8.4663
亦有	-8.4671
又曰	-8.46813
扵	-8.47226
凉	-8.47322
壅	-8.47359
蒿	-8.47693
守	-8.47784
義	-8.47836
士	-8.48008
塗	-8.48023
司	-8.48104
插	-8.48114
者為	-8.48184
餅	-8.48354
寧	-8.48365
壤	-8.48413
寸	-8.48559
期	-8.48561
而已	-8.48615
稀	-8.48644
之田	-8.48912
本草	-8.49154
集	-8.49407
戸	-8.4949
喜	-8.49512
告	-8.4971
澆	-8.49912
被	-8.50043
强	-8.50159
莫	-8.50325
塘	-8.50618
徳	-8.50809
黃	-8.50829
蘇	-8.5107
掘	-8.51207
施	-8.5141
水旱	-8.51548
建	-8.51763
盆	-8.51981
免	-8.52212
編	-8.52229
登	-8.5223
之所	-8.52898
唯	-8.52902
宋	-8.52999
飼	-8.53102
孔	-8.53312
臨	-8.53589
軟	-8.53667
詳	-8.53687
職	-8.5374
消	-8.53751
枯	-8.53752
豈	-8.53838
之屬	-8.53979
詔	-8.54019
尾	-8.54256
秈	-8.54465
江南	-8.54588
章	-8.54628
供	-8.54694
訖	-8.54766
其葉	-8.54847
摘	-8.54926
霜	-8.54967
藍	-8.55056
路	-8.55185
芒	-8.55201
遺	-8.55365
有司	-8.55395
活	-8.55458
曬	-8.55505
籠	-8.55625
限	-8.55722
農事	-8.55772
之時	-8.55867
之間	-8.55982
十二	-8.56207
庶	-8.56277
織	-8.56542
栁	-8.56566
昔	-8.56665
諭	-8.56729
問	-8.56754
考	-8.56779
災	-8.56873
丈	-8.57005
農政全書	-8.5723
又名	-8.57339
板	-8.57428
羅	-8.57457
紙	-8.57487
之處	-8.57568
穫	-8.57816
邑	-8.5789
义	-8.58193
嘉	-8.58416
背	-8.5846
大者	-8.58499
諺云	-8.58785
州縣	-8.58871
查	-8.5908
打	-8.59177
逐	-8.59492
防	-8.59573
離	-8.59717
鑿	-8.59781
虛	-8.59834
薑	-8.59951
蒜	-8.60048
吏	-8.60302
梢	-8.60352
觀	-8.60446
杏	-8.60448
滋	-8.60876
勸	-8.61166
邉	-8.61235
秧	-8.61354
炊	-8.61425
舂	-8.61479
折	-8.61481
東南	-8.61503
勿令	-8.61649
刺	-8.61769
推	-8.61799
支	-8.61919
淺	-8.61933
匀	-8.62059
委	-8.62178
煖	-8.62205
秦	-8.62231
蛾	-8.62308
陵	-8.62923
輸	-8.63006
酢	-8.63259
粱	-8.63265
斫	-8.63272
記	-8.63361
毋	-8.63697
價	-8.63742
蝗	-8.63753
腹	-8.63868
垂	-8.63951
大麥	-8.63972
爾雅曰	-8.64073
鹹	-8.64296
一種	-8.64342
柿	-8.64553
疾	-8.64614
只	-8.64616
牧	-8.64625
煎	-8.64665
兵	-8.64763
濬	-8.65164
又似	-8.65273
母	-8.65429
裏	-8.65486
願	-8.65495
壠	-8.65525
淡	-8.65602
又云	-8.65614
之利	-8.65748
松	-8.65883
二年	-8.65989
貧	-8.66084
叉	-8.66128
亦不	-8.66216
代	-8.66241
種者	-8.66387
壓	-8.66862
愈	-8.67011
挿	-8.67048
歩	-8.67111
序	-8.67127
君	-8.67141
申	-8.67148
一日	-8.67382
椒	-8.67387
楊	-8.67724
患	-8.67737
繩	-8.67809
截	-8.67859
棄	-8.68151
徒	-8.68304
助	-8.68338
疎	-8.68634
名曰	-8.68701
室	-8.68708
眼	-8.68796
碎	-8.68871
象	-8.68892
品	-8.68948
結實	-8.69055
步	-8.69185
部	-8.69251
緑	-8.69337
蓄	-8.69463
剪	-8.69518
来	-8.69607
▁(	-8.69759
百姓	-8.69843
是以	-8.70061
畧	-8.70065
甜	-8.70155
號	-8.70247
暖	-8.70381
凍	-8.70471
屯	-8.70552
了	-8.70555
緩	-8.70561
賣	-8.70582
慮	-8.70636
遠	-8.71311
弱	-8.71472
機	-8.71667
其利	-8.71719
粳	-8.71968
延	-8.72022
燒	-8.72191
傍	-8.72225
者也	-8.72261
禁	-8.72335
瓠	-8.72344
景	-8.72416
不宜	-8.72517
信	-8.72546
至於	-8.72816
頃	-8.72858
祈	-8.72869
二種	-8.73024
陸	-8.73085
五榖	-8.73175
村	-8.73217
茅	-8.73282
犁	-8.73371
宿	-8.73507
端	-8.73553
一人	-8.73565
嫩	-8.73754
武	-8.73906
榆	-8.7401
一斗	-8.74038
真	-8.74092
雷	-8.74173
德	-8.74237
掌	-8.74547
徑	-8.74821
斑	-8.74948
婦	-8.75025
對	-8.75045
宗	-8.75063
刻	-8.75073
欲得	-8.7516
運	-8.7532
頻	-8.75492
莢	-8.75899
粗	-8.75914
三十	-8.75915
小麥	-8.75927
繫	-8.75977
一升	-8.76211
不同	-8.7635
鄭	-8.7672
綠	-8.76787
􁁊	-8.76861
増	-8.76873
沃	-8.76942
財	-8.76947
草木	-8.77547
者名	-8.7755
李時珍曰	-8.77586
猪	-8.77712
葛	-8.77756
裹	-8.77787
歌	-8.77897
承	-8.78071
墾	-8.78168
三升	-8.78239
農家	-8.78375
勢	-8.78384
柔	-8.78546
越	-8.78593
架	-8.78751
慶	-8.78766
驗	-8.78773
午	-8.78775
用之	-8.78787
御	-8.78795
鳥	-8.78821
進	-8.78834
雙	-8.78865
硬	-8.79029
麤	-8.79188
穿	-8.79621
炙	-8.79712
着	-8.79719
到	-8.79728
第	-8.79789
亦得	-8.80344
有餘	-8.80369
荆	-8.80641
憂	-8.80683
救	-8.8072
課	-8.80728
税	-8.80779
也其	-8.81205
斯	-8.81365
籍	-8.81442
銀	-8.815
葉而	-8.81575
往	-8.81596
京	-8.81615
浄	-8.81619
取其	-8.81622
決	-8.81659
束	-8.81673
執	-8.81752
采	-8.81769
蔓	-8.82009
膏	-8.82193
三日	-8.82199
效	-8.82235
大豆	-8.82323
所在	-8.82457
舍	-8.82619
之類	-8.8274
地方	-8.83079
狀	-8.83105
剝	-8.83144
為之	-8.83188
案	-8.83366
吾	-8.83526
坐	-8.836
闕	-8.83609
藉	-8.83611
不及	-8.83666
羣	-8.83684
送	-8.83701
脂	-8.83749
五十	-8.83788
其根	-8.83921
移栽	-8.84069
不足	-8.84074
其實	-8.84122
酸	-8.84214
而後	-8.8422
夏至	-8.84242
開花	-8.84349
福	-8.84555
洩	-8.84618
回	-8.84623
朱	-8.84627
飛	-8.84684
浦	-8.84688
上下	-8.84728
下種	-8.84957
麻子	-8.85222
情	-8.85294
衡	-8.85436
歴	-8.85546
績	-8.85548
乳	-8.8558
殊	-8.85591
祀	-8.85593
專	-8.8563
撥	-8.85652
牙	-8.85656
珠	-8.85659
毒	-8.86149
預	-8.86196
之民	-8.86259
晉	-8.86452
染	-8.86488
耙	-8.86515
幾	-8.86564
獲	-8.86612
學	-8.86737
懸	-8.87053
不過	-8.87285
不用	-8.87305
貯	-8.87306
之中	-8.87418
藤	-8.87486
扁	-8.87538
頓	-8.87554
壟	-8.8762
典	-8.87638
嚴	-8.87713
租	-8.87717
亂	-8.87725
咸	-8.87798
故名	-8.87943
試	-8.88191
低	-8.88231
拔	-8.88406
蘆	-8.88669
顆	-8.88678
督	-8.8869
增	-8.88696
獻	-8.88767
鳴	-8.88776
柱	-8.88779
予	-8.88785
郊	-8.88966
闗	-8.89434
聖	-8.89486
南北	-8.89583
卧	-8.89641
鐡	-8.89726
乘	-8.89785
商	-8.8979
係	-8.89817
兹	-8.89852
暑	-8.90077
紀	-8.90249
故也	-8.90252
小豆	-8.90279
二升	-8.90336
買	-8.90404
蜀	-8.90597
材	-8.90707
源	-8.90733
環	-8.90828
持	-8.90888
農夫	-8.91281
胡麻	-8.91449
暴	-8.91718
豬	-8.91827
適	-8.91893
穰	-8.91896
謹	-8.91908
假	-8.9192
水田	-8.9203
辰	-8.92209
窮	-8.9226
爾雅	-8.92487
元年	-8.92878
𦂳	-8.92935
隔	-8.92937
單	-8.93005
杜	-8.93039
埋	-8.93107
齊民要術曰	-8.93184
揚	-8.93346
察	-8.93396
味苦	-8.93582
坑	-8.93654
農桑通訣	-8.93699
左	-8.93835
柴	-8.93882
秀	-8.93961
領	-8.94064
市	-8.94074
培	-8.94109
縁	-8.94116
索	-8.94118
醋	-8.94137
故曰	-8.94251
則不	-8.94681
瓮	-8.94849
例	-8.94895
據	-8.95035
鎮	-8.95135
脆	-8.95185
随	-8.95189
䟽	-8.9522
俟	-8.95222
滑	-8.95226
不生	-8.95234
賜	-8.95267
史	-8.95375
之事	-8.95517
一石	-8.95566
谷	-8.95708
幹	-8.96253
包	-8.96266
刃	-8.96323
鮮	-8.96346
靣	-8.96366
菽	-8.96382
之制	-8.96568
之人	-8.96862
芥	-8.96951
二尺	-8.97021
蟻	-8.9741
隴	-8.97415
縱	-8.97448
團	-8.97468
焦	-8.97485
溪	-8.97496
恒	-8.97497
片	-8.97531
戒	-8.9757
漬	-8.97658
卵	-8.97692
借	-8.9785
杷	-8.97886
壞	-8.9799
炒	-8.98124
辨	-8.98487
燕	-8.9853
􁎈	-8.98536
㑹	-8.98568
場	-8.98607
簡	-8.98657
筐	-8.98671
忽	-8.98687
遷	-8.98688
擊	-8.98838
鼓	-8.98872
糠	-8.98879
之水	-8.9913
生者	-8.99165
導	-8.99237
醤	-8.9941
割	-8.99539
宣	-8.99642
魏	-8.99653
某	-8.99657
併	-8.99691
徐	-8.99725
圖説	-8.99747
觧	-8.9976
改	-8.99778
習	-8.9989
煩	-9.00058
食法採	-9.00093
其子	-9.00187
俗名	-9.00241
酘	-9.00299
柳	-9.00375
閒	-9.0044
蓮	-9.00554
皇	-9.0071
蠟	-9.00905
碾	-9.00908
况	-9.00941
罪	-9.01137
第一	-9.01249
西北	-9.01259
糴	-9.0126
三四	-9.01659
之家	-9.0167
人力	-9.01821
瓣	-9.01954
賑	-9.02045
選	-9.02134
港	-9.02194
累	-9.02196
鹿	-9.02204
周禮	-9.02224
四五	-9.0223
念	-9.02288
自然	-9.0243
以備	-9.02793
小民	-9.02879
畏	-9.02966
漿	-9.03059
界	-9.03237
灌溉	-9.03274
閘	-9.03283
壯	-9.03303
圩	-9.03304
倒	-9.03313
稼穡	-9.03342
式	-9.03367
鋪	-9.03372
趨	-9.03399
疑	-9.03423
畫	-9.03448
㫁	-9.03498
耕種	-9.03556
四年	-9.03759
授	-9.03961
愛	-9.04005
遣	-9.04371
潮	-9.04384
臘月	-9.0446
砧	-9.04498
瓦	-9.04501
蔥	-9.04533
有三	-9.04537
决	-9.04554
俾	-9.0456
崇	-9.04571
素	-9.04607
質	-9.04633
擣	-9.04634
帛	-9.04652
筋	-9.04652
皆可	-9.04747
髙下	-9.04871
十日	-9.05129
多少	-9.05178
陂	-9.05189
種植	-9.05218
堰	-9.05392
耨	-9.05671
捲	-9.05785
斂	-9.05797
稈	-9.05828
㸃	-9.05844
完	-9.05855
羙	-9.05893
准	-9.05905
圏	-9.06013
厥	-9.06476
堪	-9.06935
注曰	-9.06975
昌	-9.07061
耗	-9.07066
貫	-9.07066
救飢	-9.07071
巧	-9.0708
含	-9.07114
負	-9.07128
黍稷	-9.07206
古人	-9.07465
春秋	-9.07887
五六	-9.07959
歛	-9.08089
伏	-9.08115
眠	-9.08156
其中	-9.08228
麄	-9.08246
奠	-9.08289
瘦	-9.08295
壁	-9.08345
冬月	-9.08428
徴	-9.08464
狀如	-9.08582
中有	-9.08663
一年	-9.08831
五年	-9.08998
棉	-9.0901
救飢採	-9.09069
黄色	-9.0912
一尺	-9.0926
狹	-9.09273
斛	-9.09356
笋	-9.09435
釋	-9.09564
斜	-9.09616
塊	-9.09625
溝洫	-9.09645
排	-9.09672
純	-9.09675
夷	-9.09686
不復	-9.09789
明年	-9.09989
㝷	-9.10192
一二	-9.10488
結子	-9.10525
粥	-9.107
耬	-9.1071
録	-9.10758
釀	-9.10875
蓼	-9.10903
十五	-9.10914
薦	-9.10916
杵	-9.10942
位	-9.10987
豫	-9.1102
皆有	-9.11605
風雨	-9.11646
撒	-9.11648
蔬	-9.1187
柄	-9.11887
之患	-9.11903
飽	-9.11967
格	-9.1203
三尺	-9.12039
五升	-9.12099
削	-9.12126
槽	-9.12142
為上	-9.12172
走	-9.12179
纒	-9.1219
竪	-9.12205
丹	-9.12245
鍾	-9.12249
旦	-9.12269
賤	-9.12275
監	-9.12291
一曰	-9.12542
大而	-9.12615
十二月	-9.12633
該	-9.1298
窖	-9.13082
翻	-9.13468
隄	-9.13478
扶	-9.13516
窗	-9.13524
審	-9.13528
流民	-9.1353
薤	-9.1355
溢	-9.1357
耶	-9.13579
擬	-9.13579
奪	-9.1363
初生	-9.13742
者皆	-9.13746
榦	-9.14122
儲	-9.14467
枚	-9.14489
巳	-9.14784
以此	-9.148
添	-9.14848
輒	-9.1485
師	-9.14871
夾	-9.14883
漏	-9.149
緣	-9.14939
侵	-9.14946
辟	-9.14969
卒	-9.1497
沸	-9.14998
稅	-9.15065
也今	-9.15095
去其	-9.15291
饒	-9.15356
其上	-9.1586
誤	-9.15864
糶	-9.15903
踏	-9.15981
斤	-9.15987
扇	-9.1607
剥	-9.16106
血	-9.16107
拌	-9.16235
淤	-9.1625
者亦	-9.16254
暮	-9.16276
穴	-9.16283
蔵	-9.16299
己	-9.16333
儀	-9.16344
仙	-9.1635
客	-9.1639
避	-9.16591
芹	-9.16708
曬乾	-9.16874
五寸	-9.17041
曝	-9.17347
貢	-9.17487
惠	-9.17538
臭	-9.17596
奉	-9.17599
閉	-9.17621
腰	-9.17657
曝乾	-9.17666
漆	-9.17672
汲	-9.17683
會	-9.17697
儉	-9.17722
舒	-9.17749
農桑	-9.1776
筩	-9.17832
提	-9.17836
不如	-9.17979
次年	-9.18033
小而	-9.18055
也若	-9.18074
把	-9.18582
十年	-9.18643
殷	-9.18894
槩	-9.18926
㧞	-9.19034
黎	-9.19044
崔寔曰	-9.19054
趙	-9.19064
刄	-9.19101
幸	-9.19106
䑕	-9.19128
腸	-9.19216
四時	-9.19244
來年	-9.19606
境	-9.19681
淘	-9.19683
水浸	-9.1992
達	-9.20006
鹵	-9.20204
處處有之	-9.20319
苧	-9.2032
五尺	-9.2036
柰	-9.20424
煙	-9.20427
吴	-9.20449
掩	-9.20452
侯	-9.20466
次之	-9.20481
擘	-9.20489
楚	-9.20516
溫	-9.20518
禹	-9.20528
敬	-9.20531
羣芳譜	-9.20545
遵	-9.20551
略	-9.20556
壇	-9.20576
各有	-9.20586
澀	-9.20596
之意	-9.20929
之數	-9.21004
雄	-9.21063
山東	-9.21138
二百	-9.21231
槐	-9.21329
又方	-9.21453
豉	-9.21643
右	-9.21768
葦	-9.21908
瘠	-9.21914
掃	-9.21939
曾	-9.21949
製	-9.21949
豌豆	-9.21953
虎	-9.21956
壊	-9.21967
私	-9.21967
珍	-9.21968
劉	-9.21974
臺	-9.21979
額	-9.22065
岐	-9.22066
十一月	-9.2207
佃	-9.22124
爾雅云	-9.22151
識	-9.22278
墾田	-9.22309
者以	-9.22331
豐年	-9.2234
聽	-9.22361
萬物	-9.22547
之功	-9.22801
秔	-9.2314
臼	-9.23257
𤣥	-9.23352
涼	-9.23359
投	-9.23384
状	-9.23404
余	-9.23405
抑	-9.2342
庻	-9.23455
靈	-9.23471
不必	-9.23481
辭	-9.23516
鉤	-9.23521
没	-9.23545
用水	-9.23565
感	-9.23596
庚	-9.23827
不成	-9.24021
栽之	-9.24041
淮	-9.24218
示	-9.24526
涸	-9.24543
衛	-9.24738
料	-9.24766
芟	-9.24774
菌	-9.24882
十六	-9.24886
踈	-9.24895
阜	-9.24898
渾	-9.24925
休	-9.24948
寳	-9.24966
堤	-9.24972
柑	-9.24973
凝	-9.25033
退	-9.25079
民間	-9.25088
畒	-9.25227
葉如	-9.25274
熟時	-9.25308
七日	-9.25527
菉豆	-9.25601
河南	-9.25749
僅	-9.25846
務本新書	-9.26002
攤	-9.26029
值	-9.26128
糟	-9.26145
净	-9.26187
於此	-9.26216
澁	-9.26219
之物	-9.26261
鼻	-9.26289
井田	-9.26357
騐	-9.26397
橋	-9.26401
五穀	-9.26401
桐	-9.26412
博	-9.26429
䕶	-9.26434
換	-9.26441
表	-9.2646
鉏	-9.26518
可作	-9.27217
五日	-9.27277
祖	-9.27359
注云	-9.27457
甚多	-9.27599
魯	-9.27603
稗	-9.27613
色白	-9.2765
乏	-9.27703
葅	-9.27788
株	-9.27789
英	-9.27979
杖	-9.27987
専	-9.28008
蕎麥	-9.28024
諺曰	-9.28035
木棉	-9.2805
聴	-9.2807
皇帝	-9.28286
油鹽調食	-9.28322
漫	-9.28342
白色	-9.28402
較	-9.28542
百里	-9.28919
而小	-9.28941
今人	-9.28943
成熟	-9.28991
所宜	-9.29014
播	-9.29078
蘿蔔	-9.29121
筒	-9.29211
溉田	-9.29296
楮	-9.29348
研	-9.29389
十餘	-9.29414
乗	-9.29513
繼	-9.29545
屑	-9.29558
顧	-9.29574
頂	-9.29577
以後	-9.29599
廣志曰	-9.29639
國家	-9.29707
之名	-9.29956
壺	-9.29968
舌	-9.30203
十三	-9.30224
詩曰	-9.3027
必須	-9.30418
開墾	-9.30649
様	-9.30653
營	-9.30722
徃	-9.3083
竟	-9.30936
線	-9.30943
伐	-9.30963
腐	-9.31044
乂	-9.31068
惜	-9.31082
缺	-9.3109
耒耜	-9.31101
醬	-9.31101
參	-9.31111
恭	-9.31141
算	-9.31181
以水	-9.31185
肅	-9.31229
印	-9.31285
數十	-9.3145
味甜	-9.31811
一畝	-9.3187
羮	-9.31953
以供	-9.32168
側	-9.32168
日中	-9.32475
地利	-9.32533
穢	-9.32605
搗	-9.32677
段	-9.32685
若干	-9.32763
后稷	-9.32788
罷	-9.3281
維	-9.32815
者謂之	-9.33177
可種	-9.33321
者曰	-9.33421
鬱	-9.33587
之際	-9.33636
覆之	-9.33661
無所	-9.3383
其餘	-9.33846
碓	-9.33847
於是	-9.33895
耜	-9.34078
寡	-9.34079
育	-9.34183
朔	-9.34266
穄	-9.34316
伯	-9.34331
飬	-9.34333
竇	-9.34363
統	-9.3437
妨	-9.34375
其地	-9.34383
鵝	-9.34408
苞	-9.34454
西南	-9.34767
藝	-9.34934
民田	-9.35184
四尺	-9.35227
孟	-9.35322
稜	-9.35411
脉	-9.35656
蒼	-9.35657
茄	-9.35662
必有	-9.3567
官員	-9.35722
子如	-9.35744
薅	-9.35925
汗	-9.35966
旣	-9.35969
坎	-9.35997
烟	-9.36004
貼	-9.36006
姑	-9.36023
舟	-9.36039
廪	-9.36041
爭	-9.36053
萊	-9.36067
塲	-9.36076
薪	-9.36089
享	-9.36121
勸課	-9.36204
其所	-9.36456
鬚	-9.36553
叢	-9.36785
晒	-9.37585
小者	-9.37608
躬	-9.37612
浥	-9.37662
槌	-9.37682
臥	-9.37685
揉	-9.37713
竿	-9.37725
讀	-9.3773
雍	-9.37759
寄	-9.37763
絹	-9.37765
茹	-9.37791
恩	-9.37872
大抵	-9.37973
茍	-9.38062
土地	-9.38082
不然	-9.3812
也凡	-9.38166
田家	-9.38789
語	-9.38888
良田	-9.39016
釡	-9.39268
則無	-9.39319
弊	-9.3932
牕	-9.39339
稠	-9.39382
晝	-9.39403
葡萄	-9.39412
痩	-9.39433
篩	-9.39439
䇿	-9.39441
偏	-9.39448
洛	-9.39456
驅	-9.39484
堂	-9.39505
氷	-9.39517
茭	-9.39527
者不	-9.39529
壩	-9.39548
錫	-9.39551
繰	-9.39556
阡陌	-9.39568
雩	-9.39687
今處處有之	-9.39796
萬石	-9.39997
土宜	-9.40075
播種	-9.40105
際	-9.40275
竒	-9.4047
其種	-9.4048
赤色	-9.40635
孫	-9.40687
一莖	-9.40699
農政全書卷	-9.40766
後世	-9.40798
蹄	-9.40814
一本	-9.40859
不敢	-9.40862
漉	-9.4093
椹	-9.41074
揷	-9.41114
鷄	-9.41133
妙	-9.41164
搭	-9.41175
瀉	-9.41205
竈	-9.41212
箕	-9.41214
犬	-9.41276
籬	-9.41277
徹	-9.41278
勘	-9.41284
征	-9.41299
另	-9.41318
配	-9.41323
律	-9.41361
多寡	-9.4138
三種	-9.41506
和之	-9.41621
六年	-9.41765
味辛	-9.41831
寅	-9.42018
二三	-9.42426
菹	-9.42455
三寸	-9.42524
逸	-9.42677
蒔	-9.42719
臘	-9.42786
莊	-9.42813
今年	-9.42829
菘	-9.42841
擾	-9.42898
貨	-9.42901
續	-9.42915
竊	-9.42917
弗	-9.4297
冀	-9.42979
殖	-9.42981
瘡	-9.43006
昏	-9.43017
祥	-9.43019
天子	-9.43024
苑	-9.43029
吐	-9.4303
挑	-9.43074
傾	-9.43081
霧	-9.43095
一時	-9.43258
隂陽	-9.43323
多則	-9.43326
治馬	-9.43429
敢	-9.43586
形如	-9.43642
大率	-9.44166
不許	-9.44221
秥	-9.44357
權	-9.44426
輭	-9.44746
爪	-9.44753
粘	-9.44754
狗	-9.44774
椿	-9.44776
减	-9.44784
句	-9.448
壽	-9.44821
宫	-9.44825
膚	-9.4483
常平	-9.4486
藁	-9.44862
衍	-9.44868
弦	-9.44875
衣食	-9.44941
以下	-9.45208
屈	-9.45265
江淮	-9.45284
生於	-9.45299
虞	-9.45456
今之	-9.45725
澇	-9.45774
灑	-9.46097
山谷	-9.46165
百日	-9.46345
田畝	-9.46348
無毒	-9.46402
席	-9.46418
父	-9.46544
脈	-9.46548
釜	-9.46585
麫	-9.46602
磚	-9.46614
牽	-9.46626
不致	-9.46633
萌	-9.46634
抽	-9.46671
脱	-9.46674
㫖	-9.46679
春夏	-9.46703
洪	-9.46704
汝	-9.46711
滯	-9.46722
令人	-9.46741
一云	-9.46741
礱	-9.46787
責	-9.46792
早稻	-9.46854
旬	-9.47005
而為	-9.47118
河東	-9.47365
冷水	-9.47438
項	-9.47455
收穫	-9.47618
泥封	-9.47638
為佳	-9.47744
可為	-9.47808
二日	-9.47989
游	-9.48049
瑞	-9.48333
圜	-9.48397
雀	-9.48439
勸農	-9.48455
駕	-9.4846
闢	-9.48471
溉	-9.48475
圗	-9.48477
箭	-9.48484
凖	-9.48503
鈎	-9.4853
淹	-9.48562
康	-9.48566
䝉	-9.48567
雞子	-9.4859
衝	-9.48595
股	-9.48601
左右	-9.48602
呉	-9.48607
漕	-9.48616
稽	-9.48625
創	-9.48634
燈	-9.48651
裂	-9.48669
前後	-9.4888
清明	-9.48917
百畝	-9.49022
有白	-9.49035
白露	-9.49408
窠	-9.49451
皆以	-9.49467
潦	-9.49788
菊	-9.49986
黄白	-9.5004
斸	-9.50093
枲	-9.50398
誰	-9.50407
惰	-9.50411
腳	-9.50411
蓬	-9.5042
快	-9.50424
番	-9.5044
瓶	-9.50443
矮	-9.50447
塵	-9.5046
堆	-9.50464
曽	-9.5047
匹	-9.50488
蔽	-9.50488
亭	-9.50492
芳	-9.50498
懐	-9.50537
迎	-9.50568
愚	-9.50571
召	-9.50635
十八	-9.50873
月令	-9.50923
灌之	-9.51152
可用	-9.51264
甕中	-9.51307
圃	-9.51309
孝	-9.514
其下	-9.51531
禦	-9.51576
藷	-9.51775
以來	-9.51892
麪	-9.51926
至春	-9.52017
厯	-9.52048
之令	-9.52238
棘	-9.52358
卑	-9.5237
蕃	-9.52377
陶	-9.52393
泊	-9.52399
激	-9.52417
痛	-9.52431
廬	-9.52432
畦種	-9.52441
揺	-9.52446
泰	-9.52447
竭	-9.52454
住	-9.52456
石榴	-9.52465
菰	-9.52466
校	-9.52469
酉	-9.5247
蕩	-9.52471
普	-9.52482
一分	-9.52536
賴	-9.52538
以爲	-9.52544
者必	-9.52547
之義	-9.52608
本草云	-9.52625
其味	-9.5263
古者	-9.52757
天時	-9.52775
第三	-9.52912
六十日	-9.53071
冬至	-9.531
十一	-9.53176
栽種	-9.5323
莖葉	-9.53348
之上	-9.53393
水中	-9.53501
者即	-9.53508
一切	-9.53554
攪	-9.53555
晚稻	-9.53909
種子	-9.53911
荷	-9.54041
下流	-9.54054
賈	-9.54133
如是	-9.54141
疆	-9.54213
一兩	-9.54244
而出	-9.5436
逆	-9.54362
芡	-9.54365
鵞	-9.54398
吉	-9.5441
膩	-9.54428
遊	-9.54437
揀	-9.54438
輙	-9.54458
不食	-9.54458
鼎	-9.5446
貸	-9.54461
男	-9.54479
榮	-9.54481
庭	-9.54488
酪	-9.54491
跡	-9.54499
師古曰	-9.54509
炎	-9.5452
一根	-9.54535
人家	-9.54632
昭	-9.54655
以時	-9.54671
苗高	-9.549
中間	-9.55111
則有	-9.55147
等處	-9.55149
之害	-9.55158
農書	-9.55327
尺許	-9.55386
上有	-9.55419
取之	-9.55458
困	-9.55646
條下	-9.55755
以其	-9.55773
枝葉	-9.55882
者有	-9.56066
法用	-9.56162
關	-9.5619
術	-9.56215
相去	-9.56274
相似	-9.56275
楸	-9.5641
毫	-9.56419
括	-9.56432
斧	-9.56443
郭	-9.5645
卯	-9.56455
丘	-9.5646
酌	-9.56498
蔕	-9.56504
䥥	-9.56508
填	-9.56525
纔	-9.56525
糝	-9.56529
抱	-9.56538
濃	-9.56559
争	-9.56562
革	-9.56564
練	-9.56565
隠	-9.56582
藕	-9.56583
之道	-9.56594
七年	-9.56704
農桑通訣曰	-9.57007
也故	-9.5709
其法	-9.57119
北土	-9.5717
否	-9.57198
叢生	-9.57586
莧	-9.57787
記曰	-9.57902
下水	-9.57926
澆灌	-9.58017
凡種	-9.58051
棠	-9.58128
透	-9.5819
慎	-9.58196
十四	-9.58257
譜	-9.58323
仲	-9.58364
砂	-9.58391
夀	-9.58428
尋	-9.58487
田野	-9.58509
懷	-9.5851
菱	-9.58529
旺	-9.58552
脊	-9.58566
催	-9.58573
頒	-9.58613
戎	-9.58615
多種	-9.5862
沈	-9.58635
波	-9.58687
有所	-9.58731
聖祖仁皇帝御製	-9.58733
而成	-9.5883
王禎曰	-9.58883
違	-9.58925
北人	-9.59109
突	-9.59267
聖人	-9.59289
以致	-9.59339
高下	-9.59986
蔓菁	-9.60118
嘉禾	-9.60172
不一	-9.60263
收子	-9.60346
縣土産	-9.6039
之力	-9.60483
畔	-9.60549
蕈	-9.60588
穊	-9.60596
戌	-9.60625
斬	-9.6063
錄	-9.60636
梗	-9.60649
巨	-9.60676
櫻桃	-9.60724
騰	-9.60735
擲	-9.60745
如前法	-9.60787
乞	-9.60811
世宗憲皇帝御製	-9.60888
皇帝御製	-9.60894
至秋	-9.61249
蕪菁	-9.61467
而無	-9.61542
敗	-9.61565
肥大	-9.61908
掛	-9.62103
雖有	-9.62331
士農必用	-9.62443
十石	-9.62448
而生	-9.62558
司農	-9.62663
糯稻	-9.62709
津	-9.62718
阬	-9.6273
豎	-9.62783
灾	-9.62805
辦	-9.62814
粢	-9.62821
烝	-9.62833
摩	-9.62838
薺	-9.62839
中央	-9.62864
噉	-9.62879
寜	-9.6288
簿	-9.62894
基	-9.62898
勒	-9.62904
州物産	-9.62918
淳	-9.62923
挾	-9.62945
凈油鹽調食	-9.62961
義倉	-9.63015
荔支	-9.63019
種法	-9.6303
粮	-9.63039
賞	-9.63052
而大	-9.63133
膠	-9.63192
先王	-9.63668
下田	-9.6407
不須	-9.64138
耐	-9.64249
三百	-9.64822
已上	-9.64873
擡	-9.64879
者其	-9.64898
泄	-9.6496
凶	-9.64987
従	-9.65
捐	-9.65054
緊	-9.65058
卽	-9.65071
隆	-9.6508
副	-9.65084
啟	-9.65095
塗之	-9.65095
勃	-9.65121
豕	-9.65138
浄油鹽調食	-9.65144
規	-9.65145
禹貢	-9.65145
孰	-9.65161
説文曰	-9.65172
芒種	-9.65172
徵	-9.65199
人謂之	-9.65276
樹藝	-9.65415
六十	-9.65486
澆之	-9.65574
牛糞	-9.65826
二寸	-9.66064
木𤓰	-9.66097
牛羊	-9.66284
旱則	-9.66383
瀦	-9.66442
平地	-9.66572
即今	-9.6658
紫色	-9.66641
戊	-9.66656
漲	-9.66978
抵	-9.66983
稔	-9.67026
第二	-9.671
民力	-9.67178
踐	-9.67227
零	-9.67232
生子	-9.67264
之本	-9.67286
巡	-9.67291
□	-9.67324
匪	-9.67354
夕	-9.67359
碧	-9.67359
宅	-9.67359
智	-9.67363
桑葉	-9.67363
蓴	-9.67378
履	-9.67387
恤	-9.67392
社倉	-9.67433
秕	-9.67453
甑	-9.67474
十七	-9.67501
員	-9.67545
高宗純皇帝御製恭和聖祖仁皇帝原韻	-9.67575
得所	-9.67578
樞	-9.67629
莫不	-9.67647
其莖	-9.67669
千里	-9.67848
無不	-9.67911
太平	-9.68
四方	-9.6807
傳曰	-9.68122
分野	-9.68235
古之	-9.68246
則易	-9.68574
三分	-9.68871
細切	-9.6899
地勢	-9.69031
者則	-9.69057
蓄積	-9.69066
柘	-9.69104
障	-9.69206
覺	-9.69218
三斗	-9.69428
民生	-9.69473
班	-9.69549
㡳	-9.69564
循	-9.6957
廵	-9.69575
嶺	-9.69598
曉	-9.69648
繳	-9.6965
奸	-9.69665
縷	-9.69667
偶	-9.69675
其事	-9.69677
酌量	-9.69689
釘	-9.69707
攻	-9.69711
沒	-9.69727
蝦	-9.69746
訓	-9.69765
虫	-9.69782
縫	-9.69786
宛	-9.6979
涇	-9.69795
七十	-9.69798
次第	-9.698
派	-9.69818
祝	-9.69823
錦	-9.69826
融	-9.69845
裁	-9.69885
白花	-9.70061
亦無	-9.7014
或用	-9.70186
貧民	-9.70306
數日	-9.70324
沿	-9.70399
箔上	-9.70436
南人	-9.70654
治之	-9.70672
一宿	-9.70701
不齊	-9.70841
樹枝	-9.7093
中國	-9.71129
幽	-9.71191
夏月	-9.71252
天氣	-9.71294
鴨	-9.71421
古今	-9.71437
卿	-9.71514
俗呼	-9.71661
地氣	-9.71715
不堪	-9.71733
苫	-9.71963
㡬	-9.71979
或謂之	-9.72008
不妨	-9.72012
準	-9.72052
阻	-9.72058
頼	-9.72063
絡	-9.72082
槃	-9.72085
𢷬	-9.72089
艾	-9.72096
所出	-9.72103
常平倉	-9.72104
浚	-9.72113
桂	-9.72116
鴈	-9.72119
犯	-9.72137
立秋	-9.72139
堯	-9.7214
柚	-9.72141
藿	-9.72154
殿	-9.72156
響	-9.72172
題	-9.7218
鬼	-9.72183
每一	-9.72204
族	-9.72204
是月也	-9.72245
熬	-9.72263
液	-9.72305
葉微	-9.72357
一寸	-9.72484
勿使	-9.72554
行之	-9.72624
所生	-9.72768
十倍	-9.72778
民之	-9.72808
秋冬	-9.72933
取子	-9.73215
寸許	-9.73293
箋	-9.73306
不盡	-9.73547
復生	-9.73767
若不	-9.73982
敷	-9.74125
荏	-9.7438
輾	-9.74401
級	-9.74411
啓	-9.74431
擁	-9.74473
強	-9.74476
芻	-9.74482
榛	-9.74504
什	-9.74511
控	-9.74511
盧	-9.74514
晨	-9.74528
寫	-9.74535
郎	-9.74549
十里	-9.74561
旗	-9.74567
𢎞	-9.74587
錯	-9.74591
戍	-9.74607
地中	-9.74633
而止	-9.74634
旱稻	-9.74715
使之	-9.74723
煮食	-9.74777
淨油鹽調食	-9.74828
為良	-9.74971
也夫	-9.75095
味酸	-9.75121
屯田	-9.75257
一丈	-9.75302
大夫	-9.75818
色黄	-9.75919
言之	-9.76038
人以	-9.76119
歉	-9.7613
出入	-9.76135
苜蓿	-9.76204
釀酒	-9.76331
何以	-9.76363
六尺	-9.76404
二十五	-9.76496
種稻	-9.76677
艱	-9.76734
蠶豆	-9.76784
中心	-9.76788
撫	-9.76796
倣	-9.768
坊	-9.76888
治病文具本草草部條下	-9.76908
椽	-9.76942
棚	-9.76954
髪	-9.7696
浪	-9.76973
蘭	-9.76977
栢	-9.76986
直𨽻	-9.76998
救飢採嫩	-9.76999
匾	-9.77
刋	-9.77008
疊	-9.77015
赴	-9.77018
紋	-9.77018
薰	-9.77021
協	-9.77029
慢	-9.7703
暇	-9.77032
羸	-9.77036
箱	-9.77043
付	-9.77047
那	-9.77048
述	-9.77072
龍眼	-9.77091
距	-9.77099
榴	-9.77125
懼	-9.7713
尊	-9.77164
釐	-9.77172
蕨	-9.77259
溲	-9.77284
之外	-9.77484
為民	-9.77628
其樹	-9.77818
為田	-9.77835
熟則	-9.77987
熟者	-9.78282
人户	-9.78348
十九	-9.78362
浙	-9.78446
如前	-9.78483
制度	-9.78513
天下之	-9.78658
東西	-9.78683
老農	-9.78743
㸔	-9.79119
彊	-9.79128
輔	-9.79416
霜降	-9.79486
葚	-9.79492
樁	-9.79493
囘	-9.79498
簸	-9.79504
亢	-9.7951
彌	-9.79512
筍	-9.79544
鋸齒	-9.79557
蕭	-9.79572
冠	-9.79577
樓	-9.79586
襄	-9.79586
顔	-9.79607
東作	-9.79613
塍	-9.79616
豚	-9.79617
符	-9.79619
閑	-9.79619
做	-9.79621
招	-9.79621
億	-9.7963
鞭	-9.79643
逢	-9.79654
究	-9.79674
翠	-9.79678
指揮	-9.79694
藜	-9.79698
武帝	-9.79707
韻	-9.79708
其間	-9.79713
脾	-9.79721
謀	-9.79724
太湖	-9.79729
追	-9.79743
屢	-9.79811
春分	-9.8013
去之	-9.80153
為利	-9.80206
之言	-9.8023
可愛	-9.80426
百餘	-9.80433
至冬	-9.80496
粒大	-9.80621
取出	-9.80632
取汁	-9.80736
閩	-9.80876
欽定四庫全書欽定授時通考卷	-9.80947
為末	-9.81093
忘	-9.81431
農桑輯要	-9.81636
八年	-9.8167
也然	-9.81753
天地	-9.81767
一月	-9.81856
窄	-9.81934
數年	-9.81963
潔	-9.81977
健	-9.82006
鐮	-9.82076
有益	-9.82081
有黄	-9.82086
曠	-9.82089
聼	-9.82123
鎌	-9.82125
互	-9.82131
纂	-9.82135
芸	-9.82135
紡	-9.82142
殆	-9.82143
挈	-9.82154
冨	-9.8217
倚	-9.82175
焚	-9.82179
巴	-9.82181
銅	-9.82186
摻	-9.82194
竅	-9.82199
展	-9.82203
療	-9.82204
兆	-9.82209
伊	-9.82214
童	-9.82223
衰	-9.82237
眉	-9.82252
御史	-9.82266
驚	-9.82266
往往	-9.82273
莽	-9.82296
烈	-9.82314
剛	-9.8233
靡	-9.82342
尺寸	-9.8236
尤佳	-9.82529
之日	-9.82732
其本	-9.82761
藏之	-9.82831
齊民要術云	-9.82837
出於	-9.83203
橘皮	-9.83221
色青	-9.83223
各省	-9.83456
春種	-9.8351
尺餘	-9.83566
耕耤	-9.8359
類也	-9.83661
雨水	-9.83688
江河	-9.83733
未有	-9.83754
或作	-9.83795
可得	-9.83804
千頃	-9.83958
陂塘	-9.84044
粟米	-9.84154
民事	-9.84171
東北	-9.84184
江東	-9.84531
忍	-9.84598
豇豆	-9.84616
陜	-9.84682
而長	-9.84707
苗葉	-9.84719
說文	-9.84726
夏秋	-9.84751
檢	-9.84762
趣	-9.8479
椎	-9.84832
拾	-9.84849
脯	-9.8485
蒂	-9.8485
滓	-9.84862
募	-9.84863
茱萸	-9.84869
汚	-9.8488
爽	-9.84881
拖	-9.84882
臂	-9.84882
亷	-9.84883
勾	-9.84885
鬻	-9.84889
徙	-9.8489
陜西	-9.84909
敎	-9.84911
貪	-9.84913
溺	-9.84923
倘	-9.84933
挽	-9.84938
贍	-9.84944
凍死	-9.84974
賑濟	-9.84977
静	-9.8498
披	-9.84997
爵	-9.85025
杓	-9.85036
宰	-9.85042
優	-9.85045
茂盛	-9.85094
山中	-9.85166
火燒	-9.85183
輕重	-9.85387
器也	-9.85494
肥地	-9.85815
五斗	-9.85959
七八	-9.85959
此法	-9.86288
黍米	-9.86301
後五日	-9.86382
兩頭	-9.86392
耕地	-9.86413
東方	-9.86427
力田	-9.86742
浴	-9.86776
之土	-9.86873
六七月	-9.86993
吹	-9.8725
渴	-9.87288
三十六	-9.87348
矣又	-9.87418
驢	-9.87502
於民	-9.87528
有小	-9.87543
蜂	-9.87585
墳	-9.87586
𫝊	-9.87602
令極	-9.87629
泛	-9.87658
頌	-9.87658
寶	-9.87666
籌	-9.87669
擔	-9.87687
刮	-9.87717
㵼	-9.87729
嗟	-9.87732
脫	-9.87734
禮記月令	-9.87734
賢	-9.87735
甸	-9.87744
二曰	-9.87746
濱	-9.87747
颺	-9.8775
院	-9.87767
淋	-9.87809
逹	-9.8781
京師	-9.87844
餉	-9.87855
錢糧	-9.87883
梢間	-9.87911
陽氣	-9.88011
不厭	-9.88156
秉	-9.88194
二十四	-9.8821
石灰	-9.88338
去皮	-9.88474
先生	-9.88484
之異	-9.88635
一百	-9.88676
生田野中	-9.88708
管子	-9.8874
得其	-9.88821
民食	-9.89189
有力	-9.89223
其田	-9.89289
多食	-9.89351
入藥	-9.89528
四寸	-9.89536
此皆	-9.896
必先	-9.89609
四種	-9.89612
自生	-9.89749
五六月	-9.89801
雅	-9.89919
江浙	-9.90019
教民	-9.90043
蠶桑	-9.90112
青白	-9.90161
丑	-9.9023
種麥	-9.90365
迴	-9.90368
重農	-9.90409
穎	-9.90425
燭	-9.90448
叙	-9.90467
癸	-9.90475
葉可食	-9.90475
澱	-9.90485
帯	-9.90487
桶	-9.90497
邪	-9.90506
梯	-9.90515
熏	-9.90518
梓	-9.90522
脩	-9.90528
鳳	-9.90534
雁	-9.90538
緒	-9.90539
簷	-9.90555
訪	-9.90569
熊	-9.90572
冰	-9.90573
座	-9.90579
禱	-9.90588
捕	-9.9059
蠲	-9.906
翦	-9.90601
沾	-9.90629
保甲	-9.90633
忙	-9.90635
禄	-9.90638
梔子	-9.90671
翼	-9.90683
倣此	-9.90685
晒乾	-9.90699
淀	-9.90799
曝之	-9.90837
稻田	-9.90848
而上	-9.9104
隂乾	-9.91202
其性	-9.91255
蔓生	-9.91408
亦名	-9.91417
荔枝	-9.91506
以防	-9.9153
水勢	-9.91636
種麻	-9.91825
如法	-9.91911
西方	-9.91959
旱澇	-9.91983
嵗嵗	-9.92005
知其	-9.92195
黄花	-9.92357
其皮	-9.92364
多者	-9.92394
當時	-9.92399
三代	-9.92426
本縣	-9.92577
諸州	-9.92593
庫	-9.92766
季	-9.92784
可也	-9.92789
檾	-9.93346
耦	-9.93346
埴	-9.93353
鄰	-9.93388
務本新書曰	-9.93396
杉	-9.93411
遥	-9.93424
千石	-9.93442
霑	-9.93446
繞	-9.93463
皺	-9.93466
斟酌	-9.93466
趂	-9.93481
挂	-9.9349
振	-9.93499
牟	-9.935
鋒	-9.93512
船	-9.93518
城郭	-9.93537
拜	-9.93551
纎	-9.93552
衞	-9.93568
豉汁	-9.93575
沛	-9.93578
影	-9.93606
䪥	-9.93675
多用	-9.93713
開濬	-9.93939
五分	-9.94095
草一名	-9.94171
神農	-9.94226
令熟	-9.9427
樹木	-9.94351
比之	-9.94516
生食	-9.94816
百穀	-9.94921
農民	-9.94949
或云	-9.95306
向上	-9.95306
菜生	-9.95308
耤田	-9.95323
則死	-9.95565
揚州	-9.95604
盜	-9.95669
實如	-9.95798
第四	-9.95807
亦如	-9.95918
日出	-9.95995
層	-9.96036
者佳	-9.96147
又法	-9.96194
易生	-9.96216
督撫	-9.96235
杮	-9.96329
樝	-9.96335
蕡	-9.96356
啖	-9.96393
壬	-9.96394
汜勝之書	-9.96418
氏曰	-9.96428
㟁	-9.96431
繅	-9.96434
杴	-9.96447
曵	-9.96449
蔡	-9.9645
奴	-9.9645
隋	-9.96462
穡	-9.96464
震	-9.96476
玉衡	-9.96482
亡	-9.96492
杵臼	-9.96495
寺	-9.96519
牀	-9.96519
廉	-9.9652
汙	-9.9652
輩	-9.96522
豪	-9.96527
射	-9.96529
糖	-9.9653
攸	-9.96531
遭	-9.96536
桔橰	-9.96537
擺	-9.96553
之心	-9.96558
歡	-9.96561
沃之	-9.96588
糜	-9.96593
匏	-9.96601
允	-9.96611
也詩云	-9.96658
挼	-9.96674
秬	-9.96793
修築	-9.96879
最佳	-9.97072
橙	-9.9708
耕耘	-9.97081
有毒	-9.97123
皮薄	-9.97229
八尺	-9.97271
為一	-9.97277
人所	-9.97313
湖水	-9.97332
牛馬	-9.97555
用子	-9.97594
詔曰	-9.97612
微苦	-9.97672
黒色	-9.97696
者謂	-9.97792
葱白	-9.97854
豈不	-9.97867
黑色	-9.97886
郡縣	-9.97961
潤澤	-9.98031
六七	-9.98231
以手	-9.98256
無力	-9.98297
土中	-9.98359
之政	-9.98394
使民	-9.9841
大水	-9.98451
酒法	-9.98494
田制	-9.98672
一畆	-9.98699
分栽	-9.98786
收藏	-9.98821
又可	-9.98827
以待	-9.99156
之内	-9.99337
然則	-9.9934
早熟	-9.99346
耰	-9.99438
鼠	-9.99526
上流	-9.99536
乙	-9.99538
撻	-9.99543
岡	-9.9955
漚	-9.99577
隰	-9.99588
糊	-9.99612
橛	-9.99616
脹	-9.99618
歟	-9.99619
圎	-9.99621
肩	-9.99631
卜	-9.99632
策	-9.99632
晝夜	-9.99634
之勢	-9.99634
凌	-9.99636
忠	-9.99656
胥	-9.99667
產	-9.99671
簾	-9.99673
絳	-9.99676
覈	-9.99681
裕	-9.99684
秩	-9.99684
勉	-9.99687
耩	-9.99694
紹興	-9.99694
握	-9.99702
迫	-9.99707
噐	-9.99712
次五日	-9.99725
以成	-9.99726
椀	-9.99728
倉廪	-9.99732
罰	-9.99735
凶年	-9.99743
戴	-9.99745
胃	-9.99775
入海	-9.99809
牢	-9.99831
返	-9.99836
祗	-9.99847
墨	-9.99857
五種	-9.99975
二三月	-10
養蠶	-10.0006
油麻	-10.0009
所用	-10.0015
如此則	-10.0043
數尺	-10.0059
下地	-10.0085
佐	-10.0085
無雨	-10.0086
稻米	-10.0087
每年	-10.009
勞之	-10.0101
農功	-10.0103
每嵗	-10.0108
山川	-10.0113
地形	-10.0132
飲食	-10.0133
四時類要	-10.0134
一家	-10.0135
根下	-10.014
者非	-10.0149
未盡	-10.0168
九州	-10.0175
王禎	-10.0176
有毛	-10.0182
有四	-10.0189
早種	-10.019
州郡	-10.0197
以示	-10.0234
農人	-10.024
故有	-10.0249
不至	-10.0254
不可得	-10.0263
故謂之	-10.0264
后	-10.0269
立春	-10.0269
醃	-10.027
者宜	-10.0272
穬麥	-10.0273
治病文具本草草部	-10.0273
所以為	-10.0274
两	-10.0279
雛	-10.0281
網	-10.0281
護	-10.0282
輻	-10.0282
氊	-10.0283
洲	-10.0283
滴	-10.0284
枸杞	-10.0286
縛	-10.0287
濁	-10.0288
碗	-10.0288
邦	-10.0289
蕪	-10.0289
稭	-10.0289
幼	-10.029
濵	-10.029
曹	-10.029
瓤	-10.0292
内有	-10.0292
薹	-10.0293
宮	-10.0294
憑	-10.0294
臙脂	-10.0294
的	-10.0296
瓢	-10.03
膏腴	-10.0301
即成	-10.0301
陌	-10.0303
庸	-10.0303
銜	-10.0304
呼為	-10.0312
丸	-10.0318
丙	-10.032
一夫	-10.0321
蒸之	-10.0324
或有	-10.0324
者或	-10.0334
若夫	-10.0339
吕	-10.0339
此言	-10.0342
江西	-10.0345
枝條	-10.0355
漉出	-10.0357
蘇州	-10.0362
嫩時	-10.037
皮厚	-10.0379
務農	-10.0386
以木	-10.0391
田之	-10.0392
黍有	-10.0399
二三寸	-10.0399
二人	-10.0408
主水	-10.0416
紫花	-10.0418
之氣	-10.0434
則為	-10.0452
一科	-10.0457
其時	-10.046
人多	-10.0467
在上	-10.0474
雌	-10.0474
此時	-10.0474
白米	-10.0479
田疇	-10.0481
生水	-10.0486
之費	-10.0487
一畒	-10.049
合和	-10.0494
白者	-10.05
居民	-10.0514
日用	-10.0522
生薑	-10.0531
治田	-10.0532
發生	-10.0546
三穂	-10.0546
民有	-10.0546
淘浄油鹽調食	-10.055
亦然	-10.055
不見	-10.0556
兩端	-10.0559
拘	-10.0561
禽	-10.0564
或曰	-10.0589
府古	-10.0592
者良	-10.0598
有功	-10.06
八九月	-10.0607
膝	-10.0607
瘥	-10.0607
杭	-10.061
構	-10.061
壌	-10.0611
杞	-10.0611
畨	-10.0612
穉	-10.0613
吉貝	-10.0613
蓆	-10.0614
翁	-10.0615
無芒	-10.0615
勻	-10.0615
霖	-10.0616
林檎	-10.0616
憲	-10.0617
鳬	-10.0617
髮	-10.0617
丞	-10.0617
耒	-10.0618
才	-10.0619
飭	-10.0619
楝	-10.062
柯	-10.062
葫蘆	-10.062
稃	-10.0621
枸	-10.0621
樸	-10.0622
萵苣	-10.0622
獸	-10.0622
劣	-10.0623
傅	-10.0623
鮓	-10.0623
償	-10.0623
咨	-10.0624
閣	-10.0624
操	-10.0624
詢	-10.0624
冀州	-10.0625
刑	-10.0625
妄	-10.0625
峻	-10.0628
舎	-10.0628
縮	-10.063
香美	-10.0632
肺	-10.0634
冩	-10.0636
挹	-10.064
餳	-10.0645
胡桃	-10.0652
如指	-10.0656
二分	-10.066
禾稼	-10.0664
一赤	-10.0668
草部	-10.0668
魯桑	-10.0673
八十	-10.0677
淮南	-10.0678
逺近	-10.0692
不出	-10.0693
甚美	-10.0694
流水	-10.0695
榖雨	-10.0717
苧麻	-10.0717
平原	-10.0718
不為	-10.0718
他方	-10.0726
尚書	-10.0746
備荒	-10.0752
九年	-10.0775
當年	-10.0793
則難	-10.0797
之月	-10.0804
之官	-10.0804
人呼為	-10.083
地上	-10.0847
祈榖	-10.0857
而細	-10.0861
常熟	-10.087
其名	-10.0872
不實	-10.0886
各處	-10.0891
域	-10.0898
今日	-10.0904
之説	-10.0906
箇	-10.0909
之徑	-10.0912
區種	-10.0913
矣今	-10.0915
用力	-10.0923
此亦	-10.0928
性寒	-10.0948
圭	-10.0951
蓐	-10.0954
虹	-10.0955
効	-10.0957
上用	-10.0957
薉	-10.0957
軖	-10.0958
姓	-10.0958
岳	-10.0959
扈	-10.0959
疋	-10.096
臠	-10.096
圖譜	-10.096
逼	-10.0961
觸	-10.0961
酥	-10.0962
以土	-10.0962
婆	-10.0962
齋	-10.0964
䕃	-10.0964
彈	-10.0964
叚	-10.0965
鴻	-10.0965
踰	-10.0965
輿	-10.0966
培壅	-10.0966
綴	-10.0966
虧	-10.0967
荼	-10.0967
羽	-10.0967
驟	-10.0969
枇杷	-10.097
魁	-10.097
腴	-10.0972
鑄	-10.0973
雹	-10.0974
刷	-10.0974
爰	-10.0975
濡	-10.0976
醫	-10.0976
有二	-10.0979
欣	-10.0983
肆	-10.0985
滅	-10.0987
士農必用曰	-10.1
復以	-10.1001
周官	-10.102
雨則	-10.1026
今嵗	-10.103
註云	-10.1041
少許	-10.1049
蓮子	-10.106
兖	-10.1061
人之	-10.1072
無窮	-10.1075
從來	-10.1077
秋成	-10.1085
以前	-10.1087
漢書	-10.1091
務本	-10.1091
入於	-10.1096
斯民	-10.1097
菜一名	-10.1108
㣲苦	-10.1124
亦多	-10.1136
生民	-10.1153
此物	-10.1165
早糯	-10.1185
上帝	-10.1201
是故	-10.1208
一法	-10.121
苗髙	-10.121
器中	-10.1212
堅實	-10.1215
所種	-10.1222
生山野中	-10.1223
得水	-10.1231
足以	-10.1247
農器	-10.1254
不煩	-10.1255
三月種	-10.1267
先農	-10.1268
雨後	-10.1276
辨其	-10.1279
食者	-10.128
耆	-10.1293
十畝	-10.1293
一名地	-10.1299
剉	-10.1304
􁓰􁥯	-10.1309
漑	-10.1309
澄	-10.1309
件	-10.131
盪	-10.1311
柏	-10.1312
劚	-10.1313
繋	-10.1315
轆轤	-10.1315
萁	-10.1316
眀	-10.1316
開黄花	-10.1317
壘	-10.1317
隂雨	-10.1317
柞	-10.1318
麗	-10.1318
駒	-10.1318
餵	-10.1318
搖	-10.1319
鼔	-10.132
至于	-10.132
畿	-10.1321
顯	-10.1322
偃	-10.1322
胎	-10.1323
邱	-10.1323
冊	-10.1323
奔	-10.1325
范	-10.1325
兎	-10.1326
滌	-10.1327
藻	-10.1327
臛	-10.1327
瑩	-10.1327
茴香	-10.1328
拳	-10.1328
隣	-10.1329
撰	-10.1329
籰	-10.1329
鱗	-10.1329
又作	-10.133
朝廷	-10.1331
䖍	-10.1331
祠	-10.1333
亥	-10.1333
說文云	-10.1333
雉	-10.1335
侈	-10.1338
太守	-10.134
遽	-10.1341
荒蕪	-10.1341
豐稔	-10.1342
性温	-10.1346
幾何	-10.1349
地宜	-10.1357
而耕	-10.1359
水入	-10.1366
深耕	-10.1368
因其	-10.137
或以	-10.1372
燃	-10.1374
胡豆	-10.1377
風吹	-10.1377
此月	-10.1377
荒田	-10.1379
不時	-10.1382
子弟	-10.1383
四升	-10.1388
其土	-10.1388
雲南	-10.1396
白楊	-10.14
托	-10.1416
山藥	-10.1421
坑中	-10.1424
而厚	-10.1425
有二種	-10.1431
其木	-10.1435
蠧	-10.1444
子孫	-10.1445
舉行	-10.1445
不言	-10.1452
救飢採苗葉煠熟	-10.1456
必湏	-10.1457
三等	-10.1463
微小	-10.1464
淨洗	-10.1467
秋分	-10.147
田有	-10.1474
不易	-10.148
糞土	-10.1481
為下	-10.1483
收之	-10.1485
一嵗	-10.1487
間有	-10.1492
二物	-10.1496
性平	-10.1503
河北	-10.1504
黑豆	-10.1504
不任	-10.1518
用竹	-10.1538
又凡	-10.1559
▁又	-10.1563
其力	-10.157
及時	-10.1571
之計	-10.1572
筩之	-10.1583
耕之	-10.1585
生苗	-10.1599
色赤	-10.1599
四曰	-10.1606
木為	-10.161
荆州	-10.1618
蠶事	-10.1618
其後	-10.1626
厭	-10.1627
之狀	-10.1634
人君	-10.1641
有刺	-10.1648
山西	-10.1651
議者	-10.1654
澮	-10.1657
坡	-10.1667
也故曰	-10.167
每日	-10.1675
鑱	-10.1676
卻	-10.1683
柵	-10.1684
講	-10.1684
楂	-10.1685
壮	-10.1687
畬	-10.1687
苣	-10.1687
蘓	-10.1689
腫	-10.1689
崖	-10.169
覽	-10.1691
諭内閣	-10.1691
僕	-10.1691
厫	-10.1691
抄	-10.1691
欝	-10.1692
阿	-10.1692
淫	-10.1693
淮南子	-10.1693
作一	-10.1693
牐	-10.1694
豳風	-10.1694
閩廣	-10.1696
筆	-10.1697
逓	-10.1697
欽	-10.17
暫	-10.1701
猫	-10.1702
孤	-10.1703
沃壤	-10.1705
縱横	-10.1705
洽	-10.1705
逃	-10.1706
其氣	-10.1706
弓	-10.1706
甃	-10.1709
然而	-10.1711
押	-10.1712
亦如之	-10.1717
不勝	-10.1721
一體	-10.1725
變為	-10.1727
六畜	-10.1733
春月	-10.174
第五	-10.1742
種蒔	-10.1742
觀之	-10.1748
千萬	-10.1768
平無毒	-10.1774
不蛀	-10.1776
之苦	-10.179
蔓延	-10.1805
便熟	-10.1811
亦佳	-10.1811
小兒	-10.1818
千畝	-10.1823
至意	-10.1825
生芽	-10.183
二候	-10.1832
上旬	-10.1836
分别	-10.1837
糯米	-10.1839
之禮	-10.1845
其勢	-10.1849
入土	-10.185
田地	-10.1857
蓋之	-10.1864
十五日	-10.187
皆有之	-10.1872
可以為	-10.1877
二尺許	-10.1879
四五尺	-10.188
熟食	-10.189
則可	-10.1908
二十日	-10.1909
樹高	-10.1911
否則	-10.1927
紅色	-10.1934
一行	-10.1939
開細	-10.1945
三時	-10.1949
一頃	-10.1956
故以	-10.1961
一處	-10.1967
三四月	-10.1976
無實	-10.1984
時雨	-10.1992
婦人	-10.1994
田間	-10.1995
北風	-10.2001
利害	-10.202
去苦味	-10.2035
物也	-10.2037
鋸	-10.2045
鬆	-10.2047
不均	-10.2054
農器圖譜	-10.2054
疥	-10.2064
內	-10.2065
轂	-10.2067
暵	-10.2067
蘇頌曰	-10.2067
寓	-10.2068
洞	-10.2069
藪	-10.2069
纑	-10.207
蓑	-10.207
䖏	-10.2071
溼	-10.2071
垣	-10.2071
棃	-10.2072
厨	-10.2072
蔴	-10.2073
頸	-10.2073
怕	-10.2074
轅	-10.2074
暗	-10.2074
芰	-10.2074
羔	-10.2075
戽	-10.2075
攢	-10.2076
其類	-10.2076
曳	-10.2076
生青熟	-10.2076
㸑	-10.2076
几	-10.2076
亦大	-10.2077
沐	-10.2077
緜	-10.2077
牝	-10.2079
飾	-10.2079
醉	-10.2079
炭	-10.2079
帚	-10.2081
朴	-10.2081
韋	-10.2081
程	-10.2082
鏵	-10.2082
貽	-10.2083
碪	-10.2084
冐	-10.2085
有水	-10.2085
鳩	-10.2086
隄防	-10.2086
亟	-10.2086
郭璞注曰	-10.2086
新添	-10.2088
廣志	-10.2088
廣雅曰	-10.2092
舜	-10.2094
五六寸	-10.2096
十斤	-10.2096
根株	-10.2104
總論	-10.2105
川澤	-10.2107
龍爪	-10.2108
秠	-10.2108
耕耨	-10.211
開河	-10.2114
本草名	-10.2118
四五寸	-10.2119
其制	-10.2125
說文曰	-10.2126
也此	-10.2136
收歛	-10.2137
用大	-10.2137
光頭	-10.214
用糞	-10.2142
分為	-10.215
黄帝	-10.2154
冬春	-10.2156
大寒	-10.2158
摘取	-10.2161
地黄	-10.2169
社稷	-10.2171
荒歉	-10.2175
山野	-10.2181
置之	-10.2182
清水	-10.2188
守令	-10.2192
而為之	-10.2196
有六	-10.2212
三五	-10.2215
南畝	-10.2219
需	-10.222
之初	-10.2224
而死	-10.2225
老則	-10.2233
果木	-10.2233
受田	-10.2249
之理	-10.225
積水	-10.2252
敦	-10.2259
可見	-10.2273
灰糞	-10.228
少者	-10.2285
開小	-10.23
作餅	-10.2303
言其	-10.2305
春耕	-10.233
此理	-10.2342
大都	-10.2344
得雨	-10.2353
浙西	-10.2362
為率	-10.2368
考之	-10.2378
如有	-10.2383
盡力	-10.2384
高大	-10.2387
矣然	-10.2394
秔稻	-10.2411
開白花	-10.2413
不絶	-10.2418
二三尺	-10.242
秋耕	-10.2422
匠	-10.2423
下子	-10.2434
欽定四庫全書	-10.2438
必用	-10.2451
熟糞	-10.2454
煑之	-10.2456
搯	-10.2459
庾	-10.2462
本草原有	-10.2463
芝	-10.2466
概	-10.2466
床	-10.2467
麰	-10.2467
牡	-10.2468
恃	-10.2468
䋲	-10.247
廩	-10.247
蔗	-10.247
埋之	-10.2471
宇	-10.2472
掐	-10.2472
趁	-10.2472
絮	-10.2473
樗	-10.2473
嘴	-10.2473
葑	-10.2473
瀆	-10.2474
訛	-10.2475
搥	-10.2475
桞	-10.2476
葶	-10.2476
怒	-10.2477
甘蔗	-10.2477
判	-10.2477
蘿	-10.2477
剗	-10.2477
熙	-10.2477
遮	-10.2477
暈	-10.2477
蕎	-10.2477
玄	-10.2477
畮	-10.2478
蘖	-10.2478
廟	-10.2479
蘇松	-10.248
肌	-10.2482
岀	-10.2483
烹	-10.2484
聊	-10.2484
確	-10.2484
本草綱目李時珍曰	-10.2484
盗	-10.2484
饗	-10.2484
朽	-10.2484
穹	-10.2485
羣芳譜種植	-10.2485
枳	-10.2485
饋	-10.2485
使人	-10.2486
漳	-10.2486
遶	-10.2487
標	-10.2487
男女	-10.249
醴	-10.2491
痰	-10.2492
户部	-10.2493
靜	-10.2493
文獻通考	-10.2493
水澆	-10.2496
紛	-10.2496
周圍	-10.2497
失其	-10.2499
諸侯	-10.2501
祈報	-10.2503
無異	-10.2503
芥菜	-10.2509
經界	-10.2511
任意	-10.2511
狀似	-10.2514
六百	-10.2521
諸郡	-10.2525
通行	-10.2538
糞壤	-10.2539
水灌	-10.2539
朕心	-10.2541
農之	-10.2544
皆得	-10.2554
七八月	-10.2555
収貯	-10.2563
有一	-10.2582
赤小豆	-10.2605
飼之	-10.2606
者如	-10.2606
而得	-10.2614
宜用	-10.2635
紅花	-10.2636
幽州	-10.264
法取	-10.265
冬青	-10.2654
乃止	-10.2661
青州	-10.2664
地桑	-10.267
以助	-10.2671
一遍	-10.2673
水陸	-10.2674
芽出	-10.2674
江海	-10.2677
不入	-10.2677
事者	-10.2683
浙江	-10.2689
葉味甘	-10.269
即死	-10.2696
又以	-10.2697
則必	-10.2698
者何	-10.2701
興工	-10.2706
長而	-10.2709
其功	-10.2711
於内	-10.2711
長至	-10.2711
殺人	-10.273
名為	-10.2739
田者	-10.2748
早晚	-10.275
其色	-10.2751
以糞	-10.2752
則不生	-10.2761
十數	-10.2763
亦曰	-10.2763
欲其	-10.2768
不可食	-10.2775
用木	-10.2778
便可	-10.2782
八日	-10.2785
五曰	-10.2786
京東	-10.2791
物之	-10.2793
二斗	-10.2796
日月	-10.2803
生蟲	-10.2805
不可不	-10.2818
生田野中苗	-10.282
大麻	-10.2826
大熟	-10.2834
皆為	-10.2835
三曰	-10.2867
胡荽	-10.287
公田	-10.2871
筭	-10.288
有秋	-10.288
􁲼	-10.288
秤	-10.288
不甚	-10.2882
拐	-10.2883
劈	-10.2884
莠	-10.2884
閭	-10.2885
蒴	-10.2886
齧	-10.2886
董	-10.2887
𨽻	-10.2888
褁	-10.2888
謂其	-10.2889
膽	-10.2889
甽	-10.289
澗	-10.289
崔	-10.289
勁	-10.289
色紅	-10.289
陷	-10.289
丼	-10.2891
鏺	-10.2892
危	-10.2892
詣	-10.2892
橫	-10.2892
囊	-10.2892
亞	-10.2892
冗	-10.2893
靖	-10.2894
犢	-10.2894
厰	-10.2894
頴	-10.2895
饑饉	-10.2895
僧	-10.2896
諸般	-10.2896
鍬	-10.2896
繰絲	-10.2897
棲	-10.2898
偹	-10.2898
險	-10.2898
隱	-10.2899
劑	-10.2899
帥	-10.2899
賞罰	-10.2899
玩	-10.2899
偽	-10.29
祇	-10.29
談	-10.2901
捍	-10.2902
薊	-10.2903
櫻	-10.2904
餾	-10.2905
騎	-10.2905
鑒	-10.2905
邀	-10.2906
山野間	-10.2907
白茆	-10.2907
饙	-10.2908
縣物産稻	-10.291
荆桑	-10.291
雨澤	-10.291
缹	-10.2912
救飢採葉煠熟	-10.2912
贊	-10.2913
認	-10.2916
仲春	-10.2921
公私	-10.2921
嘉定	-10.2922
官吏	-10.2931
米一石	-10.2931
經宿	-10.2931
辣	-10.2951
一作	-10.2958
而民	-10.2971
又有一種	-10.2973
未嘗	-10.2973
乃佳	-10.2977
黏曰	-10.2985
事也	-10.2989
不免	-10.2995
種竹	-10.3001
耐旱	-10.3004
風土	-10.301
故云	-10.3012
一二尺	-10.3028
不論	-10.3035
種藝	-10.3036
一次	-10.3066
味美	-10.308
先用	-10.3082
香稻	-10.3087
太宗	-10.3089
覆土	-10.309
富民	-10.3091
爾等	-10.3092
者是	-10.3101
七尺	-10.3103
西成	-10.3105
不使	-10.3106
山有	-10.3109
長大	-10.3112
雨雪	-10.3113
苖髙	-10.3119
苗長	-10.3121
其長	-10.313
日曝	-10.313
為害	-10.3132
不行	-10.3134
方可	-10.3136
皆可食	-10.3147
于海	-10.3149
虎皮糯	-10.315
隨宜	-10.3155
所有	-10.3155
種類	-10.3165
農書卷	-10.3172
為度	-10.3176
之勞	-10.3188
大冬	-10.3189
益人	-10.3191
矣其	-10.3199
北地	-10.3205
用此	-10.3213
三江	-10.3217
失所	-10.3235
河水	-10.3236
川谷	-10.3237
紅芒	-10.324
下氣	-10.3263
芽生	-10.3272
蒸食	-10.3273
種桑	-10.3275
治水	-10.329
不以	-10.3296
十分	-10.3296
以充	-10.3299
中原	-10.3301
煠	-10.3307
綽	-10.3309
不收	-10.331
囷	-10.3315
匝	-10.3316
上以	-10.3316
無定度	-10.3317
蘭香	-10.3318
救公饑	-10.3318
韌	-10.3318
廷	-10.3319
明徐光啟撰	-10.3319
檜	-10.3319
廵撫	-10.332
可收	-10.332
足食	-10.3321
欺	-10.3321
彚	-10.3322
蒙	-10.3322
隅	-10.3323
怪	-10.3323
叅	-10.3324
百畆	-10.3324
賔	-10.3324
介	-10.3324
測	-10.3324
狼	-10.3324
萎	-10.3325
燠	-10.3325
戯	-10.3325
陶𢎞景曰	-10.3325
磑	-10.3326
筥	-10.3326
鋭	-10.3326
跨	-10.3326
貲	-10.3326
蠻	-10.3327
繀	-10.3327
之别	-10.3327
袋	-10.3327
鼈	-10.3328
堇	-10.3328
勸諭	-10.3328
潭	-10.3328
迹	-10.3329
􁋁	-10.3329
茗	-10.3329
怨	-10.333
拯	-10.333
揭	-10.333
西域	-10.333
陣	-10.333
槁	-10.333
欵	-10.333
淵	-10.3331
溥	-10.3331
於地	-10.3332
餌	-10.3332
縳	-10.3333
箬	-10.3334
競	-10.3334
敵	-10.3335
旅	-10.3335
渡	-10.3335
兔	-10.3335
孕	-10.3335
桑椹	-10.3336
巖	-10.3336
池塘	-10.3337
呂	-10.3341
來者	-10.3341
百榖	-10.3341
不可以	-10.3342
綺	-10.3342
飴	-10.3346
為上時	-10.3346
戸部	-10.3347
牲	-10.3347
墜	-10.3348
矣若	-10.3351
疲	-10.3354
孟子	-10.337
地土	-10.3371
生則	-10.3374
根似	-10.3379
目前	-10.3379
太倉	-10.339
文帝	-10.3392
來春	-10.3399
不拘	-10.3401
亦作	-10.3405
多而	-10.3406
溝渠	-10.3407
美者	-10.3412
國之	-10.3419
棠梨	-10.3425
術曰	-10.3426
桑柘	-10.3428
牛耕	-10.3431
一步	-10.3433
半月	-10.3433
書云	-10.344
成行	-10.3442
乾者	-10.3443
數倍	-10.3451
於上	-10.3452
不通	-10.3452
千百	-10.3469
以便	-10.3473
瓮中	-10.3483
者乃	-10.3485
以草	-10.3488
先時	-10.3491
長短	-10.3492
以至	-10.3496
糯曰	-10.3497
一頭	-10.35
庶人	-10.3521
五百	-10.3523
飼蠶	-10.3527
欲令	-10.3531
二兩	-10.3531
最為	-10.3532
幹河	-10.3547
州禾	-10.355
則根	-10.3551
無事	-10.3557
黄衣	-10.3559
民無	-10.3564
八九	-10.3566
花葉	-10.3567
草生	-10.3569
為主	-10.3571
憫	-10.3573
一物	-10.3577
苗出	-10.358
成王	-10.3581
未成	-10.3593
人掌	-10.3594
梅雨	-10.3601
者為上	-10.3603
有芒	-10.3613
種樹	-10.3615
主人	-10.3615
十萬	-10.3618
之節	-10.3621
屬也	-10.3622
春雨	-10.3623
服之	-10.3632
枝河	-10.3634
八月白	-10.3641
上天	-10.3647
土人	-10.3648
秋後	-10.3649
故道	-10.3654
濕潤	-10.3655
以小	-10.3656
惟在	-10.3661
江水	-10.3663
青色	-10.3666
最多	-10.369
紵	-10.3706
或至	-10.3707
之使	-10.3708
於田	-10.3709
無遺	-10.3709
糞壅	-10.3722
㬠	-10.3733
令其	-10.3733
浸之	-10.3735
四百	-10.3736
有數種	-10.3738
白稻	-10.3746
豳	-10.3746
難得	-10.3758
大雨	-10.3767
捋	-10.377
鄙	-10.377
爾雅翼	-10.3772
明日	-10.3772
梧桐	-10.3772
之候	-10.3772
即以	-10.3773
暢	-10.3774
下濕	-10.3774
明徐光啓撰	-10.3775
蓏	-10.3775
裛	-10.3775
潰	-10.3775
鉅	-10.3776
揆	-10.3776
敕	-10.3777
彭	-10.3777
異物志曰	-10.3777
儋	-10.3778
一斤	-10.3778
則生	-10.3778
婁	-10.3779
般	-10.378
温無毒	-10.378
帖	-10.378
虀	-10.3781
便民圖纂曰	-10.3781
薙	-10.3782
羡	-10.3782
蛇	-10.3782
疫	-10.3783
漁	-10.3783
荔	-10.3783
挺	-10.3784
顛	-10.3784
簟	-10.3784
冶	-10.3785
獵	-10.3786
遞	-10.3786
署	-10.3786
儻	-10.3787
濫	-10.3787
綱	-10.3788
歇	-10.3788
幷	-10.3788
倦	-10.3789
詠	-10.3789
包裹	-10.3789
褐	-10.3789
畚	-10.3789
煮熟	-10.379
繪	-10.379
父老	-10.3791
巡撫	-10.3791
販	-10.3791
祐	-10.3792
閲	-10.3793
巢	-10.3793
尹	-10.3794
擅	-10.3794
鶉	-10.3795
虱	-10.3795
映	-10.3795
洪武	-10.3796
鍤	-10.3796
愁	-10.3796
齏	-10.3797
腦	-10.3797
支散	-10.3798
彰	-10.38
敇	-10.38
松江	-10.3802
必以	-10.3802
繇	-10.3805
俯	-10.3806
楊梅	-10.3808
脂麻	-10.3808
硫黄	-10.3808
具奏	-10.3816
皆不	-10.3817
不堪食	-10.382
後十五日斗柄指	-10.382
塗泥	-10.3822
豬肉	-10.3826
也一候	-10.3827
三眠	-10.3832
經霜	-10.3834
流移	-10.3835
竹筒	-10.3847
開五瓣	-10.3858
霜後	-10.386
其人	-10.3864
吾民	-10.3865
江北	-10.3865
孔也	-10.3866
九十	-10.3867
山林	-10.3877
米白	-10.3877
視之	-10.3883
状如	-10.3883
有言	-10.3884
縣官	-10.3884
廣西	-10.3888
之故	-10.3891
大有	-10.3891
俗呼為	-10.3895
疏通	-10.3896
水稻	-10.3898
斫去	-10.3908
饑民	-10.391
也又曰	-10.3912
丈餘	-10.3915
其外	-10.3917
香糯	-10.3918
隂地	-10.3919
之性	-10.3924
粳米	-10.393
不冝	-10.3934
官為	-10.3938
緑豆	-10.3941
形似	-10.3957
此其	-10.396
是時	-10.396
相視	-10.3962
人民	-10.3963
菜也	-10.3965
淘洗	-10.3965
名也	-10.3967
有赤	-10.3974
開荒	-10.3976
百頃	-10.3977
耕者	-10.3983
白菜	-10.3989
化為	-10.4
五行	-10.4001
常以	-10.4003
自是	-10.4014
其花	-10.4018
根如	-10.4024
不死	-10.4027
麥秋	-10.4029
蒸熟	-10.4035
處處	-10.4047
二麥	-10.4051
以竹	-10.406
從事	-10.4074
即生	-10.4085
至此	-10.4101
之饒	-10.4109
欲使	-10.411
其苗	-10.411
皆然	-10.4112
竹葉	-10.4124
不熟	-10.4155
以勸	-10.4165
六寸	-10.417
不爾	-10.4171
子丑	-10.4178
八寸	-10.4183
水盡	-10.4185
一合	-10.4188
水土	-10.4194
多生	-10.4201
起土	-10.4228
蘄	-10.4233
年來	-10.4239
蕓薹	-10.4244
稌	-10.4245
數百	-10.4245
郤	-10.4246
不止	-10.4249
喬	-10.4249
剶	-10.4249
掉	-10.425
叠	-10.425
𤣥扈先生曰嘗過	-10.4251
輓	-10.4251
􁗮	-10.4251
㨗	-10.4252
缸	-10.4252
徐光啓曰	-10.4252
罨	-10.4252
茘枝	-10.4252
爐	-10.4253
亦可食	-10.4254
弭	-10.4255
鳯	-10.4255
拭	-10.4255
貝	-10.4255
遼	-10.4255
􁋕	-10.4255
坤	-10.4255
遏	-10.4255
碢	-10.4255
○	-10.4256
威	-10.4256
干	-10.4256
贏	-10.4256
肚	-10.4257
橄欖	-10.4258
渇	-10.4258
灼	-10.4258
蘂	-10.4258
仕	-10.4259
閭閻	-10.4259
叔	-10.4259
濯	-10.426
臻	-10.426
昬	-10.426
肋	-10.4261
揮	-10.4261
畛	-10.4262
賊	-10.4262
慰	-10.4262
猴	-10.4263
工程	-10.4264
曉諭	-10.4264
個	-10.4264
耕織圖	-10.4265
尤妙	-10.4266
逮	-10.4266
勵	-10.4266
墊	-10.4267
怠	-10.4267
嶺南	-10.4267
飄	-10.4268
代之	-10.4268
預備	-10.4268
天地之	-10.4268
鶴	-10.4268
廻	-10.4268
躍	-10.427
翻車	-10.427
𥘉	-10.427
江湖	-10.427
拂	-10.427
煠食	-10.4271
途	-10.4271
慈	-10.4272
斥	-10.4272
詞	-10.4273
洫	-10.4273
原隰	-10.4275
瀕海	-10.4276
太祖	-10.4276
析	-10.4277
陞	-10.4279
占城	-10.4285
搯去	-10.4285
沸湯	-10.4286
膏澤	-10.4286
以及	-10.4286
往來	-10.4288
府州縣	-10.4289
二月種	-10.4289
形勢	-10.429
牧養	-10.4293
濕則	-10.4306
苗生	-10.4313
豈非	-10.432
務要	-10.4322
芥子	-10.4325
鹽豉	-10.4328
此謂	-10.4329
器用	-10.4329
花叉	-10.4332
事例	-10.4335
也疏	-10.4338
慎勿	-10.4341
閩中	-10.4345
水庫	-10.4347
留心	-10.4351
具也	-10.4352
君子	-10.4355
已成	-10.4355
風俗	-10.4357
刀豆	-10.4366
積貯	-10.4368
調和	-10.4369
夏熟	-10.4384
骨欲	-10.4385
黑黍	-10.4387
以溉	-10.4391
無逸	-10.4394
因地	-10.4397
合穂	-10.4402
農田	-10.4407
嵗時	-10.4407
長吏	-10.4409
依法	-10.441
先以	-10.4412
同時	-10.4422
内外	-10.4423
三兩	-10.4424
諸物	-10.4433
寒氣	-10.4439
撒種	-10.4439
三稜	-10.4443
春初	-10.4444
田器	-10.4451
不等	-10.4455
而尖	-10.4456
一株	-10.4464
皆白	-10.4464
多收	-10.4468
即此	-10.4471
與水	-10.4471
疇	-10.4473
又何	-10.4477
葉頗	-10.4479
事宜	-10.448
以禦	-10.448
水以	-10.4487
一如	-10.4487
史記	-10.449
以濟	-10.4491
圍之	-10.4494
長者	-10.45
始生	-10.4502
不能自	-10.4503
不失	-10.4505
不待	-10.4505
齊民要術種	-10.4509
三十年	-10.4517
雖然	-10.4518
遇旱	-10.4521
樹葉	-10.4522
也蓋	-10.4523
常食	-10.4527
桃花	-10.4531
宜於	-10.4539
尤多	-10.4541
圓如	-10.4545
米粒	-10.4549
七月熟	-10.4551
若是	-10.4555
有大小	-10.456
紅白	-10.4571
萬世	-10.4573
天之	-10.4573
大旱	-10.4574
不登	-10.4576
大則	-10.4577
先蠶	-10.4581
風氣	-10.4587
尤宜	-10.4595
黄豆	-10.4602
多種之	-10.461
矣而	-10.4625
順天	-10.4629
作小	-10.4638
書曰	-10.4638
屋内	-10.4655
通用	-10.4671
米榖	-10.4672
授之	-10.4672
一半	-10.4677
其民	-10.468
若無	-10.4681
一帶	-10.4684
去處	-10.4686
近水	-10.469
而用之	-10.4694
無益	-10.4697
郭璞	-10.4713
荘	-10.4715
一面	-10.4716
為本	-10.4719
菑	-10.4731
田禾	-10.4734
焉則	-10.4739
生根	-10.474
闔	-10.474
麨	-10.4742
自之得積	-10.4743
矢	-10.4746
撘	-10.4747
耖	-10.4748
皇后	-10.4749
苴	-10.475
夘	-10.475
蓺	-10.4751
螟	-10.4752
張騫	-10.4752
攅	-10.4752
刳	-10.4753
蘘荷	-10.4753
薏苡	-10.4753
促	-10.4753
女貞	-10.4753
迤	-10.4754
州府	-10.4755
欄	-10.4755
棟	-10.4755
汎	-10.4756
于此	-10.4756
豁	-10.4758
猛	-10.4758
況	-10.4759
驕	-10.4759
𣲖	-10.4759
戾	-10.4759
田中	-10.4759
䔧	-10.476
稉	-10.476
滇	-10.476
攀	-10.4761
奮	-10.4761
罅	-10.4761
㕔	-10.4761
説文	-10.4761
痕	-10.4761
塡	-10.4762
觔	-10.4762
四民月令	-10.4762
外有	-10.4763
總督	-10.4763
犍	-10.4763
饌	-10.4763
栽培	-10.4764
嵩	-10.4764
奈何	-10.4764
墮	-10.4766
𦵔	-10.4766
冒	-10.4766
煉	-10.4766
愆	-10.4767
昨	-10.4767
狐	-10.4768
嗣	-10.4768
三月三日	-10.477
一事	-10.477
貴賤	-10.4771
鑿井	-10.4771
幅	-10.4771
偷	-10.4771
緩急	-10.4772
坍	-10.4772
奢	-10.4774
汾	-10.4774
荒政	-10.4774
春氣	-10.4774
竝	-10.4775
殘	-10.4775
作飯	-10.4776
布帛	-10.4776
味甘酸	-10.4776
齊魯	-10.4777
徃徃	-10.4778
沿河	-10.4778
豐穰	-10.4785
飜	-10.4785
見日	-10.4785
細剉	-10.4787
周之	-10.4787
粢盛	-10.4788
梭	-10.4789
丈尺	-10.4789
藋	-10.4789
觀音	-10.479
軫	-10.4791
九卿	-10.4794
兼并	-10.4798
築岸	-10.4803
甘美	-10.481
斗門	-10.4811
之間謂之	-10.4816
周公	-10.4817
野生	-10.4824
一尺許	-10.4826
食經曰	-10.4829
耕田	-10.4831
不耐寒	-10.4839
施行	-10.4839
茄子	-10.4843
為天下	-10.4845
豆有	-10.4845
開白花結	-10.4849
授時	-10.4852
成功	-10.4854
經理	-10.4854
不中用	-10.4855
取根	-10.4855
不能盡	-10.4859
飽食	-10.4861
所收	-10.4867
雞頭	-10.4869
掘地	-10.4869
草也	-10.4874
故須	-10.4884
立冬	-10.4887
欲作	-10.4892
難以	-10.4893
為之使	-10.4897
亦有之	-10.4903
經曰	-10.4911
不在	-10.4911
經年	-10.4912
擇其	-10.4917
大暑	-10.4933
色黑	-10.4934
耕墾	-10.4943
富者	-10.4944
五合	-10.4953
沙土	-10.4954
未至	-10.4962
味甜救飢採	-10.4964
穂者	-10.4966
既成	-10.4966
所載	-10.4967
山澤	-10.4974
時有	-10.4975
矣凡	-10.4976
者多	-10.4978
土性	-10.498
昔人	-10.498
均平	-10.4985
兩人	-10.4987
三石	-10.4991
正二月	-10.4995
和土	-10.4997
元日	-10.5003
欽定授時通考卷	-10.5005
所得	-10.5005
於後	-10.5016
炒食	-10.5025
本地	-10.5029
緯	-10.5034
萬民	-10.5037
栽桑	-10.5044
不耐	-10.5054
卷二十	-10.5054
蠶種	-10.5055
造酒	-10.5058
無令	-10.5067
宗紀	-10.5068
論曰	-10.5072
不可用	-10.5074
養之	-10.5074
方言	-10.5077
均田	-10.5092
尚有	-10.5098
所能	-10.5098
六斗	-10.511
青皮	-10.5115
四斗	-10.5115
如初	-10.5118
子白	-10.5122
救荒	-10.5123
水火	-10.5127
用新	-10.5135
竹根	-10.5144
大眠	-10.5149
百萬	-10.5164
千餘	-10.517
其米	-10.5173
則用	-10.5174
黄梅	-10.5177
養生	-10.5183
九穂	-10.5186
可行	-10.5195
人事	-10.5199
西山	-10.5206
子大如	-10.5207
赤者	-10.5212
水為	-10.5214
不得過	-10.522
竹木	-10.5233
樹下	-10.5234
諺	-10.5234
而言	-10.5235
以鹽	-10.5237
一十	-10.5244
隙	-10.5248
數種	-10.5258
三千	-10.5267
本草綱目	-10.5268
從此	-10.527
襯	-10.5271
亦同	-10.5272
葫	-10.5273
乃可	-10.5273
㕘	-10.5275
銍艾	-10.5276
袴	-10.5278
週	-10.5278
抒	-10.5278
搜	-10.5279
迷	-10.5279
克	-10.528
罕	-10.5281
纍纍	-10.5281
聳	-10.5282
荻	-10.5282
荀	-10.5282
墢	-10.5282
喫	-10.5282
倶	-10.5282
壚	-10.5282
磽	-10.5282
雌雄	-10.5283
皂莢	-10.5283
垢	-10.5283
軒	-10.5284
爬	-10.5284
沉	-10.5285
毁	-10.5285
紐	-10.5285
矩	-10.5285
鬰	-10.5286
糕	-10.5286
㳺	-10.5286
下馬看	-10.5287
儒	-10.5287
嫌	-10.5287
以副朕	-10.5288
儘	-10.5288
鵝鴨	-10.5288
龜	-10.5288
苐	-10.5289
樣	-10.5289
溪澗	-10.5289
觜	-10.5289
册	-10.5289
弛	-10.529
霞	-10.529
整	-10.5291
鄧	-10.5291
湖廣	-10.5291
珍珠	-10.5291
蟹	-10.5291
窪	-10.5292
凈	-10.5292
芝麻	-10.5292
軋	-10.5293
朶	-10.5293
麝	-10.5294
謝	-10.5294
洋	-10.5294
笑	-10.5294
墾闢	-10.5294
賽	-10.5295
銀杏	-10.5295
蝗蝻	-10.5296
續文獻通考	-10.5296
攝	-10.5297
府古梁州井鬼分野	-10.5297
勅	-10.5297
世之	-10.5298
佑	-10.5298
裨	-10.53
龍尾	-10.5301
福建	-10.5301
安石榴	-10.5302
採桑	-10.5303
蓄水	-10.5304
酷	-10.5305
吾鄉	-10.5305
輦	-10.5306
膜	-10.5306
紫蘇	-10.5308
也或	-10.5309
互相	-10.5309
蜡	-10.5311
榆莢	-10.5313
移植	-10.5314
濕地	-10.5314
自古	-10.5319
郭璞曰	-10.5322
人無	-10.5325
棗栗	-10.5327
不耕	-10.533
丈量	-10.5334
若此	-10.5335
疏曰	-10.5342
梢頭	-10.5344
救荒本草	-10.5344
蠶室	-10.5347
成一	-10.535
者又	-10.5351
修理	-10.5359
十頃	-10.5361
厯子	-10.5361
不容	-10.5361
均調	-10.5363
上虞	-10.5369
皆宜	-10.5369
他處	-10.538
洗淨	-10.538
秈稻	-10.5381
菹法	-10.5382
起科	-10.5388
官府	-10.5388
早紅	-10.5393
秫米	-10.5393
多有之	-10.5399
者當	-10.54
蠶沙	-10.5404
官司	-10.5405
深淺	-10.5406
衛所	-10.5406
如何	-10.5407
厚薄	-10.5411
即愈	-10.5414
味亦	-10.5422
四面	-10.5424
如一	-10.5426
開元	-10.5433
之期	-10.5437
者是也	-10.5446
至十月	-10.5447
以灰	-10.5455
去年	-10.5455
便止	-10.5456
萬頃	-10.5456
雨諺云	-10.5461
因而	-10.5467
四角	-10.547
以上皆	-10.5472
蠶屋	-10.5484
先於	-10.5485
地内	-10.5491
一名木	-10.5491
窮民	-10.55
也但	-10.5502
諸處	-10.551
隨地	-10.5513
蘇子	-10.5513
莫如	-10.5513
小滿	-10.5514
將來	-10.5519
相傳	-10.5532
畦中	-10.5546
耕作	-10.5547
相類	-10.5558
一方	-10.5569
低田	-10.557
無論	-10.5577
之極	-10.5577
和氣	-10.558
試之	-10.5581
實可食	-10.5581
通風	-10.5587
而能	-10.5591
田土	-10.5593
法曰	-10.5598
賦曰	-10.5598
水道	-10.5599
粒食	-10.5602
相合	-10.5608
苦菜	-10.562
須用	-10.5621
九州之	-10.5627
稍大	-10.563
所當	-10.5638
相當	-10.564
也必	-10.564
年豐	-10.5641
在下	-10.5649
上升	-10.565
之需	-10.5654
欲小	-10.5655
中秋	-10.5657
池中	-10.5657
有紅	-10.566
熱則	-10.5665
中空	-10.5666
早黄	-10.5677
不廢	-10.568
以祈	-10.5681
木瓜	-10.5691
洗之	-10.5692
白鹽	-10.57
三月中	-10.57
人人	-10.5702
旱田	-10.5702
種時	-10.5705
之詩	-10.5707
蛀	-10.5711
則是	-10.5713
諸水	-10.5731
四月種	-10.5741
米貴	-10.5743
米豆	-10.5755
若欲	-10.5757
别名	-10.5761
宜稻	-10.5761
薄荷	-10.5763
春間	-10.5776
漬之	-10.5785
韓氏直説	-10.5797
於農	-10.5797
麻油	-10.5798
六日	-10.5802
與夫	-10.5806
其大	-10.5807
此種	-10.5809
百石	-10.5811
鱉	-10.5822
釤	-10.5822
屎	-10.5824
淞	-10.5825
契	-10.5825
鴉	-10.5826
帝紀	-10.5826
鎛	-10.5828
五七寸	-10.583
卦	-10.583
禍	-10.583
掲	-10.583
􁥬	-10.5831
㯽榔	-10.5831
輥	-10.5831
洒	-10.5832
輯	-10.5832
甞	-10.5833
扦	-10.5833
􁁜	-10.5834
蟠	-10.5835
粤	-10.5835
葍	-10.5835
援	-10.5835
啟閉	-10.5835
茇	-10.5835
月内	-10.5835
攷	-10.5836
蒲萄	-10.5836
摶	-10.5836
卧輪	-10.5836
貌	-10.5836
分野考	-10.5837
絃	-10.5839
餓	-10.5839
緝	-10.5839
蔔	-10.5839
趾	-10.5839
場圃	-10.584
呌	-10.584
坼	-10.584
懶	-10.5841
夏小正	-10.5841
彎	-10.5841
躡	-10.5841
者可	-10.5841
潁	-10.5841
滲	-10.5841
漂	-10.5842
僉	-10.5842
軌	-10.5842
矣故	-10.5842
莱	-10.5842
集韻云	-10.5842
彘	-10.5843
齎	-10.5843
説文云	-10.5843
明白	-10.5843
祈禱	-10.5844
侍	-10.5845
晋	-10.5846
芑	-10.5846
菓	-10.5846
迅	-10.5846
熟而	-10.5846
挖	-10.5846
盞	-10.5847
藩	-10.5847
都尉	-10.5848
零落	-10.5848
柤	-10.5848
躬親	-10.5848
甌	-10.5848
得時	-10.5849
湧	-10.5849
呈	-10.5849
窘	-10.5849
宋史	-10.585
烏臼	-10.585
蚤	-10.585
于地	-10.5851
剔	-10.5851
􁣮	-10.5852
撲	-10.5853
拒	-10.5854
浩	-10.5854
山海經曰	-10.5857
東坡	-10.5857
芬	-10.5858
徽	-10.5858
警	-10.5858
奇	-10.5858
舞	-10.5858
匙	-10.5859
潛	-10.5859
堤岸	-10.5859
􁐡	-10.586
膳	-10.5862
晦	-10.5863
卷五十	-10.5864
節間	-10.5864
仲秋	-10.5864
立夏	-10.5865
衙門	-10.5865
不中	-10.5869
因循	-10.5872
奏聞	-10.5875
膏油	-10.5875
天津	-10.5877
肥瘠	-10.5878
道路	-10.5882
肫	-10.5883
麥秀	-10.5887
之殊	-10.5889
二千石	-10.589
視其	-10.5893
遣使	-10.5893
主晴	-10.5895
不肯	-10.5898
削去	-10.59
下有	-10.5903
也方	-10.5903
粳稻	-10.591
野池	-10.591
羊肉	-10.5911
寒露	-10.5911
第七	-10.5917
木部	-10.592
卷四十	-10.5924
至今	-10.5926
一層	-10.5929
綠豆	-10.593
天晴	-10.593
加意	-10.5931
此為	-10.5934
山隂	-10.5934
小暑	-10.5936
等名	-10.5939
用肥	-10.5944
多雨	-10.5944
劐	-10.5945
數目	-10.5946
果實	-10.5947
又一種	-10.595
賦云	-10.5953
水則	-10.5956
長一丈	-10.5959
爲上	-10.5959
赤豆	-10.5964
勸民	-10.5965
語云	-10.5969
别有	-10.5974
寒暑	-10.5975
草根	-10.598
二斤	-10.5983
生葉	-10.5985
所至	-10.5987
莫若	-10.5993
浥鬱	-10.6
務使	-10.6002
春麥	-10.6005
後時	-10.6018
每歲	-10.6018
區田	-10.602
為最	-10.6021
四鄉	-10.603
花實	-10.6044
卷十	-10.6044
水潦	-10.6044
葉而長	-10.6045
孔子	-10.605
小蒜	-10.6051
遂成	-10.6053
由此	-10.6056
酢法	-10.6057
加以	-10.606
九月熟	-10.6061
松子	-10.6062
三農	-10.6062
一一	-10.6065
出土	-10.6073
時宜	-10.6073
甘草	-10.6076
小者如	-10.6102
子似	-10.6105
香氣	-10.6109
其害	-10.6109
導之	-10.6109
内地	-10.611
葉細	-10.6112
可生食	-10.6113
大約	-10.6117
不壞	-10.6128
本草曰	-10.6129
淡紅	-10.6134
者無	-10.6141
雖多	-10.6151
二十七	-10.6152
為下時	-10.6154
故得	-10.6161
白粱	-10.6164
旁枝	-10.6165
而食之	-10.6167
生荒野中	-10.6177
氣味	-10.6181
早者	-10.6196
何也	-10.62
不佳	-10.6203
年以來	-10.6206
以聞	-10.6208
卷三十	-10.6222
有限	-10.6223
用子三升	-10.6226
州刺史	-10.6234
海水	-10.624
荒地	-10.6243
四日	-10.6247
圩岸	-10.6247
無害	-10.6251
養民	-10.6252
地方官	-10.6253
之實	-10.6254
之徒	-10.6256
為農	-10.6256
背白	-10.6256
實有	-10.6257
以給	-10.6258
不惟	-10.626
骨也	-10.6265
隨時	-10.6272
於大	-10.6274
務令	-10.6274
已後	-10.6276
永平	-10.6279
五色	-10.6286
其有	-10.6289
於海	-10.6289
此二	-10.6294
在外	-10.6295
䅖	-10.6296
散子	-10.6304
二卷	-10.6305
黄𤓰	-10.6306
者水	-10.6309
禮記	-10.6314
種宜	-10.6315
桑麻	-10.6346
死者	-10.6348
皆能	-10.6368
有雨	-10.6371
土氣	-10.6376
春時	-10.6383
仍以	-10.6383
不勞	-10.6387
撓	-10.6392
肯	-10.6392
樊	-10.6393
種樹書	-10.6393
王者	-10.6394
土壅	-10.6395
時須	-10.6397
日以	-10.6405
束之	-10.6408
不相	-10.6409
簁	-10.6412
皂	-10.6412
各縣	-10.6413
倫	-10.6413
河之水	-10.6414
遇有	-10.6416
衢	-10.6418
集韻	-10.6418
數萬	-10.6419
博聞録	-10.6419
榨	-10.6419
榜	-10.6419
􁟓	-10.642
謬	-10.642
傚	-10.6421
貯之	-10.6421
銷	-10.6421
抨	-10.6422
卓	-10.6423
㒺	-10.6423
眷	-10.6423
希	-10.6423
夭	-10.6423
脇	-10.6424
撈	-10.6424
菁	-10.6424
芒稻	-10.6424
塼	-10.6424
交阯	-10.6424
陳旉農書	-10.6425
攜	-10.6425
抪	-10.6425
混	-10.6425
花木	-10.6425
蛤	-10.6425
螺	-10.6426
餒	-10.6426
苕	-10.6427
範	-10.6427
皁	-10.6427
瀕	-10.6427
牡丹	-10.6428
臿	-10.6428
韵	-10.6428
翔	-10.6428
悞	-10.6429
梂	-10.6429
蹂	-10.6429
慿	-10.6429
唇	-10.6429
愧	-10.6429
窊	-10.6429
靑	-10.6429
宵旰	-10.6429
寇宗奭曰	-10.6429
織絍	-10.643
采之	-10.643
灣	-10.643
覩	-10.643
勸課農桑	-10.643
泗	-10.6431
翹	-10.6431
杼	-10.6431
逋	-10.6431
磁	-10.6432
竹笋	-10.6433
兠	-10.6433
祁	-10.6433
鄂	-10.6433
薇	-10.6434
籌畫	-10.6435
欠	-10.6435
蠡	-10.6436
薫	-10.6437
啼	-10.6437
錐	-10.6438
喙	-10.6438
驛	-10.6438
鈞	-10.6439
伍	-10.6439
救飢採嫩葉煠熟	-10.644
煩擾	-10.644
水泉	-10.644
棣	-10.6441
湘	-10.6441
萍	-10.6441
檐	-10.6441
阡	-10.6442
鄉村	-10.6442
不下	-10.6442
又謂	-10.6443
雙筩	-10.6445
想	-10.6445
滙	-10.6445
爆	-10.6446
電	-10.6446
淤塞	-10.6447
蠅	-10.6448
蠶連	-10.645
沮	-10.645
茍且	-10.6451
雍州	-10.6454
為災	-10.646
雁來	-10.6462
牽牛	-10.6463
實小	-10.6466
無子	-10.6467
遣官	-10.6468
逺矣	-10.6468
地力	-10.6474
奏請	-10.6476
伐木	-10.6477
之交	-10.6479
大火	-10.6482
經營	-10.6483
兩傍	-10.6484
壅之	-10.6484
勝於	-10.6485
汜勝之書曰	-10.6486
産嘉禾	-10.6489
羊角	-10.6492
之世	-10.6493
微帶	-10.6496
七斗	-10.6499
甕口	-10.65
唐書	-10.6503
所云	-10.6504
兩旁	-10.6507
葉長	-10.6512
田畯	-10.6517
穀種	-10.6518
嘗見	-10.6526
宿根	-10.6528
性熱	-10.653
細小	-10.6535
覆蓋	-10.6536
縣土産稻	-10.654
也且	-10.6541
主旱	-10.6542
圓而	-10.6542
二七日	-10.6545
百五十	-10.6549
柑橘	-10.6554
淡黄	-10.6554
經冬	-10.6562
一二丈	-10.6564
河身	-10.6573
益氣	-10.6581
之末	-10.6584
孟春	-10.6592
少則	-10.6592
之業	-10.6594
倍之	-10.6596
先後	-10.6598
禾黍	-10.6598
稻麥	-10.6603
收成	-10.6612
附近	-10.6614
甚佳	-10.6615
花結實	-10.6615
不給	-10.6625
黒豆	-10.6627
推之	-10.6635
婦子	-10.6636
之大者	-10.6637
儲蓄	-10.6642
未必	-10.6644
荷葉	-10.6649
耐久	-10.6649
取栽	-10.6651
色黒	-10.6654
所屬	-10.6657
從之	-10.6657
疏云	-10.6658
治畦	-10.6659
白殻	-10.6668
食用	-10.6672
之詩曰	-10.6672
社長	-10.6674
一斛	-10.6679
一遇	-10.668
遂人	-10.6682
相近	-10.6684
諸色	-10.6689
亦宜	-10.6696
雌者	-10.6697
使不	-10.6699
作羮	-10.6706
水災	-10.6708
是謂	-10.6711
短小	-10.6715
郡邑	-10.6722
軍民	-10.6726
不雨	-10.6728
以湯	-10.6732
數千	-10.6737
肥田	-10.6743
種榖	-10.6749
利民	-10.6756
蟲生	-10.6762
大者如	-10.6763
仍用	-10.6765
大川	-10.6781
于是	-10.6782
在地	-10.6789
記云	-10.6791
見農	-10.6792
先治	-10.6792
湖田	-10.6807
家家	-10.6812
煑食	-10.6817
授田	-10.6819
眠起	-10.6821
除之	-10.6821
二丈	-10.6837
直省	-10.684
水浸去苦味淘浄油鹽調食	-10.6848
而行	-10.6852
欽定四庫全書農書卷	-10.6852
留之	-10.6868
兖州	-10.687
因之	-10.6879
熟時收	-10.6879
晩稻	-10.688
或為	-10.6884
官民	-10.6884
以承	-10.6887
洗去	-10.6897
極細	-10.6907
堪作	-10.691
田夫	-10.692
兩種	-10.6923
生菜	-10.6927
今特	-10.6931
則成	-10.6941
皆可種	-10.6968
緑色	-10.6975
通流	-10.6977
取土	-10.6978
一歳	-10.6981
多方	-10.6982
也謂	-10.6983
四海	-10.6984
矣此	-10.6986
出水	-10.6989
終不	-10.6994
然後下	-10.6995
不著	-10.7003
人等	-10.701
結實如	-10.701
大小麥	-10.7022
之術	-10.7023
軫念	-10.7023
汜勝之	-10.7025
肌肉	-10.7028
有糯	-10.7032
相通	-10.7033
未及	-10.7035
萬五千	-10.7036
青稞	-10.7037
瓦屑	-10.7038
性温無毒	-10.7039
鉸	-10.704
􁣒	-10.704
㾗	-10.704
㓜	-10.704
𨗳	-10.7042
少實	-10.7042
疫癘	-10.7042
滋茂	-10.7043
萟	-10.7043
蕉	-10.7044
興修	-10.7045
觀其	-10.7045
旨	-10.7046
抛	-10.7046
刅	-10.7047
鐴	-10.7047
迄	-10.7047
哀	-10.7047
黔	-10.7047
薯蕷	-10.7048
甫	-10.7048
土之次曰五	-10.7048
在於	-10.7049
曷	-10.7049
椑	-10.7049
兗	-10.705
紗	-10.705
見農器譜	-10.705
檀	-10.7051
晏	-10.7051
掣	-10.7051
渫	-10.7051
䥷	-10.7052
食法採葉煠熟	-10.7052
面青背	-10.7052
搦	-10.7052
估	-10.7052
有赤白二種	-10.7053
荳	-10.7053
霖雨	-10.7053
批	-10.7054
一條	-10.7054
燎	-10.7054
胸	-10.7055
摧	-10.7055
渭	-10.7055
暘	-10.7055
嘉靖	-10.7056
探	-10.7056
料理	-10.7056
璧	-10.7057
商賈	-10.7057
厪	-10.7057
夲	-10.7058
敝	-10.7058
歧	-10.7058
輝	-10.7059
帳	-10.7059
碩	-10.7059
鍼	-10.7059
馳	-10.7059
䜴	-10.706
眞	-10.706
安泊	-10.706
枕	-10.706
惑	-10.706
篚	-10.7061
其理	-10.7061
莩	-10.7061
馨	-10.7062
荅	-10.7062
煨	-10.7062
乍	-10.7062
臬	-10.7063
隻	-10.7063
肥磽	-10.7063
宵	-10.7063
芝蔴	-10.7065
懲	-10.7065
袁	-10.7066
建閘	-10.7066
腎	-10.7067
咎	-10.7068
雕	-10.7068
督率	-10.7069
詩豳風	-10.7069
月下旬	-10.7069
沂	-10.7069
斛斗	-10.7069
遼東	-10.7069
悦	-10.7069
杯	-10.707
襲	-10.707
櫟	-10.707
桐油	-10.7071
霜雪	-10.7071
乃熟	-10.7071
瀝	-10.7071
廣志云	-10.7072
楔	-10.7073
脾胃	-10.7074
貧富	-10.7074
畎畝	-10.7076
斗斛	-10.7077
蝻	-10.7077
者得	-10.7078
圍岸	-10.7079
沫	-10.708
廣東	-10.7081
蔬菜	-10.7081
兩浙	-10.7082
合為一	-10.7083
之議	-10.7086
長鑱	-10.7087
蒼耳	-10.7088
冷盆	-10.7089
召募	-10.7089
為急	-10.7089
淘去苦味油鹽調食	-10.709
字號	-10.709
􁭼	-10.7091
占候	-10.7092
不受	-10.7093
徃來	-10.7093
老弱	-10.7094
約量	-10.7094
烏梅	-10.7094
故事	-10.7097
物産	-10.7101
食法採嫩苗葉煠熟	-10.7102
坑深	-10.7103
皇考	-10.7103
受水	-10.7103
之虞	-10.7103
畿内	-10.7103
園圃	-10.7103
之務	-10.7106
熱氣	-10.711
截去	-10.7111
世業	-10.7119
曝令乾	-10.7121
㑹同	-10.7121
則爛	-10.7123
其業	-10.7123
不爾則	-10.7124
割去	-10.7124
者乎	-10.7129
南北皆有	-10.7133
至夏	-10.7133
食法	-10.7135
相對	-10.7141
耳目	-10.7144
胡椒	-10.715
皮肉	-10.7151
葉上	-10.7159
兩岸	-10.716
何也曰	-10.7162
田祖	-10.7168
兩穂	-10.7168
嫩者	-10.7171
門外	-10.7171
之利也	-10.7178
乏食	-10.7178
省力	-10.7181
用以	-10.7182
長二寸	-10.7185
一二年	-10.7187
工力	-10.7187
瀦水	-10.7188
相連	-10.7195
民得	-10.7203
接頭	-10.7215
豆角	-10.7216
色紫	-10.7218
别作	-10.722
横木	-10.723
井水	-10.7231
多刺	-10.7238
枝莖	-10.7238
色如	-10.7248
不加	-10.7251
得名	-10.7258
圖之	-10.7277
設法	-10.7279
風寒	-10.7281
四散	-10.7281
達於	-10.7286
黑者	-10.7289
布種	-10.7289
鬚糯	-10.729
香子	-10.7297
從前	-10.7303
依此	-10.7307
早禾	-10.7313
彼此	-10.7322
不便	-10.7323
白糯	-10.7326
令各	-10.7338
為飯	-10.7339
冬瓜	-10.7342
嘉種	-10.7344
知有	-10.7345
欲知	-10.7352
水患	-10.7355
給與	-10.7356
淘淨油鹽調食	-10.7362
十一年	-10.7363
水自	-10.7363
美也	-10.7367
為中時	-10.7367
引水	-10.7369
未能	-10.7374
比及	-10.7374
兩重	-10.7379
一名白	-10.7383
頻澆	-10.7396
大小豆	-10.7399
功用	-10.7399
此則	-10.7402
子粒	-10.7403
而下	-10.7404
不湏	-10.7405
處置	-10.7414
辛苦	-10.7416
早晩	-10.742
俱可	-10.7422
二十三	-10.7424
浸麴	-10.7428
南風	-10.7454
周制	-10.7454
其言	-10.7456
所入	-10.746
不令	-10.7466
少而	-10.7468
秋收	-10.747
收取	-10.7471
功作	-10.7474
有常	-10.7481
光澤	-10.7488
率多	-10.7498
不飢	-10.7499
種種	-10.7501
本業	-10.7502
分兩	-10.7506
花如	-10.7507
實大	-10.7508
特為	-10.751
短而	-10.7513
褐色	-10.7525
未詳	-10.7527
而南	-10.753
惟是	-10.7533
上供	-10.7538
次日	-10.7542
湖州	-10.7543
生花	-10.7549
之機	-10.7552
最大	-10.7554
稷也	-10.7569
漫種	-10.757
飢民	-10.7572
四兩	-10.7572
羊脂	-10.7576
以代	-10.7579
生而	-10.7581
畝用子	-10.7582
棄之	-10.7584
七百	-10.7588
得以	-10.7588
尤為	-10.7595
之本也	-10.7596
米穀	-10.7601
者用	-10.7602
稍間開	-10.7608
水磨	-10.7623
力作	-10.7629
圖不	-10.7629
提柱	-10.7634
論之	-10.7652
自下	-10.7656
地畝	-10.7657
早曰	-10.7657
各種	-10.7659
不足則	-10.766
民多	-10.7664
於下	-10.7664
矣一	-10.7664
郡國	-10.7669
豆黄	-10.767
氣力	-10.7671
乾則	-10.7676
其流	-10.7676
人間	-10.7677
針	-10.7681
翅	-10.7687
答	-10.7692
茆	-10.7694
討	-10.7696
荽	-10.7699
劍	-10.7699
􁷕	-10.77
澤中	-10.77
穀雨	-10.77
令乾	-10.7703
爼	-10.7705
櫧	-10.7705
本州	-10.7705
使其	-10.7706
扺	-10.7707
畎	-10.7708
稙	-10.7709
尿	-10.7709
鐺	-10.771
籖	-10.771
纊	-10.771
陡	-10.771
潘	-10.7711
治病文具本草木部	-10.7711
脣	-10.7711
館	-10.7711
軰	-10.7712
礙	-10.7712
作成黄色換水淘	-10.7712
菅	-10.7713
僮	-10.7713
篅	-10.7714
亮	-10.7714
蘆菔	-10.7714
羃	-10.7714
蜀芥	-10.7715
砌	-10.7715
昆	-10.7715
模	-10.7716
砍	-10.7716
笠	-10.7716
撮	-10.7716
縹	-10.7717
絞	-10.7717
櫃	-10.7717
鍫	-10.7718
蔆	-10.7718
串	-10.7719
埂	-10.7719
震澤	-10.7719
老鴉	-10.7719
僻	-10.7719
髙三四尺	-10.7719
稂莠	-10.7719
鳥獸	-10.7719
拆	-10.7719
趕陳糯	-10.772
醎	-10.772
賈思勰	-10.772
高三四尺	-10.772
耬耩	-10.7721
衷	-10.7721
涂	-10.7722
誦	-10.7722
蘆葦	-10.7722
慕	-10.7723
羌	-10.7723
錢鎛	-10.7723
姜	-10.7723
瘢	-10.7723
喚	-10.7724
潔淨	-10.7724
霜露	-10.7724
紉	-10.7724
㽞	-10.7724
售	-10.7724
孝弟	-10.7724
三分之一	-10.7725
徭	-10.7725
菖蒲	-10.7725
麻蕡	-10.7725
値	-10.7726
幕	-10.7726
蕚	-10.7726
喻	-10.7726
譬	-10.7726
巾	-10.7727
替	-10.7728
畿輔	-10.7728
雇	-10.7728
欒	-10.7728
逾	-10.7729
篾	-10.7729
賓	-10.7729
肕	-10.7729
袤	-10.773
禜	-10.773
生意	-10.7731
賦税	-10.7731
髓	-10.7731
伸	-10.7732
潞	-10.7732
韓	-10.7732
瞻	-10.7732
與地平	-10.7732
憚	-10.7733
拌匀	-10.7733
玊	-10.7734
腊	-10.7734
苓	-10.7734
湮	-10.7736
胡芹小蒜	-10.7736
薁	-10.7736
黍穄	-10.7736
鑚	-10.7737
戈	-10.7737
御製	-10.7738
以肥	-10.7738
元史	-10.7738
筠	-10.7738
歎	-10.7738
迨	-10.7738
灌溉之利	-10.7739
冲	-10.7739
而堅	-10.774
庶幾	-10.774
甘藷	-10.7741
胡蘿蔔	-10.7741
之資	-10.7741
季春	-10.7742
堅硬	-10.7742
元元	-10.7742
疆理	-10.7742
現在	-10.7743
温暖	-10.7743
煑粥	-10.7743
水晶	-10.7745
工部	-10.7745
紓	-10.7747
後漢書	-10.7749
於是乎	-10.775
豪强	-10.7751
狹鄉	-10.7751
酸棗	-10.7752
永樂	-10.7756
抛荒	-10.7756
厚二寸	-10.7759
置閘	-10.7761
十月收	-10.7762
有無	-10.7767
而圓	-10.777
宻封	-10.7772
江東呼	-10.7772
淮南子曰	-10.7773
冷際	-10.7774
去滓	-10.7778
奉行	-10.7778
工費	-10.7779
之多寡	-10.7782
潔白	-10.7787
舊制	-10.7788
不禁	-10.7789
莖葉皆	-10.7794
土膏	-10.7795
雞鴨	-10.7795
燕麥	-10.7796
流離	-10.7797
日夜	-10.7804
蜀人	-10.7807
上中下	-10.7813
手指	-10.7813
此日	-10.7815
相離	-10.7816
米價	-10.7817
愛民	-10.7817
狹長	-10.7821
災傷	-10.7822
食葉	-10.7831
二月初	-10.7835
水深	-10.7836
桃李	-10.7838
剪去	-10.7839
變化	-10.7839
冬葵	-10.7842
小樹	-10.7843
得一	-10.7847
之兩端	-10.7847
雜事	-10.7848
秋而	-10.7848
不忍	-10.7848
相望	-10.7848
三百五十	-10.7848
何如	-10.7854
時時	-10.7857
同但	-10.7861
蓋藏	-10.7861
作粥	-10.7862
良久	-10.7863
佳者	-10.7863
當日	-10.7869
稷為	-10.7871
自此	-10.7876
中州	-10.7884
味苦性平無毒	-10.7887
親耕	-10.7887
久而	-10.7889
安居	-10.7892
本草一名	-10.79
左傳	-10.7901
用此法	-10.7903
河泥	-10.7908
柔桑	-10.7917
山之	-10.7923
所由	-10.7924
根莖	-10.7929
葉煠熟水浸	-10.793
春酒	-10.7937
築實	-10.7942
南陽	-10.7942
如雲	-10.7942
修治	-10.7947
百合	-10.7951
陂湖	-10.7952
曰大	-10.7953
相接	-10.7955
盆中	-10.7957
氣也	-10.7959
田多	-10.7959
最宜	-10.7967
旬日	-10.797
自今	-10.7975
生計	-10.7978
長則	-10.798
合無	-10.7985
以實	-10.7987
頗多	-10.7992
刺史	-10.7998
百步	-10.8003
今時	-10.8009
有節	-10.8012
而實	-10.8017
穩	-10.8022
本末	-10.8022
農者	-10.8025
俗作	-10.8027
麻麥	-10.8031
有時	-10.8031
由是	-10.8037
肥美	-10.8037
葉俱	-10.8038
葵子	-10.804
上出	-10.804
府古揚州斗分野	-10.804
淺深	-10.8056
無田	-10.8057
竹器	-10.8058
移之	-10.8077
尚未	-10.8081
為國	-10.8084
舌也	-10.8092
蜀黍	-10.8094
他如	-10.81
十人	-10.8101
開小白花	-10.8103
以石	-10.8104
棉花	-10.8107
嫩葉煠熟	-10.811
江隂	-10.8113
▁𤣥扈先生曰	-10.8116
髙田	-10.8119
大雪	-10.8127
薄而	-10.8128
入夏	-10.8132
萬斛	-10.8135
耕桑	-10.8139
菉	-10.8142
白而	-10.8146
齊民	-10.8154
家口	-10.8155
大禾	-10.8169
之謂也	-10.8171
上品	-10.8172
省功	-10.8175
此果	-10.8178
易活	-10.8181
一枝	-10.8186
此等	-10.8194
實大如	-10.8194
今世	-10.8199
在土	-10.8199
春風	-10.82
食也	-10.8201
採之	-10.8204
運河	-10.8209
三合	-10.8211
紫草	-10.8215
令民	-10.822
子可	-10.8227
萬人	-10.8229
田主	-10.8231
二尺餘	-10.8234
寇	-10.8234
細長	-10.8238
服食	-10.8241
所損	-10.8242
作種	-10.8243
如蜜	-10.8249
數丈	-10.8251
以避	-10.8263
不得不	-10.8264
然矣	-10.8264
猶有	-10.8271
水面	-10.8279
種𤓰	-10.8281
甚細	-10.8281
五石	-10.8286
恐其	-10.829
嫩苗	-10.8319
可移	-10.832
以蜜	-10.8323
而天下	-10.8324
變而	-10.8349
晚糯	-10.8351
九月中	-10.8358
赤白	-10.8362
早白	-10.8368
其葉味苦	-10.8374
五糓	-10.8379
椒一名	-10.8387
藏於	-10.8388
豫州	-10.8396
缶	-10.8399
便民圖	-10.84
穏	-10.8405
耤	-10.8406
今後	-10.8407
殺之	-10.8407
苽	-10.8413
蘘	-10.8418
栅	-10.8419
枘	-10.8419
閱	-10.842
厎	-10.842
棧	-10.842
宣歙	-10.8421
逕	-10.8421
町	-10.8421
異畝同穎	-10.8423
荒政救荒本草	-10.8423
肝	-10.8423
嫁	-10.8423
紅紫	-10.8423
㓙	-10.8423
黂	-10.8424
簨	-10.8424
麩	-10.8424
潑	-10.8425
靨	-10.8425
中氣初五日	-10.8425
鴨脚	-10.8425
埽	-10.8425
鯉魚	-10.8425
蘇恭曰	-10.8426
卉	-10.8426
喉	-10.8427
芭蕉	-10.8427
貞	-10.8427
忱	-10.8428
籃	-10.8428
霍	-10.8428
所見	-10.8428
萱	-10.8429
師曠占	-10.8429
輟	-10.8429
腥	-10.8429
麋	-10.8429
倉箱	-10.843
粃	-10.843
萬八千	-10.843
萬餘石	-10.843
諳	-10.843
醜	-10.8431
箄	-10.8431
茨	-10.8431
嵌	-10.8432
寥	-10.8432
焙	-10.8432
菠菜	-10.8432
殍	-10.8432
詩小雅	-10.8432
跳	-10.8433
鴟	-10.8433
寢	-10.8433
游惰	-10.8434
迥	-10.8434
大學士	-10.8434
菠薐	-10.8435
輳	-10.8435
孝經援神契	-10.8436
浹	-10.8436
郁	-10.8436
西京雜記曰	-10.8437
䉛	-10.8438
證	-10.8438
考工記	-10.8438
妻	-10.8438
雜隂陽書曰	-10.8438
墟	-10.8438
鵲	-10.8439
幣	-10.8439
罌	-10.8439
柹	-10.8439
司馬法	-10.844
黑白二種	-10.844
猪脂	-10.844
筒索	-10.844
正義曰	-10.844
稚	-10.844
縈	-10.844
藴	-10.8441
蓬蒿	-10.8441
携	-10.8441
木槿	-10.8441
倉庾	-10.8442
牌	-10.8442
藊豆	-10.8442
弇	-10.8443
香菜	-10.8443
廼	-10.8443
渥	-10.8443
洞庭	-10.8443
丙丁	-10.8443
技	-10.8444
田家五行	-10.8444
所在有之	-10.8444
𥿄	-10.8444
禀	-10.8446
皂角	-10.8446
溜	-10.8446
戲	-10.8446
局	-10.8446
麻線	-10.8446
蜜蜂	-10.8447
艱難	-10.8447
蜀葵	-10.8447
巨勝	-10.8448
捧	-10.8448
胼胝	-10.8448
蟬	-10.8448
匕	-10.8449
果蓏	-10.8449
誅	-10.845
師姑	-10.845
鷹	-10.845
奚	-10.845
蟄蟲	-10.8451
祖宗	-10.8452
殫	-10.8452
鮑	-10.8452
匪直	-10.8452
雨露	-10.8452
昧	-10.8453
硝	-10.8453
宫室	-10.8454
味似	-10.8454
硫	-10.8454
矜	-10.8455
嚼	-10.8456
翰	-10.8457
講求	-10.8457
淘洗浄油鹽調食	-10.8457
瑞麥	-10.8457
大麥小麥	-10.8458
佛	-10.8458
擊壤	-10.8459
匱乏	-10.8459
是為	-10.846
大司徒	-10.846
驢馬	-10.846
四季	-10.8461
種樹書曰	-10.8462
巡行	-10.8462
鍋	-10.8464
釡中	-10.8466
投之	-10.8466
盛時	-10.8466
擠	-10.8466
而利	-10.8467
聖王	-10.8468
山田	-10.8469
収穫	-10.847
轉運	-10.8471
半奠	-10.8473
薑橘	-10.8473
稷有	-10.8473
秋熟	-10.8474
萬厯	-10.8474
奏報	-10.8474
霜降後	-10.8474
𤣥扈	-10.8476
受納	-10.8479
未出	-10.8479
燼	-10.8479
炊飯	-10.8482
之體	-10.8484
孟子曰	-10.8484
爾雅謂之	-10.8487
數十里	-10.8488
金華	-10.849
堅固	-10.849
燥濕	-10.8491
新増	-10.8493
疏濬	-10.8495
司馬	-10.8496
向陽	-10.8498
溫泉	-10.8501
不黏者	-10.8503
獲利	-10.8504
終歲	-10.8504
可啖	-10.8504
菊花	-10.8506
該督撫	-10.8506
若有	-10.851
黑子	-10.8511
可謂	-10.8512
綠色	-10.8512
不生蟲	-10.8515
移種	-10.8516
相承	-10.8519
録云	-10.852
勤勞	-10.852
丁香	-10.8524
殷實	-10.8526
尤甚	-10.8526
大雅	-10.8526
始於	-10.8527
經費	-10.8528
得其宜	-10.8528
若值	-10.8529
葉皆	-10.8532
管子曰	-10.8532
其形	-10.8535
隨手	-10.8536
養魚	-10.8539
相著	-10.854
粒小	-10.854
行也	-10.8541
悉心	-10.8542
艱食	-10.8546
天降	-10.8548
苦酒	-10.8551
千金	-10.8551
厥土	-10.8554
嘉禾生	-10.8559
倍常	-10.8561
而種之	-10.8568
卷六	-10.857
不敷	-10.857
之流	-10.8571
户口	-10.8573
摘去	-10.8577
百斛	-10.8582
以利	-10.8582
雲起	-10.8589
水轉	-10.859
相雜	-10.8591
無虞	-10.8591
稍稍	-10.8591
太和	-10.8594
微寒無毒	-10.8595
七十二	-10.8596
大槩	-10.8596
而葉	-10.8598
長三寸	-10.86
須擇	-10.8606
耒耜經	-10.8607
甘雨	-10.8615
曰吾	-10.8623
餘月	-10.8626
房屋	-10.8631
相度	-10.8635
二十年	-10.8642
二三日	-10.8642
之難	-10.8642
兩月	-10.8643
採取	-10.8646
四圍	-10.8654
三推	-10.8661
性冷	-10.8667
一枚	-10.8678
長遲	-10.8679
耕熟	-10.868
蜀中	-10.8683
圍田	-10.8687
之側	-10.8689
溉灌	-10.8694
野生者	-10.8694
桑皮	-10.8699
攪之	-10.8699
熟乃	-10.8699
豈無	-10.8702
上年	-10.8703
苖葉煠熟	-10.8718
所産	-10.8718
初出	-10.8723
中土	-10.8731
生熟	-10.8733
一例	-10.8733
元年詔	-10.8737
有竒	-10.8741
黄瓜	-10.8744
知時	-10.8745
農業	-10.8748
大蒜	-10.8754
六十四	-10.8755
除草	-10.876
農書云	-10.8766
由來	-10.8768
栽法	-10.8772
青黄	-10.8774
亦何	-10.8782
桑棗	-10.8806
無復	-10.8815
亦不得	-10.8816
多稼	-10.8825
秋間	-10.8828
陸地	-10.8831
向下	-10.8836
閒田	-10.8843
是書	-10.8844
農官	-10.8846
而不知	-10.8858
亦云	-10.8863
知之	-10.8866
中有子	-10.8871
瓜法	-10.8879
有三種	-10.888
本處	-10.8885
損人	-10.8892
勿用	-10.89
各自	-10.8905
有一種	-10.8905
齊民要術曰種	-10.891
散之	-10.8912
髙地	-10.8914
以資	-10.892
土也	-10.892
生成	-10.8933
黄粱	-10.8936
農務	-10.894
河底	-10.8944
人情	-10.8949
六升	-10.8953
而肥	-10.8956
欲直	-10.8957
米石	-10.8957
撫按	-10.8959
以冷水	-10.897
卯辰	-10.8977
壺之	-10.8977
立法	-10.8982
倍焉	-10.8983
黄白色	-10.8991
無他	-10.8997
六曰	-10.9008
濕土	-10.9016
葉青	-10.9022
實中	-10.9025
務在	-10.9026
葉圓	-10.9029
終嵗	-10.903
安得	-10.9033
一名天	-10.9034
紫赤	-10.9036
冬則	-10.9036
縣物産稻有	-10.904
免其	-10.9041
此又	-10.9054
不信	-10.9066
其一	-10.907
味苦救飢採	-10.9073
亦非	-10.9074
大熱	-10.9075
開江	-10.9076
以北	-10.9079
弟	-10.9083
百餘頃	-10.9084
寒食	-10.9093
歲時	-10.9093
限田	-10.9098
聚而	-10.9103
二石	-10.9104
國家之	-10.9113
田功	-10.9118
其旁	-10.912
淨淘	-10.912
此意	-10.9127
實心	-10.9128
翰林院編修	-10.9128
日曬	-10.9135
二十餘	-10.9142
祭祀	-10.915
擇取	-10.9154
十畒	-10.9167
便於	-10.9168
農器圖譜十	-10.9172
穭	-10.9177
桑田	-10.9178
螘	-10.9179
加糞	-10.9181
顛倒	-10.9185
郷	-10.9187
狭	-10.9188
昻	-10.9189
搓	-10.9191
埀	-10.9191
宕	-10.9191
味如	-10.9192
蒼术	-10.9192
寔	-10.9192
坯	-10.9195
紹	-10.9195
􁓰	-10.9196
杬	-10.9196
金釵	-10.9196
𢃄	-10.9196
函	-10.9196
裳	-10.9196
敞	-10.9197
汴	-10.9197
孚	-10.9197
一統志	-10.9197
㢘	-10.9197
楷	-10.9197
䜿	-10.9198
高一二尺莖	-10.9198
諸種	-10.9198
海内	-10.9199
皴	-10.9199
搨地生	-10.9199
侍郎	-10.9199
府古雍州井鬼分野	-10.92
俎	-10.92
群	-10.92
其義	-10.92
挨	-10.92
械	-10.92
泰西水法	-10.9201
㽟	-10.9201
兜	-10.9201
茜	-10.9201
國計	-10.9201
牒	-10.9202
孫炎	-10.9202
鑊	-10.9202
幡	-10.9202
臍	-10.9202
帑	-10.9202
茱茰	-10.9202
芙蓉	-10.9202
隘	-10.9202
㯶	-10.9203
隂中	-10.9203
驪	-10.9203
糲	-10.9203
崗	-10.9203
森	-10.9204
賠	-10.9204
篠	-10.9204
桔	-10.9204
庇	-10.9204
荆揚	-10.9205
蠲免	-10.9205
南方草物狀曰	-10.9205
裴	-10.9205
戰	-10.9205
撤	-10.9205
鈔	-10.9205
莎	-10.9206
沁	-10.9206
生山中	-10.9206
松栢	-10.9206
之形	-10.9206
籮	-10.9206
涉	-10.9206
蕢	-10.9206
周禮地官	-10.9206
攔	-10.9206
器譜	-10.9207
塌	-10.9207
煆	-10.9207
徐光啟曰	-10.9207
峙	-10.9207
拽	-10.9208
家給人足	-10.9208
蔞	-10.9208
稲	-10.9208
杷耬	-10.9208
厲	-10.9209
彫	-10.9209
纖	-10.9209
絲窩	-10.9209
碌碡	-10.9209
陟	-10.9211
愛惜	-10.9211
機杼	-10.9211
交趾	-10.9211
淅	-10.9211
渰	-10.9212
喪	-10.9212
籭	-10.9212
甿	-10.9213
俞	-10.9213
汶	-10.9213
餧	-10.9213
酉陽雜俎	-10.9214
故墟	-10.9214
樵	-10.9214
風土記曰	-10.9215
孟康曰	-10.9215
齋戒	-10.9216
誘	-10.9216
季冬	-10.9216
鄭注	-10.9216
剖	-10.9216
之宜篇第	-10.9217
擦	-10.9217
綸	-10.9218
酸漿	-10.9218
蕃息	-10.9219
倉廩	-10.9219
肇	-10.9219
嘆	-10.9219
生熟皆可食	-10.922
斥鹵	-10.922
庄	-10.922
墩	-10.922
鐵脚	-10.922
荑	-10.9221
守敬	-10.9222
姓名	-10.9223
迮	-10.9223
霽	-10.9223
仔	-10.9223
勤惰	-10.9224
煑熟	-10.9226
彌望	-10.9226
郭璞注云	-10.9226
流亡	-10.9227
微酸	-10.9227
九月收	-10.9227
時即	-10.9228
筒車	-10.9229
渝	-10.923
農隙	-10.923
詩義䟽曰	-10.9231
菘菜	-10.9231
鹻	-10.9232
有所歸	-10.9233
陸璣詩疏	-10.9234
徭役	-10.9235
訣	-10.9236
洛陽	-10.9237
凍損	-10.9237
禮部	-10.9237
狀類	-10.9237
雞鳴	-10.9238
著甕中	-10.9239
蓄洩	-10.9239
麥䴷	-10.924
神農氏	-10.9244
刈穫	-10.9246
里甲	-10.9247
歴年	-10.9251
真定	-10.9251
簸去	-10.9251
免致	-10.9251
建議	-10.9253
務期	-10.9254
育蠶	-10.9255
裹之	-10.9256
樂業	-10.9258
疾苦	-10.9259
瓦盆	-10.9261
老人	-10.9262
立一	-10.9262
厚三寸	-10.9262
鐺中	-10.9263
第六十	-10.9263
情形	-10.9265
来年	-10.9265
最忌	-10.9267
帝王	-10.9268
諸路	-10.927
秧馬	-10.9271
萬錢	-10.9275
凡有	-10.9277
者惟	-10.9281
傳云	-10.9282
繭絲	-10.9284
血氣	-10.9285
躬耕	-10.9286
飢寒	-10.9287
其説	-10.9288
寧夏	-10.9291
形類	-10.9292
馬尾	-10.9292
更佳	-10.9292
朔日	-10.9292
設立	-10.9297
淡緑	-10.93
預前	-10.9302
占田	-10.9302
王禎農書	-10.9305
浥浥	-10.9312
瀦蓄	-10.9315
夜半	-10.9315
王𤓰	-10.9317
實似	-10.9317
刀切	-10.9317
荒年	-10.9326
為患	-10.9327
福山	-10.9327
支給	-10.9331
三伏	-10.9337
未免	-10.9337
天下之民	-10.9338
諸病	-10.9347
世間	-10.9348
髙二尺許	-10.9348
髙丈餘	-10.9351
熱釡	-10.9352
科大	-10.9353
吏民	-10.9353
之情	-10.9359
土脉	-10.936
樂利	-10.9361
堪為	-10.9361
相染	-10.9364
者多矣	-10.9372
耕牛	-10.9376
前代	-10.9379
大臣	-10.9379
洗浄油鹽調食	-10.9381
入簇	-10.9383
酒糟	-10.9385
營田	-10.9385
田皆	-10.9388
黄精	-10.9391
欲大而	-10.9395
四穂	-10.9395
油菜	-10.9396
月令曰	-10.9397
之品	-10.9398
一二寸	-10.941
就地	-10.9415
寒無毒	-10.9427
不若	-10.9434
籍田	-10.9442
案此	-10.9448
人莧	-10.945
沙河	-10.9454
闗中	-10.9455
之柱	-10.9463
先將	-10.9466
五方	-10.9468
一重	-10.9482
俗謂之	-10.949
解之	-10.9493
之衆	-10.9496
皆令	-10.9501
五千	-10.9502
五糓之	-10.9508
號曰	-10.9521
各屬	-10.9524
悉皆	-10.9534
人心	-10.9536
來嵗	-10.954
積而	-10.9542
多實	-10.9543
難易	-10.955
方圓	-10.9551
浸種	-10.9551
救飢採苗葉煠熟水浸	-10.9553
則止	-10.9565
微尖	-10.9569
大畧	-10.957
以南	-10.9574
虎皮	-10.9581
不然則	-10.9583
葉煠熟換水浸	-10.9589
雄者	-10.9596
州府古揚州斗分野	-10.9604
十月中	-10.9606
岸上	-10.9611
節氣	-10.9617
食多	-10.9632
此類	-10.9637
早穀	-10.964
之南	-10.9641
數處	-10.9642
既多	-10.9642
未見	-10.9643
髙二尺	-10.9644
柱欲	-10.9647
見於	-10.9649
上源	-10.9653
千葉	-10.9655
積榖	-10.9661
始熟	-10.9666
十八日	-10.9681
上輪	-10.9687
命有司	-10.9687
梅花	-10.9705
無損	-10.9713
無刺	-10.9729
北郊	-10.9738
所經	-10.9749
千家	-10.9764
農具	-10.9778
病人	-10.9782
亦用	-10.9792
所積	-10.9792
之職	-10.9793
人衆	-10.9794
無人	-10.9795
木耳	-10.9798
欲大	-10.9802
頗似	-10.9804
生卵	-10.9807
秫稻	-10.9813
之例	-10.9817
必待	-10.9819
者皆可	-10.982
蓋以	-10.9826
不畏	-10.9843
入焉	-10.9857
亦難	-10.9863
國用	-10.9866
于田	-10.9872
三尺許	-10.9872
嫩芽	-10.9879
食法採葉煠熟水浸淘浄油鹽調食	-10.9918
豈有	-10.9924
竹出	-10.9925
以水浸	-10.9935
救旱	-10.9943
俱宜	-10.9943
無定	-10.9943
擇種	-10.9959
俗謂	-10.9969
吕氏春秋	-10.9991
救飢採嫩苗葉煠熟	-10.9991
頗有	-10.9998
崔寔	-11.0001
𤣥扈先生	-11.0006
匱	-11.0006
餘姚	-11.0012
榖種門	-11.0013
眶	-11.0014
廣雅	-11.0014
三次	-11.0015
揩	-11.0015
淄	-11.0018
嫰	-11.0018
委官	-11.0019
壖	-11.0019
不求	-11.002
此數	-11.0021
𥫱	-11.0021
二年詔	-11.0022
與民	-11.0023
捕蝗	-11.0023
煙熏	-11.0023
鑽	-11.0023
不利人	-11.0024
葉及實皆可食	-11.0024
劖	-11.0025
􁣑	-11.0025
祭社	-11.0025
複	-11.0026
靛	-11.0026
埸	-11.0026
槖	-11.0026
礪	-11.0027
䝁豆	-11.0028
駢	-11.0028
誇	-11.0028
而終無出也	-11.0028
郭璞註曰	-11.0028
一莖三穂	-11.0029
楱	-11.0029
熈	-11.0029
絺	-11.0029
楓	-11.0029
一尺二寸	-11.0029
雚	-11.0029
簞	-11.003
豊	-11.003
􁆵	-11.003
喘	-11.003
稂	-11.003
𤾉	-11.003
貿	-11.003
聨	-11.003
女麴	-11.0031
恵	-11.0031
薥黍	-11.0031
顔師古曰	-11.0031
駁	-11.0031
劙	-11.0031
凢	-11.0031
盗賊	-11.0032
䋔	-11.0032
叫	-11.0032
籥	-11.0032
窺	-11.0032
逐耆	-11.0032
師古	-11.0032
㕑	-11.0032
聰	-11.0033
賛	-11.0033
届	-11.0033
靠	-11.0033
凶荒	-11.0033
吞	-11.0033
銳	-11.0033
渚	-11.0033
友	-11.0033
軠	-11.0034
會稽	-11.0034
匡	-11.0034
陋	-11.0034
氓	-11.0034
臧	-11.0035
茈	-11.0035
旉	-11.0035
耘盪	-11.0035
愼	-11.0036
捉	-11.0036
餻	-11.0036
傭	-11.0036
屨	-11.0036
扼	-11.0037
扞	-11.0037
腹脹	-11.0037
須臾	-11.0037
昴	-11.0037
㽔	-11.0037
父母	-11.0037
瓊	-11.0037
啄	-11.0037
羨	-11.0037
巫	-11.0037
尸	-11.0038
䨇	-11.0039
島	-11.0039
陛	-11.0039
蛆	-11.0039
蹙	-11.004
堈	-11.004
陳澔曰此記	-11.004
萬餘頃	-11.004
餐	-11.004
冬熟	-11.004
世祖	-11.004
小司徒	-11.004
撃	-11.004
預備倉	-11.0041
地平	-11.0041
如彈丸	-11.0041
蔚	-11.0041
治病文具本草菜部條下	-11.0041
梧	-11.0041
董仲舒	-11.0041
糾	-11.0041
劄	-11.0042
爨	-11.0042
忻	-11.0042
尅	-11.0042
芼	-11.0043
四足	-11.0043
而設之	-11.0043
拙	-11.0043
窩	-11.0043
知稼穡之艱難	-11.0043
湮塞	-11.0044
康熙	-11.0044
東廧	-11.0044
酵	-11.0044
銍	-11.0044
飱	-11.0044
荚	-11.0044
卷三	-11.0045
滄	-11.0045
痢	-11.0045
恒升	-11.0045
止渴	-11.0046
版	-11.0046
崑山	-11.0046
濤	-11.0046
岱	-11.0046
廣州記曰	-11.0047
嘉蔬	-11.0047
榧	-11.0047
殃	-11.0048
託	-11.0048
蘋	-11.0048
西王母	-11.0048
紡績	-11.0048
肖	-11.0048
脃	-11.0049
薔薇	-11.005
耡	-11.0051
味甘性平	-11.0051
朗	-11.0051
百餘里	-11.0051
夙夜	-11.0051
蝕	-11.0051
鐘	-11.0052
缾	-11.0052
膾	-11.0052
蒿梢	-11.0052
腕	-11.0052
豬脂	-11.0052
祿	-11.0052
踵	-11.0052
酬	-11.0053
唱	-11.0053
喧	-11.0053
月之候	-11.0053
朝夕	-11.0053
采熟食	-11.0053
糯羊鬚糯	-11.0053
潮汐	-11.0054
諫	-11.0055
羲	-11.0055
蓑衣	-11.0055
佃戸	-11.0056
暄	-11.0056
七月七日	-11.0057
依時	-11.0058
鐵齒	-11.0058
鉢	-11.0058
絲枲	-11.0058
蟄	-11.0058
旱潦	-11.0059
魚鱗	-11.006
司空	-11.006
二尺五寸	-11.0061
太史	-11.0061
箸	-11.0061
氐	-11.0061
粱秫	-11.0061
躋	-11.0062
五土之	-11.0062
粒長	-11.0062
嗇	-11.0063
郡守	-11.0064
金包銀	-11.0064
潢	-11.0064
澄清	-11.0065
早白稻	-11.0066
猪羊	-11.0067
懇	-11.0067
蛾眉	-11.0067
載師	-11.0068
斗建	-11.0068
如針	-11.0068
先嗇	-11.0068
憂勤	-11.0068
詭	-11.007
新增	-11.0071
徐子曰	-11.0073
耰鋤	-11.0073
耬鋤	-11.0073
畜牧	-11.0079
絡絲	-11.008
竊謂	-11.0081
郭璞云	-11.0082
輪軸	-11.0083
芟麥	-11.0083
兩鼻	-11.0083
雜占	-11.0086
衣服	-11.0086
節宣	-11.0088
東郊	-11.0088
吳興	-11.0089
瑞穀	-11.0089
平糶	-11.009
神麴	-11.0091
語曰	-11.0092
委積	-11.0096
匀布	-11.0098
蹄方	-11.0099
禮畢	-11.0102
㣲尖	-11.0106
集傳	-11.0107
即令	-11.0114
加減	-11.0116
木柄	-11.0116
勸農桑	-11.0117
銀兩	-11.0117
四時類要曰	-11.0118
之次	-11.0125
曠土	-11.0125
美惡	-11.0126
得宜	-11.0126
土脈	-11.0128
太原	-11.0128
採葉	-11.0133
班行	-11.0135
農桑輯要曰	-11.0136
材木	-11.0138
陂澤	-11.014
收貯	-11.0143
又言	-11.0143
興化	-11.0144
土方	-11.0146
麤細	-11.0148
者為勝	-11.0156
西𤓰	-11.0157
尤美	-11.016
養老	-11.0163
差官	-11.0165
五十畝	-11.0166
澤國	-11.0166
報功	-11.0169
陽城	-11.0169
天災	-11.0172
席上	-11.0172
也三候	-11.0173
薺菜	-11.0179
西瓜	-11.0179
五代	-11.018
熟火	-11.0181
關中	-11.0182
家池	-11.0183
餘甘	-11.0185
之權	-11.0186
州之域	-11.0189
遠近	-11.0191
然非	-11.0195
净淘	-11.02
冬𤓰	-11.0205
鴨子	-11.0208
轉輪	-11.0214
加之	-11.0216
百倍	-11.022
晚禾	-11.0223
濬治	-11.0226
萬夫	-11.0229
不可多	-11.0232
馬牛	-11.0232
之區	-11.0236
槐葉	-11.0242
西安	-11.0243
十八年	-11.0244
織第	-11.0244
柴草	-11.0244
四川	-11.0247
方十里	-11.0254
食令人	-11.0257
乃至	-11.0259
必致	-11.0259
某人	-11.026
南畆	-11.0261
蟲蠧	-11.0261
計口	-11.0263
必得	-11.0263
每畆	-11.0266
行禮	-11.0268
肉厚	-11.0269
壓桑	-11.0272
五十日	-11.0272
豐收	-11.0274
職方	-11.0276
則知	-11.0277
少時	-11.0283
便宜	-11.0286
蠶織	-11.0289
盛夏	-11.029
成都	-11.0294
倍收	-11.0294
利益	-11.0297
秋月	-11.0299
之小者	-11.0301
齊頭	-11.0306
水碓	-11.0309
誤矣	-11.031
候乾	-11.032
不可失	-11.0321
令破	-11.0322
既久	-11.0326
而無實	-11.0334
宜蠶	-11.0344
黒黍	-11.0347
知稼穡	-11.0347
下方	-11.0352
花黄	-11.0355
不忘	-11.0355
宜肥地	-11.0357
地之宜	-11.0358
順時	-11.0362
安置	-11.0365
猶未	-11.0368
所為	-11.0374
何謂	-11.0377
長二三尺	-11.0381
黄蒸	-11.0384
黄連	-11.0393
令燥	-11.0394
鋤治	-11.0396
東流	-11.0398
此所謂	-11.04
千畆	-11.0401
白沙	-11.0411
其心	-11.0416
亦不可	-11.0419
四野	-11.0434
之境	-11.0436
若遇	-11.0448
也箋	-11.0453
不滿	-11.0458
甚少	-11.0459
一尺五寸	-11.0461
晚熟	-11.0468
陰陽	-11.0483
夜雨	-11.0484
可入藥	-11.0496
遇雨	-11.0499
而不得	-11.0524
三候	-11.0526
其源	-11.0528
逐一	-11.0534
相似而	-11.0542
樹桑	-11.0571
但可	-11.0571
先事	-11.0574
二七	-11.0581
不無	-11.0582
氣升	-11.0593
放水	-11.0596
懸之	-11.0596
萬六千	-11.0598
較之	-11.06
力役	-11.0602
者以其	-11.0603
四十九	-11.0605
註曰	-11.0607
備用	-11.061
不敗	-11.0611
在圍	-11.0623
火氣	-11.0626
九穀	-11.0629
年年	-11.0632
水淺	-11.064
不察	-11.0645
縣令	-11.0645
雜種	-11.0658
資生	-11.066
己庚	-11.0673
王氏	-11.0674
河自	-11.0681
九尺	-11.0689
至是	-11.0703
深則	-11.0717
麻苧	-11.0727
曰昔	-11.0727
可知	-11.0747
長三尺	-11.0751
乃命	-11.0761
平時	-11.0762
秉耒	-11.0772
作苦	-11.0776
歸於	-11.0776
燕趙	-11.0779
樞之	-11.0782
六月熟	-11.0798
責成	-11.0799
難成	-11.0802
詩人	-11.0809
違者	-11.081
吕氏春秋曰	-11.0832
夏雨	-11.0848
長芒	-11.0852
王公	-11.0865
下垂	-11.0866
小則	-11.0872
南土	-11.0874
秔米	-11.0879
不饑	-11.0884
而作	-11.0907
百糓譜	-11.091
俱用	-11.0912
現	-11.0918
芸薹	-11.092
腐婢	-11.0923
箆	-11.0924
菔	-11.0925
綆	-11.0926
一嵗之中	-11.0927
楹	-11.0927
生山谷中	-11.0927
葧臍	-11.0931
戚	-11.0931
貞觀	-11.0932
蒝荽	-11.0932
款	-11.0934
評	-11.0934
夙	-11.0934
蠱	-11.0934
藂	-11.0935
鯶	-11.0935
黙	-11.0935
詳見樹藝果部救飢	-11.0936
徤	-11.0936
櫌	-11.0936
甎	-11.0936
穋	-11.0936
滹沱	-11.0936
水飲	-11.0937
悪	-11.0937
抖	-11.0937
搆	-11.0937
鏟	-11.0937
採周憲王救荒本	-11.0937
㨂	-11.0937
有線楞	-11.0938
水轉翻車	-11.0938
揜	-11.0938
囤	-11.0938
邵	-11.0938
欽定四庫全書子部四	-11.0939
壬癸	-11.0939
椏	-11.0939
屏	-11.0939
窳	-11.094
邉有鋸齒	-11.094
擒	-11.094
黲	-11.094
遺種	-11.094
葉味㣲苦	-11.094
剌	-11.094
蔬茹	-11.094
松柏	-11.0941
金裹銀	-11.0941
滎	-11.0941
票	-11.0941
恰	-11.0941
薥秫	-11.0941
罹	-11.0941
淘汰	-11.0941
止留一	-11.0942
窑	-11.0943
賑貸	-11.0943
㑹稽	-11.0943
各有所宜	-11.0943
寝	-11.0943
仲夏之月	-11.0943
益智	-11.0943
拱	-11.0944
銘	-11.0944
鄭𤣥	-11.0944
博聞錄	-11.0944
瀋	-11.0944
舄	-11.0944
濛	-11.0944
元王禎撰農器圖譜	-11.0944
曩	-11.0944
軛	-11.0944
泛溢	-11.0945
猒	-11.0945
襍	-11.0945
整理	-11.0945
柔韌	-11.0945
覃	-11.0945
鉄	-11.0945
滁州	-11.0946
救飢採嫩苗葉煠熟換水	-11.0946
膿	-11.0946
滛	-11.0946
洮	-11.0947
苴麻	-11.0947
徑一寸	-11.0947
丫	-11.0947
薯	-11.0947
虐	-11.0947
贖	-11.0948
漠	-11.0948
葺	-11.0948
瘁	-11.0948
秃	-11.0948
戎菽	-11.0948
梳	-11.0949
占驗禮記月令	-11.0949
钁	-11.0949
季秋之月	-11.0949
蜃	-11.0949
區畫	-11.095
地理志	-11.095
磊	-11.095
髙丈許	-11.095
仆	-11.095
天工開物凡	-11.095
葷	-11.095
鏡	-11.095
梅聖俞詩云	-11.0951
伊尹	-11.0951
釋名曰	-11.0951
熾	-11.0951
牸	-11.0951
耀	-11.0951
泡	-11.0951
聖祖仁皇帝	-11.0951
套	-11.0952
掠	-11.0952
坵	-11.0952
庻幾	-11.0952
牡麻	-11.0952
盫	-11.0953
狸	-11.0953
刪	-11.0953
箒	-11.0953
湛	-11.0954
篤	-11.0954
銅鍋	-11.0954
倡率	-11.0954
佩	-11.0954
呂氏春秋	-11.0954
嘉禾合穂	-11.0954
滅裂	-11.0955
登場	-11.0956
燋	-11.0956
台	-11.0956
綿幕	-11.0956
氣味甘平無毒	-11.0956
坻	-11.0956
腸胃	-11.0957
盜賊	-11.0957
确	-11.0957
擕	-11.0957
力穡	-11.0957
惕	-11.0958
鄒	-11.0958
恪	-11.0958
陳藏器曰	-11.0958
削去皮	-11.0959
㕓	-11.0959
醸酒	-11.0959
蠶矢	-11.0959
直隸	-11.096
懋	-11.096
車戽	-11.096
避暑	-11.096
汪	-11.096
巷	-11.0961
恥	-11.0961
京畿	-11.0961
匿	-11.0962
数	-11.0962
濾	-11.0962
豪右	-11.0962
瘞	-11.0963
娘	-11.0963
鞅	-11.0964
良法	-11.0964
封疆	-11.0964
薈	-11.0964
井田之制	-11.0964
檾麻	-11.0965
畎澮	-11.0965
癰	-11.0966
姦	-11.0966
歴代	-11.0966
貍	-11.0966
訟	-11.0966
蚯蚓	-11.0966
淖	-11.0967
峯	-11.0967
券	-11.0967
醪	-11.0967
憐	-11.0967
耙勞	-11.0967
許慎	-11.0968
照例	-11.0969
順治十	-11.097
淳熙	-11.0971
海口	-11.0972
蜡祭	-11.0975
同穎	-11.0975
莖生	-11.0975
游手	-11.0975
農桑輯要云	-11.0977
朹	-11.0977
詐	-11.0978
亦謂之	-11.0978
尚可	-11.0979
殿最	-11.0982
禮義	-11.0983
采采	-11.0984
可作虀	-11.0986
果部	-11.0987
霑足	-11.0987
勸農使	-11.0988
九月十月	-11.0989
麻菽	-11.099
于律為	-11.099
再宿	-11.0992
赤莖	-11.0992
海潮	-11.0994
秋風	-11.0997
金玉	-11.0998
結莢	-11.0998
廣狹	-11.0998
兩岐	-11.0999
指許	-11.0999
擇繭	-11.1
精誠	-11.1
鹽醋	-11.1001
麥苗	-11.1002
味辣	-11.1003
龍葵	-11.1003
字様	-11.1003
流入	-11.1003
循行	-11.1005
七月八月	-11.1005
斗建在	-11.1006
臭氣	-11.1006
實條下	-11.1007
老岸	-11.1008
失業	-11.1008
徑寸	-11.1009
皆同	-11.1009
明史	-11.101
率先	-11.1011
責之	-11.1012
數千里	-11.1012
隔年	-11.1014
旋轉	-11.1015
募民	-11.1019
盛頓	-11.1019
瓮口	-11.1025
墾耕	-11.1026
文武	-11.1026
冬藍	-11.103
四十餘	-11.103
資灌溉	-11.1032
豈知	-11.1033
半升	-11.1036
周官曰	-11.1037
暖處	-11.104
徐州	-11.104
之為物	-11.1041
國朝	-11.1041
攪令	-11.1043
一員	-11.1045
最勝	-11.1048
境内	-11.1051
取諸	-11.1051
是月	-11.1053
終畝	-11.1057
所言	-11.1061
蓮花	-11.1061
甲乙	-11.1062
莧菜	-11.1065
魚鹽	-11.1065
平陸	-11.107
苗稼	-11.1073
畒用子	-11.1074
苗葉煠熟	-11.1075
亦可種	-11.1078
不堪用	-11.1083
可供	-11.1084
城縣	-11.1084
豆餅	-11.1086
味甘救飢採	-11.109
為此	-11.1091
古制	-11.1092
苗葉煠熟水浸淘	-11.1094
永利	-11.1098
嘉穀	-11.11
臣工	-11.1101
生物	-11.1101
牛衣	-11.1101
三千六百	-11.1102
作弊	-11.1102
尤冝	-11.1106
後魏	-11.1108
國語	-11.1111
薑椒	-11.1119
也問	-11.112
尖頭	-11.1122
外國	-11.1122
毛羽	-11.1124
三間	-11.1125
東海	-11.1125
既畢	-11.1126
北齊	-11.1128
荒則	-11.1133
立夏前	-11.1134
朕惟	-11.1136
也惟	-11.1144
諸縣	-11.1146
萬國	-11.1147
毋得	-11.1153
青白色	-11.1156
當夜	-11.1164
庶民	-11.1165
中旬	-11.1168
代田	-11.1168
蒼生	-11.1168
擇去	-11.1169
葉而窄	-11.1172
去水	-11.1172
水涸	-11.1172
在官	-11.1175
丑寅	-11.1177
萬一	-11.1177
年久	-11.1178
各州縣	-11.1179
異常	-11.1183
所司	-11.1189
種蔓菁	-11.1193
欽定授時通考卷六十	-11.1194
又次之	-11.1198
三徧	-11.1198
塘長	-11.1198
公卿	-11.1202
寅卯	-11.1211
平量	-11.122
修復	-11.1221
造物	-11.1222
乎夫	-11.123
紫莖	-11.1231
麻皮	-11.1237
一把	-11.1238
每月	-11.124
臨時	-11.1242
種藷	-11.1244
四時類要種	-11.1245
欲急	-11.1248
膏潤	-11.1256
連根	-11.126
長尺餘	-11.1262
苖出	-11.1272
升半	-11.1278
力田者	-11.1296
水草	-11.1301
反是	-11.1304
皆不及	-11.1307
勞苦	-11.1307
今世有	-11.1311
天道	-11.1313
凡物	-11.1328
七八寸	-11.133
數十年	-11.1335
羊鬚糯	-11.1341
頗長	-11.1346
剝去	-11.1349
糯柳條糯	-11.1361
香秔	-11.1363
天心	-11.1366
三錢	-11.1366
等物	-11.137
之度	-11.1372
生齒	-11.1401
廣平	-11.1401
相等	-11.1412
永無	-11.1414
七穂	-11.1418
百六十	-11.1433
一窠	-11.144
功成	-11.1443
換水浸淘浄油鹽調食	-11.1446
牛種	-11.1447
所居	-11.1464
故老	-11.1466
粟類	-11.1473
經緯	-11.1474
畆法	-11.1481
十有二	-11.1491
者尤	-11.1516
諸書	-11.1518
養人	-11.1518
主雨	-11.1524
一端	-11.1533
田里	-11.155
清酒	-11.1551
分數	-11.1557
梅實	-11.1568
田少	-11.1584
今歲	-11.1585
粱米	-11.1586
小寒	-11.1588
梅杏	-11.1597
令天下	-11.1603
易長	-11.1608
上司	-11.1611
平之地	-11.1617
府古荆州翼軫分野	-11.1617
下蛾	-11.1635
者三	-11.1636
味香	-11.1639
稍長	-11.1646
滋味	-11.1647
未滿	-11.1651
百丈	-11.1659
四民	-11.1672
毎日	-11.1678
種棉	-11.169
所資	-11.1701
鬯	-11.1712
聽其	-11.1724
不識	-11.1748
欽定授時通考卷三十	-11.1765
喜雨	-11.1767
窄小	-11.177
俗人	-11.1789
乙丙	-11.1806
寧縣物産	-11.1813
四卷	-11.1818
依前	-11.1827
得利	-11.1849
舂米	-11.185
功作門	-11.185
各該	-11.1853
尺五寸	-11.1863
彚考	-11.1871
梔	-11.1889
氾勝之書	-11.1908
博物志	-11.1912
軸之兩端	-11.1914
麥秀兩岐	-11.1914
捐輸	-11.1921
内務府	-11.1923
趕	-11.1924
種椹	-11.1925
睛	-11.1926
正月二月中	-11.1926
司農司	-11.193
拈	-11.193
􁆴	-11.193
咽喉	-11.1931
悅	-11.1931
鰱	-11.1932
輝縣太行山	-11.1933
吝	-11.1933
吳淞江	-11.1933
渤海	-11.1933
昂	-11.1933
數畝	-11.1933
治病今人	-11.1934
簨軸	-11.1934
慈姑	-11.1934
邊有鋸齒	-11.1934
参	-11.1934
妃	-11.1934
蓧	-11.1934
欽定四庫全書農政全書卷二十	-11.1935
禎	-11.1935
竄	-11.1936
以草覆上	-11.1936
􁍩	-11.1936
裡	-11.1936
䘮	-11.1936
耆壯	-11.1937
鉛	-11.1937
榎	-11.1937
味苦性寒無毒	-11.1937
萄	-11.1937
檻	-11.1937
术	-11.1937
欽定四庫全書農政全書卷五十	-11.1937
稿	-11.1937
救飢採葉煠熟水浸淘淨油鹽調食	-11.1937
𦙍	-11.1938
欽定四庫全書農政全書卷三十	-11.1938
治畦下水	-11.1938
䃺	-11.1938
州府古揚州牛女分野	-11.1939
嬰	-11.1939
㯺	-11.1939
欽定四庫全書農政全書卷四十	-11.1939
傴僂	-11.1939
總校官	-11.194
土地所宜	-11.194
裝	-11.194
泠	-11.194
鞠	-11.194
弔	-11.194
寕	-11.194
暨	-11.194
稊	-11.1941
郊廟	-11.1941
徇	-11.1941
新鄭縣山野中	-11.1941
抄劄	-11.1941
衣裳	-11.1941
繡	-11.1941
斵	-11.1941
亨	-11.1942
邢	-11.1942
汛	-11.1942
孛	-11.1943
柺	-11.1943
𣙗	-11.1943
窓	-11.1943
王荆公詩云	-11.1943
佚	-11.1943
以句股	-11.1943
芬芳	-11.1943
賀	-11.1943
蓇葖	-11.1943
吟	-11.1944
瑟	-11.1944
晰	-11.1944
春分前後	-11.1944
咬	-11.1944
脅	-11.1944
峭	-11.1944
捷	-11.1944
妥	-11.1944
䟽濬	-11.1944
宏	-11.1945
曉示	-11.1945
縦	-11.1945
犧牲	-11.1946
麯	-11.1946
日得壬	-11.1946
孟夏之月	-11.1946
様樁	-11.1946
所以然者	-11.1946
物類相感志	-11.1946
諧	-11.1947
窟	-11.1947
深水紅	-11.1948
頽	-11.1948
齡	-11.1948
緡	-11.1948
坂	-11.1948
鄰省	-11.1949
瓞	-11.1949
敲	-11.1949
琴	-11.1949
妾	-11.1949
􁗿	-11.195
糴買	-11.195
狄	-11.195
怠惰	-11.195
大雨時行	-11.195
膺	-11.195
碎折	-11.195
釣	-11.195
壑	-11.195
顏	-11.195
虋	-11.195
褒	-11.195
劒	-11.195
曝令燥	-11.1951
纍	-11.1951
蝶	-11.1951
氣上騰	-11.1951
籩	-11.1951
撁	-11.1951
篝	-11.1952
儼	-11.1952
罄	-11.1952
奬	-11.1952
捜	-11.1952
肢	-11.1952
萑葦	-11.1953
鬭	-11.1953
楊柳	-11.1953
恨	-11.1953
悟	-11.1953
陶朱公書	-11.1953
有二種一種	-11.1954
䑕牙	-11.1954
僑	-11.1954
蟹眼	-11.1954
詰	-11.1954
雲夢	-11.1955
粲	-11.1955
黒墳	-11.1955
茸	-11.1955
淑	-11.1956
㝡	-11.1956
宗廟	-11.1956
恒蔬	-11.1956
霸	-11.1956
芙	-11.1956
谿	-11.1956
攘	-11.1956
驚蟄	-11.1957
矧	-11.1957
懈	-11.1957
脚踏	-11.1957
熙寧	-11.1957
縑	-11.1957
欽定四庫全書欽定授時通考卷五十	-11.1957
淪	-11.1957
綏	-11.1957
欽定授時通考卷五十	-11.1957
哺	-11.1958
潔浄	-11.1958
都御史	-11.1958
圩甲	-11.1958
之總名	-11.1958
荇	-11.1958
鄴中	-11.1959
溶	-11.1959
宋史食貨志	-11.1959
扣	-11.1959
雍正二年	-11.196
雨雪之水	-11.196
爾雅釋	-11.196
嬾	-11.1961
之遺意	-11.1961
涯	-11.1961
營造	-11.1961
紫黑色	-11.1961
著瓮中	-11.1961
笆	-11.1961
有大小二種	-11.1961
歆	-11.1962
穜稑	-11.1962
麻籸	-11.1962
嗣後	-11.1962
複池	-11.1962
綵	-11.1962
現今	-11.1962
皇祖	-11.1962
烘	-11.1963
西洋	-11.1963
滔	-11.1963
椰子	-11.1963
葡	-11.1964
掘區	-11.1965
滂	-11.1965
敏	-11.1965
桑條	-11.1965
裙	-11.1966
不啻	-11.1967
菭	-11.1967
存貯	-11.1967
尾箕	-11.1967
廬江	-11.1968
不復任	-11.1968
老圃	-11.1968
吳越	-11.1969
爲巨勝	-11.1969
巨浸	-11.197
譽	-11.197
營室	-11.1971
㝠	-11.1971
跪	-11.1972
枝梗	-11.1972
調適	-11.1972
据	-11.1972
打破	-11.1973
賑給	-11.1973
階	-11.1973
址	-11.1973
窖藏	-11.1974
盂	-11.1974
溝壑	-11.1974
等項	-11.1975
縷切	-11.1975
廣雅云	-11.1975
宴	-11.1976
飰	-11.1976
昆蟲	-11.1977
琢	-11.1977
衣食足	-11.1978
通判	-11.1978
俗所謂	-11.1979
永嘉	-11.1979
均匀	-11.1979
甘露子	-11.1979
一稃二米	-11.198
上黨	-11.198
脂膏	-11.1981
縣物産稻之屬	-11.1981
當司	-11.1982
羮臛	-11.1982
莓	-11.1983
九英	-11.1984
疎密	-11.1985
耕第十	-11.1985
穿渠	-11.1985
延蔓	-11.1985
引蔓	-11.1985
盈寧	-11.1985
丞相	-11.1986
氣餾	-11.1986
苦酒法	-11.1986
二年詔曰	-11.1987
答曰	-11.1987
甫田	-11.1989
麴勢	-11.1993
蟲蝗	-11.1993
多食令人	-11.1994
滚	-11.1994
盡更	-11.1995
赤棠	-11.1996
不願	-11.1996
韓氏直説曰	-11.1997
壓條	-11.1997
甘露	-11.2
授衣	-11.2001
欽定授時通考卷四十	-11.2001
性輭	-11.2001
雷聲	-11.2003
參差	-11.2003
穿井	-11.2004
煎湯	-11.2004
杏仁	-11.2005
状似	-11.2005
縣界	-11.2005
小雅	-11.2009
雀麥	-11.2009
龍骨	-11.2009
盈尺	-11.2011
堪入藥	-11.2011
越王	-11.2012
朕意	-11.2013
絲綿	-11.2013
相繼	-11.2013
賦役	-11.2015
開闢	-11.2016
接頭上	-11.2017
榆皮	-11.2017
暴乾	-11.2017
造化	-11.202
寛鄉	-11.202
鹽豉汁	-11.2025
早熟者	-11.2026
三卷	-11.2027
擾民	-11.2027
千畦	-11.2027
田若干	-11.2028
南海	-11.203
荒廢	-11.203
菜部	-11.2036
待冷	-11.2037
皆得作	-11.2038
生熟皆	-11.2038
坐視	-11.2038
别作一	-11.2039
圓而長	-11.204
冬至日	-11.2041
屯政	-11.2043
根鬚	-11.2044
風潮	-11.2044
陳紫	-11.2044
臘月内	-11.2044
官一員	-11.2046
輪轉	-11.2047
支河	-11.2048
豈能	-11.2048
槐花	-11.205
紅藍	-11.2052
欽定四庫全書欽定授時通考卷四十	-11.2052
入藥用	-11.2056
令極熟	-11.2058
上下相	-11.2061
殻厚	-11.2066
竟日	-11.2067
牛尾	-11.2068
南郊	-11.2069
饑寒	-11.2069
味甘美	-11.2071
從容	-11.2073
秈糯	-11.2074
冷熱	-11.2077
果食之	-11.2078
無疆	-11.2078
耕稼	-11.2082
溝澮	-11.2083
臣聞	-11.2084
野老	-11.2089
農桑要㫖	-11.209
萬里	-11.2091
藤一名	-11.2095
出糶	-11.2099
農政全書卷四十	-11.2099
畏日	-11.21
柄長	-11.2105
實惠	-11.2105
炊米	-11.211
西風	-11.2111
東省	-11.2114
丈許	-11.2114
衆力	-11.2115
透風	-11.2125
圍内	-11.2129
甕内	-11.213
治馬中	-11.2132
匠人	-11.2133
濕熱	-11.2134
冷水中	-11.2148
稗子	-11.2149
糞田	-11.2155
又李時珍曰	-11.2161
味極	-11.2167
稷米	-11.2168
上户	-11.217
烏鬚	-11.2173
不覺	-11.2175
成畦	-11.2177
燥乾	-11.2177
烏禾	-11.2182
四破	-11.2183
窖中	-11.2189
今人以	-11.2208
不虞	-11.221
皇上	-11.2212
修水利	-11.2213
後周	-11.2216
晉書	-11.2218
亦須	-11.2224
堅好	-11.2226
終日	-11.2228
葉間開	-11.2229
經史	-11.2231
乾燥	-11.2232
戊己	-11.2248
欽定授時通考卷二十	-11.2249
游食	-11.2252
諸道	-11.2255
須要	-11.2259
分為二	-11.226
見功	-11.2263
蟲食	-11.2267
亦不必	-11.227
白果	-11.2273
勸相	-11.2289
椒子	-11.229
條桑	-11.2297
他果	-11.2305
農政全書卷三十	-11.2316
醤法	-11.2329
今國家	-11.2329
堰曰	-11.233
取乾	-11.2334
别置	-11.2346
欽定四庫全書欽定授時通考卷二十	-11.2354
率土	-11.2356
僅有	-11.2358
穀黏	-11.2363
厥田	-11.2371
名物	-11.2386
或遇	-11.2399
畏旱	-11.2399
煠熟油鹽調食	-11.2401
苗葉煠熟水浸淘淨油鹽調食	-11.2407
籠中	-11.2408
墾荒	-11.2408
法如前	-11.2409
粒細	-11.2413
生宻縣山	-11.243
莖而生	-11.245
落地	-11.2459
柳葉	-11.2459
五月熟	-11.246
嫩枝	-11.2465
用水澆	-11.2485
出示	-11.2502
糞種	-11.2519
孝經	-11.2522
建寧	-11.2524
芹菜	-11.2534
敦本	-11.2547
種蕪菁	-11.2624
青粱	-11.2624
中下之	-11.2625
小溝	-11.2628
以佐	-11.263
蒸煮	-11.2663
三指	-11.2671
者為佳	-11.2684
沿江	-11.2688
囊盛	-11.2707
本經	-11.2707
赤芒	-11.271
宻泥	-11.2718
不借	-11.2724
種大豆	-11.2726
每遇	-11.2729
河流	-11.2733
煠熟水浸	-11.274
舊不載所出州土	-11.2743
候芽	-11.2747
歉嵗	-11.2759
貯榖	-11.2765
辛辣	-11.28
節節	-11.2811
茍不	-11.2834
浸一宿	-11.2851
致力	-11.2856
苗葉煠熟水浸淘浄油鹽調食	-11.2896
織第十	-11.2905
他人	-11.2917
葉煠熟換水浸淘去苦味油鹽調食	-11.2929
未聞	-11.2936
葉煠熟水浸淘去苦味油鹽調食	-11.2986
勢必	-11.2998
莫令	-11.3003
翰林院	-11.3004
勸耕	-11.3016
湖之水	-11.3019
府古揚州牛女分野	-11.3021
車則有卧軸也卧軸之	-11.3028
天其星	-11.3031
黨	-11.3032
􁉩	-11.3034
装	-11.3035
措	-11.3035
芍	-11.3036
鶵	-11.3036
駝	-11.3038
輞	-11.3038
湅	-11.3038
津液	-11.3039
祲	-11.3039
天駟	-11.3039
剰	-11.3039
菼	-11.3041
一莖九穂	-11.3042
古農法	-11.3042
掌印官	-11.3042
泠盆	-11.3042
茘	-11.3043
荄	-11.3043
拾遺	-11.3043
敖	-11.3043
覔	-11.3043
肘	-11.3044
有紅白二種	-11.3044
奔走	-11.3044
孳	-11.3044
豪傑	-11.3045
鬴	-11.3045
保正副	-11.3045
延蔓而生	-11.3045
孝弟力田	-11.3045
扈先生曰	-11.3045
馮	-11.3045
蹉	-11.3045
渉	-11.3045
欎	-11.3045
靳	-11.3046
明周王朱橚撰	-11.3046
陶朱	-11.3046
栝	-11.3046
陸龜䝉	-11.3046
聖賢	-11.3046
芮	-11.3046
治病文具本草果部	-11.3046
龍魚河圖	-11.3047
妖	-11.3047
鎖	-11.3047
八平分	-11.3047
拊	-11.3048
周而復始	-11.3048
湊	-11.3048
陸續	-11.3048
嵐	-11.3048
噴	-11.3049
水調匀	-11.3049
明徐光啓撰荒政	-11.3049
焉巧者運之不可勝用也	-11.3049
坏	-11.3049
夥	-11.3049
葉皆對生	-11.3049
稳	-11.3049
斟酌焉而為之度	-11.3049
之中而設之	-11.305
艮	-11.305
禹平水土	-11.305
臈	-11.305
葭	-11.305
禳	-11.305
葉似獨掃葉	-11.305
吴淞江	-11.3051
為直角	-11.3051
抬	-11.3051
淘去澁味油鹽調食	-11.3051
袍	-11.3051
多留宿土	-11.3051
訴	-11.3051
鏃	-11.3051
禪	-11.3052
逰	-11.3052
不必救荒	-11.3052
萑	-11.3052
嘉禾一莖九穂	-11.3052
州禾合穂	-11.3052
簜	-11.3052
胞	-11.3052
不燒則	-11.3052
孫士毅	-11.3052
昀	-11.3053
穈	-11.3053
徑三寸則	-11.3053
桿	-11.3053
漫撒	-11.3053
鄭司農云	-11.3053
治病文具本草木部條下	-11.3053
南陽太守	-11.3053
祓	-11.3053
芍藥	-11.3053
鷰	-11.3053
糞水澆之	-11.3053
司徒	-11.3053
瑣	-11.3053
苗初搨地生葉似	-11.3053
陸費墀	-11.3054
柂	-11.3054
韮	-11.3054
屝	-11.3054
瞿麥	-11.3054
蓻	-11.3054
易為力	-11.3054
媚	-11.3054
喂	-11.3055
堘	-11.3055
以防止水	-11.3055
購	-11.3055
食法採苗葉煠熟水浸淘浄油鹽調食	-11.3055
㨊圜	-11.3055
上樞之末	-11.3055
砘車	-11.3055
甄	-11.3055
崑崙	-11.3055
棺	-11.3056
翎	-11.3056
奪其時	-11.3056
醇	-11.3056
鱧	-11.3056
二百四十	-11.3057
纁	-11.3057
救飢摘取	-11.3057
埒	-11.3057
下樞之末	-11.3057
鷺	-11.3057
慣	-11.3057
朔日値	-11.3057
蒸食亦可	-11.3057
冥	-11.3058
紬	-11.3058
妳	-11.3058
匣	-11.3058
蝨	-11.3058
循環	-11.3059
雙鳬	-11.3059
秣	-11.3059
暢茂	-11.3059
廬舍	-11.3059
頰	-11.3059
紋脉	-11.3059
世宗憲皇帝	-11.3059
弄	-11.306
低窪	-11.306
糠粃	-11.306
枷	-11.306
龕	-11.306
沮洳	-11.306
馥	-11.306
滎陽	-11.306
扶留	-11.3061
太湖之水	-11.3061
傘	-11.3062
野菜譜	-11.3062
穆	-11.3063
狂	-11.3063
朳	-11.3063
嗜	-11.3063
正月旦	-11.3063
嘯	-11.3063
鞏	-11.3063
諸葛菜	-11.3063
廿	-11.3063
餔	-11.3063
徼	-11.3063
啓閉	-11.3064
見風日	-11.3064
又食貨志	-11.3064
土田	-11.3064
絹篩	-11.3064
瘟	-11.3065
徂	-11.3065
禋	-11.3066
蔣	-11.3066
烏嘴	-11.3066
二三丈	-11.3066
饁	-11.3067
浙東	-11.3067
恣	-11.3067
開闔	-11.3067
等謹案	-11.3067
鴿	-11.3067
芥藍	-11.3067
盍	-11.3067
迂	-11.3067
紛紛	-11.3067
浣	-11.3067
臨種時	-11.3067
蠲租	-11.3067
鐡齒	-11.3068
剽	-11.3068
讓	-11.3068
蓮藕	-11.3068
噫	-11.3068
黜陟	-11.3069
簸揚	-11.3069
以竹為之	-11.3069
食經作	-11.3069
彌佳	-11.3069
斃	-11.307
丘陵	-11.307
給事中	-11.307
丕	-11.3071
丈竿	-11.3071
麓	-11.3071
韶	-11.3071
札	-11.3071
稽查	-11.3071
彩	-11.3071
鈐	-11.3072
湍	-11.3073
垂線	-11.3073
圉	-11.3073
䈰	-11.3073
頑	-11.3073
蔞蒿	-11.3073
毬	-11.3074
瀼	-11.3074
借貸	-11.3074
挿秧	-11.3074
爾雅翼云	-11.3075
隐	-11.3075
我皇上	-11.3075
擗	-11.3076
毯	-11.3076
田若干畝	-11.3076
膈	-11.3076
耿	-11.3076
瀹	-11.3076
軀	-11.3076
稠密	-11.3076
倭	-11.3077
馭	-11.3078
浜	-11.3078
勲	-11.3078
荆楚	-11.3078
周頌	-11.3078
燕京	-11.3078
𤨏	-11.3079
兩頭尖	-11.3079
招徠	-11.3079
西北水利	-11.308
倡	-11.308
開溝	-11.308
鉅野	-11.3081
樽	-11.3081
豐凶	-11.3081
㓙年	-11.3081
太常寺	-11.3081
菱角	-11.3081
盆盎	-11.3082
淚	-11.3082
撫綏	-11.3082
馬齒莧	-11.3082
疆界	-11.3083
欽定授時通考卷七十	-11.3083
舁	-11.3083
良耜	-11.3083
救濟	-11.3084
陂池	-11.3085
季夏	-11.3085
鬼目	-11.3085
蒔蘿	-11.3086
今江東呼	-11.3086
督課	-11.3086
獄	-11.3086
搏	-11.3086
四年詔曰	-11.3087
紆	-11.3087
耆分	-11.3087
禆	-11.3087
薕	-11.3088
頻婆	-11.3088
効力	-11.3088
氾勝之書曰	-11.3088
超	-11.3088
有白毛	-11.3088
宣城	-11.3088
勸導	-11.3089
流徙	-11.3089
繁衍	-11.3089
官帑	-11.309
考課	-11.3091
綿綿	-11.3091
聿	-11.3092
蜀秫	-11.3092
甘酸	-11.3092
周禮所謂	-11.3094
人亦呼	-11.3094
占城稻	-11.3094
蚊	-11.3095
博物志曰	-11.3095
螻	-11.3096
耆老	-11.3096
芭	-11.3096
正月一日	-11.3096
歛散	-11.3097
接換	-11.31
捨	-11.3101
髙二三尺	-11.3102
滿奠	-11.3102
之次于辰在	-11.3102
堆積	-11.3103
插秧	-11.3103
食次曰	-11.3103
旋旋	-11.3106
可知矣	-11.3106
租税	-11.3107
割條	-11.311
申報	-11.311
抹	-11.3111
江陵	-11.3113
典禮	-11.3113
贖罪	-11.3114
欽定四庫全書欽定授時通考卷七十	-11.3115
盔	-11.3115
三四次	-11.3122
煠熟水浸淘淨油鹽調食	-11.3123
奏稱	-11.3124
仰泉	-11.3124
逐末	-11.3125
澤藪曰	-11.3126
嘗聞	-11.3127
疏鑿	-11.3127
歉收	-11.3129
髙卑	-11.313
鄭國	-11.313
孟夏	-11.3131
廵行	-11.3132
蠶桑門	-11.3135
保澤	-11.3137
和麻子	-11.3139
陳氏	-11.314
常鎮	-11.3142
猪肉	-11.3144
内甕中	-11.3145
四蹄	-11.3146
玉海	-11.3148
燥曝	-11.3151
女工	-11.3153
物料	-11.3154
泥塗	-11.3154
九十日	-11.3154
接濟	-11.3156
糴榖	-11.3156
俗稱	-11.3156
轉輸	-11.3157
正義	-11.3159
金橘	-11.3166
臘日	-11.3166
而提柱	-11.3168
可為酒	-11.3169
髙一二尺莖	-11.3169
沙泥	-11.317
三尺五寸	-11.3172
掘地作	-11.3174
存乎	-11.3174
夫役	-11.3175
棄置	-11.3177
不可不知	-11.3177
六七日	-11.3178
責令	-11.3178
九職	-11.3179
使君	-11.3181
暴雨	-11.3181
寒熱	-11.3182
給散	-11.3185
樝子	-11.3185
雄黄	-11.3186
宣州	-11.3194
熱湯	-11.3198
荆芥	-11.3199
汗出	-11.3207
季秋	-11.3209
作豉	-11.3211
稻粱	-11.3212
速耕	-11.3212
勤苦	-11.3215
向來	-11.3223
修省	-11.3224
國工	-11.3226
漸次	-11.3228
今據	-11.3229
一歲之	-11.3229
有早晚	-11.3232
嘗考	-11.3232
越瓜	-11.3234
等第	-11.3237
手足	-11.3238
山野中苗高	-11.324
數箇	-11.3245
傷熱	-11.3251
在京	-11.3256
空處	-11.3264
水漲	-11.3267
四丈	-11.327
節候	-11.3271
貢生	-11.3279
人踏	-11.3286
糯紅	-11.3291
蜀椒	-11.3292
巳午	-11.3293
䅖種	-11.3298
農政	-11.3299
毎嵗	-11.3299
報本	-11.3305
麪食	-11.3306
職事	-11.3311
鞍	-11.3314
而入之	-11.332
障水	-11.3327
公桑	-11.3328
水蘿蔔	-11.333
髙脚	-11.3331
治羊	-11.3339
爛熟	-11.335
蝗蟲	-11.3351
救饑	-11.3353
土覆之	-11.336
赤殻	-11.3383
徑可	-11.3387
浸米	-11.3405
似苜蓿葉	-11.3408
欽定四庫全書農書卷十	-11.3427
浴蠶	-11.344
茶褐	-11.3442
植物	-11.3458
清明前	-11.3461
六種	-11.3461
麴末一斗	-11.3466
調灌	-11.3473
二十里	-11.3485
栁葉而	-11.3492
預先	-11.3499
制器	-11.3501
板荒	-11.3514
該撫	-11.3542
杏李	-11.357
民困	-11.357
不蠧	-11.3582
升薄田	-11.3584
而光澤	-11.3585
何必	-11.3618
圖經	-11.3633
買田	-11.3641
生宻縣	-11.3696
農圃	-11.3705
葉煠熟水浸淘浄油鹽調食	-11.3713
糯紅殻糯	-11.3721
苗高一二尺葉似	-11.3743
氣味辛	-11.3744
平糴	-11.3772
十株	-11.3802
前項	-11.3802
糯重陽糯	-11.3806
味鹹	-11.3846
苗葉煠熟換水	-11.3848
工役	-11.387
百文	-11.3886
日一酘	-11.3894
良農	-11.3935
名目	-11.3973
告成	-11.3988
水三斗	-11.4009
葉煠熟	-11.4021
淘米	-11.4023
灌畦	-11.4101
各等分	-11.4109
食法採葉煠熟水浸	-11.4127
何異	-11.4128
淘淨	-11.4144
要術	-11.4208
乾柴	-11.4217
五千石	-11.4225
不凋	-11.423
閏	-11.4279
簣	-11.4279
不可作田	-11.4281
椰	-11.4282
鐙	-11.4284
一莖五穂	-11.4286
槿	-11.4287
睫	-11.4288
奈	-11.4288
稞	-11.4288
筯	-11.4289
塔	-11.4289
治病文具本草果部條下	-11.429
庛	-11.4291
垜	-11.4292
陸璣	-11.4292
欽定四庫全書救荒本草卷	-11.4293
又似金銀花葉	-11.4293
㦸	-11.4293
慙	-11.4293
茲	-11.4293
陶隠居	-11.4293
萃	-11.4293
別	-11.4294
熨	-11.4294
垡	-11.4295
步一樹	-11.4295
分其凡而	-11.4295
二千五百	-11.4295
厦	-11.4295
寃句	-11.4295
州禾一莖九穂	-11.4295
芷	-11.4295
乎子能使	-11.4295
槎	-11.4295
牛蒡子	-11.4295
絺綌	-11.4295
燒下頭二	-11.4295
詔諸路	-11.4296
棒	-11.4296
砘	-11.4296
救飢採葉煠熟水浸淘	-11.4296
臆	-11.4296
節氣初五日	-11.4296
注曰本篇四圖之	-11.4296
禾合穂	-11.4296
𩥇而不	-11.4296
棬	-11.4297
為行桑	-11.4297
猗	-11.4297
涎	-11.4297
駞	-11.4297
召信臣	-11.4297
欖	-11.4297
鈍	-11.4298
虗	-11.4298
元史食貨志	-11.4298
絍	-11.4298
澧	-11.4298
苖葉煠熟水浸淘浄油鹽調食	-11.4298
康熈三十	-11.4298
覧	-11.4298
篣	-11.4298
臟	-11.4298
不可闕也	-11.4299
疙	-11.4299
敘	-11.4299
部左侍郎	-11.4299
徐廣曰	-11.4299
笛	-11.4299
得經夏	-11.4299
砥	-11.4299
一勞永逸	-11.43
榼	-11.43
楙	-11.43
取其榦可作骨	-11.43
一莖四穂	-11.43
馴	-11.43
旌	-11.43
哨	-11.43
櫨	-11.43
禾一本九穂	-11.4301
戊巳	-11.4301
骼	-11.4301
邈	-11.4301
龔遂	-11.4301
蛹	-11.4301
襟	-11.4301
先蠶壇	-11.4301
溫無毒	-11.4301
笐架	-11.4301
堤堰	-11.4301
跗	-11.4301
曳撻	-11.4301
糙	-11.4301
葉攅生一處	-11.4302
便民圗曰	-11.4302
赫	-11.4302
穟	-11.4302
哲	-11.4302
本篇一圖之	-11.4302
捺	-11.4302
授民時	-11.4302
謙	-11.4302
開粉紅花	-11.4302
辣救飢採	-11.4303
農桑直説	-11.4303
澡	-11.4303
人家園圃中	-11.4303
幾何丈尺	-11.4303
腋	-11.4303
柅	-11.4303
晾	-11.4303
炮	-11.4303
剡	-11.4303
毳	-11.4303
齍	-11.4303
諱	-11.4304
萹	-11.4304
捄	-11.4304
簍	-11.4304
㼐	-11.4304
尉	-11.4304
墼	-11.4304
苹	-11.4304
博雅	-11.4304
菟	-11.4304
俗又呼	-11.4304
溝瀆	-11.4304
雋	-11.4304
故字從	-11.4304
隊	-11.4304
籜	-11.4304
薔	-11.4305
于辰在	-11.4305
孟詵曰	-11.4305
大戴禮	-11.4305
瀘	-11.4305
水清乃止	-11.4305
榨油	-11.4305
汪洋	-11.4305
甦	-11.4306
􁗳	-11.4306
連耞	-11.4306
麟	-11.4306
惟所為之	-11.4306
主有風	-11.4306
磚瓦	-11.4306
千年	-11.4306
埆	-11.4307
父兄	-11.4307
辱	-11.4307
㓂	-11.4307
朋	-11.4307
藳	-11.4307
熟最早	-11.4307
農隙之時	-11.4307
葉裏藏	-11.4308
進瑞麥一莖	-11.4308
航	-11.4308
朱文公	-11.4308
逢壬	-11.4308
蘧	-11.4308
莾	-11.4308
籧	-11.4308
搗碎	-11.4309
獺	-11.4309
紅蓮稻	-11.4309
擢	-11.4309
葉似杏葉而	-11.4309
石焉或瓴甋焉	-11.4309
汜	-11.4309
康熈四十	-11.4309
飢渴	-11.4309
州古梁州井鬼分野	-11.4309
肪	-11.4309
臯	-11.4309
埤雅	-11.431
鯉	-11.431
開黄花結實	-11.431
俸	-11.431
莭	-11.431
宦	-11.431
笨	-11.431
窶	-11.431
蚢	-11.431
州土産	-11.431
滲漏	-11.4311
懿	-11.4311
荍	-11.4311
蛟	-11.4311
椵	-11.4311
帆風	-11.4311
灋	-11.4311
唐書食貨志	-11.4311
紈	-11.4311
有成效	-11.4312
通志康熙	-11.4312
蒲葦	-11.4312
曠野	-11.4312
崔寔曰正月可	-11.4312
灰淋	-11.4312
茒	-11.4312
謹改正	-11.4313
府庫	-11.4313
味甘無毒	-11.4313
信樁	-11.4313
尔	-11.4313
桓	-11.4313
前徃	-11.4314
膁	-11.4314
奸弊	-11.4314
崩	-11.4314
閃	-11.4314
緗	-11.4314
嘉定縣志	-11.4314
蒻	-11.4314
賑恤	-11.4314
囷倉	-11.4314
紫芒稻	-11.4314
咽	-11.4314
絹簁	-11.4314
巵	-11.4315
糵	-11.4315
農器譜	-11.4315
橰	-11.4315
如釵股	-11.4315
諮	-11.4315
鐵梗糯	-11.4315
渗	-11.4315
繅車	-11.4316
瓚	-11.4316
蒡	-11.4316
鍜	-11.4316
漢書食貨志	-11.4316
莪	-11.4316
黼黻	-11.4316
遷徙	-11.4316
仞	-11.4316
糗	-11.4316
絟	-11.4317
進呈	-11.4317
翳	-11.4317
搗為末	-11.4317
舟楫	-11.4317
白虎通	-11.4317
奄觀	-11.4318
觴	-11.4318
禮記内則	-11.4318
浚渠	-11.4318
蘩	-11.4318
胡芹	-11.4318
俊	-11.4318
苦苣	-11.4319
駵	-11.4319
𧖟	-11.4319
稻之屬	-11.4319
書食貨志	-11.432
乖	-11.432
忩	-11.432
渠䟽	-11.432
轉徙	-11.432
蹤	-11.432
埃	-11.432
拏	-11.432
堡	-11.4321
糁	-11.4321
冽	-11.4321
堙	-11.4321
萌芽	-11.4321
剏	-11.4321
􁆤	-11.4321
痺	-11.4321
麥綽	-11.4322
鮐	-11.4322
汀	-11.4322
鑾	-11.4322
櫐	-11.4323
彷	-11.4323
爇	-11.4323
􁣌	-11.4323
濇	-11.4323
塲圃	-11.4323
瀰漫	-11.4324
謁	-11.4324
江右	-11.4324
橇	-11.4324
地面	-11.4324
腔	-11.4324
綾	-11.4324
茖	-11.4325
㓗	-11.4325
蔀	-11.4325
壺漏之	-11.4326
龡	-11.4326
圜丘	-11.4326
沿海	-11.4326
該管	-11.4326
天台	-11.4326
悍	-11.4327
閨	-11.4327
蓘	-11.4327
腥氣	-11.4327
亢旱	-11.4328
西畨	-11.4328
依前法	-11.4328
糶賣	-11.4328
一夫不耕	-11.4329
得霜露	-11.4329
吁	-11.4329
來麰	-11.4329
桓公	-11.433
債	-11.433
雞冠	-11.433
羞	-11.433
釅	-11.4331
薌	-11.4331
惻	-11.4331
鐵線	-11.4332
雨暘時若	-11.4333
漾	-11.4333
槧	-11.4334
世襲	-11.4334
灤河	-11.4335
卑濕	-11.4335
監司	-11.4335
以灌田	-11.4335
鎔	-11.4336
五臟	-11.4336
唐虞	-11.4336
卷七十	-11.4336
兌	-11.4337
猾	-11.4337
筵	-11.4337
休息	-11.4337
三年詔曰	-11.4337
細切葱白	-11.4338
匀停	-11.4338
擘破	-11.4339
璣	-11.4339
泉源	-11.4339
湏臾	-11.434
約束	-11.4341
腐爛	-11.4341
煑取汁	-11.4341
閼	-11.4342
抑勒	-11.4343
祀典	-11.4344
轉運司	-11.4345
蔬果	-11.4345
霍亂	-11.4346
翻轉	-11.4348
耦耕	-11.4348
燒灰	-11.4349
立夏後	-11.4349
採摘	-11.435
半段	-11.435
墳起	-11.4351
簪	-11.4351
向裏	-11.4351
壅塞	-11.4353
錢眼	-11.4353
沐浴	-11.4353
燈心	-11.4353
應募	-11.4355
甲申	-11.4355
涿	-11.4355
荆棘	-11.4359
竭力	-11.436
等語	-11.4361
隙地	-11.4361
科斫	-11.4363
油鹽調食生醃食亦可	-11.4363
馬蹄	-11.4363
便民圖曰	-11.4363
終獻	-11.4364
西北之地	-11.4364
衣被	-11.4364
滑美	-11.4368
海棠	-11.4369
嵗稔	-11.437
村落	-11.4371
蕛	-11.4374
糯紅糯	-11.4376
分擡	-11.4376
他邑	-11.4376
處有之	-11.4377
鄉之田	-11.4377
形容	-11.4378
金銀	-11.4379
家莊	-11.4379
消化	-11.438
念民依	-11.438
北京	-11.4384
海運	-11.4384
隴畝	-11.4387
性硬	-11.4387
洞穴	-11.4387
寒暖	-11.4388
第一等	-11.4388
歳歳	-11.4389
荘子	-11.4389
照依	-11.4391
露池	-11.4395
通典	-11.4402
打量	-11.4402
豐潤	-11.4403
澆肥	-11.4406
后土	-11.4406
軟薄	-11.4406
於盆中	-11.4408
存留	-11.4408
油灰	-11.4411
冬至後	-11.4411
朕思	-11.4411
胡𤓰	-11.4412
初績	-11.4412
燒酒	-11.4413
但願	-11.4416
草穢	-11.442
王政	-11.4421
豳詩	-11.4421
四畔	-11.4422
菽粟	-11.4424
留意	-11.4426
黄昏	-11.4426
黎豆	-11.4427
南京	-11.4428
龍泉	-11.4428
三輔	-11.4429
有餘力	-11.4429
龍門	-11.443
供祭祀	-11.443
羊眼	-11.4432
祭神	-11.4435
菜又名	-11.4438
興水利	-11.4438
空虚	-11.444
鬆土	-11.4443
西北風	-11.4444
名之曰	-11.4446
腐草	-11.4456
邇	-11.4462
鄭康成	-11.4463
尤善	-11.448
三之一	-11.448
相助	-11.448
化為水	-11.4498
以食為	-11.4499
具區	-11.451
久服	-11.4511
二十畝	-11.4516
豇	-11.4551
禽獸	-11.4555
何武	-11.4567
鎡	-11.4571
作餅餌	-11.4582
形狀	-11.4585
分為三	-11.4611
葉煠熟水浸去苦味油鹽調食	-11.4611
换	-11.4638
救飢採葉煠熟水浸	-11.4666
烏節糯	-11.4669
三千石	-11.4671
鬯人	-11.4683
豐歉	-11.4705
灰汁	-11.472
高二尺	-11.4754
陂塘圩	-11.4766
救飢採嫩苗葉煠熟水浸淘浄油鹽調食	-11.4816
塞外	-11.4818
詳見	-11.4834
千餘頃	-11.4841
蒿生荒野中苗	-11.4845
可釀酒	-11.4867
露積	-11.4886
味酢	-11.4912
高一尺	-11.4934
㣲寒無毒	-11.4935
開小白花結	-11.4944
豐登	-11.4968
救飢採嫩苗葉煠熟水浸淘淨油鹽調食	-11.4993
種大小麥	-11.5066
葉中心	-11.5094
苗高二三尺	-11.5144
羊鬚	-11.5169
似栁葉	-11.5282
鬱浥	-11.5297
十有六	-11.5306
物性	-11.5343
换水	-11.5356
一種名	-11.5364
微苦救飢採	-11.5501
論語	-11.5502
彦	-11.5557
取其刺可却姦取其	-11.5637
硃	-11.5637
屢豐	-11.5654
相去一尺	-11.5656
采之熟食	-11.5676
焰	-11.5677
凋	-11.5683
陳藏器	-11.5692
萬不失一	-11.5696
武英殿	-11.5704
啻	-11.5705
詩疏云	-11.5707
儗	-11.5709
穬	-11.5709
麞	-11.571
篥	-11.5712
髙數寸	-11.5713
烏芒	-11.5714
臾	-11.5714
莙薘	-11.5714
郷縣物産	-11.5715
鷃	-11.5715
沴	-11.5715
柎	-11.5715
䟎	-11.5716
乏絶	-11.5716
蓧蕢	-11.5716
種蒔直説	-11.5717
糯黄糯	-11.5717
磟碡	-11.5718
青黄不接之時	-11.5719
㗖	-11.5719
㢤	-11.5719
何首烏	-11.5719
老婆布䩞	-11.572
鄴	-11.572
疸	-11.5721
竦	-11.5721
候棗葉始生	-11.5721
附地割	-11.5721
祛	-11.5722
啌	-11.5722
菲	-11.5722
餽	-11.5722
顚	-11.5722
舘	-11.5722
尼	-11.5722
毇米	-11.5722
隈	-11.5723
痂	-11.5723
繩欄	-11.5723
畱	-11.5723
膓	-11.5723
捃	-11.5723
欽定四庫全書農桑輯要卷	-11.5723
元司農司撰	-11.5724
䖏䖏有之	-11.5724
咏	-11.5724
拖蔓而生	-11.5724
曼	-11.5725
吳淞	-11.5725
耕必有一年之食九年耕必有三年之食	-11.5725
葉而狹小	-11.5725
不得妄有	-11.5725
其人與千户侯等	-11.5725
日未出時	-11.5726
西陵氏	-11.5726
思患預防	-11.5726
科條髙	-11.5726
温有小毒	-11.5726
耕荒畢以鐡齒	-11.5726
蛛	-11.5726
搨	-11.5726
嘉祐	-11.5726
閃西風	-11.5727
夔	-11.5727
穇	-11.5727
島嶼	-11.5727
斟	-11.5727
欲死方	-11.5727
禁原蠶	-11.5727
絆	-11.5727
稀稠得所	-11.5727
生密縣山野中	-11.5727
縻	-11.5727
鑑	-11.5728
百榖譜	-11.5728
明徐光啟撰荒政	-11.5728
杷朳	-11.5728
舶	-11.5728
就地拖秧而生	-11.5728
抄竿	-11.5728
笮	-11.5728
楊泉物理論	-11.5728
丘濬曰	-11.5728
崔實曰	-11.5728
盛榖器	-11.5728
黄省曽曰	-11.5728
赦	-11.5729
壍	-11.5729
廽	-11.5729
撅	-11.5729
髙誘曰	-11.5729
四月末五月初	-11.5729
凸	-11.5729
玊衡	-11.5729
有細毛	-11.5729
洵	-11.573
抝	-11.573
氾勝之	-11.573
鍊	-11.573
具各圖説	-11.573
澈	-11.573
不省視	-11.573
光潤者	-11.573
楸梓	-11.573
荆襄	-11.5731
講究	-11.5731
疋絹	-11.5731
天工開物	-11.5731
生輝縣	-11.5731
往往有之	-11.5731
後年正月	-11.5731
紳	-11.5731
貨殖傳	-11.5731
罩	-11.5731
三月上旬為中時四月上旬為下時	-11.5731
以避水溢之患	-11.5731
摜	-11.5731
玉燭	-11.5732
薑椒橘皮	-11.5732
蘆花白	-11.5732
交州記曰	-11.5732
凄	-11.5732
據此則	-11.5732
九月九日	-11.5732
宼	-11.5732
擐	-11.5732
栞	-11.5732
潄	-11.5732
一女不織	-11.5732
它	-11.5732
帆	-11.5732
砥柱	-11.5732
繪圖	-11.5732
犀	-11.5732
卭	-11.5733
州禾異畝同穎	-11.5733
檉	-11.5733
結子如豌豆大	-11.5733
帶土移栽	-11.5733
葉對生	-11.5733
褥	-11.5733
軒轅	-11.5733
岷	-11.5733
杈	-11.5733
空曳勞	-11.5733
陪	-11.5733
閤	-11.5734
食法採苗葉煠熟油鹽調食	-11.5734
三朝齊	-11.5734
轆	-11.5734
卹	-11.5734
泣	-11.5734
鉗	-11.5734
𦂳慢	-11.5734
為之使惡	-11.5735
議叙	-11.5735
鶩	-11.5735
薙氏掌殺草	-11.5735
通俗文曰	-11.5735
掊	-11.5735
莘	-11.5735
冡	-11.5735
該督撫等	-11.5735
毅	-11.5736
兒童	-11.5736
甘霖	-11.5736
𣙜	-11.5736
雜五行書曰	-11.5736
辛壬	-11.5736
㙲	-11.5737
於泥中	-11.5737
箅	-11.5737
燉煌	-11.5737
潼	-11.5737
后妃	-11.5737
螢	-11.5737
范文正公	-11.5737
橐	-11.5738
礬	-11.5738
繹	-11.5738
三五次	-11.5738
有毛澁	-11.5738
蓰	-11.5738
苛	-11.5738
睡	-11.5738
倖	-11.5739
許縣考童生	-11.5739
覓	-11.5739
康熈二十	-11.5739
畿甸	-11.5739
篆	-11.5739
緝績	-11.5739
保介	-11.5739
懶刀	-11.5739
棕	-11.5739
尻	-11.5739
蒯	-11.5739
亥角	-11.5739
叟	-11.5739
直𨽻山東河南	-11.5739
野航	-11.5739
野菜博録	-11.5739
枵	-11.574
饅	-11.574
踊	-11.574
聖祖	-11.574
謨	-11.574
瀛	-11.574
黯	-11.574
龎	-11.574
土潤溽暑	-11.574
兩葉對生	-11.574
撲滅	-11.5741
皇甫	-11.5741
茨菰	-11.5741
捻	-11.5741
芟倒	-11.5741
贓	-11.5741
萋	-11.5742
春月移栽	-11.5742
日未出前	-11.5742
用一牛	-11.5742
婺	-11.5742
縞	-11.5742
圯	-11.5742
無毒食法採嫩葉煠熟油鹽調食	-11.5742
攬	-11.5743
案此條	-11.5743
詎	-11.5743
瓴	-11.5743
門閭	-11.5743
大學衍義補	-11.5743
顙	-11.5743
百六十七	-11.5743
耬犁	-11.5743
種類甚多	-11.5744
薥	-11.5744
紺	-11.5744
睹	-11.5744
維艱	-11.5744
蹶	-11.5744
粹	-11.5744
霤	-11.5744
誼	-11.5745
舒緩	-11.5745
杆	-11.5745
四時之氣	-11.5745
莙薘菜	-11.5745
街	-11.5745
陶𢎞	-11.5746
鏤	-11.5746
築垣	-11.5746
臨海異物志曰	-11.5746
兎兒	-11.5746
圖經云	-11.5746
迭	-11.5747
撿	-11.5747
勿令蔓延	-11.5747
愛䕶	-11.5747
癩	-11.5747
曜	-11.5747
熇	-11.5747
用水澆灌	-11.5748
長數寸	-11.5748
弹	-11.5748
疐	-11.5748
鵞鴨	-11.5748
銎	-11.5748
寖	-11.5748
煎熬	-11.5748
西南風主	-11.5748
辮	-11.5748
勉强	-11.5748
東西南北	-11.5748
山谷中樹	-11.5749
為細末	-11.5749
申飭	-11.5749
繒	-11.5749
誕	-11.5749
棊	-11.5749
孶	-11.5749
達於海	-11.5749
蘥	-11.575
轍	-11.575
昊天	-11.5751
橙柚	-11.5751
嬴	-11.5751
􁍢	-11.5751
耞	-11.5751
廓	-11.5751
刁	-11.5752
州麥秀兩岐	-11.5752
氷凍	-11.5752
晳	-11.5752
弁	-11.5752
栖	-11.5753
佐貳	-11.5753
騂剛	-11.5753
稠宻	-11.5753
勺	-11.5753
諭㫖	-11.5754
彌善	-11.5754
貨賣	-11.5754
顱	-11.5754
夏秋之間	-11.5755
邠	-11.5755
烟熏	-11.5755
帝耤	-11.5755
榛栗	-11.5756
掾	-11.5756
諭總理事務王大臣	-11.5756
救飢採葉煠熟換水浸去苦味	-11.5756
辯	-11.5756
規畫	-11.5756
扒	-11.5756
清澄	-11.5757
倪	-11.5757
措置	-11.5757
黧	-11.5757
淮揚	-11.5757
春秋說題辭	-11.5757
囿	-11.5759
秋風糯	-11.5759
夢	-11.5759
不宜多食	-11.5759
價值	-11.576
漕運	-11.576
辦理	-11.576
榠樝	-11.576
江以南	-11.576
煑令熟	-11.576
溽	-11.576
稀疎	-11.5761
方言云	-11.5761
豆羊眼豆	-11.5761
拍	-11.5761
竣	-11.5761
漚麻	-11.5761
牛膝	-11.5761
地無遺利	-11.5762
膳夫	-11.5762
剩	-11.5762
埤雅云	-11.5763
憲臣	-11.5764
鬼神	-11.5764
箘	-11.5764
蠧蟲	-11.5764
敬謹	-11.5765
最妙	-11.5765
悴	-11.5767
念切民依	-11.5767
殄	-11.5767
給牛種	-11.5767
之令没	-11.5767
平疇	-11.5767
煮粥	-11.5767
觀察	-11.5768
行耕耤禮	-11.5768
叩	-11.5769
萬五千石	-11.5769
為異耳	-11.5769
斁	-11.5769
亞獻	-11.5769
炳	-11.5769
藄	-11.5769
纎纎	-11.5769
議准	-11.577
綜	-11.577
浥濕	-11.577
武帝紀	-11.5771
霾	-11.5771
方來主	-11.5772
㡬何	-11.5773
碑	-11.5773
親詣	-11.5773
士大夫	-11.5773
布縷	-11.5773
窖繭	-11.5774
貴戚	-11.5774
斜蒿	-11.5774
盧橘	-11.5775
織箔	-11.5775
置常平倉	-11.5775
郊祀	-11.5775
印信	-11.5775
永昌	-11.5776
燔	-11.5776
前件	-11.5778
禮部堂官	-11.5778
逃亡	-11.5778
兠牟	-11.5781
虹見	-11.5781
豘	-11.5781
短又似	-11.5781
合耦	-11.5781
鴽	-11.5783
潮沙	-11.5783
二十八年	-11.5783
稌稻	-11.5785
療病	-11.5785
羊蹄	-11.5785
草鞋	-11.5785
接續	-11.5786
蔡傳	-11.5786
絲蓴	-11.5786
羅裙帶	-11.5787
輸納	-11.5787
隋書	-11.5787
缸内	-11.5787
撫按官	-11.5787
豹	-11.5788
租賦	-11.5789
六月種者	-11.5789
公帑	-11.579
歲稔	-11.5792
品以上	-11.5792
被災	-11.5794
結角似	-11.5794
查勘	-11.5794
不可缺	-11.5794
惰農	-11.5794
養育	-11.5795
粟米飯	-11.58
財賦	-11.5801
京城	-11.5801
溉民田	-11.5805
二十九年	-11.5806
水浸去苦味換水淘	-11.5807
菽之屬	-11.5807
醖	-11.5811
車駕	-11.5814
赴縣	-11.5819
淮北	-11.5821
簇簇	-11.5823
淶	-11.5825
馬鬃	-11.5829
開之則	-11.583
農譜	-11.5837
硃砂糯	-11.584
顆粒	-11.5881
像	-11.5909
供常食	-11.5923
米一斗	-11.5943
盡地力	-11.5954
紵麻	-11.5991
食法採嫩葉煠熟水浸淘浄油鹽調食	-11.6048
救飢採嫩芽	-11.6062
味香美	-11.6063
州府古荆州翼軫分野	-11.6187
救飢採葉煠熟水浸淘去苦味油鹽調食	-11.6234
食法採嫩苗葉煠熟水浸淘浄油鹽調食	-11.6238
閩浙	-11.6241
樹高丈餘	-11.6255
布囊	-11.6256
不過一二	-11.6292
一百二十	-11.6324
翼軫分野	-11.6342
浸去苦味淘	-11.6386
憫農	-11.6463
處處有之苗高	-11.6718
丈餘葉似	-11.6912
糯麻糯	-11.6967
餅餌	-11.7028
豆白小豆	-11.7045
十九年	-11.7093
邇年	-11.7216
花結角	-11.7317
糯馬鬃糯	-11.7322
府古百粤地	-11.7335
秘	-11.7349
湖田租課	-11.7352
暫經沸湯	-11.7354
李時珍	-11.7356
篇第十	-11.7359
葉似槐葉而	-11.7365
扶留藤	-11.7366
雜隂陽書	-11.7368
薜	-11.7368
便民圖纂	-11.7369
尺開濶尺堆土離河丈尺月日起至日止	-11.737
是拐木一轉而得	-11.7371
是一轉而得	-11.7371
樞輪之齒八而	-11.7371
馬牛驘車	-11.7372
而轉之接輪與乙輪相發也若	-11.7373
任置一輪焉如置在軸之	-11.7373
少他輪	-11.7374
州獻嘉禾	-11.7374
瀝青和蠟	-11.7375
花結小角	-11.7375
至元七年	-11.7375
濰	-11.7376
輪欲密附	-11.7376
車之輪	-11.7376
純砂也	-11.7377
掘土取	-11.7378
䓁	-11.7379
用一人一牛	-11.7379
佈	-11.7379
盌	-11.738
摟	-11.738
味甜救飢採根煮	-11.738
頥	-11.738
礦	-11.738
擘畫	-11.7381
蹴	-11.7381
傾阪及	-11.7381
分地之利	-11.7381
蘊	-11.7382
黲白色	-11.7382
衡衡也軸縱也鑿枘而合之欲其固也軸	-11.7382
搘	-11.7383
以燥土壅	-11.7383
用畜力輓行	-11.7383
感召天和	-11.7383
繘	-11.7383
䔖	-11.7384
不足無六年之	-11.7384
樞方其	-11.7384
為衡衡之長無	-11.7384
周圍自成環池	-11.7384
丘城上皆可為區田	-11.7384
旋毛在	-11.7385
㮕棗	-11.7385
打水線	-11.7385
國無九年之	-11.7385
砧之孔	-11.7385
長可五尺	-11.7385
將畦内種	-11.7385
潜	-11.7385
連根掘出	-11.7385
稑	-11.7386
食為民天	-11.7386
元王禎撰農桑通訣	-11.7386
留旺者一條	-11.7386
寸以上不嫌長	-11.7386
椑柿	-11.7387
不完責在	-11.7387
以兩手按之	-11.7387
漢食貨志	-11.7387
也議挑	-11.7387
佀	-11.7387
萼	-11.7387
地氣始通	-11.7387
螺旋之溝	-11.7387
是不憂	-11.7388
衡之兩端	-11.7388
家政法	-11.7388
緜絮	-11.7388
龠	-11.7388
水之淺深	-11.7388
樹之齒焉	-11.7388
試又法	-11.7388
偫	-11.7388
州古雍州井鬼分野	-11.7388
樁笆	-11.7388
夏葢湖	-11.7388
大道筋	-11.7388
墝	-11.7389
蘆荻	-11.7389
之舌為之掩	-11.7389
救飢掘根	-11.7389
至秋可長	-11.7389
撩淺	-11.7389
短界線	-11.7389
樞者所以為利轉也	-11.7389
畊	-11.7389
中者還種	-11.7389
州古揚州斗分野	-11.7389
欲其密而無漏也	-11.7389
楗	-11.7389
高數寸	-11.739
丁香藿香	-11.739
天子諸侯必有公桑蠶室	-11.739
天目諸山	-11.739
杏葉沙參	-11.739
所接條	-11.739
鬛	-11.739
桯	-11.739
勞欲再	-11.739
尸不利人	-11.739
旱則澆之	-11.739
苃	-11.7391
其密切而無滯也展轉之上下之猶是也	-11.7391
用牛糞和泥	-11.7391
當砧之心而	-11.7391
倂	-11.7391
提柱者水所由恒升也	-11.7391
百五十株	-11.7391
肄	-11.7391
芘	-11.7391
本草圖經曰	-11.7391
無不活者	-11.7391
古人有言	-11.7391
黄馬白喙不利人	-11.7391
水利東南水利	-11.7391
磬	-11.7391
􁉢	-11.7391
顧微廣州記曰	-11.7391
撥車頭竪輪	-11.7392
杜子春	-11.7392
桑根白皮	-11.7392
筩者水所由入也所以束水而上也	-11.7392
能無漏者	-11.7392
零陵香	-11.7392
數條俱生留一根	-11.7392
棹	-11.7392
汙衣用	-11.7392
授時通考	-11.7392
錮	-11.7392
至明年正月	-11.7392
内擁土	-11.7392
大勾股	-11.7392
嫗	-11.7392
潼川	-11.7392
花色仍連著實	-11.7392
秋耕待白背勞	-11.7392
羖	-11.7392
䤅	-11.7392
圍者外體也所以為固抱也	-11.7392
堈身	-11.7392
以滚水湯三五次	-11.7392
算即得	-11.7392
驅馳	-11.7392
粽	-11.7393
菴	-11.7393
儔	-11.7393
琅	-11.7393
食貨志云	-11.7393
骨欲得大	-11.7393
吃	-11.7393
櫄	-11.7393
為專筩	-11.7393
箭子稻	-11.7393
葈	-11.7393
黍心未生雨灌其心心傷無實	-11.7393
如丁丙	-11.7393
砧升則	-11.7393
香如此者不	-11.7393
㨊	-11.7393
利轉也	-11.7394
依法栽培	-11.7394
綆缶	-11.7394
虌	-11.7394
霏霏	-11.7394
五沃之土	-11.7394
八繩附臬	-11.7394
其美與蠶矢熟糞同	-11.7394
岡隴	-11.7394
旄	-11.7394
泖	-11.7394
角亢氐房	-11.7394
溝洫畎澮	-11.7394
又各隨地勢	-11.7394
之蓄積常	-11.7394
卯午是也	-11.7394
柫	-11.7394
根頭一寸半	-11.7394
桑皮繫了	-11.7394
蓄殖果木不如三土以十分之	-11.7394
莍	-11.7394
行水利以殺草如以熱湯	-11.7394
大有裨益	-11.7395
以上者以達於大	-11.7395
伐竹木	-11.7395
苔	-11.7395
南北簇法俱未得中	-11.7395
味苦甘性	-11.7395
焉而開闔之	-11.7395
軸者轉之主也水所由以下而為上也	-11.7395
賄	-11.7395
亢氐	-11.7395
容軸之	-11.7395
荈	-11.7395
軸之長	-11.7395
漸漸加	-11.7395
騷擾	-11.7395
繕	-11.7395
䎪	-11.7395
廨	-11.7395
宼宗奭曰	-11.7395
或木焉	-11.7395
緫	-11.7395
聒	-11.7395
逵	-11.7395
鄭玄注曰	-11.7395
和泥渥漉深埋禾苗根下漚罨既	-11.7395
色深緑	-11.7395
苗其弱也欲孤	-11.7395
可生啖	-11.7396
龔	-11.7396
作連脊	-11.7396
其圜中規而上下等	-11.7396
行春令則	-11.7396
栝樓	-11.7396
為之舌而	-11.7396
輪既轉則	-11.7396
雙筩者水所由代入也	-11.7396
鄞	-11.7396
駑	-11.7396
以板石	-11.7396
大小長短	-11.7396
數口之家	-11.7396
枌	-11.7396
前十日為上時	-11.7396
延祐	-11.7396
懐孟	-11.7396
皆在其徑	-11.7396
代入也	-11.7396
罈	-11.7396
收刈欲晚	-11.7397
臓	-11.7397
蒳	-11.7397
鈴	-11.7397
阪	-11.7397
碁	-11.7397
南陽府馬鞍山	-11.7397
揔	-11.7397
栘	-11.7397
狹窄	-11.7397
茁	-11.7397
葉抪莖而生	-11.7397
饑餓	-11.7397
亳	-11.7397
冦	-11.7397
元日五更	-11.7397
毎三葉攅生一處	-11.7397
葉而小又似	-11.7397
晡	-11.7397
南州異物志曰	-11.7397
深痛過鋤力三倍所辦之田日不啻二十	-11.7398
灤州	-11.7398
蔠葵	-11.7398
酣	-11.7398
侔	-11.7398
可以衣帛	-11.7398
腹廣而上下弇	-11.7398
軸之周	-11.7398
雨澤愆期	-11.7398
己午時	-11.7398
􁏱	-11.7398
日月星辰	-11.7398
苟	-11.7398
十二月凍樹	-11.7398
壺者水之總也水所由續而不絶也	-11.7398
為末每服	-11.7398
盤者中筩之水所由出也	-11.7398
石灰瓦灰塗之	-11.7398
舌之開闔	-11.7398
覆土約厚三四指	-11.7398
易段也深	-11.7398
根及實皆可食	-11.7398
味微苦救飢採嫩苗葉煠熟水浸	-11.7398
白莖秋葵	-11.7399
分其衡	-11.7399
劒脊	-11.7399
開碎瓣	-11.7399
蓿	-11.7399
豐澤園	-11.7399
璇	-11.7399
中筩者壺水所由上也	-11.7399
圈	-11.7399
治畦下水一同葵法	-11.7399
豌	-11.7399
泥沙淤	-11.7399
逗	-11.7399
入而不出	-11.7399
取其榦可作骨取其	-11.7399
水浸去邪味油鹽調食	-11.7399
罐	-11.7399
者宜負	-11.7399
龍首渠河内有史起十二渠	-11.7399
人對持其	-11.74
勑	-11.74
牛女分野	-11.74
蓑笠	-11.74
鍔	-11.74
不得三七日	-11.74
二曰雙提	-11.74
則失之太	-11.74
弧	-11.74
檽	-11.74
欽定四庫全書泰西水法卷	-11.74
明熊三拔撰	-11.74
㤗	-11.74
兠水循槽	-11.74
娜	-11.74
蓍	-11.74
甖	-11.74
安得而不	-11.74
愆期	-11.74
嫁棗	-11.7401
鎻	-11.7401
襫	-11.7401
作平行	-11.7401
鞘	-11.7401
救飢採嫩葉煠熟水浸淘淨油鹽調食	-11.7401
檖	-11.7401
睂	-11.7401
僵	-11.7401
刊	-11.7401
冦宗奭曰	-11.7401
楛	-11.7401
燒亦如法	-11.7401
裔	-11.7401
羹	-11.7401
而施之墨	-11.7401
礧	-11.7401
如黍粒	-11.7401
霏	-11.7401
囷京	-11.7402
拖犂歸	-11.7402
之異名也	-11.7402
都察院	-11.7402
不能折其出勢	-11.7402
腿	-11.7402
狐狸	-11.7402
不耕者出屋粟	-11.7402
話	-11.7402
李巡曰	-11.7403
䥛	-11.7403
煌	-11.7403
塹	-11.7403
㙡	-11.7403
醍	-11.7403
食法採苗葉煠熟水淘浄油鹽調食	-11.7403
瓝	-11.7403
絲老翁	-11.7403
凛	-11.7403
亢房線	-11.7403
青白花結小	-11.7403
公家之	-11.7403
頸欲得	-11.7403
刮去皮	-11.7404
動為上時	-11.7404
千足羊	-11.7404
有司兼管	-11.7404
篘	-11.7404
呼吸	-11.7404
胡葈	-11.7404
鎭	-11.7404
議者曰吴淞江	-11.7404
涕	-11.7404
陶隱居	-11.7404
騸	-11.7404
􁪾	-11.7404
以居輪	-11.7405
颺籃	-11.7405
其蜜必	-11.7405
春酒麴	-11.7405
困窮	-11.7405
縠	-11.7405
鰕	-11.7405
琥	-11.7405
農桑衣食撮要	-11.7405
金史食貨志	-11.7405
燄	-11.7405
糴糶	-11.7405
換水煮	-11.7405
鱟	-11.7405
則傷根	-11.7405
土㑹之法	-11.7406
櫛	-11.7406
貓	-11.7406
滷	-11.7406
姑娘	-11.7406
坌	-11.7406
大糯小糯	-11.7406
利小便	-11.7406
薍	-11.7406
此三事	-11.7406
縉	-11.7406
茵	-11.7406
潟	-11.7406
食法採花煠熟	-11.7406
瓷	-11.7407
取給於	-11.7407
明史食貨志	-11.7407
水為之不	-11.7407
督責	-11.7407
蔫	-11.7407
朂	-11.7407
禱祠	-11.7407
味甘性寒無毒	-11.7407
王氏農書	-11.7407
若外水	-11.7407
孟冬之月	-11.7407
即謂此也	-11.7407
皓	-11.7407
钁斸	-11.7407
要術云採桑必須	-11.7407
葉煠熟水淘去苦味油鹽調食	-11.7408
金城稻	-11.7408
民賴其利	-11.7408
䆧	-11.7408
秸	-11.7408
柜	-11.7408
出陳易新	-11.7408
訾	-11.7408
芍陂	-11.7408
矮兒糯	-11.7409
丢	-11.7409
至後十日	-11.7409
諤	-11.7409
遐	-11.7409
乾隆四十六年	-11.7409
唐韻作	-11.7409
貎	-11.7409
緹	-11.7409
體測	-11.7409
礱糠	-11.7409
百七十六	-11.7409
墓	-11.7409
菇	-11.7409
糶糴	-11.7409
疏此别	-11.7409
根葉皆可	-11.7409
晞	-11.7409
糖蜜	-11.7409
婢	-11.7409
造册	-11.741
擷	-11.741
棠杜	-11.741
詩義䟽云	-11.741
該地方官	-11.741
歙	-11.741
䳱	-11.741
八九寸	-11.741
枿	-11.741
規模	-11.741
鏡湖	-11.7411
一莖雙穂	-11.7411
熹	-11.7411
緬	-11.7411
瘡疥	-11.7411
霹	-11.7411
喘𠻳	-11.7411
暫停	-11.7411
厚腸胃	-11.7412
刈束欲小	-11.7412
種黍菽	-11.7412
燻	-11.7412
澍	-11.7412
遙	-11.7412
之辰又	-11.7412
謡	-11.7412
欹	-11.7412
恕	-11.7412
捩	-11.7412
滸	-11.7412
陳澔曰	-11.7412
壏	-11.7412
覇	-11.7413
棍	-11.7413
蹇	-11.7413
昇	-11.7413
灘	-11.7413
踐踏	-11.7413
娛	-11.7414
㔯	-11.7414
髙下燥濕	-11.7414
蹟	-11.7414
二分之一	-11.7414
兄	-11.7414
形圓色青	-11.7415
枵腹	-11.7415
萊蕪縣物産	-11.7415
言采其	-11.7415
蘟	-11.7415
裴淵廣州記曰	-11.7415
代手足	-11.7416
學圃餘疏	-11.7416
充裕	-11.7416
墳壚	-11.7416
侵晨	-11.7416
猫兒	-11.7416
淛	-11.7417
銀褐	-11.7417
淤䕃	-11.7417
鄒平縣物産	-11.7417
篛	-11.7417
僞	-11.7417
禮記曲禮	-11.7417
薅鼓	-11.7417
柸	-11.7417
痔	-11.7417
銚	-11.7417
大如拳	-11.7417
掃帚	-11.7417
冊籍	-11.7418
旭	-11.7418
墐	-11.7418
盝	-11.7418
菀	-11.7418
戕	-11.7418
阻撓	-11.7418
榜簇	-11.7418
篷	-11.7418
欲得見其	-11.7418
誌	-11.7418
望水白	-11.7419
恬	-11.7419
漉米器	-11.7419
咮	-11.7419
隳	-11.7419
各省督撫	-11.7419
苒	-11.7419
飡	-11.742
漊	-11.742
蹏	-11.742
佇	-11.7421
堵	-11.7421
歴城縣方産	-11.7421
禮記王制	-11.7421
莒	-11.7421
有九年之	-11.7421
錦繡	-11.7422
必謹察之而加功焉	-11.7422
駭	-11.7422
帙	-11.7422
也紐者	-11.7422
神仙傳曰	-11.7422
刺史縣令	-11.7423
平江府	-11.7423
為永業	-11.7423
哥	-11.7423
舒展	-11.7424
驄	-11.7424
劬	-11.7424
倐	-11.7425
重農務本	-11.7425
哭	-11.7425
版圖	-11.7426
餓殍	-11.7426
豐亨	-11.7426
踞	-11.7426
糒	-11.7426
有事於	-11.7426
招撫	-11.7426
東臯	-11.7426
種之萬不失一	-11.7427
地之所宜	-11.7427
絹袋盛	-11.7427
閉糴	-11.7427
衮	-11.7427
櫳	-11.7427
墉	-11.7427
肉欲大而	-11.7427
摯	-11.7427
睢	-11.7428
褫	-11.7428
􁊽	-11.7428
戢	-11.7429
該區公正	-11.743
也客曰	-11.7431
檄	-11.7432
捉績	-11.7432
嶽	-11.7432
為九等	-11.7433
嘉祥	-11.7433
魅	-11.7433
饒裕	-11.7433
王以下各官	-11.7433
糯冷水糯	-11.7433
峰	-11.7433
鰻	-11.7433
戰國	-11.7433
苦菜秀	-11.7434
稽察	-11.7434
勸勉	-11.7434
鸛	-11.7434
寰宇	-11.7434
春秋繁露	-11.7434
囚	-11.7435
勇	-11.7437
繄	-11.7437
靴	-11.7438
䖍禱	-11.7439
癃	-11.7439
黄豆黑豆	-11.7439
盻	-11.7439
秬秠	-11.744
𢷬碎	-11.744
儆	-11.7441
勾芒	-11.7442
菥	-11.7442
慵	-11.7443
釁	-11.7443
髻	-11.7444
戧	-11.7445
㳺惰	-11.7448
等法第七十	-11.7449
如棗核	-11.745
丳	-11.745
如雞卵	-11.7451
烽	-11.7451
武弁	-11.7451
莫先於	-11.7453
糟糠	-11.7453
戀	-11.7456
䑔	-11.7456
瀰	-11.7456
十許日	-11.7457
救飢正二月	-11.7457
􁝐	-11.746
嘔	-11.7462
黏黄黏	-11.7465
䐑	-11.7467
味甘微酸	-11.747
之白羊	-11.7486
稻人掌稼下地	-11.7502
助其力	-11.7515
山野中樹高	-11.7518
鋸截	-11.7553
救飢採苗葉煠熟水浸淘	-11.7563
冬不凋	-11.7569
之得時者	-11.7585
曰衡軸衡軸者所以挈	-11.7613
水以澆	-11.7631
田一頃	-11.768
等分為末	-11.772
煠熟換水浸淘	-11.7778
之效也	-11.7818
寒無毒救飢採	-11.8011
重陽糯	-11.8079
人車之接輪齒十	-11.8156
藝之宜	-11.8236
幹可作骨取	-11.831
豆白豆	-11.8705
救飢採嫩葉煠熟換水	-11.8729
寸埋	-11.8738
換水浸去	-11.8834
橙柑	-11.9033
要㫖云	-11.9084
田野中苗	-11.9142
康成謂	-11.9185
分九釐	-11.9269
崑	-11.9335
吸	-11.9342
駉	-11.935
杌	-11.9359
條葉豐腴	-11.9359
州古冀州參井分野	-11.9364
晶	-11.9366
氣味甘微寒無毒	-11.9367
徐光啟	-11.9368
府古青州危分野	-11.9368
坰	-11.937
其植物宜	-11.937
蕺	-11.9371
成樹之後	-11.9371
日講官起居注	-11.9372
辨色加	-11.9372
鳬茈	-11.9372
竑	-11.9374
提㸃刑獄	-11.9374
葉味甜食法採葉煠熟	-11.9375
大如臂許正月中移之	-11.9375
皇后躬桑	-11.9375
牡礪	-11.9376
五木者五榖之先欲知五榖但視五木	-11.9377
凡耕桑田不用近樹	-11.9377
每子一升可種二十畦	-11.9377
或以生漆和	-11.9378
二糠各自堪	-11.9378
未經年者	-11.9378
弋	-11.9378
引少根也	-11.9378
糞不令和雜	-11.9379
經筵講官	-11.9379
弱米味有美惡粒實有息耗	-11.9379
黄省曾曰	-11.938
山海經	-11.938
蜿	-11.938
實有多少質性有	-11.938
桑十二月為上時正月次之二月為下	-11.938
洪十字大頭向	-11.9381
明年正月中	-11.9381
橢	-11.9381
澼	-11.9381
蘡	-11.9381
𩥇	-11.9381
月好雨澤時種	-11.9381
蚶	-11.9381
寐	-11.9381
仗	-11.9381
大小麥皆須五月六月暵地	-11.9381
皇后親蠶	-11.9381
農家者流	-11.9382
藐	-11.9382
也十月號陽月又曰小春木	-11.9382
礰礋	-11.9382
地勢有良薄	-11.9383
區田不耕旁地庶盡地力	-11.9383
牛录額真	-11.9383
遇天旱	-11.9383
驢騾	-11.9383
蠶桑廣類	-11.9383
奶	-11.9383
孔頴達曰	-11.9383
𠻳	-11.9383
外以葛纒絡	-11.9384
姿	-11.9384
螣	-11.9384
燥載聚打	-11.9384
菢	-11.9384
韲	-11.9384
既放勃	-11.9384
有精神而又堅韌	-11.9384
池中令水無聲魚必生至四月	-11.9384
若未放勃去雄	-11.9384
麺	-11.9384
閙	-11.9384
棧上其棚下勿使驢馬糞及人溺又忌	-11.9384
濕載子	-11.9384
無水旱之憂	-11.9384
皆令草失色其利勝藍若欲	-11.9384
無流水曝井水殺其寒氣以澆之	-11.9384
竹性愛向西	-11.9384
等語朕思	-11.9385
韓詩外	-11.9385
九月中子熟刈之候	-11.9385
似桔梗葉	-11.9385
則傷紫草	-11.9385
周書曰神農	-11.9385
審其時月又合地方之宜使之不失其中	-11.9385
晷	-11.9385
熟速刈乾速積	-11.9385
百榖用成	-11.9385
禾生九穂	-11.9385
非良地則不須種	-11.9385
芋可以救饑饉	-11.9385
下戊前為中時	-11.9385
十五日後乃出	-11.9385
吻	-11.9385
涌	-11.9385
葉落盡然後刈	-11.9385
七月耕之則死	-11.9385
𥻘	-11.9385
二氣交通	-11.9386
躡令堅	-11.9386
白穀紅穀	-11.9386
蒟	-11.9386
宰以九職任萬民一曰三農生九	-11.9386
止取實者種	-11.9386
秦晉之間	-11.9386
茰	-11.9386
近山阜尤是所	-11.9386
史記天官書	-11.9386
弘	-11.9386
至春既生	-11.9386
蒐	-11.9386
下訖勞之鋤如	-11.9386
工部右侍郎	-11.9386
區田以糞氣為美非必	-11.9386
崔寔曰三月清明	-11.9386
引根并莖芟去葉於園内東北角種之令	-11.9387
迓	-11.9387
天禧四年	-11.9387
昵	-11.9387
長八九尺	-11.9387
八月末九月初為下時	-11.9387
味苦辛性	-11.9387
員外郎	-11.9387
底用鋤	-11.9387
與馬同氣	-11.9387
芎	-11.9387
安武軍	-11.9387
白雜毛	-11.9387
也未申	-11.9387
千百若一	-11.9387
㹀	-11.9387
子即勞令平	-11.9387
於旦暮潤時以耬耩作壟以手	-11.9387
續添一扇在上	-11.9388
醅	-11.9388
農事堪憂	-11.9388
移栽實地	-11.9388
凑	-11.9388
日以外子鴨六七十日佳過此肉硬大率	-11.9388
欲開莩為下時先作麻紉	-11.9388
不暵地而種	-11.9388
利以殺草可以糞田疇可以美土疆	-11.9388
可長五七尺	-11.9388
撩	-11.9388
埋糞地	-11.9388
鸞	-11.9388
髦	-11.9388
人摘以一家手力十不充一但駕車地頭	-11.9388
土一和解夏至天氣始暑隂氣始盛土復	-11.9388
梨既生杜旁有葉	-11.9388
食以清水與之濁則	-11.9388
良田一畆用子	-11.9388
籬障以	-11.9389
廣尺深尺	-11.9389
豬鬃	-11.9389
賃	-11.9389
作籠籠之先以粳米為粥	-11.9389
如本篇二圖之甲乙	-11.9389
田然大率欲早早田倍多於	-11.9389
一而當五名曰膏澤皆得時功	-11.9389
十一月二月生者次之	-11.9389
埏	-11.9389
擡頭眠	-11.9389
於園内養	-11.9389
親民之官	-11.9389
雌鴨無令雜雄足其粟豆常令肥飽一鴨	-11.9389
稬	-11.9389
裘	-11.9389
俞貞木種樹書曰	-11.9389
春凍解	-11.939
薢	-11.939
雞舌香	-11.939
土欒樹	-11.939
木苫草	-11.939
梨枝甚	-11.939
瓴甋磚也	-11.939
與養春蠶同	-11.939
蒹葭	-11.939
蓄亦以御冬	-11.939
還叢之三日一打四五遍乃盡耳	-11.939
不要蒸得過了過	-11.939
五月子熟拔	-11.939
廉隅	-11.939
無度數但要第一日	-11.939
牛轉翻車	-11.939
覆者得供生	-11.939
韋昭曰	-11.939
夏若仰壟	-11.939
至元六年	-11.939
之三沸漉去滓以汁漬附子五枚	-11.939
候口開乘車詣田	-11.939
十五年後中為車轂及蒲桃	-11.939
在在有之	-11.939
搧	-11.939
梨園中	-11.939
漏蹄方	-11.939
生百卵	-11.939
苗有行故速長	-11.939
葉間攛葶開	-11.939
過使教田太常三輔	-11.939
洴	-11.9391
地不求熟	-11.9391
良田一畝用子	-11.9391
萬九千六百	-11.9391
馬耳相搭	-11.9391
令洞洞如稠粥先種二十日	-11.9391
六千四百	-11.9391
再碾如此可一日一	-11.9391
及半為下時漬種如法裛令開口耬耩	-11.9391
失錢無益也	-11.9391
濕至可種時以餘汁溲而種之則禾稼不	-11.9391
砧之四	-11.9391
緩驅行勿	-11.9391
縟	-11.9391
輝縣太行山山野中	-11.9391
証	-11.9391
俶	-11.9391
之草生有雨澤耕重	-11.9391
單繳者雙繳	-11.9391
導引太湖之水散入	-11.9391
底草則	-11.9391
穣	-11.9391
間開紅白花	-11.9391
一耦之伐廣尺深尺謂之	-11.9391
二月半種稻為上時三月為中時四月	-11.9391
其柴足	-11.9391
多亦得雨少則生不盡但根細科小不同	-11.9391
撥動如箔上繭滿打起更攤一箔候	-11.9391
蓁	-11.9391
麥門冬	-11.9391
愽	-11.9392
両	-11.9392
候至明年不可勝計	-11.9392
揖	-11.9392
率多人者田日三十	-11.9392
七月中摘深色鮮	-11.9392
十年之後魁椀瓶榼器皿無所不任	-11.9392
厥篚檿絲	-11.9392
和尚菜	-11.9392
噎	-11.9392
孫叔敖	-11.9392
羝無角者更佳	-11.9392
苗引藤蔓	-11.9392
羊一千口者三四月中種大豆一頃雜	-11.9392
詩義疏曰	-11.9392
再熟稻	-11.9392
多枯死也	-11.9392
黍稷重穋	-11.9392
撞	-11.9392
土厚五寸	-11.9392
虎始交	-11.9392
醢	-11.9392
餘如常法	-11.9392
上流高於下流	-11.9392
可移入園	-11.9392
地内苫積天晴乘夜載上	-11.9392
有小雨復耕和之勿令有塊以待時所謂	-11.9392
漚欲清水生熟合	-11.9392
為上小豆胡麻次之悉皆五六月	-11.9392
自關而西	-11.9392
郁李子	-11.9392
舊不著所出州土	-11.9392
用子四升三月上旬種者	-11.9393
蓄曰急無三年之蓄曰國非其國	-11.9393
剸	-11.9393
他植者	-11.9393
數起者不任為種	-11.9393
是故三以為族乃多粟	-11.9393
然後下土堅築	-11.9393
燒頭二年即結子	-11.9393
考工記匠人為溝洫耜廣五寸二耜為耦	-11.9393
賫	-11.9393
順天時量地利則用力少而成功多任	-11.9393
不畜者祭無牲不耕者祭無盛不	-11.9393
從風飛去	-11.9393
復一轉至春種稻萬不失一	-11.9393
皮薄不任用	-11.9393
萸	-11.9393
量其力能寒温飲飼適其天性如不肥充	-11.9393
隨耬種	-11.9393
􁔁	-11.9393
亦未可定	-11.9393
愚民無知	-11.9393
檟	-11.9393
不盡治者豆	-11.9393
搬運	-11.9393
書堯典	-11.9393
種土相親	-11.9393
纜	-11.9393
伏不起者須五六日一與食起之令洗浴	-11.9393
安邑千樹棗	-11.9393
或曲生亦不佳也	-11.9393
於草上以土覆	-11.9393
棪	-11.9393
水至冬葉落附地刈	-11.9393
得八米	-11.9393
葉味苦救飢採葉煠熟水浸去苦味淘洗	-11.9393
刈穄欲早刈黍欲晚	-11.9394
三月種者為上時四月上旬	-11.9394
焯	-11.9394
茫	-11.9394
所差官員	-11.9394
炒食甚美	-11.9394
春秋二時	-11.9394
涵	-11.9394
初生三年不用採葉尤忌	-11.9394
有膏盡治之則傷膏傷則不成而	-11.9394
取春生少枝	-11.9394
婀	-11.9394
寒食前後	-11.9394
材植等	-11.9394
田中不得有樹用妨五	-11.9394
蕹	-11.9394
跛	-11.9394
餘法悉與下田同	-11.9394
底為下地必欲熟	-11.9394
慘	-11.9394
聘	-11.9394
憶	-11.9394
㤙	-11.9394
豆生布葉鋤之生五六葉又鋤之	-11.9394
鐸	-11.9394
上便成	-11.9394
侮	-11.9394
喉痺	-11.9394
磐	-11.9394
茸茸	-11.9394
荷蓧	-11.9394
陸龜蒙	-11.9394
二月為中時三月為下時	-11.9394
人畜之力	-11.9394
栽一切樹木欲記其隂陽不令轉易	-11.9394
濶八步	-11.9394
漫散之即勞秋冬仍留麻勿刈為楮作	-11.9395
㩥	-11.9395
是故得時之稼	-11.9395
若寒熱不均後必眠起不齊	-11.9395
于雙筩之	-11.9395
凡栽樹正月為上時	-11.9395
去其兄而養其弟不收其粟而收其	-11.9395
埋之經年至春	-11.9395
少枝葉青	-11.9395
峽	-11.9395
慚	-11.9395
故長疾也	-11.9395
稱之重食之	-11.9395
迸	-11.9395
􁵡	-11.9395
無令潤濕	-11.9395
九里香	-11.9395
羔犢	-11.9395
行視郡中	-11.9395
也辛壬癸	-11.9395
南劍州	-11.9395
廂	-11.9395
蜚	-11.9395
諍	-11.9395
簽	-11.9395
兜櫨樹	-11.9395
兩兩對生	-11.9395
划船	-11.9395
娥	-11.9395
小鋤者非直省功	-11.9395
或能絶羣	-11.9395
所包土上條芽長出	-11.9395
磈	-11.9395
粟皆好	-11.9395
處薄攤蛾自遲出免使抽繰相逼	-11.9395
鍊銅或錫	-11.9395
雖曰愛之其實害之雖曰憂之其實	-11.9395
宋氏雜部	-11.9396
悌	-11.9396
捎	-11.9396
隸	-11.9396
織紝	-11.9396
令乍寒乍熱	-11.9396
大樹髠之	-11.9396
宜極暖	-11.9396
油無損也	-11.9396
燒存性	-11.9396
者草根繁茂用功多而	-11.9396
之旁為之孔	-11.9396
蘗	-11.9396
開五瓣小尖	-11.9396
二畝半	-11.9396
榆性扇地其隂下五	-11.9397
虹藏不見	-11.9397
鄭白渠	-11.9397
以炭火	-11.9397
悠悠之論率以風土不宜為	-11.9397
粉條兒菜	-11.9397
仰事俯育	-11.9397
勝大鋤	-11.9397
煼	-11.9397
笞	-11.9397
苡	-11.9397
間亦有之其	-11.9397
梃	-11.9397
紐草稕如臂大	-11.9397
遂溝洫澮	-11.9397
其林木大者	-11.9397
後雖濕亦無嫌	-11.9397
或三葉或	-11.9397
曰牽馬令就	-11.9397
牛兒苗	-11.9397
耨不如鏟	-11.9397
榝	-11.9398
葉浮水上	-11.9398
晹	-11.9398
澆用晨	-11.9398
㳟	-11.9398
誥	-11.9398
桁	-11.9398
踪	-11.9398
一煖處以柔細草覆	-11.9398
天茄兒	-11.9398
幇	-11.9398
播厥百穀	-11.9398
生時㝷即收取别	-11.9398
葝	-11.9398
金裏銀	-11.9398
陂潁川有鴻隙陂廣陵有雷陂	-11.9398
十蠶九老方可	-11.9398
開淡粉紫花	-11.9398
故有諸名	-11.9398
鶻	-11.9398
瀏	-11.9398
取根者用大小麥底六月中種十月	-11.9398
梜榆刺榆凡榆三種色	-11.9398
而薄又似	-11.9398
一升一降	-11.9398
伐大樹	-11.9398
卸	-11.9398
後魏髙陽太守賈思勰撰	-11.9398
珎	-11.9398
花地欲得良熟二	-11.9398
若不和麻子	-11.9398
􁀋	-11.9398
熄	-11.9399
五月初更種	-11.9399
良三徧細耕三月中浸子令芽生乃畦	-11.9399
三四寸長	-11.9399
務盡地利	-11.9399
妍	-11.9399
徐貞明	-11.9399
通人行	-11.9399
㱕	-11.9399
下或漫散種或耬下一如種麻法亦有鋤	-11.9399
草珠兒	-11.9399
陳稈草作蓐	-11.9399
羊矢棗	-11.9399
沱	-11.9399
仲冬之月	-11.9399
䕩	-11.9399
去枯葉	-11.9399
嫩苗葉煠熟水淘去苦味油鹽調食	-11.9399
恢	-11.9399
而芟之冬日至而耜之	-11.9399
須使老樹肌肉與接頭肌肉相對著	-11.9399
以兩手	-11.94
可作粥飯	-11.94
民衣食之源	-11.94
篋	-11.94
夜績女工一月得四十五日	-11.94
層層	-11.94
菜實倍多	-11.94
伺	-11.94
倒損收也	-11.94
奕	-11.94
新芽一發便長寸餘	-11.94
上林苑	-11.94
葴馬藍	-11.94
清和天氣	-11.94
瞿	-11.94
見其為八磨嘉其有濟時用	-11.94
一枚以誑之	-11.94
冬民既入婦人同巷相	-11.94
筌	-11.94
治畦下水糞覆悉與葵同	-11.9401
畦欲極深	-11.9401
瘃	-11.9401
誰謂爾無牛九十其犉	-11.9401
泆	-11.9401
詞訟	-11.9401
手無令地燥也	-11.9401
規而上下等	-11.9401
軸之首	-11.9401
盎	-11.9401
豔	-11.9401
落時可種藍五月可刈藍六月	-11.9401
一名麻勃	-11.9401
春夏生者則不佳	-11.9401
種取桑落時生者良	-11.9401
詰旦升香	-11.9401
文林郎	-11.9402
耬耩者炒沙令燥中	-11.9402
小娘糯	-11.9402
韜	-11.9402
水旱之災	-11.9402
載芟之詩	-11.9402
下濕曰隰	-11.9402
寸以熟糞及土相和正月晦日種	-11.9402
用子二升漫種者先以耬耩然後	-11.9402
菜之美者	-11.9402
無陳草者用糞糞之	-11.9402
高宗純皇帝	-11.9403
生布葉	-11.9403
處處有之苗髙二三尺	-11.9403
郊廟之服	-11.9403
千夫有澮	-11.9403
悠悠	-11.9403
抜	-11.9403
拗	-11.9403
種欲截雨	-11.9403
雨徴也何故曰	-11.9403
本草衍義曰	-11.9403
梜	-11.9404
三禮義宗	-11.9404
屋之下作窠	-11.9404
絹一疋	-11.9404
葉叢中	-11.9404
字林曰	-11.9404
和圓子	-11.9404
繆	-11.9404
勸課本朝重農	-11.9404
秪	-11.9404
農桑衣食之本	-11.9404
酈	-11.9404
𤓰生數葉	-11.9404
為今之計	-11.9404
卬	-11.9404
曲靖之水	-11.9404
有紅白二色	-11.9404
濮	-11.9404
銅鐺盛水	-11.9404
烹飪	-11.9404
聚十莖一處以布纒之五寸許	-11.9404
蒨	-11.9404
舊不著所出州土今處處有之	-11.9404
范子曰	-11.9404
掃箒	-11.9405
瑰	-11.9405
膂	-11.9405
蓫	-11.9405
行冬令則	-11.9405
又有一等	-11.9405
藙	-11.9405
正東曰青州	-11.9405
蜇	-11.9405
滹	-11.9405
畦種水澆	-11.9405
四月種八月熟	-11.9405
魃	-11.9405
懸絶如此	-11.9405
本五穂	-11.9405
桌	-11.9405
盲	-11.9405
櫸	-11.9405
鶯	-11.9405
醭	-11.9406
怸	-11.9406
為民父母者	-11.9406
本篇三圖之	-11.9406
種宿麥	-11.9406
通其節	-11.9406
纏	-11.9406
嚙	-11.9406
吾不如老農	-11.9406
廹	-11.9406
毓	-11.9406
埓	-11.9406
朕心深為	-11.9406
胏	-11.9406
瀚	-11.9406
子三月葉青便出之	-11.9407
騾	-11.9407
啗	-11.9407
牝者子母不同	-11.9407
䧟	-11.9407
莅	-11.9407
凡農居	-11.9407
珣	-11.9407
埧	-11.9408
壝	-11.9408
茺蔚子	-11.9408
宓	-11.9408
菂	-11.9408
騷	-11.9408
蜆	-11.9408
姬	-11.9408
恍	-11.9408
本母子	-11.9408
瘴	-11.9408
蹋	-11.9408
以火糞	-11.9408
舖	-11.9408
亢倉子	-11.9409
有赤白二色	-11.9409
史記禹乘四載泥行	-11.9409
供食豚乳下者佳簡取别飼之	-11.9409
億兆	-11.9409
属	-11.9409
陀	-11.9409
竺	-11.941
𥙷	-11.941
禹之治水	-11.941
裊	-11.941
槀	-11.941
蘇文忠公	-11.941
頤	-11.941
豺乃祭獸	-11.941
胷	-11.9411
大穀早	-11.9411
庤	-11.9411
翕	-11.9411
半日許	-11.9411
薛	-11.9411
奬賞	-11.9411
易通卦驗	-11.9411
緋	-11.9411
嶠	-11.9411
芨	-11.9411
醮	-11.9411
洶	-11.9411
亦須小厰以避雨雪春夏	-11.9411
邸	-11.9412
黛	-11.9412
夹	-11.9412
姚崇	-11.9412
彤	-11.9412
蹲鴟	-11.9412
㣲辣食法採	-11.9412
教甿稼穡	-11.9412
事烝而獻功	-11.9412
五月種九月熟	-11.9412
屐	-11.9412
天子親耕	-11.9412
碣	-11.9412
赤地千里	-11.9412
也日之行	-11.9412
趨事赴功	-11.9413
年諭户部	-11.9413
軼	-11.9413
咀嚼	-11.9413
黏者為黍	-11.9413
犬生三	-11.9413
爍	-11.9413
黍白黍	-11.9413
滾	-11.9413
高尺餘葉似	-11.9413
尾六十日後犍	-11.9413
蔓及翻覆之	-11.9413
飼之其子三日	-11.9413
嫩苗葉煠熟換水浸淘去苦味油鹽調食	-11.9413
螂	-11.9414
鎗	-11.9414
窒	-11.9414
𫀆	-11.9414
肴	-11.9414
􁎐	-11.9414
礱礧	-11.9414
阨	-11.9414
鴛	-11.9414
霂	-11.9415
店	-11.9415
推諉	-11.9415
甀	-11.9415
閹	-11.9415
闋	-11.9415
天下臣民	-11.9416
瘙	-11.9416
絕	-11.9416
嵇	-11.9416
肱	-11.9416
皎	-11.9416
厥田惟上	-11.9417
蒭	-11.9417
蔭	-11.9417
一夜置霜露中即舂	-11.9417
獠	-11.9417
蒢	-11.9417
屆	-11.9417
饔飱	-11.9417
斨	-11.9417
王昭禹	-11.9417
煥	-11.9417
其勸相之	-11.9418
冬時積日燥	-11.9418
逞	-11.9418
啟蟄	-11.9418
烖	-11.9418
祉	-11.9418
臂篝	-11.9418
掬	-11.9418
饘	-11.9418
奴婢	-11.9418
蘢	-11.9419
虎櫐	-11.9419
井及泉	-11.9419
芃芃	-11.9419
賙	-11.9419
黏百日黏	-11.9419
羅浮山	-11.9419
瓏	-11.942
用牛馬糞	-11.942
􁄾	-11.942
隨甕大小	-11.942
諒	-11.942
鄢陵縣土産	-11.942
蚌	-11.942
牖	-11.942
骹	-11.942
袪	-11.9421
自下而上	-11.9421
怯	-11.9421
佛手柑	-11.9421
直省志書宛平縣物産	-11.9421
罔	-11.9421
輅	-11.9421
怡	-11.9421
某謂不然	-11.9421
謂秫為	-11.9421
秬鬯	-11.9422
醒	-11.9422
僚	-11.9422
涓	-11.9422
憎	-11.9422
摭	-11.9422
羊肉一斤	-11.9422
蛙	-11.9422
搶	-11.9423
後魏高陽太守賈思勰撰	-11.9423
有宜不宜	-11.9423
定襄縣物産	-11.9424
䑓	-11.9424
榔	-11.9424
水浴之	-11.9424
䈒	-11.9424
與橘同	-11.9425
實心任事	-11.9425
鮆	-11.9425
瑪	-11.9425
瀾	-11.9426
釃	-11.9426
靄	-11.9426
井牧其田野	-11.9426
滋陽縣物産	-11.9427
躭	-11.9427
狃	-11.9427
蔑	-11.9427
杪	-11.9427
壷	-11.9427
案今本作	-11.9427
邁	-11.9428
演	-11.9428
魚鮓法	-11.9428
䴸	-11.9428
之最大者	-11.9428
汰	-11.9429
之欲其固也	-11.9429
枳椇	-11.943
蹯	-11.943
钁鍤	-11.943
睿	-11.943
洨	-11.943
法第七十	-11.943
蠏	-11.9431
春秋冬夏	-11.9431
瘝	-11.9431
順治十一年	-11.9431
塉	-11.9432
莞	-11.9432
稼穡之艱	-11.9433
狼戾	-11.9434
舛	-11.9435
周世宗	-11.9435
鑠	-11.9436
無毒孫思邈曰	-11.9437
夏秋之交	-11.9437
生布絞	-11.9437
金城早	-11.9438
抉	-11.9438
站	-11.9439
晁	-11.944
笙	-11.944
本二穂	-11.9441
纘	-11.9442
藍地欲	-11.9443
順天府尹	-11.9443
吹豳	-11.9444
贄	-11.9446
猷	-11.9448
浭	-11.9448
葉甚大	-11.9449
藨	-11.945
去惡根	-11.945
經久不	-11.9451
蛋	-11.9452
蓃	-11.9453
跳躍	-11.9454
矯	-11.9454
其故何也	-11.9455
帝威神	-11.9455
魚眼湯	-11.9456
酳	-11.9461
帝土公	-11.9461
腤	-11.9462
蘆花糯	-11.9465
山下出泉	-11.9471
鎪	-11.9471
用石板	-11.9472
寶坻	-11.9473
佐之使主	-11.9477
大名府	-11.9491
日即乾	-11.9499
凡種下田不問	-11.9521
釐九毫	-11.9533
門彚考卷	-11.9593
上安蠶	-11.9687
粒最長	-11.98
豆扁豆	-11.9906
不載所出州土今處處有之	-11.9993
救飢採葉煠熟水浸淘浄油鹽調食	-12.0203
去辣味油鹽調食	-12.0502
柳條糯	-12.0759
一斗麴末	-12.1028
力耕數耘收穫如	-12.109
栽者二月	-12.1364
生密縣梁家衝山谷中	-12.1437
龡豳雅擊土鼓以樂田畯	-12.1498
葉味甜救飢採嫩苗葉煠熟水浸淘	-12.1595
生水邊下濕地	-12.1697
尚書考靈曜	-12.1708
下田不問春	-12.1728
大紡車	-12.1729
掌稼下地	-12.1741
周禮稻人	-12.1744
苦救飢採葉煠熟水浸去苦味	-12.1806
糯蝦鬚糯	-12.184
布絞取	-12.1846
之氣和則	-12.1848
不似昔之	-12.185
崙	-12.1855
各在一邊	-12.1858
䬃	-12.1859
州古冀州觜參分野	-12.1861
土宜門水利	-12.1862
上用稻草	-12.1863
抌	-12.1866
阞	-12.1867
觚	-12.1867
霈	-12.1868
府古兖豫二州角亢分野	-12.1868
蹷	-12.1869
新興等五鄉	-12.187
杇	-12.187
敬授人時	-12.1871
篲	-12.1871
麥秀二三穂七月	-12.1871
所墾之田	-12.1872
指大皮色	-12.1872
翟	-12.1872
横截江路	-12.1873
正月一日二月二日	-12.1873
蒋	-12.1873
䅘	-12.1873
糯榧子糯	-12.1873
􁇊	-12.1873
壽四十年	-12.1874
擇其木盛者來年多種之萬不	-12.1874
水多則泄	-12.1874
分不及限者並責	-12.1874
過損焉	-12.1874
先天二年	-12.1874
日支飯米一斗約半	-12.1874
奉行不力	-12.1875
蒹	-12.1875
劉欣期交州記	-12.1875
傷桑破	-12.1875
蠶事起本	-12.1875
遵㫖議定	-12.1875
長倍遲	-12.1875
縣禾合穂者二	-12.1875
壓下枝令著地條葉生	-12.1875
苗初搨地生葉	-12.1875
礋	-12.1876
住宅上及園畔	-12.1876
垎	-12.1876
種法與蕪菁同既生亦不鋤之	-12.1876
䒒	-12.1876
共計米	-12.1876
厚築兩旁	-12.1876
土若干方	-12.1876
舂之而簁之	-12.1876
足霜乃收	-12.1876
所謂兩失	-12.1877
用時去中	-12.1877
耕者除種粟地外其餘黍豆等地春耕亦	-12.1877
種芥子及蜀芥	-12.1877
繰為上如人手不及殺	-12.1877
治之取乾艾雜	-12.1877
并泥食之	-12.1877
曰宣曲任氏	-12.1877
熯	-12.1877
轡	-12.1877
陳蔵器	-12.1877
鶴脚烏	-12.1877
則失草矣	-12.1877
掎角不用正相當	-12.1877
楫	-12.1878
取子者皆二	-12.1878
㝷壟以	-12.1878
不細不深	-12.1878
就連上令覆養三五日	-12.1878
觱	-12.1878
一百八十四尺	-12.1878
候實開便收之挂著屋裏壁上	-12.1878
逆土之性	-12.1878
監察御史	-12.1879
上辛祈榖	-12.1879
縋	-12.1879
系	-12.1879
二日有半	-12.1879
引之成田	-12.1879
東錢湖	-12.1879
石至數萬而豪傑金玉盡歸任氏任氏以	-12.1879
種無期因地為時	-12.1879
聯	-12.1879
變生之不一	-12.1879
難段也餘	-12.1879
水轉連磨	-12.188
三年内每到十月常須草裹至二月	-12.188
斯趙以薅荼蓼	-12.188
水澇之年	-12.188
莖方莖葉俱	-12.188
令起斫去浮根以蠶矢糞之	-12.188
其實亦鹵莽而報予芸而滅裂之	-12.188
圍築硬岸	-12.188
大佳性不耐水必須	-12.188
芽生出而種之	-12.188
畀	-12.188
中間白色味甜性微寒本草有沙參苗葉	-12.188
渰没田疇	-12.188
生即去箔常令足水六月連雨	-12.188
亦善樹一升天旱以流水澆之	-12.188
霜下實成速斫之其樹大者以鋸鋸之	-12.188
者種法悉與此同	-12.1881
自餘雜香菜不列	-12.1881
寘	-12.1881
欓	-12.1881
三月可種荏蓼	-12.1881
於山阜之曲三徧熟耕漫散橡子即	-12.1881
既生數年不用掌近	-12.1881
沫露塘	-12.1881
分工定宕	-12.1881
河有枝幹	-12.1881
秋天氣寒冷有霜時必待日	-12.1881
者則不成子實	-12.1881
走火燒過	-12.1881
麻子地間散蕪菁子而鋤之擬收其根	-12.1881
燒馬蹄羊角成灰春散著濕地羅勒乃生	-12.1881
又似山小菜葉	-12.1882
琥珀色	-12.1882
高燥處	-12.1882
下戊前為下時	-12.1882
二月三月種者為	-12.1882
以蠶矢糞之	-12.1882
四月五月種者為穉禾二月上旬及麻菩	-12.1882
犇	-12.1882
頭頗團而不尖	-12.1882
三老力田及里父老善田者受田器學耕	-12.1882
上長軖	-12.1882
之三和之灰	-12.1882
六十五萬七千八百五十六尺	-12.1882
文右曰貨左曰	-12.1882
耕須再遍一	-12.1882
間令滿外復以草圍之以葛	-12.1882
登非不利也然王者法禁之為其殘桑也	-12.1882
兩三宿竪頭著日中曝之令浥浥然	-12.1882
爰求柔桑	-12.1882
不欲冷也	-12.1882
似龍鬚菜葉	-12.1882
八尺深八尺謂之洫	-12.1882
器物其利十倍	-12.1882
小臍未合	-12.1882
看稀稠	-12.1882
一千八百二十四尺	-12.1882
本篇五圖之	-12.1883
闗巨木	-12.1883
且溉且糞長我禾黍衣食京師億萬之口	-12.1883
上用箬葉	-12.1883
中戊前為中時	-12.1883
廠	-12.1883
沅	-12.1883
陵治東之	-12.1883
㧞令稀	-12.1883
一頓飽食之名曰填嗉	-12.1883
伏日用碌碡碾	-12.1883
后妃齋戒享先蠶而躬桑以勸蠶事	-12.1883
宋人有言	-12.1883
成好葦十月後刈之一法二月熟耕地作	-12.1883
栽以土覆之	-12.1883
湯有旱災伊尹作為區田教民糞種	-12.1883
籔	-12.1883
芴	-12.1883
頭牡鯉魚長三尺者四頭以二月上庚日	-12.1883
蘇桂荏	-12.1883
大麥生於杏	-12.1884
草篅中	-12.1884
一千八百	-12.1884
之後根交當隔一尺許斸一钁即滋旺矣	-12.1884
之月故宜栽培以養元氣	-12.1884
斫後復生不勞更種所	-12.1884
極小又似	-12.1884
氣未寒將陽和之氣掩在地中其苗易榮	-12.1884
耕則無澤	-12.1884
之地長十八丈廣四丈八	-12.1884
之時而我不農	-12.1884
五町町間分為十四道以通人行道廣一	-12.1884
今鈞州密縣山	-12.1884
夫治生之	-12.1884
山及寃句	-12.1884
積穰於溝間相去亦一	-12.1884
田種弱苗以求華實	-12.1884
籠蒸繭	-12.1884
合入御河	-12.1884
如甜瓜	-12.1884
州其穀宜稻	-12.1884
鵝脚黄	-12.1884
之物有三曰	-12.1884
五千枚二尺者萬枚	-12.1884
倒以土壓之露其	-12.1884
入蕪湖	-12.1884
縱横相去一	-12.1884
耕耬下以為良澤多者耬耩漫擲而勞之	-12.1884
調灌一應	-12.1884
賣柴之利己自	-12.1884
鏊	-12.1884
雪裏揀	-12.1884
􁐍	-12.1884
躁	-12.1884
醸	-12.1885
令人肥健	-12.1885
䕫	-12.1885
白如珂雪	-12.1885
久逺之利	-12.1885
三年正月移而植之亭亭條	-12.1885
其十字破杜者十不	-12.1885
有葚梔	-12.1885
桑落時作者	-12.1885
鴟災也	-12.1885
塩	-12.1885
天之道也故君子貴	-12.1885
底列短釘	-12.1885
弱不相害故	-12.1885
汗繫著門	-12.1885
濶六百十二尺自之得積一百一十	-12.1885
為中時五月初為下時大率二尺留一	-12.1885
稻既生猶欲令人踐	-12.1885
筴	-12.1885
至焉時雨降焉始之耕田終之簠簋惰者	-12.1885
菅茅之地宜縱牛羊踐之	-12.1885
餞	-12.1885
馬以石灰泥馬槽	-12.1885
馬兠鈴	-12.1885
槐子熟時多	-12.1885
當年之中即與麻齊麻熟刈去獨留槐槐	-12.1885
桃性皮急四年以上	-12.1886
令徹澤	-12.1886
勿令傷青皮	-12.1886
為良遭雨則損草也	-12.1886
鋸截杜令去地五六寸	-12.1886
然後以粟飯切苦菜蕪菁英	-12.1886
籠内籠滿則	-12.1886
蟆	-12.1886
傳曰人生在勤勤則不匱	-12.1886
其地爽潤上有油土四指許春雖	-12.1886
及賣十月足霜乃收之取子者仍留根間	-12.1886
樹所合枝	-12.1886
氣勞也噴而不溺者血勞也筋勞者兩絆	-12.1886
里開方計之八八六十四	-12.1886
鐵環約之	-12.1886
考工記匠人為溝洫	-12.1886
恠	-12.1886
首種三年桐	-12.1886
厚五寸竹忌手把及洗手面脂水澆	-12.1886
一升一降是水恒入而不出也	-12.1886
也用法有	-12.1886
似山茱萸葉	-12.1886
其實亦滅裂而報予	-12.1886
四眠蠶	-12.1886
埋大甕地上甕中先鋪竹	-12.1886
多被風雨	-12.1886
掌療獸病凡療獸病灌而行之以發其惡	-12.1886
於堅地一升子與一掬濕土和之以脚	-12.1886
正月種春大麥二三月種山藥芋子三四	-12.1886
死花結實如稗謂之竹米一竿如此	-12.1886
者下根即燒三四寸	-12.1886
苗長二尺餘葉似胡豆葉稍大	-12.1886
茂嫩條	-12.1886
行驟則消水小	-12.1886
酓	-12.1886
魯桑種之俱可若地連山	-12.1886
也一用水之	-12.1886
生鄭州南	-12.1886
者骨勞也起而不振者皮勞也振而不噴	-12.1886
脿	-12.1886
鋤不厭頻	-12.1886
凡欲識雌雄當自根上第一枝觀之有	-12.1887
接勿令損傷	-12.1887
同時非夏者大率以椹赤為候	-12.1887
子亦須鐵也	-12.1887
二曰根接	-12.1887
滿乾則色黄而皮皺	-12.1887
而味不佳	-12.1887
則軟了絲頭亦不要蒸得不及不及則	-12.1887
堕	-12.1887
士八人	-12.1887
毗	-12.1887
用矩極	-12.1887
者彌疾	-12.1887
鏟柄長二尺刄廣二寸以剗地除草此	-12.1887
之其來尚矣	-12.1887
人等然後編之數年	-12.1887
共相蹙迫交柯錯葉特	-12.1887
内一神守六月内二	-12.1887
因隤其土以附苗根	-12.1887
如墉如櫛	-12.1887
小竅使通出入另開一小門泥封時時開	-12.1887
性寒無毒一云味甘	-12.1887
白麻子為雄麻顔色	-12.1887
節後十日封生薑至四月立夏後蠶大食	-12.1887
置惠民倉	-12.1887
銃	-12.1887
雞白頭食之病人	-12.1887
夢溪云種竹但林外取向陽者向北而栽	-12.1888
有西風則不可花木亦然諺云栽竹無時	-12.1888
根無不向南必用雨下遇	-12.1888
記取南枝志林云竹有雌雄雌者多	-12.1888
三四次出以糞苧因以肥桑愈	-12.1888
山澤有異宜	-12.1888
打碗花	-12.1888
三千七百區一日作千區區種粟二十粒	-12.1888
二子生梨餘皆生杜	-12.1888
五升土不和則益之	-12.1888
信斯言也	-12.1888
其種勿使數亦無使	-12.1888
夫區方深各六寸間相去九寸一	-12.1888
爻	-12.1888
謹摩平以待種	-12.1888
䓤	-12.1888
上又以桐葉平鋪如此重重隔之以至滿	-12.1888
之仍即下水十日塊既散液持木斫平之	-12.1888
之則禾不蟲又取馬骨剉一石以水三石	-12.1888
之明效也	-12.1888
似楸葉而	-12.1888
勿使糞穢	-12.1888
即編其種榆莢者一同酸棗如其栽榆與	-12.1888
圏中作臺開竇無令停水二日一除	-12.1888
土厚一寸	-12.1888
孔之方圜	-12.1888
寠	-12.1888
底為上麻黍胡麻次之蕪菁大豆為下	-12.1888
攴	-12.1888
無飲食之大溺而已	-12.1888
秋花彫盡留冬月	-12.1888
者令人牽之起從後笞之起而已皮勞者	-12.1888
莖淡紫色葉	-12.1888
蝗蟲無馬骨亦可用雪汁雪汁者五	-12.1888
馗	-12.1888
别是一種	-12.1888
二十度乃佳夜	-12.1889
笠所以禦暑	-12.1889
墁	-12.1889
媮	-12.1889
孫叔均始作牛耕	-12.1889
烙	-12.1889
竹迷日	-12.1889
不以成繭不成繭翻	-12.1889
善者倍之	-12.1889
為農者可不趨時致力以成其終而自廢	-12.1889
田常以五月耕六月再耕七月勿耕	-12.1889
皆可行也盍先之	-12.1889
稰	-12.1889
穛	-12.1889
終也是知	-12.1889
編定號	-12.1889
記曰種而不耨耨而不穫譏其不能圖功	-12.1889
髙阜之地	-12.1889
龍魚河圗曰	-12.1889
之所謂財者	-12.1889
并草留之不須鋤治八九月	-12.1889
栽而薅之	-12.1889
生血勞血勞則發强行何以察五勞終日	-12.1889
种	-12.1889
羊膿鼻眼不淨者皆以	-12.1889
栗種而不栽	-12.1889
茼	-12.1889
取子者候實成速	-12.1889
煴	-12.1889
藲	-12.1889
冬之間必致癬疥七月	-12.1889
即生筋勞筋勞則	-12.1889
夏駕浦	-12.1889
常留臘月正月生羔	-12.1889
廢地則無草	-12.1889
打餅蒸食皆可	-12.1889
抛子種	-12.1889
撻暑夏最為	-12.1889
柴栅令周匝	-12.1889
樹不結鑿一大孔入生	-12.1889
檆	-12.1889
用種二升秋收區别三升粟	-12.1889
用積方法	-12.1889
碎炊作飱甚滑細磨下絹簁作餅亦滑美	-12.1889
種販至	-12.1889
積算即知大	-12.1889
胠	-12.1889
莵	-12.1889
菜生二三寸鋤去穊者供食	-12.1889
觳	-12.1889
詩義疏云	-12.1889
身冷雖伏無熱	-12.1889
迴毛名	-12.1889
過良則苗折	-12.1889
雍州川澤及	-12.1889
餘年止	-12.1889
不燒則不滋茂	-12.189
自有乾葉在地足得	-12.189
旰	-12.189
所謂蓬生麻	-12.189
上曰伐伐之言發也	-12.189
埋之欲深勿令撓動	-12.189
州古揚州牛女分野	-12.189
懐子鯉魚	-12.189
生宻縣韶華山山野中	-12.189
目録農家類卷一	-12.189
稻苗性弱不	-12.189
竿稍大者截去近根三尺許通其節以糞	-12.189
胊	-12.189
過者無病不能過者入瀆中行過便别之	-12.189
一升收粟五十一石一日作三百區下	-12.189
一萬四千四百	-12.189
丙諸線	-12.189
利那而為	-12.189
十七區用種	-12.189
如小指檜枝長一尺五寸許下削成馬耳	-12.189
拖藤蔓而生	-12.189
既至冬寒多饒風霜或春初雨落	-12.189
旱潦無備	-12.189
時辰潮	-12.189
曺	-12.189
柘子熟時多	-12.189
檜種如松法	-12.189
汗不乾則生皮勞皮勞者𩥇而不振汗未	-12.189
盃	-12.189
秋必須燥濕得所為佳若水旱不調寧燥	-12.189
種柘法耕地令熟耬耩作	-12.189
草未生時則須飼不宜出放	-12.189
醬中藏之	-12.189
檎	-12.189
䝁	-12.189
候實口開便速收之天	-12.189
毛牀動則	-12.189
髙麗豆	-12.189
四曰枝接	-12.1891
收根畦種之常令足水尤忌潘	-12.1891
炙曝天寒於火上熬過拌菜食之味頗辛	-12.1891
秀為禾三變而粲	-12.1891
者五萬枚長四尺者四萬枚留長二尺者	-12.1891
負水澆稼	-12.1891
不喘以發散藥投之熱結即鼻汗而喘以	-12.1891
亦任人意	-12.1891
内生不向外	-12.1891
後九十日晝夜分天地氣和以此時耕	-12.1891
此號内十丈河身中共該起土幾何方數	-12.1891
百五十四萬五千三百四十四尺	-12.1891
種蒔之事各有攸	-12.1891
羊有病輒相	-12.1891
而直下者聚而不科	-12.1891
鴨六年以上老不復生伏矣宜去之少者	-12.1891
麥如救火若少遲慢一值隂雨即為災傷	-12.1891
􁊼	-12.1891
明年正月初附地芟殺放火燒之一	-12.1891
自能造紙其利又多種三十	-12.1891
葉而小頗硬	-12.1891
騫	-12.1891
發癰腫	-12.1891
鍥	-12.1891
先治地令淨	-12.1891
巍	-12.1891
一農之事必有一	-12.1891
緻	-12.1891
㳂	-12.1891
不有生土以	-12.1891
嚮	-12.1891
張廣泗	-12.1891
心則科茹	-12.1891
或就樹或	-12.1891
正月二月中取弱栁枝大如臂長一	-12.1891
清明無雨少黄梅	-12.1891
物莫能兩大	-12.1891
種榖必雜五種以備災害	-12.1891
米又可釀作酒	-12.1891
荏油性淳塗	-12.1891
音牟䤅	-12.1891
一千七百二十八尺	-12.1891
不燒者瘦	-12.1891
世無窮比之農夫勞逸萬倍去山逺者實	-12.1891
之則生氣勞氣勞者	-12.1891
其用藥與人相似	-12.1891
占晴雨諺云	-12.1891
又自東平	-12.1891
古稱澤國其西南翕受太湖陽城諸水	-12.1891
四甸為縣	-12.1891
多種千根以上所求必備	-12.1891
大率十口一羝	-12.1891
孟祺農桑輯要	-12.1891
尺五寸底濶	-12.1891
捲向外	-12.1891
昩	-12.1891
時調其宜適卜式云牧民何異於是	-12.1891
渣	-12.1891
澤少者暫浸即出不得待	-12.1891
産伏留草則	-12.1891
盅	-12.1891
而長亦遲	-12.1891
若不留距侵皮	-12.1891
諺云一㸃雨一個	-12.1891
赤五寸至	-12.1891
連隂則子	-12.1891
遷延過時秋苗亦誤鋤治	-12.1891
閬	-12.1891
頻飲則傷	-12.1891
若移大栽者二月三月中移之先作熟	-12.1892
圓深三寸以刀子圓	-12.1892
椒栽合土移之於	-12.1892
江陵千樹橘	-12.1892
滁	-12.1892
各塘長圩甲	-12.1892
韌必待其朽腐易為牛力	-12.1892
化為白脂	-12.1892
園中築作小屋覆雞得養子烏不得就	-12.1892
掛葦簾	-12.1892
接頭可長五寸	-12.1892
桓譚	-12.1892
沿河而來	-12.1892
生少室山今	-12.1892
長尺餘闊約	-12.1892
鴨皆一月雛出量雛欲出	-12.1892
䖝	-12.1892
三兩日即生又法畦中下爛糞取	-12.1892
三年不斫者徒	-12.1892
傷苗如此令地熟軟易鋤省力	-12.1892
冬夏不凋	-12.1892
出新鄭	-12.1892
區用種六升收二十八石一日作二百區	-12.1892
厥土惟塗泥厥田惟下下	-12.1892
去水曝根令堅	-12.1892
寸一莢稀穊得中	-12.1892
寸以上栽宜稠密常澆令潤澤上	-12.1892
山居千章之材	-12.1892
崗野間	-12.1892
待白背者麻生肥	-12.1892
或能合羣致死羊疥先著口者難治多死	-12.1892
撚	-12.1892
救飢採花煠熟油鹽調食	-12.1892
格柯打出作蒿	-12.1892
欄必為風	-12.1892
水芟之草悉膿死稻苗漸長復須薅	-12.1892
流不浚無以	-12.1892
滂沛十日亦不生	-12.1892
澤多者先	-12.1892
生河内川谷及	-12.1892
白露俱下酢漿令麥耐旱蠶矢令麥忍寒	-12.1892
硏	-12.1892
秋則生稗	-12.1892
窻	-12.1892
羊有疥者間别之不别相染	-12.1892
耬種後惟用砘車碾之然執耬種者亦須	-12.1892
舂米則聚礱簸	-12.1892
面方一十八萬	-12.1892
碎如種菜法	-12.1892
冉	-12.1893
微澁救飢採	-12.1893
府縣水利官	-12.1893
篁	-12.1893
迦	-12.1893
匪直盪汰不生兼與草薉俱出凡田欲早	-12.1893
及其蟊賊無害我田穉田祖有神秉畀	-12.1893
正謂此也	-12.1893
一砧盤上	-12.1893
孺	-12.1893
小枝樹形可喜五年方結子	-12.1893
柿有七絶	-12.1893
灰居一謂之	-12.1893
用繩取直	-12.1893
羝	-12.1893
􁲑	-12.1893
一名黄斤	-12.1893
之南方人畜耐暑其耕四時皆以中	-12.1893
了田青	-12.1893
二年外方可	-12.1893
剪小滿前	-12.1893
勿傷其心也	-12.1893
半夏為之使惡皁莢畏	-12.1893
南北習俗	-12.1893
又似野胡蘿蔔	-12.1893
摜稻簟	-12.1893
有角者喜相觝	-12.1893
桑下竹隂地種	-12.1893
此時二十日以後和氣去即土剛以	-12.1893
水而鼻膿	-12.1893
為等差故養牧得宜	-12.1893
生鈞州風谷頂山	-12.1893
立其上而鋤	-12.1893
音頭榆	-12.1893
養而不窮	-12.1893
髙一尺餘莖	-12.1893
六百八十八尺	-12.1893
再徧耙之	-12.1893
奨	-12.1893
撼	-12.1893
散蠶訖又薄以薪覆之一槌得安十箔	-12.1893
閷	-12.1893
數寸夏連雨時可移之移法先作小	-12.1893
者率多死	-12.1893
架起下用	-12.1893
修之次者	-12.1893
再宿冬三宿	-12.1893
接博其法有六一曰身接	-12.1893
漢桓帝詔曰横水為災五	-12.1893
茂而實不堅磽确之土	-12.1893
輝縣山野中	-12.1893
䅞	-12.1893
則饒子不	-12.1893
撡	-12.1893
時雨降可種大小豆美田欲稀薄田欲稠	-12.1893
江淮間多種	-12.1893
為秋菜如欲出種春菜食不盡者可為子	-12.1893
祭坊與水庸	-12.1893
而稀豆花憎見日見日則黄爛而根焦也	-12.1893
自某處起	-12.1893
至某處止	-12.1893
軺	-12.1893
一舉兩得	-12.1893
三月種菌子取爛	-12.1893
下剸去枝三二層樹記南北運至區	-12.1893
之前末曰槃言可轉也左右繫以樫乎軛	-12.1893
二寸以水澆之足踐令保澤取五芋子	-12.1893
兵衆分工起土	-12.1893
凡已耕耙欲受種之地非勞不可	-12.1893
去葉端數寸	-12.1893
另為一段假如通河	-12.1893
塊以生草草生復	-12.1893
容立一人	-12.1893
尺該穵土方	-12.1893
广	-12.1893
得入窖夏還出之但不濕亦得五六年停	-12.1893
挟	-12.1893
架北牆為	-12.1893
歟得非	-12.1893
汁塗之再上愈	-12.1893
法正月間削	-12.1893
漢書音義	-12.1893
生太山山谷	-12.1893
用冷水淘淨	-12.1893
窐	-12.1893
簇之薄布薪	-12.1893
繁息者未之有也	-12.1893
繭宜併手忙擇	-12.1893
花似韭花	-12.1893
觸傷胎所由也	-12.1893
驢轉筒車	-12.1893
􁆜	-12.1893
寸一子篩土覆之令厚寸許復篩熟糞以	-12.1894
取區上濕土與糞和之内區中萁上令厚	-12.1894
性不零落	-12.1894
早刈損實	-12.1894
嫁李法正月一日或十五日以	-12.1894
絨	-12.1894
劉禹錫	-12.1894
驘	-12.1894
七月初種之	-12.1894
貽我來牟	-12.1894
榨取油	-12.1894
法製長生屋	-12.1894
不登令所傷郡國皆種	-12.1894
不謹者有之	-12.1894
大豆小豆不可盡治也古所	-12.1894
黠	-12.1894
公私之積猶可哀痛	-12.1894
名屋菼	-12.1894
嫩葉煠熟水浸去苦味淘洗浄油鹽調食	-12.1894
孔用木釘釘之泥封竅即結	-12.1894
字一號盡十號	-12.1894
悮	-12.1894
晴過寒	-12.1894
樹訖以水沃之著土令如薄泥東西南北	-12.1894
泰州紅	-12.1894
隂之地開坎圓三尺深一尺熟斸著糞	-12.1894
麥似大麥出	-12.1894
䆊	-12.1894
一類二種也	-12.1894
不同之處差一尺者	-12.1894
亦窄莖葉梢間	-12.1894
合累牛騰馬	-12.1894
回回醋	-12.1894
換水浸去酸味淘浄油鹽調食	-12.1894
朱長春曰	-12.1894
某段水深	-12.1894
榖根未成不耐旱耬鋤	-12.1894
每幾何丈尺而下一尺	-12.1894
比及月望數連一卷桑皮索繫定	-12.1894
浙西諸郡蘇松最居下流太湖綿亘數百	-12.1894
為中時中旬為下時先放水十日後曳	-12.1894
爾部即	-12.1894
生田野下濕地中	-12.1894
羝少則不孕羝多則亂羣不	-12.1894
耘除之草	-12.1894
至來春春分時甜水浸子十日治畦下水	-12.1894
土上旱輒澆之常令潤澤生	-12.1894
土厚不生	-12.1894
枝枯子亦不細	-12.1894
黍若從十月至正月	-12.1894
夏一宿春秋	-12.1895
蕙	-12.1895
似米蒿	-12.1895
勞上加人則	-12.1895
濕土封堆	-12.1895
蜀郡山谷及	-12.1895
黍心初生畏天露令兩人對持長索	-12.1895
齊明與我犧羊以社以方我田既臧農夫	-12.1895
䕸	-12.1895
以黍椹子各三升合種之	-12.1895
先泥其外	-12.1895
其日壬癸其帝顓頊其神𤣥㝠	-12.1895
四十六萬七千九百零四尺	-12.1895
夏至後二十日漚枲枲和如絲	-12.1895
小則不髠先為深	-12.1895
布裹齒	-12.1895
弱耕地多少其耕皆有定法	-12.1895
必用兩牛三牛或四牛以一人執之量牛	-12.1895
梜者鏇作	-12.1895
簞盛種竹器也其量可容數斗形如	-12.1895
者皆魯之類也荆之類根固而心實能	-12.1895
菽粟古人豈重畜如此哉以此為衣食之	-12.1895
表裏相	-12.1895
近上則絲薄近	-12.1895
食三箔蠶	-12.1895
􁱦	-12.1895
今春夏水則	-12.1895
任潮水往來	-12.1895
狗掉尾	-12.1895
鹽鐵論	-12.1895
傑	-12.1895
帷	-12.1895
葉搨地生葉似	-12.1895
之至明年四月又耕熟勿令有塊即作	-12.1895
如欲出種留食不盡者八月收子	-12.1895
哈	-12.1895
二十八宿周天	-12.1895
正月二月勞而鋤之三月四月鋒而更鋤	-12.1895
茫茫	-12.1895
納𤓰子四	-12.1895
二月七月種種法以升盞合地為處布子	-12.1895
出西番	-12.1895
千樹則足柴十年以後髠一樹得一載	-12.1895
啖以菽粟矣衣以	-12.1895
既生不鋤九月末收葉	-12.1895
易為宜古之所以備	-12.1895
服牛乘馬	-12.1895
江尾茭蘆之地	-12.1895
湫	-12.1895
糞和土覆之生後數澆令	-12.1895
組	-12.1895
羗	-12.1895
㓕	-12.1895
䟦	-12.1895
七月百草成	-12.1895
之水有所歸而不積矣	-12.1895
伏時大鵝一十子大鴨二十子小者	-12.1895
凡下田停水處燥則堅垎	-12.1895
剥取嫩	-12.1895
夫區方九寸深六寸相去二尺一畝	-12.1895
子搗為米	-12.1895
摥	-12.1895
明下就附地列置風竇令可啓閉以除濕	-12.1895
時器勸甿	-12.1895
某項應用若干該價若干	-12.1895
柞氏掌攻草木及林麓夏日至令	-12.1895
歐	-12.1895
水盡燥濕得所時急耕則	-12.1895
沐十年成轂言	-12.1895
淆	-12.1895
熱氣退乃	-12.1895
稀豁之處鋤而補之凡五榖	-12.1895
種梓法秋耕地令熟秋	-12.1895
色苗葉味甜救飢採	-12.1895
藺之土甚輕者以牛羊踐之如此則土	-12.1895
鄭司農云陽木春夏	-12.1895
麥麥時水澇不得納種者九月	-12.1895
􁟧	-12.1895
皮粗皵者為	-12.1896
可為常食秋社前	-12.1896
冬初梓角熟時摘取曝乾打取子耕地作	-12.1896
杖微打	-12.1896
椋	-12.1896
一根上必十數條俱生	-12.1896
賞罰不繼續	-12.1896
輛	-12.1896
拌麩糠	-12.1896
旃	-12.1896
約高一丈	-12.1896
也甫田之詩	-12.1896
以銀錢為	-12.1896
仲冬斬陽木仲夏斬隂木	-12.1896
先生者美米後生者	-12.1896
凡伐木四月七月則不蟲而堅	-12.1896
劉家港	-12.1896
助軍餉	-12.1896
務本直言云	-12.1896
夏生白花	-12.1896
次日有裂縫處以	-12.1896
此田之本也三月榆莢	-12.1896
毋使露樹至春去土次年不	-12.1896
燒之則依前茂矣	-12.1896
皮對皮骨對骨	-12.1896
簇與繰絲法	-12.1896
粱秫齊民要術粱秫	-12.1896
羞以含桃	-12.1896
蓀	-12.1896
車者井泉挈水之器也	-12.1896
㰅	-12.1896
三日後漸變白則向食	-12.1896
乃擇元辰天子親載耒耜	-12.1896
五年任為屋椽十年堪為棟	-12.1896
亦分四時朝暮	-12.1896
以圊糞解之	-12.1896
味甘性平無毒又云	-12.1896
少加厚變青則正食宜益加厚	-12.1896
常收三日葉以備	-12.1896
張朝瑞	-12.1896
擔負髙几遶樹	-12.1896
浥臭者	-12.1896
生山谷中樹頗高大葉	-12.1896
眠後十五六頓即老得絲多少全在此數	-12.1896
紅熟子食之	-12.1896
蟲立死	-12.1896
諺曰正月可栽	-12.1896
隨壩長	-12.1896
黄穋稻	-12.1896
凡稼澤夏以水殄草而芟夷之	-12.1896
餅子桃	-12.1896
細研熬	-12.1897
繁茂而甜脆勝野生者	-12.1897
笥	-12.1897
圻	-12.1897
蒲圻縣物産	-12.1897
鞮	-12.1897
主春旱	-12.1897
灃	-12.1897
第一次曰撮苗第二次曰布第三次曰	-12.1897
坦	-12.1897
水三曰暮極飲之	-12.1897
永樂大典所載	-12.1897
由三江以入	-12.1897
白磁器中	-12.1897
砲	-12.1897
聖祖御製幾暇格物編	-12.1897
農者見小近而不慮	-12.1897
逺一年豐稔沛然自足	-12.1897
上打去衝天心	-12.1897
塾	-12.1897
尢	-12.1897
布葉而鋤	-12.1897
底為竇	-12.1897
得大蒜良	-12.1897
木髙四五尺枝條	-12.1897
櫺	-12.1897
池者嵗食	-12.1897
沖	-12.1897
溉種之總名	-12.1897
禮記吕氏月令季冬出土牛示農耕早晚	-12.1897
穀米俱白	-12.1897
竇而輸之	-12.1897
粱者黍稷之總名稻者	-12.1897
紫赤色其	-12.1897
老詩云我有㫖	-12.1897
胎中受病	-12.1897
舊不著所出州土但云	-12.1897
豚狗彘毋失其時女	-12.1897
長也欲相與居其熟也欲相	-12.1897
類春秋正晝如夏	-12.1897
鼠尾草	-12.1897
理色白而生子者	-12.1897
上時四月上旬	-12.1897
挈江河之水	-12.1898
明年正月初附地芟殺	-12.1898
溧	-12.1898
上中央四齒	-12.1898
擯	-12.1898
春夏畦種供食者與畦葵法同	-12.1898
濺	-12.1898
用時添水八九分	-12.1898
箠	-12.1898
蚕	-12.1898
赤土宜菽	-12.1898
雪勿令從風飛去	-12.1898
䔛	-12.1898
之漫散即勞勞訖引水停之至秋	-12.1898
其日甲乙其帝太皥其神勾芒	-12.1898
制上同但下	-12.1898
厥篚織	-12.1898
吳淞一江	-12.1898
子如黍粒大	-12.1898
復湖之要	-12.1898
春始生而萌之夏日至而夷之秋繩	-12.1898
東門之池可以漚	-12.1898
歸深源	-12.1898
水道相直夏至後大熱令水道錯	-12.1898
胡麻一名巨勝	-12.1898
與此相類但	-12.1898
趙過為捜粟都尉	-12.1898
澣	-12.1898
地釋即生鋤不	-12.1898
蘓頌曰	-12.1898
如種葵法	-12.1898
始終俱	-12.1898
照田起夫量工給	-12.1898
也七曰注	-12.1898
今人雷同以	-12.1898
今宻縣梁家衝山谷	-12.1898
似枸杞葉而	-12.1898
區用糞土相合内區中水調成稀泥植栽	-12.1898
千畦薑韭	-12.1898
夏官職方氏	-12.1898
已成畦畛連澆三	-12.1898
年只怕	-12.1898
是恒得	-12.1898
桑不致荒	-12.1898
煆鐵為	-12.1898
萬夫有川	-12.1898
觀城縣物産	-12.1898
雨打梅	-12.1898
髙誘注	-12.1898
黄蒸末一	-12.1898
㯠	-12.1898
則閉閘	-12.1898
尚書大傳曰	-12.1898
山栁赤而脆	-12.1898
循行積聚無有不歛	-12.1898
救飢採嫩葉煠熟水浸去邪味淘	-12.1898
日照縣物産	-12.1898
殭	-12.1898
河栁白而	-12.1898
猪牙皂角	-12.1898
竿權繩取直	-12.1898
結小青子小如粟粒	-12.1898
鄭樵通志	-12.1899
生宻縣山谷中	-12.1899
礲	-12.1899
四井為邑	-12.1899
屋下隂凉處棚	-12.1899
也三曰鑿	-12.1899
米六百石	-12.1899
不若三土以十分之二是謂	-12.1899
之江開而	-12.1899
春種欲深夏種欲淺	-12.1899
科栽之亦可	-12.1899
芬然若	-12.1899
以杉木解枋長六尺	-12.1899
以為名味苦	-12.1899
以百計而其大者	-12.1899
使之通利如	-12.1899
先耕地作壟然後散榆	-12.1899
剪薄地再剪	-12.1899
北江紅	-12.1899
性寒大寒無毒	-12.1899
炊四斗半	-12.1899
種他州子一年亦變	-12.1899
蠶必寒便添熟火	-12.1899
謂芟草	-12.1899
邊有大鋸齒又似	-12.1899
隨節早晏勿失其適	-12.1899
金銀花本草	-12.1899
凡黍穄田新開荒為上大豆底為次	-12.1899
邏	-12.19
深掘以熟糞對半和土覆其上令厚一寸	-12.19
石為俸餘半納官	-12.19
和土覆其上令厚一寸	-12.19
早種者必秋耕十月末地將凍散子勞之	-12.19
疃	-12.19
春葵子熟不均	-12.19
土力不盡	-12.19
春若遇旱秋耕之地得仰壟待	-12.19
蟊	-12.19
黍稷薿薿	-12.19
時何謂也一曰惡芻二曰中芻三曰善芻	-12.19
書經禹貢	-12.19
簌	-12.19
者下種後再勞為良	-12.19
􁖩	-12.19
一嵗再伏	-12.19
仲冬之月日短至則伐木取竹箭	-12.19
似荆葉而	-12.19
元王禎撰百榖譜	-12.19
去牢欄中積滯蓐糞	-12.19
參夕杏花盛桑椹赤可種大豆謂之上時	-12.19
季夏之月樹木方盛乃命虞人入山行木	-12.19
宻縣山野中樹髙	-12.19
廣濟渠	-12.19
有細線楞葉似	-12.19
櫈	-12.19
田欲稀薄田欲稠	-12.19
簇背鋪以蘆箔而	-12.19
芒後半月	-12.19
豝	-12.19
逐壠手下	-12.19
雜木唯有果實者及望而止	-12.19
雞兒花	-12.19
􁈱	-12.19
再轉乃佳若春夏耕	-12.19
穄踐訖即蒸而裛	-12.19
楟	-12.19
治病文具本草菜部	-12.19
以水浸漬作成黄色換水淘	-12.19
早出者根細	-12.19
結小角兒根	-12.19
兩行外相逺	-12.19
䉡	-12.19
孩	-12.19
得三輩常供好	-12.19
摙	-12.19
斗栲栳大號山	-12.19
日早晨	-12.19
矜矜兢兢	-12.19
禮記月令孟春之月禁止伐木	-12.19
鵠	-12.19
麻上花勃勃者	-12.19
七尺葉似茶葉而	-12.19
主來年水	-12.19
剪開窗紙	-12.19
晴諺云朝	-12.19
生則青熟則紅	-12.19
節其作息以養其血氣	-12.19
色葉味苦救飢採	-12.19
過十五日則果少實	-12.19
飲水然後與草則	-12.19
五月鋒八月初耩	-12.1901
詩鄘風	-12.1901
之處掘地為	-12.1901
夏至先後各	-12.1901
東作方興	-12.1901
疏此辨	-12.1901
者或穹之	-12.1901
耽	-12.1901
色加減食	-12.1901
以刺棘遮䕶	-12.1901
刀前向	-12.1901
如種麻法	-12.1901
糺	-12.1901
綻	-12.1901
蓄藏節用御欲則	-12.1901
蓊	-12.1901
䴽	-12.1901
七八寸則耘之	-12.1901
亦從其梁	-12.1901
今輝縣山野中亦有	-12.1901
勃如灰便刈	-12.1901
匏有苦葉	-12.1901
壤之地信美矣然肥沃之過	-12.1901
將種前二十許日開出水	-12.1901
峪	-12.1901
帝命率育	-12.1901
打手復不勝	-12.1901
救飢苗葉嫩時採取煠	-12.1901
樆	-12.1901
檓	-12.1901
淮南子曰草木未落	-12.1901
用線長綴通作一連	-12.1901
耕地欲熟七月初種之一	-12.1901
腑	-12.1901
􁁙	-12.1901
䔅	-12.1901
似栗而小	-12.1901
二月三月出	-12.1901
不打花繁	-12.1901
皆即濕踐	-12.1901
廕	-12.1902
堯命羲和厯象日月星辰	-12.1902
霪	-12.1902
分纒所接樹枝	-12.1902
比至收時	-12.1902
遣人督	-12.1902
不能使之貧	-12.1902
薥稭籬以禦北風畦内亂撒麥糠覆樹令	-12.1902
駛	-12.1902
鼉	-12.1902
之處水盡乾時熟耕數	-12.1902
乾濕何如	-12.1902
似荏子葉而	-12.1902
其葉味甜救飢採苗葉煠熟油鹽調食	-12.1902
北地不見此種若於附近	-12.1902
土壤氣脉其類不一肥沃磽	-12.1902
寸灰多則	-12.1902
杙	-12.1902
束大則難燥	-12.1902
治畦下水一如葵法五寸下一子少與熟	-12.1902
糞者以灰為糞令	-12.1902
詳見樹藝蓏部救飢採	-12.1902
謂有芒之種若今黄	-12.1902
雷初發聲	-12.1902
面訪學栽植甚得濟用	-12.1902
卞	-12.1902
此物長生種者一勞永逸都邑負郭所	-12.1902
椈	-12.1902
父母妻子	-12.1902
瞭	-12.1902
苘	-12.1902
方二丈四	-12.1902
姙	-12.1902
翩翩	-12.1902
擁第四次	-12.1902
麛	-12.1902
九月十月出賣	-12.1902
二十八宿	-12.1902
刈甫畢無以餬口者其能給終嵗之用乎	-12.1902
大如李核	-12.1902
案原本	-12.1902
澤中千足彘	-12.1902
讐	-12.1902
鄜	-12.1902
䓈	-12.1902
之側必置糞屋低為簷楹以避風雨飄浸	-12.1902
偕	-12.1902
冶金而為之	-12.1902
幃	-12.1902
時即出其不磨者皮	-12.1902
條下救荒本草卷	-12.1902
此其人皆與千户侯等	-12.1902
漫散而勞種不用	-12.1902
澤草所生種之芒種是也芒種有二義鄭	-12.1902
白地種二三月為上時四月上旬為中	-12.1902
致肥其瓣	-12.1902
葉攢生一處	-12.1902
鱖	-12.1902
麧	-12.1902
㾑	-12.1902
九蒸九暴	-12.1902
塗者初一中	-12.1902
種桑法五月取椹著水中即以手漬之以	-12.1902
紫芝為之使	-12.1902
陳士良	-12.1902
二月種之可為常食秋社前一二日種者	-12.1903
常食者别種	-12.1903
子雖經嵗不浥	-12.1903
早出者皮赤科堅	-12.1903
決九川距四海	-12.1903
與人膝等莖葉皆美科雖不	-12.1903
取墐土作熟泥封之如三指大長二寸使	-12.1903
欲旦起避熱時良地三	-12.1903
畔周匝小渠子深四五寸以水停之令其	-12.1903
皮肉一方片	-12.1903
穅	-12.1903
云移樹無時莫	-12.1903
四五次此可力致其常稔也	-12.1903
得早者作	-12.1903
既長茂復事薅	-12.1903
治病文具本草米穀部	-12.1903
田旱稻自種至收不過五六月其間	-12.1903
苗葉似豇豆葉肥大開淡粉紅花結角	-12.1903
若無蠶沙生	-12.1903
有胡秫早熟及麥	-12.1903
蕖	-12.1903
七月納種至四月始鋤鋤	-12.1903
葉却頗	-12.1903
棗夕棗	-12.1904
易繫辭	-12.1904
根三十石有草鋤不限徧數鋤時	-12.1904
為種者即在地中勿掘之待	-12.1904
種五石其種還用三月中掘取者逐犁後	-12.1904
凱	-12.1904
蠐	-12.1904
三分其底之徑以其一為	-12.1904
亦堪作履	-12.1904
十五年任為弓材	-12.1904
底中底而為之	-12.1904
枿生肥嫩	-12.1904
裒	-12.1904
非叢林率多曲戾不如割地一方種之其	-12.1904
一石受一石者得收十石先掘地作坑方	-12.1904
可已耶	-12.1904
地中令曲如橋十年之後便是渾成柘橋	-12.1904
旻	-12.1904
檁	-12.1904
線具機杼敬經絡	-12.1904
之周與底	-12.1904
前種者實多而成月	-12.1904
彼牽牛不以服箱	-12.1904
日畧得雨	-12.1904
糴秔稻粟豆麻子	-12.1904
行秋令則	-12.1904
鐵為管施之柱首迤而	-12.1904
如鵞毳	-12.1904
不和沙下不均	-12.1904
良熟七月種之畦種水澆一如韭法	-12.1904
菠薐作畦下種如蘿蔔法春正月二月	-12.1904
年三月取之為種計一	-12.1904
生苗訖至八月盡九月初根成中染若須	-12.1904
裁截碎木中作錐刀靶	-12.1904
二十年好作犢車材	-12.1904
洫洫注	-12.1904
溝溝注	-12.1904
澮澮注入川	-12.1904
用泥泥之不過數日纒處便合為一莖留	-12.1904
痟	-12.1904
種若荒得用鋒	-12.1904
茴香一名蘹	-12.1904
冰後水	-12.1904
可菑沙白輕土之田五月六月可菑麥田	-12.1904
河身空處每丈已得幾何方數	-12.1904
良地三轉乃佳二月三月種	-12.1905
㨿	-12.1905
踣	-12.1905
金釵糯粒長	-12.1905
其有失時行罪無疑	-12.1905
抑洪水	-12.1905
蓽	-12.1905
銖	-12.1905
以瀦畜水	-12.1905
伎	-12.1905
倅	-12.1905
樛	-12.1905
深丈以上	-12.1905
蝗之所至凡草木葉	-12.1905
二尺打去衝天心	-12.1905
似蒺藜葉	-12.1905
取水三斗三升	-12.1905
太祖高皇帝	-12.1905
寸之尺起度則	-12.1905
有備無患	-12.1905
紀歴撮要	-12.1905
其日丙丁其帝炎帝其神祝融	-12.1906
將凍耕出之	-12.1906
收條中子種者一年為獨瓣	-12.1906
鋤不鋤則科小	-12.1906
下皮即以刀刮	-12.1906
十夫有溝溝上有畛百夫有洫洫上有涂	-12.1906
囬	-12.1906
藝文志	-12.1906
虡	-12.1906
飥	-12.1906
初種水稗斥鹵	-12.1906
黄心葉味苦救飢採	-12.1906
犧	-12.1906
八月初天晴時摘葉薄布曬令乾可以染	-12.1906
譚	-12.1906
勛	-12.1906
上海縣物産	-12.1907
實穎實栗	-12.1907
彗	-12.1907
以是為差	-12.1907
卒未晴	-12.1907
呉下田家志種	-12.1907
歷	-12.1907
纓	-12.1907
爾牛來思其耳濕濕	-12.1907
畵	-12.1907
叶	-12.1907
江河井泉	-12.1907
脞	-12.1907
二月半鋤之令滿三	-12.1907
鋤一萬餘株	-12.1907
􁋲	-12.1907
南楚江沔之間	-12.1907
鑵	-12.1907
之槩之次日以後皆如之候其乾十分之	-12.1907
以滿為限	-12.1907
悲	-12.1907
秒	-12.1907
萬物因時受氣因氣發生	-12.1907
酘八斗	-12.1907
齊之厚減其	-12.1907
兩兩相對	-12.1907
點	-12.1907
蹊	-12.1907
逈	-12.1907
㣲帶黄	-12.1907
亶	-12.1907
天子乃以犬嘗稻	-12.1907
幔	-12.1907
復板閘以防淤澱	-12.1907
盡力經營水利之事	-12.1907
先薦寢廟	-12.1907
扳	-12.1907
泮	-12.1907
必薄布隂乾勿令浥	-12.1907
率七八支為一本	-12.1908
南方草木狀	-12.1908
矮脚糯	-12.1908
糅	-12.1908
抃	-12.1908
月初旬	-12.1908
貉	-12.1908
務畜菜多積聚	-12.1908
周禮天官食醫凡㑹膳食之宜	-12.1908
絮製新浣故及韋履賤好預買以備冬寒	-12.1908
農事方殷	-12.1908
厚抪莖	-12.1908
取其榦可作骨且速成	-12.1908
濓	-12.1908
鋤不過三遍	-12.1908
駐	-12.1908
元樹枝莖	-12.1909
以土壅其畔	-12.1909
劵	-12.1909
愛重之心	-12.1909
櫾	-12.1909
酲	-12.1909
葉似小桃紅葉	-12.1909
寰	-12.1909
庖	-12.1909
賂	-12.1909
攤令極冷	-12.1909
豈秧馬之類	-12.1909
寗	-12.1909
農三輔太常民皆便代田用力少而得	-12.1909
雲决渠為雨	-12.1909
匆	-12.1909
品嘗草木	-12.1909
圓深各三尺	-12.1909
豆豌豆留豆也胡豆䜶	-12.1909
貆	-12.1909
飫	-12.1909
奥	-12.1909
初産者宜煮	-12.191
以意消息	-12.191
流疏渠	-12.191
梁州厥土青黎厥田惟下上	-12.191
荆州厥土惟塗泥厥田惟下中	-12.191
縐	-12.191
陕	-12.191
人掌土化之法以物地相其宜而為之種	-12.191
河浦之水	-12.191
合鮓食成	-12.191
四日去附子以汁和蠶矢羊矢各等分撓	-12.191
山裏果	-12.191
獐	-12.1911
邕	-12.1911
矇	-12.1911
干天和	-12.1911
馬疥方	-12.1911
鬢	-12.1911
用力少而見功多	-12.1911
而就溉田	-12.1911
但紡不績	-12.1911
周與底之交	-12.1911
無主荒田	-12.1911
與牛羊相長者	-12.1911
蔨	-12.1911
姚	-12.1911
與蜜同食	-12.1911
適當盛暑	-12.1911
痿	-12.1911
小蒜六月七月可種小蒜八月可種大蒜	-12.1911
耻	-12.1911
艽	-12.1911
麥殿今	-12.1911
仭	-12.1911
笳	-12.1912
洱海之旱	-12.1912
袖	-12.1912
屢頒諭㫖	-12.1912
河南山西陜西	-12.1912
窈	-12.1912
啞	-12.1912
未青而出者肉	-12.1912
闓	-12.1912
翼城縣物産	-12.1912
之惡而肥	-12.1912
嵗或不登	-12.1912
癤	-12.1912
簮	-12.1912
蕣	-12.1912
酇	-12.1912
籓	-12.1912
碡	-12.1913
嶲	-12.1913
候米消	-12.1913
巔	-12.1913
钃	-12.1913
天地之間悉無空際	-12.1913
燧	-12.1913
螳	-12.1913
色黄而味	-12.1913
召民為役	-12.1913
巡按御史	-12.1913
偉	-12.1913
撇	-12.1913
郝	-12.1913
又神宗	-12.1913
瀑	-12.1913
脛	-12.1913
萪	-12.1913
黑龍江	-12.1913
泰安州物産	-12.1913
用臘雪水浸過	-12.1913
餈	-12.1913
仲秋之月乃	-12.1914
莉	-12.1914
六月命女工織縑練	-12.1914
惹	-12.1914
驒	-12.1914
主來年旱	-12.1915
睦	-12.1915
字林云	-12.1915
恤民隐	-12.1915
逡	-12.1915
雍正九年	-12.1915
抗	-12.1915
醯	-12.1915
簫	-12.1915
衲	-12.1915
不恤農	-12.1915
清異録	-12.1916
蘺	-12.1916
農餘蔬	-12.1916
殽	-12.1916
鵙	-12.1916
泥裏變	-12.1916
隩	-12.1916
七日更酘用米	-12.1916
燖	-12.1916
自西而東	-12.1916
三日太史謁之天子曰某日立	-12.1916
欇	-12.1916
尺有六寸	-12.1916
色斑粒	-12.1916
麥之屬大麥有	-12.1916
中多著冷水	-12.1917
杠	-12.1917
三夏之月	-12.1917
天子乃齊立	-12.1917
撣	-12.1917
又是月也以立	-12.1917
泉一名羊	-12.1917
煗	-12.1918
互輸寫之	-12.1918
八九十月放而不飼所有糟糠則畜待	-12.1918
㐫	-12.1918
中底之坎	-12.1918
二十日尚可種戴甲而生不用深耕大豆	-12.1918
衿	-12.1918
鹽和糝	-12.1918
合聚萬物而索饗之也	-12.1918
以萬夫耕者授以萬夫之田為萬夫之長	-12.1918
恚	-12.1918
艘	-12.1919
徊	-12.1919
杳	-12.1919
深築堅實	-12.1919
眩	-12.1919
開碎白花	-12.1919
塢	-12.1919
多不犍	-12.1919
雲半夜	-12.1919
北朝鮮冽水之間謂之	-12.192
先用地工	-12.192
騧	-12.192
粒我烝民	-12.192
鳴鳩拂其羽	-12.192
漢和帝時任城	-12.192
黍或三四實實二米得黍三斛八斗	-12.192
滕	-12.192
蛇牀子	-12.192
豢	-12.192
峒	-12.192
䩕	-12.192
莜	-12.192
間者中三間兩傍各	-12.192
丁丙戊	-12.192
訝	-12.192
門冬或名	-12.192
寵	-12.1921
昔無今有	-12.1921
薿	-12.1921
犉	-12.1921
也海潮日至	-12.1921
蠢	-12.1922
謳	-12.1922
悵	-12.1922
星之中殷仲	-12.1922
春秋佐助期	-12.1922
秫稻法一切同	-12.1922
隧	-12.1922
宋臣范仲淹	-12.1922
翺	-12.1923
陳夏千	-12.1923
衙	-12.1923
梣	-12.1923
簵	-12.1923
皷	-12.1923
州古冀州昴畢分野	-12.1923
府古幽州尾箕分野	-12.1923
戩	-12.1923
運糧河	-12.1923
蘸	-12.1924
鄘	-12.1924
牘	-12.1925
暍	-12.1925
涖	-12.1925
祈穀于上帝	-12.1925
不易一易再易之	-12.1925
劾	-12.1925
狡	-12.1925
酎	-12.1925
洳	-12.1925
風日所乾	-12.1925
盛其精者精粗各適所受不可易也	-12.1925
咼	-12.1926
愽物志	-12.1926
延津縣物産	-12.1926
倮	-12.1926
摺	-12.1926
讟	-12.1926
洺	-12.1926
堦	-12.1927
玲	-12.1927
亦籮屬比籮稍匾而	-12.1927
櫠	-12.1927
金黄花結	-12.1927
率以此加	-12.1927
詘	-12.1927
各再拜	-12.1927
一月而罷用米	-12.1927
為之竇以	-12.1927
璫	-12.1927
冕	-12.1927
霰	-12.1927
大江長淮	-12.1927
昉	-12.1928
鬲	-12.1929
譴	-12.1929
譏	-12.1929
以趨規	-12.1929
復杵之或碪之	-12.1929
雞毛菜	-12.1929
禮儀志	-12.1929
曙	-12.1929
名剪金	-12.193
為民請命	-12.193
墊之而灌之如法作之	-12.193
㑭	-12.1931
羣鳥養羞	-12.1931
發源山西	-12.1931
之之劑也	-12.1931
榱	-12.1931
呪	-12.1932
葐	-12.1932
㹠	-12.1933
狥	-12.1933
世祖章皇帝	-12.1933
即下瓠子十顆復以前糞覆之既生長二	-12.1933
甑中蒸	-12.1933
布政使	-12.1934
山野中科苗	-12.1934
七十二候之	-12.1934
癡	-12.1934
賚	-12.1934
瘤	-12.1934
行耕耤之禮	-12.1934
則熟之難	-12.1934
至某村	-12.1934
葡萄哈蜜	-12.1934
扎	-12.1935
葉煠熟水浸去苦味淘洗淨油鹽調食	-12.1935
霄	-12.1935
月令廣義	-12.1936
開封府	-12.1936
謐	-12.1936
儈	-12.1936
白皷釘	-12.1936
對生開白花結子	-12.1937
寒不得衣	-12.1937
婚	-12.1937
又河内曰冀州其	-12.1938
早江西早	-12.1938
􁁟	-12.1938
駱	-12.1938
乾隆二年	-12.1938
宸	-12.1938
丹陛樂作	-12.1938
籺	-12.194
兢兢	-12.194
沬	-12.194
幄	-12.194
稹	-12.194
家三百畝	-12.194
今虎豆	-12.194
霆	-12.194
贅	-12.194
穂長一尺	-12.1941
冉冉	-12.1941
通志雍正五年	-12.1941
剪刀股	-12.1942
巽	-12.1943
豆虎爪豆	-12.1943
耕第二十	-12.1943
孱	-12.1944
慨	-12.1944
盾	-12.1945
又紹興二十	-12.1945
救飢二三月采熟食	-12.1945
𬞞	-12.1945
于土圭謂之日	-12.1945
是地于日為近	-12.1945
桴	-12.1947
各去土幾何尺	-12.1947
溯	-12.1947
兢	-12.1948
耑	-12.1948
户部堂官	-12.1948
下弇則	-12.1949
酤	-12.1949
芊芊	-12.195
荵	-12.195
雒	-12.1951
虜	-12.1954
㵸	-12.1954
䅽	-12.1958
醲	-12.1959
愍	-12.196
炷	-12.1962
􁣊	-12.1962
莆	-12.1963
行耕耤禮親祭先農壇	-12.1965
粔	-12.1966
㪚	-12.1968
活字板	-12.197
邍	-12.197
僧衣豆	-12.1973
汧	-12.1974
黏䑕牙黏	-12.1976
皆可漸而行也	-12.1981
茂故須取	-12.1989
取白色根	-12.1991
節可種薄田秋分種中田後十日種美田	-12.1992
縣禾一莖九穂	-12.201
農餘門蔬	-12.2016
農餘門果	-12.2019
里而遥	-12.2027
古百粤地翼軫分野	-12.2036
苦救飢採嫩葉煠熟換水浸去苦味	-12.2087
之五年之後便堪作椽不梜者即可斫賣	-12.2089
天旱燥時溲之立乾薄布數撓令	-12.2102
救飢三月采	-12.2131
救飢採葉煠熟換水浸淘	-12.2318
春秋曰果之美者	-12.2372
樹生宻縣梁家衝山谷中樹髙	-12.2523
州里有千頭木奴不責汝衣食嵗上一	-12.2923
凡栽樹訖皆不用手捉及六畜	-12.2956
觝	-12.2982
糯白殻糯	-12.3255
還味短味也	-12.3348
葉煠熟換水浸去辣味	-12.3529
榦可作骨取	-12.3636
人車之接輪齒	-12.3679
葉味甘救飢採嫩苗葉煠熟水浸淘	-12.3837
㣲苦食法採嫩苗葉煠熟水浸	-12.4037
救飢採嫩芽葉煠熟換水浸去苦味淘洗	-12.428
味苦性平無毒食法採嫩葉煠熟	-12.431
後為佳遇小雨宜接濕種遇大雨待薉生	-12.467
衡軸者所以挈雙提	-12.4766
鐶	-12.4831
嫩葉煠熟換水浸去苦味	-12.4968
救飢採苗葉煠熟水淘浄油鹽調食	-12.4975
澄清㵼去	-12.5
月晦日晩	-12.5069
為粃是故其耨也長其兄而去其弟	-12.507
二月榆莢成及青	-12.5075
䴷	-12.5089
三升擲三日之	-12.5092
尺葉似地棠	-12.5093
琦	-12.5171
省婦使以勸蠶事	-12.5172
鱣	-12.5177
結子如菉豆大	-12.5177
睷	-12.5178
支河港蕩淤淺	-12.5181
及熱與鹽酢	-12.5183
縢	-12.5183
如水下岸淺	-12.5183
欽定授時通考	-12.5184
汁出去半殻	-12.5188
蓖	-12.5188
以板為級上用木槽引水直下射轉	-12.519
不違農時榖不可勝食	-12.5192
輪板名曰斗碓又曰	-12.5192
府古冀州觜參分野	-12.5192
大穬二麥	-12.5192
甓	-12.5194
厚一寸三百里三寸千里耳欲得小而前	-12.5195
名曰承泣不利人目中五采盡具五百里	-12.5195
氣也材知多白骨氣也材多	-12.5195
也果之一生者質小而味惡既一接之	-12.5195
使不為後日之患	-12.5196
及乾以待冬月也	-12.5196
市大兇馬也馬眼欲得	-12.5196
收利必倍	-12.5196
種非連雨不生所以不同春月要求濕	-12.5196
却視有態畏物喜驚馬耳欲得相近而前	-12.5197
眠起不齊由	-12.5197
者善奔傷人目下有横毛不利人目	-12.5197
良植者駑小而長者亦駑耳欲得小而促	-12.5197
云筍皆四月生唯	-12.5197
寓氏公主	-12.5197
酒及食又可米	-12.5197
得端正骨欲得成三角睛欲得如懸鈴紫	-12.5197
白從額上入口名俞膺一名的顱奴	-12.5197
㮕	-12.5197
暹	-12.5198
遘	-12.5198
上下徹者千里目中白縷者老馬子目赤	-12.5198
文如王火字欲得明鼻上文如王公五十	-12.5198
為齒齊民要術謂之	-12.5198
生田野間其苗初搨地生後分莖	-12.5198
竹笋八月生盡九月成都有之	-12.5198
人目下而多白畏驚瞳子前後肉不滿皆	-12.5198
惡若旋毛眼眶上	-12.5198
目中縷貫瞳子者五百里下上徹者千里	-12.5198
物産紅稻白稻	-12.5198
又次則理	-12.5199
寸硬如石下欲深而明其後開如鷂翼能	-12.5199
詔立大司農司不治他事	-12.52
各鑿方竅以	-12.52
繭館皇后親蠶之所古公桑蠶室也	-12.52
頭不時跂足閃去所擁草木根	-12.52
蠣	-12.52
遄	-12.52
鼕	-12.52
州府古徐兖二州奎婁分野	-12.52
欲開能走膝欲方而	-12.52
股欲薄而	-12.52
勿令六畜入園二月食淡竹	-12.52
如火四十	-12.5201
約四寸兩桯相離五寸許其桯上相間	-12.5201
溉田數頃此一水輪可供數事其利甚博	-12.5201
輪相發也疾徐之數與他輪相視者如乙	-12.5201
帝制作衣裳因此始也	-12.5202
蠶經云黄帝元妃西陵氏始蠶	-12.5202
挐	-12.5202
是明年之花房	-12.5202
三條女尚書跪曰可止執筐者以桑授蠶	-12.5202
䄮	-12.5202
北郊遵周典也晉武帝太康中立蠶	-12.5202
天下先元帝王皇后	-12.5202
服景帝詔后親桑	-12.5202
桑適金室前漢文帝紀詔皇后親桑以奉	-12.5202
箑而卧軸為之轉接輪與	-12.5202
不敢慢易絶其妄殺憫其羸瘠豐其	-12.5203
之本故也若為民牧者當先知愛重祈報	-12.5203
春耕秋穡	-12.5203
西京雜記	-12.5203
王仲丘	-12.5204
東陽縣志	-12.5204
鮎	-12.5204
農司諸公又慮夫	-12.5204
熟時少有人馬傷踐以此校之甚宜多種	-12.5204
鼻如水文二十	-12.5204
􁝿	-12.5204
后親桑循晉禮也北齊置蠶宫皇后躬桑	-12.5204
君子所其無逸	-12.5204
夫人桑明帝時皇后	-12.5204
環以繩約之而塗之齊與劑同合以塗	-12.5204
一端有接輪卧軸之上有	-12.5204
人力畜力風力	-12.5204
今汲用之家必有轆轤為綆設也	-12.5204
外鳬臨	-12.5204
太后幸繭館率皇后及列	-12.5204
弃	-12.5204
慱物志曰	-12.5204
立輪立輪之外有受水之箑也今	-12.5204
者當在甲乙丙矣用水力當在戊	-12.5204
者軸與樞當受轂之處也辰入樞之空也	-12.5204
至亦未繘井方言繘自	-12.5204
距骨欲出前間骨欲出前後	-12.5204
輪即以卧輪之接輪交	-12.5204
郭璞云汲水索也易卦云汔	-12.5204
菊葉而瘦細	-12.5205
牧潔其欄牢則無不字育蕃息	-12.5205
種不失足致豐盈此誠善政務本之意也	-12.5205
是也若兩中環者則在尾與箕也或不用	-12.5205
環之束在兩端者與木環相抵卯午也	-12.5205
脣欲得緩上脣欲得方下脣欲得厚而多	-12.5205
一端有接輪卧軸之上有拐木也今	-12.5205
乙輪以其一交	-12.5205
任氏獨窖倉粟楚漢相拒滎陽民不得耕	-12.5205
入六七日許當大	-12.5205
兩端皆有接輪今以其一交	-12.5205
東井井之水人所汲用缶楊惲	-12.5205
磨木齒此磨既轉其齒復傍打帶齒二磨	-12.5205
者甲與庚是也若車大而軸長出水之地	-12.5205
亦可但不如冷盆所繰	-12.5205
最為𦂳要	-12.5206
步百為畝	-12.5206
一石艾一把藏以瓦器竹器順時種之則	-12.5206
勸以致生不滋盛價失	-12.5206
平田野小民嵗多租賃以	-12.5206
拉	-12.5206
四曰墳衍	-12.5206
邵陽縣食貨	-12.5206
乙輪即以卧軸之接輪交	-12.5206
晉起居注	-12.5206
置布於上以灰飲汁如作米粉法汁盡	-12.5206
虇	-12.5206
髙可三尺許廣可四尺上有横柄下有列	-12.5206
黄魯桑不耐	-12.5206
本篇四圖之	-12.5206
之以夏至前十日下子亦鋤兩	-12.5207
五行書曰欲知蠶善惡常以三月三日天	-12.5207
可採韭花	-12.5207
如無日不見雨蠶大善	-12.5207
細弱不堪留者即去却	-12.5207
鏁	-12.5207
七置者因地勢也量物力也相大小而制	-12.5207
兩端者丙與戊是也在軸之兩端者乙與	-12.5207
則用之是者暑日架之則以苫蓋之水入	-12.5207
即日以水淘取子曬燥仍畦種	-12.5207
暑日也為下而欲速成則用之欲解而時	-12.5207
暖知時開掯得法使之莫有先後	-12.5207
桃性易種難栽若離本	-12.5207
齒多則其出水也必疾矣故曰輪者所以	-12.5207
作神而化之使民宜之故謂之神農典語	-12.5207
土相其宜以為之種	-12.5207
大如梳掌於日中曝	-12.5207
宜中列三輪各打大磨一槃磨	-12.5207
攙	-12.5207
旱則畦種水澆五月熟而收子	-12.5207
瓮内收藏至第三日	-12.5207
田家作苦嵗時伏臘烹羊炰羔斗酒自勞	-12.5207
舒捲提掇	-12.5207
酒後耳熱仰天	-12.5207
隨之也提柱之降也實取者挹水而升	-12.5207
水法附餘	-12.5208
礰	-12.5208
如將自轉	-12.5208
挶	-12.5208
種三十餘畦	-12.5208
亢之間是也雖下向必入者以迤故水趨	-12.5208
常薅令淨明年正月移而栽之	-12.5208
者孔在環之内軸之外四柱之中	-12.5208
之端或居外或居内為刻而受之如為溝	-12.5208
則徒勞無益矣凡地除種麥外並宜秋耕	-12.5208
同類而異	-12.5208
木座座	-12.5208
欲其密切而	-12.5208
欺地則所種不失其時人欺苗則省力易	-12.5208
氣盡而水繼之	-12.5208
煙熏黄樂婢青平夀黄鹿橛白鹺折	-12.5208
糞草蓋至	-12.5208
芓	-12.5208
首如木椎柄長四尺可以平田疇擊塊	-12.5208
師古曰庸功也言換功	-12.5208
為槽可貯水斗餘上	-12.5208
熖	-12.5208
亦遶大樹掘坑取栽移	-12.5209
一同葵法及水散子訖水盡簁熟糞僅得	-12.5209
之開圍板之下端而水入之開上端之圓	-12.5209
圍也既其出則在卯寅辰午之間矣一法	-12.5209
地不厭良薄即糞之鋤不厭	-12.5209
摇	-12.5209
不實者曬令水脉才乾種乃易生	-12.5209
之法而架之而升降之	-12.5209
制與陸轉連磨不同	-12.5209
寅盤足也若欲為雙升之車則雙筩焉如	-12.5209
掌撥掌撥則折	-12.5209
栽如桃李法林檎樹以正月二月中	-12.5209
次日水淘去輕	-12.5209
焉氣盡而水繼之故曰衡者所以挈提柱	-12.5209
皇后親桑	-12.5209
種之時先以柴灰淹	-12.5209
與平地無差不爾者土堅澤流長物	-12.5209
作也義亦與庸賃同	-12.5209
及也澤雨	-12.5209
槽水滿則後重而前起水	-12.5209
民或苦少牛亡以	-12.5209
舂也凡所居之地間	-12.5209
十月收蕪菁訖時收蜀芥	-12.5209
榠	-12.5209
諾	-12.5209
夜須受露氣	-12.521
晝日不用見日	-12.521
柴空隙處築得極實	-12.521
樹栽二年之上	-12.521
傷屋又熟火不能	-12.521
入水中不用停久㝷	-12.521
其間但有芽葉不旺者	-12.521
勤者務焉	-12.521
如本篇三圖之卯寅辰午等是也環以堅	-12.521
存七糶三	-12.521
康熈五十	-12.521
早田淨而易治	-12.521
梨枝僅得出頭以土壅四畔當	-12.521
樹三升無蠶矢以溷中熟糞糞之	-12.521
此升則彼降用力一而得水二也是倍利	-12.521
糞柴相間	-12.521
賅	-12.521
車成筩子	-12.521
酉亥之間為正方之空夾筩而	-12.521
金裹銀銀裹金	-12.521
黄張蟻白耿虎黄都	-12.521
乃自上流用筧	-12.521
井為邑邑方二里三十六夫	-12.521
以厦槽在厦	-12.521
則後輕而前落即為一舂如此晝夜不止	-12.521
可選低處置碓一區一如常碓之制但前	-12.521
多柰家以為脯數十百斛以為蓄積如	-12.521
宜春分前後十日	-12.521
法意狀也	-12.521
不出為上若有先出者	-12.521
之木為四弧弧各加	-12.521
也恒升者一升一降而得水一也架法見	-12.521
五葉攢生	-12.521
亦得然俱下者杜死則不生	-12.521
以硬木貼樹身去地半指一斧截	-12.521
八月上戊社前為上時	-12.521
勢量物力相大小而制徐疾焉今圖樞輪	-12.521
后王氏乾元二年皇后張氏並見親蠶禮	-12.521
大抵秋耕宜早春耕宜遲秋耕宜早者	-12.521
房中或棚下	-12.521
曰力一水二者一升一降各得水一焉無	-12.521
杜頭封熟泥於上以土培覆	-12.521
比及霖雨以來芽條	-12.521
比常韭易利數倍	-12.521
濕種者疥而不	-12.521
為土盆雨則可聚旱則可澆樹南春先種	-12.521
牛室門朝陽者宜之	-12.521
筩之下端為	-12.521
築以土封瘢比及地凍於上約量添糞春	-12.521
糝土封其樹瘢樹南種黍五七粒十餘日	-12.521
而收並薄	-12.521
良故墟彌善薄即糞之不	-12.521
較之南方以鎌刈者其速十倍	-12.521
錛	-12.521
丑卯辰筩上端也午管也餘見	-12.5211
之孔之徑盤之下為鼎足而置之井	-12.5211
每石量收	-12.5211
爾雅曰旄冬桃	-12.5211
取葉者皆七月半種地欲糞熟	-12.5211
晝日箔蓋夜	-12.5211
以民生為念	-12.5211
又有不觚稜混而圓者謂混軸俱用畜力	-12.5211
曰女執懿筐	-12.5211
土性所宜因隨氣化所以	-12.5211
張文謙	-12.5211
柱各髙五尺中穿横桄上架枋木其枋木	-12.5211
樲	-12.5211
種訖拖瓶擺之或以輕鈍碾過秋深子熟	-12.5211
約蠶生前七八日糞	-12.5211
蓌	-12.5211
阬周圍塼坯接壘	-12.5211
阬滿上復用糞厚	-12.5211
三月上旬傍雨種之麻生布葉鋤之率九	-12.5211
上俱用杖頭	-12.5211
中為鹹淡二	-12.5211
之圓外面者圍既合而削之當	-12.5211
出芽條旱則頻澆立夏之後不宜此法	-12.5211
十餘比之全樹栽者樹樹必活桑亦榮茂	-12.5211
室聞之老農云牛室内外必事塗塈以備	-12.5211
寒至是故明君貴五	-12.5211
就作地桑或削去細條存留	-12.5211
惟五月十三日謂之竹醉日又謂	-12.5211
曵重撻夏種欲淺直置自生	-12.5211
枝次年便可成樹或是就壓傍條一樹又	-12.5211
火内燒棗一二枚先將蠶	-12.5211
獸既氄毛率多穴處獨牛依人	-12.5211
皆得長八九寸長澤民家盡養黄苦竹永	-12.5211
秋末成可收蓬於	-12.5211
移連入蠶房就地一箔上單鋪少間	-12.5211
而菜多一畦供一口	-12.5211
之日為竹又曰	-12.5211
也庚辛壬癸山口之木也寅提柱也綴之	-12.5211
倉受之京	-12.5211
兩斛日省二工以嵗月積之知非小利	-12.5211
本篇三圖之甲乙衡也丙丁兩石重也戊	-12.5211
法有五水畜第一水畜所謂魚池也以六	-12.5211
為筍旬外為竹也	-12.5211
陸佃云字從	-12.5211
靭	-12.5211
候大蠶入簇以杖擊其枝間振去狂花	-12.5212
則子萎而落	-12.5212
易為破爛及碾捍	-12.5212
以來盛資龍骨龍骨之制日灌水田二十	-12.5212
大澤平曠而用風此不勞人力自轉矣枝	-12.5212
於螺旋之孔	-12.5212
治火倉屋當中掘一阬	-12.5212
久愈茂而無荒廢枯	-12.5212
五十石及百石薄田尚三十石	-12.5212
冬天多風	-12.5212
十貫莢葉	-12.5212
命宫中食蠶親自臨視宋開寳通禮郊祀	-12.5212
春多風旱非畦不得且畦者	-12.5212
梨枝陽中者	-12.5212
歴代后妃親蠶之事采之史編昭然可見	-12.5212
煮極熟食之	-12.5212
萬束一束三	-12.5212
葖蘆萉	-12.5212
二實足供美燭之費也	-12.5212
兩旁支港	-12.5212
凡五榖地畔近道者多為六畜所犯	-12.5212
取諸乾坤	-12.5212
同按圖視譜當自考索羅因水力互擊	-12.5212
四五尺葉似杵𤓰葉	-12.5212
季春之月具曲植	-12.5212
小口而大腹竇小孔穴也故名竇	-12.5212
廣而合之則角見也其内面稍刳之以就	-12.5212
採筍之法視其叢中斜	-12.5212
日出後掘深土取之半折取鞭根旋得投	-12.5212
李悝平糶	-12.5212
為井井方一里九夫	-12.5212
箔上已後節節病生多因此弊今後比及	-12.5212
紅色結小細子根如蒿根苗葉味苦性平	-12.5212
羅隨水磨用之其機與水排	-12.5212
除大寒時分不能移栽其餘月分皆可	-12.5212
頻飼一時辰約飼四頓一晝夜通飼四十	-12.5212
收麥如救火	-12.5213
僱	-12.5213
糯苦株糯	-12.5213
毋治堰毋誅草毋沃	-12.5213
灰毋室入外人四者神實惡之	-12.5213
半赤而收者肉未充	-12.5213
綃	-12.5213
出焉治水之法淺涸則挈水而入方舟焉	-12.5213
即兹器所在不為無功已獨其人終	-12.5213
收多晚熟者苗	-12.5213
濬則挈水而出畚鍤焉不有水之器不	-12.5213
而南土水田支分櫛比國計民生于焉是	-12.5213
若仍處糞中	-12.5213
人下掘或旁穿出土轉	-12.5213
凡糞種騂剛用牛赤緹用羊墳壤用麋	-12.5213
四角或六角臂通長一尺五寸	-12.5213
得少食以接氣血也以後者方眠勒其食	-12.5213
桑蠶直説	-12.5213
條當春不宜科科了	-12.5213
機骨欲舉上曲如懸匡馬頭	-12.5213
次年正月科則不	-12.5213
竇似窖月令曰穿竇窖	-12.5213
端為可惜故蠶經云眠起	-12.5213
細碎乾牛糞阬底上鋪攤一層厚三四指	-12.5213
締	-12.5213
與盆齊軸長二尺中徑四寸兩頭三寸	-12.5213
西京雜記曰紫柰	-12.5213
赶	-12.5213
長燥鎮則	-12.5213
青皮傷即死	-12.5213
頻飼以督其後者使之相及而各取其齊	-12.5213
黄白軟良之地青沙地亦善開荒黍穄下	-12.5213
齊與劑同	-12.5213
中容一甸甸方八里	-12.5213
于螺旋之孔	-12.5213
亦大開淡粉紫花結角似家豌豆角但秕	-12.5213
以油單覆之勿令見風風吹則堅筍味甘	-12.5213
以蜀川者為	-12.5213
傳曰農夫之務去草也芟夷	-12.5213
其長酌全體之重輕而制厚薄焉其長竟	-12.5213
寧軍禾二	-12.5213
崇之絶其本根勿使能殖則善者信	-12.5213
為環而約之長者中分圍之長以	-12.5213
生當匀鋪蓐草	-12.5213
絖	-12.5213
與薑能殺其毒	-12.5213
葉而闊大又	-12.5213
謂葉必萎黄又	-12.5213
開黄花結子如豆粒大色青白葉味苦	-12.5213
食品之中最為珍貴故禮云加豆之實筍	-12.5213
魚醢詩云其	-12.5213
􁢖	-12.5213
廧	-12.5214
其生小隂中者少	-12.5214
擺拖挽之患後中心枝既	-12.5214
拄	-12.5214
雜隂陽書曰禾生於棗或楊	-12.5214
勞逸萬倍	-12.5214
之動而蹂之則眠	-12.5214
以茅裹不則	-12.5214
以餓又必待後者動起而飼之多病少絲	-12.5214
任令滋長休科去新	-12.5214
坑中下竹栽以土覆之杵築定勿令脚踏	-12.5214
大也為蛹為蛾則變之尤大而至	-12.5214
大小隨人所欲將園内地耕	-12.5214
大而細理杜次之桑	-12.5214
張方橋東堰	-12.5214
所以然者木裂	-12.5214
數年不旺十二月内或	-12.5214
水陸異用亦各	-12.5214
營田須量己力寧可少好不可多惡	-12.5214
生如馬耳則鏃鋤	-12.5214
生生亦不茂桃	-12.5214
眺	-12.5214
石恐本用石也然北方多以石南人用木	-12.5214
種子人功之費不慮水旱風蟲之災比之	-12.5214
苵	-12.5214
萉	-12.5214
著即枯死月庵種竹法深	-12.5214
間草泥使之溷溺則田可精熟既勝	-12.5214
􁕺	-12.5214
一里治洫	-12.5214
其廣一寸以上視圍徑之小大	-12.5214
其收倍薄	-12.5214
分勒績條轉	-12.5214
别窖北地土厚皆宜作此江淮	-12.5214
則不匀非匀則偏食然葉	-12.5214
務在充飽調適而已	-12.5214
嬰兒小時失乳後必羸弱病生	-12.5214
復時可至四十九頓第二日飼至三十頓	-12.5214
斛先投柴棘燒令其土焦燥然後周以糠	-12.5214
洌	-12.5214
溝之水皆有所歸不至溢出而田禾無淹	-12.5214
濩	-12.5214
稀連必頻移生盡之後再秤空連便知蠶	-12.5214
蓷	-12.5214
辛卯管也辰午未申之屬環也環之多寡	-12.5214
須䕃可頻	-12.5214
風蟲水旱十年之内儉居五六安可不預	-12.5214
魯桑可移為地桑	-12.5214
塸	-12.5215
冬則死故須春種	-12.5215
奄	-12.5215
赤白紫烏堅鬆香否	-12.5215
凡蕎麥五月耕	-12.5215
特發帑金	-12.5215
府古冀州昴畢分野	-12.5215
直省志書	-12.5215
諭大學士伊桑阿	-12.5215
千口所留之	-12.5215
名桂荏	-12.5215
閈	-12.5215
黴	-12.5215
十株比至嫁娶悉任車轂一樹三具一具	-12.5215
屠	-12.5215
得米較之碢輾疾過數倍故比	-12.5215
用江河之水為器一種龍尾車記	-12.5215
絁	-12.5215
鳴鑼一聲	-12.5215
鷙鳥之尤者人皆便之	-12.5215
龍尾車者河	-12.5215
令四畔溝洫通水	-12.5215
列遶八磨輪輻	-12.5215
别作小坑貯藍澱著坑中候如强粥還出	-12.5215
周禮大司徒以土㑹之法辨五地之物生	-12.5215
外有列齒獨用於水田破塊滓溷泥塗也	-12.5215
夜人行誤陷	-12.5215
建寅之月	-12.5215
截則地氣難應須以細齒鋸截鋸齒	-12.5215
所耘田數日復兼倍	-12.5215
柄長五尺餘耘田之際農人執之推盪禾	-12.5215
桀	-12.5215
梵書名	-12.5215
煠熟水浸作成黄色淘去涎沫油鹽調食	-12.5215
用胡麻油兩分	-12.5215
田一頃能自染青者其利又倍矣	-12.5215
甾	-12.5215
砧可無厚無厚則輕餘見玉衡篇三曰衡	-12.5215
礲糠亦得夏月稀冬月稠然後種竹	-12.5215
糯佛手糯	-12.5215
結嘴不食而眠如人之大病周身之	-12.5215
臣為副使	-12.5215
鐺中即以浸香酒和之煎數沸後便緩火	-12.5215
一定不移	-12.5215
不勤思慮不用而	-12.5215
之上也皆合之以塗	-12.5215
之利其潤益又過	-12.5215
九頓或三十六頓懶者頗疑煩冗予曰新	-12.5215
也欲無罅	-12.5215
以受雨露也圍其合也欲無罅圍之合	-12.5215
以鋸子割所患蹄頭前正當中斜割之	-12.5215
似王不留行子味辛苦性	-12.5215
别有素柰朱柰	-12.5215
取之柱實取之柱其砧入	-12.5215
取生熟正得即	-12.5215
圍故水入螺旋之孔而不絶無罅故水行	-12.5215
大雨不待白背濕轆則令苗	-12.5215
孔等孔之上為之舌以掩之舌之制如筩	-12.5215
孔融論水碓之巧勝於聖人	-12.5215
峻土厚處或宜倣之	-12.5215
州禾一莖八穂	-12.5215
性易凋零	-12.5215
有酥酪之饒毛堪酒袋兼	-12.5215
木掘地則翻車之類愈出	-12.5215
水而升降焉其長之度下及	-12.5215
煻	-12.5215
燥此菜非雨	-12.5215
生刺䕷花葉而小枝梗色紅有刺似棘針	-12.5215
白骨交横知	-12.5215
種大小麥先㽟逐	-12.5215
窖上栽樹大至合抱内若變	-12.5215
綉毬花	-12.5215
而不種坐致泯滅悲夫	-12.5215
耕百人食之一婦桑百人衣之以一奉百	-12.5215
諺曰旦起騎榖日中騎	-12.5215
迎貓迎虎	-12.5215
銅以為砧圜者中規方者中矩砧之大入	-12.5215
長一用短用長者為實取之柱用短者為	-12.5215
長以兩環約之圍之版其相合也與其合	-12.5215
壟下薑一	-12.5216
筍四月五月食苦竹筍	-12.5216
此果根不浮	-12.5216
救飢採嫩苗葉煠熟水浸去苦味淘	-12.5216
撼而落之為上	-12.5216
者因留之以為種惡者還賣不	-12.5216
圓轉作竅下	-12.5216
挈水之器也	-12.5216
一枝弱者所接樹選其向陽細嫩枝如筯	-12.5216
一筐可飼一箔	-12.5216
之儲莫不各節其用以濟凶乏此固知堯	-12.5216
之用餘多者倉箱之富餘少者儋	-12.5216
以相民宅而知其利害以阜人民以	-12.5216
其屋乾透其壁皆	-12.5216
十月内並為上時春分前後以及發生	-12.5216
即去地七八寸截之若砧小而	-12.5216
即損其砧皮取快刀子於砧	-12.5216
宻泥勿使風入漏氣過立秋然後開	-12.5216
得錢一百二十五萬至明年	-12.5216
於園内稀種	-12.5216
淹一沸即漉出盆研之生布絞取濃汁	-12.5216
稻收割畢將田鋤成行	-12.5216
第三頓如第一頓	-12.5216
與各磨木齒相	-12.5216
花隨便結實	-12.5216
饀	-12.5216
上則不生蟲若氊多無	-12.5216
上端穿其碢榦水激則碢隨輪轉循槽轢	-12.5216
九夫為井井間廣四尺深四尺謂之溝	-12.5216
也初則置立水磨變麥作	-12.5216
今云酌物	-12.5216
似檀樹葉	-12.5216
假令十日二十日未出者亦勿	-12.5216
假此以便其事幸毋忽諸	-12.5216
其枝須兩節兼須是二年枝方可接接時	-12.5216
其柄此南俗蠶法北方箔簇頗大臂指間	-12.5216
其熟也欲相扶	-12.5216
其處至蠶老歸簇或稀宻不倫亦用均布	-12.5216
匡斬翅荆樓土窠一	-12.5216
寸旁行相去亦五寸一溝容四十四株一	-12.5216
岸擗水激	-12.5216
性不耐寒早鉸寒則凍死	-12.5216
惟小鋤之為良	-12.5216
房屋椽箔人力柴薪俱各不給因而兩失	-12.5216
折根一名軹	-12.5216
掛時須蠶子向外恐有風磨損其子	-12.5216
春雨難期必須藉澤蹉跎失機則不得矣	-12.5216
材其味甘而不熱頗	-12.5216
樞之頂心為度次去乙	-12.5216
機碓水搗器也通俗文云水碓曰翻車碓	-12.5216
法三月初取枝大如手大指者斬令長一	-12.5216
灰入五月中羅	-12.5216
無雨時至便可下種	-12.5216
然後於壍中種蒔保澤	-12.5216
生者多易為	-12.5216
生輝縣太行山山谷中其樹	-12.5216
瘡處數度即	-12.5216
種禾黍於溝間夾溝為兩行去溝兩	-12.5216
第三日飼至二十餘頓	-12.5216
細為全功	-12.5216
耐旱且便於撮鋤今燕趙間多用之	-12.5216
耙梃之間用條木編之以摩田也耕者	-12.5216
葉似白槿樹葉	-12.5216
著切見世人耕了仰著土塊並待孟春	-12.5216
記禮者曰	-12.5216
謂水轉輪軸可兼三事磨礱	-12.5216
農家種之亦廣人俱作豆粥豆飯或作餌	-12.5216
釜要大置	-12.5216
銅鐺中攪令黄白相雜細擘	-12.5216
鐵條子串筒兩	-12.5216
開粉紅花結子似胡麻子葉味苦	-12.5216
閣置蟲亦不生如其不爾無不生蟲	-12.5216
隙或飼葉偏	-12.5216
隨長短掘壍停之經年	-12.5216
離宫卒	-12.5216
雨十分無雨	-12.5216
頗似山蘿蔔葉	-12.5216
饑故食為至急	-12.5216
熟耕如麻地不厭熟縱横七	-12.5217
三月種八月熟出西方赤小麥赤而肥出	-12.5217
似如有膚羊羔乳食其母比至正月母皆	-12.5217
摘時必令	-12.5217
方寸許内鹽於其中一夕子皆自落	-12.5217
波斯橄欖	-12.5217
割雞設醴以禱	-12.5217
乳乳母好堪為種産	-12.5217
有死者皮好作裘	-12.5217
橘柚橙柑	-12.5217
煜	-12.5217
無饑寒之憂	-12.5217
簑	-12.5217
蔡君謨	-12.5217
之費給無窮無怪乎有餘不足之不同也	-12.5217
之鏟也今鏟與古制不同柄長數尺首廣	-12.5217
也迤南地分十月埋栽河朔地	-12.5217
今營州之東燕	-12.5217
以土宜之法辨十有二土之名物	-12.5217
兩手持之但用前進攛之剗去	-12.5217
再長樹身桑	-12.5217
又有寒冷兼	-12.5217
取樹本大如斧柯及臂者皆堪接謂之	-12.5217
在天官自	-12.5217
大小豆生既布葉皆得用	-12.5217
敎民糞種負水澆稼	-12.5217
樹砧砧若	-12.5217
次日可漸加葉	-12.5217
活餘月皆可	-12.5217
渭南縣物産	-12.5217
為成人遂好耕農相地之宜宜榖者稼穡	-12.5217
生種者為上時三月上旬及清明節桃始	-12.5217
禾異畝合穂	-12.5217
稕	-12.5217
若澤多者先深耕訖逆	-12.5217
草就覆其根特號敏	-12.5217
選好葦連根栽成土墩如椀口大於下	-12.5217
鐵腥愈旺地桑是其	-12.5217
除十一月不生	-12.5217
預於栽所掘區下糞樹到之時	-12.5217
馬鼻下熏之使	-12.5217
馬鼻中須	-12.5217
一曰筋勞者	-12.5217
一索四面取齊成行	-12.5217
三枚亦擣熟以	-12.5217
之際以糠米貯之	-12.5217
也五曰輪輪	-12.5217
了先耕蕎麥地次耕餘地務遣深細不得	-12.5217
以及田所其制當流列植	-12.5217
以水湮之若夏秋	-12.5217
以火頭内澤	-12.5217
似茴香開細白花結實似胡荽子	-12.5217
便採用則無事不成尤宜作	-12.5217
内索兩頭以	-12.5217
厭數周而復始勿以無草而暫停	-12.5217
古雍梁二州井鬼翼軫分野	-12.5217
告民出五種命農計耦耕事	-12.5217
圜𥫱泥塗其内草苫於上謂之露𥫱者	-12.5217
天氣濕潤時不透風處或地窨子中	-12.5217
好灰水中浸蘸	-12.5217
如簾即將機軸掉轉搧之糠粞既去乃得	-12.5217
威勝軍	-12.5217
子打油燃燈甚明或熬油以油諸物	-12.5217
家衝山谷中	-12.5217
尙	-12.5217
形勢尤卑而東北際海岡隴之地	-12.5217
後雪復如此則麥耐旱多實	-12.5217
得洫涂溝畛遂徑共	-12.5217
恐其子粒焦落乃用推	-12.5217
情返道勞而無獲	-12.5217
拌葉匀飼解蠶熱毒絲多易繰堅韌有色	-12.5217
掄	-12.5217
故平都令光教過以人輓	-12.5217
方孔也庚辛壬癸方筩也壬癸其	-12.5217
旱宜澆十月刈燒加糞如前冬春擁雪	-12.5217
時以溲種如麥飯狀	-12.5217
李悝為魏文侯作盡地力之教	-12.5217
杓以勺從木姑與今同此作蠶杓	-12.5217
杓作勺量器也周禮勺容一升所以㪺	-12.5217
樞之頂心者即樞直也如將自轉者	-12.5217
檻底通作匾縫下	-12.5217
池中有九洲	-12.5217
沸湯中浮出即掠	-12.5217
淡粉青色莖	-12.5217
焉如本篇一圖甲乙丙丁圓筩也丙丁其	-12.5217
盱	-12.5217
相去一指布蠶一箇取臘月所藏菉豆水	-12.5217
禾之法熟過半斷之	-12.5217
禾異本同穎	-12.5217
積少成多施之種藝稼穡倍收桑果愈茂	-12.5217
糞清明前後掃去霖雨	-12.5217
結子如菉豆大熟則黄茶褐色其葉味甜	-12.5217
縣嘉禾一本	-12.5217
能獨食水草㝷亦俱死非直不滋息或	-12.5217
若無髓空用脂亦得	-12.5217
葉味苦花味辛甘性温無毒	-12.5217
葉煠熟水浸去邪臭氣味油鹽調食	-12.5217
蠶事之本惟	-12.5217
行三十步而已	-12.5217
諦	-12.5217
貯者天下之大命也茍粟多而財有餘何	-12.5217
透骨草一名天芝	-12.5217
速大横行必得從行必術正其行通其風	-12.5217
連翹一名異翹一名	-12.5217
酒説文曰杓音	-12.5217
開黄花結小紅子	-12.5217
隨掩過覆土既深雖暴雨不至	-12.5217
額枋前排置小	-12.5217
食又不凍死	-12.5217
黄帝畫野分州	-12.5217
之中餓死過半假有在者疥瘦羸	-12.5218
為良醫又曰亡羊治牢未為晚也	-12.5218
齒左右蹉不相當難御齒不周	-12.5218
在市自然壓下物價境内百姓人人受賜	-12.5218
桃熟時於牆南陽中	-12.5218
炫	-12.5218
人家多於山野古窯中收取	-12.5218
以三十年之通雖有凶旱水溢民無菜色	-12.5218
以北農家種溝田者皆用之	-12.5218
俗人以其似丁子	-12.5218
信惡矣然糞壤滋培則苗蕃秀而實堅栗	-12.5218
去稍葉作稀泥於	-12.5218
桑者易生之物	-12.5218
水輪轉碾也後魏書崔亮教民為	-12.5218
渠焉累接而上可使在山是不憂	-12.5218
田築為堤塍而出之計日可盡是不憂潦	-12.5218
稙穉菽麥奄有下國俾民稼穡	-12.5218
酒令煖冬則小熱	-12.5218
雞彈微小	-12.5218
鳩脚老枝三年即結子而樹醜	-12.5218
一如常法復於磨之外周造	-12.5218
不實下種後雖見苗立根在	-12.5218
之徐行三十	-12.5218
之時四五日内不用聞打鼓紡車	-12.5218
二磨隨輪俱轉此	-12.5218
井量井淺深筩長短而置之近上	-12.5218
今中國多不	-12.5218
以使人人忘其勞且	-12.5218
但依此法除蟲災外小	-12.5218
其山田及剛	-12.5218
其枝莖生樵爇燭明而無煙	-12.5218
則麻無葉也	-12.5218
削其骨成馬耳	-12.5218
功不到土	-12.5218
動左邊大輪弦隨輪轉衆機皆動	-12.5218
區空一行種	-12.5218
半八九枝共為一	-12.5218
即再遍勞	-12.5218
又將馬耳尖頭薄骨	-12.5218
可以青徐論宜於荆揚者不可以雍豫擬	-12.5218
可分至三十箔	-12.5218
可容二人對繰也	-12.5218
名角蒿一名莪蒿一名蘿蒿	-12.5218
四邊築下土至	-12.5218
地既遍則用耙勞覆之又頗省力	-12.5218
塗盤上或盆中盛暑日曝	-12.5218
如作䅖耐旱	-12.5218
如葉少去秋所收桑葉再	-12.5218
存不穿敗若不數換	-12.5218
孳畜損	-12.5218
實實則芽	-12.5218
尺嘗悉以一尺地積穰不相受	-12.5218
屋忌近臭穢	-12.5218
征鳥厲疾	-12.5218
恒得水而止近下	-12.5218
成地桑可止而勿用	-12.5218
所以不求濕下也	-12.5218
扵泉呼音中	-12.5218
撥周圍木齒一磨既引水注槽激動水輪	-12.5218
擡大眠分如折二錢大布滿二十五箔	-12.5218
於江海水少則泄湖	-12.5218
春毛秋毛中半和用秋毛	-12.5218
晁錯曰聖王在上而	-12.5218
此南方淹繭法用甕頗多	-12.5218
每經一雨輒欲杷勞苗	-12.5218
水澤腹堅	-12.5218
治馬卒腹脹眠	-12.5218
澤欲熟時下少許青蒿以發色	-12.5218
焉今立一試法視一圖軸兩端諸分線以	-12.5218
燒栢脂	-12.5218
牛髓少者用牛脂和之	-12.5218
玉衡之雙筩與中筩為二此則合之筩入	-12.5218
生物不如古之多人之謀事不如古之智	-12.5218
町皆廣一尺五寸長四丈八尺尺直横	-12.5218
畔近道者亦可另種蘇子以遮六畜傷踐	-12.5218
神守八月内三神守神守者	-12.5218
科又勝擲者	-12.5218
突口向北是也繰盆居中火衝盆	-12.5218
糞疇疇麻田也	-12.5218
紅花菜本草名紅藍花一名黄藍	-12.5218
經織為佳若風日髙燥則纑縷乾脆難織	-12.5218
線俱為一直線也求正尚有軸端諸線可	-12.5218
織必先以油水潤苧及潤纑經織成生布	-12.5218
者其美與小豆同	-12.5218
腐朽之物人視之而輕忽田得之為膏潤	-12.5218
至第七八頓食後	-12.5218
良不能得肉肝只用屎耳	-12.5218
菕	-12.5218
蕪一名茳蘺	-12.5218
薄板或糊竹為之復有立扇卧扇之别各	-12.5218
處令入五分其入須兩邊批所接枝皮處	-12.5218
蜂窠前置水一器不致渴損	-12.5218
行占地一尺五寸該分五十行長一十六	-12.5218
量力均辦所需工物乃深植樁木列置石	-12.5218
除寒熱炙食之良也	-12.5218
餘摘之其有蜂王分窠羣蜂飛去用碎土	-12.5218
驎	-12.5218
驚傷而稠疊	-12.5218
鹽令消以灌口中必愈	-12.5218
黎處即摻葉補合	-12.5218
鼻下燒之使烟入馬鼻中須臾即	-12.5218
不收茭者初冬	-12.5219
嘗讀北方農桑直説云生繭即	-12.5219
菡	-12.5219
欲正赤上理文欲使通直勿令	-12.5219
駒齒死矣口吻欲得長口中色欲得	-12.5219
蓂一名薑芥	-12.5219
即内牛糞中頭向上取好爛	-12.5219
嵗嵗自生矣荏子	-12.5219
新豐箭谷	-12.5219
然地有肥瘠	-12.5219
羊得四倍羊羔臘月正月生者留以作	-12.5219
丁子香也	-12.5219
夏用冷酒春秋温	-12.5219
撏	-12.5219
武陟縣	-12.5219
煩用力少而得水多其大者一器所出若	-12.5219
田家刈畢稇	-12.5219
積之栗栗其崇如墉其比如櫛以開百室	-12.5219
谷水造水	-12.5219
隂地種之陽中則少實足霜色殷然	-12.5219
䑕肉味甘無毒令小兒消	-12.5219
一法熟地先耩黍一	-12.5219
下一本芋生根欲深	-12.5219
不禁熱恰得合宜	-12.5219
不茹則子凍春夏秋三時則不須直置	-12.5219
之則如絲可紡績	-12.5219
之戾傴僂而腰	-12.5219
乾再蘸再	-12.5219
亦多刺開紅花	-12.5219
人手當附骨上	-12.5219
令上有一寸土不可令過一寸亦不可令	-12.5219
令潰破即愈不治必死也	-12.5219
以打地長	-12.5219
以禾茇汁熱塗之一上即愈	-12.5219
似艾香味微辣	-12.5219
侈費妄用以快一時之適所	-12.5219
倍省有樹桑兼地桑之家樹	-12.5219
八月種二麥豌豆節次為之不可貪多夫	-12.5219
六十六石今人學種可減半計	-12.5219
冬雨雪止以物輒藺麥上掩其	-12.5219
凳	-12.5219
刷過更用油水刷之	-12.5219
功出水當五分之一今省十九焉是不憂	-12.5219
務使田平而土潤與耙頗異耙有渠	-12.5219
博碩肥腯不疾瘯蠡	-12.5219
又似白芷葉亦細又如園荽葉	-12.5219
口羊亦不得飽羣羊踐	-12.5219
名土青木香	-12.5219
噉馬三度愈也	-12.5219
塗餘處一日之	-12.5219
大小輪軸同行道	-12.5219
奚一名氐冬	-12.5219
如藤蔓葉如山藥葉	-12.5219
帶紫色葉似葵葉	-12.5219
并作雞籠懸中夏月盛晝雞	-12.5219
成從小便栽	-12.5219
指者亦殺人雞有五色者亦殺人養生論	-12.5219
接口添水至甑中八分滿甑中用一板攔	-12.5219
揄	-12.5219
杏黄熟時摘取食	-12.5219
枝葉間生果初則青小熟大	-12.5219
桑花桑中間一截其子堅栗則枝榦堅	-12.5219
槅	-12.5219
樁樁上枕以伏牛擗	-12.5219
欲薄地而稀	-12.5219
渇澤用鹿鹹瀉用貆	-12.5219
滌膩最良角與刺俱堪入藥亦物之利益	-12.5219
漢靈帝使畢嵐作翻車設機引水	-12.5219
生真定平澤及田野交	-12.5219
生者子最大彼土人呼	-12.5219
用地桑則人力	-12.5219
町作溝溝一尺深	-12.5219
眠之後或樹桑不能	-12.5219
禾一斗有五萬一千餘粒	-12.5219
秦雍之地所拒川水率用巨	-12.5219
稂莠是除爬沙而指	-12.5219
種漸鋤取賣供生菜也外舍無市之處一	-12.5219
種茭者用麥底	-12.5219
第二頓比前又薄	-12.5219
綿羃鐺觜瓶口㵼	-12.5219
纒刀子露鋒	-12.5219
者一壟取七科三壟凡取二十一科淨洗	-12.5219
耕不深地	-12.5219
能變惡為美種少收多諺云糞田勝如買	-12.5219
苗長三寸杷勞而鋤之鋤	-12.5219
萬物之生各得其宜	-12.5219
薄地徒勞種而必不	-12.5219
處水不能及則於溪	-12.5219
豆今處處有之生田園中科苗	-12.5219
豐鎬之間	-12.5219
鎮戎軍	-12.5219
雍州其榖宜黍稷	-12.5219
飯湯更妙索	-12.5219
餘者割取作蜜蠟至春三月掃除如前常	-12.5219
麥令相去二寸一行一溝容五十二株一	-12.5219
𢎞作二尺地以積穰	-12.5219
塞之羊則八月不鉸鉸	-12.5219
强春毛軟弱獨用	-12.5219
懶人菜以其	-12.5219
明年四五月出氊時更買新者此	-12.5219
春秋説題辭	-12.5219
楤	-12.5219
此聖人所謂分地之利者也	-12.5219
氊第一凡作氊不	-12.5219
氷雪連夏亢陽徒道秋耕不堪下種	-12.5219
祕	-12.5219
立秋前後皆十日内種之	-12.5219
胡葈子未成時	-12.5219
臘月所藏白米	-12.5219
蒸熟作粉亦可	-12.5219
裹蹄上瘡處以	-12.5219
開花斟酌窠數削去枝葉再長晚茄	-12.5219
雜三月桃花水	-12.5219
收子者一剪	-12.522
細而味亦不佳	-12.522
九月掘出置屋中	-12.522
肉好作乾腊及作肉	-12.522
一日一走令其肉熱	-12.522
凡北方種粟秋熟當速刈之	-12.522
則硬實而耐寒苦也	-12.522
去葉專取	-12.522
可以為蕪荑	-12.522
可及尺以供食用亦為便法	-12.522
圖曰大筐以竹受五斛以盛米致饋於聘	-12.522
小筐以竹受五升以盛米又曰筐以盛熬	-12.522
榆可以為車	-12.522
法畜之可致速富	-12.522
稗既堪水旱種無不熟之時又特滋茂	-12.522
筐竹器之方者	-12.522
與人均也勿犯寒	-12.522
轂及器物山榆	-12.522
𤣥宗開元	-12.522
一丈亦無嫌任羊遶柵	-12.522
下欲平有八字腹下毛欲前向腹欲大而	-12.522
中伏以後則晚矣	-12.522
中箔可盈滿	-12.522
之功使之滋長至其蠶大	-12.522
二千斛斛得米	-12.522
二日不得揉搓再蘸濕了於乾灰内周徧	-12.522
亦任為鹽菜	-12.522
今三輔猶賴其利	-12.522
今江南農家所種如種葵法俟成	-12.522
以手按實令土種相	-12.522
使典農種之頃	-12.522
使液以手搦之絞去滓以	-12.522
兩頭者其子差細種則成	-12.522
凡秋耕欲深春夏欲淺犂欲亷	-12.522
凡輪皆以他輪之齒發之其疾徐之數	-12.522
初年長約一尺便割一	-12.522
制中置巨輪輪軸上貫架木下承鐏臼復	-12.522
則禾稼不茂種苗者不可無鋤芸之功也	-12.522
助也以助苗也	-12.522
區種荏令相去三	-12.522
厚實者蛾出第一日者名	-12.522
厚必須擡之失分則不	-12.522
去毛骨外融	-12.522
及當日背風	-12.522
古法也后稷始甽田以二耜為耦	-12.522
同為末每服二兩	-12.522
地氣則爛敗也	-12.522
失生熟之節所以特	-12.522
如軸長一丈則徑八寸如本篇第一軸立	-12.522
寸旱則澆之若不雜黍種須旋	-12.522
封畛之别地勢遼絶其間物産所宜者	-12.522
少者止可用一小甑水須熱宜旋旋下繭	-12.522
山田種强苗以避風霜澤	-12.522
常收百斛上農	-12.522
忌食濕葉忌食熱葉蠶初生	-12.522
思患而預防之如嚮年壬辰戊戌	-12.522
掩合勿透風日雖	-12.522
故墟亦良有	-12.522
教民耕殖其法三犂共一牛一人	-12.522
早者七月半後	-12.522
東西掘畦熟糞和	-12.522
桔梗一名利如一名房	-12.522
榖粟耗竭無餘一遇小歉則舉貸出息	-12.522
歉之際但依此法種之皆免	-12.522
此洛陽方左千里之所宜其他地方隨	-12.522
比至冬月青草復	-12.522
毛袋盛漬蹄	-12.522
水輪軸首易磨置礱既得糲米則去礱置	-12.522
油鹽調食榴果熟時摘取食之	-12.522
法秋冬間收子淨洗日乾春耕熟地作町	-12.522
活早二年得力如舊有	-12.522
淨洗了擣杏	-12.522
湯洗疥拭令乾	-12.522
為都都方	-12.522
然農家之事居多也	-12.522
疥令赤及熱塗之即愈也	-12.522
研芥子塗之差六畜疥悉愈然栢	-12.522
禾稼春生人必加功焉故五	-12.522
突也須與竈口相背謂如竈口向南	-12.522
竟軸而止則得一螺旋線也單線則為單	-12.522
者周禮樹八尺之臬縣八繩下垂皆附	-12.522
脂塗四五上即當愈	-12.522
草即鋤之旱即灌之冬芥經春長心	-12.522
蓐紙上務要匀薄	-12.522
蠶滋多必須分之沙燠	-12.522
角煮食或收	-12.522
調習器械務令快利秣飼牛畜	-12.522
變三分第二日變七分却用	-12.522
遼東耕犂轅長	-12.522
里為同同間廣二㝷深二仞謂之澮	-12.522
開閉水門也間	-12.522
附身土不	-12.522
隨所宜而播種之	-12.522
齒形去之如剪箭括向深一寸許刀子摘	-12.522
上多白㸃枝	-12.522
上端為之管管外出而下迤也本廣而末	-12.522
中令人驅鳥稻苗長七八寸陳草復起以	-12.522
之後桑與黍稭同時刈倒順風燒之仍	-12.522
人參苦參可作沐藥不入湯	-12.522
人家園圃中亦栽葉形如葡萄葉頗長硬	-12.522
先以酸泔清洗淨然後爛	-12.522
南方水田泥耕其田髙下濶狹不等以一	-12.522
取水均而已藏稻必須用	-12.522
後循隴碾過使根土相	-12.522
得溺便當	-12.522
旋覆花一名戴椹一名金沸草一名盛椹	-12.522
晝合夜開者名守宫槐葉細	-12.522
有餘則藏之以待凶而頒之	-12.522
極為平實今人	-12.522
每區深一尺用熟糞一升與區土相和布	-12.522
湯淨洗以布拭水令盡取黍米一升作	-12.522
溺道中須	-12.522
用之當以肥厚者為佳味辛鹹性	-12.522
稀糊調細豆	-12.522
穊則細而不長	-12.522
行内隔一區種一區除隔空外可種六百	-12.522
蹄取汁及熱洗之	-12.522
農勸民無或失時	-12.522
量時水旱而溉之將熟又去水霜降穫之	-12.522
鉸了亦洗如初其八月半後鉸者	-12.522
鋤者名曰耬鋤	-12.522
陳思王曰寒者不貪尺玉而思	-12.522
雙溝者則平分庚丑線得午從午外上向	-12.522
青沙良地三徧熟耕	-12.522
宜早黍十一	-12.5221
收子者即不摘心	-12.5221
枯則食如欲出子留食不盡者地凍時出	-12.5221
鋤三遍乃止鋒而不耩	-12.5221
中色欲得紅白如火光為善材多氣良且	-12.5221
不鮮明上盤不通明為惡材少氣不	-12.5221
颯	-12.5221
作卧枋	-12.5221
具也用堅大四木各圍可五尺長可丈餘	-12.5221
以春分前後十日為	-12.5221
加謹収貯	-12.5221
庛長尺有一寸	-12.5221
庳	-12.5221
則至八月九月詩云十月穫稻齊民要術	-12.5221
曰枌榆先生葉却著莢	-12.5221
榆皮去上皺澁乾枯者	-12.5221
此十四種早熟耐旱免蟲	-12.5221
民之蓄積當粒米狼戾之年計一嵗一家	-12.5221
水禽不得水則死臍	-12.5221
江南地下多雨上霖下潦劖刈之際則必	-12.5221
淡銀褐色有腐氣	-12.5221
為大積積之視農功稍隙解束以旋旋鑱	-12.5221
然後車載上	-12.5221
穧	-12.5221
米多沃而食之彊	-12.5221
雀懊黄續命	-12.5221
霜降穫之此皆言晚禾大稻也故稻有早	-12.5221
驢覆馬生	-12.5221
不如少善也	-12.5221
个	-12.5221
二寸一溝容九株一	-12.5221
但五月種之園枯則食	-12.5221
光俊又似山格刺葉却小味甘	-12.5221
到夏五月則任啖故俗五六月則烹食之	-12.5221
即留之若旱種者但無畦與水耳杷糞	-12.5221
取簇之中向陽	-12.5221
圓様南方判竹編草或用籧	-12.5221
圬	-12.5221
地乎宋太宗詔江南之民種諸	-12.5221
大豆及熱飯	-12.5221
子法常嵗嵗先取本母子	-12.5221
戈鴞爪龍	-12.5221
拾取禾茇東倒西倒者若東西横地取南	-12.5221
收百斛丁男長女治十	-12.5221
既入之水而砧降焉則無復之也則上衝	-12.5221
有草鋤之不厭數多治芋如此其收常倍	-12.5221
末後出者名末蛾	-12.5221
栽培如地桑法芽出	-12.5221
歌曰髙田種小麥稴穇不成	-12.5221
用戽斗控以雙綆兩人掣之抒水上岸以	-12.5221
用驚蟄前後五日斬新枝	-12.5221
皂角葉亦大	-12.5221
省力過倍南蠶多用此法北方蠶小時亦	-12.5221
磑也世本曰公輸班作磑方言或謂之䃀	-12.5221
禮記月令季夏之月	-12.5221
稼之容足耨之容	-12.5221
筩砧降而	-12.5221
絡車方言曰河濟之間絡謂之給	-12.5221
縵	-12.5221
與人均也勿使太勞	-12.5221
若嵗寒早種慮時	-12.5221
若溪岸稍深田在	-12.5221
處敷細草令寢處	-12.5221
褊	-12.5221
調成稀泥	-12.5221
資欲善其事先利其器	-12.5221
起齊投食一復時可三頓第一頓宜薄	-12.5221
趙過為搜粟都尉過	-12.5221
輾世呼曰海青輾喻其速也但比常輾	-12.5221
近水處和柔糞之二月注雨可種芋率二	-12.5221
逺近彼此之間風土各有别也	-12.5221
過熟者苗茂而實少	-12.5221
開七浦鹽鐵等塘洩陽	-12.5221
開十五箔擡飽食二十箔大眠擡三十箔	-12.5221
隅足也可無厚既合而入	-12.5221
麥上土令厚二寸凡區種大豆令相去一	-12.5221
䡄	-12.5221
一色白苧麻水潤分成縷	-12.5221
之時則易除之於	-12.5221
九槽者先分軸為九平分欲作五槽十槽	-12.5221
也七曰架	-12.5221
五升薄田三四升	-12.5221
修治苫薦	-12.5221
勿熟漚只經生纑論帖穿苧如常法以發	-12.5221
厓	-12.5221
原本無陂澤隨逐隈曲而田者二月	-12.5221
場圃同地自物生之時耕治	-12.5221
大者葉似槐葉瘦長而尖枝間多刺	-12.5221
好酒觧之	-12.5221
如小豆大其花	-12.5221
婦人佩其花	-12.5221
州鎮戎軍禾合穂	-12.5221
已降寒氣侵人洗即不	-12.5221
故布廣三四寸長七八寸以粥糊布上厚	-12.5221
數類而言之則囷之名舊矣	-12.5221
李衡於武陵龍陽洲上種柑	-12.5221
栽種與栗同	-12.5221
椽五莖上撮一處繫定外以蘆箔繳合是	-12.5221
樹髙一尺以蠶矢糞之	-12.5221
水澣濯天晴再三	-12.5221
法作螺旋線也若作四槽者又平分庚午	-12.5221
為中時五月上旬為下時夏種黍穄與植	-12.5221
燕秦千樹栗蜀漢江陵千樹橘淮北常山	-12.5221
甚速便也	-12.5221
皆平行皆相等也墨為之弦者從庚向癸	-12.5221
直垢汙穿	-12.5221
竹夾鼎耳縛樞於	-12.5221
糊熱塗之即愈也	-12.5221
納種如前法既生七八寸	-12.5221
細任意旋緝旋搓本俗	-12.5221
結實有三種形小者為猪牙皂	-12.5221
者用秋耕地開春凍解地起有潤澤時急	-12.5221
至子外纒之至丑至寅至卯至辰斜纒軸	-12.5221
譙子曰朝發而夕異宿勤則菜盈傾筐且	-12.5221
負禾具也其長	-12.5221
軸末一輪	-12.5221
輪用擊在上卧輪一磨	-12.5221
逺餧草噴而已血勞者髙	-12.5221
隴底欲土實種易生也今人製造砘車	-12.5221
黄花結實似豆角狀味苦酸鹹性寒無毒	-12.5221
厚地不見日故雖濕亦無害	-12.5221
臘八日新水浸菉豆	-12.5222
地為上兩和地為次園圃内種之如無園	-12.5222
生可種之九月藏茈薑蘘荷其	-12.5222
崎	-12.5222
一曰相馬氣發口中欲見紅白色如穴中	-12.5222
成齒皆背三	-12.5222
舂或輾碾令爛上甑蒸過理草為衣貯之	-12.5222
之萬不失一其餘以熟糞糞之則益桃味	-12.5222
密相等焉長短相入焉相	-12.5222
張騫得種於西域	-12.5222
無用輪方其樞之末别為衡衡之一端入	-12.5222
守之仍多方設法以防獺害凡所居近數	-12.5222
常須防勿令	-12.5222
平明時令兩人持長索相對各持一端以	-12.5222
柱之下端合之欲其固也砧之厚以其枝	-12.5222
毎石量収	-12.5222
禾中去霜露日出乃止如此禾稼五	-12.5222
虎黄雀民溱馬洩韁劉	-12.5222
一兩半酒一升葱白三握	-12.5222
以胡麻油塗之即愈	-12.5222
作區下水種之又	-12.5222
初生伏又未能工惟數年之中	-12.5222
千三百二十	-12.5222
即以鹽藏之蛾乃不出	-12.5222
四月種豆五月中旬種晚麻七夕以後種	-12.5222
夫稼為之者人也生之者	-12.5222
廣二㝷深二仞	-12.5222
或慮天旱宜就黍	-12.5222
手捻住	-12.5222
攘之剔之其檿其柘	-12.5222
曰凡耕之本在於趣時	-12.5222
曰杬魚毒郭璞注曰杬大	-12.5222
曰甽長終畮一畮三甽一夫三百甽而播	-12.5222
更用細糞糞過	-12.5222
書謂湯有七年之旱伊尹作為區田	-12.5222
毖	-12.5222
法春月先於熟地内東西成行匀稀種	-12.5222
牛糞火比翻簇之法又為妙也又一法槌	-12.5222
生既齊取新葉用快利刀切極細	-12.5222
糞一升合土和之	-12.5222
而同於生物生物之性雖同而所生之物	-12.5222
菔菘芥八月社前即可種麥	-12.5222
藁爛積晚則耗損連雨則生耳	-12.5222
覆以防雨作如搬載不及即	-12.5222
覷要識灰性及火候𦂳慢次用	-12.5222
趙岐注曰	-12.5222
輒耕輕土弱土望杏花落復耕耕輒	-12.5222
野艾蒿生田野中苗葉類艾而細又多花	-12.5222
陂野池也塘猶堰也陂必有塘故曰陂塘	-12.5222
陽氣不應急則力大夾煞全在細意酌度	-12.5222
麥種别名異而世人以為一物	-12.5222
一云十三肋五百	-12.5222
下徹棧底就作卧輪以水激之磨隨輪轉	-12.5222
下抵股者是	-12.5222
中管之轉以車下直錢眼謂之鏁星	-12.5222
二百里十二者千里過十三者天馬萬乃	-12.5222
于索水之處	-12.5222
以湯和鹽用杓	-12.5222
便是先將生苧麻折作二尺五寸長不斷	-12.5222
先分軸為十平分依法作之二曰	-12.5222
八分者平分度也軸之兩端卧其軸各作	-12.5222
其亦因九州之别土性之異視其土宜而	-12.5222
其圜中規其方中矩而上下等筩之周以	-12.5222
其土産名物各有證	-12.5222
冬則六十日唯多日	-12.5222
北方村落之間多結為鋤社	-12.5222
又有所謂撻者與勞相類齊民要術云春	-12.5222
取之法焉氣法也凡砧之入	-12.5222
取乾馬糞置瓶	-12.5222
各庚心也以八平分之一為度者謂以甲	-12.5222
圖甲乙丙丁	-12.5222
堪緝為度水潤緝績紡作纑生	-12.5222
如耬鋤過苗間有小豁眼不到處及	-12.5222
孔孔之方圜反其筩若圜筩而方孔七分	-12.5222
季秋之月農事備收	-12.5222
寧復有餓莩流	-12.5222
尺五寸剡匾木為之者謂之輭	-12.5222
展側焉衡低	-12.5222
峴	-12.5222
布蠶簇訖復用箔圍及苫繳簇頂如圓亭	-12.5222
年二月得鯉魚長一	-12.5222
底過壓鑱二尺策頟	-12.5222
形稍深且大旁有木柄長可三尺上置釤	-12.5222
徑以其四為孔之徑若方筩而圜孔七分	-12.5222
故有薅鼓薅馬之	-12.5222
日若淺者	-12.5222
旱時以米泔	-12.5222
春秋則一月夏則二十	-12.5222
春雨得所尤易活其實内子相類者林檎	-12.5222
此北方種麥之法南方惟用撮種故	-12.5222
此天地覆載一定古今不可易者	-12.5222
水和令相	-12.5222
治病今人傳說採苗搗傅	-12.5222
為區田收粟三十六石然則一	-12.5222
焉提上下焉左右相	-12.5222
牂夏羊	-12.5222
犒勞名為鋤社甚可效也今採摭南北耘	-12.5222
甲過心線依法分之即上下合也次	-12.5222
疥癬且屋	-12.5222
瘡口恐雨水入纒訖即以	-12.5222
盛者先鋤一遍然後納種	-12.5222
相半舟車莫及之處如有所負非擔不可	-12.5222
稗雜其稼出	-12.5222
突口做一	-12.5222
端各作甲	-12.5222
篾竹編之	-12.5222
簇心仍周圍	-12.5222
糞宜熟無熟	-12.5222
經云春夏早起與雞俱興秋冬晏起必	-12.5222
線附木皆平直是為八平分軸之周如立	-12.5222
者一萬五千枚三	-12.5222
者為勝今處處有之其木極有	-12.5222
者軸之長當一丈五尺也凡作軸皆度岸	-12.5222
與禾釋名曰擔任也力所勝任也凡山路	-12.5222
色老火麻	-12.5222
苗多近水傍初生大如紅花葉	-12.5222
蕎麥立秋前後漫撒種即以灰糞葢之	-12.5222
蘆管管長四寸樞以圓木建	-12.5222
蟠車纒纑具也又謂之撥車南人謂撥	-12.5222
解布蠶蠶生至老大忌	-12.5222
諺曰頃不比	-12.5222
軸之上因各螺旋之繩而立之	-12.5222
遶九洲無窮自謂江湖也至	-12.5222
里十五肋千里也	-12.5222
量水淺深者下文言句四股三弦五則岸	-12.5222
鉸訖更	-12.5222
鋤治自相率領樂事趨功無有偷惰間有	-12.5222
騂謂地色赤而土剛	-12.5222
黄帝堯舜氏作	-12.5222
貳	-12.5223
月上旬種者為上時	-12.5223
郭槖駝種樹書	-12.5223
匾開粉紅花結碗子蒴兒葉味甜	-12.5223
堅垎四十餘日芽方出土薅治澆	-12.5223
大暑中伏後可收芥子七月八月可種芥	-12.5223
小灰菜葉	-12.5223
核初成時摘取夜以鹽汁漬之晝則日曝	-12.5223
田野中延蔓而生葉似小藍葉短小軟薄	-12.5223
至冬月厚用蒿草藏	-12.5223
蕋	-12.5223
食一年陜西多食此菜	-12.5223
泔及鹹水澆之則死性易	-12.5223
周禮曰㮚氏為量改煎金錫則不耗	-12.5223
斛十斗量也	-12.5223
黍生于榆	-12.5223
但不自本土所産不能足用	-12.5223
入四方生也	-12.5223
六約畧作之非定率也趣欲使兩輪之交	-12.5223
扉	-12.5223
細齒截鋸一連厚脊利	-12.5223
􁥏	-12.5223
不爾喜軒	-12.5223
久停者入五月内著屋中閉户塞向	-12.5223
大彌復勝	-12.5223
岡隴支河湮塞不治者皆濬之深廣使復	-12.5223
常以馬覆驢所生騾者形容	-12.5223
打炭墼	-12.5223
杜如臂已上皆任	-12.5223
為四足隅立	-12.5223
為犢車材	-12.5223
爾雅曰榆白枌	-12.5223
舌之開闔而止以其聚合	-12.5223
㐮	-12.5223
一區收三石又種芋法	-12.5223
上作屋方廣丈五於屋下懸簀令雞宿上	-12.5223
上時四月上旬為中時五月上旬為下時	-12.5223
不相借言及澤	-12.5223
之異云耳江沔之間謂之籅	-12.5223
之節不至差謬此又圖之體用	-12.5223
之而轉之水則自螺旋之孔入也水之入	-12.5223
今敺民而歸之農	-12.5223
代處故曰代田	-12.5223
似芎藭	-12.5223
作叢似蒿枝葉似	-12.5223
候地毒熱衆手	-12.5223
児	-12.5223
内撥土平	-12.5223
凶年也謹計家口數種大豆率人五	-12.5223
初向黄時宜暖眠定宜微暖起齊宜温	-12.5223
則可常熟惟近家瀕水為上其種不必牛	-12.5223
割則不長加火煮之以水淘浸或炒爁或	-12.5223
即攤一二車薄則易乾碾過一	-12.5223
及臘八日浴時無令水極凍浸二日取出	-12.5223
口微低又相去七八尺外安一臺髙五尺	-12.5223
各因潮漲而成以地法觀之雖若不同其	-12.5223
在室可用盛種皆農家	-12.5223
央足踐之旱數澆之萁爛芋生子皆長三	-12.5223
層兩邊側立上復平	-12.5223
已三禮圖曰筥受五升盛饔餼之米致於	-12.5223
度復提起其囊頭下即是清絲摘去囊頭	-12.5223
彛	-12.5223
恒升之法而架之而升降之其得水也當	-12.5223
方深各二尺	-12.5223
時被雨霑濕雨纔止纔晴即選一簇地盤	-12.5223
枝了别取本色樹皮一片長尺餘濶	-12.5223
櫜	-12.5223
此乃以其耘除之草	-12.5223
母胎有虧	-12.5223
江北之民種秔稻	-12.5223
治而易濕也	-12.5223
治馬黑汗方	-12.5223
淇衛之間謂之牛筐小者南楚謂之簍	-12.5223
港并鮎魚口等處洩昆承之水以注	-12.5223
無杬皮者虎杖根	-12.5223
生之異灰兒蠶秋母蠶秋中蠶老秋兒蠶	-12.5223
男子兼作婦人童稚量力分工定為課業	-12.5223
皆有所洩則下流之地治而澇無所憂矣	-12.5223
祺	-12.5223
稀密則熱熱則繭難成絲亦難繰東北位	-12.5223
穫之利則無異也	-12.5223
竈比圓壘低一半揜火透	-12.5223
箭頭草生田野中苗初搨地生葉似鈹	-12.5223
耨以墾草莽然後五榖	-12.5223
與篅皆𥫱之别名但大小有差亦蓧	-12.5223
花白作穗	-12.5223
苗出壟則深鋤鋤不	-12.5223
覆上自生白蟲便買黄雌雞	-12.5223
趙岱之間謂之䈱	-12.5223
踐便溺成糞平旦收聚除置院内堆積之	-12.5223
轅之後末曰梢中在手所以執耕者也	-12.5223
連合於葉上蟻	-12.5223
钁墾斸又便貧難大率一家五口可種一	-12.5223
陽城昆承三泖等湖又開	-12.5223
頭作三道急裹之骨小者一宿便盡大者	-12.5223
馬流沫方	-12.5223
黍桑當俱生鋤之桑令稀疏調適黍熟	-12.5223
㨶	-12.5223
䬇	-12.5223
三封者即尻	-12.5223
三尺以箭竹作馬眼	-12.5223
三徧還縱横	-12.5223
三月可種稉稻	-12.5223
下則易濁上端所至出井之上度及	-12.5223
下土築之一	-12.5223
久之則舉林皆然其治之	-12.5223
之壬辛是也枘入	-12.5223
于未申孔之上向丙而開闔之也辰午加	-12.5223
云引竹法隔籬埋貍或猫於	-12.5223
五指許掩於濕土地中亦生	-12.5223
亦可遏止如遇隈岸盤曲尤宜周折以禦	-12.5223
令匀調也	-12.5223
令食食常飽則無不肥	-12.5223
以小衡為弦句股之交立之柄持其柄而	-12.5223
以溝蕩水以遂均水以列舍水以澮寫水	-12.5223
六尺深可二尺載以木座座帶四碢用轉	-12.5223
其功過鋤功數倍所	-12.5223
其土地之廣不外乎是但所屬	-12.5223
其蟲介其音羽律中	-12.5223
凡耘苗之法亦有可鋤不可鋤者旱耕塊	-12.5223
北方農俗所傳春宜早	-12.5223
千枚作種所餘皆	-12.5223
半轅至梢中間掩四尺犂之終始丈有二	-12.5223
南河濟之間千樹	-12.5223
又謂之卧牛判竹或用藤蘿或木條編作	-12.5223
合蒿葉於好酒中痛挼使汁甚滑白桃	-12.5223
同孔出不可鋤治此耕者之失難責鋤也	-12.5223
嘗其㫖否	-12.5223
夏至後十日種者為上時	-12.5223
大黄五靈脂木鼈子去油海桐皮甘草	-12.5223
子大布滿中二箔	-12.5223
密切而無滯也	-12.5223
小祝掌小祭祀	-12.5223
帶者行千里一	-12.5223
底長四尺廣四寸	-12.5223
或擲日以萬數速於手挈可謂智勝力也	-12.5223
截雨脚即種者地濕麻	-12.5223
扇集韻云颺風飛也揚	-12.5223
日滿更汲新水就	-12.5223
早雖浸芽不生但燥種之不須	-12.5223
本末源流	-12.5223
杶	-12.5223
柱之上端為	-12.5223
桃樹詳見樹藝果部救飢採	-12.5223
桑土既蠶	-12.5223
欲種時布子	-12.5223
每耕一徧蓋兩徧最後	-12.5223
毛者老馬也四蹄欲厚且大四蹄顛倒若	-12.5223
水澆常令潤澤既生又以骨石布其	-12.5223
水牛飲飼與黄牛同夏須得水池冬須得	-12.5223
洗面拭乾以藥塗之令手軟滑冬不皴	-12.5223
漬經三宿漉出内草篅	-12.5223
濾著瓷漆盞中令凝若作脣脂者以熟	-12.5223
為二此則合之又玉衡之水皆實取此有	-12.5223
烙之著乾勿令水	-12.5223
然耙勞之功非但施於納種之前	-12.5223
煎法一同合澤亦著青蒿以發色	-12.5223
熟淨淘種子	-12.5223
犁撥亦死	-12.5223
田無荒穢嵗皆豐熟秋成之後豚蹄盂酒	-12.5223
異故皆以人力器用所成者書之各有科	-12.5223
相其土宜擇而用之以盡鋤治之功也	-12.5223
矣按世有落麥者秃芒是也又	-12.5223
秋宜日髙耕中原地皆平曠旱田陸地一	-12.5223
種欲牛遲緩行種人令促步以足躡	-12.5223
突長七八尺	-12.5223
筤	-12.5223
筩短長斟酌焉而為之數筩之下端為之	-12.5223
者不可勝數	-12.5223
者十萬枚長二	-12.5223
至春治取别種以擬	-12.5223
與揜火相對圓壘匝近上開	-12.5223
蓬藜荆棘	-12.5223
薄澁枝葉間開黄花結子	-12.5223
衡而無定度圜其尾去首二尺而圜其	-12.5223
裔不無遼絶若能自内而	-12.5223
觤	-12.5223
諺曰觸露不	-12.5223
豆角三青兩黄	-12.5223
費此不朽之功豈可同年而語也	-12.5223
車之左端置環繩其前尺有五寸當	-12.5223
辟去寒氣蠶自食葉	-12.5223
酉戌亦如之左右相	-12.5223
采菱科	-12.5223
鑱長一尺四寸廣六寸壁廣長皆尺微橢	-12.5223
長故名薏珠子味甘微寒無毒今人	-12.5223
開紅白花作穗子結實青白色形如珠而	-12.5223
間草薉未除者亦須用鋤理撥一	-12.5223
頭一寸許也	-12.5223
飼蠶者慎勿貪眠以懶為累	-12.5223
黄塗之即愈	-12.5223
鼻各一角非直水	-12.5223
堆旁向陽中	-12.5224
擂	-12.5224
令萎手捻之令	-12.5224
十月選成熟梔子取子淘淨曬乾至	-12.5224
可一尺旱時一二日用水於棚上頻頻澆	-12.5224
宜頻冬月用土深擁根株其枝梢用草包	-12.5224
桃李大率方兩	-12.5224
箔棚遮日	-12.5224
至次年三四月又	-12.5224
辛味五月園枯此菜獨茂故又曰主園菜	-12.5224
飣	-12.5224
水漿不足以	-12.5224
去酸味油鹽調食	-12.5224
永嘉記曰永嘉	-12.5224
春鋤起地夏	-12.5224
二眼以泄其氣	-12.5224
作槽其下用厚板嵌作底槃槃上圓鑿小	-12.5224
兩廂黄生區	-12.5224
莖作盤砧髙可及肩以	-12.5224
雀䑕之耗又無	-12.5224
五分其筩之徑以其一為柱之徑砧之合	-12.5224
五月六月上旬可種	-12.5224
傾著白練角袋子中懸之明日乾浥浥時	-12.5224
地雖復雪寒	-12.5224
帛勝麻油	-12.5224
期然必待時暄可接	-12.5224
柱也鍊銅或	-12.5224
閉其罅而噏之凡井淺者實取焉井深者	-12.5224
不實實亦生蟲	-12.5224
云筐筥一器	-12.5224
人掉軸一人喂上棉英二軸相軋則子落	-12.5224
何哉夫南簇蠶少規制狹小殆若	-12.5224
修諸色果木	-12.5224
其本身無銖兩之重且交纒相發可以	-12.5224
其葉厚大得繭重實絲	-12.5224
即以細糠拌之	-12.5224
各自别安唯著䪊頭浪放	-12.5224
咿	-12.5224
强此謂弱土而强之也	-12.5224
徑相盆之大小當中壘一小臺	-12.5224
有田者共為之細溝則人各自為於其田	-12.5224
杷或謂透齒杷用攤曬	-12.5224
比繰絲人身一半其	-12.5224
泥了其所貼之靨多少可量其樹之大小	-12.5224
熟山提小麥至粘弱以貢御有半夏小麥	-12.5224
生太山川谷	-12.5224
穫之桑生正與黍	-12.5224
筩開筩之下端為	-12.5224
與大麥同時熟	-12.5224
舊則上流之地亦治而旱無所憂矣此三	-12.5224
良田小豆底佳黍底次之刈訖即耕頻	-12.5224
若待秋子成而落莖	-12.5224
觸忌者雛多厭殺	-12.5224
近世利民之法如漢之常平倉榖賤則	-12.5224
鑿厚磚石令容驢蹄深二寸許熱燒磚令	-12.5224
隻雄一隻	-12.5224
館良耜詩曰載筐及筥左傳筐筥錡	-12.5224
一名虎鬚一名	-12.5224
一手撮捻清絲一手用漏杓	-12.5224
一邊皆同此法泥訖仍以紙裹頭麻	-12.5224
三月選沙白地斸畦區深一尺全去舊土	-12.5224
下三寸厚經宿牛以	-12.5224
不剪則不茂	-12.5224
之一食頃止	-12.5224
之且行且	-12.5224
之也注曰衡之長本篇四	-12.5224
之外削版而圍之版欲無厚	-12.5224
之接去清水貯出淳汁著大盆中以	-12.5224
之欲用時旋	-12.5224
之生者均熟不畏嚴霜從本至末全無秕	-12.5224
之精也使稼耐旱常以冬藏雪汁	-12.5224
之間縱有霖雨亦不能為害矣朝廷於此	-12.5224
也其制用木條	-12.5224
也然知資其力而不知養其力力既竭矣	-12.5224
五日後必飲以眼鼻	-12.5224
亦可去地四五寸	-12.5224
人樹之一人揺之則無生	-12.5224
人與天合物乘氣至則	-12.5224
代爪耘	-12.5224
以樞合紐令	-12.5224
以水澤之地種榖也	-12.5224
似新生皂莢	-12.5224
八月燥耕而熯之以種二麥其法	-12.5224
八谷谷上立水二	-12.5224
其數七其味苦其臭焦其祀竈祭先肺	-12.5224
其蟲羽其音徵律中	-12.5224
其髙田種者不求極良惟須廢地	-12.5224
冷接取清以小角受一雞子者	-12.5224
凡儲蓄之家不可闕	-12.5224
出著一砂盆中熟	-12.5224
分如小錢大布滿三箔	-12.5224
則㸃種其餘粟豆麻小麥之類亦用漫種	-12.5224
則箭下入土也深退之則箭上入土也淺	-12.5224
勅兒曰吾	-12.5224
北土髙原本無陂澤	-12.5224
升通米得堅燥免蹈前弊實濟物之良法	-12.5224
午時又出連舒卷須要變至十分	-12.5224
卯之板恒加	-12.5224
又谷中立水六	-12.5224
取之有制用之有	-12.5224
哆	-12.5224
單箔遮日色	-12.5224
圏不厭近必須與人居相連開	-12.5224
埂岸農家瀕溪	-12.5224
多糠薄米息	-12.5224
大如杯盂溝上通尾本者蹹殺人馬有雙	-12.5224
大蹄欲得厚而大踠欲得細而促	-12.5224
如前不計次數惟以潔白為度灰	-12.5224
如前如當日過熱上	-12.5224
寒比及飼蠶先用	-12.5224
寒濕之氣然後飼	-12.5224
尺七焉建惟稱轅	-12.5224
居庶物也四物者備斯成器矣更為之機	-12.5224
帶一鈴草盡牛不食則鈴無聲即拌之飽	-12.5224
循行國邑周視原野修利隄防道	-12.5224
性甚勁直堪為屋材折則折	-12.5224
抖去别用石灰	-12.5224
提之柱其相去也視雙筩雙提之上枘入	-12.5224
提柱上下之也	-12.5224
撲滅仍打之	-12.5224
攪淘去醋氣多與徧數氣盡乃止稍	-12.5224
故不用勞其耕種陸地者	-12.5224
效也其所用之器自撮苗後可用以代耰	-12.5224
日老一箔可得絲二十五兩二十八日老	-12.5224
春夏早放秋冬晩出	-12.5224
是多則均一則	-12.5224
曰架架者所以	-12.5224
月之間即載糞糞地	-12.5224
月生者兩熱相仍中之	-12.5224
有知其利者又莫得其用之具今特多方	-12.5224
服䖍曰一月之中又得夜	-12.5224
木甑中蒸過趂濕剥下	-12.5224
枝上有花頭百	-12.5224
梁横亘焉梁之上為二陷以居雙筩之	-12.5224
棗邊要棗櫅	-12.5224
極大五花叉鋸齒尖其後葉中分生莖叉	-12.5224
樹下阬上糞惡流水之地	-12.5224
欲深細第一徧鋤未可全深	-12.5224
正月上甲風從東方	-12.5224
此布妙處	-12.5224
此法比於起	-12.5224
此立輪之法也然亦當視其水勢隨	-12.5224
水得一道焉或二之或三之四之以上同	-12.5224
江由東以入於海而又	-12.5224
浪併作洄流不致衝	-12.5224
澤蒜可以香食呉人調鼎率多用此根	-12.5224
濕曲折作二尺五寸長	-12.5224
瀹雞子法	-12.5224
火所逼故得安詳也	-12.5224
為屋屋具也一井之中三	-12.5224
熟時收取子和濕沙土拌筐籠盛之穰草	-12.5224
燒葵根為灰	-12.5224
營得小畝三頃	-12.5224
爾即凍不生至二月中出種之於樹下或	-12.5224
物或設機械而就假其力或用挑浚而永	-12.5224
猥	-12.5224
用列諸篇之右	-12.5224
用此匝地約之成	-12.5224
田惟中下青州厥土白墳厥田	-12.5224
疏之義勞有	-12.5224
疫癘之救藥有冬鬻春租冀免芻豆之費	-12.5224
病一眠候十分眠纔可住食至十分起	-12.5224
痛抨然後澄	-12.5224
皮如常法水潤緝搓如前麻	-12.5224
皮肉之貲今勸農有官牛為農本而不加	-12.5224
礓	-12.5224
稭穗隨擁積之有一杷畢功得麥十餘斛	-12.5224
筩之長無定度下端所至居水之中已上	-12.5224
細績雖南北習尚不同然北方隨刈即漚	-12.5224
絶又可蓄為魚塘蓮蕩其利亦博或貫穿	-12.5224
編之髙七	-12.5224
而耙之欲其土細再	-12.5224
而茶褐色其葉味甜	-12.5224
耙耙畢	-12.5224
膠柱鼓瑟之謂若夫逺近寒暖之漸殊正	-12.5224
臍注磨曰眼轉磨曰榦承磨曰槃載磨曰	-12.5224
自外繳耕至中心	-12.5224
與軸之徑等三曰圍	-12.5224
苗生葉以上稍耨壠草	-12.5224
草草塞齒則	-12.5224
葉蒂甚長	-12.5224
蒚	-12.5224
蒿艾簟盛之良	-12.5224
薄開淡黄花結薄殻中有子大如豌豆烏	-12.5224
處慣煖冬月入田尤不耐寒	-12.5224
蠶得食力	-12.5224
蠶沙澆擁之又不可太多恐根嫩故也大	-12.5224
語曰力能勝貧謹能勝	-12.5224
輪之制但去下輪置於車傍岸上用牛拽	-12.5224
近上向陽或在苫草上者此乃强良好繭	-12.5224
逺也荆桑所飼蠶其絲堅韌中	-12.5224
過數倍宜普效之	-12.5224
過熟則抛費每日至晚	-12.5224
醋澱熱塗之以	-12.5224
長筩旁管之徑等中筩之下端為敞口以	-12.5224
間攛葶開紫花結三瓣蒴兒中有子如芥	-12.5224
面患皴者夜燒梨令	-12.5224
飼馬亦良	-12.5224
騰遷移别簇封苫如前小雨則不須但可	-12.5224
驟數百步亦佳十日一放令	-12.5224
宜白沙地少與糞和	-12.5224
作茶煮飲	-12.5224
及青摘取可以為菹乾而末之亦足充事	-12.5224
中不扶自直	-12.5224
一一單排日數既足其蛾自生免熏罨	-12.5224
一向攪勿左右	-12.5224
亦有翻倒之虞	-12.5224
剪過則根跳	-12.5224
十二月盡掃去枯葉枯	-12.5224
啇	-12.5224
故獲利亦薄北簇雖大其弊頗多蒿薪積	-12.5224
正月地釋即耕逐	-12.5224
率一尺一本葉生即鋤鋤不厭數	-12.5224
痩細不得肥也	-12.5224
耕土覆之肥茂早熟雖不及區種亦勝凡	-12.5224
諺曰穄青喉黍折頭	-12.5224
近枝莖薄安黍穰彌佳無穰直安	-12.5224
从	-12.5225
色生好粉黍米粥清亦用絹篩麥䴷末澆	-12.5225
雀甚嗜之必	-12.5225
其汁纔令相淹不用過多泥頭七日便熟	-12.5225
哉伏乞勅下	-12.5225
蝇	-12.5225
部酌議覆請	-12.5225
之掉枝而首為圓孔焉以掉枝之圓孔入	-12.5225
九卿詹事科道	-12.5225
初生即移者喜曲故	-12.5225
助其氣却内之罅中皮肉相對	-12.5225
庣	-12.5225
梅可接杏	-12.5225
機今創此制幸識者述焉	-12.5225
為姙娠婦人	-12.5225
而不乏省而有要誠便民之活法造物之	-12.5225
長可三尺有餘廣可四五寸碪首置木簨	-12.5225
雖曰冷盆亦是	-12.5225
露日出乃止凡種黍覆土鋤治皆如禾法	-12.5225
㨊孔融錫而合之	-12.5225
不去勢分	-12.5225
之下即移羸速鋒之也	-12.5225
之管管外出而	-12.5225
九扈為九農	-12.5225
也管之容其圜中規管之下端抒之以合	-12.5225
五上以方木管之立柱各通一軸軸端俱	-12.5225
令没熱時一宿冷時再宿漉去荄内汁於	-12.5225
儂	-12.5225
則每嵗立春斗	-12.5225
功堅脆懸絶資生要理安可不知	-12.5225
厠	-12.5225
合生雖伏亦不成雛	-12.5225
嘗聞山西汾	-12.5225
四木作框上立	-12.5225
夏即不汗冬即不寒汗而極乾	-12.5225
多以為永業又中土大河之側及淮灣水	-12.5225
大將壓成栽子圍别園如前法栽	-12.5225
子壓枝種之若有子可便種須用地隂處	-12.5225
嵌四大捲	-12.5225
平因以利鎌摩地刈之曝令燥後有風	-12.5225
建於寅方日月㑹於營室東井昏見於	-12.5225
掃除常淨不令他物所侵	-12.5225
斧伐木已乃制之也	-12.5225
既堅硬葉又枯燥	-12.5225
有蛾出者便就出種罨壓熏蒸因熱而生	-12.5225
梨長必遲	-12.5225
棘刺之刺	-12.5225
次後斟酌其根欲	-12.5225
毨	-12.5225
澗谷間種之地欲極良秋上楮子熟時多	-12.5225
澤漆本草一名漆莖大㦸	-12.5225
為十五日凡四十五日	-12.5225
焉如本篇一圖甲	-12.5225
生者此卵既非隂陽	-12.5225
瘧	-12.5225
管管之上端亦抒之既樹之則與筩之	-12.5225
者無鶴膝無斗板器居水中環轉而已湍	-12.5225
者長而細又多瘢	-12.5225
腩	-12.5225
著石灰一斗五升急	-12.5225
赤削驢蹄令出漏孔以蹄頓著磚孔中	-12.5225
遁	-12.5225
隔年自成一	-12.5225
養蠶之法繭種為先今時摘繭一	-12.5225
髙則開渠卑則築圍急則激取緩則疏引	-12.5225
一二尺莖方四楞對分莖	-12.5225
一尺此亦畧言	-12.5225
一法若欲為長軸則	-12.5225
丈餘葉似省沽油	-12.5225
下則子不生	-12.5225
不救之田地上有可興之雨其用水有法	-12.5225
世以為起於三代愚謂不然牛若常在畎	-12.5225
中筩中筩	-12.5225
之孔融錫而合之其長無定度量水之出	-12.5225
之有草則鋤	-12.5225
之法傳轉無窮是亦可以	-12.5225
之注曰專一也架法見恒升篇恒升車記	-12.5225
之漫擲黍穄勞	-12.5225
之為器豈不簡易而利用哉	-12.5225
之逼之也則上衝而壺之舌為之開以入	-12.5225
五寸片竹也其上揉竹	-12.5225
亦秋耕杷勞令熟至春黄	-12.5225
亦輕薄此亦趨時不	-12.5225
人亦名勞曰摩	-12.5225
今創有一器曰	-12.5225
以右手執之復於釤旁以繩牽短軸	-12.5225
以為利今人有能别度地形亦效此制足	-12.5225
作甃穴上覆元土亦是一法如灌	-12.5225
作田圍特省工費又可畜育魚	-12.5225
兒秋間埋頭深栽更疾得力	-12.5225
兩壠頭空務	-12.5225
其數六其味鹹其臭朽其祀行祭先腎	-12.5225
其餘以濟不足雖遇儉嵗而不憂	-12.5225
再耕曰轉生者欲深而猛熟者欲淺而	-12.5225
出賦税共治溝也	-12.5225
區下種稠密如種茄法細土薄糝上	-12.5225
去急耕十餘日又一轉	-12.5225
去痂如前	-12.5225
去糞令苗出	-12.5225
取餳如雞子大打碎	-12.5225
名對節菜	-12.5225
名脚斯蹬	-12.5225
味甘性平無毒一云性冷	-12.5225
味苦甘性平無毒救飢採嫩葉煠熟	-12.5225
和之青油裹之其冐霜雪	-12.5225
和草飼馬甚佳也	-12.5225
園内養成	-12.5225
地畢破其塊墢而後用勞平磨乃為得也	-12.5225
多比之南布或有價髙數倍者真良法也	-12.5225
多種久居供食者	-12.5225
大類亦各從其便也	-12.5225
天子三推三公五推卿諸侯九推反執爵	-12.5225
太陽之草名	-12.5225
如當處無可	-12.5225
如麻地即於六月中旱時耬耩作壟	-12.5225
子其置也若棄則其天者全而其性得矣	-12.5225
宜麻亦生熟有節	-12.5225
家田所須種子多少	-12.5225
小刺葉似杏葉頗團小開白花結實如葡	-12.5225
小竹開花如牽牛花青碧色似小鈴形様	-12.5225
小肉紅花結蒴有子似小桃紅子苗葉味	-12.5225
州禾皆異畝同穎	-12.5225
布機釋名曰布列諸縷淮南子曰伯	-12.5225
常令煖數日醋香便中用以	-12.5225
常變之或異又當推測晷度斟酌先後	-12.5225
廣三寸則甲丁長六寸也半徑為孔者	-12.5225
引江潮流行於岡隴之外	-12.5225
得平而廣能負重背欲得平而方鞍下有	-12.5225
必兩習熟者能用不然則有矛盾之差矣	-12.5225
成大樹相對則	-12.5225
截其疄洩利其水謂之腰	-12.5225
擊禾器國語曰權節其用耒耜耞	-12.5225
故區畦種葉作菜食子根入藥	-12.5225
日夜不止絶勝踏車	-12.5225
早刈米青	-12.5225
是矣然按月農時特取天地南北之中氣	-12.5225
晝夜飼若頓數多者蠶必疾老少者遲老	-12.5225
景帝末年太倉之粟陳陳相因而民亦富	-12.5225
有不同有用耙而不知用勞有用勞而不	-12.5225
有小鋸齒開粉紫花黄心葉味甜	-12.5225
木及葉於地埋之常	-12.5225
架木立軸置二卧輪其上	-12.5225
梜榆莢葉味苦凡榆莢味甘	-12.5225
榻	-12.5225
水激立輪其輪輻之末復作小輪輻頭稍	-12.5225
永寧嵩縣	-12.5225
沙田南方江淮間沙淤之田也或	-12.5225
治簇之方惟在乾暖使内無寒濕	-12.5225
泥上草薉	-12.5225
澤草所生種之芒種	-12.5225
濕耕堅垎	-12.5225
火災木又不蠧可為永法	-12.5225
為始向外繳耕終此一	-12.5225
為木杖如拐子兩手倚之以用力以趾塌	-12.5225
無衝激之患	-12.5225
率作興事耳	-12.5225
田者納種如前法既生七八寸㧞而栽之	-12.5225
砧厚者稍剡其周之上下如鼓木當其剡	-12.5225
禁淤湖蕩	-12.5225
科條髙三四尺	-12.5225
稍弱其砧之徑以氊罽之屬皮革之屬附	-12.5225
管子曰倉廩實而知禮節	-12.5225
約量本家育蠶多少選於院内空	-12.5225
者春時將煮賣	-12.5225
而上溢其終無出也而有筩之容以俟其	-12.5225
而行芟麥者腰繫	-12.5225
耕地之法未耕曰生已耕曰熟初耕曰塌	-12.5225
耕所有就上覆草為	-12.5225
舁之積處往返不已一籠日可收麥數	-12.5225
色人多摘取串作數珠葉味淡甜	-12.5225
苗根之下則泥沃而苗興其功與芸	-12.5225
荆揚厥土塗泥農家皆用此法又有足	-12.5225
荆魯桑小樹如轉盤時於臘月内可去不	-12.5225
葉頗小上開白花	-12.5225
螺溝螺溝者水道也軸得一墨焉則得一	-12.5225
豐年納榖而藏之凶年出榖以賙貧乏官	-12.5225
車隨轉倒水上岸此是卧輪之制若作立	-12.5225
逶	-12.5225
逺宜為地桑然荆之條葉不如魯葉之	-12.5225
邑巷陌及注之園囿池沼悉周於用雖	-12.5225
野茴香生田野中	-12.5225
量黄白分數抽減所飼之葉漸次細切薄	-12.5225
鈞州山野中	-12.5225
鏹	-12.5225
鐏	-12.5225
開挑而又時常巡視不使淤塞如此則旬	-12.5225
開白花結子如梧桐子大生青熟	-12.5225
防風一名銅芸一名茴草一名	-12.5225
陽木而火之冬日至令剥隂木而水之	-12.5225
青子如梧桐子大葉味酸澁實味甘酸	-12.5225
魚半出鼓其出之中建柄半寸上承添梯	-12.5225
多不可徧舉世所名者荆與魯也荆桑多	-12.5225
常以洗魚水澆之則香而茂溝泥水米泔	-12.5225
梨置中不	-12.5225
厦屋㝷常别用至蠶老時置簇於内隨其	-12.5225
寒第四年開花結實十月收摘甑内微蒸	-12.5225
此故習俗既	-12.5225
熱牛糞中凍	-12.5225
白棗樲酸棗	-12.5225
醴酪火掭	-12.5225
雖深大常	-12.5225
剪則損白供	-12.5225
地賣者省功而利少煮剝賣皮者雖勞而	-12.5225
水棘針苗又名山油子生田野中苗	-12.5225
作葅及乾者九月收	-12.5226
檠	-12.5226
八磨之重竊謂此雖並載前史然世罕有	-12.5226
其多種者如種	-12.5226
以惡為美以彼易此其利有不可勝言者	-12.5226
小罅深可寸半先用竹	-12.5226
排如車輪様有六	-12.5226
此服被漸廣	-12.5226
纒十許匝	-12.5226
上下盡區如一受麥九	-12.5226
之一區四根即足矣	-12.5226
九川滌源九澤既陂	-12.5226
作杏李麨法	-12.5226
先於岸側掘成峻槽與車輻同	-12.5226
即下樹栽樹大者須以木扶架若根不動	-12.5226
即不幸有方二三千里之旱國胡以相恤	-12.5226
可以一力轉	-12.5226
嘗見江東農家用之	-12.5226
工欲善其事必先利其器	-12.5226
常以十月朔日占	-12.5226
常得數人之功又向所言風與水能敗龍	-12.5226
年後根相交根交則不旺春時	-12.5226
有黒白二種桑之精英盡在	-12.5226
牙上下數重所在皆得懸訖薪下	-12.5226
物者備斯成器矣更為之機	-12.5226
甫始也凡將制器始	-12.5226
皆可便食是用接新代飯充飽	-12.5226
若大者而欲無用輪則以兩掉枝同加	-12.5226
若孤根獨	-12.5226
連磨連轉	-12.5226
鄭縣語曰	-12.5226
齒兩邊黄各缺區平受米八	-12.5226
䓗	-12.5226
一帶茭蘆之地	-12.5226
三江既入震澤底定是	-12.5226
上下徐州厥土赤埴墳厥田	-12.5226
不劈裂又令辟惡	-12.5226
之刈穫功過累倍	-12.5226
之制無異凡臨坎井或積水淵潭可	-12.5226
之善也八分之一者如軸長八尺則	-12.5226
之條預於他處	-12.5226
也斟酌焉而為之度或銅錫之中筩裁數	-12.5226
乾明日復溲	-12.5226
二三尺許葉似連翹葉	-12.5226
二尺餘就地叢生葉似酸漿子葉	-12.5226
二百石米已當	-12.5226
五七粒五月之後芽葉	-12.5226
京兆乃令整阡陌樹桑果又課以	-12.5226
令過熱忌不	-12.5226
以通灌溉其	-12.5226
作米粉法	-12.5226
便枝梢小樹近上留三五條	-12.5226
其上以竹木焉續之竹木之筩之徑必與	-12.5226
其功大可下潤於千頃	-12.5226
其地常潤澤可保豐熟普為塍埂可種稻	-12.5226
冬至後一百一十日可種稻稻地美用種	-12.5226
冬藏濕又分減栽時併忙區方深各二尺	-12.5226
凡川澤之水必開渠引用可	-12.5226
出覆土覆厚一指再勿澆待六七	-12.5226
剪訖更種從春至秋	-12.5226
勃壤用狐埴壚用豕彊㯺用蕡輕	-12.5226
勢便死矣	-12.5226
即便載麥上場堆積用苫繳覆以防雨作	-12.5226
厚者亦可以湯洗之去痂拭燥以藥	-12.5226
又名曰種蒔曰耩子曰耬	-12.5226
又燉煌俗婦女作裙	-12.5226
取生布割	-12.5226
可以糞田疇可以美土疆	-12.5226
可割大麻既割其小芽榮長	-12.5226
合手藥法取	-12.5226
吊	-12.5226
名牛膝一名百倍	-12.5226
和之汁極冷	-12.5226
在不搓揉了麻之骨力好灰水蘸	-12.5226
在詩有云載芟載柞其耕澤澤	-12.5226
塍内開耕畢便撒稻種直至成熟不須薅	-12.5226
壺水勢盡而彼舌開則此闔矣是代入	-12.5226
太湖諸水源多而勢盛二江不足以洩	-12.5226
如長成樹者當中有身及枝者亦可斫去	-12.5226
宜撻之打令土實也今當耕種用之故附	-12.5226
寒忌正寒	-12.5226
尖向上左右斜批豁兩道至平面其下尖	-12.5226
尖紋皺却少	-12.5226
尺留一根必須稀穊均調行五條直相	-12.5226
山色此必收之種也若頂平焦乾及蒼黄	-12.5226
山莧菜本草	-12.5226
左捲每日交換捲那捲罷依前	-12.5226
左腋間右手料取而	-12.5226
布子潔白而已雖曰蘸	-12.5226
常法伏内壓條特為滋茂一法截條長四	-12.5226
平一同春法但既是旱種不須耬潤此菜	-12.5226
建星辰正於南由此以	-12.5226
待地白背耬耩漫擲子空	-12.5226
徐廣曰巵音支	-12.5226
徧便科定每科只留兩	-12.5226
必立此檻其竇乃成	-12.5226
所以養鯉者鯉不相食易長又貴也	-12.5226
所耕地内先並耕	-12.5226
推雪著區上為堆潤澤肥好乃勝春種	-12.5226
插枝者二三月檜芽蘖動時先熟	-12.5226
搨地布葉葉似野天茄兒葉	-12.5226
摀	-12.5226
摘既述舊以	-12.5226
撒之隨撒隨行約行三	-12.5226
收以水淘汰令淨曝乾散訖勞之草生拔	-12.5226
收無疑其實將落反失之故曰豆熟於場	-12.5226
放之桃林之野乎故周禮祭牛之外以享	-12.5226
文杏實大而甜核無文采	-12.5226
於窒塞抑	-12.5226
既於下流之	-12.5226
明年斸地令熟還於	-12.5226
春秋之間故孔子有	-12.5226
是以瀦洩有法而水旱皆不為患近	-12.5226
時旋打旋揚與蠶沙相和辟蟲傷資地力	-12.5226
有漫種耬種瓠種區種之别漫種者用斗	-12.5226
桑麻或中貫	-12.5226
棗還味棯	-12.5226
榖殻朽腐最宜秧田	-12.5226
欲促而大其間纔容靽烏頭欲	-12.5226
欲曲而立臂欲大而短骸欲小而長	-12.5226
此剥桑之法	-12.5226
此救水荒之上法一名	-12.5226
民無職事者出夫家之征	-12.5226
水之淺深常令塊墢半	-12.5226
江淮河漢及所在川澤皆可引而及田以	-12.5226
沃饒之資但人情拘於常見不能通變間	-12.5226
治之之法當自要害	-12.5226
滿地省耕種之勞秋種者五月子熟	-12.5226
漏蘆一名野蘭	-12.5226
漚浸漬也池猶泓也	-12.5226
潢汙洄互壅積泥滓退皆成淤灘亦可種	-12.5226
澆灌園圃勝於人力汲	-12.5226
熱湯潑灰忌産婦孝子入家忌燒皮毛亂	-12.5226
牛轉翻車如無流水處	-12.5226
狀先以杖刺泥成孔插檜枝於孔中深五	-12.5226
用一色純	-12.5226
用穬麥和小	-12.5226
疥令赤若	-12.5226
相為體用	-12.5226
磨之功今人呼耙曰渠疏勞曰	-12.5226
秋後泥乾地裂布掃麥種於上	-12.5226
科條法凡可科	-12.5226
窄小面有細紋脉	-12.5226
立秋前治訖	-12.5226
米勿使有雜	-12.5226
結子如灰菜子	-12.5226
翻過又不下者並連棄了此殘病	-12.5226
者皆於長木柄頭造為擐軸舉而轉之以	-12.5226
而糶之不使之傷民唐之義倉計墾田頃	-12.5226
耙勞之末然南人未嘗識此	-12.5226
舊所謂坍江之田廢復不常故畝無常數	-12.5226
色枝間開淡紫花味甘	-12.5226
若多者日别漸漸塗之勿頓塗令徧羊	-12.5226
葉似荏子葉	-12.5226
葉味微酸救飢採葉煠熟水浸	-12.5226
葉皮及實皆可	-12.5226
蘆根㕮咀令破以泔浸之以瓶盛塞口	-12.5226
裏左捲者	-12.5226
覆之時用泔澆灌越數時則以槌棒擊樹	-12.5226
訖即編為巴籬隨宜夾	-12.5226
説文曰榛似梓實如小栗衛詩	-12.5226
越加箭可弛張焉轅之上又有如槽形亦	-12.5226
車於内車之踏軸外端作一竪輪竪輪之	-12.5226
軟鋸齒尖	-12.5226
逺宜為樹魯之類根不固心不實不能	-12.5226
酉為三角形也酉戌柄也立之柄者立柄	-12.5226
雖丈許之木可活仍須芟去繁枝	-12.5226
雨新晴北風寒切是夜必霜此時放火作	-12.5226
雨日將連取出通見風日那表為	-12.5226
齊楚江淮之間謂之柍	-12.5226
龔遂為渤海太守	-12.5226
未能遽革今聞善蠶者	-12.5226
炕	-12.5226
作坑收卷	-12.5226
其子作米可食餘及牛馬又可濟荒其	-12.5226
其實蓮其根藕	-12.5226
微長大又似	-12.5226
樹千錢柴在外車板盤合樂器所在任用	-12.5226
爾雅曰梅柟	-12.5226
白赤三色	-12.5226
菺	-12.5226
以束水也水所由上也	-12.5227
多用草灰和之	-12.5227
綌	-12.5227
有凶穰故	-12.5227
金剛拳	-12.5227
誕降嘉種	-12.5227
擇治淨洗沸湯煠即出於水中淨洗	-12.5227
麂	-12.5227
今大葉冬藍也	-12.5227
以示鼓勵	-12.5227
休農息役	-12.5227
好未移之間妨廢耕	-12.5227
層六七葉相對	-12.5227
截漕查賑	-12.5227
收子壓取油可以	-12.5227
連根取出就地鋪穧頗乾輕振其土以茅	-12.5227
麋角解	-12.5227
一遇風寒大者損瘦小者或死燃栁柴	-12.5227
之圜孔為之舌以	-12.5227
之心在乙丙線之上也二孔㨊圓者如酉	-12.5227
之舌者方版方版之旁為之樞	-12.5227
亦生莖葉肥茂異	-12.5227
兩牛兩人牽之一人將耕一人下種二人	-12.5227
又别録曰	-12.5227
失時之稼約	-12.5227
常者且常有潤澤旱亦	-12.5227
戴勝降於桑	-12.5227
手力速竟	-12.5227
桑椹味甘性暖	-12.5227
樹還以月三日種黍他	-12.5227
氣不入身無苛殃	-12.5227
浥之憂死蠶旋墜無汚繭之患沙	-12.5227
溪見二花犬因逐之入	-12.5227
漿水調草後灌之	-12.5227
物者隨地所宜偶假其形而取便於用也	-12.5227
而無罅也兩	-12.5227
耬凡用兩牛六人一日纔種二十五	-12.5227
艋	-12.5227
苓黄耆知母貝母	-12.5227
草一名蜀脂一名百本一名王孫	-12.5227
馬氣喘方	-12.5227
䆫	-12.5227
䒩	-12.5227
䕺	-12.5227
一名紅藍其花	-12.5227
一復時可六頓次日可漸漸加葉可開捲	-12.5227
上以布裹之	-12.5227
不宜蒸餾此	-12.5227
不牢掃除不	-12.5227
中筩之徑等管之長無定度其下迤也及	-12.5227
之又束之者水力大而易渫也四曰中筩	-12.5227
之間成螺旋之溝水從溝行而	-12.5227
[...]
