<unk>	0
<s>	0
</s>	0
之	-4.35684
(	-4.48998
/	-4.94209
書	-5.10347
而	-5.12386
/)	-5.15069
為	-5.20527
)	-5.21376
有	-5.22165
也	-5.27978
以	-5.28905
一	-5.40126
其	-5.43165
人	-5.48143
者	-5.53461
於	-5.64849
不	-5.67586
圖	-5.73204
畫	-5.74618
中	-5.78611
字	-5.79656
如	-5.97552
與	-5.9866
王	-6.01121
作	-6.0121
無	-6.02237
在	-6.0682
自	-6.07543
得	-6.08288
子	-6.08762
則	-6.08793
山	-6.11141
此	-6.12913
文	-6.1437
上	-6.16115
行	-6.17418
時	-6.17713
云	-6.20172
大	-6.21807
公	-6.25101
又	-6.25121
二	-6.30788
三	-6.3201
亦	-6.3569
▁	-6.35829
見	-6.36122
)(	-6.38867
後	-6.39535
然	-6.39866
于	-6.4005
皆	-6.42033
曰	-6.42555
張	-6.43019
是	-6.45183
詩	-6.45195
唐	-6.45706
出	-6.45763
至	-6.46063
帖	-6.46286
所	-6.47032
故	-6.48379
筆	-6.49437
矣	-6.49509
下	-6.50935
道	-6.51076
生	-6.51788
家	-6.53402
今	-6.54663
若	-6.55152
李	-6.55537
天	-6.55759
多	-6.55934
名	-6.56234
石	-6.56433
非	-6.59016
明	-6.59724
髙	-6.59785
元	-6.59795
長	-6.59894
本	-6.60265
相	-6.60711
可	-6.61003
古	-6.62534
乃	-6.6366
清	-6.65272
日	-6.65855
學	-6.66039
題	-6.66088
心	-6.67058
水	-6.67521
雲	-6.67587
用	-6.67614
事	-6.67945
宋	-6.68186
重	-6.6829
同	-6.69035
成	-6.69806
知	-6.71807
真	-6.7231
言	-6.72516
及	-6.7506
來	-6.75424
耳	-6.76144
碑	-6.76845
記	-6.77338
意	-6.77523
已	-6.77685
世	-6.77783
正	-6.77891
方	-6.781
風	-6.7825
法	-6.78681
深	-6.78992
傳	-6.79109
小	-6.80745
前	-6.81591
四	-6.81657
善	-6.81999
能	-6.82862
君	-6.83036
卷	-6.84221
余	-6.8528
右	-6.85579
陳	-6.87014
復	-6.87481
花	-6.87691
入	-6.88203
觀	-6.89019
老	-6.89191
間	-6.91376
金	-6.91985
春	-6.94023
或	-6.94093
當	-6.94631
雖	-6.95928
欲	-6.96007
師	-6.96469
玉	-6.96518
謂	-6.96934
因	-6.98242
五	-6.98586
臣	-6.99021
經	-7.00389
何	-7.00464
從	-7.00941
處	-7.01113
歸	-7.0136
寫	-7.02718
集	-7.03327
未	-7.03948
神	-7.04083
圖一	-7.04321
逺	-7.05015
乎	-7.05055
去	-7.05929
兩	-7.06333
初	-7.07276
居	-7.07748
龍	-7.08279
思	-7.08588
周	-7.09313
氏	-7.09681
月	-7.09841
林	-7.10147
竹	-7.12023
惟	-7.12375
劉	-7.12528
州	-7.12846
手	-7.14082
秋	-7.1447
白	-7.14494
似	-7.14665
光	-7.1474
南	-7.14999
即	-7.16929
馬	-7.17252
焉	-7.1771
令	-7.17873
使	-7.17974
東	-7.181
志	-7.18166
草	-7.18644
平	-7.19291
我	-7.19383
予	-7.21225
過	-7.21315
論	-7.22172
印	-7.22978
先生	-7.23452
圗	-7.23514
吾	-7.23593
景	-7.23835
黄	-7.23967
年	-7.24427
安	-7.25023
少	-7.25712
獨	-7.26916
數	-7.27339
體	-7.27366
盡	-7.27442
通	-7.27931
官	-7.27944
諸	-7.28233
六	-7.28289
遂	-7.28546
雪	-7.28773
聞	-7.28817
華	-7.29282
立	-7.29287
甚	-7.29362
稱	-7.29529
臨	-7.29624
好	-7.29653
國	-7.2992
工	-7.30155
徳	-7.30213
山水	-7.30328
識	-7.30359
物	-7.30807
夫	-7.30892
宗	-7.31187
士	-7.31361
合	-7.31521
取	-7.32858
墨	-7.33088
先	-7.33485
分	-7.33579
西	-7.33653
九	-7.33884
將	-7.34042
近	-7.34442
門	-7.36389
氣	-7.36486
尚	-7.36519
常	-7.36871
新	-7.36985
異	-7.37851
妙	-7.37908
楊	-7.38084
直	-7.38519
趙	-7.39222
朝	-7.3943
漢	-7.39876
流	-7.39961
空	-7.40517
應	-7.40558
語	-7.4058
起	-7.41265
且	-7.4153
極	-7.41998
藏	-7.42077
號	-7.4248
江	-7.42573
雨	-7.42623
章	-7.42787
外	-7.4323
吳	-7.43371
堂	-7.43514
猶	-7.4358
高	-7.43852
伯	-7.44992
樹	-7.451
和	-7.45141
朱	-7.45599
舊	-7.45623
飛	-7.45727
必	-7.45849
闕	-7.45908
並	-7.46233
色	-7.46323
哉	-7.46395
不可	-7.46632
問	-7.46756
既	-7.46855
開	-7.47113
松	-7.47356
别	-7.47504
絶	-7.478
紙	-7.48082
更	-7.48183
仲	-7.4819
求	-7.48237
父	-7.48443
青	-7.48815
凡	-7.48933
寒	-7.48934
跋	-7.49337
興	-7.49506
嘗	-7.49615
十	-7.49888
以為	-7.50012
晉	-7.50066
實	-7.50321
定	-7.50518
仙	-7.50518
還	-7.50564
始	-7.50569
樂	-7.50885
餘	-7.5133
百	-7.51555
陽	-7.51629
八	-7.52238
難	-7.52767
目	-7.52805
易	-7.53254
地	-7.53336
史	-7.53375
聲	-7.53514
客	-7.54118
節	-7.54326
精	-7.55173
齋	-7.5537
信	-7.56053
等	-7.56089
孫	-7.56587
命	-7.56982
兮	-7.57091
僧	-7.57288
銘	-7.57382
不能	-7.57872
著	-7.57887
望	-7.57965
宜	-7.58003
寳	-7.5809
爾	-7.58375
像	-7.58969
俱	-7.59299
勝	-7.59458
寺	-7.59467
萬	-7.59506
廣	-7.59846
素	-7.60092
畵	-7.60631
内	-7.60855
頭	-7.60977
首	-7.61199
行書	-7.61437
刻	-7.61714
游	-7.61741
/)(	-7.61833
蓋	-7.61888
顧	-7.61913
坐	-7.62104
七	-7.62177
發	-7.6252
香	-7.62784
鼎	-7.62982
竒	-7.63417
翁	-7.63516
梁	-7.64079
豈	-7.64544
形	-7.64836
許	-7.65463
賦	-7.65524
謝	-7.65548
徐	-7.65672
閒	-7.65895
但	-7.66101
草書	-7.66332
足	-7.66451
致	-7.67262
全	-7.67872
情	-7.68001
左	-7.6816
進	-7.68382
奉	-7.6856
葢	-7.69015
兼	-7.69127
録	-7.69152
佳	-7.70011
海	-7.70476
溪	-7.70976
葉	-7.71246
向	-7.71251
力	-7.71515
載	-7.7163
義	-7.71713
武	-7.7195
不知	-7.71984
圖二	-7.72138
禮	-7.72166
聖	-7.72178
祖	-7.72382
理	-7.72479
喜	-7.72624
卿	-7.72962
夜	-7.73393
賢	-7.7358
齊	-7.73925
𤣥	-7.74001
每	-7.74489
須	-7.74564
釋	-7.74685
身	-7.74865
次	-7.74899
舉	-7.7491
盖	-7.74968
莫	-7.754
尤	-7.75434
留	-7.76422
類	-7.76596
落	-7.76964
酒	-7.77182
對	-7.77312
遊	-7.77315
㑹	-7.77514
遺	-7.77773
耶	-7.77777
嵗	-7.78066
陸	-7.78156
敬	-7.78427
北	-7.78531
要	-7.78597
帝	-7.78889
簡	-7.79209
沈	-7.79421
各	-7.79434
逸	-7.79516
横	-7.79754
端	-7.80522
野	-7.80698
靈	-7.81448
便	-7.81778
愛	-7.81806
益	-7.82632
存	-7.82793
爲	-7.82892
秀	-7.82941
城	-7.83048
歌	-7.83124
半	-7.83419
一卷	-7.83469
比	-7.8352
看	-7.83549
人物	-7.83843
宫	-7.83963
微	-7.84023
篆	-7.84111
良	-7.84121
下有	-7.84511
尊	-7.84605
俗	-7.84648
美	-7.85378
輕	-7.85394
古人	-7.85416
贈	-7.85461
共	-7.85641
亭	-7.85838
表	-7.85967
變	-7.86116
後有	-7.86172
叔	-7.86412
具	-7.86489
賜	-7.86718
秦	-7.87121
容	-7.87615
轉	-7.87695
度	-7.87776
錢	-7.87863
隨	-7.87945
木	-7.8821
按	-7.88369
象	-7.88504
泉	-7.88507
都	-7.88629
承	-7.88941
修	-7.88998
右軍	-7.89658
仁	-7.89935
呉	-7.89952
夏	-7.89966
侯	-7.90085
貴	-7.90113
永	-7.90199
幽	-7.90552
友	-7.90588
幅	-7.91038
撰	-7.91044
勢	-7.91201
雅	-7.91441
指	-7.91455
并	-7.91901
細	-7.91941
終	-7.91965
寶	-7.92052
所謂	-7.92429
如此	-7.92484
滿	-7.92796
女	-7.92855
太	-7.93271
真蹟	-7.93295
誰	-7.93637
閣	-7.93924
主	-7.94385
特	-7.94465
千	-7.95004
親	-7.9537
筆法	-7.95412
壁	-7.95778
守	-7.9587
軸	-7.95917
胡	-7.96339
衣	-7.96382
夢	-7.96928
斯	-7.96936
懐	-7.97777
臺	-7.98466
昔	-7.98505
到	-7.98609
蘇	-7.98687
幾	-7.9917
書法	-7.99318
路	-7.99388
梅	-7.99401
殊	-7.99523
固	-7.99537
韻	-7.99672
枝	-7.99929
雙	-8.0006
樓	-8.00329
鄭	-8.00649
詞	-8.00896
解	-8.01215
器	-8.01626
此卷	-8.01789
面	-8.01814
巖	-8.01905
登	-8.02285
上等	-8.02523
魚	-8.02546
摹	-8.02609
露	-8.02865
任	-8.02868
田	-8.03404
久	-8.03501
當時	-8.03625
鶴	-8.03798
殿	-8.03899
舟	-8.04251
疑	-8.04347
次等	-8.04518
才	-8.04538
軒	-8.04795
動	-8.0505
序	-8.05074
民	-8.05149
原	-8.05249
失	-8.05695
止	-8.05846
送	-8.05902
寄	-8.06132
垂	-8.0631
辭	-8.06526
孝	-8.0666
散	-8.06689
持	-8.06708
篇	-8.06833
府	-8.06954
魏	-8.06984
母	-8.07003
而不	-8.07078
弟	-8.07163
請	-8.07273
烟	-8.07531
德	-8.07957
冩	-8.08258
想	-8.08376
斷	-8.08456
視	-8.08545
醉	-8.08639
隠	-8.08685
適	-8.09091
感	-8.09158
教	-8.09244
誠	-8.09497
顔	-8.09684
佛	-8.09709
性	-8.09757
縣	-8.09852
得之	-8.10674
来	-8.10937
宣	-8.11055
授	-8.11059
虚	-8.11136
衆	-8.11864
紅	-8.12091
造	-8.12197
波	-8.12375
封	-8.12539
曽	-8.12675
化	-8.12882
説	-8.12932
不得	-8.12957
天下	-8.12965
連	-8.13112
考	-8.13431
韓	-8.1355
驚	-8.13729
拜	-8.13744
最	-8.13829
英	-8.1391
計	-8.14179
曹	-8.14205
列	-8.14664
雜	-8.14886
翠	-8.14908
品	-8.14934
郎	-8.1512
忠	-8.15278
寧	-8.15361
㸃	-8.15618
彼	-8.15745
峰	-8.15843
盛	-8.16075
收	-8.16268
加	-8.16478
放	-8.16893
照	-8.1718
交	-8.17264
遇	-8.18029
幸	-8.18411
謂之	-8.18417
蕭	-8.18782
頗	-8.18865
題云	-8.19105
圗一	-8.19126
羣	-8.19265
燕	-8.19862
往	-8.19985
兄	-8.20193
二年	-8.20298
覺	-8.20944
御	-8.21478
碧	-8.21721
孤	-8.21796
蘭	-8.21814
食	-8.21933
紀	-8.21937
附	-8.21973
就	-8.22132
院	-8.22216
隂	-8.22433
服	-8.22775
口	-8.22827
楚	-8.22926
趣	-8.23256
亂	-8.23279
第	-8.23288
病	-8.23432
紫	-8.23469
再	-8.23863
杜	-8.24017
書畫	-8.24108
池	-8.24358
虞	-8.24425
句	-8.24499
嘉	-8.24672
備	-8.24968
置	-8.25071
影	-8.25136
賞	-8.25201
末	-8.25456
建	-8.25704
果	-8.25898
死	-8.25992
政	-8.26187
塵	-8.26429
甫	-8.26614
商	-8.26694
尋	-8.26768
眞	-8.26802
藝	-8.27002
得其	-8.27093
功	-8.2717
骨	-8.27249
虎	-8.27269
昭	-8.27308
恐	-8.27606
郭	-8.27724
破	-8.27782
笑	-8.27874
季	-8.2789
改	-8.27905
者也	-8.27956
庭	-8.28052
代	-8.28405
郡	-8.28635
八分	-8.28969
蘭亭	-8.29054
忽	-8.29148
昌	-8.29214
狀	-8.29315
休	-8.29391
鋒	-8.29496
曾	-8.29503
質	-8.29556
谷	-8.29569
鳥	-8.29782
徑	-8.29844
皇	-8.30234
孟	-8.30262
屬	-8.30337
室	-8.30951
治	-8.31019
元年	-8.31109
晚	-8.31247
丹	-8.31281
羅	-8.31326
第一	-8.31347
牛	-8.31379
窮	-8.31699
川	-8.3171
園	-8.31788
疎	-8.32082
補	-8.32151
希	-8.32168
迹	-8.32241
帶	-8.323
結	-8.32325
習	-8.32641
司	-8.32716
時人	-8.32922
汝	-8.32988
𨽻	-8.33003
厚	-8.33004
曲	-8.33059
眼	-8.33433
芳	-8.33951
謹	-8.34118
奇	-8.34491
鍾	-8.347
受	-8.35222
達	-8.35283
示	-8.3546
忘	-8.35582
唐人	-8.35861
音	-8.35864
彦	-8.35961
晴	-8.36257
業	-8.36278
却	-8.36307
里	-8.36579
菴	-8.36661
榮	-8.36755
浮	-8.36862
三年	-8.36891
源	-8.36996
追	-8.37182
制	-8.37312
戲	-8.37514
跡	-8.3765
舞	-8.37906
仰	-8.38408
倣	-8.38409
霜	-8.38515
博	-8.38538
格	-8.38581
而已	-8.38637
𫝊	-8.38674
由	-8.38761
軍	-8.38979
背	-8.39086
種	-8.39198
貞	-8.39513
惠	-8.39601
曉	-8.39612
念	-8.39699
卒	-8.397
圓	-8.39802
兒	-8.39805
邪	-8.39996
繼	-8.40031
邊	-8.4005
盧	-8.40062
移	-8.40135
贊	-8.40177
稍	-8.4018
古今	-8.40372
索	-8.40408
冠	-8.40429
崇	-8.40468
蒼	-8.40638
期	-8.40641
河	-8.40752
可以	-8.40959
續	-8.41259
一印	-8.4127
試	-8.41303
蜀	-8.41324
鳴	-8.41832
緑	-8.41849
車	-8.41865
宿	-8.41878
引	-8.42165
淡	-8.42216
蔡	-8.42565
慶	-8.42597
毛	-8.42702
所藏	-8.42893
勁	-8.43124
金石録	-8.43192
米	-8.43223
裏	-8.43514
詔	-8.43816
官至	-8.43821
冊	-8.44089
折	-8.44321
鄉	-8.44372
讀	-8.44389
兵	-8.44567
利	-8.44615
栁	-8.44793
辨	-8.45173
巧	-8.4531
只	-8.45353
疾	-8.45536
苦	-8.45648
小楷	-8.457
星	-8.4586
筆意	-8.45862
䟦	-8.46134
儒	-8.46183
珍	-8.46325
獻	-8.464
縱	-8.46553
薄	-8.46564
所以	-8.46814
省	-8.4682
徒	-8.46967
為之	-8.47083
一時	-8.47143
濟	-8.47219
訪	-8.47231
陵	-8.47533
懷	-8.47664
願	-8.47811
惜	-8.47891
述	-8.4792
土	-8.48103
略	-8.48287
歴	-8.48337
儀	-8.48698
行草	-8.4873
側	-8.48767
温	-8.48814
學士	-8.48974
范	-8.49148
峯	-8.49154
玩	-8.49191
壽	-8.49264
沙	-8.49277
况	-8.49638
約	-8.49659
隱	-8.50214
翰墨	-8.50256
嚴	-8.50359
紹興	-8.50366
參	-8.50451
潤	-8.50456
福	-8.50497
珠	-8.50552
琴	-8.50593
兹	-8.50627
悉	-8.50725
評	-8.508
廟	-8.509
湖	-8.50916
延	-8.51132
偶	-8.51288
尾	-8.51394
正書	-8.51593
用筆	-8.51807
魯	-8.51858
總	-8.51917
十二	-8.51924
執	-8.51954
村	-8.52006
京	-8.5205
短	-8.52098
之所	-8.52118
之妙	-8.52176
隸	-8.52416
推	-8.52478
頌	-8.52614
澤	-8.5267
怪	-8.52714
越	-8.52921
差	-8.52953
橋	-8.53236
吟	-8.53279
東坡	-8.53289
告	-8.53358
册	-8.53424
悟	-8.53745
夀	-8.53781
顯	-8.53843
淵	-8.53888
至於	-8.53954
一軸	-8.54161
詳	-8.54233
雄	-8.54258
前有	-8.54272
注	-8.54326
麗	-8.54505
靜	-8.54866
角	-8.55076
飲	-8.55114
莊	-8.55155
崔	-8.55223
静	-8.55261
孔	-8.55347
屋	-8.56111
養	-8.56207
蹟	-8.56458
陶	-8.5672
克	-8.56752
絲	-8.56868
程	-8.56883
闗	-8.56935
說	-8.56988
寓	-8.57337
鳯	-8.5737
部	-8.57431
四年	-8.57462
僕	-8.57646
恨	-8.57814
夫人	-8.57848
議	-8.57971
江南	-8.58007
遷	-8.58757
歎	-8.58843
袁	-8.591
吴	-8.59368
漫	-8.59563
姓	-8.59755
豐	-8.59764
二印	-8.60006
積	-8.60015
一日	-8.6019
錦	-8.60377
吉	-8.6043
獲	-8.60439
錄	-8.60606
依	-8.6071
根	-8.60815
恭	-8.61235
亡	-8.61278
盤	-8.61623
㣲	-8.61783
伏	-8.62122
君子	-8.62155
豪	-8.62232
待	-8.62234
借	-8.62302
楷	-8.62666
茂	-8.62692
舍	-8.62866
回	-8.62939
調	-8.6315
懸	-8.63182
倚	-8.63269
唯	-8.63356
丁	-8.63394
不同	-8.63497
密	-8.6365
維	-8.63698
紙本	-8.63823
缺	-8.64111
風雨	-8.64145
鑒	-8.6417
輩	-8.64402
報	-8.64452
楷書	-8.64542
管	-8.64672
殆	-8.64694
運	-8.64703
智	-8.64781
展	-8.6479
敏	-8.65172
他	-8.65203
聽	-8.65329
書史㑹要	-8.6551
是也	-8.65588
離	-8.65709
布	-8.65872
古文	-8.65876
衛	-8.66013
不及	-8.66189
誤	-8.66224
反	-8.66284
惡	-8.66538
道人	-8.6666
宣和	-8.66821
嗣	-8.66908
隔	-8.67123
丹青	-8.67275
姚	-8.67561
談	-8.67703
善畫	-8.67907
順	-8.68013
咸	-8.68016
晩	-8.68236
翰	-8.68273
火	-8.68423
機	-8.68604
洪	-8.69057
康	-8.69259
之間	-8.69269
尚書	-8.69319
采	-8.69337
閲	-8.69451
不足	-8.69627
宻	-8.69636
韋	-8.69657
施	-8.699
館	-8.6994
冬	-8.7007
房	-8.70111
蒙	-8.70169
畢	-8.70185
竟	-8.70191
卧	-8.7024
扵	-8.70372
鑑	-8.70702
丘	-8.70815
旁	-8.70821
跋云	-8.70852
亦有	-8.70889
御書	-8.70995
至正	-8.71162
粉	-8.71394
除	-8.71522
見之	-8.71702
烏	-8.7177
覽	-8.71772
此帖	-8.71798
超	-8.72046
早	-8.72069
衡	-8.72126
愈	-8.72131
居士	-8.72348
憂	-8.72407
繪	-8.72548
含	-8.72637
履	-8.73012
態	-8.73044
權	-8.73069
典	-8.73101
墨竹	-8.73342
拙	-8.73389
位	-8.73394
保	-8.73457
恩	-8.73474
輒	-8.73513
抱	-8.73747
遣	-8.73789
筆墨	-8.73947
岳	-8.74207
敢	-8.74385
開元	-8.74526
後人	-8.74566
切	-8.74588
鳳	-8.74598
熟	-8.74634
□	-8.74778
肅	-8.75274
被	-8.75303
肥	-8.75389
偏	-8.75498
吕	-8.75593
洞	-8.75604
子敬	-8.7575
接	-8.76169
侍	-8.76255
自然	-8.76274
此圖	-8.76501
住	-8.76522
鐵	-8.76805
羽	-8.7689
召	-8.7693
凝	-8.76931
所書	-8.77006
廷	-8.77083
後世	-8.77401
規	-8.7763
圖一軸	-8.77693
味	-8.77722
步	-8.77724
否	-8.77793
中有	-8.78154
率	-8.78249
揚	-8.78348
上有	-8.7838
水墨	-8.78403
擬	-8.78436
奏	-8.78473
據	-8.78636
禪	-8.78711
愁	-8.78866
可謂	-8.78884
息	-8.78925
文章	-8.78966
降	-8.7899
章草	-8.79117
漁	-8.79145
翻	-8.79459
𢎞	-8.79484
口徑	-8.79523
强	-8.79527
仍	-8.79528
殘	-8.79601
乞	-8.79663
戴	-8.79735
董	-8.79957
純	-8.79995
勿	-8.8003
繁	-8.80053
薛	-8.80059
五年	-8.8006
瑞	-8.80095
勞	-8.80338
眀	-8.80374
闊	-8.80397
將軍	-8.80457
畧	-8.80466
岸	-8.8049
州刺史	-8.80661
堪	-8.80735
毫	-8.80814
柳	-8.80856
勤	-8.80906
歲	-8.80925
假	-8.80975
洗	-8.81059
荒	-8.8145
詠	-8.81472
律	-8.81674
寛	-8.81681
尹	-8.81745
累	-8.82154
道士	-8.82196
所作	-8.82213
白雲	-8.82337
訓	-8.82512
其後	-8.82752
騎	-8.82788
啟	-8.83057
馳	-8.83185
署	-8.83371
羊	-8.83696
製	-8.83719
不復	-8.83755
之後	-8.83759
急	-8.83785
聚	-8.83822
啓	-8.83927
人間	-8.83956
船	-8.84084
平生	-8.84185
文字	-8.84442
暮	-8.84497
漸	-8.84523
煙	-8.84797
絹	-8.84878
隋	-8.84897
監	-8.84973
專	-8.85408
又有	-8.85453
慈	-8.85507
仕	-8.85587
勒	-8.85595
不敢	-8.8563
模	-8.85655
薦	-8.85819
乗	-8.85858
務	-8.85923
藥	-8.8595
子昻	-8.86078
段	-8.86103
憶	-8.86108
山谷	-8.86414
市	-8.86419
斜	-8.86551
澹	-8.86639
詩云	-8.86793
遠	-8.86912
乆	-8.86939
傷	-8.8733
狂	-8.87518
之意	-8.87519
符	-8.87573
弗	-8.87589
潛	-8.87625
鴈	-8.87638
筆力	-8.87747
堅	-8.87966
翰林	-8.87976
負	-8.88049
千里	-8.88174
環	-8.8819
退	-8.88203
姿	-8.88318
籍	-8.88322
荷	-8.88332
振	-8.88341
遲	-8.88403
披	-8.88449
太守	-8.88452
壺	-8.88477
於此	-8.88481
夷	-8.88749
疏	-8.88784
太宗	-8.88894
縁	-8.89054
扇	-8.89071
斗	-8.8918
子孫	-8.89266
祠	-8.89437
廣一尺	-8.89506
謙	-8.89513
聊	-8.89654
大字	-8.89668
慕	-8.89807
編	-8.89809
馮	-8.89812
淺	-8.89871
富	-8.89932
逸少	-8.8998
掌	-8.90074
資	-8.90089
十年	-8.90232
境	-8.90236
澄	-8.9025
升	-8.9028
會	-8.90381
染	-8.90386
丈	-8.90491
大夫	-8.90517
腹	-8.90586
鸞	-8.90854
梅花	-8.90899
再拜	-8.90914
山人	-8.91035
家藏	-8.91078
㳺	-8.91268
契	-8.91396
㡬	-8.91438
敦	-8.91443
霞	-8.9152
偽	-8.91557
一字	-8.91557
茶	-8.91582
棄	-8.91608
藻	-8.91805
走	-8.91847
陰	-8.91897
覆	-8.91924
龜	-8.9202
鼓	-8.92078
五代	-8.92103
㫖	-8.92111
允	-8.92167
将	-8.92292
屏	-8.92313
左右	-8.92461
萬里	-8.92499
不見	-8.92668
呼	-8.92767
標	-8.92914
○	-8.93027
翼	-8.93095
弱	-8.93314
竹石	-8.93349
關	-8.93353
幼	-8.93365
逰	-8.9352
拂	-8.93522
小篆	-8.9354
慰	-8.936
廢	-8.9383
濶	-8.93846
其所	-8.93897
觀其	-8.93995
宅	-8.941
竊	-8.94117
付	-8.94131
二字	-8.94137
爭	-8.9423
於是	-8.94287
坡	-8.94309
泰	-8.94325
石刻	-8.9438
澗	-8.94432
枯	-8.94445
快	-8.94486
裴	-8.94719
雷	-8.94769
款識云	-8.94953
讀書	-8.95001
江山	-8.95282
叙	-8.95413
宋人	-8.95444
冷	-8.95467
字畫	-8.95536
俊	-8.95619
鎮	-8.95657
肉	-8.95797
虛	-8.95952
有餘	-8.95989
歳	-8.9624
菊	-8.96274
譜	-8.96313
禽	-8.96607
二王	-8.9667
藁	-8.96764
往往	-8.96893
字子	-8.96922
搨	-8.96942
損	-8.97003
掩	-8.97216
徴	-8.97253
屈	-8.97289
之法	-8.97384
巨	-8.97407
操	-8.97523
童	-8.97604
風流	-8.97764
千文	-8.9782
乾	-8.97843
見其	-8.97918
花鳥	-8.98111
鴻	-8.98177
甲	-8.98208
浪	-8.98258
避	-8.98265
皆有	-8.98315
舒	-8.98328
劍	-8.98461
飾	-8.98522
脱	-8.98529
苑	-8.98546
阿	-8.98641
迴	-8.9895
至今	-8.99078
彞	-8.99217
歟	-8.99407
有銘	-8.99898
黃	-8.99923
媚	-8.99989
墓	-8.99999
諱	-9.00084
鬼	-9.00236
誦	-9.00418
婦	-9.00573
雲林	-9.00831
傍	-9.00879
二十	-9.0095
充	-9.01019
父子	-9.01042
戒	-9.01074
貌	-9.01107
圗二	-9.01328
嘉靖	-9.01464
又云	-9.0157
攜	-9.01631
崖	-9.01649
桃	-9.017
山中	-9.0185
㑹稽	-9.01851
僅	-9.01863
吹	-9.01896
之子	-9.01913
丞相	-9.01957
叢	-9.02206
叟	-9.02376
吏	-9.02408
研	-9.02448
祥	-9.02489
學者	-9.02658
效	-9.02705
右髙	-9.03048
圖一卷	-9.0317
㸃畫	-9.03246
待詔	-9.03274
凉	-9.03351
逐	-9.0339
紹	-9.03424
倫	-9.03491
私	-9.03765
上下	-9.03799
宏	-9.03864
頓首	-9.03877
其書	-9.03915
第二	-9.04005
穆	-9.04074
河南	-9.04098
映	-9.04146
爽	-9.04209
領	-9.04225
銀	-9.04331
䕶	-9.0441
司馬	-9.04623
法書	-9.04666
妍	-9.05062
爵	-9.05091
飛白	-9.05174
條	-9.05195
哀	-9.05231
湘	-9.05386
烈	-9.05486
牧	-9.05578
鐘	-9.05583
増	-9.05585
長安	-9.05658
欵識云	-9.05666
老人	-9.05865
太史	-9.0603
真跡	-9.06235
雍	-9.06367
憲	-9.06371
釣	-9.06453
論書	-9.0658
悲	-9.06587
鏡	-9.06658
圖三	-9.06709
奕	-9.06796
錫	-9.06808
進士	-9.06931
宇	-9.07121
傾	-9.07123
完	-9.07376
賈	-9.07486
桂	-9.07687
鹿	-9.07757
三月	-9.07853
熙	-9.08035
峻	-9.08166
候	-9.08183
弟子	-9.08241
圖書	-9.08293
未嘗	-9.08367
此書	-9.08524
之類	-9.08526
鮮	-9.08643
渾	-9.08693
一冊	-9.08813
麟	-9.08856
嶺	-9.08876
裝	-9.08897
一人	-9.08963
鈎	-9.09025
歩	-9.09182
射	-9.09192
壯	-9.09211
幹	-9.09344
硯	-9.09472
範	-9.09579
滅	-9.0976
井	-9.09768
刀	-9.0985
某	-9.09948
式	-9.10035
秘	-9.10062
筆勢	-9.10073
小字	-9.1018
殷	-9.10287
蔵	-9.10342
健	-9.10356
渡	-9.1053
了	-9.10578
神品	-9.10678
粗	-9.10795
徵	-9.10918
邑	-9.11014
設	-9.11137
己	-9.11185
消	-9.11203
元章	-9.11262
獸	-9.11347
危	-9.1136
李成	-9.11462
湯	-9.11587
牡丹	-9.1159
託	-9.11595
塔	-9.11718
何處	-9.11746
蓮	-9.1211
絹本	-9.12126
均	-9.12127
六年	-9.1213
羲之	-9.12225
浦	-9.12231
褚	-9.12232
罷	-9.12306
逢	-9.12311
傅	-9.12369
雞	-9.12371
選	-9.12408
篆書	-9.12595
底	-9.1266
畫之傳世者	-9.12705
赤	-9.12715
令人	-9.12759
寜	-9.12782
瞻	-9.12796
愧	-9.1281
紋	-9.12945
恒	-9.13027
毎	-9.13039
邵	-9.13065
職	-9.13204
脚	-9.13213
偉	-9.13294
鬼神	-9.13377
六月	-9.134
人也	-9.13453
衰	-9.13595
一首	-9.13646
户	-9.13802
貫	-9.13811
何如	-9.13858
第三	-9.13937
前後	-9.14072
答	-9.14097
銅	-9.14165
有所	-9.14177
貞觀	-9.14233
青山	-9.14275
一璽	-9.14328
趨	-9.14524
十月	-9.14562
賛	-9.14611
項	-9.14787
芙蓉	-9.14812
眉	-9.14851
板	-9.14872
戯	-9.14979
昇	-9.15009
騰	-9.15274
然後	-9.15303
諸印	-9.15442
畫山水	-9.1545
不為	-9.15722
整	-9.15881
璧	-9.15965
塞	-9.16022
孰	-9.16029
楷法	-9.1606
天地	-9.16083
王氏	-9.16091
墨蹟	-9.16169
察	-9.16197
束	-9.16205
佐	-9.16209
尺	-9.164
隸書	-9.16478
欽	-9.16599
濃	-9.16719
十六	-9.16732
八月	-9.16958
庶	-9.17004
愚	-9.17185
融	-9.17246
四月	-9.1732
席	-9.17376
璽	-9.17386
一紙	-9.17403
覩	-9.17413
今日	-9.17554
晦	-9.17586
妄	-9.17597
植	-9.17676
屢	-9.17775
夕	-9.17849
輔	-9.17941
徃	-9.17972
十八	-9.18044
威	-9.18113
吳興	-9.18154
駕	-9.18265
購	-9.18328
十五	-9.18336
使人	-9.18382
乏	-9.1843
所見	-9.18454
耕	-9.18472
欵云	-9.18502
閱	-9.18542
貧	-9.18576
之士	-9.18643
像一	-9.18686
書之	-9.18701
廬	-9.18721
善書	-9.18788
停	-9.18874
頁	-9.18992
䇿	-9.19296
足下	-9.19378
甘	-9.19451
几	-9.19487
喬	-9.1949
浩	-9.19505
介	-9.19518
盈	-9.19519
札	-9.19532
倒	-9.1967
十三	-9.19785
慎	-9.19804
贊曰	-9.19836
險	-9.19886
隆	-9.19988
之勢	-9.20057
雀	-9.20092
嗟	-9.20187
懐素	-9.20221
其間	-9.20239
而後	-9.20287
綠	-9.20303
米元章	-9.2031
溪山	-9.20314
勅	-9.20418
患	-9.20491
大小	-9.20502
繡	-9.20714
祝	-9.20881
價	-9.21047
量	-9.21057
出於	-9.21194
無所	-9.21216
賀	-9.21285
庸	-9.21312
輿地碑目	-9.21361
較	-9.21431
怒	-9.21507
一本	-9.21518
泥	-9.21533
自有	-9.21633
淳	-9.21705
圖并題	-9.21912
供	-9.22015
所得	-9.22054
旋	-9.2211
呈	-9.22263
投	-9.22312
知其	-9.22407
未有	-9.2244
支	-9.22465
襲	-9.22486
皇帝	-9.22548
刻石	-9.22683
納	-9.22732
校	-9.2283
族	-9.22894
濕	-9.22911
洛	-9.2295
明皇	-9.22988
之上	-9.22994
之外	-9.23138
瘦	-9.23331
仿	-9.23363
朔	-9.23379
撫	-9.23399
頓	-9.2347
柔	-9.23521
顛	-9.23562
下筆	-9.23563
劒	-9.23565
祕	-9.23578
四字	-9.23704
霧	-9.23821
氣韻	-9.23925
審	-9.23973
靖	-9.24179
涼	-9.24331
妻	-9.24534
衍	-9.24648
姑	-9.24673
拔	-9.24741
弄	-9.24758
元祐	-9.24762
姜	-9.24953
戰	-9.2496
五十	-9.2502
凌	-9.25055
各有	-9.2506
倪	-9.25107
迷	-9.2516
辱	-9.25184
頂	-9.25189
干	-9.25471
淮	-9.25593
暗	-9.25735
旅	-9.2596
精妙	-9.2599
曠	-9.26099
圖畫	-9.26138
彌	-9.26198
草堂	-9.262
岡	-9.26219
貢	-9.26227
襄	-9.26498
俞	-9.26592
委	-9.26613
家傳	-9.26749
暉	-9.26804
著色	-9.26821
人官至	-9.26875
以來	-9.26974
奔	-9.27029
洪武	-9.27205
公之	-9.27274
十一	-9.27325
詩帖	-9.27372
輿	-9.27451
靄	-9.27553
晝	-9.27623
賔	-9.27651
擊	-9.27655
招	-9.27662
桃花	-9.27686
千載	-9.27703
所畫	-9.27753
二月	-9.27884
太子	-9.27899
御筆	-9.2796
遥	-9.2804
足以	-9.28076
濤	-9.2809
冀	-9.28149
杖	-9.2815
日月	-9.28154
一幅	-9.28183
馬圖	-9.28219
申	-9.28249
片	-9.28391
大令	-9.28436
欽定四庫全書	-9.28441
欣	-9.28521
踈	-9.28529
係	-9.28542
百年	-9.28566
脩	-9.28668
沉	-9.28711
科	-9.28768
以此	-9.28841
桑	-9.28841
元人	-9.28916
篤	-9.28928
寸	-9.29075
宛	-9.29219
宴	-9.29221
九月	-9.29253
奪	-9.29398
採	-9.294
材	-9.29441
繪事	-9.29444
亮	-9.2946
憐	-9.29575
米芾	-9.29584
助	-9.29616
罪	-9.29643
亦不	-9.29694
勾	-9.29701
閑	-9.29796
副	-9.29802
謀	-9.29802
彭	-9.29849
小景	-9.29881
謬	-9.30062
七月	-9.30151
欵	-9.30191
獻之	-9.30224
頃	-9.30287
汪	-9.30287
輝	-9.303
後學	-9.30303
古木	-9.3034
蓬	-9.30488
佩	-9.30531
長史	-9.30569
精神	-9.30761
董其昌	-9.30861
無不	-9.30865
猿	-9.30989
芝	-9.31037
髪	-9.31084
之氣	-9.31136
慧	-9.31188
京師	-9.31326
掃	-9.3137
窓	-9.31394
錯	-9.31406
昨	-9.31448
山隂	-9.31551
抑	-9.31562
雁	-9.31612
后	-9.31694
低	-9.31707
案	-9.31825
郊	-9.31859
謁	-9.31862
燈	-9.31917
荆	-9.3197
鬱	-9.32047
磨	-9.32076
可愛	-9.32086
樵	-9.32264
羅漢	-9.32266
鍾繇	-9.32362
譽	-9.32578
然則	-9.32614
蕩	-9.32722
渚	-9.32735
洲	-9.32767
沒	-9.3278
縱横	-9.33099
厯	-9.33105
行草書	-9.33114
寫生	-9.33211
提	-9.33309
茅	-9.33348
黙	-9.33411
際	-9.33418
千古	-9.33565
禄	-9.33625
循	-9.33627
觀之	-9.33639
佛像	-9.33868
乘	-9.34012
術	-9.34152
座	-9.34214
潘	-9.34293
髙宗	-9.34334
偃	-9.34468
迎	-9.34565
繞	-9.34584
傑	-9.34589
諸公	-9.34591
王維	-9.34727
證	-9.34786
蒲	-9.35016
亞	-9.35024
世之	-9.35076
士大夫	-9.35343
飄	-9.35365
囘	-9.35431
禁	-9.35569
歐	-9.35575
脫	-9.3564
殺	-9.3565
伊	-9.35692
忩	-9.35718
谿	-9.35729
姓名	-9.35779
單	-9.3591
者皆	-9.35938
牕	-9.35945
潔	-9.36045
圃	-9.36144
繫	-9.36145
棲	-9.36158
慮	-9.363
緩	-9.36363
兔	-9.36412
扶	-9.36498
畫史㑹要	-9.36504
靡	-9.36564
勉	-9.36591
那	-9.36604
秋山	-9.36678
國公	-9.36679
俾	-9.36879
落筆	-9.36891
識者	-9.37197
魯公	-9.37201
學書	-9.37248
今在	-9.37317
夲	-9.37334
敎	-9.37335
界	-9.37368
旦	-9.37569
十四	-9.37699
社	-9.37845
不如	-9.37919
吐	-9.38044
八年	-9.38289
樂毅論	-9.38296
後漢	-9.38315
集古録	-9.3835
巻	-9.38394
拘	-9.38445
蔡邕	-9.38475
蔣	-9.3854
卣	-9.38667
基	-9.38768
淨	-9.38872
祭	-9.38928
剛	-9.39102
三寸	-9.39102
沈周	-9.39112
厥	-9.392
之印	-9.39212
簾	-9.39217
法帖	-9.3924
𨽻書	-9.39316
冰	-9.39323
寂	-9.39671
奴	-9.39887
如何	-9.39898
纎	-9.39904
伯時	-9.39954
敗	-9.39965
揮	-9.40114
潮	-9.40139
煩	-9.40169
苔	-9.40177
擅	-9.40275
法度	-9.4031
震	-9.4043
松雪	-9.40517
祐	-9.40589
圖卷	-9.40624
辰	-9.40641
嘆	-9.40679
之餘	-9.40709
恵	-9.40712
兄弟	-9.40892
顔魯公	-9.41062
腕	-9.41088
鷹	-9.4112
李伯時	-9.41352
争	-9.41434
王氏跋一	-9.41497
氷	-9.41541
況	-9.41589
三十	-9.41659
寺碑	-9.41719
營	-9.41755
不勝	-9.41773
名家	-9.41847
數十	-9.41926
獵	-9.42163
話	-9.42206
也今	-9.42231
皮	-9.4238
熊	-9.424
宰	-9.42402
二璽	-9.42474
設色	-9.42484
葛	-9.42555
倪瓚	-9.4258
速	-9.42613
裂	-9.42867
輪	-9.42875
競	-9.42887
萬厯	-9.42935
潭	-9.43034
戈	-9.43059
攷	-9.43122
鄙	-9.43128
瓊	-9.4314
赴	-9.43153
収	-9.4326
處士	-9.43477
款署	-9.43625
敵	-9.43675
邈	-9.43827
廿	-9.43851
買	-9.43856
名畫	-9.43859
逹	-9.43864
觀者	-9.43912
清風	-9.43943
嶽	-9.44024
歐陽	-9.44052
書於	-9.44067
彩	-9.44182
昏	-9.44357
遜	-9.4439
輙	-9.44413
五月	-9.44448
其人	-9.44463
李唐	-9.4458
春風	-9.44598
蛇	-9.44615
窺	-9.44652
乙	-9.44668
工畫	-9.44748
痩	-9.45107
寡	-9.45111
暢	-9.4514
朗	-9.45146
自號	-9.45173
款云	-9.45226
二帖	-9.45236
張芝	-9.45314
尤工	-9.45316
衞	-9.45379
肯	-9.45402
第四	-9.45589
而無	-9.45595
遒勁	-9.45643
山林	-9.45685
柱	-9.45786
王羲之	-9.45807
徽	-9.4582
用之	-9.45904
芾	-9.45953
舎	-9.45966
書學	-9.46068
變化	-9.46101
班	-9.46102
例	-9.46387
響	-9.46432
自是	-9.46468
把	-9.46485
讓	-9.46487
蟲	-9.46494
三日	-9.46513
畏	-9.46516
痛	-9.46553
其名	-9.46578
不過	-9.46618
灑	-9.46657
詣	-9.46703
梢	-9.46731
上人	-9.46739
巨然	-9.46749
造化	-9.46766
塘	-9.46888
州人	-9.46892
霄	-9.46906
何以	-9.47096
疊	-9.47158
杯	-9.4716
八分書	-9.47275
武帝	-9.47363
胸中	-9.47392
神仙	-9.47416
大篆	-9.47691
幻	-9.47694
藉	-9.47733
遵	-9.47739
逼	-9.47822
侍郎	-9.48014
枕	-9.48227
不然	-9.48228
馬逺	-9.4828
題名	-9.48426
而有	-9.48427
洛陽	-9.48432
竿	-9.48447
圖四	-9.48464
榻	-9.48517
斤	-9.48583
雲山	-9.48593
故人	-9.48667
一笑	-9.48944
塗	-9.49004
壑	-9.49004
探	-9.49011
巢	-9.49043
激	-9.49281
網	-9.49298
以下	-9.49323
穿	-9.49584
侍中	-9.49714
草木	-9.49928
邦	-9.50102
鱗	-9.50104
如是	-9.50137
二人	-9.50172
天台	-9.50205
擇	-9.50212
優	-9.50292
一枝	-9.50363
剪	-9.50394
擢	-9.50403
罕	-9.50547
矩	-9.50621
辟	-9.50623
専	-9.50628
前人	-9.5091
觚	-9.50945
天王	-9.50991
必有	-9.51031
不在	-9.51054
博士	-9.51074
昔人	-9.51212
主人	-9.51353
同時	-9.51404
豫章	-9.51479
而下	-9.51484
瀟湘	-9.51548
博學	-9.5157
寒林	-9.51615
臥	-9.51686
也其	-9.51701
素絹本著色畫	-9.51773
征	-9.51823
策	-9.5199
之際	-9.52045
不失	-9.52177
涉	-9.52229
明月	-9.52253
其一	-9.52279
鑄	-9.52302
春秋	-9.52337
講	-9.52446
一尺	-9.52461
併	-9.52505
鄧	-9.52523
珍藏	-9.52535
樹石	-9.52628
遍	-9.52814
筠	-9.52851
攻	-9.53056
牽	-9.53094
匪	-9.53101
勸	-9.53206
壇	-9.53276
禹	-9.53462
海棠	-9.53536
尺牘	-9.53597
至元	-9.53605
以其	-9.53642
層	-9.53659
没	-9.53665
然而	-9.53686
四時	-9.53692
御府	-9.53723
其事	-9.53884
違	-9.53895
世人	-9.53912
亨	-9.53919
趯	-9.53936
流水	-9.54097
此碑	-9.54107
正月	-9.54113
也然	-9.5417
題識	-9.54338
翎毛	-9.54522
洞庭	-9.54547
創	-9.54674
歡	-9.54718
御題	-9.54726
石田	-9.54731
者有	-9.54827
李斯	-9.54898
未能	-9.54943
包	-9.55204
銘曰	-9.55205
熱	-9.55266
阮	-9.55295
津	-9.55318
齒	-9.55355
廟碑	-9.55554
遭	-9.5561
孔子	-9.55695
哲	-9.55712
判	-9.55726
暇	-9.55905
金陵	-9.56026
求之	-9.5611
帙	-9.56116
免	-9.56175
眠	-9.56181
山川	-9.56442
練	-9.56451
蓄	-9.56497
四寸	-9.56547
奚	-9.56659
襟	-9.56708
鄰	-9.56716
泛	-9.56809
畫史	-9.56991
鈞	-9.56995
字仲	-9.57015
范寛	-9.57081
太平	-9.57098
墨畫	-9.5719
御府所藏	-9.57272
墓誌	-9.57283
托	-9.57286
渠	-9.57308
成化	-9.57314
稿	-9.57315
之下	-9.57365
嗚呼	-9.57396
黄庭	-9.57404
松石	-9.57423
歐陽詢	-9.57487
箋	-9.57623
究	-9.57661
給	-9.57726
辛	-9.57834
憑	-9.57872
蹤	-9.57875
滯	-9.57876
是以	-9.57938
繇	-9.57975
金石	-9.58007
逮	-9.5802
書家	-9.58039
挺	-9.5811
誌	-9.58127
寵	-9.58145
賦詩	-9.58186
㓜	-9.58406
惑	-9.58436
喻	-9.58469
作字	-9.58554
祀	-9.58736
翔	-9.58811
臨摹	-9.58929
六寸	-9.5894
之狀	-9.59099
元趙孟頫書	-9.59168
西湖	-9.59269
削	-9.59305
活	-9.59572
旣	-9.59582
七年	-9.59608
墮	-9.59626
勲	-9.59662
得此	-9.59699
印一	-9.59706
裁	-9.59835
弓	-9.59894
彷彿	-9.59898
三字	-9.59933
堯	-9.60006
畫者	-9.60045
嗜	-9.60063
誕	-9.60173
鼻	-9.60173
泊	-9.60185
肇	-9.6022
羙	-9.6025
十餘	-9.60403
碑在	-9.60409
雲間	-9.60506
圍	-9.60512
卓	-9.60512
裕	-9.60513
鍾王	-9.60522
虞世南	-9.60554
諸印又	-9.60638
此本	-9.60779
籠	-9.60816
役	-9.60836
庾	-9.60867
邁	-9.61078
今觀	-9.61111
龍眠	-9.61214
仙人	-9.61223
八十	-9.61243
珊瑚網	-9.61383
平逺	-9.6144
李氏	-9.61464
訣	-9.61475
古之	-9.61491
好事者	-9.61516
遒	-9.61549
内府	-9.61613
之曰	-9.61676
元趙孟頫	-9.61681
定武	-9.61746
戎	-9.61746
何人	-9.61839
天子	-9.61916
額	-9.61927
肆	-9.61927
緣	-9.61937
聴	-9.61991
技	-9.62016
十日	-9.62066
十七	-9.62086
押	-9.62193
爰	-9.62265
廉	-9.62287
桐	-9.62305
形似	-9.62454
一二	-9.62536
舜	-9.6255
摩	-9.62564
乾隆	-9.62575
今人	-9.62576
熈	-9.62599
吳郡	-9.62625
描	-9.62696
書如	-9.62745
七十	-9.62777
增	-9.629
扁舟	-9.62936
匠	-9.62945
徽宗	-9.63105
普	-9.6315
預	-9.63179
桓	-9.63202
緒	-9.63212
牀	-9.63218
荘	-9.63227
當是	-9.6323
統	-9.63267
減	-9.63511
浄	-9.6352
王右軍	-9.63601
羊欣	-9.63655
農	-9.63671
暑	-9.63718
不覺	-9.63743
紛	-9.63804
秋風	-9.63804
隷	-9.6389
京兆	-9.63912
同上	-9.64049
柯	-9.6407
莫不	-9.64108
陋	-9.64116
安得	-9.64243
織	-9.64325
髮	-9.64356
其子	-9.64387
而為	-9.64412
栖	-9.64418
其家	-9.64445
無疑	-9.6446
俟	-9.6449
鵲	-9.645
其上	-9.64538
書史	-9.64626
煥	-9.64676
湏	-9.64716
靣	-9.64718
混	-9.64725
婉	-9.64727
碎	-9.64737
費	-9.64737
宮	-9.6478
時有	-9.64841
至于	-9.64964
午	-9.65003
懿	-9.65096
者亦	-9.65149
詩文	-9.65205
自書	-9.65235
所能	-9.65281
岐	-9.65329
炎	-9.6533
乍	-9.6533
取其	-9.65341
酬	-9.65366
亦可	-9.65383
相似	-9.65418
袖	-9.65439
局	-9.65513
今見	-9.65517
其文	-9.65548
成都	-9.65604
壓	-9.65654
添	-9.65663
晉人	-9.6568
褚遂良	-9.65784
菩薩	-9.65877
邉	-9.65962
琳	-9.65984
耀	-9.65992
不甚	-9.66043
物也	-9.66074
二日	-9.66102
鑒定	-9.66147
嵗月	-9.66247
藤	-9.6629
不逮	-9.6646
巾	-9.66527
後署	-9.66534
檀	-9.66614
趙文敏	-9.66678
錢塘	-9.667
苟	-9.66833
瑶	-9.66852
呉興	-9.66863
孟頫	-9.66887
姪	-9.66926
東海	-9.66955
倦	-9.67025
出入	-9.67124
人家	-9.6715
状	-9.67169
諸家	-9.67345
尉	-9.67358
流傳	-9.67426
得意	-9.67436
嘉定	-9.67533
乳	-9.67541
老子	-9.67617
規矩	-9.6769
牋	-9.67691
嵩	-9.67694
鷄	-9.67824
之筆	-9.67826
其中	-9.67862
厭	-9.67939
不必	-9.67962
眞蹟	-9.68008
詹	-9.68109
三百	-9.6816
晏	-9.68192
所載	-9.68201
燭	-9.68215
古雅	-9.68339
題跋	-9.6841
豆	-9.68491
曰此	-9.68501
晨	-9.68502
鑿	-9.68518
臨本	-9.68539
菩薩像	-9.68564
畫院	-9.68573
智永	-9.686
檢	-9.68623
悦	-9.68704
昆	-9.68726
巳	-9.68759
皴	-9.68764
以示	-9.68814
飛動	-9.68819
眷	-9.68824
痕	-9.68847
本朝	-9.68847
黄筌	-9.68905
纂	-9.68945
繩	-9.69098
不以	-9.69105
十卷	-9.69128
也故	-9.69193
十二月	-9.69228
書也	-9.69469
諫	-9.69476
鼔	-9.69489
著色畫	-9.69569
墨林	-9.69614
蘆	-9.6974
綴	-9.69767
或云	-9.69882
三代	-9.69928
乃知	-9.69935
字伯	-9.70012
手書	-9.70054
饒	-9.70089
歸來	-9.70103
詢	-9.70121
誇	-9.70127
之態	-9.70263
肖	-9.7028
之心	-9.70294
金華	-9.70389
渉	-9.7047
中書	-9.70477
過之	-9.70541
真人	-9.70547
不宣	-9.70637
未見	-9.70659
見於	-9.70698
臨池	-9.70746
醫	-9.70787
秉	-9.7079
様	-9.7079
美人	-9.70823
肩	-9.70968
趙孟頫	-9.7103
鄒	-9.71086
宦	-9.71117
相與	-9.71168
不可以	-9.71253
世傳	-9.71339
值	-9.71438
米南宫	-9.71452
擁	-9.71461
㸔	-9.71475
人之	-9.71645
四十	-9.71765
疇	-9.71776
絃	-9.71799
配	-9.71803
山圖	-9.71832
三昧	-9.71941
茍	-9.71997
江湖	-9.72054
長沙	-9.72208
𢎞治	-9.72236
御史	-9.72264
董源	-9.72271
驅	-9.72365
帆	-9.72482
草草	-9.72597
其意	-9.72605
咏	-9.72619
二卷	-9.72638
牙	-9.72752
朋	-9.72757
不識	-9.72764
自謂	-9.72766
柏	-9.7277
排	-9.72811
噫	-9.72816
司徒	-9.729
互	-9.72945
踏	-9.73109
怡	-9.7313
敘	-9.73184
鵞	-9.73194
謂其	-9.73231
霽	-9.73299
竇	-9.73417
窻	-9.73438
徹	-9.73478
墨池編	-9.73588
衣冠	-9.73616
筆也	-9.73623
陣	-9.73765
賴	-9.73786
弼	-9.73789
太常	-9.73792
河東	-9.73843
丞	-9.73882
大抵	-9.73978
鍾鼎款識	-9.74014
十一月	-9.74141
以自	-9.74143
汀	-9.74162
家有	-9.74169
遺墨	-9.74196
尖	-9.74221
近世	-9.74231
九年	-9.74258
張旭	-9.74271
電	-9.74433
荅	-9.74436
驗	-9.74437
頴	-9.74446
􁀙	-9.74451
郎中	-9.74525
䝉	-9.74554
爛	-9.74561
癡	-9.74601
他日	-9.74634
一册	-9.74703
員	-9.74754
一種	-9.7476
吳中	-9.74766
階	-9.74811
團	-9.74828
不盡	-9.74865
項氏	-9.74923
得名	-9.74951
俯	-9.75103
辯	-9.75123
飯	-9.75157
猶有	-9.75176
書于	-9.75271
千年	-9.7528
半印	-9.753
不用	-9.7544
竝	-9.75455
尤為	-9.75459
畔	-9.75472
誼	-9.75473
返	-9.75484
真書	-9.75506
生平	-9.75519
函	-9.75538
自得	-9.75541
白描	-9.75648
子昂	-9.75691
周昉	-9.75707
論畫	-9.75714
元和	-9.75743
瓚	-9.75825
者為	-9.7589
麓	-9.76007
二印又	-9.76133
與之	-9.76158
逾	-9.76176
遽	-9.76186
禪師	-9.76308
可觀	-9.76453
閻	-9.76463
焚	-9.7648
觀音	-9.76491
奮	-9.76551
途	-9.76556
太尉	-9.76608
宋史本傳	-9.76637
旭	-9.76671
之學	-9.76708
黨	-9.76885
題詩	-9.76938
郭熙	-9.7695
者其	-9.76984
貽	-9.77083
綱	-9.77163
奥	-9.77193
岑	-9.77204
徐浩	-9.77235
欵署	-9.77249
一作	-9.77268
黒	-9.7727
庚	-9.77326
折枝	-9.77334
當世	-9.7743
未必	-9.77473
也余	-9.77479
醒	-9.77518
的	-9.77552
懶	-9.7756
綺	-9.77593
無人	-9.77624
無窮	-9.77678
麻	-9.77698
十九	-9.77789
蕭蕭	-9.7782
者如	-9.77885
棹	-9.77901
五寸	-9.77912
若此	-9.77913
六十	-9.77915
三印	-9.77925
迥	-9.7796
桞	-9.77989
敬書	-9.78065
一印又	-9.7809
姬	-9.78091
而成	-9.78185
邕	-9.78194
水仙	-9.78247
沐	-9.78254
此詩	-9.78305
導	-9.78346
其昌	-9.78383
右丞	-9.78423
九日	-9.7852
第二幅	-9.78539
筋	-9.78547
工書	-9.78571
太祖	-9.78597
換	-9.78614
滋	-9.7863
踰	-9.78639
之孫	-9.78697
可喜	-9.78755
彝	-9.78891
樞	-9.78939
楮	-9.78959
悠悠	-9.78983
庫	-9.78988
永樂	-9.78989
刺	-9.78994
毁	-9.79003
蔽	-9.79003
祗	-9.79004
亦自	-9.79037
番	-9.79056
系	-9.79182
也又	-9.79207
一帖	-9.79247
司空	-9.79316
誥	-9.79339
諭	-9.7934
珊瑚	-9.79375
梵	-9.79377
為人	-9.79449
藍	-9.79491
二公	-9.79517
知之	-9.79589
戚	-9.79638
珪	-9.79672
挂	-9.7969
晋	-9.79722
石經	-9.79826
於後	-9.79894
不宜	-9.79999
第五	-9.80007
髯	-9.80066
攀	-9.80098
貝	-9.80104
款	-9.80143
朝廷	-9.80363
吾家	-9.80364
稽	-9.80375
朴	-9.80395
廊	-9.80412
醜	-9.80427
綸	-9.80431
匹	-9.80437
享	-9.80439
中書令	-9.80486
之趣	-9.80526
腹圍二尺	-9.80538
售	-9.80587
大徳	-9.80661
尚有	-9.80705
嘗見	-9.80779
纔	-9.80786
真行	-9.80945
於世	-9.80965
余家	-9.80978
毅	-9.81073
卜	-9.81076
文學	-9.81088
忌	-9.81107
觀於	-9.81129
位置	-9.81144
距	-9.81167
裔	-9.8118
絳	-9.81236
絹素	-9.81294
草聖	-9.8131
少年	-9.81321
合作	-9.81358
黄庭經	-9.81429
觸	-9.81491
得於	-9.81575
也夫	-9.81645
甲子	-9.81693
劣	-9.81882
恬	-9.81898
庵	-9.81903
蘓	-9.81916
第三幅	-9.81948
者以	-9.81981
思陵	-9.82136
尤精	-9.82212
綿	-9.82216
畫法	-9.82241
囊	-9.82262
不減	-9.82276
七日	-9.82317
畫繼	-9.8232
畫家	-9.82353
四方	-9.82382
丹陽	-9.82488
仇	-9.82493
南唐	-9.82541
犬	-9.82579
者則	-9.82605
毋	-9.82613
淚	-9.82626
穎	-9.82661
隅	-9.82706
髙士	-9.82743
稱其	-9.82749
畫圖	-9.82784
見書	-9.82828
風吹	-9.82855
趙松雪	-9.82884
杏	-9.82965
懼	-9.82999
酌	-9.83001
巴	-9.83014
延祐	-9.83045
國朝	-9.83071
絶句	-9.83101
余嘗	-9.83133
未知	-9.83153
以上	-9.83197
之事	-9.83221
生動	-9.83244
雪景	-9.83255
淑	-9.83329
卷中	-9.8334
綽	-9.83367
翩翩	-9.83368
徴明	-9.83376
素箋本	-9.83579
䕫	-9.83713
啄	-9.8374
鬭	-9.83744
之言	-9.83787
粲	-9.83895
長洲	-9.83952
王叔明	-9.83974
齡	-9.84009
髣髴	-9.84032
旨	-9.84062
賓	-9.84093
前輩	-9.84212
展玩	-9.84229
趙子昻	-9.84252
者乎	-9.84422
上方	-9.84428
猷	-9.84448
卑	-9.84478
携	-9.84488
知名	-9.84593
自成一家	-9.84593
童子	-9.84713
之作	-9.84761
書者	-9.84766
血	-9.84838
占	-9.84929
隐	-9.85001
宋徽宗	-9.85064
敬題	-9.85106
一一	-9.85214
湛	-9.85423
八寸	-9.85488
作此	-9.855
太學	-9.855
行楷書	-9.85521
虹	-9.85578
頻	-9.85607
諡	-9.8563
禍	-9.85633
躬	-9.85633
溢	-9.85655
从	-9.85828
起居	-9.8584
森	-9.85991
無復	-9.86055
慨	-9.86136
能書	-9.86166
啼	-9.86306
玉堂	-9.86338
宛然	-9.86343
㝠	-9.86361
徧	-9.86401
五字	-9.86414
摇	-9.86422
不知其	-9.86436
一筆	-9.86638
小幅	-9.86655
與此	-9.8667
揭	-9.86773
花卉	-9.86831
一見	-9.8694
掛	-9.87115
甞	-9.87125
炳	-9.87136
躍	-9.8717
尤善	-9.87179
韓幹	-9.87248
妙絶	-9.87301
襄陽	-9.87362
公子	-9.87396
翫	-9.87443
言之	-9.87479
張長史	-9.87484
晚年	-9.87502
蕭子雲	-9.87516
㧞	-9.87522
禧	-9.87542
洛神賦	-9.87555
杭	-9.87635
洽	-9.87654
駿	-9.87663
篆隸	-9.87674
諸人	-9.87864
倍	-9.87886
簷	-9.8792
淪	-9.87932
隣	-9.87944
六朝	-9.87976
菜	-9.87992
抵	-9.88098
好事	-9.88102
記云	-9.88107
時為	-9.88171
夫子	-9.88231
子也	-9.88254
嵐	-9.88271
則有	-9.88302
聨	-9.88309
賊	-9.88325
逺近	-9.88352
廬陵	-9.88377
第四幅	-9.88402
淳化	-9.88505
男	-9.88513
孝經	-9.88613
世間	-9.88619
嘯	-9.88625
富貴	-9.88864
草蟲	-9.88928
第七	-9.88959
左方	-9.89001
稀	-9.8908
決	-9.89108
填	-9.89131
第七幅	-9.89183
故其	-9.89191
第六幅	-9.89196
神妙	-9.89304
江上	-9.89438
㫁	-9.89483
柄	-9.895
蜀人	-9.89531
障	-9.89547
京口	-9.89596
者必	-9.89643
其為	-9.89767
考之	-9.89778
八法	-9.89789
巒	-9.89804
劉松年	-9.89852
育	-9.89879
纖	-9.89882
夾	-9.89896
當年	-9.89903
一百	-9.89903
駐	-9.89922
梁武帝	-9.89998
謝安	-9.90068
遼	-9.90146
山水人物	-9.90259
五色	-9.90284
妹	-9.90284
鳩	-9.90286
刋	-9.903
濁	-9.90306
魂	-9.90344
皆以	-9.90352
圜	-9.90353
圭	-9.9052
妃	-9.90608
割	-9.90653
蠶	-9.90677
弩	-9.90704
行筆	-9.90758
杏花	-9.90869
衡山	-9.90894
促	-9.91067
索靖	-9.91154
林木	-9.91171
裹	-9.91183
永嘉	-9.91254
逕	-9.91493
坦	-9.91497
漆	-9.91515
厲	-9.9152
第五幅	-9.91556
第八幅	-9.91571
墜	-9.91615
第十	-9.91634
曰吾	-9.91656
可見	-9.9168
嵗在	-9.91851
西山	-9.91875
迨	-9.91894
銜	-9.91933
不類	-9.91945
臂	-9.91956
相類	-9.92025
一篇	-9.92082
天然	-9.92191
海内	-9.92212
右高	-9.92229
之流	-9.92263
伸	-9.9229
枚	-9.92296
𦂳	-9.92327
怨	-9.92331
朕	-9.92335
摘	-9.92343
飽	-9.9236
圎	-9.9236
出示	-9.92421
蕃	-9.92501
亦能	-9.92512
求其	-9.92528
懋	-9.92712
犯	-9.9273
此畫	-9.92802
收藏	-9.92889
莫能	-9.92921
閩	-9.92927
人皆	-9.92935
之盛	-9.9298
矜	-9.93001
域	-9.93092
饕餮	-9.93116
廬山	-9.93119
丘壑	-9.93148
泣	-9.9316
潜	-9.93166
瓶	-9.93173
入神	-9.93273
不朽	-9.93367
長於	-9.93484
倉	-9.93494
鉤	-9.93527
軌	-9.93557
故物	-9.93582
圖繪寳鑑	-9.93634
古法	-9.93659
漏	-9.93668
槩	-9.93748
押縫有	-9.93752
沙門	-9.93882
貯	-9.93938
遙	-9.93942
穴	-9.9395
邱	-9.93968
麤	-9.9398
參差	-9.94053
三人	-9.94126
唐寅	-9.94158
儼	-9.9416
敷	-9.94167
孺	-9.94377
至此	-9.94379
雕	-9.94382
構	-9.94398
瓣	-9.9441
忍	-9.94454
大癡	-9.94517
焦	-9.94572
伯英	-9.94574
最為	-9.94617
已上	-9.94632
致仕	-9.94684
春草	-9.94713
藴	-9.94783
迺	-9.94796
款題云	-9.94805
宣和書譜	-9.94807
篆籀	-9.94962
之時	-9.95076
渭	-9.95152
五分	-9.95153
喪	-9.95202
觴	-9.95203
爪	-9.95224
刑	-9.95224
褚河南	-9.95241
膏	-9.95245
坊	-9.95249
米老	-9.95265
鵝	-9.95293
子固	-9.95318
種種	-9.95325
大觀	-9.95353
人馬	-9.95364
幽人	-9.95477
者不	-9.9549
次韻	-9.95509
宰相	-9.9558
李邕	-9.95605
播	-9.95621
𤓰	-9.9563
甚多	-9.95748
字體	-9.95751
東南	-9.95769
畫竹	-9.95803
向背	-9.95845
耳髙	-9.95939
虞集	-9.9597
之道	-9.95978
徙	-9.95979
不易	-9.96003
禇	-9.96023
氣象	-9.96039
曇	-9.96087
鬚	-9.96099
豈非	-9.96104
學之	-9.96145
姑蘇	-9.96148
妙品	-9.96271
此其	-9.96376
茗	-9.96479
執筆	-9.96542
子京	-9.96556
復有	-9.96724
顔真卿	-9.96806
拖尾有	-9.96811
榖	-9.96848
賤	-9.96854
築	-9.96894
彰	-9.96915
擕	-9.96947
蝶	-9.96962
其法	-9.97032
湖州	-9.97076
五日	-9.97193
晉唐	-9.97212
神氣	-9.97255
山居	-9.97282
士女	-9.97285
三尺	-9.97286
彈	-9.97323
槐	-9.97334
大年	-9.97359
嫌	-9.97363
夕陽	-9.97443
閏	-9.97457
鷺	-9.97482
終日	-9.9751
畫卷	-9.97536
秋水	-9.97628
鷗	-9.97662
舊藏	-9.97713
沖	-9.97752
旌	-9.97753
數百	-9.97756
瑩	-9.97761
鎖	-9.97784
貨	-9.97813
雉	-9.97826
名人	-9.97827
有此	-9.97875
參軍	-9.97915
春山	-9.97921
蟬	-9.97984
三絶	-9.97999
其畫	-9.9801
困	-9.98018
未得	-9.98018
八字	-9.98058
批	-9.98122
南宫	-9.98134
明日	-9.98145
睡	-9.9815
欺	-9.98204
第九幅	-9.98205
伐	-9.98226
祁	-9.9823
䟦云	-9.98301
摩詰	-9.98358
未易	-9.98362
真草	-9.98364
石本	-9.98459
或有	-9.98496
王獻之	-9.98599
鐡	-9.98619
杳	-9.98621
區區	-9.98621
叔明	-9.98651
東西	-9.98654
卞	-9.98669
能詩	-9.98673
自題	-9.98678
縷	-9.98684
凡十	-9.98684
失其	-9.98685
三足	-9.98687
俱有	-9.98773
國初	-9.98778
往來	-9.98837
南陽	-9.98951
子瞻	-9.98973
岫	-9.98986
其妙	-9.98991
峭	-9.99001
十五年	-9.99002
強	-9.99048
浸	-9.9905
莽	-9.99054
鬢	-9.99061
匀	-9.99082
之則	-9.99083
版	-9.99093
羲獻	-9.99099
罔	-9.9911
無一	-9.99192
明年	-9.99237
零	-9.99464
之中	-9.99465
中興	-9.9949
頓首再拜	-9.99492
集賢	-9.99503
掣	-9.99507
宸翰	-9.99528
腰	-9.99704
當以	-9.99747
軰	-9.9982
素絹本	-9.99883
緊	-9.99898
瀟灑	-9.99938
榜	-9.99944
縮	-9.9995
畫品	-9.99965
閻立本	-9.99967
金石略	-10.0004
禽圖	-10.0005
羲之頓首	-10.0011
錢唐	-10.002
山色	-10.0023
仁宗	-10.0026
太師	-10.0028
縫	-10.0028
不知何	-10.0031
王孫	-10.0032
迅	-10.0037
癖	-10.0039
詎	-10.004
寢	-10.0041
郭忠恕	-10.0045
東風	-10.0051
蘇軾	-10.0054
葵	-10.0056
清勁	-10.0058
之名	-10.0063
聖人	-10.0072
亷	-10.0077
數日	-10.0077
揖	-10.0079
拱	-10.0079
堆	-10.008
誓	-10.0081
透	-10.0081
伴	-10.0084
翰林學士	-10.0085
當為	-10.0095
淵明	-10.0099
友人	-10.0102
南北	-10.0107
卷後有	-10.0111
中書舍人	-10.0112
别有	-10.0113
媿	-10.0115
不與	-10.0119
六書	-10.0124
汲	-10.0125
酣	-10.0126
駭	-10.0126
瓦	-10.0131
畫像	-10.0134
謫	-10.0135
羞	-10.0146
碑隂	-10.0147
諸賢	-10.0148
台	-10.015
十二年	-10.0155
南山	-10.0155
幀	-10.0158
右軍書	-10.0165
吏部	-10.0169
黑	-10.0171
焚香	-10.0174
筋骨	-10.0175
鵬	-10.0175
唐太宗	-10.0177
不可得	-10.0181
而能	-10.0186
徵明	-10.019
百世	-10.0196
昧	-10.0197
他人	-10.0198
正徳	-10.0211
阜	-10.0214
措	-10.0214
矣然	-10.0216
芬	-10.0216
不相	-10.0217
磔	-10.0217
梓	-10.0217
今年	-10.0221
十一年	-10.0226
不録	-10.0227
好古	-10.0227
李思訓	-10.0229
三十年	-10.0241
第六	-10.0246
不應	-10.0251
汴	-10.0256
握	-10.0258
盟	-10.0263
恕	-10.0274
装	-10.0284
子弟	-10.0289
其餘	-10.0298
唱	-10.0301
其下	-10.0302
一家	-10.0302
先君	-10.0304
橘	-10.0306
縣志	-10.0307
闌	-10.031
太和	-10.031
不忘	-10.0314
運筆	-10.0331
故事	-10.0335
文公	-10.034
蟠	-10.0353
布置	-10.0363
羲	-10.0367
一曰	-10.0379
中楷	-10.0381
旬	-10.0383
馬和之	-10.0386
笛	-10.0392
人以	-10.0393
遐	-10.0395
薛稷	-10.0396
蹈	-10.0398
儲	-10.04
粧	-10.0402
觧	-10.0404
韶	-10.0404
架	-10.0411
紳	-10.0418
天一	-10.0421
妙處	-10.0426
邨	-10.0426
北海	-10.0429
落花	-10.0433
天寳	-10.0435
維摩	-10.0436
之義	-10.0437
失之	-10.0438
乾坤	-10.0442
涵	-10.0447
暖	-10.0447
衮	-10.0448
紙上	-10.0448
千金	-10.0449
防	-10.0449
生意	-10.0449
君謨	-10.046
祕閣	-10.0461
書斷	-10.0464
一部	-10.047
帥	-10.0471
宋元	-10.0473
元常	-10.0477
以後	-10.0478
髙祖	-10.0479
碩	-10.0485
春日	-10.0488
顧陸	-10.0489
冲	-10.0489
艶	-10.0491
第十幅	-10.0494
害	-10.0506
同觀	-10.052
兩耳	-10.0523
相傳	-10.0525
滑	-10.0531
儉	-10.0535
舘	-10.0535
聳	-10.0536
鋪	-10.0536
打	-10.0536
責	-10.0536
跋語	-10.0538
臯	-10.0539
捧	-10.0541
臻	-10.0547
字法	-10.0556
徐熙	-10.0556
不成	-10.0564
睿	-10.0568
一寸	-10.0578
乖	-10.058
稜	-10.0581
確	-10.0581
時時	-10.0583
淳熙	-10.0585
北苑	-10.0588
張氏	-10.0591
昻	-10.0597
懷素	-10.0598
于此	-10.06
寳之	-10.0602
黄金	-10.061
心經	-10.0624
逆	-10.0627
巗	-10.0628
近代	-10.063
諒	-10.0631
二寸	-10.0632
宣和畫譜	-10.0633
摧	-10.0634
識云	-10.0636
元豐	-10.0641
三卷	-10.0648
今之	-10.0648
貞元	-10.0648
字元	-10.065
間有	-10.0651
文帝	-10.0661
天下之	-10.0663
革	-10.0672
竪	-10.0673
䨇	-10.0675
蔡君謨	-10.0675
也若	-10.0683
明帝	-10.069
塲	-10.0697
不是	-10.0698
愛之	-10.0698
書名	-10.0701
神明	-10.0706
扁	-10.0719
縈	-10.072
逝	-10.0722
偕	-10.0723
邸	-10.0726
可與	-10.073
崑山	-10.0738
杭州	-10.0741
䖍	-10.0763
臨川	-10.0764
瓘	-10.0764
芒	-10.0765
白石	-10.0765
雲氣	-10.0768
荆浩	-10.0768
荀	-10.077
鬲	-10.077
耆	-10.0771
九十	-10.0772
瞿	-10.0772
葬	-10.0775
弊	-10.0775
七寸	-10.0786
宋髙宗	-10.0789
無以	-10.0791
二分	-10.0793
皇象	-10.0795
筆端	-10.0806
今世	-10.0808
四大字	-10.081
好學	-10.0814
文嘉	-10.0816
誨	-10.0816
帳	-10.0816
厓	-10.0817
寫真	-10.0818
羡	-10.082
藏之	-10.0822
帖真蹟一卷	-10.0841
善草書	-10.0843
是時	-10.0852
宣王	-10.0862
灘	-10.0864
捨	-10.0866
矢	-10.0867
斂	-10.0869
石上	-10.0872
又曰	-10.0872
雙鈎	-10.0875
元暉	-10.0876
御製	-10.0879
李北海	-10.0883
二十年	-10.0883
皇后	-10.0884
淋漓	-10.0891
定為	-10.0893
呉郡	-10.0909
其形	-10.0909
汗	-10.091
程邈	-10.0912
顧愷之	-10.0912
沾	-10.0913
主簿	-10.0914
逍遥	-10.0917
腸	-10.0918
未可	-10.0919
𤣥宰	-10.0923
倪雲林	-10.0924
之迹	-10.093
史籀	-10.0938
宗室	-10.094
傳之	-10.094
其次	-10.0949
風神	-10.0951
嘗為	-10.0959
叅	-10.0959
諸帖	-10.096
蕉	-10.096
線	-10.0961
萃	-10.0961
豈不	-10.0967
圗三	-10.1
棘	-10.1001
花竹	-10.1002
世俗	-10.1002
得一	-10.1006
名蹟	-10.1008
蘿	-10.1009
轍	-10.1012
讚	-10.1012
該	-10.1014
籀	-10.1015
所臨	-10.1016
結構	-10.102
善山水	-10.1041
蔚	-10.1042
二軸	-10.1048
鐫	-10.1051
抗	-10.1056
慢	-10.1057
傲	-10.1058
卷後	-10.1058
暎	-10.1059
辛丑	-10.1061
勇	-10.1062
琦	-10.1063
三分	-10.1065
昂	-10.1076
神物	-10.1081
不已	-10.1085
小璽	-10.1085
一片	-10.1085
人生	-10.1087
明董其昌	-10.1088
萬物	-10.1098
亦以	-10.1099
秋色	-10.1102
岩	-10.1105
掠	-10.1105
尼	-10.1106
潁	-10.1107
企	-10.1108
中秋	-10.1109
甲寅	-10.1109
斑	-10.111
兎	-10.1114
謹書	-10.1115
供奉	-10.1116
所為	-10.1125
二首	-10.1129
二百	-10.1133
柴	-10.1138
二十四	-10.1138
作者	-10.1145
江西	-10.1152
貶	-10.1156
魏晉	-10.1157
咫尺	-10.1157
旗	-10.1158
宵	-10.1158
一㸃	-10.1161
侵	-10.1162
江東	-10.1162
畫馬	-10.1164
派	-10.1164
三帖	-10.1168
筆畫	-10.1168
褒	-10.117
西域	-10.1173
畫工	-10.1181
隠居	-10.1184
庚子	-10.119
婁	-10.1193
謨	-10.1195
無銘	-10.1195
二十八	-10.1202
嶠	-10.1203
逵	-10.1207
析	-10.1208
阻	-10.1208
盆	-10.1218
書此	-10.1229
文徴明	-10.1229
刻之	-10.1237
不出	-10.1238
車馬	-10.1241
拾	-10.1248
何必	-10.1248
曜	-10.1251
摹本	-10.1252
螭	-10.1252
恱	-10.1257
閭	-10.126
崇禎	-10.126
秀潤	-10.1274
不堪	-10.1274
補之	-10.1275
春雨	-10.1279
秋日	-10.1286
則其	-10.1288
亦非	-10.1289
獄	-10.13
軾	-10.1301
栁公權	-10.1304
匜	-10.1304
齊名	-10.1305
禎	-10.1307
猛	-10.1307
䕃	-10.1308
庶幾	-10.1317
泰山	-10.1322
世家	-10.1326
從事	-10.1331
象形	-10.1348
重一百	-10.1351
夙	-10.1354
縑	-10.1355
彬	-10.1359
惟有	-10.1359
科斗	-10.1361
乃是	-10.137
趙氏	-10.1376
所收	-10.1376
落日	-10.138
蕭散	-10.139
一行	-10.1392
用意	-10.1393
饑	-10.1406
刪	-10.1406
曷	-10.1406
攸	-10.1407
亟	-10.1407
浴	-10.1407
之徒	-10.1407
文敏	-10.1409
羨	-10.1409
斧	-10.141
測	-10.1411
一代	-10.1413
作詩	-10.1418
張僧繇	-10.1423
作畫	-10.1428
也此	-10.1434
不似	-10.1437
誰能	-10.1444
君臣	-10.1454
詞翰	-10.1455
不暇	-10.1456
搜	-10.1457
澀	-10.1457
瑕	-10.1458
訛	-10.1459
虬	-10.1459
瓌	-10.1461
其父	-10.1468
何時	-10.1489
子母	-10.1492
以見	-10.1497
師於	-10.1498
淮南	-10.1498
腹圍	-10.1499
筌	-10.1502
可為	-10.1507
算	-10.1508
瑟	-10.1508
宸	-10.1509
迂	-10.151
諡文	-10.151
沛	-10.151
第一幅	-10.1511
綵	-10.1511
島	-10.1512
祈	-10.1512
深得	-10.1513
裘	-10.1518
中間	-10.1527
不欲	-10.1548
牆	-10.1551
會稽	-10.1559
而去	-10.156
呉中	-10.156
優劣	-10.1562
陽人	-10.1562
産	-10.1564
紙墨	-10.1567
亦無	-10.1571
王蒙	-10.1585
取之	-10.16
駒	-10.1605
逺山	-10.1605
十有二	-10.1609
卷前有	-10.1617
太原	-10.1619
金剛經	-10.1623
烟雲	-10.163
視之	-10.1641
泉石	-10.1644
可知	-10.1648
華亭	-10.1653
改元	-10.1657
者非	-10.1659
倩	-10.166
拓	-10.1661
摸	-10.1661
不一	-10.1662
詭	-10.1664
出其	-10.1664
莖	-10.1665
樊	-10.1665
甲辰	-10.1666
分明	-10.1667
祚	-10.1667
五寸五分	-10.1668
蹲	-10.167
引首	-10.1671
自古	-10.1678
珍重	-10.1688
觀此	-10.1691
先後	-10.1692
山房	-10.1694
詩卷	-10.1704
長江	-10.1708
之美	-10.1709
豫	-10.171
區	-10.1714
太白	-10.1715
竭	-10.1715
貪	-10.1718
洋	-10.172
嘉禾	-10.172
少時	-10.1721
政和	-10.1723
大中	-10.1725
王公	-10.1733
嘉興	-10.1734
由是	-10.1736
鵠	-10.1738
粟	-10.1747
援	-10.1754
三十六	-10.1754
七分	-10.1759
紛紛	-10.1763
張公	-10.1764
滴	-10.1765
檜	-10.1766
救	-10.1767
舍人	-10.1767
挾	-10.1769
故也	-10.1771
此君	-10.1772
㝷	-10.1772
奕奕	-10.1772
書畵	-10.1785
言其	-10.1792
久之	-10.1796
嘗以	-10.1796
甚佳	-10.1799
陳氏	-10.1803
十三年	-10.1809
相見	-10.1813
洒	-10.1818
驟	-10.1821
然其	-10.1821
現	-10.1822
王世貞	-10.1827
何所	-10.1828
不免	-10.1829
名士	-10.1831
王詵	-10.1833
亦善	-10.1838
古意	-10.1838
清潤	-10.1843
文殊	-10.1846
出于	-10.1858
屏風	-10.1863
畫人物	-10.1865
龔	-10.1871
凡三	-10.1874
䖏	-10.1875
慚	-10.1875
績	-10.1875
其言	-10.1876
偈	-10.1877
鍾馗	-10.1882
不獨	-10.1883
或謂	-10.1898
吳寛	-10.1898
王子	-10.19
輞川	-10.1905
此幅	-10.1914
家法	-10.1921
之形	-10.1921
箇	-10.1927
穀	-10.1927
膠	-10.1928
劇	-10.1929
邀	-10.1929
蕪	-10.1929
暨	-10.193
己酉	-10.193
徃徃	-10.1931
綾	-10.1932
睂	-10.1936
宣徳	-10.1938
形容	-10.1952
觀于	-10.1953
趙千里	-10.1956
吴興	-10.1959
吁	-10.196
天真	-10.1962
之變	-10.197
陀	-10.197
流落	-10.1975
蒼頡	-10.1979
輦	-10.1981
緯	-10.1981
頤	-10.1981
陛下	-10.1986
所有	-10.1995
白日	-10.2
王晉卿	-10.2001
外史	-10.2003
黄帝	-10.2004
大書	-10.2011
南渡	-10.2017
𤣥宗	-10.2029
催	-10.203
笙	-10.2031
覔	-10.2032
藩	-10.2034
截	-10.2035
鄴	-10.2036
警	-10.2038
悔	-10.204
屑	-10.204
太傅	-10.2041
二幅	-10.2041
妖	-10.2042
無此	-10.2047
用墨	-10.2054
吳生	-10.2056
西風	-10.2073
湖山	-10.2076
者多	-10.2079
閉	-10.208
􁁊	-10.2085
相對	-10.2086
王僧䖍	-10.2086
冥	-10.2088
株	-10.2089
凍	-10.2089
歐陽公	-10.209
滄浪	-10.209
衢	-10.209
苐	-10.209
十七帖	-10.2091
百餘	-10.2095
李公	-10.2095
所居	-10.2097
人善畫	-10.2097
歴代名畫記	-10.2098
四明	-10.2104
諸侯	-10.2105
鶻	-10.2106
作也	-10.2108
項元汴印	-10.2121
海上	-10.2129
府君	-10.2131
之功	-10.2131
舟中	-10.2133
所傳	-10.2133
嫩	-10.2141
柯九思	-10.2143
璞	-10.2143
戊辰	-10.2144
泯	-10.2144
牒	-10.2145
料	-10.2145
簪	-10.2147
入妙	-10.2149
之至	-10.2151
之語	-10.2154
一段	-10.2157
梅竹	-10.2165
未盡	-10.2172
以前	-10.2173
四分	-10.2177
工拙	-10.2178
墨妙	-10.2181
彭城	-10.2182
趙昌	-10.2185
彛	-10.2191
禮部	-10.2192
突	-10.2192
六字	-10.2195
挑	-10.2195
翟	-10.2196
重一十	-10.2197
䘮	-10.2198
丙辰	-10.2201
吳道子	-10.2201
帝王	-10.2204
説文	-10.221
檢校	-10.2217
安國	-10.2217
公主	-10.2217
乙未	-10.222
圖宋	-10.2222
之故	-10.2224
昉	-10.2245
奎	-10.2246
千萬	-10.2247
神采	-10.2248
乙丑	-10.2248
艱	-10.2249
鞭	-10.2249
遮	-10.2253
膝	-10.2254
恥	-10.2255
嬌	-10.2258
蘇州	-10.2263
平原	-10.2264
諸葛	-10.2265
或曰	-10.2267
其先	-10.2269
大父	-10.2276
頗有	-10.2277
林泉	-10.2278
與可	-10.2278
嵗寒	-10.2283
鑒賞	-10.2285
中郎	-10.2292
黎	-10.2304
遂以	-10.2305
鳬	-10.2307
周公	-10.2308
㦸	-10.231
賣	-10.231
項子京家珍藏	-10.231
笏	-10.2318
天機	-10.2319
李白	-10.2322
皓	-10.2323
不作	-10.2328
茅屋	-10.2328
第九	-10.2333
揚州	-10.2335
清玩	-10.2335
雖不	-10.234
難得	-10.2341
謹題	-10.235
卷首	-10.2353
般	-10.2355
畆	-10.2359
待制	-10.2362
妝	-10.2363
箕	-10.2364
遁	-10.2364
今古	-10.2368
倪元鎮	-10.2368
不須	-10.2369
珍玩	-10.2376
一兩	-10.239
相國	-10.2397
或以	-10.2401
碣	-10.2405
祝允明	-10.2409
僻	-10.2416
韋誕	-10.2417
天下金石志	-10.2418
五百	-10.2418
顔色	-10.242
什	-10.242
圖畫見聞志	-10.242
不自	-10.2424
俯仰	-10.2427
則不	-10.2432
浙	-10.2441
二尺	-10.2445
萬古	-10.2449
張雨	-10.2465
無聲	-10.2475
寂寞	-10.2475
夏珪	-10.2478
四人	-10.2481
逼真	-10.2487
冩生	-10.249
畫師	-10.2495
石室	-10.2497
今歸	-10.2511
江左	-10.2514
不聞	-10.2516
廣二尺	-10.2516
白頭	-10.2518
有神	-10.2521
以歸	-10.2522
見示	-10.2522
第二十	-10.2522
能品	-10.2528
壊	-10.253
秋林	-10.253
長生	-10.2531
縹緲	-10.2531
欄	-10.2533
又見	-10.2547
圗繪寳鑑	-10.2551
率更	-10.2553
為第一	-10.2567
名曰	-10.2573
可也	-10.2579
跋尾	-10.2583
渴	-10.2586
毒	-10.2587
叚	-10.2588
王原祁	-10.2588
滌	-10.2589
蹇	-10.2591
瑜	-10.2594
猶未	-10.2606
知者	-10.2607
箋本	-10.2614
字彦	-10.2617
披圖	-10.2619
變相	-10.2624
癸	-10.2631
牛圖	-10.2636
丙寅	-10.2641
尋常	-10.2642
註	-10.2644
鏤	-10.2644
第十一幅	-10.2645
攝	-10.2645
隴	-10.2645
虞永興	-10.2647
韓滉	-10.2649
之弟	-10.2649
題詠	-10.2654
諡曰	-10.266
溪上	-10.2662
梨花	-10.2664
教授	-10.2675
不凡	-10.2678
善畫山水	-10.2679
之制	-10.2684
多有	-10.2691
見此	-10.2695
樓閣	-10.2695
脉	-10.2697
彥	-10.2698
欹	-10.27
不載	-10.27
廻	-10.2701
溥	-10.2701
協	-10.2701
趙公	-10.2701
敕	-10.2702
鋭	-10.2702
丁丑	-10.2703
瑤	-10.2703
繹	-10.2706
湍	-10.2706
四海	-10.2709
黄子久	-10.2712
第八	-10.2715
拖尾	-10.2715
壬子	-10.2715
将軍	-10.2717
擅名	-10.2721
澁	-10.2726
不多	-10.2728
子雲	-10.2729
功徳	-10.273
孝子	-10.2731
五言	-10.2732
泥金	-10.2735
有半	-10.2739
財	-10.2754
廓	-10.2757
之文	-10.2758
墨梅	-10.2759
掲	-10.276
翳	-10.2761
檇李	-10.2761
大師	-10.2762
槎	-10.2763
梧	-10.2763
挹	-10.2763
恢	-10.2763
衝	-10.2764
檻	-10.2765
人品	-10.2767
棋	-10.2767
黄鶴	-10.2769
錢舜舉	-10.277
後主	-10.277
卷末	-10.2775
綬	-10.278
名手	-10.2787
武陵	-10.2789
晩年	-10.2796
不審	-10.2799
華陽	-10.2801
月明	-10.2806
一切	-10.2809
久矣	-10.2811
搆	-10.2815
驛	-10.2816
樓觀	-10.2817
粹	-10.2819
膚	-10.282
鼠	-10.2821
諸生	-10.2823
文獻	-10.2826
畨	-10.2828
之風	-10.2833
甥	-10.2835
可考	-10.2843
一分	-10.2852
山茶	-10.2856
帛	-10.286
者又	-10.2865
咨	-10.2866
南京	-10.2866
字印	-10.2867
栢	-10.287
艸	-10.2872
有竒	-10.2873
趙文敏公	-10.2874
兆	-10.2875
犀	-10.2877
裳	-10.2877
沂	-10.2877
舉進士	-10.2878
戱	-10.2878
若夫	-10.2878
胥	-10.2879
墳	-10.2879
第十二幅	-10.288
孫過庭	-10.2881
暫	-10.2881
贅	-10.2882
米元暉	-10.2883
不肯	-10.2884
山下	-10.2886
春色	-10.2887
開元中	-10.2895
當代	-10.2897
堵	-10.2898
海岳	-10.2898
字文	-10.2902
後來	-10.2907
并題	-10.2918
獲觀	-10.292
次之	-10.292
能畫	-10.2922
者惟	-10.2923
舅	-10.2925
以俟	-10.2926
髙古	-10.2931
歐虞	-10.2931
明昌	-10.2931
鉅	-10.2933
箴	-10.2935
騷	-10.2936
輸	-10.2937
作一	-10.2937
垣	-10.2938
随	-10.2938
臨安	-10.2945
于是	-10.2945
稱之	-10.2949
識之	-10.295
紹聖	-10.2952
字學	-10.2955
絶倫	-10.2959
山鷓	-10.2971
者耶	-10.2972
翥	-10.298
于世	-10.2986
一丈	-10.2988
唐宋	-10.299
忙	-10.2993
捲	-10.2993
軟	-10.2993
抽	-10.2994
丙午	-10.2995
虧	-10.2995
慘	-10.2995
篋	-10.2996
溫	-10.2997
護	-10.2998
演	-10.2998
鳥獸	-10.3005
嘗謂	-10.3005
秋江	-10.3018
淡墨	-10.3021
朝夕	-10.3024
中為	-10.3028
禁中	-10.3032
文集	-10.3033
五寸二分	-10.3039
雲烟	-10.3042
和尚	-10.3045
逃	-10.3049
史本傳	-10.305
結字	-10.3051
寔	-10.3054
聖教序	-10.3055
眺	-10.3055
歇	-10.3056
弇州	-10.3057
誅	-10.3058
是日	-10.306
石湖	-10.3061
數年	-10.3067
閣下	-10.3071
其他	-10.3072
可憐	-10.3079
長卷	-10.308
花開	-10.3083
從容	-10.3086
稚	-10.3089
人多	-10.3091
故實	-10.3095
涇	-10.3106
倉頡	-10.3112
淹	-10.3112
數行	-10.3113
㕔	-10.3115
嬰	-10.3115
非也	-10.3115
永興	-10.3115
銳	-10.3115
有名	-10.3115
淸	-10.3116
倪迂	-10.3116
驪	-10.3117
跨	-10.3117
叩	-10.3117
明董其昌書	-10.312
物之	-10.3123
清河	-10.3129
見畫	-10.3137
真賞	-10.3147
卷尾	-10.3148
樓臺	-10.3149
宋米芾	-10.3156
歴代	-10.3157
少卿	-10.316
遺跡	-10.3163
款書	-10.3166
鶯	-10.3166
蛟	-10.3167
鈍	-10.3172
扉	-10.3176
驥	-10.3179
董北苑	-10.318
闗仝	-10.318
譏	-10.318
無事	-10.3181
故曰	-10.3182
多矣	-10.3182
拾遺	-10.3188
髙下	-10.319
規模	-10.319
長短	-10.3194
名筆	-10.3198
雀圖	-10.3199
此則	-10.3203
硬	-10.3205
豈可	-10.3208
墻	-10.321
忠義	-10.3214
九寸	-10.3217
摹刻	-10.3228
存者	-10.3229
一十	-10.323
修竹	-10.3231
閨	-10.3231
雪圖	-10.3232
燒	-10.3234
壬辰	-10.3234
䦨	-10.3236
搖	-10.3237
黍	-10.3237
朶	-10.3242
衛夫人	-10.3243
雖有	-10.3245
龍蛇	-10.3247
之祖	-10.3254
所存	-10.3257
之樂	-10.3265
詩意	-10.3266
長松	-10.327
形勢	-10.3278
籬	-10.3286
雖然	-10.329
江村	-10.3294
邢	-10.3296
辦	-10.3296
踐	-10.3296
壬午	-10.3297
有一	-10.3298
𢃄	-10.33
未及	-10.3303
昌黎	-10.3304
烟霞	-10.3306
詩曰	-10.3312
亦是	-10.3316
迄	-10.3332
五行	-10.3336
偶然	-10.3339
恣	-10.3342
一體	-10.3346
不待	-10.3355
後為	-10.3356
斥	-10.3357
峽	-10.3358
冢	-10.3358
擲	-10.3361
絡	-10.3361
認	-10.3362
康熙	-10.3362
皋	-10.3363
畜	-10.3365
胸	-10.3365
空山	-10.3366
之説	-10.3381
地一	-10.3386
使君	-10.3393
即位	-10.3403
善書者	-10.3406
文宗	-10.3407
後歸	-10.3408
傳世	-10.3413
寫竹	-10.3415
効	-10.3419
纒	-10.342
十五日	-10.3421
亦云	-10.3422
祇	-10.3423
戸	-10.3423
佚	-10.3424
縑素	-10.3428
文徵明	-10.3429
畫史會要	-10.3431
數字	-10.3436
則知	-10.3449
十有一	-10.3455
神彩	-10.3455
則又	-10.3457
水石	-10.3457
伏惟	-10.346
展卷	-10.346
卦	-10.3474
四日	-10.3475
灣	-10.3478
輟	-10.3479
崩	-10.3479
蘋	-10.3481
丙申	-10.3482
初學	-10.3483
袍	-10.3484
弇州山人	-10.3484
歐陽率更	-10.3484
琅玕	-10.3484
娥	-10.3484
壬戌	-10.3485
繆	-10.3485
殁	-10.3485
字叔	-10.3486
冝	-10.3487
遺意	-10.3503
有法	-10.3505
蒼蒼	-10.3512
揮毫	-10.3519
凌雲	-10.3521
右方	-10.3525
其心	-10.3529
三兩	-10.3529
遂為	-10.3534
𦙍	-10.3536
磵	-10.3541
朱子	-10.3541
珂	-10.3543
幕	-10.3544
御筆題籖籖上有乾隆宸翰一璽	-10.3545
己巳	-10.3546
銷	-10.3546
醇	-10.3546
竦	-10.3547
熙寧	-10.355
者矣	-10.3553
等字	-10.3557
延陵	-10.3557
嘗作	-10.3558
不到	-10.3565
工於	-10.3571
印章	-10.3572
李龍眠	-10.3579
李嵩	-10.358
明沈周	-10.3581
無異	-10.3583
人物山水	-10.3584
北齊	-10.3587
秘閣	-10.3589
公碑	-10.3593
邇	-10.3598
行楷	-10.3598
七字	-10.3601
其體	-10.3604
耽	-10.3606
廸	-10.3606
準	-10.3607
豈無	-10.3613
禮部尚書	-10.3614
廼	-10.3615
雛	-10.3617
赤壁	-10.3625
著色山水	-10.3628
元帝	-10.3633
不下	-10.3636
題其後	-10.3637
上品	-10.3638
月既望	-10.3639
不足以	-10.3639
世南	-10.3642
府志	-10.3647
耳目	-10.365
其能	-10.3658
堂記	-10.3659
不忍	-10.3661
陸柬之	-10.3666
溺	-10.3667
禀	-10.3667
笠	-10.3668
縣令	-10.3668
未嘗不	-10.3668
小異	-10.3669
貎	-10.3669
窗	-10.367
吞	-10.367
撥	-10.3671
吳門	-10.3672
叠	-10.3674
掾	-10.3674
不啻	-10.3675
陂	-10.3675
博古圖	-10.3681
梅道人	-10.3687
所蔵	-10.3687
字形	-10.3691
精於	-10.3692
不入	-10.3697
撰并書	-10.3701
之理	-10.3705
方寸	-10.3708
何也	-10.3715
風致	-10.3715
小楷書	-10.3716
欵書	-10.3725
韵	-10.3727
牘	-10.3727
米氏	-10.373
氏之	-10.373
儔	-10.373
蕭然	-10.3731
槃	-10.3734
聞之	-10.3734
决	-10.3735
喧	-10.3736
暴	-10.3736
庚午	-10.3736
拳	-10.3737
黯	-10.3738
風度	-10.3742
新安	-10.3749
右髙一尺	-10.3753
經史	-10.3753
公書	-10.3755
又以	-10.3756
於時	-10.3757
山之	-10.3766
前署	-10.3772
題其	-10.3773
而復	-10.3773
四寸五分	-10.3778
最後	-10.378
十四年	-10.3789
僊	-10.3793
不至	-10.3794
鍳	-10.3794
厯代名畫記	-10.3796
迫	-10.3797
癸丑	-10.3797
兩銑相距	-10.3798
消息	-10.3798
峙	-10.3798
其實	-10.3798
㪚	-10.3801
弔	-10.3801
云是	-10.3802
友仁	-10.3803
陳繼儒	-10.3804
之體	-10.3805
累遷	-10.381
嘉祐	-10.381
提舉	-10.3813
副使	-10.3822
鴨	-10.3828
法也	-10.3828
李公麟	-10.3832
文正	-10.3852
精絶	-10.3853
盜	-10.3859
蒸	-10.386
陟	-10.3863
衂	-10.3863
諷	-10.3864
銕	-10.3865
弁	-10.3865
聯	-10.3866
穠	-10.3867
隂陽	-10.387
風骨	-10.3871
甘露	-10.3877
為最	-10.3879
詩人	-10.388
撆	-10.388
之末	-10.3881
有意	-10.3881
竹枝	-10.3883
不容	-10.3884
有二	-10.3886
朽	-10.3887
建安	-10.3893
二寸七分	-10.39
歸去	-10.3901
慨然	-10.3902
篆𨽻	-10.3904
金碧	-10.3904
自言	-10.3906
寅	-10.3907
咸通	-10.3909
太上	-10.3912
暇日	-10.3913
題曰	-10.3913
子久	-10.3917
方圓	-10.3917
多作	-10.3921
濯	-10.3921
禾	-10.3922
鮑	-10.3926
呂	-10.3926
蚤	-10.3926
怪石	-10.3928
蔬	-10.3928
葦	-10.3928
嫁	-10.3929
多少	-10.3931
辛酉	-10.3931
山樵	-10.3932
乎其	-10.3932
抄	-10.3932
周文矩	-10.3933
艷	-10.3933
纓	-10.3934
中國	-10.3937
唐書本傳	-10.3937
風韻	-10.3937
亦猶	-10.3941
自稱	-10.3949
不具	-10.3949
斯人	-10.3949
髙僧	-10.3952
有異	-10.3954
皇甫	-10.3956
圖五	-10.3957
也予	-10.3959
唐書	-10.3965
比之	-10.3969
人所	-10.3974
過於	-10.3975
王右丞	-10.3977
逺矣	-10.3985
郗	-10.3986
節度	-10.399
然亦	-10.399
孔雀	-10.399
陽冰	-10.399
冶	-10.3992
蔓	-10.3993
畱	-10.3994
薰	-10.3995
薛紹彭	-10.3995
仗	-10.3995
結搆	-10.3996
文彭	-10.3996
佑	-10.3997
棊	-10.3997
考其	-10.3998
郁	-10.3998
而得	-10.3998
四寸二分	-10.4006
前代	-10.4009
者乃	-10.4009
十餘年	-10.4012
奉勅	-10.4015
山石	-10.4016
閣帖	-10.402
是其	-10.4021
私印	-10.4021
明文徴明	-10.4023
見者	-10.4024
是器	-10.4026
矣今	-10.4041
有以	-10.4043
盡其	-10.4046
甗	-10.4048
人工	-10.4049
散騎常侍	-10.4055
諸子	-10.4055
哭	-10.4057
臧	-10.4058
敝	-10.4058
君家	-10.4059
狼	-10.406
它	-10.4061
簇	-10.4061
金石文字記	-10.4062
鄱陽	-10.4062
華山	-10.4062
壬寅	-10.4063
孚	-10.4064
林下	-10.4065
大學士	-10.4066
平安	-10.4067
團扇	-10.4069
萬年	-10.4077
世祖	-10.4083
少師	-10.4087
窠石	-10.4093
武林	-10.4096
傳於世	-10.4099
筍	-10.41
四幅	-10.4102
滕	-10.4105
月望日	-10.4106
禊帖	-10.4107
小兒	-10.4114
為文	-10.4114
不受	-10.4117
奈何	-10.4119
天府	-10.4122
秩	-10.4123
棠	-10.4124
安道	-10.4126
庚申	-10.4126
巡	-10.4126
捐	-10.4126
戊寅	-10.4127
八體	-10.4127
巷	-10.4128
三寸五分	-10.4128
馨	-10.4128
山居圖	-10.4132
印記	-10.4142
芳草	-10.4144
太保	-10.4148
千字文	-10.415
四行	-10.415
自為	-10.4152
限	-10.4163
可得	-10.4166
無欵	-10.4166
御臨	-10.4168
名山	-10.4171
高宗	-10.4174
張懐瓘	-10.4176
林屋	-10.4178
東陽	-10.4183
次第	-10.4185
風雲	-10.4186
之家	-10.4186
樸	-10.4188
渺	-10.4189
爐	-10.4189
鉉	-10.419
髓	-10.4191
人工畫	-10.4191
㕘	-10.4191
頼	-10.4193
感慨	-10.4194
疊嶂	-10.4196
橅	-10.4196
以詩	-10.42
歎曰	-10.4206
并書	-10.4208
中山	-10.4211
㸃染	-10.4213
五湖	-10.4214
六分	-10.4216
四軸	-10.4221
留意	-10.4222
晉王羲之	-10.4227
筆迹	-10.4234
論也	-10.4237
師法	-10.4239
也因	-10.424
杜甫	-10.4248
素牋本	-10.425
内史	-10.4255
驢	-10.4257
素箋本著色畫	-10.4258
閔	-10.4258
箭	-10.4259
濵	-10.4262
斛	-10.4262
狐	-10.4263
脂	-10.4264
䏻	-10.4264
紫芝	-10.4267
朙	-10.4269
七賢	-10.4269
不著	-10.427
天竺	-10.4271
吏部尚書	-10.4274
二子	-10.4279
門外	-10.4282
世所	-10.4285
御府所蔵	-10.4285
凡二十	-10.4288
不仕	-10.4292
二本	-10.4294
二十二	-10.4295
書賦云	-10.4302
松風	-10.4305
黄庭堅	-10.4313
人心	-10.4321
着	-10.4321
贍	-10.4324
晁	-10.4324
蓬萊	-10.4325
齋集	-10.4325
靳	-10.4326
勵	-10.4326
欠	-10.4327
勃	-10.433
幷	-10.433
腴	-10.4331
不言	-10.4332
匣	-10.4332
豁	-10.4335
界畫	-10.4335
數語	-10.4335
之竒	-10.4335
大悲	-10.4337
斯文	-10.4343
判官	-10.4344
書云	-10.4347
不傳	-10.4358
骨氣	-10.4361
文正公	-10.4372
間以	-10.4373
勝國	-10.4381
之象	-10.4382
瑛	-10.4384
霸	-10.4391
勻	-10.4394
剡	-10.4394
蹙	-10.4395
瑣	-10.4395
歛	-10.4396
欣然	-10.4396
肌	-10.4396
訥	-10.4396
聼	-10.4397
其説	-10.4399
甲午	-10.4399
不幸	-10.44
者或	-10.44
鸚鵡	-10.4403
出處	-10.4403
㢘	-10.4405
如新	-10.4406
首尾	-10.4412
三行	-10.4424
汝南	-10.4428
平日	-10.4435
二十五	-10.4437
始皇	-10.4454
士人	-10.4455
房山	-10.4457
中原	-10.446
怯	-10.4461
樽	-10.4461
闢	-10.4462
壻	-10.4463
油	-10.4464
臆	-10.4464
顒	-10.4468
名世	-10.4471
婦人	-10.4475
若是	-10.4478
不少	-10.448
寶之	-10.4485
崇寧	-10.4485
君之	-10.4488
失真	-10.449
帖中	-10.449
工山水	-10.4492
文曰	-10.4493
廣陵	-10.45
之勝	-10.4508
别號	-10.4512
月八日	-10.4516
拈	-10.4517
壤	-10.4517
道子	-10.4518
名臣	-10.4523
鹽	-10.4526
簡縁云	-10.4526
彦逺	-10.4527
妾	-10.4529
之精	-10.4532
天上	-10.4533
俄	-10.4534
湧	-10.4534
墟	-10.4535
瓢	-10.4535
蜂	-10.4535
無所不	-10.4535
螺	-10.4535
山谷集	-10.4536
陪	-10.4536
庚寅	-10.4539
之屬	-10.4542
節度使	-10.4544
六寸五分	-10.4544
搨本	-10.4546
北宋	-10.4548
置之	-10.4552
極其	-10.4553
昭陵	-10.4554
王逸少	-10.4558
方外	-10.4559
不易得	-10.4561
無限	-10.4561
墨池	-10.4562
有聲	-10.4564
予嘗	-10.4569
一寸二分	-10.457
鄉里	-10.4572
王摩詰	-10.4577
寳藏	-10.4579
蜀中	-10.458
龍圖	-10.4582
昶	-10.4585
三寸八分	-10.4585
是非	-10.4587
結體	-10.4593
崔白	-10.4594
灌	-10.4597
琰	-10.4598
三寸二分	-10.4598
黄門	-10.4598
矯	-10.4601
埋	-10.4601
凋	-10.4602
栽	-10.4602
戴嵩	-10.4603
牖	-10.4604
董𤣥宰	-10.4604
譚	-10.4605
嬉	-10.4606
褾	-10.4606
耿	-10.4606
羅漢像	-10.4608
眉山	-10.4609
努	-10.4609
道徳經	-10.4609
聖賢	-10.4613
以爲	-10.4613
承㫖	-10.4616
世稱	-10.4617
竹樹	-10.4617
元鎮	-10.462
執事	-10.4621
之内	-10.4621
筆下	-10.4625
以是	-10.4627
一名	-10.4627
景物	-10.4632
風塵	-10.4633
足稱	-10.4636
深處	-10.4638
真偽	-10.4639
濃淡	-10.4639
有時	-10.4639
所云	-10.4652
留心	-10.4654
賁	-10.4657
雷紋	-10.4665
夏日	-10.4666
陶𢎞景	-10.467
喚	-10.467
揆	-10.4671
礙	-10.4672
翅	-10.4674
瑾	-10.4675
丁巳	-10.4677
識其	-10.4681
六法	-10.4681
固不	-10.4692
不可不	-10.4696
謹識	-10.4696
其詩	-10.4706
列女	-10.4712
與人	-10.4714
變態	-10.4715
以遺	-10.4715
何足	-10.4716
避暑	-10.4717
之句	-10.472
南宋	-10.4721
書在	-10.4724
宋蘇軾	-10.4727
安知	-10.4727
錢塘人	-10.4731
括	-10.4731
所用	-10.4739
侣	-10.474
黔	-10.474
郝	-10.474
鬻	-10.4741
綃	-10.4742
暈	-10.4744
魏公	-10.4744
城南	-10.4746
因以	-10.4746
以傳	-10.475
山陰	-10.4756
之謂	-10.4763
臨江	-10.4773
遺蹟	-10.4774
也哉	-10.4774
易之	-10.4774
稱為	-10.4779
書亦	-10.4779
戀	-10.4783
珉	-10.4786
矣而	-10.4791
項元汴	-10.4795
呉生	-10.4796
聰	-10.4797
僧繇	-10.4806
討	-10.4806
營丘	-10.4807
𨼆	-10.4807
遺法	-10.4808
拍	-10.4809
方丈	-10.4809
飾以	-10.4809
素箋本墨畫	-10.481
倘	-10.4812
天籟閣	-10.4812
乙酉	-10.4812
汙	-10.4814
祿	-10.4814
之論	-10.4815
曩	-10.4817
歙	-10.4818
竒古	-10.4823
雨過	-10.4823
有道	-10.4824
二曰	-10.4836
疑其	-10.484
終不	-10.4841
號為	-10.4841
評書	-10.4847
憲宗	-10.4848
刺史	-10.4848
竒絶	-10.4851
故知	-10.4855
而不知	-10.4855
不俗	-10.4858
文待詔	-10.4861
東坡先生	-10.4862
二寸五分	-10.4869
亦然	-10.488
挫	-10.4881
插	-10.4883
兀	-10.4884
庚辰	-10.4884
矧	-10.4884
中書侍郎	-10.4885
紹彭	-10.4885
閤	-10.4886
戊申	-10.4887
葩	-10.4888
然也	-10.4888
甲申	-10.489
三十二	-10.489
者謂	-10.4891
庠	-10.4891
栗	-10.4892
李西臺	-10.4892
獅子	-10.4894
殘缺	-10.4895
前賢	-10.4895
夏山	-10.49
都下	-10.4903
不合	-10.4904
塔銘	-10.4905
以謂	-10.4907
瑯琊	-10.4907
吾友	-10.4914
經營	-10.4921
題字	-10.4926
所稱	-10.4928
用心	-10.4928
圖繪	-10.4936
三寸四分	-10.4936
猶存	-10.4937
馭	-10.495
捷	-10.4951
牢	-10.4951
不若	-10.4954
詰	-10.4956
針	-10.496
晉宋	-10.4961
净	-10.4962
拜觀	-10.4963
石壁	-10.4964
罍	-10.4968
太清	-10.4968
故能	-10.497
也昔	-10.497
四寸八分	-10.4971
得失	-10.4972
本無	-10.4973
烟雨	-10.4974
兼善	-10.4974
雪霽	-10.4976
九歌	-10.4978
集古	-10.498
花草	-10.4981
信然	-10.4982
建中	-10.4987
鮮于	-10.4989
九分	-10.499
鶉	-10.499
春三月	-10.499
及其	-10.4992
十七年	-10.4999
愛其	-10.5001
青緑	-10.5003
廟堂	-10.5009
觀音像	-10.5009
大都	-10.5018
玉山	-10.5021
賞鑒	-10.5025
一詩	-10.5025
蹄	-10.5025
癸亥	-10.5028
辛亥	-10.5028
項墨林鑑賞章	-10.5029
瀆	-10.5029
概	-10.503
衷	-10.503
鬬	-10.5031
此意	-10.5034
舌	-10.5035
何日	-10.5039
積雪	-10.5041
給事中	-10.5045
之物	-10.5058
荷花	-10.5064
吳江	-10.5065
馬圖一	-10.5066
題䟦	-10.5071
侍御	-10.5072
籖	-10.5072
濛	-10.508
字季	-10.5083
刻本	-10.5088
古帖	-10.5093
上鈐	-10.5094
萊	-10.5097
書譜	-10.5098
坡翁	-10.51
雋	-10.5101
陸探微	-10.5101
晤	-10.5101
瀾	-10.5101
瀛	-10.5102
甲戌	-10.5103
龎	-10.5103
煮	-10.5104
葡萄	-10.5104
洎	-10.5105
徘徊	-10.5106
而又	-10.5107
王君	-10.5116
公卿	-10.5119
之致	-10.512
稷	-10.5127
五寸一分	-10.5128
二寸九分	-10.5131
五人	-10.5132
文湖州	-10.5136
湖上	-10.5138
貞節	-10.5142
七寸五分	-10.5143
始知	-10.5146
外國	-10.5146
内外	-10.5146
故有	-10.5151
劄	-10.5152
藹	-10.5157
與余	-10.5157
印一印	-10.5164
白玉	-10.5165
半印二	-10.5167
款識	-10.5175
渡江	-10.5175
戊午	-10.5177
疑是	-10.5177
訖	-10.5178
故物也	-10.5181
未詳	-10.5183
枯木	-10.519
張丑	-10.5192
大雅	-10.5193
歴官	-10.5195
之極	-10.5196
奈	-10.5196
字景	-10.5197
人事	-10.5198
古者	-10.5199
尚存	-10.5203
門下	-10.5208
品題	-10.5209
至其	-10.5214
辛未	-10.5222
雪竹	-10.5223
之器	-10.5223
啟南	-10.5224
髙一尺	-10.5228
所在	-10.5229
桃源	-10.5231
相逢	-10.5233
以至	-10.5233
僅存	-10.5234
云云	-10.5236
漢魏	-10.5236
一旦	-10.5239
也按	-10.5239
孝宗	-10.5242
沈石田	-10.5245
踪	-10.5246
従	-10.5246
未足	-10.5247
穏	-10.5249
眩	-10.525
磬	-10.5251
胄	-10.5252
汎	-10.5252
八卦	-10.5253
韜	-10.5253
寘	-10.5256
寄傲	-10.5257
呉道子	-10.5259
鐙	-10.526
建康	-10.5261
陳留	-10.5262
造物	-10.5262
飄逸	-10.527
埃	-10.5276
垂露	-10.5286
無錫	-10.5288
薫	-10.5291
之所以	-10.5292
畫龍	-10.5311
卉	-10.5313
器也	-10.5314
三寸一分	-10.5316
鴉	-10.5317
筵	-10.5318
素絹本墨畫	-10.5319
簫	-10.532
旻	-10.5324
七言	-10.5324
東觀餘論	-10.5325
墅	-10.5326
懇	-10.5326
敞	-10.5326
沈啓南	-10.5327
帽	-10.5329
龍虎	-10.533
霍	-10.533
椒	-10.5331
畫院待詔	-10.5332
大厯	-10.5335
東山	-10.5337
伯仲	-10.5337
趙子固	-10.5338
四寸七分	-10.5342
李後主	-10.5342
不求	-10.5345
不知何許人	-10.5346
亂真	-10.5347
光禄	-10.5351
此法	-10.5361
亦佳	-10.5368
濡	-10.5374
中人	-10.5376
㑹要	-10.5388
各一	-10.5389
先生之	-10.5391
詩畫	-10.5392
釋氏	-10.5393
晉卿	-10.5394
圖明	-10.5394
床	-10.5398
寂寂	-10.5399
緘	-10.5399
捉	-10.54
鄧文原	-10.54
攬	-10.54
冗	-10.5401
父乙	-10.5402
典刑	-10.5403
楹	-10.5404
伎	-10.5405
三曰	-10.5406
廣川書跋	-10.5408
酸	-10.5408
米家	-10.5408
名賢	-10.5411
東平	-10.5417
太僕	-10.5424
貓	-10.5434
龍門	-10.5438
清江	-10.5448
同年	-10.5449
與夫	-10.5451
以贈	-10.5452
夢中	-10.5456
二寸八分	-10.5456
魯直	-10.5462
今已	-10.5464
其志	-10.5465
末幅	-10.5465
大幅	-10.5468
匾	-10.547
塢	-10.5472
衛恒	-10.5474
劔	-10.5475
慙	-10.5475
𣲖	-10.5475
艾	-10.5476
頑	-10.5476
涯	-10.5477
丸	-10.5477
耿耿	-10.5478
刹	-10.5479
鉢	-10.5481
潑墨	-10.5481
蓮花	-10.5485
丙子	-10.5493
亦未	-10.5494
二三	-10.5497
十里	-10.5499
墓碑	-10.5502
篆法	-10.5503
秋月	-10.5504
六幅	-10.5504
進退	-10.5509
部郎中	-10.551
道釋	-10.5516
卷髙一尺	-10.5519
獨立	-10.5522
王洽	-10.5523
書畫記	-10.5526
軸髙二尺	-10.5527
如意	-10.5527
文辭	-10.5528
絶筆	-10.553
入能	-10.5533
史記	-10.5534
蔡襄	-10.5539
中年	-10.554
書品	-10.5542
横卷	-10.5544
明唐寅	-10.5545
白首	-10.5546
悚	-10.5547
猗	-10.5549
丁酉	-10.555
宜其	-10.5551
六行	-10.5551
諦	-10.5552
號曰	-10.5553
水經注	-10.5553
飬	-10.5555
冒	-10.5555
掩映	-10.5556
幸甚	-10.5558
甕	-10.5558
億	-10.5559
丹丘	-10.5564
伽	-10.5565
家𫝊	-10.5568
秘府	-10.5578
桃李	-10.5579
吾鄉	-10.5579
父丁	-10.5583
文休承	-10.5585
隱居	-10.5587
其筆	-10.5588
恍	-10.5591
態度	-10.5597
七尺	-10.5597
洛神	-10.5598
米友仁	-10.56
本紀	-10.5603
開皇	-10.5609
吳人	-10.5611
水中	-10.5612
今為	-10.5612
丁未	-10.5622
己亥	-10.5625
松竹	-10.5625
展子䖍	-10.5625
顏	-10.5625
㨗	-10.5626
喜作	-10.5628
匡	-10.5631
大德	-10.5634
楨	-10.5634
涪翁	-10.5634
祕府	-10.5638
者謂之	-10.5642
武后	-10.565
風格	-10.5654
宣示	-10.5655
茅山	-10.5655
慶元	-10.5656
則無	-10.5665
以畫	-10.5667
手筆	-10.5672
手澤	-10.5683
矣其	-10.5689
昔年	-10.569
更有	-10.5697
綜	-10.57
得以	-10.5701
畫譜	-10.5702
乙巳	-10.5705
帷	-10.5705
侈	-10.5707
者哉	-10.5707
余曰	-10.5708
勑	-10.5709
徐鉉	-10.571
皎	-10.5712
墨林秘玩	-10.5712
四寸九分	-10.5715
所刻	-10.5715
悠然	-10.5716
鞍馬	-10.572
斜陽	-10.5731
文太史	-10.5735
𨽻釋	-10.5742
古松	-10.5743
得見	-10.5744
僖	-10.5745
元一	-10.5745
精工	-10.5748
十六年	-10.5751
不當	-10.5751
節婦	-10.5752
皆不	-10.5754
右唐	-10.5755
長子	-10.5758
秀才	-10.5758
寺僧	-10.5759
秦漢	-10.5762
華氏	-10.5763
君碑	-10.5766
若干	-10.5769
閟	-10.577
九兩	-10.5772
此乃	-10.5773
篁	-10.5774
訣云	-10.5776
掖	-10.5779
簋	-10.578
銓	-10.578
液	-10.5781
漠漠	-10.5781
儻	-10.5782
書又	-10.5784
翹	-10.5784
脈	-10.5786
躡	-10.5787
棟	-10.5788
層巒	-10.5788
以成	-10.5788
傳神	-10.579
峰巒	-10.5791
趙魏公	-10.5793
㸃綴	-10.5795
者何	-10.5796
參政	-10.5799
楷書欵識云	-10.58
禮樂	-10.5802
名流	-10.5804
文徵仲	-10.5807
印二印	-10.5808
千秋	-10.5813
鵓鴿	-10.5813
二寸二分	-10.5814
誣	-10.5817
明仇英	-10.5818
字皆	-10.5819
三寸九分	-10.5822
疎林	-10.5827
工夫	-10.5827
覽者	-10.5836
以書名	-10.5843
松江	-10.5846
何似	-10.5848
想見	-10.5849
書評	-10.585
中丞	-10.585
八日	-10.5852
未免	-10.5853
如雲	-10.5858
狹	-10.5859
不存	-10.586
丁亥	-10.586
頽	-10.586
灰	-10.586
苞	-10.5861
簿	-10.5862
凖	-10.5862
隊	-10.5862
宋搨	-10.5864
己未	-10.5864
羸	-10.5865
磨滅	-10.5865
笥	-10.5866
隙	-10.5866
鈔	-10.5867
紗	-10.5869
琴書	-10.587
六寸八分	-10.5876
筆者	-10.5878
和之	-10.5884
古器	-10.5885
之矣	-10.5887
唐顔真卿	-10.5889
風俗	-10.5891
墨本	-10.5891
白髪	-10.5895
陳公	-10.5895
今觀此	-10.5905
曽見	-10.5907
大理	-10.5908
超然	-10.591
復得	-10.5911
尚未	-10.5915
忠孝	-10.5916
而此	-10.5916
從之	-10.5916
至大	-10.5922
議論	-10.5924
潁川	-10.5928
欲其	-10.5932
歸之	-10.5933
落落	-10.5934
萬世	-10.5935
董逌	-10.5937
跳	-10.5937
噴	-10.5937
一寸五分	-10.594
屠	-10.594
謾	-10.594
艇	-10.5942
讃	-10.5942
遞	-10.5943
拆	-10.5944
蟹	-10.5944
燥	-10.5946
鍾張	-10.5947
毫端	-10.5947
是為	-10.5947
豹	-10.5948
之類是也	-10.5948
課	-10.5948
不逺	-10.5954
渡水	-10.5954
宋克	-10.5957
而為之	-10.5958
源流	-10.597
絶無	-10.5974
審定	-10.5975
墨林山人	-10.5978
松下	-10.5979
一世	-10.5984
七行	-10.5986
右方上有	-10.5987
飄飄	-10.5989
七寸七分	-10.5997
余以	-10.6002
石鼓	-10.6003
法師	-10.6006
筆札	-10.6007
張顛	-10.6008
真迹	-10.6019
崔瑗	-10.6021
庾翼	-10.6022
幅前有	-10.6022
天池	-10.6023
沿	-10.6024
滄洲	-10.6025
捺	-10.6025
遶	-10.6026
蘇長公	-10.6026
逄	-10.6026
翊	-10.6027
濱	-10.6028
博古	-10.603
鍾元常	-10.603
絶少	-10.6033
徵仲	-10.6039
四寸三分	-10.605
正統	-10.605
讀之	-10.6056
明文徵明	-10.6063
原文	-10.6063
骨力	-10.6067
冕	-10.6068
拜手	-10.6076
見而	-10.6084
不厭	-10.6088
無言	-10.6088
無名	-10.6089
於人	-10.6093
犧	-10.6094
知有	-10.6099
李陽冰	-10.61
寥	-10.6101
斫	-10.6102
李嗣真	-10.6102
伍	-10.6103
挍	-10.6105
誚	-10.6105
所著	-10.6105
僚	-10.6107
据	-10.6107
杲	-10.6107
㑹圖	-10.6108
舜舉	-10.6114
羈	-10.6114
李將軍	-10.6116
不惟	-10.6119
之跡	-10.6123
文王	-10.6125
可不	-10.6128
於今	-10.6133
初為	-10.6134
璽一	-10.6135
能事	-10.6135
神龍	-10.6136
自成	-10.6137
文與可	-10.6152
上元	-10.6156
集中	-10.6157
仇英	-10.6157
朱文	-10.6161
宋李公麟	-10.6169
甬	-10.6174
摺	-10.6178
外録	-10.6181
壮	-10.6182
兩右高	-10.6183
挽	-10.6183
訝	-10.6183
悼	-10.6183
黛	-10.6184
王寵	-10.6188
子孫永保	-10.6189
偷	-10.6189
癸未	-10.6191
真君	-10.6192
無恙	-10.6192
吳仲圭	-10.6192
鸂鶒	-10.6195
之暇	-10.6196
王廙	-10.6197
意態	-10.6198
曲折	-10.6203
都尉	-10.6203
十字	-10.6205
十有四	-10.6209
郡人	-10.621
竹林	-10.621
花木	-10.6212
山莊	-10.6222
無名氏	-10.6223
及此	-10.6225
楊氏	-10.6228
四面	-10.6228
有三	-10.6237
示余	-10.624
黄公望	-10.6245
其真	-10.6245
鈕	-10.6251
王著	-10.6256
相去	-10.6258
歎息	-10.6261
貺	-10.6263
第十三幅	-10.6263
蟾	-10.6264
譬	-10.6264
王穉登	-10.6265
恃	-10.6266
暝	-10.6266
魁	-10.6267
漿	-10.6268
巘	-10.6269
外録書畫舫云	-10.6269
牟	-10.627
玉水	-10.6273
豔	-10.6275
說文	-10.6275
貫休	-10.6275
富春	-10.6282
存焉	-10.6286
枝葉	-10.6286
圗一卷	-10.6289
乎此	-10.629
毛詩	-10.6296
浮雲	-10.6301
此語	-10.6301
對曰	-10.6303
有感	-10.6304
之工	-10.6305
不佳	-10.6307
萬歴	-10.6307
右方下有	-10.6309
秋七月	-10.6314
序云	-10.6316
小人	-10.6317
鐸	-10.632
悵	-10.6324
不妄	-10.6325
君子之	-10.6334
尚可	-10.6335
諧	-10.6336
于後	-10.6336
絹上	-10.634
二寸六分	-10.6342
嵗次	-10.6343
傳於代	-10.6343
麄	-10.6344
乙亥	-10.6346
畝	-10.6347
咎	-10.6347
個	-10.635
梁鵠	-10.635
楊凝式	-10.635
而出	-10.6351
五寸七分	-10.6351
場	-10.6353
十有三	-10.6354
諤	-10.6354
三寸六分	-10.6355
長者	-10.6362
何須	-10.6363
張伯雨	-10.6365
八幅	-10.6367
尊師	-10.6367
矣余	-10.6372
為慰	-10.6374
江陵	-10.6374
金粟	-10.6378
獨歩	-10.6383
飲酒	-10.6383
嚴氏	-10.6385
甚有	-10.6386
國家	-10.6388
梁楷	-10.6388
起伏	-10.6392
故以	-10.6395
督	-10.6399
十三行	-10.6403
楓	-10.6403
所作也	-10.6406
一過	-10.6409
芍藥	-10.6414
博雅	-10.6416
松雪翁	-10.6419
小學	-10.642
明人	-10.6423
庾肩吾	-10.6426
一寸八分	-10.6427
南村	-10.6429
多用	-10.6429
毗	-10.643
濮	-10.643
鎭	-10.643
髻	-10.6431
鼎銘	-10.6432
軼	-10.6434
光禄大夫	-10.6434
幢	-10.6435
奄	-10.6435
朱熹	-10.6436
婆	-10.6439
蛟龍	-10.6441
五寸三分	-10.6442
啓南	-10.6445
其為人	-10.6448
而不能	-10.6451
東坡集	-10.6451
仲圭	-10.6452
思訓	-10.6453
不錄	-10.6461
得其妙	-10.6465
題署	-10.647
清逸	-10.6472
聖祖仁皇帝	-10.6473
流俗	-10.6473
暮年	-10.6477
前隔水有	-10.6482
真人像	-10.6483
項子京	-10.6484
庭堅	-10.6487
真本	-10.6491
不可言	-10.6494
跋一	-10.6499
行人	-10.6504
篆文	-10.6504
楞伽	-10.6505
無有	-10.6509
曳	-10.6515
終身	-10.6516
疲	-10.6516
怕	-10.6517
善屬文	-10.6517
淺深	-10.652
培	-10.652
龕	-10.6521
開卷	-10.6526
引首有	-10.6529
萬壑	-10.653
中品	-10.6531
二十一	-10.6533
史官	-10.6535
通判	-10.6538
杜陵	-10.654
素箋	-10.6541
彭年	-10.6541
烟波	-10.6551
輕重	-10.6555
為世	-10.656
八尺	-10.6566
外錄	-10.6567
滄	-10.657
獨步	-10.6571
曹喜	-10.6572
字公	-10.6572
四百	-10.6575
三寸七分	-10.6578
瀑	-10.6579
國史	-10.658
風景	-10.6583
沈荃	-10.6588
游戲	-10.659
馬圗	-10.6592
瘞鶴銘	-10.6594
上古	-10.6594
杪	-10.6595
姊	-10.6595
神道碑	-10.6595
猶可	-10.6596
即日	-10.6597
靑	-10.6597
為佳	-10.6598
之初	-10.6599
躋	-10.66
寕	-10.6601
仞	-10.6601
斬	-10.6602
之遺	-10.6602
悅	-10.6603
湮	-10.6604
窟	-10.6604
蕙	-10.6604
穹	-10.6604
棺	-10.6605
濟南	-10.6605
秋八月	-10.6606
花竹翎毛	-10.6606
大臣	-10.6607
毫髪	-10.6607
文進	-10.6609
急就章	-10.6609
才子	-10.661
歐陽文忠公	-10.6611
題又	-10.6623
當有	-10.6628
東方	-10.663
東都	-10.6633
武功	-10.6635
回首	-10.6636
可勝	-10.6641
貞居	-10.6644
不肖	-10.6657
仲春	-10.6663
乃以	-10.6665
秋九月	-10.6666
七寸四分	-10.667
寶藏	-10.6672
藏鋒	-10.6674
文武	-10.668
畦	-10.668
慿	-10.6682
此豈	-10.6682
凄	-10.6682
恪	-10.6683
爾雅	-10.6683
璋	-10.6684
廣三尺	-10.6685
易元吉	-10.6685
刷	-10.6685
丙戌	-10.6686
枉	-10.6686
剥	-10.6686
濺	-10.6688
花果	-10.6689
紆	-10.6689
丰	-10.6689
平生真賞	-10.6691
黄一	-10.6693
喬木	-10.6699
稽首	-10.6699
筆鋒	-10.6701
禽鳥	-10.6702
乃其	-10.6705
一寸六分	-10.6719
同知	-10.6721
畫中	-10.6721
三寸三分	-10.6723
天成	-10.6724
先世	-10.6728
矣此	-10.673
未幾	-10.6731
髙人	-10.6735
古詩	-10.6738
丈夫	-10.6738
余見	-10.6738
真卿	-10.674
我欲	-10.6741
屋木	-10.6742
蜀郡	-10.6744
可辨	-10.6746
俗氣	-10.6748
柘	-10.6751
善寫	-10.6753
于時	-10.6753
十八年	-10.6755
寫此	-10.6755
豈有	-10.6759
正如	-10.6764
墨色	-10.6764
勝伯	-10.6765
何為	-10.6765
膺	-10.6766
五卷	-10.6766
内有	-10.6767
詩一卷	-10.6767
彚	-10.6768
第十四幅	-10.6769
加以	-10.6769
刃	-10.677
釐	-10.6771
憤	-10.6771
乂	-10.6772
蠟	-10.6773
馴	-10.6774
梁詩正	-10.6774
人意	-10.6776
形制	-10.6777
狎	-10.6778
癸酉	-10.6778
不稱	-10.6786
復古	-10.6787
者歟	-10.6792
較之	-10.6797
田家	-10.6797
道也	-10.6801
三千	-10.6805
之状	-10.6809
功名	-10.6812
縣人	-10.6815
不能盡	-10.6816
固有	-10.6818
題句	-10.682
可惜	-10.6822
江南人	-10.6823
皆是	-10.6829
數本	-10.6833
陜	-10.684
者豈	-10.6845
如生	-10.6846
月十八日	-10.6847
字字	-10.6849
治平	-10.6851
茫茫	-10.6854
豎	-10.6856
緝	-10.6856
燕文貴	-10.6858
犢	-10.6859
二十七	-10.6859
璚	-10.686
靈帝	-10.6861
瀟洒	-10.6861
入神品	-10.6862
咒	-10.6863
餐	-10.6864
慶厯	-10.6865
休承	-10.6866
有古	-10.6867
有力	-10.6867
豈能	-10.6867
寰	-10.6868
楊少師	-10.6868
大士像	-10.6868
世事	-10.6877
鍾鼎	-10.688
而作	-10.688
誠懸	-10.688
原蹟	-10.6886
舊本	-10.6889
澤民	-10.689
海嶽	-10.6894
羲之報	-10.6902
八寸四分	-10.6905
昨日	-10.6907
西方	-10.691
文皇	-10.6911
舫	-10.6911
其身	-10.6913
髙三尺	-10.6915
山東	-10.6921
何事	-10.6921
枝山	-10.6923
能為	-10.6924
四寸六分	-10.6926
標題	-10.6927
要之	-10.6928
齋中	-10.6929
釋文	-10.6936
所至	-10.6937
三體	-10.6939
隨意	-10.6941
宗廟	-10.6942
譌	-10.6947
沼	-10.6947
磊落	-10.6947
翩	-10.6947
蠻	-10.6948
北山	-10.695
覿	-10.6951
刼	-10.6951
翛然	-10.6956
王仲	-10.6956
硬黄	-10.6957
胡瓌	-10.6957
妨	-10.6958
也吾	-10.6961
希哲	-10.6961
上林	-10.6963
畫水	-10.6963
秋聲	-10.6963
凌波	-10.6965
水村	-10.6969
其勢	-10.6975
布衣	-10.6975
重陽	-10.6978
神宗	-10.6978
小米	-10.6983
大業	-10.6985
閒居	-10.6986
西京	-10.6987
冬十月	-10.6989
六日	-10.699
以来	-10.6992
贋	-10.7002
五寸八分	-10.701
複	-10.7018
者盖	-10.7022
霖	-10.703
碁	-10.7032
清臣	-10.7033
後先	-10.7033
穩	-10.7034
穢	-10.7034
萍	-10.7034
雌	-10.7036
懸針	-10.7037
霏	-10.7038
蓑	-10.7038
庚戌	-10.7038
飛泉	-10.7041
同一	-10.7042
鴛鴦	-10.7043
南史	-10.7043
又謂	-10.7048
之地	-10.7049
堂帖	-10.7049
自唐	-10.705
至治	-10.705
寓意	-10.7052
能知	-10.7053
卷舒	-10.7053
師道	-10.7054
漢書	-10.7054
僕射	-10.7055
項墨林父秘笈之印	-10.7057
長春	-10.7061
若有	-10.7062
殊不	-10.7063
張翼	-10.7064
絳州	-10.7064
乾道	-10.7069
七寸二分	-10.7069
越州	-10.7071
益州	-10.7079
四皓	-10.7081
自識云	-10.7086
宫中	-10.7089
十二字	-10.7094
又得	-10.71
刻於	-10.7102
碑刻	-10.7103
不特	-10.7104
姓氏	-10.7104
少陵	-10.7104
下品	-10.7105
妙於	-10.7106
貴人	-10.7109
其字	-10.7111
想像	-10.7112
張彦逺	-10.7116
縦	-10.712
耕漁	-10.7121
笈	-10.7122
第十五幅	-10.7122
梯	-10.7123
猶在	-10.7124
埽	-10.7124
榦	-10.7125
禱	-10.7125
拒	-10.7125
洵	-10.7126
汚	-10.7127
紈	-10.7128
苗	-10.7128
泳	-10.7129
樂毅	-10.7131
分口縱	-10.7133
成都人	-10.7134
所自	-10.7134
者蓋	-10.7136
挂幅	-10.7136
瀑布	-10.7137
劉涇	-10.7137
繩墨	-10.7139
目録	-10.7149
賦此	-10.715
為詩	-10.7151
劄子	-10.7152
過人	-10.7152
韓愈	-10.7152
四曰	-10.7153
徳常	-10.7157
恨不	-10.716
議者	-10.716
不可得而	-10.7166
何當	-10.7168
清溪	-10.7172
唐李	-10.7173
自在	-10.7175
時稱	-10.7175
一曲	-10.7185
望之	-10.7186
江水	-10.7188
一寸七分	-10.7189
方壺	-10.719
及之	-10.7191
丑	-10.7192
之詩	-10.7196
通志	-10.7198
浣	-10.7201
鮮于樞	-10.7202
亦工	-10.7206
四寸一分	-10.7207
渥	-10.7208
高士	-10.7208
椿	-10.7209
弦	-10.7213
珮	-10.7214
飛白書	-10.7215
棗	-10.7217
海鹽	-10.7217
縛	-10.7218
不動	-10.7218
鄭䖍	-10.7218
子孫世昌	-10.7219
踵	-10.7219
梅花道人	-10.7219
戊戌	-10.722
者是	-10.722
鯨	-10.7221
頗多	-10.7221
司冦	-10.7222
靖康	-10.7223
趙承㫖	-10.7225
字有	-10.7225
二寸四分	-10.7225
宇宙	-10.7226
皆為	-10.7227
烘	-10.7229
戊子	-10.723
書心經	-10.7235
恍然	-10.7235
名公	-10.7241
顔栁	-10.7241
其迹	-10.7241
雨後	-10.725
知此	-10.725
詹事	-10.7253
相望	-10.7254
名氏	-10.7265
此又	-10.7272
而未	-10.7279
欵識	-10.7281
酷	-10.7284
西園	-10.7285
筆跡	-10.7291
者此	-10.7293
何異	-10.7294
𣺌	-10.7297
黄鶴山樵	-10.7304
蠧	-10.7305
衲	-10.7306
顚	-10.7306
漲	-10.7306
始得	-10.7307
屯	-10.7308
郢	-10.7308
謝赫	-10.7308
門人	-10.7309
鐵網珊瑚	-10.731
卷軸	-10.7313
古畫	-10.7313
建炎	-10.7313
范陽	-10.7316
姿態	-10.7318
呉寛	-10.7327
父母	-10.7327
一時之	-10.7328
必先	-10.7329
又為	-10.7332
髙麗	-10.7337
趙雍	-10.7338
完好	-10.734
購得	-10.7344
娛	-10.7344
墨花	-10.7345
扶風	-10.7348
尤長於	-10.7352
之子也	-10.7354
胷中	-10.7355
廣平	-10.7364
筆硯	-10.7367
六尺	-10.7367
皆能	-10.7368
長三尺	-10.7371
郡王	-10.7372
著作	-10.7373
乎曰	-10.7374
稷子	-10.7375
鍊	-10.7385
王翬	-10.7387
五言律詩	-10.7387
女子	-10.7389
公家	-10.7389
工畫人物	-10.7391
亦嘗	-10.7393
睹	-10.7393
籜	-10.7394
五寸六分	-10.7394
曺	-10.7395
禇遂良	-10.7396
袂	-10.7396
乃為	-10.7396
壞	-10.7397
旱	-10.7398
最多	-10.7398
驕	-10.7398
歿	-10.7399
青雲	-10.7399
俠	-10.74
闇	-10.74
誰知	-10.74
嚮	-10.7401
綏	-10.7401
半印不可識	-10.7402
駝	-10.7403
麈	-10.7404
雲霞	-10.7405
胸次	-10.7406
沈啟南	-10.7407
皇祐	-10.7411
録云	-10.7414
天寶	-10.7418
森森	-10.742
東吳	-10.7422
金剛	-10.7423
般若	-10.7423
王安石	-10.7425
原本	-10.7429
徳宗	-10.743
及見	-10.743
草法	-10.7432
幽居	-10.7434
開成	-10.7436
功臣	-10.7438
無他	-10.7443
公以	-10.7447
㑹昌	-10.7447
文定	-10.7449
心手	-10.7456
年三月	-10.7461
予家	-10.7462
自適	-10.7462
此事	-10.7466
所摹	-10.7469
購之	-10.7473
不斷	-10.7474
宋史	-10.7481
安定	-10.7482
覽之	-10.7482
輯	-10.7485
江海	-10.7486
之門	-10.7487
寐	-10.7488
奠	-10.7488
白居易	-10.749
魄	-10.7491
覧	-10.7491
癸卯	-10.7492
訂	-10.7492
航	-10.7493
嵇康	-10.7493
梁武	-10.7494
輅	-10.7495
貲	-10.7495
六寸四分	-10.7495
毘陵	-10.7496
者葢	-10.7496
曲江	-10.7497
其本	-10.7497
蘇子瞻	-10.7498
蒂	-10.7498
書記	-10.7499
長洲人	-10.7499
徽廟	-10.75
草隸	-10.75
永和	-10.7503
張萱	-10.7506
與前	-10.7511
宋蘇軾書	-10.7512
月下	-10.7513
不就	-10.7514
為多	-10.7514
胷	-10.7522
公為	-10.7527
此器	-10.7527
釋迦	-10.7528
無論	-10.7532
因題	-10.7534
何其	-10.7536
亦復	-10.7536
之寶	-10.7539
天趣	-10.7539
百里	-10.754
望日	-10.7547
沈氏	-10.7548
城中	-10.7552
信乎	-10.7554
此紙	-10.7555
墨林子	-10.7556
丙	-10.756
煙雲	-10.7562
六寸七分	-10.7563
書七言律詩	-10.7565
雪山	-10.7566
道復	-10.7567
其神	-10.7573
風氣	-10.7573
字勢	-10.7576
奩	-10.7577
逸品	-10.7578
陷	-10.7579
真蹟一卷	-10.7579
邃	-10.758
抹	-10.758
江都	-10.7581
胎	-10.7582
簮	-10.7583
嶂	-10.7584
珣	-10.7587
欒	-10.7587
華亭人	-10.7588
寥寥	-10.7588
釵	-10.7589
六經	-10.7591
容臺集	-10.7592
於斯	-10.7596
桓𤣥	-10.7598
而自	-10.7602
可知矣	-10.7613
道釋人物	-10.7614
人少	-10.7621
秘書	-10.7622
籀文	-10.7623
又如	-10.7624
七十二	-10.7627
耳然	-10.7628
祕書	-10.763
一寸九分	-10.7631
結法	-10.7631
青天	-10.7632
之寳	-10.7634
三公	-10.7635
八行	-10.7638
當其	-10.7643
折枝花	-10.7645
雜畫	-10.7653
使其	-10.7656
鷹圖	-10.7658
錢唐人	-10.7661
日暮	-10.7663
夏五	-10.7664
製作	-10.7668
晞	-10.7674
簽	-10.7675
之室	-10.7676
王謝	-10.7678
侔	-10.7678
寂寥	-10.7678
辛巳	-10.7678
扣	-10.7678
閬	-10.7678
聘	-10.7679
䑕	-10.7679
卻	-10.7679
渝	-10.7679
蹔	-10.768
何可	-10.7681
項叔子	-10.7681
清河書畫舫	-10.7681
噐	-10.7682
逃禪	-10.7682
髩	-10.7684
呵	-10.7684
天資	-10.7685
道中	-10.7686
法書名畫	-10.7688
本也	-10.7688
月十九日	-10.7688
零落	-10.7689
指揮	-10.7689
閉門	-10.7691
深一尺	-10.7692
長歌	-10.7696
松雪齋	-10.7696
生於	-10.7696
與王	-10.7698
五尺	-10.77
不解	-10.7701
述書賦	-10.7701
野人	-10.7712
子華	-10.7713
墨跡	-10.7713
大有	-10.7719
杜度	-10.772
舊唐書	-10.7721
是故	-10.7721
精舍	-10.7723
十九年	-10.7724
神情	-10.7725
宇一	-10.7726
雖未	-10.7726
等帖	-10.7726
繭	-10.7733
𤣥度	-10.7737
廵	-10.7738
迪	-10.7738
世有	-10.7739
詩句	-10.7741
梨	-10.7741
藏真	-10.7741
重之	-10.7746
圗四	-10.7747
書院	-10.776
不止	-10.776
邯鄲淳	-10.7763
百餘年	-10.7765
臘	-10.7768
性情	-10.777
賀知章	-10.777
永禪師	-10.7771
膽	-10.7771
十有五	-10.7771
緇	-10.7772
即此	-10.7773
薪	-10.7773
外録珊瑚網云	-10.7774
榭	-10.7774
踞	-10.7774
竄	-10.7774
監察御史	-10.7775
夭	-10.7776
覲	-10.7778
公孫	-10.7781
褐	-10.7783
酒酣	-10.7784
蟄	-10.7785
趙大年	-10.7785
於畫	-10.7788
圖元	-10.7793
精緻	-10.7795
年月	-10.7797
文房	-10.7798
安石	-10.7802
湖石	-10.7802
搶	-10.7802
所及	-10.7803
辨才	-10.7811
不可識	-10.7812
好事家	-10.7812
故不	-10.7812
萬事	-10.7812
精微	-10.7814
代宗	-10.7815
為主	-10.7815
詩書	-10.7817
為我	-10.7817
老夫	-10.7818
復以	-10.7822
天縱	-10.7823
作書	-10.7827
廣川	-10.7828
天性	-10.7828
文詞	-10.7831
足為	-10.7833
牧牛圖	-10.7837
四十年	-10.7839
别本	-10.7839
濠	-10.7842
善丹青	-10.7843
□□	-10.7845
大畧	-10.7847
五寸九分	-10.785
董巨	-10.7852
其制	-10.7854
小大	-10.7855
二寸三分	-10.786
黄山谷	-10.7862
壁間	-10.7862
廟記	-10.7865
沮	-10.7865
己丑	-10.7865
題於	-10.7866
魔	-10.7867
磯	-10.7867
自此	-10.7868
素牋本墨畫	-10.7869
瀉	-10.787
杞	-10.787
鯉	-10.7872
惇	-10.7875
璘	-10.7875
者雖	-10.7876
之情	-10.7877
杭人	-10.7881
凡四	-10.7881
歌詩	-10.7882
花落	-10.7885
之說	-10.7885
彌勒	-10.7886
二家	-10.7889
亭亭	-10.7891
五經	-10.7891
翰林院	-10.7891
夏五月	-10.7893
李東陽	-10.7894
李煜	-10.7896
太息	-10.7897
佳處	-10.79
神駿	-10.7901
論者	-10.7903
不工	-10.7907
粉本	-10.7908
深二寸	-10.791
宗伯	-10.7911
宜興	-10.7917
堂集	-10.792
者多矣	-10.7921
人名	-10.7925
惜乎	-10.7929
進士第	-10.7929
虎頭	-10.793
北方	-10.793
葵花	-10.7931
不可復	-10.7931
臨寫	-10.7934
後又	-10.7934
十幅	-10.7935
周官	-10.7936
無遺	-10.7941
六寸二分	-10.7942
子京所藏	-10.7946
相思	-10.7946
之能	-10.7951
諸書	-10.7957
萬象	-10.7959
筒	-10.7961
此名	-10.7962
文忠	-10.7962
巫	-10.7964
曼	-10.7964
忱	-10.7965
如玉	-10.7966
乃能	-10.7966
沃	-10.7967
㤗	-10.7967
南昌	-10.7967
撇	-10.797
湘江	-10.797
久而	-10.797
溜	-10.7971
勛	-10.7972
盗	-10.7972
黄長睿	-10.7972
燕山	-10.7973
祭酒	-10.7979
千餘	-10.7981
蕭條	-10.7983
六合	-10.7985
兵火	-10.7987
㑹稽人	-10.7989
今復	-10.7989
錫山	-10.7989
重九	-10.7989
仲穆	-10.7992
動人	-10.7994
吾師	-10.7994
藏經	-10.7997
矣故	-10.8001
宫殿	-10.8004
不分	-10.8004
清和	-10.8005
世昌	-10.8005
云爾	-10.8005
武王	-10.801
相國寺	-10.801
已有	-10.8011
本傳	-10.8014
一斤	-10.8014
工畫山水	-10.8015
二紙	-10.8015
碑文	-10.8017
冠絶	-10.8023
年年	-10.8026
所題	-10.8029
煜	-10.8031
萬卷	-10.8033
知為	-10.8034
或者	-10.8034
横披	-10.8042
書屋	-10.8042
月五日	-10.8044
太古	-10.8045
當與	-10.8046
字世	-10.8054
其母	-10.8055
公權	-10.8056
涕	-10.8058
内翰	-10.8059
茹	-10.8059
敬美	-10.8059
李昇	-10.806
逋	-10.806
五寸四分	-10.806
王道	-10.8061
漬	-10.8063
仝	-10.8064
妓	-10.8064
軀	-10.8065
騐	-10.8065
擾	-10.8065
周天球	-10.8066
覓	-10.8066
淫	-10.8067
摶	-10.8068
嵇	-10.8068
言也	-10.8068
浚	-10.8068
尸	-10.807
盉	-10.8071
惋	-10.8072
風雅	-10.8077
又嘗	-10.808
亦多	-10.8082
開封人	-10.8085
極精	-10.8085
宛轉	-10.8086
必以	-10.8086
精舎	-10.8087
天涯	-10.8087
仕女	-10.8089
縉紳	-10.809
之興	-10.8092
又作	-10.8095
王元	-10.8096
躑躅	-10.8099
宗元	-10.8099
一變	-10.81
徴仲	-10.81
輞川圖	-10.8105
季子	-10.8107
嘗於	-10.8107
家物	-10.8113
書雖	-10.8114
山頭	-10.8114
不負	-10.8117
至唐	-10.8118
宣城	-10.812
記語	-10.8128
吳越	-10.8128
儼然	-10.8132
以賜	-10.8142
可知也	-10.8143
周禮	-10.8149
四卷	-10.8152
觶	-10.8156
尚方	-10.8156
西臺	-10.8157
惜其	-10.8157
灼	-10.8159
面目	-10.816
㤀	-10.8161
榆	-10.8162
鷂	-10.8162
凡六	-10.8162
屐	-10.8163
意趣	-10.8163
潄	-10.8163
韓擇木	-10.8163
滎陽	-10.8165
鼇	-10.8165
茲	-10.8166
祝京兆	-10.8166
替	-10.8166
譙	-10.8166
囂	-10.8168
不可辨	-10.8169
無足	-10.8169
謝靈運	-10.8169
軍節度使	-10.8171
恭畫	-10.8171
裱	-10.8171
苕溪	-10.8172
揮灑	-10.8172
樹木	-10.8173
出新意	-10.818
有五	-10.8182
山水師	-10.8185
漁舟	-10.8188
文徴仲	-10.8188
羣臣	-10.8197
於書	-10.8198
山寺	-10.8201
二十六	-10.8203
月十三日	-10.8204
詩一首	-10.8207
豈知	-10.8209
萬頃	-10.821
宇文	-10.8214
先子	-10.8218
馬麟	-10.8218
對題	-10.8218
庶子	-10.8221
制度	-10.8223
長慶	-10.8228
布景	-10.8228
茫	-10.8229
六寸三分	-10.8229
行於世	-10.823
曲盡	-10.823
之難	-10.8231
小像	-10.8233
亦如	-10.8236
七兩	-10.8242
意氣	-10.8242
而知	-10.8243
玉女	-10.8244
失於	-10.8247
六藝	-10.825
京師人	-10.8252
斯言	-10.8253
仙去	-10.8253
苕	-10.8258
譯	-10.8258
饗	-10.8259
䟽	-10.8259
貞觀中	-10.826
颺	-10.8262
巔	-10.8262
飢	-10.8263
浩蕩	-10.8263
後隔水有	-10.8263
苖	-10.8264
瀟	-10.8264
匆匆	-10.8265
父癸	-10.8265
吸	-10.8266
張懷瓘	-10.8267
藂	-10.8268
翎	-10.8268
第十六幅	-10.8268
圖右	-10.8269
萬一	-10.8271
豈其	-10.8274
暮春	-10.8274
牋本	-10.8275
四寸四分	-10.8277
唐世	-10.8277
欵題云	-10.8277
歸去來	-10.8278
家學	-10.8278
蘇文忠公	-10.8284
道者	-10.8289
亭記	-10.8292
宙一	-10.8295
停雲	-10.8297
即是	-10.8297
文同	-10.8299
太公	-10.8303
之世	-10.8305
安能	-10.8306
荆溪	-10.831
稾	-10.8312
風月	-10.8314
定武本	-10.8315
大節	-10.8315
其筆法	-10.8317
故家	-10.8322
橫	-10.8329
更無	-10.8343
僧䖍	-10.8345
大士	-10.8352
天女	-10.8357
潑	-10.8358
之號	-10.8358
怠	-10.8358
體勢	-10.836
載酒	-10.836
孫子	-10.8361
正字	-10.8362
娘	-10.8363
驄	-10.8364
漾	-10.8364
嬾	-10.8365
篷	-10.8365
償	-10.8365
外録書畵舫云	-10.8365
虢	-10.8365
轡	-10.8366
溟	-10.8366
法書要録	-10.8366
樣	-10.8366
躭	-10.8367
渙	-10.8367
七寸三分	-10.8368
僮	-10.8369
頸	-10.837
張從申	-10.837
挈	-10.837
遒媚	-10.8371
張璪	-10.8372
書千文	-10.8374
字士	-10.8377
角上	-10.8377
效之	-10.838
思致	-10.8381
歴歴	-10.8382
相從	-10.8384
張昶	-10.8385
蕉林	-10.8386
許慎	-10.8386
蜂蝶	-10.8387
皆可	-10.8388
文忠公	-10.839
李營丘	-10.8391
師古	-10.8392
復何	-10.8394
畫山水人物	-10.8395
張伯英	-10.84
二十三	-10.8406
夏四月	-10.8407
書帖	-10.8411
尤妙	-10.8412
精熟	-10.8422
國人	-10.8429
常侍	-10.8433
于今	-10.8433
政事	-10.8434
茂林	-10.8442
乃得	-10.8443
既而	-10.8444
門前	-10.8446
七寸八分	-10.8449
未敢	-10.845
筆底	-10.8454
或問	-10.8454
漢人	-10.8454
肅宗	-10.8457
此皆	-10.8457
日日	-10.8459
倡	-10.8459
縉	-10.8459
録之	-10.8459
三璽	-10.846
狄	-10.8462
佞	-10.8463
斌	-10.8464
蚊	-10.8464
顆	-10.8464
裙	-10.8465
姻	-10.8466
樞密	-10.8466
玲瓏	-10.8467
廹	-10.8467
套	-10.8468
八百	-10.8469
頒	-10.8471
腐	-10.8471
御定佩文齋書畫譜卷	-10.8471
一絶	-10.8471
陶隠居	-10.8471
句曲外史	-10.8472
諸跋	-10.8473
間出	-10.8476
一洗	-10.848
太倉	-10.8481
絹畫	-10.8482
不拘	-10.8482
寒暑	-10.8484
也且	-10.8486
徐熈	-10.8488
便是	-10.8498
可寳也	-10.8499
夜雨	-10.8502
蘇氏	-10.8503
他書	-10.8504
氏家藏	-10.8506
過此	-10.8511
侍書	-10.8512
有大	-10.8515
在焉	-10.8519
竒偉	-10.8522
八寸八分	-10.8525
一巻	-10.8527
雲雷	-10.8532
余因	-10.8533
良工	-10.8535
知言	-10.8536
三百年	-10.855
必能	-10.855
不備	-10.8552
九寸二分	-10.8553
書契	-10.8555
購得之	-10.8558
凡五	-10.8558
何哉	-10.856
不妨	-10.8561
舊物	-10.8561
薇	-10.8562
不獲	-10.8564
朂	-10.8565
弇州續藁	-10.8567
八寸一分	-10.8567
孔琳之	-10.8568
絮	-10.8569
睦	-10.857
圈	-10.857
隔水	-10.857
漂	-10.8572
者故	-10.8572
衫	-10.8572
裡	-10.8574
知制誥	-10.8575
趙伯駒	-10.8575
凜	-10.8575
山水圖	-10.8576
欽定四庫全書御定佩文齋書畫譜卷	-10.8576
徳政碑	-10.8577
聮	-10.8577
眉公	-10.8582
而歸	-10.8584
登臨	-10.8585
范氏	-10.8586
遂成	-10.8589
一云	-10.8593
過眼	-10.8594
趙子昂	-10.8595
五曰	-10.8595
始於	-10.8596
長睿	-10.8599
兩無銘	-10.8602
亦曰	-10.8603
林石	-10.8605
摹搨	-10.8611
因得	-10.8615
有司	-10.8616
城人	-10.8616
金陵人	-10.8617
之冠	-10.8619
觀碑	-10.862
三世	-10.8623
傳授	-10.8623
柬	-10.8625
武徳	-10.8628
染翰	-10.863
長安人	-10.8633
小山	-10.8633
二印前有	-10.8633
太湖	-10.8637
皇上	-10.864
此日	-10.8643
出沒	-10.8647
朱氏	-10.865
著名	-10.8658
為勝	-10.8662
自非	-10.8665
薛道祖	-10.8668
蕭思話	-10.8669
薄紹之	-10.8671
擔	-10.8671
駙馬都尉	-10.8671
出此	-10.8671
星像	-10.8673
珊	-10.8674
此為	-10.8675
庾亮	-10.8676
琢	-10.8676
彩鸞	-10.8677
不絶	-10.8677
竹圖二	-10.8677
另	-10.8678
羮	-10.8679
御史中丞	-10.8679
蓼	-10.868
衣裳	-10.8681
顔平原	-10.8683
春水	-10.8687
入蜀	-10.8691
元氣	-10.8691
落照	-10.8693
碧山	-10.8694
翰林待詔	-10.8695
仙圖	-10.87
諸王	-10.8701
六寸一分	-10.8703
宣宗	-10.8707
相公	-10.8707
編修	-10.8709
然有	-10.8714
九寸五分	-10.8719
蘇公	-10.8721
石門	-10.8722
二十日	-10.8723
孤山	-10.8723
不羣	-10.8723
畫壁	-10.8726
亦當	-10.8727
城東	-10.8729
木葉	-10.8733
余嘗見	-10.8735
兩行	-10.8743
老僧	-10.8746
字敬	-10.8748
夏侯	-10.8749
事也	-10.8755
穆王	-10.8759
月十二日	-10.8762
烟樹	-10.8762
鷗波	-10.8765
畫冊	-10.8768
老筆	-10.8772
仕至	-10.8773
伯夷頌	-10.8774
撲	-10.8774
頰	-10.8774
玅	-10.8775
郗愔	-10.8776
潞	-10.8777
攢	-10.8778
久不	-10.8778
其理	-10.8778
聶	-10.8778
釀	-10.8778
復見	-10.8779
烹	-10.8779
吏部侍郎	-10.8779
鏁	-10.8779
砌	-10.878
衛瓘	-10.8781
抛	-10.8781
股	-10.8781
廿五日	-10.8781
糢糊	-10.8782
余謂	-10.8783
定其	-10.8783
黜	-10.8783
惲	-10.8784
氊	-10.8785
當自	-10.8788
餅	-10.8789
子厚	-10.8789
紹興間	-10.879
署名	-10.879
明經	-10.8793
竒怪	-10.8802
辨之	-10.8805
世無	-10.8807
虞山	-10.8809
片紙	-10.8809
王子敬	-10.8812
珍賞	-10.8812
師子	-10.8814
從此	-10.8815
簡易	-10.8817
紅塵	-10.8822
我亦	-10.8824
一器	-10.8829
儒學	-10.8835
者當	-10.8836
光和	-10.8838
而藏之	-10.8839
蓋其	-10.8841
能書者	-10.8843
乗興	-10.8845
大將軍	-10.8849
中立	-10.885
獨有	-10.8852
相如	-10.8853
燦	-10.8853
至若	-10.8854
汾	-10.8854
心目	-10.8856
年八十	-10.8856
少保	-10.8856
相連	-10.8857
此亦	-10.8861
特進	-10.8862
雖無	-10.8865
遣使	-10.8867
無愧	-10.8868
平江	-10.8872
在目	-10.8872
窠	-10.8872
紙筆	-10.8872
何由	-10.8877
惱	-10.8879
青青	-10.888
八寸六分	-10.8881
兩耳連環	-10.8882
不離	-10.8882
球	-10.8883
愍	-10.8883
粒	-10.8884
軒轅	-10.8884
冦	-10.8884
玠	-10.8884
茟	-10.8885
三山	-10.8885
擘	-10.8885
鄉人	-10.8885
鑾	-10.8885
穉	-10.8886
麒麟	-10.8886
臭	-10.8887
厄	-10.8887
芸	-10.8887
八寸二分	-10.8887
蘂	-10.8888
憾	-10.8888
荇	-10.889
諮	-10.889
肝	-10.8891
工書畫	-10.8891
固知	-10.8892
米襄陽	-10.8892
湜	-10.8893
隴西	-10.8894
礬	-10.8896
者若	-10.8899
在天	-10.89
嘗觀	-10.89
為誰	-10.8902
或如	-10.8907
老成	-10.8913
吳興趙孟頫	-10.8917
皴法	-10.892
非其	-10.8921
困學	-10.8926
堂印	-10.8927
著書	-10.8927
貞白	-10.893
兩兩耳有珥	-10.8932
珍秘	-10.8932
萱	-10.8932
中和	-10.8938
前隔水	-10.894
寫貌	-10.8942
祖述	-10.8943
江夏	-10.8944
張仲	-10.8946
之前	-10.8948
七寸六分	-10.8948
署書	-10.8952
天地間	-10.8953
者是也	-10.8955
王導	-10.8955
雨露	-10.8955
字孟	-10.8965
若水	-10.8965
天際	-10.8966
立本	-10.8968
死生	-10.8969
千字	-10.8978
天水	-10.8981
一寸四分	-10.8982
臨風	-10.8982
之始	-10.8983
由此	-10.8984
已久	-10.8985
善書畫	-10.8985
赫	-10.8987
呌	-10.8989
憩	-10.8989
池上	-10.899
漕	-10.899
而卒	-10.899
劉氏	-10.899
拭	-10.8992
蒨	-10.8992
遑	-10.8994
載之	-10.8994
崛	-10.8995
僉	-10.8995
薨	-10.8996
國子監	-10.8996
甄	-10.8998
廿三日	-10.8999
宗皇帝	-10.8999
震澤	-10.9
秀色	-10.9005
晉書本傳	-10.9006
菊花	-10.9007
應之	-10.9013
鴿	-10.9013
以獻	-10.9016
少有	-10.9023
空中	-10.9024
字徳	-10.9025
三幅	-10.9027
髙陽	-10.9027
詩序	-10.9028
之思	-10.9028
之病	-10.9028
趙吳興	-10.9028
十載	-10.9034
者固	-10.9035
天地之	-10.9037
其大	-10.9037
得所	-10.9042
相承	-10.9043
忽見	-10.9043
年五月	-10.9045
河陽	-10.9047
嘗畫	-10.9047
為上	-10.9052
者曰	-10.9054
絶塵	-10.9055
潤州	-10.9058
為君	-10.9061
重題	-10.9062
大同	-10.9064
盛時	-10.907
知其為	-10.907
荆公	-10.9073
雲西	-10.9078
神像	-10.9079
不虚	-10.9084
延之	-10.9087
藏於	-10.9089
盂	-10.909
子畏	-10.9095
洪武中	-10.9097
凢	-10.9098
履吉	-10.9098
世宗憲皇帝	-10.9098
笋	-10.9098
匿	-10.91
馥	-10.91
彪	-10.9101
逈	-10.9101
菱	-10.9102
濬	-10.9102
漠	-10.9103
蕊	-10.9103
冠冕	-10.9104
譔	-10.9104
明人書	-10.9104
唐摹	-10.9106
扈	-10.9106
廡	-10.9106
裝潢	-10.9106
字大	-10.9107
盤礴	-10.9108
銀鈎	-10.9108
煉	-10.9108
小印	-10.9109
乃有	-10.9109
窈窕	-10.9109
什襲	-10.9111
家蔵	-10.9112
戾	-10.9114
已而	-10.9115
松江志	-10.9116
武夷	-10.9118
受禪	-10.9118
盧鴻	-10.9119
仲尼	-10.912
南海	-10.9121
道徳	-10.9123
歸於	-10.9123
正是	-10.9123
有才	-10.9125
其狀	-10.9126
知音	-10.9126
押字	-10.9127
論語	-10.9128
士女圖	-10.913
有六	-10.9135
莫知	-10.9137
亦足	-10.9138
先王	-10.9139
秋塘	-10.914
六人	-10.9141
雲霧	-10.9144
無一筆	-10.9148
此心	-10.9149
道家	-10.915
遺恨	-10.9152
後生	-10.9158
終始	-10.9158
出水	-10.9159
賢者	-10.9164
異也	-10.9167
原博	-10.9171
張子	-10.9171
無可	-10.9174
爛然	-10.9174
飄然	-10.918
范公	-10.9183
文璧	-10.9187
處見	-10.9187
月十一日	-10.919
題畫	-10.9196
之景	-10.9197
佳者	-10.9198
欲雨	-10.9199
而獨	-10.9199
書體	-10.9203
頡	-10.9203
右方上	-10.9204
筆陣圖	-10.9205
之志	-10.9207
墓誌銘	-10.9208
庻	-10.9209
茸	-10.9209
窘	-10.921
倐	-10.921
塑	-10.9211
崑崙	-10.9211
恰	-10.9212
緬	-10.9213
琛	-10.9213
貳	-10.9213
無款	-10.9213
麥	-10.9214
臼	-10.9214
泐	-10.9214
糧	-10.9214
淳熈	-10.9214
兕	-10.9215
非常	-10.9216
水邊	-10.9216
永年	-10.9216
冊計	-10.9216
禮部侍郎	-10.9216
戍	-10.9216
陞	-10.9218
羌	-10.9219
䑓	-10.922
宕	-10.9221
傳於	-10.9221
伯虎	-10.9228
以寄	-10.9229
在此	-10.9233
優游	-10.9235
二行	-10.9242
援筆	-10.9244
二印後有	-10.9246
左方下有	-10.9246
日夕	-10.9247
欲以	-10.9247
帖云	-10.9248
工詩	-10.9249
兼工	-10.9251
鈐	-10.9252
漢武	-10.9254
九行	-10.9264
書畫史	-10.9266
萬福	-10.9266
百代	-10.9273
至寳	-10.9275
無間	-10.9275
六寸六分	-10.928
使者	-10.9282
舊有	-10.9283
無聞	-10.9284
親書	-10.9287
頗得	-10.9289
耳若	-10.9291
又何	-10.9291
二器	-10.9298
節義	-10.9299
於上	-10.9299
柘竹	-10.9299
諸孫	-10.93
蔣廷錫	-10.9302
其詞	-10.9303
月六日	-10.9303
山陽	-10.9304
立碑	-10.9305
二寸一分	-10.9305
内侍	-10.9314
十有六	-10.9316
相過	-10.9318
斵	-10.932
萌	-10.932
八寸五分	-10.9322
繕	-10.9322
詮	-10.9322
昱	-10.9323
笠澤	-10.9323
刁	-10.9325
張文	-10.9326
可笑	-10.9326
媒	-10.9326
迦	-10.9327
叶	-10.9328
寓意編	-10.9328
惻	-10.9329
知所	-10.9329
龍眠居士	-10.9332
偏旁	-10.9333
字用	-10.9335
楊補之	-10.9339
映帶	-10.9342
竹圖	-10.9344
浙江	-10.9351
舍利	-10.9353
真宗	-10.9355
彦敬	-10.9356
黄州	-10.9357
王珉	-10.9358
并序	-10.936
傳者	-10.936
此時	-10.9364
師之	-10.9365
之章	-10.9368
藍田	-10.9372
天順	-10.9377
嘗有	-10.938
耐	-10.9385
余言	-10.9388
所重	-10.9388
初名	-10.9388
元王蒙	-10.9394
顔書	-10.9395
於前	-10.9395
禪師碑	-10.9396
取諸	-10.9399
者然	-10.9403
定武蘭亭	-10.9404
莊子	-10.9404
每見	-10.9405
古賢	-10.9408
一尺二寸	-10.941
鞍	-10.9417
王友	-10.9418
字君	-10.9418
仲山	-10.9419
寳玩	-10.9419
在乎	-10.942
過庭	-10.9426
瓜	-10.9427
忠恕	-10.9432
酉	-10.9432
同中書門下平章事	-10.9433
炯	-10.9433
獨坐	-10.9434
槖	-10.9434
滉	-10.9435
捜	-10.9436
畿	-10.9436
作山水	-10.9436
捕	-10.9436
咽	-10.9437
琵琶	-10.9439
翮	-10.944
七寸一分	-10.944
蒼茫	-10.944
裾	-10.9441
與其	-10.9441
㺯	-10.9441
梳	-10.9443
近時	-10.9443
書史會要	-10.9444
隆慶	-10.9446
餘慶	-10.945
一聲	-10.9451
看雲	-10.9459
蒙古字	-10.9459
隋唐	-10.9462
總管	-10.9463
論曰	-10.9464
叢竹	-10.9471
二千	-10.9476
無意	-10.9476
聖祖仁皇帝御書	-10.9476
書曰	-10.9479
傳寫	-10.9479
失去	-10.948
錢氏	-10.9482
寳鑑	-10.9489
陳君	-10.9489
以求	-10.949
白鶴	-10.9494
國子	-10.9495
隷書	-10.9495
入石	-10.9497
所好	-10.95
八寸九分	-10.95
而上	-10.9506
天人	-10.9507
開封	-10.951
中流	-10.9513
不完	-10.9513
目之	-10.9517
世所傳	-10.9523
出塵	-10.9524
刻意	-10.9526
由來	-10.9527
代之	-10.9528
峨	-10.953
尤長	-10.953
聞見	-10.953
董其昌題	-10.9533
笑曰	-10.9537
家世	-10.9538
松年	-10.9538
縱逸	-10.954
畫册	-10.9541
琚	-10.9543
摭	-10.9546
不復見	-10.9546
壘	-10.9546
吝	-10.9547
勘	-10.9547
絶妙	-10.9547
廿四日	-10.9547
徐季海	-10.9547
鬰	-10.9547
澂	-10.9548
撮	-10.9548
東方朔	-10.9548
乙卯	-10.9549
竹西	-10.9549
拖	-10.9549
妬	-10.955
泠泠	-10.955
諌	-10.9551
依稀	-10.9553
暘	-10.9554
三十五	-10.9554
拏	-10.9554
俸	-10.9554
月廿日	-10.9555
雪霽圖	-10.9555
姿媚	-10.9557
棧	-10.9557
唐末	-10.9559
渾厚	-10.956
槀	-10.956
瓿	-10.9566
清逺	-10.9571
俞和	-10.9571
卷前	-10.9574
有奇	-10.9575
圖詩	-10.9575
王元美	-10.9576
盛年	-10.9578
江右	-10.9578
王濛	-10.9578
圖寫	-10.9579
正叔	-10.9579
豈獨	-10.9581
書卷	-10.9586
寶晉	-10.9587
伯玉	-10.9588
其文曰	-10.9591
書金剛經	-10.9592
者自	-10.9593
雜詩	-10.9594
近日	-10.96
宗師	-10.9601
唐朝	-10.9601
勁健	-10.9602
佛寺	-10.9603
夏六月	-10.961
歲月	-10.961
宗道	-10.961
每幅	-10.961
彼此	-10.9615
唐初	-10.9617
蟠䕫	-10.9617
筍竹	-10.9618
太虚	-10.9618
宙	-10.9619
自云	-10.962
别業	-10.9621
年少	-10.9624
畫記	-10.9627
事業	-10.9628
推官	-10.9629
此是	-10.9636
翼之	-10.9638
東漢	-10.9639
幾何	-10.9641
無為	-10.9642
親王	-10.9642
洞天	-10.9645
略無	-10.9647
冬日	-10.9647
岱	-10.9648
明堂	-10.9649
者邪	-10.965
部員外郎	-10.9651
年七十	-10.9652
不能無	-10.9653
幡	-10.9654
不死	-10.9655
籟	-10.9655
釋道	-10.9656
雅好	-10.9656
風生	-10.9658
一寸一分	-10.9659
院體	-10.9659
等印	-10.9659
老樹	-10.9659
汁	-10.966
銖	-10.9661
誡	-10.9661
餉	-10.9661
峴	-10.9661
愿	-10.9662
字廷	-10.9662
釘	-10.9662
煑	-10.9662
又題	-10.9663
箱	-10.9663
諾	-10.9663
牓	-10.9664
梗	-10.9665
滿地	-10.9665
憎	-10.9666
丁卯	-10.9666
遯	-10.9666
非真	-10.9666
愷	-10.9666
浹	-10.9667
狗	-10.9667
檄	-10.9669
許道寧	-10.9669
彚考	-10.9669
而求	-10.967
假借	-10.967
坤	-10.967
五幅	-10.9671
堂上	-10.9673
嵩山	-10.9674
員外	-10.9677
嘗與	-10.9677
其所以	-10.9679
鼓琴	-10.9681
秋光	-10.9682
骨肉	-10.9682
十八學士	-10.9683
䟦尾	-10.9683
一人而已	-10.9686
畫牛	-10.9689
麻紙	-10.9699
清明	-10.9704
仙子	-10.9705
相近	-10.9706
泰定	-10.971
相間	-10.9711
蘆花	-10.9712
法華經	-10.9721
御容	-10.9722
文賦	-10.9723
後魏	-10.9725
粲然	-10.9726
亦為	-10.973
有功	-10.9731
也惟	-10.9731
以文	-10.9732
易得	-10.9733
漁父	-10.9735
尚書令	-10.9735
撰文	-10.9737
忝	-10.9738
撫卷	-10.9738
洛陽人	-10.9739
不學	-10.9739
處處	-10.974
門生	-10.9741
品格	-10.9741
注云	-10.9743
之傳	-10.9746
卓然	-10.975
依然	-10.9755
非所	-10.9755
古來	-10.9757
往還	-10.9757
悠	-10.9758
出自	-10.9759
之謂也	-10.9759
書翰	-10.9765
公麟	-10.9767
家所藏	-10.977
仲子	-10.977
寮	-10.9771
皆用	-10.9772
度人經	-10.9773
錐	-10.9774
店	-10.9775
撿	-10.9775
湫	-10.9776
惆悵	-10.9777
陌	-10.9777
第十八幅	-10.9779
隄	-10.978
禦	-10.978
愼	-10.9781
縝	-10.9782
㟁	-10.9782
永和九年	-10.9782
校官	-10.9784
剔	-10.9784
募	-10.9784
書印	-10.9784
瑗	-10.9784
冨	-10.9785
猴	-10.9785
駢	-10.9786
黄魯直	-10.9787
筆蹟	-10.9787
匡廬	-10.9787
陸氏	-10.9788
鄂	-10.9789
各自	-10.9789
元錢選	-10.979
滄海	-10.979
敖	-10.979
菩提	-10.979
氏所藏	-10.9791
頭陀	-10.9794
既望	-10.9794
承平	-10.9795
故為	-10.9797
槁	-10.9799
天錫	-10.98
臨右軍	-10.9801
聰明	-10.9802
是知	-10.9806
神韻	-10.9807
末有	-10.9809
生死	-10.9811
蘇黄	-10.9816
何年	-10.9816
飛來	-10.982
之甚	-10.982
春雲	-10.982
諸體	-10.9828
有生意	-10.9831
溪橋	-10.9831
未始	-10.9835
六卷	-10.9835
并詩	-10.9836
秋山圖	-10.9836
歳月	-10.9838
餘杭	-10.9838
不誣	-10.9847
畫并題	-10.9847
蕃馬	-10.9848
不知所	-10.9851
以此為	-10.9851
禪院	-10.9852
寫照	-10.9853
塵埃	-10.9853
尚在	-10.9855
十行	-10.9857
自叙	-10.986
者宜	-10.9863
徐氏	-10.9865
葢其	-10.9868
自題云	-10.9874
道元	-10.9874
模寫	-10.9875
又號	-10.9875
所長	-10.9876
亦在	-10.9879
百尺	-10.988
二詩	-10.9882
四尺	-10.9883
又能	-10.9887
浩然	-10.9887
九江	-10.9888
泗	-10.9888
冺	-10.989
借觀	-10.989
九成	-10.9894
昊	-10.9895
吳道𤣥	-10.9896
諫議大夫	-10.9899
蟻	-10.9899
巽	-10.9901
意在	-10.9901
畫佛像	-10.9902
猫	-10.9902
塊	-10.9903
無盡	-10.9905
不變	-10.9905
已矣	-10.9905
樞宻	-10.9905
哥	-10.9906
峯巒	-10.9906
蕋	-10.9906
郭熈	-10.9907
委曲	-10.9908
惟此	-10.9908
移居	-10.9909
萼	-10.9911
最佳	-10.9911
與君	-10.9912
員外郎	-10.9912
嘗聞	-10.9915
瑶池	-10.9921
兼有	-10.9921
白髮	-10.9926
其學	-10.9927
人能	-10.9927
特為	-10.9927
不果	-10.9929
遂良	-10.9931
文定公	-10.9932
大歴	-10.9932
真筆	-10.9933
蒼古	-10.9933
張照	-10.9933
退之	-10.9934
未之見	-10.9935
自當	-10.9938
累官	-10.9941
考古圖	-10.9942
必須	-10.9943
者不能	-10.9943
字亦	-10.9945
花枝	-10.9947
而歸之	-10.9951
不信	-10.9954
數百年	-10.9954
東宫	-10.9955
如今	-10.9958
妙在	-10.9961
諸老	-10.9963
商之	-10.9966
雙幅	-10.9973
廿有	-10.9974
出没	-10.9975
天厯	-10.9976
進士授	-10.9977
不通	-10.9979
仲夏	-10.9984
樂天	-10.9989
知也	-10.9994
千百	-10.9995
善畵	-10.9995
不羈	-10.9995
之異	-10.9996
各以	-10.9998
墓銘	-10.9999
君不見	-10.9999
善畫人物	-11.0003
非有	-11.0004
忠獻	-11.0004
上柱國	-11.0006
金吾	-11.0008
竒字	-11.0011
櫂	-11.0011
老矣	-11.0014
修撰	-11.0014
本色	-11.0014
物外	-11.0015
蝕	-11.0016
辛卯	-11.0016
周旋	-11.0016
傚	-11.0016
廷美	-11.0016
隂符經	-11.0016
璣	-11.0017
娟娟	-11.0017
校書郎	-11.0018
眇	-11.0018
廿六日	-11.0018
攘	-11.0018
瀨	-11.0019
义	-11.0022
垢	-11.0023
芥	-11.0023
㡌	-11.0023
罄	-11.0024
清泉	-11.0025
徐賁	-11.0028
具姓名	-11.0029
至如	-11.003
釋智永	-11.0032
四首	-11.0033
睿宗	-11.0034
蘭竹	-11.0035
厯代	-11.0036
范文正公	-11.0038
文采	-11.0039
真有	-11.0043
羲之白	-11.0045
官奴	-11.0046
臨書	-11.0046
此論	-11.0049
者無	-11.005
士女圖一	-11.0051
清麗	-11.0052
亦何	-11.0053
豈徒	-11.0053
以字行	-11.0053
傳家	-11.0054
義興	-11.0055
初以	-11.0058
大成	-11.0062
想其	-11.0064
上清	-11.0065
息齋	-11.0065
所記	-11.0066
發之	-11.007
左方上有	-11.0073
過也	-11.0074
甚富	-11.0075
凱	-11.0077
帖宋	-11.0078
得于	-11.0079
為難	-11.0081
全法	-11.0084
則失	-11.0089
早年	-11.0089
而不可	-11.0089
當日	-11.0089
數人	-11.009
碑云	-11.0096
以待	-11.0102
精細	-11.0104
戲作	-11.0107
孤雲	-11.0108
以名	-11.0109
新詩	-11.0111
其性	-11.0112
小王	-11.0117
戲墨	-11.0119
冊計十	-11.0121
□(	-11.0124
銘一字	-11.0125
風雪	-11.0128
曄	-11.013
丁夘	-11.0131
都督	-11.0131
王府	-11.0132
参	-11.0133
奸	-11.0134
紐	-11.0134
炊	-11.0135
澣	-11.0135
聊以	-11.0135
全學	-11.0136
子京父印	-11.0137
王齊翰	-11.0137
幣	-11.0137
漫漶不可識	-11.0138
疋	-11.0138
璟	-11.0138
不滿	-11.0138
鍾紹京	-11.0139
闡	-11.014
蹊徑	-11.014
曙	-11.0141
吟咏	-11.0141
組	-11.0141
鬛	-11.0142
登進士第	-11.0142
有四	-11.0143
鞏	-11.0143
楊維楨	-11.0143
所知	-11.0144
廣川畫跋	-11.0144
畫評	-11.0145
義士	-11.0146
唐子畏	-11.0148
普賢	-11.0151
孟端	-11.0151
弱冠	-11.0152
白石翁	-11.0153
不喜	-11.0153
十有七	-11.0153
承旨	-11.0153
也此卷	-11.0153
敬仲	-11.016
之神	-11.016
唐伯虎	-11.0161
摹寫	-11.0161
衆生	-11.0162
明朝	-11.0163
一寸三分	-11.0164
逺岫	-11.0168
虎丘	-11.0169
亦可謂	-11.0174
勒石	-11.0175
依依	-11.0177
知己	-11.0184
年矣	-11.0185
此老	-11.0189
百六十	-11.019
孫氏	-11.0191
余所	-11.0191
或疑	-11.0193
鍾㑹	-11.0193
居然	-11.0194
五星	-11.0205
吳郡人	-11.0206
至是	-11.0208
評曰	-11.0214
於石	-11.0215
五兩	-11.0215
有曰	-11.0223
畫梅	-11.0224
本末	-11.0227
南豐	-11.0228
所造	-11.0229
發於	-11.023
文氏	-11.0232
古篆	-11.0233
江隂	-11.0234
白華	-11.0237
麾	-11.0237
呼為	-11.0241
牛馬	-11.0243
三四	-11.0246
頡頏	-11.0253
不多見	-11.0253
撝	-11.0254
點	-11.0255
黄門侍郎	-11.0255
倅	-11.0255
臻其妙	-11.0256
畫軸	-11.0256
五言古詩	-11.0256
匏	-11.0256
夔	-11.0257
盼	-11.0257
盈尺	-11.0258
盎	-11.0259
錞	-11.0259
擎	-11.0259
昃	-11.0259
掉	-11.0259
竈	-11.026
絢	-11.026
掘	-11.0262
鶚	-11.0262
告誓	-11.0262
綰	-11.0264
瀚	-11.0267
平章事	-11.0268
工緻	-11.0269
周必大	-11.027
妍媚	-11.027
董元	-11.027
桓温	-11.0272
未聞	-11.0273
尤佳	-11.0274
能作	-11.028
周越	-11.0281
離離	-11.0281
所學	-11.0282
噪	-11.0286
荒一	-11.029
嗟乎	-11.0291
大笑	-11.0292
鷂圖	-11.0295
其義	-11.0296
又一	-11.0297
四五	-11.03
賢母	-11.0302
改作	-11.0302
太極	-11.0303
甫里	-11.0307
王伯	-11.0308
北史	-11.0309
大梁	-11.0312
竹木	-11.0313
甚工	-11.0313
下有乾隆宸翰	-11.0313
天寒	-11.0314
見聞	-11.0315
羣峰	-11.0318
欽定四庫全書御定佩文齋書畫譜目録	-11.0322
孫位	-11.0322
其時	-11.0323
文衡山	-11.0325
此公	-11.0326
道路	-11.0327
詩成	-11.033
精彩	-11.0339
子美	-11.0339
書下有	-11.0342
或作	-11.0343
木石	-11.0343
荆州	-11.0344
宋高宗	-11.0345
等書	-11.0346
余得	-11.0347
崑	-11.0347
四帖	-11.035
亦不能	-11.035
可尚	-11.0351
空谷	-11.0352
國之	-11.0354
即其	-11.0357
但見	-11.036
詳其	-11.0364
二十九	-11.0365
樗	-11.0365
開府	-11.0366
腹圍三尺	-11.0366
二十餘	-11.0367
觀察	-11.0369
髙逸	-11.037
誤也	-11.0376
蒹葭	-11.0377
初不	-11.0377
稠	-11.0377
也凡	-11.0377
栁誠懸	-11.0377
先賢	-11.0378
素絹本著色畫款云	-11.0378
颯	-11.038
春二月	-11.0381
剖	-11.0381
潼	-11.0381
乾隆甲子	-11.0382
姥	-11.0382
黄伯思	-11.0383
琪	-11.0384
此經	-11.0384
貓圖	-11.0385
渭川	-11.0385
潺湲	-11.0385
翡翠	-11.0386
丨	-11.0387
鴛	-11.0387
藪	-11.0387
藝苑巵言	-11.0389
文伯仁	-11.0389
衞夫人	-11.0397
府君碑	-11.0398
字道	-11.0399
靈芝	-11.04
英宗	-11.0402
陳道復	-11.0403
灑落	-11.0404
急就	-11.0404
數千	-11.0405
春正月	-11.0405
職貢圖	-11.0405
草𨽻	-11.0406
惜哉	-11.0408
其辭	-11.0408
無力	-11.0412
淵源	-11.0413
一葉	-11.0415
和靖	-11.0416
江浙	-11.0417
畫本	-11.0421
張羽	-11.0422
時年七十	-11.0422
焦墨	-11.0422
所収	-11.0422
絶品	-11.0424
一年	-11.0426
品第	-11.0427
曾見	-11.0428
幅第一幅	-11.0429
所撰	-11.043
樂府	-11.0432
曽孫	-11.0436
鷺鷥圖	-11.0436
是卷	-11.0437
再三	-11.044
之力	-11.0441
而弗	-11.0444
田園	-11.0444
論其	-11.0446
印二	-11.0449
善隸書	-11.045
不全	-11.0451
武昌	-11.0453
蛺蝶	-11.0455
尺餘	-11.0456
九州	-11.0458
老去	-11.0458
蔡京	-11.046
不善	-11.0461
尊者	-11.0462
具存	-11.0465
於朝	-11.0466
不倦	-11.0473
蘭亭序	-11.0475
可比	-11.0476
不可見	-11.0477
寓居	-11.048
臻妙	-11.0481
雙龍	-11.0485
塵土	-11.0487
晉書	-11.0487
古書	-11.0489
言語	-11.0492
得右軍	-11.0495
者即	-11.0495
刻畫	-11.0495
西清古鑑卷	-11.0496
此銘	-11.0497
籕	-11.0497
之蹟	-11.0498
泓	-11.0501
贗	-11.0504
年六十	-11.0504
明人畫	-11.0504
漪	-11.0505
聫	-11.0505
盃	-11.0507
意思	-11.0507
曝	-11.0507
夸	-11.0508
誰與	-11.0508
襪	-11.0509
如龍	-11.0509
掀	-11.0509
舂	-11.051
沈傳師	-11.0511
曹霸	-11.0512
篆字	-11.0512
燧	-11.0512
翦	-11.0512
藜	-11.0512
璠	-11.0513
街	-11.0513
遲遲	-11.0513
乾卦	-11.0514
愴	-11.0515
四大家	-11.0518
今昔	-11.0518
獨以	-11.0519
紛披	-11.052
十數	-11.052
奈何奈何	-11.0521
今藏	-11.0522
祥符	-11.0525
番部	-11.0527
李建中	-11.053
墨竹圖	-11.0531
長公	-11.0533
嘗自	-11.0535
黄大癡	-11.0536
飲食	-11.0537
矣又	-11.0538
十洲	-11.0538
時年	-11.0543
八人	-11.0543
王孟端	-11.0544
可歎	-11.0544
五十五	-11.0545
此中	-11.0546
眞跡	-11.0546
呉人	-11.0547
以紀	-11.0548
超逸	-11.0556
西北	-11.0557
小子	-11.0557
桃竹	-11.0557
月十六日	-11.0561
絳帖	-11.0563
自愛	-11.0565
小詩	-11.0571
有得	-11.0573
得之於	-11.0575
但有	-11.0576
徃來	-11.0577
萱草	-11.0579
推重	-11.058
云吾	-11.058
華嚴	-11.0582
深逺	-11.0582
十二幅	-11.0584
書本傳	-11.0585
世界	-11.0587
中峰	-11.0588
草樹	-11.059
行世	-11.059
卷髙九寸	-11.0591
遺迹	-11.0591
凡二	-11.0592
在長安	-11.0593
洛中	-11.0595
得法	-11.0597
七人	-11.0598
不無	-11.0601
九寸三分	-11.0603
禽圗一	-11.0605
去年	-11.0605
楚江	-11.0609
難為	-11.0611
皆非	-11.0612
所以為	-11.0615
過江	-11.0617
游魚	-11.0623
兢	-11.0623
玩之	-11.0623
兩耳有提梁	-11.0627
稼	-11.0627
淞	-11.0628
君王	-11.0628
椽	-11.0628
佛道	-11.0629
圖幷題	-11.0629
岷	-11.063
韞	-11.063
緜	-11.0631
掬	-11.0631
邠	-11.0631
尉遲乙僧	-11.0632
掇	-11.0633
逞	-11.0633
証	-11.0633
蘇子美	-11.0634
詫	-11.0634
笻	-11.0634
康熈	-11.0634
亰	-11.0635
第十七幅	-11.0635
及觀	-11.0635
稟	-11.0636
帚	-11.0636
籌	-11.0637
嘶	-11.0637
璜	-11.0638
件	-11.0638
琮	-11.0638
寇	-11.0638
一律	-11.0639
枇杷	-11.0639
福州	-11.064
不得不	-11.0642
曹娥碑	-11.0643
筋力	-11.0645
昨夜	-11.0645
永徽	-11.0647
蕭疎	-11.0647
風竹	-11.0647
碧玉	-11.0651
超越	-11.0651
藝術	-11.0651
張即之	-11.0652
余於	-11.0653
題識云	-11.0653
原係	-11.0653
制作	-11.0654
王次仲	-11.0657
趙模	-11.0657
呉門	-11.0659
異時	-11.0659
從而	-11.0661
氣骨	-11.0663
法師碑	-11.0665
清真	-11.0666
建業	-11.0667
六曰	-11.0667
則為	-11.0672
河中	-11.0673
愛重	-11.0673
一門	-11.0676
尊彞	-11.0677
實為	-11.0687
魏國	-11.0688
歎其	-11.0689
何用	-11.0689
盛徳	-11.0697
一室	-11.07
細書	-11.0701
一則	-11.0707
唐文皇	-11.0707
丈餘	-11.0711
二跋	-11.0712
金玉	-11.0712
九寸四分	-11.0717
不可及	-11.0718
㑹心	-11.0719
黄公	-11.072
偶得	-11.0721
紫陽	-11.0723
雲林子	-11.0724
髙閑	-11.0725
遺風	-11.0731
率意	-11.0732
吳氏	-11.0733
水流	-11.0736
此言	-11.0739
水牛	-11.0743
取法	-11.0745
郡齋	-11.0745
形如	-11.0748
從子	-11.0748
之才	-11.0749
巵	-11.0752
遘	-11.0752
架上	-11.0755
長而	-11.0755
逺甚	-11.0756
朝陽	-11.0756
庖	-11.0758
長樂	-11.0759
畫録	-11.0759
迸	-11.0759
茒	-11.0759
左僕射	-11.076
髙尚書	-11.076
罨	-11.076
娱	-11.076
叱	-11.0762
穰	-11.0762
蔑	-11.0762
蒼龍	-11.0763
鶴圖	-11.0763
煎	-11.0763
虗	-11.0764
瘠	-11.0764
愜	-11.0764
九寸六分	-11.0764
青城	-11.0764
關仝	-11.0764
磴	-11.0765
始終	-11.0767
氛	-11.0767
明王	-11.0769
溝	-11.0769
畹	-11.077
至京師	-11.0773
那得	-11.0773
宋濓	-11.0774
不一一	-11.0775
流泉	-11.0775
鍾山	-11.0775
尉遲	-11.0776
伯温	-11.0777
楮紙	-11.0778
則以	-11.078
和南	-11.0781
二絶	-11.0782
名畫記	-11.0782
三升	-11.0782
書其後	-11.0783
京兆人	-11.0783
梁溪	-11.0784
其功	-11.0785
佛像一	-11.0785
也豈	-11.0786
䕶持	-11.0792
其傳	-11.0792
二君	-11.0797
實録	-11.0798
鳥跡	-11.0798
九字	-11.0798
鐵石	-11.08
廿又	-11.0802
月晦日	-11.0808
成一家	-11.0814
音律	-11.0814
好竒	-11.0816
先主	-11.082
購求	-11.0822
二王書	-11.0823
是嵗	-11.0829
五嶽	-11.083
香山	-11.0831
視其	-11.0831
伯機	-11.0834
為大	-11.0835
脩竹	-11.0836
翠竹	-11.0839
問之	-11.0839
稱善	-11.0841
韓氏	-11.0843
十有八	-11.0844
畫學	-11.0844
瀟湘圖	-11.0848
龍水	-11.0853
繼之	-11.0855
㬌	-11.0857
因書	-11.0859
七寸九分	-11.0863
蘭亭叙	-11.0869
州志	-11.087
四十八	-11.0873
亦善書	-11.0877
而止	-11.0879
鉛	-11.0879
善楷書	-11.088
希世	-11.0881
落葉	-11.0882
畫一	-11.0883
蠅	-11.0886
悰	-11.0887
矣夫	-11.0888
揷	-11.0888
髙堂	-11.0888
佇	-11.0889
晃	-11.089
褉	-11.089
只有	-11.089
毘	-11.0891
核	-11.0891
圖繪寳鑑續纂	-11.0891
亘	-11.0891
渇	-11.0892
丕	-11.0892
癸巳	-11.0892
娶	-11.0892
峩	-11.0893
士夫	-11.0893
頓挫	-11.0893
伯喈	-11.0894
窺其	-11.0895
枯樹賦	-11.0895
墨氣	-11.0895
黻	-11.0895
堦	-11.0895
鮮于伯機	-11.0897
以進	-11.0898
如許	-11.0898
悞	-11.0899
怳	-11.0899
鍾太傅	-11.0899
正與	-11.09
其孫	-11.09
豳風	-11.0902
荆闗	-11.0903
撰并	-11.0906
漢陽	-11.0907
横斜	-11.0909
葺	-11.0909
微茫	-11.0909
鴨圖	-11.0911
崑山人	-11.0913
相忘	-11.0915
銘三字	-11.0916
宋文帝	-11.092
髙風	-11.0923
一石	-11.0925
晦翁	-11.0926
在人間	-11.0927
題句云	-11.0929
羅浮	-11.0929
入室	-11.0929
賔客	-11.093
侍讀	-11.0931
郡公	-11.0931
之㫖	-11.0932
臨水	-11.0934
善草隸	-11.094
泰和	-11.0944
將以	-11.0945
白衣	-11.0945
習之	-11.0946
韓公	-11.0946
尚書郎	-11.0951
柴門	-11.0953
中秋日	-11.0953
自序	-11.0954
補遺	-11.0954
為時所	-11.0956
大家	-11.0959
時也	-11.0962
可稱	-11.0968
逺水	-11.0969
太原人	-11.097
而言	-11.0971
復生	-11.0973
宋人畫	-11.0977
平時	-11.0978
成王	-11.0979
重三斤	-11.0985
後周	-11.0991
希白	-11.0993
倪瓉	-11.0994
唐明皇	-11.0995
稽古	-11.0996
一朝	-11.0998
墨戲	-11.1
坐對	-11.1
右通蓋	-11.1001
四世	-11.1003
跋云右	-11.1004
斗方	-11.1005
澄心	-11.1006
羣玉	-11.1006
不起	-11.101
不疑	-11.1012
陁	-11.1014
一事	-11.1015
皆出	-11.1016
菲	-11.1017
柳公權	-11.1019
敲	-11.1019
杵	-11.102
蠆	-11.102
一㸃一畫	-11.1023
僭	-11.1024
裒	-11.1024
須臾	-11.1024
馮承素	-11.1025
需	-11.1025
福寺	-11.1025
腥	-11.1026
仙山樓閣	-11.1027
堤	-11.1027
昔人謂	-11.1027
奬	-11.1027
𢎞農	-11.1027
壬申	-11.1028
屛	-11.1028
甌	-11.1028
九歌圖	-11.1031
樾	-11.1031
離騷	-11.1033
覩其	-11.1034
八寸三分	-11.1036
書畫皆	-11.1037
句曲	-11.104
山村	-11.1042
太上像	-11.1042
髙四尺	-11.1043
丈人	-11.1043
洪崖	-11.1043
玉樹	-11.1043
垂釣	-11.1049
無量	-11.1049
公自	-11.105
心而	-11.1051
其字畫	-11.1053
應是	-11.1054
僧巨然	-11.1056
悵然	-11.1057
晴巒	-11.1058
處有	-11.1059
議郎	-11.1059
損益	-11.1061
英雄	-11.1062
得之矣	-11.1063
雨中	-11.1066
圖一寫	-11.1066
列於	-11.1067
而行	-11.1068
皇恐	-11.1071
純素	-11.1072
華隂	-11.1074
不愧	-11.1076
何物	-11.1079
重修	-11.108
筆筆	-11.1082
沈著	-11.1082
為余	-11.1084
意度	-11.1085
郎官	-11.1086
快雪	-11.1087
遂得	-11.1088
餘年	-11.1088
郡守	-11.1092
芾頓首	-11.1094
院記	-11.1095
雙禽圖	-11.1096
宋黄庭堅書	-11.1098
五老	-11.1099
只今	-11.11
安人	-11.1101
數紙	-11.1103
九寸七分	-11.1104
詩塘	-11.1105
化工	-11.1105
十有九	-11.1111
東坡書	-11.1113
舒卷	-11.1114
流芳	-11.1121
器之	-11.1125
歐陽修	-11.1131
先輩	-11.1132
壬	-11.1132
盡矣	-11.1132
寒食	-11.1133
大江	-11.1134
鐘鼎	-11.1135
而少	-11.1135
江寧	-11.1137
知足下	-11.1138
經一册	-11.1142
為世所	-11.1143
閒雅	-11.1144
文通	-11.1144
春江	-11.1144
濓	-11.1147
虞公	-11.1148
圖一寫生	-11.1149
猶子	-11.115
十萬	-11.115
不取	-11.1151
棐	-11.1152
鉦	-11.1154
篠	-11.1155
無錫人	-11.1155
悽	-11.1156
小篆書	-11.1156
己卯	-11.1157
竅	-11.1158
阮研	-11.1158
薊丘	-11.1159
詛	-11.1159
參知政事	-11.116
荔枝	-11.116
盥	-11.1161
凭	-11.1161
一千	-11.1161
炙	-11.1162
烹茶	-11.1162
搜訪	-11.1163
字㸃去	-11.1164
芭蕉	-11.1164
府學	-11.1164
粘	-11.1165
蒲萄	-11.1166
南都	-11.1166
便欲	-11.1167
西涯	-11.1167
三紙	-11.1169
白描畫	-11.1169
毬	-11.117
是圖	-11.1171
卷首有	-11.1171
甲乙	-11.1172
清絶	-11.1179
李元	-11.118
一時名	-11.1182
張君	-11.1182
罕見	-11.1183
復為	-11.1183
藹然	-11.1186
之日	-11.1188
一在	-11.119
臨流	-11.1193
看花	-11.1194
西南	-11.1196
力學	-11.1197
迄今	-11.1197
靡不	-11.1199
多能	-11.12
文選	-11.12
陽縣	-11.12
余為	-11.1201
咄咄逼	-11.1203
坡公	-11.1204
石榴	-11.1207
子由	-11.1207
石鼓文	-11.1207
兵部	-11.1207
敬觀	-11.1209
品也	-11.121
建寧	-11.1211
捕魚圖	-11.1212
太宗皇帝	-11.1216
自負	-11.1217
天門	-11.1217
可想見	-11.1218
歌舞	-11.122
法華	-11.1221
鶺鴒	-11.1222
辨其	-11.1225
先臣	-11.1225
記在	-11.1228
目為	-11.1233
春山圖	-11.1234
是書	-11.1235
之賢	-11.1236
終南	-11.1236
之祖也	-11.1237
鍾法	-11.1239
天王像	-11.124
佳趣	-11.124
真贋	-11.1241
民間	-11.1248
時以	-11.1248
直學士	-11.1251
凛	-11.1255
元季	-11.1257
玉泉	-11.1258
御題詩云	-11.1258
為正	-11.126
皆作	-11.1261
三十一	-11.1266
城郭	-11.1268
未為	-11.1269
儋	-11.127
後題	-11.1275
山甫	-11.1275
自足	-11.1275
仲冬	-11.1276
詩翰	-11.1279
近古	-11.1281
工人	-11.1283
書苑菁華	-11.1285
憚	-11.1287
濂	-11.1288
邯鄲	-11.1288
騁	-11.1289
慷慨	-11.1289
僅有	-11.129
後代	-11.129
史惟則	-11.129
兵部尚書	-11.1291
厨	-11.1292
梧桐	-11.1292
𦵏	-11.1293
鈴	-11.1293
煬帝	-11.1293
恤	-11.1294
矛	-11.1295
廿八日	-11.1295
閫	-11.1295
僞	-11.1297
大約	-11.1297
嶧山	-11.1297
夢寐	-11.1298
蠅頭	-11.13
不精	-11.13
舛	-11.1301
有父風	-11.1302
甚竒	-11.1302
汪氏	-11.1302
唇	-11.1303
以資	-11.1303
貴賤	-11.1304
則是	-11.1307
嗜酒	-11.1307
卷末有	-11.1313
碑碑隂	-11.1314
王愔	-11.1314
海虞	-11.1315
召入	-11.1317
出門	-11.1317
歸田	-11.132
楊公	-11.1322
山澤	-11.1322
方方壺	-11.1323
萬夀	-11.1325
豈惟	-11.1325
從來	-11.1325
惠崇	-11.1328
未至	-11.1333
時年八十	-11.1334
字希	-11.1335
於其	-11.1335
一尺三寸	-11.134
士安	-11.134
臨倣	-11.134
一尺一寸	-11.1345
篆額	-11.1346
者莫	-11.1349
髙致	-11.135
題句一	-11.1351
不遇	-11.1354
楫	-11.1357
目前	-11.1358
海陵	-11.1359
超絶	-11.1363
雖多	-11.1365
名重	-11.1366
三友	-11.1366
時代	-11.1367
伯雨	-11.1368
閩書	-11.1372
秃	-11.1377
一堵	-11.1377
石林	-11.1381
合卷	-11.1384
之甥	-11.1385
有客	-11.1387
緑樹	-11.1388
累日	-11.1389
三教	-11.1392
命為	-11.1392
運思	-11.1393
譬之	-11.1397
桓公	-11.1404
之表	-11.1405
風味	-11.1406
髙平	-11.141
穆公	-11.1415
不得其	-11.1415
溪集	-11.1416
元人畫	-11.1418
蝦	-11.1425
鏘	-11.1426
逓	-11.1427
徂	-11.1427
婚	-11.1427
豕	-11.1428
乾隆宸翰二璽	-11.1429
悶	-11.1429
郷	-11.143
長卿	-11.143
罏	-11.143
砢玉	-11.143
祝希哲	-11.1431
飈	-11.1432
駸駸	-11.1433
黼	-11.1433
廖	-11.1434
神竒	-11.1435
徴君	-11.1435
霅川	-11.1435
奔走	-11.1436
愉	-11.1436
不許	-11.1436
曲盡其妙	-11.1439
印文	-11.1439
浮屠	-11.144
清氣	-11.1441
礪	-11.1442
蘭蕙	-11.1444
字思	-11.1444
寺壁	-11.1445
雄偉	-11.1446
左方上	-11.1449
可及	-11.1451
前一器	-11.1454
石恪	-11.1454
士衡	-11.1455
贊云	-11.1457
有情	-11.1458
拒霜	-11.146
征西	-11.1461
寓舍	-11.1462
妙入神	-11.1463
鵰	-11.1464
手簡	-11.1464
重裝	-11.1465
元日	-11.1465
収藏	-11.1466
竒石	-11.1469
筆精	-11.1473
林壑	-11.1473
忠臣	-11.1473
八九	-11.1474
所録	-11.1475
去之	-11.1477
金壇	-11.1478
尚多	-11.1479
帖一卷	-11.1479
一面	-11.1481
翠微	-11.1485
相應	-11.1486
此類	-11.1486
秋深	-11.149
黄氏	-11.1492
日一	-11.1492
兼長	-11.1493
皆無	-11.1494
僧舍	-11.1494
不歸	-11.1494
亦須	-11.1497
堂堂	-11.15
蕭寺	-11.15
伏羲	-11.1501
理宗	-11.1502
少監	-11.1504
成就	-11.1504
圖并題卷	-11.1508
臺閣	-11.151
多以	-11.1514
常州	-11.1516
欲求	-11.1517
江干	-11.1519
意外	-11.1521
黄華	-11.1522
壁上	-11.1528
風采	-11.1532
黄素	-11.1534
兒女	-11.1535
獐	-11.1535
獻公	-11.1537
其地	-11.1538
是亦	-11.154
曰我	-11.154
今朝	-11.154
碧雲	-11.1545
有云	-11.1547
濃墨	-11.1548
此等	-11.1548
其業	-11.1549
聖人之	-11.1552
印識	-11.1554
同前	-11.1556
濫	-11.1557
聿	-11.1558
項聖謨	-11.1558
上官	-11.1559
具在	-11.1561
餗	-11.1561
淳化閣帖	-11.1563
囬	-11.1564
蘄	-11.1565
搏	-11.1565
囿	-11.1565
遨	-11.1566
則天	-11.1568
延熹	-11.1568
鶩	-11.1569
凶	-11.1569
半印三	-11.157
不廢	-11.157
畋	-11.157
駁	-11.1571
無量夀	-11.1571
卽	-11.1572
驂	-11.1572
屹	-11.1572
其所長	-11.1572
而不可得	-11.1573
八卷	-11.1575
世不多見	-11.1576
玉潤	-11.1577
祕書監	-11.1577
辯才	-11.1578
毫髮	-11.1579
梁元帝	-11.1579
不經意	-11.158
屋宇	-11.1581
亭子	-11.1581
蘆鴈	-11.1582
退密	-11.1582
元符	-11.1583
秘玩	-11.1583
優孟	-11.1586
烏絲	-11.1589
工花鳥	-11.1589
和云	-11.1589
邊鸞	-11.1589
口徑五寸	-11.1589
賓客	-11.1589
長老	-11.1591
滿目	-11.16
通神	-11.16
歎賞	-11.1606
李昭道	-11.1606
於其間	-11.1607
忠簡	-11.1607
得其法	-11.1608
不惜	-11.1616
運用	-11.1616
翻刻	-11.1619
相示	-11.162
題于	-11.1621
陰陽	-11.1621
落墨	-11.1632
宫室	-11.1636
未識	-11.1637
顧氏	-11.1637
吁嗟	-11.1637
鑑定	-11.1639
按此	-11.1643
乃爾	-11.1646
是耶	-11.1647
秋景	-11.1648
羣山	-11.1649
官舍	-11.1653
舎人	-11.1653
四十三	-11.1655
相看	-11.1657
一璽又	-11.1657
此冊	-11.1657
無塵	-11.1658
十六羅漢	-11.1658
固已	-11.1661
知府	-11.1664
不可考	-11.1666
草字	-11.1667
像碑	-11.1669
何幸	-11.1669
九寸一分	-11.1669
捕魚	-11.1674
戊	-11.1675
隻	-11.1676
才翁	-11.1676
四足	-11.1679
花下	-11.168
古而	-11.168
氏二印	-11.1682
蕭寺圖	-11.1685
興化	-11.1685
霅	-11.1687
呉江	-11.1687
安氏	-11.169
景定	-11.1691
應接	-11.1697
亢	-11.1703
效顰	-11.1704
洪武初	-11.1705
銀青光禄大夫	-11.1706
奏事	-11.1706
益州名畫録	-11.1706
賡	-11.1706
衙	-11.1707
扆	-11.1707
瞬	-11.1707
花圖	-11.1707
袐	-11.1707
江州	-11.1708
襍	-11.1708
此卷為	-11.1709
鬟	-11.1709
檇李項氏世家寶玩	-11.171
刦	-11.171
奐	-11.171
鐡網珊瑚	-11.1711
渤海	-11.1712
戴逵	-11.1712
顛倒	-11.1712
堯舜	-11.1712
芽	-11.1713
顥	-11.1713
旦夕	-11.1713
厥後	-11.1714
相知	-11.1714
醮	-11.1714
可耳	-11.1714
剝	-11.1715
贖	-11.1716
韋偃	-11.1716
詆	-11.1716
冡	-11.1717
袁桷	-11.1717
以墨	-11.1718
蕭瑟	-11.1719
月夜	-11.1719
孝祥	-11.1719
金陵瑣事	-11.1721
如來	-11.1723
散落	-11.1723
用以	-11.1724
令狐	-11.1725
趙孟頫書	-11.1726
太宰	-11.1729
蟲魚	-11.173
大石	-11.1731
夏圭	-11.1733
禽魚	-11.1733
銘二字	-11.1735
何能	-11.1735
文貞	-11.1738
傳云	-11.174
温潤	-11.1741
樂道	-11.1741
横畫	-11.1742
者今	-11.1743
可貴	-11.1744
起敬	-11.1746
仇逺	-11.1747
五雲	-11.1748
城市	-11.1748
刻絲	-11.1749
動静	-11.175
立戈	-11.175
都穆	-11.1753
一百二十	-11.1758
千葉	-11.176
前身	-11.1765
三品	-11.1765
仁夀	-11.1765
氣力	-11.1765
好古博雅	-11.1767
東觀	-11.1768
至正二十	-11.1772
僖宗	-11.1774
想見其	-11.1775
始見	-11.1777
王羲之書	-11.1778
短長	-11.178
一言	-11.1781
學問	-11.1781
無情	-11.1783
佛殿	-11.1785
了無	-11.1788
奉詔	-11.1788
字上鈐	-11.1789
頃刻	-11.1792
親見	-11.1793
夢見	-11.1796
如在	-11.1801
出為	-11.1802
飛鳥	-11.1807
舟次	-11.1808
草書千文	-11.181
之術	-11.1819
金書	-11.182
愔	-11.1822
谿山	-11.1827
侍從	-11.1833
新意	-11.1833
而終	-11.1834
寫山水	-11.1835
日夜	-11.1835
所南	-11.1836
長年	-11.1838
簠	-11.1844
恠	-11.1846
百花	-11.1846
訴	-11.1847
時已	-11.1847
弛	-11.1848
此賦	-11.1849
庇	-11.185
晉陵	-11.185
騫	-11.185
藕	-11.185
誘	-11.1851
國子祭酒	-11.1851
嗤	-11.1851
餞	-11.1851
趾	-11.1851
侍讀學士	-11.1852
稻	-11.1852
皆在	-11.1852
嶼	-11.1852
蘚	-11.1852
儘	-11.1853
雒	-11.1853
摩挲	-11.1853
史氏	-11.1854
姜堯章	-11.1854
葱	-11.1855
畧無	-11.1855
後幅	-11.1856
災	-11.1857
熹平	-11.1858
歷	-11.1858
鈿	-11.1858
蝴蝶	-11.1859
畢宏	-11.1862
衛協	-11.1862
器銘	-11.1862
盛懋	-11.1862
集賢院	-11.1863
訓導	-11.1863
咸淳	-11.1864
越石	-11.1865
仲珩	-11.1865
嗜古	-11.1867
小橋	-11.1868
懸崖	-11.1868
宜乎	-11.187
星辰	-11.187
一等	-11.1871
信公	-11.1872
維揚	-11.1872
太后	-11.1874
揚雄	-11.1876
余所見	-11.1876
宋箋本	-11.1878
鄭元祐	-11.188
孔子廟	-11.1881
晝夜	-11.1884
給事	-11.1885
變幻	-11.1886
大道	-11.1889
元倪瓚	-11.189
行樂	-11.1891
其一也	-11.1892
致意	-11.1894
已下	-11.1895
杜詩	-11.1897
仲昭	-11.1899
摹勒	-11.19
尺許	-11.1901
五十六	-11.1901
則曰	-11.1902
伯髙	-11.1912
心畫	-11.1921
評者	-11.1923
誤作	-11.1924
大人	-11.1928
清曉	-11.1929
舊作	-11.1931
也又云	-11.1932
九曲	-11.1932
來往	-11.1933
一章	-11.1949
受命	-11.195
一印後有	-11.1951
小李將軍	-11.1953
殿中	-11.1954
清賞	-11.1955
無由	-11.1964
習氣	-11.1969
東京	-11.1971
神武	-11.1972
小筆	-11.1973
雲東	-11.1975
求者	-11.1975
在位	-11.1975
六寸九分	-11.1977
名跡	-11.198
曼卿	-11.1983
熹	-11.1984
止於	-11.1985
汪砢玉	-11.1987
雲南	-11.1988
宣徳箋本	-11.1989
諸君	-11.1989
坎	-11.1989
師宜官	-11.1991
爻	-11.1992
婢	-11.1992
慟	-11.1992
重刻	-11.1995
頥	-11.1995
唾	-11.1996
駟	-11.1996
訊	-11.1997
者鮮	-11.1998
剰	-11.1998
鷓鴣	-11.1998
譲	-11.1999
逍遙	-11.2
忻	-11.2
霆	-11.2
著作郎	-11.2
集序	-11.2
眸	-11.2
惶恐	-11.2001
㠶	-11.2001
允文	-11.2001
鉞	-11.2001
嬰兒	-11.2001
天啓	-11.2002
劉君	-11.2004
圗畫	-11.2004
緫	-11.2005
作草	-11.2005
司農	-11.2005
聖朝名畫評	-11.2006
乾隆御筆	-11.2006
奢	-11.2007
陳閎	-11.2008
濯足	-11.2009
月色	-11.2014
李迪	-11.2017
茫然	-11.2017
寒泉	-11.2018
字源	-11.2018
古隸	-11.2022
俗人	-11.2023
二米	-11.2023
二百年	-11.2024
臨蘭亭	-11.2024
管夫人	-11.2026
曽祖	-11.2026
髙八寸	-11.2026
王履吉	-11.2037
余觀	-11.204
陸機	-11.2049
碧落	-11.205
知君	-11.205
精密	-11.2051
王士元	-11.2052
鳳翔	-11.2054
寳晉	-11.2055
荆南	-11.2055
文物	-11.2056
偽作	-11.2057
手札	-11.2058
是年	-11.2061
衣服	-11.2063
無銘是器	-11.2065
四景	-11.2066
比肩	-11.2068
頁頁髙	-11.2069
意象	-11.2072
餘皆	-11.2073
親家	-11.2073
髙低	-11.208
以寓	-11.208
平淡	-11.2081
五十三	-11.2082
男子	-11.2083
慕之	-11.2085
自娛	-11.2086
大要	-11.2087
松陵	-11.2087
髙七寸	-11.2088
佳人	-11.2092
經年	-11.2093
山水一軸	-11.2094
天閑	-11.2096
燈下	-11.2096
九寸八分	-11.2097
猶是	-11.2098
列仙	-11.2103
大率	-11.2109
泠	-11.211
存良	-11.2113
為翰林待詔	-11.2118
沈度	-11.2118
僅得	-11.2124
劉公	-11.2124
徵君	-11.2126
周臣	-11.2127
十六幅	-11.2127
水火	-11.2128
鸂鶒圖	-11.2131
玉軸	-11.2132
竺	-11.2133
遂至	-11.2134
手自	-11.2136
評者謂	-11.2138
徤	-11.2138
鷺鷥	-11.2138
突兀	-11.214
卯	-11.2141
淙	-11.2141
娟	-11.2141
七言律詩一首	-11.2141
遂昌鄭元祐	-11.2141
巉	-11.2142
俶	-11.2143
可疑	-11.2143
第十九幅	-11.2143
榛	-11.2143
躅	-11.2143
瞳	-11.2143
竇蒙	-11.2145
懌	-11.2145
仇實父	-11.2145
畊	-11.2145
盛子昭	-11.2145
偁	-11.2145
溷	-11.2146
闈	-11.2146
干戈	-11.2147
南華	-11.2147
緋	-11.2147
遡	-11.2148
絶世	-11.2149
懲	-11.215
薊	-11.215
校尉	-11.215
仆	-11.215
彫	-11.215
宥	-11.2151
淛	-11.2152
分别	-11.2152
薔薇	-11.2153
等圖	-11.2153
夐	-11.2153
北斗	-11.2155
肥瘦	-11.2157
周氏	-11.2157
蒼苔	-11.2158
把玩	-11.2159
石柱	-11.216
潯陽	-11.2161
珍蔵	-11.2161
不能辨	-11.2162
董羽	-11.2162
春曉圖	-11.2163
蟬蝶	-11.2164
天啟	-11.2164
趙郡	-11.2164
抑亦	-11.2165
契丹	-11.2165
甚詳	-11.2165
連印	-11.2175
淮海	-11.2176
雍容	-11.2176
入能品	-11.2177
宋蔡襄	-11.2183
集録	-11.2184
侍講	-11.2185
張翥	-11.2187
身在	-11.2187
虞褚	-11.2189
五十年	-11.2189
歐公	-11.2191
周鼎	-11.2194
傅色	-11.2194
書畫印	-11.2195
清雅	-11.2203
客來	-11.2205
花圖一	-11.2205
一璽左方詩云	-11.2208
絶勝	-11.2214
傳世者	-11.2215
人情	-11.2218
山河	-11.222
看山	-11.2222
寒山	-11.2223
三首	-11.2224
鄭公	-11.2226
减	-11.2228
家廟碑	-11.223
書畫舫	-11.2234
吟詩	-11.2235
僅見	-11.2238
咸陽	-11.2241
宣帝	-11.2243
雙松	-11.2244
在宋	-11.2247
靈巖	-11.2247
絶藝	-11.2253
煙雨	-11.2255
三十四	-11.2259
儒者	-11.2259
野水	-11.2259
髙士圖	-11.226
後漢書	-11.2261
月一	-11.2261
所遺	-11.2263
榴	-11.2264
髙尚	-11.2265
絶似	-11.2265
類一	-11.2265
不樂	-11.2267
萬嵗	-11.2269
雲漢	-11.2271
牡丹圖	-11.2275
圓勁	-11.2276
故鄉	-11.2278
左氏	-11.2279
查	-11.2279
翕	-11.228
容齋	-11.2281
其形似	-11.2282
外錄書畵舫云	-11.2282
匱	-11.2283
覬	-11.2285
珏	-11.2287
􁁜	-11.2288
晉陽	-11.2288
㴱	-11.2288
坑	-11.229
鍼	-11.2291
臨王羲之	-11.2292
絶交書	-11.2293
級	-11.2293
闗中	-11.2293
旃	-11.2293
虜	-11.2293
彎	-11.2294
鳯凰	-11.2294
斲	-11.2294
工部尚書	-11.2295
貂	-11.2295
澈	-11.2295
餓	-11.2296
梁清標印	-11.2296
歸去來辭	-11.2296
瞰	-11.2297
軫	-11.2297
黄鶴山人	-11.2297
赭	-11.2297
大定	-11.2298
悴	-11.2298
弟子趙孟頫	-11.2298
隈	-11.2298
長洲沈周	-11.2299
平園集	-11.2299
幄	-11.2299
未見其	-11.2301
陳子	-11.2301
有文	-11.2303
芝蘭	-11.2304
大義	-11.2305
匏菴	-11.2307
殷勤	-11.2309
應真	-11.2313
屈曲	-11.2315
平章	-11.2316
地獄	-11.2316
此地	-11.2316
金帛	-11.2318
僧智永	-11.2319
獨得	-11.232
凡七	-11.2321
遒逸	-11.2321
世宗	-11.2322
髙士竒	-11.2323
醉墨	-11.2323
召為	-11.234
春光	-11.234
白鷗	-11.2345
避地	-11.2346
不减	-11.2349
追封	-11.2349
竟日	-11.2349
而非	-11.2352
安分	-11.2352
仲温	-11.2353
表裏	-11.2358
江頭	-11.2361
正在	-11.2363
之失	-11.2365
有志	-11.237
伯父	-11.2371
道塲	-11.2371
世外	-11.2373
士元	-11.2377
下方	-11.2378
其兄	-11.238
飛仙	-11.238
分布	-11.2383
難辨	-11.2384
千巖	-11.2385
刀銘	-11.2386
見存	-11.2387
此卷乃	-11.239
南康	-11.2392
娯	-11.2392
吴郡	-11.2393
宋初	-11.2393
赫奕	-11.2395
長一尺	-11.2398
古色	-11.2398
所蓄	-11.2402
母子	-11.2402
夜光	-11.2403
池水	-11.2404
道林	-11.2412
貓圖一	-11.2413
四十七	-11.2415
廙	-11.2418
存之	-11.2421
沈宗敬	-11.2424
後身	-11.2425
不墜	-11.2425
台州	-11.2427
圖書印	-11.2429
人姓名	-11.2429
未暇	-11.2433
嵗時	-11.2436
淳古	-11.2436
以道	-11.2437
殊不知	-11.2437
錐畫沙	-11.2437
薈	-11.2438
闔	-11.244
淇	-11.2442
粤	-11.2442
硏	-11.2442
斟酌	-11.2443
盛事	-11.2444
籙	-11.2444
鞋	-11.2444
肘	-11.2445
猜	-11.2445
漳	-11.2445
醪	-11.2445
精到	-11.2446
嶷	-11.2446
屨	-11.2446
遏	-11.2446
偹	-11.2447
郤	-11.2447
初一日敬書一洋箋本墨書欵識云康	-11.2447
㝠㝠	-11.2447
欝	-11.2447
郄	-11.2448
喙	-11.2448
盞	-11.2449
卷一	-11.2449
張若靄	-11.245
顰	-11.245
沸	-11.2451
作墨竹	-11.2451
藴藉	-11.2452
飡	-11.2452
戡	-11.2454
黄溍	-11.2455
不及也	-11.2456
貧賤	-11.2457
晟	-11.2458
右軍父子	-11.2459
貴戚	-11.246
陸游	-11.246
太常卿	-11.2469
御臨董其昌	-11.2473
勝於	-11.2475
主事	-11.2476
其才	-11.2479
晴嵐	-11.2482
諸名家	-11.2482
手持	-11.2486
詠歌	-11.2491
諸君子	-11.2492
其親	-11.2493
董其昌書	-11.2495
祖宗	-11.2496
妙筆	-11.2497
壯士	-11.2497
婁江	-11.2499
不茍	-11.25
織成	-11.2501
目力	-11.2503
獲見	-11.2503
之裔	-11.2504
詩酒	-11.2505
謹奉	-11.2506
當在	-11.2507
依舊	-11.2507
柬之	-11.2509
有可觀	-11.2509
宣德	-11.2511
不乏	-11.2512
道經	-11.2512
端勁	-11.2518
所由	-11.252
烟靄	-11.252
三十九	-11.252
衣食	-11.2521
飛去	-11.2521
隸字	-11.2524
通鑑	-11.2526
五六	-11.2534
懐仁	-11.2537
潤色	-11.2538
誰家	-11.2539
到處	-11.254
雲煙	-11.2546
齊梁	-11.2547
九龍	-11.2556
浮圖	-11.2556
豈以	-11.2561
允明	-11.2567
白馬	-11.2568
何謂	-11.257
具眼	-11.257
恐非	-11.2576
三十七	-11.2577
張云	-11.2577
叔重	-11.2578
幽深	-11.2583
寺丞	-11.2585
朱竹	-11.2587
弋	-11.259
其祖	-11.2592
尤可	-11.2593
姦	-11.2594
所欲	-11.2594
羲之死罪	-11.2595
躁	-11.2595
敧	-11.2597
東壁	-11.2598
璨	-11.2598
宣德箋本	-11.2598
鋤	-11.2599
嬪	-11.26
可得而	-11.26
不去	-11.2601
漢王元昌	-11.2601
朱長文	-11.2601
諳	-11.2601
殫	-11.2602
御筆題籖籖上有	-11.2602
貫道	-11.2602
估	-11.2602
冉冉	-11.2603
璵	-11.2603
瓠	-11.2604
子子孫孫	-11.2604
蒼松	-11.2604
次仲	-11.2605
韓退之	-11.2605
未央	-11.2605
嶧山碑	-11.2607
溪亭	-11.2608
一印不可識	-11.2609
奎章閣	-11.2611
幽篁	-11.2611
千山	-11.2613
感激	-11.2615
王逢	-11.2618
彦亷	-11.2618
二兩	-11.2619
鵪鶉	-11.2622
獨存	-11.2625
過雨	-11.2628
重摹	-11.2629
青城山	-11.2629
宋李公麟畫	-11.2631
吕紀	-11.2634
常在	-11.2634
已具	-11.2637
慶歴	-11.2637
閻令	-11.2638
不改	-11.2638
陸錫	-11.2639
陸治	-11.2639
前世	-11.2641
海水	-11.2642
七夕	-11.2644
唐歐陽詢	-11.2646
蓮社圖	-11.2647
館閣	-11.2648
此殆	-11.265
天民	-11.2651
成帝	-11.2654
所不能	-11.2657
夏禹	-11.2658
磁青箋本泥金書	-11.2659
黄太史	-11.2665
鷂子	-11.2667
忘其	-11.267
銘四字	-11.2671
在京兆	-11.2673
誠可	-11.2674
雪江	-11.2675
三十八	-11.2675
便覺	-11.2676
所能及	-11.2678
不知何人	-11.2683
夢英	-11.2685
以示余	-11.2686
寶玩	-11.2686
皆佳	-11.2686
告身	-11.2688
其末	-11.269
相隨	-11.269
不異	-11.2693
公綬	-11.2694
别為	-11.2694
其弟	-11.2695
永師	-11.2695
問曰	-11.2696
平沙	-11.2698
一覽	-11.27
史館	-11.2702
高古	-11.2704
千尺	-11.2706
神化	-11.2707
起於	-11.2707
先君子	-11.2709
推之	-11.271
曲直	-11.2716
寧宗	-11.272
明府	-11.2725
早行	-11.2727
銘文	-11.2728
魚龍	-11.2729
雷雨	-11.2732
腹圍一尺六寸	-11.2733
謫仙	-11.2733
孝友	-11.2733
計四十	-11.2737
嶺南	-11.2738
北京	-11.2738
畤	-11.274
雲樹	-11.2742
法口訣云	-11.2743
石鼔	-11.2743
所愛	-11.2744
銘云	-11.2745
信筆	-11.2746
盧藏用	-11.2747
懐瓘	-11.2747
八寸七分	-11.2749
箸	-11.2749
畫院祗候	-11.2749
髦	-11.275
熏	-11.2751
蕚	-11.2752
夥	-11.2752
茆	-11.2753
泚	-11.2753
再見	-11.2753
刊	-11.2754
謚	-11.2754
䂓	-11.2754
茂苑文嘉	-11.2754
至寶	-11.2754
无	-11.2754
東丹王	-11.2754
珽	-11.2755
嵓	-11.2755
崕	-11.2755
瓉	-11.2755
愽	-11.2756
旂	-11.2756
紉	-11.2757
惕	-11.2757
鳳凰	-11.2757
石墨鐫華	-11.2758
稚恭	-11.2759
盪	-11.2759
春草堂	-11.2759
瑰	-11.2759
詡	-11.2761
圏	-11.2762
中書舎人	-11.2762
檢討	-11.2762
李日華	-11.2762
等謹案	-11.2762
袠	-11.2762
聽雨樓	-11.2763
無疆	-11.2764
蘇舜欽	-11.2765
漁艇	-11.2766
滸	-11.2766
淳祐	-11.2766
南枝	-11.2769
髙郵	-11.2769
客有	-11.277
答曰	-11.277
咸熙	-11.2771
非特	-11.2772
波濤	-11.2776
圓熟	-11.2777
不能不	-11.2779
風起	-11.2779
十二卷	-11.2781
山水樹石	-11.279
以授	-11.2791
塵俗	-11.2792
竹鶴	-11.2793
初師	-11.2794
之好	-11.2799
水閣	-11.2806
㑹意	-11.2806
前日	-11.2807
右通葢髙	-11.2808
衆人	-11.2809
下署	-11.281
墨書	-11.2812
庭堅頓首	-11.2813
以貽	-11.2814
宣和殿	-11.2815
餘俱	-11.2816
以備	-11.2817
諸詩	-11.2818
雲山圖	-11.2819
秃筆	-11.2819
尤喜	-11.2821
元統	-11.2823
鴻都	-11.2828
勢若	-11.2829
秀水	-11.2834
無能	-11.2835
清淨	-11.2836
方回	-11.2837
松聲	-11.2837
不擇	-11.2841
南齊	-11.2844
元宰	-11.2845
一分口徑	-11.2846
雪滿	-11.2847
秋雲	-11.2849
相繼	-11.285
吾所	-11.2851
善𨽻書	-11.2852
旁注	-11.2854
帶名	-11.2856
其子孫	-11.2857
筆記	-11.286
之誤	-11.2869
王䝉	-11.2871
髙九寸	-11.2873
昭宗	-11.2875
二印拖尾	-11.2875
雨晴	-11.2876
湖水	-11.2878
詩話	-11.2879
將來	-11.288
宋黄庭堅	-11.2886
子敬書	-11.2889
夜半	-11.2895
草書歌	-11.2896
獅	-11.2896
砥	-11.2903
大聖慈寺	-11.2904
顔公	-11.2905
仲秋	-11.2907
今見帶名	-11.2908
崧	-11.2908
墨箋本泥金書	-11.2908
卄	-11.2909
煖	-11.2909
吳下	-11.2909
里人	-11.2909
殷仲容	-11.2909
蘧	-11.2909
彤	-11.291
窩	-11.2911
收拾	-11.2912
戢	-11.2912
坐位帖	-11.2912
鱸	-11.2912
闋	-11.2913
稔	-11.2913
赤壁賦	-11.2913
龔璛	-11.2913
筭	-11.2913
澄心堂紙	-11.2913
蜿蜒	-11.2914
縹	-11.2914
鴻臚	-11.2914
鄆	-11.2915
蜜	-11.2915
迢迢	-11.2915
矮	-11.2915
袒	-11.2915
齎	-11.2915
周伯琦	-11.2916
吹簫	-11.2916
鴟	-11.2916
禇河南	-11.2916
膳	-11.2916
并識	-11.2916
两	-11.2917
崦	-11.2917
郭若虚	-11.2917
二王帖	-11.2917
太常少卿	-11.2918
鰲	-11.2919
垂拱	-11.292
拱璧	-11.2925
寒鴉	-11.2925
第二十幅	-11.2925
黄麻紙	-11.2926
米海岳	-11.2927
勘書圖	-11.2927
典籍	-11.2928
豪傑	-11.2929
鐵崖	-11.2929
李仲	-11.293
趙仲穆	-11.293
江天	-11.293
在京師	-11.2933
横塘	-11.2935
湖南	-11.2938
髙情	-11.2942
特以	-11.2942
以降	-11.2943
此軸	-11.2944
禽圖二	-11.2946
明宣宗	-11.2948
太真	-11.2951
晉武帝	-11.2955
季海	-11.2961
蒼翠	-11.2967
泉州	-11.2968
元黄公望	-11.2969
賞其	-11.2969
或以為	-11.297
畫隋朝官本	-11.297
其器	-11.297
王右軍書	-11.2971
開國	-11.2971
繪畫	-11.2973
嘗得	-11.2974
道祖	-11.2976
同郡	-11.2978
文敏公	-11.2978
其半	-11.298
不辨	-11.2985
李太白	-11.2985
公私	-11.2987
學書者	-11.2989
無常	-11.2992
亡其	-11.2996
庾云	-11.2997
千言	-11.3004
黄葉	-11.3007
棄去	-11.3007
不加	-11.3009
清曠	-11.3011
蘇黄米	-11.3012
歴代名	-11.3016
精巧	-11.3018
功德	-11.3018
讀易	-11.3018
䟦語	-11.3018
太史公	-11.3024
楊栁	-11.3025
宫女	-11.3026
師友	-11.3029
風物	-11.3029
貴重	-11.3031
許氏	-11.3032
林亭	-11.3032
凡八	-11.3037
諸儒	-11.3038
以文章	-11.3038
精宻	-11.304
恕先	-11.304
禊	-11.3041
數月	-11.3055
之弊	-11.3057
睂山	-11.306
筐	-11.3063
繋	-11.3064
獨孤	-11.3067
四壁	-11.3068
邊幅有	-11.3068
嵒	-11.3069
復吉	-11.307
驃騎	-11.307
霑	-11.307
杜子美	-11.3071
容二升	-11.3071
却憶	-11.3071
迭	-11.3072
閶	-11.3072
霓裳	-11.3072
嫗	-11.3072
甸	-11.3073
盍	-11.3073
珠玉	-11.3074
劭	-11.3075
驊騮	-11.3075
擫	-11.3075
扶疎	-11.3076
讐	-11.3077
姨	-11.3077
髙克明	-11.3077
居寀	-11.3077
枿	-11.3077
賈似道	-11.3078
流落人間	-11.3079
方伯	-11.308
賚	-11.308
訟	-11.308
僉憲	-11.3081
尤多	-11.3082
名勝	-11.3083
匏翁家藏集	-11.3083
祕書省	-11.3086
杜預	-11.3087
隨筆	-11.309
反覆	-11.309
行旅圖	-11.309
吾郡	-11.3091
老眼	-11.3091
列卿紀	-11.3092
次子	-11.3093
河間	-11.3094
朋友	-11.3096
東籬	-11.3097
弄筆	-11.3098
猶能	-11.3099
不見其	-11.3099
遺像	-11.31
勉之	-11.3102
雜書	-11.3102
太乙	-11.3103
六七	-11.311
白蓮	-11.3119
奚官	-11.3119
稱賞	-11.3122
聲價	-11.3124
蕭翼	-11.3125
可寶也	-11.3125
勤學	-11.3125
比丘	-11.3127
收得	-11.3127
蘭亭帖	-11.3129
名畵	-11.3131
成形	-11.3131
竹溪	-11.3133
吳鎮	-11.3134
最難	-11.3134
講學	-11.3135
長嘯	-11.3136
固宜	-11.3138
月十七日	-11.3141
先公	-11.3143
之習	-11.3145
皇太子	-11.3146
河東人	-11.3146
百家	-11.3146
堂中	-11.3148
永昌	-11.3153
帖各	-11.3153
游絲	-11.3153
授以	-11.3154
滿庭	-11.3155
李宗	-11.3161
野老	-11.3163
鑒藏	-11.3164
天王像一	-11.3165
口徑一尺	-11.3167
三十餘	-11.3168
醉後	-11.3169
自覺	-11.3173
雲臺	-11.3176
初見	-11.3179
不害	-11.3181
雲門	-11.3183
常熟人	-11.3183
手帖	-11.3186
五陵	-11.3187
院中	-11.3187
不可曉	-11.3187
袖卷	-11.3189
輩皆	-11.3193
元史	-11.3195
右僕射	-11.3198
畫鑒	-11.3198
内殿	-11.3203
學生	-11.3206
遂令	-11.3206
文姬	-11.3206
安世	-11.3207
書此以	-11.3208
應龍	-11.3211
寓目	-11.3211
不窮	-11.3211
古印	-11.3212
太原王	-11.3213
元素	-11.3214
今御府所藏一	-11.3221
郵	-11.3222
圗一寫生	-11.3223
王母	-11.3224
枝頭	-11.3226
述書賦注	-11.3228
璹	-11.3229
蛻	-11.323
陳居中	-11.323
鞠	-11.3232
爛熳	-11.3233
夜深	-11.3233
襯	-11.3234
熒	-11.3234
東晉	-11.3235
耘	-11.3235
洄	-11.3235
捫	-11.3235
軸髙一尺	-11.3236
斾	-11.3236
紈扇	-11.3237
寺觀	-11.3238
鑄一鼎	-11.3238
刓	-11.3238
慣	-11.3238
社稷	-11.3239
御府所藏正書一	-11.3239
囑	-11.3239
擒	-11.3239
貼	-11.324
睨	-11.324
管道昇	-11.324
昀	-11.324
俛	-11.3241
盧氏	-11.3241
刑部尚書	-11.3241
良可	-11.3242
之謂乎	-11.3242
飜	-11.3243
良史	-11.3243
范仲淹	-11.3243
氣韻生動	-11.3244
控	-11.3244
淒	-11.3244
劫	-11.3244
舉世	-11.3245
性命	-11.3246
戛	-11.3247
趙孟堅	-11.3247
秋晚	-11.3248
宋公	-11.3248
暹	-11.3251
吹笛	-11.3251
仕為	-11.3251
孟夏	-11.3253
瑶臺	-11.3254
戲貓圖一	-11.3255
武宗	-11.3255
垂虹	-11.3255
命工	-11.3256
艱難	-11.3258
偏傍	-11.3259
衛將軍	-11.326
偃仰	-11.3261
雪梅	-11.3262
岐陽	-11.3263
信手	-11.3263
舅氏	-11.3266
亡矣	-11.3268
宋濂	-11.3268
必欲	-11.3269
衣紋	-11.3269
逸氣	-11.3271
江南春	-11.3272
霄漢	-11.3273
新都	-11.3273
父己	-11.3274
嘉泰	-11.3275
沉著	-11.3275
考古	-11.3276
絶類	-11.3276
光武	-11.3279
其徒	-11.3281
疎密	-11.3282
撰在	-11.3286
秋壑	-11.3286
描寫	-11.3289
數幅	-11.3289
殆非	-11.3291
形體	-11.3292
江淮	-11.3293
緑隂	-11.3294
眼中	-11.3298
拜覆	-11.33
人爭	-11.3307
考功	-11.3311
蓮社	-11.3313
隠隠	-11.3314
竒觀	-11.3316
墨迹	-11.332
知書者	-11.3326
漢碑	-11.3326
雪溪	-11.3331
天師	-11.3331
籀篆	-11.3333
朔日	-11.3336
似是	-11.3337
示予	-11.3337
忽然	-11.3341
廣政	-11.3343
者一人	-11.3343
石橋	-11.335
復初	-11.3352
聖教	-11.3355
畵院	-11.3356
葢亦	-11.3358
手蹟	-11.336
孝武	-11.3366
不讓	-11.3366
芾頓首再拜	-11.3367
功成	-11.3368
吾嘗	-11.337
李式	-11.3371
亦欲	-11.3373
莫知其	-11.3376
中宗	-11.3376
職貢	-11.3378
不盈	-11.3381
幔	-11.3388
貓圗一	-11.3388
不測	-11.3389
六軸	-11.3389
種竹	-11.3389
一幀	-11.3391
備矣	-11.3393
一派	-11.3394
變通	-11.3394
漢隸	-11.3397
先是	-11.34
夜月	-11.34
徐僧權	-11.34
孰能	-11.34
康昕	-11.34
亥	-11.3401
糾	-11.3402
蚩	-11.3403
七言律詩款識云	-11.3403
䆳	-11.3403
彊	-11.3403
妮古	-11.3403
蔡忠惠	-11.3403
賖	-11.3404
唐希雅	-11.3405
慘淡	-11.3405
璿	-11.3405
裴行儉	-11.3406
醖	-11.3407
祭祀	-11.3407
蘆雁	-11.3407
孫士毅	-11.3407
丐	-11.3407
曵	-11.3407
饒介	-11.3407
熾	-11.3408
朏	-11.3409
牌	-11.3409
祜	-11.341
脊	-11.341
印一又	-11.341
扎	-11.3411
贄	-11.3411
俎	-11.3412
臞	-11.3412
葆	-11.3412
金沙	-11.3413
姝	-11.3413
維摩詰	-11.3414
衆工	-11.3414
昔賢	-11.3414
爛漫	-11.3415
史稱	-11.3415
取象	-11.342
未成	-11.342
工畫佛道	-11.342
惡札	-11.342
真草千文	-11.3421
得意筆	-11.3421
率更令	-11.3422
廣東	-11.3423
縣尉	-11.3423
獐猿	-11.3424
固自	-11.3426
米顛	-11.3427
邑人	-11.3428
部主事	-11.3428
亦善畫	-11.3429
王大令	-11.343
釣魚	-11.3435
莊嚴	-11.3435
元美	-11.3437
豈特	-11.3438
二十卷	-11.344
張貞居	-11.344
雲卿	-11.3446
萬松	-11.345
提梁	-11.3451
骨法	-11.3453
殘碑	-11.3453
仲容	-11.3455
城西	-11.3461
楚楚	-11.3462
細潤	-11.3465
孟堅	-11.3465
前軰	-11.3468
墨法	-11.3469
陸深	-11.347
幼文	-11.3472
最妙	-11.3473
紙素	-11.3475
情性	-11.3475
曹韓	-11.3475
觀潮	-11.3477
聲色	-11.3478
藥師	-11.3482
敷文	-11.3487
全倣	-11.349
天氣	-11.3491
安樂	-11.3492
可畏	-11.3494
一印漫漶不可識	-11.3494
駿馬	-11.3497
騎圖一	-11.3498
玉局	-11.3499
顔魯公書	-11.35
鼎二	-11.3501
紫微	-11.3503
不露	-11.3504
諸印後有	-11.351
高下	-11.3523
鐵鑑	-11.3524
乆矣	-11.3525
山谷云	-11.3528
畫舫	-11.3529
愛荆	-11.3531
亦足以	-11.3532
評之	-11.3532
二册	-11.3534
唐虞世南	-11.3534
停雲館	-11.3535
陳淳	-11.3535
五百年	-11.3535
平生所	-11.3536
畫之屬	-11.3536
留守	-11.354
又聞	-11.3543
羲之書	-11.3544
平陽	-11.3545
所寳	-11.3546
為飾	-11.3552
十景	-11.3553
物色	-11.3553
詵	-11.3554
二十餘年	-11.3556
帝釋	-11.3558
逸少書	-11.3558
終不能	-11.3558
萬言	-11.3561
九經	-11.3561
圉	-11.3563
霏霏	-11.3565
便當	-11.3565
古勁	-11.3567
壹	-11.3568
弇	-11.3568
章帝	-11.357
斐	-11.3571
琬	-11.3571
莘	-11.3572
潦	-11.3572
叠嶂	-11.3572
錡	-11.3573
孜	-11.3573
舷	-11.3573
女史箴	-11.3574
月恭校上	-11.3574
能屬文	-11.3575
瀛洲	-11.3575
荆關	-11.3575
顓	-11.3576
腫	-11.3576
嶮	-11.3576
闐	-11.3576
嚴分宜	-11.3577
鉏	-11.3577
朱子文集	-11.3577
滿紙	-11.3577
蒿	-11.3577
膩	-11.3577
江鄉	-11.3578
婆娑	-11.3578
郡開國	-11.3578
莎	-11.3579
璇	-11.3579
一百一十	-11.3579
李徳裕	-11.3579
窅	-11.3579
惘然	-11.3579
劉禹錫	-11.358
驍	-11.358
百千	-11.3581
傅朋	-11.3582
湊	-11.3582
姚綬	-11.3583
茘	-11.3584
治平元年	-11.3585
徐崇嗣	-11.3589
煙霞	-11.3589
寒菊	-11.3589
闗山	-11.3592
永樂中	-11.3593
金石畧	-11.3595
葛洪	-11.3596
池塘	-11.3596
鎮江	-11.3597
趙元	-11.3599
也雖然	-11.3599
紙本水墨	-11.3601
二十六日	-11.3601
好之	-11.3604
藝苑	-11.3605
恐是	-11.3607
識下有	-11.361
巖居	-11.3612
具載	-11.3612
行省	-11.3613
記語云	-11.3613
談笑	-11.3615
落木	-11.3616
沈君	-11.3618
可讀	-11.3618
都事	-11.3623
碧桃	-11.3627
圖外録	-11.3628
其說	-11.3631
聖朝	-11.3632
圖書記	-11.3635
夢裏	-11.3635
龍圖二	-11.3637
前幅	-11.3643
左丞	-11.3643
胡昭	-11.3645
馬夏	-11.365
飛龍	-11.3651
乾元	-11.3651
獨擅	-11.3651
修禊	-11.3653
宋宗室	-11.3659
第一帖	-11.3659
諸印押縫有	-11.366
石田先生	-11.366
一印左方下有	-11.3662
句容	-11.3665
今考	-11.3668
月初吉	-11.3672
天祐	-11.3673
不差	-11.3684
思之	-11.3685
興來	-11.3691
師資	-11.3691
夏景	-11.3694
放筆	-11.3695
宋刻	-11.3695
郭天錫	-11.3698
使我	-11.37
騎圖	-11.3706
智永千文	-11.3707
後一器	-11.3707
十紙	-11.3709
唐王維	-11.3711
宋太宗	-11.3716
太華	-11.3718
憶昔	-11.3721
竇臮	-11.3722
壽平	-11.3723
▁小楷	-11.3727
兖	-11.3728
陛	-11.3731
宋末	-11.3734
美女	-11.3735
趺	-11.3735
命意	-11.3737
覃	-11.3737
焞	-11.3737
惶	-11.3739
止存	-11.3739
自以為	-11.374
刮	-11.3741
尚書左僕射	-11.3741
擺	-11.3742
友善	-11.3742
翺翔	-11.3742
蘇東坡	-11.3744
襃	-11.3745
素綾本	-11.3745
傭	-11.3745
泖	-11.3746
諶	-11.3747
虞伯生	-11.3747
謡	-11.3748
齊髙帝	-11.3749
淩	-11.3749
鞅	-11.375
嘆曰	-11.375
正書無書撰人姓名	-11.375
耗	-11.375
禪師塔銘	-11.375
扃	-11.375
肱	-11.3752
僑	-11.3752
讎	-11.3752
賞識	-11.3752
唐朝名畫録	-11.3754
杜工部	-11.3754
着色	-11.3755
廷珪	-11.3755
王庭筠	-11.3755
攅	-11.3756
叅軍	-11.3756
波瀾	-11.3756
嫂	-11.3757
燾	-11.3758
記語一	-11.3759
錦囊	-11.3759
莫測	-11.3762
文不録	-11.3762
秦檜	-11.3762
豈易	-11.3765
皁	-11.3767
日新	-11.3768
班固	-11.3771
長康	-11.3773
煥發	-11.3773
寒玉	-11.3773
倒影	-11.3776
樓居	-11.3777
清香	-11.3779
臨帖	-11.378
羲皇	-11.3781
侍者	-11.3782
抱琴	-11.3784
松栢	-11.3785
卜居	-11.3786
樂卿	-11.3787
予觀	-11.3787
天下後世	-11.3788
九尺	-11.3792
否則	-11.3792
七册	-11.3793
錦衣	-11.3802
誰復	-11.3803
以善書	-11.3804
善草𨽻	-11.3807
鍾繇書	-11.3809
青龍	-11.381
自矜	-11.3813
相稱	-11.3814
雄逸	-11.382
體裁	-11.3822
專門	-11.3824
𧦬光	-11.3825
一印下有	-11.3831
異日	-11.3833
先天	-11.3836
最愛	-11.3838
聽雨	-11.3841
用力	-11.3848
諡曰文	-11.385
神鬼	-11.385
首幅	-11.3853
瑯琊人	-11.3858
西壁	-11.3859
二十五年	-11.386
隂隂	-11.3861
唐韻	-11.3862
唐張彦逺	-11.3862
泛舟	-11.3862
嘉平	-11.3863
自昔	-11.3863
題語	-11.3865
凡九	-11.3866
末年	-11.388
南渡後	-11.3881
放縱	-11.3886
湖光	-11.3887
南湖	-11.3889
宋元人	-11.3891
常熟	-11.3894
楷則	-11.3895
御前	-11.3896
莫之	-11.3909
季春	-11.3911
工草隸	-11.3912
以示予	-11.3913
閎	-11.3913
瑯	-11.3915
蒐	-11.3915
筆蹤	-11.3916
陳邦彦	-11.3917
轅	-11.3917
埜	-11.3917
睛	-11.3917
未署欵	-11.3917
鑪	-11.3918
不煩	-11.3919
汶	-11.3919
疵	-11.392
畀	-11.392
仿彿	-11.3921
汨	-11.3921
四體千文	-11.3922
跂	-11.3922
精勁	-11.3922
檇李項氏	-11.3922
蠒	-11.3923
叛	-11.3923
顗	-11.3923
懃	-11.3924
𤼵	-11.3924
陶隱居	-11.3924
揺	-11.3924
緡	-11.3926
堇	-11.3926
凈	-11.3926
鑱	-11.3927
泌	-11.3927
清閟閣	-11.3927
博雅好古	-11.3928
鏞	-11.3928
廏	-11.3929
築室	-11.393
仲和	-11.3931
炫	-11.3931
耒	-11.3933
天下碑録	-11.3933
缾	-11.3934
漁樵	-11.3934
文昭	-11.3935
浙東	-11.3936
秦始皇	-11.3938
出藍	-11.3938
外孫	-11.3938
几案	-11.3939
柿	-11.3939
紹熙	-11.3941
諸名公	-11.3943
海粟	-11.3944
周宣王	-11.3945
吴中	-11.3947
名指	-11.3949
侍御史	-11.3951
畫苑	-11.3951
一夕	-11.3952
巨濟	-11.3952
功夫	-11.3954
特立	-11.3955
布政	-11.3959
是已	-11.3961
河北	-11.3962
盤谷	-11.3963
華嶽	-11.3971
素師	-11.3972
松江人	-11.3972
幸蜀	-11.3973
元汴	-11.3974
孟蜀	-11.3975
模本	-11.3977
宋思陵	-11.3978
蕭照	-11.3978
月廿一日	-11.3978
吾衍	-11.3979
各異	-11.3979
無忝	-11.3982
氣格	-11.3988
自娯	-11.3991
端正	-11.3991
轉折	-11.3992
觀此圖	-11.3994
從弟	-11.3995
滕王	-11.3996
升堂	-11.3998
歳在	-11.4002
六十五	-11.4003
開門	-11.4004
䭾	-11.4005
昇平	-11.4011
隋朝官本	-11.4011
散逸	-11.4014
此特	-11.4015
動止	-11.4015
少游	-11.4017
景泰	-11.4021
逸趣	-11.4025
御風	-11.4025
向來	-11.4027
千卷	-11.403
州司馬	-11.4031
也嗚呼	-11.4032
未審	-11.4039
深一寸	-11.4042
兩幅	-11.4048
觀此卷	-11.4054
齋先生	-11.4059
贋本	-11.4064
第五十	-11.4064
七嵗	-11.4065
全文	-11.4066
十二行	-11.4069
漁父圖	-11.4071
草堂圖	-11.4072
睢	-11.4081
北地	-11.4083
婺	-11.4083
沔	-11.409
漢𨽻字原	-11.409
遺教經	-11.4091
洪谷子	-11.4092
五分口徑	-11.4093
糊	-11.4094
小草	-11.4094
後副頁	-11.4094
昬	-11.4095
罹	-11.4095
窄	-11.4096
批答	-11.4098
杉	-11.4098
孫知微	-11.4099
漚	-11.4099
沽	-11.41
乀	-11.41
醴泉	-11.41
畫扇	-11.4101
朢	-11.4101
黄初	-11.4101
史道碩	-11.4101
勵宗萬	-11.4102
素牋本著色畫	-11.4102
擘窠	-11.4103
褊	-11.4103
錠	-11.4103
覈	-11.4104
松泉	-11.4104
璉	-11.4105
江貫道	-11.4105
㐮	-11.4106
伺	-11.4106
欽定四庫全書子部八	-11.4106
猥	-11.4106
今御府所藏二	-11.4107
李陽氷	-11.4108
廣四尺	-11.4108
宋犖審定	-11.4108
遒麗	-11.4111
辛苦	-11.4113
前一日	-11.4114
寶章	-11.4119
博古圗	-11.412
活動	-11.4121
月季	-11.4122
討論	-11.4123
寫意	-11.4131
偶見	-11.4132
雲林生	-11.4132
漫漫	-11.4134
氣運	-11.4135
不能去	-11.4135
維摩像	-11.4139
雨霽	-11.414
體製	-11.4141
豪放	-11.4143
形狀	-11.4143
月廿七日	-11.4144
禪寺	-11.4144
慕容	-11.4146
一印前有	-11.4147
得意書	-11.4148
海外	-11.4149
俊逸	-11.4153
座右	-11.4155
忽忽	-11.4155
每作一	-11.4158
曲水	-11.4158
十一日	-11.4159
浩浩	-11.416
叔父	-11.4164
官至侍中	-11.4166
金銀	-11.4169
張紳	-11.417
森然	-11.4179
者莫不	-11.4179
所製	-11.4182
題咏	-11.4183
哲宗	-11.4184
二十四日	-11.4186
曾入	-11.4198
研精	-11.4199
他年	-11.4201
六十四	-11.4204
秘藏	-11.4206
淮陽	-11.4208
凡百	-11.421
泥金書	-11.4211
亞於	-11.4212
韓子	-11.4213
求售	-11.4216
葉葉	-11.4216
逸民	-11.422
髙七寸八分	-11.4227
風波	-11.4229
物象	-11.4231
章法	-11.4232
家貧	-11.4234
周宻	-11.4236
稱㫖	-11.4242
精謹	-11.4246
醉翁	-11.4247
禹玉	-11.4247
黄河	-11.4247
眼前	-11.4248
成功	-11.4251
青州	-11.4254
二種	-11.4256
誤矣	-11.4258
元祐中	-11.4259
六分口徑	-11.4259
雜記	-11.426
右調	-11.4267
門户	-11.427
璆	-11.4273
文昌	-11.4273
真楷	-11.4274
簟	-11.4274
箋烏絲闌本	-11.4276
將仕郎	-11.4276
影落	-11.4277
隘	-11.4277
陶宗儀	-11.4277
轄	-11.4279
琉璃	-11.4279
外錄珊瑚網云	-11.4279
詐	-11.4279
垕	-11.4279
縟	-11.428
見寄	-11.428
罵	-11.428
属	-11.4281
嬴	-11.4281
廞	-11.4281
邜	-11.4281
碌碌	-11.4281
翰林學士承㫖	-11.4282
恂	-11.4282
千頃	-11.4282
袁昻	-11.4282
𡨕	-11.4283
有感於斯文	-11.4283
擣	-11.4284
嚢	-11.4285
皂	-11.4285
鳶	-11.4285
意在筆先	-11.4285
麻姑	-11.4287
素絹本著色畫欵云	-11.4287
无咎	-11.4287
矗	-11.4288
箧	-11.4288
陸叔平	-11.4288
甫田集	-11.4288
仄	-11.4288
讌	-11.4289
攫	-11.429
汩	-11.429
殆盡	-11.4291
溪流	-11.4291
廌	-11.4292
漁樂圖	-11.4293
猗歟	-11.4293
彈琴	-11.4293
昭道	-11.4293
娃	-11.4294
藝林	-11.4296
宣政	-11.4296
善墨竹	-11.4296
辟邪	-11.4296
四十二	-11.4297
遣人	-11.4297
盈盈	-11.4297
流涕	-11.4297
蜼	-11.4297
當是時	-11.4299
唐岱	-11.4299
蕭森	-11.4301
孔廟	-11.4302
閒情	-11.4303
蹤跡	-11.4304
但知	-11.4304
舉止	-11.4307
蔡有鄰	-11.431
招隠	-11.431
宗炳	-11.4313
魏志	-11.4315
髙房山	-11.4315
智果	-11.4317
饒州	-11.4317
計三十	-11.4318
八分口徑	-11.4318
宗即位	-11.4319
凛然	-11.4319
引雛	-11.4319
秋興	-11.4319
箋高	-11.432
杜牧	-11.432
寳愛	-11.4321
小幀	-11.4327
長夏	-11.4329
是編	-11.4331
轉運	-11.4332
勁節	-11.4332
永康	-11.4333
金谷	-11.4333
宣和間	-11.4334
白麻紙	-11.434
焦山	-11.4342
冰雪	-11.4344
木落	-11.4344
長夀	-11.4346
以能書	-11.4346
借勢	-11.4346
城縣	-11.4348
往時	-11.435
水禽	-11.435
屈原	-11.4351
宋劉松年	-11.4352
五十九	-11.4352
楊慎	-11.4356
畫贊	-11.4358
檢法	-11.4358
博識	-11.436
孤舟	-11.436
蜀主	-11.436
者往往	-11.4361
墓志	-11.4372
年五十	-11.4373
獻王	-11.4377
原父	-11.4377
朱文公	-11.4378
殆是	-11.4379
湛然	-11.4382
世守	-11.4389
𤣥妙	-11.4396
壯觀	-11.4399
騎馬	-11.4409
登第	-11.441
奉母	-11.442
石翁	-11.4428
左角	-11.443
著述	-11.4432
杜本	-11.4434
詩意圖	-11.4443
晉魏	-11.4448
潛心	-11.4448
要是	-11.4449
先聖	-11.4449
世忠	-11.4451
尺素	-11.4451
鵝圖	-11.4456
刑部	-11.4457
香光	-11.4457
重修宣和博古圖卷	-11.4458
蟠螭	-11.4459
呉道𤣥	-11.4462
嬋娟	-11.4463
薛尚功	-11.4464
丿	-11.4464
㾗	-11.4464
隼	-11.4464
月十五日敬書一洋箋本墨書欵識云康	-11.4465
税	-11.4465
狩	-11.4466
鄭法士	-11.4466
嵌	-11.4466
工八分	-11.4467
學力	-11.4467
周之冕	-11.4467
髭	-11.4467
造其極	-11.4467
瓦礫	-11.4468
惟恐	-11.4468
芻	-11.4468
哦	-11.4468
荻	-11.4469
吻	-11.4469
郭畀	-11.4469
唐書藝文志	-11.4469
瀋	-11.4469
寤	-11.447
渥洼	-11.447
粥	-11.4471
蔭	-11.4471
皇帝諱	-11.4471
孫克𢎞	-11.4472
山水宗	-11.4472
月十四日	-11.4472
所宜	-11.4472
鷗鷺	-11.4473
兵部侍郎	-11.4473
蘇才翁	-11.4474
檐	-11.4474
服膺	-11.4474
若水軒	-11.4474
開府儀同三司	-11.4474
厲歸真	-11.4475
赦	-11.4475
一株	-11.4476
丁雲鵬	-11.4476
艮	-11.4476
七言律	-11.4477
張南本	-11.4477
佺	-11.4477
天姿	-11.4477
李衎	-11.4478
缶	-11.4478
中興頌	-11.4478
劉珏	-11.4478
墨林快事	-11.4479
荆州刺史	-11.4479
張九齡	-11.4482
鬱鬱	-11.4482
林椿	-11.4484
庶㡬	-11.4484
姑射	-11.4487
舊唐書本傳	-11.4487
惟寅	-11.449
完菴	-11.4493
淨土	-11.4495
贈太師	-11.4497
蟲篆	-11.4498
幅髙一尺	-11.4502
趙呉興	-11.4502
綱常	-11.4503
嘗從	-11.4514
徑一尺	-11.4514
賞鑑	-11.4515
二十三年	-11.4517
進呈	-11.4518
八十一	-11.4518
張懐瓘云	-11.4518
神功	-11.4521
福建	-11.4523
王僧䖍云	-11.4525
圖明沈周	-11.4525
嗜好	-11.4525
皇明	-11.4526
氷雪	-11.4526
長四尺	-11.4527
内臣	-11.4528
相傳為	-11.453
赤松	-11.4532
天聖	-11.4535
謹封	-11.4537
文雅	-11.4547
釋智	-11.4548
仲蔚	-11.4549
蘭臺	-11.4552
短卷	-11.4552
紅葉	-11.4553
盡其妙	-11.4557
大夫士	-11.4557
包山	-11.456
簡古	-11.456
石勒	-11.4563
蒼勁	-11.4566
固辭	-11.4567
年月日	-11.4568
青松	-11.457
遥山	-11.4573
祖父	-11.4576
三十三	-11.4577
始興	-11.4579
孫權	-11.4581
史㑹要	-11.4583
七八	-11.4585
雲錦	-11.4591
王羲之頓首	-11.4591
太過	-11.4591
汝州	-11.4593
定國	-11.4594
王褒	-11.4599
興祖	-11.4603
召見	-11.4607
未有不	-11.4612
意匠	-11.4612
來儀	-11.4613
思恭	-11.4616
恭惟	-11.4616
此巻	-11.462
得此帖	-11.4622
斝	-11.4624
萬狀	-11.4626
靈石	-11.4626
風動	-11.4626
持節	-11.4627
史游	-11.463
諡忠	-11.4636
疆	-11.4639
高宗皇帝	-11.464
青緑山水	-11.4646
硯山	-11.4648
尚書右僕射	-11.465
篔簹	-11.465
屋壁	-11.465
駱	-11.465
燬	-11.465
吼	-11.465
范曄	-11.4652
等語	-11.4652
駛	-11.4653
貯乾清宫	-11.4653
穗	-11.4654
建中靖國	-11.4654
厠	-11.4654
塚	-11.4654
賺	-11.4656
贏	-11.4656
逖	-11.4656
緗	-11.4656
綘	-11.4656
忿	-11.4657
嘲	-11.4658
鎻	-11.4659
虺	-11.4659
隕	-11.466
呉仲圭	-11.4661
顫	-11.4661
採芝	-11.4661
儒學提舉	-11.4661
毗陵	-11.4661
墀	-11.4661
数	-11.4662
溪頭	-11.4662
孔彰	-11.4662
懈	-11.4662
沁	-11.4662
蚓	-11.4663
虎豹	-11.4663
浚儀	-11.4664
罅	-11.4665
墨藪	-11.4665
白陽山人	-11.4666
樞密院	-11.4666
准	-11.4666
書小史	-11.4666
燄	-11.4667
元賞	-11.4672
人工畫山水	-11.4674
錦繡	-11.4674
威儀	-11.4675
禽獸	-11.4676
浙西	-11.4679
斯道	-11.4681
縉雲	-11.4683
烟霧	-11.4684
肆筆	-11.4685
浣花	-11.4687
龔開	-11.4687
精思	-11.4688
公謹	-11.4689
收蔵	-11.469
八仙	-11.469
豈止	-11.4691
民瞻	-11.4694
徐州	-11.4695
篆體	-11.4696
幾年	-11.4697
希夷	-11.4699
烟嵐	-11.47
應制	-11.4701
三印又	-11.4705
太湖石	-11.4706
旬日	-11.4706
手摹	-11.4706
月廿二日	-11.4708
封禪	-11.4708
大司馬	-11.4711
憶舊	-11.4714
展觀	-11.4717
嘉興人	-11.4719
第十二	-11.4723
度越	-11.4724
歲寒	-11.473
祠堂	-11.4732
持去	-11.4734
松隂	-11.4738
各有所	-11.4739
蟬雀	-11.474
早嵗	-11.4742
悦生	-11.4742
等跋	-11.4742
第十三	-11.4744
流便	-11.4747
嚴重	-11.4749
忘歸	-11.475
曲盡其	-11.4752
恭和	-11.4759
行書十	-11.4767
可玩	-11.4769
幾度	-11.4774
平湖	-11.4778
唐褚遂良	-11.4779
幽州	-11.4783
延平	-11.4789
侍臣	-11.4799
孤松	-11.4801
明陳淳	-11.4804
八面	-11.4808
叔平	-11.4809
狂草	-11.481
擢第	-11.4814
頓首上	-11.4814
楷書款識云	-11.4814
隸草	-11.4814
妙蹟	-11.4817
荔	-11.4822
形質	-11.4824
萬萬	-11.4825
遂昌	-11.4835
貞元中	-11.4835
顔氏	-11.4838
蘭石	-11.4838
拳拳	-11.4838
然後知	-11.484
悌	-11.4841
如來像	-11.4842
容一斗	-11.4843
鎬	-11.4843
蕭子良	-11.4844
寥廓	-11.4844
趙令穰	-11.4846
澆	-11.4847
煒	-11.4847
圯	-11.4847
朝奉郎	-11.4847
薦季直表	-11.4847
新婦	-11.4848
戮	-11.4848
曹不興	-11.4848
勺	-11.4848
詹氏小辨	-11.4848
孫尚子	-11.4848
欽定四庫全書石渠寶笈卷	-11.4849
綦	-11.4849
椎	-11.4849
蹊	-11.4849
勾龍爽	-11.4849
謝時臣	-11.4849
像贊	-11.485
殉	-11.485
一尺五寸	-11.4851
騏驥	-11.4851
滚	-11.4851
坰	-11.4851
嫡	-11.4851
㵼	-11.4851
矚	-11.4851
工部	-11.4851
麝	-11.4851
饋	-11.4851
菰	-11.4851
籃	-11.4851
跌宕	-11.4852
住山	-11.4853
雜帖	-11.4853
後隔水押縫有	-11.4853
太平興國	-11.4853
盧楞伽	-11.4854
琅邪	-11.4854
纍纍	-11.4854
塋	-11.4855
龍興寺	-11.4856
漁陽	-11.4856
余既	-11.4857
暄	-11.4857
遐想	-11.4857
出師頌	-11.4858
汗漫	-11.4859
偃蹇	-11.4862
道園學古録	-11.4863
睢陽	-11.4864
伯駒	-11.4864
盤桓	-11.4865
少林寺	-11.4866
纎毫	-11.4867
教諭	-11.4868
陶潛	-11.4873
兖州	-11.4879
戲筆	-11.488
晉明帝	-11.488
度支	-11.4883
明王紱	-11.4884
聖祖仁皇帝書	-11.4886
隱隱	-11.4889
重二百	-11.4891
端倪	-11.4891
婦女	-11.4893
呉氏	-11.4897
鍾陵	-11.4897
至正二年	-11.4898
也今觀	-11.49
吳興人	-11.4903
拈出	-11.4904
光堯	-11.4904
玉蘭	-11.4905
瞻望	-11.4906
藥苖	-11.4906
不苟	-11.4906
武平	-11.4906
番陽	-11.4909
具足	-11.4911
篤好	-11.4911
髙宗題	-11.4912
世系	-11.4915
四十五	-11.4917
谷口	-11.4919
順帝	-11.4922
玉峰	-11.4922
妙天下	-11.4923
獨釣	-11.4928
桃源圖	-11.4931
尤好	-11.4935
寺記	-11.4937
永平	-11.4942
既久	-11.4943
安期	-11.4944
所推	-11.495
州都督	-11.495
幼安	-11.4951
至正廿	-11.4952
寳章	-11.4965
豐城	-11.4965
性好	-11.4967
未㡬	-11.4967
此册	-11.497
顔真卿書	-11.4974
以畫名	-11.4974
項墨林	-11.4982
究其	-11.4982
雙鶴	-11.4983
凝神	-11.4984
數尺	-11.4986
文靖	-11.4988
定州	-11.499
甚妙	-11.4991
經歴	-11.4995
横幅	-11.5
爭先	-11.5003
造次	-11.5003
無奈	-11.5015
題籖	-11.5015
道園	-11.5018
紱	-11.502
手詔	-11.5021
天后	-11.5027
從兄	-11.5028
璲	-11.5031
識其後	-11.5032
夏㫤	-11.5033
偓	-11.5034
極佳	-11.5036
斡	-11.5039
擡	-11.5039
玄	-11.5039
朝散大夫	-11.504
巍	-11.5041
妥	-11.5041
嵯峨	-11.5041
肥痩	-11.5042
𢎞文館	-11.5042
糟	-11.5042
淄	-11.5043
淺絳色	-11.5043
莒	-11.5043
楊維禎	-11.5043
裊	-11.5044
涸	-11.5044
閴	-11.5044
王知敬	-11.5044
莊周	-11.5044
璫	-11.5045
睫	-11.5046
冐	-11.5046
薤	-11.5046
唳	-11.5046
千嵗	-11.5047
芷	-11.5047
勗	-11.5047
圓光	-11.5047
驤	-11.5047
宋馬逺	-11.5047
觔	-11.5047
頷	-11.5047
秉燭	-11.5047
稅	-11.5047
項又新	-11.5048
崔嵬	-11.5049
爼	-11.5049
棨	-11.5049
滕昌祐	-11.505
嚼	-11.5052
精鑒	-11.5053
何啻	-11.5054
青蓮	-11.5054
米芾畫史	-11.5055
全卿	-11.5055
下有乾隆宸翰幾暇臨池二璽	-11.5056
軒冕	-11.5056
甲科	-11.5056
鋒芒	-11.5056
荼	-11.5056
紹興小璽	-11.5057
攻媿集	-11.5058
御史大夫	-11.5059
天下第一	-11.5059
番族	-11.5066
茄菜	-11.507
兒童	-11.5072
文翰	-11.5073
羽翼	-11.5075
一尺四寸	-11.5076
陜西	-11.5077
展閲	-11.5078
吳縣人	-11.5078
第十一	-11.5082
並驅	-11.5084
松柏	-11.5086
蒼潤	-11.5086
放浪	-11.5087
翠羽	-11.5092
縣尹	-11.5095
承恩	-11.51
伏想	-11.51
唐𤣥宗	-11.5104
季夏	-11.5106
第三子	-11.5108
伯夷	-11.511
丹誠	-11.5115
堯臣	-11.5117
俗姓	-11.5117
變而為	-11.5118
繭紙	-11.5118
蘭陵	-11.5123
墜石	-11.5126
銘六字	-11.5131
寳繪	-11.5132
大小篆	-11.5133
備盡	-11.5138
臨海	-11.5139
來禽	-11.5139
有存者	-11.5141
商器	-11.5148
湖廣	-11.5151
廣二丈	-11.5152
頗類	-11.5158
莫辨	-11.5158
大槩	-11.5163
已亡	-11.5165
流離	-11.5166
髙潔	-11.5166
閏月	-11.5169
以相示	-11.517
冬十一月	-11.5179
不知何許人也	-11.5183
豪奪	-11.5183
河内	-11.5186
四十九	-11.5188
南軒	-11.5193
縱筆	-11.5195
緻	-11.5196
散失	-11.5199
隐居	-11.5204
數種	-11.5207
張融	-11.521
書屋圖	-11.5211
番馬	-11.5216
永叔	-11.5218
王戎	-11.5218
賛曰	-11.5219
不顯	-11.5219
紅樹	-11.5219
細玩	-11.5219
嗟夫	-11.522
論者謂	-11.5222
風煙	-11.5227
尤難	-11.5227
修國史	-11.5235
題其上	-11.5236
箔	-11.5239
題額	-11.5239
乾隆宸翰一璽	-11.5239
蓴	-11.524
荃	-11.524
容一升	-11.5241
虵	-11.5243
薜	-11.5243
鑰	-11.5244
陳仲醇	-11.5244
儂	-11.5244
佻	-11.5245
王振鵬	-11.5245
嘏	-11.5245
媪	-11.5245
韓宗伯	-11.5246
哂	-11.5246
撰正書無姓名	-11.5246
枯木竹石	-11.5246
慤	-11.5246
三嘆	-11.5247
烜赫	-11.5247
晝錦堂	-11.5247
筆精墨妙	-11.5247
尅	-11.5247
趙榮禄	-11.5247
賜金帶	-11.5247
麋鹿	-11.5248
芹	-11.5248
琅	-11.5248
繚	-11.5249
鄧椿	-11.5249
梁太清	-11.5249
檣	-11.5249
撃	-11.525
頫	-11.525
侮	-11.5251
臘月	-11.5251
秦少游	-11.5251
兵燹	-11.5252
虎賁	-11.5252
䂖	-11.5252
墨蘭	-11.5255
䄂	-11.5255
祉	-11.5256
歆	-11.5256
剥落	-11.5257
徽宗皇帝	-11.5258
傾倒	-11.526
魯國	-11.5261
分隸	-11.5261
有生氣	-11.5262
玉壺	-11.5262
太沖	-11.5263
士君子	-11.5265
馬蹄	-11.5266
奎章	-11.5267
白樂天	-11.527
潁川人	-11.5271
烏程	-11.5275
十倍	-11.5282
杯酒	-11.5283
孫皓	-11.5283
復何如	-11.5283
嚴陵	-11.5284
柱國	-11.5285
牆壁	-11.5287
文靖公	-11.5287
世其家	-11.529
腹圍一尺八寸	-11.5291
陳迹	-11.5303
從申	-11.5303
漢武帝	-11.5304
毎幅	-11.5305
亦可以	-11.5307
冠軍	-11.5309
陸羽	-11.5317
無媿	-11.532
陸離	-11.5324
芝草	-11.5325
一印拖尾	-11.5327
絶俗	-11.533
永安	-11.533
十九首	-11.5331
無涯	-11.5334
磁青箋本泥金	-11.5339
仙館	-11.5345
備考	-11.5346
朝暮	-11.5347
景仁	-11.5353
非其人	-11.5359
得其意	-11.5361
長二尺	-11.537
仲姬	-11.5372
馳情	-11.5389
何嘗	-11.5389
世罕	-11.539
鸞鳳	-11.5403
夀平	-11.5408
四十一	-11.5408
工草𨽻	-11.5408
益信	-11.5416
孔氏	-11.542
蘇文忠	-11.5428
巧思	-11.5428
秋浦	-11.5435
酉室	-11.5439
秘書監	-11.5443
巍巍	-11.5444
銛	-11.5444
畸	-11.5444
卭	-11.5444
鹿脯帖	-11.5445
珙	-11.5445
太子少師	-11.5446
徐鍇	-11.5446
滄溟	-11.5446
揣	-11.5446
磅礴	-11.5446
弃	-11.5447
瀝	-11.5447
駙馬	-11.5447
諸佛	-11.5447
工部侍郎	-11.5448
前副頁	-11.5448
璩	-11.5448
䧟	-11.5449
邳	-11.5449
磧	-11.5449
藐	-11.5449
齪	-11.5449
嗚	-11.5449
央	-11.5449
昺	-11.545
飭	-11.545
塗抹	-11.5451
拊	-11.5451
俚	-11.5451
渺渺	-11.5452
董元宰	-11.5452
秣陵	-11.5452
顧野王	-11.5452
洙	-11.5453
蔡中郎	-11.5453
徐嶠之	-11.5453
崔寔	-11.5453
鎰	-11.5453
艤	-11.5453
鄔	-11.5454
并州	-11.5454
搗	-11.5455
申屠	-11.5456
磐	-11.5456
忤	-11.5456
婉媚	-11.5456
蓀	-11.5457
宋箋本墨畫	-11.5457
煤	-11.5457
陸師道	-11.5457
藥苗	-11.5457
周砥	-11.5458
工畫佛道人物	-11.5458
帯	-11.5458
剛柔	-11.5459
僵	-11.5459
大中祥符	-11.5459
廿九日	-11.5459
閃	-11.5459
黄居寀	-11.546
棃	-11.5462
戴文進	-11.5462
梵隆	-11.5462
貍	-11.5464
古拙	-11.5465
善正書	-11.5465
忠肅	-11.5469
胡儼	-11.547
御史臺	-11.5471
闊二寸	-11.5473
宛陵	-11.5473
老米	-11.5473
御筆臨	-11.5474
鷯	-11.5479
放牧	-11.548
雀竹	-11.548
陳郡人	-11.5481
睡起	-11.5482
十一行	-11.5482
竹帛	-11.5482
學士院	-11.5484
菴集	-11.5484
忘機	-11.5486
十四日	-11.5488
徙居	-11.549
溧陽	-11.5492
少好學	-11.5496
二印押縫有	-11.5497
王荆公	-11.5499
四十四	-11.55
漢章帝	-11.5501
魏鍾繇	-11.5502
巨幅	-11.5504
曾孫	-11.5505
渡海	-11.5507
眼底	-11.5511
張外史	-11.5516
骨格	-11.5517
篇章	-11.5521
元倪瓉	-11.5522
蘇米	-11.553
羣峯	-11.553
此所以	-11.5533
絶佳	-11.5533
楷隸	-11.5537
形模	-11.5539
幽谷	-11.5546
得意筆也	-11.5548
元帥	-11.555
重四斤	-11.5552
丁香	-11.5553
曽入	-11.5559
并跋	-11.5563
精采	-11.5571
緑葉	-11.5572
師董源	-11.5579
縱觀	-11.5585
經典	-11.5588
穆宗	-11.5591
屋漏	-11.5601
周密	-11.5605
㸃㸃	-11.5617
自敘	-11.5623
羣仙	-11.5635
兩京	-11.5636
棣	-11.5643
諧聲	-11.5645
絶代	-11.5648
囚	-11.5649
筯	-11.5649
莆陽	-11.5651
盲	-11.5652
癯	-11.5652
霈	-11.5652
琨	-11.5653
颯颯	-11.5653
王紹宗	-11.5654
曹知白	-11.5654
王紱	-11.5654
苓	-11.5655
聾	-11.5655
攄	-11.5655
跪	-11.5655
詁	-11.5655
邢侗	-11.5655
八駿圖	-11.5655
謗	-11.5656
菁	-11.5656
愆	-11.5656
楊士竒	-11.5657
天尊像	-11.5657
孕	-11.5657
詒	-11.5657
浥	-11.5657
杼	-11.5658
焯	-11.5658
畫羅漢圖一卷	-11.5659
悍	-11.5659
泄	-11.5659
沓	-11.5659
租	-11.5659
外錄書畫舫云	-11.5659
汰	-11.5659
蒼巖子	-11.566
療	-11.566
卜築	-11.566
腆	-11.5661
茅茨	-11.5661
撼	-11.5661
瑚	-11.5661
孫䖍禮	-11.5661
二印軸髙	-11.5662
灌木	-11.5662
糜	-11.5662
蹴	-11.5662
餌	-11.5662
惰	-11.5663
擢進士第	-11.5663
宀	-11.5663
卅	-11.5663
碧梧	-11.5663
錢惟善	-11.5663
屈伸	-11.5665
凛凛	-11.5666
千文一卷	-11.5666
名賢遺墨	-11.5667
秘書省	-11.5669
儁	-11.567
黄鸝	-11.5672
閩畫記	-11.5673
括蒼	-11.5673
卓歇	-11.5673
古蹟	-11.5674
羃	-11.5674
轉摺	-11.5674
蓼岸	-11.5676
酷似	-11.5677
九曜	-11.5678
東林寺	-11.5678
學李成	-11.5679
可擬	-11.5679
真蹟無疑	-11.568
雄健	-11.568
徐霖	-11.5681
情狀	-11.5682
太樸	-11.5682
芝英	-11.5684
重複	-11.5684
父辛	-11.5684
貴妃	-11.5684
董展	-11.5684
模楷	-11.5684
珍襲	-11.5685
真賞齋	-11.5686
生涯	-11.5686
宋仲温	-11.5688
把酒	-11.5692
品藻	-11.5694
勁利	-11.5699
十六兩	-11.5699
邇來	-11.57
明祝允明	-11.5702
丘園	-11.5704
提要	-11.5704
亂離	-11.5707
今見具姓名行	-11.5708
王鐸	-11.5715
伏波	-11.5718
太康	-11.5723
編次	-11.5724
永保	-11.5724
引首御題	-11.5725
乘興	-11.5725
耶律	-11.5725
破墨	-11.5726
滄江	-11.5728
進士官至	-11.5729
予嘗見	-11.5731
西川	-11.5731
入妙品	-11.5732
二百餘	-11.5734
端嚴	-11.5738
禹功	-11.5749
茂才	-11.5749
鏡光	-11.575
叔夜	-11.5759
有流有鋬	-11.5765
司馬光	-11.5765
又次之	-11.5765
韻勝	-11.5768
裝背	-11.5772
數千里	-11.5773
在紙上	-11.5775
林麓	-11.5778
潭州	-11.5779
位至	-11.5781
山腰	-11.5785
離合	-11.5787
腹圍一尺七寸	-11.5793
今見具姓名	-11.5798
始末	-11.5805
登樓	-11.5808
薛氏	-11.5808
孟冬	-11.581
竒峰	-11.5815
鍾銘	-11.5816
北固	-11.582
豈必	-11.5821
宋郭忠恕	-11.5822
汴人	-11.5828
仁祖	-11.5833
工巧	-11.5837
為人所	-11.5839
於形似	-11.5851
不自知	-11.5851
翌	-11.5852
飛瀑	-11.5855
玊	-11.5857
忠定	-11.5858
野鴨	-11.5858
蓊	-11.5861
溯	-11.5862
殳	-11.5864
金銀錯	-11.5864
欽定四庫全書秘殿珠林卷	-11.5864
不可勝數	-11.5865
轂	-11.5865
可見矣	-11.5866
垓	-11.5867
列朝人	-11.5867
鎏	-11.5867
滑州	-11.5868
鑠	-11.5868
將軍㑹稽内史	-11.5868
饌	-11.5868
憫	-11.5869
吠	-11.5869
櫻	-11.5869
漣漪	-11.5869
素絹本著色畫款署	-11.587
唐書宰相世系表	-11.587
潰	-11.587
抜	-11.5871
瀰	-11.5871
姜白石	-11.5871
抗衡	-11.5871
洪适	-11.5871
塾	-11.5871
殖	-11.5871
耄	-11.5872
項墨林鑒賞章	-11.5873
粱	-11.5873
閻次平	-11.5874
衾	-11.5874
蟠桃	-11.5874
皎皎	-11.5875
㓂	-11.5875
二十八宿	-11.5875
枯藤	-11.5875
超軼	-11.5876
噉	-11.5876
楊妹子	-11.5877
阡	-11.5877
蠡	-11.5878
丑按	-11.5878
水晶宫	-11.5878
斤四兩	-11.5878
騾	-11.5879
霹	-11.5879
范成大	-11.588
狥	-11.588
尺寸	-11.5882
貞伯	-11.5882
楊循吉	-11.5884
雙鉤	-11.5884
婺州	-11.5885
顧盼	-11.5885
懸腕	-11.5886
庭珪	-11.5886
單條	-11.5887
羅綺	-11.5888
方絹本著色	-11.5889
與他	-11.5892
華原	-11.5892
剛勁	-11.5893
數十百	-11.5895
武宗元	-11.5896
退宻	-11.5898
宋儋	-11.59
東坡居士	-11.5901
二十三日	-11.5902
禊序	-11.5903
旭素	-11.5904
累月	-11.5905
延夀	-11.5906
宋迪	-11.5907
五季	-11.5909
天寳中	-11.591
此幀	-11.592
夷齊	-11.5926
皇朝	-11.5927
隻字	-11.5929
能辨之	-11.593
仲瑛	-11.5932
西蜀	-11.5934
彞齋	-11.5936
仁智	-11.5936
史皇	-11.5942
安撫	-11.5947
素絹本著色畫款識云	-11.5948
稚子	-11.5951
之子官至	-11.5954
二十一日	-11.5956
官爵	-11.596
蕭誠	-11.596
淺色	-11.5962
戴勝	-11.5969
把筆	-11.5971
千峰	-11.5972
脱去	-11.5984
足跡	-11.5987
西施	-11.5991
不失其	-11.5996
淡色	-11.5998
羣賢	-11.6002
彞器	-11.6002
最精	-11.6008
張彦逺云	-11.602
南邨	-11.6049
仁義	-11.6051
蘭陵人	-11.6053
斚	-11.6074
三馬圖	-11.6077
伶	-11.6079
昕	-11.608
縠	-11.608
顯宗	-11.6081
迢	-11.6081
江寧府志	-11.6081
伯施	-11.6082
李含光	-11.6082
一印軸髙三尺	-11.6082
撓	-11.6084
賒	-11.6084
衛覬	-11.6084
懦	-11.6084
瘞	-11.6085
廨	-11.6086
折釵股	-11.6086
餘姚	-11.6087
初一日敬書一墨箋本泥金書欵識云康	-11.6087
啖	-11.6087
彷	-11.6087
章友直	-11.6088
中散大夫	-11.6088
儗	-11.6088
韭	-11.609
宣州	-11.609
汗血	-11.6091
濟陽	-11.6092
漓	-11.6092
醴	-11.6093
書畫題跋記	-11.6094
傅彩	-11.6095
歸田賦	-11.6095
善畫竹	-11.6095
之亞也	-11.6095
陳善杭州	-11.6095
承議郎	-11.6096
孝亷	-11.6096
茒屋	-11.6096
喇	-11.6097
諸葛亮	-11.6097
㕘軍	-11.6097
鶠	-11.6097
侍講學士	-11.6098
艾宣	-11.6103
雙螭	-11.6103
簡文帝	-11.6104
圉人	-11.6104
寄興	-11.6104
林和靖	-11.6106
𤣥齡	-11.6107
翌日	-11.6108
辛夷	-11.611
山谷老人	-11.611
女孝經	-11.611
范瓊	-11.6111
植芳	-11.6112
王鏊	-11.6113
半印存	-11.6115
酒醒	-11.6115
歡喜	-11.6118
蒙恩	-11.6118
只尺	-11.6119
清閟	-11.6121
屈折	-11.6121
顯晦	-11.6123
末幅款識云	-11.6127
於世者	-11.6133
東風吹	-11.6134
楞嚴經	-11.6137
執政	-11.6143
博陵	-11.6143
揮翰	-11.6146
鸂鶒圖一	-11.6149
碑碣	-11.615
資政	-11.6152
朱謀	-11.6152
南嶽	-11.6159
建昌	-11.6163
相上下	-11.6164
獐圖	-11.6172
潭帖	-11.6175
脫去	-11.6175
宋米友仁	-11.6184
滿眼	-11.6185
烟江	-11.6195
互相	-11.6197
唐周昉	-11.6199
田舍	-11.6207
淳化帖	-11.6208
餘姚人	-11.6223
六十三	-11.6225
茅亭	-11.6227
董氏	-11.623
便面	-11.6231
賞鑒家	-11.6232
韻度	-11.6234
趙孟	-11.6254
五采	-11.6256
翰墨志	-11.6261
朝鮮	-11.6268
牧馬圖	-11.6271
皇慶	-11.6275
歐陽文忠	-11.6286
唐李陽冰	-11.6289
九寸九分	-11.6291
叔達	-11.6299
流輩	-11.6299
﨑	-11.6301
渲	-11.6302
攲	-11.6303
叫	-11.6304
紡	-11.6304
伋	-11.6304
燼	-11.6305
瀼	-11.6306
群	-11.6307
撞	-11.6307
狸	-11.6307
鏗	-11.6308
燎	-11.6308
懽	-11.6308
趂	-11.6309
榴花	-11.6309
儕	-11.6309
蘸	-11.6309
宣和御府	-11.6309
䘚	-11.6309
喬簣成	-11.6309
貟外郎	-11.631
虎踞	-11.631
蘇漢臣	-11.631
杜少陵	-11.631
府長史	-11.631
鄜	-11.6311
亳	-11.6311
金粟箋本	-11.6311
握管	-11.6311
班班	-11.6311
滂	-11.6311
誄	-11.6312
斟	-11.6312
悄	-11.6312
顧凱之	-11.6312
雲烟過眼録	-11.6313
典型	-11.6313
牡丹圖一	-11.6314
硃	-11.6314
按此條已	-11.6314
郭恕先	-11.6314
搦	-11.6315
歘	-11.6315
娜	-11.6315
藁草	-11.6315
牝	-11.6315
腦	-11.6315
茄	-11.6315
瞥	-11.6315
瀘	-11.6316
虚朗齋	-11.6316
蕉林居士	-11.6317
覃思	-11.6317
倭	-11.6317
濠梁	-11.6318
喪亂	-11.6318
蒼梧	-11.632
散落人間	-11.632
綽約	-11.6321
哈	-11.6321
陶九成	-11.6321
楓葉	-11.6322
唐棣	-11.6323
觜	-11.6324
宣武	-11.6324
素絹本著色畫宋人	-11.6325
沈粲	-11.6325
飛鴻	-11.6326
淹留	-11.6327
孫太古	-11.6327
十一曜	-11.6328
呉興趙孟頫	-11.6332
傅染	-11.6332
别駕	-11.6333
徐渭	-11.6334
夙夜	-11.6334
山水并題	-11.6335
熈寧	-11.6336
六分重	-11.6337
鄞人	-11.6338
湖灘	-11.6341
遥岑	-11.6341
鷯子圖	-11.6342
專工	-11.6344
漁隱	-11.6344
煙嵐	-11.6349
毫末	-11.6351
散騎	-11.6354
歐陽𤣥	-11.6356
波浪	-11.636
鑑賞	-11.6363
草創	-11.6368
神農	-11.6368
坡老	-11.637
長五尺	-11.6371
印諸印又	-11.6372
虎兒	-11.6377
譬如	-11.6378
楓林	-11.6384
光彩	-11.6386
景祐	-11.6387
米芾書史	-11.6389
合浦	-11.6394
枯樹	-11.6394
思慮	-11.64
遼東	-11.6409
存亡	-11.6421
一百五十	-11.6428
皆不及	-11.6437
墨林項元汴	-11.6441
於是乎	-11.6444
䕶法	-11.6458
被召	-11.6483
所存者	-11.6485
共二十	-11.6498
初一日	-11.6502
武侯	-11.6507
翬	-11.6509
名於時	-11.6513
鄞	-11.6515
匕	-11.6515
書畵舫云	-11.6525
鐃	-11.6526
薌	-11.6526
素箋本墨畫款題云	-11.6529
甜	-11.6529
卓犖	-11.6529
天馬賦	-11.653
嘔	-11.653
今見具姓名草書	-11.6531
濛濛	-11.6531
汝南公主	-11.6532
瘁	-11.6535
愕	-11.6535
帑	-11.6536
耻	-11.6536
个	-11.6536
塡	-11.6536
雞犬	-11.6536
藳	-11.6536
緱	-11.6537
推篷	-11.6537
炭	-11.6537
騖	-11.6537
坂	-11.6537
神品上上	-11.6537
繙	-11.6537
者甚衆	-11.6538
霓	-11.6538
趙明誠	-11.6538
髙八寸五分	-11.6538
縳	-11.6539
癸夘	-11.6539
虯	-11.6539
歉	-11.6539
門下侍郎	-11.6539
柑	-11.654
米海嶽	-11.654
陳白陽	-11.654
灞	-11.6541
醴泉銘	-11.6541
蒼巗子	-11.6541
閉户	-11.6541
鸜鵒	-11.6541
素絹本著色畫欵識云	-11.6541
緝熙	-11.6541
丹丘柯九思	-11.6541
水晶	-11.6541
國子博士	-11.6541
木瓜	-11.6541
鱸魚	-11.6542
宋宣獻	-11.6542
隲	-11.6542
胸臆	-11.6543
藿	-11.6543
矯矯	-11.6543
些	-11.6543
太子少保	-11.6543
鋩	-11.6543
涿	-11.6544
縈紆	-11.6544
磨崖	-11.6545
雝	-11.6545
駞	-11.6545
大癡道人	-11.6545
俛仰	-11.6546
莫雲卿	-11.6547
薩	-11.6548
東里續集	-11.6548
連綿	-11.6548
幕府	-11.6549
瑪瑙	-11.6549
凝式	-11.655
穆天子	-11.655
雲麾將軍	-11.6551
書簡帖	-11.6552
森嚴	-11.6552
晉王獻之	-11.6553
峭壁	-11.6553
文天祥	-11.6554
紫薇	-11.6554
漱	-11.6554
後赤壁賦	-11.6557
几席	-11.6561
瞻仰	-11.6562
祠堂記	-11.6563
結廬	-11.6564
書畫舫今	-11.6565
明董其昌臨	-11.6566
士𢎞	-11.6566
潘氏	-11.6568
渡口	-11.6568
王定國	-11.6569
杜衍	-11.657
仙君像	-11.6573
馬文璧	-11.6573
雷電	-11.6573
助教	-11.6574
裝池	-11.6576
珍愛	-11.6578
楮墨	-11.6579
卓絶	-11.6581
柘條	-11.6582
至正九年	-11.6586
牧放	-11.6588
燕肅	-11.659
第一段	-11.6591
汾陽	-11.6591
囘首	-11.6592
浩歌	-11.6592
彩色	-11.6594
規摹	-11.6595
暗香	-11.6595
元史本傳	-11.6598
典雅	-11.6604
右髙六寸	-11.6606
受業	-11.6606
鳯翔	-11.662
𤣥覽	-11.6621
授中書舍人	-11.6626
後識云	-11.6628
呉越	-11.6629
豪端	-11.6629
三大字	-11.663
摹倣	-11.6631
三分口徑	-11.6637
白鹿	-11.6647
獲覩	-11.6654
印軸髙四尺	-11.6658
後之人	-11.666
紙尾	-11.6673
凡四十	-11.6673
聲譽	-11.6683
霜寒	-11.6686
書七言絶句	-11.6688
董文敏	-11.6691
冬十二月	-11.6693
稍異	-11.6696
歴年	-11.671
眀董其昌	-11.671
熟視	-11.6716
臨黄庭經	-11.6723
可笑也	-11.6728
月二十五日	-11.6729
栁貫	-11.6733
工畫花鳥	-11.6734
煙江	-11.674
錯落	-11.675
晶	-11.6751
斤有半	-11.6753
僦	-11.6754
忘情	-11.6757
濳	-11.6758
颷	-11.6759
蹊逕	-11.6761
琯	-11.6761
觀察使	-11.6761
㫤	-11.6762
董伯仁	-11.6762
靚	-11.6762
譎	-11.6763
韋仲將	-11.6763
淇澳	-11.6763
磚	-11.6764
拄	-11.6764
髙克恭	-11.6765
歐陽永叔	-11.6765
貯御書房	-11.6765
雷霆	-11.6765
畫禪室	-11.6765
嗔	-11.6766
曼倩	-11.6766
頋	-11.6767
𤨏	-11.6767
脅	-11.6767
夣	-11.6767
曹弗興	-11.6767
寃	-11.6768
撚	-11.6768
牧羊圖	-11.6768
嫵媚	-11.6769
竢	-11.6769
疴	-11.6769
术	-11.6769
尚書僕射	-11.6769
瞭	-11.6769
己夘	-11.677
藺	-11.677
盱	-11.677
褁	-11.677
瀟湘八景	-11.677
列朝人書畫	-11.6771
衞瓘	-11.6771
橈	-11.6771
啜	-11.6772
暕	-11.6772
茆屋	-11.6772
太常博士	-11.6772
丹楓	-11.6772
趁	-11.6772
黄子乆	-11.6773
謔	-11.6773
太平公主	-11.6773
徐幼文	-11.6774
賸	-11.6774
濩	-11.6774
豚	-11.6774
㳟	-11.6775
劈	-11.6775
蒋	-11.6775
䋲	-11.6776
孩	-11.6776
嫣	-11.6776
逶迤	-11.6776
不知何時	-11.6777
倣傚	-11.6777
過海羅漢	-11.6777
汾隂	-11.6777
翺	-11.6777
張志和	-11.6778
州府志	-11.6778
紺	-11.6778
屏障	-11.6779
鈐縫	-11.6779
舜欽	-11.678
集賢學士	-11.678
章惇	-11.678
蔬果	-11.6781
今見正書	-11.6781
洩	-11.6781
修篁	-11.6782
孟浩然	-11.6782
侃	-11.6782
悵望	-11.6782
朱存理	-11.6783
啼鳥	-11.6783
喬柯	-11.6784
轉運使	-11.6784
牧童	-11.6785
華嚴經	-11.6787
猿鶴	-11.6792
魏武帝	-11.6792
倡和	-11.6795
唱和	-11.6796
龍圖閣	-11.6796
錢選	-11.6796
元鮮于樞	-11.6798
登科	-11.6803
黄鵠	-11.6809
翰苑	-11.6814
朱繇	-11.682
呉鎮	-11.6822
洞口	-11.6823
照映	-11.6824
犬馬	-11.6825
煙靄	-11.6827
荔子	-11.6828
秀媚	-11.6829
疎影	-11.6833
月二十八日	-11.6833
積翠	-11.6836
幅巾	-11.6838
轉注	-11.6842
王冕	-11.6854
湖海	-11.686
桂陽	-11.6871
薫風	-11.6878
桂花	-11.6893
拘拘	-11.6895
季孟	-11.6895
購藏	-11.6911
撫州	-11.6933
印一印又	-11.6942
廿二日	-11.6949
款識云嘉靖	-11.6954
雲山卷	-11.696
解縉	-11.6968
儼山	-11.6979
嘆息	-11.6981
衆美	-11.6986
河内人	-11.6995
頓首拜	-11.7
李晞古	-11.7
右通盖髙	-11.7001
秪	-11.7001
劉中使帖	-11.7001
酈	-11.7001
𦕈	-11.7001
砧	-11.7001
㛐	-11.7003
汧	-11.7004
玫	-11.7004
抉	-11.7005
罰	-11.7006
鵲華秋色	-11.7006
諄	-11.7006
昩	-11.7006
瞑	-11.7006
長江萬里圖	-11.7006
煮茶	-11.7006
丘文播	-11.7006
宫保世家	-11.7007
矦	-11.7007
扄	-11.7007
右通蓋高六寸	-11.7008
意在筆前	-11.7008
丗	-11.7008
牛戩	-11.7008
祗候	-11.7009
韓晉公	-11.7009
清徳頌	-11.7009
崢嶸	-11.7009
孳	-11.7009
泮	-11.7009
繢	-11.7009
授翰林待詔	-11.7009
蔡端明	-11.7009
悒	-11.701
姚公綬	-11.701
淇園	-11.701
不忍釋手	-11.701
蛾眉	-11.701
頹	-11.701
孽	-11.701
房𤣥齡	-11.7011
吮	-11.7012
錢良右	-11.7012
怏	-11.7012
儆	-11.7013
㽔	-11.7013
嫓	-11.7013
竹杖	-11.7013
㸃睛	-11.7013
巋然	-11.7013
濫觴	-11.7014
慵	-11.7014
李瑋	-11.7014
婺源	-11.7014
王文恪	-11.7015
諸題句	-11.7016
王汝玉	-11.7016
功業	-11.7016
王方慶	-11.7017
秘笈	-11.7017
拂拭	-11.7018
豬	-11.7018
毫芒	-11.7018
雲煙過眼録	-11.7019
經一部	-11.7019
倐忽	-11.7019
扶桑	-11.7019
鑛	-11.702
稜角	-11.702
太清樓	-11.702
造像記	-11.7021
釣磯	-11.7021
落魄	-11.7022
季廸	-11.7022
釣竿	-11.7022
境界	-11.7023
魚躍	-11.7024
竹雀	-11.7024
常熟志	-11.7024
刮去	-11.7028
畫卷上等	-11.7029
乳牛圖	-11.7029
祐陵	-11.703
京洛	-11.7031
汝弼	-11.7033
乾符	-11.7035
金石表	-11.704
趙集賢	-11.7041
下有乾隆宸翰一璽	-11.7043
羽毛	-11.705
錦鷄圖	-11.7053
未詳何	-11.7055
楊妃	-11.7056
甘泉	-11.7058
疎宻	-11.706
遺失	-11.7064
赤城	-11.7065
脱落	-11.7068
歐陽通	-11.707
描法	-11.7071
右高一尺	-11.7072
燦然	-11.7074
天壤	-11.7077
歎服	-11.7078
危素	-11.7078
合璧	-11.708
隆興	-11.7081
征南	-11.7081
寶愛	-11.709
江寜	-11.7097
懷仁	-11.7099
二十四年	-11.7105
裔孫	-11.7105
瘦勁	-11.7111
合為一	-11.7112
壽承	-11.7115
浦城	-11.7121
祕藏	-11.7126
追憶	-11.7128
鶺鴒圖	-11.7146
善筆札	-11.7159
獻之白	-11.7165
莆田人	-11.7173
子京珍秘	-11.7174
數十年	-11.7192
范文正	-11.722
弗能	-11.7223
摇落	-11.7228
皇明書畫史	-11.7233
右髙九寸	-11.7234
箋烏絲䦨本	-11.724
鯤	-11.7241
豳	-11.7241
冽	-11.7242
潢	-11.7243
屋漏痕	-11.7244
巙	-11.7245
軻	-11.7246
豊	-11.7246
䟐	-11.7246
杖藜	-11.7246
耦	-11.7247
孔子廟堂碑	-11.7247
郜	-11.7247
黏	-11.7248
廐	-11.7249
莢	-11.7249
形骸	-11.725
蠲	-11.725
鹵簿	-11.725
一丈二尺	-11.7251
支仲元	-11.7251
覊	-11.7251
皇太后	-11.7252
霰	-11.7253
旌旗	-11.7253
榘	-11.7253
剏	-11.7253
蕕	-11.7254
徇	-11.7254
瘡	-11.7254
溆	-11.7254
顧阿瑛	-11.7254
御筆題籖籖上有乾隆宸翰小璽	-11.7255
扺	-11.7255
拄杖	-11.7255
駑	-11.7255
恍惚	-11.7256
西昇經	-11.7256
滓	-11.7256
馮子振	-11.7256
陸行直	-11.7256
鼒	-11.7257
團扇絹本著色	-11.7257
庖丁	-11.7257
恬致堂集	-11.7259
釋智果	-11.7259
鉛華	-11.7259
僃	-11.726
吳傅朋	-11.726
純緣	-11.726
提刑	-11.7261
劵	-11.7262
肚	-11.7262
尚書右丞	-11.7262
臨淄	-11.7263
九成宫	-11.7263
涎	-11.7263
六研齋	-11.7263
薜荔	-11.7264
曹雲西	-11.7264
憲副	-11.7266
紛紜	-11.7266
内府所藏	-11.7267
䰅	-11.7268
庫庫	-11.7269
袁安卧雪	-11.7269
超邁	-11.7272
衛尉	-11.7273
三分重	-11.7275
供養	-11.7277
晦菴	-11.7278
洪邁	-11.7279
巖壑	-11.7281
孝武帝	-11.7281
幾暇	-11.7281
支離	-11.7282
鍊師	-11.7282
建隆	-11.7286
掛幅	-11.7286
御札	-11.7287
吉祥	-11.729
經筵	-11.7292
彝齋	-11.7292
林逋	-11.7293
野雉	-11.7293
七言絶句	-11.7297
蘇州志	-11.7298
淮隂	-11.7299
不知所在	-11.7316
没骨	-11.7317
御覽	-11.7318
散隸	-11.732
濡墨	-11.7325
何如哉	-11.7331
棃花	-11.7338
未及見	-11.7352
舟楫	-11.7368
工雜畫	-11.7382
金箋本	-11.7384
仙山圖	-11.7387
忠烈	-11.7403
未必能	-11.7408
講堂	-11.7434
無年月	-11.7437
諸印拖尾	-11.7439
潛溪	-11.7463
山水訣	-11.7466
璪	-11.7477
第一册	-11.7486
䛒光	-11.7489
盤車圖	-11.7493
嘻	-11.7493
湄	-11.7494
寫貎	-11.7494
篝燈	-11.7494
孫承澤	-11.7494
鬯	-11.7494
蛾	-11.7494
楚山清曉圖	-11.7495
隰	-11.7496
縞	-11.7496
劎	-11.7496
舶	-11.7496
張孝師	-11.7497
巫峽	-11.7497
賜紫金魚袋	-11.7497
千巖萬壑	-11.7498
賜緋魚袋	-11.7498
羇	-11.7498
姸	-11.7498
涪	-11.7499
謳	-11.7499
金紫光禄大夫	-11.75
祼	-11.75
國子司業	-11.75
陸費墀欽定四庫全書	-11.75
劉穆之	-11.75
曛	-11.7501
槲	-11.7501
肺	-11.7501
胃	-11.7501
淅	-11.7501
旄	-11.7501
苧	-11.7502
膊	-11.7502
弈	-11.7502
堕	-11.7502
櫛	-11.7502
陳郡陽夏人	-11.7503
專精	-11.7503
睥睨	-11.7503
裊裊	-11.7503
搔	-11.7503
蔡明逺	-11.7504
月二十二日	-11.7504
煎茶	-11.7504
曹娥	-11.7505
騎驢	-11.7505
脾	-11.7506
孫叔敖	-11.7506
䆒	-11.7506
涓	-11.7506
陶靖節	-11.7507
簸	-11.7508
㝡	-11.7508
褒貶	-11.7508
瑞應圖	-11.7509
唐六如	-11.751
殿中侍御史	-11.7511
陳文東	-11.7511
宋學士集	-11.7512
懐麓堂	-11.7513
四分口徑	-11.7514
模糊	-11.7515
無斁	-11.7515
祕監	-11.7517
酷好	-11.7517
政和宣和	-11.7517
熙寜	-11.7517
暮靄	-11.7518
千載之下	-11.7518
簡牘	-11.7519
錢穀	-11.752
沈括	-11.7521
古木竹石	-11.7523
第三段	-11.7523
續書譜	-11.7523
超詣	-11.7524
第二段	-11.7525
彭澤	-11.7528
具區	-11.7529
偃波	-11.7533
酒肆	-11.7533
宋牋本	-11.7534
標格	-11.7542
昆弟	-11.7546
發揮	-11.7553
恍若	-11.7553
台座	-11.7556
黄鶯	-11.7558
在西京	-11.7561
割去	-11.7562
煙波	-11.7565
目擊	-11.7572
輿地	-11.7572
分重七十	-11.7581
鑑湖	-11.7591
善畫馬	-11.7609
宋馬和之	-11.7628
王羲之白	-11.7632
國公諡	-11.765
謹嚴	-11.7658
番騎	-11.7685
□□□	-11.7686
夏山圖	-11.7695
西園雅集圖	-11.7696
菴主	-11.7703
頓首啟	-11.7709
模刻	-11.7713
書畫之印	-11.7714
濶二寸	-11.7715
二字後有	-11.7722
宿禽圖	-11.7724
詩二首	-11.7737
普門品	-11.7739
八十七	-11.7746
等圖傳扵丗	-11.7747
崔子玉	-11.7749
拯	-11.775
寶真齋法書贊卷	-11.7751
憇	-11.7751
容五升	-11.7752
訶	-11.7753
朱异	-11.7753
孫知㣲	-11.7754
燉煌	-11.7755
晰	-11.7756
枋	-11.7757
倒薤	-11.7757
礴	-11.7757
覯	-11.7758
子知之乎曰豈不謂	-11.7758
怖	-11.7758
栁宗元	-11.7758
淋	-11.7759
揩	-11.7759
褰	-11.7759
脆	-11.7759
鱠	-11.7759
宓	-11.776
閻立徳	-11.776
諲	-11.7761
丹砂	-11.7761
毫釐	-11.7761
坡陀	-11.7761
魴	-11.7761
臉	-11.7762
李林甫	-11.7762
髫	-11.7762
凑	-11.7762
慄	-11.7762
舄	-11.7762
汲汲	-11.7762
滕王閣	-11.7762
鋸	-11.7763
眎	-11.7763
拉	-11.7763
畜獸	-11.7764
辛夘	-11.7764
窈	-11.7764
顧長康	-11.7765
秋霽圖	-11.7765
滁	-11.7765
樓鑰	-11.7765
騶	-11.7765
邱壑	-11.7765
晨夕	-11.7765
太子太師	-11.7765
五代楊凝式	-11.7766
贉	-11.7766
庭堅再拜	-11.7766
楊契丹	-11.7766
御臨米芾	-11.7767
琬琰	-11.7767
驩	-11.7767
叨	-11.7767
文夀承	-11.7768
沽酒	-11.7769
犧尊	-11.7769
祺	-11.7769
砂	-11.7769
張鳯翼	-11.777
題簽	-11.777
黄文節公	-11.777
太子太保	-11.777
冷枚	-11.7772
眠食	-11.7773
勁挺	-11.7777
周公謹	-11.7778
輝映	-11.7778
籬落	-11.7779
利害	-11.7779
纎悉	-11.7779
昔人評	-11.7782
水竹居	-11.7785
蓮塘	-11.7785
翠袖	-11.7785
翼翼	-11.7786
季迪	-11.7788
泊舟	-11.7792
霅溪	-11.7793
禹廟	-11.7794
動植	-11.7795
車駕	-11.7795
陶宗儀云	-11.7797
碧落碑	-11.7798
州别駕	-11.78
九分重	-11.7802
換鵞	-11.7803
新霽	-11.7807
顯慶	-11.7809
逸其名	-11.7812
連環	-11.7814
二印左方下有	-11.7821
鴻鵠	-11.7832
手腕	-11.7839
赫奕恭畫	-11.7845
錦雞	-11.7848
失墜	-11.7849
勸農	-11.7857
博覽	-11.7868
雜禽圖	-11.7888
江邨	-11.7894
籖題	-11.7907
和尚碑	-11.7913
今觀此卷	-11.7934
髙八寸三分廣	-11.7958
像賛	-11.7963
押縫	-11.7963
敦銘	-11.7971
獸環壺	-11.8008
宣德牋本	-11.8011
永字八法	-11.8012
覇	-11.8012
陸探㣲	-11.8014
羔	-11.8014
畛	-11.8015
今御府所藏三	-11.8017
王時敏	-11.8017
聰敏	-11.8017
腳	-11.8017
沉著痛快	-11.8018
虞龢	-11.8019
宷	-11.8019
蕺	-11.8019
澥	-11.8019
氤氲	-11.802
毓	-11.802
鹵	-11.8021
厦	-11.8021
冥冥	-11.8021
婿	-11.8022
慾	-11.8022
幛	-11.8022
白麻	-11.8022
肻	-11.8023
蘅	-11.8023
米敷文	-11.8024
珥	-11.8024
式古堂書畫	-11.8024
賂	-11.8024
杳靄	-11.8025
輪扁	-11.8025
溉	-11.8025
石渠寶笈卷	-11.8025
擷	-11.8025
裟	-11.8026
糞	-11.8026
繪事備考	-11.8026
跑	-11.8027
燮	-11.8027
唐書夲傳	-11.8027
騰驤	-11.8027
价	-11.8027
林逺岫	-11.8028
殻	-11.8029
櫟	-11.8029
御臨蘇軾	-11.8029
轟	-11.8029
季直表	-11.8029
耕織圖	-11.8029
待渡圖	-11.803
倉卒	-11.8031
開闔	-11.8031
元稹	-11.8032
丹邱	-11.8032
集賢大學士	-11.8033
搭	-11.8033
灔	-11.8033
至正乙巳	-11.8034
桷	-11.8034
劉原父	-11.8034
烝	-11.8034
善篆隸	-11.8034
見聞志	-11.8035
鳥啼	-11.8035
盧稜伽	-11.8035
痛快	-11.8036
温日觀	-11.8036
喉	-11.8038
吳原博	-11.8038
宣和政和	-11.8039
圖二寫生	-11.804
樗仙	-11.8041
囗	-11.8041
零陵	-11.8041
春草軒	-11.8042
騎射	-11.8047
漫滅	-11.8052
翕然	-11.8052
祕玩	-11.8055
唐𤣥度	-11.8055
溥光	-11.8056
後押縫有	-11.8057
馬賁	-11.8058
崇寜	-11.8059
陽氷	-11.8063
鐫刻	-11.8067
殊乏	-11.8068
册計二十	-11.8068
魏徴	-11.807
合縫	-11.8072
沒骨	-11.8072
宋歐陽修	-11.8075
尺五寸	-11.8076
泠然	-11.8076
聽琴	-11.8077
御臨趙孟頫	-11.8077
三分腹圍一尺	-11.808
凡十二幅	-11.8081
顧況	-11.8084
珍禽	-11.8097
木𤓰	-11.8099
二百五十	-11.8105
别是一	-11.8105
魏國公	-11.8128
避暑宫	-11.8128
銘五字	-11.8132
杜甫詩	-11.8146
元凱	-11.8162
楞嚴	-11.8233
千丈	-11.8236
鸞鳯	-11.8244
嶧	-11.8265
兎圖一	-11.8267
喈	-11.8267
快雪時晴	-11.8269
狡獪	-11.8279
竟陵王	-11.828
貟	-11.8281
搢紳	-11.8282
撐	-11.8282
寀	-11.8283
前有佛像後有韋䭾像	-11.8284
素絹本著色畫欵署	-11.8285
頎	-11.8285
荀朂	-11.8285
六如居士	-11.8287
纍	-11.8288
謐	-11.8288
冏	-11.8288
娑	-11.8288
獰	-11.8288
曖	-11.8289
夢奠帖	-11.8289
撩	-11.8289
寖	-11.8289
鄉貢進士	-11.8289
怛	-11.8289
涓涓	-11.8289
徼	-11.829
瘞鶴	-11.829
刑部侍郎	-11.829
蕭翼賺蘭亭圖	-11.829
紊	-11.8291
塜	-11.8291
皺	-11.8291
逡	-11.8291
莫是龍	-11.8292
葑	-11.8292
十五日敬書一墨箋本泥金書欵識云康	-11.8292
柯敬仲	-11.8292
頺	-11.8293
卵	-11.8293
廂	-11.8293
蕉林秘玩	-11.8293
禺	-11.8293
褙	-11.8293
喫	-11.8293
少府監	-11.8294
地獄變相	-11.8294
媛	-11.8294
姚廣孝	-11.8295
滃	-11.8295
瑄	-11.8295
鶴山集	-11.8295
卷中幅押縫有	-11.8295
裝褫	-11.8295
烏巾	-11.8296
虐	-11.8296
麽	-11.8296
讜	-11.8296
飫	-11.8296
王穀祥	-11.8297
聆	-11.8297
希世之寶	-11.8297
篆籕	-11.8297
羯	-11.8297
唐釋懐素	-11.8298
瑱	-11.8298
扳	-11.8299
袋	-11.8299
袁昂	-11.8299
李懐琳	-11.8299
郭河陽	-11.8301
宋史本	-11.8301
鐵笛	-11.8301
糓	-11.8301
松雪道人	-11.8301
槳	-11.8301
莫廷韓	-11.8305
鵬翀	-11.8306
楊師道	-11.8306
批荅	-11.8307
豫州刺史	-11.8307
遊魚圖	-11.8307
完璧	-11.8307
圭角	-11.8308
宋璲	-11.8308
虞邵菴	-11.8309
七言絶句一首	-11.8309
謝太傅	-11.831
吾子行	-11.8313
胷次	-11.8313
錢榖	-11.8313
極其妙	-11.8317
慈悲	-11.8318
善寫貌	-11.832
險勁	-11.8322
奔放	-11.8323
杜瓊	-11.8323
趺坐	-11.8325
聨句	-11.8326
觀瀑	-11.8327
錦棠	-11.8327
九齡	-11.8328
雞鳴	-11.8329
寳晉齋	-11.8332
石曼卿	-11.8334
含毫	-11.8335
山行旅	-11.8337
雲麾	-11.834
召試	-11.8346
亞形	-11.8346
鸂鶒圖二	-11.8351
深四寸一分口	-11.8352
鳩子圖	-11.8354
鍾離	-11.8355
明陸治	-11.836
濶一尺	-11.8375
夫人墓誌	-11.8383
墻壁	-11.8409
釋迦佛	-11.8422
完顔	-11.8423
第進士	-11.8436
口訣	-11.8497
毫楮	-11.8511
兔圗一	-11.8518
唐宋元	-11.8528
層層	-11.8549
惘	-11.8552
忠宣公	-11.8553
締	-11.8555
痴	-11.8559
嗇	-11.8561
讒	-11.8561
譴	-11.8561
仭	-11.8562
倖	-11.8562
張孝思	-11.8562
幘	-11.8562
摠	-11.8562
袵	-11.8563
舉於鄉	-11.8563
甑	-11.8564
㒺	-11.8565
劾	-11.8565
㩦	-11.8566
潺潺	-11.8567
曦	-11.8567
簣	-11.8567
白鷴	-11.8568
鋬	-11.8568
懵	-11.8568
彧	-11.8568
睠	-11.8568
沈存中	-11.8569
太原王穉登	-11.8569
睢陽五老	-11.8569
􁎻	-11.857
匝	-11.857
阿房宫	-11.857
漣	-11.857
班惟志	-11.8571
齊郡張紳	-11.8571
郗超	-11.8571
滔滔	-11.8571
做	-11.8571
馬逺夏珪	-11.8571
薑	-11.8571
厎	-11.8571
諺	-11.8571
長洲文徴明	-11.8572
戩	-11.8572
擦	-11.8572
明張丑撰	-11.8572
陡	-11.8572
曳杖	-11.8572
檝	-11.8572
彴	-11.8572
螢	-11.8572
朱徳潤	-11.8573
隧	-11.8573
法帖刊誤	-11.8573
琅琊	-11.8573
棗木	-11.8574
户部尚書	-11.8574
娑羅	-11.8574
噱	-11.8574
牡	-11.8574
摛	-11.8574
紙墨如新	-11.8574
月二十七日	-11.8575
烏絲闌	-11.8575
膜	-11.8575
焜	-11.8575
希世之寳	-11.8575
臨川危素	-11.8575
両	-11.8575
𠂻	-11.8576
干禄	-11.8576
元符三年	-11.8576
蔡琰	-11.8576
驅馳	-11.8576
畦徑	-11.8577
户牖	-11.8578
十六頁	-11.8579
鳧	-11.8579
包山陸治	-11.8579
米氏父子	-11.8579
鴝鵒	-11.8579
郯	-11.858
睇	-11.858
李成寒林	-11.858
朱之赤	-11.8581
盤紆	-11.8581
禮部員外郎	-11.8582
崔慤	-11.8582
陸包山	-11.8582
吳淞	-11.8583
無少異	-11.8585
魏國夫人	-11.8586
海岳菴	-11.8586
陶冶	-11.8587
汪砢玉識	-11.8588
盤旋	-11.859
快雪時晴帖	-11.859
抑揚	-11.8592
泗州	-11.8592
夔龍	-11.8593
今御府所藏草書一	-11.8593
𦙍祖	-11.8596
董太史	-11.8598
堯民	-11.8599
冷謙	-11.86
半印後有	-11.8605
裴休	-11.8608
至正七年	-11.8613
旦暮	-11.8616
閑雅	-11.863
可以想見	-11.8631
哉雖然	-11.8639
幅高一尺	-11.8643
瘦硬	-11.8654
碑右唐	-11.8659
善畫花鳥	-11.8683
奪造化	-11.8684
二分廣一尺	-11.8689
有如此者	-11.8694
斤無銘	-11.8703
芍藥圖	-11.8709
見稱於	-11.873
痛惜	-11.8733
千百年	-11.8742
髙七寸五分廣	-11.8804
齊王僧䖍	-11.8807
七月既望	-11.8816
法帖譜系	-11.8826
戱貓圖	-11.8828
十七幅	-11.8839
侗	-11.8841
筆端造化	-11.8841
鵞羣	-11.8842
祛	-11.8843
沜	-11.8843
瑯琊臨沂人	-11.8844
址	-11.8845
謩	-11.8845
霾	-11.8848
峩峩	-11.8848
褚登善	-11.8848
呵呵	-11.8849
跛	-11.885
禁經云	-11.885
惹	-11.885
軋	-11.885
墨箋本泥金書欵識云康	-11.885
素牋本行書	-11.8851
䘏	-11.8851
燁	-11.8851
茘支	-11.8851
黍稷	-11.8851
重五斤	-11.8851
禕	-11.8853
榔	-11.8853
釁	-11.8853
瞽	-11.8853
乙夘	-11.8853
沅	-11.8853
光祿大夫	-11.8853
王羲之王獻之	-11.8853
埒	-11.8853
挑剔	-11.8854
泫	-11.8854
揮洒	-11.8854
漁父詞	-11.8854
照夜白	-11.8854
寝	-11.8854
邊景昭	-11.8855
猨	-11.8855
殷鈞	-11.8855
閻立夲	-11.8855
䑛	-11.8855
簧	-11.8855
周興嗣	-11.8856
史明古	-11.8856
鷙鳥	-11.8856
陳用志	-11.8856
徨	-11.8857
抃	-11.8857
桀	-11.8857
繄	-11.8857
隳	-11.8857
篋笥	-11.8858
栝	-11.8858
尚書左丞	-11.8858
梗槩	-11.8858
脣	-11.8858
翟院深	-11.8858
河北棠村	-11.8859
書畫合璧	-11.8859
滿騫	-11.8859
鎛	-11.8859
李時雍	-11.8859
町	-11.8859
荆棘	-11.8859
幃	-11.886
孫過庭書譜	-11.886
錮	-11.886
蓬瀛	-11.886
爍	-11.8861
聦	-11.8861
蜨	-11.8861
環珮	-11.8862
犍	-11.8862
校勘	-11.8862
萬籟	-11.8863
嚴氏書畫記	-11.8863
蘇靈芝	-11.8863
澶	-11.8863
栩	-11.8864
庾肩吾書品	-11.8865
祝枝山	-11.8865
麋	-11.8865
米黻	-11.8865
祕書郎	-11.8866
審定真蹟	-11.8868
滋味	-11.8868
斃	-11.8868
江山萬里圖	-11.8868
無書撰人名氏	-11.887
翰林修撰	-11.887
世祖章皇帝御筆	-11.8871
徙倚	-11.8871
貸	-11.8871
水月觀音	-11.8872
陶榖	-11.8873
得意之作	-11.8874
閨秀	-11.8875
解倩	-11.8876
廷尉	-11.8876
圖并賦	-11.8877
阮籍	-11.8877
破碎	-11.888
昌裔	-11.888
兩兩耳三足	-11.8883
采蓮	-11.8886
造像碑	-11.8887
䕶軍	-11.8888
州觀察使	-11.8897
編鐘	-11.8897
遒美	-11.89
陀羅尼經	-11.8904
鈐印	-11.8905
唐書本	-11.8941
停雲館帖	-11.8944
蜀葵	-11.8963
腹圍一尺一寸	-11.8975
一印右方下有	-11.8987
重六斤	-11.8994
又一印漫漶不可識	-11.9007
重一百四十	-11.9059
廣三丈	-11.9073
陀羅尼	-11.9113
恙	-11.9116
紹定戊子	-11.9135
雲東逸史	-11.9135
澌	-11.9139
鍔	-11.9141
鑣	-11.9141
圓覺經	-11.9142
賾	-11.9142
鄔彤	-11.9143
猗猗	-11.9143
陬	-11.9143
煌	-11.9143
如印印泥	-11.9143
悖	-11.9144
秧	-11.9144
許道寜	-11.9144
懊	-11.9144
訾	-11.9144
乾隆四十六年	-11.9145
一尺九寸	-11.9145
徐兢	-11.9145
唐詩紀事	-11.9146
紘	-11.9146
髙正臣	-11.9146
僣	-11.9147
廪	-11.9147
蛟螭	-11.9147
赫赫	-11.9147
斆	-11.9148
蒯	-11.9148
湯普徹	-11.9148
嘘	-11.9148
犖	-11.9148
魑魅	-11.9149
坼	-11.9149
錬	-11.9149
建初中	-11.9149
稳	-11.9149
竣	-11.9149
玷	-11.9149
倜儻	-11.915
大姚村	-11.915
戸部	-11.915
郛	-11.915
尤袤	-11.915
筝	-11.9151
汝陽袁華	-11.9151
删	-11.9151
素箋本白描畫	-11.9151
劉徳昇	-11.9151
鮫	-11.9151
雎	-11.9151
灋	-11.9151
進士及第	-11.9151
塵垢	-11.9152
徜徉	-11.9152
搥	-11.9152
綻	-11.9152
買田	-11.9152
尢	-11.9153
刑部主事	-11.9154
耿介	-11.9154
薛少保	-11.9155
凝霞閣	-11.9155
張受益	-11.9155
畎	-11.9156
魅	-11.9156
宋刻法華經	-11.9156
歸去来辭	-11.9156
岳珂	-11.9156
莱	-11.9156
諛	-11.9157
栻	-11.9157
猪	-11.9157
傖	-11.9158
挐	-11.9158
顧閎中	-11.9158
蚌	-11.9158
山海經	-11.9159
雪江歸棹	-11.9159
國史院編修官	-11.9159
襄陽米芾	-11.9159
竚	-11.916
壼	-11.916
血脈	-11.916
隋文帝	-11.916
咀	-11.9161
忭	-11.9161
局促	-11.9161
懶瓚	-11.9162
後漢蔡邕	-11.9162
廊廟	-11.9163
茅簷	-11.9163
韓魏公	-11.9163
倣巨然	-11.9164
叢篁	-11.9165
犇	-11.9166
衞恒	-11.9167
第四段	-11.9167
醉僧圖	-11.9168
碾	-11.9168
上中下	-11.9168
亶	-11.9171
秘監	-11.9172
本磁青箋泥金書西域字無量夀智經	-11.9173
刀劍録	-11.9174
一印軸髙一尺	-11.9174
劉伶	-11.9175
董其昌跋云	-11.9175
收蓄	-11.9178
巵言	-11.9178
戚里	-11.918
蘇轍	-11.9183
震澤集	-11.9204
峨眉	-11.9204
得其髣髴	-11.9211
今御府所藏行書一	-11.9216
鷙禽	-11.9217
鏡湖	-11.9231
口徑長三寸	-11.9274
金剛經一冊	-11.9279
尺六寸	-11.9303
冊計二十	-11.9304
博雅君子	-11.9342
御府所藏行書一	-11.9392
下有文徴明印	-11.9395
十五頁	-11.9404
鄂州	-11.9422
瑋	-11.9436
㢲	-11.944
懴	-11.9442
頓還舊觀	-11.9442
滔	-11.9443
右謹具呈	-11.9444
寗	-11.9445
纘	-11.9446
炤	-11.9446
鍇	-11.9446
衛大將軍	-11.9447
篴	-11.9448
䦨干	-11.9448
巴西鄧文原	-11.9448
剩	-11.9448
多才藝	-11.9449
歐虞褚薛	-11.9449
星記云	-11.9449
脯	-11.945
籒	-11.945
曹溶	-11.945
凂	-11.945
媸	-11.945
蹶	-11.945
李肇亨	-11.945
李倜	-11.9451
闥	-11.9451
大長公主	-11.9451
潦倒	-11.9451
磁	-11.9452
兩兩耳連環右髙一尺	-11.9452
陳洪綬	-11.9452
裨	-11.9452
攖	-11.9453
韓侂胄	-11.9453
漫漶	-11.9453
二謝帖	-11.9453
厯厯	-11.9453
疉	-11.9453
不能釋手	-11.9453
苾	-11.9453
胡長孺	-11.9454
戲鴻堂帖	-11.9454
櫓	-11.9454
抵掌	-11.9454
砥柱	-11.9454
磊磊	-11.9454
未署款	-11.9454
文簡公	-11.9455
牽掣	-11.9455
嶙峋	-11.9455
烏絲欄	-11.9455
絜	-11.9455
陸晃	-11.9456
庾元威	-11.9456
甘棠	-11.9456
蛙	-11.9456
酧	-11.9456
蓺	-11.9456
靴	-11.9456
剽	-11.9456
琹	-11.9456
㤙	-11.9457
馗	-11.9457
幾暇怡情	-11.9457
平章政事	-11.9457
醉道士圖	-11.9457
四字序云	-11.9459
蜕	-11.9459
天慶觀	-11.946
嶁	-11.946
窑	-11.946
闌干	-11.946
欹斜	-11.946
汀洲	-11.9461
文宣王廟	-11.9461
弭	-11.9461
幾暇臨池	-11.9461
麴	-11.9462
吞吐	-11.9463
凄凉	-11.9463
叢篠	-11.9463
米氏書史	-11.9463
𥿄	-11.9464
閥	-11.9464
賈逵	-11.9464
釣艇	-11.9464
顔師古	-11.9465
宋令文	-11.9465
党	-11.9466
慳	-11.9466
頵	-11.9466
劃	-11.9467
遲速	-11.9467
龜蛇	-11.9467
弇州山人稾	-11.9467
蠏	-11.9468
東里集	-11.9468
蔡卞	-11.947
薛濤	-11.947
年歲在	-11.947
丶	-11.9472
祝融	-11.9473
鷄鳴	-11.9473
雙鷺圖	-11.9474
頴悟	-11.9475
吴道子	-11.9475
洒落	-11.9477
中書省	-11.9477
耆英	-11.9484
髙八寸八分廣	-11.9506
鼎彛	-11.9516
湘潭	-11.9517
南濠	-11.9532
工佛道	-11.955
李陽冰篆	-11.9561
縱橫	-11.9571
一印卷前有	-11.9589
恭畫下有	-11.9598
兩三足無銘	-11.9618
年龍集	-11.9631
深三寸二分口徑	-11.9678
珩	-11.9739
鼉	-11.9752
廩	-11.9753
邵亨貞	-11.9753
左中郎將	-11.9755
容六升	-11.9755
衞協	-11.9755
抒	-11.9755
芟	-11.9758
公孫大娘	-11.9758
宋陳思撰	-11.9758
暌	-11.9758
萹	-11.9759
櫝	-11.9759
䜌	-11.9759
楠	-11.9759
擾擾	-11.9759
禆	-11.9759
牝牡	-11.976
宋本五色織	-11.9761
遹	-11.9761
盻	-11.9761
黝	-11.9761
人那得知	-11.9761
文潞公	-11.9761
司馬温公	-11.9762
䜿	-11.9762
渌	-11.9762
肓	-11.9762
駐蹕	-11.9763
耑	-11.9763
謠	-11.9763
楯	-11.9763
劉次莊	-11.9764
虖	-11.9764
晳	-11.9764
太師箴	-11.9764
夭矯	-11.9764
王氏法書苑	-11.9764
行第二帖	-11.9764
文殊菩薩像	-11.9765
稼穡	-11.9765
王羲之字逸少	-11.9765
釡	-11.9765
阿堵	-11.9766
拽	-11.9766
亾	-11.9766
吏部郎中	-11.9767
㕓	-11.9767
𣺌𣺌	-11.9767
俞紫芝	-11.9767
晉右將軍王羲之	-11.9767
户部侍郎	-11.9767
酋	-11.9767
痼	-11.9767
中州集	-11.9767
五代名畫補遺	-11.9768
涅	-11.9768
装潢	-11.9768
揉	-11.9768
飱	-11.9769
扛	-11.9769
梭	-11.9769
宣徳箋本墨畫	-11.9769
嶰	-11.9769
争坐位帖	-11.9769
駘	-11.9769
觥	-11.9769
溶溶	-11.9769
秀野軒	-11.977
花竹禽鳥	-11.977
洞玉經	-11.977
侑	-11.9771
吳興錢選舜舉	-11.9771
車騎將軍	-11.9771
獒	-11.9771
趙氏鐵網珊瑚卷	-11.9771
兾	-11.9772
晻	-11.9772
岣	-11.9773
范蠡	-11.9773
蘆汀	-11.9773
二印卷前有	-11.9774
五世孫	-11.9774
梗概	-11.9774
晁補之	-11.9774
逆旅	-11.9774
仇十洲	-11.9774
蒼潤軒碑跋	-11.9775
滑稽	-11.9775
玉堂學士	-11.9776
王子慶	-11.9776
雅宜山	-11.9776
王雅宜	-11.9776
庶吉士	-11.9776
牎	-11.9777
錢鏐	-11.9777
金粟道人	-11.9777
哽	-11.9777
部左侍郎	-11.9778
張素卿	-11.9778
羣鳬	-11.9783
釋道人物	-11.9787
鴻緒	-11.979
咨嗟	-11.9791
藥師經	-11.9822
有晉人風	-11.9865
今御府所藏十	-11.9865
九分深	-11.9921
容四升	-12.0043
蟠虺	-12.0066
等圖傳於世	-12.0075
傳扵丗	-12.0075
侶	-12.0076
長宜子孫	-12.0079
篙	-12.008
枻	-12.008
牲	-12.008
楊庭光	-12.008
磊	-12.0081
惟精惟一	-12.0081
暁	-12.0081
嚶	-12.0081
瀬	-12.0081
禿	-12.0081
罟	-12.0081
秖	-12.0082
胡母敬	-12.0082
澧	-12.0082
陸士仁	-12.0082
崆峒	-12.0083
弧	-12.0083
第二十三幅	-12.0084
㷀	-12.0084
性嗜酒	-12.0084
芮	-12.0085
濯纓	-12.0085
販	-12.0085
黄庭樂毅	-12.0085
嶤	-12.0085
金題玉躞	-12.0085
翰林侍書	-12.0085
彀	-12.0086
劑	-12.0086
低昻	-12.0086
械	-12.0086
竽	-12.0086
錢穆父	-12.0087
崙	-12.0087
張平子	-12.0087
皦	-12.0087
芝蘭室	-12.0087
虢國夫人	-12.0087
漙	-12.0088
徊	-12.0088
宇文公諒	-12.0088
餙	-12.0088
憔悴	-12.0088
養生論	-12.0088
茨	-12.0088
枯槎	-12.0088
郭乾暉	-12.0089
颸	-12.0089
龍圖閣直學士	-12.0089
第二十二幅	-12.0089
磻	-12.0089
峭拔	-12.0089
煦	-12.009
能書人名	-12.009
虞伯施	-12.009
無虚日	-12.009
耜	-12.009
弡	-12.009
涴	-12.009
羝	-12.009
右通蓋高七寸	-12.0091
姜立綱	-12.0091
韓熙載	-12.0091
鎔	-12.0091
半印二不可識	-12.0091
沈著痛快	-12.0092
金章宗	-12.0092
湘東王	-12.0092
紀功碑	-12.0093
石揚休	-12.0093
化度寺	-12.0093
箑	-12.0093
希世之珍	-12.0093
黼黻	-12.0093
咫	-12.0093
慊	-12.0094
旃檀	-12.0094
解嘲	-12.0094
分省人物考	-12.0094
蜃	-12.0094
鮮于伯幾	-12.0095
行草入妙	-12.0095
稜稜	-12.0095
惲夀平	-12.0095
覘	-12.0096
怱	-12.0096
庻幾	-12.0096
牴	-12.0097
夹	-12.0098
杜鵑	-12.0098
槽	-12.0098
尚書宣示	-12.0099
奘	-12.0099
錯綜	-12.0101
后妃	-12.0102
思想帖	-12.0103
六世孫	-12.0103
丹鉛	-12.0104
長二丈	-12.0106
虞文靖	-12.0108
字畫遒勁	-12.0111
八世孫	-12.0118
酷愛	-12.0127
層疊	-12.0141
四分腹圍一尺	-12.0161
缺其半	-12.0173
西園雅集	-12.0174
髙八寸七分廣	-12.0179
棘雀	-12.0255
右通葢髙一尺	-12.0267
沓拖	-12.0276
腹徑五寸	-12.0301
咄咄	-12.0302
無銘右二器	-12.032
印缺其半	-12.0331
徳政頌	-12.0392
鏊	-12.0394
鼻凖	-12.0394
辜	-12.041
粼	-12.0411
薛道衡	-12.0412
孔雀明王像	-12.0412
歴代帝王	-12.0413
䜟	-12.0413
尹繼昭	-12.0413
烏絲䦨	-12.0414
曬	-12.0414
深自口至隔	-12.0414
種種臻妙	-12.0416
金錯刀	-12.0416
垞	-12.0417
嘖嘖	-12.0417
李安忠	-12.0417
煩惱	-12.0418
沍	-12.0418
沱	-12.0418
破邪論	-12.0418
曲江錢惟善	-12.0418
樛	-12.0418
凸	-12.0418
項元汴印子京父印	-12.0418
䬃	-12.0419
刑部左侍郎卞永譽撰書	-12.0419
集賢校理	-12.0419
啞	-12.0419
楊用修	-12.0419
殞	-12.0419
韋陟	-12.0419
嶸	-12.0419
秣	-12.0419
萋萋	-12.042
擴	-12.042
端明殿學士	-12.042
貞觀公私畫史	-12.042
苻	-12.042
國朝人書畫	-12.042
纉	-12.042
洶	-12.0421
冉	-12.0421
琳琅	-12.0421
孀	-12.0421
甯	-12.0422
過秦論	-12.0422
清明上河圖	-12.0422
浯	-12.0422
諂	-12.0422
儷	-12.0422
莓	-12.0422
歩驟	-12.0423
諸跋中押縫有	-12.0423
跌	-12.0423
撥鐙法	-12.0423
駮	-12.0423
撑	-12.0423
天真爛漫	-12.0423
亹亹	-12.0423
碍	-12.0423
在絹素上	-12.0423
悚息	-12.0423
蜡	-12.0423
趙孟籲	-12.0424
孱	-12.0424
菽	-12.0424
燕穆之	-12.0424
聚訟	-12.0424
撤	-12.0425
揀	-12.0425
豐道生	-12.0425
阿育王	-12.0425
俞仲蔚	-12.0425
朝議大夫	-12.0425
茵	-12.0425
初一日敬書一洋箋本墨書欵識云康熈	-12.0425
黠	-12.0426
荀輿	-12.0426
顏魯公	-12.0426
玫瑰	-12.0426
綉	-12.0426
廓填	-12.0427
鷹鶻	-12.0427
蟠虬	-12.0427
破羌帖	-12.0427
墩	-12.0428
蘓軾	-12.0428
蠻夷	-12.0428
文林郎	-12.0429
楊士賢	-12.0429
嶔	-12.043
禇薛	-12.043
鼐	-12.0431
陶侃	-12.0432
張天雨	-12.0432
誅蚊賦	-12.0432
顔眞卿	-12.0433
萬壑松風	-12.0433
旡	-12.0433
中幅押縫	-12.0433
花卉翎毛	-12.0434
徽州志	-12.0434
王氏跋二	-12.0436
玘	-12.0436
語録一部	-12.0481
九老圖	-12.0487
素箋本行楷書	-12.0525
書家傳十	-12.0547
尺一寸	-12.055
韋䭾像	-12.0583
六分腹圍一尺	-12.0631
口徑五寸四分	-12.0644
農桑	-12.065
紙本立軸	-12.0652
道服贊	-12.0752
顧寳光	-12.0754
􁯳	-12.0754
蝨	-12.0755
媺	-12.0755
鐓	-12.0755
猩猩	-12.0756
娓	-12.0757
紙本小挂幅	-12.0757
諗	-12.0758
縻	-12.0758
賽	-12.0759
烟江疊嶂圖	-12.0759
壒	-12.0759
灾	-12.0759
瑀	-12.076
凹	-12.076
芋	-12.076
溪山風雨圖	-12.0761
張敦禮	-12.0761
媵	-12.0761
沫	-12.0761
芊	-12.0761
涘	-12.0762
琅琅	-12.0762
仇英實父	-12.0762
桃花源裏人家	-12.0762
殷令名	-12.0762
李廷珪墨	-12.0762
鯁	-12.0763
大理評事	-12.0763
兠	-12.0763
閽	-12.0764
姚曇度	-12.0764
孜孜	-12.0764
蓍	-12.0764
濆	-12.0764
濯濯	-12.0765
庄	-12.0765
斂袵	-12.0765
繽	-12.0765
海獸蒲萄鑑	-12.0766
敬書前後經名下俱有貝葉文一	-12.0766
佛鋪圖	-12.0766
絹本淺絳色	-12.0766
瀹	-12.0766
児	-12.0766
泱	-12.0767
干禄字書	-12.0767
堯民擊壤	-12.0767
𥘉	-12.0767
苕霅	-12.0767
䧺	-12.0767
巫咸	-12.0767
惓惓	-12.0767
裹鮓	-12.0768
沆瀣	-12.0768
屏幛	-12.0768
漁浦圖	-12.0768
段成式	-12.0768
糅	-12.0768
㸑	-12.0768
荆蠻民	-12.0768
嘅	-12.0768
丱	-12.0769
托塔天王	-12.0769
毛惠逺	-12.0769
月儀帖	-12.0769
愠	-12.077
迤	-12.077
素箋本墨畫款識云	-12.077
薝蔔	-12.0771
第二十一幅	-12.0771
團扇絹本淡色	-12.0772
王徽之	-12.0772
楸	-12.0772
謇	-12.0772
笳	-12.0772
驌	-12.0772
鍤	-12.0772
檠	-12.0772
燿	-12.0772
孥	-12.0773
滛	-12.0773
刁光𦙍	-12.0773
髀	-12.0773
王世懋	-12.0773
銑	-12.0773
􁃶	-12.0774
道德經	-12.0774
冶溪漁隠	-12.0774
垠	-12.0775
旴	-12.0775
箏	-12.0775
沚	-12.0776
范長夀	-12.0776
梔	-12.0776
嫠	-12.0777
得意之筆	-12.0777
子若孫	-12.0777
閩縣人	-12.0777
六研齋筆記	-12.0779
翰林直學士	-12.078
十五日敬書一洋箋本墨書欵識云康熈	-12.078
名重一時	-12.0784
玳瑁	-12.0787
痩硬	-12.0798
宋文臣	-12.0812
□□□□	-12.0834
莆田	-12.0877
章閣待制	-12.0896
世所罕	-12.0935
墨淋漓	-12.0948
五合重	-12.1009
無日不	-12.1046
御府所藏草書一	-12.1082
潯	-12.1091
稹	-12.1103
恡	-12.1109
秦丞相李斯	-12.1111
衎	-12.1113
杠	-12.1114
宼	-12.1114
耳髙一寸二分濶一寸	-12.1114
二世詔	-12.1114
匍	-12.1114
蝸	-12.1114
尠	-12.1115
啇	-12.1115
瘴	-12.1116
鍑	-12.1116
吳通微	-12.1117
鮓	-12.1117
四十二章經	-12.1117
叡	-12.1118
徐希秀	-12.1118
顙	-12.1118
蒲師訓	-12.1119
燃	-12.1119
趙伯驌	-12.1119
米南宮	-12.1119
蘧廬	-12.1119
韋續九品書人論	-12.1119
謌	-12.1119
偪	-12.112
蘖	-12.112
橐	-12.1121
自書詩帖一卷	-12.1121
攪	-12.1121
僧悰云	-12.1121
淥	-12.1122
盾	-12.1122
芙	-12.1122
倓	-12.1122
劬	-12.1122
壌	-12.1122
祕書少監	-12.1122
發願文	-12.1123
暾	-12.1123
罌	-12.1123
孫夢卿	-12.1123
董邦逹	-12.1124
宋箋本著色畫	-12.1124
齧	-12.1124
棠村審定	-12.1124
玉筯篆	-12.1124
夫子廟碑	-12.1124
肋	-12.1124
逗	-12.1124
鋼	-12.1125
擯	-12.1125
欽定四庫全書石渠寳笈卷	-12.1125
白文印	-12.1125
盖與器銘共	-12.1125
溶	-12.1125
萬幾之暇	-12.1125
司徒左長史	-12.1125
寤寐	-12.1125
炬	-12.1126
哺	-12.1126
汪由敦	-12.1126
長孫無忌	-12.1126
峡	-12.1126
酢	-12.1126
綯	-12.1127
渤	-12.1127
踢	-12.1127
菘	-12.1127
續貂	-12.1127
仇英實父製	-12.1128
六研齋二筆	-12.1128
籥	-12.1128
翰林編修	-12.1128
鸎	-12.1128
孑	-12.1129
崐	-12.1129
􁷺	-12.1129
程南雲	-12.1129
苴	-12.1129
范允臨	-12.113
么	-12.113
筮	-12.113
闍	-12.113
坌	-12.113
諸葛武侯	-12.113
馳騁	-12.113
閙	-12.113
徐有貞	-12.113
枰	-12.113
揭鉢圖	-12.1131
張擇端	-12.1131
在楮上	-12.1131
陕	-12.1131
蜚	-12.1131
舸	-12.1131
星官像	-12.1132
洶湧	-12.1132
黄居宷	-12.1132
債	-12.1133
太僕少卿	-12.1133
跣	-12.1134
蕉林梁氏書畫之印	-12.1135
趙秉文	-12.1135
掞	-12.1137
罩	-12.1137
一印幅後有	-12.1137
种	-12.1139
人勝士	-12.114
口俓	-12.1429
堊	-12.1455
陰符經	-12.1473
三學院	-12.1474
絨	-12.148
皇帝青宫時題詩云	-12.1482
戔	-12.1482
稗	-12.1483
范懐約	-12.1483
囷	-12.1484
冇	-12.1484
蹉	-12.1485
笪重光	-12.1485
兩背作	-12.1485
垔	-12.1486
秋江待渡圖	-12.1486
眙	-12.1486
蠢	-12.1487
㢧	-12.1487
禹治水	-12.1487
𨗳	-12.1487
田僧亮	-12.1487
豢	-12.1487
灑金箋本	-12.1487
幙	-12.1488
瞞	-12.1488
豈易得哉	-12.1488
絡繹	-12.1488
騧	-12.1488
蟠夔	-12.1489
朝奉大夫	-12.1489
蠱	-12.1489
酥	-12.1489
素箋本墨畫欵題云	-12.149
沐手敬書	-12.149
趙叔盎	-12.149
憨	-12.149
兵符圖	-12.149
賈秋壑	-12.1491
綫	-12.1491
華陽真逸	-12.1491
緼	-12.1491
鬆	-12.1491
檇李項氏世家寳玩	-12.1491
倕	-12.1492
瓛	-12.1492
柰	-12.1492
賈師憲	-12.1492
脗	-12.1492
蹉跎	-12.1492
遄	-12.1493
郄愔	-12.1494
別	-12.1494
都𤣥敬	-12.1494
嶄	-12.1494
挾彈	-12.1494
撲蝶	-12.1494
金壺記	-12.1494
躞	-12.1495
毳	-12.1495
爱	-12.1495
泪	-12.1495
譁	-12.1496
雨初霽	-12.1496
趙光輔	-12.1497
金石遺文	-12.1497
蘇易簡	-12.1497
磁青箋	-12.1497
項元汴印墨林秘玩	-12.1497
槎牙	-12.1497
摯	-12.1497
千變萬化	-12.1497
爇	-12.1498
鶱	-12.1498
揜	-12.1498
筞	-12.1499
蕉林書屋	-12.1499
青出於藍	-12.1499
著作佐郎	-12.1499
涌	-12.1499
鳬鷖	-12.15
㸃用於	-12.15
袪	-12.15
石延年	-12.15
邾	-12.15
王圖炳書	-12.15
鞾	-12.1501
後村集	-12.1501
毖	-12.1503
狄仁傑	-12.1503
洛神十三行	-12.1503
幞頭	-12.1504
宁	-12.1504
商山四皓	-12.1504
輟耕録	-12.1505
篁墩	-12.1506
字小號	-12.1506
褫	-12.1507
望而知其	-12.1507
絛	-12.1509
先臣芾	-12.1511
黄文獻公集	-12.1512
姑溪集	-12.1514
長至後	-12.1516
鈕髙二寸	-12.1518
大雲寺	-12.1567
深三寸七分口徑	-12.1567
兩有流有鋬四足	-12.1631
二百一十	-12.1676
腹俓	-12.1853
髙七寸六分廣	-12.186
簠簋	-12.1861
范長壽	-12.1863
㶚	-12.1864
瀕	-12.1865
鼈	-12.1865
兩柱三足有鋬	-12.1865
翛	-12.1866
妣	-12.1866
梅沙彌	-12.1867
今御府所藏四	-12.1868
上谷王次仲	-12.1868
骸	-12.1868
􁗩	-12.1869
狡	-12.187
蛛	-12.187
之謂乎曰然	-12.1871
麻姑壇記	-12.1871
右通蓋高九寸	-12.1871
邵陵王	-12.1871
喟	-12.1872
薰沐	-12.1872
䶵	-12.1872
未之有也	-12.1872
墨林項季子章	-12.1873
溍	-12.1873
騏驎	-12.1873
筩	-12.1873
有乾隆御筆一璽	-12.1873
淆	-12.1873
賢良方正	-12.1873
閘	-12.1873
江僧寳	-12.1873
簒	-12.1874
韋應物	-12.1874
陳敬宗	-12.1874
表而出之	-12.1874
萎	-12.1874
混沌	-12.1874
蔣長源	-12.1874
嘴	-12.1874
閼	-12.1875
耿嘉祚	-12.1875
嵇叔夜	-12.1875
捩	-12.1875
紓	-12.1876
戶	-12.1876
乾隆御賞	-12.1876
杜子瓌	-12.1876
珵	-12.1876
大慈寺	-12.1876
深三寸五分口徑	-12.1876
蕨	-12.1876
笪	-12.1876
渟	-12.1877
喆	-12.1877
甎	-12.1877
憊	-12.1877
暮春之初	-12.1877
湎	-12.1877
樗寮	-12.1877
茂實府君	-12.1877
鞵	-12.1877
陽翟人	-12.1878
脰	-12.1878
裴孝源	-12.1878
簏	-12.1878
陸文裕	-12.1878
金薤琳琅	-12.1879
焰	-12.1879
枚三十六各長一寸	-12.1879
州防禦使	-12.1879
尊候萬福	-12.1879
蹋	-12.1879
陳思王	-12.1879
友古軒	-12.1879
瘳	-12.188
俞允文	-12.188
枚三十六各長三分重	-12.188
豸	-12.188
袁安臥雪圖	-12.188
頲	-12.188
荏苒	-12.188
醉翁亭記	-12.188
一丘一壑	-12.1881
王肯堂	-12.1881
颼颼	-12.1881
杜東原	-12.1881
神遊心賞	-12.1881
渲染	-12.1882
陳善見	-12.1882
房彦謙	-12.1882
朱景𤣥	-12.1882
湼	-12.1882
酤	-12.1882
橙	-12.1882
文淵閣	-12.1883
鷲	-12.1883
錙銖	-12.1883
瞠	-12.1883
禅	-12.1884
釴	-12.1884
玦	-12.1884
范忠宣	-12.1884
曈	-12.1884
燠	-12.1885
隋書經籍志	-12.1885
騣	-12.1886
者衆矣	-12.1886
太子賔客	-12.1886
休寧人	-12.1886
稽古右文之	-12.1886
琱	-12.1886
噬	-12.1887
韓熙載夜宴圖	-12.1887
藩籬	-12.1889
翽	-12.1889
㠖	-12.1889
絪	-12.189
李應禎	-12.1891
蔡希綜	-12.1892
碗	-12.1894
花果翎毛	-12.1894
兩紙共	-12.1894
宋景文	-12.1897
衒	-12.1899
惲壽平	-12.19
紹興古器評	-12.1908
竇臮述書賦	-12.1925
甬長四寸	-12.1926
蔣廷錫恭畫	-12.1965
六分腹徑	-12.2036
項墨林父秘笈之印諸印	-12.2202
鷙	-12.2202
雩	-12.2265
五星二十八宿	-12.2265
絕	-12.2266
醺	-12.2266
四體書勢	-12.2266
潾	-12.2267
膾炙人口	-12.2267
盦	-12.2268
騅	-12.2268
猊	-12.2268
崎	-12.2268
泝	-12.2269
榜進士題名碑	-12.2269
亝	-12.2269
邛	-12.2269
汜	-12.227
糠	-12.227
貯養心殿	-12.227
剜	-12.227
莞	-12.227
曹士冕	-12.2271
王榖祥	-12.2271
惬	-12.2271
六館日	-12.2271
昜	-12.2272
聖敎序	-12.2272
棚	-12.2272
則第一則	-12.2273
良常草堂	-12.2273
錚	-12.2273
㩁	-12.2274
熈五十二年嵗次癸巳	-12.2274
葭	-12.2274
爨	-12.2275
匈	-12.2275
嘈	-12.2275
陵陽牟	-12.2276
慈恩寺	-12.2276
菑	-12.2276
禩	-12.2276
虞雍公	-12.2277
杓	-12.2277
鎗	-12.2277
窪	-12.2277
蹏	-12.2277
㽞	-12.2278
黄庭外景經	-12.2278
鐶	-12.2278
罽	-12.2278
柁	-12.2278
玻瓈	-12.2278
自隔至底	-12.2278
第二十四幅	-12.2278
恊	-12.2279
狻猊	-12.2279
閶闔	-12.2279
宣徳箋本著色畫	-12.2279
黄素黄庭經	-12.2279
欽定四庫全書書畫彚考卷	-12.2279
杜祁公	-12.2279
項元汴印墨林山人	-12.2279
力命表	-12.2279
董其昌觀因題	-12.2279
心正則筆正	-12.2279
祓	-12.2279
陸繼善	-12.228
泂	-12.228
敇	-12.228
漢宫春曉	-12.228
碓	-12.228
承務郎	-12.228
韓朝延	-12.228
牋烏絲闌本	-12.228
畫後品	-12.228
睿思東閣	-12.2281
神仙起居法	-12.2281
抺	-12.2281
衽	-12.2281
甓	-12.2281
書畫題䟦記	-12.2281
埶	-12.2281
陸放翁	-12.2281
弁陽老人	-12.2282
飼	-12.2282
墖	-12.2282
後有乾隆宸翰	-12.2282
忒	-12.2282
行穰帖	-12.2282
釋氏經軸	-12.2282
貿	-12.2282
不知為何人	-12.2283
禋	-12.2283
蔕	-12.2283
屣	-12.2283
紫極宫	-12.2283
埏	-12.2283
七世孫	-12.2283
韓太史家	-12.2283
蜻蜓	-12.2283
臙脂	-12.2284
茁	-12.2284
御筆題籖籖上有御賞乾隆宸翰二璽	-12.2284
子孫保之	-12.2285
猖	-12.2285
何良俊	-12.2285
揔	-12.2285
皷	-12.2286
嫋	-12.2286
雪獵圖	-12.2286
顧駿之	-12.2287
文苑英華	-12.2289
槌	-12.2289
題其畫云	-12.229
多寳塔	-12.229
劉道醇	-12.2291
搴	-12.2291
張彦逺名畫記	-12.2292
釜	-12.2296
焦竑	-12.2297
圗畫見聞志	-12.2299
銍	-12.2301
腹徑八寸	-12.2373
六十七兩	-12.2377
深四寸三分口徑	-12.2416
梁昇卿	-12.2674
蟇	-12.2676
集夲云	-12.2679
虫	-12.2679
玻璃	-12.2681
胡笳十八拍	-12.2684
眄	-12.2684
俞貞木	-12.2685
槊	-12.2685
姚最云	-12.2686
湌	-12.2687
唫	-12.2687
撒	-12.2687
轢	-12.2687
堊帚	-12.2688
左司郎中	-12.2688
祭姪文	-12.2689
目録貯乾清宫	-12.2689
攣	-12.2689
隗	-12.2689
夘	-12.2689
沈熾文	-12.2689
太子中允	-12.269
戕	-12.269
領鄉薦	-12.269
七言截句	-12.269
鵷	-12.269
穪	-12.269
陲	-12.269
黄庭内景經	-12.2691
颿	-12.2692
比干墓	-12.2692
鐵門限	-12.2692
壙	-12.2692
東方朔畫贊	-12.2692
貯重華宫	-12.2692
掄	-12.2693
吿	-12.2693
𣙜	-12.2693
硎	-12.2693
脛	-12.2693
𣗳	-12.2693
肴	-12.2693
深三寸三分口徑	-12.2694
熈五十八年嵗在己亥	-12.2694
楊亷夫	-12.2694
璀	-12.2694
武洞清	-12.2694
檇李李氏鶴夢軒珍藏記	-12.2695
袴	-12.2695
帋	-12.2695
陳簡齋	-12.2695
灝	-12.2696
不可不知也	-12.2696
溪山雨意	-12.2696
煌煌	-12.2696
五十七年嵗在戊戌	-12.2696
簞瓢	-12.2697
武英殿	-12.2697
萟	-12.2697
奨	-12.2697
煨燼	-12.2697
蜍	-12.2697
内府圖書之印	-12.2697
縢	-12.2697
髹	-12.2697
珍秘宜爾子孫	-12.2698
蹀	-12.2698
珊瑚網卷二十	-12.2698
褭	-12.2698
姐	-12.2698
房從真	-12.2699
騮	-12.2699
椀	-12.2699
肺腑	-12.2699
晷	-12.2699
旹	-12.2699
嬈	-12.2699
訢	-12.27
拚	-12.27
灤	-12.2701
箬	-12.2701
協律郎	-12.2701
枃	-12.2701
茱	-12.2701
跗	-12.2703
遺愛碑	-12.2703
犁	-12.2704
怵	-12.2704
踴躍	-12.2704
太平清話	-12.2704
羹	-12.2705
袁生帖	-12.2705
邐	-12.2705
溽	-12.2705
勰	-12.2706
雲出岫	-12.2707
聒	-12.2708
寶慶乙酉	-12.2708
杜光庭	-12.2708
蹁躚	-12.2708
齕	-12.2709
鄭康成	-12.2709
檉	-12.2709
拜手稽首	-12.2714
斤十有四兩	-12.2716
史夲傳	-12.2716
喀	-12.2718
靁	-12.272
百勞圖	-12.2726
長三丈	-12.2726
鈕髙一寸	-12.2728
哀冊文	-12.2764
牧牛圗	-12.2792
遺愛頌	-12.31
脩禊	-12.3108
袞	-12.311
朝鮮箋本	-12.3113
翾	-12.3114
鄢	-12.3116
漈	-12.3117
畵鑒云	-12.3117
文從簡	-12.3118
栱	-12.3118
極稱許之	-12.3119
段每段	-12.3119
棲霞寺	-12.3119
摩利支天	-12.312
挿	-12.312
賑	-12.312
啣	-12.312
玉花驄	-12.3121
槿	-12.3122
洞天清録	-12.3122
䪫	-12.3123
香山九老圖	-12.3123
袤	-12.3124
㢤	-12.3124
阿彌陀經	-12.3124
嫉	-12.3125
菓	-12.3125
墉	-12.3125
週	-12.3126
菡	-12.3126
膾炙	-12.3126
下有㑹心不逺	-12.3126
薛純陀	-12.3126
乞米帖	-12.3126
曹仲達	-12.3127
姚懐珍	-12.3127
芘	-12.3127
後餘幅	-12.3128
張鳳翼	-12.3128
寳章待訪錄	-12.3128
王知慎	-12.3128
淼	-12.3129
琴鶴軒	-12.3129
你	-12.3129
這	-12.3129
鄠	-12.3129
龢	-12.3129
廣川書䟦	-12.3129
鉗	-12.3129
文震孟	-12.3129
瓮	-12.313
舒元輿	-12.313
剥蝕	-12.313
坳	-12.313
雅宜山人王寵	-12.313
罘	-12.313
蠖	-12.313
海岱樓	-12.313
顓頊	-12.313
朱巨川誥	-12.313
徳充符	-12.3131
晉昌唐寅	-12.3131
内景經	-12.3131
前隔水有蕉林書屋	-12.3132
篔	-12.3132
蘩	-12.3132
蘓漢臣	-12.3132
出人意表	-12.3132
首幅前署	-12.3132
彜	-12.3132
嚴君平	-12.3132
勍	-12.3133
格古要論	-12.3133
硃砂	-12.3133
竹懶李日華	-12.3133
膾	-12.3133
程鉅夫	-12.3133
麯	-12.3133
隤	-12.3133
靨	-12.3134
蹰	-12.3134
烽	-12.3134
野望憫言	-12.3134
宰相世系表	-12.3134
肄	-12.3135
寒山拾得	-12.3135
襁	-12.3135
文彦博	-12.3136
前無古人	-12.3136
珦	-12.3136
麻皮皴	-12.3136
迓	-12.3137
柢	-12.3137
頳	-12.3138
趙氏子昻一印	-12.3138
葛守昌	-12.3138
詹希元	-12.3138
郇	-12.3138
沈民則	-12.3139
侁	-12.314
㑹善寺	-12.314
擠	-12.314
冬至日	-12.314
狄梁公	-12.3141
灬	-12.3142
熬	-12.3142
正書無姓名	-12.3143
董邦達	-12.3143
椅	-12.3143
阼	-12.3146
釋氏經冊	-12.3146
喀喇	-12.3147
夾竹桃花	-12.3156
乚	-12.3162
漢書藝文志	-12.3163
鐘鼎欵識	-12.319
口徑六寸五分腹圍	-12.3484
窆	-12.3555
深二寸二分口	-12.3556
帖眞蹟一卷	-12.3559
鑽	-12.3565
弘	-12.3565
糝	-12.3566
坪	-12.357
匐	-12.3571
摩利攴天	-12.3572
鷃	-12.3572
靠	-12.3573
罇	-12.3574
如意輪菩薩像	-12.3575
倬	-12.3575
諍	-12.3576
縣開國男	-12.3576
曁	-12.3576
詧	-12.3576
霤	-12.3576
甃	-12.3577
摽	-12.3577
清心抒妙理	-12.3578
長夏江寺	-12.3579
亊	-12.3579
鎦	-12.3579
齔	-12.3579
慝	-12.3579
軸髙三尺七寸	-12.3579
昭明太子	-12.358
右通蓋高八寸	-12.358
囀	-12.358
戴表元	-12.358
亹	-12.358
姿態横生	-12.3581
揭傒斯	-12.3581
穟	-12.3581
纚	-12.3581
輓	-12.3581
箠	-12.3581
初一日敬書前後經名下俱有貝葉文一	-12.3582
十五日敬書前後經名下俱有貝葉文一	-12.3582
屧	-12.3582
熈六十年嵗在辛丑	-12.3582
夏山欲雨圖	-12.3582
日告姜	-12.3583
飇	-12.3583
醯	-12.3583
綮	-12.3583
右唐人摹	-12.3583
榱	-12.3583
賀道力	-12.3583
岧	-12.3584
穜	-12.3584
蝌蚪	-12.3584
莾	-12.3584
狭	-12.3584
朓	-12.3584
佛因地圖	-12.3584
朱謀垔云	-12.3584
斧劈皴	-12.3585
送梨帖	-12.3585
櫳	-12.3585
裴文睍	-12.3585
髙貴鄉公	-12.3586
儼齋秘玩	-12.3586
儵	-12.3586
暐	-12.3586
褧	-12.3586
素箋本餘俱金箋本第一幅	-12.3586
臠	-12.3586
楊升菴	-12.3586
龐	-12.3587
􁅋	-12.3587
􁧠	-12.3588
礎	-12.3588
塟	-12.3588
弆	-12.3588
渤海髙啓	-12.3588
錢選舜舉	-12.3588
明昌七印	-12.3588
娉	-12.3588
唘	-12.3589
礱	-12.3589
扼	-12.3589
羗	-12.3589
磷	-12.3589
嵬	-12.359
肎	-12.359
葳	-12.359
猝	-12.3591
殽	-12.3591
兜	-12.3592
餽	-12.3592
深四寸四分口徑	-12.3592
莭	-12.3592
壅	-12.3592
琤	-12.3592
塤	-12.3593
楣	-12.3593
櫺	-12.3593
凹凸	-12.3594
嚙	-12.3594
妤	-12.3594
觀世音菩薩	-12.3594
江山勝覽	-12.3594
畫有六法	-12.3594
韁	-12.3597
畫禪隨	-12.3599
㬋	-12.3599
琥	-12.3601
淘	-12.3601
纈	-12.3601
蝉	-12.3606
繡纓圖	-12.3606
軸髙五尺	-12.3612
夾竹海棠	-12.3612
重屏圖	-12.3613
甬長三寸	-12.3622
九分腹圍一尺	-12.3661
深五寸八分口	-12.3782
無一㸃塵	-12.3838
天章閣	-12.3896
容七升	-12.4004
重八斤	-12.4011
冤	-12.4023
重二十五兩	-12.4025
耿㑹侯鑒定書畫之章	-12.4036
善行書書賦云	-12.404
顧景秀	-12.4042
灑金牋本	-12.4044
隍	-12.4044
崗	-12.4046
墨畫山水款識云	-12.4048
氓	-12.4049
簑	-12.405
不忍去手	-12.4051
皿	-12.4051
嶒	-12.4051
盧鴻草堂圖	-12.4051
賭	-12.4051
謖謖	-12.4052
石渠寳笈	-12.4052
詘	-12.4052
颻	-12.4052
幾欲亂真	-12.4053
蕖	-12.4053
嘿	-12.4053
顧徳謙	-12.4053
張擇端清明上河圖	-12.4054
都元敬	-12.4055
素箋本淡著色畫	-12.4055
饞	-12.4055
尹師魯	-12.4055
皈	-12.4055
惎	-12.4055
刈	-12.4056
岵	-12.4056
轆轤	-12.4056
東武亭侯	-12.4056
璐	-12.4056
刄	-12.4057
耨	-12.4057
絆	-12.4057
媮	-12.4057
啾	-12.4057
摘𤓰圖	-12.4057
有自來矣	-12.4057
口縱四寸	-12.4057
苫	-12.4057
躓	-12.4057
趍	-12.4057
獨樂園	-12.4057
憒憒	-12.4058
寄岳雲	-12.4058
長方紙本水墨	-12.4058
堰	-12.4058
杜如晦	-12.4058
鷓	-12.4058
䙝	-12.4059
嬙	-12.4059
廚	-12.4059
柩	-12.406
明汪砢玉撰法書題跋	-12.406
狷	-12.406
晉穆帝	-12.406
韈	-12.406
衘	-12.406
䲭	-12.406
熈五十九年嵗在庚子	-12.406
劉德昇	-12.406
胝	-12.4061
鄕	-12.4061
湯彌昌	-12.4061
櫪	-12.4061
田疇耕耨	-12.4061
煨	-12.4061
皇甫汸	-12.4061
勣	-12.4061
熈五十六年嵗在丁酉	-12.4062
闔閭城	-12.4062
阿爾喜普之印	-12.4062
刳	-12.4062
媼	-12.4062
綢繆	-12.4063
洺	-12.4063
熨	-12.4063
犂	-12.4063
宋仲溫	-12.4063
艘	-12.4063
絹本大著色	-12.4063
秫	-12.4063
单	-12.4063
淨名居士	-12.4063
鞦韆	-12.4063
嵩陽石刻記	-12.4063
惨	-12.4064
吉日癸巳	-12.4064
繅	-12.4064
梅聖俞	-12.4064
海岳名言	-12.4065
嫵	-12.4065
孃	-12.4065
痊	-12.4065
菟	-12.4065
鷁	-12.4066
抖	-12.4066
駉	-12.4066
潏	-12.4066
絺	-12.4066
㫺	-12.4066
狖	-12.4066
熠	-12.4067
岱嶽觀造像記	-12.4067
殯	-12.4068
道氏經冊	-12.4068
明汪砢玉撰	-12.4068
盌	-12.4069
黄陵廟	-12.4069
滇	-12.4072
郭子儀	-12.4072
升三合重	-12.4072
雨初晴	-12.4073
月二十九日	-12.4074
漉	-12.4074
騘	-12.4074
王世貞國朝名賢遺墨有	-12.4074
蕾	-12.4075
詹孟舉	-12.4075
世說新語	-12.4075
趙希逺	-12.4077
熈五十三年嵗在甲午	-12.4078
趙宧光	-12.4078
頔	-12.4078
武肅王	-12.4078
滕王元嬰	-12.4085
鈕髙三寸	-12.4091
其昌下有董其昌	-12.4091
頁第六十	-12.4156
五分深五寸	-12.4218
書法正傳卷	-12.4535
澡	-12.4543
磋	-12.4546
丁觀鵬	-12.4547
柟	-12.4548
鍜	-12.4548
兩兩耳有提梁右通葢髙	-12.4549
辠	-12.4549
躐	-12.455
訐	-12.455
世祖章皇帝	-12.455
緹	-12.455
鄭法輪	-12.4551
㢠	-12.4551
礫	-12.4551
藝成而下	-12.4552
陳繹曽	-12.4552
咄	-12.4552
寳章待訪録	-12.4552
刑部左侍郎卞永譽撰畵	-12.4552
窖	-12.4553
台候萬福	-12.4553
鬐	-12.4554
荄	-12.4555
噀	-12.4555
邯	-12.4555
天龍八部	-12.4556
南京解元	-12.4556
畫院藝學	-12.4556
鬃	-12.4556
跼	-12.4557
珊瑚網卷三十	-12.4557
韓秀弼	-12.4557
鸛	-12.4557
吊	-12.4557
宣和書譜卷十	-12.4558
咲	-12.4558
獅子林圖	-12.4558
渾然天成	-12.4558
叉	-12.4558
代有其人	-12.4558
九方臯	-12.4558
朦	-12.4558
進士選庶吉士	-12.4558
躊躇	-12.4558
㓕	-12.4559
羣玉堂法帖	-12.4559
等字是也夫言	-12.4559
銘四十字	-12.4559
豈偶然哉	-12.4559
楞	-12.4559
擅豪翰其蹟雜見	-12.4559
徠	-12.456
渢	-12.456
紂	-12.456
羅暉趙襲	-12.456
蔡忠恵	-12.456
邍	-12.4561
悤悤	-12.4561
顱	-12.4561
唐僧懐素	-12.4561
圖繪寶鑑	-12.4561
串	-12.4561
鑚	-12.4561
呪	-12.4561
㝎	-12.4562
法書要錄	-12.4562
郁逢慶	-12.4562
王韶應	-12.4562
卷中幅有	-12.4562
聃	-12.4562
康里巙	-12.4563
蘊	-12.4563
晙	-12.4563
尊勝經	-12.4564
縶	-12.4564
糺	-12.4564
熈五十四年嵗在乙未	-12.4564
羅塞翁	-12.4564
紵	-12.4564
趙世延	-12.4564
引而伸之	-12.4564
悸	-12.4565
忠懿王	-12.4565
殄	-12.4565
檟	-12.4566
按察使	-12.4566
蘧道愍	-12.4566
奭	-12.4566
岳武穆	-12.4567
鉄	-12.4567
陸費墀	-12.4567
踣	-12.4567
前有佩文齋一璽	-12.4567
蘇舜元	-12.4568
魏了翁	-12.4568
何元朗	-12.4568
溪山深秀圖	-12.4568
踊	-12.4568
帘	-12.4569
賄	-12.4569
在西安府	-12.4569
阪	-12.457
褓	-12.457
匏翁家	-12.457
翀	-12.4571
㦂	-12.4572
盡善盡美	-12.4573
放生池碑	-12.4573
鰕	-12.4574
滲	-12.4574
樷	-12.4574
道氏經卷	-12.4574
齍	-12.4575
戴天瑞	-12.4577
珊瑚網卷十	-12.4577
宣和畫譜卷十	-12.4578
筴	-12.4579
千角鹿	-12.4582
㝢	-12.4582
十國春秋	-12.4587
弇州續稾	-12.4593
鑊	-12.4602
眶	-12.4603
册計七	-12.4668
深六寸一分口	-12.4674
寳鑑續纂	-12.4895
滎	-12.5059
匙	-12.5066
普通三年	-12.5067
右寳晉米公	-12.5069
米氏畵史云	-12.507
弦紋鼎	-12.5071
拗	-12.5071
書畵彚考卷四十	-12.5072
醅	-12.5072
軸高四尺	-12.5072
鋗	-12.5074
睎	-12.5075
戌	-12.5075
晉文公復國圖	-12.5075
草書五言律詩一首	-12.5075
忖	-12.5075
書法離鈎卷	-12.5075
浴佛日	-12.5075
黄姬水	-12.5076
章繼伯	-12.5077
去古未逺	-12.5077
侯懋功	-12.5078
剋	-12.5078
橡	-12.5078
敷文閣待制	-12.5078
綳	-12.5079
沆	-12.5079
田家移居圖	-12.508
凰	-12.508
欷	-12.508
腋	-12.508
瘧	-12.508
挟	-12.508
腔	-12.508
漭	-12.508
内合同印	-12.5081
巇	-12.5081
闘	-12.5082
輾	-12.5082
弹	-12.5082
耋	-12.5082
憬	-12.5082
劖	-12.5082
臮	-12.5082
崿	-12.5082
直仁智殿	-12.5083
帔	-12.5083
唼	-12.5083
枒	-12.5083
熾盛光	-12.5083
罥	-12.5084
喚渡圖	-12.5084
墨林硯癖	-12.5084
車府令趙髙	-12.5084
兒寛贊	-12.5085
張舜民	-12.5085
妒	-12.5086
萬幾餘暇	-12.5086
軸高二尺	-12.5086
湔	-12.5086
神逰心賞	-12.5086
墨畫餘俱著色畫第一幅	-12.5087
夢溪筆談	-12.5087
玭	-12.5087
汯	-12.5087
琅邪臨沂人	-12.5087
噓	-12.5087
剰水殘山	-12.5087
得所歸矣	-12.5087
碕	-12.5087
籤	-12.5087
醬	-12.5088
甪	-12.5088
肢	-12.5088
熈五十一年嵗次壬辰	-12.5088
滙	-12.5088
疚	-12.5088
蕉林玉立氏圖書	-12.5088
喘	-12.5089
殂	-12.5089
重價購	-12.5089
咤	-12.5089
城隍廟	-12.509
渰	-12.509
皤	-12.509
小李将軍	-12.509
㒳	-12.509
惺	-12.509
臬	-12.5091
氵	-12.5091
幟	-12.5091
狙	-12.5092
裘曰修	-12.5092
穫	-12.5092
滏	-12.5092
萏	-12.5092
杰	-12.5092
攙	-12.5093
􁉡	-12.5093
畺	-12.5093
眈	-12.5093
錢玉潭	-12.5093
厝	-12.5094
應奉翰林文字	-12.5094
槧	-12.5094
司馬承禎	-12.5094
鏐	-12.5094
焙	-12.5094
𧺫	-12.5094
紇	-12.5094
仔	-12.5095
㱃	-12.5095
厪	-12.5096
繳	-12.5096
三橋文彭	-12.5096
啗	-12.5097
飰	-12.5097
鋟	-12.5097
絅	-12.5097
阬	-12.5097
書苑菁華卷十	-12.5098
駰	-12.5098
埀	-12.51
栁梢青	-12.51
文徵眀	-12.5101
盩	-12.5101
表忠觀碑	-12.5102
榼	-12.5106
季札墓	-12.5108
兩兩耳有提梁右通蓋高	-12.5109
王奉常集	-12.5111
刀劒録	-12.5114
詹景鳳	-12.5119
㺅	-12.5141
深四寸六分口徑	-12.5171
髙七寸三分廣	-12.5218
卷髙八寸廣	-12.5312
寸一分腹圍	-12.5438
文皇哀冊	-12.5545
斤八兩	-12.558
兩兩柱三足有流有鋬	-12.5598
册計十七頁	-12.5606
􁄰	-12.5611
波羅蜜	-12.5613
丁道護	-12.5622
洗藥池	-12.5622
十二辰鑑	-12.5625
宋人畫羅漢像一軸	-12.5626
蚋	-12.5626
南極老人像一軸	-12.5627
寨	-12.5628
宋岳珂撰宋名人真蹟	-12.5629
芑	-12.5629
氐	-12.563
豋	-12.563
博通經史	-12.563
岌	-12.5632
妺	-12.5632
桮	-12.5633
苛	-12.5634
猊抉石渴驥奔泉	-12.5634
以類相從	-12.5635
呦	-12.5635
齠	-12.5635
邅	-12.5636
耳髙一寸濶一寸	-12.5636
㟧	-12.5636
𣑽	-12.5636
愻	-12.5636
歴代無名氏書	-12.5637
槍	-12.5637
瘍	-12.5637
一寸四分濶一寸	-12.5637
壠	-12.5637
筏	-12.5638
贇	-12.5638
蝟	-12.5638
喝	-12.5638
褥	-12.5638
重三十九兩	-12.5638
㬰	-12.5639
董仲舒	-12.5639
崒	-12.5639
襦	-12.5639
灸	-12.5639
祭姪季明文	-12.5639
衺	-12.5639
酹	-12.5639
㑹心不逺二璽	-12.564
燔	-12.564
蕤	-12.564
廛	-12.564
諌議大夫	-12.564
嫰	-12.5641
素絹夲著色畫	-12.5641
簀	-12.5641
怪怪竒竒	-12.5641
春夏秋冬	-12.5641
塏	-12.5641
窊	-12.5641
僎	-12.5642
畫院祇候	-12.5642
粕	-12.5642
煕	-12.5642
荐	-12.5643
按察僉事	-12.5643
佛青箋本泥金書欵識云康熙歲次甲申	-12.5643
無量壽佛	-12.5643
玉清昭應宫	-12.5643
鄣	-12.5643
漼	-12.5643
岳陽樓	-12.5644
寶章待訪録	-12.5644
宜爾子孫	-12.5644
䜛	-12.5644
煬	-12.5644
熈五十年嵗次辛夘	-12.5644
凴	-12.5644
郃	-12.5644
燋	-12.5645
謝惠連	-12.5645
港	-12.5645
宋黄伯思論	-12.5645
獺	-12.5645
買王得羊不失所望	-12.5645
芉	-12.5646
台哈布哈	-12.5646
冋	-12.5646
蓬萊仙奕	-12.5646
墨池璅録	-12.5646
蓽	-12.5646
窣	-12.5646
贛	-12.5647
贑	-12.5647
篩	-12.5647
代不乏人	-12.5648
蜿	-12.5648
屡	-12.5648
棼	-12.5648
輈	-12.5649
饕	-12.5649
甍	-12.5649
卞令之鑒定	-12.565
夗	-12.565
神堯皇帝	-12.565
儀同三司	-12.5651
方絹本淡色	-12.5651
韓王元嘉	-12.5652
舖	-12.5652
王錫爵	-12.5653
八分書無姓名	-12.5653
佯	-12.5654
慥	-12.5654
黿	-12.5654
黽	-12.5654
鏜	-12.5655
酲	-12.5655
多力豐筋者聖無力無筋者病	-12.5655
通泠橋	-12.5656
體元主人萬幾餘暇二璽	-12.5656
書并篆額	-12.5657
躔	-12.5658
澍	-12.5658
徳隅齋	-12.5659
倔	-12.566
餳	-12.566
萸	-12.5661
諜	-12.5664
祝氏集略	-12.5665
珊瑚網卷四十	-12.5665
蒔	-12.5666
莧	-12.5666
賜進士出身	-12.5666
遜志齋集	-12.5667
凟	-12.5667
重二十七兩	-12.5676
髙九寸五分廣	-12.5679
甬長五寸	-12.5683
蝶戀花	-12.5875
像俱泥金畫	-12.5922
幅高七寸	-12.5928
六分深五寸	-12.5978
公麟字伯時	-12.602
七分腹徑	-12.6101
寫生折枝花圖	-12.6109
研露一璽	-12.6179
籛	-12.6217
嬖	-12.6218
醢	-12.6219
耳髙一寸三分濶一寸	-12.6219
自隔至厎	-12.6219
麒	-12.6219
葷	-12.6219
覼	-12.622
運斤成風	-12.6221
代結繩	-12.6221
貉	-12.6221
伯夷叔齊	-12.6221
歐虞褚陸	-12.6221
姒	-12.6221
有奉三無私	-12.6221
杜大綬	-12.6222
窿	-12.6222
旎	-12.6222
齗	-12.6223
寳親王長春居士題	-12.6223
嚬	-12.6223
紿	-12.6223
右髙五寸二分深	-12.6223
永樂大典	-12.6223
晒	-12.6223
欵識云康熙四十五年歲次丙戌	-12.6223
尺牘行書前有	-12.6224
堞	-12.6224
换	-12.6225
裵	-12.6225
筦	-12.6225
陳繹曾	-12.6225
旒	-12.6226
員嶠真逸	-12.6226
纜	-12.6226
軸高三尺	-12.6226
碧梧蒼石	-12.6227
司印半印	-12.6227
㠯	-12.6228
賈膺福	-12.6228
煞	-12.6228
璡	-12.6228
研北雜志	-12.6228
拇	-12.6229
麻姑仙壇記	-12.6229
踟	-12.6229
眘	-12.6229
一代偉人	-12.6229
摛藻為春	-12.6229
永欣寺	-12.6229
六十一年嵗在壬寅	-12.6229
㫋	-12.623
叵	-12.623
敷文閣直學士	-12.623
文震亨	-12.623
瓔珞	-12.623
跏	-12.623
藎	-12.623
郭麟孫	-12.623
𠖇	-12.6231
行書尺牘後署	-12.6231
乳泉賦	-12.6231
郎官壁記	-12.6231
輞	-12.6231
磾	-12.6231
鷟	-12.6231
沈貞吉	-12.6232
封晉國公	-12.6232
韓太史存良	-12.6232
鍵	-12.6232
臈	-12.6232
紙本髙八寸長	-12.6233
鐔	-12.6233
項氏編號	-12.6233
東方朔畫像贊	-12.6233
煇	-12.6233
周公禮殿	-12.6233
踠	-12.6234
烱	-12.6234
肜	-12.6234
㳫	-12.6234
僂	-12.6234
漑	-12.6234
屍	-12.6234
昭文館大學士	-12.6235
鎩	-12.6235
澘	-12.6235
嚥	-12.6235
橛	-12.6236
蛩	-12.6236
􁁵	-12.6236
辵	-12.6236
妆	-12.6236
康里子山	-12.6236
怙	-12.6236
羶	-12.6236
瑊	-12.6236
傴	-12.6237
裸	-12.6237
公字信公珍賞	-12.6237
茝	-12.6237
卬	-12.6238
寞	-12.6238
白氏長慶集	-12.6238
鬖	-12.6238
蠕	-12.6238
踴	-12.6238
項元汴字子京	-12.6239
曕	-12.6239
悃	-12.6239
徐禎卿	-12.6239
嗅	-12.6239
雹	-12.6239
下有趙子昻氏一印	-12.6239
踘	-12.6239
堙	-12.624
蹕	-12.624
冫	-12.6241
撾	-12.6241
帨	-12.6241
駃	-12.6241
褶	-12.6242
丙舍帖	-12.6243
運糧圖	-12.6243
力不一一王羲之	-12.6244
厮	-12.6245
石門文字禪	-12.6245
兩舞相距六寸	-12.6246
淮海秦約	-12.6247
掲傒斯	-12.6247
茉	-12.6248
莉	-12.6248
經筵講官	-12.6252
郴	-12.6256
有筆端造化一璽	-12.6301
腹徑九寸	-12.6389
圖絹畫一幅	-12.6429
並行書第一帖十	-12.6645
啻	-12.6801
戹	-12.6813
斁	-12.6821
枚三十六各長二分重	-12.6836
明人書金剛經一册	-12.6836
洮	-12.6837
芾皇恐頓首再拜上覆	-12.6837
爚	-12.6837
麫	-12.6839
㜏	-12.6839
憧	-12.6839
前有佛像後有韋䭾像俱泥金畫	-12.6839
岏	-12.684
㕑	-12.6842
頮	-12.6843
東方朔畫賛	-12.6843
清夜游西園圖	-12.6843
姧	-12.6843
譖	-12.6844
怍	-12.6844
文獻通考	-12.6844
捄	-12.6845
褘	-12.6845
熙四十八年歲次己丑	-12.6846
膴	-12.6846
媧	-12.6846
恁	-12.6846
秬	-12.6847
蔗	-12.6847
鄱	-12.6847
右髙六寸三分深	-12.6848
缸	-12.6848
廖瑜杭州府志碑碣	-12.6848
右髙五寸三分深	-12.6848
豺	-12.6849
旰	-12.6849
揾	-12.6849
氲	-12.6849
倨	-12.6849
觸類而長	-12.685
偘	-12.685
憙	-12.685
容八合重一斤	-12.685
書藥師經一冊	-12.685
巑	-12.6851
剌	-12.6851
重七十五兩	-12.6851
鄊	-12.6851
甡	-12.6851
誑	-12.6851
画	-12.6851
痍	-12.6852
䵼	-12.6852
幅髙九寸三分廣	-12.6852
彡	-12.6853
捻	-12.6853
鞚	-12.6853
愬	-12.6853
闚	-12.6853
儺	-12.6854
𠫭	-12.6854
貢入太學	-12.6854
庚子銷夏記卷	-12.6854
洸	-12.6854
文殊師利	-12.6854
五字不損本	-12.6854
鎸	-12.6855
籧	-12.6855
相連意在筆前然後作字若平直相似	-12.6855
婣	-12.6855
涙	-12.6856
壚	-12.6856
癢	-12.6856
皇甫規妻	-12.6856
蕉池積雪	-12.6856
齬	-12.6856
籌筆驛詩	-12.6856
礲	-12.6856
天下之能事畢矣	-12.6856
列朝詩集	-12.6857
下有康熙宸翰保合太和二璽	-12.6857
蕞	-12.6857
窰	-12.6857
鐍	-12.6857
翰林要訣	-12.6857
鄖	-12.6857
安能免參學之	-12.6857
猱	-12.6858
蘼	-12.6858
產	-12.6858
㡬暇臨池二璽	-12.6858
大字促令小小字	-12.6858
熈四十九年嵗次庚寅	-12.6858
虔	-12.6859
思過半矣	-12.6859
壎	-12.6859
州團練使	-12.6859
帕	-12.6859
苶	-12.6859
深七寸口徑	-12.6859
籋	-12.6859
眥	-12.6859
顴	-12.686
盧舍那	-12.686
工筆札其蹟雜見	-12.686
簞	-12.686
漵	-12.686
斤十有二兩無銘	-12.686
非虚語也	-12.686
㘭	-12.686
伾	-12.686
黌	-12.686
穂	-12.6861
腎	-12.6861
傘	-12.6861
繒	-12.6861
薿	-12.6861
明趙琦美編	-12.6861
散僧入聖	-12.6861
澷	-12.6861
仙風道骨	-12.6861
仇實甫	-12.6862
掦	-12.6862
矱	-12.6862
鍾離景伯	-12.6862
酆	-12.6863
得心應手	-12.6864
謄	-12.6864
垤	-12.6864
京洛寺塔記	-12.6864
璺	-12.6865
糲	-12.6865
謝肇淛	-12.6865
耿昌言	-12.6866
哇	-12.6866
在宋楮上	-12.6866
作器者之名	-12.6866
天地水三官像三	-12.6866
儓	-12.6867
祝允眀	-12.6867
䥴	-12.6867
籲	-12.6868
訃	-12.6868
廽	-12.6868
沈周下有啟南石田二印	-12.6868
悮	-12.6868
􁊈	-12.6869
珊瑚木難卷	-12.687
州諸軍事	-12.687
菉	-12.6872
睪	-12.6874
㡳	-12.6874
氈	-12.6876
受下吏金	-12.6878
經一本磁青箋泥金書西域字	-12.6878
􁉧	-12.6881
幅髙八寸廣	-12.6893
宋釋仲仁	-12.6895
帖並行書第一	-12.707
兩耳有珥	-12.7147
無銘後一器髙	-12.7149
日敬書一洋箋本墨書欵識云康	-12.718
重八十五兩	-12.7272
九分腹徑	-12.7298
軸髙四尺八寸	-12.7395
重一斤三兩	-12.7485
􁨹	-12.7487
乾隆宸翰幾暇臨池二璽	-12.7491
册計十九頁第	-12.7493
抝	-12.7499
濊	-12.7502
唐林藻深慰帖	-12.7502
襌	-12.7503
悢	-12.7505
糸	-12.7506
橊	-12.7506
韡	-12.7507
菌	-12.7508
跫	-12.7508
砭	-12.7508
焕	-12.7508
枌	-12.7509
鬂	-12.7509
趙冬曦	-12.7509
涔	-12.7509
捽	-12.751
鐺	-12.7511
𦍑	-12.7512
楩	-12.7512
王廙字世將	-12.7512
虀	-12.7512
烟江叠嶂圖	-12.7512
御定佩文齋書畫譜	-12.7514
含英咀華	-12.7514
字仲將京兆人	-12.7514
河東聞喜人	-12.7514
痺	-12.7514
卸	-12.7514
薳	-12.7515
景定間畫院待詔	-12.7515
佗	-12.7515
嵎	-12.7516
佃	-12.7516
片言隻字	-12.7517
囓	-12.7517
㞼	-12.7517
踶	-12.7517
熙四十七年歲次戊子	-12.7517
無欵姓名見跋中	-12.7518
侄	-12.7518
𥻘	-12.7518
名人畫道氏圖	-12.7518
文氏族譜	-12.7518
徽猷閣待制	-12.7519
卷髙八寸一分廣	-12.7519
伉	-12.7519
墊	-12.7519
攤	-12.7519
醸	-12.7519
按察副使	-12.752
酪	-12.752
墁	-12.752
書無量壽經	-12.7521
倏	-12.7521
瀁	-12.7521
磎	-12.7521
尭	-12.7522
胤	-12.7522
朧	-12.7522
心摹手追	-12.7522
嶪	-12.7522
篾	-12.7522
齟	-12.7522
闖	-12.7523
懾	-12.7523
蛤	-12.7524
阨	-12.7524
濰	-12.7524
亻	-12.7524
珎	-12.7524
郫	-12.7524
蜩	-12.7524
項子京家珍蔵	-12.7525
右通蓋高五寸	-12.7525
囏	-12.7525
縵	-12.7525
不及張天然過之天然不及鍾	-12.7525
簌	-12.7525
禙	-12.7526
瀠	-12.7526
擻	-12.7526
上鈐乾隆御筆一璽	-12.7526
掊	-12.7526
芾頓首再啟	-12.7526
黄琳美之	-12.7526
孫過庭字䖍禮	-12.7526
琇	-12.7526
瓏	-12.7527
梟	-12.7527
玢	-12.7527
兇	-12.7527
膓	-12.7527
天水郡圖書印	-12.7528
塍	-12.7528
寸五分重一百	-12.7528
峕	-12.7528
昵	-12.7528
五分深四寸	-12.7528
疥	-12.7529
頊	-12.7529
邏	-12.7529
無名氏畫釋氏圖	-12.7529
獬	-12.753
草書五言律詩款署	-12.753
蜉	-12.753
蔥	-12.753
薾	-12.753
樨	-12.753
洊	-12.7531
屩	-12.7531
諝	-12.7531
焦秉貞	-12.7531
凾	-12.7531
諠	-12.7532
憺	-12.7532
橰	-12.7532
逌	-12.7532
山水純全集	-12.7532
腹徑長五寸	-12.7533
羆	-12.7533
如春蠶吐絲	-12.7534
喁	-12.7534
萇	-12.7534
亅	-12.7534
嚱	-12.7534
唐粉蠟紙	-12.7535
圻	-12.7535
厔	-12.7535
蓓	-12.7537
東都敬愛寺	-12.7537
漢水耿㑹侯書畫之章	-12.7538
矍	-12.7539
炷	-12.7539
蓉	-12.754
春山欲雨圖	-12.754
罾	-12.7541
清容居士集	-12.7542
蝗	-12.7544
樁	-12.7546
續𢎞簡録	-12.7548
鳯頭驄	-12.7551
癸辛雜識	-12.7552
鑑徑五寸	-12.7789
一洋箋本墨書欵識云康熈	-12.7877
分重八兩	-12.803
溧	-12.8071
枤	-12.8212
􁄗	-12.8214
旛	-12.8216
劂	-12.8216
台候動止萬福	-12.8216
貰	-12.8218
舩	-12.8219
褎	-12.8219
崟	-12.822
䖝	-12.822
寶章待訪錄	-12.822
尗	-12.8221
棒	-12.8221
宣徳鏡光箋本	-12.8221
卷歴代鑒藏	-12.8221
泡	-12.8221
勌	-12.8221
中車府令	-12.8222
濟陽考城人	-12.8223
斿	-12.8223
驀	-12.8224
瘵	-12.8225
敔	-12.8225
粮	-12.8226
脁	-12.8226
楼	-12.8227
殢	-12.8228
馮提伽	-12.8228
麵	-12.8228
茰	-12.8228
蹻	-12.8228
蝌	-12.8229
阿彌陀佛	-12.8229
太子司議郎	-12.8229
前無古人後無來者	-12.823
資政殿學士	-12.823
夏雲欲雨圖	-12.823
饜	-12.823
凊	-12.8231
幌	-12.8231
懺	-12.8231
筑	-12.8231
勵杜訥	-12.8232
裴耀卿等	-12.8232
揭徯斯	-12.8232
蔔	-12.8232
虞龢論書表	-12.8232
眵	-12.8232
黟	-12.8232
茜	-12.8233
窒	-12.8233
氷寒於水	-12.8233
娼	-12.8234
揵	-12.8234
贐	-12.8234
飪	-12.8234
跱	-12.8234
廣一丈四尺	-12.8234
禠	-12.8235
誠哉是言	-12.8235
博極羣書	-12.8235
青城山丈人觀	-12.8235
嵂	-12.8236
跕	-12.8236
牣	-12.8236
疫	-12.8236
牂	-12.8237
冄	-12.8237
臝	-12.8237
集賢待制馮子振奉皇姊大長公主命題	-12.8237
輭	-12.8238
鸚	-12.8238
闓	-12.8238
人畫文殊像一軸	-12.8238
惴	-12.8238
中峰和上老師侍者	-12.8238
法書攷卷之	-12.8239
棻	-12.824
驪黄牝牡	-12.824
遴	-12.824
琴書堂都尉耿信公書畫之章	-12.824
翏	-12.8241
輊	-12.8241
解縉書學傳授	-12.8241
鵾	-12.8241
欎	-12.8241
份	-12.8242
佶	-12.8242
右寶晉米公	-12.8242
渻	-12.8242
殪	-12.8242
蕳	-12.8242
徐浩古蹟記	-12.8242
子猷訪戴	-12.8242
無銘第二器髙	-12.8242
萋	-12.8243
驎	-12.8243
洹	-12.8243
廕	-12.8244
􁦝	-12.8244
菹	-12.8244
艦	-12.8244
諸䟦中押縫	-12.8245
闠	-12.8245
闤	-12.8245
酩	-12.8245
喓	-12.8245
塹	-12.8246
清森閣書畫印	-12.8246
周宣王太史史籀	-12.8246
軿	-12.8246
神游心賞	-12.8246
讀碑窠石圖	-12.8246
阯	-12.8247
嬾真草堂集	-12.8247
塼	-12.8248
騕	-12.8248
胆	-12.8248
槨	-12.8248
素邉素鼻無銘徑	-12.8248
适	-12.8248
匊	-12.8249
陊	-12.8249
兩柱三足有流有鋬銘二字	-12.825
咳	-12.825
梈	-12.8251
朅	-12.8251
椘	-12.8252
瑠	-12.8253
墪	-12.8254
􁎽	-12.8255
瑒	-12.8255
鈇	-12.8256
馬令南唐書	-12.8257
璃	-12.8263
吃	-12.8264
分重二十九兩	-12.8265
殱	-12.8269
卷髙八寸四分廣	-12.827
杙	-12.8283
升八合重	-12.8473
寏	-12.8975
巋	-12.8981
韉	-12.8981
挼	-12.8981
禘	-12.8983
絫	-12.8986
襆	-12.8986
姢	-12.8987
右班殿直	-12.8987
磕	-12.8987
惙	-12.8989
砑	-12.899
􁪑	-12.899
刲	-12.8991
陔	-12.8992
送劉太冲序	-12.8992
斸	-12.8993
萄	-12.8994
洧	-12.8994
碌	-12.8994
徯	-12.8994
淖	-12.8995
煟	-12.8995
歔	-12.8995
氅	-12.8995
瀧	-12.8996
鸝	-12.8996
齓	-12.8996
下有石谷子王翬之印二印	-12.8996
敓	-12.8997
鱖	-12.8997
値	-12.8997
世謬詞客前身應	-12.8997
五星二十八宿真形圖	-12.8997
惚	-12.8998
偎	-12.8998
捃	-12.8999
㳂	-12.8999
窶	-12.8999
鬘	-12.8999
籯	-12.8999
僥	-12.8999
擥	-12.8999
枚三十六各長五分重	-12.9
鴞	-12.9
慱	-12.9
蕉林觀其大畧	-12.9
扇卷乙之	-12.9
籞	-12.9
㿃	-12.9001
昞	-12.9001
㭊	-12.9001
得罪始皇幽繫雲陽	-12.9001
䙫	-12.9001
癭	-12.9002
杌	-12.9002
閡	-12.9002
無名氏畫道氏圖	-12.9003
呻	-12.9003
磈	-12.9003
幅髙八寸二分廣	-12.9003
怫	-12.9003
驁	-12.9003
鄦	-12.9003
齷	-12.9003
無欵姓名見䟦中	-12.9003
畣	-12.9004
跖	-12.9004
心慕手追	-12.9004
沌	-12.9004
鍚	-12.9004
瀲	-12.9005
商邱宋犖審定真跡	-12.9005
癰	-12.9005
縂	-12.9005
舲	-12.9005
試郭玘墨	-12.9005
扶風平陵人	-12.9005
旼	-12.9006
捍	-12.9006
意足不求顔色似前身相馬九方	-12.9006
斕	-12.9006
樑	-12.9007
篝	-12.9007
疣	-12.9007
素絹本著色指畫	-12.9007
含經味道二璽	-12.9007
橚	-12.9007
朱熹仲晦父	-12.9007
酡	-12.9008
纇	-12.9008
灊	-12.9008
襠	-12.9008
皥	-12.9008
􁚗	-12.9008
淤	-12.9008
書撰人姓名殘缺	-12.9008
邲	-12.9008
杅	-12.9008
揠	-12.9008
蚪	-12.9008
輻	-12.9009
燐	-12.9009
八分書無書撰人姓名	-12.9009
机	-12.9009
寉	-12.9009
下有康熙稽古右文二璽	-12.9009
列朝人書冊上等	-12.901
鎪	-12.901
侠	-12.901
炁	-12.901
桯	-12.901
姹	-12.901
扞	-12.901
俳	-12.901
翰林學士歐陽炯	-12.901
則古而不今字則長而	-12.901
桔	-12.9011
鵶	-12.9011
餒	-12.9012
卹	-12.9012
纊	-12.9012
曨	-12.9012
靈飛六甲經	-12.9012
噞	-12.9012
墨有時而用	-12.9013
蘺	-12.9013
有趙字大雅	-12.9013
㨿	-12.9014
涂	-12.9014
趙幹江行初	-12.9014
孌	-12.9014
蒜	-12.9014
􁞝	-12.9016
之理極草縱之致不若	-12.9016
徭	-12.9016
埓	-12.9016
踔	-12.9017
惔	-12.9017
覷	-12.9018
鏹	-12.9019
㓙	-12.9019
躚	-12.9019
不著書人名氏	-12.902
澒	-12.902
騏	-12.902
貔	-12.902
颶	-12.9021
臣米友仁鑒定恭跋	-12.9022
四友齋叢	-12.9022
汐	-12.9024
哩	-12.9024
朐	-12.9025
輳	-12.9026
祧	-12.9026
鍛	-12.9028
䞇	-12.903
澠	-12.9032
瑁	-12.9033
祅	-12.9033
死罪死罪	-12.9033
楊廷光畫	-12.9039
褐用粉入	-12.9051
迦佛陀	-12.9119
筆流雲藻二璽	-12.9432
海馬蒲萄鑑	-12.9793
無銘第四器髙	-12.9797
屭	-12.9797
毶	-12.9811
麀	-12.9812
𬒳	-12.9812
八大人覺經	-12.9813
浟	-12.9818
禔	-12.9818
顧野王字希馮	-12.9822
大指下節骨	-12.9822
如右牒到奉行	-12.9822
喑	-12.9824
㛰	-12.9824
闉	-12.9824
􁪘	-12.9824
阮孚蠟屐圖	-12.9825
愾	-12.9825
㮄	-12.9825
有佩文齋璽一	-12.9826
妮	-12.9826
櫚	-12.9826
棅	-12.9827
敻	-12.9828
羿	-12.9829
椷	-12.9829
耽之若此未必謝之	-12.9829
越王宫殿圖	-12.9829
舠	-12.9829
愎	-12.9829
磜	-12.9829
寳真齋法書贊	-12.9829
踽	-12.9829
秤	-12.9829
慼	-12.983
醋	-12.983
􁏦	-12.983
下有惟精惟一乾隆宸翰二璽	-12.983
枮	-12.983
礦	-12.983
泒	-12.983
開府儀同三司尚書左僕射太子少師	-12.9831
型	-12.9831
仲舒欲言災異	-12.9832
靸	-12.9832
㤅	-12.9832
鏃	-12.9832
上鈐廣運之寶	-12.9832
云上比崔杜不足下方	-12.9832
䙀	-12.9832
獷	-12.9832
恧	-12.9833
剗	-12.9833
鹹	-12.9833
上欽定四庫全書清河書畫舫卷	-12.9833
自號四明狂客	-12.9833
錘	-12.9833
幅髙七寸九分廣	-12.9833
口縱三寸七分横四寸	-12.9834
嶻	-12.9834
葯	-12.9835
出入者號令也屈折者殺戮也	-12.9835
欵識云康熙四十四年歲次乙酉	-12.9835
鍮	-12.9835
垍	-12.9835
浮巒暖翠	-12.9835
櫃	-12.9835
蟀	-12.9835
陳皓彭堅	-12.9835
知書畫用筆同矣	-12.9836
蟋	-12.9836
灧	-12.9836
甚慰甚慰	-12.9836
陸機平復帖	-12.9836
𤾉	-12.9836
蔌	-12.9836
道憑虚欲仙	-12.9836
砢	-12.9837
幅右頁署	-12.9837
入賈丞相家	-12.9837
淦	-12.9837
㴠	-12.9837
鄽	-12.9837
上輕車都尉	-12.9838
浼	-12.9838
巧趣精細殆同	-12.9838
無款姓名見跋中	-12.9838
沬	-12.9838
嵳	-12.9838
宣徳牋本著色畫	-12.9838
殹	-12.9838
七分兩舞相距	-12.9838
鴒	-12.9838
疢	-12.9838
諴	-12.9839
匆	-12.9839
筀	-12.9839
駔	-12.9839
書畵彚考卷二十	-12.9839
踉	-12.9839
窬	-12.9839
舁	-12.984
襖	-12.984
圮	-12.984
奎章閣學士院鑒書博士柯九思	-12.984
骩	-12.984
唁	-12.9841
𥚹	-12.9841
佛頂尊勝	-12.9841
幾暇鑑賞之璽	-12.9841
豓	-12.9842
跚	-12.9842
閿	-12.9842
椶	-12.9842
蒭	-12.9843
渦	-12.9843
房璘妻髙氏	-12.9843
愒	-12.9844
澎	-12.9844
幵	-12.9844
行書無書撰人姓名	-12.9844
塔一軸墨箋本泥金書欵識云康熈	-12.9845
泬	-12.9845
敭	-12.9845
艅	-12.9845
芭	-12.9845
分枚三十六各長七分重	-12.9846
芰	-12.9846
汭	-12.9846
柵	-12.9847
伯碩父鼎	-12.9847
珀	-12.9847
辶	-12.9848
髽	-12.9848
甿	-12.9848
梏	-12.9848
僰	-12.9849
莪	-12.9849
嘹	-12.9849
耤	-12.9849
嫘	-12.9849
鎡	-12.9849
瀏	-12.9849
篚	-12.9849
饘	-12.9849
卷髙七寸九分廣	-12.9849
峒	-12.9849
螻	-12.9851
經一本素箋䝉古字	-12.9851
鋐	-12.9851
擿	-12.9852
昴	-12.9852
薺	-12.9853
金薤琳瑯	-12.9853
紬	-12.9854
擬峴臺記	-12.9854
璅	-12.9854
蕢	-12.9855
珝	-12.9856
也予是以知斯	-12.9857
确	-12.9857
噶	-12.9857
澨	-12.9859
乩	-12.9859
寶晉英光集	-12.9859
腯	-12.9862
寒山帚談	-12.9862
腑	-12.9864
􁎐	-12.9864
骼	-12.9868
鈺	-12.9871
􁏢	-12.9888
捕雀貓	-12.9907
右高四寸四分深三寸	-13.0098
腹徑長六寸	-13.0134
乾隆宸翰攜筆流雲藻	-13.0264
右高四寸五分深三寸	-13.0541
妘	-13.0709
只公乎歸徠	-13.0722
痾	-13.0722
稺	-13.0725
欬	-13.0725
倜	-13.0725
刅	-13.0726
不知老之將至	-13.0726
蓰	-13.0727
壷	-13.0727
朞	-13.0728
埤	-13.0729
咿	-13.073
石如飛白木如籀	-13.073
明潘之淙撰	-13.073
臚	-13.0732
熺	-13.0733
柈	-13.0734
行間茂密實亦難過	-13.0734
鴂	-13.0734
綈	-13.0736
榾	-13.0736
夤	-13.0736
篌	-13.0736
嫻	-13.0737
鼙	-13.0737
云頃尋諸名書鍾張信為絶倫其餘不足	-13.0737
胙	-13.0737
薙	-13.0737
旟	-13.0738
工欲善其事必先利其器	-13.0738
穽	-13.0738
韝	-13.0738
雊	-13.0738
籹	-13.0738
券	-13.0738
裠	-13.0739
劘	-13.0739
儿	-13.0739
囉	-13.0739
巴延布哈	-13.0739
簴	-13.074
沮溺之儔	-13.074
蟉	-13.074
譍	-13.074
届	-13.074
鞲	-13.074
坾	-13.074
螫	-13.074
晢	-13.0741
柎	-13.0741
鳳墅續法帖	-13.0742
韋誕書如龍威虎振	-13.0742
餬	-13.0742
草猶當鴈行	-13.0743
何延之蘭亭記	-13.0743
􁄏	-13.0743
胼	-13.0743
也園索氏收藏書畫	-13.0743
戞	-13.0743
睞	-13.0743
夫紙者陣也筆者刀矟也墨者	-13.0744
㓗	-13.0744
玞	-13.0744
忡	-13.0744
爆	-13.0744
心經并繪大士像	-13.0744
珷	-13.0744
棱	-13.0745
褷	-13.0745
箄	-13.0745
𣪚	-13.0745
繖	-13.0745
忼	-13.0745
烜	-13.0746
奎章閣鑒書博士	-13.0746
隟	-13.0746
項希憲家	-13.0746
郾	-13.0746
欵識云康熙四十六年歲次丁亥	-13.0746
鏌	-13.0747
張時徹寧波	-13.0747
湓	-13.0747
埴	-13.0747
賫	-13.0747
罐	-13.0747
知二合也時和氣潤三合也	-13.0747
腊	-13.0747
澑	-13.0747
熲	-13.0747
獨右軍次至大令	-13.0747
鴆	-13.0748
堈	-13.0748
􁁪	-13.0748
册計三十九頁第	-13.0748
姜后免冠	-13.0748
佀	-13.0748
圑	-13.0748
斮	-13.0748
笞	-13.0749
一代祖導十代祖洽九代祖珣八代祖曇	-13.0749
淮安王神通	-13.0749
揮霍如蓴菜條	-13.0749
綆	-13.0749
妳	-13.0749
沕	-13.0749
項墨林鑑賞法書名畫	-13.075
喋	-13.075
雯	-13.075
暍	-13.075
嵯	-13.075
牸	-13.075
娩	-13.075
紕	-13.0751
饁	-13.0751
䍐	-13.0751
囦	-13.0752
䓁	-13.0752
嬬	-13.0752
㳄	-13.0752
醨	-13.0752
鷦	-13.0752
黔寧王子子孫孫永保之	-13.0752
曌	-13.0752
寬	-13.0752
脇	-13.0752
龍跳虎卧	-13.0752
臾	-13.0752
蝣	-13.0752
􁠸	-13.0753
蛱	-13.0753
彘	-13.0754
辣	-13.0754
箎	-13.0754
鶴山中樵者王蒙	-13.0754
溱	-13.0754
雲笈七籖	-13.0754
鼂	-13.0754
甦	-13.0755
玖	-13.0755
暠	-13.0755
澦	-13.0755
翨	-13.0756
俘	-13.0756
霎	-13.0756
閈	-13.0756
學士承㫖榮禄大夫知制誥兼修國史	-13.0756
黄庭換白鵞	-13.0756
􁎾	-13.0757
裼	-13.0757
笄	-13.0758
皇朝事實類苑	-13.0758
鐵圍山叢談	-13.0758
鬳	-13.0758
毣	-13.0759
佟	-13.0759
庋	-13.0759
悊	-13.0759
𬒮	-13.076
湃	-13.076
讋	-13.076
曅	-13.076
紫桃軒又綴	-13.0761
􁚳	-13.0761
􁩉	-13.0762
誾	-13.0762
鞫	-13.0763
溼	-13.0763
犒	-13.0763
撻	-13.0763
莅	-13.0765
榕	-13.0765
[...]
