<unk>	0
<s>	0
</s>	0
。	-2.00013
,	-3.49376
者	-4.52053
、	-4.80148
也	-5.01994
若	-5.05657
故	-5.13436
:「	-5.16336
(	-5.21989
不	-5.49631
二	-5.51539
。」	-5.53799
為	-5.60517
)	-5.61728
以	-5.62358
是	-5.64791
有	-5.67484
一	-5.72452
即	-5.75406
之	-5.77532
謂	-5.79231
中	-5.80468
時	-5.84447
言	-5.85062
法	-5.86067
三	-5.87149
此	-5.87376
人	-5.89877
▁*	-5.91187
等	-5.91916
如	-5.96464
得	-6.02912
無	-6.04664
作	-6.04676
於	-6.09506
比丘	-6.16608
而	-6.16943
心	-6.21057
四	-6.21368
▁	-6.22216
非	-6.24053
行	-6.2762
或	-6.31157
與	-6.33903
說	-6.33922
名	-6.33944
下	-6.35866
我	-6.37549
戒	-6.37651
及	-6.37772
應	-6.38209
云	-6.40356
問	-6.42077
不得	-6.42095
!	-6.43312
受	-6.44042
;	-6.46392
?」	-6.46403
其	-6.47591
彼	-6.48919
)。	-6.48995
佛	-6.52065
五	-6.5284
相	-6.53168
僧	-6.53216
後	-6.53776
事	-6.54495
生	-6.54781
食	-6.55286
至	-6.55658
見	-6.56554
處	-6.57657
則	-6.58159
已	-6.58595
自	-6.59079
:『	-6.59991
上	-6.61764
當	-6.63295
巳	-6.63429
今	-6.6431
大	-6.64914
又	-6.66935
佛言	-6.67408
亦	-6.68917
所	-6.70316
答	-6.72152
衣	-6.74167
在	-6.74481
前	-6.7465
從	-6.75422
犯	-6.75556
令	-6.76853
欲	-6.77115
明	-6.7712
取	-6.78355
?	-6.78791
身	-6.79067
義	-6.7927
出	-6.79423
乃至	-6.80244
。」【	-6.80887
多	-6.8247
同	-6.86099
用	-6.8754
知	-6.88135
來	-6.89637
皆	-6.89647
一切	-6.89901
汝	-6.9121
入	-6.91368
。】「	-6.9162
初	-6.93799
成	-6.94618
通	-6.94951
次	-6.95344
。』	-6.95555
分	-6.9616
如是	-6.98707
隨	-6.98946
因	-6.99321
語	-6.99678
諸	-7.00936
先	-7.02386
緣	-7.02528
便	-7.02585
眾	-7.03061
經	-7.03276
曰	-7.03819
教	-7.03929
物	-7.04913
罪	-7.05126
起	-7.05131
過	-7.06075
王	-7.06449
能	-7.06652
意	-7.07154
道	-7.09267
然	-7.09548
可	-7.12241
六	-7.12427
解	-7.12864
菩薩	-7.13289
持	-7.1354
文	-7.13548
耶	-7.13742
尼	-7.14273
羯磨	-7.15376
由	-7.16709
住	-7.16717
重	-7.17367
須	-7.17607
但	-7.17673
本	-7.17893
正	-7.19095
別	-7.19123
餘	-7.1955
捨	-7.19648
聽	-7.2012
雖	-7.2052
開	-7.21712
釋	-7.22169
著	-7.23678
師	-7.24211
既	-7.25418
善	-7.26104
觀	-7.26201
還	-7.26529
復	-7.27108
世尊	-7.27719
去	-7.28561
具	-7.28828
未	-7.29002
除	-7.30064
答言	-7.30081
若比丘	-7.30134
淨	-7.30255
:	-7.30387
七	-7.32188
共	-7.32536
制	-7.33317
】	-7.33437
他	-7.34837
定	-7.35036
。「	-7.35229
立	-7.35378
第二	-7.35914
結	-7.36506
地	-7.36582
施	-7.36816
依	-7.37752
聞	-7.38899
請	-7.3897
舉	-7.39262
難	-7.399
俱	-7.40261
竟	-7.40476
盡	-7.4114
八	-7.41165
不應	-7.41395
求	-7.42398
常	-7.42414
十	-7.44047
水	-7.44557
小	-7.45709
乃	-7.4623
坐	-7.46238
使	-7.46707
離	-7.48338
出家	-7.48356
對	-7.48413
合	-7.48919
想	-7.48966
故云	-7.49033
破	-7.50592
斷	-7.5182
業	-7.5193
內	-7.52007
體	-7.52177
突吉羅	-7.52303
比丘尼	-7.53752
不犯	-7.54024
方	-7.5403
滅	-7.54101
是名	-7.55699
將	-7.55704
白	-7.55754
律	-7.56719
眾生	-7.56944
更	-7.57493
諸比丘	-7.57939
云何	-7.58001
論	-7.58028
方便	-7.58043
第三	-7.58412
長	-7.58424
疏	-7.58429
外	-7.58467
向	-7.58511
往	-7.59117
波逸提	-7.59426
唯	-7.59877
果	-7.60196
色	-7.60203
各	-7.60878
如來	-7.61011
念	-7.6123
子	-7.61856
失	-7.62663
並	-7.62835
數	-7.63071
報	-7.63514
苾芻	-7.63671
境	-7.65234
即是	-7.6574
異	-7.65807
學	-7.66523
理	-7.67073
日	-7.67268
門	-7.67821
不同	-7.67838
樂	-7.68069
名為	-7.68076
天	-7.68518
清淨	-7.68726
女	-7.69663
約	-7.70677
兩	-7.71127
願	-7.71224
鉢	-7.71834
疑	-7.71864
修	-7.7192
廣	-7.72007
智	-7.7266
位	-7.73172
足	-7.73331
沙彌	-7.73647
惡	-7.73686
供養	-7.74403
發	-7.74583
引	-7.74692
何	-7.74696
不可	-7.75904
必	-7.76069
苦	-7.76308
殺	-7.77047
空	-7.77226
家	-7.77583
故曰	-7.77822
死	-7.78522
現	-7.78669
安	-7.78799
界	-7.7883
就	-7.79191
不知	-7.80122
少	-7.80772
顯	-7.80807
病	-7.81537
攝	-7.82106
實	-7.8232
度	-7.83431
止	-7.83616
口	-7.83714
集	-7.83966
爾時	-7.84323
九	-7.84398
藥	-7.84508
識	-7.84555
直	-7.84806
不能	-7.85235
證	-7.85396
某甲	-7.86481
性	-7.86849
耳	-7.88105
輕	-7.88993
要	-7.89007
好	-7.89341
利	-7.89673
等者	-7.89675
覆	-7.90183
邊	-7.90811
凡	-7.90937
主	-7.90953
所以	-7.91788
示	-7.91858
勝	-7.94034
轉	-7.9413
弟子	-7.9422
品	-7.94491
寶	-7.95116
字	-7.9523
治	-7.95633
略	-7.95674
壞	-7.95879
頭	-7.96157
指	-7.96307
此是	-7.96504
國	-7.97506
信	-7.97656
如法	-7.98241
大德	-7.98732
懺	-7.98801
音	-7.99395
禮	-7.99509
乞	-7.99674
世	-7.99782
第一	-8.01041
總	-8.01809
若有	-8.02146
外道	-8.02446
一人	-8.03615
觸	-8.03734
自恣	-8.03996
聲	-8.05951
差	-8.06137
德	-8.06536
遮	-8.07479
如上	-8.07484
說法	-8.07519
第四	-8.07556
恐	-8.078
反	-8.07857
力	-8.07995
護	-8.08047
手	-8.08224
▁二	-8.0896
若不	-8.09246
受戒	-8.09316
是故	-8.09496
俗	-8.09576
滿	-8.09838
盜	-8.1
莫	-8.10132
被	-8.10835
次第	-8.11205
命	-8.11247
且	-8.114
遂	-8.11462
稱	-8.11509
煩惱	-8.13563
因緣	-8.13607
藏	-8.14077
聖	-8.14233
情	-8.14544
畜	-8.14765
眾僧	-8.15108
四分	-8.15286
誦	-8.15391
據	-8.1592
我今	-8.16341
深	-8.16395
無罪	-8.16746
墮	-8.16861
真	-8.17583
化	-8.17777
我等	-8.17829
到	-8.17974
功德	-8.18315
房	-8.18436
覺	-8.18812
非法	-8.1888
違	-8.18965
量	-8.19201
許	-8.19466
辨	-8.19631
懺悔	-8.19639
根	-8.19766
宿	-8.20321
妄	-8.20727
悉	-8.21022
執	-8.21046
答曰	-8.21693
加	-8.21759
形	-8.21984
無犯	-8.2219
斯	-8.22443
如前	-8.22959
。」「	-8.23009
歸	-8.23489
▁初	-8.23553
遠	-8.23857
父母	-8.24211
慧	-8.24425
并	-8.24762
望	-8.24996
不淨	-8.25132
不成	-8.25546
種	-8.25625
造	-8.25943
說戒	-8.26005
宗	-8.2608
一者	-8.2614
猶	-8.26158
會	-8.26226
屬	-8.26324
故名	-8.26379
涅槃	-8.26642
矣	-8.26667
准	-8.26679
羅	-8.26733
增	-8.27015
極	-8.27029
喻	-8.27203
障	-8.27664
?』	-8.28842
齊	-8.28871
。○	-8.29458
女人	-8.29567
若比丘尼	-8.29597
。】「【	-8.29961
作法	-8.30212
設	-8.30564
和	-8.30589
種種	-8.3065
提	-8.30668
染	-8.30996
親	-8.31183
二者	-8.3156
夜	-8.31812
器	-8.32169
汝等	-8.32564
沙門	-8.32807
高	-8.32831
類	-8.33338
十誦	-8.33569
山	-8.33717
一一	-8.33725
順	-8.33731
亦如是	-8.33866
樹	-8.33877
無有	-8.34882
半	-8.35012
捉	-8.35351
居	-8.3568
應當學	-8.35834
宜	-8.35859
母	-8.35904
三寶	-8.36142
謗	-8.36567
上座	-8.36615
告	-8.37652
長者	-8.37684
火	-8.3778
打	-8.37935
解脫	-8.37937
具足	-8.38316
無量	-8.38487
看	-8.3857
僧祇	-8.38636
此云	-8.39018
大德僧聽	-8.3907
光	-8.39137
計	-8.39184
佛法	-8.39199
傳	-8.39446
!」	-8.3958
成就	-8.39617
思	-8.39797
財	-8.39937
諍	-8.40039
波羅夷	-8.40208
易	-8.40221
安居	-8.40301
神	-8.40841
華	-8.41161
授	-8.41537
近	-8.41585
敬	-8.41701
記	-8.41803
阿難	-8.42073
寺	-8.42338
大乘	-8.42549
於此	-8.42556
不受	-8.42753
而不	-8.43219
又云	-8.43696
爾	-8.43767
益	-8.4377
勸	-8.44334
福	-8.44709
可知	-8.44753
獨	-8.44962
第五	-8.45031
置	-8.45039
圓	-8.45305
然後	-8.45593
列	-8.4567
大眾	-8.4578
分別	-8.46089
草	-8.46219
悔	-8.46264
和尚	-8.46328
迷	-8.46342
現前	-8.46512
服	-8.47747
住處	-8.47886
雜	-8.47991
乎	-8.48183
了	-8.48274
香	-8.48326
拜	-8.4835
兼	-8.48467
波夜提	-8.48626
根本	-8.49227
飲食	-8.49229
不犯者	-8.4947
終	-8.49614
表	-8.49841
簡	-8.49948
流	-8.50009
動	-8.50065
習	-8.50232
棄	-8.50588
年	-8.51361
似	-8.51429
貪	-8.51874
金	-8.51881
賊	-8.51963
威儀	-8.52034
句	-8.52146
何故	-8.52182
之人	-8.52332
五分	-8.52412
聚	-8.52436
十二	-8.5271
巳下	-8.52842
篇	-8.52864
互	-8.52929
土	-8.52997
標	-8.53097
風	-8.53342
邪	-8.53589
舍	-8.53631
是也	-8.53653
和合	-8.54273
世間	-8.54283
書	-8.5448
居士	-8.54608
忍	-8.54847
遣	-8.55025
新	-8.55031
妙	-8.55216
待	-8.55679
何以故	-8.5571
喜	-8.55762
三衣	-8.55901
經云	-8.56003
息	-8.56185
致	-8.56347
夫	-8.57024
受持	-8.57038
諫	-8.57131
長老	-8.57205
有二	-8.57873
全	-8.57992
某	-8.58317
索	-8.58821
收	-8.58862
。【	-8.59019
尊者	-8.59464
誰	-8.59563
木	-8.59569
始	-8.59591
若無	-8.59692
一切眾生	-8.59729
損	-8.59758
亦爾	-8.59762
趣	-8.59768
假	-8.60377
吉	-8.6062
毗尼	-8.60918
如此	-8.61018
婆羅門	-8.61171
○	-8.61219
局	-8.61804
強	-8.62407
唱	-8.62425
那	-8.62705
乘	-8.62738
白衣	-8.63546
施主	-8.64205
所有	-8.64361
伹	-8.64508
持戒	-8.647
不見	-8.64723
諸佛	-8.64782
城	-8.6486
偷蘭遮	-8.64993
例	-8.65018
蘭	-8.65093
眼	-8.65148
判	-8.65178
尊	-8.65228
正法	-8.65232
所謂	-8.65723
覆藏	-8.65841
豈	-8.66053
却	-8.66332
石	-8.66564
文中	-8.66604
準	-8.66954
比	-8.67044
妄語	-8.67387
故知	-8.67658
輕重	-8.67933
之法	-8.68102
座	-8.68415
乞食	-8.68702
興	-8.688
飯	-8.68933
月	-8.69461
細	-8.70031
或有	-8.70255
尚	-8.70333
詣	-8.704
目	-8.7046
歡喜	-8.70468
瞋	-8.70588
酒	-8.70901
語言	-8.70965
不定	-8.70994
縱	-8.71049
問言	-8.71316
奪	-8.71428
衣鉢	-8.71472
是比丘	-8.7159
七日	-8.71595
聲聞	-8.71669
患	-8.71813
況	-8.71939
不聽	-8.71987
譯	-8.72002
以為	-8.72078
法者	-8.72114
沙彌尼	-8.72128
切	-8.72503
此中	-8.72518
塔	-8.72608
臥	-8.72633
即便	-8.72823
面	-8.73072
非時	-8.73348
夏	-8.7337
部	-8.73416
臥具	-8.73713
呵	-8.73957
婆	-8.74038
遍	-8.74122
得罪	-8.74237
應與	-8.74257
三者	-8.74282
飲	-8.74341
和上	-8.74352
久	-8.74601
愛	-8.74632
此戒	-8.74659
生死	-8.74754
供	-8.75115
不須	-8.75224
散	-8.7536
肉	-8.75514
照	-8.75522
惱	-8.75534
決	-8.75542
律云	-8.75579
所說	-8.75624
布薩	-8.76279
自言	-8.76408
「	-8.76469
▁三	-8.76786
害	-8.76866
婬	-8.76933
隨意	-8.77253
若言	-8.77258
像	-8.77436
問曰	-8.77486
象	-8.77536
塵	-8.77562
容	-8.77603
亦不	-8.77654
之時	-8.77737
有三	-8.77747
三種	-8.78001
僧伽婆尸沙	-8.78297
亦名	-8.78481
迦葉	-8.78536
摩	-8.78576
龍	-8.78655
否	-8.78832
之中	-8.78864
進	-8.78937
路	-8.78963
惑	-8.79029
故言	-8.79108
放	-8.7914
自然	-8.79281
海	-8.79286
恒	-8.79413
以此	-8.79431
尋	-8.7962
受用	-8.7986
勿	-8.79993
大小	-8.80138
咸	-8.80213
儀	-8.80382
號	-8.80401
洗	-8.80593
惟	-8.80661
機	-8.80792
古	-8.80969
.	-8.81352
闕	-8.81553
三昧	-8.81556
殘	-8.81599
一心	-8.81689
乖	-8.81893
報言	-8.81922
懷	-8.82248
聚落	-8.82604
中間	-8.82776
脫	-8.82798
陀	-8.82911
云云	-8.83015
如何	-8.83483
間	-8.83597
不與	-8.84023
而去	-8.84089
劫	-8.84199
百	-8.84201
迦	-8.84294
畜生	-8.84639
錢	-8.84964
葉	-8.8498
亦得	-8.85013
首	-8.85316
村	-8.85558
末	-8.85743
毛	-8.86462
達	-8.86522
不許	-8.8656
備	-8.86758
十六	-8.86803
禪	-8.86831
翻	-8.8687
脚	-8.86935
第六	-8.86989
皮	-8.87051
無作	-8.87167
前後	-8.87199
得戒	-8.87368
喚	-8.8746
男	-8.87613
地獄	-8.87631
菩提	-8.87801
牛	-8.87831
作是念	-8.87838
多少	-8.88036
慈	-8.88149
戒本	-8.88151
男子	-8.88384
存	-8.88418
味	-8.8844
漸	-8.88494
婦	-8.88588
白言	-8.88677
彰	-8.88867
序	-8.88983
逆	-8.88983
智慧	-8.89027
何以	-8.89124
林	-8.89228
聖者	-8.89599
留	-8.8975
莊嚴	-8.89818
蓋	-8.89897
急	-8.90115
律中	-8.90217
車	-8.90219
犯重	-8.9023
堂	-8.90238
毀	-8.90249
盛	-8.9075
故須	-8.91049
有一	-8.91067
我當	-8.91171
是為	-8.91393
阿	-8.91437
不作	-8.91483
是以	-8.91599
讚	-8.91892
二種	-8.91928
單	-8.91929
二人	-8.91951
與我	-8.92054
檀越	-8.92066
絕	-8.92312
白如是	-8.92398
述	-8.92503
亦有	-8.92756
千	-8.93053
此人	-8.93064
科	-8.93101
亂	-8.93202
守	-8.93351
觀同上	-8.93692
忘	-8.93851
支	-8.93855
馬	-8.93948
變	-8.94389
多論	-8.94495
五百	-8.94545
破僧	-8.94572
防	-8.94617
舊	-8.94646
奉	-8.94724
究竟	-8.94813
微	-8.9482
減	-8.95067
有人	-8.95226
不為	-8.95271
下明	-8.95483
不善	-8.95554
》	-8.95652
男女	-8.95694
獲	-8.95757
輪	-8.95778
偈	-8.96126
復有	-8.96164
五種	-8.96323
期	-8.9636
時有	-8.965
故制	-8.96597
雙	-8.96699
癡	-8.96854
訶	-8.96901
之義	-8.9749
僧伽	-8.97736
之心	-8.97778
僧中	-8.97895
依止	-8.98509
三說	-8.9861
父	-8.98807
白佛	-8.99128
呪	-8.99141
背	-8.99156
四人	-8.99228
濟	-8.99271
同前	-8.9928
差別	-8.99524
結界	-8.99623
諸天	-8.99798
四句	-8.99901
私	-8.99967
慢	-8.99996
燒	-9.00198
法師	-9.00254
昔	-9.00273
一時	-9.00315
鈔	-9.00361
不捨	-9.00436
普	-9.00551
犯罪	-9.00723
彼比丘	-9.00802
十三	-9.01068
是時	-9.01128
應作	-9.01209
初明	-9.01219
伏	-9.01312
故也	-9.01402
甚	-9.01893
或云	-9.01897
送	-9.02722
布施	-9.02755
床	-9.03046
訖	-9.03263
舍利弗	-9.03299
前人	-9.03306
卷	-9.03419
迴	-9.03578
教授	-9.03617
破戒	-9.03696
俗人	-9.03763
猶如	-9.03844
皆是	-9.03947
專	-9.04022
十一	-9.04145
陳	-9.04216
若作	-9.04243
泥	-9.04306
是人	-9.04428
于	-9.0444
默然	-9.04465
十方	-9.04574
答云	-9.04967
平等	-9.04998
賣	-9.0531
四者	-9.05312
魔	-9.0532
隱	-9.0539
虗	-9.055
越	-9.05509
周	-9.05535
思惟	-9.05595
苾芻尼	-9.05627
繫	-9.05685
結罪	-9.05702
悟	-9.0589
教人	-9.06089
凡夫	-9.06183
行者	-9.0629
節	-9.06486
修行	-9.06681
是中	-9.06681
禁	-9.06934
法界	-9.07166
當知	-9.07259
噉	-9.07271
身口	-9.07414
河	-9.07484
刀	-9.0761
隔	-9.07674
有四	-9.07741
毘尼	-9.0776
竝	-9.07798
有比丘	-9.07864
讚歎	-9.0793
敷	-9.07961
推	-9.08178
作羯磨	-9.08288
不合	-9.08296
十八	-9.08332
園	-9.08365
東	-9.08391
發心	-9.08465
僧殘	-9.08662
雨	-9.08727
元	-9.08754
改	-9.0881
花	-9.08826
餘人	-9.08846
注	-9.08981
鬼	-9.09042
不生	-9.09111
夷	-9.09152
布	-9.09276
名曰	-9.09317
西	-9.09403
遇	-9.09493
法身	-9.09507
鳥	-9.09516
熱	-9.0953
清	-9.09814
註	-9.09926
牒	-9.10126
黑	-9.10303
大臣	-9.10334
兒	-9.10384
田	-9.10464
房舍	-9.10577
受者	-9.10905
非人	-9.11113
無所	-9.11133
氣	-9.11201
助	-9.11213
熟	-9.11314
感	-9.11386
亦應	-9.1161
呵責	-9.1168
濫	-9.11856
永	-9.11866
於中	-9.11997
眾中	-9.12202
亡	-9.12334
告諸比丘	-9.1237
諸苾芻	-9.12371
恭敬	-9.12454
付	-9.12634
怖	-9.1267
第七	-9.12826
若佛子	-9.1284
邪見	-9.12848
之所	-9.13029
五戒	-9.13274
半月	-9.13285
因果	-9.13343
有情	-9.13356
落	-9.13425
無常	-9.13554
爾時世尊	-9.13725
今此	-9.13917
▁|	-9.14001
三人	-9.14109
十五	-9.14131
視	-9.14235
吾	-9.14373
偏	-9.1445
一日	-9.14481
隨順	-9.1451
諸比丘尼	-9.14553
釋迦	-9.14606
都	-9.14694
若欲	-9.14722
所作	-9.14775
法中	-9.14856
是事如是持	-9.15022
承	-9.15029
緣起	-9.15039
命終	-9.15154
功	-9.15234
《	-9.15368
三藏	-9.15389
萬	-9.15621
今日	-9.15757
任	-9.15759
浴	-9.15929
毒	-9.15944
有二種	-9.1604
污	-9.16075
眾多	-9.16168
無明	-9.16185
縛	-9.16221
相應	-9.16281
問訊	-9.16375
限	-9.16509
悉皆	-9.16852
沒	-9.16864
仍	-9.16879
平	-9.16893
擬	-9.17048
應知	-9.17126
伴	-9.17222
律儀	-9.17378
心念	-9.17466
四種	-9.17597
歎	-9.17837
別眾	-9.17874
敘	-9.17888
食者	-9.17957
煞	-9.18031
淨人	-9.18132
小乘	-9.18187
寄	-9.18458
分齊	-9.1851
各有	-9.1861
亦是	-9.18662
巳上	-9.18719
不失	-9.1873
吉羅	-9.18854
若以	-9.1889
恩	-9.19335
律文	-9.19403
是非	-9.19545
曾	-9.19845
薄	-9.19876
一比丘	-9.19891
梵	-9.19988
廣說	-9.20059
章	-9.2015
辭	-9.20203
優婆塞	-9.2024
。△	-9.20264
二十	-9.20265
金剛	-9.20498
目連	-9.20526
救	-9.20542
詳	-9.20675
過去	-9.20708
沙	-9.20801
若人	-9.20837
髮	-9.20924
諸人	-9.21029
難陀	-9.21094
是事	-9.211
徧	-9.21124
麤	-9.21135
界內	-9.21379
露	-9.21601
疾	-9.21609
含	-9.21706
。』」	-9.21877
三界	-9.22325
報曰	-9.22387
交	-9.22402
傷	-9.22441
人天	-9.22467
齋	-9.22473
油	-9.22494
狂	-9.22515
精	-9.2271
現在	-9.22874
法門	-9.2289
光明	-9.23091
太子	-9.23157
船	-9.23262
不問	-9.23295
畏	-9.23307
志	-9.23486
養	-9.23577
諸法	-9.23641
善法	-9.23664
密	-9.23768
身心	-9.23799
憶	-9.23804
己	-9.23947
客	-9.24027
病人	-9.24104
波	-9.24109
今時	-9.24125
退	-9.24135
犯者	-9.24152
發露	-9.24203
利益	-9.24243
南	-9.24271
遊	-9.24361
貴	-9.24518
伽	-9.24677
疏云	-9.24743
堪	-9.24758
軍	-9.24865
蟲	-9.24911
速	-9.25222
十四	-9.25246
怨	-9.25253
有罪	-9.25334
亦可	-9.25403
若爾	-9.25505
官	-9.25972
若僧時到僧忍聽	-9.26065
持犯	-9.26228
時彼	-9.26322
善惡	-9.26394
何等	-9.26434
之處	-9.26448
橫	-9.26481
代	-9.26588
亦云	-9.266
善根	-9.26692
宣	-9.26819
頓	-9.26957
穢	-9.27251
秉	-9.27271
截	-9.27298
中有	-9.27398
受食	-9.27405
若為	-9.27502
佛南無	-9.27517
呼	-9.2759
作衣	-9.27685
寧	-9.27696
必須	-9.27737
歲	-9.27804
脩	-9.27909
此二	-9.27925
堅	-9.27993
次明	-9.28001
大師	-9.28169
最	-9.28576
補	-9.28617
暫	-9.28621
文云	-9.28803
國王	-9.28869
悔過	-9.2887
作是言	-9.28988
壇	-9.28999
衣服	-9.291
資	-9.29187
頂	-9.29195
捨墮	-9.29546
未來	-9.29642
如文	-9.29711
曲	-9.29732
譬如	-9.29761
老	-9.29857
錄	-9.29882
誠	-9.29951
師子	-9.30123
瓶	-9.30222
三業	-9.30279
青	-9.3032
條	-9.30335
招	-9.30451
眷屬	-9.30476
精進	-9.30555
羅漢	-9.30651
大王	-9.30794
務	-9.30879
又復	-9.30938
衣食	-9.30943
第八	-9.31054
誡	-9.31134
諸大德	-9.31249
供給	-9.3137
合掌	-9.31557
雲	-9.31662
捨戒	-9.31708
福田	-9.31797
慈悲	-9.31837
之事	-9.31907
增長	-9.31936
此比丘	-9.31963
自在	-9.31967
一月	-9.31994
佛說	-9.31995
犯戒	-9.32035
杖	-9.32122
式叉摩那	-9.32226
制戒	-9.32303
之相	-9.32402
擯	-9.32444
預	-9.3263
一心奉請	-9.32735
有五	-9.32792
十戒	-9.3282
偷	-9.32837
教誡	-9.3289
價	-9.32961
成佛	-9.33106
北	-9.33272
守護	-9.3351
觀察	-9.33526
常住	-9.33688
缺	-9.3391
屋	-9.33932
焉	-9.33933
嫌	-9.33998
此事	-9.34213
▁四	-9.34217
財物	-9.34221
辦	-9.34251
不以	-9.34326
尼薩耆波逸提	-9.34447
別住	-9.34881
殊	-9.35088
善來	-9.35148
阿闍梨	-9.35161
不說	-9.35193
由此	-9.3525
嚴	-9.35382
不出	-9.35425
律師	-9.35483
白佛言	-9.35529
於彼	-9.35726
廢	-9.35859
」	-9.36021
逐	-9.36087
接	-9.36295
五者	-9.36324
陰	-9.36423
漏	-9.36562
祇	-9.36747
見已	-9.36776
張	-9.36794
具壽	-9.36818
印	-9.36853
袈裟	-9.36874
鐵	-9.36906
展轉	-9.37113
善男子	-9.37144
調伏	-9.37272
誓	-9.374
畢	-9.37444
真實	-9.37509
在家	-9.37556
責	-9.37663
謂是	-9.37751
梵行	-9.37755
遺	-9.37766
而為	-9.37819
無過	-9.37865
白四羯磨	-9.37868
悲	-9.37981
六群比丘	-9.38053
垂	-9.38384
太	-9.38713
牽	-9.38736
池	-9.3878
公	-9.38821
祖	-9.38902
垢	-9.38954
美	-9.39092
不敢	-9.39264
童子	-9.39327
不足	-9.39382
眠	-9.3941
出界	-9.39416
移	-9.39443
長衣	-9.39458
積	-9.39466
名字	-9.3955
此律	-9.3957
遊行	-9.39638
亦無	-9.39672
珠	-9.39772
宮	-9.3981
非是	-9.39821
不解	-9.4006
骨	-9.402
犯捨墮	-9.40306
而住	-9.40405
受具	-9.40454
內外	-9.40524
覓	-9.40626
為說	-9.40658
五人	-9.40885
再	-9.40893
及以	-9.40901
粥	-9.4091
汝今	-9.40956
無相	-9.40976
輒	-9.41048
出罪	-9.41109
圓滿	-9.41119
勤	-9.41133
可得	-9.412
弘	-9.41212
罵	-9.41339
坐具	-9.41505
果報	-9.41575
帝	-9.41708
何不	-9.41787
佛子	-9.41805
問答	-9.41841
三十	-9.42011
下至	-9.42026
有無	-9.42111
黃	-9.42131
拔	-9.42198
相似	-9.42224
以是白佛	-9.42391
誤	-9.42396
若干	-9.42547
納	-9.42549
說淨	-9.42552
聞已	-9.42578
決定	-9.42688
免	-9.4281
披	-9.42882
立謂	-9.43044
梵語	-9.43167
靜	-9.43192
仰	-9.432
戲	-9.43215
愚	-9.43284
住持	-9.43344
錯	-9.43387
五眾	-9.43593
續	-9.43662
不識	-9.43832
浣	-9.4384
不爾	-9.4385
令其	-9.43856
二乘	-9.43892
幾	-9.43947
載	-9.44108
上下	-9.44508
囑	-9.44682
論云	-9.44757
名之為	-9.44824
信心	-9.44986
豈非	-9.45169
懸	-9.45305
世界	-9.45312
買	-9.45538
不起	-9.45549
調	-9.4556
權	-9.4572
聖人	-9.4575
投	-9.45906
三歸	-9.45918
善見	-9.45941
忽	-9.45951
諦	-9.46093
教化	-9.46097
院	-9.46195
何得	-9.46204
僧尼	-9.4628
談	-9.4638
種子	-9.46389
六群	-9.46636
角	-9.46688
無異	-9.46697
姓	-9.46852
實爾	-9.46922
與欲	-9.47197
犯輕垢罪	-9.47461
相續	-9.47614
靈	-9.47651
無人	-9.47659
籌	-9.47713
大僧	-9.47721
亦復如是	-9.47796
諸部	-9.48021
超	-9.48118
無病	-9.48121
瞋恚	-9.48138
。」【【	-9.48152
蜜	-9.48201
無漏	-9.48211
多聞	-9.48249
夫人	-9.48381
之意	-9.48515
繩	-9.48555
調達	-9.48634
作如是語	-9.48654
抄	-9.48679
同上	-9.48839
一是	-9.48988
他人	-9.48991
安樂	-9.4905
禮拜	-9.4917
受法	-9.49335
戒體	-9.4938
下文	-9.49436
赤	-9.4944
步	-9.49455
以其	-9.49456
室	-9.49473
頌	-9.4951
彼云	-9.4961
十五日	-9.49649
不復	-9.49826
倒	-9.49845
網	-9.50043
而生	-9.502
處分	-9.50223
仁	-9.50389
詞	-9.50412
如下	-9.50419
又問	-9.50489
歷	-9.50502
無知	-9.50709
金銀	-9.50735
臨	-9.50784
波逸底迦	-9.50841
壽	-9.50885
四月	-9.50907
阿羅漢	-9.50911
各各	-9.50945
除病	-9.51116
行事	-9.51135
不樂	-9.51196
登	-9.51258
戒法	-9.51296
臣	-9.51305
時諸苾芻	-9.51328
讀	-9.51419
州	-9.51452
上來	-9.51469
神通	-9.51475
善哉	-9.51548
十日	-9.51655
者默然	-9.51679
按	-9.51684
連	-9.51762
何處	-9.52
義也	-9.52027
復次	-9.52117
訓	-9.52131
食時	-9.52132
令彼	-9.52151
帶	-9.52184
鬼神	-9.52247
行法	-9.52283
對治	-9.52329
賢	-9.52371
憂	-9.52395
欲令	-9.52589
領	-9.5283
有三種	-9.52835
徒	-9.52862
集僧	-9.52896
不用	-9.52913
謝	-9.52916
十誦云	-9.52934
自身	-9.52943
降	-9.53034
不名	-9.53059
笑	-9.53147
借	-9.53214
累	-9.53217
講	-9.53304
對首	-9.53318
憶念	-9.53615
僧祇云	-9.53642
說者	-9.53705
法也	-9.5372
告言	-9.54059
為我	-9.54271
而行	-9.54345
哉	-9.54441
而言	-9.54494
唐	-9.54566
惡心	-9.5457
如上說	-9.54609
窮	-9.54669
佛在	-9.54756
共住	-9.54758
一念	-9.54776
又如	-9.54805
四大	-9.54913
大士	-9.54938
偷蘭	-9.55005
不學	-9.5522
燈	-9.55293
亦不得	-9.5535
有所	-9.55363
若是	-9.55427
一處	-9.55491
彌	-9.55557
乳	-9.55685
默	-9.55861
之類	-9.55862
短	-9.55941
屏處	-9.56072
厭	-9.56096
衣物	-9.56128
樹下	-9.56209
皆悉	-9.56214
至於	-9.5623
恐怖	-9.56375
結戒	-9.56411
睡	-9.56425
默然故	-9.56505
負	-9.56633
我某甲	-9.56673
遠離	-9.56723
塗	-9.568
從今是戒應如是說	-9.56945
擔	-9.56953
案	-9.5704
無上	-9.57106
不如	-9.57154
白四	-9.57196
餘比丘	-9.57216
正明	-9.57247
不了	-9.57264
解云	-9.57287
比丘言	-9.57453
三世	-9.57492
彼此	-9.57533
戒者	-9.57735
若見	-9.57812
所為	-9.57858
遣使	-9.57878
剃髮	-9.57995
多有	-9.58082
召	-9.58148
迹	-9.58239
斥	-9.58299
初句	-9.5841
彼人	-9.58669
多人	-9.58805
中道	-9.58838
時諸比丘	-9.5886
過量	-9.58903
塞	-9.58987
更有	-9.59018
洗浴	-9.59048
妨	-9.59054
語諸比丘	-9.59124
此即	-9.59161
應當	-9.59164
若自	-9.59206
曉	-9.59277
五法	-9.59287
僧物	-9.59408
輙	-9.59409
第九	-9.59466
於是	-9.59535
此法	-9.59668
文言	-9.59678
走	-9.59688
若過	-9.5969
蘇	-9.597
其事	-9.59727
作如是言	-9.59747
徵	-9.59781
慈心	-9.59824
此衣	-9.59929
右	-9.59933
而作	-9.59947
魚	-9.60131
夢	-9.60149
但有	-9.60182
與之	-9.60282
繁	-9.60402
不信	-9.60656
此之	-9.60713
涉	-9.60803
生疑	-9.60849
委	-9.60867
律攝云	-9.60937
避	-9.61022
不肯	-9.61104
胎	-9.61147
尼薩耆波夜提	-9.6118
劣	-9.61356
寒	-9.61379
朝	-9.61408
之言	-9.61455
病者	-9.61552
底	-9.61639
有犯	-9.61645
鼻	-9.61659
傍	-9.61662
自作	-9.61686
葢	-9.61725
使人	-9.61732
之罪	-9.61786
仙人	-9.6182
者謂	-9.61868
寂	-9.62209
仙	-9.62294
得名	-9.62395
為僧	-9.62497
蘭若	-9.62563
此三	-9.62624
下示	-9.62626
消	-9.62717
自他	-9.62778
段	-9.62788
准此	-9.62965
附	-9.63026
漿	-9.63083
大界	-9.63085
應受	-9.63097
三乘	-9.63194
一分	-9.63252
倍	-9.633
有五種	-9.63303
僧伽梨	-9.63409
良	-9.63435
不及	-9.63603
出家人	-9.63647
坐禪	-9.637
出世	-9.63743
佛告	-9.63791
拘	-9.63822
於我	-9.63869
纏	-9.63991
上品	-9.64066
申	-9.64106
境界	-9.64473
擲	-9.64531
關	-9.64555
一句	-9.64597
􂌞	-9.64603
眾法	-9.64648
中初	-9.64718
告曰	-9.64737
沙門釋子	-9.6479
喪	-9.64877
審	-9.64883
十七	-9.64904
不如法	-9.64941
無生	-9.64958
經行	-9.64971
滿足	-9.64977
經律	-9.64992
愚癡	-9.65006
即以	-9.65361
無礙	-9.6548
一切法	-9.65563
參	-9.65583
所言	-9.65684
聖教	-9.6576
故名為	-9.65796
戶	-9.65798
五德	-9.65907
辯	-9.66049
下釋	-9.66102
學處	-9.66129
無別	-9.66347
縷	-9.6637
停	-9.66417
遙	-9.66424
界外	-9.66449
黃門	-9.66477
戒場	-9.6651
令他	-9.66541
皆得	-9.66612
譏	-9.66658
佛制	-9.66732
精舍	-9.66742
雖有	-9.66895
鳴	-9.66903
:「『	-9.6691
修道	-9.66952
白二	-9.67017
十九	-9.67064
從此	-9.67104
酥	-9.67159
明日	-9.67163
釋曰	-9.67204
第十	-9.67331
二部	-9.6737
修習	-9.674
寬	-9.67402
勅	-9.67457
點	-9.67505
是事白佛	-9.67536
惡作	-9.67687
僧坊	-9.6769
礙	-9.67729
譏嫌	-9.67771
鬪諍	-9.67779
箋	-9.67818
三句	-9.67893
菩薩戒	-9.6792
端	-9.67935
縫	-9.67965
此則	-9.68004
此謂	-9.68117
此方	-9.68252
作如是念	-9.68438
銅	-9.68469
客比丘	-9.68602
得食	-9.6861
瘡	-9.68648
痛	-9.68736
不離	-9.68736
兵	-9.68748
若彼	-9.68756
餅	-9.68911
共相	-9.68974
受日	-9.6904
若得	-9.69121
或可	-9.69146
典	-9.69192
受具足戒	-9.69281
毗	-9.69312
無心	-9.69353
虫	-9.69425
止犯	-9.69535
慚愧	-9.69691
希	-9.69735
勞	-9.69827
為一	-9.6984
】【	-9.69853
影	-9.70021
米	-9.70044
熏	-9.70089
牀	-9.70101
訶責	-9.70245
飲酒	-9.70347
作淨	-9.7036
之物	-9.70398
禪定	-9.7053
餘處	-9.70551
野	-9.70605
別人	-9.7061
不開	-9.70795
)。」【	-9.70917
不應爾	-9.70927
玄	-9.70937
我是	-9.70977
善心	-9.71017
欲界	-9.7102
)。(	-9.7106
智者	-9.71064
撿	-9.71096
鹿	-9.71098
之文	-9.71112
瓔珞	-9.71198
可解	-9.7124
不滿	-9.71305
某甲比丘	-9.71308
日月	-9.71368
二俱	-9.71456
得突吉羅	-9.71493
得惡作罪	-9.71517
並是	-9.71628
何況	-9.71667
狹	-9.71736
肘	-9.71766
蛇	-9.71784
佛性	-9.71876
穀	-9.72107
作如是	-9.72137
非謂	-9.72219
孔	-9.72263
席	-9.72264
此言	-9.72392
返	-9.7248
及諸	-9.7248
冥	-9.72531
具戒	-9.7255
奴	-9.7262
每	-9.7275
乾	-9.72753
惡業	-9.72769
不堪	-9.72786
僧忍	-9.72795
織	-9.73031
歸依	-9.73159
未得	-9.73208
不言	-9.73229
犯波羅夷	-9.73247
折	-9.73286
般若	-9.73297
見佛	-9.73326
安隱	-9.73459
舍利	-9.73492
知是	-9.73507
十地	-9.73582
經中	-9.73586
有異	-9.73752
應言	-9.73861
結犯	-9.73935
及餘	-9.73966
五分云	-9.74003
餘者	-9.74035
要須	-9.74047
勿令	-9.74195
止持	-9.74302
運	-9.74442
佛在舍衛國	-9.74533
放逸	-9.74584
一向	-9.74739
士	-9.74762
殺生	-9.74767
竹	-9.74803
然此	-9.74827
國土	-9.74851
天子	-9.74879
純	-9.74963
誰不忍者說	-9.74976
是比丘尼	-9.75039
有餘	-9.7504
隨所	-9.7509
得受	-9.75125
佛語	-9.75127
營	-9.7524
不然	-9.75241
不動	-9.75334
嗔	-9.75386
發隱	-9.75388
配	-9.75453
發起	-9.7555
藍	-9.75584
與人	-9.75585
下品	-9.75619
若在	-9.75642
應語	-9.75652
早	-9.75747
屏	-9.75808
王子	-9.75876
迴向	-9.75932
皆有	-9.76
蒙	-9.76041
次科	-9.7606
勢	-9.76082
其人	-9.7611
圖	-9.76213
餓鬼	-9.76339
則無	-9.76384
畫	-9.76477
若能	-9.76478
此明	-9.76484
而得	-9.76487
眾人	-9.7654
令人	-9.76587
三毒	-9.76664
麁	-9.76859
知識	-9.76921
左	-9.76965
餘三	-9.7704
逼	-9.77091
如是等	-9.7719
中初科	-9.77237
便犯	-9.77267
三時	-9.77492
博	-9.77536
所依	-9.77547
只	-9.77621
誑	-9.77633
迦留陀夷	-9.77813
無邊	-9.77859
因此	-9.77875
盡形	-9.77889
浮	-9.77901
受大戒	-9.78085
心亂	-9.78097
淨地	-9.78162
統	-9.7818
佛告諸比丘	-9.78262
源	-9.7833
體性	-9.78413
亦同	-9.78475
行道	-9.78505
不著	-9.7863
不相	-9.78646
梵志	-9.78688
!』	-9.78731
卑	-9.78753
提婆達多	-9.78759
便作是念	-9.78776
戒相	-9.78849
固	-9.7886
不壞	-9.78892
活	-9.78999
福德	-9.79114
汝可	-9.7924
得成	-9.7931
二法	-9.79419
繇	-9.79427
病比丘	-9.79438
婬欲	-9.79468
有四種	-9.79502
特	-9.79542
龍王	-9.79704
四方	-9.79825
適	-9.79855
題	-9.79912
而無	-9.79932
羊	-9.80137
若於	-9.80212
汝當	-9.80292
此文	-9.80436
不行	-9.80633
值	-9.80648
不取	-9.80754
賢聖	-9.80844
作持	-9.80873
若依	-9.80876
契	-9.80901
持律	-9.80911
遙見	-9.80921
親里	-9.81116
受請	-9.81221
誦經	-9.81271
下座	-9.81339
為人	-9.81357
心地	-9.8141
重輕	-9.81447
道俗	-9.81471
欺	-9.81545
惡人	-9.81628
不論	-9.81668
自有	-9.81716
犯墮	-9.81898
▁○	-9.81919
血	-9.81941
利養	-9.8195
當與	-9.81964
真言	-9.82029
扇	-9.8203
六夜	-9.82072
得道	-9.82167
弱	-9.8219
汁	-9.822
隨事	-9.82394
鬪	-9.8247
真如	-9.82533
有主	-9.82544
狗	-9.82586
抱	-9.82694
謂此	-9.82751
若苾芻	-9.82765
導	-9.82807
十種	-9.82815
割	-9.82959
託	-9.83021
應問	-9.83039
君	-9.83048
非威儀	-9.83155
或復	-9.83219
寂靜	-9.83247
若先	-9.83285
不聞	-9.83323
蓮華	-9.83405
場	-9.83417
若僧	-9.83528
囉	-9.83617
三法	-9.83677
驗	-9.83768
慳	-9.83784
有漏	-9.83801
入聚落	-9.83845
最勝	-9.83858
驚	-9.83863
原	-9.83976
我欲	-9.84045
烏	-9.84052
皆名	-9.84081
所得	-9.84093
)(	-9.84133
孝	-9.84247
始終	-9.84321
六道	-9.84342
虛	-9.84418
過失	-9.84456
顛倒	-9.84581
獄	-9.84602
秉法	-9.8461
謂之	-9.84625
而食	-9.84669
淨施	-9.8468
華嚴	-9.84808
飛	-9.84809
必有	-9.84823
死者	-9.84873
能令	-9.84958
人間	-9.8502
樓	-9.85036
」【	-9.85099
闇	-9.8512
延	-9.85187
掌	-9.85292
所明	-9.85317
左右	-9.85322
出離	-9.85478
梨	-9.85521
覩	-9.85568
堅固	-9.85578
道場	-9.85637
五事	-9.85669
或時	-9.85677
教他	-9.85694
若據	-9.85734
以是	-9.8581
無記	-9.86009
故有	-9.86036
不在	-9.86043
貧	-9.86059
小兒	-9.86186
鄔波難陀	-9.86218
白二羯磨	-9.86257
能持	-9.86383
軌	-9.86433
亦非	-9.86516
臂	-9.86543
我不	-9.86584
其中	-9.86692
有緣	-9.86723
但是	-9.8676
親近	-9.86767
星	-9.86854
作此	-9.86883
古人	-9.86936
單白	-9.87028
不具	-9.8708
遵	-9.87099
此物	-9.87104
佛教	-9.87138
此等	-9.87143
無學	-9.87158
九十	-9.87183
以明	-9.87269
不通	-9.87323
若復苾芻	-9.87334
經論	-9.87405
詮	-9.87448
鹽	-9.87451
腹	-9.87493
終不	-9.8754
而坐	-9.87564
為體	-9.87655
五陰	-9.87693
不共	-9.87796
遭	-9.87834
在前	-9.87843
之後	-9.87928
從僧乞	-9.87945
其心	-9.87978
故不	-9.8798
草木	-9.88034
自說	-9.88063
故得	-9.88145
謬	-9.88221
疊	-9.88334
跋難陀	-9.88355
心中	-9.88415
行婬	-9.88459
誘	-9.88465
定慧	-9.88511
戒中	-9.88513
比丘僧	-9.88525
受具足	-9.88526
前二	-9.88547
四重	-9.88612
悅	-9.88658
諸戒	-9.88674
不還	-9.88752
結集	-9.88764
而說	-9.88769
宋	-9.88797
麥	-9.88931
一法	-9.89002
菓	-9.8901
諸菩薩	-9.89115
茲	-9.89301
水中	-9.89392
給	-9.89418
心不	-9.89426
人民	-9.89579
或言	-9.89585
憑	-9.89587
聽法	-9.89719
今詳	-9.89745
且如	-9.89806
有一比丘	-9.89827
亦然	-9.8983
驅	-9.89909
四分律	-9.89949
從今	-9.90027
者即	-9.90163
王曰	-9.90295
此約	-9.90408
)「	-9.90474
往彼	-9.90495
林中	-9.90688
即名	-9.90725
長短	-9.90776
又解	-9.9092
聖道	-9.9104
重罪	-9.91107
不斷	-9.91124
自餘	-9.91132
中說	-9.91146
安置	-9.91165
是法	-9.91166
無主	-9.91217
乃是	-9.91241
不異	-9.91256
相違	-9.91344
無不	-9.91362
重物	-9.9138
五十	-9.91421
或以	-9.91456
刺	-9.9147
該	-9.91475
販賣	-9.91487
疎	-9.91503
鏡	-9.91504
自性	-9.91515
智論	-9.91531
得衣	-9.91592
發菩提心	-9.91673
二眾	-9.91718
須臾	-9.9177
大小便	-9.91795
式	-9.91801
虗空	-9.91854
百千	-9.91856
優波離	-9.91893
成犯	-9.91895
扶	-9.91903
此處	-9.9191
徹	-9.91919
不白	-9.91956
身業	-9.92016
途	-9.92027
數數	-9.92124
不來	-9.92161
磨	-9.92194
天人	-9.92204
與他	-9.92204
余	-9.9227
罰	-9.92274
分二	-9.92318
等事	-9.92495
殿	-9.9255
旨	-9.92565
王舍城	-9.9272
二明	-9.92793
帝釋	-9.92822
作白	-9.92828
際	-9.9286
即得	-9.92955
是則	-9.92997
賞	-9.93032
此翻	-9.93144
可以	-9.93162
能生	-9.93365
一戒	-9.93494
有大	-9.93599
分之	-9.93606
是我	-9.93691
大悲	-9.93717
屈	-9.9385
當來	-9.93871
井	-9.93904
唯識	-9.93912
善見云	-9.94016
淺	-9.94087
七日藥	-9.94153
同一	-9.94173
?」「	-9.94257
處所	-9.94283
有何	-9.94324
更無	-9.94331
兄	-9.94392
禮佛	-9.94398
醫	-9.94422
汝非	-9.94423
主人	-9.94504
加法	-9.94525
貫	-9.94584
佛以是事集比丘僧	-9.94589
我已	-9.94594
作者	-9.94624
或作	-9.94625
不令	-9.94627
波羅	-9.94643
履	-9.94734
舊比丘	-9.94773
揚	-9.94781
一說	-9.94864
尊重	-9.94899
其義	-9.9493
見聞	-9.95018
廣說如上	-9.9509
稟	-9.95125
有病	-9.95165
唵	-9.95198
無間	-9.95439
建	-9.95559
不清淨	-9.95702
諸眾生	-9.95713
施與	-9.95827
優婆夷	-9.9585
為他	-9.95899
出界外	-9.95902
一名	-9.95915
吐	-9.95929
即成	-9.95997
度人	-9.9607
所須	-9.9609
初中	-9.96108
五部	-9.96244
別眾食	-9.96294
護持	-9.96343
于時	-9.96361
之本	-9.96461
婬女	-9.96481
諸惡	-9.96614
弟	-9.96631
倚	-9.96638
閉	-9.96677
方得	-9.96741
:)	-9.9675
里	-9.96751
發願	-9.96838
作犯	-9.96841
舌	-9.96863
恣	-9.96906
規	-9.9693
枝	-9.96959
隨時	-9.97011
懈怠	-9.97057
最初	-9.97126
演	-9.97211
若論	-9.97257
自知	-9.97277
擊	-9.97311
共行	-9.97329
本無	-9.97348
二合	-9.97494
貿	-9.97548
渡	-9.97664
諸比丘白佛	-9.97722
出入	-9.9774
充	-9.97791
作是語	-9.97814
睡眠	-9.97837
來至	-9.97943
行之	-9.98004
誦戒	-9.98006
▁「	-9.98067
端正	-9.98095
壁	-9.98143
穿	-9.98168
昏	-9.98293
著衣	-9.98344
囊	-9.98436
尼眾	-9.9844
南山	-9.98456
昇	-9.98462
隨喜	-9.98627
之名	-9.98666
受樂	-9.98692
闡陀	-9.98751
盡形壽	-9.99084
革屣	-9.9912
賤	-9.99124
二戒	-9.99135
四眾	-9.9914
酬	-9.99144
如是三說	-9.99146
佛為	-9.99178
三品	-9.99333
下次明	-9.99358
慮	-9.99359
既無	-9.99372
時節	-9.99456
牙	-9.9947
我於	-9.99511
亦須	-9.9952
心生	-9.99539
業道	-9.99545
四事	-9.99594
煮	-9.99595
應如是說	-9.99661
若復苾芻尼	-9.99774
折伏	-9.99777
若僧時到	-9.99851
與比丘	-9.99866
姊妹	-9.9988
讀誦	-9.99903
其罪	-9.99925
境想	-9.99971
應先	-9.99973
在後	-10.0005
雖復	-10.0006
世人	-10.0008
醉	-10.0013
制意	-10.0016
戒也	-10.002
不覺	-10.002
離衣	-10.002
四諦	-10.0022
未成	-10.0037
漫	-10.0042
三月	-10.0045
立云	-10.0047
撰	-10.0049
咽	-10.0052
若知	-10.0053
二師	-10.0059
式叉摩尼	-10.0062
兩舌	-10.0068
日日	-10.0073
巳後	-10.0076
其身	-10.0078
檀	-10.0079
逢	-10.0081
難得	-10.0084
石蜜	-10.0096
妻	-10.0099
在此	-10.0102
有十	-10.0112
建立	-10.0115
頗	-10.0119
未有	-10.0122
是中犯者	-10.0126
不入	-10.0134
一種	-10.0139
〔	-10.014
正見	-10.0142
不欲	-10.0143
▁五	-10.0145
均	-10.016
豈可	-10.0162
為欲	-10.0167
應如是	-10.0167
迎	-10.0168
可見	-10.0171
有六	-10.0172
求寂	-10.018
蘊	-10.0183
是衣	-10.019
王言	-10.0197
有疑	-10.0198
無畏	-10.0203
法故	-10.0207
述曰	-10.021
而巳	-10.021
貯	-10.0212
聽作	-10.0214
如律	-10.0215
最後	-10.0217
知足	-10.0219
唯有	-10.0224
音聲	-10.0228
流通	-10.023
拭	-10.0234
學者	-10.0239
無非	-10.0241
湯	-10.0249
任運	-10.0261
闍	-10.0262
入定	-10.0267
二句	-10.0269
親友	-10.0274
道行	-10.0275
不應作	-10.0278
齒	-10.0279
授與	-10.028
巧	-10.0281
聽受	-10.0284
赴	-10.0286
律藏	-10.0287
七種	-10.029
綿	-10.029
相對	-10.029
大海	-10.0294
聞法	-10.0298
濁	-10.0308
議	-10.0312
一部	-10.0322
四禪	-10.0325
為作	-10.0326
受之	-10.0326
成道	-10.0327
三明	-10.0332
前三	-10.0342
舍那	-10.0345
文殊	-10.0348
灰	-10.0358
我見	-10.0364
群	-10.0366
應云	-10.0367
不盡	-10.0375
以上	-10.0377
房中	-10.0385
先明	-10.0392
由是	-10.0397
應可	-10.04
文也	-10.0409
持去	-10.0411
三事	-10.0414
婆沙	-10.0419
攝受	-10.0442
廁	-10.0444
口業	-10.0445
卒	-10.0449
正念	-10.045
僧與	-10.0454
束	-10.0455
偷羅遮	-10.0456
將來	-10.0457
無緣	-10.0458
侍	-10.0462
所攝	-10.0463
波羅提木叉	-10.0464
行人	-10.047
階	-10.048
十四日	-10.049
料簡	-10.049
出家者	-10.0498
增上	-10.0499
後時	-10.0502
維那	-10.0502
伐	-10.0503
寂滅	-10.051
須知	-10.0519
自行	-10.0519
今言	-10.0522
此義	-10.0524
不明	-10.0532
城中	-10.0534
失衣	-10.0535
別請	-10.0539
潤	-10.0545
何者	-10.055
。』」「	-10.055
婦女	-10.0557
崇	-10.0559
替	-10.0561
試	-10.0567
別釋	-10.0568
八戒	-10.0575
念言	-10.0576
淨戒	-10.058
衰	-10.0581
幸	-10.0586
爭	-10.0595
獼猴	-10.0597
不妨	-10.0611
濕	-10.0613
汙	-10.0616
破壞	-10.0616
抑	-10.0624
跡	-10.0626
。』『	-10.063
癡狂	-10.0631
命過	-10.0636
【	-10.0653
賢首	-10.0654
不依	-10.0654
淨法	-10.0659
暗	-10.0662
禮敬	-10.0663
六十	-10.0663
中品	-10.067
侍者	-10.0672
廣大	-10.0673
柱	-10.0673
昧	-10.0674
八種	-10.0675
宅	-10.0677
盤	-10.0681
大衣	-10.0681
無盡	-10.0689
囑授	-10.0693
何所	-10.0694
滅擯	-10.0703
亦如	-10.0708
有此	-10.0709
膝	-10.071
心故	-10.0711
若與	-10.0712
準此	-10.0714
以手	-10.0728
法事	-10.0732
其所	-10.0732
十人	-10.0735
究	-10.0747
八事	-10.0756
察	-10.076
臺	-10.0762
露地	-10.0768
市	-10.077
受苦	-10.0784
二十四	-10.0785
是謂	-10.0786
生滅	-10.0787
處處	-10.0788
勒	-10.0796
寺中	-10.0797
則有	-10.0798
怖畏	-10.0804
片	-10.0809
應以	-10.0811
重犯	-10.0825
割截	-10.0826
所行	-10.0826
纔	-10.0834
輩	-10.0852
但云	-10.0852
作禮	-10.0855
五句	-10.0856
餘二	-10.0856
鼓	-10.0857
道中	-10.0859
糞掃衣	-10.0877
施僧	-10.0892
受衣	-10.0893
於諸	-10.0894
五篇	-10.0897
此乃	-10.0907
修梵行	-10.0913
諸師	-10.0914
以下	-10.0916
犯提	-10.0918
四法	-10.0919
食已	-10.0925
解釋	-10.0943
不自	-10.0948
阿難陀	-10.0955
犍度	-10.096
慈愍故	-10.0965
即為	-10.0973
淨行	-10.0979
緩	-10.0984
久住	-10.0984
敷具	-10.0985
緣處同前	-10.0985
增減	-10.0989
是謂為犯	-10.0994
痛惱所纏	-10.0994
人也	-10.1012
摩觸	-10.1019
呪願	-10.1022
釋云	-10.1026
漢	-10.103
戒律	-10.1038
應取	-10.1038
可爾	-10.1039
三中	-10.1045
臘	-10.1045
不憶	-10.1045
戲笑	-10.105
婢	-10.1053
為本	-10.1054
即往	-10.1054
伽藍	-10.1055
七眾	-10.1061
追	-10.1067
為言	-10.1069
質	-10.1069
菜	-10.1071
足食	-10.1083
藉	-10.1084
人所	-10.1087
三語	-10.1098
僧今	-10.1101
注云	-10.1107
何須	-10.1117
億	-10.1124
時有比丘	-10.1125
尺	-10.1135
若病	-10.1147
不必	-10.1152
佛法僧	-10.1156
不可得	-10.1166
褥	-10.1167
佛住舍衛城	-10.1171
戒師	-10.1174
心無	-10.1174
不共住	-10.1179
同犯	-10.1184
凡聖	-10.1187
得解脫	-10.1192
威	-10.1201
佛令	-10.1206
無我	-10.1207
佛所	-10.1212
七寶	-10.1218
衣者	-10.1219
足數	-10.1221
今解	-10.1227
驅出	-10.1235
僧事	-10.1235
飾	-10.1243
肩	-10.1245
不食	-10.1263
見論	-10.1267
反上	-10.1268
意也	-10.1273
無根	-10.1276
應捨	-10.1282
自稱	-10.1288
薩	-10.1312
通塞	-10.132
長養	-10.1322
思之	-10.1325
違教	-10.1329
不敬	-10.1341
同異	-10.1355
得波羅夷	-10.1356
我某甲比丘	-10.1357
更受	-10.136
陵	-10.1363
秦	-10.1364
織師	-10.1366
與僧	-10.1374
術	-10.138
二處	-10.139
狀	-10.1392
瞻	-10.1397
碎	-10.1398
西方	-10.1407
神力	-10.1413
但以	-10.1414
線	-10.1421
空中	-10.1423
回	-10.1425
針	-10.1426
隨行	-10.1428
着	-10.1428
下三	-10.1433
僧法	-10.1434
梵天	-10.1452
即犯	-10.1457
銀	-10.1462
胡	-10.1462
洲	-10.147
造作	-10.1477
▁初標	-10.1478
故開	-10.1487
佛聽	-10.1491
為因	-10.1494
何為	-10.1499
既不	-10.1502
尾	-10.1502
生天	-10.1509
揀	-10.1512
未曾	-10.1518
惡法	-10.1519
二十一	-10.1522
令知	-10.1527
大德一心念	-10.1531
看病	-10.1537
恚	-10.1545
不退	-10.1548
自心	-10.1557
佛塔	-10.1557
毀呰	-10.1561
僧伽藍	-10.1565
富	-10.1568
省	-10.1568
夏安居	-10.1575
臭	-10.1577
不住	-10.1577
瓦	-10.1577
今既	-10.1586
往來	-10.1598
牆	-10.1599
豈不	-10.1603
教法	-10.1605
三學	-10.161
頭陀	-10.1616
獸	-10.1628
奉行	-10.1631
春	-10.1633
二日	-10.1635
如人	-10.1637
明相	-10.1645
諸居士	-10.1654
受具戒	-10.1655
實相	-10.1656
能持不	-10.1656
斗	-10.1659
有難	-10.1667
厚	-10.1671
明知	-10.1672
持衣	-10.1675
若受	-10.1684
謹	-10.1684
先作	-10.1685
一心奉請佛說	-10.1687
亦復	-10.1687
廣如	-10.1692
善知識	-10.1692
隨機	-10.1707
六根	-10.1711
義故	-10.1713
諸比丘言	-10.1714
三聚	-10.1724
比丘比丘尼	-10.1724
下二句	-10.1727
裏	-10.1732
與汝	-10.1735
天下	-10.1736
互相	-10.1737
三日	-10.1737
我亦	-10.1738
學戒	-10.1739
以法	-10.174
了知	-10.1741
有八	-10.1746
此經	-10.1754
優	-10.1755
啟	-10.176
此亦	-10.1762
等也	-10.1762
未必	-10.1767
次釋	-10.1767
今師	-10.1778
下引	-10.1779
行相	-10.1785
我為	-10.1791
五錢	-10.1796
八十	-10.1797
六句	-10.1801
而起	-10.1804
苦惱	-10.1806
所不應為	-10.1808
爾許	-10.1818
友	-10.1818
手足	-10.1818
言諍	-10.1821
見者	-10.183
償	-10.1832
彌勒	-10.1838
不從	-10.1842
受菩薩戒	-10.1849
六種	-10.1857
廣明	-10.1857
文義	-10.1863
九句	-10.1866
御	-10.1866
無始	-10.1869
年少	-10.1869
冬	-10.187
若未	-10.1875
迦羅	-10.1878
入道	-10.1878
安陀會	-10.1881
誹謗	-10.1886
世尊告曰	-10.1891
競	-10.1891
若說	-10.1893
心者	-10.1894
既有	-10.1894
是佛	-10.1898
諍事	-10.1899
護法	-10.1899
後來	-10.1906
勢分	-10.1909
二字	-10.191
便成	-10.191
侵	-10.1911
生善	-10.1919
不止	-10.1927
而受	-10.1931
剋	-10.1933
既是	-10.1943
未至	-10.1945
一百	-10.1945
獨覺	-10.1952
】「	-10.1952
非沙門法	-10.196
尸羅	-10.1974
掘	-10.1975
稍	-10.1975
脂	-10.1977
初至	-10.1978
以是因緣	-10.1986
掩	-10.1986
所受	-10.1994
無疑	-10.2005
摩那埵	-10.2006
考	-10.2008
側	-10.2013
古師	-10.2014
基	-10.2021
有過	-10.2023
欲得	-10.2024
想疑	-10.2025
道路	-10.203
制斯學處	-10.203
不制	-10.2037
鼠	-10.2037
少欲	-10.2042
四依	-10.2046
知事	-10.2047
滅諍	-10.205
輪王	-10.2051
寫	-10.2052
若犯	-10.2056
念念	-10.2065
慎	-10.2065
豆	-10.2069
等法	-10.2078
第三句	-10.2088
二十八	-10.2091
經宿	-10.2097
此土	-10.2099
不應與	-10.2102
謂於	-10.2115
使者	-10.212
五欲	-10.2125
不語	-10.2127
通達	-10.2129
道理	-10.2138
意云	-10.2142
時藥	-10.2148
除滅	-10.215
此四	-10.2152
六者	-10.2152
癡人	-10.2153
守持	-10.2158
玉	-10.2161
為異	-10.2165
事法	-10.2168
藥叉	-10.2168
舒	-10.2177
大地	-10.2177
一食	-10.2185
斫	-10.2189
不久	-10.2194
諸根	-10.2202
薩婆多云	-10.2203
犯相	-10.2203
門中	-10.2207
頗有	-10.2216
義同	-10.2217
梁	-10.2219
岸	-10.2221
便得	-10.2232
非犯	-10.2232
方可	-10.2237
乏	-10.2239
何謂	-10.2247
文二	-10.2264
無餘	-10.2267
憍慢	-10.2271
解者	-10.2278
東方	-10.2279
我所	-10.2281
不疑	-10.2284
說欲	-10.2284
一事	-10.229
行籌	-10.2292
或為	-10.2295
畢竟	-10.2296
之理	-10.2297
筆	-10.2297
共語	-10.2298
創	-10.2299
)。】「	-10.2302
毘	-10.2305
戒疏	-10.2308
梵網	-10.232
欲心	-10.2321
□	-10.2328
閻浮提	-10.2329
下次	-10.2339
依法	-10.2342
復問	-10.2343
人中	-10.2345
隨其	-10.2345
六眾	-10.2348
吒	-10.235
作是	-10.2376
甘露	-10.2376
作聲	-10.2378
雖是	-10.2379
園中	-10.2379
煑	-10.2381
冷	-10.2384
世俗	-10.2386
其餘	-10.2387
番	-10.2395
巾	-10.2401
惡見	-10.2416
俱舍	-10.2418
依此	-10.242
弊	-10.2421
棄捨	-10.2424
而有	-10.2425
板	-10.2426
敢	-10.2435
人法	-10.2436
釋子	-10.2439
汝實爾不	-10.2439
之過	-10.2443
商主	-10.2452
怪	-10.2452
䟦難陀	-10.2453
力故	-10.2453
汝莫	-10.246
取衣	-10.2474
人說法	-10.2474
墜	-10.2484
立明	-10.2489
恃	-10.249
為說法	-10.2491
饒益	-10.2501
自取	-10.2502
貧窮	-10.2504
隨處	-10.2505
五月	-10.2508
初禪	-10.251
所引	-10.2513
淨心	-10.2523
恭	-10.2524
△	-10.2531
民	-10.2532
惡口	-10.2538
不實	-10.2545
上坐	-10.2551
八難	-10.256
料理	-10.2561
比丘尼僧	-10.2563
開緣	-10.2564
陀羅尼	-10.257
見有	-10.2572
總結	-10.2573
媒嫁	-10.2574
封	-10.2576
詐	-10.2584
符	-10.2588
坐臥	-10.2589
升	-10.2591
第	-10.2592
掃	-10.2602
戒疏云	-10.2603
來者	-10.2604
問云	-10.2611
身體	-10.2612
都無	-10.2618
庶	-10.2625
是名為	-10.2628
他物	-10.2629
若准	-10.2629
為三	-10.2634
真諦	-10.2636
所犯	-10.2645
能所	-10.2647
竪	-10.2648
顧	-10.2648
日中	-10.2657
▁初明	-10.2672
淫	-10.2672
亦犯	-10.2672
奢	-10.2673
剃	-10.2676
犯吉	-10.2677
鐘	-10.2685
幽	-10.2685
自今已去	-10.2692
二根	-10.2697
應為	-10.2715
拂	-10.2717
釋義	-10.2721
翻為	-10.2725
與彼	-10.2726
文句	-10.2735
略說	-10.2742
八敬	-10.2747
壽命	-10.2747
氏	-10.2749
此名	-10.2753
五日	-10.2756
經文	-10.2757
如斯	-10.2757
分明	-10.2757
飢	-10.2757
虎	-10.2765
禁戒	-10.2767
行頭陀	-10.2771
六羣	-10.2791
隨身	-10.2792
今以	-10.2801
此釋	-10.2804
彼言	-10.2805
身命	-10.2807
一家	-10.2815
則不	-10.2816
惠	-10.2817
糞掃	-10.2825
所生	-10.2827
竭	-10.2832
理須	-10.2839
二十五	-10.2839
樂學戒	-10.2842
苾芻白佛	-10.2843
幢	-10.2847
色界	-10.285
注中	-10.2851
盧	-10.2854
之緣	-10.2854
十善	-10.2863
得作	-10.2865
瑜伽	-10.2865
為師	-10.2868
後二	-10.2873
當時	-10.2873
先有	-10.2873
悞	-10.2873
裙	-10.2876
得者	-10.2877
八萬四千	-10.2879
薩婆多論云	-10.288
此某甲	-10.2885
即於	-10.2889
釋名	-10.2891
至心	-10.2896
僧忍默然故	-10.2898
麻	-10.29
唯除	-10.2904
邪命	-10.2906
晝夜	-10.2909
輸	-10.2914
練	-10.2922
不可學	-10.2925
天眼	-10.2926
不喜	-10.2927
各別	-10.2928
一拜	-10.2928
即應	-10.293
已來	-10.2935
前文	-10.2941
諸弟子	-10.2943
名也	-10.2946
方法	-10.295
看病人	-10.295
至彼	-10.2959
三位	-10.2963
過限	-10.2964
最初未制戒	-10.2965
若下	-10.2967
非道	-10.2972
素	-10.2974
族	-10.2974
天王	-10.2975
不去	-10.2975
不過	-10.2978
丈夫	-10.2978
即日	-10.298
口中	-10.2987
鉢中	-10.2991
江	-10.2994
是其	-10.2994
伽論	-10.2999
懼	-10.3
閑	-10.3001
巳來	-10.3003
所詮	-10.3003
食之	-10.3005
煩	-10.3008
六度	-10.301
後安居	-10.3011
泉	-10.3021
晝	-10.3022
我身	-10.303
又言	-10.3034
應用	-10.3042
仁等	-10.3042
有事	-10.3045
所見	-10.3048
從今日	-10.3052
言說	-10.3054
佛在王舍城	-10.306
有七	-10.3063
為眾	-10.3064
盜心	-10.3067
無為	-10.3068
唱言	-10.3069
不應受	-10.3076
頭面禮足	-10.308
摩訶	-10.3082
同學	-10.3083
裁	-10.3088
母論	-10.309
甘	-10.3091
至此	-10.3095
非一	-10.3101
少分	-10.3103
初二	-10.3103
故爾	-10.3107
以成	-10.3112
往昔	-10.3118
僧差	-10.3119
修多羅	-10.3121
尅	-10.3122
兄弟	-10.3125
說戒時	-10.3126
則是	-10.3132
尼師壇	-10.3139
共為	-10.314
商人	-10.3141
殊勝	-10.3146
採	-10.3157
鉤	-10.3157
𨷂	-10.316
理應	-10.317
殺人	-10.317
如實	-10.3174
記云	-10.3179
法輪	-10.3179
事者	-10.3183
三處	-10.3194
為是	-10.3195
僧祇律云	-10.3197
若約	-10.3198
佛世尊	-10.3203
我先	-10.3204
黨	-10.3204
圍繞	-10.3207
戰	-10.3207
聽畜	-10.3209
茶	-10.3215
四十	-10.322
無事	-10.3224
〕	-10.3228
未盡	-10.3228
將去	-10.3231
於佛	-10.3238
第二句	-10.3245
僧次	-10.325
之行	-10.3252
僧房	-10.3257
爪	-10.326
有五事	-10.3261
未知	-10.3265
鈔文	-10.327
二十七	-10.327
是誰	-10.3273
貪心	-10.3273
自巳	-10.3285
二事	-10.3287
薪	-10.3287
集眾	-10.3289
變化	-10.3289
諸尼	-10.3293
奴婢	-10.3296
不能得	-10.33
恨	-10.3301
羯磨疏云	-10.3305
虛空	-10.3305
下句	-10.3307
雖無	-10.3311
作房	-10.3312
即前	-10.3314
有云	-10.3317
四戒	-10.332
作念	-10.332
不分	-10.333
壞色	-10.3334
屍	-10.3337
暮	-10.3343
常行	-10.3354
諦聽	-10.3354
釜	-10.3358
初門	-10.3361
念佛	-10.3363
共宿	-10.3364
轉法輪	-10.3368
善知	-10.3378
天神	-10.3381
羯磨者	-10.3384
聖法	-10.339
坐處	-10.3396
懺法	-10.3397
一夜	-10.3397
障道	-10.3403
與食	-10.3405
伸	-10.3405
故作	-10.3407
必當	-10.3412
非時食	-10.3414
受體	-10.3415
安居竟	-10.3416
更不	-10.3417
初夜	-10.3425
不容	-10.3426
五條	-10.3429
豈得	-10.3431
不正	-10.3432
非淨行	-10.3433
於後	-10.3435
僧忍聽	-10.3436
障礙	-10.344
二名	-10.3443
刑	-10.345
弗	-10.3453
示現	-10.3453
遠近	-10.3457
下二	-10.3458
閏	-10.346
▁二若下	-10.3463
惜	-10.3467
分三	-10.347
自為	-10.3481
媒	-10.3486
無上菩提	-10.3487
時諸	-10.3492
復言	-10.3494
後世	-10.3495
梵音	-10.3495
別有	-10.3497
聞佛	-10.3503
火燒	-10.3505
突	-10.3511
於其	-10.3511
惡道	-10.3512
檢	-10.3513
裹	-10.3515
勤修	-10.3522
雖不	-10.3524
暴	-10.3527
頻	-10.3528
為法	-10.353
汝是	-10.353
坑	-10.3537
終身	-10.354
愛樂	-10.3543
僧殘罪	-10.3545
當作	-10.3551
舍衛國	-10.3551
無二	-10.3552
拒	-10.3553
高座	-10.3554
時中	-10.3555
以無	-10.3556
童女	-10.3562
故今	-10.3563
彼比丘尼	-10.357
正道	-10.3572
祖師	-10.3574
皆由	-10.3576
休	-10.3577
次句	-10.3583
不滅	-10.3585
僧眾	-10.3585
重者	-10.3585
雨衣	-10.3586
作是念已	-10.3589
故律云	-10.3589
作業	-10.3604
貪欲	-10.3606
自手	-10.3611
正是	-10.3612
當以	-10.3612
爾時諸比丘	-10.3613
佛問	-10.3613
保	-10.3616
祇律	-10.362
高聲	-10.3621
十誦律云	-10.3629
與此	-10.3631
令我	-10.3634
罪者	-10.3643
約勅	-10.3649
二罪	-10.3651
辟支佛	-10.3654
等是	-10.3658
幻	-10.366
彼即	-10.3661
衣界	-10.3663
不差	-10.3663
欲求	-10.367
依教	-10.367
六法	-10.3671
不殺	-10.3676
唾	-10.3678
非情	-10.3678
律本	-10.3686
方成	-10.3687
有心	-10.3687
墮罪	-10.3688
旋	-10.3691
鄔陀夷	-10.3691
今欲	-10.3692
應語言	-10.3697
珍寶	-10.37
鄙	-10.3702
㲲	-10.3704
何用	-10.3709
之語	-10.3714
犯緣	-10.3719
行時	-10.372
甚深	-10.3724
五分律云	-10.3726
戒行	-10.3727
假名	-10.3728
篇聚	-10.3728
木叉	-10.3739
說言	-10.3739
脫革屣	-10.3749
未滿	-10.375
我有	-10.3752
豐	-10.3754
射	-10.3754
無犯者	-10.3757
第四句	-10.3761
離本處	-10.3768
本是	-10.3773
種類	-10.3776
毒蛇	-10.378
為二	-10.3785
膩	-10.3791
應須	-10.3791
我巳	-10.3801
而出	-10.3801
司	-10.3804
夜叉	-10.3805
二諦	-10.3806
皆應	-10.381
能為	-10.3822
具緣	-10.3831
唯願	-10.3839
明相出	-10.384
教令	-10.3841
不忍	-10.3843
加行	-10.3845
雞	-10.3845
蕩	-10.3849
若取	-10.3851
苦行	-10.3855
邑	-10.3865
有人言	-10.3865
先後	-10.3869
薩婆多	-10.3874
南無	-10.3876
▁初釋	-10.3881
與尼	-10.3882
死屍	-10.3883
儒	-10.3889
餘如	-10.389
未竟	-10.3891
遠行	-10.3893
歌	-10.3894
二十二	-10.3896
獻	-10.3899
甲	-10.3902
因緣故	-10.3902
手捉	-10.3904
無益	-10.3908
如常	-10.3913
一切菩薩	-10.3915
欲說戒者當如是說	-10.3916
評	-10.3922
乞求	-10.3924
利他	-10.3927
眾多比丘	-10.3928
此非	-10.3931
聞之	-10.3936
了了	-10.3941
謂以	-10.3945
無數	-10.3945
得偷蘭遮	-10.3947
或是	-10.3948
絹	-10.3949
非隨順行	-10.3949
內宿	-10.3949
本律	-10.3952
傾	-10.3961
捨者	-10.3962
此罪	-10.3962
而來	-10.3964
而成	-10.3964
尼薩耆	-10.3969
諸外道	-10.3969
禪師	-10.397
而非	-10.3972
作惡	-10.3972
譬	-10.3976
飯食	-10.3982
於前	-10.3985
為之	-10.3985
不假	-10.3985
法律	-10.3988
融	-10.3993
明其	-10.3994
應量	-10.3997
自受	-10.3998
捨離	-10.3998
引證	-10.4
綱	-10.4001
即此	-10.4004
前明	-10.4005
意者	-10.401
清淨比丘	-10.4011
綴	-10.4011
贊	-10.4012
某處	-10.4015
三十二	-10.4021
歡	-10.4023
入城	-10.4029
如彼	-10.4033
通於	-10.404
應供	-10.4064
非沙門	-10.4065
何有	-10.4067
今依	-10.4068
手受	-10.407
六年	-10.4071
罪也	-10.4072
威德	-10.4085
一云	-10.4087
隨緣	-10.4087
立名	-10.4088
中國	-10.4089
前事	-10.41
知之	-10.4105
僧應	-10.4105
羹	-10.4106
之道	-10.4111
便即	-10.4119
西域	-10.4122
漉	-10.4125
羣	-10.4135
止作	-10.414
入重	-10.4145
盆	-10.4146
城邑	-10.4147
不隨	-10.415
體是	-10.4156
爛	-10.4156
通局	-10.4157
其相	-10.4158
羸	-10.416
施衣	-10.416
惡行	-10.4162
為王	-10.4163
灌	-10.4168
獵師	-10.4169
故曰也	-10.4183
盜戒	-10.4184
虧	-10.4184
遶	-10.4189
大聖	-10.42
不遠	-10.4208
明之	-10.4208
於他	-10.421
巳去	-10.421
斷事	-10.4212
法寶	-10.4215
大姊僧聽	-10.4215
自利	-10.4219
去時	-10.422
前四	-10.4223
滯	-10.4225
不可思議	-10.4229
正釋	-10.4229
往詣	-10.4232
汝所為非	-10.4233
上文	-10.4238
但言	-10.4239
意業	-10.424
阿闍黎	-10.4242
師云	-10.4244
估客	-10.4245
妹	-10.4246
如後	-10.4256
天竺	-10.4258
說也	-10.4262
三戒	-10.4267
此某甲比丘	-10.4274
四緣	-10.4279
欲使	-10.4283
棄之	-10.4286
六塵	-10.4289
一衣	-10.4289
從彼	-10.4289
波羅提提舍尼	-10.429
廣說如前	-10.4291
佛道	-10.4292
上句	-10.4292
集十句義乃至正法久住	-10.4294
與女人	-10.4297
不得與	-10.4297
竊	-10.4298
弓	-10.4299
瞋心	-10.4301
西國	-10.4303
初篇	-10.4305
處者	-10.4305
鈔云	-10.4306
緣中	-10.4307
擇	-10.4308
初文	-10.4311
不忘	-10.4317
惡觸	-10.4321
知法	-10.4321
釋種	-10.4323
貪著	-10.4324
盲	-10.4331
輔	-10.4333
不作淨	-10.4338
一劫	-10.4338
明了	-10.4341
此據	-10.4341
佛物	-10.4344
聚落中	-10.4356
若復	-10.4362
地中	-10.4364
的	-10.4365
況復	-10.4368
有如是	-10.437
浣染	-10.4371
出生	-10.4371
相者	-10.4372
病時	-10.4376
莫不	-10.438
知慚愧者	-10.4382
於一	-10.4384
律制	-10.4385
心也	-10.4389
擎	-10.4389
俱有	-10.4396
出外	-10.4396
觀行	-10.4396
於人	-10.4401
遂便	-10.4403
冀	-10.4404
言無	-10.4405
四邊	-10.441
一切智	-10.4412
便生	-10.4413
知見	-10.4413
亦成	-10.4414
洗足	-10.4417
惡事	-10.4425
愍	-10.4426
釋中	-10.4426
佛告諸苾芻	-10.4431
弄	-10.4431
敗	-10.4432
若其	-10.4439
麤罪	-10.4441
勇	-10.4443
大會	-10.4445
陽	-10.4449
愧	-10.4454
莊	-10.4454
)。「	-10.4456
吉祥	-10.4458
之境	-10.4462
以自	-10.4462
渴	-10.4462
所制	-10.4464
七條	-10.4465
揩	-10.4468
並皆	-10.447
非親里	-10.4471
卿	-10.4475
収	-10.4484
苟	-10.4485
澆	-10.4486
大比丘	-10.4489
諸有	-10.4491
不得作	-10.4492
無由	-10.4493
見諦	-10.4498
受戒者	-10.4502
酪	-10.4503
誰諸長老忍	-10.4509
展	-10.451
無法	-10.4512
玄云	-10.4517
時六群比丘	-10.452
最上	-10.4521
梵云	-10.4521
知其	-10.4522
修善	-10.4523
排	-10.4525
為緣	-10.4527
生起	-10.4529
慶	-10.4529
▁【	-10.453
若聞	-10.4531
不得戒	-10.4533
最初犯戒	-10.4535
上明	-10.4538
癈	-10.4539
神足	-10.4539
波羅蜜	-10.4542
後生	-10.4549
誨	-10.455
說之	-10.4565
不知云何	-10.4568
犯何事	-10.4568
來已	-10.4573
法性	-10.4573
小界	-10.4574
知事人	-10.4582
名利	-10.4584
跪	-10.4594
輕慢	-10.4595
一日一夜	-10.4595
今當	-10.4604
十律	-10.4604
菩提心	-10.4604
頂禮	-10.4608
重受	-10.461
欣	-10.4613
當於	-10.4623
入涅槃	-10.4628
掘地	-10.4641
但為	-10.4642
智論云	-10.4645
立法	-10.4647
愆	-10.4647
遣人	-10.4652
尸	-10.4654
灌頂	-10.4655
現相	-10.4657
更相	-10.4658
波斯匿王	-10.4669
去者	-10.4671
在於	-10.4676
婦人	-10.4679
初果	-10.4688
窟	-10.4693
旦	-10.4695
受生	-10.4696
北方	-10.4697
結重	-10.4701
冠	-10.4704
入白衣舍	-10.4708
天台	-10.471
淨土	-10.4711
信樂	-10.4711
唄	-10.4714
應還	-10.4717
注文	-10.4718
若食	-10.4723
伺	-10.4723
前行	-10.4725
三根	-10.4726
增一	-10.4726
此句	-10.4728
入眾	-10.4732
曠野	-10.4735
差人	-10.4735
為名	-10.4736
微妙	-10.4737
津	-10.4737
胸	-10.4739
撥	-10.4739
刻	-10.474
閣	-10.4744
風吹	-10.4746
為宗	-10.4747
妙法	-10.4751
本罪	-10.4755
一生	-10.4759
作如是白	-10.4759
哀	-10.476
能除	-10.4762
將欲	-10.477
惱他	-10.4772
舊云	-10.4774
施者	-10.4777
二十三	-10.4783
往世尊所	-10.4786
便言	-10.4787
困	-10.4789
枯	-10.4792
沈	-10.4797
婬戒	-10.4802
氈	-10.4802
彼論	-10.4804
教者	-10.4804
初約	-10.4808
糞	-10.4813
對僧	-10.4818
皆犯	-10.4819
問佛	-10.4821
等正覺	-10.4828
叉	-10.4828
要期	-10.4832
近圓	-10.4836
隨相	-10.4842
天上	-10.4843
阿那律	-10.4844
人間遊行	-10.4851
故無	-10.4852
亦當	-10.4857
戒是	-10.4859
制教	-10.486
本意	-10.486
是菩薩	-10.4861
白僧	-10.4862
十六日	-10.4865
犯突吉羅	-10.4871
宜應	-10.4873
繞	-10.4875
著衣持鉢	-10.4881
嫌責	-10.4885
更加	-10.4886
鈍	-10.4888
同住	-10.4888
稅	-10.4889
語比丘言	-10.4896
各自	-10.49
何事	-10.4907
過十日	-10.491
則為	-10.4911
剎利	-10.492
辱	-10.4922
染心	-10.493
欲作	-10.4934
不得食	-10.4936
不別	-10.4943
過者	-10.4945
紐	-10.4948
業報	-10.4949
非理	-10.4949
當願眾生	-10.4949
奉持	-10.4949
本宗	-10.4953
染著	-10.4953
放光	-10.4955
摘	-10.4963
孝順	-10.4964
入僧	-10.4966
僧祗	-10.4971
羅睺羅	-10.4973
金色	-10.4976
梵王	-10.4977
洗手	-10.4978
見其	-10.498
優劣	-10.4982
降伏	-10.4983
去聲	-10.4985
快	-10.4996
聽許	-10.5006
怒	-10.5007
是知	-10.5009
徒眾	-10.5014
化身	-10.5017
十重	-10.5022
箭	-10.5025
惡趣	-10.5028
肆	-10.5028
奇	-10.5029
五中	-10.5035
盡壽	-10.5036
受他	-10.5045
殃	-10.5046
餘法	-10.5053
夏中	-10.5056
良由	-10.5056
破夏	-10.5057
食肉	-10.5058
佛果	-10.5061
論文	-10.5062
至誠	-10.5065
高下	-10.5067
教授師	-10.5068
莖	-10.5069
𠎝	-10.5071
長壽	-10.5072
餘衣	-10.5073
紫	-10.5078
頗有比丘	-10.5079
此下	-10.5082
十誦律	-10.5088
種種呵責	-10.5091
不立	-10.5095
知者	-10.5097
六日	-10.5097
者無犯	-10.5098
在地	-10.5098
師僧	-10.5105
呪術	-10.5106
圍	-10.5107
之體	-10.5107
巳成	-10.511
羊毛	-10.5111
將此	-10.5113
如世尊說	-10.5117
便是	-10.5118
聽諸比丘	-10.5119
一宿	-10.5119
十住	-10.512
請佛	-10.5121
羅剎	-10.5123
賜	-10.5123
甘蔗	-10.5124
之內	-10.5125
即須	-10.5126
一切僧	-10.5126
與衣	-10.5131
有法	-10.5138
舉罪	-10.5144
正行	-10.5144
七者	-10.5148
學人	-10.515
偽	-10.5153
法師曰	-10.5153
僧寶	-10.5156
罪報	-10.5159
惱亂	-10.5175
了論	-10.5176
賓	-10.5178
大戒	-10.5185
本日治	-10.5191
若苾芻尼	-10.5191
猪	-10.5194
左手	-10.5195
偈云	-10.5197
乃至已聞者當重	-10.5198
如佛	-10.52
治之	-10.52
此為	-10.5203
刀杖	-10.5206
剌	-10.5206
不稱	-10.5208
即上	-10.521
好惡	-10.5214
貿易	-10.5218
之外	-10.5219
同時	-10.5224
現前僧應分	-10.5225
灑	-10.5226
結使	-10.5227
又以	-10.5229
受近圓	-10.5233
猛	-10.5236
所造	-10.5239
無表	-10.5241
▁初標名	-10.5241
庫	-10.5248
但使	-10.5249
捨去	-10.5249
懺罪	-10.5252
名義	-10.5254
賊住	-10.5257
可學	-10.5258
得一	-10.5262
修學	-10.5266
佗	-10.5267
後於異時	-10.5275
為彼	-10.528
隣	-10.528
但得	-10.5282
中初示	-10.5283
者善	-10.5284
憐愍	-10.5284
即當	-10.5284
彼便	-10.5287
准前	-10.5287
不修	-10.529
有諸比丘	-10.5293
汝云何	-10.5294
廣說乃至	-10.53
苦樂	-10.5301
對人	-10.5301
整	-10.5302
越毘尼罪	-10.5303
而反	-10.5306
腰	-10.5308
有多	-10.5308
怨家	-10.5309
則知	-10.5311
費	-10.5311
大沙門	-10.5313
復更	-10.5313
驢	-10.5314
為此	-10.5316
有兩	-10.5316
所用	-10.5336
下顯	-10.5339
▁六	-10.5339
作如是說	-10.535
尤	-10.5354
身口意	-10.5357
應法	-10.5359
紙	-10.5361
墮落	-10.5363
語者	-10.5366
槃	-10.5366
所應	-10.5367
難事	-10.537
事理	-10.5375
受三歸	-10.5379
希有	-10.538
多論云	-10.538
報恩	-10.5383
故出精	-10.5384
成重	-10.5389
而立	-10.5392
取者	-10.5394
二三	-10.5395
且約	-10.5401
羯磨竟	-10.5406
斬	-10.5408
死人	-10.5409
如佛所說	-10.5411
十惡	-10.5419
二形	-10.5427
諸文	-10.5429
晉	-10.543
復作是念	-10.5436
俱是	-10.5437
後人	-10.5438
籠	-10.5441
分衣	-10.5442
成正覺	-10.5444
不現	-10.5447
一切諸佛	-10.5448
違犯	-10.5449
倫	-10.5452
四方僧	-10.5453
請僧	-10.5456
作時	-10.546
八法	-10.5461
澄	-10.5463
比尼	-10.5463
無違	-10.5466
諸長老	-10.5467
漸漸	-10.5468
言語	-10.5474
以衣	-10.5479
異處	-10.5483
二教	-10.5485
沉	-10.5491
與前	-10.5494
安住	-10.5499
一邊	-10.55
不捨者	-10.5505
治罰	-10.5506
作布薩	-10.5517
意欲	-10.552
魏	-10.5521
殺者	-10.5524
得物	-10.5525
不得受	-10.5526
身中	-10.5531
千佛	-10.5531
住者	-10.5535
災	-10.5537
前戒	-10.5537
授記	-10.5539
犯也	-10.5543
且據	-10.5544
未能	-10.5546
秋	-10.5546
殺害	-10.5551
即與	-10.5555
忍辱	-10.5555
色心	-10.5556
有德	-10.5557
指授	-10.5562
無窮	-10.5565
共作	-10.5567
亦不應	-10.557
意在	-10.5573
佛弟子	-10.5574
不覆藏	-10.5575
揵度	-10.5575
講堂	-10.5576
非也	-10.5579
人物	-10.5581
耶舍	-10.5582
作方便	-10.5585
▁初問	-10.5586
時王	-10.5596
汝等苾芻	-10.5597
既云	-10.5598
以不	-10.5598
後更	-10.5601
右手	-10.5604
不絕	-10.5604
無厭	-10.5615
五利	-10.5621
不待	-10.5623
五根	-10.5623
越比尼罪	-10.5625
不違	-10.5625
汝不	-10.5628
靜慮	-10.5629
既爾	-10.5631
之功	-10.5637
應教	-10.5642
故非	-10.5645
亦通	-10.5645
少欲知足	-10.5645
本為	-10.5647
離欲	-10.5649
此比丘尼	-10.565
非無	-10.5652
緣覺	-10.5656
捨衣	-10.5657
稽首	-10.5659
不與取	-10.5659
與作	-10.5661
如是白	-10.5664
即入	-10.5669
漏盡	-10.5672
中初文	-10.5684
於上	-10.5686
戒品	-10.5691
此五	-10.5693
二界	-10.5693
異境	-10.5693
或因	-10.5695
為佛	-10.5696
說此	-10.57
何名	-10.57
文殊師利	-10.5701
能破	-10.5701
製	-10.5702
堅持不捨	-10.5702
方能	-10.5706
白衣家	-10.5708
淨者	-10.571
僧集	-10.5711
乃至佛言	-10.5711
孤	-10.5711
開導	-10.5716
如法治	-10.5723
所以者何	-10.5725
功德衣	-10.5725
應分	-10.5736
犯不犯	-10.5736
時到	-10.5737
共期	-10.5738
實作	-10.5741
閱	-10.5745
令得	-10.5747
之業	-10.5752
犯殘	-10.5758
諸有情	-10.5762
入寺	-10.5763
皆為	-10.5764
得果	-10.5764
相見	-10.5767
已下	-10.5767
受五戒	-10.5769
取食	-10.5771
一品	-10.5772
所起	-10.5778
等物	-10.5778
又有	-10.5778
佛即	-10.5779
持鉢	-10.5779
畔	-10.5781
之因	-10.579
受欲	-10.5792
攝頌曰	-10.5792
慚	-10.5796
不求	-10.5802
佛身	-10.5806
大迦葉	-10.5808
知而故問	-10.5808
見他	-10.5809
No	-10.5811
我比丘某甲	-10.5816
皆須	-10.5818
團	-10.5819
請食	-10.5825
。』「	-10.5827
二十九	-10.5828
戒壇	-10.583
年滿二十	-10.5833
所出	-10.5837
萬行	-10.584
約義	-10.5841
吹	-10.5841
闍梨	-10.5842
而能	-10.5844
為利	-10.5847
警	-10.5848
所證	-10.5851
恥	-10.5851
受巳	-10.5851
渠	-10.5853
枕	-10.5858
同宿	-10.5859
出家菩薩	-10.586
是何	-10.5863
成業	-10.5868
商	-10.5872
見之	-10.5872
不舉	-10.588
裂	-10.5881
率	-10.5882
不輕	-10.5883
比丘應	-10.5887
今云	-10.5888
泥洹	-10.5889
次辨	-10.5889
善行	-10.5892
契經	-10.5894
無能	-10.5897
犯輕	-10.5902
為義	-10.5902
境差	-10.5909
遲	-10.5913
一鉢	-10.5914
坊	-10.5917
此心	-10.5919
產	-10.5919
種姓	-10.5921
物者	-10.5922
轉想	-10.5922
為正	-10.5923
而取	-10.5925
或於	-10.5925
來入	-10.5925
手執	-10.5927
受迦絺那衣	-10.5927
上二句	-10.5932
便往	-10.5934
若至	-10.5934
摧	-10.5937
不思議	-10.5939
百年	-10.5941
罪過	-10.5944
學家	-10.5945
他部	-10.5949
還家	-10.595
祭	-10.5953
剎那	-10.5954
名稱	-10.5954
種種因緣呵已	-10.5955
用者	-10.5956
晚	-10.596
善業	-10.5963
湯藥	-10.5964
相與	-10.5966
不集	-10.5968
四位	-10.5969
我若	-10.597
為道	-10.5971
禍	-10.5976
如其	-10.5977
華言	-10.5979
二持	-10.5984
同法	-10.5987
僧界	-10.5989
先受	-10.5989
百歲	-10.599
四果	-10.5993
非畜	-10.5999
多種有漏處	-10.6002
諸佛菩薩	-10.6003
得法	-10.6007
八者	-10.6008
敬重	-10.6009
一卷	-10.601
家中	-10.6014
火淨	-10.6014
籌量	-10.6014
訛	-10.6015
知他	-10.6018
所以爾者	-10.6019
婆羅	-10.6027
與比丘尼	-10.603
針筒	-10.6036
三重	-10.6038
五蘊	-10.6047
鄣	-10.6048
四明	-10.6048
豎	-10.6049
王臣	-10.6053
散亂	-10.6055
自殺	-10.6055
所緣	-10.6056
是罪	-10.6063
成論	-10.6063
同行	-10.6065
儀式	-10.6069
夫婦	-10.6072
佛答	-10.6075
右膝著地	-10.6077
綺	-10.6082
染衣	-10.6087
發言	-10.6094
今為	-10.6095
無著	-10.61
頌曰	-10.6105
剎	-10.6107
更增	-10.6107
違諫	-10.6109
心境	-10.611
旁	-10.6113
進趣	-10.6114
意謂	-10.6116
托	-10.6117
無戒	-10.6118
振	-10.6122
內心	-10.6127
邪正	-10.6128
行處	-10.6129
緣者	-10.6132
僧者	-10.6138
瓶沙王	-10.6139
據此	-10.6144
正受	-10.6144
以此因緣具白世尊	-10.6144
入輕	-10.6149
所對	-10.615
為初	-10.6157
受隨	-10.616
四分云	-10.616
不現前	-10.6163
結大界	-10.6165
聽者	-10.617
娑	-10.6177
三千	-10.6177
謂比丘	-10.6178
白云	-10.6181
勢力	-10.6183
不往	-10.6185
疾病	-10.6187
本處	-10.6198
現行	-10.62
得脫	-10.6207
復以	-10.6208
菩薩摩訶薩	-10.6216
惡獸	-10.622
疏中	-10.6222
於佛法中	-10.6224
於法	-10.6224
未見	-10.6225
墮地獄	-10.6226
罸	-10.6227
新學	-10.6228
人多	-10.623
若使人	-10.6231
換	-10.6235
為大	-10.6236
晨朝	-10.6236
取其	-10.6236
佛像	-10.6239
佛法中	-10.6239
跋	-10.6241
求覓	-10.6243
功能	-10.6246
通名	-10.625
有愛	-10.6251
應得	-10.6257
對境	-10.6262
前境	-10.6262
總別	-10.6263
由斯	-10.6265
諸比丘聞	-10.6269
根本說一切有部毘奈耶	-10.6269
皆以	-10.6269
餘四	-10.627
之具	-10.627
債	-10.6274
云何名	-10.6278
僧已忍	-10.6286
玅	-10.6287
向佛廣說	-10.6291
羯磨師	-10.6294
三結	-10.6298
闕緣	-10.6302
燒香	-10.6303
略舉	-10.6306
彼苾芻	-10.6307
止宿	-10.6309
白王	-10.6313
飽	-10.6317
和僧	-10.6323
何因	-10.6324
儀軌	-10.6325
根本律云	-10.6326
雖非	-10.6326
日暮	-10.6328
若不爾者	-10.6329
僧和合	-10.633
受七日	-10.633
增益	-10.6335
好心	-10.6336
無慚愧	-10.6347
親厚	-10.6358
蓮花	-10.6362
色身	-10.6362
犯僧殘	-10.6363
汝能	-10.6365
時世尊	-10.6366
衣時	-10.6369
為求	-10.637
前安居	-10.6372
佛告阿難	-10.6374
發戒	-10.6376
無妨	-10.6376
法相	-10.6377
施物	-10.6377
得越法罪	-10.6381
如前說	-10.6385
父王	-10.6393
行摩那埵	-10.6395
義通	-10.6397
取物	-10.6398
無有是處	-10.6399
論中	-10.64
中初明	-10.64
授戒	-10.64
離處	-10.64
罷	-10.6404
初釋	-10.6405
諱	-10.6413
得入	-10.6414
法華	-10.6417
十門	-10.6424
作是說	-10.6424
總標	-10.6425
浣衣	-10.6426
此解	-10.6431
初示	-10.6435
現身	-10.6438
相好	-10.644
善能	-10.6441
何時	-10.6444
縵	-10.6445
五衣	-10.6445
儉	-10.646
中夜	-10.6463
小者	-10.6463
般	-10.6463
唯一	-10.6463
軟	-10.6465
爾所	-10.6466
作食	-10.6468
兩句	-10.6469
班	-10.6471
微細	-10.6479
凡有	-10.6481
受教	-10.6485
不染	-10.6487
僻	-10.6488
有五法	-10.6491
可為	-10.6492
不死	-10.6493
厨	-10.6494
後有	-10.6495
不癡	-10.6501
故稱	-10.6503
八句	-10.6505
自下	-10.6506
食竟	-10.6507
此一	-10.651
以辨	-10.651
五逆	-10.6513
心行	-10.6517
資身	-10.6519
當為	-10.6521
眾學	-10.6524
一年	-10.6528
應更	-10.6529
美食	-10.653
見此	-10.6533
本師	-10.6535
偏袒右肩	-10.6536
麁罪	-10.6543
寺內	-10.6544
遊戲	-10.6549
除去	-10.655
三年	-10.655
重也	-10.6553
能作	-10.6554
作意	-10.6557
繩床	-10.6558
盡集	-10.6559
不宜	-10.6562
戒經	-10.6564
自恣竟	-10.6564
慕	-10.6565
危	-10.6565
事諍	-10.6567
本境	-10.6567
有因緣	-10.6568
何意	-10.6572
烟	-10.6574
阿修羅	-10.6576
衣價	-10.6578
著袈裟	-10.6578
祗	-10.6579
拾	-10.6581
見我	-10.6588
揲	-10.6592
須陀洹	-10.6593
釋上	-10.6595
難緣	-10.6596
貨	-10.6599
彈指	-10.6599
粟	-10.6602
括	-10.6605
知時	-10.6606
裸形	-10.6607
財寶	-10.6616
天女	-10.6618
結小界	-10.6619
作餘食法	-10.6621
九品	-10.6621
答中	-10.6626
餘皆	-10.6629
虗妄	-10.6632
絲	-10.6634
故犯	-10.6635
三世諸佛	-10.6642
食處	-10.6642
此是共戒	-10.6643
猒	-10.6644
實無	-10.6645
隨心	-10.6646
四天王	-10.6648
以水	-10.6648
寶物	-10.6651
價直	-10.6651
以此因緣	-10.6652
聰明	-10.6654
所成	-10.6656
此身	-10.6657
今則	-10.6658
鄔波馱耶	-10.6659
信施	-10.6662
百一	-10.6666
今從僧乞	-10.6667
還報	-10.6668
嘆	-10.6669
愈	-10.6669
樹葉	-10.6674
受戒人	-10.6676
七非	-10.668
三緣	-10.6682
曳	-10.6683
煎	-10.6684
醫藥	-10.6684
往至	-10.6685
文意	-10.6689
共分	-10.6693
式叉迦羅尼	-10.6694
雪山	-10.6694
受歲	-10.6697
法式	-10.6697
由彼	-10.6697
懺者	-10.6698
常為	-10.6699
教行	-10.6701
付囑	-10.6701
施食	-10.6702
豈有	-10.6703
戾	-10.6707
𦦨	-10.6708
礪云	-10.6716
覽	-10.6716
二年	-10.6717
立制	-10.6718
本源	-10.672
豫	-10.6721
響	-10.6723
然燈	-10.6723
過患	-10.6726
下結	-10.6728
今有	-10.6729
曬	-10.6732
罪福	-10.6734
結成	-10.6734
祇桓	-10.6735
宣說	-10.6742
頃	-10.6743
象馬	-10.6744
我聞	-10.6744
合有	-10.6746
甞	-10.6748
釋相	-10.6749
男根	-10.675
受施	-10.675
實語	-10.675
三塗	-10.6751
亦如上說	-10.6751
無垢	-10.6752
理無	-10.6753
謀	-10.6758
飡	-10.6761
入村	-10.6761
楊枝	-10.6763
編	-10.6763
一罪	-10.6765
鈍根	-10.6767
無難	-10.6768
野干	-10.677
信受	-10.6775
所列	-10.6777
皆突吉羅	-10.6779
卷第十	-10.6783
鬬	-10.6783
革	-10.6786
受已	-10.6786
祇云	-10.6788
下指	-10.6789
忌	-10.6789
喜樂	-10.679
傍生	-10.6791
即如	-10.6792
遷	-10.6794
頭上	-10.6795
相攝	-10.6798
加持	-10.6802
佛戒	-10.6804
其中有少欲知足	-10.6811
詰	-10.6811
欲明	-10.6814
應在	-10.6821
而入	-10.6822
箇	-10.6823
在中	-10.6828
暢	-10.6828
俗家	-10.6829
屠	-10.683
罔	-10.6832
言之	-10.6836
置地	-10.6839
一乘	-10.6839
相貌	-10.6841
工	-10.6847
初地	-10.6857
著用	-10.6861
今若	-10.6861
捕	-10.6861
刪	-10.6861
後明	-10.6863
界中	-10.6869
一重	-10.6869
自持	-10.6871
盡未來際	-10.6876
餘事	-10.6885
善生	-10.6888
具說	-10.6892
五緣	-10.6898
用之	-10.6899
胡跪合掌	-10.69
式叉	-10.6902
搖	-10.6902
非親	-10.6902
見彼	-10.6903
三性	-10.691
所修	-10.6925
為首	-10.6926
空處	-10.6928
當還	-10.6929
不至	-10.6931
爾時六群比丘	-10.6931
行也	-10.6937
亦如上	-10.6937
別相	-10.6942
既非	-10.6943
辛	-10.6943
信敬	-10.6946
方丈	-10.6947
二義	-10.695
謂前	-10.6952
故經云	-10.6954
業疏	-10.6956
離衣宿	-10.6957
七逆	-10.6957
出家受具足戒	-10.6959
互用	-10.696
依律	-10.6967
命根	-10.6968
受取	-10.6969
柔軟	-10.6971
還來	-10.6971
相也	-10.6976
有益	-10.6977
故下	-10.6978
道者	-10.6984
諸苾芻尼	-10.6984
見聞疑	-10.6987
嫉	-10.6989
是戒	-10.699
受十戒	-10.699
地上	-10.6992
事故	-10.6993
取水	-10.6995
健	-10.6996
功用	-10.6996
誰能	-10.7
淨水	-10.7
三十六	-10.7001
微塵	-10.7005
則成	-10.7011
皷	-10.7015
譽	-10.7017
是一	-10.7019
丈	-10.7025
煖	-10.7029
捨者善	-10.7036
汝實作是事不	-10.7038
彼文	-10.7039
秊	-10.704
中下	-10.7043
僧得	-10.7044
琉璃	-10.7045
僧食	-10.7045
彼律	-10.7046
勸令	-10.7054
事竟	-10.7055
之益	-10.7056
云何名比丘	-10.7057
山林	-10.7058
方成本	-10.7059
促	-10.7061
失受	-10.7061
中前	-10.7061
還復	-10.7063
彈	-10.7066
攬	-10.7067
從生	-10.7067
飲水	-10.7069
穴	-10.7069
餘物	-10.7069
一界	-10.7072
界者	-10.7072
妻子	-10.7073
迦絺那衣	-10.7075
重故	-10.7088
得重	-10.7089
得提	-10.7089
自念	-10.7095
遣信	-10.7096
初科	-10.7098
故此	-10.7098
順教	-10.71
起心	-10.71
一切佛	-10.7102
惡性	-10.7103
滅度	-10.7106
見道	-10.7109
聖制	-10.7115
思念	-10.7116
聞是事心不喜	-10.7117
初標	-10.7118
三身	-10.7121
捨心	-10.7122
勵	-10.7126
又下	-10.7128
招譏	-10.713
多羅	-10.7133
後方	-10.7136
東西	-10.7139
古來	-10.7139
二緣	-10.7142
能受	-10.7143
然則	-10.7143
與佛	-10.7144
正義	-10.7144
起過	-10.7144
不答	-10.7144
業障	-10.7151
制令	-10.7151
學法	-10.7151
所求	-10.7152
毒藥	-10.7154
舍衛城	-10.7154
別解	-10.7159
同意	-10.7159
無量無邊	-10.716
二禪	-10.7163
利根	-10.7173
所防	-10.7173
能治	-10.7173
二十六	-10.7176
能滅	-10.7177
我以	-10.7179
克	-10.7181
四中	-10.7183
唯局	-10.7189
摩羅	-10.7189
大慈	-10.7193
救護	-10.7193
眾苦	-10.7195
偏露右肩	-10.7198
不教	-10.7202
笈多	-10.7204
優陀夷	-10.7205
文三	-10.7206
罷道	-10.7209
反此	-10.7212
彼處	-10.7217
門外	-10.7217
多種	-10.7218
正信	-10.722
違制	-10.7222
並同	-10.7222
不應畜	-10.7223
器中	-10.7226
梵行難	-10.7226
今初	-10.7234
解界	-10.7235
不放逸	-10.7237
十力	-10.7239
彼有	-10.724
古今	-10.7241
即指	-10.7241
大德僧伽聽	-10.7243
廟	-10.7244
當須	-10.7246
端嚴	-10.7246
是名五	-10.7246
濟云	-10.7257
輕者	-10.7259
此女	-10.7259
候	-10.7259
再三	-10.7268
在下	-10.7268
請法	-10.7271
有九	-10.7273
內有	-10.7274
醜	-10.7277
三四	-10.728
不恭敬	-10.7283
稱為	-10.7287
圍遶	-10.7287
帛	-10.7291
苦痛	-10.7293
不免	-10.7296
不病	-10.7299
匠	-10.7299
初緣	-10.7299
翅	-10.7304
為最	-10.7306
其家	-10.7306
本性	-10.7312
化作	-10.7312
隨情	-10.7313
於此處	-10.7315
然而	-10.7318
師曰	-10.7319
餘有	-10.732
名相	-10.7324
溫	-10.7325
有十種	-10.7326
合成	-10.7334
意樂	-10.7337
本心	-10.7339
其意	-10.734
邊地	-10.7351
百億	-10.7352
疲極	-10.7352
上聲	-10.7353
若有人	-10.7355
既得	-10.7357
形像	-10.7358
所居	-10.7358
焰	-10.736
突吉羅罪	-10.736
界相	-10.7362
大愛道	-10.7364
十歲	-10.7366
義云	-10.737
餘一切	-10.7372
略教	-10.7375
般涅槃	-10.7376
偶	-10.7378
為四	-10.7379
若衣	-10.7382
損壞	-10.7392
嚴飾	-10.7392
得突吉羅罪	-10.7397
意識	-10.7398
在界內	-10.7407
往白世尊	-10.741
管	-10.7411
則非	-10.7411
禮足	-10.7411
釋之	-10.7414
從坐起	-10.7415
日夜	-10.7415
是故說	-10.7421
塚間	-10.7433
問難	-10.7435
和上尼某甲	-10.7438
以顯	-10.7439
上二	-10.7439
非律	-10.7439
求出家	-10.7441
而菩薩	-10.7448
不和	-10.7452
療	-10.7453
憍	-10.7456
一身	-10.7457
對面	-10.7457
結前	-10.7459
開解	-10.7465
得此	-10.7466
既至	-10.7469
若非	-10.747
總名	-10.747
上三	-10.747
食後	-10.7472
之教	-10.7472
誓願	-10.7476
此意	-10.7476
上中下	-10.7477
若實	-10.7478
若檀越	-10.7479
犯重罪	-10.7479
生時	-10.7481
噉食	-10.7481
從他	-10.7488
比丘得	-10.7489
行惡行	-10.7493
王聞	-10.7495
劍	-10.7496
得窣吐羅底也	-10.7499
怛	-10.7503
又二	-10.7504
制限	-10.7506
戒德	-10.7507
捨財	-10.7508
佛出世	-10.751
汝應	-10.751
五年	-10.751
中後	-10.7511
所被	-10.7511
所持	-10.7513
唱相	-10.7519
六念	-10.7519
植	-10.7521
下正	-10.7524
敷座	-10.7526
險	-10.7527
應差	-10.7527
能知	-10.7531
破和合僧	-10.7533
人等	-10.7534
混	-10.7538
▁初標示	-10.7543
耕	-10.7548
樹上	-10.7549
初二句	-10.7554
敬禮	-10.7555
應持	-10.7556
不好	-10.7563
八萬	-10.7565
結之	-10.7565
死後	-10.7566
持此	-10.7566
指示	-10.7567
歸依佛	-10.7569
哩	-10.7574
䟦	-10.7574
兩邊	-10.7575
同於	-10.7577
阿蘭若	-10.758
如大	-10.7581
二重	-10.7583
頸	-10.7583
作三衣	-10.7584
錫杖	-10.7586
智人	-10.7586
即非	-10.7587
不請	-10.7589
有二義	-10.7598
有力	-10.7599
回向	-10.7603
文字	-10.7604
所由	-10.7606
污他家	-10.7608
羮	-10.7611
既知	-10.7614
繫縛	-10.7618
比丘尼言	-10.7618
說偈	-10.7619
何物	-10.7621
作大	-10.7623
開示	-10.7625
如是語	-10.7626
繼	-10.7626
帖	-10.7628
直五錢	-10.763
修治	-10.7631
活命	-10.7631
受戒時	-10.7631
諸餘	-10.7634
入於	-10.7637
欲往	-10.7639
更作	-10.7641
舍利子	-10.7642
能得	-10.7643
七佛	-10.7646
潔	-10.7649
始從	-10.7655
朱	-10.7656
此間	-10.7656
史	-10.7661
必無	-10.7662
干	-10.7663
何謂為	-10.7665
今且	-10.7668
善解	-10.7668
與某甲	-10.7669
榮	-10.767
違逆	-10.7672
丸	-10.7676
相從	-10.7677
快樂	-10.7678
道果	-10.7678
咎	-10.7681
羯	-10.7687
綺語	-10.7688
無染	-10.7693
四部	-10.7693
長者子	-10.7698
二門	-10.7702
是犯	-10.7705
有其	-10.7705
求利	-10.7705
耆	-10.7707
能斷	-10.7708
校	-10.7708
俾	-10.7708
賴	-10.771
陣	-10.7712
而自	-10.7712
由旬	-10.7714
小小	-10.7715
修羅	-10.7716
所在	-10.7723
故使	-10.7725
別行	-10.7725
層	-10.7726
珍	-10.7726
憂惱	-10.7729
敕	-10.7733
輪迴	-10.7735
比丘某甲	-10.774
香華	-10.7742
阿含	-10.7744
得利	-10.7748
通結	-10.7752
雪	-10.7757
初心	-10.776
隨有	-10.7761
之間	-10.7763
露處	-10.7767
十三難	-10.7769
一切諸	-10.7772
或自	-10.7772
之儀	-10.7775
名色	-10.7778
容有	-10.7779
情過	-10.778
粗	-10.7781
便以	-10.7785
二犯	-10.7786
對眾	-10.7789
為其	-10.779
普賢	-10.7791
斷除	-10.7792
誕	-10.7796
鑒	-10.7797
正解	-10.7797
佉	-10.7797
武	-10.7798
罪處所	-10.78
其文	-10.7802
令僧	-10.7804
▁初正明	-10.7806
剪	-10.781
䇿	-10.7812
因制	-10.7815
國中	-10.7816
五百人	-10.7821
急施衣	-10.7822
然火	-10.7825
本迷	-10.7828
諸經	-10.7829
過受	-10.7837
巳竟	-10.7838
進修	-10.7838
添	-10.7843
剝	-10.7843
非色	-10.7847
聞是語已	-10.7848
不能自	-10.7852
不攝	-10.7852
頭面禮足在一面坐	-10.7852
不周	-10.7854
好者	-10.7855
廣釋	-10.7855
彼岸	-10.7862
有諸	-10.7863
羅云	-10.7864
諸比丘不知云何	-10.7869
人女	-10.7871
之身	-10.7871
撮	-10.7876
逸	-10.7877
體相	-10.7881
為勝	-10.7881
六親	-10.7882
非餘	-10.7884
如是言	-10.7884
生於	-10.7885
不破	-10.7887
得不	-10.789
若用	-10.7892
以緣白佛	-10.7895
滅罪	-10.7896
之日	-10.7898
故成	-10.7901
居士婦	-10.7901
罪業	-10.7907
即無	-10.7907
侶	-10.7913
謂無	-10.7914
毀犯	-10.7915
衣財	-10.7916
於一切	-10.7917
二比丘	-10.7919
瞋恨	-10.7919
怠	-10.7921
語已	-10.7921
仗	-10.7923
造房	-10.7924
堪能	-10.7928
無衣	-10.7931
所立	-10.7932
難處	-10.7933
皆言	-10.7934
焚	-10.7937
為主	-10.7938
床座	-10.7941
慧命	-10.7942
澡	-10.7942
諸比丘以是因緣往白世尊	-10.7945
不悔	-10.7946
頰	-10.7947
辛苦	-10.7949
辨相	-10.795
四五	-10.7953
澤	-10.7955
若多	-10.7955
自稱言	-10.7955
成者	-10.7956
貝	-10.796
聖賢	-10.7965
忿	-10.797
苗	-10.797
越毗尼罪	-10.7971
並須	-10.7979
經說	-10.7981
隨逐	-10.7981
口說	-10.7981
而今	-10.7981
有人云	-10.7982
毘舍離	-10.7986
時至	-10.7987
福業	-10.7989
如非	-10.7989
何能	-10.799
羯磨法	-10.799
永斷	-10.799
應畜	-10.799
蒜	-10.7992
善友	-10.7994
慈悲心	-10.7997
涅槃經	-10.8
七支	-10.8001
新衣	-10.8001
金錢	-10.8002
朗	-10.8005
役	-10.8007
肥	-10.8007
捺	-10.8008
三舉	-10.8009
作之	-10.8013
皆不	-10.8015
離過	-10.8016
。『	-10.802
法體	-10.802
六識	-10.8022
飢渴	-10.8022
或名	-10.8024
為先	-10.8027
事鈔	-10.8027
蔽	-10.8027
非比丘	-10.8028
習學	-10.8028
得用	-10.8028
蓮	-10.8029
而死	-10.803
爾時有	-10.8032
過七日	-10.8033
云何名比丘尼	-10.8034
獲得	-10.8034
者何	-10.8035
又此	-10.8035
曇	-10.8036
作諸	-10.8043
包	-10.8045
已說	-10.8045
殄	-10.8045
善戒	-10.8048
禽獸	-10.805
六夜摩那埵	-10.8051
懃	-10.8052
恐有	-10.8053
正覺	-10.8055
慈愍	-10.8057
風雨	-10.8057
異故	-10.8058
承事	-10.806
殺戒	-10.8064
雨浴衣	-10.807
勝妙	-10.8071
離合	-10.8072
測	-10.8073
欺誑	-10.8073
一千	-10.8076
生信	-10.8077
園林	-10.8079
王即	-10.8082
故說	-10.8083
得清淨	-10.8086
兩頭	-10.8086
床褥	-10.8089
非正	-10.809
宜可	-10.8091
允	-10.8094
荒	-10.8095
杙	-10.8096
文略	-10.8097
總舉	-10.8097
先須	-10.8098
受時	-10.8103
哀愍	-10.8103
應往	-10.8108
成受	-10.8109
罪相	-10.8111
四行	-10.8114
殘食	-10.8116
妙覺	-10.8118
才	-10.8119
三途	-10.8119
往語	-10.812
寡	-10.8122
諸臣	-10.8127
若就	-10.8129
斷命	-10.8129
悲心	-10.8132
長夜	-10.8133
九月	-10.8136
共同	-10.8138
報身	-10.814
事須	-10.814
無文	-10.8142
受懺	-10.8144
不由	-10.8144
相承	-10.8146
大姊	-10.8148
比丘來	-10.8149
少年	-10.8149
得吉	-10.8151
跋難陀釋子	-10.8154
三有	-10.8155
八人	-10.8158
常法	-10.816
地持	-10.8162
疑心	-10.8162
不犯中	-10.8166
逕	-10.8167
之戒	-10.8168
巳前	-10.817
四面	-10.817
我說	-10.8173
約事	-10.8173
事訖	-10.8174
正理	-10.8175
捨法	-10.8176
洪	-10.8177
瞿	-10.8182
將至	-10.8183
善見律云	-10.8184
之詞	-10.8185
奏	-10.8185
皆從	-10.8187
熾盛	-10.8187
孔雀	-10.8188
愛念	-10.8188
而用	-10.819
法衣	-10.8192
律論	-10.8197
二部僧	-10.8198
不和合	-10.8198
出去	-10.82
理合	-10.8201
時婆羅門	-10.8202
詩	-10.8207
行善	-10.8216
不妄語	-10.8217
此諸	-10.8218
王宮	-10.8227
謙	-10.8228
當先	-10.8228
言我	-10.823
。●	-10.8232
教誡比丘尼	-10.824
解也	-10.8242
設有	-10.8243
罪名	-10.8243
三眾	-10.8247
不結	-10.8247
初敘	-10.8252
僧數	-10.8253
一切皆	-10.8255
未詳	-10.8257
犯僧伽婆尸沙	-10.8258
重病	-10.8258
得與	-10.8258
漏失	-10.8259
。」【○	-10.8263
作婬	-10.8264
靡	-10.8267
性空	-10.827
三心	-10.8271
他方	-10.8271
老病	-10.8275
故令	-10.8275
章中	-10.8277
知非	-10.8281
前來	-10.8282
十方諸佛	-10.8284
伽他	-10.8285
性罪	-10.8291
七歲	-10.8298
漂	-10.8299
人作	-10.83
別明	-10.8303
七十	-10.8303
貌	-10.8304
自分	-10.8304
後夜	-10.8305
防護	-10.8306
生生	-10.8308
正教	-10.8312
牢	-10.8314
當自	-10.8316
為難	-10.8323
尼寺	-10.8325
泥薩祇波逸底迦	-10.8326
小罪	-10.8326
輕物	-10.833
=	-10.8332
伎樂	-10.8334
於戒	-10.8336
若死	-10.8338
結者	-10.8339
自然界	-10.8341
語彼	-10.8345
顏	-10.8347
引文	-10.8356
極重	-10.8356
浪	-10.8356
應從	-10.8357
孫	-10.8364
不發	-10.8364
次解	-10.8365
諸煩惱	-10.8365
告諸苾芻	-10.8368
惟願	-10.8368
全無	-10.8368
二約	-10.8374
唯是	-10.8374
號為	-10.8375
之上	-10.8376
天地	-10.8379
我家	-10.8382
作佛	-10.8388
受我	-10.8393
我知	-10.8393
利生	-10.8394
騰	-10.8396
或在	-10.8397
環	-10.8398
縱廣	-10.8398
未受	-10.8402
沙門婆羅門	-10.8403
梯	-10.8404
大同	-10.8408
事同	-10.8411
即取	-10.8411
反前	-10.8412
不作餘食法	-10.8414
古云	-10.8418
慇懃	-10.8419
違理	-10.8421
三果	-10.8428
若教人	-10.843
等是也	-10.8433
不淨觀	-10.8435
具有	-10.8436
震	-10.8442
制其學處	-10.8442
吞	-10.8442
後至	-10.8443
得取	-10.8444
四指	-10.8444
為巳	-10.8445
如意	-10.8447
九者	-10.8448
為受	-10.8448
通明	-10.8449
為惡	-10.845
勉	-10.8451
相觸	-10.8454
中云	-10.8455
陷	-10.8456
四藥	-10.846
殘宿	-10.8461
者不犯	-10.8461
同戒	-10.8462
王所	-10.8465
一體	-10.8469
爐	-10.8471
人皆	-10.8474
知彼	-10.8476
實有	-10.8477
嚼	-10.8478
佛及僧	-10.848
偈曰	-10.8481
轉輪王	-10.8486
經營	-10.8487
十法	-10.8488
身分	-10.849
拏	-10.8494
三拜	-10.8495
盈	-10.8496
祇洹	-10.8496
即還	-10.8497
佛前	-10.85
不覆	-10.8502
其母	-10.8503
在心	-10.8506
阿那含	-10.8506
須提那	-10.8507
者是也	-10.8507
莫令	-10.8508
制也	-10.8509
僧伽伐尸沙	-10.8511
到彼	-10.8512
求索	-10.8513
一切突吉羅	-10.8513
販	-10.8514
受功德衣	-10.8516
大意	-10.8518
道人	-10.8519
律教	-10.8519
有幾	-10.8519
埋	-10.8522
應隨	-10.8522
著地	-10.8523
俱得	-10.8526
戒為	-10.8528
肅	-10.853
皇	-10.8532
殺盜	-10.8534
今鈔	-10.8534
犯捨	-10.8542
不成受	-10.8542
▁二就下	-10.8542
姉	-10.8543
四諍	-10.8547
上法	-10.8547
凡所	-10.8548
同此	-10.855
奪取	-10.8555
半月半月	-10.8557
後三	-10.8558
辯才	-10.8559
億耳	-10.856
布薩時	-10.8563
說罪	-10.8565
難可	-10.8566
同一說戒	-10.8567
唯願世尊	-10.8571
肩上	-10.8576
身子	-10.8578
若他	-10.858
惡言	-10.8582
善人	-10.8583
翻譯	-10.8584
潛	-10.8584
同類	-10.8585
良以	-10.8585
稻	-10.8586
具足戒	-10.8587
無色	-10.859
下別釋	-10.8591
之地	-10.8592
材	-10.8593
謂從	-10.8595
說波羅提木叉	-10.8596
篇中	-10.86
南方	-10.8601
尚不	-10.8605
同心	-10.8609
為淨	-10.8609
正業	-10.8611
童	-10.8614
已還	-10.8618
後一	-10.8622
二歲學戒	-10.8623
塵沙	-10.8626
領受	-10.863
依文	-10.864
使淨人	-10.8641
錢寶	-10.8642
秦言	-10.8644
二不定	-10.8648
略無	-10.8652
變為	-10.8661
在彼	-10.8661
如經	-10.8661
除餘時	-10.8666
提婆達	-10.8667
尼僧	-10.8669
阿毗曇	-10.867
出體	-10.867
占	-10.8671
止息	-10.8671
故重	-10.8672
此篇	-10.8673
溺	-10.8674
大小乘	-10.8675
有蟲	-10.8675
六人	-10.8678
應自	-10.8681
熾然	-10.8684
責心	-10.8685
盧舍那佛	-10.8686
隱沒	-10.8688
無此	-10.8691
行來	-10.8691
所立戒	-10.8691
『	-10.8692
出血	-10.8692
和合僧	-10.8695
不息	-10.8697
別者	-10.8698
三百	-10.8699
一面	-10.8699
衛	-10.87
縱有	-10.87
)。○	-10.8703
與諸比丘	-10.8706
皆成	-10.8709
淚	-10.8712
等四	-10.8712
以一	-10.8713
波夜提者	-10.8714
相傳	-10.8717
脇	-10.872
一切處	-10.8722
釋文	-10.8724
崩	-10.8725
床上	-10.8729
奪衣	-10.873
酤酒	-10.873
不思	-10.8731
論議	-10.8733
覆頭	-10.8733
具云	-10.8734
作戒	-10.8735
損害	-10.8736
不除	-10.8737
駈	-10.8738
若如是者	-10.8738
詰問	-10.8739
若更	-10.8744
問所以	-10.8747
說恣	-10.8748
露形	-10.875
憙	-10.8752
經行處	-10.8754
七聚	-10.8756
千歲	-10.8756
住此	-10.8757
先解	-10.8759
我自	-10.876
別房	-10.8761
監	-10.8762
法藏	-10.8765
人說	-10.8768
覺知	-10.877
無問	-10.8774
不殊	-10.8778
不安	-10.878
明相未出	-10.878
靜處	-10.8782
黑白	-10.8786
不受持	-10.8787
房內	-10.879
三十五	-10.8793
具儀	-10.8794
滿二十	-10.8795
一偈	-10.8797
二篇	-10.8799
日得衣	-10.8801
三諫	-10.8801
執持	-10.8803
在家菩薩	-10.8806
律儀戒	-10.8809
▁七	-10.881
心心	-10.881
人語	-10.8812
三禪	-10.8813
用也	-10.8815
分為二	-10.8816
釋此	-10.8817
聞者	-10.8819
非我	-10.8821
如鈔	-10.8824
鬘	-10.8828
過也	-10.8831
心懷	-10.8832
瑞	-10.8834
無智	-10.8835
具如	-10.8836
理實	-10.8838
生處	-10.8838
三惡道	-10.8841
瞻視	-10.8842
為我作	-10.8845
師教	-10.8848
不同者	-10.8854
汝實	-10.8855
淨穢	-10.8855
未足	-10.8857
喻如	-10.8857
壓	-10.8859
煙	-10.8859
為伴	-10.8861
阿練若	-10.8861
選	-10.8862
姑	-10.8862
對事	-10.8862
當云何	-10.8863
眾行	-10.8863
共成	-10.8866
若云	-10.8867
種種因緣呵責	-10.887
佛語諸比丘	-10.8874
更得	-10.8877
舊住	-10.8881
即下	-10.8883
中央	-10.8884
內凡	-10.8884
以事	-10.8885
持來	-10.8886
枝葉	-10.8886
一字	-10.8892
聞此	-10.8899
搆	-10.8905
方為	-10.8908
天雨	-10.8909
二宿	-10.891
滿五	-10.8913
後得	-10.8913
等緣	-10.8918
自恣時	-10.8918
應白	-10.8919
前云	-10.8921
有違	-10.8921
少許	-10.8922
顏色	-10.8923
而後	-10.8925
還至	-10.8926
後四	-10.8926
常生	-10.8928
酥油	-10.8931
八日	-10.8932
即同	-10.8933
已後	-10.8934
但取	-10.8936
精勤	-10.8938
用心	-10.8938
開聽	-10.8939
解義	-10.8941
伊	-10.8941
廣解	-10.8942
學悔	-10.8943
勝法	-10.8944
知有	-10.8947
聾	-10.8947
知不	-10.8951
二百五十	-10.8951
不應分	-10.8954
壯	-10.8954
有智	-10.8958
不應為	-10.8962
不勞	-10.8963
釋也	-10.8963
憶持	-10.8964
忉利天	-10.8965
譬喻	-10.8972
應滅擯	-10.8972
罪人	-10.8976
身相觸	-10.8979
鈔中	-10.8981
獵	-10.8982
頂上	-10.8982
若從	-10.8984
天龍	-10.8987
都不	-10.8987
取之	-10.8988
流出	-10.8988
作事	-10.8988
佛因	-10.8988
而復	-10.8989
化教	-10.8991
淨潔	-10.8992
所發	-10.8992
陀羅	-10.8993
此住處	-10.8993
方犯	-10.8996
空地	-10.9003
低	-10.9005
合作	-10.9005
若菩薩	-10.9006
削	-10.9006
文相	-10.9008
犯長	-10.901
異者	-10.901
物主	-10.9011
殺父	-10.9012
止觀	-10.9016
僧為	-10.9016
巳得	-10.9018
相接	-10.9019
鬬諍	-10.902
之前	-10.9021
能詮	-10.9022
是初羯磨	-10.9022
作非法	-10.9023
何等五	-10.9026
之衣	-10.9026
戒定慧	-10.903
說伽他曰	-10.9033
初舉	-10.9036
而未	-10.904
共一	-10.904
嘉	-10.9044
各異	-10.9049
奔	-10.905
紹	-10.9051
牽出	-10.9051
犯諍	-10.9052
旃陀羅	-10.9054
命難	-10.9054
阿浮呵那	-10.9061
聞巳	-10.9064
相望	-10.9066
炎	-10.9074
設食	-10.9075
集會	-10.9076
浣染打	-10.9076
愚人	-10.9076
畜長衣	-10.9082
逝多林	-10.9085
達摩	-10.9086
十二年	-10.9087
不足數	-10.9088
聖眾	-10.9091
惡說	-10.9092
為業	-10.9096
貸	-10.9098
略也	-10.9105
賓云	-10.9106
▁初引	-10.9107
心所	-10.9109
尼師檀	-10.9109
損減	-10.9111
得阿羅漢	-10.9112
二歲	-10.9118
妨難	-10.9121
愛道	-10.9122
不得著	-10.9126
四十二	-10.9127
猶有	-10.9127
一切諸法	-10.9135
簡異	-10.9135
軌則	-10.9145
事也	-10.9145
挽	-10.9146
儻	-10.9146
三十九	-10.9147
性戒	-10.9153
聖果	-10.9154
通收	-10.9156
欲殺	-10.9156
三義	-10.9156
五六	-10.9156
鮮	-10.9159
本來	-10.9159
得生	-10.9162
以物	-10.9167
兩手	-10.9168
熱時	-10.9169
毘奈耶	-10.9171
有斯	-10.9175
座上	-10.9179
錫	-10.918
願我	-10.9185
利物	-10.9189
三摩地	-10.9192
無慚	-10.9193
資具	-10.9195
領納	-10.9197
別立	-10.9197
十二因緣	-10.9199
常有	-10.92
欲取	-10.92
圓教	-10.92
眼見	-10.9201
上卷	-10.9202
更求	-10.9202
洗淨	-10.9206
皆同	-10.9206
本制	-10.9208
舉手	-10.921
標相	-10.9214
無復	-10.9214
庫藏	-10.9217
是實	-10.9218
沙門瞿曇	-10.9218
中文二	-10.9226
賀	-10.9229
府	-10.9231
即失	-10.9231
通別	-10.9232
浴室	-10.9232
所住	-10.9234
處也	-10.9237
今文	-10.9239
年少比丘	-10.9239
徑	-10.924
舞	-10.9241
不得過	-10.9242
水陸	-10.9243
三十七	-10.9251
若捨	-10.9252
耆婆	-10.9258
者得越法罪	-10.9261
涅槃經云	-10.9261
躬	-10.9262
第一義	-10.9262
隨覆藏	-10.9262
大乘同學	-10.9262
即今	-10.9263
雖多	-10.9264
得越比尼罪	-10.9264
從初	-10.9265
摩訶羅	-10.9268
頂禮佛足	-10.9269
不學無知	-10.9271
逆罪	-10.9284
讓	-10.9285
一住處	-10.9285
斧	-10.9286
即有	-10.9286
滅後	-10.9288
共坐	-10.9291
欲去	-10.9293
稀	-10.9294
嗅	-10.9295
長跪	-10.9296
為護	-10.9298
不重	-10.9301
提舍尼	-10.9301
不得入	-10.9303
所化	-10.9304
不念	-10.9304
與諸	-10.9308
語云	-10.931
唯佛	-10.931
歸命	-10.9316
一往	-10.9317
軍中	-10.9319
以事白佛	-10.932
說文云	-10.932
若不捨者	-10.9321
二邊	-10.9322
還歸	-10.9323
醫人	-10.9324
章云	-10.9325
位中	-10.9328
吳	-10.933
次問	-10.9331
犍	-10.9333
不與人	-10.9335
算	-10.9338
殺母	-10.9339
枉	-10.934
相去	-10.9343
理觀	-10.9345
犯輕垢	-10.9349
成熟	-10.9356
把	-10.9358
啼	-10.936
無色界	-10.9362
出門	-10.9364
轉根	-10.9366
法服	-10.9367
乞法	-10.9367
請問	-10.9367
比丘戒	-10.9373
若一人	-10.9376
第一義諦	-10.9382
人之	-10.9382
異界	-10.9384
比丘不得	-10.9385
嫁	-10.9385
與某甲比丘	-10.9386
入手	-10.9387
開遮	-10.9387
域	-10.9387
三由旬	-10.9388
夢中	-10.9389
一錢	-10.9392
是別	-10.9399
出息	-10.94
離諸	-10.94
遮難	-10.9402
所施	-10.9402
不受諫	-10.9405
盧舍那	-10.9405
邊罪	-10.9405
幡	-10.9406
萬歲	-10.9406
賢善	-10.941
在界外	-10.941
不失衣	-10.9411
謂不	-10.942
得福	-10.9421
則能	-10.9422
▁二問	-10.9424
時諸苾芻以緣白佛	-10.9424
凡是	-10.9425
思量	-10.9427
直爾	-10.943
長大	-10.9433
十信	-10.9434
見比丘	-10.9437
治罸	-10.944
未作	-10.9443
欽	-10.9443
十事	-10.9443
不愛	-10.9444
成佛道	-10.9445
破僧事	-10.9445
准知	-10.9447
夫主	-10.945
與出家	-10.9451
顯示	-10.9455
城門	-10.9456
疑悔	-10.9457
苦海	-10.9457
亂心	-10.9459
若捉	-10.9461
態	-10.9463
往詣佛所	-10.9467
我今當	-10.9467
與女	-10.9469
馳	-10.9471
令出	-10.9472
餘之	-10.9472
巖	-10.9473
我慢	-10.9474
往看	-10.9476
稱量	-10.948
業者	-10.9481
已上	-10.9481
助成	-10.9482
來往	-10.9482
伽陀	-10.9483
爾者	-10.9487
輿	-10.9488
十年	-10.9489
是處	-10.949
師資	-10.949
教師	-10.9492
自誓	-10.9492
涼	-10.9494
口法	-10.9498
廣略	-10.9507
阿毘曇	-10.951
正制	-10.9514
邊方	-10.9516
䨱	-10.9518
去來	-10.9518
人言	-10.9518
分物	-10.952
乞衣	-10.952
殺心	-10.9521
若王	-10.9522
入水	-10.9525
無力	-10.953
二三人	-10.953
故文云	-10.953
乞食比丘	-10.9532
三問	-10.9533
生地	-10.9533
三宿	-10.9534
鞞	-10.9539
屑	-10.9546
祿	-10.9546
著革屣	-10.9548
不成就	-10.9551
墮三惡道	-10.9551
歌舞	-10.9551
彼國	-10.9556
外國	-10.9557
立義	-10.9558
何異	-10.9559
飽滿	-10.956
親族	-10.956
提罪	-10.9562
雷	-10.9565
八指	-10.9565
且止	-10.9566
聽我	-10.9568
亦為	-10.9572
發生	-10.9572
鬱多羅僧	-10.9577
可不	-10.9577
難知	-10.9578
自往	-10.9578
准律	-10.9579
現前僧	-10.9582
明了論	-10.9583
且舉	-10.9584
併	-10.9585
世尊制戒	-10.9587
匙	-10.9588
當取	-10.9591
諮	-10.9595
淳	-10.9596
明也	-10.9596
若不知	-10.9596
汝諸苾芻	-10.9598
雖然	-10.9598
之徒	-10.9601
西土	-10.9602
入地獄	-10.9603
敬信	-10.9603
梵網經	-10.9604
入城乞食	-10.9606
當受	-10.9606
優波難陀	-10.9607
漸次	-10.9607
淨信	-10.9607
今僧	-10.9611
女根	-10.9612
僧臥具	-10.9616
證得	-10.962
由心	-10.962
客比丘來	-10.9623
是諸	-10.9624
故妄語	-10.9625
無住處	-10.9626
比丘所	-10.9626
離宿	-10.9626
信者	-10.9629
受戒法	-10.963
疲	-10.9634
欠	-10.9636
身語	-10.9636
比丘犯	-10.9638
次下	-10.9639
生者	-10.9639
但令	-10.9642
既言	-10.9645
逃	-10.9646
所問	-10.9646
霑	-10.9647
為善	-10.965
九日	-10.9651
被舉	-10.9652
誰當	-10.9652
緣也	-10.9652
布薩日	-10.9655
比丘尼波逸提	-10.9657
賈客	-10.9658
偷蘭罪	-10.9658
慳貪	-10.9658
第十一	-10.9658
堅持	-10.9659
坐者	-10.9662
其名	-10.9664
三十日	-10.9664
後悔	-10.9668
用此	-10.9669
未可	-10.9672
汝所	-10.9673
之子	-10.9675
歸依法	-10.9677
鷄	-10.9682
覆鉢	-10.9684
多生	-10.9686
之德	-10.9686
聖凡	-10.9687
得失	-10.9689
泛	-10.9689
早起	-10.9689
咸皆	-10.969
鄉	-10.969
舉事	-10.969
假使	-10.9696
墮惡道	-10.9696
亦隨	-10.9697
妄想	-10.9701
並無	-10.9702
貪愛	-10.9707
白法	-10.971
未曾有	-10.971
憍薩羅國	-10.9711
答此	-10.9712
不應為說法	-10.9714
定心	-10.9715
若不悔過	-10.972
為成	-10.9721
食噉	-10.9722
門徒	-10.9723
斷惑	-10.973
他勝	-10.9732
希望	-10.9733
往白佛	-10.9734
在上	-10.9735
四十九	-10.9735
逾	-10.9736
多分	-10.9736
見罪	-10.9737
受人	-10.9739
施衣時	-10.9741
雄	-10.9744
此門	-10.9744
到已	-10.9746
勇猛	-10.9748
來求	-10.9749
小眾	-10.9752
我無	-10.9753
起緣人	-10.9753
在道行	-10.9753
滅法	-10.9757
諸佛子	-10.9758
時食	-10.9761
阿練若處	-10.9762
從今日後	-10.9765
遂即	-10.9766
有輕重	-10.9767
若坐	-10.9769
至僧中	-10.9771
不盜	-10.9773
三分	-10.9774
紅	-10.9778
雅	-10.9782
倒地	-10.9782
宏	-10.9782
今者	-10.9783
犯盜	-10.9786
大者	-10.9788
若我	-10.9792
正文	-10.9793
王家	-10.9797
寬狹	-10.9798
不飲酒	-10.98
手中	-10.9801
富貴	-10.9802
應學	-10.9803
對此	-10.9803
開制	-10.9804
失戒	-10.9804
諸善	-10.9807
重戒	-10.9808
顛狂	-10.9813
之甚	-10.9814
要心	-10.9814
菩提樹	-10.9815
欲來	-10.9815
威力	-10.9815
有四句	-10.982
不憶數	-10.982
疾疾	-10.9821
當得	-10.9822
便為	-10.9823
缽	-10.9823
不具足	-10.9824
次科初	-10.9825
籬	-10.9827
相隨	-10.9827
斷絕	-10.9831
六入	-10.9831
善事	-10.9833
餘方	-10.9836
刃	-10.9836
隋	-10.9837
能發	-10.9837
餘戒	-10.9839
持欲	-10.984
致敬	-10.9841
為五	-10.9846
何別	-10.985
向人說	-10.9851
逮	-10.9851
低頭	-10.9851
自今巳去	-10.9852
菩提樹下	-10.9855
佛以種種因緣呵責	-10.9855
六聚	-10.9856
四門	-10.9859
啼哭	-10.9859
業疏云	-10.9859
別緣	-10.9863
生長	-10.9864
懺謝	-10.9868
不遮	-10.9868
有殘	-10.9872
俗諦	-10.9877
破見	-10.9881
得畜	-10.9882
格	-10.9886
教相	-10.9887
詣佛所	-10.9889
滋	-10.989
所教	-10.9891
不簡	-10.9891
涅槃云	-10.9893
總有	-10.9893
須彌山	-10.9894
千里	-10.9897
病苦	-10.9898
漸頓	-10.9901
項	-10.9905
在何處	-10.9905
若有比丘	-10.9919
正宗	-10.9919
有為	-10.9919
同界	-10.9925
示相	-10.9925
勿使	-10.9926
等覺	-10.9928
諸家	-10.9929
何緣	-10.993
▁初標章	-10.9931
在外	-10.9932
四相	-10.9935
毫	-10.9936
染淨	-10.9937
異熟	-10.994
厭離	-10.994
有別	-10.9941
上有	-10.9942
香花	-10.9945
麗	-10.9946
共諍	-10.9946
月十五日	-10.9947
遇緣	-10.9947
紛	-10.9948
二衣	-10.9948
等類	-10.995
薑	-10.995
清淨者	-10.9951
諸物	-10.9954
治病	-10.996
未具	-10.9961
行乞食	-10.9962
枝條	-10.9963
開緣不犯者	-10.9964
如似	-10.9965
能防	-10.9966
好衣	-10.9967
如是展轉	-10.9968
不持	-10.9969
欲樂	-10.9971
圓融	-10.9972
第三亦如是說	-10.9975
若不能	-10.9976
其婦	-10.9977
末世	-10.9979
有一長者	-10.998
戒文	-10.9985
聲聞弟子	-10.9986
京	-10.9987
前言	-10.9988
犯夷	-10.9989
事起	-10.9989
蹈	-10.9993
謂上	-10.9995
先以	-10.9998
康	-10.9998
三觀	-10.9998
拳	-10.9999
訪	-11.0001
此說	-11.0002
欲與	-11.0002
實是	-11.0003
謂佛	-11.0004
勸化	-11.0007
沓婆	-11.0009
俱非	-11.0011
昔解	-11.0011
無失	-11.0011
法王	-11.0012
別緣具	-11.0013
荼	-11.0015
約心	-11.0017
度生	-11.0019
掃地	-11.0022
須彌	-11.0023
破威儀	-11.0025
下坐	-11.0025
護戒	-11.0025
初標人	-11.0026
長老比丘	-11.0027
止惡	-11.0028
七法	-11.0028
來意	-11.0032
稱之	-11.0034
覺悟	-11.0036
皆不犯	-11.0036
句義	-11.0036
應如是作	-11.0037
洞	-11.0039
屐	-11.0039
大尼	-11.0041
難提	-11.0041
二道	-11.0041
晝日	-11.0043
隨犯	-11.0044
為重	-11.0045
若上座	-11.0048
觀此	-11.0049
問諸比丘	-11.005
今從	-11.0053
得大	-11.0058
持物	-11.0059
汎	-11.0059
職	-11.006
人情	-11.006
捨懺	-11.0062
筒	-11.0063
佛在舍衛	-11.0063
罵詈	-11.0066
證果	-11.0066
方等	-11.0067
應去	-11.0078
以佛	-11.0081
盡突吉羅	-11.0082
大藥	-11.0084
欝多羅僧	-11.0089
樹皮	-11.009
若入	-11.0093
苦果	-11.0093
供佛	-11.0093
之辭	-11.0095
於世	-11.0097
菴	-11.0097
心起	-11.0099
請比丘	-11.0099
朋	-11.0111
鎮	-11.0111
祠	-11.0113
生草	-11.0114
觀心	-11.0114
擘	-11.0115
更互	-11.0115
捨迦絺那衣	-11.0116
予	-11.0116
此國	-11.0118
身上	-11.0118
惡比丘	-11.0121
閻浮	-11.0122
法爾	-11.0124
正遍知	-11.0125
持戒者	-11.0129
欲為	-11.0131
即知	-11.0133
以何	-11.0134
後學	-11.0134
設供	-11.0136
皆共	-11.0136
世法	-11.0138
致使	-11.0139
論其	-11.014
胡跪	-11.014
妄言	-11.0141
即生	-11.0141
祈	-11.0145
長淨	-11.0148
臨時	-11.0148
形相	-11.0148
所宜	-11.0148
義者	-11.0149
可取	-11.0152
十里	-11.0153
皆云	-11.0153
象王	-11.0154
偷盜	-11.0154
過此	-11.0154
今下	-11.0154
卜	-11.0154
餘文	-11.0155
認	-11.0156
名體	-11.0157
銷	-11.0159
常在	-11.0162
謂能	-11.0162
制此戒	-11.0165
諂	-11.0169
更有餘	-11.017
持食	-11.0171
緣境	-11.0171
三十四	-11.0171
人身	-11.0172
作成	-11.0177
大法	-11.0177
深信	-11.0179
眾多人	-11.0179
實力子	-11.0179
僧伽藍中	-11.018
休道	-11.018
善巧	-11.0183
楚	-11.0186
得安樂	-11.019
耶答	-11.0192
聞聲	-11.0193
成實	-11.0193
為僧作	-11.0194
大賊	-11.0202
等三	-11.0205
覺觀	-11.0205
析	-11.0206
別也	-11.0207
花果	-11.0207
不囑	-11.0208
▁二今下	-11.0208
龜	-11.0209
濾	-11.0209
入房	-11.0211
墻	-11.0213
之力	-11.0218
呈	-11.0219
根性	-11.0219
治罪	-11.0219
證明	-11.0228
還衣	-11.0229
義竟	-11.0229
不看	-11.0233
池水	-11.0236
第十二	-11.0238
清涼	-11.0239
第十三	-11.024
得何罪	-11.0241
無欲	-11.0242
若望	-11.0244
犯蘭	-11.0244
大論云	-11.0249
與其	-11.025
無定	-11.025
我之	-11.0251
白巳	-11.0251
隨彼	-11.0253
匡	-11.0254
瞿曇	-11.0257
猶未	-11.0258
懺悔者	-11.026
僧巳忍	-11.026
是物	-11.0261
說戒日	-11.0261
住世	-11.0262
此是我	-11.0267
序云	-11.0269
葬	-11.0271
不相應	-11.0272
隨境	-11.0272
問其	-11.0272
性相	-11.0275
應行	-11.0275
教興	-11.0275
資生	-11.0275
四天下	-11.0296
入家內	-11.0296
以身	-11.0297
必是	-11.0298
徐	-11.0301
巡	-11.0302
便去	-11.0305
僧已與	-11.0307
我能	-11.0311
便於	-11.0311
語我	-11.0313
空慧	-11.0314
時非時	-11.0314
下卷	-11.0315
巨	-11.0317
倉	-11.0318
罪重	-11.0318
器物	-11.032
臭穢	-11.0322
之果	-11.0322
拘睒彌	-11.0323
其子	-11.0324
循	-11.0327
鸚鵡	-11.0327
巳說	-11.0332
未了	-11.0333
邪婬	-11.0337
一相	-11.0337
一犯人	-11.0338
嗔恚	-11.0339
如佛所教	-11.034
供養佛	-11.0342
樓閣	-11.0343
若不捨	-11.0343
盡形藥	-11.0343
蓬	-11.0344
僧用	-11.0346
是大	-11.0346
雖同	-11.0347
四念處	-11.0353
起去	-11.0357
外人	-11.0357
兩緣	-11.036
命斷	-11.0363
應是	-11.0368
白衣舍坐	-11.0372
未聞	-11.0372
舟	-11.0374
日沒	-11.0374
奉施	-11.0377
雖未	-11.0378
莎訶	-11.0378
之性	-11.0379
能教	-11.0379
波離	-11.0379
位也	-11.038
蚊	-11.0383
洗鉢	-11.0383
能障礙道	-11.0387
如是種種	-11.0388
下舉	-11.0388
嚼楊枝	-11.039
範	-11.039
佛菩薩	-11.0392
義理	-11.0392
教也	-11.0395
乞戒	-11.0398
波逸提罪	-11.0399
作是語已	-11.0399
號曰	-11.0403
三節	-11.0404
羅怙羅	-11.0405
苦諦	-11.0405
白色	-11.0407
所聞	-11.0407
昔有	-11.0408
理宜	-11.0412
好食	-11.0413
在世	-11.0414
十夏	-11.0416
摩尼	-11.0416
其本	-11.0416
令生	-11.042
釋名者	-11.0421
瑠璃	-11.0422
鞋	-11.0427
曠	-11.0429
荷	-11.043
即能	-11.043
約人	-11.0432
食巳	-11.0434
鄔波離	-11.0434
▁二問答	-11.0435
行路	-11.0438
填	-11.044
說時	-11.0441
起立	-11.0445
對法	-11.0449
用故	-11.045
勸持	-11.0451
王問	-11.0452
若準	-11.0453
利鈍	-11.0454
不犯耶	-11.0455
持衣鉢	-11.0457
事非	-11.0457
廣長	-11.0463
楊	-11.0464
若疑	-11.0464
明矣	-11.0468
亦能	-11.0471
結戒場	-11.0472
若使	-11.0473
趨	-11.0473
如今	-11.0474
輕罪	-11.0478
得度	-11.0479
餘食	-11.0481
嘿	-11.0482
已作	-11.0483
何者是	-11.0486
級	-11.0486
勘	-11.0486
駕	-11.0488
以心	-11.0491
妃	-11.0491
鎖	-11.0493
千百億釋迦	-11.0494
四日	-11.0495
十方佛	-11.0498
過人法	-11.0502
此中犯相其事	-11.0502
世世	-11.0504
流布	-11.0504
正因	-11.0505
羞	-11.0506
提舍	-11.0508
瘦	-11.0511
在一面坐	-11.0511
文列	-11.0512
與上	-11.0512
若對	-11.0514
然於	-11.0516
獨行	-11.052
皆令	-11.0521
所知	-11.0521
小便	-11.0523
三受	-11.0524
僧今與	-11.0525
喫	-11.0527
正觀	-11.0529
祥	-11.0534
開通	-11.054
自言治	-11.0543
手印	-11.0543
約法	-11.0545
白衣舍	-11.0547
復有五事	-11.0547
是心	-11.0548
住於	-11.0548
十二部經	-11.0549
捧	-11.0552
對首心念	-11.0557
王位	-11.0562
正說	-11.0566
詣彼	-11.0571
於僧	-11.0571
皆無	-11.0573
無記心	-11.0573
共食	-11.0573
勝義	-11.0576
雖殊	-11.0577
是所	-11.058
聖種	-11.0581
分與	-11.0583
柔	-11.0584
不說淨	-11.0584
贖	-11.0584
便與	-11.0587
冤	-11.0587
三寶物	-11.0589
是同	-11.0591
庸	-11.0592
乳酪	-11.0593
實非	-11.0594
不順	-11.0596
別故	-11.0598
攝心	-11.0599
準下	-11.06
防非	-11.0601
隨宜	-11.0601
艸	-11.0602
釘	-11.0604
五塵	-11.0605
六物	-11.0605
是菩薩波羅夷罪	-11.0606
隨力	-11.0606
無師	-11.0607
必定	-11.0608
策	-11.061
之聲	-11.0613
出家之人	-11.0613
眾集	-11.0613
一罪不覆藏	-11.0613
威神	-11.0614
育	-11.0617
多云	-11.0619
聰	-11.0623
色聲	-11.0627
正等覺	-11.0628
正定	-11.0628
伏藏	-11.0629
亦以	-11.063
汝若	-11.0633
饑	-11.0633
論說	-11.0634
能說	-11.0636
不禮	-11.0639
不墮	-11.0644
二分	-11.0644
不名為	-11.0646
得自在	-11.0648
成不	-11.0649
帳	-11.0652
護衣	-11.0652
為性	-11.0655
出佛身血	-11.0656
他比丘	-11.0656
長鉢	-11.0657
醋	-11.0657
相狀	-11.0659
抖擻	-11.066
諸律	-11.066
出城	-11.066
諸國	-11.0662
斂	-11.0663
華鬘	-11.0663
下出	-11.0664
出時	-11.0666
寸	-11.0666
送食	-11.0667
皆非	-11.0672
體也	-11.0672
又可	-11.0677
結法	-11.0678
教中	-11.0678
論義	-11.0679
摶	-11.068
迦攝波	-11.0682
今約	-11.0682
第二門	-11.0683
舍衛	-11.0687
其實	-11.0687
捨罪	-11.0688
隅	-11.0691
果也	-11.0695
佛知	-11.0697
盖	-11.0698
若作淨	-11.0699
浮囊	-11.0703
積聚	-11.0705
以彰	-11.0707
事業	-11.0709
汗	-11.0709
惡戒	-11.0714
兩重	-11.0715
亦即	-11.0717
及與	-11.0718
華果	-11.0719
可信	-11.0721
事中	-11.0721
不乞	-11.0722
便止	-11.0723
地了時	-11.0723
句法	-11.0724
多諸	-11.0726
我得	-11.0727
對前	-11.0728
五分法身	-11.0729
輕垢	-11.073
生故	-11.073
月八日	-11.0731
之餘	-11.0734
有說	-11.0735
為證	-11.0739
真俗	-11.074
充滿	-11.0741
不達	-11.0743
以表	-11.0743
牛羊	-11.0747
佛所說	-11.0748
即持	-11.0753
掉	-11.0753
行別住	-11.0755
一肘	-11.0755
能解	-11.0756
墨	-11.0756
愁	-11.0757
縣	-11.0758
立誓	-11.0758
嫉妬	-11.076
皆當	-11.076
所以然者	-11.0763
人見	-11.0763
依本	-11.0765
口受	-11.0767
衣故	-11.0768
登壇	-11.0771
分四	-11.0775
取他	-11.0775
年歲	-11.0775
道士	-11.0776
准上	-11.0779
覓諍	-11.0782
今世	-11.0783
隨後	-11.0785
請師	-11.0786
令淨	-11.079
非釋種女	-11.0793
令使	-11.0793
▁二初下隨釋	-11.0794
化眾生	-11.0795
三下	-11.0798
比丘義如上	-11.0802
若破	-11.0802
依正	-11.0803
佛及	-11.0805
忘失	-11.0813
本主	-11.0814
起行	-11.0814
易得	-11.0817
九種	-11.0819
空觀	-11.0821
已得	-11.0822
謂有	-11.0822
□□□□□□□□□□□	-11.0822
二夜	-11.0822
▁初約	-11.0824
不與欲	-11.0824
品云	-11.0824
三名	-11.0824
師長	-11.0825
娑婆	-11.0826
不處分	-11.0827
授具足戒	-11.0828
及最初未制戒等	-11.083
鬪亂	-11.0831
可畏	-11.0832
一切時	-11.0835
入僧中	-11.0838
說法者	-11.0839
同室宿	-11.0839
非常	-11.0841
永無	-11.0842
在一處	-11.0844
今取	-11.0844
犯此戒	-11.0848
今明	-11.0852
攝衣	-11.0855
俱無	-11.0858
宮殿	-11.086
治法	-11.0861
人眾	-11.0865
教門	-11.0866
十者	-11.0866
初受	-11.0867
今但	-11.0869
踐	-11.0871
謂非	-11.0871
三行	-11.0871
隨覆藏日	-11.0873
比丘答言	-11.0873
十七群比丘	-11.0874
遠去	-11.0874
現世	-11.0874
之別	-11.0878
開之	-11.0881
讀經	-11.0883
佛以是事集二部僧	-11.0886
居士譏嫌	-11.0886
染污心	-11.0888
滅諦	-11.0888
獨住	-11.0892
人來	-11.0894
有言	-11.0894
瞻病	-11.0894
觸惱	-11.0895
淨主	-11.0898
不畏	-11.09
流轉	-11.0902
授人具足戒	-11.0902
此食	-11.0905
緣故	-11.0905
殺之	-11.0908
其過	-11.091
牒釋	-11.091
庭	-11.0913
能秉	-11.0915
乃可	-11.0916
千年	-11.0917
下即	-11.0917
以前	-11.0917
觀之	-11.0922
並有	-11.0922
氣力	-11.0924
道諦	-11.0925
倘	-11.0927
軀	-11.0928
魔王	-11.0928
失也	-11.0928
毗尼藏	-11.0931
誣	-11.0931
賢者	-11.0931
爾時諸比丘尼	-11.0932
諸篇	-11.0934
宮中	-11.0935
私云	-11.0939
法則	-11.094
白羯磨	-11.094
異見	-11.0941
便起	-11.0942
若尼	-11.0945
麤惡	-11.0946
為汝	-11.0947
以此事	-11.0947
聽用	-11.0951
上首	-11.0954
二月	-11.0955
除僧羯磨	-11.0957
然彼	-11.0958
阿遮利耶	-11.0958
〕-【	-11.0958
更須	-11.096
隨人	-11.0961
識知	-11.0961
義須	-11.0965
一切有情	-11.0966
即時	-11.0968
證知	-11.0969
十二月	-11.0975
耻	-11.0977
眾具	-11.098
栴檀	-11.0981
敬法	-11.0982
兩足	-11.0983
村中	-11.0987
能成	-11.0987
神變	-11.0989
事相	-11.099
總明	-11.099
五百問	-11.099
疑惑	-11.0991
非心	-11.0992
受後	-11.0993
頑	-11.0994
今乃	-11.0995
時阿難陀	-11.0996
出罪羯磨	-11.0996
亦皆	-11.0999
種種因緣	-11.1
世尊爾時以此因緣集比丘僧	-11.1005
。」《	-11.1008
二釋	-11.1008
絡	-11.101
憐愍故	-11.101
魚肉	-11.101
若優婆塞	-11.1013
長行	-11.1014
負債	-11.1015
初一	-11.1017
自用	-11.1023
異也	-11.1024
盜取	-11.1025
即起	-11.1026
此十	-11.1027
正食	-11.1027
經典	-11.1031
作衣時	-11.1034
不可說	-11.1034
擯出	-11.1035
便有	-11.1035
既見	-11.1037
昌	-11.1037
若向	-11.1039
犬	-11.104
當用	-11.104
漬	-11.104
本法	-11.104
相故	-11.1041
挑	-11.1045
為比丘	-11.1048
非梵行	-11.105
為除	-11.105
研	-11.1051
得勝	-11.1051
俟	-11.1052
法竟	-11.1052
淺深	-11.1052
深心	-11.1053
所作事	-11.1053
五色	-11.1055
無可	-11.1056
不了了	-11.1062
自食	-11.1063
指前	-11.1064
自今已去與比丘結戒	-11.1065
非真	-11.1067
香爐	-11.1071
搩手	-11.1072
得聞	-11.1073
誦者	-11.1078
復作是願	-11.1079
善逝	-11.1081
謗三寶	-11.1082
時有苾芻	-11.1083
則通	-11.1085
出家五眾	-11.1085
和尚阿闍梨	-11.1089
忽然	-11.1091
受此	-11.1092
說戒法	-11.1094
捨與	-11.1099
景云	-11.1103
隆	-11.1103
佛以	-11.1107
惰	-11.1111
集一處	-11.1111
日數	-11.1113
三卷	-11.1113
顯非	-11.1116
應問言	-11.1117
迦旃延	-11.1117
種性	-11.1119
道法	-11.1121
下三眾	-11.1121
賢劫	-11.1122
三十一	-11.1122
摩那	-11.1124
隨釋	-11.1124
合為一	-11.1124
宇	-11.1124
下眾	-11.1125
親教師	-11.1132
不曉	-11.1133
佛之	-11.1141
修證	-11.1142
佛事	-11.1143
可食	-11.1144
其處	-11.1145
先來	-11.115
有五百	-11.1152
之一	-11.1152
蹲	-11.1155
三十三天	-11.1156
五夏	-11.1156
如法者	-11.1159
善修	-11.1159
蘇油	-11.116
匿	-11.116
最為	-11.1161
鞭	-11.1163
羯磨人	-11.1164
居士言	-11.1165
造業	-11.1166
無想	-11.1168
四波羅夷	-11.1169
迷忘	-11.117
之極	-11.1171
應著	-11.1173
俱犯	-11.1173
拍	-11.1174
屏諫	-11.1174
槌	-11.1174
曜	-11.1176
不被	-11.1176
十師	-11.1177
三約	-11.1181
滅盡	-11.1181
澡豆	-11.1185
掃灑	-11.1186
塹	-11.1186
阿蘭若處	-11.1186
懺主	-11.1188
鄔波索迦	-11.1191
下云	-11.1193
念處	-11.1193
善比丘	-11.1193
未犯	-11.1193
教意	-11.1194
納衣	-11.1195
苦報	-11.1195
作白二羯磨	-11.1195
為定	-11.1195
而言之	-11.1196
至佛所	-11.1197
所歸	-11.1198
大集	-11.12
如是乃至	-11.1202
佛土	-11.1212
此界	-11.1212
初日	-11.1212
周遍	-11.1213
第三十	-11.1213
故次	-11.1215
犯吉羅	-11.1215
皆不得	-11.1215
由其	-11.1221
體用	-11.1221
多人語	-11.1222
當言	-11.1226
洛	-11.1227
凝	-11.1229
闡陀比丘	-11.123
喧	-11.123
若女人	-11.1231
貧人	-11.1232
上妙	-11.1232
先與	-11.1233
不應食	-11.1234
信解	-11.1235
炬	-11.1236
筋	-11.1237
無比	-11.1238
便利	-11.1239
下四	-11.1239
分通	-11.124
為非	-11.1241
亦言	-11.1242
上音	-11.1242
示之	-11.1243
盡形壽不得	-11.1244
餘三眾突吉羅	-11.1249
使我	-11.1249
隨戒	-11.1251
不得畜	-11.1259
詞句	-11.1259
教主	-11.126
佛寶	-11.1262
生大	-11.1263
不可以	-11.1265
乞鉢	-11.1266
為樂	-11.1267
除罪	-11.1268
往返	-11.127
多者	-11.1271
受得	-11.1273
使他	-11.1276
何由	-11.128
後心	-11.128
二文	-11.1281
不受樂	-11.1282
糧	-11.1284
鍼	-11.1284
茂	-11.1285
行心	-11.1285
十萬	-11.1286
此時	-11.1291
得波羅市迦	-11.1293
如有	-11.1294
緣生	-11.1296
瞻波	-11.1299
雜事	-11.1299
更請	-11.1301
我實	-11.1302
僧已	-11.1307
為好故	-11.1308
牟尼	-11.1308
叉手	-11.1309
於我法中	-11.1311
尼白苾芻	-11.1313
業力	-11.1314
毀他	-11.1316
二尺	-11.1316
敷臥具	-11.1317
今更	-11.1317
斯陀含	-11.1318
以戒為	-11.1319
更為	-11.1321
下正明	-11.1323
常以	-11.1323
方名	-11.1323
不顯	-11.1326
品第十	-11.1327
即名為	-11.133
來世	-11.1331
五歲	-11.1334
起塔	-11.1337
受學	-11.1338
具白世尊	-11.1338
俱突吉羅	-11.1338
問此	-11.1339
亦作	-11.134
學道	-11.1342
討	-11.1342
蒲	-11.1345
谷	-11.1345
跛	-11.1347
若著	-11.1347
增上慢	-11.1347
成不成	-11.1347
搭	-11.1349
麁惡	-11.135
揭	-11.1352
足者	-11.1352
我等當	-11.1353
弓箭	-11.1355
總是	-11.1356
雨時	-11.1356
先說	-11.1357
毗舍離	-11.1357
倩	-11.1358
焚燒	-11.1358
富羅	-11.136
無差	-11.136
不收	-11.1361
伽羅	-11.1361
本非	-11.1364
如世	-11.1364
常樂	-11.1367
施心	-11.1373
二百	-11.1373
身口業	-11.1377
請佛及僧	-11.1378
深重	-11.1378
除此	-11.1379
受佛戒	-11.1381
此苾芻	-11.1382
剃頭	-11.1385
故下引證	-11.1386
額	-11.1387
嚩	-11.139
於理	-11.139
話	-11.1392
同是	-11.1392
之苦	-11.1395
壇上	-11.1396
猶是	-11.1398
妬	-11.1398
陶	-11.14
釋迦牟尼	-11.14
水火	-11.1401
燭	-11.1403
襵	-11.1404
一佛	-11.1404
國人	-11.1405
牛糞	-11.1406
緒	-11.1407
乍	-11.1407
不變	-11.1407
苑	-11.1408
迦攝	-11.1409
▁初制意	-11.1409
樂欲	-11.141
?(	-11.141
抽	-11.1411
敬心	-11.1411
不得為	-11.1413
知我	-11.1415
賓頭盧	-11.1417
在道	-11.1417
殺阿羅漢	-11.1418
是外道	-11.1418
初三	-11.1421
溫室	-11.1422
二是	-11.1431
極大	-11.1432
稱讚	-11.1435
設諫	-11.1437
故立	-11.1438
滅惡	-11.1444
同一住處	-11.1444
三十二相	-11.1444
大慈悲	-11.1446
善神	-11.1449
取捨	-11.1451
少時	-11.1454
聞說	-11.1454
吉也	-11.1454
我曹	-11.1454
四儀	-11.1455
逝	-11.1457
少欲知足行頭陀	-11.1459
云何為	-11.1459
次至	-11.1459
痴	-11.146
叢林	-11.1461
非但	-11.1461
欲入	-11.1462
諸方	-11.1463
化生	-11.1463
齊整	-11.1464
爾時比丘	-11.1471
聚落界	-11.1472
蜂	-11.1473
中廣說	-11.1474
不誦	-11.1475
梵本	-11.1476
堅牢	-11.1477
消滅	-11.1478
可悔	-11.148
具明	-11.148
大明	-11.1484
至今	-11.1484
同誦	-11.1484
齒木	-11.1485
不能男	-11.1488
得好	-11.1489
貴人	-11.1492
重制	-11.1492
若減	-11.1497
饒	-11.1497
利故	-11.1505
作種種	-11.1507
室羅伐城	-11.1507
於外	-11.1507
初後	-11.1507
無情	-11.1512
即將	-11.1513
得蘭	-11.1513
餘時者	-11.1517
闍黎	-11.1517
生厭離	-11.1518
向上	-11.1521
山中	-11.1521
須者	-11.1523
。」』	-11.1524
過中	-11.1525
並得	-11.1526
數也	-11.1528
作憶念	-11.1529
夜分	-11.153
堂中	-11.153
彌陀	-11.1531
啼泣	-11.1532
大願	-11.1536
此語	-11.154
海中	-11.1542
白世尊	-11.1543
緣起處	-11.1543
於其中間	-11.1544
所住處	-11.1545
雜色	-11.1545
業故	-11.1545
天宮	-11.1546
諸大	-11.1546
為身	-11.1547
受其	-11.155
道業	-11.155
背請	-11.1552
致令	-11.1552
報云	-11.1556
未分	-11.1557
制止	-11.1558
人邊	-11.1559
同故	-11.1561
先當	-11.1561
傳云	-11.1565
乃得	-11.1567
丘	-11.1567
盜賊	-11.1567
又不	-11.157
同見	-11.1573
或用	-11.1574
法師想	-11.1575
財法	-11.1576
今捨與僧	-11.1577
彩	-11.1578
閉戶	-11.1578
是中清淨不	-11.1579
其父	-11.1582
焦	-11.1584
地者	-11.1586
吉凶	-11.1587
受八戒	-11.1588
淨不淨	-11.1588
舉過	-11.1589
譯為	-11.1589
之始	-11.1589
百二十	-11.1591
嗣	-11.1592
自無	-11.1594
三結罪	-11.1595
嘿然	-11.16
三罪	-11.16
机	-11.1604
當體	-11.1607
分也	-11.1608
一尺	-11.161
四十八	-11.161
次約	-11.1614
若問	-11.1615
中生	-11.1616
之異	-11.1619
五分律	-11.1621
三遍	-11.1622
被他	-11.1623
告諸苾芻曰	-11.1624
若本	-11.1626
向下	-11.1626
由前	-11.1629
中初科初	-11.1632
說十	-11.1633
樹神	-11.1633
初戒	-11.1636
未審	-11.1637
耆闍崛山	-11.1639
閒	-11.1639
勑	-11.1643
蔭	-11.1645
已去	-11.1645
不懺悔	-11.1647
後因	-11.1647
入巳	-11.1649
姊	-11.1652
決斷	-11.1653
塔寺	-11.1653
夏坐	-11.1653
畜長	-11.1657
悶	-11.1659
為諸比丘尼結戒	-11.1663
無德	-11.1665
師所	-11.1665
亡者	-11.1666
須依	-11.1669
亦知	-11.167
非僧	-11.167
長者家	-11.1672
不局	-11.1674
出不淨	-11.1678
生念	-11.1681
說竟	-11.1683
無蟲	-11.1684
境上	-11.1689
眉	-11.1694
過分	-11.1694
下賤	-11.1696
遮說戒	-11.1696
自恣法	-11.1697
緣事	-11.1697
首座	-11.1697
坐已	-11.1697
鬱	-11.1698
置於	-11.1698
破安居	-11.1699
人心	-11.1708
疏文	-11.171
自當	-11.171
若受持	-11.1711
聞知	-11.1712
理事	-11.1713
從是	-11.1714
不得用	-11.1714
我今欲	-11.1714
大樹	-11.1718
▁初示	-11.1724
咽咽	-11.1725
眾善	-11.1727
向說	-11.1727
徐徐	-11.1729
一尋	-11.1734
淨故	-11.1734
憂愁	-11.1735
尊敬	-11.1738
傳授	-11.1739
狂癡	-11.1742
誰諸長老忍僧	-11.1745
六月	-11.1746
四百	-11.1746
作舉	-11.1749
不淨物	-11.1751
誦習	-11.1757
但約	-11.1758
問中	-11.1759
不護	-11.1762
銅鐵	-11.1763
人道	-11.1763
制之	-11.1765
蠶	-11.1766
若不問	-11.1766
行願	-11.177
政	-11.177
異相	-11.1771
不施	-11.1772
係	-11.1773
貴賤	-11.1775
緩急	-11.1775
若離	-11.1775
善財	-11.1776
外相	-11.1776
之屬	-11.1778
引論	-11.178
賞勞	-11.1782
犯婬	-11.1783
周匝	-11.1783
維	-11.1785
膏	-11.1785
可愛	-11.1785
咄	-11.1787
僧羯磨	-11.1787
三趣	-11.1788
佛世	-11.1788
長貪	-11.179
秉羯磨	-11.1793
盛滿	-11.1795
毘舍佉	-11.1796
上至	-11.1796
隨我	-11.1798
等文	-11.1798
彼既	-11.1803
沙彌戒	-11.1804
後還	-11.1806
動身	-11.1812
還本	-11.1812
往佛所	-11.1813
至一	-11.182
無諸	-11.182
白王言	-11.1823
因緣者	-11.1824
峰	-11.1824
未斷	-11.1825
不但	-11.1826
▁二又下	-11.1826
廣如上說	-11.1829
衣藥	-11.1829
鉢食	-11.1833
完	-11.1833
迷心	-11.1835
蟻	-11.1835
隻	-11.1836
請者	-11.1836
薰	-11.1838
僧伽黎	-11.1838
非色非心	-11.1838
中初引	-11.1839
莫非	-11.184
伎	-11.1843
修福	-11.1845
今人	-11.1845
襍	-11.1845
鳩	-11.1845
佛住	-11.1846
染污	-11.1847
滴	-11.1849
但由	-11.185
阿羅漢果	-11.1852
得吉羅	-11.1852
木石	-11.1854
未受具戒人	-11.1855
非罪	-11.1856
末代	-11.1856
演說	-11.1856
犯僧殘罪	-11.1857
為和尚	-11.1857
便自	-11.1857
木蘭	-11.1859
亦如是說	-11.1861
兩分	-11.1861
遺教	-11.1862
來至此	-11.1866
無憂	-11.1866
應起	-11.1866
度眾生	-11.1868
諸苦	-11.1869
人畜	-11.1869
一坐食	-11.187
互跪	-11.1873
如我	-11.1873
半偈	-11.1874
瀉	-11.1874
為己	-11.1876
欲出家	-11.1876
上事	-11.1878
青色	-11.1879
景	-11.1881
應作白	-11.1884
不曾	-11.1888
捨之	-11.189
諸佛常法	-11.189
腋	-11.1891
非想	-11.1891
輪轉	-11.1894
我心	-11.1895
捨身	-11.1896
不應共住	-11.1896
提婆	-11.1897
及至	-11.1898
祐	-11.19
覆處	-11.1901
我與	-11.1903
常懷	-11.1903
先請	-11.1903
出於	-11.1903
別處	-11.1904
三相	-11.1907
於斯	-11.1907
佛意	-11.1908
夕	-11.191
嬈	-11.191
八正	-11.1912
答下	-11.1913
佛陀	-11.1914
萬物	-11.1914
四角	-11.1918
綖	-11.1919
住止	-11.1922
舍羅	-11.1922
損益	-11.1923
愁憂	-11.1924
趣向	-11.1925
問何故	-11.1925
當學	-11.1926
得見	-11.1926
第四分	-11.1926
供養三寶	-11.193
行欲	-11.1931
大智	-11.1932
麼	-11.1935
隨作	-11.1936
直言	-11.1936
顯相	-11.1937
應生	-11.1937
福慧	-11.1937
皆依	-11.1939
來去	-11.194
行成	-11.1942
世諦	-11.1943
繫念	-11.1943
難云	-11.1944
以非	-11.1946
但明	-11.1946
二心	-11.1947
鳴磬	-11.1947
嚴身	-11.1947
乘船	-11.195
躡	-11.1951
末法	-11.1952
自相	-11.1953
還俗	-11.1957
時尊者	-11.1957
貴價	-11.1959
色等	-11.1959
曆	-11.1961
百劫	-11.1961
孝順心	-11.1962
伴黨	-11.1963
屬巳	-11.1963
酤	-11.1964
二時	-11.1964
時六眾苾芻	-11.1964
三德	-11.1964
老死	-11.1964
架	-11.1965
與白衣	-11.1965
乃至廣說	-11.1965
至也者	-11.1966
相近	-11.1966
憎	-11.1967
冐	-11.1967
初發心	-11.1969
得偷蘭罪	-11.197
函	-11.1971
易知	-11.1972
真言曰	-11.1975
一脚	-11.1975
七月	-11.1976
一房	-11.1977
錯誤	-11.1979
可分	-11.1981
正當	-11.1981
說悔	-11.1982
叉腰	-11.1982
故違	-11.1983
」【【	-11.1983
一解	-11.1986
復應	-11.1987
六師	-11.1987
教我	-11.1987
同僧	-11.1989
非時漿	-11.1991
服之	-11.1993
陸	-11.1997
我弟子	-11.1997
結也	-11.2004
從佛	-11.2004
又無	-11.2007
當問	-11.2009
無所著	-11.2009
墮地	-11.201
居士家	-11.201
即自	-11.2012
喜心	-11.2013
從緣	-11.202
六和	-11.202
礪	-11.2022
生子	-11.2022
真空	-11.2022
葱	-11.2024
▁初標分	-11.2024
尊卑	-11.2027
文四	-11.203
凶	-11.2031
作福	-11.2031
犯棄	-11.2033
浴衣	-11.2034
事成	-11.2037
椀	-11.2037
漉水囊	-11.2038
巳物	-11.2038
迦提	-11.2038
一門	-11.2038
轉輪聖王	-11.2039
來此	-11.2039
勝處	-11.2039
脊	-11.2039
必先	-11.204
不怖	-11.204
若與人	-11.204
言詞	-11.2041
自求	-11.2044
作一	-11.2046
有衣	-11.2048
戒羸	-11.205
背捨	-11.205
為諸	-11.2054
巷	-11.2056
於僧中	-11.2059
營事	-11.2059
二別	-11.206
體非	-11.206
在屏處	-11.2061
流水	-11.2062
之流	-11.2062
持刀	-11.2063
娛樂	-11.2067
身死	-11.2067
此上	-11.2073
如是一切	-11.2074
奈	-11.2075
無利	-11.2076
亦開	-11.2078
作何等	-11.2079
在內	-11.208
同事	-11.2085
寶藏	-11.2086
病差	-11.2088
十行	-11.2088
當部	-11.209
隨從	-11.209
亡人	-11.2092
至時	-11.2092
而彼	-11.2093
轍	-11.2093
少多	-11.2095
不淨施	-11.2096
隨用	-11.2097
為十	-11.2098
敵	-11.2098
杓	-11.2099
強力	-11.21
爾時世尊在	-11.2101
汝去	-11.2103
辰	-11.2104
髀	-11.2107
比丘白佛	-11.2108
擊攊	-11.2109
通用	-11.2109
六道眾生	-11.2109
袋	-11.2109
家業	-11.2109
塼	-11.2112
觀其	-11.2114
沓婆摩羅子	-11.2114
攝僧	-11.2115
諸行	-11.2116
暫時	-11.2116
斯事	-11.212
此是惡事	-11.2122
反顯	-11.2123
與餘人	-11.2125
過是	-11.2125
鵝	-11.2125
下衣	-11.2126
受經	-11.2126
後說	-11.2128
本末	-11.2129
忍可	-11.2136
彼所	-11.2136
諸白衣	-11.2137
一切行	-11.2138
日應作衣	-11.2139
言其	-11.2139
虵	-11.214
真理	-11.2141
自煑	-11.2142
服藥	-11.2144
驚怖	-11.2147
比丘語	-11.2149
廣教	-11.2151
還主	-11.2153
淡	-11.2155
赤色	-11.2156
通論	-11.2158
一比丘尼	-11.2159
恕	-11.2161
九十日	-11.2161
教授比丘尼	-11.2163
三十三	-11.2165
見論云	-11.2169
求法	-11.2171
是為犯	-11.2172
鳥獸	-11.2177
人不	-11.2178
又比丘得不具足衣	-11.2179
略示	-11.2183
之大	-11.2184
羞恥	-11.2185
共立	-11.2185
別異	-11.2186
嘗	-11.2187
麁惡語	-11.2187
空無	-11.2188
八聖道	-11.2194
離地	-11.2196
阿難言	-11.2197
在眾	-11.2197
若少	-11.22
識者	-11.22
入界	-11.22
何也	-11.2201
虫水	-11.2203
中住	-11.2203
倒說	-11.2205
大經云	-11.2206
以來	-11.2206
總示	-11.2207
又於	-11.2212
籍	-11.2214
事不	-11.2215
後當	-11.2218
哭	-11.222
餘時	-11.2222
叢	-11.2222
六事	-11.2222
巳還	-11.2223
持之	-11.2224
告云	-11.2224
直至	-11.2225
得上人法	-11.2226
三十八	-11.2226
稱名	-11.2227
復於	-11.2229
未生	-11.2231
不是	-11.2232
果者	-11.2233
沸	-11.2234
阿梨耶	-11.2235
在露地	-11.2235
佛知而故問	-11.2235
方始	-11.2236
羸瘦	-11.2242
人趣	-11.2244
若施	-11.2249
出眾	-11.2251
若須	-11.2251
一切羯磨	-11.2251
嗔心	-11.2252
隨文	-11.2253
是真	-11.2253
下引證	-11.2253
羯磨文	-11.2255
惠施	-11.2256
虗實	-11.2256
下生	-11.2258
切音	-11.2258
同者	-11.2259
七句	-11.226
今可	-11.2261
前緣	-11.2262
得定	-11.2262
在僧中	-11.2263
立教	-11.2266
相連	-11.2267
釋疑	-11.2269
而退	-11.227
時有一	-11.2271
之器	-11.2271
上言	-11.2276
作相	-11.2276
巳身	-11.2276
受報	-11.2277
諸緣	-11.2278
晨	-11.2279
中人	-11.2279
一剎那	-11.2279
往問	-11.2279
師友	-11.228
瘂	-11.2282
瑟	-11.2282
反抄衣	-11.2284
黎	-11.2284
生身	-11.2285
還取	-11.2285
一子	-11.2286
午	-11.2286
課	-11.2287
得證	-11.2287
自非	-11.229
戒本云	-11.2295
假令	-11.2296
緣成	-11.2296
龕	-11.2299
厥	-11.2299
闊	-11.2299
一切煩惱	-11.2299
涕唾	-11.23
本有	-11.23
若持	-11.2301
相濫	-11.2301
雖在	-11.2301
筭	-11.2302
餘緣	-11.2303
挂	-11.2303
安慰	-11.2306
參差	-11.2307
得墮罪	-11.2307
銜	-11.2309
隨一	-11.231
等戒	-11.231
迴轉	-11.232
安樂住	-11.2321
宿命	-11.2324
十誦中	-11.2326
作無作	-11.2331
法非	-11.2336
看病比丘	-11.2338
鄰	-11.234
丹	-11.2342
軟語	-11.2343
之要	-11.2345
雇	-11.2346
大聲	-11.2348
鹿王	-11.2353
妙行	-11.2354
淨飯王	-11.2357
所解	-11.2358
帽	-11.2358
自捉	-11.2359
舉他	-11.236
說為	-11.2362
所欲	-11.2362
僅	-11.2362
又名	-11.2364
揖	-11.2365
十卷	-11.2366
情非情	-11.2368
圓宗	-11.2369
一足	-11.237
遂令	-11.2371
而問	-11.2373
淨洗	-11.2376
名聞	-11.2376
四生	-11.2377
水洗	-11.2377
空有	-11.2378
佛種種呵責已	-11.2379
引禮	-11.2379
何人	-11.2379
明文	-11.2381
遮性	-11.2382
二位	-11.2382
內無	-11.2383
七眾同犯	-11.2384
如是第二	-11.2388
此皆	-11.239
諸罪	-11.2391
別教	-11.2392
別離	-11.2393
跋提	-11.2393
受大	-11.2394
不觸	-11.2394
分者	-11.2394
常得	-11.2395
草覆	-11.2396
充足	-11.2397
論師	-11.2399
相染	-11.2402
色相	-11.2404
能持否	-11.2406
若眾僧	-11.2409
見一	-11.241
明非	-11.2411
忠	-11.2413
搜	-11.2414
阿闍世王	-11.2414
嗟	-11.2415
腫	-11.2416
卵	-11.2418
得惡作	-11.2419
中之	-11.2419
即顯	-11.242
吼	-11.242
而云	-11.2421
麤語	-11.2428
諍訟	-11.243
臍	-11.243
能與	-11.2433
我此	-11.2434
令眾	-11.2435
十眾	-11.2436
欲行	-11.2437
王者	-11.2438
犯此僧伽婆尸沙罪	-11.2441
知而	-11.2442
中有一	-11.2442
是重	-11.2446
出世間	-11.2446
音樂	-11.2447
什	-11.2447
時鄔陀夷	-11.2449
真珠	-11.2453
自覺	-11.2454
覆者	-11.2455
散華	-11.2456
所學	-11.2456
失法	-11.2457
諸比丘不知	-11.2464
常應	-11.2466
成罪	-11.2467
藏舉	-11.2467
亦同此	-11.2469
別顯	-11.2469
即問	-11.247
成否	-11.247
雜亂	-11.2472
有客比丘來	-11.2472
在眾中	-11.2473
今生	-11.2475
日光	-11.2475
度之	-11.2476
總持	-11.2477
眾罪	-11.2479
和上尼	-11.2481
躭	-11.2483
毋	-11.2484
如是事	-11.2485
祀	-11.2485
佩	-11.2485
入此	-11.2485
以種種	-11.2487
造寺	-11.2489
不淨食	-11.2491
成立	-11.2491
了義	-11.2495
何法	-11.2495
橋	-11.2496
毳	-11.2496
隙	-11.2497
口言	-11.2498
慢心	-11.2499
熱惱	-11.25
朽	-11.2501
澡浴	-11.2502
資持	-11.2504
非法別眾	-11.2504
以此為	-11.2504
至下	-11.2504
著泥洹僧	-11.2505
餘殘	-11.2508
為別	-11.2508
理也	-11.2511
得法眼淨	-11.2512
我非	-11.2512
二房	-11.2512
上座應	-11.2513
便能	-11.2514
母論云	-11.2516
雖云	-11.2518
可謂	-11.2518
法施	-11.2521
覺分	-11.2523
比座	-11.2525
」「	-11.2525
若盜	-11.2532
五明	-11.2534
孰	-11.2534
觀法	-11.2535
置衣	-11.2536
今復	-11.2537
牛馬	-11.2538
胡麻	-11.2539
未出	-11.2539
結解	-11.2539
餘部	-11.2544
諸難	-11.2545
搏	-11.2546
還本處	-11.2546
有少	-11.2547
一一皆	-11.2548
入佛	-11.2549
求聽	-11.2549
後結	-11.255
不囑授	-11.2551
凡欲	-11.2551
得重罪	-11.2552
炙	-11.2555
之用	-11.2557
裝	-11.2558
小鉢	-11.2558
次說	-11.256
炭	-11.2562
佛滅度後	-11.2562
狼藉	-11.2563
其上	-11.2563
而論	-11.2564
垢膩	-11.2566
見人	-11.2567
吉者	-11.2568
橛	-11.2568
就初	-11.2577
毀訾	-11.258
佛經	-11.2581
圓具	-11.2582
執事人	-11.2586
唯在	-11.2591
之士	-11.2592
非處	-11.2594
邊際	-11.2597
引律	-11.2598
惡友	-11.2598
盜心取	-11.26
進不	-11.2604
方軌	-11.2604
尼曰	-11.2608
收攝	-11.2608
七百	-11.2609
比丘舉過	-11.2611
欲出	-11.2612
多欲	-11.2614
舍內	-11.2618
非有	-11.262
巳有	-11.2622
韋	-11.2623
以義	-11.2623
入海	-11.2623
竹園	-11.2624
覈	-11.2625
時分	-11.2626
擾	-11.2629
邏	-11.2632
違順	-11.2633
非親里比丘尼	-11.2636
八月	-11.2639
心緣	-11.2639
覔	-11.264
無差別	-11.2643
聖言	-11.2645
是中有比丘尼	-11.2646
大道	-11.2647
眼識	-11.2649
結淨地	-11.2651
佛聞故制	-11.2652
非法者	-11.2652
五百問云	-11.2653
去後	-11.2654
獲罪	-11.2657
應安	-11.2658
奉佛	-11.2659
卷中	-11.2659
是阿羅漢	-11.2662
易解	-11.2663
異時	-11.2663
比丘在	-11.2664
私通	-11.2669
乞縷	-11.267
中明	-11.2672
明白	-11.2673
與法	-11.2673
並不	-11.2674
倦	-11.2674
名號	-11.2675
本業	-11.2676
如初	-11.2677
堪為	-11.2678
水瓶	-11.2678
是色	-11.2681
開也	-11.2681
衣被	-11.2682
鈔主	-11.2684
歟	-11.2684
其間	-11.2686
粒	-11.2686
大界內	-11.269
布薩說戒	-11.2691
而臥	-11.2692
無用	-11.2692
稱之為	-11.2693
苾蒭	-11.2695
八部	-11.2696
嬰	-11.2698
就中	-11.2699
不虗	-11.27
所執	-11.27
僧別	-11.27
證成	-11.2701
施人	-11.2701
諸比丘往白世尊	-11.2702
第三門	-11.2704
杵	-11.2704
空寂	-11.2704
大事	-11.2705
不得在	-11.2706
強弱	-11.2706
謗僧	-11.2706
不懺	-11.2707
其體	-11.2707
若有犯	-11.2708
守園人	-11.2708
手持	-11.2708
店	-11.2708
城內	-11.2709
攝取	-11.2709
初列	-11.2709
準前	-11.2712
具列	-11.2713
故稱為	-11.2713
若但	-11.2713
義無	-11.2714
十三事	-11.2714
永離	-11.2714
以彼	-11.2716
見世尊	-11.2717
德行	-11.2718
自相謂言	-11.2718
隨其所	-11.2719
亦名為	-11.2719
商旅	-11.272
乃至三諫	-11.272
殷	-11.2723
已便	-11.2725
此是時	-11.2725
為解	-11.2726
執事	-11.2729
覆瘡衣	-11.273
和上阿闍梨	-11.2731
主者	-11.2732
聖僧	-11.2732
比丘前	-11.2733
以論	-11.2735
上衣	-11.2736
力勢	-11.2738
犯事	-11.2742
自恃	-11.2745
兩種	-11.2745
毀辱	-11.2745
力士	-11.2746
形如	-11.2747
阻	-11.2749
化佛	-11.275
逈	-11.2752
僧祇律	-11.2754
稽	-11.2754
阿鼻	-11.2758
鈎	-11.2759
軸	-11.2761
不淨行	-11.2761
不觀	-11.2762
共有	-11.2763
刮	-11.2763
相當	-11.2763
前說	-11.2764
制底	-11.2765
揀擇	-11.277
第三諫	-11.277
悉是	-11.277
助道	-11.277
行住坐臥	-11.2771
。」【△	-11.2772
燥	-11.2777
爾時佛在舍衛國祇樹給孤獨園	-11.2778
業體	-11.2782
外凡	-11.2784
飲之	-11.2784
非相	-11.2785
為上	-11.2786
」(	-11.2786
覆上	-11.2787
不列	-11.2788
業也	-11.279
分為三	-11.2791
有戒	-11.2794
當更	-11.2795
對上	-11.2796
所收	-11.2797
摩納婆	-11.2799
終無	-11.28
告知	-11.2801
白世尊言	-11.2801
五通	-11.2803
行施	-11.2804
僧地	-11.2804
任情	-11.2806
作斯	-11.2807
十方三世	-11.2809
故特	-11.2812
化人	-11.2812
顛	-11.2813
八正道	-11.2814
受齋	-11.2815
此翻為	-11.2817
有想	-11.282
見巳	-11.2821
無貪	-11.2822
迦葉佛	-11.2823
所以不	-11.2824
熱鐵	-11.2825
諸女	-11.2829
紀	-11.283
第四門	-11.283
還得	-11.2831
殯	-11.2832
食訖	-11.2833
有命	-11.2834
一歲	-11.2838
求得	-11.2838
貪瞋癡	-11.2838
自念言	-11.2839
點淨	-11.284
陀羅尼經	-11.2842
所感	-11.2842
以之為	-11.2843
足下	-11.2844
巳明	-11.2849
說是	-11.285
誦之	-11.285
之下	-11.2851
陀婆	-11.2852
除其	-11.2853
入中	-11.2853
佛告比丘	-11.2854
列名	-11.2855
多罪	-11.2856
若師	-11.2857
歸依三寶	-11.2858
仁者	-11.2859
習氣	-11.2859
欝	-11.2859
千百億	-11.2862
謂此菩薩	-11.2862
問之	-11.2866
具三	-11.2866
內色	-11.2866
堪任	-11.2867
行菩薩道	-11.2868
一道	-11.2873
但可	-11.2875
李	-11.2877
天授	-11.2877
有主物	-11.2879
八重	-11.2879
竹木	-11.2886
入宮	-11.2887
黑色	-11.289
河邊	-11.2891
秤	-11.2892
昭	-11.2892
化為	-11.2893
踏	-11.2893
讚持戒	-11.2896
汝為	-11.2896
掛	-11.29
有智慧	-11.29
甜	-11.2901
懺悔主	-11.2901
揵	-11.2901
曇無德	-11.2902
襯	-11.2903
正命	-11.2906
度脫	-11.2908
中分二	-11.2908
白眾	-11.291
無限	-11.2912
體狀	-11.2913
工巧	-11.2915
撿挍	-11.2917
深淺	-11.2918
應食	-11.2919
十方法界	-11.292
供給所須	-11.2921
故論云	-11.2923
遮戒	-11.2925
餘義如上	-11.2927
本文	-11.2928
權實	-11.2929
應說	-11.2929
一大	-11.2931
正顯	-11.2932
三段	-11.2933
便取	-11.2933
詣世尊所	-11.2935
▁初通釋	-11.2935
知已	-11.294
安居中	-11.2941
先知	-11.2942
能行	-11.2944
體者	-11.2945
過故	-11.2945
之色	-11.2946
你	-11.2947
四處	-11.2948
改悔	-11.2951
相應法	-11.2951
引請	-11.2951
不淨地	-11.2955
二十人	-11.2959
屬僧	-11.2959
污家	-11.2959
其夫	-11.2959
別名	-11.296
自活	-11.2962
鎧	-11.2964
極多	-11.2965
三諦	-11.2966
所食	-11.2968
二百五十戒	-11.2971
變易	-11.2972
僧祗律云	-11.2973
撫	-11.2973
聚集	-11.2974
捨此事故	-11.2974
指上	-11.2975
別界	-11.2975
犯根本	-11.2976
共女人	-11.2978
書寫	-11.298
僧伽胝	-11.2982
莫作是語	-11.2983
若不如是	-11.2989
戶鉤	-11.2992
劉	-11.2992
膿血	-11.2994
有一住處	-11.2995
餓	-11.2995
說巳	-11.2998
塗身	-11.3001
生酥	-11.3006
圓成	-11.3007
初引	-11.3007
眾事	-11.3007
應求	-11.3008
擯比丘	-11.3009
一味	-11.301
十七群	-11.3011
倣	-11.3013
白師	-11.3013
不可也	-11.3015
心地法門	-11.3017
十利	-11.3017
佛地	-11.3018
大目連	-11.3018
我常	-11.3019
四方僧物	-11.302
比丘食	-11.302
煩惱障	-11.3024
五處	-11.3025
捉手	-11.3025
義鈔	-11.3026
个	-11.3027
還成	-11.3028
慎勿	-11.3029
時鄔波難陀	-11.3032
擅	-11.3035
繒	-11.3035
在家人	-11.3041
頂戴	-11.3042
某甲比丘尼	-11.3044
聽汝	-11.3044
嗜	-11.3045
云何得	-11.3045
正示	-11.3045
中初敘	-11.3046
喬答摩	-11.3046
相應者	-11.3046
客來	-11.3046
縱使	-11.3047
舉一	-11.3047
時彼長者	-11.3052
以是事	-11.3052
中二	-11.3055
隨舉	-11.3056
豈能	-11.3057
中無	-11.3057
不易	-11.3057
自今已去與比丘尼結戒	-11.3057
得波夜提	-11.3059
熊	-11.3059
理體	-11.3061
往觀	-11.3063
方有	-11.3063
千人	-11.3064
六七	-11.3065
過五六語	-11.3066
從今已去	-11.3067
過量作	-11.3067
拔濟	-11.3068
而制	-11.3068
中有二	-11.3069
披著	-11.3069
佛言聽	-11.3071
乃至今	-11.3072
其法	-11.3073
作不淨行	-11.3073
當觀	-11.3073
能忍	-11.3076
墮胎	-11.3077
若過者	-11.3077
俗中	-11.3078
夷罪	-11.3078
村外	-11.308
日用	-11.3081
安坐	-11.3081
約境	-11.3083
人曰	-11.3086
西域記云	-11.3087
離見聞	-11.3087
不無	-11.3093
脫衣	-11.3095
豈容	-11.3095
答中初	-11.3096
如法諫	-11.3096
善道	-11.3097
非衣	-11.3097
量者	-11.3098
任持	-11.3102
雲集	-11.3103
滌	-11.3108
不障	-11.3108
所餘	-11.3109
賊難	-11.3109
竹林	-11.3111
與男子	-11.3112
分法	-11.3114
衣裳	-11.3114
有根	-11.3117
雜心	-11.3117
是正	-11.3118
示教利喜	-11.3118
同梵行者	-11.312
閏月	-11.312
說戒堂	-11.3123
法空	-11.3125
▁初敘	-11.3125
語令	-11.3126
形色	-11.3127
之義也	-11.3128
婚	-11.3128
式叉摩那沙彌沙彌尼突吉羅	-11.3129
心淨	-11.313
同伴	-11.3132
所著	-11.3133
汝自	-11.3135
頌云	-11.3135
有眾多	-11.3136
餘非	-11.3137
大涅槃	-11.3139
親屬	-11.3139
受畜	-11.3139
正語	-11.314
害心	-11.3146
皆得墮罪	-11.3147
大姉	-11.3148
傷害	-11.3151
謗者	-11.3153
手脚	-11.3155
餘眾	-11.3157
寒熱	-11.3158
乞得	-11.316
波羅市迦	-11.3163
讚毀	-11.3164
六波羅蜜	-11.3164
三障	-11.3165
搖身	-11.3165
形體	-11.3165
是非法	-11.3166
所願	-11.3167
具德	-11.3167
身形	-11.3169
復得	-11.3171
魯	-11.3172
鴿	-11.3173
□□	-11.3175
計直	-11.3178
而此	-11.3179
共議	-11.318
戴	-11.318
砂	-11.3183
若已	-11.3186
第十五	-11.3186
怯	-11.3187
除村	-11.3188
▁二如下	-11.3189
叛	-11.319
戒本三句	-11.3191
九條	-11.3191
默然而住	-11.3192
眾中有	-11.3193
世中	-11.3194
通緣	-11.3194
劫貝	-11.3195
攝一切	-11.3197
惡律儀	-11.3197
多得	-11.3199
同居	-11.32
近事	-11.32
椎	-11.3201
可依	-11.3203
滿者	-11.3203
未起	-11.3203
舅	-11.3204
故但	-11.3205
如來所	-11.3212
沙彌沙彌尼	-11.3213
希求	-11.3213
前之	-11.3213
成衣	-11.3219
來問	-11.322
唱云	-11.3222
重重	-11.3223
我從	-11.3223
例此	-11.3226
佛問言	-11.3226
色者	-11.3227
故不須	-11.3227
白㲲	-11.3229
此地	-11.3229
授食	-11.3229
往還	-11.3231
七滅諍法	-11.3233
義門	-11.3234
舍衛國祇樹給孤獨園	-11.3236
不識事	-11.3237
揀非	-11.3239
道也	-11.324
爾時有比丘	-11.3241
不殺生	-11.3242
嶮	-11.3243
取用	-11.3248
毱多	-11.3249
死時	-11.3253
於王	-11.3254
至涅槃	-11.3255
下地	-11.3256
得已	-11.3257
寢	-11.3257
頗比丘	-11.3258
歸依僧	-11.3258
拄	-11.3258
以是事白佛	-11.326
有娠	-11.3261
第四禪	-11.3261
捨置	-11.3262
大綱	-11.3263
相謂曰	-11.3264
縮	-11.3264
鈴	-11.3265
輦	-11.3266
各得	-11.3267
郡	-11.3268
作新臥具	-11.3269
戒學	-11.327
攝也	-11.3272
不漏	-11.3272
疲苦	-11.3272
定罪此中犯者	-11.3272
堪忍	-11.3274
亦聽	-11.3275
故輕	-11.3276
剎帝利	-11.3276
於事	-11.3277
佛滅後	-11.3278
細滑	-11.3279
說已	-11.328
若僧伽時至聽者	-11.3281
舉之	-11.3282
故所以	-11.3283
昔時	-11.3284
和尚尼	-11.3287
令入	-11.3288
未明	-11.3288
可共	-11.3289
應將	-11.329
為破	-11.329
令淨人	-11.329
依於	-11.3291
進止	-11.3292
而不能	-11.3293
近住	-11.3295
初出	-11.3296
擁	-11.3296
來詣	-11.3297
知佛	-11.3297
見思	-11.3297
居家	-11.3297
苾芻不應	-11.33
一行	-11.3301
▁八	-11.3303
深防	-11.3304
古解	-11.3304
如法懺悔	-11.3304
不審	-11.3304
汝先	-11.3305
不云	-11.3306
如幻	-11.3307
然其	-11.3307
覓罪相	-11.3307
容儀	-11.3309
七遮	-11.331
以示	-11.331
犯過	-11.3311
自來	-11.3311
令去	-11.3313
檀越家	-11.3313
覆障	-11.3315
賣買	-11.3317
處坐	-11.3319
不得取	-11.332
自讚	-11.3323
從乞	-11.3327
餘六	-11.3331
常用	-11.3331
中初句	-11.3332
往生	-11.3333
蹋	-11.3334
相同	-11.3335
甎	-11.3336
萬善	-11.3336
淵	-11.3337
不等	-11.3338
云何為五	-11.3341
箱	-11.3342
作人	-11.3343
篤信	-11.3343
三羯磨	-11.3345
自恣日	-11.3345
一切不得	-11.3346
身相	-11.3346
道器	-11.3348
必不	-11.3349
前五	-11.335
求之	-11.3351
半月半月說	-11.3351
不改	-11.3352
衣竟	-11.3352
後起	-11.3353
以慈心	-11.3355
惡知識	-11.3362
血肉	-11.3363
為諸比丘	-11.3366
自成	-11.3366
亦不可	-11.337
此樹	-11.3371
問汝	-11.3371
池中	-11.3371
指廣	-11.3372
如本	-11.3372
不成者	-11.3376
若巳	-11.3377
身衣	-11.338
從本	-11.3381
結罪是中犯	-11.3381
不婬	-11.3381
同也	-11.3382
義准	-11.3382
心念口言	-11.3383
無解	-11.3387
平地	-11.3388
其一	-11.3388
嚕	-11.3388
佛與	-11.339
供具	-11.339
下音	-11.3391
如是如是	-11.3392
旛	-11.3393
若不作衣	-11.3393
染色	-11.3394
與眾僧	-11.3395
床坐	-11.3396
時諸比丘尼	-11.3396
種種方便	-11.3396
行故	-11.3396
淨厨	-11.3399
糓	-11.34
一二三	-11.34
淪	-11.34
醯	-11.3401
我子	-11.3401
』	-11.3401
諸界	-11.3405
絃	-11.3405
願力	-11.3409
佐	-11.341
無損	-11.341
大菩薩	-11.3411
一夏	-11.3411
是為不犯	-11.3411
所逼	-11.3411
築	-11.3412
嫌罵	-11.3413
汝於	-11.3414
何容	-11.3414
解法	-11.3415
他衣	-11.3416
之數	-11.3416
又二初	-11.3417
所斷	-11.3417
即用	-11.3418
七夜	-11.3419
隨開不犯者	-11.342
復至	-11.3423
若無人	-11.3424
阿姨	-11.3425
下列	-11.3425
我知正法	-11.3425
尼無	-11.3426
攝善法戒	-11.3427
如是說	-11.3427
斷其命	-11.3429
得僧伽婆尸沙	-11.3429
捨此	-11.3429
壞生	-11.343
大家	-11.343
戒之	-11.3433
告眾	-11.3434
大人	-11.3435
諸漏	-11.3436
不共語	-11.3442
開門	-11.3444
當分	-11.3445
妄心	-11.3447
三賢	-11.3447
後受	-11.3448
列緣	-11.3448
擁護	-11.345
難思	-11.3452
不空	-11.3453
中有三	-11.3453
得夷	-11.3453
難者	-11.3455
有所須	-11.3457
豈是	-11.3458
進退	-11.3459
清淨故	-11.346
讐	-11.346
門者	-11.3461
四心	-11.3463
後言	-11.3463
翻前	-11.3463
佛名	-11.3464
激	-11.3466
駄	-11.3467
伹有	-11.3468
黑月	-11.3469
放生	-11.3473
倚傍	-11.3473
結業	-11.3473
悕	-11.3475
若不作	-11.3475
因中	-11.3477
中陰	-11.3477
辟支	-11.3479
據理	-11.348
五過	-11.3481
略明	-11.3481
村落	-11.3482
之方	-11.3483
想者	-11.3483
脩道	-11.3484
緻	-11.3486
母曰	-11.3488
順從	-11.3489
g	-11.3489
im	-11.3489
栗	-11.349
證上	-11.3493
則失	-11.3494
惡邪不除擯	-11.3494
十心	-11.3494
諸居士見	-11.3494
誦持	-11.3495
善生經	-11.3498
白佛結戒	-11.3498
天魔	-11.3499
客作	-11.35
其師	-11.35
有怖	-11.3502
互有	-11.3502
事事	-11.3503
慧心	-11.3503
是中清淨	-11.3503
告諸	-11.3507
品中	-11.3507
長跪合掌	-11.3509
二寶	-11.3511
不亂	-11.3512
今於	-11.3513
專精	-11.3515
和尚尼某甲	-11.3515
初言	-11.3517
鈔引	-11.3518
得出家	-11.3519
復何	-11.3521
彼宗	-11.3522
所宗	-11.3524
▁一心頂禮	-11.3524
說過	-11.3526
自謂	-11.3526
戒總釋	-11.3527
初制	-11.3529
機緣	-11.353
十句	-11.3531
年滿	-11.3534
病壞心	-11.3536
▁初總標	-11.3536
令作	-11.3537
可於	-11.3539
之智	-11.3539
五正食	-11.354
除之	-11.3541
三請	-11.3542
出三界	-11.3542
三師	-11.3543
作罪	-11.3544
無量功德	-11.3545
草葉	-11.3545
斛	-11.3546
醒	-11.3549
蔓	-11.3549
瓜	-11.355
歇	-11.355
離於	-11.3552
吾祖	-11.3553
故心	-11.3554
下結示	-11.3554
專心	-11.3554
聽著	-11.3556
屠兒	-11.3561
二十年	-11.3561
戒緣	-11.3561
貼	-11.3563
<	-11.3564
以理	-11.3566
於三寶	-11.3566
地菩薩	-11.3566
并諸眷屬	-11.3568
慰	-11.3569
一為	-11.357
地獄中	-11.357
從僧乞六夜摩那埵	-11.3571
飢餓	-11.3572
張手	-11.3573
比丘尼義如上	-11.3574
先所	-11.3574
樂者	-11.3576
餘比丘尼	-11.3576
於三	-11.3576
共我	-11.3579
餘並	-11.3581
房舍臥具	-11.3581
悔者	-11.3581
之謂也	-11.3584
棺	-11.3584
體同	-11.3586
於大	-11.3587
道心	-11.3587
各一	-11.3589
難中	-11.3589
令正法久住	-11.3589
得人身	-11.3592
智度論云	-11.3594
時應	-11.3595
智力	-11.3595
事難	-11.3596
前方便	-11.3597
次引	-11.3597
多用	-11.3598
羣生	-11.3598
損他	-11.3599
勸學	-11.3599
阿耨多羅三藐三菩提	-11.36
結示	-11.36
釋迦如來	-11.3601
厄	-11.3603
現有	-11.3604
就此	-11.3605
甄	-11.3606
不妄	-11.3607
我當云何	-11.3607
門人	-11.361
見諸	-11.3611
受緣	-11.3612
被擯	-11.3617
矜	-11.3617
流入	-11.3617
滑	-11.3618
鋒	-11.3618
通也	-11.3618
下文云	-11.3621
溢	-11.3622
沾	-11.3623
而不知	-11.3623
國主	-11.3623
此鉢	-11.3624
作四句	-11.3624
酌	-11.3625
十界	-11.3626
揣	-11.3628
七事	-11.363
蓐	-11.3632
下意	-11.3634
解了	-11.3636
說是戒經	-11.3637
摩訶迦葉	-11.3637
大論	-11.3637
震動	-11.3638
可用	-11.3639
象鼻	-11.3643
堪受	-11.3644
贍部洲	-11.3646
解之	-11.3646
屏露	-11.3647
展轉相	-11.3649
摩竭國	-11.3649
沐浴	-11.3651
教誨	-11.3654
日出	-11.3655
犢子	-11.3655
消息	-11.3656
田宅	-11.3657
十方僧	-11.366
淨物	-11.366
之稱	-11.3661
行食	-11.3662
王大臣	-11.3662
汝見	-11.3665
白已	-11.3665
集比丘僧	-11.3666
捉寶	-11.3667
戲論	-11.367
惡作罪	-11.367
宮人	-11.367
不獲	-11.3671
出者	-11.3672
指印	-11.3672
到佛所	-11.3673
。◎	-11.3675
菩薩所	-11.3676
有住處	-11.3676
前坐	-11.3677
第十四	-11.3678
所傳	-11.3679
戒故	-11.368
尖	-11.368
三五	-11.3681
正表	-11.3682
雜物	-11.3685
當持	-11.3687
寮	-11.3688
疑不識	-11.369
眾學法	-11.3692
一明	-11.3693
發無作	-11.3694
語諸比丘言	-11.3694
若爾何故	-11.3695
若遣使	-11.3698
剩	-11.3698
若沙彌	-11.37
向佛	-11.3706
第三分	-11.3707
燋	-11.371
無因緣	-11.371
牒前	-11.3711
汝等當	-11.3711
復有五種	-11.3713
慈氏	-11.3714
岸上	-11.3714
約教	-11.3715
佛亦	-11.3717
釋成	-11.3718
有六種	-11.3721
欲至	-11.3722
星宿	-11.3725
造一切罪	-11.3726
出其	-11.3728
第二明	-11.3729
畜眾	-11.373
斷惡	-11.373
百官	-11.373
處住	-11.3732
幾許	-11.3734
往取	-11.3734
然下	-11.3734
行覆藏	-11.3737
通利	-11.3737
一化	-11.374
福利	-11.3744
有檀越	-11.3745
輕賤	-11.3745
不來者	-11.3746
以定	-11.3749
如是思惟	-11.3749
無主物	-11.3751
即約	-11.3751
四比丘	-11.3752
妨處	-11.3753
一切功德	-11.3753
彼使	-11.3754
會通	-11.3755
無量劫	-11.3756
為人所	-11.3758
秉白	-11.376
度者	-11.3765
嫌言	-11.3767
有本	-11.3768
以求	-11.3769
滅之	-11.3769
複	-11.3772
有部	-11.3772
準知	-11.3772
無諍	-11.3775
幼	-11.3776
非人女	-11.3777
映	-11.3778
無信	-11.3779
何以不	-11.3779
迫	-11.378
鑽	-11.378
得波羅夷罪	-11.378
依止師	-11.3781
此偈	-11.3781
一丈	-11.3783
多畜	-11.3783
終至	-11.3783
核	-11.3784
踰	-11.3784
宿食	-11.3785
受也	-11.3787
大得	-11.3788
以十利故與比丘尼結戒	-11.379
淨居天	-11.3791
石上	-11.3791
正為	-11.3794
中三	-11.3794
數數食	-11.3795
隨次	-11.3796
烏迴鳩羅	-11.3797
過去諸佛	-11.3799
為始	-11.38
僧聽	-11.3801
滅故	-11.3802
勸修	-11.3802
世尊以此因緣集比丘僧	-11.3803
停更望得	-11.3803
佛在舍衛城	-11.3806
父母兄弟	-11.3806
新者	-11.3807
標名	-11.381
不得以	-11.3811
清淨戒	-11.3811
誰諸長老	-11.3812
表白	-11.3812
在初	-11.3813
彼比丘應	-11.3813
或從	-11.3815
在身	-11.3823
別作	-11.3824
來報	-11.3825
尊貴	-11.3826
今所	-11.3827
即出	-11.3827
今我	-11.3832
捨巳	-11.3833
人死	-11.3834
必假	-11.3836
沙彌十戒	-11.3836
生草木	-11.3836
謂約	-11.3837
無性	-11.3839
佛在世時	-11.384
犯波逸提	-11.384
法滅	-11.3841
二中	-11.3842
又無犯者	-11.3842
諸比丘以是白佛	-11.3844
又為	-11.3845
無論	-11.3847
祝	-11.3848
現在前	-11.3849
作淨施	-11.3849
生也	-11.3851
斷滅	-11.3851
效	-11.3852
衣角	-11.3852
得淨	-11.3853
二制	-11.3854
集諦	-11.3855
念曰	-11.3856
總相	-11.3856
律明	-11.3857
耽	-11.3857
汝以何心	-11.3858
無教	-11.3858
室中	-11.3859
了達	-11.3859
疏鈔	-11.386
犯故	-11.3866
分衛	-11.3867
非重	-11.3867
隨得	-11.3869
病緣	-11.3869
一切世間	-11.3869
犯緣此戒具足	-11.3871
不同也	-11.3871
五義	-11.3873
入佛法	-11.3873
千釋迦	-11.388
復次佛住舍衛城	-11.3881
人名	-11.3881
觀想	-11.3884
汙家	-11.3884
善學	-11.3885
大喚	-11.3886
後行	-11.3887
立為	-11.3887
一舉	-11.3888
不類	-11.389
孔子	-11.389
因是	-11.3892
一百二十	-11.3892
分臥具	-11.3893
相助	-11.3893
非為	-11.3896
不辨	-11.3896
唯心	-11.3896
持此衣	-11.3897
無所得	-11.3897
新學菩薩	-11.3898
▁初分文	-11.3898
共行弟子	-11.3899
任意	-11.39
德衣	-11.3902
同處	-11.3902
一白	-11.3906
授受	-11.3906
不善心	-11.3908
之家	-11.391
而往	-11.3911
自作教人	-11.3913
月半	-11.3913
變成	-11.3913
邊受	-11.3915
諍者	-11.3915
達多	-11.392
疑者	-11.392
應令	-11.3921
廣誦	-11.3921
毀戒	-11.3924
上座前	-11.3925
炤	-11.3927
牒名	-11.3927
鋪	-11.3928
教化眾生	-11.3928
是諸比丘	-11.3928
僕	-11.3929
五支	-11.3932
急施	-11.3932
河水	-11.3934
唯此	-11.3934
諾	-11.3935
僧祇支	-11.3936
來集	-11.3938
鍾	-11.3938
觀音	-11.3939
祕	-11.394
以後	-11.3945
無上道	-11.3946
陶師	-11.3948
擗	-11.3949
應如法	-11.3952
憍陳如	-11.3952
無所畏	-11.3953
惱害	-11.3953
此由	-11.3955
后	-11.3955
僧不差	-11.3956
最為第一	-11.3956
婆提	-11.3958
此無	-11.396
諸長者	-11.396
異於	-11.396
癩	-11.396
但知	-11.3962
諸具壽	-11.3962
四威儀	-11.3962
六通	-11.3964
有對	-11.3965
二序事	-11.3967
兩相	-11.3968
壞者	-11.3969
虛妄	-11.397
二知	-11.3971
引用	-11.3974
汝何故	-11.3974
聞此語已	-11.3976
謂同	-11.3976
開十日	-11.3976
輕戒	-11.3978
大力	-11.3979
善言	-11.3979
引導	-11.3979
得本罪	-11.3979
治人	-11.3981
妄說	-11.3983
牌	-11.3989
萬法	-11.3991
正智	-11.3993
杜	-11.3994
大略	-11.3995
往到	-11.3997
便作	-11.4002
無障	-11.4002
教之	-11.4003
救濟	-11.4004
不見擯	-11.4004
又是	-11.4005
不應取	-11.4005
十八界	-11.4006
戒本中	-11.4006
當如	-11.4006
華嚴云	-11.4008
之由	-11.4009
初總標	-11.4011
無比丘	-11.4011
依報	-11.4015
自得	-11.4016
翳	-11.4017
然今	-11.4017
皈	-11.4019
或無	-11.402
慈悲喜捨	-11.4021
諸事	-11.4022
用水	-11.4022
定故	-11.4022
臨終	-11.4024
經卷	-11.4025
持法	-11.4026
巳外	-11.4026
十發趣	-11.4028
初中後	-11.4029
之門	-11.4031
相言	-11.4031
▁二五下	-11.4032
坐家內	-11.4032
二人共	-11.4033
恭敬供養	-11.4034
如水乳合	-11.4035
沙門釋	-11.4037
道品	-11.4039
不發露	-11.4039
五十八	-11.4041
下四句	-11.4042
君子	-11.4043
得安隱	-11.4044
▁初牒章	-11.4046
卷上	-11.4046
未制	-11.4046
七眾同	-11.4047
當生	-11.4049
四攝	-11.4051
小房	-11.4051
言此	-11.4052
▁一心奉請	-11.4053
受語	-11.4053
諸門	-11.4056
斯則	-11.4056
瓦石	-11.4056
沙門法	-11.4057
殺業	-11.4058
勝於	-11.4059
制罪	-11.406
願僧與我	-11.4061
甚多	-11.4061
入王宮	-11.4061
離染	-11.4062
一切如來	-11.4063
破法	-11.4064
染汙	-11.4064
有損	-11.4067
地敷	-11.4069
之首	-11.4072
復為	-11.4072
是淨	-11.4072
二比丘尼	-11.4073
▁二答	-11.4074
並名	-11.4076
無村	-11.4077
能見	-11.4077
八年	-11.4078
尼來	-11.4078
眾皆	-11.4078
瘥	-11.4079
若過五錢	-11.408
手巾	-11.4081
義立	-11.4083
某時	-11.4085
先問	-11.4085
和合眾	-11.4085
依前	-11.4085
劒	-11.4085
當往	-11.4086
正翻	-11.4088
貞	-11.4089
泯	-11.409
幻化	-11.409
讖	-11.4091
飽足	-11.4092
略釋	-11.4094
引十誦	-11.4096
今受	-11.4097
征	-11.4099
獨處	-11.41
後之	-11.41
與藥	-11.41
羯磨不成	-11.4101
二果	-11.4102
陋	-11.4102
皆重	-11.4104
大小便處	-11.4106
前引	-11.4106
中初二句	-11.4107
犯此罪	-11.4107
飲用	-11.4107
僧家	-11.4107
身為	-11.4107
經法	-11.4108
剃除鬚髮	-11.4108
瓮	-11.411
人現前	-11.4111
要假	-11.4111
來至我所	-11.4116
無一	-11.4117
優波	-11.4118
而還	-11.4118
塔物	-11.4118
燃	-11.4121
空空	-11.4122
不受食	-11.4124
取一	-11.4125
五道	-11.4125
歸本	-11.4126
若失	-11.4129
畏慎不敢	-11.4131
巳過	-11.4131
與沙彌	-11.4132
減五錢	-11.4132
兩犯	-11.4133
人為	-11.4134
復有三	-11.4139
輕毀	-11.4139
我等今	-11.4139
者無罪	-11.414
不作擯	-11.414
貿衣	-11.414
行業	-11.414
異道	-11.4141
圓明	-11.4141
觀智	-11.4141
王法	-11.4142
故畜	-11.4144
非親尼	-11.4144
是沙門	-11.4144
五百比丘	-11.4146
通夜	-11.4147
因即	-11.4147
奪命	-11.4147
皆可	-11.4147
心悔	-11.4148
斯乃	-11.4149
又曰	-11.415
重閣	-11.415
衣鉢等	-11.4151
我語	-11.4151
惑業	-11.4153
卷第二十	-11.4154
衣也	-11.4155
振鈴	-11.4155
吽	-11.4159
彼聞	-11.4161
正法久住	-11.4161
因也	-11.4162
我言	-11.4163
多作	-11.4163
耀	-11.4165
令汝	-11.4165
月一日	-11.4165
不敢受	-11.4165
磬	-11.4166
福報	-11.417
拈	-11.417
後食	-11.4171
能障	-11.4171
劫盜	-11.4173
舉其	-11.4174
所語言	-11.4175
四周	-11.4176
彼二	-11.4177
四兵	-11.4178
癰	-11.4178
五體投地	-11.4179
尚有	-11.418
師言	-11.418
破羯磨僧	-11.4182
綵	-11.4184
盡得	-11.4184
通指	-11.4185
▁二僧下	-11.4185
第十六	-11.4185
故來	-11.4186
廣辨	-11.419
具修威儀	-11.4191
身亡	-11.4191
隨語	-11.4192
彼應	-11.4192
僧應與	-11.4192
解行	-11.4193
▁九	-11.4195
布薩羯磨	-11.4196
諦觀	-11.4196
章門	-11.4197
諸聲聞	-11.4198
身見	-11.4199
僧寺	-11.4201
方廣	-11.4201
木作	-11.4202
巳起	-11.4205
一期	-11.4205
髻	-11.4205
惡邪	-11.4206
承上	-11.4206
一篇	-11.4208
世事	-11.4209
有八種	-11.4213
夏三月	-11.4214
大仙	-11.4215
塵土	-11.4216
時諸比丘聞	-11.4219
恐人	-11.422
水器	-11.4221
如佛教	-11.4224
急事	-11.4225
屣	-11.4226
等並	-11.4228
海水	-11.423
過罪	-11.4233
二吉	-11.4234
當共	-11.4235
聞是	-11.4236
勝故	-11.4238
眾鳥	-11.424
若殺	-11.424
供僧	-11.4241
一眾	-11.4242
有慚愧	-11.4244
王名	-11.4244
一節	-11.4244
麴	-11.4245
與一	-11.4245
為斷	-11.4245
云何汝等	-11.4245
大富	-11.4245
生報	-11.4245
僧體	-11.4246
未來世	-11.4246
僧衣	-11.4247
當宗	-11.4248
摸	-11.4248
岳	-11.4249
因而	-11.425
而為出家	-11.425
例同	-11.4252
一羯磨	-11.4253
乙	-11.4253
善說	-11.4253
禿	-11.4253
牟	-11.4255
筏	-11.4256
酢	-11.4258
歸敬	-11.4259
結勸	-11.426
及一切	-11.4261
若惡	-11.4261
迮	-11.4261
聖位	-11.4262
四分中	-11.4263
其福	-11.4263
七緣	-11.4265
狂人	-11.4265
從人	-11.4266
和尚阿闍黎	-11.4267
一下	-11.4267
制斷	-11.4268
受諸	-11.4268
即令	-11.4268
檢校	-11.4269
有婆羅門	-11.4269
勝劣	-11.427
塵垢	-11.4271
迦提月	-11.4273
六群比丘尼	-11.4274
犯不可悔	-11.4275
得分	-11.4277
一段	-11.4277
三羯磨竟	-11.4277
身有	-11.4279
犯境	-11.4279
制法	-11.4281
義亦	-11.4282
解說	-11.4282
皆如	-11.4284
娶	-11.4284
傍人	-11.4285
若行	-11.4286
觸者	-11.4286
下約	-11.4286
縵衣	-11.4293
更無餘	-11.4293
下半	-11.4294
不可盡	-11.4297
受籌	-11.4297
造立	-11.4298
離垢	-11.4298
戀	-11.4299
佛種	-11.43
從座起	-11.4302
寔	-11.4303
愛欲	-11.4304
不坐	-11.4305
善護	-11.4307
殘罪	-11.4311
自恣請	-11.4312
三衣中	-11.4313
復是	-11.4314
通之	-11.4314
觀自在	-11.4314
䭾	-11.4316
齊限	-11.4316
五里	-11.4319
為顯	-11.432
小食	-11.432
身作	-11.4321
別列	-11.4322
但說	-11.4323
別法	-11.4324
種族	-11.4326
古德	-11.4327
被賊	-11.4327
螺	-11.433
諸業	-11.4331
見是	-11.4331
嚮	-11.4333
理亦	-11.4333
約時	-11.4335
若居士	-11.4335
猫	-11.4336
大功德	-11.4338
終日	-11.4339
劫賊	-11.4341
不得為說法	-11.4341
末後	-11.4341
是第二	-11.4346
深云	-11.4346
▁二引	-11.4347
上半	-11.4347
此舉	-11.4348
苾芻眾	-11.4349
入村乞食	-11.435
謂彼	-11.4352
無根謗	-11.4352
讚嘆	-11.4353
止住	-11.4354
▁二此下	-11.4354
如法僧事	-11.4355
非時入聚落	-11.4356
法眼	-11.4356
律部	-11.4357
彼經	-11.4359
無宜	-11.4359
內衣	-11.4359
始得	-11.4363
飢儉	-11.4364
入滅	-11.4368
辨也	-11.4369
作何	-11.4371
爾時尊者	-11.4372
此律云	-11.4373
若弟子	-11.4374
空理	-11.4376
有二十	-11.4377
事上	-11.4378
次列	-11.4379
如法如律	-11.4379
食家	-11.4383
更說	-11.4384
滿數	-11.4386
來到	-11.4387
不持戒	-11.4387
吉羅者	-11.4388
者吉羅	-11.4389
是善	-11.4389
合注	-11.439
貪等	-11.4392
之則	-11.4394
當與汝	-11.4395
讚戒	-11.4396
故當	-11.4396
作句	-11.4397
瞻病人	-11.4397
後分	-11.4399
今准	-11.4399
季	-11.44
無其	-11.4401
失者	-11.4402
若起	-11.4404
小事	-11.4405
準上	-11.4406
無容	-11.4407
六眾苾芻	-11.4407
有賊	-11.441
能施	-11.4412
陰陽	-11.4412
成大	-11.4413
第四十	-11.4414
忻	-11.4414
群生	-11.4414
是為五	-11.4414
三道	-11.4416
若觸	-11.4416
於地	-11.4417
與五百	-11.4418
轉變	-11.4418
窣堵波	-11.4422
瓫	-11.4425
壇場	-11.4426
大德云	-11.4427
有信	-11.4427
當機	-11.4427
祇文	-11.4428
今之	-11.4428
非戒	-11.4429
諳	-11.4429
嚼齒木	-11.4434
已成	-11.4435
癲狂	-11.4435
褒灑陀	-11.4437
四人巳上	-11.4438
其形	-11.4438
十迴向	-11.444
對一人	-11.444
非善	-11.4445
別示	-11.4446
波羅夷罪	-11.4446
三輪	-11.4447
等取	-11.4447
四義	-11.4448
入聚	-11.4449
經中說	-11.4451
長老一心念	-11.4452
緣開	-11.4455
繫心	-11.4455
不救	-11.4455
右遶	-11.4457
何處得	-11.4458
麻衣	-11.4459
之樂	-11.446
豪	-11.4464
無實	-11.4465
應舉	-11.4465
以無根	-11.4468
不應用	-11.4469
汝等莫	-11.4469
故下文云	-11.447
初學	-11.4472
等皆	-11.4474
▁初標舉	-11.4479
作沙彌	-11.448
不知者	-11.448
柳	-11.4481
一唱	-11.4481
好相	-11.4482
唯有一	-11.4485
成等正覺	-11.4486
一緣	-11.4486
戒佛在舍衛	-11.4487
屬於	-11.4487
操	-11.4488
有多種	-11.4489
具二	-11.4489
時人	-11.449
有限	-11.449
軌範	-11.449
屏處坐	-11.4491
是汝	-11.4492
出家受戒	-11.4494
若不解	-11.4495
故衣	-11.4496
呼為	-11.4496
覆不覆	-11.4497
本作	-11.4498
五邪	-11.4498
名善	-11.4499
今謂	-11.45
化導	-11.45
攻	-11.4501
末利夫人	-11.4502
五識	-11.4503
螫	-11.4503
叔	-11.4503
未解	-11.4505
族姓	-11.4505
二境	-11.4506
過去世時	-11.4508
非時藥	-11.4511
能使	-11.4512
超越	-11.4512
更食	-11.4513
時比丘	-11.4513
當語	-11.4513
無數方便	-11.4514
勝鬘	-11.4515
智度論	-11.4516
白竟	-11.4517
與俗	-11.4517
惡名	-11.4517
句也	-11.4519
作務	-11.452
給與	-11.4521
從今日後不聽	-11.4522
勸受	-11.4522
芽	-11.4524
行至	-11.4525
若比丘知	-11.4526
無淨人	-11.4529
教勅	-11.453
聞彼	-11.4531
無利益	-11.4535
俱重	-11.4538
隨愛	-11.4538
苦切	-11.4539
聞是語	-11.454
壅	-11.454
有虫	-11.454
疑事	-11.454
十方世界	-11.4541
心體	-11.4548
▁十	-11.4551
處中	-11.4551
為他作	-11.4551
更復	-11.4553
尼等	-11.4554
此頌	-11.4555
呵責羯磨	-11.4556
或依	-11.4557
搜玄	-11.4561
造罪	-11.4564
開許	-11.4565
強奪	-11.4565
決通	-11.4565
若下明	-11.4568
一義	-11.4569
此癡人	-11.457
翹	-11.4572
念誦	-11.4572
衣法	-11.4573
自見	-11.4573
閇	-11.4574
哆	-11.4575
有識	-11.4575
吸	-11.4575
懇	-11.4578
開悟	-11.4578
二不定法	-11.4579
滓	-11.458
階降	-11.458
柄	-11.4582
跳	-11.4583
六十三步	-11.4586
當起	-11.4587
得波逸提	-11.4588
本事	-11.459
財施	-11.4592
步步	-11.4592
為第一	-11.4597
僧所	-11.4601
根塵	-11.4601
下鉢	-11.4602
多故	-11.4603
不呵	-11.4603
天帝	-11.4603
殺我	-11.4603
道行時	-11.4603
旗	-11.4605
即滅	-11.4606
且依	-11.4607
則不爾	-11.4607
眾別	-11.4608
方知	-11.4609
和合者	-11.4609
九戒	-11.4609
二十九日	-11.4612
證也	-11.4615
犯者突吉羅	-11.4615
有三義	-11.4616
之福	-11.4618
其地	-11.4618
以是故	-11.4622
違背	-11.4624
個	-11.4624
以斯	-11.4624
他心	-11.4625
他家	-11.4625
便入	-11.4625
先世	-11.4626
而白佛言	-11.4626
錢財	-11.4626
作不作	-11.4626
渡水	-11.4628
無所有	-11.4629
諸比丘白佛言	-11.463
入法	-11.4636
論者	-11.4636
故號	-11.4638
故結	-11.464
三乞	-11.4641
所敬	-11.4644
若生	-11.4644
作白四羯磨	-11.4646
慈念	-11.4652
所應作	-11.4652
菩薩藏	-11.4653
欲說	-11.4653
標中	-11.4655
亦重	-11.4656
禮拜問訊	-11.4657
作法者	-11.4658
闡	-11.4658
如比丘	-11.4659
之初	-11.4661
虔	-11.4661
秘	-11.4662
列相	-11.4662
模	-11.4663
▁二十下	-11.4664
鳴鐘	-11.4664
別住人	-11.4666
四錢	-11.4667
晦	-11.4667
不顧	-11.4668
夏安居竟	-11.4668
長安	-11.4669
亦不成	-11.4671
休息	-11.4672
得安樂住	-11.4675
彼家	-11.4676
瞿曇彌	-11.4676
於如來	-11.4676
齎	-11.4677
澁	-11.4677
忿怒	-11.4678
此六	-11.4678
偷蘭難陀比丘尼	-11.4679
取欲	-11.4679
出現於世	-11.468
駱駝	-11.468
非實	-11.4686
唯得	-11.4687
此但	-11.4687
出行	-11.4687
說其	-11.4688
殷重	-11.4689
師子座	-11.4691
以十利故與諸比丘	-11.4692
人有	-11.4692
鉢多羅	-11.4695
十日內	-11.4695
娑羅	-11.4697
離見聞處	-11.4698
因者	-11.4698
衣在	-11.4699
便持	-11.47
不任	-11.4702
兩處	-11.4703
無以	-11.4704
受捨	-11.4706
因何	-11.4706
四聖諦	-11.4708
留難	-11.4711
情懷	-11.4711
今何	-11.4711
便捨	-11.4712
自作教他	-11.4713
得阿羅漢果	-11.4713
經言	-11.4713
審諦	-11.4715
妄計	-11.4718
法明門	-11.4719
持者	-11.4721
欲想	-11.4722
此非法	-11.4724
有好	-11.4724
教言	-11.4725
有欲心	-11.4726
我法	-11.4726
五十七	-11.4727
罪惡	-11.4728
自顯	-11.473
行用	-11.4731
首疏	-11.4733
惡報	-11.4733
餘如上說	-11.4734
進道	-11.4735
獨頭	-11.4736
皆約	-11.4737
刀子	-11.4738
地前	-11.4738
耎	-11.4739
錦	-11.4742
當如是	-11.4742
人非人	-11.4743
之師	-11.4744
自與	-11.4744
以諸	-11.4746
丁	-11.4747
高勝	-11.4749
兆	-11.4749
脣	-11.4751
化相	-11.4752
虎狼	-11.4754
金寶	-11.4754
為防	-11.4754
通前	-11.4755
當念	-11.4755
六趣	-11.4755
我不能	-11.4755
欲受	-11.4755
稚	-11.4757
多求	-11.4758
作器	-11.476
蹤	-11.4761
簡擇	-11.4761
想心	-11.4761
扣	-11.4762
漉水	-11.4763
出家學道	-11.4764
夜中	-11.4765
王及	-11.4765
一提	-11.4765
作不	-11.4769
生老病死	-11.477
緣此	-11.4773
諷誦	-11.4776
是難	-11.4779
下次釋	-11.478
自明	-11.4781
就彼	-11.4781
心常	-11.4781
伽論云	-11.4782
三眾突吉羅	-11.4783
諸居士呵責	-11.4784
卷下	-11.4784
僧尼同犯	-11.4784
他事	-11.4785
一受	-11.4788
得具足戒	-11.4789
在家出家	-11.4789
不與汝	-11.4794
序中	-11.4795
慈地比丘	-11.4795
本也	-11.4796
火坑	-11.4796
皆能	-11.4797
光照	-11.4798
尊者阿難	-11.4799
有物	-11.4799
美味	-11.4801
當依	-11.4803
虱	-11.4804
莫放逸	-11.4807
初總	-11.4807
作淨地	-11.4808
比坐	-11.4812
犯四重	-11.4815
施我	-11.4815
四人僧	-11.4816
寺門	-11.4816
彼物	-11.4817
護心	-11.4821
食戒	-11.4824
佛開	-11.4824
若有所	-11.4824
匪	-11.4825
簡別	-11.4826
證入	-11.4826
矯	-11.4828
財利	-11.4831
持行	-11.4833
波羅提木叉戒	-11.4833
此八	-11.4833
薦	-11.4836
斤	-11.4836
定道	-11.4836
二云	-11.4836
貢高	-11.4836
二空	-11.4836
偷羅難陀	-11.4836
之法也	-11.4837
僧祇中	-11.4838
竿	-11.4838
見而	-11.4838
生命	-11.4838
糖	-11.4839
三唱	-11.484
本部	-11.4841
能造	-11.4841
資糧	-11.4842
迴與	-11.4842
以大	-11.4844
迦葉佛時	-11.4845
迴僧物	-11.4845
引僧祇	-11.4845
盡智	-11.4847
七遍	-11.4848
亦合	-11.4848
畢陵伽婆蹉	-11.4848
顏貌端正	-11.4848
不須更	-11.4852
打破	-11.4852
我今寧可	-11.4853
而下	-11.4854
治生	-11.4855
各三	-11.4856
非望而得	-11.4856
人想	-11.4857
不加	-11.486
即受	-11.4863
乞食難得	-11.4865
先已	-11.4865
是中有	-11.4867
著一處	-11.4868
乃見	-11.4869
而修	-11.4869
不悅	-11.4871
四事供養	-11.4872
猶不	-11.4872
斯皆	-11.4873
重說	-11.4873
幾時	-11.4877
文證	-11.4879
藏者	-11.4879
將護	-11.4881
汝何	-11.4882
婆論云	-11.4882
復無	-11.4883
由於	-11.4884
衣等	-11.4885
毀謗	-11.4885
遮止	-11.4888
集者	-11.4889
地也	-11.489
僧得施	-11.4891
上四	-11.4891
諦理	-11.4891
奉教	-11.4893
嫌恨	-11.4893
非彼	-11.4893
南山云	-11.4894
四篇	-11.4895
勸信	-11.4896
隨分	-11.4897
名淨	-11.4898
禮僧足	-11.4901
王見	-11.4902
相待	-11.4903
純黑	-11.4905
俱舍云	-11.4905
像前	-11.4906
學之	-11.4907
盜者	-11.4908
汝等云何	-11.4909
經曰	-11.4911
離苦	-11.4911
婇女	-11.4912
鐵鉢	-11.4912
二十五肘	-11.4912
有僧	-11.4912
未證	-11.4913
心論	-11.4914
二入文	-11.4914
合上	-11.4914
珊	-11.4915
或得	-11.4916
曼荼羅法	-11.4916
議曰	-11.4916
定也	-11.4916
伯	-11.4917
翼	-11.4917
作訶諫	-11.4917
散亂心	-11.4917
得飲	-11.4917
叩	-11.4918
初舉略	-11.4918
此菩薩	-11.4918
物作	-11.4922
舒手	-11.4922
少有	-11.4923
之機	-11.4924
外有	-11.4924
還須	-11.4924
但作	-11.4925
▁二初下	-11.4925
若許	-11.4925
優婆塞戒	-11.4927
俱胝	-11.4927
踈	-11.4927
汝有	-11.4928
攝法	-11.493
會採	-11.493
不犯者最初未制戒等	-11.493
便失	-11.493
且就	-11.4932
平聲	-11.4934
若舉	-11.4936
上根	-11.4936
淨也	-11.4937
過去世	-11.4938
戒善	-11.4938
法語	-11.4939
安處	-11.4939
持誦	-11.4939
正辨	-11.494
就座而坐	-11.494
顯現	-11.494
句者	-11.4943
如法比丘	-11.4943
違法	-11.4943
有七種	-11.4945
損惱	-11.4945
大千	-11.4945
盡形壽藥	-11.4946
遂生	-11.4947
請處	-11.4947
以指	-11.4948
一有	-11.4951
對手	-11.4951
商客	-11.4953
光從	-11.4953
汝等當知	-11.4953
要當	-11.4955
爛壞	-11.4955
至于	-11.4955
來處	-11.4955
行護	-11.4955
衣鉢具足	-11.4955
亦無犯	-11.4956
而說偈言	-11.4956
腋下	-11.4957
妨道	-11.4957
之有	-11.4958
酪漿	-11.4958
等五	-11.4959
三惡	-11.4959
有三品	-11.4961
眾共	-11.4961
為實	-11.4963
諸沙彌	-11.4963
菩薩行	-11.4965
以至	-11.4966
生罪	-11.4967
結上	-11.4967
異名	-11.4969
心性	-11.497
於一切眾生	-11.497
未離	-11.497
於道	-11.4972
身無	-11.4972
常隨	-11.4972
旬	-11.4972
下篇	-11.4974
次有	-11.4976
殺父母	-11.4977
作法界	-11.4979
五法成就	-11.4979
眾生心	-11.4983
欲法	-11.4984
念已	-11.4984
清淨心	-11.4985
並云	-11.4986
既巳	-11.4987
如云	-11.4987
能觀	-11.499
一兩	-11.4996
効	-11.4997
一境	-11.4997
謂初	-11.4997
時當	-11.4998
從今聽	-11.5
第二第三	-11.5001
廣中	-11.5002
境也	-11.5002
脈	-11.5005
犯中	-11.5005
夾	-11.5006
偏袒	-11.5006
通示	-11.5006
援	-11.5007
離惡	-11.5008
乃為	-11.5008
得其	-11.5009
於世間	-11.501
諂曲	-11.501
悋	-11.5011
鍼筒	-11.5013
大慧	-11.5013
入者	-11.5015
喜悅	-11.5015
與欲清淨	-11.5015
佛在給孤獨園	-11.5015
重難	-11.5015
每日	-11.5016
踊	-11.5016
合為	-11.5017
百由旬	-11.5018
佛知故問	-11.5019
種種訶責	-11.502
諸處	-11.502
若得長利	-11.5023
語語	-11.5023
我今如是	-11.5027
得樂	-11.5028
破結	-11.5029
五師	-11.5029
色也	-11.503
瓦鉢	-11.5031
作是思惟	-11.5031
以分	-11.5034
穀米	-11.5035
□□□□□□□□□□□□	-11.5036
如是比丘	-11.5038
識心	-11.5039
起於	-11.5039
劫奪	-11.5041
上人法	-11.5042
別說	-11.5042
位別	-11.5043
應觀	-11.5045
可懺	-11.5046
群臣	-11.5047
時舍利弗	-11.5047
其有	-11.5048
一磔手	-11.5048
▁二四下	-11.5051
是長老	-11.5052
剃刀	-11.5052
謂言	-11.5053
之曰	-11.5053
主法	-11.5054
除因緣	-11.5057
得罪同前	-11.5057
亦與	-11.5058
故聽	-11.5064
五比丘	-11.5065
諸女人	-11.5065
侯	-11.5067
下正釋	-11.5069
作證	-11.5071
蜀	-11.5071
犯二事	-11.5078
六緣	-11.5078
施設	-11.5079
還同	-11.5079
此兒	-11.508
是惡	-11.5081
吠	-11.5081
矛	-11.5081
名通	-11.5081
於空	-11.5081
定力	-11.5083
宿處	-11.5084
別別	-11.5085
暇	-11.5086
所取	-11.5089
抵	-11.509
先無	-11.5092
合云	-11.5094
苾芻曰	-11.5096
塚	-11.5098
傘蓋	-11.5101
犯偷羅遮	-11.5101
於何處	-11.5103
或約	-11.5103
深生	-11.5103
於自	-11.5108
將軍	-11.5109
眾德	-11.511
恐懼	-11.5112
其數	-11.5117
最下	-11.5117
當隨	-11.5117
遂於	-11.512
諸相	-11.512
不勝	-11.5125
鉢盂	-11.5125
如法作	-11.5125
答前	-11.5126
客僧	-11.5127
我今宜可	-11.5129
若不得衣	-11.513
數滿	-11.513
四足	-11.5132
竺	-11.5132
集法	-11.5133
我願	-11.5133
謗佛	-11.5135
上之	-11.5136
令心	-11.5136
諸龍	-11.5136
未入	-11.5137
眾僧中	-11.5138
至後	-11.5138
若下次明	-11.5139
內煑	-11.5141
此天	-11.5142
十夜	-11.5144
有癡	-11.5145
懺摩	-11.5145
隨義	-11.5146
名大	-11.5148
有染心	-11.5149
教示	-11.5149
四寸	-11.515
莫知	-11.5154
婦言	-11.5155
異生	-11.5159
生種	-11.5159
熾	-11.516
大妄語	-11.5163
根莖	-11.5164
塔廟	-11.5165
▁釋	-11.5166
情事	-11.5166
一搩手	-11.5167
戒序	-11.5171
憚	-11.5172
取著	-11.5175
阿育王	-11.5175
畜養	-11.5175
所害	-11.5177
結坐	-11.5178
以刀	-11.5178
欲害	-11.5181
腦	-11.5181
自生	-11.5183
不貪	-11.5184
最重	-11.5184
▁二然下	-11.5185
若比丘在	-11.5185
比丘作	-11.5185
祕密	-11.5185
燒煮覆障	-11.5185
惡名流布	-11.5186
花鬘	-11.5186
蓋是	-11.5187
止持作犯	-11.5188
安穩	-11.5188
彼比丘言	-11.5189
大乘同制	-11.5189
清淨人	-11.519
第三人	-11.519
七門	-11.5193
惡心出佛身血	-11.5194
而實	-11.5195
不消	-11.5196
羯磨說戒	-11.5197
惡馬	-11.5199
却坐一面	-11.52
師徒	-11.5201
乃至共畜生	-11.5202
無物	-11.5206
初入	-11.5206
五十五	-11.5206
婆沙云	-11.5207
單提	-11.5207
何妨	-11.5207
上釋	-11.5208
▁初正	-11.5209
釋迦牟尼佛	-11.5211
我比丘尼某甲	-11.5212
和南	-11.5215
有時	-11.5219
聽食	-11.522
約緣	-11.5221
發趣	-11.5221
眾法對首	-11.5226
今雖	-11.5227
一月五月	-11.5227
彼住處	-11.5229
洗脚	-11.5229
薩婆多論	-11.5229
五十二	-11.523
極惡	-11.523
識事	-11.523
前六	-11.523
施佛	-11.5232
不可悔	-11.5233
波利	-11.5234
示其	-11.5235
▁二有下	-11.5236
趣涅槃	-11.5236
當日	-11.5237
化制	-11.5237
泣	-11.5238
六品	-11.5238
迦絺那	-11.524
若父母	-11.524
出要	-11.524
船上	-11.5241
九十中	-11.5241
一切不犯	-11.5243
妄語者	-11.5243
不繁	-11.5243
是名有犯	-11.5243
比丘法	-11.5248
故引	-11.5248
實答	-11.525
勸喻	-11.5251
不得自在	-11.5252
與外道	-11.5253
斥古	-11.5255
彰名	-11.5256
內身	-11.5257
歎身	-11.5257
何故不	-11.5259
柰	-11.526
至極	-11.5261
從境	-11.5261
俗女	-11.5261
七年	-11.5262
涕	-11.5262
爽	-11.5262
鷲	-11.5262
當捨	-11.5263
如比尼	-11.5265
以神通力	-11.5266
三千威儀	-11.5266
峯	-11.5266
一定	-11.5267
其女	-11.5267
又翻	-11.5267
所犯罪	-11.5268
當令	-11.527
憂婆	-11.527
因斯	-11.5272
後解	-11.5273
能捨	-11.5273
選擇	-11.5273
擣	-11.5274
非佛	-11.5274
聊	-11.5275
雁	-11.5276
猛火	-11.5277
掉臂	-11.5278
復有五	-11.5278
有十二	-11.5278
爾時長老	-11.5278
汝身	-11.5279
禮佛足	-11.5279
為七	-11.5279
遮自恣	-11.528
後便	-11.5282
從初至	-11.5282
寄衣	-11.5282
答能	-11.5283
心為	-11.5284
所不應	-11.5285
多時	-11.5287
勇健	-11.5287
言教	-11.5287
夷殘	-11.5288
舡	-11.529
覆藏者	-11.529
三比丘	-11.529
却住一面	-11.529
圓寂	-11.5293
分為四	-11.5295
羯磨疏	-11.5298
令眾生	-11.5299
中文	-11.53
緣差	-11.53
既聞	-11.5302
至道	-11.5302
向彼說	-11.5303
四無量心	-11.5304
減六年	-11.5306
如來出世	-11.5308
律者	-11.5309
差互	-11.5311
明旦	-11.5311
一則	-11.5311
毀破	-11.5314
義加	-11.5315
凡人	-11.5315
一頭	-11.5317
仲	-11.5318
三別	-11.5318
二卷	-11.5321
狂心	-11.5324
一指	-11.5325
劫初	-11.5326
令諸比丘	-11.5326
為利養故	-11.5328
調戲	-11.533
根本部	-11.533
佛問比丘	-11.5331
無量眾生	-11.5331
單白羯磨	-11.5333
實法	-11.5333
受彼	-11.5333
不存	-11.5333
無足	-11.5336
將為	-11.5337
十臘	-11.5339
鷹	-11.5339
永不	-11.534
勞苦	-11.534
佛僧	-11.5341
皆爾	-11.5341
是故我	-11.5341
舍宅	-11.5342
誰是	-11.5342
誦律	-11.5343
釋通	-11.5345
必欲	-11.5347
彼自	-11.5347
桃	-11.5347
靴	-11.5348
游	-11.5349
生死海	-11.535
方堪	-11.535
𦘕	-11.535
生熟	-11.5352
佛不聽	-11.5354
棗	-11.5355
居止	-11.5356
先結	-11.536
言辭	-11.5361
萎	-11.5361
別解脫	-11.5362
釧	-11.5363
過惡	-11.5363
高處	-11.5364
狼	-11.5364
露坐	-11.5365
須衣	-11.5366
作餘語	-11.5366
識相	-11.5366
諦視	-11.5367
七戒	-11.5368
習近住	-11.5368
亦不能	-11.5368
清旦	-11.5369
善賢	-11.5373
彼無	-11.5374
何言	-11.5375
九十六	-11.5376
帒	-11.5376
五位	-11.5376
更結	-11.5377
開者	-11.5377
正報	-11.5378
結不失衣界	-11.5383
決疑	-11.5383
本受	-11.5385
三反	-11.5386
同體	-11.5386
今問諸大德	-11.5387
輕也	-11.5388
見聞疑罪	-11.5389
入聖	-11.539
情生	-11.5392
甚為	-11.5393
有子	-11.5394
乞者	-11.5395
當願	-11.5395
復白佛言	-11.5396
諮問	-11.5399
若非衣	-11.5403
憶念毗尼	-11.5403
邪心	-11.5404
分文	-11.5404
引之	-11.5405
觀者	-11.5405
下引示	-11.5406
己身	-11.541
理通	-11.541
安居時	-11.5412
得便	-11.5412
慰問	-11.5414
七滅	-11.5414
遮罪	-11.5416
非分	-11.5417
文雖	-11.5418
展轉食	-11.5419
衲	-11.5419
記識	-11.5421
是比丘應	-11.5424
毀壞	-11.5424
百四十	-11.5424
㝡	-11.5428
多宗	-11.5429
作自恣	-11.543
律宗	-11.5434
汝已	-11.5434
夭	-11.5434
惑盡	-11.5436
生善滅惡	-11.5437
慨	-11.5437
子孫	-11.5438
先住	-11.5439
過未	-11.544
咨	-11.5441
腐	-11.5441
是僧	-11.5441
利者	-11.5442
一約	-11.5442
自讚毀他	-11.5442
躡前	-11.5444
有主想	-11.5446
波羅夷戒	-11.5449
土地	-11.545
內懷	-11.5451
鹿苑	-11.5451
若不受	-11.5451
越毗尼	-11.5452
兩戒	-11.5452
部別	-11.5454
押	-11.5455
比丘住處	-11.5455
呵責六群比丘	-11.5455
捨棄	-11.5456
阿僧祇劫	-11.5456
捉衣	-11.5456
其言	-11.546
同名	-11.5463
作隨意	-11.5463
既成	-11.5464
現前比尼	-11.5467
親疎	-11.5469
資財	-11.5469
此等諸	-11.5469
諸大菩薩	-11.5473
若賊	-11.5473
制意者	-11.5474
乾飯	-11.5475
人壽	-11.5475
一角	-11.5478
執持衣鉢	-11.5479
出精	-11.5479
別緣有	-11.548
非唯	-11.548
佛在室羅伐城給孤獨園	-11.548
木床	-11.5482
殷勤	-11.5483
下解	-11.5485
可也	-11.5486
左肩	-11.5489
而於	-11.5491
華光	-11.5495
食不	-11.5496
須達	-11.5496
十號	-11.5497
過三	-11.5498
至地	-11.5498
無缺	-11.55
宰	-11.55
醉人	-11.5501
出沒	-11.5501
來請	-11.5502
當說	-11.5503
得免	-11.5506
言有	-11.5506
疑犯	-11.5507
是中有比丘少欲知足行頭	-11.5507
與受戒	-11.5507
除疑	-11.5507
須具	-11.5509
門戶	-11.5509
律言	-11.551
惡念	-11.5513
若白衣	-11.5517
悔法	-11.5518
每於	-11.552
大象	-11.552
謹當宣誦	-11.5522
不善法	-11.5522
乃有	-11.5522
噫	-11.5523
鳴磬振鈴	-11.5523
猶故不	-11.5526
成辦	-11.5526
乞食時	-11.5528
恠	-11.5529
隨坐	-11.5529
犯不淨行	-11.5529
軍陣	-11.5529
若有犯者	-11.553
邪行	-11.5531
奚	-11.5531
得施	-11.5531
繭	-11.5531
謂在	-11.5533
能於	-11.5534
地水火風	-11.5535
烈	-11.5536
料	-11.5536
於餘	-11.5537
六百	-11.5538
讎	-11.5538
呵者	-11.5539
問答中	-11.5539
毗曇	-11.5539
斷煩惱	-11.5539
樹木	-11.554
氷	-11.5541
時諸比丘尼聞	-11.5543
時限	-11.5544
界也	-11.5544
果報者	-11.5546
決之	-11.5546
兜率天	-11.5547
證真	-11.5547
六中	-11.5547
逼迫	-11.5548
在文	-11.5549
餘罪	-11.5549
師法	-11.5549
菴婆羅	-11.555
得聖	-11.5551
有信心	-11.5551
聲聞眾	-11.5552
覆肩衣	-11.5554
不自言	-11.5554
發大心	-11.5555
吉罪	-11.5556
往大僧中	-11.5556
受七日法	-11.5557
增一阿含	-11.5557
四十一	-11.5558
非毘尼	-11.5559
方開	-11.5559
復生	-11.556
師子吼	-11.5561
思惑	-11.5561
大姉僧聽	-11.5561
即作	-11.5563
一切善法	-11.5565
制學處	-11.5568
深入	-11.5568
我不見	-11.5568
惡見不捨	-11.5568
而更	-11.5569
半月摩那埵	-11.5569
優婆	-11.5575
第十七	-11.5576
破戒比丘	-11.5578
顯其	-11.5578
出法	-11.5579
如水	-11.5579
齋法	-11.5579
作屋	-11.5579
供養眾僧	-11.5581
而說頌曰	-11.5582
家人	-11.5584
國界	-11.5584
金剛手	-11.5587
▁初正釋	-11.5588
長財	-11.5591
正使	-11.5591
無生智	-11.5591
不隨順	-11.5592
兩別	-11.5593
坐床	-11.5594
圓覺	-11.5594
皆波逸提	-11.5595
云何名為	-11.5595
受得戒	-11.5595
提吉	-11.5597
不滿二十	-11.5598
由有	-11.5598
楞嚴	-11.5601
渡河	-11.5601
起自	-11.5605
陛	-11.5606
止得	-11.561
便語	-11.561
四名	-11.5611
身根	-11.5611
翻名	-11.5611
本界	-11.5612
雖通	-11.5613
劇	-11.5618
於四	-11.5619
就文	-11.562
所論	-11.5621
莊飾	-11.5623
俱生	-11.5623
華嚴經	-11.5623
制作	-11.5624
凌	-11.5625
巳上論文	-11.5626
難也	-11.5629
畜長鉢	-11.5629
兔	-11.563
若二人	-11.5631
簡非	-11.5633
俯	-11.5634
天人師	-11.5634
在家二眾	-11.5634
怨逼	-11.5635
蘭吉	-11.5635
西北	-11.5635
爾時婆伽婆在	-11.5639
之失	-11.564
無慚無愧	-11.5641
蠅	-11.5641
正月	-11.5641
外色	-11.5642
十願	-11.5645
四姓	-11.5646
畜生女	-11.5646
種種飲食	-11.5647
曹	-11.5647
如是至三	-11.5648
罵辱	-11.5648
西天	-11.565
之旨	-11.5651
微笑	-11.5654
一者當	-11.5654
極果	-11.5655
僧也	-11.5656
廣嚴城	-11.5656
四十七	-11.5656
遊行人間	-11.5656
離此	-11.5658
戒亦	-11.5659
嫌責六群比丘	-11.5659
當知是人	-11.566
是總	-11.566
後開	-11.5661
五百羅漢	-11.5662
二利	-11.5664
諸論	-11.5664
必以	-11.5665
制者	-11.5666
四過	-11.5666
未許	-11.5667
華香	-11.5668
得成佛	-11.5668
復作	-11.5669
少者	-11.567
慎之	-11.5671
廣文	-11.5672
是果	-11.5672
坐起	-11.5674
眾所	-11.5678
番羯磨	-11.568
教授尼	-11.568
法毗尼	-11.5681
。」)「	-11.5683
先出	-11.5683
得知	-11.5685
一吉	-11.5685
十三日	-11.5686
輭	-11.5687
端坐	-11.5687
教尼	-11.5687
食食	-11.569
然我	-11.5692
明淨	-11.5692
凡為	-11.5693
攝持	-11.5693
手觸	-11.5696
女身	-11.5697
營事比丘	-11.5697
樂住	-11.5699
離車	-11.5704
我作	-11.5704
佛乘	-11.5705
婬心	-11.5706
中路	-11.5706
是賊	-11.5707
於眾	-11.5707
洒	-11.5708
有村	-11.5708
若無者	-11.5709
臈	-11.571
十八種	-11.5711
獲福	-11.5711
第十九	-11.5711
株	-11.5711
誌	-11.5712
二業	-11.5713
應如是與	-11.5715
撲	-11.5719
並非	-11.572
十二種	-11.572
粉	-11.572
有二比丘	-11.5721
斷食	-11.5722
!」「	-11.5723
三十事	-11.5727
天帝釋	-11.5727
乃至一切	-11.5731
所獲	-11.5731
來索	-11.5732
下隨釋	-11.5734
評論	-11.5734
第三說	-11.5734
僧住處	-11.5738
老者	-11.5738
若立	-11.5739
身不	-11.574
結跏趺坐	-11.5741
種種因緣訶已	-11.5743
佛聽我	-11.5743
可作	-11.5743
摩納	-11.5744
心有	-11.5744
不畜	-11.5745
結吉	-11.5745
相現	-11.5746
不足者	-11.5747
今將	-11.5748
隨病食	-11.5753
為戒	-11.5753
一切種智	-11.5753
出定	-11.5755
觀看	-11.5756
其王	-11.5757
所以須	-11.5758
簡餘	-11.5759
對於	-11.5759
成就五法	-11.5759
故能	-11.576
淨衣	-11.5761
迦留	-11.5762
教文	-11.5762
一切盡	-11.5762
受行	-11.5763
三舉非結過	-11.5765
六齋日	-11.5765
不要	-11.5766
殺具	-11.5767
是迦留陀夷比丘	-11.5767
傳法	-11.5767
人前	-11.5772
汝欲	-11.5773
聖諦	-11.5774
在俗	-11.5774
前食後食	-11.5774
破云	-11.5775
生年	-11.5776
輕心	-11.5777
▁丘	-11.578
未久	-11.5781
即隨	-11.5782
中含	-11.5782
復本	-11.5783
不擇	-11.5784
類也	-11.5786
索衣	-11.5787
雙足	-11.5787
應身	-11.5788
此住處比丘	-11.5788
貯畜	-11.5789
右肩	-11.5789
膠	-11.579
情無	-11.5791
由戒	-11.5792
敷僧臥具	-11.5793
秪	-11.5793
開文	-11.5793
人非	-11.5793
狀如	-11.5796
所舉	-11.5797
退失	-11.5798
宗親	-11.58
寂然	-11.58
䥫	-11.5801
之主	-11.5802
至死	-11.5802
有三句	-11.5804
羈	-11.5804
意地	-11.5804
是制	-11.5805
不得所望	-11.5807
袖	-11.5807
膚	-11.5808
於心	-11.5808
而告曰	-11.5808
當教	-11.5808
破戒人	-11.5809
賦	-11.5809
須用	-11.581
向外	-11.5811
五十六	-11.5811
亦令	-11.5812
卷第三	-11.5812
復有五法	-11.5813
皆空	-11.5813
今日道場同業大眾	-11.5813
須問	-11.5814
世出世間	-11.5814
水澆	-11.5816
之根本	-11.5817
巢	-11.5818
各及眷屬	-11.5819
自敷	-11.5819
曼	-11.582
護念	-11.582
善來比丘	-11.5822
般陀	-11.5823
善女人	-11.5824
聞疑	-11.5824
沽酒	-11.5825
本生	-11.5825
在僧	-11.5825
肯	-11.5825
闍王	-11.5826
皆屬	-11.5826
諭	-11.5827
叵	-11.5827
量也	-11.583
尸棄	-11.583
僧常聞	-11.5831
尼言	-11.5836
為頭	-11.5837
失依止	-11.5838
於眾中	-11.5838
發大	-11.5839
非制	-11.584
偷羅難陀比丘尼	-11.584
有食	-11.584
智也	-11.5844
廣博	-11.5844
隱顯	-11.5845
佛在世	-11.5848
汝等實爾	-11.585
支節	-11.585
慧眼	-11.585
前食	-11.5851
交會	-11.5851
作和上	-11.5853
而與	-11.5854
四月十六日	-11.5855
俗舍	-11.5855
三十心	-11.5855
毗尼母云	-11.5856
獲益	-11.5856
樹下坐	-11.5858
作何事	-11.5858
食器	-11.586
賈人	-11.5861
若出	-11.5863
瞎	-11.5863
鉢囊	-11.5863
覆罪	-11.5865
一拘盧舍	-11.5868
有佛	-11.5868
無福	-11.5868
安在	-11.587
彼以	-11.5871
為三寶	-11.5872
本期	-11.5877
約界	-11.5879
成一	-11.5879
釋注	-11.5879
不能斷	-11.588
初犯	-11.588
豈唯	-11.5883
義決	-11.5884
滅除	-11.5885
若教他	-11.5886
僧中乞	-11.5886
漆	-11.5887
次二句	-11.5891
不對	-11.5891
無滯	-11.5891
樣	-11.5891
下次示	-11.5891
欲見	-11.5894
之恩	-11.5895
謂依	-11.5895
為二部	-11.5898
器盛	-11.5898
還是	-11.5902
薩婆	-11.5904
終歸	-11.5904
般若波羅蜜	-11.5905
依界	-11.5905
自是	-11.5905
但不得	-11.5906
五穀	-11.5907
之一字	-11.5907
謂除	-11.5909
引多論	-11.5909
天耳	-11.591
動身口	-11.591
性者	-11.5912
共比丘	-11.5914
紵	-11.5915
和泥	-11.5915
非時衣	-11.5916
具答	-11.5916
得財	-11.5917
柴	-11.5917
恒沙	-11.5917
佛既	-11.5921
比丘不	-11.5922
止是	-11.5925
多貪	-11.5926
僧破	-11.5927
瓨	-11.5927
具此	-11.593
檀越請	-11.593
能通	-11.5932
牆壁	-11.5933
無遮	-11.5935
囚	-11.5935
作如是事	-11.5936
非人畜生	-11.5941
羯磨中	-11.5942
至八月十五日	-11.5943
遞相	-11.5946
六羣比丘	-11.5946
云二至	-11.5947
所重	-11.5948
兵眾	-11.5949
但能	-11.595
生惱	-11.595
罪同	-11.595
可往	-11.5952
家之	-11.5952
是本	-11.5953
俗服	-11.5954
與受具足	-11.5954
車乘	-11.5955
生男	-11.5955
隔障	-11.5958
諸功德	-11.5961
賊盜	-11.5963
生天上	-11.5966
耳語	-11.5969
隨一一	-11.5969
即屬	-11.5971
為限	-11.5973
佛自	-11.5974
唱令	-11.5977
即語	-11.5977
一心念	-11.598
皆不成	-11.598
對下	-11.5981
意根	-11.5983
絮	-11.5984
即以此	-11.5987
說偈言	-11.5988
意故	-11.599
隨結	-11.5991
觀見	-11.5991
若諸菩薩	-11.5991
失本	-11.5994
雌	-11.5994
秘密	-11.5994
梵行人	-11.5996
材木	-11.5996
世尊說	-11.5996
疏主	-11.5997
行不淨行	-11.5997
亦如前	-11.5997
識處	-11.5998
我我所	-11.5998
曾無	-11.5998
聲聞戒	-11.5999
雀	-11.6
限齊	-11.6001
入空	-11.6002
行教	-11.6003
不應如是	-11.6003
下簡	-11.6005
默妄	-11.6006
羅閱城	-11.6007
鉢者	-11.6007
之食	-11.6007
各隨	-11.6008
受依止	-11.6009
有差別	-11.6009
罐	-11.6009
第二上座	-11.6009
唐言	-11.601
即發	-11.601
神王	-11.6012
羯磨時	-11.6013
臭氣	-11.6013
法師云	-11.6014
簡之	-11.6015
無殊	-11.6015
聲聞緣覺	-11.6016
若有苾芻	-11.6017
郎	-11.6017
開發	-11.6018
神呪	-11.6021
耆舊	-11.6021
不見言見	-11.6022
一口	-11.6023
驅擯	-11.6023
遙擲	-11.6024
本座	-11.6024
所集	-11.6024
敗壞	-11.6025
持三衣	-11.6025
不當	-11.6025
雜法	-11.6026
醎	-11.6026
王夫人	-11.6028
送與	-11.6028
某比丘	-11.6029
三門	-11.6029
然有	-11.603
戒場上	-11.603
善品	-11.603
未免	-11.6031
梵言	-11.6032
雖知	-11.6034
無對	-11.6035
官人	-11.6035
婆羅門居士	-11.6036
解脫知見	-11.6037
不截	-11.6037
如實知	-11.6037
斯為	-11.6038
窣覩波	-11.604
如是次第	-11.6041
劫比羅城	-11.6041
聽以	-11.6042
乃云	-11.6042
無僧	-11.6042
若不故作	-11.6044
懈	-11.6044
解言	-11.6046
毒龍	-11.6046
如是諫時	-11.6047
手自	-11.6049
晡時	-11.605
父子	-11.605
求寂女	-11.605
分中	-11.6051
十金剛	-11.6054
集在一處	-11.6055
以喻	-11.6057
羹飯	-11.6059
言了	-11.6062
七滅諍	-11.6062
斷事人	-11.6062
百人	-11.6063
布薩自恣	-11.6064
廢立	-11.6066
諸婆羅門	-11.6066
經像	-11.6066
金銀錢	-11.6068
不禁	-11.6072
若燒	-11.6076
勸請	-11.6077
定量	-11.608
善性	-11.6082
有隔	-11.6082
必應	-11.6082
剛	-11.6083
語業	-11.6084
五十三	-11.6084
得僧殘	-11.6088
震旦	-11.6088
獄卒	-11.6088
自出	-11.6088
汝知	-11.6088
十種衣	-11.6089
如王	-11.6089
輕重者	-11.6089
彼亦	-11.609
羽	-11.6092
又說	-11.6093
毗奈耶	-11.6095
未捨	-11.6096
此是不共戒	-11.6096
乃知	-11.6097
求福	-11.6097
茅	-11.6097
和上某甲	-11.6098
開合	-11.6098
若比丘於	-11.6099
中亦有	-11.6101
拯	-11.6101
目犍連	-11.6102
僧坊內	-11.6103
青黃赤白	-11.6103
棃	-11.6104
不捨戒	-11.6105
貪瞋	-11.6107
一位	-11.6107
可觀	-11.6108
皆名為	-11.6108
名種	-11.6108
莫作	-11.6109
觀彼	-11.6111
比丘尼亦如是	-11.6112
陀那	-11.6112
分房	-11.6113
與諸比丘結戒	-11.6113
昨日	-11.6114
誑惑	-11.6115
具四緣	-11.6116
羅國	-11.6116
布薩說波羅提木叉	-11.6119
乘車	-11.6119
無所有處	-11.612
四約	-11.612
入聲	-11.612
諸長老比丘聞	-11.612
以是義故	-11.6121
二人俱	-11.6121
入口	-11.6123
集僧已	-11.6124
說可知	-11.6124
起身	-11.6124
極小	-11.6126
在門外	-11.6126
使其	-11.6127
一色	-11.613
有種種	-11.6132
四等	-11.6133
於時	-11.6133
總攝	-11.6133
眾生故	-11.6133
有恚	-11.6135
作殘食	-11.6138
摩揭陀國	-11.6138
更重	-11.6139
如下引	-11.6139
破者	-11.614
若比丘受迦絺那衣	-11.614
警覺	-11.6141
為尼	-11.6141
捉籌	-11.6142
種種不共住	-11.6143
因茲	-11.6143
告其	-11.6145
我本	-11.6146
應看	-11.6148
宗旨	-11.6149
得道果	-11.615
以無數方便呵責已	-11.615
不應量	-11.6153
彼天	-11.6156
即說頌曰	-11.6157
大教	-11.6158
惡果	-11.6159
著者	-11.616
過人	-11.6161
沙門喬答摩	-11.6161
塵境	-11.6162
等相	-11.6164
十二日	-11.6167
色力	-11.6167
寄物	-11.6168
財色	-11.6168
此並	-11.6169
告彼	-11.617
形儀	-11.6171
如章	-11.6175
詔	-11.6176
卷第二	-11.6177
等流	-11.6177
玄記	-11.6178
白王曰	-11.6178
一百一十	-11.6178
三十篇	-11.6179
積集	-11.6179
淨器	-11.618
與受具足戒	-11.618
總為	-11.618
英	-11.618
即依	-11.6181
肇	-11.6185
調御	-11.6185
謂由	-11.6186
尼中	-11.6187
反之	-11.6188
可呵	-11.6188
泥犁	-11.619
慈愍心	-11.6191
比丘尼犯者	-11.6192
鹹	-11.6195
閣上	-11.6195
全身	-11.6196
作已	-11.6197
復還	-11.6197
愛敬	-11.6198
湖	-11.6198
不飲	-11.6198
探	-11.6199
譏過	-11.6201
問若爾	-11.6202
見聞知	-11.6203
三千大千世界	-11.6204
貧乏	-11.6207
油塗	-11.6207
長時	-11.6208
匹	-11.6208
裁割	-11.6208
饌	-11.6209
簡人	-11.6209
犁	-11.6211
牢固	-11.6211
轉側	-11.6211
乾闥婆	-11.6212
願為	-11.6212
釋提桓因	-11.6212
一小	-11.6213
中出	-11.6214
為根本	-11.6215
有濫	-11.6215
五肘	-11.6215
相成	-11.6215
下有	-11.6217
復云	-11.622
以繩	-11.622
今正是時	-11.6221
大笑	-11.6223
得服	-11.6227
離婆多	-11.6229
開畜	-11.623
稱揚	-11.6233
名同	-11.6233
真性	-11.6234
鄙惡	-11.6235
何等為	-11.6237
生淨土	-11.624
大利益	-11.624
作前方便	-11.6242
病患	-11.6242
二律	-11.6243
以此白佛	-11.6244
青黃	-11.6245
國內	-11.6245
妻曰	-11.6245
嚙	-11.6246
此既	-11.6247
厭患	-11.6247
外界	-11.6247
是犯不	-11.6247
行入白衣舍	-11.6248
名句	-11.6248
敷坐具	-11.6252
隨開	-11.6253
千萬	-11.6253
一切比丘	-11.6254
不應行	-11.6254
字也	-11.6254
罪輕	-11.6255
之服	-11.6257
闡提	-11.6258
自思惟	-11.626
如律中	-11.626
又釋	-11.6262
自古	-11.6265
同活	-11.6265
依之	-11.6265
異分	-11.6266
妄執	-11.6267
與大比丘	-11.6268
前是	-11.6269
猶若	-11.6269
覆護	-11.6269
鬼畜	-11.6271
具述	-11.6272
諸蟲	-11.6272
理解	-11.6272
趙	-11.6272
得涅槃	-11.6273
持戒比丘	-11.6273
雖得	-11.6274
自慶	-11.6275
穆	-11.6276
中卷	-11.6276
以杖	-11.6278
不得說	-11.6278
象牙	-11.6279
淨語	-11.6279
一方	-11.628
極少	-11.628
四王	-11.628
解大界	-11.6281
七人	-11.6282
善好	-11.6283
種者	-11.6283
揮	-11.6283
自壞	-11.6284
惡鬼	-11.6286
所顯	-11.6289
本自	-11.629
衡	-11.629
便可	-11.629
夙	-11.629
殘宿食	-11.6291
欲滅	-11.6292
故先	-11.6293
壍	-11.6293
皆謂	-11.6293
謂一切	-11.6294
賊心	-11.6295
於今	-11.6295
律本云	-11.6295
行非法	-11.6295
七月十六日	-11.6296
六十四	-11.6296
為病	-11.6296
斯文	-11.6297
今略	-11.6298
家內	-11.6298
教戒	-11.6299
不約	-11.63
下辨	-11.6301
暖	-11.6301
淨名	-11.6301
小軍	-11.6301
疏意	-11.6301
蓮華臺藏世界	-11.6302
是輕	-11.6302
名捨迦絺那衣	-11.6303
引示	-11.6305
摩摩帝	-11.6305
闡那	-11.6306
用作	-11.6306
是通	-11.6307
安詳	-11.6307
作大房	-11.6308
生福	-11.6309
意道	-11.6309
便死	-11.6309
變作	-11.6309
說戒自恣	-11.631
能起	-11.631
汝往	-11.6312
五辛	-11.6313
我觀十利	-11.6313
并諸	-11.6314
田地	-11.6314
轉增	-11.6317
楞伽	-11.6319
極苦	-11.632
遣去	-11.632
身動	-11.6321
眾主	-11.6322
無愧	-11.6323
作新	-11.6323
有不驅者	-11.6323
天祠	-11.6324
指歸	-11.6324
為我說	-11.6325
兩界	-11.6326
乃往古昔	-11.6327
毗尼者	-11.6327
初解	-11.6328
無殘	-11.6329
不敢覆藏	-11.6329
今是	-11.6329
非法語	-11.6329
怨親	-11.633
與依止	-11.6331
障戒	-11.6333
御者	-11.6334
列數	-11.6335
既為	-11.6337
此部	-11.6337
亦在	-11.6338
犯決斷	-11.6338
今據	-11.6338
大將	-11.6338
若不還	-11.6338
王舍	-11.6339
令諸眾生	-11.634
以少	-11.6341
果故	-11.6341
生人天	-11.6343
有一居士	-11.6343
讚佛	-11.6344
所屬	-11.6346
謂諸	-11.635
依次	-11.635
不惱	-11.6352
清白	-11.6352
一如	-11.6353
諸雜	-11.6353
國法	-11.6354
又非	-11.6355
無價	-11.6356
準律	-11.6356
八地	-11.6357
十五種	-11.6357
僧俗	-11.6358
塗香	-11.6359
無因	-11.636
若有病	-11.636
惡者	-11.6361
下斥	-11.6364
戒云	-11.6364
佛時	-11.6364
遂成	-11.6366
捨與僧	-11.6368
常處	-11.6368
川	-11.6369
此論	-11.6371
如前釋	-11.6372
願王	-11.6372
之源	-11.6375
感報	-11.6377
地藏	-11.6378
觀知	-11.6378
同聲	-11.638
若一比丘	-11.6381
得波逸底迦	-11.6381
農	-11.6381
先自	-11.6383
遜	-11.6383
膿	-11.6385
約行	-11.6387
埵	-11.6389
相反	-11.6389
徃	-11.639
具陳	-11.639
墮在	-11.6391
限分	-11.6391
長者曰	-11.6391
春秋	-11.6392
嶽	-11.6392
草覆地	-11.6393
菩提薩埵	-11.6393
我比丘	-11.6395
捐	-11.6395
但見	-11.6395
憐	-11.6395
四向	-11.6396
通三性	-11.6397
便出	-11.6399
大雨	-11.6399
依他	-11.64
糠	-11.64
佛祖	-11.6401
毗舍	-11.6404
尋伺	-11.6404
捨也	-11.6405
彼作是念	-11.6406
為境	-11.6406
常說	-11.6406
佛化	-11.641
故下引	-11.641
宮內	-11.641
種善根	-11.6412
此通	-11.6413
凡情	-11.6413
文無	-11.6413
開戶	-11.6414
為食	-11.6415
自煮	-11.6415
俱名	-11.6415
成論云	-11.6416
軌儀	-11.6416
以食	-11.6417
鴈	-11.6417
三夜	-11.6418
行舍羅	-11.6418
寺外	-11.6419
昔人	-11.6421
二品	-11.6421
不犯也	-11.6422
猶在	-11.6423
之意也	-11.6424
▁初列	-11.6425
謂如	-11.6425
七十二	-11.6426
如法滅	-11.6427
請喚	-11.6428
甚難	-11.6429
彼於異時	-11.643
解戒場	-11.643
壞眾	-11.6431
或見	-11.6431
應於	-11.6432
令坐	-11.6432
僧現前	-11.6432
共鬪	-11.6436
日羯磨	-11.6437
乞時	-11.6438
陳說	-11.6439
傷損	-11.644
謂先	-11.6441
未生怨王	-11.6442
無所知	-11.6447
大鈔云	-11.6447
卷第三十	-11.6448
初師	-11.6448
匝	-11.6448
彼六群比丘	-11.645
請世尊曰	-11.645
八支	-11.645
放火	-11.645
如是比	-11.645
本緣	-11.645
以說	-11.6451
本起	-11.6452
利刀	-11.6454
熏鉢	-11.6455
捨威儀	-11.6455
於巳	-11.6456
垢穢	-11.6456
如五分	-11.6458
還我	-11.6458
即詣	-11.6458
不見罪	-11.6458
夏衣	-11.6459
約相	-11.6459
中分	-11.6461
合制	-11.6461
法謗	-11.6461
阿闍世	-11.6462
故約	-11.6462
出現	-11.6463
既受	-11.6465
一聚落	-11.6465
所習	-11.6467
餘下	-11.6468
惱僧	-11.647
牧牛	-11.6471
覺者	-11.6471
涌	-11.6472
因故	-11.6473
復加	-11.6475
以盜心	-11.6477
得羅漢	-11.6477
白月	-11.6478
嚴淨	-11.6478
亦不知	-11.6479
不得大	-11.648
是根本	-11.6481
說相	-11.6482
下凡	-11.6482
如虗空	-11.6484
彼說	-11.6485
揩身	-11.6485
▁二釋	-11.6485
教人作	-11.6486
得生天上	-11.6486
一沙彌	-11.6486
敏	-11.6487
韻	-11.6487
人各	-11.6489
僧有	-11.6489
二者當	-11.6489
啟白	-11.6491
二行	-11.6492
百一羯磨	-11.6493
牢獄	-11.6493
應留	-11.6496
有瘡	-11.6496
上品心	-11.6496
翁	-11.6499
濃	-11.65
故有此	-11.6502
愍念	-11.6502
祭祀	-11.6504
非同	-11.6505
我昔	-11.6506
或翻	-11.6507
七月十五日	-11.6508
駝	-11.651
擾亂	-11.651
疲勞	-11.651
一女人	-11.6511
三十七品	-11.6512
舁	-11.6512
婆羅門種	-11.6514
緊那羅	-11.6515
其理	-11.6515
泄	-11.6515
能仁	-11.6517
兩班	-11.6517
般泥洹	-11.6519
以立	-11.6519
後坐	-11.652
解擯	-11.6521
摩耶	-11.6521
害人	-11.6522
令離	-11.6522
一類	-11.6523
好色	-11.6524
此理	-11.6524
三藏法師義淨奉制譯	-11.6525
許可	-11.6526
觀佛	-11.6527
而菩薩下	-11.6529
至二十	-11.6529
王命	-11.6529
八百	-11.6529
五八	-11.6532
歡樂	-11.6536
諍競	-11.6538
吐羅難陀	-11.6538
不害	-11.6539
持淨戒	-11.6539
自言我	-11.654
自解	-11.6543
吐羅尼	-11.6545
制不聽	-11.6545
方乃	-11.6547
大劫	-11.6549
所秉	-11.6549
鬚	-11.6549
慈濟	-11.6549
悔罪	-11.655
如昔	-11.6551
難分	-11.6551
法同	-11.6552
不應以	-11.6552
更索	-11.6552
問下	-11.6553
生死之	-11.6553
從用	-11.6553
大約	-11.6555
聽之	-11.6555
七世	-11.6555
我皆	-11.6556
勝人	-11.6557
云四至	-11.6557
前世	-11.6557
向他	-11.6559
不復更	-11.6559
二人三人	-11.6561
藥草	-11.6562
中釋	-11.6562
時彼苾芻	-11.6563
可捨此事	-11.6565
現前毗尼	-11.6566
亦失	-11.6569
答以	-11.6569
斷故	-11.6569
如諸	-11.657
雖受	-11.657
於師	-11.6572
資緣	-11.6573
別開	-11.6573
他處	-11.6573
六處	-11.6573
非別	-11.6575
盜業	-11.6575
大菩提	-11.6578
常請	-11.6578
天主	-11.6579
蟲水	-11.6579
淨處	-11.6579
應服	-11.6582
向餘	-11.6583
還自	-11.6583
七中	-11.6584
餘義	-11.6584
彼諸	-11.6584
如毘尼	-11.6584
下三明	-11.6584
是沙彌戒	-11.6584
與六夜摩那埵	-11.6585
尼同制	-11.6585
所辨	-11.6586
尋之	-11.6586
如論	-11.6587
經律論	-11.6587
以偈	-11.6587
存念	-11.6587
栖	-11.6589
過午	-11.659
窺	-11.659
雙結	-11.659
無覆	-11.6591
溝	-11.6591
弃	-11.6592
闢	-11.6594
隱處	-11.6594
修慧	-11.6594
餘經	-11.6594
。「『	-11.6594
曾受	-11.6597
輝	-11.6597
件	-11.6599
為果	-11.6599
前巳	-11.66
柯	-11.66
作持止犯	-11.66
顯是	-11.6603
龍女	-11.6607
通行	-11.6608
奉上	-11.6609
出過	-11.6609
天樂	-11.661
動轉	-11.6611
出道	-11.6613
不教人舉	-11.6614
作師	-11.6615
減少	-11.6615
增廣	-11.6615
水精	-11.6616
繡	-11.6616
悲泣	-11.6616
終身藥	-11.6618
自手取	-11.6618
奧	-11.6618
後釋	-11.6619
若隨語者善	-11.662
和會	-11.6621
親附	-11.6622
受寄	-11.6623
有犯者	-11.6623
灑掃	-11.6623
廣引	-11.6625
過於	-11.6625
退坐一面	-11.6626
無作戒	-11.6628
與授具足戒	-11.6628
語大愛道	-11.663
僧祇云若	-11.663
順行	-11.663
能證	-11.6631
苾芻應	-11.6631
皆通	-11.6633
修諸	-11.6635
成難	-11.6635
教誡尼	-11.6637
與受	-11.6639
他身	-11.6639
一形	-11.664
城邑聚落	-11.6643
我將無得波羅夷	-11.6646
持心	-11.6648
失不淨	-11.6649
習近	-11.6651
佛於	-11.6652
得須陀洹果	-11.6653
屋中	-11.6654
我與汝	-11.6655
阿僧祇	-11.6655
行覆	-11.6656
所念	-11.6657
水邊	-11.6658
自誦	-11.6659
義翻	-11.6659
從前	-11.6662
過咎	-11.6662
非菩薩行	-11.6665
非眾生	-11.6667
爾時菩薩	-11.6668
同遵	-11.667
或一	-11.667
同制	-11.6671
大乘經	-11.6672
滿二十歲	-11.6676
必得	-11.6676
作臥具	-11.6678
一升	-11.6679
耆宿	-11.6681
本體	-11.6681
慈地	-11.6682
較	-11.6684
白諸比丘	-11.6686
枚	-11.6687
▁三問	-11.6687
躑	-11.6689
若前人	-11.669
寶云	-11.669
德也	-11.669
僧制	-11.6691
驛	-11.6692
餘苾芻	-11.6692
居士舍	-11.6694
縱令	-11.6694
欲清淨	-11.6695
邊國	-11.6697
但吉	-11.6697
相應法者	-11.6698
若自作	-11.6698
南洲	-11.6699
樂果	-11.6699
不生不滅	-11.67
摩竭	-11.6701
醍醐	-11.6703
佛圖	-11.6703
滅諍法	-11.6703
願大德	-11.6704
罕	-11.6704
像法	-11.6705
妙觀	-11.6705
愚者	-11.6705
敬心奉持	-11.6706
腰帶	-11.6707
母胎	-11.6708
其猶	-11.671
甕	-11.671
湛然	-11.6711
妨廢	-11.6712
牛屎	-11.6713
增戒學	-11.6713
諸病比丘	-11.6714
眾聖	-11.6715
得成就	-11.6716
看病者	-11.6716
隨轉	-11.6716
躄	-11.6717
聞此語	-11.6717
諸見	-11.6719
持戒清淨	-11.672
色衣	-11.672
大梵天王	-11.672
墮於	-11.6721
能引	-11.6722
今在	-11.6723
望斷	-11.6723
別乞	-11.6724
通有	-11.6725
例也	-11.6726
此戒體	-11.6727
?「	-11.673
前受	-11.6732
皆具	-11.6733
第四人	-11.6733
光顯	-11.6734
萬德	-11.6736
稟性	-11.6736
曇摩	-11.6739
兩字	-11.6739
五乘	-11.6741
不越	-11.6741
冬分	-11.6743
想取	-11.6744
停息	-11.6745
可否	-11.6745
應對	-11.6746
為喻	-11.6746
不增	-11.6746
無極	-11.6747
貴價衣	-11.6749
卷第四	-11.6749
色如	-11.6749
下總結	-11.675
略指	-11.675
若施主	-11.6752
為我說法	-11.6753
心生歡喜	-11.6755
得滅	-11.6755
大便	-11.6757
隨順法	-11.6758
生慚愧	-11.6758
東南	-11.6759
二論	-11.6759
僧徒	-11.6759
足食巳	-11.6761
善現	-11.6761
為利養	-11.6762
即云	-11.6764
作舉羯磨	-11.6766
五篇戒	-11.6766
惡語	-11.6767
自度	-11.6767
九十事	-11.6768
生厭	-11.6769
解脫道	-11.6769
於義	-11.6771
品第二十	-11.6771
中邊	-11.6775
二指	-11.6775
亦未	-11.6777
發露懺悔	-11.6777
二對	-11.6778
盂	-11.6778
鉢羅	-11.6779
舉者	-11.6779
貪求	-11.678
戒本疏	-11.678
行滿	-11.678
不礙	-11.678
共汝	-11.6781
几	-11.6782
即結	-11.6782
飽食	-11.6783
不知足	-11.6784
八齋	-11.6784
未壞	-11.6785
恩德	-11.6785
曾不	-11.6785
之報	-11.6787
不雜	-11.6788
曩	-11.6788
緣具	-11.6789
自外	-11.6791
欽婆羅	-11.6792
初制意者	-11.6794
乃能	-11.6794
衍	-11.6795
白癩	-11.6796
起迎	-11.6796
此師	-11.6796
以釋	-11.6797
與欲者	-11.6797
餐	-11.6798
聞世尊	-11.6798
結輕	-11.68
盛水	-11.6801
諸神	-11.6801
入室	-11.6801
佐助	-11.6802
重增	-11.6803
苦集	-11.6803
石室	-11.6804
式叉摩那等	-11.6806
不識犯	-11.6806
其色	-11.6806
未受大戒人	-11.6806
儐	-11.6806
初人	-11.6807
得佛	-11.6807
右邊	-11.6807
屎	-11.681
佛頂	-11.6811
更乞	-11.6812
出家為道	-11.6813
知而妄語	-11.6814
外道法	-11.6815
同制同學	-11.6815
摩訶男	-11.6817
性惡	-11.6818
達磨	-11.6818
肉眼	-11.6818
在座	-11.6818
無惡	-11.6818
必在	-11.6818
或時有如是病	-11.6819
其語	-11.6819
復有一	-11.6819
下第二	-11.682
不應與出家	-11.682
為世人所譏	-11.682
懷妊	-11.6821
是中盡形壽不得犯	-11.6821
波羅夷者	-11.6821
求者	-11.6823
墮者	-11.6824
形貌	-11.6824
云何苾芻	-11.6824
諫者	-11.6824
菴沒羅	-11.6826
可與	-11.6827
頂禮雙足	-11.6829
斥非	-11.683
五十四	-11.6831
大歡喜	-11.6832
汝某甲聽	-11.6833
更與	-11.6834
異說	-11.6834
作迦絺那衣	-11.6836
弘誓	-11.6838
是故名	-11.684
外境	-11.6841
不可分	-11.6841
滅滅	-11.6842
不淨者	-11.6842
應有	-11.6844
造惡	-11.6847
南北	-11.6847
一切世界	-11.6847
執著	-11.6847
作婬欲	-11.6848
柵	-11.6848
無願	-11.6848
聖智	-11.6848
爾時世尊告	-11.6849
誰為	-11.6851
無妨處	-11.6852
於屏處	-11.6852
誦呪	-11.6854
護主	-11.6855
大小行	-11.6857
香湯	-11.6858
十方常住	-11.6859
不應著	-11.6859
謗法	-11.6859
▁一	-11.686
甚大	-11.686
偈呪	-11.6863
服者	-11.6864
眼根	-11.6865
在空	-11.6865
求道	-11.6865
往時	-11.6865
喚來	-11.6865
今已	-11.6866
敷設	-11.6866
何足	-11.6868
可知也	-11.6869
是空	-11.687
引經	-11.6871
是能	-11.6871
不非時食	-11.6872
一文	-11.6873
方圓	-11.6874
竟不	-11.6874
攝善	-11.6876
夢見	-11.6878
那含	-11.6878
入山	-11.6878
依行	-11.6879
譏呵	-11.6882
樂聞	-11.6882
城外	-11.6882
住地	-11.6882
不引	-11.6883
覓罪	-11.6885
霜	-11.6885
呵責言	-11.6887
請教授	-11.6887
風病	-11.6888
我人	-11.689
犯人	-11.689
何者為	-11.689
十云	-11.689
和合一處	-11.6891
口出	-11.6891
物也	-11.6892
凍	-11.6892
斷諸	-11.6896
依教奉行	-11.6896
勤學	-11.6897
自手與	-11.6897
兜羅	-11.6898
阿羅	-11.6899
數量	-11.69
䞋	-11.69
有殊	-11.6902
大段	-11.6903
索欲	-11.6903
常須	-11.6905
供養者	-11.6906
覆身	-11.6906
作房舍	-11.6906
捨是	-11.6907
筵	-11.6912
得漏盡	-11.6913
誅	-11.6914
譏呵言	-11.6914
父母師長	-11.6917
他國	-11.6918
來時	-11.6922
師範	-11.6923
善好有德	-11.6924
麤惡語	-11.6928
春冬	-11.6929
九人	-11.6929
入法界	-11.693
犯此	-11.6931
養育	-11.6931
摩得勒伽	-11.6932
度出家	-11.6933
正直	-11.6933
一諦	-11.6934
五百問事云	-11.6934
壯士	-11.6935
得新衣	-11.6936
法義	-11.6938
有難緣	-11.694
中食	-11.694
過非	-11.6941
戒淨	-11.6944
盜物	-11.6944
有何過	-11.6944
須作	-11.6945
別部	-11.6947
求衣	-11.6948
心地戒	-11.6949
式叉尼	-11.6949
滿鉢	-11.6951
力能	-11.6951
方所	-11.6952
經書	-11.6956
非酒	-11.6956
愛染	-11.696
發足	-11.6962
佛為說	-11.6964
苾芻以緣白佛	-11.6964
看視	-11.6964
委寄	-11.6965
引五分	-11.6965
可知者	-11.6966
亦三	-11.6967
若言我	-11.6967
女言	-11.697
王之	-11.6971
解羯磨	-11.6972
毗婆沙	-11.6972
開成	-11.6973
是定	-11.6975
非人物	-11.6976
若聚落	-11.6976
若教	-11.6976
此房	-11.6977
五門	-11.6978
以智	-11.6979
治者	-11.6983
與弟子	-11.6984
起貪	-11.6984
作羯磨者	-11.6987
餘食法	-11.6987
不知何	-11.6987
薀	-11.6987
五趣	-11.6989
水界	-11.6989
下開	-11.699
過重	-11.6992
王便	-11.6993
眷	-11.6994
果樹	-11.6995
區	-11.6996
標宗	-11.6996
時阿難	-11.6998
縫衣	-11.6998
是無記	-11.7
毗羅	-11.7002
媿	-11.7002
食上	-11.7003
被差	-11.7003
酸	-11.7004
杌	-11.7005
作留難	-11.7006
了別	-11.7007
不分別	-11.7007
人事	-11.7007
領解	-11.7008
兜率	-11.7008
坌	-11.7008
總收	-11.7009
所能	-11.701
作佛事	-11.7011
狂亂	-11.7012
悔除	-11.7012
瞻仰	-11.7012
於汝	-11.7013
諸苾芻等	-11.7014
難調	-11.7014
謗他	-11.7014
腕	-11.7015
一切吉羅	-11.7016
犯小罪	-11.7017
若淨人	-11.7019
是故如來	-11.7022
佛世尊遊舍衛國祇樹給孤獨園	-11.7023
詣餘家	-11.7024
欲顯	-11.7024
迷惑	-11.7025
眾教	-11.7025
讒	-11.7025
前請	-11.7026
刷	-11.7027
仍須	-11.7027
於佛法	-11.7027
屬他	-11.7027
與四分	-11.7028
開章	-11.7028
令諸	-11.7028
具五緣	-11.703
摩哂陀	-11.703
廊	-11.7031
從何	-11.7031
於身	-11.7032
隨順行	-11.7033
犯某僧殘罪	-11.7033
四分戒本	-11.7034
有如是病	-11.7035
百萬	-11.7035
乃名	-11.7035
謂如來	-11.7036
前立	-11.7036
如上釋	-11.7037
此苦	-11.7037
此苾芻某甲	-11.7038
初定	-11.7039
善生經云	-11.704
有生	-11.704
邊見	-11.704
注曰	-11.7041
破戒之人	-11.7042
行不	-11.7044
得巳	-11.7046
宜當	-11.7047
增養	-11.7048
及論	-11.7048
應修	-11.7049
瞋怒	-11.7049
具壽阿難陀	-11.7049
觀照	-11.7051
鬪戰	-11.7051
聽與	-11.7051
後戒	-11.7052
上行	-11.7053
四十五	-11.7056
今引	-11.7056
飲者	-11.7062
恐畏	-11.7063
割截衣	-11.7063
諸大姊	-11.7064
入已	-11.7064
來詣佛所	-11.7065
著口中	-11.7065
而已	-11.7066
若眾多人	-11.7067
香水	-11.7068
含識	-11.7068
是故世尊說	-11.7069
下合	-11.707
謂身	-11.707
今須	-11.707
分分	-11.7071
邪道	-11.7073
捉比丘	-11.7073
利益眾生	-11.7074
彼論云	-11.7074
若共	-11.7074
滅者	-11.7075
諸比丘應	-11.7075
僧作法	-11.7077
餘篇	-11.7078
由我	-11.7078
苦難	-11.7082
所請	-11.7083
約此	-11.7085
無濫	-11.7086
日時	-11.7087
一切賢聖	-11.7088
僧次請	-11.7089
罪中	-11.7092
河中	-11.7092
取彼	-11.7093
教他作	-11.7093
生死苦	-11.7095
止也	-11.7096
述意	-11.7098
一條	-11.7101
一對	-11.7101
不損	-11.7102
法忍	-11.7102
有一人	-11.7102
大覺	-11.7103
死人衣	-11.7104
諍論	-11.7104
觀時	-11.7105
琴	-11.7106
下三句	-11.7107
享	-11.7108
呵不止	-11.7108
必依	-11.711
即從	-11.711
惛	-11.7111
初句可知	-11.7111
兩眾	-11.7111
神州	-11.7112
悶絕	-11.7115
不專	-11.7115
聽比丘	-11.7115
法堂	-11.7117
一晝夜	-11.7118
形服	-11.7118
許之	-11.7118
自利利他	-11.7118
非法想	-11.712
洟唾	-11.712
此與	-11.712
不了了者	-11.7122
咸悉	-11.7122
邁	-11.7122
慳惜	-11.7123
腸	-11.7126
與摩那埵	-11.7128
波利迦羅	-11.7128
車匿	-11.713
戒定	-11.7131
以火	-11.7131
淨食	-11.7132
欄	-11.7132
六情	-11.7132
訟	-11.7132
崖	-11.7133
劫比羅	-11.7133
無別眾	-11.7134
佛作是念	-11.7135
恒河	-11.7137
在聚落	-11.7139
光光	-11.714
是居士	-11.7141
錯說	-11.7142
瓔珞經云	-11.7142
唯約	-11.7145
犯突吉羅罪	-11.7145
持是	-11.7146
▁二所下	-11.7147
華嚴經云	-11.7147
或聞	-11.7149
或能	-11.7151
非直	-11.7153
捨家	-11.7155
四支	-11.7155
之宗	-11.7155
汝今可	-11.7156
亦突吉羅	-11.7157
給孤獨長者	-11.7159
舊住比丘	-11.7159
巳定	-11.716
臥床	-11.7161
令起	-11.7162
或下	-11.7163
感果	-11.7169
所為事	-11.7169
安居法	-11.7169
淨洗手	-11.717
其大	-11.7171
各以	-11.7172
露現	-11.7173
不散	-11.7175
第八云	-11.7175
自觀	-11.7176
煞盜	-11.7177
呵罵	-11.7177
佛剎	-11.7177
下二句明	-11.7177
便作是言	-11.7178
火中	-11.7179
上樹	-11.7179
為塔	-11.7181
轉身	-11.7181
出之	-11.7182
見惑	-11.7182
有闕	-11.7183
解脫門	-11.7184
王與	-11.7184
第五句	-11.7185
時具壽	-11.7186
日滿	-11.7186
孤獨	-11.7188
初云	-11.7189
意令	-11.719
四十四	-11.719
開意	-11.7191
我今日	-11.7192
與罪	-11.7194
神通力	-11.7194
麁語	-11.7196
本覺	-11.7196
斷常	-11.7199
無慈	-11.7199
念心	-11.7202
五正	-11.7203
小教	-11.7204
電	-11.7205
諸賊	-11.7206
支提	-11.7206
僧中捨	-11.7207
諸過	-11.7208
臨事	-11.7208
鈔意	-11.7208
遮法	-11.7209
三七日	-11.721
前文復二	-11.721
▁二言下	-11.7212
佛默然受	-11.7214
在王舍城	-11.7214
因事	-11.7214
摩得勒伽云	-11.7215
嶺	-11.7215
不失受	-11.7215
意顯	-11.7215
和上闍梨	-11.7218
枳	-11.7218
惡罵	-11.7218
諫言	-11.7219
多病	-11.722
百七十	-11.722
一師	-11.7221
初問	-11.7221
卷第一	-11.7222
多與	-11.7222
營作	-11.7222
金翅鳥	-11.7222
挾	-11.7225
重發	-11.7225
菩薩戒本	-11.7225
世所	-11.7226
漁	-11.7227
自害	-11.7227
開不犯	-11.7227
其國	-11.7229
助表	-11.7229
引古	-11.7229
皆悉懺悔	-11.723
未到	-11.723
憍奢耶	-11.723
可受	-11.7231
我向	-11.7231
特為	-11.7232
打罵	-11.7232
藝	-11.7233
不信者	-11.7235
違者	-11.7235
並餘四眾	-11.7236
施比丘	-11.7237
放捨	-11.7238
愛盡	-11.7239
第二念	-11.724
盡是	-11.7243
□□□	-11.7243
說序	-11.7243
行殺	-11.7243
事懺	-11.7243
斯等	-11.7245
後文	-11.7245
不治	-11.7245
窓	-11.7246
為世	-11.7246
羯磨巳	-11.7249
綱目	-11.7251
不全	-11.7253
有驅者	-11.7253
普照	-11.7255
作羯磨說戒	-11.7257
後犯	-11.7259
金銀等	-11.7259
不退轉	-11.726
於生死	-11.7261
此藥	-11.7261
釋前	-11.7262
覆心	-11.7263
眾僧和合	-11.7263
須明	-11.7263
故受	-11.7265
五百金錢	-11.7266
得出	-11.7267
觸食	-11.7268
悲愍	-11.7268
質直	-11.7268
禮懺	-11.727
諫時	-11.727
苦切羯磨	-11.7271
虛實	-11.7272
己物	-11.7273
不限	-11.7274
初結	-11.7275
求財	-11.7277
尼犍	-11.7278
出家受具足	-11.728
大數	-11.728
捨此事	-11.7281
呵責已	-11.7281
令修	-11.7281
故所以制	-11.7282
復有比丘	-11.7283
菩薩戒者	-11.7284
觀軍	-11.7284
實為	-11.7286
共往	-11.7286
弊衣	-11.7287
檀越施	-11.7287
教汝	-11.7288
有佛性	-11.7288
世有	-11.7288
如來藏	-11.7291
欲向	-11.7292
一突吉羅	-11.7294
雖異	-11.7295
餘五	-11.7296
不癡毘尼	-11.7297
戒經中來	-11.7299
道路行	-11.7299
道德	-11.73
故戒疏云	-11.73
一一衣	-11.7302
句中	-11.7302
若式叉摩那	-11.7303
驅遣	-11.7304
誑他	-11.7305
之念	-11.7306
以酒	-11.7307
作呵責羯磨	-11.7307
心識	-11.7308
佛語阿難	-11.7308
詳之	-11.7309
是何等	-11.731
慢法	-11.7314
法喻	-11.7314
子曰	-11.7314
上二句明	-11.7315
黃色	-11.7316
但舉	-11.7319
▁二明	-11.7319
何益	-11.7319
歸戒	-11.7319
鑑	-11.7319
一切人	-11.7321
應受持	-11.7321
或有罪	-11.7322
呂	-11.7323
說戒者	-11.7324
寒暑	-11.7324
言下	-11.7324
桑	-11.7325
以是因緣故	-11.7326
在前行	-11.7328
婆羅門等	-11.7328
愽	-11.7328
閙	-11.7329
若苾芻於	-11.733
東晉	-11.733
極長	-11.7331
輕偷蘭	-11.7331
高僧傳	-11.7333
大石	-11.7334
煞戒	-11.7334
何可	-11.7334
若被	-11.7334
恒河沙	-11.7335
殆	-11.7336
獨宿	-11.7337
分兩	-11.7337
雜明	-11.7337
灾	-11.7337
短命	-11.7338
四十六	-11.7338
嬾	-11.7341
菴羅	-11.7342
比丘尼某甲	-11.7342
欲染	-11.7344
就前	-11.7345
餘則	-11.7346
不可懺	-11.7346
寧不	-11.7346
戶鑰	-11.7346
院相	-11.7347
皆得惡作	-11.7347
得越毘尼罪	-11.7347
為僧伽	-11.7348
與誰	-11.7349
此教	-11.7349
復有二見	-11.7349
行雨	-11.7351
推之	-11.7352
入門	-11.7354
諸眷屬	-11.7354
度弟子	-11.7354
有知男子	-11.7355
何義	-11.7355
受日法	-11.7356
詐現	-11.7357
學問	-11.7358
非聖	-11.736
逃走	-11.7361
歡喜奉行	-11.7361
各說	-11.7361
疑是	-11.7361
起信	-11.7362
悟道	-11.7362
五天	-11.7363
三聚戒	-11.7366
尼戒	-11.737
處安居	-11.7373
稱云	-11.7373
此三種	-11.7374
作敷具	-11.7375
只是	-11.7376
別脫	-11.7377
勸人	-11.7377
諸根不具	-11.7378
九十二	-11.7378
妙果	-11.7378
我在	-11.7379
卷第五	-11.7381
作賊	-11.7381
其妻	-11.7383
求哀	-11.7384
並約	-11.7384
受淨	-11.7385
苦苦	-11.7389
若語	-11.7389
莫問	-11.739
法化	-11.739
床脚	-11.739
不獨	-11.7393
不轉	-11.7394
即說偈言	-11.7394
前列	-11.7395
時時	-11.7395
法名	-11.74
畜者	-11.74
顯正	-11.7401
修善法	-11.7402
辨之	-11.7403
何勞	-11.7405
耳根	-11.7405
初生	-11.7406
王舍城中	-11.7406
踝	-11.7411
梳	-11.7412
清眾	-11.7413
篇第十	-11.7414
大乘經律	-11.7414
身肉	-11.7417
從此巳下	-11.7419
受戒巳	-11.742
見取	-11.742
懺悔法	-11.7421
不癡毗尼	-11.7421
通一切	-11.7421
一切戒	-11.7422
女色	-11.7422
三尺	-11.7423
心定	-11.7424
相參	-11.7424
我婦	-11.7426
諸病	-11.7427
端身	-11.743
即作是念	-11.743
無分	-11.743
致有	-11.7431
阿毗達磨	-11.7431
我即	-11.7433
不應禮	-11.7433
物命	-11.7433
取鉢	-11.7434
或疑	-11.7434
恐濫	-11.7435
舛	-11.7435
恐失	-11.7435
行持	-11.7436
以充	-11.7436
二三四	-11.7437
心念法	-11.7438
亦曰	-11.7439
貪嗔癡	-11.744
二知是	-11.744
無障礙	-11.744
者提	-11.7442
一月日	-11.7442
雖可	-11.7444
得差	-11.7444
而至	-11.7444
禪思	-11.7446
樹根	-11.7448
四尺	-11.7449
此戒法	-11.745
佛殿	-11.745
相中	-11.7451
自飲	-11.7453
形同	-11.7453
勸足	-11.7453
身在	-11.7456
僧自恣	-11.7457
貪利	-11.7457
王城	-11.7458
因生	-11.7458
猶故	-11.7459
出世之	-11.746
鉢破	-11.746
戒身	-11.746
望前	-11.7461
此壞敗人	-11.7462
愛惜	-11.7462
斯之	-11.7463
巳知	-11.7463
跋陀羅	-11.7463
頭面禮佛足	-11.7463
當白	-11.7464
要待	-11.7464
於後時	-11.7464
亡物	-11.7464
彼女	-11.7465
即捨	-11.7467
譌	-11.7467
以神力	-11.7468
皆然	-11.7469
元年	-11.7469
深廣	-11.7471
發明	-11.7473
衣已竟	-11.7473
伊羅	-11.7474
坐上	-11.7474
不能如法	-11.7474
問彼	-11.7474
緣在室羅伐城	-11.7475
看之	-11.7475
老母	-11.7475
勤求	-11.7476
常與	-11.7477
一一波逸提	-11.7477
非比丘尼	-11.7478
云若至	-11.7478
取五錢	-11.748
約處	-11.7481
有病比丘	-11.7482
莊嚴具	-11.7482
不捨惡見	-11.7483
偷蘭遮罪	-11.7484
亦翻	-11.7484
弊惡	-11.7484
本所	-11.7485
論之	-11.7487
惡邪見	-11.7488
能令眾生	-11.7491
亦自	-11.7492
眾緣	-11.7494
?』」	-11.7494
常聞	-11.7496
隨法	-11.7496
四肘	-11.7496
如火	-11.7498
有功	-11.7498
巳辨	-11.7499
始知	-11.7499
多途	-11.75
羯磨云	-11.75
尋常	-11.7501
制聽	-11.7502
意言	-11.7504
四僧	-11.7504
律師云	-11.7504
施之	-11.7504
說戒羯磨	-11.7505
惡生	-11.7506
失於	-11.7509
口作	-11.7511
作坑	-11.7512
結作	-11.7512
弑	-11.7513
勤精進	-11.7514
一百年	-11.7514
)《	-11.7514
向彼	-11.7515
二受	-11.7515
波利婆沙	-11.7518
常途	-11.7519
是女	-11.7519
即行	-11.7521
邪法	-11.7522
十月	-11.7522
邊得	-11.7523
空故	-11.7523
大藏	-11.7523
通標	-11.7524
八解脫	-11.7525
境緣	-11.7526
受別請	-11.7526
有聲	-11.7527
僧護	-11.7527
師語	-11.753
覆他	-11.7531
是大乘	-11.7532
指略	-11.7533
應向	-11.7535
一手	-11.7535
必具	-11.7535
薩婆若	-11.7536
麵	-11.7537
緣本	-11.7539
今釋	-11.754
定中	-11.754
所棄	-11.7541
限約	-11.7543
禦	-11.7545
少異	-11.7546
又引	-11.7546
結蘭	-11.7547
薩埵	-11.7548
貪嗔	-11.7549
阿鼻地獄	-11.7549
掠	-11.755
褁	-11.755
當知此	-11.755
性重	-11.7552
癡心	-11.7552
辨其	-11.7552
同歸	-11.7553
安立	-11.7554
燈明	-11.7554
決了	-11.7554
搥	-11.7555
蔗	-11.7555
猴	-11.7555
受想行識	-11.7555
冊	-11.7556
吏	-11.7556
愚教	-11.7558
鑊	-11.7559
合得	-11.7559
瀆	-11.756
齧	-11.756
則重	-11.756
識犯	-11.756
別舉	-11.7561
輕重不同	-11.7561
戒本五句	-11.7562
機宜	-11.7562
若乞	-11.7562
招提	-11.7563
說云	-11.7564
右脇	-11.7564
貞觀	-11.7565
無量百千	-11.7565
樵	-11.7566
便將	-11.7566
是我所	-11.7567
以盜心取	-11.7568
悉能	-11.7569
澡罐	-11.7571
鄔波斯迦	-11.7573
所不能	-11.7573
一心和合僧	-11.7574
云我	-11.7576
可信者	-11.7576
搖頭	-11.7576
不犯波羅夷	-11.7576
知犯	-11.7576
五月一日	-11.7577
即說	-11.758
駈出	-11.758
西南	-11.7581
隨上座	-11.7582
為輕	-11.7583
跋耆	-11.7584
婆論	-11.7585
當應量作	-11.7586
結輕垢	-11.7588
諸大眾	-11.7589
定是	-11.7589
戒光	-11.7589
什師	-11.7589
生活	-11.7591
奉事	-11.7591
瞋故	-11.7592
故不犯	-11.7592
今為諸比丘結戒	-11.7593
自歸	-11.7593
由無	-11.7594
至真	-11.7594
二偈	-11.7594
今反	-11.7595
長阿含	-11.7596
求解脫	-11.7596
世之	-11.7598
此二句	-11.7598
諸釋種	-11.76
持杖	-11.7601
家乞	-11.7603
三匝	-11.7604
與竟	-11.7605
若眾多	-11.7605
尼律	-11.7608
敷坐	-11.7609
護身	-11.761
住法	-11.7611
加口法	-11.7612
第二篇	-11.7613
初分	-11.7614
眾惡	-11.7615
行化	-11.7616
雜碎戒	-11.7616
得通	-11.7616
又准	-11.7616
大行	-11.7618
段食	-11.7622
難消	-11.7624
捉杖	-11.7624
法要	-11.7626
一由旬	-11.7627
失欲	-11.7627
母經	-11.7628
隨去	-11.7628
為病人	-11.7629
蘭罪	-11.7629
作善	-11.7631
功力	-11.7632
者非也	-11.7632
坐道場	-11.7633
設教	-11.7634
攝論	-11.7634
正戒	-11.7634
祇支	-11.7635
勝德	-11.7636
如是人	-11.7637
故不可	-11.7638
佛乃	-11.7639
以草	-11.7641
律文中	-11.7642
大經	-11.7643
比丘見	-11.7645
第十八	-11.7645
一樹下	-11.7648
無生忍	-11.7648
並成	-11.7649
受供	-11.7651
常當	-11.7651
今正	-11.7653
十數	-11.7654
佛邊	-11.7654
章疏	-11.7655
褒	-11.7655
僧伽應許僧伽今	-11.7655
正思惟	-11.7656
驅出羯磨	-11.7656
而求	-11.7656
不到	-11.7657
無咎	-11.7658
誰諸大姊忍僧	-11.7658
對首法	-11.7659
鄔波離請世尊曰	-11.7659
與看病人	-11.7659
踞	-11.7659
如如	-11.766
今從眾僧乞	-11.766
不得犯	-11.7661
云問至	-11.7661
禮三拜	-11.7661
如次	-11.7661
則犯	-11.7662
佳	-11.7662
違反	-11.7663
大小俱制	-11.7664
芻	-11.7665
無減	-11.7666
佛判	-11.7668
挍	-11.7669
義準	-11.7669
先於	-11.767
醜陋	-11.767
樹林	-11.7671
銘	-11.7671
衣分	-11.7672
耄	-11.7672
彼疑	-11.7673
儔	-11.7673
惡聲	-11.7674
年中	-11.7674
報障	-11.7675
▁三若下	-11.7675
朋友	-11.7675
第一云	-11.7675
相和	-11.7676
今解不然	-11.7676
墓	-11.7676
作新敷具	-11.7677
身長	-11.7677
金口	-11.7678
著三衣	-11.7678
以十利故與比丘結戒	-11.7678
淨住	-11.7679
須白	-11.7679
副	-11.7679
可令	-11.768
象力	-11.7681
住在	-11.7681
塔下	-11.7681
或雖	-11.7682
佛見	-11.7684
非有非無	-11.7684
安心	-11.7684
仁今	-11.7685
各分	-11.7685
或容	-11.7686
多事	-11.7686
事火	-11.7686
眾寶	-11.7687
打揵椎	-11.7687
鑰	-11.7688
給孤長者	-11.769
至第	-11.769
或命難	-11.7691
可治	-11.7691
我今問汝	-11.7692
為我故	-11.7692
十七日	-11.7692
無上士	-11.7695
不犯重	-11.7695
外緣	-11.7696
豈異人乎	-11.7696
若得衣者	-11.7697
受斯	-11.7697
俱成	-11.7697
違佛制	-11.7698
人人	-11.7699
懷疑	-11.77
毛孔	-11.7701
通教	-11.7702
佛勅	-11.7702
以藥	-11.7703
使彼	-11.7704
卷第六	-11.7706
十一日	-11.7706
入己	-11.7707
五十九	-11.7709
與賊	-11.7711
若畜	-11.7712
何必	-11.7713
為滅	-11.7713
三善	-11.7713
敬順	-11.7714
中安居	-11.7715
畏慎	-11.7715
以金	-11.7715
法別眾	-11.7715
月日	-11.7718
齋戒	-11.7718
齋日	-11.7719
王今	-11.7719
於十方	-11.772
文可知	-11.772
此宗	-11.772
忽有	-11.7721
復語言	-11.7721
調和	-11.7721
年月日	-11.7722
與出罪	-11.7722
受自恣	-11.7723
皆來	-11.7724
頗梨	-11.7725
自受用	-11.7728
三釋	-11.7729
寺舍	-11.7732
略開	-11.7732
導師	-11.7733
宿者	-11.7733
可知矣	-11.7734
摩訶僧祇律	-11.7734
厭惡	-11.7734
不牒	-11.7735
何獨	-11.7736
三中初	-11.7736
磔手	-11.7737
改過	-11.7737
驅使	-11.7737
恩愛	-11.7737
愚癡人	-11.7737
病因緣	-11.7739
自體	-11.774
准多論	-11.7741
出房	-11.7741
此即是	-11.7742
命者	-11.7742
如教	-11.7743
犯邊罪	-11.7743
心俱	-11.7743
因明	-11.7746
陳如	-11.7746
羯磨事	-11.7747
先應	-11.7747
瞋恚故	-11.7749
之輩	-11.7749
得利養	-11.775
不傷	-11.775
為遮	-11.775
又須	-11.7751
萬境	-11.7751
醫王	-11.7754
與別住	-11.7754
便欲	-11.7754
打比丘	-11.7755
故律中	-11.7757
中有四	-11.7758
物故	-11.7758
於異時	-11.7758
多羅樹	-11.7759
月光	-11.776
等分	-11.776
所稱	-11.7761
佛制戒	-11.7761
彰其	-11.7762
無識	-11.7763
六時	-11.7763
本空	-11.7764
守戒	-11.7765
所護	-11.7765
從索	-11.7765
或癡狂	-11.7766
至日	-11.7769
儀則	-11.777
十八法	-11.777
先取	-11.7771
可破	-11.7771
或曰	-11.7773
鄭	-11.7775
飄	-11.7775
得殘	-11.7776
畜弟子	-11.7777
屢	-11.7777
秀	-11.7778
後二句	-11.7778
本源心地	-11.778
醫師	-11.7781
亭	-11.7782
別諫	-11.7783
純白	-11.7786
覲	-11.7787
目揵連	-11.7787
刳	-11.7788
不惜身命	-11.7788
最大	-11.7788
申明	-11.7788
比丘六夜摩那埵	-11.7788
有能	-11.7789
婆伽婆	-11.7791
作白羯磨	-11.7792
別指	-11.7794
𢷤	-11.7794
何如	-11.7794
四海	-11.7794
智知	-11.7795
容受	-11.7796
此就	-11.7796
離聞處	-11.7797
相向	-11.7797
贍部	-11.7797
佛界	-11.7798
三十捨墮	-11.7799
義如上	-11.7799
諸檀越	-11.78
擿	-11.7801
後安居人	-11.7802
破沙門法	-11.7803
調弄	-11.7803
雜含	-11.7803
題目	-11.7804
左邊	-11.7804
牀座	-11.7804
自屬	-11.7804
所及處	-11.7804
落地	-11.7805
結歸	-11.7805
四者不得	-11.7806
不應戒行	-11.7806
容可	-11.7809
三衣鉢具	-11.781
具解	-11.7811
有居士	-11.7811
七八	-11.7812
國王大臣	-11.7813
如理	-11.7814
輕遮	-11.7814
彼於	-11.7814
因地	-11.7816
勝云	-11.7816
聽教	-11.7817
勤苦	-11.7818
乞詞	-11.782
佛是	-11.782
十二句	-11.7821
草上	-11.7821
節量	-11.7821
請和尚	-11.7822
之惡	-11.7822
生支	-11.7823
藥者	-11.7823
七徧	-11.7823
有大小	-11.7824
為量	-11.7824
奇特	-11.7824
觸女	-11.7826
胎中	-11.7827
故文言	-11.7829
乞人	-11.783
雖曰	-11.7831
或有言	-11.7832
不使	-11.7833
標示	-11.7834
諸教	-11.7834
告阿難陀曰	-11.7834
婆沙論云	-11.7835
入舍	-11.7835
未熟	-11.7836
善不善	-11.7837
相著	-11.7837
具引	-11.7839
字義	-11.7841
興方便	-11.7842
自性清淨	-11.7844
問義	-11.7844
年老	-11.7844
依止羯磨	-11.7845
膝上	-11.7849
印度	-11.7849
常見	-11.785
從師	-11.7851
此緣	-11.7852
諸童子	-11.7852
如來所說	-11.7852
願見	-11.7853
即可	-11.7854
女想	-11.7855
得禪	-11.7856
憶識	-11.7858
起諍	-11.7859
得阿耨多羅三藐三菩提	-11.7859
路中	-11.7859
分五	-11.786
一齊	-11.7863
被褥	-11.7863
滿中	-11.7864
長生	-11.7864
無此理	-11.7865
應爾	-11.7866
若草	-11.7866
毗盧遮那	-11.7866
我已說	-11.7867
小菩薩	-11.7868
是初	-11.7868
有善	-11.7868
不少	-11.787
皮革	-11.7871
不服	-11.7872
烏鳥	-11.7872
應住	-11.7873
常修	-11.7873
不忍者	-11.7873
無住	-11.7875
芳	-11.7875
三二一	-11.7875
報色	-11.7875
不錄	-11.7876
疫	-11.7876
速疾	-11.7876
遊觀	-11.7878
皆盡	-11.7879
相識	-11.7879
先至	-11.7879
羯磨已	-11.7879
蹔	-11.7879
得益	-11.788
盜他	-11.788
善見論	-11.788
罪障	-11.7882
白一羯磨	-11.7887
在先	-11.7887
與餘	-11.7887
村界	-11.7888
皇帝	-11.7888
行慈	-11.7888
一粒	-11.7889
然須	-11.7889
酒味	-11.7889
脉	-11.7889
若噉	-11.789
斜	-11.7891
十二入	-11.7892
至于今日	-11.7892
五十一	-11.7893
加被	-11.7893
篋	-11.7894
脹	-11.7894
遐	-11.7895
廬	-11.7896
歸於	-11.7896
一心頂禮	-11.7896
謁	-11.7897
當懺悔	-11.7898
參禪	-11.7898
然後乃	-11.7899
襆	-11.7899
隨佛	-11.79
是名為犯眾多犯	-11.79
忘不	-11.7901
常樂我淨	-11.7902
橋梁	-11.7904
為長	-11.7904
如是世尊與比丘結戒	-11.7904
侍從	-11.7904
先舉	-11.7904
阿闍棃	-11.7904
應如法治	-11.7905
若滿	-11.7905
難集	-11.7907
期行	-11.7907
願大德為我作	-11.7907
犯突	-11.7908
我亦如是	-11.7909
從他受	-11.7911
鳴槌	-11.7912
若自知	-11.7913
諸聖	-11.7913
帔	-11.7914
杜多	-11.7914
王教	-11.7914
於人間數	-11.7915
先在	-11.7915
上三句	-11.7915
無礙智	-11.7915
佛住王舍城	-11.7916
▁二不犯	-11.7917
何耶	-11.7921
要先	-11.7921
而為說法	-11.7922
無令	-11.7923
聖意	-11.7924
不受後有	-11.7925
器具	-11.7926
文明	-11.7929
羅網	-11.7929
二眾生想	-11.7929
理非	-11.793
分處	-11.793
已捨	-11.7931
持齋	-11.7932
愚路	-11.7932
除貿易	-11.7932
便還	-11.7932
有十八	-11.7933
天眾	-11.7933
園田	-11.7933
悟入	-11.7936
授法	-11.7937
三鉢	-11.7938
各執	-11.7938
▁二犯緣	-11.7939
悅意	-11.7942
餘語	-11.7942
亦約	-11.7943
古記	-11.7943
前中	-11.7943
講說	-11.7945
欲知	-11.7945
餘四眾	-11.7945
第五門	-11.7946
牧	-11.7946
稱歎	-11.7947
其行	-11.7947
種種供養	-11.7947
塔中	-11.7947
律下	-11.7948
張口	-11.7949
思議	-11.7951
濟度	-11.7952
坐時	-11.7953
至明日	-11.7953
犯戒罪	-11.7953
不還者	-11.7953
口口	-11.7956
則輕	-11.7956
知解	-11.7957
無量壽	-11.7957
優波離問佛	-11.7958
本所受	-11.7958
歸位	-11.7958
得著	-11.796
貧苦	-11.796
大迦攝波	-11.7961
歸依佛法僧	-11.7962
奉為	-11.7964
共鬪諍	-11.7964
行水	-11.7964
未說	-11.7965
三聚淨戒	-11.7966
而歸	-11.7966
▁二文下	-11.7966
次應	-11.7966
掌中	-11.7967
發遣	-11.7968
爾時有一	-11.7968
龍身	-11.7968
已從僧乞	-11.7969
人疑	-11.797
爾時佛	-11.797
得須陀洹	-11.7971
占相	-11.7971
寺主	-11.7972
撿問	-11.7973
尺量	-11.7973
生空	-11.7973
墮惡趣	-11.7974
寂定	-11.7974
此問	-11.7975
三世佛	-11.7976
得食不	-11.7977
略辨	-11.7978
復須	-11.7978
夏竟	-11.7978
應禮	-11.7979
有漏法	-11.7979
有無量	-11.798
又見	-11.7981
異類	-11.7983
兩位	-11.7984
對俗	-11.7985
左右顧視	-11.7985
無諸難事	-11.7986
三境	-11.7988
自覆	-11.7988
本迹	-11.799
僧與某甲比丘	-11.799
第三羯磨	-11.7993
前安居人	-11.7993
護者	-11.7995
直去	-11.7995
食前	-11.7996
下次引	-11.7998
此制	-11.7999
羅什	-11.8
火聚	-11.8
不學人	-11.8
而過	-11.8
出功德衣	-11.8001
法上	-11.8002
棲	-11.8002
應器	-11.8003
恐謂	-11.8003
松	-11.8003
餘用	-11.8004
沐	-11.8004
陀驃	-11.8005
販賣戒	-11.8005
曹魏	-11.8005
二就	-11.8005
婆羅痆斯	-11.8007
所愛	-11.8007
之量	-11.8009
三者當	-11.801
精出	-11.801
發得	-11.8012
三色	-11.8012
缾	-11.8012
輕微	-11.8012
作法不成	-11.8013
若彼人	-11.8013
大如	-11.8014
耶輸伽	-11.8014
謦欬	-11.8014
有方便	-11.8015
索者	-11.8015
大乘戒	-11.8016
並同前	-11.8016
本異	-11.8016
頭面	-11.8016
得受戒	-11.8017
若打	-11.8017
復來	-11.8017
見言不見	-11.8017
世尊無數方便	-11.8018
並通	-11.8018
糞穢	-11.802
攝生	-11.802
作法時	-11.8021
憍薩羅	-11.8022
高聲大喚	-11.8022
身壞命終	-11.8023
少女	-11.8023
說而了了者	-11.8024
若違	-11.8025
萬年	-11.8025
申手內	-11.8026
犢	-11.8026
襞	-11.8026
三藥	-11.8027
顯德	-11.8027
年未滿二十	-11.8027
是某甲	-11.8027
則不能	-11.8027
煞生	-11.8028
八樹	-11.803
煮燒覆	-11.803
應作是言	-11.8031
捨命	-11.8031
佛為說法	-11.8032
違失	-11.8034
二人同	-11.8035
「『	-11.8036
之位	-11.8036
業相	-11.8038
諸苾芻眾	-11.804
若不許者	-11.8045
亦不犯	-11.8045
狐疑	-11.8045
除增上慢	-11.8046
或至	-11.8047
著肩上	-11.8047
聖行	-11.8047
攝眾生戒	-11.8049
修理	-11.8052
屬我	-11.8052
同別	-11.8052
床榻	-11.8053
苾芻僧伽	-11.8053
謂作	-11.8053
煞人	-11.8053
若有因緣	-11.8053
收取	-11.8055
第三篇	-11.8055
國家	-11.8056
四趣	-11.8056
始末	-11.8057
▁二約	-11.8057
如注	-11.8059
一眾生	-11.8059
此顯	-11.8059
正儀	-11.806
羮飯	-11.8061
顯露	-11.8062
彼我	-11.8064
復從	-11.8065
他語	-11.8069
開受	-11.807
大眾集	-11.8071
有所得	-11.8071
准論	-11.8071
又比丘	-11.8074
雜相	-11.8074
入三昧	-11.8075
瑜伽論	-11.8076
共事	-11.8077
將入	-11.8078
咸得惡作	-11.8079
如說	-11.8079
自破	-11.8082
兩釋	-11.8082
遺落	-11.8082
僧諫	-11.8082
戒本四句	-11.8083
彼明	-11.8084
不自舉	-11.8085
非法事	-11.8085
十二頭陀	-11.8086
色陰	-11.8087
部主	-11.8088
大城	-11.8089
應作如是	-11.8089
例之	-11.809
過三夜	-11.809
時淨飯王	-11.8091
自造	-11.8094
香氣	-11.8094
前七	-11.8094
復告	-11.8095
具威儀	-11.8095
五千	-11.8097
大罪	-11.8099
不煩	-11.8099
人非人想	-11.81
自恣者	-11.81
堂上	-11.8101
飯時	-11.8102
周徧	-11.8105
當食	-11.8106
會中	-11.8107
隨師	-11.8107
孔中	-11.811
依位	-11.811
湛	-11.8111
開顯	-11.8111
及界	-11.8111
隨方	-11.8112
為諸弟子	-11.8112
天中	-11.8113
第一句	-11.8114
不以為	-11.8115
五蓋	-11.8115
欲破和合僧	-11.8116
清淨持戒	-11.8116
是如來	-11.8117
標也	-11.8117
對曰	-11.8117
廓	-11.8118
小妄	-11.8119
失物	-11.8119
斷盡	-11.8119
何罪	-11.8121
常所	-11.8121
)【	-11.8124
先懺	-11.8124
為白衣	-11.8125
從今日聽	-11.8126
大妄	-11.8127
指甲	-11.8127
踰繕那	-11.8127
九旬	-11.8128
曇無德部	-11.813
盞	-11.8131
求受	-11.8132
所觀	-11.8132
鑿	-11.8133
偃	-11.8133
獎	-11.8133
拘薩羅國	-11.8134
決擇	-11.8134
還以	-11.8134
五月十六日	-11.8134
嬰兒	-11.8134
法器	-11.8135
同四分	-11.8136
但隨	-11.8136
問法	-11.8137
薩婆多部	-11.8137
令捨	-11.8137
宵	-11.8137
贈	-11.8138
餉	-11.814
水上	-11.814
水陸道斷	-11.814
就人	-11.8141
買得	-11.8141
衣體	-11.8141
囑累	-11.8141
如四分	-11.8144
若遣與人	-11.8145
能取	-11.8145
弶	-11.8146
塵勞	-11.8146
跋陀	-11.8146
除時因緣	-11.8146
復說	-11.8147
本寺	-11.8147
漢言	-11.8147
園民	-11.8148
依止舍衛城	-11.815
麤細	-11.8152
餘四眾突吉羅	-11.8153
今就	-11.8154
其德	-11.8154
而發	-11.8155
舶	-11.8155
下道	-11.8155
覺了	-11.8156
令無	-11.8156
無勢分	-11.8158
於意云何	-11.8159
多美飲食	-11.8159
萬億	-11.816
〕)	-11.816
即問言	-11.8162
諸小	-11.8162
寧容	-11.8163
定其	-11.8163
畜寶	-11.8163
縱橫	-11.8164
若病人	-11.8164
注解	-11.8167
若臥	-11.8168
塗地	-11.817
餘趣	-11.8171
例知	-11.8172
言論	-11.8174
應師云	-11.8175
次二	-11.8176
根本罪	-11.8177
窮盡	-11.8177
修慈	-11.8177
其犯	-11.8178
諸比丘聞已	-11.8178
得過人法	-11.818
他宗	-11.818
梵網經云	-11.8181
兩解	-11.8181
如草覆地	-11.8183
有三事	-11.8183
菩薩大戒	-11.8184
婆羅門子	-11.8184
語餘比丘	-11.8184
讚死	-11.8185
或與	-11.8186
若女	-11.8189
勿生	-11.8189
於中有二	-11.8189
不更	-11.8191
自今已去當如是說	-11.8191
不揲	-11.8196
二家	-11.8197
僧已忍與	-11.8198
極為	-11.8199
觸著	-11.82
以惡心故	-11.82
尼犯	-11.8201
眠時	-11.8204
之善	-11.8205
大夫	-11.8208
捨施	-11.821
若染	-11.8212
大世主	-11.8212
隨病	-11.8212
世第一	-11.8213
修集	-11.8213
樹枝	-11.8213
所破	-11.8216
作妄語	-11.8217
形俱	-11.8218
日今時	-11.822
先受請	-11.822
生後	-11.822
佛智	-11.8221
是故名為	-11.8223
不能盡	-11.8224
手捉衣	-11.8226
二十五條	-11.8227
應合	-11.8227
可說	-11.823
門首	-11.823
光師	-11.8231
曾聞	-11.8231
傳欲	-11.8232
水流	-11.8232
界體	-11.8233
垣	-11.8234
一同	-11.8234
當如法	-11.8235
往往	-11.8235
僧未	-11.8235
所染	-11.8235
二者不得	-11.8235
措	-11.8236
後漢	-11.8237
識達	-11.8237
有伴	-11.8238
從上座	-11.8238
舉喻	-11.8238
膊	-11.8239
皆提	-11.824
犯提罪	-11.8241
圭	-11.8243
飜	-11.8243
九十一劫	-11.8244
具五德	-11.8247
逕宿	-11.8247
下次約	-11.8248
曾見	-11.8248
斟酌	-11.8249
燒衣	-11.8249
若能如是	-11.8249
誓不	-11.8249
為要	-11.825
而見	-11.8251
旃檀	-11.8251
靈山	-11.8251
學律	-11.8252
乃以	-11.8252
名異	-11.8252
三菩伽	-11.8254
下釋相	-11.8254
破內外道	-11.8255
疏釋	-11.8256
次一	-11.8256
開化	-11.8257
能以	-11.8257
唯取	-11.8258
具白	-11.826
戶外	-11.826
減五	-11.826
北洲	-11.8261
白鑞	-11.8263
右旋	-11.8264
就座	-11.8264
頭面作禮	-11.8266
夏初	-11.8267
願佛	-11.8268
息心	-11.8268
與我等	-11.8268
乖違	-11.8268
於眾生	-11.8269
思擇	-11.827
數日	-11.827
摩頂	-11.8271
埿	-11.8271
謂菩薩	-11.8273
二解	-11.8274
立大小便	-11.8274
阿那含果	-11.8276
白者	-11.8276
應共	-11.8277
三過	-11.8277
別緣具四	-11.8278
根器	-11.8278
不與食	-11.8279
夏四月	-11.8279
展轉相教	-11.828
作使	-11.828
所作已辦	-11.828
不避	-11.8282
險難	-11.8282
坐夏	-11.8284
若有眾生	-11.8285
還入	-11.8286
次座	-11.8286
若壞	-11.8286
豐足	-11.8287
具五	-11.8287
嚼食	-11.8288
同羯磨	-11.8288
常自	-11.8289
鉢底	-11.8289
一苾芻	-11.8289
二部僧中	-11.829
每至	-11.829
作法事	-11.8291
生嫌賤	-11.8291
纏縛	-11.8291
若水	-11.8292
加受	-11.8292
律語比丘	-11.8292
成壞	-11.8293
得還	-11.8293
邊地人	-11.8295
正犯	-11.8296
化度	-11.8298
是道	-11.8299
成其	-11.83
心意	-11.8301
育王	-11.8305
用出家受戒	-11.8306
要是	-11.8306
佛心	-11.8309
可悔過	-11.831
我今為	-11.8311
四無量	-11.8312
共集	-11.8312
至僧伽藍中	-11.8313
波逸提者	-11.8314
滿十歲	-11.8314
僧應分	-11.8318
準論	-11.832
各取	-11.832
益物	-11.8323
不唯	-11.8324
實犯	-11.8324
疑罪	-11.8327
死生	-11.8327
入白衣舍坐	-11.8327
二節	-11.8328
盡理	-11.8329
文出	-11.8331
染汙心	-11.8332
總說	-11.8333
中最	-11.8333
見機	-11.8333
正意	-11.8334
現報	-11.8334
當先白師	-11.8334
類知	-11.8335
藏之	-11.8337
外書	-11.8337
所覆	-11.834
受我請	-11.8341
問意	-11.8343
藥體	-11.8346
書云	-11.8347
毒害	-11.8348
謗毀	-11.8348
五停	-11.8348
被事	-11.8348
而結	-11.8349
一曰	-11.8349
畵	-11.835
屍林	-11.835
藏教	-11.835
作是事	-11.835
玩	-11.8356
溪	-11.8358
三歸五戒	-11.836
外部	-11.836
違教結罪	-11.8361
難解	-11.8362
篤	-11.8363
唼	-11.8364
於我所	-11.8364
其物	-11.8364
諸人眾	-11.8364
不預	-11.8365
同坐	-11.8366
䟦闍	-11.8366
是方便	-11.8366
殞	-11.8367
外典	-11.8367
何因緣故	-11.8367
自欺	-11.8368
自業	-11.8369
如文可知	-11.8369
犯法	-11.8369
是可學	-11.8369
五篇七聚	-11.8369
尋文	-11.837
未為	-11.8371
無勞	-11.8372
居士居士婦	-11.8372
剏	-11.8372
旱	-11.8374
語也	-11.8374
真偽	-11.8375
私房	-11.8375
誤也	-11.8375
不可壞	-11.8376
作竟	-11.8377
躍	-11.8377
如來說	-11.8378
懶惰	-11.8379
偷蘭難陀	-11.838
依閏	-11.8382
彌沙塞	-11.8382
東土	-11.8382
德人	-11.8382
皆因	-11.8382
春夏冬	-11.8383
受菩薩戒者	-11.8385
比丘尼者	-11.8385
從非親里居士	-11.8386
由延	-11.8387
說而了了	-11.8387
記主	-11.8387
上云	-11.8388
好醜	-11.8388
煩惑	-11.8388
七步	-11.8389
伹是	-11.8389
是止持	-11.839
我苾芻某甲	-11.839
是沙彌	-11.839
羂	-11.8391
十六句	-11.8391
訶諫	-11.8392
欲如何	-11.8392
餘道	-11.8392
二謗	-11.8393
其事實爾	-11.8393
居士婦乞衣	-11.8394
庫司	-11.8394
願世尊	-11.8394
可持	-11.8395
量度	-11.8396
三者不得	-11.8398
菩薩於	-11.8398
金輪	-11.8398
十二年中	-11.8398
鼈	-11.8399
帝須	-11.84
局在	-11.8401
故云乃至	-11.8402
立理	-11.8402
顯揚	-11.8403
看守	-11.8404
為長淨	-11.8404
為飲食故	-11.8407
一一戒	-11.8407
時迦留陀夷	-11.8408
尚爾	-11.8409
寡婦	-11.8409
心想	-11.8409
獲大	-11.8411
聽去	-11.8411
放去	-11.8412
市肆	-11.8413
為他所	-11.8413
有所犯	-11.8413
佛在室羅伐城逝多林給孤獨園	-11.8414
大種	-11.8415
亦多	-11.8415
必能	-11.8417
一坐	-11.8417
次當	-11.8417
四教	-11.8418
▁第三	-11.8419
之相也	-11.8419
有五句	-11.8421
愛憎	-11.8422
服用	-11.8424
作學家羯磨	-11.8425
欲捨	-11.8425
不定者	-11.8427
曾經	-11.8431
二沙彌	-11.8433
自陳	-11.8436
舉例	-11.8436
百五十	-11.8438
劫中	-11.8438
而不捨	-11.8439
輕衣	-11.844
如海	-11.8441
不惟	-11.8441
好織	-11.8441
譏謗	-11.8442
所云	-11.8442
向餘處	-11.8445
略引	-11.8445
丈六	-11.8445
即從座起	-11.8446
初開	-11.8447
一聚	-11.845
阿那	-11.845
若請	-11.8451
非釋子	-11.8452
之類也	-11.8453
彼意	-11.8454
逆順	-11.8454
後乃	-11.8454
初牒	-11.8456
具滿	-11.8457
真實淨	-11.8457
何成	-11.8457
所述	-11.8462
亦說	-11.8462
呵諫	-11.8463
弁	-11.8463
應諫	-11.8464
某作	-11.8466
不毀	-11.8466
如上所說	-11.8467
背後	-11.8468
有一婆羅門	-11.8469
梵僧	-11.847
若不與	-11.8471
令死	-11.8474
欲破	-11.8474
外道者	-11.8475
既多	-11.8475
則不成	-11.8475
最尊	-11.8475
兩脚	-11.8477
生生世世	-11.8478
一百八十	-11.8479
如夢	-11.8479
證阿羅漢果	-11.8479
見云	-11.8479
問訊世尊	-11.8479
為賊	-11.8479
座前	-11.848
喝	-11.848
此是遮業	-11.848
多食	-11.8481
時世	-11.8483
又前	-11.8483
條數	-11.8483
轉易	-11.8484
髑髏	-11.8486
迸	-11.8486
日非	-11.8487
輕安	-11.8488
比丘病	-11.8488
檀波羅蜜	-11.8488
疆	-11.8489
娜	-11.8489
教旨	-11.8489
竟夜	-11.8491
不能令	-11.8491
元魏	-11.8492
納受	-11.8492
刪補	-11.8493
應同	-11.8493
為檀越	-11.8494
大丈夫	-11.8494
遘	-11.8494
常食	-11.8494
見等	-11.8495
受三歸五戒	-11.8495
以惡心	-11.8495
弭	-11.8495
無處	-11.8496
舍利弗言	-11.8496
不苦不樂	-11.8496
卓	-11.8497
即合	-11.8497
左臂	-11.8497
見聞觸知	-11.8498
房主	-11.8499
妙戒	-11.8499
吟	-11.8499
前心	-11.8501
失譯人名	-11.8501
浸	-11.8502
鉛錫	-11.8502
減五綴	-11.8502
斷欲	-11.8504
其食	-11.8504
東夏	-11.8505
對說	-11.8506
檀尼迦	-11.8507
惟願不違本誓	-11.8507
三勸	-11.8507
灰土	-11.8507
肘量	-11.8507
涅	-11.8508
情見	-11.8508
猶豫	-11.8509
呼六群比丘來	-11.8509
依止舍衛城住者皆悉令集	-11.8509
顏貌	-11.851
四棄	-11.851
校量	-11.851
能善	-11.851
索食	-11.851
某姓	-11.8511
以何為	-11.8512
亡人物	-11.8512
毀禁	-11.8513
將諸	-11.8513
所共	-11.8514
若無淨人	-11.8516
有妨	-11.8517
7	-11.8517
婆羅門家	-11.8518
非法非律	-11.8518
牒緣	-11.852
攝律儀戒	-11.852
真淨	-11.852
前進	-11.8522
舉前	-11.8522
四子	-11.8523
大利	-11.8524
能依	-11.8524
至王所	-11.8525
聽戒	-11.8525
身口意業	-11.8528
六群比丘言	-11.8528
失利	-11.8529
遣書	-11.853
五分中	-11.853
處深	-11.8532
我某甲比丘尼	-11.8533
是身	-11.8534
不下	-11.8534
三藏教	-11.8535
衣鉢物	-11.8535
拜巳	-11.8535
過二夜	-11.8537
應呵	-11.8537
我意	-11.8537
依四分	-11.8538
法會	-11.8538
次作羯磨	-11.854
高大	-11.8541
四十里	-11.8541
稱說	-11.8541
可違	-11.8541
今亦	-11.8542
久近	-11.8542
去處	-11.8543
犍度中	-11.8543
拘盧舍	-11.8545
別論	-11.8545
寧可	-11.8546
便應	-11.8548
驗知	-11.8548
律文云	-11.8549
一時受	-11.855
▁二次下	-11.855
遠來	-11.8554
能感	-11.8555
計錢	-11.8555
諸藥	-11.8557
往反	-11.8558
一闡提	-11.8559
攝故	-11.856
騎	-11.856
重偷蘭	-11.8563
所說法	-11.8563
害命	-11.8564
正斷	-11.8564
前法	-11.8565
佛所制	-11.8565
聽聞	-11.8565
標舉	-11.8566
為比丘尼	-11.8566
三慧	-11.857
無間業	-11.857
定體	-11.857
僧中問	-11.857
第二十	-11.8571
佛成道	-11.8571
現前毘尼	-11.8572
即勅	-11.8572
雙牒	-11.8572
佛遊	-11.8573
彼答言	-11.8573
佛告阿難陀	-11.8576
俱通	-11.8576
然後方	-11.8576
故云通	-11.8579
由佛	-11.858
僧如法	-11.8581
與師	-11.8581
意存	-11.8585
使尼	-11.8589
離間	-11.8589
同彼	-11.859
有缺	-11.8591
差遣	-11.8591
勝利	-11.8593
狐	-11.8593
亦難	-11.8596
釆	-11.8598
樂故	-11.8598
慘	-11.8601
入內	-11.8601
姉妹	-11.8601
亦爾者	-11.8602
世出世	-11.8602
慾	-11.8602
別結	-11.8603
昔日	-11.8603
第三亦如是	-11.8605
上香	-11.8605
一遍	-11.8605
不屬	-11.8606
一語	-11.8606
啖	-11.8606
是障礙	-11.8607
轉施	-11.8607
妖	-11.8607
饑渴	-11.8607
對彼	-11.8607
宗體	-11.8608
寅	-11.8608
屏坐	-11.861
能自	-11.861
酒色	-11.8612
亦復不	-11.8613
姚秦	-11.8613
一切無犯	-11.8613
後見	-11.8613
盜聽	-11.8614
腹中	-11.8615
稠	-11.8615
憂苦	-11.8615
壞色故	-11.8616
粳米	-11.8616
金剛心	-11.8617
東北	-11.8618
不與而取	-11.8618
呵嘖	-11.8621
布薩處	-11.8621
草布地	-11.8621
自今已去聽	-11.8621
爰	-11.8622
徙	-11.8622
異緣	-11.8623
毘舍	-11.8623
懊惱	-11.8624
無數劫	-11.8624
惶	-11.8624
是作持	-11.8624
阿摩勒	-11.8626
尨	-11.8626
修觀	-11.8626
咽咽波逸提	-11.8627
亦同前	-11.8631
無別體	-11.8631
法想	-11.8631
為諸苾芻制其學處	-11.8632
即止	-11.8633
著內衣	-11.8634
在我	-11.8634
行波利婆沙	-11.8634
辦衣價	-11.8635
赤白	-11.8636
分段	-11.8637
持還	-11.8638
人家	-11.8638
泥洹僧	-11.8638
見王	-11.8639
法說非法	-11.8639
八中	-11.8639
斷人命	-11.8641
中指	-11.8641
有二一	-11.8643
守門者	-11.8643
茶湯	-11.8643
皮肉	-11.8643
復有二種	-11.8643
復語	-11.8643
略出	-11.8644
舍夷	-11.8644
豐樂	-11.8646
在不淨地	-11.8648
尚不能	-11.8649
穀貴	-11.8649
當語言	-11.8649
名譽	-11.865
難曰	-11.8651
理懺	-11.8652
被衣	-11.8653
一制	-11.8654
一切佛法	-11.8654
賊女	-11.8655
相空	-11.8656
三諫不止	-11.8657
如是我聞	-11.8657
汝師	-11.866
本日	-11.866
入堂	-11.866
年月	-11.8661
無作者	-11.8661
九十九	-11.8662
卷第七	-11.8662
至白衣家	-11.8663
又願	-11.8663
不同故	-11.8664
月滿	-11.8664
隨念	-11.8665
種植	-11.8665
請之	-11.8665
四天	-11.8667
之喻	-11.8667
本願	-11.8667
喚入	-11.8667
勝果	-11.8667
頭髮	-11.8669
時須	-11.8671
意喜	-11.8671
彼此俱	-11.8672
化物	-11.8672
其性	-11.8673
諸鬼神	-11.8673
諸沙門	-11.8674
善惡業	-11.8675
信敬心	-11.8676
大鉢	-11.8676
期限	-11.8677
由本	-11.8678
五品	-11.8679
不誦戒	-11.868
成持	-11.8684
既同	-11.8684
飯僧	-11.8684
須菩提	-11.8684
亦莫	-11.8684
謗言	-11.8685
于此	-11.8685
乃至十日	-11.8685
形露	-11.8685
本具	-11.8686
故謂之	-11.8686
業性	-11.8686
作殘食法	-11.8687
若僧中	-11.8687
成已	-11.8688
止持中	-11.8688
女曰	-11.8689
供養具	-11.8689
應屬	-11.869
一面坐	-11.8691
七五	-11.8691
二寸	-11.8692
能授	-11.8698
石鉢	-11.8698
上座部	-11.8698
未經	-11.8699
引此	-11.8701
作呵責	-11.8703
諸經論	-11.8704
近處	-11.8705
謹慎	-11.8705
如日	-11.8705
多人中三諫	-11.8708
五人僧	-11.8709
萬劫	-11.8711
八十一	-11.8711
說此偈	-11.8711
僧坊中	-11.8711
令捨是事	-11.8712
學佛	-11.8713
詺	-11.8714
名止持	-11.8714
受罪	-11.8715
床席	-11.8716
五受	-11.8718
來見	-11.8719
不平	-11.872
親愛	-11.8721
如受戒	-11.8723
應量作	-11.8723
愚夫	-11.8723
為辦	-11.8724
獨受	-11.8725
不應呵	-11.8726
諸比丘往白佛	-11.8727
人數	-11.8727
巳下正明	-11.8729
各不相	-11.8729
鼎	-11.873
更犯	-11.873
禾	-11.873
下二衣	-11.873
大名	-11.8731
形容	-11.8731
村間	-11.8731
勳	-11.8732
多知識	-11.8732
程	-11.8732
經歷	-11.8733
捻	-11.8733
法聚	-11.8734
若先不知	-11.8734
為利故	-11.8735
莫能	-11.8735
彫	-11.8736
為患	-11.8737
遍滿	-11.8737
呾	-11.8738
至上座前	-11.8738
安得	-11.8739
已下正明戒本	-11.8739
棒	-11.874
苾芻處	-11.874
曾作	-11.874
喉	-11.874
二十億	-11.8742
勿復	-11.8742
打鐘	-11.8743
未藏寶	-11.8743
生歡喜	-11.8743
不決	-11.8743
燈燭	-11.8743
大地獄	-11.8744
露身	-11.8745
伽耶	-11.8745
滿宿	-11.8746
犯重垢罪	-11.8747
淹	-11.8747
穌	-11.8747
搖動	-11.8747
良久	-11.8748
市易	-11.8749
奪三十五事	-11.875
癰疽	-11.8751
虗誑	-11.8751
歷代	-11.8753
諸王	-11.8754
而殺	-11.8754
第二文	-11.8754
怖懼	-11.8754
四字	-11.8755
東南角	-11.8755
巳盡	-11.8756
更犯重罪	-11.8756
分三品	-11.8756
有宗	-11.8758
由其默然故	-11.8758
在一面立	-11.8759
半擇迦	-11.8759
翻此	-11.8759
沙彌等	-11.8759
我為汝	-11.8761
悉令	-11.8762
遂至	-11.8763
自手捉	-11.8763
婿	-11.8764
希奇	-11.8764
當行	-11.8764
攝眾生	-11.8765
無違犯者	-11.8766
正作	-11.8767
減年	-11.8767
汝但	-11.8767
並悉	-11.8768
文可解	-11.877
並開	-11.877
日限	-11.877
七日服	-11.8771
慇重	-11.8771
疑不敢	-11.8772
內眾	-11.8773
默念	-11.8774
多所	-11.8774
相離	-11.8774
底沙	-11.8775
抄衣	-11.8775
受持讀誦	-11.8777
世尊教	-11.8778
此城	-11.878
有緣事	-11.878
共他	-11.878
即空	-11.878
在一邊	-11.8781
舍中	-11.8781
出入息	-11.8781
是名不犯	-11.8783
持用	-11.8783
常作	-11.8784
黑闇	-11.8785
殺盜等	-11.8785
與清淨	-11.8787
婆娑	-11.8788
應與作	-11.879
慈云	-11.8791
既許	-11.8791
佛後	-11.8791
但犯	-11.8791
非障	-11.8792
▁初總示	-11.8792
是可	-11.8793
止善	-11.8793
餘如文	-11.8793
僧伽今	-11.8795
力用	-11.8796
破法輪	-11.8796
三諫不捨	-11.8797
談論	-11.8798
神廟	-11.8799
皆無犯	-11.88
安鉢	-11.8801
下二明	-11.8802
據本	-11.8803
天來	-11.8803
願求	-11.8804
塔事	-11.8805
諸比丘作是念	-11.8805
二子	-11.8806
著身	-11.8806
四聖種	-11.8807
大福德	-11.8809
引文證	-11.881
一是眾生	-11.8811
奪其	-11.8811
法智	-11.8814
設使	-11.8814
受法比丘	-11.8814
禮世尊足	-11.8814
當在	-11.8816
戒竟	-11.8818
浣故衣	-11.8818
故在	-11.8819
說法時	-11.8819
未受具	-11.8821
門下	-11.8821
尚未	-11.8821
此某甲比丘尼	-11.8823
」。)	-11.8824
恣意	-11.8824
但除	-11.8825
耐	-11.8825
使得	-11.8828
八關齋	-11.8829
入僧坊	-11.883
流類	-11.883
修此	-11.883
大集經	-11.883
既能	-11.8833
章句	-11.8837
四十三	-11.8837
置地與	-11.8837
大房	-11.8837
應懺悔	-11.8838
巳出	-11.8838
一代	-11.8839
賢愚	-11.8839
夜半	-11.8839
或說	-11.8841
願心	-11.8841
旅	-11.8844
非出家	-11.8844
不防	-11.8844
蒼	-11.8845
諸佛世尊	-11.8846
不得度	-11.8846
若一一	-11.8846
法食	-11.8847
三苦	-11.8849
諸釋子	-11.885
義利	-11.885
此之二	-11.8851
亘	-11.8852
後以	-11.8854
邦	-11.8854
易見	-11.8854
行婬欲	-11.8855
獅子	-11.8855
故須聖制	-11.8856
水草	-11.8856
事在	-11.8857
別經名	-11.8858
如是見	-11.8859
嗚呼	-11.886
極微	-11.8862
謂其	-11.8862
罽	-11.8863
記中	-11.8863
阿㝹	-11.8865
屋內	-11.8866
香味	-11.8866
食飯	-11.8866
迦蘭陀	-11.8867
曷	-11.8867
寤	-11.8868
葦	-11.8869
置之	-11.887
當使	-11.8871
撰述	-11.8873
作是語者	-11.8873
娑婆訶	-11.8875
入廁	-11.8875
歛	-11.8876
斑	-11.8876
聖所	-11.8877
携	-11.8878
尚書	-11.8879
非輕	-11.888
可信優婆夷	-11.8881
沙糖	-11.8881
合明	-11.8882
僧祗云	-11.8883
威儀庠序	-11.8883
天龍八部	-11.8883
師主	-11.8884
之妙	-11.8884
無所依	-11.8884
算數	-11.8884
咸共	-11.8884
若不即死	-11.8885
反生	-11.8885
俗士	-11.8887
不可以是長養善法	-11.8889
不得向	-11.8889
意說	-11.8889
還依	-11.889
此戒因	-11.889
與物	-11.889
迦留陀夷比丘	-11.8891
非法羯磨	-11.8891
若有餘	-11.8891
和尚闍梨	-11.8893
性本	-11.8894
作單白	-11.8894
在淨地	-11.8894
即我身是	-11.8895
二尼	-11.8895
今宗	-11.8896
餅果	-11.8896
匁	-11.8896
初四句	-11.8896
逆流	-11.8898
水漂	-11.8898
信樂受持	-11.8899
白二差	-11.8899
說呪	-11.8899
過前	-11.8899
勝者	-11.8901
戒取	-11.8901
為例	-11.8901
無作戒體	-11.8901
▁初戒緣	-11.8902
事重	-11.8903
沙彌時	-11.8904
非人疑	-11.8904
壞威儀	-11.8904
上起	-11.8904
則同	-11.8905
于地	-11.8906
辨相中	-11.8906
授人	-11.8907
五觀	-11.8907
棄擲	-11.8907
多是	-11.8908
若客比丘	-11.8908
中初標	-11.8909
數多少	-11.8909
獨語	-11.891
於此城中	-11.8911
寶塔	-11.8911
覺觸	-11.8912
人報曰	-11.8914
愛語	-11.8914
九十八	-11.8915
而作是言	-11.8916
來乞	-11.8917
無遺	-11.8917
目錄	-11.8918
向暮	-11.8918
大眾部	-11.892
列釋	-11.8921
護淨	-11.8922
法儀	-11.8922
即死	-11.8922
曾嫁	-11.8922
到僧中	-11.8923
宿煑	-11.8923
樂著	-11.8924
語居士言	-11.8926
不敢食	-11.8928
性命	-11.8928
者彼云	-11.8929
相依	-11.8929
所期	-11.893
還之	-11.893
通道俗	-11.8931
開其	-11.8932
無色定	-11.8933
不移	-11.8933
大門	-11.8935
餘藥	-11.8938
所作業	-11.8938
標釋	-11.8939
能伏	-11.894
云初至	-11.894
簡濫	-11.8941
皈依	-11.8941
自立	-11.8942
心口	-11.8943
例然	-11.8943
非數	-11.8944
非逆	-11.8944
順理	-11.8945
是我世尊	-11.8945
謂離	-11.8945
喚言	-11.8946
面向	-11.8946
還到	-11.8946
坐立	-11.8947
得小罪	-11.8947
如雲	-11.8948
先釋	-11.895
貪染	-11.895
五百世	-11.8951
持戒人	-11.8951
瑜	-11.8951
甚麼	-11.8952
重衣	-11.8952
結時	-11.8954
宜須	-11.8954
入息	-11.8955
尺二寸	-11.8956
忉利	-11.8957
啞	-11.8958
唐三藏	-11.8959
上尊	-11.896
流行	-11.8961
為上座	-11.8963
二地	-11.8965
用藥	-11.8965
文同	-11.8965
感戒	-11.8967
資道	-11.897
盡也	-11.8971
難起	-11.8971
增上戒	-11.8974
非時者	-11.8974
設會	-11.8977
違諫戒	-11.8979
褻	-11.8981
十三僧殘	-11.8982
善持	-11.8982
是非者	-11.8982
便受	-11.8982
有利益	-11.8983
捨墮衣	-11.8983
十長養	-11.8984
下勸	-11.8984
九地	-11.8985
適來	-11.8985
花嚴	-11.8986
不受法比丘	-11.8986
嚫	-11.8987
攀	-11.8987
黃金	-11.8987
非難	-11.8987
緇	-11.8988
廉	-11.8989
前篇	-11.899
輕故	-11.899
收舉	-11.8991
合說	-11.8991
國之	-11.8991
訃	-11.8996
目前	-11.8998
直心	-11.8998
粗惡	-11.8999
兒子	-11.8999
是業	-11.8999
可分別	-11.9
若為他	-11.9
新受戒比丘	-11.9
持律者	-11.9
牻	-11.9001
膳	-11.9001
恡	-11.9002
稽留	-11.9003
應作是說	-11.9003
方便罪	-11.9003
若浣	-11.9004
久遠	-11.9004
知水有蟲	-11.9005
似寶	-11.9007
心息	-11.9007
壘	-11.9008
如之何	-11.9008
若放恣諸根	-11.9011
三十中	-11.9011
答彼	-11.9012
繩牀	-11.9012
亦由	-11.9012
從今已後	-11.9013
欲還	-11.9013
利樂	-11.9014
捨已	-11.9014
引禮云	-11.9015
略之	-11.9015
猶恐	-11.9015
得無漏	-11.9015
文殊師利言	-11.9015
謂心	-11.9017
髮爪	-11.9017
待我	-11.9017
優婆私	-11.9018
耶輸陀羅	-11.902
令持	-11.902
往索	-11.9021
世尊爾時	-11.9023
普度	-11.9024
無由得	-11.9025
所須之物	-11.9025
為害	-11.9027
八尺	-11.9027
汝等諦聽	-11.9028
當誦	-11.9029
諸子	-11.903
掃除	-11.903
藥病	-11.9032
三無因緣	-11.9033
外來	-11.9034
生愛	-11.9035
高床	-11.9035
佛未聽我等	-11.9036
經部	-11.9036
准十誦	-11.9039
身光	-11.9039
重加	-11.904
乃成	-11.9042
山頂	-11.9043
造像	-11.9044
於一時	-11.9047
第二云	-11.905
天道	-11.9051
至十五日	-11.9052
聽僧與	-11.9052
憶念毘尼	-11.9054
不解者	-11.9055
是時長者	-11.9055
輸稅	-11.9055
相資	-11.9055
教死	-11.9056
未曉	-11.9056
致死	-11.9057
和合羯磨	-11.9057
讚美	-11.9057
馬宿	-11.9058
歸家	-11.9059
如此等	-11.9061
差殊	-11.9063
二十眾	-11.9063
八倒	-11.9064
有蟲水	-11.9065
生像	-11.9065
難忍	-11.9066
如牛	-11.9066
請一人	-11.9066
不將	-11.9066
池邊	-11.9067
老病比丘	-11.9068
性多	-11.9068
隨他	-11.9069
道力	-11.9071
眾外	-11.9075
此日	-11.9077
食前食後	-11.9078
無乖	-11.908
宿世	-11.908
如法羯磨	-11.9082
不可見	-11.9084
雖爾	-11.9084
六相	-11.9085
罵言	-11.9085
如疏	-11.9086
今準	-11.9086
路行	-11.9086
問遮難	-11.9087
洗之	-11.9087
上色	-11.9088
有覆	-11.9091
至寺	-11.9092
僧說戒	-11.9093
總集	-11.9093
受教者	-11.9094
受利	-11.9094
數之	-11.9095
分散	-11.9096
眼目	-11.9096
便說	-11.9097
郭	-11.9097
心存	-11.9097
王勅	-11.9097
比丘𡰱	-11.9098
餘之三	-11.9098
㒵	-11.9099
經於	-11.9099
我諸弟子	-11.9101
若將	-11.9101
境強	-11.9102
不洗	-11.9102
男子女人	-11.9103
月望	-11.9104
停住	-11.9105
便共	-11.9108
浴室中	-11.9109
阿難陀曰	-11.911
盡其	-11.911
即其義也	-11.911
長五肘	-11.9112
斯義	-11.9112
說四依	-11.9112
三小界	-11.9113
更無別	-11.9113
罽賓	-11.9114
異學	-11.9114
善男子等	-11.9114
四諦法	-11.9114
寶珠	-11.9115
魅	-11.9115
諸房	-11.9116
象師	-11.9116
來替	-11.9117
及佛說	-11.9117
聚會	-11.9117
離座	-11.9117
得生天	-11.9118
估	-11.9118
綱領	-11.9119
辨者	-11.912
其聲	-11.912
緣相	-11.9121
假緣	-11.9122
企	-11.9122
路逢	-11.9123
髓	-11.9124
差使	-11.9124
若四人	-11.9124
遽	-11.9124
不放	-11.9124
兜	-11.9125
有無者	-11.9125
真常	-11.9125
應告	-11.9126
迦攝波佛	-11.9126
漉囊	-11.9126
摩訶衍	-11.9126
亦善	-11.9126
入常住	-11.9126
先行	-11.9126
釀	-11.9126
異耳	-11.9126
而滅	-11.9127
圓修	-11.9127
水中戲	-11.9128
向前	-11.9128
前生	-11.9129
紺	-11.9129
一毫	-11.913
重法	-11.913
法非法	-11.913
大天	-11.9131
庵	-11.9131
五力	-11.9132
為弟子	-11.9132
須立	-11.9134
時提婆達多	-11.9135
皮作	-11.9135
所得衣	-11.9135
臼	-11.9135
卷第八	-11.9136
諸長老比丘尼聞	-11.9137
況餘	-11.9137
無分別智	-11.9138
三尊	-11.914
段文	-11.914
隨中	-11.914
眼見耳不聞處	-11.9141
已前	-11.9141
尸叉罽賴尼	-11.9141
為比丘尼僧故	-11.9142
明慧	-11.9142
彼某甲比丘	-11.9143
六十二	-11.9144
此女人	-11.9144
治國	-11.9146
於某	-11.9146
織衣	-11.9146
擲石	-11.9146
前文有三	-11.9146
恐後	-11.9147
愁惱	-11.9147
是中量者	-11.9148
不自在	-11.9148
雙持	-11.9148
守門人	-11.9149
之殊	-11.915
同一住處同一說戒	-11.915
昨夜	-11.9151
若諸菩薩安住菩薩淨戒律儀	-11.9151
譬如有人	-11.9151
壞尼	-11.9153
並皆無犯	-11.9154
實報	-11.9158
呪師	-11.9158
雖具	-11.9161
相惱	-11.9161
▁二律下	-11.9161
中攝	-11.9163
佛讚	-11.9163
以見	-11.9164
佛便	-11.9165
忘念	-11.9165
勸他	-11.9166
恐犯	-11.9166
福智	-11.9166
諸比丘便	-11.9167
懺除	-11.9168
二道合	-11.9168
新舊	-11.917
釋氏	-11.9171
若樹	-11.9171
療治	-11.9173
生悔	-11.9173
會詳	-11.9173
佛母	-11.9174
乘之	-11.9174
為菩薩時	-11.9174
因行	-11.9175
夏末	-11.9175
常流	-11.9177
之與	-11.9178
受懺者	-11.9178
應立	-11.9178
受具戒時	-11.9178
應聽	-11.9179
足指	-11.9181
二難	-11.9181
偏執	-11.9182
作人想	-11.9183
見諸比丘	-11.9184
二見	-11.9185
同異者	-11.9186
天子言	-11.9188
異色	-11.9189
能壞	-11.9189
斷頭	-11.9189
來取	-11.919
極樂	-11.9191
應僧中	-11.9191
我曾	-11.9193
小指	-11.9194
六明	-11.9194
等罪	-11.9195
隨瞋	-11.9197
義味	-11.9197
此呪	-11.9198
所向	-11.9199
家生	-11.92
心用	-11.9201
人倫	-11.9201
成淨	-11.9202
怨對	-11.9202
一滴	-11.9204
若令	-11.9205
欲以	-11.9205
不過量	-11.9205
依經	-11.9205
行鉢	-11.9206
知友	-11.9206
於內	-11.9207
遞	-11.9208
諍事滅	-11.9208
缺戒	-11.9209
以供	-11.9209
隨生	-11.921
故壞	-11.921
漏心	-11.9211
美飲食	-11.9213
大乘法	-11.9214
敬儀	-11.9215
未及	-11.9216
避之	-11.9217
從地	-11.9218
大德僧	-11.9218
之例	-11.9219
不滿五	-11.922
有多少	-11.922
棊	-11.9221
上堂	-11.9222
有欲	-11.9223
互為	-11.9227
諸比丘問	-11.9228
婬意	-11.9229
我觀	-11.9229
並以	-11.923
牒文	-11.923
為施主	-11.9231
則顯	-11.9231
求悔	-11.9232
訛也	-11.9233
非我所	-11.9234
聞斯	-11.9234
護佛法	-11.9235
至其所	-11.9235
上岸	-11.9236
哲	-11.924
妙用	-11.924
否答	-11.924
右繞	-11.924
但依	-11.9242
能遮	-11.9243
駮	-11.9244
舟航	-11.9244
僧斷事	-11.9246
次復	-11.9246
畜眾羯磨	-11.9247
濾水	-11.9248
輻	-11.9249
悉知	-11.9249
然後得	-11.925
隨癡	-11.9252
不相違	-11.9253
慙	-11.9253
行位	-11.9254
我捨佛	-11.9254
派	-11.9254
師前	-11.9255
至八月	-11.9256
潮	-11.9257
頞	-11.9259
志心	-11.926
為妻	-11.9262
賃	-11.9262
作覆藏心	-11.9263
搩	-11.9265
趣得	-11.9266
正知	-11.9266
巳滿	-11.9267
先學	-11.9268
深厚	-11.9269
田中	-11.9269
結加趺坐	-11.927
是名悔過法	-11.927
發歡喜心	-11.927
佛舍利	-11.9271
以故作故	-11.9273
犯非威儀突吉羅	-11.9273
闥賴吒	-11.9273
並由	-11.9274
此五種	-11.9276
會採僧祗	-11.9276
即從坐起	-11.9278
行不淨	-11.9279
佛呵	-11.9279
無食	-11.9279
不殺戒	-11.9282
得輕	-11.9282
污衣	-11.9282
行惡行亦見亦聞	-11.9282
屏處三諫	-11.9283
勿為	-11.9283
按摩	-11.9283
慚恥	-11.9285
解其義	-11.9285
身著	-11.9286
▁二就下別釋	-11.9287
與眾	-11.9287
表裏	-11.9288
猛利	-11.929
譯經	-11.9292
在阿蘭若	-11.9292
曠野中	-11.9292
惡夢	-11.9295
前解	-11.9296
好人	-11.9297
知僧事	-11.9298
作禮三拜	-11.9299
未達	-11.93
令住	-11.9301
尊者舍利弗	-11.9301
未甞	-11.9304
一心奉請大	-11.9304
釋中初科	-11.9305
白衣時	-11.9306
須分	-11.9306
二十部	-11.9307
嫌疑	-11.9309
以道	-11.9309
婆羅門言	-11.9309
如鳥	-11.9309
往至佛所	-11.931
勞倦	-11.931
已辦	-11.931
僧房中	-11.9311
恭敬心	-11.9312
結云	-11.9312
治舉	-11.9313
稅物	-11.9313
當求	-11.9313
此五法	-11.9314
無所不	-11.9314
有其二	-11.9315
漂衣	-11.9315
不造	-11.9315
嬉戲	-11.9316
避去	-11.9316
彌勒菩薩	-11.9317
且列	-11.9318
云爾	-11.932
隨應	-11.932
方言	-11.932
華梵	-11.9323
自當知	-11.9323
諸佛所	-11.9324
與我作	-11.9325
其水	-11.9326
方來	-11.9327
序分	-11.9327
菩提道	-11.9328
彼間	-11.9328
本國	-11.9331
此等皆	-11.9332
眾法心念	-11.9335
皆墮	-11.9337
隨僧	-11.9337
心虗	-11.9339
四捨	-11.9339
皆稱	-11.9341
自護	-11.9342
營造	-11.9343
前約	-11.9343
集因	-11.9343
應誦	-11.9344
鉢器	-11.9347
七地	-11.935
共布薩	-11.935
自乞	-11.9352
破古	-11.9352
餘報	-11.9353
戒緣中	-11.9354
廼	-11.9355
無義	-11.9357
古師云	-11.9357
同室	-11.9358
護他	-11.9359
反成	-11.9361
辨體	-11.9361
苦受	-11.9361
諸善根	-11.9361
滿月	-11.9362
本犯戒	-11.9362
無厭足	-11.9362
五尺	-11.9363
著之	-11.9363
分限	-11.9367
一居士	-11.9367
大善	-11.9368
名非時	-11.937
至之者	-11.9371
索取	-11.9371
蔬	-11.9371
諸上座	-11.9371
魂	-11.9373
觀門	-11.9373
詢	-11.9374
波逸提耶	-11.9374
前人領解	-11.9375
娑訶	-11.9375
雲棲	-11.9376
發覺	-11.9376
褋	-11.9376
婬盜	-11.9377
覺已	-11.9377
聖戒	-11.9378
未除	-11.9378
於佛所	-11.9379
沙門果	-11.9379
銳	-11.938
分輕重	-11.938
於聲聞	-11.9381
詎	-11.9381
妓樂	-11.9382
咽喉	-11.9383
一切鬼神	-11.9383
結此戒	-11.9385
通攝	-11.9385
三昧經	-11.9385
婬事	-11.9385
兩文	-11.9386
藤	-11.9386
股	-11.9386
二十種	-11.9386
兩人	-11.9387
一宗	-11.9387
彼苾芻尼	-11.9387
色聲香味觸	-11.9388
▁二多下	-11.9391
修諸善	-11.9391
六尺	-11.9391
始於	-11.9391
紛紜	-11.9391
杭	-11.9392
奄	-11.9393
非人人想	-11.9393
解曰	-11.9393
傘	-11.9394
作塔	-11.9394
知是看是	-11.9394
貧賤	-11.9395
天龍鬼神	-11.9395
清淨行	-11.9396
㝹	-11.9397
為彰	-11.9397
斷諍	-11.9399
下正示	-11.9399
先不受自恣請	-11.9399
令法久住	-11.9399
技術	-11.9399
是開	-11.94
當墮	-11.9401
七日內	-11.9401
此戒具三緣	-11.9401
聲聞乘	-11.9402
詠	-11.9402
根種	-11.9403
刀兵	-11.9403
坐戒	-11.9404
無沙門行	-11.9405
數息	-11.9406
失念	-11.9406
量宜	-11.9407
十三條	-11.9407
謗世尊者不善	-11.9407
中文三	-11.9407
恐成	-11.9409
豈無	-11.9409
若破戒	-11.941
或復餘尼	-11.941
約位	-11.9411
能救	-11.9412
喜足	-11.9413
眾首	-11.9413
謂將	-11.9414
隨病藥	-11.9414
如結界	-11.9415
首解	-11.9415
詳明	-11.9416
見解	-11.9417
得逆罪	-11.9417
萬里	-11.9417
志求	-11.9419
聽服	-11.9419
分別者	-11.942
正也	-11.942
稱佛	-11.942
事畢	-11.942
為守護	-11.9422
眾和	-11.9422
善法戒	-11.9424
心境俱	-11.9424
布地	-11.9424
五六語	-11.9425
波旬	-11.9425
不知慚愧	-11.9427
餘國	-11.9427
三對	-11.9428
云何比丘尼	-11.9428
行步	-11.9428
勿過	-11.9429
迦多演那	-11.9431
起方便	-11.9433
良藥	-11.9436
不調	-11.9437
五緣成	-11.9437
理性	-11.9439
更不復	-11.9441
則云	-11.9441
印可	-11.9441
一尼	-11.9442
誡勸	-11.9443
善語	-11.9443
三說巳	-11.9444
春時	-11.9445
念戒	-11.9446
邪業	-11.9446
文繁	-11.9447
別眾羯磨	-11.9448
不背	-11.9449
體淨	-11.945
下一句	-11.945
加以	-11.9451
實覓	-11.9451
稱法	-11.9452
亦提	-11.9453
勝負	-11.9458
盡心	-11.9459
留一	-11.9459
形狀	-11.9461
觀身	-11.9462
受藥	-11.9462
兼制	-11.9464
消文	-11.9466
能轉	-11.9467
廣列	-11.9469
牧牛人	-11.9471
時諸居士	-11.9471
無暇	-11.9472
龍宮	-11.9473
會上	-11.9473
未圓	-11.9474
攝衣界	-11.9474
巳下至	-11.9475
妙香	-11.9479
後復	-11.9479
箭射	-11.948
弟子制其學處	-11.948
懷憂	-11.9481
我當為	-11.9481
堅實	-11.9481
猶尚	-11.9482
難提比丘	-11.9482
著糞掃衣	-11.9482
牒事	-11.9484
慳悋	-11.9489
種種因緣訶責	-11.9489
我得上人法	-11.949
弟子某甲	-11.9491
尊宿	-11.9491
三部	-11.9491
仁王	-11.9492
相易	-11.9493
文可見	-11.9495
斷之	-11.9495
乞索	-11.9495
各具	-11.9497
臆	-11.9497
入浴室	-11.9498
佛境界	-11.9499
下彰	-11.95
車馬	-11.95
今請	-11.95
還奪	-11.9502
决	-11.9503
為眾生故	-11.9503
佛告目連	-11.9503
遊方	-11.9504
(〔	-11.9504
壁上	-11.9505
不可分別	-11.9506
著中	-11.9506
斷也	-11.9507
諸仙	-11.9508
兩个	-11.9509
邀	-11.9511
滅擯羯磨	-11.9512
迦毗羅	-11.9514
藕	-11.9514
毘耶離	-11.9514
更問	-11.9515
理有	-11.9515
蕭	-11.9515
故指	-11.9516
合掌恭敬	-11.9518
得偷蘭	-11.9519
之情	-11.952
闍維	-11.9521
況今	-11.9521
說法已	-11.9521
五結罪	-11.9521
浩	-11.9522
無始以來	-11.9522
跨	-11.9522
恐其	-11.9523
八寸	-11.9524
捫摸	-11.9524
如是觀	-11.9524
大德來	-11.9524
碧	-11.9524
別受	-11.9525
千二百五十	-11.9525
一心奉供	-11.9526
若飲	-11.9526
緣異	-11.9526
近方便	-11.9527
心法	-11.9527
歡喜踊躍	-11.9527
盥	-11.9528
酷	-11.9528
衢	-11.9531
非菩薩	-11.9531
闕初緣	-11.9532
心疑	-11.9532
甚可	-11.9536
宅中	-11.9536
田園	-11.9536
蘆	-11.9536
行摩那埵竟	-11.9537
清潔	-11.9539
阿若憍陳如	-11.954
生疑問佛	-11.954
修定	-11.9541
眾和合	-11.9541
毘舍佉母	-11.9541
金剛杵	-11.9541
犯應懺突吉羅	-11.9542
趣入	-11.9542
餘皆虛妄	-11.9542
不應差	-11.9542
上中下座	-11.9543
無漏戒	-11.9543
放大光明	-11.9543
頭面禮足却坐一面	-11.9544
乞求難得	-11.9544
說婬欲	-11.9545
復觀	-11.9545
不知法	-11.9547
氈褥	-11.9547
見色	-11.9548
復念	-11.9548
𢦶	-11.9548
外道出家	-11.9549
諸尼眾	-11.9549
汲水	-11.955
下別示	-11.9552
詳審	-11.9552
掉舉	-11.9552
律主	-11.9552
小妄語	-11.9555
為根	-11.9556
告諸人曰	-11.9556
往到佛所	-11.9557
餘比丘語言	-11.9557
某等	-11.9558
全是	-11.9559
若全	-11.956
至日暮	-11.956
若僧伽婆尸沙	-11.956
藏識	-11.9561
自己	-11.9561
▁初列示	-11.9562
圓頓	-11.9563
即目	-11.9564
若眾	-11.9565
相師	-11.9565
居處	-11.9566
成別眾	-11.9567
違情	-11.9567
共男子	-11.9567
衣服飲食	-11.9568
出生死	-11.9568
汝是中盡形壽不得犯	-11.9568
義當	-11.9568
呪殺	-11.9571
時佛	-11.9572
著上	-11.9572
成宗	-11.9574
迷悟	-11.9575
結淨	-11.9575
遍觀	-11.9576
林野	-11.9576
種相	-11.9576
各持	-11.9577
業重	-11.9577
雜藏	-11.9577
百里	-11.9578
老比丘	-11.9579
威勢	-11.9579
受戒犍度	-11.958
三解脫門	-11.9582
制約	-11.9583
消除	-11.9585
下二眾	-11.9585
必由	-11.9589
非親里尼	-11.959
他解	-11.9592
甚善	-11.9595
榻	-11.9595
一頌	-11.9595
見好相	-11.9595
果人	-11.9597
之水	-11.96
行布施	-11.96
足以	-11.96
今聽	-11.9602
諸比丘欲	-11.9603
不得飲	-11.9603
二足	-11.9604
詳如	-11.9606
自居	-11.9607
宗師	-11.9608
自責	-11.9609
口和	-11.9612
若忘	-11.9613
讀誦經	-11.9614
之深	-11.9615
異此	-11.9617
比丘不知	-11.9618
發意	-11.9618
執文	-11.9619
眾物	-11.962
虗空藏	-11.962
愛護	-11.9621
不惜	-11.9624
說戒經	-11.9625
讚言	-11.9628
機教	-11.9628
遠方便	-11.9629
判為	-11.963
妄業	-11.963
即涅槃	-11.9631
舉宗	-11.9633
餘尼	-11.9634
偈言	-11.9635
大智慧	-11.9635
諸大臣	-11.9636
無慧	-11.9637
唯明	-11.9637
敦	-11.9639
律學	-11.9639
求乞	-11.9639
已然後	-11.9639
從非親	-11.9639
入出	-11.9639
牛王	-11.964
有二意	-11.964
後句	-11.9641
總成	-11.9642
分離	-11.9642
楷	-11.9643
溼	-11.9644
在路	-11.9645
在寺內	-11.9645
客苾芻	-11.9645
此二法	-11.9646
自手取食	-11.9647
葷	-11.9647
霧	-11.9648
再說	-11.9648
不可信	-11.9648
作衣竟	-11.9648
失其	-11.9648
曾為	-11.9649
善趣	-11.9649
可去	-11.9649
五大色	-11.9649
不偷盜	-11.965
隨怖	-11.9651
結縛	-11.9651
梵名	-11.9651
異語	-11.9652
隸	-11.9652
然雖	-11.9653
萌	-11.9654
禽	-11.9654
聞磬聲	-11.9654
先示	-11.9655
蘭若處	-11.9656
小床	-11.9657
氍氀	-11.9657
安居處	-11.9658
京兆	-11.9659
姨母	-11.9659
疋	-11.966
祠祀	-11.9662
二明應	-11.9662
加一	-11.9662
授我	-11.9663
斷惡修善	-11.9663
技	-11.9664
洗身	-11.9664
此屬	-11.9665
七樹	-11.9667
上某下某	-11.9667
既了	-11.9667
取相	-11.9668
今家	-11.9668
緯	-11.9668
諸惡莫作	-11.967
堤	-11.967
熙	-11.967
取已	-11.9671
無二無別	-11.9672
未制戒	-11.9673
佛以此緣	-11.9673
之異名	-11.9675
仙道	-11.9675
浣染擘	-11.9676
孝順父母	-11.9676
諷經	-11.9676
正心	-11.9677
所治	-11.9677
命終之後	-11.9677
牛驢	-11.9678
如是何有正法	-11.9679
一殘	-11.9679
版	-11.9679
兮	-11.968
非法說法	-11.968
飢饉	-11.968
殊妙	-11.9681
陸地	-11.9681
多犯眾罪	-11.9681
財體	-11.9681
蒲闍尼	-11.9682
次第坐	-11.9682
總釋	-11.9682
界分	-11.9683
並犯	-11.9683
越學法	-11.9683
必約	-11.9684
為犯境	-11.9684
統收	-11.9685
娉	-11.9686
一村	-11.9686
業果	-11.9686
非法和合眾	-11.9687
軌範師	-11.9687
法得久住	-11.9687
捨之而去	-11.9687
中分三	-11.9687
佛說如是	-11.9688
錯亂	-11.9689
取分	-11.969
因緣生	-11.9691
共相問訊	-11.9691
三月十六日	-11.9691
持此戒	-11.9691
舉數	-11.9691
作是念言	-11.9692
其時	-11.9693
重來	-11.9696
入聚落乞食	-11.9698
地神	-11.9698
借衣	-11.9698
舉眾	-11.9698
澡漱	-11.9699
論曰	-11.9699
巳下明	-11.97
第二第三亦如是說	-11.97
罪輕重	-11.97
汝既	-11.9702
誥	-11.9703
理智	-11.9703
順情	-11.9703
梵行者	-11.9704
彼諸比丘	-11.9704
有十一	-11.9705
然諸	-11.9707
有染	-11.9707
階位	-11.9709
可捨	-11.9709
奈何	-11.971
七方便	-11.9711
前句	-11.9711
三斗	-11.9712
惡色	-11.9712
午後	-11.9716
燒身	-11.9717
爾時佛告諸比丘	-11.9718
放光明	-11.9718
謗戒	-11.9719
凡諸	-11.972
願樂	-11.972
增其	-11.9722
二突吉羅	-11.9723
上下衣	-11.9725
不壞信	-11.9726
五綴	-11.9727
意同	-11.9727
似有	-11.9727
各有所	-11.9728
等處	-11.9728
幡蓋	-11.9728
諸魔	-11.973
飛行	-11.973
能護	-11.9731
並據	-11.9734
屬己	-11.9735
為結戒	-11.9736
後成	-11.9736
未作淨	-11.9736
自看	-11.9736
三科	-11.9737
更生	-11.9737
見過	-11.9738
求受具足戒	-11.9738
此諍事	-11.9739
生在	-11.9739
有為法	-11.9739
成功	-11.974
過五錢	-11.9741
俱波逸提	-11.9741
告僧	-11.9741
覆屋	-11.9742
但名	-11.9742
之制	-11.9743
召請	-11.9743
若一切	-11.9744
十七眾	-11.9744
二丈	-11.9746
所誦	-11.9746
下牒釋	-11.9746
向者	-11.9748
學知	-11.9749
行惡	-11.9749
出家修道	-11.9752
盜五錢	-11.9752
動搖	-11.9753
二表	-11.9753
如何得	-11.9754
之眾	-11.9754
由此因緣	-11.9755
四魔	-11.9756
或四五	-11.9756
夫言	-11.9757
彼土	-11.9758
祇園	-11.9759
案上	-11.976
自盜	-11.9761
三宗	-11.9761
大本	-11.9762
犯逆	-11.9762
百八	-11.9763
應化	-11.9764
所望	-11.9765
堯	-11.9767
中衣	-11.977
反戒	-11.977
因起	-11.9772
辨異	-11.9773
六十三	-11.9774
第二十一	-11.9774
五百歲	-11.9775
起大	-11.9776
爾時世尊為	-11.9776
誇	-11.9776
親自	-11.9777
相稱	-11.9778
慎莫	-11.9778
異事	-11.9778
薄福	-11.9778
乘乘	-11.9779
雜集	-11.9779
自高	-11.9779
於佛前	-11.9779
不須說淨	-11.9781
有幾種	-11.9781
調順	-11.9782
憶知	-11.9782
通解	-11.9783
不亡	-11.9785
歸三寶	-11.9786
播	-11.9786
十三難人	-11.9786
三字	-11.9788
四弘	-11.9788
莎	-11.9789
相罵	-11.979
犯偷蘭遮	-11.979
長劫	-11.9792
纖	-11.9792
同說	-11.9793
交絡	-11.9796
慊	-11.9797
至暮	-11.9798
作沙門	-11.9798
而忘	-11.9798
有異住處	-11.9799
萬二千	-11.98
具在	-11.98
眼藥	-11.9801
糜	-11.9801
蒱	-11.9802
毗舍佉母	-11.9802
僧住	-11.9803
囊盛	-11.9803
怕	-11.9803
忙	-11.9804
癬	-11.9804
悉達	-11.9804
文殊問經	-11.9805
薄伽梵	-11.9805
補治	-11.9805
錐	-11.9805
生希有	-11.9806
光潔	-11.9807
九十六種	-11.9808
自責汝心	-11.9809
六欲天	-11.981
天竺國	-11.9811
江南	-11.9812
於俗	-11.9812
五濁	-11.9812
生人中	-11.9812
猪狗	-11.9812
佉陀尼	-11.9813
可來	-11.9813
必兼	-11.9813
僧差某甲比丘	-11.9814
經久	-11.9815
闥利吒比丘能滅諍	-11.9815
闥利吒比丘不能滅諍	-11.9816
輕慢佛語	-11.9816
授事人	-11.9817
斷善根	-11.9817
釋罪相等	-11.9817
有乖	-11.9818
光澤	-11.9819
如來至真等正覺	-11.982
啟請	-11.9821
若比丘知是物向	-11.9821
詣王	-11.9821
舍婆提	-11.9821
孝子	-11.9822
大姓	-11.9823
指授處所	-11.9824
移夏	-11.9824
加之	-11.9825
故多論云	-11.9826
難問	-11.9826
按此戒	-11.9827
若大臣	-11.9828
高廣	-11.9828
道共	-11.9832
摩夷	-11.9833
進否	-11.9833
門屋	-11.9836
▁人	-11.9836
殺眾生	-11.9836
授之	-11.9837
四十八輕	-11.9837
日更得	-11.9838
迎食	-11.9838
外物	-11.9839
取他物	-11.984
非他	-11.9841
無罪者	-11.9841
殺彼	-11.9841
▁初正示	-11.9842
乏少	-11.9844
設供養	-11.9845
決判	-11.9845
辦具	-11.9846
三度	-11.9846
不得捉	-11.9847
廣狹	-11.985
方坐	-11.9853
亦不須	-11.9854
證菩提	-11.9856
結提	-11.9857
大部	-11.9858
令食	-11.9859
列之	-11.9859
此之三	-11.9862
青衣	-11.9862
不應輒	-11.9863
益食	-11.9863
冥然	-11.9863
同一界	-11.9865
同梵行	-11.9866
依聚落	-11.9866
施福	-11.9866
計理	-11.9866
瓦器	-11.9866
為俗	-11.9869
引此文	-11.987
半分	-11.9871
諸長老比丘	-11.9873
假宗	-11.9876
斷結	-11.9877
受殘食法	-11.9878
生是念	-11.9878
見根	-11.9879
上約	-11.9882
共要	-11.9882
入捨	-11.9883
王女	-11.9884
行解	-11.9884
薩羅	-11.9884
彼因	-11.9885
書記	-11.9888
善思	-11.9889
餘家	-11.989
穢惡	-11.989
求戒	-11.9891
爾時阿難	-11.9893
知他比丘	-11.9893
遣使往	-11.9895
勝光王	-11.9896
謙下	-11.9897
二鉢	-11.9898
老人	-11.9899
與說法	-11.9899
復往	-11.99
今多	-11.99
不相似	-11.99
盜僧物	-11.9901
成敗	-11.9901
不作法	-11.9903
我倒	-11.9904
依處	-11.9904
師弟	-11.9904
無自性	-11.9904
繫閉	-11.9904
加害	-11.9904
以何因緣	-11.9906
其果	-11.9906
眼等	-11.9907
品類	-11.9907
得處所	-11.9909
互舉	-11.991
有無作	-11.991
先不知	-11.9911
籤	-11.9911
法華經	-11.9912
汝何以	-11.9913
諸佛子等	-11.9918
不同前	-11.9918
方便救護	-11.9921
一禮	-11.9922
不失衣界	-11.9922
帀	-11.9922
不敘	-11.9922
得病	-11.9923
不慎	-11.9923
外現	-11.9924
貝齒	-11.9925
如瑜伽	-11.9927
叫	-11.9927
大德憶念	-11.9927
教理	-11.9927
三寶事	-11.9928
村內	-11.9929
卑下	-11.9931
是女人	-11.9931
泰	-11.9931
和白	-11.9931
所可	-11.9932
與俗人	-11.9932
虗通	-11.9932
王告	-11.9932
與大僧	-11.9933
義判	-11.9934
忤	-11.9935
綠	-11.9935
三自歸	-11.9935
大指	-11.9935
超過	-11.9936
奮	-11.9937
報佛恩	-11.9937
若遇	-11.9937
復重	-11.9938
語聲	-11.9939
慧照	-11.9939
傲	-11.994
入室坐	-11.994
弘始	-11.994
閻	-11.9942
台	-11.9943
一毛	-11.9943
呵責六群比丘尼	-11.9943
尠	-11.9943
漲	-11.9944
一體三寶	-11.9944
舍利弗問經	-11.9945
修成	-11.9945
而畜	-11.9945
結文	-11.9945
不委	-11.9945
卿等	-11.9945
火所燒	-11.9946
限量	-11.9947
宛轉	-11.9948
挫	-11.9948
磔	-11.9949
私用	-11.9949
佛在舍衛國給孤獨園	-11.995
堀	-11.995
失儀	-11.995
律開	-11.9951
舊比丘來	-11.9951
前家	-11.9952
我依大德故	-11.9952
頭首	-11.9952
漫心	-11.9953
未受具戒者	-11.9953
要見好相	-11.9954
褰衣	-11.9954
與上座	-11.9954
不攝耳	-11.9955
有二初	-11.9956
頭面禮足却住一面	-11.9956
中有少欲知足	-11.9957
作新坐具	-11.9957
得無量	-11.9957
定罪	-11.9958
禮一拜	-11.9959
君父	-11.996
惡聲流布	-11.996
明行足	-11.9961
某甲為鄔波馱耶	-11.9961
聖開	-11.9963
居士見	-11.9964
律無	-11.9964
調適	-11.9964
束為	-11.9964
擇滅	-11.9964
汝愚癡人	-11.9965
自意	-11.9965
共相覆罪	-11.9966
閻羅王	-11.9966
知而故	-11.9967
壞僧	-11.9968
問其故	-11.9968
至地了時	-11.9972
若重	-11.9972
佛告舍利弗	-11.9973
多財	-11.9973
摧伏	-11.9974
度令出家	-11.9974
五戒十戒	-11.9975
未嘗	-11.9975
鬚髮	-11.9975
必使	-11.9976
│	-11.9977
慶喜	-11.9978
此依	-11.9978
銅器	-11.9979
穢污	-11.9979
以天眼	-11.998
在其中	-11.9981
當有	-11.9982
聞其	-11.9982
所計	-11.9982
沙門釋子自言	-11.9983
有多勢分	-11.9983
不名受具足	-11.9983
知數	-11.9983
或將	-11.9984
持蓋	-11.9984
親見	-11.9984
若干日	-11.9985
觀慧	-11.9986
自下第二	-11.9986
年不滿	-11.9986
分部	-11.9987
▁二一下	-11.9987
翻經	-11.9987
▁初敘意	-11.9988
隨物	-11.9989
▁初列緣	-11.9989
告清淨	-11.9992
文有三	-11.9992
來至佛所	-11.9994
之財	-11.9994
結夏	-11.9996
張衣	-11.9996
初總示	-11.9996
人男	-11.9997
明持犯	-11.9998
若不如法	-11.9998
十使	-11.9998
行婬欲法	-12
害佛	-12.0001
親里尼	-12.0002
意取	-12.0003
使令	-12.0004
皆歸	-12.0007
入道之	-12.0008
得意	-12.0009
求請	-12.001
色法	-12.001
便用	-12.001
亦有三	-12.0011
苦哉	-12.0012
又三初	-12.0012
自樂	-12.0013
自此	-12.0014
若不依	-12.0014
於三界	-12.0017
佛記	-12.0017
而作是念	-12.0018
二十八人	-12.0018
續入	-12.0018
▁初釋文	-12.0019
其唯	-12.0021
善戒經	-12.0023
攝生戒	-12.0025
求雨浴衣	-12.0025
終成	-12.0027
過則	-12.0027
有福	-12.0028
給侍	-12.0029
望得	-12.003
阿彌陀佛	-12.003
依止弟子	-12.003
即去	-12.003
滅去	-12.0031
諸佛法	-12.0031
長廣	-12.0033
衣主	-12.0034
白骨	-12.0034
攝盡	-12.0036
知量	-12.0038
有四事	-12.0039
隨意取	-12.0039
八十四	-12.0041
極至	-12.0042
手捧	-12.0042
無愛	-12.0042
街	-12.0042
簾	-12.0048
醫言	-12.0048
實義	-12.0051
禪戒	-12.0052
鄔陀夷苾芻	-12.0053
除糞	-12.0054
晡	-12.0054
但據	-12.0055
飲酒者	-12.0058
唇	-12.0059
為婦	-12.0061
尚云	-12.0061
塊	-12.0063
問六群比丘	-12.0063
餘句	-12.0065
止心	-12.0065
塗拭	-12.0066
方便者	-12.0066
但自	-12.0066
復問言	-12.0067
造境	-12.0067
箸	-12.0068
自為巳	-12.0068
亮	-12.0068
之基	-12.007
文勢	-12.0071
披衣	-12.0072
過日	-12.0073
絛	-12.0074
七十五	-12.0076
同道行	-12.0076
銖	-12.0077
禱	-12.0077
皂	-12.0079
且住	-12.008
長老憶念	-12.0081
蒸	-12.0081
岐	-12.0082
如意珠	-12.0082
望僧	-12.0083
往僧中	-12.0083
求哀懺悔	-12.0083
中初釋	-12.0084
疲倦	-12.0085
雜事云	-12.0086
[...]
