<unk>	0
<s>	0
</s>	0
之	-4.21256
以	-4.92315
為	-5.01348
/	-5.01811
有	-5.09657
而	-5.10182
也	-5.12661
(	-5.17666
曰	-5.25554
)	-5.25772
者	-5.28694
其	-5.32745
人	-5.43298
於	-5.43364
一	-5.59865
不	-5.63431
至	-5.71687
中	-5.78978
自	-5.81035
時	-5.85198
出	-5.8607
與	-5.86377
王	-5.88822
乃	-5.89246
子	-5.91349
上	-5.91625
大	-5.9198
云	-5.9327
公	-5.95522
見	-6.00664
無	-6.0522
所	-6.07043
皆	-6.09668
則	-6.11213
言	-6.14086
如	-6.1438
在	-6.14568
)(	-6.15613
後	-6.16849
行	-6.19224
又	-6.20095
事	-6.20473
亦	-6.21937
此	-6.22322
得	-6.22681
生	-6.24471
及	-6.25117
矣	-6.27728
即	-6.28527
遂	-6.30184
作	-6.33111
山	-6.3624
下	-6.36607
因	-6.36651
書	-6.3774
令	-6.37999
爲	-6.40414
于	-6.4131
名	-6.42053
三	-6.4459
李	-6.45299
道	-6.45406
入	-6.47529
相	-6.47567
使	-6.48138
方	-6.48676
然	-6.50007
官	-6.50057
是	-6.50782
日	-6.52362
故	-6.52461
▁	-6.53335
來	-6.53724
知	-6.54965
今	-6.55107
文	-6.55456
張	-6.56151
多	-6.56833
水	-6.57663
將	-6.57913
當	-6.58183
已	-6.58654
家	-6.58672
謂	-6.59896
去	-6.60634
可	-6.60979
二	-6.62135
復	-6.63407
天	-6.64439
君	-6.65022
欲	-6.66619
命	-6.68753
字	-6.69552
若	-6.69703
前	-6.72161
常	-6.7461
歸	-6.74744
聞	-6.74768
非	-6.75547
石	-6.75752
用	-6.77006
焉	-6.77115
長	-6.77664
問	-6.78736
耳	-6.7963
取	-6.80615
州	-6.81543
白	-6.81588
何	-6.82366
我	-6.82518
初	-6.82739
從	-6.8378
明	-6.84196
門	-6.85175
死	-6.87403
居	-6.87714
成	-6.88029
甚	-6.88311
同	-6.89652
或	-6.90009
馬	-6.90131
金	-6.91261
正	-6.91501
未	-6.91782
元	-6.93115
且	-6.93283
神	-6.94464
既	-6.94782
乎	-6.95564
小	-6.95616
唐	-6.95956
心	-6.96086
請	-6.96469
臣	-6.97679
數	-6.97742
食	-6.97971
劉	-6.98013
間	-6.98206
國	-6.983
語	-6.98708
能	-6.99306
吾	-7.00536
必	-7.0166
盡	-7.01782
女	-7.02025
經	-7.02034
過	-7.02419
雖	-7.03566
坐	-7.04241
髙	-7.05098
先	-7.06129
陳	-7.06683
立	-7.06918
本	-7.07236
重	-7.07601
嘗	-7.08679
四	-7.09511
五	-7.10784
善	-7.11533
地	-7.12396
安	-7.12492
風	-7.13217
處	-7.14044
法	-7.14307
身	-7.14376
南	-7.14718
帝	-7.152
起	-7.15806
求	-7.15949
少	-7.16177
年	-7.16603
意	-7.16694
清	-7.1697
師	-7.17521
詩	-7.1809
還	-7.1833
諸	-7.19382
平	-7.21061
龍	-7.22783
玉	-7.2283
周	-7.23185
僧	-7.23971
不可	-7.2417
世	-7.248
深	-7.24899
西	-7.25432
始	-7.2572
傳	-7.27094
通	-7.27221
物	-7.27597
兩	-7.27851
民	-7.28179
舉	-7.28204
酒	-7.28312
等	-7.28953
東	-7.29172
好	-7.29449
黄	-7.29651
頭	-7.29724
異	-7.30698
便	-7.3126
但	-7.31291
朝	-7.31693
合	-7.32242
兵	-7.32259
内	-7.33006
夜	-7.33009
忽	-7.33519
老	-7.33678
花	-7.33816
父	-7.34035
發	-7.3422
衣	-7.34248
氏	-7.34277
客	-7.34345
聲	-7.34387
禮	-7.34404
以為	-7.35071
木	-7.3544
進	-7.35531
直	-7.35768
稱	-7.35781
思	-7.35949
記	-7.36112
光	-7.3699
每	-7.37171
氣	-7.37672
主	-7.38048
城	-7.38166
卒	-7.3821
實	-7.38245
學	-7.38543
汝	-7.3919
爾	-7.39439
外	-7.39595
士	-7.39759
不能	-7.40004
獨	-7.40383
守	-7.40573
應	-7.40612
召	-7.40724
真	-7.41272
往	-7.41464
觀	-7.41464
開	-7.41675
錢	-7.41688
果	-7.41779
拜	-7.41931
古	-7.4275
縣	-7.43091
㑹	-7.4343
陽	-7.43472
北	-7.44175
惟	-7.45267
宋	-7.46009
逺	-7.4602
許	-7.46659
服	-7.4728
某	-7.47392
雲	-7.4807
母	-7.48087
義	-7.48142
定	-7.48428
首	-7.48636
任	-7.48991
府	-7.49013
尚	-7.4906
卿	-7.49347
青	-7.49686
軍	-7.5011
更	-7.50143
吏	-7.50584
别	-7.50739
色	-7.5082
分	-7.50972
親	-7.51193
樂	-7.51456
謝	-7.51754
對	-7.51902
衆	-7.5218
凡	-7.52415
九	-7.52734
遇	-7.53029
楊	-7.53077
魚	-7.53473
夫	-7.53786
新	-7.53791
奏	-7.54012
流	-7.54298
徳	-7.5453
引	-7.54556
和	-7.5479
近	-7.5488
望	-7.55115
草	-7.55245
路	-7.55537
火	-7.5577
天下	-7.56302
漢	-7.56524
致	-7.56985
如此	-7.57507
目	-7.57593
素	-7.57706
論	-7.57827
/)	-7.57881
具	-7.5793
耶	-7.58341
趙	-7.58345
信	-7.5848
猶	-7.58631
就	-7.59271
受	-7.59348
失	-7.59654
六	-7.60022
妻	-7.60092
止	-7.60347
視	-7.60486
一日	-7.60536
置	-7.6087
月	-7.60913
易	-7.61058
解	-7.61161
持	-7.61273
廣	-7.61698
寺	-7.61907
著	-7.61909
理	-7.62124
宗	-7.62516
絶	-7.63318
口	-7.63439
華	-7.63503
向	-7.64253
賜	-7.64529
次	-7.6464
春	-7.64766
江	-7.64981
奉	-7.64983
集	-7.65033
病	-7.65107
志	-7.65231
都	-7.65328
節	-7.65705
呼	-7.65856
封	-7.65867
郡	-7.66728
孫	-7.67084
宜	-7.67421
載	-7.67774
百	-7.67861
似	-7.68327
手	-7.68532
兒	-7.68651
極	-7.68825
隨	-7.68906
夢	-7.68966
告	-7.6915
力	-7.6921
難	-7.69225
音	-7.69329
録	-7.69352
舊	-7.69374
聖	-7.69863
史	-7.70022
不得	-7.70135
留	-7.70237
武	-7.70364
送	-7.70524
十	-7.7066
海	-7.70679
各	-7.71039
疾	-7.7114
宫	-7.71144
俱	-7.71331
章	-7.71657
並	-7.72126
飲	-7.72261
足	-7.72424
飛	-7.725
鬼	-7.72607
度	-7.72742
辭	-7.73213
登	-7.7326
唯	-7.73534
鄭	-7.73751
殺	-7.74396
伯	-7.74433
遊	-7.7508
顧	-7.75137
朱	-7.75255
除	-7.75439
胡	-7.75471
悉	-7.76025
景	-7.76115
𤣥	-7.76855
終	-7.77391
林	-7.77395
試	-7.77488
治	-7.77621
畫	-7.77775
才	-7.78063
益	-7.78075
共	-7.78335
修	-7.78361
詔	-7.78404
指	-7.78434
崔	-7.78634
喜	-7.78703
貴	-7.78774
八	-7.79071
虎	-7.7914
仙	-7.7922
香	-7.79227
萬	-7.79366
七	-7.79688
牛	-7.79699
卷	-7.80166
司	-7.80261
徐	-7.80599
土	-7.80603
到	-7.8076
興	-7.81027
豈	-7.8112
曰此	-7.81207
先生	-7.81244
堂	-7.81265
靈	-7.81275
被	-7.81519
性	-7.8153
遣	-7.81826
號	-7.81866
余	-7.81912
固	-7.82077
餘	-7.82307
晉	-7.82514
幸	-7.82873
頗	-7.82889
賊	-7.83088
仲	-7.83207
德	-7.83731
樹	-7.83732
梁	-7.83752
不知	-7.84125
賢	-7.85088
哉	-7.85502
適	-7.85902
院	-7.85976
来	-7.86037
田	-7.86104
授	-7.86146
美	-7.867
於是	-7.87083
盛	-7.87202
臺	-7.87373
加	-7.8741
報	-7.87475
恐	-7.87588
蓋	-7.8801
祖	-7.88089
藥	-7.88362
殿	-7.88722
空	-7.8879
不敢	-7.88904
臨	-7.8916
吳	-7.89683
厚	-7.89751
詣	-7.89969
議	-7.90028
齊	-7.90659
制	-7.90778
寳	-7.90937
尋	-7.91029
車	-7.9132
高	-7.91644
執	-7.91837
雨	-7.92176
注	-7.92336
盖	-7.92475
位	-7.9248
韓	-7.92776
河	-7.9284
亡	-7.93063
宣	-7.93174
説	-7.93505
曰吾	-7.93803
面	-7.94112
郎	-7.94338
遺	-7.94398
改	-7.94463
降	-7.94739
仁	-7.9477
精	-7.94882
教	-7.95092
叔	-7.9543
由	-7.9544
葉	-7.95485
宅	-7.95602
嵗	-7.95743
造	-7.95826
羣	-7.96307
而去	-7.96441
苦	-7.96472
左右	-7.96748
比	-7.96821
敬	-7.97459
動	-7.9756
魏	-7.98041
形	-7.98495
落	-7.98519
廟	-7.98781
秦	-7.98848
容	-7.98985
鳥	-7.99196
說	-7.99213
交	-7.99281
願	-7.996
婦	-7.99659
備	-7.99837
識	-7.99874
再	-8.00322
竹	-8.00527
乞	-8.0062
反	-8.00831
省	-8.00992
情	-8.01136
謂之	-8.01434
亂	-8.01442
器	-8.01548
夫人	-8.01695
闕	-8.02046
疑	-8.02411
怒	-8.02456
放	-8.02466
室	-8.02553
列	-8.02653
要	-8.02886
賦	-8.03068
體	-8.03368
表	-8.0359
姓	-8.03732
獻	-8.04176
計	-8.04229
輕	-8.04455
伏	-8.04473
化	-8.04501
久	-8.04526
承	-8.04627
設	-8.04639
圖	-8.04767
夏	-8.04782
特	-8.05222
屬	-8.05548
蛇	-8.05576
蜀	-8.05718
赤	-8.06137
詞	-8.06142
陵	-8.06151
筆	-8.06403
代	-8.06495
惡	-8.06537
宿	-8.06557
驚	-8.06796
連	-8.0697
竒	-8.07212
投	-8.07216
左	-8.07246
延	-8.07302
太	-8.07313
狀	-8.07362
須	-8.07411
誠	-8.0742
葢	-8.0745
韋	-8.07838
全	-8.08062
舍	-8.08083
業	-8.08126
隂	-8.08607
嚴	-8.08817
半	-8.08859
御	-8.09062
滿	-8.09187
莫	-8.09195
破	-8.09254
散	-8.0948
政	-8.09777
勝	-8.10124
忠	-8.10761
秋	-8.10902
曹	-8.11028
遷	-8.11241
急	-8.11244
濟	-8.11312
端	-8.11629
怪	-8.11654
朝廷	-8.11847
尤	-8.12392
建	-8.12496
鎮	-8.12558
念	-8.13589
兼	-8.13626
利	-8.14327
歌	-8.14509
里	-8.14585
蘇	-8.14683
盧	-8.14684
羅	-8.14748
却	-8.14748
杜	-8.14816
陸	-8.14993
他	-8.15108
畢	-8.15221
福	-8.15356
覺	-8.15378
符	-8.15786
恩	-8.15828
約	-8.15922
變	-8.16006
追	-8.16086
俗	-8.16463
罷	-8.16665
良	-8.16855
獲	-8.17086
微	-8.1721
負	-8.17364
轉	-8.17423
崇	-8.17442
曲	-8.17627
有一	-8.1765
寒	-8.17878
簡	-8.17904
亭	-8.18041
昔	-8.18161
佛	-8.18188
燕	-8.18276
謁	-8.18381
題	-8.18508
罪	-8.18624
尚書	-8.19099
予	-8.19335
昭	-8.20197
索	-8.20287
權	-8.20559
竟	-8.21252
而已	-8.21259
舟	-8.21273
僕	-8.21275
丹	-8.21323
右	-8.21414
推	-8.21525
遽	-8.21876
走	-8.22045
收	-8.22341
珠	-8.22538
郭	-8.22639
退	-8.22768
齋	-8.22781
船	-8.22843
愈	-8.22847
曾	-8.22929
布	-8.23017
紅	-8.23167
笑	-8.23205
野	-8.23346
薦	-8.23689
斷	-8.23855
孝	-8.24277
甲	-8.24304
達	-8.24455
毎	-8.2456
侯	-8.24572
移	-8.24874
道士	-8.24892
懼	-8.24918
屋	-8.25345
懐	-8.254
醉	-8.25808
泉	-8.26136
千	-8.26146
功	-8.26161
郭曰	-8.26415
池	-8.26469
曽	-8.26519
敗	-8.26688
羊	-8.26825
待	-8.27232
咸	-8.27407
休	-8.28053
丞相	-8.28064
典	-8.281
愛	-8.28133
率	-8.28253
徃	-8.28287
骨	-8.28351
之後	-8.2844
冠	-8.28535
私	-8.28593
納	-8.28769
輒	-8.28884
二人	-8.28998
積	-8.29072
中有	-8.29269
藏	-8.29318
仍	-8.29323
沈	-8.29377
末	-8.29493
彦	-8.29653
偶	-8.29742
天子	-8.29967
紀	-8.30064
彼	-8.30071
曰我	-8.30354
一人	-8.3041
宰相	-8.30488
帥	-8.30548
謀	-8.30808
弟	-8.30814
皇	-8.30983
邊	-8.31168
紫	-8.31175
工	-8.31302
角	-8.31406
稍	-8.317
温	-8.31802
市	-8.31827
裴	-8.31938
感	-8.31964
期	-8.32048
季	-8.32219
房	-8.3234
職	-8.32431
迎	-8.32569
戒	-8.3286
養	-8.33173
儀	-8.33189
其事	-8.33302
按	-8.33335
其人	-8.33357
第	-8.33397
肉	-8.3342
回	-8.33426
充	-8.33472
歲	-8.33516
虚	-8.33629
雪	-8.33851
明日	-8.33929
存	-8.33986
賞	-8.34037
慶	-8.34126
讀	-8.34203
累	-8.34215
尾	-8.34263
選	-8.3427
否	-8.34476
結	-8.3449
薄	-8.34526
毛	-8.34534
𩔖	-8.34816
席	-8.34909
樓	-8.34972
鳴	-8.34991
乗	-8.35302
寧	-8.35318
所謂	-8.3545
禁	-8.3559
贈	-8.36003
兄	-8.3617
永	-8.36443
宻	-8.36764
榮	-8.36924
英	-8.36984
免	-8.37017
案	-8.37122
三年	-8.37148
可以	-8.37174
憂	-8.3739
二年	-8.37408
翁	-8.37419
楚	-8.37563
京	-8.3791
窮	-8.37975
所以	-8.38019
原	-8.38072
邪	-8.38276
庭	-8.38571
堅	-8.38988
訪	-8.38996
奴	-8.3902
折	-8.39335
廢	-8.39643
徒	-8.39647
幾	-8.39754
談	-8.3978
越	-8.3982
部	-8.39977
切	-8.40042
雜	-8.40065
考	-8.40086
責	-8.40291
侍	-8.40383
調	-8.40391
傷	-8.40576
離	-8.40636
閣	-8.40756
宴	-8.40773
其家	-8.40956
不復	-8.41008
并	-8.41066
籍	-8.411
誤	-8.41112
顯	-8.41142
殊	-8.41297
太宗	-8.41336
依	-8.41482
保	-8.41492
既而	-8.4183
人也	-8.41856
巳	-8.42161
夀	-8.42161
戲	-8.42556
游	-8.42713
陛下	-8.42968
監	-8.43082
垂	-8.43434
后	-8.43699
松	-8.43734
施	-8.43828
斯	-8.4404
𨼆	-8.44346
鄉	-8.44486
寶	-8.44507
照	-8.44571
赴	-8.44819
害	-8.45103
寄	-8.4524
婦人	-8.45443
雅	-8.45574
細	-8.45614
吉	-8.45689
差	-8.45699
恨	-8.45755
刻	-8.4586
歳	-8.46031
孟	-8.46119
其後	-8.4622
聞之	-8.46438
種	-8.4655
歴	-8.46579
秀	-8.46649
澤	-8.46708
竊	-8.46746
不見	-8.4701
康	-8.47017
息	-8.4704
未嘗	-8.4707
血	-8.47415
看	-8.47446
蔡	-8.47543
阿	-8.47797
杖	-8.47927
進士	-8.48135
質	-8.482
𫝊	-8.4823
戰	-8.48298
數日	-8.48367
升	-8.48442
擊	-8.48523
湯	-8.48714
威	-8.48764
而不	-8.48879
候	-8.48917
井	-8.4894
友	-8.48992
見之	-8.49109
川	-8.49159
象	-8.49177
扵	-8.49274
妾	-8.49306
范	-8.49532
最	-8.49804
祠	-8.49964
資	-8.50023
吕	-8.50255
帶	-8.50277
騎	-8.50305
逸	-8.50333
早	-8.50411
附	-8.50427
假	-8.50454
漸	-8.50615
昌	-8.50702
繼	-8.50756
領	-8.50806
溪	-8.5086
賈	-8.5104
妙	-8.5109
恭	-8.51349
婢	-8.51485
務	-8.51622
衛	-8.51814
今日	-8.51868
烏	-8.52036
有人	-8.52048
姑	-8.52139
勿	-8.52415
壁	-8.52546
家人	-8.52554
星	-8.52797
嘉	-8.52865
逐	-8.5311
滅	-8.532
視之	-8.5331
乆	-8.53341
釋	-8.53437
術	-8.5345
犬	-8.53466
園	-8.53941
隱	-8.53963
丘	-8.54011
尊	-8.54032
之事	-8.54134
營	-8.54163
當時	-8.54297
背	-8.54307
申	-8.54395
棄	-8.54468
博	-8.5453
薛	-8.54575
像	-8.54601
任臣案	-8.54701
勢	-8.54714
商	-8.54721
將軍	-8.54825
聽	-8.55239
印	-8.55426
智	-8.5574
犯	-8.55779
接	-8.55798
禍	-8.55811
患	-8.56033
避	-8.56168
枝	-8.56206
京師	-8.5653
紙	-8.566
程	-8.5663
篇	-8.5665
刀	-8.56694
錄	-8.56748
獄	-8.56802
館	-8.56845
運	-8.56993
覆	-8.57018
蕭	-8.57074
浮	-8.57142
洞	-8.57147
哀	-8.57226
丁	-8.5729
買	-8.57451
曰某	-8.57644
聚	-8.5784
州刺史	-8.57914
其子	-8.57949
只	-8.57953
邑	-8.58057
乘	-8.58175
據	-8.58511
谷	-8.58676
露	-8.58987
孔	-8.5912
龜	-8.59177
步	-8.5942
序	-8.59545
碑	-8.59569
幽	-8.5964
孤	-8.59738
雄	-8.59811
啓	-8.59852
族	-8.59916
管	-8.60142
與之	-8.60342
機	-8.60447
數十	-8.60478
太祖	-8.60623
俊	-8.60704
述	-8.60722
沙	-8.60726
巨	-8.60755
太守	-8.61061
村	-8.6108
墓	-8.61146
銀	-8.61269
刺	-8.61664
名曰	-8.61755
住	-8.61785
葬	-8.61834
獸	-8.61987
貧	-8.6207
儒	-8.62142
户	-8.62321
亦不	-8.6234
希	-8.62712
銅	-8.62746
對曰	-8.6276
履	-8.62818
密	-8.62827
茶	-8.6299
輩	-8.62995
莊	-8.63131
無所	-8.63507
射	-8.63517
示	-8.63689
誅	-8.63783
元年	-8.63787
盤	-8.64032
誰	-8.64146
顔	-8.64203
熟	-8.64478
寢	-8.64536
側	-8.64612
之所	-8.64619
黑	-8.64714
惠	-8.64795
賀	-8.65115
縱	-8.65229
驗	-8.65341
洛	-8.65504
雞	-8.65935
給	-8.66065
勞	-8.66193
判	-8.66306
品	-8.66389
佐	-8.66424
條	-8.66482
呉	-8.66695
蒙	-8.66734
富	-8.66776
厯	-8.6684
自是	-8.66875
撰	-8.66911
皮	-8.67044
順	-8.67219
敵	-8.67302
壽	-8.67441
於此	-8.67479
虞	-8.67536
由是	-8.67697
旣	-8.67811
味	-8.67869
詳	-8.67924
忘	-8.67975
尉	-8.68069
横	-8.68131
夕	-8.68334
屈	-8.68581
眼	-8.68632
長安	-8.68646
毒	-8.68709
痛	-8.68816
謹	-8.68941
墨	-8.69251
亦有	-8.69276
逢	-8.69431
曉	-8.69849
誦	-8.69947
陶	-8.69962
徑	-8.70101
㣲	-8.70212
旦	-8.70661
會	-8.70847
鼓	-8.70852
跡	-8.71043
久之	-8.71074
習	-8.71188
敢	-8.71384
豐	-8.71397
朕	-8.71399
抱	-8.71454
御史	-8.71507
勸	-8.71682
其所	-8.72181
栁	-8.72277
醫	-8.72365
畏	-8.7249
雙	-8.72622
强	-8.72823
鼎	-8.72922
奔	-8.73052
掌	-8.73254
米	-8.7334
穴	-8.73351
冬	-8.73414
憲	-8.73439
喪	-8.73451
託	-8.73536
己	-8.73702
洪	-8.73923
悟	-8.74077
救	-8.74122
童	-8.74192
知其	-8.74297
詩云	-8.74404
鏡	-8.74655
答曰	-8.74668
貞	-8.74745
穆	-8.74862
補	-8.74865
刑	-8.74883
班	-8.74933
辟	-8.75015
慮	-8.75054
鐵	-8.75187
兄弟	-8.75207
乾	-8.75282
殷	-8.7529
學士	-8.75318
潛	-8.75487
辨	-8.75488
曰汝	-8.75959
悲	-8.76089
泰	-8.76128
祭	-8.76139
續	-8.76323
困	-8.7636
歎	-8.76392
江南	-8.76399
岸	-8.76485
塵	-8.76569
䇿	-8.76676
黒	-8.7697
亮	-8.77022
雷	-8.77024
之間	-8.77032
招	-8.77047
卧	-8.77085
舞	-8.77363
關	-8.77446
夷	-8.77638
勤	-8.77668
㫖	-8.77776
君子	-8.77784
殺之	-8.77804
妄	-8.77826
貫	-8.7797
詠	-8.78049
環	-8.781
為之	-8.78291
屢	-8.78367
懷	-8.78377
翼	-8.78454
碧	-8.7851
略	-8.78521
主人	-8.78528
亟	-8.78612
笑曰	-8.78707
苑	-8.7879
怨	-8.78801
須臾	-8.78813
繫	-8.78899
句	-8.78948
波	-8.79013
産	-8.79389
三日	-8.79581
暴	-8.79619
編	-8.79855
賔	-8.7996
支	-8.80063
鹿	-8.80094
侍郎	-8.80377
仕	-8.8068
塞	-8.80715
馮	-8.80721
湖	-8.80734
預	-8.8088
何以	-8.80946
之言	-8.81009
少年	-8.81186
嗣	-8.81244
麗	-8.81266
甘	-8.81295
橋	-8.81362
歩	-8.81456
震	-8.81501
貶	-8.81624
不足	-8.81803
馳	-8.81898
異記	-8.81922
東坡	-8.82099
仰	-8.82102
圍	-8.82234
又曰	-8.82258
曰君	-8.8261
牀	-8.8262
脚	-8.82702
然後	-8.82772
舎	-8.82774
伐	-8.82853
佳	-8.8351
太子	-8.83724
茂	-8.84171
又有	-8.84412
源	-8.84429
付	-8.8447
人皆	-8.84516
鶴	-8.84541
振	-8.84543
詩曰	-8.84613
戴	-8.84678
叟	-8.84794
役	-8.84812
干	-8.85095
一時	-8.85175
禄	-8.85198
察	-8.85246
鍾	-8.85293
不及	-8.85356
逆	-8.85393
根	-8.85626
柱	-8.85655
以爲	-8.85698
賣	-8.85783
燭	-8.85847
使人	-8.86034
甫	-8.86477
科	-8.86482
巖	-8.86536
羽	-8.86754
如何	-8.86829
韻	-8.86923
至今	-8.86995
徵	-8.87024
講	-8.87043
委	-8.872
座	-8.87214
財	-8.87462
覽	-8.87502
而死	-8.87896
狂	-8.87943
採	-8.8798
傾	-8.88001
超	-8.8803
况	-8.88167
毁	-8.88173
危	-8.8829
境	-8.88328
魯	-8.88446
助	-8.88748
泥	-8.8881
塗	-8.88821
律	-8.88884
供	-8.88946
淵	-8.88986
參	-8.89028
歡	-8.89101
争	-8.8933
駕	-8.89344
肅	-8.89384
答	-8.89389
如是	-8.89663
旁	-8.8985
坊	-8.89962
十二	-8.90002
飯	-8.90042
弟子	-8.90044
蟲	-8.90118
纔	-8.9014
盜	-8.90209
專	-8.90299
活	-8.90437
揚	-8.90451
𢎞	-8.90489
父母	-8.90512
趨	-8.90526
兮	-8.90624
爭	-8.9099
遍	-8.91024
他日	-8.91168
損	-8.91323
以此	-8.91413
之山	-8.91464
恒	-8.91606
太尉	-8.91649
闗	-8.91823
桑	-8.91876
優	-8.92097
之子	-8.92103
狗	-8.92125
眞	-8.92219
有所	-8.92377
逹	-8.92425
寫	-8.92645
速	-8.92806
敏	-8.92921
頃	-8.92943
貨	-8.92998
總	-8.93219
絲	-8.93246
寵	-8.93256
無不	-8.93427
麻	-8.93565
皇帝	-8.93875
齒	-8.93938
短	-8.94138
愚	-8.94139
荒	-8.94377
豪	-8.94414
得一	-8.94473
明年	-8.94531
唱	-8.94582
暮	-8.94618
使者	-8.94622
訓	-8.94623
得之	-8.94657
時有	-8.9477
文章	-8.94933
十年	-8.94953
操	-8.94974
錦	-8.95237
衡	-8.95284
旋	-8.95321
子孫	-8.95412
允	-8.95465
知之	-8.95506
者皆	-8.95555
見一	-8.95932
是也	-8.96145
捕	-8.96182
克	-8.96288
晦	-8.96388
紹	-8.9645
棺	-8.96547
戎	-8.96594
了	-8.96638
幼	-8.96696
畧	-8.96765
㕔	-8.96903
妖	-8.97007
鳳	-8.97029
狐	-8.97103
董	-8.97126
隆	-8.97199
腹	-8.97225
材	-8.97245
扶	-8.97532
哭	-8.97634
輔	-8.97636
黃	-8.97658
鹽	-8.97669
格	-8.97782
飾	-8.97818
至於	-8.97982
卜	-8.98121
驛	-8.98219
寛	-8.98225
遭	-8.98241
訖	-8.98317
凝	-8.98491
食之	-8.98803
春秋	-8.98825
其妻	-8.98853
縁	-8.99059
牧	-8.9911
大夫	-8.99172
倒	-8.99311
判官	-8.99413
慎	-8.99427
宰	-8.9951
𤣥宗	-8.99631
諱	-8.99681
澄	-8.99783
殆	-8.99827
及第	-8.99988
寓	-9.00043
晚	-9.00144
平生	-9.00145
姓名	-9.0015
署	-9.00243
舜	-9.00328
琴	-9.00419
借	-9.00504
脱	-9.00513
攻	-9.00515
没	-9.007
輙	-9.0071
檢	-9.0073
傅	-9.01002
祥	-9.01032
燒	-9.01165
司馬	-9.01474
岳	-9.0148
貢	-9.0157
淮	-9.01588
士大夫	-9.01629
屏	-9.01693
禹	-9.01803
决	-9.01816
泣	-9.01865
良久	-9.0191
競	-9.01996
四年	-9.02324
辯	-9.02358
劍	-9.02587
郎中	-9.02635
懸	-9.02662
燈	-9.02737
鄰	-9.02916
尹	-9.03017
俄	-9.03085
俾	-9.03478
慈	-9.03535
審	-9.03565
諭	-9.03685
而卒	-9.03852
弗	-9.03922
脩	-9.04009
決	-9.04016
倚	-9.04029
五年	-9.04076
問之	-9.04093
脫	-9.042
量	-9.04257
影	-9.04361
甞	-9.04532
桓	-9.04611
疏	-9.04648
巾	-9.04775
焚	-9.04819
逰	-9.04821
撫	-9.04843
茍	-9.05022
雍	-9.05047
局	-9.0506
是時	-9.05083
黨	-9.05433
界	-9.05454
枕	-9.05523
逃	-9.05529
相見	-9.05534
自此	-9.05568
庫	-9.05886
寃	-9.0617
姚	-9.06377
帖	-9.0638
奪	-9.06416
静	-9.06469
斬	-9.06472
男	-9.06485
閒	-9.06502
相公	-9.06584
辱	-9.06709
一作	-9.06711
俄而	-9.06761
朗	-9.06896
丞	-9.06944
叙	-9.06981
沉	-9.07054
植	-9.07061
揖	-9.07102
廷	-9.07188
牙	-9.0725
蘭	-9.07253
擇	-9.07422
貌	-9.07466
妓	-9.07541
見其	-9.0757
圓	-9.0768
㸃	-9.0794
百姓	-9.07965
副	-9.08111
玄	-9.08298
費	-9.08381
鄧	-9.08397
時人	-9.0847
打	-9.08481
一名	-9.08488
未幾	-9.085
話	-9.08514
沒	-9.08613
悔	-9.08847
未有	-9.09067
兹	-9.09067
大臣	-9.09185
女子	-9.09281
祝	-9.09282
數百	-9.09361
髪	-9.0939
敕	-9.09485
庾	-9.09505
榜	-9.09691
例	-9.0974
故事	-9.09953
劒	-9.09979
裏	-9.1
迴	-9.10028
謙	-9.10064
幕	-9.10134
為人	-9.10171
驢	-9.10206
化為	-9.10227
出酉陽	-9.10439
違	-9.1049
珍	-9.10497
言之	-9.10547
潔	-9.10568
娶	-9.10708
庶	-9.10801
盈	-9.10875
其中	-9.10878
壯	-9.10926
諫	-9.10967
宇	-9.11161
階	-9.11174
三十	-9.11367
人間	-9.11449
頓	-9.11606
渠	-9.11676
子弟	-9.11831
不同	-9.11852
殘	-9.11898
者也	-9.12054
之意	-9.12085
飲酒	-9.12152
掩	-9.12205
讀書	-9.12227
啟	-9.12332
髮	-9.12431
五十	-9.12508
肆	-9.12632
幹	-9.12722
其父	-9.12734
純	-9.12856
嶺	-9.13157
瑞	-9.1321
渡	-9.1328
将	-9.1329
偽	-9.13297
統	-9.13347
而出	-9.13574
輿	-9.13784
導	-9.13793
異之	-9.13903
吟	-9.13986
妃	-9.1411
有司	-9.14157
公曰	-9.14213
舒	-9.14341
緑	-9.14373
暫	-9.14383
靖	-9.14394
惜	-9.14516
校	-9.14578
小兒	-9.14701
尺	-9.14818
鳯	-9.14864
之際	-9.14881
晏	-9.14913
訴	-9.14983
慕	-9.15174
誕	-9.15196
祀	-9.15234
𥘉	-9.1542
板	-9.15497
不然	-9.1552
宏	-9.15538
又云	-9.15566
堯	-9.15592
墜	-9.15674
烟	-9.15841
洛陽	-9.15931
軒	-9.15974
之士	-9.16051
邀	-9.16061
神仙	-9.1608
斗	-9.16099
迹	-9.16159
吐	-9.16226
潘	-9.16241
中書	-9.16267
獵	-9.16278
一夕	-9.16282
至此	-9.1633
臂	-9.16332
融	-9.16441
秀才	-9.16601
鼻	-9.16682
門外	-9.16775
儉	-9.16847
僅	-9.16861
仁宗	-9.16906
銜	-9.16976
上有	-9.16987
欽	-9.17117
魂	-9.17139
價	-9.17143
執政	-9.17158
介	-9.17266
竇	-9.17374
不如	-9.17447
湘	-9.17554
岀	-9.17575
錫	-9.17715
何如	-9.17739
衰	-9.17791
梅	-9.17895
惑	-9.1792
相國	-9.17989
襲	-9.18017
黙	-9.1804
不肯	-9.18095
昏	-9.18148
數年	-9.1824
洎	-9.18255
築	-9.1832
效	-9.18417
以其	-9.18421
洗	-9.18636
囚	-9.18649
瞻	-9.18656
巧	-9.18692
囊	-9.18745
袁	-9.18816
藝	-9.18868
倉	-9.18954
倫	-9.19148
徙	-9.19162
讓	-9.19201
擬	-9.19296
不為	-9.19305
𣗳	-9.19322
第一	-9.19387
千里	-9.19388
盗	-9.19489
徴	-9.19498
㡬	-9.19553
所居	-9.19618
有大	-9.19631
覩	-9.19755
䕶	-9.19924
郊	-9.19945
朔	-9.19963
一旦	-9.19972
抵	-9.20057
鞭	-9.20113
采	-9.20133
抑	-9.20213
士人	-9.20277
䘮	-9.20358
大如	-9.20379
值	-9.20382
謂曰	-9.20412
薨	-9.20511
老人	-9.20571
牽	-9.20585
彈	-9.20595
宮	-9.20597
翰	-9.20658
擁	-9.20667
莫不	-9.20864
牒	-9.21045
穿	-9.21284
柳	-9.21292
含	-9.21351
二十	-9.21513
遵	-9.21525
孔子	-9.21549
出入	-9.21661
碎	-9.21767
芳	-9.21881
隔	-9.2196
丗	-9.22004
賓	-9.22008
富貴	-9.22087
觀之	-9.22117
製	-9.22197
塔	-9.22201
諸公	-9.22347
隋	-9.22387
侍中	-9.22438
辛	-9.22668
戸	-9.22766
墮	-9.22772
革	-9.22839
誣	-9.22866
稽	-9.2292
桃	-9.23023
天地	-9.23059
不覺	-9.23082
均	-9.23112
占	-9.23147
之上	-9.23175
逼	-9.2327
配	-9.23322
往往	-9.23387
驅	-9.23656
披	-9.23828
所在	-9.2387
熱	-9.24008
皆有	-9.24023
捨	-9.24086
之地	-9.24106
循	-9.24115
擲	-9.24172
桂	-9.24234
昇	-9.24364
冷	-9.24488
敦	-9.2458
忽有	-9.24606
歎曰	-9.24688
此人	-9.24709
扇	-9.24749
公主	-9.24787
剛	-9.24829
俟	-9.25104
王氏	-9.25181
潤	-9.2519
山中	-9.25269
文字	-9.25379
縣令	-9.25546
其上	-9.25579
維	-9.25583
閑	-9.25616
忽見	-9.25661
壇	-9.25666
荆	-9.25807
以來	-9.2601
貪	-9.26185
欽定四庫全書	-9.2623
鑒	-9.2636
徹	-9.26385
擢	-9.26445
相與	-9.26446
偉	-9.2647
太后	-9.26505
提	-9.2661
可謂	-9.27092
㓜	-9.27107
荆公	-9.27251
翌日	-9.27367
遠	-9.27471
忍	-9.27517
問曰	-9.27527
必有	-9.27566
祈	-9.27625
古人	-9.27687
成都	-9.27853
類	-9.27951
閉	-9.28116
凶	-9.28267
糧	-9.28305
大笑	-9.28425
嫁	-9.28526
四方	-9.28605
芝	-9.28609
勇	-9.28661
先是	-9.28813
酬	-9.29006
再拜	-9.29147
厭	-9.2917
傍	-9.29331
榖	-9.2938
取之	-9.29424
從之	-9.29482
尸	-9.29515
娘	-9.29629
詢	-9.29636
勉	-9.29785
途	-9.29794
尼	-9.29911
喚	-9.29996
晝	-9.30011
李公	-9.30171
書曰	-9.302
絹	-9.30203
陷	-9.30222
睡	-9.30241
謫	-9.30247
其間	-9.30276
河東	-9.30277
前後	-9.30376
陰	-9.30445
規	-9.3052
也又	-9.30553
姬	-9.30699
東南	-9.30751
勅	-9.30764
彌	-9.30783
從事	-9.30839
節度使	-9.3085
翠	-9.30883
賤	-9.30914
籠	-9.30968
則天	-9.31068
禪	-9.31101
烈	-9.31202
二子	-9.31301
蕃	-9.31449
磨	-9.31664
粟	-9.31693
爽	-9.31711
削	-9.31716
其言	-9.31792
嘆	-9.31865
峻	-9.31871
征	-9.31912
牓	-9.31922
腰	-9.32074
數人	-9.32202
巫	-9.32309
帳	-9.3232
刺史	-9.3235
洲	-9.32355
堪	-9.32415
𬒳	-9.32473
排	-9.32504
僕射	-9.32541
爵	-9.32661
繁	-9.32703
基	-9.32725
譽	-9.32919
停	-9.32934
寜	-9.32964
險	-9.32975
淺	-9.32989
之𩔖	-9.33107
竄	-9.33153
防	-9.33258
激	-9.33421
策	-9.33464
㑹稽	-9.33468
之時	-9.33626
不識	-9.3378
漏	-9.3394
孰	-9.33962
暗	-9.34002
潜	-9.34188
奇	-9.34258
何為	-9.34261
丈	-9.34278
其母	-9.34295
或云	-9.3437
契	-9.34456
壻	-9.34462
彭	-9.34477
侵	-9.34762
底	-9.34788
吴	-9.34829
厥	-9.34946
探	-9.35001
不已	-9.35281
即位	-9.35324
巢	-9.35412
姦	-9.35426
虜	-9.35465
虛	-9.35511
之人	-9.35627
太平	-9.35839
○	-9.36095
太原	-9.36156
廬	-9.36247
道人	-9.36283
卑	-9.36294
晩	-9.36308
弱	-9.36404
瓦	-9.3653
店	-9.36536
消	-9.3654
蒲	-9.36639
拂	-9.36736
厲	-9.36754
援	-9.36788
耕	-9.36789
偏	-9.36815
遲	-9.36922
赦	-9.36975
己見	-9.37032
社	-9.37039
藉	-9.37095
祐	-9.37321
紹興	-9.37407
曰卿	-9.3746
髙宗	-9.3748
乳	-9.37744
畜	-9.37932
已而	-9.37965
主簿	-9.38044
揚州	-9.38101
肥	-9.38129
愁	-9.3813
忌	-9.3816
員	-9.38371
祖父	-9.3867
津	-9.38679
把	-9.38686
淚	-9.38722
眉	-9.38746
賛	-9.38809
粉	-9.38877
􁀙	-9.3891
黜	-9.38929
攜	-9.38974
誓	-9.38983
冀	-9.39073
蕩	-9.39205
兆	-9.39281
午	-9.39348
増	-9.39452
阮	-9.39671
蒼	-9.39678
頂	-9.39689
鮮	-9.39703
攝	-9.40003
瘡	-9.40008
萬里	-9.40012
躬	-9.40031
之道	-9.40042
僉載	-9.40097
街	-9.40136
駭	-9.40355
所見	-9.40426
拔	-9.40539
冦	-9.40556
囘	-9.40578
者亦	-9.40809
缺	-9.40836
禱	-9.40957
上曰	-9.41046
日月	-9.41049
許之	-9.41053
拒	-9.41059
擒	-9.41094
雀	-9.41098
鑿	-9.41113
鄙	-9.41126
憶	-9.4114
束	-9.41202
簿	-9.41284
涉	-9.41353
三百	-9.41536
髙祖	-9.41572
辰	-9.41679
鑄	-9.41684
西北	-9.41714
斥	-9.41855
弼	-9.4187
額	-9.41957
司空	-9.41975
喻	-9.42164
整	-9.42196
欺	-9.42205
真宗	-9.4223
令人	-9.42245
衞	-9.42318
勒	-9.42352
窺	-9.42364
衣冠	-9.42387
餅	-9.424
鐘	-9.4244
邉	-9.42487
叛	-9.42506
樞	-9.42644
翰林	-9.42697
錯	-9.42703
不食	-9.4272
䑕	-9.4279
終不	-9.42822
壊	-9.43044
三人	-9.43289
熊	-9.43323
灰	-9.4336
享	-9.43365
襄	-9.43422
不過	-9.43622
奈何	-9.43689
勲	-9.43746
饌	-9.44044
正月	-9.44063
而後	-9.44108
王公	-9.44159
國家	-9.44174
蠻	-9.44328
長史	-9.44335
式	-9.44351
煙	-9.44424
聴	-9.44429
銘	-9.44461
飲食	-9.44672
浪	-9.44713
已見	-9.44879
騰	-9.44931
氷	-9.44989
鼠	-9.44999
裂	-9.45
染	-9.45002
着	-9.4501
此事	-9.45031
嫗	-9.4505
魏公	-9.45195
徽	-9.45206
篆	-9.4523
舌	-9.4527
疎	-9.45284
𡊮	-9.45304
㝠	-9.45372
衫	-9.45431
瓊	-9.45557
恕	-9.45561
漆	-9.45863
荷	-9.4598
諷	-9.46055
憤	-9.4615
河南	-9.46231
婚	-9.46342
鬼神	-9.46349
大怒	-9.46417
状	-9.46653
雜俎	-9.46729
之聲	-9.46779
往來	-9.46797
贊	-9.46852
觸	-9.46865
聖人	-9.46908
訟	-9.47009
其名	-9.47116
岐	-9.47121
綱	-9.47127
狀如	-9.47365
從容	-9.47462
武帝	-9.47551
語曰	-9.47613
愧	-9.47688
杯	-9.47717
佩	-9.47769
麥	-9.47794
書生	-9.47816
割	-9.47894
棲	-9.479
返	-9.47905
䖏	-9.47913
捧	-9.47933
育	-9.47937
衣服	-9.48057
邦	-9.48088
歟	-9.48132
揮	-9.48157
爛	-9.48163
寡	-9.48163
災	-9.48175
而歸	-9.48547
十餘	-9.48752
自然	-9.48942
其下	-9.49025
嵩	-9.49026
蔽	-9.49057
之心	-9.49106
玩	-9.49274
魁	-9.49294
屠	-9.49318
渾	-9.49346
李氏	-9.49361
警	-9.49362
鬻	-9.49369
匿	-9.49388
簾	-9.49562
枯	-9.4957
所得	-9.49604
未知	-9.49651
邸	-9.49664
十五	-9.49717
邵	-9.49811
凌	-9.49844
曠	-9.49845
膏	-9.49931
靣	-9.49944
不欲	-9.50041
貯	-9.50045
弓	-9.50145
頌	-9.50232
柔	-9.50257
無以	-9.5029
冢	-9.50305
水中	-9.50311
也今	-9.5049
繩	-9.50584
出朝野	-9.50632
躍	-9.50711
自言	-9.50712
軰	-9.50718
榻	-9.50869
荆州	-9.50904
毅	-9.50921
巴	-9.5097
三月	-9.51026
安石	-9.51029
眀	-9.51047
謬	-9.51115
垣	-9.51149
項	-9.51155
致仕	-9.51314
秩	-9.51426
鴻	-9.51435
擾	-9.51452
纂	-9.51454
併	-9.51456
曰公	-9.51657
藩	-9.51735
得其	-9.5174
掠	-9.51777
減	-9.51793
巡	-9.51825
十三	-9.51853
出廣	-9.5189
猪	-9.51906
煩	-9.5198
云此	-9.52005
靜	-9.52054
如故	-9.52234
至于	-9.52321
鸞	-9.52324
輪	-9.52354
四十	-9.52368
溺	-9.52409
従	-9.52432
用之	-9.52498
開元	-9.52549
門下	-9.52655
誌	-9.52686
乆之	-9.52747
而行	-9.52853
刃	-9.52871
吏部	-9.52872
處士	-9.5288
罰	-9.52977
百餘	-9.52986
不與	-9.53214
風雨	-9.53223
竭	-9.53301
油	-9.53558
言曰	-9.5356
庸	-9.53566
迨	-9.53628
不許	-9.5367
篤	-9.53686
逮	-9.53704
言訖	-9.53753
淮南	-9.53789
葛	-9.53795
禽	-9.53849
徧	-9.53918
喬	-9.53931
之下	-9.54057
竟不	-9.54103
無人	-9.54149
恃	-9.54163
魯公	-9.5417
遣使	-9.54187
司徒	-9.54204
洽	-9.54243
翻	-9.54249
踰	-9.54294
限	-9.54301
有二	-9.5435
擅	-9.54416
之名	-9.54474
箭	-9.54503
伊	-9.54539
▁(	-9.54547
想	-9.54557
出於	-9.54694
普	-9.54766
嗟	-9.54818
閱	-9.54891
問其	-9.54916
昨	-9.54945
七十	-9.54967
父子	-9.54969
旬	-9.55012
本朝	-9.55068
既至	-9.55127
霜	-9.55132
姜	-9.55151
裁	-9.55155
契丹	-9.55171
輦	-9.55464
縛	-9.55498
神宗	-9.5554
場	-9.55848
𦵏	-9.55849
隣	-9.55869
十八	-9.55954
下有	-9.55961
甚多	-9.56034
帛	-9.56094
荅曰	-9.56164
數千	-9.56176
不勝	-9.56276
吹	-9.56363
其意	-9.56373
荀	-9.56401
挾	-9.56474
廻	-9.56497
莫能	-9.56512
遂以	-9.56531
不合	-9.56678
以示	-9.56691
無復	-9.56749
繞	-9.56762
頻	-9.56769
金陵	-9.56996
弄	-9.57045
西南	-9.5713
官至	-9.57218
不樂	-9.5723
蔣	-9.57375
範	-9.57381
寘	-9.57404
嫌	-9.57425
督	-9.57663
大喜	-9.57734
促	-9.57739
僚	-9.57793
古今	-9.57798
霞	-9.57907
峯	-9.58054
浴	-9.58085
是以	-9.58233
七年	-9.58248
叢	-9.58353
麟	-9.58406
鄉里	-9.58483
妻子	-9.58536
而至	-9.58563
饑	-9.58582
之術	-9.58632
斤	-9.58638
慰	-9.58686
取其	-9.58708
辦	-9.58717
六年	-9.58876
妹	-9.58954
證	-9.5898
童子	-9.5898
爐	-9.58989
菜	-9.58992
快	-9.58996
袖	-9.58999
趣	-9.59038
而無	-9.5909
汗	-9.59179
或有	-9.59295
網	-9.59306
豹	-9.59324
峰	-9.59333
屍	-9.59344
晨	-9.59419
崖	-9.59592
袍	-9.59634
崩	-9.59641
展	-9.59648
㧞	-9.59666
農	-9.59716
寺僧	-9.59769
不以	-9.59769
在此	-9.5979
奮	-9.59993
閲	-9.60037
㳺	-9.60058
際	-9.60253
蓮	-9.60259
捉	-9.60337
淫	-9.6041
炎	-9.60549
不至	-9.60583
茅	-9.60652
褒	-9.60686
鬚	-9.60836
倍	-9.60966
料	-9.60995
緩	-9.61018
槐	-9.61085
而退	-9.61268
伺	-9.61312
江西	-9.61516
朝士	-9.61523
出門	-9.61587
上下	-9.61637
況	-9.61673
殺人	-9.61692
穢	-9.61703
亦無	-9.61812
不相	-9.61814
埋	-9.6185
討	-9.61853
服之	-9.61891
其一	-9.61908
旬日	-9.61948
悦	-9.61988
盆	-9.62021
言其	-9.62101
八年	-9.62204
五色	-9.62222
旱	-9.62289
冊	-9.62374
乏	-9.62559
婆	-9.62689
迷	-9.62719
者以	-9.62783
呼為	-9.62883
月餘	-9.62918
慧	-9.62994
舘	-9.63019
數月	-9.63037
潭	-9.63041
陋	-9.63054
懇	-9.63095
天下之	-9.63189
偕	-9.6326
乃以	-9.63336
犀	-9.63379
旅	-9.63644
東西	-9.63675
衙	-9.63706
二十年	-9.63867
二公	-9.63972
劾	-9.64066
媚	-9.64067
床	-9.64079
漫	-9.64081
再三	-9.64124
可乎	-9.64166
未及	-9.64304
匹	-9.64306
泛	-9.64385
皇后	-9.64399
詐	-9.64407
單	-9.64455
青衣	-9.64521
筵	-9.64595
五月	-9.64662
不用	-9.64871
詰	-9.64931
何不	-9.65002
遣人	-9.65004
人物	-9.65026
譏	-9.65027
絳	-9.65031
嬰	-9.65039
小人	-9.65059
墳	-9.65081
一曰	-9.65101
壞	-9.65119
不忍	-9.65403
換	-9.6542
何也	-9.65445
創	-9.6547
中國	-9.65532
秘	-9.65628
陣	-9.65762
練	-9.65766
豫	-9.65769
柄	-9.6577
強	-9.65786
掾	-9.65819
頸	-9.65831
有餘	-9.65883
仗	-9.66017
八十	-9.66086
之日	-9.66256
作詩	-9.66269
姿	-9.66356
介甫	-9.66375
黎	-9.66468
豆	-9.66648
一年	-9.66653
豈非	-9.66693
胥	-9.66761
矢	-9.66885
字子	-9.66894
蓬	-9.67108
標	-9.6715
登第	-9.67153
因以	-9.67201
笏	-9.67209
醒	-9.67219
而下	-9.67431
第二	-9.67465
諸子	-9.67528
健	-9.67532
吿	-9.67581
鄉人	-9.67668
郎君	-9.67684
足下	-9.6772
宫中	-9.6773
賔客	-9.67747
自稱	-9.67836
中丞	-9.67852
以告	-9.67873
眠	-9.6788
第三	-9.67887
是日	-9.67929
泊	-9.67931
舍人	-9.67948
為相	-9.68066
人家	-9.6811
枚	-9.68191
軸	-9.68222
團	-9.68261
璧	-9.68273
搆	-9.68283
毋	-9.68317
忽聞	-9.68379
遜	-9.68401
緣	-9.68642
藻	-9.68679
肯	-9.68719
腦	-9.68855
使君	-9.68882
栢	-9.68902
嗜	-9.68919
属	-9.68997
東海	-9.69141
遼	-9.69147
無他	-9.69222
靡	-9.69228
隅	-9.69262
傑	-9.69298
匠	-9.69345
欵	-9.69373
忿	-9.69396
足以	-9.69415
几	-9.69466
浩	-9.69508
布衣	-9.69551
羣臣	-9.6956
汴	-9.69598
臯	-9.6966
遐	-9.69665
𨽻	-9.69723
頴	-9.69728
眷	-9.69756
跪	-9.69762
綵	-9.69784
大小	-9.69785
貴人	-9.69821
黄金	-9.69831
諸人	-9.69834
七日	-9.69849
有異	-9.69863
那	-9.69864
八月	-9.69925
恵	-9.70014
喫	-9.70082
遁	-9.70111
舅	-9.70282
又問	-9.70356
安得	-9.7036
圗	-9.70391
秉	-9.70405
至是	-9.70433
算	-9.70488
之徒	-9.70695
丸	-9.70759
苗	-9.7079
鵲	-9.7081
綿	-9.70821
夾	-9.70831
死者	-9.70834
憑	-9.70864
荅	-9.70905
衍	-9.71008
偃	-9.71076
𤓰	-9.71079
壺	-9.71121
拘	-9.71152
騐	-9.71165
薪	-9.71203
豫章	-9.71229
押	-9.71416
叱	-9.71468
弊	-9.71494
豈不	-9.71525
他人	-9.71536
段	-9.71558
六月	-9.71567
壓	-9.71569
斧	-9.71591
隙	-9.71626
不應	-9.71837
有一人	-9.7188
邁	-9.71893
十日	-9.71909
摩	-9.71925
邢	-9.71925
䖍	-9.71936
齎	-9.71976
懿	-9.71976
子也	-9.72018
寸	-9.72065
俯	-9.72242
抗	-9.72247
裹	-9.72303
江陵	-9.72306
𧰼	-9.72317
人多	-9.72372
罵	-9.72377
飲之	-9.72446
不出	-9.72532
逾	-9.7256
浦	-9.72562
之中	-9.72583
呈	-9.72583
朋	-9.72588
丈夫	-9.72608
百里	-9.72674
浸	-9.72687
蔵	-9.72698
焦	-9.72706
以手	-9.72846
府君	-9.72982
卓	-9.7307
南海	-9.73182
不免	-9.73269
不死	-9.7331
函	-9.73349
曰若	-9.73355
人之	-9.73388
求之	-9.73432
聘	-9.7344
戚	-9.73449
所言	-9.73584
崑崙	-9.73688
叩	-9.73718
坡	-9.7374
酌	-9.73757
戯	-9.73787
塟	-9.73792
弔	-9.73872
四海	-9.73932
彩	-9.73949
少時	-9.74003
駐	-9.74093
冲	-9.74099
明皇	-9.74141
釣	-9.74194
斜	-9.7422
膝	-9.74222
響	-9.74553
伸	-9.74596
冩	-9.74626
賴	-9.74712
元祐	-9.74765
鷹	-9.74893
其地	-9.7492
諸侯	-9.74976
人有	-9.74986
捷	-9.7499
京兆	-9.75086
挈	-9.75164
或曰	-9.75241
孟子	-9.75246
禁中	-9.75299
毫	-9.7531
戍	-9.75315
恠	-9.75346
有此	-9.75348
裝	-9.75355
山水	-9.75375
之狀	-9.75453
韶	-9.75558
曰臣	-9.75627
鱗	-9.75651
廣陵	-9.75659
儲	-9.75762
沙門	-9.75792
潮	-9.75822
終日	-9.75827
二月	-9.75867
後有	-9.7593
節度	-9.75975
究	-9.7609
桐	-9.76103
醜	-9.76112
不知其	-9.76114
蓄	-9.76123
南北	-9.76134
彊	-9.76144
慙	-9.76227
廉	-9.76348
播	-9.76415
姪	-9.76476
貽	-9.76495
冡	-9.76499
號為	-9.76504
皷	-9.76506
罕	-9.76518
乃知	-9.7657
間有	-9.7662
六十	-9.7663
緒	-9.76701
遥	-9.76706
旗	-9.76777
之則	-9.76839
傳曰	-9.76883
旌	-9.76884
腸	-9.76901
欲以	-9.76972
豈可	-9.77116
和尚	-9.77142
完	-9.77153
文學	-9.7717
皆以	-9.77175
後世	-9.7725
専	-9.77285
啼	-9.77289
刼	-9.7732
瑩	-9.77362
珪	-9.77416
王荆公	-9.77609
號曰	-9.77671
姊	-9.77695
嶽	-9.77781
故也	-9.77967
截	-9.78054
鎭	-9.78062
暢	-9.78069
屯	-9.78071
斂	-9.78094
包	-9.78114
挺	-9.78122
而來	-9.78206
餌	-9.78345
城中	-9.78387
果有	-9.78427
東都	-9.78433
呵	-9.78464
喧	-9.78506
之外	-9.78545
矜	-9.7857
三四	-9.78586
二百	-9.78644
或作	-9.78649
而入	-9.78689
淡	-9.78815
當有	-9.78817
一條	-9.78884
宵	-9.78919
旨	-9.79036
宣宗	-9.79104
狀元	-9.79217
百官	-9.79304
水出焉	-9.79324
不幸	-9.79408
學者	-9.79421
襄陽	-9.79495
斛	-9.79559
炙	-9.79592
疑其	-9.79612
邱	-9.79685
樊	-9.79688
墻	-9.79691
渉	-9.79707
中外	-9.79872
霧	-9.79919
凉	-9.80034
祚	-9.80129
烹	-9.80439
雕	-9.80484
媪	-9.80488
聊	-9.80529
者為	-9.80557
州縣	-9.80609
何人	-9.80794
者必	-9.80827
掘	-9.80829
亷	-9.80835
漕	-9.80847
繡	-9.80863
羞	-9.80874
鋒	-9.8091
之句	-9.80912
嗚呼	-9.8092
朴	-9.80929
郡守	-9.80953
仇	-9.80972
枉	-9.80988
寨	-9.81026
汲	-9.811
仙人	-9.81164
同年	-9.8124
巷	-9.81253
沮	-9.81283
牆	-9.81289
映	-9.81297
阻	-9.81312
迫	-9.81343
驟	-9.81734
替	-9.8174
拾遺	-9.8174
自有	-9.81745
杭	-9.81758
一卷	-9.81797
先人	-9.81821
焚香	-9.8184
何處	-9.81927
憐	-9.81973
山谷	-9.8201
冥	-9.82068
之義	-9.82077
不信	-9.82097
湛	-9.82102
猛	-9.82102
輸	-9.82122
菩薩	-9.82137
片	-9.82438
之功	-9.82452
訣	-9.82457
肩	-9.82474
太傅	-9.82485
衢	-9.82508
濤	-9.82544
挽	-9.82571
衝	-9.82612
吞	-9.82616
其年	-9.8267
真人	-9.8269
突	-9.8276
四月	-9.8284
掃	-9.82845
乙	-9.82868
年少	-9.8292
楷	-9.82977
有三	-9.82997
昉	-9.83003
草木	-9.83016
盃	-9.83214
識者	-9.83297
大驚	-9.83307
娥	-9.83317
恣	-9.83363
叅軍	-9.83392
山下	-9.83422
裕	-9.83534
長沙	-9.83561
不在	-9.83597
曰昔	-9.83648
視其	-9.83661
淑	-9.83699
謂之曰	-9.83723
圃	-9.83748
鈎	-9.83756
奚	-9.83762
於人	-9.83813
内外	-9.83866
與人	-9.83987
叅	-9.84053
十四	-9.84087
問其故	-9.84099
何所	-9.841
勑	-9.8419
觴	-9.84202
錢塘	-9.84228
鬭	-9.84234
棗	-9.84236
十六	-9.84312
之禮	-9.84332
南陽	-9.84357
三千	-9.84361
携	-9.84598
之文	-9.84607
鋪	-9.84614
之語	-9.84614
晴	-9.84619
忤	-9.84645
虵	-9.84649
十七	-9.84657
緘	-9.84662
曰朕	-9.84737
灌	-9.84748
元和	-9.84753
逐之	-9.84785
塲	-9.84875
二字	-9.84884
翰林學士	-9.84927
奕	-9.85026
汚	-9.85066
其門	-9.85091
厨	-9.85271
因問	-9.85297
扣	-9.85402
熙	-9.85447
猿	-9.85473
裔	-9.85498
随	-9.85513
饒	-9.85544
時為	-9.85634
祖宗	-9.85645
欣然	-9.85652
還家	-9.85723
之罪	-9.85724
暑	-9.85763
群	-9.85785
未能	-9.85814
数	-9.85881
玉堂	-9.85891
傲	-9.85893
登科	-9.859
禮部	-9.85908
在焉	-9.85958
曰爾	-9.85973
宫人	-9.86096
不受	-9.86116
之法	-9.86131
男子	-9.86172
鑑	-9.86248
脂	-9.8628
煮	-9.86302
牢	-9.86312
粥	-9.86322
汪	-9.86327
良乆	-9.86373
牌	-9.86375
俸	-9.86479
澗	-9.86527
河北	-9.86539
各有	-9.86586
戮	-9.86616
卦	-9.86629
寂	-9.8663
文武	-9.86672
譚	-9.86812
呪	-9.8683
然而	-9.86987
何故	-9.87052
也其	-9.87065
批	-9.87169
有聲	-9.87204
太師	-9.87345
測	-9.8738
之故	-9.87467
溢	-9.87615
飽	-9.87618
雉	-9.87629
逵	-9.87641
臥	-9.87643
償	-9.87647
煎	-9.87692
不言	-9.87747
九年	-9.8779
揺	-9.87826
待之	-9.87874
頃之	-9.87894
曰今	-9.87934
距	-9.87998
張氏	-9.88004
卵	-9.88043
劇	-9.88048
觧	-9.88075
乖	-9.88076
一見	-9.88097
閩	-9.88223
云是	-9.88261
五百	-9.88269
不從	-9.88412
百年	-9.88413
歛	-9.88488
蘓	-9.88523
州人	-9.88542
態	-9.88547
三十年	-9.88724
杭州	-9.88768
于是	-9.88842
之内	-9.88895
鷄	-9.88906
夢中	-9.88993
不當	-9.89018
台	-9.89095
後人	-9.89161
檀	-9.89193
金玉	-9.89311
不絶	-9.89343
蜂	-9.89366
魅	-9.89387
膳	-9.89414
聞其	-9.89534
太常	-9.89651
梨	-9.89664
之屬	-9.89756
低	-9.89764
硯	-9.8981
咎	-9.89851
䧟	-9.89882
不聞	-9.9004
翔	-9.90067
酷	-9.90102
穀	-9.90154
譜	-9.90212
上書	-9.90245
諧	-9.90271
中使	-9.9032
恥	-9.90374
不知何	-9.90559
所作	-9.90603
宦	-9.90701
是夕	-9.90732
収	-9.90751
係	-9.90771
不得已	-9.90823
▁任臣案	-9.90861
踈	-9.91102
艾	-9.91139
慢	-9.91143
甕	-9.91158
坦	-9.91165
人面	-9.91176
敎	-9.91204
羙	-9.91227
恱	-9.91227
耀	-9.91235
嘗有	-9.91376
顔色	-9.91426
拾	-9.91613
滯	-9.91616
飄	-9.91642
坑	-9.9165
輝	-9.91658
其書	-9.91704
舉進士	-9.91795
少頃	-9.91814
有頃	-9.91839
自後	-9.92011
剪	-9.92042
寔	-9.92071
障	-9.92085
鄴	-9.92088
又以	-9.92092
謗	-9.92098
踐	-9.92101
滑	-9.92167
賦詩	-9.92219
數十人	-9.92308
公卿	-9.9237
汁	-9.92526
鐡	-9.92537
昧	-9.92566
後為	-9.92573
無異	-9.92575
療	-9.92583
嘗為	-9.92823
五日	-9.92837
曰是	-9.92918
待制	-9.9292
檄	-9.92975
售	-9.92996
累遷	-9.93062
豈有	-9.93082
皆不	-9.93158
其實	-9.93166
當為	-9.93189
祕	-9.93257
鴈	-9.93263
嘗與	-9.93297
海内	-9.93304
不動	-9.93348
南方	-9.93365
塘	-9.93383
之國	-9.93421
五六	-9.93424
厄	-9.93464
濕	-9.93472
狎	-9.93488
島	-9.93511
閤	-9.93519
它	-9.93524
可得	-9.93565
得罪	-9.93597
諸生	-9.93634
員外	-9.93651
而止	-9.93662
言語	-9.93683
如初	-9.93716
終身	-9.93736
若有	-9.93766
家有	-9.93849
廵	-9.9391
一物	-9.93918
鼔	-9.93947
渭	-9.94138
一小	-9.9431
副使	-9.94314
之物	-9.94321
怖	-9.94368
偷	-9.94392
柴	-9.94397
疊	-9.94412
𨕖	-9.9442
㫁	-9.94423
煥	-9.94424
瓶	-9.94465
太學	-9.94507
空中	-9.94598
仕至	-9.94709
恪	-9.94754
若此	-9.94852
贍	-9.94864
驕	-9.94873
居士	-9.94877
言者	-9.94902
寇	-9.94961
不知所	-9.95231
其餘	-9.95237
六七	-9.95248
駢	-9.95282
然則	-9.95288
潰	-9.95317
贖	-9.95318
蒸	-9.9532
的	-9.95326
君之	-9.95569
前定	-9.95614
伍	-9.95774
較	-9.95776
凢	-9.95804
國朝	-9.95872
呌	-9.95906
淳	-9.95942
搜	-9.95971
廣州	-9.96014
四人	-9.96022
所殺	-9.96101
竿	-9.9623
汾	-9.96252
飢	-9.96264
簷	-9.96309
東北	-9.96439
諌	-9.96569
從者	-9.96601
而坐	-9.96651
至一	-9.96652
故人	-9.96676
開元中	-9.96687
効	-9.96745
訪之	-9.96764
匡	-9.96767
之命	-9.96833
所為	-9.96835
憚	-9.96907
嶺南	-9.97008
謚	-9.9703
斃	-9.97065
莖	-9.97199
者有	-9.97206
鏁	-9.97272
望之	-9.97273
箱	-9.97284
者多	-9.9734
猶在	-9.9734
員外郎	-9.97382
者乃	-9.97404
如其言	-9.97501
伴	-9.97678
織	-9.97683
詰之	-9.97694
政事	-9.97711
鬱	-9.97711
復有	-9.97901
揆	-9.97932
縣尉	-9.98
呼之	-9.98079
三尺	-9.98119
托	-9.98183
刋	-9.98188
出北夢	-9.98194
盟	-9.98204
㝷	-9.98242
此書	-9.98274
肅宗	-9.98318
文正	-9.98321
山東	-9.98395
一家	-9.98447
霄	-9.98569
隂陽	-9.98582
酣	-9.98663
增	-9.98686
誘	-9.98712
同列	-9.98731
永嘉	-9.98748
互	-9.98773
怒曰	-9.98951
宰臣	-9.99094
何得	-9.9911
寤	-9.99133
名士	-9.99134
知制誥	-9.99209
奠	-9.99221
十一	-9.99288
參軍	-9.99312
從此	-9.99337
給事中	-9.99453
暇	-9.99484
於地	-9.99551
知名	-9.99569
相傳	-9.9957
中書令	-9.99618
嘲	-9.99651
惡之	-9.99725
無恙	-9.99804
行至	-9.99873
以歸	-9.9988
綽	-9.99927
門生	-10
夫婦	-10.0004
渚	-10.001
皓	-10.0011
彰	-10.0013
昻	-10.002
叩頭	-10.0022
衆皆	-10.0023
隴	-10.0028
軍中	-10.0039
其文	-10.005
康節	-10.0054
綠	-10.0059
版	-10.0061
肇	-10.0064
誡	-10.0066
黄帝	-10.0077
絃	-10.0107
綴	-10.0111
闢	-10.0115
児	-10.0115
通判	-10.0115
姻	-10.0116
都督	-10.0122
乃止	-10.0124
其身	-10.0128
書云	-10.0136
老子	-10.0137
膺	-10.0142
室志	-10.0152
樵	-10.0154
南京	-10.0158
二女	-10.0161
今之	-10.0162
株	-10.0163
臭	-10.0164
璋	-10.0166
髯	-10.0166
博學	-10.0167
啖	-10.0167
哲	-10.018
晝夜	-10.0192
寮	-10.0197
車馬	-10.0198
所載	-10.0198
男女	-10.0199
暉	-10.0204
觀者	-10.0205
江淮	-10.0212
羮	-10.0213
溝	-10.0213
㸔	-10.0215
峽	-10.0217
塜	-10.0218
髻	-10.0218
噐	-10.0218
殯	-10.0227
繇	-10.0242
帝曰	-10.0243
𥙷	-10.0251
不平	-10.0259
文忠	-10.0259
賂	-10.0259
庵	-10.026
戈	-10.0265
混	-10.0265
注云	-10.0266
冒	-10.0267
䟽	-10.0272
遂為	-10.028
一字	-10.0285
云云	-10.0302
蛟	-10.0308
侈	-10.0314
填	-10.0315
漿	-10.0316
罔	-10.0317
剖	-10.0318
裘	-10.0318
詆	-10.0319
栗	-10.0321
以下	-10.0329
其名曰	-10.0333
所知	-10.0339
箇	-10.0341
瘞	-10.0342
其首	-10.0347
誥	-10.0354
不堪	-10.0357
滋	-10.0363
亨	-10.0365
謂其	-10.0367
繪	-10.0371
涼	-10.0385
不解	-10.0405
粧	-10.0415
呂	-10.0417
岡	-10.0418
勘	-10.0418
亦以	-10.0419
擊之	-10.043
若是	-10.0433
億	-10.0453
之志	-10.046
者曰	-10.0463
牡丹	-10.0467
紫衣	-10.0467
霸	-10.0468
帷	-10.047
豕	-10.0477
門人	-10.0489
易之	-10.0516
曙	-10.052
訛	-10.052
曇	-10.052
不容	-10.0522
亞	-10.0525
出宣	-10.0525
亦可	-10.0525
俠	-10.0527
與語	-10.0531
金帛	-10.0551
護	-10.0552
曰子	-10.0567
未㡬	-10.0569
鄒	-10.0572
裙	-10.0572
針	-10.0572
常以	-10.0573
山川	-10.0574
冰	-10.0575
友人	-10.0575
世人	-10.0576
公之	-10.0578
無有	-10.0582
流涕	-10.0587
相繼	-10.0594
艱	-10.0621
粗	-10.0626
千餘	-10.0628
衮	-10.0628
送之	-10.063
瓌	-10.063
華山	-10.0633
寐	-10.0652
洞庭	-10.0656
視之乃	-10.0662
拱	-10.0671
蜜	-10.0672
娘子	-10.0673
濫	-10.0679
郷	-10.068
倡	-10.068
膽	-10.068
徳宗	-10.0682
白衣	-10.0684
道者	-10.0684
即以	-10.069
受命	-10.0703
十一月	-10.0706
以詩	-10.0707
山有	-10.072
俞	-10.0726
不顧	-10.0729
爪	-10.073
家貧	-10.0731
由此	-10.0733
两	-10.0735
中書舍人	-10.0736
十月	-10.0742
俄頃	-10.0742
姥	-10.0753
也後	-10.0756
欣	-10.076
陟	-10.0776
之説	-10.0777
黍	-10.0778
鳩	-10.0778
記云	-10.0779
糞	-10.0782
矯	-10.0783
濁	-10.0783
慚	-10.0783
阜	-10.0787
也遂	-10.0789
見一人	-10.0801
禦	-10.0812
博士	-10.0825
熈	-10.0825
十數	-10.0829
甚厚	-10.0836
泄	-10.0837
僻	-10.0842
侍從	-10.0848
元昊	-10.0852
謝曰	-10.0856
建康	-10.086
十餘人	-10.0862
何事	-10.0865
謨	-10.0874
文公	-10.0875
西京	-10.0876
不行	-10.0877
南山	-10.0883
未至	-10.0884
狼	-10.0886
褐	-10.0888
層	-10.089
貸	-10.0892
績	-10.0892
踏	-10.0892
佞	-10.0893
諡	-10.0893
悅	-10.0896
跳	-10.0896
數里	-10.0903
官人	-10.0914
不復見	-10.0919
未詳	-10.0925
倦	-10.0931
邈	-10.0938
雜爼	-10.0939
脉	-10.0941
棘	-10.0942
龎	-10.0944
添	-10.0945
晁	-10.0945
餉	-10.0948
羡	-10.0949
詭	-10.0951
徃徃	-10.096
大中	-10.0964
域	-10.0983
曰可	-10.0984
即日	-10.0988
不疑	-10.099
閻	-10.0992
之美	-10.0995
釘	-10.0996
愍	-10.0996
敘	-10.1
倅	-10.1001
村人	-10.1018
久矣	-10.1023
少有	-10.1034
若不	-10.104
一二	-10.1041
涕	-10.1043
歷	-10.1044
彬	-10.105
孺	-10.1051
斑	-10.1055
冶	-10.1057
拳	-10.1058
甄	-10.1058
撥	-10.1058
示之	-10.1059
社稷	-10.1061
至則	-10.1061
圭	-10.1062
訝	-10.1062
乃是	-10.1076
老父	-10.1083
教授	-10.109
曰何	-10.109
夜夢	-10.1101
暖	-10.1105
屑	-10.1105
荘	-10.1109
冝	-10.111
鎖	-10.1111
歐陽	-10.1124
猶未	-10.1126
嶠	-10.1133
不可得	-10.1139
握	-10.1144
自謂	-10.1146
有何	-10.1163
神人	-10.1163
戱	-10.1163
癡	-10.1164
檻	-10.1164
勵	-10.1166
區	-10.1166
子曰	-10.1169
謔	-10.1172
文書	-10.1183
置於	-10.1194
慘	-10.1196
十二月	-10.1199
瑶	-10.1211
跨	-10.1216
國公	-10.1217
濬	-10.1219
肝	-10.122
胎	-10.1222
夫子	-10.1223
伎	-10.1224
勃	-10.1224
用事	-10.1227
斬之	-10.1229
中人	-10.1231
舉人	-10.1238
乃命	-10.124
當以	-10.1244
不必	-10.1247
無事	-10.1248
國之	-10.1249
朽	-10.1249
䕫	-10.1254
笛	-10.126
霽	-10.1261
筮	-10.1264
世之	-10.127
飛去	-10.1272
咽	-10.1273
膠	-10.1275
鉉	-10.1275
緯	-10.1276
于此	-10.1282
受之	-10.1292
長生	-10.1303
貲	-10.1303
大者	-10.1306
何必	-10.1308
鈞	-10.131
衆人	-10.1315
十里	-10.1318
閭	-10.1321
猫	-10.1321
筠	-10.1328
誨	-10.133
研	-10.1331
為我	-10.1332
寝	-10.1333
募	-10.1333
可也	-10.1336
拯	-10.1336
不須	-10.1338
其罪	-10.1339
菴	-10.134
你	-10.134
漁	-10.1349
之遂	-10.1358
無一	-10.1361
所記	-10.1375
江東	-10.1385
窟	-10.1387
皎	-10.139
思之	-10.1392
不宜	-10.1393
藁	-10.1394
太和	-10.1399
奏曰	-10.1412
好學	-10.1417
愛之	-10.1418
人以	-10.1424
奉使	-10.1425
縷	-10.1426
立於	-10.1427
下馬	-10.1431
沃	-10.1431
而終	-10.1435
一百	-10.1437
攸	-10.1445
中興	-10.1445
掛	-10.1446
之盛	-10.1446
饋	-10.1446
兔	-10.1447
貞元	-10.1448
攀	-10.1449
其聲	-10.1452
賓客	-10.1469
生於	-10.1479
粲	-10.148
官吏	-10.1483
蜀人	-10.1483
有小	-10.1487
君臣	-10.149
答云	-10.1492
鞍	-10.1495
異人	-10.1496
雌	-10.1496
様	-10.1501
摧	-10.1502
悼	-10.1503
課	-10.1505
叚	-10.1506
大將軍	-10.1508
召之	-10.1516
其徒	-10.1518
斫	-10.1525
九月	-10.1527
已下	-10.1527
常有	-10.1528
百萬	-10.153
云我	-10.1552
吳郡	-10.1554
語云	-10.1556
莫敢	-10.1557
綺	-10.1557
沖	-10.1558
協	-10.1558
皂	-10.1561
一月	-10.1574
者不	-10.1575
璽	-10.1577
里人	-10.1583
瑣言	-10.1593
勾	-10.1606
氏之	-10.1611
暨	-10.1613
壘	-10.1614
未得	-10.1615
璞	-10.1615
猴	-10.1619
虐	-10.1623
滕	-10.1624
非常	-10.1626
人心	-10.1626
丹陽	-10.163
死於	-10.1636
十二年	-10.1637
形如	-10.1637
二日	-10.1653
以上	-10.1655
有神	-10.166
不起	-10.1665
文帝	-10.1667
侮	-10.1673
臘	-10.1677
㦸	-10.1677
乂	-10.1682
告之	-10.1685
姨	-10.1687
咨	-10.1698
張公	-10.1699
禪師	-10.1707
御史中丞	-10.1709
逺近	-10.1713
鼈	-10.1715
以是	-10.1717
不暇	-10.1719
廊	-10.1725
人謂	-10.1727
後果	-10.1729
何物	-10.1729
搏	-10.1731
槩	-10.1733
匣	-10.1733
濶	-10.1735
箕	-10.1736
頼	-10.1736
法師	-10.1736
儻	-10.1737
燃	-10.1739
古之	-10.1741
奏事	-10.1742
一篇	-10.1743
室中	-10.1747
少卿	-10.1748
一切	-10.1748
也然	-10.1752
人少	-10.1754
宣和	-10.1768
南史曰	-10.1782
聞而	-10.1782
十餘里	-10.1783
什	-10.1783
確	-10.1785
棊	-10.1786
與君	-10.1788
架	-10.1788
柩	-10.1793
炭	-10.1794
泰山	-10.1795
沿	-10.1795
滴	-10.1795
之氣	-10.1805
也故	-10.181
㕔事	-10.1811
其弟	-10.1812
浙西	-10.1814
山人	-10.1817
厠	-10.1833
金銀	-10.1836
涯	-10.1838
儼	-10.184
於庭	-10.184
謝之	-10.184
鍊	-10.1844
二十四	-10.1844
政和	-10.1846
具以	-10.1848
壑	-10.1849
爾雅	-10.185
闊	-10.1851
帽	-10.1851
撲	-10.1853
宛	-10.1856
踵	-10.1857
風流	-10.1857
無何	-10.186
一大	-10.1879
皆為	-10.1885
邕	-10.1885
掖	-10.1888
有功	-10.189
嘆曰	-10.1893
千年	-10.19
王子	-10.1902
狹	-10.1906
擔	-10.1911
卞	-10.1911
得免	-10.1914
不止	-10.1926
萬物	-10.1932
諸將	-10.1956
陜	-10.1957
給事	-10.1958
里中	-10.1963
杏	-10.1964
級	-10.1966
凖	-10.1967
恬	-10.1968
但見	-10.197
之才	-10.197
轡	-10.197
勁	-10.197
傭	-10.197
纎	-10.1973
治之	-10.1975
灑	-10.1976
北方	-10.1976
大王	-10.1996
霍	-10.1997
札	-10.1997
非人	-10.2008
是非	-10.201
至元	-10.201
人言	-10.2011
歐陽公	-10.2012
雖不	-10.2013
不可以	-10.2015
紗	-10.2024
金人	-10.2028
註	-10.203
虹	-10.203
誇	-10.203
藤	-10.2034
宋李昉等編	-10.2035
授之	-10.2038
大人	-10.2042
周公	-10.2045
尚有	-10.2046
雖有	-10.2047
國人	-10.2051
記之	-10.2054
老僧	-10.2059
逝	-10.2065
此物	-10.2065
尺餘	-10.207
得此	-10.2071
逆旅	-10.2071
車駕	-10.2072
乃曰	-10.2074
手足	-10.2075
疋	-10.2078
貝	-10.208
數萬	-10.2091
碩	-10.2092
寅	-10.2093
蘆	-10.2094
酉	-10.2094
做	-10.2095
鵠	-10.2096
閒話	-10.21
楊氏	-10.21
擕	-10.21
韋氏	-10.2101
東方	-10.2103
風俗	-10.2105
入山	-10.2113
一言	-10.2115
西域	-10.2116
頗有	-10.2125
驚異	-10.2127
入京	-10.2137
起居	-10.2149
子瞻	-10.2153
奢	-10.2153
軟	-10.2154
猷	-10.2155
譴	-10.2156
戀	-10.2158
軀	-10.2159
廬山	-10.2161
陜西	-10.2176
京城	-10.2177
死矣	-10.2177
怪之	-10.2183
後主	-10.2192
不成	-10.2197
之禍	-10.22
當世	-10.2205
棠	-10.2207
股	-10.2212
縮	-10.2214
夭	-10.2215
庠	-10.2216
禾	-10.2219
飬	-10.222
䑓	-10.222
抄	-10.2226
諸葛	-10.2226
即命	-10.2236
置酒	-10.2236
訊	-10.2241
上帝	-10.2249
所著	-10.2261
敷	-10.2264
主者	-10.2266
水出	-10.2266
藪	-10.227
幅	-10.2271
䜟	-10.2272
之孫	-10.2273
觀其	-10.2274
元豐	-10.2275
入朝	-10.2275
冕	-10.2277
翅	-10.2278
皇甫	-10.2279
畔	-10.2279
漂	-10.228
白馬	-10.2288
天后	-10.2296
中郎	-10.2296
甲子	-10.2298
遂絶	-10.23
舉子	-10.2308
代之	-10.2322
淹	-10.2322
中原	-10.2326
北海	-10.2327
鵝	-10.2337
蟠	-10.2338
禀	-10.2338
窓	-10.2339
汙	-10.2342
鞫	-10.2342
竈	-10.2342
耗	-10.2342
炳	-10.2343
罹	-10.2346
胄	-10.2346
十餘年	-10.2351
故曰	-10.2355
上言	-10.2358
為業	-10.2368
聞者	-10.2371
置之	-10.2377
嘗以	-10.2379
諾	-10.2386
其中多	-10.2387
爲之	-10.2388
王母	-10.2388
指揮	-10.239
平江	-10.2391
俄有	-10.2395
蟻	-10.2396
今年	-10.24
琵琶	-10.2402
怠	-10.2403
减	-10.2404
曳	-10.2407
貎	-10.2408
見而	-10.241
千萬	-10.2418
其女	-10.2419
殿前	-10.2423
其狀如	-10.2432
評	-10.2434
忠宣	-10.2437
祿	-10.2438
不問	-10.2447
之初	-10.2448
一事	-10.2449
為文	-10.2456
本草	-10.2456
若干	-10.246
今在	-10.2461
堦	-10.2464
賫	-10.2467
殁	-10.2468
逕	-10.2468
朱衣	-10.2468
梟	-10.2468
丈人	-10.2469
撃	-10.2469
認	-10.2469
之家	-10.2476
安道	-10.2478
笞	-10.2479
民間	-10.248
忽然	-10.249
後數日	-10.2495
于時	-10.2497
至正	-10.2499
漢書	-10.2503
殊不	-10.251
日暮	-10.2515
小字	-10.2515
鸚鵡	-10.2519
竅	-10.2529
陂	-10.2533
陪	-10.2535
之處	-10.2537
焚之	-10.2543
夏侯	-10.255
潁	-10.2555
庭中	-10.2555
或謂	-10.2566
蔓	-10.2582
雋	-10.2587
㨗	-10.2594
䝉	-10.2595
郁	-10.2595
緡	-10.2598
得非	-10.2601
奔走	-10.2612
國史	-10.2616
避之	-10.2617
十人	-10.2619
山海經	-10.2634
以待	-10.2637
分明	-10.2637
識之	-10.2639
狄	-10.2647
闔	-10.2647
檜	-10.2647
磬	-10.2649
世祖	-10.2649
仆	-10.265
知人	-10.265
銓	-10.265
汝南	-10.2651
腐	-10.2655
沸	-10.2656
道路	-10.2657
括	-10.2658
橘	-10.266
沆	-10.2667
侍御史	-10.268
明清	-10.2682
矣然	-10.2685
摘	-10.2693
溥	-10.2697
入門	-10.27
是嵗	-10.2705
輟	-10.2714
醮	-10.272
顒	-10.2721
洋	-10.2721
舁	-10.2722
隐	-10.2723
淪	-10.2723
梓	-10.2724
忝	-10.2724
邇	-10.2726
愼	-10.2728
明旦	-10.2728
輅	-10.2733
皆如	-10.275
不利	-10.275
欽定四庫全書太平廣記卷	-10.2751
留之	-10.276
紛	-10.2762
僧曰	-10.2766
紳	-10.2767
公事	-10.2767
物也	-10.277
黄衣	-10.277
縣有	-10.2772
丐	-10.2774
綜	-10.2782
番	-10.2784
哥	-10.2784
隊	-10.2786
瀆	-10.2786
抽	-10.2786
贓	-10.2787
筭	-10.2787
未可	-10.2791
變化	-10.2795
以進	-10.2797
投之	-10.2799
黙然	-10.2801
曰今日	-10.2803
一千	-10.2814
丈餘	-10.2816
洛中	-10.282
械	-10.2822
以金	-10.2824
中宗	-10.2827
於前	-10.2833
梵	-10.2833
昆	-10.2833
平原	-10.2844
太史	-10.2846
喉	-10.2847
壤	-10.2848
鈔	-10.2852
湏	-10.2852
蟬	-10.2854
沐	-10.2855
吉甫	-10.2857
作相	-10.2858
不盡	-10.2862
廬陵	-10.2865
同時	-10.2867
不測	-10.2868
稱其	-10.2869
自云	-10.2874
遂令	-10.2881
三十六	-10.289
文王	-10.289
不是	-10.2895
流血	-10.2908
椒	-10.2909
西湖	-10.2912
涕泣	-10.2913
噫	-10.2913
兎	-10.2915
廼	-10.2916
灼	-10.2917
藴	-10.2918
鞠	-10.2922
五代	-10.2925
未見	-10.2931
而起	-10.2939
能言	-10.2946
功徳	-10.2948
自號	-10.2951
前有	-10.2954
秦王	-10.2955
崔氏	-10.2957
伶	-10.2959
爰	-10.2968
賢者	-10.2969
平日	-10.2969
泌	-10.297
駿	-10.2972
大抵	-10.2979
涇	-10.2979
翫	-10.298
遮	-10.2983
耿	-10.2985
琳	-10.2985
琰	-10.2986
赫	-10.2996
右丞	-10.2999
也乃	-10.3005
不獲	-10.3016
不去	-10.3021
宗室	-10.3021
嘯	-10.3027
而成	-10.3031
常侍	-10.3039
穎	-10.304
稅	-10.3047
忽一日	-10.3048
林甫	-10.3049
奸	-10.3051
為宰相	-10.3051
頃刻	-10.3057
則有	-10.3058
人所	-10.3059
不若	-10.3059
不足以	-10.3072
乃令	-10.3075
出談	-10.3101
一室	-10.3101
竦	-10.3107
聨	-10.3108
噉	-10.3113
鬬	-10.3115
縑	-10.3115
躡	-10.3115
瘦	-10.3116
拆	-10.3118
噬	-10.3119
唾	-10.3119
甌	-10.3122
禳	-10.3122
改元	-10.3124
見於	-10.3132
所有	-10.3138
其狀	-10.3148
其兄	-10.3149
復來	-10.3151
湖州	-10.3171
中夜	-10.3173
方知	-10.318
孕	-10.3182
艶	-10.3184
陞	-10.3184
疲	-10.3186
跋	-10.3187
稚	-10.3189
彛	-10.319
主司	-10.3192
留守	-10.3196
十四年	-10.3197
臨安	-10.3207
是何	-10.321
内有	-10.3218
以聞	-10.3219
夜半	-10.3221
異日	-10.3226
未盡	-10.3232
淨	-10.3236
可為	-10.3237
天寳	-10.3238
朝夕	-10.3238
茗	-10.3248
析	-10.3251
堆	-10.3251
疫	-10.3252
脅	-10.3256
卒於	-10.3257
隨之	-10.3265
本末	-10.3269
之學	-10.3272
樹下	-10.3275
之門	-10.3289
以問	-10.3291
坐客	-10.3292
安國	-10.3295
吳興	-10.3295
令史	-10.3307
者乎	-10.3308
未必	-10.3311
電	-10.3312
牖	-10.3315
篋	-10.3316
鴨	-10.3318
蚤	-10.3318
居之	-10.332
逡巡	-10.3321
籬	-10.3321
羌	-10.3321
言事	-10.3322
鬢	-10.3324
羸	-10.3326
遶	-10.3326
笑而	-10.3331
者則	-10.3332
南渡	-10.3335
元帥	-10.3338
爾後	-10.3347
十五年	-10.3354
一行	-10.3356
措	-10.3358
聰	-10.3365
疆	-10.3367
五千	-10.337
人事	-10.3375
問之曰	-10.3379
璟	-10.338
後來	-10.3382
相遇	-10.3387
坤	-10.3388
沾	-10.3389
演	-10.3389
梯	-10.3389
曜	-10.3389
者即	-10.339
湜	-10.339
國初	-10.3391
敝	-10.3392
彪	-10.3392
蠶	-10.3393
牋	-10.3393
該	-10.3396
睿	-10.3411
果得	-10.3415
神明	-10.3418
萬年	-10.3419
足矣	-10.3423
止於	-10.3426
謂人曰	-10.3432
長子	-10.3438
尚在	-10.3439
城南	-10.3448
酒食	-10.3452
獅子	-10.3453
襟	-10.3454
奬	-10.3458
鮑	-10.3459
紋	-10.3461
幣	-10.3464
名也	-10.3465
胸	-10.3473
提舉	-10.3478
宰執	-10.3484
唐人	-10.3486
甚喜	-10.3486
江湖	-10.3494
應舉	-10.3502
先帝	-10.3506
一女	-10.3507
其夕	-10.3512
兩府	-10.3512
所用	-10.3515
自古	-10.3518
窻	-10.3524
贄	-10.3526
瑜	-10.3528
以至	-10.3528
搖	-10.353
土人	-10.3533
術士	-10.3541
之前	-10.3541
輕薄	-10.3559
在位	-10.3561
粒	-10.3566
或以	-10.3572
七八	-10.3584
之東	-10.3585
稷	-10.359
以自	-10.3591
昨夜	-10.3592
移時	-10.3595
催	-10.3595
靖康	-10.3595
膚	-10.3597
何足	-10.3598
蔚	-10.3598
懽	-10.3599
綏	-10.3599
七月	-10.3599
聳	-10.36
墟	-10.3602
綸	-10.3602
凍	-10.3602
宥	-10.3605
不聽	-10.3609
可愛	-10.3612
存焉	-10.3612
裳	-10.3614
此亦	-10.3616
翟	-10.3616
生子	-10.3621
帝王	-10.3622
蔡京	-10.3623
一枚	-10.3624
千載	-10.3625
聽之	-10.3629
神録	-10.363
丙	-10.3632
劉氏	-10.3647
不安	-10.3654
授以	-10.3656
失之	-10.3657
弘	-10.366
書之	-10.3664
模	-10.3668
甚衆	-10.3668
吝	-10.3673
覔	-10.3673
之制	-10.3674
謡	-10.3675
浄	-10.3677
曰彼	-10.3679
尚未	-10.3682
兵部	-10.3683
不忘	-10.3688
諸王	-10.3692
讀之	-10.3696
亦然	-10.3697
多少	-10.3709
不知所在	-10.3713
猶有	-10.3721
具言	-10.3723
其處	-10.3728
蹄	-10.3731
疑之	-10.3733
以獻	-10.3737
販	-10.3741
䕃	-10.3742
構	-10.3743
馴	-10.3744
縳	-10.3746
讐	-10.3746
衾	-10.3747
於朝	-10.3747
春風	-10.3748
聞於	-10.3761
長者	-10.3761
其先	-10.3762
彭城	-10.3764
執中	-10.3766
小吏	-10.3767
胡人	-10.3769
犢	-10.3774
耆	-10.3782
李生	-10.3785
此言	-10.3786
三品	-10.3791
自若	-10.3793
其心	-10.3797
郡人	-10.3803
潁川	-10.3805
又見	-10.3805
幘	-10.3808
别傳曰	-10.3809
卻	-10.381
㓂	-10.3811
徽宗	-10.3811
璫	-10.3813
漳	-10.3814
旻	-10.3815
銷	-10.3817
淳熙	-10.3818
徘徊	-10.3819
琛	-10.382
鱠	-10.382
議論	-10.3821
王曰	-10.3821
見人	-10.3825
吏部尚書	-10.3829
召見	-10.3831
貴妃	-10.3834
臨川	-10.3835
為詩	-10.3843
恤	-10.3847
二十五	-10.3849
也因	-10.3855
僉	-10.3855
皆是	-10.3856
荆南	-10.3857
白玉	-10.386
將相	-10.3863
參政	-10.3869
明經	-10.387
渡江	-10.387
者非	-10.3874
浚	-10.3879
稻	-10.3881
菊	-10.3885
吁	-10.3886
之說	-10.3886
九十	-10.3889
撓	-10.389
囑	-10.389
塊	-10.3891
巻	-10.3891
精神	-10.3892
芻	-10.3893
所生	-10.3894
高祖	-10.3899
郎官	-10.3901
慎勿	-10.3908
詞云	-10.3913
西川	-10.3916
嘗見	-10.3916
三子	-10.392
出國	-10.3935
即令	-10.3936
將去	-10.3938
十九	-10.3947
而不能	-10.3949
窠	-10.3951
禺	-10.3954
蹇	-10.3955
之女	-10.3957
議者	-10.3957
數百人	-10.3958
汎	-10.3959
佑	-10.3959
岩	-10.3961
聶	-10.3962
先君	-10.3972
廓	-10.3973
兩人	-10.3974
其夫	-10.3981
盞	-10.3988
坐於	-10.3995
覲	-10.3997
奄	-10.4006
太上	-10.4006
浙	-10.4006
而立	-10.402
言於	-10.4021
之西	-10.4023
十萬	-10.4023
今夕	-10.4024
夙	-10.4025
入城	-10.4025
掲	-10.4026
蟹	-10.4026
鏤	-10.4028
柏	-10.4028
曵	-10.4029
蹈	-10.403
粹	-10.4031
建炎	-10.4031
延之	-10.4032
坎	-10.4032
濡	-10.4033
殿上	-10.4033
瑤	-10.4034
蹙	-10.4035
遂與	-10.4035
諒	-10.4037
幡	-10.4038
獻之	-10.4039
奥	-10.404
監察御史	-10.4042
武陵	-10.4042
匪	-10.4043
近臣	-10.4047
侍御	-10.4048
好事者	-10.4048
先子	-10.4048
遂命	-10.4052
無遺	-10.4058
隻	-10.4062
禍福	-10.4065
無敢	-10.4067
南康	-10.4077
莫知所	-10.4078
色如	-10.408
劄	-10.4088
經史	-10.4091
酒酣	-10.4096
題詩	-10.41
殿中	-10.4101
楮	-10.4103
婉	-10.4104
餞	-10.4106
瓜	-10.4107
欠	-10.4107
婦女	-10.4107
轍	-10.4108
芒	-10.4109
云某	-10.411
窘	-10.4111
歇	-10.4113
熟視	-10.4113
得道	-10.4115
翺	-10.4116
當國	-10.4123
觀察使	-10.4124
親戚	-10.4124
寺中	-10.4129
文定	-10.413
進退	-10.4132
從官	-10.4152
十三年	-10.4165
貞觀	-10.4166
則曰	-10.4168
劉公	-10.4173
數尺	-10.4173
酸	-10.4173
位至	-10.4174
亢	-10.4174
𧖟	-10.4176
諫官	-10.4179
遙	-10.4179
俶	-10.418
瑾	-10.4182
舟中	-10.4183
頥	-10.4184
慿	-10.4184
婁	-10.4185
三十里	-10.4196
四百	-10.4198
光禄	-10.4199
上元	-10.4201
蓮花	-10.4205
為誰	-10.4222
伺之	-10.4223
已有	-10.4224
江夏	-10.4227
穴中	-10.4228
不甚	-10.4232
時方	-10.4242
鄭公	-10.4242
榆	-10.4247
次第	-10.4248
苖	-10.4251
畝	-10.4254
憇	-10.4254
朶	-10.4254
兇	-10.4258
蹤	-10.4258
韜	-10.4259
滌	-10.4259
螺	-10.426
渥	-10.4263
曰陛下	-10.4266
不喜	-10.4271
施行	-10.4272
而生	-10.4277
人或	-10.4278
驗之	-10.4279
衣食	-10.428
五品	-10.429
呼曰	-10.4297
五人	-10.4306
入内	-10.4306
釋氏	-10.431
内侍	-10.4315
祭酒	-10.4317
祗	-10.4318
之兆	-10.4319
國有	-10.432
上疏	-10.4321
侂胄	-10.4321
孚	-10.4324
女郎	-10.4325
零	-10.4329
毬	-10.433
鈴	-10.433
透	-10.4333
參知政事	-10.4333
躁	-10.4333
二三	-10.4336
揭	-10.4338
以書	-10.434
韓魏公	-10.4341
將至	-10.4345
軍士	-10.4348
漢武帝	-10.4356
海中	-10.4359
稱之	-10.4363
記曰	-10.4365
前輩	-10.437
是夜	-10.437
河中	-10.437
郭曰音	-10.4378
禧	-10.4381
何用	-10.4384
用此	-10.4386
試之	-10.4389
有獸焉其狀如	-10.4397
僞	-10.4402
失所在	-10.4402
世間	-10.4404
脊	-10.4405
熾	-10.4405
狸	-10.4406
挍	-10.4407
核	-10.4408
煇	-10.4409
西王母	-10.441
圖贊曰	-10.4411
甚盛	-10.4412
失其	-10.4413
弱冠	-10.4414
庇	-10.4414
劵	-10.4415
明帝	-10.4415
四時	-10.4416
堯舜	-10.4419
變為	-10.4425
仙傳	-10.4426
耳目	-10.4426
相對	-10.4426
於時	-10.4432
同行	-10.4433
暴卒	-10.4451
有才	-10.4451
天命	-10.4452
嘉祐	-10.4453
簡文	-10.4456
五行	-10.4468
甚急	-10.4473
又西	-10.4475
遇之	-10.448
得疾	-10.448
忠義	-10.4482
自知	-10.4484
有物	-10.4485
税	-10.4485
枷	-10.4486
郢	-10.4487
褥	-10.4487
炊	-10.4488
誚	-10.4489
憩	-10.4489
此語	-10.449
青州	-10.4491
平章事	-10.4494
西山	-10.4494
媒	-10.4495
池中	-10.4497
人父	-10.4501
十餘日	-10.4505
山林	-10.4506
北齊	-10.4508
誦經	-10.4509
明公	-10.4512
作一	-10.4518
歌曰	-10.4531
有疾	-10.4532
復生	-10.454
晉陽	-10.4542
不下	-10.4544
以備	-10.4547
益州	-10.4547
歌舞	-10.4547
誅之	-10.4552
殻	-10.4555
牟	-10.4557
曰天	-10.4557
得失	-10.4558
控	-10.4558
砂	-10.4558
莫知	-10.456
貳	-10.4561
禇	-10.4562
煖	-10.4564
技	-10.4566
誼	-10.4566
綾	-10.4567
債	-10.4568
有女	-10.4573
題云	-10.4575
愕然	-10.4576
庖	-10.458
都下	-10.4581
三公	-10.4585
城下	-10.4589
四五	-10.4592
無此	-10.4593
止之	-10.4596
而上	-10.4597
相去	-10.4598
令公	-10.4606
父老	-10.4606
大雨	-10.4608
其説	-10.4609
矣又	-10.4611
上意	-10.4614
其志	-10.4618
不易	-10.4623
地下	-10.4628
葵	-10.4636
欄	-10.4636
臻	-10.4636
開封	-10.4637
闇	-10.4637
行之	-10.4638
線	-10.4638
其木多	-10.464
拭	-10.4641
鄱陽	-10.4641
大駭	-10.4641
文宗	-10.4642
薦之	-10.4643
蠱	-10.4643
顧謂	-10.4643
戾	-10.4645
至京師	-10.4646
廨	-10.4646
遏	-10.4646
京兆尹	-10.4647
簪	-10.4648
已來	-10.4652
顛	-10.4654
必不	-10.4655
已死	-10.4657
車騎	-10.4658
其國	-10.4663
力士	-10.4665
陳留	-10.4669
異志	-10.4672
王生	-10.4684
人主	-10.4685
人情	-10.4695
白日	-10.4695
鵰	-10.4708
天上	-10.4711
喙	-10.4716
恚	-10.4718
未敢	-10.4719
郝	-10.4719
挂	-10.472
鴟	-10.472
痕	-10.4721
杳	-10.4721
上天	-10.4722
遞	-10.4722
餐	-10.4723
袂	-10.4724
豎	-10.4724
徐州	-10.473
至矣	-10.473
可見	-10.4734
二千	-10.4736
拜謝	-10.4736
之亂	-10.4739
崇寧	-10.4742
初為	-10.4747
家事	-10.4747
歎息	-10.4748
長三尺	-10.4748
骨肉	-10.4749
覆之	-10.475
信之	-10.4753
但以	-10.4753
之詞	-10.4759
龍門	-10.4761
擢第	-10.4763
所能	-10.4764
堂中	-10.4765
將來	-10.4769
太白	-10.4771
釵	-10.4778
自外	-10.4779
或問	-10.478
羔	-10.4789
新婦	-10.479
棟	-10.4791
今人	-10.4793
柯	-10.4795
畿	-10.4796
轉運使	-10.4798
馭	-10.48
楹	-10.48
詢其	-10.4802
敞	-10.4804
元和中	-10.4805
恍惚	-10.4805
第四	-10.481
多矣	-10.4813
望見	-10.4816
内史	-10.4821
初不	-10.4825
口中	-10.4826
此山	-10.4832
拒之	-10.4834
武昌	-10.4849
老翁	-10.485
恢	-10.4862
其故	-10.4866
熙寧	-10.4874
祁	-10.4874
倪	-10.4875
骸	-10.4876
別	-10.4877
筋	-10.4877
齧	-10.4878
㢘	-10.488
虬	-10.4881
扉	-10.4887
有僧	-10.4889
是年	-10.489
軌	-10.4892
救之	-10.4899
聰明	-10.4904
譙	-10.4905
三代	-10.4906
以謂	-10.4915
土地	-10.4918
之首	-10.4925
庚	-10.4927
摭	-10.493
不通	-10.493
在中書	-10.495
拙	-10.4951
筯	-10.4956
弦	-10.4959
賄	-10.496
薰	-10.496
覓	-10.4962
其說	-10.4966
天王	-10.497
因此	-10.4976
所出	-10.4977
莫知其	-10.4981
出異	-10.4982
暇日	-10.4983
在外	-10.4989
與同	-10.4989
吏曰	-10.4991
出一	-10.4996
出摭	-10.4998
之南	-10.5003
後漢	-10.5004
以致	-10.5005
下第	-10.501
美人	-10.5011
捜	-10.5012
性命	-10.5012
侍者	-10.5013
怡	-10.5014
食頃	-10.5016
東陽	-10.5019
不能自	-10.5026
終於	-10.5028
必先	-10.503
寓居	-10.503
㡌	-10.5032
五尺	-10.5033
英宗	-10.5037
剥	-10.5039
野人	-10.5041
倘	-10.5041
豚	-10.5041
稜	-10.5043
藍	-10.5043
十卷	-10.5043
未嘗不	-10.5043
劉昫唐書曰	-10.5045
後至	-10.5047
如人	-10.5049
及其	-10.5051
之理	-10.5069
用兵	-10.5075
客曰	-10.5076
明月	-10.508
獨孤	-10.5085
神記	-10.5086
嘗言	-10.5087
陽縣	-10.5088
其術	-10.509
左丞	-10.5095
羲	-10.5101
陛	-10.5106
於外	-10.511
森	-10.5111
者或	-10.5111
韓公	-10.5118
蕪	-10.5122
怯	-10.5123
之精	-10.5123
籌	-10.5124
名為	-10.5125
麄	-10.5125
吏部侍郎	-10.5126
維揚	-10.5131
於世	-10.5134
貴賤	-10.5134
百餘人	-10.5134
盧氏	-10.5141
博物志	-10.5142
棄之	-10.5149
八九	-10.515
緋	-10.5151
累日	-10.5152
有光	-10.5162
沛	-10.5167
辭去	-10.5168
翊	-10.5171
歐	-10.5172
小者	-10.5175
服其	-10.5177
而還	-10.518
蘇州	-10.5186
乃自	-10.5192
液	-10.5194
尚存	-10.5196
憲宗	-10.5196
之妻	-10.5199
姓氏	-10.5206
悶	-10.5206
駒	-10.5207
椀	-10.5207
捐	-10.5207
紹聖	-10.5212
僣	-10.5214
其次	-10.5225
監司	-10.5226
周禮	-10.5229
之神	-10.5237
不祥	-10.5239
上皇	-10.524
光明	-10.5249
以求	-10.5251
餓	-10.5253
自負	-10.5254
海外	-10.5255
仁義	-10.5255
乾道	-10.527
脯	-10.5271
日中	-10.5274
隸	-10.5274
相顧	-10.5279
去矣	-10.5283
乃取	-10.5285
瓘	-10.5287
嚮	-10.5288
四面	-10.5288
二十里	-10.5289
矣今	-10.529
槖	-10.5291
嫉	-10.5293
涓	-10.5293
鑰	-10.5293
歸家	-10.5293
葺	-10.5294
禮部侍郎	-10.5296
也吾	-10.5302
福州	-10.5304
選人	-10.5306
輕重	-10.5309
以前	-10.532
遂得	-10.5322
道之	-10.5328
驚曰	-10.5329
之子也	-10.5329
其下多	-10.5332
語之曰	-10.5337
曰大	-10.5338
士卒	-10.534
𩔖也	-10.5342
又聞	-10.5342
請以	-10.5345
乃去	-10.5352
孝子	-10.5352
既去	-10.5355
如舊	-10.5356
長老	-10.536
乘馬	-10.5363
即此	-10.5364
大風	-10.5366
胷	-10.537
敬之	-10.537
憾	-10.5372
嘏	-10.5373
稀	-10.5375
炬	-10.5375
隘	-10.5375
殞	-10.5376
溫	-10.5377
虧	-10.5379
皁	-10.5379
頒	-10.538
前代	-10.5382
這	-10.5384
謝公	-10.5389
三十餘	-10.5393
而走	-10.5393
平章	-10.5402
多有	-10.5411
經年	-10.5412
獲免	-10.5414
與王	-10.5416
吾家	-10.5416
曽祖	-10.5427
所害	-10.5437
必死	-10.5441
咸通	-10.5442
百千	-10.5444
改名	-10.5452
敖	-10.5456
栖	-10.5457
鳳翔	-10.5457
岑	-10.5459
夲	-10.546
陳氏	-10.5464
不答	-10.5464
亶	-10.5465
之風	-10.5471
湖南	-10.5471
師道	-10.5474
御史大夫	-10.5486
至京	-10.5488
私第	-10.5488
天竺	-10.5489
後以	-10.5489
字仲	-10.549
今已	-10.5496
嘗聞	-10.5496
晚年	-10.5496
殂	-10.5497
者謂	-10.5502
之役	-10.5502
相識	-10.5503
鐸	-10.5507
曰妾	-10.5508
處分	-10.5523
八百	-10.5526
松江	-10.5526
綬	-10.5528
晉陽秋曰	-10.5528
洪州	-10.5535
制度	-10.5535
箸	-10.5536
濃	-10.5539
倩	-10.554
出幽	-10.5541
遇一	-10.5541
井中	-10.5541
鎬	-10.5542
拍	-10.5544
唇	-10.5546
耽	-10.5546
鋭	-10.5547
畨	-10.5547
弁	-10.5549
死生	-10.5549
惋	-10.555
江左	-10.5551
忽有一	-10.5552
然不	-10.556
以文	-10.5564
史記	-10.5564
李林甫	-10.5571
近世	-10.5575
無子	-10.5579
城門	-10.5579
建安	-10.5583
鍾山	-10.5584
入相	-10.5587
此乃	-10.5588
生人	-10.5588
治平	-10.5593
奴婢	-10.5594
死後	-10.5596
正統	-10.5597
以白	-10.5599
以奉	-10.5599
對曰臣	-10.561
使我	-10.5613
又嘗	-10.5614
奏請	-10.5615
蔬	-10.5615
而復	-10.5615
有㫖	-10.5616
出家	-10.5617
真君	-10.5619
甚有	-10.562
應聲	-10.5622
苔	-10.5624
郗	-10.5624
袋	-10.5624
庻	-10.5625
葱	-10.5626
縫	-10.5626
官職	-10.5627
濯	-10.5628
軫	-10.563
數四	-10.563
矩	-10.5633
如前	-10.5633
蝶	-10.5633
椽	-10.5633
妬	-10.5636
乍	-10.5637
曲江	-10.564
又謂	-10.564
雜記	-10.5647
元嘉	-10.5649
嵩山	-10.5656
忽見一	-10.5663
大觀	-10.5671
之餘	-10.5674
既入	-10.5677
所致	-10.5682
永樂	-10.5682
世宗	-10.5683
所由	-10.5685
此則	-10.5688
貞元中	-10.5689
果然	-10.5691
樞宻	-10.5692
其形	-10.5692
民家	-10.5702
又何	-10.5707
蓬萊	-10.5709
拽	-10.571
魄	-10.5713
醇	-10.5714
異常	-10.5714
桓公	-10.5715
小説	-10.5718
頰	-10.5718
棹	-10.5721
黄門	-10.5722
州郡	-10.5723
翳	-10.5724
刻石	-10.5728
嬰兒	-10.5731
不自	-10.5731
與汝	-10.5733
宇文	-10.5749
罷相	-10.575
方悟	-10.5751
人語	-10.5752
所至	-10.5756
更無	-10.5762
如言	-10.5762
以賜	-10.5765
之變	-10.5767
莽	-10.5767
見此	-10.5773
太山	-10.5775
大事	-10.5779
執事	-10.5781
撤	-10.5786
又言	-10.5789
僊	-10.5792
中興書曰	-10.5793
牘	-10.5796
紿	-10.5799
侣	-10.5801
箠	-10.5801
煉	-10.5802
鳬	-10.5803
䟦	-10.5804
郭璞	-10.5804
租	-10.5806
畋	-10.5806
醋	-10.5809
詢之	-10.5811
窺之	-10.5811
吉凶	-10.5812
晋	-10.5813
為一	-10.5819
士子	-10.5822
地獄	-10.5829
稍稍	-10.5832
能為	-10.5834
東宫	-10.5834
或言	-10.5838
其神	-10.5855
三百里	-10.5861
觀音	-10.5863
題曰	-10.5864
堂上	-10.5869
曰王	-10.5871
齡	-10.5873
每至	-10.5876
校官	-10.5879
侃	-10.5879
漬	-10.5884
鉢	-10.5884
璠	-10.5886
隷	-10.5887
出為	-10.589
騷	-10.589
袒	-10.5891
伊川	-10.5891
白雲	-10.5891
籙	-10.5891
交趾	-10.5892
公子	-10.5893
堤	-10.5893
倣	-10.5895
抛	-10.5896
舟人	-10.5897
責之	-10.5898
閨	-10.5901
之甚	-10.5906
江州	-10.5906
為名	-10.5906
漁人	-10.5907
長丈餘	-10.5907
昭宗	-10.591
有客	-10.5915
大呼	-10.5916
之情	-10.5917
庭下	-10.5917
目為	-10.5917
養之	-10.5925
睦	-10.5925
其詞	-10.5928
其色	-10.5932
乳母	-10.5932
孝宗	-10.5938
慶厯	-10.5939
奉詔	-10.594
佛寺	-10.594
衣裳	-10.595
九日	-10.5951
諤	-10.5951
亦自	-10.5953
非也	-10.5953
氏子	-10.5956
也若	-10.5972
點	-10.5976
梳	-10.5977
石上	-10.5978
玉女	-10.5981
𥿄	-10.5982
臠	-10.5982
所聞	-10.5984
兵馬	-10.5984
儔	-10.5985
舉家	-10.5986
靴	-10.5986
遣之	-10.5988
東方朔	-10.5989
鬛	-10.599
桞	-10.5993
何在	-10.5995
其語	-10.5996
無益	-10.5997
迎之	-10.5998
嘗於	-10.6
一石	-10.6
甚嚴	-10.6
同知	-10.6002
曰非	-10.6007
過人	-10.6009
三司	-10.602
意欲	-10.6021
為此	-10.6029
天台	-10.6032
云吾	-10.6036
縣人	-10.6039
其他	-10.604
目之	-10.6042
人臣	-10.6043
一生	-10.6045
從而	-10.6051
如今	-10.6052
㕘	-10.6052
流沙	-10.6058
彥	-10.6061
翹	-10.6062
邑人	-10.6063
昶	-10.6063
日夜	-10.6064
會稽	-10.6065
勣	-10.6066
冨	-10.6067
臆	-10.6068
琦	-10.6068
獨不	-10.607
閹	-10.6071
且曰	-10.6072
諫議大夫	-10.6073
始得	-10.6073
現	-10.6074
耻	-10.6074
乆矣	-10.6075
毆	-10.6076
悍	-10.6077
固辭	-10.6077
系	-10.6077
市人	-10.6077
聲如	-10.6078
别墅	-10.6079
樞宻院	-10.608
媿	-10.6081
術者	-10.6094
鳥獸	-10.6097
不異	-10.6105
不意	-10.6105
昔日	-10.6107
幽州	-10.6112
賜之	-10.6116
賦云	-10.6116
海上	-10.6116
曰願	-10.6119
供養	-10.6124
萬一	-10.6133
不悦	-10.6135
何時	-10.6136
復見	-10.614
哲宗	-10.6142
太平廣記卷二百	-10.6142
金石	-10.6143
珣	-10.6148
訥	-10.6152
問其所	-10.6153
此地	-10.6155
外有	-10.6155
以疾	-10.6156
以事	-10.6157
譯	-10.6159
絡	-10.6159
簮	-10.616
瞿	-10.6161
饗	-10.6161
晉公	-10.6163
與我	-10.6163
彘	-10.6164
東平	-10.6165
麤	-10.6168
五行記	-10.617
王師	-10.6179
張華	-10.6183
生死	-10.6185
頓首	-10.619
天帝	-10.6194
公公	-10.6196
子厚	-10.6196
倉卒	-10.6198
金吾	-10.6199
知舉	-10.6202
因命	-10.6209
髙麗	-10.621
見二	-10.6212
朝野	-10.6213
志曰	-10.6215
珠林	-10.6221
論語	-10.6223
功名	-10.6224
詩有	-10.6226
奈	-10.6227
其詩	-10.6229
舎人	-10.623
過之	-10.6234
北門	-10.6236
趙氏	-10.6236
相似	-10.6237
山上	-10.6238
祜	-10.6238
闈	-10.6242
嘗謂	-10.6243
渴	-10.6247
旄	-10.6251
名山	-10.6253
祇	-10.6255
悽	-10.6255
灘	-10.6256
洩	-10.6256
劫	-10.6257
准	-10.6257
劣	-10.6257
奎	-10.6258
嵗餘	-10.6259
供奉	-10.6262
人生	-10.6264
甚美	-10.6266
潞公	-10.6266
人世	-10.6267
因謂	-10.627
七百	-10.6271
叔父	-10.6271
之議	-10.6279
都尉	-10.6284
人云	-10.6289
人祖	-10.629
以俟	-10.6292
若水	-10.6293
上表	-10.6297
亦云	-10.6298
熈寧	-10.6298
數丈	-10.6304
考之	-10.6304
不就	-10.631
復何	-10.6312
王丞相	-10.6315
公為	-10.6317
温公	-10.6321
語及	-10.6322
始知	-10.6324
容色	-10.6328
好道	-10.633
不久	-10.6337
年二十	-10.6338
於道	-10.6339
臧	-10.634
在坐	-10.6343
著書	-10.6344
挑	-10.6344
妍	-10.6345
縈	-10.6345
貼	-10.6347
腥	-10.6348
詬	-10.6348
吠	-10.6348
氊	-10.6348
濛	-10.6349
􁁊	-10.6349
則又	-10.6353
元長	-10.6353
去其	-10.6353
射之	-10.6356
公以	-10.6356
禄山	-10.6365
如意	-10.6365
見者	-10.6373
去之	-10.6375
其背	-10.6376
一枝	-10.6376
憫	-10.6381
傳云	-10.6385
千金	-10.6388
有文	-10.6389
曰此是	-10.6389
幾何	-10.639
一聲	-10.6393
屏風	-10.6394
郭曰言	-10.6396
趙公	-10.6397
每日	-10.6398
一僧	-10.64
諸君	-10.64
僮	-10.6403
然亦	-10.6413
湧	-10.6413
亦何	-10.6416
其日	-10.6416
未嘗有	-10.6418
無所見	-10.642
之民	-10.6421
病死	-10.6422
出于	-10.6422
乗馬	-10.6424
得錢	-10.6428
鉤	-10.6435
捲	-10.6442
躭	-10.6442
國子監	-10.6442
慟哭	-10.6442
啜	-10.6443
因與	-10.6445
有名	-10.6445
西方	-10.6449
出法	-10.6451
蝗	-10.6453
之患	-10.6454
也余	-10.6458
居此	-10.6458
以授	-10.6462
不入	-10.6465
沂	-10.6466
録事	-10.6466
也李	-10.647
常州	-10.6481
其法	-10.6482
韓愈	-10.6483
不願	-10.6485
者得	-10.6485
不肖	-10.6485
周旋	-10.6487
腹中	-10.6493
高宗	-10.6497
此詩	-10.6504
至夜	-10.6513
其為人	-10.6519
嬌	-10.6522
出身	-10.6526
奭	-10.6527
攷	-10.653
愷	-10.6531
澹	-10.6532
壮	-10.6532
滔	-10.6533
怕	-10.6533
寕	-10.6533
軾	-10.6534
蠅	-10.6534
準	-10.6535
琢	-10.6535
悖	-10.6537
攘	-10.6539
讎	-10.654
紛紛	-10.6543
乎曰	-10.6543
去後	-10.6544
諸軍	-10.6551
釋之	-10.6552
前事	-10.6554
安能	-10.6559
未聞	-10.6568
藏之	-10.6575
又東	-10.6577
其才	-10.6583
之書	-10.6584
推官	-10.6588
竒之	-10.6588
及此	-10.6594
那得	-10.6599
邠	-10.6603
河陽	-10.6609
兩日	-10.661
又令	-10.661
應之	-10.6619
前日	-10.6621
啇	-10.6621
唐書	-10.6621
納之	-10.6625
憎	-10.6627
垢	-10.6627
揷	-10.6628
苐	-10.6628
釐	-10.663
爇	-10.6631
鞏	-10.6631
琬	-10.6632
幻	-10.6632
生者	-10.6633
代宗	-10.6634
牲	-10.6634
者其	-10.6634
卽	-10.6638
覃	-10.6638
意其	-10.6638
形狀	-10.6642
余嘗	-10.6647
驚懼	-10.6656
經云	-10.6663
崑山	-10.6664
蜀中	-10.6664
無言	-10.6668
泗	-10.6672
雖然	-10.6676
一一	-10.6686
檢校	-10.6689
退之	-10.6693
末年	-10.6703
乃出	-10.6703
行者	-10.6703
諦	-10.6707
甥	-10.6711
惇	-10.6714
不差	-10.6714
方士	-10.6715
麾	-10.6717
富公	-10.6718
宗皇帝	-10.6719
雁	-10.672
第五	-10.6721
欽定四庫全書子部十二	-10.6721
峭	-10.6723
黥	-10.6724
愔	-10.6726
忙	-10.6728
既出	-10.6729
佯	-10.673
捶	-10.673
嫂	-10.673
夘	-10.6731
燧	-10.6732
錫熊	-10.6732
毅總	-10.6733
五經	-10.6735
悞	-10.6735
貧賤	-10.6736
文昌	-10.6737
笥	-10.6738
禎	-10.6738
晟	-10.6739
遺之	-10.6739
其音如	-10.6743
而言曰	-10.6746
太保	-10.6748
宛然	-10.675
别有	-10.6752
實録	-10.6757
時事	-10.6758
此時	-10.676
之妙	-10.6761
九江	-10.6765
家僮	-10.6767
任臣	-10.677
十一年	-10.6771
憐之	-10.6788
復出	-10.6793
已上	-10.6798
以成	-10.68
不改	-10.68
嗜酒	-10.6802
中出	-10.6809
諸司	-10.6811
惶	-10.6811
亦多	-10.6814
此𩔖	-10.6815
功曹	-10.6815
等謹案	-10.6817
詎	-10.6821
龔	-10.6822
脈	-10.6823
掇	-10.6823
肌	-10.6823
浣	-10.6823
愿	-10.6825
月恭校上	-10.6825
頑	-10.6825
昀	-10.6825
尤甚	-10.6825
卯	-10.6825
隠	-10.6826
事皆	-10.6826
蠧	-10.6827
邃	-10.6828
仰視	-10.683
吾子	-10.6834
不少	-10.6835
峴	-10.6836
所欲	-10.6836
垂簾	-10.6837
官軍	-10.6842
學問	-10.6842
旣而	-10.6848
忽夢	-10.6849
樓上	-10.6849
樞宻使	-10.6849
孫士	-10.6851
遂至	-10.6852
清風	-10.6856
太平廣記卷	-10.6856
復為	-10.6857
與此	-10.6862
一門	-10.6867
送至	-10.6871
不曉	-10.6874
乃得	-10.6875
之類	-10.6876
知府	-10.6885
閬	-10.6889
遇害	-10.6889
寥	-10.6889
曰此人	-10.6889
頭上	-10.689
瑣	-10.6897
叱之	-10.6898
一時之	-10.6901
安知	-10.6904
出城	-10.6905
迄	-10.6907
京口	-10.6911
瑀	-10.6914
霖	-10.6914
中令	-10.6916
霑	-10.6916
徃來	-10.6917
劭	-10.6917
谿	-10.6917
三間	-10.6918
須㬰	-10.6918
則以	-10.6919
觜	-10.6919
蹟	-10.6923
湫	-10.6923
宸	-10.6924
廡	-10.6925
與諸	-10.6926
城縣	-10.6926
入水	-10.6927
盍	-10.6927
瀛	-10.6927
叅政	-10.6937
可知	-10.6937
所夢	-10.6942
之異	-10.6945
食人	-10.6948
仲尼	-10.6949
度支	-10.6958
流水	-10.696
文肅	-10.696
無罪	-10.6961
之計	-10.6964
山隂	-10.6966
飼	-10.6968
之勢	-10.697
莫之	-10.6973
久而	-10.6976
以来	-10.6976
司農	-10.6978
不爾	-10.6982
知州	-10.6987
問何	-10.6994
鄂	-10.6997
詹	-10.7008
鄰人	-10.7008
其姓名	-10.7008
也及	-10.701
五十里	-10.7012
三卷	-10.7012
亦名	-10.7013
妨	-10.7016
煑	-10.7016
有石	-10.7017
徤	-10.7018
洒	-10.7019
巽	-10.7019
懲	-10.7021
衘	-10.7021
之父	-10.7022
劔	-10.7023
杲	-10.7023
吻	-10.7024
礙	-10.7024
駮	-10.7025
顥	-10.7025
出續	-10.7027
琮	-10.7028
尅	-10.7028
為御史	-10.7029
提要	-10.7029
娼	-10.7029
仁傑	-10.703
牀上	-10.7031
不畏	-10.7034
旦夕	-10.7042
行人	-10.7043
近日	-10.7044
金剛	-10.7045
在京	-10.7046
先主	-10.705
不敢言	-10.7053
字元	-10.7054
後因	-10.7057
廣古今	-10.706
之恩	-10.7072
大師	-10.7084
知者	-10.7093
北人	-10.7096
堂前	-10.7099
贈之	-10.7101
兩頭	-10.7105
范陽	-10.7106
在上	-10.7106
入蜀	-10.7111
四足	-10.7111
剡	-10.7111
蛙	-10.7113
浙江	-10.7114
疇	-10.7115
刁	-10.7117
閔	-10.7117
吼	-10.7117
雛	-10.7117
絮	-10.7118
忱	-10.7118
屏山	-10.7118
裸	-10.7118
种	-10.7118
玠	-10.7119
纓	-10.7121
詵	-10.7121
鎻	-10.7122
樽	-10.7123
譲	-10.7125
腫	-10.7126
自陳	-10.7128
曺	-10.7129
數十里	-10.7133
册	-10.7134
侍讀	-10.7139
風吹	-10.7139
以後	-10.7142
内翰	-10.7142
軍將	-10.7143
有罪	-10.7144
為人所	-10.7145
世傳	-10.7147
其夜	-10.7148
人亦	-10.7153
中有一	-10.7153
付之	-10.7153
亦不能	-10.7153
次日	-10.7164
平陽	-10.7164
驚駭	-10.7167
及至	-10.7167
公孫	-10.7169
有道	-10.7172
(○)	-10.718
出神	-10.7191
扈	-10.7199
楊公	-10.7207
顓頊	-10.7213
山其上多	-10.7215
以報	-10.7216
鯉	-10.7217
萃	-10.7219
意甚	-10.722
繆	-10.722
有兩	-10.7221
可惜	-10.7221
髭	-10.7221
江中	-10.7223
宛轉	-10.7224
暝	-10.7224
灾	-10.7224
笑語	-10.7226
性好	-10.7228
召入	-10.7231
何敢	-10.7237
不歸	-10.7237
無可	-10.7238
便是	-10.7239
友善	-10.7241
我我	-10.7243
千人	-10.7249
建中	-10.725
相隨	-10.7256
辭以	-10.7258
利害	-10.7264
不以為	-10.7265
武王	-10.7277
即是	-10.7279
兖州	-10.728
太平廣記卷三百	-10.728
古者	-10.7285
并州	-10.7287
獻可	-10.7292
平地	-10.7292
引入	-10.7294
王者	-10.7295
也夫	-10.7299
忠定	-10.73
必欲	-10.7301
舊制	-10.7301
學道	-10.7308
僖	-10.7309
壁間	-10.7311
有五	-10.7313
唯唯	-10.7313
尓	-10.7314
頤	-10.7316
娛	-10.7316
囂	-10.7317
迥	-10.7317
敏中	-10.7319
釡	-10.7321
之力	-10.7322
弋	-10.7322
碁	-10.7324
蠟	-10.7324
䘏	-10.7326
沐浴	-10.7327
塚	-10.7327
二十八	-10.7328
騶	-10.7329
滑稽	-10.733
河内	-10.7333
瞽	-10.7334
上馬	-10.7334
鞋	-10.7335
百日	-10.7344
生靈	-10.7346
以水	-10.7347
尚書令	-10.7349
濵	-10.7352
人馬	-10.7352
一丈	-10.7354
武后	-10.7355
伺其	-10.7356
四十年	-10.7359
一官	-10.7372
有四	-10.7373
鉞	-10.7378
人無	-10.7381
張文	-10.7381
埋之	-10.7382
時已	-10.7395
無由	-10.74
異物	-10.7402
羅列	-10.7404
無故	-10.7405
有詩云	-10.7405
有數	-10.7407
既成	-10.7409
矣遂	-10.7411
已後	-10.7412
視事	-10.7413
摶	-10.7415
有言	-10.7416
數輩	-10.7416
菌	-10.7417
史補	-10.7418
告以	-10.7419
廟堂	-10.7423
迂	-10.7425
渙	-10.7425
屨	-10.7426
昬	-10.7428
驚起	-10.7428
了無	-10.7428
砌	-10.7428
瑗	-10.7429
逍遥	-10.7429
好事	-10.743
巵	-10.743
中官	-10.743
猥	-10.743
噪	-10.7431
囬	-10.7431
歆	-10.7431
泣下	-10.7436
之難	-10.7438
劉禹錫	-10.744
將欲	-10.7443
年七十	-10.7443
候之	-10.7445
教坊	-10.745
悲泣	-10.7451
亦未	-10.7455
欽若	-10.746
般	-10.7464
魯直	-10.7464
太平廣記卷一百	-10.7465
嘉興	-10.7467
閉門	-10.7473
外祖	-10.7474
于地	-10.7481
近代	-10.7493
志云	-10.7496
尊師	-10.7499
豈能	-10.7501
言畢	-10.7501
出外	-10.7503
睿宗	-10.7504
市中	-10.7507
濮	-10.7515
復至	-10.7518
昂	-10.752
欽定四庫全書太平廣記卷一百	-10.752
宫殿	-10.7524
神也	-10.7524
及明	-10.7527
漲	-10.7528
葦	-10.7528
叨	-10.7529
歿	-10.753
之流	-10.753
罄	-10.7531
大用	-10.7533
嚢	-10.7534
出集	-10.7534
官家	-10.7538
願得	-10.7539
至家	-10.7542
不輟	-10.7543
聖賢	-10.7544
半年	-10.755
洪武	-10.7551
館職	-10.7552
出紀	-10.7555
伏誅	-10.7556
使臣	-10.7558
御筆	-10.7558
唯有	-10.7559
有竒	-10.7562
故以	-10.7567
則無	-10.7568
長官	-10.7571
清河	-10.7574
有子	-10.7576
詩書	-10.7579
官府	-10.758
香氣	-10.7581
後魏	-10.7581
曰但	-10.7582
張説	-10.7584
字叔	-10.7585
得無	-10.7586
亦當	-10.7595
大將	-10.7597
閤門	-10.7598
水上	-10.7602
相知	-10.7606
四尺	-10.7613
黔	-10.7613
語言	-10.7614
淮西	-10.7615
舂	-10.762
旭	-10.7624
曼	-10.7629
迪	-10.763
陌	-10.7631
不記	-10.7632
居人	-10.7632
撻	-10.7633
堰	-10.7634
山在	-10.7634
向者	-10.7634
出鎮	-10.7635
區區	-10.7637
因而	-10.7637
以禮	-10.7638
貺	-10.7638
而食之	-10.7638
形似	-10.7638
稼	-10.7639
内臣	-10.764
堵	-10.7641
虎豹	-10.7643
嚙	-10.7644
讌	-10.7644
為主	-10.7645
受其	-10.7648
中得	-10.7649
年老	-10.7651
人不	-10.766
後數年	-10.7662
一片	-10.7664
藝祖	-10.7667
絶句	-10.7667
夷簡	-10.7667
非所	-10.7668
覽之	-10.7669
老夫	-10.767
萊公	-10.7671
儼然	-10.7678
明宗	-10.7685
喜曰	-10.7686
以酒	-10.769
□	-10.7691
為君	-10.7695
仕宦	-10.7697
知是	-10.7705
乃謂	-10.7708
光武	-10.771
人謂之	-10.7715
略無	-10.7719
而進	-10.772
自爾	-10.7724
弩	-10.7724
潤州	-10.7726
絕	-10.7729
之北	-10.773
毗	-10.7731
則不	-10.7733
曩	-10.7734
刹	-10.774
初無	-10.7743
掣	-10.7743
茵	-10.7745
迭	-10.7746
句云	-10.7746
其上多	-10.7749
笑之	-10.7749
軒轅	-10.7749
其義	-10.7751
宗廟	-10.7761
漁者	-10.7761
通衢	-10.7767
補闕	-10.7767
新法	-10.7768
嗣宗	-10.7772
令狐	-10.7772
不知所之	-10.778
王敦	-10.7783
門内	-10.7787
城東	-10.7789
常與	-10.7793
試官	-10.7795
萊	-10.7797
常在	-10.7799
所司	-10.78
復以	-10.7802
亦曰	-10.7803
追之	-10.7808
夫妻	-10.7809
放之	-10.781
雜録	-10.7812
滎陽	-10.7816
因請	-10.782
於市	-10.7823
改為	-10.7829
忠臣	-10.783
佛法	-10.7831
侍臣	-10.7835
舶	-10.7836
顗	-10.7837
年五十	-10.784
御前	-10.784
琚	-10.7841
郄	-10.7841
魏武	-10.7841
云何	-10.7842
轄	-10.7846
莭	-10.7848
僭	-10.7848
楓	-10.7848
亥	-10.7849
為大	-10.785
纒	-10.785
魔	-10.7853
黿	-10.7853
病者	-10.7854
亊	-10.7855
銳	-10.7855
涎	-10.7858
宣武	-10.7858
廷尉	-10.7859
慨然	-10.7859
皇子	-10.7863
旁有	-10.7864
承㫖	-10.7871
義方	-10.7873
道術	-10.7878
尋之	-10.7887
監軍	-10.7887
成式	-10.7888
樂府	-10.7893
天寶	-10.7903
而能	-10.7906
城西	-10.7906
所書	-10.7907
大司馬	-10.791
懐中	-10.791
先公	-10.7914
詰其	-10.7914
異也	-10.7915
北有	-10.7916
親友	-10.7919
宣城	-10.7923
華隂	-10.7925
未成	-10.7926
是謂	-10.7926
遂成	-10.7926
郡縣	-10.7926
而别	-10.7928
無忌	-10.7929
其室	-10.7933
此皆	-10.7934
留連	-10.7936
略曰	-10.7939
天人	-10.7941
張生	-10.7942
容貌	-10.7943
器之	-10.7944
退而	-10.7947
沼	-10.795
奩	-10.7952
黠	-10.7953
蘿	-10.7955
釁	-10.7956
駁	-10.7956
藍田	-10.7956
咸平	-10.7958
鶻	-10.7958
幃	-10.7959
頋	-10.7959
渤海	-10.7959
卭	-10.796
優劣	-10.796
狼狽	-10.7961
澆	-10.7961
刪	-10.7962
複	-10.7963
扄	-10.7964
中書侍郎	-10.7967
百餘里	-10.7967
購	-10.7967
其居	-10.7968
子華	-10.7971
浙東	-10.7971
殺我	-10.7973
仙客	-10.7977
告曰	-10.798
安在	-10.798
越王	-10.7981
等皆	-10.7983
焉其	-10.7985
侍婢	-10.7987
之號	-10.799
南人	-10.7994
奏之	-10.7995
取一	-10.7997
明道	-10.7997
晉王	-10.7999
餘慶	-10.8
我當	-10.8001
不著	-10.8002
辭曰	-10.8007
宣帝	-10.8007
紙錢	-10.8007
安撫	-10.8008
神龍	-10.801
扣門	-10.801
不妄	-10.8018
萬世	-10.8018
此是	-10.8018
三更	-10.8023
拜相	-10.8024
向來	-10.8026
以供	-10.8027
今為	-10.8028
衡山	-10.8029
日夕	-10.8029
聖人之	-10.8036
神武	-10.8037
士也	-10.8041
致書	-10.8043
銜之	-10.8046
中山	-10.8046
士庶	-10.8048
當是	-10.805
必當	-10.805
聞有	-10.8053
軍節度使	-10.8053
淸	-10.8054
都城	-10.8057
珙	-10.8061
孽	-10.8063
頊	-10.8064
逞	-10.8065
亘	-10.8067
艷	-10.8068
攫	-10.807
明府	-10.8071
如常	-10.8071
即死	-10.8072
奉天	-10.8073
悰	-10.8074
廹	-10.8075
號泣	-10.8077
總管	-10.8077
千餘人	-10.8078
辤	-10.8078
寒食	-10.8083
扶桑	-10.8084
廩	-10.8089
一笑	-10.8094
縱横	-10.8095
紙筆	-10.8097
元載	-10.8097
珠玉	-10.8103
五寸	-10.8104
白石	-10.8106
一足	-10.8108
兖	-10.8115
之弟	-10.8117
開門	-10.8126
謁之	-10.8127
子敬	-10.8127
以語	-10.8132
談論	-10.8133
下詔	-10.8133
咸陽	-10.8134
竟以	-10.8135
西有	-10.8136
善惡	-10.8147
辜	-10.8152
右軍	-10.8153
無比	-10.8154
少保	-10.8154
女曰	-10.8159
行在	-10.8159
禮樂	-10.8161
神錄	-10.8161
便殿	-10.8165
杞	-10.8165
豈得	-10.8167
可觀	-10.8167
氏譜曰	-10.8169
功臣	-10.8169
徳裕	-10.817
將有	-10.817
一身	-10.8171
少師	-10.8172
文正公	-10.8173
鵞	-10.8174
南史	-10.8175
泳	-10.8175
扁	-10.8177
裒	-10.8177
僦	-10.8178
焰	-10.8179
論者	-10.8181
顆	-10.8182
延入	-10.8183
州司馬	-10.8183
昱	-10.8184
開封府	-10.8187
鄭氏	-10.8187
堡	-10.8188
棋	-10.8188
繳	-10.819
航	-10.819
虢	-10.819
餘杭	-10.8192
獨行	-10.8194
首尾	-10.8196
乃召	-10.8199
者又	-10.82
皇太子	-10.8202
牀下	-10.8204
嘗問	-10.8205
不失	-10.8206
二物	-10.8208
文士	-10.8213
亦隨	-10.8218
凡有	-10.8218
房中	-10.8221
觀察	-10.8221
出處	-10.8226
萬人	-10.8228
有白	-10.8229
欲得	-10.8235
吟曰	-10.8235
以刀	-10.8236
曰適	-10.8238
九重	-10.8243
一婦人	-10.8244
相𩔖	-10.8246
六日	-10.8259
亦能	-10.8266
相者	-10.8267
皆無	-10.8274
吞之	-10.8276
之論	-10.8279
字伯	-10.8279
乃與	-10.8279
鐺	-10.8285
撒	-10.8285
企	-10.8287
户部	-10.8287
帙	-10.8288
凋	-10.8289
已久	-10.829
一本	-10.829
曷	-10.8292
不納	-10.8293
此二	-10.8294
闌	-10.8294
名臣	-10.8295
稔	-10.8295
覧	-10.8296
而得	-10.8297
立功	-10.8297
滛	-10.8298
繒	-10.83
浮屠	-10.8301
不勝其	-10.8302
三省	-10.8302
駙馬	-10.8303
南有	-10.8304
馬上	-10.8307
面目	-10.831
得以	-10.8311
所親	-10.8315
幕府	-10.8317
多所	-10.8317
也公	-10.8322
都人	-10.8323
愛其	-10.8323
石室	-10.8325
也於是	-10.8328
黄巢	-10.8328
在前	-10.833
上聞	-10.8331
所食	-10.8334
故來	-10.8337
侍講	-10.8338
也音	-10.8339
倐	-10.834
靡不	-10.8341
上官	-10.8342
曰不然	-10.8343
上清	-10.8345
有鳥	-10.8346
天師	-10.8352
更有	-10.8355
謂是	-10.8356
逺矣	-10.8364
門前	-10.8364
廂	-10.8366
林中	-10.8368
天寳中	-10.8375
固不	-10.8376
之側	-10.8377
豁	-10.8385
故相	-10.8395
琪	-10.8396
嘗夢	-10.8396
相如	-10.8397
伽	-10.8398
乃見	-10.8398
髓	-10.8398
日有	-10.8401
太清	-10.8401
赭	-10.8401
夢見	-10.8402
嶷	-10.8402
秦檜	-10.8403
散騎常侍	-10.8403
糜	-10.8403
積年	-10.8404
贅	-10.8405
醴	-10.8405
寖	-10.8406
閣下	-10.8406
玊	-10.8408
下獄	-10.841
粮	-10.841
濠	-10.8411
恰	-10.8411
需	-10.8411
殮	-10.8412
弓矢	-10.8413
苟	-10.8413
汶	-10.8414
而巳	-10.8416
廟中	-10.842
中正	-10.8422
甘露	-10.8424
狀若	-10.8425
更不	-10.8431
然其	-10.8431
王安石	-10.8432
葬之	-10.8432
見王	-10.8433
元符	-10.8436
累年	-10.844
二十餘年	-10.844
五里	-10.8441
之官	-10.8443
音律	-10.8446
上問	-10.8446
劄子	-10.8447
有詩	-10.8448
莊子	-10.8455
二萬	-10.8456
書畫	-10.8457
江水	-10.846
太夫人	-10.8461
之次	-10.8462
具述	-10.8463
在家	-10.8463
猶存	-10.8465
者是	-10.8466
一夜	-10.8475
稱善	-10.8478
必以	-10.8479
世所	-10.848
事也	-10.8484
雷雨	-10.8485
數十萬	-10.8489
二十七	-10.8493
賞之	-10.8497
恂	-10.85
富人	-10.8501
不由	-10.8505
之費	-10.8506
入室	-10.8509
潭州	-10.851
始於	-10.8511
泣曰	-10.8511
則已	-10.8513
綃	-10.8513
劑	-10.8513
鶯	-10.8515
肺	-10.8515
主之	-10.8515
起於	-10.8516
髠	-10.8517
大業	-10.8518
甑	-10.8518
而不知	-10.8519
鐫	-10.8519
郤	-10.852
竪	-10.8521
道徳	-10.8521
鳯翔	-10.8524
夣	-10.8524
終不能	-10.8525
南唐	-10.8525
匱	-10.8525
司馬温公	-10.8525
三寸	-10.8526
綰	-10.8526
蔡元長	-10.8527
難得	-10.8528
吾當	-10.8529
突厥	-10.853
甚謹	-10.8531
山南	-10.8532
朱崖	-10.8538
又作	-10.8539
工人	-10.8546
大理	-10.8548
所未	-10.8548
長樂	-10.8549
三郎	-10.8549
監察	-10.855
可笑	-10.8555
只是	-10.8555
處厚	-10.8559
既見	-10.8564
家在	-10.8566
異香	-10.857
尚書郎	-10.8572
道中	-10.8574
其前	-10.8576
成王	-10.8576
一朝	-10.8578
年可	-10.8578
無疾	-10.8579
子固	-10.8581
相近	-10.8583
草書	-10.8595
進曰	-10.8595
後唐	-10.8598
時時	-10.8599
其陽多	-10.86
未甞	-10.8604
二事	-10.8606
與客	-10.8606
酒肉	-10.8607
來謁	-10.8608
為小	-10.8614
夢一	-10.8617
吳越	-10.8619
瑋	-10.8623
晩年	-10.8625
福建	-10.8625
之過	-10.8626
政府	-10.8627
冬至	-10.8628
診	-10.8629
瀝	-10.8629
貟	-10.8629
開成	-10.863
陀	-10.863
貂	-10.8631
噴	-10.8631
勛	-10.8633
摹	-10.8633
拾遺記	-10.8634
棒	-10.8635
衲	-10.8636
少府	-10.8636
缾	-10.8636
涵	-10.8637
羨	-10.8637
始皇	-10.8638
圎	-10.8639
惕	-10.8639
櫃	-10.864
詈	-10.864
三五	-10.8641
𡨕	-10.8642
太平興國	-10.8643
喝	-10.8643
盂	-10.8643
謾	-10.8644
而往	-10.8646
以死	-10.8646
侍女	-10.8647
稟	-10.8648
寒暑	-10.8652
左僕射	-10.8652
宰輔	-10.8655
可與	-10.8656
惟有	-10.8659
道流	-10.866
本無	-10.8663
兒女	-10.8663
之任	-10.8666
又與	-10.867
外人	-10.8671
最為	-10.8682
數十年	-10.8685
相謂曰	-10.8686
百步	-10.8688
無憂	-10.8689
繼之	-10.869
題名	-10.8692
王莽	-10.8692
召至	-10.8693
上人	-10.8696
重之	-10.8699
識其	-10.8699
南宫	-10.8703
大懼	-10.8704
郭曰今	-10.8705
地名	-10.8707
在西	-10.8712
慟	-10.8719
皆可	-10.8722
饒州	-10.8726
半日	-10.8726
宣州	-10.8728
女也	-10.8734
白金	-10.8737
以次	-10.8746
太平廣記卷四百	-10.8746
有舊	-10.8747
作亂	-10.8747
戩	-10.875
忩	-10.8751
虺	-10.8751
佚	-10.8751
江浙	-10.8752
峕	-10.8752
鴛鴦	-10.8753
槽	-10.8754
圜	-10.8755
萌	-10.8755
城隍	-10.8755
城外	-10.8756
擎	-10.8758
悴	-10.8759
衷	-10.8759
白樂天	-10.8763
延州	-10.8763
邅	-10.8763
必能	-10.8763
成名	-10.8765
無數	-10.8766
洙	-10.8766
記其	-10.8768
亦不知	-10.8769
時號	-10.8769
來此	-10.8775
雲氣	-10.8776
後生	-10.8779
已為	-10.878
縣西	-10.8782
是為	-10.8783
推之	-10.8784
知古	-10.879
行李	-10.8793
及諸	-10.8794
越州	-10.8795
秦州	-10.8795
縣丞	-10.8797
失色	-10.8798
曰夫	-10.8799
都御史	-10.8802
也王	-10.8803
家世	-10.8806
歐公	-10.8809
臣案	-10.8811
固有	-10.8819
某人	-10.882
已在	-10.8822
發其	-10.8824
舉止	-10.8825
之形	-10.8825
之音	-10.8826
不避	-10.8829
昨日	-10.8832
可畏	-10.8833
不加	-10.8835
是知	-10.8835
念之	-10.8835
昇天	-10.8839
疾病	-10.8841
可以為	-10.8847
後進	-10.8852
四日	-10.8856
中朝	-10.8858
無禮	-10.886
記室	-10.886
前人	-10.8863
自當	-10.8864
以資	-10.8865
畱	-10.8868
洵	-10.887
酋	-10.887
載之	-10.8871
閏	-10.8871
証	-10.8873
芙蓉	-10.8874
亦為	-10.8874
縦	-10.8875
縶	-10.8876
昔有	-10.8877
踞	-10.8877
繋	-10.888
休咎	-10.888
翰苑	-10.8881
雷電	-10.8881
淳熈	-10.8883
址	-10.8884
命也	-10.8884
當年	-10.8885
大悦	-10.8888
千嵗	-10.8891
文潞公	-10.8892
三萬	-10.8893
也此	-10.89
爲人	-10.8901
雲中	-10.8908
有志	-10.891
村民	-10.8911
當自	-10.8911
無窮	-10.8916
二卷	-10.8916
尋常	-10.8918
兵士	-10.8919
上殿	-10.8919
縣南	-10.8923
者甚衆	-10.8928
神女	-10.893
覘	-10.893
居民	-10.8932
舉手	-10.8933
元帝	-10.8933
謂此	-10.8933
其數	-10.8935
于上	-10.8937
曰余	-10.8939
知也	-10.894
近侍	-10.8946
食畢	-10.8948
時嘗	-10.8951
簫	-10.8952
廬江	-10.8952
顧問	-10.8952
再生	-10.8953
羅漢	-10.8955
久不	-10.8958
與其	-10.8959
亦不敢	-10.8959
笑謂	-10.8962
今則	-10.8965
將以	-10.8971
節制	-10.8978
設齋	-10.898
終無	-10.8986
悸	-10.8986
聞此	-10.8987
匝	-10.8987
覬	-10.8988
者無不	-10.8989
吸	-10.8992
迺	-10.8992
沔	-10.8993
分司	-10.8993
不載	-10.8993
愆	-10.8993
逓	-10.8995
稹	-10.8995
徼	-10.8995
於路	-10.8995
百人	-10.8995
龕	-10.8996
覿	-10.8998
岱	-10.8998
厮	-10.8999
之詩	-10.8999
乾坤	-10.9
龍圖	-10.9001
先朝	-10.9001
消息	-10.9003
珏	-10.9003
畵	-10.9003
因名	-10.9003
鑊	-10.9004
蛟龍	-10.9007
仲淹	-10.901
訴於	-10.9016
二尺	-10.9016
亦非	-10.9018
四字	-10.902
過江	-10.9022
李徳裕	-10.9023
不可不	-10.9023
曰無	-10.9024
主事	-10.9027
皆在	-10.9031
子儀	-10.9032
死而	-10.9033
陽人	-10.9035
言我	-10.9035
字也	-10.9039
三字	-10.904
臣等	-10.9041
弟也	-10.9046
臨終	-10.9052
經過	-10.9053
憲聖	-10.9054
刑部	-10.906
上命	-10.9065
欲見	-10.9066
是書	-10.9066
皆出	-10.9067
宣仁	-10.9069
比之	-10.9077
直入	-10.9078
不可復	-10.9079
其黨	-10.9079
與夫	-10.9083
校尉	-10.9088
延年	-10.9092
騫	-10.9098
哈	-10.91
兀	-10.9103
掘之	-10.9103
䦨	-10.9108
蕙	-10.9108
駝	-10.911
陁	-10.911
唐末	-10.911
涸	-10.9111
璘	-10.9111
雇	-10.9111
屐	-10.9113
膾	-10.9114
幄	-10.9115
泓	-10.9116
挫	-10.9116
十六年	-10.9117
丕	-10.9117
頽	-10.9117
㩦	-10.9117
秃	-10.9118
琯	-10.9119
慄	-10.912
盼	-10.912
嬉	-10.912
緫	-10.9121
鎔	-10.9121
者當	-10.9121
琉璃	-10.9123
澣	-10.9123
乃云	-10.9127
李白	-10.9129
范文正公	-10.913
武徳	-10.913
驚愕	-10.913
若有所	-10.9131
扣之	-10.9133
行事	-10.9135
而笑	-10.914
人以為	-10.914
階下	-10.9141
郡王	-10.9142
完顔	-10.9144
之具	-10.9144
所獲	-10.9144
閉目	-10.9146
未畢	-10.9147
端坐	-10.9149
因得	-10.9149
詣闕	-10.915
而返	-10.9151
羈	-10.9153
元忠	-10.9158
河朔	-10.9159
於天	-10.9159
客有	-10.9166
庶幾	-10.917
一目	-10.9179
赴闕	-10.9179
古文	-10.918
齊王	-10.9181
於上	-10.9182
將士	-10.9188
諸州	-10.919
無疑	-10.9194
夜來	-10.9197
如飛	-10.9198
傳語	-10.92
溫公	-10.9204
士女	-10.9205
經義	-10.9206
其死	-10.9207
太廟	-10.9209
於西	-10.9215
談笑	-10.9223
願以	-10.9223
泚	-10.9229
莊宗	-10.9229
夜中	-10.9229
無所不	-10.923
樂天	-10.9233
不亦	-10.9233
非是	-10.9234
鑾	-10.9236
汰	-10.9236
髣髴	-10.9236
賁	-10.9237
不到	-10.9238
塋	-10.9238
虱	-10.9239
豈敢	-10.9239
礪	-10.9239
之年	-10.9239
鷰	-10.9239
蚩尤	-10.9239
獠	-10.924
善屬文	-10.924
啄	-10.924
其手	-10.924
駱	-10.9241
帑	-10.9242
懦	-10.9243
嗤	-10.9244
俘	-10.9244
訐	-10.9245
狡	-10.9245
牝	-10.9246
㢠廻	-10.9246
老母	-10.9247
𢎞農	-10.9247
桓温	-10.9248
北兵	-10.925
財物	-10.9251
華州	-10.9252
别駕	-10.9254
錢唐	-10.9255
秩滿	-10.9256
音樂	-10.9256
甚至	-10.9262
長尺餘	-10.9266
字景	-10.9267
經宿	-10.9273
商人	-10.9275
枝葉	-10.9286
閽	-10.9286
河間	-10.9286
大醉	-10.929
竺	-10.9292
迅	-10.9292
十丈	-10.9292
而逝	-10.9295
最後	-10.9295
一婢	-10.9296
晉書曰	-10.9302
鉅	-10.9303
洛水	-10.9309
君家	-10.9311
汴州	-10.9316
所賜	-10.9316
朝官	-10.9318
予嘗	-10.9321
不孝	-10.9322
獨坐	-10.9325
不待	-10.9326
大明	-10.9327
王君	-10.9327
遂入	-10.933
唐太宗	-10.9331
器物	-10.9332
每見	-10.9332
與子	-10.9342
芍藥	-10.9345
人形	-10.9345
闕下	-10.9346
悵	-10.9347
則可	-10.9351
曹公	-10.9353
忻	-10.9355
瓠	-10.9356
光庭	-10.9357
鈿	-10.9361
榛	-10.9362
年八十	-10.9363
蚓	-10.9364
逋	-10.9365
依舊	-10.9365
燎	-10.9366
讒	-10.9367
畆	-10.9367
轅	-10.9367
眩	-10.9368
元方	-10.9368
瘠	-10.9368
眇	-10.9369
茹	-10.937
霹靂	-10.9371
墓誌	-10.9373
脇	-10.9373
恐其	-10.9374
大雪	-10.9375
致之	-10.9375
覇	-10.9377
鴉	-10.9378
累官	-10.9378
泗州	-10.9379
南郡	-10.938
爰有	-10.938
大同	-10.938
安世	-10.9382
中堂	-10.9384
五十年	-10.9387
偕行	-10.939
文靖	-10.9391
幸蜀	-10.9393
外國	-10.9395
相次	-10.9396
門户	-10.9407
浮圖	-10.9411
不令	-10.9412
待詔	-10.9416
扶風	-10.9417
同在	-10.9419
之象	-10.942
與弟	-10.9422
乃復	-10.9423
誦之	-10.9424
二十二	-10.9432
於内	-10.9433
而食	-10.9433
語人曰	-10.9434
圖畫	-10.944
存亡	-10.9442
上仙	-10.9445
修道	-10.9446
斯人	-10.9447
疑是	-10.9447
宗即位	-10.9448
異哉	-10.9451
齊名	-10.9452
戊	-10.9454
走馬	-10.9455
集中	-10.9458
△	-10.9461
生日	-10.9464
少孤	-10.9466
祭之	-10.9473
於水	-10.9479
勉之	-10.9479
狩	-10.9481
覺而	-10.9481
觔	-10.9481
爼	-10.9483
凡三	-10.9484
丑	-10.9486
琅邪	-10.9486
咫尺	-10.9487
鏗	-10.9488
麫	-10.9488
倖	-10.9488
笄	-10.9489
禹錫	-10.9489
蹶	-10.949
髙下	-10.9492
甚詳	-10.9492
餒	-10.9493
㳂	-10.9494
偈	-10.9494
咏	-10.9495
殿中侍御史	-10.9495
一株	-10.9496
世俗	-10.9498
磚	-10.9499
宦者	-10.9499
兾	-10.9499
食者	-10.95
知此	-10.9501
悵然	-10.9504
彦博	-10.9506
而滅	-10.9506
𨼆居	-10.9506
是歲	-10.9507
皆得	-10.9511
相望	-10.9511
鴻漸	-10.9512
居於	-10.9519
尺許	-10.9521
處之	-10.9522
柰何	-10.9523
小子	-10.9523
其時	-10.9524
八日	-10.9527
樓下	-10.9531
驚喜	-10.9531
僚屬	-10.9534
斯須	-10.9538
走出	-10.9539
主文	-10.9542
祟	-10.9545
應天	-10.9545
别見	-10.9545
可否	-10.9547
吉州	-10.955
庚子	-10.9552
詩文	-10.9552
六合	-10.9553
直至	-10.9554
於後	-10.9554
捫	-10.9554
以相	-10.9555
入宫	-10.9555
萬餘	-10.9555
亦是	-10.956
四郎	-10.9567
之樂	-10.9569
哭聲	-10.9574
故有	-10.9574
安可	-10.9575
掘地	-10.9579
但云	-10.958
茅山	-10.9583
沽	-10.9591
大父	-10.9592
其婦	-10.9593
已成	-10.9593
之臣	-10.9596
二十日	-10.9597
天聖	-10.9602
復還	-10.9603
所傳	-10.9609
已定	-10.961
棺中	-10.9611
報云	-10.9611
持刀	-10.9612
痩	-10.9612
樞密	-10.9614
峩	-10.9614
闘	-10.9614
而罷	-10.9615
瓮	-10.9616
絢	-10.9617
與妻	-10.9617
奏曰臣	-10.9618
装	-10.9618
縉紳	-10.9619
萇	-10.9619
顏	-10.9619
此意	-10.9619
二十餘	-10.9619
用心	-10.962
嗔	-10.962
諳	-10.9621
叫	-10.9621
澧	-10.9621
綘	-10.9622
𦙍	-10.9623
迓	-10.9623
戢	-10.9625
稱為	-10.9625
犒	-10.9626
翕然	-10.9626
関	-10.9627
黯	-10.9627
蚌	-10.9627
渝	-10.963
其功	-10.9631
吳人	-10.9631
主上	-10.9633
其行	-10.9633
畫工	-10.9636
以此為	-10.9637
景祐	-10.9638
舊有	-10.964
朋友	-10.9641
京尹	-10.9642
兩制	-10.9646
何由	-10.9647
文惠	-10.9647
王介甫	-10.9653
國夫人	-10.9654
黄河	-10.9655
不逺	-10.9657
一杯	-10.9658
形於	-10.9663
之利	-10.9663
雷震	-10.968
因是	-10.9681
為翰林學士	-10.9683
聲色	-10.9688
嘗因	-10.969
經日	-10.9692
登舟	-10.9692
武宗	-10.9693
五百里	-10.9696
使相	-10.9697
親族	-10.9699
華亭	-10.97
墮地	-10.97
二十三	-10.9703
曰何不	-10.9704
崑	-10.9707
之末	-10.9709
司户	-10.9711
不逮	-10.9711
注曰	-10.9719
壁上	-10.9722
文曰	-10.9726
夜則	-10.9727
見有	-10.973
可憐	-10.9731
肚	-10.9732
章獻	-10.9733
親故	-10.9734
恐懼	-10.9735
不減	-10.9737
聞見	-10.9737
存者	-10.9739
脛	-10.974
俛	-10.9741
軍事	-10.9741
朂	-10.9743
苛	-10.9743
乆而	-10.9744
欽定四庫全書太平廣記卷四百	-10.9744
傍有	-10.9744
桶	-10.9745
同州	-10.9746
挹	-10.9747
芬	-10.9748
肘	-10.9749
濱	-10.9749
其面	-10.9751
攬	-10.9751
惆悵	-10.9751
幷	-10.9753
哂	-10.9753
杵	-10.9753
飭	-10.9754
幢	-10.9754
箴	-10.9755
河南尹	-10.9755
方欲	-10.9757
錢氏	-10.9762
閙	-10.9762
計其	-10.9762
始終	-10.9763
興元	-10.9767
成功	-10.9769
者云	-10.9769
金剛經	-10.9771
燕公	-10.9777
十七年	-10.9783
諫議	-10.9783
百嵗	-10.9784
中和	-10.9784
年中	-10.9785
道左	-10.9788
僉事	-10.9789
登岸	-10.9789
詩賦	-10.979
既畢	-10.9791
至暮	-10.9791
蘭亭	-10.9792
告之曰	-10.9792
之師	-10.9793
各一	-10.9794
發之	-10.9795
無愧	-10.9796
廣南	-10.9799
命左右	-10.98
曰僕	-10.9801
應曰	-10.9802
天官	-10.9805
及長	-10.9808
何罪	-10.981
將行	-10.981
院中	-10.9813
母曰	-10.9819
元祐中	-10.9823
皇太后	-10.9824
所藏	-10.9827
殆盡	-10.9827
先後	-10.983
山西	-10.9832
書中	-10.9832
兩手	-10.9834
安仁	-10.9835
惜其	-10.9835
尚書省	-10.9837
惜之	-10.9839
入翰林	-10.9839
汝輩	-10.984
文穆	-10.9846
云昔	-10.9848
詔書	-10.985
偶然	-10.985
亦不可	-10.9852
戲之曰	-10.9854
不拜	-10.986
内官	-10.9861
有靈	-10.9861
已失	-10.9867
釀	-10.9867
泠	-10.9869
鳯凰	-10.9873
滂	-10.9874
者謂之	-10.9874
謂左右曰	-10.9874
𢃄	-10.9876
大書	-10.9877
岷	-10.9879
誑	-10.9879
賚	-10.988
漢武	-10.9881
尖	-10.9882
儕	-10.9882
杪	-10.9883
香火	-10.9884
啗	-10.9884
豬	-10.9884
廐	-10.9885
六經	-10.9886
不第	-10.9886
麓	-10.9887
則為	-10.9887
箋	-10.9887
騾	-10.9888
閒居	-10.9888
西海	-10.9888
睛	-10.9889
姝	-10.9889
継	-10.989
事畢	-10.9891
聼	-10.9891
入見	-10.9892
當得	-10.9894
往視之	-10.9895
縣官	-10.9896
之職	-10.9898
絲竹	-10.9902
慶元	-10.9903
何其	-10.9903
知貢舉	-10.9904
范公	-10.9905
波斯	-10.9907
狀貌	-10.9914
以為然	-10.9919
婺州	-10.9921
時人謂之	-10.9926
左傳	-10.9926
州有	-10.9928
八人	-10.9933
非其	-10.9941
長大	-10.9943
進用	-10.9945
天綱	-10.9945
肖	-10.9949
無為	-10.9952
守之	-10.9957
子美	-10.9964
之夕	-10.9965
不便	-10.9967
大水	-10.997
閽者	-10.997
惜哉	-10.9971
林木	-10.9972
冀州	-10.9974
捕之	-10.9974
丹青	-10.9977
因令	-10.9978
鬼物	-10.9979
能致	-10.9984
其腹	-10.9992
因言	-10.9996
牛馬	-10.9998
僧道	-10.9998
晞	-11
大旱	-11.0002
一品	-11.0003
進士及第	-11.0005
芸	-11.0005
官司	-11.0007
科第	-11.0008
拓	-11.001
敲	-11.0011
崔公	-11.0011
暦	-11.0012
鎰	-11.0013
趂	-11.0015
吃	-11.0016
螫	-11.0016
麞	-11.0016
未之	-11.0016
人問	-11.0017
蟾	-11.0017
其中有	-11.0017
邏	-11.0018
岫	-11.0018
冤	-11.0019
蔡邕	-11.0019
不語	-11.0022
自得	-11.0022
騁	-11.0023
嫡	-11.0024
即今	-11.0025
兵部尚書	-11.0026
駞	-11.0026
詩人	-11.0026
曼卿	-11.0027
先祖	-11.0029
歐陽文忠公	-11.0029
其價	-11.003
二寸	-11.0032
且言	-11.0032
尤為	-11.0034
方丈	-11.0035
東京	-11.0037
云君	-11.0039
而未	-11.0045
坐中	-11.0047
蒼頭	-11.0048
北面	-11.0049
者何	-11.005
臺諫	-11.0061
反覆	-11.0063
詩話	-11.0064
適有	-11.0065
之分	-11.0065
惠卿	-11.0068
立廟	-11.0071
安置	-11.0073
史官	-11.0073
終南山	-11.0076
相接	-11.0077
一處	-11.0078
堯臣	-11.0079
丁謂	-11.0082
今世	-11.0083
龍虎	-11.0088
左手	-11.009
王府	-11.0093
無能	-11.0093
樹上	-11.0094
知微	-11.0095
大荒	-11.0095
盛事	-11.0098
一曲	-11.0099
大年	-11.0099
儒者	-11.0104
後又	-11.0104
同僚	-11.0105
建州	-11.0106
案上	-11.0108
韓氏	-11.0108
梁祖	-11.0109
詣之	-11.0113
嘗作	-11.0114
左右皆	-11.0115
山寺	-11.0116
既得	-11.0118
所獻	-11.0119
及期	-11.012
市井	-11.0122
我今	-11.0123
常見	-11.0124
煒	-11.0124
每以	-11.0127
禮拜	-11.0127
如此者	-11.0127
使至	-11.0128
咸通中	-11.0133
録之	-11.0137
悉皆	-11.0138
云爾	-11.014
因出	-11.014
瑟	-11.014
御史臺	-11.0142
塼	-11.0143
筍	-11.0143
者惟	-11.0143
黄州	-11.0143
雜事之屬	-11.0143
鳳凰	-11.0144
鳶	-11.0145
壅	-11.0145
相思	-11.0146
流落	-11.0146
賃	-11.0148
拊	-11.0148
槎	-11.0148
甦	-11.0149
疽	-11.015
椎	-11.015
曰吾聞	-11.0151
梧	-11.0152
紂	-11.0152
慷慨	-11.0152
彚	-11.0152
校書郎	-11.0155
熹	-11.0155
敇	-11.0156
餽	-11.0156
襦	-11.0157
于朝	-11.0158
厲聲	-11.0159
月明	-11.0163
其二	-11.0164
韓退之	-11.0164
深入	-11.0165
杜牧	-11.0169
用一	-11.0171
天道	-11.0172
形容	-11.0172
旬月	-11.0172
酒饌	-11.0174
一子	-11.0174
又北	-11.0174
報之	-11.0175
畧曰	-11.0176
英雄	-11.0178
其主	-11.0181
𫝊曰	-11.0182
逾年	-11.0183
異時	-11.0183
有金	-11.0185
佛像	-11.0186
於江	-11.0189
以遺	-11.0192
為太子	-11.0195
貞觀中	-11.0198
桃花	-11.0202
不克	-11.0206
九州	-11.0207
報應	-11.0208
忘其	-11.0208
持國	-11.0211
胡僧	-11.0212
正直	-11.0218
在地	-11.022
花木	-11.0222
訝其	-11.0222
郡中	-11.0224
殿下	-11.0224
然無	-11.0233
不預	-11.0233
於天下	-11.0234
多士	-11.0237
字彦	-11.0241
新羅	-11.0241
蔡州	-11.0245
為政	-11.0246
頷	-11.0247
臨江	-11.0247
不悟	-11.0248
凡人	-11.0249
詞曰	-11.0251
日日	-11.0254
素有	-11.0254
中見	-11.0257
相善	-11.0258
敢不	-11.0259
始末	-11.0259
終身不	-11.0261
人力	-11.0261
懿宗	-11.0261
司命	-11.0262
一斗	-11.0263
入禁中	-11.0264
將歸	-11.0269
水陸	-11.027
麵	-11.027
穆天子傳	-11.0271
珊瑚	-11.0275
可用	-11.0275
袴	-11.0278
帔	-11.0279
者雖	-11.0282
巡檢	-11.0282
鯀	-11.0282
盥	-11.0284
大石	-11.0284
猜	-11.0284
薫	-11.0284
醪	-11.0286
蒿	-11.0286
盌	-11.0287
栽	-11.0287
断	-11.0288
柘	-11.0288
澈	-11.0289
拉	-11.0289
梗	-11.0289
台州	-11.0289
醖	-11.0289
穹	-11.029
捍	-11.029
丁晉公	-11.029
黄白	-11.029
愽	-11.0291
蛻	-11.0292
閫	-11.0292
禽獸	-11.0293
扃	-11.0294
惶懼	-11.0297
愬	-11.0297
妻孥	-11.0299
青城	-11.0304
上都	-11.0306
仆地	-11.0306
保衡	-11.0307
甚矣	-11.031
西蜀	-11.0311
修撰	-11.0313
金錢	-11.0316
可矣	-11.0318
開府	-11.0318
威儀	-11.0321
執之	-11.0321
拂衣	-11.0321
當與	-11.0326
故老	-11.0326
臨海	-11.0334
徐氏	-11.0337
數嵗	-11.0338
送還	-11.0339
日已	-11.0345
王戎	-11.0346
其能	-11.0348
縣吏	-11.0354
皆云	-11.0358
以謝	-11.0358
不取	-11.0363
被誅	-11.0365
之期	-11.0366
亦甚	-11.0371
方得	-11.0373
可知也	-11.0375
象先	-11.0376
亦嘗	-11.0376
集賢	-11.0379
而致	-11.038
功德	-11.0384
王仲	-11.0385
其可	-11.0385
驚覺	-11.0385
驚走	-11.0386
論事	-11.0387
數千人	-11.0389
乃遣	-11.0391
其頭	-11.0391
此女	-11.0394
天地之	-11.0395
諺	-11.0396
五更	-11.0398
年四十	-11.0399
太真	-11.0404
相視	-11.0405
桃李	-11.0407
一女子	-11.0411
相率	-11.0412
旬餘	-11.0414
且以	-11.0414
為國	-11.0417
麋	-11.0418
眺	-11.0422
飡	-11.0422
嬖	-11.0423
瓢	-11.0423
翦	-11.0424
㑹昌	-11.0424
弭	-11.0425
不衰	-11.0425
馥	-11.0425
鼉	-11.0426
醫者	-11.0426
鎗	-11.0426
肩輿	-11.0429
瑕	-11.0429
常山	-11.0429
為樂	-11.0429
知縣	-11.0429
太常博士	-11.043
崔生	-11.043
笈	-11.043
徇	-11.0431
禮部尚書	-11.0433
一雙	-11.0433
曰郎君	-11.0434
必為	-11.0434
譏之	-11.0435
六百	-11.0435
亦在	-11.0438
一兩	-11.0439
貧道	-11.044
檀越	-11.044
而視之	-11.0441
山上有	-11.0442
為汝	-11.0445
一尺	-11.0446
莫測	-11.0447
中流	-11.0448
奏聞	-11.045
如期	-11.0452
腹心	-11.0455
此子	-11.0456
不懌	-11.0457
公弼	-11.0458
北歸	-11.0464
甲科	-11.0464
歹	-11.0467
我家	-11.0468
得官	-11.0468
神氣	-11.0468
遂不復	-11.0469
分為	-11.0472
不知也	-11.0476
嶺外	-11.0476
休復	-11.0477
傳之	-11.0478
所宜	-11.0479
二里	-11.0479
竟無	-11.0481
入海	-11.0481
昌言	-11.0482
百尺	-11.0485
曰諾	-11.0486
國在	-11.049
人倫	-11.0491
裴度	-11.0493
有道士	-11.0496
中間	-11.0497
否曰	-11.0497
可知矣	-11.0498
罷去	-11.0498
乞食	-11.0499
之弊	-11.0501
武臣	-11.0502
赤水	-11.0502
直言	-11.0506
無草木	-11.0507
來者	-11.0507
多不	-11.0508
誤也	-11.0509
儒學	-11.0511
北山	-11.0513
曰聞	-11.0515
其辭	-11.0517
隴西	-11.0528
終始	-11.0529
官爵	-11.0529
獲一	-11.0531
百家	-11.0534
曰先生	-11.0534
叶	-11.0537
忠孝	-11.0538
青鳥	-11.0542
不倦	-11.0542
三嵗	-11.0543
欲令	-11.0544
白首	-11.0544
縣東	-11.0549
隱居	-11.0556
看之	-11.0557
虫	-11.0558
竝	-11.0558
一方	-11.0558
蝦	-11.056
鴿	-11.056
梢	-11.0563
牕	-11.0563
訶	-11.0564
芥	-11.0566
隕	-11.0566
天意	-11.0566
遑	-11.0567
者三	-11.0567
書於	-11.0568
皋	-11.0569
西門	-11.0569
矛	-11.0571
黄門侍郎	-11.0572
躍出	-11.0574
其側	-11.0576
四十里	-11.0577
自今	-11.0578
乾元	-11.058
球	-11.058
鄧州	-11.0581
百餘年	-11.0583
其來	-11.0587
河伯	-11.0588
則知	-11.0589
每有	-11.0593
三司使	-11.0594
之謀	-11.0597
德宗	-11.0599
稽首	-11.06
左氏	-11.0605
光彩	-11.0609
又一	-11.0617
至大	-11.0622
見在	-11.0623
元禮	-11.0624
萬嵗	-11.0624
後當	-11.0625
將出	-11.0626
怒而	-11.0627
廡下	-11.0627
矣後	-11.0628
未足	-11.0628
曰此非	-11.0628
梁上	-11.0628
來日	-11.0629
信州	-11.063
賢良	-11.0632
有巨	-11.0638
惡其	-11.0643
千百	-11.0645
省試	-11.0647
經營	-11.0647
可不	-11.0654
葉如	-11.0655
樂工	-11.0657
宿於	-11.066
曰請	-11.066
朝堂	-11.0661
當死	-11.0662
十九年	-11.0664
文簡	-11.0665
召對	-11.0666
行數里	-11.0667
師魯	-11.0668
園中	-11.0668
但聞	-11.0672
悚	-11.0674
建昌	-11.0674
加以	-11.0677
一舉	-11.0677
天性	-11.0678
知己	-11.0683
漠	-11.0688
三軍	-11.069
嵓	-11.0694
不返	-11.0695
録曰	-11.0695
惻	-11.0698
一角	-11.0698
年六十	-11.0699
鏹	-11.0701
暹	-11.0701
之由	-11.0702
塑	-11.0703
嵐	-11.0705
瘴	-11.0705
解衣	-11.0705
絛	-11.0705
涌	-11.0705
隗	-11.0705
冗	-11.0705
瓦礫	-11.0706
蛤	-11.0707
鉛	-11.0707
蒼梧	-11.0708
四明	-11.0708
為僧	-11.0709
諂	-11.0709
廸	-11.071
墀	-11.0711
逡廵	-11.0711
鬟	-11.0711
朱泚	-11.0711
隄	-11.0711
嗚咽	-11.0712
酹	-11.0713
茲	-11.0713
兢	-11.0714
薊	-11.0714
瑄	-11.0715
甚惡之	-11.0716
將入	-11.0717
流俗	-11.0717
一無所	-11.0718
更生	-11.0719
職事	-11.0719
㕘軍	-11.0721
至其家	-11.0722
作樂	-11.0724
兩浙	-11.0726
才學	-11.0727
之色	-11.073
視之則	-11.0732
如生	-11.0732
持一	-11.0733
素與	-11.0734
亦同	-11.0735
不拘	-11.0735
字公	-11.0736
白頭	-11.0736
以罪	-11.0739
無雙	-11.074
天文	-11.074
迄今	-11.074
孝武	-11.0746
晉卿	-11.0746
曰向	-11.0747
客至	-11.0753
二十六	-11.0754
山陽	-11.0755
留意	-11.0756
墜地	-11.0763
汝州	-11.0764
數百里	-11.0771
議者以	-11.0771
侔	-11.0772
置于	-11.0775
名字	-11.0776
安敢	-11.0778
席上	-11.0779
蘄	-11.0782
帳中	-11.0785
洞中	-11.0786
之靈	-11.0788
各以	-11.0789
者衆	-11.0789
安期	-11.0792
中立	-11.0792
從弟	-11.0794
寂然	-11.0795
東山	-11.0795
七十里	-11.0795
果如	-11.0796
天祐	-11.0804
玉帶	-11.0805
二府	-11.0809
引之	-11.0815
察之	-11.0816
字文	-11.0818
孫氏	-11.0819
家居	-11.0822
浹	-11.0826
孫權	-11.0826
能詩	-11.0828
地上	-11.083
與張	-11.083
信宿	-11.0836
而過	-11.0837
所重	-11.0839
有鳥焉其狀如	-11.084
錡	-11.084
思道	-11.0842
轎	-11.0845
剌	-11.0846
曾祖	-11.0849
麒麟	-11.0849
羿	-11.085
圖書	-11.0851
寗	-11.0851
諮	-11.0852
復問	-11.0853
安定	-11.0853
猗	-11.0853
糾	-11.0854
葫蘆	-11.0854
冐	-11.0854
廖	-11.0855
照之	-11.0855
臼	-11.0856
世有	-11.0856
有赤	-11.0856
睹	-11.0856
元豐中	-11.0856
逈	-11.0857
彫	-11.0857
晡	-11.0858
賑	-11.0859
都堂	-11.086
溺死	-11.0861
李元	-11.0867
者是也	-11.0868
言及	-11.0868
靈武	-11.0869
為吾	-11.0872
御製	-11.0873
入洛	-11.0874
出獨	-11.0877
野狐	-11.0877
之舊	-11.0878
所稱	-11.088
門者	-11.0881
每嵗	-11.0881
之數	-11.0882
淮南子	-11.0883
至期	-11.0884
討之	-11.0885
一絶	-11.0886
不數日	-11.0887
求其	-11.089
走入	-11.0891
不自安	-11.0892
其半	-11.0893
内人	-11.0899
一首	-11.0899
秘書	-11.0901
來年	-11.0903
自隨	-11.0907
有龍	-11.0916
遽命	-11.0918
雲霧	-11.0918
以小	-11.092
軍人	-11.0923
故云	-11.093
時在	-11.0932
河水	-11.0935
累月	-11.0938
是何人	-11.094
海陵	-11.0944
之野	-11.0948
無間	-11.0948
一里	-11.0949
形貌	-11.095
慶厯中	-11.0952
父兄	-11.0955
笙	-11.0958
一隻	-11.0959
出逸	-11.0959
處置	-11.0961
陸費墀欽定四庫全書	-11.0963
之室	-11.0965
將死	-11.0966
入于	-11.0966
師古	-11.0972
近年	-11.0973
以觀	-11.0975
何謂	-11.0976
癸	-11.0977
顔子	-11.0978
竟不能	-11.0978
吾今	-11.0978
科舉	-11.098
凱	-11.0981
凡所	-11.0984
題其	-11.0984
無計	-11.0985
可食	-11.0985
伯玉	-11.0989
相得	-11.0989
京官	-11.099
曰張	-11.0991
龐	-11.0991
自給	-11.0992
繹	-11.0994
揣	-11.0995
命駕	-11.0995
贑	-11.0996
聿	-11.0996
櫻桃	-11.0996
聮	-11.0996
薩	-11.0997
東風	-11.0999
繕	-11.0999
上章	-11.1
擠	-11.1001
矧	-11.1001
撾	-11.1001
窗	-11.1001
謐	-11.1001
帆	-11.1001
賭	-11.1002
僵	-11.1002
㗖	-11.1002
祝融	-11.1003
謩	-11.1003
扆	-11.1003
肱	-11.1003
太上皇	-11.1006
吐蕃	-11.1007
東有	-11.1007
碣	-11.1007
踣	-11.1007
不治	-11.1008
頲	-11.1009
謠	-11.101
秦始皇	-11.1011
郭氏	-11.1011
昕	-11.1011
得志	-11.1012
九齡	-11.1012
宣撫	-11.1013
祈禱	-11.1015
深山	-11.1017
遊於	-11.1017
為戲	-11.1017
俯伏	-11.1018
鈐轄	-11.1018
不誣	-11.1022
沙彌	-11.1023
何可	-11.1024
遼東	-11.1024
不爲	-11.1025
敢言	-11.1025
是誰	-11.1027
雲雨	-11.1031
天順	-11.1034
大樹	-11.1034
此輩	-11.1037
同郡	-11.1038
俗謂之	-11.1041
服藥	-11.1042
甚善	-11.1042
進呈	-11.1043
其宅	-11.1049
一種	-11.1049
不作	-11.105
江上	-11.1051
劉尹	-11.1052
未暇	-11.1053
行於世	-11.1056
歸去	-11.1056
而寤	-11.1056
百歩	-11.1056
乃於	-11.1056
之交	-11.1058
聖主	-11.1058
永叔	-11.1058
景龍	-11.1059
遲明	-11.106
君房	-11.1062
嘗語	-11.1062
不寐	-11.1064
楚州	-11.1065
叟曰	-11.1065
時政	-11.1066
平甫	-11.1068
汝何	-11.1069
閤下	-11.1077
石頭	-11.1078
臣僚	-11.1085
書記	-11.1087
又為	-11.1088
神廟	-11.1091
陽城	-11.1092
所造	-11.1093
與公	-11.1094
州城	-11.1094
奏云	-11.1095
長短	-11.1096
銘曰	-11.1097
宅中	-11.1097
之儀	-11.11
相國寺	-11.1104
三分	-11.111
保安	-11.1112
愕	-11.1114
其本	-11.1116
非此	-11.1118
其上有	-11.1119
雍州	-11.1121
見則	-11.1122
莫有	-11.1126
粘	-11.1133
謝安	-11.1134
所撰	-11.1136
武功	-11.1136
弇	-11.1137
壬辰	-11.1139
必須	-11.114
穆王	-11.1141
惱	-11.1141
某官	-11.1142
獄中	-11.1143
紆	-11.1143
鶉	-11.1144
耐	-11.1145
神靈	-11.1145
鍼	-11.1146
裾	-11.1146
潦	-11.1147
猶子	-11.1147
勺	-11.1147
蔑	-11.1148
隲	-11.1149
緇	-11.115
孔雀	-11.115
可致	-11.1151
從來	-11.1151
無用	-11.1151
緝	-11.1151
桀	-11.1151
樗	-11.1152
靳	-11.1152
三十二	-11.1152
涪	-11.1154
叅知政事	-11.1154
雹	-11.1156
䏻	-11.1156
撞	-11.1157
聦	-11.1157
娃	-11.1157
婿	-11.1157
昆弟	-11.1159
十八年	-11.1162
欲取	-11.1164
鯉魚	-11.1164
七人	-11.1167
夜深	-11.1167
甲午	-11.1167
第十	-11.1169
樞密使	-11.1169
京兆府	-11.1169
至尊	-11.117
太常卿	-11.1171
兄子	-11.1173
里正	-11.1177
詞賦	-11.1179
或以為	-11.1181
梅花	-11.1186
王右軍	-11.1187
承嗣	-11.1187
一代	-11.1192
将軍	-11.1195
置一	-11.1201
年九月	-11.1202
獨處	-11.1206
樓臺	-11.1208
亡後	-11.1214
孝經	-11.1218
昭陵	-11.1218
夜光	-11.122
文敏	-11.122
唐李	-11.1225
豈無	-11.1226
庾公	-11.123
將帥	-11.1231
制科	-11.1232
祀之	-11.1236
刺之	-11.1236
既不	-11.1241
水經	-11.1241
飛鳥	-11.1241
所取	-11.1244
金帶	-11.1246
道家	-11.1248
白虎	-11.1248
不離	-11.1249
訪其	-11.1249
朝臣	-11.1251
七十二	-11.1252
春夏	-11.1254
麝	-11.1264
譬	-11.1265
大江	-11.1265
富家	-11.1267
誤矣	-11.1267
家中	-11.1268
便可	-11.1269
在内	-11.1269
成化	-11.1273
术	-11.1273
臣聞	-11.1274
過此	-11.1275
嬪	-11.1275
東門	-11.1275
姓字	-11.1278
青龍	-11.1278
天門	-11.1279
乃引	-11.128
城北	-11.1281
薑	-11.1282
𫀆	-11.1284
畧無	-11.1286
不果	-11.1288
江山	-11.129
放還	-11.1291
登極	-11.1291
剔	-11.1292
譎	-11.1295
無心	-11.1296
雱	-11.1296
舫	-11.1297
臍	-11.1297
庚辰	-11.1298
遘	-11.1298
扼	-11.1298
本名	-11.1299
不一	-11.1299
次年	-11.1299
遂去	-11.1299
孩	-11.13
趾	-11.13
康節先公	-11.1301
公私	-11.1301
著述	-11.1302
旌旗	-11.1303
晃	-11.1304
釜	-11.1304
唐詩紀事曰	-11.1304
丹砂	-11.1305
柯古	-11.1305
㸑	-11.1305
可取	-11.1307
進之	-11.1307
匈奴	-11.1307
翥	-11.1307
蹲	-11.1308
即時	-11.1308
某日	-11.1312
不知何許人	-11.1312
太公	-11.1312
麴	-11.1315
同歸	-11.1317
件	-11.1318
一寸	-11.1318
出報	-11.1321
亦復	-11.1323
登庸	-11.1324
三足	-11.1324
声	-11.1325
也且	-11.1326
錦繡	-11.1326
土木	-11.133
數寸	-11.1333
英公	-11.1336
親見	-11.1337
火燒	-11.1347
事者	-11.1348
率皆	-11.135
崇文	-11.1352
山頂	-11.1353
舅姑	-11.1355
諸郡	-11.1355
以避	-11.1355
爲相	-11.1356
村落	-11.1358
二王	-11.1361
左遷	-11.1364
長於	-11.1366
有婦人	-11.1367
女壻	-11.137
堯夫	-11.137
不還	-11.1371
瘞之	-11.1375
此本	-11.138
逺方	-11.1387
冀公	-11.1388
血流	-11.1389
恩澤	-11.1391
有詔	-11.1393
並無	-11.1394
而遣之	-11.1395
果見	-11.1395
笑曰此	-11.1395
漢陽	-11.1398
潞州	-11.1398
避地	-11.1402
至曉	-11.1402
嘗云	-11.1406
如玉	-11.1407
俊臣	-11.141
宋史	-11.1411
帝命	-11.1411
精妙	-11.1411
不曽	-11.1411
手執	-11.1411
皆然	-11.1412
宫室	-11.1412
非吾	-11.1422
不能得	-11.1422
髙士	-11.1424
公論	-11.1427
城内	-11.1428
有古	-11.1428
其旁	-11.1429
王老	-11.1431
舉兵	-11.1433
儁	-11.1436
立祠	-11.1438
禆	-11.1439
往還	-11.144
赴舉	-11.1441
一錢	-11.1442
又夢	-11.1442
南岳	-11.1447
驂	-11.1447
嚼	-11.1448
儒生	-11.145
渇	-11.145
廙	-11.1451
鋤	-11.1451
驍	-11.1452
闥	-11.1452
舛	-11.1453
苞	-11.1453
箔	-11.1453
曄	-11.1454
㐮	-11.1455
在東	-11.1455
八分	-11.1455
聯	-11.1455
燾	-11.1456
値	-11.1456
無功	-11.1457
纏	-11.1457
暈	-11.1457
袈裟	-11.1458
酧	-11.146
瞰	-11.146
蚊	-11.1461
涇原	-11.1462
轂	-11.1463
翰墨	-11.1464
幞頭	-11.1466
㪚	-11.1466
不能言	-11.1468
廊廟	-11.147
在翰林	-11.1472
草中	-11.1475
日者	-11.1477
下車	-11.1478
童貫	-11.1478
第六	-11.1478
燈燭	-11.1479
大蛇	-11.1483
單衣	-11.1485
二百餘	-11.1487
入一	-11.1488
字道	-11.149
投於	-11.1491
學生	-11.1497
號哭	-11.1498
問訊	-11.15
眞宗	-11.1502
祕書	-11.1504
與李	-11.1508
入地	-11.1508
親舊	-11.1509
文集	-11.1509
出則	-11.1512
楊慎	-11.1513
解之	-11.1516
十五里	-11.1517
有識	-11.1517
大厯	-11.1523
大名	-11.1524
汲水	-11.1525
石榴	-11.1528
殿試	-11.153
一巨	-11.153
内府	-11.1532
軍民	-11.1533
退居	-11.1538
都監	-11.1538
出唐	-11.1541
每遇	-11.1545
無餘	-11.1548
者悉	-11.1549
境内	-11.1549
見鬼	-11.155
到此	-11.1551
有黄	-11.1553
文辭	-11.1553
形勢	-11.1556
至一處	-11.1556
之望	-11.1557
造化	-11.1565
時見	-11.1566
其㫖	-11.1569
謂曰汝	-11.1569
未免	-11.1571
患之	-11.1572
於衆	-11.1573
辟為	-11.1574
不滿	-11.158
不遇	-11.1583
水精	-11.1584
來往	-11.1585
但言	-11.1591
朝議	-11.1595
不稱	-11.1596
一日有	-11.1598
澳	-11.1599
訝之	-11.1599
雄黄	-11.16
筒	-11.16
墅	-11.1603
騎馬	-11.1603
金色	-11.1603
驥	-11.1604
舄	-11.1605
告其	-11.1605
隳	-11.1605
槌	-11.1606
褰	-11.1607
湍	-11.1607
謳	-11.1608
至門	-11.1609
鴆	-11.161
煞	-11.161
椅	-11.161
行省	-11.161
楼	-11.161
弛	-11.161
搢紳	-11.1611
答之	-11.1611
睢陽	-11.1612
殖	-11.1613
曝	-11.1614
倨	-11.1614
所説	-11.1615
攪	-11.1616
殃	-11.1616
惶恐	-11.1616
襆	-11.1617
癖	-11.1619
雒	-11.162
松栢	-11.162
盲	-11.162
庚申	-11.162
生一	-11.162
積薪	-11.1621
中書舎人	-11.1622
同日	-11.1622
嘔	-11.1623
筆硯	-11.1624
艱難	-11.1624
其衣	-11.1627
希夷	-11.1629
揚雄	-11.1629
夜行	-11.1633
右相	-11.1635
鹽鐵	-11.1636
文忠公	-11.1637
昔人	-11.1642
今改	-11.1643
邊事	-11.1645
一紙	-11.1645
歴歴	-11.1645
今當	-11.1646
子女	-11.1651
不恱	-11.1659
河西	-11.166
從兄	-11.1663
君王	-11.1663
坐上	-11.1664
貢父	-11.1666
鄂州	-11.1667
延英	-11.1668
明矣	-11.1669
每一	-11.1672
魏王	-11.1672
多言	-11.1675
山陵	-11.1675
官制	-11.1676
于外	-11.1676
其體	-11.1677
云汝	-11.1678
前此	-11.1678
有力	-11.1678
襄州	-11.1681
王家	-11.1682
神色	-11.1682
絶倒	-11.1684
之資	-11.169
屋宇	-11.1696
必是	-11.1697
食肉	-11.1698
在側	-11.1699
殺其	-11.17
本州	-11.17
真定	-11.1702
對以	-11.1705
皆用	-11.1706
義理	-11.1706
子雲	-11.171
好古	-11.1711
非我	-11.1711
鮮于	-11.1711
不曾	-11.1712
瑯琊	-11.1714
鄆	-11.1716
太極	-11.1717
長揖	-11.1717
還至	-11.1718
子方	-11.172
定州	-11.172
杖之	-11.1723
萬貫	-11.1724
鼓吹	-11.1724
至日	-11.1725
亦皆	-11.1726
水其中多	-11.1726
亦得	-11.1727
之節	-11.1727
得意	-11.1728
自東	-11.1732
恐是	-11.1734
物皆	-11.174
欲求	-11.1743
臣下	-11.1744
始也	-11.1746
固請	-11.175
腊	-11.1751
亦謂之	-11.1753
酪	-11.1754
知我	-11.1754
擒之	-11.1755
俄聞	-11.1758
先生曰	-11.1758
其傍	-11.1758
手詔	-11.1759
北流注于	-11.1759
害之	-11.176
無一人	-11.1762
驃騎	-11.1762
鴻臚	-11.1764
甜	-11.1764
彼此	-11.1765
舊作	-11.1765
埽	-11.1766
埃	-11.1766
俎	-11.1767
州長史	-11.1767
摯	-11.1767
軼	-11.1768
咒	-11.1769
溉	-11.1769
其親	-11.1769
軻	-11.177
蘂	-11.177
甃	-11.1771
酒肆	-11.1772
干戈	-11.1772
希烈	-11.1774
諸賢	-11.1774
佗	-11.1775
瞑目	-11.1776
歘	-11.1776
猛獸	-11.1778
潯陽	-11.178
章子厚	-11.1781
裴晉公	-11.1782
喏	-11.1782
故謂之	-11.1783
一書	-11.1783
遂於	-11.1784
璹	-11.1786
然有聲	-11.1788
公言	-11.1788
而問之	-11.179
直上	-11.1791
老嫗	-11.1792
屋上	-11.1792
鎮江	-11.1792
正當	-11.1793
汝可	-11.1794
郡有	-11.1794
按察	-11.1796
雖無	-11.1797
館閣	-11.1797
而殺之	-11.1798
趙普	-11.1799
宣諭	-11.1802
乃作	-11.1802
當是時	-11.1806
閩中	-11.181
宗正	-11.181
曰天下	-11.1811
無名	-11.1813
少許	-11.1814
十千	-11.1817
班固	-11.1818
嘉其	-11.1819
城人	-11.1821
太息	-11.1821
奏上	-11.1822
明州	-11.1824
而愈	-11.1824
于庭	-11.1824
太湖	-11.1825
但有	-11.1825
與俱	-11.1827
寸許	-11.1828
訊之	-11.1828
留心	-11.1828
昔年	-11.1829
同官	-11.183
不報	-11.1834
異聞	-11.1839
願陛下	-11.1841
年三十	-11.1842
諸客	-11.1845
嘉祐中	-11.1847
始悟	-11.1848
者葢	-11.1848
二十萬	-11.1849
遂止	-11.1849
以道	-11.185
於家	-11.1851
嘉之	-11.1852
朱門	-11.1855
矣公	-11.1856
君子之	-11.1858
敏求	-11.1859
害人	-11.1861
衞公	-11.1861
有美	-11.1862
忽遇	-11.1863
太僕	-11.1865
吳中	-11.1865
二君	-11.1866
遁去	-11.187
以錢	-11.1873
南遷	-11.1873
宫闕	-11.1873
其父母	-11.1874
死人	-11.1874
舊事	-11.1875
耳今	-11.1875
之勝	-11.1878
之衆	-11.1879
所畫	-11.1881
居于	-11.1883
問左右	-11.1884
北斗	-11.1888
天府	-11.1889
夢人	-11.1893
玉環	-11.1894
官屬	-11.1895
所須	-11.1902
來見	-11.1903
紹興中	-11.1906
共語	-11.1906
信然	-11.1906
以濟	-11.1907
圖經	-11.1908
祥符	-11.1912
使其	-11.1914
巫山	-11.1915
矣而	-11.1915
茫	-11.1917
靈異	-11.1917
駟	-11.1918
安有	-11.1919
鷗	-11.192
似有	-11.192
論曰	-11.1925
搗	-11.1926
撫州	-11.1926
其草多	-11.1927
出㝠	-11.1928
二十一	-11.1928
弃	-11.1928
諶	-11.1929
酒家	-11.1929
癘	-11.1929
小舟	-11.193
髀	-11.193
靑	-11.193
棚	-11.1931
硬	-11.1931
堊	-11.1932
景徳	-11.1932
本是	-11.1932
熖	-11.1932
自來	-11.1933
刳	-11.1933
方平	-11.1933
撮	-11.1933
今有	-11.1933
覊	-11.1933
楊國忠	-11.1933
在朝	-11.1933
夸	-11.1935
鷂	-11.1935
安縣	-11.1936
欒	-11.1936
水晶	-11.1937
旃	-11.1937
鈍	-11.1937
懶	-11.1939
殫	-11.1939
峙	-11.1939
魏志曰	-11.194
恊	-11.194
女奴	-11.194
人不知	-11.1941
我何	-11.1942
不仕	-11.1942
溷	-11.1942
山甫	-11.1947
鄰里	-11.1955
到官	-11.1959
者多矣	-11.1964
先輩	-11.1964
名家	-11.1966
梁武帝	-11.1966
貯之	-11.1966
甘泉	-11.1967
無辜	-11.1967
往往有	-11.1969
不啻	-11.197
夜分	-11.1972
鴈門	-11.1975
秋風	-11.1977
寺有	-11.1977
嗟乎	-11.1982
不允	-11.1982
人咸	-11.1982
賣藥	-11.1982
有士人	-11.1983
馬前	-11.1984
李君	-11.1985
能知	-11.1985
年月	-11.1986
而斃	-11.1989
所云	-11.1989
曰李	-11.1991
議事	-11.1991
獲罪	-11.1992
列於	-11.1995
今欲	-11.1995
史館	-11.1996
問云	-11.1999
一嵗	-11.2
吏卒	-11.2002
盡矣	-11.2004
出盧氏	-11.2007
山石	-11.201
出自	-11.201
百數	-11.2013
運使	-11.2017
著作	-11.2019
手中	-11.202
上黨	-11.2023
生時	-11.2032
老矣	-11.2034
本傳	-11.2043
林公	-11.2044
驪	-11.2044
大官	-11.2046
有九	-11.2048
藏於	-11.2048
三十餘年	-11.2049
以為異	-11.2051
都不	-11.2053
謝恩	-11.2053
乃至	-11.2054
在京師	-11.2056
果至	-11.2056
齋戒	-11.2057
一粒	-11.2059
人知	-11.2063
禹玉	-11.2063
周易	-11.2064
徐徐	-11.2064
名之曰	-11.2065
竟日	-11.2066
慨	-11.2076
京都	-11.2077
羣玉	-11.2078
物色	-11.2081
僕夫	-11.2085
餘皆	-11.2086
叉	-11.2086
净	-11.2087
糊	-11.2087
莢	-11.2088
國忠	-11.2088
嵇康	-11.2089
䨇	-11.2089
斌	-11.209
乗之	-11.209
堯佐	-11.209
輔國	-11.2091
何言	-11.2092
珥	-11.2093
驩	-11.2093
世謂	-11.2094
譛	-11.2094
非常人	-11.2094
洛下	-11.2094
冉	-11.2094
即與	-11.2095
躋	-11.2095
拖	-11.2096
拏	-11.2096
錐	-11.2096
必得	-11.2096
盎	-11.2098
悪	-11.2098
譁	-11.2098
崟	-11.2099
迸	-11.21
查	-11.2101
晷	-11.2101
匙	-11.2101
在其中	-11.2102
捽	-11.2102
假寐	-11.2103
豔	-11.2105
蘇子瞻	-11.2105
生平	-11.2106
褊	-11.2108
嶮	-11.2108
㩀	-11.2109
物故	-11.2116
者矣	-11.2117
未審	-11.2118
欲使	-11.2119
覩其	-11.212
忻然	-11.2121
天監	-11.2121
卜者	-11.2122
委曲	-11.2122
汾陽	-11.2125
華陽	-11.2127
北征	-11.2128
過於	-11.2128
前行	-11.2133
一部	-11.2133
出行	-11.2134
受禪	-11.2134
四十八	-11.2134
與劉	-11.2135
石壁	-11.2135
與一	-11.214
之迹	-11.2144
當復	-11.2146
八座	-11.2148
東坡先生	-11.2149
盛徳	-11.215
神祠	-11.2152
下筆	-11.2152
當路	-11.2152
因為	-11.2152
所部	-11.2153
引見	-11.2156
忽不見	-11.2156
水銀	-11.2161
為學士	-11.2163
用為	-11.2164
出啓	-11.2168
明堂	-11.2169
女嫁	-11.2169
蜀郡	-11.217
及曉	-11.217
河南府	-11.2172
獄吏	-11.2174
和氣	-11.2175
堂下	-11.2175
邕州	-11.2177
丙子	-11.2179
弟兄	-11.218
應對	-11.218
數千里	-11.2182
常言	-11.2182
而赤	-11.2183
神考	-11.2183
以竹	-11.2184
曰當	-11.2184
兩朝	-11.2185
石刻	-11.2186
山神	-11.2191
世衡	-11.2193
倐忽	-11.2194
閩人	-11.2195
一客	-11.2196
得人	-11.2196
一箇	-11.2204
南中	-11.2206
安居	-11.2206
於野	-11.2207
紫雲	-11.2207
矣因	-11.2208
此非	-11.2208
書與	-11.221
復命	-11.2211
命酒	-11.2215
吾之	-11.2216
不息	-11.2223
子姪	-11.2223
記得	-11.2224
既歸	-11.2224
甚異	-11.2226
焚其	-11.2226
近時	-11.2227
人呼	-11.2227
更相	-11.2232
者名	-11.2234
闐	-11.2235
在天	-11.2235
學士院	-11.2237
鬼也	-11.2239
燒之	-11.224
云今	-11.224
一吏	-11.2241
吳生	-11.2243
此石	-11.2246
户外	-11.2247
牡	-11.2247
一頭	-11.2248
病卒	-11.2249
其足	-11.225
身後	-11.2251
固無	-11.2252
熏	-11.2254
霆	-11.2254
䄂	-11.2255
幙	-11.2258
掬	-11.2258
顧視	-11.2259
廿	-11.226
綉	-11.226
光禄大夫	-11.226
蝕	-11.2261
元章	-11.2261
蜃	-11.2262
冉冉	-11.2263
嘉定	-11.2263
位極人臣	-11.2263
瘳	-11.2264
珉	-11.2265
蓍	-11.2265
鶚	-11.2266
抹	-11.2266
蝦蟇	-11.2266
狄仁傑	-11.2266
跳躍	-11.2267
怙	-11.2267
笋	-11.2268
白於	-11.2268
江表	-11.2269
跛	-11.2269
噀	-11.2269
鋸	-11.227
執手	-11.227
庾亮	-11.227
母子	-11.2272
差遣	-11.2272
黷	-11.2272
出世	-11.2272
滁州	-11.2272
九百	-11.2273
零陵	-11.2274
入仕	-11.2275
良久乃	-11.2275
右手	-11.2276
誰能	-11.2276
子春	-11.2278
功業	-11.2278
許諾	-11.2278
殷勤	-11.2279
宋璟	-11.2279
至死	-11.2279
者輒	-11.228
天水	-11.2282
效之	-11.2284
潞	-11.2285
不進	-11.2287
祭祀	-11.2289
帝問	-11.229
金紫	-11.229
崖州	-11.2291
在蜀	-11.2291
謁者	-11.2292
中第	-11.2292
偽蜀	-11.2295
忽覺	-11.2296
建隆	-11.2298
年七月	-11.2299
士良	-11.2299
語也	-11.2299
山也	-11.2302
出户	-11.2303
數倍	-11.2303
道士曰	-11.2303
多為	-11.2304
大怒曰	-11.2307
卷一	-11.231
宣王	-11.2312
吟詩	-11.2312
黄昏	-11.2313
宏詞	-11.2313
行止	-11.2314
三藏	-11.2315
忽於	-11.2318
請為	-11.2319
吳王	-11.232
積石	-11.2322
怪其	-11.2323
室内	-11.2325
如此則	-11.2325
以為不可	-11.2326
小女	-11.2327
逢一	-11.2327
公侯	-11.2331
他處	-11.2331
陳郡	-11.2334
食訖	-11.2335
建業	-11.2337
少尹	-11.2338
歎其	-11.2339
博物	-11.234
不審	-11.234
晨起	-11.2341
其族	-11.2343
不對	-11.2343
以玉	-11.2344
辨之	-11.2347
栁氏	-11.2351
而前	-11.2351
相從	-11.2355
潔白	-11.236
共工	-11.236
於東	-11.2362
二丈	-11.2363
名氏	-11.2363
都統	-11.2367
火光	-11.2367
先天	-11.2368
之疾	-11.2372
怪録	-11.2373
洞天	-11.2373
百斤	-11.2373
廣西	-11.2375
三里	-11.2377
二千石	-11.2379
言也	-11.2381
字畫	-11.2383
勝負	-11.2383
武子	-11.2386
無慮	-11.2387
庶人	-11.2388
君當	-11.2391
灌之	-11.2393
嵗時	-11.2394
船中	-11.2395
泣而	-11.2396
淳化	-11.2399
先以	-11.24
百司	-11.2404
憂之	-11.2405
中選	-11.2405
何異	-11.2405
巫者	-11.2408
大木	-11.2412
衢州	-11.2414
出知	-11.2415
黼	-11.2416
大義	-11.2419
颺	-11.2421
煜	-11.2422
韋公	-11.2425
杻	-11.2427
之山無草木多	-11.2427
鼓琴	-11.2428
七嵗	-11.2428
縻	-11.2428
帚	-11.2429
澶淵	-11.2429
鮫	-11.2429
愠	-11.2429
喘	-11.243
菱	-11.243
秪	-11.243
一如	-11.243
死罪	-11.2431
縝	-11.2432
㟁	-11.2433
哺	-11.2433
撼	-11.2434
腕	-11.2434
㓙	-11.2435
槃	-11.2435
闋	-11.2435
遯	-11.2436
杓	-11.2436
紺	-11.2436
囓	-11.2437
具陳	-11.2437
也張	-11.2437
彧	-11.2438
竟不知	-11.2438
登進士第	-11.2439
鮓	-11.244
狀元及第	-11.2443
祖母	-11.2444
接之	-11.2444
秘閣	-11.2445
仲堪	-11.2446
本國	-11.2446
後月餘	-11.2447
彈琴	-11.2448
鏐	-11.2448
至誠	-11.2449
親王	-11.2449
求見	-11.245
牀前	-11.245
老君	-11.2451
皇天	-11.2451
徑入	-11.2452
文選	-11.2452
惻然	-11.2453
及覺	-11.2453
其末	-11.2454
甚苦	-11.2456
命取	-11.246
大率	-11.246
故名	-11.246
數十步	-11.2463
百僚	-11.2463
六尺	-11.2464
也昔	-11.2464
其氣	-11.2465
封禪	-11.2466
流汗	-11.2467
姿色	-11.2468
餘姚	-11.247
月中	-11.247
領軍	-11.2473
事則	-11.2474
參議	-11.2476
黄衫	-11.2477
入覲	-11.2477
龍腦	-11.2478
初至	-11.2478
知有	-11.248
無差	-11.2482
相報	-11.2484
紫微	-11.2484
忠獻	-11.2484
言笑	-11.2485
其孫	-11.2486
教之	-11.2486
庶子	-11.2488
若無	-11.2488
元和初	-11.2489
有意	-11.2492
不𩔖	-11.2493
起家	-11.2496
人身	-11.2496
都無	-11.2498
新安	-11.25
于公	-11.2501
禮記	-11.2502
同舍	-11.2502
之徳	-11.2504
三朝	-11.2505
叩門	-11.2507
評事	-11.2508
開元初	-11.2511
不朽	-11.2511
不任	-11.2511
不飲	-11.2514
必無	-11.2515
諸書	-11.2518
人才	-11.2519
何官	-11.252
登山	-11.2527
如晝	-11.2529
至明	-11.253
金華	-11.2531
意謂	-11.2532
後復	-11.2539
故得	-11.2544
太和中	-11.2546
於門	-11.2547
還鄉	-11.2547
背上	-11.2547
何能	-11.2548
鄭州	-11.2548
夏月	-11.2549
師事	-11.2549
不獨	-11.255
已得	-11.255
别去	-11.2551
戸部	-11.2551
大軍	-11.2553
武士	-11.2557
之戒	-11.2557
玉山	-11.2558
頗多	-11.2559
卧内	-11.2559
所遇	-11.256
盛夏	-11.2564
拜之	-11.2566
嵗月	-11.2566
猶能	-11.2567
辭謝	-11.257
陳公	-11.2573
司馬光	-11.2575
徐曰	-11.258
校書	-11.2581
行道	-11.2585
常為	-11.2588
以他	-11.2589
楚王	-11.259
囊中	-11.2591
遙見	-11.2593
觀世音	-11.2595
親知	-11.2595
組	-11.2595
毓	-11.2596
之遺	-11.2597
設食	-11.2597
絶無	-11.2598
顓	-11.2598
所引	-11.2598
禕	-11.26
愉	-11.26
還朝	-11.26
抃	-11.2603
貿	-11.2603
逄	-11.2604
爨	-11.2604
俚	-11.2604
三國	-11.2604
塵埃	-11.2605
刄	-11.2605
㓕	-11.2605
涿	-11.2605
器皿	-11.2605
工部尚書	-11.2606
淩	-11.2607
神道碑	-11.2608
轉運	-11.2608
褚	-11.2608
澁	-11.2609
惰	-11.2609
不可勝數	-11.2612
脣	-11.2613
王夷甫	-11.2613
在後	-11.2614
紹熙	-11.2614
館於	-11.2614
歸朝	-11.2614
老叟	-11.2615
俟其	-11.2616
莘老	-11.2616
之所以	-11.2616
此即	-11.2617
姿容	-11.2617
哭之	-11.2618
款	-11.2618
秦㑹之	-11.2621
甲辰	-11.2623
而蘇	-11.2624
視之見	-11.2624
尉遲	-11.2625
義士	-11.2626
元吉	-11.2628
故實	-11.2628
姚崇	-11.263
一夕夢	-11.2632
晦叔	-11.2632
唱名	-11.2632
者如	-11.2635
壬子	-11.2635
家法	-11.2638
之祥	-11.2638
應聲曰	-11.264
而觀之	-11.264
所及	-11.264
不豫	-11.2641
卿等	-11.2642
吹笛	-11.2642
祿山	-11.2644
元鎮	-11.2646
佛殿	-11.2647
長慶	-11.2649
友議	-11.2651
州牧	-11.2654
對上	-11.2655
地理	-11.2656
之賢	-11.2659
故舊	-11.2659
聞人	-11.2659
車中	-11.2661
未合	-11.2662
許公	-11.2663
既覺	-11.2665
人呼為	-11.2665
棄官	-11.267
遺事	-11.2672
謀反	-11.2674
驪山	-11.2674
詩也	-11.2674
楊栁	-11.2675
者耶	-11.2676
娠	-11.2678
未竟	-11.268
舍利	-11.268
應記	-11.2682
二十九	-11.2685
事多	-11.2685
錢帛	-11.2686
果卒	-11.2686
二客	-11.269
永州	-11.269
光照	-11.2691
惜乎	-11.2692
畏之	-11.2696
之報	-11.2697
除名	-11.2698
盧生	-11.2706
晝寢	-11.2711
相聞	-11.2712
自愛	-11.2714
好食	-11.2714
我輩	-11.2714
半月	-11.2716
行次	-11.2719
中表	-11.272
赴任	-11.272
仲文	-11.272
許州	-11.2721
所愛	-11.2721
左右曰	-11.2723
僖宗	-11.2726
乾符	-11.2726
供給	-11.2726
驚問	-11.2727
一節	-11.2729
神異	-11.2729
先見	-11.2731
往視	-11.2733
八十里	-11.2734
朝廷以	-11.2735
顧左右	-11.2739
柰	-11.274
久之乃	-11.2741
無足	-11.2741
大梁	-11.2743
踰月	-11.2745
郡太守	-11.2749
相州	-11.275
覺其	-11.2751
既死	-11.2753
文莊	-11.2755
盡力	-11.2761
奏對	-11.2761
王長史	-11.2761
鯤	-11.2764
九天	-11.2766
笠	-11.2766
榦	-11.2768
任氏	-11.2769
韭	-11.277
兠	-11.2771
出原	-11.2771
簇	-11.2772
脆	-11.2772
和之	-11.2772
嵇	-11.2772
永興	-11.2772
趍	-11.2772
夷堅志	-11.2773
黄色	-11.2775
珮	-11.2776
褁	-11.2778
之始	-11.2778
髙陽	-11.2778
樸	-11.2778
輯	-11.2778
氐	-11.2779
囿	-11.2779
崗	-11.278
來迎	-11.2782
白居易	-11.2782
呻吟	-11.2782
絞	-11.2782
傘	-11.2784
窣	-11.2784
堕	-11.2784
紇	-11.2784
稠	-11.2784
著作郎	-11.2785
琅玕	-11.2785
豢	-11.2787
孜	-11.2787
蹕	-11.2788
淘	-11.2788
東川	-11.2789
孔明	-11.2789
掉	-11.2789
譖	-11.2789
為天子	-11.2791
太乙	-11.2792
遣吏	-11.2793
不惟	-11.2793
所失	-11.2796
同姓	-11.2796
欲與	-11.2796
守臣	-11.2797
寂無	-11.2799
仲翔	-11.28
至道	-11.2802
若使	-11.2802
可行	-11.2804
居常	-11.2805
張九齡	-11.2806
僧徒	-11.2809
李相	-11.2809
在相位	-11.2812
每年	-11.2813
手持	-11.2814
杜甫	-11.2815
士元	-11.2815
千古	-11.2816
徽之	-11.2819
斷其	-11.2819
袖中	-11.2822
雲南	-11.2823
罪人	-11.2826
奪其	-11.2827
知開封府	-11.2827
其家人	-11.2828
驚歎	-11.2828
未識	-11.2829
頷之	-11.283
君謨	-11.2836
乃還	-11.2837
池州	-11.284
華麗	-11.2841
善畫	-11.2842
矣乃	-11.2842
引去	-11.2842
北使	-11.2842
至於此	-11.2844
其人曰	-11.2846
布政	-11.2848
其第	-11.2849
承之	-11.2851
智興	-11.2852
南面	-11.2853
可喜	-11.2853
風月	-11.2853
張易之	-11.2854
日晚	-11.2855
中貴人	-11.2857
而西	-11.2859
既寤	-11.286
司法	-11.2862
其友	-11.2862
罷之	-11.2862
又東北	-11.2863
前所	-11.2866
東向	-11.2868
南蠻	-11.2869
浩然	-11.287
歡笑	-11.2873
二相	-11.2873
語林卷	-11.2877
一百二十	-11.288
景仁	-11.2882
死亡	-11.2883
已盡	-11.2885
話録	-11.2887
思逺	-11.2887
者故	-11.2889
科名	-11.289
不修	-11.2897
此志	-11.2899
木為	-11.2899
國獻	-11.2899
地仙	-11.2904
罷歸	-11.2904
兩京	-11.2908
一章	-11.2908
夢得	-11.2908
賣之	-11.2908
清明	-11.2912
七尺	-11.2914
聖朝	-11.2916
且云	-11.2916
踰年	-11.2917
下山	-11.2918
題目	-11.2919
術數	-11.2919
肴	-11.2922
説之	-11.2922
衛士	-11.2925
心痛	-11.2927
其利	-11.2928
自相	-11.293
曰然	-11.2931
大呌	-11.2932
欲殺之	-11.2935
紀曰	-11.2937
能以	-11.2938
不殺	-11.2938
去此	-11.294
度世	-11.294
踊	-11.294
璿	-11.2941
以藥	-11.2944
右僕射	-11.2944
不常	-11.2946
誄	-11.2946
劈	-11.2947
所願	-11.2947
歌詩	-11.2947
續晉陽秋曰	-11.295
巒	-11.2951
欝	-11.2953
嘶	-11.2953
改官	-11.2953
擘	-11.2954
鑪	-11.2954
癭	-11.2956
芋	-11.2956
狠	-11.2956
寂寞	-11.2956
白晝	-11.2956
鉗	-11.2957
凡十	-11.2957
睨	-11.2958
筌	-11.2958
樞密院	-11.2958
糟	-11.2958
腴	-11.2959
餙	-11.2961
讜	-11.2961
頗甚	-11.2961
忽有一人	-11.2962
紱	-11.2962
紛紜	-11.2962
譌	-11.2963
聾	-11.2963
開寳	-11.2964
偵	-11.2964
飾以	-11.2966
朋黨	-11.2966
近者	-11.2967
蕈	-11.2967
墉	-11.2967
影響	-11.2967
章惇	-11.2968
刈	-11.2968
淮海	-11.2968
斐	-11.2969
意氣	-11.2969
往来	-11.297
田中	-11.297
仁軌	-11.2971
道也	-11.2973
皇祐	-11.2974
山河	-11.2974
禹貢	-11.2974
徐鉉	-11.2978
我也	-11.2978
萬歳	-11.2978
小異	-11.2978
劉貢父	-11.2979
外甥	-11.2981
居處	-11.2982
風雷	-11.2982
子長	-11.2983
辛苦	-11.2983
茂貞	-11.2984
緩急	-11.2985
難以	-11.2986
蘭陵	-11.2987
盛暑	-11.2987
妻曰	-11.2988
非人間	-11.2988
酌酒	-11.2989
五丈	-11.299
即當	-11.2991
萬石	-11.2991
廷試	-11.2996
天下無	-11.2998
止于	-11.3
採藥	-11.3001
也凡	-11.3001
美女	-11.3002
伯夷	-11.3003
也既	-11.3005
葬於	-11.3006
不求	-11.3008
燒香	-11.3008
呉興	-11.3008
十許	-11.301
承平	-11.301
五十餘	-11.3011
前生	-11.3013
不才	-11.3013
加禮	-11.3015
㑹之	-11.3018
白色	-11.3018
實有	-11.3019
而拜	-11.3023
若能	-11.3028
無常	-11.3029
卷三	-11.303
外孫	-11.3032
多以	-11.3033
陸氏	-11.3033
手書	-11.3034
歲餘	-11.3036
書名	-11.3037
侍兒	-11.3039
既罷	-11.3039
苑中	-11.304
其目	-11.3041
城之	-11.3042
飛入	-11.3046
等事	-11.3049
沂公	-11.305
軍使	-11.3051
不見其	-11.3051
闗中	-11.3053
一城	-11.3053
居中	-11.3056
至彼	-11.3059
百丈	-11.3062
文度	-11.3063
平時	-11.3064
咨嗟	-11.3066
所止	-11.3068
今乃	-11.3069
徙居	-11.3069
猶可	-11.307
子文	-11.307
立于	-11.3072
今上	-11.3072
熈寧中	-11.3073
論之	-11.3073
忽自	-11.3082
主僧	-11.3082
天錫	-11.3083
蔡氏	-11.3084
在人間	-11.3085
朱氏	-11.3086
岸上	-11.3089
于前	-11.309
三丈	-11.3091
憂懼	-11.3091
天寶中	-11.3093
當今	-11.3093
三載	-11.3094
應制	-11.3094
為郡	-11.3097
善繼	-11.3097
之政	-11.3101
彦伯	-11.3102
及門	-11.3102
禮之	-11.3102
安之	-11.3104
時稱	-11.3104
學官	-11.3108
幽求	-11.3108
頗為	-11.3109
其物	-11.3112
此兒	-11.3113
滄	-11.3114
致政	-11.3115
文詞	-11.3116
吕氏	-11.3117
青山	-11.3122
見聞	-11.3122
桓宣武	-11.3122
劉子	-11.3123
慤	-11.3123
上令	-11.3124
歳餘	-11.3127
脾	-11.3129
瀉	-11.313
卷上	-11.3131
蠏	-11.3132
瀾	-11.3132
冠帶	-11.3133
為善	-11.3133
欹	-11.3134
佇	-11.3134
鯁	-11.3134
其妙	-11.3135
鹹	-11.3135
仍以	-11.3136
甲戌	-11.3136
巔	-11.3137
瑰	-11.3137
蒨	-11.3138
顚	-11.314
瘧	-11.3141
癸丑	-11.3141
閎	-11.3142
世世	-11.3142
不可言	-11.3143
簟	-11.3143
襍	-11.3144
紈	-11.3144
水火	-11.3144
縞	-11.3145
守道	-11.3145
􁦚	-11.3146
耄	-11.3146
剝	-11.3147
未已	-11.3147
腑	-11.3148
太元	-11.3148
此其	-11.3148
乱	-11.3149
赧	-11.3149
懾	-11.315
螭	-11.315
夸父	-11.3151
杜子美	-11.3151
行狀	-11.3152
士論	-11.3152
詰旦	-11.3152
佶	-11.3156
不能對	-11.316
不中	-11.3161
渚宫	-11.3161
陲	-11.3162
引至	-11.3162
間以	-11.3163
出守	-11.3165
先入	-11.3166
子由	-11.3166
侍宴	-11.3168
否則	-11.3169
四六	-11.3169
放牓	-11.317
者唯	-11.3172
有遺	-11.3173
若非	-11.3175
諸道	-11.3177
城上	-11.3177
通鑑	-11.3179
侍衛	-11.3184
投刺	-11.3189
召為	-11.3189
暴雨	-11.3189
赤色	-11.3193
元祐初	-11.3195
長嘯	-11.3196
姑蘇	-11.3196
此僧	-11.3197
罵曰	-11.3197
其水	-11.3201
臺中	-11.3201
相府	-11.3205
懼而	-11.3205
甚大	-11.3205
弱水	-11.3206
伶人	-11.3209
庭前	-11.3209
交結	-11.3209
城郭	-11.321
所從來	-11.3213
黒色	-11.3215
皆非	-11.3216
神物	-11.3217
竟陵	-11.3218
書籍	-11.3218
即愈	-11.3219
之力也	-11.3222
又南	-11.3225
不傳	-11.3226
畫像	-11.3227
其性	-11.3231
甚髙	-11.3232
買之	-11.3233
又於	-11.3235
異矣	-11.3237
三思	-11.3237
覘之	-11.3238
稱是	-11.3239
玉清	-11.324
天曹	-11.3242
事有	-11.3243
焉後	-11.3245
到家	-11.3246
者盖	-11.3247
八十餘	-11.3247
而又	-11.3247
日以	-11.3248
衡陽	-11.3248
始以	-11.3249
其道	-11.325
皆如其言	-11.3252
請於	-11.3252
正色	-11.3254
其𩔖	-11.3255
大拜	-11.3256
舒州	-11.3258
孟氏	-11.3258
叩之	-11.3258
察其	-11.3259
淵明	-11.3259
數聲	-11.3262
生民	-11.3263
晉書	-11.3265
中都	-11.3268
圖之	-11.3272
朔方	-11.3272
其一曰	-11.3273
方可	-11.3279
造次	-11.328
首領	-11.3282
求救	-11.3282
齊賢	-11.3285
亦如	-11.3287
之世	-11.3289
明達	-11.329
一句	-11.3291
復歸	-11.3292
太一	-11.3293
者莫不	-11.3297
祝曰	-11.3297
羲之	-11.3301
卒于	-11.3306
年號	-11.3306
故能	-11.3307
承天	-11.3309
以銀	-11.3309
為盜	-11.3311
制置	-11.3311
郵	-11.3313
四角	-11.3313
楨	-11.3316
一手	-11.3317
起復	-11.3318
懈	-11.3319
柞	-11.332
鬂	-11.332
蛾	-11.3321
悌	-11.3321
勿令	-11.3322
邯鄲	-11.3322
陬	-11.3323
學術	-11.3323
建言	-11.3325
杉	-11.3325
他物	-11.3326
梁武	-11.3326
汜	-11.3326
秤	-11.3326
摸	-11.3326
榭	-11.3327
固不可	-11.3327
灸	-11.3327
其僕	-11.3328
離騷	-11.3328
燼	-11.3328
訃	-11.3328
蘇軾	-11.3328
俛首	-11.3328
讚	-11.3329
廪	-11.333
鯨	-11.3332
貢院	-11.3334
䭾	-11.3334
腋	-11.3335
䑛	-11.3336
交通	-11.3337
列坐	-11.3337
職方	-11.3339
太皇太后	-11.3341
秉政	-11.3343
屯田	-11.3344
張口	-11.3345
小童	-11.3345
姦邪	-11.3346
援筆	-11.3349
欲用	-11.335
宣和間	-11.3353
美玉	-11.3354
閭里	-11.3354
第七	-11.3355
非有	-11.3358
雞鳴	-11.3359
女人	-11.3364
四川	-11.3365
後三日	-11.3366
嘗曰	-11.3366
性剛	-11.3367
意者	-11.3368
縣界	-11.3368
已至	-11.3371
三世	-11.3372
正在	-11.3372
秦漢	-11.3372
收之	-11.3373
自强	-11.3374
將校	-11.3376
伯父	-11.3376
吾亦	-11.3378
關中	-11.3379
則是	-11.3379
子貢	-11.338
事故	-11.338
谷中	-11.3382
錦衣	-11.3382
者豈	-11.3385
奪之	-11.3386
毎至	-11.3386
就坐	-11.3386
畫地	-11.3387
滄海	-11.3392
諸路	-11.3392
四顧	-11.3393
升堂	-11.3395
寧王	-11.3395
竹林	-11.3395
欲殺	-11.3396
擲之	-11.3398
景文	-11.3398
兒童	-11.3398
五榖	-11.3401
少主	-11.3402
上林	-11.3404
養生	-11.3407
一㸃	-11.341
勿復	-11.3413
賛曰	-11.3413
何等	-11.3414
寸餘	-11.3418
中庭	-11.3419
葉似	-11.3421
不生	-11.3422
者獨	-11.3425
於斯	-11.3428
太宰	-11.3429
作聲	-11.3429
挈家	-11.3434
父為	-11.3437
風雲	-11.3438
出搜	-11.3438
之貴	-11.3439
因留	-11.344
其字	-11.3441
尤精	-11.3441
憚之	-11.3442
詩句	-11.3443
五月五日	-11.3443
悉是	-11.3447
前曰	-11.3448
安禄山	-11.345
以代	-11.345
如其	-11.3452
昇平	-11.3452
卷四	-11.3452
傷人	-11.3453
奏名	-11.3454
不經	-11.3454
大厯中	-11.3455
及見	-11.3458
攻之	-11.346
蜀主	-11.346
尋訪	-11.3464
後事	-11.3464
其皮	-11.3464
王珪	-11.3467
而寢	-11.3467
别業	-11.3468
文徳	-11.3469
年已	-11.3471
如神	-11.3473
遂有	-11.3477
地中	-11.3477
皆能	-11.3478
又欲	-11.348
而不言	-11.3481
長吏	-11.3482
陳州	-11.3484
考功	-11.3484
長卿	-11.3486
智髙	-11.3488
率多	-11.3488
時人謂	-11.3489
軍容	-11.349
信乎	-11.3491
白鹿	-11.3493
太陽	-11.3496
攺	-11.3497
拈	-11.3498
〇	-11.3498
嘗從	-11.3498
萬國	-11.3499
不可曉	-11.35
鱉	-11.3502
瑛	-11.3504
龜年	-11.3505
不變	-11.3505
羅浮	-11.3505
當令	-11.3506
胃	-11.3507
陜州	-11.3507
剃	-11.3508
次子	-11.3508
茯苓	-11.3508
康成	-11.3509
吏民	-11.3509
太平廣記	-11.3509
虗	-11.351
瀘	-11.351
法華經	-11.3511
蝟	-11.3511
德裕	-11.3511
固當	-11.3511
汝等	-11.3512
内殿	-11.3512
坂	-11.3512
从	-11.3512
搔	-11.3513
禁止	-11.3514
翎	-11.3514
狥	-11.3516
趺	-11.3516
蜚	-11.3517
派	-11.3517
淛	-11.3517
筐	-11.3517
錬	-11.3517
鹵	-11.3517
千緡	-11.3518
將及	-11.3518
鷙	-11.3518
斟	-11.3519
規模	-11.3519
丙午	-11.3521
芽	-11.3522
擣	-11.3522
无	-11.3522
偓	-11.3523
無水	-11.3526
鄭子	-11.3526
髙帝	-11.3526
昩	-11.3527
閉户	-11.3527
其直	-11.3527
簿書	-11.3528
卷下	-11.3529
出玉	-11.3529
蘇頲	-11.3529
者因	-11.3533
少陵	-11.3535
公家	-11.3537
見一大	-11.3537
工部	-11.3538
長二尺	-11.3538
而亡	-11.3541
于市	-11.3544
先有	-11.3544
昆吾	-11.3551
略不	-11.3554
去年	-11.3554
召還	-11.3555
而散	-11.3559
擇日	-11.356
眉目	-11.3561
中有人	-11.3563
固已	-11.3565
文中子	-11.3566
退朝	-11.3569
粲然	-11.3569
揖之	-11.3569
小娘子	-11.357
勃然	-11.3572
太監	-11.3574
著名	-11.3575
掌中	-11.3576
皆笑	-11.3576
屬也	-11.3578
文義	-11.358
不可測	-11.3588
也其後	-11.3589
應龍	-11.3591
使者曰	-11.3591
今見	-11.3592
至德	-11.3595
來朝	-11.3595
神曰	-11.3596
西漢	-11.3597
幕客	-11.3599
漢末	-11.3601
為吏	-11.3601
回顧	-11.3601
岐王	-11.3602
巨石	-11.3604
毛羽	-11.3606
國王	-11.3606
沛國	-11.3606
數行	-11.3606
永寧	-11.3607
俄見	-11.3607
善於	-11.3614
號令	-11.3614
曾孫	-11.3615
文通	-11.3615
所費	-11.3617
其詞曰	-11.3617
矣吾	-11.3618
興國	-11.3622
亦不復	-11.3622
不好	-11.3622
如是者	-11.3623
不交	-11.3623
嫁之	-11.3625
同遊	-11.3626
吕公	-11.3626
都官	-11.3627
開元末	-11.3629
郭曰或	-11.3631
始為	-11.3636
吾將	-11.3637
死于	-11.3639
附㑹	-11.364
本姓	-11.3648
一萬	-11.3648
先聖	-11.365
自立	-11.3652
家于	-11.3652
侯景	-11.3653
矣於是	-11.3654
大慙	-11.3654
身為	-11.3654
四十餘	-11.3655
奉命	-11.3655
五萬	-11.3657
庖人	-11.3662
王導	-11.3662
食之已	-11.3663
已亡	-11.3665
相逢	-11.3665
百餘步	-11.3666
者數四	-11.3667
康定	-11.3668
名位	-11.367
滄州	-11.367
所忌	-11.3674
孔子曰	-11.3674
無畏	-11.3674
白鶴	-11.3675
器用	-11.3675
宜速	-11.3679
即出	-11.368
悦之	-11.368
去國	-11.3681
其肉	-11.3682
治中	-11.3682
果為	-11.3683
以為常	-11.3683
生男	-11.3686
恍	-11.3686
觚	-11.3687
之辭	-11.3688
旹	-11.3689
顧見	-11.3692
之失	-11.3692
十五日	-11.3693
元康	-11.3693
云初	-11.3696
於心	-11.3698
曰夫人	-11.3698
共食	-11.3698
藕	-11.3698
癰	-11.37
紐	-11.3702
鏃	-11.3702
榼	-11.3704
暄	-11.3704
疵	-11.3704
省中	-11.3705
縉	-11.3705
極力	-11.3705
缶	-11.3706
壙	-11.3706
霅	-11.3706
侑	-11.3707
櫛	-11.3708
塩	-11.3708
煬帝	-11.3709
天章閣待制	-11.3709
咄	-11.371
與兄	-11.371
尔	-11.3711
前世	-11.3713
獺	-11.3714
不踰	-11.3714
箧	-11.3715
偹	-11.3717
丙辰	-11.3717
鄜延	-11.3717
寺門	-11.3717
不來	-11.3717
金甲	-11.3719
不協	-11.3719
謝太傅	-11.372
烽	-11.372
未易	-11.372
長八尺	-11.3721
秉燭	-11.3722
髙力士	-11.3724
謂此也	-11.3727
尤善	-11.3728
永徽	-11.3728
今古	-11.3731
府中	-11.3731
獻帝	-11.3731
軍國	-11.3733
不善	-11.3733
漢州	-11.3734
拱手	-11.3734
具奏	-11.3734
相應	-11.3734
孺子	-11.3734
義熈	-11.3735
第宅	-11.374
衛將軍	-11.374
降階	-11.3743
不事	-11.3743
以文章	-11.3744
鍾離	-11.3747
遣中使	-11.3747
之母	-11.3749
同前	-11.3749
政和間	-11.375
曰然則	-11.3752
南門	-11.3754
𩔖此	-11.3757
王欽若	-11.3758
妓樂	-11.3759
三十五	-11.3759
天尊	-11.376
字季	-11.3761
曰阿	-11.3765
三十三	-11.3766
東洛	-11.3767
平生不	-11.3767
後苑	-11.3769
無私	-11.3772
無厭	-11.3773
原注	-11.3782
齊丘	-11.3783
一坐	-11.3784
所請	-11.3785
陳設	-11.3786
張說	-11.3788
明録	-11.3788
荅云	-11.3789
部落	-11.379
豈復	-11.3791
其舊	-11.3793
上怒	-11.3794
李嶠	-11.3795
在彼	-11.3797
曰相公	-11.3797
月色	-11.3797
遂卒	-11.3799
相連	-11.3801
子房	-11.3801
今既	-11.3802
二十人	-11.3803
道塲	-11.3805
采石	-11.3808
長公主	-11.3809
太學生	-11.3809
樂道	-11.381
青城山	-11.381
與卿	-11.3811
几上	-11.3816
萬卷	-11.3818
兒子	-11.3819
士衡	-11.3822
耳然	-11.3822
時相	-11.3823
字君	-11.3825
都知	-11.3825
草草	-11.3827
茂實	-11.3829
臺閣	-11.3829
正字	-11.383
怒甚	-11.383
此處	-11.383
寺觀	-11.383
吾輩	-11.3835
得病	-11.3836
無苦	-11.3838
何以知之	-11.3842
後數月	-11.3844
婺	-11.3844
持此	-11.3844
嗣位	-11.3847
北朝	-11.3848
山名	-11.385
登樓	-11.3851
短小	-11.3851
壻也	-11.3854
未久	-11.3854
表弟	-11.3855
大凡	-11.3855
髙平	-11.3855
了不	-11.3858
不可得而	-11.3859
錄事	-11.386
容止	-11.3862
西行	-11.3864
其像	-11.3867
亳	-11.3868
翁曰	-11.3868
遂罷	-11.387
正色曰	-11.3873
靚	-11.3876
三兩	-11.3876
孔氏	-11.3877
及歸	-11.3879
姓王	-11.388
自以為	-11.388
吏部郎	-11.3881
從行	-11.3883
百金	-11.3884
恐非	-11.3885
不論	-11.3885
南朝	-11.3886
黄冠	-11.3887
家富	-11.3887
膩	-11.3891
穉	-11.3891
收拾	-11.3893
出傳	-11.3893
姙	-11.3893
飜	-11.3894
楯	-11.3895
之士也	-11.3896
令左右	-11.3897
又命	-11.3897
曦	-11.3897
柟	-11.3897
艮	-11.3898
世事	-11.3899
璨	-11.3899
誓不	-11.3899
𢎞正	-11.3899
崧	-11.39
譔	-11.39
斵	-11.39
晏元獻	-11.3901
嗇	-11.3902
徂	-11.3902
鍳	-11.3902
鸛	-11.3902
劉向	-11.3903
洪水	-11.3903
衒	-11.3903
湊	-11.3904
橐	-11.3904
虀	-11.3905
怏怏	-11.3906
蒜	-11.3906
懋	-11.3906
窖	-11.3907
宜春	-11.3909
甓	-11.3909
爍	-11.391
櫬	-11.3911
東漢	-11.3911
諜	-11.3911
閃	-11.3912
畦	-11.3912
廏	-11.3912
凄	-11.3912
俯仰	-11.3913
番禺	-11.3913
鍇	-11.3913
荆棘	-11.3914
觀焉	-11.3915
以實告	-11.3916
不遜	-11.3918
攽	-11.3918
愴然	-11.3919
不省	-11.3919
權貴	-11.392
梁公	-11.392
曰此子	-11.392
枯骨	-11.3921
其尾	-11.3923
石橋	-11.3926
此行	-11.3926
宗族	-11.3927
明珠	-11.3927
之族	-11.3927
不乆	-11.3929
大興	-11.3929
皆死	-11.3931
自縊	-11.3932
狀頭	-11.3934
五六尺	-11.3936
㝠司	-11.3937
中路	-11.3937
州别駕	-11.3937
青色	-11.3938
慕容	-11.3939
尤多	-11.3942
對客	-11.3945
温州	-11.3951
戊子	-11.3952
衣帶	-11.3952
告於	-11.3953
紫色	-11.3953
又名	-11.3957
化成	-11.3958
忘其名	-11.3958
無狀	-11.3961
也予	-11.3961
修行	-11.3962
祥符中	-11.3963
駕幸	-11.3963
家於	-11.3964
斯言	-11.3965
一宿	-11.3965
欲為	-11.3965
年年	-11.397
不辨	-11.397
殊不知	-11.3972
處州	-11.3973
開棺	-11.3974
留後	-11.3975
金釵	-11.3975
二枚	-11.3976
後宫	-11.3977
繫之	-11.3977
林下	-11.398
棄市	-11.398
惟一	-11.3981
無情	-11.3982
復召	-11.3983
便宜	-11.3985
忽起	-11.3985
佩之	-11.3987
珍重	-11.3991
失守	-11.3991
常於	-11.3995
紹興初	-11.3995
二吏	-11.3996
緑衣	-11.3998
亦如之	-11.3999
好酒	-11.4001
始有	-11.4001
正叔	-11.4006
真卿	-11.4006
伊水	-11.4008
也如此	-11.4009
後三年	-11.4009
稱賞	-11.401
子野	-11.4011
又得	-11.4013
山間	-11.4014
得名	-11.4015
后土	-11.4016
之極	-11.4018
才名	-11.4021
觸之	-11.4021
但得	-11.4022
見殺	-11.4023
更衣	-11.4023
爲我	-11.4023
玉石	-11.4026
忌之	-11.4027
牛羊	-11.4027
以安	-11.4029
賜名	-11.4032
尚能	-11.4036
佛經	-11.4037
今復	-11.4038
王侯	-11.4038
神道	-11.4038
能作	-11.404
二百年	-11.4041
無處	-11.4042
表云	-11.4042
軍前	-11.4045
王建	-11.4046
為第一	-11.4046
十七日	-11.4047
安用	-11.4051
武德	-11.4054
黑色	-11.4055
裴公	-11.4057
壬	-11.4059
二曰	-11.4062
郡國	-11.4066
究其	-11.4066
雲溪	-11.407
不救	-11.407
以充	-11.4073
之體	-11.4076
迦	-11.4077
既久	-11.4078
武人	-11.4078
昭王	-11.4078
宣政	-11.4081
义	-11.4081
汭	-11.4083
出遊	-11.4083
字敬	-11.4085
士民	-11.4086
茸	-11.4087
所製	-11.4088
統制	-11.4089
晉諸公賛曰	-11.4089
其根	-11.409
衆僧	-11.4091
固言	-11.4092
櫟	-11.4092
於河	-11.4092
茟	-11.4092
村中	-11.4093
導從	-11.4093
極言	-11.4094
屣	-11.4095
一丸	-11.4095
剽	-11.4098
都賦	-11.4098
怍	-11.4099
奐	-11.4099
辛丑	-11.41
彷彿	-11.4101
憔悴	-11.4102
蜕	-11.4102
隋文帝	-11.4102
潄	-11.4103
甲第	-11.4103
佺	-11.4103
叠	-11.4103
產	-11.4103
椿	-11.4104
隋煬帝	-11.4104
殄	-11.4104
熈載	-11.4105
倭	-11.4105
紘	-11.4105
破之	-11.4105
若在	-11.4106
轝	-11.4106
傪	-11.4106
眸	-11.4106
丙申	-11.4106
穽	-11.4106
婚姻	-11.4106
衛公	-11.4106
不存	-11.4107
楊大年	-11.4108
不移	-11.4108
蠲	-11.4109
蹤跡	-11.4109
鬰	-11.4111
朞	-11.4111
襪	-11.4111
有女子	-11.4112
据	-11.4112
所好	-11.4112
凛	-11.4113
縣民	-11.4114
刑部尚書	-11.4114
何耶	-11.4115
異於常	-11.4115
以實對	-11.4116
江都	-11.4116
不自勝	-11.4116
寰	-11.4116
乙巳	-11.4116
餗	-11.4117
配享	-11.4118
捕魚	-11.4118
百六十	-11.4118
驚怖	-11.4119
獨居	-11.412
申公	-11.412
楊文公	-11.4122
大呼曰	-11.4122
長數寸	-11.4122
參差	-11.4127
之性	-11.4128
聲聞	-11.413
博覽	-11.413
紹翁	-11.4131
几案	-11.4131
臨朝	-11.4131
其理	-11.4134
輔政	-11.4134
大㑹	-11.4135
長七尺	-11.4135
外舅	-11.4135
宗社	-11.4136
鱗甲	-11.4136
異同	-11.4137
廣漢	-11.4138
數十丈	-11.4141
娶婦	-11.4142
成就	-11.4142
當作	-11.4142
恨不	-11.4143
歌之	-11.4143
萬歲	-11.4143
無定	-11.4143
群臣	-11.4144
散騎	-11.4145
麾下	-11.4148
朱書	-11.4149
露布	-11.415
九疑	-11.4154
未嘗見	-11.4155
勞苦	-11.4157
安南	-11.4158
訴于	-11.416
上虞	-11.4163
編修	-11.4163
因取	-11.4163
音如	-11.4166
永康	-11.4168
十嵗	-11.4169
微時	-11.4169
郊外	-11.417
往復	-11.4172
指揮使	-11.4174
希文	-11.4176
分别	-11.4176
某等	-11.4176
比丘	-11.4177
凌雲	-11.4177
宫觀	-11.4179
彭年	-11.4179
捨之	-11.4179
正夫	-11.418
若夫	-11.4182
奄然	-11.4184
突入	-11.4187
四寸	-11.4191
妓女	-11.4194
所執	-11.4196
立朝	-11.4197
㕔前	-11.4198
手自	-11.4199
縣主簿	-11.4202
腰間	-11.4204
先王	-11.4209
無過	-11.421
少遊	-11.421
六人	-11.4211
兩句	-11.4211
有一女	-11.4214
晉陵	-11.4214
莊周	-11.4215
經曰	-11.4216
求得	-11.4216
泉州	-11.4219
何益	-11.422
方外	-11.4221
竹杖	-11.4224
南都	-11.4225
極多	-11.4227
新語	-11.4228
疾愈	-11.4231
極其	-11.4234
何爲	-11.4236
大駕	-11.4237
渭水	-11.4239
國中	-11.424
大魚	-11.4241
其僧	-11.4241
擢為	-11.4241
八千	-11.4244
有驗	-11.4244
年二十餘	-11.4247
非敢	-11.4248
燕山	-11.4248
巳而	-11.4249
座主	-11.425
黄龍	-11.425
未終	-11.4255
建議	-11.4255
如風	-11.4257
蒼生	-11.4259
不軌	-11.4262
延安	-11.4264
歙	-11.4268
老姥	-11.4268
大字	-11.4269
權勢	-11.427
便令	-11.4271
公議	-11.4272
二郎	-11.4273
以私	-11.4275
不敬	-11.4275
二人皆	-11.4277
同心	-11.4277
老兵	-11.4279
東市	-11.4279
部員外	-11.428
白曰	-11.428
形體	-11.4283
比至	-11.4283
何須	-11.4284
莫若	-11.4286
琅	-11.4288
予謂	-11.4288
臨别	-11.4289
遥見	-11.4293
醬	-11.4294
琥珀	-11.4294
晳	-11.4294
糖	-11.4295
所向	-11.4295
作法	-11.4295
磁	-11.4295
炤	-11.4296
荼	-11.4296
瓉	-11.4296
襖	-11.4296
之曲	-11.4296
荔枝	-11.4297
鵬	-11.4299
丁亥	-11.43
壬午	-11.43
蜘蛛	-11.4301
毳	-11.4302
嵌	-11.4302
覈	-11.4302
自殺	-11.4303
夕陽	-11.4304
下邳	-11.4304
澥	-11.4305
蹋	-11.4305
宼	-11.4305
桎梏	-11.4306
藜	-11.4306
伯溫	-11.4306
其骨	-11.4307
銖	-11.4307
馨	-11.4308
臉	-11.4308
佃	-11.4308
莒	-11.4308
怪異	-11.4308
聆	-11.4309
十斤	-11.4309
泯	-11.4309
儆	-11.4309
靄	-11.431
己酉	-11.431
壠	-11.431
錮	-11.4311
仞	-11.4311
凉州	-11.4312
眄	-11.4312
問之云	-11.4312
儂	-11.4312
正與	-11.4313
縹	-11.4313
棣	-11.4314
疇昔	-11.4314
卿相	-11.4314
畀	-11.4314
進御	-11.4316
酥	-11.4316
尚書左丞	-11.4316
後竟	-11.4318
段成式	-11.4318
延齡	-11.4319
靈帝	-11.4319
燈火	-11.432
幕中	-11.4321
傳呼	-11.4322
乖崖	-11.4323
汨	-11.4323
為妖	-11.4324
魯國	-11.4324
疑有	-11.4325
臺記	-11.4325
琴瑟	-11.4326
所覩	-11.4327
長興	-11.4328
晉武帝	-11.433
當其	-11.4331
可作	-11.4332
飲饌	-11.4333
當日	-11.4333
年八十餘	-11.4333
周世宗	-11.4335
甚異之	-11.434
如夢	-11.4342
武林	-11.4346
邑中	-11.4347
懼其	-11.4347
過矣	-11.4347
親屬	-11.4348
說文	-11.4348
愜	-11.4349
開視	-11.4353
不雨	-11.4353
桂林	-11.4357
入口	-11.4359
南嶽	-11.4361
掖庭	-11.4362
正中	-11.4365
坐此	-11.4366
萬古	-11.4368
象曰	-11.4372
待罪	-11.4373
且欲	-11.4374
方寸	-11.4374
状元	-11.4375
長一丈	-11.4376
耳遂	-11.4377
館中	-11.4378
至徳	-11.438
師子	-11.4386
雜説	-11.4388
之衣	-11.4388
它日	-11.4391
僧云	-11.4393
十六日	-11.4393
二十一日	-11.4394
容易	-11.4394
求去	-11.4397
上方	-11.4398
歴代	-11.4398
悲喜	-11.4399
音聲	-11.4401
丁未	-11.4406
何乃	-11.4412
甚竒	-11.4413
元宗	-11.4414
海水	-11.4414
其所以	-11.4416
以給	-11.4419
仁廟	-11.4424
街中	-11.4426
為賊所	-11.4427
其勢	-11.4429
不知其所	-11.4433
杜門	-11.4435
不假	-11.4436
三斗	-11.4437
聲名	-11.4439
前朝	-11.444
思恭	-11.444
十載	-11.4441
渡河	-11.4446
萬户	-11.4451
所感	-11.4453
中尉	-11.4454
為害	-11.4457
一紀	-11.4457
宣徽	-11.4459
陽翟	-11.4459
歎曰吾	-11.446
窮極	-11.4462
聞君	-11.4463
志在	-11.4466
大安	-11.4468
舊例	-11.4468
乘之	-11.4473
大澤	-11.4474
五嶽	-11.4479
國事	-11.4479
不屈	-11.4482
也豈	-11.4483
老病	-11.4484
序云	-11.4485
諸儒	-11.4486
家財	-11.4487
不學	-11.4488
有識者	-11.4489
景雲	-11.449
前進士	-11.4492
以鐵	-11.4492
敵人	-11.4492
自矜	-11.4494
愴	-11.4495
太𤣥	-11.4496
顙	-11.4497
畼	-11.4498
數升	-11.4499
麈	-11.45
江海	-11.45
佛堂	-11.4501
無患	-11.4503
剋	-11.4503
大驚曰	-11.4504
雷州	-11.4505
癸酉	-11.4506
妝	-11.4506
諸國	-11.4506
富民	-11.4507
水出焉而東流注于	-11.4507
腎	-11.4507
柑	-11.4508
復入	-11.4508
同居	-11.4508
兕	-11.451
插	-11.451
膊	-11.451
菩提	-11.451
券	-11.4511
揀	-11.4512
涔	-11.4512
撿	-11.4512
書院	-11.4513
刮	-11.4513
案牘	-11.4515
㤗	-11.4515
軋	-11.4516
户部侍郎	-11.4516
祅	-11.4517
彂	-11.4518
綯	-11.4518
儈	-11.4518
蹔	-11.4518
萍	-11.4518
稿	-11.4519
悠悠	-11.4519
大理評事	-11.4519
璉	-11.4519
鍔	-11.4519
之業	-11.452
善相	-11.452
但恐	-11.452
僮僕	-11.452
兵部侍郎	-11.4521
繭	-11.4521
駐蹕	-11.4521
埸	-11.4521
紓	-11.4522
怛	-11.4522
碗	-11.4523
吟詠	-11.4524
辛亥	-11.4524
僧舍	-11.4526
火焚	-11.4527
荆州刺史	-11.4527
都指揮使	-11.4528
雞卵	-11.4529
鵬舉	-11.4529
到任	-11.453
甲寅	-11.4532
百八十	-11.4532
無草木多	-11.4532
安邑	-11.4533
羅織	-11.4534
以下皆	-11.4534
將兵	-11.4535
益甚	-11.4535
猫兒	-11.4536
巨源	-11.4536
惟恐	-11.4538
羽翼	-11.454
乗輿	-11.454
哭泣	-11.4541
之䜟	-11.4542
廁	-11.4545
祈福	-11.4545
發遣	-11.4552
感其	-11.4553
厲聲曰	-11.4556
尊號	-11.4559
妖怪	-11.456
稱㫖	-11.4562
食之不	-11.4562
盛時	-11.4565
牛頭	-11.4566
同為	-11.4568
經筵	-11.4568
詔令	-11.4569
即取	-11.4572
陸機	-11.4573
不可忍	-11.4575
帝乃	-11.4576
成帝	-11.4576
大哭	-11.4577
自虚	-11.4578
愛惜	-11.4579
七月七日	-11.4579
耶律	-11.4579
宦官	-11.458
遂留	-11.4583
何人也	-11.4584
大聖	-11.4584
二十四日	-11.4585
桂州	-11.4586
醉卧	-11.4588
師友	-11.4589
而沒	-11.459
冬月	-11.4591
鄆州	-11.4591
作色	-11.4592
致謝	-11.4593
取錢	-11.4596
一郡	-11.4597
暴死	-11.4598
征西	-11.4598
二音	-11.4602
樓閣	-11.4603
兄也	-11.4606
從軍	-11.461
議郎	-11.461
路傍	-11.4611
法善	-11.4613
宫門	-11.4614
貢舉	-11.4614
所遺	-11.4615
月十五日	-11.4615
上昇	-11.4616
朱紫	-11.4618
之應也	-11.462
議之	-11.4622
此鳥	-11.4624
曰昨	-11.4626
東封	-11.4628
大使	-11.4629
明白	-11.463
家門	-11.4633
御書	-11.4636
飲水	-11.4637
他適	-11.4638
遂行	-11.464
國主	-11.464
有娠	-11.4643
博通	-11.4643
山居	-11.4643
字茂	-11.4647
羣仙	-11.4648
趨出	-11.465
八字	-11.4652
南豐	-11.4653
武侯	-11.4655
復舊	-11.4655
又能	-11.4657
布囊	-11.4659
字韻	-11.4659
正論	-11.4661
三十人	-11.4661
同坐	-11.4663
之㫖	-11.4665
為惡	-11.4665
懷中	-11.4667
七歲	-11.4667
天資	-11.4668
京邑	-11.4669
不謹	-11.467
丈許	-11.4673
有一物	-11.4675
臣子	-11.4678
太史公	-11.4678
少監	-11.468
固知	-11.4681
一面	-11.4683
平復	-11.4683
一日忽	-11.4685
無傷	-11.4685
大和	-11.4685
暴風	-11.4685
其祖	-11.4687
永泰	-11.4688
受教	-11.4689
因語	-11.4691
簽	-11.4691
國寳	-11.4691
縊	-11.4692
宣徳	-11.4698
緋衣	-11.47
其光	-11.47
所推	-11.4701
今夜	-11.4702
變色	-11.4703
稱臣	-11.4703
出師	-11.4703
蛇身	-11.4705
𥙿	-11.4706
本紀	-11.4706
土中	-11.4706
莫測其	-11.4709
無頗	-11.4709
就寢	-11.471
有毒	-11.4713
夀春	-11.4713
罵之	-11.4715
施於	-11.4715
努	-11.4717
聞空中	-11.4719
鞅	-11.4719
一幅	-11.4719
乃爾	-11.472
庚寅	-11.472
許敬宗	-11.472
沫	-11.4721
墩	-11.4721
有道術	-11.4722
罇	-11.4722
鷓鴣	-11.4723
鄙之	-11.4723
泊舟	-11.4724
嘘	-11.4724
夐	-11.4725
長孫無忌	-11.4726
樞宻副使	-11.4726
彖	-11.4726
曰此兒	-11.4726
辛酉	-11.4727
遒	-11.4727
玷	-11.4727
埶	-11.4728
有知者	-11.4728
仍令	-11.4728
旺	-11.4728
相承	-11.4728
涕泗	-11.4729
殛	-11.4729
乾隆四十六年	-11.473
彤	-11.4731
駙馬都尉	-11.4732
不聴	-11.4732
時宰	-11.4732
燥	-11.4733
歉	-11.4733
港	-11.4733
蒯	-11.4733
嶺表	-11.4733
賜第	-11.4734
燔	-11.4734
未定	-11.4735
輓	-11.4736
中書省	-11.4736
千貫	-11.4736
醴泉	-11.4737
念金剛經	-11.4737
不服	-11.4737
紹熈	-11.4738
白龍	-11.4738
荻	-11.474
唐𤣥宗	-11.4741
西風	-11.4741
韓侂胄	-11.4743
飢寒	-11.4745
發掘	-11.4746
撫之	-11.4746
建封	-11.4747
不思	-11.4749
小説家𩔖一	-11.475
不赴	-11.4751
壯麗	-11.4751
嘆息	-11.4751
魏文帝	-11.4751
矣余	-11.4758
者蓋	-11.4758
蔬食	-11.4758
一世	-11.4759
州都督	-11.4759
其屍	-11.476
即遣	-11.476
匹夫	-11.476
一統志	-11.476
長數丈	-11.4761
萬錢	-11.4761
羣僧	-11.4762
商量	-11.4763
中央	-11.4767
玉皇	-11.4767
文彦博	-11.4767
天使	-11.4768
即止	-11.4768
人姓名	-11.4769
大節	-11.477
丐者	-11.4771
甲申	-11.4772
之女也	-11.4773
出迎	-11.4774
寺丞	-11.4774
宛若	-11.4775
以付	-11.4775
唐開元中	-11.4778
生于	-11.4779
存之	-11.4781
江漢	-11.4782
兵火	-11.4785
口占	-11.4787
有一子	-11.4789
不能盡	-11.4791
兵革	-11.4792
父名	-11.4793
其尸	-11.4793
戮之	-11.4794
東野	-11.4796
開口	-11.4796
延夀	-11.4797
臺省	-11.4798
甚恭	-11.4798
十分	-11.4799
蜀先主	-11.4804
秀州	-11.4805
詣門	-11.4808
軍馬	-11.481
化爲	-11.4813
亦善	-11.4814
開目	-11.4815
欲往	-11.4815
總兵	-11.4824
錢物	-11.4828
其詳	-11.4828
三教	-11.4829
洛城	-11.4832
西市	-11.4835
止之曰	-11.4836
忠厚	-11.4837
依然	-11.4837
百匹	-11.4838
令其	-11.4841
妙絶	-11.4841
州司户	-11.4847
車載	-11.4847
為御史中丞	-11.4849
大恱	-11.4849
絶倫	-11.485
固非	-11.4851
其疾	-11.4852
官舍	-11.4852
其陰多	-11.4854
後十年	-11.4855
聽政	-11.4855
甚明	-11.4855
廣平	-11.486
召試	-11.4861
太倉	-11.4864
忠烈	-11.4864
豈可以	-11.4865
可容	-11.4866
黄庭	-11.487
碧玉	-11.4871
云此是	-11.4872
戲曰	-11.4875
無賴	-11.4877
乃絶	-11.4879
世孫	-11.4879
好竒	-11.4881
嬪御	-11.4883
尚可	-11.4888
路人	-11.4888
行酒	-11.4889
不可及	-11.4893
兩月	-11.4893
法度	-11.4893
相傳云	-11.4895
放歸	-11.4895
典故	-11.4895
論列	-11.4895
因循	-11.4897
問其故曰	-11.4899
只有	-11.4902
再入	-11.4903
為友	-11.491
奇之	-11.4914
吏人	-11.4915
東歸	-11.492
文宣	-11.4921
滑州	-11.4921
樂安	-11.4926
穰	-11.4928
南城	-11.4929
遵裕	-11.493
以火	-11.493
琨	-11.4931
主帥	-11.4933
貫之	-11.4933
年十七	-11.4935
一疋	-11.4935
空中有	-11.4936
嫁女	-11.4938
勔	-11.4939
澡	-11.4939
太學博士	-11.494
揮麈	-11.4941
磧	-11.4942
估	-11.4942
鍜	-11.4942
荐	-11.4942
魘	-11.4942
莫得	-11.4943
拄杖	-11.4944
曆	-11.4944
媛	-11.4945
應進士舉	-11.4945
相訪	-11.4946
鴞	-11.4946
孜孜	-11.4946
絆	-11.4946
訾	-11.4947
樞密副使	-11.4947
汧	-11.4947
韓琦	-11.4947
諛	-11.4947
糓	-11.4947
彞	-11.4949
咬	-11.4949
糺	-11.4949
賽	-11.495
余先子	-11.495
項羽	-11.495
曰天子	-11.495
昵	-11.4953
十四日	-11.4954
憬	-11.4955
窒	-11.4956
袁生	-11.4956
皇城	-11.4956
伊尹	-11.4956
女巫	-11.4956
朝政	-11.4956
鉄	-11.4958
便去	-11.4959
七十餘	-11.496
佳句	-11.4961
曰此必	-11.4962
感激	-11.4964
小將	-11.4967
低頭	-11.4968
楸	-11.4968
自解	-11.4968
市易	-11.4969
恍然	-11.497
出定	-11.4971
逾月	-11.4971
美名	-11.4972
甲兵	-11.4973
屈原	-11.4976
清臣	-11.4977
年十四	-11.4977
奉佛	-11.4977
胥吏	-11.498
休璟	-11.4982
一盃	-11.4983
山北	-11.4984
閣門	-11.4985
出御史	-11.4985
天興	-11.4986
冬夏	-11.4988
商賈	-11.4993
李勣	-11.4994
所知也	-11.4996
岳陽	-11.4998
天禧	-11.4998
良馬	-11.5
學校	-11.5001
吾言	-11.5001
丞郎	-11.5003
乎對曰	-11.5003
醫藥	-11.5004
寢疾	-11.5005
桓𤣥	-11.5007
自念	-11.5007
老狐	-11.5008
昭明	-11.501
珠翠	-11.501
他所	-11.5014
塵土	-11.5016
所望	-11.5019
親見之	-11.5019
沈約	-11.502
最多	-11.5021
無乃	-11.5021
願見	-11.5022
僧孺	-11.5023
一村	-11.5023
累世	-11.5024
梁王	-11.5025
還京	-11.5027
直方	-11.5031
學究	-11.5033
而哭	-11.5033
元嘉中	-11.5034
感動	-11.5037
其位	-11.504
不廢	-11.504
大笑曰	-11.5043
家藏	-11.5048
浮雲	-11.505
二百里	-11.5055
乃一	-11.5055
亦頗	-11.5058
執筆	-11.5059
止此	-11.5059
不識字	-11.506
歲月	-11.5062
彦回	-11.5065
夢覺	-11.5066
卧於	-11.5068
湖廣	-11.5074
而殂	-11.5074
於壁	-11.5076
俄有一	-11.5078
門下侍郎	-11.5081
北京	-11.5083
也或曰	-11.5083
之位	-11.5083
正是	-11.5084
故吏	-11.5085
五六人	-11.5085
金城	-11.5088
章武	-11.5089
但知	-11.5089
驅之	-11.5092
院僧	-11.5093
以杖	-11.5098
世居	-11.5099
草間	-11.5103
真珠	-11.5103
曰臣聞	-11.5104
南昌	-11.511
如之何	-11.511
而泣	-11.5111
之姪	-11.5112
殊無	-11.5117
一分	-11.5118
欲去	-11.5119
互相	-11.512
扣其	-11.5121
人望	-11.5125
其墓	-11.5126
龜山	-11.5128
問之乃	-11.5128
章句	-11.5128
笞之	-11.5129
歸來	-11.513
韋生	-11.5131
藏書	-11.5132
金史	-11.5132
與之言	-11.5132
幼時	-11.5134
字士	-11.5136
夷甫	-11.5138
得還	-11.5139
昌宗	-11.5141
適見	-11.5141
仰天	-11.5144
其禍	-11.5144
蒲萄	-11.5145
有隙	-11.5146
西平	-11.5146
大徳	-11.5147
忽失	-11.5147
師徳	-11.5147
挺之	-11.5147
𣗳下	-11.5148
每夜	-11.515
初不知	-11.515
髦	-11.515
而没	-11.5151
徳行	-11.5154
失聲	-11.5156
莱	-11.5157
歎異	-11.5157
羽林	-11.5158
可辨	-11.5159
甚佳	-11.5159
蘋	-11.516
蟄	-11.516
蜈蚣	-11.516
微笑	-11.5161
罕有	-11.5161
嘻	-11.5162
善歌	-11.5162
簒	-11.5162
問其姓	-11.5163
交遊	-11.5163
因縁	-11.5163
砥	-11.5164
默	-11.5165
斸	-11.5165
孟軻	-11.5165
擯	-11.5166
飴	-11.5166
剏	-11.5166
江隂	-11.5166
之䇿	-11.5166
盻	-11.5166
刷	-11.5167
泝	-11.5168
渺	-11.5168
魏元忠	-11.5168
粤	-11.5168
無害	-11.5168
槍	-11.5169
聰慧	-11.5169
驤	-11.517
燿	-11.5171
陽雜	-11.5171
瞳	-11.5171
祔	-11.5172
亡命	-11.5172
房𤣥齡	-11.5172
鄩	-11.5172
十數人	-11.5172
巾櫛	-11.5172
譟	-11.5173
僧伽	-11.5173
鞾	-11.5174
貍	-11.5174
鏘	-11.5175
亦可以	-11.5175
雌雄	-11.5175
犁	-11.5175
慶之	-11.5177
帕	-11.5177
招討	-11.5178
黄魯直	-11.5179
貟外	-11.518
浙右	-11.518
製作	-11.5181
乃悟	-11.5181
彦國	-11.5181
門入	-11.5182
蟒	-11.5182
熈寜	-11.5182
㕘政	-11.5182
夜义	-11.5183
雷公	-11.5184
裕陵	-11.5187
師旦	-11.5188
團練	-11.5188
麻姑	-11.5191
夜叉	-11.5192
供帳	-11.5193
未始	-11.5193
滿地	-11.5194
侍即	-11.5194
不道	-11.5195
祐陵	-11.5196
佳人	-11.5196
𤨏言	-11.5199
數十歩	-11.5204
元稹	-11.5205
安豐	-11.5208
臨軒	-11.521
駢雅曰	-11.5211
相持	-11.5211
被召	-11.5212
謁見	-11.5213
精舍	-11.5215
中郎將	-11.5216
王蜀	-11.5218
供奉官	-11.5218
文采	-11.5218
貧乏	-11.5222
里巷	-11.5223
篆文	-11.5225
不得見	-11.5227
唱和	-11.5228
名第	-11.5228
聖㫖	-11.5229
平仲	-11.523
所奏	-11.5231
士龍	-11.5232
舟行	-11.5232
邠州	-11.5233
地府	-11.5234
山澤	-11.5236
而遁	-11.5236
神農	-11.5236
竟為	-11.5238
疾苦	-11.5239
此說	-11.5239
大家	-11.5239
某家	-11.5239
京國	-11.5239
應手	-11.5244
三十卷	-11.5244
尸解	-11.5245
禮官	-11.5245
預焉	-11.5249
落職	-11.5249
升降	-11.5249
南越	-11.525
太過	-11.5251
亭長	-11.5252
太康	-11.5252
共飲	-11.5253
田氏	-11.5254
亂離	-11.5254
十餘萬	-11.5256
新州	-11.5256
不傷	-11.5256
妃子	-11.5257
遂寢	-11.5258
問以	-11.5258
住持	-11.526
盜賊	-11.5261
一歲	-11.5261
禮畢	-11.5264
石勒	-11.5265
風采	-11.5265
相𫝊	-11.5267
年十三	-11.5267
日用	-11.5267
遺書	-11.5268
治病	-11.5268
中書門下	-11.5268
震動	-11.5272
恃才	-11.5273
長安中	-11.5273
墓中	-11.5274
其味	-11.5275
殺汝	-11.5275
時論	-11.5275
馬氏	-11.528
少游	-11.5285
驛吏	-11.5285
燭龍	-11.5287
安危	-11.529
行宫	-11.529
墨子	-11.529
田里	-11.529
乞命	-11.5293
利用	-11.5294
所不及	-11.5295
先賢	-11.5296
豈容	-11.5298
君臣之	-11.5299
哀之	-11.5299
精誠	-11.5302
榴	-11.5303
叔祖	-11.5305
此豈	-11.5307
金花	-11.5308
樂器	-11.5316
紹興間	-11.5317
自叙	-11.5319
多年	-11.532
在長安	-11.5321
長源	-11.5321
宿于	-11.5324
不達	-11.5325
夜宿	-11.5325
江寧	-11.5327
同里	-11.5328
取食	-11.5328
占之	-11.5329
軍校	-11.533
汀	-11.5331
却歸	-11.5332
尋亦	-11.5333
縣主	-11.5333
諸家	-11.5333
帝王之	-11.5335
十餘輩	-11.5339
慮其	-11.5341
吹之	-11.5341
成疾	-11.5342
榻前	-11.5342
說之	-11.5344
東廊	-11.5345
數歲	-11.5345
莫可	-11.5348
指示	-11.5348
寧皇	-11.5348
一空	-11.5349
忠信	-11.535
並有	-11.535
有血	-11.5351
曰足下	-11.5352
因指	-11.5352
損益	-11.5352
不數年	-11.5354
獨立	-11.5357
見一老	-11.5359
拜謁	-11.5364
梁州	-11.5365
百二十里曰	-11.5366
禮儀	-11.5366
三十七	-11.5367
憐其	-11.5369
以其事	-11.5371
光化	-11.5373
以償	-11.538
章疏	-11.5381
七言	-11.5382
之状	-11.5383
杼	-11.5383
沅	-11.5384
乙丑	-11.5384
逖	-11.5385
僥倖	-11.5385
四更	-11.5386
諡曰	-11.5387
萬緡	-11.5388
求食	-11.5389
璆	-11.5389
棧	-11.5389
莎	-11.5389
俳優	-11.5389
晝日	-11.5391
籖	-11.5391
橫	-11.5391
趙閑閑	-11.5392
燋	-11.5392
穏	-11.5393
滋味	-11.5394
南征	-11.5394
藹	-11.5394
双	-11.5394
虞世南	-11.5395
莾	-11.5396
入奏	-11.5396
泣涕	-11.5397
遗	-11.5397
鋌	-11.5397
太常少卿	-11.5397
淋	-11.5397
湮	-11.5398
多病	-11.5401
咤	-11.5401
西北隅	-11.5402
張鷟	-11.5402
灑掃	-11.5403
駛	-11.5403
萬計	-11.5403
五臟	-11.5405
入貢	-11.5406
歔欷	-11.5406
提刑	-11.5407
作詩曰	-11.5407
大功	-11.5408
防禦	-11.5409
嘗欲	-11.5411
車服	-11.5411
服飾	-11.5412
孝標	-11.5412
迎拜	-11.5412
郷里	-11.5412
雷霆	-11.5413
平昔	-11.5414
巴陵	-11.542
先覺	-11.542
韋臯	-11.5421
太祖皇帝	-11.5421
之稱	-11.5421
年十二	-11.5422
舉朝	-11.5422
城市	-11.5423
行脩	-11.5424
道德	-11.5424
作禮	-11.5426
宗道	-11.5426
小字也	-11.5434
郡城	-11.5436
志完	-11.5438
詹事	-11.5439
坐定	-11.544
紹聖初	-11.544
以他事	-11.544
辭歸	-11.544
見一女子	-11.5441
年十六	-11.5441
復往	-11.5441
祈雨	-11.5441
歙州	-11.5443
歐陽修	-11.5443
之尸	-11.5445
左司	-11.5447
但覺	-11.5447
李太白	-11.5447
肅然	-11.5451
勾當	-11.5451
聞其名	-11.5452
唐史	-11.5452
未明	-11.5453
豈知	-11.5454
光弼	-11.5454
王維	-11.5455
殺害	-11.5457
既已	-11.5457
有詩曰	-11.5457
回回	-11.5459
經月餘	-11.5461
犯闕	-11.5463
未之信	-11.5464
比部	-11.5466
則天朝	-11.5467
族人	-11.5469
嘉王	-11.547
福寺	-11.5471
身死	-11.5474
怡然	-11.5475
不及也	-11.5476
犯者	-11.5478
亟命	-11.5481
亡者	-11.5481
交游	-11.5481
逼之	-11.5481
知杭州	-11.5485
嗟夫	-11.5485
對曰某	-11.5486
世稱	-11.5486
天聖中	-11.5486
驗其	-11.5486
諸孫	-11.5487
出仙傳	-11.5489
主客	-11.549
不懼	-11.549
發狂	-11.5492
中軍	-11.5492
斯文	-11.5498
内閣	-11.5499
亦猶	-11.5499
殆不	-11.55
役使	-11.5501
嘗遊	-11.5501
亦不見	-11.5503
伯温	-11.5504
起立	-11.5504
黄華	-11.5505
介意	-11.5505
和州	-11.5506
出博	-11.5507
蕭然	-11.5507
水旱	-11.5509
不遺	-11.551
何哉	-11.5512
曽孫	-11.5512
賜緋	-11.5512
祭文	-11.5516
助教	-11.5516
慈明	-11.5521
漸近	-11.5522
奉事	-11.5524
蘇公	-11.5526
失去	-11.5529
謝罪	-11.5531
無力	-11.5531
甚重	-11.5532
再見	-11.5534
語笑	-11.5536
伐木	-11.5536
簾下	-11.5537
率衆	-11.554
華嚴	-11.5542
上第	-11.5546
十九日	-11.5548
文本	-11.555
興亡	-11.555
與趙	-11.555
為祟	-11.5552
方鎮	-11.5556
絶粒	-11.5557
將還	-11.5558
仙官	-11.5558
不敢復	-11.5561
言其事	-11.5562
所論	-11.5566
亡矣	-11.5566
年九十	-11.5569
巳見	-11.5569
髙郵	-11.557
如火	-11.557
兩目	-11.5572
甚麗	-11.5576
二升	-11.5579
汝曹	-11.558
飛白	-11.558
中書郎	-11.558
法曹	-11.5581
香草	-11.5581
三曰	-11.5583
為道士	-11.5585
昊	-11.5586
具告	-11.5586
俗謂	-11.5586
俗呼	-11.5587
濟南	-11.5589
幸甚	-11.559
坐事	-11.5592
叱之曰	-11.5596
路史	-11.5597
問曰何	-11.5598
儋	-11.5602
而弗	-11.5602
其隂多	-11.5603
安陸	-11.5603
宣和中	-11.5603
北望	-11.5603
宫内	-11.5604
誰家	-11.5605
記憶	-11.5605
弓射	-11.5606
御榻	-11.5606
王孫	-11.5608
輩皆	-11.561
菽	-11.5612
乙酉	-11.5616
痊	-11.5618
遨	-11.5619
嫩	-11.5621
𦂳	-11.5621
翮	-11.5622
澠	-11.5622
沓	-11.5623
樟	-11.5623
雲間	-11.5623
瑪瑙	-11.5624
㪷	-11.5624
糠	-11.5624
苴	-11.5624
鹵簿	-11.5625
無聲	-11.5625
奨	-11.5625
戊辰	-11.5625
臺官	-11.5625
㓗	-11.5626
庚午	-11.5627
毗陵	-11.5627
母母	-11.5628
囷	-11.5628
睢	-11.5628
向使	-11.5628
麽	-11.5629
跌	-11.5629
頡	-11.563
建平	-11.563
富鄭公	-11.563
梧桐	-11.563
爻	-11.5632
工部侍郎	-11.5632
迤邐	-11.5632
鑾輿	-11.5632
釋褐	-11.5632
大都	-11.5632
廳	-11.5633
褘	-11.5633
㳙	-11.5633
豪傑	-11.5633
出王子年	-11.5633
㕑	-11.5634
湼	-11.5634
之甥	-11.5634
輻	-11.5634
貢士	-11.5634
獨留	-11.5634
拱辰	-11.5636
概	-11.5636
諸女	-11.5637
七里	-11.5637
涑水記聞	-11.5638
抱朴子	-11.5639
更名	-11.564
過客	-11.5643
傷其	-11.5645
鬼魅	-11.5647
都指揮	-11.5647
不旬日	-11.5648
二分	-11.5648
殿庭	-11.5649
後漢書	-11.5651
豈是	-11.5651
腰帶	-11.5652
權臣	-11.5653
如雨	-11.5653
聞者莫不	-11.5656
維舟	-11.5657
人莫能	-11.5659
相救	-11.5659
安樂	-11.5661
夢寐	-11.5662
一小兒	-11.5663
散去	-11.5663
半臂	-11.5663
驚寤	-11.5664
不相識	-11.5665
與此志	-11.5665
姓李	-11.5666
表裏	-11.5668
被髮	-11.5671
淮隂	-11.5674
繼而	-11.5674
四門	-11.5676
經籍	-11.5676
兩足	-11.5677
拾得	-11.5677
亳州	-11.5677
侍立	-11.568
之孫也	-11.5681
紛然	-11.5682
念經	-11.5683
軍旅	-11.5684
春官	-11.5689
仍舊	-11.569
外郎	-11.5692
比干	-11.5693
百疋	-11.5693
曲折	-11.5694
三百六十	-11.5696
中途	-11.5696
數事	-11.5697
思明	-11.5699
於上前	-11.5701
俗人	-11.5703
其力	-11.5706
致意	-11.5709
繇是	-11.5711
般若	-11.5711
悲夫	-11.5713
知政事	-11.5714
俱在	-11.5714
書符	-11.5714
扵是	-11.5715
引兵	-11.5716
感君	-11.5717
元日	-11.5717
不惜	-11.5717
智高	-11.5718
授官	-11.5722
逸少	-11.5722
市肆	-11.5727
武庫	-11.5729
滿室	-11.5733
復夢	-11.5733
節鉞	-11.5735
等處	-11.5737
無所覩	-11.5739
有五色	-11.574
合掌	-11.5741
忽覩	-11.5742
廣徳	-11.5742
久之方	-11.5745
感泣	-11.5745
殿門	-11.5745
通神	-11.5747
王室	-11.5747
令緒	-11.5759
座上	-11.5765
誤國	-11.5768
隣人	-11.5771
責其	-11.5773
掘得	-11.5775
委之	-11.5775
讓之	-11.5776
見一物	-11.578
終于	-11.5782
衣紫	-11.5786
㕔上	-11.5789
即此也	-11.5791
不羈	-11.5792
唐書曰	-11.5793
壯士	-11.5794
諫曰	-11.5794
七寳	-11.5794
不可用	-11.5796
乎曰然	-11.5797
文舉	-11.5797
河圖	-11.5798
吏引	-11.5798
少留	-11.5802
六足	-11.5803
登車	-11.5803
蘭若	-11.5804
京西	-11.5804
以文學	-11.5804
畧不	-11.5807
預知	-11.5809
一軸	-11.5811
伏望	-11.5813
是歳	-11.5813
而焚之	-11.5816
之意也	-11.5818
莫非	-11.5823
野僉	-11.5824
無以為	-11.5824
十餘丈	-11.5827
殽	-11.5827
自序	-11.5827
座客	-11.583
近見	-11.5832
呌呼	-11.5833
廣明	-11.5834
考官	-11.5836
禹偁	-11.5837
季父	-11.5837
又問曰	-11.5838
不虞	-11.5839
窺之見	-11.584
半夜	-11.5841
教化	-11.5842
春色	-11.5844
僧寺	-11.5844
門戸	-11.5845
芮	-11.5846
僑	-11.5846
䖍州	-11.5848
南流注于	-11.5848
𤨏	-11.5849
玳瑁	-11.585
所化	-11.585
王隱晉書曰	-11.5851
髑髏	-11.5854
壬申	-11.5855
娑	-11.5855
漾	-11.5855
名教	-11.5855
東南流注于	-11.5856
而卧	-11.5856
大荒之中有山名曰	-11.5856
緍	-11.5856
晅	-11.5857
蕚	-11.5857
匍匐	-11.5857
莅	-11.5859
䖝	-11.586
蓐	-11.586
瘤	-11.5861
霏	-11.5862
衿	-11.5862
范仲淹	-11.5863
腳	-11.5863
其鳥多	-11.5863
范曄後漢書曰	-11.5863
邀之	-11.5863
湏臾	-11.5863
柵	-11.5864
罽	-11.5864
㒺	-11.5864
璣	-11.5864
妒	-11.5865
矍然	-11.5865
東南隅	-11.5866
謟	-11.5866
終南	-11.5866
炫	-11.5866
柬	-11.5866
滉	-11.5867
耒	-11.5867
鈐	-11.5868
塑像	-11.5869
醵	-11.5869
塡	-11.587
戊午	-11.587
廟前	-11.5871
號爲	-11.5872
京洛	-11.5872
聰敏	-11.5872
吕惠卿	-11.5873
個	-11.5873
國子博士	-11.5873
篋中	-11.5873
平蜀	-11.5873
䙝	-11.5873
持節	-11.5874
不給	-11.5875
疑此	-11.5876
蝙蝠	-11.5876
宴飲	-11.5876
廊廡	-11.5877
聖俞	-11.5878
垍	-11.5878
孝廉	-11.5879
尚書右丞	-11.5879
昌齡	-11.588
避暑	-11.5881
破家	-11.5881
不如意	-11.5882
耆老	-11.5884
阮籍	-11.5885
束帶	-11.5885
到京	-11.5886
狄青	-11.5886
大敗	-11.5887
仲宣	-11.5888
邑宰	-11.589
萬頃	-11.5891
國子	-11.5891
黄裳	-11.5891
方盛	-11.5892
留宿	-11.5892
年十八	-11.5893
藩鎮	-11.5893
豁然	-11.5893
穎士	-11.5893
巨萬	-11.5894
自持	-11.5895
至孝	-11.5896
築室	-11.5896
出嶺表	-11.5899
巫咸	-11.59
妄言	-11.5901
墳墓	-11.5903
鞍馬	-11.5904
長數尺	-11.5905
神像	-11.5905
之黨	-11.5905
刻木	-11.5906
舅氏	-11.5908
告去	-11.5913
娶妻	-11.5914
就視	-11.5914
安得不	-11.5916
譬如	-11.5918
芳草	-11.5921
四千	-11.5921
大丈夫	-11.5923
京東	-11.5927
文殊	-11.5928
臨刑	-11.5932
六朝	-11.594
東亭	-11.5943
哀哉	-11.5944
罷官	-11.5945
致富	-11.5947
來詣	-11.5948
落花	-11.5949
文思	-11.595
公之子	-11.5955
導引	-11.5956
桂陽	-11.5957
孝皇帝	-11.5957
草詔	-11.5958
某處	-11.5958
押字	-11.5958
瑞應	-11.5958
暴亡	-11.5959
赦之	-11.5961
世界	-11.5962
在東宫	-11.5963
水濵	-11.5964
宋史曰	-11.5965
豪家	-11.5966
非常之	-11.5967
不佳	-11.5968
風氣	-11.5971
其文曰	-11.5971
末帝	-11.5973
方面	-11.5973
起坐	-11.5974
龍飛	-11.5978
蜀道	-11.5978
四朝	-11.5978
餓死	-11.5982
相位	-11.5983
平生所	-11.5985
乾符中	-11.5985
在郡	-11.5988
門吏	-11.5988
氣絶	-11.5989
姓張	-11.599
女適	-11.599
責之曰	-11.6001
制詞	-11.6002
故鄉	-11.6005
彎	-11.6006
盡歡	-11.6006
六宫	-11.6007
生一子	-11.6007
王勃	-11.6008
元衡	-11.6009
豫州	-11.601
千斤	-11.6012
萬事	-11.6015
西夏	-11.6017
百錢	-11.6017
五岳	-11.6017
前導	-11.6018
佛書	-11.6018
見一婦人	-11.6019
西河	-11.6021
神力	-11.6022
似道	-11.6023
夏國	-11.6025
六十里	-11.6026
文皇	-11.6026
黑水	-11.6027
幸無	-11.6029
果實	-11.6031
歴官	-11.6035
安州	-11.6037
賦詩曰	-11.6039
懼不敢	-11.604
寛厚	-11.604
乙未	-11.6042
神童	-11.6044
一犬	-11.6048
竊謂	-11.6048
諌官	-11.6048
赫然	-11.6048
之可也	-11.6049
四句	-11.605
疑焉	-11.6052
三千里	-11.6053
大畧	-11.6054
感應	-11.6055
持正	-11.606
講論	-11.6061
今朝	-11.6062
海島	-11.6062
恥之	-11.6071
景帝	-11.6071
八寸	-11.6072
鈕	-11.6073
州界	-11.6074
僅得	-11.6076
鷺	-11.6078
之謂也	-11.608
敬宗	-11.6081
驎	-11.6082
二僧	-11.6083
亞之	-11.6085
山野	-11.6086
樹木	-11.6088
觀望	-11.6088
肋	-11.6089
起兵	-11.6093
景山	-11.6099
天下事	-11.6101
米元章	-11.6101
李賀	-11.6101
風疾	-11.6101
不禁	-11.6102
嘿	-11.6103
卉	-11.6103
秘書監	-11.6104
國學	-11.6105
蛩	-11.6105
孑	-11.6105
幕下	-11.6106
蜿蜒	-11.6106
羊肉	-11.6106
紊	-11.6106
十一日	-11.6107
鐶	-11.6107
吊	-11.6107
訕	-11.6107
揔	-11.6108
一榻	-11.611
憊	-11.6111
昆明池	-11.6111
越人	-11.6111
一男子	-11.6112
色青	-11.6112
悛	-11.6112
閴	-11.6112
功成	-11.6112
南向	-11.6112
金丹	-11.6112
臨淄	-11.6113
白日昇天	-11.6113
裡	-11.6114
痢	-11.6114
啞	-11.6115
猾	-11.6116
匕	-11.6116
慝	-11.6117
糴	-11.6117
培	-11.6117
䰟	-11.6118
些	-11.6118
豊	-11.6118
儋耳	-11.612
雲龍	-11.612
星辰	-11.6121
郞	-11.6122
聖徳	-11.6122
説文	-11.6122
巡撫	-11.6123
六科	-11.6124
撫掌	-11.6125
富弼	-11.6125
祖宗之	-11.6126
苧	-11.6126
果如其言	-11.6126
池上	-11.6127
左拾遺	-11.6128
奏章	-11.613
崔湜	-11.613
嘗一日	-11.6132
不知所終	-11.6132
荷葉	-11.6134
辛巳	-11.6135
襄公	-11.6136
貌甚	-11.6137
馬蹄	-11.614
叱曰	-11.6141
駿馬	-11.6141
雞犬	-11.6144
節使	-11.6144
心腹	-11.6144
年十月	-11.6146
西廊	-11.6146
聲甚	-11.6147
司馬遷	-11.6148
水經注	-11.6151
服食	-11.6153
魏徴	-11.6153
雨雪	-11.6155
湖中	-11.6155
甚重之	-11.6156
取士	-11.6156
濮陽	-11.6156
長一尺	-11.6156
池水	-11.6158
殺戮	-11.6158
𨼆𨼆	-11.6159
臨水	-11.6159
貴主	-11.6162
鄭𤣥	-11.6164
夏日	-11.6168
端麗	-11.6169
奏乞	-11.617
數步	-11.6171
下階	-11.6171
諸僧	-11.6172
此句	-11.6174
世説	-11.6175
言詞	-11.6175
夏后	-11.6181
殿直	-11.6182
然猶	-11.6183
不煩	-11.6184
當代	-11.6186
奏樂	-11.6187
首飾	-11.619
水族	-11.619
南歸	-11.6191
暴疾	-11.6193
史𥙷	-11.6194
慎無	-11.6194
觀主	-11.6203
長孫	-11.6206
移鎮	-11.6211
䕫州	-11.6214
禁林	-11.6217
俗呼為	-11.6219
於長安	-11.6219
相待	-11.6226
有一小	-11.6227
遽起	-11.6227
所述	-11.623
單于	-11.623
冠服	-11.6232
入境	-11.6232
鍾愛	-11.6233
小金	-11.6234
部署	-11.6234
後二年	-11.6236
石林	-11.6238
出國史	-11.624
論議	-11.6241
飼之	-11.6242
遷官	-11.6247
二十卷	-11.6248
此所以	-11.6249
侍禁	-11.6249
絶人	-11.6251
匠人	-11.6251
百世	-11.6253
之大者	-11.6255
遂改	-11.6255
貧民	-11.6259
也祖父	-11.626
第一人	-11.626
道傍	-11.6271
甚偉	-11.6271
八尺	-11.6271
子韶	-11.6272
相送	-11.6273
少好學	-11.6274
僕馬	-11.6281
歎服	-11.6286
康王	-11.6287
四十九	-11.6288
力辭	-11.6293
善射	-11.6297
年十五	-11.6301
無限	-11.6301
漢唐	-11.6302
不愧	-11.6303
氣象	-11.6305
發明	-11.6305
諾之	-11.6305
目擊	-11.6305
傍人	-11.6306
道場	-11.6306
青雲	-11.6309
以金帛	-11.631
永年	-11.631
經畧	-11.631
慶州	-11.6315
誅戮	-11.6315
厚善	-11.6315
以防	-11.6317
人之所	-11.6317
不復出	-11.632
慕其	-11.6323
時人以為	-11.6325
文獻	-11.6326
甚哀	-11.6331
其大如	-11.6333
林寺	-11.6337
小小	-11.6338
㛰	-11.6338
特進	-11.6341
不荅	-11.6345
給使	-11.6346
進止	-11.6347
峨	-11.6347
璵	-11.6348
稗	-11.635
葆	-11.635
墜於	-11.6351
儛	-11.6352
十五六	-11.6352
天理	-11.6353
癸亥	-11.6354
苻堅	-11.6355
就試	-11.6355
梅聖俞	-11.6356
𣙜	-11.6356
裊	-11.6356
瘥	-11.6357
毉	-11.6358
苕	-11.6358
螯	-11.6358
蝎	-11.6358
紉	-11.6359
伽藍	-11.6359
咋	-11.6359
㯶	-11.6359
彈丸	-11.6359
闡	-11.636
飫	-11.636
劇談	-11.6361
奢侈	-11.6361
諠	-11.6361
東都事畧曰	-11.6361
瘁	-11.6362
懴	-11.6362
鬱鬱	-11.6362
馬嵬	-11.6363
摽	-11.6364
天津橋	-11.6364
壌	-11.6364
姊妹	-11.6365
嬴	-11.6365
斫之	-11.6365
媵	-11.6365
建中靖國	-11.6365
閭巷	-11.6366
馮翊	-11.6367
北邙	-11.6367
惴	-11.6367
蔡確	-11.6367
屹	-11.6368
薛氏	-11.6368
夷狄	-11.6368
愎	-11.6368
祗候	-11.6369
大理寺	-11.637
狼籍	-11.6371
余謂	-11.6371
宣徽使	-11.6371
歌聲	-11.6372
挽歌	-11.6372
一段	-11.6372
邦昌	-11.6374
可考	-11.6375
集賢院	-11.6375
三十八	-11.6375
舉動	-11.6377
處處	-11.6377
許昌	-11.638
衆共	-11.6381
隣里	-11.6384
東萊	-11.6384
未熟	-11.6385
曰貧道	-11.6388
泛舟	-11.6388
香爐	-11.6393
永洛	-11.6396
明晨	-11.6399
不能制	-11.6399
隨軍	-11.6402
職官	-11.6404
寺寺	-11.6404
起居注	-11.6405
王沂公	-11.6405
異事	-11.6406
氏族	-11.6407
禮法	-11.6407
臨淮	-11.6408
朝服	-11.641
咸謂	-11.641
卜居	-11.641
不得已而	-11.6413
風波	-11.6414
再娶	-11.6414
喜甚	-11.6414
譏其	-11.6415
後二十年	-11.6415
十七八	-11.6418
未乆	-11.6419
山下有	-11.642
永安	-11.6421
親征	-11.6421
渭南	-11.6421
避亂	-11.6425
二十一年	-11.6426
伯成	-11.6427
九千	-11.643
而用之	-11.643
民居	-11.6435
李泌	-11.644
以禦	-11.644
有神人	-11.6442
甘草	-11.6445
百花	-11.6446
特賜	-11.6446
出捜	-11.6448
懸於	-11.6448
橋上	-11.6449
尤工	-11.6455
鎮州	-11.6455
三人皆	-11.6455
再來	-11.6456
方術	-11.6457
仲舒	-11.6458
髙第	-11.6459
佐史	-11.646
禮義	-11.6461
世忠	-11.6465
將吏	-11.6468
伏罪	-11.6468
興廢	-11.6469
清流	-11.6471
軍吏	-11.6472
僅能	-11.6474
既退	-11.6476
聞其言	-11.6479
經旬	-11.648
義興	-11.6484
勤王	-11.6486
河源	-11.6487
者甚多	-11.6489
賜死	-11.6493
發兵	-11.6493
世家	-11.6501
永和	-11.6504
遺忘	-11.6507
無所不至	-11.6509
如市	-11.651
不妨	-11.6511
贊曰	-11.6514
詩酒	-11.6515
其畧曰	-11.6521
帝俊	-11.6525
士寧	-11.6531
有一女子	-11.6533
流入	-11.6533
志和	-11.6539
而去後	-11.6539
竒才	-11.6542
依前	-11.6544
立碑	-11.6546
不過一	-11.6546
貴重	-11.6549
班行	-11.655
一穴	-11.6552
嗟嘆	-11.6552
木蘭	-11.6552
巡官	-11.6554
受罪	-11.6554
望風	-11.6555
門而入	-11.6557
明日當	-11.6558
以為笑	-11.6558
連呼	-11.6564
仁孝	-11.6568
臣愚	-11.6572
本意	-11.6575
此説	-11.6576
玉樹	-11.658
淚下	-11.6581
絶世	-11.6582
西去	-11.6582
五星	-11.6584
三輔	-11.6587
藩邸	-11.6589
在荆州	-11.6592
族子	-11.6594
法司	-11.6595
遇疾	-11.6597
境上	-11.6597
向前	-11.66
孫興公	-11.66
睂	-11.6602
黄氏	-11.6603
詞學	-11.6603
明葉盛撰	-11.6604
篙	-11.6604
竢	-11.6605
茄	-11.6606
因訪	-11.6606
撚	-11.6606
𬞞	-11.6607
玲瓏	-11.6607
冠冕	-11.6607
弑	-11.6608
菖蒲	-11.6608
暎	-11.6611
禋	-11.6611
翛	-11.6612
四壁	-11.6612
菲	-11.6612
訂	-11.6613
即席	-11.6613
嘴	-11.6613
青童	-11.6613
升殿	-11.6613
癸巳	-11.6613
槊	-11.6614
丁酉	-11.6614
殉	-11.6614
娯	-11.6615
爺	-11.6615
罩	-11.6615
抉	-11.6616
㦯	-11.6616
窄	-11.6616
名賢	-11.6616
縗	-11.6617
怱	-11.6617
盧杞	-11.6618
窆	-11.6618
獼猴	-11.6618
薤	-11.6619
顛倒	-11.6619
踴	-11.6619
諲	-11.6619
䆒	-11.6619
毀	-11.662
晤	-11.662
滓	-11.6622
南村輟耕録卷之	-11.6622
不可勝紀	-11.6622
罟	-11.6623
㡬何	-11.6623
范忠宣	-11.6624
出瀟	-11.6624
黏	-11.6624
曾文肅	-11.6624
令狐綯	-11.6625
中國之	-11.6626
鄰家	-11.6628
秘書省	-11.6628
宣府	-11.6629
寤而	-11.663
北夢瑣言卷	-11.6631
寺主	-11.6632
晏駕	-11.6632
龜兹	-11.6634
味甘	-11.6634
僚佐	-11.6634
韓文公	-11.6634
百餘日	-11.6637
揖讓	-11.6638
左相	-11.6638
衙門	-11.6641
祕閣	-11.6642
眉州	-11.6644
守禦	-11.6645
波濤	-11.6646
海棠	-11.6647
衛尉	-11.665
為證	-11.6652
誰知	-11.6652
吉祥	-11.6656
表兄	-11.6656
其子孫	-11.6656
會昌	-11.6657
己巳	-11.6658
西征	-11.666
暑月	-11.666
因問曰	-11.6661
數斗	-11.6662
殿宇	-11.6662
舊本	-11.6663
公輔	-11.6664
彭祖	-11.6664
虜人	-11.6666
長三丈	-11.6667
罪福	-11.6668
被髪	-11.667
風濤	-11.667
大慟	-11.6671
洞穴	-11.6673
謂曰我	-11.6673
遂活	-11.6674
且喜	-11.6674
乃敢	-11.6675
休息	-11.6677
眉山	-11.6678
司諫	-11.6681
六部	-11.6681
臨去	-11.6681
于河	-11.6681
之言也	-11.6684
雲母	-11.6686
諺云	-11.6687
聚觀	-11.6687
水東日記卷	-11.6689
淮陽	-11.6693
饑寒	-11.6694
為刺史	-11.6695
一員	-11.6696
三歳	-11.6697
無錫	-11.67
玉簫	-11.6701
名理	-11.6703
精衛	-11.6703
子良	-11.6707
疑非	-11.6707
其臂	-11.6708
法和	-11.6708
其妹	-11.6709
未曽	-11.6709
對䇿	-11.6712
謝過	-11.6712
攻城	-11.6714
如厠	-11.6715
是月	-11.672
為虎所	-11.6722
同志	-11.6725
雷聲	-11.6728
厥後	-11.6729
精思	-11.673
北伐	-11.6731
土偶	-11.6734
王旦	-11.6737
王大將軍	-11.6737
堂堂	-11.6737
妄語	-11.6739
律師	-11.674
林泉	-11.674
花開	-11.6742
汝汝	-11.6742
石崇	-11.6742
甚悦	-11.6744
以示之	-11.6747
正郎	-11.6747
送客	-11.675
五代史	-11.6751
幽明	-11.6751
一曰在	-11.6755
二龍	-11.676
飛龍	-11.6761
頗能	-11.6762
辛未	-11.6763
躬自	-11.6766
烏衣	-11.6767
安否	-11.6768
武氏	-11.6768
物志	-11.6768
四夷	-11.6769
田宅	-11.677
在旁	-11.677
出嘉	-11.6771
相迎	-11.6772
屬文	-11.6773
榻上	-11.6774
興化	-11.6778
撫軍	-11.6782
古木	-11.6786
簾前	-11.6786
四合	-11.6787
故来	-11.6788
靈應	-11.6788
太華	-11.6789
加敬	-11.6791
建武	-11.6792
危坐	-11.6793
未曾	-11.6793
畢集	-11.6795
八嵗	-11.6795
受知	-11.6798
事業	-11.6799
窺見	-11.6801
竒異	-11.6805
一統	-11.681
都邑	-11.681
憫之	-11.6812
數夕	-11.6813
寢食	-11.6814
五百人	-11.6814
惟陛下	-11.6817
行刑	-11.6819
移文	-11.6822
風塵	-11.6825
謂之曰汝	-11.6827
喜怒	-11.6834
李靖	-11.6834
㑹要	-11.6836
託生	-11.6838
十餘嵗	-11.6844
窑	-11.6849
繡衣	-11.6849
於京師	-11.6849
寢殿	-11.6849
范文正	-11.6852
都盡	-11.6853
謎	-11.6856
楊州	-11.6858
博識	-11.6861
膜	-11.6861
支道林	-11.6862
而已矣	-11.6862
也然則	-11.6862
虢州	-11.6865
崇政殿	-11.6868
觥	-11.6869
淄	-11.6871
桓玄	-11.6872
鋋	-11.6872
岌	-11.6872
芭蕉	-11.6873
芰	-11.6873
元規	-11.6873
匈	-11.6873
丙戌	-11.6875
塢	-11.6875
壬寅	-11.6875
妳	-11.6876
扺	-11.6876
趙韓王	-11.6876
燄	-11.6877
乙亥	-11.6877
溜	-11.6878
㱕	-11.6878
䋲	-11.6879
螽	-11.6879
漣	-11.6879
肌膚	-11.688
國子祭酒	-11.688
䛕	-11.688
貧無	-11.688
癩	-11.6881
詰問	-11.6881
烝	-11.6881
塹	-11.6881
碑文	-11.6881
后稷	-11.6882
闍	-11.6882
丁丑	-11.6882
妺	-11.6882
歸葬	-11.6882
賜坐	-11.6882
煨燼	-11.6883
菓	-11.6883
皆此𩔖也	-11.6883
蕘	-11.6883
劉昫	-11.6883
甸	-11.6884
斾	-11.6884
旰	-11.6884
豺	-11.6884
郾	-11.6885
惶駭	-11.6885
諗	-11.6886
士夫	-11.6886
刑部侍郎	-11.6887
憮然	-11.6888
艘	-11.6888
轟	-11.6888
檢討	-11.6888
牛僧孺	-11.6889
襯	-11.6889
御批	-11.689
穿鑿	-11.689
大中祥符	-11.6891
扁舟	-11.6892
堞	-11.6893
零落	-11.6893
諴	-11.6893
正旦	-11.6894
不擇	-11.6895
事迹	-11.6898
九品	-11.6898
任臣案水經注	-11.6899
場屋	-11.6902
罔不	-11.6902
盤中	-11.6902
南郊	-11.6904
漁父	-11.6906
開禧	-11.6907
大略	-11.691
李德裕	-11.691
禆將	-11.6912
料理	-11.6912
嘲之曰	-11.6913
曰大人	-11.6915
叔獻	-11.6916
思邈	-11.6917
文貞	-11.6917
熙寧初	-11.6918
天授	-11.6919
縣北	-11.6919
釣魚	-11.6921
簽書	-11.6922
酉陽雜爼	-11.6923
體貌	-11.6924
婢妾	-11.6924
翊日	-11.6924
殺傷	-11.6926
免官	-11.6926
凌晨	-11.6928
皇祐中	-11.6931
父祖	-11.6935
伯淳	-11.6936
河中府	-11.6937
設祭	-11.6941
魏徵	-11.6942
楊妃	-11.6943
乗間	-11.6943
所存	-11.6943
好惡	-11.6944
服玩	-11.6944
周氏	-11.6944
空桑	-11.6945
邦彦	-11.6945
士林	-11.6949
靈素	-11.6949
不叶	-11.695
墓銘	-11.695
管仲	-11.6951
𤣥真	-11.6952
喪亂	-11.6954
不復來	-11.6954
入謁	-11.6957
保全	-11.6959
奴僕	-11.696
遭遇	-11.6964
龍鳯	-11.6969
十數里	-11.6969
龍泉	-11.6973
惑衆	-11.6973
龍首	-11.6974
縣宰	-11.6974
及暮	-11.6974
呉越	-11.6976
戰國	-11.6978
孤寒	-11.6982
靈運	-11.6987
靈芝	-11.6991
旋風	-11.6995
骸骨	-11.6995
隴西李	-11.6996
承恩	-11.6997
神通	-11.6997
兵仗	-11.6998
致祭	-11.6998
得之矣	-11.7002
日午時	-11.7003
新衣	-11.7004
入市	-11.7005
不之信	-11.7006
郭曰即	-11.7008
霍山	-11.7008
孤山	-11.7009
工巧	-11.701
有一僧	-11.7012
良田	-11.7012
多寡	-11.7014
賔主	-11.7016
第九	-11.7018
行十餘里	-11.7018
舊説	-11.702
無它	-11.702
蒙古	-11.7021
九華	-11.7021
老吏	-11.7025
而歎曰	-11.7027
無如之何	-11.7028
在座	-11.7037
惠帝	-11.7039
盛衰	-11.7039
太宗嘗	-11.7039
長慶中	-11.7041
前進	-11.7043
如平生	-11.7044
千錢	-11.7045
甘心	-11.7046
欽定四庫全書水東日記卷	-11.7049
治亂	-11.705
謫官	-11.705
作宰相	-11.7052
唐貞觀	-11.7054
貯水	-11.7057
文理	-11.7062
小鬼	-11.7068
於庭中	-11.707
白氣	-11.707
甚精	-11.7072
畜生	-11.7078
墓在	-11.7081
目覩	-11.7082
引滿	-11.7086
暮年	-11.7088
尹京	-11.7089
其鼻	-11.7089
此所謂	-11.7094
承命	-11.7096
盡忠	-11.7097
問曰汝	-11.7103
廣東	-11.7104
行旅	-11.7108
只在	-11.7109
異録	-11.7111
久留	-11.7111
騎從	-11.7111
酒色	-11.7113
驚怪	-11.7114
禪院	-11.7115
亦未嘗	-11.7115
病甚	-11.7128
軍府	-11.7129
不厭	-11.713
北史曰	-11.7132
嘗記	-11.7133
一斤	-11.7133
幡綽	-11.7137
礬	-11.7137
椹	-11.7137
歧	-11.714
葭	-11.7141
謇	-11.7141
党	-11.7141
珎	-11.7141
鑠	-11.7142
炒	-11.7142
幔	-11.7143
驄	-11.7143
暱	-11.7143
一介	-11.7144
纜	-11.7144
熙寜	-11.7144
穗	-11.7144
悠	-11.7144
根本	-11.7145
緜	-11.7145
箜篌	-11.7146
也嗚呼	-11.7146
蠢	-11.7146
宕	-11.7147
舖	-11.7147
杜祁公	-11.7147
五百年	-11.7147
蔕	-11.7147
擺	-11.7147
矚	-11.7148
鼇	-11.7148
額上	-11.7148
涂	-11.7148
碾	-11.7148
礦	-11.7151
鍤	-11.7151
詫	-11.7151
閶	-11.7151
暐	-11.7151
宙	-11.7151
秣	-11.7152
吕夷簡	-11.7152
數載	-11.7153
紵	-11.7153
烘	-11.7153
歐陽永叔	-11.7153
飱	-11.7154
諸葛亮	-11.7154
馳騁	-11.7155
著作佐郎	-11.7155
魃	-11.7155
䡖	-11.7155
母喪	-11.7156
朝廷遣	-11.7156
穩	-11.7156
籃	-11.7157
碓	-11.7157
昌黎	-11.7157
戶	-11.7157
劃	-11.7157
絙	-11.7158
儷	-11.7159
綂	-11.7159
袞	-11.7159
蠙	-11.7159
端拱	-11.7159
在傍	-11.716
垂拱	-11.716
骰子	-11.716
得脱	-11.716
杰	-11.7161
咀	-11.7161
淵源	-11.7161
鐍	-11.7162
掄	-11.7163
呼吸	-11.7165
揺動	-11.7167
州通判	-11.7167
嘷	-11.7167
臯陶	-11.7169
水際	-11.7169
西都	-11.717
謬矣	-11.717
百寮	-11.7172
瓚	-11.7173
秋八月	-11.7173
俊邁	-11.7174
茫然	-11.7174
事物紺珠云	-11.7175
梁元帝	-11.7175
不能容	-11.7175
六卷	-11.7177
人材	-11.7177
舟楫	-11.7178
猩猩	-11.7178
凡八	-11.7179
延譽	-11.7179
㸃檢	-11.7179
金碧	-11.7181
廊下	-11.7185
荆山	-11.7185
制誥	-11.7185
傾覆	-11.7185
明日又	-11.7186
杜預	-11.7187
與之語	-11.719
任臣案圖贊曰	-11.719
嗟歎	-11.719
部曲	-11.7194
辟邪	-11.7197
速去	-11.7198
隱隱	-11.72
五斗	-11.7202
沉香	-11.7202
羣盜	-11.7203
四十餘年	-11.7203
後十餘年	-11.7204
漸漸	-11.7206
漢南	-11.7208
白沙	-11.7209
興師	-11.721
亦不甚	-11.7212
遊宴	-11.7213
朔望	-11.7213
四十六	-11.7216
悚然	-11.7217
良乆乃	-11.7218
勤苦	-11.7218
慈恩寺	-11.7219
沽酒	-11.7221
客次	-11.7223
一士人	-11.7225
布衣時	-11.7225
於其上	-11.7226
延接	-11.723
不慎	-11.7231
免死	-11.7232
梁太祖	-11.7234
駐馬	-11.7234
樵者	-11.7236
具以告	-11.7239
十數年	-11.7245
萬全	-11.7245
多識	-11.7248
以此知	-11.7249
之道也	-11.7252
數枚	-11.7252
沃之	-11.7252
寄居	-11.7254
石函	-11.7255
無所得	-11.7257
魚鼈	-11.7258
乾徳	-11.7259
多遜	-11.7259
不可勝	-11.7264
力戰	-11.7267
流星	-11.7275
筆墨	-11.7275
二百四十	-11.7275
檀香	-11.7276
氣力	-11.7278
毛色	-11.728
致敬	-11.7285
寡欲	-11.7286
衡州	-11.7286
新昌	-11.7287
為中丞	-11.7287
人也少	-11.7289
其詩曰	-11.7289
草制	-11.7289
端明	-11.729
老莊	-11.7296
迎接	-11.7299
澗水	-11.73
虎頭	-11.7302
相告	-11.7303
西邊	-11.7304
㝠官	-11.7304
復蘇	-11.7306
十四五	-11.7306
開寶	-11.7311
經術	-11.7312
繫獄	-11.7312
正甫	-11.7313
東望	-11.7316
宴㑹	-11.7316
講學	-11.7317
月十二日	-11.7317
賜酒	-11.732
早朝	-11.7321
睦州	-11.7323
歎曰此	-11.7325
宴客	-11.7328
進士第	-11.7331
結實	-11.7332
髙氏	-11.7334
此術	-11.7334
遂滅	-11.7335
日久	-11.7336
不了	-11.7337
孝先	-11.734
短長	-11.7343
阿母	-11.7344
買得	-11.7345
乞兒	-11.7346
敢忘	-11.7349
至午	-11.7349
出神仙	-11.7349
唐虞	-11.7352
章奏	-11.7356
二百五十	-11.7358
二婢	-11.7358
婦翁	-11.7361
頃年	-11.737
雲集	-11.737
府庫	-11.7377
黃金	-11.7383
應之曰	-11.7387
犬馬	-11.7389
精進	-11.739
房内	-11.7391
千户	-11.7392
四十五	-11.7394
獵人	-11.7395
天下之人	-11.74
枉殺	-11.7401
忽有人	-11.7405
千秋	-11.7406
西園	-11.7406
鱣	-11.7409
惔	-11.741
郴州	-11.741
三百年	-11.7411
二十餘人	-11.7412
迎候	-11.7412
戊寅	-11.7413
同輩	-11.7413
又東五百里曰	-11.7415
伷先	-11.7415
皥	-11.7416
不茍	-11.7416
鵶	-11.7417
瞑	-11.7417
曰我是	-11.7418
螢	-11.7418
拷	-11.742
青䨼	-11.742
箕踞	-11.7421
溟	-11.7421
錠	-11.7421
葷	-11.7422
藺	-11.7422
袤	-11.7422
剉	-11.7423
醢	-11.7423
詡	-11.7423
鯢	-11.7423
亾	-11.7424
己未	-11.7424
缸	-11.7424
韙	-11.7425
𠖇	-11.7425
縋	-11.7425
纈	-11.7425
臟	-11.7425
献	-11.7425
罅	-11.7425
咄咄	-11.7425
纊	-11.7426
郡吏	-11.7426
理宗	-11.7426
徭	-11.7426
曬	-11.7427
棺槨	-11.7427
蔗	-11.7427
家兄	-11.7428
維摩	-11.743
櫓	-11.743
圮	-11.743
蹴	-11.743
宇宙	-11.743
賈誼	-11.7431
之流也	-11.7432
持金剛經	-11.7433
膓	-11.7433
親表	-11.7433
釧	-11.7434
惘然	-11.7434
戊申	-11.7435
仲舉	-11.7435
快活	-11.7436
筆札	-11.7437
霖雨	-11.7437
未央	-11.7437
孀	-11.7438
天寳末	-11.7439
幾年	-11.7439
勒停	-11.7441
押班	-11.7441
穫	-11.7442
艦	-11.7442
諝	-11.7443
郇公	-11.7443
釋然	-11.7444
貝州	-11.7445
宣慰	-11.7445
壷	-11.7448
周穆王	-11.7448
秉筆	-11.7449
嘉賔	-11.745
祠宇	-11.7451
鷹犬	-11.7451
甲乙	-11.7452
長短句	-11.7454
李衛公	-11.7457
世說	-11.7458
請假	-11.746
賞罰	-11.746
士亷	-11.7462
庭芝	-11.7466
名籍	-11.7467
臺臣	-11.7468
妖妄	-11.7469
乗驢	-11.7469
五七	-11.747
樂平	-11.747
契虚	-11.7471
交州	-11.7473
應詔	-11.7473
𤣥素	-11.7473
服餌	-11.7474
狀似	-11.7475
華陰	-11.7476
領兵	-11.7477
雜錄	-11.7479
希逸	-11.7479
同宿	-11.748
景德	-11.748
掃地	-11.7482
詞臣	-11.7485
昨夕	-11.7487
樞府	-11.7488
寳應	-11.7491
銀器	-11.7493
闔門	-11.7494
謂曰爾	-11.7495
東壁	-11.7495
等第	-11.7496
高麗	-11.7499
度量	-11.75
五六十	-11.75
延壽	-11.7501
敬伯	-11.7502
精巧	-11.7504
二十九日	-11.7506
以金銀	-11.7507
閣老	-11.7508
曰非也	-11.7509
聲如雷	-11.7509
詔賜	-11.7513
二十七日	-11.7515
魏博	-11.7515
蘇氏	-11.7515
文節	-11.752
李紳	-11.7521
西廂	-11.7523
兩音	-11.7523
録異	-11.7527
隨意	-11.7527
愛重	-11.753
汝愚	-11.753
五彩	-11.7531
對曰此	-11.7532
遣僕	-11.7535
百獸	-11.7538
聖意	-11.7544
蕭蕭	-11.7548
稽古	-11.755
麻衣	-11.7552
騰空	-11.7556
毎嵗	-11.7557
文宣王	-11.7561
漢髙祖	-11.7562
酒器	-11.7564
白毛	-11.7564
有旨	-11.7565
墜馬	-11.7567
蘄州	-11.7571
赴官	-11.7572
草澤	-11.7573
輔臣	-11.7574
百餘歩	-11.7577
共論	-11.7578
風韻	-11.7582
無一言	-11.7584
元戎	-11.7586
文彩	-11.7587
封侯	-11.7587
邵武	-11.7589
易簡	-11.7591
謫居	-11.7592
具載	-11.7594
外戚	-11.7595
涼州	-11.7595
博聞	-11.7597
照耀	-11.7598
倉皇	-11.7601
任臣案爾雅	-11.7607
夜夢一	-11.7608
建章	-11.761
特甚	-11.7614
詣府	-11.7619
庾信	-11.7619
織女	-11.7629
張燈	-11.7631
寢室	-11.7632
貴盛	-11.7637
禱於	-11.7643
郡邑	-11.765
半千	-11.7653
宴席	-11.7659
訪求	-11.766
不愜	-11.7662
老先生	-11.7663
其弊	-11.7665
為侍御史	-11.7665
愛民	-11.7668
忘憂	-11.7672
太母	-11.7673
改易	-11.7676
便覺	-11.7677
殷中軍	-11.7679
永平	-11.768
文雅	-11.7682
衣物	-11.769
後圃	-11.7692
止宿	-11.7693
言曰我	-11.7694
緬	-11.7697
戒之曰	-11.7699
邴	-11.77
堂吏	-11.77
仲弓	-11.7701
箒	-11.7702
冏	-11.7702
殷仲堪	-11.7703
緱氏	-11.7703
藂	-11.7704
鉏	-11.7705
舸	-11.7705
菁	-11.7705
氛	-11.7706
訢	-11.7706
藿	-11.7706
煌	-11.7707
珂	-11.7707
致詞	-11.7708
翡翠	-11.7708
賀知章	-11.7709
旅舍	-11.7709
踪跡	-11.7709
冦萊公	-11.771
𣣔	-11.771
圍棊	-11.771
娱	-11.771
疼	-11.771
酺	-11.7711
蠡	-11.7711
灣	-11.7711
柿	-11.7711
束帛	-11.7712
檐	-11.7712
梭	-11.7712
圏	-11.7712
飄飄	-11.7713
襁褓	-11.7713
押衙	-11.7713
都虞候	-11.7713
不可勝計	-11.7713
讙	-11.7714
鉅鹿	-11.7714
魑魅	-11.7714
閧	-11.7715
竟死	-11.7715
祕書監	-11.7715
倜儻	-11.7715
熒惑	-11.7715
襴	-11.7715
槿	-11.7716
庭筠	-11.7716
鑿齒	-11.7716
襃	-11.7717
躓	-11.7717
蜮	-11.7718
韞	-11.7718
蔭	-11.7718
元佐	-11.7719
慾	-11.7719
太牢	-11.7719
壹	-11.772
捐館	-11.7721
蕋	-11.7722
敗績	-11.7723
仁蒨	-11.7724
郍	-11.7725
孝亷	-11.7725
瀕	-11.7726
珽	-11.7726
怪而問之	-11.7726
箏	-11.7727
梨園	-11.7727
邯	-11.7727
釋迦	-11.7728
稚川	-11.7728
第八	-11.773
𥙷闕	-11.773
衆咸	-11.7734
紀綱	-11.7734
能屬文	-11.7736
橋下	-11.7736
楚辭	-11.7738
伍伯	-11.7738
十八九	-11.7741
虞候	-11.7742
守備	-11.7746
各有所	-11.7747
延祐	-11.7749
貴戚	-11.7749
帝崩	-11.7749
八卦	-11.7752
數百萬	-11.7757
青苗	-11.7757
千餘里	-11.7759
伏羲	-11.7761
博陵	-11.7762
刑獄	-11.7763
甚懼	-11.7764
圉人	-11.7765
道旁	-11.7766
儀衛	-11.7766
感悟	-11.7768
漕運	-11.7769
盛德	-11.7772
内庫	-11.7772
元裕	-11.7772
貞元末	-11.7772
魁天下	-11.7773
甚愛之	-11.7774
貞元初	-11.7776
措大	-11.7778
知其事	-11.778
崑崙山	-11.7781
隆興	-11.7784
枯木	-11.7785
先王之	-11.7785
玄宗	-11.7786
富室	-11.7787
九錫	-11.7788
陸費墀	-11.7791
樹枝	-11.7794
者歟	-11.7795
和議	-11.7795
毒藥	-11.7795
口鼻	-11.7801
未可知	-11.7801
一束	-11.7807
李順	-11.7808
郊祀	-11.7809
兄弟皆	-11.7809
康伯	-11.7811
南渡後	-11.7812
文仲	-11.7813
耆舊	-11.7813
六軍	-11.7816
一般	-11.7816
大竒之	-11.7819
善寺	-11.7819
新豐	-11.7821
元祐間	-11.7821
寄宿	-11.7837
前軰	-11.7838
貴顯	-11.7839
可見矣	-11.7839
朝鮮	-11.784
章聖	-11.784
長洲	-11.7841
印文	-11.7846
龍鳳	-11.7848
金谷	-11.785
掩其	-11.7851
太嵗	-11.7851
繼先	-11.7855
慘然	-11.786
隂德	-11.7862
明年春	-11.787
百九十	-11.7871
復如故	-11.7872
郡民	-11.7872
東府	-11.7874
身體	-11.7879
經歴	-11.788
不恤	-11.788
秀實	-11.7881
孰能	-11.7881
裴氏	-11.7882
秋月	-11.7884
飯僧	-11.7884
賜號	-11.7886
公薨	-11.7886
光皇	-11.7892
數百年	-11.7899
形骸	-11.7901
手板	-11.7903
簡易	-11.7903
河南人	-11.7904
甚歡	-11.7906
失火	-11.7909
受恩	-11.7909
西向	-11.7911
氣息	-11.7913
王衍	-11.7913
葬于	-11.7914
宜授	-11.7914
渭州	-11.7918
愧謝	-11.7919
寓言	-11.7921
率更	-11.7921
西戎	-11.7921
隂徳	-11.7923
雅好	-11.7924
風雅	-11.7933
明日復	-11.7936
漢魏	-11.7944
清越	-11.7946
可速	-11.7946
周侯	-11.7954
圉	-11.7954
如是者三	-11.7957
小説家𩔖	-11.7961
皇朝	-11.7961
徑寸	-11.7964
常熟	-11.7965
孝友	-11.7969
任臣案駢雅	-11.7972
羅拜	-11.7973
九寸	-11.7976
仕進	-11.7977
自勵	-11.798
夏五月	-11.7983
富陽	-11.7983
貧甚	-11.7989
大罵	-11.7991
潯	-11.7992
羆	-11.7993
雷希顔	-11.7994
吒	-11.7996
熨	-11.7999
㚟	-11.7999
剰	-11.8
縠	-11.8
汾水	-11.8004
號慟	-11.8004
扎	-11.8004
賦題	-11.8004
帯	-11.8004
恨不得	-11.8004
娟	-11.8005
搜神記卷	-11.8006
柤	-11.8006
鐙	-11.8006
胤	-11.8006
觀者如堵	-11.8006
橙	-11.8006
宗閔	-11.8006
鑚	-11.8007
厦	-11.8007
噎	-11.8007
肉食	-11.8007
袐	-11.8007
五色雲	-11.8008
嘉禾	-11.8008
牸	-11.8008
栁子厚	-11.8008
范蜀公	-11.8009
筩	-11.8009
冨貴	-11.801
雙鬟	-11.801
賄賂	-11.801
詼諧	-11.801
當塗	-11.801
鋼	-11.801
卜筮	-11.801
蝸	-11.801
恡	-11.801
謝靈運	-11.8011
弹	-11.8011
夏英公	-11.8011
聫	-11.8011
隰	-11.8011
婆羅門	-11.8011
魂魄	-11.8012
亹亹	-11.8012
鎚	-11.8012
受杖	-11.8012
羇	-11.8012
霓	-11.8012
撩	-11.8012
啾	-11.8013
丙寅	-11.8013
𤣥齡	-11.8013
璀	-11.8013
纖	-11.8014
罌	-11.8015
履霜	-11.8015
搦	-11.8016
擄	-11.8016
玭	-11.8016
出明皇	-11.8016
户部尚書	-11.8016
盪	-11.8016
􁑴	-11.8018
逗	-11.8019
東北隅	-11.802
都市	-11.802
瀟湘	-11.8021
航海	-11.8022
大理卿	-11.8022
塗炭	-11.8024
太平公主	-11.8025
吾鄉	-11.8027
鄞	-11.8027
孔融	-11.8032
楊億	-11.8032
幽㝠	-11.8035
鄴侯	-11.8035
陳摶	-11.8035
中庸	-11.8036
癸未	-11.8037
虎狼	-11.8039
監押	-11.8043
羽毛	-11.8044
稱之曰	-11.8044
王禹偁	-11.8044
健兒	-11.8047
杖殺之	-11.8048
優游	-11.8048
建炎初	-11.8051
侍側	-11.8052
敵騎	-11.8052
長二丈	-11.8053
詞翰	-11.8054
士君子	-11.8056
麝香	-11.8058
森然	-11.8061
未達	-11.8063
山海經卷	-11.8065
靖康初	-11.8066
死之日	-11.8068
髙駢	-11.8068
織成	-11.807
齊魯	-11.8072
遍體	-11.8073
四體	-11.8077
鎮守	-11.8077
皇嗣	-11.8077
忠憲	-11.8078
千歳	-11.8079
宫掖	-11.8081
室宇	-11.8085
丁巳	-11.8086
李太尉	-11.8088
寒温	-11.809
夢一人	-11.8094
斬首	-11.8094
婢僕	-11.8095
淳于	-11.8102
直抵	-11.8103
宴集	-11.8109
或勸	-11.8113
宫嬪	-11.8115
杜陵	-11.8128
毛詩	-11.8129
及第後	-11.813
宛如	-11.8132
躍馬	-11.8133
怒目	-11.8133
老幼	-11.8133
右司	-11.8134
劒南	-11.8135
全忠	-11.8136
廉使	-11.8137
請謁	-11.8139
牛肉	-11.814
聚衆	-11.814
工夫	-11.8142
兩角	-11.8143
五百餘	-11.8146
摘其	-11.8146
右正言	-11.8147
諸弟	-11.8149
仁宗朝	-11.815
巴西	-11.8157
徃来	-11.8158
避難	-11.8159
巨富	-11.8161
遊戲	-11.8161
三十九	-11.8163
遍身	-11.8165
十倍	-11.8165
平旦	-11.8175
更無他	-11.8176
懐素	-11.8178
為監察御史	-11.818
患難	-11.8181
五味	-11.8186
諭之曰	-11.8186
捨去	-11.8188
出拾	-11.819
回首	-11.8193
擢用	-11.8194
裨	-11.8205
每歲	-11.8211
俸錢	-11.8212
語畢	-11.8213
浙省	-11.8215
屬意	-11.8217
實錄	-11.8222
毅然	-11.8223
士族	-11.8225
諸公皆	-11.8228
詩一首	-11.8228
集載	-11.8229
恩寵	-11.823
隂府	-11.8232
上曰卿	-11.8235
御府	-11.8238
省郎	-11.8238
甚切	-11.824
太原人	-11.8242
傳寫	-11.8243
帖子	-11.8248
胸中	-11.825
曰向者	-11.8254
階前	-11.8256
烈火	-11.8257
不敢動	-11.8259
徳祖	-11.8262
玉泉	-11.8267
庫中	-11.8274
東里	-11.8276
負才	-11.8279
痛飲	-11.8286
動容	-11.829
他年	-11.8292
茅屋	-11.8292
杜鵑	-11.8296
棃	-11.8297
戌	-11.8298
搭	-11.8299
蓆	-11.83
鄢	-11.83
両	-11.83
滄浪	-11.83
終不得	-11.8301
飲酒食肉	-11.8302
鍛	-11.8303
郛	-11.8305
詁	-11.8305
惶怖	-11.8306
鮪	-11.8306
禅	-11.8307
努力	-11.8307
富韓公	-11.8307
焙	-11.8307
有慙色	-11.8308
陔	-11.8308
丹陽尹	-11.8308
賻	-11.8309
犍	-11.8309
騩	-11.8309
蝮	-11.8309
讃	-11.8309
將作監	-11.831
撑	-11.8311
噤	-11.8311
睫	-11.8311
芟	-11.8312
豫章太守	-11.8312
台輔	-11.8312
饕	-11.8313
磔	-11.8313
沇	-11.8314
􁁜	-11.8314
喟然	-11.8314
犧	-11.8314
叡	-11.8314
鸎	-11.8315
氓	-11.8316
秣陵	-11.8316
遹	-11.8316
爆	-11.8316
戚里	-11.8317
廷珪	-11.8318
孩兒	-11.8318
鸚	-11.8318
劉㑹孟云	-11.8319
翼日	-11.8319
伉儷	-11.8319
唄	-11.832
惲	-11.832
仝	-11.832
管輅	-11.8321
上覽	-11.8322
皮日休	-11.8323
鎧	-11.8324
安祿山	-11.8327
尺寸	-11.8327
落魄	-11.8328
顔魯公	-11.8328
野外	-11.8332
江淹	-11.8332
茶肆	-11.8334
荆楚	-11.8338
霜雪	-11.8338
比肩	-11.8339
妖魅	-11.8339
掃除	-11.834
沈氏	-11.834
欵曲	-11.8341
張邦昌	-11.8343
閒談	-11.8343
而東流注于	-11.8345
荆湖	-11.8345
物議	-11.8348
儒士	-11.8349
不然則	-11.8349
徒歩	-11.8352
䂮	-11.8352
情好	-11.8353
范蠡	-11.8354
轉運司	-11.8356
象牙	-11.8357
䇿杖	-11.8357
益喜	-11.836
上饒	-11.8362
有年矣	-11.8362
梨花	-11.8363
甕中	-11.8365
厯厯	-11.8366
張祜	-11.8368
火災	-11.8368
盗賊	-11.8373
酒脯	-11.8376
大風雨	-11.8379
莫曉	-11.838
支體	-11.838
聖訓	-11.8384
太丘	-11.8385
乘醉	-11.8386
同寮	-11.8387
王元之	-11.8388
酣飲	-11.8389
衣緋	-11.8389
左史	-11.839
典籍	-11.8391
古墓	-11.8395
何惜	-11.8396
有詩名	-11.8401
鄉薦	-11.8402
忌日	-11.8403
别室	-11.8409
李膺	-11.8422
宣示	-11.8423
姦臣	-11.8424
權要	-11.8426
握手	-11.8428
異物志	-11.843
茅君	-11.8431
宗諤	-11.8432
駭異	-11.8434
廬州	-11.8435
直學士	-11.8438
伊洛	-11.8439
何妨	-11.8442
泰州	-11.8443
山濤	-11.8447
祈請	-11.8448
抵罪	-11.8454
韓建	-11.8456
不可妄	-11.846
九尺	-11.847
改葬	-11.8477
泰陵	-11.8477
一百五十	-11.8478
清泰	-11.8479
謂生曰	-11.8487
病愈	-11.8488
故來相	-11.8489
狀𩔖	-11.8489
雲霞	-11.8489
形質	-11.8498
門庭	-11.8501
彌日	-11.8504
謫仙	-11.8504
為時所	-11.8509
降詔	-11.8509
朴子	-11.8511
途中	-11.8514
厨中	-11.8515
謝表	-11.8516
任臣案淮南子	-11.8517
月十八日	-11.8523
奉迎	-11.8524
遺表	-11.8524
何患	-11.8525
長孺	-11.8525
闕史	-11.8526
於逆旅	-11.8533
經數日	-11.8539
一青衣	-11.8539
蕭氏	-11.8542
寳貨	-11.8543
恙	-11.8543
千匹	-11.8545
報恩	-11.8545
枝條	-11.8545
求哀	-11.8545
槐樹	-11.8556
色變	-11.8558
延卿	-11.8561
最髙	-11.8563
巍	-11.8567
瑩中	-11.857
其舅	-11.857
蘖	-11.8595
殆非人	-11.8599
不歇	-11.8599
曰汝何	-11.8601
驅使	-11.8602
五十萬	-11.8602
杷	-11.8604
堇	-11.8604
貞觀初	-11.8605
餳	-11.8606
荔	-11.8607
兜	-11.8608
璡	-11.8609
貰	-11.861
瓦屋	-11.861
小說家𩔖	-11.8611
臛	-11.8612
于闐	-11.8612
靈臺	-11.8612
瑴	-11.8613
㽔	-11.8613
涅	-11.8615
迢	-11.8615
籥	-11.8615
艤舟	-11.8615
檝	-11.8615
葩	-11.8616
見則天下大	-11.8616
華清宫	-11.8617
殷浩	-11.8617
又南三百里曰	-11.8617
司馬相如	-11.8617
敺	-11.8617
狷	-11.8617
鏞	-11.8618
碌碌	-11.8618
潼	-11.8618
梓潼	-11.8618
賈客	-11.8618
酈	-11.8618
嗅	-11.8618
湖北	-11.8619
邽	-11.8619
艇	-11.862
屛	-11.8621
讞	-11.8621
女媧	-11.8621
茫茫	-11.8622
凾	-11.8622
都司	-11.8622
瑒	-11.8622
勍	-11.8623
筝	-11.8623
詬罵	-11.8623
鈆	-11.8623
紗籠	-11.8624
㵼	-11.8624
曛	-11.8624
跂	-11.8624
巘	-11.8624
涇州	-11.8624
慣	-11.8624
司馬溫公	-11.8625
慇懃	-11.8626
炯	-11.8626
黛	-11.8626
㾗	-11.8626
涖	-11.8626
羊祜	-11.8627
􁌽	-11.8627
㐫	-11.8628
闓	-11.8628
臧否	-11.8628
掀	-11.8629
磻	-11.8629
潼闗	-11.863
庶㡬	-11.863
攻媿	-11.8631
燮	-11.8631
蹊	-11.8632
未之有也	-11.8632
陶淵明	-11.8632
光祿	-11.8633
隼	-11.8633
房琯	-11.8633
温庭筠	-11.8634
竣	-11.8634
堯叟	-11.8634
偁	-11.8636
篇什	-11.8636
暁	-11.8637
豪俠	-11.8637
芾	-11.8638
未了	-11.8639
不自知	-11.8641
科斗	-11.8641
攄	-11.8641
哀祈	-11.8641
蘇峻	-11.8642
吟咏	-11.8642
慰勞	-11.8643
元符末	-11.8643
展轉	-11.8643
礎	-11.8644
司農卿	-11.8645
俄又	-11.8645
升遐	-11.8646
年七十餘	-11.8646
委頓	-11.8649
盧肇	-11.8649
醉飽	-11.8649
盤旋	-11.8651
寡婦	-11.8655
濯足	-11.8657
乘輿	-11.8657
酷吏	-11.8659
蔡襄	-11.866
不饑	-11.8661
桃符	-11.8664
升階	-11.8664
為余言	-11.8667
絳州	-11.8672
毛髮	-11.8672
朝覲	-11.8672
藥餌	-11.8673
東征	-11.8675
在其北	-11.8675
烏程	-11.8677
貧富	-11.8677
曹操	-11.868
據案	-11.868
贈詩曰	-11.8681
撤去	-11.8682
姑射	-11.8683
墓側	-11.8685
庭堅	-11.8686
烈士	-11.8686
五六年	-11.8688
二十六日	-11.8689
崔融	-11.8691
韓信	-11.8694
曰若然	-11.8694
痛楚	-11.8694
黑衣	-11.8695
歡喜	-11.8696
桃林	-11.8699
爪牙	-11.8699
浹旬	-11.87
浮薄	-11.8703
王羲之	-11.8704
朝野僉載	-11.8705
數日而卒	-11.8708
政事堂	-11.8709
隋末	-11.8711
劉晏	-11.8712
郊野	-11.8712
終夕	-11.8719
七夕	-11.8721
美麗	-11.8722
遜謝	-11.8723
御樓	-11.8724
萬壽	-11.8724
遷都	-11.8726
問之對曰	-11.8728
音韻	-11.8729
酒樓	-11.8739
金縷	-11.8741
元豐末	-11.8741
蔣山	-11.8742
伯顔	-11.8745
才識	-11.8747
仲甫	-11.8747
長鬚	-11.8748
捕得	-11.8749
流離	-11.8753
姚氏	-11.8754
皇恐	-11.8755
汗流	-11.8756
延陵	-11.8758
九鼎	-11.8758
有一道士	-11.8761
句容	-11.8762
廷臣	-11.8764
寵遇	-11.8764
腹痛	-11.8771
與其徒	-11.8772
奉御	-11.8773
黄紙	-11.8776
青丘	-11.8779
珍異	-11.8783
六十四	-11.8784
三月三日	-11.8787
稍解	-11.8794
家貲	-11.8794
不侔	-11.8797
天地間	-11.88
破賊	-11.8801
禮謁	-11.8806
窮治	-11.8806
蒲州	-11.8811
萬夀	-11.8812
遥望	-11.8813
幸勿	-11.8816
襄城	-11.8818
一盞	-11.8823
筆力	-11.8831
李揆	-11.8836
先儒	-11.8836
縱觀	-11.8853
豈止	-11.8855
刀斫	-11.8857
五十六	-11.8861
異議	-11.8865
三十四	-11.8873
有術士	-11.8874
延和	-11.8881
程氏	-11.89
東廡	-11.8907
瀟	-11.8908
手巾	-11.8912
罪狀	-11.8921
獨存	-11.8924
判司	-11.8925
伯仁	-11.8928
菅	-11.8931
督郵	-11.8931
麈尾	-11.8932
枳	-11.8932
山崩	-11.8933
茨	-11.8934
楔	-11.8934
茍非	-11.8935
水底	-11.8936
疥	-11.8936
蓼	-11.8937
傚	-11.8937
鴛	-11.8937
何良俊撰	-11.8938
慥	-11.8938
壚	-11.8938
睥睨	-11.8938
悄	-11.8938
語林曰	-11.8939
弈	-11.8939
薜	-11.8939
駑	-11.894
裵	-11.8941
紬	-11.8941
秉鈞	-11.8942
綢繆	-11.8942
駱駝	-11.8942
鰲	-11.8942
㕘知政事	-11.8943
丱	-11.8943
蒞	-11.8943
桮	-11.8945
妥	-11.8945
跋扈	-11.8945
胯	-11.8945
洹	-11.8945
徐敬業	-11.8946
絰	-11.8946
以女妻之	-11.8946
麢	-11.8947
黽	-11.8947
羶	-11.8947
嬾	-11.8947
衂	-11.8947
戡	-11.8948
温嶠	-11.8948
瘢	-11.8948
從事中郎	-11.8948
翩翩	-11.8949
飰	-11.8949
舞蹈	-11.8949
諍	-11.8949
囉	-11.895
蛛	-11.895
㺯	-11.895
繖	-11.895
擢進士第	-11.895
光澤	-11.8951
駭愕	-11.8951
忤㫖	-11.8951
管絃	-11.8951
猖	-11.8952
矮	-11.8952
潼關	-11.8953
捃	-11.8953
揩	-11.8954
吕申公	-11.8954
盧多遜	-11.8954
契虛	-11.8954
武三思	-11.8955
千八百	-11.8956
俸禄	-11.8956
天寶末	-11.8956
龍圖閣直學士	-11.8957
庚戌	-11.8958
時人號為	-11.8958
卿大夫	-11.8958
褒貶	-11.8959
承旨	-11.896
大名府	-11.896
蠻夷	-11.896
倬	-11.8962
湖湘	-11.8964
蔡攸	-11.8967
巫祝	-11.8967
梳頭	-11.8969
于頔	-11.8969
言訖不見	-11.897
冥司	-11.897
亭午	-11.8972
悶絶	-11.8973
昭緯	-11.8973
屋瓦	-11.8977
小牘	-11.898
僑居	-11.8981
扈從	-11.8984
車輪	-11.8986
之謂乎	-11.8987
衣襟	-11.899
投牒	-11.899
黔南	-11.8991
分毫	-11.8992
有大蛇	-11.8994
恢復	-11.8995
二十八日	-11.9
爵位	-11.9003
長六尺	-11.9003
烈祖	-11.9007
遭亂	-11.9007
哀鳴	-11.9009
萬迴	-11.9012
永昌	-11.9014
屈曲	-11.9016
遠近	-11.902
司馬文正公	-11.9021
牧牛	-11.9022
談苑	-11.9022
秋冬	-11.9024
無名子	-11.9026
言訖而去	-11.9027
妻妾	-11.9029
畏懼	-11.9031
卦成	-11.9033
閬州	-11.9037
卷之十	-11.904
師曠	-11.904
䕶軍	-11.9041
極歡	-11.9042
問何以	-11.9043
提兵	-11.9044
感恩	-11.9045
裨將	-11.9049
非偶然	-11.9055
唐明皇	-11.9057
郵亭	-11.906
十枚	-11.906
逢吉	-11.9061
卧病	-11.9061
役夫	-11.9061
上書言	-11.9063
路巖	-11.9064
清儉	-11.9065
無疆	-11.9067
在海中	-11.9069
當軸	-11.9069
威靈	-11.9071
吳楚	-11.9073
乗車	-11.9076
五湖	-11.9077
豆盧	-11.9077
府尹	-11.9079
瑯琊王	-11.9083
萬幾	-11.9084
賓主	-11.9087
官員	-11.9093
四十二	-11.9095
先兆	-11.9095
鞭馬	-11.9102
考試	-11.9102
黙識	-11.9103
贈遺	-11.9109
書札	-11.9111
折節	-11.9111
隱士	-11.9112
白刃	-11.9114
勇士	-11.912
眀日	-11.912
改容	-11.9122
儒林	-11.9123
曰聞君	-11.9124
勿憂	-11.9125
在政府	-11.9127
唐新語	-11.914
季倫	-11.9145
秋試	-11.9155
文靖公	-11.9157
九十九	-11.9161
忠肅	-11.9173
虚實	-11.9173
譙國	-11.9175
建寧	-11.9178
醫術	-11.918
殯宫	-11.9186
屋室	-11.9186
謂余曰	-11.9187
江岸	-11.9187
辰州	-11.9189
進士擢第	-11.9191
才藻	-11.9208
田野	-11.9208
鄴中	-11.9208
懌	-11.9211
開成中	-11.9225
千丈	-11.9228
幽閒	-11.9233
落筆	-11.9238
屋壁	-11.9239
獄具	-11.9247
䓁	-11.9258
倀	-11.9261
甆	-11.9266
甿	-11.9267
串	-11.9267
笳	-11.9267
他日必	-11.9269
竽	-11.9269
篠	-11.927
翩	-11.927
穠	-11.927
煦	-11.9271
牝牡	-11.9272
葉法善	-11.9272
捻	-11.9273
蘇味道	-11.9273
畚	-11.9273
鰕	-11.9274
磯	-11.9274
颯	-11.9274
蹉	-11.9274
賙	-11.9274
篡	-11.9275
薔薇	-11.9275
甖	-11.9275
墊	-11.9276
閥	-11.9276
瑪	-11.9276
聒	-11.9277
壬戌	-11.9277
忠良	-11.9278
拄	-11.9278
壟	-11.9279
鑷	-11.9279
鞠躬	-11.9279
豺狼	-11.9279
挿	-11.9279
資政殿學士	-11.928
洒掃	-11.928
肄業	-11.928
鄂渚	-11.9281
睇	-11.9281
曰君何	-11.9281
陶侃	-11.9282
摺	-11.9282
澠水燕談	-11.9282
璜	-11.9283
戕	-11.9283
掌書記	-11.9283
狐狸	-11.9284
凑	-11.9285
含元殿	-11.9285
宋邵博撰	-11.9285
汲汲	-11.9285
投宿	-11.9286
惶惑	-11.9286
樣	-11.9286
軄	-11.9287
梃	-11.9287
蒼蒼	-11.9287
閿鄉	-11.9287
咲	-11.9287
宣和末	-11.9287
脂粉	-11.9288
喑	-11.9288
忽然不見	-11.9288
筦	-11.9289
菽園雜記卷	-11.9289
犬吠	-11.929
圗贊曰	-11.929
凭	-11.929
伯恭	-11.929
憒	-11.929
聰悟	-11.9291
奉聖㫖	-11.9291
彷徨	-11.9291
唐摭言卷	-11.9292
器械	-11.9293
鵂鶹	-11.9294
匕首	-11.9296
舘職	-11.9297
蔡卞	-11.9297
笑而不答	-11.9298
博洽	-11.93
輔佐	-11.93
綺羅	-11.93
磐石	-11.9301
廵檢	-11.9304
宏麗	-11.9304
衣裾	-11.9308
汾隂	-11.931
湯餅	-11.931
來俊臣	-11.9312
崇寜	-11.9315
早晚	-11.9315
姬妾	-11.9316
曰主上	-11.9317
臨安府	-11.9317
僞蜀	-11.9319
騎驢	-11.9319
二十三年	-11.9323
彦昭	-11.9324
訣别	-11.9328
嘉靖	-11.9329
兄弟三人	-11.9329
甘澤	-11.9329
欽聖	-11.9334
宴樂	-11.9334
若訥	-11.9335
文僖	-11.9337
好讀書	-11.9341
杖䇿	-11.9341
魏明帝	-11.9342
月十三日	-11.9344
童僕	-11.9345
環慶	-11.9347
隸書	-11.935
了了	-11.935
偃師	-11.9351
五穀	-11.9354
宋武帝	-11.9355
勲臣	-11.9356
不能堪	-11.9357
紫袍	-11.9362
繼遷	-11.9363
鄉曲	-11.9366
討論	-11.9366
二浙	-11.9367
久而不	-11.9369
威福	-11.9372
孫綽	-11.9373
乗醉	-11.9374
陰陽	-11.9379
浮梁	-11.9381
地震	-11.9387
凡十餘	-11.9397
辟易	-11.9398
横流	-11.9398
委任	-11.9401
無以對	-11.9403
求婚	-11.9405
湧出	-11.9405
鈞天	-11.9408
資政	-11.9409
無倦	-11.9415
諷誦	-11.9416
幸免	-11.9429
二十許	-11.9431
動揺	-11.9438
感疾	-11.945
車輿	-11.9454
不獲已	-11.9455
㑹昌中	-11.9461
城邑	-11.9463
錢一千	-11.947
十有二	-11.9471
巨室	-11.9473
孰是	-11.9474
省掾	-11.9475
俗號	-11.9482
假手	-11.9486
得其實	-11.9497
祠廟	-11.9503
思慮	-11.9503
律詩	-11.9504
卷之二	-11.9505
築城	-11.951
隴右	-11.9517
春三月	-11.9526
雜編	-11.9528
佩刀	-11.954
水出焉而北流注于	-11.9551
衣裝	-11.9554
韶州	-11.9555
享國	-11.9567
虎爪	-11.9573
東軒筆録	-11.9579
生一男	-11.959
􁈍	-11.9592
簧	-11.9599
橿	-11.9599
萬六千	-11.9607
仭	-11.9609
水出焉而南流注于	-11.9609
蜥蜴	-11.9611
鄜	-11.9614
俅	-11.9614
犂	-11.9615
旗幟	-11.9615
水出焉而西流注于	-11.9615
炷	-11.9615
漚	-11.9616
迯	-11.9616
規矩	-11.9616
楪	-11.9617
后妃	-11.9617
熊羆	-11.9617
届	-11.9618
燉煌	-11.9618
洮	-11.9618
姐	-11.9618
淮甸	-11.9618
郭林宗	-11.9618
澀	-11.9618
斟酌	-11.9619
陳仲舉	-11.962
膂力	-11.962
節度副使	-11.962
鑣	-11.962
門之外	-11.962
其上多玉其下多	-11.962
姒	-11.962
辛卯	-11.9621
莆田	-11.9621
崐	-11.9621
簽判	-11.9622
董仲舒	-11.9622
堯咨	-11.9622
甯	-11.9622
輜重	-11.9622
痛不可忍	-11.9623
卲	-11.9623
巋	-11.9623
莞	-11.9623
凈	-11.9625
鮒	-11.9625
賾	-11.9625
慵	-11.9625
麩	-11.9625
夢中所見	-11.9625
滸	-11.9626
張嘉貞	-11.9626
朐	-11.9626
蚊蚋	-11.9626
騃	-11.9627
劬	-11.9627
諄	-11.9627
俳	-11.9627
魚袋	-11.9627
松柏	-11.9627
貞祐	-11.9627
㳟	-11.9628
郯	-11.9628
芬馥	-11.9629
蛆	-11.9629
舟檝	-11.9629
燬	-11.963
畋獵	-11.963
堠	-11.963
都察院	-11.963
麋鹿	-11.9631
性至孝	-11.9631
詛	-11.9631
乙卯	-11.9631
諧謔	-11.9631
提㸃刑獄	-11.9631
暘	-11.9632
天台陶宗儀九成	-11.9632
打毬	-11.9632
頹	-11.9632
宛陵	-11.9634
樁	-11.9634
閻羅王	-11.9634
誦金剛經	-11.9634
顰	-11.9634
璩	-11.9636
忘倦	-11.9636
白鷺	-11.9637
曰昨日	-11.9637
芸叟	-11.9638
帑藏	-11.9638
杵臼	-11.9638
悒	-11.964
罍	-11.964
赴省試	-11.9641
瑶華	-11.9641
京畿	-11.9642
髙琪	-11.9645
桐廬	-11.9645
迨曉	-11.9646
網羅	-11.9648
浚儀	-11.9649
𤣥圃	-11.965
旗亭	-11.9651
謂侍臣曰	-11.9652
衣鉢	-11.9653
鴻毛	-11.9653
佇立	-11.9657
舜欽	-11.9657
以為不祥	-11.9658
忽失所在	-11.9658
羲和	-11.9658
謀殺	-11.9659
沙漠	-11.966
就戮	-11.966
陳郡人	-11.966
圍城	-11.9661
竊笑	-11.9662
為之語曰	-11.9663
漁舟	-11.9665
切齒	-11.967
十許人	-11.9671
被黜	-11.9674
所未聞	-11.9679
雨霽	-11.9679
綠衣	-11.968
王黼	-11.9683
王武子	-11.9686
吏部郎中	-11.9686
達旦	-11.9687
智感	-11.9694
千五百	-11.9695
純仁	-11.9695
飛翔	-11.9697
神異經	-11.9697
夷陵	-11.97
單騎	-11.9704
天涯	-11.9706
牽牛	-11.9707
四隅	-11.9707
飲訖	-11.9709
近郊	-11.9709
校理	-11.971
嘉福	-11.9714
嘉話	-11.9715
宋書曰	-11.9715
淳化中	-11.9717
與人言	-11.9719
歎賞	-11.972
集韻	-11.9737
考亭	-11.9737
田園	-11.9744
里第	-11.9745
湯藥	-11.9746
追捕	-11.9749
親黨	-11.9749
容儀	-11.975
荷花	-11.9752
彭城劉	-11.9753
百斛	-11.9753
江淮間	-11.9753
年踰	-11.9757
至五更	-11.9759
追贈	-11.9763
思量	-11.9764
王鐸	-11.9772
衣緑	-11.9777
梓州	-11.978
州安置	-11.9786
禍亂	-11.9792
甘美	-11.9793
泗水	-11.9793
錢十萬	-11.9793
擅權	-11.9795
司刑	-11.9797
宴罷	-11.9806
科目	-11.9813
否對曰	-11.9822
西廡	-11.9829
潁州	-11.9836
吴郡	-11.9842
少時嘗	-11.985
珍寳	-11.9858
入寇	-11.9865
汴河	-11.9869
年十一	-11.9904
海鹽	-11.9909
滎	-11.9931
有時而	-11.9937
有物如	-11.9948
萬餘人	-11.995
翌	-11.9953
毘	-11.9959
万	-11.996
澶	-11.9961
楠	-11.9962
混沌	-11.9963
㒒	-11.9964
惎	-11.9965
虞預晉書曰	-11.9967
慈恩	-11.9968
攔	-11.9969
隟	-11.9969
揮麈後録	-11.997
猨	-11.9971
己亥	-11.9971
滏	-11.9971
圯	-11.9973
琇	-11.9973
濺	-11.9973
陡	-11.9974
丁母憂	-11.9974
累舉不第	-11.9975
坌	-11.9976
礫	-11.9976
行軍司馬	-11.9976
哥舒翰	-11.9976
籀	-11.9977
未第時	-11.9977
刑部郎中	-11.9978
焦僥	-11.9978
酆	-11.9979
蕨	-11.9979
潑	-11.9979
噱	-11.9979
寇準	-11.998
弧矢	-11.998
天慶觀	-11.9981
埒	-11.9981
禠	-11.9982
㫤	-11.9982
珍羞	-11.9982
蟾蜍	-11.9982
瑟瑟	-11.9982
纛	-11.9983
毫髪	-11.9983
濳	-11.9983
彈琵琶	-11.9983
踪	-11.9983
稼穡	-11.9984
帷幄	-11.9984
褫	-11.9984
蔡君謨	-11.9984
安樂公主	-11.9984
蕭穎士	-11.9984
澤其中多	-11.9984
逍遙	-11.9985
嚬	-11.9985
十疋	-11.9986
玃	-11.9986
韋庶人	-11.9986
勻	-11.9986
行于世	-11.9987
鱖	-11.9987
淋漓	-11.9987
禇遂良	-11.9988
有盛名	-11.9989
縉雲	-11.9989
鍋	-11.9989
旒	-11.9989
懴悔	-11.9989
館伴	-11.9989
斡	-11.9989
夹	-11.9989
酲	-11.999
長二尺餘	-11.9991
腥穢	-11.9991
段文昌	-11.9991
瑱	-11.9992
尺牘	-11.9992
韓滉	-11.9992
裼	-11.9992
狨	-11.9992
節度判官	-11.9992
赴行在	-11.9994
冬十月	-11.9994
旅邸	-11.9994
以孝聞	-11.9994
鼔吹	-11.9995
陸贄	-11.9995
講筵	-11.9995
櫝	-11.9996
竟不復	-11.9996
毯	-11.9996
彌勒	-11.9996
戚戚	-11.9996
險阻	-11.9996
花卉	-11.9997
訴寃	-11.9998
桯史卷第	-11.9998
摩訶	-11.9998
德璘	-11.9998
瀛洲	-12
閑閑	-12.0004
十萬貫	-12.0006
汴京	-12.0009
什器	-12.001
元和末	-12.001
塲屋	-12.001
宫闈	-12.0011
彭澤	-12.0012
康節先生	-12.0014
抑揚	-12.0015
殿中丞	-12.0017
漢文帝	-12.0018
禽鳥	-12.0018
長九尺	-12.0019
普賢	-12.0019
兼瓊	-12.002
營妓	-12.002
國史補	-12.0021
絃歌	-12.0022
不見其形	-12.0023
魚腹	-12.0023
雲霄	-12.0024
問何故	-12.0024
曹彬	-12.0025
恵卿	-12.0026
張騫	-12.0026
盛饌	-12.0026
岸側	-12.0028
同平章事	-12.003
金液	-12.0032
唐貞元中	-12.0033
厭勝	-12.0035
聖躬	-12.0037
抗聲	-12.0038
億萬	-12.0039
儒雅	-12.0041
雄雞	-12.0041
總領	-12.0042
季貞	-12.0043
驚悸	-12.0043
悲鳴	-12.0045
適值	-12.0045
假借	-12.0046
四皓	-12.0049
五十餘年	-12.0049
壽考	-12.005
滿座	-12.0053
龍圗	-12.0054
博雅	-12.0055
塵俗	-12.0055
月二十三日	-12.0055
余靖	-12.0057
謝表云	-12.006
炎帝	-12.0062
謂人曰吾	-12.0063
堂宇	-12.0067
所乗馬	-12.0069
曲阿	-12.0072
太醫	-12.0074
窮達	-12.0075
就枕	-12.0078
故有此	-12.0079
六七年	-12.0081
夢神人	-12.0086
乗船	-12.0087
傷寒	-12.0087
筆談	-12.0092
自是不復	-12.0094
光耀	-12.0094
元暉	-12.0095
議者謂	-12.0096
行數十里	-12.0097
衰老	-12.0103
篤學	-12.0123
太元中	-12.0125
神彩	-12.013
忽逢	-12.0131
某乙	-12.0133
猪羊	-12.0134
小黄門	-12.0145
六七日	-12.0156
昨夢	-12.0165
戲笑	-12.0173
二十五年	-12.018
征遼	-12.0181
資財	-12.0193
池池	-12.0197
二十七年	-12.0201
臺諌	-12.0203
百二十	-12.0208
無以報	-12.0252
曲宴	-12.0263
此際	-12.028
往返	-12.0301
縣東北	-12.0309
淮南子云	-12.0313
是何物	-12.0324
吕文穆	-12.0328
州剌史	-12.0333
辝	-12.0334
彭蠡	-12.0336
鶵	-12.0339
酬酢	-12.0341
琅琊	-12.0341
玘	-12.0342
奎章閣	-12.0343
㝡	-12.0343
盩	-12.0343
玗	-12.0343
婆娑	-12.0344
慊	-12.0345
漉	-12.0346
磑	-12.0346
萎	-12.0346
抜	-12.0347
茘	-12.0347
桷	-12.0347
囙	-12.0347
慳	-12.0347
太中大夫	-12.0348
蓊	-12.0348
鬪	-12.0349
潢	-12.0349
胞	-12.0349
磨勘	-12.035
瘵	-12.035
隋開皇	-12.035
沁	-12.0351
灞	-12.0351
彝	-12.0351
揜	-12.0351
綣	-12.0351
鄊	-12.0351
酢	-12.0352
砍	-12.0352
怳	-12.0352
鞘	-12.0352
太子詹事	-12.0352
孃	-12.0352
崛	-12.0353
厝	-12.0353
瞋目	-12.0353
暠	-12.0353
毫釐	-12.0354
京房易傳曰	-12.0354
䆳	-12.0354
廽	-12.0354
閼	-12.0354
家甚貧	-12.0354
糗	-12.0354
銍	-12.0355
刎	-12.0355
泫然	-12.0356
慶元元年	-12.0356
溝壑	-12.0356
瞥	-12.0356
有俊才	-12.0356
䲭	-12.0357
鍵	-12.0357
齪	-12.0357
集賢校理	-12.0357
獬	-12.0357
落拓	-12.0357
少昊	-12.0358
隋大業	-12.0358
哩	-12.0358
挟	-12.0358
霓裳	-12.0359
千字文	-12.0359
攅	-12.0359
宋子京	-12.0359
嘔血	-12.0359
出三水	-12.0359
鸞鶴	-12.0359
卨	-12.0359
蹇驢	-12.0359
奮迅	-12.0359
大理寺丞	-12.0359
䆠	-12.036
䱉	-12.0361
勦	-12.0361
元史曰	-12.0361
旂	-12.0362
喇	-12.0362
勗	-12.0363
弓箭	-12.0363
鄉閭	-12.0364
哀慟	-12.0364
孫思邈	-12.0364
無虚日	-12.0366
瓷	-12.0366
杜佑	-12.0366
鬚眉	-12.0367
盧柟	-12.0367
居相位	-12.0367
整肅	-12.0367
寀	-12.0369
豫州刺史	-12.037
剖腹	-12.037
迴顧	-12.037
繩繫	-12.0373
聞見録卷	-12.0373
頭陀	-12.0373
夙夜	-12.0374
校勘	-12.0374
竇參	-12.0374
北狩	-12.0377
雕刻	-12.038
顔延之	-12.0381
竹箭	-12.0382
盈尺	-12.0382
淹留	-12.0383
紫綬	-12.0383
酒炙	-12.0384
竹筒	-12.0384
黒齒	-12.0386
乘驢	-12.0388
父子兄弟	-12.0389
敷奏	-12.0389
清淨	-12.039
神祗	-12.0391
解褐	-12.0392
霄漢	-12.0392
曰未也	-12.0392
酋長	-12.0394
遭逢	-12.0394
建中初	-12.0397
拜監察御史	-12.0397
曩日	-12.0398
堯封	-12.0399
牧羊	-12.0401
旋轉	-12.0404
蕭條	-12.0404
斥逐	-12.0404
開霽	-12.0405
髙丈餘	-12.0406
元豐間	-12.0406
嶽廟	-12.041
范陽盧	-12.0411
百緡	-12.0411
指斥	-12.0412
上尊號	-12.0414
姑息	-12.0417
合浦	-12.0417
驛舍	-12.0419
筵席	-12.042
持盃	-12.0421
梁書曰	-12.0423
蓬頭	-12.0425
竺法	-12.0426
范質	-12.0426
笑而不	-12.0429
丹穴	-12.0434
終不肯	-12.044
愛其才	-12.0448
手植	-12.0449
杯酒	-12.0451
第幾	-12.0451
盛飾	-12.0454
鎮撫	-12.0458
玉帛	-12.0461
曹掾	-12.0462
開元寺	-12.0463
何由得	-12.0499
驚訝	-12.0505
巖谷	-12.0517
手捫	-12.0543
考校	-12.0546
華嶽	-12.0547
失其名	-12.0549
五六里	-12.0551
錢三百	-12.0557
犢車	-12.0562
震雷	-12.0595
酷好	-12.0602
央	-12.0635
夏四月	-12.0662
二十八年	-12.0708
第十三	-12.0709
蘧	-12.0715
州防禦使	-12.0716
畤	-12.0717
鞵	-12.072
其上多金玉其下多	-12.0721
頎	-12.0722
摛	-12.0723
隈	-12.0725
烱	-12.0725
朓	-12.0726
痺	-12.0726
兗州	-12.0727
騮	-12.0727
又北二百里曰	-12.0727
絡繹	-12.0727
瞞	-12.0728
餻	-12.0728
葆光子	-12.0728
旛	-12.0728
滁	-12.073
周伯仁	-12.073
紏	-12.073
猝	-12.073
懊	-12.0731
祼	-12.0732
蠕	-12.0732
習鑿齒	-12.0732
鵁	-12.0732
名士傳曰	-12.0732
孔文舉	-12.0733
詮	-12.0733
変	-12.0733
斆	-12.0733
栁宗元	-12.0734
磴	-12.0734
尚書僕射	-12.0734
己丑	-12.0734
藷	-12.0734
蠖	-12.0734
沴	-12.0734
哽	-12.0734
簸	-12.0735
陳恭公	-12.0735
滻	-12.0735
嶓	-12.0736
汞	-12.0736
太液池	-12.0737
范曄	-12.0737
贐	-12.0737
戊戌	-12.0737
忠愍	-12.0737
李義府	-12.0738
嚥	-12.0738
印綬	-12.0738
厓	-12.0739
么	-12.0739
沈約宋書曰	-12.0739
妣	-12.074
趙郡李	-12.074
考亭先生	-12.074
計無所出	-12.074
夏竦	-12.074
鄣	-12.074
毘陵	-12.074
鹺	-12.074
涙	-12.0741
槁	-12.0741
礱	-12.0741
稼軒	-12.0742
駱駞	-12.0742
鐘磬	-12.0742
垂涕	-12.0743
盒	-12.0743
淳祐	-12.0743
不旋踵	-12.0743
抒	-12.0743
僎	-12.0743
湘東王	-12.0744
禿	-12.0744
柚	-12.0744
蜀志曰	-12.0745
刲	-12.0746
皤	-12.0746
嶸	-12.0746
不逺千里	-12.0746
聞見後録卷	-12.0746
鬲	-12.0747
夏侯孜	-12.0747
黄門郎	-12.0747
酷烈	-12.0747
舉孝亷	-12.0747
符籙	-12.0748
貳負	-12.0748
祐甫	-12.0749
衣一襲	-12.075
優容之	-12.075
卄	-12.0751
砲	-12.0751
市舶	-12.0751
問其故答曰	-12.0752
遲遲	-12.0752
踐祚	-12.0752
吟諷	-12.0753
妬忌	-12.0753
龍興寺	-12.0754
投壺	-12.0755
岀朝野	-12.0755
征伐	-12.0757
為之奈何	-12.0757
常持金剛經	-12.0758
起居郎	-12.0758
雲谿	-12.0758
賈島	-12.0758
晨夕	-12.0759
春二月	-12.0761
負薪	-12.0761
犬戎	-12.0763
僚友	-12.0763
亞夫	-12.0764
清泠	-12.0768
奏曰陛下	-12.0768
宋祁	-12.0771
峨眉	-12.0772
以本官	-12.0772
孫皓	-12.0773
拊掌	-12.0773
詞藻	-12.0774
端午	-12.0776
霍光	-12.0777
吳淑	-12.0777
吐納	-12.0778
嘉祚	-12.0779
措置	-12.078
厚賂	-12.078
動靜	-12.0781
繼隆	-12.0784
約束	-12.0784
倰	-12.0785
李煜	-12.0785
緑珠	-12.0786
薄暮	-12.0786
顔淵	-12.0787
銅鐵	-12.0788
毛髪	-12.079
戲弄	-12.0792
李錡	-12.0793
希顔	-12.0793
稱疾不	-12.0794
電光	-12.0797
形迹	-12.08
仲躬	-12.08
馳走	-12.0808
顔回	-12.0809
聚徒	-12.081
播遷	-12.0812
動静	-12.0814
危懼	-12.0814
詢訪	-12.0816
頴士	-12.0819
辭不受	-12.082
果毅	-12.0824
束手	-12.0825
岐陽	-12.0828
講讀	-12.0832
護軍	-12.0839
十餘歲	-12.0843
九十里	-12.0844
于上前	-12.0844
爵禄	-12.0845
漁陽	-12.0846
疾篤	-12.0855
筮仕	-12.0858
梵僧	-12.086
憂患	-12.086
汀州	-12.0869
年十九	-12.0874
年七嵗	-12.0875
偕往	-12.0878
元溥	-12.0884
若之何	-12.0885
萬二千	-12.0894
永興軍	-12.0908
鉅萬	-12.0922
巖穴	-12.0941
數十輩	-12.0944
迅雷	-12.0965
怒罵	-12.0997
吕文靖	-12.1017
怒叱	-12.1055
一百七十	-12.1061
無所損	-12.1063
誰敢	-12.1064
挽詞	-12.1074
楫	-12.1075
殤	-12.1107
人少擢第	-12.1112
荳	-12.1112
倜	-12.1114
鷟	-12.1117
闞	-12.1117
蓽	-12.1117
昆侖	-12.1121
倕	-12.1121
梁師成	-12.1122
叵	-12.1122
鷩	-12.1123
詧	-12.1124
桃核	-12.1124
四十萬	-12.1124
賡	-12.1124
西南隅	-12.1125
溶	-12.1125
伋	-12.1125
鬐	-12.1126
潺	-12.1126
菟	-12.1127
竹林七賢	-12.1127
泡	-12.1128
蒭	-12.1128
艮嶽	-12.1128
左司郎中	-12.1128
文士傳曰	-12.1128
蚩	-12.1128
壼	-12.1128
陸龜蒙	-12.1129
菰	-12.1129
荀朂	-12.1129
嶂	-12.1129
糶	-12.1129
水出焉東流注于	-12.1129
鮎	-12.113
儂智髙	-12.113
沾濕	-12.1131
癸辛雜識	-12.1131
硫黄	-12.1131
膿	-12.1131
醯	-12.1131
贏	-12.1132
鰐魚	-12.1133
蒂	-12.1133
陕	-12.1133
窫窳	-12.1133
猱	-12.1133
唳	-12.1133
匭	-12.1134
瞋	-12.1134
戅	-12.1134
垜	-12.1134
熒	-12.1135
管勾	-12.1135
朱全忠	-12.1135
楣	-12.1135
諌議大夫	-12.1136
賍	-12.1136
祛	-12.1136
昺	-12.1136
鏑	-12.1136
咳	-12.1136
貧窶	-12.1137
山魈	-12.1137
腸胃	-12.1137
司馬君實	-12.1137
驍勇	-12.1137
槨	-12.1138
哮吼	-12.1138
七八尺	-12.1139
通事舍人	-12.114
仔	-12.114
蝴蝶	-12.1141
諸葛恪	-12.1141
劎	-12.1141
肻	-12.1142
鍾繇	-12.1142
聓	-12.1142
佾	-12.1142
服闋	-12.1142
搶	-12.1142
稽顙	-12.1142
𦕈	-12.1143
笙歌	-12.1143
韵	-12.1143
高力士	-12.1143
嗜慾	-12.1144
瓣	-12.1144
弓弩	-12.1144
騅	-12.1145
丁卯	-12.1145
蘇易簡	-12.1145
甘棠	-12.1146
蒸餅	-12.1146
聚歛	-12.1146
林靈素	-12.1146
糲	-12.1146
恆	-12.1147
郭子儀	-12.1147
魁梧	-12.1147
卦影	-12.1147
燦然	-12.1148
童稚	-12.1148
荆襄	-12.1148
邦衡	-12.1149
鱓	-12.1149
釗	-12.115
端明殿學士	-12.115
梁棟	-12.115
鮮卑	-12.1151
寰宇	-12.1152
晉孝武	-12.1152
庭湊	-12.1155
獄訟	-12.1157
猪肉	-12.1158
陜右	-12.116
巍然	-12.116
尊卑	-12.116
婚嫁	-12.1161
湘潭	-12.1161
失措	-12.1162
春闈	-12.1162
悄然	-12.1163
片紙	-12.1163
驅馳	-12.1164
紿之曰	-12.1165
晦㝠	-12.1167
絶域	-12.1167
謂所親曰	-12.1168
昏黑	-12.1169
侍衞	-12.117
咸淳	-12.117
城隍廟	-12.1171
曲阜	-12.1171
珍寶	-12.1172
輕侮	-12.1172
陳瑩中	-12.1173
葛洪	-12.1173
李宗閔	-12.1173
盤桓	-12.1174
有才思	-12.1174
財貨	-12.1176
宋明帝	-12.1177
酷似	-12.1178
有道之士	-12.118
左臂	-12.1184
宣撫使	-12.1184
元凱	-12.1184
猛虎	-12.1188
昊天	-12.1189
百倍	-12.119
遙望	-12.1191
潤筆	-12.1192
皇帝陛下	-12.1193
太妃	-12.1197
酒殽	-12.1199
傳以為笑	-12.12
逃避	-12.1201
可怪也	-12.1201
迎駕	-12.1207
竄逐	-12.121
問其由	-12.1213
任臣案路史	-12.1243
清河崔	-12.1251
寂寥	-12.1252
羅浮山	-12.1277
萬仞	-12.1323
出大唐	-12.1333
梓宫	-12.1335
州推官	-12.1336
海潮	-12.1351
姪孫	-12.1353
翰林院	-12.1357
鄉貢	-12.137
話錄	-12.1397
竊窺	-12.1419
卧榻	-12.1447
十萬緡	-12.1502
世說新語	-12.1507
敳	-12.1523
鰍	-12.1525
磊	-12.1526
庄	-12.1531
事物紺珠	-12.1536
与	-12.1536
內	-12.1539
盱	-12.1539
股肱	-12.154
杜荀鶴	-12.1541
酸棗	-12.1542
囯	-12.1543
犖	-12.1543
痒	-12.1544
臚	-12.1544
紫薇	-12.1544
鸇	-12.1544
咍	-12.1545
國在其東	-12.1545
蔡伯喈	-12.1545
山之首自	-12.1545
峒	-12.1545
淝	-12.1545
凜	-12.1546
嶲	-12.1546
孟昶	-12.1547
餚	-12.1547
粳	-12.1547
鷁	-12.1547
范滂	-12.1548
劉原父	-12.1548
錞	-12.1548
殍	-12.1548
桌	-12.1548
桑道茂	-12.1548
腮	-12.1549
臾	-12.1549
奉朝請	-12.1549
櫪	-12.1549
豸	-12.1549
狄梁公	-12.155
嗾	-12.155
俻	-12.155
見則其國	-12.1551
靸	-12.1551
珠璣	-12.1551
蘚	-12.1551
旁若無人	-12.1551
殪	-12.1551
桀紂	-12.1551
蜼	-12.1551
鄘	-12.1551
開府儀同三司	-12.1551
槀	-12.1552
劉真長	-12.1552
鵷	-12.1552
鰩	-12.1552
駔	-12.1552
洶洶	-12.1552
昪	-12.1553
明肅太后	-12.1553
蕖	-12.1553
瀑	-12.1553
掐	-12.1553
堙	-12.1554
儗	-12.1554
廕	-12.1554
崔嵬	-12.1554
鄭絪	-12.1554
祧	-12.1554
無可奈何	-12.1554
虖	-12.1554
曖	-12.1554
彗星	-12.1555
埏	-12.1555
媼	-12.1555
羹	-12.1555
䞇	-12.1556
汴都	-12.1557
朏	-12.1557
凱旋	-12.1557
頠	-12.1557
王仁裕	-12.1557
彌陀	-12.1558
杜悰	-12.1559
郴	-12.1559
賈似道	-12.1559
摠	-12.156
股慄	-12.156
瞪目	-12.156
蛾眉	-12.156
𨗳	-12.156
副樞	-12.156
餬	-12.1561
唁	-12.1561
㲄	-12.1561
圖贊云	-12.1561
簣	-12.1561
巾箱中	-12.1562
芑	-12.1562
鸜鵒	-12.1562
讖	-12.1562
萼	-12.1562
起居舍人	-12.1562
朝散大夫	-12.1563
乙夘	-12.1563
攢	-12.1563
鼔琴	-12.1563
悽愴	-12.1563
引經作	-12.1563
天下幸甚	-12.1564
西京雜記	-12.1564
閘	-12.1564
塾	-12.1565
粉黛	-12.1565
號呌	-12.1565
蜑	-12.1566
綫	-12.1567
瑶池	-12.1568
括蒼	-12.1569
釀酒	-12.157
無少異	-12.157
太和九年	-12.1571
八駿	-12.1572
上元夫人	-12.1573
乾祐	-12.1574
李逢吉	-12.1574
淡墨	-12.1575
閽吏	-12.1576
左補闕	-12.1576
犀帶	-12.1578
廵撫	-12.158
莊敏	-12.158
种放	-12.1581
周顗	-12.1581
恵連	-12.1582
韓晉公	-12.1582
懵然	-12.1583
抵掌	-12.1585
長慶初	-12.1585
草莽	-12.1586
京秩	-12.1588
馳驛	-12.1589
射獵	-12.1591
十有八	-12.1593
酉陽雜俎	-12.1593
舉措	-12.1595
伺候	-12.1595
月二十二日	-12.1596
銀絹	-12.1598
擒獲	-12.1598
馮夷	-12.16
宋文帝	-12.1603
有重名	-12.1616
柴桑	-12.1617
咸通末	-12.1623
無及矣	-12.163
問之答曰	-12.1637
姿貌	-12.1646
于闐國	-12.1647
十有六	-12.1748
酷嗜	-12.1764
忌諱	-12.181
秋七月	-12.1836
寂寂	-12.1882
鴘	-12.1943
王子猷	-12.1952
王孝伯	-12.1958
辣	-12.1965
欖	-12.1967
褌	-12.1968
窈窕	-12.1968
炮	-12.1971
亦此𩔖也	-12.1972
阼	-12.1972
舡	-12.1972
詘	-12.1973
尸子曰	-12.1973
荃	-12.1973
螟	-12.1973
顧長康	-12.1974
茈	-12.1974
頔	-12.1975
萄	-12.1975
嚇	-12.1976
自此始也	-12.1977
殭	-12.1977
彈棊	-12.1977
痰	-12.1978
奘	-12.1978
羯皷	-12.1978
錫賚	-12.1978
之山其上多金玉其下多	-12.1979
聃	-12.1979
描	-12.198
噲	-12.198
閟	-12.198
豈偶然哉	-12.198
皆此類	-12.1981
闚	-12.1981
蝨	-12.1982
甎	-12.1982
捩	-12.1983
窩	-12.1983
菑	-12.1983
瞬息	-12.1983
苻	-12.1983
明四川道監察御史内鄉李雲鵠校	-12.1984
娣	-12.1984
翃	-12.1984
䜿	-12.1984
参	-12.1984
張茂先	-12.1984
匀	-12.1984
未知孰是	-12.1984
拳拳	-12.1985
嗚	-12.1985
騟	-12.1985
瞬	-12.1985
許孟容	-12.1985
狼藉	-12.1986
顔真卿	-12.1987
㫄	-12.1987
撝	-12.1987
贇	-12.1988
韉	-12.1988
閻立本	-12.1988
墾	-12.1988
癢	-12.1988
羯	-12.1988
車騎將軍	-12.1988
晁公武讀書志	-12.1988
旃檀	-12.1989
鄙俚	-12.1989
襠	-12.1989
翌旦	-12.1989
孔安國	-12.1989
觀文殿學士	-12.1989
檢挍	-12.199
源乾曜	-12.199
搴	-12.199
翾	-12.199
漱	-12.199
袪	-12.199
尹師魯	-12.199
称	-12.199
檠	-12.1991
秦少游	-12.1991
暌	-12.1991
頺	-12.1991
栲	-12.1992
跣足	-12.1992
鸕鷀	-12.1992
肢體	-12.1992
宋次道	-12.1992
萱草	-12.1992
閭閻	-12.1992
魎	-12.1993
篾	-12.1993
龍圖閣學士	-12.1993
爕	-12.1993
傳信記	-12.1993
撫膺	-12.1994
莘	-12.1994
獰	-12.1994
﨑嶇	-12.1994
㕓	-12.1994
柈	-12.1994
刅	-12.1994
裀	-12.1994
熬	-12.1995
玦	-12.1995
椁	-12.1995
都押衙	-12.1996
環珮	-12.1996
隧	-12.1996
跖	-12.1996
糚	-12.1997
緊	-12.1997
感遇傳	-12.1999
李義山	-12.1999
提㸃	-12.1999
錦綺	-12.1999
纘	-12.2
潘岳	-12.2
宋之問	-12.2001
桑梓	-12.2001
洪範	-12.2001
旺榮	-12.2002
薛稷	-12.2003
酤酒	-12.2003
珍玩	-12.2003
杖一百	-12.2003
陋巷	-12.2003
聲甚厲	-12.2004
張延賞	-12.2006
鷄鳴	-12.2007
董卓	-12.2008
贓罪	-12.2008
搬	-12.2008
羅綺	-12.2008
宋景文	-12.2009
周匝	-12.2011
幽冥	-12.2013
成汭	-12.2013
地理志	-12.2014
祥瑞	-12.2014
圍繞	-12.2018
而問焉	-12.2018
路轉運使	-12.2019
四月八日	-12.202
韋陟	-12.202
徐禧	-12.2022
怖懼	-12.2024
博陵崔	-12.2027
妖狐	-12.2029
宣和殿	-12.2031
東華門	-12.2032
為鬼所	-12.2033
錢五千	-12.2037
秘書郎	-12.2041
深然之	-12.2046
幅巾	-12.2052
味酸	-12.207
十餘步	-12.208
内東門	-12.2087
嘗語人曰	-12.2093
萬七千	-12.2107
謂其子曰	-12.2117
食其肉	-12.2133
滎陽鄭	-12.216
工匠	-12.2168
千仞	-12.2238
泣訴	-12.2262
曰誠如	-12.2279
夢瑣	-12.2296
司馬文正	-12.2361
歐陽文忠	-12.2402
懵	-12.241
翕	-12.241
雲仙雜記	-12.2411
薺	-12.2414
僊芝	-12.2416
炁	-12.2423
艸	-12.2424
案金史	-12.2425
歸田録	-12.2425
撅	-12.2427
籟	-12.2427
狌狌	-12.2428
薈	-12.2428
謄	-12.2428
案金史本𫝊	-12.2428
陳思王	-12.2428
蛭	-12.2429
嘱	-12.2429
埜	-12.243
脹	-12.2431
厰	-12.2431
洧	-12.2432
鄧粲晉紀曰	-12.2432
謝仁祖	-12.2432
㹠	-12.2433
簒位	-12.2433
賢良方正	-12.2433
郭元振	-12.2434
𣲖	-12.2434
正大初	-12.2434
紫極宫	-12.2434
纍	-12.2434
溲	-12.2435
蹴踘	-12.2436
棬	-12.2436
姑臧	-12.2436
醼	-12.2436
滬	-12.2436
搥	-12.2436
祏	-12.2436
櫺	-12.2436
虎賁	-12.2437
坼	-12.2437
孟頫	-12.2437
叚成式撰	-12.2438
机	-12.2438
侶	-12.2439
捴	-12.2439
孫光憲	-12.2439
帢	-12.2439
晙	-12.2439
匕箸	-12.2439
鱸魚	-12.2439
呦	-12.2439
瑊	-12.2439
塌	-12.244
飣	-12.244
苕溪	-12.244
蛟螭	-12.2441
飥	-12.2441
帝嚳	-12.2441
粱	-12.2441
髩	-12.2441
䜛	-12.2441
婣	-12.2441
喀	-12.2441
笙簫	-12.2442
僥	-12.2442
餼	-12.2442
檟	-12.2442
埤	-12.2442
侈靡	-12.2442
四肢	-12.2443
案此條	-12.2443
瀍	-12.2443
椰	-12.2443
池沼	-12.2443
巾幘	-12.2444
炷香	-12.2444
吕許公	-12.2444
衛玠	-12.2444
醺	-12.2444
屡	-12.2445
祕書省	-12.2445
馨香	-12.2445
悝	-12.2445
沈休文	-12.2445
擡	-12.2445
扞	-12.2446
𥚹	-12.2446
上封事	-12.2446
太學諸生	-12.2446
楞	-12.2446
國子司業	-12.2446
漢成帝	-12.2446
清波雜志卷第	-12.2447
羗	-12.2447
綦	-12.2448
寒暄	-12.2448
虹蜺	-12.2448
帟	-12.2448
時人為之語曰	-12.2448
婁師徳	-12.2449
蔡元度	-12.2449
二更後	-12.2449
攘臂	-12.2451
率以為常	-12.2451
臨洮	-12.2451
五侯鯖	-12.2451
蕉	-12.2451
閒暇	-12.2452
幻術	-12.2453
砧	-12.2453
吁嗟	-12.2453
眼睛	-12.2453
大理丞	-12.2454
㙮	-12.2454
攣	-12.2454
欻	-12.2455
矗	-12.2456
騰躍	-12.2456
駐泊	-12.2456
𥪡	-12.2456
瀚	-12.2457
兗	-12.2457
盝頂	-12.2458
韋絢	-12.2458
歐陽詢	-12.2458
鉦	-12.2458
右補闕	-12.2458
捄	-12.2459
轢	-12.2459
諮議	-12.2459
齊桓公	-12.2459
筋骨	-12.2459
韓持國	-12.2459
談諧	-12.246
程伊川	-12.246
鸞鳯	-12.246
内侍省	-12.2461
以狀聞	-12.2462
惶遽	-12.2462
席帽	-12.2462
鬚髪	-12.2463
直史館	-12.2463
毆擊	-12.2464
泝流	-12.2464
驩頭	-12.2464
遘疾	-12.2464
鮮潔	-12.2466
李適之	-12.2466
跨驢	-12.2466
漏泄	-12.2467
仲郢	-12.2467
荚	-12.2467
恣横	-12.2467
羅刹	-12.2468
閑話	-12.2469
沈括	-12.2469
太子少保	-12.2471
搜神記	-12.2473
杯渡	-12.248
偃卧	-12.2491
出開天	-12.2499
九月九日	-12.2505
伺察	-12.2516
吹笙	-12.2531
酒肴	-12.254
鄠縣	-12.2546
有日矣	-12.2553
仆於地	-12.2556
山之陽	-12.2559
海濵	-12.2581
分門古今𩔖事卷	-12.2597
百餘尺	-12.2632
為口實	-12.2648
部貟外郎	-12.2751
東流注于	-12.2854
羊豕	-12.2859
卷二欽定四庫全書	-12.2864
檣	-12.2893
紫宸	-12.2896
又東三百里曰	-12.2898
䭔	-12.2899
盾	-12.2899
廰	-12.29
惺	-12.2901
獐	-12.2902
鷲	-12.2903
嶼	-12.2904
歸潛志卷	-12.2904
禊	-12.2905
篚	-12.2905
篁	-12.2906
羅公逺	-12.2906
鼐	-12.2907
掊	-12.2907
洋洋	-12.2908
阡陌	-12.2909
珝	-12.2909
簞	-12.2909
可以禦火	-12.291
溧	-12.291
疣	-12.2911
砥礪	-12.2911
乾隆四十三年	-12.2911
雩	-12.2911
禰	-12.2911
趙王倫	-12.2912
蠃	-12.2912
盧思道	-12.2912
佻	-12.2912
中書侍郎平章事	-12.2912
顧愷之	-12.2913
剗	-12.2913
錢希白	-12.2913
唐太常少卿臨淄柯古	-12.2913
儐	-12.2913
宸翰	-12.2914
瀑布	-12.2914
淒	-12.2915
濓	-12.2915
㬰	-12.2915
鼾	-12.2915
鰥	-12.2915
冺	-12.2915
屎	-12.2915
揄	-12.2916
張思光	-12.2916
吟嘯	-12.2916
飈	-12.2916
諒祚	-12.2916
謌	-12.2916
徒跣	-12.2916
蹷	-12.2916
煌煌	-12.2916
䧺	-12.2918
州團練副使	-12.2918
冬曦	-12.2918
筑	-12.2918
氈	-12.2918
鞬	-12.2918
罥	-12.2919
姚元崇	-12.2919
蒱	-12.2919
萱	-12.2919
念觀世音	-12.2919
釋道安	-12.2919
熲	-12.2919
已而果然	-12.2919
盱眙	-12.2919
趋	-12.2919
魚朝恩	-12.2919
景泰中	-12.2919
捋	-12.2919
從其請	-12.292
田令孜	-12.292
泅	-12.292
宋祁唐書曰	-12.292
憨	-12.292
扶掖	-12.2921
瞪視	-12.2921
晉安帝	-12.2921
淇	-12.2921
鬯	-12.2921
通政司	-12.2921
韓康伯	-12.2921
悲慟	-12.2921
參大政	-12.2921
烙	-12.2921
腆	-12.2922
桓南郡	-12.2922
餛	-12.2922
䧏	-12.2923
輞	-12.2923
輥	-12.2923
黨錮	-12.2923
年九十餘	-12.2923
黄庭堅	-12.2923
喋	-12.2924
畎	-12.2924
壕	-12.2924
至今猶存	-12.2924
瞿塘	-12.2925
陴	-12.2925
紗帽	-12.2925
燕昭王	-12.2925
丒	-12.2925
耿介	-12.2925
杜工部	-12.2926
腿	-12.2926
仄	-12.2926
昴	-12.2926
婪	-12.2927
侏儒	-12.2927
婺源	-12.2927
霈	-12.2928
纎毫	-12.2928
蔡持正	-12.2928
紅綃	-12.2928
阨	-12.2928
窈	-12.2928
湎	-12.2928
鬼谷子	-12.2928
趕	-12.2929
廷評	-12.2929
狖	-12.2929
蠒	-12.2929
蕡	-12.2929
舷	-12.293
簏	-12.293
引此作	-12.293
淄青	-12.2931
擐	-12.2931
衎	-12.2931
弩射	-12.2932
昝	-12.2932
征討	-12.2932
剜	-12.2932
屋脊	-12.2932
吐舌	-12.2932
巨觥	-12.2933
岑文本	-12.2934
揚子江	-12.2934
杜鎬	-12.2935
楊嗣復	-12.2936
拗	-12.2936
蒲桃	-12.2937
鞭撻	-12.2937
吕吉甫	-12.2938
䂓	-12.2938
𣢾	-12.2938
誦法華經	-12.2939
磎	-12.2939
登甲科	-12.2941
刀圭	-12.2941
奕棊	-12.2942
刑戮	-12.2944
擾擾	-12.2947
吕公著	-12.2947
妃嬪	-12.2948
盃盤	-12.295
紅線	-12.2955
紫宸殿	-12.2959
張太尉道	-12.296
以杖擊	-12.2965
末句云	-12.2975
上林賦	-12.2989
裝飾	-12.3037
為衆所	-12.3089
貟外郎	-12.3099
宗初即位	-12.313
晝寢夢	-12.3156
顛仆	-12.3303
一千二百	-12.3316
啻	-12.3318
在其東	-12.3344
珤	-12.3347
廞	-12.337
水出焉南流注于	-12.339
苓	-12.3391
晉安帝紀曰	-12.3392
皺	-12.3392
枋	-12.3394
夤縁	-12.3395
蒐	-12.3396
王平子	-12.3396
蝤	-12.3397
𦵔	-12.34
傴	-12.3401
燦	-12.3402
淬	-12.3403
泑	-12.3404
淖	-12.3406
擿	-12.3406
叵測	-12.3407
廵狩	-12.3408
水出焉西流注于	-12.3408
价	-12.3408
蘸	-12.3409
緹	-12.3409
平章政事	-12.3409
縂	-12.3409
纍纍	-12.3409
弧	-12.341
薇	-12.341
苾	-12.341
幞	-12.341
絜	-12.341
軨	-12.3411
孔目官	-12.3411
棨	-12.3412
驊	-12.3412
兊	-12.3413
聱	-12.3413
栝	-12.3414
吹簫	-12.3414
自天而下	-12.3414
有獸焉其狀如牛而	-12.3414
蕭頴士	-12.3414
芷	-12.3414
翽	-12.3414
凭欄	-12.3415
瀰	-12.3415
締	-12.3415
舊本題	-12.3415
嬙	-12.3415
撫掌大笑	-12.3415
痔	-12.3416
齟	-12.3416
忳	-12.3416
夥	-12.3416
可得聞乎	-12.3416
悮	-12.3416
囁	-12.3417
嵇叔夜	-12.3417
湟	-12.3417
楛	-12.3417
𥜗	-12.3417
晉惠帝	-12.3417
輦轂	-12.3417
乞骸骨	-12.3417
釭	-12.3418
跼	-12.3418
芬芳	-12.3418
疫癘	-12.3418
伉	-12.3418
磾	-12.3418
瀨	-12.3418
顛沛	-12.3418
繒帛	-12.3418
烜	-12.3419
欤	-12.3419
晢	-12.342
踟蹰	-12.342
鵲巢	-12.342
灰燼	-12.342
日將暮	-12.3421
簀	-12.3421
翺翔	-12.3421
偃蹇	-12.3421
嶧	-12.3421
顔師古	-12.3422
蓑	-12.3422
范曅後漢書曰	-12.3422
諠譁	-12.3422
豉	-12.3422
狙	-12.3423
贛	-12.3423
張文潜	-12.3423
交阯	-12.3423
臀	-12.3423
凍餒	-12.3424
孛	-12.3424
皐	-12.3424
饅頭	-12.3424
唐孫光憲撰	-12.3425
𧦬	-12.3425
嬰孩	-12.3425
憸	-12.3425
丁夘	-12.3425
袴褶	-12.3426
徐師川	-12.3426
司馬宣王	-12.3426
羯鼓	-12.3426
棟宇	-12.3426
拷掠	-12.3427
臓	-12.3427
戸部侍郎	-12.3427
尹洙	-12.3427
綈	-12.3427
站	-12.3427
録事參軍	-12.3427
王坦之	-12.3427
劉㑹孟曰	-12.3428
祖宗以來	-12.3428
婬	-12.3428
逹魯花赤	-12.3428
焯	-12.3429
磊落	-12.3429
奉聖旨	-12.3429
蒼頡	-12.343
啣	-12.343
西川節度使	-12.3431
鞴	-12.3431
冏藏	-12.3431
芎藭	-12.3432
佖	-12.3432
彌縫	-12.3433
回紇	-12.3433
金吾將軍	-12.3433
鉷	-12.3434
黜陟	-12.3434
芫	-12.3434
酤	-12.3434
王屋山	-12.3434
糕	-12.3434
勰	-12.3435
青衣童子	-12.3436
剽掠	-12.3437
有喜色	-12.3438
蓀	-12.3438
哨	-12.3438
為予言	-12.3442
錚	-12.3442
饑渴	-12.3445
有難色	-12.3446
蚡	-12.3458
聨句	-12.348
謂其妻曰	-12.3481
謂李曰	-12.35
太平廣記卷三百七十	-12.3528
斗米	-12.3573
械繫	-12.3575
一百三十	-12.361
濩	-12.3909
璆韶	-12.3912
有愧色	-12.3927
璪	-12.3927
䣛	-12.3927
渤	-12.3927
其陰多鐵	-12.3928
胙	-12.3929
夔	-12.3932
糈	-12.3932
貉	-12.3933
皴	-12.3933
涴	-12.3933
􁰽	-12.3934
鴝鵒	-12.3935
瘟	-12.3935
鯽魚	-12.3935
縢	-12.3935
牾	-12.3935
螻蟻	-12.3936
餤	-12.3936
禰衡	-12.3936
米芾	-12.3936
蕞	-12.3936
薬	-12.3937
渦	-12.3938
廄	-12.3938
拌	-12.3938
麪	-12.3938
勮	-12.3938
搃	-12.3938
朝奉郎	-12.3939
醸	-12.3939
張僧繇	-12.3939
竚	-12.3939
諫諍	-12.3939
駱賔王	-12.3939
悒悒	-12.394
齕	-12.394
壖	-12.394
鎧甲	-12.394
晉太元中	-12.394
糝	-12.394
闠	-12.3941
開元二十三年	-12.3941
蒲坂	-12.3942
椐	-12.3942
媟	-12.3942
砥柱	-12.3942
髹	-12.3943
芹	-12.3943
西京留守	-12.3944
湄	-12.3944
巗	-12.3944
欽定四庫全書聞見録卷	-12.3944
橛	-12.3944
擷	-12.3944
金紫光禄大夫	-12.3944
熈寕	-12.3944
瀦	-12.3945
翬	-12.3945
鏖	-12.3945
膏肓	-12.3945
􁝜	-12.3945
栁公權	-12.3945
熺	-12.3946
綖	-12.3946
峡	-12.3946
瑯邪	-12.3946
秫	-12.3946
縲	-12.3947
潦倒	-12.3947
殯殮	-12.3947
𬒮	-12.3947
泮	-12.3947
䱱	-12.3947
宓	-12.3947
鋹	-12.3948
屩	-12.3948
殱	-12.3948
㨿	-12.3948
新淦	-12.3948
銛	-12.3948
秉炬	-12.3948
縑帛	-12.3949
羝	-12.3949
為己任	-12.3949
怏	-12.3949
蠟燭	-12.3949
窅	-12.3949
跣	-12.3949
畒	-12.395
閈	-12.395
喘息	-12.395
酖	-12.395
酒一壺	-12.3951
揉	-12.3951
嘲謔	-12.3951
顱	-12.3951
惹	-12.3951
幌	-12.3952
以為知言	-12.3952
靨	-12.3953
碍	-12.3953
鑼	-12.3954
李時珍	-12.3954
幽薊	-12.3954
㤙	-12.3954
燠	-12.3954
髽	-12.3954
纉	-12.3955
夜將半	-12.3956
無孑遺	-12.3956
踰垣而	-12.3956
踴躍	-12.3956
靚粧	-12.3956
舒亶	-12.3957
媾	-12.3957
粧奩	-12.3958
矦	-12.3959
鰼	-12.3959
擴	-12.396
漢章帝	-12.3962
蕭至忠	-12.3963
躊躇	-12.3964
夷堅志丁卷	-12.3967
有父風	-12.397
翰林學士承㫖	-12.3985
精緻	-12.3987
有深意	-12.3998
開元天寶	-12.4
光禄勲	-12.401
亡見矣	-12.4015
春明門	-12.4037
雖死不	-12.4165
語林卷二十	-12.4199
分門古今𩔖事卷十	-12.428
一百四十	-12.4313
貌甚偉	-12.4436
緻	-12.4457
磐	-12.4469
悙	-12.447
窶	-12.4473
攤	-12.4474
有草焉其狀如	-12.4476
縚	-12.4477
抺	-12.4477
迤	-12.4478
晉諸公贊曰	-12.4484
叚成式	-12.4484
戴笠	-12.4486
耙	-12.4486
又北三百里曰	-12.4488
倉猝	-12.4488
又東三十里曰	-12.4489
醤	-12.4489
勾芒	-12.4489
馘	-12.4489
韈	-12.4489
文獻通考	-12.4489
榱	-12.449
茱萸	-12.4491
太子洗馬	-12.4491
陘	-12.4491
謗訕	-12.4491
僂	-12.4491
萯	-12.4491
妆	-12.4491
紕	-12.4491
煤	-12.4491
吕汲公	-12.4492
宗楚客	-12.4492
多㻬琈之玉	-12.4492
儀鸞司	-12.4492
周日用曰	-12.4493
貓	-12.4493
笻	-12.4493
其音如嬰兒	-12.4493
張柬之	-12.4493
綻	-12.4494
盧藏用	-12.4494
又東北二百里曰	-12.4494
寇萊公	-12.4494
昃	-12.4494
聞見後錄	-12.4494
耘	-12.4495
蟣	-12.4495
觝	-12.4495
褾	-12.4495
鄯	-12.4495
筴	-12.4495
囀	-12.4495
又西二百里曰	-12.4496
璇	-12.4496
永樂大典	-12.4496
鶩	-12.4496
賖	-12.4496
饜	-12.4496
奕棋	-12.4496
藍縷	-12.4496
蜓	-12.4496
巉	-12.4497
淂	-12.4497
斁	-12.4497
苣	-12.4497
黻	-12.4497
欄檻	-12.4497
淆	-12.4498
稚圭	-12.4498
杜如晦	-12.4498
臊	-12.4498
㢤	-12.4499
幵	-12.4499
嘉陵江	-12.4499
伯喈	-12.4499
雎	-12.4499
緄	-12.4499
臷	-12.4499
婁師德	-12.4499
丰	-12.45
罏	-12.45
潏	-12.45
躔	-12.45
嚚	-12.45
滄溟	-12.45
栖筠	-12.4501
䍶	-12.4501
闒	-12.4501
湼槃	-12.4501
灤	-12.4502
棐	-12.4502
不拘小節	-12.4502
楮幣	-12.4503
蹂踐	-12.4503
鄉貢進士	-12.4503
滹沱	-12.4503
王世充	-12.4503
凂	-12.4503
羃	-12.4503
踐阼	-12.4503
錯愕	-12.4503
玉壺野史卷	-12.4503
水心先生	-12.4503
驩兠	-12.4503
巫覡	-12.4504
澍	-12.4504
蕊	-12.4504
鶯鶯	-12.4504
濆	-12.4504
浮休子	-12.4504
茵褥	-12.4504
諢	-12.4504
榣	-12.4505
有善相者	-12.4505
饑渇	-12.4505
冽	-12.4505
鱗鬛	-12.4505
吮	-12.4505
望氣者	-12.4506
沈存中	-12.4506
頳	-12.4506
匾	-12.4506
搜神後記卷	-12.4506
竑	-12.4506
天章閣	-12.4506
儘	-12.4506
張天覺	-12.4506
大理少卿	-12.4506
靡所不	-12.4506
峯巒	-12.4507
溱	-12.4507
痼	-12.4508
覷	-12.4508
中散大夫	-12.4508
馹	-12.4508
熾炭	-12.4508
不茹葷	-12.4508
某月某日	-12.4509
李淳風	-12.4509
褚遂良	-12.451
斚	-12.451
磕	-12.451
蚺蛇	-12.4511
穡	-12.4511
丏	-12.4511
櫜鞬	-12.4511
匏	-12.4511
垕	-12.4511
矟	-12.4511
皃	-12.4512
大慶殿	-12.4512
甥姪	-12.4512
癸夘	-12.4513
無與比	-12.4513
饉	-12.4513
侁	-12.4513
徠	-12.4513
煩惱	-12.4513
揑	-12.4514
躑躅	-12.4514
南村輟耕録卷之二十	-12.4515
蟇	-12.4515
繚	-12.4516
嗚咽流涕	-12.4516
直龍圖閣	-12.4517
玉照新志	-12.4517
肪	-12.4517
行於代	-12.4517
惓	-12.4518
玫瑰	-12.4519
范純仁	-12.4519
史嵩之	-12.4521
膏粱	-12.4521
金百兩	-12.4521
迦葉佛	-12.4524
顔色不變	-12.4524
勾踐	-12.4526
帖木児	-12.4528
何許人	-12.453
又東南一百	-12.4553
御史裏行	-12.4565
禄山之亂	-12.4758
鄠	-12.4952
墨客揮犀	-12.5003
許玄度	-12.5042
ခ	-12.506
怜	-12.5061
遄	-12.5062
頵	-12.5065
虨	-12.5067
驃	-12.5069
廋	-12.507
蝉	-12.507
誌其墓	-12.5072
皇甫謐	-12.5072
大荒之中有	-12.5073
紼	-12.5073
瘕	-12.5073
巍巍	-12.5074
榔	-12.5074
呻	-12.5074
傖	-12.5074
癯	-12.5075
僴	-12.5075
㮣	-12.5075
瑠璃	-12.5075
桓彦範	-12.5075
繚繞	-12.5076
袵	-12.5076
􁀾	-12.5077
霤	-12.5077
贗	-12.5077
躅	-12.5078
貂蟬	-12.5078
饘	-12.5079
有知人之鑒	-12.5079
龎勛	-12.508
其可得乎	-12.508
癸卯	-12.508
傴僂	-12.508
梦	-12.508
腔	-12.5081
㤀	-12.5081
盧齊卿	-12.5081
䆫	-12.5081
倔	-12.5081
顫	-12.5081
搢笏	-12.5081
寞	-12.5082
孳	-12.5082
騊駼	-12.5082
醻	-12.5082
戞	-12.5082
祖父常云	-12.5083
宣仁聖烈	-12.5083
葯	-12.5083
薙	-12.5084
眯	-12.5084
絪	-12.5084
良家子	-12.5085
庳	-12.5085
单	-12.5085
括異志卷苐	-12.5085
蘿蔔	-12.5085
枯槁	-12.5085
靼	-12.5086
箆	-12.5086
宋邵伯溫撰	-12.5087
蹌	-12.5087
通直郎	-12.5087
有憂色	-12.5087
𣑽	-12.5087
敭	-12.5087
衣冠甚偉	-12.5088
從外來	-12.5088
唫	-12.5088
畬	-12.5088
獮猴	-12.5088
洱	-12.5088
灔	-12.5088
隤	-12.5088
軿	-12.5088
矻	-12.5088
皂莢	-12.5089
渾瑊	-12.5089
左藏庫	-12.5089
嶤	-12.509
中條山	-12.509
周益公	-12.509
採訪使	-12.509
五臺山	-12.509
王世貞	-12.509
䏿	-12.5091
錄事參軍	-12.5091
滂沱	-12.5091
賸	-12.5091
樞密直學士	-12.5092
偪	-12.5092
宂	-12.5092
珧	-12.5092
諸葛武侯	-12.5092
承務郎	-12.5092
欄楯	-12.5092
呂氏春秋	-12.5092
陶𢎞景	-12.5092
嗷	-12.5093
鶡	-12.5093
祲	-12.5093
蜺	-12.5093
匄	-12.5093
薛道衡	-12.5093
腹脹	-12.5093
靦	-12.5094
鞦	-12.5094
跑	-12.5094
狭	-12.5094
憤懣	-12.5095
極歡而罷	-12.5095
滈	-12.5095
枸杞	-12.5095
犇	-12.5095
扳	-12.5095
軺	-12.5095
瀧	-12.5096
乾寧中	-12.5096
尫	-12.5096
輟耕録	-12.5096
扑	-12.5096
哄	-12.5096
李商𨼆	-12.5096
戦	-12.5096
江淹遂古篇	-12.5097
鐃	-12.5097
塤	-12.5097
狡獪	-12.5097
怎	-12.5098
顇	-12.5098
𤣥覽云	-12.5099
凹	-12.51
畛	-12.51
䍐	-12.51
歛袵	-12.5101
牲牢	-12.5101
湔	-12.5102
漠漠	-12.5102
瘖	-12.5104
澦	-12.5104
駈	-12.5104
宋司馬光撰	-12.5104
輻輳	-12.5105
膏腴	-12.5106
䁮	-12.5108
掞	-12.5108
詗	-12.5111
長七寸	-12.5111
考功員外郎	-12.5112
荏苒	-12.5116
酴	-12.5119
家甚富	-12.5146
一男一女	-12.5158
倍於常	-12.5169
彎弓	-12.5354
獅	-12.5667
孥	-12.567
漯	-12.5678
氾	-12.568
筞	-12.5681
有木焉其狀如	-12.5687
蜉	-12.569
籮	-12.5691
皿	-12.5692
韓康公	-12.5692
璃	-12.5692
祫	-12.5693
晶	-12.5693
恟	-12.5694
讋	-12.5694
瓦官寺	-12.5697
麕	-12.5697
元好問	-12.5698
韓蘄王	-12.5698
建成元吉	-12.5699
繽紛	-12.5699
鞮	-12.57
餵	-12.5701
瀬	-12.5701
遴	-12.5701
蠣	-12.5701
异	-12.5702
禹治水	-12.5702
黝	-12.5702
張商英	-12.5702
无咎	-12.5703
苹	-12.5703
臈	-12.5703
趙清獻	-12.5703
桔	-12.5703
蹻	-12.5703
鰒	-12.5703
鷃	-12.5703
伊喇	-12.5704
蝦蟆	-12.5704
張士遜	-12.5704
韁	-12.5705
淤	-12.5705
從父弟	-12.5705
拚	-12.5705
襕	-12.5705
蘼蕪	-12.5705
篥	-12.5705
磋	-12.5706
王輔嗣	-12.5706
篩	-12.5706
濼	-12.5706
祉	-12.5707
捭	-12.5707
蜣	-12.5707
時人爲之語曰	-12.5707
水出于其上潛于其下	-12.5707
杜陽雜編	-12.5708
睚眦	-12.5709
賺	-12.5709
蝦䗫	-12.5709
踉	-12.5709
東齋記事	-12.5709
太子少傅	-12.5709
尠	-12.5709
惙	-12.571
唐書藝文志	-12.571
鮭	-12.571
崆峒	-12.571
其鳴自詨	-12.571
宁	-12.571
痴	-12.571
瞢	-12.571
家素貧	-12.571
狄武襄	-12.571
柁	-12.571
朢	-12.571
趁	-12.5711
套	-12.5711
糟糠	-12.5711
沈佺期	-12.5711
楊誠齋	-12.5711
畚鍤	-12.5712
驀	-12.5712
釂	-12.5712
灊	-12.5712
柝	-12.5712
洶湧	-12.5712
鵩	-12.5712
滕元發	-12.5713
罝	-12.5714
鵸䳜	-12.5714
郫	-12.5714
縟	-12.5714
襁	-12.5714
魨	-12.5714
[...]
