<unk>	0
<s>	0
</s>	0
/	-3.46407
)(	-3.95413
之	-4.11702
)	-4.44217
(	-4.48505
以	-4.58151
而	-4.72714
也	-4.75211
為	-4.84934
者	-5.27537
曰	-5.32365
其	-5.34914
於	-5.43718
有	-5.50265
不	-5.53207
則	-5.59628
王	-5.67639
人	-5.70836
與	-5.83077
自	-5.8618
書	-5.89177
使	-6.00798
至	-6.01788
矣	-6.02959
大	-6.07213
無	-6.09645
言	-6.10633
皆	-6.11854
一	-6.15573
上	-6.16477
子	-6.19
帝	-6.21465
事	-6.21984
及	-6.22762
乃	-6.2486
故	-6.24903
此	-6.26104
所	-6.32249
在	-6.33124
時	-6.39622
謂	-6.41083
亦	-6.42016
見	-6.43247
中	-6.44238
等	-6.45212
于	-6.45345
乎	-6.45482
行	-6.46584
今	-6.4662
如	-6.46724
公	-6.46921
立	-6.50414
國	-6.50761
非	-6.50804
又	-6.50841
質實	-6.5138
復	-6.5183
出	-6.53652
欲	-6.53765
兵	-6.54385
然	-6.55468
得	-6.56472
將	-6.56672
是	-6.60098
遂	-6.61874
當	-6.63763
知	-6.6618
文	-6.66597
下	-6.6696
相	-6.67025
何	-6.67061
三	-6.67461
道	-6.6759
命	-6.69556
州	-6.69768
已	-6.69996
軍	-6.71178
用	-6.71385
作	-6.72389
反	-6.72601
名	-6.73996
後	-6.75012
臣	-6.75649
入	-6.75694
若	-6.75793
漢	-6.76301
必	-6.76807
令	-6.77651
魏	-6.77847
元	-6.78455
可	-6.7859
周	-6.78651
官	-6.80028
年	-6.80438
殺	-6.80917
君	-6.81746
安	-6.83116
民	-6.83135
傳	-6.83512
初	-6.84933
從	-6.85209
二	-6.85437
天	-6.85864
雖	-6.85983
城	-6.87791
集覽	-6.88696
死	-6.89031
多	-6.89819
齊	-6.90237
陳	-6.90375
因	-6.9068
○	-6.90792
成	-6.91011
秦	-6.91013
宋	-6.91053
晉	-6.91201
焉	-6.91413
卒	-6.91471
正	-6.92452
請	-6.92545
明	-6.93676
始	-6.95347
哉	-6.95554
即	-6.95601
耳	-6.95955
唐	-6.96161
天下	-6.98893
生	-6.99157
取	-6.99554
方	-6.9959
平	-7.00274
李	-7.00935
張	-7.01611
未	-7.02961
同	-7.03497
以為	-7.03966
詔	-7.04014
既	-7.05283
山	-7.06537
歸	-7.0663
地	-7.06633
爲	-7.07458
▁(	-7.07731
遣	-7.07826
置	-7.07915
注	-7.08511
日	-7.08907
主	-7.09772
能	-7.10877
五	-7.12232
聞	-7.12905
我	-7.12913
縣	-7.1302
居	-7.13864
四	-7.13876
書法	-7.1401
且	-7.15101
惟	-7.15363
先	-7.15528
南	-7.15634
守	-7.15795
劉	-7.17315
梁	-7.17447
世	-7.17569
本	-7.17699
不可	-7.17817
法	-7.18249
重	-7.18269
不能	-7.1898
長	-7.19635
禮	-7.19743
云	-7.19925
義	-7.20281
定	-7.20777
武	-7.20895
諸	-7.21029
發明	-7.2133
通	-7.22058
稱	-7.22285
馬	-7.22843
金	-7.23271
徳	-7.23337
或	-7.23398
吾	-7.23403
進	-7.24231
心	-7.24388
師	-7.24448
分	-7.25644
東	-7.263
還	-7.27261
字	-7.27372
趙	-7.27684
郡	-7.27731
宜	-7.28074
家	-7.28348
論	-7.28392
屬	-7.28692
水	-7.29027
去	-7.29067
封	-7.29412
數	-7.30181
史	-7.30235
夫	-7.30631
固	-7.31367
西	-7.31675
前	-7.32037
志	-7.32695
猶	-7.32901
朝	-7.32961
舉	-7.33049
治	-7.3397
意	-7.3413
求	-7.34313
常	-7.34914
實	-7.35287
降	-7.3643
氏	-7.36504
士	-7.3666
北	-7.36668
▁	-7.37465
易	-7.3821
罷	-7.38556
衆	-7.38648
議	-7.39328
善	-7.39577
盡	-7.39695
亂	-7.40034
起	-7.41137
賊	-7.41883
陽	-7.41927
服	-7.42153
后	-7.42261
受	-7.43096
㑹	-7.43124
内	-7.43182
元年	-7.43358
興	-7.43767
失	-7.43891
攻	-7.44197
太子	-7.44238
所以	-7.4427
召	-7.44438
外	-7.445
深	-7.44987
發	-7.45008
廢	-7.45136
謀	-7.4558
信	-7.45898
府	-7.46216
親	-7.46242
修	-7.47244
髙	-7.4796
制	-7.483
楚	-7.48649
尚	-7.49927
爾	-7.50165
三年	-7.50388
政	-7.5063
於是	-7.50906
都	-7.51434
注見	-7.51487
凡	-7.52719
古	-7.52995
宗	-7.53105
益	-7.53255
門	-7.5359
奏	-7.54037
誅	-7.5433
德	-7.54364
罪	-7.55001
二年	-7.55125
小	-7.55793
樂	-7.56477
獨	-7.56979
六	-7.57032
光	-7.57196
而不	-7.57344
來	-7.58372
加	-7.58387
合	-7.58467
音	-7.58815
敗	-7.58836
太后	-7.5927
戰	-7.60209
父	-7.6038
問	-7.60586
直	-7.609
終	-7.61526
逺	-7.61544
建	-7.6192
亡	-7.61936
改	-7.62144
力	-7.6263
處	-7.63027
食	-7.6336
河	-7.64027
觀	-7.64178
侯	-7.64377
利	-7.64454
和	-7.64918
甚	-7.6588
過	-7.65972
按	-7.66521
難	-7.66658
功	-7.66709
辭	-7.66915
惡	-7.6754
據	-7.67551
引	-7.67985
好	-7.69482
思	-7.69727
身	-7.69866
天子	-7.70526
廣	-7.70539
邪	-7.70654
鄭	-7.70954
夏	-7.71112
權	-7.71174
石	-7.71336
少	-7.71387
九	-7.71608
告	-7.71814
經	-7.72174
奉	-7.72361
語	-7.7289
賜	-7.73028
陵	-7.73134
田	-7.7396
代	-7.74054
首	-7.74091
擊	-7.74202
春秋	-7.74839
孫	-7.75545
討	-7.75624
任	-7.75938
計	-7.75946
宫	-7.75975
賢	-7.76437
吳	-7.76637
諸侯	-7.77214
十	-7.77478
伯	-7.77584
燕	-7.77726
執	-7.77737
白	-7.77848
致	-7.78062
伐	-7.78169
節	-7.78688
嘗	-7.78723
位	-7.80931
理	-7.80933
並	-7.81462
止	-7.81536
許	-7.81654
紀	-7.81861
備	-7.82039
度	-7.8209
太	-7.82292
将	-7.82363
滅	-7.82465
克	-7.82588
間	-7.83351
勝	-7.8358
忠	-7.83669
異	-7.84125
至是	-7.84215
恐	-7.84868
楊	-7.84988
學	-7.84992
兩	-7.85105
朝廷	-7.85323
物	-7.85441
仁	-7.8597
魯	-7.86056
表	-7.86263
除	-7.86588
豈	-7.86691
絶	-7.8715
路	-7.87373
章	-7.87431
四年	-7.87653
遷	-7.87679
而已	-7.88128
蓋	-7.88557
留	-7.88671
昭	-7.89112
釋	-7.89234
更	-7.8976
母	-7.89781
目	-7.89915
鎮	-7.90258
女	-7.90303
敵	-7.90391
坐	-7.90572
流	-7.90843
威	-7.91003
説	-7.91559
變	-7.91996
新	-7.92071
高	-7.9218
君子	-7.92335
各	-7.92398
衛	-7.9261
但	-7.92655
應	-7.92814
卿	-7.9288
省	-7.92992
帥	-7.93171
圖	-7.93318
共	-7.93567
誠	-7.93634
彼	-7.93658
開	-7.93662
陛下	-7.93827
望	-7.94627
疑	-7.94697
風	-7.94744
懼	-7.94909
氣	-7.95067
土	-7.95182
神	-7.9537
景	-7.95423
舊	-7.95727
)○	-7.95865
韓	-7.95907
不得	-7.96118
尊	-7.96147
載	-7.96297
吏	-7.96407
胡	-7.96574
保	-7.97006
拜	-7.97657
江	-7.98252
臨	-7.98503
輕	-7.98588
由	-7.98744
獻	-7.99001
口	-7.99055
錢	-7.99115
免	-7.99184
如此	-7.99226
宣	-7.99358
篇	-7.99577
汝	-7.99706
祖	-7.99731
號	-7.99765
全	-8.00468
刑	-8.00751
延	-8.0102
殺之	-8.01273
悉	-8.01687
幸	-8.0191
之事	-8.02081
司	-8.02203
車	-8.03006
八	-8.03018
疾	-8.03142
承	-8.03311
清	-8.03375
者也	-8.03765
貴	-8.0378
視	-8.0404
寧	-8.04043
納	-8.04146
嚴	-8.04177
盛	-8.04277
徐	-8.04412
破	-8.04453
盖	-8.04474
怒	-8.04869
左	-8.05246
蜀	-8.05403
越	-8.05484
私	-8.06783
所謂	-8.06995
近	-8.07166
曹	-8.07451
濟	-8.07513
百	-8.07632
才	-8.07952
率	-8.08138
萬	-8.0833
貶	-8.0855
退	-8.0885
次	-8.08912
收	-8.08951
比	-8.09047
七	-8.09264
素	-8.09341
隂	-8.09495
遺	-8.0967
圍	-8.10124
五年	-8.10204
孝	-8.10211
往	-8.10212
救	-8.10433
春	-8.10529
敬	-8.1084
商	-8.10854
棄	-8.11068
厚	-8.11076
順	-8.1108
教	-8.11092
大臣	-8.11656
禍	-8.11705
弟	-8.11732
存	-8.1177
不知	-8.12472
嗣	-8.12875
遇	-8.13216
將軍	-8.13267
職	-8.13492
不敢	-8.135
契丹	-8.13609
果	-8.13743
聲	-8.13803
奔	-8.13977
斬	-8.14041
遣使	-8.14219
禁	-8.14894
黄	-8.14991
叛	-8.15242
御	-8.15487
足	-8.15501
左右	-8.15751
崇	-8.1579
記	-8.15795
良	-8.16072
特	-8.16156
之意	-8.16346
說	-8.16715
對	-8.16802
龍	-8.16847
著	-8.17003
夷	-8.17117
昌	-8.17346
交	-8.1755
𤣥	-8.17987
逆	-8.18067
業	-8.18092
就	-8.18145
秋	-8.18173
考	-8.18209
老	-8.1838
叔	-8.18446
葢	-8.18483
解	-8.18653
兼	-8.19178
附	-8.19323
營	-8.19343
可以	-8.19464
專	-8.19498
責	-8.19768
孔子	-8.2003
聖	-8.20292
詳	-8.20372
夜	-8.2062
徙	-8.20744
至於	-8.20792
綱目	-8.20809
喜	-8.20854
推	-8.20974
餘	-8.20993
䇿	-8.21219
殷	-8.2124
永	-8.21293
堅	-8.21442
動	-8.21463
顧	-8.21548
之言	-8.21561
况	-8.21627
海	-8.21675
務	-8.21882
斷	-8.22043
俱	-8.22126
月	-8.22329
集	-8.225
勢	-8.22813
具	-8.22866
隋	-8.2319
布	-8.2325
仲	-8.23271
宰相	-8.23379
襲	-8.23472
怨	-8.23782
廣義	-8.23855
列	-8.24485
是以	-8.24949
操	-8.25125
追	-8.25546
久	-8.25582
病	-8.25589
懐	-8.25688
連	-8.2569
朕	-8.25695
真	-8.25775
華	-8.25972
原	-8.26363
屯	-8.26381
邑	-8.26784
由是	-8.26876
耶	-8.26903
莫	-8.26972
謂之	-8.27244
别	-8.27478
嘉	-8.27812
之心	-8.27963
六年	-8.28532
美	-8.28545
指	-8.28602
危	-8.28655
姓	-8.28655
温	-8.29364
極	-8.29466
朱	-8.29497
𢎞	-8.29559
走	-8.29634
容	-8.30018
唯	-8.30294
勸	-8.30477
再	-8.30499
小人	-8.30636
魏主	-8.3098
一統志云	-8.31001
要	-8.31027
迎	-8.31062
願	-8.31134
郭	-8.31174
虜	-8.31281
蕭	-8.31281
約	-8.31479
授	-8.31684
選	-8.32199
即位	-8.32299
并	-8.32628
扵	-8.32755
之所	-8.33138
里	-8.3351
繼	-8.33536
宻	-8.33604
殿	-8.33785
待	-8.34001
太宗	-8.3408
徒	-8.34243
京	-8.34344
畧	-8.34704
予	-8.34776
然後	-8.3488
愛	-8.35097
右	-8.35129
害	-8.3546
急	-8.35918
典	-8.36001
彊	-8.36097
每	-8.36192
昔	-8.36592
諫	-8.36648
結	-8.36755
設	-8.36883
斯	-8.37244
伏	-8.37309
林	-8.37443
周公	-8.37797
考異	-8.3787
申	-8.38004
勿	-8.382
登	-8.38515
而後	-8.38548
部	-8.38731
從之	-8.39087
嵗	-8.3917
之後	-8.39337
簡	-8.39518
皇	-8.39561
甲	-8.39639
顯	-8.39689
大夫	-8.39824
禹	-8.3983
武帝	-8.39922
儀	-8.3995
性	-8.40511
恩	-8.40672
患	-8.40938
之地	-8.41102
散	-8.4136
負	-8.41361
呉	-8.41379
持	-8.4149
衣	-8.41664
統	-8.41678
送	-8.41751
爵	-8.42239
聽	-8.42403
己	-8.42542
亮	-8.42556
被	-8.42819
便	-8.42975
不足	-8.43057
智	-8.43151
畏	-8.43169
詩	-8.43267
慶	-8.43269
讓	-8.43872
戒	-8.43879
移	-8.43906
化	-8.44003
强	-8.44369
獲	-8.44397
隨	-8.44435
羣臣	-8.44836
安石	-8.4501
報	-8.45073
監	-8.4509
室	-8.45478
養	-8.45581
乞	-8.45668
木	-8.45705
廟	-8.45709
寳	-8.45974
造	-8.46037
黨	-8.46056
祭	-8.46112
尤	-8.4614
祀	-8.46383
詣	-8.46528
榮	-8.46633
可謂	-8.46663
體	-8.46673
薄	-8.46695
謝	-8.46717
總	-8.46741
火	-8.46942
慮	-8.47075
决	-8.47178
色	-8.47228
暴	-8.47248
闗	-8.47379
弑	-8.47499
尋	-8.47617
末	-8.47672
司馬	-8.47847
縱	-8.47862
三月	-8.48175
茍	-8.4824
丁	-8.48366
太守	-8.48573
賞	-8.48717
杜	-8.48756
愚	-8.48773
寵	-8.48788
𫝊	-8.48868
質	-8.4914
類	-8.49162
為之	-8.49579
察	-8.4976
向	-8.49781
金人	-8.49954
敢	-8.50082
不從	-8.50187
謹	-8.5037
適	-8.50455
積	-8.50495
恭	-8.50716
康	-8.50913
舜	-8.50976
屢	-8.51004
塞	-8.51103
福	-8.51128
天下之	-8.51483
弱	-8.51621
之罪	-8.51738
憂	-8.5174
邊	-8.51833
冦	-8.51891
爭	-8.51914
乗	-8.5194
休	-8.52203
器	-8.52208
臺	-8.52256
中國	-8.52325
雲	-8.52332
録	-8.52551
匈奴	-8.53395
關	-8.53413
酒	-8.53459
獄	-8.53509
咸	-8.5356
聖人	-8.53731
百姓	-8.53815
情	-8.5389
脩	-8.53937
惠	-8.5415
領	-8.54198
傷	-8.54326
手	-8.54345
綱	-8.54359
尚書	-8.54572
薦	-8.54654
仍	-8.5478
不書	-8.54829
乘	-8.54963
象	-8.5502
輔	-8.55028
騎	-8.55096
虞	-8.55209
孟	-8.55239
皇后	-8.55297
蔡	-8.55301
給	-8.55601
於此	-8.55736
述	-8.55926
之子	-8.5594
玉	-8.56042
對曰	-8.56161
虎	-8.56295
諸將	-8.56381
戎	-8.56396
以來	-8.5644
侵	-8.56605
羣	-8.56628
赦	-8.56647
族	-8.56889
垂	-8.56989
澤	-8.57071
長安	-8.57391
曰吾	-8.57599
之間	-8.5765
鄉	-8.57679
誤	-8.57716
莽	-8.57886
第	-8.57895
草	-8.58096
七年	-8.58298
歴	-8.58478
喪	-8.58525
逐	-8.58547
習	-8.58698
奪	-8.59103
客	-8.59256
盟	-8.59285
吕	-8.59323
當時	-8.59592
期	-8.59726
充	-8.59759
博	-8.59762
微	-8.60131
勞	-8.60138
役	-8.60171
沈	-8.60218
淵	-8.6026
雄	-8.60295
曲	-8.60375
籍	-8.60411
之道	-8.60999
徴	-8.6119
州刺史	-8.61242
訓	-8.61274
切	-8.61455
泰	-8.61546
者皆	-8.61572
案	-8.61831
依	-8.61891
足以	-8.62147
八年	-8.62385
是也	-8.62406
皇帝	-8.62536
史記	-8.62668
端	-8.62737
紹	-8.62741
假	-8.62841
野	-8.62852
彦	-8.63606
也故	-8.63611
達	-8.63629
市	-8.63635
節度使	-8.63804
厥	-8.63882
富	-8.63991
無所	-8.6401
序	-8.64078
密	-8.64166
聞之	-8.64445
窮	-8.64561
呼	-8.64731
賦	-8.64864
卷	-8.64924
舍	-8.65101
未嘗	-8.6513
靈	-8.65153
竊	-8.65162
哀	-8.65172
補	-8.65651
識	-8.65696
㧞	-8.65774
其後	-8.65867
飛	-8.66031
後世	-8.66123
虚	-8.66238
犯	-8.66364
諌	-8.66496
衰	-8.66704
頭	-8.66835
孔	-8.66902
遼	-8.67016
放	-8.67037
賀	-8.6756
然則	-8.67566
抑	-8.67631
䝉古	-8.6773
書曰	-8.67947
洛	-8.6813
湯	-8.6821
弗	-8.68449
俗	-8.68517
陷	-8.68533
之時	-8.68586
資	-8.68703
息	-8.68805
崔	-8.69038
辨	-8.69345
逹	-8.69407
六月	-8.69452
嗚呼	-8.69565
會	-8.69685
争	-8.6969
闕	-8.69895
聚	-8.69983
助	-8.70334
未有	-8.70448
自是	-8.70494
其所	-8.70512
憲	-8.70605
来	-8.70929
崩	-8.70949
何以	-8.71032
均	-8.7107
賈	-8.71507
敕	-8.71564
丘	-8.71582
蘇	-8.71592
離	-8.71615
不如	-8.7188
愈	-8.72042
隆	-8.72178
注見漢	-8.72191
雜	-8.72337
季	-8.72449
不以	-8.72482
二月	-8.72625
葬	-8.72689
撰	-8.72882
䘮	-8.72934
他	-8.73095
譏	-8.73116
遽	-8.73198
累	-8.73245
青	-8.73335
勇	-8.73555
徃	-8.73668
條	-8.73719
參	-8.74106
擇	-8.74195
違	-8.74353
之法	-8.74456
辱	-8.74468
妻	-8.7461
險	-8.7462
竟	-8.74648
烏	-8.74658
精	-8.74737
例	-8.74747
掌	-8.74802
費	-8.74864
斬之	-8.75043
䧟	-8.75231
詞	-8.75231
孤	-8.75429
頗	-8.75519
援	-8.75624
阿	-8.75728
丞相	-8.75772
吉	-8.75848
施	-8.75849
兄	-8.75859
征	-8.76029
委	-8.76229
京師	-8.76259
國家	-8.76287
河南	-8.76455
庶	-8.76508
川	-8.76602
有所	-8.76757
十二月	-8.76956
九年	-8.77035
宋主	-8.77231
雍	-8.77323
格	-8.77331
折	-8.7735
冠	-8.77366
徵	-8.77501
姦	-8.7751
傅	-8.77521
九月	-8.77524
晋	-8.77567
衡	-8.77586
豐	-8.77667
歟	-8.77679
示	-8.77797
乆	-8.77896
范	-8.77968
律	-8.78151
千	-8.78272
勒	-8.78279
貪	-8.78386
郡名注見	-8.78466
運	-8.78517
辟	-8.78538
懷	-8.78557
河北	-8.78718
星	-8.78836
縣屬	-8.78979
唐主	-8.79147
撫	-8.79395
堯	-8.79799
不過	-8.79821
遊	-8.79827
河東	-8.80009
英	-8.80199
兄弟	-8.80307
不許	-8.80407
盗	-8.80432
督	-8.80447
羅	-8.80582
夀	-8.80588
牛	-8.80938
洛陽	-8.811
詐	-8.81116
竒	-8.81282
突厥	-8.8129
之士	-8.81306
冬十月	-8.81379
財	-8.81506
四方	-8.8193
忌	-8.82057
横	-8.82461
八月	-8.8252
速	-8.826
也今	-8.82645
冀	-8.82647
郎	-8.82672
似	-8.83009
革	-8.83103
貞	-8.83164
趨	-8.83369
夏四月	-8.83386
屈	-8.83457
吐蕃	-8.83696
五月	-8.83933
二人	-8.84182
一人	-8.84204
逸	-8.8457
防	-8.84639
儒	-8.84688
鼎	-8.8478
夫人	-8.85116
幾	-8.8513
公主	-8.85143
拒	-8.85158
是時	-8.85282
震	-8.85341
覆	-8.85375
避	-8.85514
社稷	-8.85518
人主	-8.85595
毁	-8.85744
不復	-8.8578
之禍	-8.85919
戍	-8.86126
桓	-8.86247
旣	-8.86322
之人	-8.86468
感	-8.86482
超	-8.86666
漸	-8.87172
偽	-8.87211
文帝	-8.87245
允	-8.87321
禄	-8.87322
既而	-8.87422
符	-8.87545
升	-8.87635
淮	-8.8767
韋	-8.87683
十一月	-8.87938
幽	-8.88112
上書	-8.88212
佐	-8.88393
裕	-8.88404
射	-8.88479
陸	-8.88584
秋七月	-8.88656
寛	-8.88711
苦	-8.8892
穆	-8.89055
毎	-8.89094
形	-8.89252
十年	-8.893
㣲	-8.89455
干	-8.89542
赴	-8.89543
源	-8.89617
不為	-8.8973
薛	-8.89733
堂	-8.89782
縣名注見	-8.89855
寜	-8.89884
人心	-8.89894
欺	-8.90018
某	-8.9005
太祖	-8.90207
削	-8.90458
襄	-8.90588
其子	-8.90588
侍	-8.90678
倫	-8.90788
殊	-8.90832
稍	-8.90841
之功	-8.90974
豫	-8.91028
須	-8.91044
父子	-8.91045
十二	-8.91327
人君	-8.91437
舟	-8.91557
轉	-8.91638
僧	-8.9171
班	-8.91983
必有	-8.92045
妄	-8.92112
誣	-8.92265
邦	-8.92482
畫	-8.92662
輙	-8.92752
築	-8.92846
其事	-8.92849
衞	-8.9288
循	-8.92882
招	-8.93007
羽	-8.93027
先是	-8.93096
髙祖	-8.93209
疏	-8.93367
鄧	-8.93445
飲	-8.9353
刺	-8.93878
宿	-8.93987
揚	-8.94035
肅	-8.94088
而無	-8.94302
刺史	-8.94368
浚	-8.94495
雅	-8.94555
婦	-8.94671
歲	-8.94738
空	-8.94786
不及	-8.94874
今按	-8.95073
決	-8.95078
之義	-8.95087
盧	-8.95103
公子	-8.95127
忽	-8.95361
子孫	-8.95388
使人	-8.9541
妃	-8.95557
兒	-8.9557
也夫	-8.95584
畢	-8.95597
是為	-8.95657
君臣	-8.95659
士卒	-8.95686
隱	-8.96036
斥	-8.96121
忘	-8.96215
試	-8.9623
宮	-8.96258
審	-8.96262
逼	-8.96411
讀	-8.96488
㫖	-8.96547
入朝	-8.96672
宦官	-8.96712
滿	-8.96737
衍	-8.96779
諭	-8.96936
友	-8.96991
馮	-8.97016
誰	-8.97224
秀	-8.97239
増	-8.97278
機	-8.97279
誘	-8.97625
烈	-8.97721
肆	-8.98008
藏	-8.98028
剛	-8.98079
朔	-8.98085
講	-8.98308
校	-8.98404
則其	-8.98426
正誤	-8.9844
之臣	-8.98521
振	-8.98575
接	-8.98672
背	-8.98698
辛	-8.98762
擊之	-8.98833
弼	-8.98975
引兵	-8.9932
祠	-8.9938
百官	-8.99402
牧	-8.99598
謙	-8.99607
十二年	-8.99905
庸	-8.99929
勤	-8.99931
魚	-9.00247
齊主	-9.00263
之徒	-9.00276
敦	-9.00396
故曰	-9.00655
厯	-9.00808
豈不	-9.00855
淮南	-9.00989
隠	-9.01147
也然	-9.0117
旦	-9.01292
不然	-9.01327
寺	-9.01357
胡氏曰	-9.01381
則是	-9.01381
馳	-9.01501
惑	-9.01661
郊	-9.01693
刻	-9.01753
句	-9.01822
成王	-9.01982
歡	-9.01982
趣	-9.02016
廷	-9.02098
𨽻	-9.02169
介	-9.02354
境	-9.02466
俊	-9.02485
出於	-9.02571
凶	-9.02577
赤	-9.0264
其罪	-9.02715
髙宗	-9.02789
有罪	-9.02861
庭	-9.02878
遠	-9.02896
略	-9.02906
恒	-9.03085
知其	-9.03151
其言	-9.03163
莊	-9.03164
損	-9.03271
荒	-9.03296
農	-9.03527
曰此	-9.03643
一作	-9.03709
浮	-9.0376
恨	-9.04089
雨	-9.04192
甚矣	-9.04197
術	-9.04237
御史	-9.0427
之際	-9.04567
董	-9.04609
乾	-9.04775
冬	-9.0488
谷	-9.04949
言之	-9.04991
蔽	-9.05141
許之	-9.05385
歳	-9.05388
慎	-9.05423
勲	-9.05454
政事	-9.05677
用之	-9.05686
預	-9.05997
面	-9.05998
卑	-9.06116
江南	-9.06134
索	-9.06411
掠	-9.06411
驕	-9.06712
仕	-9.06796
投	-9.07165
使者	-9.0719
武王	-9.07222
䝉	-9.073
鹽	-9.07359
貫	-9.07433
梁主	-9.07455
節度	-9.07585
葉	-9.07936
霸	-9.07953
工	-9.07977
壽	-9.08005
貢	-9.08235
遵	-9.08361
可汗	-9.08558
甫	-9.08754
最	-9.08788
橋	-9.08863
儉	-9.09161
繫	-9.09317
翼	-9.0933
縣名	-9.09376
漢書	-9.09416
導	-9.09542
支	-9.09575
柔	-9.09588
單于	-9.09594
宴	-9.09596
辰	-9.09835
羌	-9.09903
荆州	-9.09918
種	-9.09992
國之	-9.10056
是年	-9.10107
奴	-9.10116
擒	-9.10225
笑	-9.10254
裴	-9.10272
宦者	-9.10326
邉	-9.10481
管	-9.10611
啟	-9.10734
傾	-9.10752
上曰	-9.10845
厲	-9.10982
在位	-9.11077
焚	-9.11148
困	-9.11159
回	-9.11203
逃	-9.11248
賤	-9.11305
毛	-9.1149
囚	-9.11519
材	-9.11668
之世	-9.11676
飾	-9.11739
不克	-9.11763
文王	-9.11803
袁	-9.12111
歌	-9.1239
丹	-9.12397
書之	-9.1242
中原	-9.12809
念	-9.12814
榖	-9.12846
薨	-9.12922
户	-9.13175
偏	-9.13266
天地	-9.13404
伊	-9.13408
奮	-9.13434
俟	-9.13472
半	-9.13505
黜	-9.13549
佛	-9.1355
卓	-9.13574
殆	-9.13647
春正月	-9.13777
雖有	-9.13832
叙	-9.13878
自殺	-9.13962
茂	-9.13988
尹	-9.14035
差	-9.14111
程	-9.14186
辯	-9.14343
今日	-9.14347
奚	-9.14799
顔	-9.14805
池	-9.14942
欲以	-9.14989
量	-9.15064
策	-9.1508
没	-9.15086
左氏曰	-9.15107
専	-9.1512
悦	-9.15136
之志	-9.15148
鄴	-9.15187
至于	-9.15187
人之	-9.15204
災	-9.15249
糧	-9.15378
太原	-9.15481
峻	-9.15531
有司	-9.15664
姑	-9.15747
希	-9.15853
享	-9.15964
金主	-9.16055
䕶	-9.1606
蠻	-9.16333
誓	-9.16353
故事	-9.16358
而死	-9.16394
二十	-9.16465
中書	-9.1652
郡名	-9.16601
兹	-9.16702
盜	-9.16789
鼓	-9.16872
其心	-9.16929
輸	-9.1699
全忠	-9.17391
宗廟	-9.17621
湖	-9.17686
與之	-9.1773
效	-9.17917
采	-9.18103
太平	-9.18124
至此	-9.18299
而還	-9.18685
不至	-9.18686
付	-9.18725
忍	-9.18767
諸軍	-9.18795
洪	-9.18805
錯	-9.18823
一日	-9.18842
捕	-9.1893
院	-9.18965
㓂	-9.18987
昏	-9.1901
啓	-9.19092
卜	-9.19172
落	-9.1927
欽	-9.19565
副	-9.19643
短	-9.19663
擅	-9.19828
船	-9.20451
吴	-9.20458
妾	-9.20509
有功	-9.20544
編	-9.20858
孟子	-9.20894
規	-9.21102
沮	-9.21342
上下	-9.21382
諱	-9.21418
者矣	-9.21447
寶	-9.21511
奈何	-9.21675
饑	-9.21707
同平章事	-9.21787
狀	-9.2181
之説	-9.21945
調	-9.21998
悔	-9.22207
恃	-9.22292
僅	-9.22335
驚	-9.2244
託	-9.2254
討之	-9.22576
之不	-9.22615
減	-9.22645
中外	-9.22697
高宗	-9.22704
貨	-9.22813
山東	-9.22884
角	-9.22891
用兵	-9.22965
津	-9.23082
凖	-9.23111
憤	-9.23123
沒	-9.23132
祚	-9.2323
懿	-9.23534
可也	-9.23655
否	-9.23795
亭	-9.24204
續	-9.2424
戮	-9.24279
錄	-9.24318
謁	-9.24353
寒	-9.24371
取之	-9.24513
又曰	-9.24623
誅之	-9.24717
藩	-9.24792
甘	-9.24844
死者	-9.25107
以此	-9.25209
輿	-9.25281
割	-9.25314
鄙	-9.25406
曰今	-9.25498
以下	-9.2554
弊	-9.25549
抗	-9.25655
千里	-9.25848
不用	-9.25898
無罪	-9.25936
渠	-9.26098
將兵	-9.26175
曰我	-9.26194
紂	-9.26255
賔	-9.26273
亟	-9.26321
毒	-9.26395
潰	-9.26453
狄	-9.26484
内外	-9.26564
優	-9.26655
余	-9.26754
寡	-9.26808
十五年	-9.26822
不同	-9.26831
起兵	-9.27097
泉	-9.27124
前後	-9.2725
毋	-9.27262
輩	-9.27306
舒	-9.27323
光武	-9.27436
成都	-9.27627
乃以	-9.27667
不可以	-9.27708
故也	-9.27755
綱目書	-9.27816
浩	-9.27862
屠	-9.27879
宏	-9.27949
改為	-9.28
之勢	-9.28036
猛	-9.2804
之君	-9.28224
曾	-9.28657
羊	-9.28675
罰	-9.28713
之計	-9.28915
露	-9.29077
姬	-9.29084
江陵	-9.29363
樓	-9.29522
之類	-9.29665
公卿	-9.29667
不忍	-9.29727
筆	-9.29991
沙	-9.30033
惜	-9.30166
都督	-9.30233
根	-9.30327
侍中	-9.30511
以其	-9.3055
其君	-9.3056
藥	-9.30608
房	-9.30616
細	-9.30841
不聽	-9.30857
荆	-9.31099
為相	-9.31166
一旦	-9.31402
渡	-9.31445
左傳	-9.31502
怪	-9.3151
將士	-9.31544
咎	-9.31564
尉	-9.31636
矣然	-9.31652
潜	-9.31707
自古	-9.31725
科	-9.31813
竭	-9.31869
宰	-9.31923
之謀	-9.31947
之名	-9.31978
之初	-9.32073
㡬	-9.32085
行之	-9.32105
城中	-9.32111
奸	-9.32166
候	-9.32215
宅	-9.32293
歩	-9.32343
殺其	-9.32404
括	-9.32446
帝曰	-9.32476
僕	-9.3262
早	-9.32627
扶	-9.32663
基	-9.33078
而去	-9.33265
先帝	-9.33342
普	-9.33394
珪	-9.3348
壊	-9.33507
履	-9.33704
淫	-9.33712
則書	-9.33963
巴	-9.3411
鑒	-9.34231
不若	-9.34277
幽州	-9.34393
亦不	-9.34537
文公	-9.34546
恥	-9.34781
十一年	-9.34851
戸	-9.34859
諸王	-9.34868
襄陽	-9.3523
莫不	-9.35256
丕	-9.35457
十月	-9.35478
聴	-9.35489
諡	-9.35719
粟	-9.35906
珍	-9.36143
濬	-9.36162
賛	-9.3626
借	-9.36287
宣帝	-9.36391
緩	-9.36527
靖	-9.36587
褒	-9.36642
未幾	-9.36735
竄	-9.36767
配	-9.36771
蒲	-9.36885
揚州	-9.36917
之所以	-9.36927
談	-9.37035
豪	-9.37036
誕	-9.37064
檜	-9.37175
十三年	-9.37206
游	-9.37259
戲	-9.37277
巧	-9.37321
謬	-9.37335
煩	-9.37434
桑	-9.37451
擾	-9.37485
徽宗	-9.37527
閣	-9.37531
繁	-9.37553
旁	-9.37566
南陽	-9.37607
宗室	-9.37646
三十	-9.37656
建康	-9.37666
復為	-9.37756
晦	-9.37835
祥	-9.37882
又以	-9.38023
夷狄	-9.38045
四月	-9.38121
之亂	-9.38151
訪	-9.38285
罔	-9.38298
雪	-9.38337
賣	-9.38339
驗	-9.38343
此書	-9.38538
聼	-9.38606
純	-9.38657
彌	-9.38758
羙	-9.38775
名注見	-9.38941
耻	-9.38967
及其	-9.38983
用事	-9.39083
式	-9.39113
自稱	-9.39306
大將軍	-9.39333
不當	-9.39356
悟	-9.39378
之故	-9.39457
日格子曰	-9.39694
界	-9.39827
如是	-9.39848
不受	-9.39869
庫	-9.39976
蔡京	-9.40002
敏	-9.40058
陶	-9.40115
耕	-9.40168
單	-9.40185
靡	-9.40215
桓公	-9.40223
彭	-9.40277
融	-9.40338
五代	-9.40368
長史	-9.4039
乙	-9.40392
戴	-9.40417
維	-9.40517
翰	-9.4072
或曰	-9.40747
禦	-9.40751
先王	-9.40851
姚	-9.40881
攝	-9.41128
東漢	-9.41417
哭	-9.41445
樹	-9.4152
受命	-9.41546
匡	-9.41674
讐	-9.41704
岐	-9.41714
晏	-9.41755
矯	-9.41775
伊尹	-9.41814
輒	-9.4182
不足以	-9.41823
孰	-9.41876
之禮	-9.41891
署	-9.42002
忿	-9.42004
前書	-9.42116
判	-9.42161
庚	-9.42183
鹿	-9.42217
是非	-9.42291
迹	-9.42423
汴	-9.42481
之於	-9.42597
盈	-9.42601
古之	-9.42612
不肯	-9.42655
用左	-9.42742
況	-9.42804
十四年	-9.42813
秦王	-9.42877
大敗	-9.42901
匿	-9.42915
劾	-9.42972
十五	-9.42978
嶺	-9.42989
井	-9.43148
世家	-9.43191
印	-9.43429
東南	-9.4343
太尉	-9.43494
遜	-9.43497
文武	-9.4353
天命	-9.43553
鍾	-9.43564
州縣	-9.43652
世子	-9.43755
不行	-9.43774
彭城	-9.43862
四海	-9.43917
到	-9.43952
錫	-9.44012
陰	-9.44064
改元	-9.44088
是故	-9.44113
學士	-9.44139
之中	-9.44142
知之	-9.44147
高祖	-9.44167
寇	-9.44215
之失	-9.44268
之上	-9.44312
豈可	-9.44414
渾	-9.44451
階	-9.44563
舉兵	-9.44649
寅	-9.44662
刀	-9.44735
言於	-9.44738
三公	-9.44892
虛	-9.44982
救之	-9.45143
巳	-9.45276
米	-9.45306
西北	-9.45345
幹	-9.45359
攻之	-9.45387
恤	-9.45403
肅宗	-9.45417
牙	-9.45473
創	-9.45623
公孫	-9.45657
植	-9.45657
苑	-9.45732
正月	-9.4587
世祖	-9.45872
勉	-9.45969
併	-9.45982
冊	-9.46024
其國	-9.46067
刼	-9.46178
貌	-9.46191
晉陽	-9.46255
恕	-9.46414
竹	-9.46488
作亂	-9.46565
擢	-9.46608
即此	-9.46731
司徒	-9.46776
猶言	-9.46808
虐	-9.46918
提	-9.46947
矣故	-9.46951
江淮	-9.46988
鑄	-9.46992
杖	-9.47126
之政	-9.47166
倚	-9.47226
産	-9.47252
驅	-9.47502
郡縣	-9.47594
予之	-9.47599
泣	-9.47827
仁宗	-9.4786
人皆	-9.4796
藉	-9.48005
曽	-9.48006
皆以	-9.48012
禮樂	-9.48077
駕	-9.48191
夫子	-9.48199
姓名	-9.48289
熈	-9.48384
覺	-9.48389
齊王	-9.48395
憲宗	-9.48473
裁	-9.48505
雷	-9.48506
踰	-9.48582
賂	-9.48586
乂	-9.48633
慕	-9.48638
竇	-9.48642
則有	-9.48682
徽	-9.48726
一時	-9.48852
之命	-9.48866
壯	-9.48909
朗	-9.48985
其意	-9.49039
寄	-9.49057
静	-9.49131
血	-9.49232
答	-9.49271
倉	-9.4961
厭	-9.4968
上言	-9.49715
屋	-9.49889
以示	-9.50029
明日	-9.5015
覽	-9.5017
歛	-9.50179
而不知	-9.50194
蕩	-9.50249
不欲	-9.50297
曹操	-9.50317
不相	-9.50325
乃止	-9.50339
肉	-9.50426
他日	-9.50436
學者	-9.50465
痛	-9.50528
蕃	-9.50598
豈非	-9.50731
為太子	-9.50792
子弟	-9.50916
丙	-9.50966
閉	-9.50969
麟	-9.51076
佞	-9.5111
武氏	-9.51113
代之	-9.51292
明帝	-9.51295
七月	-9.51317
寢	-9.51317
本紀	-9.51329
郢	-9.51342
遭	-9.51388
夲	-9.51462
贈	-9.51479
眞	-9.5153
却	-9.51663
觧	-9.51692
淺	-9.51705
拔	-9.51719
舞	-9.51737
其名	-9.51824
伏誅	-9.51827
巢	-9.51842
品	-9.51895
邵	-9.51903
徐州	-9.51931
之師	-9.51978
不見	-9.52046
十三	-9.52139
午	-9.5225
先生	-9.52336
執政	-9.52369
贊	-9.52381
戚	-9.52403
諷	-9.52607
無不	-9.52627
不宜	-9.52804
元帝	-9.52847
松	-9.52875
其衆	-9.52939
供	-9.52953
掩	-9.52996
發兵	-9.52996
亦有	-9.53033
釁	-9.53187
克用	-9.53261
於天下	-9.53481
側	-9.53582
破之	-9.53644
富貴	-9.53647
戰國	-9.53711
仗	-9.53733
占	-9.5385
所為	-9.53892
不與	-9.53922
尺	-9.53982
澄	-9.53999
中宗	-9.54013
鳴	-9.54069
皮	-9.54099
岳	-9.54227
其身	-9.54267
元祐	-9.54417
廵	-9.54419
兮	-9.54462
頃	-9.54581
鳥	-9.54767
大事	-9.5477
正義曰	-9.54783
當作	-9.54905
堯舜	-9.54929
激	-9.54962
尾	-9.54965
慈	-9.54991
彰	-9.55038
骨	-9.55041
挾	-9.55048
潛	-9.55058
軍士	-9.55082
帶	-9.55141
南北	-9.55153
遁	-9.55243
園	-9.55307
通鑑	-9.55417
以後	-9.55567
壬	-9.55608
之衆	-9.55645
三日	-9.55684
西域	-9.55707
齊人	-9.55719
夾	-9.55876
舎	-9.55956
凉	-9.55958
鳳	-9.5603
藩鎮	-9.56081
何如	-9.56104
黄帝	-9.56244
強	-9.5631
詔以	-9.56522
範	-9.5653
旱	-9.56546
父母	-9.56552
斗	-9.5656
栁	-9.56583
若此	-9.56623
寃	-9.56801
壁	-9.56829
譽	-9.5691
鐵	-9.57155
使之	-9.57171
聘	-9.57202
觀之	-9.57229
周主	-9.57251
館	-9.57253
尸	-9.57319
豈有	-9.57435
觀其	-9.57439
特書	-9.57453
鳯	-9.57461
缺	-9.57537
禪	-9.57541
整	-9.57562
限	-9.57619
懲	-9.57798
民之	-9.5784
熊	-9.57848
社	-9.58
廣陵	-9.58052
君之	-9.58125
倍	-9.58141
渉	-9.58165
秩	-9.58211
司空	-9.58305
東都	-9.58369
不得已	-9.58369
曰臣	-9.58395
警	-9.58462
增	-9.58519
不言	-9.58553
也其	-9.58571
十一	-9.58586
相繼	-9.58616
五十	-9.58622
死之	-9.58666
淳	-9.58671
日食	-9.58784
𦙍	-9.58806
㑹稽	-9.5882
士大夫	-9.58821
席	-9.58824
人臣	-9.58974
顔師古曰	-9.59003
建安	-9.5901
之民	-9.59091
募	-9.59103
之日	-9.59247
徳宗	-9.59251
覇	-9.59364
明皇	-9.59404
軌	-9.59412
得以	-9.59445
徑	-9.59473
地震	-9.59608
突	-9.59631
王者	-9.59673
兆	-9.59694
員	-9.59697
中山	-9.59724
未可	-9.59753
其人	-9.59759
濫	-9.5978
墨	-9.59894
而立	-9.59922
躬	-9.59974
討賊	-9.60006
幣	-9.6011
税	-9.60126
者乎	-9.60277
桀	-9.60365
而不能	-9.6043
晟	-9.60514
致仕	-9.60543
龜	-9.60594
見其	-9.60659
其地	-9.60671
證	-9.60721
喻	-9.60733
衝	-9.60755
篤	-9.60845
得其	-9.60891
十六年	-9.60944
秉	-9.60951
劉氏	-9.61088
仙	-9.61292
步	-9.61382
左氏	-9.61513
軍中	-9.61544
亷	-9.61699
鎭	-9.61707
熟	-9.61766
古者	-9.61944
疎	-9.62048
蘭	-9.62071
皆有	-9.62087
惡之	-9.62092
閔	-9.6213
樊	-9.62175
契	-9.62302
婦人	-9.6231
之辭	-9.62575
名也	-9.62689
銅	-9.62694
屏	-9.62733
醜	-9.62747
二子	-9.62757
頓	-9.62772
萬人	-9.62781
撃	-9.6283
捨	-9.62852
悲	-9.62917
傳曰	-9.62931
人也	-9.62944
翟	-9.62949
王室	-9.63247
祿	-9.63295
陣	-9.63354
明年	-9.63563
憚	-9.63687
奢	-9.63696
而已矣	-9.63749
脱	-9.63833
以爲	-9.63901
得之	-9.63948
大義	-9.64029
遣人	-9.64075
不明	-9.64085
臧	-9.64119
京兆	-9.64123
神宗	-9.64285
二字	-9.64311
狂	-9.64427
出入	-9.64433
歎	-9.64547
壞	-9.64548
墓	-9.64597
燒	-9.64686
盤	-9.64764
齊侯	-9.648
阻	-9.64946
丞	-9.64987
之變	-9.65037
漏	-9.651
安得	-9.65339
齒	-9.65395
競	-9.65408
陜	-9.65458
俾	-9.65477
十六	-9.65571
所在	-9.65721
本朝	-9.65753
愧	-9.65775
其父	-9.65892
稱帝	-9.65925
遣兵	-9.65982
其黨	-9.66198
不出	-9.66207
侈	-9.66365
王子	-9.66411
忠義	-9.66502
僣	-9.66524
三代	-9.66557
荀	-9.66561
何為	-9.66703
㤗	-9.66707
誥	-9.66717
十四	-9.6672
古人	-9.66733
也若	-9.66812
參知政事	-9.66832
相與	-9.66843
嵩	-9.66854
獵	-9.66881
祐	-9.66882
矢	-9.66993
官爵	-9.67021
稷	-9.67055
諸州	-9.67097
乖	-9.6715
爽	-9.67179
有餘	-9.67182
恪	-9.6724
攸	-9.67268
殘	-9.67409
不在	-9.67553
管仲	-9.67555
仰	-9.6772
鋭	-9.67721
㓜	-9.67737
乏	-9.67815
鬼	-9.67829
拒之	-9.67841
怠	-9.67867
鄭伯	-9.67964
麗	-9.68079
子曰	-9.68144
帝王	-9.68297
州郡	-9.68434
海内	-9.68467
祖宗	-9.68478
緒	-9.68507
𤣥宗	-9.68543
邀	-9.68568
者亦	-9.68673
十七年	-9.6874
之役	-9.68857
不已	-9.68904
宛	-9.69036
之下	-9.69061
畜	-9.69152
稅	-9.69182
檢	-9.69247
堪	-9.69268
黙	-9.69317
儲	-9.69375
宼	-9.69403
銀	-9.69431
秋八月	-9.69488
注見晉	-9.69494
十萬	-9.69587
貞觀	-9.69631
完	-9.69864
匹	-9.69872
拘	-9.6995
浸	-9.69971
考證	-9.69991
其實	-9.7
之患	-9.70118
穀	-9.7018
幼	-9.70182
綏	-9.70225
遲	-9.7031
楚子	-9.70313
貳	-9.70392
因之	-9.70483
藝	-9.70493
僕射	-9.70641
迫	-9.70697
妖	-9.70717
賢者	-9.70726
貧	-9.7075
稽	-9.70799
逮	-9.70866
無以	-9.70875
東魏	-9.70967
溪	-9.71017
曰君	-9.71039
曰昔	-9.71317
瑞	-9.71396
育	-9.7142
未至	-9.71465
其間	-9.71628
者不	-9.71674
其民	-9.71678
二州名	-9.71705
殺人	-9.71726
擬	-9.71785
不勝	-9.7184
又有	-9.71877
漢中	-9.71929
成功	-9.72001
開元	-9.72005
成帝	-9.72078
提要	-9.7211
殂	-9.72151
毅	-9.7221
不免	-9.72358
曉	-9.72383
夢	-9.72449
曰陛下	-9.72466
圗	-9.72505
此其	-9.7252
纂	-9.72531
者必	-9.72622
似道	-9.7283
史官	-9.72863
弓	-9.72867
而卒	-9.72889
之術	-9.72957
文宗	-9.73097
跡	-9.73123
仇	-9.7317
以待	-9.73194
郡名注見漢	-9.73219
巖	-9.73243
抵	-9.73265
然而	-9.73403
葛	-9.7351
樞	-9.73554
瓊	-9.73601
侮	-9.73652
讒	-9.73869
上疏	-9.73917
丑	-9.73931
言其	-9.73985
絳	-9.74069
呂	-9.74084
収	-9.74154
上皇	-9.74245
矜	-9.74353
人情	-9.74417
係	-9.74418
䟽	-9.74519
黒	-9.74604
環	-9.74627
肇	-9.74694
閲	-9.74723
何哉	-9.74772
册	-9.74811
所殺	-9.74935
以兵	-9.75051
嫌	-9.75069
鑿	-9.75076
不應	-9.7522
分注	-9.75302
其志	-9.75374
復置	-9.75399
訴	-9.7541
晉侯	-9.75464
含	-9.75478
之制	-9.75487
地名	-9.75526
東西	-9.75552
夏五月	-9.75597
暉	-9.75601
㨗	-9.75908
塗	-9.76142
詭	-9.76232
本傳	-9.763
益州	-9.76327
狐	-9.76423
壘	-9.76444
雞	-9.7655
疆	-9.76556
冲	-9.76566
戾	-9.76583
束	-9.76611
旅	-9.76652
窺	-9.76662
擁	-9.76817
陜西	-9.7683
曜	-9.7688
建武	-9.76886
書殺	-9.76968
垣	-9.77003
而有	-9.77068
等皆	-9.77099
讎	-9.77145
歸之	-9.77287
何其	-9.77341
大業	-9.77443
而又	-9.77457
謗	-9.7746
之才	-9.77465
未聞	-9.77573
為人	-9.77577
琳	-9.77591
癸	-9.77644
晉王	-9.77668
以告	-9.77755
涉	-9.7779
戊	-9.77803
履祥按	-9.77843
帛	-9.78054
珠	-9.7807
十七	-9.7818
臣祖禹曰	-9.78181
快	-9.78192
舅	-9.78273
見之	-9.78285
譙	-9.78407
祿山	-9.78475
於外	-9.78494
宫室	-9.78705
可見	-9.78772
進退	-9.78793
柄	-9.78805
朔方	-9.78848
副使	-9.78871
諸子	-9.78893
買	-9.78894
哲	-9.78917
茅	-9.78938
偉	-9.78945
慕容	-9.78954
較	-9.78973
其勢	-9.78997
得失	-9.79045
妻子	-9.79051
中興	-9.79055
功臣	-9.791
世民	-9.79133
廬	-9.79134
渭	-9.79176
東北	-9.79281
大怒	-9.79311
無忌	-9.7936
流涕	-9.79384
孫權	-9.79411
遼東	-9.79531
俘	-9.79559
失之	-9.79568
析	-9.79628
百里	-9.79683
簒	-9.7969
劒	-9.79758
漢之	-9.79779
之論	-9.7991
去聲	-9.79916
多矣	-9.80019
其家	-9.80023
璽	-9.80076
肥	-9.8011
旗	-9.80127
軰	-9.80131
巴延	-9.80151
照	-9.80174
泰山	-9.80177
曰朕	-9.80181
為政	-9.80212
眀	-9.80216
代宗	-9.80283
何也	-9.80351
岸	-9.80377
男	-9.80403
𦵏	-9.80513
取其	-9.80542
邢	-9.80566
宇	-9.80641
之國	-9.80649
詰	-9.80665
従	-9.80783
十九年	-9.80898
採	-9.809
巫	-9.80954
三人	-9.80966
伸	-9.80974
燕王	-9.81032
風俗	-9.81045
安國	-9.81061
溺	-9.81077
二十年	-9.81159
巨	-9.81163
譛	-9.81264
明矣	-9.81275
鸞	-9.81305
麻	-9.81314
嫁	-9.81332
排	-9.81353
博士	-9.8136
子儀	-9.81458
弟子	-9.81458
也於是	-9.81464
滋	-9.81484
監軍	-9.81485
數萬	-9.81525
娶	-9.81684
羡	-9.81714
穿	-9.81717
昬	-9.81729
胥	-9.81743
台	-9.81782
劭	-9.81828
關中	-9.81889
閩	-9.8189
可知矣	-9.8192
朱子	-9.81976
檄	-9.82005
待之	-9.82088
縁	-9.82129
冬十一月	-9.82162
其功	-9.82213
為國	-9.82315
之文	-9.82317
隙	-9.8247
國人	-9.82499
青州	-9.82504
髪	-9.82524
遏	-9.82545
姜	-9.82732
世宗	-9.82788
無功	-9.82865
噫	-9.82882
滛	-9.82912
誼	-9.82917
從容	-9.83057
議者	-9.83218
安能	-9.83233
三百	-9.83239
寨	-9.83287
漢王	-9.83349
廉	-9.83379
復以	-9.8339
之死	-9.83465
播	-9.83477
伍	-9.83633
罕	-9.83713
李氏	-9.83716
踈	-9.83716
韶	-9.83731
東宫	-9.83739
秦檜	-9.83997
禽	-9.84012
局	-9.84132
索隠曰	-9.84296
四夷	-9.84376
故名	-9.84384
之外	-9.84757
段	-9.84809
髙帝	-9.84871
盗賊	-9.84878
湛	-9.84884
遂以	-9.84888
無事	-9.84951
悖	-9.84992
誦	-9.85033
十餘萬	-9.8511
以見	-9.85261
距	-9.85299
三國	-9.85347
官軍	-9.85537
判官	-9.856
而能	-9.85685
古今	-9.85726
酉	-9.85732
不亦	-9.85738
冝	-9.85784
巡	-9.8579
泥	-9.85858
見於	-9.85864
者非	-9.85888
仁義	-9.85904
黎	-9.85932
也然則	-9.85948
協	-9.8606
臯	-9.86103
鄰	-9.86106
曰卿	-9.86167
之難	-9.8617
裂	-9.86187
訟	-9.86201
䖍	-9.86263
頌	-9.86265
玩	-9.86276
牢	-9.86319
自立	-9.86338
事之	-9.86359
數十	-9.8639
帥衆	-9.86455
将軍	-9.8648
慙	-9.86639
括地志云	-9.86659
郤	-9.86667
周之	-9.86909
范祖禹	-9.86914
霍	-9.86927
其道	-9.86951
中丞	-9.87005
者以	-9.87025
纔	-9.87087
敝	-9.8709
瞻	-9.87112
罷之	-9.87159
猶有	-9.87288
之主	-9.87329
軍事	-9.87364
河中	-9.87387
長沙	-9.87465
之實	-9.87478
也且	-9.87512
抱	-9.87535
展	-9.8757
仲淹	-9.87574
項	-9.87782
輕重	-9.87804
河西	-9.87903
亦以	-9.87921
此則	-9.87928
言者	-9.87932
宋人	-9.87934
醉	-9.87953
斤	-9.87976
莒	-9.88
上表	-9.88077
宫中	-9.88225
張浚	-9.88225
鮮卑	-9.88351
平原	-9.88366
祗	-9.88375
皆為	-9.88386
無道	-9.88475
丈	-9.88528
晉主	-9.88548
志云	-9.88589
始皇	-9.88606
所言	-9.88662
征伐	-9.88663
甞	-9.88679
偃	-9.88687
十八年	-9.8869
吏民	-9.88712
楚人	-9.88765
琦	-9.88791
枉	-9.88792
繇	-9.88852
豪傑	-9.88871
腹心	-9.88908
炎	-9.88929
不必	-9.88955
大破之	-9.88967
紀綱	-9.89118
貽	-9.89141
王安石	-9.89175
曰汝	-9.89194
下書	-9.89369
德宗	-9.894
僖	-9.89422
其母	-9.89426
而復	-9.89448
范陽	-9.89566
弔	-9.8958
景帝	-9.8959
日月	-9.89606
鴻	-9.89616
之語	-9.89627
僭	-9.89639
驛	-9.8964
庾	-9.8964
粲	-9.89676
下詔	-9.89684
徇	-9.89684
郡國	-9.89721
周禮	-9.89758
汝南	-9.89765
矣而	-9.89819
數千	-9.89824
無復	-9.89864
逢	-9.8989
災異	-9.899
十八	-9.89924
大抵	-9.89964
之說	-9.89998
省入	-9.90002
闗中	-9.90003
王氏	-9.9004
其書	-9.90067
疲	-9.90094
其中	-9.90118
惠帝	-9.90123
戰于	-9.90146
直書	-9.90177
嶺南	-9.90321
之議	-9.90399
皆不	-9.90463
謨	-9.90494
媚	-9.90501
杞	-9.90521
恣	-9.90546
貸	-9.9056
鼔	-9.90595
隴	-9.90628
注見唐	-9.90703
鮮	-9.9071
失其	-9.90757
將帥	-9.9099
蹈	-9.91009
陋	-9.91011
昧	-9.91037
而止	-9.91232
也又	-9.91362
艾	-9.91364
漢之縣名屬	-9.91369
腹	-9.91395
邱	-9.91422
可知	-9.91423
咨	-9.91462
不幸	-9.91467
之理	-9.91549
所以為	-9.91601
而行	-9.9162
死於	-9.91647
聰	-9.9165
以聞	-9.91654
不可不	-9.9167
云云	-9.91675
内史	-9.91677
之書	-9.9171
潁川	-9.91726
自將	-9.91803
叡	-9.91841
耿	-9.91855
真宗	-9.91891
賴	-9.91898
演	-9.919
以自	-9.9199
脫	-9.92115
若是	-9.92153
墜	-9.92262
繩	-9.92329
大梁	-9.92351
怯	-9.92376
王莽	-9.92457
精兵	-9.92492
内侍	-9.92567
傑	-9.92574
群	-9.92574
三千	-9.92579
璋	-9.92604
夕	-9.92667
戌	-9.92731
一年	-9.92752
未能	-9.92754
二百	-9.92824
伐之	-9.92834
庻	-9.92838
仲尼	-9.92867
長子	-9.92893
蒙	-9.93132
校尉	-9.93181
不聼	-9.93185
平陽	-9.93186
壇	-9.93199
伺	-9.93211
惇	-9.93217
註	-9.93546
狥	-9.93546
亥	-9.93564
旋	-9.93564
□	-9.93653
順帝	-9.93658
停	-9.93677
蓄	-9.93683
不失	-9.93704
上以	-9.93762
嫡	-9.93772
利害	-9.93875
孟子曰	-9.94019
制度	-9.94108
諸道	-9.94119
守之	-9.94121
潘	-9.94124
潁	-9.94174
并州	-9.94289
春二月	-9.94545
醫	-9.94557
皇子	-9.94567
騰	-9.94583
返	-9.94663
而下	-9.94769
國史	-9.94871
已而	-9.94984
飬	-9.95015
天子之	-9.95024
不死	-9.95035
頒	-9.9504
車駕	-9.95041
冒	-9.95054
準	-9.95064
總管	-9.95073
祝	-9.95076
詢	-9.95093
忠臣	-9.95116
其弟	-9.95135
不待	-9.95156
不顧	-9.95215
謂曰	-9.95231
溫	-9.95244
州注見	-9.95264
可見矣	-9.95378
萬世	-9.95393
雍州	-9.95395
莫敢	-9.9543
三司	-9.95469
沛	-9.95471
懸	-9.95486
裔	-9.955
評	-9.95521
敷	-9.95523
頼	-9.95526
朋黨	-9.95577
而書	-9.95652
以是	-9.95715
陛	-9.95842
民間	-9.95854
尼	-9.95883
之盛	-9.95921
耗	-9.95941
者則	-9.96041
績	-9.96072
灌	-9.96138
大軍	-9.96149
外戚	-9.96163
諸路	-9.9617
可乎	-9.96212
大水	-9.96228
在於	-9.96373
璧	-9.96391
謀反	-9.96425
詆	-9.96448
再書	-9.96497
諫曰	-9.96499
久矣	-9.96521
趙王	-9.96596
豫章	-9.96623
群臣	-9.96636
六國	-9.96656
柔然	-9.96746
豈得	-9.96757
䜛	-9.96761
不正	-9.96766
亳	-9.96806
卒子	-9.96825
使其	-9.96836
喬	-9.96899
其義	-9.96913
之弊	-9.97098
從事	-9.97139
受其	-9.97176
贖	-9.97284
契丹主	-9.97309
進士	-9.97414
孔子曰	-9.97456
非有	-9.97472
肯	-9.97477
明堂	-9.97632
梁王	-9.97641
淮西	-9.97669
其能	-9.97731
墮	-9.97812
托	-9.97834
奏事	-9.97838
反覆	-9.97864
歎曰	-9.9788
唐之	-9.97933
大將	-9.98112
曰公	-9.98167
必不	-9.98252
叚	-9.98261
楚王	-9.98334
亦可	-9.98401
不報	-9.98451
慢	-9.98582
胄	-9.98645
繹	-9.98708
太史	-9.98725
翁	-9.98757
不悦	-9.98776
安帝	-9.98781
帥師	-9.98849
璘	-9.98853
之情	-9.98874
此言	-9.98966
鄂	-9.99021
溢	-9.99025
咸陽	-9.99043
敗之	-9.9915
當以	-9.99186
君子之	-9.99212
晉人	-9.99226
奕	-9.99238
孝武	-9.99246
捷	-9.99249
隐	-9.99282
之學	-9.99295
以求	-9.99423
他人	-9.99473
者何	-9.99476
勃	-9.99497
之賢	-9.99564
也書	-9.99566
江州	-9.99611
四十	-9.99745
課	-9.99761
不疑	-9.99832
柱	-10.0006
羞	-10.0016
柳	-10.0019
級	-10.0021
忤	-10.0023
後漢	-10.0031
以備	-10.0032
沔	-10.0036
而天下	-10.0037
童	-10.0049
租	-10.0051
不食	-10.0051
之權	-10.0051
紫	-10.0055
其餘	-10.0061
虢	-10.0066
高麗	-10.0071
正統	-10.0079
之任	-10.009
消	-10.0109
吁	-10.0109
鈞	-10.0109
揆	-10.0119
吐谷渾	-10.0123
童貫	-10.0125
賔客	-10.0127
朱全忠	-10.0131
裴度	-10.0133
西南	-10.0137
詩曰	-10.0137
自為	-10.0138
論曰	-10.014
一言	-10.014
冀州	-10.0144
不惟	-10.0148
駿	-10.0153
侯景	-10.0153
司馬光	-10.0158
以来	-10.0161
侃	-10.0161
隂陽	-10.0162
諒	-10.0166
卦	-10.0167
洞	-10.0167
聖人之	-10.0168
後魏	-10.017
七十	-10.0183
往往	-10.019
入城	-10.0192
靣	-10.0197
繆	-10.0204
蒼	-10.0209
卧	-10.0212
參軍	-10.0217
弛	-10.0218
為大	-10.0219
虧	-10.0219
出兵	-10.0219
額	-10.022
儼	-10.0226
彪	-10.0245
河内	-10.0251
天道	-10.0255
寕	-10.026
料	-10.0264
天之	-10.0265
漢武	-10.0265
而出	-10.0267
鬭	-10.0271
衆心	-10.0282
因其	-10.0292
無異	-10.0298
止之	-10.03
山陽	-10.0301
之職	-10.0304
寸	-10.0308
穎	-10.031
惜哉	-10.0314
百萬	-10.0318
太師	-10.0323
縣西	-10.0336
為主	-10.0339
䕫	-10.0341
暮	-10.0346
恱	-10.0353
倡	-10.0354
安定	-10.0356
迷	-10.0357
有天下	-10.0358
不善	-10.0378
國事	-10.0379
譏之	-10.0383
國名	-10.0388
十九	-10.0402
苟	-10.0418
悅	-10.0427
元昊	-10.0427
莫能	-10.0429
晚	-10.0435
金帛	-10.0435
者哉	-10.0438
不合	-10.0441
何不	-10.0449
甲子	-10.0458
渡河	-10.0458
千人	-10.0458
味	-10.0461
睦	-10.0464
林甫	-10.0469
魏人	-10.047
有以	-10.0471
脅	-10.0472
李綱	-10.0473
事在	-10.0477
武宗	-10.0479
出師	-10.0483
汾	-10.0485
終不	-10.0487
辭也	-10.0495
以致	-10.05
縣名屬	-10.05
所當	-10.05
為一	-10.0506
事也	-10.051
廷尉	-10.051
江東	-10.0522
山在	-10.0523
有大	-10.0527
更名	-10.0529
滎陽	-10.0532
閤	-10.0538
視之	-10.054
鋒	-10.0544
之兵	-10.0544
皓	-10.0556
廢之	-10.056
莊公	-10.0564
誨	-10.0564
氷	-10.057
烏珠	-10.0573
敘	-10.0575
如何	-10.0577
號令	-10.058
之利	-10.0582
蠻夷	-10.0582
東海	-10.0584
乃命	-10.0584
何罪	-10.0598
臣子	-10.0602
汗	-10.0602
禮也	-10.0607
旬	-10.0611
史通	-10.0613
徹	-10.0614
緯	-10.0619
譚	-10.0619
吐	-10.0619
叱	-10.0621
東坡	-10.0621
囘	-10.0622
其有	-10.0638
萬物	-10.0639
善惡	-10.0642
於人	-10.0644
城縣	-10.0648
以上	-10.0654
湘	-10.0654
靜	-10.0658
不仁	-10.066
閭	-10.067
世之	-10.0673
斃	-10.0673
踵	-10.0674
洲	-10.0675
算	-10.0675
其不	-10.0676
考之	-10.0691
嬰	-10.0697
不容	-10.0701
改屬	-10.0711
饒	-10.0723
状	-10.0724
溝	-10.0724
祈	-10.0728
未必	-10.0731
平王	-10.0731
城下	-10.074
或問	-10.0752
不成	-10.0757
召公	-10.0757
王命	-10.0765
武后	-10.0766
東平	-10.0766
而殺之	-10.0768
為君	-10.0771
隔	-10.0772
有疾	-10.0774
晉書	-10.0775
寔	-10.0777
封禪	-10.0787
雲中	-10.079
為天下	-10.079
遂與	-10.0791
官名	-10.0796
此固	-10.0801
也此	-10.081
究	-10.0822
未及	-10.0823
事君	-10.0825
昭宗	-10.0831
狼	-10.0832
刋	-10.0836
曹公	-10.0838
則知	-10.0848
熙	-10.085
留守	-10.0853
臣下	-10.0856
宥	-10.0857
皇太后	-10.0869
處之	-10.0873
哈	-10.0877
京城	-10.0879
獸	-10.0879
饗	-10.0882
之惡	-10.0883
悍	-10.0884
宋之	-10.0898
鳳翔	-10.0899
萬餘	-10.0899
夫以	-10.0913
都尉	-10.0915
二州	-10.0924
深入	-10.0929
迭	-10.0934
温公	-10.0936
悼	-10.0947
而歸	-10.0953
大國	-10.0955
自今	-10.0956
者其	-10.0957
號曰	-10.0961
見漢	-10.0964
先王之	-10.0965
終綱目書	-10.0966
敗績	-10.0969
所部	-10.0979
萬里	-10.0987
常山	-10.0987
各有	-10.0988
分兵	-10.0994
范氏曰	-10.0996
侍御史	-10.0996
兖州	-10.1
𤓰	-10.101
河陽	-10.1011
矦	-10.1021
去之	-10.1027
駢	-10.1035
熹	-10.1036
五百	-10.1039
猶未	-10.1041
减	-10.1043
勅	-10.1046
荘	-10.1057
恵	-10.1059
如此則	-10.106
貴人	-10.1063
道也	-10.1063
秦之	-10.1065
劉裕	-10.1067
後周	-10.1069
侍郎	-10.107
以成	-10.1072
大王	-10.1075
太廟	-10.1077
故其	-10.1077
數年	-10.1079
奏請	-10.108
本作	-10.108
大喜	-10.1083
題	-10.1087
齋	-10.1092
欵	-10.1094
犇	-10.1094
敎	-10.1095
小人之	-10.1097
土地	-10.1097
弑其君	-10.1098
砦	-10.1102
隴西	-10.1108
百年	-10.1112
出奔	-10.1128
一名	-10.1133
宇文	-10.1138
綿	-10.1151
也綱目	-10.1151
婢	-10.1151
顥	-10.1151
寓	-10.1151
之氣	-10.1153
元帥	-10.1154
髙麗	-10.1168
熙寧	-10.1172
治亂	-10.1172
二千	-10.1179
文學	-10.118
豫州	-10.118
此乃	-10.1181
之子也	-10.1195
願陛下	-10.1197
弑君	-10.1198
滕	-10.1199
嬖	-10.12
廹	-10.1203
陟	-10.1208
注云	-10.1209
碑	-10.1209
睿	-10.1215
興元	-10.1221
得志	-10.1223
而進	-10.1224
其為	-10.1228
太常	-10.1237
以歸	-10.1241
洋	-10.1251
數百	-10.1256
入見	-10.1256
不服	-10.1257
之業	-10.1257
謂其	-10.1258
之餘	-10.1263
武昌	-10.1264
狗	-10.1265
刃	-10.1265
之敗	-10.1269
論之	-10.1269
納之	-10.127
夏人	-10.1274
之數	-10.1285
一朝	-10.1298
大司馬	-10.13
膺	-10.13
牽	-10.1301
確	-10.131
逵	-10.1311
酷	-10.1311
轍	-10.1314
徧	-10.1316
敗走	-10.1317
禦之	-10.1317
天變	-10.1318
曰若	-10.133
授之	-10.1332
不問	-10.1334
五帝	-10.1359
何必	-10.136
帝以	-10.1361
卯	-10.1361
直言	-10.1366
第一	-10.1369
之末	-10.1372
汙	-10.1373
自取	-10.1376
者多	-10.1377
之風	-10.1382
陽縣	-10.1387
請以	-10.1392
琮	-10.1417
柏	-10.142
所宜	-10.142
艱	-10.1424
駐	-10.1425
項羽	-10.1425
鐘	-10.1428
霍光	-10.1431
或作	-10.1434
諸将	-10.1437
一百	-10.1452
府庫	-10.1458
唐初	-10.1465
偶	-10.1466
千餘	-10.1466
與其	-10.1469
二世	-10.1474
禮義	-10.1476
奪其	-10.1477
閒	-10.1481
戈	-10.1483
曷	-10.1483
可為	-10.1483
之號	-10.1485
柵	-10.1485
賞罰	-10.1496
不利	-10.1499
其所以	-10.1504
渡江	-10.1511
此亦	-10.1512
犬	-10.1524
泌	-10.1525
十餘	-10.153
淪	-10.1532
札	-10.1533
絹	-10.1534
截	-10.1535
諸國	-10.1536
所得	-10.1538
板	-10.1538
効	-10.1541
謫	-10.1542
公曰	-10.1549
北齊	-10.1556
於上	-10.1558
時人	-10.1564
僚	-10.1569
至今	-10.1574
未盡	-10.1587
萌	-10.1588
魯侯	-10.1588
什	-10.1591
天理	-10.1592
凌	-10.1594
搆	-10.1595
一書	-10.1601
韓信	-10.1606
慰	-10.1611
注見周赧王	-10.1615
不平	-10.1616
凉州	-10.1621
賜死	-10.1622
宿衛	-10.1622
泗	-10.1631
萬餘人	-10.1632
數日	-10.1643
波	-10.1649
皇太子	-10.1652
其説	-10.1653
姪	-10.1653
柴	-10.1654
應之	-10.166
吳王	-10.1666
盜賊	-10.1667
方士	-10.1668
自謂	-10.1669
稱臣	-10.1677
昇	-10.168
百餘	-10.1695
宦	-10.17
玠	-10.17
雖然	-10.1701
嶠	-10.1702
特穆爾	-10.1704
包	-10.1706
得罪	-10.1733
丹陽	-10.1736
琅邪	-10.1738
罵	-10.1739
其失	-10.1742
孝宗	-10.1747
法度	-10.1752
而用之	-10.1756
齎	-10.1765
嘆	-10.1765
而退	-10.1767
受之	-10.1771
當是時	-10.1773
通作	-10.1775
氐	-10.1778
後主	-10.1783
二十五年	-10.179
也嗚呼	-10.1794
有三	-10.1802
未詳	-10.1805
太甲	-10.1806
歆	-10.1808
遷都	-10.1808
其臣	-10.1815
穴	-10.1822
像	-10.1822
譖	-10.1823
膳	-10.1824
滅之	-10.1824
安有	-10.1827
慶厯	-10.1837
未知	-10.1837
仍舊	-10.1839
用人	-10.1842
襄公	-10.1843
所居	-10.1847
耳目	-10.185
在外	-10.1853
無可	-10.1858
南郡	-10.186
子之	-10.1861
于此	-10.1867
廣州	-10.1868
贍	-10.1879
上帝	-10.1879
其惡	-10.1879
豈能	-10.188
乃遣	-10.1881
萬一	-10.1882
於民	-10.1883
給事中	-10.1888
亦無	-10.1893
上黨	-10.1895
乃與	-10.1895
請降	-10.1899
涼	-10.1903
矣今	-10.1908
欲立	-10.1909
宗社	-10.1911
上疏曰	-10.1925
江西	-10.1929
此皆	-10.1934
釐	-10.1936
縣東	-10.1938
劍	-10.1939
怒曰	-10.1955
子也	-10.1957
固辭	-10.1962
聰明	-10.1966
遼主	-10.1987
歐陽	-10.1993
不盡	-10.1995
清河	-10.1996
頴	-10.1996
促	-10.1997
之過	-10.1997
為天子	-10.2002
麾下	-10.2016
官屬	-10.2028
為名	-10.2047
儻	-10.2051
雀	-10.2057
枝	-10.206
秦人	-10.2061
者為	-10.2063
兇	-10.2067
宣王	-10.2076
稱王	-10.2077
自守	-10.2079
之比	-10.2084
力戰	-10.209
坦	-10.2096
老子	-10.2101
幕	-10.2106
斛	-10.2108
未嘗不	-10.211
有言	-10.2111
属	-10.2111
邾	-10.2113
㸃	-10.2117
縣名注見漢	-10.2126
小國	-10.2127
一切	-10.2127
不忘	-10.213
帳	-10.2138
之道也	-10.2138
帝崩	-10.2139
無他	-10.2144
閏	-10.2145
駭	-10.2146
昭公	-10.2165
嶽	-10.2167
大功	-10.2174
銳	-10.2176
太公	-10.2178
塵	-10.2178
郡名注	-10.2181
妹	-10.2182
袁紹	-10.2183
不絶	-10.2184
治之	-10.2191
國名注見	-10.2199
瓘	-10.2204
太傅	-10.2208
本漢	-10.221
其才	-10.2215
江都	-10.2216
不進	-10.2219
閑	-10.2232
而言	-10.2232
沂	-10.2233
挺	-10.2235
彬	-10.2239
吞	-10.224
不下	-10.2243
書討	-10.2243
臯陶	-10.2245
其主	-10.2246
有二	-10.2265
存亡	-10.2266
斬首	-10.2269
自此	-10.2269
生民	-10.2285
為丞相	-10.2289
鑑	-10.229
加以	-10.2292
彧	-10.2295
斂	-10.2296
彈	-10.2299
捐	-10.2299
元和	-10.2302
高帝	-10.2305
諡曰	-10.2306
庶幾	-10.2311
互	-10.2319
糾	-10.232
更始	-10.2326
卒以	-10.2333
入于	-10.2333
所欲	-10.2336
不暇	-10.2337
劉向	-10.234
羲	-10.2352
訖	-10.2356
渤海	-10.2357
以禮	-10.2358
魏徴	-10.236
云爾	-10.2363
圭	-10.2363
都統	-10.237
沛公	-10.2371
詔曰	-10.2375
唐書	-10.2375
標	-10.2383
其職	-10.2385
將相	-10.2388
之弟	-10.239
漢武帝	-10.2393
一也	-10.2395
奉天	-10.2397
昔者	-10.2398
固守	-10.2411
無一	-10.2412
鮑	-10.2416
豹	-10.2417
随	-10.2418
侂胄	-10.2421
邈	-10.2422
披	-10.2425
勒兵	-10.2426
石勒	-10.2429
國語	-10.2431
州府	-10.2432
蜀主	-10.2435
楊氏	-10.2437
後宫	-10.2441
按一統志	-10.2441
三十年	-10.2442
必欲	-10.2444
不通	-10.2446
諫官	-10.2449
望之	-10.2464
鞅	-10.2466
可得	-10.2472
卽	-10.2474
練	-10.2475
掾	-10.2478
頥	-10.2478
鈔	-10.2481
償	-10.2483
故書	-10.2483
表請	-10.2487
鬻	-10.2488
之資	-10.2492
大小	-10.2492
戎狄	-10.2495
和親	-10.2495
以正	-10.2497
秘	-10.2499
三萬	-10.25
五千	-10.25
於齊	-10.2508
論語	-10.2509
終綱目	-10.2511
金陵	-10.2513
入冦	-10.2514
祁	-10.2516
何足	-10.2518
江夏	-10.2525
區區	-10.2539
坊	-10.2539
臂	-10.2541
㫁	-10.2545
蘓	-10.2545
價	-10.2545
潔	-10.255
繼之	-10.2555
唐室	-10.2561
撓	-10.2571
辦	-10.2585
讀書	-10.2589
綽	-10.2593
踐	-10.2595
氏曰	-10.26
得免	-10.2601
賁	-10.2601
信之	-10.2603
婁	-10.2603
而反	-10.2604
禀	-10.2605
贄	-10.2607
暗	-10.2608
摩	-10.261
太學	-10.2611
行臺	-10.2623
中國之	-10.2625
於前	-10.2633
李克用	-10.2636
天寳	-10.2638
蝗	-10.2653
濟南	-10.2654
行事	-10.2656
而自	-10.2658
雖不	-10.266
逺矣	-10.2662
萇	-10.2663
闢	-10.2665
湏	-10.2667
弭	-10.2669
譴	-10.267
閱	-10.2671
攘	-10.2672
近臣	-10.2677
至矣	-10.2683
昭烈	-10.2689
克之	-10.2689
敵國	-10.2696
教之	-10.2709
後人	-10.2709
姦邪	-10.2714
安危	-10.2714
韓魏	-10.272
左丞	-10.2723
嬴	-10.2731
回紇	-10.2731
茶	-10.2734
蛇	-10.2734
覩	-10.2735
鞭	-10.2736
将兵	-10.2742
以李	-10.2745
秦州	-10.2749
擊破之	-10.2751
君父	-10.2762
莊子	-10.2762
始於	-10.277
春秋時	-10.2772
劉備	-10.2779
西河	-10.2782
戯	-10.2793
障	-10.2793
汪	-10.2793
匱	-10.2793
之憂	-10.2796
簿	-10.2796
無故	-10.2797
凝	-10.2798
劇	-10.2798
孚	-10.2798
探	-10.28
有隙	-10.2806
宋公	-10.2811
之黨	-10.2812
死節	-10.282
罪之	-10.2823
紹興	-10.2829
西伯	-10.2832
弄	-10.2839
名曰	-10.2843
陳留	-10.2844
曠	-10.2848
矣此	-10.2849
不義	-10.285
綂	-10.2852
正人	-10.2855
遮	-10.2857
瑕	-10.286
冕	-10.2862
賑	-10.2862
㓕	-10.2862
堡	-10.2862
塔	-10.2869
於朝	-10.2877
而欲	-10.2877
飲食	-10.2881
臨安	-10.2883
河間	-10.2884
不能用	-10.2891
箕子	-10.2892
伐鄭	-10.2892
屯田	-10.2895
瑜	-10.29
圍之	-10.2904
大破	-10.291
衛侯	-10.291
用史記	-10.2911
區	-10.2916
觀察使	-10.2921
尚書令	-10.2923
粗	-10.2927
穢	-10.2928
妙	-10.293
由此	-10.2932
索隱曰	-10.2937
愍	-10.2943
太皇太后	-10.2948
以安	-10.2952
徳裕	-10.2953
天地之	-10.2953
而不可	-10.2956
國公	-10.2958
也自	-10.2959
畿	-10.296
笑曰	-10.2963
故城在	-10.2966
雖欲	-10.2971
殿下	-10.2974
經世	-10.2974
來朝	-10.2976
知人	-10.2977
不屈	-10.2978
廸	-10.2983
荷	-10.2984
殄	-10.2987
婚	-10.2989
洽	-10.299
州治	-10.2992
活	-10.2992
男女	-10.2993
為臣	-10.2993
不忠	-10.2993
言曰	-10.3005
六十	-10.3008
故綱目	-10.3014
入宫	-10.3016
舊制	-10.3025
錡	-10.3033
不信	-10.304
宣宗	-10.3043
泚	-10.305
雉	-10.305
貎	-10.3051
也謂	-10.3051
芳	-10.3052
夏侯	-10.3053
檀	-10.3053
昆	-10.3055
牀	-10.3055
之節	-10.3059
壽春	-10.3061
鬼神	-10.3064
匹夫	-10.3064
夷簡	-10.3066
久之	-10.3067
於是乎	-10.3072
境内	-10.3074
飲酒	-10.3084
二千石	-10.3094
可不	-10.3094
措	-10.3096
也是故	-10.3101
顒	-10.311
或謂	-10.3111
之分	-10.3113
旨	-10.3117
定州	-10.3121
舘	-10.3122
嫉	-10.3122
陂	-10.3124
注見漢光武建武	-10.3126
冗	-10.3126
曷為	-10.3128
朝政	-10.3131
恢	-10.3132
數月	-10.3133
不肖	-10.3135
如故	-10.3137
之屬	-10.3138
者有	-10.3138
㑹于	-10.314
諸郡	-10.3141
而亡	-10.3151
不聞	-10.3155
繕	-10.3166
姦臣	-10.3175
翰林學士	-10.3176
伐齊	-10.3178
新法	-10.3181
梟	-10.3183
士民	-10.3183
漢置	-10.3184
岱	-10.3187
篡	-10.3189
了	-10.3189
主上	-10.319
綱目於	-10.3191
禹貢	-10.32
富弼	-10.32
四人	-10.3201
布衣	-10.3203
以問	-10.321
其禍	-10.3216
疑之	-10.3225
天意	-10.3225
迄	-10.3226
於内	-10.3234
是嵗	-10.3236
之位	-10.3236
洗	-10.3237
徼	-10.3241
乃使	-10.3243
昭王	-10.3245
贇	-10.3247
希烈	-10.3247
圓	-10.3249
告之	-10.325
之戒	-10.325
禁中	-10.325
昱	-10.325
哀帝	-10.325
囂	-10.3254
百餘人	-10.3255
槩	-10.3255
隋主	-10.3256
遐	-10.3257
惠王	-10.3263
其始	-10.3264
測	-10.3265
吳越	-10.3273
不止	-10.3281
饋	-10.3285
奄	-10.3288
䝉古主	-10.3289
置酒	-10.3292
其文	-10.3298
實録	-10.3298
靈公	-10.3303
之㑹	-10.3304
之䇿	-10.3307
恐其	-10.3314
瑗	-10.3315
晝	-10.3316
乎此	-10.3317
地理志	-10.3318
建徳	-10.332
朋	-10.332
棺	-10.3321
鬬	-10.3322
之美	-10.3323
冶	-10.3324
蔣	-10.3324
俸	-10.3325
闇	-10.3325
王師	-10.3327
奇	-10.3327
又何	-10.3341
始終	-10.3348
儒者	-10.3354
之家	-10.3355
其時	-10.3356
域	-10.3356
追之	-10.3356
未㡬	-10.3358
蕭何	-10.3359
伯夷	-10.3359
廢立	-10.3365
一統	-10.3369
混	-10.3369
昶	-10.3376
王旦	-10.338
民心	-10.338
數人	-10.3382
噐	-10.3386
嗣源	-10.3388
鄒	-10.3388
黃	-10.3389
其下	-10.339
罹	-10.3391
禽獸	-10.3393
郭子儀	-10.3393
西京	-10.3395
衆皆	-10.3397
五日	-10.3399
方鎮	-10.34
立子	-10.3404
耶律	-10.3405
朝夕	-10.3407
三輔	-10.3409
宣公	-10.3422
潮	-10.3424
之力	-10.3433
秦始皇	-10.3438
耀	-10.3438
文章	-10.3439
所能	-10.3439
矣夫	-10.344
麾	-10.344
今乃	-10.3443
則無	-10.3448
指揮使	-10.3448
揺	-10.345
憾	-10.3451
譯	-10.3457
遥	-10.3457
三十里	-10.346
其本	-10.3461
弁	-10.3463
也按	-10.3463
陞	-10.3464
之體	-10.3467
詔書	-10.3468
一時之	-10.347
無益	-10.3477
逐之	-10.3484
莫若	-10.3498
責之	-10.3499
軍旅	-10.3508
召之	-10.3516
鉤	-10.3519
不可復	-10.3519
死而	-10.3519
焦	-10.352
輪	-10.352
未有書	-10.3521
晝夜	-10.3523
之意也	-10.3524
御史大夫	-10.3527
翰林	-10.3529
護	-10.353
𢎞農	-10.3532
於其	-10.3535
章惇	-10.3536
艱難	-10.3538
苻	-10.3547
魏公	-10.3549
將以	-10.3555
無足	-10.3562
進攻	-10.3567
自有	-10.3569
於下	-10.3572
是日	-10.3574
原注	-10.3574
然其	-10.3575
閻	-10.358
以罪	-10.3592
錦	-10.3594
苗	-10.3595
沉	-10.3597
起於	-10.3598
德裕	-10.3602
尼瑪哈	-10.3605
諸人	-10.3607
太和	-10.3608
女子	-10.3619
有一	-10.3641
苛	-10.3645
輔政	-10.3646
建興	-10.3646
恢復	-10.365
浦	-10.365
䑕	-10.3654
以報	-10.3658
暢	-10.366
鞏	-10.366
鐡	-10.3661
函	-10.3663
熾	-10.3664
瀆	-10.3668
之内	-10.367
佑	-10.367
東京	-10.3672
世充	-10.3679
兄子	-10.3687
諸臣	-10.3688
薊	-10.3699
則亦	-10.37
其上	-10.3703
於天	-10.3706
昭帝	-10.3708
生於	-10.3711
其可	-10.3711
靈武	-10.3714
詩書	-10.3714
麥	-10.3729
行營	-10.373
鎬	-10.3731
縛	-10.3732
紙	-10.3732
為文	-10.3735
亂臣賊子	-10.3736
陳主	-10.3737
栗	-10.3741
董卓	-10.3743
不得不	-10.3746
處士	-10.3747
經畧	-10.3748
數千人	-10.376
夏六月	-10.3774
於秦	-10.3778
邸	-10.3796
弩	-10.3797
山川	-10.3798
不便	-10.3799
塹	-10.38
撤	-10.3801
蠧	-10.3804
布哈	-10.3807
逾	-10.3811
太史公	-10.3816
貴妃	-10.3819
也言	-10.3824
釋之	-10.3825
爾雅	-10.3825
列國	-10.3827
女真	-10.3831
和議	-10.3835
班固	-10.3836
皇甫	-10.3837
未易	-10.3838
行省	-10.3845
不獲	-10.3846
郡乾元初復為	-10.3846
有是	-10.3848
邕	-10.3857
遂使	-10.3866
臺諫	-10.3867
裘	-10.3867
儁	-10.3867
僊	-10.3871
壻	-10.3874
諸葛亮	-10.3874
議論	-10.3874
荅	-10.3875
廣平	-10.3876
不自	-10.3877
榜	-10.3879
烏桓	-10.388
五行	-10.3888
其將	-10.3888
之舉	-10.3889
光弼	-10.3899
無有	-10.3901
不易	-10.3905
固已	-10.3907
圖之	-10.3914
而罷	-10.3914
衣冠	-10.3923
三州	-10.3926
是亦	-10.3929
理宗	-10.3935
者謂	-10.3935
同列	-10.394
矩	-10.3941
晉之	-10.3947
一二	-10.3948
挫	-10.3948
人才	-10.395
揚雄	-10.3955
止於	-10.3965
北漢	-10.3965
一曰	-10.3972
黎陽	-10.3978
其情	-10.3979
以取	-10.3981
王建	-10.3985
所載	-10.3993
貶之	-10.3996
乎曰	-10.3997
黑	-10.3999
故能	-10.4
為善	-10.4003
掃	-10.4005
三鎮	-10.401
陳平	-10.4015
大亂	-10.4016
求之	-10.4017
寂	-10.4017
逰	-10.4017
網	-10.4018
因以	-10.4019
偕	-10.4019
底	-10.4021
扼	-10.4022
則不	-10.4024
縣令	-10.4025
賓	-10.4025
滑	-10.4026
草木	-10.4034
非所以	-10.4035
向使	-10.4043
之官	-10.406
始此	-10.407
勁	-10.4072
矣於是	-10.4073
之詞	-10.4075
不知其	-10.4077
勝負	-10.4078
畝	-10.4078
龎	-10.4079
淑	-10.4085
唱	-10.4087
日夜	-10.4088
觸	-10.4089
頻	-10.409
餘衆	-10.4091
誤國	-10.4091
畔	-10.4092
盟于	-10.4105
太康	-10.4106
握	-10.4111
必先	-10.4115
聖賢	-10.4116
降之	-10.4117
留後	-10.4125
道路	-10.413
哲宗	-10.413
南詔	-10.4135
與戰	-10.4153
縣南	-10.4157
冇	-10.4162
桐	-10.4163
嘆曰	-10.4164
則天下	-10.4166
摧	-10.4167
賈誼	-10.4168
嚮	-10.4168
或以	-10.4169
衮	-10.417
魏王	-10.4172
發眀	-10.4172
臣之	-10.4174
少子	-10.4175
來降	-10.418
所生	-10.4185
為司空	-10.4188
水出	-10.4193
下獄	-10.4194
杭州	-10.4198
大驚	-10.4205
紏	-10.4206
中尉	-10.4209
牟	-10.4213
而入	-10.4221
愛之	-10.4221
上有	-10.4222
河朔	-10.4224
右丞	-10.4225
成敗	-10.4225
中書令	-10.423
㦸	-10.4235
隕	-10.4237
蔑	-10.4238
囊	-10.4239
蟲	-10.424
不聴	-10.4242
彥	-10.4242
剪	-10.4244
書弑	-10.4249
韓琦	-10.4249
朝臣	-10.4257
提舉	-10.426
父兄	-10.4265
欲殺	-10.4265
予之也	-10.4266
縣地	-10.4268
者三	-10.4269
閏月	-10.4285
魏郡	-10.4285
以為然	-10.4287
漢主	-10.4292
鳯翔	-10.4293
韻	-10.4298
大懼	-10.4298
安南	-10.4301
綰	-10.4302
而成	-10.4303
無人	-10.4308
飯	-10.4308
慧	-10.4309
人言	-10.4311
途	-10.4312
覘	-10.4313
禱	-10.4314
馭	-10.4318
壹	-10.4321
冬十二月	-10.4321
桂	-10.4322
之本	-10.4328
不納	-10.4328
除之	-10.4336
曰彼	-10.4337
國政	-10.4337
之象	-10.434
泄	-10.4343
之行	-10.4355
大書	-10.4359
辜	-10.4361
孝文	-10.4368
問之	-10.4375
執之	-10.4379
楷	-10.4381
揮	-10.4381
沖	-10.4382
猜	-10.4382
燭	-10.4382
逺近	-10.4383
枕	-10.4385
牒	-10.4386
技	-10.4386
賄	-10.4386
姊	-10.4388
甄	-10.4388
輦	-10.4389
驟	-10.4391
卞	-10.4391
秦漢	-10.4394
罷以	-10.4396
睿宗	-10.4397
道成	-10.4397
學校	-10.4406
尚可	-10.4409
有此	-10.441
潤	-10.4417
若不	-10.4418
伏兵	-10.4419
根本	-10.4421
而起	-10.4431
新城	-10.4443
大矣	-10.4444
居之	-10.4447
天下之大	-10.4447
固非	-10.4449
縣名注	-10.4451
敞	-10.4453
傳位	-10.4453
九江	-10.4454
二十萬	-10.4454
座	-10.4456
脇	-10.4457
後之	-10.4458
十里	-10.4459
為司徒	-10.4459
邯鄲	-10.446
則必	-10.4461
人倫	-10.4461
斧	-10.4461
汚	-10.4462
薪	-10.4467
然也	-10.447
頑	-10.4471
尋復	-10.4475
初置	-10.4475
時事	-10.4476
形勢	-10.4478
兖	-10.4482
城南	-10.4482
漁	-10.4482
無窮	-10.4488
二十三年	-10.4489
天祥	-10.449
世忠	-10.4494
非其	-10.4506
訛	-10.4511
家人	-10.4512
濮	-10.4512
平章	-10.452
之辭也	-10.452
紀傳	-10.4528
年號	-10.453
值	-10.4532
出降	-10.4532
不能自	-10.4534
諜	-10.4535
隘	-10.4535
閹	-10.4535
瓦	-10.4535
不恤	-10.4536
狎	-10.4537
大旱	-10.4538
公羊	-10.4539
而自立	-10.4541
緣	-10.4542
之盟	-10.4543
笞	-10.4544
鯀	-10.4548
則非	-10.4548
臨朝	-10.4548
進取	-10.4549
出戰	-10.4551
此所以	-10.4562
髙歡	-10.4563
幸而	-10.4576
尊號	-10.4578
穆宗	-10.4583
果何	-10.4586
同姓	-10.4593
王道	-10.4594
因而	-10.4597
有異	-10.4599
之流	-10.46
蹇	-10.4601
諌曰	-10.4602
千餘人	-10.4603
斌	-10.4604
場	-10.4606
曰天	-10.4606
乃還	-10.4608
鞠	-10.4611
愼	-10.4612
輜重	-10.4615
亡國	-10.4618
綱目之	-10.4618
沃	-10.4618
下有	-10.4619
酋長	-10.4623
叔父	-10.4626
其位	-10.4638
為帝	-10.4642
魏博	-10.4645
東郡	-10.4664
公卒子	-10.4665
東方	-10.4667
不臣	-10.4668
大明	-10.4668
卿等	-10.4676
言事	-10.4678
琰	-10.468
羿	-10.468
甲兵	-10.4685
不知所	-10.4685
晨	-10.4686
只	-10.4686
縣省入	-10.4689
豆	-10.4689
僑	-10.469
也哉	-10.4691
邇	-10.4691
諂	-10.4693
搏	-10.4693
姑息	-10.4699
皆在	-10.47
諸葛	-10.47
北伐	-10.47
潞州	-10.4702
襄王	-10.471
以為不可	-10.4714
𣙜	-10.4717
進兵	-10.4718
壯士	-10.4727
書以	-10.4729
白馬	-10.4731
寘	-10.4734
江左	-10.4738
大理	-10.474
言也	-10.4745
何以書	-10.475
師道	-10.4751
其弊	-10.4751
張良	-10.4753
數百人	-10.4758
蹙	-10.4759
憑	-10.4763
村	-10.4763
沿	-10.4763
元魏	-10.4764
東坡曰	-10.477
下邳	-10.4775
不立	-10.4776
涕泣	-10.4779
有事	-10.478
桓温	-10.478
集傳曰	-10.4781
亨	-10.4781
陽城	-10.4784
列傳	-10.4787
欲使	-10.4787
譏也	-10.4788
乗勝	-10.4794
於後	-10.4798
六軍	-10.4801
易曰	-10.4802
濁	-10.4813
進軍	-10.4813
詣闕	-10.4815
遣將軍	-10.4817
勣	-10.4821
北地	-10.4822
壤	-10.4827
城在	-10.4828
歸于	-10.4829
封建	-10.4833
何所	-10.4834
穆公	-10.4837
御史中丞	-10.4843
埶	-10.4849
甥	-10.485
香	-10.485
湖南	-10.4858
赦之	-10.4859
晋王	-10.4861
北方	-10.4863
甚衆	-10.4867
許昌	-10.4873
之亡	-10.488
表世家	-10.4883
官吏	-10.4886
廬江	-10.4888
三軍	-10.4891
必以	-10.4893
山南	-10.4899
置之	-10.4906
扈	-10.4913
膽	-10.4916
未定	-10.4917
番	-10.4917
一綂志云	-10.4919
僻	-10.492
托克托	-10.4924
從珂	-10.4925
胡氏	-10.4925
瓌	-10.4927
揖	-10.4927
氏之	-10.4928
骨肉	-10.4929
論者	-10.493
慘	-10.4932
討平之	-10.4933
者乃	-10.4937
黄巢	-10.4942
宫人	-10.4943
其先	-10.4945
者所以	-10.4947
紹聖	-10.4951
唐虞	-10.4955
得人	-10.496
先主	-10.496
湯武	-10.4962
峽	-10.4963
大同	-10.4966
萬年	-10.4966
億	-10.4968
九州	-10.4974
何故	-10.4975
郎中	-10.4978
大赦	-10.4981
康王	-10.4983
其謀	-10.4984
二十四	-10.4984
即日	-10.4991
奉詔	-10.4992
璟	-10.4997
竟不	-10.4997
軾	-10.4999
姦人	-10.4999
諸賢	-10.5
銓	-10.5002
三十六	-10.5002
䜟	-10.5003
織	-10.5003
塗炭	-10.5004
中郎將	-10.5006
軒	-10.5007
先君	-10.5007
俯	-10.5008
又改	-10.5011
譎	-10.5011
謟	-10.5011
潭	-10.5018
武徳	-10.5021
丁謂	-10.5022
不樂	-10.5027
相州	-10.5034
人所	-10.5034
盡忠	-10.5035
永安	-10.5035
功名	-10.5046
尋陽	-10.5049
之罪也	-10.5052
愆	-10.5054
而非	-10.5055
漳	-10.5056
明宗	-10.5056
武功	-10.5056
中軍	-10.5058
已上	-10.5065
敖	-10.5075
爰	-10.5075
俠	-10.5082
京兆尹	-10.5085
梅	-10.5085
法也	-10.5085
蠲	-10.5085
眼	-10.5085
攻城	-10.5086
吕氏	-10.5087
紛紛	-10.5088
廩	-10.5089
黜陟	-10.5091
英雄	-10.5095
曰夫	-10.5096
太保	-10.5099
度支	-10.5103
之極	-10.5104
棘	-10.5104
又言	-10.5108
諸公	-10.5111
欲為	-10.5112
十日	-10.5116
立功	-10.5117
劉豫	-10.5119
以義	-10.5122
於道	-10.5128
一家	-10.5128
諸侯之	-10.5129
讀曰	-10.5132
不安	-10.5135
編年	-10.5137
惜乎	-10.514
明公	-10.5142
未詳處所	-10.5143
恬	-10.5149
若夫	-10.515
春秋書	-10.5153
塘	-10.5155
降者	-10.5156
崇韜	-10.5156
紳	-10.5158
旌	-10.516
懦	-10.5163
壅	-10.5165
寤	-10.5165
諛	-10.5166
厥後	-10.517
吕后	-10.5177
平章事	-10.5178
來歸	-10.5179
西川	-10.518
哀公	-10.5182
乆矣	-10.5185
之恩	-10.5186
戰於	-10.5189
聞其	-10.5189
李晟	-10.5193
之始	-10.5195
之甚	-10.5199
朝士	-10.5207
扶風	-10.5207
為右	-10.5211
時有	-10.5219
平城	-10.522
為皇太子	-10.5221
壽陽	-10.5226
三代之	-10.5228
二十二年	-10.523
暇	-10.5235
郯	-10.5236
駮	-10.5237
不滿	-10.5237
亢	-10.5242
坤	-10.5243
亦非	-10.5244
北海	-10.5245
刪	-10.5246
眉	-10.5247
從者	-10.5251
賜之	-10.5251
眷	-10.5252
羽林	-10.5257
九十	-10.5257
前代	-10.5261
先後	-10.5264
勤王	-10.5269
信都	-10.5273
殆盡	-10.5276
而使	-10.5277
功業	-10.5281
魏晉	-10.5281
而生	-10.5291
的	-10.5292
以明	-10.5294
先儒	-10.5297
固有	-10.5305
金城	-10.5309
詠	-10.5311
諸部	-10.5314
智者	-10.5319
芝	-10.532
數十萬	-10.5321
澗	-10.5321
此舉	-10.5322
之機	-10.5323
率衆	-10.5324
帖	-10.5326
孽	-10.5327
勵	-10.5327
印綬	-10.5328
覈	-10.5328
一事	-10.5329
者曰	-10.5335
之誅	-10.5335
叅	-10.5336
人事	-10.5342
甚厚	-10.5347
終身	-10.5348
二萬	-10.5349
以張	-10.535
固請	-10.5352
欽定四庫全書	-10.5353
然亦	-10.5354
生子	-10.5356
無過	-10.5359
曰天子	-10.5359
歸於	-10.5361
要害	-10.5363
之樂	-10.5367
春三月	-10.5367
此時	-10.537
國忠	-10.537
王公	-10.537
乗輿	-10.5371
汲	-10.5372
獻帝	-10.5375
禍亂	-10.5376
分道	-10.5383
欣	-10.5387
徙治	-10.5387
稔	-10.5388
盍	-10.539
遣使如	-10.5392
五人	-10.5393
建成	-10.5395
涕	-10.5399
筠	-10.5403
彛	-10.5404
雙	-10.5406
恂	-10.5408
正朔	-10.5416
稱其	-10.5417
以至	-10.5421
徐廣曰	-10.5424
尤甚	-10.5424
魏以	-10.5426
善之	-10.5431
懷光	-10.5432
已有	-10.5436
書卒	-10.5438
惡其	-10.5445
縣北	-10.5449
為亂	-10.5452
李斯	-10.5452
而為之	-10.5455
南海	-10.5455
史記曰	-10.5459
社稷之	-10.5462
勛	-10.5466
正其	-10.5473
為正	-10.5473
梁武帝	-10.5477
唐以	-10.5478
糴	-10.5478
健	-10.5486
靈帝	-10.5487
餉	-10.5488
綜	-10.5489
屍	-10.549
淹	-10.549
拂	-10.549
翔	-10.5491
㳺	-10.5492
無禮	-10.5492
璠	-10.5492
不能制	-10.5493
禮記	-10.5494
元嘉	-10.5495
千載	-10.5496
邁	-10.5497
紇	-10.5497
起復	-10.5502
迪	-10.5504
有過	-10.5508
五萬	-10.5508
深矣	-10.5509
獨不	-10.5511
長吏	-10.5511
之孫	-10.5517
方且	-10.5519
滄州	-10.5521
謚	-10.5523
也雖然	-10.5527
曰某	-10.5529
禍福	-10.5532
翦	-10.5535
嗟	-10.5536
永平	-10.5537
在西安府	-10.5539
上意	-10.5539
宗族	-10.554
而不敢	-10.554
語曰	-10.5542
臣等	-10.5542
縣西北	-10.5551
議之	-10.5561
亦曰	-10.5567
亞	-10.5568
濤	-10.5568
見矣	-10.5569
淮陽	-10.5573
諧	-10.5575
狡	-10.5575
械	-10.5577
構	-10.5578
薩	-10.5578
剖	-10.5578
茂貞	-10.5579
繋	-10.558
夫婦	-10.5585
范仲淹	-10.5586
李德裕	-10.5586
諸儒	-10.5588
安民	-10.5602
罪人	-10.5604
轉運使	-10.5605
鄆	-10.5605
漢文帝	-10.5614
周室	-10.5624
此非	-10.5625
賢人	-10.5625
委任	-10.5625
忠良	-10.5626
復遣	-10.5628
矣又	-10.563
涇	-10.5636
成公	-10.5636
崖	-10.5637
紛	-10.564
倒	-10.5646
耆	-10.5647
賞賜	-10.5652
掘	-10.5652
搜	-10.5659
子産	-10.566
佳	-10.566
有才	-10.5662
故云	-10.5663
緡	-10.5664
瑀	-10.5666
祜	-10.567
棄之	-10.5672
匪	-10.5673
節制	-10.5677
輅	-10.5678
句絶	-10.5685
相國	-10.5686
義也	-10.5687
中人	-10.5689
又論	-10.5691
人之所	-10.5699
史臣	-10.57
末年	-10.5701
次于	-10.5707
絶之	-10.5708
大舉	-10.5709
漁陽	-10.571
悉以	-10.571
以著其	-10.571
輔國	-10.5713
燾	-10.5716
知有	-10.5717
非常	-10.572
人物	-10.572
迎之	-10.5724
為是	-10.5725
洎	-10.573
欲與	-10.5732
號為	-10.5734
隊	-10.5738
足矣	-10.5739
漕	-10.5742
畋	-10.5743
桓帝	-10.5743
該	-10.5748
㳟	-10.5749
冢	-10.575
羸	-10.575
顛	-10.575
則又	-10.5751
監察御史	-10.5752
曄	-10.5753
綴	-10.5754
狹	-10.5755
事者	-10.5756
延壽	-10.5761
起居	-10.5762
石頭	-10.5766
則天	-10.5767
以利	-10.5774
以救	-10.5777
子房	-10.5777
福州	-10.5778
禄山	-10.578
無辜	-10.578
秋九月	-10.578
憐	-10.5783
之非	-10.5783
有寵	-10.5785
極言	-10.5792
孔氏	-10.5794
也况	-10.5797
漢初	-10.5802
武陵	-10.5802
皆非	-10.5815
道士	-10.5818
此其書	-10.5818
事皆	-10.5818
逞	-10.5819
所書	-10.582
郡治	-10.5821
洮	-10.5822
此節	-10.5824
乙酉	-10.5825
愬	-10.5826
矣其	-10.5829
黍	-10.583
遂至	-10.5831
隄	-10.5831
興復	-10.5831
戰敗	-10.5832
藁	-10.5834
崔浩	-10.5836
扵是	-10.5836
碎	-10.5837
滯	-10.5839
惜其	-10.584
諸君	-10.5842
上命	-10.5843
有差	-10.5845
公私	-10.5847
沙門	-10.5856
京口	-10.5858
入貢	-10.5861
再拜	-10.5864
從而	-10.5865
于時	-10.5868
相如	-10.587
李泌	-10.588
睢	-10.5881
志在	-10.5886
不自安	-10.5887
南山	-10.589
滔	-10.5891
靈州	-10.5896
獲罪	-10.5901
溥	-10.5902
熲	-10.5902
銜	-10.5903
長樂	-10.5909
如淳曰	-10.5912
岡	-10.5913
故不	-10.5914
舊作	-10.5917
愛民	-10.5917
佚	-10.5919
絲	-10.5919
壓	-10.592
而求	-10.5922
歩騎	-10.5923
漆	-10.5925
妨	-10.5926
替	-10.5928
十餘人	-10.5929
懋	-10.593
成湯	-10.5931
主之	-10.5932
不亡	-10.5935
以討	-10.5936
親戚	-10.5936
祭祀	-10.5938
為王	-10.594
李林甫	-10.5944
必書	-10.5951
烏孫	-10.5953
也終綱目書	-10.5965
相見	-10.5966
矣綱目	-10.5968
八十	-10.5972
此類	-10.5972
五十里	-10.5977
鴈門	-10.5985
以前	-10.5986
者惟	-10.5987
往來	-10.599
注見宋文帝元嘉	-10.5994
那	-10.6002
不思	-10.6005
魁	-10.6005
東晉	-10.6005
寖	-10.6005
子由	-10.6007
也非	-10.6009
其故	-10.6011
事而	-10.6013
愚謂	-10.6021
廣漢	-10.6027
宣武	-10.6029
非也	-10.603
按此	-10.6035
在上	-10.6036
貢獻	-10.6043
堅守	-10.6044
文侯	-10.6049
以天下	-10.6058
延年	-10.6062
用史記年	-10.6064
忌之	-10.6069
元初	-10.6072
左遷	-10.6072
歴代名賢確論卷	-10.6074
山陵	-10.6075
與人	-10.6078
不治	-10.6081
花	-10.6088
惲	-10.6088
則當	-10.609
寗	-10.609
思之	-10.6091
訥	-10.6093
翻	-10.6093
巷	-10.6094
翊	-10.6094
浪	-10.6095
鬱	-10.6096
之重	-10.6096
控	-10.6099
佗	-10.6099
必無	-10.61
曼	-10.6101
一戰	-10.6101
猷	-10.6108
也蓋	-10.6118
刑罰	-10.6118
識者	-10.6122
患之	-10.6128
四百	-10.6131
丁未	-10.6131
視事	-10.6144
上文	-10.6147
范祖禹論	-10.6147
之長	-10.6147
韜	-10.6148
代王	-10.6152
而得	-10.6154
朴	-10.6155
教化	-10.6156
者衆	-10.6158
異端	-10.616
追尊	-10.6168
之手	-10.617
馮翊	-10.6171
阜	-10.6174
隗	-10.6179
得乎	-10.618
顗	-10.6181
愔	-10.6183
所以深	-10.6183
模	-10.6183
暨	-10.6184
珙	-10.6185
倣	-10.6185
傲	-10.6186
光武建武	-10.6189
始此終綱目書	-10.6189
覬	-10.6192
靖康	-10.6194
羣小	-10.6204
旬日	-10.6204
縱横	-10.6204
亦當	-10.6206
或有	-10.6209
而乃	-10.6209
章帝	-10.621
以濟	-10.6211
比干	-10.6212
帝王之	-10.6214
君命	-10.6216
上怒	-10.6218
齊師	-10.6223
嘗謂	-10.6225
特以	-10.6226
立太子	-10.6237
琛	-10.6239
逃歸	-10.6241
助之	-10.6243
其辭	-10.6244
寡人	-10.6246
掲	-10.6248
何異	-10.625
報之	-10.6251
極矣	-10.6254
必死	-10.6254
隋初	-10.6259
以死	-10.626
人主之	-10.626
一月	-10.6261
銖	-10.6264
苖	-10.6268
朱子曰	-10.6268
一無	-10.6269
製	-10.627
龔	-10.6272
諤	-10.6274
畀	-10.6276
俶	-10.6277
墟	-10.6278
髮	-10.6279
甘露	-10.6279
是則	-10.6281
纎	-10.6283
不道	-10.6284
之害	-10.6292
季氏	-10.6301
之北	-10.6302
凡五	-10.6304
趙普	-10.6304
在此	-10.6306
法令	-10.6309
為此	-10.631
魏州	-10.6315
綱紀	-10.6316
有道	-10.6316
復書	-10.6334
可勝	-10.6339
樞宻	-10.6345
者蓋	-10.6347
其一	-10.6354
收其	-10.636
門外	-10.636
染	-10.6361
桃	-10.6362
黄門	-10.6363
棟	-10.6364
泣曰	-10.6365
泓	-10.6366
峯	-10.6366
版	-10.6366
分為	-10.6367
墳	-10.6368
之要	-10.6368
澹	-10.6368
下文	-10.6369
烝	-10.6369
人有	-10.6369
泯	-10.6369
顧命	-10.637
亡國之	-10.6371
渝	-10.6372
天監	-10.6373
曰善	-10.6374
意也	-10.6376
元豐	-10.6377
百餘里	-10.6384
自相	-10.6387
部曲	-10.6391
又書	-10.6392
取天下	-10.6393
之徳	-10.6394
惠公	-10.64
輕騎	-10.6402
不去	-10.6412
金兵	-10.6413
不殺	-10.6414
何得	-10.6414
賜以	-10.6415
始置	-10.6416
此事	-10.6418
不動	-10.6418
繼書	-10.642
其死	-10.6422
元康	-10.6424
叔孫	-10.6424
元元年	-10.6424
大風	-10.6426
所用	-10.6426
終於	-10.6427
二十四年	-10.643
黙然	-10.643
初無	-10.643
不一	-10.6432
其力	-10.6433
安置	-10.6442
膠	-10.6443
莊宗	-10.6444
圉	-10.6451
急於	-10.6454
把	-10.6455
晃	-10.6456
所至	-10.6456
芮	-10.6457
而行之	-10.6459
于周	-10.6459
慟哭	-10.6459
請和	-10.6459
䛕	-10.646
冐	-10.646
渙	-10.6462
庇	-10.6462
罷兵	-10.647
涪	-10.6473
有常	-10.6476
岳飛	-10.6479
可畏	-10.6481
自此始	-10.6482
築城	-10.6482
以身	-10.6482
治平	-10.6483
惜之	-10.6484
長驅	-10.6487
凡書	-10.6488
景公	-10.6492
部落	-10.6494
潞	-10.6494
取士	-10.6501
安可	-10.6501
善政	-10.6506
力士	-10.6513
兵至	-10.6514
無遺	-10.6515
彗	-10.6515
太上皇	-10.6519
知逺	-10.6527
楊素	-10.6528
庶人	-10.6532
僖宗	-10.6532
四十里	-10.6533
酋	-10.6534
大計	-10.6536
古文	-10.6537
菜	-10.6541
無子	-10.6541
轉運	-10.6544
名注	-10.6545
宋以	-10.6546
縊	-10.6549
燧	-10.655
顧引拾	-10.6552
改曰	-10.6553
嶷	-10.6553
盡力	-10.6554
戕	-10.6556
對曰臣	-10.6561
徒以	-10.6563
奉表	-10.6563
二十五	-10.6573
乃詔	-10.6577
皆曰	-10.6577
為左	-10.6582
中有	-10.6585
此又	-10.6585
而不書	-10.6593
遣中使	-10.6594
故特	-10.6597
相去	-10.6599
義陽	-10.6601
紀年	-10.6611
下令	-10.6612
三思	-10.6614
命之	-10.6615
公羊傳	-10.6617
郡唐	-10.6618
注同上年	-10.6618
六卿	-10.663
行宻	-10.6631
乾元	-10.6632
未有不	-10.6632
初改	-10.6632
所獲	-10.6634
臣恐	-10.6636
拱	-10.6636
冡	-10.6637
鼻	-10.6638
冰	-10.664
誇	-10.6642
之望	-10.6642
建元	-10.6643
潼關	-10.6643
疇	-10.6645
几	-10.6646
灼	-10.6646
它	-10.6648
詡	-10.6648
張掖	-10.665
於世	-10.665
零陵	-10.6653
所以著	-10.6655
中使	-10.6656
享國	-10.6669
乃得	-10.668
至公	-10.668
叔向	-10.6686
庶子	-10.6687
西漢	-10.6688
不逮	-10.6692
綬	-10.6693
不堪	-10.6696
舌	-10.67
召見	-10.67
故地	-10.6701
舊書	-10.6708
則曷為	-10.671
滄	-10.6712
又欲	-10.6713
遁去	-10.6718
勸進	-10.6727
臘	-10.6727
諾	-10.6728
誤作	-10.6728
不由	-10.6729
亦何	-10.6729
絶其	-10.6735
陽人	-10.6737
銷	-10.6737
綸	-10.6738
寝	-10.6738
販	-10.6738
敇	-10.6739
飽	-10.6739
乎且	-10.674
僥倖	-10.6741
移檄	-10.6743
躁	-10.6746
泛	-10.6746
諭之	-10.6747
易之	-10.6747
聚歛	-10.6747
上漏	-10.6752
可否	-10.6752
以俟	-10.6752
道之	-10.6754
析置	-10.6754
曰王	-10.6755
可與	-10.676
當國	-10.6765
奏曰	-10.6771
不取	-10.6774
所致	-10.6775
無為	-10.6776
四時	-10.6777
求其	-10.6777
大人	-10.6779
此所謂	-10.6782
故城	-10.6783
趙鼎	-10.6783
奭	-10.6785
罪也	-10.6789
漢為	-10.679
國號	-10.6794
萊	-10.6796
主簿	-10.6796
之物	-10.6799
兵敗	-10.6799
夫豈	-10.6799
大體	-10.68
其子孫	-10.6802
之教	-10.6802
乃復	-10.6803
叙事	-10.6803
掖	-10.6806
上䟽	-10.6809
潭州	-10.6812
相攻	-10.6824
二帝	-10.6826
張本	-10.6826
不加	-10.6831
授以	-10.6833
焉耳	-10.6834
著書	-10.6835
苻堅	-10.6836
奬	-10.6837
凡例	-10.6838
而可	-10.6838
之端	-10.6839
埋	-10.6839
酖	-10.6839
昌黎	-10.6842
汶	-10.6844
不識	-10.6849
囘紇	-10.6851
注見漢武帝	-10.6852
華州	-10.6855
仍為	-10.6857
入海	-10.686
荆公	-10.6861
制置使	-10.6862
為宰相	-10.687
賢才	-10.6876
魏書	-10.6877
二王	-10.6878
興師	-10.6882
難以	-10.6883
退保	-10.6884
謂之曰	-10.6891
治天下	-10.6894
人者	-10.6903
寡君	-10.6906
好學	-10.6907
書詔	-10.6907
前此	-10.6908
兵柄	-10.6908
堯之	-10.691
又遣	-10.6911
注見周顯王	-10.6914
武公	-10.6916
雲南	-10.6917
蠶	-10.6923
𤼵	-10.6923
遂殺	-10.6923
其法	-10.6925
何譏	-10.6925
千古	-10.6926
塟	-10.6927
岑	-10.6929
隴右	-10.6929
赴之	-10.693
無敢	-10.693
后稷	-10.693
姻	-10.693
副之	-10.6933
譜	-10.6933
塲	-10.6934
汲汲	-10.6937
臣燾曰	-10.6938
削之	-10.695
若有	-10.6952
數十人	-10.6956
行也	-10.6956
惟恐	-10.6959
縣西南	-10.696
之私	-10.6964
威福	-10.697
弑逆	-10.6974
既已	-10.6975
欲令	-10.6975
乃出	-10.6975
而民	-10.6976
堰	-10.6977
欲自	-10.6977
前史	-10.698
又使	-10.698
於國	-10.6984
民力	-10.6987
衡山	-10.6988
敗死	-10.6988
之口	-10.6988
其首	-10.6992
矯詔	-10.6993
立之	-10.6994
拒守	-10.6994
建寧	-10.6997
或云	-10.6997
且曰	-10.6998
復讐	-10.6998
所立	-10.7
治道	-10.7006
季子	-10.7008
禧	-10.7011
敦煌	-10.7012
也盖	-10.7014
年表	-10.7016
何益	-10.702
回鶻	-10.7023
暑	-10.7023
峴	-10.7024
譲	-10.7025
壺	-10.7025
瑾	-10.7027
藻	-10.703
仆	-10.703
桂陽	-10.703
陸贄	-10.7033
今又	-10.7034
不可得而	-10.7035
叩頭	-10.7035
令孜	-10.7036
黯	-10.7038
嘗為	-10.7039
慶府	-10.7048
是爲	-10.7053
之治	-10.7056
陜州	-10.706
耳今	-10.7065
至徳	-10.7065
武子	-10.7069
猶可	-10.707
貞元	-10.7073
舍人	-10.7073
斯言	-10.7077
退而	-10.7078
前日	-10.7079
而用	-10.708
不可用	-10.7083
三子	-10.7084
其徒	-10.7086
新書	-10.7086
不救	-10.7087
開封府	-10.7092
南康	-10.7092
不可得	-10.7094
門下	-10.7097
十人	-10.7101
以待之	-10.7101
馮道	-10.7103
葵	-10.7117
厲公	-10.712
賚	-10.712
委之	-10.7121
彦博	-10.7123
帯	-10.7124
之用	-10.7124
鷄	-10.7125
殖	-10.7125
烹	-10.7126
彘	-10.7126
坑	-10.7127
或者	-10.7128
籌	-10.7128
晩	-10.7129
皆降	-10.7134
柰何	-10.7134
曦	-10.7138
為治	-10.714
身為	-10.7143
泗州	-10.7146
名在	-10.7146
建中	-10.715
懐恩	-10.7151
縣東北	-10.7152
之威	-10.7155
汝愚	-10.716
不以為	-10.716
武庚	-10.716
令尹	-10.7162
無度	-10.7163
邑名	-10.7164
從其	-10.7172
自以為	-10.7178
就國	-10.7181
牲	-10.7182
元鼎	-10.7185
鄭人	-10.7185
悲夫	-10.7186
國也	-10.7191
還宫	-10.7197
豈無	-10.7204
上問	-10.7209
赤眉	-10.7211
北面	-10.7212
使民	-10.7212
巾	-10.7215
復有	-10.7219
漢陽	-10.722
苞	-10.7221
拓	-10.7221
竦	-10.7222
異於	-10.7222
輝	-10.7222
者又	-10.7222
郁	-10.7223
於此置	-10.7223
磨	-10.7223
仁傑	-10.7224
嗣位	-10.7224
過失	-10.7225
禾	-10.7226
􁀙	-10.7226
暫	-10.7227
闘	-10.723
霄	-10.7233
不果	-10.7233
虎牢	-10.7235
迂	-10.7235
其兵	-10.7237
廟號	-10.7241
楚州	-10.7242
棄市	-10.7246
一身	-10.7248
固當	-10.7248
六經	-10.7255
否則	-10.7257
贓	-10.7257
安西	-10.7263
乘勝	-10.7264
賜爵	-10.7269
至京師	-10.7271
所置	-10.7271
也乃	-10.7277
人君之	-10.728
聊	-10.7282
相持	-10.7285
所過	-10.7292
幽王	-10.7297
和元年	-10.7297
見殺	-10.7299
至尊	-10.7304
二十七年	-10.7305
示之	-10.7305
注見周	-10.7308
母弟	-10.7312
者一	-10.7315
卭	-10.732
縳	-10.732
暠	-10.7322
平元年	-10.7322
箭	-10.7322
散騎常侍	-10.7324
今年	-10.7324
敵人	-10.7325
拯	-10.7327
想	-10.7328
縮	-10.7329
創業	-10.733
荀卿	-10.7331
者無	-10.7334
以降	-10.7334
規模	-10.7336
上乃	-10.7345
始有	-10.7346
神武	-10.7347
濟河	-10.7353
忠直	-10.7353
霸先	-10.7358
之請	-10.7359
六百	-10.736
福建	-10.7363
長孫	-10.7364
為侍中	-10.7365
欽若	-10.7365
王珪	-10.7368
而終	-10.7368
遂為	-10.737
怨望	-10.737
變而	-10.7371
天下之人	-10.7372
伐魏	-10.7372
行至	-10.7373
多所	-10.7373
乎夫	-10.7375
天下者	-10.7375
涿郡	-10.7376
事不	-10.7377
所親	-10.7377
亦未	-10.7378
班師	-10.7378
諸生	-10.7378
於漢	-10.7379
以事	-10.7386
五經	-10.7388
尋改	-10.7389
安撫	-10.739
於斯	-10.7391
之迹	-10.7396
殿中	-10.7399
太伯	-10.74
孫之翰	-10.74
荆南	-10.74
宣慰	-10.7401
縣東南	-10.7401
山崩	-10.7401
二十八年	-10.7402
周公之	-10.7407
無君	-10.7407
立國	-10.741
中都	-10.7412
廓	-10.7413
非所	-10.7419
参	-10.7419
後趙	-10.7419
避之	-10.7423
峕	-10.7424
頸	-10.7425
而忘	-10.7428
為後	-10.7429
流民	-10.7429
嚴矣	-10.7432
説文	-10.7433
交趾	-10.7433
立是為	-10.7434
甲申	-10.7435
大悦	-10.7436
遣其	-10.7436
九錫	-10.7437
已甚	-10.7439
之首	-10.7442
豫州刺史	-10.7443
宋金	-10.7444
無愧	-10.7452
嘗與	-10.7456
當有	-10.7456
之形	-10.7462
梁州	-10.7464
凡十	-10.7464
忠孝	-10.7464
三分	-10.7464
敬宗	-10.7464
留之	-10.7465
者二	-10.7466
時政	-10.7468
豳	-10.7472
施行	-10.7476
不與焉	-10.7476
睢陽	-10.7478
都䕶	-10.748
宜矣	-10.7483
於諸侯	-10.7487
永嘉	-10.7488
遂罷	-10.7491
王曰	-10.7495
南宫	-10.7499
豎	-10.75
魯人	-10.7504
相位	-10.7504
之常	-10.7511
自然	-10.7513
其官	-10.7518
固不	-10.7523
陳氏	-10.7524
犀	-10.7524
輟	-10.7527
俞	-10.7527
集覧	-10.7527
酌	-10.7528
躡	-10.7528
止書	-10.753
汜	-10.7531
揭	-10.7531
矧	-10.7532
股	-10.7534
過於	-10.7534
經筵	-10.7536
乘輿	-10.7542
唐太宗	-10.7542
臣也	-10.7547
莫大於	-10.7548
告急	-10.7551
武都	-10.7554
帝怒	-10.7555
得天下	-10.7556
聲色	-10.7563
君子小人	-10.7565
唐置	-10.7565
城東	-10.7565
此正	-10.7566
弑之	-10.7569
帝乃	-10.7574
擅權	-10.7575
宣撫	-10.7576
所向	-10.7576
又非	-10.7577
鐸	-10.7578
楚之	-10.7579
梁冀	-10.7581
邠	-10.7581
十卷	-10.7586
其兄	-10.7587
曰子	-10.7593
八百	-10.7594
僧辯	-10.7594
二公	-10.7596
故特書	-10.7598
謁者	-10.76
傳云	-10.7601
國家之	-10.7601
注見秦	-10.7604
則不然	-10.7607
樞密	-10.7607
偷	-10.7607
我太祖	-10.7609
紿	-10.7618
晞	-10.7619
便宜	-10.762
犯法	-10.7621
澶州	-10.7624
百人	-10.7627
權衡	-10.7628
曲沃	-10.7629
邦昌	-10.7629
奢侈	-10.763
者當	-10.763
畱	-10.7632
畨	-10.7632
珣	-10.7633
中書舍人	-10.7633
刄	-10.7634
飢	-10.7635
守將	-10.7635
㢘	-10.7636
立法	-10.7636
上流	-10.7641
桀紂	-10.7643
所云	-10.7644
矣乃	-10.7644
任之	-10.765
大掠	-10.7652
休息	-10.7652
黨人	-10.7653
千秋	-10.7654
瓉	-10.7657
何者	-10.7657
叛降	-10.7665
完顔	-10.7666
察其	-10.7668
賜姓	-10.7668
割地	-10.7669
郭威	-10.7672
周官	-10.7675
尚書省	-10.7677
領軍	-10.7685
已定	-10.7686
送之	-10.7686
茍免	-10.7689
四川	-10.7691
本朝因之改屬	-10.7692
居中	-10.7694
州名	-10.7694
焚之	-10.7698
㐮	-10.7699
而東	-10.7699
歴代	-10.77
可知也	-10.7703
也如	-10.7706
無常	-10.7709
謝安	-10.771
詳見	-10.7711
哉故	-10.7711
異同	-10.7715
歸國	-10.7719
者或	-10.7721
多士	-10.7721
自安	-10.7721
不順	-10.7722
過矣	-10.7722
周人	-10.7723
宣城	-10.7724
拾遺	-10.7726
鄭州	-10.7728
一統志	-10.7729
以拒	-10.7729
衢	-10.773
寫	-10.7731
昉	-10.7731
其私	-10.7732
抽	-10.7732
牆	-10.7733
扇	-10.7735
汰	-10.7736
光禄大夫	-10.7736
般	-10.7736
房𤣥齡	-10.7737
孛	-10.7737
去其	-10.7739
簽書樞密院事	-10.774
籠	-10.7741
合肥	-10.7741
穆王	-10.7741
楊國忠	-10.7742
袁術	-10.7743
秦王堅	-10.7744
其妻	-10.7744
萬騎	-10.7745
城西	-10.7745
二十一年	-10.7746
兵起	-10.775
李光弼	-10.7751
上欲	-10.7752
莫如	-10.7752
孺子	-10.7753
嘉祐	-10.7754
夀春	-10.7755
郊祀	-10.7756
鄉里	-10.7756
則可	-10.7761
吏部	-10.7763
入對	-10.7763
昭儀	-10.7766
國用	-10.7768
出為	-10.7768
可用	-10.7768
巴蜀	-10.7769
乃欲	-10.7771
南方	-10.7772
之漸	-10.7774
得一	-10.7777
七十里	-10.7782
擒之	-10.7784
弗克	-10.7785
而致	-10.7785
第三	-10.7789
莫之	-10.7789
過也	-10.779
遺詔	-10.7791
元年春正月	-10.7791
奔走	-10.7793
其他	-10.7793
黼	-10.7798
致其	-10.7799
故雖	-10.7801
軍國	-10.7804
計也	-10.7804
入㓂	-10.781
不稱	-10.7811
公論	-10.7812
作者	-10.7819
無私	-10.7821
分置	-10.7823
所及	-10.7823
已下	-10.7826
悔之	-10.7832
如字	-10.7833
鍳	-10.7834
喇	-10.7836
詧	-10.7836
跨	-10.7837
迨	-10.7838
牘	-10.7839
逖	-10.784
霜	-10.784
也豈	-10.784
讜	-10.7841
街	-10.7841
龜兹	-10.7842
愷	-10.7842
孔明	-10.7843
建國	-10.7844
茹	-10.7845
竝	-10.7845
言語	-10.7846
芒	-10.7847
恐懼	-10.7848
臣竊	-10.7848
神仙	-10.785
叟	-10.7851
稱疾	-10.7852
少府	-10.7856
以避	-10.7863
稱皇帝	-10.7866
是謂	-10.7867
重耳	-10.7869
同心	-10.7874
者多矣	-10.7874
擁兵	-10.7877
承制	-10.7879
忠於	-10.7882
巴陵	-10.7882
三字	-10.7883
制之	-10.7885
父老	-10.7885
相公	-10.7886
持節	-10.7887
非不	-10.7888
疑其	-10.7892
箕	-10.7893
無得	-10.7897
本末	-10.7899
風雨	-10.79
去年	-10.79
為首	-10.7901
井田	-10.7902
吳人	-10.7905
西方	-10.7912
隅	-10.7917
五代時	-10.7918
既至	-10.792
新安	-10.7926
也是以	-10.7927
為上	-10.7928
文字	-10.793
著其	-10.7932
陽郡	-10.7932
頊	-10.7936
平章政事	-10.7936
者即	-10.7936
佩	-10.7937
蜀人	-10.7937
乳	-10.7939
皝	-10.7939
交通	-10.7942
椒	-10.7942
知樞密院事	-10.7945
禘	-10.7945
臨江	-10.7945
顓頊	-10.7948
乙亥	-10.7948
濠	-10.7949
擲	-10.795
賈似道	-10.7951
終日	-10.7951
不入	-10.7951
飭	-10.7952
吿	-10.7955
干戈	-10.796
邪正	-10.796
問曰	-10.7961
有變	-10.7962
煬帝	-10.7965
定陶	-10.797
亦不能	-10.798
漢文	-10.7981
内臣	-10.7982
足下	-10.7982
後書	-10.7984
長者	-10.7992
英宗	-10.7996
三省	-10.8007
西平	-10.8012
不息	-10.8013
悼公	-10.8017
男子	-10.8024
常侍	-10.8026
其城	-10.8026
層	-10.8027
初改為	-10.8027
朝野	-10.8028
年少	-10.803
然自	-10.8033
自知	-10.8033
酒泉	-10.8034
司馬公曰	-10.8036
兵法	-10.8036
尚有	-10.8037
碩	-10.8037
為太尉	-10.8038
于天	-10.8041
事有	-10.8041
既平	-10.8044
九齡	-10.8044
過人	-10.8044
欽宗	-10.8045
人多	-10.8046
稱制	-10.8047
裳	-10.8047
棣	-10.8049
裝	-10.8054
竈	-10.8056
鶴	-10.8056
者盖	-10.8057
渥	-10.8058
望風	-10.8058
輯	-10.8059
猜忌	-10.806
二國	-10.8061
遣將	-10.8061
師古	-10.8065
忠賢	-10.8065
耽	-10.8068
薦之	-10.8072
遼西	-10.8073
之可也	-10.8074
開皇	-10.8075
李徳裕	-10.8077
以獻	-10.8079
新莽	-10.808
三晉	-10.8081
吉凶	-10.8084
又不	-10.8087
畏之	-10.8093
所取	-10.8095
者是	-10.8098
慶之	-10.8101
引還	-10.8108
表字	-10.811
惟其	-10.8116
劉宋	-10.8117
宋史	-10.8117
帝從之	-10.812
所敗	-10.8125
專權	-10.8129
其過	-10.813
者獨	-10.813
賢臣	-10.8133
乎故	-10.8135
槐	-10.8139
之險	-10.8139
盛徳	-10.8139
歙	-10.8142
大節	-10.8143
舟師	-10.8145
於我	-10.8146
軍民	-10.8146
赧王	-10.8147
而易	-10.815
可得而	-10.815
注見漢獻帝建安	-10.815
奐	-10.8152
趙氏	-10.8152
曹氏	-10.8152
䟦	-10.8154
頡利	-10.8157
枚	-10.8157
墻	-10.816
冏	-10.816
非人	-10.816
二十八	-10.8161
隸	-10.8161
太初	-10.8162
制置	-10.8162
窘	-10.8162
付之	-10.8163
甚於	-10.8163
毋得	-10.8164
嚕	-10.8164
毁之	-10.8165
若以	-10.8165
吝	-10.8165
汧	-10.8165
召還	-10.8165
梗	-10.8166
殞	-10.8167
此二	-10.8168
於晉	-10.8174
義康	-10.8176
應劭曰	-10.8181
死不	-10.8184
與夫	-10.8184
聖王	-10.8184
首尾	-10.8186
罪惡	-10.8186
此其所以	-10.8188
當世	-10.8188
有可	-10.8189
等州	-10.8192
十餘年	-10.8193
太白	-10.8195
畧無	-10.8195
周書	-10.8195
蔡州	-10.8199
大行	-10.8199
永昌	-10.82
無所不	-10.82
隋書	-10.8206
賜名	-10.8209
隣	-10.821
從弟	-10.8214
親征	-10.8218
察之	-10.8218
於楚	-10.822
于是	-10.8221
陪	-10.8221
遷于	-10.8224
夫何	-10.8231
未嘗有	-10.8232
征討	-10.8232
雖曰	-10.8234
天水	-10.8234
何由	-10.8237
季孫	-10.8237
詩云	-10.8239
敢言	-10.8242
稹	-10.8244
引兵還	-10.8247
畤	-10.8247
戰死	-10.8249
然猶	-10.825
水旱	-10.825
降於	-10.8252
全義	-10.8253
宣子	-10.8256
廢帝	-10.8258
元載	-10.8258
譬	-10.8258
亘	-10.8263
沆	-10.8265
熱	-10.8266
繡	-10.8267
無厭	-10.8268
索隐曰	-10.8269
縦	-10.8271
畆	-10.8273
偪	-10.8273
汴州	-10.8273
七日	-10.8274
以應	-10.8274
謡	-10.8274
日磾	-10.8276
於周	-10.8276
即皇帝位	-10.8277
項籍	-10.8277
王者之	-10.8278
名臣	-10.828
知所	-10.8281
鹽鐵	-10.8281
斡里雅布	-10.8281
管蔡	-10.8285
齊桓公	-10.8287
文王之	-10.829
平生	-10.8291
師傅	-10.8291
之詩	-10.8294
黄金	-10.8296
未免	-10.8302
有能	-10.8304
南越	-10.8305
文徳	-10.8308
始以	-10.8308
華隂	-10.8312
曰是	-10.8317
七國	-10.8319
杜預	-10.8323
而輕	-10.8324
終始	-10.8325
未成	-10.8325
之親	-10.8328
康叔	-10.8328
之稱	-10.8334
之責	-10.834
君臣之	-10.8345
母后	-10.8345
漢光武	-10.8348
伐宋	-10.8349
夏州	-10.835
卿士	-10.8352
其徳	-10.8353
帝命	-10.8353
奈	-10.8355
本無	-10.8355
又與	-10.8357
之南	-10.8357
零	-10.8359
賢君	-10.8365
為尚書	-10.8365
車騎	-10.8367
為后	-10.8368
兩河	-10.8371
下之	-10.8374
事覺	-10.8375
髦	-10.8376
隗囂	-10.8377
皎	-10.8378
扞	-10.838
酺	-10.8381
摘	-10.8382
刁	-10.8382
琴	-10.8385
挈	-10.8385
涇州	-10.8386
庚申	-10.8389
元二年	-10.839
殁	-10.839
此豈	-10.8391
丁巳	-10.8391
朱泚	-10.8391
浮屠	-10.8393
貴戚	-10.8401
丙子	-10.8401
将士	-10.8403
無疑	-10.8404
亦不可	-10.8407
則曰	-10.8409
上聞	-10.8412
韓愈	-10.8415
僧格	-10.8417
兵馬	-10.8417
太宰	-10.8418
獨孤	-10.8418
除名	-10.842
州後	-10.8423
謝罪	-10.8424
子西	-10.8424
有徳	-10.8425
天祐	-10.8426
黄龍	-10.8427
所以著其	-10.8428
曲直	-10.8432
王元	-10.8433
奪之	-10.8436
當為	-10.8437
至長安	-10.844
遣之	-10.8448
宋書	-10.8449
不拜	-10.8452
大将軍	-10.8455
所撰	-10.8456
舊臣	-10.8456
無知	-10.8457
於宋	-10.846
求和	-10.8461
上書言	-10.8462
永興	-10.8464
也噫	-10.8465
之過也	-10.8468
第二	-10.8468
先朝	-10.8468
騎兵	-10.8468
二君	-10.8469
春秋之法	-10.8469
於魏	-10.847
安在	-10.847
封侯	-10.8472
禮之	-10.8472
經義	-10.8473
政令	-10.8474
廆	-10.8474
逋	-10.8476
北軍	-10.8477
不改	-10.8479
受詔	-10.8479
滑州	-10.8481
蠱	-10.8484
藍	-10.8484
為句	-10.8484
敬瑭	-10.8486
摯	-10.8487
其利	-10.8487
雕	-10.8488
異姓	-10.8488
團	-10.8489
重誨	-10.8492
宋室	-10.8492
濵	-10.8492
躍	-10.8493
貲	-10.8493
武威	-10.8493
正也	-10.8495
矛	-10.8497
粥	-10.8498
檢校	-10.8499
盡其	-10.8501
暐	-10.8501
子業	-10.8504
剥	-10.8506
百僚	-10.8507
昻	-10.8507
諸將皆	-10.8509
安王	-10.851
李勣	-10.8511
不誅	-10.8514
皆書	-10.8514
大名	-10.8519
上官	-10.8519
周王	-10.852
家語	-10.8523
縣官	-10.8524
二十六年	-10.8525
流言	-10.8525
兵馬使	-10.8528
而未	-10.8529
際	-10.8529
令狐	-10.853
三千人	-10.8532
合從	-10.8537
濮陽	-10.8541
是皆	-10.8546
為天	-10.855
以著	-10.8554
貝	-10.8554
恊	-10.8555
水陸	-10.8562
之性	-10.8574
複	-10.8575
雒	-10.8577
魏收	-10.8589
之德	-10.859
臣聞	-10.8592
不測	-10.8596
不祥	-10.8597
壮	-10.8598
懇	-10.8599
三王	-10.8599
十有二	-10.86
拾	-10.8603
滅亡	-10.8604
又云	-10.8604
誡	-10.8604
不可以不	-10.8605
雋	-10.8606
者豈	-10.8606
軫	-10.8606
叢	-10.8607
騐	-10.8608
傍	-10.861
又按	-10.861
拉	-10.8611
弦	-10.8611
漫	-10.8612
谿	-10.8612
歷	-10.8615
訾	-10.8618
糜	-10.8619
攷	-10.862
復何	-10.8621
龍門	-10.8624
則見	-10.8629
宣和	-10.8637
李絳	-10.8638
故謂之	-10.8638
八人	-10.8638
獻公	-10.8645
懼而	-10.8646
恭帝	-10.8649
許州	-10.865
充國	-10.8652
不早	-10.8654
監司	-10.8654
恭儉	-10.8662
亡而	-10.8665
不可勝	-10.8666
以私	-10.8666
惠卿	-10.8668
君也	-10.8668
之所為	-10.8669
欲其	-10.8675
瑱	-10.8679
遂入	-10.8682
求去	-10.8683
鉅鹿	-10.8684
太宗之	-10.8685
王導	-10.8691
南面	-10.8692
銘	-10.8693
美之	-10.8694
浙	-10.8697
交州	-10.8698
之前	-10.8699
祖宗之	-10.8709
之興	-10.8714
塢	-10.8715
慝	-10.8716
以亡	-10.8719
酬	-10.8719
也曷為	-10.8721
滇	-10.8723
膏	-10.8724
伋	-10.8724
互相	-10.8726
諫議大夫	-10.8727
浙西	-10.8732
皷	-10.8732
舛	-10.8733
甲寅	-10.8736
延夀	-10.8738
温公曰	-10.8744
舜禹	-10.8745
郡隋	-10.8745
去就	-10.8747
倖	-10.8748
乃召	-10.8748
城北	-10.8757
所出	-10.8757
璽綬	-10.8758
且以	-10.876
正色	-10.8767
踰年	-10.8767
山名	-10.877
神器	-10.8773
四面	-10.8775
在今	-10.8776
之遺	-10.8779
亡矣	-10.8779
惑於	-10.878
李靖	-10.8782
之善	-10.8784
推之	-10.8785
相承	-10.8788
而書之	-10.8788
皆以為	-10.879
廣徳	-10.8791
臣請	-10.8794
故以	-10.8795
韋氏	-10.8797
東門	-10.8798
聚衆	-10.88
郡王	-10.88
禹之	-10.88
門人	-10.88
宜乎	-10.8802
黄河	-10.8803
淵明	-10.8804
張説	-10.8805
之路	-10.8806
諸鎮	-10.8807
問其故	-10.8809
譌	-10.8813
矣故書	-10.8813
諸夏	-10.8813
在乎	-10.8816
辛未	-10.8817
望見	-10.8823
其次	-10.8825
人無	-10.8826
後改	-10.8827
之戰	-10.883
參政	-10.8831
注見武帝	-10.8835
二年春正月	-10.8835
餌	-10.8839
大潰	-10.8839
恠	-10.8839
紊	-10.8839
䘏	-10.8841
稜	-10.8841
殯	-10.8841
髠	-10.8842
豕	-10.8842
獠	-10.8842
捍	-10.8843
奠	-10.8843
繒	-10.8844
明帝永平	-10.8844
亶	-10.8844
器械	-10.8845
同三品	-10.8847
二者	-10.8848
萬民	-10.8848
登城	-10.8851
鎔	-10.8851
甲午	-10.8852
曰天下	-10.8854
俄	-10.8855
踐位	-10.8855
不可為	-10.8856
武安	-10.8856
分註	-10.8856
餘皆	-10.8857
齊國	-10.8864
李茂貞	-10.8864
一篇	-10.8865
都指揮使	-10.8865
如晉	-10.8867
亦必	-10.8868
思明	-10.8869
文彦博	-10.887
在焉	-10.887
筆削	-10.8871
君心	-10.8876
君而	-10.8877
又置	-10.8878
待罪	-10.8879
可以為	-10.888
智伯	-10.8881
字下有	-10.8881
土木	-10.8881
三十萬	-10.8887
改置	-10.8887
狩	-10.8888
不求	-10.8889
昭義	-10.8889
募兵	-10.8889
後屬	-10.8894
五百里	-10.8897
被執	-10.8897
皆稱	-10.89
注同上	-10.8901
瀛	-10.8902
以供	-10.8905
焉而	-10.8905
為庶人	-10.8907
賢相	-10.8907
開府	-10.891
五里	-10.8914
自漢	-10.8916
義理	-10.8916
徙都	-10.8917
伐楚	-10.8918
不負	-10.8919
天書	-10.892
天下之事	-10.8921
愛其	-10.8931
右丞相	-10.8938
西戎	-10.8941
死生	-10.8941
皆出	-10.8947
二是年	-10.8947
盾	-10.8947
涿	-10.8948
龕	-10.895
不孝	-10.8951
為害	-10.8953
郡守	-10.8954
後主建興	-10.8955
䖏	-10.8957
虎賁	-10.8958
而猶	-10.8958
安平	-10.8958
儔	-10.8958
駁	-10.8958
驍勇	-10.8959
跪	-10.896
旰	-10.8961
粤	-10.8961
魄	-10.8961
恚	-10.8961
武侯	-10.8962
夔	-10.8962
渚	-10.8962
禎	-10.8963
則民	-10.8964
朂	-10.8965
慿	-10.8965
能以	-10.8966
匠	-10.8966
巴郡	-10.8966
稚	-10.8967
屯兵	-10.8967
水軍	-10.8971
隳	-10.8971
猶在	-10.8972
餘人	-10.8972
書爵	-10.8976
亡命	-10.8978
揚州刺史	-10.8979
為平章政事	-10.8985
得幸	-10.8985
以圖	-10.8985
殤	-10.8988
焉故	-10.8991
韋昭曰	-10.8994
為我	-10.8995
嗟乎	-10.8996
淮隂	-10.8998
子貢	-10.8999
之明	-10.9
之謂也	-10.9
魏兵	-10.9006
鄆州	-10.901
使天下	-10.9016
以其子	-10.9018
不逺	-10.9019
孝子	-10.9019
觀此	-10.9019
三國魏	-10.9022
亦可謂	-10.9022
矣若	-10.9025
經術	-10.9029
將吏	-10.9029
呉主	-10.9032
建業	-10.9037
名注見漢	-10.9038
司𨽻	-10.9038
出知	-10.9039
晉師	-10.9042
不少	-10.9043
隋唐	-10.9044
可取	-10.9045
所行	-10.9047
驍	-10.9051
國朝	-10.9052
日中	-10.9054
涇原	-10.9058
若使	-10.9059
東觀	-10.9059
詹	-10.9061
謐	-10.9067
妬	-10.9069
猾	-10.9071
而况	-10.9072
饑饉	-10.9073
安得不	-10.9073
磧	-10.9074
椎	-10.9074
伲胄	-10.9075
帷	-10.9075
注見秦王政三年	-10.9076
癸亥	-10.9076
鳩	-10.9076
綝	-10.9076
瑶	-10.9077
批	-10.9077
球	-10.9077
㝠	-10.9078
者正	-10.9078
轅	-10.9079
斫	-10.9079
諮	-10.9079
蜀漢	-10.9079
列侯	-10.9079
厄	-10.908
填	-10.908
城門	-10.9081
知制誥	-10.9081
楊行宻	-10.9082
伎	-10.9083
至是始	-10.9084
曹彬	-10.9084
闡	-10.9085
慷慨	-10.9085
售	-10.9086
所置治	-10.9086
三世	-10.9087
宋璟	-10.909
蒙古	-10.9093
盧杞	-10.9093
后妃	-10.9096
其說	-10.9098
最為	-10.91
先聖	-10.9102
朝議	-10.9102
同州	-10.9105
郡唐初	-10.9107
之具	-10.911
譏之也	-10.9112
不悟	-10.9113
後有	-10.9114
太王	-10.9115
所有	-10.9115
兵攻	-10.9124
遣使者	-10.9128
大中	-10.9128
謀議	-10.9132
為大司馬	-10.9135
舜之	-10.9135
合兵	-10.9135
以是為	-10.9137
大都督	-10.9138
馬援	-10.914
茍有	-10.9142
戒之	-10.9143
為己	-10.9143
以功	-10.9144
周赧王	-10.9147
駟	-10.9154
帝如	-10.9156
旣而	-10.9156
世修	-10.9156
不軌	-10.9157
之女	-10.9157
民不	-10.9158
二三	-10.9158
漢屬	-10.9159
既得	-10.916
永樂	-10.9162
常以	-10.9165
禮儀	-10.9166
揚子	-10.9166
免官	-10.9168
楚師	-10.9171
守臣	-10.9172
手足	-10.9173
御批資治通鑑綱目卷	-10.9176
近世	-10.9177
憲宗元和	-10.9178
附之	-10.9178
河南尹	-10.9185
漢髙	-10.9186
信任	-10.9186
待制	-10.9188
未見	-10.9188
矣書	-10.919
彼必	-10.919
公議	-10.919
尹氏	-10.9192
安知	-10.9193
惰	-10.9193
弓矢	-10.9194
囚之	-10.9195
齊桓	-10.9196
僞	-10.9196
訊	-10.9197
嗣君	-10.9198
盎	-10.9198
庚午	-10.9199
蓬	-10.9199
紅	-10.9199
愎	-10.92
檻	-10.9201
戢	-10.9202
詬	-10.9202
旻	-10.9202
三家	-10.9205
忠言	-10.9205
有不	-10.9206
殿前	-10.9207
何至	-10.9207
執事	-10.9209
以奉	-10.9209
無名	-10.9211
甲辰	-10.9211
論其	-10.9212
祥瑞	-10.9212
行而	-10.9215
凡此	-10.9215
之族	-10.9217
若曰	-10.9222
二十二	-10.9224
豈其	-10.9226
純仁	-10.9226
元符	-10.9226
申生	-10.9229
通判	-10.9235
隨之	-10.9242
司馬遷	-10.9248
亦猶	-10.9248
勝之	-10.9249
人不	-10.9251
兵於	-10.9251
所由	-10.9252
不振	-10.9254
必為	-10.9257
新野	-10.9258
之詔	-10.926
為留後	-10.9261
仁厚	-10.9262
數千里	-10.9268
初立	-10.9271
而不言	-10.9271
叛臣	-10.9275
凡四	-10.9276
其流	-10.9277
六人	-10.9278
城郭	-10.928
此章	-10.9282
因事	-10.9283
艦	-10.9285
欲求	-10.9288
愍帝	-10.9291
上谷	-10.9293
戰士	-10.9293
之㫖	-10.9294
帝即位	-10.9301
為重	-10.9302
為刺史	-10.9304
何謂	-10.9304
蔡氏曰	-10.9305
本朝因之	-10.9309
周以	-10.9309
也昔	-10.931
豈以	-10.931
一字	-10.9311
商人	-10.9313
帝問	-10.9316
駱	-10.9316
以文	-10.9317
曵	-10.932
怏怏	-10.932
司馬懿	-10.9321
戀	-10.9321
禁錮	-10.9322
郝	-10.9323
覃	-10.9323
雩	-10.9324
廐	-10.9324
則可以	-10.9324
丁酉	-10.9324
在我	-10.9324
萬世之	-10.9325
急攻	-10.9327
民皆	-10.933
孝公	-10.933
竇憲	-10.9331
行者	-10.9332
廢太子	-10.9332
有五	-10.9337
四萬	-10.9339
户口	-10.934
盧龍	-10.9341
西魏	-10.9341
鍾離	-10.9346
哀哉	-10.9351
曰臣聞	-10.9352
不朝	-10.9353
不敢言	-10.9354
招討使	-10.9356
統軍	-10.9357
癸未	-10.9358
後來	-10.936
所不	-10.9361
之忠	-10.9361
財用	-10.9365
襲之	-10.9365
其門	-10.9374
流俗	-10.9375
自言	-10.9376
蜀郡	-10.9376
侍讀	-10.9378
特筆也	-10.9379
既不能	-10.9383
平江	-10.9389
可矣	-10.939
大雨	-10.9392
凡三	-10.9394
衣服	-10.9395
降魏	-10.9399
遂良	-10.9404
矣然則	-10.9404
天文	-10.9412
晉武	-10.9416
用其	-10.9421
素與	-10.9422
蕪	-10.9426
後秦	-10.9427
江漢	-10.9428
建議	-10.9429
琨	-10.943
三川	-10.9431
始興	-10.9433
為二	-10.9434
樸	-10.9435
父之	-10.9438
貯	-10.9443
芻	-10.9443
如之何	-10.9444
熒惑	-10.9449
南安	-10.9452
心腹	-10.9454
脉	-10.9454
夫子之	-10.9457
傾覆	-10.9457
稱藩	-10.9461
遇之	-10.9461
汝州	-10.9464
為節度使	-10.9465
嘗書	-10.9466
咸平	-10.9467
何憂	-10.9468
水之	-10.9471
鄧州	-10.9471
其大	-10.9472
鑄錢	-10.9473
師于	-10.9475
從官	-10.9475
漢髙帝	-10.9475
西山	-10.9478
中山王	-10.9479
上自	-10.948
五刑	-10.9488
不附	-10.9489
未甞	-10.9489
不書書	-10.9489
甘心	-10.9491
其類	-10.9492
入相	-10.9492
權勢	-10.9493
於君	-10.9495
吳蜀	-10.9497
漢末	-10.9502
食其	-10.951
少康	-10.951
而南	-10.9513
不就	-10.9516
謀之	-10.952
上都	-10.952
大統	-10.9521
中正	-10.9521
曰然則	-10.9522
戰國時	-10.9528
城邑	-10.9529
中官	-10.9535
卒于	-10.9535
大敗之	-10.9536
次第	-10.9537
系	-10.9538
不虞	-10.9539
從子	-10.954
四十餘	-10.9541
南唐	-10.9543
之事也	-10.9543
江北	-10.9544
長城	-10.9544
上嘗	-10.9545
甚多	-10.9546
秦伯	-10.955
蠡	-10.9553
公田	-10.9554
其軍	-10.9554
未見其	-10.9557
阮	-10.9559
邪説	-10.956
張儀	-10.9561
責其	-10.9562
也釋	-10.9562
猝	-10.9566
肩	-10.9566
同上	-10.9567
洩	-10.957
蒼梧	-10.957
汲黯	-10.957
婆	-10.9571
蘇軾	-10.9574
求賢	-10.9574
伐秦	-10.9575
諶	-10.9575
威權	-10.9576
奎	-10.9578
單騎	-10.9578
徃徃	-10.958
前世	-10.958
汭	-10.9581
同知樞密院事	-10.9583
難矣	-10.9584
舊史	-10.9584
粹	-10.9585
不起	-10.9587
改過	-10.9588
能為	-10.9589
皆可	-10.9589
之耳	-10.959
李全	-10.9591
以謝	-10.9592
道徳	-10.9593
也古者	-10.9593
律令	-10.9598
瓚	-10.9598
州屬	-10.9599
國有	-10.9601
敬則	-10.9604
縣置	-10.9605
國亡	-10.9607
射之	-10.9607
千萬	-10.9607
守光	-10.9609
王黼	-10.9609
此何	-10.9612
科舉	-10.9613
無能	-10.9618
盱眙	-10.962
繼遷	-10.9621
好惡	-10.9621
不予	-10.9621
國勢	-10.9622
河南府	-10.9622
必矣	-10.9622
經營	-10.9624
也是時	-10.9626
或勸	-10.9631
何譏也	-10.9631
賢良	-10.9637
衆人	-10.9637
平州	-10.964
皆死	-10.9646
治所	-10.965
降于	-10.9656
商之	-10.9658
都監	-10.9658
實為	-10.9659
書成	-10.9663
㣲子	-10.9664
以其地	-10.9664
何人	-10.9666
已降	-10.9668
張氏	-10.9675
而廢	-10.9676
異也	-10.9678
而西	-10.9679
之正	-10.968
延光	-10.968
失於	-10.9687
矣且	-10.9688
徤	-10.9689
者謂之	-10.969
沐	-10.9692
太原府	-10.9692
狼狽	-10.9693
禕	-10.9694
闊	-10.9694
小民	-10.9694
祕	-10.9694
董仲舒	-10.9695
吉甫	-10.9696
而誅之	-10.9698
股肱	-10.9698
歟曰	-10.9699
正言	-10.97
枯	-10.97
樞密院	-10.9701
椿	-10.9701
綺	-10.9702
擊敗之	-10.9703
㪚	-10.9703
六州	-10.9705
蘇秦	-10.9705
㕘	-10.9705
權臣	-10.9707
分注載	-10.971
青苗	-10.9711
逆戰	-10.9711
書誅	-10.9715
自立為	-10.9716
兵少	-10.9717
平日	-10.9719
沈約	-10.9719
自陳	-10.972
二曰	-10.972
歐陽修	-10.9721
正名	-10.9721
倦	-10.9723
開門	-10.9727
孝武帝	-10.9728
一舉	-10.9729
數萬人	-10.9731
之可	-10.9732
是知	-10.9733
立皇后	-10.9739
貝州	-10.974
安用	-10.9741
也凡	-10.9743
僖公	-10.9745
二日	-10.9752
附㑹	-10.9753
萬國	-10.9754
將佐	-10.9756
陞為	-10.9757
宋齊	-10.9758
不願	-10.9761
立為	-10.9766
之功也	-10.9766
漢光武建武	-10.9771
著作	-10.9773
義兵	-10.9774
刑法	-10.9775
統制	-10.9777
未敢	-10.9779
唐太宗貞觀	-10.9781
疫	-10.9781
至洛陽	-10.9782
河決	-10.9783
稱之	-10.9785
堯舜之	-10.9785
進用	-10.9787
天人	-10.9787
上天	-10.979
施於	-10.9793
一夫	-10.9793
南渡	-10.9794
天性	-10.9795
書其	-10.9796
生靈	-10.9799
為尚書令	-10.9801
不降	-10.9802
遂圍	-10.9802
國初	-10.9804
方今	-10.9804
馬邑	-10.9808
即今	-10.9808
嬪	-10.9811
祧	-10.9812
聞而	-10.9813
書立	-10.9813
時年	-10.9814
帝意	-10.9814
下至	-10.9818
長孫無忌	-10.9818
李宻	-10.9819
上從之	-10.9819
不戰而	-10.9819
吹	-10.982
丸	-10.9821
逄	-10.9821
哩	-10.9821
既立	-10.9822
戊寅	-10.9823
琬	-10.9824
瑪	-10.9824
䟦扈	-10.9824
嗜	-10.9825
鈎	-10.9825
炳	-10.9825
卻	-10.9826
未之有也	-10.9826
懈	-10.9827
醇	-10.9827
閫	-10.9827
所作	-10.9828
發於	-10.9829
坎	-10.983
非是	-10.983
淑妃	-10.983
暹	-10.983
姑臧	-10.9831
迥	-10.9831
㒺	-10.9832
異日	-10.9833
更相	-10.9833
剽	-10.9833
丙午	-10.9834
臣讀畢口奏	-10.9834
定天下	-10.9835
大呼	-10.9835
西陵	-10.9836
涼州	-10.9837
公孫𢎞	-10.9837
崔𦙍	-10.9838
近習	-10.9841
子路	-10.9843
幕府	-10.9844
盡心	-10.9847
閉門	-10.9847
矢石	-10.9848
郢州	-10.985
君臣之義	-10.985
與我	-10.9856
鞫	-10.9861
漢兵	-10.9863
與俱	-10.9865
為先	-10.9868
金銀	-10.9869
混一	-10.987
欒	-10.9872
逆順	-10.9874
猶豫	-10.9874
豈可以	-10.9876
但以	-10.988
齊楚	-10.988
立后	-10.9881
論事	-10.9883
明白	-10.9883
義不	-10.9894
西羌	-10.9895
縣唐	-10.9897
大權	-10.9898
兵權	-10.9901
理之	-10.9902
以疾	-10.9905
也或曰	-10.9906
食之	-10.991
果有	-10.9913
復立	-10.9914
喜曰	-10.9917
觀者	-10.992
立其子	-10.992
木為	-10.9923
哉此	-10.9923
非其人	-10.9923
拾𥙷	-10.9933
越王	-10.9938
尚未	-10.994
劫	-10.9947
彤	-10.9948
翳	-10.9948
僉	-10.9948
絃	-10.995
興亡	-10.995
覿	-10.995
愽	-10.995
中庸	-10.995
終不能	-10.9951
庠	-10.9951
闔	-10.9953
鞍	-10.9953
叩	-10.9953
珽	-10.9954
王業	-10.9954
車師	-10.9954
貂	-10.9955
上邽	-10.9955
牖	-10.9956
辛丑	-10.9956
潁濱	-10.9956
臻	-10.9958
不得已而	-10.9958
辛亥	-10.9958
邏	-10.9958
為患	-10.9959
石門	-10.9959
膚	-10.996
丁丑	-10.996
筭	-10.9961
皆由	-10.9963
等十	-10.9963
成都府	-10.9965
何敢	-10.9966
為僕射	-10.9971
之母	-10.9973
羣盗	-10.9973
東萊	-10.9974
曰不然	-10.9976
縣界	-10.9977
忠信	-10.998
有詔	-10.9982
懿宗	-10.9982
寛厚	-10.9987
不載	-10.9988
王使	-10.9992
兵勢	-10.9994
夷狄之	-10.9995
冉	-11
安祿山	-11
兵入	-11.0001
拒命	-11.0004
不變	-11.0005
後患	-11.0007
以制	-11.0009
奉迎	-11.0011
乙未	-11.0013
為將	-11.0013
所據	-11.0014
為民	-11.0016
之所謂	-11.0019
譏其	-11.002
處置	-11.0022
安樂	-11.0025
請罷	-11.0031
二十五里	-11.0031
王世充	-11.0032
表裏	-11.0033
諸吕	-11.0038
叛逆	-11.0045
晉州	-11.0048
曰不可	-11.005
虚名	-11.0051
不解	-11.0051
因言	-11.0052
及諸	-11.0053
賢而	-11.0056
周顯王	-11.0057
二十里	-11.0059
溺於	-11.0062
篇曰	-11.0063
以定	-11.0064
必敗	-11.0065
庚子	-11.0068
其禮	-11.0068
初屬	-11.007
乎對曰	-11.0071
欲殺之	-11.0073
以進	-11.0074
用左傳史記	-11.0074
成周	-11.0075
注見梁武帝	-11.0076
乃令	-11.0079
阿珠	-11.008
箴	-11.008
小子	-11.0081
抜	-11.0081
相應	-11.0084
入闗	-11.0084
昵	-11.0084
夙	-11.0085
莘	-11.0086
萃	-11.0086
种	-11.0087
藴	-11.0088
猥	-11.0089
殫	-11.0089
治兵	-11.009
無非	-11.0091
丙申	-11.0092
已死	-11.0093
敗亡	-11.0093
驪山	-11.0094
庶㡬	-11.0094
大震	-11.0101
崇文	-11.0101
焚其	-11.0102
田氏	-11.0102
而作	-11.0103
稽首	-11.0103
顧引	-11.0104
劉表	-11.0106
執中	-11.0106
建隆	-11.0106
詹事	-11.0106
為御史大夫	-11.0106
幾何	-11.0107
夏主	-11.011
帝謂	-11.0113
開封	-11.0115
太僕	-11.0115
入關	-11.0115
王衍	-11.0117
不戰	-11.0121
者如	-11.0121
唐改	-11.0123
商賈	-11.0126
不務	-11.0126
陳蕃	-11.0127
倉卒	-11.0128
白帝	-11.0128
將有	-11.0131
復用	-11.0131
手詔	-11.0133
建州	-11.014
僣號	-11.0141
未得	-11.0142
而來	-11.0142
十五里	-11.0143
而不顧	-11.0144
樞宻使	-11.0145
專以	-11.0149
軍于	-11.0151
烏可	-11.0151
知誥	-11.0152
自强	-11.0153
後唐	-11.0158
徙居	-11.016
注見漢後主建興	-11.016
殊禮	-11.0164
問以	-11.0166
闗東	-11.0166
委以	-11.0167
夷陵	-11.0167
公輔	-11.0167
大紀	-11.0173
何以不書	-11.0174
濟北	-11.018
南侵	-11.0182
義者	-11.0182
萬緡	-11.0183
信哉	-11.0183
爲之	-11.0184
王猛	-11.0188
神明	-11.0188
真定	-11.019
無用	-11.0191
於時	-11.0191
生而	-11.0193
奏言	-11.0194
欲得	-11.0197
市易	-11.0199
不恱	-11.0199
汝曹	-11.02
寧宗	-11.0201
非一	-11.0203
不意	-11.0204
不學	-11.0205
少年	-11.0208
亦惟	-11.0214
粉	-11.0216
瞽	-11.0217
趙盾	-11.0217
轡	-11.0217
承璀	-11.0218
孰謂	-11.0218
㤙	-11.0219
剝	-11.022
渾瑊	-11.0221
疊	-11.0222
書擊	-11.0222
臨淄	-11.0223
概	-11.0223
張唐英	-11.0223
礪	-11.0225
不競	-11.0226
袍	-11.0227
臺城	-11.0228
陳蔡	-11.0229
非禮	-11.0231
恃其	-11.0236
朽	-11.0236
孝王	-11.0238
不使	-11.0241
而知	-11.0242
慨然	-11.0242
方畧	-11.0245
成於	-11.0245
輔之	-11.0246
乎其	-11.025
議和	-11.0254
三綱	-11.0257
其所為	-11.0258
及於	-11.026
己未	-11.0262
縣後	-11.0264
行在	-11.0266
晉國	-11.0268
州元	-11.0269
成之	-11.027
鎮江	-11.0272
悉平	-11.0275
厲王	-11.0278
得國	-11.0281
憚之	-11.0281
二郡	-11.0282
獻子	-11.0283
有衆	-11.0284
章武	-11.0288
帥兵	-11.0288
東下	-11.0291
萬户	-11.0291
入援	-11.0293
夏四月以	-11.0301
之處	-11.0301
士馬	-11.0302
朝堂	-11.0302
已成	-11.0311
一軍	-11.0315
養之	-11.0317
注見漢武	-11.0318
逆賊	-11.0318
王崩	-11.0319
其責	-11.0319
無乃	-11.0322
茍能	-11.0322
攸之	-11.0322
以城降	-11.0329
三曰	-11.0329
音釋	-11.0333
帝紀	-11.0334
也彼	-11.0335
此綱目	-11.0335
民無	-11.0337
而遽	-11.0339
乃自	-11.0341
以給	-11.0343
紀修	-11.0346
不敬	-11.0346
䓁	-11.0347
卬	-11.0347
濡	-11.0349
之由	-11.0351
曏	-11.0352
沙漠	-11.0353
善者	-11.0353
愿	-11.0353
稼	-11.0354
丁亥	-11.0355
而使之	-11.0355
泊	-11.0355
阬	-11.0356
著作郎	-11.0357
隰	-11.0357
歐	-11.0359
乃可	-11.0361
陸遜	-11.0361
悖逆	-11.0362
陳侯	-11.0364
盤庚	-11.0364
宜陽	-11.0365
滑臺	-11.0365
始也	-11.0366
諌官	-11.0368
起而	-11.0371
當死	-11.0372
凡有	-11.038
不察	-11.0381
軍亂	-11.0383
甚至	-11.0383
史之	-11.0383
明其	-11.0384
注見漢獻	-11.0387
重之	-11.0388
僣國	-11.0389
破賊	-11.0389
也漢	-11.039
以養	-11.0391
承嗣	-11.0393
之門	-11.0394
治國	-11.0396
在内	-11.0397
山下	-11.0399
是何	-11.04
朝歌	-11.0401
其德	-11.0404
稽古	-11.0404
於市	-11.0405
南郊	-11.0406
山名在	-11.0408
鄭公	-11.0411
罷相	-11.0411
以相	-11.0412
紂之	-11.0412
孰能	-11.0417
一而已	-11.0418
三品	-11.042
萬全	-11.042
所忌	-11.0421
請命	-11.0421
氏為皇后	-11.0423
殊不知	-11.0426
輔臣	-11.0428
元忠	-11.0428
中書省	-11.043
獻帝建安	-11.0431
愛人	-11.0432
北史	-11.0433
餘黨	-11.0434
之例	-11.0435
得而	-11.0436
張俊	-11.0437
天下之勢	-11.0437
四州	-11.0438
異乎	-11.0443
軍節度	-11.0444
自若	-11.0445
以道	-11.0447
具官	-11.0451
不守	-11.0455
疾之	-11.0456
者以其	-11.0456
奉使	-11.0456
和州	-11.0458
義之	-11.0468
復舊	-11.0473
子思	-11.0477
瑋	-11.0478
郵	-11.048
引去	-11.0481
匈	-11.0482
五原	-11.0483
狄仁傑	-11.0485
儋	-11.0485
慟	-11.0486
嘗以	-11.0486
其忠	-11.0486
孝經	-11.0487
能知	-11.0487
鷹	-11.0488
交阯	-11.0488
衛人	-11.0488
處分	-11.0489
己亥	-11.049
黥	-11.0492
匃奴	-11.0492
儆	-11.0493
廵狩	-11.0494
伊川	-11.0497
二十三	-11.0497
煙	-11.0497
大畧	-11.0498
不終	-11.0499
孟津	-11.0501
曽孫	-11.0502
疵	-11.0502
部將	-11.0507
譬如	-11.0507
張九齡	-11.0508
者四	-11.0509
洪範	-11.0509
南史	-11.0511
桓𤣥	-11.0512
潁濱曰	-11.0514
李輔國	-11.0516
者言	-11.0518
多不	-11.052
遂取	-11.0521
也至於	-11.0523
王季	-11.0523
周瑜	-11.0524
不可謂	-11.0525
皆無	-11.0527
亦已	-11.0527
至誠	-11.0528
所以見	-11.0528
朱温	-11.053
以授	-11.0532
何則	-11.0535
宜其	-11.0536
陵人	-11.0537
孰與	-11.0537
武建武	-11.0538
耳然	-11.0539
魯國	-11.0541
叔文	-11.0543
山谷	-11.0543
内附	-11.0547
二十九	-11.0547
餓	-11.0548
者雖	-11.0549
封爵	-11.0553
還至	-11.0556
晉屬	-11.0558
蔡侯	-11.0561
再三	-11.0565
怨之	-11.0565
是矣	-11.0567
著述	-11.0569
王肅	-11.057
襄國	-11.0572
其善	-11.0572
百家	-11.0572
汾州	-11.0574
而相	-11.0575
臨川	-11.0575
蘄	-11.0583
中常侍	-11.0584
等謀	-11.0584
二月以	-11.0585
許以	-11.0586
源出	-11.0588
承平	-11.0589
王后	-11.059
相傳	-11.0595
王政	-11.0598
命也	-11.06
晉宋	-11.0601
誠能	-11.0601
東周	-11.0603
上章	-11.0605
沅	-11.0606
道濟	-11.0606
元仍舊	-11.0606
之力也	-11.0606
别駕	-11.0608
此之謂	-11.0608
無逸	-11.0608
邢州	-11.0609
是後	-11.0612
無一人	-11.0613
駒	-11.0615
丈夫	-11.0616
故有是命	-11.062
全節	-11.0621
何能	-11.0621
慾	-11.0621
率兵	-11.0623
謀主	-11.0624
於魯	-11.0624
汎	-11.0625
憎	-11.0626
榆	-11.0627
扆	-11.0628
壬午	-11.0628
轂	-11.0629
劔	-11.0629
常州	-11.063
庚辰	-11.063
羯	-11.0631
優劣	-11.0631
西南夷	-11.0632
廪	-11.0632
聶	-11.0632
乙巳	-11.0633
顓	-11.0634
書生	-11.0634
漢家	-11.0634
冢宰	-11.0636
而弗	-11.0637
為人所	-11.0637
永徽	-11.0638
因名	-11.0638
祇	-11.0639
安陸	-11.064
中大夫	-11.0644
矣是故	-11.0645
驕奢	-11.0645
而歸之	-11.0648
為姦	-11.0649
赤壁	-11.065
複姓	-11.065
起居注	-11.0653
宰執	-11.0655
諸史	-11.0657
有天下者	-11.0658
世傑	-11.0659
叔孫通	-11.0661
求諸	-11.0661
其鋒	-11.0662
文書	-11.0663
宣撫使	-11.0663
酣	-11.0663
過之	-11.0663
甲士	-11.0667
北門	-11.0667
故人	-11.0672
無主	-11.0673
鎮撫	-11.0676
遣還	-11.0676
不舉	-11.0677
列於	-11.0679
人望	-11.0681
䝉古兵	-11.0683
喜怒	-11.0684
私意	-11.0686
當時之	-11.0687
東陽	-11.0687
諸侯王	-11.0687
且言	-11.0689
司馬氏	-11.069
海州	-11.0691
敵之	-11.0691
瀘	-11.0693
晉元帝	-11.0694
一嵗	-11.0694
衛將軍	-11.0695
貢舉	-11.0695
高平	-11.0696
之先	-11.0696
州是	-11.0698
陳州	-11.0698
瀛州	-11.0699
必能	-11.0699
州人	-11.0703
以禦	-11.0704
始書	-11.0707
漢唐	-11.0709
兩漢	-11.0709
衣食	-11.0713
失道	-11.0713
雖無	-11.0714
闕下	-11.0715
又謂	-11.0717
與共	-11.0718
梓	-11.0718
何耶	-11.0718
不决	-11.0723
餓死	-11.0724
漢室	-11.0725
北邊	-11.0726
足為	-11.0728
管子	-11.0732
相望	-11.0733
則雖	-11.0736
戒也	-11.0736
秋七月以	-11.0738
鄭氏	-11.0742
元振	-11.0744
大司農	-11.0746
常平	-11.0747
髙平	-11.075
和帝	-11.0755
釗	-11.0756
用此	-11.0758
崧	-11.0759
文武之	-11.0765
梧	-11.0765
繞	-11.0765
者悉	-11.0765
呈	-11.0766
狠	-11.0768
為三	-11.0769
延齡	-11.0769
灾	-11.0769
𠂻	-11.077
摶	-11.0771
誑	-11.0771
蔵	-11.0771
功徳	-11.0771
桞	-11.0771
謂侍臣曰	-11.0774
胙	-11.0774
己丑	-11.0775
初復為	-11.0775
𤣥感	-11.0775
磬	-11.0776
漂	-11.0777
既以	-11.0778
至城下	-11.078
忠厚	-11.0781
吕公著	-11.0782
威名	-11.0783
呼必賚	-11.0784
髙陽	-11.0785
之策	-11.0787
慶緒	-11.0788
三老	-11.0788
衛尉	-11.0793
廢之故城在	-11.0796
誤也	-11.0797
公室	-11.0798
古之人	-11.0798
同日	-11.0799
者也故	-11.0799
管叔	-11.0799
節儉	-11.0801
羣下	-11.0801
精騎	-11.0804
洛邑	-11.0805
武穆	-11.0806
晉楚	-11.0815
曰爾	-11.0816
婦女	-11.0818
詰之	-11.0818
第五	-11.0818
合於	-11.0819
無成	-11.0819
武俊	-11.0819
意者	-11.0819
守令	-11.0819
尚父	-11.0821
桓子	-11.0822
盡矣	-11.0822
正直	-11.0822
詎	-11.0822
監國	-11.0824
石虎	-11.0824
之深	-11.0826
蔚	-11.083
不答	-11.083
興兵	-11.0831
此意	-11.0835
唐人	-11.0837
王欽若	-11.0839
也惟	-11.0839
亦然	-11.084
若水	-11.0842
杭	-11.0845
宜哉	-11.0847
侍臣	-11.0848
勉之	-11.0849
魏師	-11.085
説之	-11.085
通好	-11.0853
拒戰	-11.0859
入於	-11.086
二十六	-11.0863
困於	-11.0864
漠	-11.0864
詔令	-11.0864
初年	-11.0865
以徳	-11.0866
軍政	-11.0868
旱蝗	-11.0869
著矣	-11.087
附於	-11.0873
誘之	-11.0876
獻之	-11.088
㧞之	-11.0881
心也	-11.0885
撃之	-11.0886
改名	-11.0886
辭曰	-11.0889
洪州	-11.0891
之吏	-11.0893
甸	-11.0896
天聖	-11.0899
七千	-11.09
所見	-11.0902
憂懼	-11.0902
燮	-11.0905
党項	-11.0905
禁軍	-11.0906
不避	-11.0908
劣	-11.0908
關東	-11.0908
禇	-11.0909
追至	-11.091
元人	-11.091
亞夫	-11.0912
裏	-11.0912
之誤	-11.0912
縣治	-11.0913
樵	-11.0914
宗正	-11.0914
厠	-11.0914
乙丑	-11.0915
奴婢	-11.0916
噬	-11.0916
鏡	-11.0917
程頥	-11.0917
廖	-11.0917
孟軻	-11.0917
者宜	-11.0918
滌	-11.0918
蔡邕	-11.0918
勃勃	-11.0918
奥	-11.0919
昨	-11.0919
朱熹	-11.0921
泗水	-11.0925
君長	-11.0925
韓世忠	-11.0925
洛州	-11.0925
小大	-11.0927
鄧禹	-11.0928
嵗幣	-11.0928
其氣	-11.093
渡淮	-11.0934
字下	-11.0934
部分	-11.0937
之聲	-11.0937
後復為	-11.0938
祥符	-11.0939
帝聞	-11.094
措置	-11.094
魯公	-11.0943
左丞相	-11.0944
奔齊	-11.0946
右僕射	-11.0947
危亡	-11.095
亦作	-11.0954
輔相	-11.0955
國珍	-11.0955
嘉之	-11.0955
九鼎	-11.0955
亳州	-11.0958
小兒	-11.096
哉然	-11.096
之故城在	-11.0962
皇極	-11.0963
為質	-11.0964
利而	-11.0966
北漢主	-11.0968
不法	-11.0972
士誠	-11.0974
十有三年	-11.0976
記云	-11.0976
獲其	-11.0978
功也	-11.0978
何患	-11.0979
曰大	-11.0981
以次	-11.0981
當其	-11.0984
卒於	-11.0984
辭以	-11.0988
東川	-11.0991
一夕	-11.0991
然後知	-11.0993
之境	-11.0994
泣下	-11.0994
竟陵	-11.0995
周世宗	-11.0997
書于冊	-11.0999
城外	-11.1001
弟也	-11.1001
帝亦	-11.1004
何待	-11.1005
乃能	-11.1007
漢高	-11.1009
士皆	-11.101
曰自古	-11.101
守禦	-11.1011
財物	-11.1013
執其	-11.1013
澤州	-11.1014
經史	-11.1019
其姦	-11.1019
爭之	-11.1019
讓之	-11.102
安州	-11.1023
於是始	-11.1025
平公	-11.1029
受封	-11.103
死傷	-11.1031
宗閔	-11.1033
為盗	-11.1033
兵以	-11.1034
為樞宻使	-11.1035
神人	-11.1039
遣兵擊	-11.1039
雅樂	-11.1039
揣	-11.1039
尚何	-11.1041
承天	-11.1042
被殺	-11.1042
也吾	-11.1042
杲	-11.1044
守成	-11.1046
至若	-11.1046
自用	-11.1048
注見漢帝𤣥更始二年	-11.1048
两	-11.1048
甘泉	-11.1048
拓䟦	-11.1049
將至	-11.1051
楯	-11.1052
肆其	-11.1052
斡	-11.1053
國君	-11.1054
夀陽	-11.1054
任用	-11.1055
蒸	-11.1055
冩	-11.1056
鉉	-11.1058
朞	-11.1059
注見漢獻帝建安十	-11.1059
井陘	-11.1059
褊	-11.1061
靳	-11.1061
瑩	-11.1062
濞	-11.1063
異議	-11.1063
二縣	-11.1064
在朝	-11.1064
鼂錯	-11.1067
議事	-11.107
益甚	-11.1071
歎息	-11.1071
不可勝計	-11.1072
京東	-11.1073
有異志	-11.1073
殺戮	-11.1073
季札	-11.1073
民有	-11.1073
之尊	-11.1076
皆得	-11.1078
范純仁	-11.1078
戸口	-11.108
以重	-11.1084
之時也	-11.1087
千金	-11.1087
小者	-11.1088
家法	-11.1089
司馬公	-11.109
連兵	-11.1092
三年春正月	-11.1092
各以	-11.1093
司農	-11.1094
褒貶	-11.1096
劉子	-11.1096
章句	-11.1097
穀梁	-11.11
難制	-11.1101
汴京	-11.111
義帝	-11.1112
至本朝	-11.1114
至元	-11.1117
清明	-11.1118
疾篤	-11.1118
時為	-11.1122
秦秦	-11.1122
禆	-11.1123
王琳	-11.1125
兵革	-11.1128
百司	-11.1129
南朝	-11.1131
言不	-11.1132
相率	-11.1132
三尺	-11.1132
集賢	-11.1135
勿以	-11.1135
李固	-11.1136
龍城	-11.1137
子長	-11.1137
書伏誅	-11.1137
石顯	-11.1138
童子	-11.1139
糧盡	-11.1141
四字	-11.1143
燕主	-11.1145
而動	-11.1146
平凉	-11.115
千餘里	-11.115
敗於	-11.1151
曾子	-11.1152
朝鮮	-11.1153
王孫	-11.1153
為非	-11.1156
名士	-11.1156
稱疾不	-11.1158
上郡	-11.1161
其亦	-11.1162
斷其	-11.1167
少卿	-11.1169
月餘	-11.1171
異矣	-11.1172
又詔	-11.1176
頓首	-11.1178
野王	-11.1179
追封	-11.1183
西夏	-11.1186
記曰	-11.1188
棗	-11.1188
懐州	-11.1192
其誰	-11.1192
筮	-11.1193
侍衛	-11.1193
大衆	-11.1194
既不	-11.1194
靈帝中平	-11.1196
繪	-11.1196
將何	-11.1196
棊	-11.1199
婉	-11.1199
載其	-11.12
稟	-11.12
上元	-11.12
勑	-11.12
咄	-11.1201
又命	-11.1201
鹵	-11.1202
會稽	-11.1203
隋煬帝大業	-11.1203
移書	-11.1204
阨	-11.1204
腐	-11.1206
殽	-11.1206
頂	-11.1207
文景	-11.1207
弇	-11.1207
伏羲	-11.1208
壬寅	-11.1209
住	-11.1209
鳥獸	-11.1209
曩	-11.1209
掖庭	-11.1209
影	-11.121
晉室	-11.121
摭	-11.1211
贅	-11.1212
戊申	-11.1213
麴	-11.1213
巽	-11.1213
蕭望之	-11.1213
跋扈	-11.1214
響	-11.1215
赫連	-11.1215
壬辰	-11.1215
曽不	-11.1216
田令孜	-11.1216
光宗	-11.1217
免於	-11.1219
文明	-11.122
兵圍	-11.1221
庾亮	-11.1222
周武王	-11.1222
詔罷	-11.1225
其賢	-11.1228
蕭衍	-11.1229
受禪	-11.1235
本心	-11.1236
乗之	-11.1237
衞侯	-11.1237
大者	-11.1242
四國	-11.1246
寧州	-11.1247
浙東	-11.1248
皆所以	-11.125
真卿	-11.1254
所以示	-11.1256
固無	-11.1256
大寳	-11.1261
晋侯	-11.1262
於金	-11.1263
天寶	-11.1264
誅戮	-11.1267
出塞	-11.1268
考其	-11.1269
遂有	-11.127
重榮	-11.1271
慮其	-11.1275
知祥	-11.1276
而難	-11.1277
遣其將	-11.1279
納言	-11.128
人民	-11.128
削其官	-11.128
康公	-11.1287
可復	-11.1288
伐燕	-11.1289
政府	-11.1292
西秦	-11.1294
黨與	-11.1296
智勇	-11.1297
屢敗	-11.1298
亦自	-11.1298
為人臣	-11.1299
也葢	-11.1301
毫	-11.1301
之於是	-11.1301
博學	-11.1302
戒嚴	-11.1303
因此	-11.1306
書法如此	-11.131
一本	-11.131
名分	-11.1311
以充	-11.1314
國體	-11.1315
大饑	-11.1318
張華	-11.1318
提要無	-11.1319
賈生	-11.132
遂復	-11.1321
于魏	-11.1324
者斬	-11.1326
天寳初改	-11.1327
也臣	-11.1327
彦章	-11.1327
曰今日	-11.1329
北平	-11.1329
又嘗	-11.1331
南向	-11.1331
冬十月以	-11.1332
二十一	-11.1334
勞而	-11.1334
教民	-11.1336
使臣	-11.1337
沮之	-11.1342
山林	-11.1342
復命	-11.1343
正道	-11.1344
荼	-11.1344
舉事	-11.1345
秦屬	-11.1345
宸	-11.1346
也遂	-11.1348
廼	-11.1348
以實	-11.1348
特筆	-11.1348
𫝊曰	-11.1348
黷	-11.1349
佃	-11.1352
安豐	-11.1352
而敗	-11.1353
頡	-11.1353
六十里	-11.1353
戰勝	-11.1354
勘	-11.1354
爛	-11.1355
次之	-11.1357
守節	-11.1357
太子即位	-11.1357
怙	-11.1358
行人	-11.1359
稼穡	-11.136
裴寂	-11.1361
曰凡	-11.1362
治其	-11.1362
岷	-11.1362
四世	-11.1364
京畿	-11.1365
藍田	-11.1366
銑	-11.1366
隋改	-11.1366
恒山	-11.1371
不任	-11.1371
韓侂胄	-11.1372
錢榖	-11.1372
哭之	-11.1373
刑名	-11.1376
正其罪	-11.1379
而立之	-11.1381
爾朱	-11.1383
感動	-11.1384
保其	-11.1384
公著	-11.1385
大位	-11.1387
前鋒	-11.1388
郡後	-11.1389
是歳	-11.139
其害	-11.1391
之宜	-11.1393
上尊號	-11.1394
不作	-11.1395
斯民	-11.1399
職事	-11.14
傳注	-11.1404
古地名	-11.1404
益都	-11.1406
燕人	-11.1408
必至	-11.141
制於	-11.141
軍府	-11.1411
臨海	-11.1412
天王	-11.1419
孟氏	-11.1422
人人	-11.1426
宗澤	-11.1428
有所不	-11.1429
也終綱目	-11.1433
恵帝	-11.1433
良臣	-11.1434
於唐	-11.1435
秦為	-11.1435
身死	-11.1435
淮北	-11.1437
又從而	-11.1438
人力	-11.144
天下後世	-11.1442
五國	-11.1445
離心	-11.1446
書云	-11.1446
女為	-11.1448
北宫	-11.1448
故有	-11.1448
夫差	-11.1448
守備	-11.145
兼并	-11.1452
而獨	-11.1452
興元年	-11.1456
廬州	-11.1457
至其	-11.146
與民	-11.146
御史臺	-11.1461
清河王	-11.1461
矣終綱目書	-11.1464
正義	-11.1467
于朝	-11.1468
黄州	-11.1469
實錄	-11.1469
始得	-11.147
後又	-11.1471
吏部尚書	-11.1471
杜氏	-11.1472
以金	-11.1473
不事	-11.1476
復還	-11.1478
不親	-11.1479
都城	-11.1481
郡太守	-11.1482
成徳	-11.1482
南平	-11.1486
聽政	-11.1489
不畏	-11.1489
既定	-11.1491
謀殺	-11.1493
領之	-11.1494
微子	-11.1496
八萬	-11.1496
秦兵	-11.1498
自焚	-11.1498
鄱陽	-11.1499
其女	-11.1499
歸罪	-11.15
兢	-11.1501
遞	-11.1503
澆	-11.1503
蒯	-11.1503
朔日有食之	-11.1504
非正	-11.1504
蒐	-11.1505
愁	-11.1505
裨	-11.1506
陶侃	-11.1506
啇	-11.1506
侍從	-11.1506
鬰	-11.1507
戩	-11.1507
廂	-11.1508
襃	-11.151
相結	-11.1511
繫之	-11.1512
不預	-11.1512
昌邑	-11.1513
燔	-11.1513
魏氏	-11.1513
什一	-11.1515
少昊	-11.1517
可謂能	-11.1517
若能	-11.1517
豊	-11.1518
凡所	-11.1518
雨雹	-11.1518
我我	-11.1519
出而	-11.1523
招撫	-11.1523
姚崇	-11.1525
合而	-11.1525
此必	-11.1526
食盡	-11.1527
大惡	-11.1529
未决	-11.1531
為戒	-11.1534
事勢	-11.1536
景徳	-11.1537
聞者	-11.1538
國無	-11.1538
有司奏	-11.1539
以全	-11.154
尊卑	-11.154
乎若	-11.1542
欲用	-11.1542
非常之	-11.1543
太妃	-11.1544
為逆	-11.1545
繫於	-11.1545
雒陽	-11.1547
理也	-11.1548
苦之	-11.1549
衛州	-11.1549
難於	-11.155
鄴都	-11.1551
下民	-11.1551
延賞	-11.1554
為萬世	-11.1554
十二里	-11.1555
十有四年	-11.1555
無貶	-11.1556
蓋亦	-11.1558
而取	-11.1558
巴東	-11.1558
衛士	-11.1561
諭之曰	-11.1561
進圍	-11.1562
禁兵	-11.1565
亦足	-11.1567
而受	-11.1568
固不可	-11.1569
梁武	-11.1575
以資	-11.1576
敬業	-11.1576
少有	-11.1578
大戰	-11.1579
一舉而	-11.158
茍非	-11.1581
大雅	-11.1583
今日之	-11.1587
戮力	-11.1587
田租	-11.1591
也是	-11.1591
遷延	-11.1598
失國	-11.1598
非禮也	-11.1599
伐趙	-11.16
不赦	-11.16
立廟	-11.1601
失色	-11.1604
諸道兵	-11.1605
小臣	-11.1607
後漢書	-11.1607
應天	-11.1609
定襄	-11.1612
甚明	-11.1612
神䇿	-11.1613
甚盛	-11.1614
正徳	-11.1616
定公	-11.1617
多少	-11.1618
七百	-11.1621
之異	-11.1621
故稱	-11.1622
乃更	-11.1623
收復	-11.1623
宋屬	-11.163
泰始	-11.163
不雨	-11.1634
冬至	-11.1634
胡人	-11.1637
所聞	-11.1638
蘇州	-11.1638
蔡氏	-11.1639
吳主	-11.164
一方	-11.1642
赫	-11.1643
舊本	-11.1643
為前鋒	-11.1644
二十九年	-11.1644
者歟	-11.1644
臣願	-11.1647
希萼	-11.1649
所惡	-11.1652
不足為	-11.1654
柯	-11.1654
濕	-11.1655
祔	-11.1655
范祖禹曰	-11.1655
凍	-11.1656
癸酉	-11.1656
謹按	-11.1656
圜	-11.1657
牋	-11.1658
於西	-11.1658
犧	-11.1658
栢	-11.1659
昕	-11.166
言之則	-11.166
丙辰	-11.1662
抄	-11.1662
䕃	-11.1662
繼世	-11.1663
事無	-11.1663
殱	-11.1663
嘗有	-11.1663
注見漢後主	-11.1664
威武	-11.1665
為嗣	-11.1666
穆呼哩	-11.1666
媵	-11.1666
姓也	-11.1666
聽其	-11.1667
辛巳	-11.1667
之急	-11.1668
曰秦	-11.1668
也故書	-11.167
死罪	-11.1671
后父	-11.1672
馬燧	-11.1672
人心之	-11.1673
友諒	-11.1673
蚩尤	-11.1673
丙寅	-11.1673
綱目特書	-11.1673
無備	-11.1675
百揆	-11.1675
殷浩	-11.1675
上召	-11.1676
偷生	-11.1677
乘之	-11.1678
祖考	-11.1678
千騎	-11.1679
諸軍事	-11.168
書于册	-11.1682
信也	-11.1684
入侍	-11.1687
貴賤	-11.1687
程子	-11.1688
三皇	-11.1689
曰賊	-11.1691
而發	-11.1697
馮異	-11.1698
選舉	-11.1699
長公主	-11.1704
人臣之	-11.1706
而食	-11.1712
元景	-11.1714
大厯	-11.1715
天福	-11.1717
行於	-11.172
吳興	-11.1721
四鎮	-11.1723
及是	-11.1724
軍容	-11.1725
民也	-11.1727
燕趙	-11.1728
今陛下	-11.1729
高昌	-11.1729
漢高帝	-11.1732
成德	-11.1732
告于	-11.1736
斬其	-11.1738
何有	-11.174
下吏	-11.1742
鎮之	-11.1744
或疑	-11.1744
秦置	-11.1745
漢興	-11.1747
於義	-11.1751
天下事	-11.1752
曹伯	-11.1753
之心也	-11.1754
對曰陛下	-11.1757
心不	-11.1762
失職	-11.1762
臨淮	-11.1762
尤為	-11.1763
宫闕	-11.1763
而實	-11.1765
大學	-11.1769
徳威	-11.1776
江州刺史	-11.1777
陳夀	-11.1778
大興	-11.1778
以威	-11.1778
史氏	-11.1781
之半	-11.1783
燕山	-11.1785
軍至	-11.1788
死士	-11.179
所記	-11.1791
建平	-11.1794
上謂	-11.1796
壬子	-11.1799
吾子	-11.18
親近	-11.1801
亦云	-11.1804
夘	-11.1804
擊破	-11.1805
日以	-11.1805
其㫖	-11.1808
犢	-11.1809
䙝	-11.181
哉夫	-11.181
髙昌	-11.181
秦二世	-11.181
有星孛于	-11.1811
怖	-11.1811
燉煌	-11.1812
裹	-11.1812
瑟	-11.1813
戊午	-11.1814
鎻	-11.1814
録尚書事	-11.1814
不然則	-11.1816
芟	-11.1816
來者	-11.1816
梓潼	-11.1816
綘	-11.1816
馥	-11.1817
闥	-11.1817
古邑名	-11.1817
兵皆	-11.1818
使我	-11.182
化及	-11.182
研	-11.182
上林	-11.182
釣	-11.1821
二十七	-11.1821
宇文泰	-11.1822
蒯聵	-11.1822
醢	-11.1822
誰敢	-11.1823
袒	-11.1824
特們徳爾	-11.1824
軸	-11.1824
撲	-11.1825
不遜	-11.1825
犬戎	-11.1825
歴陽	-11.1826
呼沙呼	-11.1828
吕大防	-11.1829
三月以	-11.183
家屬	-11.1831
復言	-11.1833
及聞	-11.1833
主帥	-11.1835
均輸	-11.1836
秉政	-11.1837
建炎	-11.1839
若之何	-11.184
僚屬	-11.1841
王崩子	-11.1846
六月以	-11.1846
明王	-11.1847
其非	-11.185
上聲	-11.1851
復振	-11.1854
並進	-11.1855
平定	-11.1856
安撫使	-11.1856
分遣	-11.1856
十有五年	-11.1857
自我	-11.186
復入	-11.186
四岳	-11.1861
南燕	-11.1861
自衛	-11.1864
可惜	-11.1864
利用	-11.1868
損益	-11.1868
也春秋	-11.1871
濟隂	-11.1875
將何以	-11.1876
數十年	-11.1877
為諸侯	-11.1877
雖多	-11.1879
不修	-11.188
親政	-11.1881
太元	-11.1888
不能無	-11.189
之衰	-11.1892
是豈	-11.1893
亡者	-11.1895
之舊	-11.1897
令史	-11.1897
臨事	-11.1898
賢於	-11.1899
牙將	-11.1899
出鎮	-11.19
之甚也	-11.19
一城	-11.1904
六萬	-11.1904
蒲州	-11.1905
於地	-11.1907
蘭陵	-11.1907
亂也	-11.1908
之義也	-11.1909
王侯	-11.1909
之應	-11.191
一條	-11.1911
復歸	-11.1912
潤州	-11.1916
襄城	-11.1916
何事	-11.1918
百八十	-11.192
為太傅	-11.1925
終綱	-11.1926
河决	-11.1926
神主	-11.1927
伶	-11.1928
廬陵	-11.1932
宰臣	-11.1932
見于	-11.1935
百戰	-11.1935
至德	-11.1938
寢疾	-11.1939
未發	-11.194
平之	-11.1942
人欲	-11.1943
留侯	-11.1944
絳州	-11.1946
沁	-11.1947
長江	-11.1947
隋屬	-11.1949
頃之	-11.1951
亦足以	-11.1952
伐蜀	-11.1952
鉞	-11.1954
著於	-11.1955
朝貢	-11.1956
潼	-11.196
崤	-11.196
南漢	-11.1962
東至	-11.1962
鼓譟	-11.1962
不給	-11.1964
祏	-11.1964
服其	-11.1967
又音	-11.1968
鴆	-11.1969
許敬宗	-11.197
覊	-11.1971
兵力	-11.1971
核	-11.1972
以伐	-11.1972
疋	-11.1973
蔡確	-11.1975
仇士良	-11.1975
樞宻院	-11.1976
庚戌	-11.1977
殉	-11.1977
胎	-11.1978
梓宫	-11.1979
棄城走	-11.1979
頽	-11.1979
也故曰	-11.1979
沙陀	-11.1981
與語	-11.1982
書稱	-11.1982
者此	-11.1982
太后曰	-11.1984
廢后	-11.1985
河上	-11.1986
目前	-11.1986
削其	-11.1986
官名注見	-11.1989
黜之	-11.199
諭以	-11.199
二十餘	-11.1992
禪位	-11.1992
我朝	-11.1993
說文	-11.1994
後嗣	-11.1994
供奉	-11.1997
以行	-11.1999
桓文	-11.2001
奏之	-11.2002
之謂乎	-11.2005
李希烈	-11.2005
樂毅	-11.2006
書死	-11.2006
分裂	-11.2006
不至於	-11.2007
孫盛	-11.2009
女也	-11.201
雍州刺史	-11.201
自見	-11.2013
泉州	-11.2014
平帝	-11.2015
天后	-11.2015
周勃	-11.2016
聲言	-11.2017
曰古者	-11.2021
心而	-11.2022
長沙王	-11.2024
魏軍	-11.2027
其狀	-11.2028
徐州刺史	-11.2028
者甚衆	-11.2032
元朔	-11.2033
坦之	-11.2033
延州	-11.2034
有七	-11.2035
常有	-11.204
本朝因之屬	-11.2041
其終	-11.2042
近者	-11.2044
之狀	-11.2047
可求	-11.2049
此云	-11.205
孝宣	-11.2051
楚楚	-11.2051
少而	-11.2052
武王之	-11.206
九月以	-11.2064
已矣	-11.2068
自號	-11.207
君者	-11.207
湘州	-11.2075
在西	-11.2075
士人	-11.2076
犒	-11.2077
久不	-11.2079
於東	-11.2082
昌言	-11.2082
為中書令	-11.2082
耳若	-11.2082
議郎	-11.2094
與王	-11.2095
天之所	-11.2095
别將	-11.2096
目書	-11.2097
煬	-11.2097
興利	-11.2097
張湯	-11.2101
所未	-11.2102
鎮惡	-11.2103
渭水	-11.2103
加於	-11.2105
元祀	-11.2105
知節	-11.2106
多言	-11.2107
三十餘	-11.211
任城	-11.211
生事	-11.2111
士良	-11.2111
素服	-11.2112
内有	-11.2116
之費	-11.2117
而遣之	-11.2118
後改為	-11.2118
用也	-11.212
居其	-11.2121
不濟	-11.2122
唐屬	-11.2122
腰	-11.2123
修徳	-11.2124
濮州	-11.2124
八行	-11.2124
府兵	-11.2125
財賦	-11.2127
俄而	-11.2127
凱	-11.2128
噲	-11.2129
明主	-11.2129
阿哈瑪特	-11.2129
斜	-11.2129
阪	-11.2129
賊臣	-11.213
宫殿	-11.2132
侍講	-11.2133
宵	-11.2133
曰非	-11.2133
注見楚義帝元年	-11.2133
或言	-11.2133
翌日	-11.2134
縉	-11.2135
夭	-11.2136
衘	-11.2136
裒	-11.2136
夸	-11.2137
朝恩	-11.2138
倪	-11.2139
潼闗	-11.2139
失節	-11.2139
所稱	-11.214
殃	-11.2141
攜	-11.2141
旦夕	-11.2142
堅壁	-11.2144
險阻	-11.2145
僧孺	-11.2145
公孫述	-11.2145
斵	-11.2145
尺寸	-11.2145
秦主	-11.2145
節鉞	-11.2146
和二年	-11.2152
東海王	-11.2155
商鞅	-11.2156
徂	-11.2156
聖賢之	-11.2156
三王之	-11.2158
注見漢獻帝	-11.2161
其視	-11.2162
注見漢文帝	-11.2164
一國	-11.2168
之福	-11.2168
共工	-11.217
是誠	-11.217
靈臺	-11.2171
仲舒	-11.2175
平原君	-11.2175
一隅	-11.2179
封為	-11.218
於吳	-11.218
謀誅	-11.2181
為可	-11.2181
史稱	-11.2182
舉措	-11.2183
言于	-11.2185
范氏	-11.2186
縱兵	-11.2187
以和	-11.2188
于外	-11.2188
以東	-11.2189
嘗言	-11.219
平盧	-11.2192
兩淮	-11.2194
王爵	-11.2195
藏之	-11.2196
知伯	-11.2196
晏子	-11.2197
弋	-11.2199
世世	-11.22
王韶	-11.22
在人	-11.2201
而後已	-11.2203
注見宋	-11.2204
非義	-11.2204
自歸	-11.2206
名器	-11.2206
史家	-11.2207
以通	-11.2207
相接	-11.2208
當與	-11.2209
矣况	-11.2209
之勞	-11.2212
山西	-11.2214
吏士	-11.2214
之智	-11.2216
記事	-11.2219
態	-11.2219
覲	-11.2221
而不用	-11.2221
存焉	-11.2224
賞之	-11.2224
初政	-11.2226
之效	-11.2227
宣州	-11.223
本意	-11.2231
之兆	-11.2237
刑賞	-11.224
入寇	-11.2241
懐王	-11.2244
一千	-11.2248
重進	-11.2251
不惑	-11.2251
豈宜	-11.2253
詐為	-11.2255
為右丞相	-11.2255
猶以	-11.2256
疾病	-11.2256
在下	-11.2257
皆從	-11.2258
入秦	-11.2258
淮安	-11.226
則不可	-11.226
河水	-11.2265
于秦	-11.2268
郎官	-11.2271
上曰朕	-11.2271
不豫	-11.2272
于齊	-11.2274
趙魏	-11.2276
後復置	-11.2279
之得失	-11.228
田宅	-11.228
注見秦二世二年	-11.2281
歸附	-11.2281
大用	-11.2283
専權	-11.2283
為賢	-11.2284
未聞有	-11.2284
不著	-11.2284
肜	-11.2289
頵	-11.229
皆殺之	-11.2292
之典	-11.2292
片	-11.2293
毓	-11.2294
據事直書	-11.2295
善人	-11.2298
穰	-11.2299
杯	-11.23
世勣	-11.23
鋹	-11.23
趾	-11.2301
挑	-11.2302
卒弟	-11.2302
剽掠	-11.2302
擔	-11.2303
蒲坂	-11.2303
出迎	-11.2304
冡宰	-11.2304
遍	-11.2305
不奉詔	-11.2306
百五十	-11.2306
蝕	-11.2307
猗	-11.2308
得其人	-11.2309
切齒	-11.2309
即帝位	-11.231
顏	-11.2314
既死	-11.2314
而遂	-11.2315
江浙	-11.2315
匹夫之	-11.2321
曹州	-11.2322
魏徵	-11.2322
舎人	-11.2323
難也	-11.2324
水土	-11.2325
髙駢	-11.2328
物也	-11.2328
而不得	-11.2328
名實	-11.2332
宗廟社稷	-11.2334
其生	-11.2335
出于	-11.2336
嗟夫	-11.2339
文子	-11.2341
謂左右曰	-11.2341
十餘里	-11.2343
申公	-11.2343
改州為	-11.2345
縣是	-11.2347
魏武	-11.2347
自明	-11.235
荀子	-11.2352
無恥	-11.2355
封拜	-11.2355
趙髙	-11.2356
永寧	-11.2358
有大功	-11.2358
成臯	-11.2361
曰吾聞	-11.2362
與諸	-11.2362
邠州	-11.2363
師出	-11.2365
本秦	-11.2365
其任	-11.2367
尚在	-11.2367
子元	-11.2368
者五	-11.237
不害	-11.237
三百里	-11.237
梁國	-11.2371
帝欲	-11.2373
無二	-11.2374
七里	-11.2374
帝自	-11.2374
仁者	-11.2377
國子	-11.2378
退屯	-11.2378
皇孫	-11.2381
簡公	-11.2384
矣雖然	-11.2384
謀於	-11.2385
伯禽	-11.2385
書伐	-11.239
皆譏也	-11.2392
六合	-11.2392
復取	-11.2392
所建	-11.2394
六行	-11.2395
於後世	-11.2397
兵器	-11.2399
將安	-11.2399
子夏	-11.24
安於	-11.2402
長平	-11.2403
漢人	-11.2403
卿大夫	-11.2404
所奏	-11.2405
也顔師古曰	-11.2405
今若	-11.2405
仁人	-11.241
大都	-11.2411
之本也	-11.2412
禍及	-11.2412
求救於	-11.2414
來聘	-11.2416
但當	-11.2417
謂我	-11.2422
溺死	-11.2423
中華	-11.2424
大子	-11.2427
諸城	-11.2427
治水	-11.2428
呼曰	-11.2428
昊	-11.2432
二百里	-11.2439
五百人	-11.244
耳夫	-11.2443
如意	-11.2443
三道	-11.2445
牛羊	-11.2448
欲盡	-11.2449
名為	-11.2457
爕	-11.2458
蜚	-11.2458
書奏	-11.246
道者	-11.246
無統	-11.2461
籙	-11.2463
蕭道成	-11.2463
葺	-11.2463
者不過	-11.2464
越嶲	-11.2465
伽	-11.2465
肝	-11.2465
縣晉	-11.2465
寐	-11.2465
𤨏	-11.2466
陌	-11.2466
軀	-11.2467
承宗	-11.2467
脊	-11.2468
㨿	-11.2469
北狄	-11.2469
伾	-11.2469
歿	-11.2469
濠州	-11.2469
癸巳	-11.2469
怡	-11.247
饌	-11.247
脂	-11.2471
國子監	-11.2477
辟雍	-11.2477
被其	-11.2479
夏竦	-11.2479
精鋭	-11.248
為本	-11.248
栖	-11.2481
彦超	-11.2482
之類是也	-11.2484
反者	-11.2486
家國	-11.2489
孔眀	-11.2489
二女	-11.2489
慕容垂	-11.2491
曾孫	-11.2491
播遷	-11.2493
七人	-11.2494
為樞宻副使	-11.2496
荆門	-11.2496
漢氏	-11.2498
建立	-11.2501
入長安	-11.2505
車馬	-11.2506
悔過	-11.2506
得無	-11.2507
驕恣	-11.251
貶黜	-11.251
災變	-11.2512
民多	-11.2513
擊匈奴	-11.2514
罪狀	-11.2514
是歲	-11.2517
何以為	-11.2517
朝㑹	-11.2518
東井	-11.2519
遇害	-11.2519
廣武	-11.2519
注見秦王政	-11.2519
請立	-11.2519
存者	-11.2519
王徳	-11.2519
陳氏曰	-11.252
有德	-11.2521
其政	-11.2521
宋州	-11.2521
開寳	-11.2524
則此	-11.2528
已為	-11.2533
不謹	-11.2535
平聲	-11.2538
隋置	-11.254
令人	-11.2541
亡也	-11.2543
趙州	-11.2544
天討	-11.2544
戰不利	-11.2545
釋氏	-11.2546
益州刺史	-11.2547
書罷	-11.2549
憂之	-11.255
西安府	-11.2551
諸陵	-11.2553
淳于	-11.2556
乎哉	-11.2556
七十餘	-11.2557
還鎮	-11.2561
不幸而	-11.2562
安陽	-11.2563
宋置	-11.2563
大名府	-11.2564
也又曰	-11.2567
唐𤣥宗	-11.2567
地志	-11.257
元吉	-11.257
洛水	-11.2572
不能盡	-11.2575
四十年	-11.2578
洺	-11.2579
典禮	-11.2579
遂定	-11.2581
於衆	-11.2581
竇氏	-11.2583
書復	-11.2583
萬匹	-11.2583
比也	-11.2584
丘明	-11.2584
而先	-11.2584
不敢進	-11.2585
䕶軍	-11.2589
夷齊	-11.259
臨之	-11.2594
之姦	-11.2599
問於	-11.26
多方	-11.2601
年表世家	-11.2602
初即位	-11.2602
魯之	-11.2602
鉅	-11.2603
謂人曰	-11.2609
而前	-11.261
中改	-11.2612
無定	-11.2613
素無	-11.2613
大逆	-11.2614
賢也	-11.2614
進至	-11.2618
茍不	-11.2618
觀望	-11.2619
之柄	-11.2621
車服	-11.2623
法而	-11.2624
菑	-11.2626
有愧	-11.2626
隋文	-11.2626
陘	-11.2627
褚	-11.2628
督諸軍	-11.2628
南鄭	-11.2629
瑊	-11.2629
惶	-11.263
三是年	-11.2631
㢤	-11.2631
周召	-11.2631
勾	-11.2633
崑崙	-11.2634
其難	-11.2635
遣使入貢	-11.2635
旗幟	-11.2636
乳母	-11.2636
眩	-11.2636
綱目於此	-11.2636
鄘	-11.2636
纓	-11.2636
當書	-11.2637
司𨽻校尉	-11.2637
其權	-11.2638
蔬	-11.2638
見上	-11.2638
幅	-11.2639
庚寅	-11.2639
戰國䇿	-11.264
誤矣	-11.2641
觴	-11.2641
馴	-11.2642
曇	-11.2642
慚	-11.2642
聳	-11.2642
髙熲	-11.2643
悝	-11.2643
勰	-11.2643
摰	-11.2645
夷吾	-11.2649
義真	-11.2649
羽翼	-11.265
陽侯	-11.265
視其	-11.265
朱滔	-11.265
言於上曰	-11.265
制其	-11.2651
為秦	-11.2652
不啻	-11.2653
君臣之分	-11.2654
所知	-11.2654
萬計	-11.2655
大徳	-11.2656
賈充	-11.2656
羅索	-11.2656
成子	-11.2658
以無罪	-11.266
平二年	-11.2661
利州	-11.2662
却之	-11.2664
山縣	-11.2665
迎立	-11.2665
六七	-11.2667
不得其	-11.2667
未下	-11.2668
撫之	-11.2668
軍法	-11.2668
敢不	-11.2669
愚按	-11.267
為陛下	-11.2675
吕氏曰	-11.2677
以防	-11.2678
為忠	-11.268
也後世	-11.2681
非特	-11.2681
京西	-11.2682
矣上	-11.2683
下同	-11.2684
師敗績	-11.2685
亡秦	-11.2686
居攝	-11.2688
也綱目書	-11.2689
有國	-11.2689
皆自	-11.269
力爭	-11.269
乃立	-11.269
踰月	-11.2692
之易	-11.2695
欺君	-11.2696
所執	-11.2698
租賦	-11.2698
聞之曰	-11.2699
作擊	-11.27
封之	-11.2701
誰能	-11.2702
竭力	-11.2702
一心	-11.2703
少帝	-11.2704
為左右	-11.2704
盡殺	-11.2705
荆楚	-11.2705
乃知	-11.2705
恐非	-11.2707
加之	-11.2708
夏口	-11.2708
保甲	-11.2709
兩軍	-11.2711
近古	-11.2713
少師	-11.2714
至如	-11.2715
兩京	-11.2717
天錫	-11.2719
一代	-11.272
乞師	-11.2722
書序	-11.2722
此心	-11.2725
城上	-11.2726
已久	-11.2728
奸邪	-11.2729
鄂州	-11.2732
罔不	-11.2738
故吏	-11.2741
之禁	-11.2741
晋主	-11.2742
注見秦始皇	-11.2742
誅其	-11.2743
安世	-11.2744
傳首	-11.2752
以白	-11.2754
都邑	-11.2758
方伯	-11.2763
無由	-11.2763
小事	-11.2763
公侯	-11.2764
安府	-11.2764
樞密使	-11.2769
百官表	-11.277
武備	-11.2772
秦晉	-11.2773
於天子	-11.278
即以	-11.2781
為皇太后	-11.2782
孺	-11.2783
進奉	-11.2785
又令	-11.2787
進討	-11.2787
臣節	-11.2788
方其	-11.2789
楚國	-11.2789
家事	-11.279
騫	-11.2795
能保	-11.2796
為太	-11.2798
曰朝廷	-11.28
髙䴡	-11.2801
凢	-11.2802
有罪免	-11.2802
擯	-11.2803
太行	-11.2804
諌議大夫	-11.2804
犂	-11.2804
敺	-11.2805
晉惠帝	-11.2805
沽	-11.2807
彌遠	-11.2807
不能守	-11.2807
黠	-11.2807
桓帝延熹	-11.2808
顔真卿	-11.2808
帝室	-11.2808
使王	-11.2809
丙戌	-11.2809
石敬瑭	-11.281
從榮	-11.281
孫氏	-11.2811
慤	-11.2811
立於	-11.2811
碣石	-11.2813
施之	-11.2814
州牧	-11.2814
王允	-11.2815
霧	-11.2815
棲	-11.2815
美人	-11.2816
勇而	-11.2816
邃	-11.2816
如初	-11.2817
太平公主	-11.2817
范蠡	-11.2817
平陵	-11.282
而稱	-11.282
兼置	-11.282
言無	-11.282
昜	-11.2822
諫諍	-11.2822
其智	-11.2823
之法也	-11.2823
特進	-11.2823
己巳	-11.2824
變法	-11.2825
入洛	-11.283
熈寧	-11.2831
兗州	-11.2831
昭然	-11.2832
亂臣	-11.2834
掃地	-11.2834
上下相	-11.2835
宗周	-11.2836
縣有	-11.2836
河中府	-11.2838
要之	-11.2838
祭酒	-11.284
其族	-11.2843
治也	-11.2844
之妻	-11.2845
時方	-11.2847
失徳	-11.2847
異時	-11.2847
羌胡	-11.285
臺諌	-11.285
陳瓘	-11.2851
學術	-11.2852
與同	-11.2853
則見其	-11.2855
楚材	-11.2856
導之	-11.2857
招諭	-11.2858
乗其	-11.2858
軍節度使	-11.2861
少傅	-11.2864
不恭	-11.2864
母子	-11.2864
樂平	-11.2865
補闕	-11.2869
多矣未有書	-11.2874
叛者	-11.2874
死子	-11.2877
之交	-11.2878
無能為	-11.2878
謀逆	-11.2878
訛言	-11.288
北庭	-11.288
帥師伐	-11.2882
元顯	-11.2883
是其	-11.2885
者然	-11.2886
所引	-11.289
當是	-11.2894
急務	-11.2894
不保	-11.2896
恤民	-11.2897
亦言	-11.2898
何可	-11.29
後王	-11.2901
詔諭	-11.2903
是月	-11.2905
威儀	-11.2906
懌	-11.2906
巴西	-11.2907
之圍	-11.291
也左傳	-11.291
疾苦	-11.291
顔師古	-11.2911
敏中	-11.2914
仍屬	-11.2914
三十七年	-11.2918
進曰	-11.2918
即命	-11.2918
服也	-11.2919
隋文帝	-11.2921
安邑	-11.2921
皆言	-11.2921
以劉	-11.2922
此下	-11.2924
三司使	-11.2924
危矣	-11.2925
鞫之	-11.2928
如齊	-11.2928
天下皆	-11.2929
起自	-11.2929
以守	-11.2931
用心	-11.2931
請行	-11.2932
三十三年	-11.2937
守文	-11.2941
唐末	-11.2941
移治	-11.2943
書死之	-11.2947
並起	-11.2947
主人	-11.2948
鄜	-11.295
子良	-11.2951
𤣥孫	-11.2952
給事	-11.2953
死矣	-11.2956
於此矣	-11.2957
昭昭	-11.296
斯則	-11.296
悉衆	-11.2962
之田	-11.2962
擇其	-11.2964
于宋	-11.2965
焉用	-11.2966
能用	-11.2967
詩人	-11.2968
新都	-11.297
以至於	-11.297
至於此	-11.2971
遙	-11.2972
絡	-11.2972
雖未	-11.2973
句踐	-11.2974
幡	-11.2974
旄	-11.2974
梯	-11.2979
鮮有	-11.2979
携	-11.2979
瘞	-11.2979
鬚	-11.298
以南	-11.2981
死于	-11.2981
渭橋	-11.2981
鄯善	-11.2981
雅克特穆爾	-11.2982
訣	-11.2982
予其	-11.2982
膝	-11.2982
珂	-11.2982
媒	-11.2983
燎	-11.2983
晦日食	-11.2983
郭崇韜	-11.2983
秘書監	-11.2983
葦	-11.2984
姜維	-11.2984
嗚	-11.2984
未詳沿革	-11.2985
挑戰	-11.2986
篆	-11.2986
璜	-11.2987
臆	-11.2987
竑	-11.2987
餽	-11.2987
誚	-11.2987
袖	-11.2988
油	-11.2988
圖卜特穆爾	-11.2988
挽	-11.2988
遘	-11.2989
殿中侍御史	-11.2989
蕭瑀	-11.299
惕	-11.2991
拊	-11.2991
即位之初	-11.2992
遯	-11.2992
之基	-11.2992
拙	-11.2993
昆弟	-11.2993
璞	-11.2993
栁州	-11.2994
死地	-11.2994
殛	-11.2995
贏	-11.2995
忻	-11.2995
鄰國	-11.2996
天生	-11.2996
汾隂	-11.2998
垢	-11.2999
簒奪	-11.2999
璽書	-11.2999
燕京	-11.3
𦍑	-11.3002
軒轅	-11.3003
通謀	-11.3003
縣宋	-11.3004
淮水	-11.3004
其行	-11.3007
五世	-11.3007
郊廟	-11.3007
營州	-11.3008
彭越	-11.3011
房杜	-11.3013
漢祖	-11.3014
從諫	-11.3016
唐史	-11.3016
入蜀	-11.3017
援兵	-11.3018
其在	-11.3019
李嗣源	-11.302
豈特	-11.302
曰先帝	-11.3021
白起	-11.3022
乃引	-11.3023
數百里	-11.3024
霍氏	-11.3025
兵討	-11.3025
閬	-11.3026
九行	-11.3027
將李	-11.3028
流血	-11.3028
兵大敗	-11.303
離間	-11.303
遣其子	-11.303
傳檄	-11.3031
乆之	-11.3032
老弱	-11.3033
正位	-11.3033
大變	-11.3034
荆湖	-11.3034
晉安	-11.3035
連年	-11.3035
安禄山	-11.3036
今既	-11.3037
春秋之義	-11.3039
守宰	-11.304
儒學	-11.304
今欲	-11.3041
嗣聖	-11.3043
定矣	-11.3044
齊魯	-11.3045
幸其	-11.3045
曰主上	-11.3046
於中	-11.3047
弗許	-11.3048
必將	-11.3049
路本朝	-11.3051
並行	-11.3051
請罪	-11.3053
黄老	-11.3056
不令	-11.3057
西突厥	-11.3058
進賢	-11.3059
失信	-11.3061
注見晋	-11.3062
晋人	-11.3062
失也	-11.3065
蕭氏	-11.3065
猶能	-11.3066
甚哉	-11.3067
載之	-11.3067
不愛	-11.3068
太后以	-11.3069
利其	-11.307
第四	-11.307
喪師	-11.3078
則彼	-11.3079
不備	-11.308
氣象	-11.3083
亂世	-11.3084
可立	-11.3084
如一	-11.3085
法制	-11.3085
請於	-11.3086
沛國	-11.3087
聖人之道	-11.3093
所著	-11.3094
禍敗	-11.3094
為國家	-11.3096
其義自見	-11.3099
者葢	-11.3102
東征	-11.3102
在前	-11.3105
雖以	-11.3111
牧守	-11.3112
已見	-11.3114
九卿	-11.3115
兖州府	-11.312
山澤	-11.3121
淮南王	-11.3123
姿	-11.3134
病之	-11.3139
死亡	-11.314
正史	-11.314
囘鶻	-11.3142
筵	-11.3147
郃	-11.3148
焉者	-11.3149
郡後周	-11.315
釋奠	-11.3151
陕	-11.3151
沛郡	-11.3151
大治	-11.3153
明道	-11.3154
購	-11.3154
不覺	-11.3155
殺傷	-11.3155
遂䧟	-11.3156
勦	-11.3156
訐	-11.3157
蹕	-11.3157
跋	-11.3158
衷	-11.3158
彫	-11.3158
琪	-11.3158
歇	-11.3159
不旋踵	-11.3159
在應天府	-11.316
攀	-11.316
絀	-11.3161
牝	-11.3161
塞外	-11.3162
柩	-11.3162
稠	-11.3162
朝義	-11.3162
懾	-11.3162
響應	-11.3163
幷	-11.3164
民怨	-11.3164
欠	-11.3164
榻	-11.3165
閎	-11.3165
邴	-11.3166
敝邑	-11.3166
辛酉	-11.3166
濟州	-11.3166
士開	-11.3166
霖雨	-11.3167
讙	-11.3167
緝	-11.3167
討當	-11.3167
姦宄	-11.3168
魚朝恩	-11.3168
田承嗣	-11.3169
餗	-11.3169
翠	-11.3169
車騎將軍	-11.317
屠戮	-11.317
夷三族	-11.317
賂遺	-11.317
非獨	-11.3171
賦歛	-11.3172
秦王政三年	-11.3173
戊辰	-11.3173
感悟	-11.3174
是書	-11.3174
紘	-11.3175
以下皆	-11.3175
然綱目	-11.3175
海陵	-11.3176
劉光世	-11.3176
先入	-11.3177
淳化	-11.3177
莫有	-11.3177
黄鍾	-11.3178
大聖	-11.318
宰輔	-11.3181
胡亥	-11.3181
越州	-11.3184
事機	-11.3184
頗有	-11.3184
呉人	-11.3186
趙鞅	-11.3187
雍丘	-11.3191
諸縣	-11.3194
北流	-11.3194
其外	-11.3194
欲去	-11.3195
從諌	-11.32
又為	-11.3201
德之	-11.3201
中宫	-11.3201
於其間	-11.3202
在後	-11.3203
終身不	-11.3204
州都督	-11.3204
光世	-11.3209
邊事	-11.3209
民以	-11.3211
詩賦	-11.3214
漢宣帝	-11.3215
人之國	-11.3216
八千	-11.3217
宋師	-11.3217
進爵	-11.3217
宿州	-11.3219
又不能	-11.3225
大兵	-11.3228
謂之何哉	-11.3228
城内	-11.323
各置	-11.3231
諸司	-11.3232
孔光	-11.3232
民者	-11.3233
天下無	-11.3235
君臣相	-11.3236
追擊	-11.3236
求救	-11.3237
伊吾	-11.3238
太息	-11.324
楚公子	-11.3244
一歲	-11.3245
當在	-11.3245
水在	-11.3245
人之心	-11.3247
一語	-11.3248
州大業初	-11.3249
秦滅	-11.325
宥之	-11.325
所害	-11.3251
代州	-11.3253
不能救	-11.3254
自叙	-11.3255
徳明	-11.3257
路元	-11.3258
老成	-11.3266
事實	-11.3268
皆出於	-11.3271
削平	-11.3271
日久	-11.3272
學問	-11.3273
軍名注見	-11.3273
既有	-11.3273
與秦	-11.3275
畿内	-11.3276
五代史	-11.3277
榖梁	-11.3277
滁州	-11.3279
餘年	-11.328
獨無	-11.328
為後世	-11.3281
地也	-11.3283
陵夷	-11.3283
吳楚	-11.3284
大宛	-11.3284
以為相	-11.3285
地名在	-11.3285
不得行	-11.3286
器用	-11.3287
淮東	-11.3288
帝位	-11.3289
未可知	-11.329
者可	-11.3291
元元	-11.3292
窮治	-11.3292
更生	-11.3293
反以	-11.3296
稱兵	-11.3297
烏有	-11.3299
杜預曰	-11.3302
猶且	-11.3303
長於	-11.3304
赧	-11.3304
秦皇	-11.3311
進屯	-11.3314
寵任	-11.3318
其來	-11.3322
之亡也	-11.3322
不得為	-11.3324
勔	-11.3324
更為	-11.3326
多事	-11.3331
鞮	-11.3331
項王	-11.3332
又自	-11.3332
堤	-11.3334
衙	-11.3334
善乎	-11.3334
吳郡	-11.3335
株	-11.3335
其亡	-11.3336
亂賊	-11.3337
俛	-11.3337
簾	-11.3337
澧	-11.3338
瘡	-11.334
合浦	-11.334
踊	-11.334
軼	-11.334
醴	-11.334
政刑	-11.334
嫗	-11.3341
夹	-11.3341
繳	-11.3341
錮	-11.3342
也歟	-11.3342
娛	-11.3343
組	-11.3344
荀息	-11.3346
帝如上都	-11.3347
憫	-11.3347
不亦宜乎	-11.3347
㑹稽郡	-11.3347
義士	-11.3347
民田	-11.3347
倘	-11.3348
屑	-11.3348
衞人	-11.3349
嫂	-11.3349
黄巾	-11.3349
頥浩	-11.3349
曰願	-11.3349
譬猶	-11.335
酷吏	-11.335
為變	-11.3351
素有	-11.3351
爪牙	-11.3352
絰	-11.3353
全斌	-11.3354
虹	-11.3354
賢否	-11.3354
袁粲	-11.3354
先零	-11.3355
窟	-11.3356
河東節度使	-11.3356
太弟	-11.3357
黷武	-11.3357
牢之	-11.3357
求直言	-11.3357
王敦	-11.3359
緩急	-11.336
兖州刺史	-11.336
平地	-11.3361
中書監	-11.3362
壬申	-11.3363
慰諭	-11.3364
仲堪	-11.3364
使金	-11.3365
為翰林學士	-11.3367
唐世	-11.3368
之歌	-11.3368
曲為	-11.3371
矣此其	-11.3371
豈敢	-11.3371
畢公	-11.3371
數也	-11.3373
高陽	-11.3376
宫掖	-11.3376
委曲	-11.3379
自新	-11.3379
不得與	-11.338
讀之	-11.3382
湖州	-11.3382
所難	-11.3383
免役	-11.3388
大禹	-11.3388
農桑	-11.339
二十餘年	-11.339
之别	-11.3392
水火	-11.3392
興平	-11.3395
治民	-11.3396
永初	-11.3396
王僧辯	-11.3397
萬邦	-11.3398
有禮	-11.3398
十有六年	-11.3399
可保	-11.3399
出處	-11.34
是夕	-11.34
不特	-11.34
而後可	-11.3402
帝幸	-11.3404
化之	-11.3405
仁恭	-11.3405
元主	-11.3406
謝曰	-11.3408
簿書	-11.3411
疏云	-11.3412
不能為	-11.3412
先書	-11.3412
之時而	-11.3417
顯忠	-11.3417
太過	-11.3417
洪水	-11.3418
舒州	-11.3419
使君	-11.3419
弑帝	-11.342
耳故	-11.3423
之强	-11.3426
忠武	-11.3427
皆當	-11.3429
代郡	-11.3431
使還	-11.3435
無此	-11.3436
大司徒	-11.3438
有名	-11.3439
比之	-11.3439
得罪於	-11.3442
自固	-11.3442
利於	-11.3442
元軍	-11.3442
綱目書此	-11.3443
所滅	-11.3444
誠有	-11.3445
者何也	-11.3446
不憂	-11.3448
荆州刺史	-11.3448
誰可	-11.345
昭明	-11.3451
湟	-11.3453
給之	-11.3453
呉王	-11.3453
郡名注見漢光武建武	-11.3456
先君之	-11.3457
能使	-11.3458
武德	-11.346
也夫以	-11.3461
近於	-11.3462
成康	-11.3463
以狥	-11.3465
狥國	-11.3465
為之備	-11.3465
朔州	-11.3468
郭后	-11.3469
新興	-11.347
之言也	-11.3471
南京	-11.3471
戍卒	-11.3476
金玉	-11.3478
及此	-11.348
大辟	-11.3481
私恩	-11.3481
并力	-11.3485
涯	-11.3486
自後	-11.3486
建初	-11.3491
其不可	-11.3492
衡州	-11.3495
七萬	-11.3495
書名	-11.3495
延政	-11.3496
天威	-11.3497
城守	-11.3497
𥙷	-11.3497
鄉人	-11.3498
前有	-11.3499
發憤	-11.35
不悅	-11.3503
遣使來	-11.3506
萬石	-11.3507
後日	-11.3508
亂兵	-11.3509
逄吉	-11.3512
職也	-11.3512
舉朝	-11.3513
貧民	-11.3513
不勝其	-11.3518
炙	-11.3518
曾不	-11.3519
紆	-11.3519
侑	-11.352
以法	-11.3525
郷	-11.3525
扵此	-11.3525
晏駕	-11.3526
位號	-11.3526
蟬	-11.3526
壬戌	-11.3527
燈	-11.3528
芥	-11.3529
緑	-11.3529
中和	-11.3529
也茍	-11.353
如金	-11.353
緡錢	-11.353
禳	-11.3531
郭璞	-11.3531
搖	-11.3531
賈逵	-11.3531
虗	-11.3531
炬	-11.3533
行軍司馬	-11.3534
瘠	-11.3534
審矣	-11.3534
甲戌	-11.3535
李世勣	-11.3535
劵	-11.3535
拱手	-11.3536
事多	-11.3536
巒	-11.3536
州總管	-11.3537
天竺	-11.3537
漕運	-11.3538
征之	-11.3538
君若	-11.3538
茫	-11.354
官制	-11.354
暴虐	-11.3542
一節	-11.3543
失利	-11.3543
未為	-11.3546
汾陽	-11.3547
不廢	-11.3547
吕夷簡	-11.3548
諡文	-11.3549
佐命	-11.3551
賊勢	-11.3551
桓靈	-11.3551
之域	-11.3552
於家	-11.3554
擁衆	-11.3557
萬機	-11.3557
奮擊	-11.3557
勤勞	-11.356
廢置	-11.3561
蔡人	-11.3564
亦不得	-11.3565
百工	-11.3566
之報	-11.3568
之譏	-11.3569
賢不肖	-11.357
失禮	-11.357
之所能	-11.357
知此	-11.3571
迎降	-11.3571
和氣	-11.3572
十有三	-11.3574
孝友	-11.3574
羣臣皆	-11.3576
攻取	-11.3578
附庸	-11.3579
七廟	-11.3582
帝遣	-11.3583
人馬	-11.3585
十七行	-11.3586
世變	-11.3587
于天下	-11.3589
五胡	-11.359
水名	-11.3592
以觀	-11.3598
兵擊	-11.36
知之矣	-11.36
晉武帝	-11.3601
有功於	-11.3602
所歸	-11.3604
𤣥宗開元	-11.3607
還京師	-11.3608
既無	-11.361
富民	-11.361
為楚	-11.3611
引見	-11.3611
謝之	-11.3613
武庫	-11.3615
季歴	-11.3619
綱常	-11.362
良將	-11.3621
當去	-11.3621
致書	-11.3623
朝命	-11.3624
伐晉	-11.3624
復興	-11.3624
間道	-11.3627
至扵	-11.363
無益於	-11.363
而外	-11.3631
遂廢	-11.3631
以叛	-11.3632
注見宋文帝	-11.3633
不返	-11.3633
河東郡	-11.3634
虚實	-11.3634
三十一年	-11.3636
宣仁	-11.3637
劾奏	-11.3638
名號	-11.3638
地理	-11.3639
勇士	-11.3639
其舊	-11.3639
八十里	-11.364
邀擊	-11.3641
聽命	-11.3641
據之	-11.3642
譏辭	-11.3644
乎然	-11.3648
正旦	-11.3648
晉文公	-11.365
為晉	-11.3652
不省	-11.3653
同時	-11.3654
王劭	-11.3659
威震	-11.366
朱氏	-11.3664
宋太祖	-11.3665
恒州	-11.3667
遂命	-11.3668
後復	-11.3674
非惟	-11.3675
書薨	-11.3676
江水	-11.3678
左右皆	-11.3679
之失也	-11.368
門生	-11.3681
擊大破之	-11.3681
不愧	-11.3682
佐之	-11.3685
始知	-11.3686
蓋以	-11.3686
明德	-11.3686
十二行	-11.3695
南人	-11.3695
葉一行	-11.3698
為憂	-11.37
璩	-11.3701
必勝	-11.3701
革命	-11.3702
李憲	-11.3702
正大	-11.3702
行師	-11.3703
太建	-11.3704
武城	-11.3704
長久	-11.3707
傭	-11.3707
復起	-11.3707
隋廢	-11.3709
隧	-11.3709
故不書	-11.371
涓	-11.371
字子	-11.3711
兎	-11.3713
孥	-11.3713
撻	-11.3713
鉗	-11.3714
郿	-11.3714
禇遂良	-11.3715
莭	-11.3715
蔓	-11.3715
珏	-11.3716
黄門侍郎	-11.3716
郟	-11.3716
十有一年	-11.3717
巫蠱	-11.3717
築長城	-11.3717
垍	-11.3718
穉	-11.372
竣	-11.372
太平興國	-11.3721
簽書院事	-11.3721
中書舎人	-11.3722
娥	-11.3722
上疏言	-11.3722
丹陽郡	-11.3723
圈	-11.3723
真定府	-11.3723
當是之時	-11.3724
殘忍	-11.3724
魂	-11.3724
又奏	-11.3725
不和	-11.3726
看	-11.3727
為長	-11.3729
一人而已	-11.3729
赭	-11.3729
樂浪	-11.373
秘閣	-11.3732
外人	-11.3732
四千	-11.3733
儒術	-11.3733
假道	-11.3736
羲和	-11.3738
之西	-11.3741
楊炎	-11.3744
劉璋	-11.3745
嘉其	-11.3746
流沙	-11.3746
辭不受	-11.3746
李膺	-11.3747
州名注見	-11.375
及即位	-11.3751
未足	-11.3752
主者	-11.3753
皆屬	-11.3754
以長	-11.3755
采石	-11.3759
寛仁	-11.3759
廷美	-11.3761
重於	-11.3763
有竒	-11.3764
唐兵	-11.3766
既知	-11.3767
所守	-11.3767
天禧	-11.3767
四郡	-11.3767
改號	-11.3767
經制	-11.3767
就第	-11.3767
中郎	-11.3769
自全	-11.377
韓王	-11.3771
谷永	-11.3772
處羅	-11.3772
王妃	-11.3773
其美	-11.3773
䇿免	-11.3774
義成	-11.3774
得非	-11.3774
更立	-11.3776
明於	-11.3776
十八行	-11.3777
舉國	-11.3778
岐州	-11.3779
出城	-11.3779
亂政	-11.378
强弱	-11.378
上亦	-11.3781
前年	-11.3784
有謀	-11.3785
者焉	-11.3787
當先	-11.3789
遺之	-11.379
里克	-11.3791
且夫	-11.3791
大政	-11.3792
滔天	-11.3794
以慰	-11.3794
之言而	-11.3796
加兵	-11.3796
先人	-11.3797
文正	-11.3797
大河	-11.38
中書侍郎	-11.3801
教授	-11.3801
因之改屬	-11.3801
何予	-11.3801
楚辭	-11.3802
為心	-11.3803
震恐	-11.3803
以小	-11.381
為小	-11.381
手書	-11.3816
㑹諸侯	-11.3816
形於	-11.3817
炎帝	-11.382
不爲	-11.3821
景龍	-11.3821
南陽府	-11.3822
皇天	-11.3822
族滅	-11.3826
師之	-11.3827
大防	-11.3828
繼以	-11.3829
不利於	-11.3829
達實	-11.3832
馬上	-11.3833
棄其	-11.3834
戮之	-11.3835
卑辭	-11.3835
夷夏	-11.3837
初帝	-11.3839
五服	-11.3841
二句	-11.3843
仁也	-11.3844
上䟽曰	-11.3845
新州	-11.3846
在河南府	-11.385
又復	-11.3851
所恃	-11.3851
亦欲	-11.3852
月令	-11.3852
常事	-11.3853
立政	-11.3854
湖廣	-11.3855
威令	-11.3855
黔	-11.3856
子臧	-11.3858
以病	-11.3859
以寛	-11.386
之俗	-11.3863
流入	-11.3864
不精	-11.3864
横行	-11.3865
嘗問	-11.3866
深切	-11.3867
鄩	-11.3868
論議	-11.3869
尚存	-11.387
憸	-11.3871
其營	-11.3872
臣以為	-11.3872
勸之	-11.3873
效之	-11.3875
為敵	-11.3878
驪	-11.3879
黒闥	-11.3879
不可使	-11.3881
百世	-11.3882
衡陽	-11.3882
其敗	-11.3883
選用	-11.3886
幸矣	-11.3886
此條	-11.389
閼	-11.3892
韋昭	-11.3894
鎮州	-11.3894
厭之	-11.3896
五十萬	-11.3896
善也	-11.3896
五十年	-11.3896
愕	-11.3896
慨	-11.3898
郅	-11.39
明經	-11.39
使相	-11.39
厨	-11.3902
三十六年	-11.3902
縯	-11.3903
在長安	-11.3904
徭	-11.3904
冒頓	-11.3904
息民	-11.3905
押	-11.3905
拳	-11.3906
以拒之	-11.3906
嘿	-11.3906
餒	-11.3907
跌	-11.3907
薛延陀	-11.3908
仇池	-11.3909
䞇	-11.3909
講武	-11.391
圃	-11.391
服䖍曰	-11.391
哉綱目	-11.391
奉朝請	-11.3911
杵臼	-11.3911
紐	-11.3911
孕	-11.3912
訂	-11.3912
緘	-11.3912
魏志	-11.3912
者故	-11.3913
自當	-11.3913
袁盎	-11.3913
羆	-11.3913
倩	-11.3914
昂	-11.3915
炭	-11.3915
囿	-11.3915
鄧艾	-11.3915
己酉	-11.3915
開府儀同三司	-11.3917
詘	-11.3918
漢景帝	-11.3919
躋	-11.3919
謀國	-11.392
天心	-11.3922
瑣	-11.3922
天下之民	-11.3922
喧	-11.3923
明徳	-11.3923
勸帝	-11.3923
資糧	-11.3924
何用	-11.3925
符瑞	-11.3925
未有如	-11.3925
齊賢	-11.3925
約束	-11.3925
何去非	-11.3925
後為	-11.3926
鄜延	-11.3926
秣陵	-11.3926
為己任	-11.3927
忱	-11.3929
帝召	-11.3931
兵部尚書	-11.3934
卿言	-11.3935
重兵	-11.3935
十有八年	-11.3936
注見太宗貞觀	-11.3938
私也	-11.3938
風俗通	-11.394
大安	-11.3941
孤立	-11.3942
日甚	-11.3942
行則	-11.3945
罪之也	-11.3945
矣嗚呼	-11.3945
之心而	-11.3946
孔孟	-11.3947
陵縣	-11.3949
淮夷	-11.3949
用法	-11.3951
四曰	-11.3953
服之	-11.3953
之為人	-11.3954
欲誅	-11.3954
收之	-11.3955
大夏	-11.3957
保吉	-11.3958
周師	-11.3959
上與	-11.3959
兩川	-11.396
太史令	-11.3961
城名	-11.3965
皆潰	-11.3967
赴難	-11.3968
戰艦	-11.3968
郭氏	-11.3969
其應	-11.397
害之	-11.397
當今	-11.3971
不得志	-11.3972
固宜	-11.3976
良久	-11.3977
之財	-11.3978
城降	-11.3978
𤣥成	-11.3979
所貴	-11.398
統萬	-11.3981
復與	-11.3982
遣歸	-11.3983
信義	-11.3986
經畧使	-11.3987
全軍	-11.3987
相王	-11.3987
漢獻帝建安	-11.3989
董賢	-11.3994
遂行	-11.3997
豈足	-11.3997
初為	-11.3999
海上	-11.3999
金吾	-11.3999
一出	-11.4
軍於	-11.4001
罵曰	-11.4001
太上	-11.4002
不才	-11.4002
臣不敢	-11.4005
為美	-11.4006
可謂知	-11.4006
勿用	-11.4007
牛馬	-11.4007
軍使	-11.4008
顯宗	-11.4012
及弟	-11.4012
大司空	-11.4013
世俗	-11.4014
彗星	-11.4014
為將軍	-11.4015
一世	-11.4016
公車	-11.4024
趙孟	-11.4024
上書曰	-11.4026
上古	-11.4026
饒州	-11.4026
攻魏	-11.4029
為難	-11.4029
先取	-11.403
徳昭	-11.403
害民	-11.4031
逺方	-11.4035
䕫州	-11.4037
劉淵	-11.4038
相對	-11.4038
妄言	-11.4039
之東	-11.404
恨之	-11.404
舉而	-11.4041
近代	-11.4041
振武	-11.4044
望其	-11.4045
者莫不	-11.4048
太宗以	-11.4051
本文	-11.4051
西至	-11.4054
屬官	-11.4055
力屈	-11.4055
攻其	-11.4056
順宗	-11.4056
保全	-11.4057
長短	-11.4059
台州	-11.4063
亦多	-11.4064
合諸侯	-11.4066
復請	-11.4067
武成	-11.4068
斯人	-11.407
三桓	-11.407
武平	-11.4072
重華	-11.4073
外事	-11.4077
指揮	-11.4078
之習	-11.408
我也	-11.408
者唯	-11.4081
儒生	-11.4081
不習	-11.4082
綱目不書	-11.4083
備禦	-11.4085
久而	-11.4085
不能討	-11.4087
制也	-11.4087
也其後	-11.409
繼岌	-11.409
傉檀	-11.4093
鼠	-11.4093
仲子	-11.4094
魏相	-11.4094
曹魏	-11.4094
祫	-11.4094
居此	-11.4096
繼隆	-11.4096
丗	-11.4096
其端	-11.4097
長生	-11.4097
言路	-11.4098
此人	-11.4098
洙	-11.4099
之訓	-11.4099
以絶	-11.41
杖殺	-11.41
汜水	-11.4101
傕	-11.4101
鏐	-11.4102
知州	-11.4103
本於	-11.4104
竿	-11.4104
鄂勒哲	-11.4104
沾	-11.4105
刈	-11.4106
毗	-11.4107
大道	-11.4107
麄	-11.4107
歉	-11.4107
詈	-11.4108
𤣥齡	-11.4108
澮	-11.4108
矣故特書	-11.4108
旌旗	-11.4109
武臣	-11.4109
伉	-11.411
道名注見	-11.411
梁山	-11.411
媿	-11.4111
魏主叡	-11.4111
擠	-11.4112
聚斂	-11.4112
之主也	-11.4113
隄防	-11.4113
遊宴	-11.4114
羊祜	-11.4115
企	-11.4115
守澄	-11.4115
彚	-11.4115
綱目之所書	-11.4116
遂滅	-11.4116
欲廢	-11.4118
萬乘之	-11.4118
史思明	-11.4118
赤子	-11.4118
東流	-11.4118
淄青	-11.4119
孔安國	-11.4119
濯	-11.4121
漢之縣名	-11.4121
幘	-11.4122
澶淵	-11.4122
王陵	-11.4122
鄭𤣥	-11.4123
漲	-11.4123
蔡卞	-11.4124
漢世	-11.4125
者十	-11.4127
一體	-11.4127
艘	-11.4128
宿將	-11.4129
王法	-11.4131
撥亂	-11.4131
劉歆	-11.4132
京房	-11.4132
十有七年	-11.4133
備矣	-11.4133
扶蘇	-11.4134
畏其	-11.4134
譛之	-11.4135
焉耆	-11.4135
李沆	-11.4137
安縣	-11.4139
方叔	-11.414
前朝	-11.4142
十五萬	-11.4143
平勃	-11.4144
白太后	-11.4145
失望	-11.4145
世主	-11.4147
内難	-11.4148
不果行	-11.415
偃師	-11.415
能無	-11.415
斥逐	-11.4151
十二月以	-11.4152
紹述	-11.4153
宜加	-11.4154
銜之	-11.4154
曰孔子	-11.4155
道德	-11.4158
謂宜	-11.416
故將	-11.4164
持重	-11.4164
厚恩	-11.4167
而從之	-11.4167
星變	-11.4169
太清	-11.4169
康居	-11.4169
無虞	-11.417
追諡	-11.4171
梓州	-11.4171
四年春正月	-11.4171
以誅	-11.4171
發其	-11.4173
予奪	-11.4174
問其	-11.4175
宫門	-11.4175
小而	-11.4176
因以為	-11.4176
五千人	-11.4176
鄯	-11.4176
賈后	-11.4178
小人也	-11.418
唐僖宗	-11.418
歸政	-11.418
勇力	-11.4182
一失	-11.4183
于民	-11.4184
襄子	-11.4185
聘于	-11.4186
今宜	-11.4187
鄉侯	-11.4188
一毫	-11.4188
而走	-11.4189
當塗	-11.419
琅邪王	-11.419
功成	-11.4191
張濬	-11.4192
憂也	-11.4193
賊帥	-11.4197
自非	-11.4198
三族	-11.42
又無	-11.42
當然	-11.4201
皆如	-11.4205
衆潰	-11.4205
樂天	-11.4206
湘東	-11.4206
以為言	-11.4207
穆帝永和	-11.4208
子雲	-11.4208
叅軍	-11.4208
虞舜	-11.4209
盖亦	-11.4211
髙氏	-11.4212
臣子之	-11.4213
五六	-11.4214
棄城	-11.4216
之服	-11.4218
于晉	-11.4218
十五行	-11.4221
太皇	-11.4221
猶存	-11.4231
和三年	-11.4232
今日之事	-11.4233
追及	-11.4233
豈容	-11.4233
雖云	-11.4234
自将	-11.4234
曰古之	-11.4235
光曰	-11.4239
冠軍	-11.4241
皆不書	-11.4241
大笑	-11.4243
不繼	-11.4246
可使	-11.4246
司馬昭	-11.4246
令民	-11.4248
制勝	-11.4249
前漢	-11.4249
遂成	-11.425
所以能	-11.4251
王庭	-11.4252
其妻子	-11.4253
藉口	-11.4255
立其弟	-11.4257
有如	-11.4263
國中	-11.4264
所繫	-11.4264
西道	-11.4265
至則	-11.4265
十行	-11.4266
道子	-11.4266
變化	-11.4266
益兵	-11.4267
行矣	-11.4268
皆已	-11.4268
桂州	-11.427
注見周赧	-11.427
三郡	-11.4271
脩之	-11.4272
君親	-11.4273
克復	-11.4275
飲之	-11.4278
也所以	-11.4279
遂克	-11.428
西州	-11.428
生死	-11.4285
胸	-11.4286
隱公	-11.4287
茂陵	-11.4288
親賢	-11.4289
賢主	-11.429
城䧟	-11.4291
子女	-11.4291
天資	-11.4292
作樂	-11.4293
擢用	-11.4293
既成	-11.4294
誌	-11.4295
渭南	-11.4295
能行	-11.4297
遹	-11.4297
王宗	-11.4299
哉且	-11.4299
瑒	-11.4301
蠕蠕	-11.4301
縱之	-11.4303
左傳昭	-11.4304
之所在	-11.4304
功曹	-11.4304
孟康曰	-11.4305
嗤	-11.4305
慄	-11.4305
范曄	-11.4306
丼	-11.4306
床	-11.4306
絕	-11.4307
而殺	-11.4308
注見周威烈王二十三年	-11.4308
攬	-11.4308
誹謗	-11.4309
漢書音義曰	-11.4309
濱	-11.4309
皁	-11.4309
學官	-11.4309
磔	-11.431
毖	-11.431
曲阜	-11.431
霽	-11.4311
禮部尚書	-11.4311
不經	-11.4312
枝葉	-11.4312
上封事	-11.4312
變也	-11.4312
師範	-11.4312
順天	-11.4313
濛	-11.4313
宇文㤗	-11.4313
文宣	-11.4315
斥之	-11.4315
紓	-11.4317
乾符	-11.4317
甚者	-11.4318
直以	-11.4318
聖主	-11.4319
帝嚳	-11.4321
稍稍	-11.4322
雲夢	-11.4322
中興之	-11.4325
詔求直言	-11.4326
由此觀之	-11.4327
莭度使	-11.4329
羣盜	-11.4329
彗星見	-11.4329
况於	-11.4331
陸賈	-11.4332
隋煬帝	-11.4332
閤門	-11.4333
州尋	-11.4334
老莊	-11.4335
蜀王	-11.4337
數十里	-11.4338
王承宗	-11.4338
二十餘萬	-11.434
為鎮	-11.434
乃罷	-11.4341
要當	-11.4342
外有	-11.4342
公劉	-11.4343
至是又	-11.4345
閉城	-11.4345
又聞	-11.4345
路史	-11.4346
也書曰	-11.4347
有餘而	-11.4347
攝政	-11.4347
併力	-11.4349
例曰	-11.4349
華山	-11.4352
劉毅	-11.4355
太史公曰	-11.4359
陳人	-11.4364
賦役	-11.4365
虎臣	-11.4365
懼其	-11.4365
致之	-11.4368
即墨	-11.4368
刑人	-11.4368
法者	-11.4368
禁止	-11.4369
投之	-11.4369
陳霸先	-11.4369
尚書郎	-11.4369
化為	-11.4369
後代	-11.437
居正	-11.437
義渠	-11.4374
彗出	-11.4374
斥書	-11.4374
髙下	-11.4374
不予其	-11.4377
東道	-11.4377
承業	-11.4381
五季	-11.4381
氏崩	-11.4382
五月以	-11.4382
赤心	-11.4383
東夷	-11.4385
勿復	-11.4394
又豈	-11.4397
豈知	-11.4397
所以正	-11.4398
豈獨	-11.4399
矣綱目書	-11.44
陵寢	-11.4401
興二年	-11.4401
不得入	-11.4403
始元年	-11.4404
綱目特	-11.4408
聽之	-11.4409
㑹之	-11.4409
隂山	-11.4412
莾	-11.4412
二里	-11.4412
北朝	-11.4412
兆民	-11.4413
涇陽	-11.4414
念之	-11.4414
於中國	-11.4414
被誅	-11.4415
故耳	-11.4416
郡名注見秦王政三年	-11.4417
長星	-11.4417
畧陽	-11.4417
之辨	-11.442
其手	-11.4421
戊子	-11.4423
致死	-11.4425
竟以	-11.4426
而不為	-11.4427
其師	-11.4427
擢為	-11.4428
中書門下	-11.4429
共攻	-11.4431
光逺	-11.4434
城人	-11.4435
入河	-11.4437
州天寳初改	-11.4437
為大將軍	-11.4438
内則	-11.4438
諱之	-11.4439
顔色	-11.444
郡晉屬	-11.444
十數	-11.4444
復召	-11.4444
謀臣	-11.4444
城西北	-11.4447
秘書	-11.4447
可觀	-11.4447
理財	-11.4448
莫敢言	-11.4451
詐稱	-11.4451
下馬	-11.4452
中道	-11.4453
之防	-11.4453
此盖	-11.4455
將死	-11.4457
異之	-11.4458
者可以	-11.4458
唐初復置	-11.4461
一卷	-11.4461
南征	-11.4462
子胥	-11.4462
親屬	-11.4469
不可信	-11.447
慶父	-11.447
首惡	-11.4471
諫者	-11.4473
為漢	-11.4477
譟	-11.4478
義宣	-11.4478
府事	-11.4478
建武元年	-11.4479
出屯	-11.4479
帝堯	-11.4479
定䇿	-11.448
城東南	-11.4481
左氏傳	-11.4483
梁陳	-11.4485
爵位	-11.4485
雹	-11.4486
無聞	-11.4486
元狩	-11.4487
之器	-11.4489
侵宋	-11.449
而遁	-11.449
百二十	-11.4491
逃亡	-11.4491
之約	-11.4491
所畏	-11.4494
世隆	-11.4496
庻人	-11.4497
則已	-11.4498
讞	-11.4498
捶	-11.4498
岑彭	-11.45
郡後魏	-11.45
自任	-11.4501
二千人	-11.4501
莎車	-11.4502
洞庭	-11.4504
哈瑪爾	-11.4505
先正	-11.4505
幄	-11.4506
陽平	-11.4506
二月朔日食	-11.4506
亾	-11.4506
詔命	-11.4506
峭	-11.4507
葬之	-11.4507
節度注見	-11.4507
涵	-11.4508
鄭氏曰	-11.4508
衆議	-11.4509
羨	-11.4509
以攻	-11.4509
澤潞	-11.4509
張晏曰	-11.451
臥	-11.4511
勗	-11.4511
鱗	-11.4511
帑	-11.4512
吳漢	-11.4512
世道	-11.4512
許諾	-11.4513
筦	-11.4513
後悔	-11.4514
瞽瞍	-11.4515
也自是	-11.4515
僚佐	-11.4515
為内應	-11.4515
錢鏐	-11.4516
秦王世民	-11.4516
姑孰	-11.4516
折衝	-11.4516
頤	-11.4517
七行	-11.4517
潘美	-11.4517
屨	-11.4518
青苖	-11.4519
艮	-11.4519
臧否	-11.452
簒弑	-11.452
杼	-11.452
温嶠	-11.452
允文	-11.452
宫闈	-11.4521
帝𤣥更始二年	-11.4522
慰勞	-11.4526
次子	-11.4527
卵	-11.4527
道名	-11.4529
繫獄	-11.4529
劉摯	-11.453
之序	-11.453
后土	-11.4531
而從	-11.4533
市井	-11.4534
黔中	-11.4535
都元帥	-11.4538
贖罪	-11.4538
濟江	-11.4539
治世	-11.4541
劉聰	-11.4541
爵賞	-11.4542
免之	-11.4542
外夷	-11.4543
陽翟	-11.4544
偷安	-11.4545
運糧	-11.4545
所舉	-11.4546
𢎞範	-11.4546
西域國名	-11.4547
多難	-11.4548
微弱	-11.4549
之備	-11.455
公薨子	-11.455
妃嬪	-11.4554
使至	-11.4554
名義	-11.4555
熈河	-11.4556
直學士	-11.4559
長社	-11.4561
庶民	-11.4563
依違	-11.4564
洛口	-11.4565
天也	-11.4567
山中	-11.4569
劉曜	-11.4569
伐魯	-11.4573
目之	-11.4574
萬乗之	-11.4576
為卿	-11.4576
偽學	-11.458
之人也	-11.458
有四	-11.4581
秀實	-11.4584
若乃	-11.459
徐温	-11.4592
禮部	-11.4592
將來	-11.4593
衆至	-11.4594
朝于	-11.4594
至重	-11.4596
書起兵	-11.4599
亦如之	-11.4599
問罪	-11.46
如此而	-11.4603
他事	-11.4604
計者	-11.4606
前人	-11.4607
人道	-11.4608
族誅	-11.4611
五等	-11.4613
狄道	-11.4613
力行	-11.4614
草制	-11.4614
别種	-11.4615
顧乃	-11.4616
而徒	-11.4618
攻戰	-11.4619
餘慶	-11.462
所愛	-11.4625
已至	-11.4625
轉相	-11.4626
竊發	-11.4628
文辭	-11.4632
則吾	-11.4632
之咎	-11.4633
庶乎	-11.4634
晋陽	-11.4635
亦宜	-11.4635
注見漢獻帝興平二年	-11.4635
得入	-11.4636
上令	-11.4636
梁以	-11.4637
之列	-11.4637
韋后	-11.4641
宋陞	-11.4644
同異	-11.4648
惜也	-11.4648
宋元	-11.4648
及卒	-11.4649
併入	-11.4652
神龍	-11.4652
招之	-11.4656
都督府	-11.4658
葢亦	-11.4658
乃退	-11.4658
髙后	-11.4659
賢士	-11.466
蘇氏	-11.466
改爲	-11.4662
推誠	-11.4662
有志	-11.4663
非能	-11.4664
養民	-11.4665
滎	-11.4665
風化	-11.4666
國本	-11.467
卓然	-11.4673
金屬	-11.4678
名將	-11.4679
必有所	-11.4679
百餘萬	-11.4679
坐視	-11.468
南蠻	-11.4682
努	-11.4685
鴻臚	-11.4686
此處	-11.4687
舊事	-11.4687
賈氏	-11.4689
也君子	-11.4689
簡子	-11.4691
屬國	-11.4694
官職	-11.4697
論功	-11.4698
兄也	-11.4702
訢	-11.4704
北涼	-11.4704
為辭	-11.4705
有若	-11.4707
估	-11.4708
無日	-11.4708
奉行	-11.4709
彜	-11.4709
試之	-11.4709
鉏	-11.4712
孟知祥	-11.4712
决矣	-11.4713
䑓	-11.4715
尙	-11.4716
槃	-11.4716
元年書	-11.4716
媯	-11.4717
笏	-11.4718
茲	-11.4719
縷	-11.472
都虞候	-11.472
忠貞	-11.472
為世	-11.472
夙夜	-11.4722
餐	-11.4723
景德	-11.4723
又請	-11.4724
荆棘	-11.4725
士君子	-11.4726
沈慶之	-11.4726
鄢陵	-11.4727
擇人	-11.4728
之原	-11.4729
褚淵	-11.473
為列侯	-11.4731
别為	-11.4732
慰撫	-11.4733
仁贍	-11.4733
本非	-11.4735
假借	-11.4736
貨財	-11.4737
天下之士	-11.4738
張邦昌	-11.4738
圖䜟	-11.4739
倉庫	-11.474
之君臣	-11.474
僅得	-11.474
仁孝	-11.474
貪暴	-11.474
錢帛	-11.4741
達蘭	-11.4741
其二	-11.4742
暴崩	-11.4742
言行	-11.4743
語及	-11.4743
孫皓	-11.4744
兵出	-11.4744
不分	-11.4744
初上	-11.4745
䝉遜	-11.4745
膠東	-11.4745
夜半	-11.4746
秦二世二年	-11.4747
父子兄弟	-11.4748
凡六	-11.4748
離散	-11.4751
無餘	-11.4752
承㫖	-11.4753
田單	-11.4753
河清	-11.4754
楚漢	-11.4754
招討	-11.4755
順陽	-11.4758
太學生	-11.4759
仲達	-11.476
大丈夫	-11.476
謝病	-11.4763
屈原	-11.4763
原州	-11.4765
吾屬	-11.4765
掩其	-11.4769
用刑	-11.4771
而返	-11.4771
以清	-11.4772
安都	-11.4772
詔從之	-11.4772
其屬	-11.4773
三嵗	-11.4773
魯肅	-11.4773
五曰	-11.4774
留意	-11.4776
鄭衆	-11.4776
宜早	-11.4778
省臣	-11.4784
所論	-11.4784
中行	-11.4785
附于	-11.4786
不為也	-11.4787
惡惡	-11.4788
大綱	-11.4789
子羽	-11.479
恣行	-11.4793
於縣置	-11.4793
避位	-11.4794
獲之	-11.4798
乗間	-11.4798
兵三萬	-11.4801
員外郎	-11.4801
國寳	-11.4802
宜中	-11.4804
直道	-11.4809
宋文帝元嘉	-11.4813
無所不至	-11.4813
君實	-11.4815
俟其	-11.4815
年老	-11.4819
未行	-11.4819
意欲	-11.482
亦豈	-11.4822
由其	-11.4822
海西	-11.4827
侯伯	-11.4828
東胡	-11.4829
元惡	-11.4832
宋元仍舊	-11.4833
還長安	-11.4834
衆曰	-11.4835
其前	-11.4836
古史	-11.4836
一有	-11.4836
為中書侍郎	-11.4841
惟陛下	-11.4842
秦師	-11.4843
猶今	-11.4844
直指	-11.4844
四十萬	-11.4844
之事則	-11.4845
則罪	-11.4848
五十餘	-11.4848
度量	-11.4849
平時	-11.4852
無成功	-11.4855
上計	-11.486
姓名也	-11.4861
更定	-11.4866
行軍	-11.4866
讀史	-11.487
得之矣	-11.4874
極其	-11.4875
有寵於	-11.4875
故夫	-11.4876
五星	-11.4876
治體	-11.4877
太祖之	-11.4881
二家	-11.4881
六師	-11.4884
移於	-11.4885
濮王	-11.4886
無極	-11.4886
其計	-11.4889
亦可以	-11.4892
誠以	-11.4894
譬之	-11.4895
養子	-11.4895
者有之	-11.4897
存乎	-11.49
之福也	-11.49
梁氏	-11.4901
地道	-11.4902
復位	-11.4904
惟一	-11.4907
堕	-11.4907
政治	-11.4909
而不知其	-11.4909
其形	-11.491
元氣	-11.4911
之讐	-11.4912
伐陳	-11.4912
三十二	-11.4913
辭位	-11.4913
士之	-11.4915
胷	-11.4915
也陛下	-11.4916
頔	-11.492
兵擊之	-11.492
于魯	-11.4921
鎧	-11.4921
遂據	-11.4921
長君	-11.4921
始二年	-11.4922
琇	-11.4923
縋	-11.4924
培	-11.4925
其語	-11.4925
樊噲	-11.4926
失實	-11.4926
佯	-11.4926
靺鞨	-11.4926
匹磾	-11.4929
昧於	-11.4929
圯	-11.493
坂	-11.493
王曾	-11.493
椘	-11.493
蔡氏傳曰	-11.4931
自見矣	-11.4932
覆轍	-11.4932
中間	-11.4933
撾	-11.4933
渴	-11.4933
桑維翰	-11.4933
鄉縣	-11.4933
亦不敢	-11.4933
縉紳	-11.4934
疲弊	-11.4934
發之	-11.4934
乾祐	-11.4936
自隨	-11.4936
自矜	-11.4937
為盟主	-11.4937
陀	-11.4938
虎狼	-11.4938
咽	-11.4938
則固	-11.4939
巨源	-11.494
吕頥浩	-11.494
文進	-11.494
御筆	-11.494
貉	-11.494
知諫院	-11.4941
貧賤	-11.4942
劉崇	-11.4942
瀕	-11.4943
不可得也	-11.4943
沮渠	-11.4944
佛寺	-11.4944
而有之	-11.4946
夏后氏	-11.4946
都部署	-11.495
曹參	-11.495
于金	-11.4951
失地	-11.4952
西涼	-11.4952
一則	-11.4954
既敗	-11.4954
縣名注見周	-11.4955
與諸將	-11.4957
官司	-11.4959
地名未詳處所	-11.4959
曾布	-11.496
廢也	-11.4961
不協	-11.4961
用度	-11.4961
劉知逺	-11.4962
帝大怒	-11.4963
為賊所	-11.4964
都統制	-11.4965
適足	-11.4966
曰大王	-11.4967
所以致	-11.4967
定其	-11.4968
未暇	-11.4969
彦澤	-11.4972
神農	-11.4972
孝寛	-11.4973
奄至	-11.4974
血食	-11.4978
勤於	-11.4979
亦皆	-11.498
叔寳	-11.498
以賜	-11.498
謝𤣥	-11.4981
於禮	-11.4981
友愛	-11.4981
林邑	-11.4982
微行	-11.4986
惟岳	-11.4987
正當	-11.4987
平陽府	-11.4987
名節	-11.4988
但云	-11.499
大振	-11.4993
孫之翰論	-11.4993
連衡	-11.4993
六日	-11.4994
死力	-11.4994
殺身	-11.4995
之勇	-11.4996
奔還	-11.4998
流離	-11.5
出居	-11.5001
前驅	-11.5002
自恣	-11.5003
元年正月	-11.5003
民財	-11.5006
白虎	-11.5007
固不足	-11.5007
曰予	-11.5008
以從	-11.5009
之叛	-11.5011
廢黜	-11.5012
遂降	-11.5013
者何哉	-11.5014
也昔者	-11.5014
已去	-11.5014
甚重	-11.5014
岐山	-11.5015
乃至	-11.5015
於庭	-11.5021
也案	-11.5022
之惑	-11.5022
不能去	-11.5023
從兄	-11.5023
固可	-11.5024
故號	-11.5024
将帥	-11.5024
曉然	-11.5025
然矣	-11.5026
有云	-11.5026
隋志	-11.5027
傅㑹	-11.5028
乘其	-11.503
嶲	-11.5031
驩	-11.5032
而北	-11.5032
建德	-11.5034
發喪	-11.5035
用尚書	-11.5035
下士	-11.5036
極論	-11.5036
解圍	-11.5038
傅説	-11.5038
以治	-11.5039
節度副使	-11.5039
敬宣	-11.5039
増置	-11.5039
忘其	-11.5039
也因	-11.5039
何如哉	-11.504
器也	-11.5041
蔚州	-11.5041
漢紀	-11.5043
於心	-11.5044
娣	-11.5044
歸命	-11.5045
與之同	-11.5046
遷之	-11.5047
不存	-11.5049
注見漢光	-11.505
成帝綏和二年	-11.5051
事泄	-11.5052
未畢	-11.5052
改縣曰	-11.5053
藥師	-11.5054
求治	-11.5054
主於	-11.5057
地而	-11.5058
天下之心	-11.5059
曰太子	-11.506
刺之	-11.5064
朗州	-11.5064
人得	-11.5066
靈王	-11.5066
之寵	-11.5067
何以不	-11.5067
去而	-11.5068
敵也	-11.5068
其理	-11.5069
思退	-11.5071
一見	-11.5071
索隠	-11.5073
前軍	-11.5073
進逼	-11.5075
致太平	-11.5079
如是則	-11.5081
陽郡名注見	-11.5081
改正	-11.5081
遣李	-11.5082
少保	-11.5083
之彊	-11.5087
通論	-11.5087
物故	-11.5087
以廣	-11.5089
求言	-11.5089
酒酣	-11.5089
十六國	-11.509
反正	-11.5093
盛衰	-11.5093
遺民	-11.5093
必待	-11.5096
預政	-11.5096
大半	-11.5097
誣以	-11.51
山上	-11.5102
惡而	-11.5102
救鄭	-11.5103
徳府	-11.5109
諸家	-11.5109
夜襲	-11.511
大家	-11.5113
汝等	-11.5115
永康元年	-11.5118
識其	-11.5121
煥	-11.5124
禮法	-11.5125
少誠	-11.5126
酈	-11.5127
王𢎞	-11.5127
無故而	-11.5128
五郡	-11.5129
曷為不書	-11.513
逢吉	-11.5131
諸侯之師	-11.5132
内無	-11.5132
鄢	-11.5132
必得	-11.5132
旒	-11.5133
注見宋明帝	-11.5135
祼	-11.5135
終無	-11.5136
盆	-11.5136
講和	-11.5136
翬	-11.5138
湜	-11.514
皂	-11.5141
箸	-11.5142
城陷	-11.5142
棠	-11.5143
邯	-11.5143
抉	-11.5146
明旦	-11.5146
穪	-11.5146
婚姻	-11.5146
請誅	-11.5147
衮冕	-11.5147
乃所以	-11.5147
箠	-11.5147
玷	-11.5148
羮	-11.5148
雌	-11.5149
菽	-11.5149
餙	-11.5149
郎將	-11.515
蚤	-11.515
左傳襄	-11.515
駙馬	-11.515
張柬之	-11.5151
冥	-11.5151
牛僧孺	-11.5151
絞	-11.5151
鷙	-11.5151
擿	-11.5152
蹶	-11.5152
蹤	-11.5152
丐	-11.5152
擊走之	-11.5153
太中大夫	-11.5153
而代之	-11.5153
廊	-11.5153
髀	-11.5154
蒙遜	-11.5154
盪	-11.5155
兌	-11.5155
可笑	-11.5155
舟楫	-11.5155
裴矩	-11.5155
翕然	-11.5156
毘陵	-11.5156
劓	-11.5156
挟	-11.5156
癡	-11.5156
元濟	-11.5157
弗能	-11.5158
配享	-11.5159
祖父	-11.5159
鵲	-11.516
牧犍	-11.516
阿房	-11.5161
東城	-11.5162
今已	-11.5162
縑	-11.5162
則不書	-11.5163
灋	-11.5163
於京師	-11.5164
蜂起	-11.5164
所厚	-11.5164
劉琨	-11.5165
所薦	-11.5165
所以重	-11.5166
振旅	-11.5166
𢎞正	-11.5166
史臣曰	-11.5167
三國吳	-11.5167
李守貞	-11.5168
引軍	-11.5168
卽位	-11.5169
誅宦官	-11.5169
示以	-11.517
者耶	-11.517
泰誓	-11.517
武三思	-11.517
注謂	-11.5173
要在	-11.5173
之不暇	-11.5174
魯陽	-11.5174
呉子	-11.5175
進擊	-11.5176
杜衍	-11.5177
與金	-11.5179
萬歳	-11.5183
州尋改	-11.5183
一譌	-11.5183
太牢	-11.5183
既久	-11.5184
太后臨朝	-11.5185
張禹	-11.5186
慶州	-11.5186
真偽	-11.5186
六一	-11.5186
士氣	-11.5188
元帝建武元年	-11.519
外家	-11.5191
元封	-11.5191
為義	-11.5191
居民	-11.5191
曰此非	-11.5192
劉錡	-11.5193
書官	-11.5193
三十七	-11.5194
奏聞	-11.5194
欣然	-11.5195
歸心	-11.5196
新豐	-11.5198
既誅	-11.5199
致討	-11.5199
不能容	-11.52
為吏部尚書	-11.5202
禁之	-11.5203
韓厥	-11.5204
秦以	-11.5205
事業	-11.5206
可稱	-11.5206
不能保	-11.5206
反逆	-11.5209
曷若	-11.5212
彊弱	-11.5212
待詔	-11.5213
紀律	-11.5215
復恭	-11.5216
伯升	-11.5217
於事	-11.5217
聖明	-11.5219
妻之	-11.522
親王	-11.522
一門	-11.5221
垂戒	-11.5222
萬嵗	-11.5225
宜先	-11.5227
者今	-11.5228
馬遷	-11.523
為賊	-11.5233
西魏改	-11.5237
三里	-11.5237
河橋	-11.5239
嘗欲	-11.524
四凶	-11.5241
十六行	-11.5241
因循	-11.5243
二傳	-11.5244
始用	-11.5244
守貞	-11.5245
歩卒	-11.5247
獨有	-11.5248
宗祀	-11.5249
苑中	-11.5249
責以	-11.5252
書叛	-11.5254
州廢	-11.5255
越人	-11.5257
亂天下	-11.5258
五品	-11.5263
當誅	-11.5266
江充	-11.527
兵威	-11.527
其數	-11.5271
李繼	-11.5273
斯為	-11.5275
入居	-11.5275
孝伯	-11.5278
為三公	-11.528
壽州	-11.5282
智力	-11.5286
以北	-11.5287
説者	-11.5288
未平	-11.5294
上嘉	-11.5295
于下	-11.5295
升降	-11.5296
欲取	-11.5298
願得	-11.5299
勞之	-11.5301
舉人	-11.5302
國之君	-11.5305
武陽	-11.5306
夜遁	-11.5309
晏然	-11.531
呼為	-11.5312
漢書注	-11.5312
將校	-11.5312
何獨	-11.5313
來奔	-11.5314
稱賀	-11.5315
博陵	-11.5315
臨終	-11.5316
不知所為	-11.5318
兩宫	-11.5321
其業	-11.5322
然非	-11.5323
馬周	-11.5325
能守	-11.5326
胡廣	-11.5329
至是以	-11.5331
乃反	-11.5331
罪已	-11.5335
近侍	-11.5335
開邊	-11.5336
史館	-11.5337
不能禁	-11.5337
所不及	-11.5338
等議	-11.534
志氣	-11.5341
何病	-11.5342
也詩	-11.5342
宴安	-11.5344
徴之	-11.5345
方平	-11.5348
設伏	-11.5349
疑懼	-11.5349
代人	-11.535
聖徳	-11.5352
孫子	-11.5355
在天	-11.5355
卒而	-11.5356
定國	-11.5357
又名	-11.5357
邊境	-11.5357
隲	-11.5357
衆庶	-11.536
釀	-11.536
之運	-11.5361
璮	-11.5362
賊將	-11.5362
了翁	-11.5362
綱目所書	-11.5362
擣	-11.5365
甬	-11.5365
五代晉	-11.5366
淇	-11.5367
汲冡	-11.5367
妓	-11.5367
玄	-11.5367
悌	-11.5367
府元	-11.5367
臭	-11.5368
晡	-11.5368
驢	-11.5369
而黜	-11.5369
不失其	-11.5369
僵	-11.5369
顛倒	-11.537
逓	-11.537
韋臯	-11.5371
於彼	-11.5372
博囉	-11.5373
僧尼	-11.5373
荀彧	-11.5373
尋卒	-11.5373
黨錮	-11.5373
邠寧	-11.5374
斛律	-11.5374
大赦改元	-11.5374
城東北	-11.5375
毆	-11.5375
綵	-11.5376
脚	-11.5376
郇	-11.5376
閭閻	-11.5377
玊	-11.5377
惡人	-11.5378
郗	-11.5378
大江	-11.5378
斾	-11.5378
朏	-11.5378
顚	-11.5378
檀道濟	-11.5379
縝	-11.5379
請先	-11.538
相連	-11.5382
南昌	-11.5382
颺	-11.5383
還京	-11.5383
申錫	-11.5383
浮橋	-11.5384
行宫	-11.5385
臨洮	-11.5386
酒色	-11.5386
安重誨	-11.5386
維翰	-11.5387
鄭畋	-11.5389
夀皇	-11.5389
鐵勒	-11.5391
激怒	-11.5392
愉	-11.5393
珠玉	-11.5394
東遷	-11.5394
真宗皇帝	-11.5394
侵掠	-11.5395
草創	-11.5395
等官	-11.5397
景祐	-11.5397
不時	-11.5399
焉其	-11.54
丹朱	-11.5402
而更	-11.5402
步騎	-11.5402
猶恐	-11.5403
永州	-11.5404
輔導	-11.5404
乏食	-11.5404
南岸	-11.5405
督戰	-11.5408
小白	-11.5409
歴年	-11.541
百二十里	-11.541
婺州	-11.5412
召募	-11.5414
今觀	-11.5416
能制	-11.5417
閩越	-11.5418
姦雄	-11.5419
君徳	-11.5419
他時	-11.5421
先見	-11.5422
儉約	-11.5422
帳下	-11.5423
也不然	-11.5424
捨身	-11.5425
八月以	-11.5429
受敵	-11.543
秦王政	-11.5433
太微	-11.5433
虢公	-11.5434
陳倉	-11.5434
今名	-11.5437
嵗月	-11.5439
顔師	-11.5441
言陛下	-11.5442
阿附	-11.5443
二千餘人	-11.5444
良嗣	-11.5447
并天下	-11.5449
㐮陽	-11.5449
高氏	-11.5449
封疆	-11.545
之弟也	-11.5451
兼領	-11.5453
經傳	-11.5454
廬陵王	-11.5454
乘間	-11.5456
大駭	-11.5457
抑觀	-11.5458
内地	-11.5462
所築	-11.5462
攻䧟	-11.5464
中傷	-11.5467
封王	-11.5471
二史	-11.5471
鄧通	-11.5471
之孫也	-11.5474
萬戸	-11.5474
軍名	-11.5474
者邪	-11.5475
何足以	-11.5478
而莫之	-11.5481
延安	-11.5481
信用	-11.5481
離宫	-11.5483
七十二	-11.5484
歸咎	-11.5484
順流	-11.5487
力辭	-11.5487
北歸	-11.5487
逐北	-11.5488
主和議	-11.5489
復改為	-11.549
三書	-11.549
州為	-11.5492
君集	-11.5494
罷為	-11.5494
如此其	-11.5494
軍馬	-11.5495
之至也	-11.5497
三百年	-11.5498
闗内	-11.55
專任	-11.5501
故直書	-11.5502
孤軍	-11.5503
安敢	-11.5504
古制	-11.5505
所封	-11.5506
五路	-11.5506
不在於	-11.5507
難得	-11.5507
誅殺	-11.551
誠心	-11.5513
可行	-11.5514
黎民	-11.5515
觀之則	-11.5516
殺太子	-11.552
和好	-11.552
漢魏	-11.5522
不常	-11.5523
崇尚	-11.5523
遂攻	-11.5526
以助	-11.5527
起兵討	-11.5529
齊丘	-11.5531
所學	-11.5533
隋改為	-11.5534
曽子	-11.5536
悦之	-11.5536
改易	-11.5536
三十卷	-11.5536
復爲	-11.5537
不知也	-11.5537
復叛	-11.5538
逆謀	-11.5542
烈王	-11.5544
孤城	-11.5544
推恩	-11.5545
敬天	-11.5546
非吾	-11.5546
西門	-11.5546
為相國	-11.5546
大度	-11.5547
日益	-11.5548
富平	-11.555
争之	-11.5551
削去	-11.5552
安軍	-11.5556
過半	-11.556
縱火	-11.5567
單子	-11.5568
春正月以	-11.5568
譙王	-11.557
帝曰朕	-11.5572
詔獄	-11.5574
相拒	-11.5575
前事	-11.5576
大雪	-11.5576
金墉	-11.5576
小吏	-11.5577
還自	-11.558
灃	-11.5584
南至	-11.5584
於此時	-11.5585
三百餘	-11.5586
注見漢靈	-11.5586
斟	-11.5587
毘	-11.5588
癸卯	-11.5589
嗣子	-11.5589
邀之	-11.5591
涖	-11.5591
抃	-11.5591
氶	-11.5592
疽	-11.5592
琚	-11.5592
浞	-11.5593
者常	-11.5593
者並	-11.5593
糞	-11.5593
各以其	-11.5593
爼	-11.5593
話	-11.5594
良弼	-11.5595
阿古逹	-11.5595
畎	-11.5595
藪	-11.5596
扺	-11.5596
麋	-11.5596
焉得	-11.5596
與楚	-11.5598
灰	-11.5598
寛大	-11.5598
踞	-11.5599
鑠	-11.5599
頰	-11.5599
未知是否	-11.5599
㲄	-11.56
梵	-11.5601
而驕	-11.5601
裴延齡	-11.5601
芾	-11.5601
瓠	-11.5602
琯	-11.5602
鎰	-11.5603
倨	-11.5603
奨	-11.5603
軍食	-11.5603
而已哉	-11.5603
盡言	-11.5603
内降	-11.5604
二書	-11.5604
婁敬	-11.5604
樂器	-11.5604
昺	-11.5605
瓦解	-11.5605
瘳	-11.5605
帙	-11.5606
辰州	-11.5606
忠臣義士	-11.5606
㤀	-11.5607
勾踐	-11.5608
祉	-11.5609
裴炎	-11.5609
動揺	-11.561
皋	-11.561
鑰	-11.5611
優游	-11.5611
驕侈	-11.5612
掃除	-11.5612
遣兵攻	-11.5612
蕪湖	-11.5613
友珪	-11.5613
有夏	-11.5614
旬月	-11.5615
其處	-11.5616
為御史中丞	-11.5618
曹爽	-11.5618
山北	-11.5619
請兵	-11.562
尚能	-11.5621
奚契丹	-11.5621
左將軍	-11.5621
時人謂之	-11.5622
仰視	-11.5625
注見秦二世三年	-11.5626
不能復	-11.5627
晉獻公	-11.5627
王守澄	-11.5632
假手	-11.5633
立言	-11.5633
欲從	-11.5634
五色	-11.5635
彌逺	-11.5635
南涼	-11.5637
漳水	-11.5637
允恭	-11.5637
以謝天下	-11.5641
討逆	-11.5642
陰陽	-11.5644
欲反	-11.5644
李陵	-11.5648
激之	-11.5648
貳師	-11.5649
所以譏	-11.565
希廣	-11.5652
飛龍	-11.5652
義曰	-11.5654
他國	-11.5654
竇武	-11.5656
田悦	-11.5656
辨其	-11.5658
州宋屬	-11.5659
自保	-11.5659
天元	-11.566
中夏	-11.5661
没於	-11.5661
異聞	-11.5662
曲陽	-11.5668
一一	-11.5671
襄州	-11.5671
百七十	-11.5674
羣臣請	-11.5675
繼勲	-11.5678
請復	-11.5678
數四	-11.5678
用賢	-11.5679
取容	-11.568
日新	-11.5682
金石	-11.5682
髙宗之	-11.5682
殷民	-11.5682
臺省	-11.5683
十四行	-11.5683
疑似	-11.5685
王武俊	-11.5688
積石	-11.5689
轉戰	-11.5691
怒欲	-11.5692
切直	-11.5693
十一行	-11.5694
韓非	-11.5696
末流	-11.5697
文帝元嘉	-11.5697
發䘮	-11.5697
楊子	-11.57
致治	-11.5703
季興	-11.5704
降唐	-11.5704
陳於	-11.5706
進據	-11.5707
萬事	-11.5707
此篇	-11.5707
異者	-11.5708
兵入援	-11.571
上將軍	-11.5712
南齊	-11.5712
歸朝	-11.5713
浮梁	-11.5715
嵩山	-11.5715
不能平	-11.5716
農夫	-11.5717
弑父	-11.5718
大火	-11.5718
乃拜	-11.572
則何以	-11.572
可畏也	-11.5721
或告	-11.5722
遂絶	-11.5722
親親	-11.5722
兩國	-11.5724
一在	-11.5724
數以	-11.5724
顧謂	-11.5727
解體	-11.573
是乃	-11.5733
心乎	-11.5736
𤓰州	-11.5737
境上	-11.5738
簒國	-11.5739
良法	-11.5741
故太子	-11.5741
平仲	-11.5741
恥之	-11.5743
張衡	-11.5743
氏族	-11.5745
荘子	-11.5746
兵彊	-11.5746
也胡氏曰	-11.5747
和解	-11.5748
定逺	-11.5748
北走	-11.5749
忠嗣	-11.575
非一日	-11.575
彼此	-11.575
所重	-11.5751
誅夷	-11.5752
畏服	-11.5756
定律令	-11.5758
之慮	-11.5759
曽無	-11.5759
據險	-11.5763
天光	-11.5767
義隆	-11.577
杖之	-11.5771
視朝	-11.5771
嗣昭	-11.5772
庭芝	-11.5775
遣騎	-11.5776
朝服	-11.5783
為子孫	-11.5784
鉷	-11.5785
老母	-11.5785
之大者	-11.5786
知其非	-11.5787
歩兵	-11.5788
易州	-11.5788
所共	-11.5789
必不能	-11.5789
伊周	-11.5791
累世	-11.5791
漢祚	-11.5792
不書其	-11.5793
累年	-11.5797
之祥	-11.5798
自治	-11.5798
隂平	-11.5799
至建康	-11.58
信矣	-11.58
才能	-11.5802
廣南	-11.5805
也聖人	-11.5806
清水	-11.5807
被甲	-11.5807
性剛	-11.581
臣民	-11.5812
玉門	-11.5812
而與之	-11.5813
亦甚矣	-11.5815
遣使詣	-11.5816
得專	-11.5816
賣國	-11.5817
得已	-11.5819
城名注見	-11.5819
而待	-11.582
豈復	-11.5821
雨雪	-11.5821
今按此	-11.5822
虓	-11.5822
南仲	-11.5824
右正言	-11.5824
沱	-11.5824
庖	-11.5825
跳	-11.5825
縣名注見周赧	-11.5825
秃	-11.5825
諸弟	-11.5825
入洛陽	-11.5825
走還	-11.5826
需	-11.5826
鴈	-11.5826
記王制	-11.5826
吏部侍郎	-11.5827
守忠	-11.5827
戶	-11.5827
黥布	-11.5827
餞	-11.5827
湘東王繹	-11.5827
租庸	-11.5828
軻	-11.5828
竇建徳	-11.5829
函谷	-11.5829
郡乾元初	-11.5829
前殿	-11.5829
縶	-11.5829
一萬	-11.5829
侗	-11.583
共立	-11.583
夏四月朔日食	-11.583
埀	-11.583
琅琊	-11.5831
竇融	-11.5831
腸	-11.5831
漿	-11.5831
記曲禮	-11.5832
翹	-11.5832
彰徳	-11.5832
咈	-11.5833
信乎	-11.5833
嫌疑	-11.5834
張承業	-11.5835
鎛	-11.5835
罸	-11.5835
孱	-11.5836
縣名注見晉	-11.5836
未安	-11.5836
澠池	-11.5837
桂林	-11.5837
出其不意	-11.5837
州以縣屬	-11.5837
鄫	-11.5838
陳宜中	-11.5838
乃始	-11.5838
晷	-11.5838
桑𢎞羊	-11.5838
郡唐復為	-11.5838
侁	-11.584
五禮	-11.584
程顥	-11.584
驪姬	-11.584
方興	-11.5841
沈攸之	-11.5842
此數	-11.5842
比肩	-11.5842
杲卿	-11.5842
條例司	-11.5843
崈	-11.5843
沴	-11.5843
郜	-11.5844
部伍	-11.5845
癸丑	-11.5846
三卷	-11.5846
乍	-11.5847
弑其主	-11.5849
庻幾	-11.585
邵陵	-11.5851
所屬	-11.5851
赴援	-11.5852
鮑叔	-11.5852
漢髙祖	-11.5852
注見梁	-11.5852
關羽	-11.5853
城即	-11.5853
㓂凖	-11.5853
敖曹	-11.5856
何嘉	-11.5856
所司	-11.5856
乃遣使	-11.586
饑寒	-11.5862
義同	-11.5863
縱使	-11.5863
行逢	-11.5863
所憚	-11.5863
侍御	-11.5865
温州	-11.5865
大事記曰	-11.5867
政教	-11.5867
而棄之	-11.587
孟子所謂	-11.587
條例	-11.587
遂還	-11.5872
莫甚於	-11.5872
震動	-11.5873
李公	-11.5873
冀州刺史	-11.5873
文天祥	-11.5874
姜氏	-11.5876
魏遣	-11.5876
直筆	-11.5877
不置	-11.5878
之地而	-11.5878
沂州	-11.588
永明	-11.588
引咎	-11.5881
千五百	-11.5881
驅之	-11.5881
員外	-11.5882
效死	-11.5883
一州	-11.5883
恃功	-11.5883
邊患	-11.5884
宣諭	-11.5885
開寶	-11.5888
簒位	-11.5889
恭顯	-11.589
既失	-11.5891
國祚	-11.5892
不免於	-11.5892
仁夀	-11.5895
一説	-11.5895
講學	-11.5895
既克	-11.5896
能盡	-11.5897
以為憂	-11.5899
軍潰	-11.5899
兩浙	-11.5901
竒兵	-11.5901
郡隋初	-11.5901
樂工	-11.5902
夷滅	-11.5903
又見	-11.5904
大索	-11.5904
注見𤣥宗開元	-11.5905
不對	-11.5906
注見𤣥宗	-11.5906
興三年	-11.5907
既入	-11.5908
凡七	-11.5908
我當	-11.5909
獨與	-11.5911
尋以	-11.5914
父母之	-11.5914
獲免	-11.5918
惜之也	-11.592
無間	-11.5921
李彦	-11.5921
市人	-11.5921
庶政	-11.5922
帝乙	-11.5922
銘曰	-11.5923
二人皆	-11.5923
南單于	-11.5924
潁川郡	-11.5925
浙江	-11.5925
不懌	-11.5925
劉晏	-11.5926
權知	-11.5927
對䇿	-11.5928
軍吏	-11.5929
袁氏	-11.5929
徃來	-11.5929
呂氏	-11.593
若何	-11.5931
帝親	-11.5931
記之	-11.5933
四海之	-11.5933
崇寧	-11.5934
書某	-11.5936
君側	-11.594
三百人	-11.594
謀作亂	-11.5941
遣劉	-11.5941
命有司	-11.5941
而論之	-11.5942
相反	-11.5943
南下	-11.5943
為樞密使	-11.5943
由是觀之	-11.595
自餘	-11.5953
一官	-11.5954
郡邑	-11.5955
華夏	-11.5955
捨之	-11.5956
功烈	-11.5956
處所	-11.5957
棄官	-11.5958
唐志	-11.5958
興國	-11.5959
老人	-11.596
善用兵	-11.5962
自潰	-11.5963
連和	-11.5964
上表請	-11.5964
所存	-11.5965
大業初	-11.5965
江寧	-11.5967
任子	-11.5969
之子孫	-11.5972
仍舊元	-11.5974
孝惠	-11.5975
憐之	-11.5975
報國	-11.5975
恩澤	-11.5976
不念	-11.5977
總論	-11.598
哉今	-11.5982
又分	-11.5982
州司馬	-11.5983
新舊	-11.5984
或音	-11.5985
惑之	-11.5987
其術	-11.5987
收兵	-11.5989
乘馬	-11.599
注見漢桓帝	-11.599
鄧本	-11.5994
有言曰	-11.5996
隕石	-11.5999
更以	-11.6001
而不見	-11.6004
禦敵	-11.6009
隨時	-11.6012
尊之	-11.6013
羣公	-11.6013
防禦使	-11.6014
孝武帝太元	-11.6014
舍之	-11.6015
後魏置	-11.6016
義恭	-11.6016
而逃	-11.6016
梁兵	-11.6019
勇也	-11.6019
失天下	-11.6019
封邑	-11.6021
十餘日	-11.6021
詔遣	-11.6024
復改	-11.6024
故凡	-11.6027
可信	-11.6028
鄭注	-11.6029
兵二萬	-11.603
移鎮	-11.603
戒其	-11.6032
西城	-11.6032
千匹	-11.6035
入衛	-11.6036
刑部	-11.6037
之精	-11.6042
不朽	-11.6043
聚兵	-11.6045
存孝	-11.6046
三詳	-11.6047
三事	-11.6048
非聖人	-11.6048
盛矣	-11.6049
不難	-11.6052
者也今	-11.6052
陳勝	-11.6052
舊章	-11.6053
温公論	-11.6054
异	-11.6055
唯有	-11.6055
五官	-11.6057
子嬰	-11.6058
蚡	-11.6059
叛亂	-11.606
書於冊	-11.606
其制	-11.606
茍且	-11.606
英武	-11.6061
穰苴	-11.6061
貞觀中	-11.6061
鄗	-11.6061
伯父	-11.6063
妣	-11.6064
牡	-11.6065
鳳凰	-11.6066
押牙	-11.6066
彩	-11.6066
功德	-11.6067
關内侯	-11.6067
豚	-11.6067
挹	-11.6067
糓	-11.6068
司馬相如	-11.6069
驤	-11.6069
圻	-11.6069
冺	-11.6069
羅織	-11.607
啜	-11.607
潁濵	-11.607
周家	-11.6071
鋤	-11.6071
徐兖	-11.6071
倉猝	-11.6071
滂	-11.6071
槍	-11.6071
滉	-11.6072
天寳初	-11.6072
薰	-11.6072
亊	-11.6072
槀	-11.6073
可不戒哉	-11.6073
岳州	-11.6073
而泣	-11.6073
稻	-11.6073
愛憎	-11.6073
款	-11.6073
慱	-11.6073
蹟	-11.6074
之甚者	-11.6074
阿爾哈雅	-11.6074
天位	-11.6074
深州	-11.6074
不生	-11.6074
醴泉	-11.6074
祭天	-11.6074
吕惠卿	-11.6074
副元帥	-11.6075
耄	-11.6075
軹	-11.6075
騶	-11.6075
陁	-11.6075
祖逖	-11.6075
尋罷	-11.6076
淡	-11.6076
丁卯	-11.6076
吞噬	-11.6076
叶	-11.6077
蟠	-11.6077
綱目皆	-11.6077
蟻	-11.6078
淮泗	-11.6078
仲虺	-11.6079
季友	-11.6079
大有年	-11.6079
踐祚	-11.6079
三年之喪	-11.6079
任賢	-11.608
彞	-11.608
兼樞密使	-11.608
捉	-11.6081
為社稷	-11.6082
然後可以	-11.6083
荆襄	-11.6083
巢穴	-11.6083
諸大夫	-11.6085
不可失也	-11.6085
羡餘	-11.6085
迨夫	-11.6086
皆坐	-11.6086
未央宫	-11.6087
歸路	-11.6088
加九錫	-11.6088
伊洛	-11.6088
州尋廢	-11.6089
蘇轍	-11.6091
凉王	-11.6091
北匈奴	-11.6093
如楚	-11.6094
詣京師	-11.6097
氐羌	-11.6098
既去	-11.6099
張齊賢	-11.6099
蘭州	-11.61
逆黨	-11.6101
合謀	-11.6104
實非	-11.6105
無咎	-11.6106
謂羣臣曰	-11.6106
遼人	-11.6106
神策	-11.6107
懷王	-11.6107
環慶	-11.6108
邦之	-11.6108
賊衆	-11.6109
蒼生	-11.6109
齊以	-11.6109
太宗貞觀	-11.6109
勞苦	-11.611
無實	-11.611
抑亦	-11.6111
小字	-11.6112
姚興	-11.6114
還朝	-11.6115
諡忠	-11.6117
天理之	-11.6118
光州	-11.6119
欲速	-11.6122
矯制	-11.6122
貧者	-11.6123
未復	-11.6123
選人	-11.6124
魏文帝	-11.6125
之深意	-11.6125
天下共	-11.6125
上遣	-11.6126
深譏之	-11.6127
弑逆之	-11.6127
私第	-11.6129
不辨	-11.6131
皇嗣	-11.6131
循吏	-11.6132
十有二年	-11.6132
也若夫	-11.6133
孟堅	-11.6134
仲康	-11.6135
度遼	-11.6137
武帝元朔	-11.614
諸侯皆	-11.614
既亡	-11.6142
覺之	-11.6143
二體	-11.6146
凡二	-11.6148
為郎	-11.615
共事	-11.6151
也正義曰	-11.6151
因請	-11.6155
潞王	-11.6158
待其	-11.6158
不獨	-11.6159
重臣	-11.6159
張后	-11.616
之臣也	-11.616
二城	-11.6162
宋襄公	-11.6162
孰為	-11.6163
自解	-11.6164
可紀	-11.6166
聼命	-11.6168
同謀	-11.617
石城	-11.6171
吏事	-11.6171
多遜	-11.6172
倍道	-11.6174
帝元嘉	-11.6175
秦始	-11.6175
驚曰	-11.6176
罷去	-11.6178
泰伯	-11.6182
年五十	-11.6187
晉安帝	-11.6189
不悛	-11.6189
世家曰	-11.6191
始平	-11.6193
白水	-11.6195
為太師	-11.6196
賢則	-11.6196
有子	-11.6196
李紹	-11.6198
河洛	-11.62
相為	-11.62
呉越	-11.6204
初陞	-11.6206
知㡬	-11.6206
李牧	-11.6206
萬乗	-11.6207
廣固	-11.6208
世本	-11.6208
其源	-11.6209
一無所	-11.6209
共王	-11.621
襲殺	-11.6211
君弑	-11.6213
自然之	-11.6215
延熹	-11.6217
而取之	-11.6217
廷臣	-11.622
尚矣	-11.622
江表	-11.6225
文忠	-11.6227
賜錢	-11.6228
又敗	-11.6229
戰大敗	-11.6229
軍門	-11.623
乃悉	-11.6231
出走	-11.6231
則難	-11.6231
書諡	-11.6233
等將兵	-11.6234
趙高	-11.6236
有闕	-11.6237
不得進	-11.6238
知己	-11.6241
徳行	-11.6241
二主	-11.6248
持論	-11.6248
成宗	-11.6249
為左丞相	-11.625
若干	-11.6253
闕失	-11.6254
亦將	-11.6257
而守之	-11.6258
訓注	-11.6262
韓建	-11.6264
病也	-11.6265
櫟	-11.6269
商君	-11.6269
祖甲	-11.627
十倍	-11.6271
任人	-11.6271
也不書	-11.6272
山河	-11.6272
斜谷	-11.6274
大敵	-11.6274
郴州	-11.6276
君父之	-11.6277
綱目直書	-11.6278
疾甚	-11.6279
興州	-11.628
輿服	-11.6281
之後也	-11.6282
哉雖然	-11.6283
嘗曰	-11.6283
春正月魏	-11.6284
李淵	-11.6284
是已	-11.6285
前日之	-11.6285
又况	-11.6285
陽虎	-11.6286
兵家	-11.6287
作誅	-11.629
威烈王二十三年	-11.629
奸臣	-11.6297
甯	-11.6297
沈湎	-11.6298
徙之	-11.6299
􁐾	-11.63
刻薄	-11.63
醮	-11.6302
徳宗貞元	-11.6304
厚賜	-11.6304
鑾	-11.6305
陷於	-11.6305
阿史那	-11.6305
詵	-11.6306
垂簾	-11.6308
王嘉	-11.6308
緍	-11.6308
昞	-11.6309
綾	-11.6309
懟	-11.6309
敬瑄	-11.6309
賓客	-11.6309
袴	-11.631
歸功	-11.631
遣子	-11.631
星孛	-11.6311
訶	-11.6311
轄	-11.6311
郡唐初復為	-11.6311
訃	-11.6311
雱	-11.6312
吐突承璀	-11.6312
諳	-11.6312
公事	-11.6312
璉	-11.6312
六月朔日食	-11.6312
枋頭	-11.6313
璣	-11.6313
專政	-11.6313
低	-11.6313
偹	-11.6314
唾	-11.6314
棧	-11.6314
書院	-11.6314
煑	-11.6314
睹	-11.6314
鯁	-11.6314
溉	-11.6314
巡狩	-11.6315
西土	-11.6315
跖	-11.6316
晁	-11.6316
羈	-11.6316
忝	-11.6316
兵部侍郎	-11.6316
駕馭	-11.6316
啼	-11.6316
碧	-11.6316
凋	-11.6317
朱异	-11.6318
脯	-11.6319
肺	-11.6319
如漢	-11.6319
爪	-11.6319
垂拱	-11.6319
之間而	-11.632
五王	-11.632
春正月朔日食	-11.632
曰國家	-11.632
鈍	-11.632
瞿	-11.6321
一代之	-11.6321
告身	-11.6322
嗜酒	-11.6322
杜佑	-11.6322
藩鎭	-11.6322
昩	-11.6323
熙豐	-11.6323
恣横	-11.6323
當此之時	-11.6323
北山	-11.6324
僮	-11.6324
注見漢宣帝	-11.6325
怵	-11.6325
重任	-11.6326
餼	-11.6326
戡	-11.6326
莫大乎	-11.6327
竪	-11.6327
士庶	-11.6328
絮	-11.6329
榦	-11.6329
府城西	-11.633
十有一	-11.6332
許男	-11.6332
膠西	-11.6333
率皆	-11.6333
蘇峻	-11.6335
憂其	-11.6337
周亞夫	-11.6338
太戊	-11.6338
憂國	-11.634
年八十	-11.634
縣地屬	-11.6341
狐疑	-11.6342
抵罪	-11.6342
十一月以	-11.6342
播越	-11.6342
動静	-11.6343
皇字	-11.6343
維持	-11.6344
魏文侯	-11.6344
血氣	-11.6345
拜珠	-11.6346
雖非	-11.6347
河間府	-11.6347
直臣	-11.6347
曹丕	-11.6348
暴横	-11.635
養成	-11.635
棗陽	-11.635
邦國	-11.6353
典兵	-11.6354
牛𢎞	-11.6355
户部	-11.6356
四皓	-11.6357
犬馬	-11.6357
國朝因之	-11.6357
不書討	-11.6357
萬五千	-11.6359
永和	-11.636
左藏	-11.6361
夜郎	-11.6362
不實	-11.6363
未有能	-11.6366
自唐	-11.6369
好問	-11.6369
百四十	-11.6371
晚年	-11.6371
言事者	-11.6374
度使	-11.6374
蔡叔	-11.6375
顯慶	-11.6376
以為常	-11.6376
皆與	-11.6377
記室	-11.6378
示天下	-11.6379
交結	-11.638
反間	-11.638
為太上皇	-11.638
復生	-11.638
知政事	-11.6381
專殺	-11.6381
招納	-11.6382
子才	-11.6383
仇讐	-11.6385
洛陽宫	-11.6387
降詔	-11.6387
昌邑王	-11.6389
𤣥宗天寳	-11.6389
刻石	-11.6389
金山	-11.6391
熙河	-11.6392
獻帝建安十	-11.6393
乾德	-11.6395
十有四	-11.6398
三千餘人	-11.6398
其俗	-11.6399
寳應	-11.6402
相似	-11.6404
此説	-11.6406
退走	-11.6406
心術	-11.6406
甘陵	-11.6407
遂進	-11.6408
既書	-11.6408
務農	-11.6408
顯祖	-11.6409
何不以	-11.6411
華元	-11.6411
吾聞	-11.6413
河湟	-11.6415
五代唐	-11.6416
復令	-11.6416
殷周	-11.6417
不厭	-11.6418
九族	-11.6419
是否	-11.642
康子	-11.6421
疑是	-11.6421
參議	-11.6424
世為	-11.6425
興宗	-11.6427
相屬	-11.6428
景王	-11.6429
不妄	-11.6431
入境	-11.6432
汝隂	-11.6432
峽州	-11.6435
累朝	-11.6435
後之人	-11.6437
索多	-11.6437
無怨	-11.6437
推官	-11.644
中流	-11.6441
東山	-11.6442
破其	-11.6442
東宮	-11.6443
之墓	-11.6444
遷徙	-11.6446
及第	-11.6447
遂亡	-11.6447
即當	-11.6447
元陞為	-11.6449
平居	-11.6451
一介	-11.6455
州吁	-11.6456
已出	-11.6463
磁	-11.6463
邾人	-11.6463
昌宗	-11.6467
入禁中	-11.6469
精神	-11.647
嗣王	-11.6471
謂宰相曰	-11.6472
安得而	-11.6472
其爵	-11.6473
景仁	-11.6474
吾君	-11.6475
不書官	-11.6475
莊王	-11.6476
先祖	-11.6478
而奪之	-11.648
不告	-11.648
同意	-11.6481
公族	-11.6482
改作	-11.6485
帥騎	-11.6486
閬州	-11.6487
養生	-11.6487
武帝元鼎六年	-11.6491
武丁	-11.6491
池州	-11.6491
金國	-11.6492
求援	-11.6494
門户	-11.6495
制禮	-11.6495
之助	-11.6496
主父	-11.6497
事體	-11.6498
唐制	-11.6498
於己	-11.6499
形如	-11.6502
八九	-11.6502
外紀	-11.6503
其口	-11.6504
小過	-11.6504
西陽	-11.6505
田子	-11.6506
門之外	-11.6507
是舉	-11.651
虞夏	-11.6513
才畧	-11.6515
再見	-11.6517
招降	-11.6519
武夫	-11.6519
亦且	-11.6521
盗殺	-11.6522
雲州	-11.6522
部衆	-11.6532
衆多	-11.6535
百日	-11.6537
伐衛	-11.6539
崔光	-11.654
仲禮	-11.6541
十有九年	-11.6541
莭度	-11.6542
晉以	-11.6543
大率	-11.6543
糧道	-11.6545
盖自	-11.6545
襄陽府	-11.6546
無如之何	-11.6546
第六	-11.6547
而後世	-11.6548
應天府	-11.6548
棄疾	-11.6548
肅然	-11.655
爚	-11.655
數世	-11.6551
詳處所	-11.6553
不能克	-11.6553
撞	-11.6554
絜	-11.6555
蓼	-11.6555
倉廩	-11.6556
番禺	-11.6556
婿	-11.6557
走死	-11.6557
纛	-11.656
瘁	-11.6561
為界	-11.6561
盂	-11.6561
日有食之	-11.6561
稀	-11.6561
後魏改	-11.6561
㑹昌	-11.6562
哀姜	-11.6562
伏生	-11.6562
廵檢	-11.6562
鮪	-11.6563
悒	-11.6563
楊復恭	-11.6563
淚	-11.6563
隋初郡廢	-11.6563
栅	-11.6563
不書此何以書	-11.6564
蒿	-11.6565
伊霍	-11.6565
揜	-11.6565
老矣	-11.6566
穫	-11.6567
朋友	-11.6567
綦	-11.6567
嫚	-11.6567
留兵	-11.6567
寺人	-11.6568
郅支	-11.6568
泲	-11.6569
俛首	-11.657
中州	-11.6571
戍兵	-11.6571
庫庫	-11.6572
假黄鉞	-11.6575
爾朱榮	-11.6575
錢塘	-11.6576
百倍	-11.6577
敬暉	-11.6578
明徹	-11.6579
同知	-11.658
文煥	-11.658
曲筆	-11.6581
張世傑	-11.6581
太常卿	-11.6582
戰功	-11.6582
韓絳	-11.6582
孔融	-11.6583
腰斬	-11.6584
城池	-11.6585
晚節	-11.6586
法律	-11.6588
自領	-11.6591
昆明	-11.6592
寶卷	-11.6593
狃於	-11.6594
冦凖	-11.6594
坐貶	-11.6595
老臣	-11.6596
仙人	-11.6596
直抵	-11.6598
舉賢	-11.6599
城名在	-11.6599
曷爲	-11.66
委質	-11.6602
則易	-11.6605
青州刺史	-11.6606
藩臣	-11.6607
天戒	-11.6607
皆應	-11.661
走保	-11.6612
内殿	-11.6614
簡文帝	-11.6614
王浚	-11.6615
死守	-11.6615
此之謂也	-11.6617
其背	-11.6617
比至	-11.6617
豈惟	-11.6617
立君	-11.662
之謂矣	-11.6621
區區之	-11.6621
唐復置	-11.6623
其詞	-11.6623
失守	-11.6623
降金	-11.6624
城父	-11.6624
古今之	-11.6626
例書	-11.6626
郡唐改	-11.6627
究其	-11.6627
表求	-11.6628
預聞	-11.6629
千二百	-11.6629
東向	-11.663
危急	-11.6631
洺州	-11.6634
焉夫	-11.6634
猶或	-11.6634
法言	-11.6634
范鎮	-11.6636
郡唐屬	-11.6636
元暉	-11.6637
元氏	-11.6637
還報	-11.6638
逆亂	-11.6638
二相	-11.6639
書其官	-11.664
行道	-11.6642
持之	-11.6642
臣妾	-11.6644
明君	-11.6646
第九	-11.6648
北燕	-11.6648
隆基	-11.6648
大異也	-11.6648
淄	-11.6649
請令	-11.665
子勛	-11.6651
列子	-11.6651
官渡	-11.6652
之期	-11.6652
京兆府	-11.6654
其祖	-11.6655
賜號	-11.6655
者之戒	-11.6657
大蝗	-11.6659
長慶	-11.6663
朝覲	-11.6664
經籍	-11.6664
反側	-11.6665
累日	-11.6666
景崇	-11.6667
王仲	-11.667
乃奏	-11.667
春秋傳	-11.6671
漢晉	-11.6671
磁州	-11.6672
孫奭	-11.6673
不為之	-11.6674
變色	-11.6675
汴宋	-11.6675
北還	-11.6679
北二十里	-11.6679
稱善	-11.6679
非徒	-11.6679
迄于	-11.6681
間之	-11.6682
其要	-11.6683
相救	-11.6683
罰之	-11.6684
形勝	-11.6684
二百年	-11.6685
尊崇	-11.6685
之大者也	-11.6686
逺慮	-11.6687
我死	-11.6687
従之	-11.6688
注見漢武帝元	-11.6694
入宼	-11.6695
勇於	-11.6697
機㑹	-11.6697
悛	-11.6698
騎射	-11.6698
中宗嗣聖	-11.6698
所好	-11.6699
鮮于	-11.6699
文士	-11.6701
何也曰	-11.6701
者輙	-11.6702
如舊	-11.6702
得其所	-11.6703
廢興	-11.6705
其體	-11.6705
此當書	-11.6707
改容	-11.6709
外國	-11.6709
凡八	-11.671
益急	-11.6711
擊賊	-11.6712
親見	-11.6712
而不及	-11.6713
使來	-11.6713
光明	-11.6714
畧地	-11.6715
善類	-11.6716
宣撫司	-11.6719
一脱	-11.672
詔議	-11.672
宫女	-11.6722
戰大破之	-11.6723
三十人	-11.6728
圍城	-11.6728
泌曰	-11.673
李順	-11.6733
本姓	-11.6734
漢軍	-11.6736
死戰	-11.6739
隴西郡	-11.674
三人者	-11.674
于太廟	-11.6742
稱職	-11.6743
名屬	-11.6746
傳作	-11.6746
吉州	-11.6746
舉天下	-11.6747
書之者	-11.6748
史炤	-11.6748
名教	-11.6751
又問	-11.6754
伐金	-11.6755
而後可以	-11.6757
郡公	-11.6759
出納	-11.6759
財利	-11.6759
三朝	-11.6762
劉石	-11.6762
辭不拜	-11.6763
别部	-11.6765
弗及	-11.6766
左氏曰楚	-11.6767
克敵	-11.6769
不聞有	-11.6769
載記	-11.6773
數語	-11.6774
殺其弟	-11.6774
不俟	-11.6775
江中	-11.6778
豈不深可	-11.6779
符命	-11.678
之所由	-11.6782
而就	-11.6782
而去之	-11.6783
留正	-11.6784
繼恩	-11.6786
公義	-11.6787
仙芝	-11.6789
豫章郡	-11.6789
無敵	-11.679
河源	-11.6792
自代	-11.6793
所領	-11.6793
九人	-11.6794
唐遣	-11.6794
郈	-11.6794
等共	-11.6795
昌平	-11.6796
過惡	-11.6798
茍或	-11.68
四是年	-11.68
東平王	-11.6802
掌之	-11.6804
章邯	-11.6805
准	-11.6806
㠯	-11.6806
姒	-11.6809
適足以	-11.6811
沼	-11.6812
蒋	-11.6812
雨水	-11.6812
諲	-11.6813
偵	-11.6813
㕔	-11.6813
賀若弼	-11.6813
桓溫	-11.6813
各自	-11.6814
魅	-11.6814
餅	-11.6815
連坐	-11.6815
朱玫	-11.6816
癸夘	-11.6816
鞬	-11.6817
娘	-11.6817
濶	-11.6817
皇太	-11.6817
延陵	-11.6817
磐	-11.6818
懽	-11.6818
闌	-11.6818
飄	-11.6818
噶	-11.6819
攻㧞	-11.6819
涸	-11.6819
冨	-11.6819
禮部侍郎	-11.682
崞	-11.682
戱	-11.682
錐	-11.682
可勝言哉	-11.682
沸	-11.682
緦	-11.6821
宓	-11.6821
丙吉	-11.6821
屛	-11.6821
樂安	-11.6821
秦之縣名屬	-11.6821
所掠	-11.6821
啖	-11.6822
渇	-11.6822
而不問	-11.6822
巵	-11.6822
贛	-11.6822
玫	-11.6822
不亦可乎	-11.6822
牌	-11.6822
鬲	-11.6822
帝奕太和	-11.6822
三月朔日食	-11.6822
嬖倖	-11.6822
乞骸骨	-11.6823
剛直	-11.6823
汝寧府	-11.6823
縣省入改屬	-11.6823
橫	-11.6823
何面目	-11.6823
堙	-11.6824
曺	-11.6824
李崇	-11.6824
闚	-11.6824
何疑	-11.6825
鳳陽府	-11.6825
拓跋	-11.6825
蓬萊	-11.6825
仞	-11.6825
世輔	-11.6825
美之也	-11.6825
愁怨	-11.6826
蒜	-11.6826
多死	-11.6826
默	-11.6826
縊殺之	-11.6827
寛饒	-11.6828
注見漢獻帝建	-11.6828
盧循	-11.6828
斁	-11.6829
武王伐紂	-11.6829
兔	-11.683
開國	-11.683
淖	-11.683
而謂之	-11.6831
嗇夫	-11.6831
所制	-11.6831
劒門	-11.6833
扣	-11.6833
縣人	-11.6835
秋七月魏	-11.6835
豆盧	-11.6835
楨	-11.6835
陸機	-11.6835
晏殊	-11.6835
張昭	-11.6836
特書曰	-11.6837
延禧	-11.6837
席卷	-11.6838
汪黄	-11.684
葉䕶	-11.6842
可成	-11.6842
消息	-11.6843
縣名注見漢獻帝建安	-11.6843
者此其書	-11.6844
廟堂	-11.6845
梁燾	-11.6847
宣言	-11.6848
所任	-11.6849
有時而	-11.685
所知也	-11.6851
仁軌	-11.6852
宋之君臣	-11.6852
除官	-11.6853
簒賊	-11.6854
送京師	-11.6855
雲臺	-11.6857
澶	-11.6859
扈從	-11.6861
杜牧	-11.6861
羣雄	-11.6862
勲舊	-11.6865
犯闕	-11.6865
仲文	-11.6865
四科	-11.6866
老泉	-11.6866
事理	-11.6866
在彼	-11.687
也然而	-11.687
為廷尉	-11.6871
涪陵	-11.6872
然後可	-11.6872
要亦	-11.6874
不違	-11.6878
士衆	-11.688
總領	-11.688
居位	-11.6881
少游	-11.6882
與敵	-11.6883
假子	-11.6883
帳中	-11.6884
吕布	-11.6884
之援	-11.6885
既破	-11.6889
也夫何	-11.689
疑於	-11.689
殊不	-11.6892
改國號	-11.6895
馬融	-11.6898
中牟	-11.6899
守城	-11.69
豐州	-11.69
京邑	-11.69
私謂	-11.69
毁其	-11.6903
信讒	-11.6903
當陽	-11.6904
再舉	-11.6905
豈不知	-11.6906
善治	-11.691
徒知	-11.6911
戸部	-11.6911
奉帝	-11.6911
盡殺之	-11.6911
口實	-11.6912
制作	-11.6913
矣然而	-11.6917
厚禮	-11.6918
奮發	-11.692
刑政	-11.6921
賜姓名	-11.6922
太武	-11.6924
馳入	-11.6927
三寸	-11.6927
非不知	-11.6927
漢史	-11.6927
與諸侯	-11.6929
相聚	-11.693
不決	-11.693
深譏之也	-11.693
都司	-11.693
未晚	-11.6931
不書誅	-11.6932
而不知有	-11.6932
黄初	-11.6934
勢必	-11.6934
邀功	-11.6936
為皇后	-11.6937
九原	-11.6938
其咎	-11.6939
頓兵	-11.694
不煩	-11.6943
故址在	-11.6944
位在	-11.6946
以見其	-11.6948
異哉	-11.6948
王鐸	-11.695
恩信	-11.6952
之粟	-11.6953
豈若	-11.6953
戎服	-11.6956
之詞也	-11.6956
宋元嘉	-11.6958
襲位	-11.6959
孫䇿	-11.6959
西都	-11.696
擅殺	-11.6961
岐王	-11.6964
之態	-11.6964
西征	-11.6965
嚴刑	-11.6965
比年	-11.6966
敬徳	-11.6966
遷官	-11.6967
哉綱目書	-11.6969
繼至	-11.6969
注見秦始皇二十八年	-11.6971
溫公	-11.6973
世襲	-11.6974
講論	-11.6975
厥徳	-11.6976
一句	-11.6976
舊文	-11.6977
應對	-11.698
非正統	-11.6981
荒淫	-11.6981
此語	-11.6987
萬斛	-11.6988
饑民	-11.6988
自處	-11.699
自經	-11.6991
自效	-11.6991
而釋之	-11.6991
甚謹	-11.6992
徐氏	-11.6992
綱目前書	-11.6997
憤怒	-11.6998
語之曰	-11.6999
馮氏	-11.7001
盡誅	-11.7002
侔	-11.7004
下漏	-11.7005
權在	-11.7008
忠正	-11.7011
石頭城	-11.7012
之心則	-11.7015
汝南郡	-11.7015
况乎	-11.7017
得地	-11.7017
周文王	-11.7019
已失	-11.7019
下流	-11.7022
十萬衆	-11.7022
息兵	-11.7024
文成	-11.7024
哉噫	-11.7027
縣金	-11.7029
大誥	-11.7029
大駕	-11.7031
陳留王	-11.7031
師還	-11.7032
學生	-11.7036
之徒皆	-11.7038
猶以為	-11.7039
獨斷	-11.7041
兗	-11.7041
趙郡	-11.7043
城陽	-11.7044
晉置	-11.7044
大紀曰	-11.7047
亦不過	-11.7047
相顧	-11.7047
地下	-11.705
注見漢光武建武元年	-11.705
亦未嘗	-11.7053
善善	-11.7056
無識	-11.7059
之利也	-11.706
上夀	-11.706
陽武	-11.7062
所統	-11.7063
脩徳	-11.7065
懐義	-11.7066
注見周安王	-11.7066
軓	-11.7068
禍亂之	-11.707
號泣	-11.707
戊戌	-11.7071
青冀	-11.7072
驚擾	-11.7072
㗖	-11.7074
槖	-11.7075
三十三	-11.7076
庸人	-11.7077
鵠	-11.7077
姚萇	-11.7078
浹	-11.7079
為誰	-11.7079
范睢	-11.7079
簽	-11.7079
嵇	-11.708
枹罕	-11.7081
呵	-11.7081
紀經	-11.7082
頺	-11.7082
乙卯	-11.7083
不足以為	-11.7083
潼川	-11.7083
乙夘	-11.7083
掦	-11.7084
槊	-11.7085
筰	-11.7085
房州	-11.7086
潦	-11.7086
電	-11.7086
希憲	-11.7087
豈不深可惜哉	-11.7087
打	-11.7087
灌嬰	-11.7088
惶恐	-11.7089
孜孜	-11.709
希範	-11.709
魴	-11.7091
骸	-11.7091
曰吾欲	-11.7091
侈靡	-11.7091
袤	-11.7091
須臾	-11.7091
樞機	-11.7092
刳	-11.7092
乞降	-11.7092
鶉	-11.7092
𨗳	-11.7092
殿上	-11.7092
疾疫	-11.7092
程元振	-11.7093
取蜀	-11.7093
伊闕	-11.7093
据	-11.7093
義例	-11.7094
鈐轄	-11.7094
毫釐	-11.7094
北司	-11.7096
酗	-11.7096
簒逆	-11.7096
明州	-11.7096
興元元年	-11.7097
匡𦙍	-11.7097
宗實	-11.7098
余靖	-11.7098
滅國	-11.7099
元興元年	-11.71
休戚	-11.71
或以為	-11.71
不達	-11.71
磨勘	-11.7101
殺其大夫	-11.7102
李宗閔	-11.7102
有甚於	-11.7103
者鮮矣	-11.7104
張商英	-11.7104
號稱	-11.7104
三十五里	-11.7104
龎籍	-11.7104
𢎞羊	-11.7105
李崧	-11.7105
廣韻	-11.7106
經綸	-11.7106
必克	-11.7106
君道	-11.7108
劉洎	-11.7109
軍資	-11.7113
一日之	-11.7113
太原王	-11.7115
養老	-11.7116
光祿	-11.7117
殘虐	-11.7118
肉刑	-11.7119
漢獻帝	-11.7119
海島	-11.7123
云耳	-11.7123
不韋	-11.7125
新亭	-11.7127
青城	-11.7127
無害	-11.7127
朝賀	-11.7127
嬰兒	-11.7127
三載	-11.7128
柱國	-11.7129
遠近	-11.713
南陽郡	-11.713
俊臣	-11.7131
幾於	-11.7131
燕慕容	-11.7132
初復置	-11.7134
相謂曰	-11.7135
泰州	-11.7136
公綽	-11.7136
為念	-11.7137
靈素	-11.7139
河南北	-11.7139
所願	-11.7139
萊州	-11.714
天降	-11.7143
承訓	-11.7144
先鋒	-11.7144
髙澄	-11.7146
欺天	-11.7147
借使	-11.7147
可疑	-11.7147
繼體	-11.7148
公卿大夫	-11.715
變更	-11.7153
之災	-11.7154
神靈	-11.7156
國語曰	-11.7156
東府	-11.7156
不能對	-11.716
屬焉	-11.7162
合州	-11.7163
十有六	-11.7163
房陵	-11.7166
孔子廟	-11.7167
萬方	-11.7167
始封	-11.7169
刑獄	-11.7169
更張	-11.717
被圍	-11.717
猶云	-11.7171
穆帝	-11.7172
募民	-11.7173
西海	-11.7173
便殿	-11.7174
九十里	-11.7177
乾封	-11.7177
屢請	-11.7177
其子弟	-11.7178
朕甚	-11.7179
以宦者	-11.7179
公道	-11.718
典刑	-11.7183
不脩	-11.7184
舊典	-11.7184
上庸	-11.7185
也前書	-11.7185
何暇	-11.7186
彦卿	-11.7189
非其罪	-11.7191
九河	-11.7191
高車	-11.7194
永濟	-11.7196
王恢	-11.7198
者必有	-11.7198
良吏	-11.72
欲圖	-11.7201
唐祚	-11.7203
誰與	-11.7203
之以禮	-11.7205
祖禹	-11.7206
閔公	-11.7206
王翦	-11.7209
思慮	-11.721
畧盡	-11.7211
升平	-11.7211
而不悟	-11.7211
但知	-11.7212
元老	-11.7215
宣示	-11.7215
陪臣	-11.7215
鄭𤣥曰	-11.7217
按一統志在	-11.7218
内庫	-11.7219
北征	-11.7222
文苑	-11.7223
播州	-11.7227
羣后	-11.7231
危懼	-11.7234
加恩	-11.7235
孫堅	-11.7238
百匹	-11.7238
有國者	-11.724
既罷	-11.7242
鮮不	-11.7244
景帝三年	-11.7245
太子監國	-11.7246
不出於	-11.7246
維州	-11.7253
非真	-11.7254
不類	-11.7254
乗馬	-11.7261
又注見	-11.7263
將亡	-11.7265
問疾	-11.7268
與兄	-11.727
罪人也	-11.7271
知其為	-11.7272
本根	-11.7274
成風	-11.7276
張魯	-11.7277
其為人	-11.7277
深思	-11.7279
應奉	-11.728
北去	-11.728
一尺	-11.728
始定	-11.7281
江上	-11.7282
𢎞肇	-11.7284
衂	-11.7285
言利	-11.7285
承乾	-11.7287
千八百	-11.7287
官努	-11.7288
猶為	-11.729
四十五年	-11.7294
遣兵救	-11.7294
塗山	-11.7295
之所以為	-11.7297
失律	-11.73
秦雍	-11.73
為都督	-11.7302
子攸	-11.7304
過舉	-11.7305
應劭	-11.7306
虚無	-11.7306
得君	-11.7307
順天府	-11.7308
亡歸	-11.7308
捧	-11.7308
修史	-11.731
元禮	-11.7311
州安置	-11.7311
左道	-11.7313
生日	-11.7314
服御	-11.7315
必亡	-11.7315
女樂	-11.7315
之言曰	-11.7316
騷	-11.7318
勸農	-11.7319
勢傾	-11.7321
邦君	-11.7322
光化	-11.7323
李石	-11.7326
預焉	-11.7326
隋文帝開皇	-11.7327
執法	-11.7328
秦穆	-11.7329
葉二行	-11.733
隋煬	-11.7331
孝弟	-11.7331
切諫	-11.7333
知其不可	-11.7334
報復	-11.7335
葉三行	-11.7336
長官	-11.7337
堆	-11.7338
自比	-11.7338
故綱目於	-11.7338
卜筮	-11.734
郕	-11.7341
耼	-11.7341
耒	-11.7342
猗盧	-11.7342
莫得	-11.7342
衛君	-11.7343
堵	-11.7345
而後見	-11.7346
肸	-11.7347
别置	-11.7347
劄	-11.7347
神州	-11.7348
彭蠡	-11.7348
呼韓邪	-11.7348
噉	-11.7349
㩁	-11.7349
装	-11.735
儷	-11.735
旭	-11.735
周威烈王	-11.7351
嘔血	-11.7351
褒姒	-11.7353
楊光逺	-11.7353
僅以身免	-11.7353
宋氏	-11.7353
僨	-11.7353
臨菑	-11.7353
採訪	-11.7354
隻	-11.7354
貊	-11.7354
夷其族	-11.7354
楮	-11.7354
吳主權	-11.7355
瑛	-11.7355
死者甚衆	-11.7355
覧	-11.7355
豺狼	-11.7355
不亦難乎	-11.7356
昆彌	-11.7356
愛君	-11.7356
蠢	-11.7356
無耻	-11.7357
逭	-11.7357
沿革	-11.7357
閽	-11.7358
難知	-11.7358
嵬	-11.7358
悠	-11.7358
湼	-11.7358
愠	-11.7359
錦繡	-11.7359
景耀	-11.7359
徭役	-11.7359
烟	-11.7359
縠	-11.736
社稷注見新	-11.736
沓	-11.736
姤	-11.736
而無所	-11.7361
宦寺	-11.7362
湯思退	-11.7363
穡	-11.7363
瞑	-11.7363
蓨	-11.7363
魋	-11.7363
右北平	-11.7363
劉禹錫	-11.7363
有聲	-11.7364
𢎞靖	-11.7365
食注見新	-11.7367
出境	-11.7367
埒	-11.7368
荆蠻	-11.7369
天澤	-11.7369
莫肯	-11.7369
荆揚	-11.737
耿南仲	-11.737
李廣	-11.7371
布帛	-11.7371
畏天	-11.7371
行幸	-11.7372
言於帝曰	-11.7372
不能免	-11.7373
趙汝愚	-11.7374
元稹	-11.7375
考課	-11.7375
李吉甫	-11.7376
溺愛	-11.7376
楊綰	-11.7376
按凡例	-11.7377
詣行在	-11.7377
𤼵明	-11.7378
三萬人	-11.7378
攻破	-11.7379
雖小	-11.7381
大儒	-11.7381
劉牢之	-11.7381
其姓名	-11.7383
名位	-11.7383
生殺	-11.7383
大澤	-11.7384
憂勤	-11.7386
日蹙	-11.7387
六藝	-11.7387
未遑	-11.7387
逞其	-11.7387
提刑	-11.7388
二百四十	-11.7388
多詐	-11.7388
金師	-11.7389
友謙	-11.7389
首領	-11.7389
隋開皇	-11.739
封泰山	-11.7391
張釋之	-11.7391
京湖	-11.7393
絳侯	-11.7396
上疏請	-11.7398
宏淵	-11.7398
不審	-11.7398
可圖也	-11.7401
不受命	-11.7402
爵禄	-11.7403
葢由	-11.7403
崖州	-11.7405
以仁義	-11.7405
皇氏	-11.7409
州後屬	-11.7409
嘗論	-11.741
差役	-11.741
普通	-11.7411
姓氏	-11.7412
項氏	-11.7412
伶人	-11.7417
劒南	-11.7418
顯達	-11.7418
西蜀	-11.7421
百端	-11.7421
之始也	-11.7421
結怨	-11.7423
帥百官	-11.7424
去位	-11.7426
横流	-11.7426
上幸	-11.7427
外篇	-11.7427
淫亂	-11.7427
賊檜	-11.7427
無狀	-11.7428
累遷	-11.7428
書之所以	-11.7428
縣故城在	-11.7429
奔秦	-11.7431
將兵擊	-11.7433
予一人	-11.7435
王涯	-11.7436
修身	-11.7437
注見文帝	-11.7438
都堂	-11.7438
矣或曰	-11.7438
斬獲	-11.744
本朝初	-11.744
天下大亂	-11.7441
某人	-11.7441
貴臣	-11.7444
遂止	-11.7445
廣西	-11.7446
東昏	-11.7446
拜官	-11.7447
其人也	-11.7447
州𨽻	-11.7448
二府	-11.7455
子玉	-11.7457
於鄴	-11.7458
應變	-11.7461
周旋	-11.7461
金將	-11.7462
孔父	-11.7463
繼嗣	-11.7467
而況	-11.7468
十三行	-11.7471
忠臣也	-11.7472
正宜	-11.7472
不容於	-11.7473
所不為	-11.7476
正始	-11.7477
攻陷	-11.7478
不均	-11.7479
抑何	-11.7484
三篇	-11.7484
兵討之	-11.7485
烏足	-11.7485
聲勢	-11.7485
西夷	-11.7487
省中	-11.749
德明	-11.7493
亦由	-11.7494
方盛	-11.7495
且請	-11.7497
太府	-11.75
出外	-11.75
信州	-11.75
説苑	-11.7501
顯王	-11.7502
智髙	-11.7503
詔百官	-11.7505
桓王	-11.7507
按兵	-11.7511
奔晉	-11.7511
稱病	-11.7512
於一時	-11.7513
九載	-11.7513
以為宜	-11.7514
切責	-11.7515
至是復	-11.7515
邾子	-11.7516
周太祖	-11.7519
恢復之	-11.752
上大怒	-11.752
暴卒	-11.752
小雅	-11.7523
戒哉	-11.7524
進封	-11.7524
拜謝	-11.7524
詔賜	-11.7525
佞人	-11.7527
廣漢郡	-11.7527
未可知也	-11.753
獄訟	-11.753
尋廢	-11.753
朐山	-11.7531
兩省	-11.7531
不茍	-11.7534
雲陽	-11.7536
迹其	-11.7537
心服	-11.7537
領兵	-11.7538
英主	-11.7543
益驕	-11.7545
聖德	-11.7546
撫州	-11.755
權貴	-11.7551
廢皇后	-11.7553
斥名	-11.7559
免死	-11.756
必致	-11.756
遂奔	-11.7561
鳳翔府	-11.7563
昭侯	-11.7565
也故特書	-11.7565
有急	-11.7567
行賞	-11.7567
華陽	-11.757
河南地	-11.7572
節用	-11.7573
親信	-11.7576
氏女	-11.7578
郡隋改	-11.7581
和四年	-11.7583
用其言	-11.7584
光義	-11.7587
三江	-11.7589
漢成帝	-11.7591
程子曰	-11.7592
欲立之	-11.7593
淮陽王	-11.7595
才人	-11.7595
但恐	-11.7595
島	-11.7597
軍糧	-11.7598
使其子	-11.7599
躬自	-11.7601
委政	-11.7603
農民	-11.7603
惑衆	-11.761
東出	-11.7613
董璋	-11.7614
灘	-11.7614
舂	-11.7615
養士	-11.7616
璨	-11.7617
日用	-11.7617
幻	-11.7617
竺	-11.7618
記言	-11.7618
悶	-11.7618
晉灼曰	-11.7619
示之以	-11.7621
知樞宻院事	-11.7622
隋經籍志	-11.7622
頠	-11.7623
臠	-11.7624
己夘	-11.7625
召用	-11.7625
韋處厚	-11.7625
苑囿	-11.7625
揉	-11.7626
崔杼	-11.7626
苴	-11.7626
殺其子	-11.7627
賀善賛曰	-11.7627
坡	-11.7627
楹	-11.7627
煦	-11.7628
澠	-11.7628
闞	-11.7628
玘	-11.7628
不可輕	-11.7628
外城	-11.7629
寰	-11.7629
秋毫	-11.7629
謾	-11.763
鎗	-11.763
灑	-11.763
偓	-11.7631
托歡	-11.7631
吟	-11.7631
從祀	-11.7632
覊縻	-11.7632
羗	-11.7633
宜速	-11.7633
國子祭酒	-11.7633
精銳	-11.7633
同知院事	-11.7633
攄	-11.7633
瑁	-11.7634
所以志	-11.7634
娯	-11.7634
䧏	-11.7635
募人	-11.7635
工部尚書	-11.7635
閼氏	-11.7635
檻車	-11.7635
齧	-11.7636
影響	-11.7636
獻帝興平二年	-11.7636
東莞	-11.7637
虞允文	-11.7637
迅	-11.7638
晏嬰	-11.7639
加焉	-11.7639
䂓	-11.7639
窒	-11.7639
馮拯	-11.7639
嬖寵	-11.764
問計	-11.764
羔	-11.7641
砥	-11.7641
善戰	-11.7641
療	-11.7641
我家	-11.7642
决意	-11.7642
壅蔽	-11.7643
吕誨	-11.7643
殘暴	-11.7645
孟珙	-11.7645
後庭	-11.7647
纊	-11.7648
謂諸將曰	-11.7648
玉帛	-11.7648
金革之	-11.7649
宿衞	-11.7649
數里	-11.7649
飲藥	-11.765
朱邪	-11.7651
文法	-11.7651
侵擾	-11.7651
鄜州	-11.7652
榛	-11.7652
髙力士	-11.7653
三百六十	-11.7654
魏主丕	-11.7654
糧運	-11.7654
卨	-11.7656
先登	-11.7656
府𨽻	-11.7657
周徳威	-11.7657
刺客	-11.7657
再相	-11.7658
朝因之	-11.7659
受制於	-11.766
稱皇	-11.766
瑄	-11.766
李懷光	-11.7661
土宇	-11.7662
暴露	-11.7662
應募	-11.7662
府城東	-11.7663
予義也	-11.7663
突利	-11.7664
楊愔	-11.7664
受禍	-11.7664
伐吳	-11.7665
豈徒	-11.7666
遂引兵	-11.7666
警戒	-11.7667
錢穀	-11.7669
欲留	-11.7671
四十八	-11.7671
閨門	-11.7672
遜位	-11.7673
垂訓	-11.7676
未忍	-11.7676
南門	-11.7676
交兵	-11.7677
郴	-11.7678
北京	-11.7679
帝建元元年	-11.7679
音樂	-11.7681
君奭	-11.7682
涼王	-11.7684
仲雍	-11.7686
秦穆公	-11.7688
萬八千	-11.7689
勞費	-11.769
者為之	-11.7691
不能正	-11.7692
藝文	-11.7692
百篇	-11.7694
㣲矣	-11.7694
浮圖	-11.7695
和龍	-11.7695
貽禍	-11.7696
斬衰	-11.7697
嘉定	-11.7697
沂中	-11.7703
身自	-11.7704
偶然	-11.7704
新羅	-11.7707
入鄴	-11.7707
趙括	-11.7707
衰矣	-11.7707
自是而後	-11.7708
謀叛	-11.7708
勁兵	-11.7714
上䇿	-11.7715
遼金	-11.7717
豈肯	-11.7717
姚氏	-11.7718
縱酒	-11.7719
遂致	-11.7721
變異	-11.7722
州後改為	-11.7723
弄權	-11.7726
不得見	-11.7727
五尺	-11.7729
百騎	-11.7729
雖能	-11.7731
嘗觀	-11.7731
時務	-11.7734
富國	-11.7735
病篤	-11.7735
鄴城	-11.7735
退師	-11.7735
彊盛	-11.7736
何力	-11.7736
無益也	-11.7737
入謝	-11.774
重威	-11.774
專制	-11.7741
夏后	-11.7742
荒服	-11.7742
八十一	-11.7744
下車	-11.7745
乾歸	-11.7746
光祖	-11.7747
也吁	-11.7747
以此為	-11.7749
深予之也	-11.7749
正論	-11.7749
為長史	-11.7752
亦不免	-11.7752
顧望	-11.7752
决戰	-11.7754
獄中	-11.7756
六郡	-11.7758
思歸	-11.7758
注見漢光武	-11.7758
決於	-11.7759
好名	-11.7759
王莾	-11.776
至鄴	-11.776
而不去	-11.776
已來	-11.7761
六詳	-11.7763
雄州	-11.7763
太極	-11.7764
畧之也	-11.7766
上殿	-11.7767
五年春正月	-11.7769
酒食	-11.777
來攻	-11.7771
其機	-11.7771
所造	-11.7773
寵信	-11.7776
八州	-11.7777
自負	-11.7781
糧食	-11.7781
佛教	-11.7782
大臣皆	-11.7785
去病	-11.7786
俱進	-11.7789
諫臣	-11.779
名儒	-11.7791
軍國事	-11.7792
不撓	-11.7793
集議	-11.7804
江湖	-11.7805
時號	-11.7806
吏卒	-11.7807
隴州	-11.7808
武帝元狩	-11.781
仁祖	-11.7812
臺臣	-11.7814
變亂	-11.7816
周衰	-11.7819
而任之	-11.782
罔敢	-11.7821
行義	-11.7822
延平	-11.7822
大賢	-11.7823
未集	-11.7824
力諫	-11.7825
縣𨽻	-11.7825
明月	-11.7827
定制	-11.7827
避難	-11.783
唐介	-11.783
師古曰	-11.7831
兵十萬	-11.7834
可謂善	-11.7834
術數	-11.7835
洛陽人	-11.7836
甚難	-11.7838
上蔡	-11.7839
不倦	-11.7841
任事	-11.7843
濟南府	-11.7845
追復	-11.7846
十有五	-11.7846
空言	-11.7848
自恃	-11.7851
韓子	-11.7852
舉動	-11.7857
懿公	-11.7858
厚賞	-11.7862
入江	-11.7863
始於此	-11.7863
無憂	-11.7864
觀夫	-11.7868
其本心	-11.7868
報仇	-11.7869
盡歸	-11.7871
家居	-11.7872
民困	-11.7874
迎謁	-11.7876
南鄉	-11.7876
陲	-11.7876
上公	-11.7876
五字	-11.7878
臺軍	-11.7879
上洛	-11.788
觀兵	-11.788
雅州	-11.7881
頃公	-11.7882
曲江	-11.7884
大呼曰	-11.7886
不欺	-11.7888
讀者	-11.7888
尚主	-11.7889
一物	-11.7891
熾磐	-11.7891
曷不	-11.7893
纍	-11.7893
䘮師	-11.7895
迫於	-11.7895
南城	-11.7896
舄	-11.7896
武帝泰始	-11.7897
仁義之	-11.7898
澳	-11.7902
蜀兵	-11.7902
至國朝	-11.7903
箋云	-11.7904
閥	-11.7904
召對	-11.7904
駝	-11.7905
而後行	-11.7906
九月朔日食	-11.7907
蒍	-11.7907
撥	-11.7908
褚遂良	-11.7908
芬	-11.7908
氂	-11.7908
屬下句	-11.7909
軄	-11.7909
虺	-11.7909
以後事	-11.7909
任城王澄	-11.791
峙	-11.791
三年之䘮	-11.791
璝	-11.7911
東甌	-11.7911
幢	-11.7911
惻	-11.7912
邲	-11.7914
扁	-11.7914
鑄銅	-11.7914
糶	-11.7915
諸胡	-11.7915
弘	-11.7915
嘏	-11.7916
斧鉞	-11.7916
洵	-11.7916
癰	-11.7917
白居易	-11.7917
緋	-11.7917
矣終綱目	-11.7917
咫尺	-11.7917
捄	-11.7917
逈	-11.7917
娠	-11.7917
為不義	-11.7917
綠	-11.7917
𤯝	-11.7918
値	-11.7918
麓	-11.7919
燄	-11.7919
洶洶	-11.7919
諂諛	-11.7919
瀍	-11.7919
節義	-11.7919
数	-11.792
懵	-11.792
䋲	-11.792
曙	-11.792
不設備	-11.7921
砲	-11.7921
人材	-11.7921
盥	-11.7921
故謹書之	-11.7921
踐阼	-11.7921
讃	-11.7922
注見秦王政六年	-11.7922
丁夘	-11.7922
鹽鐡	-11.7922
可免	-11.7922
顛沛	-11.7922
執金吾	-11.7923
聨	-11.7923
存朂	-11.7923
刖	-11.7923
向敏中	-11.7925
兢兢業業	-11.7925
太常博士	-11.7925
蔡興宗	-11.7925
哥舒翰	-11.7925
行瑜	-11.7925
閹宦	-11.7926
私怨	-11.7926
之效也	-11.7926
亷恥	-11.7926
矛盾	-11.7926
寶巻	-11.7926
枋得	-11.7928
感激	-11.7929
舅姑	-11.7929
之裔	-11.7929
不可一日	-11.793
寶寅	-11.793
變生	-11.793
注見漢獻帝建安十二年	-11.793
彝	-11.793
荐	-11.7931
謩	-11.7931
紗	-11.7931
酈生	-11.7932
匡衡	-11.7932
吾道	-11.7933
轉輸	-11.7933
弗聼	-11.7933
束手	-11.7933
盆子	-11.7934
湟中	-11.7935
可比	-11.7935
文皇帝	-11.7935
于闐	-11.7936
姚襄	-11.7937
公薨	-11.7938
愕然	-11.7938
宋齊丘	-11.7938
中流矢	-11.794
編管	-11.794
將士皆	-11.7941
楊彪	-11.7942
法興	-11.7942
如斯	-11.7944
杜甫	-11.7944
空虚	-11.7944
臺閣	-11.7944
毁譽	-11.7944
擇賢	-11.7945
丞相御史	-11.7945
張敞	-11.7946
仇敵	-11.7948
江縣	-11.7948
谷口	-11.795
特立	-11.795
左馮翊	-11.7951
乞罷	-11.7952
突圍	-11.7953
恵卿	-11.7954
幽厲	-11.7955
殺兄	-11.7955
事情	-11.7956
漠北	-11.7957
受賞	-11.796
盡節	-11.796
倒置	-11.796
司㓂	-11.7963
河南王	-11.7964
何歟曰	-11.7964
恒辭	-11.7965
機宻	-11.7965
躬行	-11.7965
勇畧	-11.7967
諸羌	-11.7969
機務	-11.7969
夏桀	-11.7969
奄有	-11.7972
以自固	-11.7972
曲端	-11.7972
李筠	-11.7974
東路	-11.7975
編次	-11.7976
驕横	-11.7977
太官	-11.7977
重黎	-11.7978
饒陽	-11.798
邪謀	-11.798
豈不為	-11.798
開元中	-11.7981
責之曰	-11.7983
經理	-11.7983
唐髙宗	-11.7983
送至	-11.7984
罷黜	-11.7984
可恃	-11.7984
孔甲	-11.7986
困窮	-11.7987
隂謀	-11.7988
楊震	-11.7988
以備之	-11.799
未決	-11.7991
犍為	-11.7994
光庭	-11.7995
不侔	-11.7996
輕兵	-11.7996
虞卿	-11.7999
皇祐	-11.7999
許衡	-11.8
為國者	-11.8002
嵗餘	-11.8002
計事	-11.8003
所處	-11.8005
王叔文	-11.8006
基業	-11.8009
穆爾	-11.801
侈心	-11.8011
屈於	-11.8012
李勉	-11.8014
沔陽	-11.8015
攻具	-11.8017
怨憤	-11.802
用力	-11.802
華夷	-11.8021
不踰	-11.8022
竟不能	-11.8024
在其中	-11.8026
王朴	-11.8028
矣書曰	-11.8029
復古	-11.8031
億萬	-11.8032
姚宋	-11.8032
勸戒	-11.8033
鞏昌府	-11.8036
曰吾與	-11.8038
矦景	-11.8039
勞民	-11.8039
義自見矣	-11.804
無所得	-11.804
良娣	-11.8045
寒心	-11.8045
百萬緡	-11.8045
强敵	-11.8045
事跡	-11.8046
左相	-11.8047
何晏	-11.805
禮義之	-11.8051
吴越	-11.8054
將兵討	-11.8055
一脫	-11.8055
王倫	-11.8056
耳目之	-11.8057
百濟	-11.8061
其所長	-11.8063
年月	-11.8067
奉命	-11.8068
天下無事	-11.807
帝曰卿	-11.8075
縣改屬	-11.8078
禮畢	-11.8078
哉故綱目	-11.8079
亡走	-11.808
道原	-11.808
五代梁	-11.8083
趙武	-11.8084
變易	-11.8086
先進	-11.8087
情偽	-11.8088
諺	-11.8091
不自保	-11.8093
之名而	-11.8093
舉族	-11.8097
晉氏	-11.8103
坐贓	-11.8104
英明	-11.811
梁州刺史	-11.8112
弊政	-11.8112
尊位	-11.8114
文選	-11.8116
諸戎	-11.8116
滋甚	-11.8117
其尸	-11.8118
南宋	-11.8119
儒臣	-11.812
窮極	-11.812
為中尉	-11.8121
五伯	-11.8122
魯連	-11.8124
遂破	-11.8125
犯邊	-11.8125
年四十	-11.8126
分司	-11.8127
唐貞觀	-11.813
至汴	-11.8133
尚方	-11.8133
於上而	-11.8134
賈人	-11.8135
國師	-11.8135
太子𢎞	-11.8137
之故而	-11.8138
握兵	-11.814
武闗	-11.8143
好善	-11.8143
雖死	-11.8144
破敵	-11.8145
城西南	-11.8147
戒之曰	-11.8147
不須	-11.8148
徴兵	-11.8149
險固	-11.815
漢明帝	-11.8153
向非	-11.8154
地勢	-11.8156
襄王元年三川	-11.8156
以上皆	-11.8157
百官志	-11.8158
簡文	-11.8158
注見漢景帝三年	-11.8159
南夷	-11.816
勝非	-11.8164
一婦人	-11.8165
二條	-11.8165
出竒	-11.8169
鄼	-11.8178
未足以	-11.818
宣徳	-11.8181
討有罪	-11.8182
衰亂	-11.8182
非敢	-11.8186
孝昭	-11.8186
匄	-11.8187
景雲	-11.8187
莫知	-11.8187
齡	-11.819
坼	-11.8193
近日	-11.8193
頹	-11.8195
蘇林曰	-11.8195
𥙷作	-11.8195
黙啜	-11.8195
必須	-11.8199
霑	-11.8199
可勝誅哉	-11.8201
孝景	-11.8201
欝	-11.8202
有司請	-11.8202
迨至	-11.8203
知其必	-11.8205
薩里罕	-11.8205
洒	-11.8206
僕固懷恩	-11.8206
安巴堅	-11.8207
烽	-11.8207
侯薨子	-11.8207
挍	-11.8207
赦天下	-11.8207
悚	-11.8208
緫	-11.8208
莖	-11.8208
和帝永	-11.8209
豨	-11.8209
什翼犍	-11.8209
熖	-11.8209
陸渾	-11.8209
貟	-11.8209
絙	-11.821
帝舜	-11.821
狷	-11.821
鋪	-11.821
酤	-11.821
郄	-11.821
茨	-11.8211
者一而已	-11.8211
表而出之	-11.8211
班彪	-11.8211
范延光	-11.8211
青陽	-11.8212
壑	-11.8212
救援	-11.8212
三十八	-11.8212
貴嬪	-11.8213
莱	-11.8213
著作佐郎	-11.8213
鍊	-11.8214
良史	-11.8214
黄潜善	-11.8214
擴	-11.8214
趙王倫	-11.8214
五品以上	-11.8214
錄尚書事	-11.8215
行儉	-11.8215
浴	-11.8215
震駭	-11.8216
盲	-11.8216
㸑	-11.8216
秋七月朔日食	-11.8217
肄	-11.8217
㡌	-11.8217
屣	-11.8217
鄖	-11.8217
團練	-11.8218
東昌府	-11.8218
迴	-11.8219
蠭起	-11.8219
韋孝寛	-11.8219
徘徊	-11.822
愜	-11.822
跣	-11.822
不可勝紀	-11.822
大中祥符	-11.822
肱	-11.8221
夤	-11.8221
天官書	-11.8221
月氐	-11.8221
自剄	-11.8221
齡石	-11.8221
蒲阪	-11.8222
徐知誥	-11.8223
榆林	-11.8223
乾坤	-11.8223
書之于冊	-11.8223
僣竊	-11.8224
千户	-11.8224
伷	-11.8225
勵精	-11.8225
勍敵	-11.8225
孝亷	-11.8225
僧綽	-11.8225
典籖	-11.8225
付託	-11.8226
馴致	-11.8226
趙葵	-11.8226
嶢	-11.8227
神農氏	-11.8227
縣入焉	-11.8227
蓄積	-11.8227
武帝元狩元年	-11.8228
石晉	-11.8229
沿江	-11.8231
不為無罪	-11.8234
昭子	-11.8234
勿使	-11.8234
震驚	-11.8235
張方平	-11.8236
撫循	-11.8236
亦未必	-11.8238
櫟陽	-11.8239
金主亮	-11.824
全誨	-11.8242
而後能	-11.8244
賦詩	-11.8247
繼之以	-11.8248
書殺何	-11.8248
牧野	-11.8248
卭州	-11.8251
每事	-11.8253
南漢主	-11.8253
建都	-11.8254
招集	-11.8254
河曲	-11.8254
黄霸	-11.8255
辭歸	-11.8256
王鉷	-11.8256
擐甲	-11.8258
在河南	-11.8258
韓王信	-11.8259
諸蠻	-11.826
以逞	-11.8261
四靣	-11.8261
閔帝	-11.8261
姬姓	-11.8263
勿令	-11.8266
建儲	-11.8266
乾寧	-11.8269
哀平	-11.827
南頓	-11.8271
注見秦始皇三十	-11.8272
應接	-11.8272
内禪	-11.8273
固執	-11.8275
上聞之	-11.8277
上京	-11.8277
延英	-11.8279
曰寡人	-11.8283
鳯翔府	-11.8284
張巡	-11.8284
第七	-11.8284
河池	-11.8286
人畜	-11.8286
宴樂	-11.8286
北狄種名	-11.8286
四十餘年	-11.8287
衛青	-11.8289
劉整	-11.8289
盍亦	-11.829
王行瑜	-11.829
犯順	-11.829
渭北	-11.8294
有功者	-11.8294
六尺	-11.8294
承恩	-11.8295
史筆	-11.8299
奉承	-11.8299
兩端	-11.8301
倡義	-11.8303
子駟	-11.8304
納諫	-11.8304
失之矣	-11.8311
卒致	-11.8312
祭仲	-11.8313
保忠	-11.8315
明帝建武三	-11.8316
周安王	-11.8316
魯君	-11.8316
加之以	-11.8319
祖約	-11.8319
郡名注見漢獻帝	-11.8322
姦黨	-11.8324
輕薄	-11.8324
綏州	-11.8324
滁	-11.8325
善其言	-11.8327
引兵入	-11.8327
青徐	-11.8328
不貳	-11.8329
川縣	-11.8331
毅然	-11.8335
注見晉武帝	-11.8336
不可行	-11.8339
入閤	-11.834
孰不	-11.8341
降敵	-11.8341
君人者	-11.8342
進止	-11.8343
儲嗣	-11.8348
三監	-11.835
終不可	-11.8351
租税	-11.8352
彊大	-11.8353
白日	-11.8355
五十四	-11.8358
分其地	-11.8358
唐鄧	-11.8358
千乘	-11.836
所以明	-11.836
奚齊	-11.836
為内史	-11.8361
漢法	-11.8362
佛老	-11.8364
魯史	-11.8365
安静	-11.8371
何如對曰	-11.8374
嵗時	-11.8378
漢武帝元朔	-11.8379
漢元帝	-11.838
吾輩	-11.8383
巴州	-11.8387
服色	-11.8389
患難	-11.8391
日月之	-11.8392
有罪者	-11.8393
來㑹	-11.8393
冠帶	-11.8394
北齊省	-11.8394
數百年	-11.8395
循州	-11.8399
敗還	-11.8403
刑餘	-11.8405
五日一	-11.8407
以成其	-11.8408
博州	-11.8409
綱目上書	-11.841
縣境	-11.8412
暴亂	-11.8412
縣括地志云	-11.8413
張飛	-11.8417
貢賦	-11.842
子魚	-11.8421
注見漢光武建武八年	-11.8422
注見漢獻帝建安十三年	-11.8422
有限	-11.8424
尚可以	-11.8425
九江郡	-11.8426
氏為后	-11.8427
要君	-11.8428
危亂	-11.8432
贊曰	-11.8433
所誤	-11.8434
徐廣	-11.8436
古者天子	-11.8438
何為哉	-11.845
不及此	-11.8454
内實	-11.8455
大變也	-11.8458
武帝元朔三年	-11.8458
致亂	-11.846
崇信	-11.8462
殆非	-11.847
以為後世	-11.8471
直諫	-11.8472
西楚	-11.8474
竹書	-11.8474
劉秀	-11.8474
白石	-11.8476
延熈	-11.8478
十有八	-11.848
智謀	-11.848
病死	-11.8481
士女	-11.8482
伐木	-11.8482
葉四行	-11.8491
本朝改為	-11.8491
皖	-11.8495
郪	-11.8495
丈人	-11.8497
正心	-11.8497
此誤	-11.8498
所費	-11.8499
罃	-11.85
豢	-11.85
龍驤	-11.8501
闈	-11.8501
遙光	-11.8502
履祥	-11.8502
緜	-11.8503
直𨽻京師	-11.8504
俚	-11.8504
漢中郡	-11.8504
秦楚	-11.8505
驥	-11.8505
汾水	-11.8505
食貨志	-11.8506
肉袒	-11.8507
樓煩	-11.8507
觚	-11.8508
鈴	-11.8508
殺掠	-11.8509
賾	-11.8509
岌	-11.851
巻	-11.851
哈逹	-11.8511
興慶宫	-11.8511
郡隋屬	-11.8511
弈	-11.8511
朱勝非	-11.8512
掊	-11.8512
諸矦	-11.8512
襟	-11.8512
竹書紀年	-11.8512
歔欷	-11.8513
懿宗咸通	-11.8513
翅	-11.8513
阿那瓌	-11.8513
哥	-11.8513
臨軒	-11.8514
魏冉	-11.8514
澈	-11.8514
戰守	-11.8514
廻	-11.8514
未備	-11.8515
詛	-11.8515
冬十月朔日食	-11.8516
拳拳	-11.8516
安樂公主	-11.8516
帷幄	-11.8517
掎	-11.8517
列女傳	-11.8517
凛	-11.8517
炅	-11.8518
降賊	-11.8518
疆場	-11.8518
賈昌朝	-11.8518
薫	-11.8518
辛夘	-11.8519
百萬之衆	-11.8519
預謀	-11.8519
騖	-11.8519
漢主聰	-11.8519
進思	-11.852
部署	-11.8521
肘	-11.8521
斗米	-11.8521
石守道	-11.8521
蘭臺	-11.8522
不克而還	-11.8523
勤王之師	-11.8523
臣愚以為	-11.8523
摽	-11.8523
踣	-11.8523
規矩	-11.8524
逝	-11.8524
适	-11.8524
鉅野	-11.8524
花石	-11.8525
宋文帝	-11.8525
畏懦	-11.8526
蕞爾	-11.8526
圖克坦	-11.8526
刀筆	-11.8526
師鐸	-11.8527
爻	-11.8528
予小子	-11.8528
韓滉	-11.8529
悠悠	-11.853
宣徽使	-11.853
果能	-11.8531
茍安	-11.8531
房琯	-11.8531
煩擾	-11.8532
記檀弓	-11.8534
吕䝉	-11.8534
專恣	-11.8535
論列	-11.8536
之臣子	-11.8536
狄青	-11.8538
頓丘	-11.8538
八卦	-11.8541
五行志	-11.8541
相尋	-11.8542
于市	-11.8542
上林苑	-11.8544
利口	-11.8544
賢人君子	-11.8544
二水名	-11.8545
供給	-11.8545
和糴	-11.8546
君廓	-11.8547
堂堂	-11.8549
王仙芝	-11.855
謝晦	-11.855
宮室	-11.8551
則無以	-11.8552
側目	-11.8552
闗南	-11.8554
十五載	-11.8556
無意於	-11.8556
天保	-11.8556
没入	-11.8557
權重	-11.8558
注見宋孝	-11.8558
劉闢	-11.8558
莫非	-11.8559
異論	-11.8561
商英	-11.8562
一十五里	-11.8563
平蜀	-11.8564
輔佐	-11.8566
州後改	-11.8567
傅亮	-11.8567
柬之	-11.8569
牽制	-11.8569
金全	-11.8569
休格	-11.857
九品	-11.857
驍將	-11.8571
未始不	-11.8573
上書請	-11.8573
百口	-11.8573
於是再見	-11.8574
胡僧	-11.8574
設施	-11.8576
五丈	-11.8576
慕容廆	-11.858
晉侯使	-11.858
籍其家	-11.8581
會于	-11.8582
聲援	-11.8584
亂亡之	-11.8585
長樂宫	-11.8585
女弟	-11.8586
京官	-11.8586
匈奴單于	-11.8587
匡救	-11.8587
朝綱	-11.859
成紀	-11.8591
日盛	-11.8593
詔有司	-11.8593
潜善	-11.8594
僭號	-11.8595
合流	-11.8598
而不改	-11.8598
土崩	-11.8599
掲而書之	-11.8602
委棄	-11.8604
盖由	-11.8604
唐恪	-11.8605
臣僚	-11.8605
海道	-11.8606
圖籍	-11.8607
射殺	-11.8609
紛然	-11.861
景宗	-11.861
故書譏之	-11.861
來告	-11.8613
某官	-11.8614
邉事	-11.8616
逃奔	-11.8618
宰我	-11.8619
景福	-11.862
李嚴	-11.8622
晉陵	-11.8622
渭州	-11.8623
厯代	-11.8628
流毒	-11.8628
世説	-11.8629
元鳯	-11.8632
樊城	-11.8637
入淮	-11.8638
元乂	-11.8638
重鎮	-11.8639
紹宗	-11.8644
荆山	-11.8644
許國	-11.8646
唐𤣥宗開元	-11.8648
按察	-11.8648
刺殺	-11.865
兵數萬	-11.865
有之矣	-11.8651
吴王	-11.8651
舉兵反	-11.8653
鳯陽府	-11.8655
孫武	-11.8655
益甚矣	-11.8657
伐韓	-11.8659
隆興	-11.8661
本朝初改	-11.8662
淫虐	-11.8663
民物	-11.8663
䘮亂	-11.8663
程氏	-11.8663
以待其	-11.8664
西僧	-11.8665
佞臣	-11.8667
何如耳	-11.8668
軍勢	-11.867
惡來	-11.867
安史	-11.867
繼元	-11.8672
遇敵	-11.8675
凡正統	-11.8675
從事於	-11.8676
入中國	-11.8677
其效	-11.8679
僅能	-11.8679
刋本	-11.8679
遺愛	-11.8682
天水郡	-11.8684
涿州	-11.8684
被害	-11.8685
昏亂	-11.8685
深戒	-11.8687
營田	-11.8687
道宗	-11.8689
齊衰	-11.869
魯山	-11.8692
召諸將	-11.8692
涪城	-11.8693
報怨	-11.8693
㡬何	-11.8696
甚急	-11.8699
左僕射	-11.87
更造	-11.8701
古之君子	-11.8702
嚴整	-11.8703
竒才	-11.8704
觀察	-11.8709
崇訓	-11.8709
悉力	-11.8714
方是時	-11.8714
顯徳	-11.8719
祠孔子	-11.872
直書曰	-11.8721
瓚曰	-11.8724
居延	-11.8724
震怒	-11.8725
人人自	-11.873
皇家	-11.8731
天穆	-11.8731
肖	-11.8734
寳臣	-11.8742
借兵	-11.8743
三十一	-11.8751
漢高祖	-11.8754
嬪御	-11.8763
東走	-11.8764
八字	-11.8767
聖朝	-11.8769
吾觀	-11.8769
潁州	-11.877
行弑逆	-11.877
十世	-11.8771
一端	-11.8773
人之性	-11.8774
雄武	-11.8776
綱目備	-11.8778
李訓	-11.8779
謝尚	-11.8781
右軍	-11.8781
誰不	-11.8783
貞觀初	-11.8784
不細	-11.8785
晉紀	-11.8791
所感	-11.8792
子午	-11.8796
渤	-11.8798
五詳	-11.8799
則知其	-11.8801
千七百	-11.8802
才力	-11.8805
舂陵	-11.8806
左傳僖	-11.8807
二篇	-11.8807
䖍州	-11.8807
李義府	-11.8811
嗇	-11.8811
秦之縣名	-11.8811
恩寵	-11.8813
靈帝中平六年	-11.8813
秦隴	-11.8814
菁	-11.8814
王峻	-11.8814
洧	-11.8814
大姦	-11.8814
左賢王	-11.8814
懸瓠	-11.8814
綮	-11.8817
陳𢎞志	-11.8817
孜	-11.8818
戴氏曰	-11.8819
将吏	-11.8819
詒	-11.882
懣	-11.882
征和二年	-11.882
巫覡	-11.8821
剔	-11.8821
廷隠	-11.8821
耿弇	-11.8821
歸田里	-11.8821
輕佻	-11.8821
棻	-11.8821
受降城	-11.8821
架	-11.8822
濩	-11.8823
湊	-11.8823
褘	-11.8823
恟	-11.8823
掉	-11.8823
骨鯁	-11.8824
籥	-11.8824
釡	-11.8824
纉	-11.8824
闔門	-11.8824
張林	-11.8825
掎角	-11.8825
鍔	-11.8825
喉	-11.8826
豁	-11.8827
用史記本	-11.8827
襁褓	-11.8827
弓弩	-11.8827
莫大焉	-11.8827
湮	-11.8828
伊遜	-11.8828
倔	-11.8829
貨賂	-11.8829
鋒鏑	-11.8829
譁	-11.8829
嬉	-11.8829
鏤	-11.8829
潯陽	-11.883
蹋	-11.883
軋	-11.883
嘯	-11.883
昪	-11.8831
州宋初	-11.8831
邛	-11.8831
鰥寡	-11.8831
兵潰	-11.8831
起居郎	-11.8832
妲己	-11.8832
指麾	-11.8832
紫微	-11.8832
笮	-11.8832
諸葛孔明	-11.8832
憬	-11.8832
螟	-11.8833
鳴鼓	-11.8834
求生	-11.8834
秣馬	-11.8834
鄭覃	-11.8835
騁	-11.8835
其可得乎	-11.8836
晏球	-11.8836
租稅	-11.8836
蕭銑	-11.8836
承祐	-11.8837
鵬	-11.8837
絶域	-11.8837
侯瑱	-11.8837
引軍還	-11.8838
牽牛	-11.8838
宇文䕶	-11.8838
囉	-11.8839
李邦彦	-11.8839
匯	-11.8839
丹陽尹	-11.884
闗西	-11.884
韓忠彦	-11.884
佶	-11.8841
布薩	-11.8841
勤政	-11.8841
仁杲	-11.8842
不諱	-11.8842
災祥	-11.8842
成疾	-11.8843
阮籍	-11.8843
抗衡	-11.8843
商旅	-11.8844
希逸	-11.8844
數百騎	-11.8844
蠶食	-11.8845
疾惡	-11.8845
請誅之	-11.8845
而不能用	-11.8846
治天下者	-11.8846
曰諾	-11.8848
光武建武五年	-11.8848
呂布	-11.8848
無君之心	-11.8848
無聞焉	-11.8849
葛榮	-11.8849
宫禁	-11.885
陳敬瑄	-11.8851
敎化	-11.8852
甸服	-11.8854
配天	-11.8854
生民之	-11.8855
邳	-11.8856
被擒	-11.8857
朱文公	-11.8858
義熙	-11.8858
竄逐	-11.8859
力争	-11.886
破走之	-11.8861
州注見漢武帝	-11.8861
皆因之	-11.8863
忠節	-11.8863
希崇	-11.8864
矣而又	-11.8864
討賊之義	-11.8864
西路	-11.8866
叔寶	-11.8866
藝祖	-11.8867
陕西	-11.8868
貢禹	-11.8868
次年	-11.8869
號哭	-11.887
珍寳	-11.887
王𤣥謨	-11.887
卧内	-11.8871
丹徒	-11.8871
伯陽	-11.8872
同盟于	-11.8873
赫然	-11.8874
之姿	-11.8876
詰責	-11.8877
厭勝	-11.8878
徳鈞	-11.8879
大疫	-11.888
出征	-11.8881
令軍中	-11.8881
元封元年	-11.8882
舜典	-11.8882
寶應	-11.8882
齊景公	-11.8884
陳後主	-11.8884
不得其死	-11.8885
保定	-11.8885
注見晉穆帝永	-11.8887
終其身	-11.8888
董承	-11.8894
斯世	-11.8896
州防禦使	-11.8896
全師	-11.8897
仗義	-11.8898
因留	-11.8898
援立	-11.8899
而食之	-11.8899
秦王興	-11.89
茍容	-11.89
太清二年	-11.8901
時溥	-11.8901
濟隂王	-11.8901
山隂	-11.8901
相近	-11.8902
承休	-11.8904
義寧	-11.8906
變詐	-11.8907
虛實	-11.891
大同府	-11.8913
宻謀	-11.8913
上之人	-11.8915
力竭	-11.892
誓衆	-11.8921
六十四	-11.8921
威徳	-11.8924
與否	-11.8925
邵子	-11.8926
委身	-11.8929
提要作	-11.8929
訪問	-11.8931
逸樂	-11.8931
也易曰	-11.8932
公卿以下	-11.8932
賢愚	-11.8935
納其言	-11.8935
祁山	-11.8935
章奏	-11.8937
夾擊	-11.8939
懐逺	-11.894
厯數	-11.894
呉郡	-11.8942
四里	-11.8944
發兵擊	-11.8944
地形	-11.8945
肆赦	-11.8946
天文志	-11.8947
軍屯	-11.8947
脩武	-11.8947
極諫	-11.8949
與之俱	-11.895
性命	-11.895
鄙夫	-11.8951
置百官	-11.8952
公主妻	-11.8953
篇首	-11.8954
諺曰	-11.8954
以天下為	-11.8955
哉然則	-11.8956
强盛	-11.8956
蘄州	-11.8956
之愆	-11.8958
拒諫	-11.8959
注見晉孝武帝太元	-11.8966
其君者	-11.8969
求福	-11.8969
太后怒	-11.897
縣東漢	-11.8971
天授	-11.8971
魏孝文	-11.8972
班氏	-11.8973
大恱	-11.8976
傾國	-11.8977
傳國璽	-11.8977
二寸	-11.8978
文雅	-11.8979
郡名注見秦	-11.8979
唐虞之	-11.898
再貶	-11.898
立嫡	-11.8986
結好	-11.8987
來獻	-11.899
掩擊	-11.8992
而赦之	-11.8995
踰年而	-11.8996
無虚	-11.8999
注見漢成帝綏和二年	-11.9
無窮之	-11.9004
正色曰	-11.9004
多疑	-11.9005
逺畧	-11.9007
親黨	-11.9007
甘州	-11.9007
襲破	-11.9009
相類	-11.9011
各異	-11.9012
水草	-11.9015
要領	-11.9017
常山郡	-11.9019
夫如是	-11.9019
幽并	-11.902
退避	-11.9021
為太保	-11.9023
獻帝興平元年	-11.9027
犍	-11.9032
賢聖	-11.9034
違命	-11.9039
昌朝	-11.904
同盟	-11.9042
按史記	-11.9042
家貧	-11.9046
簡易	-11.9047
府藏	-11.905
鄯州	-11.905
太重	-11.9051
李振	-11.9051
無嫌	-11.9052
大壞	-11.9053
乎然則	-11.9053
六條	-11.9056
族類	-11.9056
屬籍	-11.9057
召陵	-11.9058
復讎	-11.906
師旅	-11.9061
豈易	-11.9064
元至元	-11.9068
簒漢	-11.9068
地節	-11.9072
邊郡	-11.9076
千餘家	-11.9078
千百	-11.9079
賊黨	-11.908
楊廣	-11.9082
六十餘	-11.9083
雖欲不	-11.9087
度宗	-11.9091
也使其	-11.9092
舊説	-11.9092
莫知其	-11.9092
子西曰	-11.9093
縣省入屬	-11.9094
期㑹	-11.9105
封禪書	-11.9105
失政	-11.9106
廣東	-11.9109
充實	-11.911
夏禹	-11.9111
殿門	-11.9114
已著	-11.9116
在廷	-11.912
黎州	-11.9121
不去其官	-11.9122
七國之	-11.9126
祖母	-11.9127
未亡	-11.9127
剡	-11.9129
千乗	-11.913
乃引兵	-11.9131
不能勝	-11.9131
九州之	-11.9132
蜮	-11.9134
葉公	-11.9135
煮	-11.9135
㐲	-11.9136
之衰也	-11.9137
水源出	-11.9137
緬	-11.9138
不書叛	-11.9139
陿	-11.914
栁下惠	-11.914
蓍	-11.914
山南東道節度使	-11.9141
泫	-11.9141
苖裔	-11.9142
撮	-11.9142
卲	-11.9142
駰	-11.9142
者什	-11.9142
告之曰	-11.9143
貰	-11.9143
帝元始五年	-11.9144
燼	-11.9144
廡	-11.9144
廞	-11.9145
炤	-11.9145
孟嘗君	-11.9145
緇	-11.9145
溷	-11.9146
鷹犬	-11.9146
驁	-11.9146
碻磝	-11.9147
緄	-11.9147
藤	-11.9147
蠋	-11.9147
逗遛	-11.9147
酅	-11.9148
鐵劵	-11.9148
淩	-11.9148
溝洫	-11.9148
信陵君	-11.9148
晙	-11.9148
寒暑	-11.9148
宗伯	-11.9148
芉	-11.9149
認	-11.9149
撝	-11.9149
蘆	-11.9149
珥	-11.9149
脆	-11.9149
申屠嘉	-11.9149
合葬	-11.915
諒闇	-11.915
如反掌	-11.9151
泮	-11.9151
期年	-11.9151
澣	-11.9151
膏肓	-11.9151
剏	-11.9152
寮	-11.9152
于社	-11.9152
馳騁	-11.9152
幼冲	-11.9152
金縢	-11.9153
驂	-11.9153
筋	-11.9153
壌	-11.9154
礙	-11.9154
峡	-11.9154
猛獸	-11.9155
耦	-11.9155
擊却之	-11.9155
趙充國	-11.9155
縞素	-11.9155
其失自見	-11.9156
以女妻	-11.9156
鎖	-11.9156
昭義節度使	-11.9156
不可掩	-11.9157
顛覆	-11.9157
翫	-11.9157
祀南郊	-11.9157
二帝三王	-11.9157
趙簡子	-11.9158
史記作	-11.9158
𤣥謨	-11.9158
華林園	-11.9158
黄歇	-11.9159
執其手	-11.9159
太昊	-11.916
判度支	-11.916
尉遲	-11.916
而民不	-11.9161
雎	-11.9161
程嬰	-11.9161
幟	-11.9161
有力焉	-11.9162
絢	-11.9162
沙丘	-11.9162
左衽	-11.9162
閭里	-11.9162
驍騎	-11.9164
藹	-11.9164
託孤	-11.9164
劉仁軌	-11.9165
題目	-11.9166
歐陽脩	-11.9168
可也夫何	-11.9169
分别	-11.9169
勃海	-11.917
暘	-11.917
形迹	-11.9171
按此條	-11.9171
儉素	-11.9172
宣徽	-11.9172
能否	-11.9172
帥所部	-11.9172
伯夷叔齊	-11.9172
滅其族	-11.9173
其不書	-11.9173
徽欽	-11.9173
左拾遺	-11.9174
注見成帝	-11.9177
臣祖禹	-11.9177
苻氏	-11.9179
庶長	-11.918
厚賂	-11.918
更號	-11.9181
浚儀	-11.9181
殄滅	-11.9182
著論	-11.9183
華歆	-11.9183
李師道	-11.9183
公主嫁	-11.9184
興廢	-11.9185
雜記	-11.9185
交易	-11.9185
所以予其	-11.9187
其行事	-11.919
露布	-11.9191
郎中令	-11.9192
曽布	-11.9192
註云	-11.9194
敬德	-11.9194
一歳	-11.9195
驅除	-11.9196
諸將請	-11.9197
楊墨	-11.9197
南走	-11.9199
胡寅	-11.9199
昭宣帝	-11.9199
呂后	-11.9202
康誥	-11.9202
消長	-11.9202
弔伐	-11.9203
輕動	-11.9208
率百官	-11.9209
鎮定	-11.9214
之篇書	-11.9216
騎士	-11.9219
箕山	-11.922
輕舉	-11.922
小人之禍	-11.9221
逹于	-11.9223
鄉黨	-11.9224
商紂	-11.9224
之請也	-11.9225
大稔	-11.9226
出宫人	-11.9227
三苗	-11.9228
立公子	-11.9229
俗吏	-11.9229
肆行	-11.9231
三十餘年	-11.9232
具其官	-11.9232
親臨	-11.9232
語人曰	-11.9233
節度注見漢	-11.9234
姦回	-11.9237
正月朔	-11.9238
濁亂	-11.9239
洪進	-11.924
元舅	-11.924
從可知矣	-11.924
每嵗	-11.9241
營壘	-11.9241
田常	-11.9244
久安	-11.9245
丞相亮	-11.9246
救災	-11.9247
唐肅宗	-11.9248
西鄙	-11.9248
兵五千	-11.925
興起	-11.925
遽爾	-11.9251
冬十月魏	-11.9254
許洛	-11.9254
武帝元鼎五年	-11.9254
塞下	-11.9254
威信	-11.9257
汲郡	-11.9262
秦莊襄王元年	-11.9264
事迹	-11.9265
分為二	-11.9265
參考	-11.9267
表賀	-11.9267
墨子	-11.9273
眞定	-11.9273
綱目凡	-11.9276
畏威	-11.9278
免為庶人	-11.9279
可不謂	-11.9279
乾徳	-11.9281
先務	-11.9284
善射	-11.9284
燕雲	-11.9284
于兹	-11.9285
班史	-11.9285
少恩	-11.9286
張茂	-11.9287
剛明	-11.9288
聊城	-11.9289
所以明其	-11.929
七八	-11.929
為左僕射	-11.9291
右相	-11.9292
外援	-11.9293
于寘	-11.9298
乃許之	-11.9299
浮海	-11.9301
宦人	-11.9301
未有書者	-11.9304
偏師	-11.9305
兹因	-11.9305
五嵗	-11.9306
莊襄	-11.9307
削奪	-11.9307
繼絶	-11.9309
義勇	-11.931
綱日	-11.9311
覆亡	-11.9314
國朝因之屬	-11.9315
聖祖	-11.932
禆將	-11.9322
逃去	-11.9325
役法	-11.9329
險要	-11.933
蘇武	-11.933
征西	-11.9337
雷州	-11.9338
蘇威	-11.9342
不憚	-11.9344
謚曰	-11.9346
才智	-11.9348
元勲	-11.9349
叛君	-11.9357
欲奪	-11.9357
騎都尉	-11.936
者莫如	-11.936
審知	-11.9366
八千人	-11.9368
部員外郎	-11.9369
襲取	-11.9372
樂陵	-11.9374
斷絶	-11.938
故綱	-11.9382
深貶之也	-11.9383
在側	-11.9389
道輔	-11.939
臨難	-11.9392
責成	-11.9395
嵗首	-11.9395
以正其	-11.9396
問之曰	-11.9398
碭	-11.9402
無所用	-11.9404
勞軍	-11.9405
石經	-11.9406
焚掠	-11.9407
石氏	-11.9409
明哲	-11.9409
殆哉	-11.9411
詎不	-11.9412
侵地	-11.9414
飾非	-11.9416
太子太傅	-11.9417
不可救	-11.9421
右將軍	-11.9423
焞	-11.9425
固爭	-11.9427
為太宰	-11.9429
密謀	-11.9433
五十六	-11.9435
未央	-11.944
王畿	-11.9441
綏和二年	-11.9446
昌符	-11.945
胥吏	-11.9451
不過數	-11.9452
萬安	-11.9455
漢獻帝建	-11.9461
明敏	-11.9461
申侯	-11.9461
佼	-11.9467
狙	-11.9468
簽書樞宻院事	-11.9469
垓下	-11.947
邵陵王綸	-11.947
犨	-11.947
喙	-11.9471
趍	-11.9472
裴子野	-11.9473
正史篇	-11.9473
注見周赧王四年漢中	-11.9474
天下之亂	-11.9475
管夷吾	-11.9475
悸	-11.9475
葆	-11.9475
筏	-11.9475
鑾輿	-11.9476
娑	-11.9476
冷	-11.9477
春申君	-11.9477
矟	-11.9477
故也今	-11.9477
安丙	-11.9477
舎是無書	-11.9478
荀悦	-11.9478
涌	-11.9478
𢷬	-11.9479
聘於	-11.9479
莽天鳯元年	-11.9479
蓐	-11.9479
御前	-11.9479
篋	-11.9479
鴨	-11.9479
僊芝	-11.948
湎	-11.948
扁鵲	-11.9481
店	-11.9481
兵連禍結	-11.9481
剗	-11.9481
萬餘級	-11.9481
沭	-11.9481
霍去病	-11.9482
𧺫	-11.9482
光祿大夫	-11.9482
紛紜	-11.9482
孰甚焉	-11.9483
劉文靜	-11.9483
户部侍郎	-11.9483
哷	-11.9483
外患	-11.9483
棒	-11.9484
稽顙	-11.9484
國朝初	-11.9484
晁錯	-11.9484
盩厔	-11.9484
倡優	-11.9484
群盗	-11.9485
盧多遜	-11.9485
峒	-11.9485
邢恕	-11.9486
為其下所殺	-11.9486
言于帝曰	-11.9486
倢伃	-11.9486
賄賂	-11.9486
比而觀之	-11.9486
鉛	-11.9486
宇文融	-11.9486
鬯	-11.9486
田蚡	-11.9487
眭	-11.9487
祊	-11.9487
宗楚客	-11.9487
並列	-11.9488
黄裳	-11.9488
疏奏	-11.9488
蠱惑	-11.9488
擕	-11.9488
輻	-11.9488
屹	-11.9488
掌書記	-11.9489
抄掠	-11.9489
蠅	-11.9489
宇文述	-11.949
瘴	-11.949
襄樊	-11.949
臧洪	-11.9491
玁	-11.9491
忤㫖	-11.9492
廬舍	-11.9492
武帝元鼎二年	-11.9493
駑	-11.9493
䜟緯	-11.9494
賈詡	-11.9494
猖獗	-11.9494
之意深矣	-11.9495
湧	-11.9495
赴行在	-11.9495
祝融	-11.9496
祖珽	-11.9496
李清臣	-11.9496
龔勝	-11.9496
靈運	-11.9497
督䕶	-11.9498
於禁中	-11.9499
羣蠻	-11.9499
斥候	-11.95
百五十里	-11.95
民饑	-11.9501
贈諡	-11.9501
何㮚	-11.9501
歌舞	-11.9502
蹊	-11.9503
太尉裕	-11.9504
鳴條	-11.9507
八尺	-11.9507
幼弱	-11.9508
不悉書	-11.951
行其志	-11.951
岷山	-11.9511
王庭湊	-11.9511
黔州	-11.9514
二尺	-11.9514
蔡攸	-11.9516
二萬人	-11.9519
更始二年	-11.9519
驕縱	-11.952
宴羣臣	-11.9522
李愬	-11.9522
董公	-11.9523
不可不察	-11.9523
不遑	-11.9523
延安府	-11.9523
白鹿	-11.9524
李繼遷	-11.9525
括地志云故城在	-11.9526
就死	-11.9528
諫曰陛下	-11.953
可不謹	-11.9531
盛德	-11.9532
崔羣	-11.9533
仁愛	-11.9533
范質	-11.9534
弗聽	-11.9535
園陵	-11.9535
韓維	-11.9538
仁壽	-11.9538
州别駕	-11.9538
李昉	-11.9539
四嶽	-11.954
盛稱	-11.954
問計於	-11.9541
龍朔	-11.9542
比來	-11.9542
牙門	-11.9542
凡三十	-11.9546
劉湛	-11.9547
素惡	-11.9548
鉅萬	-11.9549
牙兵	-11.955
龍舟	-11.9551
招致	-11.9551
世榮	-11.9553
一旅	-11.9557
兵萬人	-11.9557
失計	-11.9559
臨賀	-11.9559
則曷為不書	-11.9561
文靜	-11.9562
原廟	-11.9568
孫儒	-11.9571
感泣	-11.9572
史炤曰	-11.9573
智畧	-11.9573
引退	-11.9575
上䟽言	-11.9577
咸寧	-11.9577
皇二十八年	-11.9578
汴梁	-11.9581
乾侯	-11.9581
田豐	-11.9584
初因之	-11.9586
魏絳	-11.9587
臣之所	-11.9588
可也今	-11.9588
繆公	-11.9591
獨任	-11.9593
賢妃	-11.9593
好佛	-11.9594
子産曰	-11.9595
百代	-11.9602
天災	-11.9603
援引	-11.9604
屬開封府	-11.9605
隂結	-11.9606
器物	-11.9606
楚滅	-11.9607
境土	-11.9611
馬牛	-11.9612
址	-11.9613
西向	-11.9614
尋復置	-11.9616
知留後	-11.9617
肅州	-11.9621
以重兵	-11.9621
故綱目特	-11.9621
七詳	-11.9624
危亡之	-11.9625
宣布	-11.9626
申韓	-11.9628
右扶風	-11.9629
年六十	-11.9631
阻兵	-11.9631
東坡論	-11.9631
詔自今	-11.9633
屬河南郡	-11.9633
州宋改	-11.9637
新邑	-11.9637
思所以	-11.9641
欽明	-11.9642
為之用	-11.9644
師友	-11.9644
見周赧王	-11.9646
楊堅	-11.9649
相表裏	-11.965
春秋之時	-11.9651
優詔	-11.9652
之將亡	-11.9655
亦多矣	-11.9657
安定郡	-11.9659
救趙	-11.9659
収其	-11.9661
冉有	-11.9663
吾不忍	-11.9664
始畢	-11.9673
七百里	-11.9674
啓民	-11.9676
四十一年	-11.9678
東郊	-11.9678
聖經	-11.9681
喪亂	-11.9681
弋陽	-11.9687
水溢	-11.9689
舉手	-11.969
鞏昌	-11.969
襲封	-11.9691
除拜	-11.9694
處厚	-11.9697
太𤣥	-11.9697
即位以來	-11.9701
伏甲	-11.9702
元妃	-11.9704
夏貴	-11.9708
就食	-11.971
乎雖然	-11.9713
二年正月	-11.9713
固讓	-11.9721
可悲	-11.9722
坐免	-11.9723
建安十三年	-11.9738
美惡	-11.9742
之罪人也	-11.9742
楚客	-11.9744
有苗	-11.9744
邪佞	-11.9751
辭不至	-11.9751
舟中	-11.9756
經學	-11.9757
賜予	-11.9759
之於後	-11.9759
項城	-11.9759
無疆	-11.9763
之願也	-11.9764
二十卷	-11.9766
司冦	-11.9767
此三者	-11.977
得脱	-11.9771
貽書	-11.9772
為招討使	-11.9773
蘇氏曰	-11.9773
注見秦始	-11.9776
庭湊	-11.9777
勸善	-11.9778
常情	-11.9784
凡二十	-11.9787
種名注見	-11.9795
綯	-11.9798
伏地	-11.9798
可憂	-11.9799
忻州	-11.9801
戒懼	-11.9804
顧引拾𥙷	-11.9811
臼	-11.9811
括地志	-11.9813
仁政	-11.9813
相傾	-11.9814
徙封	-11.9815
此二者	-11.9816
偏禆	-11.9816
㝢	-11.9817
史纂通要卷	-11.9817
滏	-11.9817
熏	-11.9819
憙	-11.9819
僦	-11.9819
濼	-11.982
師徒	-11.982
諸葛恪	-11.982
濰	-11.982
鉦	-11.9822
崔湜	-11.9822
工部侍郎	-11.9823
舊物	-11.9824
沌	-11.9824
㑹稽王昱	-11.9824
太極殿	-11.9824
縻	-11.9824
慼	-11.9825
輜	-11.9826
民不聊生	-11.9826
怯懦	-11.9827
拆	-11.9827
都留守	-11.9827
昀	-11.9827
度河	-11.9827
宇宙	-11.9827
犁	-11.9828
縞	-11.9828
沙汰	-11.9828
蘖	-11.9828
栻	-11.9828
披靡	-11.9828
悰	-11.9828
迦	-11.9829
注見秦始皇三十三年	-11.9829
匏	-11.983
佩刀	-11.983
延岑	-11.983
両	-11.983
劉幽求	-11.983
罪不容誅	-11.983
裾	-11.983
史嵩之	-11.983
殪	-11.9831
察罕	-11.9831
无	-11.9831
淯	-11.9831
袞	-11.9831
撼	-11.9832
榷	-11.9832
州司户	-11.9832
網羅	-11.9832
肩輿	-11.9832
桓沖	-11.9832
夣	-11.9832
曳	-11.9832
盧龍節度使	-11.9833
种諤	-11.9833
洗氏	-11.9834
汨	-11.9835
者變例也	-11.9835
副總管	-11.9836
璆	-11.9836
丘墟	-11.9836
突入	-11.9837
塡	-11.9837
李抱真	-11.9838
飛狐	-11.9838
盜殺	-11.9839
無恙	-11.9839
築壘	-11.9839
佺期	-11.984
孔緯	-11.9841
換	-11.9841
以萬數	-11.9841
乎噫	-11.9842
史彌逺	-11.9842
帝隆安	-11.9843
吕中曰	-11.9843
天祐二年	-11.9844
禋	-11.9844
彖	-11.9844
刑措	-11.9844
昏庸	-11.9844
悔悟	-11.9844
盧把	-11.9846
碩徳	-11.9847
聽訟	-11.9847
田疇	-11.9848
北向	-11.9848
墳墓	-11.9848
其罪大矣	-11.9849
畜牧	-11.985
敬翔	-11.985
中央	-11.9851
恩禮	-11.9852
正典刑	-11.9852
開闢	-11.9855
始親政	-11.9855
有意於	-11.9855
杜陵人	-11.9856
之意可見矣	-11.9856
千牛	-11.9856
疆土	-11.9858
複道	-11.9858
自劾	-11.986
郡丞	-11.9863
窮困	-11.9864
區處	-11.9865
典午	-11.9866
六十萬	-11.9866
興平元年	-11.9868
屈辱	-11.9869
將兵救	-11.9871
覆試	-11.9871
旌節	-11.9874
遣使迎	-11.9874
殿庭	-11.9875
則可矣	-11.9876
懷恩	-11.9876
有益於	-11.9877
傾危	-11.9878
當作討	-11.9878
不自知	-11.9878
三苖	-11.9879
莫之能	-11.9879
長沙郡	-11.9886
王若曰	-11.9888
藥石	-11.9889
矣吁	-11.9889
改姓	-11.9889
帥諸軍	-11.989
侵暴	-11.9892
注見周顯	-11.9896
苛刻	-11.99
三十五年	-11.9901
破之必矣	-11.9901
碭山	-11.9902
舉大事	-11.9903
武陵郡	-11.9904
下獄死	-11.9904
豎子	-11.9905
張本作	-11.9905
金墉城	-11.9906
良乆	-11.9908
令百官	-11.9909
鉅鹿郡	-11.991
為衆所	-11.991
㓜主	-11.9913
増廣	-11.9915
漢沔	-11.9916
雄才	-11.9919
僕固	-11.9923
迷唐	-11.9925
年十六	-11.9926
督責	-11.9926
聖學	-11.9927
御殿	-11.993
二百餘人	-11.993
遼陽	-11.9931
從横	-11.9933
黑水	-11.9934
堯舜之道	-11.9936
均田	-11.9937
慕容恪	-11.9939
平壤	-11.9939
離石	-11.9941
何以異	-11.9944
尚公主	-11.9949
西傾	-11.9951
二三子	-11.9952
官有差	-11.9954
物情	-11.9954
漢獻帝建安十	-11.9955
星隕	-11.996
周武氏	-11.9962
勿疑	-11.9962
源流	-11.9963
汝陽	-11.9963
修撰	-11.9963
中山國	-11.9964
西走	-11.9964
拒敵	-11.9966
髙允	-11.9967
親任	-11.9967
女寵	-11.9971
和戎	-11.9971
司寇	-11.9972
歴觀	-11.9973
夏四月魏	-11.9973
以恩信	-11.9974
潮州	-11.998
唯陛下	-11.9981
獄吏	-11.9982
四十二	-11.9983
丈餘	-11.9986
孝和	-11.9988
紹琛	-11.9993
方面	-11.9994
天厭	-11.9994
厥罪	-11.9994
經典	-11.9998
治獄	-12
遇弑	-12.0001
劒州	-12.0003
眀帝	-12.0003
三千餘	-12.0004
昇平	-12.0005
草詔	-12.0006
二年春二月	-12.0006
右賢王	-12.0007
抑不知	-12.0009
特書于冊	-12.001
風節	-12.001
嶲州	-12.0011
其成功	-12.0012
革弊	-12.0012
瀘州	-12.0018
聖意	-12.0021
皇皇	-12.0024
見漢獻帝建安十	-12.0025
白龍	-12.0028
太寧	-12.0029
地志云	-12.0035
崇奉	-12.0036
一國之	-12.0039
隂盛	-12.0039
為荆州刺史	-12.0042
年七十	-12.0043
積粟	-12.0045
怨怒	-12.0045
身被	-12.0049
白登	-12.005
四十六	-12.0056
迎合	-12.0057
遣使奉表	-12.0057
贈官	-12.0059
固争	-12.006
元光五年	-12.0064
互有	-12.0065
二妃	-12.0067
威望	-12.0068
劉虞	-12.0069
日乆	-12.0069
靡然	-12.007
要地	-12.007
幸之也	-12.0071
最後	-12.0073
丞相府	-12.0076
以罪免	-12.0079
機事	-12.008
不能止	-12.008
北邉	-12.0081
辭色	-12.0082
十有九	-12.0089
興平二年	-12.009
告戒	-12.0091
江總	-12.0095
年十五	-12.01
者異矣	-12.01
州治此	-12.0101
擊斬之	-12.0106
殤帝	-12.0106
還建康	-12.0108
得其道	-12.011
兵五萬	-12.0115
何為者	-12.0118
不能屈	-12.0119
其歸路	-12.012
紀載	-12.0123
矣噫	-12.0124
講求	-12.0126
唐莊宗	-12.0126
元朔五年淮南	-12.0129
流亡	-12.0129
郡北齊	-12.0132
何忍	-12.0137
鼔譟	-12.0138
不逞	-12.0142
伐紂	-12.0143
宗戚	-12.0144
奉祠	-12.0146
虐民	-12.0148
其隙	-12.0152
既衰	-12.0154
亂階	-12.0156
常賦	-12.0157
韶州	-12.0158
蠭	-12.0168
沙鉢畧	-12.017
墉	-12.017
縡	-12.0172
茍晞	-12.0172
記載	-12.0173
甌	-12.0174
婕妤	-12.0174
銜枚	-12.0174
祁奚	-12.0174
衆寡不敵	-12.0174
鄧隲	-12.0175
府元改	-12.0176
獷	-12.0177
酈道元	-12.0177
蔕	-12.0177
秦宗權	-12.0177
驃騎	-12.0178
初所置屬	-12.0178
氊	-12.0178
弃	-12.0178
窋	-12.0178
鍜	-12.0178
制禮作樂	-12.0179
察罕特穆爾	-12.0179
荆軻	-12.018
鼈	-12.018
莒人	-12.018
眇	-12.0181
箇	-12.0181
麈	-12.0181
高琪	-12.0181
痍	-12.0181
蔡謨	-12.0181
鏄	-12.0181
搢紳	-12.0182
衒	-12.0182
褐	-12.0182
鮒	-12.0182
航	-12.0182
博囉特穆爾	-12.0182
是月晦日食	-12.0182
吳明徹	-12.0183
盧芳	-12.0183
統志云	-12.0183
誄	-12.0183
子產	-12.0184
宣歙	-12.0184
負芻	-12.0184
眠	-12.0184
嶓	-12.0185
輯睦	-12.0185
煽	-12.0185
沬	-12.0185
葛洪	-12.0185
踧	-12.0185
樓蘭	-12.0185
苾	-12.0185
駙馬都尉	-12.0185
上官桀	-12.0186
鍚	-12.0186
戡黎	-12.0186
璪	-12.0186
羊舌	-12.0186
漬	-12.0186
旴𣅿	-12.0187
平盧節度使	-12.0187
不共戴天	-12.0187
臾	-12.0187
糟	-12.0188
桀黠	-12.0188
股栗	-12.0188
劉黒闥	-12.0188
䧺	-12.0188
正名定罪	-12.0188
仰藥	-12.0189
新垣平	-12.0189
賀㧞勝	-12.0189
遊畋	-12.019
种師道	-12.019
郫	-12.019
匕首	-12.019
景延廣	-12.019
多爾濟	-12.019
帑藏	-12.0191
馘	-12.0191
耆舊	-12.0192
鹵簿	-12.0192
灑掃	-12.0192
攻圍	-12.0192
帥歩騎	-12.0192
同知樞宻院事	-12.0193
漢惠帝五年	-12.0193
曽公亮	-12.0193
耆老	-12.0193
掇	-12.0194
史彌遠	-12.0194
阿諛	-12.0194
逕	-12.0195
苫	-12.0195
被髪	-12.0195
善騎射	-12.0195
武王克商	-12.0196
亷耻	-12.0196
筩	-12.0198
斛律光	-12.0199
貪殘	-12.0199
四海之内	-12.0199
金大定	-12.0199
謁見	-12.02
哉直書	-12.02
禹錫	-12.0201
玉帶	-12.0202
濟陰	-12.0202
發兵討之	-12.0203
醫藥	-12.0204
郭藥師	-12.0204
區别	-12.0205
劉昫	-12.0206
大理卿	-12.0207
班超	-12.0207
鼙	-12.0208
楊沂中	-12.0208
武承嗣	-12.0209
獲麟	-12.021
鹽池	-12.021
權要	-12.021
劉守光	-12.0211
洋州	-12.0211
因名焉	-12.0212
李珏	-12.0212
壮士	-12.0212
貧富	-12.0213
堯佐	-12.0213
部郎中	-12.0215
隔絶	-12.0217
家貲	-12.0217
江湛	-12.0217
洛誥	-12.022
廢其主	-12.022
勉强	-12.0221
臨幸	-12.0221
文中子	-12.0222
敬兒	-12.0223
項梁	-12.0228
此綱目所以	-12.0229
交廣	-12.023
秋冬	-12.023
敕勒	-12.0231
向背	-12.0231
入覲	-12.0232
大譟	-12.0232
阿衡	-12.0232
都市	-12.0234
浮華	-12.0236
欺罔	-12.0236
未萌	-12.0241
李錡	-12.0241
扶持	-12.0242
子男	-12.0242
牛酒	-12.0242
載筆	-12.0244
何以言之	-12.0245
曲折	-12.0246
衰微	-12.0249
保䕶	-12.0251
注見秦莊襄王元年三川	-12.0251
天地之間	-12.0251
大鴻臚	-12.0251
田錫	-12.0253
姦謀	-12.0253
杜充	-12.0254
耀州	-12.0254
知開封府	-12.0256
所不容	-12.0256
鼎足	-12.0256
洮州	-12.0256
劉項	-12.0256
荆益	-12.0257
石渠	-12.0257
貽謀	-12.0258
覇先	-12.026
吕端	-12.0261
豈不深	-12.0262
乞伏	-12.0264
庶務	-12.0266
日夕	-12.0266
諫大夫	-12.0266
此層	-12.0267
所以然者	-12.0267
懲惡	-12.0267
烈侯	-12.0269
生男	-12.027
傅說	-12.0271
幾盡	-12.0271
一念之	-12.0274
雜説	-12.0278
劉秉	-12.0279
誣告	-12.028
来朝	-12.0282
槐里	-12.0284
久而不	-12.0284
書法若此	-12.0286
第八	-12.0288
小人之心	-12.0288
易牙	-12.0289
忠誠	-12.029
奔潰	-12.0292
㤗山	-12.0295
舉兵討	-12.0295
王重榮	-12.0297
問之對曰	-12.0297
金紫	-12.03
譙周	-12.0302
當如是	-12.0305
刋誤	-12.0305
財力	-12.0306
周宣王	-12.0308
杜威	-12.0313
稷契	-12.0313
横江	-12.0315
陳覺	-12.0316
對曰此	-12.0317
相距	-12.0318
信䜛	-12.0318
本傳作	-12.0319
伯玉	-12.0322
御營	-12.0324
入汴	-12.0324
舊恩	-12.0326
后臨朝	-12.0326
昭容	-12.0326
兖豫	-12.0334
之立也	-12.0334
侯卒子	-12.0336
在東宫	-12.0338
遊幸	-12.034
始末	-12.0343
馬歩	-12.0344
先王之道	-12.0344
不恊	-12.0345
奏乞	-12.0347
中二千石	-12.035
幸東都	-12.035
注見秦二世	-12.035
牧馬	-12.0351
立為太子	-12.0353
不可忘	-12.0354
汀	-12.0357
先驅	-12.0358
日暮	-12.0359
賦税	-12.0359
求援於	-12.0359
二千五百	-12.036
江南主	-12.0361
十八里	-12.0363
慎勿	-12.0364
形容	-12.0364
寺觀	-12.0365
粟帛	-12.0366
遁還	-12.0367
一寸	-12.0368
和林	-12.0372
先覺	-12.0378
郡名注見漢獻帝建安	-12.0385
冊命	-12.0385
災害	-12.0388
角反	-12.0389
奉佛	-12.0391
孰若	-12.0395
違衆	-12.0398
皆伏誅	-12.0399
叛降于	-12.04
助役	-12.0401
不能支	-12.0403
府治所仍屬焉	-12.0413
晉穆帝	-12.0415
老病	-12.0417
嵐	-12.0419
兵三千	-12.042
戎馬	-12.0423
晉因之	-12.0425
瓉曰	-12.0426
愈甚	-12.0428
乘車	-12.0431
隠居	-12.0432
輕敵	-12.0435
諡法	-12.0436
純臣	-12.0438
河内郡	-12.044
盛夏	-12.0442
既葬	-12.0464
保定府	-12.047
好賢	-12.0472
東夷國名	-12.0472
遑	-12.0479
任職	-12.048
夲漢	-12.048
孝恭	-12.0482
渦	-12.0488
未必不	-12.0492
索隱	-12.0498
鎮海	-12.0499
偏安	-12.05
早定	-12.0501
東海郡	-12.0506
高帝六年	-12.0507
顧問	-12.0508
[...]
