<unk>	0
<s>	0
</s>	0
/	-3.39349
(	-3.89508
)	-3.98336
)(	-4.17422
之	-4.27142
也	-4.73388
以	-4.99852
為	-5.0179
而	-5.06059
曰	-5.09661
有	-5.24303
於	-5.26885
其	-5.37684
不	-5.51435
者	-5.74962
人	-5.78173
見	-5.87498
無	-5.88722
王	-5.96269
子	-6.00787
言	-6.01731
則	-6.08528
中	-6.08812
一	-6.09139
大	-6.10473
上	-6.14674
與	-6.14771
自	-6.16779
在	-6.19081
云	-6.22645
時	-6.24164
天	-6.24805
山	-6.26789
傳	-6.27352
如	-6.27778
▁	-6.29331
行	-6.29816
故	-6.31682
三	-6.34307
此	-6.36876
至	-6.36899
所	-6.40067
書	-6.40323
生	-6.41179
是	-6.42456
公	-6.42842
乃	-6.42911
漢	-6.44021
文	-6.45155
謂	-6.45897
作	-6.46195
下	-6.46602
又	-6.48819
水	-6.48909
日	-6.53997
長	-6.55053
出	-6.55947
帝	-6.57467
兮	-6.57486
風	-6.57553
道	-6.57869
名	-6.59003
事	-6.59454
及	-6.59547
矣	-6.59964
相	-6.63098
心	-6.63317
將	-6.63487
若	-6.66802
國	-6.671
成	-6.68304
周	-6.69048
世	-6.70137
得	-6.70407
皆	-6.70574
後	-6.70786
明	-6.71219
東	-6.72434
使	-6.73263
入	-6.73787
方	-6.75217
城	-6.77646
詩	-6.77721
君	-6.78322
五	-6.78526
從	-6.78601
非	-6.78942
爲	-6.79109
二	-6.79204
同	-6.80162
我	-6.80461
南	-6.80746
乎	-6.81257
臣	-6.8321
今	-6.83317
思	-6.8341
神	-6.83591
雲	-6.84191
地	-6.8812
西	-6.88223
何	-6.88261
復	-6.88978
焉	-6.89171
令	-6.89398
平	-6.89476
未	-6.89537
金	-6.90758
齊	-6.91065
既	-6.91587
命	-6.92074
賦	-6.92192
陽	-6.92641
當	-6.92674
四	-6.9334
已	-6.94141
遂	-6.94173
石	-6.94285
可	-6.94448
年	-6.9455
于	-6.95185
歸	-6.955
多	-6.956
即	-6.96817
欲	-6.98648
用	-6.98858
北	-6.99304
徳	-6.99324
惟	-6.99505
馬	-7.00154
髙	-7.00253
門	-7.00847
亦	-7.01326
居	-7.01492
華	-7.0173
前	-7.02324
知	-7.03108
玉	-7.04132
正	-7.04739
晉	-7.05048
流	-7.05344
然	-7.05374
九	-7.05585
梁	-7.05942
本	-7.06443
禮	-7.06675
州	-7.0677
聞	-7.07802
樂	-7.07884
逺	-7.08492
秦	-7.0855
能	-7.0871
景	-7.09442
清	-7.09489
魏	-7.10414
始	-7.10543
望	-7.10815
高	-7.10928
光	-7.11304
經	-7.11648
來	-7.12512
重	-7.12636
去	-7.13176
或	-7.1336
還	-7.14128
龍	-7.14319
安	-7.14351
身	-7.15059
封	-7.16713
侯	-7.16908
常	-7.16926
飛	-7.16931
立	-7.16933
通	-7.17005
陵	-7.18656
氏	-7.18989
郡	-7.19338
六	-7.1934
家	-7.19344
信	-7.19349
稱	-7.19804
和	-7.20053
陳	-7.20125
武	-7.204
靈	-7.21086
朝	-7.21684
注	-7.21767
猶	-7.22652
因	-7.22879
先	-7.23348
士	-7.23373
月	-7.23653
情	-7.24122
樹	-7.24328
官	-7.24562
縣	-7.25093
聲	-7.25936
志	-7.26301
義	-7.26512
楚	-7.28325
實	-7.28548
字	-7.28828
白	-7.28962
死	-7.28998
氣	-7.29074
車	-7.29405
春	-7.29475
起	-7.29718
兵	-7.30061
德	-7.30788
小	-7.31202
分	-7.31673
河	-7.3192
謂之	-7.32414
等	-7.3253
夫	-7.32596
軍	-7.32775
物	-7.32997
發	-7.33809
一作	-7.34366
▁(	-7.3468
合	-7.34943
雖	-7.35695
諸	-7.36131
表	-7.36572
必	-7.37045
七	-7.373
張	-7.37496
初	-7.37817
集	-7.38122
測曰	-7.38709
吾	-7.39582
師	-7.39637
宫	-7.39641
江	-7.39646
元	-7.39671
民	-7.39682
終	-7.39901
法	-7.403
女	-7.41278
左傳	-7.41952
難	-7.42226
巳	-7.43121
辭	-7.4333
載	-7.4398
絶	-7.44289
異	-7.44548
盡	-7.44724
歌	-7.44727
節	-7.44875
定	-7.44883
臨	-7.45407
善	-7.45447
按	-7.46766
主	-7.46876
開	-7.474
都	-7.4765
音	-7.4779
好	-7.4788
應	-7.47941
食	-7.48213
酒	-7.48435
觀	-7.48569
黄	-7.4878
服	-7.4899
深	-7.49045
論	-7.49315
舉	-7.49736
林	-7.49914
過	-7.50038
青	-7.50102
夜	-7.50478
漢書	-7.5092
色	-7.51558
處	-7.52097
遊	-7.52118
永	-7.52191
百	-7.52292
内	-7.52366
學	-7.5306
問	-7.53126
星	-7.53217
反	-7.53305
哀	-7.53459
悲	-7.53723
父	-7.53938
夏	-7.54049
取	-7.5436
斯	-7.54405
路	-7.5449
獨	-7.54739
鳥	-7.54857
秋	-7.5487
廣	-7.55115
八	-7.5543
離	-7.5552
置	-7.55556
詳	-7.5586
意	-7.55956
守	-7.56197
且	-7.56235
登	-7.56408
受	-7.56586
親	-7.56735
彼	-7.57169
木	-7.5775
興	-7.58127
𤣥	-7.58243
乗	-7.58621
舊	-7.59057
别	-7.59712
易	-7.5982
衣	-7.59909
屬	-7.60249
數	-7.61088
天下	-7.61408
皇	-7.61445
外	-7.61732
代	-7.62195
太	-7.6254
耳	-7.62809
衆	-7.63385
趙	-7.63605
以為	-7.6362
圖	-7.63705
懐	-7.63748
古	-7.64012
伯	-7.64991
懷	-7.65221
空	-7.65307
動	-7.65512
降	-7.65715
萬	-7.65931
求	-7.65935
田	-7.67025
功	-7.67558
連	-7.67781
榮	-7.68157
不可	-7.6827
奉	-7.68374
燕	-7.68597
十	-7.68615
傷	-7.6868
更	-7.69113
亡	-7.69143
客	-7.69255
㑹	-7.69383
哉	-7.6954
土	-7.69789
鳴	-7.70463
新	-7.70478
卒	-7.70897
並	-7.71054
火	-7.71175
宗	-7.71933
紀	-7.71986
曲	-7.72057
足	-7.72268
寒	-7.72784
少	-7.72789
老	-7.72987
謝	-7.73137
孝	-7.73581
止	-7.73949
象	-7.74407
遷	-7.74536
草	-7.74561
史	-7.7463
遺	-7.75151
形	-7.75228
盛	-7.75455
治	-7.75484
度	-7.75656
傳曰	-7.75974
失	-7.76175
共	-7.76356
昔	-7.7636
左	-7.76459
尚	-7.76559
兩	-7.77338
首	-7.77669
政	-7.77782
感	-7.77832
變	-7.77939
亂	-7.78591
請	-7.79048
美	-7.79481
祖	-7.79639
結	-7.79654
位	-7.79944
直	-7.80027
爾	-7.80148
極	-7.80401
臺	-7.80768
體	-7.80793
隂	-7.80837
凡	-7.80849
海	-7.80874
賢	-7.81016
交	-7.8155
建	-7.8158
餘	-7.81721
宜	-7.81799
旣	-7.8205
聖	-7.82507
解	-7.8262
不能	-7.82662
進	-7.83092
窮	-7.83147
似	-7.83233
獻	-7.83387
引	-7.83855
宋	-7.83891
天子	-7.83926
章	-7.8441
良	-7.84424
豈	-7.84559
理	-7.84825
戰	-7.85284
拜	-7.85815
魚	-7.85923
被	-7.8604
坐	-7.86444
劉	-7.86488
鄭	-7.86646
昭	-7.86857
疾	-7.87776
語	-7.87893
記	-7.88006
精	-7.88071
室	-7.88265
詔	-7.88304
授	-7.8861
對	-7.88632
顧	-7.88759
母	-7.88908
將軍	-7.89021
右	-7.89275
遣	-7.89493
後漢	-7.89731
承	-7.90157
制	-7.9065
留	-7.91557
丹	-7.91608
浮	-7.91615
徒	-7.92119
垂	-7.92219
吳	-7.92472
武帝	-7.92634
莫	-7.92658
而不	-7.92807
竹	-7.92841
幽	-7.9302
號	-7.93044
微	-7.93141
願	-7.93146
仁	-7.93159
於是	-7.93424
素	-7.93494
間	-7.93625
銘	-7.93846
容	-7.93888
香	-7.94101
固	-7.94761
泉	-7.949
赤	-7.95144
俱	-7.95186
是以	-7.95336
勝	-7.95454
著	-7.95554
才	-7.95578
落	-7.95889
威	-7.96071
佛	-7.96424
俗	-7.96436
寧	-7.96525
視	-7.96527
貴	-7.96576
尚書	-7.96645
咸	-7.96715
加	-7.96832
愛	-7.96846
説	-7.97028
照	-7.97047
越	-7.9716
疑	-7.97322
利	-7.97348
丘	-7.97672
目	-7.97791
化	-7.97795
羣	-7.97892
宣	-7.97956
揚	-7.98409
魯	-7.98777
史記	-7.9878
君子	-7.98852
蘭	-7.99286
賜	-7.99351
序	-7.99568
府	-8.00032
孫	-8.00206
射	-8.00405
闗	-8.00414
近	-8.01391
隨	-8.01545
典	-8.01748
輕	-8.0179
野	-8.01954
憂	-8.02253
夷	-8.02303
致	-8.02494
期	-8.02499
御	-8.02612
真	-8.02957
往	-8.03437
千	-8.0376
朱	-8.04027
嵗	-8.04261
謀	-8.04286
祭	-8.04588
伏	-8.04813
庭	-8.0484
舞	-8.04873
執	-8.05018
葉	-8.05318
甚	-8.05443
崇	-8.05501
殿	-8.0578
濟	-8.05951
花	-8.05983
改	-8.0602
散	-8.06063
珠	-8.06081
羽	-8.06123
關	-8.06215
兹	-8.0645
便	-8.06522
轉	-8.06544
念	-8.06561
器	-8.06697
葢	-8.06965
邑	-8.07003
谷	-8.07057
次	-8.07285
比	-8.07427
人也	-8.07452
送	-8.07625
虎	-8.07701
藏	-8.07918
克	-8.08171
力	-8.08256
雄	-8.08454
頭	-8.08612
歲	-8.08615
原	-8.09098
列	-8.09232
任	-8.09467
貞	-8.0961
教	-8.09614
川	-8.09987
嘉	-8.1008
孤	-8.10245
司	-8.10314
久	-8.10768
李	-8.10894
含	-8.10926
闕	-8.11122
營	-8.11174
向	-8.11529
移	-8.11606
性	-8.11849
里	-8.11901
叔	-8.11909
雨	-8.11945
遇	-8.12069
所以	-8.12238
積	-8.12358
羅	-8.1236
廟	-8.12444
延	-8.12653
識	-8.12658
恩	-8.12969
尋	-8.13096
口	-8.13397
本傳	-8.13439
存	-8.1368
諸侯	-8.13856
儀	-8.13892
滅	-8.13953
質	-8.14108
就	-8.14744
蓋	-8.14847
仲	-8.14971
澤	-8.14976
嘗	-8.14984
者也	-8.15045
殷	-8.15325
池	-8.15438
余	-8.15478
碑	-8.15617
奏	-8.15646
具	-8.157
薄	-8.16074
手	-8.16231
指	-8.16565
驚	-8.17154
運	-8.17358
修	-8.174
尊	-8.17476
征	-8.17676
伐	-8.17863
駕	-8.18095
追	-8.18326
祀	-8.18395
鼎	-8.18491
是也	-8.19064
篇	-8.19086
業	-8.19284
虞	-8.1985
迎	-8.19982
除	-8.20088
波	-8.20096
勞	-8.20359
惡	-8.2046
奔	-8.20464
滿	-8.20704
類	-8.20815
露	-8.20877
仰	-8.21082
敬	-8.21185
各	-8.21247
芳	-8.21557
養	-8.21559
呉	-8.21725
園	-8.21997
不得	-8.22235
由	-8.22479
虚	-8.22515
黃	-8.22762
姓	-8.22786
昌	-8.22913
休	-8.22918
告	-8.23064
弟	-8.23139
塞	-8.23422
聽	-8.23621
敗	-8.23761
松	-8.23793
造	-8.23809
怨	-8.23884
惠	-8.23897
負	-8.23912
三年	-8.24145
衛	-8.24212
陸	-8.24535
堂	-8.25172
顯	-8.25179
飲	-8.25188
忠	-8.25278
達	-8.25301
殊	-8.25456
忽	-8.25642
賊	-8.25695
益	-8.25706
宿	-8.25816
雙	-8.25925
衡	-8.26004
詠	-8.26024
夫人	-8.26076
誰	-8.26168
誠	-8.26195
商	-8.26314
蜀	-8.26355
劒	-8.26436
冠	-8.26449
備	-8.26461
韓	-8.26569
玄	-8.26752
麗	-8.26757
考	-8.26818
孔	-8.26851
之所	-8.26931
后	-8.27
報	-8.27507
兼	-8.27525
靡	-8.27588
牛	-8.2771
仙	-8.28095
依	-8.28187
戎	-8.28237
角	-8.28264
市	-8.28294
說	-8.28715
漢書曰	-8.2883
種	-8.29548
季	-8.29561
殺	-8.29655
琴	-8.30224
元年	-8.3051
卿	-8.307
機	-8.31108
但	-8.31596
鄉	-8.31768
冬	-8.32077
許	-8.32333
納	-8.32521
鼓	-8.3258
来	-8.32603
宅	-8.32605
危	-8.32616
巻	-8.32651
淵	-8.32724
掌	-8.32771
太守	-8.33189
切	-8.33201
吏	-8.33442
持	-8.33464
病	-8.33634
紫	-8.33658
胡	-8.33846
太祖	-8.34083
啓	-8.34207
幸	-8.34216
傾	-8.34365
施	-8.3437
楊	-8.34415
見哀江	-8.34462
晋	-8.34504
南賦	-8.34519
攻	-8.34729
沙	-8.34791
周禮	-8.34855
洛	-8.34893
江陵	-8.35248
采	-8.35367
爵	-8.35382
徃	-8.35431
破	-8.35894
每	-8.35947
接	-8.3599
横	-8.36166
振	-8.36181
甲	-8.36224
泰	-8.36252
曹	-8.36297
沈	-8.36352
騎	-8.36363
懸	-8.36563
斷	-8.36836
寶	-8.36848
二年	-8.36916
所謂	-8.36953
将	-8.36955
又曰	-8.37101
推	-8.3712
寳	-8.37133
喜	-8.37198
之後	-8.37288
沉	-8.3747
太子	-8.37678
智	-8.37804
兄	-8.37902
贈	-8.38075
州刺史	-8.38172
塗	-8.38236
升	-8.3828
厥	-8.38281
盈	-8.38514
翼	-8.38628
苦	-8.3865
虛	-8.38743
𢎞	-8.3875
馳	-8.3876
樓	-8.38778
千里	-8.39028
要	-8.39144
或謂之	-8.39276
逢	-8.3945
懼	-8.39545
婦	-8.39575
息	-8.39618
夕	-8.39698
釋	-8.39702
憲	-8.39819
䇿	-8.39872
鎮	-8.40081
隆	-8.40371
恭	-8.40399
天地	-8.40424
予	-8.40766
率	-8.41064
顔	-8.41074
退	-8.41349
塵	-8.41397
歎	-8.41531
荆	-8.41596
歡	-8.418
畫	-8.4204
階	-8.42085
待	-8.42512
議	-8.42769
布	-8.42937
帶	-8.42941
舟	-8.43038
後漢書	-8.43082
雜	-8.43237
隱	-8.43249
彌	-8.43716
徴	-8.43789
設	-8.4379
端	-8.43792
烏	-8.43815
唐	-8.43973
棄	-8.44039
慶	-8.44321
徐	-8.44331
隠	-8.44511
禹	-8.4454
嚴	-8.44623
申	-8.44668
汝	-8.4488
妻	-8.45217
穆	-8.45289
步	-8.45296
英	-8.45326
部	-8.45382
并	-8.4543
族	-8.45553
豐	-8.46375
操	-8.46409
至於	-8.46453
竒	-8.46582
枝	-8.46601
郊	-8.47227
厯	-8.47231
鳳	-8.47289
頌	-8.47549
假	-8.47551
職	-8.47561
烈	-8.47644
讓	-8.47754
䝉	-8.47794
鏡	-8.47907
寄	-8.47987
獲	-8.48001
順	-8.48055
折	-8.4808
蕭	-8.48131
歴	-8.48463
辟	-8.48558
廢	-8.48674
律	-8.48768
據	-8.49136
户	-8.49164
融	-8.49377
南史	-8.49463
康	-8.49465
會	-8.49544
舍	-8.49615
末	-8.49713
邊	-8.49935
忘	-8.50048
管	-8.50053
震	-8.50392
抱	-8.50487
繁	-8.50844
伊	-8.50993
亭	-8.51157
博	-8.51223
晉書	-8.51228
參	-8.51248
飾	-8.51801
半	-8.51873
乘	-8.5188
聚	-8.52345
寜	-8.52382
召	-8.52631
暮	-8.52679
畢	-8.52801
喪	-8.52853
陰	-8.53005
注云	-8.53087
累	-8.53269
逐	-8.53271
鍾	-8.53496
權	-8.53737
投	-8.53952
衰	-8.54143
厚	-8.54273
長安	-8.54483
覆	-8.54721
没	-8.54777
刑	-8.55052
影	-8.55226
春秋	-8.55591
圍	-8.55637
維	-8.55691
履	-8.55734
肅	-8.55748
恐	-8.55927
果	-8.56089
壽	-8.5611
鳯	-8.56199
歩	-8.56451
慕	-8.56661
故云	-8.5688
可以	-8.56932
福	-8.57001
勤	-8.57102
詩云	-8.57343
茂	-8.57602
妙	-8.57627
閣	-8.58195
總	-8.58649
井	-8.5865
恨	-8.58654
或曰	-8.58798
鴻	-8.58974
増	-8.59026
違	-8.59052
撫	-8.59113
寵	-8.59186
爰	-8.59395
荒	-8.59585
蒼	-8.59616
保	-8.59686
恒	-8.60096
詩曰	-8.60102
阿	-8.60146
龜	-8.6047
書曰	-8.60547
嗟	-8.60561
策	-8.60644
計	-8.60834
罪	-8.60844
大夫	-8.60909
郭	-8.61064
牧	-8.61105
司馬	-8.61167
游	-8.61244
録	-8.61275
元帝	-8.6131
襲	-8.61588
甘	-8.61655
京	-8.61661
收	-8.6173
藥	-8.61767
葬	-8.61854
悉	-8.61891
房	-8.62064
根	-8.62078
大將軍	-8.6216
賔	-8.62179
軒	-8.62251
私	-8.6255
侍	-8.62577
柱	-8.62611
適	-8.62738
句	-8.62936
響	-8.63241
招	-8.63263
嗣	-8.6348
夢	-8.63562
璧	-8.63713
遠	-8.63799
之間	-8.63954
禽	-8.64161
羊	-8.64302
想	-8.64347
省	-8.64372
洛陽	-8.64555
附	-8.648
密	-8.64835
全	-8.64862
面	-8.64957
徵	-8.65251
答	-8.65455
丗	-8.65497
領	-8.65649
充	-8.65895
脩	-8.65923
愁	-8.66127
走	-8.66127
逝	-8.66337
超	-8.66381
戒	-8.66442
再	-8.66456
祠	-8.66465
杜	-8.66596
避	-8.66897
舜	-8.66947
雷	-8.66953
宴	-8.66974
廻	-8.66999
條	-8.67003
蒙	-8.67037
讀	-8.67396
崩	-8.67409
銜	-8.67598
禍	-8.67708
輔	-8.6772
霜	-8.67847
日月	-8.67887
須	-8.67906
雅	-8.67993
逆	-8.68039
洪	-8.68126
害	-8.68585
黄帝	-8.68618
託	-8.68684
弱	-8.6897
儉	-8.6903
墓	-8.69087
畧	-8.69189
耶	-8.69216
温	-8.6925
符	-8.69281
徙	-8.69751
栁	-8.69805
文帝	-8.69878
簡	-8.70029
傳云	-8.70082
桑	-8.70208
藻	-8.70267
秀	-8.70362
靜	-8.70375
侯景	-8.70545
鶴	-8.70585
習	-8.70752
祥	-8.70781
干	-8.71091
皇帝	-8.71289
宮	-8.71338
敢	-8.71343
迹	-8.71445
旗	-8.71466
盖	-8.71554
庶	-8.71738
舒	-8.71982
約	-8.72007
船	-8.7209
煙	-8.72116
戸	-8.72161
吉	-8.72471
特	-8.72565
唯	-8.72615
基	-8.72616
委	-8.72631
披	-8.72641
堯	-8.72646
辰	-8.72898
聖人	-8.73054
左氏傳曰	-8.73087
患	-8.73094
討	-8.73663
翔	-8.73807
乆	-8.73851
統	-8.73864
雪	-8.73905
庸	-8.74179
仍	-8.74287
匪	-8.74295
絃	-8.74311
朔	-8.74475
援	-8.74767
工	-8.74895
誅	-8.74935
岸	-8.74961
逰	-8.74967
友	-8.75358
資	-8.75465
匈奴	-8.75484
險	-8.75531
絲	-8.75572
孔子	-8.75644
儒	-8.75848
幾	-8.75959
源	-8.76079
略	-8.76151
毛	-8.764
晨	-8.76649
亮	-8.7671
凌	-8.7674
疏	-8.76997
屋	-8.77182
邪	-8.77332
銅	-8.77339
擊	-8.77666
壯	-8.77776
莊	-8.7782
席	-8.77929
十二	-8.7833
厲	-8.78454
社	-8.78517
覽	-8.78575
錢	-8.78583
旦	-8.78598
又云	-8.78831
吴	-8.78883
早	-8.79021
屈	-8.79076
魂	-8.79121
桂	-8.79134
雞	-8.79165
仕	-8.79298
鸞	-8.79708
竊	-8.7978
堅	-8.79805
配	-8.80084
喻	-8.80096
佐	-8.80343
回	-8.80432
逸	-8.80647
擬	-8.80734
兒	-8.80878
津	-8.80904
允	-8.81011
述	-8.81073
迴	-8.81117
司徒	-8.81243
慮	-8.81465
禪	-8.81496
趙王	-8.81542
支	-8.81549
輿	-8.8157
左右	-8.81599
蔡	-8.81647
周書	-8.81728
史記曰	-8.81771
界	-8.81916
疑作	-8.82046
察	-8.82228
夀	-8.82292
介	-8.82296
穀	-8.823
候	-8.82316
班	-8.82319
屯	-8.82362
不知	-8.82418
刻	-8.82443
爭	-8.83004
映	-8.83022
調	-8.83469
慙	-8.83599
盧	-8.83645
孟	-8.83762
宇	-8.83931
師古曰	-8.83977
臣聞	-8.84225
背	-8.84267
沒	-8.84275
築	-8.84479
訓	-8.84756
輪	-8.84815
館	-8.8499
吹	-8.8505
苑	-8.85098
五年	-8.85466
四年	-8.85621
陶	-8.86057
索	-8.86074
弓	-8.86086
翠	-8.86144
攸	-8.86173
姬	-8.86223
薦	-8.86256
先生	-8.86455
選	-8.86595
桓	-8.86766
潛	-8.86812
聴	-8.86878
拔	-8.8688
瓊	-8.86904
到	-8.86913
放	-8.8692
記曰	-8.87215
短	-8.8724
故曰	-8.87309
本傳云	-8.87365
急	-8.87393
寢	-8.87404
曜	-8.87472
畏	-8.87496
賞	-8.87517
歳	-8.87532
雍	-8.87654
橋	-8.87986
談	-8.88072
農	-8.88077
鬱	-8.88126
紛	-8.8813
冥	-8.88152
漸	-8.88157
凶	-8.88196
跡	-8.88206
兄弟	-8.8824
不敢	-8.88497
富	-8.88546
純	-8.88713
獸	-8.88717
軌	-8.88772
𦵏	-8.88812
遵	-8.88814
細	-8.88861
毎	-8.88898
勲	-8.89034
斬	-8.8916
岳	-8.89255
示	-8.89261
瞻	-8.89368
赴	-8.89515
增	-8.89519
㣲	-8.89549
禮記	-8.8962
郎	-8.90143
側	-8.90146
䘮	-8.90228
術	-8.90267
氷	-8.9027
杖	-8.904
笑	-8.90459
如此	-8.90479
撃	-8.90505
曰吾	-8.90563
扶	-8.90784
范	-8.90858
荷	-8.9093
怒	-8.91055
陣	-8.91398
禁	-8.91524
悼	-8.91539
於此	-8.91558
勢	-8.91776
而無	-8.91816
髙祖	-8.91844
侍中	-8.92098
衞	-8.92216
曠	-8.92246
遭	-8.92308
珍	-8.92323
丁	-8.9276
湯	-8.92766
枯	-8.92807
銀	-8.92847
賈	-8.92995
泥	-8.93011
劍	-8.93018
繼	-8.93465
蘇	-8.93492
遐	-8.93661
并序	-8.93832
啟	-8.93933
雉	-8.94396
帳	-8.94414
圓	-8.94442
莊子	-8.94758
血	-8.95182
渠	-8.95212
渡	-8.95653
壁	-8.95732
籍	-8.95804
貌	-8.95832
佩	-8.95881
辨	-8.95905
帷	-8.95915
尸	-8.96604
吟	-8.96611
錦	-8.96622
式	-8.96628
一名	-8.96851
子山	-8.96919
免	-8.96966
萬物	-8.97069
之事	-8.97368
翻	-8.97384
皮	-8.97393
淮	-8.97501
蕩	-8.97524
然後	-8.97669
豫	-8.97749
閑	-8.97938
燭	-8.97944
鼔	-8.98071
霧	-8.98074
愈	-8.98083
植	-8.98138
注曰	-8.98206
斗	-8.98404
躬	-8.98633
鬼	-8.9867
偏	-8.98767
莫不	-8.98773
乾	-8.98779
雁	-8.98803
境	-8.98826
賓	-8.98847
逹	-8.98873
防	-8.98881
後漢書曰	-8.99007
僧	-8.99146
裔	-8.99421
祗	-8.99617
曾	-8.99727
論語	-9.00094
中有	-9.00135
無所	-9.00203
不足	-9.00238
刺	-9.00288
辯	-9.00306
卜	-9.00346
綺	-9.00349
渚	-9.00379
慈	-9.00664
緑	-9.00833
盤	-9.00859
南陽	-9.01072
輒	-9.01135
途	-9.01165
拂	-9.01185
墨	-9.01219
辛	-9.01429
射賦	-9.0154
昏	-9.016
愚	-9.01713
霞	-9.01776
燒	-9.01787
掩	-9.01791
頓	-9.01806
痛	-9.01883
旁	-9.019
秉	-9.01926
童	-9.02329
耀	-9.02381
三月	-9.02398
妾	-9.02448
否	-9.02563
勿	-9.02575
柳	-9.026
贊	-9.02602
災	-9.0263
淚	-9.02654
巖	-9.02658
騰	-9.0268
凝	-9.0269
阻	-9.02697
江南	-9.0301
尺	-9.03106
量	-9.0316
遥	-9.03172
輝	-9.03192
規	-9.03402
弗	-9.03476
渭	-9.03603
講	-9.03605
校	-9.03827
鮮	-9.04023
雀	-9.04101
强	-9.04153
詞	-9.04184
齒	-9.04213
名曰	-9.04235
子曰	-9.04235
哭	-9.04295
湘	-9.04552
貧	-9.04837
巢	-9.04988
藩	-9.05027
蒲	-9.05045
踰	-9.05054
曽	-9.05081
衍	-9.05084
而後	-9.05169
傅	-9.05484
况	-9.05569
泣	-9.0558
鐘	-9.0558
鄰	-9.05677
戲	-9.05697
一首	-9.05723
務	-9.05795
紅	-9.05879
聊	-9.06064
文王	-9.06207
正月	-9.06394
見馬	-9.06477
盜	-9.06518
二十	-9.06624
寡	-9.06942
肉	-9.07411
奮	-9.07457
淫	-9.07458
墳	-9.07462
群	-9.0747
呼	-9.07493
卷	-9.07571
希	-9.07825
光武	-9.07898
寺	-9.0816
值	-9.08287
繞	-9.08332
賤	-9.08512
河南	-9.08676
炎	-9.08791
扇	-9.08844
偉	-9.0886
電	-9.08886
篤	-9.0893
旅	-9.08946
洲	-9.08976
宻	-9.08993
渭生曰	-9.09001
縱	-9.0902
最	-9.09057
骨	-9.0906
賀	-9.09083
桐	-9.09124
虜	-9.09124
筆	-9.09152
驅	-9.09534
冀	-9.09832
味	-9.09834
浦	-9.0984
嶺	-9.09848
壇	-9.0987
祚	-9.09883
兆	-9.09899
之以	-9.10339
薨	-9.1056
太尉	-9.10579
茍	-9.10705
獵	-9.10769
鐵	-9.10793
罷	-9.10803
賛	-9.10883
熊	-9.10896
盟	-9.11025
敦	-9.11034
之言	-9.11166
錯	-9.11475
司空	-9.11483
都督	-9.11512
謹	-9.11526
静	-9.11596
淑	-9.11603
享	-9.11613
禄	-9.11686
竟	-9.11965
勸	-9.12266
差	-9.12424
毁	-9.12437
預	-9.12488
弦	-9.12501
舎	-9.12916
覺	-9.13045
庾	-9.13054
占	-9.13109
鹿	-9.13199
裁	-9.13251
錫	-9.13291
暉	-9.13317
卧	-9.13322
財	-9.13335
襄	-9.13374
賦曰	-9.13523
自然	-9.14014
白馬	-9.14046
旋	-9.14051
詣	-9.14123
紹	-9.14154
揮	-9.14165
刀	-9.14182
不見	-9.14268
耕	-9.14311
不如	-9.14402
魏志	-9.14487
隴	-9.1481
聘	-9.14848
第	-9.14855
􁀙	-9.14883
屢	-9.15027
激	-9.15067
戴	-9.15107
誤	-9.1512
試	-9.15133
周公	-9.15149
瑞	-9.15217
霸	-9.15324
狀	-9.15751
繫	-9.15817
肆	-9.15862
峻	-9.15894
卑	-9.15898
膺	-9.15958
嘆	-9.1611
以下	-9.16399
宰	-9.16517
之不	-9.16622
頗	-9.16806
姑	-9.1683
㫖	-9.16868
棲	-9.16871
題	-9.16988
巴	-9.17133
四方	-9.17275
帥	-9.17314
六年	-9.17382
革	-9.17496
三十	-9.17524
厭	-9.1773
四時	-9.17938
之地	-9.18146
俯	-9.18636
洞	-9.18649
侵	-9.18672
邁	-9.18678
四海	-9.1922
䕶	-9.1945
柔	-9.19541
暴	-9.19569
湖	-9.19594
吐	-9.19614
何以	-9.19679
淮南子	-9.19953
明帝	-9.20069
廬	-9.20152
孰	-9.20162
山川	-9.20273
蛇	-9.20312
従	-9.20461
寛	-9.20503
乏	-9.20572
京師	-9.206
褒	-9.20668
貢	-9.20781
賦云	-9.20988
績	-9.20997
叅	-9.21317
芝	-9.21322
懿	-9.21337
慎	-9.21358
後周	-9.21398
穿	-9.21409
荀	-9.21418
決	-9.21436
補	-9.21478
隔	-9.21493
韻	-9.21503
武王	-9.21504
域	-9.21637
萬里	-9.21747
鄴	-9.21808
一人	-9.2191
之中	-9.221
矢	-9.22105
狄	-9.22259
譽	-9.22262
爽	-9.22328
杯	-9.22337
勇	-9.22363
澄	-9.22377
徑	-9.22394
東南	-9.22754
荆州	-9.22809
觸	-9.23192
潜	-9.233
摧	-9.23337
停	-9.23354
尤	-9.23359
徘徊	-9.23381
刺史	-9.23408
邦	-9.23438
聞之	-9.23468
皇后	-9.23602
品	-9.23846
此云	-9.23859
穴	-9.24083
也又	-9.24193
調曲	-9.24201
閒	-9.24213
育	-9.24225
馮	-9.24228
旌	-9.24262
雕	-9.24267
均	-9.24289
潤	-9.24302
逼	-9.24317
巧	-9.24327
單于	-9.24417
役	-9.24541
救	-9.24702
小人	-9.2479
對曰	-9.24968
續	-9.25133
乞	-9.2519
妄	-9.25261
敵	-9.2527
粲	-9.25275
墜	-9.25277
困	-9.25294
乖	-9.25297
暫	-9.25314
辱	-9.25686
戚	-9.26044
惜	-9.26117
茅	-9.26246
謙	-9.26265
採	-9.26266
蓬	-9.26266
貫	-9.26287
東海	-9.2631
崔	-9.26397
溪	-9.27001
彊	-9.27028
桃	-9.27126
牙	-9.27175
髮	-9.27176
邈	-9.27186
奚	-9.2719
幹	-9.27224
陷	-9.27226
牀	-9.27248
鑒	-9.2726
殘	-9.27264
高祖	-9.27355
百姓	-9.27398
杜預曰	-9.27466
老子	-9.2758
宣帝	-9.27602
導	-9.2763
倫	-9.27875
吕	-9.27881
展	-9.28131
播	-9.28152
漏	-9.28174
案	-9.28189
眉	-9.28194
愧	-9.28216
誕	-9.28225
冰	-9.28226
寂	-9.28237
助	-9.28239
競	-9.28244
蠶	-9.2825
鉤	-9.28269
公子	-9.28398
他	-9.2846
男	-9.28783
西北	-9.28876
恱	-9.29061
犯	-9.29185
倚	-9.29186
循	-9.29208
丞相	-9.29244
繩	-9.29296
悦	-9.2977
仙人	-9.29846
隋	-9.29986
冢	-9.30185
偃	-9.30208
灰	-9.30281
弔	-9.30287
擁	-9.30324
髪	-9.30328
號曰	-9.30359
見和	-9.30577
人之	-9.30669
燈	-9.30939
廟歌	-9.31046
勒	-9.31132
榖	-9.31184
溫	-9.31262
翰	-9.31314
怪	-9.31333
蔽	-9.31341
𬒳	-9.31387
鄭注云	-9.31395
涕	-9.31927
北史	-9.32123
僕	-9.32152
遲	-9.3223
俊	-9.32238
朗	-9.32246
效	-9.3228
尾	-9.32301
秩	-9.32328
恥	-9.32335
邉	-9.32345
傍	-9.32351
陛下	-9.32541
凉	-9.33088
見宗	-9.33109
監	-9.33158
徽	-9.33361
醜	-9.33365
足下	-9.33377
綠	-9.33418
渉	-9.33435
正義曰	-9.33516
嶽	-9.34123
單	-9.34271
鱗	-9.34372
優	-9.34396
敎	-9.34471
竭	-9.34473
專	-9.34499
錄	-9.34522
魏文帝	-9.34651
欽	-9.34663
頃	-9.34665
陸機	-9.34861
志曰	-9.35091
諱	-9.35172
今日	-9.35339
蓮	-9.35373
欣	-9.35382
臧	-9.35414
協	-9.35417
徹	-9.35426
誓	-9.35456
割	-9.35524
緒	-9.35531
弘	-9.35537
諫	-9.35539
熟	-9.35542
熈	-9.35542
提	-9.35556
箭	-9.35564
憑	-9.35575
縁	-9.35589
醉	-9.35594
樊	-9.35616
晏	-9.35694
其所	-9.35779
言其	-9.36005
以自	-9.36059
際	-9.36156
恵	-9.36351
是為	-9.3646
即位	-9.36495
格	-9.36569
淪	-9.36635
烟	-9.36665
藉	-9.36666
寸	-9.36887
不復	-9.37115
其後	-9.37184
之功	-9.37335
黎	-9.37475
西魏	-9.37487
齋	-9.37566
二首	-9.37615
責	-9.37643
昧	-9.3772
豪	-9.37766
之道	-9.37826
泰山	-9.37946
其一	-9.38137
字子	-9.38288
黑	-9.3864
黃帝	-9.38649
墮	-9.38811
枕	-9.38827
滋	-9.38865
鋒	-9.38885
羌	-9.389
説文曰	-9.39053
仲尼	-9.39408
矜	-9.39563
覩	-9.39706
寇	-9.39731
督	-9.39744
葛	-9.39822
毒	-9.39891
遁	-9.39891
愍	-9.39897
材	-9.39935
看	-9.39984
圭	-9.40004
巨	-9.4001
夭	-9.40014
丈	-9.40512
忌	-9.40808
之子	-9.40982
住	-9.41028
膏	-9.4103
鄧	-9.41034
溢	-9.41091
鑿	-9.41111
妖	-9.41114
叙	-9.41121
粟	-9.41146
趣	-9.41165
隋書	-9.41166
子孫	-9.41214
爾雅曰	-9.41564
受命	-9.4197
蕃	-9.422
嬰	-9.42242
棺	-9.42264
脫	-9.42278
之禮	-9.42337
炯曰	-9.42576
三公	-9.42671
為之	-9.43249
綸	-9.43318
摩	-9.43367
校尉	-9.43387
芬	-9.43388
灌	-9.43402
捨	-9.43403
奪	-9.43411
稍	-9.43432
頻	-9.43442
惑	-9.43445
争	-9.4345
衝	-9.4346
太傅	-9.43476
黙	-9.43484
淮南子曰	-9.43515
二月	-9.43833
佳	-9.44117
令㫖荅	-9.44155
淮南	-9.44322
袁	-9.44382
某	-9.44415
矯	-9.44446
契	-9.44454
稽	-9.44527
之情	-9.44546
韋	-9.44558
偽	-9.44561
普	-9.44562
麟	-9.44563
飄	-9.44591
三日	-9.44596
埋	-9.44611
夾	-9.44619
驗	-9.44623
像	-9.44695
上有	-9.44742
歌曰	-9.44743
爾雅	-9.44969
月令	-9.44993
或問	-9.45297
譬	-9.45333
幼	-9.45509
如何	-9.45617
尹	-9.45666
匹	-9.45704
晝	-9.45706
給	-9.45767
壤	-9.45769
彦	-9.45774
觴	-9.45782
迷	-9.45813
坂	-9.45835
駭	-9.45875
郢	-9.45957
平原	-9.46035
而已	-9.46145
一曰	-9.46503
臯	-9.46763
倉	-9.46833
荅	-9.46841
閉	-9.46847
幕	-9.46875
環	-9.46922
消	-9.46922
裏	-9.46931
蟬	-9.46951
敷	-9.46971
缺	-9.46988
窺	-9.47005
中興	-9.47317
彰	-9.4748
國之	-9.47896
獄	-9.47978
妃	-9.48
百里	-9.48044
也次三	-9.48103
戈	-9.48117
翟	-9.48135
揺	-9.48136
黒	-9.48148
淺	-9.48168
蠻	-9.48187
包	-9.48208
裂	-9.4821
焚	-9.48212
京兆	-9.48234
叛	-9.48242
晩	-9.48243
潁川	-9.48269
淵明	-9.48558
明堂	-9.4881
哲	-9.4886
将軍	-9.48885
瑶	-9.49041
緯	-9.4907
昆	-9.49224
狐	-9.49257
也次七	-9.49315
也次八	-9.4932
也次六	-9.49322
鄙	-9.49326
也次五	-9.49327
也次四	-9.49334
也次二	-9.49339
匡	-9.49378
牲	-9.49413
却	-9.49413
拒	-9.49426
轡	-9.49436
低	-9.49445
闇	-9.49449
憶	-9.49452
社稷	-9.49458
栖	-9.49478
决	-9.49489
文武	-9.50153
眷	-9.50311
亦有	-9.50346
也按	-9.50468
百年	-9.50567
損	-9.50588
咎	-9.506
也上九	-9.50607
初一	-9.50633
楚辭	-9.50656
槐	-9.50664
敏	-9.50679
涼	-9.507
熙	-9.50705
悠悠	-9.50727
誄	-9.50737
涉	-9.50743
未詳按	-9.50828
腹	-9.50897
□(	-9.51053
之上	-9.51125
相如	-9.51531
竇	-9.5181
踐	-9.51864
絳	-9.5188
弄	-9.51916
斂	-9.5192
叢	-9.51949
珪	-9.51982
滯	-9.51986
胄	-9.52001
飢	-9.52026
裔碑	-9.52038
帝紀	-9.5235
二人	-9.52529
明月	-9.52602
然則	-9.5268
剛	-9.52848
己	-9.52868
印	-9.53089
抗	-9.53106
區	-9.53139
祈	-9.53152
赫	-9.53193
董	-9.53207
晚	-9.53255
奠	-9.53262
饗	-9.53265
訪	-9.53276
扵	-9.53331
風雲	-9.53631
汝南	-9.53755
曰此	-9.53967
未詳	-9.54033
晉書曰	-9.54099
公主	-9.54136
憐	-9.54368
濯	-9.54377
綱	-9.544
其中	-9.5441
那	-9.54448
抑	-9.54449
牽	-9.54485
㳺	-9.54497
煩	-9.54528
斜	-9.54544
玩	-9.5455
壘	-9.54566
姿	-9.54585
詎	-9.54594
者皆	-9.54636
𢎞農	-9.54676
者謂	-9.54708
東西	-9.55036
枚	-9.55289
東魏	-9.55289
況	-9.55655
隅	-9.55773
蟲	-9.55806
朕	-9.55809
綏	-9.5584
麥	-9.55874
平生	-9.55916
㑹稽	-9.55921
都尉	-9.55939
以來	-9.55947
段	-9.55951
峯	-9.55958
也言	-9.56111
一日	-9.56268
忍	-9.56397
見傷	-9.56428
㤗	-9.56693
網	-9.56921
羣臣	-9.56967
丞	-9.57045
韶	-9.57129
俟	-9.57156
借	-9.57172
爛	-9.57179
誦	-9.57182
冝	-9.57186
籠	-9.57188
卽	-9.57196
太史	-9.57211
座	-9.57218
竝	-9.57226
歛	-9.57235
慿	-9.57275
應劭曰	-9.57348
未有	-9.57627
知其	-9.57669
禮記曰	-9.58024
婦人	-9.58027
又有	-9.58042
西河	-9.58121
甫	-9.58313
見祀	-9.58386
鴈	-9.58419
彈	-9.58444
嗚呼哀哉	-9.5852
限	-9.58521
蹈	-9.58529
崖	-9.58536
鑄	-9.58542
虹	-9.58543
暢	-9.58554
屠	-9.58564
奴	-9.58565
裴	-9.58573
白日	-9.58598
神明	-9.5873
五十	-9.58898
者言	-9.59081
見司馬	-9.59124
七年	-9.59148
使人	-9.5917
五月	-9.59258
箴	-9.59258
楚辭曰	-9.59322
藝	-9.59326
南方	-9.59519
之間曰	-9.59685
審	-9.59694
猿	-9.59723
瑟	-9.59755
晦	-9.59765
見步陸	-9.59783
憤	-9.59846
天道	-9.59852
戮	-9.59861
舌	-9.59862
緣	-9.59863
酌	-9.59873
狂	-9.59888
速	-9.59895
庻	-9.59899
頴	-9.59908
攀	-9.59912
碧	-9.59913
枉	-9.59951
潘岳	-9.59951
父母	-9.60112
陳留	-9.60345
見擬	-9.60385
不及	-9.60554
名也	-9.60618
柱國	-9.60841
之間謂之	-9.60911
周易	-9.60951
人生	-9.61034
帛	-9.61157
屏	-9.61174
巾	-9.61201
五色	-9.61204
壺	-9.61228
副	-9.61238
饑	-9.61282
纂	-9.6129
纓	-9.61299
範	-9.61303
菩薩	-9.61306
底	-9.6132
逃	-9.61331
有餘	-9.61546
東方	-9.61694
悟	-9.62007
父子	-9.62535
皓	-9.62574
躍	-9.62596
俾	-9.62641
奇	-9.62651
誨	-9.62657
綬	-9.62661
牆	-9.62665
斧	-9.62671
生於	-9.6268
膠	-9.62691
陋	-9.62708
偶	-9.62717
賴	-9.62724
戀	-9.62728
䟽	-9.62743
宵	-9.62745
橫	-9.62754
文章	-9.62785
西域	-9.62867
其上	-9.62884
平陽	-9.62916
文選	-9.63137
豈不	-9.63248
宗廟	-9.63263
公卿	-9.63269
之時	-9.63604
古人	-9.63759
肇	-9.64009
貪	-9.64046
戍	-9.64113
陟	-9.64126
猷	-9.64137
儲	-9.64154
楚王	-9.64166
韜	-9.64182
𥘉	-9.64244
河陽	-9.64246
十五	-9.64258
桓公	-9.64266
汾	-9.64453
天之	-9.64463
供	-9.64577
弟子	-9.6469
穢	-9.64741
之日	-9.65153
倒	-9.65456
岑	-9.65461
慘	-9.65506
疎	-9.65526
祿	-9.65537
嫁	-9.65543
以爲	-9.65545
暗	-9.65548
歇	-9.65548
刃	-9.65562
卦	-9.65563
饒	-9.65565
豹	-9.65575
擒	-9.65583
㧞	-9.65592
瓜	-9.6561
觧	-9.6563
檀	-9.6563
豫章	-9.65677
寫	-9.657
公之	-9.65791
則有	-9.66183
裳	-9.66265
禹貢	-9.66429
時人	-9.66659
成都	-9.66753
用之	-9.66799
七十	-9.66841
儀同	-9.66901
製	-9.66961
悔	-9.66975
翳	-9.6698
皆有	-9.67002
犀	-9.67006
囘	-9.67023
趨	-9.67027
註	-9.67073
函	-9.67074
帝王世紀	-9.67142
䰟	-9.67157
岐	-9.67176
黄金	-9.67209
□	-9.67512
君之	-9.67605
以其	-9.67641
孟子	-9.6795
之名	-9.68041
公孫	-9.68076
之義	-9.68181
攝	-9.68182
山中	-9.68201
殺之	-9.68258
零	-9.68286
返	-9.68315
尉	-9.68375
淳	-9.68388
澗	-9.6844
暑	-9.68484
淹	-9.68502
湛	-9.6853
勁	-9.68531
束	-9.68534
讚	-9.68535
曉	-9.68565
𤓰	-9.68599
擢	-9.68613
泛	-9.68653
縣注	-9.68713
之士	-9.68764
棘	-9.68851
逮	-9.68857
前後	-9.68911
罔	-9.6896
大都督	-9.69154
法師	-9.69158
黨	-9.6934
足以	-9.69436
而去	-9.69525
僧辯	-9.69569
東北	-9.69591
胥	-9.69655
輸	-9.69814
渾	-9.69899
愆	-9.69901
弩	-9.69931
夙	-9.69932
柏	-9.69962
龍門	-9.69966
靖	-9.69974
洗	-9.69981
徂	-9.69981
慷慨	-9.69987
脂	-9.70021
潔	-9.70023
侃	-9.70029
洽	-9.70033
編	-9.70047
削	-9.70048
曰昔	-9.70049
恢	-9.7005
組	-9.70055
㓜	-9.7008
繡	-9.70088
冦	-9.70157
程	-9.7018
宇文	-9.7044
上下	-9.70472
東宫	-9.70594
禮樂	-9.70644
堪	-9.70739
之臣	-9.71114
諡	-9.71244
見齊王	-9.71258
霍	-9.71267
咸陽	-9.7134
慧	-9.71347
者不	-9.71431
遜	-9.71482
十里	-9.71492
羲	-9.71515
牢	-9.71519
苗	-9.71537
鄕	-9.71547
弊	-9.71563
層	-9.71575
閔	-9.71585
閨	-9.71593
椒	-9.71594
粉	-9.71609
梓	-9.71623
鳩	-9.71631
罕	-9.71649
可謂	-9.71713
遣使	-9.71848
若夫	-9.72281
使者	-9.72497
謁	-9.72655
織	-9.72827
曰我	-9.72829
朝廷	-9.73065
稷	-9.73066
隕	-9.73092
掾	-9.73092
樞	-9.73112
驂	-9.73133
廓	-9.73135
㝷	-9.73152
以此	-9.73159
謬	-9.73159
標	-9.73181
綿	-9.73221
扶風	-9.7347
之文	-9.73481
四十	-9.73504
必有	-9.73515
草木	-9.7373
山之	-9.73765
天下之	-9.73765
有一	-9.73825
圗	-9.73968
無不	-9.73973
隂陽	-9.7398
無以	-9.74084
宋玉	-9.74135
台	-9.74225
西南	-9.74272
産	-9.7431
沛	-9.74349
十六	-9.74434
讀法	-9.74453
河東	-9.74523
雍州	-9.74549
煥	-9.74566
憲碑	-9.74603
狼	-9.74614
咨	-9.74661
勃	-9.74727
乳	-9.74734
恃	-9.74746
甘泉	-9.74751
坎	-9.74758
蔡邕	-9.74758
冲	-9.74763
晞	-9.74767
芙蓉	-9.74769
巡	-9.74781
強	-9.74782
擇	-9.74788
濵	-9.74921
建安	-9.75286
以上	-9.75381
第一	-9.75429
故人	-9.75798
璽	-9.7587
項	-9.75942
古之	-9.7596
不相	-9.76084
匿	-9.7626
刋	-9.76293
圃	-9.76307
囊	-9.76349
世祖	-9.7638
飬	-9.76393
寔	-9.76396
染	-9.76398
相與	-9.76399
噐	-9.76406
逕	-9.76407
㝠	-9.76465
繫辭	-9.76478
十一月	-9.76493
中國	-9.76548
也漢書	-9.76714
周之	-9.76746
之下	-9.76962
乎曰	-9.77122
十年	-9.77212
滕	-9.77256
有三	-9.77351
梅	-9.77385
大司馬	-9.77391
王褒	-9.77618
疆	-9.77648
宛	-9.77719
濁	-9.77724
彭	-9.77727
冕	-9.77873
甞	-9.7788
莊子曰	-9.77917
姜	-9.77921
朋	-9.77928
頽	-9.77961
莖	-9.77965
㡬	-9.77973
艱	-9.77983
卓	-9.77988
吉凶	-9.77997
驥	-9.77999
沖	-9.78012
媚	-9.7802
鳳凰	-9.78047
不同	-9.783
米	-9.7842
長沙	-9.78504
武昌	-9.78696
上帝	-9.78738
北海	-9.78784
千載	-9.79055
見春	-9.79075
於時	-9.79151
雖復	-9.79195
曰夫	-9.79537
創	-9.79616
隣	-9.7962
榆	-9.79622
釣	-9.79638
薪	-9.79658
逈	-9.79749
廵	-9.79754
揚雄	-9.79823
世家	-9.79873
琴瑟	-9.79938
襄陽	-9.79954
巫	-9.80021
之月	-9.80029
名為	-9.80062
經曰	-9.80189
而死	-9.80288
洄曰	-9.80946
山有	-9.81168
二子	-9.81267
祐	-9.8132
促	-9.81324
出入	-9.81345
寐	-9.8135
豆	-9.81359
潭	-9.81359
唱	-9.81365
眼	-9.81381
貽	-9.81382
糧	-9.81386
滔	-9.81411
殞	-9.81418
儔	-9.81422
㓕	-9.81428
踈	-9.81429
顓頊	-9.81447
六月	-9.81556
也夫	-9.81604
博士	-9.81636
周禮曰	-9.82021
有大	-9.82036
歟	-9.82449
之心	-9.82532
益州	-9.82735
之國	-9.82777
之志	-9.82833
肥	-9.82946
祝	-9.82952
陪	-9.82959
収	-9.82986
鮑	-9.83006
圜丘	-9.8301
㦸	-9.83013
勅	-9.83026
擅	-9.83049
魄	-9.83052
囚	-9.83059
醫	-9.83072
檢	-9.83072
警	-9.83082
邵	-9.83092
暇	-9.83094
臻	-9.83105
懽	-9.83108
整	-9.83124
鬬	-9.83125
蕪	-9.83134
酬	-9.83141
襟	-9.83185
各有	-9.83186
也若	-9.83255
昭王	-9.8326
禦	-9.83376
也今	-9.83507
其文	-9.83584
童子	-9.83651
富貴	-9.83792
王室	-9.83965
不勝	-9.83977
山海經	-9.83999
言已	-9.84221
見其	-9.84343
千金	-9.84462
畿	-9.84677
詧	-9.84717
鵠	-9.84723
漫	-9.8474
之難	-9.84745
彫	-9.84784
勉	-9.84808
風雨	-9.84809
逞碑	-9.84817
熱	-9.84818
軀	-9.84821
腸	-9.84827
板	-9.84835
可得	-9.84859
賚	-9.8487
溺	-9.84887
殆	-9.84889
散騎常侍	-9.84891
挺	-9.84959
金石	-9.85013
樂府	-9.8519
陽氣	-9.8533
國公	-9.85344
太常	-9.85537
浮雲	-9.85593
輟	-9.85679
北方	-9.85684
有所	-9.85693
四月	-9.8582
王子	-9.85863
長史	-9.85989
之屬	-9.86223
梵	-9.8623
女子	-9.86251
莽	-9.86283
水經注	-9.86428
咏	-9.86514
綜	-9.86522
吝	-9.86541
美人	-9.86581
壑	-9.86596
恤	-9.86603
軫	-9.86612
畜	-9.86632
筵	-9.86633
麾	-9.86636
輅	-9.8664
藹	-9.86644
羈	-9.8665
呂	-9.86653
冡	-9.86656
陂	-9.86673
綵	-9.86712
圓丘	-9.86794
是時	-9.86833
五百	-9.87009
之徒	-9.8712
河橋	-9.87178
清風	-9.87296
夫子	-9.87502
而成	-9.87521
之氣	-9.87525
九州	-9.87761
武帝紀	-9.88374
括	-9.8838
怡	-9.8839
竈	-9.884
黜	-9.88406
冶	-9.88409
羨	-9.88413
殯	-9.88416
栢	-9.88426
迄	-9.88439
虧	-9.88441
疲	-9.88442
閭	-9.88445
別	-9.88451
濫	-9.88466
彪	-9.88468
減	-9.88486
司馬相如	-9.88524
撰	-9.88553
文學	-9.8881
得其	-9.88831
十三	-9.88897
仁義	-9.88906
不言	-9.88922
嵩	-9.89185
太平	-9.8922
有二	-9.8941
國語	-9.89447
常侍	-9.89469
黍	-9.89533
取其	-9.8974
之長	-9.89766
車騎	-9.89774
銘曰	-9.89795
遼東	-9.89911
慰	-9.90094
署	-9.90147
雌	-9.90198
練	-9.9023
僕射	-9.9024
溝	-9.90259
浪	-9.90264
徧	-9.90273
相見	-9.90275
突	-9.90276
成王	-9.90285
袖	-9.90287
其人	-9.90295
几	-9.90297
宦	-9.90309
南北	-9.90321
釁	-9.9033
䕃	-9.90334
眺	-9.90339
鏤	-9.90356
握	-9.90371
宗室	-9.90382
雖有	-9.90486
劉向	-9.90543
髻	-9.90547
園賦	-9.90723
廣陵	-9.9113
長子	-9.91161
五日	-9.91167
三百	-9.91226
流水	-9.91319
其二	-9.91488
是謂	-9.91514
郡公	-9.91603
菊	-9.9166
王僧辯	-9.91756
所在	-9.91794
主人	-9.91846
者謂之	-9.91919
而行	-9.91995
蟻	-9.92053
沐	-9.92135
局	-9.92149
冒	-9.92153
繁弨曰	-9.92153
輙	-9.92155
諧	-9.92156
宏	-9.9216
纎	-9.92161
鑠	-9.92164
廉	-9.92165
綴	-9.92169
項羽	-9.92209
隋志	-9.92221
吞	-9.92227
轂	-9.92227
旄	-9.9223
𦙍	-9.92238
馭	-9.92239
炳	-9.92252
柯	-9.92256
人皆	-9.9238
彭城	-9.92381
之山	-9.92425
韓信	-9.9248
逞	-9.92718
王者	-9.92819
二句	-9.92852
奄	-9.92868
蕭何	-9.92878
一旦	-9.92954
為大	-9.9307
秦王	-9.93083
七月	-9.93118
尚書曰	-9.93121
楚之	-9.9313
河内	-9.93341
衢	-9.93344
西京雜記	-9.93471
測	-9.93527
之内	-9.93567
無復	-9.93596
世之	-9.93607
南宫	-9.93732
上書	-9.93908
無相	-9.93974
馴	-9.94026
疇	-9.94035
混	-9.94062
戢	-9.94072
構	-9.94084
析	-9.94086
欺	-9.94088
裘	-9.9409
闥	-9.94095
斤	-9.94098
弼	-9.94108
闡	-9.94113
紂	-9.94113
禀	-9.94126
腰	-9.94128
鈞	-9.94138
欵	-9.9414
邱	-9.94147
參差	-9.94151
建鄴	-9.94153
茲	-9.9416
之師	-9.94168
功臣	-9.94168
賣	-9.94195
咏懐	-9.94212
賁	-9.94215
服之	-9.94288
陽縣	-9.94291
而巳	-9.944
王莽	-9.94455
之類	-9.94495
江淮	-9.94573
内史	-9.94589
大人	-9.94641
湑曰	-9.94671
猛	-9.94686
八年	-9.94964
倦	-9.95005
時有	-9.95042
語曰	-9.95372
蜀志	-9.95382
長城	-9.9562
化為	-9.95631
千年	-9.95776
曰臣	-9.95897
餐	-9.95933
之謂	-9.95957
拘	-9.95971
紆	-9.9598
買	-9.95986
赦	-9.96031
撝	-9.9604
曰今	-9.96047
該	-9.96053
汎	-9.96054
版	-9.96074
塟	-9.96117
翦	-9.96125
揚州	-9.96194
鬼神	-9.96314
建武	-9.96548
而為	-9.96552
沈約	-9.96755
十八	-9.96818
也故	-9.96818
出自	-9.96822
子之	-9.96841
水經注曰	-9.96854
五帝	-9.97149
八月	-9.97163
故以	-9.97172
齊王	-9.97193
寅	-9.97454
後魏	-9.97676
十月	-9.97803
駿	-9.97862
蹇	-9.97939
戾	-9.97978
笛	-9.97987
騷	-9.97988
見小	-9.97994
驕	-9.97999
汗	-9.98012
輩	-9.98012
娥	-9.98016
欒	-9.98026
駟	-9.98031
算	-9.98033
笙	-9.98039
羞	-9.98053
誥	-9.98056
帝曰	-9.98058
桀	-9.98058
乍	-9.98062
膽	-9.98063
羡	-9.98071
現	-9.98086
狹	-9.98087
而出	-9.98092
恪	-9.98096
濬	-9.98104
祇	-9.98116
闈	-9.98117
頼	-9.98148
既而	-9.98151
眇	-9.98154
排	-9.98157
歷	-9.98192
百餘	-9.98397
三州	-9.98417
視之	-9.98528
之法	-9.98529
之職	-9.98625
古今	-9.9863
百官	-9.98834
西方	-9.99026
安得	-9.99152
者以	-9.99393
郢州	-9.99767
此言	-9.99871
秘	-9.99904
妻子	-9.99907
犬	-10
隐	-10.0002
證	-10.0004
騁	-10.0005
藪	-10.0005
壊	-10.0007
譲	-10.0007
幣	-10.0008
垣	-10.0008
抽	-10.001
窓	-10.0011
亟	-10.0012
袂	-10.0012
世子	-10.0012
墟	-10.0012
縈	-10.0017
飈	-10.0021
銳	-10.0021
一篇	-10.0035
序曰	-10.0058
思歸	-10.0064
風塵	-10.0082
陽侯	-10.0087
與之	-10.0109
索隠曰	-10.0113
流星	-10.0123
地也	-10.0126
未嘗	-10.0128
不用	-10.0135
佳人	-10.0156
知之	-10.0158
之聲	-10.0171
六十	-10.0173
魏武	-10.0189
僚	-10.0193
大将軍	-10.0197
陛	-10.0198
萬國	-10.02
南山	-10.02
悵	-10.0206
潁	-10.0206
貳	-10.0208
其子	-10.0208
寉	-10.0211
𨽻	-10.0213
注見	-10.0213
栗	-10.0214
護	-10.0214
戊	-10.0214
冇	-10.0214
蒸	-10.0215
遽	-10.0215
王孫	-10.0215
捐	-10.0216
纔	-10.0216
遘	-10.0217
効	-10.0218
縣有	-10.0218
蕙	-10.022
詐	-10.0222
漂	-10.0223
蘆	-10.0224
艶	-10.0224
繇	-10.0225
寒暑	-10.0225
訟	-10.0226
太公	-10.0227
濱	-10.0228
明徹	-10.0244
國家	-10.0246
當時	-10.0257
徐州	-10.026
開府	-10.0266
九月	-10.0275
華隂	-10.03
不為	-10.0306
水出	-10.0309
不以	-10.032
秋風	-10.032
出於	-10.0324
三千	-10.0337
可知	-10.0339
通考	-10.035
卭	-10.035
秦晉	-10.0352
梁元帝	-10.0355
命之	-10.0355
非其	-10.0358
碩	-10.0359
河圖	-10.0371
梁書	-10.038
公侯	-10.0388
疏云	-10.0389
所作	-10.0389
其事	-10.0392
不食	-10.0406
旬	-10.0411
乙	-10.042
怖	-10.0422
矩	-10.0423
價	-10.0424
薛	-10.0425
費	-10.0426
霑	-10.0426
閶闔	-10.0427
讃	-10.0427
轅	-10.0428
専	-10.0428
填	-10.0428
緩	-10.0429
毀	-10.043
讎	-10.043
脱	-10.043
鹽	-10.043
賈誼	-10.0433
寂寞	-10.0434
萌	-10.0434
翁	-10.0434
曹植	-10.0435
迫	-10.0435
遙	-10.0436
鈎	-10.0439
峰	-10.0439
眞	-10.044
賔客	-10.0447
御史	-10.046
貞測曰	-10.0462
漢王	-10.0466
漢書地理志曰	-10.0485
李陵	-10.049
之美	-10.0528
沾	-10.0528
之戰	-10.0534
郭璞	-10.0544
由是	-10.0556
之術	-10.0578
從之	-10.0597
代郡	-10.0598
互	-10.0599
一朝	-10.0601
數十	-10.061
不忘	-10.0619
魏志曰	-10.062
州諸軍事	-10.0628
不過	-10.0629
榦	-10.063
員	-10.0636
焦	-10.0639
樽	-10.0642
纍	-10.0642
又諮	-10.0642
亢	-10.0643
圜	-10.0645
馥	-10.0645
敖	-10.0645
譙	-10.0646
裕	-10.0646
蹤	-10.0646
沃	-10.0647
棟	-10.0647
酉	-10.0648
亷	-10.0649
挾	-10.0649
倍	-10.065
翹	-10.0652
愴	-10.0654
冩	-10.0655
戯	-10.0655
俘	-10.0655
邯鄲	-10.0655
随	-10.0657
浴	-10.0658
甘露	-10.0658
仗	-10.0661
祭祀	-10.0674
建業	-10.068
有四	-10.0683
宫室	-10.0694
有司	-10.0697
者其	-10.0712
亦曰	-10.0717
海内	-10.0729
心賦	-10.0738
故名	-10.0743
之際	-10.0751
白雲	-10.077
是其	-10.0808
之神	-10.0822
古詩	-10.0837
驪	-10.0839
謨	-10.0854
匠	-10.0858
十一	-10.086
曷	-10.0861
梟	-10.0862
佇	-10.0864
鞭	-10.0866
殖	-10.0867
悽	-10.0869
丙	-10.0869
軒轅	-10.087
譏	-10.087
耆	-10.0871
甸	-10.0871
弑	-10.0873
嬴	-10.0874
茫茫	-10.0874
探	-10.0874
札	-10.0875
窟	-10.0876
敝	-10.0877
逾	-10.0878
滎陽	-10.0878
鵲	-10.0878
株	-10.0879
峽	-10.0879
檻	-10.0879
豫州	-10.0899
建康	-10.0901
蓋聞	-10.0935
崑崙	-10.0944
太師	-10.0949
山海經曰	-10.095
江東	-10.0952
是故	-10.0959
而自	-10.0959
汲	-10.096
雲臺	-10.0962
詔曰	-10.0962
不死	-10.1
第二	-10.1014
箕	-10.1024
行人	-10.1035
而未	-10.105
陜	-10.1057
齊侯	-10.1061
論曰	-10.1062
金陵	-10.1065
東方朔	-10.1073
子産	-10.1074
翕	-10.1079
許之	-10.1079
涇	-10.1084
漆	-10.1087
諒	-10.1089
阜	-10.1091
灾	-10.1091
寓	-10.1092
衿	-10.1095
慟	-10.1095
柴	-10.1095
琨	-10.1095
寤	-10.1096
禱	-10.1096
婉	-10.1098
潘	-10.1099
裝	-10.11
乂	-10.11
浸	-10.1101
姦	-10.1101
法苑珠林	-10.1102
企	-10.1104
塘	-10.1104
嶠	-10.1105
彩	-10.1105
鬭	-10.1105
囬	-10.1106
戰國䇿	-10.111
墻	-10.1111
碎	-10.1112
靖節	-10.1115
太康	-10.1119
庾信	-10.1125
世説	-10.1129
湘東王	-10.1136
地理志	-10.1143
有五	-10.1152
晉侯	-10.117
昔在	-10.1183
太清	-10.1191
東平	-10.1213
新野	-10.1219
子也	-10.1255
南郡	-10.1259
氏之	-10.1261
其先	-10.1284
博物志	-10.1286
城中	-10.1286
諸子	-10.1287
上將	-10.1288
庚	-10.1305
卒於	-10.1306
矦	-10.1308
邕	-10.1311
臥	-10.1317
鼻	-10.1317
之亂	-10.1319
䖍	-10.132
勑	-10.1323
繹	-10.1324
譜	-10.1324
狗	-10.1324
稀	-10.1325
凋	-10.1328
睦	-10.1328
捕	-10.1329
漳	-10.1329
弧	-10.133
函谷	-10.1331
禮也	-10.1331
柩	-10.1332
秦始皇	-10.1333
姚	-10.1334
臂	-10.1334
諷	-10.1334
嵇康	-10.1335
啼	-10.1335
字伯	-10.1335
諌	-10.1335
街	-10.1335
䧟	-10.1336
穆穆	-10.1338
白虎	-10.1339
之樂	-10.1339
銷	-10.134
泊	-10.1341
始皇	-10.1349
班固	-10.1351
廣武	-10.1358
山在	-10.136
宜陽	-10.1362
第三	-10.137
飲酒	-10.1371
中郎	-10.1372
未能	-10.1394
都賦	-10.1395
建德	-10.1399
皇夏	-10.14
嘯	-10.1406
而言	-10.1414
山河	-10.1427
江漢	-10.1441
漢地理志	-10.1452
未知	-10.1455
之意	-10.147
張華	-10.1476
梁武帝	-10.1482
今之	-10.1489
人事	-10.1491
子貢	-10.1495
又按	-10.1511
王母	-10.1513
琳	-10.1524
大同	-10.1526
之命	-10.1529
爾乃	-10.1536
一切	-10.1542
十六年	-10.1543
不然	-10.1546
七日	-10.1549
臭	-10.1554
閻	-10.1557
奥	-10.1558
劇	-10.156
迭	-10.1561
貨	-10.1561
俎	-10.1562
豕	-10.1562
慨	-10.1565
滌	-10.1568
掃	-10.1568
斛	-10.1569
皷	-10.1569
剖	-10.1569
旃	-10.1569
㸃	-10.157
以喻	-10.157
龔	-10.157
菱	-10.157
聼	-10.157
啇	-10.1571
楷	-10.1573
寃	-10.1573
鳯凰	-10.1574
昇	-10.1574
志云	-10.1574
郷	-10.1575
屈原	-10.1579
扶桑	-10.158
敕	-10.1581
寕	-10.1582
冀州	-10.1587
中軍	-10.1601
神農	-10.1604
唐虞	-10.1604
渡河	-10.1613
天監	-10.1628
丈夫	-10.1633
楚地	-10.1642
二州	-10.1662
諡曰	-10.1666
如是	-10.1667
少年	-10.1677
中山	-10.1681
殿下	-10.1694
進表	-10.1705
有此	-10.1711
之兵	-10.1722
張儀	-10.1728
朽	-10.1731
天官	-10.1734
齡	-10.1757
當作	-10.1769
后稷	-10.177
樂也	-10.1786
聰	-10.1786
而下	-10.1787
之則	-10.1795
聖人之	-10.1798
涓	-10.1799
之歌	-10.1799
轍	-10.1799
碑文	-10.1799
替	-10.1799
上林	-10.18
縮	-10.1802
擾	-10.1803
覿	-10.1804
皆以	-10.1807
亥	-10.1808
辜	-10.181
鳬	-10.1813
麻	-10.1813
楹	-10.1813
飯	-10.1814
搖	-10.1815
箱	-10.1815
悅	-10.1815
巷	-10.1816
膳	-10.1816
岡	-10.1816
礙	-10.1818
苞	-10.1819
奢	-10.182
阮	-10.1821
例	-10.1822
潮	-10.1824
冊	-10.1825
縱横	-10.1828
亳	-10.183
太后	-10.1832
易曰	-10.1846
吏民	-10.1853
杖賦	-10.1856
太原	-10.1859
隴西	-10.1868
文公	-10.1869
三輔黄圖曰	-10.1869
見崇	-10.1892
三輔	-10.1898
楚人	-10.1931
之制	-10.1937
在昔	-10.1959
十三年	-10.1969
肯	-10.1974
何為	-10.1976
之官	-10.1996
喬	-10.1997
者為	-10.1998
州郡	-10.2017
為一	-10.2019
以成	-10.2039
拊	-10.2044
庫	-10.2051
驃騎	-10.2051
尼	-10.2053
艾	-10.2056
王粲	-10.2056
攜	-10.2059
肩	-10.2059
罍	-10.2059
何時	-10.2061
完	-10.2062
鐸	-10.2062
綽	-10.2062
詭	-10.2063
旒	-10.2063
天地之	-10.2064
罰	-10.2065
挂	-10.2065
忝	-10.2065
而有	-10.2066
絡	-10.2067
竿	-10.2068
於天	-10.2068
本紀	-10.207
㫁	-10.2071
廼	-10.2071
紙	-10.2073
明年	-10.2074
快	-10.208
十日	-10.2087
漢武帝	-10.2096
何如	-10.2101
中大夫	-10.2101
肅肅	-10.2101
十二月	-10.2102
與王	-10.2104
茂陵	-10.2105
是非	-10.2108
左氏	-10.2109
鄭注	-10.211
所見	-10.2134
九年	-10.2144
離别	-10.2148
南風	-10.2149
世説曰	-10.2149
江夏	-10.2155
成帝	-10.2163
天帝	-10.217
家語	-10.2184
高帝	-10.219
也史記	-10.2203
郡守	-10.2209
髙帝	-10.2217
之理	-10.2225
為人	-10.223
見鄭	-10.2239
甲子	-10.2246
或云	-10.2246
永安	-10.2255
平陵	-10.2271
中原	-10.2277
若此	-10.2278
簡文	-10.2281
而還	-10.2288
􁁊	-10.229
潰	-10.2296
冉	-10.2298
絕	-10.2306
芒	-10.2308
顛	-10.2311
活	-10.2311
鬢	-10.2316
弋	-10.2316
坤	-10.2317
搆	-10.2318
扈	-10.232
䑓	-10.2321
神仙	-10.2321
孟康曰	-10.2321
譚	-10.2322
酷	-10.2323
蔚	-10.2324
叟	-10.2327
晝夜	-10.2328
桃花	-10.2328
諸葛	-10.2331
盪	-10.2331
武庫	-10.2333
主簿	-10.2333
蘇武	-10.2337
故稱	-10.2343
齊神武	-10.2344
世說	-10.2347
水中	-10.2348
郡有	-10.2348
何得	-10.2349
耿	-10.2357
答曰	-10.2381
以禮	-10.2384
漁陽	-10.24
曹公	-10.2403
伯夷	-10.2409
郎中	-10.241
之南	-10.241
不盡	-10.242
改為	-10.2421
長楊	-10.2422
之世	-10.2426
十二年	-10.2426
西京	-10.2428
曲禮	-10.2429
遼	-10.2429
十一年	-10.2455
其下	-10.2456
三事	-10.2461
終始	-10.2462
之始	-10.2462
黄河	-10.2467
措	-10.2472
寡人	-10.2473
遂以	-10.248
之徳	-10.2486
伊何	-10.2488
言之	-10.2491
乃作	-10.2512
從事	-10.2516
於東	-10.2518
號為	-10.2524
列子	-10.2526
華山	-10.2526
左傳晉	-10.2535
事君	-10.2536
臺城	-10.2536
居之	-10.2547
即是	-10.2548
慢	-10.2564
萊	-10.2565
齊人	-10.2565
兔	-10.2572
騫	-10.2573
虐	-10.2574
皎	-10.2575
蘋	-10.2577
虢	-10.2577
蜜	-10.2577
稼	-10.2577
倐忽	-10.2578
毗	-10.2578
徼	-10.2578
有道	-10.2579
檄	-10.2581
孚	-10.2581
㳟	-10.2581
渝	-10.2581
昴	-10.2582
掘	-10.2582
羇	-10.2583
生民	-10.2585
樵	-10.2585
畔	-10.2585
舘	-10.2585
琅邪	-10.2585
灑	-10.2586
瑯邪	-10.2588
臨淄	-10.2589
邸	-10.2589
豔	-10.259
搏	-10.259
漿	-10.2591
燧	-10.2591
大夏	-10.2591
跨	-10.2591
渤海	-10.2592
二千石	-10.2593
叩	-10.2594
昊天	-10.2594
君臣	-10.2595
其色	-10.2597
詳哀江南賦	-10.2599
慕容	-10.2602
之可	-10.2602
流涕	-10.2606
晋書	-10.2607
管仲	-10.2609
陰陽	-10.2613
張衡	-10.2616
沛公	-10.2621
出為	-10.2621
周室	-10.2626
祭之	-10.2628
三星	-10.2638
而生	-10.2652
也詳	-10.2654
説文	-10.2667
宫中	-10.2678
見勸	-10.2689
南郊	-10.269
所居	-10.2696
惟有	-10.2706
地名	-10.2707
亦云	-10.2709
哀樂	-10.2712
無名	-10.2712
萬年	-10.2717
相思	-10.2731
不可以	-10.2737
之門	-10.2737
孔子曰	-10.2738
王命	-10.2742
左氏傳	-10.2743
故能	-10.2753
宣王	-10.2755
聲聞	-10.2765
如來	-10.2765
景帝	-10.2767
風吹	-10.2777
嘆曰	-10.2794
儉碑	-10.2802
周太祖	-10.2804
羣公	-10.2805
諸將	-10.2824
在位	-10.2827
憚	-10.2841
軸	-10.2841
柄	-10.2845
恠	-10.2845
揖	-10.2845
眠	-10.2846
涌	-10.2848
棊	-10.2849
犧	-10.2849
龕	-10.285
醴	-10.285
彞	-10.285
跪	-10.285
沮	-10.285
瓦	-10.2851
誡	-10.2851
鉞	-10.2852
杞	-10.2852
覇	-10.2853
炭	-10.2854
阮籍	-10.2854
牒	-10.2856
馮翊	-10.2856
衮	-10.2856
飄颻	-10.2856
釵	-10.2856
誌	-10.2857
河洛	-10.2857
呈	-10.2858
喧	-10.2859
谿	-10.2861
袍	-10.2862
瑤	-10.2862
何所	-10.2873
至于	-10.2875
山名	-10.2878
率衆	-10.2891
五行	-10.2894
之君	-10.2898
布衣	-10.2908
之臺	-10.291
改曰	-10.2929
之末	-10.2938
歎息	-10.2942
古者	-10.2943
日月之	-10.2945
玉帛	-10.2951
三軍	-10.296
雲夢	-10.297
之重	-10.2973
文昌	-10.2984
門外	-10.2995
之精	-10.3008
髙陽	-10.3014
先王	-10.3016
之位	-10.3022
傷心	-10.3025
書云	-10.3036
雲氣	-10.3036
不至	-10.3052
陽郡	-10.3058
相國	-10.3065
其母	-10.3066
紀曰	-10.3071
河曲	-10.3074
午	-10.3082
九十	-10.3094
抵	-10.3098
稚	-10.3101
集中有	-10.3103
死者	-10.3105
毅	-10.3109
者必	-10.3114
有序	-10.3118
彤	-10.3121
之外	-10.3126
羙	-10.3127
崤	-10.3128
惆悵	-10.3129
劫	-10.313
係	-10.313
丸	-10.3131
膝	-10.3132
付	-10.3133
悴	-10.3133
疇昔	-10.3134
侈	-10.3134
悽愴	-10.3134
輯	-10.3134
伍	-10.3135
其言	-10.3135
稱其	-10.3135
溟	-10.3135
婚	-10.3135
捧	-10.3136
之處	-10.3138
鮑昭	-10.3138
曇	-10.3139
而爲	-10.3139
艦	-10.314
供養	-10.3141
不絶	-10.3142
雞鳴	-10.3149
孔融	-10.3154
欲以	-10.3159
屏風	-10.3165
衆生	-10.317
八十	-10.3179
變化	-10.3181
無窮	-10.3185
劭	-10.3187
其心	-10.3192
武功	-10.3193
陽城	-10.3194
孝武	-10.3194
不載	-10.3195
父老	-10.3197
仲禮	-10.3198
白帝	-10.3198
後周置	-10.3198
白露	-10.3201
延年	-10.3209
江左	-10.3209
逺近	-10.3214
三方	-10.3222
從此	-10.3224
非無	-10.3233
數百	-10.3236
望之	-10.3247
臨江	-10.3267
不出	-10.327
地理志曰	-10.3271
廣州	-10.3281
方澤	-10.3283
辭曰	-10.3288
死生	-10.3291
杜預	-10.3308
風俗	-10.331
字仲	-10.3313
不成	-10.3341
梁州	-10.3347
六國	-10.3351
三輔黄圖	-10.3355
所得	-10.3357
年號	-10.3363
得一	-10.3387
旱	-10.3391
僖	-10.3393
譯	-10.3395
穹	-10.3397
斾	-10.3404
䑕	-10.3406
無事	-10.3406
以致	-10.3406
繭	-10.3406
棠	-10.3407
祜	-10.3408
丑	-10.3408
澹	-10.3409
天人	-10.3411
餌	-10.3412
肝	-10.3412
踵	-10.3414
殁	-10.3414
宥	-10.3415
瀾	-10.3415
媿	-10.3415
蟄	-10.3415
荼	-10.3415
訖	-10.3415
熾	-10.3416
棗	-10.3418
妓	-10.3418
敞	-10.3419
祉	-10.342
粤	-10.3422
貝	-10.3423
渥	-10.3423
婆	-10.3424
岫	-10.3427
玊	-10.343
零落	-10.3434
曰君	-10.3436
之衆	-10.3437
潯陽	-10.3441
于謹	-10.3449
天命	-10.3451
霜露	-10.3456
王琳	-10.3463
永嘉	-10.3467
武陵	-10.3468
歸於	-10.3468
連珠	-10.3484
誰能	-10.3487
神仙傳曰	-10.3489
其名	-10.349
博物志曰	-10.3495
吕氏春秋	-10.3512
入朝	-10.3515
有九	-10.3522
天文	-10.3532
郡領	-10.3532
山陽	-10.3534
郭璞曰	-10.3538
以示	-10.354
不爲	-10.3556
其三	-10.3574
未及	-10.358
於周	-10.3596
三家	-10.3598
霄	-10.3605
不足以	-10.3623
往來	-10.3624
文舉	-10.3632
安可	-10.3633
子弟	-10.3635
晏子	-10.3637
以明	-10.3642
之遺	-10.3644
其功	-10.3654
並有	-10.3669
之大	-10.3679
誘	-10.3691
未央	-10.3692
奸	-10.3696
立為	-10.3697
翮	-10.3698
蛟	-10.3699
邇	-10.37
悠	-10.3701
竄	-10.3702
液	-10.3703
漠	-10.3704
釐	-10.3704
神仙傳	-10.3705
魁	-10.3705
駒	-10.3706
泄	-10.3706
兎	-10.3706
科	-10.3707
惻	-10.3707
闗中	-10.3707
牕	-10.3708
恬	-10.3708
牖	-10.3708
鞍	-10.3708
俠	-10.3708
筠	-10.3709
濳	-10.371
慚	-10.371
浩	-10.371
曰天	-10.371
泝	-10.3711
苟	-10.3711
簾	-10.3712
的	-10.3714
紐	-10.3714
跋	-10.3715
迥	-10.3715
旨	-10.3715
忿	-10.3717
只	-10.3718
干戈	-10.3719
蜂	-10.372
炤	-10.372
輦	-10.372
璣	-10.372
曹操	-10.3721
抱朴子	-10.3723
鄉里	-10.3724
頠	-10.3725
石室	-10.3727
明哲	-10.3732
男女	-10.3735
荆州刺史	-10.3738
中央	-10.3739
黎陽	-10.3741
來聘	-10.3744
日中	-10.3753
飲食	-10.3755
武帝時	-10.3756
皆為	-10.3757
其地	-10.3758
後漢郡國志	-10.376
白鶴	-10.3766
人間	-10.377
文子	-10.3775
天子之	-10.3786
丘陵	-10.3789
陽春	-10.3789
終不	-10.3798
於前	-10.3806
使持節	-10.3813
忠臣	-10.3813
之方	-10.3815
明明	-10.3816
以金	-10.3818
昔者	-10.3838
無常	-10.3839
之役	-10.3847
乎其	-10.3865
天和	-10.3868
世尊	-10.3877
一何	-10.3878
一巻	-10.388
下有	-10.3881
數千	-10.3893
韓子	-10.3898
是年	-10.3902
大將	-10.3904
西征	-10.3907
故鄉	-10.3908
人有	-10.3912
東齊	-10.3916
為政	-10.3916
百萬	-10.3925
成功	-10.3934
陳平	-10.3943
有疾	-10.3948
俄	-10.3953
隙	-10.3956
頂	-10.3956
南楚	-10.3958
郡國志	-10.396
其四	-10.3978
爾時	-10.3982
孺	-10.3985
正徳	-10.3987
舂	-10.399
於齊	-10.3991
廷	-10.3997
旂	-10.4
莒	-10.4
槃	-10.4
聳	-10.4002
顥	-10.4005
挹	-10.4005
婁	-10.4005
鷰	-10.4006
僑	-10.4006
幄	-10.4006
璞	-10.4007
聲音	-10.4007
簫	-10.4007
頑	-10.4007
妍	-10.4008
鼠	-10.4008
參軍	-10.4008
縹	-10.4009
罄	-10.401
靣	-10.401
躡	-10.401
萃	-10.401
丕	-10.4011
樸	-10.4011
縛	-10.4011
廊	-10.4012
弭	-10.4013
烽	-10.4013
揆	-10.4013
滑	-10.4014
藐	-10.4014
繒	-10.4014
韓詩外傳	-10.4015
氛	-10.4015
宇宙	-10.4015
其餘	-10.4016
障	-10.4017
詡	-10.4017
裾	-10.4018
郤	-10.4018
氐	-10.402
娶	-10.402
不受	-10.402
纒	-10.4021
薫	-10.4022
沼	-10.4024
鑾	-10.4026
者有	-10.4027
冷	-10.4028
蓮花	-10.4029
故事	-10.4031
神武	-10.4033
霸先	-10.4038
三人	-10.4043
乃命	-10.4043
毛傳曰	-10.4053
荘子	-10.4055
咸池	-10.4055
少府	-10.4063
從容	-10.4071
世界	-10.4071
字叔	-10.4074
狀如	-10.4106
道也	-10.4109
改封	-10.4109
一部	-10.4113
之宫	-10.4119
北齊	-10.4121
何必	-10.4129
笑曰	-10.4134
猶有	-10.4142
詔書	-10.4144
所能	-10.4152
之初	-10.4154
人不	-10.4154
詩序曰	-10.4155
之禍	-10.4156
雲中	-10.4158
三危	-10.4159
世間	-10.4167
衆人	-10.4172
流離	-10.4178
而復	-10.4184
了	-10.4193
疑即	-10.4195
西王母	-10.42
不歸	-10.4205
而能	-10.422
之才	-10.4221
語也	-10.423
穆公	-10.4236
為國	-10.4249
見長孫	-10.4254
河北	-10.4263
岱	-10.4282
九重	-10.43
之用	-10.4302
曰王	-10.4309
者乎	-10.4309
刹	-10.4312
巵	-10.4314
卯	-10.4315
匱	-10.4315
犢	-10.4315
者按	-10.4315
股肱	-10.4317
貂	-10.4317
謳	-10.432
杵	-10.432
摛	-10.4321
肴	-10.4321
曼	-10.4322
耽	-10.4323
稟	-10.4323
裹	-10.4323
疊	-10.4323
蔵	-10.4323
伎	-10.4324
蚩尤	-10.4324
淨	-10.4324
闢	-10.4324
甄	-10.4324
騖	-10.4324
不自	-10.4325
弁	-10.4326
鬻	-10.4326
罹	-10.4326
■	-10.4326
瘁	-10.4327
佚	-10.4327
汜	-10.4327
鳶	-10.4328
距	-10.4329
桞	-10.4329
倡	-10.4329
東觀漢記	-10.433
臯陶	-10.433
初學記	-10.4331
尅	-10.4332
祕	-10.4332
荆軻	-10.4333
恊	-10.4335
侣	-10.4336
遏	-10.4337
𢎞碑	-10.4338
親戚	-10.4338
鐘鼓	-10.434
雛	-10.4343
上黨	-10.4345
諸軍	-10.4348
豫州刺史	-10.4349
在長安	-10.4355
行臺	-10.4356
先帝	-10.4359
玉門	-10.436
賜姓	-10.4362
蘇秦	-10.4363
傳注	-10.437
海中	-10.4373
荆山	-10.438
相望	-10.4389
自古	-10.4389
之思	-10.4393
朝夕	-10.4395
流沙	-10.4399
王逸	-10.4404
西山	-10.4406
慶雲	-10.4407
南有	-10.442
無遺	-10.4429
法身	-10.4429
奈何	-10.4448
飛燕	-10.4454
昭陽	-10.4454
夫婦	-10.4457
禹貢曰	-10.446
二語	-10.4462
而歸	-10.4472
不悟	-10.4489
皇太子	-10.4493
所殺	-10.4496
縣南	-10.4496
郡國	-10.4498
乃以	-10.45
黄門	-10.45
六軍	-10.4507
總管	-10.4512
龍之	-10.4535
千餘	-10.4538
故謂之	-10.4542
縣東	-10.4559
加以	-10.4565
矣夫	-10.4567
謚	-10.4582
所都	-10.4582
不識	-10.4583
檀弓	-10.4585
列女傳	-10.4589
無方	-10.4597
大臣	-10.4599
容與	-10.4599
自此	-10.461
之所歌也	-10.4616
實有	-10.4617
五人	-10.462
陌	-10.4622
筮	-10.4623
如故	-10.4627
瑩	-10.4627
憎	-10.4627
其道	-10.4628
航	-10.4629
三代	-10.4633
三十六	-10.4633
諭	-10.4638
聿	-10.4641
侔	-10.4641
蠡	-10.4642
萍	-10.4643
茹	-10.4643
誣	-10.4643
軾	-10.4644
壞	-10.4644
橘	-10.4645
陀	-10.4645
誼	-10.4645
繳	-10.4645
臘	-10.4646
與子	-10.4647
訊	-10.4648
猥	-10.4648
究	-10.4648
昶	-10.4648
瑯琊	-10.4649
駐	-10.4649
截	-10.465
螭	-10.465
蕭條	-10.465
毘	-10.465
光禄大夫	-10.4651
椎	-10.4651
道士	-10.4651
蠲	-10.4651
較	-10.4651
彈琴	-10.4651
梧桐	-10.4652
毫	-10.4652
寗	-10.4652
冨	-10.4654
蒼梧	-10.4654
斥	-10.4655
拾	-10.4655
頌曰	-10.4655
自稱	-10.4655
讐	-10.4655
淡	-10.4655
敘	-10.4656
恣	-10.4658
華嚴經	-10.466
吳王	-10.4663
寥	-10.4664
言歸	-10.4666
○	-10.4667
食之	-10.4669
服䖍曰	-10.467
外戚	-10.4673
門下	-10.4674
湘東	-10.4676
城門	-10.4676
詩序	-10.4684
不動	-10.4685
受禪	-10.4686
進爵	-10.4686
民之	-10.4695
第五	-10.4702
之孫	-10.4703
壯士	-10.4703
一方	-10.4709
昭夏	-10.471
俄而	-10.4715
十萬	-10.4716
齊國	-10.472
五行志	-10.4722
其身	-10.4724
石頭	-10.4727
保定	-10.4729
竹林	-10.473
之至	-10.4733
海水	-10.4749
不肯	-10.4763
士卒	-10.4769
周書云	-10.477
無為	-10.4771
見步	-10.4774
不亦	-10.4778
廢帝	-10.4782
亦何	-10.4791
四首	-10.4792
不在	-10.4796
之數	-10.48
漁	-10.4813
於後	-10.4827
見紇干	-10.4833
諸侯之	-10.4847
自天	-10.4853
即日	-10.4859
二千	-10.4863
所獲	-10.4868
學者	-10.4882
或以	-10.4883
周文	-10.4888
歎曰	-10.4894
賦序	-10.4894
南征	-10.4896
日暮	-10.4897
郡縣	-10.4901
之書	-10.4908
之辭	-10.491
八風	-10.4915
一州	-10.4917
也左傳	-10.4922
若水	-10.4926
國有	-10.4927
之盛	-10.4937
太山	-10.4938
為丞相	-10.4939
十九	-10.4941
儀同三司	-10.4943
桂陽	-10.4943
非所	-10.4945
豎	-10.4947
而弗	-10.4948
之作	-10.495
帝堯	-10.495
自闗而東	-10.4954
屑	-10.4959
舍人	-10.4962
汁	-10.4967
自是	-10.4968
為君	-10.4968
持節	-10.4969
剋	-10.497
道路	-10.4971
廷尉	-10.4971
卵	-10.4972
蚌	-10.4972
鞠	-10.4973
鵬	-10.4974
仇	-10.4974
郊特牲	-10.4974
怠	-10.4975
鈴	-10.4975
隊	-10.4975
瀆	-10.4976
嫌	-10.4976
盗	-10.4976
偕	-10.4976
藴	-10.4977
祁	-10.4977
酋	-10.4978
闔	-10.4978
沸	-10.4979
閎	-10.498
亞	-10.498
葩	-10.498
北門	-10.4981
舄	-10.4981
如淳曰	-10.4982
堰	-10.4982
五經	-10.4982
黔	-10.4983
珥	-10.4983
芻	-10.4983
簮	-10.4984
酸	-10.4984
贍	-10.4985
剪	-10.4985
人多	-10.4986
董卓	-10.4987
霍去病	-10.4987
笳	-10.4987
儻	-10.4987
樹榖曰	-10.4988
衘	-10.4989
龎	-10.4989
驛	-10.499
太乙	-10.499
讌	-10.4991
氓	-10.4991
上谷	-10.4991
竦	-10.4991
梁簡文帝	-10.4993
樓船	-10.4998
夙夜	-10.4998
物之	-10.5
入洛	-10.5005
逸民	-10.5006
周易曰	-10.5014
太廟	-10.502
邦國	-10.5024
雁門	-10.5026
見竹	-10.503
令人	-10.5032
無疆	-10.5034
大道	-10.5038
此爲	-10.5039
漢中	-10.5046
二十八	-10.505
朔方	-10.505
大行	-10.5053
后土	-10.506
為梁	-10.5065
生之	-10.5069
漢武	-10.507
也聲	-10.5071
張良	-10.5072
于天	-10.5082
數萬	-10.5083
二方	-10.5086
帝即位	-10.5093
不宜	-10.5093
見象	-10.5094
之恩	-10.5095
也漢書曰	-10.5105
之音	-10.5108
之北	-10.5112
之利	-10.5116
未得	-10.5116
至此	-10.5118
兵法	-10.5119
中書	-10.5126
官屬	-10.5132
所生	-10.5135
時也	-10.5139
◍(	-10.514
莫能	-10.5144
曰子	-10.5148
二家	-10.5152
豈非	-10.5157
東門	-10.5158
天柱	-10.5158
不忍	-10.5164
或有	-10.5165
北郊	-10.5165
冬至	-10.517
不容	-10.5171
不顧	-10.5173
非一	-10.5178
長平	-10.5184
帝為	-10.5187
其形	-10.5191
曰大	-10.5199
玉樹	-10.5208
而作	-10.5212
見上	-10.522
伐齊	-10.5223
晉陽	-10.5238
之符	-10.5239
山東	-10.5242
長生	-10.5245
若有	-10.5255
入於	-10.5256
飛鳥	-10.5265
何言	-10.5268
大如	-10.5269
謡	-10.5272
關中	-10.5276
天官書	-10.5276
當有	-10.5281
置酒	-10.5281
不求	-10.5283
江表	-10.5285
奕	-10.5293
之野	-10.5297
又諮若	-10.5301
改元	-10.5306
軍中	-10.5306
盥	-10.5312
嗜	-10.5313
兖	-10.5315
翅	-10.5316
稽首	-10.5316
鮮卑	-10.5317
矛	-10.5319
幷	-10.532
催	-10.5321
逍遥	-10.5321
紘	-10.5321
穆天子傳	-10.5322
嘲	-10.5322
開國	-10.5322
殄	-10.5322
鄒	-10.5323
浚	-10.5324
粧	-10.5324
淇	-10.5324
驟	-10.5325
梨	-10.5325
拱	-10.5325
囿	-10.5325
渴	-10.5325
迅	-10.5325
燿	-10.5326
薰	-10.5326
魏地形志	-10.5326
汪	-10.5326
稻	-10.5327
濡	-10.5327
胸	-10.5327
夔	-10.5328
謗	-10.5329
諸葛亮	-10.5329
奐	-10.5329
躑躅	-10.5329
演	-10.5329
印綬	-10.5329
閤	-10.533
巍巍	-10.533
睿	-10.5331
級	-10.5331
匝	-10.5331
燎	-10.5333
張衡西京賦	-10.5333
縷	-10.5333
燔	-10.5334
娯	-10.5335
柰何	-10.5335
蓬萊	-10.5336
之别名	-10.5336
薇	-10.5336
少昊	-10.5338
淹留	-10.534
慨然	-10.5341
寺碑	-10.5342
珮	-10.5343
都䕶	-10.5348
森	-10.535
時年	-10.5351
翼翼	-10.5351
青帝	-10.5352
賓客	-10.5358
渡江	-10.5359
二部	-10.5366
孤竹	-10.5371
終日	-10.538
衛青	-10.5381
下文	-10.5383
江海	-10.5397
不欲	-10.54
𢎞正	-10.54
而立	-10.54
武川	-10.54
高歡	-10.5401
若木	-10.5407
沙門	-10.541
集中	-10.5416
帝紀曰	-10.5416
古文	-10.5419
光明	-10.5421
▁洄曰	-10.5422
曰秦	-10.5434
當是	-10.5437
自序	-10.5448
有功	-10.5454
字文	-10.5459
▁湑曰	-10.5461
也或曰	-10.5462
無聞	-10.5469
非常	-10.5472
山林	-10.5478
公以	-10.548
則無	-10.55
樹下	-10.55
鍾山	-10.5502
自得	-10.551
當世	-10.5512
西伯	-10.5513
玉女	-10.5532
八百	-10.5544
豳	-10.5546
無異	-10.5548
山谷	-10.5553
而得	-10.5554
明日	-10.5557
聞其	-10.5567
其五	-10.5569
王曰	-10.5571
其次	-10.5574
明徳	-10.5575
有命	-10.5578
建國	-10.558
樂之	-10.5592
樹賦	-10.56
石崇	-10.56
何處	-10.5604
即以	-10.5605
降神	-10.5608
呉王	-10.5609
姓名	-10.5628
華陽國志	-10.5633
求之	-10.5638
日夜	-10.564
詘	-10.5644
十七年	-10.5648
矣又	-10.5659
不通	-10.5662
鞅	-10.5662
恂	-10.5664
菩提	-10.5665
塲	-10.5666
翩翩	-10.5669
訦	-10.5674
塔	-10.5674
飽	-10.5674
晷	-10.5675
滛	-10.5675
苔	-10.5678
咽	-10.5678
傑	-10.5678
梧	-10.5678
覧	-10.5679
新安	-10.5679
胎	-10.5679
若乃	-10.568
㕘	-10.5681
磬	-10.5682
劾	-10.5683
鄂	-10.5683
鑣	-10.5683
厄	-10.5683
灼	-10.5684
鴟	-10.5686
鷹	-10.5686
繆	-10.5686
侍御史	-10.5687
斃	-10.5687
兇	-10.5687
隄	-10.5687
托	-10.5687
交阯	-10.5688
爼	-10.5689
紈	-10.5689
村	-10.5689
大小	-10.569
田單	-10.569
虵	-10.569
盎	-10.5691
杏	-10.5692
弃	-10.5693
墖	-10.5693
𨳩	-10.5693
楊僕	-10.5693
羲和	-10.5693
庇	-10.5695
妝	-10.5695
鄧禹	-10.5696
中郎將	-10.5696
渇	-10.5696
肩吾	-10.5697
𤣥圃	-10.5699
俯仰	-10.57
曖	-10.5702
取之	-10.5709
星辰	-10.5714
孔傳曰	-10.5718
以象	-10.5722
海岱	-10.5723
𤣥武	-10.5724
孝經	-10.5731
况復	-10.5735
黄鍾	-10.5736
承聖	-10.5737
說文曰	-10.5738
衣冠	-10.5738
臨川	-10.5739
公曰	-10.574
顔色	-10.574
以聞	-10.5745
名山	-10.5745
北辰	-10.5747
李廣	-10.5748
之政	-10.5749
悲風	-10.5751
諸軍事	-10.5759
千秋	-10.5762
襄公	-10.5769
炎帝	-10.5771
别離	-10.579
北闕	-10.5792
好學	-10.5792
見枯	-10.5797
不朽	-10.58
問之	-10.58
不解	-10.58
西京雜記曰	-10.5805
及其	-10.5811
金谷	-10.5814
魏王	-10.5817
府君	-10.5823
周官	-10.583
左傳昭	-10.584
明珠	-10.5843
卿士	-10.5844
盛徳	-10.5845
處士	-10.5852
失其	-10.586
僉	-10.5863
多少	-10.5867
不堪	-10.5871
萬騎	-10.5871
中心	-10.5875
月令曰	-10.5879
地理	-10.5879
秦川	-10.5882
清河	-10.589
吾子	-10.5892
得之	-10.5901
之任	-10.5905
字元	-10.5905
明鏡	-10.5906
同心	-10.5909
左傳曰	-10.5914
長樂	-10.5915
東都	-10.5922
永平	-10.5923
十餘年	-10.5929
行雲	-10.5932
者非	-10.5934
之詩	-10.5938
起於	-10.5939
吕氏春秋曰	-10.5941
𦵏於	-10.5949
在於	-10.5954
日出	-10.5966
人所	-10.5971
神光	-10.5973
六龍	-10.5974
從軍	-10.5977
靈之	-10.5981
二十四	-10.5983
河間	-10.5987
何謂	-10.599
白石	-10.5997
十五年	-10.6003
漢興	-10.6004
可觀	-10.6005
再拜	-10.6011
睟	-10.6011
雲雨	-10.6013
語見	-10.6019
其妻	-10.6021
封禪	-10.6022
郊祀	-10.6022
明德	-10.6026
以待	-10.6032
攘	-10.6036
箋	-10.6039
糓	-10.604
楚國	-10.604
無益	-10.6044
鴛鴦	-10.6044
娛	-10.6045
葵	-10.6046
王啓	-10.6049
此人	-10.6049
孝子	-10.6049
苖	-10.605
韋昭曰	-10.6051
酸棗	-10.6051
曩	-10.6051
篆	-10.6051
潦	-10.6051
邾	-10.6052
嚮	-10.6053
叡	-10.6053
阪	-10.6053
刼	-10.6053
曹子建	-10.6053
西陵	-10.6053
瞽	-10.6054
楯	-10.6054
壹	-10.6054
翊	-10.6055
亊	-10.6055
鎭	-10.6056
姒	-10.6057
遯	-10.6057
酣	-10.6057
愷	-10.6057
沿	-10.6058
捜	-10.6058
琛	-10.6058
䧺	-10.6059
逌	-10.6059
蕤	-10.6059
畤	-10.6061
儼	-10.6062
陸賈	-10.6062
斑	-10.6062
長者	-10.6062
廹	-10.6062
冐	-10.6063
鷁	-10.6064
滄海	-10.6065
笋	-10.6067
鄭𤣥	-10.607
將以	-10.6075
織女	-10.6075
宋均曰	-10.6075
杜注云	-10.6076
拾遺記	-10.6079
堯典	-10.6082
之遂	-10.6083
依依	-10.6084
令尹	-10.6086
孫權	-10.6087
幽州	-10.6087
紫微	-10.6091
戰於	-10.6093
萬邦	-10.6094
梁朝	-10.6096
欽明	-10.6101
之能	-10.6101
賢者	-10.6102
君子之	-10.6103
抱樸子曰	-10.6105
觀之	-10.6105
射之	-10.611
宗伯	-10.6111
耳目	-10.6119
止於	-10.6123
豈直	-10.6124
之先	-10.6129
續漢書	-10.6131
食邑	-10.6133
司寇	-10.6148
入闗	-10.6153
丈人	-10.6158
縣西	-10.6162
其年	-10.6174
積石	-10.618
北斗	-10.6186
北地	-10.6186
奉和	-10.6196
後人	-10.6197
萬民	-10.62
正直	-10.6201
之族	-10.6204
豈可	-10.6209
之威	-10.621
武子	-10.6212
未至	-10.6214
之餘	-10.6218
長松	-10.6218
榮華	-10.622
門人	-10.6229
尚書令	-10.6231
弱水	-10.6234
其神	-10.6236
青州	-10.6243
衣裳	-10.6245
元戎	-10.6253
十有二	-10.6258
自謂	-10.6258
狩	-10.626
六合	-10.6263
中流	-10.6264
之廟	-10.6264
木為	-10.6276
三川	-10.6276
也左氏傳曰	-10.6293
秦州	-10.6297
作此	-10.6298
青雲	-10.6298
以備	-10.6306
後世	-10.6308
酒泉	-10.6308
南海	-10.6309
天王	-10.6309
睢	-10.6315
貴賤	-10.6316
政事	-10.6317
襃	-10.6318
以公	-10.633
水火	-10.6342
黄龍	-10.6342
如玉	-10.6347
不免	-10.6364
之德	-10.6372
朝陽	-10.6373
序云	-10.6377
又以	-10.638
長夜	-10.6383
賢人	-10.6384
之性	-10.6384
高陽	-10.639
遂成	-10.639
山下	-10.6395
系	-10.6396
挽	-10.6399
入海	-10.6401
文也	-10.6402
老子曰	-10.6404
入秦	-10.641
其國	-10.6414
媯	-10.6416
王序	-10.6417
禘	-10.6417
魅	-10.6419
廣漢	-10.6423
粹	-10.6426
涸	-10.6426
自闗而西謂之	-10.6426
簿	-10.6427
伺	-10.6428
蛾	-10.6428
畝	-10.6431
婢	-10.6431
衷	-10.6432
嶮	-10.6432
嗚呼	-10.6432
拭	-10.6433
菜	-10.6433
愉	-10.6434
槩	-10.6435
褐	-10.6435
骨肉	-10.6435
撓	-10.6436
骸	-10.6436
諾	-10.6436
謐	-10.6436
酈	-10.6437
郁	-10.6437
逵	-10.6437
舅	-10.6437
鐡	-10.6438
穉	-10.6438
揖讓	-10.6438
煮	-10.6438
㸔	-10.6439
畆	-10.6439
堯舜	-10.6439
縣侯	-10.644
僅	-10.644
靑	-10.644
見賀婁	-10.644
稜	-10.644
讒	-10.6441
片	-10.6442
璋	-10.6442
颷	-10.6442
琰	-10.6443
天和元年	-10.6443
洪範	-10.6443
同州	-10.6443
届	-10.6443
鶉	-10.6443
須臾	-10.6444
州總管	-10.6444
帙	-10.6444
松柏	-10.6444
挫	-10.6445
括地志云	-10.6445
麒麟	-10.6445
窈窕	-10.6446
劉琨	-10.6446
扉	-10.6446
璇	-10.6447
沓	-10.6447
故得	-10.6447
禾	-10.6448
拙	-10.6448
併	-10.6448
郭注云	-10.645
鮑照	-10.645
驍	-10.6452
慈碑	-10.6455
母曰	-10.6455
寢疾	-10.6456
蛟龍	-10.6456
鳥獸	-10.6456
樂毅	-10.6456
后妃	-10.6457
舜典	-10.6465
弱冠	-10.6465
兆民	-10.6465
表裏	-10.6469
忘憂	-10.6474
故有	-10.6481
師曠	-10.6481
蘭池	-10.6482
豈有	-10.6483
洛州	-10.6484
安平	-10.6485
武皇帝	-10.6485
者曰	-10.6485
家貧	-10.6487
七首	-10.6493
三元	-10.6495
莫敢	-10.6495
死於	-10.6495
朝日	-10.6496
存亡	-10.6497
其本	-10.6499
安能	-10.6501
太一	-10.6507
千乗	-10.6509
徐陵	-10.651
威碑	-10.6513
獻帝	-10.6513
風流	-10.652
在上	-10.652
四句	-10.6523
列仙傳曰	-10.6526
冠軍	-10.6532
樂記	-10.6543
襄城	-10.6545
處也	-10.6548
大雅	-10.6549
之語	-10.6557
藝文	-10.6566
公私	-10.6566
也周禮	-10.6574
何可	-10.6575
武成	-10.6578
有異	-10.6583
者何	-10.6583
立功	-10.6593
三光	-10.6593
五星	-10.6603
感物	-10.6604
生而	-10.6609
稱之	-10.6616
江州	-10.6617
九日	-10.6621
今我	-10.6624
凱	-10.6626
未聞	-10.6627
莫知	-10.6628
異於	-10.663
我皇	-10.663
何足	-10.6631
不獲	-10.6632
春風	-10.664
岳陽	-10.6646
自非	-10.6659
之妙	-10.6676
觀其	-10.6678
紀云	-10.6679
赤帝	-10.6682
見為閻	-10.6685
詩書	-10.6686
漢官儀	-10.6692
不入	-10.6713
安樂	-10.6728
亦見	-10.6729
渭水	-10.6729
城内	-10.6732
宗廟歌	-10.6743
楚子	-10.6745
城南	-10.6748
人主	-10.6751
云爾	-10.6762
承制	-10.6763
四言	-10.6767
涯	-10.6769
平王	-10.6775
二巻	-10.6776
泗	-10.6786
墨子	-10.679
不測	-10.6791
一百	-10.6798
風起	-10.6804
侮	-10.6804
其聲	-10.6815
不去	-10.6815
笄	-10.6817
緜	-10.682
烝	-10.682
乗輿	-10.6822
魴	-10.6825
判	-10.6828
睹	-10.6828
惕	-10.6829
濕	-10.6829
蔑	-10.683
毋	-10.683
煎	-10.683
昱	-10.6831
䂓	-10.6832
帝崩	-10.6832
膚	-10.6833
柵	-10.6835
羿	-10.6836
髓	-10.6836
楫	-10.6836
椀	-10.6836
塜	-10.6837
公羊傳	-10.6837
肱	-10.6837
㨗	-10.6837
昨	-10.6837
簪	-10.6838
涪	-10.6839
凍	-10.6839
劔	-10.684
匹磾	-10.684
甕	-10.684
綢繆	-10.684
天神	-10.6841
孝亷	-10.6841
纖	-10.6842
赫赫	-10.6842
沫	-10.6842
覲	-10.6842
罔極	-10.6842
後漢光武紀	-10.6842
𬒮	-10.6843
勵	-10.6843
天文志	-10.6843
黛	-10.6843
暖	-10.6844
燼	-10.6844
叚	-10.6844
子夏	-10.6844
軼	-10.6845
藝文類聚	-10.6845
平樂	-10.6845
䄂	-10.6845
虎賁	-10.6846
昬	-10.6846
禽獸	-10.6847
為太子	-10.6848
飡	-10.6848
光景	-10.6849
􁇒	-10.685
殫	-10.685
其志	-10.6851
翫	-10.6851
我心	-10.6852
孟津	-10.6853
侍郎	-10.6855
伸	-10.6856
駿馬	-10.6856
庖	-10.6856
少時	-10.6856
牽牛	-10.6856
雲門	-10.6857
霜雪	-10.6858
聰明	-10.686
孝友	-10.6861
而卒	-10.6862
零陵	-10.687
舍利	-10.6876
建平王	-10.6876
太保	-10.6878
烏孫	-10.6878
隋志云	-10.688
戲賦	-10.6887
山海	-10.689
五尺	-10.6894
▁左傳	-10.6897
魏畧	-10.6897
不利	-10.6901
南越	-10.6903
記云	-10.6904
而致	-10.6904
無因	-10.6905
記室	-10.6906
來歸	-10.6909
進位	-10.6911
馬援	-10.6914
宿昔	-10.6916
神靈	-10.6929
謁者	-10.6931
之墓	-10.6934
列侯	-10.694
襄王	-10.6947
承明	-10.6949
季夏	-10.6952
夏至	-10.6953
子路	-10.6973
有六	-10.6975
其徳	-10.6975
三萬	-10.6976
冬十月	-10.6982
經云	-10.6983
梅花	-10.6995
建徳	-10.6998
大梁	-10.7003
金波	-10.7012
之業	-10.7019
於西	-10.7023
陳楚	-10.7032
功徳	-10.7032
而上	-10.7033
士之	-10.7035
神人	-10.7036
日夕	-10.704
九疑	-10.7041
劉氏	-10.7044
木之	-10.7045
然而	-10.705
大者	-10.7051
人以	-10.706
五千	-10.7062
一家	-10.7067
家有	-10.7074
亦可	-10.708
簡文帝	-10.7082
在天	-10.7085
字君	-10.7098
三世	-10.7102
周大將軍	-10.7107
祭天	-10.7108
其體	-10.7125
日南	-10.7126
所不	-10.7127
王城	-10.714
南公	-10.7144
位至	-10.7155
丹陽	-10.7161
之故	-10.7161
惠王	-10.7166
吳人	-10.7168
用兵	-10.7172
神女	-10.7173
江上	-10.7181
作詩	-10.7183
不可得	-10.7183
巫山	-10.7183
哀江南賦	-10.7184
自有	-10.7186
撫軍	-10.7187
金華	-10.7196
之勢	-10.7199
諦	-10.72
沔	-10.7203
遊於	-10.7204
得失	-10.7208
帝王	-10.7214
曽祖	-10.7216
列仙傳	-10.7216
十九年	-10.7221
河伯	-10.7221
不能自	-10.7222
見一	-10.7223
王氏	-10.723
迦	-10.7233
濤	-10.7237
芥	-10.7238
控	-10.7245
脅	-10.7246
掠	-10.7247
弛	-10.7248
江湘	-10.7249
嵓	-10.725
墉	-10.725
寥廓	-10.725
朂	-10.725
剝	-10.7251
尚瑗曰	-10.7251
檝	-10.7252
彝	-10.7252
頒	-10.7252
䘏	-10.7252
薊	-10.7252
徇	-10.7252
眩	-10.7253
準	-10.7253
瑕	-10.7253
攬	-10.7254
矧	-10.7254
墀	-10.7254
夸	-10.7255
鴻溝	-10.7255
榛	-10.7255
籜	-10.7255
葦	-10.7255
燮	-10.7256
葱	-10.7257
技	-10.7257
兖州	-10.7257
祼	-10.7257
爪	-10.7258
腐	-10.7258
孽	-10.7259
穎	-10.7259
漢郊祀志	-10.726
瑰	-10.726
凌雲	-10.7261
簷	-10.7261
殲	-10.7261
璿	-10.7261
鑪	-10.7261
天和四年	-10.7262
雲笈七籖	-10.7263
課	-10.7264
鐫	-10.7265
研	-10.7265
曄	-10.7266
两	-10.7266
天竺	-10.7268
松栢	-10.7269
淒	-10.727
洞庭	-10.7271
艱難	-10.7272
贈淮	-10.7272
流寓	-10.7272
沙苑	-10.7273
任約	-10.7281
梁王	-10.7283
益州刺史	-10.7283
特進	-10.7287
武丁	-10.7293
道之	-10.7294
不就	-10.7296
昆明	-10.7296
建章	-10.7296
巴陵	-10.7298
累遷	-10.7301
未央宫	-10.7301
以定	-10.7303
至孝	-10.7308
四岳	-10.7312
於外	-10.7317
述異記曰	-10.7317
邦家	-10.7318
為上	-10.7323
也昔	-10.7323
白水	-10.7323
太史公	-10.7332
閔帝	-10.7332
問曰	-10.7335
車駕	-10.7338
儀禮	-10.7339
應期	-10.7341
可以為	-10.7342
隱士	-10.7346
七里	-10.7348
雜詩	-10.7352
太極	-10.7352
之異	-10.7353
如彼	-10.7354
譬如	-10.7354
第四	-10.7359
之流	-10.736
說文	-10.736
干將	-10.7364
▁渭生曰	-10.7364
有兩	-10.7366
清廟	-10.7367
十首	-10.7367
羽林	-10.737
授使持節	-10.7371
牲牷	-10.7373
破之	-10.7374
鄭注曰	-10.7376
見滕	-10.7387
光禄	-10.7392
得仙	-10.7395
見於	-10.7396
去之	-10.7397
於河	-10.74
於楚	-10.7402
齊魯	-10.7402
秦之	-10.7403
帝位	-10.7409
太白	-10.7413
貴人	-10.7417
學士	-10.7422
見辛	-10.7424
國語曰	-10.7438
執事	-10.744
方之	-10.7447
左傳僖	-10.7449
東觀	-10.7466
人情	-10.7469
故吏	-10.7479
小字	-10.748
叔向	-10.7486
何用	-10.7487
復為	-10.7501
蜀郡	-10.7512
其義	-10.7527
亦不	-10.753
别有	-10.753
言不	-10.7531
音聲	-10.7532
人曰	-10.7533
故號	-10.7535
顧謂	-10.7539
遺風	-10.7543
車馬	-10.7544
鄭國	-10.7547
後魏置	-10.7552
食其	-10.7553
因名	-10.7561
大驚	-10.7566
金城	-10.7573
之主	-10.7577
之城	-10.7579
交州	-10.7584
人謂	-10.759
魏武帝	-10.7592
見燕	-10.7596
至如	-10.76
炯	-10.7605
多士	-10.7607
王道	-10.7612
如雲	-10.7626
春日	-10.7631
多所	-10.7631
於穆	-10.7634
蟠	-10.7636
武遂	-10.7639
北風	-10.7648
討之	-10.7649
荆州記	-10.7653
冢宰	-10.7658
遥望	-10.7662
鋪	-10.7662
二曰	-10.7669
簡子	-10.767
王公	-10.7673
其利	-10.7674
熒	-10.7675
猜	-10.7676
十四年	-10.7677
圉	-10.7677
皇天	-10.7678
湄	-10.7678
周南	-10.768
幡	-10.7681
貶	-10.7681
雩	-10.7681
菲	-10.7681
什	-10.7682
鷄	-10.7683
漬	-10.7683
獠	-10.7684
濛	-10.7686
蔓	-10.7686
潼	-10.7686
埃	-10.7687
藿	-10.7687
餓	-10.7687
鬟	-10.7688
粒	-10.7688
蓄	-10.7688
伏見	-10.7688
傲	-10.7689
茵	-10.7689
劉歆	-10.7689
損益	-10.7689
閟	-10.7689
幃	-10.7689
燃	-10.769
渙	-10.769
鉛	-10.769
侯莫陳	-10.7691
確	-10.7691
醇	-10.7692
邀	-10.7692
藹藹	-10.7692
頡	-10.7693
紇	-10.7693
爐	-10.7693
娟	-10.7693
陶侃	-10.7694
股	-10.7694
隘	-10.7694
梗	-10.7695
鬚	-10.7695
瀝	-10.7696
無由	-10.7696
謝朓	-10.7696
募	-10.7696
盼	-10.7697
羈旅	-10.7697
减	-10.7697
當年	-10.7697
產	-10.7697
凄	-10.7698
欲令	-10.7698
邃	-10.7699
鮪	-10.7699
沂	-10.7699
兾	-10.7699
湧	-10.77
孝公	-10.77
五等	-10.77
擔	-10.7701
瓚	-10.7701
云云	-10.7702
擣衣	-10.7702
鉢	-10.7702
比邱	-10.7702
以求	-10.7703
籥	-10.7703
摯	-10.7703
覃	-10.7704
古樂府	-10.7705
隴頭	-10.7706
通鑑	-10.7706
亦名	-10.7709
秦昭王	-10.7712
禮記月令	-10.7715
登壇	-10.7715
匠石	-10.7715
山濤	-10.7716
虚詞	-10.7716
碧玉	-10.7725
我王	-10.7725
江湖	-10.7726
金馬	-10.7727
五十里	-10.7727
將兵	-10.7728
重黎	-10.7731
小兒	-10.7735
孔安國曰	-10.7736
本傳作	-10.7736
身後	-10.7741
飛去	-10.7742
新豐	-10.7742
九錫	-10.7743
進退	-10.7746
河朔	-10.7751
大宛	-10.7755
王師	-10.7756
并州	-10.7756
孺子	-10.7756
長驅	-10.7765
荆楚	-10.7768
徙居	-10.7771
昔我	-10.7776
方欲	-10.7779
不從	-10.7783
之儀	-10.7783
魏書	-10.7785
逺矣	-10.7792
中外	-10.7795
莊周	-10.7799
四面	-10.7802
不存	-10.7804
李氏	-10.7805
徐君	-10.7808
魏人	-10.781
請問	-10.7817
西海	-10.7817
文曰	-10.7826
承華	-10.783
列子曰	-10.7832
也周	-10.7835
功曹	-10.7836
不當	-10.784
其外	-10.7841
謂元帝	-10.7841
桓帝	-10.7845
不逺	-10.7852
真人	-10.7854
姬周	-10.7856
呉志	-10.7859
曰若	-10.7859
說法	-10.7867
内外	-10.7868
古今注	-10.7871
長風	-10.7871
金精	-10.7874
不須	-10.7875
宫殿	-10.7877
而知	-10.7883
所害	-10.7884
與君	-10.7892
敗也	-10.7896
之號	-10.79
先主	-10.79
所知	-10.79
之郊	-10.7908
太陽	-10.7915
乃與	-10.792
形如	-10.7924
配之	-10.7931
而退	-10.7934
女也	-10.7935
無歸	-10.7935
所云	-10.7942
自殺	-10.7947
◍	-10.7948
篇云	-10.7956
而歌	-10.7956
無知	-10.796
王僧	-10.797
六經	-10.7975
九江	-10.7976
丹書	-10.7984
水上	-10.7988
白玉	-10.7992
石門	-10.8003
所作也	-10.8005
性命	-10.801
中人	-10.8011
司命	-10.8011
陽太守	-10.8017
王制	-10.8019
舊置	-10.8019
之首	-10.8021
行行	-10.8022
其間	-10.8026
作賦	-10.8033
吳越春秋	-10.8034
至矣	-10.8037
殤	-10.8041
葬於	-10.8056
明發	-10.8062
長林	-10.8074
安世	-10.8077
車騎將軍	-10.8083
之西	-10.8087
也淮南子曰	-10.8088
于時	-10.8092
六首	-10.8093
咏懷	-10.8095
以後	-10.8095
物而	-10.8098
謂其	-10.8099
十餘	-10.8101
遑	-10.8105
杼	-10.8106
者多	-10.8115
妨	-10.8116
唫	-10.8117
五丈	-10.8118
紱	-10.8121
耦	-10.8122
大國	-10.8126
祫	-10.8128
殃	-10.8128
䧏	-10.813
肌	-10.8133
不息	-10.8133
殽	-10.8134
磨	-10.8134
換	-10.8134
殉	-10.8135
終身	-10.8136
牝	-10.8137
態	-10.8137
時為	-10.8137
碣	-10.8138
烹	-10.8138
挈	-10.8138
榭	-10.8138
毓	-10.8139
麋	-10.8139
匈	-10.814
金行	-10.814
楓	-10.8141
滴	-10.8141
煑	-10.8142
拓	-10.8143
搜神記	-10.8143
伽	-10.8143
蹕	-10.8143
箏	-10.8144
儋	-10.8144
綾	-10.8144
戰國策	-10.8144
振鷺	-10.8145
山之陽	-10.8145
嫡	-10.8145
蘇林曰	-10.8145
篠	-10.8145
佞	-10.8146
真諦	-10.8146
羊祜	-10.8147
會稽	-10.8147
榜	-10.8147
雋	-10.8147
熏	-10.8147
凖	-10.8147
醪	-10.8148
撥	-10.8148
濮	-10.8148
簧	-10.8148
蹶	-10.8149
埒	-10.8149
閲	-10.8149
蕭蕭	-10.815
涵	-10.815
油	-10.815
屬文	-10.8151
季子	-10.8151
樊噲	-10.8151
糾	-10.8151
闊	-10.8152
勾	-10.8152
僭	-10.8152
租	-10.8152
鍊	-10.8153
鋭	-10.8153
販	-10.8153
吐谷渾	-10.8153
燉煌	-10.8153
悖	-10.8153
黯	-10.8154
嬉	-10.8154
掖	-10.8154
張騫	-10.8155
徙倚	-10.8155
頳	-10.8155
暄	-10.8155
遜位	-10.8156
秦穆公	-10.8157
箋註陶淵明集	-10.8157
歐陽	-10.8157
濟河	-10.8158
烏桓	-10.8158
李善	-10.8158
拯	-10.8159
甍	-10.8159
厨	-10.8159
曆	-10.816
京兆尹	-10.816
搴	-10.816
黍稷	-10.8161
團	-10.8161
點	-10.8162
以報	-10.8163
譬彼	-10.8163
北史本傳	-10.8163
八尺	-10.817
遇害	-10.8174
歸來	-10.8178
乃令	-10.8184
營丘	-10.8186
王戎	-10.8188
子雲	-10.8188
靡靡	-10.819
忠貞	-10.8191
羣后	-10.8196
文宣	-10.8205
前驅	-10.8206
封於	-10.8206
者是	-10.8206
章臺	-10.8207
大象	-10.8212
不失	-10.8212
諸王	-10.8214
章句	-10.8215
文明	-10.8218
敬帝	-10.8224
不可勝	-10.8233
蒼蒼	-10.8234
越王	-10.8235
况乃	-10.8237
若以	-10.8243
薨於	-10.8256
也或問	-10.8259
本姓	-10.826
天光	-10.8262
而求	-10.8268
拜為	-10.8269
之靈	-10.8274
三尺	-10.8278
華蓋	-10.8279
所欲	-10.8281
失之	-10.8285
之明	-10.8292
先君	-10.8295
秋夜	-10.8296
也又按	-10.8297
滕王	-10.8302
便當	-10.8309
大破之	-10.8309
五采	-10.8311
之甚	-10.8314
周王	-10.8315
太和	-10.8317
一月	-10.832
將帥	-10.8332
襄子	-10.8334
縣屬	-10.8336
十四	-10.834
信都	-10.8341
卿大夫	-10.8344
盛德	-10.8346
漢之	-10.8357
冬官	-10.8363
不與	-10.8363
舎人	-10.8367
於彼	-10.8383
如来	-10.8383
得此	-10.8384
兄子	-10.8393
當為	-10.8393
至今	-10.8394
不應	-10.8395
以和	-10.8397
功業	-10.8399
法度	-10.8403
皇家	-10.8406
祖父	-10.8407
後宫	-10.8407
鄭伯	-10.8413
何不	-10.8421
少子	-10.8423
隨風	-10.843
納言	-10.8436
天門	-10.8442
寄言	-10.8445
玉衡	-10.8446
城下	-10.8451
之年	-10.8457
其六	-10.8458
重光	-10.846
之罪	-10.846
作樂	-10.846
哀之	-10.8465
爲之	-10.8468
之稱	-10.8474
竹杖	-10.8478
於中	-10.8482
一時	-10.8489
也南史	-10.8499
魏之	-10.85
物也	-10.8504
魏明帝	-10.8513
功成	-10.8532
樹穀曰	-10.8535
諮	-10.8536
城西	-10.8536
喻已	-10.854
經營	-10.855
崔豹古今注	-10.8551
公車	-10.8552
通語也	-10.8554
鄭康成	-10.8555
此下	-10.8557
宣子	-10.8557
德之	-10.8557
小子	-10.8562
又為	-10.8569
縣北	-10.857
不疑	-10.8575
師子	-10.8576
克明	-10.858
山南	-10.8583
為魏	-10.8584
梯	-10.8586
見燈	-10.8591
見宫	-10.8591
怛	-10.8597
有如	-10.8598
周武帝紀	-10.86
遂不	-10.8603
大通	-10.8604
隧	-10.8606
中和	-10.8607
落日	-10.8607
簒	-10.8608
樓煩	-10.861
爻	-10.8611
腦	-10.8611
匏	-10.8612
始終	-10.8612
訴	-10.8613
此章喻	-10.8613
祧	-10.8613
盾	-10.8613
鼈	-10.8614
河南郡	-10.8614
㢘	-10.8616
抄	-10.8616
捷	-10.8616
法華經	-10.8616
瓶	-10.8616
癸	-10.8617
核	-10.8617
冉冉	-10.8617
盜賊	-10.8617
場	-10.8618
璠	-10.8618
顏	-10.8618
受之	-10.8618
欄	-10.8618
絮	-10.8619
僣	-10.8619
兢	-10.8619
見與楊	-10.8619
蓍	-10.8619
翩	-10.8619
牋	-10.862
之節	-10.862
藜	-10.862
騑	-10.862
粗	-10.862
菑	-10.8621
旐	-10.8621
鯨	-10.8621
踟蹰	-10.8621
墓誌銘	-10.8622
齎	-10.8622
狎	-10.8623
孕	-10.8623
炙	-10.8623
唇	-10.8623
緝	-10.8624
青龍	-10.8624
碣石	-10.8624
謹啓	-10.8624
澧	-10.8624
鐃	-10.8625
若是	-10.8625
烽火	-10.8625
擕	-10.8626
湍	-10.8626
瞰	-10.8626
琉璃	-10.8626
竇融	-10.8626
蹙	-10.8626
暨	-10.8627
嘆息	-10.8628
武陵王紀	-10.8629
豺狼	-10.8629
㳂	-10.8629
模	-10.8629
紛紛	-10.863
島	-10.863
駢	-10.8631
樹屏曰	-10.8632
衾	-10.8632
司𨽻校尉	-10.8632
曙	-10.8632
瑱	-10.8633
琬	-10.8633
孜	-10.8635
禋	-10.8635
鉦	-10.8635
瓠	-10.8636
揺落	-10.8637
帝嚳	-10.8637
㕘軍	-10.8637
雖無	-10.8637
汧	-10.8639
騂	-10.8641
宇文氏	-10.8641
十巻	-10.8642
霍光	-10.8645
晉安王	-10.8646
薄暮	-10.8647
大敗	-10.8651
京口	-10.8655
陳倉	-10.8656
韓康	-10.8657
百尺	-10.8658
共工	-10.8659
隴右	-10.8659
未審	-10.8661
桓𤣥	-10.8663
羽翼	-10.8663
僕射書	-10.8666
遊魂	-10.8666
梁冀	-10.867
文君	-10.8672
挽歌	-10.8673
新市	-10.8674
問其故	-10.8675
濟濟	-10.8677
白雪	-10.8678
玉臺	-10.8678
孝文	-10.8678
桂樹	-10.8678
阿難	-10.8681
常以	-10.8681
將來	-10.8683
也如	-10.8685
苦寒	-10.8686
作亂	-10.8686
忠孝	-10.8687
呉興	-10.8689
三十里	-10.869
儒林	-10.869
雲霧	-10.8691
以玉	-10.8694
三江	-10.8701
積善	-10.8704
愁思	-10.8706
不知所	-10.8709
驪山	-10.8709
相繼	-10.8715
武侯	-10.8716
遂至	-10.8717
朝露	-10.8717
謚曰	-10.8717
觀者	-10.8717
市朝	-10.8723
六卿	-10.8727
東京	-10.8728
雲再拜	-10.8734
知命	-10.8738
左丞	-10.8742
之女	-10.8747
萬人	-10.8749
立廟	-10.875
臨海	-10.8751
天路	-10.8756
高山	-10.8761
有石	-10.8763
一千	-10.8774
丈餘	-10.8777
四子	-10.8778
曰晉	-10.8784
所言	-10.8785
無間	-10.8786
八十一	-10.8788
新聲	-10.8791
焉得	-10.8791
九成	-10.8794
為秦	-10.8799
宣城	-10.8814
趙魏	-10.8819
先登	-10.8819
莊公	-10.8823
二王	-10.8824
曹參	-10.8824
從駕	-10.8839
夏官	-10.884
安都	-10.8841
百靈	-10.8842
天保	-10.8843
家之	-10.8845
郡太守	-10.8845
有人	-10.8849
豈無	-10.8855
千人	-10.8855
别傳	-10.8856
施行	-10.8856
本紀云	-10.8857
左思	-10.8861
之東	-10.8868
神器	-10.8873
常碑	-10.8874
燕趙	-10.8874
由此	-10.8875
按此	-10.8877
賢臣	-10.8877
貴於	-10.8885
清歌	-10.8886
兵馬	-10.8893
起家	-10.8896
不已	-10.8902
十方	-10.8907
風飛	-10.8911
之悲	-10.8912
服食	-10.8914
承天	-10.8915
軍事	-10.8922
曰汝	-10.8923
景公	-10.8933
見鏡	-10.8942
北面	-10.8949
而進	-10.895
召南	-10.895
世宗	-10.8959
武城	-10.8959
之色	-10.8962
所當	-10.8964
見論	-10.8964
於南	-10.8967
出家	-10.897
城北	-10.897
自以	-10.8971
七百	-10.8972
其政	-10.8975
時雨	-10.898
小雅	-10.898
至是	-10.8989
者矣	-10.8997
山精	-10.8999
以来	-10.9004
之前	-10.9005
之曲	-10.9006
我有	-10.901
也然	-10.9012
未必	-10.9012
所宜	-10.9021
有遺	-10.9022
議郎	-10.9029
崑崙之	-10.9029
不由	-10.9033
一年	-10.9036
後主	-10.9043
乃是	-10.9043
華陽	-10.9045
以竹	-10.9046
之化	-10.9047
閒居	-10.9048
昭明	-10.9052
億	-10.9056
雒	-10.9059
之極	-10.9061
者亦	-10.9067
昊	-10.907
𢎞農郡	-10.9071
般	-10.9077
七十二	-10.9078
郡王	-10.9078
死而	-10.9081
天馬	-10.9082
山上	-10.9084
之行	-10.9085
贏	-10.9092
來朝	-10.9093
軻	-10.91
瘳	-10.9102
蜺	-10.9102
駕言	-10.9105
濃	-10.9106
斫	-10.9106
嵇	-10.9107
巔	-10.9107
隻	-10.9108
見羽	-10.9109
羸	-10.9111
楨	-10.9112
保定四年	-10.9113
上國	-10.9113
之家	-10.9114
貍	-10.9114
注見本序	-10.9115
把	-10.9115
佗	-10.9115
頸	-10.9115
壓	-10.9115
攄	-10.9115
藍田	-10.9115
逖	-10.9115
杳	-10.9116
惶	-10.9117
菽	-10.9117
蒿	-10.9117
恕	-10.9117
縫	-10.9118
虺	-10.9118
戌	-10.9119
脣	-10.9119
酆	-10.9119
芒芒	-10.9119
塚	-10.9119
螺	-10.9119
迺	-10.912
哺	-10.912
派	-10.912
笥	-10.912
槎	-10.912
鵾	-10.9121
芸	-10.9121
隲	-10.9121
堦	-10.9122
淩	-10.9122
邵陵王綸	-10.9122
靄	-10.9122
蕚	-10.9125
帯	-10.9125
寘	-10.9125
萎	-10.9125
張敞	-10.9125
承聖元年	-10.9126
庠	-10.9126
詳馬射賦	-10.9126
此又公之功也	-10.9126
縣注舊曰	-10.9126
過秦論	-10.9126
囂	-10.9126
雲門舞	-10.9127
琯	-10.9127
坼	-10.9127
綈	-10.9127
藍	-10.9128
屣	-10.9128
區區	-10.9128
河南尹	-10.9128
寂寥	-10.9128
噪	-10.9129
附庸	-10.913
扄	-10.913
騐	-10.9131
宸	-10.9131
䕫	-10.9133
伊尹	-10.9133
洛浦	-10.9133
蹊	-10.9133
芬芳	-10.9134
糜	-10.9134
龍驤	-10.9134
織錦	-10.9134
鬰	-10.9135
洎	-10.9136
幕府	-10.9137
伊洛	-10.9137
棹	-10.9138
百僚	-10.9138
鮑氏集卷第	-10.9138
眄	-10.9139
江潭	-10.914
赤壁	-10.9141
夏四月	-10.9143
隋書地志	-10.9143
封疆	-10.9143
曾祖	-10.9147
顔淵	-10.9147
桃李	-10.9147
枚乗	-10.9151
四皓	-10.9152
周書本傳云	-10.9152
不待	-10.9154
延壽	-10.9155
伯牙	-10.9156
周本紀	-10.9156
蓮華	-10.916
官渡	-10.9161
漢使	-10.9162
以告	-10.9164
𤣥鶴	-10.9171
子賦	-10.9172
季孫	-10.9174
同前	-10.9175
征伐	-10.9176
喪亂	-10.9179
反覆	-10.9183
無人	-10.9184
庾氏	-10.9188
疾病	-10.919
千萬	-10.9192
箕子	-10.9192
芳林	-10.9194
領軍	-10.9196
三靈	-10.9199
制度	-10.9202
諺曰	-10.9204
三寸	-10.9207
夫何	-10.9208
野人	-10.9214
列女傳曰	-10.9215
其辭曰	-10.9216
龍淵	-10.9221
蘇氏	-10.9223
子胥	-10.9228
而莫	-10.9229
傳贊	-10.9233
涼州	-10.9238
髙歡	-10.9242
於斯	-10.9244
無他	-10.9245
三首	-10.9247
無忌	-10.9249
聖主	-10.9252
之未	-10.9253
刻石	-10.9254
空中	-10.9259
凱風	-10.9259
男子	-10.9259
無功	-10.926
凡夫	-10.9261
劉表	-10.9262
精兵	-10.9267
涕泣	-10.9268
棄之	-10.9276
珠玉	-10.9276
都長安	-10.9277
孫氏	-10.9282
聖朝	-10.9288
晉王	-10.9291
獲其	-10.9292
其德	-10.9299
陽闗	-10.9307
以西	-10.9309
晋書曰	-10.9315
遂得	-10.9316
下車	-10.9321
無有	-10.9322
曰君子	-10.9322
於魏	-10.9323
六甲	-10.9325
王姬	-10.9328
凉風	-10.9328
在前	-10.933
孝閔	-10.9339
何能	-10.9343
若其	-10.9343
久矣	-10.9357
魚龍	-10.9357
兄文	-10.9362
敢不	-10.9363
他人	-10.9365
見崔	-10.937
乃使	-10.9371
世俗	-10.9371
太學	-10.9372
乃為	-10.9372
之高	-10.9377
發兵	-10.9377
乗馬	-10.9382
義興	-10.9384
江水	-10.9384
曰何	-10.9385
常有	-10.9387
賜之	-10.9388
常在	-10.9391
郡注	-10.9394
言此	-10.9396
志在	-10.9402
功名	-10.9403
終無	-10.941
築城	-10.9414
拜大將軍	-10.9415
成文	-10.942
叔向曰	-10.9421
於晉	-10.9434
僧辯書	-10.9438
存乎	-10.944
之殊	-10.9441
聊以	-10.9449
物以	-10.9464
在此	-10.9467
家人	-10.9468
皆是	-10.9469
為陳	-10.9471
有七	-10.9473
於秦	-10.9476
在今	-10.9476
遂乃	-10.9478
本朝	-10.9478
何其	-10.9479
十餘萬	-10.9482
三部	-10.9483
異之	-10.9485
論云	-10.9487
所稱	-10.9488
蜀王	-10.9501
聞而	-10.9501
所出	-10.9502
著書	-10.9504
若斯	-10.9505
更始	-10.9506
欲使	-10.9507
語云	-10.9512
三門	-10.952
相似	-10.9523
竟無	-10.9536
清流	-10.9538
作文	-10.954
於陳	-10.9542
當在	-10.9543
之望	-10.9545
諸侯王	-10.9551
漢書地理志	-10.9552
大雨	-10.9552
未嘗不	-10.9556
皆在	-10.9563
無勞	-10.9564
巴郡	-10.9565
風俗通	-10.9567
人君	-10.9569
不克	-10.9573
封侯	-10.9576
所由	-10.9576
之髙	-10.9584
孔安國	-10.9585
燕歌	-10.9593
天文志曰	-10.9594
岷	-10.9595
自闗而西	-10.9596
洛水	-10.9599
陳武	-10.96
此二	-10.96
滎	-10.9607
遂作	-10.9608
而來	-10.961
棿擬之	-10.9612
斯文	-10.9612
雖在	-10.9614
帝命	-10.9622
常山	-10.9623
朴	-10.9627
躭	-10.9628
不易	-10.963
遶	-10.963
不還	-10.963
非臣	-10.9631
璜	-10.9631
複	-10.9631
額	-10.9632
襦	-10.9633
下邳	-10.9634
霤	-10.9634
轘轅	-10.9636
洋洋	-10.9636
樗	-10.9637
蠧	-10.9638
穰侯	-10.9638
玠	-10.9638
餉	-10.9639
鸚鵡	-10.9639
揔	-10.9639
散騎侍郎	-10.964
蛤	-10.964
涿	-10.964
搜	-10.9641
臼	-10.9641
馨	-10.9641
贖	-10.9642
携手	-10.9642
綘	-10.9643
李善注云	-10.9643
蹄	-10.9643
桑梓	-10.9643
迦葉	-10.9643
皇甫謐	-10.9643
宕	-10.9643
頊	-10.9644
䦨	-10.9644
叱	-10.9644
貧賤	-10.9644
瑣	-10.9644
邢	-10.9644
漢書注	-10.9645
峙	-10.9645
壚	-10.9645
瑾	-10.9645
咫尺	-10.9646
餞	-10.9646
倪	-10.9646
無期	-10.9647
皋	-10.9647
溉	-10.9647
摘	-10.9648
妹	-10.9648
悚	-10.9648
旍	-10.9649
辛苦	-10.9649
俗諦	-10.965
顗	-10.965
籌	-10.965
柘	-10.9651
神異經	-10.9651
窗	-10.9651
穗	-10.9651
堵	-10.9652
鈔	-10.9652
帆	-10.9652
不改	-10.9652
劣	-10.9652
杜預注	-10.9653
羇旅	-10.9653
櫂	-10.9653
㐫	-10.9653
軹	-10.9654
賈逵	-10.9655
猋	-10.9655
濞	-10.9655
陶潛	-10.9656
憇	-10.9656
煉	-10.9656
侯景之亂	-10.9656
保定元年	-10.9657
艷	-10.9657
東坡曰	-10.9658
原隰	-10.9659
聦	-10.966
必欲	-10.966
汶	-10.966
壮	-10.9661
攅	-10.9662
曳	-10.9663
公為	-10.9664
中牟	-10.9665
蕭詧	-10.9665
帷幄	-10.9665
之風	-10.9666
鼓吹	-10.9666
嚴霜	-10.9667
之容	-10.9667
翡翠	-10.9668
虛詞	-10.9669
清濁	-10.9671
亭亭	-10.9671
千仞	-10.9672
九華	-10.9672
八卦	-10.9672
頓首	-10.9673
江淹	-10.9676
太僕	-10.9676
温湯	-10.9677
蠻夷	-10.9677
廣雅曰	-10.9678
大冢宰	-10.9679
虞舜	-10.968
秦晉之間	-10.9684
羽毛	-10.9688
河西	-10.9688
江河	-10.9689
櫟陽	-10.9691
刺舉	-10.9693
此事	-10.9693
於漢	-10.9697
昭帝	-10.9698
原野	-10.9698
丘園	-10.9699
西京賦曰	-10.9701
桑林	-10.9703
陳武帝	-10.9704
威儀	-10.9706
西州	-10.9708
稱王	-10.9709
率土	-10.9709
叔孫	-10.9711
爾朱	-10.9712
地方	-10.9714
承露	-10.9715
也又曰	-10.9715
世有	-10.9717
塞外	-10.9721
吳志曰	-10.9723
北史周	-10.9724
周太祖紀	-10.9725
終於	-10.9725
其内	-10.9727
張公	-10.9728
曲池	-10.9729
自傷	-10.9731
不滅	-10.9732
青牛	-10.9733
安知	-10.9737
夷齊	-10.9737
司馬氏	-10.9738
朝議	-10.9743
百川	-10.9748
元后	-10.9748
風霜	-10.975
淮南王	-10.9757
有天下	-10.9759
六代	-10.9761
蘭陵	-10.9761
英華	-10.9761
也後漢書	-10.9762
明君	-10.9762
歌舞	-10.9766
太𤣥	-10.9768
諸佛	-10.9769
落星	-10.9772
而至	-10.9774
何由	-10.9778
以正	-10.978
孤氏	-10.9788
臣某言	-10.9795
亦如之	-10.9796
上曰	-10.9796
經緯	-10.98
之義也	-10.9803
軍敗	-10.9807
仲秋	-10.9812
引兵	-10.9813
齊楚	-10.9814
文集	-10.9815
不聞	-10.9815
衣服	-10.9816
宜春	-10.9822
有罪	-10.9823
卿相	-10.9828
登歌	-10.9833
此皆	-10.9836
知是	-10.9837
曰吾聞	-10.9837
無量	-10.9838
一本	-10.9844
更名	-10.9844
以一	-10.9844
道徳	-10.9845
離宫	-10.9852
即此	-10.9853
太上	-10.9853
無餘	-10.9859
地理志云	-10.9859
功封	-10.9862
郭云	-10.9863
方今	-10.9865
周人	-10.9866
顧命	-10.987
入關	-10.9874
永言	-10.9879
秋月	-10.9891
車師	-10.9899
當以	-10.99
為蕭	-10.9903
於是乎	-10.9905
百丈	-10.9908
在外	-10.9915
其家	-10.9916
名士	-10.9916
正義	-10.992
其才	-10.992
亦復	-10.9921
夏日	-10.9921
登髙	-10.9925
世為	-10.9925
王業	-10.9925
起兵	-10.9931
一枝	-10.9934
盛年	-10.9936
周禮司	-10.9942
秦伯	-10.9947
西京賦	-10.996
軍至	-10.9964
論語曰	-10.9975
毛詩	-10.9975
上郡	-10.9976
奉使	-10.9982
行雨	-10.9982
方丘	-10.9986
襲封	-10.9989
屬國	-10.9998
冬夏	-11
其音	-11.0005
未盡	-11.0007
東郡	-11.0008
至道	-11.0008
王事	-11.001
三子	-11.0012
舉之	-11.0013
漢南	-11.0015
得人	-11.0016
知音	-11.0019
韓王	-11.0027
園中	-11.0035
王肅	-11.0035
羣生	-11.0036
之瑞	-11.0042
之形	-11.0043
害之	-11.0046
雲之	-11.0047
之足	-11.0048
曲水	-11.0048
之子也	-11.0049
人之所	-11.005
之説	-11.0051
召公	-11.0057
帝與	-11.0059
時惟	-11.006
三良	-11.0062
舊事	-11.0069
之計	-11.0069
百世	-11.007
第七	-11.0072
亦如	-11.0081
義曰	-11.0091
横見	-11.0101
其父	-11.0104
安居	-11.0105
北山	-11.0109
陳氏	-11.0112
歌辭	-11.0114
西都	-11.0117
已下	-11.0118
衡山	-11.0119
官也	-11.0121
楚謂之	-11.0122
河外	-11.0122
之事也	-11.0125
謝靈運	-11.0139
荘	-11.0141
兮何	-11.0143
上書曰	-11.0148
佛言	-11.0156
殺人	-11.017
問於	-11.0173
亨	-11.0174
髦	-11.0175
憒	-11.0177
遷於	-11.0177
知人	-11.0178
祀之	-11.0183
吁	-11.0185
碁	-11.0185
踐阼	-11.0187
灞	-11.0187
异	-11.0187
肺	-11.0188
税	-11.0189
簟	-11.0189
淄	-11.0191
剥	-11.0191
篸	-11.0191
臣瓚曰	-11.0191
嬪	-11.0192
縠	-11.0193
峨	-11.0194
筐	-11.0194
綿綿	-11.0195
姊	-11.0195
惲	-11.0195
禎	-11.0196
欲伐	-11.0197
璆	-11.0197
孫叔敖	-11.0197
鍼	-11.0198
莢	-11.0199
晴	-11.02
憫	-11.02
讖	-11.02
乾坤	-11.02
媒	-11.0201
桴	-11.0201
溜	-11.0202
保定二年	-11.0202
壻	-11.0202
世諦	-11.0202
竪	-11.0202
釀	-11.0202
窻	-11.0202
巽	-11.0203
隋書冀州	-11.0203
澤中	-11.0204
柝	-11.0204
㐮	-11.0204
杜元凱	-11.0205
跂	-11.0205
彛	-11.0205
也謂	-11.0206
鉅鹿	-11.0206
鄱陽	-11.0206
値	-11.0206
闍	-11.0206
鳧	-11.0206
卉	-11.0207
皁	-11.0208
鵝	-11.0208
壝	-11.0208
渊	-11.0208
狥	-11.0208
譴	-11.0208
昭明太子	-11.0209
奩	-11.0209
尚書中候	-11.0209
零露	-11.0209
爾朱氏	-11.0211
卞	-11.0211
崆峒	-11.0211
垠	-11.0211
禰衡	-11.0211
趙簡子	-11.0212
項籍	-11.0212
炊	-11.0212
漫漫	-11.0212
縣注舊置	-11.0212
湥	-11.0212
鷂	-11.0212
昻	-11.0213
木也	-11.0213
霰	-11.0214
昆明池	-11.0214
漢禮樂志	-11.0214
荆棘	-11.0215
噲	-11.0215
赩	-11.0215
巒	-11.0215
璇璣	-11.0215
不許	-11.0216
亘	-11.0216
太清二年	-11.0216
金匱	-11.0217
㳙	-11.0217
見此	-11.0218
郅	-11.0218
飄飄	-11.0218
撤	-11.0218
其意	-11.0219
荔	-11.0219
猗	-11.0219
侯景傳云	-11.022
熊羆	-11.022
天水郡	-11.022
白虎通	-11.0223
白帖	-11.0223
箋云	-11.0224
彌勒	-11.0226
淮隂	-11.0227
陳霸先	-11.0231
方言	-11.0231
者名	-11.0233
楊栁	-11.0233
正員	-11.0234
北燕	-11.0236
傷心賦	-11.0236
維摩經曰	-11.0237
上林苑	-11.0237
凌波	-11.0238
是知	-11.024
隋書地理志	-11.0242
乎或問	-11.0244
蔡澤	-11.0244
蜀都賦曰	-11.0245
桂林	-11.0245
蕭驃騎	-11.0246
奔江陵	-11.0248
三皇	-11.0254
釋名曰	-11.0255
彌留	-11.0256
中天	-11.0257
司馬遷	-11.0257
蕭史	-11.0258
武成二年	-11.0258
識之	-11.0259
絃歌	-11.0262
廬陵	-11.0264
智伯	-11.0264
對揚	-11.0265
土地	-11.0266
梁楚	-11.0269
封人	-11.0269
少保	-11.0271
周旋	-11.0272
永豐	-11.0272
非有	-11.0274
終南	-11.0274
遺訓	-11.0278
玉燭	-11.0278
幽蘭	-11.0279
於今	-11.028
靈臺	-11.0286
後為	-11.0289
不知其	-11.029
黑帝	-11.029
皆可	-11.0292
李斯	-11.0293
二尺	-11.0294
叅軍	-11.0294
之至也	-11.0298
其所以	-11.0298
見對	-11.03
隠士	-11.0303
天網	-11.0309
待詔	-11.031
吳志	-11.0312
石勒	-11.0313
水經	-11.0314
王逸曰	-11.0321
有常	-11.033
因以	-11.0332
廬山	-11.0334
元嘉	-11.0334
見從	-11.0335
豐城	-11.0342
文云	-11.0342
歟曰	-11.0346
宣武	-11.0346
猶存	-11.0348
杜若	-11.0348
中宗	-11.0348
横流	-11.0349
復見	-11.035
師古	-11.0352
之䇿	-11.0352
元首	-11.0352
之舊	-11.0353
乃至	-11.0357
六府	-11.0359
之體	-11.0359
安縣	-11.036
猶在	-11.0364
洛城	-11.0366
四人	-11.0366
𤣥鳥	-11.0366
乃得	-11.0368
平公	-11.0371
遂為	-11.0372
既至	-11.0372
諸儒	-11.0373
人倫	-11.0377
讀書	-11.0377
事也	-11.0379
無道	-11.0381
驃騎大將軍	-11.0381
萬餘	-11.0384
禰	-11.0387
石鏡	-11.0387
濟北	-11.0388
為樂	-11.0389
張耳	-11.0394
齊王憲碑	-11.0395
君王	-11.0396
進封	-11.0398
甚多	-11.0399
已矣	-11.0402
西園	-11.0402
二三	-11.0404
在兹	-11.0408
不定	-11.0408
石為	-11.0409
異物	-11.0411
次第	-11.0412
杜云	-11.0412
從我	-11.0418
長吏	-11.0421
吳起	-11.0421
何者	-11.0424
東征	-11.0426
象天	-11.0432
常伯	-11.0435
左傳云	-11.0437
實為	-11.0445
始興	-11.0446
其位	-11.0447
上京	-11.0447
無疑	-11.045
合𦵏	-11.0453
必以	-11.0456
千户	-11.046
大海	-11.0463
其類	-11.0467
胡人	-11.0471
誰知	-11.0472
願得	-11.0472
諸君	-11.0473
而俱	-11.0473
奄有	-11.0479
西郊	-11.0483
南望	-11.0493
不憂	-11.0496
因以為	-11.0497
乃出	-11.051
自投	-11.0515
是用	-11.0516
金銀	-11.0519
於兹	-11.0519
徳音	-11.0523
非也	-11.0524
年七十	-11.0525
侯王	-11.0527
魏軍	-11.0527
官名	-11.0528
至人	-11.0534
成人	-11.0536
有女	-11.0537
王敦	-11.0545
中都	-11.0546
斬之	-11.0549
昔有	-11.0557
顯宗	-11.0571
遷都	-11.0581
字長	-11.0584
而反	-11.0585
喪其	-11.059
為貴	-11.0592
罔不	-11.0595
三國	-11.0599
十五日	-11.0599
河州	-11.0601
木蘭	-11.0601
兗	-11.0602
百二十	-11.0603
不仕	-11.0605
與我	-11.061
東夏	-11.0611
隨時	-11.0617
以安	-11.0618
不幸	-11.0619
得免	-11.0621
見應	-11.0627
天上	-11.0631
世人	-11.0637
海上	-11.0637
此時	-11.0637
伐蜀	-11.0647
大樹	-11.0647
薄言	-11.0647
氣也	-11.0655
於内	-11.0657
見報	-11.0659
重華	-11.0666
之說	-11.0669
皇太后	-11.0672
四星	-11.0674
有白	-11.0681
明也	-11.0692
勳	-11.0695
不樂	-11.0696
陽陵	-11.0697
故不	-11.0699
南國	-11.0712
池中	-11.0715
代王	-11.0716
五官	-11.0717
在乎	-11.0723
央	-11.0724
而長	-11.0731
杜注	-11.0735
而不可	-11.0736
一時之	-11.0738
見移	-11.0746
自相	-11.0749
固以	-11.0749
仞	-11.075
皇祖	-11.075
和親	-11.0752
郵	-11.0755
民不	-11.0759
章帝	-11.076
邵陵	-11.0761
淮海	-11.0765
一處	-11.0768
邙	-11.0772
垢	-11.0772
􁀴	-11.0773
健	-11.0774
舂陵	-11.0774
倩	-11.0776
砥	-11.0777
蚩	-11.0777
鑑	-11.0777
騶	-11.0778
武都	-11.078
艮	-11.078
相對	-11.078
裨	-11.0781
偈	-11.0781
隤	-11.0782
崢嶸	-11.0782
琮	-11.0782
閼	-11.0783
趾	-11.0784
盲	-11.0784
奕奕	-11.0784
檐	-11.0785
董仲舒	-11.0785
堤	-11.0785
嘻	-11.0786
棲遲	-11.0786
遍	-11.0786
漱	-11.0787
鬯	-11.0787
搗衣	-11.0787
携	-11.0787
赭	-11.0787
蝕	-11.0788
矰	-11.0788
芰	-11.0788
緇	-11.0788
太𤣥經	-11.0788
稔	-11.0788
張宴曰	-11.0789
鷲	-11.0789
隸	-11.0789
瀨	-11.0789
聆	-11.0789
汩	-11.079
御史中丞	-11.079
跌	-11.079
莘	-11.0791
羗	-11.0791
泯	-11.0791
敢告執	-11.0791
絜	-11.0791
㓗	-11.0791
岧	-11.0791
後生	-11.0793
豺	-11.0793
漢髙帝紀	-11.0793
緗	-11.0794
澆	-11.0794
葭	-11.0794
懋	-11.0794
燄	-11.0794
推轂	-11.0795
冥冥	-11.0795
鄢陵	-11.0795
艫	-11.0795
多矣	-11.0795
彷彿	-11.0796
墓誌	-11.0796
暝	-11.0796
亾	-11.0796
烱	-11.0797
訾	-11.0797
婕妤	-11.0798
愔	-11.0798
寰	-11.0798
愼	-11.0798
旦夕	-11.0798
蔣	-11.0798
字季	-11.0798
閏	-11.0799
齠	-11.0799
襁	-11.0799
磧	-11.0799
湓	-11.08
吹簫	-11.08
慝	-11.08
球	-11.08
宋衛	-11.08
武成元年	-11.08
䋲	-11.0801
鉅	-11.0801
紛紜	-11.0801
右扶風	-11.0801
鼇	-11.0801
庶人	-11.0802
蜮	-11.0802
尚書僕射	-11.0802
髙士傳	-11.0802
蘿	-11.0802
兖州刺史	-11.0803
挿	-11.0803
鍳	-11.0803
桓桓	-11.0803
炯曰此下序	-11.0803
徐州刺史	-11.0803
裵	-11.0804
細栁	-11.0804
尉遲迥	-11.0804
其實	-11.0805
謹啓雲再拜	-11.0805
欷	-11.0805
紳	-11.0805
甥	-11.0805
清淨	-11.0806
蘂	-11.0806
釋迦	-11.0806
趙國公	-11.0806
而已哉	-11.0808
青衿	-11.0808
籟	-11.081
泰寺	-11.081
桓温	-11.0811
鴻毛	-11.0812
神農氏	-11.0814
烏夜啼	-11.0816
衛尉	-11.0817
赤眉	-11.0818
䘮亂	-11.0819
昆吾	-11.082
也詩云	-11.0823
羊腸	-11.0825
太宰	-11.0826
殷勤	-11.0827
偃師	-11.0827
蒼龍	-11.0827
魏孝武	-11.0827
此本	-11.0829
漢書音義曰	-11.0829
姦臣	-11.0831
金剛	-11.0833
飛狐	-11.0833
京邑	-11.0834
馮異	-11.0834
報恩	-11.0836
乞食	-11.0837
冠葢	-11.0837
廬江	-11.0838
英雄	-11.084
宫調	-11.0842
司憲	-11.0843
二十七	-11.0843
詩序云	-11.0845
軍旅	-11.0846
百獸	-11.0848
文王之	-11.0849
岷山	-11.085
中正	-11.0852
成臯	-11.0852
未可	-11.0854
八荒	-11.0857
恩碑	-11.0857
沛國	-11.0858
縣西南	-11.0858
齊國公	-11.0858
河上	-11.0859
少而	-11.0859
年改	-11.0863
南康	-11.0863
黄鶴	-11.0865
孟春	-11.087
昔日	-11.0872
河源	-11.0874
與其	-11.088
周流	-11.0882
賢才	-11.0884
以清	-11.0885
菊花	-11.0885
逸士	-11.0886
不返	-11.0887
於大	-11.0893
所親	-11.0893
三百里	-11.0895
為侍中	-11.09
大王	-11.0901
遊仙	-11.0901
留連	-11.0902
雖不	-11.0903
鴻門	-11.0907
而走	-11.0908
項王	-11.0909
知我	-11.091
尚有	-11.091
西遷	-11.091
徵拜	-11.0911
祭酒	-11.0913
上柱國	-11.0915
佐命	-11.0917
十八年	-11.0919
光宅	-11.0924
當今	-11.0927
竟不	-11.0927
善惡	-11.0935
風俗通曰	-11.0936
云何	-11.094
遺愛	-11.0941
之祥	-11.0941
晨風	-11.0943
竒之	-11.0944
非復	-11.0944
故老	-11.0945
哀哉	-11.0949
來儀	-11.0952
安國	-11.0954
崔氏	-11.0957
休命	-11.0957
本序	-11.0959
夷陵	-11.0962
行役	-11.0968
欲知	-11.0972
未成	-11.0972
尚書郎	-11.0976
本紀曰	-11.0979
臣以	-11.0985
馬邑	-11.0988
至乃	-11.0989
長短	-11.0992
臣等	-11.0995
諸天	-11.0995
太初	-11.1
鄉人	-11.1002
忘歸	-11.1003
大事	-11.101
也史記曰	-11.1011
關西	-11.1011
忽然	-11.1012
豈惟	-11.1019
陳書	-11.1021
四十里	-11.1022
首陽	-11.1023
未見	-11.1028
大司	-11.103
起宗	-11.1035
君子曰	-11.1046
青春	-11.1049
楚師	-11.105
之民	-11.1059
曰卿	-11.106
明主	-11.1062
縣界	-11.1062
水陸	-11.1063
城郡	-11.1064
與諸	-11.1071
之典	-11.1076
幽明	-11.1079
舉兵	-11.108
使君	-11.1083
書生	-11.1088
康叔	-11.1094
水而	-11.1095
紫宫	-11.1097
庶子	-11.11
在斯	-11.1101
交河	-11.1108
上洛	-11.111
華夏	-11.1113
不服	-11.1115
伯陽	-11.112
原注	-11.1123
以臨	-11.1131
不能復	-11.1132
為皇太子	-11.1133
二碑	-11.1133
而起	-11.1135
秦本紀	-11.1139
威靈	-11.1143
雍州牧	-11.1148
正法	-11.1149
河東郡	-11.115
廣平	-11.1156
相承	-11.1162
所著	-11.1166
諸國	-11.1168
思樂	-11.117
動而	-11.117
不異	-11.1171
鳴玉	-11.1175
無廢	-11.1179
於我	-11.1196
幽人	-11.1201
有國	-11.1214
袁紹	-11.1214
無主	-11.1216
其大	-11.1224
相接	-11.1229
瑜	-11.1233
魏氏	-11.1236
心不	-11.1238
既有	-11.1239
亦以	-11.1241
意氣	-11.1241
之失	-11.1246
上天	-11.1247
大川	-11.1251
終朝	-11.1254
識其	-11.1256
之狀	-11.1259
大業	-11.1268
左傳哀	-11.1272
令曰	-11.1272
當復	-11.1279
一舉	-11.1283
也後漢書曰	-11.129
行也	-11.1292
謝滕	-11.1296
鄭人	-11.1297
少陽	-11.1304
法和	-11.1315
初生	-11.1318
秦秦	-11.1318
自然之	-11.1319
於天下	-11.132
五聲	-11.1323
八方	-11.1323
孫子	-11.1331
見蕩	-11.1333
傒	-11.1336
俱為	-11.1337
駟馬	-11.1351
今者	-11.1356
道生	-11.1358
之道也	-11.1361
又東	-11.1361
自闗而東謂之	-11.1362
其七	-11.1363
於長安	-11.1367
蔽日	-11.1374
鼓琴	-11.1375
者則	-11.1378
憮	-11.138
坻	-11.1382
見和張	-11.1384
幘	-11.1384
篇曰	-11.1384
噬	-11.1385
螢	-11.1389
▁繁弨曰	-11.139
筩	-11.1393
譔	-11.1394
寤寐	-11.1397
陸士龍文集卷第	-11.1397
庳	-11.1397
蒐	-11.1398
彧	-11.1398
自闗而西秦晉之間	-11.1398
匣	-11.14
眇眇	-11.1401
鞏	-11.1401
腥	-11.1401
迪	-11.1402
榻	-11.1402
柰	-11.1402
忤	-11.1403
蓐	-11.1403
砧	-11.1404
皆如	-11.1404
魯國	-11.1405
汝潁	-11.1406
踦	-11.1408
躋	-11.1408
懌	-11.1409
霆	-11.1409
羮	-11.1409
塋	-11.141
湏	-11.141
迨	-11.141
鑊	-11.141
康王	-11.1411
顔延年	-11.1411
虬	-11.1411
䟦	-11.1411
㝢	-11.1411
搢紳	-11.1411
蝶	-11.1412
泠	-11.1412
渺	-11.1412
妣	-11.1413
颺	-11.1413
湮	-11.1413
爪牙	-11.1414
从	-11.1414
扣	-11.1414
藺相如	-11.1414
盻	-11.1414
夜光	-11.1414
汙	-11.1415
療	-11.1415
欹	-11.1415
遒	-11.1415
麤	-11.1415
羔	-11.1416
㒺	-11.1416
釘	-11.1417
彎弓	-11.1417
狡	-11.1417
梁簡文	-11.1418
巖巖	-11.1418
嗚	-11.1418
雎	-11.1418
菴	-11.1418
窈	-11.1419
晃	-11.1419
滸	-11.1419
覊	-11.1419
由旬	-11.1419
開府儀同三司	-11.1419
貸	-11.1419
長阿含經	-11.1419
蜡	-11.1419
武王伐紂	-11.142
築長城	-11.142
樹敏曰	-11.142
畒	-11.1421
鉉	-11.1421
延陵季子	-11.1421
漾	-11.1421
匡贊	-11.1422
吏部尚書	-11.1422
餒	-11.1422
渭橋	-11.1422
是其事也	-11.1422
潘岳西征賦	-11.1422
百揆	-11.1423
芟	-11.1423
儷	-11.1423
曵	-11.1423
胷	-11.1423
宋書	-11.1423
縵	-11.1423
誇	-11.1423
踊	-11.1423
䜟	-11.1423
承聖三年	-11.1423
晉公䕶	-11.1424
傅巖	-11.1424
受詔	-11.1424
石榴	-11.1424
恍惚	-11.1425
款	-11.1425
十洲記	-11.1425
宇文泰	-11.1425
凢	-11.1425
孟嘗君	-11.1425
遞	-11.1426
闌	-11.1426
睇	-11.1426
天和六年	-11.1426
箸	-11.1426
漢書藝文志	-11.1427
話	-11.1427
閱	-11.1428
厠	-11.1428
大怒	-11.1428
延佇	-11.1428
漁父	-11.1429
細柳	-11.1429
鴛	-11.1429
公孫𢎞	-11.1429
袪	-11.143
壟	-11.143
奏皇夏	-11.1431
岀	-11.1431
三臺	-11.1431
敦煌	-11.1432
汚	-11.1432
壌	-11.1432
蕩蕩	-11.1432
太祖文皇帝	-11.1432
漢武故事	-11.1433
戚里	-11.1434
左思蜀都賦	-11.1434
訦碑	-11.1435
漢匈奴傳	-11.1436
蒲桃	-11.1437
函谷關	-11.1438
漢藝文志	-11.1438
周瑜	-11.144
吹律	-11.144
李膺	-11.1443
岐路	-11.1443
管蔡	-11.1443
未足	-11.1444
歸鄉里	-11.1444
梁甫	-11.1445
繼體	-11.1445
詣闕	-11.1445
晉地理志	-11.1447
而忘	-11.1448
賢愚	-11.1448
峻極	-11.1449
去國	-11.145
帝於	-11.1451
瑞應	-11.1451
二公	-11.1452
行路	-11.1457
鼔琴	-11.1457
延夀	-11.1457
髙誘曰	-11.146
衡門	-11.1461
普通	-11.1461
之令	-11.1461
何年	-11.1462
之敗	-11.1465
之詞	-11.1468
巢父	-11.1469
昭穆	-11.1469
經綸	-11.147
吾聞	-11.1472
九命	-11.1472
袁安	-11.1473
和帝	-11.1474
者如	-11.1475
三秦記	-11.1478
太息	-11.1478
北征	-11.1479
小者	-11.148
秋霜	-11.148
安帝	-11.148
平原君	-11.1482
維新	-11.1482
雜記	-11.1482
常住	-11.1483
括地志曰	-11.1483
郡國志曰	-11.149
邈矣	-11.1491
鄭康成曰	-11.1491
朗月	-11.1493
三台	-11.1495
升降	-11.1497
並以	-11.1499
伐鄭	-11.1499
聊城	-11.1502
夏后	-11.1505
同穴	-11.1505
河水	-11.1505
淮陽	-11.1506
崔豹古今注曰	-11.1506
斷絶	-11.1508
夏屋	-11.1509
愛敬	-11.1513
秋菊	-11.1513
不生	-11.1514
同時	-11.1515
死罪	-11.1515
殿中	-11.1519
漢書匈奴	-11.152
張禹	-11.1521
泗水	-11.1522
靈龜	-11.1523
一星	-11.1525
嵩高	-11.1528
爾雅云	-11.1529
五嶽	-11.1532
陜州	-11.1533
得稱	-11.1537
盛衰	-11.1539
太微	-11.154
朝鮮	-11.1541
也又云	-11.1541
遥遥	-11.1542
三章	-11.1543
輕舉	-11.1543
成湯	-11.1544
太素	-11.1545
五子	-11.1546
造化	-11.1546
得意	-11.1547
去病	-11.1551
結客	-11.1552
仕周	-11.1553
巴蜀	-11.1553
徽音	-11.1556
因之	-11.1556
我行	-11.1557
二賦	-11.1559
太尉書	-11.1559
海外	-11.156
之陣	-11.1564
人臣	-11.1565
圖曰	-11.1565
顯和	-11.1565
道家	-11.1566
果有	-11.1566
萬乗	-11.1568
隠居	-11.1569
二萬	-11.1569
齊地	-11.157
舊曰	-11.1573
可為	-11.1579
輕車	-11.158
無可	-11.158
齊桓公	-11.1581
豈其	-11.1581
秋草	-11.1583
矣然	-11.1583
所及	-11.1584
天河	-11.1584
悲哉	-11.1585
江陵平	-11.1586
亦謂之	-11.1588
朝野	-11.1597
法駕	-11.16
聖德	-11.16
而不知	-11.1603
應圖	-11.1612
之象	-11.1614
之感	-11.1616
各一	-11.1621
其職	-11.1623
而獨	-11.163
崑崙山	-11.1632
嘉平	-11.164
七星	-11.1646
雲漢	-11.1647
相應	-11.165
自若	-11.1651
應侯	-11.1651
一枚	-11.1653
大破	-11.1654
分别	-11.1659
為世	-11.166
或作	-11.1661
中庸	-11.1666
有光	-11.1667
天歩	-11.1674
十人	-11.1679
八音	-11.1683
與弟	-11.1685
雲飛	-11.1688
若飛	-11.1689
京洛	-11.169
魏師	-11.1691
尊號	-11.1694
者莫不	-11.1695
千嵗	-11.1702
人民	-11.1703
之辭也	-11.1705
以觀	-11.1705
谷風	-11.1718
之象也	-11.1718
晉人	-11.1724
有竒	-11.1726
朝雲	-11.1727
之盟	-11.1731
大雪	-11.1733
廵狩	-11.1736
者所以	-11.174
六星	-11.1743
逺遊	-11.1744
一字	-11.1746
問道	-11.1746
於帝	-11.1748
文子曰	-11.1752
養生	-11.176
言於	-11.1767
之别	-11.1772
無罪	-11.1785
車服	-11.1788
無違	-11.1792
沾衣	-11.1792
乎將	-11.1795
故知	-11.18
陳王	-11.1801
不仁	-11.1803
而已矣	-11.1806
山澤	-11.181
以歸	-11.1818
士龍	-11.1818
此山	-11.182
故自	-11.182
秦軍	-11.1823
難可	-11.1831
國人	-11.1833
二字	-11.1835
字公	-11.1838
作者	-11.1839
百神	-11.184
臣之	-11.1842
不聽	-11.1844
軍司馬	-11.1862
龍城	-11.1871
豈知	-11.1878
林中	-11.188
左傳鄭	-11.1881
鎮西	-11.1898
大士	-11.1901
其門	-11.1903
東下	-11.1904
萬世	-11.1908
秋水	-11.1911
數年	-11.1916
隂山	-11.1919
奏之	-11.1928
西門	-11.1933
五郡	-11.1938
呼為	-11.1939
無所不	-11.1941
小臣	-11.1942
善人	-11.1944
名相	-11.1945
者當	-11.1946
不能得	-11.1948
上蘭	-11.1951
河内郡	-11.1964
自我	-11.1967
可見	-11.1969
無心	-11.1971
集序	-11.1975
名臣	-11.1979
知名	-11.1981
城郭	-11.1981
請以	-11.1984
戎車	-11.1984
前書	-11.1984
無一	-11.1988
之館	-11.1992
小山	-11.1993
能知	-11.1996
括地志	-11.2
維摩經	-11.2009
今朝	-11.201
為司空	-11.2012
郡注舊置	-11.2019
悲歌	-11.2019
雪山	-11.2021
而稱	-11.2021
大寳	-11.2025
惄	-11.2026
之險	-11.2026
不行	-11.2027
曰公	-11.2031
高誘	-11.2036
驃騎大將軍開府儀同三司	-11.2043
在漢	-11.2049
牟	-11.2049
荆臺	-11.2049
豆盧	-11.205
壬	-11.2051
臣司	-11.2052
窘	-11.2052
慼	-11.2053
亦然	-11.2054
妬	-11.2059
盌	-11.2059
文皇帝	-11.206
媵	-11.2061
贊曰	-11.2062
北極	-11.2064
械	-11.2065
坦	-11.2065
嶷	-11.2066
攻城	-11.2067
鏃	-11.2067
貺	-11.2068
説苑	-11.2068
穰	-11.2069
驤	-11.207
疏曰	-11.2071
孔叢子	-11.2071
浹	-11.2071
嘏	-11.2072
呂氏春秋	-11.2072
吉甫	-11.2073
霖	-11.2074
寮	-11.2074
償	-11.2075
缾	-11.2075
黼黻	-11.2075
彘	-11.2076
翺翔	-11.2076
離離	-11.2076
凰	-11.2076
鑚	-11.2077
枳	-11.2077
八千	-11.2077
蠢	-11.2077
扃	-11.2077
入宫	-11.2078
斟	-11.2078
槨	-11.2078
並為	-11.2078
怯	-11.2078
娣	-11.2078
㶚	-11.2079
羆	-11.2079
琅玕	-11.2079
律厯	-11.2079
蚤	-11.208
伊人	-11.208
芋	-11.208
詢	-11.208
頺	-11.208
袤	-11.208
疚	-11.208
埽	-11.208
裒	-11.2081
噎	-11.2081
盆	-11.2081
訣	-11.2081
鯉	-11.2081
𥙷	-11.2082
犍	-11.2082
禍福	-11.2082
嬰兒	-11.2082
詰	-11.2082
矚	-11.2082
七月七日	-11.2082
㤀	-11.2083
少有	-11.2083
俛	-11.2083
慄	-11.2083
耻	-11.2083
荻	-11.2083
洒	-11.2083
漢舊儀	-11.2083
鄣	-11.2083
吠	-11.2084
汲黯	-11.2084
賄	-11.2084
隗	-11.2085
舸	-11.2085
可知也	-11.2085
礪	-11.2085
床	-11.2085
葛覃	-11.2085
懲	-11.2086
繪	-11.2086
不遇	-11.2086
圻	-11.2086
屈原九歌	-11.2086
衫	-11.2086
武帝元鼎	-11.2087
菌	-11.2087
磴	-11.2087
戾止	-11.2087
晰	-11.2087
受脤	-11.2087
嘶	-11.2087
娶妻	-11.2088
繕	-11.2088
兕	-11.2088
猾	-11.2088
掛	-11.2088
王僧辨	-11.2089
消息	-11.2089
江文通集	-11.2089
呌	-11.2089
漢武内傳	-11.2089
劬勞	-11.209
俊乂	-11.209
嬌	-11.209
越裳	-11.209
三輔黄圗	-11.209
使持節車騎大將軍儀同三司	-11.209
昃	-11.2091
夏后氏	-11.2091
插	-11.2091
藤	-11.2091
册	-11.2091
濶	-11.2091
臆	-11.2091
黻	-11.2091
隋書梁州	-11.2092
猛獸	-11.2092
以上四段遞句退成囘文每段各増詩	-11.2092
翬	-11.2093
戮力	-11.2093
籬	-11.2093
嶼	-11.2093
謠	-11.2093
太中大夫	-11.2093
袁宏	-11.2093
耄	-11.2093
北邙	-11.2093
鄜	-11.2093
奰	-11.2093
郡開國公	-11.2093
討平之	-11.2093
小國	-11.2093
坑	-11.2094
袁盎	-11.2094
朝歌	-11.2095
魔	-11.2096
遵渚	-11.2097
廖	-11.2097
爾雅釋	-11.2097
卜筮	-11.2097
怙	-11.2097
涘	-11.2097
曰古者	-11.2098
頥	-11.2098
朱异	-11.2098
戈船	-11.21
令徳	-11.21
鄭箋曰	-11.2101
幻	-11.2101
配天	-11.2101
弭節	-11.2102
佇立	-11.2103
壷	-11.2103
黄鵠	-11.2104
鶉首	-11.2104
敬之	-11.2104
臨卭	-11.2105
亦謂	-11.2105
浮屠	-11.2105
苛	-11.2106
如之何	-11.2106
敢告	-11.2106
釣臺	-11.2107
叨	-11.2107
畋	-11.2108
漢文帝紀	-11.2108
玉臺新詠	-11.2108
突厥	-11.2108
几杖	-11.2108
旌旗	-11.211
鹿鳴	-11.211
索隱曰	-11.211
離婁	-11.211
三秋	-11.2111
之謀	-11.2111
髣髴	-11.2111
魚鱗	-11.2111
合肥	-11.2112
枯木	-11.2112
洗馬	-11.2113
朱雀	-11.2114
悵然	-11.2115
齊王憲	-11.2116
亡國之	-11.2116
絲竹	-11.2119
却月	-11.212
楚妃	-11.212
力牧	-11.2121
地軸	-11.2122
耶若	-11.2122
枝葉	-11.2122
臣邕	-11.2122
亭長	-11.2123
瞻仰	-11.2124
匹夫	-11.2126
龍躍	-11.2126
建章宫	-11.2126
譬猶	-11.2127
陳琳	-11.2127
衞將軍	-11.2128
誓衆	-11.2128
法輪	-11.2129
綱紀	-11.213
陳武帝紀	-11.213
曹植洛神賦	-11.2131
霸陵	-11.2132
靈芝	-11.2132
光大	-11.2134
弄玉	-11.2134
滕王逌序	-11.2134
照鏡	-11.2135
大宗伯	-11.2136
冠蓋	-11.2137
衞青	-11.2139
宿衛	-11.2139
魏公子	-11.2139
邵陵王	-11.214
終南山	-11.2142
親友	-11.2142
乗風	-11.2142
誅之	-11.2143
傅𤣥	-11.2146
臨川王	-11.2146
高誘曰	-11.2146
小園賦	-11.2147
謁帝	-11.215
谷口	-11.2152
青烏	-11.2152
朝霞	-11.2153
别鶴	-11.2153
新亭	-11.2153
夜夢	-11.2156
馬上	-11.2156
繫馬	-11.2158
羽儀	-11.2159
二妃	-11.216
賦詩	-11.2161
春官	-11.2162
邦之	-11.2162
博物	-11.2164
玉斗	-11.2164
織成	-11.2164
天元	-11.2165
五百里	-11.2166
庭中	-11.2168
寸心	-11.2168
王子年拾遺記曰	-11.2168
之勞	-11.2169
用此	-11.217
漢武帝紀	-11.2172
鳴琴	-11.2173
去矣	-11.2173
濟隂	-11.2175
三河	-11.2175
六日	-11.2177
若無	-11.2179
諸生	-11.2181
靈根	-11.2183
舟師	-11.2184
而食	-11.2184
仕魏	-11.2184
軍人	-11.2184
陣雲	-11.2185
房陵	-11.2185
陰氣	-11.2185
芳草	-11.2186
尋遷	-11.2189
都亭	-11.219
大者謂之	-11.2194
率兵	-11.2194
恒州	-11.2195
比之	-11.2197
無生	-11.2198
中台	-11.2201
大火	-11.2201
懸車	-11.2203
烈士	-11.2203
欲得	-11.2204
貨殖傳	-11.2204
五溪	-11.2204
禮儀	-11.2208
五百人	-11.2211
英聲	-11.2211
文字	-11.2216
南面	-11.2217
以功	-11.2217
王喬	-11.2217
先人	-11.2219
封禪書	-11.2219
所治	-11.2222
流風	-11.2222
馬融	-11.2224
皇極	-11.2225
占曰	-11.2225
爰居	-11.2226
荆門	-11.2233
之資	-11.2233
謡曰	-11.2233
耳今	-11.224
太宗	-11.2249
物咸	-11.225
風聲	-11.2254
夏首	-11.2254
八極	-11.2254
歌云	-11.2256
韓魏	-11.2263
衆軍	-11.2264
宫商	-11.2264
為善	-11.2265
三山	-11.2267
鳥鳴	-11.2268
應化	-11.2274
西施	-11.2275
武陽	-11.2279
先祖	-11.2281
而笑	-11.2287
羽扇	-11.2288
經典	-11.2289
少女	-11.2291
無形	-11.2299
位在	-11.23
開皇	-11.2301
稅	-11.231
元帝承制	-11.231
伏惟	-11.2311
兗州	-11.2311
矣或問	-11.2313
官至	-11.2314
親臨	-11.2315
㤗山	-11.2316
宰相	-11.2317
送之	-11.2321
知已	-11.2321
利用	-11.2323
之㑹	-11.2329
從弟	-11.233
也北史	-11.2331
生死	-11.2333
魏室	-11.2335
以立	-11.2339
東伐	-11.234
大悦	-11.2341
章華	-11.2349
象經	-11.2349
觀書	-11.2354
黄初	-11.2357
至長安	-11.2362
周書曰	-11.2372
苦心	-11.2374
奏事	-11.238
故國	-11.2382
一一	-11.2391
雖小	-11.2392
景福	-11.2393
夏侯	-11.2402
帝以	-11.2404
秋七月	-11.2406
明星	-11.2407
以通	-11.2413
金玉	-11.2413
安定	-11.2414
人道	-11.2414
經過	-11.2419
行幸	-11.2419
鄭常	-11.2419
通好	-11.2421
祖考	-11.2424
年六十	-11.2426
不願	-11.2426
亦在	-11.2428
隨之	-11.243
白起	-11.243
甚衆	-11.2438
伯樂	-11.2441
陽九	-11.2442
和樂	-11.2448
于東	-11.2448
燕王	-11.2449
義兵	-11.2455
鐘鼎	-11.2457
萬户	-11.2458
以手	-11.2462
豈得	-11.2467
置總管府	-11.2474
韓詩	-11.2476
文帝紀	-11.2477
也漢	-11.2479
一角	-11.2481
齊軍	-11.2485
穆王	-11.2486
封為	-11.249
張本	-11.2495
二十九	-11.25
中常侍	-11.2509
如雨	-11.2513
好音	-11.2516
在洛陽	-11.2521
舊本	-11.2522
城上	-11.2525
三曰	-11.2531
今遣	-11.2532
詩人	-11.2539
黄雲	-11.2548
相命	-11.2549
郡舊置	-11.2549
梁國	-11.2551
為二	-11.2551
一見	-11.2559
山岳	-11.2562
髙山	-11.2562
汲郡	-11.2564
與陳	-11.2565
安所	-11.2566
之域	-11.2567
傷情	-11.2569
作頌	-11.2573
京城	-11.2578
日至	-11.2582
義同	-11.2583
信州	-11.2585
無極	-11.2586
救之	-11.2588
司馬裔	-11.259
友人	-11.259
文雅	-11.259
仰天	-11.2595
𤣥象	-11.2597
長安城	-11.2602
帝室	-11.2602
年老	-11.2621
國王	-11.2622
相知	-11.2637
所重	-11.2656
有徳	-11.2656
五首	-11.2659
山嶽	-11.2662
講武	-11.2663
蜩	-11.2667
晉書曰王	-11.2669
陽臺	-11.2673
崇傳	-11.2674
飲之	-11.2675
抱樸子	-11.2675
數日	-11.2683
雖非	-11.2683
三老	-11.2684
焉有	-11.2685
猶未	-11.2685
述異記	-11.2688
歸魏	-11.269
郡中	-11.2691
上疏	-11.2694
與衆	-11.2699
也注見	-11.2701
臣子	-11.2703
乎或曰	-11.2704
之苦	-11.2706
仕梁	-11.2707
南朝	-11.2716
總管府	-11.2725
以應	-11.2726
美之	-11.2727
二十五	-11.2729
所執	-11.2736
於江陵	-11.2739
隋書揚州	-11.2744
孫楚	-11.2748
征人	-11.2757
但見	-11.2758
行者	-11.2759
四門	-11.2759
佛經	-11.2759
胙	-11.2765
遡	-11.2768
吏部	-11.277
摹	-11.2772
蕭瑟	-11.2772
亶	-11.2775
郞	-11.2775
祓	-11.2776
長平之	-11.2778
自闗而西秦晉之間凡	-11.2779
魏曹植	-11.2781
嵇中散集巻第	-11.2781
黷	-11.2782
棃	-11.2783
筭	-11.2783
拓跋	-11.2783
徐廣曰	-11.2784
愷悌	-11.2785
筋	-11.2785
撲	-11.2785
蹻	-11.2786
鴆	-11.2786
不終	-11.2787
砥柱	-11.279
猪	-11.279
踞	-11.279
盂	-11.2791
漕	-11.2791
齓	-11.2791
曺	-11.2791
有詔	-11.2792
周書武帝紀云	-11.2792
郭璞注云	-11.2792
縊	-11.2792
弓矢	-11.2792
猗猗	-11.2792
晻	-11.2792
楽	-11.2793
嚶	-11.2793
栱	-11.2793
袁宏後漢紀曰	-11.2793
帑	-11.2793
状	-11.2794
晉書載記	-11.2794
疫	-11.2794
緼	-11.2794
藺	-11.2794
契濶	-11.2794
笮	-11.2794
蛾眉	-11.2795
犂	-11.2795
莎	-11.2795
隷	-11.2795
纊	-11.2795
聨	-11.2795
逶迤	-11.2795
陘	-11.2795
髫	-11.2796
脉	-11.2796
駑	-11.2796
逓	-11.2796
屍	-11.2796
腕	-11.2797
苴	-11.2797
蹔	-11.2797
沱	-11.2798
進爵為王	-11.2798
朋友	-11.2798
尉遲逈	-11.2798
闋	-11.2798
皎皎	-11.2798
隈	-11.2798
嘉禾	-11.2799
躁	-11.2799
啄	-11.2799
瞢	-11.2799
螟	-11.2799
譎	-11.2799
蹀	-11.28
閩	-11.28
諠	-11.28
嬖	-11.28
瞿	-11.28
由來	-11.28
巡狩	-11.28
樞機	-11.28
蔬	-11.2801
尚書舜典	-11.2801
簞	-11.2801
法言	-11.2801
洩	-11.2801
几筵	-11.2801
無憂	-11.2802
靨	-11.2802
旭	-11.2802
神氣	-11.2802
氾	-11.2802
不聴	-11.2802
葳蕤	-11.2802
溥	-11.2802
日月星辰	-11.2802
彥	-11.2802
江淹别賦	-11.2803
庶績	-11.2803
採菱	-11.2803
器械	-11.2803
祝融	-11.2803
廩	-11.2803
繼踵	-11.2803
隰	-11.2803
吴越春秋	-11.2803
薊北門	-11.2803
灘	-11.2804
梢	-11.2804
畦	-11.2804
見報寄	-11.2804
剡	-11.2804
𡨕	-11.2805
左思魏都賦	-11.2805
廡	-11.2805
乞骸骨	-11.2805
張遼	-11.2806
栘	-11.2806
高士傳	-11.2806
餅	-11.2806
婁敬	-11.2806
蔥	-11.2806
玦	-11.2807
招揺	-11.2807
硯	-11.2807
建平	-11.2807
網羅	-11.2807
壠	-11.2807
廣成子	-11.2807
之珍	-11.2807
籙	-11.2807
熹	-11.2808
崑山	-11.2808
番	-11.2808
丹墀	-11.2808
磐	-11.2809
扁	-11.2809
羽檄	-11.2809
遮	-11.2809
縞	-11.2809
辛丑	-11.281
奕世	-11.281
梁孝王	-11.2811
劉裕	-11.2811
司𨽻	-11.2811
攝提	-11.2812
湯東澗曰	-11.2812
瓦解	-11.2812
櫺	-11.2812
丹陽尹	-11.2812
鋒鏑	-11.2813
億兆	-11.2814
笠	-11.2815
斵	-11.2815
枻	-11.2817
痾	-11.2817
潁隂	-11.2817
六翮	-11.2817
離騷	-11.2817
長樂宫	-11.2818
攻之	-11.2818
禇	-11.2819
干寳	-11.2819
智慧	-11.2822
亷頗	-11.2822
促節	-11.2822
大鴻臚	-11.2823
趙世家	-11.2824
牛羊	-11.2824
機宻	-11.2824
雍容	-11.2825
皇甫	-11.2826
戎狄	-11.2828
冠冕	-11.2829
倒景	-11.283
東萊	-11.2831
漢書地理志云	-11.2831
淳于	-11.2831
曽孫	-11.2832
姬姓	-11.2834
貴戚	-11.2834
宛轉	-11.2836
史記正義曰	-11.2836
引領	-11.2837
襲爵	-11.2837
西都賦曰	-11.2838
晉國公	-11.2839
▁此章喻	-11.2841
碑銘	-11.2841
順帝	-11.2841
龍鱗	-11.2843
杜預云	-11.2843
諸矦	-11.2846
五里	-11.2847
中葉	-11.285
不圖	-11.285
濯龍	-11.285
大射	-11.285
玉堂	-11.2851
河梁	-11.2851
虞淵	-11.2851
既已	-11.2852
衣錦	-11.2853
純深	-11.2853
毛萇曰	-11.2854
夜郎	-11.2854
此篇	-11.2854
禪位	-11.2855
竇氏	-11.2856
史記天官書曰	-11.2857
四隅	-11.2857
説文云	-11.2857
喬木	-11.2858
陶淵明集	-11.2861
屈節	-11.2865
二郡	-11.2865
曰昔者	-11.2866
禍亂	-11.2867
況復	-11.2871
安在	-11.2874
無子	-11.2876
雲梯	-11.2876
稚子	-11.2876
博學	-11.2877
髙唐	-11.2878
方丈	-11.2882
昭達	-11.2882
懐抱	-11.2883
東臯	-11.2884
劉備	-11.2884
悦之	-11.2887
山海經云	-11.2887
魯衛	-11.2887
落花	-11.2888
形影	-11.2888
南史宋	-11.2891
吳越	-11.2894
東序	-11.2895
入門	-11.2901
上流	-11.2901
燭賦	-11.2901
舊宅	-11.2901
討景	-11.2901
竹書紀年	-11.2901
而興	-11.2904
也爾雅曰	-11.2905
生男	-11.2907
始生	-11.2908
孝章	-11.2909
長歎	-11.2911
合歡	-11.2912
公輸	-11.2912
各異	-11.2912
建威	-11.2915
孝敬	-11.292
秦地	-11.2921
不若	-11.2921
常恐	-11.2922
相去	-11.2923
正旦	-11.2924
仰視	-11.2925
横江	-11.2925
和風	-11.2925
永碑	-11.2925
仍為	-11.2925
官族	-11.2925
華陽國志曰	-11.2927
何也曰	-11.2929
梁鴻	-11.293
信順	-11.2931
曰先生	-11.2931
之固	-11.2931
其處	-11.2932
齊桓	-11.2932
其狀	-11.2932
文辭	-11.2933
宋人	-11.2935
年十五	-11.2941
湘水	-11.2942
吏士	-11.2943
人物	-11.2945
長洲	-11.2945
高唐	-11.2946
邦君	-11.2948
智者	-11.2949
何則	-11.295
毛傳	-11.2953
汝等	-11.2955
而泣	-11.2955
緑水	-11.2956
毛詩曰	-11.2956
之疾	-11.2958
避難	-11.2958
原州	-11.2959
黄圖	-11.2964
天禄	-11.2967
宫調曲	-11.2968
對酒	-11.2968
形容	-11.2969
十丈	-11.297
于淵	-11.2972
豈獨	-11.2973
天官書曰	-11.2973
固辭	-11.2973
百兩	-11.2977
下民	-11.2978
其八	-11.298
五刑	-11.298
去去	-11.2984
歲月	-11.2987
流矢	-11.2989
哲人	-11.2992
職云	-11.2993
霸上	-11.3001
部中大夫	-11.3001
爰及	-11.3002
始出	-11.3005
嗟我	-11.3007
輕重	-11.301
九鼎	-11.3012
望見	-11.3013
幽情	-11.3013
躬自	-11.3016
清波	-11.3016
永别	-11.302
禮器	-11.3021
友生	-11.3022
表云	-11.3022
泣曰	-11.3024
王霸	-11.3026
諸公	-11.3026
青衣	-11.3027
悲鳴	-11.3028
之黨	-11.3033
著於	-11.3034
治也	-11.3036
哀哀	-11.3037
千餘里	-11.304
青色	-11.3042
衣食	-11.3043
精神	-11.3046
當塗	-11.3052
為刺史	-11.3056
悲哀	-11.3058
長孫	-11.3061
室中	-11.3063
復歸	-11.3066
初置	-11.3066
百日	-11.3067
龍首	-11.3068
先賢	-11.307
漢書武帝	-11.3074
陸逞	-11.3076
元皇帝	-11.3078
道書	-11.3081
品物	-11.3082
之志也	-11.3084
見連	-11.3086
鄭氏	-11.3086
仲夏	-11.3092
多病	-11.3094
而發	-11.3098
東陽	-11.3101
公族	-11.3103
郡後魏置	-11.3104
本草	-11.3104
卭竹	-11.3107
乎寧	-11.3115
始祖	-11.3117
恐非	-11.3121
水衡	-11.3124
仲尼曰	-11.3129
惡之	-11.313
二篇	-11.3132
元氣	-11.3141
乃眷	-11.3143
城也	-11.3144
春賦	-11.3148
十有五	-11.315
太華	-11.315
燈賦	-11.3152
九轉	-11.3166
樂安	-11.3166
先民	-11.3169
樂記曰	-11.3171
史記曰秦	-11.3178
六師	-11.3185
但以	-11.3186
風化	-11.3191
之辱	-11.32
以慰	-11.3201
歸心	-11.3201
過去	-11.3205
令㫖荅曰	-11.3217
已死	-11.3221
所欽	-11.3227
年八	-11.3228
大喜	-11.3231
晉安	-11.3232
之論	-11.3233
不輟	-11.3237
所感	-11.3239
清明	-11.3248
平元年	-11.3255
天池	-11.3258
不起	-11.3266
興言	-11.3267
成敗	-11.3268
巴東	-11.327
直道	-11.3273
獨見	-11.3275
周武帝	-11.3277
二女	-11.3285
非獨	-11.329
不敬	-11.3295
大江	-11.3297
民望	-11.3298
州南	-11.3299
相連	-11.3307
不俱	-11.3311
君臣之	-11.3311
二十五年	-11.3315
神舉	-11.3319
哀帝	-11.332
陸機詩	-11.3329
誰言	-11.3331
怒曰	-11.3334
水草	-11.3342
鄭公	-11.3344
之華	-11.3351
至徳	-11.3355
濟江	-11.3363
一里	-11.3365
美玉	-11.3374
飛塵	-11.3374
舊都	-11.3374
天性	-11.3377
霓	-11.338
銀臺	-11.3388
華州	-11.339
古有	-11.339
帝諱	-11.3393
伐之	-11.3394
一面	-11.3395
三藏	-11.3396
乃止	-11.3396
故引	-11.3399
矣若	-11.3402
青山	-11.3404
五曰	-11.3407
江中	-11.3408
昔人	-11.341
言江陵	-11.3424
龍見	-11.3424
有熊	-11.343
善曰	-11.3432
一丘	-11.3438
立春	-11.3443
論道	-11.3448
萬物之	-11.3451
肅宗	-11.3461
勸進	-11.3466
曰陛下	-11.3469
景命	-11.3483
毛萇	-11.3487
湘州	-11.3492
飛龍	-11.3493
水流	-11.3494
五巻	-11.3496
輶軒使者絶代語釋别國方言第	-11.3497
同郡	-11.3503
始平	-11.3514
竺	-11.3517
癭	-11.352
蝎	-11.3525
願言	-11.3528
崑	-11.3529
其難	-11.353
列仙	-11.3532
南楚之外	-11.3532
髙誘	-11.3532
蟋蟀	-11.3533
滕王逌	-11.3533
四方之	-11.3533
實惟	-11.3537
難得	-11.3538
嘗為	-11.3538
稼穡	-11.3541
祁連	-11.3543
狙詐	-11.3545
恧	-11.3546
偪	-11.3547
忻	-11.3548
頭上	-11.3549
姻	-11.3551
豚	-11.3551
薛綜曰	-11.3551
璫	-11.3551
漉	-11.3552
虗	-11.3552
耋	-11.3552
科斗	-11.3552
祁祁	-11.3553
四牡	-11.3553
煌煌	-11.3553
佾	-11.3553
飜	-11.3553
懶	-11.3555
蜘蛛	-11.3555
紺	-11.3556
蓬莱	-11.3556
姧	-11.3556
懇	-11.3557
滋味	-11.3557
晤	-11.3557
瀼	-11.3557
豢	-11.3557
漁釣	-11.3557
亹亹	-11.3557
楸	-11.3558
豬	-11.3558
逄	-11.3558
袒	-11.3558
崧	-11.3558
天降	-11.3558
凌霄	-11.3559
勦	-11.3559
銓	-11.3559
廙	-11.3559
張平子	-11.356
臨河	-11.356
櫨	-11.3561
拖	-11.3561
辦	-11.3561
脯	-11.3561
呵	-11.3561
褰	-11.3562
咨嗟	-11.3562
扞	-11.3562
真誥	-11.3562
旟	-11.3562
岳陽王詧	-11.3562
翾	-11.3562
周禮鄭注曰	-11.3562
絹	-11.3562
鬲	-11.3562
孑	-11.3562
胡笳	-11.3563
少年塲	-11.3563
憔悴	-11.3563
昆蟲	-11.3563
擄	-11.3563
筝	-11.3563
釧	-11.3563
泫	-11.3563
剛柔	-11.3563
帖	-11.3564
𤣥術瑩之	-11.3564
筑	-11.3564
太行	-11.3564
諶	-11.3564
嘈	-11.3564
溝洫	-11.3564
刪	-11.3565
陳思王	-11.3565
襜	-11.3565
須彌山	-11.3565
陸士衡	-11.3565
橈	-11.3565
祊	-11.3565
封禅	-11.3566
塢	-11.3566
鷃	-11.3566
擲	-11.3566
龎涓	-11.3566
勛	-11.3566
盟津	-11.3566
貎	-11.3566
飭	-11.3567
瞳	-11.3567
勗	-11.3567
都官尚書	-11.3568
汀	-11.3568
寝	-11.3568
沚	-11.3569
隴坻	-11.3569
幔	-11.3569
冡宰	-11.3569
僮	-11.3569
斐	-11.3569
埀	-11.3569
連翩	-11.3569
凜	-11.3569
克諧	-11.3569
搔	-11.3569
逋	-11.3569
唳	-11.357
檣	-11.357
匕	-11.357
綰	-11.357
鯨鯢	-11.3571
孫臏	-11.3571
陳楚之間	-11.3571
見謝趙	-11.3571
唘	-11.3571
槁	-11.3571
鞮	-11.3571
俄頃	-11.3571
脚	-11.3571
刁斗	-11.3571
豁	-11.3571
周書本紀云	-11.3571
瘡	-11.3571
宓	-11.3571
遨	-11.3572
虹蜺	-11.3572
正月上辛	-11.3572
針	-11.3572
刷	-11.3572
秣陵	-11.3572
唾	-11.3573
雲門之舞	-11.3573
墊	-11.3573
脆	-11.3573
陸法和	-11.3573
甑	-11.3573
耿恭	-11.3573
伏惟陛下	-11.3573
肄	-11.3573
邑五百戸	-11.3573
蔡邕獨斷	-11.3574
詹事	-11.3574
膋	-11.3574
氲	-11.3574
吻	-11.3574
熒惑	-11.3574
甲戌	-11.3575
蜚	-11.3575
夏侯嬰	-11.3575
着	-11.3575
張衡東京賦	-11.3575
欣然	-11.3575
譟	-11.3576
藜藿	-11.3576
朝服	-11.3576
范睢	-11.3576
皐	-11.3576
沬	-11.3576
穫	-11.3576
竇憲	-11.3576
擥	-11.3576
陸璣	-11.3576
千二百	-11.3577
璉	-11.3577
滄	-11.3577
莊嚴	-11.3577
熊耳	-11.3578
屈膝	-11.3578
連鑣	-11.3578
蔭	-11.3578
垂翅	-11.3578
劉楨	-11.3578
濆	-11.3578
旻	-11.3579
左傳注	-11.3579
玫	-11.3579
摽	-11.3579
父肩吾	-11.3579
鉏	-11.3579
採桑	-11.358
黿鼉	-11.358
漲	-11.358
惇	-11.358
舳	-11.358
莞	-11.358
緘	-11.3581
逸豫	-11.3581
麓	-11.3581
踐祚	-11.3582
㽔	-11.3582
氏之先也	-11.3582
傅説	-11.3583
暎	-11.3583
羅敷	-11.3583
訛	-11.3583
彭祖	-11.3584
京房	-11.3584
囷	-11.3584
茫	-11.3585
樓船將軍	-11.3585
後漢百官志	-11.3585
架	-11.3585
爾朱榮	-11.3586
騏驥	-11.3586
律吕	-11.3586
祖宗	-11.3586
隋書地理志云	-11.3586
晉陽秋	-11.3586
戢翼	-11.3586
醴泉	-11.3587
爍	-11.3587
臯蘭	-11.3587
貳師	-11.3588
吕尚	-11.3588
日磾	-11.3588
庾子山	-11.3588
千鈞	-11.3589
冠帶	-11.3589
楊彪	-11.3589
甘泉宫	-11.359
雷電	-11.359
杜龕	-11.359
鎧	-11.3591
振旅	-11.3592
阿衡	-11.3593
複道	-11.3593
蕭索	-11.3593
梵語	-11.3595
侍宴	-11.3597
桃源	-11.3597
寡婦	-11.3598
周處士	-11.3598
首尾	-11.3599
謝眺	-11.3599
孟嘗	-11.3599
少傅	-11.36
加侍中	-11.3601
王仲宣	-11.3601
太公望	-11.3602
四瀆	-11.3602
相隨	-11.3603
楊忠	-11.3604
說苑	-11.3605
鄱陽王	-11.3607
許由	-11.3609
二十巻	-11.361
聖哲	-11.3611
禮記檀弓	-11.3611
鄧林	-11.3611
許昌	-11.3612
沉沉	-11.3614
唐叔	-11.3616
朝廷以	-11.3618
梵志	-11.3618
但恨	-11.3618
萬餘人	-11.3618
思舊	-11.3619
外物	-11.362
歲暮	-11.3621
白環	-11.3621
吴王	-11.3621
旬日	-11.3624
兵革	-11.3624
江陵陷	-11.3624
元帥	-11.3625
紫庭	-11.3625
所載	-11.3625
伯姬	-11.3626
良辰	-11.3626
應詔	-11.3626
花開	-11.3629
告之曰	-11.3629
六十四	-11.363
侯安都	-11.363
鄴表	-11.3631
孰能	-11.3632
青雀	-11.3632
滿堂	-11.3632
百千	-11.3633
惟此	-11.3634
湯武	-11.3635
先驅	-11.3635
南嶽	-11.3635
者葢	-11.3636
洛邑	-11.3638
左傳楚子	-11.3639
變衰	-11.3644
四寸	-11.3644
奉璧	-11.3644
厲測曰	-11.3645
之賞	-11.3645
革命	-11.3648
簡易	-11.3649
教化	-11.3649
憲章	-11.365
鄭衛	-11.3651
篇章	-11.3651
祁連山	-11.3653
竟陵	-11.3653
其根	-11.3654
比於	-11.3655
雒陽	-11.3657
伏波	-11.3657
落葉	-11.3658
謝靈運詩	-11.366
欣欣	-11.366
白鹿	-11.3661
百辟	-11.3663
全節	-11.3664
辛氏	-11.3666
晉國	-11.3667
春草	-11.3671
銅梁	-11.3672
厯數	-11.3672
烏江	-11.3672
萬類	-11.3673
李善曰	-11.3675
詠懐	-11.3676
田横	-11.3676
執政	-11.3677
豈徒	-11.3679
微子	-11.368
平津	-11.368
矣或曰	-11.3682
玉藻	-11.3683
列於	-11.3683
一尺	-11.3683
微微	-11.3685
五十年	-11.3685
風雅	-11.3688
師友	-11.3692
十餘日	-11.3697
魯連	-11.3698
十有八	-11.3698
言語	-11.3701
思慮	-11.3703
在彼	-11.3703
投身	-11.3705
蘭臺	-11.3706
至樂	-11.3708
不假	-11.3708
安豐	-11.3709
聖賢	-11.3712
大統三年	-11.3715
飾之	-11.3718
二十年	-11.3719
長尺	-11.3724
楊氏	-11.3725
清塵	-11.3728
嵗星	-11.373
多福	-11.3732
江北	-11.3733
長蛇	-11.3733
忠信	-11.3735
所不能	-11.3737
孰云	-11.3739
神龜	-11.3744
芳樹	-11.3744
青丘	-11.3746
聖皇	-11.3747
七廟	-11.3748
杜注曰	-11.3756
賢於	-11.3758
舊章	-11.3758
安陸	-11.3764
分野	-11.3765
延陵	-11.3768
二君	-11.3769
尚父	-11.377
留侯	-11.377
誰不	-11.3771
雙流	-11.3774
征討	-11.3776
吳越春秋曰	-11.3777
邊城	-11.3777
哉且	-11.3778
方當	-11.3779
入長安	-11.3779
敬禮	-11.3779
注師古曰	-11.3781
龍虎	-11.3783
節度	-11.3788
美女	-11.3788
坐觀	-11.379
何故	-11.38
生離	-11.3803
應劭	-11.3803
今年	-11.3804
仁者	-11.3805
魏郡	-11.3811
羣飛	-11.3811
苑中	-11.3812
黃金	-11.3815
相逢	-11.3817
士衡	-11.3818
下大夫	-11.3819
守節	-11.3822
無措	-11.3822
魏周	-11.3827
黄鳥	-11.3832
魏地	-11.3835
睢陽	-11.3837
太上皇	-11.384
周齊	-11.3842
不任	-11.3847
長卿	-11.3849
所用	-11.385
武寧	-11.3852
何憂	-11.3855
既成	-11.3859
祭地	-11.3861
趙武	-11.3863
光隂	-11.3867
司中	-11.3875
高宗	-11.388
幽居	-11.3883
見論語	-11.3883
聖徳	-11.3885
高臺	-11.3885
秦人	-11.3886
西戎	-11.3886
之盛也	-11.3892
百四十	-11.3901
胡公	-11.3903
水土	-11.3904
金丹	-11.3906
月朔	-11.3908
僉曰	-11.3912
瑶臺	-11.3913
長愁	-11.3916
和趙王	-11.3923
楚歌	-11.3923
多羅	-11.3928
即有	-11.3933
莫非	-11.3942
敗走	-11.3945
衛國	-11.3947
白衣	-11.3949
所懐	-11.395
二儀	-11.3952
三秦	-11.3958
安車	-11.3962
容成	-11.3966
大司空	-11.3968
初服	-11.3971
又遣	-11.3978
其變	-11.3978
司馬裔碑	-11.398
西土	-11.3985
相送	-11.3987
撃之	-11.3989
仁風	-11.3997
大禹	-11.3998
豈復	-11.4003
諸郡	-11.4003
木石	-11.401
斷其	-11.4014
尚未	-11.4028
疾風	-11.4028
非法	-11.4029
至尊	-11.4033
大寶	-11.4034
梁武	-11.404
朝士	-11.4043
山下有	-11.4043
公府	-11.4044
成形	-11.4044
非道	-11.4045
於鄴	-11.4046
夏禹	-11.4055
雍門	-11.4061
安足	-11.4063
忽見	-11.4066
以供	-11.4071
以彰	-11.4074
奉詔	-11.4077
空城	-11.408
豈若	-11.4083
自喻	-11.4084
安歌	-11.4084
往往	-11.4087
多難	-11.4091
名位	-11.4095
等並	-11.4101
遼水	-11.4124
仲宣	-11.4125
清和	-11.413
居官	-11.4137
靈公	-11.4141
梁氏	-11.4143
獨立	-11.4149
七言	-11.4162
郡置	-11.4166
春秋時	-11.4173
過江	-11.4179
嵗在	-11.4183
王啟	-11.4185
不意	-11.4187
汾水	-11.4199
以布	-11.4211
曾不	-11.4212
注引	-11.4226
王修	-11.4229
漢隂	-11.4232
為柱國	-11.4232
不救	-11.4241
臺之上	-11.4241
朝臣	-11.4246
叔夜	-11.4249
平帝	-11.4266
南極	-11.4269
蕩子	-11.4269
岐山	-11.4272
郊廟	-11.4279
今復	-11.4296
新序	-11.4299
雨師	-11.43
天府	-11.4301
天庭	-11.4302
為郎	-11.4304
同歸	-11.4319
四海之	-11.4331
櫟	-11.4333
疑是	-11.434
二十二年	-11.435
天宫	-11.4351
洛神賦	-11.4355
漳水	-11.436
惠帝	-11.436
潢	-11.4362
聾	-11.4362
疋	-11.4364
心之憂矣	-11.4366
翥	-11.4366
不知何	-11.4368
同氣	-11.4369
乆矣	-11.437
讙	-11.4371
直上	-11.4371
之交	-11.4371
饋	-11.4372
南楚謂之	-11.4373
之郊謂之	-11.4374
一章十	-11.4374
虔	-11.4374
崛	-11.4374
如古	-11.4377
嘿	-11.4378
恙	-11.438
邠	-11.438
湼	-11.438
鄭司農	-11.4381
搗	-11.4381
譖	-11.4382
愠	-11.4382
畱	-11.4382
甖	-11.4383
百行	-11.4383
煌	-11.4383
見五張	-11.4383
灼灼	-11.4383
咲	-11.4384
闐	-11.4385
孝閔踐阼	-11.4386
倘	-11.4386
恒山	-11.4386
愬	-11.4387
幅	-11.4387
蓼	-11.4387
莅	-11.4387
溱	-11.4387
頤	-11.4388
𢷬	-11.4388
絓	-11.4388
蔗	-11.4388
罵	-11.4389
贄	-11.4389
淵明詩	-11.4389
蟠木	-11.439
渤	-11.439
黿	-11.439
浄	-11.439
三輔黃圖曰	-11.439
窅	-11.4391
袴	-11.4391
杳杳	-11.4391
雝	-11.4391
殪	-11.4391
受魏禪	-11.4391
褰帷	-11.4391
斌	-11.4391
褘	-11.4392
贅	-11.4392
燥	-11.4392
俞	-11.4392
御史大夫	-11.4392
叶	-11.4392
沅	-11.4392
幢	-11.4392
皇皇	-11.4392
巋	-11.4392
麟趾	-11.4393
皦	-11.4393
殂	-11.4393
寇恂	-11.4393
以下言	-11.4393
覔	-11.4393
粱	-11.4393
淸	-11.4393
蜃	-11.4393
涖	-11.4394
漢律厯志	-11.4395
褊	-11.4395
㟁	-11.4396
賑	-11.4396
旰	-11.4396
録尚書事	-11.4397
牧臣司	-11.4397
塊	-11.4397
絺	-11.4397
脊	-11.4397
緬	-11.4397
漢西域傳	-11.4397
晉灼曰	-11.4398
即皇帝位	-11.4398
郄	-11.4398
耨	-11.4398
漢霍光傳	-11.4398
紘綖	-11.4398
須彌	-11.4398
捫	-11.4398
沴	-11.4398
鋤	-11.4399
婆娑	-11.4399
隋書經籍志	-11.4399
王子喬	-11.44
儁	-11.44
煜	-11.44
白羽	-11.44
鹽鐵論	-11.44
三月三日	-11.44
炬	-11.44
校獵	-11.44
盤桓	-11.44
第三子也	-11.4401
疏勒	-11.4401
莫大於	-11.4401
庾開府集箋註	-11.4401
沐浴	-11.4401
駰	-11.4402
交趾	-11.4402
艘	-11.4402
酤	-11.4402
晡	-11.4402
幌	-11.4402
賀拔	-11.4402
闔閭	-11.4402
箄	-11.4402
踊躍	-11.4402
壅	-11.4402
抜	-11.4403
緫	-11.4403
棧	-11.4403
瑗	-11.4403
窆	-11.4403
遐邇	-11.4403
妒	-11.4403
貲	-11.4403
讋	-11.4404
酎	-11.4404
洋	-11.4404
注西魏置	-11.4404
羯	-11.4404
舳艫	-11.4404
漢王莽傳	-11.4405
儛	-11.4405
抃	-11.4405
阿育王	-11.4405
班固西都賦	-11.4405
猨	-11.4405
娑	-11.4405
岐嶷	-11.4405
摶	-11.4406
澡	-11.4406
百八十	-11.4406
帳裏	-11.4406
燦	-11.4407
嫂	-11.4407
袞	-11.4407
剖符	-11.4408
禋祀	-11.4408
桓譚	-11.4408
梳	-11.4408
輶軒	-11.4408
拉	-11.4408
櫬	-11.4408
舍利弗	-11.4408
伍子胥	-11.4408
阿羅漢	-11.4408
檥	-11.4409
司馬彪	-11.4409
顔延之	-11.4409
胥靡	-11.4409
嵯峨	-11.4409
晣	-11.4409
澠池	-11.4409
番禺	-11.4409
日重光	-11.4409
沸騰	-11.4409
雌雄	-11.4409
祛	-11.441
公孫瓚	-11.441
柱國大將軍	-11.441
戊辰	-11.441
曝	-11.441
睠	-11.441
耒	-11.4411
舞雩	-11.4411
查	-11.4411
珉	-11.4411
掩淚	-11.4412
季札	-11.4412
髙平	-11.4412
丹砂	-11.4412
瓢	-11.4412
周文育	-11.4412
助祭	-11.4412
飮	-11.4413
慤	-11.4413
宗子維城	-11.4413
紊	-11.4414
垂釣	-11.4414
廏	-11.4415
挑	-11.4415
悍	-11.4415
関	-11.4415
虎牢	-11.4415
蠕蠕	-11.4415
瑞應圖	-11.4415
㲲	-11.4416
為貞陽侯	-11.4416
寶刀	-11.4416
衮衣	-11.4416
莫那	-11.4417
牎	-11.4417
季秋	-11.4417
龍旂	-11.4417
貟	-11.4417
岱宗	-11.4418
顒	-11.4418
月出	-11.4418
啾	-11.4418
嗜酒	-11.4419
塗炭	-11.4419
廚	-11.4419
寵辱	-11.4419
霏	-11.4419
南岸	-11.4419
睨	-11.4421
丘墟	-11.4421
櫩	-11.4422
嘘	-11.4422
總校	-11.4423
俛仰	-11.4424
據鞍	-11.4424
士毅	-11.4424
廣雅	-11.4424
荀息	-11.4424
其年授	-11.4425
彭澤	-11.4425
柳莊	-11.4425
恃險	-11.4426
蘇峻	-11.4427
朱鳶	-11.4427
采葛	-11.4427
班超	-11.4428
調伏	-11.4429
紅顔	-11.4429
丹穴	-11.443
因以為名	-11.443
改名	-11.443
安定公	-11.4431
含笑	-11.4432
佳麗	-11.4432
哀公	-11.4433
封豕	-11.4434
待罪	-11.4434
括地	-11.4437
不肖	-11.4437
休息	-11.4439
按此知	-11.444
席巻	-11.4441
三十六國	-11.4442
羣盜	-11.4442
干寶	-11.4443
旗鼓	-11.4444
老幼	-11.4445
芝草	-11.4446
歳暮	-11.4446
左傳襄十	-11.4447
天潢	-11.4447
始興王	-11.4448
堂堂	-11.4449
赤雀	-11.4449
不能救	-11.445
豐碑	-11.4451
壬子	-11.4452
無妨	-11.4456
莫邪	-11.4456
鳴雁	-11.4458
謨明	-11.4458
宣城郡	-11.4461
故以名	-11.4462
萬石	-11.4462
䕶軍	-11.4463
登遐	-11.4463
比干	-11.4463
良弓	-11.4464
升堂	-11.4464
比翼	-11.4465
七尺	-11.4467
趙孟	-11.4467
發憤	-11.4468
見佛	-11.4469
雙闕	-11.447
李夫人	-11.4473
竹書紀年曰	-11.4473
兩岸	-11.4473
長嘯	-11.4474
追尊	-11.4474
況乎	-11.4475
洄曰左傳	-11.4475
此亦	-11.4476
六尺	-11.4476
九萬里	-11.4479
精爽	-11.4479
霍山	-11.4481
異苑	-11.4484
偏師	-11.4485
後漢書光武	-11.4485
擬古	-11.4487
澗水	-11.4487
内則	-11.4488
魏絳	-11.4489
恩澤	-11.449
劉淵	-11.4491
昌容	-11.4493
漢書髙祖	-11.4497
水出焉	-11.4498
荒服	-11.4498
五榖	-11.4501
修竹	-11.4502
營營	-11.4504
幽谷	-11.4504
元康	-11.4505
庚子	-11.4506
二寸	-11.4507
奉迎	-11.451
使魏	-11.451
流霞	-11.4513
至江陵	-11.4515
漢書宣帝	-11.4518
閑居	-11.4521
帝王之	-11.4526
大中大夫	-11.4528
漢書西域傳曰	-11.453
為車騎將軍	-11.4534
周武王	-11.4534
夏口	-11.4539
五岳	-11.4541
見與宗	-11.4542
浮海	-11.4547
六律	-11.455
昌意	-11.455
山齋	-11.4557
永久	-11.456
漁人	-11.4561
賢聖	-11.4563
同軌	-11.4563
謝承	-11.4565
華陰	-11.457
石壁	-11.457
緑林	-11.4574
丹陽郡	-11.4576
不覩	-11.4577
互相	-11.4577
明旦	-11.4578
鄉侯	-11.4581
輿服	-11.4582
徃來	-11.4587
司州	-11.4589
周明帝	-11.4589
豐年	-11.459
大吕	-11.459
高堂	-11.4592
黄泉	-11.4594
千齡	-11.4596
夷吾	-11.4599
如電	-11.4603
宫門	-11.4603
引之	-11.4607
揚聲	-11.4607
韓子曰	-11.4607
璽書	-11.4611
愛之	-11.4614
於南郊	-11.4615
光輝	-11.4627
凡四	-11.4632
飲馬	-11.4634
百草	-11.4635
夕賦	-11.4639
四角	-11.4643
校上	-11.4648
不得已	-11.4653
地市	-11.4653
百代	-11.4656
禽之	-11.4665
此意	-11.4667
靈丘	-11.4676
昌郡	-11.4682
若蘭	-11.4686
雲霄	-11.4691
容裔	-11.4696
顧景	-11.4704
路絶	-11.4705
東都賦	-11.4713
之光	-11.4721
漢末	-11.4721
休明	-11.4728
青林	-11.4728
永元	-11.4733
卿雲	-11.4736
千歲	-11.4737
賢能	-11.4738
進賢	-11.4754
秦滅	-11.4762
德音	-11.4764
州牧箴	-11.4767
不可得而	-11.4768
蒼天	-11.4768
忘其	-11.4768
釋名	-11.477
應聲	-11.4774
四分	-11.4775
縣西北	-11.4785
湑曰左傳	-11.4785
不盈	-11.4786
不違	-11.4787
非所以	-11.4792
趙氏	-11.4797
音律	-11.4799
朱明	-11.4799
庾子山集巻	-11.4801
欽定四庫全書庾子山集巻	-11.4801
雲間	-11.4805
還得	-11.4811
二八	-11.482
微言	-11.4832
元輔	-11.4841
莫若	-11.4843
亡命	-11.4844
司㑹	-11.4852
但當	-11.4859
終身不	-11.4861
成林	-11.4878
刻為	-11.4888
吳楚	-11.4891
何異	-11.4892
梁元帝集	-11.4896
念我	-11.4898
微風	-11.4898
張氏	-11.49
衡陽	-11.4902
永年	-11.4903
未易	-11.4904
和氣	-11.4917
王導	-11.4922
二十里	-11.4925
靡所	-11.4945
龍舟	-11.4957
誠可	-11.4963
吳漢	-11.4975
兩國	-11.4982
雖欲	-11.499
可悲	-11.4992
乃授	-11.4998
齊師	-11.5
華表	-11.5003
答趙	-11.5015
了無	-11.5025
去來	-11.5032
終年	-11.5041
敢問	-11.5041
孝王	-11.5044
泣血	-11.5052
和聲	-11.5054
至理	-11.5062
漢制	-11.5077
琴曲	-11.5078
何求	-11.5083
莫如	-11.5084
奔齊	-11.5084
禮義	-11.5097
後嗣	-11.5102
乃遣	-11.5111
孟子曰	-11.5111
不逮	-11.5114
陸公	-11.5116
陵氏	-11.5117
之所由	-11.5118
生民之	-11.5129
行止	-11.5134
以禦	-11.5139
貨殖	-11.5155
軍次	-11.5163
蜻	-11.5167
天威	-11.5176
乙未	-11.5179
先封	-11.5185
離思	-11.5187
管子	-11.519
對曰臣	-11.5209
西域傳曰	-11.522
才人	-11.5222
宋魏之間謂之	-11.5235
不類	-11.5238
悶	-11.5238
漢書音義	-11.5241
宋齊	-11.5242
蜀都賦	-11.5251
拾遺	-11.5264
皢	-11.5265
揚名	-11.5266
郡注後魏置	-11.5267
吳郡	-11.5272
嶢	-11.5274
吊	-11.5275
鴻臚	-11.5275
晉陸機	-11.5276
聯句	-11.5277
彚	-11.5278
蒲州	-11.5279
張揖曰	-11.528
嗇	-11.5284
猴	-11.5284
捲	-11.5285
阿含經	-11.5286
瞀	-11.5288
牘	-11.5288
汭	-11.529
槌	-11.5291
紗	-11.5291
晉魏	-11.5291
杪	-11.5291
䍧	-11.5292
靈威仰	-11.5293
也東齊曰	-11.5293
刈	-11.5293
鷙	-11.5294
滲	-11.5294
纘	-11.5295
栩	-11.5295
騄	-11.5295
栴檀	-11.5296
捍	-11.5296
鑿齒	-11.5296
耐	-11.5296
階級	-11.5296
蓂	-11.5296
葆	-11.5297
縟	-11.5297
桓譚新論	-11.5297
緌	-11.5297
詆	-11.5297
啖	-11.5298
郊迎	-11.5298
顙	-11.5298
阼	-11.5299
線	-11.5299
纒綿	-11.5299
藝文志	-11.5299
漪	-11.5299
史記封禪書曰	-11.53
苒	-11.53
吳都賦曰	-11.5301
徊	-11.5301
狼狽	-11.5301
戶	-11.5301
九為	-11.5301
珊瑚	-11.5301
邛	-11.5301
劉熈釋名	-11.5302
咫	-11.5302
軰	-11.5302
屨	-11.5302
所貴	-11.5302
磯	-11.5302
廪	-11.5303
達奚武	-11.5303
紡績	-11.5303
闞	-11.5303
規矩	-11.5303
罝	-11.5303
漣	-11.5303
魑	-11.5303
扆	-11.5303
易繫辭曰	-11.5303
筍	-11.5304
逍遙	-11.5304
莱	-11.5304
菖蒲	-11.5304
瓌	-11.5304
姝	-11.5304
嶸	-11.5304
廉頗	-11.5304
由此言之	-11.5304
井陘	-11.5304
厓	-11.5305
椽	-11.5305
溘	-11.5305
逥	-11.5305
飴	-11.5305
漢書郊祀志	-11.5305
蘧	-11.5305
婉孌	-11.5305
儕	-11.5305
蘓	-11.5305
𣲖	-11.5306
洛汭	-11.5306
勱	-11.5306
棠棣	-11.5306
疇咨	-11.5306
光禄勲	-11.5306
錐	-11.5306
枹	-11.5306
濘	-11.5306
嶰谷	-11.5307
麝	-11.5307
兌	-11.5307
絆	-11.5307
禮記郊特牲	-11.5307
此理	-11.5307
枚乗七發	-11.5307
顆	-11.5307
湔	-11.5307
颯	-11.5307
井幹	-11.5308
殻	-11.5308
魯仲連	-11.5308
倜儻	-11.5308
暘谷	-11.5308
鵩	-11.5308
淄澠	-11.5308
齔	-11.5308
辛酉	-11.5308
槍	-11.5308
涅槃	-11.5308
後漢書郡國志曰	-11.5308
櫓	-11.5308
璃	-11.5308
驄	-11.5309
莾	-11.5309
昂	-11.5309
膓	-11.5309
朞	-11.5309
昀	-11.531
盍	-11.531
奬	-11.531
陸費墀	-11.531
竽	-11.531
雹	-11.531
睎	-11.531
歙	-11.5311
邴原	-11.5311
隼	-11.5311
駛	-11.5311
恡	-11.5311
顓	-11.5311
宣政元年	-11.5311
峴	-11.5311
爼豆	-11.5311
荆楚嵗時記	-11.5311
州後周置總管府	-11.5311
竅	-11.5312
豋	-11.5312
鷹揚	-11.5312
肅慎	-11.5312
魏陳思王曹植撰	-11.5312
尉遲	-11.5312
周庾信撰錢唐倪璠纂註	-11.5312
毛詩傳曰	-11.5313
闚	-11.5313
瀍	-11.5313
黼	-11.5313
鷗	-11.5314
㱕	-11.5314
瀘	-11.5314
偷	-11.5314
枿	-11.5314
煒	-11.5314
净	-11.5314
􁀈	-11.5314
畬	-11.5314
後漢逸民傳	-11.5314
扶疎	-11.5315
箇	-11.5315
謫	-11.5315
庚辰	-11.5315
范曄	-11.5315
紏	-11.5315
出自薊北門	-11.5315
苖裔	-11.5315
桮	-11.5315
麻姑	-11.5315
僧伽	-11.5315
琬琰	-11.5316
左思呉都賦	-11.5316
褰裳	-11.5316
歆	-11.5316
舛	-11.5316
庚戌	-11.5316
開國承家	-11.5316
䧏神	-11.5316
帨	-11.5317
笏	-11.5317
攬轡	-11.5317
隗囂	-11.5317
中散大夫	-11.5317
姦回	-11.5317
閶門	-11.5317
黔首	-11.5317
沙漠	-11.5317
食貨志	-11.5318
諮議	-11.5318
簞瓢	-11.5318
㤗寺	-11.5319
漢項籍傳	-11.5319
蕐	-11.5319
授使持節都督	-11.5319
述征記	-11.5319
魂魄	-11.532
轔	-11.532
諜	-11.532
篁	-11.532
駱	-11.532
誕育	-11.532
盃	-11.532
鄴中記	-11.5321
信陵君	-11.5321
亭障	-11.5321
天和三年	-11.5321
隋書雍州	-11.5321
丕顯	-11.5321
兆宫曰	-11.5322
優劣	-11.5322
坏	-11.5322
尙	-11.5322
太清三年	-11.5322
蝸	-11.5322
憩	-11.5322
娱	-11.5323
尚書洪範	-11.5323
維摩詰	-11.5323
逹人	-11.5323
緹	-11.5323
滑臺	-11.5323
璣明之	-11.5323
虎豹	-11.5324
某官	-11.5324
軨	-11.5324
淮南王安	-11.5324
桀黠	-11.5324
吸	-11.5324
伍員	-11.5324
賖	-11.5324
聘於東魏	-11.5324
㺯玉	-11.5325
呉越春秋	-11.5325
范蠡	-11.5325
譬諸	-11.5325
素餐	-11.5325
青苔	-11.5325
百餘里	-11.5325
仁恕	-11.5326
謳歌	-11.5326
減竈	-11.5326
佑	-11.5326
乳母	-11.5326
簣	-11.5326
函谷闗	-11.5327
揚雄甘泉賦	-11.5327
夐	-11.5327
晏嬰	-11.5327
驅馳	-11.5327
菲薄	-11.5327
瓉	-11.5327
執金吾	-11.5327
愽	-11.5327
蕉	-11.5328
姜嫄	-11.5328
簒位	-11.5328
周穆王	-11.5328
風土記	-11.5329
蕭艾	-11.5329
篡	-11.5329
陸遜	-11.5329
掇	-11.533
開闢	-11.533
採蓮	-11.533
覯	-11.5331
􁗁	-11.5331
朔風	-11.5332
陋巷	-11.5332
丙辰	-11.5333
交頸	-11.5333
臺城陷	-11.5333
桑榆	-11.5333
𤣥中記	-11.5334
二十三年	-11.5334
促柱	-11.5334
織室	-11.5334
昆彌	-11.5334
公孫述	-11.5335
八柄	-11.5335
洞房	-11.5335
帷帳	-11.5336
大司農	-11.5336
湯湯	-11.5336
許慎	-11.5336
耆老	-11.5337
詩大雅	-11.5337
敬想足下	-11.5337
晉陶潛	-11.5338
借問	-11.5338
夜啼	-11.5339
州領郡	-11.5339
冀州刺史	-11.5341
秦始皇本紀	-11.5341
蓮葉	-11.5342
唐堯	-11.5342
鶩	-11.5342
儒雅	-11.5343
奔電	-11.5343
顚	-11.5344
枯樹賦	-11.5345
偃息	-11.5346
綠珠	-11.5346
黃鐘	-11.5346
翠鳳	-11.5349
仰瞻	-11.5349
之為榮	-11.5349
遼西	-11.535
隆慮	-11.5351
差池	-11.5351
田疇	-11.5352
師敗績	-11.5352
衆皆	-11.5353
紫㣲	-11.5354
類聚	-11.5354
荅曰	-11.5354
遼陽	-11.5356
澤雉	-11.5356
曾孫	-11.5357
陵遲	-11.5359
百歲	-11.5359
翠羽	-11.536
慈母	-11.5361
惜哉	-11.5362
陳軫	-11.5363
肆志	-11.5364
熊耳山	-11.5366
犬馬	-11.5368
丹烏	-11.537
事注見	-11.537
其通語也	-11.537
在雍州	-11.5371
吏人	-11.5371
反側	-11.5373
度量	-11.5374
瞻彼	-11.5376
第八	-11.5377
桓帝時	-11.5377
威震	-11.5379
曲逆	-11.5379
榮曜	-11.538
其味	-11.538
悼亡	-11.5381
般若	-11.5384
喜雨	-11.5384
漏盡	-11.5384
可憐	-11.5385
陶淵明	-11.5385
但願	-11.5387
臨淮	-11.5388
六藝	-11.5389
部尚書	-11.539
因循	-11.539
赤烏	-11.5391
蕭散	-11.5391
鏡臺	-11.5392
致雨	-11.5395
閉門	-11.5396
秀才	-11.5397
敬仲	-11.5397
克昌	-11.5397
鶴鳴	-11.5398
為驃騎將軍	-11.5398
侯南陽	-11.5399
未甞	-11.5399
闗吏	-11.54
闗塞	-11.54
縱兵	-11.5401
梵云	-11.5402
厯象	-11.5404
内附	-11.5404
宇内	-11.5405
第六	-11.5406
五寸	-11.5407
黄圖曰	-11.5409
舊邦	-11.541
九品	-11.5412
元勲	-11.5417
殷憂	-11.5419
素波	-11.5419
徒勞	-11.5419
欽若	-11.542
素琴	-11.5421
願兄	-11.5422
月支	-11.5422
白璧	-11.5425
四鄰	-11.5426
養老	-11.5427
葉落	-11.5428
桂宫	-11.5429
四尺	-11.5432
樹穀曰此下	-11.5432
字孟	-11.5437
乗機	-11.5438
青徐	-11.544
嶺南	-11.5441
秋冬	-11.5442
母弟	-11.5444
竹葉	-11.5447
虞氏	-11.5447
胡廣	-11.5453
宫闕	-11.5462
好爵	-11.5462
習禮	-11.5467
炎精	-11.5472
致敬	-11.5474
諮曰	-11.5474
毛遂	-11.5476
鄭𤣥曰	-11.548
篤生	-11.5482
五丁	-11.5484
交戰	-11.5485
多違	-11.5487
珠林	-11.5488
太室	-11.5488
武騎	-11.549
平侯景	-11.5493
山頂	-11.5494
叔父	-11.5494
固守	-11.5495
檀弓曰	-11.5496
繁華	-11.5498
南宮	-11.5498
九折	-11.55
甲乙	-11.5507
勝衣	-11.5509
忠義	-11.5509
位次	-11.5516
中有一	-11.5523
校書	-11.553
使使者	-11.5545
兩頭	-11.5548
戎馬	-11.5549
三湘	-11.5551
選作	-11.5554
其名曰	-11.5561
假使	-11.5561
華堂	-11.5562
庭樹	-11.5563
之死也	-11.5567
漢書天文志曰	-11.5568
恵王	-11.5573
元瑜	-11.5577
安邑	-11.5577
迎春	-11.5579
永懷	-11.558
言己	-11.5581
康成	-11.5586
位表	-11.5588
道術	-11.5593
水之陽	-11.56
孔氏	-11.56
光耀	-11.5611
戰死	-11.5614
國家之	-11.5619
幾何	-11.5619
孔明	-11.5626
王偉	-11.5632
舊銘	-11.5633
祭義	-11.5638
十五里	-11.564
不覺	-11.5642
宣帝時	-11.5656
元氏	-11.5658
山崩	-11.566
求諸	-11.5661
隂氣	-11.5671
治民	-11.5675
物色	-11.568
上疏曰	-11.5681
亦宜	-11.5687
周書本傳	-11.5687
志意	-11.5692
良可	-11.5697
皇朝	-11.5699
石鼓	-11.5706
昏明	-11.571
周閔帝	-11.5711
敗績	-11.5723
神丹	-11.5731
便成	-11.5732
願君	-11.5741
三十餘	-11.5743
受封	-11.5743
古樂	-11.5747
紇干𢎞	-11.5752
者也臣	-11.5753
平隂	-11.5757
相親	-11.5769
求賢	-11.5775
歴陽	-11.5777
三后	-11.5794
南陽郡	-11.5803
十二首	-11.5804
在其中	-11.581
司勲	-11.5812
非常之	-11.5814
惟新	-11.5816
其妙	-11.5826
時雍	-11.5827
而食之	-11.5832
元帝時	-11.5836
詩疏	-11.5874
縣東北	-11.5876
亂世	-11.5893
正位	-11.5893
所希	-11.5897
謂侯景	-11.5905
先王之	-11.592
惠公	-11.5923
甚美	-11.5928
漢書律厯志	-11.5932
臣某	-11.5961
年四十	-11.5962
孝宣	-11.5982
泣下	-11.6008
其腹	-11.6013
臣某言臣	-11.6054
西極	-11.6068
豈能	-11.6068
性命之	-11.6068
古詩曰	-11.6077
雅頌	-11.6084
衛將軍	-11.6094
前論	-11.6118
圖經	-11.6119
越絶書	-11.6125
官司	-11.6125
弇	-11.6147
詔問	-11.6162
眷言	-11.6164
臨終	-11.6176
襄陽記	-11.6196
詩興之	-11.621
蠅	-11.6213
䎡	-11.622
山阿	-11.6223
周原	-11.623
史記天官書	-11.6234
逡	-11.6248
燠	-11.6259
鍵	-11.6259
駁	-11.6262
嘖	-11.6268
忒	-11.6268
尚書大傳	-11.6269
小吏	-11.6273
滻	-11.6273
撾	-11.6277
卬	-11.6281
蠖	-11.6281
甌	-11.6282
韍	-11.6284
釡	-11.6285
鯉魚	-11.6285
隋書荆州	-11.6287
晉清河内史陸雲士龍	-11.6287
暈	-11.6288
跼	-11.6288
恂恂	-11.6289
麈尾	-11.6289
紓	-11.6291
茅茨	-11.6291
樛	-11.6291
跖	-11.6292
契闊	-11.6293
茨	-11.6293
鷺	-11.6293
尒朱	-11.6293
頷	-11.6293
宙	-11.6294
滑稽	-11.6294
膂力	-11.6294
𦕈	-11.6294
拏	-11.6295
耗	-11.6295
泳	-11.6295
爕	-11.6295
准	-11.6296
窬	-11.6296
辛氏三秦記	-11.6296
冤	-11.6296
袵	-11.6296
棼	-11.6297
輔佐君子	-11.6297
梁王詧	-11.6298
塹	-11.6298
昊天不弔	-11.6298
琱戈	-11.6299
驎	-11.6299
濩	-11.6299
鼙	-11.6299
鐘磬	-11.6299
兑	-11.6299
怨歌行	-11.6299
皂	-11.6299
金縢	-11.63
凊	-11.6301
斚	-11.6301
仲春之月	-11.6301
班媫妤	-11.6301
蟹	-11.6301
闘	-11.6301
裙	-11.6301
韙	-11.6302
續齊諧記	-11.6302
瑋	-11.6302
稠	-11.6302
驩	-11.6302
邑五百户	-11.6302
兠	-11.6303
馬長城窟	-11.6303
干寳搜神記曰	-11.6303
摻	-11.6303
壬午	-11.6304
朱買臣	-11.6304
篋	-11.6304
畛	-11.6304
昵	-11.6304
牂	-11.6304
麞	-11.6304
嫗	-11.6305
戚戚	-11.6305
泮	-11.6305
薙	-11.6305
默	-11.6305
潺湲	-11.6306
蘖	-11.6306
擾擾	-11.6306
崔豹古	-11.6306
暌	-11.6306
𦍑	-11.6307
摭	-11.6307
三青鳥	-11.6307
注見上文	-11.6307
鄗	-11.6307
開府儀同	-11.6307
炫	-11.6307
蓬蒿	-11.6307
淮泗	-11.6307
喋	-11.6307
嶓	-11.6307
鞞	-11.6308
驢	-11.6308
轉法輪	-11.6308
厮	-11.6308
後漢班超傳	-11.6308
覈	-11.6308
鮒	-11.6308
皥	-11.6308
迢	-11.6308
撮	-11.6308
賂	-11.6308
籩	-11.6308
猒	-11.6308
朱紱	-11.6309
繢	-11.6309
玉匣	-11.6309
槖	-11.6309
憙	-11.6309
厝	-11.6309
北堂書鈔	-11.6309
同年而語	-11.6309
汲汲	-11.6309
犇	-11.6309
坡	-11.6309
浩浩	-11.631
兵欄	-11.631
承聖二年	-11.631
訶	-11.631
縶	-11.631
饌	-11.6311
榮啓期	-11.6311
椁	-11.6311
鄒衍	-11.6311
璩	-11.6311
詮	-11.6311
欽定四庫全書庾開府集箋註巻	-11.6311
嶤	-11.6311
漢張良傳	-11.6312
促織	-11.6312
逸翮	-11.6312
怳	-11.6312
仆	-11.6312
焜	-11.6312
嵇康琴賦	-11.6312
臧文仲	-11.6312
垂拱	-11.6312
蕭牆	-11.6312
迢迢	-11.6312
奉和趙王	-11.6312
蕙草	-11.6312
峩峩	-11.6312
跳	-11.6312
桁	-11.6313
䓁	-11.6313
淥	-11.6313
等謹案	-11.6313
酢	-11.6313
姢	-11.6313
岨	-11.6313
迤	-11.6313
雷霆	-11.6313
評	-11.6313
都督中外諸軍事	-11.6313
摰	-11.6313
萼	-11.6313
後漢輿服志	-11.6314
鶉火	-11.6314
顛沛	-11.6314
紇豆陵氏	-11.6314
郯	-11.6314
考工記	-11.6314
腴	-11.6314
見為貞	-11.6315
保定五年	-11.6315
三輔舊事	-11.6315
戱	-11.6315
榖梁傳	-11.6315
軒冕	-11.6315
顛覆	-11.6315
彭蠡	-11.6315
蚊	-11.6315
彤管	-11.6315
巘	-11.6315
宋玉招魂	-11.6316
壬辰	-11.6316
尚書左僕射	-11.6316
鸑鷟	-11.6316
喘	-11.6316
懔	-11.6316
孝經援神契	-11.6316
鞬	-11.6316
晉平原内史吳郡陸機士衡	-11.6316
僻	-11.6316
嗟我懐人	-11.6316
葺	-11.6316
晏子春秋	-11.6317
珪璋	-11.6317
酬薛	-11.6317
畵	-11.6317
苕	-11.6317
智度論	-11.6317
阮瑀	-11.6318
聿來	-11.6318
邯鄲淳	-11.6318
銑	-11.6318
杜氏通典	-11.6318
尚書武成	-11.6318
洹	-11.6318
黥	-11.6318
擊筑	-11.6318
氊	-11.6318
眡	-11.6318
鷄鳴	-11.6319
兆騫曰	-11.6319
㳫	-11.6319
童兒	-11.6319
藋	-11.6319
涔陽	-11.6319
王羲之	-11.632
詵	-11.632
埸	-11.632
後漢馬援傳	-11.632
蔓草	-11.632
塵埃	-11.632
潼闗	-11.632
劉聰	-11.6321
中書侍郎	-11.6321
佃	-11.6321
緑沈	-11.6321
﨑嶇	-11.6322
子午	-11.6322
▁是月	-11.6322
古逸詩	-11.6322
惣	-11.6322
二諦	-11.6322
四郊多壘	-11.6322
岑彭	-11.6322
丁亥	-11.6322
栽	-11.6323
郡秦置	-11.6323
報讐	-11.6323
槿	-11.6324
太清元年	-11.6324
三皇本紀	-11.6324
牛斗	-11.6324
𤣥菟	-11.6324
𤣥扈	-11.6324
春申君	-11.6324
知何許人	-11.6325
萱	-11.6325
聮	-11.6325
陸機文賦	-11.6325
典謨	-11.6326
馮唐	-11.6326
上中下	-11.6326
貿	-11.6326
廊廟	-11.6326
卻	-11.6327
㵼	-11.6327
泬	-11.6327
家語孔子	-11.6327
大寳二年	-11.6328
句踐	-11.6328
習習	-11.6328
璇詩之	-11.6328
郭林宗	-11.6329
涅槃經	-11.6329
傅說	-11.6329
芙蓉池	-11.633
屏營	-11.633
延頸	-11.6331
時年六十	-11.6331
百齡	-11.6332
而哭之	-11.6332
廐	-11.6332
太牢	-11.6333
鼔吹	-11.6333
協律	-11.6333
百卉	-11.6334
猿鳴	-11.6334
優游	-11.6334
提要	-11.6334
光芒	-11.6335
匡衡	-11.6335
揚子雲集	-11.6336
喙	-11.6336
継	-11.6336
冺	-11.6337
吁嗟	-11.6337
周公旦	-11.6337
時年四十	-11.6337
江陵之敗	-11.6337
畫眉	-11.6337
矯首	-11.6338
掾史	-11.6338
廛	-11.6338
朱光	-11.634
南徐州刺史	-11.634
勤苦	-11.634
陸渾	-11.634
滔滔	-11.634
武靈王	-11.634
飛蛾	-11.634
喜怒	-11.634
幽冀	-11.6341
桂枝	-11.6341
尚書禹貢	-11.6342
丹竈	-11.6342
海濵	-11.6342
徐庾	-11.6344
邊境	-11.6344
寂寂	-11.6345
帶索	-11.6346
夢想	-11.6348
凱入	-11.6349
黄巾	-11.635
羽獵	-11.635
執鞭	-11.6353
祟	-11.6353
賀婁慈碑	-11.6354
惠和	-11.6354
秩宗	-11.6355
禹迹	-11.6356
項氏	-11.6356
宣太后	-11.6357
典瑞	-11.6357
盈尺	-11.6358
權輿	-11.6358
賀新	-11.6359
中書令	-11.636
軒轅氏	-11.6361
恒州刺史	-11.6362
▁尚瑗曰	-11.6363
交錯	-11.6364
殷湯	-11.6364
列傳云	-11.6366
典刑	-11.6367
頓丘	-11.6367
柏梁	-11.6368
孤鸞	-11.6368
奔走	-11.6369
歡喜	-11.637
吉宅	-11.637
數十里	-11.6371
芥子	-11.6371
隴西郡	-11.6371
尚書大傳曰	-11.6374
追贈	-11.6374
杯酒	-11.6375
張協	-11.6375
英布	-11.6375
僕夫	-11.6376
欲殺之	-11.6376
咸康	-11.6376
抗禮	-11.6378
燕雀	-11.638
雷雨	-11.6382
純孝	-11.6387
白髮	-11.6387
帥師	-11.6387
圖籍	-11.6392
傅母	-11.6392
無涯	-11.6393
㫖酒	-11.6394
早卒	-11.6394
陪臣	-11.6396
散騎	-11.6396
空桑	-11.6397
上黨王	-11.6397
宗社	-11.6399
北史本傳云	-11.64
鐘聲	-11.64
不遑	-11.6401
秘書	-11.6402
林慮	-11.6404
楊朱	-11.6406
説苑曰	-11.6407
歌吹	-11.6408
賜爵	-11.6409
遺情	-11.641
武帝崩	-11.641
有虞氏	-11.641
聘魏	-11.6415
所存	-11.6416
滕王序	-11.6416
未有能	-11.6419
揚州刺史	-11.6424
部曲	-11.6426
懿徳	-11.6426
見和同	-11.6431
蘭葉	-11.6431
腹心	-11.6431
陌上	-11.6432
不臧	-11.6432
比丘	-11.6433
司馬法	-11.6435
所製	-11.6437
小司馬	-11.6439
田𢎞	-11.6439
萬億	-11.644
龜林	-11.6441
愚臣	-11.6441
圖畫	-11.6442
建武中	-11.6442
勿復	-11.6443
丈六	-11.6444
沔陽	-11.6446
長沙公	-11.6446
南浦	-11.6448
二俊	-11.6449
瞻望	-11.6454
同盟	-11.6455
火燒	-11.6457
具足	-11.6461
稷契	-11.6461
昭儀	-11.6463
名之曰	-11.6465
裁成	-11.6471
豎子	-11.6472
靈壽	-11.6476
五斗	-11.6477
平旦	-11.648
耿弇	-11.6481
垂隂	-11.6485
超然	-11.6485
建昌	-11.6487
蒼靈	-11.6488
寒泉	-11.6491
東嶽	-11.6492
榮期	-11.6492
夏殷	-11.6494
有隙	-11.6495
繁弨曰南史	-11.6496
門之外	-11.6498
二十餘	-11.6499
清談	-11.6501
沈約詩	-11.6502
親愛	-11.6502
黄牛	-11.6503
朱鳥	-11.6504
血出	-11.651
六塵	-11.6513
越絶書曰	-11.6515
不能止	-11.6519
赤色	-11.6521
永寧	-11.6522
居喪	-11.6525
清河王	-11.6527
古詩云	-11.6527
安息	-11.653
廣化	-11.6535
信宿	-11.6537
伐楚	-11.6537
朝市	-11.6538
早世	-11.6539
九卿	-11.6542
自古有	-11.6543
殤帝	-11.6546
殺身	-11.6549
三十年	-11.6551
傷懷	-11.6553
氣力	-11.6553
大恱	-11.6555
清琴	-11.6556
孟明	-11.6559
五福	-11.6559
逝將	-11.6561
孔光	-11.6563
懸知	-11.6567
胡馬	-11.6568
真實	-11.6569
交廣	-11.6571
君不見	-11.6577
吉日	-11.6579
刻作	-11.6582
風雪	-11.6589
聲教	-11.6592
妾聞	-11.6594
閒居賦	-11.6596
時人謂	-11.6615
數十萬	-11.6619
衆星	-11.6627
王襃	-11.665
自矜	-11.6669
碩人	-11.6674
魏大統	-11.6685
盤石	-11.6715
豳國	-11.6734
暮春	-11.6743
萬頃	-11.6746
孝經曰	-11.6749
某啓	-11.6761
増讀	-11.6773
遺身	-11.6775
詔贈	-11.6785
百頃	-11.6802
使持節車騎大	-11.6827
孫武	-11.6836
周文王	-11.6859
持節都督	-11.6862
皇帝諱	-11.6864
不失其	-11.6869
竟何	-11.6879
三種	-11.6882
吴志	-11.6886
不倦	-11.6897
在長安城	-11.6899
左傳晉侯	-11.6936
請襲	-11.6955
奈	-11.6957
第十	-11.6964
五十餘	-11.6975
餘慶	-11.6999
虎嘯	-11.7004
異姓	-11.7009
三部一	-11.705
孟冬	-11.7106
十餘里	-11.7106
郡西魏	-11.7135
馬裔	-11.7145
爲佳	-11.7157
花落	-11.7165
平涼	-11.7198
三千餘	-11.7211
成帝時	-11.7248
意甚	-11.7262
諺	-11.727
二丈	-11.7275
養性	-11.7302
進爵為侯	-11.7332
潯	-11.7351
肖	-11.7353
其小者謂之	-11.7355
度遼	-11.7358
二年三月	-11.7364
服䖍	-11.7368
􁁜	-11.7376
鏡機子曰	-11.7377
柚	-11.7378
魯肅	-11.7382
也南楚凡	-11.7386
褥	-11.7389
耘	-11.739
揚子雲	-11.7391
崐	-11.7393
哇	-11.7395
虡	-11.7397
彷徨	-11.7397
應劭漢官儀曰	-11.7397
崎嶇	-11.7397
髀	-11.7398
海水羣飛	-11.7399
成安君	-11.7399
左傳襄二十	-11.7399
滇	-11.7399
纁	-11.74
魯靈光殿賦曰	-11.74
蘩	-11.74
机	-11.7401
杭	-11.7401
秣	-11.7401
綖	-11.7401
鈿	-11.7401
瘞	-11.7401
羝	-11.7401
吕向曰	-11.7402
熠	-11.7402
䬃	-11.7403
孀	-11.7403
寛裕	-11.7403
瘠	-11.7404
鄆	-11.7404
郇	-11.7404
賒	-11.7404
潘尼	-11.7405
聯	-11.7405
褧	-11.7405
屈完	-11.7405
糝	-11.7405
虢鄶	-11.7405
蛩	-11.7406
泠泠	-11.7406
倨	-11.7406
矟	-11.7406
襌	-11.7406
棣	-11.7406
鞶	-11.7406
司農	-11.7407
恚	-11.7407
螻蟻	-11.7407
呼吸	-11.7408
拆	-11.7408
揷	-11.7408
圏	-11.7408
鶬	-11.7408
縉紳	-11.7408
鴨	-11.7408
糟	-11.7409
是用錫公	-11.7409
瘞埋	-11.7409
鹹	-11.7409
元帝紀云	-11.7409
枲	-11.7409
参	-11.7409
予小子	-11.741
濠	-11.741
沆瀣	-11.741
毳	-11.741
菩	-11.7411
按子山	-11.7411
佯	-11.7411
打	-11.7411
觚	-11.7411
噉	-11.7411
噭	-11.7411
三輔決録	-11.7411
僊	-11.7412
蕨	-11.7412
筒	-11.7412
貉	-11.7412
昆侖	-11.7412
耉	-11.7412
潛夫論	-11.7412
龍輔女紅餘志	-11.7412
鏗鏘	-11.7412
豨	-11.7413
徐君房	-11.7413
碓	-11.7413
齊七政	-11.7413
邕邕	-11.7414
鏘鏘	-11.7414
榱	-11.7414
挑戰	-11.7414
叫	-11.7414
鬪	-11.7414
喚	-11.7414
聶	-11.7414
夾鍾	-11.7415
銖	-11.7415
舅甥	-11.7415
瀛洲	-11.7415
栁仲禮	-11.7416
儵	-11.7416
幟	-11.7416
湎	-11.7416
蠱	-11.7416
擯	-11.7416
鶡	-11.7416
輶	-11.7417
臨洮	-11.7417
陶匏	-11.7417
仲山甫	-11.7417
五世相韓	-11.7417
周書列傳云	-11.7417
􁈹	-11.7418
巂	-11.7418
汁光紀	-11.7418
輈	-11.7418
軆	-11.7418
叔孫通	-11.7419
六代之樂	-11.7419
舫	-11.7419
沌	-11.7419
秦置屬幽州	-11.7419
料	-11.7419
神道碑	-11.7419
韓宣子	-11.7419
陬	-11.7419
絞	-11.7419
膂	-11.7419
鏗	-11.742
褕狄	-11.742
天和五年	-11.742
少皥	-11.742
椒房	-11.742
墅	-11.742
賣卜	-11.742
周亞夫	-11.742
笙簧	-11.742
瞑	-11.742
髠	-11.742
爟火	-11.742
購	-11.742
綉	-11.742
罽	-11.7421
江淹恨賦	-11.7421
艇	-11.7421
幰	-11.7421
疵	-11.7421
焱	-11.7421
控鶴	-11.7421
禮記内則	-11.7421
奴婢	-11.7421
鍤	-11.7422
媫妤	-11.7422
㡌	-11.7422
俸	-11.7422
負薪	-11.7422
喟然	-11.7422
鶚	-11.7422
廂	-11.7422
桓溫	-11.7422
黔婁	-11.7422
鍔	-11.7422
昭明太子集	-11.7422
緝熙	-11.7422
祔	-11.7423
貔	-11.7423
叛換	-11.7423
裛	-11.7423
牲幣	-11.7423
拳	-11.7423
百官志	-11.7424
莫之能	-11.7424
姜姓	-11.7424
杲	-11.7424
䆫	-11.7424
閩越	-11.7424
㝠㝠	-11.7424
袿	-11.7424
陁	-11.7424
春秋元命苞	-11.7424
三輔故事	-11.7424
芙	-11.7424
鄧艾	-11.7425
隋書豫州	-11.7425
馳騁	-11.7425
紵	-11.7425
縳	-11.7425
撞鐘	-11.7425
見紇豆	-11.7425
靈光殿賦	-11.7425
瀛	-11.7425
犁	-11.7425
它	-11.7425
湘中記	-11.7426
大厦	-11.7426
男兒	-11.7426
見賀平	-11.7427
梁江文通集卷第	-11.7427
舊唐書	-11.7427
綍	-11.7427
嬀	-11.7427
彎弧	-11.7427
埃塵	-11.7427
鼂	-11.7427
配帝舞	-11.7427
又諮未審	-11.7427
竚	-11.7427
斿	-11.7427
隮	-11.7427
袛	-11.7427
羊舌	-11.7427
崚	-11.7427
州大中正	-11.7427
无	-11.7428
渌	-11.7428
皇帝初獻	-11.7428
月暈	-11.7428
涇渭	-11.7428
文苑英華	-11.7428
鴟梟	-11.7428
團團	-11.7428
曦	-11.7428
左賢王	-11.7428
昭陽殿	-11.7428
彗星	-11.7428
三足烏	-11.7429
珽	-11.7429
炯曰此下	-11.7429
九月九日	-11.7429
漢揚雄傳	-11.7429
簫管	-11.7429
嚼	-11.7429
万	-11.7429
洙泗	-11.7429
陲	-11.743
聒	-11.743
李延年	-11.743
葬信作墓誌	-11.743
鄭箋云	-11.743
瑒	-11.743
馨香	-11.743
湫	-11.743
栅	-11.743
鼔瑟	-11.743
蘭錡	-11.743
劇秦美新	-11.743
韋粲	-11.743
珩	-11.7431
崔駰	-11.7431
尖	-11.7431
懦	-11.7431
賮	-11.7431
象戲賦	-11.7431
萬仞	-11.7431
陳留太守	-11.7431
仇池	-11.7431
嫉	-11.7431
煇	-11.7431
白虹貫日	-11.7431
險阻	-11.7432
馘	-11.7432
蓽	-11.7432
百寮	-11.7432
蓮井	-11.7432
西寜州刺史	-11.7432
莩	-11.7432
攢	-11.7432
建徳元年	-11.7432
秫	-11.7433
甲午	-11.7433
後周圜丘	-11.7433
坊	-11.7433
崔嵬	-11.7433
囀	-11.7433
荀罃	-11.7433
戡	-11.7433
絢	-11.7433
暢轂	-11.7433
烝烝	-11.7433
婚姻	-11.7433
避暑	-11.7433
閻浮提	-11.7433
漢賈誼傳	-11.7433
覺悟	-11.7434
縑	-11.7434
鈇	-11.7434
劉逵注云	-11.7434
閫	-11.7434
白駒	-11.7434
建徳三年	-11.7434
鼉	-11.7434
宓妃	-11.7434
宋玉九辨	-11.7434
締	-11.7435
僞	-11.7435
其詞曰	-11.7435
􁁃	-11.7435
庚申	-11.7435
舟檝	-11.7435
鷲嶺	-11.7435
烟霞	-11.7435
黄鉞	-11.7436
蔕	-11.7436
戊申	-11.7436
竹帛	-11.7436
謀謨	-11.7436
漢霍去病傳	-11.7436
庾肩吾	-11.7436
昌黎	-11.7437
咀	-11.7437
霽	-11.7437
汰	-11.7437
歿	-11.7437
烏巢	-11.7437
藂	-11.7437
臣公言	-11.7437
蜀志諸葛亮	-11.7438
王隠晉書	-11.7438
誚	-11.7438
杜甫	-11.7438
咄	-11.7438
鄉黨	-11.7439
寓目	-11.7439
樽酒	-11.7439
好事者	-11.7439
烏鵲	-11.7439
刳	-11.7439
鋸	-11.7439
晉陶潛撰	-11.7439
昆弟	-11.744
䓗	-11.744
鑄鼎	-11.7441
洊	-11.7441
離繳	-11.7441
盤庚	-11.7441
典午	-11.7441
程氏妹	-11.7441
與楊僕射書	-11.7442
祈福	-11.7442
冽	-11.7442
蹉	-11.7442
谿谷	-11.7442
孫綽	-11.7442
螢火	-11.7442
波瀾	-11.7443
一首荅	-11.7443
户牖	-11.7443
老萊子曰	-11.7443
豫章太守	-11.7444
辟雍	-11.7444
羽觴	-11.7445
欽哉	-11.7445
断	-11.7445
吹笛	-11.7445
𪷟	-11.7445
癸巳	-11.7445
巧笑	-11.7445
䖍劉	-11.7446
悠哉	-11.7446
遲遲	-11.7446
廻雪	-11.7446
升壇	-11.7446
鹽池	-11.7446
崇替	-11.7447
周明帝紀	-11.7447
士燮	-11.7447
二十四首	-11.7447
敬姜	-11.7448
財施	-11.7448
曲阜	-11.7448
太極殿	-11.7448
甲寅	-11.7449
倚柱	-11.7449
採藥	-11.7449
明帝武帝	-11.7452
願陛下	-11.7453
龕銘	-11.7453
勞謙	-11.7453
八駿	-11.7455
見馬射賦	-11.7455
穆天子傳天子	-11.7456
竹箭	-11.7457
暮齒	-11.7457
中饋	-11.7457
薛侯	-11.746
校戰	-11.7461
彈冠	-11.7461
報聘	-11.7461
祠堂	-11.7463
但某	-11.7464
阿房	-11.7464
哀江南賦云	-11.7464
旬月	-11.7466
說文云	-11.7466
夭折	-11.7468
漢書揚雄	-11.7468
播遷	-11.747
煙霞	-11.747
影響	-11.7472
黒色	-11.7474
善慧	-11.7474
周禮鄭注云	-11.7476
華皎	-11.7476
白狼	-11.7476
奸臣	-11.7477
百餘年	-11.7478
祭遵	-11.7478
見豆盧	-11.7481
督郵	-11.7482
甲辰	-11.7482
左傳昭公	-11.7483
樂浪	-11.7484
遠近	-11.7485
𤣥甲	-11.7485
奄然	-11.7487
輕舟	-11.7487
宗盟	-11.7488
地志曰	-11.7488
肅恭	-11.7489
榮辱	-11.7489
雷池	-11.7489
紹宗	-11.749
震驚	-11.749
單衣	-11.749
年十三	-11.7492
積雪	-11.7492
屢空	-11.7493
荆卿	-11.7493
六十里	-11.7494
白寉	-11.7497
孟母	-11.7498
後漢書曰光武	-11.7498
岐陽	-11.7498
荆衡	-11.7499
七寸	-11.7501
漢髙帝	-11.7501
史記索隠注	-11.7501
鴈門	-11.7502
朱穆	-11.7503
畢力	-11.7503
息駕	-11.7504
因以名	-11.7505
少壯	-11.7505
苦雨	-11.7507
結根	-11.7508
富春	-11.7509
齊世家	-11.7509
葛榮	-11.751
嵗暮	-11.7511
使於齊	-11.7512
李牧	-11.7513
謝莊	-11.7513
四嶽	-11.7514
師旅	-11.7516
州西魏改	-11.7516
系出	-11.7517
大抵	-11.7518
别館	-11.7518
浮沉	-11.7519
法苑	-11.752
觀津	-11.7522
師傅	-11.7523
揚塵	-11.7524
率爾	-11.7524
路寢	-11.7524
墓田	-11.7525
辛巳	-11.7525
何晏	-11.7526
吕望	-11.7526
文士傳	-11.7526
大旱	-11.7526
大潰	-11.7527
繼絶	-11.7528
黄屋	-11.7528
令狐	-11.753
有所思	-11.7532
百工	-11.7532
雨雪	-11.7533
奄至	-11.7534
袁氏	-11.7537
猶豫	-11.7538
觸石	-11.7539
不復多	-11.7541
英賢	-11.7542
方寸	-11.7543
貧士	-11.7543
左氏傳曰晋	-11.7543
可惜	-11.7544
雕梁	-11.7546
五千人	-11.7547
慧日	-11.7549
劉𢎞	-11.755
禁兵	-11.7553
驅馬	-11.7554
郎署	-11.7557
北狄	-11.7558
長岑	-11.7558
鳯皇	-11.7558
交横	-11.7559
少卿	-11.7564
援兵	-11.7564
援軍	-11.7565
營室	-11.7565
和鸞	-11.7568
蒼林	-11.757
天涯	-11.7572
永歎	-11.7576
青州刺史	-11.7581
數千里	-11.7586
司直	-11.7591
長幼	-11.7599
威振	-11.7599
賢良	-11.7603
廣州刺史	-11.7603
南子曰	-11.7612
伊昔	-11.7615
下獄	-11.7633
嵩髙	-11.764
箕山之	-11.7653
理之所	-11.7656
元凱	-11.7666
嵩山	-11.7678
求福	-11.7701
蘭房	-11.7705
與之同	-11.7713
才力	-11.772
干木	-11.7725
成王時	-11.7732
金紫光禄大夫	-11.7776
孝子傳	-11.778
在寅	-11.7794
天衢	-11.7842
魏志文帝	-11.7854
此二語	-11.7885
西都賦	-11.7926
步陸逞碑	-11.7945
史記索隠	-11.7951
曰甚矣	-11.7996
漢書成帝	-11.8038
郭賀	-11.8066
慈惠	-11.8078
伐吳	-11.8117
武帝即位	-11.8138
左傳僖二十	-11.8141
失職	-11.8168
猛虎	-11.8178
十五篇	-11.8203
四十餘	-11.8227
刻木	-11.8287
上林賦	-11.8323
了不	-11.8367
水濵	-11.846
七十餘	-11.8462
蛉	-11.8508
王子年拾遺記	-11.8508
螻	-11.851
遷驃騎大將軍開府	-11.8511
秦晉之間謂之	-11.8515
周太祖紀魏廢帝三	-11.852
躔	-11.8552
驃騎將軍	-11.858
栝	-11.8586
趙魏之間謂之	-11.8605
礥	-11.8607
墾	-11.8607
斁	-11.8612
䦯	-11.8616
筴	-11.8621
揄	-11.8625
姪	-11.8631
蔡中郎集	-11.8633
第一義諦	-11.864
猗歟	-11.864
麴	-11.8642
東齊海岱之間謂之	-11.8643
焭	-11.8643
齊威王	-11.8644
軏	-11.8644
河東王譽	-11.8644
呱	-11.8644
索隱	-11.8645
臠	-11.8645
迂	-11.8647
言告言歸	-11.8647
四十二章經	-11.8648
腊	-11.8649
煢煢	-11.8649
麕	-11.8649
訕	-11.8649
慊慊	-11.865
黥布	-11.865
北地郡	-11.8651
跱	-11.8651
澣	-11.8651
枌	-11.8651
郜	-11.8651
螽	-11.8651
綝	-11.8651
噴	-11.8651
𥿄	-11.8652
泗濵	-11.8652
哽	-11.8652
廆	-11.8652
繐	-11.8653
膾	-11.8653
駮	-11.8654
杓	-11.8654
崗	-11.8654
封安豐侯	-11.8654
悸	-11.8654
轜	-11.8654
蕪城賦	-11.8654
崱	-11.8655
渾渾	-11.8655
粢	-11.8655
昊天上帝	-11.8656
跗	-11.8656
輜重	-11.8656
嗤	-11.8656
餽	-11.8657
鹵	-11.8657
㓂	-11.8657
吼	-11.8658
羹	-11.8658
潄	-11.8658
郿	-11.8658
怵	-11.8658
泓	-11.8658
率由舊章	-11.8658
㸑	-11.8659
負笈	-11.8659
馳騖	-11.8659
月重輪	-11.8659
藜牀	-11.8659
𥙿	-11.8659
霖雨	-11.866
由是言之	-11.866
文昌六星	-11.866
躓	-11.866
煦	-11.866
蒜	-11.866
關雎	-11.866
垓下	-11.866
顧野王	-11.8661
麄	-11.8661
浙	-11.8661
賻	-11.8661
苞苴	-11.8661
三千大千	-11.8661
翟雉	-11.8661
脛	-11.8661
漢書樂志曰	-11.8662
十餘丈	-11.8662
武王伐殷	-11.8662
櫛	-11.8662
揭	-11.8662
玖	-11.8662
饕	-11.8663
嘔	-11.8663
靈貺	-11.8663
骸骨	-11.8663
羶	-11.8663
旦奭	-11.8663
夫人諱某	-11.8663
臾	-11.8664
故作是詩	-11.8664
曀	-11.8664
舩	-11.8664
恒河沙	-11.8664
摺	-11.8664
度遼將軍	-11.8664
青葱	-11.8664
氅	-11.8664
扼	-11.8665
簴	-11.8665
詹	-11.8665
寛猛	-11.8665
佛國記	-11.8665
河南洛陽人也	-11.8665
韓安國	-11.8665
斲	-11.8665
貊	-11.8665
王昭君	-11.8665
樗里子	-11.8666
䜛	-11.8666
彛倫	-11.8666
注見前篇	-11.8666
燄燄	-11.8666
金墉城	-11.8666
倏忽	-11.8666
砂	-11.8666
卑濕	-11.8666
衝風之	-11.8666
韡	-11.8666
胡僧祐	-11.8666
赧	-11.8666
陴	-11.8666
踧	-11.8666
解嘲	-11.8666
俎豆	-11.8667
阡	-11.8667
伶倫	-11.8667
夘	-11.8667
尚書大禹謨	-11.8667
振纓	-11.8667
郭伋	-11.8667
飜飛	-11.8668
卜式	-11.8668
櫪	-11.8668
進爵為公	-11.8668
錢塘	-11.8668
迕	-11.8668
圯	-11.8668
鎗	-11.8668
席捲	-11.8668
河橋之役	-11.8668
羈縻	-11.8668
眀	-11.8669
拍	-11.8669
豪傑	-11.8669
知罃	-11.8669
鄢	-11.8669
魏平江陵	-11.8669
中興之業	-11.8669
李周翰曰	-11.867
伉儷	-11.867
武安君	-11.867
鶯	-11.867
因人成事	-11.867
惰	-11.867
有才子八人	-11.867
犍為郡	-11.867
澁	-11.867
郗	-11.867
丼	-11.867
昊蒼	-11.867
黄門侍郎	-11.867
殄瘁	-11.867
鍜	-11.8671
鎩	-11.8671
未之有也	-11.8671
緬邈	-11.8671
漢衛青傳	-11.8671
癸酉	-11.8671
太平御覽	-11.8671
鵲尾	-11.8671
睡	-11.8671
醒	-11.8671
惋	-11.8671
蹲	-11.8672
仭	-11.8672
秣馬	-11.8672
雉朝飛	-11.8672
攪	-11.8672
鏘	-11.8672
剽	-11.8672
涂	-11.8672
楞嚴經	-11.8672
皤	-11.8672
脇	-11.8672
伋	-11.8672
㕓	-11.8672
稽顙	-11.8673
鄉關之思	-11.8673
大軍東討	-11.8673
史皇孫	-11.8673
萱草	-11.8673
曛	-11.8673
趙泉山曰	-11.8673
為洛州刺史	-11.8673
乾隆四十六年	-11.8673
匡救	-11.8673
鏑	-11.8674
玲瓏	-11.8674
鼎沸	-11.8674
疴	-11.8674
漢溝洫志	-11.8674
童謡云	-11.8675
平西將軍	-11.8675
贈本官加	-11.8675
肓	-11.8675
擗	-11.8675
驕盈	-11.8675
掃除	-11.8675
蒿里	-11.8675
奨	-11.8675
矯矯	-11.8675
捜神記	-11.8675
觀佛三昧經	-11.8676
概	-11.8676
笈	-11.8676
犀甲	-11.8676
冗	-11.8676
燋	-11.8676
㩦	-11.8676
岏	-11.8676
𬗟	-11.8676
褚	-11.8676
沉痼	-11.8676
樵蘇	-11.8677
褭	-11.8677
霓裳	-11.8677
左太沖	-11.8677
晉羊祜傳	-11.8677
欽定四庫全書集部二	-11.8677
顔囘	-11.8677
劉逵	-11.8677
昧旦	-11.8677
祀五帝	-11.8677
菰	-11.8677
員外郎	-11.8677
涙	-11.8677
戊午	-11.8678
溝壑	-11.8678
秬鬯	-11.8678
煩惱	-11.8678
毁譽	-11.8678
莭	-11.8678
九折坂	-11.8678
鼗	-11.8678
香爐	-11.8678
纎腰	-11.8678
光和元年	-11.8678
呈祥	-11.8678
錮	-11.8679
暠	-11.8679
于天測曰	-11.8679
疎勒	-11.8679
冮	-11.8679
堙	-11.8679
槱	-11.8679
諸葛誕	-11.8679
禮記王制	-11.8679
罏	-11.8679
樊籠	-11.8679
颸	-11.8679
隳	-11.8679
𥚑	-11.8679
一統志	-11.8679
僚屬	-11.868
凄凄	-11.868
檟	-11.868
葭萌	-11.868
阯	-11.868
陳遣使來聘	-11.868
鄯	-11.868
磵	-11.8681
翟雉名	-11.8681
瑪	-11.8681
漢鄒陽傳	-11.8681
冨貴	-11.8681
耜	-11.8681
漏刻	-11.8681
餞送	-11.8681
舒崇曰	-11.8681
字或作	-11.8681
縣注梁置	-11.8681
桃枝	-11.8681
漢韓信傳	-11.8682
海録碎事	-11.8682
荀朂	-11.8682
光華日月	-11.8682
程嬰	-11.8682
靦	-11.8682
淋	-11.8682
穡	-11.8683
憤懣	-11.8683
詩情明顯	-11.8683
鄠	-11.8683
罇	-11.8683
醢	-11.8683
公孫敖	-11.8683
峭	-11.8683
漢李廣傳	-11.8683
胙土	-11.8683
訝	-11.8684
〇	-11.8684
㽞	-11.8684
樹本曰	-11.8684
南陽新野	-11.8684
苦熱	-11.8684
采蘋	-11.8684
逆旅	-11.8684
犬戎	-11.8684
艧	-11.8684
譙國公	-11.8684
傳燈録	-11.8685
賀拔勝	-11.8685
鐘鼔	-11.8685
第一至第	-11.8685
欽定四庫全書陶淵明集巻	-11.8685
魏文侯	-11.8685
曰美哉	-11.8686
懈	-11.8686
瘦	-11.8686
太平二年	-11.8686
乙丑	-11.8686
天和二年	-11.8686
獺	-11.8686
太子少傅	-11.8686
僵	-11.8686
駿奔	-11.8686
酋豪	-11.8686
羊侃	-11.8687
咏畫	-11.8687
坳	-11.8687
蹛	-11.8688
辛卯	-11.8689
分為二	-11.8689
覓	-11.8689
苻	-11.8689
豐沛	-11.8689
加散騎常侍	-11.869
鴉仁	-11.869
江濵	-11.869
輓	-11.869
【	-11.869
淨土	-11.8691
馮馮	-11.8691
䆳	-11.8691
紛綸	-11.8691
閼氏	-11.8691
善誘	-11.8691
然諾	-11.8692
文殊師利	-11.8692
嵇生	-11.8692
大戴禮	-11.8692
蒲輪	-11.8692
沃野	-11.8693
司隷	-11.8693
簉	-11.8693
桃花源	-11.8693
庾亮	-11.8693
湛露	-11.8694
京畿	-11.8694
蟄蟲	-11.8694
婆羅門	-11.8694
鮑叔	-11.8694
擕手	-11.8695
黎庶	-11.8695
古人有言	-11.8695
晦朔	-11.8696
而察之	-11.8696
陶潜	-11.8696
顔回	-11.8696
凛	-11.8696
營魄	-11.8696
淮陰	-11.8697
年十四	-11.8697
装	-11.8697
劉伶	-11.8697
鄕里	-11.8698
蜀國公	-11.8698
欒布	-11.8698
良醫	-11.8699
媛	-11.8699
徐孝穆集箋注	-11.8699
椒花	-11.8699
閭里	-11.8699
黄山谷	-11.87
閈	-11.87
㕛	-11.87
白兔	-11.87
蒨	-11.87
旗鼔	-11.87
穹蒼	-11.8701
鄭司農云	-11.8701
福禄	-11.8701
熙二年	-11.8702
魏曹植詩	-11.8702
九嬪	-11.8702
修短	-11.8702
台司	-11.8702
卷舒	-11.8702
漢書師古注曰	-11.8703
票	-11.8703
汝南太守	-11.8703
冶容	-11.8704
長平侯	-11.8705
悵望	-11.8705
報寄洛州	-11.8706
楊柳	-11.8707
支庶	-11.8707
長三尺	-11.8708
増輝	-11.8708
帝閽	-11.8708
西南夷	-11.8708
灞陵	-11.8708
尔	-11.8709
浩然	-11.8709
脩短	-11.8709
桑乾	-11.871
筆端	-11.871
甘露降	-11.871
爵禄	-11.8711
須彌山王	-11.8711
温舒	-11.8711
宣尼	-11.8712
九齡	-11.8712
鴛鴦于飛	-11.8712
簫聲	-11.8713
鸞鳳	-11.8713
珪璧	-11.8713
反斾	-11.8713
消憂	-11.8714
嘉榖	-11.8714
子姪	-11.8714
舉烽	-11.8714
鴻漸	-11.8715
佳期	-11.8715
鬱鬱	-11.8715
鴛鴦賦	-11.8717
翠葉	-11.8717
好文學	-11.8717
倉卒	-11.8718
先護	-11.8719
翕然	-11.872
許攸	-11.872
莫測	-11.872
芝蘭	-11.8722
蒸民	-11.8723
招魂	-11.8724
枝條	-11.8727
繁絃	-11.8727
雷震	-11.8727
羲皇	-11.8727
博覽	-11.8729
流汗	-11.8731
攻圍	-11.8731
綺羅	-11.8732
棄予	-11.8733
號泣	-11.8733
無悶	-11.8735
拜侍中	-11.8736
毛傳云	-11.8737
委質	-11.8737
蕭曹	-11.8738
魏世家	-11.8739
芳烈	-11.8739
比屋	-11.874
傅咸	-11.874
籍甚	-11.874
先零	-11.874
直廬	-11.8741
毛羽	-11.8741
夜遁	-11.8742
典籍	-11.8742
區宇	-11.8747
射雉	-11.8748
端委	-11.8748
十有三	-11.8748
緑葉	-11.8751
極浦	-11.8753
苦辛	-11.8755
登帝位	-11.8755
季布	-11.8757
因緣	-11.8757
帝出降	-11.8759
應詔詩	-11.8762
鐘鳴	-11.8763
州後周改	-11.8768
芳塵	-11.8776
樹穀曰此	-11.878
數十年	-11.8781
以臣為	-11.8783
車轍	-11.8797
范陽	-11.8798
漢書東方朔	-11.881
五方之	-11.8816
石頭城	-11.8818
龍蟠	-11.882
白猿	-11.8825
師古注曰	-11.8846
撃破	-11.8847
擬咏懷	-11.8848
顔師古	-11.8859
憂患	-11.8872
士大夫	-11.8895
后攝政	-11.8926
使持節驃騎大將軍開府儀同三司	-11.8945
敢忘	-11.9044
大統元年	-11.9046
鄉亭	-11.9091
帝西遷	-11.9098
袁紹傳	-11.9113
右衛將軍	-11.914
四十八	-11.915
黍離	-11.9167
拜議郎	-11.9224
雅琴	-11.924
督諸軍	-11.9309
襄陽郡	-11.9349
擊鐘	-11.942
金城郡	-11.9429
梁沈約	-11.943
杜預左傳注曰	-11.9473
通考後周	-11.9509
用慰	-11.9517
祖禰	-11.9543
明帝即位	-11.9553
玉帛牲	-11.9689
耿耿	-11.9865
嗣徽	-11.9909
此下序	-11.9961
鄭箋	-12.0004
攡	-12.0025
睒	-12.0027
窕	-12.0042
牛頭栴檀	-12.0045
禊	-12.0049
晉書地理志	-12.005
絙	-12.0051
禔	-12.0051
厖	-12.0055
溼	-12.0056
狸	-12.006
闗西謂之	-12.0061
歌以言之	-12.0062
司冦	-12.0062
筞	-12.0064
淬	-12.0065
惴	-12.0065
伽陀	-12.0066
姨	-12.0068
攓	-12.0068
踴	-12.0068
也東齊海岱之間曰	-12.0068
尫	-12.0068
纚	-12.0068
騮	-12.0069
捉	-12.0069
𡵨	-12.0069
彗	-12.0071
五時迎氣	-12.0071
煬	-12.0071
光祿大夫	-12.0071
薌	-12.0071
􁅃	-12.0072
扛鼎	-12.0073
灃	-12.0073
漢蔡邕撰	-12.0073
馺	-12.0074
厦	-12.0074
螮	-12.0075
錡	-12.0075
湊	-12.0075
運籌	-12.0076
鯁	-12.0076
習習谷風	-12.0077
期於必	-12.0077
糞	-12.0077
忌祟	-12.0078
蒯	-12.0078
劌	-12.0078
汨羅	-12.0078
軔	-12.0079
踔	-12.0079
沅湘	-12.008
愁霖賦	-12.008
甘泉賦曰	-12.0081
親九族	-12.0081
屬國都尉	-12.0081
樂天知命	-12.0081
車軸折	-12.0081
賫	-12.0082
挾纊	-12.0082
莬	-12.0082
二昭二穆	-12.0082
炅	-12.0083
㺯	-12.0083
洧	-12.0083
薤露	-12.0083
嚬	-12.0084
殱	-12.0084
襜褕	-12.0084
榹	-12.0084
褕	-12.0084
礫	-12.0085
蘧伯玉	-12.0085
一切衆生	-12.0085
擣	-12.0085
瀕	-12.0085
櫻	-12.0085
優波提舍	-12.0085
師子吼	-12.0085
酹	-12.0085
烝嘗	-12.0086
門有車馬客	-12.0086
芮	-12.0086
訏	-12.0086
逗	-12.0086
鞠躬	-12.0087
曬	-12.0087
搥	-12.0087
歐	-12.0087
孟軻	-12.0087
熠燿	-12.0087
倕	-12.0087
媪	-12.0088
蒞	-12.0088
東京賦曰	-12.0088
榴	-12.0088
悝	-12.0088
彬	-12.0088
區域	-12.0088
瓴	-12.0088
樠	-12.0088
禺	-12.0089
贓	-12.0089
劉熙釋名	-12.0089
讟	-12.0089
主父偃	-12.0089
乾鑿度	-12.0089
矝	-12.0089
孌	-12.0089
泌	-12.009
號咷	-12.009
浣	-12.009
名都篇	-12.009
盛𢎞之荆州	-12.009
謝惠連	-12.009
慍	-12.009
舲	-12.009
藩籬	-12.009
貂蟬	-12.009
禮記鄭注曰	-12.0091
輀	-12.0091
罃	-12.0091
昕	-12.0091
三分天下	-12.0091
書百官公卿表	-12.0091
梁朝宗室	-12.0091
褕翟	-12.0091
揄揚	-12.0092
喉舌	-12.0092
崿	-12.0092
歃	-12.0092
蹌	-12.0092
霏霏	-12.0092
攣	-12.0092
阮嗣宗	-12.0092
笞	-12.0092
紋	-12.0092
遟	-12.0092
批	-12.0092
㢠	-12.0092
泱	-12.0093
滂	-12.0093
嶄	-12.0093
穂	-12.0093
穟	-12.0093
賀拔岳	-12.0093
皝	-12.0093
通直散騎常侍	-12.0093
醖	-12.0093
姣	-12.0093
縿	-12.0093
子子孫孫	-12.0094
凑	-12.0094
瑇瑁	-12.0094
悽惻	-12.0094
郴	-12.0094
窀穸	-12.0094
擎	-12.0094
逋逃	-12.0094
陳魏宋楚之間	-12.0094
醫無閭	-12.0094
襤	-12.0094
撿	-12.0094
荀爽	-12.0095
鴞	-12.0095
舅姑	-12.0095
噱	-12.0095
樓炭經	-12.0095
吕延濟曰	-12.0095
楊惲報孫㑹宗書	-12.0095
後漢書班超	-12.0095
椘	-12.0095
大定元年	-12.0095
使持節驃騎大將軍	-12.0096
博陵郡	-12.0096
含樞紐	-12.0096
軟	-12.0096
辟廱	-12.0096
壬戌	-12.0096
餓鬼	-12.0096
鷇	-12.0097
周書列傳曰	-12.0097
囂塵	-12.0097
張孟談	-12.0097
上元夫人	-12.0097
中書監	-12.0097
再拜稽首	-12.0097
聘於西魏	-12.0097
綦	-12.0097
祲	-12.0097
藁	-12.0097
崔瑗	-12.0097
曖曖	-12.0097
殷不害	-12.0097
窳	-12.0098
漢酷吏傳	-12.0098
管夷吾	-12.0098
婺女	-12.0098
硎	-12.0098
煩冤	-12.0098
邯郸	-12.0098
愾	-12.0098
模範	-12.0098
盭	-12.0098
臣愚以為	-12.0098
叱奴	-12.0098
梟獍	-12.0099
濛濛	-12.0099
玉臺新咏	-12.0099
皃	-12.0099
泡	-12.0099
漯	-12.0099
魏氏春秋	-12.0099
隋開皇元年	-12.0099
蝗	-12.0099
添	-12.0099
埏	-12.0099
賞罰	-12.0099
將作大匠	-12.01
腓	-12.01
鯀	-12.01
天下一統	-12.01
為益州總管	-12.01
後漢明帝紀	-12.01
人之云亡	-12.01
寃禽	-12.01
轤	-12.01
枰	-12.01
熛	-12.01
葅	-12.0101
蹋	-12.0101
欽定四庫全書	-12.0101
鄯善	-12.0101
楼	-12.0101
華林園	-12.0101
䨇	-12.0101
敦睦	-12.0101
躊躇	-12.0101
魏恭帝	-12.0101
贈淮南公	-12.0101
舟艦	-12.0101
畚	-12.0101
轓	-12.0101
寒蟬鳴	-12.0102
雩祭大饗	-12.0102
喜霽賦	-12.0102
塵垢	-12.0102
棟宇	-12.0102
阬	-12.0102
史記李斯	-12.0102
彬彬	-12.0102
謝承後漢書曰	-12.0102
晷刻	-12.0102
幽明録	-12.0102
悽切	-12.0102
髩	-12.0102
顔師古漢書注	-12.0102
巖穴	-12.0102
文穎曰	-12.0103
嶲	-12.0103
椿	-12.0103
岩	-12.0103
㪚	-12.0103
兠鍪	-12.0103
娠	-12.0103
周禮大司樂	-12.0103
唶	-12.0103
通考後魏	-12.0103
柙	-12.0103
舋	-12.0103
鯨魚	-12.0103
懸針	-12.0103
下江兵	-12.0103
㨿	-12.0104
淯	-12.0104
姥	-12.0104
兀	-12.0104
沽酒	-12.0104
愜	-12.0104
龠	-12.0104
謔	-12.0104
澈	-12.0104
韓退之	-12.0104
莫之與京	-12.0104
仄	-12.0104
驃	-12.0105
脈	-12.0105
苑囿	-12.0105
幬	-12.0105
愛憎	-12.0105
招隐	-12.0105
慘慘	-12.0105
班婕妤	-12.0105
犴	-12.0105
百姓為心	-12.0105
大赦改元	-12.0105
烏弋	-12.0105
秩臣曰	-12.0105
陳公子完	-12.0106
河圖括地象	-12.0106
性至孝	-12.0106
貰	-12.0106
𬞞	-12.0106
嶧	-12.0106
廱	-12.0106
朱雀航	-12.0106
漢儒林傳	-12.0106
羣盗	-12.0107
纉	-12.0107
冬日至	-12.0107
妾薄命	-12.0107
枸	-12.0107
侯莫陳悦	-12.0107
婺	-12.0107
癸亥	-12.0108
鎖	-12.0108
覘	-12.0108
庚寅	-12.0108
螽斯	-12.0108
𢎞二教	-12.0108
笙竽	-12.0108
虫	-12.0108
謹啓雲再拜誨	-12.0108
藕	-12.0108
劉勰新論	-12.0108
苻堅	-12.0108
荏	-12.0108
叉	-12.0108
庶㡬	-12.0108
三軍總管	-12.0108
㓙	-12.0108
漢外戚傳	-12.0108
歐陽頠	-12.0108
丙午	-12.0108
縣開國公	-12.0108
﨑	-12.0108
揮戈	-12.0109
盱	-12.0109
後漢書曰馬援	-12.0109
嚴君平	-12.0109
稜威	-12.0109
蕘	-12.0109
嘒	-12.0109
漢東方朔傳	-12.0109
𣏌	-12.0109
河堤	-12.0109
文苑傳	-12.0109
王充論衡	-12.0109
諍	-12.0109
建德四年	-12.0109
八紘	-12.0109
熊蹯	-12.0109
塍	-12.011
盧諶	-12.011
樹聲曰	-12.011
顚沛	-12.011
呑	-12.011
肸	-12.011
寰宇記	-12.011
蓱	-12.011
􁆡	-12.011
痼	-12.011
大藏一覽	-12.011
䌫	-12.011
乙亥	-12.011
春秋合誠圖	-12.011
汲冢周書	-12.0111
髯	-12.0111
太簇	-12.0111
酬薛文學	-12.0111
灧	-12.0111
衫袖	-12.0111
龍媒	-12.0111
愿	-12.0111
夹	-12.0111
罟	-12.0111
薩	-12.0111
漠漠	-12.0112
辤	-12.0112
郭璞遊仙詩	-12.0112
氏次兄	-12.0112
赫奕	-12.0112
蕖	-12.0112
菽粟	-12.0112
芽	-12.0112
錬	-12.0112
汀洲	-12.0113
虎圈	-12.0113
眥	-12.0113
𤣥璜	-12.0113
金天氏	-12.0113
􁁉	-12.0113
腫	-12.0113
龜筮	-12.0113
芙蕖	-12.0113
叢棘	-12.0113
拊翼	-12.0113
凋零	-12.0113
百仞	-12.0114
楚襄王	-12.0114
獫	-12.0114
糞土	-12.0114
鴦賦	-12.0114
隆替	-12.0114
瀰	-12.0114
汎舟	-12.0114
濊	-12.0114
漢司馬相如傳	-12.0115
園葵	-12.0115
灼爍	-12.0115
櫳	-12.0115
燐	-12.0115
襚	-12.0115
稅駕	-12.0115
蘄	-12.0115
胃	-12.0115
白鷺	-12.0115
侵軼	-12.0115
禾黍	-12.0115
丕承	-12.0115
機杼	-12.0115
埤	-12.0115
霾	-12.0115
張晏曰	-12.0115
飱	-12.0116
麋鹿	-12.0116
轍迹	-12.0116
複姓	-12.0116
仲虺之誥	-12.0116
善射者	-12.0116
羊舌氏	-12.0116
穀梁傳	-12.0117
楚漢春秋	-12.0117
遨遊	-12.0117
翳翳	-12.0117
諤	-12.0117
刷羽	-12.0117
建武二年	-12.0117
濟濟多士	-12.0117
▁兆寛曰	-12.0117
斟酌	-12.0118
璇璣圖詩讀法	-12.0118
肉袒	-12.0118
噍	-12.0118
比肩	-12.0118
郁久閭	-12.0118
魯莊公	-12.0118
明月峽	-12.0118
東宫學士	-12.0118
瀬	-12.0118
畀	-12.0118
碧雞	-12.0118
夙駕	-12.0119
隩	-12.0119
璽書勞	-12.0119
楽舞	-12.0119
孳	-12.0119
晉書五行志	-12.0119
嗷	-12.012
扶風平陵人	-12.012
舟楫	-12.012
責讓	-12.012
郡注梁置	-12.012
彜倫	-12.0121
蘭蕙	-12.0121
凈	-12.0121
太昊	-12.0122
羇旅之臣	-12.0122
後漢馬援傳援	-12.0122
形骸	-12.0123
辨亡論	-12.0123
考槃	-12.0124
江沱	-12.0124
撩	-12.0124
堞	-12.0124
浮萍	-12.0124
數畆	-12.0124
濯纓	-12.0124
縦	-12.0125
剞劂	-12.0125
捎	-12.0125
􁂍	-12.0125
南史侯景傳云	-12.0125
流螢	-12.0125
平津侯	-12.0125
五言詩	-12.0126
千億	-12.0127
戹	-12.0127
塊然	-12.0127
史記項羽	-12.0128
鎮襄陽	-12.0128
韓子蒼	-12.0128
范滂	-12.013
掩泣	-12.013
雙鳬	-12.013
閨怨	-12.013
含毫	-12.0131
於富平	-12.0132
太尉掾	-12.0132
獲麟	-12.0132
苕苕	-12.0132
鴻鵠	-12.0133
孝㢘	-12.0133
騾	-12.0134
雕刻	-12.0135
梅雨	-12.0136
符瑞	-12.0137
羣僚	-12.0138
史記張儀	-12.0139
歩揺	-12.014
投壺	-12.014
壽夭	-12.0145
之妻也	-12.0149
陵和南	-12.0156
日三夜	-12.0158
蕩子賦	-12.0171
史記曰黃帝	-12.0173
漢書陳平	-12.0184
蘇武詩	-12.0189
陸機樂府	-12.0228
魏廢帝三年改	-12.0279
異物志	-12.03
司勳	-12.033
雲霓	-12.0483
法身又諮	-12.0515
鄭子産	-12.0806
欽定四庫全書庾子山集巻十	-12.097
庾子山集巻十	-12.0978
縣注後魏	-12.1154
牷	-12.1278
為宜州	-12.1498
蜉	-12.1624
蛭	-12.1653
鄱	-12.1673
垤	-12.1678
􁖠	-12.168
懣	-12.1686
鉗	-12.1694
繁弨	-12.1698
蟪蛄	-12.1703
清酒漿炙柰樂何清酒漿炙柰樂何	-12.1711
朓	-12.1712
瘤	-12.1714
需	-12.1714
文帝第	-12.1717
之乎玄微子曰予	-12.1717
一章八句	-12.1719
怵惕	-12.172
挐	-12.1724
綟	-12.1725
南楚江湘之間	-12.1726
餼	-12.1726
江淮之間謂之	-12.1726
殳	-12.1726
允廸	-12.1728
彖	-12.1731
勣	-12.1731
通㣲大夫曰	-12.1731
紼	-12.1732
梁故豐徙	-12.1732
楚實秦亡	-12.1734
柢	-12.1734
磾	-12.1734
第五倫	-12.1734
溶	-12.1735
􁌌	-12.1735
逺遊冠	-12.1735
躁靜	-12.1736
孟甞君	-12.1736
石季龍	-12.1737
蛛	-12.1737
緺	-12.1737
煙煴	-12.1739
蕣	-12.1739
脩多羅	-12.1739
諐	-12.1739
遭家不造	-12.174
衎	-12.1742
逑	-12.1742
纈	-12.1742
鶂	-12.1742
宫之竒	-12.1742
庖犧氏	-12.1742
姆	-12.1742
慴	-12.1743
釗	-12.1743
珈	-12.1743
忩	-12.1743
鄭子真	-12.1744
嚳	-12.1744
欽定四庫全書蔡中郎集巻	-12.1744
熲	-12.1744
揣	-12.1744
通天犀	-12.1744
梁蕭統撰	-12.1745
生法為體	-12.1745
李善注引	-12.1745
妲	-12.1745
而已矣或問	-12.1746
臣邕頓首死罪	-12.1746
彎	-12.1747
蹐	-12.1747
絀	-12.1747
搦	-12.1747
靳	-12.1747
澠	-12.1747
張仲蔚	-12.1747
遄	-12.1748
玄微子	-12.1748
孥	-12.1748
長安有狹邪	-12.1748
圈	-12.1748
栭	-12.1748
邢姨	-12.1748
簫韶	-12.1748
蜿	-12.1749
有威重	-12.1749
禆	-12.1749
觀寧侯	-12.1749
壼	-12.1749
噫	-12.1749
涔	-12.1749
之遐迹	-12.175
岌	-12.175
陕	-12.175
瞬	-12.175
獍	-12.175
澳	-12.175
曈	-12.1751
椅	-12.1751
楛矢	-12.1751
拄	-12.1751
三十有六	-12.1751
綃	-12.1751
鬛	-12.1751
罔直䝉酋	-12.1751
維嶽降神	-12.1751
郫	-12.1751
非其好也	-12.1752
炮	-12.1752
鄅	-12.1752
某月日	-12.1752
蝨	-12.1753
祏	-12.1753
悔吝	-12.1753
公拜稽首	-12.1754
孔北海集	-12.1754
干寳捜神記曰	-12.1754
桑柘	-12.1754
閴	-12.1754
䕃數國	-12.1754
不亦可乎	-12.1754
筰	-12.1754
塡	-12.1754
碌	-12.1754
欽定四庫全書揚子雲集巻	-12.1755
秦客難曰	-12.1755
絏	-12.1755
擠	-12.1755
矇	-12.1755
邐	-12.1755
裸	-12.1755
涅	-12.1755
俴	-12.1756
沇	-12.1756
漢揚雄撰明鄭樸編	-12.1756
瀏	-12.1756
母丘儉	-12.1756
鈍	-12.1756
醑	-12.1756
褵	-12.1756
史記龜䇿傳	-12.1756
起世經	-12.1756
齧	-12.1757
噏	-12.1757
楚懐王	-12.1757
襞	-12.1757
欷歔	-12.1757
磔	-12.1757
鬐	-12.1757
獯	-12.1757
􁖖	-12.1757
此之謂乎	-12.1757
汝南先賢傳	-12.1757
筏	-12.1757
諮議參軍	-12.1757
啞	-12.1758
劉孝威	-12.1758
瀑	-12.1758
澌	-12.1758
鞗	-12.1758
餔	-12.1758
㮰	-12.1758
柔逺能邇	-12.1758
渟	-12.1758
仄陋	-12.1758
餚	-12.1758
賈琮	-12.1759
攺	-12.1759
齊師其遁	-12.1759
多識舊章	-12.1759
爇	-12.1759
見和炅	-12.1759
倣	-12.1759
皜	-12.1759
顱	-12.1759
鏖	-12.1759
黠	-12.1759
晁	-12.176
同三司	-12.176
秦漢以來	-12.176
淖齒	-12.176
周禮天官冢宰	-12.176
更嬴事	-12.176
鷦	-12.176
異姓為後	-12.176
薁	-12.176
江子一	-12.176
歜	-12.1761
卣	-12.1761
薜	-12.1761
羽林郎	-12.1761
侯伯子男	-12.1761
保姓受氏	-12.1761
覊旅	-12.1761
􁃛	-12.1761
瘴	-12.1761
邽	-12.1761
天嘉元年	-12.1762
惜而不遣	-12.1762
生甫及申	-12.1762
刎	-12.1762
淝	-12.1762
腮	-12.1762
揚雄劇秦美新	-12.1762
進象經賦表	-12.1762
南正重司天	-12.1762
為𢎞農守	-12.1762
崇牙樹羽	-12.1762
樟	-12.1762
解印綬去	-12.1762
鄶	-12.1762
鰓	-12.1763
愕	-12.1763
羽葆	-12.1763
費長房	-12.1763
蹟	-12.1763
公叔文子	-12.1763
囹圄	-12.1763
彈棊	-12.1763
尚書右僕射	-12.1763
所未詳矣	-12.1763
䫏醜	-12.1763
鍚	-12.1763
炕	-12.1763
㢲	-12.1763
苫	-12.1763
淖	-12.1763
逅	-12.1764
醬	-12.1764
僃	-12.1764
搶	-12.1764
繅	-12.1764
掬	-12.1764
杼軸	-12.1764
羽林監	-12.1764
亰	-12.1764
殷仲文	-12.1764
莵	-12.1764
劉向說苑	-12.1764
三輔决録	-12.1764
薆	-12.1764
明明在上	-12.1764
揚子法言	-12.1764
犯霜露	-12.1764
豆盧寜	-12.1764
三槐三公位焉	-12.1764
嚢	-12.1764
不可不察	-12.1765
明允篤誠	-12.1765
范蔚宗	-12.1765
滄浪	-12.1765
夤	-12.1765
楚熊渠子	-12.1765
獨孤信	-12.1765
惵惵	-12.1765
迁	-12.1765
經佛告	-12.1765
謂之八元此十六族	-12.1765
則其救也	-12.1765
膠葛	-12.1765
猛簴	-12.1765
懍	-12.1765
瞿塘	-12.1765
聃	-12.1765
秉杼	-12.1766
鯢	-12.1766
慾	-12.1766
阽	-12.1766
隋書樂志	-12.1766
悞	-12.1766
梁江淹撰	-12.1766
湘娥	-12.1766
養由基	-12.1766
奄捐館	-12.1766
睫	-12.1766
西北一候	-12.1766
塗山執玉帛者萬國	-12.1766
臧榮緒晉書	-12.1767
洙	-12.1767
三世為將	-12.1767
房櫳	-12.1767
菟	-12.1767
西魏都長安	-12.1767
傃	-12.1767
出乎震	-12.1767
掩扉	-12.1767
鎬京	-12.1767
司馬相如封禪	-12.1768
爟	-12.1768
中大同元年	-12.1768
綆	-12.1768
王逸注曰	-12.1768
糅	-12.1768
耰	-12.1768
閔帝受禪	-12.1769
啁	-12.1769
旜	-12.1769
將命至鄴	-12.1769
尚書益稷	-12.1769
瑚	-12.1769
荄	-12.1769
荀林父	-12.1769
後漢皇后紀	-12.1769
竆	-12.1769
生榮死哀	-12.1769
都督宜州諸軍事宜州刺史	-12.1769
吏部郎	-12.1769
嶂	-12.1769
若水降居	-12.1769
陶唐氏	-12.1769
大報天	-12.1769
晼晩	-12.177
跛	-12.177
自周還	-12.177
蒹葭	-12.177
叡哲	-12.177
蜯	-12.177
鈞天廣樂	-12.177
帽	-12.177
肘	-12.177
熳	-12.177
壬申	-12.177
武帝太初元年	-12.177
嫣	-12.177
耆闍	-12.177
壇壝	-12.1771
溷	-12.1771
三星在户	-12.1771
薈	-12.1771
西楚霸王	-12.1771
􁂋	-12.1771
澨	-12.1771
周尚書𢎞正	-12.1771
鄢郢	-12.1771
屈原離騷	-12.1771
沭	-12.1771
月辛亥	-12.1771
僥	-12.1771
高僧傳	-12.1771
甿	-12.1772
漢書鄒陽	-12.1772
罸	-12.1772
和宇文内史	-12.1772
楮	-12.1772
癸卯	-12.1772
西門豹	-12.1772
赤城山	-12.1772
晼晚	-12.1772
魏人戕帝	-12.1772
不封不樹	-12.1772
封定逺侯	-12.1772
武王克商	-12.1773
輻輳	-12.1773
遘愍	-12.1773
牗	-12.1773
隍	-12.1773
宣貴妃誄	-12.1773
班固東都賦	-12.1773
鳯凰于飛	-12.1773
碩人其頎	-12.1773
卿為君逆	-12.1773
僝	-12.1773
峚	-12.1773
天地之大徳曰生	-12.1773
魏恭帝元年	-12.1773
璨	-12.1773
歸田里	-12.1773
簺	-12.1773
陶𢎞景	-12.1773
司馬相如上林賦	-12.1774
襍	-12.1774
魚齒山	-12.1774
佉	-12.1774
圎	-12.1774
属	-12.1774
酖	-12.1774
佛本行經	-12.1774
瞋	-12.1774
俚	-12.1774
雰	-12.1774
㟧	-12.1774
班彪王命論	-12.1774
仰秣	-12.1774
畨	-12.1774
錞	-12.1774
美姿儀	-12.1775
掃地而祭	-12.1775
集本作	-12.1775
重雲殿	-12.1775
魏恭帝三年	-12.1775
劉敬叔異苑	-12.1775
駝	-12.1775
刄	-12.1775
為賊所	-12.1775
朏	-12.1775
石城樂	-12.1775
奉表以聞	-12.1775
汨	-12.1776
溶溶	-12.1776
葛藟	-12.1776
棨㦸	-12.1776
鬷蔑	-12.1776
鐲	-12.1776
檉	-12.1777
袠	-12.1777
撞	-12.1777
氛氲	-12.1777
淮沂	-12.1777
爨	-12.1777
酈元注	-12.1777
彌陀疏抄	-12.1777
遙遙	-12.1777
哽咽	-12.1778
弢	-12.1778
僰	-12.1778
釜	-12.1778
𫐠	-12.1778
蘇作興感昭恨神	-12.1778
章邯	-12.1778
中書舍人	-12.1778
左旋讀得詩四首	-12.1778
皖	-12.1778
繚	-12.1779
八世祖滔	-12.1779
問之對曰	-12.1779
轄	-12.1779
咎繇	-12.1779
唁	-12.1779
彯	-12.1779
滄洲	-12.1779
鹽浦	-12.1779
焯	-12.1779
龐	-12.1779
怨義興理	-12.1779
琅	-12.1779
張協七命	-12.1779
㰱	-12.1779
肝膽	-12.1779
六百石	-12.1779
右旋讀得詩四首	-12.1779
踣	-12.178
阨	-12.178
藎	-12.178
始終曜觀華繁殷	-12.178
東西南北	-12.178
秋菊有佳色	-12.178
貞陽侯明	-12.178
毗尼	-12.1781
豺虎	-12.1781
醅	-12.1781
張衡靈憲	-12.1781
昩	-12.1781
狡童	-12.1781
弹	-12.1781
北荆州後周	-12.1781
漭	-12.1781
感我情悲	-12.1781
猜忌	-12.1781
蟬蛻	-12.1781
世濟其美	-12.1781
棫樸	-12.1781
縣故城	-12.1782
灣	-12.1782
衒	-12.1782
滮	-12.1782
驃騎将軍	-12.1782
紲	-12.1782
絫	-12.1782
甘蕉	-12.1783
虱	-12.1783
畊	-12.1783
西河女子	-12.1783
雘	-12.1783
曹沬	-12.1783
鹵簿	-12.1783
参差	-12.1783
畿甸	-12.1783
谷静山空	-12.1784
衰絰	-12.1784
禮記明堂位	-12.1784
律師住持感應	-12.1784
軺	-12.1784
油油	-12.1784
薳	-12.1785
龢	-12.1785
㷀㷀	-12.1785
喪大記	-12.1785
翌	-12.1785
刮	-12.1785
孱	-12.1785
邅	-12.1785
伶	-12.1786
諮曰未審	-12.1786
勌	-12.1786
纛	-12.1786
天之經也	-12.1786
祑	-12.1786
緝熈	-12.1787
拓拔	-12.1787
桃花源記	-12.1787
將軍死綏	-12.1787
琹	-12.1787
𧖟	-12.1787
髙祖武皇帝	-12.1787
山陽髙平	-12.1788
第二子也	-12.1788
惻愴	-12.1788
蘅	-12.1788
㠶	-12.1788
份	-12.1789
謝宣城詩集巻第	-12.1789
南史王僧辯傳	-12.179
縯	-12.179
杳冥	-12.179
乱	-12.179
櫝	-12.179
勍	-12.179
爰暨	-12.1791
夾河為郡	-12.1791
六首合原讀	-12.1792
寥寥	-12.1792
葛龔	-12.1792
穹廬	-12.1792
斯所未喻	-12.1792
體中何如	-12.1792
賦歸去	-12.1793
邦畿	-12.1794
繋	-12.1794
吳都賦云	-12.1795
恍	-12.1795
搢	-12.1795
廽	-12.1796
䡖	-12.1799
長門賦	-12.1802
五張寺碑	-12.1803
命公作	-12.1804
夣	-12.1805
摐	-12.1805
欽定四庫全書徐孝穆集箋注巻	-12.1807
江東呼	-12.1811
孝閔帝踐阼	-12.1817
潁川士雖	-12.1834
城之圍	-12.1843
稱疾不	-12.1863
有盛名	-12.1881
故城在	-12.1896
郊之祭	-12.1905
濁漳	-12.193
安車駟	-12.2031
淵重涯經網羅林	-12.224
持節撫軍	-12.2355
和張侍中	-12.2504
為閻將軍	-12.2516
長孫儉	-12.2771
蘊	-12.3416
蛄	-12.3513
蝥	-12.3617
杶	-12.3662
怩	-12.3668
佻	-12.3681
鎌	-12.3683
侟	-12.3683
星從其位類為	-12.3684
䦧	-12.3688
周孝閔帝	-12.3697
揜	-12.37
擘	-12.37
駸駸	-12.3701
懟	-12.3706
悛	-12.3708
燕之北鄙	-12.3711
潘岳闗中記	-12.3712
頹	-12.3715
瞶	-12.3716
獪	-12.3716
者莫辯乎	-12.3717
耇	-12.3718
之妙也子能從我而	-12.3719
䣛	-12.372
帶甲百萬	-12.3723
牡	-12.3724
㩣	-12.3724
棠棣之華	-12.3725
江沔之間	-12.3725
不亦宜乎	-12.3726
宅無吉凶攝生論一首	-12.3726
棓	-12.3727
燕之東北朝鮮洌水之間謂之	-12.3728
輆	-12.3728
姉	-12.3728
吕不韋	-12.3728
一章七句	-12.3729
石蘭氏	-12.373
棋	-12.3731
茀	-12.3732
張士然	-12.3732
疆埸	-12.3732
親廟四	-12.3732
腯	-12.3732
奘	-12.3732
胝	-12.3732
欽定四庫全書昭明太子集巻	-12.3733
悙	-12.3733
昆侖旁薄	-12.3733
以其君冠賜	-12.3734
熬	-12.3734
帶經鋤	-12.3734
權景宣	-12.3734
繾綣	-12.3735
傺	-12.3735
緱	-12.3735
雕琢	-12.3735
撒	-12.3735
蘺	-12.3736
爥	-12.3736
巇	-12.3737
俶	-12.3737
瓮	-12.3737
曁	-12.3737
亦猶是矣	-12.3737
掞	-12.3738
筥	-12.3738
徐偃王	-12.3738
喉	-12.3739
栒	-12.3739
悌	-12.3739
尒	-12.3739
不生為體	-12.374
月闕其博	-12.374
硤	-12.374
襆	-12.374
蚖	-12.374
履之必有悽愴之	-12.374
闠	-12.3741
賾	-12.3741
楛	-12.3741
鏁	-12.3741
橿	-12.3742
飫	-12.3742
波斯匿王	-12.3742
娃	-12.3742
穆天子傳曰天子	-12.3742
軋	-12.3742
紀侯大去	-12.3744
悒	-12.3744
閡	-12.3744
郎中令臣雲言	-12.3744
豝	-12.3744
吃	-12.3745
捭	-12.3745
殛	-12.3745
周靈王太子	-12.3745
朦	-12.3746
與李那書	-12.3746
釭	-12.3746
曼倩	-12.3746
閽	-12.3746
匍匐	-12.3747
眙	-12.3747
鱉	-12.3747
鎬	-12.3747
箎	-12.3748
診	-12.3748
廟號太祖	-12.3748
子山和之	-12.3748
踪	-12.3748
文思安安	-12.3748
莫敢不來	-12.3748
虙	-12.3748
蹴	-12.3748
萇	-12.3748
楣	-12.3748
逴	-12.3748
岑崟	-12.3749
噓	-12.3749
毁廟之主	-12.3749
草木蟲魚疏	-12.3749
餳	-12.3749
寄以名相	-12.3749
埤蒼曰	-12.3749
琴清英	-12.375
姱	-12.375
傷王司徒	-12.375
北燕朝鮮之間謂之	-12.375
坯	-12.375
漼	-12.375
韯	-12.375
轉之丹服之	-12.375
窹	-12.3751
周庾信撰錢塘倪璠纂註	-12.3751
大夫稱伐	-12.3751
冀馬雲屯	-12.3751
娼	-12.3751
緄	-12.3751
宋玉高唐賦	-12.3751
晋公䕶	-12.3751
鸚	-12.3751
未詳孰是	-12.3752
糠	-12.3752
善騎射	-12.3753
晋陽秋曰	-12.3753
入境以來	-12.3753
周憲章周禮	-12.3753
黨錮	-12.3753
罘	-12.3753
挟	-12.3753
灂	-12.3754
悁	-12.3754
𤣥鳥氏司分者	-12.3754
潞	-12.3754
孝感所致	-12.3754
幼而聰	-12.3754
燬	-12.3754
轉輪王	-12.3754
韡韡	-12.3754
去復去兮長河湄	-12.3754
穽	-12.3754
耆闍崛山	-12.3754
鐙	-12.3754
珣	-12.3754
善知識	-12.3755
如淳注曰	-12.3755
桑欽水經曰	-12.3755
瓴甓	-12.3755
紫騮馬	-12.3755
鐮	-12.3755
餐周粟	-12.3755
慕容皝	-12.3755
後齊置	-12.3756
白招拒	-12.3756
踆	-12.3756
臝	-12.3756
虞兮奈若何	-12.3756
蔡經家	-12.3756
邳	-12.3756
薤	-12.3756
膜	-12.3756
雊	-12.3757
稻粱	-12.3757
擿	-12.3757
銅駝街	-12.3757
析羽為旌	-12.3757
窶	-12.3757
蔆	-12.3757
摇	-12.3757
嵇中散集卷第	-12.3758
缶	-12.3758
洮	-12.3758
魏相安定公	-12.3758
河千年一清	-12.3758
蠒	-12.3758
􁔛	-12.3759
顇	-12.3759
劉向别錄	-12.3759
昊天有成命	-12.3759
給事中	-12.3759
蓊	-12.3759
五官中郎將	-12.3759
窋	-12.3759
二百一十	-12.3759
迆	-12.3759
魂兮歸來	-12.376
為𢎞農都尉	-12.376
猖	-12.376
琢	-12.376
蕭合馨香	-12.376
傳首江陵	-12.376
臏	-12.376
腆	-12.376
褎	-12.376
般倕	-12.376
唏	-12.376
舉賢良方正	-12.376
雲頓首頓首	-12.376
山川形勢	-12.376
後漢書輿服志曰	-12.376
故云是矣	-12.376
菹	-12.376
貢篚	-12.376
主萃淵藪	-12.376
安其業	-12.376
茘	-12.376
􁊿	-12.376
綢	-12.376
海錄碎事	-12.376
軑	-12.3761
籖	-12.3761
李少君	-12.3761
紇豆陵	-12.3761
麈	-12.3761
鴻傳鴻	-12.3761
匭	-12.3761
梗槩	-12.3761
周禮職方氏	-12.3761
剔	-12.3761
屆	-12.3761
緤	-12.3761
藏李燮	-12.3761
見哀江南賦本傳	-12.3761
通帛為旃	-12.3761
晉陵太守	-12.3761
白日昇天	-12.3761
見賀傳	-12.3761
邏	-12.3761
潘岳秋興賦序	-12.3761
漢書武帝紀曰	-12.3762
耕於野	-12.3762
蘪	-12.3762
秬	-12.3762
酉陽雜爼	-12.3762
誑	-12.3762
勰	-12.3762
干寶捜神記	-12.3762
塾	-12.3762
址	-12.3762
漚	-12.3762
衽	-12.3762
年十七	-12.3762
章懐太子注	-12.3762
豊	-12.3762
之神其帝	-12.3762
髟	-12.3762
緜緜	-12.3763
掎	-12.3763
舡	-12.3763
頰	-12.3763
矅	-12.3763
度支尚書	-12.3763
宋州郡志	-12.3763
李陵答蘇武	-12.3763
甜	-12.3763
未之聞也	-12.3763
邰	-12.3763
暦	-12.3763
疽	-12.3763
相追隨	-12.3763
武成初進封	-12.3763
彂	-12.3763
窴	-12.3763
竢	-12.3763
㤙	-12.3763
移齊河陽執事	-12.3763
嵇叔夜琴賦	-12.3763
後漢鄭𤣥傳	-12.3763
民不忍欺	-12.3763
萑	-12.3764
汶陽之田	-12.3764
劃	-12.3764
戎有受脤	-12.3764
膰	-12.3764
是所甘心	-12.3764
曄曄	-12.3764
吳質書曰	-12.3764
在四親	-12.3764
東觀漢紀曰	-12.3764
掉	-12.3764
葉葉自相當	-12.3764
西王母取食	-12.3764
㬰	-12.3764
以國為氏	-12.3764
所以厭火	-12.3764
於荆山之下	-12.3764
沆	-12.3764
淮沂其乂	-12.3764
砥礪	-12.3764
設壇場	-12.3764
嗚呼哀哉乃為銘曰	-12.3764
蹠	-12.3765
慊	-12.3765
左傳宣十二年	-12.3765
守丹竈而不顧	-12.3765
征西將軍	-12.3765
矞	-12.3765
蟣	-12.3765
曕	-12.3765
煨	-12.3765
透	-12.3765
乃作誄曰	-12.3765
地平天成	-12.3765
檠	-12.3765
烟煴	-12.3765
裺	-12.3765
閹	-12.3766
有戰功	-12.3766
為前鋒	-12.3766
漢書溝洫志	-12.3766
宕昌羌	-12.3766
金石為之開	-12.3766
伉	-12.3766
周書異域傳	-12.3767
弩亂發	-12.3767
傭	-12.3767
妊	-12.3767
韋仲將	-12.3767
魏莊帝	-12.3767
到彦之	-12.3767
譁	-12.3767
冏	-12.3767
梗概	-12.3767
嬾	-12.3767
縻	-12.3767
剸	-12.3767
王世記曰	-12.3767
潘岳寡婦賦	-12.3767
肱字伯淮	-12.3768
愔愔	-12.3768
郍	-12.3768
咒	-12.3768
堊	-12.3768
天保定爾	-12.3768
自祭文	-12.3768
虞翻曰	-12.3768
沙莫雄	-12.3768
堆	-12.3768
攷	-12.3768
王舍城	-12.3768
後漢禮儀志	-12.3768
月壬寅	-12.3769
泱泱	-12.3769
蘢	-12.3769
捽	-12.3769
坰	-12.3769
張衡思𤣥賦	-12.3769
觀河渚	-12.3769
奕世載徳	-12.3769
叱羅協	-12.3769
流干青雲而直上語時事則指而可想論	-12.3769
睛	-12.3769
芡	-12.3769
祀與姬周	-12.3769
滂沱	-12.3769
以庸薄	-12.3769
徉	-12.3769
儆	-12.3769
韞	-12.377
峻廣絶	-12.377
去則懸之	-12.377
西王母慕舜	-12.377
九十九姓	-12.377
揚雄羽獵賦	-12.377
朅	-12.377
嫩	-12.377
太子中庶子	-12.377
扈氏農正趣民	-12.377
抱則曠而且	-12.377
艤	-12.377
承制除御史中丞	-12.377
孩	-12.377
貯	-12.377
傳車驂駕垂赤帷裳	-12.377
皇覽曰	-12.3771
混一車書	-12.3771
束晳	-12.3771
鯤	-12.3771
剗	-12.3771
叱咤	-12.3771
洛陽伽藍記	-12.3771
篾	-12.3771
周太祖宇文泰	-12.3771
晉杜預傳	-12.3771
粳	-12.3771
輜軿	-12.3771
選賢與能	-12.3771
巾箱中	-12.3771
屡	-12.3771
北史文苑傳	-12.3771
捃摭	-12.3771
梁江文通文集卷第	-12.3771
轊	-12.3771
涔陽兮極浦	-12.3772
嵇叔夜	-12.3772
陵陽子明經	-12.3772
賀新樂表	-12.3772
士者淮南小山之所作也	-12.3772
窌	-12.3772
風師雨師	-12.3772
饘	-12.3772
召伯甘棠	-12.3772
巛	-12.3772
璪	-12.3772
阹	-12.3772
史記刺客傳	-12.3772
太白經天	-12.3772
鶴齡曰	-12.3773
律歴志	-12.3773
娉	-12.3773
贇	-12.3773
䄖	-12.3773
妥	-12.3773
洞㝠記	-12.3773
柳達摩	-12.3773
廟號世宗	-12.3773
蕭瑟兮草木	-12.3773
夲	-12.3773
汴	-12.3773
磚	-12.3773
褏	-12.3773
驪戎國	-12.3773
鈐	-12.3773
崢	-12.3773
痕	-12.3774
司馬遷報任安	-12.3774
睽	-12.3774
揚雄解嘲	-12.3774
叠	-12.3774
忼	-12.3774
吮	-12.3774
蒼頡篇曰	-12.3774
賦新詩	-12.3774
爾朱天光	-12.3774
輴	-12.3774
飛燕外傳	-12.3774
数	-12.3774
氏辭懐感戚知麟	-12.3774
紀裂繻來	-12.3775
赬	-12.3775
瀦	-12.3775
蔡威公	-12.3775
頭陀寺碑	-12.3775
步陸孤	-12.3775
媾	-12.3775
如千丈松	-12.3775
崎	-12.3775
漢游俠傳	-12.3775
繁華觀曜終始心	-12.3775
竹使符	-12.3775
挍	-12.3775
桓寛鹽鐵論	-12.3775
霹靂	-12.3776
申公巫臣	-12.3776
瀉	-12.3776
暹	-12.3776
般涅槃	-12.3776
燕齊之間	-12.3776
腸胃	-12.3776
嬈	-12.3776
以女妻	-12.3776
歸田賦	-12.3776
湝	-12.3776
甘棠之	-12.3776
五方人帝	-12.3776
四言四句二首	-12.3776
癯	-12.3776
詩興感逺殊浮沈	-12.3776
歐冶	-12.3776
薺	-12.3777
􁂦	-12.3777
平端寃是何懐身	-12.3777
鈆	-12.3777
嶓冡	-12.3777
詳祀圓丘	-12.3777
縉	-12.3777
訓詁	-12.3777
戟	-12.3777
蝗蟲	-12.3777
遏寇虐	-12.3777
圖怨念為懐如林	-12.3777
此亦寡人之	-12.3777
汝南王大封	-12.3778
長歎不能奮飛	-12.3778
憾	-12.3778
迸	-12.3778
承明之廬	-12.3778
續漢志	-12.3778
礲	-12.3778
洿	-12.3778
將文昌中星名	-12.3778
長笛賦	-12.3778
史記五帝本紀	-12.3778
因果經	-12.3778
寖	-12.3778
狭	-12.3778
在國陽七里之郊	-12.3778
朝多君子	-12.3778
潢汚	-12.3778
韓陵之戰	-12.3778
侶	-12.3779
永福省	-12.3779
璣明别改知識深	-12.3779
劉孝綽	-12.3779
堇	-12.378
◍◍(	-12.378
些	-12.378
優婆夷	-12.378
於雲端	-12.378
䔩	-12.378
平北將軍	-12.378
為京觀	-12.378
綷	-12.378
兼而有之	-12.378
葹	-12.378
萏	-12.378
問君何	-12.3781
甕牖	-12.3781
騭	-12.3781
王隱晉書曰	-12.3781
傷弱子	-12.3781
曯	-12.3781
權字公衡	-12.3781
鎩翮	-12.3781
訢	-12.3781
芹	-12.3781
匯	-12.3781
可傷嗟	-12.3781
苧	-12.3781
郤縠	-12.3781
岑幽巖峻嵯峨	-12.3781
妻者齊也	-12.3782
木華海賦	-12.3782
舊新蘇作之	-12.3782
厲節中闈	-12.3782
魚復縣	-12.3782
同聲相追	-12.3782
慺	-12.3783
穸	-12.3783
勾芒	-12.3783
琇	-12.3783
鋏	-12.3783
橦	-12.3784
抑又聞之	-12.3784
後漢方術傳	-12.3784
魏略曰	-12.3784
生意盡	-12.3784
陸劌鄴中記	-12.3784
薺麥	-12.3784
糒	-12.3784
倐	-12.3784
臣邕頓首頓首	-12.3785
悮	-12.3785
曰使我有	-12.3785
華亭鶴唳	-12.3785
甯	-12.3785
粥	-12.3785
煞	-12.3785
伐其條枚	-12.3786
刖	-12.3786
沗	-12.3786
蕭軌等	-12.3786
縌	-12.3786
繻	-12.3786
水又東逕	-12.3786
嬋	-12.3786
哢	-12.3787
行雨山銘	-12.3787
文君夜亡奔相如	-12.3787
鏖臯蘭	-12.3787
歔	-12.3788
鰩	-12.3788
率所部	-12.3788
怍	-12.3789
洏	-12.3789
孤子徐陵頓首	-12.3789
祖金龍	-12.3789
戅	-12.379
姙	-12.379
還舊居	-12.379
商山四皓	-12.379
頏	-12.379
仲山甫補之	-12.379
駃	-12.379
憔	-12.3791
梁禪陳詔	-12.3791
孫卿子	-12.3791
體國經野	-12.3791
棁	-12.3791
三令五申	-12.3791
受終文祖	-12.3792
嵎	-12.3792
謝恵連雪賦	-12.3792
十餘城皆	-12.3792
江陵之陷	-12.3792
扳	-12.3792
薛燭曰	-12.3793
待罪江南思北歸賦	-12.3793
芍	-12.3793
珂	-12.3794
瘼	-12.3794
附増第三圖	-12.3794
南康王㑹理	-12.3794
然示人	-12.3795
後漢循吏傳	-12.3795
朧	-12.3795
忘俗忘真	-12.3796
䤨	-12.3797
陳蕃為	-12.3798
廣八寸	-12.3798
鏟	-12.38
左傳莊二	-12.3803
畯	-12.3803
麑	-12.3803
遝	-12.3808
帝祖母	-12.3813
髏	-12.3813
蟾	-12.3816
鑁	-12.3824
我與爾	-12.3841
在功臣之	-12.3848
詩義疏	-12.387
寒風蕭	-12.3972
於丹水之	-12.4013
見歩陸	-12.4013
之剛親	-12.4049
大統十六年	-12.4155
智懐徳聖虞唐真	-12.4411
應劭漢官	-12.4676
律厯志云	-12.4755
月二十八日	-12.515
何自苦	-12.5215
詳和張侍	-12.5533
初與郡守為銅虎符竹使	-12.565
冀之北土	-12.583
蟧	-12.5935
逭	-12.6065
􁋉	-12.6081
芉	-12.6111
猝	-12.6112
忸	-12.6149
蠓	-12.6151
螾	-12.6153
媱	-12.6153
蜓	-12.6155
緍	-12.6159
宋魏陳楚江淮之間謂之	-12.6166
簙	-12.6166
蝑	-12.6171
其所循也	-12.618
也呉越曰	-12.6181
鮐	-12.6184
盬	-12.6194
脾	-12.6195
愮	-12.6198
蜿蜒	-12.6202
北燕朝鮮洌水之間	-12.6204
自然好學論一首	-12.6205
逹奚武	-12.6206
呉越之間	-12.6207
老子西逰	-12.6207
一晝一夜	-12.6208
澇	-12.6211
蜍	-12.6212
諄	-12.6213
臊	-12.6214
簍	-12.6214
桎	-12.6216
梏	-12.6216
䥴	-12.6216
拑	-12.6217
錘	-12.6217
其怨則黷	-12.6221
嗟我懷人	-12.6221
晠	-12.6222
陀阿伽	-12.6223
王子年拾遺	-12.6223
蔟	-12.6224
鸎	-12.6224
于飛其鳴鏘鏘	-12.6225
未暇此	-12.6225
新詠序	-12.6226
臍	-12.6226
躆	-12.6227
武帝建元	-12.6227
壈	-12.6227
翻譯云	-12.6227
李意期	-12.6227
睂	-12.6228
訥	-12.6228
伃	-12.6228
龍出于中	-12.6228
神戰于𤣥	-12.6228
提薩埵	-12.6228
懋懋官功懋懋賞	-12.6229
璘㻞	-12.6229
日正于天	-12.6229
逷	-12.6231
昆陽之戰	-12.6231
癢	-12.6231
餗	-12.6231
不有所廢其何以昌	-12.6231
轆	-12.6232
闗令尹喜	-12.6232
謇謇	-12.6232
巍	-12.6233
舞鶴賦	-12.6234
弸	-12.6234
為猿鶴小人為沙蟲	-12.6234
太液池	-12.6234
惝	-12.6234
子山自謂也	-12.6235
歧	-12.6235
燕之外郊朝鮮洌水之間	-12.6235
尊彞云	-12.6235
美酒斗十千	-12.6235
宣慈恵和	-12.6236
日月所照	-12.6236
嘽	-12.6236
流水馬如龍	-12.6236
嵯	-12.6237
東宫講讀	-12.6237
惆	-12.6238
觔	-12.6238
諂	-12.6238
𤯝	-12.6238
倮	-12.6239
善財童子	-12.6239
跙跙	-12.6239
窒	-12.6239
㬥	-12.6239
希連禪	-12.6239
也一軍皆驚	-12.624
感精之帝	-12.624
韭	-12.624
澶	-12.6241
泒	-12.6241
天離轉戰	-12.6241
易曰含章可貞	-12.6241
等衆職	-12.6241
莓莓	-12.6241
喟	-12.6242
而作是詩	-12.6242
禭	-12.6242
憬	-12.6242
酋酋之包	-12.6242
漢書天馬歌	-12.6242
令㫖又答	-12.6242
鴠	-12.6242
裼	-12.6243
箘	-12.6243
暧	-12.6243
甪	-12.6243
翛	-12.6243
易曰雲從	-12.6243
後為東方朔所識	-12.6243
有大星曰狼	-12.6243
漢武帝令張騫使大夏尋	-12.6243
拜洛州刺史	-12.6243
呉揚之間謂之	-12.6243
嵕	-12.6243
愚公之谷	-12.6243
魏肇師	-12.6243
畏南山之雨	-12.6244
耀三辰	-12.6244
九月大饗	-12.6244
塗車芻靈	-12.6245
唼	-12.6245
蓧	-12.6245
遷虞事夏	-12.6245
邢侯之姨	-12.6245
陳湘州刺史華	-12.6245
鄱陽忠烈王	-12.6245
魚中有尺素書	-12.6245
有犯無隠	-12.6245
改姓豆盧	-12.6245
宰割天下	-12.6246
不膠者卓矣	-12.6246
叟笑而止之	-12.6246
主人答曰難云	-12.6246
况於人乎	-12.6246
𥜗	-12.6246
袐	-12.6247
洫	-12.6247
伏惟皇帝陛下	-12.6247
潏	-12.6247
鑽	-12.6247
京兆杜陵人	-12.6247
王粲從軍詩	-12.6247
又自此而從於	-12.6248
蚣	-12.6248
詒	-12.6248
𡑞	-12.6248
上圓下方	-12.6248
壃	-12.6248
觸不周之	-12.6248
鑴	-12.6248
南冠而縶	-12.6249
臨沂人也	-12.6249
挻	-12.6249
左傳定四年	-12.6249
漢書鼂錯	-12.6249
衆遂潰	-12.6249
王巾頭陀寺碑文云	-12.6249
調曲者歌其	-12.6249
在秦作劉	-12.6249
而郊稷	-12.6249
鳥師而鳥名	-12.6249
宋均注	-12.6249
合歡扇團團似明月	-12.6249
禅	-12.6249
易乾卦	-12.625
蘭成射䇿之年	-12.625
湛海珍等	-12.625
勺	-12.625
五馬南浮	-12.625
如日之升	-12.625
小宗伯云	-12.625
曰月穆穆以金波	-12.625
倂	-12.625
塸	-12.625
柳下惠	-12.625
渫	-12.625
冲天而去	-12.625
哀永逝文	-12.625
我之懐矣	-12.625
歌曰運石甘泉口渭水為不流	-12.625
武庫正直其墓	-12.625
璿璣玉衡以齊七政	-12.625
儺	-12.625
纏	-12.6251
服之禮無文	-12.6252
後周平齊置	-12.6252
有雨圍原	-12.6252
蕭同叔子	-12.6252
陸機洛陽記曰	-12.6252
僥倖	-12.6252
光輔五君	-12.6252
嚚	-12.6252
愚公谷	-12.6252
濜	-12.6252
皆負子渡河	-12.6252
臉	-12.6252
佳城鬱鬱	-12.6252
居喪過禮	-12.6252
扎	-12.6252
服一刀圭百日仙也	-12.6252
銀角桃枝	-12.6252
七萃之士	-12.6252
地肺山	-12.6252
西京雜記趙飛燕	-12.6252
晉書職官志	-12.6252
惎	-12.6253
官曹案牘未嘗煩	-12.6253
江有沱	-12.6253
毻	-12.6253
明非舉燭	-12.6253
瑜伽論	-12.6253
痊	-12.6253
攫	-12.6253
爝	-12.6253
苐	-12.6253
尚書說命	-12.6253
掣	-12.6253
擺	-12.6253
莠	-12.6253
正四品	-12.6253
沁	-12.6253
清畏人知	-12.6253
穆字公叔	-12.6253
侍梁東宫講讀	-12.6253
白帝朱宣	-12.6253
戎馬交馳不妨餘裕	-12.6254
懹	-12.6254
攙	-12.6254
巓	-12.6254
應天淑靈	-12.6254
道徳仁義禮	-12.6254
河南曰豫州	-12.6254
啻	-12.6254
蚪	-12.6254
轢	-12.6254
上絃驚别鶴下絃操孤鸞	-12.6254
南郡華容	-12.6254
奉宣勅㫖垂	-12.6254
楊常州墓	-12.6254
淇園之竹	-12.6254
飪	-12.6254
為闗外人	-12.6254
墠	-12.6254
皇子封為王者	-12.6254
籯	-12.6254
岳字安仁	-12.6255
奎	-12.6255
砭	-12.6255
崔鴻十六國春秋	-12.6255
恒星不見	-12.6255
班固典引	-12.6255
為郢州别駕	-12.6256
其本甚微	-12.6256
謝莊月賦	-12.6256
丧	-12.6256
倢伃	-12.6256
趺	-12.6256
夾門植	-12.6256
承基纂胄	-12.6256
漢書李廣傳曰	-12.6256
㣧	-12.6256
以公為使持節	-12.6256
塞庫羈文王	-12.6256
戰於沌口	-12.6256
推此而言	-12.6256
膊	-12.6256
東原底平	-12.6256
不能無弦而射	-12.6256
地上之圜丘奏之	-12.6256
范匄趨進	-12.6256
允釐百工	-12.6256
京雜記曰	-12.6256
琴瑟在御	-12.6256
瑀	-12.6257
任約謝答仁	-12.6257
伴	-12.6257
車茂安書	-12.6257
洞冥記	-12.6257
謹拜表以聞	-12.6257
鮫	-12.6257
慇懃	-12.6257
嚌	-12.6257
方之今日彼獨何人	-12.6257
年加都督	-12.6257
鎔	-12.6257
傕	-12.6257
東闕北闕前殿	-12.6257
諸葛亮出師表	-12.6257
冀州既載	-12.6257
熖	-12.6257
筦	-12.6257
缻	-12.6257
丈夫化為女子	-12.6257
前燕錄	-12.6257
忽踐秦庭	-12.6258
接翮夕輒偶影	-12.6258
寞	-12.6258
欲罷不能	-12.6258
南史羊侃傳	-12.6258
燁	-12.6258
冀妻孫	-12.6258
麨	-12.6258
沈約郊居賦	-12.6258
邴	-12.6258
葳	-12.6258
月不居時節如流	-12.6258
宰我子貢	-12.6258
備九錫之禮	-12.6258
茍非其人	-12.6259
陽二頃之田	-12.6259
之姊妹	-12.6259
宄	-12.6259
彀	-12.6259
偲	-12.6259
建寧二年	-12.6259
張衡南都賦	-12.6259
狠	-12.6259
挺此含章	-12.6259
淮南子曰日至於	-12.6259
苹	-12.6259
􁂳	-12.6259
脣亡齒寒	-12.6259
贈白馬王彪	-12.6259
不亦冝乎	-12.6259
復𢎞農戰沙苑	-12.626
楞	-12.626
位在諸侯王上	-12.626
呼韓邪	-12.626
渰	-12.626
楩	-12.626
欽定四庫全書江文通集巻	-12.626
秦始征晉	-12.626
嬋媛	-12.626
束馬懸車	-12.626
痺	-12.626
佳城鬱鬱三千年見白日吁嗟滕	-12.626
北軍中候	-12.626
山若礪國以永存爰及苗裔	-12.626
桑弧蓬矢	-12.626
氏家訓	-12.626
淆	-12.626
而有文在其手	-12.626
茸	-12.626
幪	-12.626
授太子太保	-12.626
緻	-12.626
走馬長楸間	-12.626
堅不祀忽諸	-12.626
斆	-12.626
從駕觀講武	-12.6261
碭	-12.6261
秃	-12.6261
斮	-12.6261
洶洶	-12.6261
芭	-12.6261
䕶羌校尉	-12.6261
大祫歌	-12.6261
娑婆世界	-12.6261
帝母曰附	-12.6261
魚豢典畧	-12.6261
鰕	-12.6261
冑	-12.6261
吭	-12.6261
堣	-12.6261
盡而繼之以血	-12.6261
薏	-12.6261
隟	-12.6261
咋	-12.6261
魏後三年授	-12.6261
中大通元年	-12.6262
衆仲曰官有世功	-12.6262
洛陽宫殿簿	-12.6262
周禮司尊彛	-12.6262
屩	-12.6262
得賢斯在	-12.6263
文帝十三子	-12.6263
漢武帝内傳曰	-12.6263
丁令威	-12.6263
腋	-12.6263
劉義慶	-12.6263
北岳恒山	-12.6263
怊	-12.6263
班固兩都賦	-12.6263
砌	-12.6263
者有三危之露	-12.6263
荐	-12.6263
蹷	-12.6263
邸閣儲峙	-12.6263
晉起居注	-12.6263
梁信州刺史蕭韶	-12.6263
跕	-12.6263
鼐	-12.6263
甲觀畫堂	-12.6263
盖取諸	-12.6263
之家必有餘慶	-12.6263
漢陳湯傳	-12.6264
龍之害故置戈於船下	-12.6264
為伏波將軍	-12.6264
馗	-12.6264
絪	-12.6264
草上之風	-12.6264
帶二江之雙	-12.6264
掌禮移次	-12.6264
睞	-12.6264
華旦復旦兮	-12.6264
譛	-12.6264
鍇	-12.6264
周庾信撰吳江吳兆宜註	-12.6264
尚書履聲	-12.6264
帳頂安金蓮花	-12.6264
東海王越	-12.6264
諌議大夫	-12.6264
銘旌兩	-12.6264
㕍	-12.6264
借明光宫	-12.6264
東海避秦	-12.6264
武帝元封三年作	-12.6264
漢書張安世	-12.6264
雕蟲篆刻	-12.6264
飊	-12.6264
鸛	-12.6264
􁤽	-12.6264
薨於私第春秋	-12.6264
祥甫邇	-12.6264
嵬	-12.6265
晢	-12.6265
靚	-12.6265
為世範行為士則	-12.6265
屬大軍南討遂留	-12.6265
東都門外送者車數百	-12.6265
今便肅	-12.6265
晉賈后傳	-12.6265
黄帝與蚩尤	-12.6265
𣙜	-12.6265
諸淫昏之鬼	-12.6265
蓉	-12.6265
亭障至玉門	-12.6265
大夫墓樹以柏諸侯墳	-12.6265
筌	-12.6265
褒象經序	-12.6265
湯禱桑林	-12.6265
漢書項籍傳曰	-12.6265
思將帥之臣	-12.6265
鄴中記曰石虎	-12.6265
渠移水碓	-12.6265
增邑千戸	-12.6266
有知人之鑒	-12.6266
睢陽亂絲	-12.6266
贔	-12.6266
青牛文梓	-12.6266
飾文杏以為梁	-12.6266
泲	-12.6266
礧	-12.6266
領大著作	-12.6266
秋之為氣也	-12.6266
門成鄒魯	-12.6266
騅	-12.6266
郭璞江賦	-12.6266
釐坐宣室	-12.6266
縣開國伯	-12.6266
思皇多士	-12.6266
時人為之語	-12.6266
歸餘於終	-12.6266
縲	-12.6267
奭	-12.6267
遌	-12.6267
惱	-12.6267
菩薩處胎經	-12.6267
暱	-12.6267
樂府解題	-12.6267
王陽所畏道	-12.6267
周書太祖紀云	-12.6267
魋	-12.6267
何水部集	-12.6267
僛	-12.6267
刓	-12.6267
經講疏	-12.6267
西部都尉治	-12.6267
鳲	-12.6267
㕑	-12.6267
也逺方圖物貢	-12.6267
孝文時河	-12.6267
延年為協律都尉	-12.6267
徠	-12.6267
槊	-12.6267
狷	-12.6267
糺	-12.6267
襲父爵	-12.6267
雲暮為行雨朝朝暮暮陽臺之下	-12.6267
鼯	-12.6267
𤣥特立一鄉	-12.6267
一年無後取	-12.6267
作者七人	-12.6267
復應畬	-12.6267
志篤終誓穹蒼	-12.6267
槥	-12.6267
池栁雙	-12.6267
神境記	-12.6267
翿	-12.6267
謂良曰孺子下取	-12.6267
進爵廣饒縣	-12.6267
重於身故	-12.6267
鎰	-12.6267
上墋下黷	-12.6267
齊交北絶	-12.6267
瑯	-12.6267
懅	-12.6268
暐	-12.6268
得石槨	-12.6268
箭之有筠也	-12.6268
臶	-12.6268
蜐	-12.6268
禹貢導河	-12.6268
攖	-12.6268
梁書本紀曰帝諱	-12.6268
罻	-12.6268
甓	-12.6268
揃	-12.6268
蚕	-12.6268
眸	-12.6268
控弦破左的右發摧月支	-12.6268
任約徐嗣徽	-12.6268
中有渝水其人多居水左右天性	-12.6268
九牧鑄鼎象物	-12.6268
周禮冬官考工	-12.6268
噩	-12.6268
奓	-12.6268
崔謙傳	-12.6268
昭君詞	-12.6268
楂	-12.6268
櫜	-12.6268
漢西南夷傳	-12.6268
祖思慶建威將軍山陽太守	-12.6268
綂	-12.6268
萬石君傳	-12.6268
蒍	-12.6268
讀仙經	-12.6268
六位時成	-12.6268
有罪不逃刑	-12.6268
瓿	-12.6268
孝莊帝	-12.6268
蹯	-12.6268
五府總	-12.6269
千年一聖	-12.6269
晉謝安傳	-12.6269
命御者褰之百城聞風自然	-12.6269
昔高陽氏有才子八人	-12.6269
蓁	-12.6269
進白兔表	-12.6269
偹	-12.627
養生論一首	-12.627
劬	-12.627
耼	-12.627
觝	-12.627
駍	-12.627
能佩六國相印乎	-12.627
鯽	-12.627
魏氏春秋曰阮	-12.627
龍骨渠	-12.627
戻	-12.627
㤯	-12.627
晉王戎傳	-12.627
民具爾瞻	-12.627
河如帶泰	-12.627
淙	-12.627
琁	-12.627
稾	-12.627
臞	-12.627
自此何世從	-12.627
躐	-12.627
鋌	-12.627
垓	-12.627
夫人羅氏	-12.627
移虜留使文	-12.627
備乎史籍可	-12.627
詳與王僧辯	-12.627
𦂳	-12.627
云先世避秦	-12.627
華陽西極漢水東流	-12.627
釋法顯	-12.627
卿大夫及突	-12.627
履端於始	-12.627
華林園馬射	-12.6271
禖	-12.6271
書賈山曰	-12.6271
建河橋於富平津	-12.6271
蔀	-12.6271
沈休文	-12.6271
玳瑁	-12.6271
郁郁乎文	-12.6271
比作麗辭	-12.6271
聚石成圖	-12.6271
勒旁鐵也	-12.6271
印背龜紐其文曰章	-12.6271
員外散騎常侍	-12.6271
螿	-12.6271
蹹	-12.6271
車服不繫	-12.6271
金燈草賦	-12.6271
停車小苑	-12.6271
律中無射	-12.6271
悃悃	-12.6271
慓	-12.6271
為人所憐	-12.6271
生入玉門闗	-12.6271
真加以貞志不休安道苦節不以躬耕	-12.6271
譌	-12.6271
韎	-12.6271
建章宫度為千門萬户	-12.6271
和淮南公	-12.6271
設重雲之講	-12.6271
必百世祀	-12.6271
煖	-12.6272
奄冉而就過	-12.6272
萬四千由旬	-12.6272
周禮雲門之舞以祀	-12.6272
咤	-12.6272
䆒	-12.6272
嵸	-12.6272
擷	-12.6272
張璠漢紀	-12.6272
兮易水寒壯士一去兮不復還	-12.6272
四首合原讀	-12.6272
漻	-12.6272
蔡邕琴操	-12.6272
芝房歌	-12.6272
靃	-12.6272
公此衣錦	-12.6272
声	-12.6272
姡	-12.6272
擒竇泰復𢎞農	-12.6272
正天樞	-12.6272
比之今日豈可同年而語哉	-12.6272
疹	-12.6272
者品秩第	-12.6272
蘚	-12.6272
隴頭流水分離四下	-12.6272
上有扶木	-12.6272
張協詠史詩	-12.6272
人生不滿百	-12.6273
㑹稽典録	-12.6273
馮陵我城	-12.6273
蒼帝靈威仰	-12.6273
弨	-12.6273
澀	-12.6273
柞	-12.6273
國語祭公謀父	-12.6273
楚囚君子也	-12.6273
以隼翼	-12.6273
拜中書郎	-12.6273
結廬在人境	-12.6273
迄用康年	-12.6273
顰	-12.6273
東南一尉	-12.6273
為車騎大將軍儀同三司	-12.6273
􁋊	-12.6274
鸇	-12.6274
徐文炳	-12.6274
售	-12.6274
齊煬王	-12.6274
酇	-12.6274
萬石君奮徙	-12.6274
㕔	-12.6274
索靖草書	-12.6274
餘官如故	-12.6274
砰	-12.6274
行雲逝而	-12.6274
謝宣城詩集卷第	-12.6274
足為連類	-12.6274
仿	-12.6274
十六首共六十四首合原讀	-12.6274
易通卦驗	-12.6274
樂用黃鐘大吕之等人帝	-12.6274
葛常之韻語陽秋	-12.6274
螳螂	-12.6274
釋名曰黛代	-12.6274
至於大漸	-12.6274
韋昭曰三川河伊洛	-12.6274
正正之旗	-12.6274
西豐公大春	-12.6274
大統九年	-12.6274
既官政而離逷	-12.6274
皇帝初獻配帝奏舞一配帝謂	-12.6274
芷	-12.6274
赫連勃勃	-12.6274
玆	-12.6274
以屬神火正黎司地以屬民	-12.6275
傷友人賦	-12.6275
去留環堵蕭然不蔽風日短褐穿結簞瓢	-12.6275
告髙密	-12.6275
榥	-12.6275
營軍梁溠蒐乗巴渝	-12.6275
▁月令云其帝	-12.6275
曰今將軍尚不得	-12.6275
南史梁宗室	-12.6275
繄	-12.6275
無袖端也	-12.6275
巍峩	-12.6275
驃騎大将軍開府儀同三司	-12.6275
天造草昧	-12.6275
甲休兵	-12.6275
蕋	-12.6275
言容以德	-12.6275
鄖	-12.6275
七輿大夫	-12.6275
劉後村曰	-12.6275
周禮挈壺氏	-12.6275
必有驗乎	-12.6275
用細腰	-12.6275
郈	-12.6275
金精據嶺	-12.6275
閾	-12.6275
靈鷲山	-12.6275
蒺	-12.6275
周書本紀曰帝諱	-12.6276
琱	-12.6276
債	-12.6276
稱族而行尊君	-12.6276
㠋	-12.6276
五斗米折腰	-12.6276
礼	-12.6276
解稱其月二十	-12.6276
之祭配天帝	-12.6276
八表同昏平	-12.6276
於河渭河渭不足北飲大澤未至	-12.6276
曲赦丹陽等四郡詔	-12.6276
騏	-12.6276
鱠	-12.6276
玉府若合諸侯	-12.6276
同盧記室從軍	-12.6276
以公事去	-12.6277
冋	-12.6277
䲭	-12.6277
掌建邦	-12.6277
釋老志	-12.6277
周書趙王招傳云	-12.6277
型	-12.6277
墄	-12.6277
戴凱之竹譜曰	-12.6277
旛	-12.6277
東宫舊事太子納妃	-12.6277
王良策馬車騎滿野	-12.6277
刀剖則	-12.6277
我亦不與	-12.6277
枵	-12.6277
漢宣帝紀	-12.6277
玃	-12.6277
者不能與之	-12.6277
欲以十五城易趙王和氏璧	-12.6277
宋書州郡志	-12.6277
梲	-12.6277
有山池詩	-12.6277
纜	-12.6277
苜蓿	-12.6277
𬗋	-12.6278
坐拭圭鄭	-12.6278
䀩	-12.6278
湛盧之劒	-12.6278
宼	-12.6278
蕃字仲舉	-12.6278
蕭領軍拜侍中刺史章	-12.6278
不失舊物	-12.6278
客衣單	-12.6278
皡	-12.6278
陳留風俗傳	-12.6278
不期而㑹	-12.6278
好味止	-12.6278
尭	-12.6278
惘	-12.6278
槪	-12.6278
止不殆	-12.6278
漢楊惲傳	-12.6278
玉案推食	-12.6278
𤏡	-12.6278
傷慘懐慕増憂心	-12.6278
屐	-12.6278
徴流商歌鄭南音	-12.6278
性嗜酒家貧不能常得親舊	-12.6278
水環合	-12.6278
誦仙經	-12.6278
鈕	-12.6278
佩長洲之茂苑	-12.6278
探雀鷇	-12.6278
之山其上多	-12.6278
臨賀王正	-12.6279
墐	-12.6279
屈原九章	-12.6279
後漢書曰肅宗詔	-12.6279
徑望三益	-12.6279
從黄綺	-12.6279
蕭驃騎築新亭壘埋枯	-12.6279
赤虹賦	-12.6279
鮮美落英繽紛	-12.6279
月乙巳	-12.6279
荑	-12.6279
中大通六	-12.6279
若雲非雲郁郁	-12.6279
崕	-12.6279
瑛	-12.6279
惟帝念功	-12.6279
晉張協詩	-12.6279
賜姓步陸孤氏	-12.6279
公諱裔字遵𦙍河内溫人也	-12.6279
汜勝之書	-12.6279
籊	-12.6279
凉武昭王	-12.6279
月中送我出逺郊	-12.6279
月角星眉	-12.6279
漢書文帝紀曰	-12.6279
舜命九官	-12.6279
薛綜注	-12.6279
識知改别明璣心	-12.6279
酧	-12.6279
鴸	-12.6279
􁈯	-12.6279
貞陽侯蕭明	-12.6279
千六百軸	-12.628
澍	-12.628
眂	-12.628
繫於苞桑	-12.628
胤	-12.628
南鄭歌商流徴殷	-12.628
辝	-12.628
年過五十少而窮苦毎以家弊東西游走	-12.628
慨交心	-12.628
慱	-12.628
扇上綵畫賦	-12.628
河廣思歸	-12.628
甚失語	-12.628
當春四韻同	-12.628
靈臺中或	-12.628
左傳臧僖伯曰	-12.628
左旋讀得詩八首	-12.628
犨	-12.628
左傳燭之武曰	-12.6281
漢髙祖紀	-12.6281
痁	-12.6281
悪	-12.6281
北眺五陵	-12.6281
瀴	-12.6281
周異域傳	-12.6281
四方其訓之	-12.6281
愄	-12.6281
意降居若水	-12.6281
移風易俗	-12.6281
端無終始	-12.6281
輔國將軍	-12.6281
鬂	-12.6281
李康運命論	-12.6281
乃聖乃神	-12.6281
春服既成	-12.6281
覉	-12.6281
雙發歌我袞衣	-12.6281
劉僕射東山集	-12.6281
屋瓦盡振	-12.6281
廌	-12.6281
楊泉物理論	-12.6281
訪道經	-12.6281
慷	-12.6282
與楊德祖書	-12.6282
峩	-12.6282
臺望吾西陵	-12.6282
㴱	-12.6282
建平王謝賜石硯	-12.6282
佟	-12.6282
龍樹菩薩	-12.6282
基津圖怨之	-12.6282
廊琴平端之	-12.6282
春親氏辭之	-12.6282
柜	-12.6282
賈為太中大夫	-12.6282
曰求諸侯莫如勤王	-12.6282
後漢馮異傳	-12.6282
狖	-12.6283
南音始終之	-12.6283
天道幽且逺鬼神茫昧然	-12.6283
守空帷	-12.6283
尚書秦誓	-12.6283
韓伯字	-12.6283
靈光巋然獨存	-12.6283
曰典午忽兮	-12.6283
㢤	-12.6283
準繩規矩	-12.6283
蓑	-12.6283
行女哀辭	-12.6284
城如飛鳥	-12.6284
秦青撫	-12.6284
蕭驃騎上頓表	-12.6284
謝開府辟召表	-12.6284
趙泉山曰此詩	-12.6284
旂十有二旒	-12.6284
金如粟不以入懐	-12.6285
地盡龜林	-12.6285
􁑾	-12.6285
𬎼	-12.6285
僧智書	-12.6285
平疇交逺風良苗亦懷新	-12.6285
有役但願桑麻成	-12.6285
淼	-12.6285
窮巷甘	-12.6285
謝法曹贈	-12.6285
鄭僑云亡	-12.6285
顦	-12.6285
鵞	-12.6285
𤨏	-12.6285
拭玉於西河之主	-12.6285
論兵於江漢之君	-12.6285
和趙王送峽中軍	-12.6285
𤾉	-12.6285
翺	-12.6285
鯷	-12.6286
檮杌	-12.6286
流淚抱中歎	-12.6286
過隂麗華	-12.6286
簡文帝對燭賦	-12.6286
倦濁酒聊自適日暮巾柴車路	-12.6286
尠	-12.6286
莊子曰鵬之背不	-12.6286
讓太傅楊州牧表	-12.6286
塼	-12.6286
漢昭帝紀	-12.6287
霣	-12.6287
隣靡二仲室無萊婦抱兹苦心良獨内愧	-12.6287
􁠨	-12.6287
票騎將軍	-12.6287
氂	-12.6288
妙顯華重榮章臣賢惟聖配英皇倫	-12.6288
卺	-12.6288
懆	-12.6288
趍	-12.6288
遷車騎大將軍	-12.6288
􁄂	-12.6288
嬛	-12.6288
怒而飛其翼若垂天之雲	-12.6288
瑶琨篠簜	-12.6288
竄身清漳	-12.6288
翼翼歸鳥	-12.6288
醱	-12.6288
衮職有闕惟	-12.6289
月已丑	-12.6289
孫必復其始	-12.6289
折若木以拂日	-12.6289
江上之山賦	-12.6289
袈	-12.6289
沄沄	-12.629
本無情於鐘	-12.629
南里之南村	-12.629
哮	-12.629
履信思順	-12.629
移風易俗莫善於樂	-12.629
榼	-12.629
建平王慶江皇后正位章	-12.629
有始有卒	-12.629
凶短折	-12.6291
師曠禽經曰	-12.6292
鰥	-12.6292
謖	-12.6292
蹂	-12.6292
遰	-12.6292
諸葛亮造八陣	-12.6292
狙	-12.6293
應璩百一詩	-12.6293
覬	-12.6293
之曰此常山蛇勢	-12.6294
聫	-12.6295
蜀志譙周	-12.6295
謇	-12.6296
飇	-12.6296
㒒	-12.6296
荗	-12.6296
設官分職	-12.6296
正頼古人書	-12.6296
撻	-12.6297
徒左長史	-12.6297
林兵息	-12.6297
虓	-12.6297
戞	-12.6297
楗	-12.6297
秦軍射殺趙括	-12.6297
嬴博之間	-12.6297
王室遂卑	-12.6299
穣	-12.6299
聖人之大寳曰位	-12.63
宋書樂志曰	-12.63
卞太后誄	-12.6303
鳴鶴在隂	-12.6303
襪	-12.6304
次有比邱	-12.6304
漢書貨殖傳曰	-12.6304
剞	-12.6305
又足相容	-12.6306
陳徐陵撰	-12.6307
三千七百五十二首	-12.6307
袊	-12.6308
冬至獻襪頌	-12.6308
帝初即位	-12.6315
鷕	-12.6315
月景辰	-12.6318
惏	-12.6328
何謂法身令㫖荅	-12.6329
浼	-12.6329
漢書百官志曰	-12.6362
隋書揚州南海郡	-12.6503
釋氏要覽梵	-12.6581
乃贈使持節	-12.6587
土馬之所生	-12.6709
鼚乎鼓之	-12.6919
郭賀拜荆	-12.7759
蟒	-12.9251
蠾	-12.9253
蠀	-12.9258
蛒	-12.926
增邑三百戸	-12.9288
四轍中繩	-12.935
蚗	-12.9352
螉	-12.9352
鼅	-12.9359
喛	-12.9375
蝓	-12.9375
膐	-12.941
矲	-12.9414
梁益之間謂	-12.9416
安得猛士兮守四方	-12.9419
謂之氐惆	-12.9426
瘖	-12.9446
摸	-12.945
歰	-12.9452
娗	-12.9458
也楚郢以南	-12.9458
筳	-12.9468
紕	-12.947
㷭	-12.9475
西南梁益之間	-12.9475
奧	-12.9478
闓	-12.9479
劘	-12.9481
蛆	-12.9482
徯	-12.9485
篖	-12.9491
䏁	-12.9493
夥	-12.9494
醯	-12.9495
迒	-12.9498
蚨	-12.9499
爾復我隨	-12.9503
日月虧蔽	-12.9504
椅桐梓漆	-12.9504
徥	-12.9504
搉	-12.9504
勒功紀漢威	-12.9506
佂	-12.9508
棿	-12.951
九谷八溪	-12.9512
杠	-12.9512
拌	-12.9512
隑	-12.9514
乎自吾得	-12.9514
柲	-12.9516
之靡也焉可謂之義也	-12.9516
惓	-12.9516
舟壑潛移	-12.9518
太傅胡公說曰	-12.9518
㤿	-12.9522
傜	-12.9524
磑	-12.9527
悋	-12.9527
惙	-12.9529
窽	-12.9529
戕	-12.953
鳦	-12.953
惽	-12.9531
䛳	-12.9531
癡	-12.9533
雖曲而通諸	-12.9533
餙	-12.9535
慶封餘邑	-12.9535
公車特徵	-12.9535
謏	-12.9535
山臨寶符	-12.9537
而歡慼並用	-12.9537
摹而得乎	-12.9539
攍	-12.9539
木石以填東海	-12.9539
與項籍語處	-12.9541
魾	-12.9541
凷	-12.9543
洄	-12.9543
啑	-12.9543
妯	-12.9543
憖	-12.9543
欸	-12.9545
有黔夫者使守	-12.9545
酒酣奏琴	-12.9545
湑	-12.9546
豐故梁徙	-12.9547
爚	-12.9547
偒	-12.9548
剏	-12.9549
不利有攸往	-12.9549
曰厲山氏	-12.9549
踳	-12.9549
媠	-12.9549
􁈷	-12.9549
淮南畢萬術曰	-12.9551
以武都紫泥	-12.9551
讞	-12.9551
哨	-12.9551
魚戲蓮葉	-12.9551
㥄	-12.9553
戩	-12.9553
粃	-12.9553
漢高祖功臣頌	-12.9553
神農本起烈山故	-12.9555
襄陽耆舊傳曰	-12.9555
䁙	-12.9555
冄	-12.9555
卾	-12.9555
濺	-12.9555
紉	-12.9556
愒	-12.9556
復子明辟	-12.9556
鼎室辭親	-12.9556
延熹二年	-12.9556
䑋	-12.9557
僷	-12.9557
撣	-12.9557
常無欲以觀其妙常有欲以觀其	-12.9557
城壘向背	-12.9558
寒林笋出	-12.9558
沍	-12.9558
著勲追贈柱國大將軍少	-12.9558
語終不及朝省政事	-12.9558
發遣彼使	-12.9558
螘	-12.9558
但坐觀於時變	-12.9559
也跪而推轂	-12.956
彿	-12.956
𣆀	-12.956
般泥洹	-12.956
言陸氏之先	-12.956
亂離瘼矣	-12.956
擏	-12.956
噀	-12.956
噆	-12.956
瓞	-12.956
館陶公主	-12.9561
嘼	-12.9562
封晉魏為二王	-12.9562
序殷周為三恪	-12.9562
壊孔子舊宅以廣其	-12.9562
侠	-12.9562
建德五年二月	-12.9562
惔	-12.9562
變宫變徵	-12.9562
芝桂不防身	-12.9563
窣	-12.9564
欝	-12.9564
怱	-12.9564
遨遊出西城	-12.9564
錪	-12.9564
苓	-12.9564
寛帶經而鋤	-12.9564
氣之法為室	-12.9564
玉帳山銘	-12.9564
倏	-12.9565
潸	-12.9566
輵	-12.9566
茗	-12.9566
蓴	-12.9566
為貞陽侯答王太尉書	-12.9566
假道於虞以伐虢	-12.9566
空牀難獨守	-12.9566
天老教政	-12.9566
祀昊天上帝則大裘而冕	-12.9566
祍	-12.9566
軍吏無犯營民不寒	-12.9566
歠	-12.9566
貙	-12.9566
凡蔣邢茅胙祭	-12.9566
祖代左右將軍魏文皇帝直寢	-12.9566
絅	-12.9566
𤇺	-12.9566
㑹河陽公新造山池	-12.9566
紱紆槐綬	-12.9567
眴	-12.9568
窿	-12.9568
螫	-12.9568
面雖可熱	-12.9568
謵	-12.9568
纆	-12.9568
諛	-12.9568
騰竺法蘭	-12.9568
反舊章於司𨽻	-12.9568
懊	-12.9568
浡	-12.9568
蛸	-12.9568
虆	-12.9568
西南噀之有司奏巴	-12.9568
食魚必河之魴	-12.9568
騩	-12.9568
取密山之玉策	-12.9568
安石求為淮海人	-12.9568
斤為相如文君取酒	-12.9568
為之歎嗟所離之思多感思之離經三言	-12.9568
緦	-12.9568
酆都中興	-12.9568
隺	-12.9568
至之景尺有五寸	-12.9568
廕	-12.957
侍中中常侍加黄金	-12.957
伯奮仲堪叔獻季仲伯虎仲熊叔豹	-12.957
埳	-12.957
戴延之西征記	-12.957
丰	-12.957
人人自謂握靈虵之珠	-12.957
家開孝子泉	-12.957
車上有壺榼	-12.957
黄金飾侍蟬	-12.957
不廢披書案	-12.957
當一史臣	-12.957
䀡	-12.957
以葭莩灰抑其内	-12.957
無常其心乃悟	-12.957
矔	-12.957
􁖵	-12.957
皇后服再朞戊申祥	-12.957
南方草木狀曰	-12.9571
塤	-12.9572
安城東出南	-12.9572
欲出長三丈	-12.9572
彌雄西氣	-12.9572
渡河至蒲州今	-12.9572
左傳介之推	-12.9572
憊	-12.9572
术	-12.9572
無妨坐釣船	-12.9572
青泥美熟	-12.9572
凾	-12.9572
右秉白旄	-12.9572
橑	-12.9572
碧玉宋汝南王妾	-12.9572
興長城下若里人	-12.9572
酆郇文之昭也	-12.9572
梯衝亂舞	-12.9572
滉	-12.9573
撼	-12.9573
大梁大梁必亡	-12.9574
欀	-12.9574
大匠渾之十一世孫	-12.9574
菅	-12.9574
瀄	-12.9574
丸都之山	-12.9574
其盟則寒	-12.9574
唐朝之八	-12.9574
繡衣直指	-12.9574
者皆警戒入國者皆蹕止也	-12.9574
左傳鄢陵之戰	-12.9574
拘薩羅國	-12.9574
曰肉食者	-12.9574
木以不材得終其天年	-12.9574
洛神賦曰神光離	-12.9574
若存若亡	-12.9574
遴	-12.9574
涇上流師人多死	-12.9574
盥少者奉槃長者奉水	-12.9574
反道敗徳	-12.9574
本出魏宫	-12.9574
氣所動者其灰散人	-12.9574
沕	-12.9574
買駒少	-12.9574
七處八會	-12.9574
始含香於建禮仍矯翼於崇賢	-12.9574
慶封之玉杯	-12.9574
狐兔窟	-12.9574
鄭人討幽	-12.9575
楚有蒼雲如霓	-12.9576
縰	-12.9576
􁈓	-12.9576
明德惟馨	-12.9576
椹	-12.9576
晉故豫章内史夏府君	-12.9576
祝史陳信	-12.9576
道險卧樚櫨	-12.9576
少師少傅少保	-12.9576
憭	-12.9576
樚	-12.9576
移封東武	-12.9576
色澤不變	-12.9576
其官為上柱國封上爵執	-12.9576
者何以貴之昭陽曰	-12.9576
修行本起經	-12.9576
凟	-12.9576
地逺西燕	-12.9576
張華與帝意合	-12.9576
曰歌者吹律以詠八風	-12.9576
繡栭雲楣	-12.9576
克成厥勲	-12.9576
蝘	-12.9576
誕膺天命	-12.9576
共工氏與顓頊	-12.9577
山折天柱絶地	-12.9577
鷟	-12.9577
年授車騎大將軍儀同三司	-12.9577
觀佛三昧	-12.9577
跚	-12.9577
皆降可得而禮矣	-12.9578
封事諫曰夜	-12.9578
朝鮮洌水之間曰	-12.9578
鱸	-12.9578
囓	-12.9578
陽其氣始出生	-12.9578
年踰耳順	-12.9578
張溥百三家集	-12.9578
枋	-12.9578
􁧥	-12.9578
北史庾季才傳	-12.9578
史記龜策傳曰	-12.9578
城影入黄河	-12.9578
桓宣武平荆州	-12.9578
考叔純孝也	-12.9578
鍬	-12.9578
新野郡邑萬	-12.9578
浥	-12.9578
灊	-12.9578
趙昭儀方大幸	-12.9578
中軍而疏行首	-12.9578
叔向見司馬侯之子撫而	-12.9578
寡人有銅鐶靈	-12.9578
寢苫枕草	-12.9578
實思賢傅	-12.9578
幸無求於千里	-12.9578
拜大司馬仍理小冢宰	-12.9578
此其父之死吾蔑	-12.9578
猶安其室	-12.9578
謌	-12.9578
車同軌書同文	-12.9578
竑	-12.9578
賜繒綵	-12.9578
郿塢人稀	-12.9578
入境以來國祥甫邇自秋迄冬未申	-12.9578
子奮發勇氣咆勃	-12.9579
鷫	-12.9579
至道殆恐非仙才也	-12.9579
周含鄭怒	-12.9579
實總元戎身先士卒	-12.9579
聖人之大寶曰位	-12.9579
下有四星曰弧直狼	-12.958
拔郢燒夷陵	-12.958
玉燭寶典	-12.958
申屠蟠	-12.958
禧	-12.958
襯	-12.958
䭾	-12.958
巉	-12.958
涖官行政	-12.958
漆沮既從荆岐	-12.958
瓜州豪傑束手歸	-12.958
五月渡瀘	-12.958
大毘婆沙論	-12.958
桷	-12.958
繐帷飄井幹	-12.958
𢎞正字思行	-12.958
匙	-12.958
寺門外夾道左右有	-12.958
袩	-12.958
載與俱歸立為師	-12.958
律中夷則	-12.958
虖	-12.958
九光之燈	-12.958
劉歆七畧曰	-12.958
婆力叉	-12.958
宫車晩出	-12.958
宵飛南斗	-12.958
意氣怡然	-12.958
日不暇給	-12.958
破其瑟為	-12.958
趙氏姊弟	-12.958
逢狹路間	-12.958
鋪陳曰筵藉之	-12.958
又加王精兵六萬長圍	-12.958
横行入鄴	-12.958
自爾即為前鋒	-12.958
田曝麥於庭	-12.958
讓東海之濵遂餐周粟	-12.958
賞奴婢三百口太祖與	-12.9581
邯	-12.9581
掌庾承周	-12.9581
初懿氏卜妻敬仲	-12.9581
廣字仲翁	-12.9581
懕	-12.9582
瑞形成象	-12.9582
癉	-12.9582
鄰人有吹笛	-12.9582
三墳五典八索九	-12.9582
大荒之中有山	-12.9582
就君安陽	-12.9582
曰吾家池中龍種	-12.9582
呼金輪等輪	-12.9582
擬青青陵上栢	-12.9582
毚	-12.9582
倉西三室山上	-12.9582
北避秦橋	-12.9582
崯	-12.9582
殿柱書名	-12.9582
直滎陽開封人也	-12.9582
膩	-12.9582
諸蔗雖甘	-12.9582
㑂	-12.9582
克岐克嶷	-12.9582
千人唱萬人鉤金	-12.9582
殿中無雙丁孝公	-12.9582
璅	-12.9582
蟺	-12.9582
被甲陽雲臺	-12.9582
鄭見子産如舊	-12.9582
鶂飛傷楚戰	-12.9582
䰞	-12.9582
或含毫而邈然	-12.9582
繳生絲縷也	-12.9582
雅六曰頌	-12.9582
桓良曰告我家七	-12.9582
其所而衆星拱之	-12.9582
雲駕庶可飭	-12.9582
蜀王納以為妃	-12.9582
天子始建漢家之封	-12.9583
智總圓神	-12.9583
禮從天數	-12.9583
特為太祖所	-12.9583
除舊布新	-12.9583
梔	-12.9583
惟祖惟考	-12.9583
蘭香草也	-12.9583
中陽里人	-12.9583
􁆍	-12.9583
剉	-12.9583
中為牂牁太守去	-12.9583
之者皆連手縈繞投	-12.9583
日中有踆烏	-12.9583
遂相隨俱歸	-12.9583
别鶴以舒其憤懣故曰别鶴操	-12.9583
平坐望河梁	-12.9583
後漢書曰鄭𢎞為淮隂太守	-12.9583
拜駙馬都尉	-12.9583
七政日月五星	-12.9583
先知滅門	-12.9583
啣	-12.9583
為不可别已故以其旗	-12.9583
緑房紫的	-12.9583
胞	-12.9583
執末而獻無因自持	-12.9583
粟麥二千	-12.9583
薨於成都之錦城	-12.9583
行不逢其時	-12.9583
酈元水經注曰	-12.9583
魏文帝與呉質書	-12.9583
有楚師師曠曰不害吾驟歌北風又歌南	-12.9584
脤	-12.9584
蒼璧禮天	-12.9584
初造山雲舞以	-12.9584
橧	-12.9584
亡餘數十人	-12.9584
兜	-12.9584
喪服小記	-12.9584
夫所飲者玉	-12.9584
禮求而不可得也	-12.9584
扛	-12.9585
左傳僖三十三年	-12.9585
之置自吉始	-12.9585
詬	-12.9585
參為晉星	-12.9585
建平兵建平不下終不敢渡	-12.9585
懲山北之塞出入之迂也	-12.9585
有攻吳之計宜	-12.9585
季氏之婦不淫矣	-12.9585
望胡地桑	-12.9585
飬由基事	-12.9585
入重陽閣詩	-12.9585
南奔楚塞	-12.9585
周書武帝紀曰天和	-12.9585
周禮内司服	-12.9585
坐法抵罪	-12.9585
墩	-12.9585
帊	-12.9585
有銀蠶金雀以多竒物	-12.9585
蜀本紀曰始皇陵	-12.9585
衂	-12.9585
官為縉雲	-12.9585
宜陽等九城	-12.9585
惷	-12.9585
朗鏡明光紛葩	-12.9585
李廣利為貳師	-12.9585
東海剡人也	-12.9585
止於王屋流為赤	-12.9585
為主徙都鄴是為東魏	-12.9585
照殿比東	-12.9585
相敬如賔	-12.9585
縮板以載	-12.9585
翼纒篸管	-12.9585
丈瀛洲此三	-12.9585
倯	-12.9585
合從締交	-12.9585
墱	-12.9585
徤	-12.9585
月九日飲菊花酒	-12.9585
梠	-12.9585
渭口澆泉	-12.9585
田完世家	-12.9585
置東京六府洛州總管	-12.9585
荆州刺史東南道行臺僕射	-12.9585
軒乎舞之	-12.9585
辨其用與其位	-12.9585
采采芣苢	-12.9585
頭㑹箕歛	-12.9585
黄沙之苑	-12.9585
龍津遂壅	-12.9585
枕戈待旦	-12.9585
周庾信撰吴江吴兆宜註	-12.9586
園公綺里季	-12.9586
䌓	-12.9586
傷中情君無家	-12.9586
楚共王無冢適	-12.9586
生千葉蓮	-12.9586
至聖之君以為大瑞	-12.9586
倖	-12.9587
炎帝之女溺死東海化為精	-12.9587
糴	-12.9587
銜甲赤文緑色	-12.9587
杏壇之上	-12.9587
臨代代可取也	-12.9587
褁	-12.9587
乃舞白鶴於吳市中	-12.9587
皇建其有極	-12.9587
麰	-12.9587
万俟洛	-12.9587
仕侯景為中書	-12.9587
杞國公亮	-12.9587
湟	-12.9587
煤	-12.9587
籀	-12.9587
至渭橋有女子浴於渭	-12.9587
荇	-12.9587
㫿	-12.9587
䪥	-12.9587
光武殺湖陽	-12.9587
彈彈之鶴以爪攫樓板似漆	-12.9587
斛律明月	-12.9587
有滅吳之計	-12.9587
殿校書和劉儀同	-12.9587
漢間公卿墓則以石麒麟鎮之	-12.9587
罦	-12.9587
鱗次玉帛	-12.9587
㛯	-12.9587
䰂	-12.9587
史記河渠書	-12.9587
建德二年授少傅	-12.9587
從賔國之儀	-12.9587
明淫心疾	-12.9587
浮於濟漯	-12.9587
盤髙二十丈大七圍以	-12.9587
趙氏孟子注曰	-12.9587
開黌學聚	-12.9587
馬陵削樹	-12.9587
黄石公記	-12.9587
􁛾	-12.9587
奉迎突厥皇后	-12.9587
謩	-12.9588
曰大星如虹下流華渚女節	-12.9588
元帝廟號世祖	-12.9588
與大司馬蜀國公圍金墉城	-12.9588
之賦無衣九頓首而坐秦師乃出	-12.9588
娩	-12.9588
䕶軍慷慨忠能死節	-12.9588
魏君不能削	-12.9588
㓪	-12.9588
蠟	-12.9588
支牀有龜	-12.9589
􁖻	-12.9589
辭洞庭兮落木	-12.9589
北單于於金微山	-12.9589
持璧睨柱秦王恐破璧乃謝相如	-12.9589
逢赴洛之陸機	-12.9589
屇	-12.9589
也南界東郡白馬	-12.9589
川后静波	-12.9589
换	-12.9589
撑	-12.9589
映弩屢	-12.9589
􁧂	-12.9589
屠門而大嚼	-12.9589
為長岑長駰自以逺去	-12.9589
藻聚藻也	-12.9589
在北陸而藏氷	-12.9589
城東北樓上人或	-12.9589
寢杜氏之	-12.9589
幽咽遥望秦川肝腸斷絶	-12.9589
茄	-12.9589
青尚平陽主與主	-12.9589
頎	-12.9589
偓	-12.9589
墮其履圯下	-12.9589
有酒如澠	-12.9589
李廣傳文帝曰惜廣不逢時	-12.9589
河帝子之國	-12.9589
誰為榮懐	-12.9589
還接銀沙城	-12.9589
以歜為不能事主乎	-12.9589
南宫敬叔師事仲尼	-12.9589
女郎砧	-12.9589
文茵暢轂	-12.9589
有野烏數	-12.9589
楚子觀周受折於孫滿霍侯驂	-12.9589
睚	-12.9589
石鏡菱花發	-12.9589
移民下邑未學邊韶	-12.9589
蝽	-12.9589
仟	-12.9589
堨	-12.9589
灝	-12.9589
窊	-12.9589
錠	-12.9589
陽帝鄉多近親	-12.9589
齊王進蒼烏表	-12.9589
帝制象經成集百	-12.9589
得玉璜刻曰姬受命吕佐	-12.9589
走者聞風聲鶴唳	-12.959
寒門者谷口也	-12.959
以手巾拭	-12.959
天老力牧容成	-12.959
不樂郡吏以病去官復遊	-12.959
命賞於祖	-12.959
三階平則隂陽和風雨時	-12.959
君無怨黷	-12.959
申包胥之	-12.9591
欲與若復牽黄犬出	-12.9591
喪不成侵宋	-12.9591
代邸而承基遷唐郊而纂祀	-12.9591
譬如北辰居	-12.9591
少遭荼苦	-12.9591
過曹娥碑下	-12.9591
休門生門	-12.9591
集巻六欽定四庫全書集部二	-12.9591
嵒	-12.9591
擬青青河畔草	-12.9591
細凌聞災雹	-12.9591
赤山在遼東西北數千里	-12.9591
隨侯之珠	-12.9591
鯢而封之以為大	-12.9591
鴂	-12.9591
珩璜琚瑀衝牙	-12.9591
隃	-12.9591
龍文鏤剪刀	-12.9591
七寸廣三寸	-12.9591
哀帝擢鄭崇	-12.9591
湲	-12.9591
類洗杯	-12.9591
居此室遂	-12.9591
履上笑曰我識鄭	-12.9591
張奐字然	-12.9591
摶扶揺	-12.9591
鵜	-12.9591
一奮而絶	-12.9591
侍從徐國公殿下軍行	-12.9591
千棲宿其上晨去	-12.9591
南有女郎山山上有女郎	-12.9591
喆	-12.9591
噤	-12.9591
圍益恩赴難	-12.9591
天慘慘而無色	-12.9591
夷衿輟戰	-12.9591
建安五年上與袁紹戰	-12.9591
拜郡百姓遮道曰願從陛下	-12.9591
持㦸百萬秦得	-12.9591
淟	-12.9591
漢曰安軍宜在七	-12.9591
至潁川盜賊悉	-12.9591
臺詔羣臣二千	-12.9591
行兵之道天	-12.9591
風銅烏千里風至此烏	-12.9591
一章九句	-12.9591
三年乃成王怒	-12.9591
不可窮窮不可	-12.9591
之而不悔主父偃言生不五鼎食死	-12.9591
五鼎烹卒如其言	-12.9591
四月二十二日	-12.9591
坐帳無鶴	-12.9591
女成公之妹也	-12.9591
嫵	-12.9591
常寗喜之倫蘇秦衛鞅之匹死之而不疑	-12.9591
祥字休徵	-12.9591
羌笳悽囀	-12.9591
艖	-12.9591
西域通三十六國	-12.9591
兵上邙山則河橋路斷	-12.9591
師臨洛浦則廣武營	-12.9592
舞辭同圜丘	-12.9592
裯	-12.9592
儀志稱後周	-12.9592
澄波千頃	-12.9592
聚空倉而雀噪	-12.9592
曨	-12.9592
獸於船首以	-12.9592
侃夢生八翼飛	-12.9592
禾飾斚翠羽承	-12.9592
子藐姑射之山	-12.9592
孤憤五蠧	-12.9592
漢蕭育傳	-12.9592
以樂其政和	-12.9592
為楚所滅	-12.9593
象自後有劉淵之亂	-12.9593
即位遷左光禄大夫	-12.9593
孫綽天台山賦	-12.9593
天保之未定	-12.9593
山車澤馬	-12.9593
季路之一言	-12.9593
楶	-12.9593
苾	-12.9593
五年遷潼州	-12.9593
卧疾窮愁	-12.9593
濯龍無流水之譏	-12.9593
贈小司空宇文顯	-12.9593
喑	-12.9593
鄷	-12.9593
周冠軍公夫人烏	-12.9593
山陽高平人	-12.9593
輻	-12.9593
陸斷犀象	-12.9593
七百二十九賛	-12.9593
以象天漢横橋南渡以法牽牛	-12.9593
偽以魏叛者以誘士㑹	-12.9593
大統三年河内公獨孤信	-12.9593
時罷朝㑹	-12.9593
樷	-12.9593
長勺之戰曹劌	-12.9593
陳留郡守趙季和	-12.9593
飲帳中有美人	-12.9593
香之氣是外國所貢一著人	-12.9593
嘹	-12.9593
平曰原下濕曰隰	-12.9593
漢紀曰衞青大克	-12.9593
陸機字士衡	-12.9593
啟臣某啟	-12.9593
攻城野戰之	-12.9593
有純銀參帶鏡臺一	-12.9593
菊水極甘馨	-12.9593
震維徙族燕垂從宦	-12.9593
借寇君一年	-12.9593
卞和抱其璞	-12.9593
和宇文内史入重陽閣	-12.9593
張衡字平子南陽西鄂人也	-12.9593
攗	-12.9593
晉侯觀於軍府見鍾儀	-12.9593
来號曰朝夕烏	-12.9593
民枕倚於	-12.9593
渡河晨至洛陽諸軍驚散	-12.9593
無藩籬之固	-12.9593
瓦解冰泮	-12.9593
相思則披衣	-12.9593
繘	-12.9593
芣	-12.9593
苢	-12.9593
親賢勿居	-12.9593
言笑無厭時	-12.9593
豐徙豐民以實	-12.9593
踏	-12.9593
願生入玉門關	-12.9593
黄公甪里先生	-12.9593
主而有汾陽之心子晉天下之儲而有洛	-12.9593
九天九地各	-12.9593
倐如流電驚	-12.9593
千櫨綺翼浮	-12.9593
止戈為武	-12.9593
無緣之衣	-12.9593
犒	-12.9593
獨孤永業來寇	-12.9593
虎牢不封金墉無援	-12.9593
言采其蕨	-12.9593
諸日月不刋之書也	-12.9593
赤如肝頭目口齒	-12.9593
鳻	-12.9593
鶝	-12.9593
麋射一麋	-12.9593
麽	-12.9593
都督七州諸軍事即為河州大中	-12.9593
去不速神	-12.9593
武帝第六子也	-12.9593
為流矢所中貫其左臂	-12.9593
鋤耰棘	-12.9593
齊國通和封人受使	-12.9593
狼子野心非	-12.9594
東魏文章辭令盛為鄴下所稱	-12.9594
埜	-12.9594
孤竹之管雲和	-12.9594
後漢書黨錮傳曰	-12.9594
法雞鳴乃出客	-12.9594
祀文王於明堂	-12.9594
紡	-12.9594
左傳晉侯使吕相絶秦	-12.9594
天授其俗謂天曰宇謂	-12.9594
箒	-12.9594
漢蕭望之傳	-12.9594
不發私書	-12.9594
傳世系莫考	-12.9594
囹	-12.9594
麫	-12.9594
摠	-12.9594
治世之音安	-12.9594
臣頻結崇寵	-12.9594
貨海東之藥草或紡江南之落毛譬彼鴛	-12.9594
車趨門傳呼甚寵	-12.9594
濫逵泉之誅	-12.9595
尋轉尚書度支郎	-12.9595
酒薄而邯鄲圍	-12.9595
軿	-12.9595
晉書曰張華死中台	-12.9595
燔柴在焉	-12.9595
銜明珠舞於庭	-12.9595
单	-12.9595
於秦秦伯許之履士㑹之足	-12.9595
曰生燕頷虎頸	-12.9595
飛而食肉此萬里侯相也	-12.9595
仙人導引尚刻三秋	-12.9595
合𦵏起冢象	-12.9595
吹萬不同而使其自巳	-12.9595
壄	-12.9595
天子以大臣之	-12.9595
杞梓皮革	-12.9595
烏孫國大昆彌治赤谷城去長安八千	-12.9595
瑟玉池上	-12.9595
窅然喪其天下	-12.9595
陵散於今絶矣	-12.9595
人血為燐許慎	-12.9595
來日大難	-12.9595
兵死之血為鬼火	-12.9595
前燕録曰	-12.9595
圮	-12.9595
夏正建寅之月	-12.9595
山藏海納	-12.9595
某息荀娘	-12.9595
禮記曰王言如絲	-12.9595
臆言泉流	-12.9595
荆州安州江陵等總管	-12.9595
鋋	-12.9595
鐔	-12.9595
之中倐忽比之白駒寄	-12.9595
之用心是以聖人韜光賢人遁	-12.9595
伐秦秦人毒	-12.9595
偫	-12.9595
公接上嵩山二十餘年後來	-12.9595
在金城西南河所經也	-12.9595
執圭之貴樂	-12.9595
堋	-12.9595
屎	-12.9595
岷山導江	-12.9595
律有十二陽	-12.9595
摰虞決疑要注	-12.9595
晉隠逸傳	-12.9595
樴	-12.9595
海岱及淮惟徐州	-12.9595
燻	-12.9595
牴	-12.9595
百人奉送王行	-12.9595
皆以為晉兵	-12.9595
矍	-12.9595
臣植言臣	-12.9595
自衒自媒者士女之醜行不忮不求者明	-12.9595
自闗東西謂之	-12.9595
苻堅淝水之敗其	-12.9595
茆	-12.9595
袚	-12.9595
見賣玉器者	-12.9595
賜梨付	-12.9595
赤伏符曰王梁主衛作	-12.9595
陪駕幸終南山	-12.9595
高帝曰運籌帷幄之中	-12.9595
鵀	-12.9595
鶵	-12.9595
詔有司造周	-12.9596
上徳不徳是以有徳	-12.9596
水經注益州記	-12.9596
西門豹為鄴令	-12.9596
軾曰和在鑣曰鸞	-12.9596
隨山刋木	-12.9596
為東宫學士領建康令	-12.9596
加兼愁悴少精神	-12.9596
後漢郎顗	-12.9596
人生行樂耳	-12.9596
任放豈能戚戚勞於憂畏汲汲役於人間	-12.9596
匄	-12.9596
古曰六郡謂隴西	-12.9596
張敞走馬章臺街	-12.9596
斛斯椿	-12.9596
謂之逆旅宜乎與大塊而	-12.9596
量亦慶弔之相及智者賢人居之甚履薄	-12.9596
􁛀	-12.9596
高鳳無故	-12.9596
後漢荀淑傳	-12.9596
婦徳婦言婦容婦功	-12.9596
痛掌珠之愛子	-12.9596
狄泉之蒼鳥	-12.9596
賽	-12.9596
赤縣神州	-12.9596
肉食非所望於論都	-12.9597
借人之外力	-12.9597
嶔	-12.9597
於汾北築城	-12.9597
反豈得活耶	-12.9597
峻曰臺下云我	-12.9597
漢兒寛傳	-12.9597
鷦鷯巢林不過	-12.9597
以昭華之玉	-12.9597
榮光出河休氣四塞	-12.9597
山之片玉	-12.9597
忙	-12.9597
江波錦落	-12.9597
下其兄弟之國者十	-12.9597
千年見白日吁	-12.9597
埓	-12.9597
所以刺船也	-12.9597
撙	-12.9597
縗	-12.9597
象於船首	-12.9597
軷	-12.9597
僧徒雲集不逺燉煌之城	-12.9597
好文學信特䝉恩禮	-12.9597
始咆哮縱横未定交	-12.9597
將軍桂陽内史	-12.9597
時盛意麗哀遺身	-12.9597
曰此樹婆娑	-12.9597
梭	-12.9597
萆	-12.9597
遭太夫人憂	-12.9597
隴頭歌有遥望秦川	-12.9597
霈	-12.9597
劭曰有隴坻在其西也	-12.9597
存而身安道亡而身害處百齡之内居一	-12.9597
後漢書竇憲傳曰	-12.9597
後漢獨行傳	-12.9597
悲傷劉孺子	-12.9597
曰元始中起明堂列	-12.9597
書洛誥周公拜手	-12.9597
欽所感想㤀淫荒心憂増慕懐慘傷	-12.9597
燾	-12.9597
築崇徳等五城	-12.9597
萬全可保	-12.9597
誺	-12.9597
谷深谷為陵	-12.9597
銅梁影棠樹	-12.9597
錢塘倪璠	-12.9597
鏦	-12.9597
陽特見嗟嘆賜以三公之服黼黻冕	-12.9597
􁀾	-12.9597
韓簡挑戰穆公衡琱戈	-12.9597
經邦佐漢	-12.9597
永安侯確	-12.9597
將出獵卜	-12.9597
髭	-12.9598
涊	-12.9598
戒約子姪	-12.9598
不能無水而浮	-12.9598
尾閭玉之在山以見珍而	-12.9598
於衆事寄衆事以忘情者也有疑陶淵明	-12.9598
破蘭之生谷雖無人而自芳	-12.9598
詩篇篇有酒吾觀其意不在酒亦寄	-12.9598
連茂苑於海陵	-12.9598
十洲記曰長洲一名青丘在南海	-12.9598
山頭望廷尉不能廷尉望山頭	-12.9599
帝幸𤣥都觀親御法座講	-12.9599
呉質字季重	-12.9599
酬王晋安	-12.9599
偭	-12.9599
鍪	-12.9599
靜亭空繫馬	-12.9599
文詩以贈之	-12.9599
歘	-12.9599
王論中流水戰事	-12.9599
絹色絲	-12.9599
車騎大將軍散騎常侍	-12.9599
上書乞骸骨歸葬	-12.9599
嶙	-12.9599
書地理志曰越巂郡	-12.9599
無道殺君謀楚故湛盧	-12.9599
鄀	-12.9599
釋迦牟尼佛	-12.9599
鳥有鳥丁令威去家千年今	-12.9599
遷虞而事夏	-12.9599
以碁子置下加	-12.9599
則負山餘力	-12.9599
匍	-12.9599
匐	-12.9599
嶃	-12.9599
秦風小戎	-12.9599
脰	-12.9599
蘼	-12.9599
詩序曰下武嗣文也	-12.9599
㫄	-12.9599
䲧	-12.9599
八卦占爻	-12.9599
奉和法筵應詔	-12.9599
懾	-12.9599
櫑	-12.9599
汛	-12.9599
爲顧彦先贈婦	-12.9599
玉衡正而泰階平	-12.9599
聞鳥見其類而後鳴何不	-12.9599
醊	-12.9599
吟猿落雁	-12.9599
坌	-12.9599
天水安定北地上郡西河	-12.9599
嫠	-12.9599
實基王化	-12.9599
山衞叔卿	-12.9599
巢燻穴	-12.9599
年鄢陵之戰云	-12.9599
愚夫貪士競	-12.9599
文詞髙於甲觀	-12.9599
歌曰風蕭蕭兮易水寒	-12.9599
沙幕未開	-12.9599
王子濵洛之嵗	-12.9599
珪分職貢	-12.9599
而合國之子弟焉	-12.9599
胊	-12.9599
腹便便五經	-12.9599
至祁連山捕首虜	-12.9599
荆襄初附	-12.9599
退一字成句以下遞退一句成章	-12.9599
闉	-12.9599
魅罔兩莫能逢之	-12.9599
做	-12.9599
出上谷至龍城	-12.9599
伯兮叔兮同見戮於猶子	-12.9599
萬奉贖皇帝	-12.9599
封臨清縣子	-12.9599
載書横階	-12.9599
亂之主忽焉中興之宗不	-12.9599
秦患西起	-12.9599
而拜者神所立也	-12.96
磥	-12.96
人門下多去事	-12.96
安字安石	-12.96
將命至鄴酬祖	-12.96
盤石城虎踞	-12.96
臨淄師尚父所封	-12.96
同符合契	-12.96
哭市聞妖獸	-12.96
未見其可也	-12.96
澷	-12.96
竹馬來迎	-12.96
義殿翔鵾	-12.96
荚	-12.96
蒼鷹赤雀	-12.96
魯之侵地	-12.96
僚勸進即位	-12.96
惡相求如市賈焉	-12.96
陽城而避險臥砥柱而求安	-12.96
佔	-12.96
越徒勞不眠	-12.96
秦時望氣者曰東	-12.96
起横江之困獸	-12.96
羣臣以錢一億	-12.96
軍一去大樹飄零	-12.9601
煥為豐城令	-12.9601
同顔大夫初	-12.9601
襻	-12.9601
燒薙杏花初	-12.9601
後漢書方術傳曰	-12.9601
益都耆舊傳曰	-12.9601
春朝迎雨去	-12.9601
發曰龍門之桐	-12.9601
秦氏桂樹間	-12.9601
刎繡頸碎錦臆	-12.9601
平秩東作	-12.9601
樂六變則天神	-12.9601
箾	-12.9601
菱荷菱水物	-12.9601
齊秦竟何託	-12.9601
執榖璧男執蒲璧	-12.9601
大驪馬及繡被衣物賜之	-12.9601
天元皇帝所居稱天	-12.9601
守宫槐葉晝聶	-12.9601
抆	-12.9601
漢竇嬰傳	-12.9601
狗吠深巷中雞鳴桑樹巔	-12.9601
王尋王邑圍昆陽驅	-12.9601
珠角山庭	-12.9601
立武為趙氏後	-12.9601
築甬道	-12.9601
翻馳羽檄	-12.9601
酬劉柴桑	-12.9601
鐵馬千羣	-12.9601
陳將呉明徹	-12.9601
黄庭内經曰	-12.9601
也好吹笙作鳳鳴逰伊洛間	-12.9601
君子念殷墟	-12.9601
嶧陽孤桐	-12.9601
應劭曰故伯夷國	-12.9601
方州部家	-12.9601
書乃太公兵法也	-12.9601
漢簡吹灰	-12.9601
甀	-12.9601
眉髟髟	-12.9601
簳	-12.9601
見櫟社樹	-12.9601
鄜音敷	-12.9601
飵	-12.9601
首曰朕復子明辟	-12.9601
靈鼗空桑	-12.9601
麥秀漸漸	-12.9601
倬	-12.9601
廿	-12.9601
开	-12.9601
刁	-12.9601
篚	-12.9602
就蒲州使君乞酒	-12.9602
為散騎常侍迎梁	-12.9602
甚髙魏朝聞而重之接對	-12.9602
罥	-12.9602
孝文竇皇后	-12.9602
波羅柰國	-12.9602
茅慮無中權後勁	-12.9602
詔憲與柱國李	-12.9602
垌	-12.9602
秬鬯彤弓	-12.9602
輼	-12.9602
風泉虛韻	-12.9602
新野有生祠之廟	-12.9602
跨横塘於江	-12.9602
養庶老於	-12.9602
信生世等於龍門辭親	-12.9602
此皆為身不顧後慮	-12.9602
殺傷者衆	-12.9602
約法三章耳	-12.9602
陳船欲渡臨晉而	-12.9602
虎賁王吉射之中而祝	-12.9602
一丸藥光耀有五色服	-12.9603
禨	-12.9603
滳	-12.9603
疥	-12.9603
民亦惟曰怨咨	-12.9603
喢	-12.9603
曰銅虎符第一	-12.9603
淚沾裳	-12.9603
鄭武公莊公為平王卿士	-12.9603
名起於此也	-12.9603
其口而銘其背	-12.9603
有澄清天下之志	-12.9603
洚雨下淄水	-12.9603
箊	-12.9603
署皆盡羽儀	-12.9603
虢鄶終無寄	-12.9603
馳四乗之傳至蜀	-12.9603
以動天地感鬼神	-12.9603
莊子有秋水篇	-12.9603
下平曰隰	-12.9603
埶	-12.9603
愀	-12.9603
攻城之急也	-12.9603
方春少陽用事	-12.9603
明兩作離	-12.9603
臺街使御	-12.9603
首共四百	-12.9603
鸞鳥王甚愛之三年不鳴其夫人曰嘗	-12.9603
和劉柴桑	-12.9603
啓某啓奉教垂賚	-12.9603
形而舞不知	-12.9603
徼詰問具服罪	-12.9603
燕南趙北	-12.9603
甬	-12.9603
登燕然山刻石	-12.9603
磷	-12.9603
禮儀志曰後周	-12.9603
自陜以西召公主之	-12.9603
西河建隼	-12.9603
解所統武進令臣	-12.9603
邑之於秦今隴	-12.9603
魏武上雜物疏	-12.9603
以上卿之禮饗管仲	-12.9603
何世無竒	-12.9603
其筆端惜哉亡是可也并粗	-12.9603
凝煙露之潤	-12.9603
垂帷裳以自掩塞乎	-12.9603
定其傳編之于録	-12.9603
扈氏農正	-12.9603
揚雄所謂勸百而諷一者卒無諷	-12.9603
求柱史此亦有助於風教	-12.9603
洛誥曰我乃卜	-12.9603
王子喬周靈王太子晉	-12.9603
秦庭之哭	-12.9603
范泰鸞鳥詩序	-12.9603
賈逵入講尚書南宫雲臺	-12.9603
酅	-12.9603
雖山出筠	-12.9603
太姒之子	-12.9603
以愛子而託	-12.9603
戎車屯於石城	-12.9603
遂師言而泄	-12.9603
魚腸尺素	-12.9603
腹為燈飲頭為器	-12.9603
刧	-12.9604
千乗雷動萬騎	-12.9604
塞井夷竈陳於軍中而疏行首	-12.9604
樅	-12.9604
經緯天地曰文	-12.9604
厥田上上	-12.9604
取頭上葛巾漉酒	-12.9604
所樂非窮通	-12.9604
桐棺三寸	-12.9604
為恥不以無財為病自非大賢篤志與道	-12.9604
社稷五祀五嶽	-12.9604
開國公絹布五萬疋	-12.9604
麥積崖佛	-12.9604
盡山谷廣大不可空	-12.9604
賀平鄴都表	-12.9604
周感生之帝	-12.9604
暘	-12.9604
引渭水灌都	-12.9605
衆於宜陽築崇	-12.9605
四門四門穆穆	-12.9605
王延夀魯靈光殿	-12.9605
萠	-12.9605
似遇昌葅	-12.9605
曰河精上為天漢	-12.9605
澥	-12.9605
也木皮三寸	-12.9605
左傳富辰曰	-12.9605
陸士龍文集巻第	-12.9605
如此人何以堪	-12.9605
河陽一縣花	-12.9605
王使執燧象以奔	-12.9605
衍字夷甫	-12.9605
事母以孝聞	-12.9605
問東方朔朔曰	-12.9605
忭	-12.9605
劑	-12.9605
尚書論語於金華殿中	-12.9605
殚	-12.9605
紩	-12.9605
隠若敵國	-12.9605
十日一炊	-12.9605
吏人攀慕	-12.9605
少微真人天山	-12.9605
帝愴然改容曰卿	-12.9605
府皆天子私藏也	-12.9605
朱華未希	-12.9605
朱鷺曲是也	-12.9605
無悶無不悶	-12.9605
燒所貢香一枚以辟疫氣	-12.9605
种	-12.9605
美目以流眄	-12.9605
表薦之餉麥百斛	-12.9605
贗	-12.9605
邑二千戸	-12.9605
七綵芙蓉之羽	-12.9605
去病封冠軍侯	-12.9605
惛	-12.9605
攄祖宗之宿憤	-12.9605
柴烈李夫人	-12.9605
樂人習之所謂巴渝舞也	-12.9605
注慧日喻明	-12.9605
漢酈食其傳	-12.9605
漫漫疑行海	-12.9605
潁隂侯屏居	-12.9605
澤汪濊	-12.9605
獷	-12.9605
短筍猶埋竹香	-12.9605
祀夏配天不失舊物	-12.9605
程鄉既開	-12.9605
笛悽余思舊篇	-12.9605
簸	-12.9605
臷民之國爰有歌舞之鳥鸞鳥自歌	-12.9605
詔王馭羣臣	-12.9605
進杯中物	-12.9605
邵惠公顥之少	-12.9605
陽潛曜翳英華	-12.9605
鴻毛不能勝也	-12.9605
麖	-12.9605
􁅨	-12.9605
􁈿	-12.9605
維桑與梓	-12.9605
上益州上柱國趙王二首	-12.9605
五雉為五	-12.9605
人知西陵而誰望	-12.9605
漢蔡邕傳邕	-12.9605
謎	-12.9605
離石有將兵都尉	-12.9605
向秀思舊賦序	-12.9605
大饗亦皆祭之其祭玉用	-12.9605
奉和平鄴應詔	-12.9605
帝居其一也立	-12.9605
近取諸身	-12.9605
江而建國始播遷於吾祖	-12.9605
青莖赤羽	-12.9605
厯試諸難	-12.9606
蜀青城山	-12.9606
雪髙三尺厚	-12.9606
一月三㨗	-12.9606
司馬相如子虛賦	-12.9606
周之受命興乎此祥	-12.9606
奉和濬池初成清晨臨	-12.9606
對宴齊使	-12.9606
滋長逋逸	-12.9606
獻文宣皇太后	-12.9606
王忳除郿令	-12.9606
窠	-12.9606
繫帛書言武等在某澤	-12.9606
臣聞良宰謀朝不必借	-12.9606
趙岐孟子注	-12.9606
奉詔向甘州迎皇后	-12.9606
滓	-12.9606
虯	-12.9606
右衛將軍封武康縣侯加散騎侍郎	-12.9607
文炳也君子豹	-12.9607
沲	-12.9607
朝野僉載	-12.9607
以某年月日	-12.9607
仲雍哀辭	-12.9607
臛	-12.9607
複道焚香	-12.9607
女窺牕而下	-12.9607
揚雄字子雲蜀郡成都人	-12.9607
宗祀文王於明堂以配上帝	-12.9607
趋	-12.9607
􁃵	-12.9607
天方薦瘥	-12.9607
抒	-12.9607
長榆塞名王恢所謂樹榆以為塞	-12.9607
九月中於西田穫早稻	-12.9607
五色石以補天斷鼇足以	-12.9607
亭有離别之賦	-12.9607
咮	-12.9607
尚書為中臺	-12.9607
就荒松菊猶存	-12.9607
戚非平戎之戰	-12.9607
所出因以名云在	-12.9607
持節中分麾下精兵二萬人遣西	-12.9607
有待何可待	-12.9607
樹端謂之桑榆	-12.9607
清思詩五首	-12.9607
温温以送女女	-12.9607
牽羊抱馬	-12.9607
稽落山破	-12.9607
立四極聚蘆	-12.9607
節八音而行八風	-12.9607
籞	-12.9607
西昭景薄榆桑	-12.9607
貞物知終始	-12.9607
遇主甚酷元帝	-12.9607
電火驅霜	-12.9607
顔喪改華容	-12.9607
馬隊非講肆校書亦已勤	-12.9607
鶴列於麗譙之間	-12.9607
王克開臺城門引	-12.9607
始則地名全節	-12.9607
守桃林之塞	-12.9607
晉侯使詹嘉	-12.9607
詩率土之濱	-12.9607
官守無奔問之人	-12.9607
賞其虎豹之皮	-12.9607
晹	-12.9608
頋	-12.9608
蕭拜相國齊公十郡九錫章	-12.9608
一正一隅各間一句	-12.9608
中生塵范史雲	-12.9608
二首合原讀九十六首總	-12.9608
仍屬亂離	-12.9608
函谷風塵散	-12.9608
厥包橘柚	-12.9608
王屮頭陀寺碑	-12.9608
盧侍郎感交	-12.9608
舶	-12.9608
還用我雲門	-12.9608
陵尉醉呵止廣廣騎曰故李將軍尉	-12.9608
陽氛霧晞	-12.9608
魏平齊栁泉蓼塢三	-12.9608
余乃竄身荒谷	-12.9608
招携以禮懐逺以徳	-12.9608
車側郭門筋	-12.9608
開士林之學	-12.9608
北華為鄜州	-12.9608
漢百官公卿表	-12.9608
王歙為和親之侯班超	-12.9608
賀婁公碑文	-12.9608
帝奏雲門舞主	-12.9608
晉鄭靡依魯衛不睦	-12.9608
谷量牛馬	-12.9608
公時人善吹簫穆公有女號	-12.9608
和闡𢎞二教應詔	-12.9608
劓	-12.9608
載馳載驅	-12.9609
忘情遂食薇	-12.9609
降年不永	-12.9609
九棘龎眉	-12.9609
余馬首欲東乃歸	-12.9609
慇	-12.9609
於魚復平沙上累石為八行相去二丈	-12.9609
琴操曰商陵牧子娶妻五年	-12.9609
蛇盤綬笥	-12.9609
忱	-12.9609
慎終如始	-12.9609
曰秦將白起	-12.9609
深敬於𤣥	-12.9609
秪	-12.9609
而不反謂之大成	-12.9609
門有萬里客	-12.9609
𫝊	-12.9609
三河徙植	-12.9609
反斾南轅	-12.9609
圉人浴馬有	-12.9609
在祀與戎	-12.9609
大者傷小者	-12.9609
宋故安成王右常侍劉喬墓誌文	-12.9609
巴西閬中人也先主	-12.9609
幙	-12.9609
年曰幼學	-12.9609
從内讀出	-12.9609
惸	-12.9609
攻狀若鬼神鼓角	-12.9609
族夷興馬	-12.9609
東據遼河	-12.9609
桐生空井	-12.9609
漁雷澤	-12.9609
濉	-12.9609
災起時至	-12.9609
生河州四面	-12.9609
秤	-12.9609
筈	-12.9609
籝	-12.9609
羂	-12.9609
腒	-12.9609
誅茅宋玉之宅穿徑臨江之府	-12.9609
購得肩吾欲殺之	-12.9609
迦留陀夷	-12.9609
述孔業祖謝響然臻	-12.9609
高誘曰三危西極山名	-12.9609
齒未知禮則見客	-12.9609
書之曰龎涓死於此	-12.9609
侯景悉兵西上	-12.9609
嫁為厮養	-12.9609
才子併命俱非百年	-12.9609
抗表致仕	-12.9609
鵃	-12.9609
悠逺山川間之	-12.9609
出入則令奏	-12.9609
於南郊雩祭	-12.9609
有長星自西南流	-12.9609
隨母出入主	-12.9609
廟宫室盡為禾	-12.9609
圓花釘鼓牀	-12.961
堕	-12.961
嵋	-12.961
繫風捕影	-12.961
華州西魏改曰同州	-12.961
躅	-12.961
一騎出從人	-12.961
公卿大夫故人邑子設祖道供帳	-12.961
南鄭之滋林	-12.961
崩於鉅鹿之沙	-12.961
書去之已逺上蔡逐獵知之何晚	-12.961
野曠風急	-12.961
升輿芒刺	-12.961
刻是日長至也	-12.961
提挈老幼闗河累	-12.961
棨	-12.961
咸池曰天五潢	-12.961
填之以土皆終命	-12.961
天下無道戎馬生	-12.961
帝靈威仰之神	-12.961
營營市井人	-12.961
記東南有香	-12.961
陵生系系生	-12.961
兩國之兵必至	-12.961
嶰	-12.961
鬼火亂於平林殤魂遊於新市	-12.961
綯	-12.961
屮	-12.961
庚申白虹貫日三	-12.961
以竹箭五枚長	-12.961
周隴右總管長史	-12.961
櫟社樹觀者如市	-12.961
斬首六萬	-12.961
方各獻名	-12.961
其里為戚里	-12.961
姻戚者則	-12.961
命御者褰	-12.961
於諸侯車服不繫其夫	-12.961
中懸金箔	-12.961
之上有仙人掌承露和玉屑飲之	-12.961
以南復為蕭勃所據文軌	-12.961
妤	-12.961
捶	-12.961
泣子留恨	-12.961
為鎮南將軍都督荆州諸軍	-12.961
焰	-12.961
舍逆旅吹笛	-12.961
郝	-12.961
䑛	-12.961
刀刺山飛泉湧出	-12.961
嗽	-12.961
干戚而舞	-12.961
從征虜始安王道中	-12.961
感㑹風雲奮其智勇	-12.961
洛陽城東路桃李生	-12.961
碻	-12.961
竟陵王子良	-12.961
腸題凑各一具	-12.961
蕭相國拜齊王表	-12.961
豫之避秦共毛公	-12.961
身死之日家無餘財	-12.961
陸東海譙山集	-12.961
魏正光末六鎮擾亂	-12.961
鷦鷯賦云	-12.961
齊王讓禪表	-12.961
俳	-12.961
公進玉律秤尺	-12.961
兵書七巻河水浮	-12.961
兵法百樓不攻	-12.961
列仙傳曰蕭史者秦	-12.961
千鐵圍繞訖名	-12.961
古意報袁功曹	-12.961
域傳曰河有兩源一出蔥嶺	-12.961
妺	-12.961
惟在閒情一賦	-12.961
採菊東籬下悠然見南山	-12.961
於詩為唐國	-12.961
桂陽下湟水	-12.961
溆	-12.961
無逺弗届	-12.961
燧夜則舉烽	-12.961
玉鏡用其噬	-12.961
矯翼厲翮	-12.961
竹管中藥與服	-12.961
聚窟洲	-12.961
臺之偃蹇兮	-12.961
艸	-12.961
苣	-12.961
諸侯聞之以為將軍從天而下也	-12.961
辭麗作比	-12.961
逸日休作偽心勞日拙	-12.961
領戸千室	-12.961
齊遣王琳拒	-12.961
胄落魚門兵填馬窟	-12.9611
膳亦被裁抑	-12.9611
弋林釣渚之館	-12.9611
遭夏臺之禍	-12.9611
黄龍負圖出於壇畔	-12.9611
輕九鼎而欲問	-12.9611
始出尚書省	-12.9611
初生得寒則鳴	-12.9611
榮華名義重虚薄報恩難	-12.9611
百一十六首	-12.9611
令聞令望	-12.9611
以洽百禮	-12.9611
先薦寢廟	-12.9611
寒歲識凋松	-12.9611
左記室詠史	-12.9611
河楚竟不能曜丹	-12.9611
荅龐參軍	-12.9611
軍府見鍾儀	-12.9611
門衢令容髙車號	-12.9611
非有意於輪軒	-12.9611
丹法和殷長史	-12.9611
前茅慮無	-12.9611
劉太尉傷亂	-12.9611
南鄭之神麟	-12.9611
嘉五年劉聰使呼延	-12.9611
奸因之神麟	-12.9611
奸因女嬖至	-12.9611
左傳隨武子曰	-12.9611
微至嬖女因奸臣	-12.9611
歎懐所離經	-12.9611
火浣布	-12.9611
無君房幃清	-12.9611
秋萬歲後	-12.9611
至者皆拜為郎凡七百	-12.9611
詖	-12.9611
遺哀之傷身	-12.9611
非無北闕之兵猶有雲臺之仗	-12.9611
銜圖置帝	-12.9611
青袍如草	-12.9612
玉虎晨鳴	-12.9612
賜田裂東	-12.9612
閟宫惟逺	-12.9612
王延壽魯靈光殿賦	-12.9612
聊城解紛	-12.9612
雖借人之外力實蕭牆	-12.9612
司徒之表裏經綸	-12.9612
兩觀當㦸	-12.9612
變魏作周	-12.9612
茱	-12.9612
梵唱皆植依擬所造	-12.9612
鶴唳豈可復聞	-12.9612
流磻平臯	-12.9612
魁下六星	-12.9612
飛鳶跕跕墮	-12.9612
嚻	-12.9612
夷怨南征北狄	-12.9612
左丘明恥之	-12.9612
所同千里而近	-12.9612
胡笳互動牧馬悲	-12.9612
酈食其曰距飛狐之口	-12.9612
黶	-12.9612
五月披裘而負薪豈取金者哉季	-12.9612
先念鴻陸之逺	-12.9612
尺一寸珠庭	-12.9612
後漢張奐傳	-12.9612
死為貴神者也	-12.9612
老矣無能為也	-12.9612
蔣元卿之去兖州還杜陵荆棘塞門	-12.9612
資山東之英	-12.9612
适散冝生	-12.9612
䫻	-12.9612
十年著一冠	-12.9612
四言十二句四首	-12.9612
基自之辜神	-12.9612
婬	-12.9612
山海經曰三危之山	-12.9612
後漢陳蕃傳	-12.9612
忠為令德	-12.9612
成王歸自奄	-12.9612
斈	-12.9612
水之上見大魚殺五牲以醮之天	-12.9612
漾水出隴西	-12.9612
爱	-12.9612
率妻子邑人來此絶境不復出焉	-12.9612
癘	-12.9612
舊聞離天罪辜神	-12.9612
莋	-12.9612
莫不輟鏡徙	-12.9612
藏衣遭難	-12.9612
觀釁而返	-12.9612
壝徑三百歩内壝半之	-12.9613
士人多宅於此	-12.9613
戊辰之年建亥之月大盜移國金	-12.9613
月令仲夏之月	-12.9613
鄭文公有賤妾曰燕姞	-12.9613
建平王太妃周氏行狀	-12.9613
一知懸象法	-12.9613
潘岳射雉賦	-12.9613
疢	-12.9613
繆襲挽歌	-12.9613
蕭驃騎讓油幢表	-12.9613
位總配神尊	-12.9613
何如將情纒憂殷	-12.9613
垂髫並怡然自樂見漁人	-12.9613
正旦上司憲府	-12.9613
母曰叱奴太后	-12.9613
漑	-12.9613
直虹貫壘	-12.9613
袁太尉從駕	-12.9613
踝	-12.9613
辭楚而容裔	-12.9613
非玉闗之可望	-12.9613
輜	-12.9613
飲其琉璃之酒	-12.9613
林之散卒拒驪山之叛徒	-12.9614
徘	-12.9614
露兮下泠泠而	-12.9614
還知奉㑹昌	-12.9614
門曰堯母門	-12.9614
陽氣踵黄泉而出	-12.9614
琴以歌南風	-12.9614
跬	-12.9614
臚	-12.9614
有鴛鴦雌雄各一恒棲樹	-12.9614
熿	-12.9614
銀璫附蟬為文	-12.9614
隋經籍志	-12.9614
帬	-12.9614
本傳不載隋書	-12.9614
上應列宿	-12.9614
詩序曰王姬下嫁	-12.9614
世號徐庾體	-12.9614
子登此以觀	-12.9614
常挾彈出洛陽道婦人遇	-12.9614
曰朝發黄牛暮	-12.9614
還本國為正員郎	-12.9614
乍隂乍	-12.9614
受下卿之禮	-12.9614
吾既行年九十矣是三樂也貧者士	-12.9614
始論函谷之兵	-12.9614
射水傍小鳥	-12.9614
得為男矣是二樂也人生有不見日月不	-12.9614
是一樂也男女之别男尊女卑故以男為	-12.9614
時年十二以民禮	-12.9614
曰卜其宅兆而安	-12.9614
殷因於夏	-12.9614
殷本紀伊尹	-12.9614
焚香複道詎歛遊魂	-12.9614
蕭領軍讓司空并敦勸	-12.9614
西塞望江上諸山	-12.9614
雞犬相聞	-12.9614
齊文宣帝紀天	-12.9614
儀曰刺舉州事	-12.9614
具言所聞皆	-12.9614
惋餘人各復延至其家皆出酒食停	-12.9614
數日辭去此中人語云不足	-12.9614
旌廻外壝	-12.9614
旴	-12.9614
水木交運	-12.9614
燕然山銘	-12.9614
留京師左以與	-12.9614
白紵舞歌詞	-12.9614
瞹	-12.9614
秦亭壓境	-12.9614
篠簜既敷	-12.9614
簜	-12.9614
蠶月得紡績素心正如此開	-12.9614
諳	-12.9614
魴魚赬尾	-12.9614
不為近者熱而逺者	-12.9615
詧為梁王居	-12.9615
皇帝欽明文思	-12.9615
太建九年詔明徹北	-12.9615
思風發於胸臆言泉流於脣	-12.9615
辭令甚為鄴下所稱	-12.9615
迹遁三禪	-12.9615
一戰而舉鄢郢再戰而燒夷陵	-12.9615
帝詔以岐陽	-12.9615
復前行欲窮其林林盡水源便得一山山	-12.9615
敭	-12.9615
澦	-12.9615
膏脣拭	-12.9615
苗生滿阡陌雖有荷	-12.9615
荀悦漢紀	-12.9615
隔問今是何世乃不知有漢無論魏	-12.9615
雜體三十首	-12.9615
支僧載外國	-12.9615
船鸚鵡之洲	-12.9616
遇太公於渭之陽	-12.9616
延燒岸上營落	-12.9616
淮海維揚	-12.9616
滷	-12.9616
漢舊儀曰上林苑方三	-12.9616
何晏景福殿	-12.9616
謾	-12.9616
潚	-12.9616
下文昌之宿	-12.9616
郭義恭廣志	-12.9616
入琵琶峽望積布磯	-12.9616
子犯曰表裏	-12.9616
轉寫之誤也	-12.9616
長楊榭在長	-12.9616
免襁褓者	-12.9616
公仗劒轅門	-12.9616
力加之以忠	-12.9616
周風興自后妃	-12.9616
授明徹都督湘州刺史	-12.9616
採石上菖蒲	-12.9616
於瑶池之上	-12.9616
於羽淵實為夏郊三代	-12.9616
明康萬民撰	-12.9616
曰爾貢包	-12.9616
漢宫闕名長	-12.9616
無義可辨	-12.9616
而知四十九年之非	-12.9616
身而七葉	-12.9616
三時刻漏長	-12.9616
傲東軒下聊復得此生	-12.9616
分司典命	-12.9616
到主簿日事詣右軍建平王	-12.9616
同僚敢不盡	-12.9616
土生金故為金徳金生水故為水徳	-12.9616
夾岸數百歩中無雜樹芳	-12.9616
奏記詣南徐州新安王	-12.9616
師古曰與郡守為	-12.9616
常不完三旬九遇	-12.9616
平九黎之亂	-12.9616
徐孺子年九	-12.9616
效阮公詩十五首	-12.9616
方織畚王曰	-12.9616
於赤水之北	-12.9616
晉安王國常侍王每徙鎮肩吾常隨府	-12.9616
東方朔客難曰以管窺天	-12.9616
泉嶠出諸山之頂	-12.9616
浛	-12.9616
淈	-12.9616
為鎮北將軍	-12.9616
珠而比麗	-12.9616
男女衣著悉如外人	-12.9616
瘢	-12.9616
翩若驚鴻	-12.9616
蕭驃騎發徐州三五	-12.9616
蛙	-12.9616
設壝封人	-12.9616
賜赦交州詔	-12.9616
遂伏劒而死	-12.9616
陳思王贈友	-12.9616
雨歇雲門	-12.9616
琱戈而對霸主	-12.9616
漢王根之宅	-12.9617
遂曰從定乎	-12.9617
禠	-12.9617
傅毅舞賦	-12.9617
南雍為蔡州	-12.9617
多有析置	-12.9617
窮桑屬惟	-12.9617
聞有此人咸來問訊	-12.9617
蕭冠軍進號征虜詔	-12.9617
題詩二百餘首計八百餘	-12.9617
魏應璩集	-12.9617
鵕	-12.9617
鷯	-12.9617
方塘水白	-12.9617
𥅆	-12.9617
探雀鷇而未飽	-12.9617
言容典禮	-12.9618
過漂渚而寄食	-12.9618
爟者烽火之神也	-12.9618
悆	-12.9618
㐲	-12.9618
楚子成章華之臺	-12.9618
不雪雁門之踦	-12.9618
江漢睢漳楚之望也	-12.9618
一作膺風蟬鬢亂映日	-12.9618
以琴心挑之	-12.9618
吿	-12.9618
周庾信撰呉江呉兆宜註	-12.9618
大駕幸乎平樂之	-12.9618
張司空離情	-12.9618
曰天下洶洶將若之何	-12.9618
男一女並得勝衣金陵喪亂	-12.9618
菩薩本行經	-12.9618
蕭驃騎讓太尉増封第三表	-12.9618
郈氏為之金距平子怒	-12.9618
鶴訝今年之雪	-12.9618
㽔賓五月	-12.9618
子期曰善哉	-12.9618
改封安平縣公	-12.9618
築長圍以絶内外	-12.9618
遂崇文而㑹武	-12.9618
兒曰日初出滄滄	-12.9619
律度量衡	-12.9619
無幾物故	-12.9619
七月赴假還江陵	-12.9619
冬盡難離和丘長史	-12.9619
太元中武陵人捕魚	-12.9619
淹字文通濟陽考城人	-12.9619
[...]
