<unk>	0
<s>	0
</s>	0
/	-3.56607
(	-4.00909
)	-4.11436
之	-4.56906
)(	-4.63102
人	-4.91017
為	-5.0799
以	-5.08514
有	-5.33625
在	-5.38012
而	-5.3991
山	-5.40055
其	-5.52636
於	-5.66566
一	-5.67566
縣	-5.70923
也	-5.83137
者	-5.84498
曰	-5.87075
大	-5.88127
中	-5.90719
水	-5.92545
王	-5.92988
不	-5.95865
至	-5.97796
自	-6.03816
子	-6.10104
州	-6.15801
與	-6.16045
三	-6.16668
城	-6.17783
時	-6.19829
上	-6.21416
南	-6.21721
/)	-6.23919
又	-6.24061
河	-6.24315
無	-6.28394
二	-6.29012
石	-6.30661
東	-6.33229
明	-6.33752
則	-6.35666
西	-6.38152
名	-6.38244
行	-6.39226
出	-6.39354
所	-6.40166
道	-6.40767
張	-6.40986
▁	-6.42452
公	-6.42747
入	-6.43414
如	-6.44826
文	-6.46092
氏	-6.49139
李	-6.49392
後	-6.4946
事	-6.49691
下	-6.51853
元	-6.54493
志	-6.54795
今	-6.55125
皆	-6.55659
天	-6.56893
官	-6.57549
五	-6.57753
此	-6.5914
北	-6.59452
知	-6.60457
四	-6.63171
及	-6.63244
地	-6.64777
陳	-6.65128
即	-6.65875
宋	-6.66406
長	-6.6695
民	-6.67029
平	-6.67182
復	-6.67325
建	-6.67785
安	-6.69181
馬	-6.7208
金	-6.72465
江	-6.72491
得	-6.72652
字	-6.75068
門	-6.75624
周	-6.77109
府	-6.7714
亦	-6.77421
故	-6.77643
國	-6.78307
乃	-6.78896
成	-6.78961
兵	-6.79887
劉	-6.80195
生	-6.8038
家	-6.80921
年	-6.83696
書	-6.83844
見	-6.84429
日	-6.84814
令	-6.84977
于	-6.85006
可	-6.85101
作	-6.85229
言	-6.85699
正	-6.85742
通	-6.86366
郡	-6.87086
多	-6.87339
等	-6.90846
黄	-6.91516
唐	-6.91724
髙	-6.93014
歸	-6.93145
方	-6.94186
相	-6.94262
里	-6.94542
前	-6.95459
軍	-6.9567
使	-6.95712
立	-6.95753
清	-6.95767
經	-6.96988
漢	-6.97114
從	-6.97936
矣	-6.981
橋	-6.98845
遂	-6.99076
臣	-6.99397
應	-7.00693
分	-7.00818
龍	-7.00987
置	-7.01438
同	-7.01544
士	-7.01582
初	-7.01864
將	-7.01928
寺	-7.02852
治	-7.03043
來	-7.03461
開	-7.0355
是	-7.0356
六	-7.0364
田	-7.04413
云	-7.05194
居	-7.0533
妻	-7.05455
世	-7.05619
海	-7.05981
古	-7.06102
去	-7.06654
陽	-7.06784
學	-7.06914
本	-7.07051
用	-7.07469
鎮	-7.07629
白	-7.07729
因	-7.08321
口	-7.09653
重	-7.10292
屬	-7.10497
兩	-7.10772
楊	-7.10773
九	-7.10876
然	-7.11133
雲	-7.11828
守	-7.1228
詩	-7.13672
内	-7.13835
間	-7.1392
當	-7.14017
何	-7.14269
若	-7.14822
都	-7.15417
舊	-7.15448
任	-7.15984
小	-7.16165
死	-7.16472
焉	-7.1694
溪	-7.17087
合	-7.17161
諸	-7.17285
修	-7.17977
林	-7.1813
七	-7.18541
賊	-7.19097
新	-7.1948
風	-7.19705
已	-7.19706
俱	-7.19796
夫	-7.19912
武	-7.2011
湖	-7.20744
光	-7.20922
高	-7.21441
興	-7.21442
記	-7.21902
處	-7.22539
廣	-7.23372
流	-7.23544
泉	-7.24814
起	-7.25339
傳	-7.25476
路	-7.26021
八	-7.26409
欲	-7.271
亭	-7.27452
觀	-7.27588
土	-7.28131
趙	-7.29282
外	-7.29386
命	-7.29552
定	-7.29937
非	-7.30169
義	-7.31089
心	-7.31524
臺	-7.32164
晉	-7.32469
徳	-7.32735
善	-7.33171
聞	-7.33177
宗	-7.34252
先	-7.34341
請	-7.34436
孫	-7.34497
進	-7.34592
始	-7.34676
師	-7.34783
未	-7.35048
卒	-7.35651
萬	-7.36273
原	-7.36279
改	-7.36371
思	-7.36377
神	-7.36405
封	-7.3672
鄉	-7.36997
過	-7.37518
知縣	-7.37625
法	-7.38283
集	-7.3846
實	-7.38733
堂	-7.38838
吳	-7.39081
各	-7.39482
嶺	-7.39529
深	-7.39627
徐	-7.40072
和	-7.40164
㑹	-7.40238
司	-7.40358
梁	-7.40372
朝	-7.40564
十	-7.41445
數	-7.42474
必	-7.42669
惟	-7.42849
常	-7.42878
禮	-7.4309
或	-7.43253
塘	-7.44186
能	-7.44766
舉	-7.44876
玉	-7.45229
百	-7.4553
川	-7.45896
村	-7.46082
齊	-7.46633
君	-7.46824
由	-7.47068
盡	-7.47282
遷	-7.4742
月	-7.47445
直	-7.47579
取	-7.4841
稱	-7.489
嘗	-7.49758
營	-7.50552
望	-7.51245
界	-7.51431
木	-7.51452
爾	-7.51569
省	-7.51853
二年	-7.51907
發	-7.52111
朱	-7.52114
侯	-7.52474
樂	-7.53156
既	-7.53266
逺	-7.53371
羅	-7.53424
按	-7.53561
宜	-7.53563
甚	-7.54024
易	-7.54128
我	-7.54211
左	-7.54221
池	-7.54817
議	-7.55096
廟	-7.55106
宫	-7.55564
春	-7.55786
女	-7.55998
乎	-7.5603
爲	-7.56607
沙	-7.57017
帝	-7.57453
進士	-7.57491
節	-7.57906
設	-7.57981
丁	-7.58399
謂	-7.58404
華	-7.5842
圖	-7.59346
陸	-7.59885
錢	-7.60007
章	-7.60178
花	-7.6035
政	-7.60475
三年	-7.61475
德	-7.61599
臨	-7.62067
詔	-7.62302
登	-7.62664
秦	-7.62944
築	-7.63244
右	-7.63434
授	-7.63544
洞	-7.63694
引	-7.6383
永	-7.64009
著	-7.64353
青	-7.64548
且	-7.64617
邑	-7.65273
還	-7.65412
頭	-7.65417
少	-7.65797
許	-7.65865
力	-7.66117
廢	-7.66295
餘	-7.66559
加	-7.66822
尚	-7.67019
伯	-7.6741
聖	-7.6785
雖	-7.68018
景	-7.68066
墓	-7.68322
父	-7.68398
老	-7.68408
並	-7.6869
銀	-7.68938
克	-7.68973
近	-7.69366
共	-7.6973
仁	-7.70569
度	-7.70816
衆	-7.71124
載	-7.71367
化	-7.71391
食	-7.71663
元年	-7.71758
聲	-7.71822
殿	-7.72055
樓	-7.72134
胡	-7.72192
靈	-7.72669
凡	-7.73162
史	-7.73513
夏	-7.73604
賢	-7.74045
工	-7.7426
號	-7.74289
忠	-7.74417
獨	-7.74428
陵	-7.74469
母	-7.75029
濟	-7.75319
利	-7.7555
祠	-7.75787
魏	-7.75901
色	-7.76287
巖	-7.77119
論	-7.7724
益	-7.77322
計	-7.77422
嵗	-7.77599
連	-7.77683
理	-7.77924
草	-7.78197
吾	-7.78376
難	-7.78846
每	-7.78874
奏	-7.79305
以為	-7.79654
雨	-7.80224
問	-7.80229
奉	-7.80443
渠	-7.80491
更	-7.80815
首	-7.81738
信	-7.82016
意	-7.82238
寧	-7.82422
受	-7.82547
崇	-7.83229
勝	-7.8346
井	-7.83577
衛	-7.83651
物	-7.83711
主	-7.83716
身	-7.84127
止	-7.84153
源	-7.84216
祖	-7.84578
除	-7.84798
固	-7.84869
異	-7.85115
僧	-7.85705
絶	-7.85756
真	-7.85771
功	-7.86309
關	-7.8645
呉	-7.86803
拜	-7.86945
布	-7.87047
承	-7.87082
郭	-7.87117
達	-7.87558
院	-7.87613
孝	-7.87668
葉	-7.88524
部	-7.88792
解	-7.88975
賜	-7.8939
昌	-7.89392
隨	-7.89999
澤	-7.90115
樹	-7.90161
不可	-7.90256
闗	-7.90329
谷	-7.90777
鄭	-7.90805
次	-7.90844
不能	-7.9085
嚴	-7.9102
▁(	-7.91089
於此	-7.91254
秋	-7.9127
良	-7.91399
夜	-7.91496
遣	-7.91823
注	-7.92113
四年	-7.92224
東南	-7.92565
吏	-7.92699
沈	-7.93113
親	-7.93187
兼	-7.93667
降	-7.93743
留	-7.93778
浦	-7.93958
縣界	-7.94039
移	-7.9408
千	-7.94188
運	-7.94202
歴	-7.94313
邊	-7.94324
堡	-7.94803
松	-7.94964
代	-7.95319
耳	-7.95467
順	-7.95723
極	-7.95802
延	-7.9593
坐	-7.96005
嘉	-7.96462
備	-7.96785
特	-7.96867
楚	-7.96872
閣	-7.97641
仍	-7.97764
撫	-7.97852
竹	-7.97856
仙	-7.98244
氣	-7.98246
飛	-7.98284
五年	-7.98324
十里	-7.98631
往	-7.98763
遇	-7.98822
率	-7.99207
空	-7.99581
猶	-7.99738
紀	-8.00038
終	-8.00084
謝	-8.00085
太	-8.00236
曹	-8.00391
遊	-8.01033
繼	-8.01356
全	-8.01617
洪	-8.01699
恩	-8.0174
表	-8.02329
溝	-8.02418
米	-8.02461
魚	-8.02608
顧	-8.02616
保	-8.02631
峯	-8.02799
魯	-8.02837
求	-8.0324
轉	-8.03277
康	-8.03326
存	-8.03336
教	-8.03341
蘇	-8.03433
越	-8.03523
蜀	-8.03715
忽	-8.04171
福	-8.04245
香	-8.04256
鹽	-8.04268
悉	-8.0433
程	-8.04958
戰	-8.04995
仲	-8.05251
列	-8.05315
制	-8.0534
宣	-8.0535
敬	-8.05377
慶	-8.05569
盛	-8.05632
西南	-8.06061
尋	-8.06084
渡	-8.06277
向	-8.06365
韓	-8.06813
科	-8.07
會	-8.07241
服	-8.07487
汝	-8.07563
考	-8.07958
余	-8.07985
船	-8.08044
再	-8.08115
接	-8.0838
秀	-8.08797
昭	-8.08875
領	-8.0888
卿	-8.08949
額	-8.09286
英	-8.09319
市	-8.09584
語	-8.09852
六年	-8.10207
西北	-8.10622
舟	-8.10641
衣	-8.10751
祀	-8.10811
納	-8.10884
賦	-8.1106
致	-8.11112
遺	-8.11242
星	-8.11275
折	-8.11801
業	-8.12116
火	-8.1217
一名	-8.12185
牛	-8.12325
縣志	-8.12996
就	-8.13921
閘	-8.14039
斯	-8.14066
厯	-8.14147
境	-8.14386
歲	-8.14458
東北	-8.14471
疏	-8.14693
港	-8.14757
夷	-8.15064
寨	-8.15092
〕	-8.15127
别	-8.15406
徙	-8.15426
客	-8.15435
據	-8.15449
務	-8.1546
交	-8.15462
足	-8.1566
塞	-8.15683
堰	-8.15943
給	-8.16209
孟	-8.1627
好	-8.16421
野	-8.16501
積	-8.16577
半	-8.16634
視	-8.16704
美	-8.1739
破	-8.175
貴	-8.18195
補	-8.18225
誠	-8.18262
屯	-8.18297
具	-8.18679
微	-8.18704
户	-8.18757
威	-8.18927
泰	-8.19098
莫	-8.1914
果	-8.19219
碑	-8.19287
莊	-8.19328
烏	-8.19347
縣西	-8.19627
横	-8.19808
阿	-8.19957
隄	-8.20095
縣東	-8.20176
并	-8.20286
落	-8.2045
目	-8.20669
榮	-8.20826
哉	-8.20917
獻	-8.214
姑	-8.2176
隆	-8.21935
監	-8.21961
杜	-8.21986
涇	-8.22146
性	-8.22171
手	-8.22209
車	-8.2239
失	-8.22701
造	-8.22882
殺	-8.23047
才	-8.23242
簡	-8.2325
京	-8.23398
被	-8.23502
竒	-8.23523
照	-8.23569
兮	-8.23604
旌	-8.23854
恭	-8.24232
升	-8.24557
室	-8.24584
署	-8.24904
太守	-8.25101
山東	-8.25104
商	-8.25235
管	-8.25586
昔	-8.25634
容	-8.25681
儀	-8.25819
虎	-8.26497
倉	-8.26625
養	-8.26627
酒	-8.26695
曲	-8.26836
天下	-8.26871
寳	-8.27009
衞	-8.27026
蓋	-8.27031
園	-8.27468
卷	-8.27585
七年	-8.27815
對	-8.28032
端	-8.28471
要	-8.28847
俗	-8.28949
職	-8.29444
報	-8.29587
峰	-8.29608
題	-8.29676
支	-8.29703
素	-8.29771
驛	-8.29774
博	-8.2994
施	-8.29997
顯	-8.30203
附	-8.30417
紅	-8.30593
精	-8.30737
比	-8.30738
宿	-8.30784
豐	-8.30971
頃	-8.3106
收	-8.31092
江南	-8.31148
河南	-8.31173
予	-8.31174
縣南	-8.31447
便	-8.31481
厚	-8.31522
攻	-8.32049
糧	-8.32094
陂	-8.32262
録	-8.32395
蕭	-8.32489
畝	-8.32806
)〔	-8.32866
役	-8.3293
甲	-8.33162
弟	-8.33201
隂	-8.33248
惠	-8.33365
贈	-8.33793
州刺史	-8.33797
指	-8.33901
御史	-8.33924
勢	-8.33924
亂	-8.33929
資	-8.34307
貢	-8.34486
淮	-8.34493
郎	-8.34749
崖	-8.34839
吉	-8.3502
御	-8.35076
似	-8.35239
謂之	-8.35362
調	-8.3547
皇	-8.35531
尤	-8.35738
選	-8.35838
到	-8.3584
擢	-8.35893
伏	-8.35983
寒	-8.36022
環	-8.36111
送	-8.36792
廷	-8.36964
典	-8.36971
病	-8.37042
撰	-8.37071
期	-8.37282
謀	-8.37426
塔	-8.3771
召	-8.37754
累	-8.37828
盤	-8.37919
位	-8.37979
勒	-8.38003
豈	-8.38071
均	-8.38101
増	-8.38395
喜	-8.38447
詳	-8.3857
伍	-8.38719
約	-8.38763
康熙	-8.39001
藏	-8.39036
丹	-8.39231
嘉靖	-8.39292
畫	-8.39307
久	-8.39335
巴	-8.39602
動	-8.39728
燕	-8.39856
獲	-8.39903
重修	-8.40024
步	-8.40031
知府	-8.40295
滿	-8.40465
房	-8.40669
持	-8.40693
象	-8.40749
潭	-8.40821
罷	-8.40916
闕	-8.41037
咸	-8.41093
面	-8.41183
又有	-8.41237
圍	-8.41294
但	-8.41298
佛	-8.41338
寛	-8.41728
亡	-8.41798
孤	-8.41868
苦	-8.41974
孔	-8.42039
雙	-8.42082
富	-8.4229
坊	-8.42463
決	-8.42523
五里	-8.4254
末	-8.42688
八年	-8.42723
適	-8.42724
籍	-8.42877
將軍	-8.42879
蔡	-8.42903
費	-8.42907
兒	-8.43056
總	-8.43075
權	-8.43093
盧	-8.43388
之所	-8.43399
夢	-8.43503
浙江	-8.43504
散	-8.43516
疾	-8.43558
疑	-8.43631
督	-8.43668
辭	-8.43806
羣	-8.43852
姚	-8.44105
變	-8.4413
音	-8.44188
賈	-8.44194
庫	-8.44465
浮	-8.44674
種	-8.4472
岡	-8.45054
維	-8.45418
告	-8.45487
最	-8.45493
縣北	-8.45658
儒	-8.4591
懐	-8.4615
州人	-8.46256
先生	-8.4665
幸	-8.46719
鼎	-8.46754
熙	-8.47036
免	-8.47138
徵	-8.47192
茂	-8.47401
赤	-8.47402
温	-8.4743
嗣	-8.47658
雅	-8.47666
第	-8.47697
范	-8.4821
乾	-8.4825
縣人	-8.48292
瑞	-8.48347
刻	-8.48368
斷	-8.48403
一員	-8.48558
勞	-8.48618
紫	-8.48621
歌	-8.48626
急	-8.48685
鳴	-8.48711
以上	-8.48824
雄	-8.48909
蘭	-8.48942
條	-8.49165
防	-8.49229
呼	-8.49233
征	-8.49482
芳	-8.49877
陞	-8.50141
塵	-8.50171
垂	-8.50258
迎	-8.50349
畢	-8.50532
庭	-8.50715
雍	-8.50851
堤	-8.50901
甫	-8.5113
舍	-8.51237
依	-8.51305
錫	-8.51408
裁	-8.51472
董	-8.51592
不得	-8.51627
山西	-8.5168
結	-8.51715
斗	-8.51715
祥	-8.51801
聚	-8.5185
執	-8.51981
二十	-8.52139
勤	-8.5216
稍	-8.52212
險	-8.52327
負	-8.52391
情	-8.52471
齋	-8.527
彭	-8.5299
宅	-8.52991
鳳	-8.53032
珠	-8.53071
雪	-8.53104
馮	-8.53116
肆	-8.53328
懷	-8.53507
荒	-8.5364
絲	-8.53654
吕	-8.53758
虞	-8.53881
説	-8.5405
春秋	-8.54211
反	-8.543
於是	-8.54362
江西	-8.54715
充	-8.54828
貞	-8.55166
允	-8.55247
仕	-8.55279
壩	-8.55419
葢	-8.55482
十年	-8.55566
畧	-8.55675
願	-8.55724
罪	-8.55851
游	-8.55879
追	-8.56081
潮	-8.56137
憲	-8.5616
叔	-8.56228
梅	-8.56229
薦	-8.56295
姓	-8.56482
愛	-8.56719
壁	-8.56917
産	-8.57009
擊	-8.57151
振	-8.57221
桂	-8.57271
案	-8.57291
陜西	-8.5744
津	-8.57496
寜	-8.57563
敗	-8.57588
雜	-8.57602
波	-8.57708
申	-8.57727
曾	-8.57728
屢	-8.57987
編	-8.58002
寕	-8.58096
試	-8.58594
息	-8.58665
寶	-8.58882
堅	-8.58974
故名	-8.59169
漸	-8.59177
雷	-8.59391
器	-8.59405
駐	-8.59423
禁	-8.59552
帶	-8.59554
盖	-8.59663
習	-8.59735
鐵	-8.59927
屋	-8.59931
汪	-8.59953
丘	-8.60017
曽	-8.60032
回	-8.60055
恐	-8.6016
徒	-8.60209
幾	-8.60261
徑	-8.60289
尹	-8.60489
所謂	-8.60541
濬	-8.60613
察	-8.60706
統	-8.6091
邦	-8.60913
九年	-8.61086
差	-8.61293
徴	-8.61318
體	-8.61425
彼	-8.61472
走	-8.61752
靖	-8.61777
序	-8.6187
萬厯	-8.61882
幽	-8.61912
訓	-8.62162
基	-8.62285
乞	-8.62306
館	-8.62551
夀	-8.63208
敵	-8.6326
澗	-8.63361
謹	-8.63797
岸	-8.63845
鳯	-8.63859
之地	-8.63888
希	-8.63894
左右	-8.63977
推	-8.63993
敏	-8.64132
鍾	-8.6434
衡	-8.64572
休	-8.64587
退	-8.64624
祭	-8.64688
他	-8.64778
陶	-8.64789
袁	-8.64818
洛	-8.64954
委	-8.64982
輕	-8.65029
尚書	-8.6508
戴	-8.65311
重建	-8.65358
窮	-8.65365
抵	-8.65599
洲	-8.65791
湯	-8.65839
相傳	-8.65955
震	-8.66023
隋	-8.66079
犯	-8.66396
本朝	-8.6665
釐	-8.66749
形	-8.66909
感	-8.67192
同知	-8.6721
毛	-8.67271
冠	-8.67302
寇	-8.67409
婦	-8.67564
漕	-8.67564
遠	-8.67678
私	-8.67904
上有	-8.67947
肅	-8.68047
投	-8.68203
甘	-8.68251
旁	-8.68262
襲	-8.68283
放	-8.6831
友	-8.68524
隠	-8.68583
通判	-8.68709
烈	-8.6888
類	-8.68939
愈	-8.69036
将	-8.69088
源出	-8.69126
智	-8.69231
妻王氏	-8.69454
增	-8.69542
遼	-8.6959
三十	-8.69638
十五里	-8.69747
覆	-8.69951
䝉	-8.70079
尊	-8.70661
翁	-8.70705
禹	-8.70741
粟	-8.71083
員	-8.7109
潘	-8.71111
奔	-8.71237
蠻	-8.71268
巨	-8.71312
兹	-8.7133
佐	-8.71581
黎	-8.71682
隱	-8.71732
識	-8.71936
貫	-8.71985
宏	-8.72065
伐	-8.72072
虚	-8.72196
薛	-8.72198
其地	-8.72372
逆	-8.72403
查	-8.72414
旗	-8.72548
揚	-8.72591
碧	-8.72748
錦	-8.72799
邱	-8.72921
仰	-8.73019
强	-8.73145
蒲	-8.73342
賞	-8.73342
羊	-8.7348
索	-8.73768
淵	-8.7377
翠	-8.73868
筆	-8.73923
講	-8.73923
穆	-8.7424
族	-8.74382
騎	-8.74387
顔	-8.74637
俊	-8.74729
茶	-8.74933
副使	-8.7501
藥	-8.75026
赴	-8.75138
縣治	-8.75175
東西	-8.75249
底	-8.75504
翼	-8.75544
太平	-8.75664
勸	-8.75755
三十里	-8.75875
乗	-8.75885
門外	-8.75891
𨽻	-8.75997
不敢	-8.76002
潛	-8.76005
乾隆	-8.76053
葬	-8.76094
鄧	-8.76235
避	-8.7628
丈	-8.7628
知州	-8.76331
岳	-8.76438
伊	-8.76539
招	-8.76865
䕶	-8.77038
諭	-8.77136
季	-8.77289
創	-8.77514
耶	-8.77554
紹	-8.77662
患	-8.77782
薄	-8.77875
革	-8.77877
而不	-8.77958
𢎞	-8.78135
可以	-8.78259
一百	-8.78279
宇	-8.78368
釋	-8.79176
離	-8.7918
鶴	-8.79184
符	-8.79193
慈	-8.79209
貳	-8.79304
二十里	-8.79306
妻張氏	-8.79424
印	-8.79641
掌	-8.79823
彦	-8.80069
叛	-8.80077
聽	-8.80186
栁	-8.80509
完	-8.8052
長安	-8.807
循	-8.80812
念	-8.80853
五十	-8.80931
銅	-8.80958
歳	-8.81021
鼓	-8.81158
乘	-8.81271
淺	-8.81437
崔	-8.81449
格	-8.81714
河東	-8.81924
例	-8.81943
輔	-8.81951
傅	-8.81986
冦	-8.8203
閒	-8.82136
竟	-8.82285
某	-8.82297
細	-8.82479
巡撫	-8.82531
側	-8.82644
守節	-8.8265
之後	-8.8265
苑	-8.82751
帥	-8.82789
倫	-8.82835
獄	-8.82849
灘	-8.8294
書院	-8.83022
洋	-8.83119
牧	-8.83566
零	-8.83571
弗	-8.83648
湖廣	-8.83969
誰	-8.84129
軒	-8.84215
角	-8.8426
欽	-8.84491
鳥	-8.84511
課	-8.84562
害	-8.84661
冬	-8.84694
黃	-8.84937
待	-8.8507
懸	-8.85311
覺	-8.85511
輒	-8.8565
南北	-8.85909
該	-8.85929
密	-8.86169
根	-8.86334
訪	-8.86356
農	-8.86362
熊	-8.86453
穴	-8.86496
在縣西	-8.86646
二里	-8.86862
辨	-8.86869
三里	-8.87245
玖	-8.87315
像	-8.87417
不知	-8.87478
侍	-8.87489
怒	-8.87616
詞	-8.87771
飲	-8.87855
鑿	-8.87918
救	-8.88152
寄	-8.88205
專	-8.88216
縣西南	-8.88246
十二	-8.88542
露	-8.88568
縣西北	-8.88599
射	-8.88618
縣屬	-8.88625
驚	-8.88633
討	-8.88714
機	-8.88883
在縣東	-8.89109
蕩	-8.89136
缺	-8.8917
讀	-8.89177
材	-8.89276
者也	-8.89305
峽	-8.89318
滅	-8.89353
黄河	-8.89374
危	-8.8952
麟	-8.89626
泥	-8.89728
植	-8.89779
戍	-8.89817
質	-8.90313
一里	-8.90408
菴	-8.90527
耕	-8.90622
朕	-8.90846
社	-8.90877
狀	-8.90892
庶	-8.91099
壽	-8.91209
候	-8.91216
賀	-8.91245
謙	-8.91665
盜	-8.91691
舖	-8.91771
輸	-8.91778
廬	-8.9178
頗	-8.91856
陰	-8.91907
壹	-8.92046
殊	-8.92101
妻李氏	-8.92148
所以	-8.92157
鹿	-8.9244
一日	-8.92579
京師	-8.9265
㫖	-8.92821
普	-8.93042
舊志	-8.93104
中有	-8.93224
戒	-8.93323
趨	-8.9342
縣東北	-8.9345
介	-8.93452
係	-8.93527
七十里	-8.93639
蔣	-8.93759
傷	-8.94055
巡	-8.94061
貧	-8.94092
跡	-8.94131
須	-8.94144
戎	-8.94262
倚	-8.94309
四川	-8.94338
四十里	-8.94373
堯	-8.94563
坡	-8.9458
壇	-8.94604
侵	-8.94782
陽縣	-8.94862
烟	-8.94863
衝	-8.94889
述	-8.95097
四十	-8.9515
棄	-8.95285
瀆	-8.953
減	-8.95349
值	-8.95372
藩	-8.95413
履	-8.95451
縣東南	-8.95525
桑	-8.95697
惡	-8.95785
尉	-8.9579
澄	-8.96
䇿	-8.96226
朝廷	-8.96483
誤	-8.96602
頂	-8.96609
三月	-8.96695
副	-8.9684
逕	-8.96901
来	-8.96955
干	-8.97044
五十里	-8.97075
導	-8.97087
蒼	-8.97382
水經注	-8.97389
靜	-8.97425
故城	-8.97529
歩	-8.97603
改為	-8.9778
早	-8.97788
枝	-8.97801
參	-8.97836
刑	-8.97924
邵	-8.98052
陷	-8.98077
亮	-8.98178
襄	-8.98318
太祖	-8.98344
啟	-8.98449
舉人	-8.98505
鴻	-8.98715
北至	-8.98932
有司	-8.9899
操	-8.99046
純	-8.99128
續	-8.99146
捌	-8.99238
錄	-8.99333
穀	-8.99677
爵	-8.99734
舒	-8.99847
山下	-8.99954
詣	-9.00012
馳	-9.00119
讀書	-9.00161
殷	-9.00203
哀	-9.00242
珍	-9.00495
東至	-9.00547
之間	-9.00573
佳	-9.00597
兄	-9.00932
派	-9.00958
灌	-9.01001
銘	-9.01176
恒	-9.01198
十三年	-9.01199
六十里	-9.01309
抱	-9.01526
二百	-9.01652
丞	-9.01668
十一年	-9.01676
勇	-9.01692
距	-9.01695
夾	-9.01696
切	-9.01795
供	-9.01905
奇	-9.01954
福建	-9.02188
苗	-9.0219
縱	-9.0227
僅	-9.02339
□	-9.0236
榜	-9.02368
援	-9.02471
買	-9.02672
葛	-9.02744
憂	-9.02919
峻	-9.02987
助	-9.03067
是也	-9.03151
曰吾	-9.03194
淳	-9.03284
妙	-9.03291
亷	-9.03311
哈	-9.03453
静	-9.03459
街	-9.03477
採	-9.03653
遵	-9.03694
奪	-9.03755
壯	-9.03798
捕	-9.03891
爭	-9.03898
成化	-9.03943
屈	-9.03978
灣	-9.04055
人進士	-9.04082
紹興	-9.04217
逸	-9.04258
宻	-9.04485
黨	-9.04548
逢	-9.0461
阜	-9.04614
番	-9.04666
熟	-9.04688
占	-9.04778
城南	-9.04836
墩	-9.04838
律	-9.04987
乆	-9.05143
教諭	-9.05351
麻	-9.05405
諸生	-9.0543
國朝	-9.05637
旌表	-9.05679
在縣南	-9.05692
毎	-9.05784
汛	-9.05792
慮	-9.0595
場	-9.06113
南至	-9.06161
謁	-9.06268
敢	-9.06316
尾	-9.06363
示	-9.06424
敦	-9.06431
阻	-9.06505
駕	-9.06573
諫	-9.06701
羽	-9.0672
韋	-9.06737
覽	-9.06874
勲	-9.06888
輿	-9.06938
水出	-9.07051
皮	-9.07188
拔	-9.07325
雲南	-9.07399
旋	-9.07603
地方	-9.07627
胥	-9.07649
慎	-9.07659
屏	-9.07664
輝	-9.07895
柳	-9.07967
七里	-9.08117
太子	-9.08155
秉	-9.08352
圓	-9.08565
之水	-9.08922
喪	-9.08994
饒	-9.0919
生員	-9.09262
第一	-9.09304
住	-9.09373
西至	-9.09411
閩	-9.09526
税	-9.09667
刺	-9.09872
績	-9.10082
併	-9.10131
即此	-9.10222
十二年	-9.10256
潤	-9.10341
渭	-9.10384
童	-9.10406
山在	-9.10407
垣	-9.10442
六月	-9.10559
如此	-9.10569
大夫	-9.1065
無所	-9.10731
麗	-9.10757
骨	-9.10957
溢	-9.11157
綱	-9.11221
湘	-9.11226
昇	-9.11317
鋪	-9.11407
品	-9.11551
俾	-9.11566
有竒	-9.11597
為之	-9.11651
九十里	-9.11968
畏	-9.12298
勿	-9.12315
裕	-9.12372
城東	-9.12443
禄	-9.12444
祝	-9.12447
瞻	-9.12487
扶	-9.12493
司馬	-9.12554
懼	-9.12605
段	-9.12845
舜	-9.12857
豪	-9.12906
㕔	-9.13007
吴	-9.1306
寰宇記	-9.13099
墨	-9.13181
戸	-9.13207
妻陳氏	-9.13346
贊	-9.13362
八十里	-9.13392
八月	-9.13443
柱	-9.13785
逐	-9.14033
直𨽻	-9.14166
曉	-9.14362
卜	-9.14401
說	-9.14414
背	-9.14462
荆	-9.1454
廉	-9.14696
校	-9.14731
篇	-9.14848
三百	-9.14863
黒	-9.15044
彌	-9.15044
幼	-9.15084
妾	-9.15227
刺史	-9.15312
墓在	-9.15325
式	-9.15328
責	-9.15346
麥	-9.1535
繁	-9.15355
勅	-9.15366
略	-9.15404
偏	-9.15549
衍	-9.15641
浪	-9.15671
冊	-9.15749
掠	-9.15837
讓	-9.15842
暴	-9.15961
規	-9.16024
己	-9.16167
協	-9.16248
班	-9.16263
雞	-9.16387
盈	-9.1641
徃	-9.16603
斬	-9.16617
五月	-9.16909
浚	-9.17023
財	-9.17032
逼	-9.1718
隔	-9.17237
幹	-9.17508
笑	-9.17508
康熈	-9.17672
泊	-9.17817
那	-9.17834
影	-9.17852
隴	-9.17882
逹	-9.17912
百里	-9.17957
舊名	-9.17989
撥	-9.18096
朔	-9.18234
看	-9.18303
二十五里	-9.18489
辦	-9.18672
辟	-9.18687
州縣	-9.18805
量	-9.18889
隘	-9.18949
百姓	-9.18993
鑑	-9.19167
匹	-9.19274
郊	-9.19322
俞	-9.19346
浩	-9.19483
傑	-9.19558
辰	-9.19604
漫	-9.19611
嵩	-9.19639
巻	-9.1964
羌	-9.19663
洪武	-9.19745
騰	-9.19794
蒙	-9.19897
城西	-9.19897
父母	-9.19942
厥	-9.19963
假	-9.20017
十五年	-9.20101
旦	-9.20147
旱	-9.20229
巳	-9.20274
而已	-9.20342
○	-9.20381
翰	-9.20421
在縣北	-9.20428
天子	-9.20485
𤣥	-9.20524
没	-9.2054
水利	-9.20562
刀	-9.20775
其中	-9.20816
魁	-9.20949
瓦	-9.21065
至於	-9.21118
層	-9.21263
峪	-9.21288
以來	-9.21288
超	-9.21292
兆	-9.21318
踰	-9.21432
項	-9.21514
穿	-9.21547
迴	-9.21566
擇	-9.21651
偉	-9.21764
毁	-9.21781
其上	-9.21812
縣地	-9.21817
四月	-9.21822
儲	-9.2184
通志	-9.2197
裏	-9.22124
十四年	-9.22318
座	-9.22447
擒	-9.22528
什	-9.22532
府志	-9.22587
含	-9.22664
上下	-9.2292
島	-9.23016
檄	-9.23057
繫	-9.23093
束	-9.23142
訓導	-9.23286
忘	-9.23424
台	-9.23478
入海	-9.23621
訟	-9.23644
御製	-9.23701
太原	-9.23702
七月	-9.23856
嘉定	-9.2402
賓	-9.24153
禪	-9.24154
至今	-9.24219
跨	-9.24249
况	-9.24741
裴	-9.24873
叄	-9.24916
山川	-9.2496
募	-9.25074
采	-9.25091
單	-9.25216
包	-9.25237
術	-9.25298
數十	-9.25466
句	-9.25511
累遷	-9.25716
砦	-9.25729
傍	-9.25742
鄒	-9.25775
千里	-9.2586
永樂	-9.2587
宴	-9.26105
喬	-9.26178
辛	-9.26296
繞	-9.26326
却	-9.26347
誅	-9.26381
凌	-9.2646
策	-9.26528
年任	-9.26667
價	-9.26885
邑人	-9.2695
傾	-9.26972
六十	-9.27003
席	-9.2712
順治	-9.27135
巢	-9.27141
一在	-9.27334
龜	-9.2744
聘	-9.27616
九月	-9.27688
城北	-9.27715
𢎞治	-9.27898
緑	-9.27943
竊	-9.27979
哨	-9.28045
僉事	-9.28076
元和志	-9.28292
舊有	-9.28339
渾	-9.28369
談	-9.28514
毫	-9.28568
慕	-9.28641
提	-9.28681
竇	-9.28786
停	-9.28967
武帝	-9.29085
其後	-9.29177
運河	-9.29391
板	-9.29485
蓮	-9.29679
豫	-9.29703
霜	-9.29862
頌	-9.29902
尺	-9.2998
亦有	-9.29986
味	-9.30035
愚	-9.30147
下有	-9.3015
后	-9.30319
州界	-9.30377
育	-9.30391
明年	-9.30401
稽	-9.30537
二月	-9.30584
榖	-9.30643
瓊	-9.30752
崇禎	-9.30989
宰	-9.31003
級	-9.31108
庸	-9.31117
畆	-9.31126
濶	-9.31176
禦	-9.31191
賴	-9.31227
桃	-9.31312
縣有	-9.31314
廣西	-9.31335
妻劉氏	-9.31438
闢	-9.31442
鏡	-9.31491
因名	-9.31552
城縣	-9.31639
岐	-9.31686
縣學	-9.31729
脩	-9.31745
姜	-9.3175
泣	-9.31808
纎	-9.31851
祚	-9.31879
逃	-9.31895
巷	-9.32031
眼	-9.32131
標	-9.3216
賔	-9.32263
迹	-9.32486
亨	-9.32523
臯	-9.3255
一人	-9.3256
祐	-9.32637
等處	-9.32638
輪	-9.32648
壘	-9.32794
十六年	-9.32861
鐘	-9.32919
錢塘	-9.33003
總督	-9.33086
練	-9.33151
棲	-9.3319
暮	-9.3322
主簿	-9.33524
限	-9.33967
沒	-9.33989
隅	-9.34047
杖	-9.34096
隸	-9.34225
廣東	-9.34637
潰	-9.34692
漁	-9.34942
皇帝	-9.35076
十五	-9.3518
名曰	-9.35225
殘	-9.35241
弼	-9.35285
成都	-9.35302
流入	-9.35383
州府	-9.35513
字子	-9.35527
人舉人	-9.35538
州治	-9.35571
縁	-9.35573
血	-9.35653
奸	-9.35767
悲	-9.35864
㣲	-9.35886
激	-9.35893
堪	-9.35922
復置	-9.35959
剛	-9.35994
在縣	-9.36003
舞	-9.3631
誦	-9.36318
節度使	-9.36358
篤	-9.36366
劍	-9.36693
析	-9.36755
鄰	-9.3677
卧	-9.36843
效	-9.36983
又名	-9.37004
蕃	-9.3737
一百里	-9.37385
唯	-9.37563
祁	-9.37692
從之	-9.37724
徽	-9.3787
十月	-9.37952
塲	-9.37989
桓	-9.38016
困	-9.38069
浙	-9.38123
遣使	-9.38129
懋	-9.38164
啓	-9.38238
一時	-9.3824
漠	-9.38313
郎中	-9.38345
牙	-9.3835
謨	-9.38429
判	-9.38531
拉	-9.38709
㭍	-9.38841
逰	-9.38866
淤	-9.38969
鎭	-9.39015
壑	-9.39092
遜	-9.39214
速	-9.3927
寓	-9.39284
焚	-9.39326
預	-9.39385
冀	-9.39488
餉	-9.39518
審	-9.39558
霍	-9.39564
劾	-9.39583
奮	-9.39629
丞相	-9.39662
倍	-9.39705
弊	-9.39706
不足	-9.39883
邉	-9.39903
晴	-9.39931
詠	-9.39932
學士	-9.39993
三十五里	-9.39998
坑	-9.40047
宋史	-9.40099
揚州	-9.40102
優	-9.40212
悟	-9.40415
災	-9.40588
君子	-9.40716
漢書	-9.40729
大臣	-9.40968
漲	-9.40972
芝	-9.41044
十三	-9.4109
一卷	-9.41093
潔	-9.41475
鬼	-9.41561
稅	-9.41571
卓	-9.41767
守備	-9.41852
其事	-9.4186
肉	-9.41871
曰此	-9.41892
于此	-9.41911
一百二十里	-9.41927
租	-9.41964
柴	-9.41988
樊	-9.42003
累官	-9.42079
夫亡	-9.4208
綿	-9.42264
躬	-9.42347
霞	-9.42373
捐	-9.42525
舎	-9.42863
煙	-9.4287
璧	-9.42942
蛇	-9.42985
峙	-9.43031
嶽	-9.4306
際	-9.4319
都督	-9.43397
惜	-9.43432
罕	-9.43445
謫	-9.43558
不及	-9.43596
欽定四庫全書	-9.43629
郡守	-9.43641
有功	-9.43688
詩云	-9.43761
晚	-9.44028
貨	-9.44101
鮮	-9.44216
歡	-9.44644
未嘗	-9.44682
茅	-9.44704
拒	-9.4472
肇	-9.44753
太湖	-9.44766
譚	-9.44767
韻	-9.4479
遥	-9.44876
藉	-9.4499
泗	-9.45035
人康熙	-9.4509
㑹稽	-9.45152
割	-9.4518
綏	-9.45259
大小	-9.45267
吟	-9.45292
八里	-9.45301
圭	-9.45307
偽	-9.45317
厲	-9.45342
凝	-9.45375
决	-9.45519
借	-9.45522
嘉慶	-9.45525
教授	-9.45607
廵	-9.45866
弱	-9.45985
縣令	-9.46025
五百	-9.46052
又東	-9.46177
矢	-9.46321
禱	-9.46393
蘆	-9.46411
南京	-9.4653
慧	-9.46531
十七年	-9.46705
階	-9.46725
削	-9.46788
二十年	-9.4682
都御史	-9.46834
黑	-9.46906
披	-9.4692
以下	-9.46935
侍郎	-9.46943
耀	-9.47082
而死	-9.47087
絳	-9.47137
而後	-9.47266
配	-9.47288
恵	-9.4745
属	-9.47469
遁	-9.47573
毅	-9.47584
柏	-9.4781
斜	-9.47906
稿	-9.47924
攝	-9.47962
萬歴	-9.47984
突	-9.48073
融	-9.4818
邪	-9.48324
龍泉	-9.48351
殁	-9.48578
驅	-9.48652
棟	-9.48665
亦名	-9.48702
因之	-9.48708
饑	-9.48864
抑	-9.49135
其子	-9.49175
夕	-9.49177
在縣西南	-9.49218
勉	-9.49228
其所	-9.49254
鑄	-9.49299
致仕	-9.49505
八十	-9.49538
唐書	-9.49797
拱	-9.49801
太宗	-9.49847
至元	-9.4996
七十	-9.50047
叁	-9.50229
哲	-9.50232
至此	-9.50336
醉	-9.50384
五代	-9.50444
腹	-9.5048
十八	-9.50614
琴	-9.50745
太和	-9.50767
磨	-9.50806
汴	-9.51012
後魏	-9.51071
陣	-9.51081
孔子	-9.51178
閲	-9.5118
沛	-9.51192
十八年	-9.51233
彰	-9.51307
擾	-9.51341
燈	-9.51377
殺之	-9.51404
擬	-9.51514
敷	-9.51531
脱	-9.51611
寢	-9.51681
之東	-9.51733
風俗	-9.51821
亟	-9.51856
驗	-9.51882
所居	-9.51945
扵	-9.51946
卑	-9.51954
頓	-9.52003
僕	-9.52023
滋	-9.52182
寡	-9.52237
倭	-9.52238
儉	-9.52248
推官	-9.52423
囘	-9.52445
區	-9.52448
枕	-9.52558
沿	-9.52678
尼	-9.52686
哭	-9.52788
飾	-9.52795
乳	-9.5281
孰	-9.52824
炎	-9.52827
原額	-9.52853
涉	-9.52943
緩	-9.52975
杭	-9.52983
賑	-9.53142
大同	-9.53186
曠	-9.53205
鄂	-9.53217
修築	-9.53228
冶	-9.53249
有奇	-9.53311
艱	-9.53347
皆有	-9.53433
店	-9.53579
究	-9.53844
叢	-9.53851
三日	-9.53894
黙	-9.53935
正徳	-9.53994
斤	-9.53998
寵	-9.54237
𦵏	-9.54295
叙	-9.54485
壊	-9.54598
河北	-9.54735
不復	-9.54743
史記	-9.5482
遭	-9.54893
山中	-9.54919
鄉人	-9.5505
弓	-9.55096
洩	-9.55128
賣	-9.55167
托	-9.55433
由是	-9.55501
敎	-9.55543
倒	-9.55548
子孫	-9.55636
河水	-9.55666
水經	-9.55731
截	-9.55739
勘	-9.55788
疆	-9.55788
俟	-9.55827
閉	-9.55885
藝	-9.5592
映	-9.56018
勺	-9.56023
繇	-9.56076
自是	-9.56115
争	-9.56119
𫝊	-9.56137
遲	-9.56205
縣城	-9.56234
之南	-9.56261
偶	-9.56277
秩	-9.56288
官至	-9.56297
麓	-9.56476
先是	-9.56549
響	-9.56603
綸	-9.56671
歐陽	-9.56682
門内	-9.56705
呈	-9.56721
土人	-9.56728
翔	-9.56794
盗	-9.56807
在今	-9.56831
庵	-9.56871
之西	-9.56877
洗	-9.56889
不見	-9.56946
局	-9.56991
奎	-9.57031
虛	-9.57034
朗	-9.57041
而下	-9.57181
整	-9.57184
白雲	-9.57346
往來	-9.57386
其下	-9.57393
靡	-9.57394
低	-9.574
之法	-9.57472
徐州	-9.57593
兄弟	-9.57644
韶	-9.57695
十一	-9.57843
在縣東北	-9.57854
塢	-9.58084
誣	-9.58098
然後	-9.58167
主事	-9.58183
國公	-9.58196
奴	-9.58278
藻	-9.58291
當時	-9.58298
萬里	-9.5832
晏	-9.58393
墜	-9.58484
正統	-9.5849
註	-9.58505
十六	-9.58553
在縣東南	-9.5857
錯	-9.58638
前後	-9.58647
黔	-9.58734
域	-9.58761
齡	-9.58762
正月	-9.58772
奚	-9.58807
平陽	-9.58864
不從	-9.58893
較	-9.58917
髪	-9.58988
鵬	-9.59006
戚	-9.59033
眀	-9.59166
宮	-9.59285
肥	-9.59387
即今	-9.59497
貯	-9.59506
付	-9.59539
醫	-9.59545
石門	-9.59589
勵	-9.59597
焦	-9.59604
沉	-9.5964
虜	-9.59665
貴州	-9.59805
抗	-9.59864
水自	-9.59883
藍	-9.59902
途	-9.59929
未幾	-9.60019
荷	-9.60168
男	-9.60239
聴	-9.60461
㸃	-9.60472
元和	-9.60523
祿	-9.60622
也今	-9.6066
緒	-9.60811
喇	-9.60862
挑	-9.60891
無不	-9.60899
闊	-9.60902
塗	-9.61
洛陽	-9.61039
二員	-9.61139
冷	-9.61194
在縣西北	-9.61445
俸	-9.61474
縣丞	-9.61503
濤	-9.61519
豆	-9.61549
葺	-9.61718
繩	-9.61722
料	-9.61818
坦	-9.61916
人物	-9.6207
午	-9.62086
晦	-9.62124
廬陵	-9.62304
製	-9.62373
柔	-9.62379
渚	-9.62405
指揮	-9.62441
擁	-9.62581
舊作	-9.62591
長沙	-9.62664
偕	-9.62715
耿	-9.62827
准	-9.62839
恃	-9.62855
清河	-9.62969
山水	-9.63107
摩	-9.63129
嫁	-9.63129
漳	-9.6314
逮	-9.63221
懿	-9.63278
輩	-9.63449
恤	-9.63533
四十五里	-9.63572
帛	-9.63616
咨	-9.63656
森	-9.63661
佑	-9.63671
茍	-9.63817
新城	-9.63988
二縣	-9.64003
排	-9.64126
否	-9.64129
故道	-9.64154
毋	-9.64192
活	-9.64213
褒	-9.64475
詢	-9.64547
妻楊氏	-9.64556
國家	-9.64661
十二月	-9.64666
後漢	-9.6467
夫人	-9.64699
氷	-9.64787
蔽	-9.6481
東流	-9.64905
現	-9.64905
薩	-9.65053
娶	-9.65255
記云	-9.6526
吐	-9.65281
障	-9.65412
十一月	-9.65553
怪	-9.65581
之北	-9.65736
有大	-9.65838
展	-9.65861
祈	-9.65866
而去	-9.65975
龍門	-9.65996
損	-9.66015
城中	-9.66046
粤	-9.66053
北直	-9.66105
有二	-9.66179
只	-9.66244
在城東	-9.66277
四方	-9.6629
永安	-9.66293
不為	-9.66298
墳	-9.66326
紙	-9.66377
之處	-9.66401
三千	-9.66481
叅	-9.66551
不過	-9.66662
谿	-9.66768
數百	-9.67029
汲	-9.67066
消	-9.67166
是以	-9.67183
粒	-9.67254
以此	-9.67298
爽	-9.67306
之上	-9.67344
衰	-9.67366
屯田	-9.67414
册	-9.67481
楹	-9.6749
徹	-9.67594
總兵	-9.6763
爰	-9.67709
西安	-9.67752
漏	-9.67825
縣境	-9.67852
明洪武	-9.67873
下流	-9.67893
湧	-9.67898
恨	-9.67995
岱	-9.67995
東北至	-9.68069
怨	-9.68113
城内	-9.68191
有三	-9.68268
貪	-9.68398
慰	-9.68416
陛下	-9.68572
畨	-9.68587
岩	-9.68641
範	-9.68657
聳	-9.6877
百餘	-9.68841
十九年	-9.68957
猛	-9.68965
違	-9.69068
之曰	-9.69238
諡	-9.69329
桐	-9.69389
岑	-9.69403
銷	-9.69697
誓	-9.69742
警	-9.69771
陽人	-9.69855
添	-9.69859
坪	-9.70087
後為	-9.70171
三十年	-9.70196
滇	-9.70238
㡬	-9.70245
開元	-9.70274
銜	-9.70413
郡治	-9.70451
鸞	-9.70465
者為	-9.70484
樞	-9.70558
之意	-9.70573
居民	-9.70649
者皆	-9.70653
今日	-9.70661
雍正	-9.70697
返	-9.70733
王氏	-9.70769
短	-9.70773
安縣	-9.7082
濠	-9.70849
痛	-9.71143
河道	-9.71187
龔	-9.71231
鈔	-9.71273
豫章	-9.71317
省入	-9.7135
享	-9.71444
亦曰	-9.7156
僉	-9.71578
其間	-9.71579
篆	-9.71591
匪	-9.71728
濱	-9.71744
荆州	-9.71763
渺	-9.71826
北流	-9.71851
翰林	-9.71897
志云	-9.7194
燬	-9.72191
姦	-9.7224
毒	-9.7229
齒	-9.72332
炳	-9.72376
乏	-9.7245
西湖	-9.72451
俯	-9.72459
抄	-9.7251
溥	-9.72515
赫	-9.72605
甸	-9.72635
寺在	-9.72722
煥	-9.72812
丹陽	-9.72826
禪師	-9.72878
倡	-9.72956
大江	-9.73095
飭	-9.73175
在城西	-9.73177
南陽	-9.73227
未有	-9.7324
何以	-9.73263
世祖	-9.7328
禹貢	-9.73532
輯	-9.73577
凉	-9.7361
寅	-9.73792
遼東	-9.73903
吹	-9.73989
壤	-9.74045
埽	-9.74055
得其	-9.7406
水勢	-9.74216
俱在	-9.74348
址	-9.74452
廵撫	-9.74489
汾	-9.74578
古今	-9.74678
給事中	-9.74691
之外	-9.74704
公之	-9.74914
簿	-9.75027
酌	-9.75051
輙	-9.75074
旬	-9.75217
之事	-9.75287
百餘里	-9.75382
旅	-9.75652
杭州	-9.75652
獵	-9.75738
山縣	-9.75884
蓄	-9.75938
翟	-9.75967
蘇州	-9.75982
天順	-9.75996
建昌	-9.75997
所著有	-9.76003
疊	-9.76087
禍	-9.76128
三分	-9.76166
二十四	-9.76208
西山	-9.76239
本朝康熙	-9.76311
有石	-9.7632
有所	-9.76366
一帶	-9.76376
十四	-9.76457
匠	-9.76747
五千	-9.76815
五分	-9.76876
熈	-9.76948
潁	-9.77076
恕	-9.77104
南流	-9.77207
之利	-9.77269
榆	-9.77322
四里	-9.77343
譜	-9.77377
南昌	-9.77454
隻	-9.7746
箭	-9.77504
天地	-9.77544
東南至	-9.77659
邢	-9.77731
學校	-9.77761
菜	-9.77816
南山	-9.77842
寂	-9.77844
本傳	-9.78005
裔	-9.78074
閭	-9.78094
汶	-9.78192
等謹按	-9.78262
霸	-9.78296
衢	-9.78305
寸	-9.78439
姪	-9.78481
按察使	-9.78481
庚	-9.7857
藤	-9.78616
柒	-9.78708
愁	-9.78792
圃	-9.788
匿	-9.78807
道士	-9.78835
淮南	-9.78864
復為	-9.78942
訛作	-9.78975
斥	-9.7901
噶	-9.79025
之時	-9.79107
沔	-9.79111
悦	-9.79159
錢糧	-9.79194
霧	-9.79294
牆	-9.79362
蠲	-9.79364
鱗	-9.79388
枯	-9.79392
檀	-9.79414
之名	-9.79462
四百	-9.79479
刃	-9.7948
晝	-9.79572
二百里	-9.79594
控	-9.79844
競	-9.799
御書	-9.79912
籠	-9.79956
郭勒	-9.80004
所在	-9.8008
浸	-9.80125
風雨	-9.80412
卽	-9.80523
誘	-9.8055
沂	-9.80581
民田	-9.8062
構	-9.80627
淨	-9.80632
弟子	-9.80764
龍山	-9.80769
内有	-9.8089
城人	-9.80903
聞之	-9.80989
鐸	-9.81025
湛	-9.81032
時有	-9.81041
郡人	-9.81046
煩	-9.81066
文章	-9.81076
嘉興	-9.81102
改曰	-9.81116
文帝	-9.81125
起至	-9.81135
十餘	-9.81165
以其	-9.81213
在城南	-9.81233
同上	-9.81256
有餘	-9.81289
辱	-9.81394
之道	-9.81491
蓬	-9.81537
屠	-9.81611
灰	-9.81652
窺	-9.81676
儒學	-9.81687
銓	-9.81703
脚	-9.81739
眞	-9.81768
飯	-9.81807
晨	-9.81942
其家	-9.82038
織	-9.82055
岀	-9.82076
酋	-9.82107
霄	-9.82107
槐	-9.82137
攜	-9.82179
新安	-9.82198
萬年	-9.82218
溺	-9.82245
掩	-9.8238
数	-9.82489
𩔖	-9.82494
淡	-9.82523
之子	-9.82662
淑	-9.82712
蹟	-9.82733
武進人	-9.82799
宛	-9.82887
妻周氏	-9.82888
璋	-9.83015
金陵	-9.83146
鑒	-9.83196
皇上	-9.83302
棺	-9.83343
也其	-9.83569
琳	-9.83643
頻	-9.83702
隣	-9.83708
㳺	-9.8381
把	-9.83928
託	-9.83974
憑	-9.83977
士民	-9.84044
知其	-9.84048
妃	-9.84075
襄陽	-9.84079
虹	-9.84151
使者	-9.84159
死之	-9.84192
亦不	-9.84339
汗	-9.84453
殆	-9.84484
出為	-9.84574
壞	-9.84596
天台	-9.84642
牌	-9.84805
山有	-9.84899
家貧	-9.84917
乾道	-9.84992
狹	-9.84994
陜	-9.85023
樵	-9.8503
訛	-9.85031
諸侯	-9.85081
迷	-9.85143
滙	-9.85144
哩	-9.8518
奕	-9.85195
相繼	-9.85202
崩	-9.85205
濁	-9.85211
狼	-9.85212
禾	-9.85221
趣	-9.85229
打	-9.8526
為名	-9.85316
把總	-9.85334
粮	-9.85353
州城	-9.85385
一曰	-9.85424
婁	-9.85455
妻徐氏	-9.85504
永嘉	-9.85517
壺	-9.85524
數千	-9.85554
涼	-9.85576
耗	-9.85806
瑪	-9.85821
巧	-9.85881
髙祖	-9.85915
曰我	-9.8596
歎	-9.85988
繡	-9.86002
境内	-9.86032
諸水	-9.86056
冲	-9.86059
所至	-9.86088
斂	-9.86112
觀音	-9.86215
祗	-9.86235
河西	-9.86328
莽	-9.86363
契	-9.86368
漆	-9.86374
西南至	-9.86387
倪	-9.86389
白馬	-9.8641
閻	-9.86467
墟	-9.86494
呂	-9.86498
郡縣	-9.86536
䖍	-9.86614
霖	-9.86632
堆	-9.8664
又南	-9.86685
北岸	-9.86728
攸	-9.86746
西北至	-9.86779
大學士	-9.86835
氏女	-9.86894
溉田	-9.86988
燭	-9.87038
沃	-9.87048
答	-9.87051
妄	-9.87089
強	-9.8716
父老	-9.87294
江水	-9.8735
㓜	-9.87503
架	-9.87517
竭	-9.87691
中建	-9.87748
仇	-9.87763
天啟	-9.87976
了	-9.88078
蔚	-9.88082
頒	-9.88105
内外	-9.88163
二十五	-9.88227
圗	-9.88273
昆	-9.88295
李氏	-9.88392
不同	-9.88475
巫	-9.88543
挾	-9.88587
想	-9.88589
明一統志	-9.88589
提舉	-9.88597
窟	-9.88624
監察御史	-9.88729
軍民	-9.88806
張氏	-9.88861
長史	-9.8888
出入	-9.89022
猷	-9.89034
閏	-9.8905
一百二十	-9.89108
劇	-9.89142
十七	-9.89146
播	-9.89194
逾	-9.89202
遍	-9.894
陋	-9.89442
譽	-9.89489
溉	-9.89498
𤓰	-9.89547
冢	-9.89567
坤	-9.89662
峒	-9.89678
培	-9.89907
崑山	-9.89908
健	-9.8994
燒	-9.89965
檢	-9.90003
濵	-9.90013
之日	-9.90031
之士	-9.90294
鮑	-9.90309
判官	-9.9032
躍	-9.90352
佩	-9.90353
河口	-9.90493
學者	-9.90558
甘泉	-9.90558
疎	-9.90725
幕	-9.90744
清水	-9.90788
貽	-9.90799
學宫	-9.90803
子弟	-9.90859
九里	-9.90881
滯	-9.90888
在州東	-9.90939
諱	-9.90977
會稽	-9.90991
昏	-9.90999
灌田	-9.91031
臨安	-9.91092
廢縣	-9.91186
孚	-9.91194
忌	-9.91255
戲	-9.9128
卒贈	-9.91288
團	-9.91288
叅政	-9.91294
人舉	-9.9134
龍潭	-9.91366
鬱	-9.91502
山南	-9.91532
六里	-9.91549
忍	-9.9157
暉	-9.91586
足以	-9.91603
禽	-9.91618
㓂	-9.91688
寫	-9.91844
日月	-9.91939
三十六	-9.92031
厰	-9.92129
發源	-9.92157
人皆	-9.92193
掖	-9.92244
劒	-9.923
探	-9.92325
其水	-9.92377
嵐	-9.92563
巾	-9.9257
遐	-9.92599
確	-9.92647
又東逕	-9.9268
憶	-9.92688
而無	-9.92711
漢中	-9.92715
之民	-9.92718
之功	-9.92734
晝夜	-9.92777
明統志	-9.9279
尸	-9.92882
頼	-9.92895
形勢	-9.9293
本漢	-9.92977
九十	-9.92977
斌	-9.93022
冕	-9.93073
膏	-9.93075
宰相	-9.93079
邁	-9.93153
若干	-9.9319
妻趙氏	-9.93242
攀	-9.93243
人少	-9.93286
在州西	-9.93291
彩	-9.93395
又北	-9.93416
龎	-9.93435
妻朱氏	-9.93486
緣	-9.93491
一年	-9.93498
監生	-9.93553
云云	-9.93579
更名	-9.93599
松江	-9.93609
樸	-9.93653
演	-9.93656
武功	-9.93675
冒	-9.93694
廟在	-9.93748
形如	-9.93808
暫	-9.93894
嗟	-9.9395
廨	-9.93958
數萬	-9.94077
睿	-9.94123
左傳	-9.94128
不受	-9.94145
之患	-9.94201
奠	-9.94231
囊	-9.94311
祥符	-9.9432
有聲	-9.94367
片	-9.94384
郷	-9.94403
是為	-9.94404
俄	-9.94406
貝	-9.9455
元史	-9.94564
建安	-9.94594
搆	-9.94607
金華	-9.94623
栢	-9.9463
益州	-9.94665
厭	-9.94685
都司	-9.94702
欺	-9.94732
乙	-9.94739
長樂	-9.94742
二千	-9.94762
需	-9.94769
翻	-9.94805
擅	-9.94815
大將軍	-9.94955
互	-9.94992
徧	-9.95015
帳	-9.95032
盟	-9.95041
景泰	-9.95054
南海	-9.95074
捍	-9.95085
奉天	-9.95335
不許	-9.95363
中國	-9.95434
入於	-9.95498
暇	-9.95564
觸	-9.95591
而東	-9.95592
一千	-9.956
以備	-9.95697
〔	-9.95728
少卿	-9.95738
平江	-9.95778
暨	-9.95792
諾	-9.95815
武昌	-9.95867
流賊	-9.9593
紛	-9.95956
廖	-9.95983
至是	-9.96062
人丁	-9.96065
鬻	-9.96097
遽	-9.96119
圮	-9.96163
既而	-9.96172
廊	-9.96176
丙	-9.96221
亞	-9.96314
囚	-9.96318
贍	-9.96357
雁	-9.96385
東陽	-9.96402
中書	-9.96451
陟	-9.96461
滿洲	-9.96483
沐	-9.96538
轄	-9.96794
吐蕃	-9.96883
宦	-9.97061
安定	-9.97066
忤	-9.97097
北有	-9.971
帖	-9.97167
挺	-9.97343
諸山	-9.97348
裂	-9.97402
艾	-9.9743
之下	-9.97434
莫不	-9.97466
初為	-9.97471
廳	-9.9752
江陵	-9.97731
築城	-9.97785
城在	-9.97896
暢	-9.97917
有一	-9.97927
冰	-9.97957
平原	-9.97984
畜	-9.98011
禎	-9.98043
遶	-9.9813
二人	-9.98196
牢	-9.98225
二十一年	-9.98314
數年	-9.9832
侍中	-9.98376
上流	-9.98465
節度	-9.98523
泛	-9.98549
湖水	-9.98587
涸	-9.98593
㢘	-9.986
〕〔	-9.98635
砌	-9.9875
人以	-9.9878
今名	-9.98794
䑓	-9.98877
偃	-9.98898
證	-9.98999
柯	-9.99005
站	-9.99013
繕	-9.9906
數十里	-9.99063
催	-9.99119
逋	-9.9916
恪	-9.99167
者曰	-9.99194
又云	-9.99212
函	-9.99214
在府	-9.99262
西域	-9.99287
建康	-9.99303
千户	-9.99313
湖南	-9.99339
邀	-9.99339
覩	-9.99367
荘	-9.99369
膠	-9.99393
各有	-9.994
鞏	-9.99462
正德	-9.99473
從事	-9.99555
喻	-9.99565
官兵	-9.99592
掃	-9.99643
眉	-9.99674
貶	-9.99706
壓	-9.99724
里自界首至	-9.99768
庾	-9.99775
拾	-9.99809
則有	-9.99834
圩	-9.99841
貲	-9.99848
牐	-9.99866
訖	-9.99876
又西	-9.99886
峭	-9.99912
匡	-9.99969
詹	-9.99991
彬	-9.99995
油	-10.0014
䟽	-10.0017
至正	-10.0019
潦	-10.003
狂	-10.0031
郝	-10.0035
臨川	-10.0038
分防	-10.0039
紳	-10.0052
司空	-10.0066
沁	-10.0068
榆林	-10.007
永昌	-10.0073
膺	-10.0076
山上	-10.008
海口	-10.0082
筠	-10.0084
年間	-10.0086
是年	-10.0099
栗	-10.0118
隆慶	-10.0118
家莊	-10.012
竄	-10.0127
婚	-10.0128
軌	-10.013
巡司	-10.0132
華亭	-10.0135
嶼	-10.0149
梵	-10.0155
在城北	-10.0156
聰	-10.0157
塩	-10.0162
九江	-10.0164
鼔	-10.0166
十餘里	-10.0175
明初	-10.0176
久之	-10.0177
洽	-10.0178
䕃	-10.0178
詰	-10.0191
四面	-10.0193
腰	-10.0199
唱	-10.0203
在城	-10.0209
河自	-10.0212
混	-10.0214
株	-10.0215
竝	-10.0224
已上	-10.0225
寃	-10.0227
二子	-10.023
往往	-10.0236
絹	-10.0236
墾	-10.024
僻	-10.0246
百丈	-10.0247
牟	-10.0253
三百里	-10.0253
不忍	-10.0254
山隂	-10.0255
儼	-10.0255
陀	-10.0256
纂	-10.0263
臂	-10.0264
捷	-10.0269
喀	-10.0271
之中	-10.0278
壅	-10.028
鐡	-10.0286
梯	-10.0291
南有	-10.0292
専	-10.0293
十八里	-10.0294
脊	-10.03
仕至	-10.03
長洲人	-10.0301
繪	-10.0316
白石	-10.0322
博士	-10.0324
拂	-10.0324
為一	-10.0325
阮	-10.0349
瑜	-10.035
従	-10.0351
𣺌	-10.0351
宸	-10.0357
牽	-10.0364
琦	-10.0366
慶元	-10.0371
堵	-10.0374
歟	-10.0378
畿	-10.038
縣知縣	-10.0385
人順治	-10.0386
文武	-10.0387
貳拾	-10.0391
此山	-10.0398
東南流	-10.0403
玩	-10.0411
欄	-10.0412
京兆	-10.0412
清江	-10.0415
其餘	-10.0419
拓	-10.042
河決	-10.0422
中為	-10.0426
產	-10.0427
鄴	-10.0428
東海	-10.0431
永豐	-10.0442
又曰	-10.0448
掘	-10.0449
安福	-10.0466
政和	-10.0467
總管	-10.047
洪武初	-10.0471
鄞	-10.0473
城外	-10.0481
勾	-10.051
将軍	-10.0518
填	-10.0518
十卷	-10.052
纔	-10.0525
洞庭	-10.0526
三尺	-10.0529
獸	-10.0534
天下之	-10.0536
二十二年	-10.0541
衙	-10.0545
大水	-10.0553
今改正	-10.0553
南康	-10.0559
無子	-10.0559
潜	-10.0562
一切	-10.0566
圯	-10.0566
狄	-10.0572
赦	-10.0572
被執	-10.0573
苦節	-10.0573
碑記	-10.0574
石城	-10.0579
鈞	-10.0581
潞	-10.0584
在府城	-10.0588
渤海	-10.0591
䝉古	-10.0593
十萬	-10.0594
逵	-10.0599
永平	-10.0601
珪	-10.0602
進士授	-10.0606
者亦	-10.0607
快	-10.0611
敞	-10.0613
提督	-10.0621
地名	-10.0623
觧	-10.0624
對曰	-10.0627
餘姚	-10.063
綺	-10.0631
核	-10.0633
二十五年	-10.0633
撤	-10.0635
綠	-10.0637
鉅	-10.0638
地理志	-10.0653
一百五十	-10.0659
湍	-10.0668
不屈	-10.0673
也又	-10.0678
滕	-10.0682
泰和	-10.0683
孝子	-10.0697
楷	-10.07
綽	-10.0702
父子	-10.0704
稻	-10.0711
廩	-10.0714
扎	-10.0719
濕	-10.0721
埃	-10.0721
太白	-10.0721
澹	-10.0721
舉進士	-10.0726
薪	-10.0727
匯	-10.073
遞	-10.0739
咸陽	-10.074
江淮	-10.0744
括	-10.0745
脫	-10.0749
䕫	-10.075
十二里	-10.0751
自縊	-10.0756
淳祐	-10.0768
長子	-10.0769
之心	-10.0777
燦	-10.0784
閔	-10.0786
一百五十里	-10.0791
興化	-10.0794
改屬	-10.0794
湖州	-10.0798
飄	-10.0799
宣徳	-10.0802
大理	-10.081
畔	-10.0813
瀛	-10.0814
誼	-10.0816
典史	-10.0817
昻	-10.0818
行省	-10.0818
淹	-10.0827
辯	-10.0828
世宗	-10.083
㧞	-10.0833
碎	-10.0834
千餘	-10.084
沖	-10.0848
之不	-10.0853
瀾	-10.0858
欵	-10.0861
貸	-10.0862
暗	-10.0863
涵	-10.0873
所築	-10.0873
者以	-10.0874
即古	-10.0875
永寧	-10.0876
亘	-10.0876
碩	-10.0877
蘓	-10.0881
十九	-10.089
工部	-10.0909
白水	-10.0917
毓	-10.092
一十	-10.0922
而上	-10.0923
石橋	-10.0927
古人	-10.0928
䘮	-10.0937
所屬	-10.094
犬	-10.094
稷	-10.0949
絡	-10.095
而寡	-10.095
肯	-10.0951
祀之	-10.0952
邸	-10.0958
千總	-10.0959
郁	-10.096
沮	-10.0964
家口	-10.0974
江東	-10.0974
準	-10.0976
仗	-10.0981
為政	-10.0986
山麓	-10.099
邇	-10.0991
誌	-10.0992
霽	-10.0995
元豐	-10.1009
貢生	-10.101
罵	-10.1016
髮	-10.1016
七分	-10.1021
軍節度使	-10.1022
成立	-10.1027
墮	-10.1031
故曰	-10.1036
爛	-10.1038
居之	-10.1039
二十三年	-10.1041
西有	-10.1046
遙	-10.1049
朴	-10.105
在府治	-10.1051
字仲	-10.1052
詳見	-10.1052
府治	-10.1062
墻	-10.1064
㨗	-10.1065
家橋	-10.1067
妻胡氏	-10.1072
水合	-10.1098
金人	-10.11
今廢	-10.1122
妻黄氏	-10.1123
萬餘	-10.1123
廣州	-10.1138
丕	-10.114
青山	-10.1143
四分	-10.1158
改建	-10.116
尚存	-10.116
陽城	-10.1161
安人	-10.1163
在州	-10.1168
後人	-10.1169
猿	-10.1175
閱	-10.1177
朱子	-10.1188
名宦	-10.1189
諸將	-10.12
揮	-10.1205
都尉	-10.1207
鞭	-10.121
斛	-10.1211
王子	-10.1214
染	-10.1219
城西南	-10.122
故事	-10.1224
字伯	-10.1228
嬰	-10.1232
雕	-10.1237
扼	-10.1238
溜	-10.1238
不如	-10.1242
仙人	-10.1243
漕運	-10.1245
臨江	-10.1252
輦	-10.1255
駐劄	-10.1257
駭	-10.1258
旣	-10.1263
朋	-10.1269
熱	-10.127
俗名	-10.127
通州	-10.127
臨海	-10.1272
漢置	-10.1279
常熟	-10.1279
誥	-10.1286
必有	-10.1286
田地	-10.1287
狐	-10.1297
南岸	-10.1298
無錫人	-10.1301
遏	-10.131
訥	-10.1311
以後	-10.1311
崑崙	-10.1311
已而	-10.1314
欣	-10.1317
山北	-10.132
璽	-10.1324
芙蓉	-10.1325
司徒	-10.1325
長興	-10.1326
得之	-10.133
另	-10.1338
樂安	-10.134
逺近	-10.1341
布政司	-10.1341
元祐	-10.1343
是時	-10.1352
治平	-10.1354
數日	-10.1364
淫	-10.1366
帝時	-10.1367
人監生	-10.1368
餘杭	-10.1368
户部	-10.1369
憤	-10.1383
不絶	-10.1383
半里	-10.1383
跪	-10.1388
雀	-10.139
不至	-10.1393
城東南	-10.1393
建武	-10.14
弁	-10.1409
豹	-10.1413
桃源	-10.1413
公主	-10.1415
八百	-10.1418
即位	-10.142
鄉里	-10.1425
人父	-10.1425
人心	-10.1427
參政	-10.1429
南海人	-10.1431
償	-10.1435
耆	-10.1439
淳熙	-10.1441
箕	-10.1442
収	-10.1446
脈	-10.1452
僚	-10.146
利害	-10.1462
暑	-10.1463
第二	-10.1469
言之	-10.1471
見其	-10.1476
泄	-10.1478
勁	-10.1479
歿	-10.1486
刼	-10.1488
用之	-10.1496
官軍	-10.1513
民間	-10.1515
戮	-10.1529
壹拾	-10.153
永興	-10.1532
山谷	-10.1533
糴	-10.1534
蓮花	-10.1537
茹	-10.1541
長官司	-10.1542
戈	-10.1543
衮	-10.1546
疇	-10.1548
罔	-10.1552
一丈	-10.1553
螺	-10.1555
庠生	-10.1558
率衆	-10.1564
叟	-10.1569
駐防	-10.1569
中知	-10.1573
鄙	-10.1575
之則	-10.158
敝	-10.1582
杏	-10.159
棗	-10.1595
東山	-10.1602
先後	-10.1604
兩浙	-10.161
梓	-10.1614
山陽	-10.1615
敕	-10.1616
鋭	-10.1616
妻吳氏	-10.1622
婆	-10.1623
悍	-10.1628
関	-10.1631
几	-10.1636
蠶	-10.164
殉	-10.1642
在州南	-10.1643
隋開皇	-10.1654
滑	-10.1656
崑山人	-10.1658
憐	-10.1659
浴	-10.166
有小	-10.1661
時為	-10.1664
上書	-10.1665
庠	-10.1665
金山	-10.1666
簾	-10.1667
上元	-10.1673
八分	-10.1676
妻沈氏	-10.1679
河源	-10.168
諒	-10.1682
釣	-10.1683
水口	-10.1688
吏民	-10.1693
見之	-10.1695
沙河	-10.1702
宣和	-10.1703
之亂	-10.1704
之學	-10.1705
樁	-10.1713
誕	-10.1713
牒	-10.1719
擊之	-10.1722
東北流	-10.1742
愧	-10.1751
七千	-10.1754
而南	-10.1756
之言	-10.1756
竈	-10.1758
寕縣	-10.1764
在南	-10.1764
聊	-10.1769
舅姑	-10.1771
𥘉	-10.1779
萊	-10.1779
見前	-10.1786
䧟	-10.18
屍	-10.1809
平地	-10.181
籌	-10.1813
琮	-10.1816
契丹	-10.1816
隙	-10.1817
貌	-10.1824
浜	-10.1829
二萬	-10.1832
明日	-10.1833
漂	-10.1838
劉氏	-10.1841
省志	-10.1849
太尉	-10.1852
甕	-10.1864
遼陽	-10.1867
晩	-10.1871
札	-10.1873
捨	-10.1873
廡	-10.1882
網	-10.1884
縛	-10.1898
轉運使	-10.1901
如故	-10.1901
灑	-10.1909
肩	-10.1912
東平	-10.1914
扁	-10.1919
薨	-10.192
今為	-10.1921
近刻	-10.1922
鷄	-10.1925
長洲	-10.1927
二州	-10.1929
城東北	-10.193
迄	-10.1931
渉	-10.1936
間建	-10.194
五丈	-10.1942
貞觀	-10.1944
河内	-10.1945
猺	-10.1945
迫	-10.1949
同州	-10.195
大河	-10.1955
訴	-10.1957
而為	-10.1958
鑾	-10.1961
嘉靖間	-10.1963
州東	-10.1965
晉書	-10.1969
六分	-10.1973
聨	-10.1976
之義	-10.1982
三丈	-10.1986
頴	-10.1998
剿	-10.2003
靣	-10.2007
五尺	-10.2007
皆以	-10.2011
府城	-10.2015
為大	-10.2016
視之	-10.2024
吉水	-10.2024
三萬	-10.2026
姓名	-10.2028
其名	-10.2031
石壁	-10.2033
幣	-10.2036
吏部	-10.2039
文學	-10.2041
瓜	-10.2041
凱	-10.2044
改名	-10.205
州西	-10.2052
丑進士	-10.2052
江都	-10.2057
常熟人	-10.2057
二十六年	-10.206
世傳	-10.206
鄱陽	-10.2063
兩四錢	-10.2069
登進士	-10.207
巡檢	-10.2077
算	-10.2079
同縣	-10.2081
彥	-10.2082
妖	-10.2085
博學	-10.2087
百年	-10.2088
蒸	-10.2089
二十二	-10.209
太后	-10.2096
之故	-10.2096
挽	-10.2096
柩	-10.2098
測	-10.2105
武陵	-10.2113
鋒	-10.2117
奬	-10.212
案近刻	-10.2125
新河	-10.2139
水患	-10.2143
後以	-10.2151
從征	-10.2158
嘆	-10.2161
而卒	-10.2161
二十八	-10.2167
弄	-10.2169
陳氏	-10.2185
後世	-10.2186
分野	-10.219
號曰	-10.2208
東坡	-10.2227
溪水	-10.2229
㟁	-10.2229
相對	-10.2235
員外郎	-10.2241
相與	-10.2242
蛟	-10.2244
濮	-10.2245
蘿	-10.2246
瓚	-10.2253
陪	-10.2257
踐	-10.2264
城陷	-10.228
南安	-10.2282
扇	-10.2285
忠義	-10.2286
死者	-10.2288
剡	-10.2292
鉞	-10.2295
在東	-10.2298
華山	-10.2299
弔	-10.2299
之勢	-10.2314
眺	-10.2315
禮部	-10.232
揭	-10.2327
家人	-10.233
四時	-10.2332
恬	-10.2333
人嘉靖	-10.2339
合流	-10.2343
明嘉靖	-10.2343
草木	-10.2344
兵馬	-10.2346
稱其	-10.2348
校尉	-10.2349
西河	-10.2359
艘	-10.2361
歙	-10.2362
地勢	-10.2363
兵部尚書	-10.237
悔	-10.2375
溫	-10.2379
敘	-10.2379
坂	-10.2382
霑	-10.2383
又東南	-10.2384
如是	-10.2393
頤	-10.2399
上疏	-10.2404
剏	-10.2405
名勝志	-10.2425
在府城東	-10.2425
刹	-10.2427
兩二錢	-10.2429
二十四年	-10.243
王公	-10.243
也故	-10.244
一百三十	-10.244
閑	-10.2441
卒於官	-10.2444
東有	-10.2452
鄉試	-10.2459
者有	-10.2465
撫孤	-10.2465
其利	-10.2471
塟	-10.2477
迪	-10.2486
窪	-10.2486
皓	-10.2487
瑾	-10.249
不通	-10.249
七日	-10.2493
瑄	-10.2495
天門	-10.2505
孺	-10.2513
駿	-10.2517
伸	-10.2521
臘	-10.2531
搜	-10.2531
北齊	-10.2533
伍拾	-10.254
尖	-10.2543
蘇軾	-10.2543
叩	-10.2545
丈餘	-10.2546
吞	-10.2547
嶂	-10.2548
䖏	-10.255
鼻	-10.2556
棘	-10.2558
肆拾	-10.2559
譙	-10.2565
運道	-10.2565
桃花	-10.2574
烈婦	-10.2575
南唐	-10.2581
飢	-10.2585
梗	-10.2586
兩五錢	-10.2587
兩岸	-10.2592
甚多	-10.2592
𣲖	-10.2597
兩六錢	-10.26
瀦	-10.2604
後周	-10.2607
雉	-10.2612
然則	-10.2614
工程	-10.2615
皇后	-10.262
相近	-10.2628
出於	-10.2632
桂陽	-10.2633
貝勒	-10.2637
平定	-10.2638
在城内	-10.2639
二卷	-10.2647
自此	-10.2652
有記	-10.2654
濫	-10.2655
粉	-10.2658
萬安	-10.2658
積石	-10.2659
有詩	-10.266
脉	-10.2669
國語	-10.2673
刋	-10.2678
妻孫氏	-10.2678
贖	-10.2679
于是	-10.2679
三江	-10.2684
聖人	-10.2686
雲中	-10.2687
凖	-10.2691
西流	-10.2692
諌	-10.2693
浙西	-10.2694
防禦	-10.2694
晟	-10.2695
相望	-10.2698
衣冠	-10.2702
奢	-10.2703
五色	-10.2707
餘姚人	-10.2709
順天	-10.271
水也	-10.271
不必	-10.2712
治之	-10.2712
實在	-10.2713
杯	-10.2713
平縣	-10.2719
昨	-10.272
仁和	-10.2729
終身	-10.2737
著字	-10.2739
一十里	-10.2741
埠	-10.2741
嗚呼	-10.2745
守禦	-10.2752
名山	-10.2761
稱為	-10.2762
一道	-10.2767
防守	-10.2772
磯	-10.2773
記曰	-10.2773
二水	-10.2774
以聞	-10.2776
抽	-10.2778
留守	-10.278
城下	-10.2788
瑶	-10.2792
與之	-10.2797
妻子	-10.2799
槩	-10.2801
廕	-10.2802
襟	-10.2805
華亭人	-10.2807
不出	-10.2812
謹按	-10.2817
不食	-10.2818
驥	-10.282
長城	-10.2825
文昌	-10.2829
沅	-10.2832
江山	-10.2832
又以	-10.2833
馴	-10.2843
勃	-10.2847
摧	-10.285
好學	-10.2853
苖	-10.2854
二十七年	-10.2857
賤	-10.2858
豁	-10.2859
州知州	-10.286
窩	-10.2869
夫子	-10.288
疋	-10.2884
太平興國	-10.2885
臧	-10.2887
州境	-10.2888
拘	-10.2889
寰	-10.289
數里	-10.2891
彭城	-10.2896
瀘	-10.2899
减	-10.2908
其言	-10.2908
顛	-10.2917
布政使	-10.2921
地理	-10.2926
賛	-10.2928
廣陵	-10.2938
南城	-10.2941
斧	-10.2941
二分	-10.2943
檜	-10.2943
宋時	-10.2948
撮	-10.2955
穎	-10.2955
矯	-10.2956
之説	-10.2956
奉㫖	-10.2961
一百八十里	-10.2964
乂	-10.2969
編户	-10.2972
守兵	-10.2972
五日	-10.2976
後漢書	-10.2976
其人	-10.2978
爐	-10.2979
城郭	-10.2983
掾	-10.2985
在縣治東	-10.2987
可謂	-10.2989
賚	-10.2996
而北	-10.2997
率兵	-10.2997
漾	-10.2997
不然	-10.3002
遮	-10.3002
夫卒	-10.3005
嶠	-10.3006
真人	-10.3007
其父	-10.3008
不肯	-10.301
仁宗	-10.3025
嘯	-10.3029
璉	-10.3032
四十年	-10.3038
内史	-10.3043
以通	-10.3046
嚮	-10.3052
椒	-10.3052
多所	-10.3053
睦	-10.3053
魂	-10.3055
其一	-10.3057
宜興	-10.3059
百二十里	-10.3063
著有	-10.3064
敖	-10.3064
諸軍	-10.3065
廻	-10.307
直隸	-10.3074
酬	-10.3078
一百四十	-10.308
泰山	-10.3085
之制	-10.3093
在西	-10.3103
參軍	-10.3106
不勝	-10.3114
湮	-10.3114
剖	-10.312
蔓	-10.3122
公祠	-10.3129
惑	-10.313
愍	-10.3131
鎬	-10.3131
本朝因之	-10.3135
之役	-10.3142
以示	-10.3146
有古	-10.3152
陸拾	-10.3159
扣	-10.3163
安撫	-10.3165
覈	-10.3167
萃	-10.3167
以子	-10.3169
戌進士	-10.3172
攷	-10.3181
歴官	-10.3185
犀	-10.3185
滄	-10.3188
興國	-10.3189
未進士	-10.3192
龕	-10.3198
芒	-10.3198
額曰	-10.3201
巡按	-10.3202
脅	-10.3206
況	-10.3207
牀	-10.3208
在府城西	-10.3208
涪	-10.321
政事	-10.321
鐫	-10.3211
誨	-10.3215
而西	-10.3217
而出	-10.3221
瑛	-10.3226
六合	-10.3227
滌	-10.3227
周圍	-10.3227
曜	-10.3228
薊	-10.3231
郡王	-10.3233
黍	-10.3235
入江	-10.3242
啼	-10.3243
懇	-10.3244
之勝	-10.3245
者多	-10.3261
弩	-10.3265
安國	-10.3268
巒	-10.3269
新建	-10.3274
羨	-10.3275
鈎	-10.3278
舊址	-10.3281
安仁	-10.3282
卒於	-10.3285
不與	-10.3289
崇徳	-10.329
其先	-10.3292
歙縣人	-10.3301
不以	-10.3303
高祖	-10.3312
吏部尚書	-10.3315
士大夫	-10.3317
壹千	-10.3318
廂	-10.3328
一十五里	-10.333
以待	-10.3333
濯	-10.3334
或曰	-10.3336
雍正八年	-10.334
雍正五年	-10.3341
揆	-10.3342
嘴	-10.3344
又西南	-10.3348
裘	-10.3352
坎	-10.3355
楓	-10.3357
晋	-10.3357
矜	-10.3358
藴	-10.336
㕘	-10.336
廓	-10.3362
今之	-10.3362
二丈	-10.3372
之内	-10.3373
突厥	-10.3374
彈	-10.3374
版	-10.3375
無錫	-10.3378
不就	-10.338
永新	-10.3381
詭	-10.3381
水西	-10.3396
綴	-10.3397
文集	-10.3402
臣等	-10.3403
石室	-10.3405
罰	-10.3411
牲	-10.3413
前有	-10.3413
陳留	-10.3414
稀	-10.3415
講學	-10.3417
匈奴	-10.342
縷	-10.3421
孝友	-10.3423
城西北	-10.3423
舌	-10.3431
緯	-10.3431
西京	-10.3434
菊	-10.3437
隴西	-10.3448
檢校	-10.345
淮安	-10.3461
之際	-10.3468
東漢	-10.3478
勦	-10.3481
入城	-10.3485
柵	-10.3492
者必	-10.3497
棠	-10.3499
嘉靖中	-10.35
巡檢司	-10.3501
南昌人	-10.3501
甃	-10.3501
埋	-10.3508
狀如	-10.3516
瑩	-10.3517
謬	-10.3533
生子	-10.3543
以功	-10.3549
雍正七年	-10.3549
迨	-10.3554
年十九	-10.3559
彪	-10.3562
萬厯間	-10.3565
六百	-10.3577
分置	-10.3577
西南流	-10.3584
昂	-10.3584
天文	-10.359
蓬萊	-10.3595
渭南	-10.3605
二十九年	-10.3609
至大	-10.3611
字元	-10.3611
相連	-10.3614
河之	-10.3615
郢	-10.3615
凶	-10.3618
水之	-10.3621
六千	-10.3621
又東北	-10.3622
三十五	-10.3623
両	-10.3623
二十八年	-10.3626
厯官	-10.3628
遇害	-10.3629
遊擊	-10.3633
㫁	-10.3635
楫	-10.3635
恥	-10.364
億	-10.3648
之盛	-10.3648
縣之	-10.3649
一分	-10.3651
淪	-10.3655
倘	-10.3659
二十六	-10.3665
侈	-10.3665
經史	-10.3665
聶	-10.367
暖	-10.3677
宗時	-10.368
破之	-10.3689
大定	-10.369
江州	-10.3691
在州北	-10.3692
漢軍	-10.3694
天啓	-10.3695
臨清	-10.3696
嶺南	-10.3702
武定	-10.371
二十一	-10.3717
無以	-10.3717
廬江	-10.3719
枚	-10.3719
奏請	-10.3721
二尺	-10.3726
諷	-10.3728
士卒	-10.3728
并州	-10.3734
流經	-10.3741
淳化	-10.3741
諡曰	-10.3741
朝夕	-10.3745
邑令	-10.3746
此地	-10.3747
異之	-10.3747
扶風	-10.3748
廬墓	-10.3756
旁有	-10.3756
九域志	-10.3757
効	-10.3762
改置	-10.3766
賜額	-10.3767
新昌	-10.3778
未婚	-10.378
諸郡	-10.3781
以防	-10.3782
祠在	-10.3787
掛	-10.3791
旨	-10.3794
以致	-10.3795
十三里	-10.3796
圖經	-10.3797
後廢	-10.3802
柄	-10.3805
間有	-10.3806
二十七	-10.3809
涯	-10.3812
譯	-10.3813
東入	-10.3825
鷹	-10.3826
王廟	-10.3828
漢陽	-10.3831
恢	-10.3838
二字	-10.3839
華陽	-10.3842
吳江	-10.3846
水中	-10.3849
叅議	-10.3852
取之	-10.3853
鬬	-10.3857
右翼	-10.3857
遂以	-10.3859
㤗	-10.3861
無窮	-10.3865
峩	-10.3867
修葺	-10.3872
淮水	-10.3873
宣德	-10.3873
得名	-10.3876
第三	-10.3882
股	-10.3886
咸平	-10.3887
改今名	-10.3889
秘	-10.3891
食之	-10.3891
形勝	-10.3894
里許	-10.3896
召為	-10.3897
隊	-10.3898
在府城南	-10.3904
俗呼	-10.3909
元至元	-10.3913
北山	-10.3913
蟲	-10.3914
然而	-10.3915
自古	-10.3916
由此	-10.3916
七十二	-10.3916
詐	-10.3918
歐	-10.3924
廣濟	-10.3934
保定	-10.3937
也夫	-10.3938
粹	-10.3941
吳興	-10.3941
稼	-10.3946
馭	-10.3952
姬	-10.3954
其北	-10.3958
一百三十里	-10.3958
裳	-10.396
踵	-10.3961
副將	-10.3961
所得	-10.3961
十餘丈	-10.3965
皇朝	-10.3965
明帝	-10.3965
稱之	-10.397
學正	-10.3972
黄巖	-10.3974
俘	-10.3976
大中	-10.3976
刻石	-10.3978
廬山	-10.3981
其東	-10.3982
甲子	-10.3984
奥	-10.3987
作亂	-10.3987
行宫	-10.3989
管理	-10.3994
大興	-10.3998
岫	-10.3998
大業	-10.4
禧	-10.4002
行之	-10.4007
海中	-10.4008
常山	-10.4009
旭	-10.401
璘	-10.401
吳越	-10.4011
婺	-10.4015
駐蹕	-10.4017
夙	-10.4018
鴨	-10.4021
文字	-10.4022
數月	-10.4022
盆	-10.403
使人	-10.4031
居此	-10.4039
辰進士	-10.4041
河中	-10.4044
渡江	-10.4044
一百六十	-10.4044
以便	-10.4052
三員	-10.4053
飽	-10.4058
水入	-10.4059
鳳翔	-10.406
狗	-10.4065
妻呉氏	-10.4066
琛	-10.4067
斃	-10.4067
相接	-10.4069
緬	-10.4069
新興	-10.4073
四千	-10.4076
泗州	-10.408
詩文	-10.4082
號為	-10.4084
何處	-10.4086
川縣	-10.4087
石塘	-10.409
其南	-10.4093
年二十	-10.4094
國朝順治	-10.4097
虧	-10.4099
督撫	-10.4106
郡志	-10.4111
年十八	-10.4112
汚	-10.4114
山隂人	-10.4116
賦詩	-10.4116
三國	-10.4123
怡	-10.4123
昧	-10.4124
開皇	-10.4128
梨	-10.413
後有	-10.4134
未詳	-10.4138
太史	-10.4138
咎	-10.4144
媳	-10.4147
瘠	-10.4149
而入	-10.4149
之數	-10.4154
翰林學士	-10.4154
藍田	-10.4158
西曰	-10.4171
豐城	-10.4171
谷水	-10.4173
㝠	-10.4176
甞	-10.418
灌溉	-10.418
愷	-10.4181
延安	-10.4185
零陵	-10.4186
濟南	-10.4188
摘	-10.4188
廪	-10.4194
軾	-10.4207
鉉	-10.4208
以濟	-10.4215
羡	-10.4218
殮	-10.4222
唐書地理志	-10.4225
為民	-10.4237
蟠	-10.4239
府人	-10.4241
綵	-10.4244
渡河	-10.4245
朩	-10.4245
添設	-10.4247
光武	-10.4248
綬	-10.4248
朝陽	-10.4255
禮部尚書	-10.4263
天寳	-10.4267
叠	-10.4268
綜	-10.4268
行人	-10.4273
力戰	-10.4283
滴	-10.4285
謚	-10.4287
人也	-10.4288
四員	-10.4291
青州	-10.4292
護	-10.43
一百四十里	-10.4302
神宗	-10.4303
者不	-10.4306
愛民	-10.4309
矩	-10.431
裝	-10.4317
縈	-10.4319
民之	-10.4333
如何	-10.4336
出知	-10.434
官吏	-10.4348
琰	-10.435
的	-10.435
水又東	-10.4352
定海	-10.4353
也然	-10.4354
曰汝	-10.4355
疫	-10.4356
壬午	-10.4361
瞿	-10.4362
每年	-10.4366
鴈	-10.4371
時任	-10.4372
一方	-10.4373
亦可	-10.4374
之餘	-10.4377
本朝乾隆	-10.4383
七年任	-10.4389
千人	-10.4391
糾	-10.44
其西	-10.4402
一水	-10.4404
慕容	-10.4404
邃	-10.4405
望之	-10.4407
六尺	-10.4409
間任	-10.4411
安南	-10.4412
分流	-10.4415
事聞	-10.4415
四尺	-10.4418
獅子	-10.4419
衞人	-10.442
揖	-10.4421
老人	-10.4421
淚	-10.4426
簷	-10.4426
來㑹	-10.4427
塹	-10.4432
為文	-10.4445
年建	-10.4446
雍正九年	-10.4446
猶存	-10.4448
嗜	-10.4449
盤山	-10.445
户口	-10.4451
白鶴	-10.4453
模	-10.4457
卞	-10.4458
太學	-10.4458
領縣	-10.447
兵部	-10.447
歉	-10.447
明月	-10.4471
成化間	-10.4476
大觀	-10.4476
土司	-10.4485
南北朝	-10.4486
帆	-10.4489
匱	-10.4497
聯	-10.4498
處也	-10.4501
二名	-10.4502
踏	-10.4503
成功	-10.4505
茫	-10.4509
自號	-10.4511
亦以	-10.4515
國朝康熙	-10.4521
髙郵	-10.4526
故址	-10.4526
郡太守	-10.4526
陽山	-10.4528
睢	-10.453
玖拾	-10.4534
捌拾	-10.4534
大使	-10.4538
而行	-10.4541
里人	-10.4542
庻	-10.4549
者則	-10.4555
䘏	-10.4555
不相	-10.4556
扈	-10.4559
疲	-10.4562
壹百	-10.4566
富平	-10.4569
賽	-10.457
錢塘人	-10.4573
開化	-10.4573
二十九	-10.4574
二十三	-10.4576
雒	-10.458
梁山	-10.458
流至	-10.4583
九分	-10.4583
随	-10.4587
恣	-10.4591
估	-10.4592
洪武中	-10.4596
太倉	-10.46
兩一錢	-10.4602
髙宗	-10.4607
佃	-10.4607
人進	-10.4608
憚	-10.461
幽州	-10.4616
詎	-10.462
竿	-10.4623
建徳	-10.4625
懲	-10.4629
華州	-10.4632
崇寧	-10.4638
酉	-10.4644
驕	-10.4645
雖有	-10.4647
葵	-10.4648
璫	-10.4652
緝	-10.4652
鎖	-10.4656
州南	-10.4661
東門	-10.4666
欠	-10.4667
元初	-10.4668
販	-10.4669
萬石	-10.4669
姿	-10.467
十一年任	-10.4672
不起	-10.468
無事	-10.4681
鴉	-10.4685
於上	-10.4689
陽郡	-10.4699
淇	-10.4701
萬世	-10.4701
中丞	-10.4701
婦人	-10.4703
眷	-10.4704
香山	-10.4705
㑹同	-10.4706
衷	-10.4706
百户	-10.4707
哈喇	-10.4709
自然	-10.471
兩三錢	-10.4712
武進	-10.4712
叱	-10.4714
倣	-10.4717
羲	-10.4717
咸淳	-10.4717
葦	-10.4718
周公	-10.4721
興安	-10.4724
南入	-10.4728
其母	-10.473
元末	-10.4743
清風	-10.4744
頽	-10.4746
石山	-10.4747
開封	-10.4747
芻	-10.4747
舅	-10.4748
人萬厯	-10.4753
兩九錢	-10.4755
亢	-10.4756
拯	-10.4757
神仙	-10.476
橘	-10.4761
驟	-10.4763
漢水	-10.4764
而還	-10.4764
有異	-10.477
平生	-10.4776
熙寧	-10.4778
通鑑	-10.4782
羅漢	-10.4787
僊	-10.4793
五經	-10.4793
透	-10.4797
一百八十	-10.4798
茲	-10.48
台州	-10.4801
蕪	-10.4801
膽	-10.4805
磚	-10.4807
舊傳	-10.4807
從此	-10.4815
入于	-10.4819
討之	-10.4823
荀	-10.4825
江隂	-10.4827
中外	-10.4827
太行	-10.4827
觔	-10.4827
不便	-10.4828
二十餘	-10.4828
所載	-10.4829
伺	-10.483
礦	-10.4831
孝宗	-10.4842
實録	-10.4843
金史	-10.4843
寧州	-10.4845
宋建	-10.4849
壬	-10.485
開封府	-10.4854
迺	-10.4855
滎陽	-10.4856
北曰	-10.4864
跋	-10.4866
獠	-10.4867
鳩	-10.4874
莖	-10.4875
韜	-10.4876
國之	-10.4879
掲	-10.488
次第	-10.4883
黜	-10.4884
河間	-10.4886
之類	-10.4886
在焉	-10.4887
芬	-10.489
妹	-10.4892
觴	-10.4895
河在	-10.4895
明萬厯	-10.4895
不下	-10.4897
工部尚書	-10.4899
以前	-10.4911
中興	-10.4915
提刑	-10.4922
見於	-10.4923
歛	-10.4935
斬之	-10.4936
話	-10.4937
議者	-10.4939
應天	-10.4939
不可以	-10.4946
之難	-10.4948
相去	-10.4948
樂平	-10.4949
臥	-10.4954
十餘年	-10.4958
妻汪氏	-10.4959
山頂	-10.4964
理志	-10.4965
翳	-10.4965
不用	-10.4972
紡績	-10.4972
東都	-10.4973
之屬	-10.4979
告成	-10.4983
王莽	-10.4984
要害	-10.4985
黄金	-10.4986
檻	-10.4988
人夫	-10.499
浄	-10.4992
嘉祐	-10.4996
舶	-10.4998
泓	-10.4998
濡	-10.5001
逝	-10.5002
城池	-10.5003
千載	-10.5004
丨丨	-10.5005
太常	-10.501
孟子	-10.5013
追封	-10.5014
怠	-10.5014
箐	-10.5015
瀑布	-10.5023
兵備	-10.5023
撃	-10.5029
羣臣	-10.5032
南流入	-10.5033
奉化	-10.5043
每嵗	-10.5044
二年建	-10.5045
宵	-10.505
鎮守	-10.5057
状	-10.5057
晉陽	-10.5061
線	-10.5061
烈女	-10.5065
一座	-10.5065
朔方	-10.5071
三卷	-10.5078
温泉	-10.5088
州志	-10.5097
字文	-10.5105
濛	-10.5107
玠	-10.511
可容	-10.5119
九千	-10.5121
曲江	-10.5123
貞元	-10.5127
永樂中	-10.5135
踞	-10.5136
天竺	-10.514
騐	-10.514
措	-10.5147
楊氏	-10.5149
夫死	-10.5152
甲申	-10.5154
百步	-10.5154
和尚	-10.5166
古之	-10.5166
換	-10.5167
觀察使	-10.5169
絃	-10.517
祇	-10.5172
萬六千	-10.5174
絳州	-10.5178
翊	-10.5183
地震	-10.5188
雍正十年	-10.519
文公	-10.5192
吳郡	-10.5197
郡邑	-10.5205
洮	-10.5206
府學	-10.5206
不應	-10.5207
虢	-10.5207
道路	-10.5215
筵	-10.5222
白沙	-10.5222
八尺	-10.5228
南曰	-10.5234
不等	-10.5237
舊城	-10.5242
苔	-10.5245
上言	-10.5249
砂	-10.5251
有泉	-10.5261
明洪武初	-10.5264
未及	-10.5268
郡城	-10.5268
安撫使	-10.5269
鑰	-10.527
曰大	-10.5271
男女	-10.5273
分守	-10.5275
各一	-10.5277
寰宇	-10.528
世孫	-10.5281
縣治東	-10.5285
袤	-10.5287
悼	-10.5288
番禺人	-10.5289
應龍	-10.5292
奈何	-10.5294
溧陽	-10.5294
插	-10.5297
航	-10.5298
四海	-10.5304
大旱	-10.5306
建炎	-10.5307
山海經	-10.5307
之變	-10.5309
紆	-10.5312
以進	-10.5314
諸臣	-10.5314
邏	-10.5317
二百五十	-10.5317
蠧	-10.5319
北海	-10.5321
分水	-10.5327
沾	-10.5329
秦州	-10.5333
剪	-10.5339
鄞人	-10.534
郡公	-10.5345
昔有	-10.5352
貞女	-10.5352
舊設	-10.5352
唐時	-10.5355
鏞	-10.5356
宣城	-10.5366
其勢	-10.5366
齎	-10.5366
闔	-10.5366
鄖	-10.5371
鳯翔	-10.5372
之遂	-10.5376
鎮江	-10.5377
躡	-10.5379
額徵	-10.5381
瑚	-10.5381
海鹽	-10.5389
積水	-10.539
繹	-10.5393
杲	-10.5394
飲食	-10.5396
辛未	-10.5399
南豐	-10.5399
帑	-10.5404
纖	-10.5408
系	-10.541
絶頂	-10.5413
畱	-10.5413
人多	-10.5415
裹	-10.5421
衛人	-10.5421
柘	-10.5422
經歴	-10.5422
徵銀	-10.5428
鵲	-10.5429
四十五	-10.543
鉢	-10.5434
蝗	-10.5434
仍舊	-10.5436
而止	-10.5437
石頭	-10.5439
椿	-10.5445
聖祖仁皇帝	-10.5447
慶厯	-10.5448
擔	-10.5455
土官	-10.5457
靈山	-10.5457
遺孤	-10.5458
邈	-10.546
立祠	-10.5461
本州	-10.5464
保安	-10.5467
雍正四年	-10.5472
賁	-10.5474
本府	-10.5476
一夕	-10.5479
旺	-10.5479
於民	-10.548
延綏	-10.5483
漕河	-10.5486
捧	-10.5489
二年任	-10.549
佐領	-10.5492
泰州	-10.5495
寧海	-10.5501
汾州	-10.5506
六年任	-10.5507
諸葛	-10.5518
之句	-10.5518
人知	-10.552
在府城北	-10.5522
所著	-10.5522
宜春	-10.5523
亦無	-10.5523
闡	-10.5526
皆為	-10.5526
眠	-10.5527
江口	-10.5528
曲沃	-10.5531
武德	-10.5531
十三年任	-10.5534
取其	-10.5536
兩山	-10.5536
州廢	-10.554
蠟	-10.5543
民力	-10.5544
三十二	-10.555
鞠	-10.5551
塜	-10.5554
娘	-10.5554
不免	-10.5554
壁立	-10.5554
創建	-10.5555
同邑	-10.5556
河工	-10.5557
僑	-10.5557
其功	-10.5557
社稷	-10.5563
河流	-10.5563
湖北	-10.5564
侃	-10.5573
莫能	-10.5574
水注之	-10.5577
瀉	-10.5583
於朝	-10.5583
山下有	-10.5588
醇	-10.5588
山上有	-10.5591
瀑	-10.5592
縮	-10.5592
梧	-10.5593
西門	-10.5594
之費	-10.5594
雍州	-10.5595
中原	-10.5599
部郎中	-10.5599
東曰	-10.56
馨	-10.5601
天柱	-10.5604
戰國	-10.5606
一作	-10.561
俱有	-10.5614
元帝	-10.5619
林志	-10.5622
民生	-10.5622
尚有	-10.5624
黄岡人	-10.5625
軍節度	-10.5627
鬭	-10.563
妻何氏	-10.5631
北境	-10.5632
世襲	-10.5633
吳縣人	-10.5634
璞	-10.5636
桐城人	-10.5637
古蹟	-10.5638
事宜	-10.5638
輿地紀勝	-10.564
臻	-10.564
胄	-10.5649
安得	-10.565
寧夏	-10.5651
一百七十	-10.5658
宗室	-10.5667
甚衆	-10.567
江夏	-10.5671
陡	-10.5672
丁銀	-10.5673
陛	-10.5682
庄	-10.5687
江寧	-10.5689
至于	-10.5691
不竭	-10.5695
甌	-10.5695
弛	-10.5695
崑	-10.5697
地也	-10.5698
替	-10.5705
聖祖	-10.5707
稜	-10.5709
狀元	-10.571
渭水	-10.571
朝鮮	-10.5712
震澤	-10.5713
七尺	-10.5715
總兵官	-10.5717
舊在	-10.5718
隄防	-10.5723
十丈	-10.5726
騷	-10.5731
常州	-10.5731
神廟	-10.5732
沁水	-10.5732
縉	-10.5733
之險	-10.574
故城在	-10.5745
宣帝	-10.5748
員外	-10.575
苛	-10.575
髙麗	-10.5751
仁和人	-10.5757
死於	-10.5758
慷慨	-10.5758
清口	-10.5759
㕘政	-10.5764
雍正六年	-10.5764
宜興人	-10.5764
以死	-10.5765
水陸	-10.5771
治河	-10.5773
一百一十	-10.5773
國王	-10.5778
竣	-10.5787
明成化	-10.5787
㸔	-10.5794
認	-10.5796
埭	-10.5796
硯	-10.5798
十年任	-10.5799
全活	-10.5799
徼	-10.5799
遂為	-10.5802
御史中丞	-10.5809
河渠	-10.5809
之力	-10.581
熹	-10.5814
蠡	-10.5821
聖賢	-10.5826
塊	-10.5827
豐城人	-10.5827
金城	-10.583
八千	-10.5831
妻郭氏	-10.5834
以疾	-10.5835
曷	-10.5842
國初	-10.5844
蜜	-10.5846
漣	-10.5849
元至正	-10.5851
駱	-10.586
恂	-10.5871
宼	-10.5872
河陽	-10.5874
節婦	-10.5874
或云	-10.5874
最為	-10.5875
百餘丈	-10.5875
古城	-10.5876
冉	-10.5881
部員外郎	-10.589
清平	-10.5896
大業初	-10.5899
太康	-10.5906
研	-10.5909
鄞縣	-10.5911
守之	-10.5915
州北	-10.5919
上俱	-10.592
倦	-10.5922
白鹿	-10.5923
冡	-10.5924
戢	-10.5926
癸未	-10.5929
何如	-10.5936
知名	-10.5938
本紀	-10.5939
開濬	-10.5941
小民	-10.5943
五萬	-10.5945
東岸	-10.5947
五毫	-10.5952
諡文	-10.5955
附郭	-10.596
大者	-10.5963
洵	-10.5965
三十二年	-10.5965
母病	-10.5967
越王	-10.5967
不行	-10.5967
築隄	-10.5971
嫌	-10.5975
劄	-10.598
以資	-10.5983
斑	-10.5985
編修	-10.5985
靄	-10.5989
永康	-10.5989
一旦	-10.5995
立廟	-10.5995
婢	-10.6002
沼	-10.6003
沽	-10.6004
而成	-10.6007
致祭	-10.6011
鬚	-10.602
侍御史	-10.6027
本縣	-10.6031
不忘	-10.6033
内地	-10.6034
鞍	-10.6038
沸	-10.6039
巔	-10.604
州屬	-10.604
𠞰	-10.6041
渝	-10.6042
蔵	-10.6048
迥	-10.6048
鼇	-10.6049
衙門	-10.605
青龍	-10.6051
公私	-10.6051
象山	-10.6052
總河	-10.6063
漢志	-10.6067
東注	-10.6069
里東至	-10.6071
同時	-10.6072
移駐	-10.6072
炭	-10.6073
永和	-10.6073
敗之	-10.6074
水旱	-10.6078
其實	-10.6083
大海	-10.6088
不入	-10.6092
徴銀	-10.6092
陵縣	-10.6096
烏程	-10.6099
周禮	-10.6101
泮	-10.6101
漢武帝	-10.6103
未能	-10.6103
汀	-10.6104
大義	-10.6105
上黨	-10.611
有五	-10.6111
管轄	-10.6112
昔人	-10.6113
以供	-10.6115
孝義	-10.612
大破之	-10.6122
萬人	-10.6124
歎曰	-10.6125
濟寧	-10.6128
捐俸	-10.6131
穹	-10.6131
修撰	-10.6133
雍正三年	-10.6137
折而東	-10.6138
諡忠	-10.6138
延祐	-10.6139
妻程氏	-10.6139
訊	-10.614
靳	-10.6142
巴陵	-10.6145
袖	-10.6145
彚	-10.6149
贑	-10.6154
不一	-10.6155
蘄	-10.6161
其門	-10.6163
莘	-10.6166
統志	-10.6172
駢	-10.6172
隷	-10.6177
四十八	-10.6178
禮樂	-10.6179
李白	-10.618
欒	-10.618
以爲	-10.6186
石刻	-10.6191
都城	-10.6193
山也	-10.6194
而歸	-10.6197
彊	-10.62
天津	-10.62
流水	-10.6203
不宜	-10.6203
冀州	-10.6207
無一	-10.6207
許之	-10.6209
燧	-10.6212
三縣	-10.6216
氐	-10.6218
北門	-10.6218
蹈	-10.6218
五年任	-10.6218
杉	-10.6225
軫	-10.6226
豈不	-10.6237
南門	-10.6237
覲	-10.6239
年十七	-10.624
明末	-10.6242
舊浙江通志	-10.6245
當塗人	-10.6245
浙東	-10.6247
汝南	-10.6248
中軍	-10.6249
一萬	-10.625
之弊	-10.6252
數百人	-10.6255
布政	-10.6256
事之	-10.6258
舊為	-10.6258
丙子	-10.626
疏請	-10.6265
請於	-10.6269
拳	-10.6275
等官	-10.6275
庚子	-10.6275
南渡	-10.6276
土地	-10.6276
握	-10.6278
兵丁	-10.6283
着	-10.6283
明倫堂	-10.6289
本朝順治	-10.6291
韓城	-10.6292
熾	-10.6293
使君	-10.6293
十日	-10.6295
漢屬	-10.6297
妻鄭氏	-10.6298
一百六十里	-10.6299
其國	-10.63
日夜	-10.6301
鑲黄旗	-10.6302
門四	-10.6302
殯	-10.6302
歸安	-10.6304
吉林	-10.6305
澧	-10.6305
又東北逕	-10.6313
蘭州	-10.6317
左翼	-10.632
乙酉	-10.6321
沿海	-10.6325
名也	-10.6325
憩	-10.6328
施行	-10.6329
江都人	-10.633
郡唐	-10.6331
代州	-10.6332
三十一年	-10.6333
坍	-10.6335
進士知	-10.6335
嘆曰	-10.6339
徳之	-10.634
千秋	-10.634
今年	-10.6341
治東	-10.6344
粲	-10.6345
宣城人	-10.6348
神明	-10.6352
山寺	-10.6355
海塘	-10.636
昌縣	-10.6361
民居	-10.6362
繆	-10.6364
水又東逕	-10.6366
人崇禎	-10.6378
七百	-10.6378
或以	-10.6378
罵賊	-10.6381
武康	-10.6384
無異	-10.6388
上官	-10.6388
本草	-10.6389
于闐	-10.6389
詩曰	-10.639
諸暨	-10.6392
之田	-10.64
饒州	-10.6401
渙	-10.6403
長安志	-10.6406
盛京	-10.6411
武城	-10.6411
東莞人	-10.6421
山勢	-10.6421
拾遺	-10.6422
碣	-10.6424
雍正二年	-10.643
療	-10.6431
百萬	-10.6433
昉	-10.6436
斗門	-10.6439
安東	-10.644
宗即位	-10.6447
憫	-10.6455
海内	-10.6456
叅軍	-10.6458
經畧	-10.6459
栖	-10.646
玊	-10.6463
地形	-10.6464
州郡	-10.6465
藪	-10.6468
三原	-10.6468
潞州	-10.6469
躋	-10.6471
有方	-10.6475
貼	-10.6477
批	-10.6482
楠	-10.6483
三十七	-10.6491
泰定	-10.6493
本名	-10.6494
筍	-10.6497
之用	-10.6502
頭山	-10.6508
以兵	-10.651
栽	-10.6512
縣治西	-10.6513
賴以	-10.6514
十名	-10.6518
叄拾	-10.6519
宣慰司	-10.652
一石	-10.6522
攬	-10.6523
哀毁	-10.6524
人貢生	-10.653
甲午	-10.6531
玉山	-10.6534
行者	-10.6537
複	-10.6538
登第	-10.654
都督府	-10.6546
淤塞	-10.6549
轍	-10.6552
榻	-10.6553
麾	-10.6554
壬子	-10.6555
大如	-10.6555
縣故城南	-10.6558
昊	-10.6558
夔	-10.6558
水南	-10.6566
之計	-10.6567
泗水	-10.6576
數百里	-10.6577
沔陽	-10.6581
㦸	-10.6581
經營	-10.6582
渥	-10.6585
跳	-10.6586
中流	-10.6589
布衣	-10.6589
煎	-10.659
宫室	-10.6597
江湖	-10.6597
麗水	-10.6599
管河	-10.6605
昱	-10.6606
稔	-10.6611
掣	-10.6614
四明	-10.6615
分為二	-10.6618
璣	-10.662
周迴	-10.6621
衡山	-10.6622
分為	-10.6629
鉛	-10.663
百官	-10.663
思之	-10.6634
瀚	-10.6638
乃以	-10.6642
涇陽	-10.6644
國史	-10.6646
銳	-10.6647
紹聖	-10.6648
帝王	-10.665
禱雨	-10.6656
戰死	-10.6664
歇	-10.6664
萬五千	-10.6666
膳	-10.6669
榭	-10.6673
天寶	-10.6674
棣	-10.6676
湫	-10.6677
顆	-10.6681
咏	-10.6684
戊子	-10.6685
華隂	-10.669
讐	-10.669
三面	-10.6691
錦州	-10.6692
以禮	-10.6694
莫敢	-10.6697
太師	-10.6699
杞	-10.67
所有	-10.6701
弦	-10.6704
歸併	-10.6706
東路	-10.6708
得免	-10.6716
辛酉	-10.6717
顒	-10.6719
水又	-10.6727
來者	-10.6727
兔	-10.6728
家居	-10.6729
鰲	-10.6729
槖	-10.6733
矣然	-10.6733
臨海人	-10.6734
舟楫	-10.6734
粥	-10.6734
趾	-10.6735
挹	-10.6736
軸	-10.6739
銀兩	-10.6742
在城西南	-10.6746
漿	-10.6747
不易	-10.6748
郵	-10.6748
藝文	-10.6752
部落	-10.6753
壬辰	-10.6756
廣昌	-10.6756
殺人	-10.6757
城周	-10.6761
中書舍人	-10.6761
去縣	-10.6762
文廟	-10.6764
童子	-10.6765
南境	-10.6766
榛	-10.6776
驛丞	-10.6778
諤	-10.6779
闈	-10.678
處士	-10.6781
汎	-10.6783
刑部	-10.6783
宥	-10.6788
藁	-10.6797
臨汾	-10.68
神武	-10.68
化為	-10.6802
餘干	-10.6809
本色	-10.6809
賄	-10.6813
是日	-10.6814
稚	-10.6815
萬八千	-10.6815
知之	-10.6818
一二	-10.682
禪寺	-10.6823
瞰	-10.6826
家港	-10.6834
咸淳臨安志	-10.6835
年八十	-10.684
家堰	-10.6841
共銀	-10.6841
諸州	-10.6843
參議	-10.6845
遺址	-10.6845
忠孝	-10.6847
不少	-10.6847
徭	-10.6848
都統	-10.6848
得以	-10.685
鯨	-10.6855
虐	-10.6855
討平之	-10.6856
與弟	-10.6856
邠	-10.6857
五臺	-10.6857
馬戰兵	-10.6859
人稱	-10.6866
北入	-10.6869
概	-10.6871
三門	-10.6876
十七年任	-10.6877
賑濟	-10.6879
龍池	-10.688
詩書	-10.6882
親王	-10.6882
瀕	-10.6884
爾雅	-10.6884
寧縣	-10.6885
來注之	-10.6887
球	-10.689
遣人	-10.6891
軍事	-10.6891
官員	-10.6892
竅	-10.6892
其衆	-10.6892
鄂拉	-10.6893
雁門	-10.6894
成化中	-10.6895
海門	-10.6896
嚕	-10.6899
八年任	-10.69
初置	-10.6902
戌	-10.6905
刷	-10.6905
珙	-10.6907
張文	-10.6907
湖口	-10.6909
顏	-10.691
斬首	-10.6911
一十五	-10.6911
仆	-10.6918
糜	-10.6918
曲阜	-10.6921
玉泉	-10.6921
饋	-10.6922
也自	-10.6922
彛	-10.693
十二年任	-10.6931
戰於	-10.6934
叅將	-10.6935
所稱	-10.6936
者其	-10.6937
瘞	-10.6938
北六十里	-10.6939
殫	-10.694
俗謂之	-10.6942
志在	-10.6944
景定	-10.6945
縉雲	-10.6945
毗	-10.6949
台吉	-10.695
廣徳	-10.6951
三代	-10.6951
邛	-10.6954
進賢	-10.6956
雋	-10.6959
平陸	-10.6959
笙	-10.696
灼	-10.6962
休寧人	-10.6965
世職	-10.6965
賜名	-10.6966
職方	-10.6968
府屬	-10.6969
祖宗	-10.697
忠臣	-10.6971
二女	-10.6972
迅	-10.6975
矧	-10.6978
千餘里	-10.6979
以自	-10.6984
庶幾	-10.6987
龍溪	-10.6988
蔬	-10.6988
孤山	-10.699
甘露	-10.6991
卒諡	-10.6993
君之	-10.6993
武徳	-10.6994
祀典	-10.6994
灝	-10.6998
澳	-10.7003
蜀人	-10.7004
械	-10.701
促	-10.7012
十六年任	-10.7014
盩厔	-10.7015
甘肅	-10.7018
也而	-10.7019
磧	-10.7021
析置	-10.7028
東門外	-10.7028
𣙜	-10.7034
邑之	-10.7039
改元	-10.704
樂清	-10.704
散騎常侍	-10.7041
盜賊	-10.7043
四萬	-10.7043
集賢	-10.7054
貳百	-10.7054
闗中	-10.7055
普安	-10.7056
二百四十	-10.7058
洙	-10.706
餘里	-10.7063
皇祐	-10.7063
城隍廟	-10.7065
東流入	-10.7065
訣	-10.7066
於今	-10.7069
唐武徳	-10.7073
挈	-10.7074
帯	-10.7074
春秋時	-10.7075
黄龍	-10.7077
婺源人	-10.7078
咸寧	-10.7083
安邑	-10.7085
千金	-10.7089
醴泉	-10.7091
駒	-10.7092
北流入	-10.7092
常平	-10.7095
公卿	-10.7101
岷	-10.7101
福寺	-10.7102
縣儒學	-10.7103
不言	-10.7103
以身	-10.7106
後改	-10.7108
㝷	-10.7109
伴	-10.7109
上虞	-10.7109
江北	-10.7111
百尺	-10.7112
今所	-10.7114
也若	-10.7115
支河	-10.7118
里南北距	-10.7124
為記	-10.7126
可也	-10.7127
吉水人	-10.7128
喧	-10.713
乞歸	-10.7133
髻	-10.7134
黄帝	-10.7135
枉	-10.7135
袍	-10.7136
幻	-10.7137
㑹昌	-10.7137
監司	-10.7138
京城	-10.7139
舘	-10.714
天祐	-10.7141
在縣治西	-10.7141
大軍	-10.7144
數丈	-10.7146
海上	-10.7149
撓	-10.7149
摇	-10.7151
歷	-10.7152
不堪	-10.7152
居官	-10.7155
乍	-10.7159
止長	-10.7161
遣官	-10.7164
萬户	-10.7165
北京	-10.7166
字叔	-10.7166
無復	-10.7169
人以為	-10.7169
徃來	-10.7175
水流	-10.7178
電	-10.7179
膚	-10.718
奄	-10.7182
詩集	-10.7182
潁川	-10.7183
自經	-10.7184
鵠	-10.7185
分司	-10.7187
安西	-10.7187
子曰	-10.7189
煮	-10.7189
妻馬氏	-10.719
通典	-10.7192
脂	-10.7195
祭酒	-10.7201
水漲	-10.7202
一統志	-10.7202
大徳	-10.7205
徘徊	-10.721
南旺	-10.7212
臺山	-10.7214
築堤	-10.7218
勛	-10.7218
冇	-10.722
慟	-10.7228
守志	-10.7232
州西南	-10.7233
王府	-10.7237
文獻	-10.7238
博羅	-10.7239
唐貞觀	-10.724
或有	-10.7241
車駕	-10.7242
傭	-10.7243
自西	-10.7243
慨然	-10.7252
特穆爾	-10.7252
在縣治	-10.7256
他日	-10.7258
衡陽	-10.7259
泉水	-10.7262
家灣	-10.7263
大厯	-10.7263
涌	-10.7265
永嘉人	-10.7268
甄	-10.7269
事姑	-10.7273
寘	-10.7273
杳	-10.7274
楨	-10.7275
隆興	-10.7275
救之	-10.7279
剔	-10.7281
鼠	-10.7295
三州	-10.7297
駝	-10.7303
鄉縣	-10.7303
平湖	-10.7304
深入	-10.7312
督學	-10.7313
四年任	-10.7317
知縣王	-10.7319
石泉	-10.7319
浮梁	-10.732
之徒	-10.7321
正黄旗	-10.7322
中官	-10.7326
西北流	-10.7326
墅	-10.7327
驤	-10.7328
剥	-10.7329
張公	-10.733
者即	-10.7333
鳳凰	-10.7337
不在	-10.734
嘉禾	-10.734
三年任	-10.7341
寧國	-10.7344
祀宋	-10.7347
罹	-10.7349
燾	-10.735
縣置	-10.735
黒水	-10.7351
挂	-10.7351
潢	-10.7352
高宗	-10.7352
西岸	-10.7353
而有	-10.7354
三十三	-10.7356
從容	-10.7356
頑	-10.7357
槎	-10.7365
安陸	-10.7365
三楹	-10.7366
額外	-10.7368
分界	-10.7369
用兵	-10.7369
芮	-10.7369
不聽	-10.737
雲陽	-10.7372
授以	-10.7382
邳州	-10.7383
河源出	-10.7389
糶	-10.7391
鹵	-10.7393
牖	-10.7393
安樂	-10.7395
攘	-10.7398
磬	-10.74
瑞安	-10.7402
寺僧	-10.7402
入境	-10.7403
魏書	-10.7412
廣平	-10.7412
橫	-10.7413
劫	-10.7418
在府治東	-10.742
亳	-10.7422
公子	-10.7423
三輔	-10.7427
五百里	-10.7428
憲宗	-10.7428
徽州	-10.7428
鬼神	-10.7431
鳳陽	-10.7433
凍	-10.7433
捲	-10.7434
正統間	-10.7437
安化	-10.744
而來	-10.744
守臣	-10.7442
弭	-10.7447
瓶	-10.7447
達於	-10.7448
亳州	-10.745
寔	-10.7451
許字	-10.7454
太傅	-10.7455
粗	-10.7455
朔州	-10.7457
布拉克	-10.7457
忱	-10.7458
鵞	-10.7462
珣	-10.7463
荅	-10.7464
者乎	-10.7464
金銀	-10.7465
商賈	-10.7465
其黨	-10.7465
誇	-10.7471
因以	-10.7474
禦之	-10.7477
豐縣	-10.7477
九日	-10.7477
洛陽人	-10.7479
溯	-10.7479
犍為	-10.748
闌	-10.7481
十四年任	-10.7485
實徴	-10.7485
忻	-10.7488
王家	-10.7491
安平	-10.7493
貳千	-10.7499
交阯	-10.75
天聖	-10.7501
蹤	-10.7501
西路	-10.7501
擲	-10.7502
腦	-10.7502
併入	-10.7503
城守	-10.7505
昌平	-10.7506
桞	-10.7508
三十八	-10.7508
辛丑	-10.7511
紿	-10.7515
妨	-10.7515
南接	-10.7518
弋陽	-10.7522
淳熈	-10.7522
而復	-10.7522
三十四	-10.7525
娥	-10.7526
敎諭	-10.7528
聼	-10.7528
九年任	-10.7529
鯉	-10.753
隂陽	-10.7532
三間	-10.7535
九釐	-10.7535
自縊死	-10.7536
石鼓	-10.7542
東西二	-10.7544
撒	-10.7544
庚午	-10.7545
京口	-10.7548
祀名宦	-10.7548
春風	-10.7549
淄	-10.7549
一千二百	-10.7553
之境	-10.7557
饗	-10.7557
即以	-10.7559
治水	-10.7562
璟	-10.7562
不容	-10.7563
猶有	-10.7565
相度	-10.7565
楞	-10.7568
戊	-10.7569
盂	-10.7569
奉命	-10.757
諸城	-10.7573
㭍拾	-10.7575
彭澤	-10.7579
縣尹	-10.7581
一尺	-10.7583
下車	-10.7583
被害	-10.7584
水出焉	-10.7586
寧人	-10.7587
皆在	-10.7592
驢	-10.7603
軍士	-10.7608
夭	-10.7613
中式	-10.7615
婺源	-10.7627
窰	-10.7629
道人	-10.7629
元兵	-10.763
江上	-10.7632
大名	-10.7634
人夫亡	-10.7642
璜	-10.7643
之害	-10.7644
功封	-10.7644
崇明	-10.7646
不知其	-10.7647
緡	-10.7649
鼐	-10.7652
安福人	-10.7656
聞其	-10.7656
溧水	-10.7664
知縣張	-10.7669
皇清	-10.767
慈谿人	-10.7673
紹定	-10.7676
四名	-10.7676
萬厯中	-10.7677
千古	-10.7689
大師	-10.7693
羞	-10.7693
羮	-10.7706
之乃	-10.7708
賂	-10.7708
轉運	-10.7709
人性	-10.7709
四卷	-10.771
曇	-10.7712
紋	-10.7716
三人	-10.7718
正殿	-10.7718
路通	-10.7719
帽	-10.772
入朝	-10.7723
偹	-10.7731
通考	-10.7731
態	-10.7733
撫按	-10.7738
妻許氏	-10.7738
凡三	-10.7739
蹕	-10.7739
各官	-10.774
不合	-10.7742
夏秋	-10.775
不當	-10.7754
所部	-10.7755
三十五年	-10.7756
墉	-10.7762
殱	-10.7767
隠居	-10.7769
朶	-10.7771
嶴	-10.7774
無考	-10.7779
初建	-10.7779
故也	-10.778
秘書	-10.7788
塚	-10.7789
重之	-10.7789
將士	-10.7794
汰	-10.7795
注於	-10.7795
安陽	-10.7796
改設	-10.7798
立石	-10.7799
丸	-10.7804
湏	-10.7805
其弟	-10.7807
古文	-10.7808
輅	-10.7808
行至	-10.7809
引河	-10.7809
葱	-10.7809
潼	-10.781
招撫	-10.7812
以歸	-10.7813
老子	-10.7816
以孝聞	-10.7818
肖	-10.7823
煒	-10.7824
六十年	-10.7825
髙平	-10.7831
所經	-10.7834
噴	-10.7836
宿遷	-10.784
諧	-10.784
光祖	-10.7842
觀之	-10.7849
槽	-10.785
賴之	-10.7851
不足以	-10.7854
孝感	-10.7858
家浜	-10.7859
入蜀	-10.7862
此其	-10.7862
一千五百	-10.787
二十餘里	-10.7873
以是	-10.7874
蜂	-10.7875
元年任	-10.7877
内除	-10.7878
宇文	-10.7878
涕	-10.7882
般	-10.7884
失其	-10.7884
臨潼	-10.7885
有四	-10.7885
膝	-10.7888
之所以	-10.7889
時人	-10.789
王師	-10.7892
甦	-10.7897
箇	-10.7902
事舅姑	-10.7909
九毫	-10.7909
人間	-10.7911
陽武	-10.7915
縣界六十里	-10.7916
可為	-10.7922
菱	-10.7922
卒子	-10.7924
之神	-10.7925
諸書	-10.7931
拒之	-10.7932
曲折	-10.7938
琬	-10.7939
崇仁	-10.7941
錢氏	-10.7945
大兵	-10.7947
淀	-10.7948
訂	-10.7949
帷	-10.7949
漳水	-10.7952
西平	-10.7956
涖	-10.7962
奉天人	-10.7966
三十六年	-10.7967
甎	-10.7967
歸徳	-10.7971
秩滿	-10.7978
定襄	-10.7978
北三十里	-10.7983
一出	-10.7984
受命	-10.7985
幢	-10.7989
之使	-10.7992
廵按	-10.7992
亥	-10.7993
舊制	-10.7993
技	-10.7994
釋之	-10.7996
不可得	-10.7997
代之	-10.7998
南門外	-10.7999
笛	-10.8
九州	-10.8001
公孫	-10.8001
四十二	-10.8004
一百九十	-10.8004
二百二十	-10.8006
皇甫	-10.8008
十七里	-10.8009
漢為	-10.8013
未可	-10.8013
牘	-10.8013
仁夀	-10.8014
元帥	-10.8014
三百六十	-10.8015
液	-10.8016
一丈五尺	-10.8016
簫	-10.8017
磴	-10.8018
在大	-10.8019
軍務	-10.802
鎗	-10.8022
治西	-10.8023
得一	-10.8023
恱	-10.8024
居士	-10.8027
厓	-10.8031
來歸	-10.8037
八名	-10.8038
鋤	-10.8043
問之	-10.8044
松山	-10.8047
山之陽	-10.8048
嶧	-10.8051
乙未	-10.8052
囬	-10.8053
其徒	-10.8056
賊至	-10.8057
鹹	-10.8064
瑗	-10.8066
𢎞治間	-10.807
終日	-10.8073
大雨	-10.8073
吉州	-10.8073
關中	-10.8074
頸	-10.8075
遺跡	-10.8077
四十一年	-10.8078
唐志	-10.8078
宣化	-10.8078
翁姑	-10.8083
海寧	-10.8086
安撫司	-10.8086
之初	-10.8087
百五十里	-10.8088
林寺	-10.8091
痕	-10.8091
石上	-10.8096
莅	-10.8096
黄水	-10.8096
九百	-10.8097
元時	-10.8099
矣而	-10.81
著書	-10.8101
注云	-10.8102
巽	-10.8105
隋書	-10.8105
癸酉	-10.8106
立碑	-10.811
百餘人	-10.8113
鹽井	-10.8113
幫	-10.8113
者三	-10.8116
髙下	-10.8119
康熙四十	-10.8121
四丈	-10.8123
餽	-10.8126
大抵	-10.8127
當年	-10.8127
立為	-10.8129
東京	-10.813
有成	-10.8133
暹	-10.8137
商州	-10.8139
人所	-10.8147
元年改	-10.8149
為害	-10.8158
鳯凰	-10.8159
三水	-10.8163
呼為	-10.8164
丙午	-10.817
起居	-10.8171
秦始皇	-10.8172
在州西南	-10.8172
圻	-10.8174
國子監	-10.8175
不報	-10.8178
蘇松	-10.819
山巔	-10.8192
豕	-10.8194
陽江	-10.8196
水道	-10.8197
被殺	-10.8198
郡隋	-10.8199
南三十里	-10.8199
以禦	-10.82
甲辰	-10.82
縣界一百	-10.8201
穢	-10.8203
人夫亡守節	-10.8208
覃	-10.8208
有才	-10.8208
贛	-10.8212
所建	-10.8213
君臣	-10.8214
水東	-10.822
桂林	-10.8223
又為	-10.8225
海道	-10.8227
丁丑	-10.823
琅邪	-10.8234
矢志	-10.8238
十八年任	-10.8239
後復	-10.824
府同知	-10.8242
其民	-10.8244
一門	-10.8246
公署	-10.8246
曰是	-10.8248
濃	-10.8249
谷口	-10.8251
之風	-10.8251
兖	-10.8252
南直	-10.8252
叚	-10.8253
之氣	-10.8254
十餘萬	-10.8254
歸附	-10.8254
便宜	-10.8256
蒼梧	-10.8258
字公	-10.8258
諸國	-10.8259
武王	-10.8259
於斯	-10.826
祺	-10.826
岐山	-10.8261
韓愈	-10.8262
狩	-10.8264
蠲免	-10.8265
徇	-10.8268
孀居	-10.827
乃止	-10.827
兵至	-10.8275
流寇	-10.8278
隱居	-10.8278
箴	-10.8282
善政	-10.8283
數十年	-10.8284
春夏	-10.8286
固守	-10.8287
在州治	-10.829
州東南	-10.8299
胸	-10.8299
其山	-10.83
漊	-10.8302
嘉之	-10.8305
建置沿革	-10.8306
提學	-10.8306
二百八十	-10.8307
二年置	-10.8308
民多	-10.8313
西接	-10.8314
改今額	-10.8316
璠	-10.8318
癸	-10.8318
從子	-10.8319
永樂初	-10.832
評	-10.832
増修	-10.832
鵝	-10.8321
慨	-10.8323
爪	-10.8325
擢御史	-10.8326
福州	-10.8327
保障	-10.8327
青城	-10.8329
者乃	-10.8331
官民	-10.8338
杜甫	-10.8339
水源出	-10.8343
笋	-10.8352
又西北	-10.8355
趙氏	-10.8356
各省	-10.8358
邕	-10.8361
賊怒	-10.8367
押	-10.8367
寮	-10.8367
麻城人	-10.8368
東逕	-10.8368
北二十里	-10.8371
觀察	-10.8372
渦	-10.8372
與夫	-10.8376
濮州	-10.8376
雲山	-10.8377
欲以	-10.8377
幅	-10.8378
瑟	-10.838
悅	-10.838
五十五里	-10.8381
橋在	-10.8385
恊	-10.8392
秦王	-10.8393
購	-10.8393
伯克	-10.8393
節制	-10.8395
庇	-10.8397
乾隆三十	-10.8402
檢討	-10.841
興元	-10.841
開墾	-10.8411
唐武德	-10.8411
緩急	-10.8416
中間	-10.8419
四十五年	-10.842
郡後漢	-10.842
縱横	-10.8422
先主	-10.8423
外委	-10.8424
城破	-10.8425
洞天	-10.8426
言曰	-10.8426
廸	-10.8426
真宗	-10.8427
後唐	-10.8439
之謂	-10.8439
三十九	-10.8441
數十人	-10.8441
傳云	-10.8442
祀明	-10.8443
故縣	-10.8445
鑲紅旗	-10.8445
丁酉	-10.8445
厨	-10.8446
五十年	-10.8447
千餘人	-10.8448
多寡	-10.845
始興	-10.8451
里有	-10.8452
滸	-10.8452
南五十里	-10.8453
繚	-10.8453
運使	-10.8456
屯兵	-10.8456
第五	-10.8461
菩薩	-10.8462
餌	-10.8463
萬四千	-10.8464
不止	-10.8465
延袤	-10.8465
長春	-10.8465
召見	-10.8467
禪院	-10.847
四十九	-10.8471
沙門	-10.8471
耳目	-10.8472
惰	-10.8472
槃	-10.8472
有神	-10.8475
水門	-10.8475
入焉	-10.8475
以成	-10.8476
有白	-10.848
等項	-10.8481
其處	-10.8491
塞外	-10.8494
不屈死	-10.8496
十五年任	-10.8498
題請	-10.85
慘	-10.8503
夏人	-10.8503
煉	-10.8504
方輿勝覽	-10.8504
相近有	-10.8505
十數	-10.8508
謂其	-10.8508
努	-10.8509
萌	-10.851
把總一員	-10.8511
未必	-10.8511
𬒳	-10.8511
不盡	-10.8511
四十餘年	-10.8515
不欲	-10.8515
於江	-10.8516
太極	-10.8516
引水	-10.8518
諳	-10.852
永濟	-10.8522
漢書地理志	-10.8525
祀鄉賢	-10.8525
安州	-10.8526
故宅	-10.8529
以安	-10.8532
迂	-10.8535
之始	-10.8536
承天	-10.8537
冬十月	-10.854
未至	-10.8543
昆明	-10.8543
庚辰	-10.8544
王元	-10.8545
入淮	-10.8546
温州	-10.8547
二三	-10.8548
東阿	-10.8549
年十六	-10.8549
北接	-10.8549
上饒	-10.8549
七十五里	-10.8551
纒	-10.8552
清溪	-10.8552
舊通志	-10.8554
妻陸氏	-10.8554
縣入	-10.8559
益都	-10.8561
臨川人	-10.8562
其城	-10.8565
金壇	-10.8566
初知	-10.8569
寺前	-10.8573
寺觀	-10.8574
峴	-10.8575
宋元	-10.8576
子也	-10.8577
生於	-10.8577
淩	-10.858
以告	-10.858
者如	-10.8582
非也	-10.8583
紗	-10.8583
戊午	-10.8583
當塗	-10.8589
䑕	-10.8589
陜州	-10.8591
李公	-10.8595
禮部侍郎	-10.8595
名臣	-10.8596
廣寧	-10.8597
蕪湖	-10.8601
大明	-10.8602
及其	-10.8602
縣界五十里	-10.8603
紹興中	-10.8604
妻高氏	-10.8605
洎	-10.8609
列女	-10.8611
單騎	-10.8612
惟有	-10.8614
年閒	-10.8618
號泣	-10.862
無算	-10.8622
城門	-10.8625
三山	-10.8631
暘	-10.8633
字景	-10.8634
有龍	-10.8634
白居易	-10.8634
邠州	-10.8635
刲股	-10.8635
千戸	-10.8636
舍人	-10.8642
一十二	-10.8643
在郡	-10.8643
永寕	-10.8645
冐	-10.8646
也乃	-10.8648
冗	-10.8651
論語	-10.8652
陣亡	-10.8656
内附	-10.8658
其文	-10.8665
水溢	-10.8665
過此	-10.8666
嘗為	-10.8669
浣	-10.867
指揮使	-10.8671
大罵	-10.8672
括地志	-10.8672
范仲淹	-10.8673
海潮	-10.8677
誓不	-10.8677
襄城	-10.8683
俗傳	-10.8684
真定	-10.8685
三十四年	-10.8687
海州	-10.869
縣界四十里	-10.8691
閑散	-10.8691
茗	-10.8692
在城東南	-10.8692
祠廟	-10.8692
壮	-10.8693
崧	-10.8694
姊	-10.8695
雍正元年	-10.8697
皎	-10.8698
元年建	-10.8698
可得	-10.8698
琪	-10.8701
入貢	-10.8703
丁口	-10.8704
不仕	-10.8705
砲	-10.8706
者又	-10.8707
醜	-10.8707
曹州	-10.8708
汾水	-10.8709
無敢	-10.871
入為	-10.8713
珂	-10.8715
割股	-10.8716
不死	-10.872
妻潘氏	-10.872
夫亡守節	-10.8721
汙	-10.8721
鄉薦	-10.8722
正藍旗	-10.8722
人力	-10.8724
合浦	-10.8725
蜿蜒	-10.8726
武安	-10.8729
内江	-10.8732
里源出	-10.8733
囉	-10.8737
廣漢	-10.8738
癸丑	-10.8738
故有	-10.874
愿	-10.874
唐李	-10.8748
曩	-10.8751
河上	-10.8753
榆次	-10.8755
主人	-10.8755
泰和人	-10.8756
此則	-10.8757
煜	-10.8758
西魏	-10.8759
城也	-10.8761
譌	-10.8761
科銀	-10.8762
巨石	-10.8764
<	-10.8765
="33"/>	-10.8765
t	-10.8765
所殺	-10.8768
仍屬	-10.877
永福	-10.877
林木	-10.877
陌	-10.8773
河又	-10.8774
馬頭	-10.8776
州學	-10.8783
石為	-10.8786
草堂	-10.8789
孔道	-10.8791
始於	-10.8792
兀	-10.8795
者非	-10.8801
三十餘	-10.8802
以次	-10.8804
千年	-10.881
竭力	-10.8811
頡	-10.8812
三十八年	-10.8813
終不	-10.8819
不可不	-10.882
轅	-10.8821
起兵	-10.8823
鎮海	-10.8824
言其	-10.8825
一千一百	-10.8825
巴爾	-10.8828
六丈	-10.8828
兌	-10.8828
貴溪	-10.883
曼	-10.8832
左氏	-10.8833
撫子	-10.8834
先賢	-10.8835
潮州	-10.8836
水縣	-10.8837
刑部尚書	-10.8838
其説	-10.884
年七十	-10.8843
丙辰	-10.8844
周易	-10.8844
鏤	-10.8846
夏四月	-10.8851
或謂	-10.8852
仙居	-10.8853
以至	-10.8858
州東北	-10.886
寕州	-10.8862
三省	-10.8864
不識	-10.8865
矣今	-10.8868
䝉古語	-10.8871
嘉其	-10.8873
英宗	-10.8876
勸農	-10.8876
山海	-10.888
開寳	-10.8881
不動	-10.8884
巘	-10.8884
大德	-10.8885
在州東南	-10.8888
移治	-10.8888
中和	-10.889
艮	-10.889
孝武	-10.8896
朽	-10.8896
富貴	-10.8897
男子	-10.89
一小	-10.8904
綂	-10.8907
南二十里	-10.8908
曦	-10.891
升為	-10.8912
挿	-10.8912
舊縣	-10.8912
鑲白旗	-10.8912
側有	-10.8914
有惠政	-10.8918
鷗	-10.8921
注之	-10.8921
人貢士	-10.8922
之舊	-10.8924
諸路	-10.8924
六十五里	-10.8924
建德	-10.8925
金石	-10.8926
呉越	-10.8927
不克	-10.893
汾陽	-10.8931
諸子	-10.8933
弱冠	-10.8938
梁州	-10.8938
僭	-10.894
官知縣	-10.894
六員	-10.8942
歸化	-10.8943
五行	-10.8945
荆門	-10.8948
西北隅	-10.8949
瀘州	-10.895
兩河	-10.895
濓	-10.8952
杜預	-10.8953
王廷	-10.8955
薰	-10.8956
仁義	-10.8958
明季	-10.8961
以奉	-10.8963
副都統	-10.8965
定州	-10.8969
臨洮	-10.8969
閤	-10.8972
佛寺	-10.8976
王國	-10.8982
合肥人	-10.8984
蒲州	-10.8986
交趾	-10.8986
澤州	-10.8989
岳陽	-10.8989
制置	-10.8991
呉江	-10.8991
歆	-10.8993
天禧	-10.8993
又改	-10.8994
澇	-10.9001
營遊擊	-10.9001
腸	-10.9002
奉詔	-10.9004
壻	-10.9005
平章	-10.901
熱河	-10.901
南鄭	-10.901
福山	-10.9011
給事	-10.9013
州西北	-10.9016
經制外委	-10.9018
鏜	-10.9021
峨	-10.9023
建平	-10.9024
在城東北	-10.9025
鹽課	-10.9027
千户所	-10.9028
為患	-10.9028
嘉興人	-10.9028
四十六	-10.903
南四十里	-10.903
袁州	-10.9032
壕	-10.9034
寧都	-10.9034
附近	-10.9037
之孫	-10.904
瑤	-10.9045
飬	-10.9045
攻城	-10.9046
無可	-10.9046
週	-10.9047
鳬	-10.9048
丙戌	-10.9048
又置	-10.9051
咸通	-10.9052
左丞	-10.9053
横山	-10.9057
湖中	-10.9058
纓	-10.9058
洛水	-10.9059
扉	-10.9063
賦役	-10.9064
順徳人	-10.9064
難以	-10.9067
上元人	-10.9067
之前	-10.9068
甲戌	-10.9068
科給事中	-10.9069
復以	-10.9069
千總一員	-10.9069
江夏人	-10.907
淮揚	-10.9072
江陵人	-10.9075
周文	-10.9079
夫殁	-10.9083
萬物	-10.9086
處州	-10.9087
隋書地理志	-10.9092
萬夀	-10.9092
題名	-10.9096
觜	-10.9096
於海	-10.9098
若夫	-10.9098
妻金氏	-10.9101
都指揮	-10.9102
彝	-10.9103
考之	-10.9103
隋大業	-10.9103
大石	-10.9104
人嵗貢	-10.9105
復曰	-10.9109
荔	-10.911
義學	-10.9113
始終	-10.9113
殿前	-10.9113
劔	-10.9113
郡地	-10.9114
軍中	-10.9115
有文	-10.9117
監軍	-10.9117
時建	-10.9123
行臺	-10.9123
在城西北	-10.9125
敦煌	-10.9126
明堂	-10.9128
戊戌	-10.9128
連山	-10.9128
殺其	-10.9129
雲氣	-10.913
翅	-10.913
秋七月	-10.9132
汶上	-10.9134
獅	-10.9134
之禮	-10.9135
北平	-10.9137
工部侍郎	-10.9139
等因	-10.9139
凋	-10.9142
礪	-10.9144
遁去	-10.9147
皂	-10.9151
閎	-10.9154
女子	-10.9155
丹徒	-10.9159
售	-10.9159
昌化	-10.9161
諸葛亮	-10.9162
夫婦	-10.9163
套	-10.9163
歴代	-10.9165
縣故城	-10.9169
時稱	-10.917
▁以上	-10.917
上海人	-10.9172
冝	-10.9178
䕶軍	-10.9181
山一名	-10.9181
便之	-10.9182
遇賊	-10.9185
其才	-10.9189
叶	-10.919
一十六	-10.919
涓	-10.9191
通行	-10.9196
次子	-10.9196
輟	-10.9197
幷	-10.9198
凢	-10.9203
白龍	-10.9203
南詔	-10.9205
十二卷	-10.921
移於	-10.921
閬中	-10.921
襃	-10.9214
戊辰	-10.9214
引兵	-10.9215
所云	-10.9215
流逕	-10.9217
峝	-10.9218
濟水	-10.9218
祕書	-10.922
清泉	-10.9223
在此	-10.9223
烹	-10.9224
一十四	-10.9226
上海	-10.9228
拆	-10.9228
有差	-10.9229
天成	-10.9229
對峙	-10.9229
疏濬	-10.923
范陽	-10.9231
二百餘里	-10.9233
前鋒	-10.9234
洪武間	-10.9235
初以	-10.9237
綰	-10.9237
考證	-10.9245
少年	-10.9247
棹	-10.9248
海豐	-10.9252
江浙	-10.9254
太倉人	-10.9254
贏	-10.9255
無他	-10.9256
門人	-10.9258
長江	-10.9261
人情	-10.9261
二日	-10.9261
浮圖	-10.9263
三十三年	-10.9264
文王	-10.9267
税銀	-10.9267
不已	-10.9268
滄州	-10.927
逓	-10.9271
竦	-10.9271
蒿	-10.9272
民不	-10.9272
煉丹	-10.9273
徙居	-10.9273
與其	-10.9274
逞	-10.928
鹽官	-10.9281
郡之	-10.9286
民有	-10.929
公事	-10.929
教之	-10.9292
稠	-10.9294
賜號	-10.9294
呉興	-10.9294
太監	-10.9295
一則	-10.9295
萬計	-10.9297
妻曹氏	-10.9299
慢	-10.93
民皆	-10.9302
遇閏加銀	-10.9305
卭	-10.9306
穗	-10.9306
門下	-10.9311
工食銀	-10.9311
忿	-10.9313
李文	-10.9314
直抵	-10.9314
翥	-10.9314
刁	-10.9316
猪	-10.9317
以時	-10.9318
甓	-10.9322
南五里	-10.9324
郃陽	-10.9325
大敗	-10.9326
元符	-10.9326
縣界三十里	-10.9329
乾元	-10.9331
沱	-10.9331
長者	-10.9333
興工	-10.9336
春正月	-10.9339
景祐	-10.934
六經	-10.9342
耀州	-10.9343
州判	-10.9344
詣闕	-10.9345
相應	-10.9345
白日	-10.9347
昌黎	-10.9349
未知	-10.935
海運	-10.9353
茭	-10.9355
裒	-10.9357
淳安	-10.9365
徽宗	-10.9366
鹽城	-10.9367
里北至	-10.937
真君	-10.9372
腐	-10.9373
之衆	-10.9375
四十二年	-10.9375
大通	-10.9376
德州	-10.9377
墊	-10.9378
少保	-10.9379
四十四	-10.9379
蟬	-10.938
永定	-10.9383
瓘	-10.9384
衢州	-10.9386
亦謂之	-10.9389
麽	-10.9389
一體	-10.939
武侯	-10.9391
針	-10.9392
入河	-10.9393
潯	-10.9395
鄉民	-10.9398
化縣	-10.9399
涂	-10.94
自稱	-10.9404
翰林院	-10.9407
至則	-10.941
永明	-10.941
床	-10.9414
旻	-10.9416
原設	-10.9421
譏	-10.9421
迤	-10.9422
餅	-10.9425
疆域	-10.9426
所出	-10.9426
豈非	-10.9428
上林	-10.943
南六十里	-10.943
天目	-10.9431
妻年二十	-10.9434
正白旗	-10.9434
到任	-10.9435
猾	-10.9435
合而	-10.9436
其罪	-10.9436
及卒	-10.9436
聞喜	-10.9437
吳王	-10.944
折銀	-10.9443
以父	-10.9445
薦之	-10.9446
二百餘	-10.9449
若此	-10.945
卦	-10.9451
求之	-10.9451
學田	-10.9451
孫氏	-10.9455
制度	-10.9457
精舍	-10.9459
舍利	-10.9462
瘴	-10.9463
水源	-10.9465
之衝	-10.9467
徙治	-10.9468
聞而	-10.947
東接	-10.947
以西	-10.9473
方山	-10.9476
華嚴	-10.9478
之區	-10.9478
風吹	-10.948
餘黨	-10.948
單于	-10.9481
前代	-10.9484
南二里	-10.9484
蒲城	-10.9485
澗水	-10.9485
迤邐	-10.9485
又於	-10.9485
第四	-10.9486
國也	-10.9488
在府城内	-10.9489
之罪	-10.9492
翼城	-10.9496
諭之	-10.9496
其意	-10.9496
褐	-10.9496
經理	-10.9497
成之	-10.9497
兵部侍郎	-10.9498
顥	-10.95
北五里	-10.9501
修復	-10.9502
撲	-10.9502
臨晉	-10.9502
石梁	-10.9503
等銀	-10.9504
伽	-10.9504
营	-10.9508
中山	-10.9508
龜兹	-10.9509
清流	-10.9509
中置	-10.9511
其墓	-10.9512
登臨	-10.9513
縫	-10.9513
本朝洪武	-10.9515
邵武	-10.9516
豈可	-10.9523
遂安	-10.9525
之美	-10.9526
武宗	-10.9526
膠州	-10.953
山陰	-10.953
龍洞	-10.9532
忠烈	-10.9533
故地	-10.9538
一路	-10.9541
一月	-10.9542
三司	-10.9543
祕	-10.9543
廷臣	-10.9547
泌	-10.9549
蒙古	-10.9549
忠節	-10.9552
七十五	-10.9553
之右	-10.9553
祉	-10.9555
屛	-10.9558
捌分	-10.9558
無人	-10.9558
普濟	-10.9565
竺	-10.9566
兎	-10.9569
數十萬	-10.957
三十七年	-10.957
嵗時	-10.9571
郡國志	-10.9572
來㑹又	-10.9576
兇	-10.9578
其源	-10.9578
鄧州	-10.9579
大饑	-10.9579
海陽人	-10.9581
奉使	-10.9582
碑文	-10.9586
萬頃	-10.9586
府知府	-10.9587
流注	-10.9587
猝	-10.959
田賦	-10.9592
教子	-10.9592
今裁	-10.9593
腴	-10.9596
建祠	-10.9596
所見	-10.9596
妻姚氏	-10.9597
倅	-10.9598
以給	-10.9599
流合	-10.9603
姥	-10.9604
知縣李	-10.9604
吏部侍郎	-10.9604
之文	-10.9607
璿	-10.9609
王世	-10.961
西來	-10.9612
八日	-10.9613
何也	-10.9616
拖	-10.9616
卯	-10.9617
三十餘年	-10.9617
御史大夫	-10.9618
赭	-10.9618
泉州	-10.9619
同官	-10.9621
越州	-10.9625
𤼵	-10.9626
鶯	-10.9626
愆	-10.9627
唐開元	-10.9627
東川	-10.9629
久矣	-10.9632
之女	-10.9636
今改	-10.9639
丑	-10.964
山莊	-10.9641
都指揮使	-10.9641
副榜	-10.9644
一千三百	-10.9644
衣食	-10.9648
神龍	-10.9649
其舊	-10.9649
以詩	-10.9649
肅然	-10.965
漕渠	-10.9651
氏王	-10.9651
家河	-10.9655
覧	-10.9656
事親	-10.9657
潼闗	-10.9657
氏張	-10.9658
自給	-10.9659
秋風	-10.9661
三年建	-10.9665
貳分	-10.9665
錠	-10.9667
慈谿	-10.9667
紫陽	-10.9672
戾	-10.9673
四十七	-10.9682
閩縣人	-10.9682
撫臣	-10.9683
斫	-10.9684
成帝	-10.9687
山林	-10.9687
妥	-10.9688
犢	-10.9688
百人	-10.9688
丁亥	-10.9689
奈	-10.969
王安石	-10.9696
不常	-10.9696
常有	-10.9696
府界	-10.9697
東為	-10.9699
)□(	-10.9699
執政	-10.9699
具題	-10.9701
言者	-10.9702
始皇	-10.9703
瑋	-10.9711
迄今	-10.9711
不利	-10.972
以居	-10.9721
蒞	-10.9721
伍分	-10.9725
里西至	-10.9727
琢	-10.9729
度支	-10.9733
梓潼	-10.9734
刦	-10.9736
嵗月	-10.9736
大中祥符	-10.9738
梅花	-10.974
復設	-10.9743
在州西北	-10.9744
戀	-10.9746
三載	-10.9747
經厯	-10.9748
奏議	-10.9748
屑	-10.9749
丁未	-10.9751
譬	-10.9752
溟	-10.9753
祔	-10.9754
分别	-10.9755
復有	-10.9758
濟源	-10.9759
惇	-10.976
吏目	-10.976
副都御史	-10.976
遷於	-10.9761
郡國	-10.9765
字君	-10.9766
孫權	-10.9769
不事	-10.977
書院在	-10.9772
壹分	-10.9773
泠	-10.9775
和州	-10.9775
大寧	-10.9776
平之	-10.9776
雖然	-10.9776
制置使	-10.9776
拙	-10.9779
金谿	-10.9781
因以名	-10.9781
不朽	-10.9783
人物志	-10.9783
合肥	-10.9783
翺	-10.9785
一毫	-10.9787
擄	-10.9788
寧逺	-10.9788
丹徒人	-10.9789
氏俱	-10.979
大都	-10.9796
迭	-10.9797
土産	-10.9799
守備一員	-10.98
在任	-10.9801
嘉善	-10.9802
開河	-10.9805
東安	-10.9807
一面	-10.981
慚	-10.9821
妻葉氏	-10.9821
陸分	-10.9823
臨淄	-10.9823
之術	-10.9826
方輿	-10.9828
琉璃	-10.9828
甯	-10.9833
都察院	-10.9836
方畧	-10.9837
愛之	-10.9842
書曰	-10.9843
北魏	-10.9845
馮翊	-10.9847
廼	-10.9849
諸縣	-10.9849
部尚書	-10.9851
褚	-10.9852
四百里	-10.9853
醒	-10.9854
流出	-10.9855
僖	-10.9857
三十一	-10.9858
樞密	-10.986
瓌	-10.986
姑蘇	-10.9861
伊犂	-10.9861
汧	-10.9862
北地	-10.9863
珩	-10.9864
故其	-10.9864
永樂間	-10.9865
世謂之	-10.9865
紀事	-10.9866
長山	-10.9866
河防	-10.9867
閬	-10.9868
開寶	-10.9869
洞中	-10.9876
塍	-10.988
數人	-10.9881
肆分	-10.9881
大溪	-10.9882
蟻	-10.9883
新豐	-10.9885
南向	-10.9888
台州府志	-10.989
以其地	-10.9891
步戰兵	-10.9894
不甚	-10.9894
媚	-10.9897
翦	-10.9897
孽	-10.9899
南巡	-10.9902
嘉興府志	-10.9905
尚未	-10.9906
山多	-10.9906
瘁	-10.9911
捍禦	-10.9918
五十四	-10.9919
婺州	-10.992
囂	-10.9921
衝決	-10.9923
源自	-10.9925
家溝	-10.9925
西門外	-10.9926
東南隅	-10.9929
秦漢	-10.993
諸部	-10.9931
實為	-10.9931
流涕	-10.9932
酷	-10.9933
皇太后	-10.9933
飲酒	-10.9934
諫議大夫	-10.9934
十里至	-10.9938
皷	-10.994
澮	-10.994
四十三	-10.9943
砥	-10.9943
騫	-10.9943
嘗有	-10.9943
甲寅	-10.9943
峯巒	-10.9945
所轄	-10.9946
輓	-10.9947
饌	-10.9948
不倦	-10.995
之書	-10.9951
穰	-10.9956
苞	-10.9956
所據	-10.9957
荒蕪	-10.9957
分兵	-10.9959
宛平	-10.996
折色	-10.996
餓	-10.9961
偷	-10.9962
氛	-10.9963
分巡	-10.9963
西溪	-10.9964
去後	-10.9965
壹萬	-10.9966
峯山	-10.9967
淖爾	-10.997
偈	-10.9972
妻林氏	-10.9973
五十八	-10.9973
文明	-10.9974
河身	-10.9974
羣山	-10.9974
功臣	-10.9978
在府治西	-10.9979
渰	-10.9981
河橋	-10.9982
倐	-10.9986
二百六十	-10.9986
蕙	-10.9988
無定	-10.9989
開平	-10.999
賢祠	-10.9991
籬	-10.9992
沿江	-10.9992
塋	-10.9993
虬	-10.9993
旂	-10.9993
一家	-10.9993
吉安	-10.9994
存焉	-10.9995
俠	-10.9997
匝	-10.9997
莆田	-10.9997
生平	-10.9998
四人	-11
三名	-11.0002
正徳間	-11.0003
介休	-11.0003
之弟	-11.0005
江流	-11.0005
其心	-11.0007
殖	-11.0011
滁州	-11.0012
決口	-11.0017
五六	-11.0018
為亂	-11.0018
教化	-11.0021
安民	-11.0023
二百三十	-11.0023
骸	-11.0023
皋	-11.0025
至京師	-11.0026
力學	-11.0027
燮	-11.0028
各州縣	-11.0029
司農	-11.0031
舊唐書	-11.0033
之遺	-11.0033
新淦	-11.0034
師曰	-11.0035
瑕	-11.0035
噫	-11.0036
以故	-11.0037
無為	-11.0039
鎮撫	-11.004
建元	-11.0043
鶚	-11.0045
十分	-11.0046
侍衛	-11.0049
曙	-11.0052
我朝	-11.0053
之家	-11.0053
乾隆四十	-11.0057
熈寧	-11.0057
江寧人	-11.0058
光祿	-11.0058
少有	-11.0059
佟	-11.0062
琅	-11.0062
來朝	-11.0065
召還	-11.0067
以東	-11.0074
何所	-11.0076
憾	-11.0076
庚戌	-11.0076
祜	-11.008
薫	-11.0081
語曰	-11.0082
其故	-11.0084
兵備道	-11.0085
貿易	-11.0086
水上	-11.0088
庶吉士	-11.009
猶未	-11.0091
先登	-11.0094
𨗳	-11.0094
者悉	-11.0094
羅山	-11.0097
再拜	-11.0098
隕	-11.01
始建	-11.0102
之交	-11.0106
太保	-11.0108
有水	-11.0109
北四十里	-11.0119
使之	-11.0122
編審	-11.0123
雲夢	-11.0125
京兆尹	-11.0125
莒	-11.0127
公曰	-11.0128
盱眙	-11.0129
撫州	-11.013
蜀郡	-11.0131
院在	-11.014
河合	-11.014
擕	-11.0141
五卷	-11.0143
攤	-11.0145
鄭州	-11.0146
祠祀	-11.0147
内閣	-11.0148
珏	-11.0149
世之	-11.015
惕	-11.0151
三百餘里	-11.0152
閫	-11.0153
得失	-11.0154
伍釐	-11.0154
馥	-11.0155
福清	-11.0156
樽	-11.0156
矣其	-11.0157
窄	-11.0161
泛溢	-11.0161
二百七十	-11.0162
敎授	-11.0162
鎮南	-11.0164
性至孝	-11.0167
贓	-11.0167
五十六	-11.0168
鄜州	-11.0169
後主	-11.0172
芹	-11.0176
安吉	-11.0178
不改	-11.018
東湖	-11.0185
孕	-11.0186
相率	-11.0187
新都	-11.0187
宣宗	-11.0189
中牟	-11.0191
等州	-11.0191
字彦	-11.0192
仞	-11.0193
忻州	-11.0194
遵義	-11.0197
僉都御史	-11.0198
都昌	-11.0199
後又	-11.0202
流寓	-11.0202
池州	-11.0205
注于	-11.0205
两	-11.0212
番禺	-11.0213
加意	-11.0215
搏	-11.0216
凜	-11.0216
妻謝氏	-11.0216
寖	-11.0217
寳應	-11.0219
夕陽	-11.0221
龍游	-11.0221
汭	-11.0221
功徳	-11.0222
懐逺	-11.0225
崇禎間	-11.0225
此水	-11.0226
泣曰	-11.0226
禆	-11.0227
南十五里	-11.0229
南下	-11.0234
泳	-11.0235
嶺下	-11.0236
歴年	-11.0237
咽喉	-11.0237
夜郎	-11.0238
􁇢	-11.0239
郡廢	-11.0241
浦江	-11.0245
築室	-11.0247
流民	-11.0249
達巴	-11.0249
輕重	-11.0252
以北	-11.0252
徳化	-11.0253
合於	-11.0253
松潘	-11.0253
吳淞江	-11.0255
别有	-11.0255
不獲	-11.0256
門曰	-11.0257
遯	-11.0257
睢州	-11.0259
險要	-11.0259
於天	-11.026
其流	-11.0261
陽曲	-11.0264
富順	-11.0264
明皇	-11.0265
持節	-11.0266
木為	-11.0266
東南流入	-11.0267
炊	-11.0268
和州人	-11.0268
作詩	-11.0269
孝經	-11.0269
又自	-11.0269
乙丑	-11.0269
則又	-11.027
清源	-11.027
霍山	-11.0271
御製詩	-11.0274
經始	-11.0276
奉新	-11.0277
笑曰	-11.0279
尖山	-11.0279
氊	-11.028
肆百	-11.0282
可見	-11.0283
木蘭	-11.0284
若不	-11.0285
舉於鄉	-11.0286
五名	-11.0286
神祠	-11.0286
轡	-11.0291
盡孝	-11.0293
社學	-11.0294
規模	-11.0297
靈臺	-11.0298
當世	-11.0298
遴	-11.03
隰	-11.0302
鹽池	-11.0303
數千人	-11.0304
天井	-11.0308
己酉	-11.0312
土城	-11.0313
不待	-11.0315
一十八	-11.0315
事者	-11.0316
妻方氏	-11.032
湧出	-11.0321
不知所	-11.0326
信陽	-11.0328
四十餘	-11.033
謂此	-11.0331
彭蠡	-11.0332
相國	-11.0333
毫有竒	-11.0333
而終	-11.0333
兩廡	-11.0334
為侯國	-11.0334
布哈	-11.0335
廬墓三年	-11.0336
大成	-11.0339
寧波	-11.034
縣城内	-11.0341
兼管	-11.0341
其前	-11.0343
寺後	-11.0344
詹事	-11.0348
各縣	-11.0348
接界	-11.0349
二年改	-11.0353
長官	-11.0354
宣王	-11.0355
大庾	-11.0357
繁昌	-11.0359
我皇上	-11.036
搗	-11.0361
青田	-11.0363
峭壁	-11.0367
刪	-11.0367
真觀	-11.0372
之要	-11.0373
縣交界	-11.0373
之左	-11.0375
蹙	-11.0376
折而西	-11.0378
之理	-11.0379
蠻夷	-11.0379
於河	-11.0379
而逝	-11.0383
嘉靖初	-11.0384
參差	-11.0384
謂曰	-11.0384
阿爾	-11.0389
南八十里	-11.0392
澆	-11.0393
秦檜	-11.0397
是故	-11.0401
委官	-11.0401
妻馮氏	-11.0401
南平	-11.0403
久廢	-11.0404
六日	-11.0404
泰安	-11.0406
婦女	-11.0407
曰君	-11.0411
炬	-11.0411
建中	-11.0415
在府西	-11.0417
東宫	-11.0419
㕘議	-11.042
泖	-11.042
告歸	-11.0422
不測	-11.0423
江中	-11.0424
之聲	-11.0425
五十九	-11.0426
之說	-11.0426
己丑	-11.0429
屹	-11.043
五人	-11.0431
又按	-11.0434
靡不	-11.0435
湖山	-11.0436
寺有	-11.0438
厄	-11.0438
而不知	-11.0443
之異	-11.0448
形似	-11.0449
可考	-11.0451
桐鄉	-11.0451
東行	-11.0452
洩水	-11.0452
察罕	-11.0454
支流	-11.0457
巫山	-11.046
北十里	-11.0461
翀	-11.0463
齧	-11.0465
之路	-11.0465
慙	-11.0465
蕭然	-11.0466
寐	-11.0466
溺死	-11.0469
以獻	-11.047
萬一	-11.047
塾	-11.047
進士第	-11.0471
武后	-11.0471
在州東北	-11.0472
中書令	-11.0472
靖康	-11.0472
諸公	-11.0473
臨淮	-11.0477
劵	-11.0478
興學	-11.0482
無遺	-11.0483
法師	-11.0484
諸王	-11.0486
武岡	-11.0487
悞	-11.0488
徃徃	-11.0491
丙申	-11.0495
府州縣	-11.0495
大統	-11.0495
嘉靖浙江通志	-11.0499
先師	-11.05
八卷	-11.05
於此置	-11.0502
浹	-11.0505
也後	-11.0508
雍正十二年	-11.051
不致	-11.0511
南三里	-11.0511
唐置	-11.0511
户部尚書	-11.0512
懈	-11.0514
魚臺	-11.0516
以上俱	-11.0516
正紅旗	-11.0518
慿	-11.0518
通濟	-11.0519
土貢	-11.0524
河出	-11.0525
始置	-11.0525
壬寅	-11.0529
廣南	-11.0532
軰	-11.0533
一支	-11.0537
阡	-11.0537
三釐	-11.0537
隄岸	-11.054
名為	-11.054
舊治	-11.0541
太平寰宇記	-11.0541
組	-11.0543
唐初	-11.0545
貧民	-11.0546
而至	-11.0547
青浦	-11.0548
明道	-11.0548
數千里	-11.0551
釁	-11.0552
嵗貢	-11.0559
鉅野	-11.0561
南十里	-11.0562
冥	-11.0569
泉在	-11.0572
夫役	-11.0573
乖	-11.0574
妻宋氏	-11.0575
銑	-11.0575
不暇	-11.0575
聿	-11.0576
萬壽	-11.0577
與兄	-11.0577
本末	-11.0577
始得	-11.0578
五十餘	-11.0579
又北逕	-11.0579
於前	-11.058
洪州	-11.0581
潁州	-11.0581
搶	-11.0582
安慶	-11.0582
主之	-11.0583
霏	-11.0584
漢末	-11.0586
龜山	-11.059
潼川	-11.0592
興平	-11.0593
大學	-11.0593
懸崖	-11.0595
睡	-11.0597
覔	-11.0597
上自	-11.0598
黄浦	-11.0598
建置	-11.0601
領兵	-11.0603
潼關	-11.0606
有此	-11.0607
明經	-11.0609
朝邑	-11.061
鑲藍旗	-11.0613
五十五	-11.0613
二郡	-11.0616
麒	-11.0617
企	-11.0619
止之	-11.0622
寥	-11.0622
隐	-11.0622
參將	-11.0625
宸濠	-11.0628
兖州	-11.0629
北十五里	-11.0631
而民	-11.0634
黼	-11.0634
有二一在	-11.0638
賠	-11.0639
龍川	-11.0641
正義	-11.0644
固原	-11.0647
事母	-11.0648
郴	-11.065
辰州	-11.065
人康	-11.0651
踈	-11.0652
衡州	-11.0652
圈	-11.0653
四字	-11.0656
丨	-11.0661
呉縣人	-11.0661
流冦	-11.0665
家山	-11.0667
左營	-11.067
二百一十	-11.0671
纘	-11.0671
水泉	-11.0672
東向	-11.0673
城固	-11.0675
三百五十	-11.0676
落成	-11.0678
唐宋	-11.0679
長吏	-11.068
題旌冊年二十	-11.068
以南	-11.0683
若有	-11.0683
請以	-11.0683
為諸生	-11.0684
永清	-11.0684
鎻	-11.0686
尋改	-11.0686
北七十里	-11.0688
熙寕	-11.0691
其志	-11.0692
罷歸	-11.0693
何為	-11.0693
廹	-11.0695
謡	-11.0696
鄣	-11.0697
光明	-11.0698
約束	-11.0698
秀水	-11.07
二十卷	-11.0701
廬陵人	-11.0701
路總管	-11.0704
增修	-11.0705
淸	-11.071
無恙	-11.071
其妻	-11.071
一十三	-11.0712
章邱	-11.0714
孝行	-11.0718
大道	-11.072
椽	-11.0722
古者	-11.0722
風流	-11.0724
沂州	-11.0725
九曲	-11.0726
自東	-11.0726
綿亘	-11.0729
宋初	-11.0729
不顧	-11.073
一千八百	-11.073
即日	-11.073
蕭山	-11.0731
明永樂	-11.0735
之命	-11.0738
等事	-11.074
十里有	-11.0741
颺	-11.0743
縣也	-11.0743
洱	-11.0743
廬州	-11.0746
湘潭	-11.0748
不問	-11.0748
旬日	-11.0749
端平	-11.075
翹	-11.0753
相見	-11.0754
西境	-11.0754
巨浸	-11.0756
成都府	-11.0758
風濤	-11.0759
烏程人	-11.0759
戯	-11.076
四十三年	-11.076
之半	-11.0763
無益	-11.0764
濰	-11.0765
玖分	-11.0767
乾坤	-11.0768
撫之	-11.077
當其	-11.077
畵	-11.0772
楚雄	-11.0772
樞宻	-11.0772
致仕歸	-11.0773
子女	-11.0778
夏侯	-11.078
縣界七十里	-11.0782
百世	-11.0787
懽	-11.0789
侣	-11.0789
迦	-11.0792
北門外	-11.0793
南郡	-11.0795
亹	-11.0797
一千四百	-11.0799
滁	-11.0799
貺	-11.0802
其俗	-11.0804
亭在	-11.0805
筮	-11.0805
實錄	-11.0808
復建	-11.081
車馬	-11.0811
而又	-11.0813
一自	-11.0813
元魏	-11.0813
黃河	-11.0815
鷺	-11.0815
太廟	-11.0816
以避	-11.0816
盧氏	-11.0819
寰宇記在	-11.0819
為界	-11.082
官一員	-11.0821
瀝	-11.0825
大梁	-11.0825
兵三	-11.0825
二百九十	-11.0825
棚	-11.0826
三峯	-11.0827
蹇	-11.0829
恰	-11.0829
二府	-11.083
堂記	-11.0831
畦	-11.0832
上方	-11.0833
盪	-11.0833
祭祀	-11.0836
太原府	-11.0836
簇	-11.0838
滚	-11.0839
頥	-11.0839
窻	-11.084
農桑	-11.084
十有二	-11.084
奏聞	-11.0841
摹	-11.0841
綏徳	-11.0842
澱	-11.0844
鍾山	-11.0845
薊州	-11.0848
遣兵	-11.0848
開國	-11.0851
棧	-11.0852
從來	-11.0853
洞口	-11.0855
多方	-11.0856
𤣥宗	-11.0856
守貞	-11.0859
現在	-11.0863
城隍	-11.0865
於後	-11.0866
久而	-11.0868
富民	-11.0869
濟運	-11.0869
鈴	-11.0871
之師	-11.0872
之例	-11.0873
矣又	-11.0873
五十七	-11.0873
州守	-11.0874
價銀	-11.0875
大清	-11.088
其他	-11.0882
於時	-11.0882
滎澤	-11.0882
生民	-11.0883
乙亥	-11.0883
賊首	-11.0883
之次	-11.0883
己亥	-11.0884
淄川	-11.0886
魄	-11.0887
一巻	-11.0887
横塘	-11.0888
聖人之	-11.0888
其身	-11.089
軼	-11.089
人許字	-11.0891
怙	-11.0892
隴州	-11.0892
酈	-11.0893
不載	-11.0896
第十	-11.0898
商人	-11.09
妻羅氏	-11.0901
澧州	-11.0902
𥙷	-11.0904
釡	-11.0907
侍御	-11.0909
望江	-11.091
為小	-11.0914
裨	-11.0914
為郡	-11.0914
氏李	-11.0917
建議	-11.0918
東郡	-11.0918
民甚	-11.092
牡丹	-11.0922
州事	-11.0924
牕	-11.0925
王文	-11.0925
卉	-11.0925
綱目	-11.0929
五十三	-11.0934
揚子	-11.0934
為之記	-11.0938
泝	-11.0938
風土	-11.0939
大安	-11.094
巍	-11.094
妻錢氏	-11.0941
固始	-11.0942
孟津	-11.0943
肅宗	-11.0944
之政	-11.0947
自守	-11.0948
冤	-11.0948
將兵	-11.0949
金壇人	-11.0949
天池	-11.095
石柱	-11.0951
三十九年	-11.0952
黄州	-11.0953
琯	-11.0954
而不能	-11.0957
辛巳	-11.0959
江海	-11.0959
輿地	-11.0959
戸部	-11.0962
磁	-11.0962
謐	-11.0963
䨇	-11.0963
龍興	-11.0963
沿河	-11.097
傲	-11.097
不聞	-11.0971
流亡	-11.0972
赤城	-11.0974
不若	-11.0979
嶷	-11.098
少孤	-11.098
年九十	-11.0982
十五日	-11.0982
釘	-11.0984
上源	-11.0985
襄公	-11.0986
汶水	-11.0987
襄陵	-11.0989
險阻	-11.0989
六十五	-11.0992
因其	-11.0996
在舊	-11.0997
千萬	-11.0998
儁	-11.0998
列傳	-11.1002
曽孫	-11.1006
南方	-11.1007
邱縣	-11.1008
設法	-11.1009
北來	-11.1013
四十四年	-11.1014
定逺	-11.1018
涪州	-11.1018
塌	-11.1018
縣故城北	-11.1022
凡有	-11.1024
鄠縣	-11.1027
里至	-11.1027
因而	-11.1027
明史	-11.103
攻之	-11.1031
三十餘里	-11.1034
二十餘年	-11.1035
通海	-11.1036
臨安府	-11.1036
豳	-11.1037
額設	-11.1037
狄道	-11.104
南通	-11.1041
鞫	-11.1042
廵檢	-11.1043
上京	-11.1044
北五十里	-11.1044
所為	-11.1045
今治	-11.1046
漕糧	-11.1048
新喻	-11.1051
之流	-11.1051
人謂	-11.1055
嘗以	-11.1055
商邱	-11.1055
東北隅	-11.1055
入覲	-11.1056
所司	-11.1058
蓼	-11.1058
西三十里	-11.1058
回部	-11.1062
用事	-11.1062
所當	-11.1063
行事	-11.1066
受業	-11.1068
堯舜	-11.107
賊衆	-11.107
崗	-11.1072
青陽	-11.1073
天命	-11.1074
沆	-11.1074
浮屠	-11.1078
吳縣	-11.1081
少師	-11.1081
在寕	-11.1081
奔走	-11.1081
嘉魚	-11.1086
儀封	-11.1086
漢陽人	-11.1089
海防	-11.109
笠	-11.1093
一峯	-11.1093
共長	-11.1095
東莞	-11.1098
迤西	-11.1099
石埭	-11.1099
焉耆	-11.11
縊	-11.11
州都督	-11.1102
新羅	-11.1103
五湖	-11.1104
城上	-11.1108
灾	-11.1108
皆可	-11.1109
卻	-11.1109
曰若	-11.1111
樟	-11.1113
師道	-11.1116
千百	-11.1117
蘋	-11.1119
南逕	-11.112
人咸	-11.1121
四書	-11.1121
名其	-11.1121
杜門	-11.1121
浮橋	-11.1122
本路	-11.1122
地丁	-11.1123
人才	-11.1123
羙	-11.1123
貟	-11.1126
績溪	-11.1129
八員	-11.113
第進士	-11.1133
六十四	-11.1134
題詩	-11.1134
人家	-11.1138
堞	-11.1138
仁宗時	-11.1139
耒	-11.1141
湄	-11.1141
兵燹	-11.1145
可汗	-11.1147
字徳	-11.1148
存者	-11.1149
下臨	-11.1149
省城	-11.1151
眉州	-11.1151
漁陽	-11.1156
張掖	-11.1156
盍	-11.1158
高平	-11.1158
爾哈	-11.1159
堙	-11.1161
壬戌	-11.1165
赤水	-11.1166
所由	-11.1166
吳江人	-11.1169
四門	-11.117
礙	-11.1173
黄梅	-11.1175
矗	-11.1175
傳曰	-11.1176
禮義	-11.1176
𦂳	-11.1177
富陽	-11.1179
是非	-11.118
府事	-11.1182
一百一十里	-11.1182
潭州	-11.1182
溝水	-11.1182
規制	-11.1183
修治	-11.1184
凛	-11.1184
西華	-11.1185
寒暑	-11.1192
幕府	-11.1193
城市	-11.1193
平涼	-11.1198
金剛	-11.1204
州同知	-11.1205
笏	-11.1206
七十餘	-11.1206
廣德	-11.1206
安志	-11.1207
白河	-11.1208
先生之	-11.121
中都	-11.121
蒐	-11.1211
戰功	-11.1214
登州	-11.1218
不自	-11.122
山之麓	-11.122
貳釐	-11.122
鉅鹿	-11.1222
苟	-11.1224
理宗	-11.1224
刑部主事	-11.1224
者矣	-11.123
五員	-11.123
雪山	-11.1232
楮	-11.1235
黯	-11.1235
韶州	-11.1236
運司	-11.1239
西南隅	-11.1241
孝感人	-11.1242
未盡	-11.1246
烏蘇	-11.1247
茶陵	-11.1251
圉	-11.1251
置屬	-11.1252
受其	-11.1254
句容	-11.1257
寶應	-11.1258
未㡬	-11.1259
不得已	-11.126
理學	-11.1261
世居	-11.1261
西川	-11.1263
行於世	-11.1263
六卷	-11.1263
箋	-11.1264
其害	-11.1264
諮	-11.1264
記之	-11.1265
江浦	-11.1267
者謂	-11.1268
沂水	-11.1269
乾州	-11.127
東三十里	-11.1272
紘	-11.1274
佛像	-11.1275
西城	-11.1276
四十一	-11.1278
五代時	-11.1281
答曰	-11.1283
河入	-11.1283
平山	-11.1284
出家	-11.1285
世家	-11.1286
三百二十	-11.1287
禀	-11.1287
至孝	-11.1292
汊	-11.1293
不幸	-11.1293
色如	-11.1299
之議	-11.1301
宫殿	-11.1301
使臣	-11.1302
景徳	-11.1302
開府	-11.1303
民以	-11.1306
選貢	-11.1309
上帝	-11.131
淘	-11.1311
下至	-11.1317
江隂人	-11.1317
鹽鐵	-11.1317
著述	-11.1318
江漢	-11.1322
百家	-11.1322
建隆	-11.1323
旌其門	-11.1323
總管府	-11.1323
踰年	-11.1323
轂	-11.1324
北八十里	-11.1325
一十七	-11.1325
碭山	-11.1325
大風	-11.1326
所執	-11.1327
玉女	-11.1328
玘	-11.1329
武陽	-11.133
昶	-11.133
常平倉	-11.1331
無虞	-11.1331
長生	-11.1334
玖釐	-11.1337
詳名宦	-11.1337
己未	-11.1338
題准	-11.1339
侯景	-11.1341
起運	-11.1343
汝州	-11.1343
巴東	-11.1349
景帝	-11.1351
陳州	-11.1354
太子太保	-11.1354
元嘉	-11.1357
囑	-11.1359
裙	-11.1363
文選	-11.1363
叄百	-11.1365
唐末	-11.1369
孔氏	-11.1369
繋	-11.1369
司道	-11.1369
實徵	-11.137
水從	-11.1378
攔	-11.1379
南路	-11.138
雲龍	-11.1381
避暑	-11.1382
清白	-11.1383
妻唐氏	-11.1384
驍	-11.1384
修理	-11.1385
家渡	-11.1386
以養	-11.1386
王道	-11.1388
它	-11.1389
舊額	-11.1391
曾孫	-11.1391
字季	-11.1391
尋以	-11.1392
太平人	-11.1393
江寜	-11.1393
東萊	-11.1395
利州	-11.1396
醴	-11.1398
青溪	-11.1398
醮	-11.14
一錢	-11.14
炙	-11.1401
直言	-11.1401
天水	-11.1402
疑即	-11.1405
尤甚	-11.1405
長橋	-11.1405
二首	-11.1406
武威	-11.1406
東井	-11.1406
縣本	-11.141
改適	-11.1412
肝	-11.1412
題曰	-11.1414
元龜	-11.1415
進士累官	-11.1415
府通判	-11.1416
犒	-11.1416
洄	-11.142
在長安	-11.142
乎其	-11.142
府君	-11.1423
長慶	-11.1426
酋長	-11.1427
三百四十	-11.1429
須臾	-11.1429
郭璞	-11.1429
漢川	-11.143
奪其	-11.1432
為我	-11.1433
當以	-11.1436
南史	-11.1438
蹄	-11.1439
聫	-11.1442
自持	-11.1443
治行	-11.1446
宣府	-11.1447
子山	-11.1448
□(	-11.145
香爐	-11.1453
之虞	-11.1454
為賊所	-11.1455
中州	-11.1456
户部侍郎	-11.146
謗	-11.1461
廣武	-11.1462
經制	-11.1463
北向	-11.1465
萬嵗	-11.1466
鄂爾	-11.1472
壹釐	-11.1474
羸	-11.1475
燼	-11.1476
浮山	-11.1476
講堂	-11.1477
故居	-11.1478
改正	-11.1478
以石	-11.1484
票	-11.1485
十九年任	-11.1486
黄岡	-11.1487
嘉定人	-11.1488
銘曰	-11.1489
焚香	-11.1492
侍講	-11.1492
萇	-11.1494
乃得	-11.1496
二曰	-11.1496
贄	-11.1498
文正	-11.1499
服其	-11.15
珊	-11.1502
羈	-11.1503
携	-11.1504
噶爾	-11.1505
吳中	-11.1507
水深	-11.1508
責成	-11.1509
遂遇害	-11.151
陳公	-11.151
則以	-11.1513
雜記	-11.1513
屏山	-11.1514
三等	-11.1514
者甚衆	-11.1515
何必	-11.1518
瀟	-11.1518
崇德	-11.1519
溶	-11.1522
初屬	-11.1524
年二十五	-11.1524
以俟	-11.1529
貞觀元年	-11.153
趙州	-11.153
西二十里	-11.1531
其旁	-11.1532
非常	-11.1532
成熟	-11.1532
蓄水	-11.1534
大呼	-11.1535
一千六百	-11.1536
縣城東	-11.1538
者或	-11.1539
杰	-11.1542
圜	-11.1543
工詩	-11.1545
北行	-11.1545
一新	-11.1547
錦衣	-11.1548
法華	-11.1548
孜	-11.1553
不知何	-11.1554
開禧	-11.1555
修武	-11.1556
縣城南	-11.1557
搖	-11.1561
之狀	-11.1562
高郵	-11.1562
瓊州	-11.1562
所作	-11.1563
桐城	-11.1566
馬邑	-11.1566
悌	-11.1568
所宜	-11.1568
遼東人	-11.157
徳清	-11.1572
犂	-11.1573
城垣	-11.1574
阨	-11.1574
龍王廟	-11.1576
里中	-11.1576
渤	-11.1577
皇考	-11.1577
以達	-11.1577
鉛山	-11.1578
兄子	-11.1579
耕種	-11.1584
軍門	-11.1586
橋東	-11.1588
二十萬	-11.1589
妻顧氏	-11.159
舒城人	-11.1591
在府東	-11.1591
壬申	-11.1592
不逺	-11.1593
永州	-11.1593
蘭谿	-11.1593
妻韓氏	-11.1594
下獄	-11.1595
吳人	-11.1598
爨	-11.1601
櫃	-11.1602
逈	-11.1602
新開	-11.1604
東出	-11.1606
寗	-11.1608
至本州界	-11.1609
北三里	-11.1611
癸卯	-11.1612
入山	-11.1613
凹	-11.1613
中郎將	-11.1614
所害	-11.1617
一千七百	-11.1617
開元中	-11.1619
陜西人	-11.1621
肆釐	-11.1622
光化	-11.1625
苻	-11.1626
蘄州	-11.1627
棄官	-11.163
僅存	-11.1633
福建人	-11.1634
百歩	-11.1636
摭	-11.1637
門三	-11.1638
入於海	-11.1638
白茆	-11.1639
煌	-11.1639
皇太子	-11.164
本朝雍正	-11.164
怪石	-11.1642
炯	-11.1643
芽	-11.1643
無餘	-11.1643
橋西	-11.1645
年少	-11.1645
民兵	-11.1647
直學士	-11.165
可通	-11.1655
濼	-11.1655
荆溪	-11.1656
縣東三十里	-11.1657
題詠	-11.1657
扁曰	-11.1657
字汝	-11.1658
累官至	-11.1658
以病	-11.166
天錫	-11.166
漯	-11.1662
廿	-11.1665
沿革	-11.1669
保寧	-11.1671
嵇	-11.1671
儀門	-11.1672
當作	-11.1673
而未	-11.1673
曹操	-11.1674
出守	-11.1674
漢時	-11.1674
劉公	-11.1674
南一里	-11.1675
件	-11.1677
喀喇	-11.1677
岢嵐	-11.168
知縣劉	-11.168
兗	-11.168
觀者	-11.168
嘉泰	-11.168
窘	-11.1682
港口	-11.1683
南來	-11.1683
潁州人	-11.1683
堅守	-11.1684
字廷	-11.1688
艱難	-11.1689
今屬	-11.1691
朝貢	-11.1691
靈州	-11.1692
濂	-11.1695
妻蔡氏	-11.1695
永泰	-11.1696
德清	-11.1697
嵗久	-11.1697
生徒	-11.1698
籟	-11.1703
哥	-11.1704
蟾	-11.1704
歐陽修	-11.1704
之憂	-11.1704
宫中	-11.1705
平越	-11.1706
癸亥	-11.1706
飲之	-11.1706
攢	-11.1708
署在	-11.1709
龍井	-11.1709
措置	-11.1712
右副都御史	-11.1714
寳慶	-11.1714
獨不	-11.1715
縣西南三十里	-11.1715
衛所	-11.1717
廣信	-11.1719
司理	-11.172
信州	-11.172
五十二	-11.172
令其	-11.1721
沛縣	-11.1722
必先	-11.1724
師事	-11.1725
丐	-11.1726
稷山	-11.1727
縣東五十里	-11.1728
建文	-11.173
旱禱	-11.173
嵊	-11.173
自經死	-11.173
額徴	-11.1733
朱氏	-11.1735
葉爾羌	-11.1735
筒	-11.1736
洧	-11.1736
河南府	-11.1737
夜半	-11.1741
守令	-11.1746
武都	-11.1748
當在	-11.1748
尋復	-11.1748
仍為	-11.1748
從弟	-11.1752
晉陵	-11.1752
三四	-11.1752
儻	-11.1756
副總兵	-11.1757
禋	-11.1758
所能	-11.1759
皇祖	-11.1759
武林	-11.1759
十人	-11.176
三子	-11.1761
三字	-11.1761
則無	-11.1763
不去	-11.1768
趙汝	-11.1772
馬鞍山	-11.1772
筭	-11.1773
光禄	-11.1775
峩眉	-11.1777
武舉	-11.1778
庚申	-11.1779
涼州	-11.1779
服之	-11.1781
里南至	-11.1781
久不	-11.1781
嗣後	-11.1781
工費	-11.1782
有道	-11.1782
杪	-11.1784
正色	-11.1787
醫學	-11.1788
州總管	-11.1789
順治初	-11.179
初任	-11.1791
賡	-11.1791
臨河	-11.1791
水在	-11.1792
應劭曰	-11.1792
數尺	-11.1793
挑濬	-11.1794
考城	-11.1797
先聖	-11.1797
蝕	-11.1797
部左侍郎	-11.1798
太原人	-11.1803
縣故城西	-11.181
又東過	-11.1811
馬步戰守兵	-11.1812
不避	-11.1814
重脩	-11.1814
人正徳	-11.1816
酌量	-11.1818
盡禮	-11.1819
惶	-11.182
三年置	-11.1822
兑	-11.1822
相傳為	-11.1822
分水嶺	-11.1825
人幼	-11.1827
詔以	-11.1829
北一里	-11.1831
桐廬	-11.1832
嬴	-11.1832
擊賊	-11.1832
妻丁氏	-11.1833
定國	-11.1833
復舊	-11.1835
今有	-11.1839
執事	-11.184
簪	-11.1843
徳州	-11.1844
南面	-11.1844
歙縣	-11.1846
山陽人	-11.1847
祖母	-11.1849
夲	-11.185
五龍	-11.1854
田畝	-11.1854
癸巳	-11.1854
也此	-11.1854
忠祠	-11.1854
縣流入	-11.1857
見一	-11.1857
虞城	-11.1858
縣在	-11.1858
天地之	-11.1859
愉	-11.1859
晉王	-11.1862
萬古	-11.1862
成化杭州府志	-11.1863
岳州	-11.1864
四年置	-11.1864
河之水	-11.1864
鳩工	-11.1865
碣石	-11.1867
九龍	-11.1867
聞者	-11.1869
經義	-11.1873
箱	-11.1874
款	-11.1875
龍江	-11.1875
冩	-11.1877
接壌	-11.1877
並無	-11.1879
之語	-11.1881
猖獗	-11.1881
宏治	-11.1885
破賊	-11.1886
大路	-11.1889
本色糧	-11.1894
却之	-11.1895
得罪	-11.1901
鍊	-11.1901
外有	-11.1901
州為	-11.1902
曰昔	-11.1902
神之	-11.1903
進退	-11.1905
不時	-11.1905
目前	-11.1905
尚書令	-11.1906
鎮逺	-11.1907
修之	-11.1907
本年	-11.1909
梁天監	-11.1909
鎮西	-11.191
若是	-11.191
棲霞	-11.1911
可知	-11.1913
噐	-11.1914
順帝	-11.1914
黄山	-11.1914
民賴	-11.1916
武陟	-11.1919
鑿石	-11.1922
十六里	-11.1924
曰今	-11.1925
猶在	-11.1926
周三里	-11.1927
惟是	-11.1927
鄜	-11.1928
牛羊	-11.193
西向	-11.193
雍正十三年	-11.1932
筆帖式	-11.1933
道院	-11.1937
娛	-11.1939
徂	-11.194
竹山	-11.1941
嫡	-11.1942
八十四	-11.1943
昕	-11.1945
宗廟	-11.1946
伽藍	-11.1946
立祠祀之	-11.1949
移建	-11.195
相距	-11.1953
西寧	-11.1954
職官	-11.1954
徳興	-11.1955
而名	-11.1956
中江	-11.1959
西入	-11.196
鬰	-11.196
黠	-11.1961
蓄洩	-11.1963
東晉	-11.1963
喚	-11.1964
垢	-11.1966
縣西三十里	-11.1967
紛紛	-11.1968
洸	-11.1968
發兵	-11.1968
繳	-11.1969
鴻臚	-11.1971
河津	-11.1971
國人	-11.1973
所置	-11.1973
尅	-11.1975
東魏	-11.1976
水面	-11.1978
小河	-11.1979
郡唐屬	-11.1983
朂	-11.1984
隋志	-11.1984
邨	-11.1986
完顔	-11.1986
間道	-11.1987
能詩	-11.1989
賔客	-11.1991
蘭陵	-11.1993
靈泉	-11.1995
學道	-11.1996
郴州	-11.1998
笥	-11.2
周氏	-11.2001
多有	-11.2004
六名	-11.2005
安置	-11.2009
又東為	-11.2009
之源	-11.2014
金吾	-11.2015
課銀	-11.2016
倬	-11.2016
視事	-11.202
雍正十一年	-11.202
嵗饑	-11.2021
長治	-11.2024
駐兵	-11.2024
連州	-11.2024
嚴州	-11.2029
乆之	-11.2035
聊城	-11.2037
我兵	-11.2038
銅陵	-11.2042
不擾	-11.2042
亶	-11.2044
長安人	-11.2045
深五尺	-11.2046
一郡	-11.2046
分宜	-11.2047
二千石	-11.2047
傍有	-11.205
猗氏	-11.205
遼史	-11.2051
門户	-11.2053
狡	-11.2053
十四里	-11.2054
六萬	-11.2056
各處	-11.2056
緊	-11.2057
一等	-11.2057
各一員	-11.2057
辜	-11.2058
𢎞農	-11.2059
剌	-11.2061
隰州	-11.2061
贅	-11.2064
在府城西南	-11.2065
祲	-11.2066
繼之	-11.2067
挫	-11.2067
縣治南	-11.2067
橋下	-11.2068
里東北至	-11.2068
三百七十	-11.2069
澈	-11.2069
郤	-11.207
豈能	-11.2072
匹馬夫	-11.2073
蝦	-11.2073
賜今額	-11.2074
拔貢	-11.2075
有碑	-11.2076
母喪	-11.2076
様	-11.2077
隋唐	-11.2077
源流	-11.2078
墓誌	-11.2079
蚤	-11.2081
幄	-11.2081
北自	-11.2083
平樂	-11.2086
兊	-11.2088
莫測	-11.2093
不治	-11.2094
識者	-11.2096
羅浮	-11.2097
貢士	-11.21
詔書	-11.2104
史館	-11.2105
寺詩	-11.2106
東二十里	-11.2106
摶	-11.2108
石佛	-11.211
與民	-11.211
一十九	-11.2111
堂集	-11.2112
又西為	-11.2115
内黄	-11.2115
於石	-11.2117
縣出	-11.2121
自殺	-11.2121
殺賊	-11.2121
舫	-11.2122
大節	-11.2123
不法	-11.2126
追至	-11.2126
矣夫	-11.2128
上曰	-11.213
八十五	-11.2131
百三十里	-11.2132
南齊	-11.2134
鄉舉	-11.2135
行營	-11.2137
縣西北三十里	-11.2137
㑹於	-11.2138
四年建	-11.2139
霆	-11.214
武平	-11.214
膏腴	-11.2141
言事	-11.2142
衆皆	-11.2143
仭	-11.2144
苐	-11.2144
荼	-11.2144
蘇州府	-11.215
喉	-11.2151
金兵	-11.2151
劭	-11.2152
茅山	-11.2152
詡	-11.2153
對官	-11.2153
如生	-11.2154
東境	-11.2156
尤為	-11.2157
刑獄	-11.2158
相通	-11.2159
嫗	-11.2161
豁免	-11.2163
討平	-11.2165
琨	-11.2165
得道	-11.2167
北二里	-11.2167
縣尉	-11.2168
萊蕪	-11.2171
昌邑	-11.2172
儔	-11.2172
七星	-11.2172
百八十里	-11.2173
白蓮	-11.2175
高麗	-11.2177
舉兵	-11.2179
定陶	-11.2181
有光	-11.2184
團練	-11.2188
水又南	-11.2188
等書	-11.2189
艦	-11.2189
焉其	-11.219
舖兵	-11.2191
遂昌	-11.2192
酉陽	-11.2192
北通	-11.2193
板橋	-11.2193
有志	-11.2194
萬厯杭州府志	-11.2195
綿州	-11.2195
滋生	-11.2196
深廣	-11.2198
者惟	-11.2198
天聰	-11.2198
部右侍郎	-11.2199
妻蔣氏	-11.2201
兵攻	-11.2201
圖書	-11.2202
經流	-11.2204
篋	-11.2205
自今	-11.2209
道里	-11.221
寓居	-11.221
與諸	-11.2213
許州	-11.2214
官司	-11.2215
塞之	-11.2216
宗本紀	-11.222
早卒	-11.2221
揺	-11.2223
照磨	-11.2224
則為	-11.2228
元貞	-11.2229
捌百	-11.2229
鄉賢祠	-11.2232
海陵	-11.2234
粧	-11.2235
戊寅	-11.2235
何人	-11.2236
刑部侍郎	-11.2237
登山	-11.2237
狥	-11.2238
投井死	-11.2239
建寧	-11.2241
晁	-11.2241
張秋	-11.2242
珮	-11.2244
徐氏	-11.2245
宣撫	-11.2246
蟹	-11.2247
梢	-11.2249
緜	-11.2249
滄浪	-11.225
舟師	-11.225
鶴慶	-11.2253
自有	-11.2253
吉甫	-11.2255
時以	-11.2255
蔚州	-11.2256
不果	-11.2257
早寡	-11.2261
寰宇記云	-11.2262
中統	-11.2264
李元	-11.2266
大士	-11.2267
瓠	-11.2268
杞縣	-11.2268
當道	-11.2269
鬱林	-11.2269
男婦	-11.2272
宣撫司	-11.2272
至順	-11.2272
又逕	-11.2274
惠州	-11.2276
慶州	-11.2276
書之	-11.2278
諸司	-11.2279
之門	-11.2279
天山	-11.228
辛亥	-11.2281
憇	-11.2283
遺腹	-11.2283
左布政使	-11.2284
靖安	-11.2284
舟行	-11.2286
燎	-11.2286
寕府	-11.2289
來屬	-11.2289
皆出	-11.229
設立	-11.2293
哈達	-11.2293
四合	-11.2295
蹲	-11.2295
江津	-11.2295
妻余氏	-11.2296
居庸	-11.2297
虗	-11.2297
城樓	-11.2297
康熙二十	-11.2304
冬夏	-11.2305
淶	-11.2305
為業	-11.2309
師古曰	-11.2309
玲瓏	-11.231
待制	-11.2311
成王	-11.2311
不赴	-11.2314
殻	-11.2315
其形	-11.2315
盂縣	-11.2315
庚寅	-11.2315
酣	-11.2315
晉州	-11.2319
次之	-11.2321
舉人知	-11.2323
休寧	-11.2325
經此	-11.2327
盤踞	-11.233
水逕	-11.233
死節	-11.233
然也	-11.233
叁拾	-11.233
雅爾	-11.2337
絶粒	-11.2339
暄	-11.2339
賞罰	-11.2341
興學校	-11.2341
殆盡	-11.2341
巡視	-11.2342
小人	-11.2342
權貴	-11.2344
固辭	-11.2345
鶉	-11.2348
既成	-11.2352
六七	-11.2353
乃命	-11.2354
孝弟	-11.2355
行在	-11.2355
湖上	-11.2359
至徳	-11.2362
以法	-11.2364
一升	-11.237
服闋	-11.2372
新之	-11.2373
名勝	-11.2375
斡	-11.2377
慶陽	-11.2379
岷山	-11.2379
岔	-11.2379
邵陽	-11.2382
永年	-11.2386
項羽	-11.2386
學政	-11.2392
㵼	-11.2393
元年置	-11.2394
盤龍	-11.2395
清澗	-11.2396
甘州	-11.2396
軟	-11.2397
縣属	-11.2397
鄖陽	-11.2398
後屬	-11.2399
按察司	-11.2399
涿州	-11.2399
崇文	-11.24
金大定	-11.24
舉行	-11.2402
兩零	-11.2403
种	-11.2403
避兵	-11.2405
彤	-11.2406
弋	-11.2406
琵琶	-11.2407
均徭	-11.241
又東至	-11.2412
肅州	-11.2414
武鄉	-11.2414
時政	-11.242
一片	-11.242
珉	-11.2423
暴漲	-11.2424
宅在	-11.2424
千總二員	-11.2424
賜爵	-11.2424
一絲	-11.2425
該部	-11.2427
大司馬	-11.2428
子成立	-11.2428
嵌	-11.2428
糞	-11.2431
右僉都御史	-11.2433
丹陽人	-11.2433
九絲	-11.2434
不輟	-11.2435
以文	-11.2436
安能	-11.2436
逍遥	-11.2438
之官	-11.2438
北二十五里	-11.2439
戍守	-11.244
利之	-11.2441
瑣	-11.2442
南充	-11.2443
纂修	-11.2444
淮西	-11.2445
循吏	-11.2446
豈有	-11.2447
鳳山	-11.2447
積雪	-11.245
鑲	-11.2452
山後	-11.2453
金沙江	-11.2453
部郎	-11.2453
慤	-11.2453
社倉	-11.2453
迤東	-11.2455
易之	-11.2457
右營	-11.2457
擒之	-11.2458
大夏	-11.2458
覇	-11.2459
又何	-11.246
涿	-11.246
萬山	-11.246
自刎	-11.2461
為最	-11.2461
大體	-11.2463
内侍	-11.2464
西鄉	-11.2465
以事	-11.2465
西行	-11.2466
建立	-11.2467
新野	-11.2467
南河	-11.2467
民無	-11.2468
西南有	-11.2469
常熟縣	-11.2469
在衛	-11.247
復置屬	-11.2471
千頃	-11.2471
南宫	-11.2471
左遷	-11.2472
諸湖	-11.2472
地下	-11.2474
銅山	-11.2477
非其	-11.2478
正定	-11.2479
池水	-11.2479
平陵	-11.2479
加以	-11.248
俄而	-11.2481
州同	-11.2487
千八百	-11.2488
儒士	-11.2488
後遷	-11.2488
白塔	-11.2488
達嚕噶齊	-11.2491
綿竹	-11.2491
凌雲	-11.2494
桓公	-11.2494
聚衆	-11.2495
王士	-11.2496
見而	-11.2498
誡	-11.2498
藺	-11.2499
合州	-11.2499
在位	-11.25
徭役	-11.25
松陽	-11.2503
勣	-11.2503
墀	-11.2504
之别	-11.2508
晉天福	-11.2511
妻范氏	-11.2511
隍	-11.2513
兩淮	-11.2514
南七十里	-11.2516
知縣陳	-11.2516
天王	-11.2519
議論	-11.2521
煖	-11.2521
太清	-11.2521
貴池	-11.2522
平州	-11.2523
欹	-11.2523
紓	-11.2526
苴	-11.2527
啖	-11.2528
小溪	-11.2529
陞為	-11.2529
臨湘	-11.253
正德中	-11.2531
兗州	-11.2532
大將	-11.2534
詵	-11.2535
劉瑾	-11.2535
石洞	-11.2536
兩貳錢	-11.254
荆南	-11.254
丈夫	-11.2548
咸寧人	-11.2551
避地	-11.2552
燕京	-11.2552
責之	-11.2554
落日	-11.2555
大理寺	-11.2556
東鄉	-11.2556
陬	-11.2556
一百七十里	-11.2557
其法	-11.2559
洪水	-11.256
瓊山人	-11.256
金川	-11.2562
移置	-11.2562
蒲州人	-11.2565
瑀	-11.2565
病篤	-11.2565
始知	-11.2567
十五名	-11.2569
犁	-11.2572
下注	-11.2574
旄	-11.2575
吏治	-11.2576
兵民	-11.2576
曲靖	-11.2579
也且	-11.2579
府推官	-11.2579
入學額數	-11.258
雩	-11.2581
南麓	-11.2581
以洩	-11.2582
上蔡	-11.2582
禇	-11.2588
雷雨	-11.2589
溪橋	-11.259
祠堂	-11.2591
縣城西	-11.2592
曳	-11.2593
牛頭	-11.2594
政績	-11.2596
屯丁	-11.2598
廟記	-11.26
區區	-11.2601
毬	-11.2602
盜起	-11.2602
猫	-11.2603
北面	-11.2603
牂牁	-11.2605
濟陽	-11.2607
而能	-11.2608
莆田人	-11.2608
金沙	-11.2609
剽	-11.2609
工食	-11.2614
於外	-11.2614
水災	-11.2615
南二十五里	-11.2616
淯	-11.2617
元鼎	-11.2618
塔克	-11.2618
哈薩克	-11.2621
南流至	-11.2621
勑	-11.2622
以及	-11.2622
北路	-11.2623
至京	-11.2624
甬	-11.2624
衫	-11.2625
妻董氏	-11.2626
滄海	-11.2627
三毫	-11.2628
竟陵	-11.2628
正統中	-11.2629
楊廷	-11.2629
們	-11.2632
終南	-11.2636
之臣	-11.2636
斬獲	-11.2636
錡	-11.2636
抗疏	-11.2638
祥符人	-11.2641
水師	-11.2642
曹縣	-11.2643
侮	-11.2644
康熙三十	-11.2645
曰臣	-11.2645
夷陵	-11.2646
都監	-11.2646
重慶	-11.2647
解州	-11.2648
點	-11.2649
三百三十	-11.2652
其首	-11.2652
東下	-11.2655
錐	-11.2656
以祀	-11.2656
獻公	-11.2657
卒諡曰	-11.2659
每歲	-11.266
觀其	-11.266
年二十一	-11.266
寺丞	-11.2661
罄	-11.2661
出焉	-11.2669
望風	-11.2669
及諸	-11.267
既至	-11.267
菽	-11.2673
中大夫	-11.2673
鄒平	-11.2674
駟	-11.2674
闗外	-11.2675
亦自	-11.2675
饑民	-11.2675
倖	-11.2677
青衣	-11.2678
偵	-11.2679
人户	-11.2679
一頃	-11.268
一貫	-11.268
里甲	-11.268
宜陽	-11.2681
小者	-11.2686
耽	-11.269
廷尉	-11.2692
陽春	-11.2692
華陽國志	-11.2693
磔	-11.2693
巖山	-11.2694
三百八十	-11.2694
為主	-11.2697
東南流逕	-11.2699
靈巖	-11.27
乙卯	-11.2701
無疑	-11.2701
瀨	-11.2701
鎰	-11.2701
矣故	-11.2701
贑州	-11.2702
都水	-11.2703
明昌	-11.2705
愼	-11.2705
永寜	-11.2706
二石	-11.2707
參知政事	-11.2707
延慶	-11.271
慶雲	-11.2711
畤	-11.2711
鳳凰山	-11.2711
龍首	-11.2713
可愛	-11.2714
凡十	-11.2714
璽書	-11.2715
於官	-11.2716
嵗旱	-11.2716
綾	-11.2716
京畿	-11.2716
年二十四	-11.2717
士子	-11.2717
臨漳	-11.272
銀一千	-11.2722
旌之	-11.2726
産錢	-11.2727
納之	-11.2728
尉氏	-11.2728
萬二千	-11.2729
避亂	-11.2731
廬舍	-11.2735
於潛	-11.2736
日到任	-11.2737
生而	-11.2737
故城在今	-11.2737
氏年二十	-11.2738
宋紹興	-11.2738
官府	-11.2739
部主事	-11.274
金州	-11.2741
漳州	-11.2741
不失	-11.2743
上諭	-11.2743
溱	-11.2745
侍讀	-11.2749
漪	-11.2749
十里南至	-11.2749
垜	-11.2752
諭以	-11.2752
貢賦	-11.2753
扆	-11.2754
大破	-11.2754
集十卷	-11.2758
朝宗	-11.276
武帝時	-11.276
地置	-11.276
之才	-11.276
糠	-11.2761
樂平人	-11.2761
㕘將	-11.2762
誅之	-11.2764
爾等	-11.2767
増築	-11.2768
雲霧	-11.2769
三百餘	-11.277
初名	-11.277
明正統	-11.2772
金帛	-11.2772
一女	-11.2777
閭閻	-11.2778
隳	-11.2779
光州	-11.2779
畀	-11.2779
廟前	-11.2781
齊名	-11.2782
潄	-11.2785
張元	-11.2786
抛	-11.2788
宗皇帝	-11.279
佚	-11.2791
衣服	-11.2793
埂	-11.2794
經術	-11.2795
故老	-11.2796
環繞	-11.2797
都䕶	-11.2798
逶迤	-11.2802
遼州	-11.2805
二十名	-11.2805
洒	-11.2806
彞	-11.2807
駁	-11.2809
在縣治東南	-11.2812
餘慶	-11.2813
將來	-11.2814
江左	-11.2817
郟	-11.2818
遑	-11.2819
二千五百	-11.2819
每遇	-11.2821
仁壽	-11.2825
地理志曰	-11.2825
邳	-11.2825
通志在	-11.2826
尋廢	-11.2826
九成	-11.2827
亦云	-11.283
族人	-11.283
未嘗不	-11.2833
篁	-11.2834
豪右	-11.2835
悉平	-11.2835
乾徳	-11.2837
尺五寸	-11.2837
宣慰使	-11.2837
藕	-11.2839
宣武	-11.2839
昭王	-11.284
直指	-11.284
縣界八十里	-11.284
修建	-11.2842
國子	-11.2843
霸州	-11.2845
視其	-11.2846
右布政使	-11.2847
賓客	-11.2847
歸於	-11.2847
數十丈	-11.285
駐此	-11.285
苧	-11.2852
埒	-11.2852
順德	-11.2852
所言	-11.2854
江右	-11.2854
翕然	-11.2855
崕	-11.2858
二公	-11.2858
儀真	-11.2859
桀	-11.2859
嶺上	-11.2859
車師	-11.2859
楊家	-11.286
平陽人	-11.2865
進爵	-11.2865
初授	-11.2867
縣南三十里	-11.2871
宗族	-11.2873
橋梁	-11.2874
嵗支	-11.2875
宋因之	-11.2876
又東南流	-11.2876
陘	-11.2879
相視	-11.2879
王莽之	-11.2882
煦	-11.2887
太學生	-11.2888
㨿	-11.2888
不覺	-11.2889
嬉	-11.2891
不啻	-11.2895
即漢	-11.2895
縣西四十里	-11.2896
州牧	-11.2897
未見	-11.2898
二百四十里	-11.2899
禮記	-11.2899
唐建	-11.29
縣西北四十里	-11.29
汝陽	-11.2902
三世	-11.2905
霓	-11.2907
遺愛	-11.2908
預備倉	-11.2909
剝	-11.2909
明時	-11.291
十里源出	-11.2911
㭍分	-11.2911
嚴明	-11.2912
於中	-11.2914
馬湖	-11.2916
在上元縣	-11.2916
喇嘛	-11.2917
六毫	-11.2917
所向	-11.292
天監	-11.292
賜之	-11.2921
不獨	-11.2922
二百五十里	-11.2922
廟碑	-11.2922
南征	-11.2922
户部主事	-11.2923
祠之	-11.2923
而自	-11.2925
昭烈	-11.2925
河南人	-11.2926
軀	-11.2926
遼西	-11.2927
後因	-11.2927
馘	-11.293
額外外委	-11.2932
漢武	-11.2934
戶	-11.2935
渴	-11.2938
乞休	-11.2939
燃	-11.294
北逕	-11.2941
晃	-11.2942
咽	-11.2943
小兒	-11.2944
不惟	-11.2945
卒諡文	-11.2947
里東西距	-11.2947
總理	-11.2949
孝文	-11.2949
昌國	-11.295
我師	-11.2951
地多	-11.2951
日照	-11.2953
頰	-11.2958
河中府	-11.2958
週圍	-11.296
六十二	-11.296
烏拉	-11.2961
相如	-11.2962
至正間	-11.2964
召對	-11.2964
屬之	-11.2965
千仞	-11.2966
此皆	-11.2967
焚之	-11.2968
九十九	-11.2968
卧龍	-11.297
戦	-11.2971
悠悠	-11.2972
城堡	-11.2972
貧者	-11.2974
竟不	-11.2975
北方	-11.2976
四十餘里	-11.2978
其力	-11.2978
臨水	-11.2978
案此	-11.2979
拊	-11.298
大猷	-11.2981
禍福	-11.2982
無私	-11.2982
晉太康	-11.2984
天祥	-11.2986
水所出	-11.2988
帝曰	-11.2989
偃師	-11.2989
棋	-11.2989
隨征	-11.2989
人廕生	-11.2992
新舊	-11.2993
舊訛	-11.2994
咫尺	-11.2995
四百八十	-11.2996
兩旁	-11.2997
戊申	-11.2997
順天府	-11.2998
騁	-11.2998
廟學	-11.2999
㳟	-11.3001
縣南五里	-11.3001
柟	-11.3002
不納	-11.3002
在府城西北	-11.3003
密雲	-11.3004
指揮僉事	-11.3005
宣慰	-11.3006
滂	-11.3007
欽州	-11.3008
凄	-11.3008
千五百	-11.3012
以行	-11.3013
走馬	-11.3015
即墨	-11.3017
主管	-11.3018
一種	-11.3022
至道	-11.3023
毫有奇	-11.3026
新平	-11.3027
遣將	-11.3028
正學	-11.303
終身不	-11.303
蘭陽	-11.303
郿	-11.3032
設官	-11.3032
盧龍	-11.3033
耆老	-11.3033
歸仁	-11.3034
新㑹人	-11.3034
坻	-11.3034
互相	-11.3036
邯鄲	-11.3037
可行	-11.3038
之任	-11.3038
西四十里	-11.3043
四毫	-11.3043
凡五	-11.3043
盗賊	-11.3045
颯	-11.3046
二毫	-11.3047
居人	-11.3048
之責	-11.3049
詆	-11.3051
民困	-11.3052
姑病	-11.3052
歸里	-11.3052
襄王	-11.3053
宿州	-11.3055
九尺	-11.3056
参	-11.3057
望見	-11.3057
年二十三	-11.3059
督兵	-11.306
河曲	-11.3061
㡌	-11.3062
稼穡	-11.3062
明兵	-11.3064
鄔	-11.3064
天平	-11.3065
年二十七	-11.3065
笞	-11.3066
如臯	-11.3068
庖	-11.3068
紹興間	-11.3069
中郎	-11.307
碾	-11.307
祈禱	-11.3071
本朝乾隆四十一年	-11.3072
襄垣	-11.3073
星子	-11.3073
延州	-11.3076
上游	-11.3076
齋集	-11.3079
滑縣	-11.3079
也遂	-11.3082
湾	-11.3083
楊文	-11.3084
泉出	-11.3084
四十六年	-11.3085
亭侯	-11.3087
臼	-11.3088
丹青	-11.3088
遂成	-11.3088
縣西南五十里	-11.3089
古北口	-11.3092
通江	-11.3092
守城	-11.3093
胎	-11.3095
荆山	-11.3095
墓側	-11.3096
之側	-11.3097
多爾濟	-11.3098
舁	-11.3102
劉宋	-11.3103
甲科	-11.3105
自成	-11.3107
經筵	-11.3108
下邳	-11.3109
五峯	-11.3109
自後	-11.3109
千二百	-11.3109
東西距	-11.3109
晉屬	-11.3111
雇	-11.3111
險峻	-11.3112
縣東五里	-11.3114
乾符	-11.3115
陸路	-11.3116
太常卿	-11.3117
溝洫	-11.3121
官屬	-11.3121
性剛	-11.3122
陵川	-11.3123
九齡	-11.3124
茂州	-11.3124
年旌	-11.3125
陽侯	-11.3127
戰守	-11.3131
烝	-11.3133
登科	-11.3134
鹽法	-11.3134
姐	-11.3134
陽太守	-11.3137
李光	-11.3137
沁州	-11.3137
安徽	-11.3137
眉山	-11.3137
不到	-11.3138
嘉納	-11.3139
歲貢	-11.314
雩都	-11.3141
二十二年任	-11.3142
住持	-11.3142
一室	-11.3144
縣北三十里	-11.3144
以求	-11.3144
罷之	-11.3144
乃知	-11.3144
奉姑	-11.3145
存留	-11.3146
武徳四年	-11.3148
鄢陵	-11.3149
勤於	-11.3149
王守仁	-11.315
元屬	-11.315
諸道	-11.3151
里西北至	-11.3153
雞鳴	-11.3154
窩集	-11.3155
殞	-11.3155
不加	-11.3158
德興	-11.316
一百二	-11.316
王墓	-11.3162
母卒	-11.3166
叩頭	-11.3167
黄花	-11.3167
府境	-11.3168
怯	-11.3168
聞喜人	-11.3169
氣節	-11.3171
忠州	-11.3171
新増	-11.3172
彌勒	-11.3172
潮水	-11.3172
味甘	-11.3172
五原	-11.318
鸚鵡	-11.3182
泰興	-11.3183
妻章氏	-11.3184
長垣	-11.3184
孀	-11.3185
州貢	-11.3186
三河	-11.319
鴈門	-11.3194
上虞人	-11.3196
睢陽	-11.3196
避難	-11.3196
西流入	-11.3196
其學	-11.3198
拱辰	-11.3199
倩	-11.3199
經籍	-11.32
汁	-11.32
瘦	-11.3201
十二名	-11.3201
疾卒	-11.3201
太常少卿	-11.3203
玉門	-11.3203
投繯	-11.3205
恍	-11.3205
多士	-11.3206
好古	-11.3206
伍毫	-11.3208
即其地	-11.3209
登進士第	-11.321
六十一	-11.3211
妓	-11.3211
節義	-11.3211
南流逕	-11.3211
行世	-11.3213
梁王	-11.3213
縣西南四十里	-11.3213
别駕	-11.3215
若水	-11.3215
金華人	-11.3218
漢唐	-11.3219
塑	-11.3219
下瞰	-11.322
書云	-11.322
阿克蘇	-11.3223
處處	-11.3224
前人	-11.3225
宋史地理志	-11.3226
六十六	-11.3227
西通	-11.3227
二千餘	-11.3228
湜	-11.3228
在府南	-11.323
愽	-11.3231
高宗純皇帝	-11.3232
繼妻	-11.3233
亦如之	-11.3235
勒石	-11.3236
後魏置	-11.3236
當為	-11.3237
運糧	-11.3238
焚其	-11.3238
西洋	-11.3238
莫若	-11.3241
惜之	-11.3242
益都人	-11.3245
清河縣	-11.3245
家塘	-11.3248
巖下	-11.3248
稽古	-11.325
肆毫	-11.3251
功曹	-11.3252
額爾	-11.3256
兵五	-11.3256
氓	-11.3257
宋置	-11.3257
釀	-11.3257
龍虎	-11.3257
其次	-11.3258
顔色	-11.3263
可乎	-11.3265
常侍	-11.3265
口入	-11.3267
縣南六十里	-11.3267
者衆	-11.3267
後徙	-11.3267
餞	-11.3267
藹	-11.3272
西十里	-11.3273
以報	-11.3273
即是	-11.3274
櫛	-11.3275
渠魁	-11.3275
貴人	-11.3276
蕉	-11.3277
中部	-11.3283
水又西	-11.3284
石崖	-11.3284
華容	-11.3285
鳯陽	-11.3285
杭州府志	-11.3287
之樂	-11.3288
四望	-11.3289
南越	-11.3291
牧馬	-11.3291
長寧	-11.3294
殄	-11.3295
忝	-11.3295
又東南逕	-11.3297
嚴陵志	-11.3298
令狐	-11.3303
上有石	-11.3303
清明	-11.3307
大成殿	-11.3307
尺許	-11.3307
不茍	-11.3308
盞	-11.3309
宜黄	-11.3309
之國	-11.331
是嵗	-11.3311
北距	-11.3313
洞門	-11.3315
奉行	-11.3316
報國	-11.3317
忽有	-11.3317
事務	-11.3317
不成	-11.3319
十五丈	-11.332
淮安府	-11.3322
惲	-11.3324
風雲	-11.3328
天和	-11.3329
三年改	-11.3333
樓臺	-11.3334
安石	-11.3334
文華	-11.3337
寳祐	-11.3339
古跡	-11.3339
橋南	-11.334
夀州人	-11.3341
四百五十	-11.3342
筏	-11.3343
闇	-11.3343
也昔	-11.3345
惠民	-11.3345
川水	-11.3345
次年	-11.3345
字士	-11.3346
佯	-11.3348
庶子	-11.3349
文詞	-11.335
如玉	-11.3352
酸	-11.3353
之稱	-11.3356
西域傳	-11.3357
三原人	-11.3357
縣界九十里	-11.3358
百四十里	-11.3358
姓氏	-11.3359
名士	-11.3361
妻袁氏	-11.3361
依舊	-11.3362
𦙍	-11.3362
勅建	-11.3364
姻	-11.3366
未嫁	-11.3367
五十餘年	-11.3372
垣曲	-11.3374
新鄭	-11.3375
景德	-11.3377
船隻	-11.3378
陸毫	-11.3379
椎	-11.3381
京東	-11.3381
必須	-11.3387
萬全	-11.3387
鎔	-11.3387
政尚	-11.3388
太乙	-11.3389
三百九十	-11.3389
深一丈	-11.339
六十七	-11.339
性孝友	-11.3393
方丈	-11.3393
丨丨丨	-11.3393
安堵	-11.3394
月餘	-11.3395
紹興初	-11.3398
何時	-11.3399
鍾離	-11.3399
彼此	-11.34
禁中	-11.34
中庸	-11.3403
涇州	-11.3404
而退	-11.3405
屯留	-11.3405
俗呼為	-11.3405
財賦	-11.3407
次日	-11.3409
夙夜	-11.341
邑也	-11.341
堦	-11.3411
厯代	-11.3412
沅州	-11.3412
所獲	-11.3414
大都督	-11.3414
擴	-11.3416
中下	-11.3417
矣此	-11.3418
妻梁氏	-11.3418
丈許	-11.3419
婉	-11.3419
陵墓	-11.3424
故瀆	-11.3425
又言	-11.3428
歸安人	-11.3429
所致	-11.3429
發帑	-11.343
教寺	-11.3432
文殊	-11.3432
豫州	-11.3437
中書侍郎	-11.3439
斐	-11.3439
維新	-11.3439
興州	-11.344
俱出	-11.344
年十五	-11.3441
縊死	-11.3443
好施	-11.3443
兩肆錢	-11.3449
州防禦使	-11.3449
扞	-11.3452
葱嶺	-11.3453
萬斛	-11.3454
子午	-11.3457
蔡京	-11.3458
大怒	-11.3459
也余	-11.346
栻	-11.346
八丈	-11.3461
髙山	-11.3461
渡口	-11.3461
未聞	-11.3463
痛哭	-11.3468
捫	-11.3468
悵	-11.3469
貂	-11.3469
荆湖	-11.3471
𢎞治中	-11.3474
糓	-11.3476
夷人	-11.3476
播州	-11.3477
宫在	-11.3482
建興	-11.3483
通衢	-11.3484
便民	-11.3485
歸德	-11.3485
行旅	-11.3486
闥	-11.3487
覺寺	-11.3487
桷	-11.3487
餐	-11.3489
僮	-11.349
㦸門	-11.349
俱屬	-11.3491
西北有	-11.3494
貞祐	-11.3494
沙磧	-11.3495
有事	-11.3495
三百一十	-11.3497
四縣	-11.3497
荻	-11.3498
梁武帝	-11.3499
殿中	-11.3499
其半	-11.35
豊	-11.3502
捌錢	-11.3502
昆明人	-11.3502
雷州	-11.3503
泰州人	-11.3504
酒泉	-11.3504
石樓	-11.3505
交城	-11.3505
溧陽人	-11.3507
元季	-11.3508
亦非	-11.3511
諸儒	-11.3516
同心	-11.3517
壁間	-11.352
表裏	-11.352
縣東南四十里	-11.3521
或勸	-11.3522
水合流	-11.3522
年二十二	-11.3526
如此則	-11.3527
改縣曰	-11.3528
隨州	-11.353
如初	-11.353
去城	-11.3532
宣州	-11.3532
當事	-11.3532
不給	-11.3535
藜	-11.3535
冬月	-11.3537
波羅	-11.3539
膚施	-11.3539
清涼	-11.354
至治	-11.3544
經費	-11.3544
嘉祥	-11.3547
六十八	-11.3547
奉母	-11.355
榦	-11.3551
金錢	-11.3552
學問	-11.3553
明崇禎	-11.3554
厦	-11.3554
供奉	-11.3555
八十五里	-11.3555
妻俞氏	-11.3557
瑞州	-11.3558
一百十里	-11.3559
八旗	-11.3559
金牛	-11.3562
從祀	-11.3564
開府儀同三司	-11.3564
餘丈	-11.3565
櫬	-11.3565
殿後	-11.3566
石八斗	-11.3567
縳	-11.3567
縣署	-11.3568
不解	-11.3571
西海	-11.3571
一丈二尺	-11.3572
交州	-11.3574
耐	-11.3574
亦何	-11.3575
雅州	-11.3575
太元	-11.3576
豎	-11.3577
在縣署	-11.3577
五楹	-11.3578
始至	-11.3579
濮陽	-11.358
始有	-11.3581
等縣	-11.3581
七十八	-11.3583
至元中	-11.3584
義倉	-11.3585
莫如	-11.3585
泉源	-11.3586
大畧	-11.3587
烽	-11.3587
無疆	-11.3588
仔	-11.3588
其夫	-11.3588
辛卯	-11.3588
貴池人	-11.359
秋八月	-11.3591
部議	-11.3591
化龍	-11.3593
百川	-11.3595
一嵗	-11.3596
導河	-11.3596
不得不	-11.3597
鄭氏	-11.3597
八九	-11.3599
朱熹	-11.3602
出没	-11.3604
蜀漢	-11.3605
自誓	-11.3605
家營	-11.361
兩陸錢	-11.3611
二十丈	-11.3612
水東流	-11.3613
不肖	-11.3614
知事	-11.3614
劣	-11.3615
龍王	-11.3615
之㑹	-11.3615
亭曰	-11.3616
赴水死	-11.3616
要地	-11.3617
懾	-11.3618
盡心	-11.362
池中	-11.362
天長	-11.3622
毘	-11.3622
司馬光	-11.3623
工部主事	-11.3623
恢復	-11.3624
越巂	-11.3624
黛	-11.3626
喀什噶爾	-11.3627
蔗	-11.3628
飛泉	-11.3629
之苦	-11.363
節孝	-11.3631
校書郎	-11.3632
嫂	-11.3633
扁額	-11.3636
括蒼彚紀	-11.3636
南九十里	-11.364
名之曰	-11.364
地方官	-11.364
翠微	-11.364
三品	-11.3641
明州	-11.3643
未免	-11.3647
一貟	-11.3649
閉門	-11.365
冠帶	-11.365
不敷	-11.3653
諸蠻	-11.3653
拍	-11.3655
於天下	-11.3655
縣西六十里	-11.3657
藏書	-11.3659
縣西五里	-11.3661
一邑	-11.3662
菁	-11.3662
石五斗	-11.3663
溪流	-11.3664
証	-11.3668
在府城東北	-11.3668
感其	-11.3669
新鄉	-11.3671
州知府	-11.3673
涕泣	-11.3674
髙陵	-11.3675
六十三	-11.3676
己巳	-11.3677
洺	-11.3678
蔭	-11.368
髙堰	-11.368
湟	-11.3681
蛤	-11.3681
建州	-11.3684
雌	-11.3686
沐浴	-11.3687
問曰	-11.3687
新增	-11.3689
晉江	-11.3694
東西兩	-11.3695
義州	-11.3696
討賊	-11.3696
寶慶	-11.3698
尺餘	-11.3699
七十七	-11.3699
瓢	-11.3703
敢言	-11.3705
在府城東南	-11.3707
妻蕭氏	-11.3707
具奏	-11.3709
鯤	-11.3709
黄氏	-11.3713
糖	-11.3713
皁	-11.3715
原武	-11.3715
舂	-11.3717
雲門	-11.3717
霅	-11.3718
燕山	-11.372
中貴	-11.3721
今譯改	-11.3721
變化	-11.3722
堽	-11.3727
總制	-11.3727
天福	-11.3728
國地	-11.3728
愛其	-11.3731
二道	-11.3732
正直	-11.3732
臣聞	-11.3733
並在	-11.3733
安逺	-11.3734
援兵	-11.3735
无	-11.3735
里克	-11.3736
以縣屬	-11.3738
鄆	-11.3739
宋書	-11.3739
旃	-11.3739
辟為	-11.3742
掌印	-11.3743
閨	-11.3743
訓導一員	-11.3745
國計	-11.3746
靈石	-11.3748
按此	-11.3748
鮮卑	-11.3749
宋元嘉	-11.3753
和元年	-11.3753
進士厯	-11.3754
下令	-11.3754
黄庭堅	-11.3756
文安	-11.3756
麒麟	-11.3757
進士任	-11.3757
潯陽	-11.3758
㑹稽人	-11.3758
以助	-11.3758
安居	-11.3761
所生	-11.3762
煬帝	-11.3765
涇原	-11.3767
諸處	-11.3769
父病	-11.3769
有善政	-11.377
紬	-11.377
峽中	-11.377
河臣	-11.377
撫育	-11.3771
湮塞	-11.3771
雍熙	-11.3773
餘兩	-11.3774
縣東二十里	-11.3775
蘚	-11.3775
字希	-11.3778
兩壹錢	-11.3778
銅仁	-11.3779
光禄大夫	-11.378
葑	-11.3782
嘉靖寧波府志	-11.3782
召拜	-11.3782
定邊	-11.3782
㮣	-11.3782
灤	-11.3785
東五里	-11.3785
館陶	-11.3786
潤州	-11.3786
明洪武三年	-11.379
棐	-11.379
曰朕	-11.379
義士	-11.3791
明嘉靖間	-11.3793
七十三	-11.3794
又謂	-11.3794
右軍	-11.3798
誓死	-11.3798
丁卯	-11.3799
功名	-11.38
襄陽人	-11.38
諜	-11.3801
器械	-11.3802
事聞旌表	-11.3807
德化	-11.3808
東西廣	-11.3809
筋	-11.381
縣北五十里	-11.3811
酈注	-11.3812
羗	-11.3813
反覆	-11.3814
名宦祠	-11.3815
歸葬	-11.3819
識其	-11.3819
統領	-11.3821
十餘人	-11.3822
白玉	-11.3822
崇禎中	-11.3823
一本	-11.3823
巴蜀	-11.3823
盡力	-11.3824
伍千	-11.3824
蛟龍	-11.3825
歌曰	-11.3826
家陂	-11.3826
蘇子瞻	-11.3827
人洪武中	-11.3827
望海	-11.3827
堂後	-11.3827
料銀	-11.3829
郡中	-11.3831
四十八年	-11.3831
幼子	-11.3836
狎	-11.3838
撫綏	-11.384
陽信	-11.384
不取	-11.384
白虎	-11.3841
永徽	-11.3841
進兵	-11.3842
宣撫使	-11.3842
經過	-11.3842
南雄	-11.3842
交界	-11.3842
自立	-11.3843
泉流	-11.3844
帝紀	-11.3845
西安府	-11.3848
曄	-11.3849
訝	-11.3852
緘	-11.3853
又東經	-11.3855
三寸	-11.3857
從前	-11.3858
太公	-11.3858
賜金	-11.3858
八十六	-11.3858
查得	-11.3859
帝即位	-11.3859
之勞	-11.386
辭曰	-11.386
波濤	-11.386
峯下	-11.386
橋北	-11.386
賊黨	-11.3862
統制	-11.3862
闖	-11.3863
徳安	-11.3863
宇記	-11.3863
濟南府	-11.3863
賑之	-11.3864
及第	-11.3864
者謂之	-11.3865
擊敗之	-11.3866
東二里	-11.3866
滿洲人	-11.3867
機宜	-11.3867
病卒	-11.3868
馬氏	-11.387
何氏	-11.3871
如有	-11.3874
俱係	-11.3877
郡領	-11.3878
方正	-11.3879
清介	-11.388
二十年任	-11.3881
慟哭	-11.3881
青雲	-11.3883
二丈五尺	-11.3883
閼	-11.3886
楚王	-11.3886
首尾	-11.3886
松江府	-11.3887
衲	-11.3887
之竒	-11.3888
歙人	-11.3891
媿	-11.3892
巴什	-11.3895
群	-11.3895
耆舊	-11.3898
胙	-11.3899
録事	-11.3899
廣安	-11.39
送之	-11.3904
開封人	-11.3905
二百二十里	-11.3905
天順間	-11.3909
天寳元年	-11.3909
黑水	-11.3909
簽	-11.3909
伎	-11.3909
龍湫	-11.391
洊	-11.391
夫歿	-11.391
妻杜氏	-11.3911
五十一	-11.3913
蔥嶺	-11.3913
廟祀	-11.3913
石屏	-11.3913
行部	-11.3914
東平州	-11.3915
書堂	-11.3915
端坐	-11.3916
巉	-11.3916
遇事	-11.3916
起家	-11.3916
釐四毫	-11.3917
盤石	-11.3918
扈從	-11.3918
佺	-11.3921
唐虞	-11.3924
瀼	-11.3924
祠宇	-11.3924
靈應	-11.3925
黄土	-11.3925
七丈	-11.3926
祀唐	-11.3929
夥	-11.3931
江陰人	-11.3932
古木	-11.3936
不敢犯	-11.3936
輿鬼	-11.3936
七八	-11.3939
夀昌	-11.3939
大名府	-11.394
在州城西	-11.3943
訃	-11.3945
秦淮	-11.3945
卒官	-11.3945
文宗	-11.3948
鎮東	-11.3949
一處	-11.395
東北入	-11.3951
甥	-11.3953
功成	-11.3955
州領	-11.3956
覓	-11.3956
南北二	-11.3957
則是	-11.3959
武義	-11.3962
黔中	-11.3962
劉文	-11.3962
五年建	-11.3962
賜祭葬	-11.3963
縣東四十里	-11.3965
賢者	-11.3966
賢良	-11.3967
相屬	-11.3969
爾噶	-11.3969
萬曆	-11.3971
百二十	-11.3974
玖毫	-11.3975
上命	-11.3976
鈐轄	-11.3979
鋐	-11.3989
宜都	-11.3989
長清	-11.399
在州城東	-11.3991
順治元年	-11.3994
宗正	-11.3995
六十餘	-11.3996
自昔	-11.3996
八升	-11.3997
水路	-11.3997
幇	-11.3998
因以為名	-11.3999
南溪	-11.3999
太子少保	-11.4
萬餘人	-11.4
桑乾	-11.4001
吐谷渾	-11.4001
黒龍江	-11.4006
麗江	-11.4006
千七百	-11.4008
本道	-11.4011
聞訃	-11.4011
釋奠	-11.4011
右都御史	-11.4013
谷中	-11.4015
山之東	-11.4017
下同	-11.4017
七十六	-11.4022
議大夫	-11.4025
絮	-11.4026
肘	-11.4026
錮	-11.4026
土著	-11.4026
刄	-11.4026
訐	-11.4027
連江	-11.4028
垂拱	-11.403
威逺	-11.4031
縣東十五里	-11.4031
人舉進士	-11.4032
加封	-11.4033
葫蘆	-11.4033
樂府	-11.4034
釐二毫	-11.4034
復修	-11.4035
南城人	-11.4038
以薦	-11.4039
築土	-11.4043
水田	-11.4044
飛來	-11.4046
周四里	-11.4046
不阿	-11.405
仁和縣	-11.405
䕫州	-11.4051
呉郡	-11.4051
三十卷	-11.4051
鎮江府	-11.4052
所造	-11.4057
不樂	-11.4058
𨼆	-11.406
折而南	-11.406
石工	-11.4061
清逺	-11.4062
邦人	-11.4062
部侍郎	-11.4063
讒	-11.4063
會同	-11.4064
秀水人	-11.4065
號令	-11.4066
疏勒	-11.4067
原額人丁	-11.4068
巴延	-11.4069
渾河	-11.4071
旴	-11.4075
險工	-11.4076
下馬	-11.4077
鄢	-11.4077
靖州	-11.408
東昌	-11.4081
不辱	-11.4082
鎮安	-11.4085
煽	-11.4085
捐貲	-11.4086
闕里	-11.4088
水軍	-11.4088
開原	-11.4088
未得	-11.4089
營田	-11.4089
奭	-11.4089
所過	-11.4093
正徳中	-11.4094
潮汐	-11.4094
徵米	-11.4096
儒林	-11.4097
秣陵	-11.41
流移	-11.4101
歸來	-11.4101
雙溪	-11.4103
安帝	-11.4103
縣東北四十里	-11.4107
兵燬	-11.4108
相持	-11.4108
北麓	-11.4108
璇	-11.4109
嫩	-11.4111
稽首	-11.4112
應詔	-11.4113
丈五尺	-11.4113
拒守	-11.4113
北注	-11.4114
五合	-11.4114
巴郡	-11.4114
會稽人	-11.4115
物也	-11.4115
為盜	-11.4115
闖賊	-11.4116
閣待制	-11.4117
聨曰	-11.4117
溫州	-11.412
浮梁人	-11.4121
覘	-11.4121
祠祀之	-11.4121
待之	-11.4122
餼	-11.4123
瀧	-11.4123
京兆府	-11.4126
青海	-11.4126
王宗	-11.4127
家堡	-11.4128
元置	-11.4129
百斤	-11.4129
好義	-11.4129
窠	-11.4131
春二月	-11.4132
净	-11.4133
在縣治南	-11.4139
萬壑	-11.4139
海棠	-11.4139
昺	-11.414
動支	-11.414
黟縣	-11.4141
北九十里	-11.4141
黄巢	-11.4142
在府學	-11.4142
不廢	-11.4143
引去	-11.4144
丫	-11.4144
扳	-11.4146
周書	-11.4151
來攻	-11.4153
屹立	-11.4156
鉤	-11.4156
賑饑	-11.4157
亭亭	-11.4158
西去	-11.4159
乾德	-11.4163
柑	-11.4163
舊例	-11.4165
朐	-11.4165
鐵嶺	-11.4166
致仕卒	-11.4168
食邑	-11.4168
安邑人	-11.417
開渠	-11.417
鍔	-11.4172
厲聲	-11.4172
土兵	-11.4173
也按	-11.4174
右丞	-11.4174
結廬	-11.4174
明洪武中	-11.4177
涇縣人	-11.4178
人癸	-11.4179
一萬三千	-11.4181
墖	-11.4182
埜	-11.4183
磊	-11.4185
入渭	-11.4186
祠記	-11.4186
皖	-11.4186
舉人任	-11.4186
先帝	-11.419
可觀	-11.4191
猴	-11.4191
錢塘縣志	-11.4191
郫	-11.4193
其兄	-11.4194
籙	-11.4195
遵化	-11.4196
知制誥	-11.4196
恤民	-11.4199
奉勅	-11.4199
俗稱	-11.4201
扶溝	-11.4204
俯仰	-11.4204
考功	-11.4207
三嵗	-11.4209
釵	-11.4212
貳毫	-11.4213
和闐	-11.4213
秀州	-11.4214
法度	-11.4217
茂陵	-11.4223
一萬一千	-11.4225
土木	-11.4225
定額	-11.4227
入室	-11.4228
里西南至	-11.4232
襟帶	-11.4232
樓閣	-11.4232
義兵	-11.4234
塘河	-11.4235
有序	-11.4237
入冦	-11.424
識之	-11.424
洗馬	-11.4241
凡四	-11.4244
壠	-11.4245
山形	-11.4247
先儒	-11.4247
賫	-11.4249
槍	-11.425
不踰	-11.4251
南部	-11.4252
文忠	-11.4252
浮雲	-11.4252
涇陽人	-11.4252
妍	-11.4255
衢州府志	-11.4255
圍城	-11.4256
小學	-11.4257
未易	-11.4258
剽掠	-11.4259
㭍釐	-11.4261
龍圖	-11.4263
窑	-11.4263
察院	-11.4263
宛然	-11.4265
稱㫖	-11.4268
隨時	-11.4269
魏書地形志	-11.427
勢必	-11.427
隋屬	-11.427
漳浦	-11.4271
其側	-11.4271
去年	-11.4271
僕射	-11.4272
釐六毫	-11.4272
復業	-11.4276
大用	-11.4277
逺矣	-11.4279
鳯凰山	-11.4279
屈曲	-11.4281
薑	-11.4282
五十二年	-11.4283
公輔	-11.4284
仕為	-11.4284
筆架	-11.4284
一百五	-11.4285
海鹽人	-11.4286
撫字	-11.4287
紐	-11.4287
堤岸	-11.4289
出師	-11.429
進攻	-11.4291
三合	-11.4291
進封	-11.4292
蔑	-11.4296
北史	-11.43
縣北十里	-11.43
夏五月	-11.43
因循	-11.43
四日	-11.4301
宿州人	-11.4305
布政使司	-11.4309
紹興府	-11.4309
堅固	-11.431
除荒	-11.431
近年	-11.4312
一線	-11.4312
尚可	-11.4314
解元	-11.4316
横亘	-11.4317
李廷	-11.4318
本姓	-11.4321
白渠	-11.4323
讞	-11.4323
哲宗	-11.4324
讜	-11.4325
侔	-11.4332
郯	-11.4333
投水死	-11.4333
陷城	-11.4334
太常博士	-11.4334
為立祠	-11.434
力請	-11.434
鄱陽人	-11.434
楼	-11.4342
六十九	-11.4342
西二里	-11.4343
入學	-11.4345
霖雨	-11.4346
卹	-11.4348
澄城	-11.4348
孝養	-11.4349
國子祭酒	-11.4352
經行	-11.4353
今日之	-11.4355
太常寺	-11.4356
宋嘉定	-11.4358
二載	-11.4358
歌舞	-11.4358
斷其	-11.4359
江寕	-11.436
實在人丁	-11.4362
以充	-11.4364
縣𨽻	-11.4367
䟦	-11.4369
長卿	-11.4372
首領	-11.4374
萬國	-11.4376
承平	-11.4377
胡氏	-11.4378
三岔	-11.4379
虎頭	-11.4381
風氣	-11.4382
不可勝	-11.4382
華陰	-11.4382
之䇿	-11.4382
養濟院	-11.4384
葆	-11.4386
唐太宗	-11.4387
圖經云	-11.4387
成進士	-11.4389
髯	-11.439
臆	-11.4391
嘗與	-11.4393
年年	-11.4393
鑪	-11.4393
華亭縣	-11.4395
察其	-11.4396
閩縣	-11.44
栅	-11.4402
招集	-11.4402
豈無	-11.4403
薇	-11.4403
上谷	-11.4403
僚屬	-11.4404
達爾	-11.4405
燔	-11.4407
一寸	-11.4408
棄之	-11.4409
登封	-11.4409
讀書處	-11.4411
石穴	-11.4411
守道	-11.4413
牓	-11.4415
閹	-11.4416
廣順	-11.4417
配享	-11.4417
工料	-11.4418
蕪湖人	-11.442
鶻	-11.4423
天然	-11.4424
里東南至	-11.4425
不煩	-11.4427
一首	-11.4429
壹毫	-11.4429
迸	-11.4429
老君	-11.4429
明嘉靖中	-11.4429
顗	-11.443
妻吕氏	-11.4431
覿	-11.4431
北征	-11.4435
諶	-11.4435
間僧	-11.4436
承㫖	-11.4437
縣西二十里	-11.4437
年十四	-11.4439
續文獻通考	-11.4439
景福	-11.444
列於	-11.4441
以来	-11.4442
奐	-11.4443
延平	-11.4443
良臣	-11.4444
聖朝	-11.4445
岌	-11.4447
呌	-11.4448
焰	-11.4449
譁	-11.4451
西七十里	-11.4452
襁褓	-11.4453
赤城志	-11.4453
譙樓	-11.4453
宕渠	-11.4457
民安	-11.4457
歴知	-11.4458
其職	-11.4459
一萬二千	-11.4463
曡	-11.4463
千尺	-11.4464
昇平	-11.4465
誰能	-11.4465
兩伍錢	-11.4467
西方	-11.447
其巔	-11.447
僰	-11.4471
濟寧州	-11.4471
張浚	-11.4471
玉堂	-11.4472
無常	-11.4473
石二斗	-11.4473
善屬文	-11.4474
水由	-11.4474
釗	-11.4478
讚	-11.4482
年二十六	-11.4482
漢江	-11.4483
永順	-11.4483
守正	-11.4485
秦置	-11.4486
表其門	-11.4486
矣乃	-11.4487
妻戴氏	-11.4489
惡之	-11.4491
崑山縣	-11.4491
山書院	-11.4491
妻任氏	-11.4492
流離	-11.4494
殿宇	-11.4495
妻夏氏	-11.4497
王母	-11.4497
更始	-11.4499
遷都	-11.45
旦夕	-11.45
悠	-11.4501
收穫	-11.4502
邊外	-11.4504
衚衕	-11.4504
萬載	-11.4507
訾	-11.4511
一千九百	-11.4514
帝本紀	-11.4514
上其事	-11.4516
文獻通考	-11.4518
梁置	-11.452
額數	-11.4522
不滿	-11.4523
捌毫	-11.453
五百餘里	-11.4531
建閘	-11.4533
生擒	-11.4536
封疆	-11.4536
貧不能	-11.454
羈縻	-11.4543
聖寺	-11.4545
葬之	-11.4545
磐	-11.4546
耒陽	-11.4547
幡	-11.4547
長夀	-11.4549
澄海	-11.4552
芷	-11.4554
萍	-11.4555
矢石	-11.4559
海寇	-11.4562
後進	-11.4564
左衛	-11.4564
厘	-11.4565
縣主簿	-11.4566
兠	-11.4567
鹿邑	-11.4568
鄆州	-11.4569
塔山	-11.457
今已	-11.4571
田廬	-11.4574
而新之	-11.4575
輔國	-11.4575
何事	-11.4576
婁江	-11.4578
惠王	-11.4581
神木	-11.4581
耶律	-11.4583
阪	-11.4584
福地	-11.4585
同安	-11.4586
穉	-11.4588
明敏	-11.4592
樂陵	-11.4594
百花	-11.4594
伏秋	-11.4595
新城人	-11.4597
修煉	-11.4598
悖	-11.4598
巢穴	-11.46
南湖	-11.4601
無極	-11.4601
十有六	-11.4602
聖母	-11.4602
窗	-11.4602
靖難	-11.4604
平湖人	-11.4606
否則	-11.4607
白狼	-11.4608
笄	-11.4608
宜城	-11.4611
利病	-11.4611
四百二十	-11.4613
滹沱	-11.4614
崇禎末	-11.4615
掄	-11.4622
華林	-11.4623
呵	-11.4624
十有八	-11.4625
閣學士	-11.4626
良弼	-11.4628
全活甚衆	-11.463
臬	-11.4631
怖	-11.4632
馬蹄	-11.4634
置酒	-11.4634
和平	-11.4635
縣北五里	-11.4635
二源	-11.4636
九十五	-11.4637
萬一千	-11.4637
高唐	-11.4637
接壤	-11.4639
西界	-11.4639
翕	-11.464
驪	-11.4644
吼	-11.4645
鎧	-11.4645
暝	-11.4648
合為一	-11.465
文炳	-11.465
永城	-11.465
僱	-11.4654
妻江氏	-11.4655
雍勝	-11.4657
千丈	-11.4657
并序	-11.4658
碁	-11.4661
啟閉	-11.4662
詮	-11.4663
各屬	-11.4663
日暮	-11.4663
丁巳	-11.4663
豬	-11.4664
未仕	-11.4665
萬三千	-11.4666
圏	-11.4667
原本	-11.4669
湘水	-11.4669
看得	-11.467
釣臺	-11.467
照例	-11.4671
矛	-11.4671
瞽	-11.4671
凉州	-11.4671
信安	-11.4672
昌言	-11.4672
二頃	-11.4673
鴛鴦	-11.468
鈕	-11.4683
州貞觀	-11.4684
塘長	-11.4685
成祖	-11.4686
焜	-11.4687
司郎中	-11.4687
增築	-11.4688
杓	-11.4688
東北逕	-11.4689
河一道	-11.4689
熒惑	-11.469
少府	-11.4691
北界	-11.4693
國用	-11.4693
新昌人	-11.4693
多少	-11.4694
八十餘	-11.4695
歴城人	-11.4696
去官	-11.4698
汀州	-11.4698
占城	-11.4698
惻	-11.4702
等語	-11.4702
府尹	-11.4702
訛為	-11.4703
茫茫	-11.4705
東北流入	-11.4711
敢不	-11.4715
更有	-11.4719
張廷	-11.4723
武陵人	-11.4723
龍尾	-11.4724
思誠	-11.4726
沮水	-11.4727
頺	-11.4732
厪	-11.4733
疑獄	-11.4734
斯文	-11.4734
父兄	-11.4734
嚙	-11.4734
於是乎	-11.4736
程鄉	-11.4737
無何	-11.4738
茨	-11.4741
驪山	-11.4742
分支	-11.4744
豫章書	-11.4745
濺	-11.4747
二十里至	-11.4748
諸軍事	-11.4751
俄羅斯	-11.4752
宇宙	-11.4753
脇	-11.4755
上中下	-11.4755
學者稱	-11.4757
髙一丈	-11.4764
李自成	-11.4768
九十六	-11.477
半月	-11.477
雲臺	-11.4773
殉難	-11.4773
叄分	-11.4774
閟	-11.4776
郡屬	-11.4781
百六十里	-11.4781
埔	-11.4782
隴右	-11.4782
海寜	-11.4782
免其	-11.4785
遂廢	-11.4785
新橋	-11.4787
東一里	-11.4789
▁按	-11.479
寀	-11.479
十巻	-11.4791
緇	-11.4793
平陽府	-11.4794
乙巳	-11.4795
葭州	-11.4795
瀕海	-11.4796
儋	-11.4797
軍器	-11.4798
苕	-11.4799
在縣東三十里	-11.4799
囿	-11.48
俱廢	-11.4802
圖畫	-11.4802
全州	-11.4805
依山	-11.4806
三十丈	-11.4807
擊破之	-11.4809
渟	-11.481
窓	-11.4811
杵	-11.4812
石四斗	-11.4812
螭	-11.4814
津梁	-11.4814
太僕	-11.4816
帙	-11.4816
通州人	-11.4817
兩月	-11.4818
各汛	-11.4818
相似	-11.4819
景雲	-11.482
八萬	-11.482
空中	-11.482
所掠	-11.4822
一十一	-11.4823
祭之	-11.4824
招降	-11.4824
葬於	-11.4825
以賑	-11.4826
于朝	-11.4828
詩話	-11.4828
畋	-11.4829
外實	-11.4831
按察副使	-11.4832
絶壁	-11.4833
凑	-11.4833
紀勝	-11.4833
奉上諭	-11.4833
悉心	-11.4834
丙寅	-11.4834
沅陵	-11.4834
麾下	-11.4834
髙二丈	-11.4836
禁止	-11.4839
烏江	-11.4839
未央宫	-11.4841
一枝	-11.4844
十八日	-11.4847
西五里	-11.4848
承恩	-11.4848
青石	-11.4848
蒋	-11.4849
逃亡	-11.4851
十字	-11.4853
五雲	-11.4853
練湖	-11.4854
提㸃	-11.4855
以拒	-11.4856
遇閏加	-11.4857
孺子	-11.4857
又東入	-11.486
嶺北	-11.4861
兵討	-11.4863
屹然	-11.4866
嗟乎	-11.487
十一里	-11.4871
二千七百	-11.4872
道塲	-11.4872
長老	-11.4874
窣堵波	-11.4879
運判	-11.4879
泯	-11.4879
召入	-11.488
轉輸	-11.488
不離	-11.4881
射之	-11.4882
縣東南五十里	-11.4883
毅然	-11.4883
奮勇	-11.4889
共徵	-11.489
東方	-11.489
造化	-11.4892
屐	-11.4892
瓣	-11.4892
岷州	-11.4895
崞縣	-11.4895
胡公	-11.4895
壯士	-11.4897
漬	-11.4899
人行伍	-11.4901
璩	-11.4905
洪洞	-11.4909
泚	-11.491
佗	-11.491
釐三毫	-11.491
吸	-11.4911
妻盧氏	-11.4913
滔	-11.4915
縂	-11.4916
峴山	-11.4916
合江	-11.4917
詩序	-11.4917
先年	-11.492
國柱	-11.492
丹水	-11.4922
湖州府	-11.4924
昭文	-11.4924
上猶	-11.4925
雲寺	-11.4925
四百四十	-11.4927
雲梯	-11.4927
豪傑	-11.493
虹橋	-11.493
縣界二十里	-11.493
中有石	-11.4933
報可	-11.4933
卵	-11.4933
處置	-11.4937
夏邑	-11.4937
不變	-11.4938
義勇	-11.4938
値	-11.4939
俱死	-11.494
遡	-11.4941
五十餘里	-11.4941
銅梁	-11.4943
紱	-11.4944
西五十里	-11.4945
别墅	-11.4946
太初	-11.4946
増置	-11.495
光宗	-11.495
陽曲人	-11.4951
棟宇	-11.4952
友善	-11.4952
艷	-11.4953
圎	-11.4957
苻堅	-11.4957
字宗	-11.4958
闍	-11.4959
年老	-11.4962
靈璧	-11.4962
四百六十	-11.4962
文翁	-11.4966
方物	-11.4967
養姑	-11.497
瀋陽	-11.4972
二種	-11.4972
柰	-11.4972
義熙	-11.4973
浙省	-11.4975
匣	-11.4975
奨	-11.4977
康熙六年	-11.4977
二千四百	-11.4978
鄉兵	-11.4979
信都	-11.4979
二十日	-11.4979
荒田	-11.4981
崇義	-11.4981
名賢	-11.4982
錦繡	-11.4982
平凉	-11.4982
天性	-11.4983
州推官	-11.4984
睹	-11.4986
十二日	-11.4987
而弗	-11.4987
清凉	-11.4988
在府東南	-11.4989
其弊	-11.4989
無所不	-11.4989
竊發	-11.499
氣象	-11.499
善騎射	-11.4991
依然	-11.4992
又南逕	-11.4994
而為之	-11.4996
腥	-11.4997
家樓	-11.4998
射圃	-11.4999
刑部郎中	-11.5004
潘季馴	-11.5004
靈寳	-11.5009
已久	-11.5011
竹木	-11.5012
最髙	-11.5013
浩然	-11.5014
鬢	-11.5016
儘	-11.5018
七十四	-11.502
穆宗	-11.5022
臨安人	-11.5023
全書	-11.5023
沓	-11.5023
今存	-11.5024
别為	-11.5024
伏乞	-11.5024
諸泉	-11.5026
祀漢	-11.5027
琇	-11.5027
明徳	-11.5028
成都人	-11.5028
其所以	-11.5028
置巡司	-11.5028
隋初	-11.5028
竹林	-11.503
人嘉靖進士	-11.5031
魏晉	-11.5033
晉因之	-11.5034
靈芝	-11.5034
募兵	-11.5035
季子	-11.5035
白帝	-11.5035
輔臣	-11.5036
㐮	-11.5036
至縣治	-11.5039
百餘年	-11.504
舛	-11.5041
劑	-11.5041
富春	-11.5043
四十里至	-11.5047
井陘	-11.5048
畎	-11.5051
巴州	-11.5051
赤烏	-11.5052
芾	-11.5052
兩崖	-11.5056
物産	-11.5057
冨	-11.5059
鴟	-11.5061
關外	-11.5061
鎮標	-11.5061
不求	-11.5066
紹熙	-11.5066
深不可測	-11.5068
四寸	-11.5068
復還	-11.507
曲曲	-11.507
田疇	-11.5073
終始	-11.5073
凡所	-11.5078
六朝	-11.5079
蝶	-11.5079
厥後	-11.5081
二千二百	-11.5082
撞	-11.5083
忠義祠	-11.5083
遂平	-11.5085
圖志	-11.5085
靈異	-11.5086
猗	-11.5087
欣然	-11.509
譴	-11.5091
出沒	-11.5095
縉紳	-11.5095
侯廟	-11.5096
者是也	-11.5097
棉	-11.5099
遺風	-11.51
盃	-11.51
五代史	-11.5101
玉皇	-11.5102
甘棠	-11.5102
里南北袤	-11.5102
靈隠	-11.5102
妻鄧氏	-11.5104
袂	-11.5105
章句	-11.5106
呉淞江	-11.5107
可用	-11.5108
今嵗	-11.511
媒	-11.511
五寸	-11.511
吉祥	-11.511
梟	-11.5112
新建人	-11.5113
事聞贈	-11.5113
學記	-11.5114
在州治東	-11.5115
剰	-11.5117
情形	-11.5118
七嵗	-11.5119
擎	-11.512
縣城北	-11.512
㕘軍	-11.5121
安豐	-11.5123
導之	-11.5123
山房	-11.5124
百濟	-11.5125
卸	-11.5125
普定	-11.5125
妻彭氏	-11.5126
縣西十五里	-11.5127
崇聖祠	-11.5131
逰擊	-11.5131
隋改	-11.5131
異常	-11.5132
執法	-11.5132
六寸	-11.5133
魏公	-11.5136
流沙	-11.5136
白金	-11.5139
年六十	-11.5139
大驚	-11.5139
老僧	-11.514
元一統志	-11.5142
俶	-11.5143
銅鼓	-11.5144
之禍	-11.5145
廢郡	-11.5147
者咸	-11.5147
尤精	-11.5148
稟	-11.5148
兵備副使	-11.5149
太谷	-11.5149
七萬	-11.5153
元吉	-11.5153
烏什	-11.5153
山之西	-11.5156
徳宗	-11.5156
獻賊	-11.5157
四十九年	-11.5158
藎	-11.516
驂	-11.5164
十八年改	-11.5165
被災	-11.5165
傳詳	-11.5165
天章	-11.5165
晞	-11.5167
樞密院	-11.517
晷	-11.5171
春三月	-11.5173
垓	-11.5173
七十九	-11.5174
豸	-11.5175
滕縣	-11.5175
請於朝	-11.5182
興廢	-11.5183
民心	-11.5184
兩峯	-11.5184
燿	-11.5184
母疾	-11.5184
人呼為	-11.5185
己卯	-11.5186
億萬	-11.5188
紇	-11.5188
繒	-11.5188
著作郎	-11.5191
党	-11.5195
東連	-11.5196
海岸	-11.5197
社稷壇	-11.5198
營守備	-11.52
特命	-11.5201
朝議	-11.5201
卒年八十	-11.5203
羊腸	-11.5206
尋陞	-11.5207
總領	-11.5208
六斗	-11.521
崇慶	-11.521
新設	-11.5211
立功	-11.5212
元韻	-11.5213
宗時為	-11.5214
武寧	-11.5214
宕	-11.5216
敗走	-11.5216
明正德	-11.5217
興隆	-11.5222
一區	-11.5224
於兹	-11.5225
累擢	-11.5226
鈐	-11.5227
修舉	-11.5227
啓閉	-11.5228
母憂	-11.5228
忙	-11.5228
愜	-11.5229
堂邑	-11.5231
按察	-11.5231
瀋	-11.5233
家寨	-11.5233
世同居	-11.5237
在縣西三十里	-11.5237
中京	-11.5238
欽此	-11.5238
祁門人	-11.5243
徐邳	-11.5246
闕下	-11.5254
脆	-11.5254
信豐	-11.5254
八十三	-11.5255
無忌	-11.5257
濟隂	-11.5258
挖	-11.5259
三千餘	-11.5265
秋糧	-11.5266
坳	-11.5266
延陵	-11.5267
精兵	-11.5267
五年置	-11.5268
奉裁	-11.5269
忠信	-11.527
瑊	-11.5271
縣南二十里	-11.5272
繫獄	-11.5273
應麟	-11.5276
昴	-11.5279
太宗時	-11.5282
乾祐	-11.5282
混同江	-11.5284
㑹試	-11.5285
謫戍	-11.529
秘閣	-11.5291
斾	-11.5292
卒年七十	-11.5293
二千三百	-11.5296
疏通	-11.53
四百七十	-11.5303
以明經	-11.5304
秀才	-11.5307
元史地理志	-11.5309
守禦千户所	-11.5309
縣治北	-11.5311
峪口	-11.5312
一百九十里	-11.5312
羣盜	-11.5313
寂寞	-11.5314
萬緡	-11.5314
齊魯	-11.5317
西陵	-11.532
五百五十	-11.532
采石	-11.5321
薦授	-11.5321
郡後魏	-11.5321
文辭	-11.5322
可望	-11.5322
五百餘	-11.5323
萬松	-11.5324
子胥	-11.5326
邵伯	-11.533
八合	-11.533
賑恤	-11.5331
芸	-11.5332
窖	-11.5332
保妻	-11.5333
銀一百	-11.5336
供養	-11.5336
阿里	-11.5338
東十里	-11.534
王維	-11.5341
范蠡	-11.5341
溪口	-11.5343
寤	-11.5343
金碧	-11.5343
譟	-11.5344
蒼翠	-11.5346
精神	-11.5346
都督僉事	-11.5347
蒙古語	-11.5348
縣東南六十里	-11.5349
叄千	-11.5349
入洛	-11.5353
忤㫖	-11.5355
隘口	-11.5357
麻城	-11.5361
年二十八	-11.5362
絲九忽	-11.5362
閭里	-11.5363
四圍	-11.5363
覬	-11.5364
司獄	-11.5364
第六	-11.5365
烟霞	-11.5365
聰明	-11.5366
異時	-11.5366
一篇	-11.5368
頌之	-11.5369
舉孝亷	-11.537
御前	-11.5371
斬其	-11.5372
芋	-11.5374
陂塘	-11.5376
慈溪	-11.5376
辛夘	-11.5376
趙公	-11.5376
建康府	-11.5376
利民	-11.5377
進賢人	-11.5378
枋	-11.538
髙昌	-11.5382
九十七	-11.5383
驛站	-11.5383
麋	-11.5384
嘗謂	-11.5384
把總四員	-11.5387
入于海	-11.5387
都水監	-11.5388
砩	-11.5389
和卓	-11.539
縣故城東	-11.5393
墊江	-11.5393
澍	-11.5393
惟此	-11.5395
士庶	-11.5395
北去	-11.5396
周五里	-11.5398
汛地	-11.5398
三十萬	-11.5399
芮城	-11.54
义	-11.5401
芥	-11.5401
櫺星門	-11.5402
東南入	-11.5402
二升	-11.5403
駛	-11.5404
擘	-11.5405
萬象	-11.5405
長隄	-11.5408
日本	-11.541
亂石	-11.5411
其狀	-11.5416
封禪	-11.5416
元和郡縣志	-11.5418
保甲	-11.5419
監生康	-11.5419
串	-11.5421
蘄水人	-11.5422
抜	-11.5422
元和中	-11.5423
簮	-11.5423
雉堞	-11.5423
太和中	-11.5425
景龍	-11.5425
巗	-11.5425
諭㫖	-11.5429
汨	-11.5429
加修	-11.5431
罵不絶口	-11.5431
開浚	-11.5432
新化	-11.5433
湖之水	-11.5434
八十二	-11.5438
入黄河	-11.5439
君子之	-11.544
甃石	-11.544
宜君	-11.544
靑	-11.5442
韓信	-11.5444
侍從	-11.5445
牋	-11.5447
淮陽	-11.5449
穫	-11.5449
卒謚	-11.545
轉運副使	-11.5451
西征	-11.5451
倜儻	-11.5451
佞	-11.5452
吿	-11.5456
八十七	-11.5459
莎	-11.5462
定遠	-11.5464
每石	-11.5466
茸	-11.5467
憚之	-11.5467
居焉	-11.5467
紺	-11.5468
戰敗	-11.5468
天中式	-11.5469
洶湧	-11.5471
最多	-11.5472
蠱	-11.5473
正德間	-11.5475
州判官	-11.5478
兩廣	-11.5478
王佐	-11.5479
鈺	-11.548
金雞	-11.5483
鄠	-11.5484
葭	-11.5485
少寡	-11.5485
人萬厯進士	-11.5485
延年	-11.5486
舉人康熙	-11.5487
闔閭	-11.5487
七升	-11.5492
妻蘇氏	-11.5492
振武	-11.5493
在縣西二十里	-11.5498
家壩	-11.5498
蒲圻	-11.5499
道徳	-11.55
有㫖	-11.55
咄	-11.5503
汾隂	-11.5503
西距	-11.5503
縣北二十里	-11.5505
貴陽人	-11.5506
銖	-11.5507
疾苦	-11.5508
福院	-11.551
惠帝	-11.5511
楚州	-11.5512
嵓	-11.5514
洋縣	-11.5515
輿地紀勝在	-11.5517
翎	-11.5517
地形志	-11.5517
功加	-11.552
幾何	-11.5522
澠池	-11.5523
李繼	-11.5527
設伏	-11.5528
領軍	-11.5528
八十一	-11.5531
瞭	-11.5531
水又東南	-11.5532
藝文志	-11.5532
待詔	-11.5533
遠近	-11.5533
日久	-11.5534
梓州	-11.5534
碭	-11.5536
根本	-11.5537
儆	-11.5537
柿	-11.5538
庥	-11.5539
轟	-11.5539
殿中侍御史	-11.5539
順義	-11.554
廣陽	-11.5543
迎恩	-11.5544
廣寕	-11.5545
具題奉	-11.5546
捉	-11.5548
十五卷	-11.555
西北五十里	-11.555
劉禹錫	-11.5552
雨雹	-11.5554
毛詩	-11.5555
西偏	-11.556
以文學	-11.5561
文煥	-11.5561
明洪武間	-11.5562
盾	-11.5562
當路	-11.5563
周旋	-11.5564
萊州	-11.5565
銃	-11.5566
黟	-11.5567
元氣	-11.5571
琚	-11.5571
車騎	-11.5574
也哉	-11.5575
中央	-11.5575
伏兵	-11.5575
沫	-11.5576
萬騎	-11.5577
釣魚	-11.5578
村落	-11.5582
雲漢	-11.5584
最大	-11.5585
三角	-11.5585
招徠	-11.5585
通濟橋	-11.5585
吝	-11.5586
夀春	-11.5586
鄜延	-11.5586
妻田氏	-11.5586
由來	-11.5587
旗軍	-11.5587
釐一毫	-11.5588
曰卿	-11.5588
論功	-11.5588
溝河	-11.5589
延安府	-11.5592
以捍	-11.5592
交河	-11.5593
夏六月	-11.5594
言語	-11.5595
洹	-11.5595
㕔事	-11.5596
均乾隆年間	-11.5596
魏武	-11.5598
忩	-11.56
鄂州	-11.5601
上洛	-11.5602
惟神	-11.5604
倉卒	-11.5605
緋	-11.5607
延津	-11.5607
懦	-11.5609
鄯	-11.5609
所鑿	-11.5609
軍營	-11.5609
臺灣	-11.5619
長壽	-11.5619
卡倫	-11.5619
甑	-11.5619
墾田	-11.562
元昊	-11.562
萼	-11.562
崆峒	-11.5621
騎都尉	-11.5623
南流經	-11.5624
邾	-11.5624
一萬五千	-11.5624
縣東南二十里	-11.5625
翫	-11.5626
最高	-11.5626
扁舟	-11.5634
綦	-11.5635
嘯聚	-11.5637
永不加賦	-11.5637
大典	-11.5637
端拱	-11.5639
鄉賢	-11.5639
改築	-11.564
就近	-11.564
稹	-11.5641
在府西南	-11.5644
濬縣	-11.5645
皇慶	-11.5647
五升	-11.5648
鯁	-11.5652
僣	-11.5652
元至正間	-11.5653
一萬四千	-11.5654
好事者	-11.5656
該督撫	-11.566
畿輔	-11.5661
二十八年任	-11.5662
力戰死	-11.5664
煑	-11.5664
者輒	-11.5665
烏蘭	-11.5666
魏郡	-11.5667
㳂	-11.5667
摯	-11.5668
謝安	-11.5672
烏撒	-11.5673
殤	-11.5673
陽故城	-11.5674
肄業	-11.5675
當陽	-11.5675
伏誅	-11.5678
太僕寺	-11.5678
左布政	-11.5679
深處	-11.5679
衞所	-11.5679
供億	-11.568
禺	-11.5683
儀徵	-11.5683
迤北	-11.5684
兵亂	-11.5686
延夀	-11.5687
長一千	-11.5687
夫病	-11.5689
河溢	-11.5689
不涸	-11.5691
而巳	-11.5691
人戊	-11.5692
準噶爾	-11.5693
二百步	-11.5694
頭目	-11.5696
亭記	-11.5696
不負	-11.5696
奸民	-11.5698
啜	-11.5698
築壩	-11.5699
其說	-11.5702
前來	-11.5702
秋冬	-11.5704
二十七里	-11.5704
兵敗	-11.5707
縣界一百二十里	-11.5708
荔枝	-11.5709
儒者	-11.5711
顓	-11.5713
實徴銀	-11.5713
滎	-11.5714
侯國	-11.5715
愬	-11.5716
未敢	-11.5723
州學正	-11.5724
嵊縣	-11.5726
原係	-11.5729
嵯峨	-11.573
五十丈	-11.573
鏗	-11.573
遘	-11.5731
報恩	-11.5733
詔贈	-11.5733
菰	-11.5734
部使者	-11.5737
執中	-11.5737
我來	-11.5738
伊吾	-11.5738
艇	-11.5738
勤勞	-11.5739
征伐	-11.5741
正綂	-11.5742
飼	-11.5742
趙希	-11.5742
嘉熙	-11.5742
工役	-11.5744
七年建	-11.5745
一畆	-11.5745
兵火	-11.5746
不須	-11.5746
先農壇	-11.5749
仍令	-11.5749
香火	-11.575
書法	-11.5752
新蔡	-11.5752
入闗	-11.5753
鄉黨	-11.5754
兼置	-11.5756
祖陵	-11.5756
河南尹	-11.5757
府長史	-11.5757
孤城	-11.5759
隧	-11.576
淞江	-11.576
羆	-11.5762
按察司僉事	-11.5763
醴陵	-11.5764
山頂有	-11.5767
八十八	-11.5769
又東流	-11.5769
剛直	-11.577
兼知	-11.577
部員外	-11.5771
六百里	-11.5772
飲馬	-11.5775
尚書省	-11.5776
軻	-11.5777
壽昌	-11.5777
拈	-11.5777
顯慶	-11.5782
五老	-11.5783
相承	-11.5786
别業	-11.5787
右衛	-11.5788
各該	-11.579
愕	-11.579
父喪	-11.579
養母	-11.579
簿書	-11.5796
汜	-11.5798
乙未進士	-11.58
翬	-11.5801
足矣	-11.5802
耘	-11.5803
拏	-11.5804
瘡	-11.5804
邦彦	-11.5805
牛馬	-11.5806
原任	-11.5809
盎	-11.5809
噬	-11.581
遂寧	-11.5812
伍絲	-11.5813
哺	-11.5813
江蘇	-11.5814
腋	-11.5817
太華	-11.5818
順治二年任	-11.5819
汜水	-11.582
上虞縣	-11.5824
門樓	-11.5825
大悦	-11.5825
繭	-11.5827
䧏	-11.5829
衾	-11.5829
糧儲	-11.5831
黄門侍郎	-11.5831
招討使	-11.5832
僦	-11.5832
清慎	-11.5836
水涸	-11.5836
范公	-11.5838
邑民	-11.5838
諸峯	-11.5839
東麓	-11.5844
雙節	-11.5845
經畫	-11.5846
捌千	-11.5847
縣南四十里	-11.5849
集二十卷	-11.5849
閃	-11.5849
騶	-11.585
性命	-11.5853
定逺人	-11.5855
與語	-11.5855
之墟	-11.5856
昭義	-11.5857
鑛	-11.5858
飛雲	-11.5858
在縣南三十里	-11.5862
金谿人	-11.5862
寛厚	-11.5866
獻帝	-11.5866
酈道元	-11.5866
家店	-11.5867
進士康熙	-11.5868
黎陽	-11.5869
字敬	-11.5869
嗇	-11.5872
二里許	-11.5875
星紀	-11.5876
相合	-11.588
詈	-11.5881
夘	-11.5882
不渝	-11.5882
龍巖	-11.5882
塘浦	-11.5886
八十九	-11.5888
枝江	-11.589
八年建	-11.589
十三日	-11.589
孝亷	-11.5891
髙帝	-11.5892
宋太平興國	-11.5893
峽口	-11.5893
催科	-11.5894
太僕卿	-11.5894
代宗	-11.5894
撼	-11.5895
轉運司	-11.5898
事繼母	-11.5898
海外	-11.59
殉節	-11.5902
諸夷	-11.5905
東陽人	-11.5906
雲集	-11.5907
未足	-11.5908
俗尚	-11.5912
瑰	-11.5914
詔賜	-11.5914
水東逕	-11.5918
㭍百	-11.5918
豪强	-11.5919
為刺史	-11.592
斯民	-11.5921
懶	-11.5921
何足	-11.5924
上表	-11.5924
所撰	-11.5926
蘄州人	-11.5926
石勒	-11.5926
憐其	-11.5927
望仙	-11.5927
于此置	-11.5928
義興	-11.593
常州府	-11.5933
入寇	-11.5935
見殺	-11.5936
班固	-11.5937
夀陽	-11.5937
尊經閣	-11.5939
裡	-11.5939
督理	-11.5942
二十一年任	-11.5942
事例	-11.5945
晰	-11.5945
戕	-11.5945
妻陶氏	-11.5946
教民	-11.5948
夫差	-11.595
秦屬	-11.5951
留心	-11.5951
戰國時	-11.5953
泮池	-11.5954
入太學	-11.5954
五百六十	-11.5956
夾道	-11.5957
虎豹	-11.5957
小舟	-11.5957
黄氏書目	-11.5958
西一里	-11.596
三十名	-11.5961
等共	-11.5962
屢修	-11.5962
甚盛	-11.5963
坐事	-11.5964
閤門	-11.5965
泰始	-11.5965
臨武	-11.5966
懌	-11.5968
清操	-11.5969
妻魏氏	-11.5971
櫟陽	-11.5972
西充	-11.5974
疏言	-11.5976
廵檢司	-11.5976
㫤	-11.5978
罔不	-11.598
縣西北六十里	-11.598
臨幸	-11.5982
以遏	-11.5983
字德	-11.5983
頂有	-11.5983
蹊	-11.5984
甚厚	-11.5985
潮陽人	-11.5986
突起	-11.5988
泇河	-11.5988
斗六升	-11.5988
知縣楊	-11.5988
届	-11.5991
登髙	-11.5992
起下至	-11.5992
神宗時	-11.5993
家庄	-11.5995
廣袤	-11.5997
不逮	-11.5997
忠武	-11.5998
鐘鼓	-11.5998
三十六里	-11.6
樂昌	-11.6001
縹緲	-11.6004
庫勒	-11.6006
莆	-11.6006
娑	-11.6007
桶	-11.6008
戸口	-11.6009
州團練使	-11.6011
紫雲	-11.6011
郭氏	-11.6014
如一日	-11.6014
揚雄	-11.6017
元大徳	-11.6019
廩生	-11.602
迤南	-11.602
吾民	-11.6024
隈	-11.6027
石隄	-11.6028
逄	-11.6031
松滋	-11.6031
鏘	-11.6031
范成大	-11.6032
絢	-11.6033
未央	-11.6035
碶	-11.6036
歲饑	-11.604
滛	-11.6041
嘉興府	-11.6041
蘭溪	-11.6043
堯臣	-11.6044
癸夘	-11.6045
南畿志	-11.6046
巡按御史	-11.6046
輿圖	-11.6047
貢院	-11.6049
軍需	-11.605
四百九十	-11.6051
突兀	-11.6051
還家	-11.6052
隆慶間	-11.6053
聞風	-11.6054
前殿	-11.6055
棊	-11.6055
蒼蒼	-11.6055
貞觀中	-11.6056
劃	-11.6058
僖宗	-11.6063
麻姑	-11.6063
神道碑	-11.6064
我國家	-11.6065
祁門	-11.6066
其屍	-11.6069
逐一	-11.6071
𫝊詳	-11.6071
雙流	-11.6071
居喪	-11.6074
仲淹	-11.6077
菑	-11.6081
友愛	-11.6081
夸	-11.6081
守仁	-11.6081
雯	-11.6081
督府	-11.6082
牽牛	-11.6085
十有四	-11.6085
糧道	-11.6087
杜甫詩	-11.6087
尚書郎	-11.6087
撰文	-11.6089
廷試	-11.609
黄沙	-11.6092
少傅	-11.6093
仙釋	-11.6094
菏	-11.6095
琿	-11.6096
荆州刺史	-11.6096
商旅	-11.6097
注之又	-11.6099
以忤	-11.61
媯	-11.6102
菩提	-11.6104
㪚	-11.6104
經略	-11.6106
租銀	-11.6106
鑿山	-11.6113
崙	-11.6114
躬親	-11.6114
高陽	-11.6115
四百三十	-11.6116
如其言	-11.6116
勤王	-11.6117
支給	-11.6122
郭外	-11.6123
己夘	-11.6125
桓温	-11.6126
砥柱	-11.6126
諸邑	-11.6126
濳	-11.6127
東偏	-11.6127
畏服	-11.6131
鄆城	-11.6131
東四十里	-11.6133
林泉	-11.6133
冺	-11.6135
少陵	-11.6137
騏	-11.6139
淙	-11.6142
來降	-11.6148
人進士康	-11.615
埀	-11.6151
督臣	-11.6151
庫車	-11.6151
數目	-11.6156
洵陽	-11.6157
感泣	-11.6157
廢帝	-11.6162
帥師	-11.6162
圖説	-11.6169
總理河道	-11.617
鸛	-11.6171
聲聞	-11.6173
靈帝	-11.6173
高堰	-11.6175
良田	-11.6176
下流入	-11.6178
無際	-11.6178
尉遲	-11.6179
十里西南至	-11.6179
晶	-11.6179
尺寸	-11.6181
今據	-11.6181
元祐中	-11.6182
伏流	-11.6182
高陵	-11.6183
高峻	-11.6184
縣接界	-11.6185
哈爾	-11.6186
九原	-11.6188
京西	-11.6189
石磴	-11.619
無患	-11.619
七百里	-11.619
順流	-11.6191
北流逕	-11.6191
銀一十	-11.6192
長白山	-11.6195
糧運	-11.6198
西南二十里	-11.6198
義烏	-11.6198
蒲圻人	-11.6199
苾	-11.62
不息	-11.6203
朔望	-11.6205
三峽	-11.6206
中書省	-11.6207
鳥獸	-11.6208
士英	-11.6211
十六日	-11.6214
朝散大夫	-11.6215
從父	-11.6216
蚌	-11.6216
烏孫	-11.6216
戊辰進士	-11.6216
民咸	-11.6218
蟄	-11.6219
宣公	-11.622
邊境	-11.6221
舉人授	-11.6222
和碩	-11.6222
妻薛氏	-11.6222
巡幸	-11.6222
山之南	-11.6223
鄉侯	-11.6225
馬夫	-11.6226
子幼	-11.6228
羣書	-11.6229
翠屏	-11.6229
豪猾	-11.6229
他處	-11.6231
皇子	-11.6233
柒拾	-11.6234
晉江人	-11.6236
邕州	-11.6237
翮	-11.6238
晏然	-11.6239
南嶽	-11.624
敗績	-11.6241
科舉	-11.6241
仲尼	-11.6245
縣南五十里	-11.6249
陳倉	-11.6249
撻	-11.625
塗山	-11.625
三座	-11.625
后土	-11.6251
良久	-11.6257
罵賊死	-11.6257
無為州	-11.6257
忽見	-11.6259
失所	-11.626
不可復	-11.6262
靖江	-11.6263
罅	-11.6263
硤	-11.6263
朝奉郎	-11.6264
白衣	-11.6264
桐柏	-11.6267
旌旗	-11.6268
滑州	-11.627
恩貢	-11.6271
元統	-11.6275
授編修	-11.6275
礟	-11.6275
皇統	-11.6275
隋平陳	-11.6276
典禮	-11.6277
題旌冊	-11.628
沿邊	-11.6281
著聞	-11.6282
唐天寳	-11.6282
先鋒	-11.6283
休息	-11.6286
佘	-11.6289
丰	-11.6289
九十五里	-11.6291
刳	-11.6296
衛指揮	-11.6297
歴陞	-11.6298
無慮	-11.6298
大将軍	-11.6299
營汛	-11.6299
如例	-11.6301
有石室	-11.6302
起科	-11.6303
駱駝	-11.6304
二千一百	-11.6305
仙去	-11.6306
都賦	-11.6306
追贈	-11.6308
大禹	-11.6308
之訛	-11.6309
唐咸通	-11.6309
陕西	-11.6309
統兵	-11.6309
鼉	-11.6312
棗陽	-11.6313
杭州府	-11.6315
髦	-11.6318
叅知政事	-11.632
擢監察御史	-11.6322
叨	-11.6325
弓矢	-11.6325
里南北距一百	-11.6325
儼然	-11.6326
崇禎時	-11.6327
直隷	-11.6329
没於	-11.6331
騎射	-11.6333
洪範	-11.6335
伏波	-11.6335
山陽縣	-11.6336
尤多	-11.6338
部都尉	-11.6338
有石如	-11.6339
軒轅	-11.6342
風月	-11.6342
堨	-11.6342
狀若	-11.6343
石首人	-11.6343
吁	-11.6344
勝覽	-11.6347
東北流逕	-11.635
折而北	-11.6353
擢知	-11.6353
遷徙	-11.6353
秃	-11.6354
宋蘇軾	-11.6356
九華	-11.6356
行中書省	-11.6357
舊唐書地理志	-11.6357
丙戌進士	-11.6357
歴任	-11.6362
封邱	-11.6362
扺	-11.6364
欲奪其志	-11.6364
臭	-11.6367
訓練	-11.6368
萬仞	-11.6368
伯玉	-11.6369
寺碑	-11.637
姓者	-11.6372
鄉貢	-11.6378
璵	-11.638
庫爾	-11.6382
喀爾喀	-11.6384
無憂	-11.6384
在府西北	-11.6386
崛	-11.6389
夫亡守	-11.6392
帕	-11.6392
優免	-11.6393
曰某	-11.6395
虞集	-11.6398
千六百	-11.6399
哈宻	-11.6399
黄陂	-11.6399
宗時任	-11.64
邊牆	-11.6403
豐州	-11.6403
察哈爾	-11.6404
河内人	-11.6404
屬邑	-11.6404
籍貫	-11.6405
巍然	-11.6405
糧銀	-11.6407
祭器	-11.6407
簟	-11.6408
英雄	-11.641
近世	-11.641
北流至	-11.6412
縣本漢	-11.6412
三升	-11.6414
永夀	-11.6415
蜃	-11.6415
䓁	-11.6417
捜	-11.6417
威將軍	-11.6421
隋置	-11.6422
咸寕	-11.6423
裁減	-11.6427
佳氏	-11.6427
查勘	-11.6428
簡州	-11.6429
九峯	-11.6433
彷彿	-11.6434
搭	-11.6435
籲天	-11.6435
順治十	-11.6437
日夕	-11.6438
詔旌	-11.6438
扄	-11.6439
審増	-11.6444
萬泉	-11.6446
新淦人	-11.6447
康熙元年	-11.6447
順治十六年	-11.6448
毘陵	-11.6448
天厯	-11.6449
至正中	-11.645
縣西南六十里	-11.645
經注	-11.645
七十一	-11.6452
仲舒	-11.6454
崖州	-11.6456
相依	-11.6456
西三里	-11.6456
壬辰進士	-11.6459
塔寺	-11.646
欽定日下舊聞考卷	-11.646
樓煩	-11.6461
平章政事	-11.6464
每畝	-11.6465
洮州	-11.6466
羽林	-11.6466
四十七年	-11.6472
異日	-11.6475
日益	-11.6477
層巒	-11.6479
十有一	-11.6481
鍋	-11.6482
莊嚴	-11.6482
永豐人	-11.6483
沙灣	-11.6483
人夫亡守節同縣	-11.6484
驍勇	-11.6485
可憐	-11.6485
郇	-11.6487
莱	-11.6487
東北二十里	-11.6488
磁州	-11.6489
囤	-11.6489
始末	-11.6489
貎	-11.6491
軫念	-11.6491
他郡	-11.6493
岳飛	-11.6494
湧泉	-11.6497
建炎初	-11.65
津橋	-11.6501
物料	-11.6502
貳絲	-11.6502
武昌人	-11.6503
力爭	-11.6505
北極	-11.6505
衝要	-11.6505
俯瞰	-11.6506
他適	-11.6507
珥	-11.6511
良鄉	-11.6511
恠	-11.6513
置閘	-11.6515
刈	-11.6515
夾江	-11.6517
段氏	-11.6518
嘉祐中	-11.6519
石一斗	-11.6519
宣和中	-11.6521
都㑹	-11.6521
鳥道	-11.6523
有警	-11.6525
事翁姑	-11.6527
水衝	-11.6527
蓊	-11.6527
五百四十	-11.6528
鞏昌	-11.6528
馬援	-11.6529
天妃	-11.653
暠	-11.653
石門山	-11.653
項城	-11.6532
極言	-11.6537
東北五十里	-11.6539
應奎	-11.654
關内	-11.6541
逾年	-11.6546
捌絲	-11.6546
練兵	-11.6546
該銀	-11.6547
在縣北三十里	-11.6548
又南為	-11.6548
世稱	-11.6548
有能名	-11.6548
徴收	-11.6551
十里西北至	-11.6551
孔明	-11.6552
八百里	-11.6552
璨	-11.6552
博平	-11.6554
百計	-11.6554
太倉州	-11.6555
泇	-11.6556
江潮	-11.6557
未完	-11.6557
遺書	-11.6558
摺	-11.6559
廵司	-11.6561
金華府志	-11.6561
櫟	-11.6562
姒	-11.6562
乾寧	-11.6564
舊志云	-11.6564
以障	-11.6568
郾城	-11.657
地畝	-11.6571
樹木	-11.6571
青陽人	-11.6573
天長人	-11.6575
韭	-11.6576
虞鄉	-11.6578
兜	-11.6578
入大江	-11.6579
鞋	-11.658
石壩	-11.6581
七卷	-11.6581
郛	-11.6582
鍵	-11.6583
句容人	-11.6583
澄清	-11.6583
大宛	-11.6587
江岸	-11.6587
分省人物考	-11.6588
撈	-11.6588
建業	-11.6589
揚州府	-11.6589
明萬厯間	-11.659
昌樂	-11.6593
嗣位	-11.6593
再遷	-11.6594
巴西	-11.6597
損益	-11.6597
鼈	-11.6599
單縣	-11.66
在州治西	-11.66
巴哈	-11.6604
輻輳	-11.6604
喝	-11.6606
應祥	-11.6606
應天府	-11.6607
昭陵	-11.6608
新繁	-11.6611
九十二	-11.6611
奏罷	-11.6611
臨朐	-11.6612
莾	-11.6613
塤	-11.6621
瀏陽	-11.6622
軍餉	-11.6623
米脂	-11.6624
壯麗	-11.6624
夔州	-11.6626
冬至	-11.6628
貿	-11.6629
珊瑚	-11.6629
篤學	-11.6633
妻傅氏	-11.6635
賻	-11.6637
佛法	-11.6637
五行志	-11.664
寳應人	-11.6641
一隅	-11.6644
闗内	-11.6645
抃	-11.6647
縣地屬	-11.6647
滻	-11.6648
海鹽縣	-11.6651
要路	-11.6654
䆳	-11.6657
寝	-11.6659
肆絲	-11.6661
不畏	-11.6661
長堤	-11.6661
北斗	-11.6662
蒲坂	-11.6664
安岳	-11.6665
瓛	-11.6668
距京師	-11.6671
太武	-11.6671
醫藥	-11.6671
宣洩	-11.6673
欽定	-11.6673
藏經	-11.6676
於縣置	-11.6676
循良	-11.6676
淮泗	-11.6676
默	-11.6678
調度	-11.6678
居仁	-11.6685
士竒	-11.6686
吳越王	-11.6686
五品	-11.6686
往来	-11.6687
東流經	-11.6689
悚	-11.6689
選舉	-11.6689
稱便	-11.669
臨桂	-11.6691
是邦	-11.6692
以為常	-11.6693
金史地理志	-11.6696
昭宗	-11.6696
聘妻	-11.6697
新唐書	-11.6698
夢得	-11.67
䭾	-11.6701
歲旱	-11.6701
閿鄉	-11.6702
嶮	-11.6702
叄釐	-11.6705
朱雀	-11.6706
纍纍	-11.6707
啇	-11.6707
㸑	-11.6711
本色米	-11.6712
拮据	-11.6712
十一日	-11.6713
恩信	-11.6715
樞宻院	-11.6718
焯	-11.6718
關隘	-11.6721
源發	-11.6721
崇禎處州府志	-11.6722
晉寧	-11.6722
蔬食	-11.6723
郎官	-11.6727
個	-11.673
掇	-11.6733
弧	-11.6733
竪	-11.6735
壽州	-11.6735
撰記	-11.6735
逖	-11.6736
沮洳	-11.6737
也舊作	-11.6737
平衍	-11.6737
經濟	-11.6738
灕	-11.6741
叢林	-11.6742
十九日	-11.6744
故謂之	-11.6744
在縣西四十里	-11.6749
謝靈運	-11.6749
千佛	-11.6751
兹土	-11.6752
丁夘	-11.6754
平泉州	-11.6754
厲壇	-11.6755
仄	-11.6756
雲雨	-11.6756
敇	-11.6759
廷杖	-11.6759
在府東北	-11.676
阡陌	-11.676
要衝	-11.6762
芟	-11.6762
廟貌	-11.6764
雲騎尉	-11.6766
吏胥	-11.6766
聖天子	-11.6768
捐修	-11.6769
遂絶	-11.6769
折色糧	-11.6771
獲免	-11.6775
襲封	-11.6775
舟車	-11.6777
髓	-11.6778
興國人	-11.6782
祈雨	-11.6786
陽城人	-11.6786
黎州	-11.6787
檣	-11.6787
南斗	-11.6788
山之北	-11.6789
其一也	-11.6789
明洪武二年	-11.6791
瑞昌	-11.6792
曲陽	-11.6795
瀦水	-11.6796
劉廷	-11.6796
靈武	-11.6796
惟恐	-11.6796
將帥	-11.6801
淮東	-11.6801
大司農	-11.6802
文天祥	-11.6804
真宗時	-11.6804
紵	-11.6805
媪	-11.6805
賜諡	-11.6806
榔	-11.6807
屨	-11.6808
渇	-11.6808
佇	-11.681
光祿大夫	-11.6812
隋文帝	-11.6812
鑄錢	-11.6814
偶然	-11.6815
陂陂	-11.6817
清江浦	-11.6817
京兆人	-11.6818
東西距一百	-11.6819
後改為	-11.6819
滙為	-11.6822
唐書地	-11.6822
俘獲	-11.6823
今考	-11.6823
二千六百	-11.6825
嵬	-11.6828
仰天	-11.6828
襍	-11.6828
盤旋	-11.683
孝婦	-11.683
嚴嵩	-11.683
滿洲語	-11.6831
書屋	-11.6832
節孝祠	-11.6833
尚書左僕射	-11.6833
濰縣	-11.6834
犖	-11.6835
平夷	-11.6843
備禦	-11.6845
兵圍	-11.6846
塔拉	-11.6848
杜牧	-11.6848
臨淮人	-11.6848
州之域	-11.6853
烽火	-11.6853
霍州	-11.6854
肌	-11.6856
督率	-11.6857
田租	-11.6858
翌日	-11.6863
慶厯中	-11.6863
縣東十里	-11.6864
祖父	-11.6866
嗜學	-11.6867
㭍毫	-11.6869
崇禎初	-11.687
覺羅	-11.6871
跑	-11.6872
漑	-11.6874
四壁	-11.6876
趂	-11.6878
成化初	-11.6878
二千八百	-11.6879
黌	-11.6879
寧古塔	-11.6879
大理評事	-11.6884
杜陵	-11.6885
泛漲	-11.6885
衿	-11.6887
哈什	-11.6889
項下	-11.6892
淤淺	-11.6898
十有五	-11.6898
瀘溪	-11.6899
崔嵬	-11.69
兵餉	-11.6902
杼	-11.6905
西寕	-11.6907
入運河	-11.6907
攅	-11.6909
東北六十里	-11.691
縣東北三十里	-11.6911
鄱	-11.6911
神農	-11.6913
趙彦	-11.6914
鞅	-11.6915
松柏	-11.6921
京山人	-11.6921
在府北	-11.6923
旱則	-11.6926
資灌溉	-11.6927
詔旌其門	-11.6927
繼母	-11.6927
東昌府	-11.6928
卓異	-11.6928
堂堂	-11.693
所産	-11.693
張鵬翮	-11.6931
寛平	-11.6933
莭	-11.6933
番民	-11.6934
睢寧	-11.6934
阿布	-11.6934
環抱	-11.6934
縣南十里	-11.6934
耄	-11.6936
二十九年任	-11.6937
甍	-11.6937
西北二十里	-11.6938
純孝	-11.6938
西戎	-11.6942
受禪	-11.6943
有巨石	-11.6944
崇信	-11.6944
佛殿	-11.6945
滏	-11.6946
漑田	-11.6948
庠序	-11.695
二座	-11.695
二十七年任	-11.6952
擣	-11.6959
敲	-11.696
擺	-11.6962
讎	-11.6962
輸納	-11.6963
莫知所	-11.6965
終養	-11.6966
登樓	-11.6967
北流經	-11.6968
百戸	-11.6968
潛山人	-11.6969
桃李	-11.6971
汲縣	-11.6972
水晶	-11.6972
雜處	-11.6974
黻	-11.6976
揀	-11.6976
儉約	-11.6977
逋賦	-11.6981
做	-11.6982
俎	-11.6985
笈	-11.6985
孩	-11.6988
九十八	-11.6989
巴勒	-11.6989
澶州	-11.699
八寸	-11.6992
被掠	-11.6993
櫓	-11.6999
一十八里	-11.7001
甚急	-11.7001
黎城	-11.7002
石三斗	-11.7002
宋末	-11.7003
聖主	-11.7005
洛川	-11.7006
秦嶺	-11.7006
鍼	-11.7007
皥	-11.7007
國朝因之	-11.7009
雲南府	-11.7011
先期	-11.7013
沭	-11.7015
謁者	-11.7016
東五十里	-11.7017
思賢	-11.7019
匾	-11.7021
手足	-11.7022
嘉陵江	-11.7023
歸順	-11.7024
冬十一月	-11.7025
棨	-11.7026
紹興府志	-11.7026
諺	-11.7027
移鎮	-11.7027
擒斬	-11.7028
嘉謨	-11.7028
營都司	-11.7031
閉户	-11.7035
阿拉	-11.7037
朝野	-11.7038
使持節	-11.7038
尚書左丞	-11.7039
躭	-11.7041
不妄	-11.7043
絡繹	-11.7043
伊犁	-11.7046
十有三	-11.7047
五嶽	-11.7048
九卿	-11.7055
儋州	-11.7056
建坊	-11.7056
頃刻	-11.7058
東流至	-11.7059
麓川	-11.7059
謠	-11.7062
叡	-11.7062
這	-11.7062
蘇轍	-11.7064
四十一年任	-11.7065
締	-11.7065
以母老	-11.7067
河朔	-11.7067
涿郡	-11.7068
二千九百	-11.7073
四十四年任	-11.7073
洞洞	-11.7074
安陸人	-11.7074
闢展	-11.7074
以身代	-11.7074
一百八	-11.7077
碌	-11.7081
孱	-11.7083
屯軍	-11.7086
西六十里	-11.7089
縑	-11.7089
在府治南	-11.709
辦理	-11.709
庀	-11.709
蘄水	-11.709
州諸軍事	-11.7091
興利	-11.7092
諉	-11.7092
羊角	-11.7093
役夫	-11.7094
泛濫	-11.7094
府庫	-11.7094
景泰間	-11.7101
徼外	-11.7102
辛丑進士	-11.7102
評事	-11.7103
奉先	-11.7104
卜居	-11.7107
秋九月	-11.7107
御題	-11.7111
府谷	-11.7111
伶	-11.7112
妻施氏	-11.7112
聮	-11.7112
南郊	-11.7113
嘉善人	-11.7113
栝	-11.7113
潮陽	-11.7115
寧鄉	-11.7116
蓬州	-11.7121
澤州人	-11.7122
都勻	-11.7123
泥沙	-11.7125
北伐	-11.7125
講求	-11.7126
離宫	-11.7126
同平章事	-11.7127
糯	-11.7129
彧	-11.7132
義烏人	-11.7133
臨清州	-11.7135
驩	-11.7137
惠安	-11.7144
蒙古名	-11.7144
湟水	-11.7146
特諭	-11.7147
籍貫見前	-11.7149
西南流入	-11.7149
百餘頃	-11.7151
貳伯	-11.7152
哈密	-11.7152
一株	-11.7154
均嘉慶年間	-11.7155
西八十里	-11.7156
衛將軍	-11.7158
平章事	-11.7164
餉銀	-11.7166
豚	-11.7167
百五十	-11.7168
萍鄉	-11.7168
不減	-11.7169
汾河	-11.717
荆棘	-11.717
太原郡	-11.7174
十里東南至	-11.7174
萬戸	-11.7176
有政績	-11.7177
䕶國	-11.7178
堵塞	-11.7179
毫陸絲	-11.7181
术	-11.7181
増設	-11.7182
灤河	-11.7182
鬲	-11.7183
壅塞	-11.7183
乾隆元年	-11.7185
䋲	-11.7186
仙洞	-11.7187
惟謹	-11.7188
妻倪氏	-11.7189
水入焉	-11.7192
檐	-11.7193
装	-11.7193
興寧	-11.7194
知杭州	-11.7195
華容人	-11.7196
孳	-11.7197
縣附郭	-11.7198
寒泉	-11.7202
雍州刺史	-11.7204
班師	-11.7205
松風	-11.7205
卒於家	-11.7206
邯	-11.7207
貴溪人	-11.7208
松林	-11.7208
直沽	-11.7209
又東北流	-11.721
遺蹟	-11.7212
滋陽	-11.7212
髣髴	-11.7214
曝	-11.7216
脯	-11.7217
纛	-11.7219
揣	-11.7221
淮隂	-11.7223
永久	-11.7227
幼孤	-11.7227
親詣	-11.7228
勢若	-11.7229
韓琦	-11.723
副都	-11.7235
五百七十	-11.7236
顔真卿	-11.7238
戩	-11.724
丙辰進士	-11.7241
削籍	-11.7242
柱國	-11.7244
卓然	-11.7245
學教授	-11.7249
無愧	-11.7252
丈四尺	-11.7252
柘城	-11.7253
豐樂	-11.7256
昆陽	-11.7256
圓通	-11.7257
浯	-11.726
金齒	-11.7262
都元帥	-11.7262
額引	-11.7265
江寧府	-11.7268
在縣南二十里	-11.727
扃	-11.727
妻邵氏	-11.727
宋淳熙	-11.7272
韙	-11.7273
建炎中	-11.7276
回首	-11.7279
卒葬	-11.7279
平反	-11.7281
籌畫	-11.7284
積貯	-11.7284
税課	-11.7285
叅将	-11.7286
孝昌	-11.7286
濩	-11.7289
艱苦	-11.7289
臚	-11.729
上柱國	-11.7291
綫	-11.7291
州别駕	-11.7292
榆社	-11.7292
礁	-11.7294
禕	-11.7294
尋常	-11.7295
蘇峻	-11.7295
妻嚴氏	-11.7296
工部郎中	-11.7296
謳	-11.73
部覆	-11.7301
一萬七千	-11.7301
縣西五十里	-11.7303
父死	-11.7304
率師	-11.7305
鼓吹	-11.7306
崤	-11.7307
鄺	-11.7308
宦官	-11.7308
攀龍	-11.7308
漳河	-11.7308
吕梁	-11.7313
糧米	-11.7317
盤江	-11.7317
絕	-11.7318
九十三	-11.732
明萬厯中	-11.7322
魏忠賢	-11.7324
僵	-11.7324
張獻忠	-11.7325
豫州刺史	-11.7326
碑刻	-11.7326
五十步	-11.7327
涪陵	-11.733
數百年	-11.7331
永康人	-11.7333
籲	-11.7336
或問	-11.7336
市舶	-11.7337
屏風	-11.7338
郢州	-11.7339
修防	-11.734
睿宗	-11.7341
甜	-11.7343
嶢	-11.7343
領催	-11.7344
負土	-11.7345
髙峻	-11.7347
永利	-11.7347
遒	-11.7347
同中書門下平章事	-11.7349
暇日	-11.735
侑	-11.735
兵部右侍郎	-11.7352
界一百	-11.736
超然	-11.736
䖍州	-11.7362
科貫見	-11.7363
葛洪	-11.7363
山腰	-11.7363
﨑	-11.7364
維翰	-11.7364
緱	-11.7365
仙女	-11.7366
八角	-11.7368
西魏置	-11.7369
阿克	-11.7369
羔	-11.7369
伋	-11.737
奉祠	-11.737
阿喇	-11.7372
應期	-11.7373
㑹稽郡	-11.7373
上書言	-11.7376
大敗之	-11.7376
葉赫	-11.7376
眩	-11.7376
梅溪	-11.7377
壺闗	-11.7377
㓕	-11.7378
槁	-11.7378
縦	-11.7381
偪	-11.7381
貞元中	-11.7386
隙地	-11.7388
黄陂人	-11.7388
撫孤成立	-11.7389
菖蒲	-11.7391
寕夏	-11.7392
水上承	-11.7393
兩京	-11.7393
楊梅	-11.7394
九疑	-11.7395
四百一十	-11.7396
龍岡	-11.7396
玉帶	-11.7397
夫亡殉節	-11.7398
丈底闊	-11.7402
火燒	-11.7403
淳安人	-11.7405
㤙	-11.7408
三千五百	-11.741
氣候	-11.7411
莫可	-11.7411
封爵	-11.7413
喀喇沁	-11.7414
亡命	-11.7418
停止	-11.742
些	-11.7427
牡	-11.7427
高密	-11.7428
涎	-11.7428
不假	-11.743
妻賈氏	-11.743
兼理	-11.7432
拒戰	-11.7432
揭陽人	-11.7433
賢良方正	-11.7434
干戈	-11.7434
捨宅	-11.7436
題名記	-11.7437
茌平	-11.7439
縣界一百里	-11.744
三十九年任	-11.744
丹砂	-11.744
無量	-11.7442
常州人	-11.7443
至元間	-11.7447
若干卷	-11.7447
奔喪	-11.7447
寕遠	-11.7449
舊經云	-11.745
瀠	-11.7451
湊	-11.7453
獄訟	-11.7453
蘂	-11.7454
期年	-11.7457
厠	-11.7459
推重	-11.7459
菲	-11.746
貧乏	-11.7461
恚	-11.7462
是役也	-11.7465
洪雅	-11.747
丈量	-11.747
二十五日	-11.7472
臨潁	-11.7472
射洪	-11.7473
電白	-11.7473
樗	-11.7475
雛	-11.7477
煥然	-11.7478
瀾滄	-11.7478
六百八十	-11.7479
釃	-11.748
湓	-11.748
魔	-11.7483
顯忠	-11.7483
月堤	-11.7486
楯	-11.7486
畫圖	-11.7488
仙遊	-11.7488
縣東六十里	-11.7489
闗帝廟	-11.7495
三國魏	-11.7497
突出	-11.7499
禮儀	-11.75
洑	-11.7501
丈六尺	-11.7503
山川卷	-11.7504
寧陵	-11.7504
七寸	-11.7506
咱	-11.7508
乙丑進士	-11.7512
駙	-11.7512
蕭條	-11.7517
逼近	-11.7517
禹州	-11.7519
南陵人	-11.7519
發運使	-11.7523
擊敗	-11.7524
汴河	-11.7525
乙夘	-11.7525
筑	-11.7525
峡	-11.7526
松栢	-11.753
崇寕	-11.7531
併力	-11.7531
葩	-11.7531
土百户	-11.7532
炫	-11.7533
奉養	-11.7533
等謹案	-11.7535
註云	-11.7536
冽	-11.7536
鈍	-11.7537
㠶	-11.7537
戡	-11.7539
孑	-11.7541
花園	-11.7543
非所以	-11.7543
規畫	-11.7544
近刻訛	-11.7545
建瓴	-11.7545
壹絲	-11.7549
祝融	-11.7549
尋遷	-11.755
者莫不	-11.7551
母殁	-11.7552
肇慶	-11.7553
六百五十	-11.7554
嚴禁	-11.7554
釜	-11.7555
控扼	-11.7555
炤	-11.7556
十隻	-11.7557
麟遊	-11.7558
黑龍江	-11.7558
感激	-11.7559
仙居人	-11.7559
昬	-11.7563
肄	-11.7563
娶婦	-11.7564
烏爾	-11.7565
薈	-11.7566
馬鞍	-11.7567
十四日	-11.757
禱雨輒應	-11.7575
海寧人	-11.7576
西南夷	-11.758
高聳	-11.7581
性理	-11.7586
曺	-11.7587
驄	-11.7589
彫	-11.7589
囷	-11.7589
城䧟	-11.7592
僖公	-11.7592
二十三年任	-11.7592
愴	-11.7593
夤	-11.7594
人服其	-11.7599
會昌	-11.7606
灞	-11.7607
四十年任	-11.7607
接濟	-11.7608
鴿	-11.7611
箬	-11.7612
鹽亭	-11.7613
縣界二百	-11.7614
蘖	-11.7616
燥	-11.7618
澂江	-11.7621
玉環	-11.7624
躬自	-11.7625
築土城	-11.7625
四十丈	-11.7629
區畫	-11.7632
七員	-11.7635
繼祖	-11.7635
落職	-11.7636
大業初州廢	-11.7637
朝請大夫	-11.7637
梭	-11.7637
暐	-11.7637
郡後周	-11.7638
聲教	-11.7639
抹	-11.7642
梧州	-11.7642
在縣東二十里	-11.7644
果然	-11.7645
靚	-11.7645
雍正五年濬	-11.7646
小麥	-11.7647
沃壤	-11.7648
蹶	-11.765
己丑進士	-11.7651
陶侃	-11.7652
斟酌	-11.7652
少好學	-11.7653
風波	-11.7659
登岸	-11.7659
天眷	-11.7659
水又東南逕	-11.7664
招討	-11.7673
踪	-11.7674
攻破	-11.7674
慄	-11.7674
赴闕	-11.7676
瞑	-11.7676
筐	-11.7677
北抵	-11.7681
景物	-11.7681
金紫	-11.7682
所感	-11.7686
郫縣	-11.7687
隆慶初	-11.7688
蕭山人	-11.7689
天寶初	-11.7689
撰碑	-11.769
闔門	-11.769
宜賓	-11.769
陸續	-11.7691
礬	-11.7692
文苑	-11.7694
元年正月	-11.7695
﨑嶇	-11.7695
梳	-11.7695
鼎新	-11.7698
丈尺	-11.7699
左都御史	-11.7699
募民	-11.7699
勅賜	-11.77
水灌田	-11.7702
閣直學士	-11.7703
四十三年任	-11.7704
又東南經	-11.7705
實徵銀	-11.7705
白崖	-11.7706
碧雲	-11.7706
義烏縣	-11.7706
舞陽	-11.7706
累陞	-11.7707
浙江通志卷	-11.771
遂自縊	-11.7713
卓錫	-11.7714
潞城	-11.7714
躬行	-11.7714
一萬八千	-11.7715
導江	-11.7715
畢節	-11.7716
放生池	-11.7719
慈雲	-11.7723
垠	-11.7724
從兄	-11.7725
拭	-11.773
籀	-11.7733
全椒	-11.7735
米價	-11.774
六百七十	-11.7741
忒	-11.7742
民瘼	-11.7742
縣西十里	-11.7743
正白旗人	-11.7744
勳	-11.775
貴妃	-11.7751
㵎	-11.7752
糧船	-11.7755
妻姜氏	-11.7755
合葬	-11.7755
浚儀	-11.7756
尤工	-11.7756
土酋	-11.7757
畧陽	-11.7759
三江口	-11.7761
驛傳	-11.7762
不衰	-11.7763
蕭蕭	-11.7763
遊擊一員	-11.7765
湯藥	-11.7766
延川	-11.7767
風雲雷雨山川壇	-11.7767
星辰	-11.7767
磐石	-11.7771
遇旱	-11.7772
陵寢	-11.7774
鼓舞	-11.7777
彎	-11.7777
威武	-11.7779
欲汚之	-11.7784
賊攻	-11.7785
七百五十	-11.7786
並峙	-11.7787
喪葬	-11.7787
保全	-11.7788
弑	-11.7789
獨孤	-11.779
颶風	-11.779
水又東北	-11.7792
徒步	-11.7792
紫荆	-11.7792
珽	-11.7794
蒲城人	-11.7795
鏊	-11.7799
守節終身	-11.7802
郿縣	-11.7804
建坊旌表	-11.7807
一駐本營	-11.7808
遮道	-11.7808
萬歴間	-11.7808
保徳	-11.7809
睦州	-11.7814
墓碑	-11.7815
后稷	-11.7815
壽光	-11.7816
兢	-11.7817
泛舟	-11.7819
荷花	-11.7819
康熙三年	-11.7822
副将	-11.7824
烏程縣	-11.7831
城在今	-11.7833
夣	-11.7834
器用	-11.7835
何敢	-11.7835
騾	-11.7836
茒	-11.7837
武徳元年	-11.7837
劒州	-11.7839
徠	-11.7839
三十八年任	-11.7839
風雷	-11.784
記室	-11.7841
報恩寺	-11.7842
望之如	-11.7843
博陵	-11.7843
二年正月	-11.7843
體仁	-11.7845
隋末	-11.7848
不佞	-11.785
峽江	-11.7854
開鑿	-11.7854
欽遵	-11.7855
後周置	-11.7855
鄉勇	-11.7855
贑縣	-11.7856
天慶觀	-11.7859
三千六百	-11.786
萬厯金華府志	-11.7861
弇	-11.7861
縣北四十里	-11.7862
儒術	-11.7863
旱澇	-11.7864
猓	-11.7864
不可考	-11.7867
久逺	-11.7868
㕓	-11.7869
兩㭍錢	-11.787
一里許	-11.7874
提調官	-11.7875
二十八里	-11.788
二百六十里	-11.7881
統軍	-11.7884
俯視	-11.7885
丁未進士	-11.7886
平坦	-11.7887
巢縣人	-11.7888
宛轉	-11.7889
石罅	-11.7889
東南流經	-11.7892
郊祀	-11.7893
曵	-11.7894
稽查	-11.7894
孜孜	-11.7894
粱	-11.7896
竊惟	-11.7896
黄鶴	-11.7896
乞留	-11.7897
乍浦	-11.79
孔子廟	-11.7902
褒城	-11.7903
博覽	-11.7905
有文集	-11.791
宋大中祥符	-11.7912
創築	-11.7914
籥	-11.7915
忭	-11.7917
瑪瑙	-11.7919
年二十九	-11.7919
宫闕	-11.792
毎年	-11.7922
縣東南三十里	-11.7922
繁峙	-11.7922
甘㫖	-11.7923
嬪	-11.7924
吴縣人	-11.7926
二十五年任	-11.7926
沭陽	-11.7927
彈壓	-11.7927
汪洋	-11.7928
肅清	-11.7929
條奏	-11.793
直隸州	-11.793
妻鍾氏	-11.7934
莒州	-11.7938
政務	-11.7938
歎息	-11.794
四十二年任	-11.7944
丁丑進士	-11.7944
控制	-11.7944
宋紹興間	-11.7944
紂	-11.7945
不拘	-11.7945
申請	-11.7947
俚	-11.7948
張士誠	-11.795
拜監察御史	-11.795
以形似名	-11.7952
陡門	-11.7955
躍入	-11.7958
終南山	-11.7958
國子生	-11.7959
枝葉	-11.796
昇仙	-11.796
特賜	-11.7961
奉表	-11.7965
手植	-11.7966
鷲	-11.7966
力竭	-11.7966
鞏縣	-11.7968
左衞	-11.7969
鵰	-11.7972
把總二員	-11.7973
踴躍	-11.798
嫉	-11.7984
甲戌進士	-11.7989
萬厯初	-11.7991
昆明池	-11.7992
腹心	-11.7994
雲霞	-11.7995
隄堰	-11.7997
歲久	-11.7997
鄯善	-11.7998
州教授	-11.7999
璁	-11.7999
蟠龍	-11.8
長驅	-11.8
懐安	-11.8
堌	-11.8001
山陰人	-11.8003
挺身	-11.8004
礎	-11.8005
助教	-11.8006
䜟	-11.8006
訓導署	-11.8009
瘳	-11.801
肆千	-11.801
乾隆四十一年	-11.8012
階州	-11.8012
妻崔氏	-11.8013
江油	-11.8015
洪武三年	-11.8015
奏免	-11.8017
改賜今額	-11.8022
張栻	-11.8024
旁午	-11.8027
夜夢	-11.8028
瑯	-11.803
劈	-11.8033
堊	-11.8035
征討	-11.8035
衝激	-11.8036
五百二十	-11.8036
前項	-11.8037
委曲	-11.8038
羣峯	-11.8038
瀹	-11.8039
臨邑	-11.804
虎丘	-11.8041
留題	-11.8041
江陰	-11.8043
勢甚	-11.8045
伊川	-11.8049
贛榆	-11.805
煇	-11.8053
一十二里	-11.8054
開元寺	-11.8055
夏税	-11.8061
五百八十	-11.8062
三十七年任	-11.8062
桴	-11.8063
有仙人	-11.8063
斟	-11.8064
喙	-11.8065
三十五年任	-11.8066
妻鄒氏	-11.8066
三千七百	-11.8066
尤善	-11.8068
惠政	-11.8069
通舟楫	-11.807
朕心	-11.8072
先王之	-11.8072
冷泉	-11.8073
舗	-11.8082
疾病	-11.8082
不答	-11.8083
滇池	-11.8087
紳士	-11.8089
迓	-11.8093
十有七	-11.8093
踊	-11.8093
黔陽	-11.8095
妻孟氏	-11.8096
㑹通河	-11.8096
卒于官	-11.8096
長一百	-11.8098
七斗	-11.8099
飛瀑	-11.8099
極目	-11.8099
功陞	-11.8105
𤣥武	-11.8106
猗氏人	-11.8106
士習	-11.8109
小清河	-11.811
宰臣	-11.8111
朝邑人	-11.8114
湔	-11.8116
黒龍	-11.8116
謾	-11.8118
閶門	-11.8118
新添	-11.8119
淛	-11.8119
瑯琊	-11.812
裾	-11.812
洪洞人	-11.812
成化四明郡志	-11.812
娯	-11.8121
宓	-11.8123
説法	-11.8123
徵收	-11.8125
哀毁骨立	-11.8126
新寧	-11.8126
鹺	-11.8128
四十萬	-11.8129
俎豆	-11.813
淺深	-11.8131
烏珠	-11.8134
光禄寺	-11.8134
二十一日	-11.8136
児	-11.8136
海濵	-11.8137
世傑	-11.8138
陜西人康熙	-11.814
儂	-11.8142
筦	-11.8143
癸丑進士	-11.8146
澀	-11.8149
紏	-11.815
鬛	-11.815
國子博士	-11.8151
諦	-11.8151
在縣北二十里	-11.8152
水又北	-11.8153
懷逺	-11.8154
芝草	-11.8154
骸骨	-11.8156
榕	-11.8161
漢置縣屬	-11.8161
甲辰進士	-11.8162
仝	-11.8164
蓬溪	-11.8165
三十一年任	-11.8168
路明屬	-11.8168
涔	-11.817
樾	-11.817
倂	-11.817
青州府	-11.8172
昌齡	-11.8172
仿	-11.8175
兼領	-11.8176
朱文公	-11.8178
工完	-11.818
百餘步	-11.8182
差役	-11.8186
壹忽	-11.8187
印綬	-11.8189
郜	-11.8197
萊陽人	-11.8198
倡亂	-11.8199
尋甸	-11.8199
慣	-11.8203
般若	-11.8204
不撓	-11.8204
精舎	-11.8204
國語解見	-11.8209
年八十餘	-11.821
毆	-11.8211
耤	-11.8213
宋元豐	-11.8214
新喻人	-11.8214
提舉司	-11.8215
禽獸	-11.8215
在縣西五十里	-11.8216
伏羲	-11.8219
斗五升	-11.8219
兵部主事	-11.822
廕生	-11.8221
濠州	-11.8221
枳	-11.8224
當事者	-11.8227
水注之水出	-11.8227
窈	-11.8228
蕚	-11.823
娟	-11.8235
土爾扈特	-11.8235
協濟	-11.8236
飛鳥	-11.8236
盥	-11.8236
舸	-11.8237
又東北經	-11.8239
娠	-11.8241
壽春	-11.8245
大理卿	-11.825
玫	-11.8253
偁	-11.8253
瓉	-11.8254
陸游	-11.8254
岷江	-11.8257
父殁	-11.8257
暈	-11.8257
南昌府	-11.8258
窈窕	-11.826
壌	-11.826
逆賊	-11.8262
簡易	-11.8263
賊巢	-11.8264
詳請	-11.8265
舊宅	-11.8265
九十四	-11.8265
氏閑散	-11.8265
元延祐	-11.8265
貞節	-11.8268
濡水	-11.8269
上海縣	-11.827
一丈八尺	-11.8271
文忠公	-11.8273
閲月	-11.8273
户部郎中	-11.8275
責令	-11.8279
軍旅	-11.8285
巷戰	-11.8288
萊陽	-11.8288
黿	-11.829
五百九十	-11.8291
二百八十里	-11.8291
蜚	-11.8293
癡	-11.8294
寕海	-11.8295
雒南	-11.8295
士俊	-11.8295
㒺	-11.8298
湯隂	-11.8299
蘭亭	-11.8302
兩叄錢	-11.8303
戊戌進士	-11.8312
崇祀	-11.8312
三十二年任	-11.8312
諭祭	-11.8313
夀光	-11.8317
垸	-11.8318
獨存	-11.8318
裔孫	-11.8318
乾隆十六年	-11.832
赤壁	-11.832
蟒	-11.832
袋	-11.8321
奩	-11.8322
順昌	-11.8322
冬春	-11.8323
諏	-11.8325
銀一錢	-11.8325
公諱	-11.8326
皇清順治	-11.8327
宿遷縣	-11.8327
城濠	-11.8329
右布政	-11.833
流血	-11.833
漢書西域傳	-11.833
蘭谿人	-11.833
郡丞	-11.8332
五百一十	-11.8332
力辭	-11.8333
利津	-11.8337
伊洛	-11.8339
潏	-11.8343
山對峙	-11.8344
膩	-11.8346
據險	-11.8348
重慶府	-11.8349
碗	-11.8349
修濬	-11.8351
釋迦	-11.8353
藐	-11.8354
瀰	-11.8354
殲	-11.8357
䘙	-11.8358
巋然	-11.8358
屡	-11.8359
寜夏	-11.8359
烏桓	-11.8361
霄漢	-11.8362
統轄	-11.8365
聖駕	-11.8368
財用	-11.837
𤱔	-11.837
叔父	-11.8371
主客	-11.8374
以功授	-11.8375
教養	-11.8375
威惠	-11.8378
篷	-11.8378
盱	-11.8379
又東合	-11.8379
至城下	-11.8381
轉運判官	-11.8383
三十六年任	-11.8386
𦂳要	-11.8388
冊府	-11.8389
遇閏	-11.8392
一萬六千	-11.8395
四百餘里	-11.8398
寜海	-11.8402
坰	-11.8406
宋史本傳字	-11.8406
硝	-11.8406
不妨	-11.8408
敵臺	-11.8408
越嶲	-11.8409
吳淞	-11.8412
縞	-11.8413
提學副使	-11.8413
甘貧	-11.8413
吠	-11.8413
琅琊	-11.8414
妻史氏	-11.8414
補闕	-11.8414
驍騎校	-11.8415
雍正二年任	-11.8415
初因之	-11.8417
百七十里	-11.8418
湯泉	-11.8419
鶴鳴	-11.8421
駐本營	-11.8422
蓁	-11.8422
沁河	-11.8423
年十三	-11.8423
灃	-11.8427
萬户府	-11.8427
景泰中	-11.843
清苑	-11.8433
萬厯時	-11.8433
四十卷	-11.8435
犯法	-11.8436
罩	-11.8438
譔	-11.844
攫	-11.844
言訖	-11.844
靺鞨	-11.8441
型	-11.8441
句踐	-11.8441
鏃	-11.8442
雲霄	-11.8442
何須	-11.8443
盼	-11.8447
闗係	-11.8447
又東北至	-11.8449
懷遠	-11.8449
弓兵	-11.845
毋得	-11.8454
赴京	-11.8459
倭寇	-11.8462
鱸	-11.8464
夫殁氏年二十	-11.8469
舉明經	-11.847
燄	-11.8473
稍稍	-11.8474
張居正	-11.8476
延壽	-11.8478
六百三十	-11.8479
今圯	-11.8479
九疇	-11.848
雍正五年任	-11.8481
南漳	-11.8482
犯境	-11.8484
桂芳	-11.8486
鏐	-11.8488
竑	-11.8491
養親	-11.8491
全椒人	-11.8492
肱	-11.8494
齊因之	-11.8494
七百八十	-11.8494
滉	-11.8496
潺湲	-11.8497
漕米	-11.8499
娱	-11.85
甘露降	-11.8501
長汀	-11.8505
是夕	-11.8506
乎哉	-11.8506
指示	-11.8508
亙	-11.8508
東六十里	-11.8509
東南逕	-11.8509
桑麻	-11.8517
奉議郎	-11.8518
首惡	-11.852
版圖	-11.8521
攻圍	-11.8521
遹	-11.8521
界六十里	-11.8531
縣界二十五里	-11.8532
殪	-11.8532
解散	-11.8535
藩臬	-11.8537
徽宗時	-11.8538
劇賊	-11.8538
足跡	-11.8539
喪父	-11.8541
乾元元年	-11.8541
親征	-11.8542
高二丈	-11.8544
髙聳	-11.8546
圍錦州	-11.8548
開皇初	-11.8548
漷	-11.8549
嘏	-11.8552
益州刺史	-11.8553
綘	-11.8553
稱疾	-11.8554
三千九百	-11.8556
孀姑	-11.8556
騰越	-11.8557
噪	-11.8559
諲	-11.856
譖	-11.8562
賜宴	-11.8565
猥	-11.8566
沃野	-11.8566
丹井	-11.8567
赤松	-11.8569
奉檄	-11.857
邽	-11.857
滴水	-11.8571
等項共	-11.8575
節儉	-11.8576
魚鱗	-11.8579
梧桐	-11.858
絲捌忽	-11.858
欝	-11.8582
乘勝	-11.8585
六百六十	-11.8586
將軍廟	-11.8586
妻湯氏	-11.8588
啄	-11.8589
峰巒	-11.8589
二十六年任	-11.859
龍灣	-11.8592
廷議	-11.8594
閽	-11.8594
妻熊氏	-11.8597
八陣	-11.8597
路轉運使	-11.8597
無辜	-11.8599
皇極	-11.8613
蕭山縣	-11.8613
帑金	-11.8614
雍正元年任	-11.862
妻秦氏	-11.8621
曉諭	-11.8622
鄮	-11.8622
騖	-11.8624
揚州刺史	-11.8626
康熙年間	-11.8627
無間言	-11.8629
人舉人康	-11.8629
妻石氏	-11.863
峯頂	-11.863
四十五年任	-11.8631
良佐	-11.8633
西南七十里	-11.8635
屈原	-11.8635
壬戌進士	-11.8637
長短	-11.8641
梁大同	-11.8643
廐	-11.8645
海濱	-11.8645
夏后	-11.8647
同縣節婦	-11.8647
高要人	-11.8648
水發源	-11.8649
公安人	-11.8649
趙抃	-11.8651
召募	-11.8652
砌石	-11.8668
暎	-11.8671
州軍事	-11.8673
自為記	-11.8673
應辰	-11.8673
芳草	-11.8675
霈	-11.8675
胷	-11.8677
洋洋	-11.8678
元帥府	-11.8678
跣足	-11.868
蔡邕	-11.8681
瀰漫	-11.8681
整飭	-11.8686
在縣治西南	-11.8687
隋開皇三年	-11.8688
海洋	-11.8691
長蘆	-11.8692
价	-11.8693
淺阻	-11.8695
坐落	-11.8696
臣愚	-11.8698
本朝康	-11.8701
城守營	-11.8702
二十四年任	-11.8703
嵋	-11.8703
當是時	-11.8707
剙	-11.8708
天聖中	-11.8712
晚年	-11.8713
捐金	-11.8713
傾圮	-11.8714
踰月	-11.8717
欽奉	-11.8718
丈二尺	-11.872
継	-11.8721
冬十二月	-11.8723
白鷺	-11.8727
聲如雷	-11.8727
國朝康熈	-11.8727
亡守節	-11.8732
濟寜	-11.8732
熒	-11.8736
對岸	-11.8736
勔	-11.8737
澁	-11.8739
侍讀學士	-11.8739
莊浪	-11.8741
肺	-11.8742
千餘頃	-11.8742
禩	-11.8742
車騎將軍	-11.8742
蠕蠕	-11.8743
公帑	-11.8745
士嘉靖時任	-11.8746
吉凶	-11.8747
額森	-11.8747
進討	-11.875
在縣東四十里	-11.8752
杜陵人	-11.8754
莎車	-11.8755
惻然	-11.8759
唐刺史	-11.876
淋	-11.8764
二十三里	-11.8764
友諒	-11.8764
顯謨	-11.8765
䦨	-11.8766
州長史	-11.877
簒	-11.8775
感動	-11.8777
蠢	-11.8778
吟咏	-11.8778
回鶻	-11.878
南陽府	-11.8781
亷介	-11.8781
詔褒	-11.8783
六百四十	-11.8787
躬耕	-11.8788
按舊志	-11.8788
蓆	-11.879
王十朋	-11.8794
中條山	-11.8794
縝	-11.8795
奉㫖依議	-11.8796
督餉	-11.8796
泡	-11.8797
疏鑿	-11.8797
禹廟	-11.8798
隋開皇十六年	-11.8798
債	-11.8801
撫遺腹子	-11.8802
江西通志卷	-11.8802
嘔血	-11.8804
隋開皇初	-11.8805
巴圖魯	-11.8807
俛	-11.8807
顙	-11.8809
斗牛	-11.8809
盧溝	-11.8809
綦江	-11.8818
閆	-11.8819
潰決	-11.8819
哀號	-11.8825
沌	-11.8825
想見	-11.8825
御書額曰	-11.8827
天涯	-11.8828
耨	-11.8828
遨	-11.8829
宰桑	-11.883
都總管	-11.8831
射陽湖	-11.8831
續文獻	-11.8832
唐武德四年	-11.8833
怕	-11.8833
夏津	-11.8836
水溉田	-11.8841
史記秦	-11.8842
閶闔	-11.8843
輔政	-11.8845
最著	-11.8845
胥吏	-11.8846
桃林	-11.8852
升九合	-11.8853
兼轄	-11.8854
雹	-11.8855
親戚	-11.8857
縻	-11.8858
珦	-11.8859
鄧艾	-11.8862
雨雪	-11.8863
二萬五千	-11.8863
厎	-11.8864
州觀察使	-11.8866
投誠	-11.8867
指揮同知	-11.887
郟縣	-11.8871
汴梁	-11.8871
雷霆	-11.8873
東嶽廟	-11.8874
萬狀	-11.8875
汶河	-11.8876
從征明	-11.8879
近刻竝訛作經	-11.888
三十四年任	-11.8885
曬	-11.8888
以身殉	-11.8889
濞	-11.889
貞觀八年	-11.889
伉	-11.8891
捐資	-11.8892
抉	-11.8893
寳雞	-11.8893
賈似道	-11.8893
甲乙	-11.8894
八百五十	-11.8896
癘	-11.8898
進士授行人	-11.8899
妻白氏	-11.89
壺關	-11.8904
闐	-11.8906
生一子	-11.8907
石榴	-11.8908
秋毫	-11.8908
正殿三楹	-11.8911
水之陽	-11.8913
堠	-11.8915
語録	-11.8916
瀟湘	-11.8919
隋書地	-11.8922
河套	-11.8924
唇	-11.8924
悶	-11.8925
深三尺	-11.8927
魏文帝	-11.8927
尋擢	-11.8929
紫芝	-11.893
雍正六年任	-11.8933
三國呉	-11.8934
黔江	-11.8935
貞觀初	-11.8935
可知也	-11.8941
上林苑	-11.8941
不憚	-11.8943
炮	-11.8943
觚	-11.8944
二十餘丈	-11.8945
齊乘	-11.8946
惆悵	-11.8951
所需	-11.8951
貴賤	-11.8952
紡	-11.8952
風采	-11.8954
榷	-11.8955
諍	-11.8955
閘一座	-11.8961
三國志	-11.8962
慈利	-11.8964
𤦺	-11.8971
詞賦	-11.8973
後人因	-11.8977
瑁	-11.8977
郃	-11.8978
嶓冢	-11.8978
步騎	-11.898
綏德	-11.898
伾	-11.898
碉	-11.8981
監生康熙	-11.8982
埸	-11.8982
威儀	-11.8984
老弱	-11.8986
㩀	-11.8988
斵	-11.899
覆舟	-11.8992
號慟	-11.8992
肇慶府	-11.8996
命有司	-11.8998
西南三十里	-11.8999
皇清因之	-11.9
郪	-11.9002
在縣南十里	-11.9002
妻洪氏	-11.9003
巡檢一員	-11.9006
畬	-11.9008
熙寧中	-11.901
王莽更名	-11.9011
不懈	-11.9011
醋	-11.9011
蓴	-11.9017
資政殿學士	-11.9017
優游	-11.9017
悽	-11.9017
僑置	-11.9019
賀蘭	-11.902
大定府	-11.9023
贈太師	-11.9025
漢中府	-11.9028
監利人	-11.9028
天文志	-11.9031
陳友諒	-11.9032
三十三年任	-11.9032
每畆	-11.9034
昭化	-11.9037
不食死	-11.9038
可知矣	-11.904
萱	-11.9041
嶓	-11.9041
哷	-11.9043
譲	-11.9044
礫	-11.9046
二十八日	-11.9051
汴京	-11.9053
薙	-11.9054
毁容	-11.9054
又東南入	-11.906
叢生	-11.9062
治平三年	-11.9062
緡錢	-11.9064
宋咸淳	-11.9066
縣知縣署	-11.9066
營葬	-11.9068
巉巖	-11.9069
崞	-11.9069
議具奏	-11.9071
宣諭	-11.9073
珍珠	-11.9074
仰視	-11.9077
宣和間	-11.9078
矚	-11.9081
西陲	-11.9083
掉	-11.9084
大中祥符元年	-11.9087
五百三十	-11.9087
在縣東十里	-11.9088
相𫝊	-11.9088
曽祖	-11.9088
聞其名	-11.9092
安慶府	-11.9094
閘壩	-11.9096
追擊	-11.9097
宏治中	-11.9097
郗	-11.91
二百三十里	-11.9102
都司一員	-11.9105
豐潤	-11.9106
供給	-11.9108
桐栢	-11.911
堤工	-11.9115
水又逕	-11.9115
青蓮	-11.9118
悦服	-11.9118
南贑	-11.9118
庚戌進士	-11.912
淵源	-11.9123
嚴肅	-11.9123
擾民	-11.9125
賦税	-11.9125
秉忠	-11.9127
山半有	-11.913
典史署	-11.9132
効力	-11.9132
紫微	-11.9133
奮擊	-11.9134
工部覆	-11.9134
沈約	-11.9136
汶川	-11.9136
鳶	-11.9138
勞苦	-11.9139
靈鷲	-11.914
椅	-11.9142
七百二十	-11.9143
公孫述	-11.9144
躔	-11.9145
田畆	-11.9145
墨池	-11.9149
基址	-11.9156
終其身	-11.9157
銅鞮	-11.9159
什邡	-11.916
漢髙帝	-11.9162
逋負	-11.9164
孛	-11.9166
錢五分	-11.9167
縣東八十里	-11.9168
垾	-11.9169
皇清因之編户	-11.9169
幟	-11.917
贇	-11.917
凭	-11.9173
浩蕩	-11.9175
二十二里	-11.9175
捐軀	-11.9175
妻曾氏	-11.9178
名每名	-11.918
鋸	-11.9181
在縣南五十里	-11.9189
領鄉薦	-11.9189
宣歙	-11.9192
風浪	-11.9193
格爾	-11.9198
氾	-11.9201
𥙿	-11.9202
闞	-11.9203
六纎	-11.9204
隗	-11.9204
行水金鑑巻	-11.9205
靈邱	-11.9207
券	-11.9209
奉天府	-11.921
慝	-11.921
六安人	-11.9213
孔雀	-11.9214
塵埃	-11.9215
西魏改	-11.9215
堙塞	-11.9216
廊廡	-11.9216
連閏銀	-11.9224
宋濓	-11.9227
㢲	-11.923
川陜	-11.923
宣徳間	-11.9233
澚	-11.9233
被圍	-11.9234
巵	-11.9237
蜡	-11.9239
靖邊	-11.924
畚鍤	-11.9241
闓	-11.9243
獷	-11.9243
為己任	-11.9246
昆弟	-11.9246
角樓	-11.925
典籍	-11.9251
南陽郡	-11.9252
廷對	-11.9257
大同府	-11.9258
在長洲縣	-11.926
覆准	-11.9261
荆襄	-11.9261
鐘樓	-11.9263
玄	-11.9266
蛙	-11.9267
翰墨	-11.9267
嶽廟	-11.9268
礮	-11.9268
教塲	-11.9272
北流注于	-11.9272
濓溪	-11.9276
䢴	-11.9276
有石洞	-11.9277
拂衣	-11.9278
貢方物	-11.9281
卒年六十	-11.9286
茆	-11.9286
西北三十里	-11.9291
協力	-11.9291
岐陽	-11.9293
糧餉	-11.9299
摛	-11.9302
又西逕	-11.9303
括蒼	-11.9305
在縣北四十里	-11.9306
縣界三十五里	-11.9306
彘	-11.9308
嘻	-11.9308
承襲	-11.9308
共徴銀	-11.9308
劍川	-11.9312
咸康	-11.9319
燬於兵	-11.9322
董卓	-11.9323
九百九十	-11.9323
朝奉大夫	-11.9325
順治二年	-11.9329
𢎞治湖州府志	-11.933
萬厯紹興府志	-11.933
僧㑹司	-11.9333
自府治至	-11.9333
讌	-11.9333
爼	-11.9333
范文正公	-11.9337
翁源	-11.934
因家焉	-11.934
苦竹	-11.9341
元至元間	-11.9341
分為三	-11.9342
白茅	-11.9343
仁恕	-11.9344
皝	-11.9344
兖州府	-11.9354
四十八年任	-11.9355
故以名	-11.9357
科第	-11.9358
蘧	-11.9359
磵	-11.9361
罍	-11.9363
招諭	-11.9366
崢嶸	-11.9368
喫	-11.9369
順治三年	-11.937
三國吳	-11.9371
鹽場	-11.9372
目擊	-11.9374
舉孝廉	-11.9374
袒	-11.9374
餒	-11.9375
淦	-11.9377
版籍	-11.938
種種	-11.9382
請蠲	-11.9385
乾隆八年	-11.9388
人由進士	-11.9389
适	-11.9392
涅	-11.9394
相繼修葺	-11.9394
三百五十里	-11.9398
糊	-11.9399
睨	-11.9403
㤀	-11.9403
夫亡無子	-11.9405
淆	-11.9405
處州府	-11.9407
黷	-11.9408
太息	-11.9409
顔師古	-11.9409
圳	-11.9414
倉庫	-11.9417
雍正七年任	-11.9418
巡撫都御史	-11.9418
峻嶺	-11.9419
恭懸	-11.9421
妻侯氏	-11.9422
嘉泰㑹稽志	-11.9423
領縣二	-11.9424
錦屏	-11.9425
嘶	-11.9425
卡	-11.9426
魴	-11.9429
罽	-11.943
櫂	-11.9431
守正捐軀	-11.9431
癸未進士	-11.9432
漢光武	-11.9432
瞬	-11.9432
纍	-11.9434
監督	-11.9436
猜	-11.9436
玷	-11.9437
朝議大夫	-11.944
安吉州	-11.9448
七百六十	-11.9451
在縣南四十里	-11.9452
銅柱	-11.9458
咸亨	-11.9458
玀	-11.9462
縠	-11.9462
石臼	-11.9462
匡廬	-11.9464
輜重	-11.9471
左僕射	-11.9472
悠然	-11.9478
副都御史巡撫	-11.948
誦經	-11.9481
飛昇	-11.9483
綱紀	-11.9484
割屬	-11.9486
葡萄	-11.949
感悟	-11.9492
澱山湖	-11.9493
穏	-11.9493
麻陽	-11.9495
十倍	-11.95
飈	-11.95
脅從	-11.9501
剗	-11.9503
編戸	-11.9504
喬木	-11.9509
伐蜀	-11.951
富室	-11.9512
宋紹興中	-11.9514
寃獄	-11.9515
絲肆忽	-11.9516
淖	-11.952
熙寜	-11.9521
漢因之	-11.9521
函谷	-11.9524
七百九十	-11.9526
娃	-11.9527
篙	-11.9529
退保	-11.9531
壖	-11.9531
在縣治北	-11.9532
永壽	-11.9532
奉聖㫖	-11.9533
釋褐	-11.9534
災傷	-11.9535
聞於朝	-11.9536
巍巍	-11.9536
以憂去	-11.9538
叅領	-11.9542
寇亂	-11.9542
庭堅	-11.9543
趙孟頫	-11.9549
巂	-11.955
凃	-11.9552
祭告	-11.9554
璡	-11.9555
飢民	-11.9557
丹陽郡	-11.956
澣	-11.9565
宵旰	-11.9566
拽	-11.9568
緻	-11.9568
殃	-11.9571
告竣	-11.9573
撫孤守節	-11.9574
結茅	-11.9575
畿内	-11.9575
酌議	-11.9576
句章	-11.9581
二十七日	-11.9585
三輔黄圖	-11.9586
縈紆	-11.9587
鮎	-11.9589
諱改	-11.9592
横截	-11.9592
秤	-11.9595
蒔	-11.9595
低田	-11.9596
儕	-11.9601
淂	-11.9602
䆒	-11.9605
闉	-11.9631
琥	-11.9645
厮	-11.9664
礱	-11.9664
紉	-11.9666
撑	-11.9667
抒	-11.9668
畚	-11.9668
檝	-11.9693
豢	-11.9697
輞	-11.972
璹	-11.9722
澨	-11.9727
佔	-11.9727
揷	-11.973
埏	-11.9731
侗	-11.9753
愔	-11.9761
筌	-11.9764
滷	-11.9767
傘	-11.9791
䧺	-11.9794
犍	-11.9795
椀	-11.9797
匏	-11.9798
嚼	-11.9799
蹂	-11.9801
鷙	-11.9803
箠	-11.9803
尒	-11.9812
掬	-11.983
熖	-11.9832
鑣	-11.9857
艤	-11.9895
蒨	-11.9897
楽	-11.9899
舄	-11.9899
屆	-11.9924
嵎	-11.9929
彜	-11.9936
褥	-11.9943
袞	-11.9953
灊	-11.9964
醪	-11.9965
稗	-11.9966
鉦	-11.9969
楣	-11.9972
盲	-11.9973
崒	-11.9996
硬	-12.0003
溳	-12.0022
穡	-12.0031
棍	-12.0034
爍	-12.0036
毀	-12.0037
檟	-12.0062
矮	-12.0064
酥	-12.0064
瑱	-12.007
讙	-12.0074
磽	-12.0074
唾	-12.0074
刲	-12.0075
㷀	-12.0077
泐	-12.0102
煤	-12.0102
別	-12.0102
哇	-12.0103
蒜	-12.0104
篠	-12.0105
葷	-12.0112
縋	-12.0112
虒	-12.0125
艶	-12.014
隲	-12.0142
澡	-12.0143
鑠	-12.0146
旒	-12.0147
溷	-12.0182
郅	-12.0205
燠	-12.0212
籖	-12.0213
瘵	-12.0215
綎	-12.0223
麴	-12.0242
𠂻	-12.0245
芰	-12.0245
湼	-12.0246
麤	-12.0246
窆	-12.0247
痊	-12.025
佶	-12.0264
蔥	-12.0271
鮓	-12.0271
鷂	-12.0278
菟	-12.028
粘	-12.028
泫	-12.0281
胃	-12.0283
秔	-12.0284
舡	-12.0315
鰻	-12.0317
榱	-12.0322
糗	-12.0323
簋	-12.0327
柞	-12.0342
玻	-12.035
搬	-12.0351
嶔	-12.0351
蓍	-12.0353
攄	-12.0354
䃮	-12.0355
苫	-12.0357
悃	-12.0357
吮	-12.0363
秪	-12.0384
坌	-12.0387
躅	-12.0391
讃	-12.0391
朞	-12.0394
鱉	-12.0425
袴	-12.0426
刧	-12.0426
挨	-12.0426
陁	-12.0426
覊	-12.0427
賃	-12.0427
鑊	-12.0427
跌	-12.0428
虺	-12.0457
棃	-12.0458
幔	-12.0459
榴	-12.0459
櫺	-12.0459
籩	-12.0461
薜	-12.0461
詘	-12.0466
蹌	-12.0471
軹	-12.049
膾	-12.0492
鑱	-12.0493
褰	-12.0498
橐	-12.0498
肚	-12.052
烜	-12.0521
茘	-12.0522
漚	-12.0529
茄	-12.0529
滲	-12.0531
与	-12.0533
豔	-12.0533
橈	-12.0535
簠	-12.0538
怛	-12.0539
睇	-12.0542
雎	-12.0556
荃	-12.0562
斆	-12.0562
撝	-12.0566
麈	-12.0568
狸	-12.0574
逗	-12.0574
袵	-12.0575
蕎	-12.0606
鍳	-12.061
兕	-12.0615
瀍	-12.0637
耻	-12.0651
詒	-12.0677
纜	-12.0683
諗	-12.0688
嬌	-12.0715
刮	-12.0719
禳	-12.0725
璲	-12.074
眸	-12.075
笻	-12.0753
腕	-12.0755
祛	-12.0755
黥	-12.0757
犧	-12.0759
劬	-12.0761
澂	-12.0771
玭	-12.0783
渌	-12.0787
裊	-12.0789
牝	-12.0798
鉄	-12.0826
緫	-12.0827
楸	-12.0828
酹	-12.083
撾	-12.0834
吭	-12.0836
蜕	-12.0866
紈	-12.0869
誄	-12.087
䑛	-12.0872
讋	-12.0873
皐	-12.0889
埧	-12.0897
蛻	-12.0903
沴	-12.0911
疃	-12.0934
柬	-12.0938
槨	-12.0939
獺	-12.0944
陲	-12.0971
內	-12.0973
陕	-12.0987
埇	-12.0992
粃	-12.1009
枹	-12.1017
診	-12.1018
箸	-12.1021
嫠	-12.1023
妬	-12.1025
硫	-12.1056
脛	-12.1059
魅	-12.1063
单	-12.1067
廽	-12.1087
陴	-12.1091
殀	-12.1096
𣸪	-12.1097
睠	-12.1099
餙	-12.1099
囓	-12.11
嵕	-12.1128
嗚	-12.1128
萋	-12.1131
柗	-12.1133
罨	-12.1136
覯	-12.1138
啚	-12.1141
疽	-12.1143
眇	-12.1143
繖	-12.1169
罘	-12.1172
壟	-12.1173
碍	-12.1174
坼	-12.1174
澥	-12.1203
榘	-12.1207
窳	-12.1214
砍	-12.1217
鄄	-12.1239
甡	-12.1243
芡	-12.1248
窅	-12.1251
飱	-12.1256
檉	-12.1282
呀	-12.1289
你	-12.1291
壙	-12.1295
窒	-12.1297
蕨	-12.132
迢	-12.1327
吻	-12.1328
搴	-12.1329
糟	-12.1329
鰥	-12.1329
鏖	-12.1331
焞	-12.1364
磑	-12.1366
絙	-12.1366
絞	-12.1369
斁	-12.137
駮	-12.1371
菌	-12.1374
汩	-12.1378
僎	-12.1404
撩	-12.1408
獞	-12.1408
䂓	-12.1409
墪	-12.1411
咒	-12.1411
悛	-12.1414
淅	-12.1416
湞	-12.1425
蛾	-12.1442
莢	-12.1443
訢	-12.1443
烘	-12.1451
㪷	-12.1453
莪	-12.1485
熲	-12.1489
遄	-12.149
瀬	-12.149
㝢	-12.1492
羯	-12.1495
亾	-12.1499
鑼	-12.1525
樺	-12.1526
訶	-12.153
祧	-12.153
滓	-12.1531
鍚	-12.1531
嘲	-12.1532
鯽	-12.1564
蜆	-12.1564
蚊	-12.1574
繄	-12.1581
樑	-12.16
秣	-12.1604
鶩	-12.1605
溧	-12.1606
戽	-12.1609
疵	-12.1614
閙	-12.1648
槊	-12.165
漉	-12.1651
誚	-12.1657
匀	-12.168
濆	-12.1687
笳	-12.1691
幘	-12.1692
鈿	-12.1693
璐	-12.1719
籽	-12.1726
鈇	-12.1732
筸	-12.1733
􁇥	-12.1754
啞	-12.1765
趺	-12.1767
潑	-12.1767
粞	-12.179
黝	-12.1813
祟	-12.1816
𤨏	-12.1817
耜	-12.1817
澠	-12.1842
蕡	-12.1844
蒯	-12.185
据	-12.1861
鏹	-12.1862
廆	-12.1874
滱	-12.1893
謖	-12.19
醖	-12.1903
菓	-12.1904
邙	-12.1932
邰	-12.1938
籃	-12.1938
爻	-12.1939
縶	-12.1951
橙	-12.1971
窊	-12.1973
蔴	-12.1977
鄊	-12.1978
翛	-12.1979
鯀	-12.1981
呪	-12.1982
橛	-12.1982
鏁	-12.1983
賙	-12.1986
婿	-12.1995
澶	-12.2003
沇	-12.2014
淬	-12.2021
纉	-12.2022
凟	-12.2022
筯	-12.2024
酢	-12.2024
嶲	-12.2025
貔	-12.2025
欖	-12.2032
褘	-12.2032
駞	-12.2065
掀	-12.2066
黽	-12.207
詬	-12.2073
雝	-12.2075
頊	-12.2094
宷	-12.2101
粳	-12.2104
簧	-12.2106
秧	-12.2108
詁	-12.2111
晡	-12.2114
飴	-12.2114
𬋩	-12.2115
芍	-12.2134
垕	-12.2141
爌	-12.2147
亊	-12.2152
厝	-12.2153
蠅	-12.2154
肴	-12.2155
翩	-12.2156
煨	-12.2158
鬯	-12.2159
爇	-12.2164
獬	-12.2182
澦	-12.2184
錬	-12.2188
尢	-12.2191
戛	-12.2193
罏	-12.2195
捄	-12.2203
筰	-12.2225
濊	-12.2233
輻	-12.2235
醬	-12.2236
妣	-12.224
豺	-12.2241
盻	-12.2241
蹴	-12.2242
跂	-12.2243
紊	-12.2245
嶄	-12.2277
鮫	-12.2279
箔	-12.2281
畸	-12.2281
猱	-12.2283
貰	-12.2283
窶	-12.2285
貊	-12.2286
碓	-12.2322
𤾉	-12.2322
夐	-12.2326
縹	-12.2326
嗷	-12.2327
瑒	-12.233
擠	-12.2333
譎	-12.2335
廠	-12.2353
闘	-12.237
酆	-12.2395
芃	-12.2455
耑	-12.2456
罇	-12.2463
絅	-12.2477
衎	-12.2498
瀵	-12.25
晤	-12.2504
穵	-12.2505
烱	-12.2528
酃	-12.2531
珵	-12.2535
邜	-12.2538
厫	-12.2565
誾	-12.2578
璊	-12.2582
淼	-12.2584
缶	-12.2585
庳	-12.2594
擐	-12.2596
柚	-12.263
揑	-12.2631
悰	-12.2632
掞	-12.2632
擷	-12.2634
擿	-12.2637
熏	-12.2637
迯	-12.2639
頷	-12.2641
漈	-12.2668
喆	-12.2671
穩	-12.2675
硎	-12.2677
莞	-12.2682
幃	-12.2685
閾	-12.2686
圁	-12.2708
慥	-12.2714
埤	-12.2723
綃	-12.2723
臠	-12.2732
崍	-12.2758
褫	-12.277
霾	-12.2774
兾	-12.2775
詫	-12.2775
槳	-12.2782
憊	-12.2821
儷	-12.2825
纊	-12.2864
怵	-12.2873
虵	-12.2905
泱	-12.2909
鴛	-12.291
毳	-12.2911
飡	-12.2923
崎	-12.2934
鐙	-12.2951
絀	-12.2957
睛	-12.2957
扑	-12.2959
絰	-12.2962
櫻	-12.2978
瓏	-12.299
蠏	-12.2994
躁	-12.3001
鬆	-12.3003
䜿	-12.3004
睂	-12.3007
麝	-12.3035
磻	-12.3038
椰	-12.3039
淝	-12.3042
噉	-12.3049
嘘	-12.3052
臍	-12.3052
洭	-12.3075
鐺	-12.3092
杠	-12.3094
异	-12.3095
堕	-12.3095
侁	-12.3101
蛮	-12.3104
蹻	-12.3109
禊	-12.3139
茵	-12.314
軺	-12.314
閈	-12.3143
枵	-12.3143
鍤	-12.3145
涘	-12.3146
輳	-12.3182
隤	-12.3189
髠	-12.3193
枷	-12.3194
徤	-12.3194
蕆	-12.3197
漵	-12.3215
蘗	-12.3234
搢	-12.3235
嶻	-12.3238
鵾	-12.3273
份	-12.3274
宙	-12.3277
鐔	-12.3278
趕	-12.328
桔	-12.3286
獮	-12.3289
璃	-12.3325
賖	-12.3326
楙	-12.3328
褊	-12.3329
螂	-12.333
舵	-12.3331
猖	-12.3335
擯	-12.3336
􁐍	-12.336
麩	-12.3371
蜿	-12.3373
鱠	-12.3376
缾	-12.3381
殽	-12.3384
蒂	-12.3385
嗤	-12.3386
誑	-12.3388
轎	-12.3422
唘	-12.3424
麫	-12.3424
簸	-12.3426
濘	-12.343
衘	-12.3431
桅	-12.3433
畯	-12.3433
刅	-12.3433
蝟	-12.3436
惺	-12.3466
杆	-12.3473
撐	-12.3474
韞	-12.3476
鬟	-12.3476
懴	-12.3476
畹	-12.3477
鐃	-12.3478
愠	-12.3478
坵	-12.3479
踣	-12.348
酪	-12.348
藿	-12.348
猊	-12.3482
剄	-12.3483
摃	-12.3518
鋼	-12.352
酇	-12.352
荇	-12.3523
磷	-12.3524
崈	-12.3524
隩	-12.3536
癰	-12.3536
狃	-12.3537
捺	-12.3564
鉏	-12.3578
旛	-12.3578
糲	-12.3579
昜	-12.3583
蓉	-12.3608
疉	-12.3618
㙮	-12.3621
酤	-12.3623
旰	-12.3624
罟	-12.3625
螢	-12.3626
眎	-12.3626
笮	-12.3628
賭	-12.3629
憎	-12.3631
胝	-12.3637
溈	-12.3667
勷	-12.3667
匕	-12.367
彀	-12.3673
缸	-12.3673
蹋	-12.3675
郄	-12.3676
驁	-12.3678
黏	-12.368
聆	-12.3681
棫	-12.3718
鉗	-12.3724
佈	-12.3729
悸	-12.3731
麂	-12.3765
楩	-12.3765
溆	-12.3766
硃	-12.3768
弘	-12.3771
喘	-12.3774
繙	-12.3777
搔	-12.3779
畛	-12.378
蕞	-12.3781
樅	-12.3819
窯	-12.382
崐	-12.3822
悮	-12.3826
絜	-12.3826
嗾	-12.3831
拷	-12.3831
犇	-12.3832
壝	-12.3874
嬖	-12.3877
町	-12.3879
嵂	-12.3918
綯	-12.3919
宁	-12.3921
拄	-12.3924
啣	-12.3927
蕘	-12.3929
幞	-12.3931
狷	-12.3935
閶	-12.3957
崿	-12.397
暦	-12.3973
荳	-12.3975
㽔	-12.3978
慾	-12.3982
嫻	-12.3982
筴	-12.3983
軋	-12.3985
甿	-12.3986
􁣕	-12.403
卬	-12.4032
壼	-12.4034
殍	-12.4036
褁	-12.404
糕	-12.4064
槀	-12.408
徨	-12.4086
謇	-12.4087
鞞	-12.4122
錞	-12.4123
牂	-12.4129
頫	-12.413
駘	-12.4131
蘊	-12.4132
拿	-12.4133
楗	-12.4135
颼	-12.4136
綢	-12.4136
璆	-12.414
篾	-12.4141
鏑	-12.4143
醢	-12.4144
箎	-12.4169
凈	-12.4178
萄	-12.4179
酺	-12.4184
磾	-12.4187
𬗟	-12.4191
撙	-12.4194
趵	-12.4231
蚪	-12.4236
匙	-12.4236
靴	-12.4237
柝	-12.4246
縵	-12.4275
泃	-12.4281
塏	-12.4285
貓	-12.4287
薌	-12.4291
襦	-12.4295
鑽	-12.4295
凰	-12.4322
潺	-12.433
渼	-12.4341
燝	-12.4341
戱	-12.4343
蔔	-12.4344
爬	-12.4346
璀	-12.4346
贐	-12.4347
暵	-12.4348
欷	-12.4353
頋	-12.4354
扒	-12.4387
埕	-12.4387
彗	-12.4395
曛	-12.4396
憧	-12.44
鷁	-12.4401
髫	-12.4407
縀	-12.4408
澐	-12.444
騮	-12.4448
曁	-12.4455
桿	-12.4496
襖	-12.4498
芑	-12.4503
踴	-12.4505
鞬	-12.4506
痘	-12.4506
穽	-12.451
趋	-12.4515
粢	-12.4516
寬	-12.4553
緞	-12.4555
洶	-12.456
綆	-12.4564
氶	-12.4599
炌	-12.4601
穂	-12.4609
鷟	-12.4611
𡨕	-12.4613
脾	-12.4615
幙	-12.4616
剜	-12.462
篚	-12.4621
啻	-12.4633
灔	-12.4664
嚳	-12.4665
盌	-12.4669
哆	-12.4671
蚩	-12.4672
洌	-12.4714
凸	-12.4715
蓀	-12.4717
爚	-12.4719
埓	-12.4724
綉	-12.4724
沍	-12.4725
浥	-12.4726
堇	-12.4726
蓑	-12.4728
漓	-12.4728
羃	-12.4729
歘	-12.4731
鍇	-12.4775
瓮	-12.4776
畊	-12.478
惱	-12.4783
耦	-12.4784
佽	-12.4785
瞋	-12.479
嵒	-12.4831
驃	-12.4838
頹	-12.484
擦	-12.4874
榨	-12.4888
廏	-12.4894
祓	-12.4895
娣	-12.4895
湃	-12.4905
鴆	-12.4907
炅	-12.4931
棻	-12.4935
么	-12.4946
澎	-12.4947
鄕	-12.4948
帚	-12.4948
虀	-12.4948
殳	-12.4949
鵶	-12.495
㡳	-12.4951
怏	-12.4957
睫	-12.4957
仟	-12.4997
賨	-12.5001
偓	-12.5004
枸	-12.5007
衂	-12.5009
諛	-12.5011
耋	-12.5016
胊	-12.5051
稞	-12.5053
唳	-12.5061
沚	-12.5062
壋	-12.5066
瞳	-12.5066
暾	-12.5066
殂	-12.5067
緹	-12.5069
棼	-12.507
蕊	-12.5107
頲	-12.5119
腫	-12.5125
蠭	-12.5126
淞	-12.5154
埡	-12.516
荍	-12.5166
凊	-12.5175
爆	-12.5176
芊	-12.5178
裸	-12.5181
瓷	-12.5181
确	-12.5182
叫	-12.5183
攖	-12.5184
捶	-12.5185
肢	-12.519
阯	-12.5227
橒	-12.5232
膊	-12.5233
蠣	-12.5237
埴	-12.5239
薤	-12.5239
𢷬	-12.524
仵	-12.5286
棒	-12.5291
剋	-12.5298
秫	-12.5303
摰	-12.5304
嫓	-12.5309
嵯	-12.534
鎡	-12.5341
鏌	-12.5342
湋	-12.5342
𣏌	-12.5344
肋	-12.535
欎	-12.535
淒	-12.5351
盒	-12.5353
炷	-12.5354
鯢	-12.5355
駑	-12.5355
銕	-12.5357
錘	-12.5357
匆	-12.5359
㮚	-12.5403
辣	-12.5406
頠	-12.5412
茁	-12.5415
詧	-12.5417
沬	-12.5465
螳	-12.5474
澌	-12.5477
匄	-12.5479
佾	-12.5481
巋	-12.5519
慱	-12.5528
赧	-12.553
諴	-12.5531
梃	-12.5533
襁	-12.5534
稲	-12.5535
骼	-12.5539
篡	-12.5542
雘	-12.5545
湳	-12.5562
􁰤	-12.5577
爕	-12.5581
邴	-12.5584
珝	-12.5586
獐	-12.5588
熬	-12.5589
嘔	-12.559
篔	-12.559
㓗	-12.5593
汳	-12.5595
毖	-12.5597
縴	-12.5599
餬	-12.5599
䏻	-12.5602
屣	-12.5603
渫	-12.5645
岈	-12.5649
壚	-12.5651
㐲	-12.5651
傚	-12.5652
勰	-12.5654
聾	-12.5654
悴	-12.5657
縟	-12.5658
䙝	-12.566
剃	-12.5661
㢤	-12.5663
醵	-12.5665
漭	-12.5667
嶍	-12.5688
砧	-12.5707
睒	-12.571
緗	-12.5713
脣	-12.5714
祏	-12.5716
塡	-12.5717
漶	-12.5724
腳	-12.5769
禔	-12.5771
簍	-12.5772
銍	-12.5773
籓	-12.5773
鰕	-12.5773
鄩	-12.5774
韡	-12.5775
氈	-12.5777
蛛	-12.5778
媵	-12.578
瘥	-12.5781
袪	-12.5782
轆	-12.5831
嗎	-12.5833
徊	-12.5835
稾	-12.5835
戞	-12.5835
鹻	-12.5837
膴	-12.5838
隼	-12.5839
熄	-12.584
閴	-12.5842
僂	-12.5842
万	-12.5844
咀	-12.5852
卲	-12.5883
惹	-12.5895
灧	-12.5895
罌	-12.5898
徯	-12.5904
謔	-12.5907
噎	-12.5908
㕑	-12.5909
殛	-12.5909
顚	-12.591
鷰	-12.5954
絨	-12.5961
諄	-12.5962
竽	-12.5963
猨	-12.5967
淥	-12.6015
菡	-12.602
趁	-12.6023
冏	-12.6024
吊	-12.6024
歔	-12.603
沄	-12.603
断	-12.6035
溍	-12.6072
橄	-12.6077
蘅	-12.6082
蔕	-12.6083
郞	-12.6083
剩	-12.6084
犨	-12.6089
窣	-12.609
嶪	-12.6091
篝	-12.6092
藳	-12.6092
挐	-12.6095
塈	-12.6096
筧	-12.6144
虔	-12.6146
頎	-12.6148
妝	-12.615
勗	-12.6153
臾	-12.6153
麵	-12.6154
籜	-12.6159
矍	-12.6159
頏	-12.6164
􁇧	-12.6168
郾	-12.6187
壎	-12.6201
頵	-12.6211
崦	-12.6214
姫	-12.6216
皈	-12.6217
楶	-12.6217
霪	-12.6217
挟	-12.6223
禘	-12.6227
熠	-12.6274
纁	-12.6275
䏰	-12.6277
懃	-12.6277
䄂	-12.6281
唬	-12.6284
螯	-12.6286
昀	-12.6286
饟	-12.6288
鮪	-12.6336
翌	-12.6336
謩	-12.6342
洚	-12.6344
擡	-12.6346
闋	-12.6346
樣	-12.6346
戧	-12.6403
驊	-12.6404
襯	-12.6406
襪	-12.6411
汕	-12.6413
潬	-12.6417
嶸	-12.6453
髭	-12.6476
繢	-12.6478
貍	-12.6479
萎	-12.6482
昃	-12.6484
竢	-12.6487
熺	-12.6535
岏	-12.6536
墁	-12.654
荐	-12.6543
栴	-12.6544
薺	-12.6545
緍	-12.6547
饔	-12.6548
哦	-12.6549
潩	-12.6597
浤	-12.6601
呢	-12.6604
尙	-12.6608
頔	-12.6611
倕	-12.6612
㳫	-12.6613
嚢	-12.6614
㓙	-12.6615
唄	-12.6616
濙	-12.6672
夹	-12.6674
斿	-12.6674
猩	-12.6677
漱	-12.6679
訕	-12.6682
搨	-12.6682
婣	-12.6687
愾	-12.6688
瀏	-12.6721
騤	-12.6726
莧	-12.6736
忞	-12.6736
砫	-12.6738
鍪	-12.6739
勩	-12.6748
狠	-12.675
詛	-12.6751
𦕈	-12.6752
纚	-12.6753
軏	-12.6802
靛	-12.6803
鄗	-12.6805
侄	-12.6809
㺯	-12.6809
蜑	-12.681
緄	-12.6812
洫	-12.6814
犵	-12.6816
跬	-12.6819
羇	-12.6821
掎	-12.6821
倓	-12.6861
冼	-12.6866
劎	-12.6874
筓	-12.6876
羹	-12.6878
蹰	-12.6879
櫨	-12.6879
絺	-12.688
螟	-12.6885
痼	-12.6886
臙	-12.6939
鸚	-12.6946
枌	-12.6949
晳	-12.6949
脰	-12.695
嫋	-12.695
輛	-12.6952
膜	-12.6955
閥	-12.6957
夯	-12.6963
胼	-12.6965
芙	-12.7008
躊	-12.7021
簞	-12.7026
羿	-12.7028
䌫	-12.7031
垞	-12.7078
蕖	-12.7081
鋹	-12.7084
尭	-12.7085
篩	-12.7086
陿	-12.7088
憨	-12.709
炒	-12.709
砢	-12.7094
酧	-12.7095
豨	-12.7095
楔	-12.7095
狙	-12.7096
逭	-12.7098
煬	-12.7101
啾	-12.7153
糙	-12.7154
麯	-12.7154
蹉	-12.7155
廙	-12.7157
㠗	-12.7157
漩	-12.716
蝸	-12.716
㾗	-12.7161
綝	-12.7166
哮	-12.7166
飫	-12.7169
狭	-12.7169
螫	-12.717
諂	-12.7171
昝	-12.721
洨	-12.7219
菅	-12.7225
攴	-12.7227
鮒	-12.7229
廛	-12.723
䍐	-12.7232
畞	-12.7233
皴	-12.7233
嫄	-12.7235
檗	-12.7237
訌	-12.7244
罡	-12.7292
巓	-12.7295
摸	-12.7296
恆	-12.7296
焕	-12.7297
梔	-12.7297
逡	-12.73
郕	-12.73
鵷	-12.7301
藂	-12.7301
顱	-12.7301
蒗	-12.7301
髀	-12.7302
恁	-12.7302
杌	-12.7302
麄	-12.7304
𣣔	-12.7312
釧	-12.7365
蕋	-12.7369
㘭	-12.737
滃	-12.7372
禠	-12.7374
玦	-12.7378
櫜	-12.7378
氿	-12.738
瑢	-12.7431
㯶	-12.7441
苓	-12.7443
鱷	-12.7443
鄫	-12.7444
鞾	-12.7445
棕	-12.7445
癖	-12.7448
堈	-12.7448
䜛	-12.7448
勍	-12.7451
塼	-12.7456
鼒	-12.7504
圪	-12.7511
珞	-12.7513
岊	-12.7513
喈	-12.7513
咫	-12.7518
慴	-12.7519
鱣	-12.752
矟	-12.752
嶁	-12.7521
緼	-12.7522
㩦	-12.7522
祼	-12.7523
痺	-12.7525
孥	-12.7581
蒹	-12.7583
憙	-12.7587
騭	-12.7589
浰	-12.7592
洿	-12.7593
眙	-12.7593
傴	-12.7597
璸	-12.7647
鳧	-12.7654
鄚	-12.766
蛉	-12.766
毯	-12.7666
虙	-12.7667
扛	-12.767
頁	-12.7671
醯	-12.7675
喁	-12.7678
畈	-12.773
絪	-12.7738
㴻	-12.7742
辮	-12.7743
蓽	-12.7744
筝	-12.7744
飜	-12.7744
傒	-12.7747
敉	-12.7747
颷	-12.775
邲	-12.7752
嵳	-12.7808
弻	-12.781
蘩	-12.7812
趍	-12.7818
挲	-12.7819
胞	-12.7821
霤	-12.7823
簣	-12.7824
惋	-12.7825
蹔	-12.7825
爱	-12.7829
玹	-12.7876
偰	-12.7883
膂	-12.7888
攪	-12.7888
塿	-12.7889
飇	-12.7891
烺	-12.7891
卨	-12.7892
賾	-12.7894
綍	-12.7895
悄	-12.7896
皦	-12.7902
腊	-12.7963
掊	-12.7967
㳙	-12.797
桁	-12.7971
宄	-12.7971
萑	-12.7972
賕	-12.7973
憮	-12.7973
鼯	-12.7974
逥	-12.7975
枲	-12.7977
柢	-12.7977
觱	-12.7982
㮄	-12.8015
煃	-12.8038
珤	-12.8038
怱	-12.8039
祊	-12.804
荏	-12.804
絫	-12.8041
岨	-12.8041
礲	-12.8043
瀲	-12.8044
鼙	-12.8046
癭	-12.8047
弹	-12.8048
秬	-12.8048
牴	-12.805
惔	-12.8053
皚	-12.8055
蔞	-12.8106
蕺	-12.8113
沲	-12.8116
歪	-12.8116
菉	-12.8116
硏	-12.8117
菘	-12.812
儹	-12.8121
穠	-12.8122
㠯	-12.8123
㝡	-12.8124
姝	-12.8125
㶏	-12.8127
曖	-12.8132
媛	-12.8132
蓐	-12.8134
斄	-12.8187
釴	-12.8188
椹	-12.819
鋌	-12.8194
輈	-12.8198
燁	-12.8201
𥪡	-12.8201
掦	-12.8202
斸	-12.8202
嚚	-12.8202
牾	-12.8203
姧	-12.8209
錚	-12.8212
侏	-12.8213
犛	-12.8213
綖	-12.8265
噩	-12.8273
蕈	-12.8277
礴	-12.8278
症	-12.8278
蝀	-12.828
檔	-12.828
疴	-12.8281
晒	-12.8281
瞞	-12.8281
擗	-12.8285
鋗	-12.8286
鞮	-12.8294
刎	-12.8334
羑	-12.8338
瑨	-12.8344
熨	-12.8351
崟	-12.8353
枰	-12.8353
籐	-12.8356
鄘	-12.8357
賸	-12.8357
禰	-12.8359
橰	-12.8364
刓	-12.8364
虯	-12.837
颶	-12.8403
㠄	-12.8423
个	-12.8428
鸝	-12.8432
􁦝	-12.8433
凴	-12.8438
滾	-12.8438
甪	-12.844
𢡟	-12.8441
瑭	-12.8442
彖	-12.8444
僨	-12.8446
輾	-12.8446
鋟	-12.8447
淜	-12.8447
茀	-12.8449
呻	-12.845
敭	-12.845
湨	-12.8499
闅	-12.8502
歧	-12.851
纈	-12.8511
巑	-12.8513
琠	-12.8515
狖	-12.8516
槌	-12.8517
橡	-12.8519
盔	-12.8519
輶	-12.8519
涑	-12.8523
糈	-12.8525
梏	-12.8525
剸	-12.8525
諝	-12.8526
儈	-12.8527
朏	-12.8599
蹬	-12.8599
删	-12.8602
蟇	-12.8603
巇	-12.8603
戅	-12.8605
僞	-12.8605
晬	-12.8605
羶	-12.8605
泑	-12.8607
僇	-12.8622
澉	-12.8672
檎	-12.8673
蘢	-12.8676
隃	-12.8679
罳	-12.8679
𧖟	-12.8679
聒	-12.8681
驀	-12.8682
菼	-12.8683
柁	-12.8686
摠	-12.8689
揉	-12.8689
𥿄	-12.8689
癯	-12.8689
葳	-12.8691
潾	-12.8752
溼	-12.8755
?	-12.876
硐	-12.8762
霰	-12.8763
怳	-12.8763
蜻	-12.8764
㶑	-12.8765
旟	-12.8767
跽	-12.8768
屼	-12.8768
侶	-12.8769
岣	-12.8769
攣	-12.8771
劘	-12.8778
岝	-12.8839
潨	-12.884
拐	-12.8842
濄	-12.8844
㲼	-12.8845
憺	-12.8846
鬐	-12.8847
靉	-12.8849
麞	-12.885
歹	-12.885
觥	-12.8851
瓈	-12.8853
銛	-12.8853
狫	-12.8854
贔	-12.8857
鉶	-12.8861
窴	-12.8864
坯	-12.8867
磜	-12.8918
愫	-12.8918
鄃	-12.8924
鐩	-12.8929
嚞	-12.8929
堧	-12.8936
讖	-12.8936
貉	-12.8937
婪	-12.8939
麪	-12.894
洓	-12.8941
櫝	-12.8943
渣	-12.9009
滬	-12.9009
鸑	-12.9011
邐	-12.9011
谼	-12.9012
朅	-12.9013
泬	-12.9014
渢	-12.9015
慵	-12.9016
朓	-12.9016
瞥	-12.9017
噀	-12.9017
躇	-12.9018
皤	-12.9018
牣	-12.9021
氍	-12.9021
轢	-12.9024
朘	-12.9025
丱	-12.9025
腆	-12.9026
溽	-12.9026
撿	-12.9027
鰌	-12.9029
珫	-12.9088
瓴	-12.9098
跣	-12.91
玢	-12.9101
頳	-12.9103
笪	-12.9105
駹	-12.9105
丼	-12.9105
㩁	-12.9106
徬	-12.9107
搃	-12.9108
榼	-12.9109
譛	-12.9109
俻	-12.9111
哂	-12.9112
饜	-12.9113
瞼	-12.9113
楛	-12.9117
蒭	-12.9181
璚	-12.9182
焙	-12.9186
踟	-12.9187
蓰	-12.9189
蜺	-12.9189
垤	-12.9189
𦍑	-12.9192
嘿	-12.9192
笆	-12.9192
砰	-12.9193
綮	-12.9195
髹	-12.9198
矬	-12.9261
槿	-12.9263
昞	-12.9264
玨	-12.9265
翃	-12.9267
鑚	-12.9267
槱	-12.9268
勻	-12.9271
傕	-12.9273
蝌	-12.9274
眄	-12.9275
嘷	-12.9275
脽	-12.9275
竚	-12.9276
痢	-12.9281
㗖	-12.9282
􁌆	-12.9283
齪	-12.9288
𣅿	-12.9351
蜒	-12.9353
蒟	-12.9355
泂	-12.9357
俁	-12.936
轤	-12.9361
檮	-12.9362
滍	-12.9362
樛	-12.9364
栩	-12.9364
筞	-12.9365
崱	-12.9366
跼	-12.9366
瘋	-12.9367
衒	-12.9368
溠	-12.9369
姨	-12.9375
珖	-12.9437
鄀	-12.9438
晾	-12.9442
崆	-12.9442
隖	-12.9446
焱	-12.9448
苒	-12.9448
蝎	-12.9453
晌	-12.9455
憬	-12.9455
憝	-12.9455
獰	-12.9455
彷	-12.9456
臟	-12.9457
𠖇	-12.9458
祫	-12.9459
狽	-12.9462
倨	-12.9463
汐	-12.952
莉	-12.9527
瑺	-12.9529
鵓	-12.9536
珀	-12.9539
訔	-12.9542
鋋	-12.9542
肫	-12.9542
灶	-12.9542
蔀	-12.9545
虓	-12.9547
儵	-12.9551
穸	-12.9551
烙	-12.9551
捽	-12.9553
茉	-12.9617
琉	-12.9617
浿	-12.9622
媧	-12.9622
桄	-12.9622
溵	-12.9627
姆	-12.9627
扯	-12.9628
汸	-12.9629
皛	-12.963
芭	-12.9631
鎚	-12.9632
苹	-12.9634
吃	-12.9634
悪	-12.9641
攙	-12.9644
魃	-12.9645
蕤	-12.9645
滹	-12.9715
岵	-12.9718
珎	-12.9718
丗	-12.9722
螻	-12.9723
娼	-12.9724
紞	-12.9725
愒	-12.9726
躓	-12.973
愀	-12.973
痿	-12.9737
咂	-12.9792
饅	-12.9802
煕	-12.9805
駰	-12.9806
嶐	-12.9807
瓔	-12.9807
碇	-12.981
㝛	-12.9811
蛩	-12.9813
眈	-12.9817
臉	-12.9817
摽	-12.9817
磗	-12.9817
恫	-12.9821
肻	-12.9821
桎	-12.9823
敺	-12.9827
鰓	-12.9837
鈁	-12.9884
鱔	-12.9894
崮	-12.9895
􁱰	-12.9896
蚺	-12.9898
闚	-12.9903
櫚	-12.9903
鰣	-12.9903
塠	-12.9905
􁇣	-12.9905
菹	-12.9906
俺	-12.9907
蘸	-12.9907
啗	-12.9911
筩	-12.9911
奘	-12.9911
磕	-12.9911
犴	-12.9918
舠	-12.9919
剷	-12.992
嗔	-12.992
梘	-12.9992
珌	-12.9993
廚	-12.9994
敔	-12.9995
皺	-12.9996
鬪	-12.9997
舩	-13
鞘	-13
韐	-13.0002
穪	-13.0002
鞵	-13.0003
鍛	-13.0006
弢	-13.0006
涙	-13.0006
弃	-13.0006
訏	-13.0008
揄	-13.001
𪠘	-13.0011
腑	-13.0012
靠	-13.0013
茜	-13.008
帮	-13.0092
蜍	-13.0094
薯	-13.0094
貅	-13.0095
呦	-13.0097
冑	-13.0098
槥	-13.01
蜩	-13.01
暌	-13.0101
覦	-13.0104
弆	-13.0108
輗	-13.0174
鍈	-13.0175
窿	-13.0184
矼	-13.0186
䞇	-13.0186
乱	-13.0188
璪	-13.0188
劚	-13.0189
嶙	-13.019
桌	-13.019
撇	-13.019
肓	-13.0198
栱	-13.0199
逯	-13.0272
廱	-13.0275
曅	-13.0278
碕	-13.0279
槲	-13.0279
縯	-13.0287
韵	-13.0287
絆	-13.0291
垍	-13.0292
疚	-13.0293
衖	-13.0293
嘖	-13.0294
庋	-13.0296
詗	-13.0301
央	-13.0301
嚶	-13.038
菀	-13.038
碙	-13.0386
屺	-13.0386
埈	-13.0388
嬾	-13.0392
咤	-13.0394
豌	-13.0472
嶕	-13.0475
螄	-13.0476
蜓	-13.0477
豗	-13.048
蜘	-13.0482
袠	-13.0483
櫪	-13.0484
尠	-13.0485
㽞	-13.0486
罸	-13.0486
殣	-13.0486
侖	-13.0487
泲	-13.0488
滮	-13.057
豋	-13.0571
虫	-13.0573
翽	-13.0574
嶀	-13.0574
芎	-13.0575
䴥	-13.0575
袓	-13.0577
潕	-13.0578
阬	-13.0579
鍰	-13.0579
枻	-13.0585
䑸	-13.0587
满	-13.059
蹷	-13.059
窀	-13.059
鬃	-13.0668
羚	-13.0668
堘	-13.0671
蟀	-13.0673
灸	-13.0675
橦	-13.0677
漴	-13.0679
咬	-13.0679
簰	-13.068
汋	-13.0681
罾	-13.0683
圌	-13.0683
僃	-13.0685
倧	-13.0685
歊	-13.0685
琱	-13.0686
莠	-13.0687
輭	-13.0687
泅	-13.0691
媮	-13.0692
鄼	-13.0759
煊	-13.0767
呷	-13.0768
竜	-13.0772
鱅	-13.0772
璝	-13.0776
宂	-13.0776
囀	-13.0777
廌	-13.0778
楪	-13.0779
舷	-13.078
攽	-13.078
嵲	-13.0782
譓	-13.0786
魑	-13.0786
姙	-13.0796
岍	-13.0875
蛋	-13.0876
鐶	-13.0876
儧	-13.0878
鯊	-13.0878
瀣	-13.0881
鞦	-13.0882
洼	-13.0884
綻	-13.0885
嚇	-13.0888
妤	-13.0889
㶁	-13.089
揔	-13.0893
噍	-13.0894
閧	-13.0895
茌	-13.0942
描	-13.0972
檠	-13.0972
逎	-13.0976
廰	-13.0976
眭	-13.0978
鎛	-13.0982
琤	-13.0985
驎	-13.0985
蜊	-13.0986
慳	-13.0989
跟	-13.0989
璙	-13.099
敡	-13.0991
龥	-13.0991
煢	-13.0992
糺	-13.0993
匃	-13.0994
轔	-13.0994
帔	-13.0996
孶	-13.1001
饉	-13.106
橚	-13.1074
蓚	-13.1076
籞	-13.1081
拗	-13.1081
蟋	-13.1084
髏	-13.1085
綋	-13.1088
偘	-13.1094
纏	-13.1094
蠙	-13.1094
恡	-13.1096
屩	-13.1097
揜	-13.1098
㐫	-13.1098
胔	-13.11
鏟	-13.1101
亰	-13.1104
洣	-13.1178
晙	-13.1184
銚	-13.1185
㶟	-13.1186
鵜	-13.119
唧	-13.119
孃	-13.1191
沘	-13.1191
碟	-13.1193
嬋	-13.1196
澒	-13.1196
划	-13.1196
腔	-13.1198
諠	-13.1199
鵒	-13.1199
櫳	-13.12
閠	-13.1202
鴞	-13.1203
逌	-13.1203
踉	-13.1204
煞	-13.1204
袐	-13.1207
矻	-13.1208
遝	-13.1212
濜	-13.1287
屧	-13.129
玥	-13.1292
磋	-13.1294
鷖	-13.1297
禴	-13.1297
浡	-13.1299
鮚	-13.13
蚓	-13.13
痰	-13.1302
􁇠	-13.1302
麕	-13.1306
娓	-13.1307
惴	-13.1309
畮	-13.1309
脗	-13.131
刖	-13.1312
蟊	-13.1315
献	-13.1315
獎	-13.1401
庒	-13.1402
萏	-13.1403
憕	-13.1404
蝻	-13.1404
磺	-13.1405
嶭	-13.1406
茇	-13.1406
棱	-13.1408
鷴	-13.1408
鸇	-13.1409
弈	-13.141
〇	-13.141
箧	-13.1411
眢	-13.1412
擂	-13.1412
璮	-13.1413
圬	-13.1414
躪	-13.1415
鍜	-13.1415
咆	-13.1416
帀	-13.1419
惸	-13.142
􁳡	-13.1422
閿	-13.1474
旼	-13.1502
鰐	-13.1503
盩	-13.1506
鮦	-13.1506
衕	-13.151
开	-13.151
戣	-13.1511
逶	-13.1512
佷	-13.1514
簹	-13.1517
軿	-13.1518
趫	-13.1521
叭	-13.1522
换	-13.1523
顰	-13.1523
鱖	-13.1523
㲲	-13.1524
惬	-13.1525
昵	-13.1525
遛	-13.1527
蜴	-13.1528
懵	-13.1528
篥	-13.1529
俵	-13.1532
眡	-13.1536
牯	-13.161
澴	-13.1614
佖	-13.1623
腮	-13.1623
匈	-13.1624
媽	-13.1626
罣	-13.1626
蚶	-13.1629
䲭	-13.163
陔	-13.163
惘	-13.1631
桮	-13.1632
瑠	-13.1633
曕	-13.1634
廞	-13.1636
蒍	-13.164
襆	-13.1641
瀁	-13.1641
嶤	-13.1728
吒	-13.1733
豉	-13.1734
騂	-13.1735
籛	-13.1736
㶚	-13.1737
墠	-13.1738
稳	-13.174
喂	-13.1742
箆	-13.1742
軨	-13.1743
餳	-13.1744
噲	-13.1745
窵	-13.1745
砭	-13.1745
眚	-13.1746
晻	-13.1746
閌	-13.1747
虖	-13.1749
嶅	-13.1829
謄	-13.1848
轘	-13.1849
夬	-13.185
叉	-13.185
㙔	-13.1852
鍠	-13.1853
礧	-13.1853
泒	-13.1854
呐	-13.1856
綳	-13.1856
舲	-13.1858
柷	-13.1858
艧	-13.1864
􁒿	-13.1934
偲	-13.1953
爺	-13.1955
褎	-13.1957
樷	-13.196
㕥	-13.1962
狻	-13.1962
秖	-13.1963
𢾗	-13.1964
曈	-13.1964
悒	-13.1966
竞	-13.1966
缷	-13.1967
㪺	-13.1969
搘	-13.1969
簴	-13.1971
屭	-13.1973
蓂	-13.1973
嫺	-13.1974
禡	-13.1974
鼛	-13.1975
玲	-13.2071
甆	-13.2071
漙	-13.2074
飣	-13.2076
㟧	-13.2077
潚	-13.2078
迆	-13.2079
艫	-13.2079
膓	-13.2081
跛	-13.2081
饕	-13.2083
𤯝	-13.2084
鉷	-13.2084
鱟	-13.2084
杙	-13.2089
燐	-13.209
葅	-13.2092
㳅	-13.211
霦	-13.2171
扜	-13.2187
悝	-13.2191
艚	-13.2192
阸	-13.2193
匭	-13.2194
痩	-13.2194
墕	-13.2195
瘧	-13.2196
勱	-13.2196
橅	-13.2196
莵	-13.2197
恧	-13.2197
趯	-13.2197
篪	-13.2199
絍	-13.2199
鏢	-13.2199
眦	-13.2202
瘝	-13.2204
鄶	-13.2205
硪	-13.221
焴	-13.23
坨	-13.2302
驌	-13.2305
灄	-13.2305
禿	-13.2305
妒	-13.2309
卄	-13.2312
栒	-13.2312
籕	-13.2312
箏	-13.2312
繻	-13.2313
醸	-13.2315
蹠	-13.2316
颸	-13.2318
盬	-13.2319
癢	-13.2319
蝨	-13.232
聃	-13.2322
簀	-13.2323
邅	-13.2324
靦	-13.2327
匐	-13.233
岰	-13.2354
鄲	-13.2419
偀	-13.242
鏻	-13.2422
􁘭	-13.2422
櫧	-13.2426
玳	-13.2427
倜	-13.2428
龐	-13.2429
跎	-13.243
柅	-13.2431
楝	-13.2433
㢠	-13.2433
噤	-13.2436
皜	-13.2436
捃	-13.2437
帨	-13.2437
縡	-13.2438
慇	-13.2439
鼂	-13.2441
褵	-13.2441
罐	-13.2442
秒	-13.2452
恙	-13.252
玿	-13.2536
𤏡	-13.2542
岢	-13.2544
騄	-13.2549
珧	-13.2552
竂	-13.2552
罝	-13.2553
蜉	-13.2553
坏	-13.2554
棖	-13.2555
呾	-13.2558
奶	-13.2558
帟	-13.2558
􁴈	-13.2558
閡	-13.2559
軔	-13.2559
鶱	-13.2559
酖	-13.256
鍍	-13.2561
嫜	-13.2561
缽	-13.2563
窽	-13.2568
肸	-13.2568
咋	-13.257
忳	-13.2647
􁅔	-13.2648
髑	-13.2666
埰	-13.2666
覡	-13.2671
傉	-13.2671
戬	-13.2674
蒺	-13.2674
倥	-13.2675
鵑	-13.2675
熛	-13.2678
茰	-13.2679
鰍	-13.2682
嵫	-13.2683
剳	-13.2697
峿	-13.278
葯	-13.2786
崌	-13.2796
斲	-13.2796
秈	-13.2796
抝	-13.2797
椘	-13.2798
髩	-13.2799
蚕	-13.28
堋	-13.2802
篌	-13.2803
狁	-13.2804
蹀	-13.2805
矱	-13.2807
摉	-13.2808
穄	-13.2813
煐	-13.2905
淠	-13.291
鉽	-13.2911
禅	-13.2912
吧	-13.2913
滈	-13.2918
玕	-13.2919
牱	-13.292
礶	-13.292
爟	-13.292
嫚	-13.2922
冄	-13.2922
㛰	-13.2923
騙	-13.2923
漻	-13.2923
瑇	-13.2924
耔	-13.2924
鐍	-13.2925
眥	-13.2926
浞	-13.2927
哽	-13.2928
喏	-13.293
誹	-13.2931
蜥	-13.2932
艸	-13.2938
担	-13.2941
鏵	-13.3039
鄷	-13.3041
瑑	-13.3043
䴡	-13.3045
谺	-13.3046
甾	-13.3046
鄨	-13.3047
鑴	-13.305
琶	-13.305
麅	-13.3051
臏	-13.3051
箜	-13.3052
頖	-13.3052
氲	-13.3053
鄽	-13.3054
憸	-13.3055
䰟	-13.3056
瓖	-13.3057
幌	-13.3058
柤	-13.3059
氂	-13.3064
跖	-13.3064
臞	-13.3065
坭	-13.3128
桕	-13.3165
醅	-13.317
莋	-13.3173
漋	-13.3173
洳	-13.3175
炘	-13.3176
堝	-13.3176
喃	-13.3177
拚	-13.3178
灩	-13.3178
薿	-13.3179
泜	-13.318
韌	-13.3181
崪	-13.3181
綈	-13.3181
髳	-13.3182
霔	-13.3182
玗	-13.3182
荗	-13.3182
卺	-13.3182
耍	-13.3183
賍	-13.3184
轝	-13.3184
杷	-13.3184
輊	-13.3192
郉	-13.3281
悆	-13.3295
㠘	-13.3297
㠋	-13.3298
幵	-13.3298
箒	-13.3303
鸎	-13.3304
磈	-13.3306
芘	-13.3306
刊	-13.3308
宬	-13.3308
薏	-13.3309
鍧	-13.331
鬂	-13.3311
呱	-13.3312
稌	-13.3313
畒	-13.3314
韉	-13.3314
韮	-13.3314
咥	-13.3315
瞠	-13.3316
搦	-13.3317
斚	-13.3317
迕	-13.3318
莩	-13.3321
蠋	-13.3322
冮	-13.3427
賒	-13.3433
㫄	-13.3436
鶡	-13.3437
茱	-13.3441
幬	-13.3441
馗	-13.3444
幪	-13.3445
劂	-13.3446
禖	-13.3448
嚬	-13.3448
莬	-13.3448
瞶	-13.3449
汞	-13.345
儗	-13.3451
嘈	-13.3451
狴	-13.3453
慊	-13.3454
躙	-13.3455
唫	-13.3566
谽	-13.3568
櫆	-13.3568
褭	-13.3569
慷	-13.357
簏	-13.3572
韆	-13.3577
仡	-13.3577
瞷	-13.3578
泔	-13.3578
枒	-13.3579
矞	-13.3579
灉	-13.3579
昩	-13.358
縲	-13.3582
瓿	-13.3582
躐	-13.3583
澘	-13.3583
鬘	-13.3583
甖	-13.3584
僝	-13.3588
賮	-13.3588
琊	-13.37
幛	-13.3701
訇	-13.3703
洟	-13.3703
㻞	-13.3704
倌	-13.3704
醍	-13.3705
蚋	-13.3705
卣	-13.3706
濚	-13.3706
鄳	-13.3707
粼	-13.3709
蠆	-13.3711
徕	-13.3712
颿	-13.3718
罥	-13.372
㵸	-13.3721
薮	-13.3722
斕	-13.3836
窋	-13.3836
亓	-13.384
衽	-13.3841
鱧	-13.3845
𠡠	-13.3846
坫	-13.3846
龢	-13.3846
搒	-13.3848
跗	-13.3848
倏	-13.3848
謟	-13.385
找	-13.385
鯿	-13.3851
窱	-13.3852
螘	-13.3854
劳	-13.3855
咻	-13.3856
饁	-13.3856
剞	-13.3856
鋩	-13.386
笵	-13.3972
羾	-13.3977
抺	-13.3977
滶	-13.3979
渲	-13.3979
撚	-13.3983
糢	-13.3984
怦	-13.3985
郚	-13.3986
鄏	-13.3987
䥥	-13.3988
錕	-13.3988
縧	-13.3994
慆	-13.3994
賺	-13.3997
県	-13.4097
俌	-13.4103
囦	-13.4105
稒	-13.4116
灙	-13.4116
肪	-13.4121
娜	-13.4122
霫	-13.4123
廥	-13.4123
嶫	-13.4124
鍬	-13.4124
溲	-13.4124
旐	-13.4125
鵁	-13.4125
崘	-13.4126
麇	-13.4126
槧	-13.4127
疹	-13.4128
栰	-13.413
餔	-13.4131
􁒐	-13.4131
絁	-13.4133
污	-13.4134
睪	-13.4134
苣	-13.4135
籮	-13.4136
綑	-13.4136
覷	-13.4136
毉	-13.4137
釬	-13.4139
罃	-13.4144
尔	-13.4248
萯	-13.4257
稈	-13.426
癿	-13.4261
酎	-13.4262
鷥	-13.4263
蕢	-13.4264
忬	-13.4264
椶	-13.4265
蹏	-13.4265
酲	-13.4266
醑	-13.4266
闤	-13.4271
嚥	-13.4271
滀	-13.4271
壍	-13.4271
鼃	-13.4272
喋	-13.4273
惮	-13.4274
戺	-13.4276
諼	-13.4276
漰	-13.4277
瞀	-13.4278
尫	-13.428
俳	-13.428
鬷	-13.4281
𪷟	-13.4391
鎣	-13.4398
湭	-13.4405
埼	-13.4407
驆	-13.4407
頣	-13.4407
縢	-13.4409
醐	-13.4409
熳	-13.441
踢	-13.4412
峘	-13.4412
鐇	-13.4413
睚	-13.4413
糅	-13.4413
𢋫	-13.4414
媼	-13.4414
捎	-13.4415
坈	-13.4415
炕	-13.4416
佉	-13.4418
餗	-13.442
鬴	-13.4421
餱	-13.4421
彴	-13.4424
阽	-13.4425
灅	-13.4537
􁠭	-13.4543
蠔	-13.4555
𫐠	-13.4556
皃	-13.4557
魋	-13.4558
菩	-13.4558
饘	-13.4561
懔	-13.4564
晹	-13.4565
捩	-13.4566
齕	-13.4566
帡	-13.4567
歕	-13.4567
瞪	-13.4568
禨	-13.4568
鯖	-13.4571
赳	-13.4576
妺	-13.458
𤇺	-13.469
颻	-13.4703
鈸	-13.4705
憒	-13.4706
纑	-13.4708
酴	-13.4709
苡	-13.471
㟏	-13.471
鏄	-13.4711
蛺	-13.4712
梴	-13.4713
摐	-13.4713
鰉	-13.4715
媺	-13.4716
厖	-13.4716
朦	-13.4717
壒	-13.4718
矇	-13.4718
摳	-13.4723
兟	-13.4842
跕	-13.4847
𫀆	-13.4847
輜	-13.4851
柎	-13.4851
葫	-13.4852
搤	-13.4852
鐄	-13.4855
鉁	-13.4855
彂	-13.4856
栟	-13.4856
鶄	-13.4861
赬	-13.4863
䖝	-13.4864
䓤	-13.4866
𢃄	-13.4866
咳	-13.4866
茝	-13.4867
紲	-13.4868
薬	-13.4869
玃	-13.4877
瘼	-13.4946
㴶	-13.4999
疁	-13.5004
觝	-13.5008
㬋	-13.5009
轓	-13.5013
薝	-13.5015
翾	-13.5016
斮	-13.5017
狆	-13.5017
蹐	-13.5019
寞	-13.5019
妁	-13.502
㬰	-13.502
阼	-13.5021
鑕	-13.5021
瘖	-13.5021
辠	-13.5023
椗	-13.5023
颭	-13.5024
佻	-13.5024
隟	-13.5024
変	-13.5025
暍	-13.5026
艍	-13.5026
竆	-13.5026
釉	-13.5028
繾	-13.5028
睟	-13.5029
怍	-13.5039
㱔	-13.5157
滽	-13.5161
螽	-13.5166
􁂒	-13.5167
蟶	-13.5168
靨	-13.5169
㬇	-13.5169
癩	-13.5169
穟	-13.517
荑	-13.5171
礓	-13.5173
痌	-13.5174
煆	-13.5175
煚	-13.5176
咩	-13.5176
囏	-13.5176
腿	-13.5176
椑	-13.5177
霶	-13.5178
橑	-13.5178
鯈	-13.5178
黧	-13.5179
暱	-13.5179
踔	-13.5179
簳	-13.5179
艋	-13.518
葠	-13.5181
聪	-13.5184
僾	-13.5185
煅	-13.5185
櫸	-13.5308
㨂	-13.5318
邘	-13.5319
磡	-13.5322
曆	-13.5325
伷	-13.5326
茈	-13.5327
煓	-13.5328
湑	-13.5328
蠖	-13.5328
蘼	-13.5328
啁	-13.533
醿	-13.5332
砮	-13.5333
蛆	-13.5333
褶	-13.5334
貮	-13.5335
脹	-13.5335
咈	-13.5336
襴	-13.5337
蝤	-13.5339
疣	-13.534
虡	-13.534
秅	-13.5341
喊	-13.5343
韃	-13.5346
伙	-13.5452
􁉤	-13.5479
埿	-13.5479
晊	-13.5479
騩	-13.5482
瑫	-13.5482
喟	-13.5484
沜	-13.5488
鄾	-13.5489
拇	-13.5491
騣	-13.5491
嗅	-13.5492
玁	-13.5494
搥	-13.5497
丏	-13.5501
枿	-13.5501
娵	-13.5501
艎	-13.5502
朢	-13.5502
呶	-13.5504
赩	-13.5505
滘	-13.5604
瞎	-13.5641
轑	-13.5647
􁰽	-13.5649
褉	-13.565
毼	-13.565
褧	-13.5651
樝	-13.5651
筤	-13.5651
鱘	-13.5652
疥	-13.5653
鸂	-13.5655
㬢	-13.5656
璅	-13.5657
秸	-13.5658
繅	-13.5659
紝	-13.5659
嬸	-13.5661
悊	-13.5661
欏	-13.5661
糝	-13.5661
醲	-13.5661
倔	-13.5662
畇	-13.5663
凂	-13.5664
耉	-13.5665
墄	-13.5665
懣	-13.5668
浛	-13.5798
郈	-13.5805
鎏	-13.5806
䃳	-13.5812
泿	-13.5813
䓻	-13.5814
㰖	-13.5816
墱	-13.5821
终	-13.5821
噓	-13.5822
霩	-13.5822
蟺	-13.5827
舴	-13.5827
卅	-13.5828
氅	-13.5828
揵	-13.5831
嗢	-13.5831
瘟	-13.5839
榿	-13.5963
鑨	-13.5974
蠕	-13.5976
濾	-13.5978
輋	-13.5978
牁	-13.5979
樠	-13.598
璥	-13.5982
聦	-13.5982
桯	-13.5984
馱	-13.5984
奧	-13.5984
㫋	-13.5985
􁂪	-13.5986
㜑	-13.5987
傃	-13.5989
繯	-13.599
蓞	-13.599
醤	-13.599
総	-13.5994
圅	-13.5994
唁	-13.5994
埶	-13.5995
顕	-13.5997
剉	-13.5998
顇	-13.6
慼	-13.6004
溘	-13.6005
艨	-13.6007
􁪒	-13.6013
悳	-13.6143
暲	-13.6146
苪	-13.6151
嶇	-13.6151
旡	-13.6157
掯	-13.616
鄡	-13.6161
䥴	-13.6161
珅	-13.6162
廑	-13.6162
蠒	-13.6162
鰱	-13.6163
忖	-13.6163
旵	-13.6166
荄	-13.6166
恇	-13.6168
嚭	-13.6169
忉	-13.617
瀙	-13.6171
髽	-13.6171
痴	-13.6171
旹	-13.6171
挍	-13.6172
响	-13.6172
嘅	-13.6173
稉	-13.6177
婭	-13.6179
軄	-13.6179
瑮	-13.6319
冞	-13.632
涫	-13.6326
厔	-13.6327
􁆞	-13.6331
溮	-13.6332
胖	-13.6334
靶	-13.6338
猢	-13.6339
燻	-13.634
涴	-13.6341
羝	-13.6341
癱	-13.6342
愎	-13.6343
獪	-13.6343
钁	-13.6347
殑	-13.6347
醎	-13.6349
[...]
