<unk>	0
<s>	0
</s>	0
也	-3.78811
之	-3.98599
而	-4.14002
/	-4.39564
以	-4.50369
者	-4.50458
則	-4.62129
為	-4.66869
)(	-4.98933
(	-4.99464
有	-5.00873
其	-5.01591
)	-5.05429
故	-5.06534
不	-5.34357
言	-5.38009
曰	-5.38527
是	-5.46176
於	-5.54277
矣	-5.55547
上	-5.67345
此	-5.71819
一	-5.78046
與	-5.81522
易	-5.85829
皆	-5.87687
非	-5.87954
于	-5.88099
自	-5.89257
二	-5.95125
如	-5.96747
下	-5.97069
三	-5.98787
謂	-5.99532
象	-5.99546
亦	-5.99567
人	-5.99876
乎	-6.00396
在	-6.02675
得	-6.04814
然	-6.04814
无	-6.08452
四	-6.08829
五	-6.09112
至	-6.14502
當	-6.15255
陽	-6.19863
又	-6.23202
中	-6.23214
明	-6.23547
大	-6.26022
○	-6.26449
正	-6.31902
乃	-6.32104
用	-6.32271
處	-6.3335
之象	-6.33401
必	-6.34928
卦	-6.35107
雖	-6.35152
故曰	-6.3528
隂	-6.36314
▁	-6.37626
所	-6.37764
乾	-6.38434
者也	-6.39069
初	-6.39228
坤	-6.39552
能	-6.4018
即	-6.40931
所以	-6.42981
已	-6.43283
見	-6.4402
行	-6.44541
若	-6.48912
無	-6.51055
天	-6.53428
復	-6.53711
變	-6.54038
事	-6.54898
時	-6.5623
成	-6.56637
義	-6.57114
居	-6.57174
君子	-6.58331
合	-6.59179
説	-6.59789
道	-6.5987
可	-6.61507
本	-6.62013
剛	-6.62357
作	-6.62701
動	-6.63456
知	-6.64212
同	-6.64656
物	-6.65415
從	-6.65899
字	-6.66161
離	-6.66732
云	-6.66852
生	-6.67291
聖人	-6.68552
說	-6.6906
心	-6.7199
之道	-6.72403
象曰	-6.73144
之義	-6.73753
反	-6.75896
既	-6.7596
夫	-6.76055
柔	-6.76873
焉	-6.77144
震	-6.78751
方	-6.81236
未	-6.8234
所謂	-6.83114
坎	-6.83294
位	-6.83751
體	-6.83821
終	-6.84327
止	-6.8435
爲	-6.84601
出	-6.85716
惟	-6.86721
主	-6.86864
六	-6.87242
巽	-6.87297
不可	-6.8804
子	-6.90219
來	-6.90939
相	-6.91159
猶	-6.92723
始	-6.92962
不能	-6.92997
或	-6.93621
取	-6.94692
外	-6.94908
欲	-6.95962
觀	-6.97311
耳	-6.97412
益	-6.98096
吉	-6.98492
爻	-6.98983
何	-6.99326
數	-7.00302
分	-7.00554
水	-7.00646
日	-7.02505
通	-7.02794
進	-7.03101
九	-7.03109
而不	-7.03252
順	-7.03857
應	-7.0456
/)	-7.05471
文	-7.05473
小人	-7.06161
徳	-7.075
艮	-7.0886
之時	-7.0949
君	-7.09654
傳	-7.09883
天下	-7.10149
小	-7.10185
而已	-7.10997
地	-7.11361
後	-7.12994
實	-7.13501
解	-7.14284
極	-7.14344
民	-7.15437
過	-7.15657
天地	-7.15806
先	-7.16581
善	-7.16906
今	-7.16953
亨	-7.17075
去	-7.17502
比	-7.17605
多	-7.17624
内	-7.18963
盡	-7.19687
隨	-7.19811
王	-7.19984
哉	-7.2064
固	-7.21533
兩	-7.21753
求	-7.2261
節	-7.22925
難	-7.2321
意	-7.24209
因	-7.24345
九五	-7.25244
安	-7.25272
如此	-7.25297
以為	-7.26378
利	-7.26593
常	-7.28426
凡	-7.28906
且	-7.2941
九二	-7.29552
理	-7.29736
氣	-7.29737
宜	-7.31578
使	-7.32154
乾坤	-7.32545
損	-7.32878
隂陽	-7.33702
將	-7.3375
凶	-7.33773
蓋	-7.33984
遇	-7.34286
入	-7.34307
六五	-7.34999
往	-7.35001
貞	-7.36056
上九	-7.36273
信	-7.36322
志	-7.36589
也故	-7.37202
重	-7.37534
无咎	-7.37835
否	-7.38356
可以	-7.40949
八	-7.4189
九三	-7.42025
及	-7.42067
德	-7.42205
而後	-7.42846
身	-7.43208
升	-7.43743
失	-7.44393
六二	-7.44568
九四	-7.45055
元	-7.45181
陰	-7.45483
獨	-7.45502
立	-7.46373
臣	-7.46561
履	-7.46711
由	-7.47073
長	-7.47116
我	-7.47262
革	-7.48535
辭	-7.48725
火	-7.49031
葢	-7.4913
上六	-7.49244
尚	-7.49325
治	-7.49728
險	-7.50088
指	-7.50106
神	-7.50244
稱	-7.51189
上下	-7.51609
六三	-7.52762
困	-7.5317
但	-7.53606
是以	-7.53769
便	-7.53952
前	-7.53974
盖	-7.54228
法	-7.54491
名	-7.54525
師	-7.55126
之意	-7.55437
命	-7.55527
禮	-7.55544
井	-7.5556
交	-7.55994
初九	-7.56847
萬物	-7.57731
泰	-7.57895
謙	-7.58853
衆	-7.58986
訟	-7.6024
木	-7.60344
性	-7.60671
疑	-7.61246
之象也	-7.61897
世	-7.62132
本義	-7.62982
直	-7.63534
深	-7.63924
釋	-7.64093
歸	-7.64128
山	-7.64369
占	-7.64828
和	-7.64943
惡	-7.65298
論	-7.6549
經	-7.65754
濟	-7.66081
近	-7.66476
六四	-7.67109
定	-7.67271
逺	-7.67379
各	-7.67814
注	-7.67952
恒	-7.68018
風	-7.68302
臨	-7.68549
豫	-7.68938
問	-7.69128
虚	-7.69292
足	-7.69701
遯	-7.69798
公	-7.69937
亂	-7.70246
感	-7.70323
澤	-7.70424
家	-7.70692
謂之	-7.7111
就	-7.7176
是也	-7.721
發	-7.72215
之中	-7.72418
之事	-7.7291
彖	-7.73099
致	-7.73142
化	-7.73711
言之	-7.7384
唯	-7.74241
書	-7.74577
舉	-7.74845
文王	-7.74975
起	-7.75185
女	-7.75338
人之	-7.75403
盛	-7.75697
危	-7.75747
豈	-7.76096
全	-7.76903
不知	-7.77614
養	-7.77665
七	-7.77875
國	-7.78071
鼎	-7.7838
兌	-7.78598
句	-7.78892
初六	-7.79114
圖	-7.79711
平	-7.7984
周	-7.79874
之理	-7.80045
故為	-7.80108
咸	-7.80184
畜	-7.80305
備	-7.80619
漸	-7.8066
又曰	-7.80665
受	-7.80872
樂	-7.80879
屯	-7.81178
著	-7.81341
兊	-7.81511
首	-7.81587
孚	-7.81623
窮	-7.81739
不得	-7.82428
守	-7.82468
仁	-7.83078
蒙	-7.83371
至於	-7.83687
之所	-7.84139
髙	-7.84161
形	-7.84169
誠	-7.86317
八卦	-7.86325
要	-7.86343
剥	-7.86405
遂	-7.86523
制	-7.87388
六爻	-7.87766
思	-7.87792
斯	-7.88518
己	-7.88665
異	-7.89025
類	-7.8933
諸	-7.89485
天下之	-7.89611
在上	-7.90162
睽	-7.90191
渙	-7.9033
貴	-7.91137
情	-7.91199
存	-7.9145
力	-7.9173
彼	-7.91832
土	-7.91872
少	-7.9203
兼	-7.92364
一陽	-7.92928
似	-7.93039
只	-7.93052
馬	-7.93385
賢	-7.93469
親	-7.93541
萃	-7.93581
畫	-7.93609
蠱	-7.93648
中正	-7.93906
剛柔	-7.94139
功	-7.94256
退	-7.94889
吾	-7.95491
俱	-7.95603
更	-7.95637
壯	-7.95717
次	-7.95788
甚	-7.96318
旅	-7.96563
然後	-7.96587
聚	-7.96969
而為	-7.97304
晉	-7.9839
也然	-7.98473
承	-7.98553
金	-7.9873
施	-7.99342
在下	-7.99556
積	-7.99565
需	-7.99592
只是	-7.99767
勝	-8.00079
學	-8.00162
對	-8.00397
據	-8.00662
害	-8.01509
悔	-8.01833
語	-8.01842
之極	-8.0209
夬	-8.02475
賁	-8.02582
決	-8.02762
不同	-8.02843
无妄	-8.03024
敬	-8.03494
好	-8.03984
其所	-8.0442
十	-8.04684
月	-8.05226
則為	-8.05308
食	-8.06468
蹇	-8.07016
傷	-8.07116
豐	-8.07131
兑	-8.07799
尊	-8.08114
光	-8.08335
音	-8.08427
原	-8.08698
孔子	-8.08912
㢲	-8.08971
戒	-8.09065
須	-8.09069
變化	-8.09388
而言	-8.09725
引	-8.09857
徃	-8.09994
大人	-8.10302
之間	-8.10698
藏	-8.10835
之道也	-8.1092
吉凶	-8.11332
有孚	-8.11334
故有	-8.12186
他	-8.12388
之心	-8.12607
加	-8.12736
視	-8.13061
切	-8.13308
莫	-8.138
健	-8.13812
屬	-8.14534
爾	-8.1473
古	-8.14914
便是	-8.15252
右	-8.15358
别	-8.15522
動而	-8.15756
必有	-8.15964
憂	-8.16074
矣故	-8.16155
也夫	-8.16252
流	-8.16431
亡	-8.16447
▁(	-8.17053
利貞	-8.17128
任	-8.17191
邪	-8.17255
聲	-8.17312
大過	-8.17392
雷	-8.17404
而无	-8.1794
乾之	-8.18338
了	-8.18359
姤	-8.18422
伏	-8.18619
氏	-8.18769
興	-8.1891
包	-8.19386
推	-8.19441
厚	-8.19658
聖	-8.19948
章	-8.201
吝	-8.20235
具	-8.20509
而成	-8.20516
龍	-8.20957
服	-8.21005
顯	-8.2102
克	-8.21653
二陽	-8.21733
有所	-8.21919
足以	-8.22223
則有	-8.22506
精	-8.22815
散	-8.22826
以其	-8.22905
斷	-8.23207
配	-8.23883
不足	-8.24384
死	-8.24424
之主	-8.24462
未濟	-8.24831
消	-8.24832
之位	-8.25696
開	-8.26058
勢	-8.26096
无所	-8.26119
父	-8.26161
静	-8.26481
疾	-8.266
之辭	-8.26733
互	-8.26882
不言	-8.2703
之徳	-8.27382
而能	-8.27885
度	-8.28158
厲	-8.28183
爻辭	-8.2825
私	-8.28382
待	-8.28535
附	-8.29029
其義	-8.29303
故云	-8.29428
之卦	-8.29446
之數	-8.29997
乗	-8.30211
容	-8.30227
教	-8.30265
逆	-8.30437
靜	-8.30485
之義也	-8.30508
此爻	-8.30559
慎	-8.30762
君子之	-8.31043
改	-8.31151
而有	-8.31206
載	-8.31306
口	-8.31333
錯	-8.31374
令	-8.3145
刑	-8.31459
太	-8.3171
不可以	-8.31799
帝	-8.31811
間	-8.3205
微	-8.322
何以	-8.32269
之初	-8.32302
適	-8.32346
威	-8.3248
幾	-8.32599
二五	-8.32823
之上	-8.33367
也故曰	-8.33653
大有	-8.33768
小過	-8.33799
易之	-8.33851
貞吉	-8.33986
乘	-8.34146
一隂	-8.34285
既濟	-8.34291
夫子	-8.34425
自然	-8.34494
美	-8.34528
齊	-8.34963
宗	-8.35102
向	-8.35297
同人	-8.35478
萬	-8.35507
息	-8.3574
辨	-8.35776
進退	-8.36008
之後	-8.3642
序	-8.36484
来	-8.36572
中孚	-8.36734
太極	-8.36986
程子曰	-8.36999
所以為	-8.37062
統	-8.37067
餘	-8.37106
其道	-8.37334
才	-8.37638
彖曰	-8.38156
盈	-8.38222
按	-8.38317
特	-8.38651
專	-8.38742
大壯	-8.38778
最	-8.39032
至于	-8.3919
執	-8.39881
喜	-8.40213
左	-8.40484
質	-8.40608
並	-8.40634
隂柔	-8.40906
敗	-8.41004
門	-8.41437
車	-8.41786
南	-8.41794
尤	-8.42691
不正	-8.427
廣	-8.42707
周易	-8.42813
為主	-8.42848
輔	-8.42906
却	-8.4308
依	-8.43552
程傳	-8.43737
之用	-8.43925
二隂	-8.44091
㑹	-8.44605
絶	-8.44938
看	-8.44965
妄	-8.4533
久	-8.4545
可見	-8.45482
器	-8.45522
懼	-8.45547
婦	-8.45828
竒	-8.45857
歸妹	-8.46615
者皆	-8.46696
一爻	-8.46914
頤	-8.4723
修	-8.47382
偶	-8.47458
相應	-8.47574
西	-8.47611
羣	-8.47654
卑	-8.47684
之功	-8.47722
白	-8.4779
故能	-8.47805
小畜	-8.47855
總	-8.48107
東	-8.4812
望	-8.48302
目	-8.48395
陸	-8.49039
張	-8.49086
坤之	-8.49213
降	-8.49427
之地	-8.49461
田	-8.49496
習	-8.49737
慮	-8.4985
之始	-8.50021
漢	-8.5004
災	-8.50222
訓	-8.50519
咎	-8.5059
違	-8.50614
恐	-8.50675
雨	-8.50727
果	-8.50897
强	-8.50967
飛	-8.51058
謹	-8.51368
雜	-8.51491
之説	-8.51515
噬嗑	-8.51638
人心	-8.51713
如是	-8.51817
舍	-8.52017
也若	-8.52104
剝	-8.52155
𤼵	-8.52326
共	-8.5233
高	-8.52448
設	-8.52462
也此	-8.52626
未有	-8.52752
申	-8.52932
牛	-8.53247
陽剛	-8.53339
不過	-8.53359
年	-8.53594
之人	-8.53616
君子以	-8.53965
亦有	-8.54057
𫝊	-8.54109
也象曰	-8.54435
愈	-8.54474
除	-8.54574
患	-8.54864
聞	-8.54882
得中	-8.54928
正應	-8.55164
夏	-8.55186
喪	-8.55386
虞	-8.55417
聖人之	-8.55546
得其	-8.55686
决	-8.55907
男	-8.55931
亢	-8.56016
晦	-8.56024
而得	-8.5643
兵	-8.56645
末	-8.56667
其心	-8.56787
繼	-8.56929
案	-8.57014
士	-8.57091
底	-8.5713
卦之	-8.57178
陳	-8.57272
考	-8.5735
繫辭	-8.57424
智	-8.5745
百	-8.57476
不必	-8.57597
於此	-8.57837
謀	-8.57844
助	-8.57954
達	-8.58063
元吉	-8.58682
敵	-8.5869
真	-8.58756
禍	-8.58877
之下	-8.58901
征	-8.58977
權	-8.58993
嚴	-8.59067
坎離	-8.591
矣然	-8.59302
不敢	-8.5957
大畜	-8.59663
蓍	-8.5972
告	-8.59777
道也	-8.60258
獲	-8.60435
偏	-8.60669
朱子曰	-8.60692
列	-8.60715
天道	-8.60887
黄	-8.61057
皆以	-8.61185
簡	-8.61264
明夷	-8.61269
朝	-8.61319
之所以	-8.61382
資	-8.61407
政	-8.61612
巳	-8.61811
北	-8.61826
覆	-8.62009
者以	-8.62108
繫	-8.62723
再	-8.62863
水火	-8.62935
剛中	-8.63024
之謂	-8.63097
麗	-8.63274
彖辭	-8.63523
一卦	-8.63654
朱子	-8.6366
係	-8.63689
勞	-8.63896
殺	-8.63938
如何	-8.64021
於上	-8.6418
這	-8.64233
雲	-8.6427
其志	-8.64312
天地之	-8.64331
不當	-8.64427
陰陽	-8.64593
三陽	-8.64639
福	-8.64649
誤	-8.64876
徒	-8.64972
其徳	-8.65
色	-8.65021
苟	-8.65125
不為	-8.65276
畏	-8.65498
富	-8.65642
衰	-8.65879
之德	-8.65909
等	-8.6596
滅	-8.66084
六十四卦	-8.66122
詳	-8.6625
愛	-8.66305
何也	-8.66531
不及	-8.66696
老	-8.66923
母	-8.67014
背	-8.67041
日月	-8.67165
内外	-8.6723
悔亡	-8.67379
耶	-8.67453
石	-8.67487
轉	-8.6752
連	-8.67723
坎為	-8.6784
享	-8.67946
識	-8.68065
陵	-8.68098
家人	-8.68361
其事	-8.68698
无不	-8.68757
運	-8.68819
武	-8.69115
三四	-8.69737
商	-8.70008
愚	-8.70399
此卦	-8.7042
弱	-8.70495
都	-8.7053
卦爻	-8.70536
半	-8.70665
甲	-8.70982
筮	-8.71033
頥	-8.71075
而又	-8.71298
遷	-8.7132
諸侯	-8.71622
察	-8.71676
新	-8.71676
保	-8.71843
伏羲	-8.72197
皆有	-8.72383
人君	-8.72667
以柔	-8.72906
元亨	-8.72934
得位	-8.72954
不以	-8.73099
介	-8.73158
潛	-8.733
之際	-8.73547
周公	-8.7365
故以	-8.73724
十二	-8.73785
舊	-8.73899
持	-8.73949
侯	-8.7399
子曰	-8.74135
雖有	-8.74137
君臣	-8.74157
含	-8.74255
文明	-8.74269
四時	-8.7436
照	-8.74425
則不	-8.74427
以下	-8.74432
陷	-8.74484
之類	-8.74641
進而	-8.74688
以明	-8.74733
約	-8.7502
讀	-8.7505
彖傳	-8.75104
往來	-8.75117
夷	-8.75787
天之	-8.75803
况	-8.76089
而行	-8.76149
卷	-8.76161
李	-8.76232
根	-8.76437
知其	-8.766
屈	-8.76614
其位	-8.76668
建	-8.76786
以剛	-8.76866
例	-8.77061
氏曰	-8.7707
之才	-8.77232
乆	-8.77261
取其	-8.77357
戰	-8.77564
血	-8.77596
官	-8.77617
詩	-8.77752
以此	-8.77763
學者	-8.77868
於下	-8.78064
䝉	-8.78611
鬼神	-8.78618
宋	-8.7867
堅	-8.78785
男女	-8.78851
手	-8.78916
中爻	-8.78982
蔽	-8.79061
伐	-8.79393
嘗	-8.79653
宫	-8.80351
速	-8.80411
鄭	-8.8048
不利	-8.80545
撰	-8.80693
上之	-8.80699
觀之	-8.80765
二之	-8.80804
物之	-8.81172
録	-8.81187
虎	-8.8123
之志	-8.81249
未嘗	-8.81576
避	-8.81576
以正	-8.81889
眀	-8.81976
到	-8.82083
茍	-8.82088
幽	-8.82123
祭	-8.82197
而不能	-8.82357
做	-8.82597
防	-8.82806
言其	-8.8283
噬	-8.82871
坤為	-8.83241
揲	-8.83281
見其	-8.83429
卦辭	-8.83454
儀	-8.83492
輿	-8.83535
初之	-8.83571
无應	-8.83675
又有	-8.8368
三爻	-8.83714
然則	-8.83787
人事	-8.83963
不見	-8.84114
邑	-8.84159
滿	-8.84183
爭	-8.84226
二字	-8.84253
納	-8.84445
象也	-8.84672
假	-8.84754
序卦	-8.84835
則是	-8.85032
勿	-8.85068
泥	-8.85294
寧	-8.85298
,	-8.85326
塞	-8.85329
純	-8.85538
居中	-8.85548
端	-8.85696
虛	-8.85838
剛健	-8.85842
淵	-8.85945
而無	-8.86044
輕	-8.86082
註	-8.86297
剛而	-8.86565
泉	-8.86824
居上	-8.86879
柔順	-8.87168
接	-8.87426
可謂	-8.87633
在外	-8.87809
㣲	-8.87827
寒	-8.8844
之物	-8.88458
而上	-8.88521
五之	-8.88853
之體	-8.89232
朋	-8.89294
之謂也	-8.89315
嘉	-8.89384
春	-8.89411
業	-8.89435
卦變	-8.89637
魚	-8.89758
陽氣	-8.89866
西南	-8.89928
暗	-8.9016
嵗	-8.90344
造	-8.90401
悦	-8.90456
不失	-8.90589
不足以	-8.90806
而下	-8.90851
代	-8.90874
用之	-8.90883
而動	-8.90943
未能	-8.9098
龜	-8.91287
之世	-8.91325
示	-8.91326
限	-8.91634
陽爻	-8.91758
羊	-8.91765
相與	-8.91796
棄	-8.91822
可知	-8.92007
何也曰	-8.92111
隠	-8.92142
䇿	-8.92166
取象	-8.92365
五陽	-8.92469
救	-8.92531
忠	-8.92567
小人之	-8.92723
之終	-8.92754
置	-8.92819
元亨利貞	-8.9284
各有	-8.92854
恭	-8.92938
罪	-8.92956
者言	-8.9322
卒	-8.93549
為義	-8.9363
伊川曰	-8.93803
之說	-8.93964
朱	-8.94032
疏	-8.94143
四之	-8.94201
将	-8.94432
旣	-8.94509
飾	-8.94573
在内	-8.94741
隱	-8.9482
占者	-8.95101
不然	-8.95116
賤	-8.95123
震動	-8.95134
其中	-8.95261
歟	-8.95411
應之	-8.95592
四隂	-8.95594
正也	-8.9565
又為	-8.9567
良	-8.95749
干	-8.95956
忘	-8.95995
空	-8.96334
之法	-8.9636
河圖	-8.96656
抑	-8.96683
一作	-8.96821
秋	-8.96883
務	-8.96997
伯	-8.97035
病	-8.97132
歴	-8.97181
則无	-8.97189
其身	-8.97482
失其	-8.97539
五行	-8.97727
廢	-8.97774
先天	-8.98087
遠	-8.98125
唐	-8.98355
之外	-8.98601
弗	-8.98674
薄	-8.98706
聽	-8.98809
六子	-8.9892
折	-8.99054
夜	-8.9906
量	-8.99341
不相	-8.99356
得正	-8.99432
審	-8.99944
率	-8.99956
乾為	-9.0008
則吉	-9.00262
無所	-9.00382
趾	-9.00443
纂註	-9.00466
止於	-9.00473
則其	-9.00615
究	-9.00647
參	-9.00663
于上	-9.00746
亦不	-9.00814
益之	-9.00841
素	-9.00857
者亦	-9.00861
二爻	-9.01016
震為	-9.01149
者也故	-9.01158
布	-9.01198
文言	-9.01223
當位	-9.01318
庚	-9.01354
暴	-9.01431
是故	-9.01571
辰	-9.01602
遺	-9.0164
阻	-9.01688
尾	-9.01786
衍	-9.01804
祖	-9.01838
均	-9.0206
清	-9.02106
集解	-9.02272
三之	-9.02297
矣故曰	-9.02299
號	-9.02599
不善	-9.02642
従	-9.02659
於外	-9.02919
言之則	-9.03032
以成	-9.03106
結	-9.03125
躁	-9.03222
顧	-9.03415
鳴	-9.03425
出於	-9.03483
以求	-9.036
效	-9.03651
不用	-9.03886
角	-9.04039
之妙	-9.04122
造化	-9.04253
虞翻曰	-9.04639
艮止	-9.04648
胡	-9.04693
者非	-9.04715
之大	-9.04799
草	-9.04963
緩	-9.0511
天理	-9.05237
隔	-9.05272
白雲郭氏曰	-9.05718
負	-9.05921
亨也	-9.05953
面	-9.05987
幹	-9.06116
律	-9.06122
篇	-9.0614
野	-9.0634
孰	-9.06368
故謂之	-9.06491
有悔	-9.06548
有功	-9.06713
専	-9.0703
綜	-9.07138
失位	-9.07361
寡	-9.07392
自守	-9.07473
急	-9.07525
期	-9.07538
是為	-9.07618
殊	-9.07656
冬	-9.07747
一日	-9.07769
玩	-9.078
於是	-9.07907
故言	-9.07961
妙	-9.08003
則知	-9.08012
於人	-9.08034
況	-9.0815
吉也	-9.08262
奉	-9.08264
犯	-9.08352
俗	-9.08396
之情	-9.08484
自有	-9.08671
春秋	-9.08831
被	-9.08923
此言	-9.08992
耦	-9.09222
之氣	-9.09282
道理	-9.09355
者必	-9.09387
舎	-9.0949
星	-9.09666
仍	-9.09675
上行	-9.0984
之正	-9.09919
往而	-9.09957
或曰	-9.09959
箇	-9.09969
而未	-9.10051
變為	-9.10149
居下	-9.10152
于下	-9.10194
二卦	-9.10306
艱	-9.10541
卜筮	-9.10621
每	-9.10929
先儒	-9.10947
伊川先生曰	-9.10981
則必	-9.10988
厯	-9.11056
流行	-9.11136
傳曰	-9.11207
也今	-9.11208
黨	-9.11237
飲食	-9.11485
卦體	-9.11826
後世	-9.11902
計	-9.11909
使之	-9.12035
冝	-9.12076
三隂	-9.12136
夫婦	-9.12202
室	-9.12305
四象	-9.12305
后	-9.12319
于此	-9.12348
移	-9.12386
象傳	-9.12444
變而	-9.12588
之變	-9.12589
并	-9.12656
卦名	-9.12709
那	-9.12826
惕	-9.12974
之吉	-9.13018
予	-9.13027
休	-9.13048
之至	-9.13054
莫不	-9.13184
集	-9.13507
損益	-9.13705
隨之	-9.13725
之君	-9.13918
苦	-9.14012
五為	-9.14037
差	-9.14128
變通	-9.14268
然而	-9.14441
則可以	-9.14661
左右	-9.14813
之勢	-9.1492
利有攸往	-9.15243
育	-9.1528
之性	-9.15458
矣此	-9.15481
昏	-9.15486
也二	-9.15503
仲	-9.15713
其時	-9.15713
至此	-9.15764
動則	-9.15869
互體	-9.15892
卜	-9.16048
不在	-9.16266
其辭	-9.16358
楊	-9.1639
甘	-9.16494
贊	-9.1655
從之	-9.16602
紀	-9.16776
機	-9.16795
在中	-9.16838
行之	-9.16851
伊川	-9.17039
舜	-9.17086
拘	-9.17093
天子	-9.17115
生於	-9.17267
㡬	-9.17338
利見大人	-9.1741
而生	-9.17419
其德	-9.17671
至誠	-9.17886
傾	-9.17928
維	-9.18003
鳥	-9.18085
而已矣	-9.18146
終始	-9.18155
父母	-9.18202
柔而	-9.18283
崇	-9.18569
補	-9.18571
策	-9.18634
潤	-9.18637
也聖人	-9.18784
不明	-9.18863
不變	-9.1888
不如	-9.1895
劉	-9.18972
扵	-9.1905
免	-9.19151
下卦	-9.19155
不息	-9.19176
之時也	-9.19186
涉	-9.1924
記	-9.19309
故稱	-9.19419
陽之	-9.19565
腹	-9.19761
之戒	-9.19761
五十	-9.19846
薦	-9.19898
東北	-9.19988
无不利	-9.20027
倚	-9.20122
曲	-9.20131
故受之以	-9.2016
靈	-9.20161
振	-9.20232
而不知	-9.20248
孟子	-9.20275
譽	-9.20319
以見	-9.20504
牽	-9.20561
而不可	-9.20677
逐	-9.2079
其理	-9.20817
充	-9.20848
悔吝	-9.20929
不已	-9.20939
地之	-9.21115
拯	-9.21132
裕	-9.21208
永	-9.21386
獄	-9.21392
豈能	-9.21486
初爻	-9.21495
貫	-9.21508
坤上	-9.21602
四陽	-9.21685
𩔖	-9.21805
股	-9.21884
王者	-9.21912
坎水	-9.21929
兩儀	-9.21942
也君子	-9.21978
索	-9.22113
收	-9.2214
細	-9.22229
不待	-9.22255
洛書	-9.22318
光明	-9.22405
取諸	-9.22697
責	-9.22792
忽	-9.23017
而復	-9.23035
闕	-9.23066
與之	-9.23101
行也	-9.2327
其用	-9.2366
艮為	-9.23661
亦可	-9.23665
見於	-9.23666
其象	-9.23793
邦	-9.23894
願	-9.24211
攻	-9.246
禽	-9.24749
笑	-9.24867
大象	-9.24926
无悔	-9.25002
二十	-9.25076
丁	-9.2512
又以	-9.25208
道之	-9.25228
密	-9.25297
林	-9.2534
先生	-9.25342
迷	-9.25518
三變	-9.25633
趨	-9.25666
十六	-9.25706
也又	-9.25935
征凶	-9.25966
大臣	-9.2599
乾上	-9.26002
事之	-9.26092
強	-9.2616
覺	-9.26175
革之	-9.26288
巽為	-9.26291
擇	-9.26335
利用	-9.26484
還	-9.26486
離下	-9.26606
三十	-9.26628
昧	-9.26691
有終	-9.26967
下經	-9.26972
而居	-9.27001
誅	-9.27065
禹	-9.27078
三才	-9.27121
)○	-9.27134
程子	-9.27159
離為	-9.27195
相遇	-9.27209
淺	-9.27226
徐	-9.27267
易中	-9.27366
九六	-9.27453
衣	-9.27527
下體	-9.27578
者以其	-9.27669
𧰼	-9.28134
隂陽之	-9.28156
也三	-9.28163
神明	-9.28374
午	-9.28544
之事也	-9.2858
河	-9.28599
艮上	-9.28621
者乎	-9.28627
脩	-9.28805
史	-9.28922
舟	-9.28928
附録	-9.28977
利涉大川	-9.29104
二四	-9.29148
丘	-9.29172
凶也	-9.29247
省	-9.29271
華	-9.29349
及其	-9.29367
亦曰	-9.29436
守正	-9.29454
仰	-9.29463
成卦	-9.29475
辯	-9.29545
不中	-9.29607
程	-9.29727
豕	-9.29812
賔	-9.29826
正義	-9.29926
固有	-9.29968
御	-9.29972
用事	-9.30119
巽順	-9.30129
懐	-9.30145
無不	-9.30262
路	-9.30296
援	-9.30513
坤下	-9.30564
者謂	-9.30568
圗	-9.30573
後天	-9.30605
偽	-9.30606
不窮	-9.30747
隂爻	-9.30791
得之	-9.30978
五隂	-9.31035
千	-9.3111
悉	-9.31232
秦	-9.31284
喻	-9.31474
易簡	-9.31545
上經	-9.31571
會	-9.317
翼	-9.31831
六畫	-9.31852
膚	-9.31931
寛	-9.32047
内卦	-9.32238
玉	-9.32532
而進	-9.32534
可也	-9.3254
𤣥	-9.32671
諸卦	-9.32679
而反	-9.32736
旋	-9.32802
味	-9.32833
川	-9.32852
四方	-9.32934
取義	-9.33012
孝	-9.33031
禄	-9.33093
以象	-9.33167
居尊位	-9.3327
離上	-9.33271
也凡	-9.3329
昭	-9.33355
圓	-9.33495
義理	-9.33504
惠	-9.33537
垂	-9.33608
用九	-9.33671
怨	-9.33741
它	-9.33755
者有	-9.33973
二體	-9.34001
險難	-9.34056
在人	-9.34137
三畫	-9.3416
過於	-9.34214
勉	-9.34379
矢	-9.34394
徳之	-9.34415
而止	-9.34456
終吉	-9.3447
則凶	-9.34481
之名	-9.34535
坎下	-9.34562
比之	-9.34634
。	-9.34696
不動	-9.34712
落	-9.3488
皆是	-9.3489
授	-9.35201
而曰	-9.35282
反對	-9.35295
勿用	-9.35319
天地之道	-9.35468
潔	-9.35469
大抵	-9.35586
乾坤之	-9.35707
坎險	-9.35783
職	-9.35784
議	-9.35844
極而	-9.35845
中行	-9.36026
凝	-9.36163
四五	-9.36234
繋	-9.36258
人道	-9.36327
不當位	-9.36422
顛	-9.36521
穴	-9.36534
不與	-9.36636
恃	-9.36742
羣隂	-9.36758
不應	-9.36836
見得	-9.36836
卦象	-9.36877
故其	-9.36886
少女	-9.37129
而自	-9.37266
作易	-9.37294
於初	-9.37556
順而	-9.37561
外卦	-9.37657
初上	-9.37725
放	-9.37736
於天	-9.3787
坎上	-9.3801
此章	-9.38011
未必	-9.38063
乾下	-9.3811
第	-9.38134
䘮	-9.38177
下文	-9.38215
累	-9.38325
試	-9.38404
也五	-9.38451
天命	-9.38537
格	-9.38643
不容	-9.38644
可知矣	-9.38651
之交	-9.38664
掛	-9.387
際	-9.38724
妻	-9.38929
先王	-9.3899
循	-9.39002
伸	-9.39028
艮下	-9.39032
悖	-9.39038
述	-9.39071
於内	-9.39162
儉	-9.39224
藉	-9.39301
恐懼	-9.39415
於五	-9.3943
之於	-9.39524
勸	-9.39692
不通	-9.39759
寅	-9.39781
妹	-9.39907
陽也	-9.39966
並易	-9.40002
得其正	-9.40015
争	-9.4005
晝	-9.40092
則可	-9.40097
狐	-9.4016
不安	-9.40254
豈不	-9.40254
大者	-9.40258
敢	-9.40291
本卦	-9.40338
草木	-9.40355
此以	-9.40404
拂	-9.40426
不是	-9.40428
安能	-9.40506
宣	-9.40516
有為	-9.40763
其實	-9.40836
扐	-9.40849
震之	-9.40877
惑	-9.40888
君子之道	-9.40964
財	-9.40965
六爻皆	-9.41031
誰	-9.4113
越	-9.41264
三十六	-9.41293
離明	-9.41316
遽	-9.4139
相感	-9.41444
君之	-9.41604
相似	-9.41786
也蓋	-9.41815
成功	-9.41916
厥	-9.41925
推之	-9.41988
始於	-9.42069
一句	-9.42137
錫	-9.42181
无窮	-9.42181
是謂	-9.42247
庶	-9.42283
戒之	-9.42382
随	-9.42434
肆	-9.42439
忌	-9.4245
楚	-9.4246
明之	-9.4255
闇	-9.4269
生物	-9.42868
濡	-9.42894
行師	-9.42959
上有	-9.42993
弊	-9.43104
頭	-9.43145
表	-9.43172
戎	-9.43366
以至	-9.43391
易曰	-9.4342
孤	-9.43453
上爻	-9.43457
往則	-9.43566
地道	-9.43567
上文	-9.43601
乾元	-9.43618
大事	-9.43677
大吉	-9.43722
求之	-9.43728
叔	-9.43757
也如	-9.43822
隆	-9.43832
箕子	-9.43841
則能	-9.4386
不合	-9.4389
晝夜	-9.43954
之至也	-9.43962
故聖人	-9.44027
萌	-9.4412
志在	-9.4414
以自	-9.44265
皇	-9.44364
畢	-9.44368
人所	-9.44456
殷	-9.4453
其勢	-9.4458
憂患	-9.44613
為用	-9.4468
不至	-9.44733
愚謂	-9.44762
極則	-9.44802
射	-9.44825
念	-9.44872
吕	-9.44937
而終	-9.4496
為善	-9.44962
則不能	-9.44987
也又曰	-9.45066
所當	-9.45085
閑	-9.45106
揚	-9.45155
躍	-9.45166
亦以	-9.45216
震下	-9.45347
因其	-9.45679
恩	-9.45715
義也	-9.45734
閉	-9.45766
嗟	-9.45785
棟	-9.458
變也	-9.45804
季	-9.45832
慶	-9.45847
宻	-9.459
存乎	-9.45992
人情	-9.45997
海	-9.45999
震上	-9.46032
之臣	-9.46114
坎之	-9.46114
腓	-9.46184
六位	-9.46227
之學	-9.46266
進也	-9.46287
觀其	-9.46289
賢人	-9.463
始終	-9.46464
横	-9.46475
寵	-9.46498
中有	-9.46537
下之	-9.4658
四爻	-9.46597
出入	-9.46912
巽下	-9.47098
該	-9.47141
詞	-9.47152
諸爻	-9.47196
有應	-9.47202
召	-9.47225
正義曰	-9.47269
瀆	-9.47275
禦	-9.47307
隂之	-9.4735
不復	-9.47378
之文	-9.47402
婦人	-9.47429
早	-9.47506
離之	-9.47685
初為	-9.47689
六十四	-9.47746
王弼	-9.47752
消息	-9.47895
竊	-9.47906
幸	-9.48009
之凶	-9.48011
有餘	-9.48059
數之	-9.48106
庸	-9.48183
正而	-9.48195
正位	-9.48204
變易	-9.48223
横渠先生曰	-9.48275
所歸	-9.48277
得失	-9.48374
未有不	-9.48378
長子	-9.48598
中虚	-9.48602
康	-9.48616
䧟	-9.48627
中庸	-9.48693
逹	-9.48696
侵	-9.48703
敎	-9.48718
民之	-9.48947
孔	-9.49048
欲其	-9.49065
暌	-9.49067
觸	-9.49106
日中	-9.49179
于外	-9.49236
郊	-9.49259
匪	-9.49395
鮮	-9.49509
不能自	-9.49521
城	-9.49532
艮之	-9.49561
術	-9.4962
怒	-9.49627
奪	-9.49706
許	-9.4971
未可	-9.49966
以隂	-9.50078
滯	-9.50081
上進	-9.50245
使人	-9.50251
坐	-9.50274
聴	-9.50288
源	-9.50332
以上	-9.50358
極其	-9.50514
隨時	-9.50525
為一	-9.50564
牀	-9.50595
為陽	-9.50711
毁	-9.50718
畫卦	-9.50886
見之	-9.50891
中之	-9.50961
之爻	-9.51047
出險	-9.51071
縱	-9.51128
脱	-9.51163
鬼	-9.51174
出于	-9.51256
安得	-9.51291
某	-9.51305
自是	-9.51336
上卦	-9.51352
孟	-9.51407
僅	-9.51474
勇	-9.51509
飬	-9.51536
不勝	-9.51592
為大	-9.51636
不出	-9.51667
賛	-9.51838
不行	-9.5185
在天	-9.51997
相比	-9.52002
君道	-9.52019
則曰	-9.52075
又何	-9.52092
聖人作易	-9.5212
證	-9.52152
此則	-9.52298
本作	-9.52417
初二	-9.52565
汲	-9.52722
友	-9.52793
□	-9.52931
相反	-9.52978
娣	-9.5302
於中	-9.53029
少陽	-9.53079
古人	-9.53152
十五	-9.53211
其占	-9.53228
泰之	-9.53236
辟	-9.53381
不易	-9.53623
丑	-9.53753
刻	-9.53927
不中正	-9.54093
上體	-9.54151
震巽	-9.54156
仁義	-9.54177
也本義	-9.54187
黙	-9.54195
欽定四庫全書	-9.54236
動静	-9.54344
其體	-9.54437
位不當也	-9.54522
榮	-9.54598
損之	-9.54743
鴻	-9.54829
聖賢	-9.54855
入於	-9.5487
上為	-9.54907
廟	-9.54939
忠信	-9.54942
相得	-9.54989
於天下	-9.55013
虧	-9.55066
也然則	-9.55262
貪	-9.55283
惟其	-9.55284
乾體	-9.55349
其情	-9.55404
无攸利	-9.55487
坤順	-9.55777
相交	-9.55783
易道	-9.55888
四徳	-9.55903
不食	-9.55914
中也	-9.55977
歸之	-9.56014
人之所	-9.5605
四為	-9.56158
其上	-9.56174
逼	-9.56178
失之	-9.56285
所以能	-9.56324
魯	-9.56359
其數	-9.56576
乖	-9.56599
豈有	-9.56661
不成	-9.56696
熟	-9.56743
驗	-9.56751
也四	-9.56813
而往	-9.56899
愚案	-9.5696
乙	-9.57008
義曰	-9.57123
終於	-9.57298
發明	-9.57327
二三	-9.57363
人臣	-9.57432
在於	-9.57444
爻象	-9.57469
以陽	-9.57473
辱	-9.57479
不可不	-9.57535
獻	-9.57674
之分	-9.57688
三為	-9.57701
靡	-9.57868
全體	-9.57894
昔	-9.57909
以濟	-9.5799
之序	-9.58013
懲	-9.58014
出而	-9.5807
象傳曰	-9.58092
一也	-9.58097
有以	-9.58179
軍	-9.58212
寓	-9.58323
以中正	-9.58327
其行	-9.58332
衆隂	-9.5834
豈非	-9.58371
候	-9.58407
吉者	-9.58551
奇	-9.58603
也初	-9.58622
爻之	-9.58642
渉	-9.58698
雜卦	-9.5871
州	-9.58748
庭	-9.58752
有常	-9.58774
七日	-9.58854
此理	-9.58866
如是則	-9.58872
孫	-9.58895
廣大	-9.58941
兩爻	-9.59008
拇	-9.59034
魏	-9.59057
户	-9.59066
梁	-9.59088
温	-9.59211
生生	-9.59268
擊	-9.59295
之本	-9.59308
壊	-9.59393
其能	-9.59656
小者	-9.59666
而來	-9.59728
一人	-9.59768
止也	-9.59785
利有攸徃	-9.59789
君位	-9.59817
止而	-9.5984
先後	-9.59914
君子小人	-9.60031
奮	-9.6005
在其中	-9.60059
赤	-9.60063
韓	-9.60067
行而	-9.6015
亥	-9.60179
谷	-9.60321
旁	-9.6054
爻義	-9.60568
酒	-9.60596
于人	-9.60609
賞	-9.60753
亨通	-9.60862
時也	-9.60983
先生曰	-9.61058
感應	-9.6111
天徳	-9.61189
用也	-9.61224
巽上	-9.6125
亦是	-9.6126
則又	-9.61271
水之	-9.61311
其君	-9.61316
溺	-9.61401
之過	-9.61496
滋	-9.61585
利渉大川	-9.61622
姑	-9.6176
其間	-9.61773
役	-9.61774
物也	-9.61844
卦以	-9.61902
逸	-9.61933
卦中	-9.6197
順從	-9.61971
不中不正	-9.61975
邵子	-9.61986
則非	-9.61988
大亨	-9.62101
肉	-9.62164
萬物之	-9.62178
與五	-9.62206
彰	-9.62318
擬	-9.62422
焚	-9.62493
即是	-9.62517
藴	-9.62562
也或曰	-9.62583
露	-9.62629
怠	-9.62637
也盖	-9.62735
酉	-9.62942
卿	-9.62943
于五	-9.62948
未得	-9.62981
闢	-9.62994
无所不	-9.6302
掩	-9.63063
或以	-9.63099
荒	-9.63132
司	-9.63258
矣夫	-9.63279
之㫖	-9.63396
為君	-9.63411
材	-9.63434
循環	-9.63592
禁	-9.63656
居尊	-9.63676
其始	-9.63694
世之	-9.63738
三年	-9.63748
以順	-9.63775
留	-9.63895
尊位	-9.63898
而出	-9.63962
祭祀	-9.6398
二為	-9.64012
其類	-9.64102
牧	-9.64108
中實	-9.64139
其性	-9.64149
博	-9.64256
之實	-9.64263
或問	-9.64325
倒	-9.64345
相易	-9.64411
順也	-9.6442
卦畫	-9.64438
去其	-9.64514
一物	-9.64605
變而為	-9.64615
八月	-9.64621
自處	-9.64684
位不當	-9.64688
祥	-9.64769
㫖	-9.64786
非有	-9.64817
天下之事	-9.64838
鼓	-9.6495
遲	-9.64958
不若	-9.65062
大矣	-9.65076
一陰	-9.65081
所為	-9.65086
在我	-9.65198
乎此	-9.65341
其明	-9.6548
卦有	-9.65625
貴賤	-9.6567
而知	-9.6568
之内	-9.65692
亦然	-9.65719
毛	-9.65722
集說	-9.65745
而求	-9.65815
云云何也曰	-9.65819
屋	-9.65831
畧	-9.65838
也葢	-9.65878
故雖	-9.65879
不曰	-9.65904
剛明	-9.65956
其可	-9.65974
其功	-9.65986
之利	-9.66118
之機	-9.66144
鄰	-9.66308
貞固	-9.66423
乾卦	-9.66428
耕	-9.66428
以動	-9.66431
條	-9.66481
輪	-9.66529
略	-9.66553
變則	-9.66611
其才	-9.6684
鉉	-9.66879
而外	-9.66937
之應	-9.66958
徃來	-9.66971
易者	-9.66981
竟	-9.67033
又云	-9.67048
在下而	-9.6708
斗	-9.67185
正則	-9.67425
漢上朱氏曰	-9.67429
陽而	-9.67522
善惡	-9.67525
童	-9.67553
驕	-9.67581
封	-9.67664
輹	-9.67759
有事	-9.67818
而非	-9.67927
兩卦	-9.67935
悟	-9.67955
亨者	-9.67972
其意	-9.68066
趙	-9.68081
亦非	-9.68198
二十四	-9.68205
以待	-9.68306
咸恒	-9.68485
大明	-9.68501
危厲	-9.6853
而致	-9.68613
客	-9.68752
失道	-9.68842
故无咎	-9.68946
三五	-9.68947
甚矣	-9.68949
小象	-9.69098
利見	-9.69294
一无	-9.69404
冬至	-9.69405
其説	-9.69429
未嘗不	-9.69491
信之	-9.69499
燕	-9.69508
之美	-9.696
支	-9.6964
破	-9.69641
稍	-9.69642
日新	-9.6967
謹按	-9.69679
一身	-9.6973
險阻	-9.69775
登	-9.69842
操	-9.69871
貞也	-9.69897
不免	-9.69897
爻言	-9.69918
之禮	-9.7009
迹	-9.70188
三十二	-9.7028
與四	-9.70428
者蓋	-9.70528
之難	-9.70604
諸儒	-9.70641
敦	-9.70756
九五之	-9.70773
竭	-9.70783
西北	-9.70814
本爻	-9.70851
取之	-9.70898
缺	-9.70914
迫	-9.70931
此所以	-9.71126
一事	-9.71189
心之	-9.71201
借	-9.71264
一隂一陽	-9.71325
變動	-9.71332
用其	-9.71377
乎故	-9.71408
小亨	-9.71455
互坎	-9.71461
説卦	-9.71517
部	-9.71699
五爻	-9.71701
齋	-9.71819
不交	-9.71894
窒	-9.72051
而吉	-9.72095
委	-9.72131
盜	-9.72135
所由	-9.72161
奔	-9.72166
則無	-9.72168
所能	-9.72171
敝	-9.72185
之運	-9.72191
消長	-9.72452
分明	-9.72475
懷	-9.72544
稽	-9.72562
括	-9.7262
上應	-9.72636
祐	-9.72703
閏	-9.72734
乾健	-9.72761
乾道	-9.72817
下有	-9.72827
其為	-9.72852
不宜	-9.72933
段	-9.72937
而後有	-9.72962
觧	-9.73018
蔡	-9.73047
協	-9.73098
舒	-9.731
鼎之	-9.73106
艱難	-9.73176
動靜	-9.73257
止之	-9.73267
在上而	-9.733
中心	-9.73383
下應	-9.73409
契	-9.73418
貌	-9.73472
紂	-9.73473
不自	-9.73544
賦	-9.73581
種	-9.73593
故其象占如此	-9.73733
之使	-9.73763
象數	-9.73796
辛	-9.73908
應乎	-9.73937
易以	-9.73976
知之	-9.74074
雷風	-9.74098
无咎也	-9.74165
東南	-9.74206
止于	-9.74223
事也	-9.743
則當	-9.74305
所畜	-9.74344
動也	-9.74387
骨	-9.74416
大君	-9.74421
託	-9.74548
賊	-9.74651
如此則	-9.74671
報	-9.74678
符	-9.74701
十年	-9.74793
脫	-9.74808
利於	-9.7489
的	-9.749
故必	-9.74925
反復	-9.74955
詩曰	-9.74975
躬	-9.75011
賾	-9.75179
言語	-9.75179
中而	-9.75208
位而	-9.75241
之䇿	-9.75243
於地	-9.75243
尊卑	-9.75258
祗	-9.75312
故吉	-9.75373
旡	-9.75401
象言	-9.75444
寄	-9.75468
回	-9.75493
麗乎	-9.75544
少隂	-9.75629
揜	-9.75638
猶有	-9.75643
相合	-9.75701
罔	-9.75745
判	-9.75748
徳行	-9.75765
壮	-9.75788
大夫	-9.75851
之剛	-9.7591
於陽	-9.75992
固守	-9.76047
孚信	-9.76047
也惟	-9.76107
永貞	-9.76108
上下皆	-9.76109
必以	-9.76123
用刑	-9.76126
可見矣	-9.76247
恱	-9.76248
豈可	-9.76328
不盡	-9.76329
說卦	-9.76336
性命	-9.76422
二氣	-9.76453
險而	-9.76506
誠意	-9.76579
則雖	-9.76615
暢	-9.76623
有喜	-9.76626
否泰	-9.76638
婚媾	-9.76689
市	-9.76695
之盛	-9.76699
若是	-9.76786
妾	-9.76839
不取	-9.7684
兹	-9.76858
百姓	-9.76875
不違	-9.7688
第二	-9.76884
闗	-9.76953
衡	-9.76964
與上	-9.77019
入于	-9.77119
皆言	-9.77193
哀	-9.77219
山澤	-9.77332
汝	-9.77365
謂其	-9.77378
講	-9.77404
賢者	-9.7743
卦義	-9.77451
閒	-9.77458
六十	-9.77559
一箇	-9.77642
觀象	-9.77644
江	-9.77653
得志	-9.77666
而天下	-9.77827
鼻	-9.77868
集疏	-9.77882
茅	-9.77939
牙	-9.77945
木之	-9.77979
允	-9.78004
矯	-9.78073
時而	-9.78102
而用	-9.78193
忿	-9.78219
其下	-9.78225
賴	-9.78251
事業	-9.78277
過剛	-9.78318
一時	-9.7834
離火	-9.78475
莊	-9.78511
至矣	-9.7852
此又	-9.7867
招	-9.78727
萬民	-9.7873
不得不	-9.78858
旦	-9.78975
宗廟	-9.79106
為正	-9.79138
為吉	-9.79196
在前	-9.7923
之賢	-9.79234
毒	-9.79297
恁地	-9.79328
乾乾	-9.79348
龜山楊氏曰	-9.79352
曉	-9.79566
无疆	-9.79613
殆	-9.79707
第一	-9.79865
相對	-9.79918
治之	-9.79924
陽為	-9.79942
也是故	-9.80023
性情	-9.80025
若能	-9.80077
自養	-9.80162
猶言	-9.80242
貳	-9.80288
與二	-9.80303
父子	-9.8044
其所以	-9.80441
繁	-9.80443
虚中	-9.80505
堯	-9.80516
何所	-9.80602
重卦	-9.80604
之甚	-9.80696
》	-9.80713
之主也	-9.8079
矣象曰	-9.80802
光大	-9.80896
之日	-9.80904
柔得中	-9.80919
无咎者	-9.80991
巽之	-9.81027
𫉬	-9.81051
大也	-9.81062
吉凶悔吝	-9.8107
他卦	-9.81174
貞者	-9.81386
此義	-9.81434
坤體	-9.81661
是非	-9.81752
畜之	-9.81869
㐫	-9.81956
二剛	-9.81983
正道	-9.82002
失正	-9.82037
減	-9.82117
勤	-9.82273
後人	-9.82414
泰否	-9.82436
女子	-9.82444
合而	-9.82453
為貞	-9.82561
繇	-9.82574
愚按	-9.82592
校	-9.82645
確	-9.8265
乎曰	-9.82693
于内	-9.82787
生成	-9.82795
較	-9.82882
對待	-9.82904
從上	-9.82973
電	-9.82993
理之	-9.83043
大小	-9.83051
天地間	-9.83051
虞翻	-9.83093
乘剛	-9.8314
周禮	-9.8321
蔡氏曰	-9.83266
所行	-9.83286
裳	-9.83366
析	-9.83392
二者	-9.83433
於物	-9.83434
亦為	-9.83438
正中	-9.83458
明矣	-9.83525
肅	-9.83545
飛鳥	-9.83547
其餘	-9.8358
六二之	-9.83589
所處	-9.83595
旬	-9.83646
之首	-9.83692
乎上	-9.83738
為隂	-9.83743
數也	-9.8375
猶未	-9.83792
賓	-9.83921
之患	-9.83955
祀	-9.83996
之失	-9.84156
翕	-9.84193
也六五	-9.84225
與天地	-9.84234
景	-9.84277
同體	-9.84289
萊按	-9.8433
純陽	-9.84418
不測	-9.84473
天地之間	-9.84498
保其	-9.84524
沈	-9.84532
見于	-9.84581
京	-9.84599
柔中	-9.84604
其氣	-9.84624
當作	-9.84678
書曰	-9.84701
也乾	-9.84738
武王	-9.84794
在其中矣	-9.84827
也九二	-9.84828
注云	-9.84837
于是	-9.84849
􁁆	-9.84865
伊川程子曰	-9.84962
者如	-9.85053
而應	-9.85103
卦徳	-9.85134
也是以	-9.85165
以陽剛	-9.85233
若不	-9.85286
正是	-9.85317
塗	-9.85406
猛	-9.85495
暑	-9.85523
渝	-9.85586
羽	-9.85596
臨之	-9.85662
節之	-9.85707
處下	-9.85758
不失其	-9.85759
者葢	-9.85762
于天	-9.85822
歸於	-9.85851
第三	-9.85995
隂也	-9.86016
井之	-9.86065
堯舜	-9.86081
竒偶	-9.86085
朔	-9.86098
貞厲	-9.86109
爵	-9.86148
此意	-9.86157
有慶	-9.86165
采	-9.86171
者乃	-9.86187
新安朱氏曰	-9.86199
羲	-9.86221
尺	-9.86285
慢	-9.86358
於四	-9.86376
陽卦	-9.86378
占也	-9.86512
以致	-9.86539
貞正	-9.86565
冦	-9.86583
能止	-9.86657
混	-9.86701
衛	-9.86849
營	-9.86879
浸	-9.86901
𧰼曰	-9.8694
過中	-9.86971
不順	-9.87061
以行	-9.87092
師之	-9.87304
者所以	-9.87334
可久	-9.87345
思慮	-9.8736
為君子	-9.87547
古之	-9.8759
嫁	-9.87623
初四	-9.87652
圖書	-9.87653
之前	-9.87748
已成	-9.87759
老陽	-9.87769
天行	-9.87814
居五	-9.8796
一畫	-9.8797
在初	-9.88076
此所謂	-9.88079
工	-9.88083
増	-9.88086
返	-9.8809
易傳	-9.88144
女歸	-9.88217
㓙	-9.88513
无有	-9.88533
應五	-9.88562
漏	-9.88635
古者	-9.88729
勿恤	-9.88785
文王之	-9.88785
柔弱	-9.88813
彌	-9.88902
寒暑	-9.88912
何咎之有	-9.88918
四卦	-9.89024
潜	-9.8905
進則	-9.89082
从	-9.89124
守其	-9.89172
故不	-9.89371
否之	-9.89401
讀易	-9.89422
彖言	-9.89423
匹	-9.89467
羞	-9.8952
十八	-9.89541
遏	-9.89583
過而	-9.896
之所以為	-9.89617
有凶	-9.89623
典	-9.89655
同也	-9.89757
逺近	-9.89791
而不已	-9.89837
富貴	-9.89875
荀	-9.89938
自古	-9.89962
亦无	-9.89976
七八	-9.90008
者也然	-9.90095
而不敢	-9.90114
妄動	-9.90121
措	-9.9017
之善	-9.90185
則亦	-9.90188
二句	-9.90246
天位	-9.90252
陸氏曰	-9.90257
遭	-9.90282
行則	-9.90447
兆	-9.90507
乗剛	-9.90523
變者	-9.90527
焉則	-9.90552
咎也	-9.90563
天文	-9.90614
未免	-9.90644
出乎	-9.90715
同徳	-9.90726
大矣哉	-9.90753
人皆	-9.90804
繩	-9.90825
之𧰼	-9.90851
逢	-9.90852
非其	-9.90971
巽木	-9.91064
之行	-9.91072
一體	-9.91072
柄	-9.91096
者盖	-9.911
而四	-9.91101
不進	-9.91153
所得	-9.91203
之禍	-9.9122
上則	-9.91253
衆陽	-9.91308
无首	-9.91313
冥	-9.91331
四德	-9.91355
教人	-9.91447
古文	-9.91463
時之	-9.91523
基	-9.91527
没	-9.91542
余	-9.91544
聖人以	-9.91574
戊	-9.91599
烏	-9.91693
易之道	-9.91812
恤	-9.91837
以陽居隂	-9.91982
號令	-9.92031
􁁇	-9.92184
游	-9.92239
合於	-9.92273
未盡	-9.92297
橈	-9.92312
本於	-9.92325
告之	-9.92326
陰柔	-9.9233
養人	-9.92341
藥	-9.9242
艮其背	-9.92449
則失	-9.92467
便有	-9.92473
天下之至	-9.92516
顔子	-9.92711
雖不	-9.92766
亦猶	-9.92778
何如	-9.92834
丈人	-9.92835
絲	-9.92845
㡳	-9.92868
乃能	-9.92933
无位	-9.92934
無窮	-9.92972
也九三	-9.93013
農	-9.93069
盡其	-9.9308
跛	-9.93103
中則	-9.93152
之始也	-9.93243
有不	-9.93293
以隂柔	-9.93327
佐	-9.93423
貴乎	-9.9355
羸	-9.93594
互艮	-9.93629
來者	-9.93659
其變	-9.9375
之占	-9.93763
述曰	-9.93816
所云	-9.93818
學易	-9.93834
逃	-9.93846
而不得	-9.93853
郭	-9.93857
湯	-9.93894
日之	-9.93918
故象	-9.93943
制之	-9.93992
有此	-9.94044
篤	-9.94063
否曰	-9.9407
无非	-9.9412
跡	-9.94135
終必	-9.94142
叶	-9.9416
不至於	-9.9438
溢	-9.94412
弟	-9.94481
震艮	-9.94491
也坤	-9.94499
云云	-9.94506
歌	-9.94573
安於	-9.94588
㝠	-9.94596
處之	-9.94597
其後	-9.94695
其本	-9.94732
擬議	-9.94764
孔子曰	-9.94782
湏	-9.94858
其終	-9.94918
黃	-9.95004
先儒曰	-9.9505
大衍	-9.95068
非謂	-9.95079
一變	-9.95103
儒	-9.95116
繋辭	-9.95127
長女	-9.95127
誠信	-9.95286
讓	-9.95318
小子	-9.95324
人欲	-9.95358
酒食	-9.95362
何哉	-9.95388
在此	-9.95478
主於	-9.95502
一卦之	-9.95504
費	-9.95653
本義云	-9.95681
剛正	-9.95696
有咎	-9.95697
醜	-9.95749
自取	-9.95878
警	-9.95897
國之	-9.95912
董	-9.95933
眚	-9.95969
厭	-9.9602
寇	-9.96042
志行	-9.96127
須是	-9.96176
退而	-9.9623
上九之	-9.96269
宿	-9.96378
盗	-9.96383
五以	-9.96408
蔀	-9.96459
驚	-9.96488
愼	-9.96496
含章	-9.96499
居四	-9.96613
着	-9.96644
為象	-9.96702
所用	-9.96712
而順	-9.96752
謂五	-9.96755
習坎	-9.96763
爻位	-9.96926
未至	-9.96974
所有	-9.9698
之大者	-9.97005
于中	-9.97021
荅	-9.97067
備矣	-9.97092
其言	-9.971
而可	-9.97173
俟	-9.97214
扶	-9.97225
諸家	-9.97281
之私	-9.97287
然後能	-9.97297
京房	-9.973
鄭𤣥	-9.97332
巽體	-9.9737
女之	-9.97418
為天	-9.97457
吉而	-9.97513
牝馬	-9.97551
者矣	-9.97585
不信	-9.97676
三日	-9.97715
乾陽	-9.9772
寸	-9.97771
起於	-9.97804
坤道	-9.97814
莫非	-9.9788
長男	-9.9792
去之	-9.97931
體用	-9.97956
演	-9.98003
蘇	-9.9806
自下	-9.98116
纔	-9.98121
廬	-9.98139
无常	-9.98203
魄	-9.98242
不止	-9.98262
二陰	-9.98318
請	-9.98426
之深	-9.9843
寜	-9.98455
癸	-9.98558
二十八	-9.98664
信也	-9.98671
行事	-9.9872
利建侯	-9.9874
互震	-9.98778
其一	-9.98897
仇	-9.98918
也既	-9.98977
戌	-9.98991
沒	-9.99047
也九四	-9.99065
億	-9.99081
豚魚	-9.99142
必先	-9.99199
者何	-9.99218
不得其	-9.99224
十月	-9.99246
與初	-9.99266
明其	-9.99285
矣又	-9.99299
此聖人	-9.99468
輻	-9.99492
小事	-9.99744
缶	-9.99755
為應	-9.99774
理也	-9.99794
在五	-9.99811
激	-9.99821
測	-9.99866
三嵗	-9.99891
獸	-9.9993
朱子語	-9.99964
倍	-9.99976
㫁	-9.99989
之辭也	-10
同心	-10.0003
全卦	-10.0003
皆非	-10.0004
窮極	-10.0005
而實	-10.0006
雉	-10.0008
知幾	-10.0008
不一	-10.0008
建侯	-10.0009
擾	-10.0014
正曰	-10.0014
像	-10.0014
凖	-10.0018
由是	-10.002
致其	-10.0023
莫能	-10.0026
以剛居柔	-10.0031
洛	-10.0038
盛而	-10.004
也六三	-10.0042
沛	-10.0044
而見	-10.0048
族	-10.0049
一義	-10.0053
關	-10.0058
壞	-10.0061
之極也	-10.0066
无過	-10.0073
礙	-10.0074
兄	-10.0076
坎中	-10.0085
尋	-10.009
不可見	-10.009
有形	-10.0091
韻	-10.0092
必至	-10.0092
嗚呼	-10.0095
离	-10.0101
二以	-10.0109
故取	-10.011
之質	-10.0111
諂	-10.0124
升降	-10.0124
居柔	-10.0125
乃為	-10.0125
酌	-10.0129
續	-10.0129
生焉	-10.013
為臣	-10.0134
一氣	-10.0134
也上六	-10.0135
既有	-10.0137
倫	-10.0137
尚賢	-10.0138
之象然	-10.0144
困而	-10.0147
太陽	-10.015
討	-10.0151
而欲	-10.0153
氣之	-10.0155
不從	-10.0158
之書	-10.0158
丙	-10.0162
天地萬物	-10.0162
同類	-10.0163
悅	-10.0166
伊尹	-10.0166
與人	-10.0169
所以次	-10.0176
杜	-10.0183
解之	-10.0187
也且	-10.0202
為乾	-10.0204
未光	-10.0206
四海	-10.0208
藩	-10.0209
掛一	-10.021
孔子之	-10.0219
之象故	-10.0226
乃得	-10.0239
之先	-10.0241
完	-10.0246
浮	-10.0247
大有之	-10.0255
受其	-10.0257
成數	-10.0258
徹	-10.0259
燥	-10.026
於君	-10.0266
壬	-10.0272
若夫	-10.0278
與三	-10.0279
无妄之	-10.0287
甫	-10.0309
者此	-10.0309
青	-10.0309
分之	-10.0313
三上	-10.0315
處困	-10.0316
履虎尾	-10.0325
也六二	-10.0326
圓圖	-10.0329
衆人	-10.0336
渾	-10.0346
中道	-10.0347
可用	-10.035
堂	-10.0361
復之	-10.0362
之意也	-10.0371
蓍龜	-10.0373
仕	-10.0373
淫	-10.0373
一一	-10.0377
未成	-10.038
求其	-10.0386
預	-10.0388
泛	-10.0388
曷	-10.0391
不求	-10.0397
鑿	-10.0404
天運	-10.0405
之動	-10.0405
編	-10.0414
于初	-10.042
嗑	-10.0422
用壯	-10.0426
隂為	-10.0429
則吉也	-10.043
吕音訓	-10.0434
揲蓍	-10.0437
邇	-10.0437
四十九	-10.0443
剛中而應	-10.0444
隂氣	-10.045
之用也	-10.045
答	-10.0452
烈	-10.0455
於二	-10.0456
以道	-10.0459
遯之	-10.046
而无咎	-10.0467
生于	-10.047
之資	-10.0471
五剛	-10.0479
歲	-10.048
貨	-10.0481
綱	-10.0483
抱	-10.0485
把	-10.0486
猶可	-10.0488
故君子	-10.0498
訟之	-10.0498
宜其	-10.0499
以示	-10.0503
以剛中	-10.0506
之徒	-10.0509
六五之	-10.051
互離	-10.0517
則不可	-10.0518
之形	-10.0519
裁	-10.0521
剥之	-10.0523
德之	-10.0528
象之	-10.0529
見易曰	-10.0532
以養	-10.0537
。《	-10.0538
此亦	-10.0538
五上	-10.0561
歸藏	-10.0565
臣道	-10.0565
健而	-10.0566
利也	-10.0567
弓	-10.0569
二變	-10.057
所見	-10.0576
撓	-10.0582
也九五	-10.0592
管	-10.0593
用六	-10.0595
運行	-10.0597
未變	-10.0602
亦必	-10.0605
易知	-10.0606
无心	-10.0607
無所不	-10.0615
以爲	-10.0624
相求	-10.0633
捨	-10.0634
爻變	-10.0637
陽在下	-10.0637
大業	-10.0638
伊	-10.0642
守之	-10.0643
溪	-10.0647
叛	-10.0648
自家	-10.0653
也上九	-10.0654
踰	-10.0657
孟子曰	-10.0657
莫如	-10.0658
至五	-10.0659
于天下	-10.066
卯	-10.0665
康節	-10.0665
近於	-10.0665
遜	-10.0666
盥	-10.0668
十三	-10.067
失其所	-10.067
霜	-10.0672
此是	-10.0674
釋之	-10.0681
而亨	-10.0686
得其所	-10.0687
吉无咎	-10.0688
去聲	-10.0688
人以	-10.0693
純隂	-10.0693
其進	-10.0695
則謂之	-10.0699
屯之	-10.0709
工夫	-10.0713
而至	-10.0714
順以	-10.0716
歎	-10.0716
夕	-10.072
束	-10.0734
亦無	-10.0739
以從	-10.0741
竹	-10.0741
蔵	-10.0747
萬世	-10.0747
可為	-10.0754
于地	-10.0756
无可	-10.0756
雞	-10.0761
丈夫	-10.0762
王氏	-10.0762
始生	-10.0768
事君	-10.0769
為小人	-10.0771
浸長	-10.0773
坤土	-10.0776
之陽	-10.0777
物而	-10.0778
矜	-10.078
追	-10.0781
毋	-10.0782
古今	-10.0793
過乎	-10.0795
定位	-10.0803
之精	-10.0805
反覆	-10.081
覩	-10.0813
枯	-10.0815
然後可以	-10.0819
和順	-10.0823
鄭氏	-10.0832
窺	-10.0832
合之	-10.0836
之中而	-10.0836
天地之心	-10.0839
之可	-10.0841
釋卦辭	-10.0844
若以	-10.0844
生數	-10.0848
穆	-10.0849
事物	-10.085
上下之	-10.085
既濟之	-10.0851
居之	-10.0852
自得	-10.0854
得无咎	-10.0855
是其	-10.0856
承上	-10.0862
單	-10.0866
旅之	-10.0869
以隂居陽	-10.0869
以時	-10.0871
不亦	-10.0877
煩	-10.0881
仲尼	-10.0883
能以	-10.0884
坎體	-10.0894
天下之理	-10.0894
之端	-10.0896
終日	-10.0907
而至於	-10.0908
剛則	-10.0912
鄉	-10.0915
茹	-10.0916
然亦	-10.092
交於	-10.0925
九二之	-10.0941
禮樂	-10.0948
所宜	-10.0951
這箇	-10.0951
上居	-10.0952
所應	-10.0954
次第	-10.0961
一定	-10.0964
穫	-10.0965
有厲	-10.0966
爻皆	-10.0973
蒼	-10.0977
樹	-10.098
盛大	-10.0985
凡言	-10.099
言行	-10.0996
項氏曰	-10.1007
大而	-10.101
曽	-10.1011
通曰	-10.1012
茂	-10.1017
蹈	-10.1018
天德	-10.1022
三居	-10.1024
三百六十	-10.1025
或謂	-10.1028
子之	-10.1032
不欲	-10.1032
如字	-10.1033
利在	-10.1037
而隂	-10.1038
西方	-10.1041
兌為	-10.1041
戚	-10.1051
巧	-10.1052
之時而	-10.1052
交而	-10.1052
无私	-10.106
逺而	-10.1065
掌	-10.1067
驅	-10.1073
攸	-10.1073
其大	-10.1075
魂	-10.1078
而從	-10.1086
承之	-10.1092
家之	-10.1094
為貴	-10.1094
此時	-10.1095
眇	-10.1101
經綸	-10.1107
象辭	-10.1113
君子觀	-10.1114
不服	-10.1118
研	-10.1118
倡	-10.112
神也	-10.112
前後	-10.1124
旁通	-10.1125
吉无不利	-10.1126
歸于	-10.1127
示人	-10.1131
未及	-10.1135
恥	-10.1137
己之	-10.1138
之明	-10.1146
譬	-10.1147
鄙	-10.1149
而後可	-10.1149
未定	-10.1153
文字	-10.1158
不獨	-10.1165
致用	-10.1166
必得	-10.1167
為艮	-10.1168
使民	-10.1176
九三之	-10.1177
之稱	-10.1177
之象焉	-10.1186
至大	-10.1186
戒懼	-10.1187
未知	-10.1191
而處	-10.1193
必有所	-10.1197
漸進	-10.12
元永貞	-10.1201
不克	-10.1211
利害	-10.1212
患難	-10.1215
乾剛	-10.1216
非正	-10.1219
命之	-10.122
自然之	-10.1221
亦如	-10.1222
横渠	-10.1224
洪範	-10.1226
禍福	-10.1234
而况	-10.1239
戸	-10.1239
益下	-10.124
養之	-10.1242
國家	-10.1244
第十	-10.1244
本无	-10.1247
也初九	-10.1249
貞則	-10.1251
童蒙	-10.1255
見大人	-10.1255
之策	-10.1263
啟	-10.1263
來復	-10.1271
乎其	-10.1271
法也	-10.1272
之貞	-10.1273
媚	-10.1275
途	-10.1277
艮體	-10.1277
者多	-10.1278
為震	-10.1284
斂	-10.1291
恐其	-10.1292
以應	-10.1294
普	-10.1297
已日	-10.1301
合也	-10.1304
吳	-10.1306
之任	-10.1314
也按	-10.1322
緯	-10.1328
貞凶	-10.1334
下而	-10.1335
各得其	-10.134
棟橈	-10.1353
濡尾	-10.1353
二與五	-10.1361
不濟	-10.1364
競	-10.1364
為利	-10.1371
順乎	-10.1372
諸爻皆	-10.1376
説文	-10.1384
之方	-10.1389
六居	-10.139
沙	-10.1392
平易	-10.1393
始于	-10.1396
掛扐	-10.1404
不富	-10.1418
鹿	-10.1438
謂初	-10.144
而言則	-10.144
截	-10.1444
之月	-10.1444
過則	-10.1447
辭也	-10.1449
墉	-10.145
蓄	-10.1452
成形	-10.1455
有時而	-10.1459
三百八十四爻	-10.1459
希	-10.1469
日用	-10.1472
𢎞	-10.1473
明而	-10.1476
凡事	-10.1479
姓	-10.1481
其應	-10.1483
圍	-10.1483
昌	-10.1488
之餘	-10.1488
艱貞	-10.1494
何謂	-10.15
九四之	-10.1505
之例	-10.1506
未見	-10.1507
朋來	-10.1508
養賢	-10.1512
為人	-10.1517
北方	-10.152
步	-10.1524
也六四	-10.1529
嫌	-10.1532
焉故	-10.1533
既成	-10.1534
桓	-10.1535
善也	-10.1536
彖象	-10.1539
㸔	-10.154
是之謂	-10.1541
之隂	-10.1543
易有	-10.1544
階	-10.155
在二	-10.155
不疑	-10.1553
臭	-10.1557
者也故曰	-10.1565
帝乙	-10.1566
論之	-10.157
卦言	-10.157
此皆	-10.1575
創	-10.1576
死生	-10.1576
用剛	-10.1579
一節	-10.1595
卽	-10.1595
走	-10.1597
聰明	-10.1598
為雨	-10.1598
隂陽相	-10.1609
貝	-10.1615
之本也	-10.1616
曰此	-10.162
隂卦	-10.1621
十一	-10.1626
而明	-10.1636
言易	-10.1639
得中道	-10.164
皆為	-10.1641
處險	-10.1642
能自	-10.1644
側	-10.1645
一心	-10.1646
今日	-10.1651
矣若	-10.1652
无事	-10.1652
離體	-10.1657
未發	-10.1664
然其	-10.1665
迭	-10.1667
所履	-10.1667
不忘	-10.1673
出門	-10.1673
以柔順	-10.1674
歳	-10.1675
得乎	-10.1675
音義	-10.1676
三則	-10.1677
從陽	-10.1677
意思	-10.1682
亦不能	-10.1682
而後能	-10.1684
𥘉	-10.1688
惻	-10.1701
其常	-10.171
不肯	-10.1713
縁	-10.1723
止則	-10.1726
頻	-10.173
相通	-10.1734
徧	-10.1737
静而	-10.1739
雖然	-10.1739
虗	-10.1741
優	-10.1741
則无咎	-10.1742
以益	-10.1755
未濟之	-10.1755
則陽	-10.1755
復生	-10.1756
毫	-10.1759
委曲	-10.1762
非聖人	-10.177
之末	-10.1773
已有	-10.1775
而言也	-10.1778
知來	-10.1781
四者	-10.179
終日乾乾	-10.179
:	-10.179
天人	-10.1794
憧憧	-10.1796
人心之	-10.1805
故知	-10.1805
未光也	-10.1819
當然	-10.1825
人身	-10.1826
以盡	-10.1828
變革	-10.1828
貢	-10.1829
冒	-10.1833
錯綜	-10.1834
罰	-10.1835
之士	-10.1838
此心	-10.185
以一陽	-10.185
于四	-10.1852
動者	-10.1853
二五皆	-10.1854
大同	-10.1856
為巽	-10.1857
值	-10.1872
啓	-10.1877
飲	-10.1882
四四	-10.1885
臀	-10.189
㤗	-10.1892
豫之	-10.1895
之所由	-10.1896
於義	-10.1904
乃可	-10.1906
奸	-10.1908
常也	-10.1909
位也	-10.1913
併	-10.1914
而巳	-10.1917
合乎	-10.1919
徴	-10.1925
夬之	-10.1927
窮也	-10.1927
之屬	-10.1931
許多	-10.1938
風雷	-10.1939
欺	-10.1944
伍	-10.1946
調	-10.1946
痛	-10.1947
之卦也	-10.1949
得吉	-10.1951
冇	-10.1952
帛	-10.1964
飭	-10.1965
此説	-10.1966
狹	-10.1966
之命	-10.1967
申命	-10.1969
宮	-10.1974
一章	-10.1978
之助	-10.1983
在乎	-10.1984
大傳	-10.1985
得其中	-10.1986
君也	-10.1987
紫陽朱子曰	-10.1987
蟲	-10.1987
氣化	-10.199
有疾	-10.199
卦爻之	-10.1992
貞而	-10.1994
淳	-10.2001
可行	-10.2001
此其所以	-10.2003
疎	-10.2003
汚	-10.2003
其說	-10.2005
自下而上	-10.2006
與陽	-10.2007
天下之大	-10.2011
宅	-10.2012
行乎	-10.2017
或有	-10.2025
而得中	-10.2025
通也	-10.2026
可與	-10.2026
成物	-10.2038
號咷	-10.2038
地中	-10.2039
能盡	-10.2039
以生	-10.204
同而	-10.2056
修身	-10.2056
履之	-10.2059
无以	-10.2068
次序	-10.2068
體之	-10.2069
終則	-10.2072
境	-10.2075
聘	-10.2076
毎	-10.2079
在地	-10.2083
艮止也	-10.2084
人君之	-10.21
範	-10.2102
乎天	-10.2107
徐氏曰	-10.2108
大川	-10.2113
準	-10.2117
自内	-10.212
時當	-10.2125
為泰	-10.2126
十一月	-10.2128
其初	-10.2134
葉	-10.2135
之宜	-10.2137
自我	-10.2137
肥	-10.2137
不好	-10.2137
人位	-10.2139
應而	-10.2145
萬事	-10.2145
荀爽曰	-10.2146
尊而	-10.2152
教之	-10.2152
枝	-10.2152
竒耦	-10.2154
憊	-10.216
寳	-10.2162
成王	-10.2162
以立	-10.2162
所養	-10.2167
之為言	-10.2171
極言	-10.2171
於乾	-10.2174
九卦	-10.2176
必待	-10.2178
我之	-10.218
司馬	-10.2181
終于	-10.219
凶事	-10.219
亨利貞	-10.2194
朋友	-10.2195
一説	-10.2197
往往	-10.2203
房	-10.2213
戒其	-10.2218
位乎	-10.222
渙散	-10.222
冠	-10.2226
者惟	-10.2227
子夏	-10.2231
同義	-10.2233
隣	-10.2233
誡	-10.2234
至善	-10.2235
生意	-10.224
之來	-10.2248
情偽	-10.2251
天地之數	-10.2253
切近	-10.2255
困於	-10.2256
二柔	-10.2258
獨行	-10.2265
傅	-10.2266
時行	-10.2267
不特	-10.2267
秉	-10.2267
相因	-10.2268
自此	-10.2271
損下益上	-10.2276
易書	-10.228
又如	-10.2284
不可過	-10.2287
隂盛	-10.2288
剛長	-10.2288
惜	-10.2289
四十	-10.2289
為本	-10.2291
以至於	-10.2297
小而	-10.2297
生萬物	-10.2298
個	-10.2299
是已	-10.231
與時偕行	-10.2312
之類是也	-10.2313
相濟	-10.2315
此之謂	-10.232
主爻	-10.2321
濕	-10.2323
正則吉	-10.2326
窮理	-10.2327
之神	-10.2329
濡其尾	-10.2334
兊為	-10.234
有一	-10.234
亦未	-10.234
出來	-10.2344
靜而	-10.2345
懸	-10.2346
人能	-10.2346
胥	-10.2347
正理	-10.2347
唱	-10.2347
皆在	-10.2351
於心	-10.2366
有定	-10.2367
用柔	-10.237
仁者	-10.2372
不貞	-10.2376
乎外	-10.2382
過于	-10.2385
凶咎	-10.2387
之不可	-10.2389
李鼎祚	-10.2393
逮	-10.2399
當時	-10.24
反身	-10.2401
在下者	-10.2402
而凶	-10.2405
謙之	-10.2408
所以致	-10.2409
坎象	-10.2412
本末	-10.2413
四以	-10.2413
非能	-10.2416
近君	-10.2421
者即	-10.2421
日月之	-10.2421
形容	-10.2423
奚	-10.2424
吉而无咎	-10.2429
不期	-10.2429
故其占	-10.243
天下之動	-10.2434
三百	-10.2438
為正應	-10.2438
之地也	-10.2439
為首	-10.2441
益上	-10.2442
王肅	-10.2442
為卦	-10.2447
相從	-10.2449
又言	-10.2452
中和	-10.2454
道徳	-10.2454
而變	-10.2456
曳	-10.2457
不改	-10.2459
囚	-10.2465
可不	-10.2467
夫人	-10.2469
之力	-10.2469
明徳	-10.247
健順	-10.2474
軌	-10.2475
象占	-10.2477
其在	-10.2478
彖傳曰	-10.2478
提	-10.2478
方其	-10.2481
其人	-10.2485
應初	-10.2485
分别	-10.2486
震體	-10.2488
也為卦	-10.2488
終身	-10.2488
治亂	-10.2489
宼	-10.2493
巽入	-10.2497
炎	-10.2501
頗	-10.2501
坤卦	-10.2505
而已故	-10.2508
皆由	-10.251
精神	-10.2515
為坎	-10.252
分為	-10.2524
隂而	-10.2525
地上	-10.2528
相錯	-10.2533
而遇	-10.2535
必須	-10.2541
分而	-10.2554
然非	-10.2563
尸	-10.2565
而安	-10.2572
異也	-10.2577
如何曰	-10.2579
浚	-10.2579
剛健中正	-10.258
戾	-10.2583
也坎	-10.2587
斧	-10.2596
融	-10.2597
何咎	-10.2598
皮	-10.26
中女	-10.26
牝	-10.2607
剛陽	-10.2616
時位	-10.2621
此一節	-10.2631
有過	-10.2634
皆隂	-10.2639
為體	-10.2646
其家	-10.2646
發之	-10.2647
項	-10.2652
而獨	-10.2652
有道	-10.2652
命令	-10.2653
於理	-10.2658
都是	-10.2662
自治	-10.2662
匪人	-10.2664
經文	-10.2664
彊	-10.2665
以人事	-10.2667
而入	-10.2673
喪其	-10.2674
乃所以	-10.2675
四居	-10.2675
聚而	-10.2675
利西南	-10.2676
氷	-10.2679
凶矣	-10.268
十二月	-10.2683
汗	-10.2684
在四	-10.2685
存焉	-10.2686
愧	-10.2687
幹蠱	-10.2688
不相得	-10.2689
行者	-10.269
知所	-10.2694
荀爽	-10.27
恆	-10.2703
屢	-10.2705
安得不	-10.2706
呼	-10.2707
不盈	-10.2708
東方	-10.2712
剛柔之	-10.2713
免於	-10.2721
牲	-10.2723
戒以	-10.2724
何為	-10.2725
一家	-10.273
皆然	-10.273
道者	-10.2731
故得	-10.2734
此釋	-10.2746
甃	-10.2747
故凶	-10.275
十四	-10.2757
行險	-10.2757
聰	-10.2761
謬	-10.2764
而歸	-10.2767
祇	-10.2774
之誠	-10.278
雖欲	-10.2781
以柔居	-10.2782
受命	-10.2786
用易	-10.2788
邑人	-10.279
者何也	-10.2794
而去之	-10.2802
俯	-10.2802
雲峰胡氏曰	-10.2806
而民	-10.2813
无形	-10.2813
物物	-10.2816
臣之	-10.2816
少男	-10.2817
虞氏	-10.2818
」、	-10.2819
迎	-10.2822
以隂居隂	-10.2825
夾	-10.2825
應上	-10.2834
䷋	-10.2838
之權	-10.2844
以來	-10.2846
征吉	-10.2848
于二	-10.2851
庶幾	-10.2853
周子	-10.2861
道則	-10.2861
洞	-10.2864
在上者	-10.2864
左傳	-10.287
之元	-10.288
下三爻	-10.2882
篤實	-10.2883
柔順中正	-10.2884
耳目	-10.2888
人主	-10.2899
之治	-10.2905
探	-10.2908
不知其	-10.291
若此	-10.291
四字	-10.2911
陽生	-10.2913
主之	-10.2916
肯	-10.2924
交錯	-10.2924
成之	-10.2941
之所在	-10.2942
此虞義也	-10.2942
以禮	-10.2945
而升	-10.2946
瞻	-10.2946
䷠	-10.2947
之咎	-10.2955
濡首	-10.2957
常理	-10.2958
聖人所以	-10.2961
始也	-10.2964
所言	-10.2964
相承	-10.2967
近而	-10.2967
折獄	-10.2973
但言	-10.2973
今人	-10.2976
大中	-10.2979
不妄	-10.298
自復	-10.2992
太過	-10.2993
合志	-10.2994
夬夬	-10.3001
有序	-10.3002
之自然	-10.3007
然必	-10.3011
暫	-10.3012
里	-10.3019
困窮	-10.3023
之畫	-10.3025
姤之	-10.3026
雖未	-10.3026
怪	-10.3029
反為	-10.3031
翰	-10.3032
皆取	-10.304
過之	-10.3044
凡卦	-10.3051
造化之	-10.3053
驟	-10.3053
為坤	-10.3057
莫之	-10.3074
𫝑	-10.3075
之吉也	-10.3075
延	-10.3076
髙位	-10.3078
武人	-10.3078
所從	-10.3079
五月	-10.308
舉其	-10.3081
萬物皆	-10.3084
德行	-10.3087
䷒	-10.3088
濟險	-10.3092
兊上	-10.3092
蒙謂	-10.3094
毁折	-10.3096
艮山	-10.3096
易位	-10.3097
不正則	-10.3099
亦通	-10.3101
為心	-10.3101
相生	-10.3103
曾	-10.3106
危懼	-10.3107
王公	-10.311
事理	-10.3112
帶	-10.3114
逺矣	-10.3117
承天	-10.3118
夙	-10.3119
說得	-10.312
邊	-10.3121
胡氏曰	-10.3126
植	-10.3132
本體	-10.3134
侈	-10.3136
隂長	-10.3138
且如	-10.3139
卦之中	-10.314
隙	-10.314
有大	-10.3144
但以	-10.3145
改過	-10.3147
亦可以	-10.3151
郭京	-10.3154
諫	-10.3157
牖	-10.3159
者三	-10.3162
蠱之	-10.3164
老隂	-10.317
盤	-10.3174
豐大	-10.3178
凡人	-10.3188
所欲	-10.319
揆	-10.3197
以陽居	-10.3198
以五	-10.3198
陋	-10.3199
所居	-10.3207
不可以不	-10.3213
待時	-10.3214
蕃	-10.3217
害也	-10.3221
化之	-10.3224
通論	-10.3225
正者	-10.3227
快	-10.3228
於易	-10.3229
又當	-10.323
附麗	-10.3232
故其象如此	-10.3236
臧	-10.3238
過也	-10.3238
之節	-10.3239
髙宗	-10.3241
類也	-10.3246
可貞	-10.3248
其凶	-10.3253
時義	-10.3253
無非	-10.3255
䷀	-10.3257
命也	-10.3258
无一	-10.3258
説得	-10.3259
明夷之	-10.3259
闡	-10.3261
文王周公	-10.3262
彭	-10.3262
此象	-10.3264
括囊	-10.3264
山之	-10.3276
蒙之	-10.3283
以後	-10.3283
小人之道	-10.3283
戒也	-10.3288
相孚	-10.329
震坎艮	-10.3294
焉此	-10.3295
剛也	-10.3295
也初六	-10.3296
皆自	-10.3297
莽	-10.3299
故亨	-10.3304
戴	-10.3304
受之	-10.3315
蔑	-10.3316
卦氣	-10.3321
寂	-10.3323
之柔	-10.3324
學易者	-10.3325
屈伸	-10.3329
哉故	-10.3331
有言	-10.3335
受福	-10.3338
鍾	-10.3342
任重	-10.3346
雷電	-10.3347
悲	-10.3348
停	-10.335
朝廷	-10.3351
資始	-10.3356
錢	-10.3361
而失	-10.3361
人者	-10.3362
乎五	-10.3362
兌上	-10.3362
黒	-10.3366
身之	-10.3366
有可	-10.3377
所以成	-10.3381
有箇	-10.3382
交易	-10.3384
口舌	-10.3386
嚮	-10.3392
為衆	-10.3393
其序	-10.3394
上六之	-10.3404
為害	-10.3407
在後	-10.3408
殘	-10.3415
六三之	-10.3417
拆	-10.3417
損上益下	-10.3422
至四	-10.3437
以隂居	-10.344
法度	-10.3446
賜	-10.3458
其民	-10.3459
為離	-10.3461
三以	-10.3464
不終	-10.3466
範圍	-10.3468
獲吉	-10.3469
故爲	-10.347
為戒	-10.3477
於是乎	-10.3477
彼此	-10.3477
洪	-10.348
漢書	-10.348
聼	-10.348
瓶	-10.3483
故名	-10.3484
觀之則	-10.3485
所止	-10.3486
弼	-10.3497
王者之	-10.3502
爻有	-10.3502
幽人	-10.3506
胡氏	-10.3506
疇	-10.3514
貞吉悔亡	-10.3519
誠敬	-10.3522
宜矣	-10.3523
范	-10.3524
及於	-10.3524
感之	-10.3528
十翼	-10.3529
左手	-10.3539
是就	-10.3539
亦自	-10.3541
茀	-10.3543
槩	-10.3544
六四之	-10.3547
桑	-10.3547
極矣	-10.3551
昃	-10.3554
從而	-10.356
重險	-10.356
孔氏	-10.3562
隨人	-10.3573
卦皆	-10.3574
而用之	-10.3584
昬	-10.3587
盛徳	-10.3587
蟄	-10.3591
互巽	-10.3593
性之	-10.3601
三者	-10.3606
應在	-10.3608
易傳曰	-10.3612
位之	-10.3614
上承	-10.3615
之功也	-10.3618
謂三	-10.362
坎為水	-10.3626
同志	-10.3628
之象以	-10.3629
之常	-10.363
需之	-10.3631
當其	-10.3636
而且	-10.3648
岐	-10.3648
亟	-10.3653
洽	-10.3654
正當	-10.3655
下篇	-10.3659
巽而	-10.366
之所為	-10.366
決之	-10.366
有攸往	-10.3666
能使	-10.3667
十七	-10.367
童僕	-10.3672
狗	-10.3672
宰	-10.3674
咸臨	-10.3677
摧	-10.3677
威如	-10.3678
增	-10.3679
未形	-10.368
却是	-10.3685
將以	-10.3686
涵	-10.3688
視之	-10.3689
賈	-10.3697
交孚	-10.3702
應四	-10.3703
兊下	-10.3703
乾為天	-10.3707
也但	-10.3709
之正也	-10.3709
以乾	-10.3713
涉川	-10.3714
蹇難	-10.3714
比於	-10.3715
小有言	-10.3719
剛而不中	-10.3721
可濟	-10.3725
發揮	-10.3728
鳴謙	-10.373
不克訟	-10.3731
理㑹	-10.3733
二簋	-10.3733
其利	-10.3735
雖非	-10.3737
不惟	-10.3743
者自	-10.3745
脢	-10.3746
兑為	-10.3747
不偏	-10.375
故戒以	-10.375
物事	-10.3752
渫	-10.3762
隕	-10.3766
則得	-10.3768
夫易	-10.3769
澄	-10.377
上帝	-10.3772
有得	-10.378
既已	-10.3784
鼠	-10.3785
拂經	-10.3785
狀	-10.3787
府	-10.3788
不可得而	-10.3788
蕩	-10.379
坎坎	-10.3794
之道而	-10.3795
柔進而上行	-10.3795
上古	-10.3798
皆曰	-10.3798
皆得	-10.3799
在卦	-10.38
䷥	-10.3803
亨矣	-10.3804
雷雨	-10.3804
碩	-10.3808
凶者	-10.3812
一嵗	-10.3812
中節	-10.3813
及物	-10.3815
貞吝	-10.3815
而利	-10.3821
可得而	-10.3824
六卦	-10.3826
䷓	-10.3829
何也葉子曰	-10.3831
想	-10.3832
凶之道也	-10.3838
不失其正	-10.3839
自為	-10.3841
者正	-10.3845
五位	-10.3845
謂乾	-10.3845
巽為木	-10.3848
䷫	-10.3848
小大	-10.3849
䷗	-10.3849
孕	-10.3851
西山	-10.3851
謂四	-10.3853
看來	-10.386
八卦之	-10.3863
有二	-10.3865
下交	-10.3866
一百	-10.3867
發生	-10.3867
坤隂	-10.3867
馬融	-10.3868
雅	-10.3871
以義	-10.3874
相連	-10.3874
潛龍	-10.3877
沉	-10.3878
能知	-10.3882
詔	-10.3882
不然則	-10.3883
旣濟	-10.3885
方是	-10.3887
至上	-10.3894
在于	-10.3894
盡矣	-10.3895
卑下	-10.3898
肖	-10.39
是知	-10.3902
抗	-10.3905
陽明	-10.391
於事	-10.3911
者不能	-10.3913
利艱貞	-10.3918
之理也	-10.392
䷪	-10.3921
孔子之傳	-10.3922
陽長	-10.3924
牿	-10.3925
主宰	-10.3928
交感	-10.3929
未詳	-10.3931
可通	-10.3933
麗於	-10.3934
所取	-10.394
艮為山	-10.3941
而不窮	-10.3941
一則	-10.3941
之君子	-10.3943
為民	-10.3946
局	-10.3954
上下經	-10.3958
未為	-10.3958
一字	-10.3961
復有	-10.3961
其文	-10.3965
徵	-10.3967
何其	-10.3968
聚也	-10.3972
誥	-10.3972
無應	-10.3972
馳	-10.3973
風雨	-10.3973
四變	-10.3975
又自	-10.3975
品	-10.3978
以陽居陽	-10.3979
不害	-10.398
學問	-10.3981
一有	-10.3981
不可得	-10.3982
䷁	-10.3985
䷖	-10.3986
陽實	-10.3987
大哉	-10.3992
變乾	-10.3992
之甚也	-10.3994
活	-10.3996
㓂	-10.3997
繼之	-10.4
河圗	-10.4001
噐	-10.4002
亦當	-10.4002
以一隂	-10.4003
弟子	-10.4005
之變化	-10.4006
陽剛中正	-10.4008
炎上	-10.4008
一理	-10.401
爻以	-10.4011
枉	-10.4016
過揲	-10.402
无疑	-10.4021
是如此	-10.4021
不顧	-10.4022
附於	-10.4026
兩體	-10.4027
䷝	-10.4033
之大人	-10.4034
設卦	-10.4035
班	-10.4037
謂二	-10.4039
得衆	-10.4039
以及	-10.404
剛徳	-10.4042
相接	-10.4045
踐	-10.4052
坎艮	-10.4054
不和	-10.4055
剛得中	-10.4057
所生	-10.4064
圖之	-10.4067
變體	-10.4068
連山	-10.4072
而不為	-10.4075
人有	-10.4084
以前	-10.4086
認	-10.4088
其誠	-10.409
以中	-10.4093
至健	-10.4098
功業	-10.4099
帥	-10.41
應二	-10.4102
制器	-10.4105
雄	-10.4108
詩云	-10.4111
添	-10.4111
不假	-10.4111
相親	-10.4117
君子體而用之	-10.4122
私意	-10.4122
䷚	-10.4124
而不言	-10.4124
或作	-10.4125
中故	-10.4127
甲子	-10.4128
重剛	-10.413
用以	-10.4131
无方	-10.4132
顔	-10.4136
觀我生	-10.4147
祉	-10.4154
之漸	-10.4157
膏	-10.4157
說文	-10.416
動之	-10.416
居内	-10.416
之生	-10.4162
文章	-10.4163
尚有	-10.4163
成性	-10.4167
之道故	-10.4172
吉矣	-10.4173
科	-10.4173
劓	-10.4175
之㑹	-10.4177
繫以	-10.4178
欲以	-10.4179
敷	-10.4179
所主	-10.4179
弦	-10.418
雷之	-10.418
廹	-10.4181
亦何	-10.4181
熊	-10.4184
陷於	-10.4192
卦之下	-10.4192
相雜	-10.4197
雍	-10.42
相違	-10.4201
非正應	-10.4201
屯難	-10.4202
要之	-10.4206
此節	-10.4206
為天下	-10.4209
須知	-10.4209
河圖洛書	-10.421
夏至	-10.4211
所安	-10.4214
一二	-10.4215
之器	-10.4218
䷨	-10.4219
䷩	-10.422
鶴	-10.4224
泣	-10.4225
居正	-10.4225
不可易	-10.4229
隼	-10.423
語録	-10.4231
以俟	-10.4235
无與	-10.4236
為徳	-10.424
中順	-10.424
上升	-10.424
也所謂	-10.4241
亦不可	-10.4245
濳	-10.4249
磐	-10.4253
煦	-10.4254
之異	-10.4258
自然之理	-10.4259
不能濟	-10.4261
離日	-10.4263
遇之	-10.4263
楊氏曰	-10.4263
之所謂	-10.4264
不正而	-10.4265
一月	-10.4267
而謂之	-10.4268
感通	-10.4271
俾	-10.4273
冰	-10.4273
徃而	-10.4276
自以為	-10.4278
即此	-10.428
世道	-10.428
門庭	-10.428
之位也	-10.4281
无咎矣	-10.4286
䷐	-10.4289
䷂	-10.4289
貴於	-10.4291
闔	-10.4293
功成	-10.4295
圭	-10.4296
削	-10.4299
慈	-10.4299
災也	-10.4303
盛衰	-10.4307
寛裕	-10.4308
成坎	-10.4309
䷴	-10.4312
比五	-10.4313
不憂	-10.4315
君徳	-10.4316
而不見	-10.4319
菑	-10.4319
居中得正	-10.4319
不齊	-10.4321
南方	-10.4322
矣是	-10.4324
苦節	-10.4326
五君位	-10.4326
而退	-10.4333
濁	-10.4335
初九之	-10.4336
䷰	-10.4337
䷜	-10.4337
有所往	-10.4342
一竒	-10.4345
雷動	-10.4347
李氏	-10.4347
見矣	-10.4348
何由	-10.4348
而无所	-10.4348
張子曰	-10.4352
之數也	-10.4356
也朱子曰	-10.4357
不生	-10.4359
皆可	-10.4359
卦德	-10.436
天一	-10.4362
去小人	-10.4363
四則	-10.4364
夲	-10.4366
者又	-10.4367
拔	-10.4369
未當	-10.4369
拒	-10.4371
无間	-10.4377
先言	-10.4377
以通	-10.4382
䷎	-10.4382
故有此象	-10.4383
䷶	-10.4384
小畜之	-10.4385
者然	-10.4387
能順	-10.439
至順	-10.4392
脊	-10.4396
賁之	-10.4398
无所容	-10.44
文言曰	-10.4403
居三	-10.4404
吉凶之	-10.4404
恃其	-10.4407
深矣	-10.4409
娶	-10.4412
中正之道	-10.4413
又問	-10.4413
王假有廟	-10.4417
鄭康成	-10.4418
是亦	-10.4418
為益	-10.4418
兑上	-10.4418
考之	-10.4419
一柔	-10.442
銖	-10.442
之成	-10.4431
上篇	-10.4436
墨	-10.4436
皆陽	-10.4436
監	-10.4439
杞	-10.444
罷	-10.4441
不得已而	-10.4441
利于	-10.4446
躁動	-10.4446
損下	-10.4446
始交	-10.4452
中間	-10.4452
佞	-10.4454
正固	-10.4454
䷟	-10.4455
䷇	-10.4455
有待	-10.4458
不利有攸往	-10.4461
庻	-10.4464
可以无咎	-10.4465
妣	-10.4466
祿	-10.4467
有家	-10.4467
此即	-10.447
乎陽	-10.4474
之義故	-10.4475
為主而	-10.4478
感而	-10.4479
忍	-10.4485
丹	-10.4486
上説	-10.4487
穢	-10.4488
桎梏	-10.4488
與下	-10.4489
人事之	-10.449
三句	-10.4495
處中	-10.4496
乎下	-10.4497
不得已	-10.4498
初與四	-10.45
承五	-10.45
爻曰	-10.4504
䷭	-10.4505
奥	-10.4513
爻則	-10.4513
者莫如	-10.4518
其力	-10.4519
利貞者	-10.4519
有行	-10.4519
之徳也	-10.4522
黄帝	-10.4524
帝乙歸妹	-10.4527
之别	-10.4528
䷞	-10.4529
能致	-10.4529
黑	-10.4534
人人	-10.4536
陽居	-10.4536
騐	-10.4536
題	-10.4539
於坤	-10.4544
所遇	-10.4546
能濟	-10.4547
:「	-10.4547
即所謂	-10.455
䷄	-10.4551
䷆	-10.4552
䷺	-10.4552
故不言	-10.4554
綸	-10.4556
為恒	-10.4557
渙之	-10.4557
梗	-10.4559
異矣	-10.456
三與上	-10.456
之貌	-10.4563
夤	-10.4567
其名	-10.4568
而猶	-10.4568
包荒	-10.4568
下卦之	-10.4569
既濟未濟	-10.457
界	-10.4572
下比	-10.4574
秋冬	-10.4579
於民	-10.458
兌下	-10.4585
治天下	-10.4588
得民	-10.4589
從人	-10.4589
而去	-10.4589
剛來	-10.4593
舜之	-10.4593
風行	-10.4595
聖人於	-10.4596
不至于	-10.4598
之𩔖	-10.46
䷯	-10.4601
䷲	-10.4602
神物	-10.4603
以漸	-10.4604
道而	-10.4606
乾坤坎離	-10.4608
發蒙	-10.4608
突	-10.4609
付	-10.4612
恵	-10.4614
以貞	-10.4615
遷善	-10.4615
乎人	-10.4617
二雖	-10.4618
䷮	-10.4624
陽動	-10.4627
失時	-10.4628
能亨	-10.4633
圜	-10.4634
凌	-10.4637
未至於	-10.4639
皆從	-10.464
則人	-10.4641
相推	-10.4643
犯難	-10.4651
恒久	-10.4653
遄	-10.4655
嫡	-10.4659
挾	-10.466
聖人之道	-10.466
裂	-10.4661
精義	-10.4661
盡性	-10.4664
履霜	-10.4665
同人之	-10.4666
明白	-10.4672
䷑	-10.4674
䷬	-10.4676
䷢	-10.4676
紛	-10.4679
為水	-10.468
兮	-10.468
同德	-10.4682
正故	-10.4684
机	-10.4685
也雖然	-10.4688
獨言	-10.469
九二剛中	-10.4691
言乎	-10.4695
以四	-10.4697
民心	-10.47
時中	-10.4702
環	-10.4704
則民	-10.4708
周公之	-10.4711
所感	-10.4711
之本體	-10.4714
卦之上	-10.4716
六爻之	-10.4718
白賁	-10.4719
主乎	-10.472
其過	-10.4721
以隂柔居	-10.4723
之處	-10.4723
四正	-10.4723
作樂	-10.4724
䷕	-10.4724
䷅	-10.4725
所載	-10.4741
不見其	-10.4742
中孚之	-10.4742
君臣之	-10.4745
无咎象曰	-10.4746
䷏	-10.4746
盪	-10.4748
巢	-10.4748
卦位	-10.4753
者二	-10.4755
誣	-10.4757
以巽	-10.476
康侯	-10.4765
體而	-10.4772
難知	-10.4781
錄	-10.4782
故特	-10.4782
論語	-10.4783
之微	-10.4787
八十	-10.4788
用獄	-10.4789
最下	-10.4792
之詞	-10.4799
䷸	-10.4799
害之	-10.4801
無咎	-10.4803
困之	-10.481
於隂	-10.4813
中正而	-10.482
矣何	-10.4823
䷃	-10.4823
䷉	-10.4825
䷳	-10.4825
用力	-10.4825
終之	-10.4827
濟難	-10.4828
以定	-10.4836
䷦	-10.4849
則止	-10.485
者是也	-10.485
所麗	-10.4855
頼	-10.4857
寂然不動	-10.4862
窮而	-10.4866
者在	-10.4878
文之	-10.4879
裏	-10.4879
必欲	-10.488
陰陽之	-10.488
慕	-10.4882
居二	-10.4884
定吉凶	-10.4885
大率	-10.4893
為地	-10.4895
䷧	-10.49
洊	-10.4903
陂	-10.4904
天氣	-10.4906
二物	-10.4906
不能无	-10.4908
崇徳	-10.4909
歩	-10.491
乃是	-10.4914
而合	-10.4915
繫之	-10.4926
本義謂	-10.4927
龍徳	-10.4927
蜀	-10.4928
與天	-10.4929
富有	-10.493
敬慎	-10.493
晏	-10.4932
不雨	-10.4934
正應而	-10.4934
皆不	-10.4935
大衍之數	-10.4937
澤之	-10.4938
剛上	-10.494
極於	-10.494
䷻	-10.4948
從此	-10.4948
能用	-10.4949
七十二	-10.4954
惟有	-10.4962
以剛居	-10.4964
道義	-10.4969
天地定位	-10.4975
以剛居剛	-10.4981
皆指	-10.4982
受益	-10.4988
相須	-10.499
涉大川	-10.4998
得其道	-10.5001
加一	-10.5001
有濟	-10.5001
而起	-10.5002
嗣	-10.5002
巷	-10.5003
周之	-10.5007
髪	-10.5008
故又	-10.5015
變坤	-10.5015
則天下	-10.5015
為功	-10.5015
七十	-10.5018
離為日	-10.5021
咥	-10.5023
之術	-10.5027
顯比	-10.5029
潰	-10.503
險中	-10.5031
灌	-10.5031
二二	-10.5034
慾	-10.5035
様	-10.5035
汙	-10.5035
有三	-10.5036
𨼆	-10.5037
勞謙	-10.5041
險在前	-10.5043
不吉	-10.5045
交相	-10.5046
徑	-10.505
集説	-10.5052
柔順而	-10.5053
王輔嗣	-10.5054
先天圖	-10.5057
畬	-10.5059
坦	-10.5059
嘆	-10.5061
因之	-10.5061
莫大於	-10.5063
近之	-10.5063
不免於	-10.5064
當以	-10.5065
之為道	-10.5066
與乾	-10.5067
二畫	-10.507
者衆	-10.5071
輕重	-10.5072
而吉也	-10.5076
太隂	-10.5084
改命	-10.5085
攝	-10.5086
晚	-10.5086
遵	-10.5089
征伐	-10.5092
可觀	-10.5092
自外來	-10.5095
所利	-10.5096
立象	-10.5097
得中而	-10.5098
鹵	-10.5102
為剛	-10.5103
天道之	-10.5107
正與	-10.511
噬膚	-10.5114
釋卦名	-10.512
有心	-10.512
求益	-10.512
乗之	-10.5123
器也	-10.5124
本無	-10.5125
䷹	-10.5128
穀	-10.5129
之為物	-10.513
濟蹇	-10.513
云者	-10.5132
始有	-10.5132
愆	-10.5134
有此象	-10.5138
終則有始	-10.5139
巫	-10.5142
氣也	-10.5143
聖人因	-10.5144
不但	-10.5146
家道	-10.5147
䷷	-10.515
天下之道	-10.5157
擅	-10.5163
禽獸	-10.5165
涸	-10.5166
免咎	-10.5167
在位	-10.5167
失得	-10.5167
文公	-10.5172
以卦體	-10.5172
是以君子	-10.5173
䷱	-10.5181
陽故	-10.5183
疑也	-10.5187
匡	-10.5188
懦	-10.5189
上三爻	-10.519
誨	-10.519
不獲其身	-10.519
凶而	-10.5192
與物	-10.5192
臣位	-10.52
穉	-10.5211
靖	-10.5213
趣	-10.5213
僭	-10.5213
失其正	-10.5216
二象	-10.5217
言之也	-10.5218
占辭	-10.5219
𫝊曰	-10.5219
生矣	-10.522
得一	-10.5224
不可用	-10.5225
則自	-10.5226
所作	-10.5229
馴	-10.5232
為小	-10.5235
之悔	-10.5237
縣	-10.5241
吾之	-10.5243
而後可以	-10.5245
三月	-10.5252
非一	-10.5252
各得	-10.5257
而論	-10.5262
於道	-10.5263
姦	-10.5265
談	-10.5265
而為之	-10.527
太𤣥	-10.5276
蹇之	-10.5279
昔者	-10.5279
於己	-10.528
四時之	-10.5283
小利貞	-10.5287
者此也	-10.5288
繼之以	-10.529
往也	-10.5291
偕	-10.5293
是能	-10.5301
天下之人	-10.5308
有位	-10.531
如之何	-10.5312
離坎	-10.5312
過矣	-10.5314
天之道	-10.5314
成其	-10.5314
也唯	-10.5317
襲	-10.5317
奢	-10.5319
明者	-10.5319
卻	-10.5319
安于	-10.532
物理	-10.5321
圎	-10.5321
爻為	-10.5322
此說	-10.5322
遍	-10.5323
使其	-10.5324
周公之象	-10.5324
於三	-10.5326
至精	-10.5327
三代	-10.5328
」	-10.5329
艮為手	-10.5329
之制	-10.533
相為	-10.5331
也若夫	-10.5334
以制	-10.5341
有時	-10.5343
竝	-10.5346
神農	-10.5351
有慶也	-10.5352
之辨	-10.5353
止而不	-10.5353
不使	-10.5354
辨正	-10.5358
於其	-10.5361
禮義	-10.5364
往者	-10.5364
騰	-10.5365
豆	-10.5368
脉	-10.537
徳也	-10.5374
為難	-10.5376
於身	-10.5378
得以	-10.5387
謝	-10.5391
徳而	-10.5395
証	-10.5398
算	-10.5403
陽位	-10.5408
其咎	-10.5412
萃聚	-10.5422
▁朱子曰	-10.5423
為能	-10.5423
也巽	-10.5427
雖不當位	-10.5427
而使之	-10.5428
來而	-10.5429
一卷	-10.5431
而萬物	-10.5433
用師	-10.5434
十九	-10.5438
贊曰	-10.5441
无為	-10.5444
亡也	-10.5444
之嫌	-10.5448
指五	-10.5449
位則	-10.5452
三陰	-10.5452
法象	-10.5453
也故為	-10.5456
闚	-10.5456
變之	-10.5457
子夏傳	-10.5457
由此	-10.5462
握	-10.5464
知者	-10.5465
以誠	-10.5467
自信	-10.5467
也彖曰	-10.5469
變坎	-10.547
也觀	-10.5472
資生	-10.5472
濫	-10.5473
故无	-10.5473
合徳	-10.5474
燭	-10.5475
叚	-10.5476
恕	-10.5476
領	-10.5477
羙	-10.5478
乏	-10.548
而言之	-10.5482
可乎	-10.5483
短	-10.5491
湯武	-10.5491
所以然者	-10.5494
乎夫	-10.5501
先儒謂	-10.5501
寫	-10.5502
弋	-10.5505
月之	-10.5507
而行之	-10.551
辨之	-10.5512
初六之	-10.5517
横圖	-10.5518
釋文	-10.552
其分	-10.5522
明道	-10.5524
簋	-10.5527
今以	-10.5529
宇	-10.5529
也至於	-10.553
兼山郭氏曰	-10.5532
升而	-10.5534
成象	-10.5539
動於	-10.5539
終不	-10.554
此道	-10.5542
復卦	-10.5542
應乎乾	-10.5543
居下之上	-10.5545
卦自	-10.5546
幼	-10.555
隂居	-10.555
于陽	-10.5551
墜	-10.5556
六陽	-10.5556
居隂	-10.5556
屯蒙	-10.5557
用此	-10.5557
仁也	-10.5561
徳業	-10.5561
為順	-10.5561
隂隂	-10.557
通變	-10.5575
鬯	-10.558
求養	-10.558
逺之	-10.5583
治蠱	-10.5585
信而	-10.5594
之為卦	-10.5595
者聖人	-10.5603
坤為衆	-10.5603
其卦	-10.5603
憂之	-10.5607
所在	-10.5607
方來	-10.5607
整	-10.561
三歲	-10.5612
曠	-10.5613
雖无	-10.5613
居貞	-10.5614
漢儒	-10.5616
是説	-10.5617
二曰	-10.562
屬陽	-10.5622
又在	-10.5623
乎内	-10.5623
相繼	-10.563
兄弟	-10.5631
巽風	-10.5632
如是而	-10.5632
舞	-10.5633
久而	-10.5636
弧	-10.5636
訟者	-10.5637
叙	-10.5637
有功也	-10.5645
輔嗣	-10.5651
之色	-10.5652
其子	-10.5652
而立	-10.5653
行矣	-10.5655
卑巽	-10.5656
也以其	-10.5659
以謙	-10.5663
蕭	-10.5663
𤯝	-10.5664
也哉	-10.5665
萃之	-10.5666
蓋取諸	-10.5667
是說	-10.5667
以位言	-10.5667
同歸	-10.5668
相見	-10.5668
得朋	-10.5672
于心	-10.5676
遷國	-10.5678
成卦之主	-10.5679
變離	-10.5682
陽消	-10.5685
功也	-10.5688
三三	-10.569
鼔	-10.5691
爻也	-10.5692
不去	-10.5695
各有所	-10.5696
大難	-10.5697
火之	-10.57
我者	-10.5702
應天	-10.5704
長而	-10.5709
匪正	-10.5709
十二卦	-10.5709
為六	-10.5712
否則	-10.5716
遊	-10.5718
壅	-10.5718
釋卦名義	-10.5719
行止	-10.5719
六隂	-10.5719
春夏	-10.572
順理	-10.5724
莧陸	-10.5726
有命	-10.5726
之所能	-10.5726
為人所	-10.5732
帝王	-10.5734
應剛	-10.5735
天子之	-10.5736
非所	-10.5738
周流	-10.5743
已具	-10.5744
鎮	-10.5746
闔闢	-10.5748
此正	-10.5754
水流	-10.5755
可知也	-10.5756
彚	-10.5756
疑其	-10.5769
此其	-10.577
两	-10.5774
瓜	-10.5776
萬國	-10.5776
磐桓	-10.5779
凡物	-10.5781
輿尸	-10.5782
感人	-10.5783
順之	-10.5785
一例	-10.5786
此句	-10.5788
元氣	-10.5789
導	-10.579
初與二	-10.579
其動	-10.5795
一元	-10.5796
薛	-10.5799
羑里	-10.5799
有他	-10.58
應故	-10.5802
三字	-10.5804
然後有	-10.5808
在人則	-10.5808
居下而	-10.5816
得位而	-10.5822
非可	-10.5827
聖人之意	-10.5828
之積	-10.5828
狩	-10.5829
陸氏	-10.5835
繼以	-10.5836
不同也	-10.5839
中正之徳	-10.5841
本義曰	-10.5841
可吝	-10.5844
順承	-10.5847
然以	-10.5847
專以	-10.5847
一毫	-10.585
大蹇	-10.585
生之	-10.585
名卦	-10.5851
玄	-10.5854
剛中正	-10.5855
崔	-10.5856
个	-10.5857
撫	-10.5858
㢲為	-10.5859
易之為書	-10.586
似乎	-10.5864
而弗	-10.5867
以説	-10.5873
條理	-10.5873
耳故	-10.5874
太和	-10.5875
収	-10.5882
七八九六	-10.5883
緼	-10.5884
本文	-10.5884
遇雨	-10.5885
冐	-10.5886
其形	-10.5896
南北	-10.5896
百八十	-10.5897
之終也	-10.5899
與其	-10.5899
文義	-10.59
中四爻	-10.5902
住	-10.5909
至是	-10.5909
從容	-10.591
至三	-10.591
朕	-10.5911
詐	-10.5911
刺	-10.5913
誘	-10.5915
實有	-10.5918
利者	-10.5919
革也	-10.592
地而	-10.5925
丈	-10.5928
子思	-10.5931
坤為地	-10.5932
笑言啞啞	-10.5938
方能	-10.5939
中者	-10.594
李子思曰	-10.5941
盛也	-10.5942
七日來復	-10.5946
利往	-10.5947
者由	-10.5949
張子	-10.595
下則	-10.5951
故戒	-10.5952
筮得	-10.5952
有徳	-10.5953
如乾	-10.5959
蒸	-10.5966
縮	-10.5967
呉	-10.5968
項平甫曰	-10.5968
戒占者	-10.5968
剛過	-10.5969
歸妹之	-10.5971
而不失	-10.5977
已過	-10.5977
君子之所	-10.5982
統天	-10.5984
一端	-10.5985
柔也	-10.5987
文明之	-10.5988
山川	-10.599
姚	-10.599
之疾	-10.5991
大通	-10.5995
為二	-10.6001
六龍	-10.6005
不立	-10.6007
吾心	-10.6009
翼傳曰	-10.601
大徳	-10.6011
馮	-10.6014
小事吉	-10.6023
所以有	-10.6023
而不用	-10.603
大亨以正	-10.603
微而	-10.6031
名之曰	-10.6032
納甲	-10.6035
係於	-10.6036
大過之	-10.604
本意	-10.6041
可疑	-10.6041
忘其	-10.6045
地數	-10.6049
朱氏附録	-10.6051
自失	-10.6052
天下後世	-10.6055
不云	-10.6056
而得其	-10.6056
多寡	-10.6056
疑於	-10.6057
蓍卦	-10.6064
不往	-10.6071
欲進	-10.6071
无眚	-10.6076
大過之時	-10.6076
得正故	-10.6078
危也	-10.608
戕	-10.6081
秀	-10.6081
咸之	-10.6085
䷊	-10.6085
柔則	-10.6085
繘	-10.6085
十日	-10.6088
而可以	-10.6093
乾坤二卦	-10.6094
上言	-10.6095
乎故曰	-10.6095
何嘗	-10.6096
非是	-10.61
人亦	-10.6102
熱	-10.6104
之罪	-10.6106
不犯	-10.6108
以止	-10.6108
取女	-10.6108
過剛不中	-10.6109
敵應	-10.611
王道	-10.6111
黄裳	-10.6113
之業	-10.6114
重在	-10.6119
彖所謂	-10.6123
志剛	-10.6123
二則	-10.6128
故可	-10.6128
為金	-10.6129
卦才	-10.6134
木為	-10.6135
爻之辭	-10.6136
禀	-10.6137
而爲	-10.614
再三	-10.6141
式	-10.6142
剛上而柔下	-10.6144
其象為	-10.6146
以觀	-10.6146
以相	-10.6148
人物	-10.6148
性也	-10.6149
亨而	-10.6151
動物	-10.6156
山下	-10.6158
各自	-10.6158
者天之	-10.616
自外	-10.616
係之	-10.6161
居其所	-10.6161
欠	-10.6164
遂其	-10.6165
言聖人	-10.6165
羅	-10.6165
然後可	-10.6168
謂陽	-10.6169
震為足	-10.617
於其間	-10.6173
文飾	-10.6174
位在	-10.6175
而忘	-10.6182
獨立	-10.6188
暮	-10.6192
隅	-10.6192
吐	-10.6194
中直	-10.6195
又居	-10.6199
一剛	-10.62
又謂	-10.6203
洗心	-10.6205
休息	-10.6207
者多矣	-10.6213
一般	-10.6215
包承	-10.6218
而益	-10.6219
正大	-10.6219
不遇	-10.6221
之害	-10.6221
而從之	-10.6224
因而重之	-10.6224
在田	-10.6228
三男	-10.623
右手	-10.623
十朋之龜	-10.6231
正月	-10.6231
為卦主	-10.6234
知險	-10.6234
相類	-10.6234
上章	-10.6244
在已	-10.6246
襍	-10.6246
齒	-10.6249
各正	-10.6249
各以	-10.6251
雲峯胡氏曰	-10.6252
示人以	-10.6252
无喪	-10.6253
上交	-10.6254
遁	-10.6257
腊	-10.6258
居初	-10.6274
為无咎	-10.6275
卦之主	-10.6276
鬱	-10.6276
聖賢之	-10.6279
不逺	-10.6281
鋭	-10.6281
在下之	-10.6282
傷也	-10.6284
不獲	-10.6289
非徒	-10.6294
致一	-10.6295
遯而	-10.6297
上面	-10.6299
暇	-10.6301
鬼方	-10.6303
豐之	-10.6304
上下相	-10.6308
筆	-10.6309
易言	-10.6311
嗃嗃	-10.6313
來居	-10.6315
何必	-10.6316
坤坤	-10.6317
道之大	-10.6323
安有	-10.6325
直方	-10.6327
又不	-10.6328
繫辭曰	-10.6332
不可為	-10.6334
透	-10.6335
峻	-10.6338
歛	-10.6338
散而	-10.6339
順天	-10.6341
變而成	-10.6341
邵	-10.6347
牝牛	-10.635
左次	-10.6351
晦其明	-10.6353
二女	-10.6358
得五	-10.636
也天地	-10.6361
僻	-10.6362
同於	-10.6362
為木	-10.6366
初以	-10.6366
盡善	-10.6369
偃	-10.6369
顚	-10.6371
天數	-10.6373
或者	-10.6374
防之	-10.6379
得時	-10.638
而取	-10.6381
稱龍	-10.6382
以柔居柔	-10.639
上卦之	-10.6391
卦主	-10.6392
入而	-10.6393
粹	-10.6393
賁飾	-10.6393
可乆	-10.6394
山澤通氣	-10.6395
于物	-10.6397
享帝	-10.6398
憑	-10.6399
翩翩	-10.64
二居	-10.64
三女	-10.6401
无禽	-10.6405
畜止	-10.6405
兩箇	-10.6406
觀民	-10.6407
九家	-10.6408
一段	-10.6412
相資	-10.6418
欲人	-10.6418
之迹	-10.642
止其所	-10.6425
方長	-10.6426
林黄中曰	-10.6427
以治	-10.6428
天地之氣	-10.6429
其剛	-10.643
占得	-10.6432
无大咎	-10.6433
其罪	-10.6433
而難	-10.6434
重巽	-10.6438
所隨	-10.6442
相近	-10.6443
駕	-10.6449
養正	-10.645
崩	-10.6453
則已	-10.6455
歡	-10.6457
包羞	-10.6459
四十八	-10.6461
君心	-10.6461
飲酒	-10.6463
象㫖	-10.6465
程朱	-10.6467
變故	-10.6468
生民	-10.647
崔憬曰	-10.6472
得所	-10.648
而吉凶	-10.648
純乾	-10.6481
陽在	-10.6484
而不變	-10.6484
厄	-10.6486
夫婦之道	-10.6488
無可	-10.6491
初剛	-10.6498
則必有	-10.65
有象	-10.6501
休否	-10.6505
比于	-10.6505
金鉉	-10.6509
進徳	-10.6509
時有	-10.6509
利用獄	-10.6511
虩虩	-10.6513
挽	-10.6513
未明	-10.6514
五十五	-10.6516
知懼	-10.6518
使天下	-10.6519
利涉	-10.652
二與四	-10.6522
知有	-10.6522
黄中	-10.6522
應於上	-10.6525
全在	-10.6526
百里	-10.6529
袂	-10.6529
通乎	-10.653
旨	-10.6533
播	-10.654
无陽	-10.654
既未濟	-10.654
頓	-10.6544
與此	-10.6545
乎然	-10.6545
龔	-10.6546
藍田吕氏曰	-10.6546
初在下	-10.6547
薰	-10.6548
恒也	-10.655
也而爻辭云爾者	-10.655
而至于	-10.6553
易説	-10.6558
卷十	-10.6558
成離	-10.6563
一分	-10.6565
花	-10.6565
郭氏	-10.657
二百	-10.6575
爾雅	-10.6578
既曰	-10.6579
初三	-10.6582
當損	-10.6582
勞而	-10.6587
太平	-10.6595
何可	-10.6597
卦下	-10.6601
而受	-10.6601
羲皇	-10.6602
宏	-10.6602
溝	-10.6602
悔也	-10.6603
他人	-10.6605
雲行雨施	-10.6606
緒	-10.6606
丘園	-10.6608
四陰	-10.6613
其吉凶	-10.6614
事事	-10.6614
一世	-10.6616
第四	-10.6621
㑹通	-10.6624
直方大	-10.6625
以進	-10.6626
焉是	-10.6627
稼	-10.6629
甚大	-10.6632
投	-10.6633
規	-10.6635
變卦	-10.6635
炳	-10.6645
為三	-10.6648
三與四	-10.6648
天五	-10.665
女壯	-10.665
離為目	-10.6653
小者過	-10.6656
又能	-10.6656
不逺復	-10.6659
淺深	-10.6659
戮	-10.6659
曹	-10.6659
不外	-10.6662
拔茅	-10.6662
筐	-10.6663
層	-10.667
岐山	-10.6671
髙尚	-10.6673
傳云	-10.6674
也傳曰	-10.6682
之材	-10.6685
粗	-10.669
者豈	-10.6691
非禮	-10.6695
常久	-10.6696
晁	-10.6696
頻復	-10.6697
之孚	-10.6701
以九	-10.6704
皆謂	-10.6705
發其	-10.6705
合于	-10.6707
有節	-10.6713
于民	-10.6719
是聖人	-10.672
慮其	-10.6721
危而	-10.6723
再扐	-10.6733
六七八九	-10.6737
是箇	-10.6741
四體	-10.6741
以往	-10.6742
自下而	-10.6744
有險	-10.6744
之福	-10.6746
得此	-10.6752
天下事	-10.6753
幹父之蠱	-10.6753
男女之	-10.6754
勿用取女	-10.6755
釐	-10.6755
鮒	-10.6757
平聲	-10.6758
不可大事	-10.676
諸陽	-10.6763
唯其	-10.6766
至正	-10.6769
相同	-10.6773
其次	-10.6774
天時	-10.6775
大學	-10.6775
乎中	-10.6776
堪	-10.6777
為道	-10.6782
疆	-10.6782
絡	-10.6783
英	-10.6783
舟楫	-10.6784
之狀	-10.6785
得尊位	-10.6797
二爻皆	-10.6797
不入	-10.6799
化育	-10.68
逺害	-10.68
敦厚	-10.6801
斯為	-10.6806
王輔嗣曰	-10.6808
時用	-10.6811
補過	-10.6811
无功	-10.6812
不事王侯	-10.6813
東萊吕氏曰	-10.6814
老少	-10.6814
卦為	-10.6817
尚往	-10.6818
愆期	-10.6818
之具	-10.6819
睽之	-10.682
不由	-10.6821
五變	-10.6821
聞之	-10.6821
不流	-10.6822
利牝馬之貞	-10.6822
知此	-10.6825
有兩	-10.6832
書契	-10.6834
重明	-10.6835
有物	-10.6836
庖	-10.6842
衞	-10.6843
頑	-10.6844
純粹	-10.6845
恐人	-10.6845
其吉	-10.6847
矣今	-10.6854
交際	-10.6858
困于	-10.686
譬之	-10.6861
離麗也	-10.6861
呂	-10.6862
觀此	-10.6866
曰吾	-10.6869
少陰	-10.6872
有實	-10.6872
之責	-10.6873
赴	-10.6874
於後	-10.6874
夢	-10.6875
網罟	-10.6876
成矣	-10.688
同功	-10.688
寔	-10.688
初則	-10.6884
能勝	-10.689
五行之	-10.6891
得君	-10.6892
者當	-10.6894
矣惟	-10.6897
翔	-10.6899
于野	-10.6902
坤地	-10.6903
涕	-10.6909
成就	-10.6914
居外	-10.6917
善者	-10.6923
不察	-10.6924
濟之	-10.6928
不勝其	-10.6929
剛强	-10.693
間之	-10.6933
狂	-10.6934
逵	-10.6935
為否	-10.6935
禪	-10.6936
於前	-10.6936
摩	-10.6936
同而異	-10.6937
饒	-10.6939
五雖	-10.6939
卦之名	-10.6944
張氏	-10.6944
皆當	-10.6946
徃則	-10.6946
顛趾	-10.6947
自任	-10.6961
異乎	-10.6963
上窮	-10.6964
輩	-10.6964
隂中	-10.6965
兑下	-10.6966
見幾	-10.6966
影	-10.6967
樞	-10.6967
人自	-10.6968
阿	-10.6969
隐	-10.6969
顛倒	-10.6972
四句	-10.6972
未安	-10.6972
庇	-10.6973
四分	-10.6975
以卦象	-10.6977
不識	-10.6983
上合志	-10.6985
大凡	-10.6986
之最	-10.6986
易學	-10.699
天下治	-10.6993
囊	-10.6995
穿	-10.6997
為復	-10.6998
之人也	-10.6999
帝出乎震	-10.6999
底意思	-10.7
方位	-10.7001
二五之	-10.7003
王之	-10.7005
者哉	-10.7005
應乎天	-10.7006
者也夫	-10.701
助之	-10.7012
百四十	-10.7014
剛柔分	-10.7016
莧	-10.7017
生育	-10.7019
是以吉也	-10.702
致亨	-10.7024
所求	-10.7025
之長	-10.7025
鄭云	-10.7028
髙明	-10.703
臺	-10.7031
占法	-10.7034
女子之	-10.7038
所比	-10.7041
無一	-10.7041
乘之	-10.7042
頤之	-10.7044
之仁	-10.7045
先王以	-10.7048
冀	-10.7058
爽	-10.706
姬	-10.7062
噫	-10.7062
位正當也	-10.7067
後儒	-10.7069
超	-10.707
八八	-10.707
初變	-10.707
萬邦	-10.7071
其質	-10.7071
者以此	-10.7071
為物	-10.7072
乃以	-10.7076
重變	-10.7076
盈滿	-10.7078
不論	-10.708
吉象曰	-10.7081
上下交	-10.7081
乎其中	-10.7083
焦	-10.7083
蓍之	-10.7087
髙而	-10.7089
正矣	-10.7092
齧	-10.7093
欽	-10.7094
訛	-10.7094
未失	-10.7094
動體	-10.7096
憧憧往來	-10.7097
見傷	-10.7098
宫室	-10.7099
之威	-10.7104
不能盡	-10.711
无成	-10.711
之憂	-10.7113
能行	-10.7118
陽徳	-10.7118
四月	-10.7119
拜	-10.7121
鳥獸	-10.7121
變震	-10.7123
事而	-10.7123
盈虚	-10.7124
尚未	-10.7124
婚	-10.7124
長也	-10.7125
叅	-10.7125
赦	-10.7127
矣是以	-10.7128
所以吉也	-10.7129
而遂	-10.7134
為句	-10.7135
四雖	-10.7144
往来	-10.7144
包犧	-10.715
是理	-10.7151
棲	-10.7153
白雲曰	-10.7157
三爻皆	-10.716
彖爻	-10.716
近于	-10.7162
云爾	-10.7164
之光	-10.7165
老婦	-10.7176
之小人	-10.7181
為事	-10.7183
脚	-10.7183
剛而得中	-10.7183
以此為	-10.7189
之論	-10.7192
告公	-10.7193
攸往	-10.7193
教化	-10.7194
惟恐	-10.7195
不雜	-10.7196
迷復	-10.7196
可喜	-10.7198
或云	-10.72
不居	-10.7203
易卦	-10.7206
其㫖	-10.7206
異於	-10.7209
而後動	-10.721
恒之	-10.7213
袁	-10.7218
此一	-10.722
濡其首	-10.722
桷	-10.722
和樂	-10.7223
有它	-10.7227
一二三四	-10.7237
養其	-10.724
居位	-10.7242
得坤	-10.7246
供	-10.725
暉	-10.725
舊説	-10.7253
形體	-10.7253
贊之	-10.7253
所以明	-10.7254
而不失其	-10.7258
設教	-10.7262
所施	-10.7265
不思	-10.7268
陽剛之	-10.7271
遘	-10.7275
之險	-10.7278
為火	-10.7279
之幾	-10.7282
上巽	-10.7282
徤	-10.7284
畫之	-10.7286
不輕	-10.7287
衆也	-10.7289
一曰	-10.7289
而在上	-10.729
大畜之	-10.7293
叢	-10.7294
雲雷	-10.7299
奈何	-10.7303
則反	-10.7304
施於	-10.7304
辨物	-10.7305
地位	-10.7307
姜	-10.7309
善處	-10.7309
功用	-10.7311
震雷	-10.7312
懿	-10.7313
邱	-10.7316
此之謂也	-10.7321
斷之	-10.7321
至神	-10.7321
亦皆	-10.7324
其動也	-10.7326
三才之道	-10.7328
互相	-10.7335
純乎	-10.7336
下降	-10.7337
初畫	-10.7338
磨	-10.7342
終而	-10.7344
為龍	-10.7349
或疑	-10.735
只管	-10.7352
炁	-10.736
一本	-10.7362
正其	-10.7363
剛明之才	-10.7365
故初	-10.7366
下順	-10.7368
㸃	-10.737
第五	-10.7372
不移	-10.7372
日月星辰	-10.7377
弛	-10.7379
苞	-10.7379
飽	-10.7379
重隂	-10.7393
順動	-10.7394
之水	-10.7395
可以知	-10.7405
忤	-10.7407
資斧	-10.7407
頄	-10.7408
暱	-10.7409
禴	-10.7411
不忍	-10.7411
安靜	-10.7412
自安	-10.7412
卦惟	-10.7412
明出地上	-10.7412
于君	-10.7413
蘭	-10.7413
六五之君	-10.7416
利女貞	-10.7417
文周	-10.7421
六十四卦之	-10.7422
可大	-10.7425
大成	-10.7428
取於	-10.743
初陽	-10.7431
修徳	-10.7432
晁氏	-10.7434
戈兵	-10.7437
與人同	-10.7437
可羞	-10.7437
衝	-10.7437
七月	-10.7439
髮	-10.7439
亦云	-10.7442
其孚	-10.7449
地勢	-10.7452
非特	-10.7452
行道	-10.7457
五與二	-10.7458
地也	-10.7458
視其	-10.7459
不以正	-10.7462
體之上	-10.7462
可得	-10.7463
利而	-10.7464
排	-10.7466
貼	-10.747
體之下	-10.7475
憂虞	-10.7475
濟屯	-10.7476
以斷	-10.7476
貧賤	-10.7477
則隂	-10.7478
君子所以	-10.748
處於	-10.7482
方圖	-10.7486
方得	-10.7489
矣哉	-10.7495
震動也	-10.7498
弑	-10.7501
一家之	-10.7502
托	-10.7504
赤紱	-10.7504
哲	-10.7507
下賢	-10.7507
毅	-10.7509
上出	-10.751
男下女	-10.751
攣	-10.7511
天地之化	-10.7513
治獄	-10.7515
於已	-10.7519
天下皆	-10.7519
必然	-10.752
占者如是則	-10.7522
雷震	-10.7523
之效	-10.7524
水而	-10.7527
極必	-10.7531
畜乾	-10.7532
繼明	-10.7535
刑罰	-10.7536
卓	-10.7539
升之	-10.754
以利	-10.754
其所以然	-10.7541
故二	-10.7541
之半	-10.7542
以卦	-10.7543
不覺	-10.7544
彖𫝊	-10.7545
下面	-10.7547
疑而	-10.755
出地	-10.7552
此所以為	-10.7554
者如此	-10.7555
千里	-10.7557
或益之	-10.7558
此數	-10.7561
不誠	-10.7561
做得	-10.7566
四營	-10.7566
始而	-10.7567
僕	-10.7568
必至於	-10.7569
遐	-10.757
逆數	-10.757
斥	-10.7571
無形	-10.7573
亂也	-10.7579
而與之	-10.7582
无害	-10.7585
其失	-10.7586
為重	-10.7587
九月	-10.7593
施之	-10.7595
理則	-10.7596
澤中	-10.7598
安其	-10.7598
居陽位	-10.76
奏	-10.7602
遇毒	-10.7603
陰爻	-10.7604
苗	-10.7605
剛柔相推	-10.7607
隍	-10.7607
大槩	-10.7608
所願	-10.7608
解者	-10.7608
光輝	-10.7608
自上	-10.7609
不可為典要	-10.7609
君臣相	-10.761
舌	-10.7611
以示人	-10.7611
而在下	-10.7611
靈龜	-10.7615
无他	-10.7616
以徳	-10.7617
何能	-10.7621
字與	-10.7623
其卦為	-10.7624
失律	-10.7627
已甚	-10.7631
終无尤也	-10.7632
尹	-10.7634
來則	-10.7634
割	-10.7637
紊	-10.764
體也	-10.7643
非應	-10.7643
九十	-10.7644
傷害	-10.7646
見天地之心	-10.7647
素履	-10.765
兩句	-10.7653
而通	-10.7657
也然而	-10.7658
陸績	-10.7659
盈則	-10.7659
自損	-10.7662
剛故	-10.7664
安静	-10.7665
朱氏曰	-10.7665
志不	-10.7665
則利	-10.7666
物生	-10.7669
天下之民	-10.7669
五曰	-10.767
無私	-10.7671
剛陽之	-10.7671
宥	-10.7674
一年	-10.7675
一念	-10.7675
收斂	-10.7677
開物成務	-10.7677
􁁇(	-10.7677
𤣥黄	-10.7679
非其位	-10.7681
配合	-10.7682
伐鬼方	-10.7688
莊子	-10.7691
隂位	-10.7692
孚于	-10.7693
遇險	-10.7694
些	-10.7695
通天下之志	-10.7698
左氏	-10.7699
十六卦	-10.7704
人生	-10.7707
隋	-10.7707
天地不交	-10.7709
不可復	-10.7709
自反	-10.7711
閉塞	-10.7712
不可測	-10.7713
所觀	-10.7713
離散	-10.7714
為八	-10.7715
利天下	-10.7717
人倫	-10.7718
自初	-10.7723
坎陷	-10.7724
无復	-10.7724
小人則	-10.7725
不定	-10.7727
别有	-10.7727
自知	-10.7729
所同	-10.7731
四隅	-10.7733
馬匹亡	-10.7736
正家	-10.7738
徇	-10.774
不常	-10.7742
𤼵明	-10.7742
主人	-10.7744
漢上	-10.7745
而治	-10.7745
三曰	-10.7749
曰君子	-10.7756
處上	-10.7756
勉之	-10.7762
澤上	-10.7762
王母	-10.7763
成文	-10.7764
二十五	-10.7765
何有	-10.7766
六日	-10.7767
惡人	-10.7769
而發	-10.7771
靣	-10.7772
株木	-10.7776
无所不利	-10.7776
狠	-10.7777
不處	-10.7778
守貞	-10.778
夬姤	-10.7781
卑而	-10.7782
有理	-10.7784
為賁	-10.7785
抵	-10.7785
兊澤	-10.7785
離象	-10.7786
註云	-10.7787
者雖	-10.779
屬隂	-10.779
牢	-10.7794
也君子觀	-10.7795
于木	-10.7796
之變也	-10.7798
進故	-10.7799
属	-10.78
專言	-10.7801
朱子發曰	-10.7806
可言	-10.7809
困也	-10.7814
兩象	-10.7815
所存	-10.7818
為文	-10.7823
就下	-10.7826
之道以	-10.7827
不相應	-10.7827
君子當	-10.7828
凡有	-10.7832
意也	-10.7832
、	-10.7834
不稱	-10.7834
卵	-10.7834
不同而	-10.7836
《	-10.7836
逋	-10.7836
貧	-10.7837
絶之	-10.784
侮	-10.7841
君子所	-10.7843
枕	-10.7844
治也	-10.7847
吉占	-10.7848
不寧	-10.7848
咥人	-10.7849
也此爻	-10.7849
之徳而	-10.7851
雜而	-10.7855
者明	-10.7858
專一	-10.7859
利貞也	-10.7859
明堂	-10.7859
動動	-10.7861
有漸	-10.7864
二篇	-10.7865
愬愬	-10.7867
用九用六	-10.7872
其善	-10.7872
程正叔曰	-10.7873
禦冦	-10.7875
吴	-10.7875
成巽	-10.7876
正以	-10.7879
二義	-10.7879
小吝	-10.7881
無事	-10.7881
皆所以	-10.7884
濟天下之	-10.7885
玩辭	-10.7887
潛龍勿用	-10.7887
相薄	-10.7891
敦復	-10.7892
剝之	-10.7894
能畜	-10.7895
弗過	-10.7896
有求	-10.7897
實而	-10.7903
徙	-10.7905
既平	-10.7905
墮	-10.7906
漫	-10.7906
引之	-10.7909
既濟之時	-10.7909
言君子	-10.791
此一爻	-10.791
者或	-10.7911
聖人之心	-10.7911
禴祭	-10.7911
不受	-10.7911
如人	-10.7913
胡仲虎曰	-10.7915
推易	-10.7915
孚誠	-10.7917
其來	-10.7918
始雖	-10.792
在三	-10.7927
本非	-10.793
五日	-10.7931
其難	-10.7934
所隔	-10.7934
自上而下	-10.7934
正邦	-10.7935
則成	-10.7936
另	-10.7937
從五	-10.7938
由中	-10.7938
㳺	-10.7941
標	-10.7943
一言	-10.7945
否之時	-10.7947
大壮	-10.795
一身之	-10.795
法則	-10.7952
龍之	-10.7954
變艮	-10.7957
典禮	-10.7959
而獲	-10.7963
水也	-10.7963
天之命	-10.7963
蛇	-10.7964
交也	-10.7965
而不通	-10.7967
流通	-10.7969
應也	-10.797
程𫝊	-10.7972
生物之	-10.7972
臨下	-10.7974
摇	-10.7974
顒	-10.7978
擊之	-10.7978
懼其	-10.798
親比	-10.798
東西	-10.7984
以成其	-10.7985
道以	-10.7986
未甞	-10.7987
革而	-10.7989
災眚	-10.7994
四九	-10.7995
洗	-10.7995
參伍	-10.7997
一息	-10.7998
大師	-10.8002
之物也	-10.8002
確然	-10.8003
醫	-10.8005
當從	-10.8007
獲其	-10.8008
瓦	-10.8008
成震	-10.8008
喪朋	-10.8009
艮手	-10.8009
易象	-10.8011
需訟	-10.8011
止言	-10.8011
上說	-10.8015
後之	-10.8015
則无咎也	-10.8017
天地交	-10.802
豹	-10.8024
為六十四	-10.8024
妄也	-10.8025
只有	-10.8029
陽畫	-10.8038
吏	-10.8039
網	-10.8045
巽在牀下	-10.8047
兌澤	-10.8048
而卒	-10.8049
寂然	-10.8049
損其疾	-10.8054
乾以	-10.8054
无所往	-10.8059
四與初	-10.8059
序卦曰	-10.806
不可貞	-10.806
為少陽	-10.8061
為觀	-10.8067
育萬物	-10.8069
兩端	-10.8069
逺於	-10.807
而不進	-10.8071
時義大矣哉	-10.8072
各以其	-10.8072
位當	-10.8077
攷	-10.8077
孰能	-10.8077
之類皆	-10.8079
憚	-10.808
十卷	-10.8081
隂生	-10.8082
詳見	-10.8083
玉鉉	-10.8083
氣質	-10.8084
三公	-10.8091
納婦	-10.8093
才弱	-10.8093
不聞	-10.8093
以事	-10.8094
動極	-10.8099
之弊	-10.8101
剛者	-10.8101
居中而	-10.8105
存疑	-10.8107
殃	-10.8109
此語	-10.8109
柔居	-10.8113
不孤	-10.8113
中溪張氏曰	-10.8113
非人	-10.8117
利於貞	-10.8118
自乾坤	-10.8121
又必	-10.8124
稊	-10.813
以卦體言	-10.8134
曰天	-10.8137
狄	-10.8137
十三卦	-10.8142
簪	-10.8147
烹飪	-10.8148
而得之	-10.8157
通其變	-10.816
勿逐	-10.8161
􁁆(	-10.8162
當其位	-10.8165
有廟	-10.8169
已上	-10.8171
之原	-10.8174
離離	-10.8176
位雖	-10.8176
順則	-10.8177
人臣之	-10.8177
緫	-10.8182
鼓舞	-10.8185
各正性命	-10.8185
故先	-10.8187
侵伐	-10.8188
夫子之	-10.819
大義	-10.8193
不可謂	-10.8195
危矣	-10.8197
不越	-10.82
奪之	-10.8203
兑之	-10.8203
五居尊位	-10.8203
愚曰	-10.8208
風俗	-10.8208
譬如	-10.8209
擬之	-10.821
本有	-10.8212
效法	-10.8212
化成	-10.8215
渉大川	-10.8215
必自	-10.8215
頂	-10.8216
不喪匕鬯	-10.8217
未足	-10.8218
良馬	-10.8221
猶之	-10.8222
莫若	-10.8222
也以此	-10.8222
无尤	-10.8223
多譽	-10.8224
隂陽之氣	-10.8224
劉牧	-10.8227
將有	-10.8227
「	-10.8227
西郊	-10.8228
於上而	-10.823
制度	-10.823
致逺	-10.8231
為明	-10.8231
以柔居剛	-10.8232
隂柔而	-10.8235
名之	-10.8236
有限	-10.8236
處震	-10.8236
而承	-10.8238
有間	-10.8244
二月	-10.8244
以避	-10.825
必能	-10.8251
无初有終	-10.8251
此非	-10.8252
為節	-10.8258
血氣	-10.8261
為主故	-10.8261
亡矣	-10.8263
之象故曰	-10.8264
之由	-10.8264
五居	-10.8265
今乃	-10.8266
知止	-10.827
柔得位	-10.8272
月令	-10.8273
約象	-10.8274
莫不有	-10.8274
雜卦曰	-10.8274
皆因	-10.8275
士夫	-10.8277
剛柔相	-10.8277
神之所為	-10.8277
自天	-10.8281
侍	-10.8281
爻詞	-10.8281
建侯行師	-10.8282
乾一	-10.8282
保合	-10.8283
之過也	-10.8285
止是	-10.8285
立而	-10.8286
逞	-10.8287
概	-10.8287
禍患	-10.8289
求諸	-10.8289
尚可	-10.829
利用刑人	-10.8291
之盛也	-10.8291
本于	-10.8293
筮者	-10.8296
先迷	-10.8297
行其志	-10.83
而化	-10.8304
利居貞	-10.8306
乎哉	-10.8311
大善	-10.8315
福慶	-10.8315
三歳	-10.8315
虚而	-10.8316
子孫	-10.8318
岸	-10.832
晉之	-10.8321
在彼	-10.8322
實理	-10.8322
中虛	-10.8324
爛	-10.8324
五爻皆	-10.8326
羣陽	-10.8326
月幾望	-10.8326
兊之	-10.8328
為之戒	-10.8328
為我	-10.8329
逸豫	-10.833
齋戒	-10.8332
精微	-10.8332
之化	-10.8335
李氏曰	-10.8336
凟	-10.8337
見乎	-10.8337
震來	-10.8338
物者	-10.8339
孔疏	-10.834
中男	-10.8343
乾鑿度	-10.8343
離目	-10.8343
當位而	-10.8349
故其辭	-10.8352
亨字	-10.8352
薪	-10.8354
霸	-10.8355
葢取諸	-10.8356
比初	-10.8356
為六十四卦	-10.8358
香	-10.8359
初隂	-10.8359
凢	-10.8359
觀變	-10.8361
蘇氏曰	-10.8363
多矣	-10.8363
精氣	-10.8364
是以謂之	-10.8364
重之	-10.8368
輔之	-10.8368
龍戰	-10.8369
夫婦之	-10.8374
只在	-10.8375
失中	-10.8375
不可行	-10.8379
吉亨	-10.8379
龍德	-10.838
人之道	-10.8382
可以見	-10.8384
用兵	-10.8385
耒耜	-10.8392
棘	-10.8393
此一爻是言	-10.8393
又按	-10.8394
灼	-10.8395
終不能	-10.8396
跛能履	-10.8396
存之	-10.8397
肇	-10.8397
乾元亨利貞	-10.8398
未可以	-10.8401
其他	-10.8402
泰卦	-10.8409
故夫子	-10.8412
隱伏	-10.8413
與時	-10.8413
兊說	-10.8415
成務	-10.8416
而巽	-10.8418
撝	-10.8419
不亂	-10.842
无所疑	-10.8422
多凶	-10.8423
純坤	-10.8425
陶	-10.8428
榖	-10.8429
翻	-10.8429
居險	-10.843
於世	-10.843
震震	-10.8432
改邑不改井	-10.8432
囘	-10.8432
於正	-10.8433
昵	-10.8433
名曰	-10.8435
非道	-10.844
挂	-10.844
天心	-10.8441
六月	-10.8441
程氏曰	-10.8443
生氣	-10.8446
元者	-10.8447
舍之	-10.845
共濟	-10.845
人之心	-10.8451
堯舜之	-10.8452
事有	-10.8452
任其	-10.8453
中正之德	-10.8454
而无咎也	-10.8454
取于	-10.8454
小人勿用	-10.8454
戀	-10.8455
人文	-10.8455
以辨	-10.8456
也况	-10.8457
感物	-10.8457
而亨也	-10.8458
經曰	-10.8463
矣蓋	-10.8464
三爻變	-10.8465
天衢	-10.8465
躋	-10.8466
堅氷	-10.8466
盍	-10.8467
品物	-10.847
觀我	-10.8472
柔在下	-10.8474
伯夷	-10.8476
君子體	-10.8476
成徳	-10.8477
善而	-10.8479
馬云	-10.8484
一隂一陽之謂道	-10.8484
猶云	-10.8486
為孚	-10.8491
其書	-10.8493
君而	-10.8494
成艮	-10.8495
兑説	-10.8497
者凡	-10.8499
能成	-10.8499
集䟽	-10.8504
成雨	-10.8504
穿鑿	-10.8505
之中有	-10.8505
不可亂	-10.8505
只為	-10.8511
五則	-10.8514
故可以	-10.8514
有失	-10.8515
二三四五	-10.8517
則物	-10.8518
充實	-10.8518
其惡	-10.8523
於險	-10.8524
天下之心	-10.8525
其生	-10.8525
盱	-10.8529
下應九二	-10.8529
坤元	-10.853
大行	-10.8531
本是	-10.8531
波	-10.8533
天地之大義	-10.8533
離為火	-10.8535
隂柔不中正	-10.8536
結繩	-10.8537
蒺藜	-10.8539
臨觀	-10.8539
害君子	-10.854
未順命	-10.854
叢棘	-10.854
也此卦	-10.8541
此乃	-10.8541
不厭	-10.8543
此書	-10.8544
誠實	-10.8545
也人之	-10.8546
似之	-10.8547
居於	-10.8548
者若	-10.855
行有尚	-10.8551
則宜	-10.8553
極盛	-10.8553
易於	-10.8554
之會	-10.8555
獨以	-10.8555
義同	-10.8556
矣葢	-10.8556
兊口	-10.8557
今按	-10.8557
君子處	-10.856
承陽	-10.856
之藴	-10.8562
為悔	-10.8562
井井	-10.8563
矣豈	-10.8563
有終也	-10.8565
中孚小過	-10.8568
几	-10.857
十有五	-10.8572
陸徳明	-10.8572
淪	-10.8572
烹	-10.8573
黄帝堯舜	-10.8573
從其	-10.8574
楊氏	-10.8576
應爻	-10.8579
終亂	-10.858
弗損益之	-10.8581
下句	-10.8582
光大也	-10.8582
為虎	-10.8584
竒數	-10.8585
既得	-10.8588
處旅	-10.8594
不仁	-10.8595
二應五	-10.8599
動以	-10.8602
終凶	-10.8603
九家易曰	-10.8603
師比	-10.8604
粟	-10.8608
給	-10.8608
與夫	-10.8609
以形	-10.8609
當止	-10.8609
繻	-10.861
彌綸	-10.8611
不徒	-10.8612
得其位	-10.8613
嘻嘻	-10.8615
君德	-10.8617
化而	-10.8626
媵	-10.8632
臣妾	-10.8634
渾然	-10.8636
牡	-10.8637
常人	-10.8639
定體	-10.8639
乃吉	-10.8641
其害	-10.8643
相保	-10.8643
社稷	-10.8644
變巽	-10.8645
翟	-10.8645
距	-10.8648
立卦	-10.8649
莫大乎	-10.865
又非	-10.865
其知	-10.865
一偶	-10.8651
百二十	-10.8654
天地人	-10.8658
方可	-10.8659
志在外	-10.8661
雖在	-10.8664
盛則	-10.8664
隂陽和	-10.8667
以類	-10.8668
以承	-10.8669
恒者	-10.867
曲直	-10.8674
大作	-10.8675
熙	-10.8679
行人	-10.8679
春分	-10.8681
䟽	-10.8682
非常之	-10.8683
皆同	-10.8683
夘	-10.8684
釁	-10.8687
然有	-10.8691
濟渙	-10.8691
之流	-10.8692
蔡氏	-10.8695
此等	-10.8697
之所生	-10.8699
隂虚	-10.8699
總論	-10.8702
古易	-10.8702
三索	-10.8702
黄耳	-10.8703
不正之	-10.8708
而加	-10.8709
自成	-10.8711
若有	-10.8713
膏澤	-10.8713
讒	-10.8718
于三	-10.8719
以六	-10.872
退也	-10.8722
初與三	-10.8723
動故	-10.8723
天之道也	-10.8725
於時	-10.8725
偶然	-10.8726
積之	-10.8726
日出	-10.8727
而志	-10.8727
以喻	-10.8727
以察	-10.8728
不恒	-10.8728
之主而	-10.873
於時為	-10.873
易有太極	-10.8731
在險中	-10.8735
卦本	-10.8735
指二	-10.8742
不慎	-10.8743
不專	-10.8746
陽陽	-10.8746
渉川	-10.8748
胎	-10.8752
兩剛	-10.8752
吾身	-10.8752
繼之者善	-10.8754
其私	-10.8754
貞則吉	-10.8756
褫	-10.8758
齋曰	-10.8759
蒙者	-10.876
日進	-10.8761
之中也	-10.8762
髙下	-10.8764
安也	-10.8765
門闕	-10.8765
正秋	-10.8765
睽而	-10.8767
推而	-10.8767
安貞	-10.877
二三四	-10.8772
三與五	-10.8774
不正也	-10.8774
隠伏	-10.8774
以告	-10.8775
陽盛	-10.8775
居下體	-10.8777
威嚴	-10.8777
者固	-10.8781
兌說	-10.8782
亦取	-10.8785
為中	-10.8787
豚	-10.8787
不言吉	-10.8789
觀其所	-10.8789
諭	-10.8791
畢竟	-10.8799
風之	-10.8799
初曰	-10.88
而不復	-10.8804
經緯	-10.8805
聚則	-10.8805
丘氏曰	-10.8806
以安	-10.8811
前進	-10.8812
而不及	-10.8816
盛德	-10.8817
耳非	-10.8819
原本	-10.8821
起于	-10.8822
吉㐫	-10.8823
固結	-10.8824
一切	-10.8826
至明	-10.8828
詭	-10.8829
五五	-10.883
眼	-10.883
剛上柔下	-10.8835
枯楊	-10.8838
无定	-10.8839
疑之	-10.8846
為馬	-10.8847
反目	-10.8848
御天	-10.885
者猶	-10.8851
終无	-10.8858
且以	-10.886
之體也	-10.8861
匿	-10.8862
動作	-10.8863
為止	-10.8864
秘	-10.8865
任之	-10.8866
於其中	-10.8866
械	-10.8868
出處	-10.8871
剛反	-10.8872
朋類	-10.8873
郡	-10.8874
體之中	-10.8874
遂以	-10.8875
陷于	-10.8882
于義	-10.8882
其道窮也	-10.8886
不備	-10.8886
其法	-10.8886
柔巽	-10.8887
戒之以	-10.8893
嘉美	-10.8895
邵子曰	-10.8898
周官	-10.8901
能久	-10.8901
下動	-10.8902
話	-10.8902
蹢躅	-10.8904
裒	-10.8904
豈得	-10.8904
信乎	-10.8905
多言	-10.8906
不可曉	-10.8907
函	-10.891
上畫	-10.8912
初居	-10.8914
乎地	-10.8916
猶曰	-10.8919
无失	-10.8919
剛居	-10.892
胏	-10.8921
宜有悔	-10.8923
為險	-10.8924
存亡	-10.8926
乃无咎	-10.8926
如天	-10.8927
下民	-10.8927
顛頤	-10.8929
憂懼	-10.893
説者	-10.8931
十有二	-10.8933
古之人	-10.8933
不果	-10.8934
同上	-10.8937
敬之	-10.8937
不來	-10.8938
過者	-10.894
衆所	-10.894
中央	-10.8941
最為	-10.8941
弗損	-10.8941
之閒	-10.8942
陽主	-10.8943
以剛居中	-10.8944
槁	-10.8944
南軒	-10.8945
泉峰龔氏曰	-10.8945
也艮	-10.8947
文王所	-10.8951
此處	-10.8954
之性情	-10.8954
一致	-10.8954
禮也	-10.8955
其神	-10.8955
智者	-10.896
其聲	-10.8963
焉耳	-10.8967
戒辭	-10.8968
至尊	-10.8969
比而	-10.8971
五爻變	-10.8971
觀乎	-10.8972
可進	-10.8973
自姤	-10.8976
建安丘氏曰	-10.898
以是而	-10.8981
傲	-10.8981
郎	-10.8982
又是	-10.8986
雜亂	-10.8991
失前禽	-10.8991
在隂	-10.8991
也案	-10.8992
小疵	-10.8993
在淵	-10.8993
至柔	-10.8996
也通曰	-10.8996
剛柔相濟	-10.8997
體仁	-10.8999
這裏	-10.9
甚明	-10.9001
王註	-10.9001
故其象為	-10.9003
吉之道也	-10.9004
利矣	-10.9004
臣子	-10.9006
得宜	-10.9007
未見其	-10.9008
匪孚	-10.9008
附于	-10.9009
當有	-10.9011
或為	-10.9011
為凶	-10.9014
不肖	-10.9014
銳	-10.9017
其外	-10.9017
浩	-10.9018
濟而	-10.9018
大正	-10.9019
貽	-10.9019
以剛陽	-10.9022
復為	-10.9023
南狩	-10.9025
當此之時	-10.9027
隂道	-10.903
作為	-10.9034
睽孤	-10.9034
惠棟	-10.9035
士之	-10.9036
妃	-10.9039
一而已	-10.9039
推原	-10.904
生死	-10.9042
之上而	-10.9043
能履	-10.9043
未易	-10.9043
謙謙	-10.9043
本自	-10.9048
自觀	-10.9048
因時	-10.9049
而不自	-10.9049
應于	-10.9053
之反也	-10.9054
之象又	-10.9054
艮兊	-10.9055
巽而止	-10.9058
小狐	-10.9058
物有	-10.9064
愁	-10.9067
六日七分	-10.9067
非獨	-10.9071
幽明	-10.9072
為姤	-10.9075
生於下	-10.9077
進於	-10.9078
則爲	-10.9079
所守	-10.9083
更有	-10.9084
初筮	-10.9085
原筮	-10.9085
犬	-10.9087
畜陽	-10.9089
世俗	-10.9089
得中道也	-10.9091
四剛	-10.9092
自求口實	-10.9093
朋友講習	-10.9095
譏	-10.9097
屏	-10.9097
太極也	-10.9099
雉膏	-10.9102
不相與	-10.9106
童牛	-10.9107
者歟	-10.9108
既以	-10.9111
而内	-10.9111
孔子釋	-10.9112
而徃	-10.9113
上曰	-10.9116
按此	-10.9118
者莫	-10.9119
襄	-10.9122
養民	-10.9123
乃亨	-10.9124
光亨	-10.9128
繆	-10.9128
所不能	-10.9129
是皆	-10.9131
朱震	-10.9131
未敢	-10.9133
為之主	-10.9133
不能行	-10.9134
纎	-10.9135
指九五	-10.9137
萬物之所	-10.9137
坎窞	-10.9139
汔	-10.9141
南征	-10.9141
之久	-10.9142
決去	-10.9143
寒泉	-10.9143
物皆	-10.9146
祖考	-10.915
誠心	-10.915
行權	-10.9151
能謙	-10.9154
所尚	-10.9154
未大	-10.9155
為仁	-10.9155
乃有	-10.9155
可免	-10.9157
上來	-10.9159
剛直	-10.9159
于易	-10.9161
皆主	-10.9165
之次	-10.9166
夲義	-10.9169
三驅	-10.9169
貎	-10.9171
自坤	-10.9172
勾	-10.9172
柱	-10.9173
之一字	-10.9173
彦	-10.9173
迅	-10.9174
不伐	-10.9175
特以	-10.9175
各得其所	-10.9176
馬壯	-10.9183
貫魚	-10.9183
尚書	-10.9185
當如	-10.9186
公子	-10.9188
自外而	-10.9189
志於	-10.919
不習	-10.919
復則	-10.9191
大有為	-10.9193
不遺	-10.9194
為美	-10.9199
甘節	-10.9199
光武	-10.92
之教	-10.9201
養也	-10.9202
蹄	-10.9205
朋亡	-10.9205
顯諸仁	-10.9206
舉正	-10.9206
無過	-10.9207
之序也	-10.9208
鑒	-10.9208
噬之	-10.9209
饗	-10.921
才徳	-10.921
無有	-10.9211
陽來	-10.9213
之極而	-10.9214
也如是則	-10.9215
縱横	-10.9216
邪正	-10.9218
為九	-10.9218
也故以	-10.9219
地十	-10.9223
非其人	-10.9223
隂消	-10.9226
剥牀	-10.9229
之師	-10.9233
長久	-10.9233
由於	-10.9233
以知	-10.9233
九五剛中	-10.9233
謙也	-10.9234
放此	-10.9236
解散	-10.9236
初雖	-10.9238
漸之	-10.9242
知得	-10.9242
以陽剛居	-10.9243
繹	-10.9244
離中	-10.9245
明照	-10.9245
居于	-10.9246
謨	-10.9247
之候	-10.9248
利永貞	-10.9248
而後言	-10.925
同一	-10.9253
可以為	-10.9257
而推	-10.9264
艮為止	-10.9264
遂成	-10.9267
孚者	-10.9267
損己	-10.9269
嫌於	-10.9272
無以	-10.9272
異而	-10.9274
可畏	-10.9278
後有	-10.9279
此三者	-10.928
矣且	-10.9283
歸竒	-10.9284
秩	-10.9285
為老陽	-10.9286
承上文	-10.9286
其𩔖	-10.9287
得九	-10.9287
膠	-10.9287
猜	-10.9287
二五相應	-10.9288
有獲	-10.929
副	-10.9291
動乎險中	-10.9292
三四皆	-10.9292
田獵	-10.9293
而觀之	-10.9297
之基	-10.9297
居上而	-10.9299
之㣲	-10.93
節者	-10.9303
當否	-10.9304
麗于	-10.9305
之累	-10.9305
推廣	-10.9305
又取	-10.9308
坤象	-10.931
不見其人	-10.9312
大衍之數五十	-10.9313
孟子所謂	-10.9314
不得而	-10.9318
蓍數	-10.932
自用	-10.9321
衷	-10.9323
曵	-10.9324
雖曰	-10.9325
染	-10.9325
居剛	-10.9325
占筮	-10.9327
需者	-10.9327
天一地二	-10.9327
踈	-10.9329
旱	-10.9329
金柅	-10.9329
艮為門闕	-10.933
有隕自天	-10.933
不幸	-10.9332
常道	-10.9332
氏云	-10.9333
六二柔順中正	-10.9341
照天下	-10.9341
不離	-10.9342
故利	-10.9344
初動	-10.9349
今觀	-10.935
無心	-10.935
有攸徃	-10.9354
繫辭焉	-10.9356
在坎	-10.9357
則見	-10.9359
貞疾	-10.936
五陰	-10.9361
吝嗇	-10.9364
臆	-10.9365
佑	-10.9366
臲卼	-10.9367
罹	-10.9368
懈	-10.937
无所利	-10.9373
希夷	-10.9373
火傳曰	-10.9374
四曰	-10.9381
柔故	-10.9383
内有	-10.9383
繫於	-10.9384
為寇	-10.9386
同然	-10.9388
截然	-10.9391
心之所	-10.9393
吉而悔亡	-10.9396
焉故曰	-10.9399
作易者	-10.9399
畏懼	-10.94
治家	-10.94
八卦之象	-10.9401
遣	-10.9402
𧰼傳	-10.9402
為風	-10.9403
亦惟	-10.9404
俞氏	-10.9406
稚	-10.9406
憲	-10.9406
婚姻	-10.9408
之語	-10.9408
廉	-10.9409
盈而	-10.9409
並受其福	-10.9411
不能成	-10.9413
者天地之	-10.9417
置之	-10.9418
消息盈虚	-10.9419
執一	-10.9424
震陽	-10.9425
貞正也	-10.9425
居君位	-10.9425
制其	-10.9427
以待之	-10.9427
者夫	-10.9427
起而	-10.9428
在下位	-10.9429
无終	-10.943
也孔子	-10.9431
必曰	-10.9434
震而	-10.9439
裁制	-10.9439
熹	-10.944
而不知變	-10.9441
安處	-10.9443
堅冰	-10.9444
之理故	-10.9445
出師	-10.9447
浹	-10.9448
甕	-10.9448
于乾	-10.9449
佚	-10.9449
有孚攣如	-10.9449
乃所以為	-10.945
天三	-10.9454
踐履	-10.9458
上下之交	-10.9459
能動	-10.9459
三四五	-10.946
法天	-10.9461
之常也	-10.9462
終焉	-10.9462
百官	-10.9463
乎象曰	-10.9465
弗克	-10.9466
過盛	-10.9467
利渉	-10.9467
箕子之	-10.9468
變爻	-10.9468
學之	-10.947
及于	-10.9472
如人之	-10.9473
而何	-10.9474
上達	-10.9474
從王事	-10.9474
變成	-10.9477
闚觀	-10.9479
恣	-10.948
塵	-10.9482
蔓	-10.9484
慝	-10.9486
當為	-10.9487
二十七	-10.9487
絪緼	-10.9488
勿用有攸往	-10.9491
次且	-10.9491
以情	-10.9492
无思	-10.9492
翰音	-10.9492
於乾坤	-10.9493
所以爲	-10.9493
一陽生	-10.9496
成乾	-10.9498
亦謂	-10.9499
濟矣	-10.9504
之重	-10.9505
成湯	-10.9506
久也	-10.9513
之大也	-10.9514
中畫	-10.9514
离為	-10.9514
康成	-10.9517
眞	-10.9519
稟	-10.9521
險陷	-10.9521
席	-10.9522
至徳	-10.9525
躡	-10.9526
心亨	-10.9527
盥而不薦	-10.9528
隂極	-10.9528
當革	-10.9531
模	-10.9531
不變者	-10.9532
才不足	-10.9532
已極	-10.9532
久矣	-10.9532
左旋	-10.9533
老子	-10.9535
終不可	-10.9537
大觀在上	-10.9537
性善	-10.9538
易理	-10.9543
失其道	-10.9545
小過之	-10.9546
離羣	-10.9547
九疇	-10.955
萬變	-10.9552
无虞	-10.9554
不能違	-10.9555
以身	-10.9556
吁	-10.9561
胡雲峯曰	-10.9563
不亦宜乎	-10.9566
苞桑	-10.9567
動必	-10.9568
無間	-10.9572
一陽在上	-10.958
為比	-10.9583
正所謂	-10.9584
程氏	-10.9588
生長	-10.9589
必大	-10.9591
蹇之時	-10.9593
夫以	-10.9593
裏面	-10.9594
危亡	-10.9595
紫	-10.9599
必反	-10.96
在事	-10.96
大臣之位	-10.9603
履霜堅氷	-10.9605
虛中	-10.9606
形而下者	-10.9606
手足	-10.9609
之吉凶	-10.961
近比	-10.9611
在險	-10.9611
則所謂	-10.9615
欽定四庫全書周易	-10.9616
也易曰	-10.9616
物不可以終	-10.9617
於人也	-10.9618
在旅	-10.9619
六二中正	-10.962
朱氏	-10.9623
隨蠱	-10.9625
三陽之	-10.9626
未出	-10.9627
定矣	-10.9629
為先	-10.9634
用罔	-10.9634
柔暗	-10.9635
則失其	-10.9636
與地	-10.9638
菴	-10.9643
已盡	-10.9645
邦國	-10.9645
天下之難	-10.9645
恬	-10.9645
耀	-10.9646
睽乖	-10.9646
有悔也	-10.9647
飛龍在天	-10.9648
无實	-10.965
禦寇	-10.965
老陰	-10.9651
七百	-10.9651
爻中	-10.9651
故孔子	-10.9651
鼫鼠	-10.9651
无交害	-10.9652
以明之	-10.9653
鴻之	-10.9654
自二	-10.9657
也不然	-10.9661
窮則	-10.9661
相克	-10.9661
誤作	-10.9665
處憂患	-10.9666
過乎中	-10.9667
周旋	-10.9668
竄	-10.9674
三雖	-10.9678
有眚	-10.9679
畫八卦	-10.9679
思之	-10.9679
下濟	-10.968
震驚百里	-10.9681
純一	-10.9682
柅	-10.9682
盟	-10.9682
縻	-10.9682
後來	-10.9683
韋	-10.9684
九宫	-10.9689
雖是	-10.969
能通	-10.969
過極	-10.9691
禮之	-10.9691
聖人所	-10.9693
包蒙	-10.9694
道德	-10.9695
丁寧	-10.9695
門人	-10.9697
竊謂	-10.9697
成於	-10.9697
自泰來	-10.97
古本	-10.9708
此四者	-10.9709
晁氏曰	-10.971
隂方	-10.9713
方有	-10.9714
亦得	-10.9714
係于	-10.9719
纒	-10.9725
震為雷	-10.9725
至變	-10.9728
七九	-10.973
自四	-10.973
寶	-10.9731
必不能	-10.9731
簡易	-10.9731
未然	-10.9732
語録曰	-10.9732
為師	-10.9733
元吉也	-10.9733
虞義也	-10.9734
震主	-10.9738
兼山	-10.9739
終之以	-10.9739
所論	-10.974
之民	-10.9741
將至	-10.9746
取新	-10.9746
固是	-10.9746
相背	-10.9747
必當	-10.9751
窮矣	-10.9756
三揲	-10.9757
家人之	-10.9758
之心也	-10.976
潤下	-10.9762
得乾	-10.9763
不患	-10.9764
䑕	-10.9764
三分	-10.9764
皆是也	-10.9765
穆姜	-10.9765
致寇	-10.9767
憤	-10.9767
逺也	-10.9768
鈎	-10.9769
所係	-10.977
屈信	-10.9771
儆	-10.9772
曳輪	-10.9772
初生	-10.9773
順乎剛	-10.9774
互坤	-10.9779
百五十	-10.978
上比	-10.9783
治人	-10.9786
䷛(	-10.9787
䇿數	-10.9788
及之	-10.979
繫辭傳	-10.9793
乾始	-10.9796
而分	-10.9799
方始	-10.9802
隂陽交	-10.9802
志窮	-10.9804
恨	-10.9807
揉	-10.9807
響	-10.9807
為雲	-10.9809
脈	-10.9811
相取	-10.9811
乂	-10.9811
情狀	-10.9814
不親	-10.9814
有二義	-10.9816
以陰柔	-10.9816
西鄰	-10.9816
趨避	-10.9818
柔剛	-10.9819
推而行之	-10.982
委任	-10.9821
也故有	-10.9823
豫之時	-10.9823
次之	-10.9824
艮象	-10.9825
之才而	-10.9826
後夫	-10.9827
遇剛	-10.983
為常	-10.9831
公侯	-10.9832
也愚曰	-10.9835
所以得	-10.9835
立廟	-10.9837
卦之體	-10.9839
誠以	-10.984
賢才	-10.984
不習无不利	-10.9846
服之	-10.9846
倉	-10.9847
朱漢上曰	-10.9848
雙	-10.9848
劓刖	-10.9849
朱紱	-10.9849
陽為大	-10.9849
去而	-10.9851
展	-10.9852
入地	-10.9854
天下之物	-10.9854
相為用	-10.9854
勿憂	-10.9855
兌口	-10.9857
其命	-10.9857
以象言之	-10.9858
䷘(	-10.9859
二七	-10.986
自謂	-10.9869
一陰一陽	-10.987
哉故曰	-10.9871
用之以	-10.9872
䷡(	-10.9873
合一	-10.9876
敦臨	-10.9878
遯者	-10.9881
能安	-10.9884
加憂	-10.9886
嗜	-10.9888
廷	-10.9888
生生之謂易	-10.9888
洩	-10.9888
直以	-10.9889
平菴項氏曰	-10.9891
自居	-10.9892
合而為	-10.9892
終有	-10.9893
前有	-10.9893
零	-10.9893
見龍在田	-10.9893
之圖	-10.9894
進德	-10.9896
九居二	-10.9897
不興	-10.9898
兩地	-10.9899
堅固	-10.9899
本乎	-10.99
又何咎	-10.99
者唯	-10.9907
天下有	-10.9909
宜下	-10.991
解之時	-10.991
參天	-10.9911
遯之時	-10.9912
無常	-10.9913
之地而	-10.9913
之謂乎	-10.9921
以益下	-10.9924
戈	-10.9926
積而	-10.9926
制作	-10.9927
漁	-10.9928
貞悔	-10.9928
矣盖	-10.993
天道也	-10.993
豶	-10.9931
貶	-10.9931
元也	-10.9932
盛極	-10.9932
不留	-10.9932
蘓	-10.9933
低	-10.9934
隂過	-10.9934
之純	-10.9935
牽連	-10.9935
伏羲畫卦	-10.9936
一意	-10.9939
安排	-10.9943
四亦	-10.9943
而不相	-10.9943
則萬物	-10.9945
各一	-10.9945
得中故	-10.9951
相配	-10.9951
以漸而	-10.9952
無不利	-10.9957
辨其	-10.9959
和而	-10.9959
為臨	-10.9959
柔外	-10.9961
氣象	-10.9961
刀	-10.9966
有妄	-10.9966
一貫	-10.9969
孚於	-10.997
社	-10.9973
主利	-10.9974
君命	-10.9976
四十有九	-10.9978
孽	-10.9978
將何	-10.998
聽之	-10.9981
柔履剛	-10.9984
全是	-10.9986
地下	-10.9987
索索	-10.9988
天之所	-10.9993
則害	-10.9993
一周	-10.9994
五十有五	-10.9995
尚何	-10.9995
與衆	-10.9995
所以行	-10.9997
未嘗有	-11
制禮	-11.0004
亾	-11.0006
不待言	-11.0008
以卦變	-11.0009
直言	-11.0011
究其	-11.0011
吉凶者	-11.0012
天尊地卑	-11.0013
出則	-11.0014
守中	-11.0015
輒	-11.0016
並行	-11.0019
稱名	-11.002
屢遷	-11.0023
䷙(	-11.0024
居上位	-11.0025
千萬	-11.0029
為陰	-11.003
好惡	-11.0031
受之以	-11.0034
學蒙	-11.0038
此圖	-11.004
者因	-11.0041
復反	-11.0045
讀為	-11.0045
行其道	-11.0049
急於	-11.0052
刑獄	-11.0053
經傳	-11.0053
富家	-11.0054
於進	-11.0054
柔者	-11.0055
聨	-11.0056
利字	-11.0056
斯民	-11.0059
謂九五	-11.006
正如	-11.0062
人之情	-11.0065
不敗	-11.0066
之路	-11.0068
彖辭曰	-11.0069
乎二	-11.0071
澤下	-11.0071
䷌(	-11.0072
九二之剛	-11.0074
春秋傳	-11.0075
所致	-11.0075
陳氏	-11.0076
未濟之時	-11.0077
殺牛	-11.0078
並語	-11.0079
无交	-11.0079
六爻之義	-11.008
而占	-11.008
失於	-11.0081
无益	-11.0083
逺者	-11.0084
䘮其	-11.0087
不自失	-11.009
三隂三陽	-11.0091
消陽	-11.0091
出否	-11.0091
可以有為	-11.0094
震足	-11.0094
挺	-11.0094
餗	-11.0096
其終也	-11.0096
已日乃孚	-11.0097
𤓰	-11.0098
只得	-11.0098
不直	-11.0098
荆	-11.01
聖人之所	-11.0102
巽為繩	-11.0103
壯而	-11.0104
大意	-11.0105
能守	-11.0106
至靜	-11.0107
上下兩	-11.0107
束帛	-11.0107
復自道	-11.0109
周公繫	-11.0113
順時	-11.0114
昭然	-11.0114
地氣	-11.0119
无用	-11.0122
此章言	-11.0122
庶乎	-11.0123
利乎	-11.0125
參兩	-11.0125
而不中	-11.0125
陽極	-11.0126
萬物之情	-11.0129
生出	-11.013
旉	-11.0137
渡	-11.0141
處事	-11.0142
親切	-11.0142
止健	-11.0144
天地之中	-11.0144
十卦	-11.0147
巽巽	-11.0147
隂在下	-11.0148
者陽之	-11.015
二少	-11.015
食之	-11.015
疏云	-11.0153
推其	-11.0155
其内	-11.0162
之小者	-11.0162
不離乎	-11.0166
旅人	-11.0166
艮巽	-11.0169
難也	-11.017
則難	-11.0172
可推	-11.0176
君子能	-11.0177
損上	-11.0178
乾象	-11.0181
无悶	-11.0182
雖處	-11.0184
虐	-11.0185
老夫	-11.0185
恊	-11.0186
陽性	-11.0188
乾三	-11.0189
奉上	-11.0193
䷼(	-11.0195
之道也故	-11.0195
往蹇	-11.0197
饋	-11.0197
正而吉	-11.0198
深入	-11.0203
記曰	-11.0204
在外而	-11.0206
德業	-11.0206
而我	-11.0207
震木	-11.0207
為惡	-11.021
之易也	-11.0213
啟蒙	-11.0214
域	-11.0215
革之時	-11.0218
之衆	-11.0219
而失其	-11.0219
何者	-11.0219
皆稱	-11.0225
荷	-11.0225
矩	-11.0226
池	-11.0226
髙大	-11.0227
惰	-11.0227
麟	-11.0227
以木	-11.0229
先有	-11.0231
配天	-11.0233
剛德	-11.0234
䷈(	-11.0236
得意	-11.0236
成列	-11.0236
无由	-11.0237
也紫陽朱子曰	-11.0237
好爵	-11.0237
只就	-11.0238
降而	-11.0238
隂陽老少	-11.024
則安	-11.0243
女妻	-11.0245
在上則	-11.0245
言動	-11.0246
三品	-11.0246
之主爻	-11.025
十數	-11.0251
上下不交	-11.0252
初无	-11.0254
一人之	-11.0254
正所以	-11.0255
得亨	-11.026
只是一箇	-11.0262
五亦	-11.0262
參之	-11.0262
剛決	-11.0264
志行也	-11.0264
皆欲	-11.0266
順以巽	-11.0267
畔	-11.0268
贅	-11.0269
無疑	-11.0269
胡氏炳文曰	-11.0269
剛爻	-11.027
不可言	-11.0271
兼言	-11.0273
贏	-11.0273
不勞	-11.0273
登天	-11.0276
固已	-11.0276
不可勝	-11.0277
為之也	-11.0278
享祀	-11.0279
謂九二	-11.028
其交	-11.028
待其	-11.0286
後夫凶	-11.0289
不孕	-11.0293
為治	-11.0293
以中道	-11.0294
安身	-11.0294
換	-11.0296
之木	-11.0296
通矣	-11.0298
崇髙	-11.0299
全其	-11.0302
瑣瑣	-11.0305
傾否	-11.0308
順徳	-11.0309
八十一	-11.031
自立	-11.0311
殊不知	-11.0311
)□	-11.0312
葛	-11.0313
邉	-11.0313
知至	-11.0316
退聽	-11.0317
童觀	-11.0318
剥陽	-11.0319
萬民服	-11.0321
難矣	-11.0321
於小人	-11.0321
明明	-11.0321
巽為風	-11.0322
一說	-11.0322
名義	-11.0324
漸漸	-11.0326
文武	-11.0327
貞字	-11.0332
不懼	-11.0335
之慶	-11.0335
加之	-11.0337
所聚	-11.0342
是也有	-11.0344
焉夫	-11.0345
牝馬之貞	-11.0346
耳若	-11.0348
載物	-11.035
龜山	-11.0351
首尾	-11.0352
藏諸用	-11.0353
湛	-11.0354
三剛	-11.0354
仰觀俯察	-11.0354
績	-11.0355
好遯	-11.0358
悔可亡	-11.0358
不能勝	-11.0358
峙	-11.036
不敢自	-11.0365
數十	-11.0365
致福	-11.0365
无應而	-11.0367
金木	-11.0368
體乾	-11.0374
乾為首	-11.0377
神化	-11.0379
孰為	-11.0385
故其占為	-11.0386
下流	-11.0386
欲速	-11.0387
謂之神	-11.0388
乃得无咎	-11.0389
應於五	-11.0391
而已故曰	-11.0391
軒	-11.0394
兒	-11.0394
榦	-11.0396
緣	-11.0397
已見	-11.0398
渥	-11.0399
其歸	-11.0401
徐氏	-11.0402
與時行	-11.0405
不屈	-11.0405
各居	-11.0405
散也	-11.041
隂陽各	-11.041
可醜	-11.0411
婦道	-11.0414
火在天上	-11.0415
不解	-11.0417
防其	-11.0417
化生	-11.0419
則愈	-11.042
輔相	-11.042
故其占如此	-11.0421
止矣	-11.0423
又誰咎	-11.0423
太甲	-11.0423
不倦	-11.0428
道心	-11.0429
剥復	-11.0431
下繫	-11.0435
志在君	-11.0436
致知	-11.0439
望之	-11.0441
最逺	-11.0442
性命之理	-11.0442
秋分	-11.0442
誓	-11.0444
程可久曰	-11.0444
矣又曰	-11.0445
近五	-11.0445
倣此	-11.0445
生蓍	-11.0447
三在	-11.045
幾微	-11.0452
棟隆	-11.0455
從道	-11.0462
取象於	-11.0462
神道	-11.0465
一語	-11.0468
固不可	-11.047
中正之位	-11.0474
每卦	-11.0474
見惡人	-11.0475
互兌	-11.0476
體柔	-11.0479
有亨道	-11.0479
大觀	-11.048
信任	-11.048
淑	-11.0483
為冦	-11.0487
參同契	-11.0487
渙其羣	-11.0488
升也	-11.0488
涯	-11.0489
大亨而	-11.0489
泄	-11.049
陽數	-11.0491
也苟	-11.0495
故悔亡	-11.0498
百九十二	-11.0499
不暇	-11.05
然猶	-11.05
本坤	-11.0501
水性	-11.0505
焉然	-11.0505
於卦為	-11.0506
項氏	-11.0508
見斗	-11.051
自上而	-11.051
安矣	-11.0512
君父	-11.0515
宴	-11.0518
雍曰	-11.0518
雷雨作	-11.0518
三十日	-11.0519
所以无咎	-11.0519
所值	-11.052
瘠	-11.0526
是道	-11.053
自其	-11.053
居近君之位	-11.0531
止有	-11.0531
表裏	-11.0532
煥	-11.0534
致養	-11.0534
照臨	-11.0536
震懼	-11.0541
為變	-11.0541
本諸	-11.0542
飛而	-11.0544
䷍(	-11.0545
重於	-11.0546
女歸吉	-11.0548
或以為	-11.0549
成終	-11.0551
兩畫	-11.0551
不孚	-11.0553
而求之	-11.0558
凡三	-11.0562
大公	-11.0563
二年	-11.0566
无所用	-11.0568
知㡬	-11.0568
陽變隂	-11.0568
潘	-11.057
障	-11.0572
僣	-11.0572
不速	-11.0573
迨	-11.0574
㓜	-11.0575
困于酒食	-11.0575
不遷	-11.0576
無位	-11.0579
一索	-11.058
五柔	-11.0581
易經	-11.0581
乾為馬	-11.0581
更无	-11.0582
熏	-11.0584
生木	-11.0586
順以動	-11.0589
䷔(	-11.059
旅之時	-11.0591
或言	-11.0592
亦不過	-11.0594
䷽(	-11.0596
上變	-11.0598
坎爲	-11.0607
終吉也	-11.0607
而有功	-11.0608
謂隂	-11.0609
衆心	-11.0611
駁	-11.0613
湯武之	-11.0614
不如是	-11.0616
腎	-11.0617
朴	-11.0617
宫人	-11.0619
寢	-11.0619
矣是故	-11.0619
酬酢	-11.062
飲食宴樂	-11.0621
萬有一千五百二十	-11.0621
自明	-11.0622
窮神知化	-11.0623
滛	-11.0623
刲羊	-11.0625
明兩作	-11.0626
之理而	-11.0627
得中正	-11.0629
下生	-11.063
爻為主	-11.063
噬嗑之	-11.0633
䷵(	-11.0634
飾也	-11.0635
十有八	-11.0639
事上	-11.064
與上六	-11.0641
先甲後甲	-11.0641
求賢	-11.0646
幸其	-11.0649
字義	-11.0649
當如此	-11.0651
主于	-11.0652
化為	-11.0652
乃成	-11.0654
六經	-11.0655
則不至於	-11.0657
无妄之災	-11.066
潤澤	-11.0661
剛中而	-11.0661
兌為口	-11.0661
不外乎	-11.0662
拱	-11.0665
柔爻	-11.0665
太公	-11.0665
看得	-11.0666
守其正	-11.0668
三人	-11.0669
就其	-11.0671
時乎	-11.0672
誠之	-11.0674
掣	-11.0676
馮氏椅曰	-11.0677
大功	-11.0677
但當	-11.0681
多懼	-11.0683
伐之	-11.0688
出震	-11.0691
不快	-11.0692
趨時	-11.0693
事物之	-11.0693
隂陽消長	-11.0697
也大抵	-11.0699
剛中之徳	-11.0699
順行	-11.0701
之功用	-11.0701
有自然之	-11.0702
籍	-11.0708
現	-11.0708
可信	-11.0708
貴于	-11.0708
介于石	-11.0709
始得	-11.0709
以氣言	-11.0709
夫妻反目	-11.0711
潘氏曰	-11.0711
申言	-11.0712
動止	-11.0713
反生	-11.0713
坤初	-11.0713
出入无疾	-11.0715
曳其輪	-11.0716
以前民用	-11.0716
聲色	-11.0717
聲音	-11.0717
利幽人之貞	-11.0719
足以盡	-11.0721
兊為口	-11.0723
故利有攸往	-11.0724
震象	-11.0726
四畫	-11.0727
䷾(	-11.073
畜君	-11.073
坤為牛	-11.0733
蹇蹇	-11.0749
欣	-11.075
雙湖先生曰	-11.0751
節制	-11.0752
上天下澤	-11.0755
砥	-11.0756
百六十	-11.0757
君臣上下	-11.0761
到那	-11.0761
易說	-11.0762
筮之遇	-11.0762
再索	-11.0762
貞勝	-11.0763
有子	-11.0764
養聖賢	-11.0766
釋之曰	-11.0766
得吉也	-11.0769
皆吉	-11.0771
多少	-11.0771
小利有攸往	-11.0773
卦之才	-11.0774
聽訟	-11.0774
此二句	-11.0776
在下卦之上	-11.0779
有渝	-11.0779
上句	-11.0779
能保其	-11.0782
汲汲	-11.0782
解難	-11.0784
得名	-11.0784
用大牲	-11.0785
以和	-11.0787
火炎上	-11.0787
交于	-11.0788
時節	-11.0789
不須	-11.0791
所以凶也	-11.0792
至極	-11.0793
鳴豫	-11.0794
黎	-11.0798
為説	-11.0799
俊	-11.0801
艮兌	-11.0802
和平	-11.0802
謟	-11.0802
于己	-11.0803
利用侵伐	-11.0803
㧞	-11.0804
進徳修業	-11.0804
或躍	-11.0805
其畫	-11.0807
萬里	-11.0808
之大用	-11.0811
易之理	-11.0811
其悔	-11.0814
何疑	-11.0817
得其宜	-11.0821
矣而又	-11.0821
在乾	-11.0821
之心而	-11.0821
盛之時	-11.0822
莫知其	-11.0823
健行	-11.0825
而不動	-11.0828
屬之	-11.083
上下之分	-11.0831
筮之	-11.0831
在心	-11.0831
為遯	-11.0832
上六居	-11.0832
莫益之	-11.0832
其國	-11.0834
君子有終	-11.0835
卦之終	-11.0836
來反	-11.0836
射之	-11.0836
耳然	-11.0837
豈惟	-11.0839
作用	-11.0842
徑路	-11.0846
孰不	-11.0846
夭	-11.0846
寘	-11.0847
可以濟	-11.0848
黄裳元吉	-11.0849
非若	-11.0853
爲主	-11.0855
輝光	-11.0855
文徳	-11.0856
亦同	-11.0858
不利君子貞	-11.0858
妙用	-11.0858
姚信	-11.086
道窮	-11.0861
非其所	-11.0861
救之	-11.0861
為隂所	-11.0861
亦未嘗	-11.0862
用缶	-11.0863
敦艮	-11.0863
以至于	-11.0865
有善	-11.0867
史記	-11.087
君子體之	-11.087
卦之初	-11.0872
遇坎	-11.0872
陽道	-11.0873
所以養	-11.0874
大易	-11.0879
及乎	-11.0881
元年	-11.0881
退藏	-11.0882
謙者	-11.0884
以理言	-11.0885
地二	-11.0887
分曉	-11.0887
以正道	-11.0888
蘇蘇	-11.0888
誕	-11.0889
般	-11.0889
求濟	-11.0892
勲	-11.0892
剛實	-11.0893
屯其膏	-11.0897
執之	-11.0897
樂天	-11.0898
之故也	-11.09
中行獨復	-11.09
下坎上	-11.0902
俞琰	-11.0903
在上為	-11.0903
鄭作	-11.0904
息矣	-11.0904
在下故	-11.0909
為澤	-11.0911
夬決	-11.0912
涵養	-11.0915
朱子云	-11.0916
其占為	-11.092
故吉也	-11.0921
書之	-11.0922
蒙昧	-11.0927
以處之	-11.0927
公曰	-11.0927
在下為	-11.0931
一六	-11.0931
睽之時	-11.0933
乾徳	-11.0933
溥	-11.0934
幾望	-11.0935
奴	-11.0935
浪	-11.0935
雙湖胡氏曰	-11.0936
皇極	-11.0936
覽	-11.0938
冽	-11.0938
為鬼	-11.0939
也若以	-11.0943
在上故	-11.0949
臣下	-11.0949
清明	-11.095
正言	-11.095
自否來	-11.0952
説易	-11.0952
協力	-11.0953
即次	-11.0954
育徳	-11.0955
䷣(	-11.0955
非其正	-11.0955
不可長	-11.0956
二卦皆	-11.0956
之學也	-11.0957
一行	-11.0958
苟能	-11.0959
以養人	-11.096
也古者	-11.096
以天下	-11.0961
此豈	-11.0963
不節	-11.0964
成萬物	-11.0967
所適	-11.0968
以柔居尊	-11.097
極數	-11.0971
要終	-11.0971
誠齋曰	-11.0972
以二五	-11.0973
如屯	-11.0976
他爻	-11.0977
二者皆	-11.0978
近取諸身	-11.098
鑄	-11.098
自五	-11.0981
茫	-11.0981
何事	-11.0983
各當其	-11.0984
城復于隍	-11.0985
不覿	-11.0989
不以為	-11.0989
不死	-11.0989
朋從爾思	-11.099
六十四卦三百八十四爻	-11.0993
欲進而	-11.0994
志應	-11.0999
而不息	-11.1
為政	-11.1002
麗澤	-11.1005
能如是	-11.1006
人道之	-11.1009
也如此則	-11.1011
其宜也	-11.1013
乎天地	-11.1013
著見	-11.1017
也嗚呼	-11.1018
鳥之	-11.1023
諧	-11.1025
射雉	-11.1027
廓	-11.1028
果蓏	-11.1028
輸	-11.1029
右明爻義	-11.1029
曰吉	-11.103
之流行	-11.103
則危	-11.1031
以六爻	-11.1031
枝葉	-11.1032
入于坎窞	-11.1034
惟君子	-11.1036
黄中色	-11.1036
六五以柔	-11.1038
昏暗	-11.1041
八卦相錯	-11.1042
導之	-11.1049
所貴	-11.105
極深	-11.1052
守常	-11.1052
牀下	-11.1057
各得其正	-11.1057
千三百	-11.1059
人知	-11.1062
足以當之	-11.1066
方且	-11.1068
小成	-11.1073
易從	-11.1074
咨	-11.1074
其施	-11.1076
征則凶	-11.1076
黄鍾	-11.1076
卦爻之辭	-11.1081
而得吉	-11.1084
有孚而	-11.1085
傷於	-11.1085
无體	-11.1087
盧	-11.1087
亨小	-11.1087
柔邪	-11.1087
其所以為	-11.1088
為少隂	-11.109
一定之	-11.1092
蓋言	-11.1092
順天命	-11.1094
不甚	-11.1094
以二體	-11.1098
金夫	-11.1099
所向	-11.1102
益人	-11.1103
有害	-11.1103
異者	-11.1107
謂五也	-11.1107
亢龍	-11.111
隂主	-11.111
天祐	-11.111
志未得	-11.1113
攣如	-11.1113
先儒以	-11.1113
萬古	-11.1115
未分	-11.1115
南面	-11.1116
而始	-11.1118
逖	-11.1119
區	-11.112
无人	-11.1124
件	-11.1125
配天地	-11.1128
師出以律	-11.1128
主器	-11.1129
悔者	-11.113
君子有	-11.113
㛰媾	-11.1131
之源	-11.1133
鼎耳	-11.1134
是以凶也	-11.1134
而今	-11.1135
功名	-11.1137
䷤(	-11.1139
以奉	-11.114
將去	-11.114
相攻	-11.1142
至理	-11.1142
於下而	-11.1143
莫先	-11.1146
今本	-11.1147
退則	-11.1148
之大者也	-11.1148
九五之君	-11.1149
不可无	-11.115
漸歸妹	-11.1152
無極	-11.1157
吕氏	-11.1157
夏商	-11.1166
亘	-11.1166
巨	-11.1167
凡四	-11.1168
成之者性	-11.1168
技	-11.1169
狥	-11.1171
滅鼻	-11.1176
得正而	-11.1179
以存	-11.118
字從	-11.1182
二卷	-11.1182
䷿(	-11.1183
何所不	-11.1185
反復其道	-11.1186
或擊之	-11.1188
以卦變言	-11.119
易之道也	-11.1193
固非	-11.1194
當然也	-11.1195
産	-11.1195
發而	-11.1195
見龍	-11.12
小人亦	-11.12
君民	-11.12
凶象曰	-11.1203
一旦	-11.1203
觀彖	-11.1209
嚴君	-11.121
善道	-11.1211
柔道	-11.1211
㬊淵録	-11.1213
偹	-11.1213
為兑	-11.1213
利物	-11.1214
萬物之生	-11.1214
壁	-11.1214
耽	-11.1214
為母	-11.1214
之為義	-11.1215
之志也	-11.1216
不達	-11.1216
檢	-11.1216
匪其彭	-11.1216
猶是	-11.1216
外比	-11.1217
所繫	-11.1217
以剛居上	-11.1217
臨事	-11.1218
食也	-11.1221
常道也	-11.1223
物之所	-11.1223
大㫖	-11.1226
先天之	-11.1229
重坎	-11.1231
孟喜	-11.1232
易道之	-11.1239
順承天	-11.1239
終不可用	-11.1241
易見	-11.1242
不義	-11.1248
對曰	-11.1248
則小人	-11.1249
不足以盡	-11.1249
所餘	-11.1254
上下應之	-11.1257
四爻變	-11.1257
復姤	-11.126
而況	-11.126
震來虩虩	-11.1261
天地萬物之情	-11.1262
仁義禮智	-11.1262
崇德	-11.1263
効	-11.1265
史巫	-11.1267
班如	-11.1267
京氏	-11.1268
紂之	-11.1268
失實	-11.1269
哉此	-11.127
然後為	-11.1271
孚號	-11.1271
最難	-11.1273
以至誠	-11.1274
治道	-11.1276
故占者	-11.1279
藏往	-11.1284
巽伏	-11.129
考其	-11.1293
近君之位	-11.1294
異同	-11.1295
漸長	-11.1296
曲成	-11.1296
以不正	-11.1305
借為	-11.1305
送	-11.1307
楷	-11.1311
翁	-11.1312
需于泥	-11.1314
不正故	-11.1315
善用	-11.1317
有其位	-11.1318
臣民	-11.132
非正也	-11.1321
䷽	-11.1321
不貳	-11.1323
相隨	-11.1324
也此言	-11.1324
險而止	-11.1327
勿疑	-11.1329
僅能	-11.133
變化之道	-11.133
躁進	-11.1334
齊家	-11.1334
亦因	-11.1335
間斷	-11.1337
不耕	-11.134
自能	-11.1342
散之	-11.1343
省方	-11.1345
出乎險	-11.1352
阜	-11.1356
鼎實	-11.1357
所傳	-11.1357
衣裳	-11.1359
沮	-11.1359
裘	-11.136
幣	-11.1361
儒者	-11.1361
為兊	-11.1363
其鄰	-11.1363
滅頂	-11.1363
甘臨	-11.1363
揚于王庭	-11.1364
利用安身	-11.1365
䷾	-11.1366
形器	-11.1366
往來井井	-11.1366
邅	-11.1367
勉强	-11.1368
趙汝楳	-11.1369
爻之變	-11.1371
之計	-11.1372
得喪	-11.1372
于理	-11.1375
來氏	-11.1377
取象于	-11.1379
静也	-11.1381
也易之	-11.1384
首章	-11.1385
艱險	-11.1385
卦之所以為	-11.1385
未通	-11.1386
交通	-11.1387
蘇子瞻曰	-11.1389
免于	-11.1391
足矣	-11.1391
卦外	-11.1392
王肅本	-11.1392
一個	-11.1393
不廢	-11.1395
蔑貞	-11.1396
善之長	-11.1396
不得其正	-11.1397
與民	-11.1398
詩書	-11.14
隂類	-11.1402
澤水	-11.1402
即有	-11.1404
春夏秋冬	-11.1405
易之所	-11.1406
正謂	-11.1406
之事而	-11.1407
湖	-11.1407
將盡	-11.1408
危地	-11.1409
卷四	-11.1409
亹亹	-11.1409
包容	-11.141
貞而吉	-11.141
上去	-11.1411
假廟	-11.1411
使知	-11.1411
東坡	-11.1413
已定	-11.1414
亨飪	-11.1416
以卦才言	-11.1416
弗克違	-11.1418
中庸曰	-11.1421
也音義	-11.1423
誤矣	-11.1426
所不及	-11.1427
兑口	-11.1428
豈知	-11.1429
逐爻	-11.1429
禍亂	-11.1429
由于	-11.1434
鴻漸	-11.1436
為成卦之主	-11.1436
天下无	-11.1437
又從而	-11.1437
往吝	-11.144
革命	-11.144
定也	-11.1441
大車	-11.1445
包之	-11.1446
不貴	-11.1447
之全體	-11.1449
論易	-11.1451
進而上	-11.1451
神妙	-11.1452
二亦	-11.1453
尅	-11.1453
於我	-11.1455
合德	-11.1455
別	-11.1456
從二	-11.1456
冨	-11.1456
綂	-11.1459
夀	-11.1459
處之則	-11.1463
矣然則	-11.1464
享上帝	-11.1466
知時	-11.1468
行健	-11.1468
象焉	-11.1469
相信	-11.1472
天上	-11.1472
不言所利	-11.1473
立法	-11.1473
无疾	-11.1476
先迷後得	-11.1477
不相悖	-11.1478
天地之大	-11.1481
外物	-11.1482
從事	-11.1486
何以為	-11.1486
時勢	-11.1487
其根	-11.1487
常存	-11.1488
剛中之才	-11.1492
有所疑	-11.1493
先王之	-11.1496
片	-11.1499
蜀才	-11.15
鑑	-11.1502
不著	-11.1503
饑	-11.1504
雷聲	-11.1506
弧矢	-11.1506
葛藟	-11.1507
朞	-11.1507
輯	-11.1507
化而裁之	-11.1507
天地設位	-11.1507
保合太和	-11.1507
某卦	-11.1507
下同	-11.1508
大人虎變	-11.1509
天下國家	-11.151
芒	-11.151
之厲	-11.1512
言乎其	-11.1513
疑于	-11.1513
衢	-11.1513
天地自然之	-11.1514
能乆	-11.1515
之勇	-11.1521
者隂陽之	-11.1522
朋黨	-11.1522
否臧	-11.1522
大人者	-11.1523
雲雨	-11.1524
始凝	-11.1524
從程氏	-11.1525
中徳	-11.1525
從來	-11.1528
之念	-11.1534
餘論	-11.1535
者謂之	-11.1535
變陽	-11.1537
化成天下	-11.1537
蒙引	-11.1542
居天位	-11.1546
飛龍	-11.1548
巖	-11.155
聞言不信	-11.1552
未有能	-11.1552
澤中有火	-11.1554
紹	-11.1554
知至至之	-11.1554
折其右肱	-11.1555
離為戈兵	-11.1555
羝羊	-11.1556
其凶可知	-11.1557
劉氏	-11.1558
壯于頄	-11.1558
得陽	-11.156
此便是	-11.156
何足	-11.1561
千五百	-11.1562
以下皆	-11.1563
䷡	-11.1565
甚微	-11.1567
體巽	-11.1568
震㢲	-11.1568
在己	-11.1571
擊蒙	-11.1573
不能止	-11.1574
在地上	-11.1574
當是時	-11.1578
而後成	-11.158
不我	-11.1581
日以	-11.1582
明吉凶	-11.1582
裁成	-11.1584
濟時	-11.1584
木生	-11.1585
不曽	-11.1586
卦辭言	-11.1586
處此	-11.1587
應三	-11.1588
而歸之	-11.1588
夕惕	-11.159
與之同	-11.159
惟能	-11.1591
轉移	-11.1592
六三隂柔	-11.1592
圍三	-11.1593
是那	-11.1593
不家食	-11.1594
不咥人	-11.1594
其端	-11.1594
徃蹇	-11.1597
四與五	-11.1597
終訟	-11.1598
未始	-11.1598
易之用	-11.1599
毛伯玉曰	-11.16
其行次且	-11.1601
蚤	-11.1601
禾	-11.1601
自强不息	-11.1601
不足以濟	-11.1603
詰	-11.1604
必求	-11.1604
揭	-11.1605
退避	-11.1605
與小人	-11.1606
振民	-11.1607
廣矣	-11.1608
則无以	-11.1609
神而明之	-11.1609
是以能	-11.1609
動而上	-11.1611
䷛	-11.1611
乾行	-11.1617
亦凶	-11.1619
不能無	-11.162
而其占	-11.1621
本㫖	-11.163
受畜	-11.163
俱有	-11.1633
程傳曰	-11.1634
免乎	-11.1638
修德	-11.1639
徐徐	-11.1642
之職	-11.1642
金車	-11.1643
失所	-11.1643
其常也	-11.1644
一生	-11.1644
亢龍有悔	-11.1645
桀	-11.1649
柔以時升	-11.1651
之事故	-11.1651
二女同居	-11.1652
選	-11.1652
以陰	-11.1653
攘	-11.1653
乾初	-11.1654
齡	-11.1654
興師	-11.1654
知臨	-11.1655
下震上	-11.1655
大明終始	-11.1658
碩果	-11.166
所及	-11.1661
石經	-11.1661
而不出	-11.1663
拯之	-11.1665
嘉遯	-11.1668
柔來	-11.1669
以律	-11.167
撝謙	-11.167
善鳴	-11.1673
開物	-11.1674
百年	-11.1677
能視	-11.1682
不免于	-11.1686
山林	-11.1689
以釋	-11.169
仰觀	-11.1691
无適	-11.1691
幹父	-11.1695
君子之光	-11.1696
之分也	-11.1696
如水之	-11.1697
隂在上	-11.1697
雪	-11.1697
匕鬯	-11.1698
巽以行權	-11.1699
通用	-11.1699
致凶	-11.1699
耒	-11.1699
伺	-11.1702
觀國之光	-11.1702
孔仲達曰	-11.1703
失矣	-11.1703
宗廟社稷	-11.1703
自天祐之	-11.1704
精義入神	-11.1704
正人	-11.1706
无喪无得	-11.1708
至臨	-11.1709
其前	-11.1709
本末弱	-11.171
所安也	-11.171
得人	-11.1713
戒備	-11.1713
紛紛	-11.1715
為父	-11.1715
陽在上	-11.1719
衆人之	-11.1719
大德	-11.1719
艮艮	-11.1721
時便	-11.1722
大道	-11.1722
不加	-11.1728
順逆	-11.1728
欲動	-11.173
文炳	-11.1732
欽定四庫全書易	-11.1733
千古	-11.1736
遯世	-11.1738
啓蒙	-11.174
歟曰	-11.1742
已著	-11.1743
之象占者	-11.1743
受其福	-11.1744
敬以直内	-11.1745
三狐	-11.1747
渾淪	-11.1748
不妨	-11.1749
於經	-11.175
滅耳	-11.175
忒	-11.1751
和説	-11.1751
灾	-11.1752
頃	-11.1753
進齋徐氏曰	-11.1753
為娣	-11.1755
一時之	-11.1755
立心勿恒	-11.1755
維心亨	-11.1755
天下雷行	-11.1756
憂其	-11.1756
亦如此	-11.1756
許之	-11.1761
六年	-11.1762
用享	-11.1763
復者	-11.1765
以柔中	-11.1767
所傷	-11.1768
先生云	-11.177
蘇氏	-11.1775
以仁	-11.1779
外内	-11.1782
未生	-11.1785
又因	-11.1787
無他	-11.179
苟不	-11.1792
武帝	-11.1794
遇主于巷	-11.1798
培	-11.1798
冶	-11.18
也惟其	-11.18
上九居	-11.1801
雖旬无咎	-11.1802
孔頴達	-11.1803
隨時而	-11.1803
鞶帶	-11.1803
柔來文剛	-11.1806
籌	-11.1807
其心不快	-11.181
以中正之道	-11.181
相綜	-11.1812
相摩	-11.1812
餘數	-11.1813
王居	-11.1814
凡此皆	-11.1817
為君子謀	-11.1819
人力	-11.1819
專指	-11.182
有咎也	-11.1821
百物	-11.1822
履道	-11.1823
正而固	-11.1826
吉孰大焉	-11.183
修省	-11.1831
度其	-11.1832
馮河	-11.1832
下離	-11.1836
來碩	-11.1837
自泰	-11.1838
日昃	-11.1839
无偏	-11.1839
無疆	-11.184
二十一	-11.1842
立本	-11.1844
以陰居	-11.1844
有所不	-11.1848
一篇	-11.1849
鄧	-11.1851
故皆曰	-11.1853
羸豕	-11.1854
分剛上而文柔	-11.1855
深戒	-11.1855
者能之	-11.1856
善端	-11.1857
不分	-11.1857
无血	-11.1858
君子道長	-11.1858
見於外	-11.1858
不告	-11.1859
吳澄	-11.186
初吉	-11.1862
底道理	-11.1863
止乎	-11.1866
將來	-11.1867
宗之	-11.1869
三八	-11.1882
剝復	-11.1883
必致	-11.1885
兩陽	-11.1887
原始	-11.1887
是猶	-11.1888
不字	-11.189
兩字	-11.1894
再變	-11.1894
前章	-11.1899
疊	-11.19
獵	-11.19
亮	-11.19
上下應	-11.1901
滕	-11.1902
妖	-11.1902
揲蓍求卦	-11.1903
大傳曰	-11.1904
祝	-11.1904
任事	-11.1904
雷在地中	-11.1905
則吝	-11.1908
莫大于	-11.1908
能如是則	-11.1909
身雖	-11.1909
八卦成列	-11.191
負且乗	-11.191
不堪	-11.191
陽剛之才	-11.1912
分上下	-11.1912
童䝉	-11.1913
而遽	-11.1914
上與三	-11.1917
所以立	-11.1919
升階	-11.1919
初往	-11.1919
為七	-11.1919
沙隨	-11.1923
甞	-11.1923
植物	-11.1924
幸而	-11.1926
中國	-11.1928
立心	-11.1931
不失中	-11.1931
中分	-11.1931
者言其	-11.1934
居業	-11.1935
安危	-11.1936
進得位	-11.1938
易之書	-11.1939
觀其生	-11.1939
革面	-11.1941
用之則	-11.1945
四八	-11.1949
而後行	-11.195
兩間	-11.195
寺	-11.1951
赫	-11.1953
章美	-11.1954
參天兩地	-11.1955
明入地中	-11.1956
韓康伯	-11.1957
上繫	-11.1958
小人道長	-11.1959
巽為命	-11.1959
三卷	-11.1962
所以謂之	-11.1962
徒以	-11.1968
盛矣	-11.1969
牽復	-11.1972
節節	-11.1973
太子	-11.1974
餘皆	-11.1974
乎險	-11.1975
釋卦	-11.1978
四十五	-11.1984
自否	-11.1985
不能安	-11.1986
休復	-11.1987
通氣	-11.1987
吉㓙	-11.1988
三極	-11.1991
輕進	-11.1991
能受	-11.1992
震驚	-11.1993
三十二卦	-11.1994
合而成	-11.1995
根本	-11.1996
賛之	-11.1997
鐘	-11.1999
元者善之長	-11.1999
一徳	-11.2001
窞	-11.2002
冲	-11.2004
宻雲不雨	-11.2004
柔下	-11.2004
與我	-11.2005
惕厲	-11.2005
内明	-11.2007
木上有水	-11.2009
自我西郊	-11.2009
如云	-11.2011
柔變剛	-11.2012
恒乆	-11.2014
隂陽相應	-11.2017
䷣	-11.2017
各止其所	-11.2019
之德也	-11.202
一隂生	-11.2021
所執	-11.2021
得正位	-11.2023
荀氏	-11.2024
推行	-11.2024
第七	-11.2024
與九五	-11.2026
居大臣之位	-11.2027
質素	-11.2032
明德	-11.2036
馮氏曰	-11.2038
居隂位	-11.2039
適當	-11.204
明日	-11.2043
聚散	-11.2043
改革	-11.2044
小過之時	-11.2045
而無所	-11.2048
由此而	-11.205
七爻	-11.2051
掇	-11.2051
于時	-11.2051
淮	-11.2052
唐虞	-11.2052
興起	-11.2053
履霜堅冰	-11.2055
剛長乃終	-11.2056
衆允	-11.2057
所據	-11.2058
三竒	-11.2059
艮震	-11.2059
顯然	-11.2059
當升	-11.206
安行	-11.2061
孔穎達	-11.2064
其所有	-11.2064
不戒	-11.2064
應乾	-11.2065
下畫	-11.2065
劉氏曰	-11.2066
大善而吉	-11.2068
巽為股	-11.2068
不可久	-11.2069
而信之	-11.2071
䧟於	-11.2072
到得	-11.2075
十八變	-11.2079
積累	-11.2079
與否	-11.2079
指三	-11.208
震為行	-11.208
互兑	-11.2081
以二為	-11.2083
養而不窮	-11.2085
兑澤	-11.2085
欲行	-11.2086
自此而	-11.2087
沬	-11.2087
相去	-11.2088
豈特	-11.2088
卿大夫	-11.2096
竊意	-11.2096
納之	-11.2097
不謂之	-11.2097
相間	-11.2097
于是乎	-11.2098
无正應	-11.2101
久則	-11.2104
軸	-11.2105
包有魚	-11.2106
猷	-11.2106
其亡其亡	-11.2107
亷	-11.2108
剛陽中正	-11.2108
固執	-11.2108
嫉	-11.2109
卑者	-11.2111
類族辨物	-11.2111
止而止	-11.2112
天行健	-11.2113
三處	-11.2118
在天地	-11.2118
不爲	-11.2119
者也若	-11.2124
立誠	-11.2125
諸人	-11.2131
具於	-11.2135
斯人	-11.2136
矣但	-11.2136
庶人	-11.2138
為朋	-11.2141
既極	-11.2142
揲四	-11.2146
以言乎	-11.2148
互卦	-11.2149
大吉无咎	-11.2151
但能	-11.2153
庖犧	-11.2154
成器	-11.2154
附之	-11.2154
佳	-11.2156
態	-11.2158
二十九	-11.2158
巡	-11.216
盱豫	-11.216
由是而	-11.2162
不可逺	-11.2162
上順	-11.2163
用譽	-11.2163
无極	-11.2165
所稱	-11.2166
之類也	-11.2166
不恒其徳	-11.2167
陽物	-11.2168
形而上者	-11.2172
震兊	-11.2174
不失正	-11.2177
三四為	-11.2178
之象夫	-11.2179
堯之	-11.2182
剛中之德	-11.2184
肱	-11.2187
溺於	-11.2193
通志	-11.2197
威武	-11.2197
不終日	-11.2197
不私	-11.22
以盡其	-11.22
大得志	-11.2201
口實	-11.2206
呈	-11.2207
諒	-11.2207
吹	-11.2209
誦	-11.2209
歉	-11.2209
首出庶物	-11.221
諛	-11.221
黜	-11.2211
淮南	-11.2212
同道	-11.2213
僖	-11.2213
成既濟	-11.2213
遷善改過	-11.2214
廣漢張氏曰	-11.2214
㦲	-11.2219
欲求	-11.2224
䷵	-11.2225
難解	-11.2225
要其終	-11.2226
有飛鳥之象	-11.2226
䷔	-11.2227
憂恤	-11.2229
之名也	-11.2232
一三五	-11.2233
如日之	-11.2234
觸藩	-11.2235
教民	-11.2236
蹇解	-11.2236
一㸃	-11.2239
為雷	-11.2239
未足以	-11.2239
剛而能柔	-11.2242
由豫	-11.2244
上臨下	-11.2246
故以為	-11.2249
書云	-11.225
咎矣	-11.2251
第六	-11.2254
其象如此	-11.226
珍	-11.226
澗	-11.2261
反下	-11.2262
肩	-11.2262
開國承家	-11.2263
閣	-11.2263
揚雄	-11.2263
太王	-11.2263
不絶	-11.2263
支離	-11.2263
梅	-11.2264
陽大隂小	-11.2265
仲氏易	-11.2266
問易	-11.2267
而後已	-11.2271
䷿	-11.2277
得臣	-11.2278
指間	-11.2282
頤養	-11.2286
議之	-11.2287
易之門	-11.229
動而明	-11.2291
易緯	-11.2293
必凶	-11.2293
詳矣	-11.2294
同人大有	-11.2294
否卦	-11.2295
大衍之	-11.2295
蓍䇿	-11.2296
天地隂陽	-11.2297
天地之情	-11.2297
之所及	-11.23
地六	-11.2302
艮兑	-11.2302
趙氏曰	-11.2307
隂從陽	-11.2308
所以吉	-11.2309
不得中	-11.2309
一書	-11.231
若使	-11.231
无往不	-11.2312
鞏	-11.2312
全身	-11.2314
屨校滅趾	-11.2315
築	-11.2315
革言三就	-11.2316
剛柔相推而生變化	-11.2316
以貴下賤	-11.2318
克己	-11.2319
行其庭不見其人	-11.232
八月有凶	-11.2321
雷霆	-11.2323
時時	-11.2331
火火	-11.2332
凡六	-11.2333
不致	-11.2336
發見	-11.2338
逺小人	-11.234
咸感也	-11.2344
循理	-11.2346
便能	-11.235
總是	-11.2352
而取之	-11.2354
質柔	-11.2354
悠	-11.2358
以初為	-11.2359
倚數	-11.2363
四當	-11.2364
乾道成男坤道成女	-11.2365
不可犯	-11.2366
藝	-11.2367
无凶	-11.2368
男子	-11.2368
侯果曰	-11.2369
熾	-11.2369
失之矣	-11.2369
不作	-11.2369
右明象占	-11.237
柴	-11.2371
二隂之間	-11.2373
二陽之下	-11.2376
商旅	-11.2378
結之	-11.2381
指四	-11.2381
䷤	-11.2385
所説	-11.2386
二隂之中	-11.2387
夷主	-11.2388
大體	-11.2389
所附	-11.2392
理財	-11.2394
可羞吝	-11.2395
井道	-11.2397
苟非	-11.2397
敬義	-11.2397
无訟	-11.2401
要在	-11.2402
其所當	-11.2405
大得志也	-11.2406
柔進	-11.2406
折足	-11.2411
朱子謂	-11.2412
甲胄	-11.2415
此論	-11.2416
安在	-11.2417
洌	-11.242
耜	-11.242
其大者	-11.2421
分隂分陽	-11.2421
晋	-11.2422
朱紱方來	-11.2423
食舊徳	-11.2424
朶頤	-11.2424
失得勿恤	-11.2424
安知	-11.2425
利用祭祀	-11.2425
入于左腹	-11.2426
固然	-11.2426
再扐而後掛	-11.2426
有不同	-11.243
天命之	-11.243
孚于剥	-11.2435
禮記	-11.2437
物之功	-11.2438
兩儀生四象	-11.2439
畜道	-11.2442
比吉	-11.2443
荀子	-11.2444
用蓍	-11.2444
䷼	-11.2444
三四五互	-11.2444
震為動	-11.2445
坤衆	-11.2445
為天子	-11.2445
若濡	-11.2449
也詩曰	-11.245
勢必	-11.245
奇偶	-11.2451
得其吉	-11.2451
不問	-11.2451
隂柔不能	-11.2452
往有功也	-11.2455
善補過	-11.2456
箕	-11.246
各異	-11.2461
遄往	-11.2462
理勢	-11.2463
又各	-11.2466
則无咎矣	-11.2466
志意	-11.2466
匕	-11.2469
渠	-11.247
可亨	-11.247
是以无咎	-11.2471
竅	-11.2473
君臣父子	-11.2473
進德修業	-11.2473
蝕	-11.2473
至微	-11.2474
刪	-11.2474
敏	-11.2474
折獄致刑	-11.2474
自昭	-11.2475
入于幽谷	-11.2475
幕	-11.2477
否塞	-11.2478
不知所	-11.2478
逆而	-11.2479
窒塞	-11.2483
甚於	-11.2483
自上祐	-11.2483
邑人不誡	-11.2484
剛柔始交	-11.2488
吉字	-11.2492
徑一	-11.2492
十分	-11.2493
左股	-11.2495
自生	-11.2495
衍文	-11.2495
而知其	-11.2497
為月	-11.2498
䷌	-11.2498
罔孚	-11.2498
中正之君	-11.25
敬仲	-11.25
至此而	-11.25
四象生八卦	-11.2503
无所不至	-11.2503
後漢	-11.2514
)○(	-11.2515
詳審	-11.2523
安樂	-11.2523
在上卦	-11.2524
五數	-11.2525
耿	-11.2525
无譽	-11.2526
隆山李氏曰	-11.2528
晨	-11.2528
區區	-11.2528
雖無	-11.2528
于後	-11.2528
李季辨曰	-11.2529
六八	-11.253
巽兌	-11.2531
王昭素	-11.2532
亦豈	-11.2532
不可為首	-11.2533
安定	-11.2533
羣龍	-11.2536
有罪	-11.2539
出征	-11.2541
虎尾	-11.2547
而知之	-11.2547
志未得也	-11.2551
動以天	-11.2553
而不安	-11.2555
不行也	-11.2558
三畫卦	-11.2559
垂象	-11.2561
指初	-11.2562
萬物化生	-11.2564
不有其	-11.257
自新	-11.257
震坎	-11.2573
一度	-11.2574
私欲	-11.2575
在我者	-11.2575
聖人則之	-11.2575
得八	-11.2575
近世	-11.2576
二分	-11.2577
雲峯	-11.2577
聖學	-11.2578
兼取	-11.2581
並進	-11.2582
山下有火	-11.2582
大車以載	-11.2582
申明	-11.2583
錮	-11.2583
莭	-11.2585
參天兩地而倚數	-11.2586
有其徳	-11.2587
天與火	-11.2588
六合	-11.2589
艮陽	-11.2589
交坤	-11.259
易有聖人之道四焉	-11.259
頤大過	-11.2591
子午	-11.2594
喪羊于易	-11.2594
求我	-11.2595
在穴	-11.2596
也蒙謂	-11.2601
卦爻辭	-11.2602
无妄之疾	-11.2603
獨不言	-11.2614
雜卦傳	-11.2619
大禹	-11.262
信志	-11.262
二以剛中	-11.262
隂陽剛柔	-11.2624
多懼之地	-11.2624
有異	-11.2629
地理	-11.263
雖小	-11.263
悶	-11.2631
在這裏	-11.2632
未合	-11.2632
賛曰	-11.2633
兢	-11.2633
初九之剛	-11.2634
頽	-11.2637
如山	-11.2637
苐	-11.264
遯世无悶	-11.2641
草廬	-11.2641
天下之志	-11.2641
僴	-11.2643
既不能	-11.2643
包犧氏	-11.2645
皆謂之	-11.2645
形質	-11.2646
負且乘	-11.2646
愛惡	-11.2646
根於	-11.2647
而止之	-11.2648
三位	-11.2649
與天地相似	-11.2652
何氏	-11.2652
於上則	-11.2654
終止	-11.2654
難進	-11.2656
類聚	-11.2657
宜若	-11.2657
師保	-11.2657
得主	-11.2658
六十卦	-11.2658
屯之時	-11.2659
其孰能	-11.266
一奇	-11.2664
陷於險	-11.2664
唐之	-11.2667
前言	-11.2667
能通天下之志	-11.2667
通達	-11.2671
逆順	-11.2677
在地中	-11.2681
以柔居中	-11.2681
天之氣	-11.2685
計之	-11.2688
郭子和曰	-11.2688
而已哉	-11.2689
津	-11.269
以其彚	-11.2691
一竒一偶	-11.2691
掘	-11.2692
之正位	-11.2692
涣	-11.2693
衣袽	-11.2694
吉凶與民同患	-11.2694
中古	-11.2695
雙湖	-11.2695
至剛	-11.2696
成兊	-11.2696
眇能視	-11.2697
故乾乾因其時而惕雖危无咎矣	-11.2697
察其	-11.2698
才力	-11.2699
體剛	-11.2699
揲蓍之法	-11.2701
大輿	-11.2704
私心	-11.2705
得乾之	-11.2705
虎變	-11.2706
柔遇剛	-11.2707
不謹	-11.2708
合訂	-11.2708
夬履	-11.2709
河洛	-11.271
這般	-11.271
无遺	-11.2711
典要	-11.2712
浚恒	-11.2714
聖人體	-11.2716
妄行	-11.2716
宣王	-11.2717
邑國	-11.2717
義曰夫	-11.2719
以隂柔處	-11.272
其舊	-11.272
位尊	-11.2721
感動	-11.2722
士君子	-11.2726
者也二	-11.2726
知阻	-11.2727
中興	-11.2732
自止	-11.2732
帥師	-11.2733
過甚	-11.2733
為老隂	-11.2737
用心	-11.2738
敬以直内義以方外	-11.2738
異位	-11.2739
之速	-11.2741
各具	-11.2744
羣小	-11.2745
雷風相薄	-11.2745
也其曰	-11.2747
雀	-11.2747
渙其血	-11.2747
一百九十二	-11.2747
巽隂	-11.2747
飢	-11.2747
豐其蔀	-11.2747
仁知	-11.2748
變動不居	-11.275
聖人之情見乎辭	-11.2751
密雲不雨	-11.2751
曷之用二簋可用享	-11.2753
讀書	-11.2753
下觀而化	-11.2753
而不居	-11.2754
國家之	-11.2755
獨復	-11.2755
故无咎也	-11.2756
可无咎	-11.2756
剛動	-11.2756
一隅	-11.2759
専以	-11.2759
不祥	-11.276
東鄰	-11.276
大塗	-11.2761
位正當	-11.2766
不動則	-11.2766
滅趾	-11.2766
形象	-11.2768
臨川	-11.2771
于上而	-11.2771
上坎下	-11.2772
行地	-11.2774
明體	-11.2775
山上	-11.2777
亦只是	-11.2778
因此	-11.2779
這便是	-11.2784
于郊	-11.2785
善俗	-11.2785
得之矣	-11.2786
二爻變	-11.2788
在身	-11.279
複	-11.2792
灰	-11.2794
聖王	-11.2794
同徳相	-11.2794
一念之	-11.2795
脩身	-11.28
黍	-11.28
披	-11.28
近而不相得	-11.28
出自穴	-11.2803
裕父之蠱	-11.2803
不出門庭	-11.2803
盤桓	-11.2803
相助	-11.2804
事變	-11.2804
於人者	-11.2805
宴樂	-11.2806
微子	-11.2808
天在山中	-11.2809
推移	-11.281
相賁	-11.281
原有	-11.281
陽在内	-11.2812
君子觀象	-11.2815
通卦	-11.2816
聖人之情	-11.2816
卦之外	-11.2817
之成卦	-11.2818
合為一	-11.2821
十有八變	-11.2824
剛在上	-11.2825
自致	-11.2826
成章	-11.2827
謙豫	-11.283
在井	-11.283
所自來	-11.2832
有聲	-11.2832
卷五	-11.2834
公孫	-11.284
吉也象曰	-11.284
豈徒	-11.2842
其事而	-11.2845
以是為	-11.2846
乃可以	-11.2846
事之始	-11.2848
然後知	-11.2854
牽引	-11.2855
毫釐	-11.2855
何以能	-11.2856
伏戎于莽	-11.2857
隘	-11.2858
夬履貞厲	-11.2859
徽纆	-11.2861
以陽剛之才	-11.2861
互兊	-11.2863
子克家	-11.2865
何以知	-11.2865
之象故為	-11.2866
西南得朋	-11.2866
震遂泥	-11.2868
子貢	-11.2869
不失其時	-11.2874
乾之健	-11.2876
内險	-11.2879
居東	-11.2882
事之幹	-11.2883
故其象	-11.2884
可食	-11.2885
餘二	-11.2887
所恃	-11.2888
不露	-11.2889
頻巽	-11.289
莖	-11.2893
必由	-11.2893
免矣	-11.2894
滿盈	-11.2895
處便是	-11.2897
盡其道	-11.2898
六十四卦皆	-11.2902
天人之	-11.2903
它卦	-11.2905
同人于野	-11.291
系	-11.291
以二體言之	-11.291
替	-11.2911
据	-11.2911
能改	-11.2912
徽	-11.2912
女貞	-11.2912
隂暗	-11.2913
汎	-11.2913
謂二也	-11.2914
餘四	-11.2914
剛陽之才	-11.2916
矣或曰	-11.2918
羸其瓶	-11.2918
濟物	-11.2919
爻爻	-11.2923
畜徳	-11.2927
變則為	-11.2928
絶句	-11.293
大有得	-11.2931
文蔚	-11.2937
䷘	-11.2937
幹事	-11.2938
三千	-11.2939
前知	-11.2939
欲使	-11.2941
豈可以	-11.2941
䷍	-11.2941
而不知其	-11.2949
義曰言	-11.2951
故又曰	-11.2956
任賢	-11.2958
剛暴	-11.2958
須待	-11.2961
二老	-11.2962
此類	-11.2962
而處之	-11.2963
人多	-11.2964
許其	-11.2964
坡	-11.2966
倘	-11.2967
徂	-11.2967
四近君	-11.2969
王假有家	-11.2971
風行地上	-11.2972
亦多	-11.2972
介如石	-11.2973
戔戔	-11.2975
惕號	-11.2975
著明	-11.2975
平日	-11.2977
夷狄	-11.2979
巽而動	-11.2979
趨吉	-11.2988
太一	-11.2991
謂六五	-11.2992
防閑	-11.2997
者事之	-11.2997
用中	-11.2999
陽息	-11.3004
艮卦	-11.3005
萬物之理	-11.3005
也此以	-11.3011
包括	-11.3015
釡	-11.3015
守道	-11.3016
志在内	-11.3017
小心	-11.3017
履正	-11.3018
二陽之上	-11.3019
拾	-11.3022
游魂	-11.3023
畜聚	-11.3023
承乾	-11.3023
進修	-11.3023
明動相資	-11.3023
妥	-11.3025
珠	-11.3025
于天子	-11.3026
錫命	-11.3026
誠齋楊氏曰	-11.3027
雲峰	-11.3027
膺	-11.3027
鬼神之情狀	-11.3027
廣平游氏曰	-11.3029
羡	-11.3029
飛鳥以凶	-11.303
先見	-11.303
三就	-11.3032
坎為月	-11.3033
勿問	-11.3034
有剛中之徳	-11.3036
比之匪人	-11.3036
見前	-11.3038
譽命	-11.3039
既立	-11.304
牽於	-11.304
艮之止	-11.304
安其位	-11.3043
政教	-11.3045
一國	-11.3045
者莫若	-11.3049
至當	-11.3051
餘卦	-11.3055
上下二體	-11.3056
間隔	-11.3061
五居中	-11.3064
戒慎	-11.3065
失位故	-11.3066
定天下	-11.3067
胸中	-11.3069
順事	-11.307
篆	-11.307
有事也	-11.3074
株	-11.3077
容保	-11.3078
之大義	-11.3079
剖	-11.3081
履虎尾不咥人亨	-11.3081
紱	-11.3081
稼穡	-11.3081
則凶矣	-11.3082
乾之初九	-11.3083
狎	-11.3083
鷄	-11.3084
諱	-11.3084
上火下澤	-11.3085
亞	-11.3086
碩果不食	-11.3086
移易	-11.3086
恐懼修省	-11.3087
小往大來	-11.3088
牽羊	-11.3088
得黄金	-11.309
為四所	-11.309
觀頤	-11.309
求小得	-11.3093
伏戎	-11.3099
以威	-11.31
所以示	-11.3102
同異	-11.3103
二與初	-11.3105
泰之時	-11.3107
二之五	-11.3109
五十六	-11.3109
比干	-11.3109
合體	-11.311
兌説	-11.3111
七日得	-11.3113
衆之所	-11.3119
忽然	-11.3125
平地	-11.3127
未著	-11.3132
何待	-11.3132
者必有	-11.3132
兩隂	-11.3133
厥孚交如	-11.3137
不可知	-11.3139
奠	-11.314
二三四互	-11.314
蠧	-11.314
田有禽	-11.3141
凛	-11.3142
宇宙	-11.3142
配主	-11.3143
振恒	-11.3143
咸其輔頰舌	-11.3143
需有孚光亨貞吉	-11.3144
取女吉	-11.3146
安其身	-11.3146
冒天下之道	-11.3146
久於其道	-11.3147
蹙	-11.3148
有咎矣	-11.315
為一卦之主	-11.3152
之域	-11.3154
猶可以	-11.3156
餘三	-11.3156
旡咎	-11.3161
臨人	-11.3162
惟聖人	-11.3163
宜乎	-11.3164
百一十	-11.3166
兊為澤	-11.3167
萬化	-11.3169
為妾	-11.317
謙徳	-11.3171
餘一	-11.3174
聖人用易	-11.3175
量力	-11.3178
往有功	-11.3179
一條	-11.3181
旁行	-11.3183
屬乎	-11.3183
錯雜	-11.3184
天下平	-11.3185
及逺	-11.3186
夫豈	-11.3187
河圖之數	-11.3187
六五柔中	-11.3187
其躬	-11.3188
窮則變	-11.3189
疵	-11.319
核	-11.3193
沈守約曰	-11.3193
治蒙	-11.3194
禘	-11.3194
多白眼	-11.3195
語錄	-11.3195
張紫巖曰	-11.3196
劑	-11.3196
交相愛	-11.3197
節齋蔡氏曰	-11.3197
知終終之	-11.3198
餙	-11.3198
宋衷	-11.32
天地設位而易行乎其中	-11.3201
大國	-11.3202
㓕	-11.3202
理之常也	-11.3202
多疑	-11.3203
施未行	-11.3204
龍蛇	-11.3204
莫大焉	-11.3205
季氏	-11.3205
歐陽	-11.3206
艮其限	-11.3207
只是這	-11.3207
包含	-11.3209
陽過	-11.321
廣生	-11.3211
傾覆	-11.3211
柔得尊位	-11.3217
致冦至	-11.3221
无咎无譽	-11.3229
九三九四	-11.323
震兑	-11.323
威儀	-11.3231
所當止	-11.3231
變為柔	-11.3233
理義	-11.3234
又不能	-11.3234
未極	-11.3238
自己	-11.324
應陽	-11.324
哉然	-11.3242
之難也	-11.3245
羔	-11.3248
二往	-11.3248
利君子貞	-11.325
九五中正	-11.3251
閭	-11.3253
峰	-11.3253
用晦而明	-11.3253
妨	-11.3254
斬	-11.3255
啞啞	-11.3255
頌	-11.3255
臯陶	-11.3256
閑邪	-11.3256
恰	-11.3256
勵	-11.3257
至命	-11.3257
上二爻	-11.3258
柔來而文剛	-11.3258
龔氏曰	-11.3258
耋	-11.3258
藏於	-11.3262
用禴	-11.3263
卷六	-11.3263
无不通	-11.3264
突如	-11.3264
蔡虚齋曰	-11.3266
伐邑	-11.3274
以剛處	-11.3274
物情	-11.3274
經營	-11.3277
用數	-11.3278
龍馬	-11.3278
在坎中	-11.3281
䷙	-11.3283
厚下	-11.3283
肥遯	-11.3284
䷈	-11.3285
感人心	-11.329
髙祖	-11.3293
相息	-11.3294
羣陰	-11.3299
屨	-11.3307
五年	-11.3308
離為雉	-11.3309
苖	-11.331
過旬災	-11.331
所受	-11.3311
九家易	-11.3312
荀作	-11.3312
六五之吉有慶也	-11.3313
順天應人	-11.3313
田獲三品	-11.3313
撃	-11.3314
勅	-11.3315
形氣	-11.3316
弓矢	-11.3317
於木	-11.3319
正其志	-11.3319
吉之先見	-11.332
髙而无民	-11.3321
因循	-11.3322
不虞	-11.3323
二得中	-11.3323
項安世	-11.3325
日入	-11.3325
此其所以為	-11.3331
何用	-11.3341
利於正	-11.3342
以徳言	-11.3343
三接	-11.3346
而獲吉	-11.3346
亦猶是也	-11.3348
所依	-11.3348
碩大	-11.3352
傳義	-11.3353
不可以為	-11.3357
大號	-11.3363
孤立	-11.3366
佛	-11.3367
岳	-11.3368
初筮告	-11.3369
明哲	-11.337
乾剛坤柔	-11.3371
羞吝	-11.3371
亦不必	-11.3371
不遐遺	-11.3372
泯	-11.3373
首出	-11.3374
恰好	-11.3374
皆具	-11.3375
虎豹	-11.3375
園	-11.3377
同人于宗	-11.3377
出焉	-11.3378
斯道	-11.3378
紀綱	-11.3378
也孔子曰	-11.338
一偏	-11.3382
養徳	-11.3386
顛頥	-11.3386
孔明	-11.3388
不可以有為	-11.339
定分	-11.3391
九二以剛	-11.34
祭祀之	-11.34
无憂	-11.3404
堅剛	-11.3406
羣疑	-11.3411
後笑	-11.3414
湯之	-11.342
始進	-11.3421
乾胏	-11.3421
審其	-11.3424
睹	-11.3426
歸奇	-11.3426
何天之衢	-11.3433
睦	-11.3433
山下有澤	-11.3435
之寵	-11.3438
象地	-11.3439
常行	-11.3441
美在其中	-11.3449
子産	-11.3451
是道也	-11.3451
有中徳	-11.3451
不可咎	-11.3453
隨時之義	-11.3454
處卑	-11.3461
從貴	-11.3461
動植	-11.3463
圍四	-11.3465
乾天也	-11.347
之君也	-11.3472
无號	-11.3472
承順	-11.3473
論之則	-11.3474
水水	-11.3476
剝陽	-11.3482
熈	-11.3488
釋彖	-11.3488
郭白雲曰	-11.3489
不永所事	-11.3489
幹母之蠱	-11.349
順理而	-11.349
折中	-11.3492
剛柔正而位當	-11.3492
為五十	-11.3495
以九居四	-11.3495
織	-11.3496
所引	-11.3496
天地之數五十有五	-11.3498
養賢以及萬民	-11.3501
毛竒齡	-11.3503
毛氏	-11.3503
運動	-11.3503
羣賢	-11.3503
陽為隂	-11.3506
肆其	-11.3506
所往	-11.3511
一握	-11.3511
是以聖人	-11.3512
歸魂	-11.3515
居尊而	-11.3516
筮法	-11.3517
用馮河	-11.352
其吉可知	-11.3521
下求	-11.3522
健體	-11.3523
有所徃	-11.3528
下卦為	-11.3531
卦詞	-11.3533
存心	-11.3534
千六百	-11.3535
其趾	-11.3539
實體	-11.3539
取災	-11.354
配乾	-11.354
矣况	-11.3541
震動而	-11.3542
以陽居剛	-11.3544
障蔽	-11.3544
或從王事	-11.3544
繫之以	-11.3544
謗	-11.3546
諌	-11.3547
乾六爻	-11.3547
緝	-11.3547
頰	-11.3548
儲	-11.3548
江河	-11.3548
離兊	-11.355
需于血	-11.355
雲行雨施品物流形	-11.3551
勿逐七日得	-11.3552
樽酒簋貳	-11.3553
上承九五	-11.3555
拘係之	-11.3557
也故无咎	-11.3559
需待	-11.356
今既	-11.3561
變而通之	-11.3563
本又作	-11.3565
上下順	-11.3567
孔孟	-11.3569
雷風相與	-11.3569
不利東北	-11.3572
壯于	-11.3572
決小人	-11.3573
聖人之言	-11.3576
觸類	-11.3576
愠	-11.3579
近臣	-11.358
竊按	-11.3583
後甲三日	-11.3587
之亨也	-11.3588
順而止之	-11.359
未孚	-11.359
之病	-11.3593
訂	-11.3594
應變	-11.3595
震亨	-11.3595
歸而逋	-11.3595
庶物	-11.3596
朝夕	-11.36
盡去	-11.3602
則不然	-11.3603
纂	-11.3603
嗛	-11.3604
斁	-11.3607
在天上	-11.3607
昩	-11.3607
困于石	-11.3608
龍戰于野	-11.3609
孰能與於此	-11.361
媾	-11.361
栁	-11.3611
成變化	-11.3611
㪚	-11.3611
貞吉升階	-11.3611
嘉之㑹	-11.3611
原始要終	-11.3614
大有元亨	-11.3615
水中	-11.3615
飲食衎衎	-11.3617
爐	-11.3619
日月寒暑	-11.3619
期於	-11.3622
亦可謂	-11.3623
至髙	-11.3625
逺去	-11.3627
王弼曰	-11.3627
太極圖	-11.3628
艮其身	-11.3629
有司	-11.3634
皆出於	-11.3638
征行	-11.3639
養生	-11.364
萃升	-11.3641
其勢必	-11.3643
不惑	-11.3646
兩手	-11.3647
以行其	-11.365
三十四卦	-11.365
三聖	-11.3653
宜日中	-11.3654
課	-11.3656
以剛健	-11.3656
一件	-11.3657
復還	-11.3657
何異	-11.3662
繫于	-11.3662
郤	-11.3664
巽艮	-11.3665
馭	-11.3666
罟	-11.3667
瑞	-11.3667
衰世之意	-11.3669
乗馬班如	-11.367
共成	-11.3673
夫征不復	-11.3675
克己復禮	-11.3675
如此説	-11.3676
悔咎	-11.3676
獨能	-11.3676
既濟亨小	-11.3676
與五同	-11.3677
不能進	-11.368
莫可	-11.368
濟世	-11.3681
永終	-11.3684
之正道	-11.3684
其道窮	-11.3685
所揜	-11.3686
不動而	-11.3687
承乗	-11.369
善入	-11.3693
些子	-11.3694
无色	-11.3694
之表	-11.3696
昭公	-11.3699
説卦曰	-11.37
下仁	-11.3701
皆屬	-11.3708
上六處	-11.3709
卦辭曰	-11.371
中正相應	-11.3711
臣道也	-11.3711
可否	-11.3712
覿	-11.3713
既分	-11.3715
而不食	-11.3716
養天下	-11.3717
尋常	-11.3719
一卦之中	-11.372
以爻言	-11.3721
甲乙	-11.3722
易之體	-11.3722
旺	-11.3723
人民	-11.3726
一千	-11.3726
固宜	-11.3727
扶陽抑隂	-11.3729
平時	-11.3729
覆公餗	-11.373
牆	-11.3731
見乎外	-11.3731
征邑國	-11.3735
幽明之故	-11.3735
腰	-11.3736
但知	-11.3745
剛浸而長	-11.3745
九五陽剛中正	-11.3747
為大赤	-11.3748
左腹	-11.375
不畏	-11.3751
不家食吉	-11.3754
足以致	-11.3755
純剛	-11.3757
蔚	-11.3759
凡物之	-11.3761
安可	-11.3765
三百八十四	-11.3766
何可長也	-11.3767
政事	-11.3773
其所處	-11.3776
指九二	-11.3778
只作	-11.3779
百世	-11.378
何也蓋	-11.3786
烝	-11.3787
各安其	-11.3787
止而不進	-11.3788
朱子語類云	-11.3788
屨校	-11.3791
勿幕	-11.3792
坤徳	-11.3792
不惡而嚴	-11.3793
千里之外	-11.3794
晦菴	-11.3794
婦孕不育	-11.3795
有言不信	-11.3795
木火	-11.3796
綆	-11.3796
以隂變陽為	-11.3797
黄離元吉	-11.3799
十年勿用	-11.3803
自然而然	-11.3805
居西北	-11.3806
乾之元	-11.3807
九陵	-11.3808
罔不	-11.381
先天八卦	-11.381
所以居業	-11.3811
假借	-11.3811
不以道	-11.3814
震為長子	-11.3814
見沬	-11.3816
乾肉	-11.3817
以寛	-11.3819
有愠	-11.3822
不詳	-11.3823
神道設教	-11.3823
求萃	-11.3823
廣業	-11.3824
得金矢	-11.3829
向上	-11.3832
用晦	-11.3832
即乾之	-11.3832
剛而能	-11.3835
不審	-11.3837
苟合	-11.3844
專主	-11.3846
䕶	-11.3846
來居二	-11.3847
仍是	-11.3851
郭璞	-11.3851
萌芽	-11.3852
天下之賢	-11.3852
中以為實	-11.3852
无餘	-11.3853
得其時	-11.3854
溺于	-11.3858
人之性	-11.3859
所蔽	-11.3861
五畫	-11.3864
大君之宜	-11.3865
雷在天上	-11.3865
坎為耳	-11.3866
萃有位	-11.3867
必至于	-11.3867
乾道變化	-11.3868
白茅	-11.3869
无輔	-11.3869
乾鑿度曰	-11.3871
再閏	-11.3871
舜禹	-11.3872
九九	-11.3875
推明	-11.3875
吳氏	-11.3878
更無	-11.3878
不可不知	-11.3882
為客	-11.3885
為四象	-11.3888
這是	-11.3889
醇	-11.389
欲上進	-11.389
逐逐	-11.389
天下之治	-11.3891
受刑	-11.3892
之行也	-11.3892
往必	-11.3892
四應初	-11.3896
錯簡	-11.3897
典常	-11.3898
以四為	-11.3898
有不善	-11.39
重剛不中	-11.3904
寓於	-11.3904
犧	-11.3905
醉	-11.3907
藴畜	-11.3909
閽寺	-11.391
筭	-11.391
庵	-11.391
交乾	-11.3911
者隂之	-11.3911
頤中有物	-11.3912
既雨既處	-11.3913
慰	-11.3914
兊體	-11.3915
斟酌	-11.3915
㕘	-11.3916
為卜筮	-11.3916
七七	-11.3916
賁其須	-11.3921
接物	-11.3922
道已成	-11.3922
莫不皆然	-11.3923
在他卦	-11.3925
薫	-11.3925
衆多	-11.3932
専言	-11.3932
艮其趾	-11.3932
暗主	-11.3935
嘉㑹	-11.3939
相續	-11.3941
上卦為	-11.3941
徳之盛	-11.3942
不永	-11.3945
亦可見	-11.3947
文明之主	-11.3949
居貞吉	-11.395
自修	-11.3955
漸盛	-11.3958
於此矣	-11.3959
合而言之	-11.3959
本位	-11.3961
號呼	-11.3962
附㑹	-11.3964
為竒	-11.3965
之萌	-11.3969
坤為土	-11.397
屑	-11.397
據于蒺藜	-11.3971
液	-11.3972
研諸慮	-11.3972
駭	-11.3972
不宜上宜下	-11.3973
碎	-11.3974
與二同	-11.3974
無定	-11.3975
轍	-11.3976
履帝位	-11.3976
搏	-11.3977
袽	-11.3977
𦂳	-11.3977
窮理盡性	-11.3978
參天地	-11.3978
安其居	-11.3978
自二至五	-11.3979
從或戕之	-11.3979
王童溪曰	-11.398
豐亨	-11.3981
束帛戔戔	-11.3981
以六居五	-11.3982
比應	-11.3982
宴息	-11.3982
氣機	-11.3983
禦㓂	-11.3983
隂邪	-11.3984
刑人	-11.3984
而不亂	-11.3985
是一箇	-11.3987
隤然	-11.3987
于其中	-11.399
剛柔交錯	-11.3998
義命	-11.4
不可動	-11.4001
之旨	-11.4005
朱子語問	-11.4009
小有悔	-11.4013
互坎為	-11.4016
道路	-11.4022
弗能	-11.4026
初三五	-11.4028
遡	-11.4032
邪心	-11.4033
讀如	-11.4033
鼈	-11.4034
超然	-11.4035
未來	-11.4036
綿	-11.4038
一三五七九	-11.4038
利見之	-11.4038
沿	-11.4038
暴客	-11.4039
此夫子	-11.4039
樽	-11.404
乖戾	-11.404
坼	-11.4042
弗遇過之	-11.4043
噬嗑賁	-11.4045
不宜上	-11.4045
禄位	-11.4051
策數	-11.4052
天下之所	-11.4053
无魚	-11.4053
重濁	-11.4054
過咎	-11.4054
生息	-11.4058
未至于	-11.406
萬物資始	-11.4065
知吉凶	-11.4068
畜牝牛	-11.4068
干寳曰	-11.4068
良馬逐	-11.4069
為吉也	-11.4072
止於下	-11.4075
聖人之徳	-11.4075
生華	-11.4078
終无咎也	-11.4082
内難	-11.4082
上應九五	-11.4086
酌損之	-11.4088
二十四氣	-11.4092
知禮	-11.4094
韓康伯曰	-11.4098
歆	-11.4098
璧	-11.4098
坦坦	-11.4099
竇	-11.4099
兼三才而兩之	-11.4099
樸	-11.41
項氏安世曰	-11.41
而不去	-11.4102
日中見斗	-11.4103
隂柔小人	-11.4104
為玉	-11.4105
鵠	-11.4105
徳盛	-11.4105
爰	-11.4106
文王與紂之事	-11.4106
校官	-11.4106
風自火出	-11.4106
警戒	-11.4107
否之匪人	-11.4107
馴致	-11.4113
吉且无咎	-11.4114
不可移	-11.4116
者異矣	-11.4122
兊説	-11.4122
右肱	-11.4122
養萬物	-11.4124
不得行	-11.4125
剛柔相易	-11.4127
人謀	-11.4127
莫敢	-11.4132
之妙用	-11.4133
所居之位	-11.4141
十干	-11.4141
大亨貞	-11.4142
一歲	-11.4142
告命	-11.4143
貫通	-11.4148
二陽在上	-11.415
震為大塗	-11.4154
不陷	-11.4156
有取於	-11.4156
不煩	-11.4158
卧	-11.4161
慘	-11.4162
状	-11.4164
一耦	-11.4165
无患	-11.4166
輔頰	-11.4167
狼	-11.4167
能需	-11.4167
九五剛健中正	-11.4167
倖	-11.4168
河出圖洛出書聖人則之	-11.4168
文王八卦	-11.4169
長子帥師	-11.417
八卦而小成	-11.417
盤庚	-11.4171
陷溺	-11.4171
相盪	-11.4172
萃之時	-11.4173
肅殺	-11.4175
伏坎	-11.4175
水澤	-11.4176
晁説之	-11.4177
朱氏附録問	-11.4177
曲折	-11.4178
兢兢	-11.4178
許多道理	-11.418
釋氏	-11.4185
汲引	-11.4188
无傷	-11.4188
内剛	-11.4191
不計	-11.4194
一邊	-11.4197
訂詁曰	-11.4201
初與四應	-11.4204
利有所往	-11.4206
大首	-11.4208
天下和平	-11.4208
柔在内	-11.4214
故得无咎	-11.4214
來連	-11.4215
志行正	-11.4215
滅息	-11.4219
先天後天	-11.422
綴	-11.4222
吸	-11.4223
未嘗无	-11.4223
臯	-11.4225
孫士毅	-11.4225
嬰	-11.4226
儘	-11.4226
欽定四庫全書經部一	-11.4226
等謹案	-11.4227
掃	-11.4228
綱領	-11.4228
卦之徳	-11.4228
傍	-11.4228
乗馬	-11.4229
有孚在道	-11.423
芳	-11.423
乾上九	-11.423
二百一十有六	-11.4231
懲忿窒欲	-11.4232
有孚顒若	-11.4232
栗	-11.4232
宋儒	-11.4233
殊塗	-11.4233
安貞吉	-11.4237
天地生物之心	-11.4238
為大腹	-11.4238
交泰	-11.4241
底事	-11.4241
來徐徐	-11.4241
乾為金	-11.4245
物之始生	-11.4246
豈容	-11.4247
未有與	-11.4249
覆卦	-11.425
先君	-11.4253
章句	-11.4255
不恤	-11.426
之宜也	-11.4261
畜牝牛吉	-11.4268
不苟	-11.4269
往吉	-11.427
各得其宜	-11.4272
程子云	-11.4272
可小事	-11.4274
恐未	-11.4279
坎月	-11.4279
剛健之才	-11.4282
小篆	-11.4283
聽命	-11.4283
臨卦	-11.4284
俟時	-11.4284
始作八卦	-11.4285
喙	-11.4286
竆	-11.4287
矯輮	-11.4288
最先	-11.4288
非聖人之	-11.429
乾隆四十	-11.429
睿	-11.429
􁀅	-11.4291
不俟終日	-11.4291
明辨	-11.4292
升虚邑	-11.4292
垂其翼	-11.4294
不出户庭	-11.4295
君子夬夬	-11.4295
衡水孔氏曰	-11.4297
而不行	-11.4297
板	-11.4298
㧞茅	-11.4298
泣血漣如	-11.4298
公用射隼	-11.4299
同人于郊	-11.4299
得這	-11.43
倣	-11.4303
其迹	-11.4303
由頤	-11.4303
者物之	-11.4306
古文作	-11.4306
同人之道	-11.4308
不驕	-11.4309
戒深矣	-11.4309
九年	-11.431
邪媚	-11.431
五與上	-11.4312
極則必	-11.4317
柔而得中	-11.4321
各爻	-11.4325
奮發	-11.4329
各不同	-11.433
去就	-11.4331
剛為柔	-11.4331
安得有	-11.4332
代終	-11.4332
誰能	-11.4335
朋來无咎	-11.4337
謂之器	-11.4339
初應四	-11.4348
即鹿	-11.4352
匪冦婚媾	-11.4353
級	-11.4353
其羽	-11.4354
遞	-11.4354
昀	-11.4354
一以貫之	-11.4354
之利也	-11.4356
参	-11.4358
朶頥	-11.4359
先甲三日	-11.4359
立春	-11.436
王三錫命	-11.436
三年克之	-11.436
閽	-11.4361
既濟之初	-11.4363
得遂其	-11.4363
不言而信	-11.4365
過中則	-11.4366
處尊	-11.4366
洊雷	-11.4367
往有尚	-11.4367
象故明	-11.437
克家	-11.4372
誰咎	-11.4373
致命	-11.4376
倦	-11.4376
後面	-11.4377
剛自外來	-11.4379
密雲	-11.4381
乖離	-11.4385
指六五	-11.4386
亦謂之	-11.4389
以二體言	-11.4397
俱作	-11.4399
順乎天	-11.4403
見吝	-11.441
知進退存亡	-11.4412
焚其次	-11.4413
施之於	-11.4414
聖人以此	-11.4415
十二年	-11.4416
刋	-11.4417
高宗	-11.4417
盡神	-11.4419
蘊	-11.442
能止健	-11.442
之福也	-11.4421
輙	-11.4423
苛	-11.4423
乾元用九	-11.4423
風行水上	-11.4424
後得主而有常	-11.4424
欲及時	-11.4424
咸其拇	-11.4425
行其庭	-11.4426
呉氏	-11.4429
艮其輔	-11.4429
為心病	-11.443
入神	-11.4431
觀象玩辭	-11.4432
得其友	-11.4432
損剛益柔	-11.4433
來章	-11.4434
和說	-11.4434
趨下	-11.4434
乾坤交	-11.4435
奇耦	-11.4435
貞夫一	-11.4436
牛馬	-11.4436
无異	-11.4441
交互	-11.4442
于其間	-11.4443
以其鄰	-11.4445
不可使	-11.4445
逼近	-11.4451
㝠升	-11.4451
指上九	-11.4452
而言之也	-11.4452
禮卑	-11.4459
有譽	-11.4461
必亨	-11.4465
咸卦	-11.4467
養身	-11.447
居下卦之上	-11.447
浸而長	-11.4471
剛躁	-11.4474
序卦傳曰	-11.4474
晉侯	-11.4476
易之辭	-11.4478
蟹	-11.448
虚心	-11.448
可保	-11.4482
觀示	-11.4482
如天之	-11.4484
終日戒	-11.4485
羈	-11.4485
二四六八十	-11.4487
詣	-11.4488
壓	-11.4488
韜	-11.4489
合訂刪補大易集義粹言	-11.449
鈞	-11.449
剛上文柔	-11.4491
庶民	-11.4492
鷙	-11.4493
頥大過	-11.4493
家人利女貞	-11.4496
剛柔皆應	-11.4498
春生	-11.4499
女正位乎内	-11.45
厲无咎	-11.45
安節	-11.45
窮盡	-11.4501
財成	-11.4502
涉險	-11.4506
也周公繫	-11.451
不幸而	-11.4511
離中虚	-11.4512
而莫之	-11.4518
質本	-11.452
剛柔相應	-11.4522
造作	-11.4526
力行	-11.4529
汲水	-11.4529
上巽下	-11.453
光顯	-11.4531
離之明	-11.4535
魁	-11.4541
舉鼎	-11.4542
未光大也	-11.4543
輝	-11.4544
涕洟	-11.4547
修辭立誠	-11.4547
裹	-11.4547
月恭校上總纂	-11.4549
天地之理	-11.455
沾	-11.455
孚乃利用禴	-11.455
喜怒哀樂	-11.4551
梏	-11.4551
澤无水	-11.4551
剛自外來而為主於内	-11.4551
跋	-11.4551
杌	-11.4552
載鬼一車	-11.4553
輔頰舌	-11.4553
困于葛藟	-11.4554
黷	-11.4554
怯	-11.4554
者也故為	-11.4555
百四十有四	-11.4556
坤至柔而動也剛	-11.4556
立天之道曰隂與陽	-11.4556
以宫人寵	-11.4557
覆餗	-11.4557
失身	-11.4557
老氏	-11.4557
遊魂	-11.4558
水土	-11.4559
故次之以	-11.4561
咎不長	-11.4566
莫之與	-11.4567
以養其	-11.4567
繇辭	-11.4584
吝道也	-11.4585
使小人	-11.4586
知其為	-11.4587
羣臣	-11.4588
井田	-11.4591
存誠	-11.4592
為巫	-11.4594
不疚	-11.4594
甚難	-11.4597
説文作	-11.4603
何也葢	-11.4604
不能制	-11.4605
故不曰	-11.4606
知命	-11.4606
凶可知矣	-11.4607
在本爻	-11.4612
黄離	-11.4613
安平	-11.4613
朶	-11.4616
宛	-11.4616
戰乎乾	-11.4618
枉道	-11.4618
朽	-11.4619
不戒以孚	-11.4621
畨	-11.4621
參伍以變	-11.4623
解悖	-11.4624
來之坎坎	-11.4624
得正而吉	-11.4624
日昃之離	-11.4624
黄牛之革	-11.4626
使不得	-11.4627
賢人在下位而无輔是以動而有悔也	-11.4627
迭運	-11.4628
生生不窮	-11.4629
勿藥	-11.463
至尊之位	-11.463
提要	-11.463
幽谷	-11.4632
只説	-11.4633
坎之中	-11.4634
天地相遇	-11.4636
柔麗乎中正	-11.4637
不可踰	-11.4639
家道正	-11.464
坎不盈	-11.464
離兑	-11.4642
窮困	-11.4645
巽離兊	-11.4645
其機	-11.4647
君子之人	-11.4648
曉然	-11.4648
釋彖辭	-11.465
文王之易	-11.4656
以卦徳言	-11.4659
持盈	-11.4661
為二所	-11.4663
害民	-11.4664
志在於	-11.4667
學士	-11.4669
太虚	-11.4677
頤中	-11.4678
絜	-11.4679
二偶	-11.4681
萑葦	-11.4682
勃	-11.4684
畜極	-11.4684
邵氏	-11.4685
月㡬望	-11.4686
裒多益寡	-11.4686
張氏曰	-11.4686
綏	-11.4687
偷	-11.4687
臻	-11.4688
僥倖	-11.4688
以一柔	-11.4688
易簡而天下之理得	-11.4689
臨民	-11.469
賔客	-11.469
楊誠齋曰	-11.469
山下出泉	-11.469
初吉終亂	-11.469
腊肉	-11.4691
弗過遇之	-11.4691
粲然	-11.4691
辭占	-11.4692
无咎之道也	-11.4692
孚號有厲	-11.4693
為木果	-11.4693
矍矍	-11.4694
分而為二	-11.4696
互見	-11.4696
莫測	-11.4699
之能事	-11.47
賢人君子	-11.47
心志	-11.4703
二陽之間	-11.4704
既雨	-11.4706
以隂居柔	-11.4706
因時而	-11.4707
固守其	-11.4708
咸感	-11.4709
為主於内	-11.4711
相敵	-11.4712
二之剛	-11.4713
居室	-11.4715
多眚	-11.4715
四多懼	-11.4717
術數	-11.4719
修辭	-11.472
之兆	-11.4721
罪大	-11.4722
致宼	-11.4725
已過中	-11.4728
煦按	-11.4729
所賴	-11.4732
圗書	-11.4733
隨風	-11.4739
有中正之徳	-11.474
蓏	-11.4746
以順而	-11.4747
十五日	-11.4749
祚	-11.475
圈	-11.475
需于酒食	-11.4751
自强	-11.4751
曷為	-11.4752
男正位乎外	-11.4753
眩	-11.4754
雨澤	-11.4755
吉凶悔吝生乎動	-11.4756
王假之	-11.4757
蒙引曰	-11.4757
案此	-11.4758
髙亢	-11.4759
噬乾肉	-11.476
十朋	-11.4762
箕子之明夷	-11.4762
貞觀	-11.4763
盡利	-11.4763
介然	-11.4765
庶㡬	-11.4765
三居下之上	-11.4767
在下卦	-11.4769
三四兩爻	-11.4769
賢臣	-11.4771
互乾	-11.4771
三極之道	-11.4771
維持	-11.4772
復加	-11.4772
萬殊	-11.4779
先聖	-11.4784
此例	-11.4786
心思	-11.4787
當萃之時	-11.479
形迹	-11.4791
不得其所	-11.4796
終无尤	-11.4806
之意深矣	-11.4807
上應六五	-11.4808
元吉无咎	-11.4812
瑣	-11.4814
義以方外	-11.4815
斾	-11.4816
壽	-11.4816
雷出地奮	-11.4816
溫	-11.4818
馮當可曰	-11.482
晳	-11.482
彩	-11.4821
乍	-11.4822
即鹿无虞	-11.4823
不可疾貞	-11.4825
藉用白茅	-11.4826
何謂也曰	-11.4827
可憂	-11.4828
不拯其隨	-11.4828
為利也	-11.4829
好生	-11.4831
矣雖然	-11.4831
同人于野亨	-11.4838
初九九二	-11.4838
動用	-11.4841
文在中	-11.4848
以大終	-11.4859
五與十	-11.4862
為上所	-11.4863
高位	-11.4865
斯時也	-11.4865
未得位	-11.4866
異體	-11.4869
彼此相	-11.4869
揮	-11.4871
未𤼵	-11.4873
斯義	-11.4876
時而動	-11.4879
之所以亨也	-11.4879
大者過	-11.4879
繫傳	-11.4882
刖	-11.4883
淡	-11.4884
王肅作	-11.4886
詎	-11.4886
沖	-11.4887
蠃	-11.4887
耑	-11.4888
大人否亨	-11.4888
隂陽不測之謂神	-11.4889
或躍在淵	-11.489
以象變言之	-11.4891
風行天上	-11.4891
匱	-11.4891
保泰	-11.4893
通塞	-11.4893
後學	-11.4894
巽坎艮坤	-11.4895
渙其躬	-11.4896
語黙	-11.4897
鼎有實	-11.4901
小畜履	-11.4903
居下卦之中	-11.4904
乘馬	-11.4911
後世聖人	-11.4913
金矢	-11.4914
下三爻皆	-11.4916
无息	-11.4918
徃而不	-11.492
決躁	-11.492
與他卦	-11.4927
者人也	-11.4932
為小人所	-11.4933
容心	-11.4933
往无咎	-11.4934
通理	-11.4935
三多凶	-11.4938
不差	-11.4939
離麗	-11.4939
亂世	-11.4941
在上位	-11.4943
錯綜其數	-11.4943
過渉	-11.4944
先甲	-11.4946
吳氏曰	-11.4947
峯	-11.4948
卦之變	-11.4949
不可如何	-11.4951
正位居體	-11.4953
以致其	-11.4954
豐旅	-11.4954
其於木也	-11.4955
賀	-11.4955
哭	-11.4955
先庚後庚	-11.4955
東萊	-11.4955
鄭康成曰	-11.4956
志未變	-11.4956
苴	-11.4956
終朝	-11.4957
感而遂通	-11.4957
閔	-11.4958
祈	-11.4958
止而巽	-11.4958
汨	-11.496
辜	-11.496
縛	-11.4961
柔皆順乎剛	-11.4961
耿睎道曰	-11.4961
劣	-11.4963
陸希聲	-11.4963
鄭注	-11.4965
曵其輪	-11.4965
斷天下之疑	-11.4966
茍能	-11.4969
相逺	-11.4974
无過咎	-11.4978
則吉矣	-11.4978
所以戒	-11.4984
悔厲	-11.4986
危道也	-11.4987
每爻	-11.4996
寡過	-11.4998
彚征	-11.5004
困井	-11.5005
虞仲翔曰	-11.5005
大寳	-11.5005
制事	-11.5009
躁妄	-11.5011
无敢	-11.5012
王庭	-11.5013
一截	-11.5015
壤	-11.5019
詁	-11.5021
所自出	-11.5022
倐	-11.5023
艾	-11.5025
地中生木	-11.5025
鄒	-11.5025
三嵗不覿	-11.5026
水火不相射	-11.5026
悍	-11.5027
銷	-11.5027
徃有功	-11.5027
説卦傳	-11.5028
瞿	-11.5028
以木巽火	-11.5029
優游	-11.503
告自邑	-11.5031
推本	-11.5032
物无不	-11.5032
為衆所	-11.5043
自卑	-11.5043
十四卦	-11.5047
數七	-11.505
天地鬼神	-11.5052
互換	-11.5053
氣運	-11.5053
无違	-11.5066
凡例	-11.5072
震東	-11.5077
隨其所	-11.5077
初上二爻	-11.5079
得其情	-11.5088
耦數	-11.5091
刳	-11.5092
硬	-11.5094
不悖	-11.5094
居下位	-11.5095
豶豕	-11.5095
臀无膚	-11.5095
使人知	-11.5095
何不利之有	-11.5097
亭	-11.5098
大有慶	-11.5099
成天下之務	-11.5099
綽	-11.51
舍車而徒	-11.51
不拘	-11.51
樞機	-11.5101
安土	-11.5102
底物事	-11.5103
用此道	-11.5103
只是說	-11.5106
動闢	-11.5106
輕清	-11.5108
爻畫	-11.5108
用之於	-11.5109
之中畫	-11.5114
有所待	-11.5117
美利	-11.5118
上下之情	-11.5118
皤	-11.5131
春秋傳曰	-11.5134
在山上	-11.5134
皤如	-11.5135
大略	-11.5136
説文云	-11.5144
蓍策	-11.5146
豈獨	-11.5147
輕動	-11.5147
獄訟	-11.5149
以隂居下	-11.5149
箇物事	-11.5155
何思何慮	-11.5155
墳	-11.5156
䏻	-11.5158
稷	-11.5161
乾南坤北	-11.5163
豪傑	-11.5164
禦宼	-11.5165
巽乎水而上水	-11.5166
易逆數也	-11.5168
鉤	-11.5169
柔上而剛下	-11.5169
損一人	-11.517
東漢	-11.5171
天三地四天五地六天七地八天九地十	-11.5171
成泰	-11.5171
上震下	-11.5171
以順動	-11.5171
國君	-11.5174
恒不死	-11.5174
利己	-11.5175
兌為澤	-11.5175
率性	-11.5177
盡之矣	-11.5177
感而遂通天下之故	-11.5178
致飾	-11.5179
所由生	-11.5179
費氏	-11.5181
豐盛	-11.5183
而上同	-11.5183
過揲之數	-11.5184
撰下經	-11.5184
除害	-11.5184
是以自天祐之吉无不利	-11.5185
占者如是	-11.5192
君臣之義	-11.5192
逸樂	-11.5193
牽合	-11.5196
幽贊	-11.5201
▁雙湖先生曰	-11.5205
果何	-11.5207
在下卦之中	-11.5211
焚如	-11.5211
惕然	-11.5212
目前	-11.5212
失節	-11.522
二隂之下	-11.5228
國邑	-11.5231
蚌	-11.5231
處非其位	-11.5231
楊廷秀曰	-11.5232
舊說	-11.5233
誼	-11.5234
拾遺	-11.5235
晝日三接	-11.5237
阨	-11.5237
无思无為	-11.5237
裴	-11.5238
酬	-11.5238
贄	-11.5238
格物	-11.5238
烏能	-11.5238
鏡	-11.5238
聖人有以見天下之賾	-11.5239
山下有險	-11.524
十年乃字	-11.5242
喪其資斧	-11.5242
輿説輹	-11.5244
中心願	-11.5245
未失道也	-11.5246
下乾上	-11.5246
實事	-11.5249
惕懼	-11.5251
神明其徳	-11.5254
公卿	-11.5258
聖功	-11.526
何也盖	-11.5261
南征吉	-11.5263
以柔乗剛	-11.5269
六爻皆變	-11.527
萬事萬物	-11.5272
生成萬物	-11.5272
有小大	-11.5274
順性命之理	-11.5276
不遑	-11.5278
坎為加憂	-11.5281
九四以陽居隂	-11.5282
法地	-11.5284
翰林院	-11.5285
天道人事	-11.5287
係遯	-11.5289
柔順利貞	-11.5292
最近	-11.5299
不出户庭无咎	-11.53
楫	-11.5301
趨於	-11.5303
規模	-11.5303
厎	-11.5304
蠻	-11.5305
引而伸之	-11.5305
九五之剛	-11.5305
確乎	-11.5305
黄中通理	-11.5308
繪	-11.5308
朗	-11.5309
洋	-11.5309
儻	-11.5309
不耕穫不菑畬	-11.531
夷于左股	-11.5311
其欲逐逐	-11.5312
賁于丘園	-11.5313
何校滅耳	-11.5313
不見其妻	-11.5314
君臣之分	-11.5314
有所係	-11.5315
為圜	-11.5315
變化云為	-11.5316
地中有水	-11.5316
果行	-11.5322
觀其所養	-11.5323
用四十九	-11.5327
亂邦	-11.533
班固	-11.5336
六十有四	-11.5338
所資	-11.534
尚徃	-11.5342
修治	-11.5342
在人事	-11.5344
晉進也	-11.5345
日光	-11.5347
不能久	-11.5349
議論	-11.5354
將軍	-11.5354
羣龍无首	-11.5355
那裏	-11.5357
㢲順	-11.5357
其志得行	-11.5357
莫夜	-11.5358
一卦六爻	-11.5359
隂陽之變	-11.5362
先後天	-11.5363
卑髙	-11.5365
趙氏	-11.5366
僅可	-11.5367
發此義	-11.5368
堅多節	-11.5369
不言吉凶	-11.5369
大无功	-11.5371
不能自立	-11.5374
棺槨	-11.5376
淹	-11.5376
碍	-11.5378
立象以盡意	-11.5378
過其祖	-11.5378
傷財	-11.5378
勿憂宜日中	-11.5379
吳幼清	-11.5379
王用出征	-11.5379
上无正應	-11.538
慊	-11.538
神農氏	-11.538
羨	-11.5381
衆君子	-11.5381
卑順	-11.5381
无往而不	-11.5382
籠	-11.5382
立不易方	-11.5382
理於義	-11.5382
雷以動之	-11.5385
在外卦	-11.5387
壯于趾	-11.5389
泰小往大來吉亨	-11.539
得位得中	-11.5391
民之所	-11.5395
尊賢	-11.5398
幽暗	-11.5399
夜半	-11.54
畜養	-11.5403
下巽上	-11.5406
之言曰	-11.5407
反其類	-11.5411
二四上	-11.5412
䷊(	-11.5414
鳥飛	-11.5418
剛決柔	-11.5418
杵臼	-11.542
博厚	-11.5421
持守	-11.5424
憂勤	-11.5425
坎為志	-11.543
道之成	-11.543
斷金	-11.5431
流形	-11.5431
到底	-11.5437
乎是故	-11.544
異端	-11.5443
亢極	-11.5443
來矣鮮曰	-11.5444
長養	-11.5444
骸	-11.5448
鋒	-11.5449
見幾而作	-11.5449
弗克攻	-11.545
收歛	-11.5452
陟	-11.5452
罅	-11.5452
昭明	-11.5454
納約自牖	-11.5454
滌	-11.5456
易之為道	-11.5456
承乘	-11.5456
初登于天	-11.5457
小狐汔濟	-11.5458
天下何思何慮	-11.5462
不妄動	-11.5463
撰上經	-11.5465
桓公	-11.5465
何憂	-11.5468
一隂始生	-11.5469
和氣	-11.5477
未始不	-11.5477
未出中	-11.5478
摩盪	-11.548
二與五應	-11.548
鼎之用	-11.5484
曽子	-11.5484
郭雍	-11.5486
以正邦也	-11.5489
女之歸	-11.549
不可掩	-11.5492
牛掣	-11.5496
位卑	-11.5499
勞民	-11.551
三倍	-11.5512
曲盡	-11.5514
含𢎞	-11.5514
衆陰	-11.5515
以上為	-11.5519
可以免	-11.552
濯	-11.552
六爻之位	-11.5521
縶	-11.5521
聰明睿知	-11.5522
儼	-11.5523
弔	-11.5523
象其物宜	-11.5524
詘	-11.5524
煇	-11.5525
一剛一柔	-11.5525
遏惡揚善	-11.5526
乘馬班如	-11.5527
含𢎞光大	-11.5527
易有太極是生兩儀兩儀生四象四象生	-11.5527
闔户	-11.5529
貞大人吉	-11.5529
占得此爻	-11.5532
只取	-11.5534
强梗	-11.5535
无所往而	-11.5536
亡其悔	-11.5536
不早	-11.5537
卷七	-11.554
相親比	-11.5541
无位之地	-11.5543
免於咎	-11.5545
居東南	-11.5546
人物之	-11.5546
止息	-11.5552
明庶政	-11.5555
井泥	-11.5557
隔絶	-11.5557
當睽之時	-11.5558
足以濟	-11.556
黄牛	-11.5561
所乗	-11.5563
彖傳所謂	-11.5563
以别之	-11.5564
未離乎	-11.557
紛若	-11.5571
大易之道	-11.5575
餘年	-11.5581
其義一也	-11.5586
不出於	-11.5586
凍	-11.5588
用圭	-11.5591
鱗	-11.5591
可用汲	-11.5591
嗇	-11.5591
億兆	-11.5595
六位時成	-11.5595
血去惕出	-11.5595
戢	-11.5596
无敢折獄	-11.5597
鼓缶而歌	-11.5597
啻	-11.5598
膂	-11.56
垂翼	-11.5601
人誰	-11.5602
應援	-11.5604
震東方	-11.5608
趣時	-11.5608
三與上應	-11.5611
羞惡	-11.5611
不能以自	-11.5613
者天也	-11.5614
此二者	-11.5616
示之以	-11.5617
建立	-11.5619
嫌于	-11.5622
含容	-11.5626
虞云	-11.5629
偶數	-11.5633
上體為	-11.5639
専一	-11.5639
道濟天下	-11.564
日月四時	-11.5642
人鬼	-11.5647
是以元亨	-11.5651
積善	-11.5652
麻	-11.5661
時舍	-11.5662
長少	-11.5663
尚口	-11.5664
腐	-11.5664
近利市三倍	-11.5665
厥宗噬膚	-11.5667
騁	-11.5667
孺	-11.5667
伊川説	-11.5667
連山歸藏	-11.5668
採	-11.5669
童溪王氏曰	-11.5669
乾以易知坤以簡能	-11.5669
履錯然	-11.567
致命遂志	-11.5671
正位凝命	-11.5671
覲	-11.5672
坎為豕	-11.5672
未遽	-11.5672
君子法之	-11.5673
戚嗟	-11.5674
何以謂之	-11.5675
位乎天位	-11.5675
有以見天下之動而觀其㑹通以行其	-11.5676
无不利矣	-11.5678
之後受之以	-11.5678
宜待	-11.5679
二與三	-11.5681
剛决	-11.5682
羲文	-11.5683
震蘇蘇	-11.5688
劉向	-11.5693
用大牲吉	-11.5698
告戒	-11.57
說到	-11.5713
程子語	-11.5724
尊嚴	-11.5724
不可廢	-11.5727
井甃	-11.5728
兩儀四象八卦	-11.5733
僞	-11.5734
巽繩	-11.5735
戲	-11.5735
鐵	-11.5735
嘘	-11.5736
嶽	-11.5739
什	-11.5741
而不止	-11.5741
須臾	-11.5742
憾	-11.5742
求養于	-11.5742
繞	-11.5742
䋲	-11.5744
其子和之	-11.5745
厚徳載物	-11.5746
驩	-11.5747
用大牲吉利有攸往	-11.5747
整齊	-11.5747
得臣无家	-11.5748
終止則亂	-11.5749
方圓	-11.5751
再揲	-11.5752
俞	-11.5752
非禮弗履	-11.5752
吕祖謙	-11.5753
行而未成	-11.5753
剛而得正	-11.5754
摧如	-11.5759
義之和	-11.5769
十八卦	-11.5774
理之常	-11.5786
頻失	-11.5786
剛強	-11.579
愁如	-11.5791
過差	-11.5792
道大行	-11.5795
馮氏	-11.5796
豐其屋	-11.5816
之善也	-11.5816
舛	-11.5818
在師中吉	-11.5818
象閏	-11.5819
揚子雲	-11.5819
利于貞	-11.582
錫馬蕃庶	-11.582
知來者逆	-11.582
申命行事	-11.5821
官有渝	-11.5822
以隂柔之質	-11.5823
藩決不羸	-11.5823
主人有言	-11.5824
柯	-11.5824
不利即戎	-11.5824
後入于地	-11.5825
到這裏	-11.5826
上乾下	-11.5828
設險	-11.5831
俯仰	-11.5834
以辟咎	-11.584
贊化育	-11.5844
其所行	-11.5845
化裁	-11.5854
成六十四卦	-11.5867
汲井	-11.5869
生稊	-11.5873
才柔	-11.5874
毒天下	-11.5875
有許多	-11.5875
豫防	-11.5879
虞翻曰謂	-11.588
親附	-11.588
聲聞	-11.588
進而上行	-11.5882
未達	-11.5886
所同者	-11.5886
筮遇	-11.5887
趙復齋曰	-11.5889
桀紂	-11.5889
天一生水	-11.5892
耻	-11.5893
囿	-11.5894
開國	-11.5894
智力	-11.5895
獨行遇雨	-11.5895
敘	-11.5896
頥中有物	-11.5896
數往者順	-11.5896
愚竊謂	-11.5896
不可輕	-11.5897
或承之羞	-11.5898
郭氏雍曰	-11.5899
與天地準	-11.5899
九州	-11.5901
凡益之道與時偕行	-11.5902
朱先生	-11.5902
婦子嘻嘻	-11.5904
李氏舜臣曰	-11.5905
文明以止	-11.5906
動而健	-11.5907
研幾	-11.5908
莫之勝	-11.5909
本亦作	-11.5912
睽極	-11.5912
十二辰	-11.5914
待時而動	-11.5915
卜筮之書	-11.5916
室家	-11.5917
會通	-11.5917
漢唐	-11.5917
道之正	-11.5918
聖人之作易	-11.592
求婚媾	-11.5926
月之卦也	-11.5926
幾何	-11.5927
果決	-11.593
化醇	-11.5935
逼於	-11.5937
諸卦皆	-11.5938
可以无咎矣	-11.5939
四維	-11.5941
永貞吉	-11.5942
何尤	-11.5943
莫知所	-11.5947
陸績曰	-11.5948
大有上九	-11.5951
便見得	-11.5951
遂泥	-11.5956
為蕃鮮	-11.5958
非其應	-11.596
臼	-11.5961
的顙	-11.5962
避難	-11.5963
兔	-11.5964
濶	-11.5965
彛	-11.5965
設戒	-11.5966
喚	-11.5967
蒲	-11.5968
葬	-11.5969
中正而應	-11.5971
大往小來	-11.5971
父子兄弟夫婦	-11.5972
伏羲八卦	-11.5972
都聖與曰	-11.5973
繫于苞桑	-11.5974
鳴鶴在隂其子和之我有好爵吾與爾靡	-11.5974
至于八月有凶	-11.5975
陽並進	-11.5975
白馬	-11.5978
一人行	-11.598
盈科	-11.5985
者鮮矣	-11.5988
主祭	-11.5989
鄭氏曰	-11.5992
在中饋	-11.5999
為堅多心	-11.5999
天地之文	-11.6006
五以柔中	-11.6006
坤之初六	-11.6007
與之合	-11.6007
勝負	-11.6009
三十卦	-11.601
封建	-11.6013
一卦之義	-11.6014
説到	-11.6015
以中為	-11.6019
元首	-11.6021
隂物也	-11.6026
太卜	-11.6026
未聞	-11.6033
感格	-11.6033
育德	-11.6034
之所以成	-11.6035
閎	-11.6041
葦	-11.6041
瀦	-11.6042
遯而亨	-11.6042
稱物平施	-11.6044
罕	-11.6045
將帥	-11.6045
剛來而得中	-11.6047
耗	-11.6047
数	-11.6047
其形渥	-11.6048
沱	-11.6049
管仲	-11.605
逝	-11.605
當期之日	-11.605
狃	-11.605
初六藉用白茅无咎	-11.6051
需于郊	-11.6052
大過之時大矣哉	-11.6053
艮其腓	-11.6054
賁其趾	-11.6055
有不善未嘗不知知之未嘗復行	-11.6056
革鼎	-11.6059
羸角	-11.6061
七年	-11.6062
在上卦之下	-11.6062
不撓	-11.6065
上逮	-11.6065
禁止	-11.6076
治世	-11.6078
昭昭	-11.6079
凶悔吝	-11.6083
自此以下	-11.6085
繼世	-11.6087
卦名義	-11.6095
八百	-11.6095
无成有終	-11.6097
三十有六	-11.6099
引重	-11.6108
不知節	-11.6112
五居君位	-11.6115
存存	-11.6115
打	-11.6118
巽離兌	-11.6118
所當損	-11.6118
遇元夫	-11.6119
蘭惠卿曰	-11.612
得行其志	-11.612
李去非曰	-11.6122
筴	-11.6123
不易乎世	-11.6124
以九居五	-11.6125
艮為少男	-11.6125
振作	-11.6125
告公用圭	-11.6125
五多功	-11.6125
行過乎恭	-11.6127
大中至正	-11.6127
熇	-11.6127
觀盥而不薦有孚顒若	-11.6127
龍虎	-11.6129
綱紀	-11.613
邪僻	-11.613
屯難之世	-11.6131
之通例	-11.6131
繫之以辭	-11.6134
下嫁	-11.6139
何如哉	-11.614
河南	-11.6144
子路	-11.6144
治國	-11.6149
許慎	-11.6149
何等	-11.615
君側	-11.6152
坤為順	-11.6156
所繫之辭	-11.6157
鳴鶴	-11.6162
大壯利貞	-11.6163
方以知	-11.6167
形而上	-11.6174
三畫之卦	-11.6176
不中故	-11.618
防患	-11.6186
致冦	-11.619
人而人	-11.6192
東西南北	-11.6192
十二篇	-11.6192
焚巢	-11.6193
行不順	-11.6193
殻	-11.6193
恭敬	-11.6194
森	-11.6195
一層	-11.6195
壺	-11.6196
員	-11.6197
糾	-11.6197
刃	-11.6197
肺	-11.6198
可與存義	-11.6198
地中有山	-11.6199
殖	-11.6199
修辭立其誠	-11.62
得尚于中行	-11.62
復即命渝安貞	-11.62
成男	-11.62
踵	-11.6201
歸妹以娣	-11.6202
應於二	-11.6202
閑輿衛	-11.6202
濬	-11.6202
順而麗乎大明	-11.6203
見險而能止	-11.6203
為之防	-11.6204
物與无妄	-11.6204
惟變所適	-11.6204
天下之動貞夫一者也	-11.6205
本乎天	-11.6205
立地之道曰柔與剛立人之道曰仁與義	-11.6205
成性存存道義之門	-11.6205
彖象文言	-11.6206
女子貞不字十年乃字	-11.6206
南軒張氏曰	-11.6206
其用四十有九	-11.6206
剛過而中	-11.6207
聰不明	-11.6207
林中	-11.6208
察來	-11.6209
大者壯也	-11.6209
漸近	-11.621
陽剛得正	-11.6211
草昧	-11.6213
履非其位	-11.6214
天數五	-11.6214
无物不	-11.6219
四與上	-11.6229
雨露	-11.6229
白虎	-11.6231
以人言	-11.6235
君子不以	-11.6239
妙萬物	-11.6241
而不自知	-11.6241
倫理	-11.6248
九五居尊	-11.6252
勿用師	-11.6252
物之情	-11.6255
繫之辭	-11.6259
不敢輕	-11.627
荘	-11.6272
丕	-11.6273
大耋之嗟	-11.6276
柝	-11.6277
豫利建侯行師	-11.6278
迭用	-11.628
俞石澗曰	-11.628
何患	-11.6281
群	-11.6282
明道先生曰	-11.6283
隨元亨利貞无咎	-11.6284
上无其應	-11.6285
水洊至	-11.6287
吉道也	-11.6288
何為哉	-11.6296
以陽處	-11.6298
疚	-11.6302
中正以觀天下	-11.6304
慮患	-11.6305
奈	-11.6306
憂危	-11.6308
富以其鄰	-11.6311
由之而	-11.6314
其道上行	-11.6316
何校	-11.6317
為大塗	-11.6322
示戒	-11.6329
得友	-11.6329
親寡	-11.6341
故戒占者	-11.6342
易簡之理	-11.6346
斯世	-11.6347
姤遇也柔遇剛也	-11.6347
古之聖人	-11.635
童溪曰	-11.6351
填	-11.6351
眷	-11.6352
罔罟	-11.6353
水火相息	-11.6353
𨽻	-11.6354
䖏	-11.6355
品物咸亨	-11.6355
九五一爻	-11.6355
困于赤紱	-11.6356
軀	-11.6356
議獄緩死	-11.6357
仁傑	-11.6357
不能有為	-11.6358
九四之剛	-11.6358
雲上於天	-11.6359
日中則昃	-11.6359
初與上	-11.6359
大哉乾元	-11.6359
巽五坎六艮七坤八	-11.636
定天下之吉凶成天下之亹亹者	-11.636
係應	-11.6361
究竟	-11.6361
文明以止人文也	-11.6362
最好	-11.6362
不寧方來	-11.6362
艮男	-11.6363
過以相與	-11.6364
在下之賢	-11.6366
胷中	-11.6368
充塞	-11.6369
有是徳	-11.6369
六畫卦	-11.637
陽始生	-11.6371
其來復吉	-11.6372
王室	-11.6374
牽强	-11.6376
馬鄭	-11.6382
太史	-11.6383
神明之徳	-11.6384
與之俱	-11.6388
雖危而	-11.6389
運轉	-11.6395
舊本	-11.6402
百慮	-11.6406
自天祐之吉无不利	-11.6408
三應上	-11.6416
程先生	-11.642
度量	-11.642
乗木	-11.6425
微顯	-11.6431
股肱	-11.6434
逺取諸物	-11.6434
反身修徳	-11.6435
九二貞吉	-11.6436
版	-11.6436
躐	-11.6436
藏器	-11.6437
諄諄	-11.6437
𤼵揮	-11.6438
質卿曰	-11.6438
讎	-11.6438
品物流形	-11.6439
涖	-11.6439
荀九家有為	-11.644
不拒	-11.644
嘻	-11.644
樂天知命	-11.644
時止則止時行則行	-11.6441
喪過乎哀用過乎儉	-11.6441
宦	-11.6442
動而以順行	-11.6442
愚又按	-11.6442
當其時	-11.6442
三至上	-11.6443
徃来	-11.6444
同人先號咷而後笑	-11.6444
得黄矢	-11.6445
輿說輹	-11.6446
如何先生曰	-11.6447
君子得輿	-11.6447
増益	-11.6447
射隼	-11.6447
未可遽	-11.645
明夷利艱貞	-11.6452
晦藏	-11.6453
艮其止	-11.6458
宻雲	-11.6459
奉天	-11.646
躬行	-11.6464
進退不果	-11.6468
始而亨	-11.6469
真實	-11.6471
虞仲翔	-11.6472
序卦傳	-11.6476
商度	-11.6478
荀九家	-11.648
注疏	-11.6482
以陽居柔	-11.6482
利用禴	-11.6485
易之序	-11.6486
所噬	-11.6497
精誠	-11.65
當位以節中正以通	-11.651
終以譽命	-11.6511
冊	-11.6513
同聲相應	-11.6514
允升大吉	-11.6514
寕	-11.6514
廣大悉備	-11.6515
見輿曳	-11.6515
館	-11.6515
桎	-11.6517
其唯聖人乎	-11.6517
被其澤	-11.6518
十有八變而成卦	-11.6518
與時偕極	-11.6518
絮	-11.6518
闡幽	-11.652
郭子儀	-11.6521
咸其脢	-11.6521
晉明夷	-11.6521
木道乃行	-11.6522
上无應援	-11.6524
雖正亦凶	-11.6524
可與幾	-11.6525
致刑	-11.6525
蘇軾	-11.6526
交接	-11.6526
不害其為	-11.6527
専指	-11.6527
兑為口	-11.6535
戎器	-11.6537
知崇	-11.6537
始畫八卦	-11.6538
伊周	-11.6547
安其分	-11.6551
强暴	-11.6561
孝子	-11.6563
有一箇	-11.6568
之謂歟	-11.6573
而不知止	-11.6574
䰟	-11.6575
甚㣲	-11.658
☷	-11.6581
旗	-11.6588
杵	-11.6589
合乎天	-11.6592
両	-11.6592
彬	-11.6594
鳳	-11.6594
搆	-11.6595
嵩	-11.6596
各從其類	-11.6598
訖	-11.6598
日往則月	-11.6598
利者義之和	-11.6598
閡	-11.6599
水在火上	-11.6599
巍	-11.66
漸之進	-11.66
居相應之地	-11.6601
床	-11.6601
紛紜	-11.6601
其心志	-11.6601
荑	-11.6602
入于穴	-11.6602
弟子輿尸	-11.6603
乗墉	-11.6607
噬乾胏	-11.6611
七八九六之數	-11.6614
故戒之曰	-11.6616
不能自主	-11.6621
久而不	-11.6621
京作	-11.6625
曾子	-11.6631
得童僕	-11.6631
拯救	-11.6632
髙卑	-11.6634
生機	-11.6635
衣服	-11.6635
以卦體釋	-11.6638
妻子	-11.6641
揲之餘	-11.6647
九五以剛	-11.6657
讐	-11.6673
爪	-11.6674
依附	-11.6674
殿	-11.6674
南蒯	-11.6674
艮東北	-11.6676
俞氏琰曰	-11.6677
喪牛于易	-11.6677
无時不	-11.6679
敕	-11.668
吉凶以情遷	-11.668
彭山曰	-11.668
咸其股	-11.668
行地无疆	-11.6682
觀其所感而天地萬物之情可見矣	-11.6683
機㑹	-11.6683
祕	-11.6685
以六居三	-11.6686
列其夤	-11.6686
磐石	-11.6687
曉得	-11.6687
變為剛	-11.6689
虞翻作	-11.6692
太極生兩儀	-11.6696
忠孝	-11.6696
一陽在下	-11.6702
在地下	-11.6702
伏羲之易	-11.6711
三居下卦之上	-11.6712
二十有四	-11.6714
上六隂柔	-11.6721
韓氏	-11.6721
无能為	-11.6723
占卜	-11.6724
畜臣妾吉	-11.6726
未受命	-11.6727
三百六十日	-11.6731
見羣龍	-11.6733
疾病	-11.6742
相逮	-11.6744
化育之功	-11.6747
不出戸庭	-11.6752
一矢亡	-11.6752
旅小亨旅貞吉	-11.6753
艸	-11.6754
陣	-11.6756
知進而不知退	-11.6756
藻	-11.6757
辨上下定民志	-11.6757
觸類而長之	-11.6757
飛鳥遺之音不宜上宜下大吉	-11.6759
壹	-11.676
媒	-11.676
何氏楷曰	-11.676
在天成象	-11.676
困而不失其所亨	-11.6761
喬	-11.6761
偪	-11.6762
鴻漸于陸	-11.6762
咈	-11.6762
王業	-11.6763
東北喪朋	-11.6763
乘墉	-11.6769
理之正	-11.6769
閉闗	-11.6769
摶	-11.677
上下之際	-11.677
不自用	-11.677
剛中而應行險而順	-11.6771
由之以	-11.6771
非為邪	-11.6773
驚懼	-11.6773
𤼵蒙	-11.6775
陛下	-11.6777
撥亂	-11.6779
居其上	-11.6787
有孚中行	-11.6794
不言凶	-11.6795
陸徳明曰	-11.6796
何耶	-11.6796
辨别	-11.6802
私邑	-11.6802
晝日	-11.6802
理會	-11.6803
互根	-11.6806
千九百	-11.6806
中饋	-11.6808
天下莫不	-11.6813
□□	-11.6815
折首	-11.6818
老子曰	-11.6825
正相反	-11.6826
本然之	-11.6833
大寶	-11.6836
相符	-11.6838
屠	-11.6839
迂	-11.6841
頷	-11.6842
穎	-11.6842
无平不陂	-11.6842
山下有雷	-11.6843
閫	-11.6843
出門交有功	-11.6845
虩	-11.6845
天地之大徳曰生	-11.6845
九五飛龍在天利見大人	-11.6845
迥	-11.6846
唯變所適	-11.6846
中以行願	-11.6847
剛柔始交而難生	-11.6847
莘	-11.6847
豶豕之牙	-11.6847
自上下下其道大光	-11.6848
勿用有攸徃	-11.6849
自邑告命	-11.6849
師貞丈人吉无咎	-11.6849
大畧	-11.6849
貴而无位	-11.6849
射鮒	-11.685
二與四同功	-11.685
遂其生	-11.685
王申子	-11.6853
成卦之義	-11.6854
不相射	-11.6856
清潔	-11.6859
幽不明	-11.686
上九亢龍有悔	-11.6863
開闢	-11.6865
文言傳	-11.6868
妻道	-11.687
掛扐之數	-11.6873
等夷	-11.6874
於地中	-11.6877
天之所以	-11.6882
濟之以	-11.6883
道成矣	-11.6884
立秋	-11.6887
知通塞	-11.6897
適足以	-11.6906
匹夫	-11.6913
處尊位	-11.6913
羇旅	-11.6915
廖	-11.6917
剛中之賢	-11.6918
矛	-11.6921
澤上有水	-11.6923
乳	-11.6924
恢	-11.6925
千四百	-11.6925
鹽	-11.6925
震來虩虩恐致福也笑言啞啞後有則也	-11.6925
勑	-11.6925
精氣為物	-11.6926
匪正有眚	-11.6926
悞	-11.6927
致逺以利天下	-11.6928
舅	-11.6928
遇其夷主	-11.6928
斜	-11.6928
墻	-11.6929
觀變玩占	-11.6929
擴	-11.693
丞	-11.6931
札	-11.6931
改邑不改井乃以剛中也	-11.6934
勿用永貞	-11.6935
莫過	-11.6936
自外来	-11.6937
孚于嘉	-11.6938
徃徃	-11.6949
君子之器	-11.6949
三人行	-11.695
牽牛	-11.6953
易者象也	-11.6954
拂頤	-11.6961
䘮朋	-11.6966
不能成雨	-11.6967
純陰	-11.6973
乾西北	-11.6978
鶴鳴	-11.6978
凝聚	-11.6982
之象也卦變為	-11.6983
治家之道	-11.6999
過越	-11.7
沫	-11.7001
疑疾	-11.7001
銘	-11.7004
斯之謂	-11.7005
趙汴水曰	-11.7005
孩	-11.7006
壑	-11.7006
鬭	-11.7006
訪	-11.7007
昆	-11.7007
牝牡	-11.7007
四時不忒	-11.7008
慙	-11.7009
順乎天而應乎人	-11.7012
兆民	-11.7013
法律	-11.7013
恪	-11.7013
蔡墨	-11.7014
漆	-11.7015
巽為入	-11.7015
噬嗑亨利用獄	-11.7016
内柔而外剛	-11.7017
弗違	-11.7017
用拯馬壯吉	-11.7018
牽羊悔亡	-11.7018
往蹇來譽	-11.7018
嚴厲	-11.7021
重複	-11.7021
无祗悔	-11.7022
端倪	-11.7023
飛鳥遺之音	-11.7027
偶畫	-11.7028
幽賛	-11.703
如風之	-11.703
允升	-11.7031
无所不通	-11.7032
天地交泰	-11.7041
天際	-11.7041
中且正	-11.7044
不能免	-11.7059
於地上	-11.707
政令	-11.7071
潮	-11.7086
顓	-11.7086
山下有風	-11.7088
畀	-11.7091
匝	-11.7092
蠶	-11.7093
雷雨之動滿盈	-11.7093
挈	-11.7094
井渫不食	-11.7094
臂	-11.7094
醴	-11.7094
懲忿窒慾	-11.7095
舎車而徒	-11.7095
淆	-11.7096
齎咨涕洟	-11.7096
乾元用九天下治也	-11.7097
漸女歸吉利貞	-11.7097
顯諸仁藏諸用	-11.7097
奔走	-11.7098
勁	-11.7099
八純卦	-11.71
踰越	-11.7101
上三爻皆	-11.7103
睽小事吉	-11.7106
用九見羣龍无首吉	-11.7108
言致一也	-11.7109
假至也	-11.7111
長幼	-11.7111
應於四	-11.7112
未可知	-11.7113
巽為進退	-11.7116
過於剛	-11.7131
不可得而見	-11.7133
遲疑	-11.7142
坎為盜	-11.7154
四象八卦	-11.7157
生物之功	-11.7167
虚其中	-11.7169
均平	-11.7174
蠱壞	-11.7175
猥	-11.7176
鼫䑕	-11.7176
謙尊而光	-11.7177
閲	-11.7177
苦節不可貞	-11.7178
飄	-11.7178
王用亨于岐山	-11.7179
芽	-11.7179
遇其妣	-11.7181
成言乎艮	-11.7182
中未大	-11.7182
唐太宗	-11.7182
减	-11.7182
曵輪	-11.7183
獨立不懼	-11.7183
幽深	-11.7183
澤上有地	-11.7184
咸亨利貞取女吉	-11.7184
火性炎上	-11.7184
火珠林	-11.7185
豐多故	-11.7185
往蹇來連	-11.7185
我仇有疾	-11.7186
巽而耳目聰明	-11.7186
以隂畜陽	-11.7186
丙丁	-11.7187
初二兩爻	-11.7187
鼎折足	-11.7188
柔上剛下	-11.719
存乎其人	-11.7192
邈	-11.7193
自上下下	-11.7194
麗乎正	-11.7194
十五年	-11.7197
燦然	-11.7197
成其為	-11.7198
金石	-11.72
類萬物之情	-11.7201
恭順	-11.7201
東北喪朋乃終有慶	-11.7203
進退存亡	-11.7204
分量	-11.7205
中而不正	-11.7206
過而不過	-11.7209
朱子本義	-11.7211
伏羲氏	-11.723
閑有家	-11.7231
歸宿	-11.7238
可以无悔	-11.7249
恒亨无咎利貞	-11.7257
剛揜	-11.7258
革而當	-11.7259
蹟	-11.726
垣	-11.7261
化生萬物	-11.7261
褒	-11.7261
轂	-11.7263
乞	-11.7265
麓	-11.7265
揖	-11.7267
終而復始	-11.7267
鼔舞	-11.7268
攀	-11.7268
小過亨利貞可小事不可大事	-11.7268
大哉乾元萬物資始乃統天	-11.7269
首出庶物萬國咸寧	-11.7269
三百有六十	-11.727
寛以居之	-11.7271
二五正應	-11.7271
汔至亦未繘井羸其瓶凶	-11.7272
未之或知	-11.7272
勉勉	-11.7277
一人行三則疑也	-11.7279
利武人之貞	-11.7279
而兩之	-11.7279
有攸往夙吉	-11.728
比之无首	-11.7281
无自而	-11.7284
姑息	-11.7285
以隂居尊	-11.7286
申之曰	-11.7288
居卦之上	-11.729
窮之災	-11.7291
未為失	-11.7292
焚次	-11.7292
匪咎	-11.7294
五為君位	-11.7294
其道光明	-11.7296
何如耳	-11.7304
休美	-11.7306
蘇子瞻	-11.7307
不如舍	-11.7321
私係	-11.7325
與天同	-11.7325
圓而神	-11.7329
畜臣妾	-11.7333
其所守	-11.734
居无位之地	-11.7347
脅	-11.7349
晅	-11.7349
自下訟上	-11.735
墓	-11.7351
冕	-11.7351
馵足	-11.7352
石守道曰	-11.7353
弭	-11.7353
醒	-11.7353
平庵項氏曰	-11.7353
樣	-11.7354
孰甚焉	-11.7354
濵	-11.7354
五嵗再閏	-11.7354
不勝其任	-11.7355
觀其所聚而天地萬物之情可見矣	-11.7355
習坎有孚維心亨行有尚	-11.7356
宦官	-11.7356
王居无咎正位也	-11.7357
䜴	-11.7357
復亨剛反	-11.7359
三日不食	-11.7359
初辭擬之卒成之終	-11.7359
動而有悔	-11.7362
近而相得	-11.7363
王用亨	-11.7363
婦貞厲	-11.7365
无過不及	-11.7366
盈缶	-11.7368
易簡之善	-11.7369
紛然	-11.737
幽隠	-11.7376
娣媵	-11.7378
乾惕	-11.7382
掛之一	-11.7382
无所施	-11.7384
安溪李氏曰	-11.7384
千載	-11.7385
竭力	-11.7385
眀夷	-11.7385
盈虛	-11.7398
前禽	-11.7398
聚以正	-11.7403
初九潛龍勿用	-11.7408
權勢	-11.7425
卦綜	-11.7433
稿	-11.7435
胡雙湖曰	-11.7435
寐	-11.7436
簮	-11.7438
武人為于大君	-11.7438
囂	-11.7439
其究為躁卦	-11.7439
叩	-11.7439
節亨苦節不可貞	-11.744
乾知大始坤作成物	-11.7441
其血𤣥黄	-11.7441
剛中正履帝位而不疚光明也	-11.7442
剛來而下柔	-11.7442
乃亂乃萃	-11.7442
何吉如之	-11.7442
輟	-11.7443
八卦相盪	-11.7444
諺	-11.7444
僧	-11.7444
聖人以此洗心	-11.7444
安貞之吉應地无疆	-11.7444
親寡旅也	-11.7445
水火木金	-11.7445
六二之吉順以則也	-11.7446
剛下柔	-11.7446
趨吉避凶	-11.7446
治厯明時	-11.7447
震來厲	-11.7447
雷風山澤	-11.7448
不續終	-11.7449
順之至也	-11.7449
棟撓	-11.7451
以六居二	-11.7451
煩擾	-11.7451
天地定位山澤通氣	-11.7456
得所安	-11.7457
當如是也	-11.7461
甲辰	-11.7462
坤為腹	-11.7462
户庭	-11.7465
但見其	-11.7466
王莽	-11.7468
不失其中	-11.7475
之終始也	-11.7475
鼓動	-11.7476
者其惟	-11.7479
崔憬	-11.7479
无係應	-11.7485
其本心	-11.7491
道不行	-11.7508
井谷	-11.7511
麻衣	-11.7518
》。	-11.7522
天地人物	-11.7525
筌	-11.7525
枚	-11.7525
利貞者性情也	-11.7527
蘖	-11.7528
逰	-11.7528
怕	-11.7529
烜	-11.7529
謙亨君子有終	-11.753
利用享祀	-11.7531
吉事有祥	-11.7531
詮	-11.7531
柔得中而上行	-11.7531
賀孫	-11.7532
突如其來如	-11.7532
團	-11.7533
廵	-11.7533
六五之吉離王公也	-11.7533
邁	-11.7533
橫	-11.7534
成其功	-11.7534
剛上而尚賢	-11.7535
王用享于帝吉	-11.7536
少隂少陽	-11.7537
无妄大畜	-11.7541
四肢	-11.7543
暗昧	-11.7544
周徧	-11.7546
參差	-11.7548
終莫之勝	-11.7549
胸	-11.755
勝其任	-11.755
輔助	-11.7555
泰極	-11.7558
乾坤成列	-11.7562
巽離兑	-11.7565
世儒	-11.7566
下卦之中	-11.7571
厚薄	-11.7573
艱則吉	-11.7578
莫之能	-11.7585
六爻之動	-11.7586
足以有為	-11.7586
門户	-11.7589
子夏作	-11.7593
終始萬物	-11.7594
誠齋	-11.7603
陽剛得中	-11.7607
額	-11.7608
米	-11.761
尤甚	-11.7612
松	-11.7616
盾	-11.7616
姤女壯勿用取女	-11.7617
惻怛	-11.7617
不留獄	-11.7618
見豕負塗	-11.7618
耨	-11.7619
童牛之牿	-11.7619
摘	-11.7619
熯	-11.762
天施地生	-11.762
坤以藏之	-11.762
閨門	-11.7621
沃	-11.7621
雕	-11.7622
過此以往	-11.7622
咸其腓	-11.7622
天造草昧	-11.7622
得其資斧	-11.7623
水流而不盈行險而不失其信	-11.7623
易有四象所以示也	-11.7623
習教事	-11.7623
何利之有	-11.7624
勞乎坎	-11.7625
德之盛	-11.7626
重巽以申命	-11.7626
受制於	-11.7626
鼎祚	-11.7626
典禮繫辭焉以斷其吉凶是故謂之爻	-11.7626
壯于大輿之輹	-11.7627
往蹇來反	-11.7627
剥牀以足	-11.7627
兩儀四象	-11.7628
則妄矣	-11.7629
嚮晦	-11.7629
亦可醜也	-11.7633
道之善	-11.7634
長短	-11.7638
易无體	-11.7639
鼎耳革	-11.7643
以陰居陽	-11.7644
天下萬事	-11.7652
與初應	-11.7662
志可則	-11.7664
柔中之君	-11.7665
惑亂	-11.7674
用其剛	-11.7677
與初同	-11.7677
不富以其鄰	-11.7682
原其始	-11.7684
芾	-11.7707
睢	-11.7707
茲	-11.7707
何謂也子曰	-11.7708
蹶	-11.7708
不節之嗟	-11.7708
熄	-11.7708
廣顙	-11.7709
疇離祉	-11.7709
萬國咸寧	-11.7709
六二直方大不習无不利	-11.7709
柔順之徳	-11.771
喚做	-11.771
邀	-11.771
足以長人	-11.771
匪寇婚媾	-11.7711
免禍	-11.7711
三百户	-11.7712
能事畢矣	-11.7713
威如之吉反身之謂也	-11.7713
觀天之神道而四時不忒	-11.7713
山上有水	-11.7714
蹇之時用大矣哉	-11.7714
反復其道七日來復天行也	-11.7715
精粗	-11.7716
震為長男	-11.7718
剛柔相摩	-11.7721
係小子	-11.7724
不明晦	-11.7724
君子好遯小人否也	-11.7725
情僞	-11.7725
隂陽相薄	-11.7727
動之微	-11.7729
怨尤	-11.7731
天命之性	-11.7731
義无咎也	-11.7733
有是象	-11.7734
之𩔖是也	-11.7743
省察	-11.7745
發越	-11.7752
八卦方位	-11.7753
所從出	-11.7765
九三以剛	-11.7782
下卦之終	-11.7782
過乎剛	-11.7787
艮少男	-11.7788
陽剛之徳	-11.779
垢	-11.7793
太宗	-11.7793
漿	-11.7796
三陽三隂	-11.7796
離東坎西	-11.7797
臨川吳氏曰	-11.7798
未占有孚	-11.7799
汔至	-11.7799
仲翔	-11.78
鳴鶴在隂	-11.78
何可長	-11.78
閑邪存誠	-11.78
先庚三日	-11.78
清濁	-11.7801
履帝位而不疚	-11.7801
王用亨于西山	-11.7802
晰	-11.7803
莫甚焉	-11.7803
感而萬物化生聖人感人心而天下和平	-11.7804
動而以順行是以出入无疾朋來无咎	-11.7805
懼以終始	-11.7805
構	-11.7805
互相發	-11.7805
有孚盈缶	-11.7805
坤為邑	-11.7805
傅㑹	-11.7805
歸妹征凶无攸利	-11.7806
衎衎	-11.7806
閉關	-11.7807
或得其桷	-11.7807
陽剛中正以居尊位	-11.7811
泣血	-11.7814
與天合	-11.7814
晷	-11.7816
扶持	-11.7816
講習	-11.7817
利出否	-11.7819
二隂浸長	-11.7819
君子豹變	-11.7822
立冬	-11.7826
幽隱	-11.7834
括結	-11.7849
祖宗	-11.785
柔中居尊	-11.7853
九六七八	-11.7856
王肅云	-11.7864
光華	-11.788
塊	-11.7885
隄防	-11.7886
駁馬	-11.7889
漠	-11.7889
凝命	-11.789
界限	-11.789
意承考	-11.789
頒	-11.7891
富以其隣	-11.7892
志未平	-11.7892
困于金車	-11.7892
中孚以利貞乃應乎天也	-11.7893
千變萬化	-11.7893
子克家剛柔接也	-11.7893
剛柔雜居	-11.7894
天數五地數五五位相得而各有合	-11.7895
元吉在上大成也	-11.7895
成亹亹	-11.7896
居中履正	-11.7896
柔脆	-11.7897
鼓萬物而不與聖人同憂	-11.7897
其危乃光	-11.7898
南狩之志乃大得也	-11.7899
博士	-11.7905
議獄	-11.7913
否之匪人不利君子貞大往小來	-11.7914
仕進	-11.7914
止而不行	-11.7922
或從王事无成	-11.7924
上下无常	-11.7931
見險而止	-11.7934
後得主	-11.7937
太祖	-11.7937
南方之卦	-11.794
吉而无不利	-11.7942
𫉬吉	-11.795
除間	-11.7955
這道理	-11.7962
時之宜	-11.7971
燒	-11.7973
履信思順	-11.7979
夔	-11.7981
為美脊	-11.7981
菜	-11.7981
慨	-11.7981
駟	-11.7981
扈	-11.7982
陽實隂虚	-11.7983
二篇之䇿	-11.7984
離利貞亨畜牝牛吉	-11.7984
厚齋馮氏曰	-11.7984
豪	-11.7984
以祉元吉	-11.7984
後庚三日	-11.7985
蔡氏清曰	-11.7986
瑕	-11.7986
變動以利言	-11.7986
雷電皆至	-11.7986
公用亨于天子	-11.7986
串	-11.7986
裁成輔相	-11.7986
莫不由	-11.7987
泮	-11.7987
右明占	-11.7987
君子以遏惡揚善順天休命	-11.7988
冷	-11.7988
賁如皤如白馬翰如	-11.7988
輔相天地之宜以左右民	-11.799
很	-11.799
姤遇也	-11.7992
梯	-11.7992
豹變	-11.7992
管蔡	-11.7992
自遯來	-11.7992
不遽進	-11.7994
禠	-11.7995
承筐	-11.7998
天下有風	-11.7998
隂變陽	-11.7999
以順為正	-11.8001
司徒	-11.8006
四居大臣之位	-11.8007
離為飛鳥	-11.8007
櫝	-11.801
西伯	-11.8013
小雪	-11.8018
邪佞	-11.8026
无以加	-11.8031
反下同	-11.8037
千八百	-11.8037
錢氏	-11.8038
位正中	-11.8043
霆	-11.8056
仲氏	-11.806
隂之長	-11.806
恁	-11.8065
怨咎	-11.8066
大雪	-11.8069
道之常	-11.8071
姊	-11.8072
旌	-11.8073
仙	-11.8074
姻	-11.8076
以陽處隂	-11.8076
飯	-11.8077
天生神物	-11.8078
有孚惕出上合志也	-11.8078
與民同患	-11.8078
致孝享	-11.808
迪	-11.8081
蹇利西南不利東北利見大人貞吉	-11.8081
甕敝漏	-11.8081
不息之貞	-11.8082
紹興	-11.8082
无攸遂	-11.8082
噬而嗑	-11.8082
顯比之吉位正中也	-11.8083
大君之宜行中之謂也	-11.8083
程氏附録	-11.8083
地上有水	-11.8083
征不服	-11.8084
未生之卦	-11.8085
孚于剝	-11.8086
元吉在上大有慶也	-11.8086
厚下安宅	-11.8086
三人行則損一人	-11.8086
君子有解小人退也	-11.8086
不亂羣	-11.8087
豈不大哉	-11.8088
艮為鼻	-11.8096
天下有山	-11.8098
未失常也	-11.8105
潔齊	-11.8106
比於五	-11.8106
難曉	-11.8109
夫是之謂	-11.8112
无一毫	-11.8122
世界	-11.8123
掩蔽	-11.8124
乾之四徳	-11.8127
周公爻辭	-11.813
有他吉	-11.8133
以陽居陰	-11.8133
使天下之人	-11.8136
後天八卦	-11.8143
叢生	-11.8144
渺	-11.8161
喪其童僕	-11.8165
昊	-11.8165
縫	-11.8167
皓	-11.8167
其故何也	-11.8167
難既解	-11.8169
䜛	-11.817
朝覲	-11.8171
揣	-11.8171
冺	-11.8171
无徃不復	-11.8171
㨗	-11.8172
无所歸咎	-11.8173
豁	-11.8173
敬慎不敗	-11.8174
當萬物之數	-11.8174
哀矜	-11.8174
豐其沛	-11.8174
九二見龍在田利見大人	-11.8174
不成乎名	-11.8174
促	-11.8175
維用伐邑	-11.8175
同人于門	-11.8175
六爻之動三極之道也	-11.8176
重明以麗乎正乃化成天下	-11.8176
行人得牛邑人災也	-11.8177
九四或躍在淵无咎	-11.8177
言天下之至賾而	-11.8177
老夫女妻	-11.8178
二百一十六	-11.8178
凱	-11.8178
賞罰	-11.8179
忌憚	-11.8179
搜	-11.818
噬膚滅鼻	-11.818
六爻之義易以貢	-11.818
伊川先生	-11.8182
堅確	-11.8182
行險而順	-11.8184
剝牀	-11.8191
相值	-11.8194
耦畫	-11.8206
士大夫	-11.8206
貨財	-11.8229
也卦變為	-11.8239
温公	-11.8246
藩籬	-11.8246
威權	-11.8248
精㣲	-11.8255
庶政	-11.8259
雌	-11.8261
説諸心	-11.8263
係小子失丈夫	-11.8263
作易之本	-11.8264
佃	-11.8264
肝	-11.8264
升虛邑	-11.8265
泊	-11.8265
彖詞	-11.8266
尺蠖	-11.8266
天地以順動故日月不過而四時不忒	-11.8268
山上有木	-11.8268
翳	-11.8269
腸	-11.8269
丘行可曰	-11.8269
成變化而行鬼神	-11.827
隂陽之義配日月	-11.827
水流而不盈	-11.827
呼吸	-11.827
紛若之吉得中也	-11.8271
風以散之	-11.8272
省方觀民	-11.8272
剛當位而應	-11.8273
艮其背不獲其身行其庭不見其人无咎	-11.8273
觀其所恒而天地萬物之情可見矣	-11.8273
或躍在淵乾道乃革	-11.8273
蒺	-11.8274
與時消息	-11.8275
飛龍在天大人造也	-11.8275
不終日貞吉	-11.8275
張弧	-11.8276
乗木有功	-11.8276
蒙大難	-11.8283
井渫	-11.8288
大明之君	-11.8289
遲遲	-11.829
十有六	-11.8292
錫馬	-11.8313
類族	-11.8315
四千九十六卦	-11.832
治蠱之道	-11.8322
禍敗	-11.8325
乖異	-11.8328
易之取象	-11.8349
鴈	-11.8357
旅于處	-11.8358
料	-11.8358
藝文志	-11.8361
一竒一耦	-11.8362
彷彿	-11.8362
侔	-11.8363
尉	-11.8364
至哉坤元萬物資生乃順承天	-11.8364
怵	-11.8364
爵禄	-11.8365
番	-11.8365
闊	-11.8365
窮則變變則通	-11.8366
匪夷所思	-11.8366
當渙之時	-11.8366
先甲三日後甲三日終則有始天行也	-11.8366
道義之門	-11.8366
初與四為正應	-11.8367
天數二十有五地數三十凡天	-11.8367
君子攸行	-11.8367
貞固守此	-11.8368
周流六虚	-11.8368
永貞之吉終莫之陵也	-11.8368
小子之厲義无咎也	-11.8368
頤中有物曰噬嗑	-11.8368
匪躬	-11.8369
愆期之志有待而行也	-11.837
行險而不失其信	-11.837
施禄及下	-11.837
叠	-11.8371
潛龍勿用陽在下也	-11.8371
利用為大作	-11.8371
山陽王氏曰	-11.8372
无妄之藥不可試也	-11.8372
係丈夫	-11.8374
卦徳卦體	-11.8376
无祇悔	-11.838
鄙吝	-11.8384
小人弗克	-11.8384
通神明之徳	-11.839
冥豫	-11.8395
終不可長	-11.8413
安宅	-11.8415
坎為血卦	-11.8418
天地萬物之情可見	-11.8418
先天之學	-11.8425
和暢	-11.8432
久照	-11.8433
豈復有	-11.8443
為子母牛	-11.8449
譌	-11.845
占本卦	-11.8453
暨	-11.8455
䙝	-11.8455
齎	-11.8456
吳草廬曰	-11.8456
耐	-11.8457
苦節不可貞其道窮也	-11.8458
含章可貞	-11.8459
荄	-11.8459
迭用柔剛	-11.8459
莅衆	-11.846
斵	-11.846
溉	-11.8461
摹	-11.8461
文明以健中正而應君子正也	-11.8462
天地革而四時成湯武革命	-11.8463
禹稷	-11.8463
剛來而不窮	-11.8464
物畜然後有禮故受之以履	-11.8464
劉絢	-11.8464
澤无水困君子以致命遂志	-11.8464
六五帝乙歸妹以祉元吉	-11.8464
屯膏	-11.8465
上无應與	-11.8466
王臣蹇蹇	-11.8466
揲之以四	-11.8466
仁者見之謂之仁知者見之謂之知	-11.8466
未濟亨小狐汔濟濡其尾无攸利	-11.8467
剛巽乎中正而志行	-11.8467
赤子之心	-11.8467
弟夫夫婦婦而家道正正家而天下定矣	-11.8467
柔得中而上行雖不當位利用獄也	-11.8468
與人同者物必歸焉故受之以大有	-11.8468
言不勝其任也	-11.8469
渙王居	-11.847
極天下之賾者存乎卦	-11.8471
易曰三人行則損一人一人行則得其友	-11.8471
小人革面	-11.8476
羝羊觸藩羸其角	-11.8489
為五所	-11.8494
焦氏	-11.8496
萬一千	-11.85
積於中	-11.8501
四陽二隂	-11.8501
自三至五	-11.8503
費直	-11.8506
資之以	-11.851
嫌疑	-11.8514
十九年	-11.8522
本乎地	-11.8522
上下二篇	-11.8526
宜有咎	-11.8538
係累	-11.8542
隂剥陽	-11.8551
桃	-11.8553
婉	-11.8553
嬴	-11.8555
遮	-11.8556
何自而	-11.8557
縕	-11.8557
李仲永曰	-11.8558
㨿	-11.8558
聖人作而萬物覩	-11.8558
雷電合而章	-11.8559
棟宇	-11.856
涓	-11.8561
有言不信尚口乃窮也	-11.8561
柔麗乎中正故亨是以畜牝牛吉也	-11.8561
當大有之時	-11.8561
匪宼婚媾	-11.8561
大君有命	-11.8562
需于沙	-11.8562
右第一章	-11.8563
消不久	-11.8563
伏犧	-11.8563
物不可窮也故受之以未濟終焉	-11.8563
雲雷屯君子以經綸	-11.8563
先甲三日後甲三日	-11.8563
不耕穫未富也	-11.8564
骨肉	-11.8564
王景孟曰	-11.8564
胡一桂	-11.8565
昇	-11.8565
有孚惠心	-11.8565
以合禮利物足以和義貞固足以幹事	-11.8565
不及其君臣不可過也	-11.8565
原筮元永貞无咎以剛中也	-11.8567
風雷益君子以見善則遷有過則改	-11.8567
元吉无咎可貞	-11.8567
有天地然後有萬物有萬物然後有男女	-11.8568
伊尹周公	-11.8569
何悔之有	-11.8571
出門同人	-11.8573
君子觀其象	-11.8577
仲春	-11.8578
宴安	-11.8582
為小人謀	-11.8582
上九自天祐之吉无不利	-11.8582
》、	-11.8585
相換	-11.8587
周孔	-11.8593
離為牛	-11.8595
㝠豫	-11.8599
祭享	-11.8603
六十二卦	-11.8608
不失其常	-11.8609
天下之至健	-11.8609
鼎元吉亨	-11.8613
兩截	-11.8625
敦化	-11.8631
何往不	-11.8643
卦之六爻	-11.865
制數度	-11.865
抄	-11.8651
說以行險	-11.8653
謙謙君子卑以自牧也	-11.8653
亊	-11.8654
轅	-11.8654
憎	-11.8655
冩	-11.8655
凉	-11.8656
作事謀始	-11.8656
遇雨之吉羣疑亡也	-11.8657
懋	-11.8657
水火相逮	-11.8658
豫剛應而志行順以動豫	-11.8658
惻隱	-11.8659
坊	-11.8659
飲酒濡首亦不知節也	-11.866
躋于九陵	-11.866
潜龍勿用	-11.866
汪	-11.866
成天下之亹亹	-11.8661
豐亨王假之勿憂宜日中	-11.8661
邵康節	-11.8661
蒙亨匪我求童蒙童蒙求我	-11.8661
大哉乾乎剛健中正純粹精也	-11.8662
天命之謂性	-11.8662
作聖之功	-11.8662
君子于行義不食也	-11.8662
慿	-11.8662
乾以君之	-11.8662
巽為長女	-11.8663
兼三才而兩之故易六畫而成卦	-11.8663
蕩蕩	-11.8664
一索而得	-11.8664
澤上於天	-11.8664
歸妹以須	-11.8664
剡木	-11.8665
包无魚	-11.8665
知者觀其彖辭則思過半矣	-11.8665
節齋	-11.8666
蕃庶	-11.8667
不恒其德	-11.8667
鳥之飛	-11.8667
易之緼	-11.8668
右第二章	-11.8668
餘從程氏	-11.8671
以剛處柔	-11.8673
甲寅	-11.8676
薄祭	-11.868
係戀	-11.8685
无平不陂无往不復	-11.8685
得童僕貞	-11.8687
之通稱	-11.8691
復其見天地之心乎	-11.8692
文王之彖	-11.8694
玩味	-11.8704
以質言	-11.8708
六畫之卦	-11.8712
四千九十六	-11.8716
人傑	-11.872
戒不虞	-11.8732
不見是而无悶	-11.8737
止而麗乎明	-11.874
顙	-11.8744
慧	-11.875
倪	-11.8751
同氣相求	-11.8752
信及豚魚	-11.8752
鬬	-11.8753
孔氏穎達曰	-11.8754
曹操	-11.8754
辦	-11.8756
覬	-11.8756
乾道變化各正性命	-11.8756
六五之柔	-11.8757
俎	-11.8757
居卦之終	-11.8757
初九无交害匪咎艱則无咎	-11.8758
不速之客	-11.8758
制器尚象	-11.8759
寒泉之食中正也	-11.876
雲上于天	-11.876
四與初為正應	-11.876
初九履錯然敬之无咎	-11.876
初六童觀小人道也	-11.8761
九三幹父之蠱小有悔无大咎	-11.8761
上九有孚威如終吉	-11.8762
自二至上	-11.8762
居貞之吉順以從上也	-11.8762
髙宗伐鬼方	-11.8762
仁以行之	-11.8762
聖人亨以享上帝而大亨以養聖賢	-11.8762
大過顛也	-11.8763
壬癸	-11.8763
終日乾乾反復道也	-11.8763
以訟受服亦不足敬也	-11.8763
乎天文以察時變觀乎人文以化成天下	-11.8765
九五王假有家勿恤吉	-11.8765
夬揚于王庭孚號有厲	-11.8765
浚恒之凶始求深也	-11.8765
與四時合其序與鬼神合其吉凶	-11.8765
代謝	-11.8766
維有解	-11.8767
有男女然後有夫婦有夫婦然後	-11.8767
天地交而萬物通也上下交而其志同也	-11.8767
溺於豫	-11.877
得其大首	-11.877
解險以動動而免乎險解	-11.8772
一箇道理	-11.8772
二陽浸長	-11.8773
怙終	-11.8775
設敎	-11.8776
隨有獲	-11.8779
之有哉	-11.878
漢魏	-11.8781
萬二千	-11.8805
自乾至	-11.881
君子之正道	-11.8823
繫詞	-11.883
四與初應	-11.8832
厚之至也	-11.8837
行有嘉	-11.884
十篇	-11.8846
繡	-11.8851
嘖	-11.8852
黔	-11.8853
闃其无人	-11.8854
觀其自養	-11.8854
何𤣥子曰	-11.8855
其子和之中心願也	-11.8855
齎咨	-11.8856
戹	-11.8856
思過半矣	-11.8857
麥	-11.8857
陳摶	-11.8857
訓詁	-11.8857
出可以守宗廟社稷以為祭主也	-11.8857
値	-11.8858
初六不永所事小有言終吉	-11.8858
捐	-11.8858
順天休命	-11.8858
天道虧盈而益謙地道變盈而流謙	-11.8858
佩	-11.8858
駢	-11.8859
六五豶豕之牙吉	-11.8859
成象之謂乾效法之謂坤	-11.8859
在天成象在地成形變化見矣	-11.886
河圗洛書	-11.886
九二履道坦坦幽人貞吉	-11.886
憫	-11.8861
健而巽剛中而志行乃亨	-11.8861
剛中而柔外	-11.8862
右第三章	-11.8862
柔進而上行得中而應乎剛是以元亨	-11.8862
上經首乾坤	-11.8862
聯	-11.8863
凑	-11.8863
見龍在田天下文明	-11.8863
右第七章	-11.8863
未濟男之窮也	-11.8863
六二王臣蹇蹇匪躬之故	-11.8863
右第八章	-11.8864
不能正室	-11.8864
右第五章	-11.8864
瑩	-11.8864
容民畜衆	-11.8864
觀盥而不薦有孚顒若下觀而化也	-11.8865
效天下之動	-11.8865
受上之益	-11.8865
辭變象占	-11.8866
不養則不可動故受之以大過	-11.8866
六二或益之十朋之龜弗克違永貞吉	-11.8866
險且枕	-11.8867
或躍在淵進无咎也	-11.8867
為祭主	-11.8868
能以衆正	-11.8869
言語飲食	-11.8869
執其隨	-11.887
昏迷	-11.887
陷于險	-11.8871
自臨來	-11.8873
蜀才作	-11.8889
緯書	-11.8889
所處之位	-11.8893
弗敢	-11.8893
重剛而不中	-11.8901
修業	-11.8905
細玩	-11.8907
兢惕	-11.8929
同德相	-11.8941
忠信所以進德	-11.8942
大易粹言	-11.8947
爼	-11.8951
張舜元曰	-11.8956
稻	-11.8958
直其正也方其義也	-11.8958
箋	-11.8959
祖考之精神	-11.8959
有文明之徳	-11.896
孔安國	-11.896
六四井甃无咎	-11.8961
鬱結	-11.8961
䆒	-11.8961
革已日乃孚元亨利貞悔亡	-11.8961
絳	-11.8961
僚	-11.8962
懇	-11.8962
二女同居其志不同行	-11.8962
一動一静	-11.8962
壯于前趾	-11.8962
成位乎其中	-11.8962
困亨貞大人吉无咎有言不信	-11.8963
擔	-11.8963
升元亨用見大人勿恤南征吉	-11.8963
到極處	-11.8963
陸德明	-11.8964
是故居上位而不驕在下位而不憂	-11.8965
所居而安	-11.8965
九四歸妹愆期遲歸有時	-11.8966
雜物撰徳	-11.8966
剛上而尚賢能止健大正也	-11.8966
右第六章	-11.8966
夫征不復離羣醜也	-11.8966
剛失位而不中是以不可大事也	-11.8967
雷出地	-11.8967
上六大君有命開國承家小人勿用	-11.8967
六五或益之十朋之龜弗克違元吉	-11.8968
上下交而其志同	-11.8968
有大者不可以盈故受之以謙	-11.8968
奔其机	-11.8968
右第四章	-11.8968
上而不下	-11.897
則是天地不交而萬物不通也	-11.897
地中有水師君子以容民畜衆	-11.8971
之本體異焉	-11.8971
喪貝	-11.8974
叔孫	-11.8974
天地養萬物	-11.8978
九三過剛不中	-11.899
在下卦之下	-11.899
龜筮	-11.9017
往吉无不利	-11.9023
有亨之道	-11.9033
山之髙	-11.9034
火炎	-11.9041
乃終有慶	-11.9043
皥	-11.9056
朢	-11.9057
沌	-11.9057
湯武革命	-11.9058
退藏於密	-11.906
麤	-11.906
旤	-11.9061
乗木舟虚	-11.9061
黔喙之屬	-11.9061
胡安定	-11.9062
掲	-11.9062
頰舌	-11.9062
愬	-11.9062
邑人三百户	-11.9062
已日乃孚革而信之	-11.9063
鳴謙志未得也可用行師征邑國也	-11.9063
王秋山曰	-11.9063
斃	-11.9063
乃徐有説	-11.9064
暢茂	-11.9064
逓	-11.9064
為進退為不果	-11.9064
秦漢	-11.9065
劉歆	-11.9065
求王明	-11.9066
澤上於地	-11.9066
懿文徳	-11.9066
萃亨王假有廟利見大人亨利貞	-11.9066
六五貞疾恒不死	-11.9066
初六進退利武人之貞	-11.9066
損有孚元吉无咎可貞利有攸往	-11.9066
九五貞吉悔亡无不利无初有終先庚三	-11.9067
擬諸其形容	-11.9067
三嵗不興	-11.9067
九二幹母之蠱不可貞	-11.9068
宄	-11.9068
上古結繩而治後世聖人易之以書契	-11.9068
山上有澤	-11.9068
彖者言乎	-11.9068
九三勞謙君子有終吉	-11.9069
大有柔得尊位大中而上下應之曰大有	-11.9069
捷	-11.9069
議徳行	-11.9069
柔進而上行得中而應乎剛是以小事吉	-11.907
得妾以其子	-11.907
酷	-11.907
六二之吉順以巽也	-11.9071
物不可以終否故受之以同人	-11.9071
六二无攸遂在中饋貞吉	-11.9072
告自邑不利即戎利有攸往	-11.9072
知變化之道	-11.9072
九五无妄之疾勿藥有喜	-11.9073
以六居四	-11.9073
或躍在淵自試也	-11.9073
窒惕	-11.9074
羸其角	-11.9076
九四好遯君子吉小人否	-11.9077
雷風相薄水火不相射八卦相錯	-11.9081
履得其位	-11.9085
聦明	-11.9085
艱則无咎	-11.9095
戊己	-11.9102
以德言	-11.9115
不及其君	-11.9132
武人之貞	-11.9158
糧	-11.916
弑君	-11.9162
遥	-11.9162
知險知阻	-11.9163
震一索而得男故謂之長男	-11.9164
蒼筤竹	-11.9164
闚其戸	-11.9164
􁀉􁀉	-11.9165
九四豐其蔀日中見斗遇其夷主吉	-11.9166
燄	-11.9166
大有上吉自天祐也	-11.9167
九五大人虎變未占有孚	-11.9167
直方大不習无不利則不疑其所行也	-11.9168
用而柔	-11.9169
劓刖志未得也乃徐有	-11.9169
况於人乎	-11.9169
初九官有渝貞吉出門交有功	-11.9169
財成輔相	-11.917
臨元亨利貞至于八月有凶	-11.917
六二過其祖遇其妣不及其君遇其臣	-11.917
方以類聚物以羣分	-11.917
初六童觀小人无咎君子吝	-11.9171
𠖇	-11.9171
不疾而速不行而至	-11.9171
濳龍勿用	-11.9171
初六井泥不食舊井无禽	-11.9172
位乎天位以正中	-11.9172
其至矣乎	-11.9172
杪	-11.9173
吉凶者貞勝者也	-11.9173
六三噬腊肉遇毒小吝无咎	-11.9173
窮大者必失其居故受之以旅	-11.9173
天險不可升也地險山川丘陵也	-11.9173
享于帝	-11.9173
𠂻	-11.9174
六二包承小人吉大人否亨	-11.9175
習坎入坎失道凶也	-11.9175
大扺	-11.9175
通乎晝夜之道而知	-11.9175
初登于天照四國也後入于地失則也	-11.9175
九三賁如濡如永貞吉	-11.9176
從一而終也夫子制義從婦凶也	-11.9176
九四臀无膚其行次且	-11.9177
塗一致而百慮天下何思何慮	-11.9177
庚辛	-11.9178
以此毒天下而民從之吉又何咎矣	-11.9178
羝羊觸藩不能退不能遂无攸利艱則吉	-11.918
生生不已	-11.918
六三三人行則損一人一人行則得其友	-11.9182
為小石	-11.9183
第二章	-11.9196
志大行	-11.9215
上中下	-11.9219
食貨	-11.9234
柔弱之君	-11.9258
☵	-11.9259
其究為健	-11.9262
積善之家必有餘慶	-11.9266
☰	-11.9266
鶉	-11.9267
鉞	-11.9269
騎	-11.927
干戈	-11.9272
革水火相息二女同居其志不相得曰革	-11.9272
上剛下險	-11.9272
謙尊而光卑而不可踰君子之終也	-11.9273
已生之卦	-11.9273
當困之時	-11.9273
右明象	-11.9273
六二引吉无咎孚乃利用禴	-11.9273
畋	-11.9273
渙有丘	-11.9274
脗合	-11.9274
天與水違行訟君子以作事謀始	-11.9275
董氏	-11.9275
窮上反下	-11.9275
動悔有悔	-11.9276
九五曰飛龍在天利見大人	-11.9276
木上有火鼎君子以正位凝命	-11.9277
縦	-11.9277
田獲三狐	-11.9277
坎為狐	-11.9277
九二在師中吉无咎王三錫命	-11.9278
用行師終有大敗以其國君凶	-11.9278
九二咸臨吉无不利	-11.9278
至于十年不克征	-11.9278
木上有水井君子以勞民勸相	-11.9278
送死	-11.9278
初九鞏用黄牛之革	-11.9278
兼山艮君子以思不出其位	-11.9279
地上有水比先王以建萬國親諸侯	-11.928
第六章	-11.928
其初難知其上易知本末也	-11.928
易之興也	-11.928
剛失位而不中	-11.928
告公從以益志也	-11.928
在本爻以隂變陽為	-11.928
有大而能謙必豫故受之以豫	-11.928
愎	-11.928
雷風恒君子以立不易方	-11.9281
右第九章	-11.9281
有孚心亨	-11.9282
剛柔有體	-11.9284
楊氏時曰	-11.9284
艮以止之	-11.9284
何往而不	-11.9286
故其象占	-11.9288
自乾來	-11.9293
不宜上宜下大吉上逆而下順也	-11.9293
千百	-11.9295
甲庚	-11.9303
一陽來復	-11.9304
莊氏	-11.9363
卑而不可踰	-11.937
祁	-11.9374
蔀其家	-11.9374
鷹	-11.9376
六五射雉一矢亡終以譽命	-11.9377
初六幹父之蠱有子考无咎厲終吉	-11.9377
天人合一	-11.9378
俄	-11.9378
乗其墉	-11.9379
六二介于石不終日貞吉	-11.9379
耄	-11.9379
一闔一闢	-11.9379
賈誼	-11.9379
日月麗乎天	-11.938
雷電皆至豐君子以折獄致刑	-11.938
鬼神害盈而福謙人道惡盈而好謙	-11.938
自強不息	-11.938
愛惡相攻	-11.9381
捕	-11.9381
下无其應	-11.9381
相見乎離	-11.9382
包荒得尚于中行以光大也	-11.9382
去逖出	-11.9382
澤上有風中孚君子以議獄緩死	-11.9382
六五出涕沱若戚嗟若吉	-11.9382
自昭明徳	-11.9383
右第十章	-11.9383
六爻發揮旁通情也	-11.9383
榮辱	-11.9383
其稱名也雜而不越	-11.9384
妙萬物而為言	-11.9384
終莫之勝吉得所願也	-11.9384
神也者妙萬物而為言者也	-11.9384
賓客	-11.9385
九五屯其膏小貞吉大貞凶	-11.9385
晉康侯用錫馬蕃庶晝日三接	-11.9385
恒亨无咎利貞利有攸往	-11.9386
上九視履考祥其旋元吉	-11.9386
利有攸往終則有始也	-11.9386
徳合无疆	-11.9386
以卦體釋卦名義	-11.9386
不𫉬其身	-11.9387
孰能與于此	-11.9387
其匪正有眚不利有攸往	-11.9387
上六震索索視矍矍征	-11.9387
初六師出以律否臧凶	-11.9388
許嫁	-11.9389
不素飽	-11.9389
火在水上	-11.9389
卦下之辭	-11.939
飛龍在天上治也	-11.939
雷雨作解君子以赦過宥罪	-11.939
有父子有父子然後有君臣有君臣	-11.939
以卦體釋卦辭	-11.9391
六四損其疾使遄有喜无咎	-11.9392
其要无咎	-11.9394
齊桓	-11.9395
其行塞	-11.9401
潛龍勿用下也	-11.9401
與天地參	-11.9403
行其典禮	-11.9405
揆度	-11.9405
擬諸其形容象其物宜是故謂之象聖人	-11.9419
九三以剛居剛	-11.9423
陽動於下	-11.9423
盧氏	-11.9462
二千一百	-11.9463
卿士	-11.9472
寃	-11.9481
琴	-11.9481
帖	-11.9482
腥	-11.9483
蚩	-11.9484
神明而生蓍	-11.9484
萬物出乎震	-11.9484
六四有孚血去惕出无咎	-11.9484
六三不節若則嗟若无咎	-11.9485
九五莧陸夬夬中行无咎	-11.9485
棺	-11.9485
翰音登于天	-11.9486
濕火就燥雲從龍風從虎	-11.9487
仲虎曰	-11.9487
㒺	-11.9487
昔者聖人之作易也	-11.9487
九五同人先號咷而後笑大師克相遇	-11.9487
老隂老陽	-11.9488
督	-11.9488
勒	-11.9488
九四不克訟復即命渝安貞吉	-11.9489
訟有孚窒惕中吉終凶利見大人不利	-11.9489
二之動直以方也不習无不利地道光也	-11.9489
履道坦坦	-11.9489
九三君子終日乾乾夕惕若厲无咎	-11.9489
既濟亨小利貞初吉終亂	-11.949
剛中之臣	-11.949
白馬翰如	-11.949
棺椁	-11.949
上六鳴謙利用行師征邑國	-11.949
告自邑不利即戎	-11.949
易簡之善配至徳	-11.949
第八章	-11.949
利用出入民咸用之謂之神	-11.9491
九二需于沙小有言終吉	-11.9492
大君有命以正功也小人勿用必亂邦也	-11.9492
差忒	-11.9492
六三含章可貞或從王事无成有終	-11.9492
祐者助也天之所助者順也	-11.9492
六四鴻漸于木或得其桷无咎	-11.9492
六五田有禽利執言无咎	-11.9492
敬之終吉	-11.9493
賁亨小利有攸往	-11.9493
九三臀无膚其行次且厲无大咎	-11.9493
以言者尚其辭以動者尚其變	-11.9493
善不積不足以成名惡不積不足以滅身	-11.9494
柔而得正	-11.9494
叶韻	-11.9494
惻隠	-11.9494
汔至亦未繘井未有功也羸其瓶是以	-11.9495
君子道長小人道消	-11.9495
多識前言往行以畜其徳	-11.9495
亢龍有悔窮之災也	-11.9496
九三家人嗃嗃悔厲吉婦子嘻嘻終吝	-11.9496
易之為書也廣大悉備	-11.9497
一人行則得其友	-11.9498
利貞大者正也正大而天地之情可見矣	-11.9498
然後有上下有上下然後禮義有所錯	-11.9498
曰隼者禽也弓矢者器也射之者人也	-11.9499
襄公	-11.95
斯可矣	-11.95
藩决不羸	-11.9501
雖危无咎	-11.9501
有孚不終	-11.9503
乾知大始	-11.9503
自二至四	-11.9506
三居下體之上	-11.9509
為動之主	-11.9511
氣上升	-11.9518
之至善者也	-11.9519
水潤下	-11.9541
兑為澤	-11.9552
坎為輪	-11.9572
跳	-11.959
軫	-11.959
為弓輪	-11.959
籥	-11.9592
泳	-11.9592
媿	-11.9593
牛順物	-11.9594
誇	-11.9594
譲	-11.9595
簞	-11.9595
事事物物	-11.9595
繫于金柅	-11.9596
發揮於剛柔而生爻	-11.9596
售	-11.9596
禱	-11.9596
明不可息	-11.9597
可與酬酢	-11.9597
進退志疑也利武人之貞志治也	-11.9597
初九明夷于飛垂其翼	-11.9597
妬	-11.9597
出處語黙	-11.9598
求而往明也	-11.9598
鸛	-11.9599
同人之先以中直也大師相遇言相克也	-11.96
十二辟卦	-11.96
王氏弼曰	-11.96
懲忿	-11.9601
中不在人	-11.9601
蹇難也險在前也見險而能止知矣哉	-11.9601
右第十一章	-11.9601
辨物居方	-11.9602
屈信相感	-11.9602
霧	-11.9602
九五枯楊生華老婦得其士夫无咎无譽	-11.9602
衆必有所比故受之以比	-11.9603
莫善於	-11.9604
九二鼎有實我仇有疾不我能即吉	-11.9604
六五貞吉无悔君子之光有孚吉	-11.9604
九三重剛而不中上不在天下不在田	-11.9604
蕃鮮	-11.9605
六五君子維有解吉有孚于小人	-11.9606
九四噬乾胏得金矢利艱貞吉	-11.9608
倒置	-11.9608
歸妺	-11.9609
胡炳文	-11.9609
家人嗃嗃	-11.9612
晁氏曰案	-11.9614
姦邪	-11.9618
親迎	-11.9623
十有四	-11.9647
堅多心	-11.9654
雖厲而	-11.968
覊	-11.9701
斤	-11.9701
相為表裏	-11.9702
怡	-11.9702
髠	-11.9703
玉鉉在上剛柔節也	-11.9704
弃	-11.9705
管輅	-11.9705
速之客來敬之終吉雖不當位未大失也	-11.9705
用史巫紛若	-11.9705
謙亨天道下濟而光明地道卑而上行	-11.9705
占事知來	-11.9706
矧	-11.9707
謙輕而豫怠也	-11.9707
殄	-11.9707
以上出為功	-11.9707
澤上有雷歸妹君子以永終知敝	-11.9708
二人同心	-11.9708
渭	-11.9708
九五顯比王用三驅失前禽邑人不誡吉	-11.9708
歸妹女之終也	-11.9708
九三征凶貞厲革言三就有孚	-11.9709
是以康侯用錫馬蕃庶晝日三接也	-11.9709
知崇禮卑	-11.9711
六五知臨大君之宜吉	-11.9711
齊乎巽	-11.9711
自初至五	-11.9711
逈	-11.9711
六五箕子之明夷利貞	-11.9711
山上有雷小過君子以行過乎恭	-11.9711
朱文公	-11.9712
者未之有也	-11.9712
皿	-11.9712
帥師以中行也弟子輿尸使不當也	-11.9713
王公設險以守其國險之時用大矣哉	-11.9713
漸女歸待男行也	-11.9713
入于林中	-11.9713
赦過宥罪	-11.9714
不四則八	-11.9714
耿氏曰	-11.9715
九二利貞征凶弗損益之	-11.9718
初九利用為大作元吉无咎	-11.9719
遲速	-11.972
意外之	-11.972
貞固守之	-11.9721
星辰	-11.973
既濟定也	-11.9731
凝結	-11.976
陸費墀	-11.9767
建萬國	-11.9776
盈虚消息	-11.9793
鞭	-11.9805
☳	-11.9805
炫	-11.9807
婁	-11.981
迄	-11.981
失得之報	-11.981
六四困蒙吝	-11.9813
六三勿用取女見金夫不有躬无攸利	-11.9813
隳	-11.9813
僮	-11.9813
脛	-11.9814
發於事業	-11.9814
地中有山謙君子以裒多益寡稱物平施	-11.9815
捉	-11.9815
一索而得女故謂之長女坎再索而得男	-11.9815
壘	-11.9817
遼	-11.9817
勿藥有喜	-11.9817
互藏其宅	-11.9817
閴其无人	-11.9817
鞶	-11.9817
豐其沛不可大事也折其右肱終不可用	-11.9818
在卦氣為	-11.9818
周而復始	-11.9819
離也者明也萬物皆相見南方之卦也	-11.9819
離上而坎下也	-11.9819
六五艮其輔言有序悔亡	-11.9819
剛健篤實輝光日新	-11.982
王安石	-11.982
為我心惻	-11.982
王廙	-11.982
閻	-11.982
馴致其道	-11.982
杖	-11.982
初九歸妹以娣跛能履征吉	-11.982
動而健剛中而應大亨以正天之命也	-11.982
初六鴻漸于干小子厲有言无咎	-11.982
上九有孚于飲酒无咎濡其首有孚失是	-11.9821
潦	-11.9821
贊其大	-11.9821
井通而困相遇也	-11.9822
闗子明	-11.9822
剝牀以膚	-11.9822
上六不明晦初登于天後入于地	-11.9822
九四重剛而不中上不在天下不在田中	-11.9822
大觀在上順而巽中正以觀天下	-11.9822
上止下動	-11.9823
寘于叢棘	-11.9823
郊祀	-11.9823
復則不妄矣故受之以无妄	-11.9823
不在人故或之或之者疑之也故无咎	-11.9823
其凶必矣	-11.9824
初六浚恒貞凶无攸利	-11.9824
災𤯝	-11.9825
鑠	-11.9825
其繇曰	-11.9825
繫辭下傳	-11.9825
執用黄牛固志也	-11.9827
不能退不能遂不詳也艱則吉咎不長也	-11.9828
比之自内	-11.9829
,《	-11.9829
中順之徳	-11.9833
源頭	-11.9833
大徳之人	-11.9835
潰決	-11.9836
和而不同	-11.9836
略例	-11.9837
孔子之𫝊	-11.9838
,「	-11.9841
在下體之上	-11.9851
正乎凶	-11.9851
兩兩相	-11.9893
見羣龍无首吉	-11.992
伏羲所畫	-11.9926
獨善其身	-11.9927
聖人設卦觀象	-11.9927
岀	-11.9927
率性之謂道	-11.9927
乾天也故稱乎父坤地也故稱乎母	-11.9928
洵	-11.9928
人謀鬼謀	-11.9928
冓	-11.9929
折衷	-11.9929
六二已日乃革之征吉无咎	-11.9929
剛柔分而剛得中	-11.9929
上九晉其角維用伐邑厲吉无咎貞吝	-11.993
後天而奉天時	-11.993
九五萃有位无咎匪孚元永貞悔亡	-11.993
君子于行三日不食有攸往主人有言	-11.993
悛	-11.993
譜	-11.993
神武不殺	-11.993
迴	-11.993
乾道乃革	-11.9931
董卓	-11.9931
萃聚而升不來也	-11.9931
成終而所成始也故曰成言乎艮	-11.9931
仆	-11.9931
弗過防之	-11.9931
順乎天而應乎人革之時大矣哉	-11.9931
霍光	-11.9931
九四鼎折足覆公餗其形渥凶	-11.9932
不有躬	-11.9932
祼	-11.9933
上九鼎玉鉉大吉无不利	-11.9933
澤滅木大過君子以獨立不懼遯世无悶	-11.9933
數五十有五此所以成變化而行鬼神也	-11.9933
谿	-11.9934
其義不困窮矣	-11.9934
干寶	-11.9934
遯亨小利貞	-11.9935
九三明夷于南狩得其大首不可疾貞	-11.9935
坤為大輿	-11.9936
初六艮其趾无咎利永貞	-11.9936
初筮告再三瀆瀆則不告利貞	-11.9936
九二惕號莫夜有戎勿恤	-11.9936
屯元亨利貞勿用有攸往利建侯	-11.9936
過與不及	-11.9936
驚蟄	-11.9937
六五賁于丘園束帛戔戔吝終吉	-11.9937
初六習坎入于坎窞凶	-11.9938
故象占如此	-11.9938
少男少女	-11.9938
鼓天下之動者存乎辭	-11.9938
如斯而已	-11.9939
也注正義曰	-11.994
從中起	-11.9941
嫁妹	-11.9941
字疑衍	-11.9946
萬五千	-11.9947
定天下之業	-11.9948
理之當然	-11.9951
不累於	-11.9952
蔑貞凶	-11.997
百莖	-11.9974
林氏	-11.9983
變而通之以盡利	-11.999
正主事	-12.0004
册	-12.0034
匈奴	-12.0036
獲匪其醜	-12.0036
九四旅于處得其資斧我心不快	-12.0039
輮	-12.0039
賂	-12.0039
簒	-12.004
故謂之中男離再索而得女故謂之	-12.0041
中女艮三索而得男故謂之少	-12.0041
剛柔相摩八卦相盪	-12.0041
九三公用亨于天子小人弗克	-12.0041
佃漁	-12.0041
觀變於隂陽而立卦	-12.0041
畎	-12.0042
東北陽方	-12.0042
粒食	-12.0042
大過棟橈利有攸往亨	-12.0042
詆	-12.0043
九五渙汗其大號渙王居无咎	-12.0043
知至至之可與幾也知終終之可與存義	-12.0043
垂衣裳	-12.0043
无及矣	-12.0043
蠡	-12.0044
上古穴居而野處後世聖人易之以	-12.0044
乾始能以美利利天下不言所利大矣哉	-12.0045
何謂也子曰同聲相應同氣相求水流	-12.0045
上六引兌	-12.0045
何以守位曰仁	-12.0045
甚麽	-12.0045
素餐	-12.0046
十四年	-12.0046
廣大配天地變通配四時	-12.0046
九二曰見龍在田利見大人何謂也	-12.0046
王氏宗傳曰	-12.0046
利西南不利東北	-12.0046
坎者水也正北方之卦也勞卦也萬物之	-12.0046
井渫不食行惻也求王明受福也	-12.0047
紀聞曰	-12.0047
雖貞亦凶	-12.0047
將叛者其辭	-12.0047
養焉故曰致役乎坤	-12.0047
居其室出其言不善則千里之外違之	-12.0047
后妃	-12.0047
六五貫魚以宫人寵无不利	-12.0048
上六城復于隍勿用師自邑告命貞吝	-12.0048
五十有五之數	-12.0049
上九曰亢龍有悔何謂也子曰貴而无位	-12.0049
原筮元永貞无咎	-12.0049
天地變化草木蕃	-12.0049
山上有雷	-12.005
易窮則變變則通通則久	-12.005
天下有山遯君子以逺小人不惡而嚴	-12.005
六三歸妹以須反歸以娣	-12.005
扐以象閏	-12.0051
上六女承筐无實士刲羊无血无攸利	-12.0051
遇其臣	-12.0052
風自火出家人君子以言有物而行有恒	-12.0053
李氏過曰	-12.0053
噬腊肉	-12.0055
滅没	-12.0057
為君為父	-12.006
霜降	-12.0064
刑戮	-12.0067
傑	-12.0091
道有變動	-12.0098
終日乾乾夕惕若	-12.0108
天之神道	-12.0123
馵	-12.0137
鍊	-12.0143
胄	-12.0145
有飛鳥之象焉飛鳥遺之音	-12.0148
庫	-12.0149
筋	-12.0149
幅	-12.0151
弇	-12.0152
馨	-12.0152
霍	-12.0154
餒	-12.0155
湧	-12.0157
通其變使民不倦神而化之使民宜之	-12.0157
厦	-12.0157
可小事不可大事	-12.0157
屯蒙需訟	-12.0158
與孔子異矣	-12.0158
從一而終	-12.0158
六入于穴有不速之客三人來敬之終吉	-12.0158
黙而成之不言而信	-12.0159
上六困于葛藟于臲卼曰動悔有悔征吉	-12.0159
其動也闢	-12.0159
吳㓜清	-12.0159
澤中有雷	-12.016
見金夫不有躬	-12.016
變化者進退之象	-12.016
弄	-12.016
乾道變化各正性命保合太和乃利貞	-12.016
澤中有雷隨君子以嚮晦入宴息	-12.0161
可識矣	-12.0161
甘臨位不當也既憂之咎不長也	-12.0161
初六有孚不終乃亂乃萃若號一握為笑	-12.0161
爍	-12.0161
九四棟隆吉有它吝	-12.0163
先天而天弗違後天而奉天時天且弗違	-12.0163
舉而措之	-12.0163
百物不廢	-12.0163
是以不獲其身行其庭不見其人无咎也	-12.0163
九四突如其來如焚如死如棄如	-12.0164
需于沙衍在中也雖小有言以吉終也	-12.0164
反復其道七日來復利有攸往	-12.0164
汔至亦未繘井	-12.0165
曷之用二簋可用享二簋應有時	-12.0165
棟隆之吉不橈乎下也	-12.0166
聖人成能	-12.0166
有无妄然後可畜故受之以大畜	-12.0167
委靡	-12.0167
洙	-12.0168
五日四分日之一	-12.0168
緩必有所失故受之以損	-12.0173
兊為羊	-12.0174
有攸往夙吉往有功也	-12.0174
存亡吉凶	-12.0175
喪茀	-12.0177
沈氏	-12.0208
十六年	-12.023
三至五互	-12.0235
干寳	-12.0235
剡	-12.0257
扇	-12.0263
窟	-12.0265
燎	-12.0265
祠	-12.0267
鳥焚其巢	-12.0269
買	-12.0271
致役乎坤	-12.0271
揖遜	-12.0271
一致而百慮	-12.0271
遇其配主	-12.0271
乆於其道	-12.0272
桐	-12.0272
文明以健	-12.0272
履和而至	-12.0273
至哉坤元	-12.0273
帝出乎震齊乎巽相見乎離致役乎坤	-12.0273
餓	-12.0274
定天下之吉凶	-12.0274
明也跛能履不足以與行也咥人之	-12.0274
官有渝從正吉也出門交有功不失也	-12.0274
月窟	-12.0274
玊	-12.0274
柔在内而剛得中	-12.0275
殫	-12.0275
享帝立廟	-12.0275
百姓與能	-12.0275
朋盍簪	-12.0275
勿恤其孚	-12.0275
蠅	-12.0275
涼	-12.0275
終有大敗	-12.0275
易而无備	-12.0275
用見大人勿恤有慶也南征吉志行也	-12.0276
木上有火	-12.0276
酢	-12.0277
以尚賢也是以自天祐之吉无不利也	-12.0278
志不舍命	-12.0278
一陰一陽之謂道	-12.0278
天尊地卑乾坤定矣	-12.0278
顔色	-12.0278
晉如摧如獨行正也裕无咎未受命也	-12.0279
利用為依遷國	-12.0279
六五鼎黄耳金鉉利貞	-12.0279
自内而外	-12.0279
六四中行告公從利用為依遷國	-12.0279
莫大乎蓍龜	-12.0279
行未疑	-12.0279
建侯而不寧	-12.0279
无妄之災或繫之牛行人之得邑人之災	-12.028
淨	-12.028
天地睽而其事同也男女睽而其志通也	-12.028
四營而成易	-12.028
易之為書也不可逺	-12.028
六二征凶行失類也	-12.0281
復亨出入无疾朋來无咎	-12.0281
化而裁之謂之變推而行之謂之通	-12.0281
剛中而志行	-12.0281
恒其徳貞	-12.0282
日進无疆	-12.0282
匪寇	-12.0282
小人道長君子道消	-12.0284
第四章	-12.0285
敦篤	-12.0286
巽為雞	-12.0286
雷在天上大壯君子以非禮弗履	-12.0288
慎所之	-12.03
神以知來	-12.0307
剛遇中正	-12.0327
順以聽	-12.0329
樂則行之憂則違之	-12.0364
居隂得正	-12.0364
大衍之數五十其用四十有九	-12.0366
☶	-12.0381
豐蔀見斗	-12.0381
蠢	-12.0382
吟	-12.0385
我心不快	-12.0386
重門擊柝	-12.0386
濤	-12.0387
蘭恵卿曰	-12.0387
雌雄	-12.0388
在本爻以陽變隂為	-12.0389
吕與叔	-12.039
拙	-12.039
動容周旋	-12.039
機緘	-12.0391
柔得位乎外而上同	-12.0391
緊	-12.0391
上六龍戰于野其血𤣥黄	-12.0391
癸亥	-12.0392
復即命	-12.0392
印	-12.0392
盛徳大業	-12.0392
梓	-12.0392
肌膚	-12.0392
先否後喜	-12.0393
窒礙	-12.0393
眈眈	-12.0393
阮	-12.0393
後得主利西南得朋東北喪朋安貞吉	-12.0394
?	-12.0394
詢	-12.0394
遂知來物	-12.0394
井谷射鮒	-12.0394
和而不流	-12.0394
六三甘臨无攸利既憂之无咎	-12.0394
樊	-12.0395
渙汗其大號	-12.0396
栖	-12.0397
征凶无攸利	-12.0397
艮其止止其所也上下敵應不相與也	-12.0397
不可以有輔	-12.0397
所樂而玩者爻之辭也	-12.0398
憧憧徃來	-12.0398
履而泰然後安故受之以泰	-12.0398
乾坤二用	-12.0398
凝滯	-12.0398
九二包荒用馮河不遐遺朋亡得尚于中	-12.0399
存而不知亡知得而不知喪	-12.0399
夫乾確然示人易矣夫坤隤然示人簡矣	-12.0399
不獲其身行其庭不見其人	-12.0399
羸瓶	-12.04
創業	-12.0401
幽明死生鬼神	-12.0401
損而不已必益故受之以益	-12.0403
損剛益柔有時	-12.0403
剛柔相際	-12.0403
解而拇	-12.0407
威如之吉	-12.0407
。「	-12.0409
中興書目	-12.0411
參伍錯綜	-12.0436
子曰天下何思何慮天下同歸而殊	-12.0437
生乎動	-12.0442
相推盪	-12.0443
羝羊觸藩	-12.0487
卷一欽定四庫全書	-12.0499
積不善之家必有餘殃臣弑其君子弑其	-12.0503
釜	-12.0503
瑟	-12.0506
天際翔	-12.0506
鄭少梅曰	-12.0506
豎	-12.0506
豐其屋蔀其家	-12.0507
困窮而通	-12.0507
利物足以和義	-12.0508
澤上有風	-12.0508
由豫大有得	-12.0511
用見大人勿恤	-12.0511
賣	-12.0511
瘁	-12.0511
順動則刑罰清而民服豫之時義大矣哉	-12.0511
晉其角	-12.0511
鳯	-12.0511
永終知敝	-12.0511
六四渙其羣元吉渙有丘匪夷所思	-12.0511
九四來徐徐困于金車吝有終	-12.0511
畜極而通	-12.0511
來徐徐志在下也雖不當位有與也	-12.0512
上九翰音登于天貞凶	-12.0512
鞅	-12.0512
先庚三日後庚三日	-12.0513
鉅	-12.0513
唯君子為能通天下之志	-12.0513
是以小亨利有攸往利見大人	-12.0514
繫辭上傳	-12.0514
乾以易知	-12.0514
所尚乃窮	-12.0515
紆	-12.0515
非一朝一夕	-12.0515
无交而求則民不與也莫之與則傷之	-12.0515
聖人以神道設教而天下服矣	-12.0515
柔進上行	-12.0516
不相妨	-12.0516
九四曰或躍在淵无咎何謂也子曰上下	-12.0516
易曰見龍在田利見大人君德也	-12.0516
无思也无為也寂然不動感而遂通	-12.0517
反歸以娣	-12.0517
九三弗過防之從或戕之凶	-12.0517
上九无妄行有眚无攸利	-12.0517
六二鴻漸于磐飲食衎衎吉	-12.0517
以制器者尚其象以卜筮者尚其占	-12.0518
胡瑗	-12.0518
尺蠖之屈以求信也龍蛇之蟄以存身也	-12.0519
六四樽酒簋貳用缶納約自牖終无咎	-12.0519
豫必有隨故受之以隨	-12.0519
井泥不食	-12.052
屈伸往來	-12.052
道大悖	-12.0521
邢	-12.0522
中以行正	-12.0527
卑法地	-12.0583
訂詁	-12.0586
一百四十四	-12.0587
以從貴也	-12.0587
地節而四時成節以制度不傷財不害民	-12.06
林鍾	-12.0618
桂	-12.0623
節以制度	-12.0624
幻	-12.0625
頡	-12.0627
勞而能謙	-12.0627
幡	-12.0628
佯狂	-12.0628
釀	-12.0628
二至四互	-12.0629
銜	-12.0629
擯	-12.0629
食舊德	-12.063
九四睽孤遇元夫交孚厲无咎	-12.0631
渴	-12.0631
顴	-12.0631
昨日	-12.0632
僨	-12.0632
戒占者當如是也	-12.0632
閱	-12.0632
極深研幾	-12.0632
荀慈明	-12.0632
變化者進退之象也剛柔者晝夜之象也	-12.0633
輿説輻	-12.0633
賚	-12.0633
六三係丈夫失小子隨有求得利居貞	-12.0634
天且弗違	-12.0634
籲	-12.0635
正家而天下定	-12.0635
而况於人乎况於鬼神乎	-12.0635
困于葛藟未當也動悔有悔吉行也	-12.0635
也妻道也臣道也地道无成而代有終也	-12.0635
剛來下柔	-12.0635
引而伸之觸類而長之天下之能事畢矣	-12.0635
上六濡其首厲	-12.0635
㡳意思	-12.0636
翩翩不富皆失實也不戒以孚中心願也	-12.0636
疲	-12.0636
易之情近而不相得則凶或害之悔且吝	-12.0637
秒	-12.0638
絀	-12.0639
丨	-12.0639
損而有孚元吉无咎可貞利有攸往	-12.0639
上九莫益之或擊之立心勿恒凶	-12.0639
陰陽老少	-12.064
盈縮	-12.064
小人剥廬	-12.0641
樂而玩	-12.0646
中以為志	-12.0647
以卦徳釋	-12.0669
志得行	-12.0704
卷二欽定四庫全書	-12.0735
姪娣	-12.0738
辱非所據而據焉身必危	-12.0741
芻	-12.0747
湊	-12.0748
八卦以象告	-12.0749
滿而不溢	-12.0749
壬戌	-12.075
皷	-12.075
捍	-12.0751
戊午	-12.0752
馮厚齋曰	-12.0752
六三萃如嗟如无攸利往无咎小吝	-12.0752
大哉乾元萬物資始	-12.0752
為亟心	-12.0752
搖	-12.0752
敖	-12.0752
以陰變陽為	-12.0753
以陽變陰為	-12.0753
嬖	-12.0754
躭	-12.0754
過涉滅頂	-12.0754
烖	-12.0754
悌	-12.0754
上六君子豹變小人革面征凶居貞吉	-12.0755
比樂師憂	-12.0755
萬物出乎震震東方也齊乎	-12.0756
兊為口舌	-12.0756
時止則止	-12.0756
噬嗑食也賁无色也	-12.0756
東北䘮朋	-12.0756
兢兢業業	-12.0756
貴賤之等	-12.0756
下雷行物與无妄先王以茂對時育萬物	-12.0757
人之所助者信也履信思乎順又	-12.0757
赧	-12.0757
得中而應乎剛	-12.0757
黯	-12.0757
之文極其數遂定天下之象	-12.0758
二人同心其利斷金同心之言其臭如蘭	-12.0758
有慶譽	-12.0758
九二枯楊生稊老夫得其女妻无不利	-12.0758
无常非為邪也進退无恒非離	-12.0758
一元之氣	-12.0758
昔者聖人之作易也將以順性命之理	-12.0758
十有四凡三百有六十當期之日	-12.0759
剝牀以足	-12.0759
其出入以度外内使知懼	-12.0759
巽為不果	-12.0759
蔾	-12.076
顔淵	-12.076
消息盈虛	-12.076
之而後言議之而後動擬議以成其變化	-12.076
胡庭芳曰	-12.076
天地之道貞觀者也日月之道貞明者也	-12.076
是故君子居則觀其象而玩其辭	-12.076
六二艮其腓不拯其隨其心不快	-12.076
終始其要无咎此之謂易之道也	-12.0761
楊氏萬里曰	-12.0761
子曰君子安其身而後動易其心而後	-12.0761
赦宥	-12.0761
初九需于郊利用恒无咎	-12.0762
火在水上未濟君子以慎辨物居方	-12.0762
吉凶悔吝者生乎動者也	-12.0762
敝漏	-12.0763
子曰易有聖人之道四焉者此之謂也	-12.0763
呼號	-12.0764
為人上者	-12.0766
毫末	-12.0768
負荷	-12.077
圎圗	-12.0772
居動之極	-12.0779
居一卦之上	-12.079
紛擾	-12.0846
聦	-12.0856
燧	-12.0867
彭彭	-12.0867
固其守	-12.087
訣	-12.087
山上有火	-12.0872
臀无膚其行次且	-12.0873
奮迅	-12.0873
三五互	-12.0873
竈	-12.0873
董銖録	-12.0874
張子厚曰	-12.0875
卑以自牧	-12.0875
中不自亂	-12.0875
䖍	-12.0876
崖	-12.0876
寖	-12.0876
犢	-12.0876
益以興利	-12.0876
應事接物	-12.0876
喉	-12.0877
嶠	-12.0877
凶位不當也武人為于大君志剛也	-12.0877
日中見斗幽不明也遇其夷主吉行也	-12.0877
臀困于株木	-12.0877
先天而天弗違	-12.0878
一動一靜	-12.0878
毗	-12.0878
上六拘係之乃從維之王用亨于西山	-12.0878
何所利哉	-12.0878
隂陽剛柔仁義	-12.0878
可不戒哉	-12.0879
惓	-12.0879
㛰	-12.0879
墟	-12.0879
聖人設卦觀象繫辭焉而明吉凶	-12.088
豹變其文蔚也小人革面順以從君也	-12.088
含萬物而化光	-12.0881
躔	-12.0881
樽酒	-12.0881
不我能即	-12.0881
一部易	-12.0881
知幾其神	-12.0882
頃刻	-12.0882
二與五為正應	-12.0882
日中則昃月盈則食天地盈虚與時消息	-12.0882
寡髪	-12.0883
初六晉如摧如貞吉罔孚裕无咎	-12.0883
山附於地	-12.0883
解緩也蹇難也	-12.0884
九二眇能視利幽人之貞	-12.0884
懐萬邦	-12.0886
遯尾之厲不往何災也	-12.0886
内陽而外隂内健而外順	-12.0887
查	-12.0887
纍	-12.0889
太玄	-12.0901
十八年	-12.0916
乾坤毁則无以見易	-12.0919
卷三欽定四庫全書	-12.0969
擊柝	-12.0988
莫夜有戎	-12.099
知大始	-12.0991
明入地中明夷	-12.0996
擁	-12.0996
信以發志	-12.0997
入于其宫不見其妻	-12.0997
瞽	-12.0997
幡幔	-12.0997
鮑	-12.0998
六四王用亨于岐山吉无咎	-12.0999
教思无窮	-12.0999
明罰勅法	-12.0999
盎	-12.0999
神武而不殺	-12.0999
天一至地十	-12.1
婢	-12.1001
以其國君凶	-12.1001
次且位不當也聞言不信聰不明也	-12.1001
形而上者謂之道	-12.1002
日中為市致天下之民聚天下之貨	-12.1002
練	-12.1002
一闔一闢謂之變	-12.1002
彖曰履柔履剛也	-12.1002
婦人吉夫子凶	-12.1002
乾元者始而亨者也利貞者性情也	-12.1003
君子道長小人道憂	-12.1003
坤元亨利牝馬之貞君子有攸往先迷	-12.1004
璞	-12.1004
剛自外來而為主于内	-12.1004
軾	-12.1004
蒙山下有險險而止蒙	-12.1004
亦不足貴	-12.1004
幹母蠱	-12.1005
䜟	-12.1005
密雲不雨自我西郊	-12.1005
山下有火賁君子以明庶政无敢折獄	-12.1005
乾坤其易之門	-12.1006
崇效天	-12.1006
逺近幽深	-12.1006
小過過也中孚信也	-12.1006
小徃大來	-12.1007
贖	-12.1007
下不厚事	-12.1007
介疾有喜	-12.1007
比吉原筮元永貞无咎不寧方來後夫凶	-12.1007
爻也者效此者也象也者像此者也	-12.1007
枯楊生華	-12.1007
石澗俞氏曰	-12.1008
水在火上既濟君子以思患而豫防之	-12.1008
百姓日用而不知故君子之道鮮矣	-12.1008
後天卦位	-12.1008
噬嗑而亨剛柔分動而明雷電合而章	-12.1009
戌亥	-12.101
孚號有厲其危乃光也告自邑不利即	-12.101
乾兑離震	-12.1011
魚隂物	-12.1013
鳥獸之文	-12.1013
姪	-12.1014
而不括是以出而有獲語成器而動者也	-12.1014
老陽老隂	-12.1015
理之必然	-12.1017
■	-12.1018
二篇之策	-12.1018
以小畜大	-12.1027
閑邪存其誠	-12.1038
柔道牽	-12.1103
剭	-12.1108
昴	-12.1122
周易辨畫卷	-12.1123
終莫之聞	-12.1124
嬪	-12.1124
九二包蒙吉納婦吉子克家	-12.1125
姤其角	-12.1125
孳	-12.1125
漓	-12.1125
以通神明之徳以類萬物之情	-12.1125
六三眇能視跛能履履虎尾咥人凶武人	-12.1126
鬚	-12.1126
昻	-12.1127
五位相得而各有合	-12.1127
无䘮无得	-12.1127
繳	-12.1127
窮理盡性以至於命	-12.1127
井冽寒泉食	-12.1127
神而明之存乎其人	-12.1128
九三豐其沛日中見沬折其右肱无咎	-12.1128
沸	-12.1128
辛丑	-12.1129
項羽	-12.1129
忠信所以進徳	-12.1129
之上各加	-12.113
棼	-12.113
書不盡言言不盡意	-12.113
老婦士夫	-12.113
踞	-12.113
隨風巽君子以申命行事	-12.113
上棟下宇	-12.113
也故曰勞乎坎艮東北之卦也萬物之所	-12.1131
知難而退	-12.1131
上六井收勿幕有孚元吉	-12.1131
百榖草木	-12.1131
可不慎乎	-12.1132
風行水上渙先王以享于帝立廟	-12.1132
日月得天而能久照四時變化而能久成	-12.1134
渙離也節止也	-12.1135
未繘井	-12.1135
君子尚消息盈虚天行也	-12.1136
澤滅木	-12.1137
久于其道	-12.1137
六五噬乾肉得黄金貞厲无咎	-12.1138
悠久	-12.1146
有戎勿恤	-12.1146
承天寵	-12.116
久而不已	-12.1178
不䘮匕鬯	-12.1247
葉賀孫	-12.125
巾	-12.1251
宵	-12.1252
𡨕	-12.1253
圉	-12.1253
原始反終	-12.1254
濂	-12.1254
九五有孚攣如富以其鄰	-12.1254
場	-12.1254
豉	-12.1254
瞬	-12.1255
堆	-12.1256
有吉有凶	-12.1256
聖人作而萬物覩本乎天者親上	-12.1256
恐致福	-12.1256
九二巽在牀下用史巫紛若吉无咎	-12.1258
晉如愁如	-12.1258
居徳則忌	-12.1259
三陳九卦	-12.1259
拳拳	-12.1259
可以類推	-12.1259
煞	-12.126
果行育徳	-12.126
六二不耕穫不菑畬則利有攸往	-12.126
比之初六有他吉也	-12.1261
是故四營而成易十有八變而成卦	-12.1262
是故君子所居而安者易之序也	-12.1262
危以動則民不與也懼以語則民不應也	-12.1263
山川丘陵	-12.1263
是故吉凶生而悔吝著也	-12.1263
九三井渫不食為我心惻可用汲王明	-12.1264
勞民勸相	-12.1264
訟必有衆起故受之以師師者衆也	-12.1264
何咎之有慎之至也夫茅之為物薄而	-12.1265
繫辭焉而命之動在其中矣	-12.1266
解利西南无所往其來復吉有攸往夙吉	-12.1269
天地解而雷雨作雷雨作而百	-12.127
隂中之陽	-12.1272
之所由生也	-12.1307
飪	-12.1314
天下无邦	-12.137
井居其所而遷	-12.1377
暖	-12.138
混淆	-12.1381
暘	-12.1381
鋤	-12.1383
象曰不節之嗟又誰咎也	-12.1383
初九震來虩虩後笑言啞啞吉	-12.1384
以佃以漁	-12.1385
台	-12.1385
穏	-12.1385
豢	-12.1385
菲	-12.1385
弁	-12.1385
其位剛得中也	-12.1386
象事知器	-12.1386
臟	-12.1386
乾元用九乃見天則	-12.1386
暢於四支	-12.1386
奕	-12.1386
萬一千五百二十	-12.1387
皇極經世	-12.1387
剛應而志行	-12.1387
后稷	-12.1387
終朝三褫	-12.1387
徼	-12.1388
飫	-12.1388
象曰革言三就又何之矣	-12.1389
䘮羊于易	-12.1389
横亘	-12.1389
下經首咸恒	-12.1389
不相悖山澤通氣然後能變化既成萬物	-12.1389
上九鴻漸于陸其羽可用為儀吉	-12.1389
上九或錫之鞶帶終朝三褫之	-12.139
童蒙求我	-12.139
堯典	-12.139
楊中立曰	-12.139
輔相天地之宜	-12.1391
言行君子之所以動天地也可不慎乎	-12.1391
知柔知剛	-12.1392
長男長女	-12.1392
耳目聰明	-12.1392
兌為毁折	-12.1392
曜	-12.1393
夬決也剛決柔也君子道長小人道憂也	-12.1393
燔	-12.1394
内小人而外君子小人道長君子道消也	-12.1394
二簋可用享	-12.1394
象曰雷在地中復	-12.1395
宻雲不雨自我西郊	-12.1395
九二田獲三狐得黄矢貞吉	-12.1396
初六遯尾厲勿用有攸往	-12.1396
益動而巽日進无疆天施地生其益无方	-12.1396
當過而過	-12.1403
刑剭	-12.1406
正位乎内	-12.1419
不可與長	-12.1427
胷	-12.1488
往遇雨則吉	-12.1495
先張之弧	-12.15
佀	-12.1504
前民用	-12.1508
謙而又謙	-12.1511
品物咸章	-12.1512
顯道神徳行	-12.1513
内喜之也	-12.1514
象曰中行无咎中未光也	-12.1514
為于大君	-12.1514
履者禮也	-12.1514
困蒙之吝獨逺實也	-12.1514
擒	-12.1514
隊	-12.1515
劉長民曰	-12.1515
沈僴録	-12.1515
盂	-12.1515
纎毫	-12.1516
芮	-12.1516
思患豫防	-12.1516
乾坤成列而易立乎其中矣乾坤毁則	-12.1516
至精至變至神	-12.1517
畝	-12.1517
覈	-12.1517
貞屯悔豫	-12.1517
胃	-12.1518
殺身成仁	-12.1518
天數五地數五	-12.1518
彌縫	-12.1518
囬	-12.1518
九四由豫大有得勿疑朋盍簪	-12.1518
兎	-12.1519
非天下之至變其孰能與於此	-12.1519
枯槁	-12.1519
剛遇中正天下大行	-12.152
仗	-12.152
臨觀之義或與或求	-12.152
屯如邅如	-12.152
夫𤣥黄者天地之雜也天𤣥而地黄	-12.1521
知進退存亡而不失其正者其唯聖人乎	-12.1521
風行地上觀先王以省方觀民設教	-12.1521
小畜寡也履不處也	-12.1521
蔽膝	-12.1521
成生育之功	-12.1522
參伍以變錯綜其數通其變遂成天地	-12.1522
乾為馬坤為牛震為龍	-12.1522
汔幾也	-12.1523
陋巷	-12.1523
彖曰家人女正位乎内	-12.1523
王乃在中	-12.1523
易曰自天祐之吉无不利子曰	-12.1523
六二婦喪其茀勿逐七日得	-12.1523
六四入于左腹獲明夷之心于出門庭	-12.1524
晉晝也明夷誅也	-12.1524
喫	-12.1524
上六无實承虚筐也	-12.1524
象曰貞厲无咎得當也	-12.1524
上施光	-12.1524
象曰十年勿用道大悖也	-12.1524
安貞之吉	-12.1525
者至矣易曰莫益之或擊之立心勿恒凶	-12.1525
艮其止止其所也	-12.1525
以卦體卦徳	-12.1526
象曰六五之吉有喜也	-12.1526
見龍在田時舍也	-12.1527
小狐汔濟未出中也濡其尾无	-12.1527
是故夫象聖人有以見天下之賾	-12.1527
噫亦要存亡吉凶則居可知矣	-12.1527
子曰書不盡言言不盡意然則	-12.1528
其旋元吉	-12.1528
六三來之坎坎險且枕入于坎窞勿用	-12.1528
道有變動故曰爻爻有等故曰物	-12.1528
四六二十四	-12.1529
象曰天在山中大畜	-12.1529
坎中之陽	-12.1533
萬六千	-12.1612
分而為二以象兩	-12.163
能散其	-12.163
粒	-12.1641
帙	-12.1642
萬四千	-12.1642
陽中之隂	-12.1643
天地相遇品物咸章	-12.1644
劇	-12.1646
燼	-12.1646
宋方聞一編	-12.1647
攬	-12.1647
眉	-12.1647
抽	-12.1648
黙而成之	-12.1648
可用為儀	-12.1648
煖	-12.1649
不出户庭知通塞也	-12.165
槃	-12.165
用六利永貞	-12.165
象曰大車以載積中不敗也	-12.165
偉	-12.1651
易纂言	-12.1651
富有之謂大業	-12.1652
蠱者事也	-12.1652
袖	-12.1652
蘇氏軾曰	-12.1652
王氏申子曰	-12.1652
頴	-12.1652
象曰不事王侯志可則也	-12.1653
王假之尚大也勿憂宜日中宜照天下也	-12.1653
於天俯則觀法於地觀鳥獸之文與地	-12.1653
進以正可以正邦	-12.1653
羮	-12.1653
初吉柔得中也終止則亂其道窮也	-12.1654
九三咸其股執其隨往吝	-12.1654
聖人之大寳曰位	-12.1654
六四翩翩不富以其鄰不戒以孚	-12.1654
子曰君子之道或出或處或黙或語	-12.1655
莫益之偏辭也或擊之自外來也	-12.1655
象曰火在天上大有	-12.1655
週	-12.1655
第九章	-12.1655
初二三四五上	-12.1655
象曰萃有位志未光也	-12.1655
由頤厲吉大有慶也	-12.1656
震用伐鬼方	-12.1656
六二明夷夷于左股用拯馬壯吉	-12.1656
以從禽也	-12.1656
矣天下之理得而成位乎其中矣	-12.1656
象曰老夫女妻過以相與也	-12.1657
象曰大人否亨不亂羣也	-12.1657
小人以小善為无益而弗為也	-12.1658
上經三十卦	-12.1658
泰者通也物不可以終通故受之以否	-12.1658
六三即鹿无虞惟入于林中	-12.1659
象曰坎不盈中未大也	-12.1659
象曰遇毒位不當也	-12.166
象曰有戎勿恤得中道也	-12.166
象曰利艱貞吉未光也	-12.166
不威不懲小懲而大誡此小人之福也	-12.166
攸利不續終也雖不當位剛柔應也	-12.1661
象曰元吉无咎下不厚事也	-12.1661
六爻相雜唯其時物也	-12.1662
杜預	-12.1662
象曰九二利貞中以為志也	-12.1663
象曰九二貞吉得中道也	-12.1664
父子兄弟	-12.167
以卦德言	-12.1672
為血卦	-12.172
以九居三	-12.1771
近取諸身逺取諸物	-12.1775
芥	-12.1778
矦	-12.1779
勘	-12.178
叡	-12.1781
鳥焚其巢旅人先笑後號咷喪牛于易凶	-12.1781
百姓日用而不知	-12.1783
影響	-12.1783
出涕沱若	-12.1783
邠	-12.1783
憧	-12.1783
璣	-12.1784
洊雷震君子以恐懼修省	-12.1784
進得位往有功也進以正可以正邦也	-12.1784
三分天下有其二	-12.1784
根柢	-12.1785
隨有獲其義凶也有孚在道明功也	-12.1785
鶴鳴子和	-12.1785
彪	-12.1786
東谷鄭氏曰	-12.1787
殷之末世	-12.1787
象曰交孚无咎志行也	-12.1787
震亨震來虩虩笑言啞啞震驚百里不喪	-12.1787
挨	-12.1787
失得之象也悔吝者憂虞之象也	-12.1788
圯	-12.1788
思不出其位	-12.1788
凜	-12.1788
應乎天而時行	-12.1788
彘	-12.1788
極數知來之謂占通變之謂事	-12.1788
神以知來知以藏往	-12.1788
其稱名也小其取類也大	-12.1789
縣象著明莫大乎日月	-12.1789
馮椅	-12.179
過以利貞與時行也柔得中是以小事吉	-12.179
六二晉如愁如貞吉受兹介福于其王母	-12.1791
六五不富以其鄰利用侵伐无不利	-12.1791
虎視眈眈	-12.1791
象曰利用侵伐征不服也	-12.1791
初六之吉順也	-12.1791
上九王用出征有嘉折首獲匪其醜无咎	-12.1791
鼎有實慎所之也我仇有疾終无尤也	-12.1791
六五悔亡失得勿恤往吉无不利	-12.1791
易則易知簡則易從易知則有親	-12.1792
戡	-12.1792
象曰九四之喜有慶也	-12.1792
枯楊生稊	-12.1792
邑人之災	-12.1793
澤上于天	-12.1794
唯神也故不疾而速不行而至	-12.1795
蝦	-12.1796
彖曰習坎重險也	-12.1796
彖者言乎象者也爻者言乎變者也	-12.1796
時行則行	-12.1796
範圍天地之化而不過曲成萬物而不遺	-12.1797
物不可以終壯故受之以晉晉者進也	-12.1797
我有好爵	-12.1797
内君子而外小人君子道長小人道消也	-12.1797
知周萬物	-12.1798
以四約之	-12.1798
物不可以終難故受之以解解者緩也	-12.1804
艱貞无咎勿恤其孚于食有福	-12.1825
遑	-12.1838
撥	-12.1892
惇	-12.1911
☲	-12.1913
模範	-12.1915
九三旅焚其次喪其童僕貞厲	-12.1917
其人天且劓	-12.1917
萊	-12.1917
勿逐自復	-12.1918
尼	-12.1918
蟻	-12.1919
寥	-12.1919
山上有火旅君子以明慎用刑而不留獄	-12.1919
有孚窒惕中吉	-12.192
蒞	-12.192
升其髙陵	-12.1921
褚	-12.1921
鼓之以雷霆	-12.1921
有孚發若	-12.1922
詠	-12.1923
象曰雷出地奮豫	-12.1923
不疑其所行	-12.1923
象曰幽人貞吉中不自亂也	-12.1923
白雲郭氏曰先人曰	-12.1923
剪	-12.1923
故太𤣥準之以	-12.1924
陽陷隂中	-12.1924
用説桎梏	-12.1924
有孚光亨貞吉	-12.1924
剛柔者晝夜之象	-12.1924
蒙以養正	-12.1924
各正其性命	-12.1924
禁民為非	-12.1924
乾為首坤為腹震為足	-12.1924
尚口乃窮	-12.1925
視聽言動	-12.1925
象曰幹母之蠱得中道也	-12.1925
孚乃化邦	-12.1926
象曰大人之吉位正當也	-12.1926
象曰以祉元吉中以行願也	-12.1926
闔戸	-12.1926
冉	-12.1926
晉如摧如	-12.1927
三五同功	-12.1927
施命誥四方	-12.1927
不利有攸往小人長也順而止之觀象也	-12.1927
同人于野亨利涉大川利君子貞	-12.1928
觀象玩辭觀變玩占	-12.1928
濓溪	-12.1928
上九巽在牀下喪其資斧貞凶	-12.1928
閹	-12.1928
君子道消	-12.1928
崇髙莫大乎富貴	-12.1928
九三髙宗伐鬼方三年克之小人勿用	-12.1928
仞	-12.1929
觀我朶頤	-12.1929
當位以節	-12.1929
浩然之氣	-12.1929
利見大人往有功也當位貞吉以正邦也	-12.1929
象曰公用射隼以解悖也	-12.1929
褊	-12.193
大過大者過也	-12.193
象曰王假有家交相愛也	-12.193
居巽之極	-12.193
以上養下	-12.1931
象曰君子之光其暉吉也	-12.1931
兑為毁折	-12.1931
物不可以終盡剥窮上反下故受之以復	-12.1931
卦有小大辭有險易辭也者各指其所之	-12.1931
得其所歸者必大故受之以豐豐者大也	-12.1932
夬決也剛決柔也	-12.1932
有天道焉有人道焉有地道焉兼三	-12.1933
彖曰師衆也貞正也能以衆正可以王矣	-12.1934
欽定四庫全書大易粹言卷	-12.1935
莫盛於	-12.1938
不五則九	-12.1945
􁄅	-12.1945
是故聖人以通天下之志以	-12.1946
簋貳	-12.1949
文中子	-12.195
逋竄	-12.1951
况其邇者乎	-12.1968
乖必有難故受之以蹇蹇者難也	-12.1988
于食有福	-12.2018
☴	-12.205
黍稷	-12.2053
懐其資	-12.2056
漬	-12.2058
潛見飛躍	-12.2058
六五悔亡厥宗噬膚往何咎	-12.2058
萃如嗟如	-12.2059
彖曰節亨剛柔分而剛得中	-12.2059
㐲	-12.2059
隗	-12.2059
象曰由豫大有得志大行也	-12.2059
觀我生觀民也	-12.206
澹	-12.206
殉	-12.206
象曰終以譽命上逮也	-12.2061
滓	-12.2061
煉	-12.2061
貞固足以幹事	-12.2061
慚	-12.2061
逾	-12.2062
任天下之重	-12.2062
六五幹父之蠱用譽	-12.2062
日中為市	-12.2062
六千九百一十二	-12.2062
徠	-12.2062
四千六百八	-12.2062
繒	-12.2062
象曰有孚攣如不獨富也	-12.2062
井甃无咎修井也	-12.2062
能无凶乎	-12.2062
離南坎北	-12.2062
椽	-12.2063
其羽可用為儀吉	-12.2063
沾濡	-12.2063
六四裕父之蠱往見吝	-12.2063
象曰幹父之蠱意承考也	-12.2063
杙	-12.2064
象曰勿用取女行不順也	-12.2064
苑	-12.2064
尚徳載	-12.2064
因貳以濟民行以明失得之報	-12.2064
之興也其於中古乎作易者其有憂患乎	-12.2064
剛當位而應與時行也	-12.2064
彖曰小畜柔得位而上下應之曰小畜	-12.2065
象曰履錯之敬以辟咎也	-12.2065
索索矍矍	-12.2065
象曰幹父之蠱終无咎也	-12.2065
大易擇言卷	-12.2066
象曰維用伐邑道未光也	-12.2066
賁如濡如	-12.2067
檀	-12.2067
大畜時也无妄災也	-12.2067
无妄之往何之矣天命不祐行矣哉	-12.2068
立卦生爻	-12.2068
坤厚載物	-12.2069
象曰城復于隍其命亂也	-12.2069
象曰泣血漣如何可長也	-12.2069
精義入神以致用也利用安身以崇徳也	-12.2069
不可惡也言天下之至動而不可亂也	-12.207
使平易者使傾其道甚大百物不廢懼以	-12.207
彖曰損損下益上其道上行	-12.207
初六鼎顛趾利出否得妾以其子无咎	-12.207
屯者物之始生也	-12.207
枯楊生華何可久也老婦士夫亦可醜也	-12.207
初率其辭而揆其方既有典常	-12.207
象曰三年克之憊也	-12.2071
象曰七日得以中道也	-12.2072
損下益上其道上行	-12.2072
朋至斯孚	-12.2073
烹餁	-12.2073
二百七十	-12.2073
吉凶者言乎其失得也	-12.2074
舊井无禽	-12.2074
掛一以象三	-12.2075
不逺之復	-12.2078
志不同行	-12.2086
小人用壯君子罔也	-12.2095
能无咎乎	-12.2115
誠者天之道	-12.2132
朱子小註	-12.2189
駮	-12.2193
筤	-12.2195
地道卑而上行	-12.2196
僉	-12.2197
𤨏𤨏	-12.2197
謁	-12.2197
柳	-12.2197
裔	-12.2198
鹹	-12.2198
天道下濟而光明	-12.2198
其悔乃亡	-12.2199
程可乆曰	-12.22
鵲	-12.22
坤以簡能	-12.22
蔡邕	-12.2201
臲	-12.2201
撮	-12.2201
郁	-12.2202
象曰豐其蔀位不當也	-12.2202
象曰覆公餗信如何也	-12.2202
象曰夫妻反目不能正室也	-12.2203
旒	-12.2203
辨之不早	-12.2203
火動而上澤動而下	-12.2203
九四隨有獲貞凶有孚在道以明何咎	-12.2203
古之葬者厚衣之以薪	-12.2204
廸	-12.2204
象曰艮其輔以中正也	-12.2205
含萬物而化光坤道其順乎承天而時行	-12.2205
平甫項氏曰	-12.2205
自初至上	-12.2206
對時育物	-12.2206
滕口説	-12.2207
思患而豫防	-12.2207
風行天上小畜君子以懿文徳	-12.2207
鼫	-12.2208
八卦以象告爻彖以情言剛柔雜居	-12.2208
有孚于飲酒	-12.2208
抍	-12.2208
定天下之業以斷天下之疑	-12.2208
纁	-12.2208
上不在天下不在田	-12.2209
是故法象莫大乎天地變通莫大乎四時	-12.2209
象曰箕子之貞明不可息也	-12.2209
上六迷復凶有災眚	-12.2209
不可榮以禄	-12.2209
象曰拘係之上窮也	-12.2209
彖曰同人柔得位得中而應乎乾曰同人	-12.2209
致意焉	-12.2209
蹇利西南往得中也不利東北其道窮也	-12.221
初九磐桓利居貞利建侯	-12.221
是故天生神物聖人則之天地	-12.2211
象曰其行次且行未牽也	-12.2212
九二貞吉中以行正也	-12.2213
氐	-12.2213
彖曰未濟亨柔得中也	-12.2213
象曰无妄之行窮之災也	-12.2213
是故形而上者謂之道形而下者謂之器	-12.2214
進必有所傷故受之以明夷夷者傷也	-12.2214
為内卦之主	-12.2214
為二隂所	-12.2226
臼杵	-12.2246
怙	-12.2315
歐	-12.2316
寂然不動感而遂通	-12.233
髣髴	-12.2333
彈	-12.2335
霄	-12.234
扞	-12.2341
鎔	-12.2341
鳩	-12.2341
豳	-12.2342
旅焚其次亦以傷矣以旅與下其義喪也	-12.2344
甸	-12.2344
男女搆精	-12.2345
古者包犧氏之王天下也仰則觀象	-12.2345
劈	-12.2345
行此四徳	-12.2345
滲	-12.2345
埋	-12.2346
笄	-12.2346
縟	-12.2346
九二大車以載有攸往无咎	-12.2346
象曰公用亨于天子小人害也	-12.2346
蔣	-12.2346
銅	-12.2346
上有地臨君子以教思无窮容保民无疆	-12.2346
立象盡意	-12.2347
嬉	-12.2347
贍	-12.2347
初九遇其配主雖旬无咎往有尚	-12.2348
羸豕孚蹢躅	-12.2348
呈露	-12.2348
不橈乎下	-12.2348
燠	-12.2348
英雄	-12.2348
不及其君遇其臣	-12.2348
王假有廟致孝享也利見大人亨	-12.2348
象曰天下有風姤后以施命誥四方	-12.2348
勿恤往无咎	-12.2349
埸	-12.2349
物極則反	-12.2349
木在水上	-12.2349
係用徽纆	-12.2349
用說桎梏	-12.235
象曰樽酒簋貳剛柔際也	-12.235
潁	-12.2351
九四无咎弗過遇之往厲必戒勿用永貞	-12.2351
時掌反	-12.2351
彖曰艮止也時止則止時行則行	-12.2351
廣雅云	-12.2351
象曰或得其桷順以巽也	-12.2351
日月得天	-12.2351
六四需于血出自穴	-12.2351
九五休否大人吉其亡其亡繫于苞桑	-12.2352
象曰飲食衎衎不素飽也	-12.2352
利用亨祀	-12.2352
足以有臨	-12.2352
勿問之矣	-12.2353
爻象動乎内吉凶見乎外功業見乎變	-12.2353
含章可貞以時發也或從王事知光大也	-12.2353
旁行而不流	-12.2354
唯深也故能通天下之志	-12.2354
是故易者象也象也者像也	-12.2354
有孚于小人	-12.2354
象曰屯其膏施未光也	-12.2354
剛柔之際義无咎也	-12.2355
變化聖人效之天垂象見吉凶聖人象之	-12.2355
照四國	-12.2355
君子見幾而作不俟終日易曰介于石	-12.2355
聖人之意其不可見乎子曰聖人立	-12.2355
不逺之復以修身也	-12.2356
易之為書也原始要終以為質也	-12.2356
稺	-12.2357
百果草木	-12.2358
幽人之貞	-12.2361
有嚴君焉父母之謂也父父子子兄兄弟	-12.2369
萬七千	-12.2375
繼之者善也成之者性也	-12.243
勞謙君子有終吉子曰勞而不伐	-12.2465
恍	-12.2478
孑	-12.2484
㝢	-12.2484
蘋	-12.2485
呉㓜清	-12.2486
雜而不厭	-12.2486
象曰咸其股亦不處也志在隨人所執下	-12.2486
熒	-12.2486
諡	-12.2487
大亨而利於正	-12.2487
豐其蔀日中見斗	-12.2487
淑慝之分	-12.2488
黔喙	-12.2488
杭	-12.2488
先笑後號咷	-12.2489
長子帥師弟子輿尸貞凶	-12.2489
燈	-12.2489
慎言語節飲食	-12.2489
積中不敗	-12.2489
韋編三絶	-12.2489
百穀草木	-12.249
神而化之	-12.249
曰不克訟歸逋竄也自下訟上患至掇也	-12.2491
膝	-12.2491
盲	-12.2491
不一而足	-12.2491
王用三驅失前禽	-12.2491
集傳謂	-12.2491
六四括囊无咎无譽	-12.2492
履以和行謙以制禮復以自知恒以一	-12.2492
拔茅征吉志在外也	-12.2493
獨立不懼遯世无悶	-12.2493
乘木舟虚	-12.2494
胞	-12.2494
動萬物者莫疾乎雷撓萬物者莫疾乎風	-12.2494
昂	-12.2494
㢘	-12.2494
非人之所能	-12.2494
未感害	-12.2494
喪馬勿逐	-12.2494
滂	-12.2494
以陽下隂	-12.2494
物始萬物者莫盛乎艮故水火相逮雷風	-12.2495
覇	-12.2495
蟠	-12.2495
文言曰元者善之長也亨者嘉之	-12.2495
睇	-12.2495
銀	-12.2496
是故愛惡相攻而吉凶生	-12.2496
象曰王臣蹇蹇終无尤也	-12.2496
睽外也家人内也	-12.2496
初九悔亡喪馬勿逐自復見惡人无咎	-12.2496
貞吉悔亡未感害也憧憧往來未光大也	-12.2497
隂二君而一民小人之道也	-12.2497
惠我徳	-12.2497
刳木為舟剡木為楫舟楫之利以濟不通	-12.2497
朱氏震曰	-12.2497
非所困而困	-12.2497
學以聚之問以辨之寛以居之仁以行之	-12.2497
有不善未嘗不知	-12.2497
以人身取象	-12.2497
巴	-12.2498
上六弗遇過之飛鳥離之凶是謂災眚	-12.2499
象傳明之曰	-12.2499
象曰艮其趾未失正也	-12.2499
亢龍有悔盈不可久也	-12.25
象曰歸妹以須未當也	-12.25
蕤	-12.2617
派	-12.2628
闃	-12.2628
汴水趙氏曰	-12.263
戍	-12.263
惺	-12.2631
􁀈	-12.2632
九二不出門庭凶	-12.2632
㗐	-12.2633
隨時之義大矣哉	-12.2633
翩	-12.2634
點	-12.2635
薦之上帝	-12.2635
䕃	-12.2635
信以𤼵志	-12.2635
一往一來	-12.2636
地二生火	-12.2636
稅	-12.2636
旅在上其義焚也喪牛于易終莫之聞也	-12.2636
汝吉曰	-12.2636
樓	-12.2637
亳	-12.2637
盛徳大業至矣哉	-12.2638
魏伯陽	-12.2638
豫順以動故天地如之而况建侯行師乎	-12.2638
夫夫婦婦	-12.2638
承筐无實	-12.2638
體天地之撰	-12.2639
彖曰漸之進也女歸吉也	-12.2639
傷人之明	-12.2639
崔氏憬曰	-12.2639
㓗	-12.2639
象曰翰音登于天何可長也	-12.2639
震无咎者存乎悔	-12.2639
戰乎乾乾西北之卦也言隂陽相薄也	-12.2639
雁	-12.2639
象曰其羽可用為儀吉不可亂也	-12.2639
象曰利有攸往上合志也	-12.2639
衎	-12.264
兀	-12.264
雷霆風雨	-12.264
巽小亨利有攸往利見大人	-12.264
伎	-12.2641
厲危行也其事在中大无喪也	-12.2641
萬夫之望	-12.2641
大師克相遇	-12.2641
象曰王用出征以正邦也	-12.2642
天地設位聖人成能人謀鬼謀百姓與能	-12.2642
不耕而穫不菑而畬	-12.2642
弗損益之大得志也	-12.2642
彖曰豐大也明以動故豐	-12.2643
乃謂之象形乃謂之器制而用之謂之法	-12.2643
巧言令色	-12.2643
徊	-12.2643
凋	-12.2643
巽在牀下上窮也喪其資斧正乎凶也	-12.2643
匪躬之故	-12.2644
初九虞吉志未變也	-12.2644
象曰以宫人寵終无尤也	-12.2644
老夫得其女妻	-12.2644
神无方而易无體	-12.2644
麾	-12.2644
嚮晦入宴息	-12.2645
戎所尚乃窮也利有攸往剛長乃終也	-12.2645
濡其首厲何可久也	-12.2645
臨者大也物大然後可觀故受之以觀	-12.2645
后不省方	-12.2645
憂悔吝者存乎介震无咎者存乎悔	-12.2645
易曰屨校滅趾无咎此之謂也	-12.2645
小利貞浸而長也遯之時義大矣哉	-12.2646
諉	-12.2646
羝	-12.2646
亢之為言也知進而不知退知	-12.2646
再三瀆瀆則不告	-12.2646
陷必有所麗故受之以離離者麗也	-12.2647
損剛益柔有時損益盈虚與時偕行	-12.2647
内巽外	-12.2647
子曰易其至矣乎夫易聖人所以崇	-12.2649
分二掛一	-12.265
篤實輝光	-12.2652
人與鬼神	-12.2652
象曰弗過遇之位不當也	-12.2698
西南得朋東北喪朋	-12.2752
乎澤潤萬物者莫潤乎水終萬	-12.2777
匏	-12.2778
菽	-12.2778
象曰得童僕貞終无尤也	-12.2779
旅瑣瑣志窮災也	-12.2783
弘	-12.2783
兼善天下	-12.2783
邾	-12.2784
有嘉折首	-12.2784
畿	-12.2784
胡翼之曰	-12.2784
楊敬仲曰	-12.2784
甘節之吉居位中也	-12.2784
蓬	-12.2785
象曰不終日貞吉以中正也	-12.2785
九四匪其彭无咎	-12.2785
圃	-12.2786
食舊徳從上吉也	-12.2786
貿	-12.2786
瞭	-12.2786
嘯	-12.2786
日可見之行	-12.2786
整頓	-12.2786
先迷失道後順得常西南得朋乃與類行	-12.2786
匠	-12.2787
剛健中正純粹精	-12.2787
雜而不厭損先難而後易益長裕而不設	-12.2787
東鄰殺牛不如西鄰之禴祭實受其福	-12.2788
或泣或歌	-12.2788
榱	-12.2788
陽也故稱龍焉猶未離其類也故稱血焉	-12.2789
初九拔茅茹以其彚征吉	-12.2789
行未牽	-12.279
象曰入于幽谷幽不明也	-12.279
奄	-12.279
戒占者宜如是也	-12.2791
憬	-12.2791
考工記	-12.2791
樽酒簋	-12.2791
釣	-12.2791
剥剥也柔變剛也	-12.2792
探賾索隱	-12.2792
關子明	-12.2792
天地之大義也天地不交而萬物不	-12.2792
分隂分陽迭用柔剛故易六位而成章	-12.2792
閼	-12.2792
程河南曰	-12.2793
磐桓志行正也以貴下賤大得民也	-12.2793
初九復自道何其咎吉	-12.2793
既有典常	-12.2793
統論一卦	-12.2794
建萬國親諸侯	-12.2794
井泥不食下也舊井无禽時舍也	-12.2795
行人之得	-12.2795
象曰未濟征凶位不當也	-12.2796
比者比也比必有所畜故受之以小畜	-12.2796
時止時行	-12.2796
子曰知變化之道者其知神之所為乎	-12.2796
化而裁之存乎變推而行之存乎通神而	-12.2797
絢	-12.2798
公弋取彼在穴	-12.2799
吳仁傑	-12.2799
悮	-12.28
舍逆取順	-12.28
象曰家人嗃嗃未失也婦子嘻嘻失家節	-12.2804
進德脩業	-12.2804
上下无常剛柔相易	-12.2809
三與五同功而異位	-12.2839
陸費墀欽定四庫全書	-12.2846
之子曰君子居其室	-12.2901
姒	-12.2928
戶	-12.2929
侍郎	-12.293
啄	-12.293
溝洫	-12.293
杳	-12.2932
嵗不覿凶	-12.2933
悴	-12.2933
初六旅瑣瑣斯其所取災	-12.2934
逄	-12.2935
寤	-12.2935
剛遇中正天下大行也姤之時義大矣哉	-12.2935
六四月幾望馬匹亡无咎	-12.2935
不與聖人同憂	-12.2935
軰	-12.2936
祓	-12.2936
彝	-12.2936
腴	-12.2937
禆	-12.2937
用六永貞以大終也	-12.2937
以服事殷	-12.2937
何天之衢道大行也	-12.2938
天地閉賢人隠	-12.2938
先王以作樂崇徳殷薦之上帝以配祖考	-12.2939
鎬	-12.2939
窮理盡性至命	-12.2939
致恭以存其位	-12.294
雖凶居吉順不害也	-12.294
巽巽東南也齊也者言萬物之潔齊也	-12.2941
象曰渙其羣元吉光大也	-12.2941
聚以正也用大牲吉利有攸往順天命也	-12.2942
初九曳其輪濡其尾无咎	-12.2942
頤貞吉觀頤自求口實	-12.2942
互為其根	-12.2942
彖者材也	-12.2942
動静不失其時其道光明	-12.2942
象曰見惡人以辟咎也	-12.2943
獲心意	-12.2943
盜之招也	-12.2943
前言往行	-12.2943
大畜利貞不家食吉利涉大川	-12.2943
觀頤觀其所養也自求口實觀其自養也	-12.2943
羌	-12.2944
維心亨乃以剛中也行有尚往有功也	-12.2944
濱	-12.2944
言行君子之樞機樞機之發榮辱之主也	-12.2944
月幾望君子征凶	-12.2944
瓛	-12.2944
无成而代有終	-12.2944
儔	-12.2944
得輿民所載也小人剥廬終不可用也	-12.2945
辨是與非	-12.2945
覘	-12.2945
象曰突如其來如无所容也	-12.2946
鮮不及矣易曰鼎折足覆公餗其形渥凶	-12.2947
物相雜故曰文文不當故吉凶生焉	-12.2947
分剛上而文柔故小利有攸往天文也	-12.2947
中以自考	-12.2947
上下不交而天下无邦也内隂而外陽	-12.2947
悔吝者言乎其小疵也无咎者善補過也	-12.2948
終日貞吉介如石焉寧用終日斷可識	-12.2949
是故列貴賤者存乎位齊小大者存乎卦	-12.2949
遯者退也物不可以終遯故受之以大壯	-12.295
上六往蹇來碩吉利見大人	-12.295
􁄆	-12.2964
本乎地者親下則各從其類也	-12.3007
物相遇而後聚故受之以萃萃者聚也	-12.3033
安溪李氏	-12.3045
漸者進也進必有所歸故受之以歸妹	-12.3071
不如其娣之袂良	-12.3075
内文明而外柔順	-12.3079
隷	-12.3081
膽	-12.3084
頸	-12.3084
☱	-12.3084
規矩	-12.3084
鬰	-12.3086
明於天之道	-12.3087
楊道夫録	-12.3087
徳博而化	-12.3088
自始至終	-12.3088
橋	-12.3089
經卦皆八	-12.3089
以象兩掛一以象三揲之以四以象四時	-12.3089
剋	-12.309
簿	-12.3091
荆棘	-12.3091
利于不息之貞	-12.3091
樵	-12.3091
耕穫菑畬	-12.3092
優劣	-12.3092
或益之自外來也	-12.3092
悼	-12.3093
懿文德	-12.3093
夫易廣矣大矣以言乎逺則不禦	-12.3093
倒轉為	-12.3094
撼	-12.3094
默	-12.3094
木為風為長女為繩直為工為白為長為	-12.3095
憂悔吝者存乎介	-12.3095
貪而畏人	-12.3095
庸言庸行	-12.3095
億喪貝	-12.3095
其位剛得中也止而巽動不窮也	-12.3095
受兹介福	-12.3095
象曰受兹介福以中正也	-12.3095
初六拔茅茹以其彚貞吉亨	-12.3096
非其中爻不備	-12.3096
牽復在中亦不自失也	-12.3096
論功行賞	-12.3096
隨有求得	-12.3097
象曰歸妹以娣以恒也跛能履吉相承也	-12.3097
九四貞吉悔亡憧憧往來朋從爾思	-12.3097
精義入神以致用	-12.3097
比之匪人不亦傷乎	-12.3097
語定其交而後求君子修此三者故全也	-12.3097
應地无疆	-12.3098
以言者尚其辭	-12.3098
澤上有雷	-12.3099
揲之以四以象四時	-12.3099
雨以潤之	-12.3099
天地以生物為心	-12.3099
飛鳥遺音	-12.3099
象曰來之坎坎終无功也	-12.3099
象曰天地交泰后以財成天地之道	-12.3099
不遠復	-12.31
辨吉凶者存乎辭	-12.31
男正位乎外男女正天地之大義也家人	-12.31
健而說決而和	-12.31
至日閉闗	-12.3101
人之常情	-12.3102
井改邑不改井无喪无得往來井井	-12.3102
子曰小人不恥不仁不畏不義不見利不	-12.3102
剛柔者立本者也變通者趣時者也	-12.3105
所畜者小	-12.311
善世而不伐	-12.3133
柔揜剛	-12.3181
院	-12.3235
動則觀其變而玩其占是以自天祐之吉	-12.3236
翫	-12.3238
邵堯夫	-12.3241
楅	-12.3241
為薄蹄	-12.3242
掌三易	-12.3243
嘿	-12.3244
字爻辭凡	-12.3244
坤作成物	-12.3245
牝馬地類行地无疆柔順利貞君子攸行	-12.3246
湎	-12.3246
初之畫得	-12.3248
象曰龍戰于野其道窮也	-12.3248
徐進齋曰	-12.3249
瓢	-12.3249
中未亡	-12.3249
嚮明而治	-12.325
飛鳥離之凶	-12.325
九二包有魚无咎不利賔	-12.325
白賁无咎上得志也	-12.325
晢	-12.325
止諸躬	-12.325
雎	-12.3251
非天下之至精其孰能與於此	-12.3251
曰咸感也柔上而剛下二氣感應以相與	-12.3251
艮為山為徑路為小石為門闕為果蓏	-12.3251
復以自知	-12.3251
懽	-12.3251
象曰已日革之行有嘉也	-12.3252
仰以觀於天文俯以察於地理	-12.3252
訟元吉以中正也	-12.3252
九五需于酒食貞吉	-12.3252
鼎顛趾未悖也利出否以從貴也	-12.3252
九五孚于剥有厲	-12.3252
成性存存	-12.3253
元亨而天下治	-12.3253
[...]
