<unk>	0
<s>	0
</s>	0
(	-3.67802
/)	-4.11963
/	-4.63349
)	-4.85856
韻	-4.90824
句	-5.06376
人	-5.4872
又	-5.61354
花	-5.61654
有	-5.68531
一	-5.69476
不	-5.71451
春	-5.80236
之	-5.83476
)(	-5.87506
香	-5.9348
風	-5.98291
雲	-6.00079
無	-6.02578
詞	-6.05746
為	-6.07059
也	-6.08144
字	-6.1058
月	-6.10831
上	-6.10908
玉	-6.11594
紅	-6.11868
中	-6.14219
前調	-6.1642
山	-6.18091
天	-6.19295
愁	-6.19952
如	-6.20152
下	-6.20762
作	-6.20907
是	-6.26715
空	-6.27787
自	-6.29234
時	-6.32254
去	-6.3308
▁	-6.33097
讀	-6.34471
與	-6.35887
得	-6.36061
更	-6.38401
小	-6.38712
酒	-6.39036
雨	-6.39162
水	-6.39803
似	-6.42617
清	-6.42746
寒	-6.42834
見	-6.43034
來	-6.43222
處	-6.45123
長	-6.45164
我	-6.45733
子	-6.47876
心	-6.47996
金	-6.49052
正	-6.5044
秋	-6.50483
前	-6.55434
新	-6.5561
聲	-6.55694
未	-6.57933
同	-6.58064
夢	-6.58355
後	-6.58784
飛	-6.58823
在	-6.5956
盡	-6.5964
難	-6.61943
恨	-6.62885
醉	-6.63037
其	-6.6357
歌	-6.63641
情	-6.63869
三	-6.63929
兒	-6.64616
以	-6.64987
日	-6.65132
重	-6.65535
輕	-6.66572
成	-6.67824
看	-6.67864
歸	-6.68389
雪	-6.69366
好	-6.69889
了	-6.70219
入	-6.70494
此	-6.70785
生	-6.71093
向	-6.71634
行	-6.72772
相	-6.73249
初	-6.73968
翠	-6.74226
還	-6.74767
而	-6.75415
老	-6.75567
者	-6.75687
和	-6.76964
半	-6.77741
曲	-6.7799
路	-6.78678
的	-6.79026
名	-6.79149
逺	-6.79903
煙	-6.80509
道	-6.81263
髙	-6.81747
意	-6.81842
過	-6.81908
又一體	-6.81917
栁	-6.8227
事	-6.82471
把	-6.83103
滿	-6.83136
来	-6.83743
夜	-6.83878
閒	-6.84089
家	-6.8488
知	-6.85109
起	-6.85176
云	-6.85411
問	-6.8549
到	-6.85833
詩	-6.86851
多	-6.88064
客	-6.88082
欲	-6.88284
開	-6.88381
語	-6.88414
明	-6.8881
他	-6.88969
誰	-6.89612
平	-6.91854
深	-6.91865
休	-6.93026
青	-6.93035
裏	-6.93706
笑	-6.93852
梅	-6.94038
對	-6.95492
調	-6.95585
别	-6.96988
却	-6.97327
落	-6.97724
烟	-6.98159
書	-6.98456
影	-6.98542
都	-6.9953
分	-6.99996
暗	-7.00307
頭	-7.00712
出	-7.02188
碧	-7.02428
可	-7.02462
冷	-7.03114
共	-7.03581
則	-7.0528
用	-7.05748
大	-7.05961
王	-7.06479
兩	-7.06706
着	-7.07023
江	-7.07099
君	-7.0722
黄	-7.07879
應	-7.08173
舊	-7.09157
望	-7.1003
舞	-7.10319
便	-7.10407
雙	-7.10469
莫	-7.10526
緑	-7.1199
露	-7.13513
西	-7.13853
四	-7.13855
南	-7.14797
何	-7.1488
曉	-7.15976
但	-7.16348
仙	-7.18362
然	-7.18891
白	-7.19241
外	-7.19762
東	-7.19854
想	-7.20024
殘	-7.20083
燕	-7.20241
宫	-7.20391
已	-7.20498
樂	-7.20994
且	-7.21929
猶	-7.21987
今	-7.22148
倚	-7.22373
霜	-7.22382
待	-7.2319
賦	-7.23302
東風	-7.23453
記	-7.23512
送	-7.2355
吹	-7.23978
光	-7.24171
故	-7.24423
地	-7.24589
斷	-7.24635
嬌	-7.2484
思	-7.24844
至	-7.25008
文	-7.25413
間	-7.25501
公	-7.25667
那	-7.25918
葉	-7.26122
傳	-7.2757
錦	-7.27609
二	-7.27797
千	-7.27983
你	-7.28406
淚	-7.2843
亦	-7.28824
萬	-7.29517
衣	-7.29661
馬	-7.29894
方	-7.31395
驚	-7.31717
門	-7.31789
流	-7.32373
怨	-7.32574
早	-7.32708
留	-7.32723
竹	-7.33031
草	-7.33813
寄	-7.34024
近	-7.34916
聽	-7.35053
先	-7.35454
只	-7.35735
波	-7.3598
芳	-7.35992
張	-7.3629
細	-7.36928
將	-7.36949
相思	-7.37028
憶	-7.37602
非	-7.37606
怕	-7.37709
帶	-7.37937
五	-7.3802
将	-7.38025
柳	-7.38031
轉	-7.38155
溪	-7.38662
手	-7.38832
於	-7.39038
児	-7.39393
照	-7.39534
因	-7.39612
綠	-7.4002
樹	-7.40184
晚	-7.40284
塵	-7.41555
少	-7.41712
粉	-7.41969
元	-7.42028
皆	-7.42946
樓	-7.42976
何處	-7.43686
朝	-7.43868
色	-7.4413
喜	-7.44216
年	-7.45509
枝	-7.45556
題	-7.45705
○	-7.45715
眼	-7.45956
漸	-7.45972
亂	-7.45999
吟	-7.46024
若	-7.46116
景	-7.46591
龍	-7.46682
破	-7.46834
孤	-7.47135
回	-7.47481
邊	-7.47602
甚	-7.4791
淺	-7.48023
晴	-7.48026
真	-7.48328
遊	-7.48483
散	-7.48776
斜	-7.48827
令	-7.49189
暮	-7.49191
當	-7.49323
能	-7.4947
風流	-7.49598
異	-7.49893
身	-7.50305
微	-7.50401
幾	-7.50431
郎	-7.5052
李	-7.50903
餘	-7.5164
這	-7.51651
低	-7.51864
著	-7.52011
城	-7.52295
聞	-7.52298
世	-7.52638
林	-7.52695
㑹	-7.52764
古	-7.52975
集	-7.53063
六	-7.53595
石	-7.53717
度	-7.54071
獨	-7.54191
所	-7.54921
約	-7.54934
堪	-7.55241
素	-7.55285
信	-7.55297
動	-7.55823
氣	-7.55929
女	-7.55977
催	-7.56978
華	-7.57015
枕	-7.57101
海	-7.57483
愛	-7.5757
于	-7.57633
幽	-7.57908
暖	-7.5857
須	-7.58895
坐	-7.59026
合	-7.59366
官	-7.59372
畫	-7.59554
鴈	-7.60055
巻	-7.60659
誤	-7.61114
垂	-7.61486
隔	-7.6152
試	-7.61614
定	-7.62248
晩	-7.625
結	-7.62582
數	-7.6263
珠	-7.6273
折	-7.63866
本	-7.64239
俱	-7.64528
言	-7.64604
州	-7.65603
矣	-7.65771
苦	-7.65932
巳	-7.66213
曽	-7.66628
横	-7.66751
北	-7.66778
曰	-7.67875
取	-7.6808
百	-7.6838
簾	-7.68462
高	-7.68639
短	-7.68766
閑	-7.68858
從	-7.69245
按	-7.69336
飲	-7.6975
面	-7.69856
絲	-7.6998
勝	-7.69981
念	-7.70056
安	-7.70428
常	-7.71169
楚	-7.71301
濃	-7.71423
繡	-7.71423
魚	-7.71465
消	-7.71666
江南	-7.71931
即	-7.72077
要	-7.72246
被	-7.72299
歡	-7.72375
添	-7.7246
解	-7.72561
尋	-7.72699
紫	-7.72885
春風	-7.72906
亭	-7.72908
住	-7.73331
弄	-7.73548
沙	-7.73843
教	-7.74036
睡	-7.74122
體	-7.74206
迷	-7.74333
引	-7.74572
唱	-7.74625
離	-7.74655
燈	-7.74672
此詞	-7.74769
梅花	-7.74783
九	-7.75546
絶	-7.76023
翻	-7.76063
人間	-7.76094
星	-7.76284
學	-7.76528
蘭	-7.76678
説	-7.76691
西風	-7.76796
偏	-7.76797
觀	-7.76871
閣	-7.77133
吳	-7.77271
浪	-7.77376
興	-7.77462
最	-7.7819
臺	-7.78227
薄	-7.7854
乍	-7.78553
羅	-7.78742
淡	-7.78879
箇	-7.7891
放	-7.7936
曾	-7.79518
收	-7.79614
國	-7.79887
使	-7.80075
野	-7.80276
眉	-7.80284
比	-7.80443
音	-7.80806
凉	-7.80815
移	-7.80901
做	-7.81055
隨	-7.8112
神	-7.82026
凝	-7.82591
伴	-7.83264
鳯	-7.83421
陽	-7.83451
粧	-7.84099
寫	-7.8422
千里	-7.84624
耳	-7.85171
㸔	-7.85562
尚	-7.859
說	-7.85906
天涯	-7.86019
任	-7.86409
浮	-7.86468
頻	-7.86609
妝	-7.86868
爭	-7.87519
賞	-7.87637
鶯	-7.87847
懐	-7.87949
七	-7.88082
映	-7.88234
太	-7.88578
明月	-7.88616
漫	-7.88942
隂	-7.89285
連	-7.89579
再	-7.89787
透	-7.90186
易	-7.90361
霧	-7.90403
鳳	-7.90955
芳草	-7.91285
容	-7.9171
鏡	-7.91788
乃	-7.91809
二首	-7.91924
羞	-7.92233
才	-7.92261
罷	-7.9313
英	-7.93282
八	-7.93599
池	-7.93659
内	-7.93864
謝	-7.93933
管	-7.94079
岸	-7.94205
宋	-7.94226
聴	-7.94349
鴛鴦	-7.94657
陳	-7.94925
居	-7.95149
橋	-7.95314
啼	-7.95371
堂	-7.95393
㡬	-7.95421
通	-7.95425
多少	-7.95913
瓊	-7.96221
歸去	-7.96307
臨	-7.96323
黄昏	-7.96424
宜	-7.96438
臣	-7.96476
舉	-7.96583
芲	-7.97092
齊	-7.97177
歸來	-7.97313
怎	-7.97318
慢	-7.97318
角	-7.97379
立	-7.97655
庭	-7.9772
經	-7.98151
惟	-7.98268
銀	-7.98387
静	-7.98623
喚	-7.9867
朱	-7.98912
爲	-7.9951
漢	-7.99523
瘦	-8.0009
掩	-8.00116
惜	-8.00178
鸞	-8.00474
寳	-8.00933
傍	-8.00933
相逢	-8.01202
載	-8.01454
宿	-8.01636
首	-8.02104
字平聲	-8.02461
復	-8.02473
不知	-8.02607
交	-8.02835
籠	-8.0318
萬里	-8.03265
鳴	-8.03627
宴	-8.03699
病	-8.0376
或	-8.04041
覺	-8.04336
雁	-8.04714
霞	-8.04989
船	-8.0538
節	-8.05399
松	-8.05468
劉	-8.05949
氷	-8.06292
倒	-8.06746
飄	-8.07044
歎	-8.07059
就	-8.07107
贈	-8.07277
染	-8.07369
佳	-8.07416
總	-8.07583
指	-8.07667
及	-8.07908
周	-8.08289
期	-8.08656
論	-8.08799
趙	-8.09235
尾	-8.09315
叶	-8.09409
多情	-8.09811
十	-8.09975
醒	-8.1005
舟	-8.10244
魂	-8.10267
伊	-8.10356
吾	-8.10384
遍	-8.10391
越	-8.10697
疎	-8.10704
火	-8.10704
㸃	-8.10757
換	-8.10834
纔	-8.10845
口	-8.11144
泛	-8.11443
巧	-8.116
當時	-8.1182
村	-8.11872
鬢	-8.12389
湖	-8.12515
筆	-8.13221
拂	-8.13378
剪	-8.1352
許	-8.13687
稱	-8.13723
悲	-8.14115
全	-8.14186
眠	-8.14205
譜	-8.1421
畔	-8.14248
虚	-8.1433
感	-8.1449
碎	-8.14659
底	-8.14743
㣲	-8.1482
沈	-8.15129
倦	-8.15258
鶴	-8.1531
謂	-8.15342
蝶	-8.15573
話	-8.15653
些	-8.15684
秀	-8.15782
願	-8.15997
字仄聲	-8.16121
凨	-8.16165
索	-8.16238
直	-8.16241
雖	-8.16415
算	-8.16495
登	-8.16725
故人	-8.16762
㫁	-8.16943
偷	-8.17163
痕	-8.17176
足	-8.17462
改	-8.1756
恰	-8.17908
擁	-8.17949
注	-8.17952
臉	-8.18495
濕	-8.18713
車	-8.1883
卿	-8.19102
墜	-8.1928
芙蓉	-8.19691
屏	-8.19828
争	-8.20417
狂	-8.20463
理	-8.20501
風雨	-8.2058
年年	-8.20678
久	-8.21061
親	-8.21147
鎖	-8.21251
秦	-8.21286
游	-8.21314
揺	-8.2136
回首	-8.21632
夀	-8.21728
裡	-8.21836
步	-8.2191
蓮	-8.21928
嫩	-8.22071
妙	-8.22092
傷	-8.22101
荷	-8.22187
窗	-8.22234
逰	-8.22887
痩	-8.23179
忽	-8.23254
等	-8.23519
竒	-8.23522
孫	-8.23788
鼓	-8.23819
十二	-8.23896
命	-8.23918
占	-8.23967
涼	-8.24128
奈	-8.24329
雅	-8.24587
唐	-8.24633
院	-8.24688
懷	-8.25058
依舊	-8.25124
斜陽	-8.25157
如今	-8.25307
慵	-8.25409
徧	-8.25432
詠	-8.25612
各	-8.25657
楊	-8.25699
遺	-8.25875
逐	-8.25897
袖	-8.25959
流水	-8.26317
憐	-8.26319
號	-8.26418
此調	-8.26503
仄	-8.26563
靜	-8.2658
豔	-8.26657
沉	-8.26679
不見	-8.26788
桃	-8.26855
睂	-8.27149
呉	-8.27151
諸	-8.2727
時節	-8.27808
逢	-8.27813
齋	-8.27825
次	-8.27905
殿	-8.27964
捲	-8.28115
燭	-8.28131
終	-8.28273
疑	-8.28278
困	-8.28489
河	-8.28797
穿	-8.28854
歩	-8.289
呼	-8.28917
守	-8.29157
桃花	-8.29176
湘	-8.29208
無限	-8.29239
西湖	-8.29344
漏	-8.29482
打	-8.296
春色	-8.29856
列	-8.29905
泉	-8.30506
謾	-8.30604
平仄	-8.30691
遶	-8.30799
發	-8.31128
佳人	-8.31151
俺	-8.31346
画	-8.31907
絃	-8.3193
永	-8.31935
遲	-8.32015
軟	-8.3206
里	-8.3217
園	-8.32233
寂寞	-8.32382
志	-8.32409
杯	-8.32471
目	-8.32695
疊	-8.33168
丹	-8.33271
田	-8.33284
柔	-8.33616
囘	-8.34008
急	-8.34201
失	-8.34708
主	-8.34918
錢	-8.34968
菊	-8.35014
繞	-8.35086
一首	-8.35138
扶	-8.3533
懶	-8.3557
一片	-8.35633
原	-8.35799
圖	-8.35869
一枝	-8.36076
慶	-8.36163
遥	-8.36393
翁	-8.36439
麗	-8.36831
扇	-8.36992
嘆	-8.37257
笛	-8.37355
徑	-8.37372
牎	-8.37375
琴	-8.37377
極	-8.37591
態	-8.38168
悄	-8.38265
滴	-8.38365
靈	-8.38485
海棠	-8.38553
招	-8.38607
盤	-8.38652
圍	-8.38683
端	-8.3886
展	-8.38969
識	-8.39138
桂	-8.39177
窓	-8.39476
報	-8.39556
伯	-8.39943
背	-8.40077
戲	-8.40079
荒	-8.40099
友	-8.40149
美	-8.40312
氏	-8.40318
繫	-8.40337
變	-8.40524
趂	-8.40585
侵	-8.40811
夫	-8.4102
縱	-8.41047
蒼	-8.41236
茶	-8.41265
絮	-8.41396
無人	-8.4155
負	-8.4169
随	-8.41877
嘗	-8.41888
悶	-8.42025
邉	-8.42066
種	-8.4215
青山	-8.4219
點	-8.42341
一箇	-8.42413
縈	-8.42433
恐	-8.42461
仲	-8.42613
恁	-8.4273
遮	-8.42787
遇	-8.4283
梁	-8.42928
燕子	-8.42981
洗	-8.43101
峰	-8.43185
羽	-8.43203
物	-8.43332
傾	-8.4346
圓	-8.43742
章	-8.43842
並	-8.43903
憔悴	-8.44213
渾	-8.44273
壓	-8.44391
翦	-8.44755
必	-8.44883
宗	-8.44973
銷	-8.44997
泥	-8.45063
士	-8.45187
深處	-8.4539
迎	-8.45569
顧	-8.45604
煞	-8.45811
二字	-8.45853
當年	-8.45951
鄉	-8.45994
惹	-8.46269
鳥	-8.46714
怯	-8.46876
拍	-8.46935
腰	-8.46945
楼	-8.47111
浦	-8.4723
刻	-8.4738
勸	-8.47696
觴	-8.47801
呵	-8.48214
追	-8.4828
韓	-8.48554
闕	-8.48576
死	-8.48714
乆	-8.48827
旋	-8.48853
藏	-8.48959
忍	-8.49045
一聲	-8.49072
風月	-8.49074
止	-8.49098
艶	-8.49368
工	-8.49372
側	-8.49447
牕	-8.49517
遂	-8.49537
忙	-8.49596
娘	-8.4978
渡	-8.4988
帳	-8.49927
盃	-8.4994
房	-8.4999
少年	-8.50092
垂楊	-8.50196
註	-8.50228
遠	-8.50365
良	-8.50595
儘	-8.5061
後段	-8.50701
綉	-8.50738
響	-8.50973
一曲	-8.50996
寶	-8.51001
蕩	-8.51134
䦨干	-8.51269
釵	-8.51323
整	-8.51419
無情	-8.515
停	-8.51746
壽	-8.51808
一笑	-8.51947
買	-8.52062
不可	-8.52437
第	-8.52549
鴻	-8.52637
封	-8.52695
壁	-8.52754
彈	-8.53103
棹	-8.5311
如此	-8.53131
殺	-8.53284
市	-8.53407
史	-8.53407
凄凉	-8.53487
豈	-8.53522
今日	-8.53723
冰	-8.53734
寛	-8.53806
踈	-8.54005
怪	-8.54108
骨	-8.54388
尾聲	-8.54513
予	-8.54541
杜	-8.54561
修	-8.54572
奏	-8.54576
掃	-8.54614
虎	-8.54991
余	-8.54997
聖	-8.55044
户	-8.55357
倩	-8.55419
顔	-8.55582
武	-8.55612
桞	-8.55976
樂府	-8.56011
况	-8.56068
落花	-8.56281
温	-8.56291
受	-8.5638
斷腸	-8.56393
關	-8.56396
段	-8.56444
每	-8.56595
前後	-8.56881
咲	-8.57012
除	-8.57155
歇	-8.57297
陰	-8.57324
恩	-8.57417
機	-8.57425
江上	-8.57681
一體	-8.57965
禁	-8.57975
思量	-8.58006
匆匆	-8.58323
羙	-8.58621
別	-8.58646
翆	-8.5867
偶	-8.58748
乎	-8.58805
䖏	-8.58947
衾	-8.58975
様	-8.59008
夏	-8.5903
減	-8.59036
尊前	-8.59077
依	-8.59145
屬	-8.59434
賢	-8.59463
㱕	-8.59466
尊	-8.60256
歲	-8.60261
釣	-8.60296
序	-8.60401
相見	-8.60419
冠	-8.60478
認	-8.60503
實	-8.60517
省	-8.60522
盈盈	-8.60532
法	-8.60612
勞	-8.60729
瑞	-8.6077
又名	-8.60796
堆	-8.60897
館	-8.60911
𬒳	-8.6109
川	-8.61117
腸斷	-8.61259
叔	-8.61496
綵	-8.61523
蜂	-8.61526
席	-8.61578
酔	-8.61581
嵗	-8.61596
慣	-8.6176
漁	-8.61795
潮	-8.62058
雙調	-8.6221
蕊	-8.6237
遣	-8.62422
宮	-8.62423
軒	-8.62755
進	-8.62782
般	-8.62879
條	-8.63082
前段	-8.63126
妓	-8.63239
木	-8.63428
徳	-8.63463
牽	-8.63561
苑	-8.6362
擬	-8.63774
潤	-8.6383
求	-8.64198
楊栁	-8.642
月明	-8.64257
時候	-8.64288
蓋	-8.64312
東坡	-8.64359
東君	-8.64395
風吹	-8.64421
無語	-8.64446
平生	-8.64447
嬾	-8.64463
忘	-8.64509
訴	-8.64533
扁舟	-8.64653
踏	-8.64673
仍	-8.64692
長安	-8.64832
善	-8.64864
夕	-8.65082
媚	-8.65113
杏	-8.65169
今夜	-8.6566
隠	-8.65714
往	-8.65729
徐	-8.65736
瑶	-8.65944
腸	-8.65946
拜	-8.65971
燒	-8.65976
不是	-8.65996
屋	-8.66117
塞	-8.66158
功名	-8.66291
憑	-8.66353
何事	-8.66501
俗	-8.66831
胡	-8.66907
聚	-8.66947
梨花	-8.66959
叢	-8.67003
選	-8.67004
借	-8.67052
澹	-8.6706
徹	-8.67098
推	-8.67418
記得	-8.67499
抱	-8.67696
心事	-8.67819
午	-8.6784
惟有	-8.67852
杳	-8.67931
簷	-8.68038
始	-8.68186
笙歌	-8.68324
吐	-8.68336
損	-8.68391
否	-8.68497
烏	-8.68509
鬟	-8.68519
闌干	-8.68682
程	-8.69111
髻	-8.6927
么	-8.69299
盖	-8.69613
十里	-8.69615
天氣	-8.69769
接	-8.69793
嚴	-8.69795
六字	-8.69822
春光	-8.69928
斗	-8.7007
稀	-8.70107
味	-8.70182
陵	-8.70295
彩	-8.70523
窺	-8.70532
夕陽	-8.70572
根	-8.70788
牀	-8.70877
走	-8.70925
帝	-8.7112
裙	-8.71182
堤	-8.71257
寒食	-8.71599
持	-8.71611
裁	-8.71659
洲	-8.71747
詞云	-8.71878
十年	-8.7189
代	-8.7201
清明	-8.72019
悠悠	-8.72232
昨夜	-8.7225
盈	-8.72311
窮	-8.72415
父	-8.72462
綺	-8.72465
去年	-8.7263
可憐	-8.72836
尤	-8.72847
神仙	-8.72862
民	-8.7303
三字	-8.73082
為誰	-8.73171
四字	-8.73513
牡丹	-8.73584
毛	-8.7375
渚	-8.73772
料	-8.73809
不似	-8.73972
縷	-8.73995
行人	-8.74534
晝	-8.74762
片	-8.74856
而今	-8.74891
隱	-8.74967
切	-8.75079
昏	-8.75211
井	-8.75218
蟬	-8.75244
峯	-8.75298
惡	-8.75306
鈎	-8.7539
司	-8.7577
采	-8.75868
暈	-8.75941
遙	-8.75953
駕	-8.75964
黄花	-8.76067
攜	-8.76149
梧桐	-8.76165
計	-8.76443
辭	-8.76497
惆悵	-8.7651
力	-8.76569
七字	-8.76689
玊	-8.76757
䦨	-8.76844
冬	-8.76936
苔	-8.76966
年少	-8.76984
奴	-8.76998
筵	-8.77085
裊	-8.77338
敲	-8.77356
牆	-8.77356
觧	-8.77595
悵	-8.77601
肯	-8.77666
三首	-8.77726
杏花	-8.77739
庭院	-8.77772
無數	-8.77909
盛	-8.77915
凡	-8.77923
鴉	-8.77938
賀	-8.77942
犯	-8.77959
雞	-8.77976
商	-8.78063
御	-8.78151
甘	-8.78151
乾	-8.78171
琵琶	-8.78358
征	-8.78362
咱	-8.785
輪	-8.78966
鞭	-8.79141
黃	-8.79269
砌	-8.79298
師	-8.79334
挂	-8.7936
强	-8.7941
福	-8.79887
何時	-8.7999
府	-8.80111
煖	-8.80233
先生	-8.80498
如何	-8.80754
壺	-8.80823
頓	-8.80863
鐘	-8.80978
兵	-8.8109
談	-8.81127
致	-8.81208
含	-8.81236
蘇	-8.81399
黛	-8.81608
陸	-8.81609
蕋	-8.8174
姬	-8.81869
表	-8.81872
鍾	-8.82158
戀	-8.82164
紗	-8.82322
丁	-8.82703
桃李	-8.82708
投	-8.8274
掛	-8.8278
秋風	-8.82868
縁	-8.82928
採	-8.82995
末	-8.83129
人生	-8.8319
既	-8.83211
功	-8.83529
存	-8.83553
酌	-8.83684
鋪	-8.83714
一名	-8.83824
聊	-8.84169
闌	-8.8417
金縷	-8.84194
熟	-8.84231
兼	-8.84246
無名氏	-8.84405
簇	-8.84484
墮	-8.84615
由	-8.84736
堦	-8.84756
吳文英	-8.84852
篇	-8.84967
宻	-8.8507
社	-8.85089
今宵	-8.8515
惱	-8.8522
楊花	-8.85271
厮	-8.85474
寧	-8.85516
五字	-8.85574
㝷	-8.85727
坡	-8.8582
缺	-8.85975
皇	-8.8607
京	-8.86071
化	-8.86116
不如	-8.86143
第一	-8.8634
牛	-8.86353
顰	-8.8637
俊	-8.86438
帆	-8.86595
斂	-8.86602
床	-8.86628
珠簾	-8.86937
漲	-8.86986
快	-8.87111
暑	-8.87137
無言	-8.87295
蜀	-8.87392
沒	-8.87562
熏	-8.87574
拚	-8.87767
蕭蕭	-8.87775
娥	-8.87846
纎	-8.87933
密	-8.87979
囬	-8.87995
洞	-8.88135
月下	-8.88199
襟	-8.88329
土	-8.8835
闗	-8.88434
不堪	-8.88511
衰	-8.88563
又是	-8.88584
一夜	-8.88811
軍	-8.88811
豪	-8.88845
摘	-8.8887
張炎	-8.88903
䑓	-8.89192
撲	-8.8922
騎	-8.89308
義	-8.89308
酒醒	-8.89515
緩	-8.89741
竟	-8.8999
人在	-8.90005
泪	-8.9003
暫	-8.90088
宣	-8.90122
細雨	-8.90238
池塘	-8.90323
付	-8.90382
嶺	-8.90405
不得	-8.90596
環	-8.9062
四仄韻	-8.90626
錯	-8.90712
退	-8.90722
行雲	-8.90751
精	-8.90919
無奈	-8.90954
深院	-8.91022
編	-8.91072
侍	-8.91157
藥	-8.91167
檻	-8.91198
録	-8.91251
往事	-8.91538
凭	-8.9156
甫	-8.91574
訪	-8.91608
一時	-8.91613
獻	-8.9183
枉	-8.91857
會	-8.91878
淮	-8.91916
賜	-8.92109
靄	-8.92204
鵲	-8.92278
校	-8.92369
鼎	-8.92713
卧	-8.92956
箋	-8.93145
誰家	-8.93273
乗	-8.93544
據	-8.93713
姿	-8.93725
脚	-8.93793
格	-8.93855
佩	-8.93916
際	-8.93942
𥘉	-8.93955
迴	-8.94147
續	-8.94217
喧	-8.9422
南浦	-8.9431
敎	-8.94339
只有	-8.94372
趁	-8.94393
饒	-8.94441
梁州	-8.94495
膩	-8.94496
中秋	-8.94693
嗟	-8.94783
塘	-8.94864
不同	-8.94931
不到	-8.94931
消息	-8.94936
果	-8.95175
又一體雙調	-8.95369
街	-8.95434
供	-8.95435
加	-8.95439
一㸃	-8.95475
離愁	-8.95509
栁永	-8.95533
勻	-8.95623
印	-8.95638
何人	-8.95673
敢	-8.95786
二句	-8.95819
五仄韻	-8.95856
刀	-8.95947
鎮	-8.95984
羣	-8.96025
避	-8.9612
繁	-8.96173
十分	-8.96198
閉	-8.96633
傷心	-8.9677
睡起	-8.96817
弱	-8.96832
徘徊	-8.96858
承	-8.96971
布	-8.9709
飛絮	-8.9711
此與	-8.97263
拈	-8.97347
門外	-8.97358
蟾	-8.97359
懸	-8.9739
一字	-8.97393
梦	-8.97521
稍	-8.97585
艷	-8.97611
盟	-8.97809
鎻	-8.97891
江山	-8.97965
巾	-8.98007
虛	-8.98075
咽	-8.9809
辛棄疾	-8.98094
象	-8.9814
捧	-8.98168
驛	-8.9827
況	-8.98331
嘉	-8.98342
秋水	-8.98637
人家	-8.98743
容易	-8.98756
鷗	-8.98794
差	-8.98875
尺	-8.98919
憂	-8.98986
朩	-8.99066
廣	-8.9911
凍	-8.9912
競	-8.9932
抛	-8.9937
千古	-8.99456
花前	-8.99491
秋千	-8.99523
施	-8.99545
赴	-8.99591
▁(	-8.99768
蓬	-8.99797
排	-8.99845
㺯	-8.99912
夢魂	-9.00045
古今	-9.00049
覓	-9.00082
姑	-9.00247
褪	-9.00341
鈿	-9.00372
覔	-9.0041
帽	-9.00546
天上	-9.00567
棲	-9.0084
撥	-9.00911
欄	-9.00994
滿地	-9.01057
妾	-9.01099
陌	-9.01145
搖	-9.01218
仁	-9.01269
葢	-9.01301
貪	-9.01411
揚州	-9.01445
相對	-9.01567
窻	-9.01609
墨	-9.01755
融	-9.01864
飄零	-9.01916
戯	-9.01963
陣	-9.02074
昔	-9.02197
團	-9.02204
髪	-9.02265
僧	-9.02385
危	-9.02462
嫌	-9.02951
夣	-9.02979
無計	-9.03011
花枝	-9.03193
閙	-9.03234
零	-9.03243
緊	-9.03267
強	-9.03356
断	-9.03379
哀	-9.0338
酬	-9.03443
周邦彦	-9.03469
禮	-9.0352
正是	-9.03772
曹	-9.03967
巢	-9.03979
玉人	-9.04203
祝	-9.04246
夜深	-9.04285
阻	-9.04286
鴛	-9.04445
殊	-9.04447
縹緲	-9.04469
菴	-9.04471
碧雲	-9.04702
參差	-9.04742
不成	-9.04764
没	-9.04785
欺	-9.05021
禽	-9.0504
闋	-9.05078
畵	-9.05273
貴	-9.0529
重重	-9.05325
降	-9.0534
食	-9.05387
幸	-9.05498
撰	-9.055
品	-9.05521
芳菲	-9.05571
舒	-9.05629
考	-9.05752
丘	-9.05793
鬂	-9.05848
澄	-9.05857
佳期	-9.05908
歌舞	-9.05936
蕭	-9.05941
不盡	-9.05957
風光	-9.05997
兮	-9.06015
臥	-9.06024
支	-9.06139
皺	-9.06359
䄂	-9.06454
量	-9.06576
柱	-9.0661
蝴蝶	-9.06667
血	-9.06674
幾度	-9.06711
不管	-9.06788
明朝	-9.06853
凌波	-9.07004
夢裏	-9.07118
瀟湘	-9.07132
祖	-9.07159
泣	-9.07162
爾	-9.07185
富貴	-9.07204
别後	-9.0722
花開	-9.07652
塲	-9.07658
剛	-9.07745
凌	-9.07867
黄金	-9.07885
怎生	-9.07896
駐	-9.07913
衆	-9.08247
牋	-9.08268
較	-9.08291
舊時	-9.08338
有人	-9.08343
旗	-9.08366
句法	-9.08497
携	-9.08521
美人	-9.08613
律	-9.0874
請	-9.088
干	-9.08839
幕	-9.08903
性	-9.09002
陶	-9.09002
樓上	-9.09053
洪	-9.09075
忩	-9.09081
収	-9.09137
甲	-9.09194
簟	-9.09304
衫	-9.09322
領	-9.09326
癡	-9.09357
湏	-9.09519
侯	-9.09536
進士	-9.09626
簡	-9.09643
教人	-9.0972
織	-9.09809
跡	-9.0987
津	-9.09873
靑	-9.09927
紋	-9.09931
沾	-9.10133
鬼	-9.10136
花影	-9.10145
何日	-9.10154
利	-9.10185
探	-9.10244
数	-9.10322
吕	-9.10343
徃	-9.1035
旅	-9.10404
獨自	-9.10452
雕	-9.10638
羊	-9.10797
簾櫳	-9.10808
樽前	-9.10854
酥	-9.11036
綿	-9.11052
紛紛	-9.1131
鄭	-9.1132
重陽	-9.11562
薦	-9.1159
妍	-9.11595
浸	-9.11621
楊柳	-9.11764
眞	-9.11843
明日	-9.11954
西樓	-9.11993
灑	-9.12084
婦	-9.12085
蛾	-9.12105
哉	-9.12141
枯	-9.1222
依然	-9.1232
簾幙	-9.12346
暝	-9.12372
别離	-9.12409
填	-9.1241
芳心	-9.12423
寂	-9.12496
熱	-9.12539
咏	-9.12751
春寒	-9.12814
人去	-9.12844
寺	-9.12865
只恐	-9.12896
綃	-9.12921
汀	-9.12939
吴	-9.13242
依依	-9.13329
厭	-9.13399
今古	-9.13429
今朝	-9.13527
精神	-9.13697
雷	-9.13891
部	-9.14156
赤	-9.14174
斟	-9.14442
减	-9.14553
巖	-9.14673
夜來	-9.14766
牙	-9.14859
爐	-9.14889
鬬	-9.15001
汝	-9.15032
脱	-9.15093
不住	-9.15277
個	-9.15358
鐙	-9.15362
徒	-9.15366
金釵	-9.15475
浴	-9.15679
靣	-9.15723
應是	-9.15727
舍	-9.1583
奉	-9.15905
谷	-9.15917
濤	-9.15963
阿	-9.16007
蓬萊	-9.16083
母	-9.16151
昌	-9.16174
并	-9.16218
磨	-9.16222
蠻	-9.1623
風前	-9.1625
紅塵	-9.16327
雄	-9.16496
枝上	-9.16518
魏	-9.16523
欹	-9.16527
標	-9.16593
押	-9.16645
翼	-9.16811
障	-9.16862
悔	-9.16904
促	-9.17004
袂	-9.17027
分明	-9.17054
羅衣	-9.17195
胭脂	-9.17197
層	-9.17296
花落	-9.17311
離恨	-9.17485
覷	-9.17495
假	-9.17505
蒲	-9.17808
暮雲	-9.17882
文章	-9.17891
製	-9.17938
數聲	-9.17942
簪	-9.18021
声	-9.18092
四句	-9.18316
質	-9.18364
殘紅	-9.18405
妻	-9.18425
囘首	-9.18463
叶韻	-9.18525
虹	-9.18613
辨	-9.18643
今年	-9.18785
分付	-9.18866
侣	-9.18908
霽	-9.18909
臘	-9.18965
等閒	-9.19014
如許	-9.19138
無端	-9.19162
類	-9.1923
畧	-9.19236
席上	-9.19236
梢	-9.19312
輝	-9.19337
穏	-9.19353
參	-9.19461
落日	-9.19492
歌聲	-9.19521
年華	-9.19667
第二句	-9.19743
誇	-9.19786
綻	-9.19794
春來	-9.20049
春水	-9.20276
腔	-9.20311
小樓	-9.20366
戸	-9.20378
詞之	-9.20492
登臨	-9.20683
揚	-9.20734
緣	-9.20765
使君	-9.20778
不能	-9.20786
紀	-9.20817
宵	-9.21076
射	-9.2119
霓裳	-9.21201
蘇軾	-9.21217
呀	-9.2128
費	-9.21323
夫人	-9.2133
綴	-9.21353
縣	-9.21433
襯	-9.2147
漾	-9.21487
階	-9.21494
墻	-9.21536
張先	-9.21612
雜	-9.2169
紙	-9.21691
孟	-9.21728
息	-9.21743
藍	-9.2176
無力	-9.21809
枝頭	-9.21878
長亭	-9.22168
夢中	-9.22311
忠	-9.22358
歛	-9.22372
鮮	-9.22425
幾許	-9.2247
梳	-9.2253
一百	-9.22547
園林	-9.22559
板	-9.2267
埋	-9.2274
英雄	-9.22757
威	-9.22782
政	-9.22869
一日	-9.22876
清香	-9.22896
豆	-9.22903
第三句	-9.23005
班	-9.23026
毎	-9.23036
肥	-9.23079
呌	-9.23094
盡日	-9.23134
畫堂	-9.23267
簫	-9.23482
過了	-9.23537
闊	-9.23639
煩	-9.2365
蠟	-9.23688
疾	-9.23732
練	-9.23759
榮	-9.23916
一枝花	-9.23924
零落	-9.2397
慘	-9.23975
簮	-9.23985
晁補之	-9.24272
仗	-9.24298
三月	-9.243
無處	-9.24357
盻	-9.24526
繁華	-9.24696
江梅	-9.24739
逸	-9.24906
遷	-9.24919
卷	-9.24923
纖	-9.24933
鐵	-9.24933
濟	-9.24956
攜手	-9.25176
延	-9.25199
歳	-9.2522
雙燕	-9.25224
䕶	-9.25263
殷勤	-9.25269
沉沉	-9.25284
都是	-9.25304
離别	-9.25456
閨	-9.25505
囱	-9.25555
㳺	-9.25604
試問	-9.25611
喬	-9.25639
銷魂	-9.25652
絳	-9.25843
頗	-9.25877
浣溪沙	-9.25878
儂	-9.25904
寓	-9.25908
以為	-9.2593
夷	-9.25936
南北	-9.26004
調見	-9.26019
㬉	-9.26185
滅	-9.26192
額	-9.26226
慿	-9.2629
座	-9.26524
耶	-9.26552
童	-9.26842
炎	-9.26867
特	-9.26876
明年	-9.2688
鼔	-9.26885
厭厭	-9.26891
凄	-9.26939
順	-9.26966
右	-9.26975
槐	-9.27174
埽	-9.27179
窄	-9.27246
羡	-9.27273
候	-9.27355
江湖	-9.27563
此情	-9.27591
杖	-9.27614
二十	-9.27692
當日	-9.27736
幾時	-9.27756
眀	-9.27769
四平韻	-9.27855
授	-9.2787
溼	-9.27883
廟	-9.27923
汗	-9.2794
拖	-9.27945
呈	-9.28202
檀	-9.28256
江頭	-9.28312
秋色	-9.28322
湯	-9.28543
固	-9.28558
天地	-9.2858
誠	-9.28583
運	-9.28641
業	-9.28692
澤	-9.28887
晨	-9.28919
冷落	-9.28921
花間	-9.29009
髮	-9.291
知音	-9.29156
西園	-9.29183
暗香	-9.29185
積	-9.29203
萼	-9.29235
貌	-9.29257
情緒	-9.29276
途	-9.29304
朱顔	-9.29317
俏	-9.29359
肌	-9.29415
鴨	-9.29421
燈火	-9.29453
銅	-9.29485
桐	-9.29549
賣	-9.29621
百年	-9.2964
康	-9.29846
劍	-9.29964
乾坤	-9.29976
鬆	-9.29981
笙	-9.30157
郊	-9.30164
仄韻	-9.30223
境	-9.30298
諧	-9.30305
蘂	-9.30323
千金	-9.30398
厎	-9.30564
猜	-9.30659
猛	-9.30682
樓臺	-9.30705
新愁	-9.30706
南枝	-9.30713
重來	-9.30781
叅	-9.30848
斑	-9.30969
左	-9.3102
弓	-9.31115
郡	-9.31256
歸路	-9.31302
到如今	-9.31454
春愁	-9.31505
蕙	-9.31566
妃	-9.316
龜	-9.31625
飛去	-9.32018
蘋	-9.32051
忒	-9.32094
晉	-9.32231
束	-9.32297
此時	-9.32331
玲瓏	-9.32334
懽	-9.32367
脫	-9.32387
圖譜	-9.32459
安排	-9.32468
緒	-9.32476
建	-9.32542
履	-9.32649
邀	-9.32657
畫樓	-9.32738
瑤	-9.32886
宅	-9.32975
増	-9.33088
趣	-9.33399
棃花	-9.33579
棄	-9.33774
擊	-9.33775
銀河	-9.33877
免	-9.33885
風露	-9.3399
珮	-9.34086
雲雨	-9.34109
托	-9.34134
光隂	-9.3414
巫山	-9.34205
雙雙	-9.34349
描	-9.34371
可惜	-9.34469
叠	-9.34475
德	-9.34488
何妨	-9.34499
陌上	-9.34834
挽	-9.34835
夢斷	-9.34849
盞	-9.34883
青青	-9.3491
湖上	-9.34921
花飛	-9.34935
淨	-9.35121
翠袖	-9.35131
栽	-9.35179
富	-9.35196
殢	-9.35213
擎	-9.35238
趙長卿	-9.35307
還是	-9.35408
來時	-9.35457
獨倚	-9.35478
别來	-9.35559
豐	-9.3568
盧	-9.35806
附	-9.35836
焉	-9.35838
揮	-9.35851
詞一巻	-9.35972
魄	-9.36011
王孫	-9.36019
霄	-9.36141
荷花	-9.36176
念奴嬌	-9.36232
双	-9.36316
勢	-9.36349
鷺	-9.36358
彦	-9.36556
春去	-9.36562
紅葉	-9.36615
隊	-9.3667
以下	-9.36693
不禁	-9.36706
嬋娟	-9.36936
黯	-9.36944
詔	-9.36961
撚	-9.36969
劉郎	-9.37162
查	-9.37411
掌	-9.37535
穩	-9.37743
架	-9.37779
召	-9.37816
日暮	-9.37858
披	-9.37969
冉冉	-9.38045
迢迢	-9.38057
幃	-9.38079
竿	-9.38086
淒涼	-9.38103
溜	-9.38104
鞦韆	-9.38138
害	-9.38207
清風	-9.38207
鶯聲	-9.38313
卜	-9.38442
滿庭芳	-9.38465
舌	-9.38511
設	-9.38521
圗	-9.38566
一葉	-9.38739
雨過	-9.38794
的是	-9.388
閒愁	-9.38849
淸	-9.38862
籬	-9.38883
無聊	-9.38887
東籬	-9.38909
把酒	-9.39007
不勝	-9.39032
萍	-9.39127
丹青	-9.39161
春歸	-9.39164
瑩	-9.39201
刺	-9.39238
裳	-9.39314
逺山	-9.39356
天香	-9.39363
蘭舟	-9.39405
何如	-9.39432
釀	-9.39554
芭蕉	-9.39559
妬	-9.39563
學士	-9.39625
白雲	-9.3967
線	-9.39678
渺	-9.39742
何在	-9.39761
偎	-9.39902
壯	-9.39944
蕚	-9.39969
換頭	-9.40402
捱	-9.40497
賔	-9.4062
界	-9.40623
一枕	-9.4064
另	-9.40671
蹙	-9.40755
洒	-9.40772
詞名	-9.40829
鞍	-9.40936
鄰	-9.40978
桑	-9.41064
攀	-9.41064
辛	-9.41068
依稀	-9.4113
儀	-9.4115
四首	-9.4123
廻	-9.41324
新月	-9.41349
銜	-9.41402
□	-9.41411
覆	-9.41452
適	-9.41454
挑	-9.41481
敗	-9.41483
權	-9.41488
拆	-9.41506
鸚鵡	-9.41508
酸	-9.41522
殘月	-9.41626
冶	-9.41643
貧	-9.41853
贏得	-9.41881
主人	-9.41912
黒	-9.41969
飛來	-9.42138
筭	-9.42218
蔡	-9.42234
歸期	-9.4224
室	-9.42253
不覺	-9.42264
灰	-9.42282
春夢	-9.42311
怒	-9.42618
滑	-9.42626
單	-9.42796
尖	-9.4285
漠漠	-9.42963
春山	-9.42976
擲	-9.43029
無心	-9.4303
痛	-9.43041
千萬	-9.43134
郭	-9.43284
自有	-9.43312
銀燭	-9.43321
提	-9.43344
錄	-9.43352
㡌	-9.43399
水龍吟	-9.43413
平韻	-9.43418
不須	-9.4345
尋芳	-9.43478
淡月	-9.43535
傷春	-9.43574
秋光	-9.43617
乘	-9.4373
迥	-9.43758
行樂	-9.43764
陳允平	-9.43937
弟	-9.43968
輕寒	-9.44019
年時	-9.44111
潘	-9.44124
箏	-9.44146
朋	-9.44188
鑑	-9.44192
反	-9.44218
告	-9.44222
凨流	-9.44286
喚起	-9.44335
源	-9.44388
雲山	-9.44472
青春	-9.44519
賓	-9.4454
鸎	-9.44543
㸃㸃	-9.44547
舊遊	-9.44589
撫	-9.44603
日日	-9.44633
麝	-9.44644
從今	-9.44754
符	-9.44933
煙雨	-9.44939
厚	-9.44965
濶	-9.44979
奩	-9.44991
營	-9.45019
蒼苔	-9.45079
花下	-9.45155
誰知	-9.45246
榭	-9.45257
廊	-9.4527
橫	-9.45328
臨江仙	-9.45339
馮	-9.45343
第四句	-9.45358
噴	-9.45391
宇	-9.45441
妖	-9.45446
顯	-9.4546
腮	-9.45487
平聲	-9.45615
卒	-9.45658
夜雨	-9.45763
妒	-9.4609
茅	-9.46144
薄倖	-9.46225
首句	-9.46312
一番	-9.46347
夜月	-9.4646
岳	-9.46468
戴	-9.46555
㠶	-9.46588
太平	-9.46637
簾外	-9.46809
作者	-9.46966
誰與	-9.46973
助	-9.46981
山中	-9.46985
裘	-9.46985
日月	-9.47062
五句	-9.47196
春意	-9.47276
潛	-9.47355
嫁	-9.47374
世間	-9.47487
金蓮	-9.47501
爛	-9.47536
三仄韻	-9.47578
梅苑	-9.47589
泊	-9.47592
亡	-9.47696
澗	-9.47713
莊	-9.47753
鷓鴣天	-9.47788
匀	-9.47798
箭	-9.47811
麻	-9.4785
踏青	-9.47892
無窮	-9.47906
依約	-9.47907
季	-9.48086
訛	-9.48127
飛花	-9.48162
又一	-9.48302
恰便似	-9.48337
荅	-9.48346
祥	-9.48355
新聲	-9.4839
萬事	-9.48511
有情	-9.48528
岫	-9.48595
三平韻	-9.48801
賀新郎	-9.48979
健	-9.48983
髙樓	-9.49015
第五句	-9.49047
潜	-9.49073
形	-9.49359
六仄韻	-9.4939
劒	-9.4947
欠	-9.49478
逞	-9.49514
老去	-9.49541
目斷	-9.496
肩	-9.49642
不道	-9.49736
總是	-9.49791
風味	-9.49812
耕	-9.49878
廬	-9.49878
跨	-9.499
不斷	-9.49998
一句	-9.50048
用平	-9.50053
蕪	-9.50102
三句	-9.50231
厯	-9.50233
例	-9.50257
咫尺	-9.5026
鹿	-9.50272
羨	-9.50274
不用	-9.50312
章臺	-9.50319
鶯啼	-9.50323
吹簫	-9.50525
鱗	-9.50526
黄鸝	-9.50684
起句	-9.5071
腰肢	-9.50732
院落	-9.50746
五更	-9.5077
那堪	-9.50835
小院	-9.50867
薰	-9.50881
蛩	-9.51309
陽臺	-9.51469
悄悄	-9.51472
針	-9.51603
私	-9.5184
廢	-9.5185
嗔	-9.51957
蔵	-9.52052
樵	-9.52077
白髪	-9.5209
知道	-9.52272
付與	-9.52355
係	-9.52373
陪	-9.52385
又還	-9.52396
雙調一百	-9.52414
笑語	-9.52415
十三	-9.52421
秋聲	-9.52452
它	-9.52469
風景	-9.5256
鞋	-9.52709
鬭	-9.52713
㾗	-9.52785
挿	-9.52867
雲鬟	-9.52903
枕上	-9.53016
三十	-9.53094
中有	-9.53101
清平樂	-9.53169
乞	-9.53186
插	-9.53213
芽	-9.53217
綰	-9.53246
居士	-9.53272
深深	-9.53298
櫻桃	-9.5343
故園	-9.53434
兩句	-9.53537
窈窕	-9.53623
猿	-9.5363
剰	-9.53689
斜日	-9.5369
腹	-9.53727
便是	-9.53783
▁按	-9.53844
輕盈	-9.53948
東西	-9.53971
孝	-9.54068
翫	-9.54213
望斷	-9.5438
緑楊	-9.54399
驚起	-9.5441
猶在	-9.54425
天下	-9.54488
螺	-9.54517
䡖	-9.54539
離情	-9.54547
何似	-9.54619
璧	-9.54644
補	-9.54705
一作	-9.54729
青樓	-9.54886
盼	-9.54931
歴	-9.55003
保	-9.55061
天然	-9.55164
酣	-9.55249
菱花	-9.5525
錢塘	-9.5539
叟	-9.55396
觸	-9.55397
效	-9.55448
心情	-9.55483
圃	-9.55819
帯	-9.55836
一年	-9.55845
詞别首	-9.55909
獨立	-9.56143
落梅	-9.56208
字俱仄聲	-9.56282
視	-9.56317
落紅	-9.56351
敬	-9.5636
如水	-9.56468
秦樓	-9.5648
瀟灑	-9.56634
珍	-9.56704
臂	-9.56735
特地	-9.56818
同心	-9.5682
擔	-9.56847
茫茫	-9.56964
十五	-9.56999
淒	-9.57049
南山	-9.57072
判	-9.57074
庵	-9.57148
韵	-9.57206
養	-9.57213
煩惱	-9.57266
清歌	-9.57379
驟	-9.57404
一醉	-9.57516
靨	-9.57537
治	-9.5759
雀	-9.57594
韶華	-9.57636
繡簾	-9.57683
騰	-9.57694
欵	-9.57702
羅綺	-9.57718
益	-9.57999
夾	-9.58038
扵	-9.5805
留連	-9.58052
寵	-9.58097
舘	-9.58146
結句	-9.5823
繼	-9.5844
凋	-9.58551
相識	-9.58555
憑誰	-9.5886
樣	-9.58894
鬚	-9.59002
妖嬈	-9.59048
粘	-9.59051
用韻	-9.59075
草堂	-9.5909
猶有	-9.59206
前腔	-9.59217
温柔	-9.59339
婉	-9.59385
犀	-9.59427
斯	-9.59462
𥿄	-9.5958
嘯	-9.59617
好夢	-9.59694
春衫	-9.59908
傲	-9.59925
煙水	-9.59979
周密	-9.60008
天際	-9.60158
蛾眉	-9.60171
夢回	-9.60314
邦	-9.60371
難忘	-9.60426
皮	-9.60449
零亂	-9.60509
畨	-9.60572
委	-9.60759
壘	-9.60821
香消	-9.60865
恩情	-9.6088
洞庭	-9.60891
其詞	-9.60923
抹	-9.60962
弹	-9.60985
鷗鷺	-9.6106
篆	-9.61164
筝	-9.61197
楊无咎	-9.61225
詞有	-9.61225
蟲	-9.6124
帷	-9.61243
崖	-9.6126
畱	-9.61277
燼	-9.61278
三更	-9.61353
鮫綃	-9.61367
悵望	-9.61411
舊日	-9.61518
䨇	-9.61727
服	-9.61741
麥	-9.61743
冩	-9.61748
朶	-9.61847
價	-9.61897
段九句	-9.61919
辜負	-9.62031
疑是	-9.62032
薫	-9.62057
浮雲	-9.6208
晏	-9.62116
南樓	-9.62118
渠	-9.62188
蟻	-9.62252
圎	-9.62297
護	-9.623
桃源	-9.62331
瞻	-9.62371
毛滂	-9.62476
昭	-9.62531
彭	-9.62657
宋人	-9.62658
淚眼	-9.62682
九字	-9.62701
勾	-9.62713
灣	-9.62714
杜宇	-9.62721
賽	-9.62756
瓦	-9.62775
看花	-9.62809
猶自	-9.62944
西山	-9.62963
悞	-9.63066
䇿	-9.63107
議	-9.63107
史達祖	-9.63136
滿江紅	-9.63143
誦	-9.63153
祠	-9.6316
翡翠	-9.63181
聼	-9.63187
閤	-9.63193
瓶	-9.63195
䏻	-9.63297
簾捲	-9.63443
香霧	-9.63481
此際	-9.63524
故國	-9.63562
詳	-9.6357
樽	-9.63592
邨	-9.63592
一簾	-9.63617
網	-9.63645
張翥	-9.6365
滿院	-9.63724
十四字	-9.63827
向人	-9.63886
月華	-9.63887
淚痕	-9.63968
翰	-9.64001
屏山	-9.64046
梭	-9.64067
瑣	-9.641
娉婷	-9.64126
佛	-9.64142
為我	-9.6425
瑶池	-9.64364
滿眼	-9.64369
日長	-9.64573
玉樓	-9.64608
隣	-9.64624
颺	-9.64628
雕鞍	-9.64663
撇	-9.64724
終日	-9.6484
仕	-9.64854
眼前	-9.64952
十字	-9.64955
無際	-9.65029
沼	-9.6506
槎	-9.65097
飯	-9.6511
灘	-9.65112
玩	-9.65125
畫船	-9.65296
未了	-9.65317
衡	-9.65494
崇	-9.65544
稼軒	-9.65552
吞	-9.65593
浄	-9.65609
清曉	-9.65639
何須	-9.65706
戦	-9.65748
當初	-9.65924
仄聲	-9.65925
山谷	-9.65942
略	-9.65977
謀	-9.66006
去聲	-9.66044
菩薩蠻	-9.66068
藤	-9.66071
鷄	-9.66091
郷	-9.66123
㡬度	-9.66379
燈前	-9.66386
隴	-9.66398
茵	-9.66457
篷	-9.66513
疎雨	-9.66522
兩三	-9.66617
膽	-9.66621
嘶	-9.66628
夜寒	-9.66638
暮雨	-9.66687
不忍	-9.66696
造	-9.66715
賴	-9.66787
荆	-9.66904
不拘	-9.66923
舊事	-9.66965
藻	-9.67006
泰	-9.67033
洛	-9.67069
畫橋	-9.67096
瓜	-9.67116
㡬時	-9.6723
黄庭堅	-9.673
歸来	-9.67392
值	-9.67438
託	-9.67461
戰	-9.67506
新詞	-9.67525
次韻	-9.67532
逕	-9.67549
一點	-9.67554
潭	-9.67555
人静	-9.67775
後起	-9.67781
騷	-9.67854
八字	-9.67912
㟁	-9.67948
載酒	-9.67952
屈	-9.67963
九日	-9.6798
周詞	-9.67988
君王	-9.67998
馳	-9.68049
遭	-9.68088
伏	-9.68094
詞話	-9.68227
極目	-9.68463
毫	-9.68496
速	-9.68523
蝶戀花	-9.68529
翅	-9.6857
覩	-9.68615
凝竚	-9.68719
夢窗	-9.6893
春思	-9.68975
愚	-9.68989
関	-9.69055
監	-9.69056
長生	-9.69192
蘆	-9.69296
流鶯	-9.69341
紅粉	-9.6943
螢	-9.69436
塗	-9.69508
范	-9.69519
納	-9.69547
硯	-9.69568
蘸	-9.69568
擺	-9.69584
壷	-9.69653
置	-9.69883
千載	-9.69904
一半	-9.69976
孤山	-9.70153
萬頃	-9.70155
两	-9.70157
姓	-9.70158
彩雲	-9.70159
花底	-9.70238
也不	-9.70256
乳	-9.70339
一般	-9.70346
驅	-9.70574
西江月	-9.70596
后	-9.70638
不語	-9.7084
瑶臺	-9.70848
芝	-9.7094
端的是	-9.7095
評	-9.70953
翹	-9.70971
處處	-9.7101
油	-9.71038
博	-9.71065
鶯花	-9.71082
仰	-9.71086
逼	-9.71104
貼	-9.7113
岩	-9.71172
今夕	-9.71226
餘香	-9.71276
猶未	-9.71282
門前	-9.7146
四海	-9.71465
臯	-9.71482
新詩	-9.71542
薔薇	-9.7157
籌	-9.71628
髩	-9.71631
春心	-9.71767
耐	-9.71808
緑隂	-9.71827
殘照	-9.71961
朦朧	-9.72035
亭亭	-9.72038
滿目	-9.7206
掠	-9.72072
白雪	-9.72089
翩翩	-9.72095
沁園春	-9.72103
奇	-9.72111
科	-9.72152
淹	-9.72207
縦	-9.72231
别有	-9.72367
彎	-9.72408
尚書	-9.72545
所謂	-9.72654
従	-9.72701
紛	-9.72715
寸	-9.7276
自古	-9.72823
銀屏	-9.72913
烘	-9.72951
虞	-9.7313
案	-9.73149
和氣	-9.73151
楚天	-9.73159
良宵	-9.732
嫦娥	-9.73207
現	-9.73216
第三	-9.73249
藍橋	-9.73259
醉裏	-9.73304
徃事	-9.73309
燈花	-9.73478
情懐	-9.73503
一縷	-9.73504
敵	-9.73686
甜	-9.73765
胸	-9.73806
那更	-9.73956
烟雨	-9.73978
宛	-9.74076
麽	-9.74149
𤣥	-9.74189
答	-9.74191
幙	-9.74194
巴	-9.7421
寂寂	-9.74235
蒙	-9.74269
宛轉	-9.74271
藕	-9.74321
此亦	-9.74398
斷魂	-9.74444
花隂	-9.74544
人歸	-9.74598
霏	-9.74655
飽	-9.74743
梧	-9.74926
欲去	-9.74946
後結	-9.74968
顔色	-9.75007
小山	-9.75021
瑟	-9.75055
題詩	-9.75078
千年	-9.75086
不肯	-9.75196
檐	-9.7522
輿	-9.75224
橘	-9.75252
䰟	-9.75277
一畨	-9.75294
隻	-9.7533
百花	-9.75337
何許	-9.7536
衰草	-9.75387
水邊	-9.75469
懨懨	-9.75507
勒	-9.75675
從來	-9.75726
吉	-9.75755
鉛	-9.75774
四時	-9.75778
香風	-9.75842
周美成	-9.75844
覽	-9.75854
笠	-9.7586
宋詞	-9.7587
三千	-9.75871
配	-9.75886
陽春	-9.75925
幅	-9.75936
從前	-9.75988
小橋	-9.76015
悉	-9.76127
五平韻	-9.76173
月色	-9.76269
壑	-9.76269
脂	-9.76278
帥	-9.76285
自是	-9.76287
東風吹	-9.76346
錦字	-9.7635
世事	-9.76376
蕭索	-9.76379
滋味	-9.76388
活	-9.76393
焦	-9.76412
幽香	-9.76458
亂紅	-9.76495
撒	-9.76496
好景	-9.76523
柳永	-9.76582
音信	-9.76714
甌	-9.76769
端的	-9.76787
一春	-9.76823
荼䕷	-9.76874
公子	-9.76892
逗	-9.76906
巷	-9.76913
旁	-9.76916
濛濛	-9.76926
嫰	-9.76931
謳	-9.76933
韶光	-9.76955
和淚	-9.76988
蹤	-9.771
前村	-9.77101
為君	-9.77184
如夢	-9.77203
春事	-9.77375
袍	-9.7742
涙	-9.77437
漁父	-9.77452
後段起句	-9.77503
哭	-9.77522
露華	-9.77575
溪山	-9.77628
晁	-9.77635
或作	-9.77841
簾幕	-9.77872
叚	-9.7789
錫	-9.77916
臨風	-9.77981
誓	-9.78012
揾	-9.78032
新來	-9.78115
飛燕	-9.78252
九十	-9.78382
聞道	-9.78415
忘了	-9.78464
洞仙歌	-9.78492
裝	-9.7853
汀洲	-9.78538
見了	-9.78551
一詞	-9.78593
喫	-9.7863
快活	-9.78652
春草	-9.78688
塵土	-9.78725
元宵	-9.78767
不解	-9.78893
聲聲	-9.78907
影裏	-9.78959
蓑	-9.78966
屢	-9.79033
虞美人	-9.79051
顫	-9.79057
籍	-9.79063
炷	-9.79094
醉鄉	-9.79098
險	-9.79108
祗	-9.79109
相憶	-9.79131
春暮	-9.79145
塵埃	-9.79166
債	-9.79169
宋玉	-9.79353
了些	-9.79404
纒	-9.7963
賈	-9.79646
寒梅	-9.79693
尉	-9.79693
多時	-9.79716
管絃	-9.79851
第八句	-9.79853
風輕	-9.79888
疎影	-9.7994
一天	-9.80082
水調歌頭	-9.80173
𣺌	-9.8019
堯	-9.80195
悽	-9.80196
謬	-9.80245
七夕	-9.80309
十八	-9.80388
囊	-9.80438
一段	-9.80443
何必	-9.80511
門掩	-9.80534
淡淡	-9.80538
經年	-9.80541
傅	-9.8072
帰	-9.80726
三年	-9.80737
流年	-9.8074
頂	-9.80767
摧	-9.80783
局	-9.80818
鵉	-9.80821
鳯凰	-9.80832
梯	-9.80851
閗	-9.80922
携手	-9.8095
玉樹	-9.8096
幾番	-9.81085
此意	-9.81189
老子	-9.81192
島	-9.81201
無事	-9.81221
道是	-9.81252
五湖	-9.81288
㕘	-9.81296
惱人	-9.81323
米	-9.81389
儒	-9.81401
辦	-9.81404
淵明	-9.81409
鐡	-9.81424
離人	-9.81436
消魂	-9.81638
輩	-9.81675
暉	-9.81831
韋	-9.8185
魯	-9.81856
春情	-9.81861
倦客	-9.81875
一任	-9.81918
希	-9.81937
狀	-9.81972
奪	-9.81982
五首	-9.82008
重門	-9.82042
紅杏	-9.8213
更有	-9.82161
陽關	-9.82199
玉鈎	-9.82204
月上	-9.82253
歸時	-9.82289
金陵	-9.82344
院宇	-9.82369
相看	-9.82393
坊	-9.82404
景物	-9.8241
孫光憲	-9.8249
芍藥	-9.82493
張元幹	-9.825
天外	-9.82502
奔	-9.82518
塢	-9.82518
陽闗	-9.8255
个	-9.82563
肉	-9.82576
朱户	-9.826
多病	-9.82623
消磨	-9.82647
玉樓春	-9.82656
巷陌	-9.82747
雙飛	-9.82753
青衫	-9.82855
後段第二句	-9.82885
蘆花	-9.82909
山色	-9.82932
香塵	-9.82948
回頭	-9.82984
栖	-9.83024
聳	-9.83051
返	-9.8306
恣	-9.83092
暇	-9.83103
心腸	-9.83129
痴	-9.83199
講	-9.83227
一闋	-9.83267
鶯鶯	-9.83352
青鸞	-9.83399
一夢	-9.83584
齒	-9.8365
農	-9.83676
第二	-9.83722
夢覺	-9.83747
不定	-9.83771
白髮	-9.83796
前後段	-9.83808
微雨	-9.83837
飛瓊	-9.83962
一杯	-9.83978
與此	-9.84022
臨水	-9.84069
洛陽	-9.84078
穠	-9.84145
筠	-9.8418
庚	-9.8424
貫	-9.84258
姮娥	-9.84259
潔	-9.84269
乙	-9.84283
言語	-9.84344
榻	-9.84369
底事	-9.84432
長是	-9.84504
露冷	-9.84525
玉簫	-9.84682
錦帳	-9.84683
春恨	-9.84709
浪淘沙	-9.84737
草草	-9.8481
與前	-9.84839
具	-9.84841
兀	-9.84918
有誰	-9.84925
七十	-9.84968
十一字	-9.84975
二體	-9.8498
數㸃	-9.85078
些兒	-9.85158
横斜	-9.85185
譜内	-9.85338
升	-9.85398
趙彦端	-9.85416
湧	-9.85419
沁	-9.85437
一生	-9.85521
壮	-9.85525
玄	-9.85536
畫角	-9.85539
金屋	-9.85553
消得	-9.85608
留得	-9.85624
旦	-9.85662
輦	-9.85886
謁金門	-9.85984
)○	-9.86024
毬	-9.86043
優	-9.86046
獸	-9.86066
前結	-9.8614
許多	-9.86183
平沙	-9.86205
誰念	-9.86255
辰	-9.86286
自號	-9.86304
未老	-9.86316
尋常	-9.86381
樓前	-9.86458
樓外	-9.86483
用仄	-9.86497
水流	-9.86538
杜安世	-9.86589
秦觀	-9.86589
葱	-9.86632
稿	-9.86644
兔	-9.86664
無定	-9.8671
夜永	-9.86745
後段第	-9.86789
曉來	-9.86916
西子	-9.86997
人靜	-9.87008
紅樓	-9.87092
兄	-9.87119
不足	-9.87155
僕	-9.87162
麟	-9.87197
跳	-9.87203
衝	-9.87205
壇	-9.87221
轡	-9.87224
苞	-9.87234
段各四句	-9.87318
捨	-9.8732
司馬	-9.87378
堅	-9.87391
寄與	-9.87575
膏	-9.87589
朝雲	-9.87701
至今	-9.87705
煙波	-9.87715
累	-9.87785
臙脂	-9.87828
昇平	-9.87859
猶記	-9.87861
送春	-9.87868
淚珠	-9.87892
不敢	-9.87952
窩	-9.87953
人心	-9.88035
無憑	-9.88062
恰似	-9.88095
春雨	-9.88176
来時	-9.88204
年來	-9.88375
皋	-9.88375
述	-9.88383
南陌	-9.88411
婆娑	-9.88452
典	-9.88465
畫屏	-9.8848
舊家	-9.88482
艇	-9.88605
峭	-9.88672
亦有	-9.88784
陸游	-9.8891
仙子	-9.88983
茂	-9.89022
蔣	-9.89033
眷	-9.89076
去也	-9.8908
拗	-9.89106
好事近	-9.89116
流光	-9.89117
好事	-9.89139
蓬莱	-9.89141
江東	-9.89301
纎手	-9.89412
歐陽修	-9.8944
酴醿	-9.89563
人情	-9.89593
顦顇	-9.89598
惠	-9.89617
水雲	-9.89621
築	-9.89629
餞	-9.89632
顛	-9.89646
禪	-9.89647
𤓰	-9.8965
琉璃	-9.8965
瀉	-9.89651
迤邐	-9.89659
磯	-9.89669
混	-9.8967
閬苑	-9.89681
屈指	-9.89698
生涯	-9.8971
踪	-9.89733
第六句	-9.89895
甚麽	-9.8992
詞同惟	-9.89933
江水	-9.8996
重九	-9.90059
備	-9.90077
皓月	-9.90101
蕉	-9.90224
店	-9.90257
杳杳	-9.90315
征鴻	-9.90319
示	-9.90369
工夫	-9.90383
冷清清	-9.90434
湖山	-9.90469
愁人	-9.9061
人物	-9.90632
一調	-9.90689
生香	-9.90729
脉脉	-9.90886
尹	-9.90908
禄	-9.90937
慮	-9.90944
不必	-9.90949
超	-9.90949
蘓	-9.90954
单	-9.91032
歡娛	-9.91046
沈沈	-9.91066
𫾣	-9.91066
愁腸	-9.91098
遊人	-9.91162
醉倒	-9.91225
歌之	-9.91229
與後	-9.91229
天公	-9.91316
白玉	-9.91352
月滿	-9.91417
甚時	-9.91471
清夜	-9.91506
滿城	-9.9156
悟	-9.91566
無聲	-9.91573
鏡裏	-9.91579
腦	-9.91597
金盞	-9.91609
因此上	-9.91651
萬種	-9.91935
迹	-9.91947
相同	-9.91962
時時	-9.91985
從容	-9.92001
玉堂	-9.92022
字俱平聲	-9.92031
相如	-9.92053
鏡中	-9.92092
似水	-9.92124
馥	-9.92133
几	-9.92162
習	-9.92179
倍	-9.92208
斷雲	-9.92233
錦瑟	-9.92238
良辰	-9.92244
風波	-9.92252
有意	-9.9226
無恙	-9.923
舊恨	-9.92329
十八字	-9.92333
此恨	-9.92393
早是	-9.92434
兩行	-9.92566
夜夜	-9.92578
落盡	-9.92616
去後	-9.92694
碧天	-9.92746
呂	-9.92747
絡	-9.92785
揉	-9.92803
役	-9.92812
執	-9.92813
嘲	-9.92825
罪	-9.92836
藉	-9.92837
不識	-9.92885
离	-9.92894
耀	-9.92913
片片	-9.92914
昨	-9.92942
靠	-9.92964
人意	-9.92973
添一字	-9.93012
更那堪	-9.9315
寄語	-9.93151
人逺	-9.93183
金風	-9.93224
么篇	-9.93267
愁絶	-9.93319
祐	-9.93369
弦	-9.93411
舜	-9.9343
帖	-9.93446
寢	-9.9345
休問	-9.93452
繩	-9.93463
浥	-9.93469
十四	-9.93518
朝來	-9.93535
凝望	-9.93552
𫀆	-9.93582
團扇	-9.93584
四十	-9.93591
何䖏	-9.93756
賀鑄	-9.93816
阮	-9.93957
葛	-9.94071
有時	-9.94097
青天	-9.94116
幾回	-9.94209
新水令	-9.94269
㡬許	-9.94283
韶	-9.94332
入聲	-9.94338
程垓	-9.94491
詩云	-9.94506
周紫芝	-9.94542
可平可仄	-9.94559
方千里	-9.94569
抵	-9.94617
羅帶	-9.94619
詩話	-9.94626
綠楊	-9.94662
嚲	-9.94693
脈脈	-9.9471
留住	-9.94715
乖	-9.94736
醑	-9.94745
髙觀國	-9.94754
汚	-9.94768
珊瑚	-9.94779
暢	-9.94779
亞	-9.9478
拘	-9.9478
沉醉	-9.9485
皓	-9.94915
月影	-9.95183
單調	-9.95239
摩	-9.95264
春睡	-9.95273
栁絮	-9.95286
千秋	-9.95368
彫	-9.95377
鳩	-9.9538
舎	-9.95406
郞	-9.95408
芳信	-9.9549
與君	-9.95509
溪橋	-9.95704
心頭	-9.9571
記取	-9.95744
杜詩	-9.95759
番	-9.95896
不妨	-9.95966
畢竟	-9.95969
柯	-9.95974
欣	-9.96017
慰	-9.96021
踏莎行	-9.96027
埀	-9.9603
藝	-9.96039
勿	-9.96044
葩	-9.96055
黄菊	-9.96065
如雪	-9.96108
洞房	-9.96118
傷情	-9.96126
碾	-9.96136
燕語	-9.9618
包	-9.96181
欹枕	-9.96183
㝎	-9.96192
可仄	-9.96296
無多	-9.96327
登髙	-9.9639
欄干	-9.96475
紈	-9.96616
月夜	-9.96655
晦	-9.96656
鳬	-9.96661
小桃紅	-9.96662
何限	-9.9672
皎	-9.96721
合歡	-9.96727
漁家傲	-9.96741
颭	-9.96767
攪	-9.96769
惜花	-9.96774
白石	-9.96797
啼鳥	-9.96861
黃昏	-9.96866
後人	-9.97004
老矣	-9.97015
月照	-9.97059
輸	-9.97138
留春	-9.97189
謫	-9.97225
上元	-9.97244
崔	-9.97303
舫	-9.9731
人世	-9.97321
檣	-9.97329
寜	-9.97415
感皇恩	-9.97441
淂	-9.97451
魂夢	-9.97474
碩	-9.97524
尋思	-9.97528
生日	-9.97536
倚樓	-9.97562
音書	-9.97579
百尺	-9.97706
青門	-9.97837
馬嘶	-9.97902
飄飄	-9.97915
卓	-9.98022
乱	-9.98032
重簾	-9.9808
蜜	-9.98081
喜遷鶯	-9.98109
倚䦨干	-9.98115
夭桃	-9.98146
一朶	-9.9822
晩來	-9.98363
粉面	-9.98373
竹枝	-9.98597
驄	-9.98636
互	-9.98673
熊	-9.98704
唐人	-9.98709
遼	-9.98711
蔡伸	-9.98715
宦	-9.9874
違	-9.98753
姜	-9.98756
所作	-9.98762
煙樹	-9.98762
孔	-9.98795
素娥	-9.98907
梨	-9.99076
車馬	-9.99176
晏殊	-9.9918
凭䦨	-9.99201
是處	-9.99245
得意	-9.99264
紅袖	-9.99279
兩平韻	-9.99313
連天	-9.99315
棠	-9.99326
長江	-9.99331
董	-9.99335
幹	-9.99384
振	-9.99387
秪	-9.99393
趙師俠	-9.99398
併	-9.99425
笳	-9.99449
白鷺	-9.99526
天寒	-9.99552
長記	-9.99604
重到	-9.99628
秋月	-9.99653
黄鍾	-9.99661
孤負	-9.99673
溶溶	-9.99717
幾㸃	-9.99745
秋波	-9.99747
羅幃	-9.99798
也是	-9.99825
著意	-9.99891
山川	-10.0001
落葉	-10.0001
操	-10.0006
黍	-10.0009
燦	-10.0009
頰	-10.0009
心上	-10.001
兩兩	-10.0011
一百十	-10.0012
裂	-10.0012
幌	-10.0013
禹	-10.0013
收拾	-10.0016
鄊	-10.0019
不的	-10.0022
張詞	-10.0026
香車	-10.0036
又云	-10.0051
他年	-10.0052
旌	-10.0062
姚	-10.0065
池上	-10.0073
未成	-10.0073
人知	-10.0077
申	-10.0077
娃	-10.008
陳迹	-10.0083
重見	-10.0085
生怕	-10.0086
噪	-10.0087
攅	-10.0089
平蕪	-10.0093
孤鴻	-10.0102
不動	-10.0116
誰能	-10.0124
細細	-10.0126
風情	-10.0128
雨後	-10.0132
花梢	-10.0134
柔腸	-10.0139
熙	-10.014
長短句	-10.0141
相望	-10.0144
巵	-10.0152
伴侣	-10.0158
鳳凰	-10.016
晝永	-10.0161
幾日	-10.0161
不合	-10.0162
可以	-10.0162
八十	-10.0165
何用	-10.0165
不來	-10.0174
雨餘	-10.0178
做了	-10.0181
千丈	-10.0186
削	-10.0197
誰共	-10.0201
丈	-10.0202
雪裏	-10.0209
嬉	-10.021
渺渺	-10.0213
審	-10.0217
有感	-10.0219
紅日	-10.0219
袁	-10.0221
橙	-10.0223
未知	-10.0225
隠隠	-10.0226
職	-10.0228
隱隱	-10.0228
一寸	-10.0241
是也	-10.0244
十載	-10.0252
不曽	-10.0258
懐古	-10.0261
欽定四庫全書	-10.0268
粟	-10.027
月底	-10.0272
字平	-10.0279
流霞	-10.0279
温庭筠	-10.0282
劇	-10.0283
篁	-10.0284
唾	-10.0287
靚	-10.0287
啓	-10.0288
證	-10.0288
拾	-10.0291
握	-10.0294
漁樵	-10.0294
西廂	-10.0296
音律	-10.0303
說與	-10.0308
雲間	-10.0313
調名	-10.0317
不怕	-10.0325
眉黛	-10.0331
金尊	-10.0336
幽夢	-10.034
弔	-10.0348
説與	-10.0351
馬上	-10.0353
庾	-10.0355
囀	-10.0355
榆	-10.0356
兹	-10.0357
替	-10.0358
溫	-10.0359
幔	-10.0361
不起	-10.0366
玉容	-10.0369
横塘	-10.0371
鶯語	-10.0372
關山	-10.0382
斷橋	-10.0383
簾影	-10.0387
宣和	-10.0393
簫鼓	-10.0394
晏幾道	-10.0403
前段第二句	-10.0404
客裏	-10.0406
烟水	-10.0412
樂事	-10.0417
山河	-10.0419
徵	-10.0423
各家	-10.0424
肅	-10.043
衢	-10.0431
溪上	-10.0431
呉文英	-10.0431
遲遲	-10.0433
增	-10.0435
盆	-10.0435
妨	-10.0435
煎	-10.0436
勤	-10.044
蟠桃	-10.0441
看看	-10.0442
段八句	-10.0449
那人	-10.0452
絃管	-10.0452
菊花	-10.0452
隨風	-10.0454
清秋	-10.0469
小桃	-10.047
長空	-10.0475
字句	-10.048
江天	-10.0481
子野	-10.0481
兒女	-10.0491
醉眼	-10.0493
顆	-10.0496
吕渭老	-10.0497
逍遥	-10.0497
小令	-10.0498
洞天	-10.0499
𬗋	-10.0506
罩	-10.0509
鉛華	-10.051
拙	-10.0511
上聲	-10.0515
採蓮	-10.0516
對酒	-10.0534
兩結	-10.0539
起來	-10.0541
自然	-10.0543
新妝	-10.0556
換頭句	-10.056
幄	-10.0561
夜半	-10.0563
黏	-10.0567
之句	-10.0568
闗山	-10.0569
牧	-10.0569
清淺	-10.0569
屐	-10.0571
蘿	-10.0572
生查子	-10.0573
向晚	-10.0575
二月	-10.0575
張子野	-10.0575
起舞	-10.0576
清絶	-10.0577
電	-10.0577
菜	-10.0579
為主	-10.0581
烈	-10.0581
潑	-10.0582
仙家	-10.0584
此體	-10.0584
有恨	-10.0588
為之	-10.059
心期	-10.0612
詩酒	-10.0622
牢	-10.0631
攤破	-10.0633
荷葉	-10.064
三山	-10.064
心兒	-10.0641
第九句	-10.0641
卸	-10.0647
茸	-10.0648
知他	-10.0648
樞	-10.0648
襪	-10.0648
蟹	-10.0652
綢繆	-10.0657
五十	-10.0658
五雲	-10.0659
恠	-10.066
凭欄	-10.0662
軆	-10.0667
醉中	-10.0667
花信	-10.0668
箔	-10.0669
花謝	-10.067
因甚	-10.0672
其餘	-10.0674
押韻	-10.0678
是非	-10.0689
縱有	-10.0694
空自	-10.0699
春信	-10.0702
不叶	-10.0706
詞律	-10.0715
隆	-10.0716
遵	-10.0717
今生	-10.0718
場	-10.0719
滄浪	-10.0719
棊	-10.072
毅	-10.072
六十	-10.0721
三分	-10.0721
濺	-10.0722
蚤	-10.0726
魔	-10.0727
醜	-10.0728
凝眸	-10.073
懐抱	-10.0733
漏聲	-10.0734
墙	-10.0734
還又	-10.0739
太守	-10.074
尚有	-10.0745
栁絲	-10.0747
花外	-10.0747
病酒	-10.0753
只在	-10.0753
小園	-10.0754
情懷	-10.0758
寸心	-10.0758
真箇	-10.0759
奈何	-10.0762
兎	-10.078
可平	-10.0782
蠶	-10.0784
敧	-10.0789
愈	-10.079
脣	-10.0792
浣	-10.0793
飛過	-10.0795
三體	-10.0796
緘	-10.0798
瓢	-10.0798
慳	-10.08
第四	-10.08
遺恨	-10.08
之類	-10.0801
開時	-10.0809
楓	-10.0821
萬縷	-10.0824
緑水	-10.0824
一庭	-10.0841
絲絲	-10.0842
一霎	-10.0857
須信	-10.0858
濯	-10.0864
只是	-10.0864
幾多	-10.0864
鑪	-10.0867
森	-10.0867
扉	-10.0867
漿	-10.0868
涵	-10.0868
脆	-10.0869
梅香	-10.0869
南鄉子	-10.087
餘音	-10.087
鼻	-10.0876
看取	-10.0876
棋	-10.0877
攘	-10.0878
薄情	-10.0878
次第	-10.0879
點絳唇	-10.088
亂山	-10.0881
躭	-10.0884
留不住	-10.0885
樓頭	-10.0886
覺來	-10.0892
本是	-10.0896
沉香	-10.0902
古人	-10.0912
星星	-10.0916
字俱	-10.0925
若是	-10.0926
横笛	-10.0928
高樓	-10.0933
中原	-10.0934
達	-10.094
蜨	-10.0941
竊	-10.0942
纓	-10.0942
譙	-10.0942
詞中	-10.0944
位	-10.0945
抽	-10.0946
翰林	-10.0947
攬	-10.0947
耿耿	-10.095
翠被	-10.095
葦	-10.0951
鈴	-10.0952
從此	-10.0953
二詞	-10.0955
閒情	-10.0955
朱門	-10.0958
瑶琴	-10.0959
秋夜	-10.0972
千頃	-10.0975
大夫	-10.0992
隋	-10.0995
東流	-10.0996
紅粧	-10.0999
李白	-10.1004
此去	-10.1006
清淚	-10.1008
數枝	-10.1012
沐	-10.1015
激	-10.102
字仄	-10.102
舊曲	-10.1021
卜算子	-10.1023
椒	-10.1025
寡	-10.1026
蹤跡	-10.1034
仙人	-10.1042
光景	-10.1046
巳刻	-10.1048
佳節	-10.1048
掩映	-10.1053
對景	-10.1054
未必	-10.1058
無據	-10.1061
賺	-10.1068
杭	-10.1089
鹽	-10.109
灯	-10.1092
欽定四庫全書御選歴代詩餘巻	-10.1092
材	-10.1096
慕	-10.1097
羅袖	-10.1098
瀾	-10.1099
慈	-10.11
拭	-10.1101
風細	-10.1103
净	-10.1105
人道	-10.1106
痛飲	-10.1109
誰道	-10.1119
不應	-10.1128
香銷	-10.1129
山水	-10.113
河漢	-10.1137
制	-10.1143
遥山	-10.1149
柴門	-10.115
待得	-10.1153
香閨	-10.1154
橋邊	-10.1162
如畫	-10.1164
樓閣	-10.1165
蔣捷	-10.117
㦸	-10.1173
浮生	-10.1179
水晶	-10.118
不比	-10.1183
春日	-10.1187
長相思	-10.1187
幽恨	-10.1189
人散	-10.1192
風清	-10.1204
金谷	-10.1212
别恨	-10.1218
千縷	-10.1222
髙歌	-10.1225
廣寒	-10.1234
統	-10.124
一雙	-10.1244
汪	-10.1247
文君	-10.1247
演	-10.1249
韋莊	-10.1251
花草粹編	-10.1251
詩人	-10.1253
揷	-10.1256
隙	-10.1256
救	-10.1257
串	-10.1257
冲	-10.126
扣	-10.1261
旗亭	-10.1269
蜂蝶	-10.1269
到處	-10.1275
薰風	-10.1277
聚散	-10.1277
㫁腸	-10.1282
萬㸃	-10.1285
十三字	-10.1293
吹笛	-10.1299
才子	-10.1302
不去	-10.1303
宰	-10.131
一似	-10.1317
小雨	-10.1318
眺	-10.1319
三五	-10.1321
株	-10.1322
夭	-10.1323
搔首	-10.1325
青玉案	-10.1328
小小	-10.1328
鶯燕	-10.1328
頼	-10.133
讀書	-10.133
詩句	-10.1331
樊	-10.1333
好在	-10.1333
控	-10.1335
十一	-10.1337
吏	-10.1337
僊	-10.1338
虧	-10.134
莫惜	-10.1343
興亡	-10.1344
蝉	-10.1344
是箇	-10.1347
晴空	-10.1349
一尊	-10.135
小閣	-10.135
月冷	-10.135
消遣	-10.1352
山下	-10.1353
帶雨	-10.1358
新晴	-10.1359
玉骨	-10.1371
一去	-10.1395
脩	-10.14
道中	-10.14
爽	-10.1402
訴衷情	-10.1403
翔	-10.1403
認得	-10.1407
顏	-10.1408
畫閣	-10.1409
頭上	-10.1413
軸	-10.1413
截	-10.1416
賊	-10.1417
醖	-10.1419
羅襪	-10.1419
榴花	-10.142
東山	-10.1428
沽酒	-10.1428
渾似	-10.1429
遊絲	-10.1432
羅裙	-10.1435
天逺	-10.1441
銀漢	-10.1444
此曲	-10.1445
玉壺	-10.1449
孤舟	-10.1449
春晚	-10.1457
聲斷	-10.1462
紅牙	-10.1472
知何處	-10.1477
西東	-10.1483
羈	-10.1485
多一字	-10.1486
道人	-10.1487
竝	-10.1488
髯	-10.1488
叙	-10.1493
劣	-10.1493
葵	-10.1494
暎	-10.1498
模様	-10.1499
再不	-10.15
名利	-10.15
白頭	-10.1502
一派	-10.1505
梅子	-10.1508
望極	-10.151
梅梢	-10.1512
依前	-10.1523
雲散	-10.1524
腕	-10.154
清溪	-10.1547
纎纎	-10.1551
身在	-10.1552
渭	-10.1557
初試	-10.1557
五十字	-10.1558
無緒	-10.1558
淑	-10.156
擅	-10.1565
蘚	-10.1566
宸	-10.1566
明珠	-10.1569
千般	-10.1572
封侯	-10.1572
一巻	-10.1573
耍	-10.1574
婆	-10.1575
斜暉	-10.1576
啇	-10.1581
鉄	-10.1584
清光	-10.1585
莫教	-10.1588
藕花	-10.1593
一陣	-10.1598
解語	-10.1604
又有	-10.1608
漸覺	-10.1611
過雨	-10.1613
想見	-10.1617
秋思	-10.1625
閃	-10.1626
錦繡	-10.1637
兩箇	-10.1638
千山	-10.1638
佐	-10.1641
修竹	-10.1641
齡	-10.1643
訂	-10.1644
衛	-10.1647
汴	-10.1648
谿	-10.1649
唇	-10.165
王沂孫	-10.165
素手	-10.1651
炊	-10.1651
策	-10.1652
撩亂	-10.1652
貯	-10.1653
滚綉毬	-10.1656
曉風	-10.1657
不放	-10.166
江城子	-10.166
紈扇	-10.166
此亦與	-10.1663
瘦損	-10.1676
難禁	-10.1677
笋	-10.1678
忘却	-10.1681
相將	-10.1683
不及	-10.1688
家山	-10.1695
人何處	-10.1696
教我	-10.1698
心緒	-10.1708
香肌	-10.1717
撩	-10.1722
毛文錫	-10.1723
衍	-10.1724
斜月	-10.1725
此句	-10.1726
賸	-10.1728
戚	-10.1729
粉香	-10.173
只為	-10.1731
一帶	-10.1737
鵲橋仙	-10.1738
裊裊	-10.1738
怎禁	-10.1743
瓊花	-10.1747
和風	-10.1758
傾城	-10.1761
行客	-10.1763
最苦	-10.1767
沉吟	-10.1777
孤眠	-10.1777
水調	-10.178
十九	-10.178
榴	-10.1781
髙唐	-10.1784
鷓鴣	-10.1784
詩餘	-10.179
按此調	-10.1798
探春	-10.1799
難留	-10.1802
海上	-10.1804
砧	-10.1805
鞵	-10.1805
檢	-10.1806
銀蟾	-10.1807
孤城	-10.1808
嶂	-10.1809
烟波	-10.181
飛上	-10.181
鬱	-10.1811
旌旗	-10.1812
爐香	-10.1817
智	-10.1817
媒	-10.1819
明皇	-10.1823
無塵	-10.1826
丁香	-10.1829
菱	-10.1832
夜長	-10.1838
良夜	-10.184
滿庭	-10.1861
維	-10.1879
尽	-10.188
無别首可校	-10.1885
克	-10.1888
䕃	-10.1888
一川	-10.1889
留戀	-10.1892
彷彿	-10.1893
蛇	-10.1895
丸	-10.1896
驕	-10.1896
摇	-10.1901
播	-10.1901
㡬畨	-10.1902
舡	-10.1902
風絮	-10.1904
前調晏幾道	-10.1911
謂之	-10.1913
蘭麝	-10.1916
無寐	-10.1917
猶是	-10.1928
佳處	-10.1935
諸公	-10.194
花月	-10.1942
阿誰	-10.1947
也應	-10.1953
翠屏	-10.1958
紅綃	-10.1959
畫圖	-10.1959
的我	-10.1966
屑	-10.1967
元好問	-10.1969
斛	-10.1971
鯉	-10.1972
憶秦娥	-10.1973
三徑	-10.1973
正好	-10.1976
殷	-10.1977
闘	-10.1977
笻	-10.1978
器	-10.198
餅	-10.198
躍	-10.198
氊	-10.198
經局洗馬掌局事兼翰林院修撰加二級	-10.1981
赤壁	-10.1981
套	-10.1985
遅	-10.1986
醫	-10.1987
旖旎	-10.1988
膓	-10.1989
山林	-10.199
罵	-10.1992
氷肌	-10.1994
天台	-10.1994
此地	-10.1995
池館	-10.1997
釵頭	-10.1998
倚䦨	-10.2004
金井	-10.2006
作平	-10.2008
啼痕	-10.2011
不載	-10.2014
簫聲	-10.2014
玉肌	-10.2016
之詞	-10.2028
人語	-10.203
香雪	-10.2035
長恨	-10.2036
照人	-10.204
昨日	-10.204
日髙	-10.204
從頭	-10.204
淵	-10.2043
焚	-10.2045
知否	-10.2046
翠羽	-10.2051
十五字	-10.2052
南歌子	-10.2053
不在	-10.2054
蒹葭	-10.2057
葉夢得	-10.2057
礙	-10.2058
傑	-10.2062
稠	-10.2064
撼	-10.2064
溝	-10.2065
專	-10.2065
熈	-10.2068
春又	-10.2078
柴	-10.2086
二年	-10.209
前事	-10.2097
歌扇	-10.2105
上下	-10.2106
莫不是	-10.2112
浩	-10.2114
深夜	-10.2116
眸	-10.2118
未有	-10.212
十二字	-10.2127
多才	-10.2132
相遇	-10.214
張孝祥	-10.2142
西風吹	-10.2143
忺	-10.2144
介	-10.2145
鄧	-10.2146
馬蹄	-10.2146
碑	-10.2146
某	-10.2147
齊天樂	-10.2148
榜	-10.2148
澆	-10.2148
雙蛾	-10.2149
謹	-10.2151
丰	-10.2152
逹	-10.2154
禍	-10.2154
凝佇	-10.2154
人人	-10.2156
六句	-10.2158
未醒	-10.2161
斜照	-10.2174
一様	-10.2174
江城	-10.2177
晚來	-10.2186
舊約	-10.2189
未足	-10.2192
寳釵	-10.2214
男	-10.2216
月落	-10.2216
緫	-10.2224
兩岸	-10.2228
顧夐	-10.2228
岡	-10.2231
甕	-10.2232
姝	-10.2233
作六字	-10.2233
𦂳	-10.2234
邪	-10.2235
嗅	-10.2237
窟	-10.224
財	-10.2245
撞	-10.2249
雲屏	-10.2253
玉山	-10.2254
前段起句	-10.2265
後段第三句	-10.2267
凉生	-10.2269
漫漫	-10.2277
月中	-10.2284
金波	-10.2286
天邊	-10.2288
十六	-10.2289
何曽	-10.2295
彼	-10.23
有酒	-10.2304
晋	-10.2311
俞	-10.2316
茗	-10.2316
勁	-10.2318
妄	-10.2318
綾	-10.2318
摸魚兒	-10.2319
閲	-10.2319
叮嚀	-10.232
膝	-10.232
新恨	-10.232
歐陽	-10.232
賤	-10.232
爇	-10.2322
阮亭	-10.2326
狐	-10.2327
左右	-10.2329
角聲	-10.2332
二十四	-10.2333
簾垂	-10.2336
漏永	-10.2346
清江	-10.2349
風急	-10.2351
重疊	-10.2353
字字	-10.2353
此日	-10.2353
閨情	-10.2355
河橋	-10.236
襟袖	-10.2364
唯	-10.237
風起	-10.2372
不許	-10.2374
談笑	-10.2376
又見	-10.2377
時有	-10.2378
此篇	-10.2396
咸	-10.2397
向子諲	-10.2397
李清照	-10.2401
滿路	-10.2408
廣寒宫	-10.241
輔	-10.241
掉	-10.241
天教	-10.2412
嬉遊	-10.2413
香羅	-10.2415
苗	-10.2416
懷抱	-10.2421
年光	-10.2421
對花	-10.2422
醸	-10.2422
飄香	-10.2423
東南	-10.2425
舊歡	-10.2426
桃葉	-10.243
捲簾	-10.2431
只怕	-10.2434
别是	-10.2434
冤家	-10.2435
俺這	-10.2445
好花	-10.2447
蘭堂	-10.2456
孤村	-10.2459
斧	-10.2463
柰	-10.2469
湖光	-10.247
畫簾	-10.2471
吳子孝	-10.2476
相宜	-10.2481
來去	-10.2483
只愁	-10.2484
留取	-10.2488
峽	-10.2489
望中	-10.2493
縠	-10.2493
嫋嫋	-10.2494
鏤	-10.2495
淒凉	-10.2501
倘秀才	-10.2501
化作	-10.2502
我則見	-10.2505
羣芳	-10.2515
雨聲	-10.2521
感舊	-10.2524
燕燕	-10.2527
過盡	-10.2528
畫眉	-10.2538
堪憐	-10.2541
香滿	-10.2542
清影	-10.2549
輕風	-10.2556
檜	-10.2569
天生	-10.2576
衮	-10.2576
貞	-10.2577
像	-10.2578
鱸	-10.258
醺醺	-10.2589
綺羅	-10.2589
層樓	-10.2594
件	-10.2598
金錢	-10.2602
此即	-10.2607
殘花	-10.2608
一塲	-10.2609
千尺	-10.2611
玉露	-10.2612
曲名	-10.2612
人未	-10.2619
隂隂	-10.2635
歡笑	-10.2635
十六字	-10.2637
華堂	-10.2639
巫	-10.264
寂寥	-10.2645
紹興	-10.2649
悲秋	-10.2652
歸夢	-10.2652
雲外	-10.2654
白蘋	-10.2655
櫓	-10.2661
人面	-10.2663
一樹	-10.2663
消瘦	-10.2664
鑿	-10.2667
愧	-10.2668
雛	-10.2669
沿	-10.267
侶	-10.267
寅	-10.267
殘粧	-10.2671
剩	-10.2673
㓕	-10.2677
茅屋	-10.2678
情多	-10.2683
殘燈	-10.2684
嚢	-10.2684
幽人	-10.2684
纏	-10.2685
團圓	-10.2685
隴頭	-10.2687
照影	-10.2694
箇人	-10.2704
梢頭	-10.2706
兒童	-10.2706
晚風	-10.2708
不負	-10.2713
千門	-10.2714
歸鴻	-10.2717
屏風	-10.2719
化工	-10.272
登樓	-10.272
竚立	-10.2724
萬古	-10.2728
中酒	-10.273
詞亦	-10.2735
画堂	-10.2737
黄鶴	-10.2738
李珣	-10.275
筍	-10.2752
楽	-10.2753
㫖	-10.2753
軰	-10.2754
釋	-10.2756
餐	-10.2757
棟	-10.276
嗚咽	-10.2761
送君	-10.2762
黑	-10.2762
髣髴	-10.2762
荘	-10.2763
搗	-10.2763
觥	-10.2764
蕭條	-10.2768
飬	-10.2771
兠	-10.2771
溪邊	-10.2772
一江	-10.2774
天風	-10.2781
清真	-10.2785
書生	-10.2786
流蘇	-10.2786
危樓	-10.2791
三十六	-10.2797
朔	-10.2803
成陣	-10.2807
酒旗	-10.2816
務	-10.2818
千樹	-10.2819
殘雪	-10.2821
老人	-10.2822
篝	-10.2823
歐	-10.2838
淡烟	-10.2842
李之儀	-10.2848
墓	-10.2849
薛	-10.285
俯	-10.2851
絆	-10.2852
誰是	-10.2853
飢	-10.2853
資	-10.2854
巨	-10.2854
錦屏	-10.2854
華胥	-10.2857
粗	-10.2858
充	-10.2858
可堪	-10.2859
相随	-10.2859
臺榭	-10.2862
私語	-10.2868
莫問	-10.2873
竹外	-10.2874
凭闌	-10.2874
也曽	-10.2877
歸舟	-10.2878
明滅	-10.2879
漢宫	-10.2888
到此	-10.2891
應難	-10.2891
和凝	-10.2895
雙調九	-10.2898
趙詞	-10.2901
暗想	-10.2901
繡被	-10.2907
好是	-10.2908
連環	-10.2908
句名	-10.2914
石孝友	-10.2917
愁緒	-10.2919
丞	-10.292
段六句	-10.2922
不記	-10.2923
飛鴻	-10.2924
遲留	-10.2925
目送	-10.2931
嬌羞	-10.2934
詞可校	-10.2936
諸家	-10.2937
殘陽	-10.2938
驀山溪	-10.2939
庶	-10.2939
彌	-10.294
粲	-10.294
且住	-10.2942
準	-10.2943
漪	-10.2943
貂裘	-10.2944
有誰知	-10.2944
縞	-10.2946
剔	-10.2947
新粧	-10.2947
嚼	-10.2947
檀板	-10.2947
星斗	-10.2949
廂	-10.295
謙	-10.295
醉後	-10.2951
集中	-10.2952
准	-10.2952
栁耆卿	-10.2953
十七字	-10.2955
集賢賔	-10.2958
糢糊	-10.296
楊妃	-10.2961
詞同惟前	-10.2962
殺人	-10.2966
武陵	-10.2967
之曰	-10.2991
倩誰	-10.3001
深閉	-10.3004
難尋	-10.3005
誰信	-10.3006
餉	-10.301
襯字	-10.3013
此詞前後段	-10.3016
靖	-10.3024
笑我	-10.3026
何處是	-10.3027
㪚	-10.3029
袁去華	-10.3031
幼	-10.3032
􁱷	-10.3034
逝	-10.3034
不為	-10.3035
醅	-10.3035
有餘	-10.3035
綘	-10.3035
懊惱	-10.3036
掲	-10.3037
壬	-10.3037
鵬	-10.3039
陡	-10.3039
廣陵	-10.304
朗	-10.3042
情味	-10.3045
與此同	-10.3046
斜倚	-10.3048
成隂	-10.3048
攀折	-10.3049
昭陽	-10.3054
少游	-10.3057
惜春	-10.3062
那里	-10.3066
不信	-10.3068
蘭橈	-10.3071
句七字	-10.3082
風塵	-10.3091
子弟	-10.3101
烟樹	-10.3102
使人	-10.3112
不歸	-10.3116
戎	-10.3117
人有	-10.312
孃	-10.3122
訝	-10.3126
屛	-10.3126
挼	-10.3127
柔情	-10.3128
不待	-10.3128
牆頭	-10.3129
小重山	-10.3131
玉纎	-10.3132
兄弟	-10.3132
貢	-10.3133
綽約	-10.3133
揭	-10.3135
邁	-10.3135
爛漫	-10.3136
僝僽	-10.3138
丞相	-10.314
朱戸	-10.314
那裡	-10.3142
浩然	-10.3143
除是	-10.3146
瓊枝	-10.3146
離思	-10.3147
可知	-10.3152
中興	-10.3154
桂花	-10.3159
塵世	-10.3161
真珠	-10.3165
雲水	-10.3166
近日	-10.3175
無此	-10.3178
暗度	-10.3182
上去	-10.3188
芳樹	-10.319
金盤	-10.3191
紅衣	-10.3209
魚龍	-10.3209
麓	-10.3219
瑞鶴仙	-10.3224
曳	-10.3224
賖	-10.3229
標格	-10.323
簿	-10.3231
這些時	-10.3237
肚	-10.3238
春深	-10.3242
芳意	-10.3243
一襟	-10.3248
夢到	-10.3251
歌罷	-10.3251
相伴	-10.3254
紅妝	-10.3254
對月	-10.326
今日箇	-10.3266
于飛	-10.3266
最是	-10.3275
杪	-10.3277
春景	-10.3281
不與	-10.3284
聲裏	-10.3285
珍珠	-10.329
人不	-10.3292
垂垂	-10.3292
韓淲	-10.3296
一身	-10.3296
細看	-10.3308
八句	-10.3309
往來	-10.331
深意	-10.3311
州人	-10.3311
目録	-10.3313
央	-10.3313
娟娟	-10.3316
鯨	-10.3316
凖	-10.3316
槳	-10.3317
縫	-10.3318
均	-10.3318
冝	-10.3319
簧	-10.3319
馭	-10.332
春宵	-10.3321
滯	-10.3323
率	-10.3324
屠	-10.3325
何曾	-10.3326
麒麟	-10.3327
銀瓶	-10.3328
人不見	-10.3333
姻縁	-10.3333
天與	-10.3336
肌膚	-10.3337
團圎	-10.334
為伊	-10.3341
佳麗	-10.3341
㸃綴	-10.3344
易老	-10.3347
一線	-10.3349
愁眉	-10.3362
倚闌	-10.3363
夜凉	-10.337
偏宜	-10.3378
如舊	-10.3388
情意	-10.3388
芳容	-10.3397
花發	-10.3398
長安道	-10.3398
段各十句	-10.3401
萊	-10.3406
丙	-10.3408
侯寘	-10.3411
汎	-10.3411
仄韻後段十一句	-10.3411
謡	-10.3411
亮	-10.3414
顛倒	-10.3414
幽獨	-10.3416
己	-10.3416
飾	-10.3417
舊愁	-10.3417
露濕	-10.3421
如夢令	-10.3423
中書	-10.3426
雲收	-10.3436
以備	-10.3436
陽䑓	-10.3446
還似	-10.3451
古來	-10.3455
連雲	-10.3464
未歸	-10.3469
鸞鏡	-10.3469
十句	-10.3472
為他	-10.3476
不老	-10.3476
後段第四句	-10.348
羅衫	-10.3481
何年	-10.3482
魂消	-10.3482
大家	-10.3483
問誰	-10.3496
尊酒	-10.35
閩	-10.3501
天真	-10.3502
不過	-10.3507
而不	-10.3507
馮延已	-10.3507
曵	-10.3507
跋	-10.3508
耗	-10.3509
那時	-10.3511
老來	-10.3511
頽	-10.3512
宫殿	-10.3513
巒	-10.3515
幻	-10.3515
相送	-10.3516
姑射	-10.3516
勇	-10.3517
香腮	-10.3518
故不	-10.3519
軃	-10.3521
秋雨	-10.3525
平安	-10.3527
敗葉	-10.3531
囬首	-10.3533
纖手	-10.3534
怎得	-10.3534
孤另	-10.3538
魂銷	-10.3539
金鴨	-10.3549
金杯	-10.3551
一種	-10.3552
莫放	-10.3554
踈狂	-10.3556
勸君	-10.3561
周郎	-10.3565
半掩	-10.3565
元夕	-10.3566
第七句	-10.3575
珠翠	-10.3577
碧玉	-10.3581
向誰	-10.3586
一盃	-10.3591
沽	-10.3598
三弄	-10.36
圖畫	-10.36
侍兒	-10.3603
美成	-10.3603
之後	-10.3603
甞	-10.3604
彤	-10.3605
甃	-10.3606
擇	-10.3607
擢	-10.3609
逈	-10.361
葉底	-10.3612
煮	-10.3612
鬢雲	-10.3617
狼	-10.3617
濃香	-10.3617
垂虹	-10.3618
莫待	-10.3618
傅粉	-10.3626
也麽哥	-10.3628
南唐	-10.3637
望江南	-10.3638
雙調四十	-10.3644
不相	-10.3646
烹	-10.3647
來往	-10.365
綠隂	-10.365
風度	-10.366
栁外	-10.3661
九重	-10.3667
紅雨	-10.3669
沙鷗	-10.3673
東凨	-10.3683
誰似	-10.3683
春曉	-10.3684
梅溪	-10.3685
愁來	-10.3686
髙處	-10.3691
正與此同	-10.3691
近來	-10.3698
頃	-10.3702
埃	-10.3703
肻	-10.3703
姜夔	-10.3703
曽覿	-10.3704
楫	-10.3704
犬	-10.3705
通用	-10.3706
餘寒	-10.3708
龍山	-10.3708
林下	-10.3709
蒸	-10.3709
醜奴兒	-10.371
斾	-10.3711
柄	-10.3711
項	-10.3715
銀缸	-10.3716
楚江	-10.3717
青絲	-10.3718
更漏	-10.3719
春来	-10.3724
最好	-10.3724
受用	-10.3725
紫陌	-10.3726
方寸	-10.3727
金爐	-10.3737
妙舞	-10.3737
春在	-10.3741
春到	-10.3742
栁枝	-10.3748
烏衣	-10.3748
前調歐陽修	-10.375
作五字	-10.3752
乳燕	-10.3753
萋萋	-10.3753
太白	-10.3755
字子	-10.3761
秋意	-10.3764
行行	-10.3768
從教	-10.3769
南園	-10.3771
庭户	-10.3788
飛雪	-10.3788
此夜	-10.379
舊譜	-10.3792
寒生	-10.3799
迅	-10.3803
歟	-10.3804
末句	-10.3805
横波	-10.3806
擘	-10.3807
肆	-10.3809
瀟洒	-10.3811
風入松	-10.3813
啟	-10.3814
幾畨	-10.3816
膠	-10.3817
黄鶯	-10.3817
􁀙	-10.3818
炙	-10.3818
城頭	-10.3818
祿	-10.3818
香濃	-10.3821
寒輕	-10.3821
漬	-10.3823
單衣	-10.3826
前歡	-10.3831
開元	-10.3831
流落	-10.3847
殘春	-10.3848
沉水	-10.3849
来到	-10.385
十七	-10.3856
徽	-10.3856
直到	-10.3858
半夜	-10.3858
無意	-10.3859
栁色	-10.3861
空有	-10.3863
應有	-10.3868
知我	-10.3872
比前	-10.3873
不減	-10.3876
雲鬢	-10.3876
占斷	-10.3878
丹桂	-10.3879
揺落	-10.3889
苕	-10.3895
茫	-10.3896
証	-10.3896
裹	-10.3901
疉	-10.3903
又早	-10.3904
趙以夫	-10.3906
鵞	-10.3908
暁	-10.3909
漸老	-10.3909
碧梧	-10.3909
曠	-10.391
涴	-10.3912
阮郎歸	-10.3912
閒却	-10.3912
股	-10.3915
凄涼	-10.3915
春歸去	-10.3915
警	-10.3916
勲	-10.3917
慇懃	-10.3917
端正好	-10.3921
三疊	-10.3922
舟中	-10.3922
頑	-10.3923
長嘯	-10.3927
紅梅	-10.3929
南飛	-10.3931
瑤臺	-10.3934
白鷗	-10.3939
諸詞	-10.3939
弄影	-10.3947
相映	-10.3952
青雲	-10.3953
金殿	-10.3955
纎腰	-10.3957
離了	-10.3957
雙眉	-10.3963
山前	-10.3965
香冷	-10.3965
同醉	-10.3967
兩仄韻	-10.3972
眉尖	-10.3976
行處	-10.3983
珠箔	-10.3983
雙鬢	-10.3985
堦前	-10.3988
淚濕	-10.3991
踈影	-10.3999
淚滴	-10.3999
新凉	-10.4
曙	-10.4002
倚欄	-10.4003
暮天	-10.4003
坐中	-10.4008
鱠	-10.4009
霑	-10.4011
針線	-10.4012
戒	-10.4017
逓	-10.4017
叩	-10.4017
丁寧	-10.4019
不由人	-10.4021
硬	-10.4023
椘	-10.4024
萬斛	-10.4026
斷送	-10.4027
華髪	-10.4033
不押韻	-10.4034
徙	-10.4039
天下樂	-10.4041
添字	-10.4043
山隂	-10.4044
將軍	-10.4045
以此	-10.4045
此生	-10.4047
薄命	-10.4049
一望	-10.405
風物	-10.4052
却是	-10.4055
衣冠	-10.4056
西施	-10.4056
春晩	-10.4061
輕衫	-10.4062
空山	-10.4062
蘭亭	-10.4075
一樽	-10.4076
段十一句	-10.4079
秦淮	-10.4081
清波	-10.4082
眼底	-10.4089
六么	-10.4091
傍人	-10.4092
三四	-10.4095
愁多	-10.4101
歐陽炯	-10.4107
琅玕	-10.4107
歸心	-10.411
伸	-10.4111
蓴	-10.4111
艤	-10.4114
防	-10.4117
繋	-10.4117
慚	-10.4117
紅綉鞋	-10.412
㝠	-10.412
片帆	-10.4122
幽怨	-10.4125
亦不	-10.413
混江龍	-10.4131
露滴	-10.4133
朱唇	-10.4134
得勝令	-10.4137
疎疎	-10.414
閉門	-10.4144
那裏	-10.4144
縱横	-10.4151
一色	-10.4151
于此	-10.4152
楚山	-10.4152
段七句	-10.416
人也	-10.4161
秋來	-10.4161
嘯餘	-10.4161
者也	-10.4162
蘇小	-10.4167
七言	-10.4173
尋春	-10.4176
簾鈎	-10.4181
夜䦨	-10.4181
於此	-10.4185
雕梁	-10.4187
紅蓼	-10.419
劉基	-10.4191
眉頭	-10.4192
秋容	-10.4193
三百	-10.4194
間阻	-10.4194
僅	-10.4197
各自	-10.4198
㡬箇	-10.4199
歸後	-10.4201
渡江	-10.4201
博山	-10.4203
吸	-10.4205
芳塵	-10.4206
身世	-10.4207
恍	-10.4209
釵横	-10.421
雲飛	-10.4211
兩鬢	-10.4211
疏	-10.4215
段各五句	-10.4217
紅燭	-10.4218
儔	-10.4218
綬	-10.4219
晝長	-10.422
倫	-10.422
歌者	-10.4221
紺	-10.4222
莎	-10.4223
繚繞	-10.4224
奚	-10.4224
呆	-10.4225
錦綉	-10.4226
往往	-10.4227
糝	-10.4227
駒	-10.4228
離騷	-10.4229
更無	-10.4229
無消息	-10.423
群	-10.4231
三臺	-10.4233
九十九字	-10.4238
難得	-10.4238
甘州	-10.4242
須知	-10.4247
題情	-10.4247
珠淚	-10.4249
草色	-10.4251
玉漏	-10.4252
歡樂	-10.4253
同歡	-10.4254
休休	-10.4258
痩損	-10.4263
展轉	-10.4269
橈	-10.4273
花草	-10.4274
人來	-10.4275
衣裳	-10.428
驚回	-10.4286
金盃	-10.4291
前度	-10.4293
暮景	-10.4298
者如	-10.4307
倚闌干	-10.431
廷	-10.4312
倅	-10.4315
照水	-10.4318
倉	-10.4319
域	-10.4321
除非	-10.4322
創	-10.4323
猩	-10.4324
春閨	-10.4325
剖	-10.4326
辜	-10.4329
偃	-10.433
廵	-10.4331
寰	-10.4333
昻	-10.4336
鴛衾	-10.4336
惶	-10.4338
紅淚	-10.4341
桒	-10.4343
后庭花	-10.4347
是誰	-10.4348
疎狂	-10.4349
沾衣	-10.435
斷續	-10.4356
二煞	-10.4362
走馬	-10.4365
游絲	-10.4366
我這	-10.4366
與我	-10.4374
小異	-10.4376
長門	-10.4377
勾引	-10.4384
鼇	-10.4392
字亦	-10.44
音塵	-10.4405
等閑	-10.441
送客	-10.4412
填詞	-10.4414
郎中	-10.4417
亦名	-10.4418
戈	-10.4424
遜	-10.4424
侍郎	-10.4426
冥	-10.4426
馨	-10.4428
烏夜啼	-10.443
擡	-10.443
賣花聲	-10.4431
預	-10.4431
徴	-10.4431
詞體	-10.4433
綽	-10.4433
純	-10.4433
花朝	-10.4433
歴歴	-10.4433
衙	-10.4433
無那	-10.4434
醺	-10.4435
滋	-10.4435
夜色	-10.4439
次周	-10.444
西去	-10.4441
听	-10.4443
你箇	-10.4444
無由	-10.4444
無盡	-10.4445
情人	-10.4446
殘夢	-10.445
早梅	-10.445
此身	-10.4453
飛入	-10.4458
惜别	-10.446
怎不	-10.4462
孤館	-10.4465
兩字	-10.4466
臺上	-10.447
定格	-10.447
一團	-10.4473
俱作	-10.4474
酒病	-10.4474
倚遍	-10.4479
欲寄	-10.4489
黄葉	-10.4497
鰲	-10.4503
三尺	-10.4506
無路	-10.4512
誰憐	-10.4512
可喜	-10.4513
如雲	-10.4517
山頭	-10.4521
借問	-10.4524
翠竹	-10.4525
諡文	-10.453
倒影	-10.453
迢遞	-10.4534
函	-10.4537
妥	-10.4538
燃	-10.4539
姜䕫	-10.4539
椽	-10.4539
㴱	-10.454
未得	-10.4541
諳	-10.4541
誕	-10.4542
基	-10.4542
淋漓	-10.4543
研	-10.4544
婢	-10.4545
莫把	-10.4546
定風波	-10.4546
行香子	-10.4547
完	-10.4547
也有	-10.4549
玉釵	-10.4555
亦可	-10.4557
一㑹	-10.4561
浙	-10.4562
利名	-10.4562
新緑	-10.4564
閨怨	-10.4564
瓊瑶	-10.4565
這的是	-10.4573
恩愛	-10.4575
沈醉	-10.4576
紅豆	-10.4577
珍重	-10.4579
雨洗	-10.4585
淹留	-10.4587
黄機	-10.4588
有此	-10.4597
空翠	-10.4607
氷雪	-10.4607
雲深	-10.461
雨細	-10.4612
媛	-10.4617
閑愁	-10.462
則是	-10.4625
胸中	-10.4631
緜	-10.4635
煗	-10.4642
冤	-10.4644
謁	-10.4645
驂	-10.4646
榖	-10.4647
鮑	-10.4648
纖纖	-10.4649
朱樓	-10.4649
鸂鶒	-10.4651
驢	-10.4652
敞	-10.4653
苕溪	-10.4654
㕠	-10.4657
淡煙	-10.4658
京師	-10.4658
享	-10.4659
清和	-10.4659
煙霞	-10.466
寄生草	-10.4665
喜孜孜	-10.4666
聒	-10.4668
謫仙	-10.467
誰識	-10.4673
點點	-10.4674
歡娱	-10.468
兩處	-10.4685
金樽	-10.4685
相連	-10.4686
葉葉	-10.4687
羅帕	-10.4689
竒絶	-10.469
詞選	-10.469
向晩	-10.469
金鞍	-10.4692
城南	-10.4694
自憐	-10.4694
光陰	-10.4696
紅蓮	-10.4697
結子	-10.4699
後庭花	-10.4703
見説	-10.4705
人似	-10.4707
水面	-10.4707
玉笛	-10.4709
香飄	-10.4711
一見	-10.4713
舞袖	-10.4715
家家	-10.4719
誰知道	-10.4727
整齊	-10.4733
嬌紅	-10.4733
拾翠	-10.4735
晩風	-10.4739
濁	-10.4743
鬧	-10.4746
飄蕩	-10.4748
低垂	-10.4749
驀	-10.475
畝	-10.4751
遐	-10.4754
褰	-10.4754
穆	-10.4755
鵠	-10.4755
菩薩鬘	-10.4755
稼	-10.4756
宋媛	-10.4756
拌	-10.4757
張泌	-10.4757
襲	-10.4758
三生	-10.4759
吾廬	-10.4759
如晝	-10.476
羇	-10.476
抛擲	-10.476
芸	-10.476
悠揚	-10.4761
刪	-10.4762
紫燕	-10.4763
花陰	-10.4764
毒	-10.4767
卦	-10.4768
未盡	-10.4769
小詞	-10.4773
其二	-10.4775
笙簫	-10.4778
枕簟	-10.4779
渡口	-10.4781
翠幙	-10.4781
細草	-10.4782
與誰同	-10.4785
羣仙	-10.4788
行色	-10.479
花氣	-10.4791
環珮	-10.4791
嵗華	-10.4793
上林	-10.4794
和月	-10.4795
醉眠	-10.4802
詞也	-10.4805
欲暮	-10.4806
體也	-10.4812
東園	-10.4813
櫻	-10.4815
河傳	-10.482
雨晴	-10.4829
有箇	-10.483
君家	-10.4834
花時	-10.4836
酒杯	-10.4838
豈不	-10.4838
夜闌	-10.4841
相倚	-10.4842
時見	-10.4843
霏霏	-10.4847
目錄	-10.4854
閱	-10.4857
萬年	-10.4861
幢	-10.4862
荔	-10.4863
其所	-10.4865
偉	-10.4868
爭似	-10.4869
酩酊	-10.487
或云	-10.4871
浩蕩	-10.4871
察	-10.4871
恭	-10.4874
紅顔	-10.4874
聮	-10.4875
譽	-10.4876
波光	-10.4876
消受	-10.4877
該	-10.4878
雙槳	-10.4879
皓齒	-10.488
和羮	-10.4881
疼	-10.4885
莫道	-10.4886
棃	-10.4888
何郎	-10.4889
駐馬聴	-10.489
紅紫	-10.4896
曉寒	-10.4897
元人	-10.4898
姑蘇	-10.4898
鳳樓	-10.4899
百般	-10.4905
輕輕	-10.4906
月轉	-10.4907
隂晴	-10.4907
霎時	-10.4911
滴滴	-10.4912
春工	-10.4914
唯有	-10.4914
鵝	-10.4918
一百四字	-10.4919
中年	-10.4922
輕隂	-10.4923
故鄉	-10.4923
相隨	-10.4927
秀色	-10.4928
短亭	-10.4932
遥想	-10.4932
爭奈	-10.4934
青鳥	-10.4936
作七字	-10.4939
醉太平	-10.4944
芳徑	-10.4953
甚處	-10.4961
啼鶯	-10.4965
相催	-10.4968
模	-10.4969
紅藥	-10.497
或曰	-10.497
今從	-10.497
詞前段	-10.4972
殆	-10.4973
松江	-10.4973
平湖	-10.4975
炬	-10.4976
蟠	-10.4977
汲	-10.4977
迢逓	-10.4978
聨	-10.4978
溢	-10.4978
緯	-10.4979
讓	-10.4979
普天樂	-10.4979
翳	-10.498
𣺌𣺌	-10.498
菖蒲	-10.4982
王奕清奉㫖校刋	-10.4985
廉	-10.4985
霜月	-10.4986
羅幙	-10.4986
皆變格也	-10.4988
洛浦	-10.4991
花間集	-10.4993
烏紗	-10.4993
欽	-10.4994
江邊	-10.4995
闗河	-10.4995
琴心	-10.4995
乗興	-10.4997
玻璃	-10.4997
我這里	-10.5003
向來	-10.5009
整頓	-10.501
花香	-10.5011
東城	-10.5011
驚覺	-10.5012
薫風	-10.5012
吹落	-10.5015
飄泊	-10.5024
輕别	-10.5027
葉落	-10.5028
五言	-10.5029
才郎	-10.5031
一箇箇	-10.5032
取次	-10.5034
作此	-10.5034
潮生	-10.5036
填者	-10.5036
孤燈	-10.5041
小庭	-10.5042
七仄韻	-10.5045
前段第	-10.5051
次句	-10.5062
前詞	-10.5064
為人	-10.5064
清霜	-10.5069
逺水	-10.5072
舊刻	-10.5081
半空	-10.5087
飛下	-10.5089
飛雲	-10.5089
嫣然	-10.5089
芒	-10.5091
椿	-10.5093
癸	-10.5094
潮平	-10.5095
芙蕖	-10.5095
淳	-10.5095
彊	-10.5095
垣	-10.5098
鍼	-10.5099
邵	-10.51
揣	-10.51
消痩	-10.5102
丹楓	-10.5106
荔枝	-10.5106
一篇	-10.5108
温存	-10.5112
氷輪	-10.5113
知是	-10.5113
相照	-10.5116
夫妻	-10.5117
朱絃	-10.5121
烏雲	-10.5121
宿酒	-10.5121
可謂	-10.5124
古道	-10.5132
杜鵑	-10.5134
月淡	-10.5135
詞注	-10.5136
千鍾	-10.5137
五陵	-10.5139
将軍	-10.5139
行路	-10.5139
之間	-10.5142
獨占	-10.5142
從他	-10.5145
偶然	-10.5146
㣲雨	-10.5146
烟霞	-10.5154
好處	-10.5155
背人	-10.5155
全無	-10.5159
何况	-10.5162
冷淡	-10.5162
天髙	-10.5165
小舟	-10.5165
此則	-10.5169
江西	-10.5169
燕飛	-10.5173
着這	-10.5175
本意	-10.5175
春早	-10.5181
四十六字	-10.5184
酒䦨	-10.5185
相思病	-10.5185
笛聲	-10.519
都在	-10.5191
新添	-10.5196
沸	-10.5198
夢繞	-10.5198
女兒	-10.5198
邯鄲	-10.5203
棗	-10.5206
玉京	-10.5206
一晌	-10.5207
循	-10.5207
小字	-10.5207
裀	-10.521
生寒	-10.521
眼波	-10.5211
虬	-10.5211
粉淚	-10.5211
奸	-10.5212
婚	-10.5213
征鞍	-10.5214
留客	-10.5217
楓葉	-10.5218
風送	-10.5221
嘴	-10.5221
簌簌	-10.5222
東風裏	-10.5223
吳山	-10.5225
将那	-10.5227
碧桃	-10.5228
一分	-10.5229
夢囘	-10.5232
木蘭花	-10.5236
見他	-10.5237
不受	-10.524
花深	-10.524
鬢影	-10.5242
寐	-10.5248
暗塵	-10.5255
得似	-10.5256
四十九字	-10.5257
減一字	-10.5261
朱簾	-10.5262
立春	-10.5268
家住	-10.5276
莫遣	-10.5277
應笑	-10.528
亭上	-10.5284
紅雲	-10.5284
桃杏	-10.5286
髙低	-10.5288
成雙	-10.5293
曉日	-10.5293
水上	-10.5295
花鈿	-10.5296
蜂兒	-10.5299
女子	-10.5302
刋	-10.531
啼紅	-10.5312
别時	-10.5316
綸巾	-10.5316
平地	-10.5317
小池	-10.5318
他日	-10.5318
應念	-10.5318
清尊	-10.5319
畏	-10.5321
抑	-10.5321
鎭	-10.5322
嵐	-10.5323
匳	-10.5325
辱	-10.5325
扄	-10.5326
詞綜	-10.5326
歌吹	-10.5326
自在	-10.5327
畫欄	-10.5327
朱敦儒	-10.5327
倡	-10.5328
誰為	-10.5328
濫	-10.5328
蹴	-10.5329
塊	-10.533
怜	-10.533
栢	-10.5332
靴	-10.5334
朱扉	-10.5334
巍巍	-10.5335
綱	-10.5336
粉蝶兒	-10.534
龎	-10.534
如織	-10.5341
華髮	-10.5341
謊	-10.5341
絲竹	-10.5341
逢迎	-10.5341
望眼	-10.5344
油葫蘆	-10.5344
仔細	-10.5346
一㑹家	-10.5348
檀郎	-10.5348
未許	-10.5352
五十二字	-10.5354
繡幃	-10.5355
三煞	-10.5367
暮寒	-10.5367
飄然	-10.5369
如醉	-10.5373
吳興	-10.5379
占得	-10.5381
君恩	-10.539
紅英	-10.5395
昇	-10.5396
春雲	-10.5397
聲中	-10.5397
皆同	-10.5405
雲氣	-10.5406
還有	-10.5408
故山	-10.5412
霜天	-10.5415
前調辛棄疾	-10.542
盡是	-10.5422
獨坐	-10.5425
平章	-10.5426
曽見	-10.543
四十八字	-10.543
在否	-10.5433
東陽	-10.5433
伎	-10.5433
狂歌	-10.5435
囉	-10.5436
稽	-10.5436
相似	-10.5436
先到	-10.5437
羌笛	-10.5438
罥	-10.544
耿	-10.544
蹊	-10.5442
憲	-10.5443
膺	-10.5443
滄波	-10.5444
伊家	-10.5445
遽	-10.5445
割	-10.5445
邂逅	-10.5445
雙調六	-10.5447
匝	-10.5447
瞞	-10.5447
李易安	-10.5448
篩	-10.5449
一一	-10.5451
離緒	-10.5457
陳詞	-10.5461
消盡	-10.5461
關情	-10.5465
銀箏	-10.5465
銀鈎	-10.5466
湖邊	-10.5468
嬌滴滴	-10.5469
繫馬	-10.5472
信息	-10.5479
絶妙	-10.548
星河	-10.5484
香醪	-10.5485
㱕去	-10.5497
從今後	-10.5498
似雪	-10.5503
相從	-10.5506
鸞鳳	-10.551
仙翁	-10.5512
一世	-10.5513
五十四字	-10.5515
明媚	-10.5515
堂前	-10.552
沉酔	-10.5521
無一	-10.5529
山翁	-10.5531
換仄	-10.5534
兩眉	-10.554
自笑	-10.5553
一百三字	-10.5554
段各九句	-10.5554
後叚	-10.5556
瘴	-10.5557
洗盡	-10.5557
俄	-10.5557
薌林	-10.5558
馮延巳	-10.5559
暄	-10.5559
畫舸	-10.5559
櫂	-10.5561
黄昇	-10.5562
確	-10.5562
祭	-10.5562
震	-10.5564
悠然	-10.5565
滄洲	-10.5565
岑寂	-10.5565
秋娘	-10.5566
昨宵	-10.5567
非是	-10.5567
與人	-10.5569
臨岐	-10.5569
子規	-10.557
活計	-10.5572
想像	-10.5573
拏	-10.5574
驛使	-10.558
青梅	-10.5585
九十八字	-10.5586
闘鵪鶉	-10.5588
誰見	-10.5593
霜華	-10.5594
無雙	-10.5596
清泉	-10.5596
隨流水	-10.5598
平平仄	-10.56
國公	-10.5601
賞心	-10.5604
翠蛾	-10.5607
吹盡	-10.5607
不思量	-10.5613
成行	-10.5618
後主	-10.5621
閨思	-10.5624
傾國	-10.5626
芳叢	-10.5631
金鳳	-10.5634
前調蘇軾	-10.5635
醪	-10.5648
風和	-10.5651
綵雲	-10.5652
緑鬢	-10.5654
帕	-10.5656
後段第一句	-10.5656
浮名	-10.566
蛟	-10.5667
全不	-10.5668
輯	-10.5671
西池	-10.5673
紹	-10.5674
六首	-10.5675
汪莘	-10.5675
眼兒媚	-10.5677
諡	-10.5678
輕雲	-10.5679
漂	-10.5679
式	-10.568
黛眉	-10.568
窣	-10.568
孰	-10.5681
巫峽	-10.5683
黎	-10.5683
坼	-10.5684
渉	-10.5685
詞同	-10.5686
龍涎	-10.5689
躡	-10.5692
天街	-10.5693
柳絲	-10.5694
方岳	-10.5695
梨園	-10.5696
而已	-10.5697
㡬回	-10.5697
重省	-10.5698
五十六字	-10.5702
南州	-10.5704
蒼蒼	-10.5705
絶句	-10.5706
追思	-10.5706
心中	-10.5706
翡翆	-10.5707
與誰	-10.5708
志誠	-10.571
心似	-10.5712
樂章集	-10.5714
問訊	-10.5715
置酒	-10.5719
裙腰	-10.5722
睡覺	-10.5723
正月	-10.5723
喚醒	-10.5728
其中	-10.5731
藕絲	-10.5733
西陵	-10.5733
不復	-10.5733
懷古	-10.5736
開宴	-10.5737
蟾宫	-10.5738
我亦	-10.5739
一對	-10.574
滿酌	-10.5743
見之	-10.5749
不下	-10.5752
六十字	-10.5755
日斜	-10.5757
晁詞	-10.5758
翠鬟	-10.5761
霜風	-10.5765
風流子	-10.5767
琴書	-10.5768
白首	-10.5773
驪	-10.5779
殘霞	-10.5781
朝朝	-10.5783
欲問	-10.5783
未識	-10.5784
也似	-10.5788
翩	-10.579
郎君	-10.5791
有客	-10.5793
敷	-10.5794
不用韻	-10.5794
牛嶠	-10.5796
不曾	-10.5796
辟	-10.5797
一半児	-10.58
畢	-10.58
趨	-10.5801
楊澤民	-10.5802
前程	-10.5802
薇	-10.5803
匹	-10.5804
到頭	-10.5804
菰	-10.5804
航	-10.5805
丑	-10.5805
煙草	-10.5806
愴	-10.5806
過眼	-10.5807
雲中	-10.5808
白苧	-10.5808
郵亭	-10.581
醉翁	-10.5811
塔	-10.5812
段各六句	-10.5812
刑	-10.5812
坎	-10.5812
南渡	-10.5816
罇	-10.5817
潘郎	-10.5817
劉過	-10.582
山青	-10.5821
幾處	-10.5822
已是	-10.5822
狠	-10.5825
金粟	-10.5827
長笛	-10.5829
隨分	-10.583
弄晴	-10.583
無涉	-10.5833
輕舟	-10.5835
送别	-10.5836
限	-10.5853
花上	-10.5854
醉花隂	-10.5858
分飛	-10.5859
猶帶	-10.5862
伴我	-10.5866
豐年	-10.5869
孤雲	-10.5869
重尋	-10.5876
子瞻	-10.5886
立馬	-10.5893
秀才	-10.5899
三兩	-10.5905
誰問	-10.5914
江樓	-10.5917
王謝	-10.5918
羌管	-10.5922
植	-10.5924
前題	-10.5925
歌金縷	-10.5925
可見	-10.5926
窈	-10.5927
蔽	-10.5927
挾	-10.5929
㸃絳唇	-10.593
佯	-10.5932
秘	-10.5932
絕	-10.5932
慧	-10.5933
第一體	-10.5933
清愁	-10.5934
貶	-10.5936
鋤	-10.5937
狗	-10.5937
肝	-10.5937
牌	-10.5939
滄海	-10.594
待制	-10.5941
豊	-10.5941
涎	-10.5942
皂	-10.5949
十月	-10.5951
詩書	-10.5954
漁翁	-10.5954
路杳	-10.5956
萬疊	-10.5956
少年遊	-10.5958
更深	-10.5964
少一字	-10.5966
千騎	-10.5968
相偎	-10.5979
春隂	-10.598
文字	-10.598
更好	-10.5982
池閣	-10.5985
還家	-10.5985
漸漸	-10.5986
樓中	-10.5993
水沉	-10.5999
體惟	-10.5999
所載	-10.6002
緑樹	-10.6002
小窗	-10.6004
繡閣	-10.6004
石湖	-10.6005
瓊林	-10.6006
翠眉	-10.6007
凉州	-10.601
折得	-10.6011
冷浸	-10.6016
幽歡	-10.602
雖然	-10.6022
此景	-10.6024
别首	-10.6041
又一首	-10.6043
墅	-10.6046
憎	-10.6046
殢酒	-10.6046
長在	-10.6047
酉	-10.6048
月明中	-10.6048
此花	-10.6051
偕	-10.6052
凝睇	-10.6052
宝	-10.6052
無名氏詞	-10.6054
熬	-10.6054
覻	-10.6055
八聲甘州	-10.6057
氤氲	-10.6057
葫蘆	-10.6058
蒼茫	-10.6058
蛙	-10.6061
斍	-10.6061
轂	-10.6061
猿鶴	-10.6061
塩	-10.6062
玉宇	-10.6062
凄凄	-10.6064
饑	-10.6065
古詩	-10.6068
半晌	-10.6069
爲誰	-10.6072
第二體	-10.6073
手撚	-10.6075
照眼	-10.6076
抵多少	-10.6077
流螢	-10.6078
莫愁	-10.6079
海棠花	-10.608
金釧	-10.608
喉	-10.6081
翠翹	-10.6081
華屋	-10.6085
羅巾	-10.6085
對此	-10.6086
畫梁	-10.6087
非也	-10.6088
烏絲	-10.6088
繡户	-10.6088
到底	-10.6091
玉林	-10.6092
月斜	-10.6116
皆然	-10.6116
多嬌	-10.6119
文園	-10.6119
曲水	-10.6124
中流	-10.613
夢醒	-10.6132
斚	-10.6132
常記	-10.6135
千㸃	-10.6137
醉醒	-10.6138
永日	-10.614
誰在	-10.6153
平分	-10.6159
只今	-10.6161
長調	-10.6164
毛晉	-10.6164
征衫	-10.6165
越調	-10.6165
中間	-10.6168
如洗	-10.617
瀛	-10.617
隐	-10.6172
檥	-10.6173
萬家	-10.6173
嵩	-10.6174
霖	-10.6177
騎鯨	-10.6177
堂上	-10.6178
槩	-10.6179
讌	-10.618
旣	-10.618
妹	-10.618
銅壺	-10.618
摸	-10.6181
琅	-10.6181
繇	-10.6181
紅裙	-10.6183
允	-10.6183
両	-10.6184
雨中花	-10.6184
愁悶	-10.6184
搜	-10.6184
搭	-10.6186
契	-10.6187
穴	-10.6187
感慨	-10.6187
綿綿	-10.6188
掣	-10.6189
鵲踏枝	-10.6189
浮萍	-10.6189
憨	-10.619
金猊	-10.6192
鋒	-10.6192
待要	-10.6192
斗帳	-10.6193
兩意	-10.6195
漁歌	-10.6195
鴛被	-10.62
楊桞	-10.6203
光中	-10.6203
單調二	-10.6208
榮華	-10.6208
穿花	-10.6208
深淺	-10.6209
樂章	-10.621
長吁	-10.621
騷人	-10.6213
疎簾	-10.6227
雙調五	-10.6232
凨月	-10.6232
夜来	-10.6234
可是	-10.6235
不了	-10.6237
無賴	-10.6238
樓下	-10.624
湖海	-10.6246
闗情	-10.6248
再三	-10.6249
十日	-10.6253
風動	-10.6257
天子	-10.6258
姓名	-10.6258
滿園	-10.6264
莫負	-10.6264
宫闕	-10.6267
永夜	-10.6268
吹散	-10.627
一百字	-10.6278
且莫	-10.6287
瀟瀟	-10.6288
帝城	-10.6292
髙城	-10.6292
片玉	-10.6295
醒來	-10.6295
含情	-10.6298
盧炳	-10.6298
邑	-10.6299
幡	-10.6299
嗚	-10.63
風力	-10.6302
猷	-10.6304
酹	-10.6304
繭	-10.6305
祇	-10.6306
五十一字	-10.6306
二三	-10.6306
水仙	-10.6308
黙	-10.6308
款	-10.6308
鑄	-10.6309
欽定四庫全書御定詞譜巻	-10.6309
矜	-10.631
咎	-10.6311
古今詞話	-10.6311
挨	-10.6311
人千里	-10.6312
茆	-10.6312
颼颼	-10.6312
呢喃	-10.6312
聲聲慢	-10.6313
梳洗	-10.6313
黯黯	-10.6314
擕	-10.6314
芬芳	-10.6316
玳筵	-10.6317
蕩漾	-10.632
桂子	-10.6322
羽扇	-10.6323
誰承望	-10.6323
鎗	-10.6323
在手	-10.6324
嵗嵗	-10.633
悶懨懨	-10.6331
柳絮	-10.6331
嬌小	-10.6337
翠微	-10.6342
戍	-10.6345
那些	-10.6349
宰相	-10.6356
栁隂	-10.6357
見說	-10.6358
渾如	-10.6358
可人	-10.636
野水	-10.636
驟雨	-10.6365
萬重	-10.6366
只恁	-10.6368
立盡	-10.6369
吹徹	-10.6372
吳江	-10.6376
第十句	-10.6377
無復	-10.6378
杯酒	-10.6378
想着	-10.6382
蓮花	-10.6383
自從	-10.6385
一行	-10.6386
今畨	-10.6389
湘江	-10.6395
此心	-10.6395
遥望	-10.6396
紗窗	-10.6398
春殘	-10.6399
驚飛	-10.6399
見如今	-10.6408
金鈎	-10.6412
紅爐	-10.6414
着我	-10.6416
白日	-10.6418
之意	-10.6421
佇	-10.6423
虚名	-10.6427
名園	-10.643
六朝	-10.6433
行到	-10.6433
祝英臺近	-10.6435
蓬山	-10.6436
灩	-10.6436
朩蘭花	-10.6436
餌	-10.6437
劉克莊	-10.6437
鄙	-10.6437
頌	-10.6438
康與之	-10.644
飈	-10.644
蔓	-10.644
抺	-10.644
杜牧	-10.6441
宫中	-10.6441
從来	-10.6441
張輯	-10.6442
元龍	-10.6442
勉	-10.6442
胎	-10.6443
逺近	-10.6443
拽	-10.6444
􁗠	-10.6447
悪	-10.6447
驀地	-10.6447
玉笙	-10.6447
商量	-10.6448
騰騰	-10.6448
人憔悴	-10.6449
類列	-10.6449
孤鸞	-10.6451
羅幕	-10.6454
𨳩	-10.6455
四十字	-10.6455
柔條	-10.6458
湘裙	-10.6462
鬬草	-10.6464
織女	-10.6469
曰此	-10.647
放翁	-10.6475
悲歌	-10.6475
征衣	-10.6481
在何處	-10.6488
遊蜂	-10.649
未放	-10.6495
誰敢	-10.6498
花裏	-10.6504
人皆	-10.6505
一叚	-10.6509
江海	-10.651
東去	-10.6514
舞衣	-10.6514
愛惜	-10.6519
隨人	-10.6519
可意	-10.6524
正與	-10.6524
折腰	-10.6538
香浮	-10.654
塵暗	-10.6545
涉	-10.6547
早晚	-10.655
逄	-10.6553
我欲	-10.6554
新荷	-10.6555
晴晝	-10.6556
三秋	-10.6556
幽情	-10.6557
遞	-10.6558
閬	-10.6561
討	-10.6564
鱸魚	-10.6564
茉莉	-10.6564
初見	-10.6565
隄	-10.6565
狂風	-10.6566
寒鴉	-10.6567
房櫳	-10.657
賭	-10.657
珠璣	-10.657
都無	-10.6571
箕	-10.6571
詞以	-10.6571
拱	-10.6571
小梁州	-10.6572
永遇樂	-10.6573
區區	-10.6574
慷慨	-10.6575
忘憂	-10.6578
舊游	-10.6581
清露	-10.6582
周宻	-10.6583
押韻異	-10.6585
和詞	-10.6585
相逄	-10.6587
自度曲	-10.6588
剗地	-10.6594
其實	-10.6599
羙人	-10.6599
那得	-10.6601
女伴	-10.6603
浩歌	-10.6604
自家	-10.6611
紗窓	-10.6611
別離	-10.6615
何計	-10.6615
無憂	-10.6621
江南好	-10.6622
夢雲	-10.6625
驚鴻	-10.6626
詞俱	-10.663
林泉	-10.663
雙調八	-10.6637
之所	-10.6639
爭如	-10.6642
那知	-10.6644
共誰	-10.6644
歲月	-10.6645
眉山	-10.6646
歡㑹	-10.6651
瓊樓	-10.666
黄昏後	-10.6662
中州	-10.6667
愁難	-10.667
安得	-10.6673
江流	-10.6681
花殘	-10.6686
如昨	-10.6686
不奈	-10.6687
濛	-10.6687
殘妝	-10.6688
一聲聲	-10.6688
其聲	-10.6691
以上	-10.6693
牖	-10.6696
何處去	-10.6697
聴的	-10.6699
䝉	-10.6699
致仕	-10.6702
寃	-10.6704
亥	-10.6705
胷	-10.6705
蓬島	-10.6706
斷人腸	-10.6706
逃	-10.6707
絳蠟	-10.6707
霓	-10.6707
蓬瀛	-10.6708
覇	-10.6708
歸燕	-10.6709
滄	-10.6709
庄	-10.6714
摺	-10.6714
煉	-10.6716
竹山	-10.6719
您	-10.672
天如水	-10.6725
攤破句法	-10.6726
漁舟	-10.6726
憶王孫	-10.6728
仙吕	-10.673
第三四句	-10.673
綠水	-10.6733
壽陽	-10.6737
蕭然	-10.6741
知多少	-10.6741
玉腕	-10.6742
沙頭	-10.6746
牽情	-10.6748
怎肯	-10.6749
水晶簾	-10.675
幸有	-10.6752
芳酒	-10.6754
中庭	-10.6759
甚日	-10.6761
喚取	-10.677
塵生	-10.6776
二巻	-10.6777
白酒	-10.6784
陂	-10.6785
造化	-10.6795
異按	-10.6797
羅浮	-10.6801
倚徧	-10.6803
歸計	-10.6804
前調周邦彦	-10.6807
新燕	-10.6814
雲髻	-10.6814
誰解	-10.6817
西畔	-10.6817
如雨	-10.6818
耆卿	-10.682
作此詞	-10.6821
宜春	-10.6822
影轉	-10.6828
麈	-10.6831
這般	-10.6832
湛	-10.6833
洋	-10.6835
榆錢	-10.684
蕭瑟	-10.6841
稳	-10.6842
伶	-10.6842
虗	-10.6843
複	-10.6843
啄	-10.6843
扃	-10.6845
待月	-10.6845
奢	-10.6846
範	-10.6848
低低	-10.6848
熖	-10.6852
繊	-10.6855
絃索	-10.6862
春已	-10.6862
殘雨	-10.6862
蕭郎	-10.6863
曲屏	-10.6867
美酒	-10.6869
京華	-10.6869
眉嫵	-10.6876
水逺	-10.6878
燭花	-10.6878
詞統	-10.6882
芳洲	-10.6883
驚秋	-10.6887
百歲	-10.6887
情濃	-10.6889
離索	-10.6894
青苔	-10.6899
商調	-10.6902
出門	-10.6903
之作	-10.6905
舞腰	-10.6912
不作	-10.6914
堤上	-10.6915
吹斷	-10.6919
碧山	-10.6921
欲下	-10.6925
堪惜	-10.6928
只見	-10.6932
君不見	-10.6933
清晝	-10.6938
微笑	-10.6942
液	-10.6948
花徑	-10.6958
鈞	-10.6959
壚	-10.6959
之語	-10.6961
斗酒	-10.6962
張埜	-10.6963
嶼	-10.6965
誚	-10.6965
軋	-10.6969
謔	-10.6969
杵	-10.697
匣	-10.6971
夜行船	-10.6972
括	-10.6972
賦此	-10.6973
相應	-10.6973
侑	-10.6974
涕	-10.6975
相守	-10.6976
渇	-10.6977
翰林學士	-10.6978
磬	-10.6978
閏	-10.6978
㓜	-10.6979
啞	-10.6979
佀	-10.6979
九月	-10.698
秦少游	-10.6981
翎	-10.6982
詞曰	-10.6982
醉魂	-10.6985
解連環	-10.6988
折桂令	-10.6988
哥	-10.6989
金蕉葉	-10.6989
御史	-10.699
形骸	-10.6993
閒倚	-10.6994
寳馬	-10.6996
行舟	-10.6998
詞同惟後段	-10.7002
滿頭	-10.7003
聖主	-10.7005
烏鵲	-10.7008
漸逺	-10.701
稍異	-10.7014
泛舟	-10.7017
九十七字	-10.702
荷香	-10.7021
幽徑	-10.7028
怎知	-10.7031
恁時	-10.7031
三春	-10.7032
難成	-10.7035
情難	-10.7043
怕見	-10.7043
妙手	-10.7044
無價	-10.7047
醉墨	-10.7048
武陵溪	-10.7051
離魂	-10.7056
天仙	-10.7056
春江	-10.7057
玉龍	-10.7065
雨打	-10.7067
碧樹	-10.7074
魂斷	-10.7077
万	-10.7083
一鈎	-10.7085
等謹案	-10.7086
暫時	-10.7094
鼓吹	-10.7105
白露	-10.7105
缸	-10.7107
裛	-10.7108
詩詞	-10.7109
渴	-10.7109
乏	-10.711
疆	-10.711
逆	-10.711
揀	-10.7111
朝中措	-10.7112
篋	-10.7112
霜天曉角	-10.7113
黨	-10.7113
絨	-10.7114
朧	-10.7114
瀛洲	-10.7115
必有	-10.7115
南柯	-10.7115
子規啼	-10.7116
吊	-10.7119
雨初晴	-10.712
教坊	-10.712
提舉	-10.712
北山	-10.712
灌	-10.712
无	-10.7121
寨	-10.7121
畫舫	-10.7121
悮	-10.7121
姐姐	-10.7123
自度	-10.7123
􁂼	-10.7124
瓣	-10.7124
撮	-10.7125
雲遮	-10.7125
脩竹	-10.7125
誰人	-10.7126
避暑	-10.7126
微雲	-10.7129
鸞凰	-10.7129
塞鴻	-10.713
坑	-10.7131
别作	-10.7133
因他	-10.7134
七句	-10.7136
初夏	-10.7141
有一日	-10.7142
五十八字	-10.7144
石榴花	-10.7144
寒玉	-10.7145
醉時	-10.7146
再休	-10.7148
小春	-10.715
蘭房	-10.7154
傳語	-10.7155
好似	-10.7157
費盡	-10.7159
不宜	-10.7161
玉手	-10.7162
就中	-10.7163
酔春風	-10.7164
有限	-10.7168
水茫茫	-10.7169
井梧	-10.7174
寒蛩	-10.7176
上苑	-10.7178
清閑	-10.7181
疎籬	-10.7182
連理	-10.7185
高唐	-10.7187
關河	-10.7194
能勾	-10.7196
松風	-10.7198
銷凝	-10.72
知心	-10.7202
凝情	-10.7207
後段第五句	-10.7208
不耐	-10.7208
送人	-10.721
似舊	-10.7214
年紀	-10.7214
寒燈	-10.7215
風韻	-10.7219
如故	-10.722
酒闌	-10.7227
晚来	-10.7232
俱用	-10.7239
風生	-10.7241
唐詞	-10.7242
釧	-10.7244
綸	-10.7245
成空	-10.7246
楚雲	-10.7247
海山	-10.7247
秋江	-10.7248
桂枝香	-10.7252
歐陽永叔	-10.7252
塡	-10.7252
酷	-10.7253
狼藉	-10.7253
樂府雅詞	-10.7253
属	-10.7253
换	-10.7254
阜	-10.7254
槽	-10.7255
泠泠	-10.7257
東閣	-10.7257
圭	-10.7257
堕	-10.7257
離亭	-10.7257
未嘗	-10.7257
度曲	-10.7258
狼籍	-10.7258
淅淅	-10.7259
濵	-10.7259
椀	-10.726
字數	-10.726
料得	-10.7261
竭	-10.7261
迤逗	-10.7264
離歌	-10.7267
五色	-10.7273
落霞	-10.7277
未央	-10.7279
江左	-10.728
得之	-10.728
刺刺	-10.7282
梳粧	-10.7284
▁此詞	-10.7284
盡成	-10.7284
黯然	-10.7285
驚破	-10.7289
拘束	-10.7291
豪氣	-10.7292
傾杯	-10.7295
這一	-10.7295
夀陽	-10.7296
歲華	-10.7297
翠雲	-10.7298
相向	-10.73
詞前段起句	-10.7302
政和	-10.7303
雙調七	-10.7306
夏日	-10.7309
前生	-10.731
笑指	-10.7319
香殘	-10.7323
不出	-10.7326
曲終	-10.7326
閒人	-10.7328
雨歇	-10.7328
四面	-10.733
情深	-10.7338
多一	-10.7342
煞尾	-10.7349
生平	-10.735
君莫	-10.7351
未肯	-10.7354
宫調	-10.7355
翻成	-10.7356
成都	-10.7359
可也	-10.7361
尋花	-10.7365
飲散	-10.7366
天長	-10.7366
空堦	-10.7368
天意	-10.7371
贏	-10.7371
尾句	-10.7371
句五字	-10.7375
膚	-10.7377
為問	-10.738
雙調一	-10.738
小立	-10.7386
庸	-10.7387
岑	-10.7392
十九字	-10.7394
飇	-10.7394
樓髙	-10.7394
戊	-10.7395
鄕	-10.7395
臆	-10.7396
祁	-10.7396
禾	-10.7397
煥	-10.7397
樂章集注	-10.74
闌珊	-10.7401
奕	-10.7401
句六字	-10.7401
簔	-10.7401
丹砂	-10.7402
剥	-10.7403
峻	-10.7403
醉落魄	-10.7406
拳	-10.7407
融融	-10.7407
憔	-10.7407
蕤	-10.7408
川撥棹	-10.7409
渭城	-10.741
曉色	-10.7412
鈿車	-10.7413
収拾	-10.7413
斬	-10.7413
爽氣	-10.7413
㱕来	-10.7415
連宵	-10.7416
雨霽	-10.7419
那其間	-10.7419
忘機	-10.742
不言	-10.7422
字為	-10.7422
亦是	-10.7422
麗日	-10.7423
黃花	-10.7429
娜	-10.743
翠隂	-10.743
分外	-10.7431
譜圖	-10.7432
此詞前段	-10.7436
腰圍	-10.7436
長堤	-10.7438
雙溪	-10.7439
令人	-10.7441
縷金	-10.7441
臨安	-10.7444
西凨	-10.7445
玉女	-10.7446
東皇	-10.7446
墻頭	-10.745
金碧	-10.745
疎星	-10.7451
緑暗	-10.7452
一百一字	-10.7453
吳詞	-10.7454
酒邊	-10.7454
那堪更	-10.7455
拍手	-10.7455
料應	-10.7456
隨意	-10.7456
悲歡	-10.7458
花邊	-10.7464
多應	-10.7467
詞二首	-10.7471
碧紗	-10.7474
璧月	-10.7484
春去也	-10.7484
作四字	-10.7486
羅帳	-10.7487
傳書	-10.7488
遇着	-10.7491
春遊	-10.7492
青燈	-10.7495
向曉	-10.7496
青子	-10.7498
能幾	-10.7505
常是	-10.7506
訊	-10.7509
一抹	-10.7511
陣陣	-10.7511
凉月	-10.7514
衾寒	-10.7515
鬢絲	-10.7516
横空	-10.7517
鬢邊	-10.7525
珂	-10.7529
葛勝仲	-10.753
仇	-10.7533
緑雲	-10.7537
暴	-10.7537
着箇	-10.7538
相呼	-10.7539
秉	-10.754
石榴	-10.754
譏	-10.754
張榘	-10.7541
掀	-10.7543
舩	-10.7544
卉	-10.7545
膾	-10.7546
籹	-10.7546
直學士	-10.7548
䦨珊	-10.7548
秉燭	-10.7549
蹇	-10.7551
征帆	-10.7552
門巷	-10.7552
一舸	-10.7554
喬木	-10.7555
嚮	-10.7556
端午	-10.7559
㢤	-10.7559
丢	-10.756
一百二字	-10.7562
彩筆	-10.7564
更漏子	-10.7568
我将這	-10.7574
詞二巻	-10.7575
換韻	-10.7576
驚心	-10.7577
欄杆	-10.7583
亂雲	-10.7584
釣魚	-10.7585
似這般	-10.7587
征塵	-10.7588
亦然	-10.7589
添一	-10.759
青霄	-10.7592
梧葉	-10.7592
倦遊	-10.7593
前調晏殊	-10.7594
粉牆	-10.76
寒夜	-10.7603
間有	-10.7603
遊冶	-10.7604
滿身	-10.7606
賦詩	-10.761
又曰	-10.7613
開遍	-10.7614
頻頻	-10.7615
十萬	-10.762
莫辭	-10.7622
白馬	-10.7629
佳景	-10.7632
愁思	-10.7632
長沙	-10.7641
紗囱	-10.7643
用去聲	-10.7644
之云	-10.7648
減字	-10.765
如絲	-10.7651
相思淚	-10.7655
長橋	-10.7655
歌喉	-10.7656
詞同惟前段	-10.7663
野草	-10.7668
因念	-10.7678
一家	-10.7679
減字木蘭花	-10.768
一二	-10.768
挹	-10.768
兩地	-10.7681
旬	-10.7681
空江	-10.7684
燭影揺紅	-10.7684
昵	-10.7684
凌雲	-10.7687
史逹祖	-10.7687
功成	-10.7688
憤	-10.7688
協	-10.7688
搬	-10.7689
小窓	-10.7689
着意	-10.769
劃	-10.769
琢	-10.7692
紆	-10.7692
多押一韻	-10.7692
相逐	-10.7692
芷	-10.7692
璚	-10.7693
万俟雅言	-10.7693
瞥	-10.7693
箱	-10.7694
滚	-10.7694
珮環	-10.7695
以入作平	-10.7695
攔	-10.7695
勘	-10.7696
霰	-10.7696
茱茰	-10.7696
其後	-10.7697
洽	-10.7698
簌	-10.7699
南來	-10.77
状	-10.7702
冗	-10.7702
日暖	-10.7704
仙音	-10.7704
因循	-10.7705
龍蛇	-10.7707
醉倚	-10.7709
聖藥王	-10.7709
来的	-10.771
身軀	-10.771
瑞雪	-10.771
皱	-10.7711
辛苦	-10.7713
五十五字	-10.7713
去了	-10.7716
桞永	-10.7716
紅橋	-10.772
都做了	-10.7722
桂影	-10.7722
輕羅	-10.7722
㡬多	-10.7728
西北	-10.773
新秋	-10.7731
不知何	-10.7736
紫雲	-10.7736
許多愁	-10.7739
衣上	-10.7741
急雨	-10.7748
望處	-10.7748
水仙子	-10.775
重城	-10.775
風定	-10.775
滿袖	-10.7754
憶得	-10.7757
無邊	-10.7759
曽記	-10.7763
翠䄂	-10.7765
飛来	-10.7765
玉纖	-10.7768
三聲	-10.777
佳氣	-10.777
江亭	-10.7772
又恐	-10.7776
元夜	-10.7777
聽得	-10.7777
雪中	-10.7777
綠鬢	-10.7777
海燕	-10.7779
千花	-10.7781
離腸	-10.7785
一疊韻	-10.7786
怎當	-10.7791
且休	-10.7793
幾囘	-10.7798
想起	-10.7801
累官	-10.7803
捻	-10.7807
寒光	-10.7813
江村	-10.7815
籬落	-10.7815
不教	-10.7818
規	-10.782
与	-10.7822
楊慎	-10.7824
燈下	-10.7828
濱	-10.7831
逋	-10.7831
豫章	-10.7833
未刻	-10.7833
鷁	-10.7834
攲	-10.7834
磧	-10.7835
窠	-10.7837
春光好	-10.7838
梳掠	-10.7838
嗣	-10.7839
晏叔原	-10.7839
獵	-10.784
貨	-10.7841
狎	-10.7841
啼鴂	-10.7841
無尋處	-10.7841
春晝	-10.7842
襖	-10.7842
俯仰	-10.7842
煑	-10.7842
朝天	-10.7842
挺	-10.7843
昧	-10.7844
耍孩兒	-10.7846
茅舍	-10.7848
簾半捲	-10.7848
浮花	-10.7848
孩	-10.7849
干戈	-10.785
落花飛絮	-10.785
将這	-10.7851
雕欄	-10.7855
鬭草	-10.7857
栁詞	-10.7862
前調石孝友	-10.7864
秋天	-10.7864
西窗	-10.7868
怕的是	-10.7869
凄然	-10.7869
五年	-10.7873
無眠	-10.7874
一捻	-10.7878
堂深	-10.7881
眉峯	-10.7885
追念	-10.789
歸思	-10.789
綺羅香	-10.7892
金鳯	-10.7894
仙姿	-10.79
四仄韻後段十句	-10.7902
不知何處	-10.7905
紗籠	-10.7913
一云	-10.7915
何夕	-10.7923
身外	-10.7926
隔簾	-10.7927
八月	-10.7928
虚度	-10.7929
燈影	-10.7931
一枝春	-10.7945
翠樓	-10.7947
籟	-10.7947
幃屏	-10.7948
伴人	-10.7949
滿懐	-10.7953
曉鶯	-10.7958
一年春	-10.7959
神州	-10.796
心性	-10.796
老樹	-10.7963
黯淡	-10.7965
林外	-10.7965
别酒	-10.7968
更䦨	-10.7971
者亦	-10.7974
烟草	-10.7975
鑰	-10.7977
思君	-10.798
六年	-10.798
魁	-10.7981
柑	-10.7981
石城	-10.7982
陽和	-10.7983
邱	-10.7983
署	-10.7983
柘	-10.7983
詢	-10.7984
金絲	-10.7984
亷	-10.7987
桃腮	-10.7989
悴	-10.7989
寄情	-10.799
寕	-10.799
雌	-10.7991
區	-10.7991
大石調	-10.7992
金泥	-10.7993
姻	-10.7995
飡	-10.7997
倘	-10.7998
禱	-10.7998
喝	-10.8
拴	-10.8
春凨	-10.8001
晃	-10.8001
庭前	-10.8001
酧	-10.8002
稔	-10.8002
每日家	-10.8006
詞及	-10.8007
朱欄	-10.8007
衰翁	-10.8007
執手	-10.8008
我和他	-10.8011
未能	-10.8012
玉簮	-10.8012
浮動	-10.8014
杏花天	-10.8015
天上人間	-10.8017
唐詩	-10.8019
焚香	-10.8023
之子	-10.8024
駐馬	-10.8029
簾旌	-10.8035
酒家	-10.8035
芳姿	-10.8038
風簾	-10.8041
嵗月	-10.8042
有箇人	-10.8042
别名	-10.8046
河陽	-10.8048
和之	-10.8053
獨歩	-10.8065
其間	-10.8074
從之	-10.8076
休教	-10.8077
春消息	-10.8079
八首	-10.808
父老	-10.8081
如練	-10.8087
掬	-10.8089
朝暮	-10.8111
范成大	-10.8119
勸酒	-10.812
魂飛	-10.8122
分離	-10.8125
情薄	-10.8125
者有	-10.8127
酒力	-10.813
詞品	-10.813
豹	-10.8133
䟦	-10.8133
𣣔	-10.8134
鑾	-10.8135
艾	-10.8135
鮫	-10.8136
半醉	-10.8136
康伯可	-10.8136
香徑	-10.8136
眼看	-10.8136
爵	-10.8136
鵷	-10.8138
四體	-10.8139
落絮	-10.8139
㩦	-10.814
援	-10.814
郵	-10.814
姹	-10.8141
女冠子	-10.8141
三日	-10.8142
邸	-10.8142
杜䳌	-10.8143
銅駝	-10.8143
荼	-10.8144
料峭	-10.8144
遏	-10.8144
苒苒	-10.8145
蹉跎	-10.8145
責	-10.8145
李後主	-10.8146
翰墨	-10.8147
麾	-10.8148
開了	-10.8149
深閨	-10.8149
畫簷	-10.815
豪傑	-10.815
留春住	-10.815
押仄韻	-10.8151
矮	-10.8151
山光	-10.8151
渭水	-10.8152
姻緣	-10.8152
踐	-10.8153
淘	-10.8153
呪	-10.8155
塵寰	-10.8155
着那	-10.8158
雲淡	-10.8158
我這裡	-10.816
集詞一巻	-10.816
含羞	-10.8169
西州	-10.8169
梧葉兒	-10.8171
千巖	-10.8171
眼中	-10.8172
玉指	-10.8172
明眸	-10.8172
皇都	-10.8175
思歸	-10.8176
雨瀟瀟	-10.8179
鳳簫	-10.818
臨川	-10.818
沈氏	-10.8182
好教我	-10.8183
塵滿	-10.8192
傷悲	-10.8194
恰纔	-10.8197
金獸	-10.8199
初開	-10.8203
不傳	-10.8203
後期	-10.8205
無主	-10.8206
稱其	-10.8209
吟詩	-10.821
醉蓬萊	-10.8216
詞多	-10.8219
凝碧	-10.8219
未見	-10.822
蓼	-10.8222
太學	-10.8224
清宵	-10.8226
天仙子	-10.823
開盡	-10.8232
情性	-10.8237
自製	-10.8243
千歲	-10.8243
轉眼	-10.8244
香篆	-10.8245
金鋪	-10.8249
雲影	-10.8255
千重	-10.8257
即是	-10.826
枕邊	-10.8261
誤也	-10.8261
事業	-10.8262
疎梅	-10.8263
天孫	-10.8263
舊逰	-10.8269
勝似	-10.8274
吏部	-10.8279
処	-10.8284
夢想	-10.8285
誰伴	-10.8289
斜風細雨	-10.8294
敏	-10.8294
裾	-10.8296
裴	-10.8297
敝	-10.8299
摶	-10.8299
秖	-10.8301
檠	-10.8302
行歌	-10.8302
嶽	-10.8303
闈	-10.8303
㡬番	-10.8303
扯	-10.8303
樞密	-10.8304
尼	-10.8305
團團	-10.8306
蛛絲	-10.8307
栁梢青	-10.8307
簾巻	-10.8308
曾見	-10.8308
昭君怨	-10.8309
紗㡡	-10.831
搊	-10.8311
隨處	-10.8311
雲樹	-10.8313
漆	-10.8313
忖	-10.8314
清真集	-10.8315
禅	-10.8317
涼生	-10.8318
卒贈	-10.832
鴈児落	-10.832
和靖	-10.8322
啼鴉	-10.8323
香噴	-10.8323
春酲	-10.8324
朝天子	-10.8327
誰把	-10.8328
田園	-10.833
寳鼎	-10.833
瑤池	-10.8334
傾倒	-10.8337
應制	-10.8338
婦人	-10.834
小牎	-10.8342
塞北	-10.8352
杜若	-10.8353
句四字	-10.8355
海棠開	-10.8358
更堪	-10.8361
清寒	-10.8362
觀音	-10.8363
吾皇	-10.8373
又還是	-10.8375
亦無	-10.838
沈郎	-10.8382
和衣	-10.839
之音	-10.8391
一旦	-10.8392
未免	-10.8392
整整	-10.8406
睡足	-10.8408
暮春	-10.8408
白蓮	-10.8409
清商	-10.8413
君知否	-10.8413
本調	-10.8429
記當年	-10.843
溪頭	-10.8431
第五	-10.8433
滕	-10.8433
飛舞	-10.8435
歲歲	-10.8436
腰身	-10.8438
孤枕	-10.8439
春波	-10.8442
閭	-10.8442
空餘	-10.8443
相與	-10.8446
繡帶	-10.8446
調笑	-10.8447
南唐李煜	-10.8448
羮	-10.8448
抄	-10.8452
蕖	-10.8454
金鼎	-10.8455
榔	-10.8455
樷	-10.8455
筒	-10.8456
纂官	-10.8456
南國	-10.8457
腴	-10.8457
㕔	-10.8458
賀聖朝	-10.8459
建康	-10.8459
措	-10.8459
衷	-10.8459
兆	-10.846
娶	-10.8461
長天	-10.8461
蔣㨗	-10.8461
梅影	-10.8462
睛	-10.8462
轆轤	-10.8463
犢	-10.8465
訟	-10.8466
報道	-10.8466
心児	-10.8467
衡陽	-10.8467
兩㸃	-10.8468
簑	-10.8469
第五六句	-10.847
葡萄	-10.847
恍然	-10.8471
宇宙	-10.8471
有所	-10.8472
元祐	-10.8473
他生的	-10.8473
那吒令	-10.8474
韜	-10.8475
笙簧	-10.8476
愚謂	-10.8476
燕鶯	-10.8476
錯認	-10.8477
□□	-10.8479
孫士	-10.848
第二三句	-10.8481
氷壺	-10.8485
神京	-10.8492
􁁊	-10.8493
尺素	-10.8496
世界	-10.8497
前調賀鑄	-10.8503
樂天	-10.8504
步步	-10.8505
氷絃	-10.8507
歡意	-10.8511
歡聲	-10.8512
鶯兒	-10.8516
妝樓	-10.852
佳句	-10.8522
人如玉	-10.8524
雙鸞	-10.8524
春雪	-10.8526
成就	-10.8529
緑陰	-10.8532
堂堂	-10.8532
玉砌	-10.8534
燕泥	-10.8539
秋宵	-10.854
憶昔	-10.8544
相合	-10.8545
新年	-10.8545
亭臺	-10.8547
其名	-10.8558
後庭	-10.8565
歸程	-10.8566
遲日	-10.8567
争奈	-10.8568
鬼病	-10.8569
分散	-10.857
水村	-10.857
憑髙	-10.8572
兩情	-10.8575
淚流	-10.8584
垂栁	-10.8586
踈雨	-10.8588
不辭	-10.859
羣花	-10.8592
李詞	-10.8592
娛	-10.8593
句法異	-10.8593
同上	-10.8597
清幽	-10.86
二百	-10.86
曉月	-10.8602
芰荷	-10.8602
欽定四庫全書集部十	-10.8604
蹋	-10.8607
眄	-10.8611
唐教坊曲名	-10.8611
白衣	-10.8613
舒亶	-10.8613
吹笙	-10.8614
潄	-10.8614
李彭老	-10.8615
昀	-10.8615
娟	-10.8616
莽	-10.8617
莫是	-10.8617
劔	-10.8617
曼	-10.8618
炯	-10.8618
二郎神	-10.8618
容與	-10.8618
玻瓈	-10.8619
木蘭花慢	-10.8619
銀釭	-10.8619
腥	-10.8619
戌	-10.862
伐	-10.862
荳	-10.862
祕	-10.862
皷	-10.862
羇旅	-10.8621
篘	-10.8622
搓	-10.8623
僚	-10.8623
卯	-10.8624
荏苒	-10.8624
汾	-10.8625
㝡	-10.8625
不然	-10.8626
微茫	-10.8627
塜	-10.8628
獅	-10.8628
庾嶺	-10.8629
押平韻	-10.8629
褒	-10.8629
攛	-10.8629
攙	-10.863
塹	-10.863
坦	-10.863
標致	-10.863
玉管	-10.863
翠鈿	-10.863
無涯	-10.863
柳耆卿	-10.863
者為	-10.8631
䄄	-10.8633
咸陽	-10.8633
經綸	-10.8634
蹅	-10.8634
粉蝶児	-10.8635
應天長	-10.8637
乘興	-10.8638
鈞天	-10.864
老大	-10.8645
堪笑	-10.8646
參横	-10.8646
山城	-10.8656
一簇	-10.8664
君子	-10.8664
瑞鷓鴣	-10.8666
明鏡	-10.8672
東風惡	-10.8675
家在	-10.868
波心	-10.8684
殘日	-10.8685
不寐	-10.8686
兩下	-10.869
空悵望	-10.869
桐花	-10.8693
誰寄	-10.8695
陰陰	-10.8695
名曰	-10.8698
輕鷗	-10.8701
千片	-10.8704
燕子樓	-10.8704
四壁	-10.8704
午夢	-10.871
可奈	-10.871
兩結句	-10.8712
碧波	-10.8715
此夕	-10.873
斜陽外	-10.8732
神女	-10.8732
惹起	-10.8737
有此體	-10.8742
新綠	-10.8745
台	-10.8749
殘英	-10.8763
淡薄	-10.8765
韤	-10.8771
淡黄	-10.8772
鵲橋	-10.8772
吁	-10.8773
㡬日	-10.8775
歡情	-10.8775
黄金縷	-10.8775
泠	-10.8777
㸃絳脣	-10.8778
曹勛	-10.8779
椉	-10.8779
曹組	-10.8779
鉤	-10.8779
迴廊	-10.878
栗	-10.8782
缾	-10.8782
五仄韻後段十句	-10.8782
踞	-10.8783
獄	-10.8785
蓉	-10.8785
擾擾	-10.8785
熨	-10.8786
刼	-10.8786
攻	-10.8787
何以	-10.8787
後段結句	-10.8787
上三下四	-10.8787
誅	-10.8787
墳	-10.8788
一輪	-10.8788
何夢桂	-10.8788
暗香浮動	-10.8789
纜	-10.8789
脾	-10.879
遊戲	-10.879
搦	-10.8792
患	-10.8792
佇立	-10.8794
深紅	-10.8794
武昌	-10.8795
綉簾	-10.8799
歹	-10.8801
字仄聲第四句	-10.8805
朱䦨	-10.8808
新鴈	-10.8809
彼此	-10.8811
管領	-10.8812
柳外	-10.8812
氷姿	-10.8817
遲暮	-10.8817
貂蟬	-10.8819
我這裏	-10.882
晏詞	-10.8823
彩鳳	-10.883
華筵	-10.883
俱同	-10.8831
恐是	-10.8838
韻後段十句	-10.8849
滿座	-10.8862
翠黛	-10.8871
風暖	-10.8872
字入聲	-10.8872
鵝黄	-10.8875
醒時	-10.8876
甚多	-10.8878
雲垂	-10.8882
春衣	-10.8885
世上	-10.8887
霎	-10.8893
只道	-10.8898
宴賞	-10.8902
歸去來	-10.8902
雪浪	-10.8903
連枝	-10.8909
了這	-10.8914
二十年	-10.8919
廬山	-10.892
第十	-10.8923
前段第一句	-10.8923
都門	-10.8923
萬歲	-10.8928
為甚	-10.8928
長嘆	-10.8929
孤鴈	-10.893
光輝	-10.893
萬千	-10.8932
波上	-10.8934
老夫	-10.8939
清瘦	-10.8941
穗	-10.8942
平仄仄	-10.8946
杼	-10.8947
寮	-10.8948
灞橋	-10.895
開口	-10.895
沈端節	-10.895
籖	-10.895
毋	-10.895
晞	-10.8951
壻	-10.8951
鷹	-10.8951
提要	-10.8952
羅韤	-10.8952
俚	-10.8952
術	-10.8952
銘	-10.8953
纈	-10.8953
繡衾	-10.8954
丗	-10.8954
衷腸	-10.8955
挫	-10.8956
畫燭	-10.8956
鶯囀	-10.8956
飜	-10.8956
瞳	-10.8957
週	-10.8957
㒷	-10.8957
峨	-10.8957
踪跡	-10.8958
水驛	-10.8958
上馬	-10.8958
波面	-10.8958
鈔	-10.896
凢	-10.896
池沼	-10.8962
象板	-10.8963
頃刻	-10.8964
餓	-10.8965
渰	-10.8971
空濛	-10.8972
酒盃	-10.8972
五字一句	-10.8974
紀聞	-10.8975
三十三字	-10.8975
濁酒	-10.8977
錦囊	-10.8979
怨王孫	-10.8981
問我	-10.8981
畫堂春	-10.8982
波浪	-10.8982
前調韓淲	-10.8985
鎮日	-10.8985
相傳	-10.8986
輕煙	-10.8987
隋堤	-10.8987
半生	-10.8988
日夜	-10.8989
盟言	-10.899
陶令	-10.8991
惱亂	-10.8995
日影	-10.8997
如削	-10.8998
梳頭	-10.9003
哀怨	-10.9004
雙鴛	-10.9007
思憶	-10.9008
芳草路	-10.9011
如霧	-10.9017
山圍	-10.9021
難描	-10.9024
前叚	-10.9024
韓玉	-10.9026
重来	-10.9027
俺那	-10.9028
分攜	-10.9029
相續	-10.9035
傳杯	-10.9038
兩段	-10.9041
鳥啼	-10.9045
鴛帳	-10.9049
堪愛	-10.905
芳時	-10.9055
詩成	-10.9057
鳳城	-10.9059
閒庭	-10.9059
錦衣	-10.9059
半面	-10.9065
多麗	-10.907
漢宫春	-10.9071
輕薄	-10.9077
白鶴	-10.9078
風飄	-10.9079
水東流	-10.9081
醉春風	-10.9083
玉盤	-10.909
西樵	-10.9092
峭寒	-10.9092
東堂	-10.9092
臨流	-10.9092
三巻	-10.9092
春遲	-10.9094
龍門	-10.9096
終是	-10.91
前後同	-10.9104
皇甫松	-10.9104
普	-10.9105
雙調一百三字前	-10.9108
嶠	-10.9109
西泠	-10.9111
玎璫	-10.9111
暮山	-10.9112
耒	-10.9112
訣	-10.9113
萬般	-10.9114
褭	-10.9116
奠	-10.9116
此本	-10.9117
鏁	-10.9118
珊珊	-10.9118
未解	-10.9119
輒	-10.9121
茜	-10.9121
淫	-10.9123
隅	-10.9124
睫	-10.9124
旧	-10.9124
澌	-10.9124
緗	-10.9124
用前韻	-10.9124
寥廓	-10.9125
禾黍	-10.9126
怡	-10.9126
䴡	-10.9126
頋	-10.9126
屯	-10.9127
諕	-10.9128
字乃	-10.9128
淋	-10.9128
埸	-10.9129
翠簾	-10.913
蕭疎	-10.9131
丈夫	-10.9133
渡頭	-10.9134
赤緊的	-10.9135
鳯樓	-10.9136
凍雲	-10.9137
亊	-10.9137
迭	-10.9137
字平聲第四句	-10.9142
前調劉基	-10.9142
調咲令	-10.9143
蕪城	-10.9143
啼鵑	-10.9144
疎鐘	-10.9145
玉筯	-10.9145
栁腰	-10.9146
意中人	-10.9151
東郊	-10.9154
斜陽暮	-10.9155
紗牎	-10.9156
卿卿	-10.9159
唱徹	-10.9165
時莭	-10.9169
㡬㸃	-10.9177
淮南	-10.9178
窗外	-10.918
補之	-10.9189
後㑹	-10.9192
遥指	-10.9193
徽宗	-10.9195
白鳥	-10.9201
幾年	-10.9207
惹得	-10.9211
桃源洞	-10.9215
得箇	-10.9234
小亭	-10.9236
用仄聲	-10.9237
扶頭	-10.9238
天低	-10.9239
情思	-10.924
春潮	-10.9246
更有那	-10.9252
志云	-10.9256
戲作	-10.9259
一味	-10.9262
囘頭	-10.9267
古詞	-10.9268
筯	-10.9268
用仄韻	-10.927
栁條	-10.9271
輕負	-10.9272
詞集之	-10.9272
狂客	-10.9279
不㫁	-10.9279
悦	-10.9282
謝逸	-10.9282
嫋	-10.9284
毛幵	-10.9284
帊	-10.9287
騘	-10.9287
捉	-10.9287
欸乃	-10.9289
靡	-10.929
灼灼	-10.9291
磊	-10.9293
驂鸞	-10.9293
難寄	-10.9294
勸我	-10.9295
醇	-10.9295
黄昬	-10.9296
姊妹	-10.9297
尹鶚	-10.9298
珀	-10.9298
柬	-10.9298
昆	-10.9299
秦箏	-10.9299
明河	-10.9299
欝	-10.9301
明霞	-10.9303
南極	-10.9305
褥	-10.9305
况是	-10.9308
綺席	-10.9308
全異	-10.9308
蘇堤	-10.9309
婵姢	-10.931
綺陌	-10.931
暖日	-10.9311
王千秋	-10.9311
孤芳	-10.9312
友人	-10.9313
形容	-10.9314
三台	-10.9314
六月	-10.9317
淚滿	-10.9318
深沉	-10.932
男兒	-10.932
盃酒	-10.9321
東鄰	-10.9321
凝酥	-10.9323
披衣	-10.9327
千林	-10.9327
昔日	-10.9328
八九	-10.9329
松菊	-10.9334
跳出	-10.9337
青銅	-10.9345
簫韶	-10.9347
夏景	-10.935
遥天	-10.9353
西江	-10.9353
關心	-10.9356
臨鏡	-10.9358
集賢	-10.936
夢遶	-10.9362
楼上	-10.9363
毛詞	-10.9367
蘭膏	-10.9368
駿馬	-10.937
前調陳允平	-10.9378
新亭	-10.9379
歸騎	-10.9385
沈水	-10.9387
終朝	-10.9387
煙光	-10.9391
拂面	-10.9392
扇底	-10.9395
北曲	-10.9395
斗轉	-10.9396
怎忍	-10.9399
西河	-10.9399
云云	-10.94
序云	-10.9401
寒峭	-10.9405
上小樓	-10.9408
瓊樹	-10.9413
相近	-10.9415
用平聲	-10.9416
但願	-10.942
斷霞	-10.9421
新涼	-10.9423
徙倚	-10.9424
開徧	-10.9425
冰雪	-10.9426
無慿	-10.9427
金勒	-10.9435
本集	-10.9438
繡衣	-10.9442
雲堆	-10.9442
俟	-10.9449
遺事	-10.945
無疑	-10.9452
指望	-10.9453
烽	-10.9459
幘	-10.9461
浣溪紗	-10.9463
攏	-10.9464
艸	-10.9465
䑕	-10.9466
騁	-10.9466
蘭陵王	-10.9469
壊	-10.947
朱雍	-10.947
一剪梅	-10.9472
剡	-10.9473
程正伯	-10.9474
搯	-10.9475
目録欽定四庫全書御選歴代詩餘巻	-10.9476
直上	-10.9476
澁	-10.9477
箇中	-10.9477
南曲	-10.9479
相尋	-10.9479
瓮	-10.9479
丁香結	-10.948
佳辰	-10.948
躱	-10.9482
日邊	-10.9483
䏻勾	-10.9483
捲珠簾	-10.9484
觸目	-10.9484
㸃檢	-10.9486
萬壑	-10.9488
換平	-10.9489
金菊香	-10.949
瑶堦	-10.949
綉幃	-10.949
厯官	-10.9494
滿樹	-10.9497
銀塘	-10.9498
字必	-10.9498
城郭	-10.9499
紫府	-10.9501
五侯	-10.9502
多謝	-10.9503
危欄	-10.9503
皇州	-10.9506
沈香	-10.951
澹澹	-10.951
四十一字	-10.9512
仄仄平平	-10.9514
與前段	-10.9514
改之	-10.9516
有些	-10.9517
無蹤	-10.9518
或謂	-10.952
追隨	-10.9522
漸入	-10.9522
意氣	-10.953
兒曹	-10.9531
不遇	-10.9532
舍人	-10.9532
後段第六句	-10.9535
歡娯	-10.9535
雲鬂	-10.9536
一餉	-10.9536
酒酣	-10.9538
人去後	-10.9545
玉斚	-10.9546
故事	-10.9553
獨守	-10.9555
仙鄉	-10.9558
眉峰	-10.9558
幽期	-10.956
七首	-10.9561
頭白	-10.9561
前身	-10.9561
初醒	-10.9563
的那	-10.9566
勝賞	-10.9569
四十二字	-10.957
國色	-10.9575
第四五句	-10.9575
金船	-10.9575
強如	-10.9589
酲	-10.959
雲霄	-10.9598
澄江	-10.96
信音	-10.96
未起	-10.9607
洞府	-10.961
詞體惟前段	-10.9613
頓成	-10.9614
桃紅	-10.9616
趙文	-10.962
芬	-10.9624
巳是	-10.9627
羞見	-10.9627
囑	-10.9631
萬國	-10.9632
鶗鴂	-10.9636
漕	-10.9637
導	-10.9637
組	-10.9639
篙	-10.964
蹄	-10.9641
蠧	-10.9642
汲古	-10.9642
梗	-10.9642
段各八句	-10.9643
百草	-10.9643
揮毫	-10.9644
蘇子瞻	-10.9645
曲曲	-10.9646
酡	-10.9647
未覺	-10.9647
帛	-10.9647
宫裏	-10.9648
㵼	-10.9649
倚東風	-10.965
嵓	-10.9651
團圞	-10.9651
砑	-10.9652
㢘	-10.9653
寄書	-10.9653
盌	-10.9654
吿	-10.9654
装	-10.9654
宋元人	-10.9655
蝸角	-10.9655
出隊子	-10.9655
迸	-10.9655
相㑹	-10.9656
轍	-10.9657
羙滿	-10.9658
蹙損	-10.9658
畫棟	-10.966
瞧	-10.966
玉皇	-10.966
分付與	-10.9661
兀的不	-10.9661
刮	-10.9662
檀槽	-10.9663
相親	-10.9665
羊羔	-10.9665
爆	-10.9666
攜酒	-10.9669
銀筝	-10.9669
豈知	-10.9672
将他	-10.9673
字仄聲第三句	-10.9676
昭君	-10.9682
笑靨	-10.9688
回顧	-10.969
蟬鬢	-10.9691
追尋	-10.9701
聲價	-10.9703
輕絮	-10.9705
前調陸游	-10.9706
細數	-10.9706
無迹	-10.9711
添二字	-10.9715
芳樽	-10.972
直須	-10.9731
四十三字	-10.9736
正宫	-10.9736
不湏	-10.9741
㡬曽	-10.9743
帝王	-10.9744
栁葉	-10.9745
故里	-10.9751
六十六字	-10.9752
即事	-10.9754
玉珮	-10.9757
别浦	-10.9758
皆以	-10.976
隔水	-10.9764
道士	-10.9775
四方	-10.9781
至元	-10.9791
學者	-10.9793
豈非	-10.9797
穿簾	-10.9799
細栁	-10.9799
秋霽	-10.9801
嬝娜	-10.9803
莖	-10.9815
胥	-10.9815
噫	-10.9816
襄	-10.9816
桺	-10.9817
片時	-10.9818
萬樹	-10.9818
漳	-10.9818
竚	-10.9818
瞿	-10.982
洩	-10.9821
銖	-10.9822
捷	-10.9822
大江東去	-10.9827
準擬	-10.9828
攢	-10.9828
畦	-10.983
休説	-10.9831
棲鴉	-10.9831
副使	-10.9832
斤	-10.9833
江南江北	-10.9834
䔩	-10.9834
億	-10.9837
羞對	-10.9837
淩波	-10.9838
㧞	-10.9838
因以	-10.9838
青帘	-10.9839
披襟	-10.984
杜鵑啼	-10.9842
髭	-10.9843
嚴仁	-10.9843
巫陽	-10.9843
褁	-10.9843
共賞	-10.9847
霎時間	-10.9848
探梅	-10.9848
畫䦨	-10.985
澄澄	-10.9851
興廢	-10.9851
小牕	-10.9852
稚子	-10.9853
蘭湯	-10.9853
俊俏	-10.9854
贈妓	-10.9854
相迎	-10.9856
切切	-10.9858
憶舊遊	-10.986
直待	-10.986
相期	-10.986
綵筆	-10.9861
澹月	-10.9867
後段第七句	-10.987
溪水	-10.9871
慿誰	-10.9872
謝娘	-10.9874
林間	-10.9875
顧影	-10.9875
日高	-10.9876
南吕	-10.988
亂鴉	-10.9882
所採	-10.9886
銀燈	-10.9887
玉笋	-10.9896
竹屋	-10.9897
何湏	-10.9899
曾記	-10.99
清痩	-10.9902
數十	-10.9904
寶釵	-10.9906
金線	-10.9907
隂陽	-10.9909
此等	-10.9911
粧樓	-10.9916
朱閣	-10.9916
香囊	-10.9917
千種	-10.992
甲子	-10.9925
誰想	-10.9926
檀心	-10.9932
與君同	-10.9934
十首	-10.9935
竈	-10.9937
成病	-10.9938
座上	-10.9949
司空	-10.9949
祥雲	-10.9951
春風面	-10.9952
鴈過	-10.9957
香肩	-10.9958
低迷	-10.9966
北海	-10.9969
難收	-10.9969
更闌	-10.9972
莫厭	-10.9974
蘋花	-10.9976
厨	-10.9978
扶起	-10.9983
未消	-10.9985
玉蝴蝶	-10.9987
貂	-10.9987
舞罷	-10.9993
四十五字	-10.9995
嵗寒	-10.9995
白居易	-10.9995
字去聲	-10.9997
書舟	-10.9999
陛	-10.9999
思想	-11
楊愼	-11.0002
粹	-11.0002
休辭	-11.0002
詞前段第三句	-11.0003
港	-11.0004
䕫	-11.0004
族	-11.0007
琪	-11.0008
嚬	-11.0008
第六七句	-11.0008
王安中	-11.0009
菰蒲	-11.001
泓	-11.001
潺潺	-11.0011
祈	-11.0013
四仄韻後段八句	-11.0013
夜飲	-11.0013
茰	-11.0013
安在	-11.0013
裔	-11.0013
蕃	-11.0014
砧杵	-11.0014
鏘	-11.0014
俠	-11.0015
灔	-11.0015
培	-11.0016
甸	-11.0016
愔愔	-11.0016
藹	-11.0017
儲	-11.0017
酹江月	-11.0017
京兆	-11.0017
一落索	-11.0018
羲皇	-11.0019
孜孜	-11.0019
爪	-11.0019
罕	-11.0019
胭	-11.002
跌	-11.0021
羲	-11.0021
蓬壺	-11.0022
誰㑹	-11.0022
祅	-11.0023
范蠡	-11.0023
恬	-11.0023
杜陵	-11.0023
杭州	-11.0024
雕䦨	-11.0025
千秋嵗	-11.0025
㽞	-11.0026
促織	-11.0027
逰人	-11.0029
帝里	-11.0031
采蓮	-11.0031
落落	-11.0034
秃厮児	-11.0035
凄楚	-11.0037
處士	-11.0039
梁間	-11.0042
仙呂	-11.0043
裁剪	-11.0043
凄迷	-11.0044
人間天上	-11.0045
章䑓	-11.0045
九霄	-11.0046
京口	-11.0046
仙源	-11.0047
江臯	-11.0047
錢唐	-11.005
錦鱗	-11.0052
其平仄	-11.0055
驚散	-11.0057
一煞	-11.0058
粉蝶	-11.0058
碧桃花	-11.0059
前調周紫芝	-11.0067
千秋歲	-11.0072
金甌	-11.0074
六十二字	-11.0081
追遊	-11.0085
緑窓	-11.0088
相忘	-11.0089
嶺頭	-11.009
西城	-11.0092
繡屏	-11.0093
緑波	-11.0098
玉勒	-11.01
霽色	-11.0104
煙浪	-11.0109
雪霽	-11.011
沈吟	-11.0111
樓䑓	-11.0117
悄無人	-11.012
辜負了	-11.0121
西南	-11.0123
梅花引	-11.0126
江淹	-11.0126
兩體	-11.0127
宗朝	-11.013
水溶溶	-11.0132
念逺	-11.0134
一幅	-11.0136
嘆息	-11.0141
向尊前	-11.0152
耳邊	-11.0158
氷霜	-11.0159
玉殿	-11.0165
無人問	-11.0176
碧瓦	-11.0177
趙孟頫	-11.018
窗前	-11.0181
前調張炎	-11.0186
劉禹錫	-11.0187
紅䄂	-11.0188
金巵	-11.0198
卑	-11.0199
葛立方	-11.02
青松	-11.0201
江神子	-11.0201
亟	-11.0201
蒨	-11.0202
維揚	-11.0203
雲霧	-11.0204
啜	-11.0204
貔貅	-11.0204
豈可	-11.0205
黄魯直	-11.0206
縹	-11.0206
京洛	-11.0206
笏	-11.0207
昔人	-11.0207
腸㫁	-11.0207
准備	-11.0207
恢	-11.0207
悅	-11.0207
隘	-11.0208
鑒	-11.0208
燈光	-11.0208
何物	-11.0209
縛	-11.021
嗏	-11.021
哀絃	-11.0211
义	-11.0212
讃	-11.0213
半篙	-11.0214
榮枯	-11.0215
不由我	-11.0215
清凉	-11.0215
蕭娘	-11.0215
任他	-11.0217
穠李	-11.0218
思悠悠	-11.0218
蚕	-11.0218
永晝	-11.0219
西溪	-11.022
趕	-11.0221
在心頭	-11.0223
瑞靄	-11.0223
醋葫蘆	-11.0225
蒼煙	-11.0227
瑶䑓	-11.0228
鐘鼓	-11.0228
彈指	-11.0229
篆烟	-11.0232
鸞簫	-11.0234
仕女	-11.0238
呉山	-11.0239
黄塵	-11.024
難熬	-11.024
梁園	-11.0241
歩歩	-11.0242
相投	-11.0242
去程	-11.0243
落花流水	-11.0245
湘水	-11.0246
妝㸃	-11.0251
黄州	-11.0253
艇子	-11.0253
漁燈	-11.0255
樹頭	-11.0255
漁唱	-11.0256
容顔	-11.0256
話兒	-11.0258
憂愁	-11.0258
染就	-11.0259
一宵	-11.0261
斜川	-11.0262
百媚	-11.0262
都付	-11.0266
便做	-11.0281
雙魚	-11.0285
生綃	-11.0286
窗紗	-11.0293
可愛	-11.0305
獨醒	-11.0306
柳梢	-11.0308
酒初醒	-11.031
燭影	-11.031
十二時	-11.0313
歸家	-11.0315
分段	-11.0315
過清明	-11.032
四十四字	-11.032
長松	-11.0321
日晚	-11.0326
松竹	-11.0332
註云	-11.0334
嫩緑	-11.0334
黄河	-11.0343
折取	-11.0345
蘭棹	-11.035
魂驚	-11.0351
櫳	-11.0351
嬌面	-11.0357
金闕	-11.0357
舉進士	-11.0359
池面	-11.036
相並	-11.0362
雲濤	-11.0365
杯中	-11.037
些箇	-11.0376
清潤	-11.0376
爐烟	-11.0378
巧笑	-11.0388
酒泉子	-11.039
賀方回	-11.039
淪	-11.0392
疇昔	-11.0392
擷	-11.0392
譚	-11.0393
梓	-11.0393
爱	-11.0393
玉環	-11.0394
澀	-11.0394
荑	-11.0394
滌	-11.0395
諌	-11.0396
蒲萄	-11.0396
瞰	-11.0396
獲	-11.0397
柴扉	-11.0397
此調以此詞為正體	-11.0397
員	-11.0398
湖南	-11.0398
罰	-11.0399
太平樂府	-11.04
琳	-11.04
虀	-11.04
掇	-11.0401
聘	-11.0401
閗鵪鶉	-11.0401
陀	-11.0401
滚滚	-11.0402
詞體惟前	-11.0403
㕍	-11.0405
驀然	-11.0405
巉	-11.0406
蛾睂	-11.0407
弔古	-11.041
歪	-11.0413
断腸	-11.0413
咲吟吟	-11.0414
􁈯	-11.0415
難逢	-11.0415
挑燈	-11.0416
嬴得	-11.0417
冰輪	-11.0418
遂以	-11.0418
金鑾	-11.0419
姚黄	-11.0419
眉顰	-11.0421
新霽	-11.0422
減二字	-11.0422
拂拂	-11.0424
空惆悵	-11.0424
與前異	-11.0424
鳳釵	-11.0424
敎人	-11.0425
繡戸	-11.0426
枕畔	-11.0426
獨自箇	-11.0427
比翼	-11.0429
輦路	-11.0429
字平聲第三句	-11.043
楚楚	-11.043
則我這	-11.0433
孤幃	-11.0433
解珮	-11.0433
又不是	-11.0436
粧成	-11.0437
一任教	-11.0442
斷腸聲	-11.0444
唐宋	-11.0452
短棹	-11.0454
難憑	-11.0461
水亭	-11.0465
九十六字	-11.0467
詠梅	-11.047
曹詞	-11.0471
悲凉	-11.0471
翠幕	-11.0482
争似	-11.0484
桃源路	-11.0495
盛事	-11.0495
華燈	-11.0497
落一字	-11.0505
都城	-11.0505
児裡	-11.0514
病起	-11.0514
多感	-11.0514
贈之	-11.0518
水晶宫	-11.0523
吳霜	-11.0528
信杳	-11.0528
九十五字	-11.0532
薄暮	-11.0554
如箭	-11.0562
休說	-11.0568
夜涼	-11.0568
二十七	-11.0572
弁	-11.0576
翥	-11.0577
呉江	-11.0579
攷	-11.058
陳師道	-11.0581
讐	-11.0581
數行	-11.0581
岐	-11.0581
葛長庚	-11.0581
飄蓬	-11.0582
望逺行	-11.0583
檝	-11.0583
醆	-11.0583
怱怱	-11.0585
筦	-11.0586
顚	-11.0588
摹	-11.0588
蟋蟀	-11.0589
詹正	-11.059
衫袖	-11.0591
鄒	-11.0591
隔江	-11.0592
襄王	-11.0592
繾綣	-11.0592
旛	-11.0592
四仄韻後段九句	-11.0593
疇	-11.0593
崔嵬	-11.0594
昂	-11.0594
賡	-11.0594
千絲	-11.0594
醁	-11.0595
堪題	-11.0595
畆	-11.0595
送春歸	-11.0596
粉黛	-11.0596
今嵗	-11.0597
朝廷	-11.0597
故宫	-11.06
斗柄	-11.06
棚	-11.06
刮地風	-11.0601
前段結句	-11.0601
空庭	-11.0605
荆州	-11.0607
社稷	-11.0609
師師	-11.0612
牽牛	-11.0614
騎鶴	-11.0615
雙眸	-11.0615
李白詩	-11.0616
踈籬	-11.0616
半霎	-11.0618
翠幄	-11.0618
輕狂	-11.0619
簾不捲	-11.0622
輸與	-11.0627
一闋云	-11.0628
單于	-11.0629
太平令	-11.0635
九十四字	-11.0637
蘇卿	-11.0637
霜毫	-11.0639
嵗晩	-11.0641
煙籠	-11.0645
香篝	-11.0649
對西風	-11.0651
六橋	-11.0652
繁杏	-11.0659
體態	-11.0662
杯盤	-11.0664
楊栁枝	-11.0666
搔頭	-11.0668
嬌姿	-11.067
春笋	-11.0671
梅芲	-11.0671
簇簇	-11.0671
初綻	-11.0677
粉墻	-11.0679
獨步	-11.0679
吳越	-11.068
湖州	-11.0694
紅潮	-11.0697
燭暗	-11.07
九曲	-11.0701
萬丈	-11.0707
禁烟	-11.0707
梁燕	-11.0708
掌上	-11.0709
唱道	-11.0711
雲際	-11.0711
五體	-11.0712
席上作	-11.0712
星橋	-11.0718
不押韻異	-11.0718
病懨懨	-11.072
非常	-11.0733
平原	-11.0739
魚鴈	-11.074
平康	-11.0755
料想	-11.0757
羅襟	-11.0758
香泥	-11.0759
春纎	-11.0762
長條	-11.0763
鸞孤	-11.0774
連理枝	-11.0775
遡	-11.0776
蠅	-11.0778
溟	-11.0779
字平聲第	-11.078
叫	-11.0781
槃	-11.0783
前段第三句	-11.0784
漉	-11.0784
哨	-11.0785
乃以	-11.0786
葛郯	-11.0787
姨	-11.0789
刷	-11.0789
雪壓	-11.079
稻	-11.079
漂泊	-11.079
鵶	-11.079
僻	-11.079
葬	-11.0791
轟	-11.0791
御街行	-11.0791
突	-11.0791
歲寒	-11.0792
恵	-11.0792
擾	-11.0792
諾	-11.0792
譁	-11.0793
油壁	-11.0793
東甌令	-11.0793
涓涓	-11.0794
穹	-11.0794
離離	-11.0795
凋零	-11.0795
淳熙	-11.0795
斑斑	-11.0795
撐	-11.0795
羈旅	-11.0795
蓴鱸	-11.0796
絛	-11.0797
炭	-11.0797
糟	-11.0798
憑仗	-11.0801
啣	-11.0801
楞	-11.0801
䌫	-11.0802
相屬	-11.0804
此調以此詞為正體若	-11.0804
躬	-11.0806
太液	-11.0808
盒	-11.081
七弟兄	-11.081
瓊漿	-11.081
指㸃	-11.0812
短長亭	-11.0815
錦堂春	-11.0815
縈牽	-11.0817
無人見	-11.0817
採茶歌	-11.0817
停雲	-11.0818
歡喜	-11.0818
往常時	-11.082
吳姬	-11.0822
杏臉	-11.0825
錦衾	-11.0827
這其間	-11.0829
砧聲	-11.0829
太平時	-11.083
字仲	-11.0832
荆公	-11.0834
最苦是	-11.0839
楊詞	-11.084
急管	-11.0843
豈是	-11.0843
繁枝	-11.0844
口兒	-11.0844
他道是	-11.0847
詞正與此同	-11.0849
數峰	-11.0852
直恁	-11.0853
容光	-11.0854
離別	-11.0855
百萬	-11.0857
不覺的	-11.0865
嬌娥	-11.0866
誤刻	-11.0867
布衣	-11.0869
八年	-11.087
禁持	-11.087
最憐	-11.0871
山寺	-11.0878
仄平平仄	-11.0881
流傳	-11.0885
臨江	-11.0886
㡬時得	-11.0887
金閨	-11.0891
迎風	-11.0895
遥夜	-11.0897
豔陽	-11.0898
蟾光	-11.0909
東方	-11.092
記年時	-11.0922
誰料	-11.0923
禁中	-11.0931
東湖	-11.0936
麝蘭	-11.0945
不觧	-11.0955
昔年	-11.0958
錦堂	-11.0958
莭	-11.0961
真堪	-11.0964
便覺	-11.0968
中原音韻	-11.0973
辛詞	-11.0975
陳子龍	-11.0976
㸃破	-11.0979
酒醒時	-11.098
花菴詞選	-11.098
玉佩	-11.0982
宋史樂志	-11.0983
桓	-11.0984
陋	-11.0985
嵬	-11.0987
呂渭老	-11.0988
忌	-11.0988
惺惺	-11.0988
韀	-11.0989
弗	-11.0989
勲業	-11.099
搗練子	-11.0991
釭	-11.0992
所事	-11.0992
恱	-11.0993
薺	-11.0993
邈	-11.0993
宿酲	-11.0994
杓	-11.0994
墀	-11.0994
悼	-11.0994
揖	-11.0995
誥	-11.0995
恊	-11.0996
驥	-11.0996
史詞	-11.0996
娼	-11.0997
崢嶸	-11.0998
颯颯	-11.0998
償	-11.0999
昉	-11.1
楊基	-11.1
驕馬	-11.1
魏承班	-11.1001
漣	-11.1001
究	-11.1004
横枝	-11.1005
詞同惟前段第	-11.1005
茸茸	-11.1006
秦筝	-11.1006
櫺	-11.1006
囗	-11.1006
宫腰	-11.1007
碧海	-11.1008
匹馬	-11.1009
乞巧	-11.1009
通判	-11.1012
蹬	-11.1012
鴛幃	-11.1013
蛩吟	-11.1019
罨畫	-11.102
回廊	-11.1021
明月清風	-11.1022
漫録	-11.103
掩重門	-11.103
五六	-11.1031
蕭踈	-11.1032
佳致	-11.1034
容貌	-11.1036
譜内可平可仄據此	-11.1048
寳髻	-11.1049
無柰	-11.105
太史	-11.1053
前調程垓	-11.1055
即席	-11.1055
逍遥樂	-11.1055
悞了	-11.1063
鰲山	-11.1067
孤衾	-11.1068
瑶草	-11.1069
草木	-11.1072
字仄聲譜内	-11.1073
玉連環	-11.1075
伊州	-11.108
曉粧	-11.1088
前調毛滂	-11.1091
一百六字	-11.1093
樂工	-11.1093
各異	-11.1094
尊前集	-11.1095
絲管	-11.11
龍舟	-11.1102
粉痕	-11.1104
㸔㸔	-11.1105
眉間	-11.1107
疊疊	-11.1108
漲緑	-11.1109
杜鵑聲	-11.1118
四煞	-11.1122
樽酒	-11.1126
空谷	-11.1128
寸腸	-11.1135
池臺	-11.1136
他鄉	-11.1146
蓼花	-11.1149
別後	-11.1169
蠟梅	-11.1169
窓外	-11.1173
未歇	-11.1177
菱歌	-11.1178
木蘭	-11.1183
女郎	-11.1185
𢎞	-11.1187
裕	-11.1191
詩曰	-11.1191
㤀	-11.1192
珥	-11.1194
巡	-11.1195
朱淑真	-11.1195
帙	-11.1196
詞詞曲類	-11.1196
盧祖皋	-11.1197
謠	-11.1198
狹	-11.1198
柏	-11.12
艱	-11.12
娉	-11.12
灧	-11.1201
段各七句	-11.1201
衲	-11.1201
熒熒	-11.1201
羸	-11.1203
並蒂	-11.1203
冕	-11.1203
茘	-11.1203
宴清都	-11.1204
瀑	-11.1204
𬒮	-11.1205
絳都春	-11.1205
須臾	-11.1205
便宜	-11.1206
黄粱	-11.1206
惜分飛	-11.1206
卽	-11.1207
唐多令	-11.1207
碍	-11.1207
灺	-11.1208
採桑子	-11.121
廻廊	-11.121
爛熳	-11.1211
鶴冲天	-11.1211
兢	-11.1213
上一下四	-11.1214
徤	-11.1214
棧	-11.1214
鼕鼕	-11.1215
奔走	-11.1216
余曰	-11.1216
穣	-11.1216
淒淒	-11.1217
課	-11.1218
銷金帳	-11.1218
顛狂	-11.1219
凹	-11.122
欲待	-11.122
𥙷	-11.1221
聰明	-11.1223
絳紗	-11.1224
邅	-11.1224
簾幃	-11.1224
罵玉郎	-11.1225
普天下	-11.1225
冰肌	-11.1226
喬牌児	-11.1227
陽関	-11.1229
離披	-11.123
桐隂	-11.123
蓑衣	-11.1231
池亭	-11.1232
早晩	-11.1233
無瑕	-11.1234
千嵗	-11.1241
太師	-11.1242
㽔	-11.1242
竹籬	-11.1245
因緣	-11.1245
玉液	-11.1246
玎	-11.1249
霜鬢	-11.1251
成就了	-11.1257
天籟	-11.1259
荒凉	-11.1268
詞苑	-11.1269
不勝情	-11.127
因縁	-11.1274
臨行	-11.1276
畫扇	-11.1278
物華	-11.1278
從别後	-11.1279
爐煙	-11.1281
宴罷	-11.1283
名韁	-11.1284
粧點	-11.1284
恁地	-11.1287
忍教	-11.129
三十六字	-11.1294
看承	-11.1304
昏黄	-11.1307
易安	-11.1308
青鬢	-11.131
者不同	-11.131
草萋萋	-11.1311
尋梅	-11.1315
蝶舞	-11.1317
朝霞	-11.1323
功名事	-11.1324
日遲遲	-11.1325
絶勝	-11.1329
寥	-11.133
老先生	-11.1342
重午	-11.1351
栁梢	-11.1353
艶陽	-11.1362
嫵	-11.1365
仄平仄	-11.1373
一百五字	-11.1375
鴛枕	-11.1393
遮斷	-11.1394
無数	-11.1395
晚粧	-11.1396
萬户	-11.1396
芰	-11.1398
夜久	-11.1399
羅扇	-11.14
仄韻後段八句	-11.1401
第六	-11.1402
雍	-11.1407
漠	-11.1409
倣	-11.1409
佳客	-11.141
棘	-11.141
諱	-11.141
儼	-11.1411
技	-11.1411
郢	-11.1411
撾	-11.1412
惻	-11.1414
鴟夷	-11.1414
昬	-11.1414
蒂	-11.1414
霸	-11.1415
碁	-11.1415
蛛	-11.1415
砂	-11.1415
瑰	-11.1416
茱萸	-11.1416
虜	-11.1416
迓	-11.1418
夕陽西下	-11.1419
如此填	-11.1419
贊	-11.1419
戶	-11.142
柳色	-11.142
炉	-11.142
各添一字	-11.1421
蘅	-11.1421
翩然	-11.1422
楊炎	-11.1422
曲欄	-11.1422
驅馳	-11.1422
樁	-11.1423
貟	-11.1423
烏帽	-11.1424
愽	-11.1424
螯	-11.1424
粒	-11.1426
簟紋	-11.1427
四門子	-11.1428
另列	-11.1431
相憐	-11.1431
囂	-11.1431
牙床	-11.1437
雁過	-11.1441
馮魁	-11.1443
僅見	-11.1445
一瞬	-11.1447
梨芲	-11.1448
揺蕩	-11.1452
作平聲	-11.1455
脂粉	-11.1458
燈昏	-11.1458
或刻	-11.1462
悉同	-11.1466
暑氣	-11.1475
竹坡	-11.1478
丹鳳	-11.1487
嵗晚	-11.1489
玉兎	-11.149
梧桐影	-11.1493
我輩	-11.1498
水浸	-11.1504
士女	-11.1506
帳底	-11.1516
深鎖	-11.1522
越女	-11.1523
夢難成	-11.1531
叢裏	-11.1531
露桃	-11.1532
千疊	-11.1533
作三字	-11.1534
前調趙長卿	-11.1536
淮海	-11.1549
放浪	-11.155
一句四字一句	-11.1553
烹茶	-11.1554
玉階	-11.1563
六字一句	-11.1564
相依	-11.1565
襦	-11.1572
林梢	-11.1578
二十五	-11.158
為一句	-11.1587
鵑	-11.159
鴻鴈	-11.1591
堪折	-11.1592
清樽	-11.1601
金烏	-11.1601
凰	-11.1603
璫	-11.1604
禮部	-11.1604
金貂	-11.1612
上林春	-11.1613
前調無名氏	-11.1613
張大烈	-11.1614
顧敻	-11.1616
九首	-11.1621
鶚	-11.1623
耆	-11.1624
朝朝暮暮	-11.1628
駁	-11.1628
四字三句	-11.1628
沈㑹宗	-11.1628
飛鳥	-11.1628
江兒水	-11.1629
籜	-11.1629
蔌蔌	-11.1629
愜	-11.163
花心動	-11.163
蓴羮	-11.163
前度劉郎	-11.163
瓏璁	-11.163
萸	-11.1631
剔銀燈	-11.1631
剗	-11.1631
泮	-11.1632
五仄韻後段九句	-11.1632
六州歌頭	-11.1633
掖	-11.1633
累遷	-11.1633
鵰	-11.1634
儒冠	-11.1635
舅	-11.1635
無憀	-11.1635
二闋	-11.1635
法曲獻仙音	-11.1635
綠陰	-11.1636
謨	-11.1636
惑	-11.1637
饞	-11.1637
歸去來兮	-11.1637
峩	-11.1638
俎	-11.1638
孤鶩	-11.1639
蔬	-11.164
菩薩	-11.1641
朔風	-11.1642
雙調一百一字前	-11.1643
羯鼓	-11.1644
潘鬢	-11.1644
紫薇	-11.1644
伍	-11.1645
喜氣	-11.1645
恕	-11.1646
䘮	-11.1647
倚危樓	-11.1647
我子見	-11.1647
到而今	-11.1648
甜水令	-11.1648
躊躇	-11.1649
管鑑	-11.1649
香馥馥	-11.165
鱗鴻	-11.1651
眀月	-11.1652
冰壺	-11.1652
阮郎	-11.1652
啚	-11.1653
配偶	-11.1653
隄防	-11.1653
止不過	-11.1654
夜迢迢	-11.1657
𬗋花児序	-11.1663
上馬嬌	-11.1663
縈繫	-11.1664
錦袍	-11.1666
名士	-11.1669
危亭	-11.167
可証	-11.1673
牕外	-11.1674
我見他	-11.168
王建	-11.1685
驪歌	-11.1685
吟鞭	-11.169
王母	-11.1701
四十七字	-11.1702
少陵	-11.1704
正值	-11.1704
可校	-11.1708
露洗	-11.1711
空相憶	-11.1712
知他是	-11.172
東牆	-11.172
滿斟	-11.173
揺動	-11.1732
字仄聲第	-11.1736
堪誇	-11.1744
爛醉	-11.1746
攜手處	-11.1748
送行人	-11.1753
東風軟	-11.1755
庭樹	-11.1766
□□□□□	-11.1768
銀臺	-11.1783
斷鴻	-11.1791
蘇詞	-11.1806
乗鸞	-11.1811
嬌媚	-11.1812
南宋	-11.1819
葉小鸞	-11.1819
橋畔	-11.1836
堪羡	-11.1837
帘	-11.1844
詰	-11.1844
草堂詩餘	-11.1845
裙帶	-11.1845
汪元量	-11.1846
紉	-11.1847
與前詞	-11.1849
卮	-11.1849
麯	-11.185
梁少白	-11.185
唳	-11.1851
賒	-11.1851
屯田	-11.1851
譌	-11.1851
李煜	-11.1852
篌	-11.1852
晁端禮	-11.1852
拓	-11.1852
彥	-11.1852
員外郎	-11.1853
諫	-11.1853
遨	-11.1853
瞑	-11.1853
蔕	-11.1854
摩挲	-11.1854
竄	-11.1855
崑	-11.1855
烱	-11.1855
矯	-11.1856
蹈	-11.1856
楸	-11.1858
蔥	-11.1858
丘壑	-11.1859
馥郁	-11.1859
三十字	-11.186
給	-11.186
挈	-11.186
此與周詞同惟	-11.1862
平山堂	-11.1862
拾遺	-11.1862
蘋洲	-11.1863
晏同叔	-11.1863
縷金衣	-11.1863
皆變體也	-11.1863
往日	-11.1864
撑	-11.1864
人生行樂	-11.1864
詞之添字	-11.1865
􁬸	-11.1866
㗋	-11.1871
並頭蓮	-11.1872
九衢	-11.1874
慵整	-11.1874
元和令	-11.1874
今歲	-11.1876
樂陶陶	-11.1877
歐公	-11.1879
字平聲第五句	-11.188
侍宴	-11.1881
倦尋芳	-11.1882
最難忘	-11.1883
夫婦	-11.1885
可憎	-11.1887
百姓	-11.1888
芭蕉雨	-11.1892
暝色	-11.1893
想着那	-11.1896
珠簾捲	-11.19
恁般	-11.19
船頭	-11.1905
畫闌	-11.1905
當𥘉	-11.1905
撲面	-11.1906
品令	-11.1908
羅䄂	-11.1909
㱕期	-11.1911
紗厨	-11.1914
不如歸去	-11.1914
三島	-11.1915
丹陽	-11.192
後起句	-11.1921
撲撲	-11.1923
都付與	-11.1928
錦箋	-11.1929
前調秦觀	-11.1932
鞋兒	-11.1933
小艇	-11.1934
征鴈	-11.1952
偏照	-11.1958
暮靄	-11.1961
減一字異	-11.1961
憐惜	-11.1966
曲檻	-11.1971
木落	-11.1973
小紅樓	-11.198
疎枝	-11.1984
仄平平	-11.1989
簷前	-11.1991
瀟	-11.1992
剪燭	-11.2
不可從	-11.2003
昏昏	-11.2006
離合	-11.201
黄蘆	-11.2011
彩鸞	-11.2011
臺畔	-11.2019
爭忍	-11.2022
龍虎	-11.2025
鳳池	-11.2028
七十五字	-11.203
醉卧	-11.2041
雞聲	-11.2047
異鄉	-11.2048
姊	-11.2053
句取以為名	-11.2064
七言絶句	-11.2065
仄韻後段十二句	-11.2068
華表	-11.2068
似舊時	-11.2069
逃禪	-11.207
禊	-11.2071
難續	-11.2072
豚	-11.2073
軿	-11.2076
灾	-11.2076
采桑子	-11.2076
紵	-11.2077
陶陶	-11.2078
夲	-11.2078
鼉	-11.2079
矗	-11.208
潺湲	-11.2081
李昴英	-11.2082
嬰	-11.2083
詫	-11.2083
慙	-11.2084
决	-11.2084
挑菜	-11.2084
髓	-11.2085
林鍾商	-11.2085
枚	-11.2085
潯陽	-11.2085
麴塵	-11.2086
袴	-11.2086
尊罍	-11.2087
蘄	-11.2088
朱希真	-11.2088
博士	-11.2089
䟎	-11.2092
瑟瑟	-11.2092
墟	-11.2092
登高	-11.2092
鵾	-11.2092
歡咲	-11.2092
鴛瓦	-11.2093
唐虞	-11.2093
淥	-11.2093
幕府	-11.2093
篆香	-11.2095
砕	-11.2097
諸葛	-11.2098
慌	-11.2098
星辰	-11.2099
体	-11.2105
郊原	-11.2106
宜男	-11.2106
追陪	-11.2107
荻花	-11.2107
持杯	-11.2108
仙吕調	-11.2109
名姓	-11.211
書齋	-11.2111
層城	-11.2115
華夷	-11.2115
珠履	-11.2116
曽經	-11.2118
金徽	-11.2118
朱闌	-11.2119
樵夫	-11.2119
千條	-11.2129
霞觴	-11.213
市橋	-11.2133
鶯芲	-11.2134
四季	-11.2135
過秦樓	-11.2136
星稀	-11.2146
分袂	-11.2148
塞鴈	-11.215
終須	-11.215
碧霄	-11.2151
衣襟	-11.216
首可校	-11.2161
画閣	-11.2167
錦𬒳	-11.219
髙卧	-11.2194
盛開	-11.2196
後段十句四平韻	-11.2197
風光好	-11.2199
鸞鳯	-11.2202
蜀道	-11.2203
傳消息	-11.2204
八十九字	-11.2207
故友	-11.222
慘慘	-11.2221
召為	-11.2226
太真	-11.2236
昏鴉	-11.2249
第二字	-11.2252
憶少年	-11.2256
山妻	-11.2257
涯	-11.2258
以此詞為正體	-11.2263
詞結句	-11.2284
淡妝	-11.2287
周羙成	-11.2291
慎	-11.2298
蛻	-11.2304
槿	-11.2305
搔	-11.2305
畹	-11.2309
惺	-11.2309
杖屨	-11.231
王安石	-11.231
婺	-11.2311
踟蹰	-11.2311
倖	-11.2312
焰	-11.2312
瀰	-11.2312
孺	-11.2312
霅	-11.2313
燕歸梁	-11.2313
督	-11.2313
萱草	-11.2313
雉	-11.2314
濡	-11.2314
氛	-11.2315
陳亮	-11.2315
照此填	-11.2315
哦	-11.2316
旨	-11.2316
紫騮	-11.2317
晁無咎	-11.2318
鞚	-11.2318
宏	-11.2319
駝	-11.2319
觜	-11.2319
金人捧露盤	-11.2319
翛然	-11.2319
銀潢	-11.2319
餳	-11.232
眷戀	-11.232
藩	-11.232
驗	-11.232
鉢	-11.232
吼	-11.2321
螿	-11.2321
蜻蜓	-11.2322
緋	-11.2324
哥哥	-11.2324
雜録	-11.2325
牒	-11.2326
綠窗	-11.2326
鸞膠	-11.2328
􁒭	-11.2328
麄	-11.2332
擬倩	-11.2334
絳闕	-11.2335
金莖	-11.2335
鴈兒落	-11.2336
曹冠	-11.2336
古水仙子	-11.2337
歎息	-11.2337
睂黛	-11.2339
春將暮	-11.234
瑣窗	-11.2342
槐隂	-11.2343
通宵	-11.2343
九十三字	-11.2345
追歡	-11.2347
月朦朧	-11.2353
牽掛	-11.2354
蕭散	-11.2357
生辰	-11.2362
江楓	-11.2363
鴛鴦浦	-11.2364
牛女	-11.2374
泪眼	-11.2379
真箇是	-11.2383
㝷芳	-11.2383
文鴛	-11.2383
冬景	-11.2385
玉斧	-11.2387
近清明	-11.2392
字平聲譜内可平可仄據此	-11.2392
命薄	-11.2395
秦楼	-11.2395
桂華	-11.2399
搖落	-11.2403
芳草渡	-11.2415
故苑	-11.2416
六平韻	-11.2417
荷衣	-11.242
密意	-11.2433
閃的	-11.2437
熏爐	-11.2454
侍女	-11.246
桃芲	-11.2463
蓮歩	-11.2475
妝臺	-11.2475
詞第七句	-11.2504
舸	-11.2506
覺来	-11.2513
作七字一句	-11.2518
疎林	-11.2523
鳯簫	-11.2533
昼	-11.2536
􁑴	-11.2537
二十八字	-11.2537
深巷	-11.254
萬年歡	-11.2542
媿	-11.2544
檄	-11.2544
白樸	-11.2546
芙	-11.2547
清平調	-11.2547
版	-11.2549
揺曳	-11.2549
醴	-11.2549
尊俎	-11.2549
毛熙震	-11.2549
薛昭藴	-11.2549
淡泞	-11.255
繪	-11.255
無重數	-11.2551
罍	-11.2551
屧	-11.2551
釘	-11.2551
漣漪	-11.2551
猿啼	-11.2552
史邦卿	-11.2552
濟翁	-11.2553
冦	-11.2554
磚	-11.2555
潁	-11.2556
銓	-11.2556
批	-11.2556
溶	-11.2556
駭	-11.2558
缷	-11.2558
馬莊父	-11.2558
祓	-11.2558
哄	-11.256
晴嵐	-11.256
陡覺	-11.2562
錐	-11.2563
木犀	-11.2564
緱	-11.2565
軫	-11.2566
䧟	-11.2566
糧	-11.2566
雍容	-11.2566
攸攸	-11.2567
欵欵	-11.2568
揑	-11.2569
杜甫	-11.2571
㨂	-11.2572
擺列着	-11.2572
織就	-11.2572
堆積	-11.2574
變化	-11.2578
趙鼎	-11.2578
詞句讀	-11.2581
作八字	-11.2581
判官	-11.2583
元豐	-11.2588
形勝	-11.2591
李甲	-11.2591
春歸何處	-11.2594
嘉定	-11.2596
簷外	-11.2598
性格	-11.2605
舞榭	-11.2609
慶元	-11.2613
五代	-11.2625
芙蓉帳	-11.2628
呉興	-11.2633
一掬	-11.2635
彎彎	-11.2644
前調黄庭堅	-11.2648
忍負	-11.2654
武陵春	-11.2655
綵鸞	-11.266
本譜	-11.2677
據此	-11.268
段起句	-11.2686
六字折腰	-11.2687
雙調九十六字前	-11.2687
始於	-11.2691
庭戸	-11.2695
駿	-11.2699
調詞一百	-11.2711
蒲江	-11.2737
刻本	-11.274
舞霓裳	-11.2742
蘇東坡	-11.275
未穩	-11.2756
瞬	-11.2761
五十七字	-11.2763
雙調一百四字前	-11.2767
雙雙燕	-11.2772
慨	-11.2782
廖	-11.2783
輙	-11.2785
吴文英	-11.2787
欒	-11.2788
聰	-11.279
帚	-11.279
陸務觀	-11.2791
貝	-11.2792
韈	-11.2793
績	-11.2794
儕	-11.2794
哈	-11.2795
䟽	-11.2795
決	-11.2795
林正大	-11.2796
藁	-11.2796
矩	-11.2796
哽咽	-11.2796
蝸	-11.2796
𤨏	-11.2796
蔡松年	-11.2797
陸費墀欽定四庫全書	-11.2797
沖	-11.2798
白樂天	-11.2798
廬陵人	-11.2798
潦倒	-11.2799
筋	-11.2799
囚	-11.28
泗	-11.28
纒綿	-11.28
釃	-11.28
湮	-11.28
麋鹿	-11.28
垓	-11.2801
蝦	-11.2801
㕘校	-11.2801
穉	-11.2801
交頸	-11.2802
濺濺	-11.2802
颯	-11.2802
纍纍	-11.2803
蘆川	-11.2804
靈犀	-11.2804
淋浪	-11.2804
﨑嶇	-11.2805
玉漏遲	-11.2806
覊	-11.2806
造物	-11.2806
糖	-11.2808
危䦨	-11.2808
詞之減字	-11.2809
鑚	-11.281
沽羙酒	-11.281
咨	-11.2811
吠	-11.2811
矦	-11.2812
只落得	-11.2813
律吕	-11.2814
簷牙	-11.2815
因詞有	-11.2815
清江引	-11.2816
嘱付	-11.2816
掂	-11.2817
􁋑	-11.2817
廽	-11.2817
銀箭	-11.2819
拐	-11.2821
三閭	-11.2822
喒	-11.2824
字仄聲結句	-11.2824
抛棄	-11.2824
梁苑	-11.2826
歡宴	-11.2827
熏籠	-11.2828
青驄	-11.2828
數歸期	-11.2831
永叔	-11.2832
羅裳	-11.2833
眞箇	-11.2833
腸断	-11.2835
繡幕	-11.284
楓林	-11.2844
稱觴	-11.2846
沈腰	-11.2848
檀口	-11.2854
幾時休	-11.2865
恁時節	-11.2867
他那里	-11.287
所采	-11.287
鼇山	-11.2872
檻外	-11.2877
瀟瀟雨	-11.2877
文選	-11.2878
殘暑	-11.2886
武林	-11.289
㝷思	-11.2894
髙臥	-11.2898
仁宗	-11.2904
日烘	-11.2912
□□□	-11.2917
平韻後段十一句	-11.2926
前後段第三句	-11.2931
所製	-11.2957
起二句	-11.3
嬴	-11.3007
許多時	-11.3018
悠颺	-11.3018
无咎	-11.303
蛺蝶	-11.303
夙	-11.3036
睂嫵	-11.3037
褐	-11.3038
竇	-11.3039
戴復古	-11.3039
扮	-11.3039
萱	-11.3039
鶩	-11.3039
望海潮	-11.304
霓裳羽衣	-11.3041
藴	-11.3043
雙調九十八字前	-11.3043
御定詞譜巻	-11.3043
曇	-11.3044
掾	-11.3045
産	-11.3046
豁	-11.3046
㪅	-11.3046
喻	-11.3047
供奉	-11.3047
第七八句	-11.3047
曾覿	-11.3048
琚	-11.3049
怎能勾	-11.3049
朕	-11.3049
黙黙	-11.305
迎仙客	-11.3051
忍聽	-11.3051
藜	-11.3051
雞犬	-11.3051
賛	-11.3052
洪瑹	-11.3052
効	-11.3052
對酒當歌	-11.3052
酥胸	-11.3053
芹	-11.3053
朦	-11.3054
羔	-11.3054
囪	-11.3055
掀髯	-11.3056
皎皎	-11.3056
漏泄	-11.3056
㶑灔	-11.3056
寳瑟	-11.3057
漁蓑	-11.3057
嚥	-11.3057
閃閃	-11.3058
岀	-11.3058
并刀	-11.3058
林逋	-11.3059
脫布衫	-11.3059
㑹稽	-11.306
喘	-11.3061
譲	-11.3061
嵌	-11.3062
五十九字	-11.3063
扭	-11.3063
雍熈	-11.3064
㤙	-11.3065
庭院深深	-11.3068
販	-11.3069
不成眠	-11.3069
前調謝逸	-11.3069
喬牌兒	-11.307
他他他	-11.3071
常言道	-11.3072
汲古刻	-11.3073
包蔵	-11.3074
促拍	-11.3076
芳辰	-11.3078
月姊	-11.308
輸他	-11.3083
喜的是	-11.3086
俊雅	-11.3087
想着他	-11.3092
塞管	-11.3097
儘教	-11.3097
幾陣	-11.3098
野塘	-11.3099
余謂	-11.31
節物	-11.3106
玉簫聲	-11.3117
蘇州	-11.3127
牢落	-11.3134
想人生	-11.3151
襟懐	-11.3152
楚腰	-11.3153
做一箇	-11.3155
堪嗟	-11.3156
一百八字	-11.3161
寳鏡	-11.3162
玉搔頭	-11.3203
光射	-11.3207
平仄亦	-11.3215
綺羅叢	-11.3243
何由	-11.3262
詣	-11.3282
睇	-11.3284
姪	-11.3289
舛	-11.329
暘	-11.3295
蝶恋花	-11.3296
趙令畤	-11.3296
州刺史	-11.3297
〇	-11.3298
歷	-11.3298
湄	-11.3299
平平仄仄	-11.3299
倪	-11.33
濠	-11.33
十五家詞巻	-11.33
勺	-11.33
闐	-11.33
翰林院檢討	-11.3301
糊	-11.3302
貽	-11.3302
桃源憶故人	-11.3302
蔲	-11.3302
蹁	-11.3303
凈	-11.3304
斫	-11.3304
蹀躞	-11.3305
帔	-11.3306
謎	-11.3307
亨	-11.3307
轅	-11.3308
鶯啼序	-11.3308
一輪明月	-11.3309
殢人嬌	-11.331
罏	-11.331
王維	-11.3311
彭澤	-11.3312
呈瑞	-11.3313
字仄聲第六句	-11.3313
一壁廂	-11.3313
朝雲暮雨	-11.3313
柴桑	-11.3314
釅	-11.3314
老人星	-11.3315
撅	-11.3316
百囀	-11.3316
絮叨叨	-11.3316
層層	-11.3316
小姐	-11.3317
上小楼	-11.3318
清商怨	-11.3318
扳	-11.3318
蠻牋	-11.3318
蠅頭	-11.3318
牧童	-11.3319
揚鞭	-11.332
紗牕	-11.332
憑欄	-11.3322
觀察	-11.3323
髄	-11.3323
湘妃	-11.3323
揪	-11.3324
當此際	-11.3327
結同心	-11.3329
我則待	-11.3331
承恩	-11.3333
前調范成大	-11.3333
不堪回首	-11.3334
後段第一二句	-11.3335
除夕	-11.3336
字平聲第二句	-11.3347
賞花時	-11.3347
大抵	-11.3348
四五句	-11.3349
雞鳴	-11.3349
睂峰	-11.335
南澗	-11.3351
鵞黄	-11.3358
通篇	-11.3359
紹興中	-11.3359
延年	-11.3361
踈簾	-11.3362
枉費	-11.3363
芰荷香	-11.3364
阻隔	-11.3367
目㫁	-11.3367
歡聚	-11.3368
當筵	-11.338
催促	-11.3385
部侍郎	-11.3386
空教我	-11.3407
一任他	-11.3412
淚灑	-11.3422
萬朶	-11.3433
心堅	-11.3436
画角	-11.3494
三字兩句	-11.35
落魄	-11.3511
倚危欄	-11.3531
派	-11.3535
悠	-11.3536
諭	-11.3543
稚	-11.3544
菲	-11.3548
鉉	-11.3551
綫	-11.3552
袋	-11.3554
臞	-11.3555
泳	-11.3556
嬈	-11.3557
璇	-11.3557
犂	-11.3557
牛希濟	-11.3557
巘	-11.3557
羗	-11.3558
無覓處	-11.3559
眩	-11.3559
詹	-11.356
濃如酒	-11.356
紇	-11.356
氅	-11.356
菩薩蛮	-11.3561
京鏜	-11.3561
葭	-11.3563
冥冥	-11.3563
㬠	-11.3564
糾	-11.3564
崑崙	-11.3564
孚	-11.3564
搽	-11.3565
江北江南	-11.3565
胡浩然	-11.3566
斕	-11.3566
奎	-11.3567
八六子	-11.3568
叱	-11.3569
軀	-11.3569
姜堯章	-11.3569
黔	-11.357
蜕	-11.357
頸	-11.357
朽	-11.357
咳	-11.3571
恥	-11.3571
嚦嚦	-11.3572
抖擻	-11.3572
榮辱	-11.3573
字之訛	-11.3574
用尤侯韻	-11.3574
橊	-11.3574
不注可仄	-11.3574
滕王	-11.3575
祀	-11.3575
覧	-11.3576
瑯	-11.3577
功業	-11.3578
真乃是	-11.358
厖	-11.358
傷懐抱	-11.358
杜䳌啼	-11.3582
調笑令	-11.3582
岐路	-11.3583
劉伶	-11.3586
及第	-11.3586
羙甘甘	-11.3586
赶	-11.3587
水闊	-11.3588
胡床	-11.3589
維摩	-11.3591
清芬	-11.3593
唱陽關	-11.3594
思前事	-11.3594
抱琵琶	-11.3594
南柯子	-11.3596
瑶觴	-11.3596
我我我	-11.3596
寂靜	-11.3596
鄉闗	-11.3597
勝葫蘆	-11.3599
朋友	-11.3603
蘭蕙	-11.3605
字仄聲第二句	-11.3605
黄山谷	-11.3608
梦裡	-11.3611
元帥	-11.3613
古寺	-11.3615
鸞箋	-11.3619
烏啼	-11.3628
八十二字	-11.3631
旅思	-11.3633
樹杪	-11.3667
左丞	-11.3694
衫䄂	-11.3714
屏幃	-11.3714
字一句六字一句	-11.3715
門半掩	-11.3729
秃	-11.3808
害的	-11.3819
霍	-11.3823
冊	-11.3825
王介甫	-11.3827
颿	-11.3827
拒	-11.3829
閻選	-11.383
迂	-11.383
厲	-11.3831
五仄韻後段八句	-11.3831
御選厯代詩餘巻	-11.3832
鞓	-11.3832
御選歴代詩餘	-11.3832
粼粼	-11.3834
蘇庠	-11.3834
鄂	-11.3836
元遺山	-11.3836
月恭校上	-11.3837
拄	-11.3837
𣲖	-11.3837
隈	-11.3838
李綱	-11.3839
前調晏㡬道	-11.384
㝠㝠	-11.384
傳言玉女	-11.384
罅	-11.384
鷓鴣啼	-11.3841
忻	-11.3841
崔徽	-11.3841
揩	-11.3842
寇	-11.3842
餘酲	-11.3843
党	-11.3843
冨貴	-11.3844
鴛甃	-11.3844
恋	-11.3844
栩	-11.3844
泄	-11.3845
更和這	-11.3845
丹墀	-11.3845
磕	-11.3846
宋徽宗	-11.3846
疎影横斜	-11.3847
凄切	-11.3847
乾荷葉	-11.3848
怏	-11.3848
靈均	-11.3848
懊恨	-11.3849
伶俐	-11.385
早梅芳	-11.3852
萬籟	-11.3852
陶潜	-11.3853
一葉扁舟	-11.3853
銕	-11.3854
􁡾	-11.3855
淡竚	-11.3855
减字木蘭花	-11.3855
䓁	-11.3856
御溝	-11.3858
隴首	-11.3859
與前詞異	-11.3859
急煎煎	-11.3859
賺煞	-11.3872
則聴的	-11.3872
王魁	-11.3876
句讀參差	-11.3879
沙汀	-11.3882
暖律	-11.3882
登第	-11.3882
種種	-11.3883
山長水	-11.3886
雨霏霏	-11.3886
面皮	-11.3889
解佩	-11.389
評曰	-11.3896
漁陽	-11.39
羅襦	-11.3905
採菱	-11.3914
作三字兩句	-11.3929
蒼梧	-11.3943
十頃	-11.3948
前段第七句	-11.3978
娯	-11.4019
弓彎	-11.402
後段第八句	-11.404
永嘉	-11.4045
粧束	-11.409
倪瓚	-11.4097
䭾	-11.4097
肖	-11.4097
纖腰	-11.4099
佚	-11.41
荀	-11.4104
秦少㳺	-11.4105
士大夫	-11.4105
灼	-11.4105
佑	-11.4105
簸	-11.4107
琶	-11.4107
葺	-11.4107
嫣	-11.4108
涇	-11.4108
篤	-11.4108
焙	-11.4109
耆舊	-11.411
你㸔這	-11.411
諷	-11.411
爼	-11.411
耘	-11.411
愠	-11.411
劫	-11.411
輟	-11.411
逡巡	-11.4111
璞	-11.4111
鼠	-11.4111
冒	-11.4111
減字朩蘭花	-11.4112
繚	-11.4112
惜香樂府	-11.4113
不自由	-11.4113
沃	-11.4114
汙	-11.4114
夘	-11.4114
鑠	-11.4114
羃	-11.4114
李萊老	-11.4115
惜餘春	-11.4115
盂	-11.4117
人月圓	-11.4117
猗	-11.4117
穀	-11.4117
拄杖	-11.4118
蓬蒿	-11.4119
王惲	-11.4119
阿母	-11.4121
王詵	-11.4121
黃鶯兒	-11.4121
芙容	-11.4121
瓊簫	-11.4121
宗室	-11.4121
襄陽	-11.4121
嘹	-11.4122
臨卭	-11.4122
㐮王	-11.4123
迢遥	-11.4123
馳驟	-11.4123
畫橈	-11.4124
跪	-11.4124
匹配	-11.4124
恒	-11.4124
安公子	-11.4124
峙	-11.4125
溟濛	-11.4125
茂陵	-11.4126
參軍	-11.4126
忿	-11.4126
叨叨令	-11.4127
明璫	-11.4129
耍孩児	-11.4129
日初長	-11.413
衞	-11.413
鏝	-11.4131
雛鶯	-11.4131
皎潔	-11.4131
月上海棠	-11.4132
儉	-11.4133
芝蘭	-11.4133
匈	-11.4135
釣叟	-11.4135
二十四橋	-11.4135
建章	-11.4136
鳳輦	-11.4136
機謀	-11.4137
斗牛	-11.4139
亭臯	-11.414
盟誓	-11.4141
寛褪	-11.4143
苔痕	-11.4143
喜春来	-11.4143
委實	-11.4146
㸔了這	-11.4149
尾犯	-11.4151
楼䑓	-11.4153
仄仄平	-11.4155
好着我	-11.416
傳訛	-11.4163
聖夀	-11.4166
窓紗	-11.4171
怎敢	-11.4171
八十七字	-11.4177
河梁	-11.4177
想着俺	-11.4217
字起韻	-11.4224
劉鎮	-11.4226
寳篆	-11.423
七十六字	-11.423
今在否	-11.424
四字一句	-11.4245
胡蝶	-11.4291
七十二字	-11.4331
踈踈	-11.4345
玳	-11.4379
□□□□	-11.4379
□□□□□□□□□□□□□□□□	-11.4382
胄	-11.4388
唤	-11.4389
雜劇	-11.4391
瓏	-11.4391
琤	-11.4391
独	-11.4392
頴	-11.4392
能改齋	-11.4394
揔	-11.4394
睢	-11.4395
泫	-11.4395
黄梅雨	-11.4395
凛	-11.4395
怎奈向	-11.4396
訓	-11.4396
俾	-11.4397
曛	-11.4397
膽瓶	-11.4398
欽定四庫全書十五家詞巻	-11.4398
漚	-11.4399
孔雀	-11.4399
庫	-11.44
凖擬	-11.44
濁醪	-11.44
敦	-11.4401
滔滔	-11.4401
楹	-11.4402
煤	-11.4402
抛毬樂	-11.4402
謝無逸	-11.4403
脯	-11.4403
館娃	-11.4403
知制誥	-11.4404
東風第一枝	-11.4404
謝懋	-11.4405
参差	-11.4406
瞢騰	-11.4406
輭	-11.4406
無别首宋詞可校	-11.4406
啻	-11.4406
芦	-11.4407
㡳	-11.4407
凭肩	-11.4407
前調陳三聘	-11.4408
嘹喨	-11.4409
撏	-11.4409
遥岑	-11.4411
天長地乆	-11.4411
牛羊	-11.4412
絳綃	-11.4412
白蘋洲	-11.4413
絹	-11.4413
災	-11.4413
腸欲斷	-11.4414
叅校	-11.4414
便有那	-11.4415
弟兄	-11.4416
提壺	-11.4416
曺	-11.4416
絲綸	-11.4416
我和你	-11.4416
思佳客	-11.4416
銜杯	-11.4417
腿	-11.4418
鼙	-11.4418
笔	-11.4418
武夷	-11.4419
嗽	-11.4419
蛟龍	-11.442
洛神	-11.4421
簮纓	-11.4421
常子是	-11.4422
淒楚	-11.4422
謾贏得	-11.4423
豔冶	-11.4424
編修	-11.4424
歴官	-11.4425
荆楚	-11.4426
端詳	-11.4426
鋼	-11.4427
星眸	-11.4427
正值着	-11.443
字仄聲第五句	-11.443
排塲	-11.443
到天明	-11.443
瑤琴	-11.4432
字領句	-11.4436
綺窗	-11.4443
性命	-11.4449
你道是	-11.4467
務頭	-11.447
寥寥	-11.4484
三聲叶	-11.4511
百二十	-11.4532
皇帝	-11.4566
雙調九十七字前	-11.4572
杏梁	-11.4583
六十七字	-11.4614
譜内可平	-11.4643
荻	-11.4648
集一巻	-11.466
緜緜	-11.4679
莆	-11.4681
苧	-11.4683
系	-11.4683
苕溪漁隱	-11.4684
櫽括	-11.4685
匡	-11.4686
摭	-11.4688
張鎡	-11.4688
竦	-11.4688
歐良	-11.4688
辛㓜安	-11.4689
劉一止	-11.4689
乂	-11.469
樨	-11.469
太常引	-11.469
箆	-11.4691
薪	-11.4691
淞	-11.4692
毛澤民	-11.4692
弇	-11.4692
玉交枝	-11.4693
程珌	-11.4693
選冠子	-11.4693
輾	-11.4693
籃	-11.4693
婿	-11.4694
臍	-11.4694
玲瓏四犯	-11.4694
騃	-11.4694
雙調一百二字前段十句	-11.4694
所著有	-11.4695
可作平	-11.4695
浣紗	-11.4695
不校注	-11.4696
閻	-11.4696
搴	-11.4696
癯	-11.4697
突兀	-11.4697
冨	-11.4697
忠孝	-11.4698
肺腑	-11.4698
吕聖求	-11.4699
頒	-11.4699
籙	-11.4699
堵	-11.4699
檢㸃	-11.4699
雋	-11.4699
鬖	-11.4699
彞	-11.4699
槁	-11.47
舞裙歌扇	-11.47
燭影搖紅	-11.4701
劈	-11.4701
庭堅	-11.4701
凛凛	-11.4702
哨遍	-11.4702
蒲團	-11.4704
堞	-11.4705
撃	-11.4705
則他那	-11.4705
閙蛾	-11.4705
鼎鼐	-11.4705
捐	-11.4707
歳歳	-11.4708
銅雀	-11.4708
垢	-11.4709
村醪	-11.471
琴瑟	-11.4711
寍	-11.4712
淨洗	-11.4713
傒	-11.4713
囑付	-11.4714
紫花児序	-11.4715
壽陽妝	-11.4717
不枉了	-11.4717
瓦盆	-11.4717
去年今日	-11.4719
総	-11.4719
絶頂	-11.472
鳴珂	-11.472
𦍑管	-11.4724
擡頭	-11.4724
六幅	-11.4725
叢叢	-11.4727
禁苑	-11.4728
慵拈	-11.4735
画閤	-11.4735
元戎	-11.4739
傷嗟	-11.474
後次句	-11.4742
嬝嬝	-11.4754
珊枕	-11.4754
二字俱平聲	-11.4794
詞前段第四句	-11.4815
茶竈	-11.4823
瑕	-11.4973
蹟	-11.4978
葆	-11.498
唐教坊	-11.4981
猊	-11.4981
雙調八十二字前	-11.4982
呉子孝	-11.4983
箬笠	-11.4984
㶚	-11.4985
稜稜	-11.4985
屨	-11.4987
李元膺	-11.4988
登山臨水	-11.4989
榛	-11.4989
莱	-11.499
矢	-11.499
轆轤金井	-11.499
徊	-11.4991
張掄	-11.4991
逮	-11.4991
詞為正體	-11.4993
療	-11.4994
革	-11.4994
淺斟低唱	-11.4995
段克已	-11.4995
輞川	-11.4995
蠏	-11.4995
臭	-11.4995
韭	-11.4996
樾	-11.4996
苐	-11.4996
鬱鬱	-11.4996
抗	-11.4997
赭	-11.4997
脃	-11.4997
册	-11.4997
竅	-11.4998
黄叔暘云	-11.4999
頥	-11.4999
漱	-11.5
酺	-11.5
枰	-11.5
醽醁	-11.5001
琹	-11.5001
皤	-11.5002
尙	-11.5002
竹西歌吹	-11.5002
雙頭蓮	-11.5002
廿	-11.5003
中吕調	-11.5003
主簿	-11.5003
萍梗	-11.5003
浩渺	-11.5004
雨乍晴	-11.5004
一鈎新月	-11.5005
平韻後段四句三平韻	-11.5005
埀楊	-11.5006
芒鞋	-11.5006
麻姑	-11.5006
䋲	-11.5007
摔	-11.5007
飮	-11.5007
百卉	-11.5008
嬉逰	-11.5008
玳瑁筵	-11.5008
䖍	-11.5008
擂	-11.501
伶仃	-11.501
鱗鱗	-11.501
騎驢	-11.5011
㸔了他	-11.5011
妳	-11.5011
十餘年	-11.5011
比目魚	-11.5012
儧	-11.5012
丧	-11.5013
陂塘	-11.5014
敕	-11.5015
篱	-11.5016
衠	-11.5016
腌	-11.5018
趂着這	-11.5018
另格	-11.5018
滳	-11.5019
跟	-11.502
􁈼	-11.502
哎	-11.502
聡明	-11.5021
蕭寺	-11.5021
多管是	-11.5021
賔鴻	-11.5024
常則是	-11.5026
直喫的	-11.5026
貴妃	-11.5026
玉簫吹	-11.503
字仄聲譜内可平可仄據此	-11.5041
盻殺	-11.5188
浙江	-11.5201
雕簷	-11.522
滄江	-11.5237
娱	-11.5246
洶	-11.5288
洞簫	-11.5289
彭元遜	-11.5293
百宜嬌	-11.5294
淩	-11.5294
晶	-11.5295
三萬六千	-11.5295
崦	-11.5296
豓	-11.5298
脉	-11.5299
湔	-11.53
僧揮	-11.5301
弩	-11.5301
騶	-11.5302
䓻	-11.5302
溺	-11.5302
蔗	-11.5302
冐	-11.5303
聯	-11.5304
捕	-11.5304
謝池春	-11.5305
卞	-11.5305
巫山一段雲	-11.5305
噎	-11.5307
翠葆	-11.5307
霓裳中序第一	-11.5308
蘼	-11.5308
暮雲凝碧	-11.5308
可平可仄悉㕘	-11.5308
錚	-11.5308
茅舎	-11.5308
詞㫖警句	-11.5309
螭	-11.5309
劉儗	-11.5309
卟	-11.5309
堯舜	-11.531
劉改之	-11.531
騐	-11.531
篛	-11.5311
魯直	-11.5311
鏗	-11.5311
鐸	-11.5311
皪	-11.5312
朩犀	-11.5312
刘	-11.5312
珏	-11.5313
穎	-11.5313
厥	-11.5313
侭	-11.5313
婁	-11.5314
懼	-11.5314
俳	-11.5314
蘇幕遮	-11.5315
貎	-11.5315
黃鸝	-11.5315
称	-11.5315
掘	-11.5315
籤	-11.5315
詞同惟前段起句	-11.5315
凴	-11.5316
壤	-11.5316
思越人	-11.5316
熬煎	-11.5316
珎	-11.5318
燄	-11.5318
懵	-11.5319
筑	-11.5319
慶春澤	-11.5319
嘈	-11.532
饌	-11.532
婷婷	-11.5321
犀梳	-11.5321
湛湛	-11.5322
字平聲第七句	-11.5322
寥落	-11.5323
傀儡	-11.5323
嫵媚	-11.5323
菡蓞	-11.5324
哩	-11.5324
僃	-11.5325
蠟炬	-11.5325
駟馬	-11.5326
我子待	-11.5326
口脂	-11.5326
夀域	-11.5327
紙帳	-11.5327
曙色	-11.5328
翰林院	-11.533
六么令	-11.5331
暢好是	-11.5331
苫	-11.5333
拘管	-11.5333
靈芝	-11.5333
襴	-11.5335
困騰騰	-11.5335
當壚	-11.5336
􁅘	-11.5336
輳	-11.5337
陪奉	-11.5338
寸寸	-11.5344
朶朶	-11.5348
受了些	-11.5352
卒諡	-11.5354
凱歌	-11.5392
詞為正體若	-11.5396
三十六陂	-11.542
註可平	-11.5451
賺尾	-11.5461
獸爐	-11.5519
韻後段八句	-11.5525
戍樓	-11.5539
子夜歌	-11.5609
周邦彥	-11.5613
菡萏	-11.5616
拔	-11.562
副	-11.5622
齅	-11.5623
悰	-11.5623
喪	-11.5623
嫂	-11.5625
高觀國	-11.5626
榆莢	-11.5626
獵獵	-11.5627
瑞龍吟	-11.5628
磴	-11.5628
諒	-11.5628
笄	-11.5628
腋	-11.5629
鸚	-11.5629
芊	-11.5629
址	-11.563
駢	-11.563
裯	-11.563
釵頭鳳	-11.5631
腐	-11.5631
悒怏	-11.5631
瞿塘	-11.5631
躋攀	-11.5631
隔浦蓮	-11.5631
傾國傾城	-11.5631
耽	-11.5632
荀令	-11.5632
抵死	-11.5632
撋	-11.5632
甍	-11.5632
百字令	-11.5632
踰	-11.5633
暗香疎影	-11.5633
鶻	-11.5633
屐齒	-11.5633
杖藜	-11.5633
竹籬茅舍	-11.5634
溆	-11.5635
□□□□□□□□□□	-11.5635
可仄據此	-11.5635
珞	-11.5636
揮麈	-11.5637
仞	-11.5637
樂府一巻	-11.5638
鋏	-11.5638
搆	-11.5638
衮衮	-11.5638
無覔處	-11.5638
雙調五十三字	-11.5638
肘	-11.5638
字仄聲第七句	-11.5639
寝	-11.5639
摟	-11.5639
粥	-11.564
赫	-11.564
禎	-11.564
辯	-11.5641
雨中花慢	-11.5641
登眺	-11.5641
俏冤家	-11.5642
剜	-11.5642
搶	-11.5642
唾壺	-11.5643
虎豹	-11.5643
並蔕	-11.5643
驪珠	-11.5643
堅牢	-11.5644
邯郸	-11.5644
元来是	-11.5644
雙調五十字前後	-11.5644
盗	-11.5645
句讀小異	-11.5645
姨夫	-11.5646
綸竿	-11.5646
棒	-11.5648
踅	-11.5648
堯民歌	-11.5649
齊臻臻	-11.565
𬋩	-11.5651
玳瑁	-11.5651
吃	-11.5654
榮貴	-11.5656
贍	-11.5656
蹴踘	-11.5658
氣爽	-11.5659
茶飯	-11.5659
盤桓	-11.566
各減一字	-11.5661
担	-11.5661
銅壷	-11.5669
想當𥘉	-11.5675
桃葉渡	-11.5696
能消幾	-11.5709
薰爐	-11.5712
用韻異	-11.5791
昏慘慘	-11.58
右丞	-11.5847
撲簌簌	-11.5923
囯	-11.5943
此調秪有此詞	-11.5943
澡	-11.5948
詵	-11.5949
琱	-11.5952
竺	-11.5954
甥	-11.5954
暌	-11.5955
斥	-11.5956
䳌	-11.5956
張志和	-11.5956
薜	-11.5958
灞陵	-11.5958
婉娩	-11.5958
許棐	-11.5958
銀蒜	-11.5959
楷	-11.5959
䯳	-11.5959
忤	-11.5959
浩浩	-11.596
椎	-11.596
羅韈	-11.596
覃	-11.5961
㶑	-11.5962
縮	-11.5963
磻	-11.5963
河滿子	-11.5963
樽罍	-11.5963
用先天韻	-11.5963
禧	-11.5963
鍼線	-11.5964
舷	-11.5964
蘓軾	-11.5964
欽定四庫全書詞綜巻	-11.5964
慇勤	-11.5964
采菱拾翠	-11.5964
閶	-11.5965
辛幼安	-11.5965
蒋	-11.5965
誌	-11.5965
鎔	-11.5966
颸	-11.5966
献	-11.5966
雙調五十六字前後	-11.5966
㐮	-11.5966
黄公度	-11.5967
緖	-11.5967
渌	-11.5967
憾	-11.5968
哲	-11.5968
勛	-11.5968
迫	-11.5968
闔	-11.5968
懋	-11.5969
俻	-11.5969
鞏	-11.597
婆羅門引	-11.597
驊騮	-11.5971
儔侣	-11.5971
碧雞漫志	-11.5971
艾虎	-11.5971
吻	-11.5972
桑麻	-11.5972
汞	-11.5972
丙午	-11.5973
儆	-11.5973
脱布衫	-11.5973
朙	-11.5973
宗吉	-11.5975
踢	-11.5975
六仄韻後段九句	-11.5975
蝦鬚	-11.5975
霜葉飛	-11.5976
冽	-11.5976
樽爼	-11.5977
塟	-11.5978
水雲鄉	-11.5978
悽悽	-11.5979
趄	-11.5981
山花子	-11.5981
盪	-11.5982
燦爛	-11.5983
惮	-11.5985
挐	-11.5985
禎祥	-11.5985
捜	-11.5986
扎	-11.5987
嗟呀	-11.5994
無半點	-11.5995
雏	-11.5996
八十三字	-11.6013
夷堅	-11.6015
前段第六句	-11.6046
七十九字	-11.6075
據此餘叅	-11.6118
詞曲類	-11.6269
仄韻後段九句	-11.6285
崩	-11.6295
珪	-11.6296
艋	-11.6297
邵亨貞	-11.6297
睨	-11.6301
岷峨	-11.6302
杉	-11.6302
芋	-11.6302
僮	-11.6303
蠢	-11.6303
一刻千金	-11.6303
纂	-11.6304
扁	-11.6304
䌓	-11.6304
矛	-11.6304
解三酲	-11.6304
誣	-11.6305
憩	-11.6305
肱	-11.6305
聶	-11.6306
作四字兩句	-11.6306
祚	-11.6306
顋	-11.6306
懊	-11.6307
王世貞	-11.6307
参	-11.6307
輅	-11.6308
梵	-11.6308
沂	-11.6308
窅	-11.6308
夜行舡	-11.6309
敘	-11.6309
奮	-11.6309
桃花流水鱖魚肥	-11.631
懿	-11.631
苧蘿	-11.6311
叵	-11.6311
石州慢	-11.6311
灝	-11.6312
少押一韻	-11.6312
涪	-11.6312
北邙	-11.6312
忡忡	-11.6312
壞	-11.6312
叨	-11.6313
匏	-11.6313
辛稼軒	-11.6313
縐	-11.6314
蟬噪	-11.6314
小石調	-11.6315
劉圻父	-11.6315
繹	-11.6315
槊	-11.6315
溽	-11.6316
紅日三竿	-11.6316
戀繡衾	-11.6317
雨初收	-11.6317
彚	-11.6317
捫	-11.6317
詐	-11.6317
大晟府	-11.6317
惻惻	-11.6318
霓旌	-11.6318
蕾	-11.6319
燕侣鶯儔	-11.6319
爍	-11.6319
冀	-11.6321
蚨	-11.6321
鉗	-11.6322
囱囱	-11.6322
傚	-11.6322
簽	-11.6322
江山如畫	-11.6323
皁	-11.6324
鈍	-11.6324
雙調五十五字前	-11.6324
水光山色	-11.6326
觥籌	-11.6326
殿前歡	-11.6326
斈	-11.6327
彬	-11.6328
旺	-11.6329
狻猊	-11.6329
一翦梅	-11.6337
逰四門	-11.6338
嗟吁	-11.6341
鼎沸	-11.636
河朔	-11.6516
後段第四五句	-11.6584
聲譜内可平可仄據此餘㕘	-11.663
晏㡬道	-11.6642
晧	-11.6647
𨽻	-11.6648
詞苑叢談	-11.6649
酪	-11.6651
稹	-11.6654
䆫	-11.6656
一句七字一句	-11.6657
幰	-11.6657
寞	-11.6658
宕	-11.6658
麝煤	-11.666
郁	-11.6661
紳	-11.6661
逾	-11.6661
罄	-11.6662
贅	-11.6663
寉	-11.6663
滙	-11.6664
摩訶池	-11.6664
遯	-11.6665
概	-11.6665
槍	-11.6665
幛	-11.6666
衘	-11.6666
雙調一百二字前段十一句	-11.6666
娑	-11.6666
唐敎坊	-11.6666
物是人非	-11.6667
褉	-11.6667
餚	-11.6667
燠	-11.6668
豫	-11.6668
撈	-11.6669
閶闔	-11.6669
王之道	-11.6669
尉遲杯	-11.6669
無可考	-11.6669
䗶	-11.667
熒煌	-11.667
雙調五十四字前後	-11.6671
顆顆	-11.6671
厦	-11.6671
雙調五十二字前段	-11.6671
㬰	-11.6671
鞾	-11.6671
刁	-11.6672
協律	-11.6672
㨗	-11.6672
韋荘	-11.6672
規模	-11.6672
緇	-11.6673
駸駸	-11.6673
碗	-11.6673
甲辰	-11.6673
凨入松	-11.6674
甆	-11.6674
飄颻	-11.6674
顱	-11.6675
丫鬟	-11.6675
陟	-11.6675
牙籖	-11.6675
裵	-11.6676
鳶	-11.6677
曉風殘月	-11.6677
擦	-11.6677
露冷風清	-11.6678
疋	-11.6679
眇	-11.668
臈	-11.668
􁋍	-11.6681
猫	-11.6682
眼睜睜	-11.6682
嬪	-11.6682
天来大	-11.6683
㶚橋	-11.6684
呀呀呀	-11.6685
醉扶歸	-11.6686
紐	-11.6686
森森	-11.6687
青哥兒	-11.6687
到大来	-11.6689
尔	-11.6691
湏臾	-11.6693
掙	-11.6694
山横翠	-11.6703
王庭筠	-11.7018
段各十一句	-11.7019
核	-11.702
郤	-11.7022
䔥	-11.7023
裠	-11.7023
九張機	-11.7024
偽	-11.7026
艣	-11.7027
玦	-11.7027
好天良夜	-11.7027
頤	-11.7028
咿	-11.7029
阡	-11.7029
趙徳麟	-11.7029
辞	-11.7029
壠	-11.703
西平樂	-11.7031
彛	-11.7031
噀	-11.7032
磵	-11.7032
戱	-11.7032
詎	-11.7032
江城梅花引	-11.7033
戛	-11.7033
羃羃	-11.7033
賞心樂事	-11.7034
訖	-11.7034
朱彛尊	-11.7034
苕溪漁隠	-11.7034
謗	-11.7035
困人天氣	-11.7035
張仲宗	-11.7035
攤	-11.7036
値	-11.7036
迎春樂	-11.7036
廓	-11.7036
穰	-11.7036
四平韻後段九句	-11.7037
匠	-11.7037
搖曳	-11.7037
琖	-11.7038
蘇武慢	-11.7038
峡	-11.7038
圜	-11.7038
匆	-11.7039
攧	-11.7039
醋	-11.7039
修禊	-11.7039
莓苔	-11.704
破陣子	-11.704
煨	-11.704
岳陽樓	-11.7041
褶	-11.7041
張安國	-11.7041
肇	-11.7042
此與栁詞同惟	-11.7042
魚遊春水	-11.7042
習習	-11.7043
攸	-11.7043
搏	-11.7043
耨	-11.7043
瘞	-11.7044
蛮	-11.7044
肝腸	-11.7044
䆒	-11.7045
鈆	-11.7045
俛仰	-11.7046
割捨	-11.7046
吝	-11.7047
喊	-11.7047
將愁去	-11.7047
紬	-11.7048
夥	-11.7048
急管繁絃	-11.7048
睿	-11.7048
齁	-11.7048
渺茫	-11.7049
托頼着	-11.7049
後段七句三仄韻	-11.7049
騅	-11.7049
弊	-11.7049
篠	-11.705
櫻唇	-11.705
鍬	-11.7051
藜杖	-11.7054
第十一句	-11.7055
離亭宴煞	-11.7055
咬	-11.7056
圈	-11.7057
一封書	-11.7058
搧	-11.7059
夜合花	-11.7059
是是是	-11.7063
滴溜溜	-11.707
花自落	-11.711
能有幾	-11.7231
緝	-11.7392
陳振孫書録解題	-11.7393
構	-11.7398
陳三聘	-11.7402
樗	-11.7408
馮取洽	-11.7409
儻	-11.7409
藏短韻	-11.741
繒	-11.741
軾	-11.7411
姚雲文	-11.7411
雙調九十九字前	-11.7412
拜星月慢	-11.7412
袞	-11.7413
小秦王	-11.7414
仝	-11.7416
瑜	-11.7416
瑛	-11.7417
向伯恭	-11.7418
淅瀝	-11.7418
琲	-11.742
或加慢字	-11.742
丙辰	-11.742
恍惚	-11.742
菩	-11.7421
晁无咎	-11.7421
巍	-11.7421
繍	-11.7421
梅子黄時雨	-11.7421
鬰	-11.7422
崕	-11.7422
汐	-11.7422
朱熹	-11.7422
荆棘	-11.7422
愿	-11.7422
嘹唳	-11.7423
翮	-11.7423
薬	-11.7423
高麗史樂志	-11.7424
衿	-11.7424
鐃	-11.7424
李俊民	-11.7425
偓	-11.7425
舄	-11.7425
淳祐	-11.7426
咨嗟	-11.7426
鳷	-11.7426
畿	-11.7426
㨿	-11.7426
庻	-11.7427
駞	-11.7427
搵	-11.7427
藴藉	-11.7427
此調始自	-11.7427
趙善扛	-11.7427
渥	-11.7428
待月西廂	-11.7428
尤雲殢雨	-11.7428
奈情何	-11.7429
啖	-11.7429
鐺	-11.7429
小樓連苑	-11.7429
逡	-11.7429
帶圍寛	-11.7429
汲古閣本	-11.743
只落的	-11.743
札	-11.743
與諸家不同	-11.7431
襍	-11.7432
明晃晃	-11.7433
良辰美景	-11.7433
安樂窩	-11.7434
燕春臺	-11.7434
疵	-11.7434
遅遅	-11.7434
陋巷	-11.7434
晝錦堂	-11.7435
􁦷	-11.7435
蓀	-11.7435
測	-11.7436
徉	-11.7436
心間事	-11.7436
氣昻昻	-11.7437
閧	-11.7437
喃喃	-11.7439
猱	-11.7439
糞	-11.744
㘽	-11.744
滲	-11.744
汪汪	-11.744
胖	-11.7443
炕	-11.7445
抖	-11.7445
璫璫	-11.749
進士累官	-11.7548
韁	-11.7678
韻後段四句	-11.77
珊	-11.7725
雙調一百字前段十句	-11.7801
蓄	-11.7802
綜	-11.7804
傘	-11.7804
此調秪有	-11.781
瀝	-11.781
雙調六十字前後	-11.781
沫	-11.7811
醮	-11.7811
匙	-11.7812
鄱	-11.7812
蕨	-11.7812
方千里楊澤民	-11.7812
滁	-11.7813
秩	-11.7814
趙君舉	-11.7814
舂	-11.7815
樽俎	-11.7816
可平可仄據此	-11.7817
倐	-11.7818
邃	-11.7818
炒	-11.7818
春從天上來	-11.7818
椅	-11.7819
錦纒道	-11.7819
虞羙人	-11.7819
嫉	-11.7819
毁	-11.782
頺	-11.782
一叢花	-11.782
萌	-11.7821
方千里楊澤民陳允平	-11.7822
湓	-11.7822
秣陵	-11.7822
臺城路	-11.7822
孫道絢	-11.7822
釐	-11.7823
三段一百	-11.7823
旭	-11.7823
荳蔻	-11.7824
撿	-11.7824
葉少藴	-11.7824
肺	-11.7825
韉	-11.7825
皐	-11.7825
一觴一詠	-11.7825
瓊樓玉宇	-11.7825
贖	-11.7825
僉	-11.7826
峥嶸	-11.7827
張𢎞範	-11.7827
旡	-11.7827
篔	-11.7828
簞瓢	-11.7828
徨	-11.7828
詞俱如此填	-11.7829
炫	-11.7829
盎	-11.7829
陳秋碧	-11.783
鸚哥	-11.783
髙山流水	-11.783
幺	-11.7831
上三下六	-11.7831
􁑶	-11.7831
上六下四	-11.7832
上五下四	-11.7832
龕	-11.7833
闢	-11.7833
擒	-11.7833
蛛網	-11.7835
雙調四十八字前後	-11.7836
霹靂	-11.7836
禀	-11.7836
後段四句兩平韻	-11.7836
無是無非	-11.7837
雙調五十二字前後	-11.7837
䂓	-11.7837
啾啾	-11.7838
􁊨	-11.7839
仄韻後段五句三仄韻	-11.784
太真妃	-11.7841
桶	-11.7842
搂	-11.7847
䖍婆	-11.7848
睡不着	-11.785
淅零零	-11.7854
牧羊関	-11.7857
簾髙捲	-11.7864
馮鼎位	-11.8198
糚	-11.821
雙調一百二字前	-11.8212
琮	-11.8216
礬	-11.8225
肢	-11.8227
鍊	-11.8227
荇	-11.8228
沱	-11.8228
邴	-11.823
劉光祖	-11.823
貰	-11.823
瑾	-11.823
雪獅兒	-11.8231
安陽好	-11.8231
淙	-11.8231
尸	-11.8232
禮部尚書	-11.8233
蕐	-11.8233
隕	-11.8235
王庭珪	-11.8235
噤	-11.8235
引駕行	-11.8235
騫	-11.8235
蝨	-11.8235
撓	-11.8236
漙	-11.8236
憇	-11.8236
厓	-11.8236
蔭	-11.8236
旱	-11.8237
唼	-11.8237
煬	-11.8237
沆瀣	-11.8237
填此調者	-11.8238
拊	-11.8238
宼	-11.8238
水逺山長	-11.8238
後段六句三仄韻	-11.8239
間入仄韻	-11.8239
王易簡	-11.8239
毛熈震	-11.8239
嗜	-11.824
揎	-11.824
參知政事	-11.824
鶉	-11.824
仿	-11.824
歸田樂	-11.824
虯	-11.824
惜奴嬌	-11.824
噐	-11.8241
鞘	-11.8241
嵇	-11.8241
雙調五十八字前後	-11.8242
䕷	-11.8242
葱蒨	-11.8242
旂	-11.8242
蜃	-11.8242
塑	-11.8242
擣	-11.8242
趙秉文	-11.8242
伽	-11.8243
缶	-11.8243
觚稜	-11.8243
侯鯖	-11.8243
馬嵬坡	-11.8243
鉅	-11.8244
捎	-11.8244
妺	-11.8244
僧仲殊	-11.8244
們	-11.8244
蒿	-11.8244
澘	-11.8244
瀲灧	-11.8245
欽定四庫全書花草稡編巻	-11.8245
迢	-11.8245
抃	-11.8246
到秋来	-11.8246
蒻	-11.8246
籃輿	-11.8247
絡絲娘	-11.8247
冉	-11.8248
陜	-11.8248
厺	-11.8249
訕	-11.8249
鏖	-11.8249
茨	-11.8249
颩	-11.8249
圵	-11.8249
山坡羊	-11.825
椰	-11.825
上四下六	-11.825
讎	-11.825
渲	-11.8253
呆荅孩	-11.8256
何滿子	-11.8257
屍	-11.8257
蝶使蜂媒	-11.8257
羹	-11.8259
􁍇	-11.8259
爺	-11.826
夜何其	-11.8261
謟	-11.8264
餘㕘下	-11.8288
紛紜	-11.8303
雙調九十四字前	-11.8501
瀲灩	-11.8654
被花惱	-11.8657
适	-11.8661
馮艾子	-11.8662
陞	-11.8663
無氣力	-11.8663
攝	-11.8663
稜	-11.8663
萬水千山	-11.8664
煦	-11.8664
蔻	-11.8665
牡	-11.8666
莓	-11.8667
史樂志	-11.8667
陳與義	-11.8668
錬	-11.8668
蔫	-11.8668
誼	-11.8668
箸	-11.8668
霞散綺	-11.8668
劉叔安	-11.8668
無他首可校	-11.8669
槖	-11.8669
韓元吉	-11.8669
鸘	-11.867
揆	-11.867
皁羅袍	-11.867
牟	-11.867
婭	-11.8671
曈	-11.8672
􁢡	-11.8672
孫惟信	-11.8672
曷	-11.8672
歸朝歡	-11.8672
曦	-11.8673
鑷	-11.8673
鄒枚	-11.8673
葓	-11.8674
卜筭子	-11.8674
什	-11.8674
楝	-11.8675
韞	-11.8675
花草稡編巻	-11.8675
隔年期	-11.8676
蹔	-11.8676
摻	-11.8676
浯	-11.8676
山色有無中	-11.8676
鍋	-11.8676
嚦	-11.8677
白石道人歌曲	-11.8677
腆	-11.8677
劉後村	-11.8677
彀	-11.8677
狨	-11.8677
潼	-11.8678
迪	-11.8678
桃葉桃根	-11.8678
爕	-11.8678
大聖樂	-11.8678
臼	-11.8679
罳	-11.8679
鉏	-11.868
滂	-11.8681
筐	-11.8681
隐隐	-11.8681
平韻後段五句兩平韻	-11.8681
馴	-11.8682
鄴	-11.8682
犁	-11.8683
𥚑	-11.8683
聫	-11.8683
懂	-11.8684
煌	-11.8684
闥	-11.8684
㓗	-11.8684
剝	-11.8684
撧	-11.8684
薌	-11.8684
璣	-11.8685
轎	-11.8685
菽	-11.8685
玷	-11.8686
閫	-11.8686
泣顔回	-11.8687
遁	-11.8687
颷	-11.8687
雙調八十四字前	-11.8688
凛冽	-11.8689
雙調八十三字前	-11.869
不弱如	-11.8691
咤	-11.8693
海誓山盟	-11.8694
糊突	-11.8695
磁	-11.8695
前段第一二句	-11.8696
空閑了	-11.8698
你㸔他	-11.8705
能有㡬	-11.8712
平康巷	-11.8921
字平聲譜内可平可	-11.9005
凱	-11.9023
雙調九十七字前段十句	-11.9092
厄	-11.9098
再休将凨月擔兒	-11.9104
金明池	-11.9108
还	-11.9109
李彌遜	-11.9112
一百三十九字	-11.9113
箑	-11.9117
渝	-11.9119
陷	-11.9119
鳴鶴餘音	-11.9119
扈	-11.9119
勃	-11.912
甄	-11.912
小樓吹徹玉笙寒	-11.9121
瀲	-11.9121
曬	-11.9121
瀨	-11.9122
雙調一百八字前段十	-11.9122
蠡	-11.9122
璈	-11.9123
郴	-11.9123
靆	-11.9123
晁冲之	-11.9124
麤	-11.9124
夔	-11.9124
詞人姓氏	-11.9125
瓔	-11.9126
秫	-11.9126
徐昌圖	-11.9126
河瀆神	-11.9127
玉堂金馬	-11.9128
雙調九十九字前段十句	-11.9129
晤	-11.9129
纛	-11.9129
蘧	-11.9129
脊	-11.913
淆	-11.913
礪	-11.913
杷	-11.9131
吳禮之	-11.9131
佞	-11.9131
能改齋漫録	-11.9132
螳	-11.9132
鴦	-11.9132
樺	-11.9132
絢	-11.9132
鹿䖍扆	-11.9132
綖	-11.9132
悽惋	-11.9133
琴趣外篇	-11.9133
㮣	-11.9133
清平楽	-11.9133
用蕭豪韻	-11.9133
楮	-11.9134
若耶溪	-11.9134
平白地	-11.9134
俸	-11.9135
滉	-11.9135
匿	-11.9136
鶼鶼	-11.9136
溯	-11.9136
癖	-11.9137
一筆勾	-11.9137
蔥蔥	-11.9137
枕痕一線	-11.9138
遟	-11.9138
賀方囘	-11.9138
忪	-11.9138
頷	-11.9139
鬒	-11.9139
壼	-11.9139
偢	-11.914
嵯	-11.914
窨	-11.914
夜飛鵲	-11.914
赦	-11.9141
砍	-11.9141
少離多	-11.9142
辝	-11.9142
磣可可	-11.9143
辤	-11.9143
坤	-11.9144
症	-11.9145
中書舎人	-11.9147
麗春園	-11.9149
呷	-11.9152
小蠻腰	-11.9153
青杏子	-11.9156
􁬙	-11.9157
第九十句	-11.9172
膁	-11.9189
韻後段十一句六平韻	-11.9364
御選歴代詩餘巻六十	-11.9477
沈宜修	-11.9565
莢	-11.9575
帝臺春	-11.9584
僵	-11.9585
薑	-11.9585
孏	-11.9585
茍	-11.9587
平可仄即叅	-11.9588
藳	-11.9589
桂殿秋	-11.9591
秧	-11.9591
変	-11.9592
陳繼儒	-11.9592
棣	-11.9593
湍	-11.9594
迄	-11.9596
泝	-11.9596
駛	-11.9597
臚	-11.9598
舵	-11.9598
旒	-11.9599
陸費墀	-11.9599
孌	-11.96
毹	-11.96
給事中	-11.9601
笥	-11.9601
蓓	-11.9603
淇	-11.9603
雙調七十五字前段	-11.9603
御選歴代詩餘巻五十	-11.9603
兜	-11.9604
李漢老	-11.9604
昴	-11.9604
蠒	-11.9605
茶瓶兒	-11.9606
千山萬水	-11.9606
江州司馬	-11.9606
縝	-11.9606
鑼	-11.9607
咒	-11.9607
金菊對芙蓉	-11.9607
幇	-11.9607
無消耗	-11.9607
雍熈樂府卷之	-11.9608
到夏来	-11.9608
渦	-11.9608
彝	-11.9609
六仄韻後段十句	-11.9609
萃	-11.9609
弼	-11.9609
頦	-11.961
燎	-11.961
狡	-11.961
姢姢	-11.961
鱖	-11.961
馬頻嘶	-11.9611
纍	-11.9612
夗央	-11.9612
集附詞	-11.9613
此調有兩體	-11.9613
𥜗	-11.9613
塞垣春	-11.9613
後段七句四仄韻	-11.9613
􁎐	-11.9614
鮫鮹	-11.9614
三姝媚	-11.9614
帬	-11.9614
淼淼	-11.9614
馿	-11.9614
析	-11.9615
大同小異	-11.9615
税	-11.9615
神仗兒	-11.9615
鐫	-11.9616
軍節度使	-11.9616
晒	-11.9617
尓	-11.9617
卵	-11.9617
禦	-11.9617
逥	-11.9617
惨	-11.9617
到冬来	-11.9618
𦍑	-11.9618
醄醄	-11.9619
髠	-11.9619
短嘆長吁	-11.9619
喑	-11.9619
喂	-11.9619
夏初臨	-11.9619
㪯	-11.962
則要你	-11.962
站	-11.9621
你㸔那	-11.9622
唧	-11.9623
懨	-11.9623
蹺	-11.9624
㳙㳙	-11.9625
髙麗史樂志	-11.9626
狄	-11.9627
御選歴代詩餘巻七	-12.0039
御選歴代詩餘巻九十	-12.0047
凮	-12.0064
姥	-12.0074
雙調一百字前後	-12.0085
骰	-12.0086
凑	-12.0087
王錫爵	-12.0088
張可久	-12.0089
瓘	-12.0091
徂	-12.0091
登進士第	-12.0091
章質夫	-12.0091
錢繼章	-12.0091
婆羅門	-12.0092
曜	-12.0094
邢	-12.0094
恃	-12.0095
劉潜夫	-12.0095
瑠璃	-12.0095
劉仲尹	-12.0095
青梅如豆	-12.0096
嗊	-12.0096
龔	-12.0097
汨	-12.0097
妆	-12.0098
孕	-12.0098
琥珀猫兒墜	-12.0098
鉞	-12.0099
䙝	-12.0099
棐	-12.0099
兔葵燕麥	-12.0099
篴	-12.0099
燕約鶯期	-12.01
鰕	-12.01
隂轉午	-12.01
姦	-12.01
嚇	-12.0101
舒信道	-12.0102
碣	-12.0102
鬲	-12.0103
堠	-12.0103
璨	-12.0104
攄	-12.0105
薩都拉	-12.0105
千嬌百媚	-12.0105
王晉卿	-12.0105
専	-12.0105
蕙蘭芳引	-12.0106
赤欄橋	-12.0106
霆	-12.0106
璉	-12.0106
第四五六句	-12.0106
嘔	-12.0106
琯	-12.0107
宋子京	-12.0107
掐	-12.0107
䆳	-12.0107
湿	-12.0107
租	-12.0108
螂	-12.0108
圏	-12.0109
熒	-12.0109
錠	-12.0109
黠	-12.011
䑃朧	-12.011
玉繩低轉	-12.011
乃變格也	-12.0111
唧唧	-12.0111
冶葉倡條	-12.0111
殻	-12.0111
脗	-12.0111
庠	-12.0112
畣	-12.0112
縑	-12.0112
摠	-12.0112
薊	-12.0113
兩兩三三	-12.0113
粮	-12.0113
􁊢	-12.0113
响	-12.0113
闉	-12.0113
雙調九十三字前段	-12.0113
畜	-12.0114
羯	-12.0114
鼂	-12.0114
雙調七十六字前	-12.0115
竽	-12.0115
邇	-12.0115
柁	-12.0116
䖝	-12.0116
砥	-12.0116
刃	-12.0117
弃	-12.0117
㫤	-12.0118
雙調七十七字前	-12.0118
慢慢的	-12.0119
捧玉鍾	-12.012
沈天羽	-12.012
雨霖鈴	-12.0121
􁞤	-12.0123
跎	-12.0123
䦰	-12.0124
躊蹰	-12.0125
憶帝京	-12.0126
百媚千嬌	-12.0127
似這等	-12.0129
爻	-12.013
饈	-12.013
宻匝匝	-12.013
是一箇凨流	-12.0156
御選歴代詩餘巻四十	-12.0276
御選歴代詩餘巻八十	-12.0393
三仄韻後段四句	-12.0457
薨	-12.0597
縉	-12.0603
瀟湘逢故人慢	-12.0608
誑	-12.0609
雙調五十七字前	-12.0614
杲	-12.0617
譬	-12.0617
皚	-12.0617
韋應物	-12.0618
加一疊	-12.0619
甎	-12.0621
覲	-12.0621
闇	-12.0622
泚	-12.0622
雙調九十八字前段十句	-12.0622
劳	-12.0624
瀼	-12.0624
盧祖臯	-12.0624
㓂	-12.0625
崎	-12.0625
翬	-12.0625
無别詞可校	-12.0625
石曼卿	-12.0626
洪咨夔	-12.0626
岧	-12.0626
雲破月來花弄影	-12.0626
蹉	-12.0626
山明水秀	-12.0626
芍	-12.0627
天機餘錦	-12.0627
璟	-12.0627
琦	-12.0627
吕居仁	-12.0627
温飛卿	-12.0628
凜	-12.0628
嘻	-12.0628
牘	-12.0629
李肩吾	-12.0629
因詞中有	-12.0629
溥	-12.0629
雙調九十一字前	-12.0629
騖	-12.0629
雙調一百四字前段十句	-12.063
尢	-12.063
劎	-12.063
嬋姢	-12.063
幟	-12.063
陶宗儀	-12.0631
纘	-12.0631
迷神引	-12.0631
瓌	-12.0631
欷	-12.0631
猪	-12.0631
唫	-12.0631
叧	-12.0631
豆葉黄	-12.0632
劉秉忠	-12.0632
盧申之	-12.0632
平仄互叶	-12.0632
塞翁吟	-12.0632
鈐	-12.0632
哽	-12.0632
鐶	-12.0633
觱	-12.0633
酴	-12.0633
澑	-12.0634
㗸	-12.0635
窘	-12.0635
胡搗練	-12.0635
雙調六十八字前	-12.0635
咄咄	-12.0636
􁁅	-12.0636
仄韻後段五句四仄韻	-12.0636
粤	-12.0636
哂	-12.0636
惜分釵	-12.0636
雙調一百一字前段十句	-12.0636
欽定四庫全書詞律巻	-12.0637
􁂨	-12.0637
磐	-12.0637
葯	-12.0638
戮	-12.0638
魯逸仲	-12.0639
甘草子	-12.0639
廕	-12.0639
揜	-12.0639
瘁	-12.0639
慶東原	-12.0639
壌	-12.0639
鼕	-12.0639
沉李浮瓜	-12.064
傖	-12.064
肴	-12.064
雙調四十六字前後	-12.064
杜韋娘	-12.064
天尺五	-12.0641
鳯凰臺上憶吹簫	-12.0641
侍香金童	-12.0642
鬪	-12.0644
􁳊	-12.0644
􁵨	-12.0644
鸂	-12.0645
後段七句五仄韻	-12.0645
地乆天長	-12.0645
曩	-12.0646
節節髙	-12.0646
聦	-12.0647
雙調四十八字前段	-12.0648
媽	-12.0648
睃	-12.0648
碌碌	-12.0649
鳳鸞交	-12.0651
粳	-12.0653
赱	-12.0656
揶揄	-12.0656
万俟詞	-12.066
睜	-12.066
觔	-12.0667
後段四句兩仄韻	-12.0845
御選歴代詩餘巻三十	-12.0917
晌	-12.1141
崧	-12.1153
灵	-12.1162
裒	-12.1162
榕	-12.1163
丕	-12.1163
恙	-12.1164
閟	-12.117
桁	-12.117
草萋迷	-12.1172
烛	-12.1174
崗	-12.1174
躔	-12.1175
躅	-12.1177
芥	-12.1177
尭	-12.1178
凶	-12.1178
鸝	-12.1178
羌	-12.1179
蓂	-12.1179
琊	-12.1179
蚓	-12.1179
監察御史	-12.1179
訶	-12.118
舠	-12.118
隹	-12.118
渙	-12.118
鷥	-12.118
舀	-12.1181
鬯	-12.1181
蒱	-12.1182
緲	-12.1182
筩	-12.1182
躁	-12.1184
怊	-12.1185
亝	-12.1185
惆	-12.1185
牥	-12.1185
孽	-12.1185
萋	-12.1185
草芊芊	-12.1185
咄	-12.1186
憫	-12.1186
張宗瑞	-12.1186
繆	-12.1186
不另録	-12.1186
寬	-12.1187
譜内可平可仄據之	-12.1187
紅林檎近	-12.1187
穂	-12.1187
􁈍	-12.1188
鏃	-12.1188
歔	-12.1188
翰林學士承㫖	-12.1188
䪨	-12.1188
潘元質	-12.1188
穢	-12.1189
桃根桃葉	-12.1189
摑	-12.1189
曹元寵	-12.1189
蓛	-12.1189
頳	-12.119
寘	-12.119
惇	-12.119
叛	-12.1191
蘺	-12.1191
嚴次山	-12.1191
撤	-12.1191
骸	-12.1192
毘	-12.1192
內	-12.1192
啄木兒	-12.1192
廸	-12.1193
雱	-12.1193
轆	-12.1193
旄	-12.1194
駱	-12.1194
仄韻後段六句四仄韻	-12.1194
泱	-12.1194
紞	-12.1194
搥	-12.1195
劉辰翁	-12.1195
雙調七十二字前	-12.1196
豸	-12.1196
巗	-12.1196
藂	-12.1196
雙調六十六字前後	-12.1196
捍	-12.1196
􁁉	-12.1197
鍪	-12.1197
無了無休	-12.1197
趋	-12.1197
姫	-12.1197
趺	-12.1197
蟄	-12.1198
心猿意馬	-12.1199
陶元亮	-12.1199
崙	-12.1199
栂	-12.12
可平可仄悉叅	-12.12
槌	-12.12
諠	-12.12
猧	-12.1201
謌	-12.1201
炮	-12.1201
籐	-12.1201
榼	-12.1202
級	-12.1202
此與史詞同惟	-12.1203
嘘	-12.1205
哏	-12.1205
胆	-12.1206
盹	-12.1207
侮	-12.1207
如魚似水	-12.1207
咭	-12.1208
髙聳聳	-12.1209
聡	-12.1209
山盟海誓	-12.1209
砲	-12.121
只喫的	-12.1216
雙調一百五字前	-12.1223
御選歴代詩餘巻二十	-12.1565
字前段十二句	-12.1704
伬	-12.1735
御選歴代詩餘巻十	-12.1749
蓺	-12.175
亳	-12.175
憚	-12.1756
弋	-12.1757
殃	-12.1761
後唐莊宗	-12.1762
蕣	-12.1763
程鉅夫	-12.1764
灞	-12.1764
􁢒	-12.1764
潞	-12.1764
盍	-12.1764
吹皺一池春水	-12.1765
隼	-12.1766
翃	-12.1766
樂府指迷	-12.1767
㱕去来兮	-12.1767
歈	-12.1767
鵪	-12.1767
姸	-12.1767
荃	-12.1768
篥	-12.1768
釂	-12.1769
蕭允之	-12.177
蔌	-12.177
曨	-12.177
坵	-12.177
琴調相思引	-12.177
朝野新聲太平樂府卷之	-12.177
完顔璹	-12.177
衩	-12.1771
躰	-12.1771
浹	-12.1771
范希文	-12.1771
􁁶	-12.1771
菁	-12.1772
軼	-12.1772
覰	-12.1773
端明殿學士	-12.1774
徐師川	-12.1774
爹	-12.1774
肋	-12.1774
稷	-12.1774
本部三聲叶	-12.1774
奶	-12.1774
柝	-12.1774
緑暗紅稀	-12.1774
抝	-12.1774
天津橋上	-12.1776
篸	-12.1776
撼庭竹	-12.1776
糠	-12.1776
絞	-12.1777
䧺	-12.1777
哢	-12.1777
芻	-12.1777
戞	-12.1778
呆骨朶	-12.1778
鯽	-12.1778
王奕清奉旨校刋	-12.1779
僝	-12.178
㩀	-12.1781
万俟咏	-12.1782
庒	-12.1782
􁅳	-12.1782
鞠	-12.1782
貺	-12.1783
忝	-12.1783
殢雨尤雲	-12.1783
軺	-12.1783
氐州第一	-12.1783
巔	-12.1783
儷	-12.1784
無他作可校	-12.1784
浪萍風梗	-12.1784
五福降中天	-12.1784
七里灘	-12.1785
眠思夢想	-12.1785
􁚐	-12.1785
翺	-12.1785
調名本此	-12.1785
卓牌子	-12.1786
叮	-12.1786
俫	-12.1786
詆	-12.1787
㱔	-12.1787
琰	-12.1787
奥	-12.1788
湾	-12.1789
猾	-12.1789
燧	-12.1789
犇	-12.179
搃	-12.1791
雙調九十二字前	-12.1792
似酔如痴	-12.1792
爨	-12.1792
弯	-12.1794
夗	-12.1797
蔣氏九宫譜	-12.1798
牗	-12.18
僥僥令	-12.1803
村里迓古	-12.1806
踼	-12.1836
鬻	-12.2362
雙調八十五字前段	-12.237
釚	-12.2379
楨	-12.238
粱	-12.2383
歊	-12.2385
𦵏	-12.2386
飛雪滿羣山	-12.2386
洙	-12.2387
蚊	-12.2387
耻	-12.2388
惜黄花慢	-12.2388
齊東野語	-12.2388
盱	-12.2389
猥	-12.2389
髫	-12.239
泖	-12.239
輈	-12.239
盜	-12.2391
埜	-12.2391
躋	-12.2391
墩	-12.2392
滹	-12.2392
鳯棲梧	-12.2392
潇	-12.2392
罔	-12.2392
黄叔暘	-12.2392
翌	-12.2393
㙜	-12.2393
睦	-12.2393
亢	-12.2393
襜	-12.2394
滇	-12.2394
汜	-12.2394
岷	-12.2395
屣	-12.2395
麴	-12.2396
膾炙人口	-12.2396
袜	-12.2396
坰	-12.2396
昊	-12.2396
雙調八十八字前	-12.2396
狩	-12.2396
啾	-12.2396
百紫千紅	-12.2396
鶒	-12.2397
蘢	-12.2397
慾	-12.2397
豕	-12.2397
五綵結同心	-12.2397
䜟	-12.2398
冇	-12.2398
畞	-12.2398
㕑	-12.2398
邏	-12.2399
曲水流觴	-12.24
奄	-12.24
頹	-12.24
遐方怨	-12.24
澈	-12.24
蒜	-12.24
潢	-12.24
刎	-12.2401
𧺫	-12.2401
䰅	-12.2401
畊	-12.2401
鞲	-12.2401
廢寢忘飡	-12.2401
沈公述	-12.2401
偎紅倚翠	-12.2401
沛	-12.2402
平韻後段十二句	-12.2402
謖	-12.2402
寔	-12.2402
霾	-12.2402
稅	-12.2402
夾鍾商	-12.2403
鷫	-12.2403
葳	-12.2404
江月晃重山	-12.2405
唐藝孫	-12.2405
縳	-12.2406
此調有平韻仄韻	-12.2406
䳵	-12.2406
睁	-12.2406
􁑰	-12.2406
蝶粉蜂黄	-12.2406
汁	-12.2406
􁮻	-12.2406
奪錦標	-12.2407
甑	-12.2407
僥	-12.2407
朱淑眞	-12.2407
冢	-12.2408
慟	-12.2409
或加令字	-12.2409
軟兀刺	-12.2409
雙調五十一字前段	-12.2409
垜	-12.2409
𪷟	-12.2409
鎧	-12.241
僽	-12.241
燻	-12.2411
鴆	-12.2411
紏	-12.2411
萧	-12.2411
范仲淹	-12.2413
雹	-12.2413
趙徳莊	-12.2413
𡵨	-12.2413
淅	-12.2414
簘	-12.2414
緻	-12.2414
輥	-12.2414
􁢤	-12.2414
槅	-12.2414
盔	-12.2415
雙調四十二字前後	-12.2417
􁳼	-12.2417
吐虹霓	-12.2417
皃	-12.2418
乾隆四十四年	-12.2419
雙調四十五字前後	-12.242
綽然亭	-12.242
畢罷了	-12.2422
忔	-12.2422
明朗朗	-12.2423
莾	-12.2426
雙調一百五字前段十	-12.299
全芳備祖	-12.3037
璠	-12.3037
陲	-12.3038
雙調七十三字前	-12.3044
弧	-12.3044
鬛	-12.3045
閔	-12.3045
罾	-12.3048
和潄玉詞	-12.3049
送入我門來	-12.305
弭	-12.3052
摛	-12.3053
晻	-12.3054
慥	-12.3055
洧	-12.3055
湜	-12.3055
豳	-12.3057
恤	-12.3057
酩	-12.3057
寤	-12.3057
蹕	-12.3058
枻	-12.3058
乾隆四十六年十月恭校上	-12.3058
汪彦章	-12.3058
柚	-12.3058
瘢	-12.3059
廡	-12.3059
澠	-12.3059
花庵詞客云	-12.306
法駕導引	-12.306
媪	-12.306
四仄韻後段四句	-12.306
猴	-12.306
沅	-12.3061
𢷬	-12.3061
亾	-12.3062
滔	-12.3062
瓠	-12.3062
蜍	-12.3063
八節長歡	-12.3063
籞	-12.3063
礴	-12.3063
凌波不過横塘路	-12.3063
企	-12.3063
捺	-12.3064
萬紅千翠	-12.3064
呑	-12.3064
雙調一百六字前段十	-12.3064
茟	-12.3064
後段五句兩仄韻	-12.3064
摵	-12.3065
棉	-12.3065
𠂻	-12.3065
荣	-12.3065
榦	-12.3065
斉	-12.3065
沮	-12.3066
雙調六十七字前	-12.3066
瀚	-12.3066
迤	-12.3066
一江春水向東流	-12.3066
宋黄昇撰宋詞	-12.3067
苓	-12.3068
讒	-12.3068
暨	-12.3068
筞	-12.3068
雙調九十五字前段九句	-12.3068
㝢	-12.3068
寒食清明都過	-12.3068
噥	-12.3069
酢	-12.3069
丼	-12.3069
倀	-12.3069
肎	-12.3069
攪箏琶	-12.307
塚	-12.307
脞	-12.307
橛	-12.307
妮	-12.3071
此亦與周詞同惟	-12.3071
㷼	-12.3071
幕天席地	-12.3071
蹀	-12.3071
挣	-12.3072
用家麻韻	-12.3072
梔	-12.3073
􁄑	-12.3073
疲	-12.3073
飣	-12.3074
蛆	-12.3074
糯	-12.3074
雙調六十四字前後	-12.3074
醥	-12.3074
一氣貫下	-12.3074
愡	-12.3075
鷲	-12.3075
嗷	-12.3075
胃	-12.3075
此調以此詞及	-12.3076
爰	-12.3076
雙調七十一字前	-12.3076
幬	-12.3076
鎚	-12.3077
此與蘇詞同惟	-12.3077
斐	-12.3077
哺	-12.3077
胯	-12.3077
澱	-12.3079
蔚	-12.3079
資政殿學士	-12.3079
墊	-12.308
剏	-12.308
獬	-12.308
膳	-12.3081
窖	-12.3081
􁂬	-12.3081
胞	-12.3082
用車遮韻	-12.3082
膊	-12.3083
糓	-12.3084
呸	-12.3084
聾	-12.3086
蜂媒蝶使	-12.3087
惜玉憐香	-12.3089
迯	-12.309
实	-12.3092
􁂗	-12.3092
題余氏女子	-12.3093
打扮的	-12.3095
拿	-12.3096
紂	-12.3097
剔透玲瓏	-12.3102
􁁜	-12.3622
平仄當遵之	-12.375
峴	-12.3751
嚶	-12.3751
虐	-12.3755
此調秪此一詞	-12.3755
漵	-12.3755
匪	-12.3756
劾	-12.3758
繳	-12.3759
嫺	-12.3761
鎬	-12.3762
濮	-12.3762
釡	-12.3763
迁	-12.3763
咍	-12.3766
臻	-12.3767
盾	-12.3768
瀬	-12.3768
璋	-12.377
扆	-12.377
袢	-12.377
劉潑㡌	-12.377
邕	-12.3771
据	-12.3771
薤	-12.3773
亹	-12.3773
藐	-12.3774
諦	-12.3774
芾	-12.3774
冣	-12.3775
洪咨䕫	-12.3775
酤	-12.3776
泡	-12.3776
亰	-12.3777
嶇	-12.3777
肓	-12.3777
蘃	-12.3777
吳頭楚尾	-12.3777
麋	-12.3777
雙調四十九字前段四句	-12.3777
癭	-12.3777
莘	-12.3777
遑	-12.3777
俛	-12.3777
燭影摇紅	-12.3778
飼	-12.3778
蜺	-12.3778
祜	-12.3779
燔	-12.3779
玫	-12.3779
祟	-12.378
譯	-12.378
襞	-12.378
糜	-12.3781
舖	-12.3781
靳	-12.3781
螻	-12.3781
嬙	-12.3782
劵	-12.3782
耆舊續聞云	-12.3782
此調始於此詞	-12.3782
諄	-12.3783
踵	-12.3783
籀	-12.3783
蜚	-12.3784
曝	-12.3784
點綘唇	-12.3784
洪叔璵	-12.3784
馮延己	-12.3784
綺寮怨	-12.3785
变	-12.3785
釁	-12.3785
詭	-12.3785
捴	-12.3785
覈	-12.3786
甓	-12.3787
謝勉仲	-12.3787
嵳	-12.3788
輻	-12.3788
偁	-12.3789
朱希眞	-12.3789
袒	-12.3789
屡	-12.379
㤗	-12.3791
倬	-12.3791
雙調六十六字前段	-12.3793
縂	-12.3793
作上三下四句法異	-12.3793
頡	-12.3794
覉	-12.3794
鸕	-12.3794
鳧	-12.3795
可平可仄㨿此	-12.3795
雙調一百十字前段十	-12.3796
婪	-12.3797
摽	-12.3799
菟	-12.3801
𬎼	-12.3801
矁	-12.3801
香嬌玉軟	-12.3801
奨	-12.3802
諢	-12.3805
和還知麽	-12.3806
凸	-12.3809
􂀞	-12.3813
偌	-12.3816
摯	-12.4513
猒	-12.4516
璽	-12.4524
屩	-12.4525
距	-12.4527
濳	-12.4528
圉	-12.4529
譍	-12.4531
秤	-12.4531
黼	-12.4532
凘	-12.4532
開府儀同三司	-12.4532
疃	-12.4534
嶰	-12.4534
艦	-12.4534
􁩉	-12.4534
潦	-12.4535
顒	-12.4536
劬	-12.4536
牓	-12.4536
茒	-12.4536
荄	-12.4536
醲	-12.4536
奬	-12.4537
瀏	-12.4538
涓	-12.4539
騮	-12.4539
沍	-12.454
瀹	-12.454
殽	-12.454
鰥	-12.454
嫗	-12.4541
瀘	-12.4541
薲洲漁笛譜	-12.4541
雩	-12.4542
施紹莘	-12.4543
醐	-12.4543
育	-12.4543
删	-12.4543
醍	-12.4544
蝕	-12.4545
屹	-12.4545
羶	-12.4545
彰	-12.4546
侃	-12.4546
緬	-12.4546
茱	-12.4546
闖	-12.4546
飱	-12.4546
鋸	-12.4546
夤	-12.4546
苖	-12.4547
喔	-12.4547
攫	-12.4548
貍	-12.4548
濩	-12.4548
兊	-12.4548
僑	-12.4549
刑部尚書	-12.4549
謅	-12.455
昶	-12.455
傭	-12.455
扺	-12.455
颼	-12.455
尫	-12.4551
皴	-12.4551
蹲	-12.4551
閽	-12.4551
蝎	-12.4551
實丕丕	-12.4551
金盞倒垂蓮	-12.4552
滛	-12.4552
䁀	-12.4552
麥秀兩岐	-12.4553
儺	-12.4553
朝野多歡	-12.4553
驃	-12.4554
懃	-12.4554
購	-12.4555
獺	-12.4555
萬紫千紅	-12.4555
彷	-12.4555
繙	-12.4555
離多㑹少	-12.4555
看朱成碧	-12.4555
号	-12.4556
徭	-12.4556
扛	-12.4556
嚙	-12.4556
磣	-12.4556
蜘	-12.4556
此與姜詞同惟	-12.4557
塌	-12.4558
此調秖此一詞	-12.4558
雙調一百七字前段十	-12.4559
軌	-12.4559
鳳凰臺上憶吹簫	-12.4559
唆	-12.4559
繅	-12.456
眼睁睁	-12.456
例作上一下四句法	-12.456
嶮	-12.456
轔	-12.456
缺月挂疎桐	-12.456
痒	-12.456
兇	-12.4563
琬	-12.4563
戢	-12.4564
鶼	-12.4565
剉	-12.4568
落鴈沉魚	-12.4568
盟山誓海	-12.4568
騙	-12.457
棺	-12.4571
偎紅倚翆	-12.4572
硃	-12.4572
匾	-12.4573
氲	-12.4577
豺	-12.4578
心痒難揉	-12.4579
閙炒炒	-12.4581
賄	-12.4585
雙調九十四字前段十	-12.4834
仔	-12.5303
妤	-12.5326
盲	-12.5344
睹	-12.5353
罟	-12.5354
炳	-12.5354
渊	-12.5359
熾	-12.536
薩	-12.5361
酎	-12.5361
閎	-12.5365
墖	-12.5366
鷃	-12.5367
沔	-12.5367
滾	-12.5367
𡨕	-12.5368
祉	-12.5368
前調歐陽元功	-12.5368
朴	-12.5369
俶	-12.5369
茁	-12.5369
譴	-12.537
詞林萬選	-12.537
姐	-12.537
靶	-12.537
迦	-12.537
櫪	-12.537
頬	-12.5371
勅	-12.5371
銑	-12.5372
殉	-12.5372
艘	-12.5372
跖	-12.5373
杞	-12.5373
耦	-12.5374
嶷	-12.5374
廨	-12.5374
轄	-12.5375
鍚	-12.5375
乩	-12.5376
毳	-12.5376
締	-12.5376
菂	-12.5376
估	-12.5376
䍦	-12.5376
徬	-12.5377
愆	-12.5377
此亦周詞體惟	-12.5378
懇	-12.5378
惋	-12.5378
遒	-12.5378
天若有情天亦老	-12.5378
箒	-12.5379
峒	-12.5379
嶔	-12.5379
楽府雅詞	-12.538
桴	-12.538
赸	-12.5381
鍔	-12.5381
鏟	-12.5381
䜛	-12.5381
趾	-12.5381
鍳	-12.5381
瓈	-12.5382
誘	-12.5382
顇	-12.5382
買陂塘旋栽楊柳	-12.5382
琵	-12.5383
咂	-12.5383
鬌	-12.5383
殄	-12.5384
筌	-12.5384
蝣	-12.5384
㕓	-12.5384
礫	-12.5384
崆	-12.5385
刊	-12.5385
雲破月来花弄影	-12.5385
訢	-12.5386
珙	-12.5387
澧	-12.5387
鴣	-12.5387
㸑	-12.5387
倒鳯顛鸞	-12.5387
箧	-12.5387
届	-12.5388
曖	-12.5388
瘡	-12.5388
懴	-12.5388
尿	-12.5389
磔	-12.5389
尀	-12.5389
蠆	-12.5389
蝗	-12.5389
翊	-12.5389
圑	-12.539
豉	-12.539
怳	-12.539
馗	-12.539
圯	-12.539
紱	-12.539
惬	-12.539
博學宏詞科	-12.539
摴	-12.539
鯢	-12.5391
囿	-12.5391
珉	-12.5391
鬲溪梅令	-12.5392
夸	-12.5392
匕	-12.5392
倡條冶葉	-12.5393
噱	-12.5393
晡	-12.5393
棍	-12.5393
蓍	-12.5393
虢	-12.5393
攴	-12.5393
􁏫	-12.5393
需	-12.5394
嵋	-12.5394
梦㫁魂勞	-12.5394
不茶不飯	-12.5395
雙調九十五字前段十	-12.5395
夹	-12.5396
怱	-12.5396
枒	-12.5396
蒯	-12.5397
閙垓垓	-12.5398
樸	-12.5399
嚐	-12.5399
緡	-12.54
褃	-12.54
饅	-12.5403
醄	-12.5404
斡	-12.5405
艮	-12.5406
嚨	-12.5407
廢寢忘食	-12.5407
禂	-12.5411
沌	-12.5417
搠	-12.5419
十面埋伏	-12.5423
矧	-12.6241
【	-12.6248
袪	-12.6253
袤	-12.6254
竪	-12.6258
驤	-12.6265
春夏兩相期	-12.6269
楠	-12.627
陬	-12.627
趲	-12.6273
搢	-12.6273
嘱	-12.6273
偹	-12.6274
努	-12.6275
礎	-12.6275
喇	-12.6275
軻	-12.6276
檎	-12.6277
艖	-12.6277
逵	-12.6278
弥	-12.6278
鵓	-12.6278
貸	-12.628
欎	-12.628
幷	-12.628
遛	-12.628
撕	-12.6281
毶	-12.6281
籮	-12.6281
淼	-12.6283
堰	-12.6284
􁒷	-12.6284
娣	-12.6284
䁔	-12.6285
貔	-12.6285
翕	-12.6286
驑	-12.6286
蛄	-12.6286
覘	-12.6286
麪	-12.6286
刳	-12.6287
澂	-12.6287
撁	-12.6288
惘	-12.6288
醞	-12.6288
痼	-12.6288
綢	-12.6289
脛	-12.6289
笈	-12.6289
笆	-12.6289
腫	-12.629
俘	-12.629
塤	-12.629
宥	-12.629
鷖	-12.629
迱	-12.629
叡	-12.6291
裌	-12.6291
侔	-12.6291
茲	-12.6291
濬	-12.6291
孥	-12.6291
倒枕垂床	-12.6291
薖	-12.6291
菖	-12.6291
旃	-12.6291
栞	-12.6292
嗓	-12.6292
泞	-12.6292
邠	-12.6292
迨	-12.6293
佃	-12.6293
猖	-12.6293
駘	-12.6293
碪	-12.6293
𬈑	-12.6293
涸	-12.6293
丫	-12.6293
袈	-12.6294
潯	-12.6294
詞㫖屬對	-12.6295
浮𤓰沉李	-12.6295
裟	-12.6295
圻	-12.6295
彪	-12.6296
獐	-12.6296
洵	-12.6296
雙調五十字前段四句	-12.6296
籪	-12.6296
愬	-12.6297
詼	-12.6297
峥	-12.6297
鸞交鳳友	-12.6297
兕	-12.6297
渤	-12.6297
毯	-12.6297
蔓菁菜	-12.6297
柂	-12.6297
郜	-12.6297
孛	-12.6297
驊	-12.6297
鯤	-12.6298
僣	-12.6298
洄	-12.6298
捋	-12.6298
笞	-12.6299
盥	-12.63
殁	-12.63
迺	-12.63
嵒	-12.63
残	-12.6301
雙調四十一字前段五句	-12.6301
驩	-12.6301
䲭	-12.6301
雒	-12.6301
䓤	-12.6302
鳳友鸞交	-12.6302
睠	-12.6302
幀	-12.6303
矻	-12.6303
㢲	-12.6303
氐	-12.6303
宋黄大輿編	-12.6303
糴	-12.6304
郝	-12.6304
𬞞	-12.6304
叅知政事	-12.6304
臊	-12.6304
蒭	-12.6304
蜉	-12.6304
麖	-12.6305
雙調四十六字前段四句	-12.6305
罌	-12.6306
筲	-12.6306
喏	-12.6307
鈚	-12.6307
望雲涯引	-12.6307
媾	-12.6308
刹	-12.6308
􁬁	-12.6308
雄紏紏	-12.6309
眶	-12.6309
苟	-12.6309
葫	-12.631
東風齊著力	-12.6311
騏	-12.6311
溷	-12.6311
酕	-12.6313
􁦸	-12.6313
擗	-12.6314
忭	-12.6315
縧	-12.6315
螓	-12.6315
窑	-12.6316
扒	-12.6317
边	-12.6318
惓	-12.6318
逩	-12.6323
内可平可仄據此餘㕘	-12.6368
丐	-12.7223
廹	-12.7225
殤	-12.7248
翀	-12.7255
蟒	-12.7258
翛	-12.7259
舶	-12.7259
䧏	-12.7261
􁊬	-12.7263
蘖	-12.7263
媸	-12.7264
崈	-12.7264
瞿佑望西湖	-12.7265
燁	-12.7265
灎	-12.7267
啁	-12.7267
乾隆四十六年九月恭校上	-12.7268
竆	-12.7269
艎	-12.7269
哇	-12.7271
坂	-12.7271
拉	-12.7276
垤	-12.7276
蘊	-12.7276
掿	-12.7277
鞅	-12.7278
咷	-12.7278
眨	-12.7278
湫	-12.7279
鶄	-12.7279
枵	-12.7279
崚	-12.7279
燾	-12.728
求田問舍	-12.7281
憶昔午橋橋上飲坐中	-12.7281
泌	-12.7281
别時容易見時難	-12.7282
鮓	-12.7282
侠	-12.7283
黦	-12.7283
殞	-12.7284
嗑	-12.7285
潸	-12.7285
雙調四十七字前段五句	-12.7285
茹	-12.7286
騕	-12.7286
鞴	-12.7286
茭	-12.7286
玠	-12.7286
蚌	-12.7286
千金縱買相如賦	-12.7287
趍	-12.7287
惲	-12.7287
黜	-12.7287
嬢	-12.7288
嬷	-12.7288
鄞	-12.7289
頏	-12.7289
閴	-12.7289
弘	-12.729
蛤	-12.729
輕攏慢撚	-12.7291
琛	-12.7291
欽定四庫全書花菴詞選續集巻	-12.7291
笊	-12.7291
卭	-12.7291
贛	-12.7291
袷	-12.7292
儋	-12.7292
鏑	-12.7292
琨	-12.7292
芡	-12.7292
勍	-12.7292
嗤	-12.7292
孜	-12.7292
愰	-12.7293
滓	-12.7293
狸	-12.7293
脈	-12.7293
沬	-12.7293
鸛	-12.7294
埒	-12.7294
逶	-12.7294
瓶墜簮折	-12.7294
偈	-12.7294
明陳耀文輯小令	-12.7294
间	-12.7294
灕	-12.7294
侈	-12.7294
緉	-12.7295
淡粧濃抹	-12.7295
郯	-12.7295
維舟試望故	-12.7295
􁅔	-12.7295
艫	-12.7295
廢寝忘飡	-12.7295
俙	-12.7295
桄	-12.7296
煇	-12.7296
帢	-12.7296
庇	-12.7296
糲	-12.7296
㫄	-12.7296
楶	-12.7297
觚	-12.7297
鞦	-12.7297
藎	-12.7297
㷔	-12.7299
厠	-12.7299
稲	-12.7299
术	-12.7299
蔔	-12.7299
合成愁離人心上秋縱芭蕉不雨也颼颼	-12.7299
詮	-12.73
贑	-12.73
旻	-12.73
紅藕香殘玉簟秋	-12.7301
雇	-12.7301
歧	-12.7301
澷	-12.7302
问	-12.7302
花自飄零水自流一種相思	-12.7302
賁	-12.7302
狂朋恠友	-12.7302
癢	-12.7302
櫛	-12.7302
嗹	-12.7303
筮	-12.7303
蹌	-12.7304
雙調一百十四字前段十	-12.7304
鴇	-12.7304
闡	-12.7305
䢴	-12.7306
箎	-12.7306
葷	-12.7307
鉦	-12.7307
烝	-12.7307
隲	-12.7309
燥	-12.731
皈	-12.731
跑	-12.7312
噲	-12.7312
黟	-12.7312
鶯儔燕侣	-12.7313
喋	-12.7314
壕	-12.7314
蝇	-12.7315
庖	-12.7315
雙調四十五字前段四句	-12.7317
跧	-12.7318
嵎	-12.7318
駈	-12.732
糕	-12.732
磈	-12.7321
毡	-12.7328
貲	-12.733
嬝	-12.8219
薲	-12.8328
营	-12.8358
苛	-12.8364
䰗	-12.8367
紕	-12.8367
鼈	-12.8369
殂	-12.8369
跚	-12.837
繖	-12.8371
廼	-12.8371
戾	-12.8372
姒	-12.8374
壟	-12.8375
賂	-12.8376
鴂	-12.8377
憀	-12.8379
庾郎先自吟愁賦	-12.8379
惰	-12.838
譔	-12.838
蜿	-12.8382
絺	-12.8382
籛	-12.8382
𦕈	-12.8382
悸	-12.8382
此恨平分取更無言語空相	-12.8383
淛	-12.8383
别後寡信輕諾	-12.8384
剮	-12.8386
綠蓑衣斜風細雨不須歸	-12.8386
騾	-12.8387
塍	-12.8387
䣃	-12.8387
遹	-12.8388
遥天奉翠華引	-12.8389
昜	-12.8389
新晴古今多少事漁唱起三更	-12.8389
玲	-12.8389
墉	-12.839
瓷	-12.839
鋭	-12.839
腳	-12.839
殫	-12.8392
風裏落花誰是主	-12.8392
歗	-12.8393
縢	-12.8393
滸	-12.8393
甬	-12.8393
蘆葉滿汀洲寒沙帶淺流二十年重	-12.8394
訴君莫舞君不見玉環飛燕皆塵土	-12.8394
鵒	-12.8394
槲	-12.8396
輛	-12.8396
趙晉臣敷文	-12.8397
琉	-12.8397
伉	-12.8397
孀	-12.8397
烬	-12.8398
方定庭軒寂寞近清明殘花中酒又是	-12.8398
旎	-12.8399
褓	-12.8399
抒	-12.8399
篪	-12.8399
罡	-12.8399
伊處哀音似訴正思婦無眠起	-12.8399
玉有翠禽小小枝上同宿客裏相逢籬角	-12.8399
晰	-12.8399
庐	-12.8399
枋	-12.8399
鍤	-12.8399
􁈋	-12.8399
􁸲	-12.8399
晴嵐低楚甸	-12.8399
諍	-12.8399
身在天涯亂山孤壘危樓飛觀歎春	-12.8399
懣	-12.84
辣	-12.84
謄	-12.84
醃	-12.84
芟	-12.84
春花秋月何時了	-12.8401
𧖟	-12.8401
沓	-12.8401
矟	-12.8401
滿身花影倩人扶	-12.8401
濂	-12.8401
炧	-12.8401
萎	-12.8402
袵	-12.8402
刈	-12.8402
寒鴉數㸃流水遶	-12.8402
难	-12.8403
蓽	-12.8403
饗	-12.8403
惧	-12.8403
闗河冷落殘照當樓	-12.8403
懦	-12.8403
枷	-12.8404
臠	-12.8404
涌	-12.8404
鈕	-12.8404
念多情但有當時皓月照人依舊	-12.8404
熹	-12.8404
剽	-12.8405
雙調一百十六字前段十	-12.8405
雕梁藻井又軟語商量不定飄然快拂花	-12.8405
咀	-12.8405
湊	-12.8406
江淹又吟恨賦	-12.8406
楊金淺遲日催花淡雲閣雨	-12.8406
悒	-12.8406
小池塘風簾動碎影舞斜陽	-12.8406
儗	-12.8406
笭	-12.8407
􁐻	-12.8407
沙逺但暗憶江南江北想	-12.8408
懾	-12.8408
亜	-12.8408
稗	-12.8408
蕢	-12.8408
簞	-12.8409
湟	-12.8409
􁏏	-12.8409
欸	-12.8409
齧	-12.8409
瓓	-12.841
客去車塵漠漠	-12.841
韝	-12.841
劑	-12.841
箵	-12.841
靸	-12.841
鹵	-12.841
穟	-12.841
含羞整翠鬟得意頻相	-12.8411
翟	-12.8411
跛	-12.8411
祬	-12.8411
鏦	-12.8411
餙	-12.8411
型	-12.8411
孱	-12.8412
祺	-12.8412
齎	-12.8412
忑	-12.8412
元高拭詞注	-12.8413
桔	-12.8413
捏	-12.8414
擫	-12.8414
賃	-12.8415
髏	-12.8415
􁫣	-12.8416
晷	-12.8416
䟱	-12.8416
亀	-12.8418
綂	-12.8419
洺	-12.842
抓	-12.842
噉	-12.842
囷	-12.8422
幞	-12.8423
雙調一百十三字前段十	-12.8423
雙調四十七字前段四句	-12.8423
白雪齋選訂樂府吳騷合編	-12.8423
箫	-12.8423
䯻	-12.8424
雙調一百十一字前段十	-12.8424
勵	-12.8425
愇	-12.8425
幈	-12.8425
构	-12.8426
睚	-12.8427
擄	-12.8427
圇	-12.8428
哮	-12.8431
敖	-12.8433
袱	-12.8446
杆	-12.9304
豎	-12.9578
澇	-12.9588
覿	-12.9601
箠	-12.9614
綆	-12.962
垂楊自舞漸暖靄	-12.9623
𢾗	-12.9624
俜	-12.9625
銚	-12.9625
楣	-12.9626
媻	-12.9627
摰	-12.9627
抅	-12.9628
苣	-12.9628
埭	-12.9629
慘結秋隂西風送絲絲雨	-12.963
殯	-12.9631
餽	-12.9631
眊	-12.9631
瀛奎律髓	-12.9631
僞	-12.9632
慍	-12.9634
舲	-12.9636
菅	-12.9636
窵	-12.9636
歕	-12.9636
紅杏枝頭春意閙尚書	-12.9636
自許平生意氣衣冠人笑抵死塵埃意倦	-12.9636
吚	-12.9636
坷	-12.9636
背西風酒旗斜矗綵舟雲淡	-12.9636
棨	-12.9637
剌	-12.9637
魅	-12.9637
鱉	-12.9638
波間還與韶光共憔悴不堪看細雨夢	-12.9638
咫	-12.9638
鉸	-12.9638
默	-12.9638
亶	-12.9638
洮	-12.9639
擐	-12.9639
悶來彈鵲又攪碎一簾花影	-12.9639
珣	-12.9639
凂	-12.964
霙	-12.964
而今漸老都忘却春風詞筆但怪得竹外	-12.964
紓	-12.964
是豪英長溝流月去無聲	-12.964
聃	-12.9641
吾生行且休矣	-12.9641
濘	-12.9642
開還閉夢隨風	-12.9642
吒	-12.9642
疁	-12.9642
熳	-12.9642
有幾多愁恰似一江春水向東流	-12.9643
螘	-12.9643
嶒	-12.9644
憮	-12.9644
鑊	-12.9645
眉語不知舞錯伊州	-12.9645
箬	-12.9645
軛	-12.9645
斁	-12.9645
倭	-12.9645
蜒	-12.9645
鋟	-12.9645
遘	-12.9645
鴟	-12.9646
蛉	-12.9646
暾	-12.9646
蠲	-12.9647
蒐	-12.9647
􁕖	-12.9647
簹	-12.9648
蚪	-12.9648
髼	-12.9648
鏞	-12.9648
嶢	-12.9649
雲想衣裳花想容	-12.9649
中興以來絶妙詞選卷之	-12.9649
縆	-12.9649
罹	-12.9649
有三秋桂子十里荷花	-12.9649
歸來化作此花幽獨猶記深	-12.9649
龍樓兩觀見銀燭星毬	-12.9649
醽	-12.9649
了忘則怎生便忘得又還問鱗鴻試重	-12.965
姢	-12.965
嚏	-12.965
■	-12.965
事知多少小樓昨夜又東風	-12.965
糁	-12.965
淝	-12.9651
劖	-12.9651
宋史藝文志載	-12.9651
東澤綺語債	-12.9651
馬窺江去後廢池喬	-12.9651
璘	-12.9652
樓夢好難賦深情二十四橋仍在波心蕩	-12.9652
媵	-12.9653
趷	-12.9653
鯿	-12.9653
閘	-12.9653
雙調五十字前段五句三	-12.9653
東陽也試問花知否	-12.9653
問當時遺譜有絶藝	-12.9653
嚎	-12.9653
㦲	-12.9653
細困無力忍分散彩雲歸後何處更	-12.9653
萁	-12.9653
汶	-12.9653
波無雙鯉雲山萬重寸心千里	-12.9653
望人在天北悽惻恨堆積漸别浦縈	-12.9653
㵄	-12.9653
桿	-12.9654
瞋	-12.9654
漸困倚孤眠清熟簾外誰	-12.9654
鴒	-12.9654
􁑭	-12.9654
唐書禮樂志	-12.9654
征轡離愁漸逺漸無窮迢迢不	-12.9654
王奕清奉㫖校刊	-12.9655
想公瑾當年小喬	-12.9655
蹶	-12.9655
醒明月下夢逐潮聲去文章信美知何用	-12.9655
記當時送君南浦萬里乾坤百年身世	-12.9655
鼾	-12.9656
愷	-12.9656
石榴半吐紅巾蹙	-12.9656
硎	-12.9656
嬌雲容易飛夢斷知何處	-12.9657
怯瓊梳容銷金鏡	-12.9657
碧波新漲小池塘雙雙蹴水忙	-12.9657
鬔	-12.9657
茉	-12.9657
落又匆匆過了清明時節剗地東風欺客	-12.9658
媧	-12.9658
澦	-12.9658
祛	-12.9658
闲	-12.9658
嵘	-12.9658
秣	-12.9658
㢠	-12.9658
譙門暫停征棹聊共	-12.9658
孳	-12.9658
明陳耀文輯長調	-12.9658
藿	-12.9659
螀	-12.9659
多情却被無情惱	-12.9659
掄	-12.9659
惟有樓前流水應念我終日凝眸凝眸	-12.9659
瑚	-12.966
􁏳	-12.966
桅	-12.966
􁎘	-12.966
貊	-12.966
麵	-12.966
戴花君莫笑六么催拍盞頻傳	-12.966
璁	-12.9661
怠	-12.9661
鼍	-12.9661
枳	-12.9661
茯	-12.9661
煜	-12.9661
袚	-12.9661
宫舊事那人正睡裏飛近蛾	-12.9662
势	-12.9662
蝀	-12.9662
送人猶未苦苦送春	-12.9662
眵	-12.9662
僖	-12.9663
跗	-12.9663
噹	-12.9663
姆	-12.9664
㘅	-12.9664
悌	-12.9664
蓿	-12.9664
􁋆	-12.9664
冺	-12.9665
躧	-12.9665
離亭宴帶歇拍煞	-12.9665
刦	-12.9666
抬	-12.9667
跂	-12.9667
侗	-12.9667
銀字笙調心字香燒	-12.9668
卻	-12.9668
畛	-12.9668
駟	-12.9669
𠻳	-12.967
獪	-12.967
蟣	-12.9671
箴	-12.9671
骷	-12.9673
醯	-12.9673
溍	-12.9673
因詞俚不録	-12.9674
􁩊	-12.9675
擣練子賦梅	-12.9675
歙	-12.9675
醤	-12.9677
刅	-12.9678
闍	-12.968
苍	-12.9681
蝟	-12.9684
黥	-12.9685
襶	-12.9687
褦	-12.9688
丨	-12.969
㮚	-13.0946
麐	-13.0996
浚	-13.1011
园	-13.1017
曄	-13.1034
瀆	-13.1041
幫	-13.1042
堊	-13.1043
􁔡	-13.1048
蔑	-13.105
烙	-13.105
宿醉離愁慢髻鬟	-13.1051
鴿	-13.1051
雰	-13.1052
鴛鴦翡翠小小思珍偶	-13.1052
鼯	-13.1053
婕	-13.1054
僛	-13.1055
鷓	-13.1055
懲	-13.1056
汰	-13.1056
轓	-13.1056
鶘	-13.1057
藺	-13.1058
倏	-13.1058
份	-13.1059
羆	-13.1059
陌人家相對如説興亡斜陽	-13.1059
斵	-13.1061
睥	-13.1061
瞥眼飛紅日長不放春醪困立盡海棠風	-13.1061
袄	-13.1061
夐	-13.1061
燮	-13.1063
礼	-13.1063
樅	-13.1063
瞢	-13.1063
照我梅邊吹笛喚起玉人不管清寒	-13.1063
醿	-13.1064
送孫無言歸黄山	-13.1064
東風起東風起海上百花	-13.1064
鯫	-13.1064
搘	-13.1065
觀草木欣榮幽人自感	-13.1065
痊	-13.1065
吭	-13.1065
柿	-13.1065
鋩	-13.1066
坳	-13.1066
裨	-13.1066
毀	-13.1066
愫	-13.1066
瀣	-13.1067
獰	-13.1067
鬘	-13.1068
璜	-13.1068
潰	-13.1068
岱	-13.1068
韮	-13.1068
今夜山深處斷魂分付潮回去	-13.1068
譎	-13.1068
㳽	-13.1068
望彭城清泗與淮通寄我相思千	-13.1068
燐	-13.1068
赬	-13.1068
僭	-13.1069
疚	-13.1069
巽	-13.1069
聱	-13.1069
瞭	-13.107
古道音塵絶音塵絶西風殘照漢家陵闕	-13.107
彜	-13.107
登臨送目正故國晚秋天氣	-13.107
椶	-13.1071
終日望君君不至舉頭聞鵲喜	-13.1071
㠯	-13.1071
雨無限樓前滄波意誰	-13.1071
㼭	-13.1071
莫須長笛吹愁去	-13.1072
聞一霎清明雨雨後却斜陽杏花零落香	-13.1072
薗	-13.1072
初成鶴怨猿驚稼軒未	-13.1072
钁	-13.1072
匆匆春又歸去惜春長怕花開早何	-13.1072
鎡	-13.1073
媟	-13.1073
鈎簾借月染雲為幌	-13.1073
一縷宿酒醒遲惱破春情緒	-13.1073
畸	-13.1073
不知天待雪惱江梅東郊寒色尚徘徊雙	-13.1073
歉	-13.1073
棖	-13.1074
㳟	-13.1074
隸	-13.1074
贋	-13.1074
喟	-13.1074
伺	-13.1074
脹	-13.1074
球	-13.1074
梟	-13.1074
春訊飛瓊管風日薄度	-13.1074
榆火催寒食愁一箭風快	-13.1074
城不見只見亂山無數韋	-13.1075
愁旋釋還似織淚暗拭又偷滴	-13.1075
蜾	-13.1075
扢	-13.1075
春夢紅塵多少竒才不	-13.1075
棼	-13.1075
午睡香銷餘篆一枕湖山千里夢正白蘋	-13.1075
處付與漁翁釣叟又恰是題詩時候猛拍	-13.1076
郎去也怎忘得玉環分付第一是早早	-13.1076
時圓人有悲歡離合月有	-13.1076
眎	-13.1076
垞	-13.1076
染處空有香紅尚軟料彼此魂	-13.1076
罽	-13.1077
撻	-13.1077
斷無尋處可堪孤館閉春寒杜	-13.1077
姍	-13.1077
斗酒彘肩風雨渡江豈不快哉被香山居	-13.1077
閠	-13.1077
鮫綃透桃花落閒池閣山盟雖在錦書難	-13.1077
子還來尋舊壘餘寒猶峭紅日薄侵羅綺	-13.1077
魚傳尺素砌成此恨無重數郴江幸自	-13.1077
主惆悵後期空有鱗鴻寄紈素枕前淚	-13.1078
無言獨上西樓月如	-13.1078
起舞弄清影何似在人間轉朱閣低綺	-13.1078
梢青淺梅英紅小	-13.1078
􁐨	-13.1078
一陣狂風和驟雨碧油紅斾錦障泥斜日	-13.1078
樓西角斷虹明	-13.1078
氓	-13.1079
篦	-13.1079
􁭤	-13.1079
螟	-13.1079
窪	-13.1079
揲	-13.1079
㴞	-13.1079
舞徹中原塵飛滄海風雪萬里龍庭寫	-13.1079
矱	-13.1079
廩	-13.1079
便忘了天涯芳信愁損翠黛雙蛾日日畫	-13.108
䛏	-13.108
顕	-13.108
饋	-13.108
淮左名都竹西佳處解鞍少	-13.108
泛商流羽一聲雲杪	-13.108
青絲勒馬風流雲散羅綬分香翠綃封淚	-13.108
暝色入髙樓有人樓上愁	-13.108
蕯	-13.108
死催人去上馬苦匆匆琵琶曲未終	-13.108
勑	-13.108
看玉做人間素秋千頃	-13.108
休一丘一壑也風流不知筋力衰多少但	-13.108
無情有思縈損柔腸困酣嬌眼	-13.108
萬里尋郎去處又還被鶯呼起不恨	-13.108
玉砌空餘三十六離宫塞笳驚起	-13.1081
占風光呢喃清晝長	-13.1081
三十六陂人未到水佩風裳無數翠葉吹	-13.1081
愁情到不堪言處分付東流	-13.1081
飲無緒方留戀處蘭舟催發執手相看	-13.1081
縹緲孤鴻影驚起却回頭有恨無人省	-13.1081
禇	-13.1081
轉喜皇都舊日風光太平再見	-13.1081
似花還似非花也無人惜從	-13.1081
虵	-13.1081
樓上晴天碧四垂樓前芳草接天涯	-13.1082
來向此花前對酒不忍觸共粉淚	-13.1082
虹梁水陌魚浪吹香紅衣半狼	-13.1082
鰾	-13.1082
蝠	-13.1082
沲	-13.1082
覺從前皆非今是	-13.1082
捩	-13.1082
桷	-13.1082
起卧沙禽野老林泉故王臺榭呼喚登臨	-13.1083
風老鶯雛雨肥梅子	-13.1083
􁊭	-13.1083
爬	-13.1083
定應愁沁花骨	-13.1083
􁄪	-13.1083
猻	-13.1083
瀕	-13.1083
礶	-13.1083
首江海平生漂流容易散佳	-13.1083
咮	-13.1083
春風惡劣把數枝香錦和鶯吹折	-13.1083
剙	-13.1083
焦琴紈扇莫鼓琵琶江上曲怕荻花	-13.1084
甖	-13.1084
滿長安髙却旗亭酒價	-13.1084
度簾幕中間去年塵冷差池	-13.1084
錡	-13.1084
為使君洗盡蠻風瘴雨作霜天	-13.1084
萹	-13.1084
非干厚情易歇	-13.1084
慊	-13.1084
鷴	-13.1085
縟	-13.1085
想人生美景良辰堪惜向其間賞心樂事	-13.1085
梢翠尾分開紅影芳徑芹泥雨潤愛貼地	-13.1085
亘	-13.1085
繫歸舟碧野朱橋當日事人不見水空流	-13.1085
虚閣籠寒小簾通月暮色偏	-13.1085
晝景方永重簾花影好夢猶酣	-13.1086
闋長亭暮王孫去萋萋無數南北東西路	-13.1086
憑髙念逺向南樓一聲歸	-13.1086
騒	-13.1086
欲住試入舊巢相並還相	-13.1086
脰	-13.1086
低聲問向誰行宿城上	-13.1086
剷	-13.1086
誨	-13.1086
甦	-13.1086
隔花啼鳥喚行人日斜歸去奈何春	-13.1086
毗	-13.1086
透薄羅裳無限思量	-13.1086
爭飛競誇輕俊紅樓	-13.1086
飛還住驚粉重蝶宿西園	-13.1086
蔾	-13.1087
春盡燕嬌鶯姹	-13.1087
豌	-13.1087
淄	-13.1087
砭	-13.1087
最苦夢魂今宵不到伊行問甚時	-13.1087
鰣	-13.1087
鎰	-13.1087
駐初程過春風十里盡薺麥青青自	-13.1087
遶郴山為誰流下瀟湘去	-13.1088
㛰	-13.1088
膘	-13.1088
炤	-13.1088
鄜	-13.1088
閆	-13.1088
梢梢新月偃午	-13.1088
南陌脂車待發	-13.1088
情切望中地逺天	-13.1088
舊香頓歇怨歌永瓊	-13.1088
岏	-13.1089
橇	-13.1089
筴	-13.1089
天上金屋銀屏歌吹競舉青	-13.1089
襇	-13.1089
啅	-13.1089
刄	-13.1089
唏	-13.1089
秦鏡偷換韓香天便教人霎時厮見何妨	-13.1089
鼓瑟湘靈促哀彈似林鶯嚦嚦山	-13.1089
内苑春不禁過青門御溝漲	-13.109
誰念我重見冷楓紅舞喚起淡	-13.109
莉	-13.109
人未賞都付與鶯和燕寂寞	-13.109
名王宵獵騎火一川明笳	-13.109
吹月一簾花碎芳意婆娑	-13.109
悠悠嵗月天涯醉一分秋一分憔悴	-13.109
初試騰騰春思前度桃花去年人	-13.1091
彘	-13.1091
愍	-13.1091
樓上愁登臨愁登臨海棠開後望到如今	-13.1091
楊依舊欹斜葵麥迷	-13.1091
樓上女擡粉面雲鬟相亞鈿	-13.1091
平岸小橋千嶂抱	-13.1092
喜泥潤燕歸南浦最妨	-13.1092
𠺕	-13.1092
徇	-13.1092
拶	-13.1092
殖	-13.1092
戧	-13.1092
蝤	-13.1092
上馬誰扶醒眠朱閣驚飈動	-13.1092
斜陽映山落斂餘紅猶戀孤城欄角	-13.1092
雅須知此景古今無價運巧思穿	-13.1092
玉笥王沂孫聖與	-13.1093
玉漏穿花銀河垂地月上	-13.1093
儂家鸚鵡洲邊住	-13.1093
歆	-13.1094
魲	-13.1094
泒	-13.1095
窊	-13.1095
槧	-13.1095
初帶夜月海棠半含朝雨	-13.1095
栱	-13.1095
但莫管春寒醉紅自暖	-13.1096
鍍	-13.1096
𦦨	-13.1096
覯	-13.1096
鎪	-13.1096
撗	-13.1097
羝	-13.1097
曉雲空不與梨花同夢	-13.1097
劲	-13.1098
湲	-13.1099
蜀江春色濃如霧	-13.1099
藪	-13.11
撦	-13.11
暪	-13.11
杴	-13.1101
飫	-13.1101
鬃	-13.1101
滎	-13.1101
簏	-13.1101
搨	-13.1101
月冷龍沙塵清虎落今年漢酺初賜新翻	-13.1101
㳙	-13.1103
􁋚	-13.1104
䔧	-13.1107
䀨	-13.1107
鶺	-13.1107
的兵校每正雄威上應着	-13.1107
冡	-13.1109
窰	-13.1109
􁗒	-13.111
饀	-13.111
篭	-13.111
騑	-13.1112
盏	-13.1115
􁰽	-13.1116
柵	-13.1116
㖔	-13.1119
耙	-13.1125
偲	-13.1127
罨	-13.2517
臧	-13.2664
矰	-13.2674
涘	-13.2677
晫	-13.2688
笴	-13.2692
飴	-13.2694
鰍	-13.2702
愐	-13.2705
磋	-13.2706
倥	-13.2707
皥	-13.2709
䦘	-13.2711
諺	-13.2712
􁁻	-13.2712
犖	-13.2714
洤	-13.2715
絰	-13.2716
甯	-13.2717
􁯤	-13.2718
蠱	-13.272
膂	-13.2721
賫	-13.2722
誡	-13.2722
稊	-13.2722
夢裏不知身是客一晌貪歡	-13.2722
薿	-13.2722
沆	-13.2723
濾	-13.2724
麼	-13.2724
售	-13.2724
稭	-13.2725
佳麗地南朝盛事誰記山圍故國	-13.2725
今古俯仰昔人非誰似東坡老白首忘機	-13.2726
淰	-13.2726
了明肌雪春殿嬪娥魚貫列	-13.2726
遇當歌對酒競留連	-13.2727
金井嘶騎不來銀燭暗枉	-13.2727
顗	-13.2727
更潘岳儀容子建才	-13.2727
馬端臨經籍考載	-13.2727
忱	-13.2728
陔	-13.2728
褵	-13.2728
漾暖紋波颭颭吹晴絲雨	-13.2728
秋漸老蛩聲正苦夜將	-13.2728
想都開不惜春衣典盡只怕春光	-13.2728
懆	-13.2729
纚	-13.2729
翰林院檢討朱彞尊編	-13.2729
征夫指予歸路門前笑語喧童稚嗟	-13.2729
嬖	-13.2729
寒沙淺水蕭蕭暮雨孤	-13.2729
談風月醉則恣眠芳草醒後亦佳	-13.2729
動飛花和雨著輕綃歸路碧迢迢	-13.273
狽	-13.273
平林漠漠煙如織寒山一帶傷心碧	-13.273
瘠	-13.273
情緒蕭索一片閒愁想丹青難	-13.273
纇	-13.2731
悱	-13.2731
轝	-13.2731
忘我兼忘世親戚無浪語琴書中有真味	-13.2731
䜴	-13.2732
還海道願謝公雅志莫相違西州路不應	-13.2732
大舸翩翩何許至元是	-13.2732
陽舊友便一笑相歡	-13.2732
委吾心去留誰計神仙知在何	-13.2732
限江山别時容易見時難流水落花	-13.2732
噭	-13.2733
瀋	-13.2733
継	-13.2733
樟	-13.2733
𦙍	-13.2733
勸酒昵昵琵琶恩怨語春	-13.2733
嘶過畫橋東畔路	-13.2733
淡天花落天花落千林瓊玖滿空	-13.2733
匣哀絃閉了無心重理相思調念故人牽	-13.2733
晝喚青娥小紅樓上	-13.2733
晴空玉皇端拱彤雲	-13.2733
不賈種豆種桃之禍	-13.2733
絳綵嬌春鉛華掩晝占	-13.2733
斌	-13.2733
氤	-13.2734
蚿	-13.2734
先指花梢教看却把心期細	-13.2734
蓧	-13.2734
驟驚春在眼借問何時委曲到山家	-13.2734
桐吹緑庭院暗雨乍歇無端抱影銷	-13.2734
問沉香亭北何時召心未愜鬢先老	-13.2734
旹	-13.2734
此身雖在堪驚閒登小閣	-13.2734
睡起流鶯語掩蒼苔房櫳向	-13.2734
絍	-13.2735
热	-13.2735
虽	-13.2735
休文頓覺春衫褪清明近杏花吹盡薄暮	-13.2735
瓴	-13.2735
瘳	-13.2735
恨開遲早又飄零近今	-13.2735
人若梅嬌正愁横	-13.2735
天涯流落思無窮既相逢却匆匆	-13.2735
厭鶯聲到枕花氣動簾醉魂愁夢相半	-13.2736
訥	-13.2736
龐	-13.2736
悖	-13.2736
瞤	-13.2736
龍池澄碧芳意鱗鱗清時酒聖花神	-13.2736
琵琶誰撥最可惜一片江山	-13.2736
與笑籬落呼燈世間兒女	-13.2737
狷	-13.2737
蚩	-13.2737
曉醉西湖兩峰日日買花	-13.2737
眙	-13.2737
禺	-13.2737
銳	-13.2737
􁶋	-13.2737
歸路怨春不語算只有殷勤畫簷	-13.2737
而今何事又對西風離别渚寒	-13.2737
橋當門巷燕燕鶯鶯飛舞	-13.2738
長憶西湖湖水上盡日	-13.2738
蠃	-13.2738
楙	-13.2738
無言自倚修竹昭君不慣	-13.2738
照無眠不應有恨何事長向	-13.2738
芳如許軟紅塵裏鳴鞭鐙拾翠叢中勾伴	-13.2738
念寓形宇内復幾時不自覺皇皇欲何之	-13.2738
䨓	-13.2739
蓴鱸依舊可是功名從來誤撫荒	-13.2739
橋倚風融漢粉坐月怨秦簫相思因甚到	-13.2739
金環皓腕雪藕清泉瑩誰	-13.2739
硜	-13.2739
柩	-13.2739
嘏	-13.2739
簥	-13.2739
蛸	-13.2739
知否抱幽恨難語何時共漁艇莫負滄浪	-13.2739
劚	-13.2739
醉月小紅樓錦瑟箜篌夜來風雨	-13.2739
五更心欲折角聲吹落梅花月	-13.2739
氷瑩徹簟波零亂	-13.2739
芳思交加栁下桃蹊	-13.2739
漭	-13.274
葑	-13.274
冷雲迷浦倩誰喚玉妃起舞	-13.274
平生行處墜鞭京洛解佩瀟湘此夕何年	-13.274
微近處丞相嗔狂	-13.274
笑我閉門愁寂亂花過隔院芸香滿地狼	-13.274
春蘭可佩留待先生手自栽	-13.274
袙	-13.274
宫腰束素只怕能輕舉好築避風臺	-13.274
影無計重見啼春細雨籠愁	-13.274
蟾低下林表素娥青女	-13.274
理還亂是離愁别是一般滋味在心頭	-13.274
戡	-13.2741
期驚倦旅遥知樓倚東風凝顰暗數	-13.2741
華如許野梅弄眉嫵屐齒印蒼蘚漸	-13.2741
柔笑顰俱有風流貪與蕭郎	-13.2741
勳	-13.2741
定知我今無魂可銷	-13.2741
處悠然寒光亭下水連天飛起沙鷗一片	-13.2741
澌溶洩東風暗換年華金谷俊	-13.2741
矍	-13.2742
嬸	-13.2742
䬃	-13.2742
倸	-13.2742
子報君百結丁香	-13.2742
陌上清明近行人難借問風流何	-13.2742
嫩草方抽碧玉茵	-13.2742
説到得再相逢恰經年離别	-13.2742
暗藏弓履偷寄香翰明	-13.2742
明月幾時有把酒問青天不知天上	-13.2742
去盡酒徒無人問惟有玉山自倒	-13.2742
此事古難全但願人長久千里共嬋娟	-13.2742
辮	-13.2742
抹忽覺天風吹海立好似春霆初發白馬	-13.2743
斸	-13.2743
黝	-13.2743
遊誰信盛狂中有離情忽到心頭向	-13.2743
謾試着春衫還思纎	-13.2743
來只有楊花和恨向東風滿	-13.2743
桃根桃葉一樹芳相接春到江南	-13.2743
水風輕蘋花漸老月露冷梧葉飄	-13.2743
菉	-13.2743
輓	-13.2743
行人一棹天涯酒醒處殘陽	-13.2743
嘷	-13.2743
迤邐漸迷鴛瓦好是漁人披得一	-13.2743
前過來明月照人方寸	-13.2743
灤	-13.2743
靦	-13.2743
隃	-13.2743
㷱	-13.2743
􁑱	-13.2743
自是仙姿清無暑月影空垂素扇	-13.2743
去年時正愁絶過却紅杏飛沉吟杏子	-13.2744
搔首更醉君家酒吟詩日日待春風及至	-13.2744
芭蕉寒雨聲碎鏡華翳	-13.2744
釵至今冷落輕棄望極藍橋但暮雲千里	-13.2744
失春風一半早占取韶光共追	-13.2744
明月窺人人未寢欹枕釵横	-13.2744
棱	-13.2744
蕕	-13.2744
梅翻雪江月正茫茫	-13.2744
霧失樓臺月迷津渡桃源望	-13.2744
接雄蜂雌蝶豈是無情知受了多少	-13.2744
院宇獨自行來行去花片無聲簾外雨	-13.2744
髹	-13.2745
西園夜飲鳴笳有華燈礙月飛	-13.2745
摳	-13.2745
桯	-13.2745
㳂	-13.2745
香泥斜沁幾行斑東風巧盡	-13.2745
峯翠琴書倦鷓鴣喚起南	-13.2745
鶵	-13.2745
為米折腰因酒棄家口體交相累	-13.2745
閉想見東風暗消肌雪辜負枕前雲雨	-13.2746
風簾映朱户鶯能舞花	-13.2746
更那堪冷落清秋節今宵酒醒何處楊	-13.2746
樓畫簾半捲東風軟春歸翠陌平莎茸嫩	-13.2746
馬出都門正潮平洲渚	-13.2746
耍江城人悄初更打問繁華誰解再向天	-13.2746
綏	-13.2746
踽	-13.2746
怕喚起魚龍三更噴作前山雨	-13.2746
跣	-13.2746
曚	-13.2746
爉	-13.2746
渭水西風長安亂葉空憶詩情宛轉凭	-13.2746
杜若吹沙愁損未歸眼信馬青樓去	-13.2747
明朝酒醒大江流滿載一船離恨向衡州	-13.2747
屇	-13.2747
菌	-13.2747
殘夜長衾枕寒梧桐樹三更雨不道離情	-13.2747
匱	-13.2747
不如醉還醒醒而醉	-13.2747
清明時序料理春酲情緒憶	-13.2747
穽	-13.2748
倚危亭恨如芳草萋萋剗盡還生	-13.2748
婵	-13.2748
風皓月相與忘形任人笑生涯泛梗飄萍	-13.2748
筆猶記燕臺句知誰伴名園露飲東城	-13.2748
不夜團團月上雲霄太平官府民物共逍	-13.2748
㮄	-13.2748
燈市草根青發	-13.2748
祠誰繼風流後今古恨一搔首	-13.2748
舊客京華長偎傍	-13.2748
宜訪戴泛小棹越溪瀟	-13.2748
縚	-13.2749
橰	-13.2749
鑱	-13.2749
犒	-13.2749
雙盤金縷鳯憶得前春有箇人人共花裏	-13.2749
倚處待得月華生燕子飛	-13.2749
此花飛盡恨西園落紅難綴曉來雨過遺	-13.2749
湘天濃暖記小江風月佳時屢約非	-13.2749
翩然引去浮雲安在我自愛緑香紅	-13.2749
脇	-13.2749
爭先占新亭館惆悵年華暗換黯	-13.2749
問江路梅花開也未春到也須頻寄人	-13.2749
浮向風前懊惱芳心一㸃寸眉兩葉禁甚	-13.2749
皓鶴奪鮮白鷴失素千里廣鋪寒野須信	-13.2749
樂遊原上清秋節	-13.2749
嫩梢相觸潤逼琴絲寒侵枕障蟲網吹	-13.2749
瀁	-13.275
􁵉	-13.275
玉枕拂金徽謫仙何處無人伴我白螺	-13.275
破殘寒結伴踏青去好平頭鞋子小雙鸞	-13.275
馬嘶人去船逐清波東注後夜最髙樓還	-13.275
冷月無聲念橋邊紅藥年年知為誰生	-13.275
浦等行人醉擁重衾載	-13.275
首一銷凝望歸鴻容與	-13.275
根行客南山尚相送只	-13.275
春風不管盈盈早與安排金屋還	-13.275
君知東溪春近好同歸	-13.275
行人歸意速最先念流潦妨車轂怎奈向	-13.275
南去北來何事蕩湘雲楚水目極傷心朱	-13.275
簫聲咽秦娥夢斷秦樓月秦樓月年年	-13.275
兖	-13.275
毉	-13.275
捶	-13.2751
障風映袖盈盈笑語前度劉郎重到訪	-13.2751
莬	-13.2751
伴須信鸞絃易斷奈雲和再鼓曲終人逺	-13.2751
津堠岑寂斜陽冉冉春無極念月榭	-13.2751
萬事茫茫宇宙但獨對西風搔首巧拙豈	-13.2751
谺	-13.2751
韶華不為少年留恨悠悠	-13.2751
亂生春色誰為主餘花落處滿地和	-13.2751
烟盡處紅蓼水邊頭芳草有情夕陽無語	-13.2751
臉人道愁來須殢酒無奈愁	-13.2751
輜	-13.2751
拯	-13.2751
靛	-13.2751
夜寒垂燈春淺匆匆時事如許倦	-13.2751
落紅鋪徑水平池弄晴小雨霏霏	-13.2751
娠	-13.2751
思量人否無緒無緒生怕黄昏疎雨	-13.2751
簍	-13.2751
未信與鶯兒燕子俱黄土千秋萬古	-13.2751
瀠	-13.2751
物直教生死相許天南地北雙飛客老翅	-13.2751
頥堂先生文集卷第	-13.2751
風蕭瑟邯鄲古道傷行客傷行客	-13.2751
燈火漸人行天外一鈎殘月帶三星	-13.2752
洎	-13.2752
鯁	-13.2752
倦梳頭物是人非事事休欲語淚先流聞	-13.2752
春將半清歌妙舞從頭按等芳時開宴	-13.2752
瞎	-13.2752
眤	-13.2752
知辜負秋多少聞道嶺南太守後堂深	-13.2752
芰荷池小長夏清暑燕引雛還鳩呼婦	-13.2752
燈縱博雕鞍馳射誰記當年豪舉酒徒一	-13.2752
成空落日楚天無際凭	-13.2753
春去不與人期弄夜色空餘滿地梨花雪	-13.2753
衣底一時休斜風細雨轉	-13.2753
猶厭言兵漸黄昏清角吹寒都在空城	-13.2753
淮楚曠望極千里火雲燒空	-13.2753
擋	-13.2753
藕花相向野塘中暗傷亡國清露泣香紅	-13.2753
霜送曉寒侵被無寐無寐門外馬嘶人起	-13.2753
鬟堆枕香雲擁翠	-13.2753
颸動翠葆露脚斜飛雲表因嗟念	-13.2753
㽜	-13.2754
不見又思量見了還依舊	-13.2754
照野瀰瀰淺浪横空曖曖	-13.2754
外蛛絲網落花也要留春住	-13.2754
噆	-13.2754
􁉤	-13.2754
罍良宵勝景語邦人莫惜徘徊休	-13.2754
信知暮寒較淺行天入鏡做弄出輕	-13.2754
㯭	-13.2754
漸老紅英落盡青梅小	-13.2754
他佳約風流鈿車不到杜陵路	-13.2754
重見鏡裏花難折也應驚問近來多少華	-13.2754
驄歸去長亭路芳塵起十二屏	-13.2755
閒依露井笑撲流螢惹破	-13.2755
隷	-13.2755
冄	-13.2755
歿	-13.2755
笑聲喧似簫鼓太平京國多歡大酺綺羅	-13.2755
處東風不動照花影一天春聚	-13.2755
幾時來又不道流年暗中偷換	-13.2755
蜩	-13.2755
香最嬌軟到清明時候百紫千紅花正亂	-13.2755
樹隔離宫水平馳道湖山盡入	-13.2755
煙處問離巢孤燕飛過誰家故人	-13.2755
鄔	-13.2756
夢草池塘青漸滿海棠軒檻紅相亞	-13.2756
應也恨冷落瓊樓金闕禁漏迢迢	-13.2756
穠李夭桃是舊日潘郎親試春	-13.2756
幽恨盡是愁邊新句倦登	-13.2756
旋平野拂雪金鞭欺寒茸	-13.2756
蘭非一笑千秋事浮世危機	-13.2756
何事又惡任流光過却猶喜洞天自樂	-13.2756
解繡鞍緩引春酌不記歸時早	-13.2756
花氣清婉望中迤邐城隂度河	-13.2756
幾聲啼鴂十里揚州三生杜牧前事休	-13.2757
檏	-13.2757
馬雕鞍醉襟惹亂花飛絮正輕寒輕	-13.2757
合金釵私語處算誰在	-13.2757
處從今又添一段新愁	-13.2757
􁸠	-13.2758
帝遣阜安宗社人仰雍容廊廟盡	-13.2758
綳	-13.2758
此恨無人共説還立盡黄昏寸心空切	-13.2758
絣	-13.2758
缕	-13.2758
罐	-13.2758
輕寒輕暖恨芳菲世界	-13.2758
遥夜孤光難曉多少碎人腸處空	-13.2758
阑	-13.2758
哿	-13.2758
燈火烘春樓臺浸月良宵一刻千金錦	-13.2758
清野人語漸無聞空帶愁歸何意重	-13.2758
城人隔罨畫園林溪紺碧算重	-13.2758
枮	-13.2758
􁏠	-13.2758
投宿駸駸征騎飛雪滿孤村酒市漸	-13.2758
蘄州簟展雙紋浪	-13.2759
兒閉紅紅白白簇花枝恰稱	-13.2759
沙堤香軟正宿雨初	-13.2759
鼓悲鳴遣人驚念腰間	-13.2759
芘	-13.2759
􁁺	-13.2759
情川途換目頓	-13.2759
初透東籬把酒黄昏後有暗香盈	-13.2759
膨	-13.2759
同中書門下平章事兼樞	-13.2759
憂愁風雨樹猶如此倩何人喚取紅巾翠	-13.2759
纎細雨殢東風如困縈	-13.2759
飩	-13.2759
咶	-13.2759
廊影下願天上人間占得歡娛年年今夜	-13.2759
􁄀	-13.2759
璃	-13.276
仭	-13.276
常南望翠葆霓旌使行人到此忠憤氣	-13.276
晴紅欲染逺山過雨	-13.276
蘩	-13.276
障泥未解玉驄驕我	-13.276
夜鶴歎當時花竹今如此枝上露濺清淚	-13.276
懌	-13.276
綯	-13.276
魂當此際香囊暗解羅帶輕分謾	-13.276
纎雲弄巧飛星傳恨銀漢迢迢暗度	-13.2761
㟳	-13.2761
經年底事長負清景暝入西山漸喚我一	-13.2761
眯	-13.2761
瓤	-13.2761
枣	-13.2761
堂瓊榭兩地不同栽一般開	-13.2761
東山歌酒待他年整頓乾坤事了為先生	-13.2761
氣嫩菊黄深拒霜紅淺近	-13.2761
誰空自倚清香未減風流不在人知	-13.2761
乍雨乍晴輕暖輕寒漸近賞花時節	-13.2761
解羅裳獨上蘭舟雲中誰寄錦書	-13.2762
咫尺醉中歸夢直前度蘭舟送客雙鯉	-13.2762
楯	-13.2762
三之一官裏事何時畢風雨外無多日相	-13.2762
無汗水殿風來暗香滿繡簾開一	-13.2762
太液波翻披香簾捲月明風細	-13.2762
落花已作風前舞又送	-13.2762
初嫁了雄姿英發羽扇綸巾談笑間	-13.2762
緼	-13.2762
跐	-13.2762
徧九陌太平簫鼓乍鶯兒百囀	-13.2762
駕此一輪玉寒光零亂	-13.2762
此心與東君同意後不如今	-13.2762
看梅開未重唱梅邊新度曲催發寒梢凍	-13.2762
道風披宿霧露洗	-13.2763
拷	-13.2763
鴛鴦拂破蘋花影低低	-13.2763
滏	-13.2763
齊開秋水太守無限行歌意擁麾幢光動	-13.2763
紛紛墜葉飄香砌夜寂	-13.2763
擁雙旌歸去海棠也似别君難一	-13.2764
欤	-13.2764
大江東去浪淘盡千古風流人物故壘西	-13.2764
矯矯千年鶴茫茫萬里風	-13.2764
年時去處年時春色清明又近也却天涯	-13.2764
年年今夜月華如練長是人千里愁腸	-13.2764
揝	-13.2765
咆	-13.2765
朂	-13.2765
霜欺無情燕子怕春寒輕失花	-13.2765
禽時度月上汀洲冷中流容與	-13.2765
薏	-13.2766
佻	-13.2766
閹	-13.2766
腷	-13.2766
空在紈素待花前月下見了不教歸去	-13.2766
外雨絲絲將恨和愁都織玉骨西風添痩	-13.2766
􁝴	-13.2766
得便宜翻做了落便宜	-13.2766
鍜	-13.2766
涅	-13.2766
不許愁人不起清露晨流新桐初引多少	-13.2766
春翠偷聚淺約挼香深盟搗月誰是	-13.2766
恪	-13.2766
㝛	-13.2767
就夢葉葉碧雲分雨芳	-13.2767
波聲拍枕長淮曉隙月窺人小無情	-13.2767
瘐	-13.2767
道池亭多宴掩庭花長是驚落秦謳膩粉	-13.2767
攖	-13.2768
虫	-13.2768
滋味征鴻過盡萬千心事難寄樓上	-13.2769
手還重執鎮日相看未足時	-13.2769
䗫	-13.2769
絮風頭寒欲盡墜粉飄	-13.2769
翠陌蘭橈雙槳急欲訪莫愁何處旗亭在	-13.2769
薝	-13.2769
縁生别情銷鬢霜千	-13.2769
寛春無限仙郎驕馬瓊林宴待捲上珠簾	-13.277
唵	-13.277
無處問愁到而今未盡分明都是	-13.277
屎	-13.2771
宓	-13.2771
傷心故人去後冷落新詩微雲	-13.2771
餻	-13.2771
朣	-13.2772
翠冷搔頭燕那能語恩怨紫簫逺記桃枝	-13.2772
俐	-13.2772
紡	-13.2773
醎	-13.2774
魘	-13.2774
東君消息還自南枝得素衣	-13.2774
饕	-13.2774
涿	-13.2774
鷰	-13.2774
似水佳期如夢忍顧鵲橋歸路兩情若是	-13.2774
囙	-13.2778
調有平韻仄韻兩體平韻者	-13.2779
施逞英鋭最當先展	-13.2779
騌	-13.278
唓	-13.2781
􁗀	-13.2782
霪	-13.2783
出花枝紅裊怎禁他孟婆合	-13.2785
潺	-13.2786
這早晚不来呵莫不是	-13.2788
儍	-13.2789
稡	-13.2789
㳤	-13.2789
􁦲	-13.279
庿	-13.2798
髽	-13.2802
富貴非吾願但知臨水登山嘯詠自引	-13.2806
怖	-13.4603
丶	-13.4625
憊	-13.4626
諵	-13.4675
鰐	-13.4678
銼	-13.4682
饜	-13.4684
畎	-13.4687
昃	-13.4692
䥏	-13.4697
鯈	-13.4701
腑	-13.4703
詩人老去鶯鶯在公子歸来燕燕忙	-13.4707
娬	-13.4708
嶄	-13.4709
鸇	-13.471
肄	-13.4711
處把酒聽歌金縷斜風輕度濃香	-13.4712
鏇	-13.4712
鑛	-13.4713
耄	-13.4714
筓	-13.4715
知何處惟有楊花糝徑漸玉枕騰騰	-13.4715
酋	-13.4715
訃	-13.4716
迎空有千行流淚寄幽貞舞罷魚龍雲海	-13.4717
鶿	-13.4718
儸	-13.4719
襠	-13.4719
沚	-13.4719
晀	-13.472
噍	-13.472
花期消息定只愁風雨無憑凖	-13.472
拂舊東君多少韶華都借看	-13.472
東崗更葺茅齋好都把軒	-13.472
換翠苦相催人生行樂且須痛	-13.472
斗帳春寒起未忺天氣困人梳洗	-13.4721
陌頭楊栁漸漸可藏鴉	-13.4721
隧	-13.4721
闚	-13.4721
柟	-13.4721
雅態妍姿正歡洽	-13.4721
雲鬢亂未忺整江南舊事休重省	-13.4722
丱	-13.4722
一道士道士驚曰此赤城韓夫人所	-13.4722
亸	-13.4722
斝	-13.4723
吹上滿輪寒璧河漢低	-13.4723
泯	-13.4723
牝	-13.4723
指十三絃細將幽恨傳當筵秋水慢	-13.4723
不恨殘春破只恨流光一年一度	-13.4724
催新火縱青天白日繫長	-13.4724
籠燈就月子細端相	-13.4724
鷯	-13.4724
泐	-13.4724
鴃	-13.4724
相照塵香拂馬逢謝女城南道秀	-13.4724
涵秋寒渚染霜丹樹	-13.4725
玻	-13.4725
春色深重簾未捲影沉沉倚樓	-13.4725
頫	-13.4725
諛	-13.4725
東西水遶兩山南北髙下雲堆逋	-13.4725
滿城風雨黄花無數碧雲欲暮	-13.4726
過施粉多媚生輕笑鬬色鮮衣薄碾玉雙	-13.4726
祼	-13.4726
崐	-13.4726
堂前應到化工不管朱門閉也暗傳音耗	-13.4726
問問因循過了青春怎生意穏	-13.4726
楂	-13.4726
薄情知春初早被相思染	-13.4726
凊	-13.4727
躇	-13.4727
人立盡梧桐影誰伴我對鸞鏡	-13.4727
稀是來時夢中行路時節正思家逺道仍	-13.4727
製水府蔡真君法駕	-13.4727
蕈	-13.4727
嗈	-13.4727
淚珠彈粉堂深晝永燕交飛風簾露井	-13.4727
短亭有情歌酒莫催行看取無情花草也	-13.4728
塋	-13.4728
懈	-13.4728
耑	-13.4728
微映是空舟歌罷海西流	-13.4728
諞	-13.4728
溪山掩映斜陽裏樓臺影動鴛鴦起隔	-13.4728
燬	-13.4728
簾外雨潺潺春意闌珊羅衾不	-13.4728
頻耳畔低語知多少他日深盟平生丹素	-13.4728
冋	-13.4729
可飲且須同醉溪魚堪鱠切莫論錢笠澤	-13.4729
圞	-13.4729
佗	-13.4729
箇人人第五程尋好夢夢難成	-13.4729
蕳	-13.4729
讜	-13.4729
徹金猊燼冷動是愁端如何	-13.473
軟是將春揉做撩亂隨風到何處自	-13.473
畤	-13.473
好付樂事與他年少費盡	-13.473
囓	-13.473
鷂	-13.473
花春復秋啼猿何必近孤舟行客自多愁	-13.4731
勌	-13.4731
冷落秋光借取春風一笑狂夫到老猶狂	-13.4731
􁩰	-13.4731
芉	-13.4731
隨風忽報秋縱使君來豈堪折	-13.4731
明代暫遺賢如何向未遂風雲便	-13.4731
矚	-13.4731
翠風流事平生暢青春都一	-13.4731
楓葉濃於染秋正老江上征衫寒淺又是	-13.4731
楓半篙寒日傍橋繫船愛洞門深	-13.4731
楚女不歸樓枕小河春水	-13.4731
長人不寐數聲和月到簾櫳	-13.4732
械	-13.4732
种	-13.4732
鵊	-13.4732
錦帳重重捲暮霞屏風曲曲	-13.4732
垂下簾旌凉波不動簟紋平	-13.4732
臉鮮霞透櫻小杏青寒食後衣換縷金輕	-13.4732
讖	-13.4732
幸有意中人堪尋訪且恁偎紅	-13.4732
渡口啼紅一春又負西湖醉離恨雨聲中	-13.4732
賑	-13.4732
香雲為約甚時向幽閨深處按新	-13.4732
縱使長條似舊垂也應攀折他人手	-13.4732
􁩘	-13.4733
縊	-13.4733
後盡日空疑風竹塞北氍毹江南圖	-13.4733
媚臉籠霞芳心泣露不肯為雲雨金波影	-13.4733
唉	-13.4733
壳	-13.4734
邯	-13.4734
褘	-13.4734
岌	-13.4734
蘭媚一曲夕陽西下沉醉罷君試	-13.4734
斷碧雲無際凝淚眼出重城隔溪羌笛聲	-13.4734
春又去忍把歸期負此情此恨此際擬	-13.4734
夜色催更清塵收露小曲幽坊月暗竹檻	-13.4734
方榴花弄色萱草成窩	-13.4734
朏	-13.4734
丳	-13.4734
恨湘雲人散楚蘭魂傷身是客愁為鄉	-13.4734
散響驚詩思還被亂鷗飛去	-13.4734
曆	-13.4734
歡樂趣離别苦就中更有癡兒	-13.4734
褚	-13.4734
寒瑩晩空㸃青鏡斷霞孤鶩對客館深	-13.4734
無計住但芳草迷人去路	-13.4735
清秋笛聲依約蘆花裏白鳥成	-13.4735
看日近長安近玉帳同時英俊合離無	-13.4735
靧	-13.4735
鄆	-13.4735
人生誰是無情者先生歸也但	-13.4735
朓	-13.4735
擠	-13.4735
幽思屢隨芳草閒愁多	-13.4735
哉秋江上看驚弦鴈避駭浪	-13.4735
濛輕衫短㡌西湖路花氣撲春	-13.4735
古今得失是非榮辱須信人生	-13.4735
奈短笛喚起天涯情逺雙屐行春扁舟嘯	-13.4735
暗畢竟不成眠鴉啼金井寒	-13.4735
竚立庭柯影裏好風襟袖先知夜何其江	-13.4735
總付與啼鴂長恨相從未	-13.4735
側又是東君暗遣花神先報南	-13.4735
暗喜春紅依舊歸來紫陌東頭金釵換酒	-13.4735
星河鷺起圖畫難足念自昔豪華競逐	-13.4735
從今夜數相㑹幾多時淺酒欲邀誰	-13.4736
霞垂地都城池苑誇桃李問東風何似不	-13.4736
齦	-13.4736
人赤烏年事江漢亭前路浮萍無據水天	-13.4736
崛	-13.4736
許憂愁風雨一半相妨又何	-13.4736
鄖	-13.4736
幾許一川煙草滿城風絮梅子黄時雨	-13.4736
撩客恨甚貂裘重擁愁無數霜月白照離	-13.4736
夜寒江静山銜斗起來搔首梅影横	-13.4736
小浸愁漪一春幽事有誰	-13.4736
年華今日笙歌叢裏特地咨嗟席上青衫	-13.4736
手躡屐上崔嵬放目蒼崖萬仞雲	-13.4736
珥拂菱花如水學妝皆道稱時	-13.4736
裁春衫尋芳記金刀素手同在晴	-13.4736
牢掩惆悵明朝何處故人相望但碧雲半	-13.4736
春到南樓雪盡驚動燈期花信小雨一	-13.4736
俑	-13.4736
扼	-13.4737
雲月溪頭玉環一曲筆力千鈞人間不堪	-13.4737
霧閣事茫茫試與問杏梁雙燕	-13.4737
歌淺笑拜嫣然願郎宜此酒行樂駐華年	-13.4737
解移宫換羽未怕周郎長顰知有恨貪	-13.4737
何處年年惟見春絮非不豪似周瑜壯如	-13.4737
艟	-13.4737
問凄風愁露剗地東西留鞭換佩怕匆匆	-13.4737
綍	-13.4737
難忘芳樽頻勸峭寒新退玉漏猶長	-13.4737
不恨古人吾不見恨古人不見	-13.4737
燕掠晴絲裊裊魚吹水葉	-13.4737
捥	-13.4737
落日繡簾捲亭下水連空知君為我新作	-13.4737
重逢處詩翁感遇把江北江南風嘹月唳	-13.4737
頭生死殊路天長地	-13.4737
絲長御溝澄碧水轉池塘	-13.4737
喞	-13.4737
琴難托合造一襟幽怨雲	-13.4738
禁宿酒天涯寒食歸期莫數芳辰誤幾度	-13.4738
暝酒旗斜但倚樓極目時見棲	-13.4738
睞	-13.4738
廳	-13.4738
瘤	-13.4738
風光又新一部仙韶九重鸞仗天上長春	-13.4738
產	-13.4738
似春塘水一片縠紋愁溶溶	-13.4738
緑生時是落紅帶愁流	-13.4738
麗句聲聲字字酸楚拍江秋影今何在	-13.4738
紅酥手黄藤酒滿城春色	-13.4739
雲浪魚鱗小見皓月相看又透入清輝半	-13.4739
墻啼鳥聲亂江城次第笙歌翠合綺羅香	-13.4739
聞津鼓湘江上催人還解春䌫亂紅萬	-13.4739
􁄞	-13.4739
去年病樓頭畫角風吹醒入夜重門	-13.4739
邙	-13.4739
滿地黄花堆積憔悴損如今有誰	-13.4739
斷雨殘雲無意緒寂寞朝朝暮	-13.4739
綣	-13.4739
嬿	-13.4739
昭陽飛燕亦成塵惟有空梁落月至今能	-13.4739
杰	-13.4739
終不似一朶釵頭顫裊向人欹側漂流	-13.4739
鹹	-13.4739
嗟清江東注畫舸西流指長安日下愁宴	-13.4739
混一過唐之數不為難陳橋驛孤兒寡婦	-13.4739
青林雨歇珠簾風細人在緑	-13.4739
飯溪童供筍菜	-13.4739
餘光是處散離思最憐香靄霏霏牽衣	-13.4739
人等得春晴也處處旗亭	-13.4739
今日山頭雲欲舉青蛟素	-13.4739
依舊生芳草忙處人多閒處少閒處光	-13.4739
動翠葆曲徑通深窈夏果收新	-13.4739
想空山桂香懸樹三年夢冷孤吟意短屢	-13.4739
把酒祝東風且共從容垂楊紫陌洛城東	-13.4739
昝	-13.4739
移時舞行到石橋聞細雨	-13.4739
還住風吹却過溪西去	-13.4739
驟雨鳴池沼水亭小浮萍破處	-13.4739
髙望眼更那堪芳草連天飛梅弄晚	-13.4739
猶恨侵堦芳草天念王昌忒多情換巢鸞	-13.4739
牲	-13.474
憐花可可夢依依九疑雲杳	-13.474
竹杖更芒鞋朱朱粉粉野蒿開誰家寒食	-13.474
醬	-13.474
絮飛撩亂心事一春猶未見	-13.474
愀	-13.474
立宿鳥歸飛急何處是歸程長亭更短亭	-13.474
門外薔薇開也枝頭梅子酸時	-13.474
蹤跡又酒趂哀絃燈照離席	-13.474
鈿重上風鬟不禁月冷霜寒	-13.474
城倦眼無緒更看桃李當時醉魄算依舊	-13.474
多情和天也老不應情遽如許請君試	-13.474
嵗來應折柔條過千尺	-13.474
涼新浴手弄生綃白團扇扇手一時似	-13.474
道長空龍艘古渡馬耳淚如雨	-13.474
寫入琴絲一聲聲更苦	-13.4741
天上傳新火人間試裌衣定巢新燕	-13.4741
歸髙陽人散寂寞狂蹤跡望京國空目	-13.4741
狂竊香俊雅無計拘管青絲絆馬紅	-13.4741
酒西樓東風翠紅圍繞把功名一笑付糟	-13.4741
宫闕今夕是何年我欲乗風歸去	-13.4741
况落紅無數春且住見説道天涯芳草	-13.4741
處處聞啼鴂咫尺江山分楚越目斷	-13.4741
霧惟見廣寒門外青無重數不知是水	-13.4741
南逺人何處鷓鴣啼破春愁長記曽陪燕	-13.4741
喈	-13.4741
罶	-13.4741
青時追悔負好花枝今年又春到傍小	-13.4741
何人月下臨風處起一聲羌笛離	-13.4741
臉長嘯亦何為醉舞下山去明月逐人歸	-13.4741
榔四起沙鷗未落怕愁沾詩句碧袖一聲	-13.4741
曲溪流水潺潺塞上清秋早寒一聲新	-13.4741
浪浸斜陽千里溶溶臨風想佳麗别後愁	-13.4741
醉裏了忘身世吟邊自負風流	-13.4742
可惜年華婉娩西風初弄庭菊	-13.4742
客裏風光又過清明節小院黄昏人憶	-13.4742
陽儔侣想東園桃李自春小	-13.4742
春來倍覺傷心念故國情多新年愁苦縱	-13.4742
島上紅雲朱衣引馬	-13.4742
罣	-13.4742
變韶景都門十二元宵三五	-13.4742
椹	-13.4742
苡	-13.4742
賚	-13.4742
緹	-13.4742
更朦朧桃李小園空阿誰猶	-13.4742
劄	-13.4742
愁客少月明多被雲妨中秋誰與共	-13.4742
知憔悴損天涯行客楚峽雲	-13.4742
可憐無數山青山遮不住畢竟東流去江	-13.4742
是經年杳杳音塵都絶欲知方寸共有	-13.4742
亂北隨雲黯黯東逐水悠悠斜日半山暝	-13.4742
今年元夜時月與燈依舊不見去年人淚	-13.4742
留住佳人唱金衣莫惜才子倒玉山休訴	-13.4742
禁街行樂暗塵香拂面皓月	-13.4742
汀蕙半凋滿目敗紅衰翠楚客登臨正是	-13.4742
浪起掀舞一葉白頭翁堪笑蘭臺公子未	-13.4742
網盡日惹飛絮長門事凖擬佳期又誤	-13.4742
膈	-13.4742
萬里如虎元嘉草草封狼居胥	-13.4742
虚度未應信此度相思寸腸千縷	-13.4742
蘭棹舉相趂落紅飛去一隙輕簾凝睇處	-13.4743
汀棹歌聲春水無風無浪春	-13.4743
人間欲避風波險一日風波十二時	-13.4743
殘霞落日水天拍拍飛鷗	-13.4743
凄凄更聞私語露濕銅鋪苔侵石井都是	-13.4743
天悠悠水悠悠月印金樞曉未	-13.4743
尋機杼曲曲屏山夜凉獨自甚情緒西	-13.4743
陸海中星轉斗駕	-13.4743
勸花長好願公更健便揉春	-13.4743
弈	-13.4743
恨悠悠恨到歸時方始休月明人倚樓	-13.4743
愕	-13.4743
跼	-13.4743
神仙班裏舊日王喬出奉	-13.4744
又還有此時歡否臨岐把酒莫惜十分斟	-13.4744
輿行樂金蓮照十里笙簫	-13.4744
半夜驚羅扇蛩聲入夢傳幽怨碧藕試初	-13.4744
迤邐御香飄滿人間聞嬉笑	-13.4744
住想當年金戈鐵馬氣	-13.4744
恨春易去甚春却向揚州住	-13.4744
照影長相聚秋風不住悵寂寞芳魂輕	-13.4744
贏得倉皇北顧四十三年望中猶記	-13.4744
靄生深樹隂隂淡月籠沙	-13.4744
輕粉魚吞池水望章臺路杳金鞍	-13.4744
瓊苑金池青門紫陌似雪楊花滿路雲日	-13.4744
卧桂影露凉時零亂多少寒螿神京逺	-13.4744
栁岸曉風殘月此去經年應是良辰好景	-13.4744
里青山一溪流水都做許多情	-13.4744
鴉無奈歸心暗隨流水到天涯	-13.4744
斷送一生惟有破除萬事無過	-13.4744
薄倖名存此去何時見也襟袖上空染啼	-13.4744
朝小圃花開自歌自舞自開懐且喜無拘	-13.4745
㫒	-13.4745
光芒十五年間真夢裏何事長庚對月獨	-13.4745
瀧	-13.4745
虺	-13.4745
鎩	-13.4745
海角飄零嘆漢苑秦宫墜露飛	-13.4745
王奕淸奉㫖校刋	-13.4745
欄玉砌應猶在只是朱顔改問君	-13.4745
甚矣吾衰矣悵平生交	-13.4745
聲驚愁攪夢更不管庾郎心	-13.4745
要人先醉問道明朝行也未猶自記	-13.4745
面邊聲連角起千嶂裏長	-13.4745
可尋歸路多景樓前垂	-13.4745
宜城酒美昨日新醅熟輕鑣相逐衝泥	-13.4745
念利名憔悴長縈絆追往事空慘愁	-13.4745
手前歡記渾似夢裏揚州誰念斷腸南陌	-13.4745
望斷江南山色逺人不見草連空夕陽樓	-13.4745
虹亭下一枕眠秋雨虚名相	-13.4745
街酥雨待過了一月燈期日日醉扶歸去	-13.4745
送盡去雲成獨立酒醒愁又入	-13.4745
幽怨誰知羅衾滴盡淚	-13.4745
楊風送小鶯聲殘夢不成離玉枕堪愛	-13.4745
濯雪眇視萬里一毫端	-13.4745
秋空下臨江渚漠漠孤雲未成雨數聲新	-13.4745
被雨打風吹去斜陽草樹尋常巷陌人道	-13.4745
那忍驟花驄望斷斜陽人不見滿袖啼紅	-13.4745
鑑此中看幽壑魚龍悲嘯倒影星辰	-13.4745
試問丹青手是怎生描得	-13.4745
思空亂兩眉愁向誰舒展	-13.4745
遥未知何處是瀟湘念雙燕難憑逺信指	-13.4745
胾	-13.4746
輊	-13.4746
絲千縷池上曉光分宿霧日近羣芳易吐	-13.4746
迍	-13.4746
人遥和羮心在忍使芳塵歇東風寂寞可	-13.4746
儇	-13.4746
别來迅景如梭舊遊似夢	-13.4746
勦	-13.4746
尚書右僕射兼中書侍郎	-13.4746
時候在天涯白露收殘月清風散曉霞	-13.4746
消得東風喚醒青杏單衣楊花小扇	-13.4746
花心夢醒鞭香拂散牛土舊歌空憶珠簾	-13.4746
陽近又是搗衣秋奈愁入庾腸老侵潘鬢	-13.4746
一襟芳思與空階榆莢千萬縷藏鴉細栁	-13.4746
噓	-13.4746
日照玉樓花似錦樓上醉和春色寢	-13.4746
汩	-13.4746
瑤臺曲又却是風敲竹石榴半吐紅	-13.4746
瘦馬衝泥尋去路	-13.4746
識京華倦客長亭路年去	-13.4746
金屋去來舊時巢燕土花繚繞前度莓	-13.4746
開府莫怕功名欠人做如今熟計只有故	-13.4746
開後春酣花外青帘迷酒思陌上	-13.4746
餔	-13.4746
静烽燧且休兵冠	-13.4746
又吹暗雨為誰頻斷續相和砧杵候館	-13.4746
山可買小結屋三間開一逕俯	-13.4746
寄西江題葉字流不到五亭前東池始有	-13.4746
與蕭郎别後事事俱嫌短歌新曲無心理	-13.4746
霜紅西風送客聞砧杵鞭	-13.4746
暮色漸起戍角悲吟	-13.4747
消息當時烏絲夜語約桃花時候同醉	-13.4747
禊事當時座上皆豪逸到如今	-13.4747
金鞍美少年去躍青驄馬牽繫玉樓人	-13.4747
獠	-13.4747
易傷心目未怪平陽客雙淚落笛中哀曲	-13.4747
紅糝鋪地門外荆桃如菽夜遊共誰秉燭	-13.4747
逺送瀟湘客蘆花千里霜月白傷行色	-13.4747
塵侵鏡還省香痕碧唾春衫都凝悄一似	-13.4747
池秀句明日動探花芳緒寄聲沽酒人家	-13.4747
種種惱人天氣險韻詩成扶頭酒醒别是	-13.4747
仙源漾舟岸曲照芳容	-13.4747
暖酥凝念逺愁腸傷春病思自怪平生殊	-13.4747
郊原趣麥天已過薄衣輕扇試起遶園徐	-13.4747
飛鷗浴愛嬌雲蘸色媚日挼藍逺迷心目	-13.4747
鍵	-13.4747
岸收殘雨雨殘稍覺江天	-13.4747
時到送孤鴻目斷千山阻誰為我唱金縷	-13.4747
隂老魚吹浪留我花間住田田多少	-13.4747
前擬問雙燕來時曽過秦樓	-13.4748
來鷗聚堪愛處最好是一川夜月光流	-13.4748
迢迢巴楚山水相連朝雲暮雨依舊十二	-13.4748
鋙	-13.4748
喙	-13.4748
悍	-13.4748
綦	-13.4748
桃溪不作從容住秋藕絶來無續處當時	-13.4748
歌筵畔先安枕簟容我醉時眠	-13.4748
此景天下應無東南形勝偉觀真竒絶好	-13.4748
襕	-13.4748
飄薄鶯花謝清和院落樹隂	-13.4748
㕙	-13.4748
夜永對景那堪屈指暗想從前未名未	-13.4748
斜陽天接水芳草無情更在斜陽外黯鄉	-13.4748
砉	-13.4748
處小立背秋千空悵望娉婷韻度	-13.4748
嫻	-13.4748
客觀裏栽桃仙家種杏到處成	-13.4748
有意送春歸無計留春住畢竟年年用	-13.4748
汛	-13.4748
河漢無聲光練練湧出銀蟾孤絶	-13.4748
為問頻相見何似長相守天	-13.4748
見春歸路風急桃花也似愁㸃㸃飛紅雨	-13.4748
冷落長門又是羊車過也月明花落黄昏	-13.4748
漸鳷鵲樓西玉蟾低	-13.4748
葢使紛馳騖若為情聞道中原遺老	-13.4748
馳隙流年恍如一瞬星霜	-13.4748
髙巫山低暮雨瀟瀟郎不歸空房獨守時	-13.4748
明日落花飛絮飛絮送行舟水東流	-13.4748
燈昏哽咽夢中語是他春帶愁	-13.4748
霜林寒欲墜正門外催人起奈離别如今	-13.4748
靈鵲橋初就記迢迢重湖風浪去年時候	-13.4748
蟫	-13.4749
相問怕相問相問還添恨春水滿塘生鸂	-13.4749
㧓	-13.4749
橈兩兩舟人語道去程今夜	-13.4749
如霜好風如水清景無限曲港跳魚圓荷	-13.4749
簺	-13.4749
舊日心情記題葉西樓吹花南浦老去覺	-13.4749
賣小院重簾燕飛礙昨宵風雨	-13.4749
孤臺下清江水中間多少行人淚西北	-13.4749
玉倚香愁黛翠勸人須	-13.4749
詩情掇送醉裏卧花心擁紅衾	-13.4749
飰	-13.4749
先快明月清風如有待誰信門前車馬隘	-13.4749
我醉明日落花寒食得且住為佳耳	-13.4749
理絲簧欲説又休慮乖芳信未歌先咽愁	-13.4749
􁰵	-13.4749
杜郎俊賞算如今重到須驚縱荳	-13.4749
透青羅薄檣燕低飛人去後依舊湘城簾	-13.4749
銀燭分行暗端相燕羞鶯妬蝶	-13.4749
起新愁無限記年時偷擲春心花間隔霧	-13.4749
廋	-13.4749
送目鳴琴裁詩挑錦此恨此情無盡	-13.4749
門外樓頭悲恨相續千古憑髙對此謾嗟	-13.475
初長夢魂難禁人漸老風月俱寒想幽歡	-13.475
問音信道徑底花隂時認鳴鑣也擬臨朱	-13.475
是欲住也留無計欲去也來無計馬上離	-13.475
菰蒲雨嫣然揺動冷香飛上詩句日暮青	-13.475
網寂寂飛螢來去金鋪	-13.475
景物因人成勝槩滿目更無塵可礙等	-13.475
綈	-13.475
褌	-13.475
䰀	-13.475
狥	-13.475
夢覺但有舊歡新怨異時對南樓夜景為	-13.475
巧結同心雙縷尚有經年離别恨一絲絲	-13.475
惟有流鶯語碧雲欲暮空惆悵韶華一時	-13.475
離歌不放行人去醉中扶上	-13.475
劉郎老把相思細寫瑶琴怕	-13.475
家萬里燕然未勒歸無計羌	-13.475
幮	-13.475
無情緒都不管渡頭行客欲去猶依	-13.475
花邊近來重見身學垂楊	-13.475
一葉扁舟誰念我今日天涯飄泊平楚南	-13.475
世界夜氣清如許劃然長嘯起來秋滿庭	-13.475
屈指中秋十分好月不照人	-13.475
幽蘭歌斷同雲收盡别有	-13.475
楓葉落荻花乾醉宿漁舟不覺寒	-13.475
鑑新怨單衣欲試寒猶淺羞衾	-13.475
吹玉笙曲終却從仙官去萬	-13.475
芭	-13.4751
花成陣春心困寸寸别腸多少愁悶無人	-13.4751
仗東風盡力一齊吹送入此門	-13.4751
圓蠶房香煖笑挽羅衫須少留隔院蘭馨	-13.4751
解語念後約頓成輕負緩雕轡獨自歸	-13.4751
女伴采桑徑裏逢迎	-13.4751
有夜來皓月照伊自睡	-13.4751
裏紫葳枝上數㸃幽花垂露東里催	-13.4751
嶸	-13.4751
敲象板勝讀離騷章句荷香暗度漸引入	-13.4751
時落銀燈香灺女伴莫話孤眠六	-13.4751
梅金猊夜煖羅衣暗裛香煤洞府人歸	-13.4751
飛瓊伴侣偶别珠宫未返神仙行綴	-13.4751
洼	-13.4751
櫃	-13.4751
殘夢羅幕畫堂空碧天無路	-13.4751
屜	-13.4751
駕淚浥西風不盡明朝烏鵲到人間試	-13.4751
淺風流天付與精神全在嬌波	-13.4751
花房風斜燕子池閣晝長春	-13.4751
又移星漢蓮炬重芳人海盡勾引徧嬉遊	-13.4751
塞垣秋草又報平安好	-13.4751
得同題粉壁而今壁破無蹤蘭	-13.4751
餘香仍在待歸也便相期明日踏青挑菜	-13.4751
驛路侵斜月溪橋度曉霜短籬殘菊一枝	-13.4751
髀	-13.4751
秋風顫燈暈冷記初見樓低不放珠簾捲	-13.4751
脆金丸落驚飛鳥濃靄迷岸草蛙聲閙	-13.4751
蕰	-13.4751
郊外駐油壁又見漢宫傳燭飛	-13.4751
君行定憶南池歌筵舞地花晨月午八	-13.4751
聚散苦匆匆此恨無窮今年花勝去年紅	-13.4751
色燕燕飛來問春何在唯有池塘自碧	-13.4751
嚼勒金銜響衝破飛花一道紅	-13.4751
潤梅雪印苔絮春意如人易散苦難聚	-13.4751
還裊萬絲金待得歸鞍到時只怕春深	-13.4751
色未春深湘月牽情入苦吟翠	-13.4751
鱗初躍愔愔門巷桃樹紅纔約	-13.4751
疎簾半捲單衣初試清明時候破	-13.4752
亂紅中香塵滿路十千斗酒相與買春	-13.4752
據誤我碧桃花下語誰將消息問劉郎	-13.4752
新啼痕間舊啼痕一春魚鳥無消息千里	-13.4752
蟬短景歸秋吟思又接愁	-13.4752
寒色戰菰蒲舊信江南好景一萬里輕	-13.4752
膄	-13.4752
靿	-13.4752
赧	-13.4752
依舊惜春心花枝常好只恐	-13.4752
窓愁對秋空翠華一去寂無蹤	-13.4752
籢	-13.4752
綺陌青門斜陽芳草今古銷	-13.4752
塞下秋來風景異衡陽鴈去無留意四	-13.4752
對春閒也應似舊盈盈秋水淡淡	-13.4752
日三雍奏樂送君雲路别情未抵遺愛試	-13.4752
東風絲管滿長安移下十洲三島在人間	-13.4752
横歡情對佳麗地任金罍罄竭玉山傾	-13.4752
仍慣見珠歌翠舞如今向漁村水驛夜如	-13.4752
塵滿日上簾鈎生怕離懐别苦多少事欲	-13.4752
短夢今宵還到否葦村四望知何處	-13.4752
離愁一枕暗尋思舊追遊神京風物如錦	-13.4752
候館梅殘溪橋栁細	-13.4752
干無端啼蛄攪夜恨隨團扇苦近秋蓮一	-13.4753
莫問鶯老花謝萬里相依千金	-13.4753
又滿閒步露草偏愛幽	-13.4753
道春衣猶未整過禁烟寒食但記取角枕	-13.4753
又片時一陣風雨惡吹分散	-13.4753
悴遺恨傳千古作賦吟詩空自好不直一	-13.4753
成陣飛鴛甃玉佩丁東别後悵佳期參差	-13.4753
手燈夜初過早共約又爭信漂泊	-13.4753
自古及今佳人才子少得當年	-13.4753
風與月侵枕簟冷簾櫳剛能小睡還驚覺	-13.4753
萄	-13.4753
雲盡處都是平蕪問故鄉何日重見吾廬	-13.4753
闃	-13.4753
􁂍	-13.4753
城寒食到今來海角逢春天涯	-13.4753
難得傾國花下見無期一雙愁黛逺山	-13.4753
椷	-13.4753
京人去秋蕭索畫簷鵲起梧桐落	-13.4753
溪月堪羞損山桃如血直饒更	-13.4753
寛金縷倩誰傳語一春不忍上髙樓	-13.4753
隰	-13.4753
愁自醉念此際付與何人心事縱有楚柁	-13.4753
朶花新片時歡笑且相親明日隂晴未定	-13.4753
消盡當年豪氣夢斷故國山川隔重重	-13.4753
為君持酒勸斜陽且向花間留晚照	-13.4753
猶噤永漏頻傳前歡	-13.4753
畢竟春誰主東郊拾翠襟袖霑飛絮寳馬	-13.4753
長安故人問我道愁腸殢酒只依然目	-13.4753
事奈癡兒騃女流傳謬添話柄	-13.4753
惆悵阻佳期人在天涯東風頻動小桃枝	-13.4753
斷人初静時見幽人獨	-13.4753
荒斷霞斜照新夢黯微月疎砧總難禁盡	-13.4753
見要相逢得相逢須信靈犀中自有心通	-13.4753
人間定無可意怎換得玉	-13.4754
秋聲被風驚碎潤逼衣篝線裊蕙爐	-13.4754
收笛聲人倚樓蘆花秋蓼花秋催得	-13.4754
􁱘	-13.4754
當初謾留華表語而今誤我秦樓約	-13.4754
春柔動離憂淚難收猶記多情	-13.4754
擬把名花比恐傍人笑我談何容易細思	-13.4754
妁	-13.4754
􁒽	-13.4754
􁁬	-13.4754
虱	-13.4754
過漸燕子引教雛飛	-13.4754
頭謝冶葉倡條便入漁釣樂	-13.4754
慽	-13.4754
蔟	-13.4754
二社良辰千家庭院翩翩又	-13.4754
取湖山共語便可能無意同傾一尊露醑	-13.4754
展湘簟雙紋生細波	-13.4754
休辭醉明月好花莫謾輕擲	-13.4754
便指數燒燈時節非逺陌上	-13.4754
留春不住醉裏春歸西樓半簾斜日怪銜	-13.4754
處記當日門掩梨花剪燈深夜語	-13.4754
誰記盡道錦里繁華歎官	-13.4754
手别臨岐語共約踏青	-13.4754
玉尊天外去多少事不言中	-13.4754
蘭舟十分端是載離愁練波送逺屏山遮	-13.4754
慶三殿共賞羣仙同到	-13.4754
叢倒掛緑毛么鳯	-13.4755
度春風文章太守揮毫萬字一飲千	-13.4755
越溪閬苑繁華地傍禁垣珠翠烟霞紅粉	-13.4755
不到書成誰與目盡青天	-13.4755
是酒香痕凝處唾碧啼紅相半只恐梅花	-13.4755
秋聲入寥廓東歸燕從海上去南來	-13.4755
疎簾裏歌餘塵拂扇舞罷風掀袂人	-13.4755
正春晴又春冷雲低欲落	-13.4755
深院芰荷中香冉冉繡重重玉人共倚	-13.4755
隨人去天涯片紅都飛盡隂隂潤	-13.4755
鷁翩翩過南浦望中酒斾閃閃一簇	-13.4755
偷憐不成憐傷春玉瘦慵梳掠抛擲琵琶	-13.4755
離氣味難禁也更物象供瀟	-13.4755
鶯聲喚醒門外風絮交飛送春歸	-13.4755
喚起一聲人悄衾冷夢寒	-13.4755
波似染山如削遶嚴陵灘畔鷺飛魚躍	-13.4755
謐	-13.4755
洶湧三江銀濤無際	-13.4755
絶壁直下江千尺天際兩蛾	-13.4755
一規古蟾魄瞥過宣和	-13.4755
剪蓴絲江頭一陣鳴蓑雨孤	-13.4755
當年望湖樓下水與雲寛窄醉中休問	-13.4755
行行又入笙歌裏人在珠簾第幾重	-13.4755
山扛鼎俱烏有英雄骨朽問	-13.4755
䜿	-13.4755
邽	-13.4755
驀地刺桐枝上有一聲春喚任酒帘飛動	-13.4755
信海棠開了還又參差料此際笑隨花便	-13.4755
别秦樓轉眼新春又近放燈憶盈盈倩笑	-13.4755
淑景遲遲難度年少傅粉依前醉眠何處	-13.4755
藤橋養魚盆沼是亦經綸耳伊周安在且	-13.4755
閬苑賣薪買酒立馬傳觴昇平重見誰識	-13.4755
陽闗也則難留念武陵人逺	-13.4755
時休飛絮落花時候一登樓便做春江都	-13.4756
冮	-13.4756
日下漁人鳴榔歸去敗荷零落衰楊掩映	-13.4756
干角月華猶在小池東入人	-13.4756
傾國釵鈿墮處遺香澤亂	-13.4756
壅	-13.4756
褫	-13.4756
譛	-13.4756
幽谷暄和黄鸝翩翩乍遷芳樹觀露	-13.4756
麦	-13.4756
􁮺	-13.4756
春易老細葉舒眉輕花吐絮漸覺	-13.4757
玉團香塗雲抹月龍章	-13.4757
玼	-13.4757
所愛物無美惡過則為	-13.4757
禳	-13.4757
􁋊	-13.4757
後三千珠履十二金釵雅俗熙熙下車成	-13.4757
殘雷夕陽却照庭槐莫把	-13.4757
盡潘妃却酒昭君乍起雪浪翻空粉裳縞	-13.4757
篓	-13.4757
菲易老故人難聚到此翻成輕誤閬苑仙	-13.4757
邊兩兩三三浣紗遊女避行客含羞	-13.4757
瘴雨過海棠開春色又添多少社甕釀成	-13.4757
聲啼鳥是處裏誰家杏花臨水依約靚	-13.4757
蘭心蕙性枕前言下表余深意為盟誓	-13.4757
送人處良夜何其斜月逺墮餘輝銅盤燭	-13.4757
漸細細香風滿院一枝折寄故人雖逺	-13.4757
一寸還成千萬縷天涯地角有窮時	-13.4757
玉瑩月枕横釵雲墜領有情無物不雙	-13.4757
觶	-13.4757
改春去也落紅萬㸃愁如海	-13.4757
癡銅舊畫興亡事道人知否見了也華	-13.4758
相從薊門仙客蕭然林下秋葉對雲淡星	-13.4758
數聲杜宇天意送芳菲正黯淡	-13.4758
減占人間丰神蕭散攀條	-13.4758
短雨新歡寧似舊歡長此	-13.4758
空惆悵巫陽館况船頭一轉三千餘里	-13.4758
黯然情緒未飲先如醉愁無際	-13.4758
千古興亡百年悲笑一時登覽問何人又	-13.4758
思悠悠青鳥不傳雲外信丁香	-13.4758
江對起過危樓欲飛還歛元龍老矣不妨	-13.4758
深淺入時無弄筆偎人久描花試手初等	-13.4758
盡春臺好雍容東山妓女堪笑傲北海	-13.4758
翩若驚鴻體態暮為行雨標格	-13.4758
菰影秋到露汀煙浦試省喚	-13.4758
人悄蛩吟苦漸漏永丁丁箭壺催曉引	-13.4758
歌金縷歌罷花如雨翠羅衫上	-13.4758
燕臺句老難道離别小徑吹衣	-13.4758
雲過了秋風老盡故人千里竟日空凝睇	-13.4758
座上琴心機中錦字覺最縈	-13.4758
燈照夜萬井禁城行樂春	-13.4758
金勒狨鞍西城嫩寒春曉路漸入	-13.4758
栁垂江上影梅謝雪中枝	-13.4758
獸鐶半掩鴛甃無塵庭院瀟	-13.4758
鞶	-13.4759
踠	-13.4759
􁎒	-13.4759
盡一片瀟湘清泚酒病驚秋詩愁入鬢對	-13.4759
惝	-13.4759
欄手撚花枝放花無語對斜暉此恨誰知	-13.4759
故人何處但依前流水小橋東記	-13.4759
東還杏花風數里響鳴鞭望長安路依稀	-13.4759
秌	-13.4759
一聲鶯小細雨輕塵建章初閉	-13.4759
元宵風流賢太守青雲志氣玉樹丰標是	-13.4759
􂀧	-13.4759
廢沼荒丘疇昔明月清風此夜人世幾	-13.4759
戰艦東風慳借便夢斷神州故里旋小築	-13.4759
渺神京干羽方懐逺	-13.4759
相推千古幕天席地一春翠繞珠圍彩雲	-13.4759
破青萍排翠藻立蒼苔窺魚笑汝癡計不	-13.4759
融殘粉花鈿重乍試	-13.4759
飛觀不解寄一字相思幸有歸來雙燕	-13.4759
喬木生雲氣訪中興英雄陳	-13.4759
汊	-13.476
玉芳英嫩故把春心輕漏前村昨夜想	-13.476
㪷	-13.476
歸興千里露侵宿酒疎簾淡月照人無寐	-13.476
渭水波聲咽春朝雨霽	-13.476
贄	-13.476
中雪添頭上甚矣吾衰矣酒徒相問	-13.476
困無奈堆金縷誰家巧縱青樓絃管惹起	-13.476
淚眼問花花不語亂紅飛過秋千去	-13.476
競拾翠湖邊路落花蕩漾怨空樹曉山	-13.476
凝竚臺榭好鶯燕語正是和風麗日	-13.476
絃索想移根換葉盡是舊時手種紅	-13.476
把千種舊愁付與杏梁語燕	-13.476
顆顆真珠雨雨過月華生冷徹鴛鴦浦	-13.476
成含笑出簾月香滿袖天霧縈身	-13.476
真珠滴破小槽紅香肌縮盡纎羅	-13.476
空倚斜陽帶舊愁多少還是清明過了任	-13.476
帳飲乍闋正拂面垂楊堪攬結掩紅淚	-13.476
顦	-13.4761
灸	-13.4761
江上買取扁舟排雲湧浪直過金	-13.4761
寒似水纎雨如塵一陣東風縠紋	-13.4761
州何處是雉堞連雲天際叔子殘碑	-13.4761
执	-13.4761
便添起寒潮捲長江又恐是離人	-13.4761
無窮路岐天若有情和天須老念髙唐歸	-13.4761
花桃樹愔愔坊陌人家定巢燕子歸	-13.4761
面重門深閉記彩鸞别後青	-13.4761
帋	-13.4761
帶人不見碧雲暮合空相對憶昔西池	-13.4761
遨頭小簇行春隊	-13.4761
獻金鼎藥固大椿年縹緲飛瓊妙舞命	-13.4762
鞬	-13.4762
疥	-13.4762
卯酒一杯徑醉又别君南浦	-13.4762
晝永稱瀟湘竿叟爛柯仙客	-13.4762
舉頭西北浮雲倚天萬里	-13.4762
青如滴問江南池館有誰來江南客	-13.4762
人藹和氣春融日煦故宫池	-13.4762
仙苑春濃小桃開枝枝	-13.4762
天氣嚴凝乍寒梅數枝嶺上開	-13.4762
貳	-13.4762
鳫	-13.4762
西風起邊城一片離索馬嘶漸逺人	-13.4762
長是傍清明天氣正魏紫衣染天香蜀	-13.4762
偑	-13.4762
沭	-13.4762
故園信息愛渠入眼南山碧念上國誰是	-13.4762
􁱗	-13.4763
腎	-13.4763
悃	-13.4763
咊	-13.4763
釤	-13.4763
恝	-13.4763
春江如席照晴空大舶夾雙櫓腸	-13.4763
顓	-13.4763
百葉桃花樹紅紅樹紅樹燕語鶯啼日暮	-13.4763
草春光依舊湖邊道玉勒錦障泥少年	-13.4763
語深院無人春晝午畫簾垂金	-13.4763
弛	-13.4763
意匆匆惜年華今與誰同碧雲零落數字	-13.4763
扇舊怨秋風流波墜葉佳期何在想天	-13.4763
明星有爛相看淚如霰問而今去也何時	-13.4763
曉鶯聲飛絮落花時節近清明睡起	-13.4763
汴水自東流只載一船離恨向西州	-13.4763
熄	-13.4763
聲轉轆轤聞露井曉引	-13.4763
離恨無窮試將前事閒倚梧桐有銷	-13.4763
雨去休休戲馬臺南金絡頭催酒莫遲留	-13.4763
未冷蓮臺香蠟殘痕	-13.4763
誰與細傾春碧舊情拘未定猶自學當年	-13.4763
此情無計可消除纔下眉頭却上心頭	-13.4764
灰飛煙滅故國神遊多情應	-13.4764
西風揚子江頭路扁舟雨晴呼渡岸隔	-13.4764
雪殘風信悠颺春消息天涯倚樓新恨楊	-13.4764
昩	-13.4764
賍	-13.4764
遥岑逺目獻愁供恨玉	-13.4764
㑹難尋縹緲髙城風露爽獨倚危	-13.4764
手旗亭酒香梅小向登臨長是傷春滋味	-13.4764
無蹤跡誰知除非問取黄鸝百囀無人能	-13.4764
竸	-13.4764
釦	-13.4764
先報陽和信息更雪月交光一色因追念	-13.4764
髦	-13.4764
檻曲縈紅簷牙飛翠人姝麗	-13.4765
煙草晴花沙潤香軟爛錦年華誰念故人	-13.4765
櫩	-13.4765
元豐間為翰苑與李端愿太	-13.4765
寒雨向壁孤燈弄餘照	-13.4765
佾	-13.4765
㺅	-13.4765
㓙	-13.4765
人意勿謂時平無事也便以言兵	-13.4765
喳	-13.4765
鴨晩香寒人在洞房深處無語無語葉上	-13.4765
月波凝滴望玉壺天近了無塵隔翠眼	-13.4765
盡江南路苦恨斜陽冉冉催人去空	-13.4765
􁀿	-13.4765
恨被榆錢買斷兩眉長	-13.4765
得提壺沽美酒人道杏花深處有杏花狼	-13.4766
鳥啼風十分春色今無九麝煤銷永晝青	-13.4766
顙	-13.4766
癩	-13.4766
暦	-13.4766
楚天千里清秋水隨天去秋無際	-13.4766
寒食新晴馬蹄只向南山去長橋愛花	-13.4766
燕子樓空歎陽臺夢杳行雨無	-13.4766
粧泣露嬌啼色佳夢入仙城風流石曼卿	-13.4766
齋吏散晝館人稀	-13.4766
捽	-13.4766
萬花覆千官盡醉内家傳詔重開宴未央	-13.4766
邊人道是三國周郎赤壁亂石穿	-13.4767
到遇景取次成歡怎教良夜休醉	-13.4767
闋管絃清脆人生適意流轉共風光遊	-13.4767
酒問炎州何事得許清	-13.4767
纎雨謾道玉為堂玉堂今夜長	-13.4767
去難留話未了早促登	-13.4767
躞	-13.4767
晴景初升風細細雲收天淡如洗望外	-13.4767
露晞向曉簾幙風輕小院閒晝翠	-13.4767
祲	-13.4768
初陽射林表亂愁迷逺覽苦語縈	-13.4768
翠屏深香篆裊流水落花不管劉郎到	-13.4768
吹香雪何勞玉斧金甌千古無缺	-13.4768
翠水瀛壺人不到比似世間秋	-13.4768
爁	-13.4768
窯	-13.4768
塢村村暗溪流處處通此間何似玉霄峰	-13.4768
痾	-13.4768
涯雨好風如扇雨如簾時見岸花汀草漲	-13.4768
倦寒食相思隄上路行雲應	-13.4768
悄暗數流光細拾芳英黯	-13.4768
曉空暗想衆裏飛瓊餘香冷猶在小	-13.4768
粧終日凝眸簾半捲帶黄花人	-13.4768
㔩	-13.4769
二分酒病味濃香永醉鄉路	-13.4769
氊幕元戎歌吹層樓髙峙	-13.4769
蓞	-13.4769
有人偷記新闋當日誰幻銀橋阿瞞兒	-13.4769
來對影口不能言心下快活自省	-13.4769
曉鶯啼紅樹又一雙飛去日髙花氣撲人	-13.477
忍輕諾别館清閒避炎蒸豈須河朔但	-13.477
清泚君王夀與天齊馨香動上穹頻	-13.477
菑	-13.477
滋吳苑臨池羞落梅花片弄水月初	-13.477
鈸	-13.477
啉	-13.4771
闕雲海塵清山河影滿桂	-13.4771
挍	-13.4771
翠當是時河朔飛觴避炎蒸想風流堪繼	-13.4771
衣初試安榴半吐千里江山滿川	-13.4771
天氣好有明月怕登樓年事夢中休花空	-13.4771
酒易成間阻縹緲玉京人想依然京兆	-13.4771
人問逋仙今在何許象筆鸞牋甚	-13.4771
暮帆挂雨氷岸飛梅春思零亂送客將	-13.4771
好酒能消光景春風不染髭鬚	-13.4772
寵難禁筵上笑歌間發舄履交侵	-13.4772
驚人困教人恨待到平明海棠應盡	-13.4772
寄書何處覔新睡覺來無力不忍	-13.4772
嘗寂寞經春小橋依舊燕飛忙玉鈎	-13.4773
澶	-13.4773
璿	-13.4774
汭	-13.4775
鱼	-13.4775
樝	-13.4775
髅	-13.4775
凾	-13.4775
浪裏但夢想一枝瀟灑黄昏斜照水	-13.4775
桮	-13.4775
蕘	-13.4775
玉龜山東皇靈嫓統羣仙	-13.4776
榨	-13.4776
啀	-13.4776
短書不寄魚浪空千里	-13.4777
髑	-13.4777
寗	-13.4778
邳	-13.4779
唖	-13.478
叭	-13.4781
􁐍	-13.4781
穪	-13.4782
芃	-13.4783
坌	-13.4784
耎	-13.4786
麌	-13.4789
䛕	-13.479
䏊	-13.479
嘅	-13.4791
髥	-13.4792
􁞬	-13.4795
竜	-13.4802
蛺	-13.4908
邊沙外不共美人遊歴問甚時同賦三	-13.6315
呻	-13.7068
簳	-13.7086
嫪	-13.7106
翡	-13.713
㡡	-13.7147
刓	-13.7147
緩歌妖麗似聽流鶯亂花隔慢舞縈	-13.7156
𩮰	-13.7157
堁	-13.7165
螽	-13.7166
輞	-13.7167
淲	-13.717
籥	-13.7173
喃	-13.7177
妲	-13.7179
憒	-13.718
刖	-13.7186
硏	-13.7187
踉	-13.7187
瘂	-13.7187
鐲	-13.7192
聆	-13.7192
澳	-13.7192
炁	-13.7196
瓚	-13.7198
涔	-13.7198
心事寄天公教人長夀花前醉	-13.7198
纉	-13.7198
駃	-13.7199
詡	-13.7199
晴家在吳頭楚尾數㸃雪花亂委撲	-13.7199
遶清江髻鬟對起怒濤寂寞打	-13.7202
舁	-13.7202
只是尋花栁那邊走者邊走莫厭金杯酒	-13.7203
㮶	-13.7203
余昔與張子野劉孝叔李公擇陳令舉楊	-13.7204
紿	-13.7204
忍輕觸一自楚客歸來珠履舊	-13.7205
花時微雨未減春分數占取簾	-13.7205
鷦	-13.7206
廐	-13.7208
芮	-13.7208
欲寄意渾無所有折盡市橋官	-13.7209
燿	-13.7209
噬	-13.7209
有醉吟消得萬古悠悠惟月在浮生	-13.721
詁	-13.7211
麞	-13.7211
垂天欲近乾坤浩蕩秋無極凭	-13.7212
噙	-13.7212
桃花玉人細細酌流霞醉裏將春留下	-13.7212
人寂喜輕盈照水犯寒先	-13.7212
枝雲縷鮫綃露淺淺塗黄漢宫嬌額	-13.7212
瑄	-13.7213
茍富貴無相忘若相忘有如此酒	-13.7213
依山傍水數椽外二頃良田無縈絆炊粳	-13.7213
六銖衣薄惹輕寒慵紅悶翠掩青鸞羅襪	-13.7213
凝睇消遣離愁無計但暗擲金釵買	-13.7213
驍	-13.7213
張之堂妖冶如攬嬙施之	-13.7213
江秋雪黄屋天臨水犀雲擁看擊中流楫	-13.7213
蘿猶惹翠雲衣不似今畨醉夢帝城	-13.7213
仆	-13.7215
鮮歡夢破小樓風馬響珊珊缺月無情轉	-13.7215
又見飄紅墮雪芳徑裏都是花鈿年年事	-13.7215
墁	-13.7215
有分兩分青鏡重合難期惆悵一春飛絮	-13.7215
西湖寒碧又片片吹盡也幾時見得	-13.7215
扅	-13.7215
梅人醉月西傾梅欲黄時朝暮雨月重圓	-13.7215
皖	-13.7215
齶	-13.7215
花淡淡春細看諸處好人人道	-13.7215
頭錦衾斑復斑架上朱衣殷復殷空庭	-13.7215
奈愁濃殘燈孤枕夢輕浪五更風	-13.7215
人今在何許鱸香菰冷斜	-13.7216
膿	-13.7216
鍮	-13.7216
轉紅陽昇平歌管隨天仗祥瑞封章滿御	-13.7216
露底石上岸巾愁起月到房心天似水亂	-13.7216
鯖	-13.7216
逺山横黛蘸秋波不飲傍人笑我花病等	-13.7217
釜	-13.7217
走馬章臺絃管逐而今老更惜花深終	-13.7217
護竹莫礙觀梅秋菊堪餐	-13.7217
石多少心期三生溪橋話别悵	-13.7217
門外月寒風惡迤邐慵雲半掠笑盈盈閒	-13.7217
道山同醉春殿明年人共指玉皇香案吏	-13.7217
醉中暫聽離歌幾許聽不能終	-13.7217
里芳心杳無消息粉怯珠愁又只恐吹殘	-13.7217
多少徑莎平池水渺日長風	-13.7218
有司空見慣應謂尋常坐中有狂客惱	-13.7219
向秦箏住終寄青樓書不去手因春夢有	-13.7219
穷	-13.7219
璵	-13.7219
暮雨朝雲相見少落花流水别離多寸腸	-13.7219
蝶為家醉翁醉裏也隨他月在	-13.7219
待君歸後除勾留風月好平湖曉翠	-13.7219
薄雨濃雲抵死遮人面消息未知	-13.7219
小歡難偶春過了琵琶流怨都入相思調	-13.722
愁易就因驚斷夢裏桃源難又臨風	-13.722
萏	-13.722
月皎驚烏棲不定更漏將	-13.722
臉旋學花添蜀紅衫雙繡	-13.722
韀須早發怕天寒風急相思苦應	-13.722
暐	-13.722
衣染鶯黄愛停歌駐拍勸酒持觴低鬟	-13.7221
幵	-13.7221
耰	-13.7221
倚空千嶂横起銀闕正當中	-13.7221
臺古記醉踏南屏彩扇咽寒蟬倦夢不知	-13.7221
杠	-13.7222
事有垂楊眼見紅燭心知如今事都過也	-13.7222
城東陌欲買千金應不惜歸	-13.7222
曉鸞鏡後夜月凉時月淡花低幽夢覺欲	-13.7222
南怎空教草解宜男柔桑暗又過春蠶正	-13.7222
更暝色相兼幽期消息曲房西碎月篩簾	-13.7222
凝望眼征鴻幾字暮投沙磧欲	-13.7222
絃裏春無極春無極明朝殘夢馬嘶南陌	-13.7222
蟢	-13.7222
人風絮飛秋千未拆水平堤落紅成地衣	-13.7222
䌥	-13.7222
寒短鞭敲月此地經行知	-13.7222
螢火而今飛破秋夕河流如帶窄任輕	-13.7223
凳	-13.7223
慵賦小蟾斜影轉東籬夜冷殘蛩語早白	-13.7223
漏悄愁濃酒惱寳枕生寒翠屏向曉	-13.7223
道不如歸家山何處近江樓簾棟夕	-13.7223
山斜昨夜酒多春睡重莫驚他	-13.7223
𣙜	-13.7223
裙縷鶼鶼尋思前事小屏風仍	-13.7223
湘江碧故人同作湘中客湘中客東風	-13.7223
傳信烏鵲成橋悵望胎仙琴	-13.7223
券	-13.7223
暮年離隔欲待忘憂除是酒奈酒行	-13.7223
禿	-13.7223
輕盈鶯鶯嬌軟分明又向華胥見夜長爭	-13.7223
粃	-13.7223
澄江似練翠峰如簇征帆去棹殘陽	-13.7224
珩	-13.7224
兮美人兮未知何處獨自捲簾櫳誰為開	-13.7224
繡簾垂今年冷落江南夜心事有誰知楊	-13.7224
裸	-13.7224
南好遊人只合江南老春水碧於天畫船	-13.7224
雪未老莫還鄉還鄉須斷腸	-13.7224
胝	-13.7224
先尋宿怕凍損三花兩蕊寒泉幽谷	-13.7224
騎尋芳城南城北别有西村斷港	-13.7224
功名誤人堪笑朱橋翠徑不許京塵飛到	-13.7224
才惜季方去又更别元方驚心天	-13.7224
愉	-13.7224
牛羊更辨賢愚否且自栽花	-13.7224
徯	-13.7224
無語理瑶琴逺岫出雲催薄	-13.7225
茀	-13.7225
千古同時君知我平生心事相契古來稀	-13.7226
娓	-13.7226
襭	-13.7226
淦	-13.7226
下臨世間素娥襟韻蕭閒不與羣芳並看	-13.7226
前翠橙霜後扁舟渡口佳客至奉名酒喚	-13.7226
徠	-13.7226
欲春長衣上交枝鬬色釵頭比翼相雙片	-13.7226
輦路悄呵喝聲乾縱餘得西湖風景花	-13.7226
幣	-13.7226
溪女送花隨處沙鷗避樂分行	-13.7226
鬐	-13.7227
嘗試銓次羣芳梅花差可伯仲之間耳佛	-13.7227
世尚如新乞我九霞蜚珮梯空共上秋旻	-13.7227
擅漁人之窟宅以供詩境也	-13.7227
新笋看成堂下竹落花都上燕巢泥	-13.7227
軟印登臨屐娃館娉婷知何在淚粉愁	-13.7227
在南鄰詩盟酒社刻燭	-13.7227
翻輕粉雙飛子規啼月小樓西	-13.7227
零亂樂事難窮疎星易曉又成浩歎	-13.7227
羅袂還燕别文梁螢㸃書幃一自秋娘迢	-13.7227
毆	-13.7227
逍遥不自在閒世界無利害何必向世間	-13.7227
鎞	-13.7227
麂	-13.7227
條送我今槐夏不飲香醪	-13.7227
許傷春懐抱念何處韶陽偏早想帝里看	-13.7228
辛亥之冬予載雪詣石湖止既	-13.7228
韔	-13.7228
蚰	-13.7228
澣	-13.7228
江三髙堂之前作釣雪亭	-13.7228
眦	-13.7228
舊事悠悠渾莫問有玉蟾醉裏	-13.7228
月秣陵砧不傳消息但傳情黄金	-13.7228
故惹蝶憐蜂惱多情遊賞處留戀向	-13.7229
蕖花上濛濛雨又冷落池塘暮何處風來	-13.7229
㦯	-13.7229
何須論得喪才子詞人自是白衣卿相	-13.7229
春滿院疊損羅衣金線睡覺水	-13.7229
線離魂暗逐郎行逺淮南皓月冷千山	-13.7229
致鱸魚相伴菰米紅塵如海	-13.7229
芹美歸期早誰似季鷹	-13.7229
彭澤歸來左右琴書自樂松菊相依	-13.7229
濃雨記酒醒香銷時語客裏歸	-13.7229
寳獸海月新生上得髙樓	-13.7229
錦浦春女繡衣金縷霧薄雲輕花深	-13.723
弄晴天色簾外落花飛不得東風無氣力	-13.723
矬	-13.723
殘孤夢又揀深枝飛去故山猶自不堪聽	-13.723
夯	-13.723
报	-13.723
佳人寒怯誰驚起曉來梳掠是月斜	-13.723
青子蒲澗清泉白石怪我舊盟寒烽火	-13.723
劓	-13.723
如此尚友靈均定交元亮結好天隨子籬	-13.723
到龍山馬足輕使君莫忘霅溪女時作陽	-13.723
同心撚弄楚天雲雨却相和又入陽臺夢	-13.723
將歸信誤小屏風上西江路	-13.723
春色怎禁許多風雨海棠花謝也君知否	-13.723
舊恨新愁相間五更風千里夢看飛紅	-13.723
綵衣紈扇午風清暑兒女紛紛新結束	-13.723
虹收殘雨蟬嘶敗栁長堤	-13.723
蟾一暈生雨餘秋更清暮雲平暮	-13.723
障是處温燠更花管雲牋猶	-13.723
出離愁幾㸃年來嵗去朝生暮落人似	-13.723
飄揚無箇事剛被縈牽長是	-13.723
正迷人更愁入山陽夜笛百年心事惟有	-13.723
矇	-13.7231
情絶妙誇能賦惆悵相思遲暮記當日朱	-13.7231
暮霞霽雨小蓮出水紅粧靚	-13.7231
消痕曉風生暖春滿東郊道遲遲淑景	-13.7231
衣春晝馬上列兩行紅袖對韶華一笑勸	-13.7231
流水忽西東無憀恨相思意盡分付征鴻	-13.7231
流落今如許我亦三生杜牧為秋娘	-13.7231
沉沉人不到伴清幽時有流鶯囀凝思	-13.7231
里過從親朋臨顧草草便成	-13.7231
嫚	-13.7231
休追念金馬玉堂心膽碎且	-13.7231
揄	-13.7231
腰怯銖衣重笑迎移	-13.7231
覌	-13.7231
馬蹄難去門掩一庭芳景空竚立盡日	-13.7231
滿西園啼鶯無數水閣橋南路凝	-13.7231
無言對垂吟蛩斷續漏頻移入	-13.7231
處誰喚别浦仙帆風前問征路	-13.7231
雨殘雲無意緒寂寞朝朝暮暮今夜山深	-13.7231
畀	-13.7231
萬水千山知他故宫何處怎不思量除夢	-13.7231
酬伊朝朝暮暮守定儘忙時也不	-13.7231
去意徊徨别語愁難聽	-13.7231
龍涎香斷撥火輕翻學撫瑶琴時時欲	-13.7231
礲	-13.7231
撡	-13.7232
帷自掩無人見羅衣寛一半羅衣寛一半	-13.7232
彈舊怨還敲繡屏面清歌自送西風	-13.7232
聞妃瑟泠泠新聲含盡古今情曲	-13.7232
佩秋風冷茱囊曉露新多情多感怯芳辰	-13.7232
酃	-13.7232
圍紅袖詩興自寫春華未知三斗朝天去	-13.7232
鍧	-13.7232
並層波細剪明眸膩玉	-13.7232
玕	-13.7232
俲	-13.7232
徼	-13.7233
吹來穿繡幌有因風飄墮隨塵土人世事	-13.7233
鬮	-13.7233
犴	-13.7233
旓	-13.7233
應看君鈞容舞袖歌鬟	-13.7233
雎	-13.7233
㳫	-13.7233
成引觴愁緩今夕樓中繼阿連清玩	-13.7233
把酒勸君閒愁莫訴留取笙歌住休去	-13.7233
枕斷魂殘魄清吟無味想伊睡起又念	-13.7233
洞庭波冷望氷輪初轉滄海	-13.7233
半簾花影一溪寒水悵飛鳬路杳行雲夢	-13.7233
未成許多煩惱只為當時一餉留情	-13.7233
簾花簷影顛倒綸巾羽扇困卧北	-13.7233
入江南煙水路行盡江南不與離人遇睡	-13.7233
剪剪東風誰家拂水飛來燕惆悵小樓空	-13.7233
四橋盡是老子經行處輞川圖上看春	-13.7233
录	-13.7233
鼓奏望紅雲冉冉知何處天尺五去無路	-13.7233
為誰偷倚嬌媚春風模様霜月心腸	-13.7233
後翠尊雙飲下了珠簾玲瓏閒看月	-13.7233
芳容將煦草莢蘭芽漸吐且尋芳	-13.7233
解禁楊花濛濛亂撲行人面翠葉藏	-13.7233
圮	-13.7233
斜日明霞殘虹分雨軟風淺掠蘋波聲冷	-13.7233
載酒花邊去唱我舊歌金縷行樂處正蝶	-13.7233
天葩主人漢家龍種正翩翩迥立雪	-13.7233
幾時好追賞莫徘徊雨飄紅風	-13.7233
萬花羞落寂寞家山何在雪後園林水	-13.7233
靖節貧世間那復有斯人目送	-13.7233
覡	-13.7234
紅隙漠漠香塵隔沸十里亂絲叢笛看	-13.7234
佳時又逢重午角黍包金香蒲	-13.7234
暗時節正是清明雨初晴玉鞭魂斷	-13.7234
城上風光鶯語亂城下煙波春拍岸	-13.7234
聽更忍問而今是去門前楊	-13.7234
鵯	-13.7234
直入神仙地植根江表開拓兩河做得	-13.7234
詩書事業青氊猶在頭上貂	-13.7234
貴向暑天正風雲㑹遇有恁嘉瑞鶴	-13.7234
秋到否可人今夜新凉一枕無計相分付	-13.7234
燈留語月約星期細把花	-13.7234
生催曉渡西風吹面立蒼茫欲寄此情無	-13.7234
乍入霓裳促遍逞盈盈漸催檀板慢	-13.7234
氷輪桂滿皓色冷浸樓閣霓裳帝	-13.7234
無人知道花開佳人何處江南夢逺殊未	-13.7234
來立馬斜陽岸隔岸歌聲一片	-13.7234
應移下廣寒宫殿燈火接星躔	-13.7234
無由先自悲秋眼前景物只供愁寂寥情	-13.7234
爐殘麝冷羅衣金縷暗塵生小	-13.7234
盧川元古郡當時太守賔	-13.7234
聞岸草切切蛩吟如織為憶芳容别後水	-13.7234
華暮蟾光射雪碧瓦飄霜塵不動寒無際	-13.7234
蘋花寄取但悵望蘭舟容與萬里雲帆何	-13.7234
迷無路風光有主想倚杖西阡停	-13.7234
離恨天涯逺無奈雲收雨散凭	-13.7234
雪寂寞花底風鬟顔色如花命如葉千里	-13.7234
圅	-13.7234
料月仙當此小停飈輦付與長年	-13.7234
江城烽火連三月不堪對酒	-13.7234
知東風冷香逺茜裙歸鷗去昔遊非	-13.7234
筇	-13.7234
紫泥香繡裹藤輿紅茵軟散	-13.7234
習之音節諧婉乃命之曰暗	-13.7234
翠葆參差竹徑成新荷跳雨	-13.7234
阻追遊悔登山臨水惹起平生心事一	-13.7234
不管春催老只圖爛醉花前倒花前倒兒	-13.7234
偏多風雨絶憐此日暄明問秋香濃未待	-13.7234
拍頻憶金蓮移換文鴛得侣繡茵催衮舞	-13.7234
昏後縞袂亭亭招手故山千	-13.7234
紗幌映朱顔相逢醉夢間松露冷海霞	-13.7234
紛披兹獨秀天寒月薄	-13.7234
聲泣露驚秋枕羅幃淚濕鴛鴦錦獨	-13.7234
處試摘花香滿鏤棗成斑時	-13.7234
上認隔岸微茫雲屋想半屬	-13.7234
久意何限玉釵墜枕風鬟顫湛	-13.7234
獨自清閒一覺遊仙好夢任他竹冷松寒	-13.7234
草連雲看看是斷腸南浦檀板未終人去	-13.7234
廚	-13.7234
酒病煞如昨簾捲日長人静任楊花飄泊	-13.7235
壄	-13.7235
巧剪合歡羅勝子釵頭春意翩翩	-13.7235
朱戸頻揺兩竿紅日上花	-13.7235
邊白念時光堪惜蘭堂把酒留嘉客	-13.7235
瘥	-13.7235
􁆒	-13.7235
依依千絲萬縷抵不住一分愁緒	-13.7235
太平無事荷君恩荷君恩齊唱望仙門	-13.7235
瘵	-13.7235
鞔	-13.7235
慣識西湖路驕嘶過沽酒樓前紅杏香中	-13.7235
近試向南枝問記得水邊春江南别後人	-13.7235
好夢難續花亭徧倚檻曲厭滿眼争春凡	-13.7235
浪有總輸與淵明東籬醉舞身世付杯酒	-13.7235
燈後看看丹詔催入聖明朝	-13.7235
東南形勝三吳都㑹錢塘自古繁華	-13.7235
風雨從今便憶中夜笑談清軟啼鴉衰	-13.7235
氷泮醉夢裏年華暗換料黛	-13.7235
珠宫女易得凋零更多少無情風雨愁苦	-13.7235
禰	-13.7235
起新愁黯黯歸路迢迢又是夕陽時候一	-13.7235
悠悠霜滿地人不寐將軍白髮征夫淚	-13.7235
念少年齒怯梅酸病疎霞盞正青錢遮路	-13.7235
整棹還落花寂寂水潺潺重尋此路難	-13.7235
是新愁欲買桂花重載酒終不似少年遊	-13.7235
更吹起裌衣寒正莽莽叢林潭潭伐	-13.7235
信念平生多少情條恨葉鎮長使芳心困	-13.7235
句青青原上薺麥還被東風無	-13.7235
字難得玉人心下事男兒西北有神州莫	-13.7235
帆去帆來天亦老潮生潮落日	-13.7235
年年躍馬長安市客裏似家家似寄青錢	-13.7235
征埃成陣行客相逢都道幻出層樓指	-13.7235
微綻不似秋光只照離人腸斷恨無奈利	-13.7235
檮	-13.7235
漸小白長紅無數客子雖非河陽令也隨	-13.7235
相思債何似眼前俱去摧勁羽倘萬一幽	-13.7235
簾隔燕爐香静逐遊絲轉一	-13.7236
問春春不語謾新緑滿芳洲記歴歴前	-13.7236
公即出之一日子野至公與之飲子野作	-13.7236
傍笑語清佳銅壺花漏長如線金鋪碎香	-13.7236
宁	-13.7236
馟	-13.7237
刴	-13.7237
飥	-13.7237
韆	-13.7237
惜多才憐薄命無計可留汝揉碎花	-13.7237
漫擁餘香怎禁他峭寒孤枕西	-13.7237
槀	-13.7237
秋草碧昭華人去無消息江上青山空	-13.7237
鉛華御竹外一枝斜想佳人天寒日暮黄	-13.7237
霈	-13.7237
塲愁夢酒醒時斜陽却照深深院	-13.7237
褏	-13.7237
瘸	-13.7237
滿斟緑醑留君住莫匆匆歸去	-13.7237
餘花落盡青苔院百尺朱樓閒倚	-13.7237
驚玉燕文章議論壓西廱風流姓	-13.7237
素月當午香徑裏絶纓擲果無數更	-13.7237
風閒度桃花零亂如紅雨人面不知何處	-13.7237
惛	-13.7237
愁空滿眼就中歡事常稀明年應	-13.7237
故里風物多少驚心舊事第一是侵階羅	-13.7237
文園多病客幽襟悽斷堪憐舊	-13.7237
春色重來又是三年東風吹我過湖船楊	-13.7237
波連春渚暮天垂燕歸人未歸	-13.7237
漢節千里秋風淮浦鑑逺江山竹西歌吹	-13.7237
老去待有日重來同君一笑拈起看花句	-13.7237
草堆青雲浸浦記匆匆倦篙	-13.7237
何處目送落霞江浦明夜月當樓照人愁	-13.7237
吹問分香舊事劉郎去後知誰伴風前醉	-13.7237
多定紅樓簾影暮蘭燈初上夜香初炷猶	-13.7237
多感怕荒臺髙處更不勝情向	-13.7237
悶已縈損那堪多病幾曲屏山伴人	-13.7237
想淵明停雲詩就此時風味江左沉酣求	-13.7237
書換日睡餘無力細灑冰泉并刀破甘碧	-13.7237
淺醉還醒愁不肯與詩平記長	-13.7237
筵樂天詩句香山裏杜陵酒債曲江	-13.7237
花飛何速檻外青青翠竹鎮髙節凌雲清	-13.7237
萬事問何物能令公喜我見青山多嫵媚	-13.7237
處故人相見易阻花事從今堪數片	-13.7237
風月不是怨極愁濃只愁重見了相思難	-13.7237
􁚣	-13.7237
京此去春猶淺正雪絮馬頭零亂姮娥	-13.7237
千古江山英雄無覔孫仲謀處	-13.7237
千騎臨秋凭欄望有東南佳氣西北神州	-13.7237
南北别離心興廢事千古一沾襟山下孤	-13.7237
客扁舟臨野渡思鄉處潮退水平春色暮	-13.7237
就東溟鯨鱠圉人呈罷西極龍媒天下英	-13.7237
快風收雨亭館清殘燠池光	-13.7237
滿城車馬對明月有誰閒坐任狂	-13.7237
老莫唱當時曲幽歡難卜明年誰健	-13.7237
英雄成敗軒裳得失難如人意空	-13.7237
銛	-13.7237
鬚窣地重門悄認繡履頻移洞房	-13.7237
損又燕子來無芳信小桃也自知人恨滿	-13.7237
籠花天欲暮小風送角聲初咽但獨	-13.7237
新詩小闋等閒都盡廢這些兒寂寞情	-13.7237
亂柔腸過似丁香結問甚時重理錦囊書	-13.7237
蔣子雲葉暗乳鵶啼	-13.7237
樹有烟花遶人世紅塵西障日百計不如	-13.7237
首猶重道記得綠羅裙處處憐芳草	-13.7238
嬌蟬風調别最動人時時偷顧歸去想閒	-13.7238
自笑任解冠落珮從嘲罵書此意寄同社	-13.7238
遊宦成羇旅短檣吟倚	-13.7238
闗何處自别後風亭月榭孤歡聚剛	-13.7238
天空識歸航黯相望斷鴻聲裏立盡斜陽	-13.7238
念省滿身香猶是舊荀令見説	-13.7238
都作秋宵枕前雨此恨音驛難通待憑征	-13.7238
江無語東流去滿地落花漫天飛絮誰知	-13.7238
來猶在醉鄉中聽更漏初徹行樂	-13.7238
樓人暗中擲果珠簾下笑	-13.7238
採蘋花寄取但悵望蘭舟容與萬里雲	-13.7238
栲	-13.7238
銀蟾光滿連雲複道凌飛觀	-13.7238
儘如舊登臨地寂寞崇臺最	-13.7238
喚春歸舞袖弓彎正滿城烟草	-13.7238
管變青律帝里陽和新布晴景回輕煦慶	-13.7238
最好是戴綵幡春勝釵頭雙結	-13.7238
翾	-13.7238
雲表金莖珠璀璨當日投	-13.7238
前認君時節下重幃香篆冷蘭膏	-13.7238
姉	-13.7238
年光還少味開殘檻菊落盡溪桐謾留得	-13.7238
時時微雨洗風光天衢逺到處引笙簧	-13.7238
盡一生愁人間天上佳期勝賞今夜中秋	-13.7238
安否一春一到成虚約不道樹猶如此煩	-13.7238
巘浮空望中秀色仙都是洞天未	-13.7238
殘紅飛上秋千看盡天涯芳草春愁堆在	-13.7238
發故下封枝雪深院捲簾看應憐江上寒	-13.7238
磧柔條折盡成輕别向空外	-13.7238
陽臺路逺魚沉尺素人在天涯想得小	-13.7238
雨潘郎漸老風流頓減閒居未賦	-13.7238
儂郎意濃妾意濃油壁車輕郎馬	-13.7238
哀箏一弄湘江曲聲聲寫盡湘波綠	-13.7238
多處少停蘭槳雪邊花際平蕪疊嶂這一	-13.7238
杯手君知否亂鴉啼後歸興濃	-13.7238
鋹	-13.7238
香牋寄飛鴻逺向風簾羞見一雙	-13.7238
􁨇	-13.7238
䕶竹莫礙觀梅秋菊堪	-13.7238
共人閒語戰箆金鳯斜惟有阮郎春盡不	-13.7238
小竹籬疎兀坐空搔首客	-13.7238
毓	-13.7238
江樹斜照帶一縷新愁盡分付暮潮歸去	-13.7238
池沼金鴈塵昏么絃斷理餘音尚想腰	-13.7238
淚眼零秋雨過了别離時還解相思否	-13.7238
策杖看孤雲暮鴻飛雲出無心鳥倦知還	-13.7238
輪少誰把青錢襯落紅滿地無人掃何時	-13.7238
􁈔	-13.7238
昨夜裏又再宿桃源醉邀仙侣聽碧	-13.7238
枝頭杜宇啼成血陌頭楊	-13.7238
睡起情無著曉雨盡春寒弱酒盞飄零	-13.7238
呵手弄絲簧冷落詞賦客蕭索水	-13.7239
鞭拂面歸來晩望翠樓簾捲金鈎佳	-13.7239
知何處綺席凝塵香閨掩霧紅	-13.7239
向笙歌錦繡叢中相遇彼此知名	-13.7239
教偕老温柔鄉醉芙蓉一帳春曉	-13.7239
猨	-13.7239
窕	-13.7239
意無人寄幽恨憑誰洗修竹畔	-13.7239
廛	-13.724
獾	-13.724
著清香風細細雪垂垂何况江頭路月邊	-13.724
闠	-13.724
念一瞬韶光堪重惜還是去年同醉日客	-13.724
干幾度搔首翻雲覆雨無窮事流水斜	-13.724
爊	-13.724
耔	-13.724
飲劇狂歌歌終起舞醉冷光	-13.724
京洛風流絶代人因何風絮落溪津籠	-13.724
嵊	-13.724
彂	-13.724
怕因循羅扇恩疎又生秋意	-13.724
旗尾潮濺烏紗今朝正對初弦月	-13.724
色泥泥縠紋無氣力東風如愛惜恰似越	-13.724
芳意遲遲及至待得融怡未攀條拈	-13.724
蘗	-13.724
誰與暈開春色坊巷曉愔愔東風斷舊	-13.724
中佳期在歸時待把香袖看啼紅	-13.724
人家城中桃李愁風雨春在溪頭薺菜花	-13.724
挽住風前栁問鴟夷當日扁舟近	-13.724
時時浸手心頭熨受盡無人知處	-13.724
珠傾曲欄斜轉小池亭風約簾衣	-13.724
菜鱸魚都棄了只換得青衫塵土休顧早	-13.724
行客未歸時塞外草先衰江南	-13.724
人繞湘臯月墜時斜横花	-13.724
半簷花落弄粉調朱柔素手問何時重握	-13.724
多情易老青鸞何許詩成誰寄斗轉	-13.724
孤村芳草逺斜日杏花飛江南春盡離腸	-13.724
帶減衣寛誰念我難忍重城離别轉枕褰	-13.724
欲倩歸鴻分付與鴻飛不住倚	-13.724
灰雲移碧海三山近月破中天九陌開追	-13.724
終是月中人此生無路訪東鄰	-13.724
不似舞裙紅無人知此意歌罷滿簾風	-13.724
句難工水流雲散各西東半廊花院月一	-13.724
心期切處更有多少凄凉殷勤留與歸時	-13.724
月南北東西南北東西只有相隨無别離	-13.724
步蟾宫與換明年二月桃花岸雙槳浪平	-13.724
為渡江淚墨銀鈎相憶字成行滴損雲	-13.724
粼粼禁街微雨灑芳塵寒食清明相近	-13.724
處暗惹起一掬相思亂若翠盤紅縷今夜	-13.724
衣瑞雲芝草伴我語時同語笑時同	-13.724
鶬	-13.724
􁂁	-13.724
幾度因風殘絮照花斜陽誰念我今無	-13.724
成襟畔濕愁多擁就心頭結倚東風搔首	-13.724
春夜行蘄水中過酒家飲	-13.724
痕初染仙莖露新聲又移	-13.724
若為誰開為誰落正愁却不是花情薄花	-13.724
鏡清狂渾不如舊暮雲千里傷心	-13.724
骳	-13.724
湧金門尋常行處題詩千首繡羅衫與拂	-13.724
倚西風江濤猶壯人意只今	-13.724
輕寒燕子雙飛去明月不諳離	-13.724
户惟有春知處碧雲冉冉蘅	-13.724
好鬢絲年年漸老如今遇風景空	-13.724
可惜當年頓乖雨跡雲蹤	-13.724
章過人華麗擲地勝如金玉	-13.724
舍喜甚今年無酒禁溜溜小槽壓蔗	-13.724
㸃㸃滴滴這次第怎一箇愁字了得	-13.724
花非花霧非霧夜半來天	-13.724
雨正繭栗梢頭弄詩句紅橋二十四	-13.724
詈	-13.7241
飲時笑時謳當暖風遲景任相將永日爛	-13.7241
色偏宜逺風急鴈行吹字斷紅日	-13.7241
飛下汀洲思悠悠暗想當初有多少幽	-13.7241
待將春管領鏤月描雲不枉了閒心性謾	-13.7241
鵁鶄飛起郡城東碧江空半灘風越王	-13.7241
募	-13.7241
淬	-13.7241
魋	-13.7241
闤	-13.7241
􁱀	-13.7241
䲧	-13.7241
綿蠻似把芳心深意低訴無據乍出	-13.7241
漸寛終不悔為伊消得人憔悴	-13.7241
滿身花雨彩箋不寄蘭夢更無	-13.7241
瑞煙浮禁苑正絳闕春回新正方半	-13.7241
盡錦屏空紅葉新裝綴時放清杯泛水暗	-13.7241
目十年芳草掛愁腸緩歌聊與送	-13.7241
羅幌香冷粉屏空海棠零落鶯語殘紅	-13.7241
㲲	-13.7241
悔當年早不扁舟歸去醉下白蘋洲	-13.7241
到桂子香濃梧桐影轉月寒天曉	-13.7241
壺一夜氷澌滿樓上四垂簾不捲天寒山	-13.7241
意態細生涯牛欄西畔有桑麻青裙縞	-13.7241
晩韶光妍媚海棠如醉桃花欲暖挑菜初	-13.7241
浦雲融梅風斷碧水無情輕度有嬌	-13.7241
禁烟將近一城絲管看金鞍爭道香車飛	-13.7241
蕙花香也雪晴池館如畫春風飛到	-13.7241
香塵小庭花露泣濃春劉阮信非仙洞客	-13.7241
鶯兒雙燕兒橋北橋南相對啼行人猶未	-13.7241
墻外道墻外行人墻裏佳人笑笑漸不	-13.7241
帀	-13.7241
弄雪想花神清夢徘徊南土一夏天香	-13.7241
弓刀陌上車馬如流從今賞心樂事	-13.7241
成秋莫思量楊栁灣西且櫂吟舟	-13.7241
王郎數人物方今第一談笑裏風霆驚	-13.7241
聞道綺陌東頭行人曽見簾底	-13.7241
花外記得同朝退飛騎軋鳴珂碎齊歌雲	-13.7241
過收燈有些寒在小雨空簾無人深巷	-13.7241
閲人多矣誰得似長亭樹樹若有情時不	-13.7241
韲	-13.7241
響還繞誰樓别酒纔斟從前心事都休飛	-13.7241
不凝記曉葉題霜秋燈吟雨	-13.7241
人為主算只有并刀難剪離愁千縷	-13.7241
喜公還念予忠言正論也湏頻寄	-13.7241
在問桃花尚記劉郎否公莫笑醉中語	-13.7241
採菱渡口日將沉飛鴻樓上人空立	-13.7241
揺動海氣夜漫漫擁起白銀闕危駐	-13.7241
有情先到探春客無語泣寒香時暗度	-13.7241
櫻桃熟何事菊花時猶未回鄉	-13.7241
歌停檀板舞停鸞髙陽飲興	-13.7241
此際山重水逺何處賦西征金閨魂夢枉	-13.7241
生探花開留客醉憶得去年情味金盞酒	-13.7241
疑溪女方偷眼山僧莫	-13.7241
盡殘紅春光還與美人同論心空眷眷分	-13.7241
笛沉思前事似夢裏淚暗滴	-13.7241
篆春宵短擁檀板低唱玉杯重	-13.7241
蕭瑟常恨世人新意少愛	-13.7241
語絃解語彈到昭君怨處翠蛾愁不擡頭	-13.7241
輕風暗觸珠簾多厭晴晝永瓊户悄香	-13.7241
風吹雨戰新荷聲亂明珠蒼璧誰把香	-13.7241
首杜陵何處壯心空萬里人誰許	-13.7241
[...]
