<unk>	0
<s>	0
</s>	0
之	-4.08529
也	-4.55024
以	-4.7206
而	-4.73872
為	-4.80507
有	-5.02142
者	-5.04113
/	-5.15074
曰	-5.18167
其	-5.21519
(	-5.28744
不	-5.37594
則	-5.43665
於	-5.4698
)	-5.47693
一	-5.47878
人	-5.51778
無	-5.75951
子	-5.80902
中	-5.81672
與	-5.82962
大	-5.85296
自	-5.85642
上	-5.87015
至	-5.8888
如	-5.89978
言	-5.96469
云	-5.99426
此	-6.00343
作	-6.02109
故	-6.02146
王	-6.02348
時	-6.04793
皆	-6.06227
書	-6.06423
在	-6.07548
公	-6.07701
見	-6.08636
矣	-6.13064
行	-6.14293
用	-6.15689
所	-6.16406
事	-6.17563
又	-6.20882
出	-6.21213
得	-6.21602
乃	-6.22971
名	-6.23392
下	-6.23551
字	-6.239
生	-6.26523
亦	-6.27032
文	-6.27886
三	-6.28089
水	-6.32674
非	-6.32894
是	-6.34585
然	-6.34876
後	-6.3753
謂	-6.37794
今	-6.39098
于	-6.39363
山	-6.40551
)(	-6.41614
詩	-6.42385
即	-6.4444
天	-6.45151
相	-6.45178
道	-6.4566
日	-6.4869
多	-6.4939
官	-6.50183
入	-6.50516
二	-6.50892
及	-6.51529
可	-6.55358
明	-6.56407
若	-6.56816
知	-6.58248
正	-6.59596
當	-6.60724
傳	-6.60783
方	-6.61322
使	-6.61916
乎	-6.63091
同	-6.63449
爲	-6.63841
成	-6.65396
石	-6.65659
家	-6.67575
令	-6.69497
長	-6.69988
▁	-6.70363
取	-6.73247
心	-6.74495
本	-6.7507
州	-6.75236
耳	-6.75387
欲	-6.77472
去	-6.77534
四	-6.78235
因	-6.786
君	-6.79705
五	-6.79956
何	-6.79988
小	-6.80425
從	-6.80687
國	-6.81317
已	-6.81425
或	-6.81634
能	-6.81992
金	-6.82485
張	-6.83527
必	-6.83823
元	-6.84404
法	-6.85161
白	-6.86785
臣	-6.87587
李	-6.88554
遂	-6.8867
復	-6.88889
地	-6.88922
音	-6.89185
前	-6.89316
古	-6.90352
將	-6.90616
重	-6.9098
命	-6.91158
風	-6.9289
來	-6.93288
雖	-6.93444
馬	-6.95143
周	-6.95148
通	-6.96271
門	-6.96648
/)	-6.97152
焉	-6.97337
立	-6.97793
居	-6.97852
數	-6.97911
花	-6.98344
未	-6.9876
初	-6.99002
先	-6.99492
歸	-7.00606
過	-7.00617
世	-7.00692
稱	-7.0089
死	-7.03494
神	-7.03658
始	-7.03668
安	-7.03716
善	-7.03972
意	-7.04425
兩	-7.04626
氣	-7.04701
民	-7.04858
經	-7.05739
平	-7.06353
物	-7.06438
我	-7.06706
食	-7.0671
以為	-7.07
處	-7.07268
唐	-7.07556
語	-7.08515
黄	-7.09166
分	-7.09338
夫	-7.0975
南	-7.09799
合	-7.09934
易	-7.09957
常	-7.10793
甚	-7.10932
陳	-7.11442
禮	-7.12063
漢	-7.12086
論	-7.12095
陽	-7.12878
問	-7.13337
髙	-7.1369
盡	-7.13837
不可	-7.13991
既	-7.14865
猶	-7.14951
六	-7.16196
西	-7.16604
諸	-7.16966
東	-7.17241
樂	-7.17516
惟	-7.17652
實	-7.17789
玉	-7.17996
酒	-7.18305
清	-7.18442
起	-7.18443
九	-7.18581
聞	-7.18738
間	-7.19708
師	-7.19965
吾	-7.20063
主	-7.20587
兵	-7.20896
義	-7.21022
宋	-7.21719
不能	-7.21792
聲	-7.21858
外	-7.21872
定	-7.21876
學	-7.22201
内	-7.2228
士	-7.22978
氏	-7.23028
且	-7.23234
月	-7.23543
朝	-7.23933
少	-7.24765
身	-7.25063
城	-7.25071
龍	-7.2517
謂之	-7.25695
直	-7.2584
服	-7.25902
帝	-7.26249
觀	-7.27078
木	-7.27519
注	-7.27829
凡	-7.27999
舉	-7.28196
火	-7.28591
色	-7.28753
等	-7.28889
治	-7.28913
好	-7.29058
老	-7.2966
劉	-7.29908
守	-7.3014
記	-7.3063
集	-7.30633
和	-7.30673
天下	-7.30857
年	-7.31149
宜	-7.33104
女	-7.34296
深	-7.35103
節	-7.35109
引	-7.35501
發	-7.35947
春	-7.36514
志	-7.36891
史	-7.37717
新	-7.38027
雲	-7.38486
獨	-7.39603
進	-7.39788
求	-7.4082
真	-7.40901
應	-7.41021
北	-7.41239
香	-7.41349
縣	-7.41895
按	-7.42238
請	-7.42952
秦	-7.42977
齊	-7.43195
思	-7.43198
光	-7.43396
制	-7.43699
止	-7.4391
錢	-7.44603
哉	-7.44758
逺	-7.44945
頭	-7.45283
載	-7.45413
宫	-7.45642
徳	-7.4647
難	-7.46743
嘗	-7.4688
流	-7.47554
土	-7.47628
坐	-7.47698
田	-7.47853
置	-7.47962
封	-7.4812
衣	-7.48183
異	-7.48451
開	-7.48481
信	-7.48795
近	-7.4919
似	-7.49253
失	-7.4959
理	-7.4967
對	-7.50078
畫	-7.50236
七	-7.50476
各	-7.506
口	-7.50655
别	-7.50729
極	-7.50956
但	-7.50979
反	-7.51396
武	-7.51411
草	-7.51485
八	-7.51644
更	-7.52311
首	-7.52313
青	-7.52561
百	-7.52972
晉	-7.53197
體	-7.5334
尚	-7.53369
章	-7.53651
解	-7.53982
説	-7.54153
軍	-7.55126
親	-7.5522
魚	-7.55233
夜	-7.55691
蓋	-7.55981
次	-7.55989
予	-7.56186
都	-7.56436
伯	-7.57088
江	-7.57247
不知	-7.57421
如此	-7.57978
舊	-7.58747
父	-7.59041
所謂	-7.59411
賦	-7.5989
度	-7.60333
葉	-7.60655
興	-7.60745
加	-7.60797
十	-7.6104
任	-7.61253
固	-7.61266
變	-7.61323
爾	-7.61446
宗	-7.6183
葢	-7.6188
足	-7.61901
手	-7.6204
絶	-7.6225
趙	-7.62769
受	-7.62806
改	-7.63318
衆	-7.63468
而不	-7.63811
海	-7.64252
圖	-7.6461
楊	-7.64817
望	-7.64874
華	-7.65253
切	-7.65345
亂	-7.65495
客	-7.65568
賜	-7.65743
府	-7.66002
賢	-7.66068
致	-7.66117
著	-7.66418
奏	-7.66677
余	-7.66692
貴	-7.66799
每	-7.66855
力	-7.66874
指	-7.67111
聖	-7.67344
竹	-7.68179
卒	-7.68229
孫	-7.6841
德	-7.68535
政	-7.68541
勝	-7.68628
利	-7.68654
廣	-7.68831
河	-7.68886
吏	-7.69419
萬	-7.69494
雨	-7.69499
終	-7.69891
林	-7.70421
精	-7.70482
高	-7.70522
筆	-7.70679
不得	-7.70928
仁	-7.71353
還	-7.71731
益	-7.71851
所以	-7.71853
侯	-7.72202
惡	-7.72487
類	-7.72617
目	-7.72835
修	-7.72949
疑	-7.73494
議	-7.73548
動	-7.73963
梁	-7.74199
魏	-7.74537
便	-7.74687
詔	-7.74857
位	-7.75196
㑹	-7.7574
病	-7.75842
並	-7.76506
夏	-7.76683
卷	-7.76874
耶	-7.77428
車	-7.77527
母	-7.78472
化	-7.7872
辭	-7.78825
飛	-7.78843
視	-7.7918
鄭	-7.79543
俗	-7.79922
象	-7.79945
許	-7.80251
右	-7.80253
號	-7.80397
亡	-7.80675
豈	-7.80898
殺	-7.81351
考	-7.81368
餘	-7.81634
要	-7.82009
俱	-7.82077
盖	-7.82154
郡	-7.82194
比	-7.82387
曲	-7.82414
星	-7.82817
秋	-7.82861
隨	-7.82983
左	-7.83057
紅	-7.83264
殿	-7.83318
廟	-7.83586
建	-7.83749
讀	-7.8381
盛	-7.84069
隂	-7.84159
美	-7.84273
教	-7.84348
謝	-7.84451
祖	-7.84556
楚	-7.84834
具	-7.84837
拜	-7.84955
景	-7.85066
屬	-7.85082
臨	-7.85518
輕	-7.85771
遇	-7.85922
篇	-7.86021
除	-7.8612
形	-7.86275
寒	-7.86279
空	-7.86951
果	-7.87081
歌	-7.87155
莫	-7.87538
樹	-7.87573
司	-7.8767
紀	-7.88001
疾	-7.88338
性	-7.88413
卿	-7.88487
朱	-7.88762
計	-7.89593
表	-7.89676
說	-7.90426
牛	-7.90503
奉	-7.90734
臺	-7.91065
就	-7.91249
寺	-7.91319
全	-7.91519
録	-7.91607
路	-7.91905
召	-7.91906
嵗	-7.92044
靈	-7.92106
胡	-7.92114
可以	-7.92302
喜	-7.92683
仲	-7.928
題	-7.93171
半	-7.93241
徐	-7.93298
祭	-7.93743
厚	-7.94007
吳	-7.94193
代	-7.94252
僧	-7.9456
燕	-7.94587
尊	-7.94705
詩云	-7.94948
御	-7.95124
素	-7.95332
者也	-7.95687
仙	-7.95709
設	-7.95839
堂	-7.95859
留	-7.96016
陵	-7.96277
藥	-7.96475
容	-7.96668
先生	-7.96813
由	-7.9686
持	-7.97004
遺	-7.97532
工	-7.97626
降	-7.9778
兼	-7.97809
造	-7.98009
交	-7.98073
飲	-7.98199
墨	-7.98928
功	-7.99093
誤	-7.99181
叔	-7.99374
轉	-7.99435
細	-7.99506
向	-7.99631
情	-7.99734
落	-7.99785
原	-7.99956
闕	-8.00117
忠	-8.00243
送	-8.00267
才	-8.00287
藏	-8.00673
敬	-8.00756
顧	-8.00792
尤	-8.01267
告	-8.01333
竒	-8.01364
共	-8.01456
識	-8.01458
一日	-8.01634
詞	-8.01665
是也	-8.01834
太	-8.01903
呼	-8.0209
往	-8.02154
末	-8.02203
獻	-8.02259
散	-8.0242
姓	-8.02678
恐	-8.03007
須	-8.03023
序	-8.03142
器	-8.04106
刻	-8.04258
誠	-8.04332
面	-8.04409
春秋	-8.04442
特	-8.04591
種	-8.04655
連	-8.04684
廢	-8.05003
承	-8.05314
室	-8.0538
久	-8.0547
執	-8.05613
遷	-8.05832
魯	-8.05925
良	-8.0599
夢	-8.05993
滿	-8.06001
布	-8.06094
韓	-8.0626
汝	-8.06294
鳥	-8.06659
遊	-8.06747
再	-8.06827
養	-8.06868
登	-8.07101
院	-8.07123
收	-8.07485
列	-8.07656
斷	-8.08178
孝	-8.08218
智	-8.08234
據	-8.08281
野	-8.08314
孔子	-8.08349
宣	-8.08369
紫	-8.08756
適	-8.08776
羅	-8.08837
微	-8.08921
商	-8.09156
乾	-8.0923
備	-8.09306
忽	-8.09306
苦	-8.09524
存	-8.09769
省	-8.09888
彼	-8.10089
天子	-8.10301
泉	-8.10675
虎	-8.10956
離	-8.11207
某	-8.11261
衛	-8.11814
權	-8.11928
簡	-8.12102
而已	-8.12236
愛	-8.12629
試	-8.1294
最	-8.13481
推	-8.13595
角	-8.13616
兒	-8.13741
被	-8.13897
𤣥	-8.13975
傷	-8.14205
赤	-8.14488
罪	-8.14489
紙	-8.14615
端	-8.14662
放	-8.14802
嚴	-8.15378
部	-8.15618
移	-8.15671
敗	-8.15871
結	-8.16101
幸	-8.1618
甲	-8.16382
戰	-8.16452
里	-8.16524
破	-8.16529
刑	-8.16975
順	-8.17029
杜	-8.17323
碑	-8.17775
湯	-8.17777
薄	-8.17795
報	-8.17795
亭	-8.17875
鬼	-8.17923
雜	-8.18294
濟	-8.1838
之所	-8.18773
熟	-8.18874
寧	-8.19169
千	-8.1931
蘇	-8.19541
伏	-8.19551
君子	-8.19647
律	-8.19828
句	-8.19881
禁	-8.20248
冠	-8.20505
佛	-8.20647
池	-8.20671
謀	-8.20746
三年	-8.20771
他	-8.21621
邪	-8.21654
郎	-8.21753
遣	-8.21902
授	-8.21996
蜀	-8.22426
宿	-8.22761
寳	-8.22921
曹	-8.2348
調	-8.23572
儀	-8.23575
務	-8.23595
茶	-8.23646
延	-8.23678
樓	-8.23722
私	-8.241
雪	-8.24629
積	-8.24925
到	-8.24969
韻	-8.2502
急	-8.25169
澤	-8.25203
悉	-8.25258
罷	-8.25356
不敢	-8.25422
帶	-8.25471
并	-8.25695
越	-8.25732
達	-8.26001
毛	-8.26055
𫝊	-8.26059
福	-8.26459
賞	-8.26512
后	-8.26669
職	-8.26739
印	-8.26983
鄉	-8.27168
典	-8.27176
肉	-8.27187
松	-8.27436
烏	-8.27755
依	-8.27974
味	-8.28077
銀	-8.2816
尚書	-8.28235
業	-8.28278
昔	-8.28292
窮	-8.28353
左右	-8.28422
釋	-8.28802
折	-8.29124
昭	-8.2916
徒	-8.29583
補	-8.29728
諸侯	-8.29845
羣	-8.29894
選	-8.30023
永	-8.30123
質	-8.30161
納	-8.30182
斯	-8.30369
恩	-8.3075
二年	-8.30782
陸	-8.30921
唯	-8.3117
骨	-8.31384
率	-8.31658
保	-8.31762
賊	-8.31767
羊	-8.31768
市	-8.31815
附	-8.31908
撰	-8.32193
辨	-8.3225
邑	-8.32262
運	-8.32404
皇	-8.32657
季	-8.33031
畢	-8.33193
戒	-8.33242
沈	-8.3336
感	-8.33382
害	-8.33463
滅	-8.33539
舟	-8.33622
顯	-8.33665
期	-8.34013
施	-8.3413
當時	-8.34158
退	-8.34306
掌	-8.34323
威	-8.34406
第	-8.34536
殊	-8.34573
不同	-8.34755
勢	-8.34774
詳	-8.34946
皮	-8.35018
大夫	-8.35111
丘	-8.35287
疏	-8.3544
虚	-8.35471
差	-8.35568
米	-8.36038
古人	-8.36082
聽	-8.36086
勿	-8.36298
閣	-8.36334
堅	-8.36388
案	-8.36452
只	-8.36559
園	-8.36902
勞	-8.36908
笑	-8.36958
射	-8.36964
邊	-8.37055
頗	-8.37117
帖	-8.3726
鳴	-8.37268
虞	-8.37391
屋	-8.3749
待	-8.37602
□	-8.37677
珠	-8.3773
孟	-8.38022
監	-8.38269
怒	-8.38269
覺	-8.38362
齋	-8.38591
夷	-8.38681
孔	-8.38704
吕	-8.38942
冬	-8.39229
伐	-8.39329
元年	-8.39626
博	-8.39628
習	-8.39774
亦有	-8.39991
英	-8.40012
浮	-8.40329
之後	-8.40346
約	-8.40376
憂	-8.40439
仍	-8.40451
昌	-8.40983
負	-8.41053
寄	-8.41107
溪	-8.4122
乞	-8.41398
鹽	-8.41725
歴	-8.41785
鼎	-8.41851
崇	-8.4188
巳	-8.41934
不足	-8.42008
根	-8.42137
條	-8.42205
升	-8.4238
幾	-8.42442
舍	-8.42449
聖人	-8.42513
丹	-8.42809
愈	-8.42927
十二	-8.43044
聚	-8.43129
歲	-8.43291
患	-8.43442
又曰	-8.43606
妙	-8.43671
京	-8.4368
申	-8.43788
婦	-8.43931
吉	-8.43982
訓	-8.43983
富	-8.44025
照	-8.44059
祀	-8.44092
尾	-8.44159
游	-8.44319
温	-8.44407
狀	-8.44665
强	-8.45026
眼	-8.45137
於是	-8.45341
妻	-8.45366
雅	-8.45467
願	-8.45529
無所	-8.45565
夫人	-8.4568
禹	-8.45849
却	-8.45995
舞	-8.46056
品	-8.46141
驚	-8.46148
郭	-8.4617
擊	-8.46189
至於	-8.46676
谷	-8.46946
房	-8.47167
一人	-8.47512
醉	-8.47686
嘉	-8.47718
背	-8.47792
絲	-8.47883
露	-8.48227
符	-8.48279
人之	-8.4832
假	-8.4832
誅	-8.48362
蔡	-8.48454
故曰	-8.48564
垂	-8.48848
總	-8.48962
免	-8.49074
息	-8.49411
逸	-8.49419
贈	-8.49448
覆	-8.49511
而後	-8.49537
川	-8.49557
沙	-8.49679
銅	-8.49766
避	-8.49952
又有	-8.50085
之言	-8.50137
投	-8.5021
井	-8.50424
友	-8.5047
管	-8.50655
盧	-8.50823
參	-8.50988
科	-8.51278
繼	-8.51372
攻	-8.51542
枝	-8.51569
畧	-8.51856
追	-8.52054
翻	-8.52092
采	-8.52208
虛	-8.52296
索	-8.52464
營	-8.5253
雄	-8.52608
儒	-8.52809
錄	-8.52834
慶	-8.52854
充	-8.52897
休	-8.5311
刺	-8.53267
呉	-8.53537
逆	-8.53688
舜	-8.5374
雙	-8.53863
鎮	-8.53961
懐	-8.53968
丁	-8.53986
格	-8.53987
之意	-8.54011
班	-8.54076
族	-8.54178
為之	-8.54341
寶	-8.54417
惠	-8.54431
乗	-8.54463
湖	-8.54554
怨	-8.54722
談	-8.54971
接	-8.54982
詩曰	-8.54993
偶	-8.55
羽	-8.55157
孤	-8.5525
洞	-8.55265
妄	-8.55294
幽	-8.55316
編	-8.55317
畏	-8.55529
天地	-8.55572
怪	-8.55646
衰	-8.55677
盤	-8.5568
兮	-8.55745
雞	-8.55765
史記	-8.56043
候	-8.56125
梅	-8.56324
甘	-8.56432
誰	-8.56558
翁	-8.56612
犯	-8.56755
略	-8.56787
榮	-8.56807
己	-8.56836
東坡	-8.56928
念	-8.56946
關	-8.56962
塞	-8.57131
曰此	-8.57355
愚	-8.57405
領	-8.57495
庭	-8.57533
僕	-8.57543
稍	-8.57815
之事	-8.57925
闗	-8.57929
哀	-8.58049
爭	-8.58307
其所	-8.58472
看	-8.58621
曽	-8.58671
弟	-8.58805
朝廷	-8.58969
尋	-8.5899
迎	-8.58995
然後	-8.59011
例	-8.5916
竟	-8.59171
之類	-8.59612
回	-8.59774
弗	-8.59784
察	-8.59815
龜	-8.59851
未嘗	-8.59895
隱	-8.59906
危	-8.59913
康	-8.5997
宅	-8.60188
否	-8.60277
累	-8.60318
夀	-8.60391
厯	-8.60416
戲	-8.60594
借	-8.60629
宰相	-8.60667
專	-8.60675
乘	-8.60714
棄	-8.60838
責	-8.60898
給	-8.60918
殷	-8.60952
范	-8.61009
隠	-8.61017
漸	-8.61214
暴	-8.61599
薦	-8.61615
何以	-8.6173
獲	-8.62046
琴	-8.62218
人也	-8.6256
鼓	-8.6265
蒙	-8.63034
於此	-8.63258
術	-8.6334
刀	-8.63417
後世	-8.6374
懼	-8.63932
短	-8.63993
禍	-8.63999
横	-8.64107
壁	-8.64213
不及	-8.64281
血	-8.64281
阿	-8.64392
之間	-8.6441
崔	-8.64426
也故	-8.64608
宻	-8.64608
陶	-8.6473
示	-8.64866
中有	-8.64882
孟子	-8.64889
寫	-8.65163
斗	-8.6529
恭	-8.65316
其後	-8.65404
曾	-8.65439
户	-8.65509
将	-8.65615
雷	-8.65697
喪	-8.65926
来	-8.66144
財	-8.66303
敵	-8.66318
是以	-8.66321
咸	-8.66339
太宗	-8.66494
籍	-8.6651
堯	-8.67164
程	-8.67241
蕭	-8.67285
宴	-8.67314
漢書	-8.67456
祠	-8.67593
圓	-8.67627
輔	-8.67737
逐	-8.67839
干	-8.68394
蘭	-8.68556
橋	-8.68627
太祖	-8.68762
材	-8.6878
救	-8.68966
席	-8.69024
早	-8.69134
忘	-8.6918
克	-8.69275
不見	-8.69461
波	-8.69563
丞相	-8.69583
履	-8.69613
資	-8.69743
學士	-8.69768
兄	-8.6983
㸃	-8.69835
諱	-8.69963
弱	-8.70093
述	-8.70168
操	-8.70177
巧	-8.70336
竊	-8.7041
賈	-8.7046
麗	-8.70486
縱	-8.7061
步	-8.70652
况	-8.70775
杖	-8.70782
毎	-8.70785
諫	-8.70928
側	-8.7109
不如	-8.71257
走	-8.71702
將軍	-8.71786
未有	-8.71847
錦	-8.71911
黒	-8.71938
爵	-8.72
忌	-8.72046
歳	-8.72062
秀	-8.7211
支	-8.722
姑	-8.72341
泥	-8.72468
會	-8.72537
有所	-8.72548
江南	-8.72571
飾	-8.72597
量	-8.72716
講	-8.72839
製	-8.72954
蟲	-8.73135
熱	-8.73269
騎	-8.73683
慮	-8.73742
桑	-8.73934
勸	-8.7403
顔	-8.74083
曰吾	-8.74104
太子	-8.74294
㫖	-8.74435
均	-8.74443
衡	-8.74527
機	-8.74548
辟	-8.74779
豐	-8.74841
損	-8.74875
船	-8.7508
亦不	-8.75154
也今	-8.7529
䇿	-8.75567
京師	-8.75626
鶴	-8.75716
續	-8.75779
㣲	-8.75816
墓	-8.7588
閒	-8.75914
尺	-8.76172
統	-8.76296
又云	-8.7635
壽	-8.76437
不復	-8.76667
然則	-8.76672
審	-8.76836
侍	-8.7687
文章	-8.77227
獄	-8.77282
旁	-8.77384
葬	-8.77479
源	-8.77491
貫	-8.77523
屈	-8.77529
謹	-8.7761
莊	-8.78367
卦	-8.78997
􁀙	-8.79054
輒	-8.79301
悲	-8.79619
助	-8.79922
曉	-8.7995
栁	-8.79961
陰	-8.79971
洛	-8.80086
佳	-8.80223
韋	-8.80309
齒	-8.80351
圍	-8.80437
甫	-8.8045
役	-8.80624
緑	-8.80758
館	-8.8085
寛	-8.81106
敢	-8.81172
貧	-8.81221
乆	-8.81333
影	-8.81343
懷	-8.81513
戴	-8.81614
以爲	-8.81618
進士	-8.81903
賀	-8.82215
言之	-8.82248
者皆	-8.82256
殆	-8.8267
恨	-8.82686
茍	-8.82696
赴	-8.82706
皇帝	-8.8296
陛下	-8.83037
希	-8.83426
鐵	-8.83552
肅	-8.83587
郊	-8.83635
駕	-8.8371
純	-8.83916
傅	-8.84009
驗	-8.84018
薛	-8.84021
繫	-8.84193
旦	-8.84276
之説	-8.84324
揚	-8.84366
古今	-8.844
鍾	-8.84443
偽	-8.84473
擇	-8.84475
占	-8.8448
牙	-8.84503
麻	-8.84558
費	-8.84559
佐	-8.85204
之法	-8.85444
偏	-8.85643
一名	-8.85858
庶	-8.85887
腹	-8.86032
二字	-8.86062
答	-8.86119
増	-8.86126
訪	-8.862
卜	-8.86611
徑	-8.87042
燒	-8.87107
油	-8.87244
之地	-8.87424
輩	-8.87484
四年	-8.87656
賤	-8.87767
父母	-8.87778
戎	-8.87781
碧	-8.87848
社	-8.879
知其	-8.87939
維	-8.8795
辰	-8.88056
婦人	-8.88059
黃	-8.88301
洗	-8.88376
耕	-8.88536
泰	-8.88623
可謂	-8.88742
用之	-8.88832
叙	-8.88858
之道	-8.88897
貢	-8.89029
不為	-8.89214
嗣	-8.89312
學者	-8.89316
菜	-8.89527
荒	-8.89557
飯	-8.89709
穆	-8.89753
而無	-8.89848
謁	-8.89935
粉	-8.89957
勇	-8.8996
隋	-8.89976
其事	-8.89986
黑	-8.90134
憲	-8.90513
二人	-8.90529
桃	-8.90609
寢	-8.90679
環	-8.90717
蛇	-8.9074
奪	-8.90776
塗	-8.90789
淵	-8.90953
塵	-8.91033
慎	-8.91065
密	-8.91069
不過	-8.91085
洪	-8.91166
之義	-8.91182
以此	-8.91252
巨	-8.91412
冷	-8.91677
遠	-8.91698
朕	-8.91724
皆有	-8.91785
徃	-8.9186
征	-8.91876
革	-8.92067
招	-8.92082
懸	-8.92205
委	-8.92603
毒	-8.92731
注云	-8.9281
震	-8.92812
二十	-8.93042
必有	-8.9306
尹	-8.93209
奴	-8.93266
了	-8.9338
茂	-8.93664
供	-8.93862
之名	-8.93985
太守	-8.94156
牧	-8.94317
之人	-8.9437
以來	-8.94462
妾	-8.94575
卧	-8.94609
之士	-8.94699
天下之	-8.94799
潤	-8.94857
五年	-8.95059
出於	-8.95221
之時	-8.95232
校	-8.95281
醫	-8.95294
兄弟	-8.953
底	-8.95317
御史	-8.95337
像	-8.95387
仰	-8.9564
詠	-8.95659
三月	-8.95725
含	-8.95801
司馬	-8.95872
採	-8.95904
辯	-8.96104
使人	-8.96165
鏡	-8.96285
僅	-8.96372
千里	-8.96479
淺	-8.96504
違	-8.96619
文王	-8.96776
鹿	-8.96805
董	-8.96936
註	-8.97218
子孫	-8.97307
悟	-8.97353
貪	-8.97424
翼	-8.97583
霜	-8.97604
珍	-8.97642
周公	-8.97706
頌	-8.97869
痛	-8.97875
彦	-8.97979
詣	-8.98198
諭	-8.98238
買	-8.98469
子曰	-8.98631
有一	-8.98671
故事	-8.98705
誦	-8.98757
荆	-8.9878
循	-8.98813
振	-8.98846
缺	-8.98957
徙	-8.98965
第一	-8.98994
宮	-8.99017
速	-8.99034
眀	-8.99314
眞	-8.99487
繁	-8.9953
隆	-8.99554
配	-8.99744
燈	-8.99798
啓	-8.9984
倉	-8.99848
村	-8.99875
桂	-8.99914
得之	-8.99954
剛	-8.99964
證	-9.00054
烟	-9.00187
妃	-9.00224
周禮	-9.0041
柱	-9.00474
消	-9.00756
貞	-9.00773
決	-9.0083
,	-9.00893
策	-9.01052
勤	-9.01053
毁	-9.01073
三十	-9.01075
唐人	-9.01129
一時	-9.01157
讓	-9.0122
謬	-9.01351
足以	-9.01355
託	-9.0136
晚	-9.01361
植	-9.01446
欽定四庫全書	-9.01446
卑	-9.01452
賔	-9.01461
農	-9.01505
對曰	-9.01517
後人	-9.01566
至今	-9.01832
巖	-9.01851
奔	-9.01906
穴	-9.01919
遽	-9.02059
百姓	-9.02158
鑄	-9.02237
盈	-9.02346
也夫	-9.02379
傾	-9.02457
柔	-9.02706
抱	-9.03046
鮮	-9.03092
介	-9.03093
逢	-9.03117
殘	-9.03227
寡	-9.03237
粟	-9.03328
童	-9.0333
仕	-9.03524
豆	-9.0362
萬物	-9.03668
式	-9.03805
今日	-9.03825
長安	-9.0386
馮	-9.03888
上下	-9.03909
擬	-9.03933
襲	-9.03968
旋	-9.03993
效	-9.04006
不用	-9.04131
壯	-9.04237
小人	-9.04268
渠	-9.04385
鳳	-9.04599
盜	-9.04665
其人	-9.0467
夕	-9.04693
朔	-9.04759
其子	-9.04795
産	-9.04993
脩	-9.05021
賣	-9.05093
錫	-9.05128
蒲	-9.05303
烈	-9.05328
覽	-9.05555
允	-9.05568
左傳	-9.05708
今之	-9.05738
徴	-9.05844
獸	-9.05881
縁	-9.06033
不然	-9.06044
肥	-9.06292
决	-9.06305
規	-9.06387
也又	-9.06402
額	-9.06696
倚	-9.06791
寵	-9.07249
歎	-9.07275
價	-9.07313
大臣	-9.07332
讀書	-9.07446
暮	-9.07484
遲	-9.07572
慈	-9.07622
午	-9.0764
裏	-9.07668
板	-9.07689
哭	-9.07713
黨	-9.07749
武帝	-9.0794
硯	-9.08023
贊	-9.08041
而去	-9.08155
帥	-9.08199
翠	-9.0845
斬	-9.08465
貌	-9.08551
十年	-9.08567
日月	-9.08584
禄	-9.08585
趨	-9.0893
迹	-9.09007
之中	-9.09192
惜	-9.09375
二句	-9.09438
庸	-9.09571
旣	-9.09716
不以	-9.09786
得其	-9.09789
境	-9.09802
錯	-9.09887
輿	-9.09917
襄	-9.10038
局	-9.10285
防	-9.1037
姬	-9.10399
以下	-9.10465
銘	-9.10523
隔	-9.1053
禪	-9.10567
没	-9.10616
鳯	-9.10668
奇	-9.10686
士大夫	-9.10944
脚	-9.10984
文字	-9.11125
三日	-9.11161
徵	-9.11359
今人	-9.11373
舒	-9.11388
争	-9.11421
見之	-9.1148
公曰	-9.11557
歩	-9.11571
辛	-9.11677
鑿	-9.11687
彌	-9.11715
昏	-9.11834
正月	-9.11969
脱	-9.11995
預	-9.12011
愁	-9.12029
燭	-9.12309
非也	-9.12515
鐘	-9.12554
吹	-9.12658
吟	-9.12723
以上	-9.12733
姦	-9.12744
祝	-9.12895
祥	-9.13095
副	-9.13157
撫	-9.1319
惑	-9.13325
險	-9.13484
淫	-9.13517
厲	-9.13526
困	-9.13868
其言	-9.13894
五十	-9.13915
磨	-9.14036
漏	-9.14043
辱	-9.14204
道士	-9.14314
靜	-9.14333
邦	-9.14455
倒	-9.14804
削	-9.14888
不必	-9.14904
蒼	-9.14985
跡	-9.15092
者為	-9.15095
四方	-9.15115
自是	-9.15239
桓	-9.15322
界	-9.15334
自然	-9.15459
國家	-9.15468
肆	-9.15526
厥	-9.15562
庫	-9.15642
寓	-9.15697
凝	-9.15767
築	-9.15842
渾	-9.15854
屏	-9.16029
座	-9.16082
宰	-9.1622
階	-9.16284
判	-9.16301
儉	-9.1632
優	-9.1634
侍郎	-9.16399
疎	-9.16561
男	-9.16686
抑	-9.16769
敎	-9.16798
芳	-9.16911
活	-9.16944
頃	-9.1698
侵	-9.17001
掩	-9.17017
犬	-9.17084
包	-9.17111
淮	-9.17152
穿	-9.17369
閉	-9.17504
知之	-9.17552
屢	-9.17603
爾雅	-9.17713
裴	-9.17718
住	-9.17903
單	-9.17933
譜	-9.18037
傍	-9.18264
謙	-9.18332
名曰	-9.18346
超	-9.18498
扶	-9.18514
弟子	-9.18542
軒	-9.18612
弓	-9.18671
減	-9.18783
數十	-9.18821
雍	-9.18843
如何	-9.19026
罰	-9.19154
有司	-9.19161
静	-9.19249
武王	-9.19308
麥	-9.19527
聞之	-9.19599
毋	-9.1965
諡	-9.19753
之心	-9.19796
扇	-9.19905
淡	-9.19953
不可以	-9.19969
見其	-9.20043
鄙	-9.20118
十三	-9.20268
灰	-9.20343
袁	-9.20489
柳	-9.20507
之文	-9.20816
遵	-9.209
染	-9.21033
狂	-9.21042
東南	-9.2105
打	-9.21152
皆以	-9.21184
片	-9.21197
廷	-9.21235
漆	-9.21236
姚	-9.21242
囊	-9.21271
苑	-9.21272
豪	-9.21311
十五	-9.21324
煩	-9.21478
沉	-9.21493
古之	-9.21654
凶	-9.21923
暗	-9.21949
俊	-9.22029
基	-9.22066
馳	-9.22241
瓦	-9.22327
倍	-9.22374
一曰	-9.22389
貨	-9.22441
焚	-9.22623
裁	-9.22636
兹	-9.22781
蔽	-9.22844
矢	-9.22852
六年	-9.22856
巾	-9.22965
一作	-9.23016
从	-9.2304
享	-9.23099
歡	-9.23229
岸	-9.23346
激	-9.23377
榖	-9.23427
之上	-9.23635
禽	-9.23741
之子	-9.24024
以其	-9.24027
玩	-9.24314
藉	-9.24337
後漢	-9.24401
尸	-9.24582
夫子	-9.24585
忍	-9.24712
其中	-9.24783
限	-9.24799
遭	-9.24838
欽	-9.25142
藝	-9.25204
歟	-9.25264
倫	-9.25312
提	-9.25449
廬	-9.2551
強	-9.25582
囘	-9.25611
堪	-9.25882
腰	-9.259
宇	-9.26063
傳曰	-9.26107
富貴	-9.26144
彭	-9.26198
鼻	-9.26207
頂	-9.26233
氷	-9.26298
欺	-9.26325
潔	-9.26413
黄帝	-9.26505
乳	-9.26508
束	-9.26596
災	-9.26644
隂陽	-9.26684
本朝	-9.26905
仁宗	-9.26942
不相	-9.26981
其實	-9.27023
劍	-9.2703
髪	-9.27091
唱	-9.27179
鼔	-9.27217
員	-9.2725
古文	-9.27313
餅	-9.27346
彈	-9.27379
驅	-9.27462
厭	-9.27504
慕	-9.27634
宏	-9.27666
八月	-9.27703
碎	-9.2788
蒸	-9.27963
研	-9.28061
輪	-9.28223
其名	-9.28284
人皆	-9.28546
無不	-9.28752
浸	-9.29048
往往	-9.29196
汁	-9.29291
如是	-9.29474
百官	-9.29529
頓	-9.29684
導	-9.29766
畜	-9.29816
之語	-9.29876
穀	-9.29898
孰	-9.29898
篆	-9.30022
瑞	-9.30023
蜜	-9.30039
旗	-9.30077
雀	-9.30102
膏	-9.30278
之則	-9.30318
煎	-9.30423
丸	-9.30497
衍	-9.30558
不當	-9.30715
明日	-9.3072
潛	-9.30735
桐	-9.30951
䕶	-9.30974
援	-9.3103
貶	-9.31066
上有	-9.3119
逹	-9.31377
糧	-9.31414
眉	-9.31627
捕	-9.31889
晦	-9.31939
吐	-9.32204
喻	-9.32231
中國	-9.32264
鴻	-9.32276
嶺	-9.32386
有餘	-9.32471
也然	-9.32475
之外	-9.3257
泣	-9.32619
者亦	-9.32752
二月	-9.33043
未必	-9.3309
一卷	-9.33133
𢎞	-9.33252
幹	-9.33317
扵	-9.33491
亮	-9.33546
視之	-9.33686
或曰	-9.33711
想	-9.33816
丞	-9.33821
嫁	-9.33837
舎	-9.33864
曰我	-9.33866
翰林	-9.33915
署	-9.34105
幼	-9.34158
觸	-9.34382
羣臣	-9.34407
增	-9.34465
霸	-9.34626
啟	-9.34693
勒	-9.347
晝	-9.34746
勅	-9.34837
五月	-9.34896
蠶	-9.34946
趣	-9.35003
太后	-9.35026
者不	-9.35043
較	-9.35152
銜	-9.35156
其家	-9.35191
之制	-9.35384
國之	-9.35599
十六	-9.35633
巢	-9.3579
岳	-9.35796
漫	-9.35827
六月	-9.35859
十八	-9.35872
付	-9.36022
佩	-9.36284
沒	-9.36379
取其	-9.36382
完	-9.36496
説文	-9.36502
鄧	-9.36729
赦	-9.36861
峯	-9.36945
開元	-9.36993
坡	-9.37108
靡	-9.37118
熊	-9.37215
之說	-9.37266
衞	-9.37329
書曰	-9.37372
絹	-9.37408
悔	-9.37525
㡬	-9.37601
壇	-9.37637
競	-9.37647
濕	-9.37668
一字	-9.37699
譽	-9.37787
不言	-9.37827
晏	-9.37835
是時	-9.3786
脫	-9.37866
煙	-9.37893
七年	-9.38136
髙祖	-9.382
紹	-9.3824
斤	-9.38412
枕	-9.3842
訛	-9.38454
停	-9.38604
黎	-9.38627
絳	-9.38727
輙	-9.38805
殺之	-9.38833
敏	-9.38845
三百	-9.38876
鬼神	-9.38959
𨽻	-9.39016
饑	-9.39048
十月	-9.39088
督	-9.39201
段	-9.39339
伊	-9.39431
塔	-9.39593
割	-9.39624
逃	-9.39636
勉	-9.39731
蓮	-9.39928
誕	-9.39983
翰	-9.40019
者以	-9.40104
快	-9.40129
澄	-9.4022
四時	-9.40262
焦	-9.40345
俟	-9.4049
絃	-9.40575
所載	-9.40581
與之	-9.40615
時有	-9.40793
前後	-9.40877
父子	-9.40954
叛	-9.40983
草木	-9.41066
丈	-9.41095
討	-9.41121
食之	-9.41129
把	-9.41158
杯	-9.41259
安得	-9.41335
妖	-9.41386
枯	-9.41446
夾	-9.41529
璧	-9.41659
檢	-9.4171
項	-9.41772
棗	-9.41817
為一	-9.41842
䘮	-9.41845
六十	-9.4188
篤	-9.41903
勲	-9.41908
潮	-9.42032
妓	-9.422
大小	-9.4225
崩	-9.42289
徹	-9.42383
者必	-9.42455
膠	-9.4248
奚	-9.42651
弊	-9.42851
瓊	-9.42908
也若	-9.42965
葛	-9.4302
蕩	-9.43029
況	-9.43105
注曰	-9.43113
竇	-9.43146
渡	-9.43214
論語	-9.43219
即位	-9.43317
緩	-9.43336
莫不	-9.43338
狗	-9.43351
恒	-9.43535
浪	-9.43547
躬	-9.4359
帳	-9.436
文武	-9.43627
兆	-9.43629
不肯	-9.43674
排	-9.43714
偃	-9.43786
織	-9.43809
雉	-9.4382
見於	-9.43822
吴	-9.43902
是故	-9.43955
各有	-9.44132
屯	-9.44136
南北	-9.44172
聴	-9.44179
言其	-9.4421
譏	-9.44222
姓名	-9.44263
䑕	-9.44421
九月	-9.44423
斜	-9.44445
左氏	-9.44447
其間	-9.44509
所見	-9.44521
押	-9.44566
繩	-9.44575
由是	-9.4465
着	-9.44686
之際	-9.44687
叢	-9.44708
坊	-9.44863
朱子	-9.44871
皇后	-9.4494
墜	-9.44961
其上	-9.45038
匹	-9.45245
出入	-9.45337
遜	-9.45345
驛	-9.45491
觀之	-9.45502
遼	-9.45505
之下	-9.45551
榜	-9.45554
契	-9.45567
灌	-9.45702
第二	-9.45983
艾	-9.45997
輸	-9.46203
亦可	-9.46266
犀	-9.46284
帛	-9.46372
津	-9.46532
平生	-9.46716
遍	-9.46801
中書	-9.46816
之屬	-9.46842
攝	-9.46907
爛	-9.47051
巴	-9.47236
四十	-9.4728
五色	-9.4737
子弟	-9.4739
􁁊	-9.4739
也其	-9.4741
敦	-9.47416
河南	-9.47613
雖有	-9.47614
菴	-9.48056
主人	-9.48123
話	-9.48145
人主	-9.48167
墮	-9.48187
拂	-9.48192
尉	-9.48198
鸞	-9.48419
者有	-9.48587
係	-9.48785
竭	-9.48796
髮	-9.48798
壺	-9.48805
舌	-9.48818
融	-9.48828
亟	-9.48864
潘	-9.48878
凌	-9.4892
拘	-9.48945
婢	-9.49086
𤓰	-9.49101
之禮	-9.49146
乙	-9.49459
之功	-9.49482
纔	-9.49593
東西	-9.49626
之數	-9.49802
坤	-9.49907
姜	-9.49982
徧	-9.50006
太平	-9.50008
紋	-9.50043
山谷	-9.50113
飲食	-9.50116
寸	-9.50116
抵	-9.50155
州刺史	-9.50183
料	-9.50346
其意	-9.50494
不在	-9.50507
何也	-9.50571
蠻	-9.50656
鄰	-9.50662
囚	-9.50695
茅	-9.50732
毅	-9.50806
裂	-9.50823
然而	-9.50828
牀	-9.50919
之徒	-9.51154
謫	-9.51211
鑒	-9.51224
七十	-9.51284
寜	-9.5129
取之	-9.51441
究	-9.5155
洲	-9.51551
晨	-9.51563
戸	-9.51602
詐	-9.51705
洛陽	-9.51812
豫	-9.51843
萬里	-9.51879
女子	-9.51925
不應	-9.51962
壊	-9.52037
綱	-9.52306
至于	-9.52391
而為	-9.52406
三代	-9.5245
一篇	-9.52526
該	-9.52559
者非	-9.52568
之故	-9.52606
霞	-9.52954
窺	-9.52954
幕	-9.53041
肝	-9.53083
涉	-9.53184
荷	-9.53399
從之	-9.5344
叟	-9.53498
訟	-9.53588
閲	-9.53599
牽	-9.53647
五日	-9.53792
菊	-9.53801
盆	-9.53802
之日	-9.54057
創	-9.54081
湘	-9.54143
乃知	-9.54194
古者	-9.54276
至此	-9.5429
偉	-9.54317
自有	-9.5444
公子	-9.54472
嫌	-9.54488
凉	-9.54531
八年	-9.54638
人間	-9.54719
簾	-9.54883
西北	-9.5489
斥	-9.5494
柄	-9.54946
壓	-9.54953
秩	-9.55063
靖	-9.55194
籠	-9.55275
旅	-9.55303
莊子	-9.55314
踰	-9.55331
君臣	-9.55355
鬚	-9.55404
滑	-9.55411
麟	-9.55473
獵	-9.55568
何如	-9.556
薨	-9.5573
紂	-9.55777
箭	-9.55788
也按	-9.5592
算	-9.55949
臂	-9.55988
陋	-9.55998
圭	-9.56039
陷	-9.56055
亷	-9.56138
黙	-9.56195
云云	-9.56258
汗	-9.56263
疊	-9.5635
甞	-9.56412
弼	-9.56596
不識	-9.56771
慢	-9.56773
三人	-9.56776
炎	-9.56885
大抵	-9.56973
寅	-9.57032
憶	-9.57045
溢	-9.57093
瓶	-9.57188
吏部	-9.57265
煮	-9.57319
其義	-9.57365
鑑	-9.57443
苗	-9.57443
狐	-9.57488
驕	-9.57517
紹興	-9.57525
綿	-9.57558
之學	-9.57605
伍	-9.57671
岐	-9.57774
豈不	-9.5794
披	-9.57997
擢	-9.5806
弄	-9.58064
所作	-9.58143
崖	-9.58172
文公	-9.58216
誓	-9.58228
不與	-9.5825
乏	-9.58299
鱗	-9.58322
老子	-9.58372
呂	-9.58423
淳	-9.58465
以後	-9.58494
誣	-9.58599
峻	-9.58737
作詩	-9.58743
而下	-9.58794
其一	-9.58803
文帝	-9.58827
上曰	-9.58855
併	-9.58963
警	-9.58998
胥	-9.59099
栗	-9.59166
貯	-9.59249
溝	-9.59264
明年	-9.59283
賢者	-9.59348
有三	-9.59404
鈎	-9.59536
使者	-9.59578
添	-9.59713
健	-9.59757
鋒	-9.59758
網	-9.59853
淚	-9.59865
練	-9.59971
毫	-9.60064
迷	-9.6008
育	-9.60101
是非	-9.6013
綴	-9.60399
冦	-9.6046
故也	-9.60487
邵	-9.60512
團	-9.60525
互	-9.60633
祿	-9.60672
之於	-9.60745
巫	-9.6075
祖宗	-9.60755
訖	-9.60768
魁	-9.60991
始於	-9.61054
生於	-9.61073
亦無	-9.61115
的	-9.61131
稽	-9.61138
擾	-9.61186
俾	-9.61356
則有	-9.61429
不若	-9.61442
其説	-9.61522
鬱	-9.61528
響	-9.61529
考之	-9.61544
十七	-9.61767
七月	-9.61772
亦曰	-9.61863
乖	-9.619
五行	-9.61954
四月	-9.61954
賛	-9.6204
漁	-9.62042
賓	-9.62076
評	-9.62144
璽	-9.62223
人物	-9.62226
擅	-9.62244
之氣	-9.62249
气	-9.62255
王者	-9.62299
専	-9.62319
換	-9.62369
為人	-9.62391
徽	-9.62485
卓	-9.62695
冊	-9.628
豹	-9.62831
飲酒	-9.62855
秘	-9.62902
核	-9.63025
郎中	-9.63037
逼	-9.63138
魂	-9.63253
恃	-9.63288
晩	-9.63302
溺	-9.63346
其文	-9.6337
展	-9.63386
臯	-9.63388
析	-9.63405
祈	-9.63434
爐	-9.63448
所得	-9.6346
昇	-9.6351
第三	-9.63515
挾	-9.63631
内外	-9.63641
風雨	-9.63708
泛	-9.63714
誥	-9.63836
蕃	-9.63892
此語	-9.64093
令人	-9.64135
㕔	-9.64168
或作	-9.64333
盟	-9.64439
峰	-9.64504
酌	-9.64516
盗	-9.64518
邉	-9.64678
匠	-9.64693
旬	-9.64754
繡	-9.64788
得一	-9.6481
羮	-9.64918
几	-9.64995
牢	-9.65014
蓄	-9.65027
司空	-9.651
之所以	-9.65225
仁義	-9.65239
低	-9.65244
曠	-9.65299
覩	-9.6536
逰	-9.65372
十四	-9.65417
禮記	-9.6545
庚	-9.65588
揖	-9.65758
濁	-9.65775
嬰	-9.65819
之書	-9.65839
不足以	-9.65842
恥	-9.65851
劒	-9.65853
拔	-9.65864
熙	-9.65907
則是	-9.65922
跪	-9.65982
醋	-9.66043
未知	-9.66142
竝	-9.66199
戍	-9.66207
娶	-9.66218
肯	-9.66219
說文	-9.66308
門外	-9.66346
少年	-9.6636
十二月	-9.66508
社稷	-9.66566
脉	-9.66603
荆公	-9.6666
黜	-9.66679
烹	-9.66683
衝	-9.66693
一百	-9.66721
鷄	-9.6678
聊	-9.67055
五百	-9.67109
従	-9.67494
黍	-9.67603
秉	-9.67603
浦	-9.67649
罔	-9.67682
狄	-9.67701
不知其	-9.67711
戚	-9.67725
標	-9.67769
不欲	-9.6782
。	-9.67836
聘	-9.67907
山水	-9.67936
此事	-9.67948
書云	-9.67967
神仙	-9.67981
睡	-9.68007
冰	-9.68038
咎	-9.68056
有大	-9.6812
饒	-9.68137
冀	-9.68145
久之	-9.68221
其身	-9.68291
禮部	-9.68349
一二	-9.68367
攷	-9.68382
者曰	-9.68575
諌	-9.68744
途	-9.68754
愧	-9.68761
臘	-9.68807
值	-9.68826
真宗	-9.68889
禮樂	-9.68892
時人	-9.68932
芝	-9.69091
擁	-9.69205
西南	-9.6935
問之	-9.69361
其地	-9.69362
莽	-9.69387
四海	-9.69387
跋	-9.69487
昧	-9.69516
太尉	-9.69558
旱	-9.69734
摹	-9.69823
五代	-9.69825
退之	-9.69837
祐	-9.69913
淮南	-9.69932
袖	-9.69989
他日	-9.70063
罕	-9.70145
鞭	-9.70195
南方	-9.70201
奮	-9.70331
牌	-9.70347
混	-9.70352
羞	-9.70356
普	-9.70411
莖	-9.70432
巡	-9.70458
版	-9.70508
陣	-9.70596
脂	-9.7066
滋	-9.70671
廉	-9.70676
軸	-9.70715
而不能	-9.70733
執政	-9.70745
或云	-9.70779
不合	-9.708
若此	-9.70951
公主	-9.70958
釣	-9.70965
司徒	-9.70994
屠	-9.71009
無以	-9.71055
勁	-9.71061
韶	-9.71061
近世	-9.71106
斛	-9.71158
相與	-9.71202
其下	-9.71264
人心	-9.7141
不出	-9.71422
東北	-9.71442
失其	-9.7169
粗	-9.71696
鈔	-9.71704
悦	-9.71752
十一月	-9.7179
儲	-9.71813
晴	-9.71857
樞	-9.71894
際	-9.71899
有二	-9.71912
突	-9.71952
可見	-9.71992
探	-9.7207
垣	-9.72083
醜	-9.72085
肺	-9.72099
矜	-9.72144
嶽	-9.72154
尼	-9.72169
所居	-9.72258
以示	-9.72351
文選	-9.72368
化為	-9.72409
騰	-9.72467
戮	-9.7247
爽	-9.7256
枚	-9.72627
嘆	-9.72635
䟽	-9.72712
者其	-9.72755
爻	-9.72857
十一	-9.72921
亞	-9.72921
有人	-9.72961
百里	-9.73101
層	-9.73123
諷	-9.73131
矣然	-9.73218
諸公	-9.73294
刋	-9.733
瞻	-9.73325
二十四	-9.73358
此言	-9.73448
邱	-9.73604
稷	-9.73616
筍	-9.73672
太史	-9.73744
士人	-9.73757
橘	-9.73757
或以	-9.73811
塲	-9.73818
者多	-9.73822
暑	-9.73906
曰汝	-9.73974
一年	-9.7401
鴈	-9.74135
成都	-9.74224
乃以	-9.74253
壞	-9.74263
九年	-9.74275
也此	-9.74295
之論	-9.74435
嗟	-9.74458
世之	-9.74503
揚州	-9.74556
三公	-9.74571
旨	-9.74754
閱	-9.74791
不行	-9.74859
刺史	-9.74904
宛	-9.74911
以自	-9.74982
嗚呼	-9.7504
成王	-9.75146
甲子	-9.75198
一兩	-9.75274
不宜	-9.75306
返	-9.75372
猛	-9.75406
膝	-9.75407
此書	-9.75423
鈞	-9.75453
𦵏	-9.75536
摩	-9.75654
而死	-9.75659
柴	-9.75687
仲尼	-9.75702
明皇	-9.75723
藩	-9.75768
亦然	-9.75776
山中	-9.7579
一事	-9.75891
唐書	-9.75945
光武	-9.75956
笑曰	-9.76004
數日	-9.76022
飽	-9.76043
當作	-9.76053
北方	-9.76059
其餘	-9.76066
整	-9.7614
不勝	-9.76163
可也	-9.76198
天地之	-9.7622
不忍	-9.76232
七日	-9.76247
觀其	-9.76322
侍中	-9.76352
行之	-9.764
酸	-9.76444
範	-9.76452
十餘	-9.76467
藻	-9.76531
二百	-9.7656
炙	-9.76606
協	-9.76616
叅	-9.76627
滯	-9.76725
慧	-9.76761
亦以	-9.76842
潭	-9.76865
街	-9.76943
問曰	-9.77044
山川	-9.77064
則不	-9.77102
隣	-9.77127
河東	-9.77137
胎	-9.77146
不聞	-9.77245
百年	-9.77415
卵	-9.77499
有此	-9.77581
奈何	-9.77658
區	-9.7767
緯	-9.77692
朴	-9.77764
懿	-9.77778
其父	-9.778
幅	-9.77805
不許	-9.77851
腎	-9.77882
天之	-9.779
而行	-9.77901
炒	-9.78113
不免	-9.78225
澗	-9.7825
家人	-9.78276
堯舜	-9.78388
彩	-9.78416
不至	-9.78428
吞	-9.78432
數百	-9.78442
恕	-9.78453
輦	-9.78501
八十	-9.78529
嵩	-9.78572
二公	-9.78624
頻	-9.78733
君之	-9.78845
拒	-9.78847
緣	-9.78875
濶	-9.78877
㑹稽	-9.78896
霧	-9.79042
畝	-9.79138
媚	-9.79153
廵	-9.79254
仗	-9.79259
本草	-9.79276
纂	-9.79286
鬻	-9.79566
博士	-9.79589
蓬	-9.79679
小兒	-9.79817
薪	-9.79939
躍	-9.79977
受命	-9.80024
又以	-9.80055
熈	-9.80114
牡丹	-9.80228
者如	-9.80345
映	-9.80351
仇	-9.80357
閑	-9.80357
亥	-9.80429
綠	-9.80526
陞	-9.80592
豈可	-9.80671
其書	-9.80721
靣	-9.80743
豈非	-9.80744
袍	-9.80806
揺	-9.80816
鄒	-9.80853
摘	-9.80905
未能	-9.80908
死者	-9.80971
驢	-9.80987
様	-9.81025
坑	-9.81116
人有	-9.81126
剪	-9.81196
百餘	-9.81221
那	-9.81238
圗	-9.81305
不食	-9.81557
傳云	-9.81577
通鑑	-9.81597
裘	-9.81638
曰某	-9.8166
耳目	-9.81693
當以	-9.81697
金陵	-9.81714
而不知	-9.8175
不從	-9.81751
課	-9.81754
繞	-9.81757
孔子曰	-9.81781
殺人	-9.81846
自古	-9.81877
雕	-9.81909
隅	-9.81913
腸	-9.81929
渭	-9.82147
老人	-9.82149
棺	-9.82205
所言	-9.82262
啼	-9.82295
淨	-9.823
佞	-9.82329
娘	-9.82392
浩	-9.82486
猪	-9.82592
山東	-9.82682
藤	-9.82739
三十六	-9.82741
貽	-9.8275
嗜	-9.82799
俸	-9.82802
間有	-9.82812
憐	-9.82853
坎	-9.82876
漕	-9.82888
裝	-9.82904
煑	-9.82938
脾	-9.83042
丑	-9.83098
求之	-9.83114
捨	-9.83149
人以	-9.83174
宫中	-9.83232
人多	-9.83267
而成	-9.83337
公孫	-9.83376
劾	-9.83397
阮	-9.83413
之句	-9.83484
答曰	-9.8353
▁(	-9.83537
釐	-9.8357
弔	-9.83603
亨	-9.83677
後有	-9.8368
遂以	-9.83683
鋪	-9.83708
旌	-9.83727
汴	-9.8373
此詩	-9.83887
禱	-9.83966
圃	-9.83998
鷹	-9.84162
閭	-9.84233
國朝	-9.84257
水中	-9.84278
裕	-9.84311
湛	-9.84413
寃	-9.84415
不盡	-9.84488
蟹	-9.84501
班固	-9.84521
諧	-9.84566
槩	-9.8457
逮	-9.84575
荀	-9.84593
下有	-9.84607
二子	-9.84608
賴	-9.84699
棲	-9.84717
皇上	-9.84918
欲以	-9.84974
致仕	-9.84983
門人	-9.84986
擲	-9.85003
牒	-9.85045
者乎	-9.8505
黄金	-9.85073
太原	-9.85081
之變	-9.85086
場	-9.85153
所在	-9.85208
月令	-9.85335
猶有	-9.85415
世家	-9.85421
樊	-9.85428
恵	-9.85429
訴	-9.85438
禦	-9.85542
宣和	-9.85592
桓公	-9.85695
膽	-9.85708
哲	-9.85788
風俗	-9.85791
而出	-9.85831
矯	-9.85852
汪	-9.85863
禾	-9.85882
江西	-9.85891
其心	-9.85981
燥	-9.85984
物也	-9.85989
測	-9.86022
泊	-9.86026
虜	-9.8612
有功	-9.86123
王氏	-9.86218
一切	-9.86331
閏	-9.86468
之理	-9.86468
倣	-9.86514
態	-9.86531
屑	-9.86599
中丞	-9.86659
大如	-9.86667
瑩	-9.86705
弦	-9.86883
與人	-9.86889
遁	-9.86891
之術	-9.8691
之聲	-9.87007
酬	-9.87023
埋	-9.87039
宣王	-9.87092
綺	-9.87195
樵	-9.87199
十卷	-9.87392
托	-9.87471
宗廟	-9.87538
距	-9.87551
元史	-9.87554
㳺	-9.87602
椒	-9.87617
匡	-9.87744
架	-9.87766
掘	-9.87819
做	-9.87866
不受	-9.87908
者乃	-9.87962
朋	-9.88015
渉	-9.88194
什	-9.88209
敷	-9.88214
勾	-9.88238
箇	-9.88307
以前	-9.88345
㝠	-9.88387
詰	-9.88416
炭	-9.88441
語曰	-9.88483
抗	-9.88507
已有	-9.88508
辦	-9.88633
鮑	-9.88637
截	-9.88661
収	-9.88681
議論	-9.88724
十九	-9.8874
模	-9.88789
褒	-9.88791
肩	-9.8891
奢	-9.88924
笛	-9.88946
不知何	-9.88969
攜	-9.89108
勑	-9.8917
庾	-9.89196
墳	-9.89202
蔣	-9.89423
之物	-9.8943
人所	-9.89432
自此	-9.89446
既而	-9.89567
可為	-9.89581
喬	-9.89712
促	-9.89714
潜	-9.89726
夲	-9.89823
諸子	-9.8988
暢	-9.90022
亦非	-9.90124
斑	-9.90137
不善	-9.9023
神宗	-9.90249
枉	-9.90282
精神	-9.90367
握	-9.90461
稻	-9.90471
域	-9.90496
砂	-9.905
霄	-9.90606
髙宗	-9.90615
未可	-9.9066
臧	-9.90735
已而	-9.90772
上書	-9.908
隙	-9.90889
蟬	-9.90916
者則	-9.91018
輕重	-9.91051
失之	-9.91052
公卿	-9.91086
濤	-9.91088
十日	-9.91129
服之	-9.91151
節度使	-9.91172
括	-9.91199
踐	-9.912
或有	-9.91216
濫	-9.91217
者謂之	-9.91322
琵琶	-9.91367
榻	-9.91394
拙	-9.91495
毬	-9.91522
祗	-9.9154
冩	-9.91561
伸	-9.91659
閔	-9.91665
㓜	-9.91694
州縣	-9.91795
彊	-9.91863
太公	-9.91896
匿	-9.91969
給事中	-9.92009
所云	-9.9215
漿	-9.92151
棘	-9.92162
遣使	-9.9217
衫	-9.92177
詢	-9.92216
酉	-9.92216
姪	-9.92287
泄	-9.92309
裹	-9.92311
箋	-9.92325
呼為	-9.92351
飢	-9.92387
終日	-9.92462
樂府	-9.92478
斧	-9.92558
稅	-9.92573
數年	-9.926
詩人	-9.92608
不成	-9.92653
莫能	-9.92706
衣冠	-9.92786
薑	-9.92856
粥	-9.92895
床	-9.92905
甚多	-9.92943
墻	-9.92945
舍人	-9.92946
閩	-9.93015
衙	-9.93173
相傳	-9.93175
叩	-9.93181
簿	-9.93209
他人	-9.93211
誌	-9.93211
使之	-9.93241
奸	-9.93248
其國	-9.93368
朗	-9.93371
詭	-9.93373
於人	-9.93409
槐	-9.93424
世祖	-9.93475
再拜	-9.93511
傑	-9.93532
前輩	-9.9354
亦云	-9.93576
不止	-9.93583
豈有	-9.93609
改為	-9.93655
幣	-9.93661
荅	-9.93675
擒	-9.93689
浴	-9.93692
億	-9.93757
凖	-9.93824
挺	-9.93869
措	-9.93962
腐	-9.93964
蠟	-9.94012
而生	-9.94128
祚	-9.94146
曰君	-9.94276
鬭	-9.94323
謨	-9.94359
契丹	-9.94385
鵲	-9.94496
人情	-9.94577
葵	-9.94731
不覺	-9.94732
何人	-9.94792
雁	-9.94823
河北	-9.94839
可知	-9.94847
人君	-9.9487
誘	-9.9496
元祐	-9.95049
不信	-9.95074
不載	-9.95154
顛	-9.9527
十五年	-9.95278
王子	-9.95284
道人	-9.95328
桀	-9.95404
東方	-9.95411
醒	-9.95424
之罪	-9.95474
國初	-9.95475
二十年	-9.95478
男女	-9.95538
彰	-9.95574
民之	-9.95631
績	-9.95718
耗	-9.95723
詩話	-9.95808
往來	-9.95817
甕	-9.95916
㧞	-9.95927
湏	-9.95967
涼	-9.95987
敝	-9.96092
冶	-9.96095
賦詩	-9.96129
慰	-9.96199
所為	-9.96246
批	-9.96247
之臣	-9.96317
它	-9.96409
谿	-9.96417
揚雄	-9.96466
僻	-9.96525
無復	-9.96535
舅	-9.9658
透	-9.96691
戾	-9.96712
則無	-9.96742
貝	-9.96822
謂其	-9.96826
盞	-9.96852
及其	-9.96862
斂	-9.96868
冲	-9.96895
不通	-9.96896
皆不	-9.9692
之辭	-9.9693
以待	-9.96954
歛	-9.97161
臭	-9.97169
太史公	-9.97171
耀	-9.9719
竈	-9.97197
腦	-9.97239
荆州	-9.97366
無人	-9.97434
伊尹	-9.97499
則知	-9.97517
之禍	-9.97593
王莽	-9.97664
鼠	-9.97699
嘉靖	-9.97727
遥	-9.97844
戈	-9.97845
太學	-9.97854
岡	-9.98048
姿	-9.98224
男子	-9.98269
鳩	-9.98274
竅	-9.98281
西域	-9.98283
豕	-9.9846
翟	-9.98499
竿	-9.98627
萌	-9.98664
島	-9.9878
駭	-9.98817
忿	-9.9884
冬至	-9.98899
揮	-9.99113
是謂	-9.99126
飄	-9.9913
當是	-9.99225
歐	-9.99303
謗	-9.99343
人臣	-9.99359
瓜	-9.99361
長史	-9.99419
俄	-9.99456
管仲	-9.9947
塊	-9.99494
肇	-9.99494
帝王	-9.9953
人家	-9.99554
縷	-9.99559
童子	-9.99583
栢	-9.99624
杏	-9.99703
太常	-9.99765
俯	-9.9977
何為	-9.99791
畔	-9.99817
翔	-9.99905
刼	-9.99948
俞	-9.9995
崑崙	-10.0007
函	-10.0014
記云	-10.0014
障	-10.0018
壻	-10.0019
一旦	-10.0019
憤	-10.0026
暫	-10.0032
蘆	-10.0033
針	-10.0033
册	-10.004
迫	-10.0047
而能	-10.0047
僚	-10.005
縮	-10.0051
或問	-10.0052
相似	-10.0055
恤	-10.0057
呈	-10.0059
之詩	-10.0063
不已	-10.0064
金石	-10.0067
歐陽	-10.0078
爰	-10.0083
中興	-10.0084
五經	-10.0086
金銀	-10.0097
王公	-10.0099
二曰	-10.0112
纎	-10.0117
脈	-10.0123
税	-10.0134
狹	-10.0136
雌	-10.0139
煉	-10.0144
用事	-10.0147
軟	-10.0148
六經	-10.0149
準	-10.0151
挽	-10.0155
竄	-10.0167
憑	-10.0168
冕	-10.0169
祁	-10.0181
壤	-10.0182
迴	-10.0184
聖人之	-10.0185
太白	-10.0187
查	-10.0188
酷	-10.0194
高祖	-10.02
灼	-10.0201
零	-10.021
寂	-10.0211
豫章	-10.0214
貴人	-10.0215
梨	-10.0215
穢	-10.0217
汲	-10.0218
不待	-10.022
悅	-10.022
之内	-10.0229
若璩按	-10.023
何所	-10.0235
終不	-10.0238
抄	-10.0239
之精	-10.0243
先王	-10.0244
無窮	-10.0248
播	-10.0262
晝夜	-10.0264
確	-10.0265
自謂	-10.0267
未幾	-10.0269
閤	-10.0271
相公	-10.028
眠	-10.028
滕	-10.0287
滴	-10.0288
疆	-10.0295
三十年	-10.0302
廊	-10.0305
猿	-10.0307
杜詩	-10.032
冝	-10.0322
不易	-10.0322
秀才	-10.0322
之盛	-10.0334
僕射	-10.0338
台	-10.0343
洪武	-10.0345
以成	-10.0346
明矣	-10.0353
銷	-10.0354
敕	-10.036
沃	-10.0367
名也	-10.037
状	-10.0371
掃	-10.0371
禁中	-10.0372
綽	-10.0373
不自	-10.0373
藍	-10.0374
厨	-10.0374
用兵	-10.0376
頴	-10.0389
牆	-10.0395
侈	-10.0402
欵	-10.0403
記曰	-10.0408
番	-10.041
世俗	-10.0419
裳	-10.0421
者謂	-10.0422
壑	-10.0424
見一	-10.0426
上帝	-10.0435
于此	-10.0446
綵	-10.0448
兔	-10.0449
山海經	-10.0454
宣帝	-10.0457
道也	-10.0459
矣故	-10.046
倦	-10.0468
三千	-10.0477
蘓	-10.0479
之前	-10.0489
是為	-10.049
泰山	-10.0492
婆	-10.0495
虧	-10.0495
誤矣	-10.0503
丙	-10.0507
裔	-10.0509
終身	-10.0512
霍	-10.0513
軌	-10.0513
起於	-10.053
相見	-10.0531
冒	-10.0535
真人	-10.0538
沛	-10.0539
洞庭	-10.054
內	-10.0542
十三年	-10.0543
糞	-10.0546
貳	-10.0547
不可不	-10.055
太師	-10.0553
西方	-10.0555
久矣	-10.0562
㸔	-10.0565
右軍	-10.0568
此皆	-10.0579
逾	-10.058
南陽	-10.0582
治之	-10.0588
此亦	-10.0596
阻	-10.0599
訣	-10.06
汚	-10.0601
緒	-10.0602
峽	-10.0602
無事	-10.0604
租	-10.0617
勃	-10.0617
榆	-10.0636
婁	-10.0642
儒者	-10.0647
芒	-10.0648
晉書	-10.0651
敘	-10.0652
家有	-10.0664
二十五	-10.0667
政事	-10.0669
梓	-10.067
宋人	-10.0674
不死	-10.0683
夭	-10.0686
邸	-10.0688
罵	-10.0688
准	-10.0688
十二年	-10.0689
曰今	-10.0702
繇	-10.0706
狼	-10.0708
壘	-10.0709
愼	-10.0711
吉凶	-10.0716
不動	-10.0717
鵝	-10.0723
鄴	-10.0724
邀	-10.0729
不失	-10.0735
九十	-10.074
之勢	-10.074
從事	-10.075
或謂	-10.0761
株	-10.0767
節度	-10.0768
之餘	-10.0768
而言	-10.077
四句	-10.0772
永樂	-10.0778
艮	-10.0779
世人	-10.0782
叱	-10.0784
之世	-10.0787
畵	-10.0799
饌	-10.0803
髻	-10.0806
智按	-10.0808
之稱	-10.0809
之謂	-10.081
其說	-10.081
卯	-10.0811
譚	-10.0814
九州	-10.0825
刃	-10.0828
闢	-10.0831
一斤	-10.0833
冢	-10.0836
在上	-10.0836
笏	-10.0838
政和	-10.0846
土人	-10.0851
蜂	-10.0854
布衣	-10.0857
宗室	-10.0862
可乎	-10.0864
㦸	-10.0871
羌	-10.0874
無他	-10.0882
澹	-10.0887
南海	-10.0893
箕	-10.0893
為相	-10.0894
去聲	-10.0894
第四	-10.0904
東海	-10.0918
識者	-10.0921
餌	-10.0924
効	-10.0924
奕	-10.0934
何不	-10.0945
伴	-10.0947
樂天	-10.0948
諸生	-10.0954
戰國	-10.096
恣	-10.0961
未及	-10.0962
而復	-10.0966
元豐	-10.0969
國史	-10.097
未見	-10.0977
前漢	-10.0977
掠	-10.0982
大者	-10.099
三尺	-10.099
師古曰	-10.0994
一夕	-10.0995
戊	-10.0998
丗	-10.1003
多少	-10.1008
起居	-10.1013
駁	-10.1015
婚	-10.1016
掛	-10.1016
事也	-10.1018
踈	-10.1019
繪	-10.1021
而止	-10.1022
所用	-10.1022
一物	-10.1027
變化	-10.1032
無異	-10.1036
皆可	-10.1038
艸	-10.1039
曰臣	-10.1043
級	-10.1048
為大	-10.1049
用此	-10.105
侮	-10.105
伎	-10.1052
柏	-10.1055
皷	-10.1067
不容	-10.1074
必以	-10.1079
元和	-10.1089
撥	-10.1092
尚有	-10.1093
甚矣	-10.1094
四人	-10.11
西京	-10.1101
絡	-10.1106
自言	-10.1107
蹟	-10.1108
濃	-10.1114
暖	-10.1114
而歸	-10.1116
筮	-10.1119
拾	-10.1121
然也	-10.1125
無有	-10.1125
沮	-10.1127
餉	-10.1129
同時	-10.1131
檀	-10.1134
氏之	-10.1134
李氏	-10.1134
僖	-10.114
其聲	-10.114
未詳	-10.1141
匈奴	-10.1151
巷	-10.1165
仙人	-10.1168
褐	-10.1169
之誤	-10.1175
潁	-10.1183
臣等	-10.1185
十四年	-10.1188
劉向	-10.1191
子美	-10.1215
魄	-10.1219
妻子	-10.1222
牲	-10.1223
鵠	-10.1225
有聲	-10.1228
何處	-10.1235
蔓	-10.124
陟	-10.1245
故有	-10.1261
捧	-10.1261
縫	-10.1263
不甚	-10.1277
觧	-10.1278
饗	-10.1279
有五	-10.1294
淑	-10.1297
筵	-10.1297
號曰	-10.1303
軰	-10.1304
何必	-10.1305
艱	-10.1306
繆	-10.1308
不肖	-10.1308
逺矣	-10.1311
書之	-10.1312
剖	-10.1316
逕	-10.1317
麾	-10.1319
衢	-10.1325
三曰	-10.133
掖	-10.1336
南史	-10.1339
線	-10.1339
當為	-10.1344
文學	-10.1344
梅花	-10.1348
之初	-10.1352
捷	-10.1358
讀之	-10.1364
紗	-10.1373
觴	-10.1374
娥	-10.1375
周之	-10.1382
謚	-10.1385
芽	-10.1386
大將軍	-10.141
有四	-10.1413
魏公	-10.1413
瘡	-10.1415
洋	-10.1421
塘	-10.1422
内閣	-10.1424
美人	-10.1428
珪	-10.1429
伺	-10.1431
一本	-10.1431
濯	-10.1431
輝	-10.1432
擧	-10.1435
故人	-10.1439
鉤	-10.145
驟	-10.1452
技	-10.1467
悖	-10.1467
十里	-10.1468
只是	-10.147
鏤	-10.1475
不獨	-10.1489
帽	-10.1491
粧	-10.1493
所出	-10.1496
五六	-10.1501
之狀	-10.1503
此乃	-10.1509
則又	-10.1511
其妻	-10.1511
弩	-10.1511
不幸	-10.152
明堂	-10.1522
杜預	-10.1523
攸	-10.1527
隴	-10.1528
天道	-10.1532
虐	-10.1546
鬬	-10.1549
膳	-10.1552
綬	-10.1556
禘	-10.1572
衣服	-10.1572
其母	-10.1576
不入	-10.1583
宦	-10.1592
暇	-10.1592
羙	-10.1593
煖	-10.1604
欄	-10.1609
兎	-10.161
贖	-10.1641
千金	-10.1647
踏	-10.1648
通用	-10.1662
曰昔	-10.1668
自稱	-10.1676
四字	-10.1677
漬	-10.168
龎	-10.1687
籌	-10.1688
曜	-10.1688
以求	-10.169
忠臣	-10.1695
紛	-10.1698
所藏	-10.1701
至是	-10.1701
䖍	-10.1701
邢	-10.1703
𤣥宗	-10.1704
磬	-10.1706
亦自	-10.1709
廣陵	-10.1719
之志	-10.1723
劔	-10.1726
宵	-10.1727
渚	-10.1728
乂	-10.1729
聖賢	-10.1741
醬	-10.1741
門下	-10.1746
中庸	-10.1746
指揮	-10.1752
膚	-10.1753
又何	-10.1753
臥	-10.1756
誤也	-10.1757
相去	-10.1763
詆	-10.1765
柯	-10.1767
郢	-10.177
一句	-10.177
䝉	-10.1784
貼	-10.1785
陂	-10.1785
待制	-10.1788
韓退之	-10.1793
劇	-10.1801
爪	-10.1802
方言	-10.1804
鴨	-10.1805
周官	-10.1811
沿	-10.1816
功臣	-10.1817
春風	-10.182
凍	-10.182
濬	-10.1822
可愛	-10.1823
矣而	-10.1831
賔客	-10.1837
炁	-10.1838
沸	-10.1841
諸人	-10.1841
也然則	-10.1842
郡縣	-10.1852
十一年	-10.1853
涯	-10.1881
道者	-10.1886
百萬	-10.1891
勘	-10.1899
瀆	-10.19
第五	-10.1905
字書	-10.1911
綸	-10.1912
及第	-10.1914
匪	-10.1922
眷	-10.1922
一錢	-10.1925
臆	-10.1926
前代	-10.1929
填	-10.1931
二三	-10.1934
改元	-10.1938
之患	-10.194
神明	-10.195
演	-10.1956
大笑	-10.1968
國語	-10.1969
若是	-10.197
棊	-10.1971
孝經	-10.1973
浙	-10.1976
是日	-10.1979
昆	-10.1985
已上	-10.1986
纒	-10.1988
故謂之	-10.1996
簫	-10.1999
液	-10.2002
怠	-10.2004
歐公	-10.2006
昨	-10.2012
一條	-10.2022
銖	-10.2027
余嘗	-10.2028
别有	-10.203
妹	-10.2031
乾坤	-10.2033
處士	-10.2035
於上	-10.2035
迂	-10.205
其次	-10.2052
無疑	-10.2056
歎曰	-10.2065
從容	-10.2066
頸	-10.2068
讒	-10.2069
列子	-10.2074
蹈	-10.2083
中原	-10.2085
後漢書	-10.2087
随	-10.2088
歐陽公	-10.2089
陪	-10.2093
之情	-10.2095
汾	-10.2099
世間	-10.2103
崇禎	-10.211
股	-10.2112
縣令	-10.2113
先王之	-10.2117
員外郎	-10.2119
之利	-10.2123
中山	-10.2124
不忘	-10.2133
畨	-10.2134
拱	-10.2136
判官	-10.2141
海内	-10.2142
銓	-10.2144
尖	-10.2145
則曰	-10.2145
李公	-10.2149
稀	-10.215
痕	-10.2151
故以	-10.2153
在位	-10.2164
翰林學士	-10.2165
匣	-10.2172
則為	-10.2173
子夏	-10.2174
募	-10.2174
倪	-10.2174
八分	-10.2177
前人	-10.2179
地名	-10.2181
民間	-10.2188
得失	-10.219
寇	-10.2191
蔡邕	-10.2196
利害	-10.22
矣夫	-10.2201
澆	-10.2204
䕫	-10.2209
洽	-10.2211
孔氏	-10.2212
誨	-10.2213
宫人	-10.2222
遂為	-10.2224
亦未	-10.2228
芙蓉	-10.2229
傲	-10.2232
懲	-10.2232
捐	-10.2233
因以	-10.2235
此則	-10.2237
扁	-10.2249
鄭氏	-10.225
刪	-10.2264
第十	-10.2266
丈夫	-10.2271
太和	-10.2274
三字	-10.2275
廬山	-10.2287
畿	-10.2287
殻	-10.2291
後主	-10.2293
之才	-10.23
江東	-10.2301
浚	-10.2302
先後	-10.2304
所能	-10.2305
粒	-10.2306
邁	-10.2318
主簿	-10.2332
也且	-10.2333
之道也	-10.2346
畆	-10.2356
芻	-10.2361
戯	-10.2362
字子	-10.2363
聞其	-10.2367
笙	-10.2376
揆	-10.2377
桃花	-10.2378
亢	-10.2378
副使	-10.238
禹貢	-10.238
譯	-10.2381
康熙	-10.2383
鉛	-10.2397
者矣	-10.2399
之妙	-10.2401
其形	-10.2402
不堪	-10.2408
卽	-10.2417
置之	-10.2418
於外	-10.2419
賂	-10.2424
牋	-10.2424
巽	-10.2425
聰	-10.2425
魯公	-10.2436
不暇	-10.2446
次第	-10.2446
而得	-10.2453
頒	-10.2464
而卒	-10.2469
足下	-10.2479
隊	-10.2487
未盡	-10.2489
遮	-10.2492
二十八	-10.2492
詩有	-10.2496
序云	-10.2497
晁	-10.2498
法度	-10.2501
岩	-10.2501
讐	-10.2502
多矣	-10.2509
貸	-10.2511
錢塘	-10.2517
札	-10.252
一種	-10.2528
温公	-10.2529
檄	-10.2531
敖	-10.2538
次之	-10.2543
長沙	-10.2549
五人	-10.2557
為文	-10.2564
劉氏	-10.2567
鐡	-10.2569
相國	-10.2574
一月	-10.2578
又言	-10.258
在於	-10.2581
狀元	-10.259
揭	-10.2591
喫	-10.2594
售	-10.2597
居士	-10.2634
踵	-10.2635
偷	-10.2643
子路	-10.2646
陜西	-10.2648
雖不	-10.2649
挿	-10.2655
悼	-10.2656
山林	-10.2657
拳	-10.2659
襄公	-10.2659
虹	-10.266
亦作	-10.2662
議者	-10.2663
潰	-10.2663
數千	-10.2667
鈴	-10.2673
長生	-10.2676
盃	-10.2678
耻	-10.268
麴	-10.2681
水經注	-10.2681
葱	-10.2685
之流	-10.2697
通判	-10.2699
搜	-10.2706
雜記	-10.2707
法也	-10.2709
以致	-10.2713
其法	-10.2717
闔	-10.2724
邇	-10.2726
曰朕	-10.2728
祭祀	-10.2735
本作	-10.2738
以備	-10.2738
號為	-10.2738
之民	-10.2741
萊	-10.2741
溫	-10.2743
不解	-10.2745
濡	-10.2746
苟	-10.2746
慙	-10.2747
苖	-10.2748
草書	-10.2752
夫婦	-10.2758
為正	-10.2759
東都	-10.2763
般	-10.2766
駐	-10.277
又按	-10.2771
螺	-10.2772
南山	-10.2778
此意	-10.278
止於	-10.2781
海棠	-10.2781
子貢	-10.2798
注引	-10.2803
廣韻	-10.2805
又作	-10.2808
明帝	-10.2811
咨	-10.2812
償	-10.2814
江陵	-10.2828
道之	-10.2829
闇	-10.2834
曷	-10.2835
堆	-10.2837
進退	-10.2846
贍	-10.2851
曰天	-10.2853
其本	-10.2855
糟	-10.2855
皆為	-10.2855
故能	-10.2863
之形	-10.2871
之象	-10.2874
始皇	-10.2876
减	-10.2878
掾	-10.288
子瞻	-10.2881
大學士	-10.2882
數人	-10.2882
緋	-10.2889
延年	-10.2899
寤	-10.2902
物之	-10.2902
中外	-10.2904
䟦	-10.2905
世傳	-10.2907
三四	-10.2908
之命	-10.2909
千載	-10.2913
相類	-10.2923
鎭	-10.2924
荀子	-10.2926
》	-10.2943
蘭亭	-10.2944
壅	-10.2945
蹇	-10.2947
筠	-10.2948
言語	-10.2953
國公	-10.2956
苴	-10.2963
襄陽	-10.2964
蠧	-10.2967
稜	-10.2967
白樂天	-10.2971
三分	-10.2983
惡之	-10.2987
覇	-10.2988
不可得	-10.2991
易之	-10.2992
筋	-10.3001
猫	-10.3001
儀禮	-10.3002
孚	-10.3004
杭	-10.3009
禍福	-10.3011
聖王	-10.3012
然亦	-10.3013
禀	-10.3014
山在	-10.3014
著書	-10.3015
騐	-10.3015
之遺	-10.3015
安能	-10.3017
朽	-10.302
倡	-10.3028
諸家	-10.3032
之樂	-10.3033
喉	-10.3036
恪	-10.3037
郡守	-10.3041
白雲	-10.3041
西山	-10.3043
為主	-10.3044
有罪	-10.3046
之難	-10.3048
而不可	-10.3049
今世	-10.3049
賈誼	-10.306
以告	-10.3061
厄	-10.3065
愛之	-10.3068
相如	-10.3071
長者	-10.3076
抽	-10.3079
少時	-10.3083
之主	-10.3084
啖	-10.3084
有道	-10.3085
之國	-10.3091
望之	-10.3095
都督	-10.3097
壹	-10.312
可得	-10.3122
巻	-10.3124
碩	-10.3131
大王	-10.3137
風流	-10.3142
漢人	-10.3144
糾	-10.3144
聼	-10.3148
貴賤	-10.315
之家	-10.3151
遐	-10.3151
不明	-10.3164
諸臣	-10.3167
滌	-10.3169
徃徃	-10.3173
萬世	-10.3174
㕘	-10.3188
欣	-10.3188
圜	-10.3192
淸	-10.3195
於天	-10.3207
於天下	-10.3207
絮	-10.3214
玉堂	-10.3216
咏	-10.3218
故其	-10.3219
縛	-10.3219
先儒	-10.3221
制度	-10.3222
鶯	-10.3223
經曰	-10.3227
不問	-10.3229
十數	-10.3236
矩	-10.3236
瑶	-10.3239
鍋	-10.3239
須臾	-10.3241
替	-10.3244
北齊	-10.3245
未聞	-10.3261
太廟	-10.3262
森	-10.3266
襍	-10.3266
荘	-10.3267
茗	-10.3268
四兩	-10.3276
癡	-10.3286
可與	-10.329
所著	-10.329
喚	-10.329
其他	-10.3294
國人	-10.3298
綾	-10.33
儼	-10.3302
十六年	-10.3303
叚	-10.3308
苞	-10.3309
在此	-10.3313
其道	-10.3314
洎	-10.3314
皆是	-10.3314
禪師	-10.3322
○	-10.3323
奏事	-10.3323
之體	-10.3324
恬	-10.3326
復有	-10.3333
簷	-10.3334
貞觀	-10.3343
疋	-10.3347
于是	-10.3352
荼	-10.3354
之君	-10.3355
以禮	-10.3355
又謂	-10.3356
杜子美	-10.3357
多有	-10.3357
綏	-10.3357
婉	-10.3358
亦是	-10.3363
代之	-10.3364
可笑	-10.3367
山下	-10.3368
各一	-10.3374
分明	-10.3377
千餘	-10.3381
之性	-10.3387
若干	-10.3388
太極	-10.3392
阜	-10.3401
跨	-10.3403
隸	-10.3404
梵	-10.3407
凢	-10.3408
顔色	-10.3409
秦王	-10.3413
舊制	-10.342
城中	-10.3423
聰明	-10.3426
爲之	-10.3426
也余	-10.3431
不聽	-10.3432
耆	-10.3436
而反	-10.3436
淹	-10.3438
蜀人	-10.3441
何故	-10.3445
認	-10.3448
知制誥	-10.3459
不祥	-10.3464
得罪	-10.3465
蕪	-10.3467
曾子	-10.3467
即是	-10.3468
由此	-10.3469
岑	-10.3471
即今	-10.3472
檜	-10.3472
晏子	-10.3475
此類	-10.3477
陀	-10.3477
輅	-10.3484
實録	-10.3487
也凡	-10.3492
浄	-10.3493
曽子	-10.3495
騷	-10.3497
駒	-10.35
筭	-10.35
弑	-10.3502
安國	-10.3503
稱之	-10.3507
元帝	-10.351
未至	-10.3513
十萬	-10.3518
人生	-10.3519
逝	-10.3521
廻	-10.3526
貎	-10.3529
高宗	-10.353
暉	-10.3532
天子之	-10.3533
漢武	-10.3535
最為	-10.3541
東漢	-10.3541
彬	-10.3541
胸	-10.3544
衮	-10.3544
南京	-10.3546
妨	-10.3548
諾	-10.3549
牟	-10.3553
東宫	-10.3565
此其	-10.3576
所記	-10.3579
集中	-10.3581
憚	-10.3581
膺	-10.3583
平聲	-10.3584
人之所	-10.3592
天寳	-10.3593
猶未	-10.3593
捲	-10.3595
明月	-10.3597
鳥獸	-10.3601
梗	-10.3613
有兩	-10.3613
濮	-10.362
汙	-10.3622
之職	-10.3624
固有	-10.3626
秦漢	-10.3626
一言	-10.3627
萬人	-10.3627
先帝	-10.3633
恢	-10.3637
垢	-10.3639
猷	-10.3641
誇	-10.3642
庻	-10.3642
譬	-10.3643
蟻	-10.3646
江淮	-10.365
山有	-10.3656
不改	-10.3664
堤	-10.3667
稱其	-10.367
繹	-10.3672
禮義	-10.3673
善惡	-10.3681
憎	-10.3681
公羊	-10.3684
先是	-10.3689
禽獸	-10.3691
齊王	-10.3698
江水	-10.3699
不絶	-10.3703
徽宗	-10.3704
河水	-10.3707
忤	-10.3715
瑟	-10.3719
肅宗	-10.3721
鍊	-10.373
䧟	-10.3733
芥	-10.3735
湧	-10.3736
醇	-10.3736
麫	-10.3737
魯直	-10.3737
頑	-10.3738
偕	-10.374
催	-10.3741
乎曰	-10.3742
水出	-10.3746
嘯	-10.3751
曰子	-10.3751
甘露	-10.3753
甘草	-10.3756
拍	-10.3763
者何	-10.3771
是月	-10.3773
日中	-10.3785
以手	-10.3787
其志	-10.3787
者即	-10.3788
舛	-10.379
必先	-10.3797
無此	-10.3798
死生	-10.3803
題云	-10.3805
即此	-10.3806
朶	-10.3808
曰大	-10.3812
本紀	-10.3814
功名	-10.3826
神農	-10.3832
粹	-10.3833
鎖	-10.3834
不知所	-10.3834
之類是也	-10.3835
王荆公	-10.3854
而入	-10.3855
吿	-10.3856
昔人	-10.3857
不利	-10.3865
生子	-10.3873
不一	-10.3876
矣又	-10.3881
麓	-10.3882
諸王	-10.3882
淪	-10.3886
跳	-10.3887
死而	-10.3889
小者	-10.389
六朝	-10.3896
必不	-10.3896
天命	-10.3898
李白	-10.3902
疇	-10.3902
無一	-10.3903
水火	-10.3903
大喜	-10.3905
所宜	-10.3909
脯	-10.391
皂	-10.3911
流水	-10.3913
嘲	-10.3914
十人	-10.3914
此又	-10.3915
而民	-10.3924
鋭	-10.3931
胃	-10.3931
不顧	-10.3932
人謂	-10.3933
先君	-10.3936
睦	-10.3955
妬	-10.3958
所生	-10.396
怯	-10.396
裙	-10.3961
蠱	-10.3961
戌	-10.3962
故不	-10.3965
未得	-10.3974
之始	-10.3974
好事者	-10.3978
頼	-10.3982
逺近	-10.3982
攘	-10.3987
恠	-10.3989
之失	-10.3993
齡	-10.3996
十七年	-10.3998
言者	-10.4001
孝子	-10.4003
剥	-10.4003
糖	-10.4005
篋	-10.4005
沐	-10.4007
挈	-10.4009
二兩	-10.4012
杭州	-10.4014
拆	-10.4017
許之	-10.4022
乃是	-10.403
藴	-10.4032
人事	-10.4032
白馬	-10.4034
武后	-10.4037
而立	-10.4038
棋	-10.4039
非是	-10.405
犢	-10.4058
其功	-10.4062
言也	-10.4063
癸	-10.4066
也唐	-10.4066
一家	-10.4071
出處	-10.4073
漳	-10.4078
奠	-10.4082
佚	-10.4082
坦	-10.4082
苔	-10.4084
其君	-10.4085
恱	-10.4085
饋	-10.4086
橫	-10.4087
千年	-10.4094
千萬	-10.41
詩書	-10.4105
摧	-10.4108
自為	-10.4111
舘	-10.4113
大事	-10.4113
升菴	-10.4114
陰陽	-10.4124
其罪	-10.4124
三卷	-10.4132
思之	-10.4133
遏	-10.4137
慘	-10.4138
國有	-10.414
人者	-10.4144
子産	-10.4145
非常	-10.4149
誼	-10.4151
㫁	-10.4156
紛紛	-10.4157
沈約	-10.4158
熬	-10.416
不能自	-10.416
馴	-10.416
其所以	-10.4161
而非	-10.4165
不疑	-10.4168
譌	-10.4169
所稱	-10.4169
去其	-10.4174
諸將	-10.4175
千古	-10.418
寔	-10.4183
其數	-10.4183
十餘年	-10.4183
狀如	-10.4184
寘	-10.4187
洒	-10.4188
縣有	-10.4189
舂	-10.419
矣今	-10.4195
荔枝	-10.4204
皆用	-10.4204
宸	-10.4207
從而	-10.4207
彛	-10.4208
闊	-10.4213
其辭	-10.4216
京兆	-10.4219
複	-10.423
搆	-10.4232
陽氣	-10.4233
謔	-10.4236
諒	-10.4239
侍從	-10.4241
詹	-10.4241
上疏	-10.4246
皆在	-10.4254
釀	-10.4255
入于	-10.426
不樂	-10.4263
人謂之	-10.4263
卞	-10.4265
通典	-10.4273
視其	-10.4275
而退	-10.4276
扈	-10.4279
之神	-10.4281
鈍	-10.4282
軫	-10.4284
斃	-10.4289
搖	-10.4289
三寸	-10.4297
青州	-10.4298
韓魏公	-10.43
求其	-10.4302
舉人	-10.4303
寡人	-10.4308
冗	-10.431
輯	-10.4312
朋友	-10.4319
張公	-10.4323
藏之	-10.4325
四曰	-10.4327
不是	-10.4332
刻石	-10.4336
瑕	-10.4338
僭	-10.4338
灘	-10.4343
所以為	-10.4344
可知矣	-10.4348
鄉里	-10.4349
在外	-10.435
語也	-10.4354
榦	-10.4358
相近	-10.4359
飬	-10.4363
按此	-10.4365
君子之	-10.4367
而上	-10.437
庶幾	-10.437
丈人	-10.4376
之弊	-10.4377
兵部	-10.4379
二日	-10.4379
渴	-10.4386
貲	-10.4387
叶	-10.4387
奥	-10.4388
琳	-10.4388
盂	-10.4389
晉人	-10.4389
糊	-10.439
以金	-10.4409
庶人	-10.4409
搗	-10.441
瑣	-10.4411
然其	-10.4411
絶句	-10.4414
訊	-10.4417
玊	-10.4419
此二	-10.442
䜟	-10.4421
一千	-10.4431
噫	-10.4441
文正	-10.4443
嘗有	-10.4445
擊之	-10.4451
可觀	-10.4451
□□	-10.4463
欠	-10.4463
墟	-10.4464
苛	-10.4466
其色	-10.4471
者又	-10.4473
寒食	-10.448
親戚	-10.4481
髙下	-10.4482
涕	-10.4483
而自	-10.4488
臣下	-10.4493
疲	-10.4496
御史大夫	-10.4497
者或	-10.4497
豈能	-10.4503
七百	-10.4508
暈	-10.4513
蹙	-10.4517
死於	-10.4519
挂	-10.4519
唐太宗	-10.4519
建安	-10.452
所書	-10.4521
脊	-10.4522
名臣	-10.4528
矣此	-10.453
問其	-10.4538
良久	-10.4539
挑	-10.4541
蠲	-10.4541
論之	-10.4542
携	-10.4547
乍	-10.4549
丹陽	-10.455
可用	-10.4552
四百	-10.4558
壬	-10.4561
本末	-10.4569
毛詩	-10.4572
楷	-10.4573
駢	-10.4574
北海	-10.4576
長短	-10.4578
曰若	-10.4579
同年	-10.458
生者	-10.4585
帝曰	-10.4587
蔵	-10.4595
昉	-10.4595
彪	-10.46
羡	-10.46
為政	-10.4601
釋之	-10.4603
戀	-10.4604
其詞	-10.4606
上言	-10.4611
駿	-10.4614
老杜	-10.462
使其	-10.4623
迨	-10.4625
属	-10.4626
屍	-10.4628
於前	-10.4629
本無	-10.464
州郡	-10.4643
歙	-10.4645
件	-10.4647
無可	-10.4648
如此則	-10.4649
檻	-10.4649
栽	-10.4651
虢	-10.4655
詞云	-10.4657
系	-10.466
有異	-10.4661
相對	-10.4662
蹄	-10.4663
昭王	-10.4674
宥	-10.4674
藁	-10.4677
一斗	-10.4677
赫	-10.4678
吁	-10.4681
亦多	-10.4688
五分	-10.4696
鐸	-10.4699
瘦	-10.4703
古詩	-10.4703
十五日	-10.4704
灾	-10.4704
者惟	-10.4705
中間	-10.4707
也非	-10.4711
何足	-10.4712
户部	-10.4717
西湖	-10.4719
輔臣	-10.4719
出于	-10.4724
如今	-10.4725
其時	-10.4725
韓信	-10.4725
不下	-10.4726
耿	-10.4728
之本	-10.4729
鵞	-10.4735
賦曰	-10.4736
管子	-10.4739
鄉人	-10.4743
五帝	-10.4752
甥	-10.4757
蟠	-10.4758
俠	-10.4762
云此	-10.4765
校尉	-10.4766
泌	-10.4767
上元	-10.4779
内有	-10.478
之美	-10.4784
龔	-10.4786
曰卿	-10.4788
之詞	-10.4789
熙寧	-10.479
也漢	-10.4795
梟	-10.481
冡	-10.4811
嘗為	-10.4812
怡	-10.4812
炊	-10.4812
成功	-10.4812
若有	-10.4813
而天下	-10.4815
鳬	-10.4816
非其	-10.482
秦始皇	-10.4821
萬民	-10.4826
書畫	-10.4827
勻	-10.4834
窻	-10.4835
之官	-10.4836
王孫	-10.4837
呵	-10.484
東方朔	-10.4841
帙	-10.4841
据	-10.4843
成化	-10.4845
喧	-10.4845
行者	-10.4845
所欲	-10.4851
項羽	-10.4853
琢	-10.486
竟不	-10.4861
江湖	-10.4861
事而	-10.4863
龍門	-10.4864
杞	-10.4867
螭	-10.4867
雋	-10.4869
入海	-10.487
曰夫	-10.4873
之音	-10.4874
何謂	-10.4875
太傅	-10.4877
手足	-10.4881
不得已	-10.4887
淵明	-10.489
湯武	-10.489
撓	-10.4891
拾遺	-10.4898
名為	-10.4899
白玉	-10.4909
唐虞	-10.4909
推之	-10.4911
宋史	-10.4911
陽縣	-10.4919
朝士	-10.4919
勵	-10.492
寮	-10.492
釘	-10.4924
邕	-10.4924
這	-10.4925
搏	-10.4926
為末	-10.4926
不安	-10.4928
襟	-10.4928
者是	-10.4933
諸儒	-10.4934
宫室	-10.4936
義理	-10.494
於地	-10.494
而已矣	-10.4942
療	-10.4943
椎	-10.4947
沖	-10.4947
厠	-10.4948
皇太子	-10.4948
周易	-10.4956
之風	-10.4961
先主	-10.4967
贓	-10.497
余謂	-10.497
三司	-10.4971
迭	-10.4974
麤	-10.4976
之號	-10.498
題詩	-10.4982
貧賤	-10.4988
難得	-10.4992
不生	-10.4997
十斤	-10.5002
咽	-10.5004
未嘗不	-10.5008
玄	-10.5008
成帝	-10.5009
齊人	-10.5013
之計	-10.5013
曹操	-10.5014
也言	-10.5014
予嘗	-10.5015
城南	-10.5021
施行	-10.5022
日夜	-10.5023
曰公	-10.5024
芍藥	-10.5026
庠	-10.5027
樸	-10.5029
巵	-10.5029
釋氏	-10.5031
遶	-10.5031
稿	-10.5032
礙	-10.5032
之實	-10.5036
之末	-10.5039
祭酒	-10.5049
始有	-10.5049
夜半	-10.505
中人	-10.5052
道徳	-10.5052
沾	-10.5056
摶	-10.5057
閻	-10.5059
伊川	-10.5063
聨	-10.5065
近日	-10.5066
此時	-10.5066
逸少	-10.5066
飲之	-10.5074
嫗	-10.5077
李斯	-10.5077
殿前	-10.5077
當世	-10.5085
鐫	-10.5085
相承	-10.5086
弃	-10.5086
主之	-10.5087
車馬	-10.5087
㨗	-10.5089
擔	-10.5091
者所以	-10.5091
釵	-10.5092
大怒	-10.5092
而又	-10.5093
陜	-10.5095
縱横	-10.5097
棠	-10.5104
店	-10.5106
如故	-10.5109
州人	-10.5114
華山	-10.5114
黄鍾	-10.5115
也予	-10.5117
扣	-10.5117
耐	-10.5119
因其	-10.5119
漢武帝	-10.512
八百	-10.5121
酣	-10.5126
少卿	-10.5134
昭公	-10.5134
人不	-10.5135
甄	-10.5136
郁	-10.5136
酥	-10.5139
帷	-10.5139
璋	-10.5141
轍	-10.5141
狎	-10.5141
周書	-10.5145
淳化	-10.5156
司馬遷	-10.5157
嘉祐	-10.5158
鞍	-10.5159
九卿	-10.516
乃云	-10.5162
形如	-10.5166
顏	-10.5166
九日	-10.5166
嫩	-10.5166
綰	-10.5167
經史	-10.5169
昌黎	-10.5169
大人	-10.517
窟	-10.5174
購	-10.5175
一石	-10.5176
後來	-10.5177
陌	-10.5179
列傳	-10.5188
黔	-10.5189
太一	-10.5191
雲南	-10.5192
一寸	-10.5195
區區	-10.5196
故名	-10.5198
姊	-10.5199
訾	-10.5202
不稱	-10.5208
之使	-10.5212
正義	-10.5213
甜	-10.5215
山之	-10.5218
諸葛	-10.5222
楮	-10.5222
之處	-10.5224
譙	-10.5226
鴟	-10.523
鶻	-10.523
英宗	-10.523
北人	-10.5232
釋文	-10.5245
以是	-10.5246
終始	-10.5256
千葉	-10.5259
芋	-10.5262
蕭何	-10.5269
疑其	-10.527
子厚	-10.5271
都尉	-10.5271
石刻	-10.5278
稼	-10.5278
噐	-10.528
暨	-10.5282
安石	-10.5284
祕	-10.5285
涇	-10.5285
色如	-10.5286
將以	-10.5288
單于	-10.5291
文忠	-10.5294
二卷	-10.5296
句云	-10.5302
文宗	-10.5307
小字	-10.5308
以詩	-10.5309
滛	-10.531
逋	-10.5312
衣食	-10.5314
燧	-10.5315
此説	-10.5324
四面	-10.5328
無益	-10.5329
誡	-10.5333
隐	-10.5335
歷	-10.5338
讎	-10.5338
繭	-10.5339
山西	-10.5341
夘	-10.5341
以至	-10.5344
之亂	-10.5345
去之	-10.5358
亦當	-10.5361
欲其	-10.5363
韓愈	-10.5363
翅	-10.5364
轡	-10.537
漢志	-10.5371
萬厯	-10.538
翰林院	-10.5382
文集	-10.5385
正統	-10.5385
貴妃	-10.5388
博學	-10.5394
笞	-10.5394
之甚	-10.5395
蛤	-10.5399
灑	-10.5401
但以	-10.5402
之門	-10.5415
浙江	-10.5417
訂	-10.542
則其	-10.5426
即以	-10.5428
足矣	-10.5429
言曰	-10.5432
其能	-10.5432
無功	-10.5435
十八年	-10.5443
至矣	-10.5449
聯	-10.5449
莫如	-10.5449
峭	-10.545
鯉	-10.5451
蓮花	-10.5453
祇	-10.5456
嚮	-10.5456
也故曰	-10.5458
梧	-10.5459
而知	-10.5465
於世	-10.5467
嶺南	-10.5468
桀紂	-10.5477
柑	-10.5479
鉅	-10.5481
歇	-10.5481
電	-10.5482
弛	-10.5482
箴	-10.5483
變而	-10.5484
孕	-10.5486
之東	-10.549
昔者	-10.5492
将軍	-10.5493
辜	-10.5497
一尺	-10.55
魏晉	-10.5501
不變	-10.5503
孟子曰	-10.5506
劑	-10.5507
道路	-10.5509
賄	-10.551
摭	-10.551
若夫	-10.5512
為上	-10.5515
孺	-10.5518
文士	-10.5519
一枝	-10.552
迄	-10.552
張氏	-10.5522
和尚	-10.5523
楚王	-10.5524
在焉	-10.5525
又如	-10.5526
敞	-10.5534
多用	-10.5536
則民	-10.5537
嬌	-10.5537
所引	-10.5538
郭璞	-10.554
薊	-10.5542
畱	-10.5542
邈	-10.5543
大理	-10.5544
五錢	-10.5547
此非	-10.5549
甸	-10.5564
粤	-10.5565
相應	-10.5567
讀為	-10.5567
濵	-10.5568
嬪	-10.557
弁	-10.5572
羲	-10.558
惠王	-10.5583
内侍	-10.5584
其理	-10.5587
組	-10.5593
蔚	-10.5595
不得不	-10.5601
愛其	-10.5607
便是	-10.5608
群	-10.5609
行人	-10.5618
靖康	-10.562
賁	-10.5621
識之	-10.5625
箱	-10.5626
蠅	-10.5631
而欲	-10.5632
朱文公	-10.5641
尤為	-10.5642
嶠	-10.565
髙麗	-10.5652
少師	-10.5653
葦	-10.5654
冥	-10.5658
自後	-10.5661
音義	-10.5662
之西	-10.5664
歌曰	-10.5667
楚辭	-10.5668
獻之	-10.5672
數月	-10.5677
磁	-10.5677
宣宗	-10.568
睿	-10.5681
籬	-10.5683
現	-10.5684
栖	-10.5688
奄	-10.5689
臯陶	-10.569
氊	-10.569
蘇州	-10.5691
學問	-10.5699
七十二	-10.5709
脆	-10.571
棟	-10.5712
六日	-10.5713
翳	-10.5714
巡撫	-10.5715
三品	-10.5717
何事	-10.5718
知者	-10.5721
嘗以	-10.5725
吏部尚書	-10.5726
之謂也	-10.5727
前有	-10.5734
史官	-10.5739
不取	-10.5745
有天下	-10.5748
九江	-10.5748
不曉	-10.575
楚人	-10.575
文曰	-10.5751
異之	-10.5758
不正	-10.5759
又名	-10.5759
徼	-10.5768
可以為	-10.5769
後魏	-10.577
文書	-10.5771
風吹	-10.5771
莒	-10.5772
汎	-10.5774
鸚鵡	-10.5776
靑	-10.5777
楹	-10.5778
何時	-10.5778
者是也	-10.5779
人言	-10.5785
造化	-10.5797
之異	-10.5797
朝夕	-10.5797
沔	-10.5799
宰臣	-10.5799
於民	-10.5802
豎	-10.5804
欒	-10.5805
存亡	-10.5805
語云	-10.5806
金玉	-10.5807
豚	-10.5808
地方	-10.5809
遣人	-10.5823
纓	-10.5826
鎬	-10.583
登第	-10.5832
羨	-10.5838
事君	-10.5847
於道	-10.5848
蝶	-10.5857
益州	-10.5859
亦名	-10.5859
再三	-10.5863
尚存	-10.5864
受之	-10.5865
晋	-10.5866
亦不能	-10.5868
三兩	-10.5868
無所不	-10.587
詔書	-10.5876
一身	-10.5876
乆之	-10.5878
地理志	-10.588
則必	-10.5881
憲宗	-10.5882
治國	-10.5883
程子	-10.5887
所未	-10.5893
一見	-10.5894
清明	-10.5895
袋	-10.5895
凱	-10.5897
牖	-10.5897
近臣	-10.5903
歸之	-10.5903
平王	-10.5903
於朝	-10.5904
為善	-10.5914
鉞	-10.5922
唐宋	-10.5922
嫡	-10.5924
瞽	-10.5925
諸書	-10.5925
无	-10.5925
鬢	-10.5928
信之	-10.593
易曰	-10.5932
官至	-10.594
莫敢	-10.5946
室中	-10.5948
帝紀	-10.5948
牡	-10.5952
丕	-10.5955
茹	-10.5955
寒暑	-10.5969
過於	-10.5971
八卦	-10.5976
和之	-10.5982
提舉	-10.5983
奈	-10.5983
溥	-10.5984
筒	-10.5984
哥	-10.5987
其語	-10.5988
也後	-10.599
翌日	-10.599
平原	-10.6
職事	-10.6003
世宗	-10.6004
顆	-10.6009
鄂	-10.6009
窠	-10.6012
疫	-10.6013
霽	-10.6014
妍	-10.6017
窑	-10.6017
杳	-10.6018
簪	-10.602
乃得	-10.6029
皆然	-10.603
一小	-10.6032
何其	-10.6033
嘆曰	-10.6035
縣南	-10.6036
伯夷	-10.604
庖	-10.6044
曼	-10.6044
參軍	-10.6045
唾	-10.6046
編修	-10.6046
頥	-10.605
渡江	-10.6054
伏羲	-10.6058
嘗見	-10.6063
皆得	-10.6066
硬	-10.6077
牕	-10.6078
撲	-10.608
淮南子	-10.6081
之孫	-10.6083
不求	-10.6083
曰是	-10.6085
之分	-10.6087
乎此	-10.6089
陳氏	-10.6094
彖	-10.6099
皇甫	-10.6101
禎	-10.6107
䑓	-10.6107
唐制	-10.611
一分	-10.6116
士卒	-10.6123
數萬	-10.6125
二千石	-10.6127
蔬	-10.613
諸侯之	-10.6132
賦云	-10.6133
轂	-10.6137
焚香	-10.6141
媒	-10.6144
不惟	-10.6156
堂上	-10.6157
則可	-10.6164
治亂	-10.6165
鉢	-10.6166
夏侯	-10.6166
需	-10.6167
西漢	-10.6171
二十七	-10.6172
給事	-10.6174
之極	-10.618
刑部	-10.6183
疑之	-10.6185
土地	-10.6186
蛟	-10.6191
二事	-10.6191
劣	-10.6195
弋	-10.6196
攀	-10.6198
奎	-10.62
者衆	-10.6206
已下	-10.6215
誤以	-10.622
襄王	-10.6222
此句	-10.6223
其勢	-10.6223
懇	-10.6231
異也	-10.6239
北斗	-10.6245
《	-10.6248
得以	-10.6249
太上	-10.6255
軀	-10.6259
是何	-10.6259
晚年	-10.626
楓	-10.6261
仆	-10.6262
平日	-10.6262
御書	-10.6273
一首	-10.6274
治天下	-10.6279
隻	-10.6282
陛	-10.6283
粲	-10.6285
不獲	-10.6286
亦何	-10.6286
南渡	-10.6287
蚌	-10.6287
而求	-10.6288
熾	-10.6288
首尾	-10.6289
徐州	-10.629
㢘	-10.629
太陽	-10.6298
存者	-10.6299
餓	-10.6299
教之	-10.6315
員外	-10.6317
歆	-10.6317
為名	-10.6318
麵	-10.6319
韜	-10.6319
穎	-10.6321
得此	-10.6321
安知	-10.6323
聳	-10.6323
奉使	-10.6324
樽	-10.6325
繒	-10.6328
未足	-10.6329
瓠	-10.633
王曰	-10.6331
六七	-10.6341
師古	-10.6342
瓣	-10.6348
拌	-10.6348
自得	-10.635
有小	-10.635
越王	-10.6351
自號	-10.6355
𥘉	-10.6355
圎	-10.6356
反覆	-10.6358
縣北	-10.6364
年號	-10.637
使君	-10.6371
紹聖	-10.6372
本傳	-10.6376
忠信	-10.6378
沙門	-10.6379
骸	-10.6381
肌	-10.6382
以養	-10.6385
予謂	-10.6385
五言	-10.6386
監司	-10.639
而起	-10.6391
所傳	-10.6393
之衆	-10.6397
銘曰	-10.6399
少許	-10.6408
書法	-10.6409
江左	-10.641
牘	-10.6411
萬餘	-10.6412
七八	-10.6414
之力	-10.6414
蒿	-10.6417
袒	-10.6417
澁	-10.6418
塟	-10.6418
是則	-10.6418
貞元	-10.6419
渙	-10.642
之徳	-10.6421
未易	-10.6422
事者	-10.6424
官吏	-10.6427
礬	-10.6427
鄭康成	-10.6428
青衣	-10.6429
皓	-10.6438
待詔	-10.644
永嘉	-10.6441
無恙	-10.6447
笋	-10.6448
入朝	-10.6452
尚未	-10.6453
門生	-10.6454
檀弓	-10.6455
南唐	-10.6464
萬年	-10.6465
無道	-10.6468
此人	-10.6478
郡國	-10.6478
鞏	-10.6478
去皮	-10.6479
遯	-10.6482
此等	-10.6485
廷尉	-10.6487
子思	-10.6489
衆人	-10.6494
志云	-10.6501
忽有	-10.6507
石經	-10.6507
琰	-10.6508
轅	-10.6513
懶	-10.6514
控	-10.6515
車駕	-10.6515
而弗	-10.6518
夏至	-10.6518
天文	-10.653
𦂳	-10.6542
十九年	-10.6543
廼	-10.6545
羸	-10.6546
褚	-10.6547
萃	-10.6547
廓	-10.6548
菩薩	-10.6548
工部	-10.6549
唇	-10.6549
酈	-10.6551
不去	-10.6553
置酒	-10.6556
大明	-10.6559
未甞	-10.6564
相繼	-10.6564
治平	-10.6566
近代	-10.6567
蕉	-10.6571
鄭𤣥	-10.6575
躁	-10.6578
一笑	-10.6579
啄	-10.658
隘	-10.658
捉	-10.6581
郤	-10.6581
虬	-10.6582
而終	-10.6582
桞	-10.6583
二女	-10.6585
甲乙	-10.6588
所知	-10.6591
賞罰	-10.6593
蔡京	-10.6595
之位	-10.6597
合於	-10.6599
則天	-10.6601
大業	-10.6602
輟	-10.6602
不仁	-10.6604
大觀	-10.6605
粘	-10.6609
緘	-10.661
中書令	-10.661
飭	-10.6613
斫	-10.6614
泗	-10.6614
羔	-10.6615
好學	-10.6623
始也	-10.6629
木為	-10.6632
明白	-10.6633
臍	-10.6639
緝	-10.6639
觀國案	-10.6643
簒	-10.6643
煥	-10.6643
年七十	-10.6643
銳	-10.6643
觚	-10.6643
鞠	-10.6644
王母	-10.6648
同姓	-10.6653
是年	-10.6659
有云	-10.6663
承㫖	-10.6666
中央	-10.6669
佑	-10.6673
紐	-10.6673
枝葉	-10.6673
璞	-10.6676
董仲舒	-10.6678
之役	-10.6679
訝	-10.6682
分别	-10.6686
子雲	-10.6692
更有	-10.6696
絕	-10.6697
盎	-10.6703
頗有	-10.6708
闌	-10.6708
藏書	-10.6708
馭	-10.671
臻	-10.6711
欣然	-10.6713
黄門	-10.6714
入水	-10.6714
些	-10.6716
也是故	-10.6726
其性	-10.6727
骨肉	-10.6728
入於	-10.673
碗	-10.6735
寨	-10.6736
者不可	-10.6736
麄	-10.6737
凋	-10.6742
夢中	-10.6752
此論	-10.6753
三軍	-10.6755
嘗言	-10.6757
五曰	-10.6767
后稷	-10.677
凡三	-10.6771
中書舍人	-10.6778
其詩	-10.678
道家	-10.6784
其氣	-10.6791
居之	-10.6792
御覽	-10.6794
肖	-10.6796
楊氏	-10.68
用心	-10.6801
紳	-10.6803
甑	-10.6804
冐	-10.6807
行事	-10.681
劵	-10.6812
拓	-10.6812
先生曰	-10.6813
聲也	-10.6813
海上	-10.6814
不著	-10.6822
郡王	-10.6832
猥	-10.6838
名士	-10.6838
鼈	-10.6838
腥	-10.684
胄	-10.684
瞿	-10.6841
賢人	-10.6841
問其故	-10.6843
二王	-10.6848
投之	-10.6851
叩頭	-10.6852
所當	-10.6857
教授	-10.6866
城西	-10.6867
之政	-10.6872
舎人	-10.6873
遞	-10.6874
徇	-10.6875
昬	-10.6875
皆非	-10.6876
父老	-10.6877
梳	-10.6878
智者	-10.6883
大學	-10.6885
蕙	-10.689
金人	-10.6892
第七	-10.69
不逮	-10.69
得道	-10.6903
慚	-10.6906
分為	-10.6907
五更	-10.6907
蓼	-10.6908
藪	-10.691
顓頊	-10.6914
其民	-10.6914
自今	-10.6916
孔安國	-10.6916
如玉	-10.6917
者三	-10.6921
當有	-10.6921
參政	-10.6926
者無	-10.693
驥	-10.6937
蚤	-10.6938
無罪	-10.6939
詩文	-10.6944
莊公	-10.6948
茄	-10.6949
盜賊	-10.695
建炎	-10.695
二千	-10.6954
三王	-10.6955
者雖	-10.6968
其首	-10.6968
羈	-10.697
彞	-10.6974
詎	-10.6975
詩賦	-10.6978
以進	-10.6989
者葢	-10.699
禮部尚書	-10.6993
為君	-10.6996
寐	-10.7004
幻	-10.7005
甌	-10.7006
一節	-10.7007
翦	-10.7007
漂	-10.7008
之南	-10.701
今年	-10.7012
十分	-10.7013
先公	-10.7014
鴉	-10.7015
文子	-10.7023
鉉	-10.7029
伶	-10.7031
屈原	-10.7031
僊	-10.7032
㓂	-10.7036
搨	-10.7037
掲	-10.704
常以	-10.7041
髯	-10.7042
一片	-10.7043
人亦	-10.7048
御史中丞	-10.7055
不須	-10.7062
復為	-10.7064
惟有	-10.7068
得名	-10.7069
萬歴	-10.707
牝	-10.7073
派	-10.7073
廂	-10.7075
槖	-10.7075
庵	-10.7077
登科	-10.7079
知人	-10.7082
生死	-10.7087
同列	-10.7087
亦猶	-10.709
故云	-10.7091
白石	-10.71
狩	-10.7103
杜甫	-10.7103
寺僧	-10.7106
餐	-10.7106
景帝	-10.7108
殁	-10.7109
而為之	-10.7109
觀音	-10.7111
為是	-10.7113
轉運使	-10.7113
之節	-10.712
仁者	-10.7122
張衡	-10.7122
百世	-10.7123
士之	-10.7125
與此	-10.7127
僖公	-10.7127
三萬	-10.7135
痩	-10.7137
薰	-10.7138
因而	-10.714
無常	-10.714
頰	-10.7141
蝗	-10.7142
退而	-10.7143
者蓋	-10.7145
二者	-10.7146
嘗謂	-10.7152
為小	-10.7159
箕子	-10.7165
屏風	-10.717
涵	-10.7171
也吾	-10.7171
穰	-10.7172
奏請	-10.7172
吝	-10.7173
杵	-10.7174
曇	-10.7176
欲得	-10.7176
猶言	-10.7177
熏	-10.718
不喜	-10.7184
宫殿	-10.719
生而	-10.7191
本於	-10.7196
空中	-10.72
閨	-10.7202
大率	-10.7205
何物	-10.7207
齎	-10.7207
僣	-10.7207
不類	-10.7208
不義	-10.7211
䖏	-10.7212
時已	-10.7214
弗能	-10.7216
可食	-10.7216
可惜	-10.7217
氣象	-10.7225
小篆	-10.7225
一嵗	-10.7227
其門	-10.7233
一生	-10.7233
必欲	-10.7234
種之	-10.7238
焚之	-10.7241
昻	-10.7243
艶	-10.7246
人或	-10.7247
塜	-10.7248
三十里	-10.7249
皇祐	-10.7251
孝宗	-10.7252
山人	-10.7253
在下	-10.7255
立於	-10.726
而未	-10.7261
至正	-10.7262
之要	-10.7266
世子	-10.7271
第六	-10.7272
牓	-10.7274
悶	-10.7277
贄	-10.7277
㡌	-10.7278
梯	-10.7279
於後	-10.728
漲	-10.7283
迺	-10.7283
時為	-10.7283
蓬萊	-10.7284
事不	-10.7286
賜之	-10.7287
一章	-10.7291
不畏	-10.7292
三省	-10.7292
以文	-10.7296
漢之	-10.7297
雖然	-10.7301
珂	-10.7307
菱	-10.7308
焙	-10.731
其情	-10.731
拊	-10.731
璫	-10.7312
脅	-10.7313
百二十	-10.7319
洪範	-10.732
天竺	-10.7326
字也	-10.7332
而巳	-10.7335
友人	-10.7336
所聞	-10.734
幽州	-10.7341
夸	-10.7342
不平	-10.7342
因此	-10.7343
自知	-10.7343
予按	-10.7348
八九	-10.7348
不以為	-10.7351
護	-10.7352
主事	-10.7354
殊不知	-10.7359
出門	-10.736
豈得	-10.7366
官制	-10.7368
乃可	-10.7374
志曰	-10.7374
之任	-10.7378
其體	-10.7385
隷	-10.7385
六百	-10.7387
離騷	-10.7388
草堂	-10.7391
聞見	-10.7391
數里	-10.7396
者多矣	-10.7398
如意	-10.7398
能知	-10.7398
太僕	-10.7403
所有	-10.7404
諸司	-10.7412
臼	-10.7412
忘其	-10.7413
竦	-10.7416
翹	-10.7417
媪	-10.7418
猗	-10.7419
不經	-10.7421
緡	-10.7422
穆公	-10.7424
曲江	-10.743
亦謂之	-10.7431
遼東	-10.7434
萬嵗	-10.7438
城縣	-10.7441
其神	-10.7441
百家	-10.7443
一體	-10.7443
養生	-10.7448
大驚	-10.7449
為天下	-10.7449
公言	-10.7449
宗伯	-10.7455
長子	-10.7456
晒	-10.7458
萬一	-10.7458
九百	-10.7468
廣州	-10.7471
汝南	-10.7473
五尺	-10.7473
不傳	-10.7474
筯	-10.7479
詔曰	-10.748
中宗	-10.7482
奏曰	-10.7483
以俟	-10.7483
一朝	-10.7484
炳	-10.7487
知縣	-10.7493
少陵	-10.7495
猶可	-10.7502
異於	-10.7503
侃	-10.7512
所由	-10.7514
修撰	-10.7516
以来	-10.752
烝	-10.7522
鎻	-10.7522
憾	-10.7524
為我	-10.7526
之女	-10.7532
千秋	-10.7535
題曰	-10.7537
秋風	-10.7542
從此	-10.7547
録云	-10.7548
籀	-10.7555
悍	-10.7557
繼之	-10.7558
觀者	-10.756
闈	-10.756
贅	-10.756
衾	-10.756
郷	-10.7561
邯鄲	-10.7563
水晶	-10.7564
在天	-10.7565
五品	-10.7566
宇文	-10.7569
南宫	-10.757
八尺	-10.757
意也	-10.7572
介甫	-10.7573
示之	-10.7578
其制	-10.758
記之	-10.7581
未敢	-10.7587
燃	-10.759
髓	-10.7592
眩	-10.7594
瑾	-10.7598
懋	-10.7598
黄河	-10.7604
無足	-10.7609
漢時	-10.7612
每日	-10.7615
而實	-10.7619
至大	-10.762
損益	-10.7626
曩	-10.763
卻	-10.763
不得其	-10.763
瘞	-10.7632
乃止	-10.7632
逞	-10.7632
証	-10.7633
與其	-10.7637
家語	-10.7649
一行	-10.7651
天寶	-10.7652
之義也	-10.7662
產	-10.7666
謡	-10.7666
難以	-10.7667
監察御史	-10.7668
以供	-10.7668
瘠	-10.7668
殯	-10.7669
艷	-10.767
六國	-10.767
太𤣥	-10.7672
旺	-10.7672
猶在	-10.7672
慶厯	-10.7673
光明	-10.7674
一時之	-10.7683
不爲	-10.7685
京城	-10.7688
稽首	-10.7692
有言	-10.7693
歌舞	-10.7693
執事	-10.7694
所至	-10.7696
廩	-10.7697
一段	-10.77
稚	-10.7704
嬴	-10.7708
五千	-10.7709
刑罰	-10.771
嵗月	-10.7714
僉	-10.7716
不加	-10.7718
君王	-10.7725
斵	-10.7729
明道	-10.773
也因	-10.7735
吸	-10.7736
千人	-10.7737
右丞	-10.7738
逵	-10.7739
瓢	-10.7739
東門	-10.774
沆	-10.7741
瘴	-10.7741
醮	-10.7741
隕	-10.7741
出身	-10.7747
待之	-10.775
假借	-10.7751
有竒	-10.7753
英雄	-10.7756
仕宦	-10.7759
諦	-10.7763
一代	-10.7765
無遺	-10.7768
清河	-10.7769
所及	-10.7771
崇寧	-10.7771
經傳	-10.7772
刷	-10.7772
拯	-10.7772
櫻桃	-10.7772
潁川	-10.7774
苐	-10.7775
諤	-10.7777
汶	-10.7778
駮	-10.7778
餳	-10.7781
不可曉	-10.7782
乎其	-10.7786
地而	-10.7789
聽之	-10.7797
始得	-10.7802
久而	-10.7804
摯	-10.7808
殃	-10.7809
怕	-10.7811
彭城	-10.7811
概	-10.7812
蒜	-10.7813
糓	-10.7815
之北	-10.7817
尋常	-10.7821
庚子	-10.7822
劉歆	-10.7823
文昌	-10.7824
用其	-10.7833
匱	-10.7839
撮	-10.7843
販	-10.7843
圏	-10.7844
婦女	-10.7845
鷗	-10.7846
堦	-10.7849
兀	-10.785
鯀	-10.785
蓍	-10.7856
唐詩	-10.7859
三百六十	-10.786
而用之	-10.7863
禮也	-10.7863
臨安	-10.7866
形似	-10.7867
五星	-10.7869
不作	-10.7873
聞者	-10.7875
之害	-10.7876
后妃	-10.7877
驗之	-10.7877
以相	-10.7877
滇	-10.7881
曝	-10.7882
扉	-10.7882
之長	-10.7888
倩	-10.7888
東京	-10.7892
四五	-10.7892
吕氏春秋	-10.7892
幾何	-10.7895
内史	-10.7897
髙帝	-10.7902
或者	-10.7908
吳王	-10.7911
孫權	-10.7912
鹵簿	-10.7914
李太白	-10.7915
渇	-10.792
蟄	-10.7923
郝	-10.7924
殊不	-10.7924
景公	-10.793
之謀	-10.7931
二萬	-10.7932
曹公	-10.7934
與夫	-10.7936
始知	-10.7937
受其	-10.7939
哈	-10.7953
古書	-10.7954
飼	-10.7955
經云	-10.7956
果有	-10.7957
個	-10.7957
一大	-10.7959
其位	-10.7959
縳	-10.796
豁	-10.796
笠	-10.7962
墨子	-10.7964
海中	-10.7966
吳越	-10.7967
加以	-10.7967
庚申	-10.7969
之别	-10.797
守之	-10.7974
責之	-10.7974
形容	-10.7978
順治	-10.7983
忽見	-10.7985
可疑	-10.7986
人才	-10.7989
常有	-10.7989
何哉	-10.799
愍	-10.799
始終	-10.7991
鞋	-10.7995
滎陽	-10.7998
漢王	-10.8002
數也	-10.8009
軍中	-10.8014
歸於	-10.8015
司農	-10.8017
典故	-10.8018
蕚	-10.802
蛾	-10.8021
可不	-10.8022
性命	-10.8024
晉侯	-10.8027
薫	-10.8027
缸	-10.8028
自唐	-10.8028
郎君	-10.8028
乃謂	-10.8031
黄州	-10.8032
二分	-10.8033
鶉	-10.8034
至元	-10.8036
郊祀	-10.8036
仞	-10.8037
劄	-10.804
非一	-10.8041
謹按	-10.8043
經筵	-10.8043
三代之	-10.8056
後為	-10.8056
後生	-10.806
咸陽	-10.8061
不逺	-10.8063
一品	-10.8064
忠義	-10.8064
姻	-10.8065
梢	-10.8065
而致	-10.8066
鄭公	-10.8066
司馬温公	-10.8068
嵌	-10.8068
雩	-10.807
而易	-10.8072
王安石	-10.8073
字從	-10.8074
槎	-10.8076
􁁜	-10.8081
秘閣	-10.8085
近時	-10.8085
綱目	-10.8087
此即	-10.8092
字下	-10.8093
又東	-10.8095
命之	-10.8096
歴代	-10.8097
夙	-10.81
作文	-10.8102
藕	-10.8103
此一	-10.8103
喙	-10.8106
滓	-10.8106
能為	-10.8106
釁	-10.8107
未免	-10.8109
會稽	-10.8113
在前	-10.8116
氣也	-10.8121
揚子	-10.8122
可使	-10.8125
以歸	-10.8126
甚詳	-10.8127
竹書	-10.813
人無	-10.8137
見于	-10.814
義也	-10.814
掇	-10.8141
何用	-10.8142
紺	-10.8142
呌	-10.8143
無能	-10.8145
為貴	-10.8145
幡	-10.8148
類也	-10.8152
祭之	-10.8153
載之	-10.8154
二十一	-10.816
人能	-10.8166
謂曰	-10.8167
過之	-10.817
北史	-10.8171
蝕	-10.8171
郵	-10.8172
張良	-10.8173
記其	-10.8177
好事	-10.8177
䕃	-10.8178
時事	-10.8178
文靖	-10.8179
不可用	-10.818
知此	-10.8183
力士	-10.8183
堵	-10.8185
冉	-10.8186
燎	-10.8186
一丈	-10.8187
愿	-10.8188
故知	-10.8191
濟南	-10.8191
藝文志	-10.8193
圖書	-10.8193
熈寧	-10.8195
南人	-10.8196
字為	-10.8197
卿大夫	-10.8198
吳興	-10.8198
白日	-10.82
勺	-10.8204
若不	-10.8209
趙氏	-10.8212
擣	-10.8212
駝	-10.8213
亘	-10.8219
楫	-10.8223
説郛卷	-10.8224
訥	-10.8227
二十九	-10.8228
為天	-10.8229
以木	-10.8231
有六	-10.8234
亦能	-10.8235
不厭	-10.8236
同而	-10.8237
漢唐	-10.8238
元氣	-10.8238
青雲	-10.8241
何異	-10.8245
廡	-10.8246
猶存	-10.8246
將相	-10.8248
綃	-10.8252
萬物之	-10.8254
嫉	-10.8256
史館	-10.8259
交趾	-10.8259
甘泉	-10.8259
皆無	-10.826
培	-10.8261
孝文	-10.8262
喜怒	-10.8263
城郭	-10.8267
無知	-10.8268
二十里	-10.8268
帆	-10.8269
哀公	-10.8278
能言	-10.828
湖州	-10.8283
王師	-10.8288
字皆	-10.8292
有詩云	-10.8292
齊侯	-10.8294
莫之	-10.8295
倘	-10.8297
僞	-10.8299
惠公	-10.83
俚	-10.8302
諸國	-10.8303
天台	-10.8305
誅之	-10.8309
數十年	-10.831
何耶	-10.8311
棄之	-10.8311
之妻	-10.8311
天聖	-10.8312
養之	-10.8312
徳宗	-10.8321
以此為	-10.8327
不學	-10.833
鹹	-10.8331
攪	-10.8332
蚊	-10.8334
顒	-10.8334
賑	-10.8335
鞅	-10.8336
諛	-10.8336
款	-10.8337
不拘	-10.834
侍讀	-10.834
三十二	-10.8341
内臣	-10.8342
以正	-10.8346
不起	-10.8347
公事	-10.8351
乃命	-10.8357
也宋	-10.8362
撃	-10.837
揉	-10.8371
琉璃	-10.8371
檢校	-10.8371
鋤	-10.8372
浣	-10.8374
戱	-10.8374
鑰	-10.8378
夕陽	-10.8384
鷺	-10.8385
讀如	-10.8387
縣西	-10.8389
之意也	-10.8391
終於	-10.8391
此篇	-10.8393
矣若	-10.8393
工夫	-10.8399
建武	-10.8401
不少	-10.8406
出其	-10.8408
大風	-10.8409
倭	-10.8411
蒼梧	-10.8412
涓	-10.8413
其親	-10.8413
不滿	-10.8413
詩序	-10.8415
好惡	-10.8415
菽	-10.8416
睢	-10.8422
凡此	-10.8425
福建	-10.8426
八人	-10.8428
教坊	-10.8434
代宗	-10.8438
未嘗有	-10.8441
者自	-10.8442
成公	-10.8442
王制	-10.8443
行而	-10.8443
人以為	-10.8444
五味	-10.8445
芬	-10.8447
呼之	-10.8448
渝	-10.8448
虵	-10.8449
此之謂	-10.8449
覈	-10.845
也昔	-10.8452
侍御	-10.8458
雲中	-10.8463
不可復	-10.8463
五音	-10.8465
二篇	-10.8465
有意	-10.8465
應之	-10.8467
蘄	-10.8469
六人	-10.8469
南郊	-10.8472
宰執	-10.8473
其弟	-10.8474
莫若	-10.848
光禄	-10.8481
親王	-10.8481
一曲	-10.8482
門户	-10.8482
趾	-10.8483
瓘	-10.8488
筆法	-10.8491
曰陛下	-10.8495
韓公	-10.8499
者當	-10.8499
漢儒	-10.8499
試之	-10.8501
也是以	-10.8502
石為	-10.8511
乆矣	-10.8511
為佳	-10.8512
射之	-10.8513
河内	-10.8514
晉公	-10.8514
有神	-10.8514
以獻	-10.8516
王道	-10.8519
琦	-10.8522
亦謂	-10.8524
匀	-10.8525
𢃄	-10.8525
一枚	-10.8526
砌	-10.8529
此所謂	-10.8529
杓	-10.8529
囬	-10.853
豬	-10.8533
不可勝	-10.8533
渥	-10.8536
一書	-10.8537
以聞	-10.8538
吉甫	-10.8543
題名	-10.8548
四十九	-10.855
樞宻	-10.8551
二十二	-10.8551
無聲	-10.8551
變為	-10.8555
於下	-10.8555
一等	-10.8556
三國	-10.8556
野人	-10.856
内府	-10.8563
等語	-10.8564
剔	-10.8564
徃來	-10.8567
小説	-10.8569
優劣	-10.8571
此是	-10.8572
皆曰	-10.8573
隄	-10.8574
秘書	-10.8579
水上	-10.8581
筆記	-10.8582
註云	-10.8585
授之	-10.8589
而進	-10.8598
馨	-10.8601
春夏	-10.8602
文定	-10.8602
乃有	-10.8603
侍講	-10.8604
誚	-10.8604
七言	-10.8604
上聲	-10.8605
惰	-10.8606
脇	-10.8607
灣	-10.8609
之議	-10.861
千五百	-10.861
大義	-10.8614
官職	-10.8618
范文正公	-10.8622
云是	-10.8622
六尺	-10.8624
之賢	-10.8626
舊唐書	-10.8627
俗呼	-10.8633
百人	-10.8635
二十三	-10.8636
理也	-10.864
胷	-10.8641
瓚	-10.8641
匏	-10.8644
於心	-10.8645
二寸	-10.8645
麋	-10.8646
死矣	-10.8646
縑	-10.8647
注謂	-10.8653
請以	-10.8659
殿中	-10.8669
當國	-10.867
太初	-10.867
寗	-10.8681
陳留	-10.8681
唐時	-10.8682
十有二	-10.8684
稟	-10.8686
蘿	-10.8687
劉禹錫	-10.8687
章句	-10.8692
外國	-10.8697
青山	-10.8697
學之	-10.8698
大雅	-10.87
賓客	-10.8701
一度	-10.8703
之舊	-10.8705
有力	-10.8711
官府	-10.8711
縣東	-10.8711
吕氏	-10.8711
趙王	-10.8712
施於	-10.8712
在内	-10.8714
瑜	-10.8716
果然	-10.8716
平地	-10.8716
簇	-10.8718
沂	-10.8724
則不然	-10.8724
廖	-10.8725
都察院	-10.8726
樂也	-10.8728
亦如之	-10.8728
目之	-10.8729
拭	-10.8729
父兄	-10.8729
撤	-10.8729
佗	-10.8729
發明	-10.8729
鴛鴦	-10.8731
有九	-10.8734
知州	-10.8737
開元中	-10.8737
舉進士	-10.874
若以	-10.874
無敢	-10.8741
中使	-10.8741
兩手	-10.8743
一聲	-10.8743
孝武	-10.8748
閤門	-10.875
直言	-10.8751
救之	-10.8753
不減	-10.8755
武陵	-10.8758
推官	-10.8761
天上	-10.8763
褥	-10.8763
雛	-10.8764
惶	-10.8765
繋	-10.8766
奭	-10.8769
經義	-10.8769
即日	-10.8769
二十餘	-10.8772
東風	-10.8774
父之	-10.8774
亳	-10.8784
旬日	-10.8787
無過	-10.8789
臣子	-10.8794
安在	-10.8794
牽牛	-10.8795
詹事	-10.8795
鍼	-10.8797
姑蘇	-10.8799
礪	-10.8802
既至	-10.8803
迪	-10.8804
則非	-10.8805
是知	-10.8807
之業	-10.8807
涸	-10.8808
屨	-10.8809
生平	-10.8809
醖	-10.881
煬帝	-10.8815
上古	-10.8816
雒	-10.8818
大體	-10.8819
殿上	-10.8822
僕謂	-10.8829
尚在	-10.8831
屯田	-10.8833
萬事	-10.8836
不能盡	-10.8836
邠	-10.8839
末年	-10.8843
盲	-10.8844
初無	-10.8845
彘	-10.8846
燔	-10.8847
花開	-10.8847
疾病	-10.8849
洩	-10.885
氐	-10.8852
中和	-10.8853
禮儀	-10.8855
皆謂	-10.8856
康節	-10.8858
當日	-10.8863
名者	-10.8865
始于	-10.8867
先人	-10.8876
書生	-10.888
甚於	-10.888
嬖	-10.8885
抹	-10.8889
迅	-10.889
不避	-10.8896
衣裳	-10.8897
之訛	-10.8912
痰	-10.8921
晟	-10.8925
之治	-10.8926
媿	-10.8926
二十一年	-10.8926
曰爾	-10.8927
丐	-10.8927
捜	-10.8928
羿	-10.8929
熹	-10.893
相反	-10.8932
留守	-10.8933
未成	-10.8933
國子監	-10.8933
此數	-10.8933
召公	-10.8936
頤	-10.8937
儒生	-10.8938
亦皆	-10.8939
從其	-10.8942
言事	-10.8943
復以	-10.8946
譬如	-10.8949
宣公	-10.8954
語言	-10.8957
梁武帝	-10.8957
聞而	-10.896
獨不	-10.8962
珊瑚	-10.8964
使臣	-10.8965
遙	-10.8965
宦者	-10.8966
於内	-10.8967
黯	-10.8968
三子	-10.8969
五寸	-10.897
而獨	-10.8979
王文	-10.8983
相思	-10.8987
楚之	-10.8987
為天子	-10.8988
上林	-10.8993
玉篇	-10.8997
孔明	-10.8997
則不可	-10.8997
杜注	-10.8999
弘	-10.9002
不便	-10.9006
釡	-10.9006
構	-10.9007
峙	-10.9007
而不得	-10.9007
慿	-10.9008
碾	-10.9008
世所	-10.9015
皋	-10.9016
妝	-10.9016
地理	-10.902
顔子	-10.9022
於君	-10.9024
更無	-10.9028
一夜	-10.903
太隂	-10.9031
八十一	-10.9031
宋公	-10.9036
安世	-10.9036
樂之	-10.9036
之病	-10.9037
關中	-10.9042
騶	-10.9044
誤作	-10.9044
不詳	-10.9049
濠	-10.905
太保	-10.905
民無	-10.905
幘	-10.9052
者豈	-10.9052
倅	-10.9053
槃	-10.9053
揀	-10.9053
其才	-10.9053
殽	-10.9054
漢魏	-10.9055
也又曰	-10.906
毀	-10.9061
陳平	-10.9061
夷狄	-10.9062
未之	-10.9063
二物	-10.9069
乾道	-10.907
不存	-10.9074
下正	-10.9076
緇	-10.9078
漠	-10.908
者何也	-10.9081
此理	-10.9084
者盖	-10.9091
閬	-10.9092
岱	-10.9092
孽	-10.9093
弭	-10.9093
膩	-10.9093
憫	-10.9095
臨川	-10.9095
邾	-10.9097
偈	-10.9097
凄	-10.9098
棒	-10.9102
武侯	-10.9103
得意	-10.9104
其行	-10.9105
景祐	-10.9111
一處	-10.9113
地也	-10.9115
事有	-10.9116
論曰	-10.9117
辨之	-10.9119
亦如	-10.9119
二尺	-10.912
立春	-10.9124
法令	-10.9124
城門	-10.9126
博雅	-10.9126
戶	-10.9127
或言	-10.9131
太湖	-10.9134
來者	-10.9135
厮	-10.9135
穉	-10.9136
卭	-10.9137
非有	-10.9138
丁未	-10.9138
元城	-10.915
物理	-10.9151
其職	-10.9153
張子	-10.9156
莫知其	-10.9157
七尺	-10.9162
如其言	-10.9167
所殺	-10.9168
蘋	-10.9168
無害	-10.9168
軾	-10.917
躡	-10.9172
聾	-10.9173
愆	-10.9174
蔑	-10.9176
廹	-10.9177
異人	-10.9177
年少	-10.9179
疏曰	-10.9179
不特	-10.9179
丙午	-10.9179
兠	-10.918
消息	-10.9185
二世	-10.9186
日出	-10.919
取士	-10.9195
字畫	-10.9195
四夷	-10.9204
皆作	-10.9205
皆從	-10.9206
姓氏	-10.9209
不廢	-10.9211
譴	-10.9212
令尹	-10.9212
昂	-10.9212
問之曰	-10.9212
卉	-10.9212
籥	-10.9212
儻	-10.9214
衷	-10.9215
在今	-10.9218
西河	-10.9218
迥	-10.9218
軼	-10.922
小大	-10.922
其字	-10.9222
甚明	-10.9223
臨江	-10.9224
使民	-10.9224
囂	-10.9225
尤甚	-10.9227
諸州	-10.9228
固已	-10.9229
四分	-10.9229
宋玉	-10.923
亦為	-10.9231
告之	-10.9233
七人	-10.9242
無心	-10.9242
左氏傳	-10.9246
倖	-10.9255
涪	-10.9258
其類	-10.9259
抛	-10.9259
𦙍	-10.9261
耦	-10.9261
旄	-10.9261
此說	-10.9262
江州	-10.9262
五代史	-10.9262
韵	-10.9262
壮	-10.9264
郎官	-10.9264
食其	-10.9265
科舉	-10.9265
舟中	-10.9269
嘗與	-10.927
漢中	-10.9272
集韻	-10.9286
以明	-10.9286
之類皆	-10.9293
過人	-10.9293
事皆	-10.9295
鳳凰	-10.9297
廪	-10.93
一員	-10.93
覃	-10.93
肚	-10.9303
轄	-10.9306
異日	-10.9306
荅曰	-10.9307
馬融	-10.9308
胸中	-10.9308
君也	-10.931
蛙	-10.9311
腕	-10.9312
無形	-10.9312
醴	-10.9313
篇云	-10.9321
余曰	-10.9324
順天	-10.933
殉	-10.9336
萍	-10.9337
舶	-10.9338
鵬	-10.9339
之德	-10.934
蒯	-10.9341
鑾	-10.9343
剝	-10.9343
箸	-10.9343
學道	-10.9344
六合	-10.9345
而亡	-10.9346
腹中	-10.9346
椀	-10.9346
威儀	-10.9349
不息	-10.935
作一	-10.9353
不遇	-10.9354
衙門	-10.9355
諫官	-10.9359
及此	-10.9361
不好	-10.9362
所造	-10.9364
因之	-10.9365
桃李	-10.9367
鄭注	-10.9367
𢎞治	-10.9373
可喜	-10.9377
之類也	-10.9381
狡	-10.9382
紿	-10.9383
霖	-10.9385
愚者	-10.9387
平章	-10.9387
不離	-10.9388
廿	-10.9388
帑	-10.9388
世説	-10.9388
籖	-10.939
淘	-10.939
長老	-10.9395
非禮	-10.9397
河圖	-10.9397
真蹟	-10.9406
自立	-10.9407
能詩	-10.9408
附㑹	-10.9411
劉子	-10.9413
生日	-10.9416
異同	-10.9417
不論	-10.9417
覆之	-10.9419
者可	-10.9419
駟	-10.9422
雜録	-10.9423
道理	-10.9423
疵	-10.9424
江上	-10.9426
矛	-10.9428
其可	-10.9431
窘	-10.9432
荔	-10.9438
流涕	-10.9438
為二	-10.9442
者不能	-10.9443
二李	-10.9444
察其	-10.9448
皆稱	-10.9451
者以其	-10.9451
相望	-10.9453
河中	-10.9462
本義	-10.9463
侍御史	-10.9464
非不	-10.9465
而坐	-10.9466
眺	-10.9466
庇	-10.9468
窓	-10.9468
囿	-10.9471
燾	-10.9472
太平興國	-10.9472
亦不可	-10.9473
祫	-10.9474
茸	-10.9474
怖	-10.9475
蝦	-10.9476
諸軍	-10.9477
前世	-10.9481
壁間	-10.9483
未有不	-10.9485
之師	-10.9489
而不敢	-10.9493
無用	-10.9494
惻	-10.9495
宋元	-10.9496
所撰	-10.9497
之具	-10.9499
又見	-10.9499
不治	-10.95
列於	-10.9502
作此	-10.9503
城北	-10.9504
周人	-10.9505
不測	-10.9505
顔師古	-10.9506
王維	-10.9507
大功	-10.9508
左手	-10.9508
腫	-10.9511
煜	-10.9512
古人之	-10.9514
沼	-10.9515
逈	-10.9518
之過	-10.952
部郎中	-10.9521
宦官	-10.9521
近於	-10.9521
法言	-10.9524
供奉	-10.9526
建康	-10.9527
可憐	-10.9527
俄而	-10.953
相通	-10.9531
曲折	-10.9536
愚謂	-10.9539
在京	-10.9539
考其	-10.9541
藝祖	-10.9542
矣其	-10.9544
牛羊	-10.9545
獻公	-10.9546
尚書省	-10.9547
天王	-10.9551
其術	-10.9552
也古	-10.9553
睹	-10.9556
瀛	-10.9559
嚼	-10.956
為三	-10.956
冬月	-10.956
繕	-10.956
韓子	-10.9562
噴	-10.9563
今在	-10.9565
山陽	-10.9567
之月	-10.9568
以事	-10.957
但見	-10.9574
明王	-10.9576
水旱	-10.9577
一㸃	-10.9579
亦稱	-10.9583
識其	-10.9584
成敗	-10.9586
耳今	-10.9587
牛馬	-10.959
帝王之	-10.9594
承天	-10.9594
慾	-10.9595
惡其	-10.9596
糜	-10.9596
明主	-10.9596
隋書	-10.9597
犧	-10.9598
濱	-10.9601
非謂	-10.9602
戊辰	-10.9602
膾	-10.9603
浮屠	-10.9604
覔	-10.9604
雖無	-10.9606
徘徊	-10.9607
神氣	-10.9612
避之	-10.9621
人人	-10.9628
兖州	-10.963
韓文公	-10.9632
文王之	-10.9633
唐史	-10.9637
親見	-10.9637
合而	-10.9639
衡山	-10.9645
姨	-10.9645
也葢	-10.9646
范蠡	-10.9647
也蓋	-10.9647
剡	-10.9648
賽	-10.9651
考功	-10.9653
事則	-10.9656
兖	-10.9659
為義	-10.9663
使相	-10.9665
中郎	-10.9667
爾雅曰	-10.9667
表裏	-10.9669
以次	-10.9673
復生	-10.9679
呪	-10.9686
麒麟	-10.9688
賚	-10.9689
醢	-10.9689
知也	-10.9689
頽	-10.969
歐陽文忠公	-10.969
至尊	-10.969
正與	-10.9695
門内	-10.9698
在西	-10.9703
觀察使	-10.9704
楚子	-10.9707
太清	-10.9711
昆弟	-10.9714
為國	-10.9715
二種	-10.9718
未發	-10.9718
獅子	-10.972
數十人	-10.9724
同知	-10.9729
別	-10.973
攻之	-10.9731
禮之	-10.9732
羅漢	-10.9732
豪傑	-10.9733
之器	-10.9734
蹤	-10.9735
平陽	-10.9735
滑稽	-10.974
以道	-10.974
水經	-10.9741
固不	-10.9746
兩人	-10.975
效之	-10.975
但云	-10.9751
有光	-10.9752
者故	-10.9753
得人	-10.9753
予曰	-10.9762
唐之	-10.9762
實也	-10.9763
並無	-10.9768
家藏	-10.9769
罷相	-10.9771
僮	-10.9772
祀之	-10.9774
綜	-10.9774
是其	-10.9775
柿	-10.9776
𫝊曰	-10.9777
武公	-10.9777
年八十	-10.9778
繳	-10.978
簟	-10.978
一世	-10.9781
航	-10.9783
五里	-10.9785
庚辰	-10.9785
其來	-10.9786
遂成	-10.9793
甲辰	-10.9802
斯言	-10.9805
太甲	-10.9806
四寸	-10.9808
樞密	-10.9809
王室	-10.981
風俗通	-10.9811
字音	-10.9812
械	-10.9816
是已	-10.9816
閎	-10.9817
必死	-10.9821
肘	-10.9821
六曰	-10.9822
嗇	-10.9822
以應	-10.9823
貍	-10.9825
歸來	-10.9825
俛	-10.9825
齧	-10.9826
圖經	-10.9827
后土	-10.9834
富人	-10.9835
其年	-10.9837
未㡬	-10.9837
劉公	-10.9839
又問	-10.9843
翰墨	-10.9845
江北	-10.9846
五字	-10.9846
參差	-10.9849
送之	-10.985
則不能	-10.9851
若水	-10.9858
一百二十	-10.9859
土中	-10.9859
之費	-10.9861
高下	-10.9861
跌	-10.9862
凡人	-10.9862
稠	-10.9865
太山	-10.9869
宼	-10.9869
眇	-10.987
罹	-10.987
墓誌	-10.987
云爾	-10.9876
月餘	-10.9879
不中	-10.9879
之㫖	-10.9881
人力	-10.9882
慕容	-10.9884
善者	-10.9885
人知	-10.9886
可畏	-10.9887
青龍	-10.9889
根本	-10.989
劄子	-10.99
湖南	-10.9901
二十六	-10.9902
法帖	-10.9905
帯	-10.9906
太宰	-10.9906
逄	-10.9911
擕	-10.9915
勛	-10.9916
莫知	-10.9916
於中	-10.9916
三國志	-10.992
數百人	-10.9924
前此	-10.9925
道德	-10.9926
晉陽	-10.9926
不服	-10.993
子敬	-10.9938
清風	-10.9939
翊	-10.9941
不書	-10.9944
其音	-10.9945
豈無	-10.995
外戚	-10.9951
瑪瑙	-10.9951
天順	-10.9952
與我	-10.9953
馥	-10.9953
彤	-10.9954
卒於	-10.9957
石上	-10.9957
翫	-10.9957
謾	-10.9957
祔	-10.9958
賢良	-10.9962
四川	-10.9963
日食	-10.9969
皆出	-10.9973
恐其	-10.9974
甚佳	-10.9976
每嵗	-10.9978
頓首	-10.9982
麝	-10.9987
偶然	-10.999
金吾	-10.9997
蓴	-10.9998
閼	-10.9999
有常	-11.0002
竪	-11.0004
簮	-11.0005
沐浴	-11.0006
號令	-11.0006
留意	-11.0011
伏生	-11.0018
南面	-11.0018
黄道	-11.0022
其徒	-11.0023
家貧	-11.0025
召見	-11.0026
次日	-11.0026
或以為	-11.0031
各自	-11.0032
張華	-11.0034
唐末	-11.0034
御史臺	-11.0035
以身	-11.0036
白虎	-11.0037
學士院	-11.0038
方士	-11.0042
祜	-11.0042
鮓	-11.0043
縈	-11.0045
炬	-11.0047
此物	-11.0047
嫂	-11.0049
彚	-11.0051
無名	-11.0052
贏	-11.0052
龍虎	-11.0052
以奉	-11.0054
蛟龍	-11.0058
石室	-11.0059
又音	-11.0059
不亦	-11.0061
今為	-11.0061
冀州	-11.0062
世有	-11.0062
有數	-11.0063
蘇氏	-11.0065
絶無	-11.0066
問於	-11.0068
以謂	-11.0072
百七十	-11.0077
琮	-11.0087
芸	-11.0088
惇	-11.0089
古有	-11.0091
盍	-11.0091
杪	-11.0093
禇	-11.0093
舉其	-11.0094
袂	-11.0094
葺	-11.0098
舅姑	-11.01
民有	-11.0102
書籍	-11.0103
如前	-11.0109
詰之	-11.0113
圖畫	-11.0114
下文	-11.0118
遂有	-11.0119
訪之	-11.012
無定	-11.012
皇子	-11.0123
也史記	-11.0129
者也故	-11.0131
以酒	-11.0132
雖欲	-11.0132
鄕	-11.0135
撒	-11.0135
懈	-11.0136
大司馬	-11.0136
昶	-11.0136
三世	-11.0137
為最	-11.0137
仝	-11.0137
夣	-11.0138
黛	-11.0138
刁	-11.0139
御製	-11.014
僑	-11.014
依舊	-11.0145
隴西	-11.0148
數尺	-11.0151
生民	-11.0152
色白	-11.0152
三五	-11.0156
若無	-11.0156
自以為	-11.0156
丈餘	-11.0162
封禪	-11.0163
何得	-11.0164
此文	-11.0165
黄庭	-11.0169
韓詩	-11.0171
荆南	-11.0171
不妨	-11.0178
以治	-11.0178
天理	-11.0178
之教	-11.0178
寸許	-11.0179
毗	-11.0179
昭明	-11.0179
沽	-11.018
旻	-11.0182
左丞	-11.0182
彥	-11.0182
有白	-11.0183
於義	-11.0184
檢討	-11.0186
樞宻院	-11.0186
耽	-11.0186
紀聞	-11.0186
匹夫	-11.0187
惜其	-11.0188
乃為	-11.0188
之比	-11.0189
察之	-11.0189
同一	-11.0189
二首	-11.019
猴	-11.019
當從	-11.0191
舉子	-11.0192
互相	-11.0193
飛去	-11.0194
御前	-11.0195
蜀中	-11.0196
武宗	-11.0196
上官	-11.0197
信也	-11.0198
子墨子曰	-11.0201
至京師	-11.0201
城東	-11.0202
非所	-11.0204
叔向	-11.0204
可得而	-11.0205
石林	-11.0209
雲氣	-11.0209
萬國	-11.0209
魏武	-11.021
四十里	-11.0214
于天	-11.0216
臟	-11.0216
三錢	-11.0217
落花	-11.0217
為證	-11.0218
存焉	-11.022
之子也	-11.0223
府君	-11.0223
鹵	-11.0224
上天	-11.0225
因名	-11.0228
宓	-11.0228
諂	-11.0228
不可得而	-11.0232
改作	-11.0232
大國	-11.0233
喝	-11.0234
訐	-11.0234
一連	-11.0238
者得	-11.0241
德宗	-11.0248
即今之	-11.0249
非獨	-11.0249
有才	-11.025
子由	-11.0251
曲禮	-11.0251
杜氏	-11.0254
武功	-11.0257
有八	-11.0259
其力	-11.0263
煤	-11.0266
東流	-11.0266
欲為	-11.0268
與同	-11.027
仲舒	-11.0271
處之	-11.0273
娛	-11.0274
宋書	-11.0274
忙	-11.0274
蹲	-11.0277
參知政事	-11.0278
洙	-11.0278
嘉定	-11.0279
湍	-11.0279
鬛	-11.0281
之至也	-11.0283
比之	-11.0286
戰國䇿	-11.0288
叔父	-11.0288
字作	-11.0288
之權	-11.0289
白頭	-11.029
百餘里	-11.0292
施之	-11.0293
宣徳	-11.0295
流俗	-11.0297
齊梁	-11.03
陸機	-11.03
者以為	-11.0303
不思	-11.0305
不使	-11.0307
廬陵	-11.0309
畦	-11.0321
叠	-11.0322
苕	-11.0323
蠡	-11.0324
殖	-11.0325
至唐	-11.0328
敲	-11.0329
彼此	-11.0331
亦嘗	-11.0332
此地	-11.0334
也或曰	-11.0337
治也	-11.0347
松江	-11.0348
五十里	-11.0349
無非	-11.0352
尊卑	-11.0352
得志	-11.0357
功徳	-11.0358
又非	-11.0361
而來	-11.0363
茯苓	-11.0366
安定	-11.0367
欹	-11.0367
杜牧	-11.0367
二錢	-11.0367
殫	-11.037
一語	-11.0373
逓	-11.0374
撞	-11.0374
壬辰	-11.0376
止之	-11.0377
天下無	-11.0377
吐蕃	-11.0377
好古	-11.0379
其先	-11.038
殺其	-11.0383
大略	-11.0383
四六	-11.0393
平章事	-11.0393
博物志	-11.0393
臣聞	-11.0396
聲色	-11.0396
之迹	-11.0396
江漢	-11.0396
丹青	-11.0397
共工	-11.0399
不妄	-11.0399
有過	-11.0399
皆能	-11.0401
各以	-11.0402
闕名	-11.0405
知府	-11.0407
應天	-11.0409
多寡	-11.0409
非所以	-11.0411
此三	-11.0412
猜	-11.0415
可知也	-11.0415
酪	-11.0418
裒	-11.0418
脣	-11.042
司馬相如	-11.042
濛	-11.0422
行在	-11.0423
但知	-11.0426
亡也	-11.0426
突厥	-11.0429
莧	-11.0429
吾家	-11.043
又引	-11.0431
不答	-11.0431
大江	-11.0433
人主之	-11.0434
遺事	-11.0436
尚可	-11.0437
最多	-11.0437
其利	-11.0438
百餘年	-11.0439
孔子之	-11.044
武臣	-11.044
周旋	-11.0443
黙然	-11.0446
難也	-11.0451
子胥	-11.0451
柘	-11.0464
漢世	-11.0464
形勢	-11.0465
魔	-11.0465
滚	-11.0465
賞之	-11.0465
袴	-11.0469
弧	-11.047
對曰臣	-11.0471
誰能	-11.0472
椿	-11.0472
二詩	-11.0474
立功	-11.0475
日用	-11.0477
之效	-11.0485
二府	-11.0488
江都	-11.0492
小學	-11.0493
驪	-11.0494
父名	-11.0496
不由	-11.0497
所行	-11.0497
韋昭	-11.05
术	-11.05
名字	-11.0501
所不能	-11.0501
多以	-11.0502
兩句	-11.0505
其根	-11.0505
鎔	-11.0506
在乎	-11.0507
丙子	-11.0507
以實	-11.051
表云	-11.051
孫氏	-11.0511
禆	-11.0511
媵	-11.0512
佳句	-11.0512
皆自	-11.0512
流離	-11.0513
之次	-11.0514
文義	-11.0514
是矣	-11.0514
十餘里	-11.0516
曳	-11.0517
瓌	-11.0519
物而	-11.0521
碁	-11.0522
常侍	-11.0526
蘇秦	-11.0526
自此始	-11.0527
凡十	-11.0527
至誠	-11.0527
以竹	-11.0527
乙未	-11.0527
不孝	-11.0529
為詩	-11.0531
甲午	-11.0531
或用	-11.0531
實有	-11.0532
祖父	-11.0537
亦得	-11.0545
望見	-11.0546
罪人	-11.0548
筆力	-11.0554
琴瑟	-11.0554
其遺	-11.0554
文皇	-11.0555
鳶	-11.0558
泠	-11.0558
庶子	-11.0559
奬	-11.0559
秃	-11.056
咸平	-11.0562
也晉	-11.0562
永平	-11.0562
堰	-11.0563
安危	-11.0564
攬	-11.0565
不歸	-11.0565
徐鉉	-11.0565
晉宋	-11.0566
莢	-11.0566
器也	-11.0567
議曰	-11.0569
其主	-11.0572
分野	-11.0574
樞宻使	-11.0574
秋冬	-11.0578
上表	-11.0588
從者	-11.0589
璟	-11.059
之㑹	-11.059
河間	-11.059
後又	-11.0594
夫以	-11.0595
仲子	-11.0596
赤壁	-11.0596
奉天	-11.0599
攷之	-11.06
三十五	-11.06
近年	-11.0601
昱	-11.0601
紀年	-11.0604
靴	-11.0606
潦	-11.0606
商人	-11.0607
靳	-11.0607
蘇子瞻	-11.0608
縉	-11.0609
磚	-11.061
飛白	-11.0611
癸丑	-11.0612
然無	-11.0612
貂	-11.0616
不審	-11.0616
國子	-11.0618
一方	-11.062
斬之	-11.062
實錄	-11.0621
者哉	-11.0621
當在	-11.0622
九經	-11.0623
者因	-11.0624
之色	-11.0624
入内	-11.0624
中官	-11.0625
東平	-11.0627
相連	-11.0629
□(	-11.063
之所謂	-11.0633
乃能	-11.0633
順帝	-11.0634
所無	-11.0636
山隂	-11.064
大家	-11.0642
贈之	-11.0649
正是	-11.065
必得	-11.065
酢	-11.0652
㑹要	-11.0652
尚書令	-11.0652
當今	-11.0653
之交	-11.0654
悞	-11.0654
用人	-11.0658
参	-11.0659
鳯凰	-11.066
雌雄	-11.0662
譎	-11.0662
八字	-11.0665
脛	-11.0667
所自	-11.0672
付之	-11.0673
明經	-11.0674
其失	-11.0676
年四月	-11.0683
之母	-11.0684
何益	-11.0684
也但	-11.0688
申公	-11.0689
亾	-11.0697
症	-11.0697
筆墨	-11.07
濳	-11.0701
點	-11.0701
金帛	-11.0702
踞	-11.0705
亦可以	-11.0706
閽	-11.0706
錐	-11.0707
無由	-11.0707
人倫	-11.0708
貟	-11.0709
縞	-11.0711
嘔	-11.0712
惕	-11.0713
糴	-11.0713
能以	-11.0714
下詔	-11.0716
頷	-11.0717
既成	-11.0717
曰王	-11.0717
舊有	-11.0717
卜筮	-11.0719
觀此	-11.072
千百	-11.0721
宛轉	-11.0723
閣臣	-11.0727
吏民	-11.0727
萬卷	-11.0731
高帝	-11.0735
廟堂	-11.0739
而還	-11.0742
以賜	-11.0743
此與	-11.0744
别傳	-11.0746
又為	-11.0747
尅	-11.0748
不害	-11.075
何由	-11.075
桶	-11.0751
蒂	-11.0752
港	-11.0753
彫	-11.0753
兕	-11.0754
秦人	-11.0755
砥	-11.0755
木蘭	-11.0755
三家	-11.0756
爲人	-11.0756
幄	-11.0756
惲	-11.0756
名之曰	-11.0756
錮	-11.0757
吻	-11.0759
二書	-11.0762
也豈	-11.0765
兵部尚書	-11.0765
荀卿	-11.0766
不敬	-11.0767
不悟	-11.0768
大旱	-11.0768
小子	-11.0769
也盖	-11.0771
出自	-11.0772
非特	-11.0772
文潞公	-11.0773
可證	-11.0774
隂氣	-11.0777
士也	-11.0783
正如	-11.0784
不可知	-11.0785
器之	-11.0787
所論	-11.0788
開封	-11.0791
之例	-11.0793
千六百	-11.0794
王肅	-11.0795
萬石	-11.0795
先祖	-11.0796
不備	-11.0798
安樂	-11.0798
王介甫	-11.0798
其半	-11.0799
黼	-11.0801
醃	-11.0803
城下	-11.0803
福州	-11.0803
鄱陽	-11.0803
怒曰	-11.0805
菌	-11.0805
不分	-11.0805
慟	-11.0806
恰	-11.0807
知名	-11.0807
勝之	-11.0808
餞	-11.0808
人參	-11.0808
畋	-11.0808
滂	-11.081
西王母	-11.0811
失於	-11.0813
大同	-11.0813
思慮	-11.0814
卷二	-11.0814
四尺	-11.0815
小說	-11.0819
而不言	-11.0822
行道	-11.0823
而食	-11.0824
二十二年	-11.0825
壬子	-11.0825
且曰	-11.0826
學校	-11.0827
將來	-11.0829
其妙	-11.0832
書院	-11.0834
禧	-11.0834
師曠	-11.0835
北面	-11.0837
也孔子	-11.0837
伽	-11.0838
可信	-11.0839
四十五	-11.0842
挫	-11.0844
云我	-11.0845
百八十	-11.0845
鑄錢	-11.0846
為宰相	-11.0848
始見	-11.085
棹	-11.0851
傷人	-11.0852
擘	-11.0853
櫛	-11.0855
禮部侍郎	-11.0855
槽	-11.0856
秤	-11.086
宋時	-11.086
州府	-11.086
之先	-11.0861
書於	-11.0861
熒惑	-11.0862
粮	-11.0863
歎息	-11.0868
弓矢	-11.0868
作者	-11.087
娘子	-11.0871
罷之	-11.0871
其弊	-11.0872
今有	-11.0872
少府	-11.0874
老僧	-11.0875
之憂	-11.0877
盡矣	-11.0878
三司使	-11.0878
白衣	-11.088
稽古	-11.0881
五湖	-11.0882
頃刻	-11.0887
陸氏	-11.0887
存中	-11.0889
篇曰	-11.0896
兩頭	-11.0896
安可	-11.0897
大雨	-11.0897
無極	-11.0898
悠	-11.0898
夫差	-11.09
種種	-11.0901
得免	-11.0904
恍	-11.0904
沸湯	-11.0905
調和	-11.0905
京官	-11.0906
者猶	-11.0908
蓋以	-11.0912
沓	-11.0914
本此	-11.0914
破之	-11.0918
一層	-11.092
其狀	-11.0921
十餘萬	-11.0923
之首	-11.0926
三章	-11.0932
夜夢	-11.0936
元昊	-11.0938
地上	-11.094
珠玉	-11.0943
穆王	-11.0949
嵗時	-11.0949
噬	-11.095
鬲	-11.0951
泯	-11.0951
之序	-11.0953
韭	-11.0953
闡	-11.0954
顓	-11.0954
都下	-11.0955
公私	-11.0955
内官	-11.0957
元日	-11.0957
己丑	-11.096
集有	-11.0961
兩京	-11.0962
若今	-11.0964
選人	-11.0965
郡有	-11.0965
大年	-11.0965
月中	-11.0969
白色	-11.097
之本也	-11.097
皎	-11.0981
西施	-11.0983
或謂之	-11.0985
凡有	-11.0986
通作	-11.0989
二十日	-11.099
為太子	-11.0991
但有	-11.0992
餹	-11.0993
新安	-11.0993
霑	-11.0994
有石	-11.0996
厲王	-11.0997
瑗	-11.0998
餽	-11.1002
泡	-11.1004
覧	-11.1004
亦必	-11.1005
今以	-11.1007
曰不然	-11.1007
訛為	-11.1008
汜	-11.1008
装	-11.101
勣	-11.101
笑而	-11.1014
扶桑	-11.1014
隋志	-11.1014
惠帝	-11.1015
而行之	-11.1017
紀事	-11.102
二十五年	-11.1023
所致	-11.1024
於庭	-11.1025
大都	-11.1026
諸君	-11.1029
命也	-11.1031
以象	-11.1034
年七月	-11.1034
葉似	-11.1035
神人	-11.1039
闗中	-11.1041
其兄	-11.1046
腴	-11.1049
固無	-11.1049
論衡	-11.105
以問	-11.1051
日暮	-11.1051
捍	-11.1051
常在	-11.1052
沫	-11.1052
兵馬	-11.1053
目為	-11.1055
此法	-11.1056
後周	-11.1056
藏於	-11.1057
么	-11.1057
曰凡	-11.1058
始以	-11.1059
第八	-11.1059
五臟	-11.106
從官	-11.1063
其精	-11.1063
勿令	-11.1063
飴	-11.1064
扶風	-11.1064
化之	-11.1069
餘皆	-11.107
令狐	-11.1072
隨時	-11.1075
吳中	-11.1079
可取	-11.1079
五卷	-11.1085
不曽	-11.1086
官家	-11.1086
淋	-11.1091
乃出	-11.1091
戊子	-11.1091
卿等	-11.1093
當如	-11.1095
已成	-11.1099
寂寞	-11.1099
你	-11.11
糠	-11.1101
瀝	-11.1103
教人	-11.1103
作樂	-11.1104
鈿	-11.1104
乙丑	-11.1105
璩	-11.1106
衲	-11.1106
一幅	-11.1106
吠	-11.1106
忠孝	-11.1108
俎	-11.111
異而	-11.111
正言	-11.1111
大道	-11.1112
有㫖	-11.1112
欲求	-11.1112
零陵	-11.1115
且以	-11.1115
乃自	-11.1118
之恩	-11.1118
興也	-11.1119
事實	-11.1123
有何	-11.1123
軍士	-11.1129
二十三年	-11.113
長於	-11.113
吕后	-11.1141
魏王	-11.1141
雲夢	-11.1141
狥	-11.1146
李杜	-11.1149
鏗	-11.1151
寖	-11.1151
义	-11.1152
字亦	-11.1152
於時	-11.1153
下至	-11.1155
齊魯	-11.1158
何可	-11.1159
杉	-11.116
何能	-11.116
蘇軾	-11.1161
柩	-11.1162
甲申	-11.1162
卷十	-11.1164
大字	-11.1167
康成	-11.1169
西伯	-11.1171
一萬	-11.1172
并州	-11.1172
朱衣	-11.1179
一升	-11.1182
四十八	-11.1182
及諸	-11.1183
而况	-11.1189
以報	-11.119
不常	-11.1193
兩字	-11.1194
倉卒	-11.1195
太康	-11.1196
絞	-11.1204
閒居	-11.1204
如之何	-11.1205
菁	-11.1206
籙	-11.1208
䦨	-11.1208
釜	-11.1209
久不	-11.1209
忩	-11.121
隋唐	-11.121
祧	-11.1212
又嘗	-11.1212
龕	-11.1215
大中	-11.1215
以水	-11.1216
之大者	-11.1216
但言	-11.1218
正義曰	-11.1218
芼	-11.122
中出	-11.1223
艱難	-11.1223
顔淵	-11.1224
考異	-11.1228
本意	-11.1228
孫子	-11.1228
東山	-11.1229
有女	-11.1233
慨	-11.1234
吕公	-11.124
此豈	-11.1241
季子	-11.1242
夫子之	-11.1242
為首	-11.1244
徐氏	-11.1247
葢以	-11.1249
上皇	-11.1249
謝安	-11.1249
秦之	-11.125
未可知	-11.125
溲	-11.1251
鎗	-11.1253
戢	-11.1255
無聞	-11.1256
軒轅	-11.1256
揣	-11.1258
人呼	-11.1258
聮	-11.1259
御筆	-11.1261
亂也	-11.1264
鬯	-11.1264
少保	-11.1265
太乙	-11.1269
嗟乎	-11.1272
來朝	-11.1275
耳若	-11.1275
魯人	-11.1277
講學	-11.1278
元帥	-11.1279
都城	-11.1279
臣也	-11.1279
序曰	-11.128
河陽	-11.1281
少陽	-11.1282
大理寺	-11.1282
一舉	-11.1286
衆皆	-11.1287
山寺	-11.1289
也所以	-11.1297
騫	-11.1298
厓	-11.1298
有疾	-11.1298
流傳	-11.1299
著述	-11.1299
長卿	-11.1299
奪其	-11.1301
匙	-11.1302
筐	-11.1303
為人所	-11.1305
老父	-11.1306
水土	-11.1309
虱	-11.1309
刹	-11.131
亡國之	-11.1311
琬	-11.1313
不願	-11.1313
卷三	-11.1315
供養	-11.1316
古今説海卷	-11.1316
傳言	-11.1317
善人	-11.1321
元人	-11.1325
辛巳	-11.1326
虎豹	-11.1326
是亦	-11.1329
必無	-11.1331
不立	-11.1332
所存	-11.1333
黄色	-11.1333
亂世	-11.1333
其味	-11.1333
目前	-11.1333
魏文帝	-11.1336
王建	-11.1338
為度	-11.1338
不朽	-11.1338
此之謂也	-11.134
改名	-11.1341
傳注	-11.1344
池中	-11.1347
可考	-11.135
補之	-11.135
行至	-11.1352
公論	-11.1352
宇宙	-11.1354
另	-11.1356
仄	-11.1357
居中	-11.1357
駱	-11.1358
撻	-11.1358
舊注	-11.1358
拖	-11.1359
其夫	-11.136
堯舜之	-11.1361
某人	-11.1362
乃作	-11.1366
無私	-11.1367
米元章	-11.1367
然猶	-11.137
入門	-11.1371
緩急	-11.1375
霍光	-11.1375
然如	-11.138
楊文公	-11.1388
唐世	-11.139
沛公	-11.1394
主者	-11.1396
終不能	-11.1398
建隆	-11.14
異矣	-11.1403
莊周	-11.1406
百步	-11.1408
罍	-11.1411
吃	-11.1413
麯	-11.1413
寕	-11.1414
禰	-11.1414
者先	-11.1415
馬上	-11.1416
用筆	-11.142
之戒	-11.1421
者固	-11.1425
主上	-11.1429
可作	-11.1434
陽城	-11.1435
小民	-11.1438
北山	-11.144
注中	-11.144
以義	-11.144
哲宗	-11.1443
其處	-11.1444
異者	-11.1446
彭祖	-11.145
比干	-11.1453
以上皆	-11.1454
劭	-11.1455
其末	-11.1456
豈以	-11.1456
唐韻	-11.1458
此正	-11.146
諳	-11.146
恂	-11.1461
杲	-11.1461
者少	-11.1462
啜	-11.1462
襯	-11.1463
恊	-11.1463
匕	-11.1463
悠悠	-11.1464
姥	-11.1465
藹	-11.1466
忝	-11.1467
為本	-11.1467
莫大於	-11.1467
規模	-11.1467
字伯	-11.1468
以死	-11.1473
寝	-11.1474
不仕	-11.1476
之賦	-11.1476
治水	-11.1477
亡國	-11.1478
恐非	-11.1481
干戈	-11.1481
八寸	-11.1482
未定	-11.1483
三句	-11.1485
二十卷	-11.1485
詳見	-11.1487
花木	-11.1492
乃令	-11.1493
外有	-11.1493
當年	-11.1493
同音	-11.1496
常山	-11.1497
文忠公	-11.1498
傳寫	-11.1498
至如	-11.1499
大師	-11.15
國王	-11.15
昨日	-11.1502
乎夫	-11.1502
此所以	-11.1503
宣城	-11.1506
掣	-11.1511
金錢	-11.1512
經文	-11.1513
又與	-11.1514
漉	-11.1515
两	-11.1515
諸葛亮	-11.1516
幞頭	-11.1517
己未	-11.1517
十千	-11.1518
也哉	-11.1518
溷	-11.1518
當其	-11.1519
入聲	-11.1522
髠	-11.1524
觜	-11.1525
樂器	-11.1527
尤多	-11.1527
於秦	-11.1531
諺	-11.1531
河伯	-11.1532
堯之	-11.1538
嵗在	-11.1538
甲寅	-11.1539
人材	-11.1539
授以	-11.1541
委曲	-11.1549
者若	-11.155
在東	-11.155
為樂	-11.1551
江海	-11.1552
等皆	-11.1553
漁父	-11.1553
一端	-11.1553
元符	-11.1555
癸未	-11.1556
二十四年	-11.1557
不愛	-11.156
廣西	-11.1562
流落	-11.1562
椅	-11.1562
山石	-11.1563
缶	-11.1564
而好	-11.1565
曰君子	-11.1565
曰天子	-11.1566
菖蒲	-11.1568
㤗	-11.1569
晷	-11.157
所取	-11.157
書中	-11.1572
食貨志	-11.1572
紏	-11.1572
懽	-11.1574
魏志	-11.1575
隰	-11.1576
址	-11.1576
人乎	-11.1576
𨽻書	-11.1577
平江	-11.158
先聖	-11.1581
己亥	-11.1581
後學	-11.1582
白公	-11.159
也今人	-11.1593
黄魯直	-11.1593
碧玉	-11.16
永昌	-11.16
謁者	-11.16
建中	-11.1603
武昌	-11.1607
南都	-11.1611
榛	-11.1611
長樂	-11.1611
二十八年	-11.1613
市井	-11.1613
改正	-11.1617
蕋	-11.1618
郡人	-11.1619
醪	-11.1619
糯米	-11.162
自漢	-11.162
萱	-11.1621
宗正	-11.1621
磔	-11.1621
録之	-11.1621
泮	-11.1622
嬉	-11.1622
東陽	-11.1623
盪	-11.1623
蘇公	-11.1624
佯	-11.1624
也周	-11.1625
志在	-11.1625
丁晉公	-11.1626
其子孫	-11.1627
十字	-11.1628
生于	-11.1631
盛衰	-11.1631
右侍郎	-11.1632
相接	-11.1632
為先	-11.1634
言行	-11.1635
甚美	-11.1635
尺餘	-11.1637
文辭	-11.1638
萬五千	-11.1638
官司	-11.164
丁丑	-11.1641
勝負	-11.1644
東萊	-11.1647
南越	-11.1649
鍾離	-11.1651
手書	-11.1651
唐李	-11.1652
元美	-11.1654
形體	-11.1655
太真	-11.1655
科道	-11.1655
至則	-11.1656
祥符	-11.1657
右手	-11.1657
四十年	-11.1658
不復見	-11.1662
所製	-11.1663
時時	-11.1663
詩句	-11.1663
一道	-11.1666
涎	-11.1667
睢陽	-11.1667
下馬	-11.1669
瀉	-11.1671
紅花	-11.1672
瓮	-11.1674
兊	-11.1674
麝香	-11.1675
逍遥	-11.1676
盥	-11.1676
能自	-11.1677
圉	-11.1678
曰彼	-11.168
驂	-11.168
取諸	-11.1681
兩府	-11.1682
笥	-11.1682
夏月	-11.1683
總督	-11.1684
則天下	-11.1685
月明	-11.1685
其論	-11.1685
者欲	-11.1687
法以	-11.1688
京兆尹	-11.1688
一杯	-11.169
大將	-11.1691
江夏	-11.1695
服䖍	-11.1699
新唐書	-11.1701
景文	-11.1712
天生	-11.1716
館閣	-11.1716
琥珀	-11.1719
盛徳	-11.172
南豐	-11.1721
内則	-11.1723
㪚	-11.1726
椽	-11.1726
剽	-11.1727
嗣宗	-11.1728
掉	-11.1728
紇	-11.1729
者十	-11.1729
紆	-11.1729
莎	-11.173
闋	-11.1731
球	-11.1732
淳熙	-11.1734
晒乾	-11.1735
在京師	-11.1735
過矣	-11.1736
天氣	-11.1738
地下	-11.1739
不和	-11.174
數語	-11.174
嬰兒	-11.1742
諺曰	-11.1744
水銀	-11.1746
諮	-11.1755
閣下	-11.1756
道術	-11.1759
色青	-11.1764
容齋	-11.1765
應劭	-11.1766
坐客	-11.1767
時方	-11.1767
三篇	-11.1771
先天	-11.1771
因問	-11.1778
枳	-11.1778
三老	-11.1778
方寸	-11.1778
宗子	-11.1778
轎	-11.1779
死罪	-11.1779
升降	-11.178
矧	-11.178
有定	-11.1782
奩	-11.1782
睛	-11.1782
債	-11.1783
非人	-11.1785
目録	-11.1785
辣	-11.1786
聶	-11.1786
雷雨	-11.1787
卷四	-11.1787
日行	-11.1789
之歌	-11.1789
赭	-11.179
謝靈運	-11.179
永叔	-11.1791
塾	-11.1792
丙辰	-11.1794
俘	-11.1796
不亂	-11.1796
崇文	-11.1796
世稱	-11.1797
欲使	-11.1798
之資	-11.1801
尊號	-11.1805
越人	-11.1808
經術	-11.1808
閩中	-11.181
淮南王	-11.1814
説文曰	-11.1815
將帥	-11.1817
功業	-11.1817
然非	-11.1817
亦與	-11.1818
北平	-11.1818
文敏	-11.1819
法書	-11.1821
翕	-11.1821
正色	-11.1822
宛然	-11.1822
否則	-11.1827
所貴	-11.1827
館職	-11.1828
以通	-11.1829
季氏	-11.1835
毆	-11.1838
今俗	-11.1838
皁	-11.184
古字	-11.1841
後宫	-11.1842
靈王	-11.1842
顔魯公	-11.1843
太常寺	-11.1843
之言也	-11.1844
菑	-11.1849
許氏	-11.1849
六書	-11.185
於齊	-11.1851
云云按	-11.1851
官人	-11.1853
征伐	-11.1858
遂至	-11.1859
以為然	-11.1862
之機	-11.1862
其徳	-11.1865
書名	-11.1865
則當	-11.1866
亡者	-11.1867
盛時	-11.1868
多言	-11.1872
字仲	-11.1873
甚厚	-11.1876
論其	-11.1878
者宜	-11.1879
與君	-11.188
謝曰	-11.188
公羊傳	-11.1881
無禮	-11.1881
已見	-11.1882
史書	-11.1882
亁	-11.1883
城上	-11.1884
靈帝	-11.1885
千八百	-11.1885
跖	-11.1886
與今	-11.1886
滄浪	-11.1887
功曹	-11.1887
宣子	-11.1888
星辰	-11.1888
不到	-11.1888
㓕	-11.1889
杼	-11.189
瑤	-11.189
此謂	-11.1891
鋸	-11.1892
㝷	-11.1893
誦之	-11.1898
梅聖俞	-11.1898
尺寸	-11.1899
河西	-11.1902
去年	-11.1902
已來	-11.1903
樗	-11.1905
鼓吹	-11.1905
丹砂	-11.1907
當用	-11.191
乘馬	-11.1911
有七	-11.1913
可行	-11.1915
安得不	-11.192
九成	-11.1921
器用	-11.1921
坡公	-11.1926
舊史	-11.1926
稱為	-11.1926
石榴	-11.1927
耳然	-11.1927
石門	-11.1927
上黨	-11.1928
棣	-11.1929
雞鳴	-11.193
亡矣	-11.1934
幽王	-11.1934
所作也	-11.1936
列侯	-11.1939
螢	-11.194
匝	-11.194
其在	-11.1941
齊桓公	-11.1942
碑云	-11.1943
絲竹	-11.1946
鬟	-11.1947
蹶	-11.1948
由此觀之	-11.1948
詡	-11.1948
閘	-11.1948
景徳	-11.1949
禳	-11.195
曬	-11.195
時號	-11.1951
深入	-11.1951
𣙜	-11.1952
稔	-11.1952
董卓	-11.1952
相逢	-11.1953
咒	-11.1955
封侯	-11.1958
聖明	-11.1964
笑之	-11.1964
以利	-11.1969
亦用	-11.1972
於衆	-11.1975
三等	-11.1976
者今	-11.1977
行李	-11.1981
京口	-11.1983
皇極	-11.1983
朝服	-11.1984
水浸	-11.1988
動而	-11.1989
樂工	-11.1993
以避	-11.1994
傳記	-11.1996
插	-11.1998
刈	-11.1998
觔	-11.1998
終身不	-11.1999
大慶	-11.2
遒	-11.2
集賢	-11.2001
㵼	-11.2003
十丈	-11.2003
甚衆	-11.2003
為第一	-11.2004
規矩	-11.2005
成於	-11.2006
匾	-11.2006
驩	-11.2007
吾子	-11.2008
入山	-11.2009
次年	-11.2011
金華	-11.2011
纖	-11.2013
南朝	-11.2014
曰今日	-11.2016
最後	-11.2018
疏云	-11.2021
未為	-11.2024
使我	-11.2025
愛人	-11.2026
昭烈	-11.2027
三江	-11.2028
詩中	-11.2029
經籍	-11.2031
小異	-11.2032
殿下	-11.2033
潞	-11.2033
附子	-11.2035
仁人	-11.2037
一室	-11.2042
日以	-11.2042
不可解	-11.2046
酋	-11.2046
必須	-11.2048
中書門下	-11.2049
五萬	-11.2052
譖	-11.2053
穹	-11.2053
麈	-11.2055
誄	-11.2057
岀	-11.2057
綂	-11.2059
瓉	-11.2059
勿食	-11.206
捫	-11.2061
政府	-11.2062
斯人	-11.2063
李林甫	-11.2063
三朝	-11.2063
利而	-11.2065
皇天	-11.2069
不察	-11.2069
城外	-11.207
江河	-11.2073
潞公	-11.2075
骰子	-11.2077
想見	-11.2077
不可為	-11.2077
天禧	-11.2077
四日	-11.2079
下筆	-11.208
形於	-11.2081
人不知	-11.2081
者耶	-11.2082
徐廣	-11.2091
召之	-11.2091
於斯	-11.2094
食肉	-11.2099
大梁	-11.2099
轉為	-11.21
黄白	-11.2102
之弟	-11.2102
皇太后	-11.2102
奉㫖	-11.2104
大畧	-11.2104
究其	-11.2105
功德	-11.2106
結實	-11.2107
為民	-11.2108
門牌	-11.2108
天性	-11.211
顥	-11.2111
知所	-11.2111
安道	-11.2112
挹	-11.2114
癖	-11.2115
名實	-11.2117
四卷	-11.212
汰	-11.212
舊本	-11.2122
筆談	-11.2122
耳非	-11.2122
北極	-11.2122
庚戌	-11.2122
鱉	-11.2123
羲之	-11.2127
長吏	-11.2132
刻之	-11.2132
摩詰	-11.2135
悲夫	-11.2139
一宿	-11.2141
百一十	-11.2143
可稱	-11.2144
永興	-11.2147
井中	-11.2148
非真	-11.2151
王右軍	-11.2153
文中子	-11.2155
害人	-11.2155
必用	-11.2156
司業	-11.2158
今作	-11.216
二丈	-11.216
乃曰	-11.216
海外	-11.2161
槁	-11.2162
其外	-11.2164
朔望	-11.2165
懦	-11.2166
齊桓	-11.2169
鯨	-11.217
虗	-11.217
詵	-11.2171
旃	-11.2172
刮	-11.2172
、	-11.2173
康王	-11.2174
玉女	-11.2176
鍾山	-11.2178
一聨	-11.2181
尺許	-11.2183
渤海	-11.2186
可否	-11.2186
精氣	-11.2187
直學士	-11.2189
何嘗	-11.2189
武子	-11.2191
俗人	-11.2192
南郡	-11.2193
五穀	-11.2194
一部	-11.2196
唐明皇	-11.2207
父為	-11.2207
近者	-11.2208
在其中	-11.2208
知道	-11.2209
遺之	-11.2213
以濟	-11.2213
李賀	-11.2214
詞曰	-11.2222
五子	-11.2224
子昻	-11.2224
謳	-11.2224
更始	-11.2225
今本	-11.2226
駞	-11.2226
䘏	-11.2226
蜃	-11.2228
也周禮	-11.2228
農夫	-11.2228
鴿	-11.223
梧桐	-11.2233
飛燕	-11.2234
上意	-11.2234
四品	-11.2235
不忠	-11.2236
逐之	-11.2238
秦檜	-11.224
時年	-11.2241
酒食	-11.2241
小雅	-11.2242
司馬公	-11.2245
奪之	-11.2245
十五里	-11.2248
城隍	-11.2251
日日	-11.2251
碣石	-11.2252
信然	-11.2255
箋云	-11.2256
出師	-11.2258
少而	-11.2258
臣僚	-11.2261
學官	-11.2262
如初	-11.2263
頭上	-11.2264
華陽	-11.2264
而食之	-11.2267
等官	-11.2267
一株	-11.2268
辨其	-11.227
鴻臚	-11.2271
渡河	-11.2271
大節	-11.2272
頃之	-11.2274
和氣	-11.2275
麽	-11.2279
三嵗	-11.228
俶	-11.228
上命	-11.228
丙戌	-11.2282
少頃	-11.2283
邃	-11.2284
余按	-11.2284
璜	-11.2284
解曰	-11.2285
開寳	-11.2285
智伯	-11.2286
漢興	-11.2287
與王	-11.2288
醴泉	-11.2289
既已	-11.2289
貧者	-11.2289
下第	-11.2294
太過	-11.2295
穿鑿	-11.2297
不殺	-11.2301
臺諫	-11.2303
之過也	-11.2304
譏之	-11.2309
夢得	-11.2309
是嵗	-11.2312
令史	-11.2312
歌云	-11.2321
榖梁	-11.2324
更名	-11.2326
非徒	-11.2328
岫	-11.2332
始生	-11.2335
度支	-11.2337
愔	-11.2338
納之	-11.2338
璘	-11.2339
孟嘗君	-11.2339
塢	-11.234
陶淵明	-11.2342
晃	-11.2343
幃	-11.2344
吏部侍郎	-11.2348
及至	-11.2348
玉帶	-11.2351
等處	-11.2351
史傳	-11.2351
以白	-11.2355
盗賊	-11.2355
於今	-11.2355
盌	-11.2355
而言之	-11.2356
丁亥	-11.2356
初生	-11.2361
職方	-11.2362
子午	-11.2365
樓上	-11.2366
二家	-11.2367
自陳	-11.2368
相從	-11.2369
崑山	-11.2373
自序	-11.2377
後至	-11.2383
為害	-11.2387
鐙	-11.2388
定制	-11.239
三十三	-11.2393
旂	-11.2395
墾	-11.2396
姒	-11.2396
年老	-11.2397
周公之	-11.2398
槌	-11.2398
殤	-11.2399
白居易	-11.2399
擦	-11.2399
北苑	-11.24
太行	-11.2401
天門	-11.2403
乙酉	-11.2404
味甘	-11.2404
史家	-11.2405
世謂	-11.2406
自殺	-11.2411
南有	-11.2413
死人	-11.2413
水流	-11.2414
縣官	-11.2416
當是時	-11.2416
忽聞	-11.2417
必有所	-11.2419
土木	-11.2419
功成	-11.2421
若使	-11.2422
諸郡	-11.2424
百日	-11.2425
以授	-11.2426
録曰	-11.2427
進呈	-11.2428
方伯	-11.2428
過也	-11.2429
沉香	-11.2433
清濁	-11.2439
隂陽之	-11.244
開府	-11.2441
逺而	-11.2442
吾鄉	-11.2447
湮	-11.2448
九品	-11.245
之兆	-11.2455
觥	-11.2456
劫	-11.2457
閫	-11.2457
去矣	-11.2457
筌	-11.2457
儔	-11.2457
説者	-11.2458
諫議大夫	-11.2459
㽔	-11.246
讀者	-11.246
焉故	-11.2461
粱	-11.2461
庚午	-11.2462
壬午	-11.2463
聖主	-11.2464
同心	-11.2467
張説	-11.2467
不失其	-11.2469
惜乎	-11.2471
朱氏	-11.2472
從來	-11.2474
十八日	-11.2475
奔走	-11.2478
取出	-11.248
冨	-11.2481
名山	-11.2483
著於	-11.2484
北門	-11.2484
欲令	-11.2485
不能知	-11.2487
以安	-11.2487
小而	-11.2487
索隠	-11.2487
大禮	-11.2493
商賈	-11.2495
一里	-11.2495
靈臺	-11.2495
丁香	-11.2502
譬之	-11.2502
武徳	-11.2502
便殿	-11.2502
陽侯	-11.2504
書目	-11.2505
妻之	-11.2508
因循	-11.2509
各有所	-11.2511
郗	-11.2511
岷	-11.2511
彷彿	-11.2512
鑽	-11.2512
汀	-11.2512
為己	-11.2516
窄	-11.2518
庚寅	-11.2519
名家	-11.2521
朔方	-11.2523
祝融	-11.2524
一箇	-11.2524
生薑	-11.2526
皆如	-11.2529
學書	-11.2529
皆云	-11.2529
涿	-11.2531
無子	-11.2532
燕王	-11.2533
治道	-11.2534
北有	-11.2534
之服	-11.2535
第九	-11.2536
皆同	-11.2537
然皆	-11.2539
驪山	-11.2539
生焉	-11.2541
致其	-11.2545
崑	-11.2545
龍尾	-11.2546
者甚衆	-11.2546
竺	-11.2548
金剛	-11.2548
人民	-11.2548
於市	-11.2549
獨立	-11.255
重陽	-11.2555
罘罳	-11.2561
轉運	-11.2562
猶是	-11.2565
笄	-11.2566
菊花	-11.2568
血氣	-11.2568
類此	-11.2568
議郎	-11.2569
蒐	-11.257
湜	-11.257
曺	-11.2571
嵇	-11.2572
徂	-11.2572
兑	-11.2572
玲瓏	-11.2573
躋	-11.2574
之父	-11.2574
䏻	-11.2574
古器	-11.2574
𣲖	-11.2574
宕	-11.2575
蟾	-11.2576
葫蘆	-11.2576
恚	-11.2578
一説	-11.2578
立法	-11.258
旭	-11.2581
公侯	-11.2583
昴	-11.2583
不可勝數	-11.2587
中正	-11.2588
不意	-11.2588
其手	-11.2591
每見	-11.2592
昊	-11.2596
修身	-11.2601
雖非	-11.2601
一僧	-11.2601
官員	-11.2601
之路	-11.2602
末云	-11.2606
兵法	-11.2606
佛法	-11.2607
之祖	-11.2609
滄	-11.2609
故君子	-11.261
一十	-11.261
原註	-11.2611
士庶	-11.2613
可矣	-11.2614
敢不	-11.2615
豈其	-11.2616
前日	-11.2617
無餘	-11.2617
山名	-11.2617
侔	-11.262
者能	-11.262
三十七	-11.2621
繫辭	-11.2622
戸部	-11.2626
舊名	-11.2627
語及	-11.2627
閹	-11.2628
綉	-11.2628
瑛	-11.2628
梁王	-11.2628
睂	-11.263
持節	-11.2631
廣東	-11.2631
天帝	-11.2632
斟	-11.2633
兇	-11.2633
炫	-11.2633
方圓	-11.2634
從祀	-11.2636
幢	-11.2637
今後	-11.2637
曙	-11.2638
己酉	-11.2638
多則	-11.2639
撾	-11.264
五十年	-11.2643
然後知	-11.2643
萬八千	-11.2646
太上皇	-11.2646
王褒	-11.2647
覲	-11.265
五行志	-11.265
寺有	-11.2651
自當	-11.2657
以此知	-11.2657
其源	-11.2659
卷五	-11.2663
始為	-11.2663
其祖	-11.2663
欲殺	-11.2663
不啻	-11.2664
一次	-11.2665
所好	-11.267
拜相	-11.2671
有一人	-11.2673
孺子	-11.2674
飛鳥	-11.2674
乎故	-11.2677
科斗	-11.2679
今乃	-11.2679
能使	-11.2681
世無	-11.2681
帕	-11.2681
為細末	-11.2681
仲春	-11.2682
其德	-11.2683
不知此	-11.2683
欽定四庫全書子部十	-11.2684
詮	-11.2686
㢲	-11.2686
起居注	-11.2687
為誰	-11.2688
典籍	-11.2688
橙	-11.2689
有僧	-11.2689
千嵗	-11.2689
瑋	-11.2689
珮	-11.269
之喪	-11.2692
祖母	-11.2693
為重	-11.2693
中行	-11.2694
数	-11.2695
將何	-11.2696
㕔事	-11.2696
滔	-11.2696
煞	-11.27
辛丑	-11.2701
於理	-11.2701
禮官	-11.2702
東觀	-11.2705
儼然	-11.2708
慨然	-11.2709
隱居	-11.271
今日之	-11.2713
山陵	-11.2715
術士	-11.2717
者爲	-11.2721
已死	-11.2722
六十四	-11.2723
廣漢	-11.2723
日月之	-11.2724
諺云	-11.2725
辟邪	-11.2726
則已	-11.2726
天成	-11.2727
髙士	-11.2728
林木	-11.273
微子	-11.273
愕	-11.2731
隠居	-11.2733
湖廣	-11.2734
之目	-11.2734
閉門	-11.2735
織女	-11.2738
洛中	-11.2739
曰臣聞	-11.274
庭中	-11.274
鄭伯	-11.2741
則用	-11.2741
相遇	-11.2742
廨	-11.2743
二百四十	-11.2744
刄	-11.2744
用力	-11.2744
漢末	-11.2745
遑	-11.2745
同日	-11.2747
豢	-11.2747
訶	-11.2748
亶	-11.2748
揜	-11.275
商鞅	-11.275
原本	-11.275
說郛卷	-11.275
狸	-11.2751
栁子厚	-11.2751
穗	-11.2752
小人之	-11.2753
顚	-11.2753
緻	-11.2754
朞	-11.2754
而罷	-11.2755
西風	-11.2757
遂與	-11.2758
犂	-11.2758
孰能	-11.2759
免於	-11.2761
可見矣	-11.2763
愷	-11.2763
有差	-11.2764
辛未	-11.2764
孔雀	-11.2765
己之	-11.2768
於己	-11.2768
不悦	-11.277
之材	-11.2774
有客	-11.2775
老夫	-11.278
漁陽	-11.2784
用意	-11.2785
年年	-11.2789
事見	-11.279
禁止	-11.2791
畏之	-11.2792
王弼	-11.2792
乾元	-11.2793
花椒	-11.2798
愚按	-11.2801
事業	-11.2801
張儀	-11.2801
票	-11.2802
蔗	-11.2803
覬	-11.2804
貺	-11.2804
鑪	-11.2807
善書	-11.2807
闥	-11.2809
名畫	-11.2809
孛	-11.2809
丙寅	-11.2809
哀帝	-11.281
縻	-11.281
恐是	-11.2812
哺	-11.2812
也於是	-11.2812
以為常	-11.2814
胷中	-11.2814
此本	-11.2816
遂以為	-11.2817
在朝	-11.2819
當與	-11.282
檀香	-11.2822
七夕	-11.2827
也惟	-11.2829
官軍	-11.2832
僧道	-11.2832
大石	-11.2833
是書	-11.2833
雅頌	-11.2834
長城	-11.2837
風雲	-11.2838
制作	-11.284
以意	-11.284
門前	-11.2841
能致	-11.2846
千文	-11.2847
㑹試	-11.2851
竹筍	-11.2852
豳	-11.2857
惜哉	-11.2857
只有	-11.286
溜	-11.2861
襃	-11.2864
數十里	-11.2864
國夫人	-11.2867
翡翠	-11.2868
陸錫熊	-11.2869
歐陽永叔	-11.2869
曄	-11.287
鞫	-11.287
翎	-11.287
故聖人	-11.2871
五行之	-11.2871
大槩	-11.2871
帝嚳	-11.2871
能行	-11.2872
度量	-11.2873
黄龍	-11.2874
臠	-11.2874
五榖	-11.2877
胡桃	-11.2878
所親	-11.288
要之	-11.288
萬二千	-11.288
民力	-11.2881
廣大	-11.2881
復見	-11.2882
之儀	-11.289
禄山	-11.289
芳草	-11.2891
杏仁	-11.2891
相顧	-11.2891
作亂	-11.2892
許由	-11.2894
山河	-11.2899
相合	-11.29
山澤	-11.29
士子	-11.2902
開國	-11.2902
奏議	-11.2903
安帝	-11.2909
碣	-11.2914
都御史	-11.2914
江山	-11.2914
正衙	-11.2914
入城	-11.2915
潤州	-11.2918
十餘人	-11.2918
文侯	-11.2918
魯國	-11.2919
雲雨	-11.2919
不禁	-11.292
剌	-11.2924
杜牧之	-11.2925
殞	-11.2925
芮	-11.2926
漾	-11.2926
缾	-11.2927
嵓	-11.2927
嘻	-11.2927
二章	-11.2928
孫士毅總校官	-11.293
棧	-11.293
海南	-11.2932
旒	-11.2932
喘	-11.2933
立而	-11.2933
法師	-11.2934
論事	-11.2935
壬戌	-11.2936
齊之	-11.2937
也至於	-11.2939
生人	-11.2944
安南	-11.2944
不勝其	-11.2944
説苑	-11.2947
唐初	-11.2947
有遺	-11.2948
年間	-11.2956
不倦	-11.2957
廟碑	-11.2959
酒酣	-11.2959
成湯	-11.2964
索隱	-11.2969
淺深	-11.297
程氏	-11.2976
亦宜	-11.2976
兩浙	-11.2977
此帖	-11.2978
二品	-11.2979
䖝	-11.298
莱	-11.298
半月	-11.2983
古樂府	-11.2983
萊公	-11.2983
乎哉	-11.2988
專以	-11.2988
先以	-11.2989
豔	-11.2989
噉	-11.299
紀昀	-11.299
東向	-11.2991
廸	-11.2991
楯	-11.2992
捶	-11.2992
聫	-11.2992
市人	-11.2993
經營	-11.2994
考工記	-11.2995
殄	-11.2995
窩	-11.2995
厰	-11.2996
魅	-11.2996
扼	-11.2996
瞳	-11.2997
兌	-11.2997
嗤	-11.2998
玉樹	-11.3
北征	-11.3
律令	-11.3
皆以為	-11.3003
師友	-11.3005
正字	-11.3005
不辨	-11.3005
不可及	-11.3006
詔令	-11.3008
乃與	-11.3009
年六十	-11.3014
唐志	-11.3016
鹽鐵	-11.3019
固非	-11.3021
奉詔	-11.3025
習之	-11.3027
不令	-11.3029
通稱	-11.3029
即有	-11.3033
則易	-11.3036
古制	-11.3037
復何	-11.3038
侍者	-11.3039
螯	-11.3041
侍臣	-11.3042
兒女	-11.3042
恩澤	-11.3042
長慶	-11.3044
身為	-11.3045
近之	-11.3046
太息	-11.3047
薇	-11.3048
蓐	-11.3049
舄	-11.305
詬	-11.3053
廵撫	-11.3053
嘗作	-11.3054
覘	-11.3055
太監	-11.3055
拈	-11.3056
奴婢	-11.3057
羽翼	-11.3058
茵	-11.3058
昨夜	-11.3058
年月	-11.306
三十餘	-11.3062
甲戌	-11.3062
嘉禾	-11.3064
刑部尚書	-11.3065
觀察	-11.3066
中夜	-11.3066
剛柔	-11.3067
漢陽	-11.3068
其目	-11.3069
今已	-11.307
嘗聞	-11.3071
典禮	-11.3072
揚子雲	-11.3073
蕭蕭	-11.3076
以定	-11.3076
嵗星	-11.3077
漫録	-11.3081
范公	-11.3081
賢不肖	-11.3084
人意	-11.3086
數丈	-11.3087
信乎	-11.3089
已久	-11.3094
用字	-11.3094
身死	-11.3094
獨孤	-11.3099
于外	-11.3099
嘉興	-11.31
三十卷	-11.3102
璣	-11.3104
亦同	-11.3107
口中	-11.3107
堯典	-11.3108
斯文	-11.3108
等謹案	-11.3108
胡氏	-11.3108
歿	-11.311
建國	-11.3112
櫟	-11.3113
道中	-11.3113
獺	-11.3114
驍	-11.3114
鏁	-11.3115
賫	-11.3116
晏元獻	-11.3118
淳熈	-11.312
鍾繇	-11.3122
宗族	-11.3122
補闕	-11.3122
蚩尤	-11.3123
貿	-11.3125
周天	-11.313
昭陵	-11.3131
十篇	-11.3132
楊栁	-11.3134
惡也	-11.3136
夢見	-11.3137
九重	-11.3138
此曲	-11.3141
幕府	-11.3141
今文	-11.3143
行禮	-11.3147
未始	-11.3149
講官	-11.3155
時政	-11.3155
之年	-11.3158
記事	-11.3158
尊者	-11.3159
所不及	-11.3159
刑獄	-11.3162
新書	-11.3162
朝臣	-11.3163
今按	-11.3164
治民	-11.3165
北京	-11.3165
姓也	-11.3165
南風	-11.3165
正徳	-11.3166
行狀	-11.3166
四明	-11.317
與衆	-11.3171
國事	-11.3174
日月星辰	-11.3175
月恭校上總纂官	-11.3176
苓	-11.3176
嵇康	-11.3176
萬三千	-11.3178
彭蠡	-11.3179
子華子	-11.3181
雹	-11.3181
瀾	-11.3182
白金	-11.3182
副都御史	-11.3182
曾孫	-11.3184
樞密院	-11.3185
穏	-11.3186
死亡	-11.3186
御府	-11.3187
人必	-11.3189
揲	-11.3191
者莫不	-11.3197
遂得	-11.3197
文簡	-11.3197
聞於	-11.3199
曰願	-11.3199
有一種	-11.32
亦不知	-11.3204
大厯	-11.3205
李廣	-11.3208
具奏	-11.3209
飾以	-11.321
比也	-11.3212
而忘	-11.3214
三十九	-11.3214
之竒	-11.3216
執中	-11.3216
昭宗	-11.322
年表	-11.3221
安有	-11.3222
官屬	-11.3224
百餘人	-11.3224
七寸	-11.3226
古無	-11.3226
王羲之	-11.3226
金帶	-11.3232
股肱	-11.3234
雜説	-11.3237
剏	-11.3238
凛	-11.3238
攤	-11.3239
樣	-11.324
中書省	-11.324
嗔	-11.324
東坡云	-11.3241
虀	-11.3242
芹	-11.3242
過此	-11.3243
也然而	-11.3244
鼇	-11.3245
甯	-11.3247
劉夢得	-11.3249
承平	-11.3251
幷	-11.3251
後因	-11.3252
老矣	-11.3253
家禮	-11.3254
二十八宿	-11.3256
漢文帝	-11.3258
絶句云	-11.3259
三皇	-11.3273
南康	-11.3275
薦之	-11.3277
便於	-11.328
山南	-11.328
司命	-11.3283
堯夫	-11.3285
國君	-11.3286
所愛	-11.329
也東坡	-11.329
超然	-11.329
潭州	-11.3292
大呼	-11.3293
太夫人	-11.3295
緜	-11.3297
火燒	-11.3299
至公	-11.3299
而愈	-11.33
異乎	-11.3301
封建	-11.3302
不就	-11.3302
孟軻	-11.3302
今觀	-11.3302
雷電	-11.3304
欝	-11.3304
大雪	-11.3304
髣髴	-11.3305
摺	-11.3306
嘏	-11.3308
君子小人	-11.3308
祟	-11.3309
李義山	-11.3309
靄	-11.331
則可以	-11.331
無愧	-11.331
豈復	-11.3311
毳	-11.3312
陬	-11.3312
上問	-11.3314
長大	-11.3315
不能得	-11.3322
元豐中	-11.3324
茫	-11.3325
至於此	-11.3325
春日	-11.3326
五世	-11.3326
惟恐	-11.3326
未暇	-11.3327
葉如	-11.3329
寓言	-11.3331
在地	-11.3331
也又云	-11.3332
不克	-11.3336
召對	-11.3337
􁀙􁀙	-11.3337
宮室	-11.3337
百司	-11.334
開成	-11.3341
昭穆	-11.3342
武帝時	-11.3343
意欲	-11.3344
萼	-11.3349
舊説	-11.3349
亦可謂	-11.3354
梁武	-11.3354
亦已	-11.3354
舟人	-11.3354
恐懼	-11.3354
净	-11.3356
瀕	-11.3358
何謂也	-11.3359
不但	-11.336
諍	-11.3361
磯	-11.3363
之所由	-11.3364
偹	-11.3366
曵	-11.3366
郄	-11.3367
皇考	-11.3368
置於	-11.3368
齊國	-11.337
是夕	-11.3372
猾	-11.3372
老氏	-11.3373
木香	-11.3374
水調	-11.3374
異姓	-11.3375
立言	-11.3378
屐	-11.3378
王沂公	-11.3379
無一人	-11.3379
入宫	-11.338
賜名	-11.3384
西海	-11.3385
仰視	-11.3386
移時	-11.3389
輕薄	-11.3392
七十里	-11.3392
不可謂	-11.3396
小國	-11.3398
俗謂之	-11.3399
深山	-11.34
五百里	-11.34
洪州	-11.3401
白鶴	-11.3405
有味	-11.3414
十倍	-11.3415
巫咸	-11.3417
導之	-11.3417
章帝	-11.3417
薺	-11.3418
素問	-11.3418
軍旅	-11.3419
熟視	-11.342
凡四	-11.342
權衡	-11.342
蘂	-11.3422
不給	-11.3422
元元	-11.3422
埶	-11.3423
崧	-11.3425
存之	-11.3427
覓	-11.3427
附於	-11.3427
蕊	-11.3429
汞	-11.3429
爼	-11.343
茲	-11.3431
柬	-11.3431
漢初	-11.3431
裡	-11.3432
峩	-11.3432
譲	-11.3432
有徳	-11.3432
工部尚書	-11.3433
傭	-11.3434
蜚	-11.3436
蔡君謨	-11.3436
邑人	-11.3438
詛	-11.3439
南軒	-11.3439
白首	-11.3443
而不及	-11.3443
復出	-11.3444
哉故	-11.3444
晉王	-11.3451
提要	-11.3455
在中書	-11.3456
國風	-11.3456
少有	-11.3457
處分	-11.3459
得天下	-11.3459
甚嚴	-11.3461
元嘉	-11.3466
竟以	-11.3467
明君	-11.3467
忠厚	-11.3467
帝堯	-11.3468
慎勿	-11.347
新法	-11.3472
端溪	-11.3476
休息	-11.3478
與天	-11.3481
瘧	-11.3482
漢水	-11.3483
入見	-11.3483
盡力	-11.3483
各異	-11.3489
内翰	-11.349
慄	-11.3492
鶚	-11.3492
趺	-11.3493
浹	-11.3494
後唐	-11.3496
趍	-11.3496
駙馬	-11.3496
拉	-11.3497
不假	-11.3497
軻	-11.3498
戊寅	-11.3498
寰	-11.3499
得之矣	-11.3503
視事	-11.3503
三里	-11.3507
錢唐	-11.3508
乗輿	-11.3509
善言	-11.351
正直	-11.3514
轉而	-11.3514
所立	-11.3514
官名	-11.3515
自來	-11.3519
雖多	-11.3524
百四十	-11.3528
之辨	-11.3529
香爐	-11.3529
楚詞	-11.3532
常州	-11.3533
之言曰	-11.3534
二十萬	-11.3536
尚書郎	-11.3537
王命	-11.3538
丁謂	-11.3539
賜金	-11.3541
端午	-11.3543
彈琴	-11.3545
余家	-11.3546
文理	-11.3548
嚥	-11.3552
方丈	-11.3553
儋	-11.3554
燄	-11.3554
每年	-11.3555
櫓	-11.3555
烘	-11.3557
昔有	-11.3558
去就	-11.3559
不全	-11.3559
鑊	-11.356
月日	-11.356
廐	-11.3561
也古人	-11.3561
坂	-11.3563
紫色	-11.3564
戊午	-11.3566
已後	-11.3567
大亂	-11.3569
逺方	-11.357
主司	-11.357
佛書	-11.357
死後	-11.3571
論詩	-11.3571
伐之	-11.3572
財物	-11.3573
錦衣	-11.3574
盛事	-11.3574
成文	-11.3576
一念	-11.3576
先朝	-11.3582
泰誓	-11.3584
了無	-11.3585
得非	-11.3585
借用	-11.3586
教化	-11.3586
四十二	-11.3586
一帖	-11.3587
賜宴	-11.3589
面目	-11.3589
數十萬	-11.3591
數千里	-11.3593
石頭	-11.3596
吳人	-11.3597
乗馬	-11.3601
前軰	-11.3601
假令	-11.3602
非其人	-11.3607
先知	-11.3607
龍腦	-11.3608
桂林	-11.3608
頗多	-11.361
硝	-11.361
景泰	-11.361
自注	-11.3613
不修	-11.3613
曹氏	-11.3614
七十餘	-11.3617
篆文	-11.3618
永安	-11.3618
天神	-11.3619
抱朴子	-11.362
燼	-11.3621
箔	-11.3622
黿	-11.3622
䨇	-11.3623
愉	-11.3623
婿	-11.3624
舁	-11.3625
居處	-11.3626
竊謂	-11.3626
溉	-11.3626
百花	-11.3627
蘿蔔	-11.3628
丁巳	-11.3628
鱣	-11.3631
啇	-11.3631
元稹	-11.3632
炮	-11.3632
秦州	-11.3633
槍	-11.3633
曽祖	-11.3636
錦繡	-11.3636
作小	-11.3638
疑是	-11.3639
新城	-11.3642
軍節度使	-11.3643
文明	-11.3644
利者	-11.3645
長三尺	-11.3648
旁有	-11.365
甚盛	-11.3651
老成	-11.3651
府庫	-11.3652
二十六年	-11.3653
知其為	-11.3655
其學	-11.3658
淮隂	-11.3661
毛氏	-11.3661
發墨	-11.3667
四千	-11.3669
總管	-11.3669
同異	-11.367
無間	-11.3672
祕書	-11.3673
建文	-11.3676
舊事	-11.3676
起于	-11.3676
郞	-11.3681
下句	-11.3684
女郎	-11.3685
以防	-11.3686
愠	-11.3687
覿	-11.3687
太常博士	-11.3688
此心	-11.3688
魏書	-11.3689
改之	-11.3689
某官	-11.369
無數	-11.369
鄉試	-11.369
寥	-11.3693
摸	-11.3693
後果	-11.3697
戊申	-11.37
不差	-11.37
術者	-11.3705
文貞	-11.371
大水	-11.3711
一面	-11.3711
神龍	-11.3712
收之	-11.3722
必待	-11.3724
焉得	-11.3725
莫知所	-11.373
哀哉	-11.3737
一貫	-11.3737
於是乎	-11.3739
學術	-11.374
文正公	-11.3741
殿試	-11.3741
故實	-11.3742
泗州	-11.3744
自明	-11.3744
漢髙祖	-11.3749
愬	-11.3749
始末	-11.3756
西京雜記	-11.3756
舉兵	-11.3757
乙亥	-11.3757
知古	-11.3757
最佳	-11.3757
明紀事本末	-11.3757
夔	-11.3758
風雅	-11.3758
偁	-11.3759
言訖	-11.376
士夫	-11.3761
數百年	-11.3764
不佳	-11.3764
釋奠	-11.3765
忽然	-11.3768
而走	-11.3771
坐於	-11.3771
百丈	-11.3773
先師	-11.3776
雜志	-11.378
終無	-11.3781
諸道	-11.3783
封禪書	-11.3785
謬矣	-11.3787
行於世	-11.3789
二名	-11.3792
水仙	-11.3792
因事	-11.3797
無逸	-11.3804
紀綱	-11.3805
夏商	-11.3807
君子不	-11.3809
佛寺	-11.381
古語	-11.381
存乎	-11.3812
三丈	-11.3812
之端	-11.3816
鷙	-11.3817
忱	-11.3821
彎	-11.3821
罩	-11.3822
罄	-11.3823
汨	-11.3823
更生	-11.3824
誑	-11.3824
盼	-11.3825
亦未嘗	-11.3825
稗	-11.3825
三十八	-11.3825
必能	-11.3827
聖俞	-11.3828
㸑	-11.3828
矮	-11.3828
蝦蟇	-11.3828
引詩	-11.3831
名氏	-11.3831
傳聞	-11.3832
惟此	-11.3832
兩漢	-11.3833
潢	-11.3835
㑹于	-11.3838
平時	-11.3841
横行	-11.3842
經典	-11.3843
走馬	-11.3843
而别	-11.3843
以火	-11.3845
漢制	-11.3847
七千	-11.3849
銅器	-11.3849
俱有	-11.3849
善畫	-11.3849
難於	-11.3849
龍圖	-11.385
削去	-11.3851
作書	-11.3853
徳行	-11.3854
章草	-11.3856
無益於	-11.3857
則止	-11.386
不然則	-11.3864
律詩	-11.3864
不窮	-11.3868
精妙	-11.387
安撫	-11.387
賢於	-11.3875
遇之	-11.3876
榭	-11.388
百金	-11.3881
鄭氏注	-11.3882
黥	-11.3882
啞	-11.3882
其質	-11.3883
淄	-11.3884
眞宗	-11.3885
人身	-11.3885
儒學	-11.3886
肴	-11.3886
燦	-11.3886
仙客	-11.3886
簽	-11.3887
姊妹	-11.3888
四聲	-11.3888
㐮	-11.389
沁	-11.389
畀	-11.389
髭	-11.3892
五嶽	-11.3893
葅	-11.3894
聲音	-11.3894
冬夏	-11.3895
災異	-11.3896
音律	-11.3898
壬申	-11.3899
可勝	-11.39
乙巳	-11.39
沱	-11.3901
胡椒	-11.3902
元宗	-11.3902
率多	-11.3903
零落	-11.3907
予觀	-11.3909
不似	-11.3913
僉事	-11.3914
本是	-11.3915
盛於	-11.3917
留之	-11.3921
孰為	-11.3923
花落	-11.3926
列國	-11.3929
兩省	-11.3931
所司	-11.3931
漁者	-11.3935
俗謂	-11.3937
三輔	-11.394
自負	-11.3942
神女	-11.3942
亦須	-11.3943
以助	-11.3944
七嵗	-11.3947
黄花	-11.3948
瞑	-11.3952
泣下	-11.3953
縠	-11.3953
銑	-11.3954
癸酉	-11.3956
河朔	-11.3957
蝨	-11.3958
叔孫	-11.3958
俯仰	-11.3959
者不過	-11.3959
謠	-11.3961
之可也	-11.3963
臣竊	-11.3964
東坡詩	-11.3965
以鐵	-11.3967
套	-11.3971
成周	-11.3971
每月	-11.3972
地黄	-11.3973
左僕射	-11.3977
維揚	-11.3977
宫詞	-11.3979
梁元帝	-11.3979
方知	-11.398
聽其	-11.3981
何以知之	-11.3981
豈獨	-11.3983
二君	-11.3984
朝野	-11.3988
即古	-11.3988
曰吾聞	-11.3988
己巳	-11.3989
六分	-11.3991
洛水	-11.3992
古法	-11.3997
八音	-11.3997
又東逕	-11.4
之候	-11.4001
房中	-11.4004
黃帝	-11.4006
薔薇	-11.4008
華亭	-11.401
華嚴	-11.4011
絛	-11.4014
前殿	-11.4015
岳陽	-11.4016
佃	-11.4017
箠	-11.402
在蜀	-11.4021
攫	-11.4021
雷霆	-11.4021
峒	-11.4021
侣	-11.4021
入室	-11.4022
芟	-11.4023
儕	-11.4023
个	-11.4026
害之	-11.4026
峴	-11.4027
綘	-11.4029
鵰	-11.4029
亊	-11.4029
昭儀	-11.4029
他書	-11.403
郭璞注	-11.403
枇杷	-11.4031
馬援	-11.4031
何敢	-11.4034
墓誌銘	-11.4034
於其間	-11.4035
鄆	-11.4035
進御	-11.4035
合為一	-11.4036
詢之	-11.4038
嘗問	-11.4038
與天地	-11.404
五聲	-11.404
廣雅	-11.4043
象牙	-11.4043
武安	-11.4044
者甚多	-11.4045
藍田	-11.4047
井田	-11.4049
法司	-11.4052
聖賢之	-11.4053
一角	-11.4054
半年	-11.4057
亦復	-11.4058
建言	-11.4059
文詞	-11.4059
連山	-11.406
佛像	-11.4061
禮畢	-11.4069
紫衣	-11.4076
上殿	-11.408
次序	-11.4082
靚	-11.4082
弇	-11.4084
大敗	-11.4084
新婦	-11.4085
簡子	-11.4087
宣政	-11.4087
悽	-11.4088
郯	-11.4088
黏	-11.4088
服藥	-11.4093
琛	-11.4093
僵	-11.4094
葆	-11.4095
霓	-11.4099
極矣	-11.4099
其禍	-11.4101
信矣	-11.4102
六卿	-11.4104
正朔	-11.4105
元章	-11.4107
百嵗	-11.4107
舜禹	-11.4108
邦國	-11.4108
聖人之道	-11.411
百千	-11.411
嵩山	-11.4111
以遺	-11.4114
為御史	-11.4116
樓臺	-11.4117
浮雲	-11.4118
感動	-11.4118
不任	-11.4118
乃復	-11.4121
遂使	-11.4124
堂下	-11.4126
者悉	-11.4128
乎且	-11.413
是夜	-11.4132
歌行	-11.4136
二里	-11.4137
流血	-11.4139
之勝	-11.4139
雜以	-11.4144
梨花	-11.4144
寺中	-11.4145
百尺	-11.4149
天啓	-11.415
十二日	-11.415
娟	-11.4152
喪服	-11.4154
不預	-11.4156
故稱	-11.4157
隳	-11.4157
民心	-11.4157
顗	-11.4158
王府	-11.4158
䜛	-11.4158
𤨏	-11.4158
大中祥符	-11.4159
夬	-11.4159
白花	-11.416
之象也	-11.416
枸杞	-11.416
紊	-11.4161
太公曰	-11.4162
涕泣	-11.4162
鷂	-11.4162
緊	-11.4162
玉山	-11.4164
歌詩	-11.4165
櫃	-11.4165
語録	-11.4165
淇	-11.4165
數百里	-11.4166
所産	-11.4168
獨無	-11.4171
襄子	-11.4172
三百年	-11.4173
都人	-11.4173
春色	-11.4174
咸通	-11.4176
不曾	-11.4176
恨不	-11.4178
餘慶	-11.4179
入閣	-11.418
師道	-11.418
入蜀	-11.4181
文定公	-11.4181
長江	-11.4182
重複	-11.4187
比於	-11.4187
舊例	-11.4187
石壁	-11.4194
光祿	-11.4195
一百五十	-11.4196
周室	-11.4196
言之則	-11.4196
不欺	-11.4197
為學士	-11.4201
自外	-11.4202
引用	-11.4202
季孫	-11.4205
春秋時	-11.4211
落日	-11.4214
踰年	-11.4215
發於	-11.4215
墩	-11.4217
開封府	-11.4218
無别	-11.422
亦難	-11.422
忻	-11.422
塋	-11.4222
家法	-11.4224
羅浮	-11.4225
其旁	-11.4225
陸徳明	-11.4226
葭	-11.4226
襦	-11.4227
憔悴	-11.4227
擎	-11.4228
隗	-11.4229
趂	-11.4229
穫	-11.4231
鼉	-11.4232
士民	-11.4232
扁鵲	-11.4232
備矣	-11.4233
旌旗	-11.4235
齋戒	-11.4235
更相	-11.4236
此外	-11.4239
靈素	-11.424
逆旅	-11.4242
俗語	-11.4242
人面	-11.4246
固當	-11.4247
不茍	-11.4249
登山	-11.4251
宫女	-11.4254
所指	-11.4256
李善	-11.426
子母	-11.426
京房	-11.4262
亦不敢	-11.4264
此卷	-11.4266
稍稍	-11.4266
夏后	-11.4268
桓帝	-11.4268
廟中	-11.427
二十九年	-11.4279
不諱	-11.4279
敏中	-11.4283
山海	-11.4283
沅	-11.4288
饒州	-11.4291
耒	-11.4292
塵埃	-11.4294
曲直	-11.4295
風起	-11.4296
不煩	-11.4297
菲	-11.4297
娼	-11.4297
虫	-11.4298
因言	-11.4298
晡	-11.43
殂	-11.43
復歸	-11.43
余觀	-11.4301
鶡冠子	-11.4302
象形	-11.4303
豈知	-11.4304
國名	-11.4309
居民	-11.4313
中流	-11.4313
進賢	-11.4313
昆吾	-11.4315
開門	-11.4316
小臣	-11.4318
紫微	-11.4318
大夏	-11.4319
伐木	-11.432
洪水	-11.4324
臣請	-11.4324
與客	-11.4328
押字	-11.4329
八日	-11.433
守令	-11.4332
兒童	-11.4333
動則	-11.4334
簡公	-11.4336
樹下	-11.4337
一半	-11.4338
太倉	-11.4339
之始也	-11.434
著作	-11.434
侍兒	-11.4341
西蜀	-11.4343
不報	-11.4345
經緯	-11.4349
北地	-11.435
莊子曰	-11.4351
凡五	-11.4355
暇日	-11.4355
以銀	-11.4356
洵	-11.4358
貴重	-11.4359
漢家	-11.436
司天	-11.4364
不收	-11.4364
斟酌	-11.4364
馮翊	-11.4368
姧	-11.4369
晞	-11.4369
慝	-11.4369
中書舎人	-11.4369
三斗	-11.437
秋水	-11.4375
丙申	-11.4375
裾	-11.4377
滄海	-11.4378
意謂	-11.4381
既入	-11.4381
起兵	-11.4381
三十四	-11.4382
玠	-11.4382
聞之曰	-11.4384
盡心	-11.4385
天下之大	-11.4385
里人	-11.4386
桓温	-11.4386
翰苑	-11.4389
莊王	-11.4389
吕覽	-11.4389
何等	-11.439
蠻夷	-11.439
六藝	-11.4394
二十一日	-11.4395
各得其	-11.4396
於彼	-11.4397
兩端	-11.4399
之力也	-11.4402
雖小	-11.4408
不得已而	-11.441
迄今	-11.4413
殺身	-11.4416
仕至	-11.4418
所獲	-11.442
智永	-11.442
建議	-11.4422
宣和間	-11.4425
二升	-11.4426
玉壺	-11.4426
林甫	-11.4429
嶺外	-11.443
錠	-11.443
稼穡	-11.443
願得	-11.4431
跗	-11.4431
炤	-11.4431
諡文	-11.4433
國主	-11.4434
鱠	-11.4434
潑	-11.4434
賢聖	-11.4435
竽	-11.4435
紈	-11.4435
富民	-11.4436
焯	-11.4437
焰	-11.4438
癸巳	-11.4439
謂人曰	-11.444
檐	-11.444
十七日	-11.4442
不務	-11.4444
犍	-11.4444
辛亥	-11.4444
淤	-11.4444
琅邪	-11.4446
呼吸	-11.4447
刳	-11.4447
俗作	-11.4447
公孫𢎞	-11.4449
任昉	-11.4451
豈惟	-11.4454
二斤	-11.4454
桃源	-11.4458
况於	-11.4458
師古注	-11.446
七里	-11.4462
慶歴	-11.4471
每至	-11.4471
阿房	-11.4473
中秋	-11.4474
之險	-11.4475
八卷	-11.448
異哉	-11.4481
車騎	-11.4482
延夀	-11.4483
章奏	-11.4484
君子以	-11.4485
復來	-11.449
大篆	-11.4493
人呼為	-11.4497
一欽定四庫全書	-11.4497
客至	-11.4498
三升	-11.4498
飮	-11.4498
繫之	-11.45
蝴蝶	-11.45
窰	-11.4501
平仲	-11.4501
甚喜	-11.4505
夷簡	-11.4506
罌	-11.4507
軋	-11.4508
徤	-11.4509
陘	-11.451
霓裳	-11.4511
襪	-11.4512
嶼	-11.4515
我朝	-11.4516
夜行	-11.4517
杏花	-11.452
不見其	-11.4522
春分	-11.4523
萬古	-11.4526
所惡	-11.4526
職官	-11.4527
無情	-11.4528
霜雪	-11.453
宫商	-11.453
慶厯中	-11.4531
談苑	-11.4532
避暑	-11.4533
再入	-11.4533
樓閣	-11.4534
釀酒	-11.4534
百僚	-11.4535
古銅	-11.4538
異時	-11.4539
韓非	-11.4539
宋王	-11.454
省文	-11.4541
朝官	-11.4544
之譌	-11.4546
郊祀志	-11.4548
筆勢	-11.4556
丼	-11.4557
天文志	-11.4557
佳者	-11.4557
郡治	-11.4558
台州	-11.4558
其私	-11.4558
南嶽	-11.4558
名號	-11.4559
諫議	-11.4561
李陵	-11.4561
扣之	-11.4561
妄言	-11.4562
天下之人	-11.4564
龜山	-11.4564
鎰	-11.4568
文臣	-11.4569
復古	-11.4573
源流	-11.4574
國學	-11.4575
司馬光	-11.4575
晉國	-11.4576
隧	-11.4577
删	-11.4578
而後可	-11.4578
䙝	-11.4579
惱	-11.458
彦博	-11.458
謟	-11.4581
黄鐘	-11.4583
惆悵	-11.4583
其文曰	-11.4584
懌	-11.4584
顛倒	-11.4584
畤	-11.4584
堯時	-11.4585
漢髙	-11.4585
鶡	-11.4586
薤	-11.4586
防禦	-11.4586
种	-11.4586
嵐	-11.4587
拒之	-11.4587
躔	-11.4592
情性	-11.4592
臨淄	-11.4593
處處	-11.4599
堯佐	-11.4607
軍事	-11.461
祠堂	-11.4611
滋味	-11.4613
首章	-11.4614
以給	-11.4619
縣尉	-11.4624
宫觀	-11.4625
大父	-11.4625
下獄	-11.4628
上清	-11.4628
真定	-11.4629
五官	-11.4629
西川	-11.4632
興國	-11.4633
鰕	-11.4634
不滅	-11.4635
不擇	-11.4637
已定	-11.464
餙	-11.4646
囑	-11.4646
濂	-11.4648
𨼆	-11.4648
耘	-11.4649
愴	-11.465
罽	-11.465
瀟湘	-11.465
爇	-11.4651
高麗	-11.4651
後進	-11.4653
縣西北	-11.4654
暄	-11.4654
娃	-11.4656
鴆	-11.4657
鑚	-11.4657
昔日	-11.4657
塑	-11.4657
所刻	-11.4658
少游	-11.4659
者唯	-11.4659
性情	-11.466
王仲	-11.466
入中國	-11.4662
世本	-11.4662
騶虞	-11.4662
六千	-11.4662
後人所	-11.4662
蝦蟆	-11.4663
仲淹	-11.4663
千四百	-11.4666
數寸	-11.4667
壯士	-11.4667
不達	-11.4672
龍蛇	-11.4674
不敢言	-11.4676
趙普	-11.4679
畫工	-11.4681
寧王	-11.4684
利用	-11.4686
大河	-11.4686
長睿	-11.4686
天祐	-11.4688
晉文公	-11.4693
柰	-11.4697
處置	-11.4699
廬江	-11.47
定武	-11.4702
二十七年	-11.4705
至孝	-11.4706
三十一	-11.4707
閩人	-11.4711
孝弟	-11.4712
老翁	-11.4713
肱	-11.4717
雨露	-11.4718
並行	-11.4719
僂	-11.4719
䰟	-11.472
鑠	-11.4722
隲	-11.4722
光禄大夫	-11.4723
茭	-11.4725
瀹	-11.4725
宜春	-11.4726
固不可	-11.4726
臨朝	-11.4727
泓	-11.4731
凡六	-11.4731
溝洫	-11.4732
既久	-11.4732
湫	-11.4735
傷寒	-11.4737
蒼頡	-11.4737
曰妾	-11.4744
立廟	-11.4747
牧之	-11.4747
西戎	-11.4747
句法	-11.4754
兩制	-11.4756
廣記	-11.4757
其背	-11.4757
隆慶	-11.476
理宗	-11.4762
杜陵	-11.4766
造物	-11.4767
震澤	-11.4771
十九日	-11.4772
何也曰	-11.4772
通州	-11.4772
後代	-11.4773
玉泉	-11.4774
遂命	-11.4779
愛民	-11.478
不可得也	-11.4783
二十餘年	-11.4783
帖云	-11.4791
慷慨	-11.4792
詁	-11.4793
次韻	-11.4794
周益公	-11.4796
菉豆	-11.4797
諸侯王	-11.4801
鬰	-11.4801
詈	-11.4801
儗	-11.4802
窗	-11.4803
藜	-11.4803
千三百	-11.4803
㳂	-11.4803
儺	-11.4806
扁舟	-11.4806
汲冢	-11.481
富者	-11.4811
甚急	-11.4813
荳	-11.4813
僅存	-11.4815
務在	-11.4817
呉越	-11.4819
筋骨	-11.482
二帝	-11.482
五升	-11.482
堂堂	-11.4821
之黨	-11.4822
好竒	-11.4825
立身	-11.4826
庾信	-11.4826
相屬	-11.4827
特進	-11.4828
汝州	-11.4833
科目	-11.4833
達於	-11.4834
不異	-11.4836
者無不	-11.4836
還家	-11.4836
孟春	-11.4837
之貌	-11.4845
之所在	-11.4849
右僕射	-11.4851
亞夫	-11.4852
又謂之	-11.4855
宣德	-11.4863
葷	-11.4863
難知	-11.4863
興亡	-11.4865
鯁	-11.4866
叨	-11.4867
撼	-11.4867
蒲萄	-11.4868
醤	-11.4868
杜鵑	-11.487
蜘蛛	-11.487
諶	-11.4871
繚	-11.4872
驤	-11.4873
爆	-11.4875
其害	-11.4877
袁紹	-11.4878
不自知	-11.488
石鼓	-11.488
傘	-11.4881
孫愐	-11.4883
歸去	-11.4886
腹心	-11.4886
寺碑	-11.4888
五刑	-11.489
諸賢	-11.4892
不謹	-11.4892
擇其	-11.4892
四皓	-11.4894
香山	-11.4894
北朝	-11.4895
兵革	-11.4897
于闐	-11.4898
而不知其	-11.4899
呉王	-11.4902
東林	-11.4905
越州	-11.4912
里中	-11.4912
欲知	-11.4913
之事也	-11.4918
錢氏	-11.4918
大約	-11.492
正當	-11.4923
韓魏	-11.4925
崔氏	-11.4928
暘	-11.4935
責其	-11.4938
昌言	-11.4939
草制	-11.4939
金花	-11.4941
葩	-11.4943
撿	-11.4943
紘	-11.4943
洮	-11.4944
紬	-11.4944
慶元	-11.4944
棚	-11.4944
皮日休	-11.4945
哂	-11.4945
神道碑	-11.4946
之誤也	-11.4946
迦	-11.4948
延平	-11.4948
衘	-11.4948
噪	-11.4948
鉏	-11.495
侍讀學士	-11.495
相隨	-11.4951
賈逵	-11.4951
佳人	-11.4952
莫非	-11.4952
胡人	-11.4952
舟楫	-11.4953
其黨	-11.4953
垂拱	-11.4953
六十里	-11.4953
石城	-11.4954
小舟	-11.4954
以禦	-11.4954
百斤	-11.4955
藩鎮	-11.4957
丁酉	-11.4958
張騫	-11.4958
風氣	-11.496
真跡	-11.4962
叅政	-11.4964
婺	-11.4967
雲母	-11.4971
大悦	-11.4972
證也	-11.4972
地形	-11.4976
不踰	-11.4978
淮南子曰	-11.4978
他如	-11.4982
無憂	-11.4985
智謂	-11.4986
十二卷	-11.4989
閣門	-11.4996
一歲	-11.4999
官爵	-11.5
發兵	-11.5
大衍	-11.5003
五兩	-11.5004
天師	-11.5006
内殿	-11.5012
命婦	-11.5013
溟	-11.5015
夜深	-11.5015
餒	-11.5015
戡	-11.5016
翮	-11.5017
巍	-11.5018
屛	-11.5019
埤雅	-11.5019
輻	-11.502
朋黨	-11.5021
篡	-11.5021
琪	-11.5022
黠	-11.5023
璠	-11.5024
潘岳	-11.5025
後數日	-11.5026
鳯翔	-11.5027
簡易	-11.5027
莘老	-11.5028
戊戌	-11.5029
印文	-11.5033
提督	-11.5035
常平	-11.5039
雲林	-11.5041
雍州	-11.5045
獨行	-11.5046
上諭	-11.5047
蜀郡	-11.505
希夷	-11.5051
六寸	-11.5052
仍舊	-11.5052
夏正	-11.5055
五篇	-11.5059
井水	-11.5059
士君子	-11.5062
四十餘	-11.5066
夏日	-11.5067
半夜	-11.5067
㸃畫	-11.5068
風塵	-11.5071
一婦人	-11.5071
五等	-11.5077
上句	-11.5077
地氣	-11.5078
魚袋	-11.5083
答云	-11.5083
工人	-11.5086
莘	-11.5088
郊廟	-11.5088
士女	-11.5091
考試	-11.5094
憇	-11.5095
楨	-11.5095
文肅	-11.5095
縝	-11.5096
瑪	-11.5096
襖	-11.5099
阿堵	-11.5099
不屈	-11.51
拏	-11.5102
涌	-11.5102
酒器	-11.5107
羽林	-11.5108
唯有	-11.5109
而不見	-11.5109
輔國	-11.5111
長洲	-11.5112
景仁	-11.5112
經年	-11.5116
黄昏	-11.5123
白髪	-11.5127
靈公	-11.5128
浮圖	-11.513
亦誤	-11.5135
家居	-11.5136
郡國志	-11.5136
問何	-11.5137
成就	-11.5138
水陸	-11.5144
王衍	-11.5145
又加	-11.5146
改易	-11.5147
馬蹄	-11.515
三百篇	-11.515
神靈	-11.5152
臚	-11.5157
荆楚	-11.5158
世界	-11.5159
濓	-11.5161
捻	-11.5162
元瑞	-11.5163
儂	-11.5164
暹	-11.5164
郛	-11.5165
剰	-11.5165
省試	-11.5165
穆天子傳	-11.5167
埃	-11.5167
據此	-11.5168
圯	-11.5169
纍	-11.517
箬	-11.5172
踊	-11.5172
芭蕉	-11.5173
蚩	-11.5173
颺	-11.5174
夷齊	-11.5176
他處	-11.5176
邯	-11.5176
討論	-11.5176
駰	-11.5176
臾	-11.5177
荻	-11.5177
趙公	-11.5177
賭	-11.5178
六爻	-11.5179
海水	-11.518
描	-11.5183
失之矣	-11.5184
真珠	-11.5186
未審	-11.5188
賢愚	-11.5189
千餘里	-11.5193
七十五	-11.5194
曰寡人	-11.5194
義士	-11.5196
賈生	-11.5199
縣西南	-11.5199
也古者	-11.5201
佛經	-11.5203
蘇武	-11.5204
語意	-11.5207
應劭曰	-11.5209
之法也	-11.521
職掌	-11.5214
應舉	-11.5215
劉備	-11.5216
宋景文	-11.5219
秋分	-11.5221
顔師古注曰	-11.5221
異端	-11.5223
烈祖	-11.5225
范陽	-11.5226
孰謂	-11.5226
東晉	-11.5229
八十四	-11.523
紵	-11.5235
色黄	-11.5235
帚	-11.5239
耨	-11.524
三館	-11.5241
苧	-11.5241
裸	-11.5242
說者	-11.5242
診	-11.5243
闘	-11.5243
估	-11.5244
賢士	-11.5244
汲黯	-11.5244
日夕	-11.5245
鉗	-11.5247
妥	-11.5248
悌	-11.5249
塹	-11.5249
天下之士	-11.525
雨雪	-11.525
凡夫	-11.525
慤	-11.5251
皃	-11.5251
酇	-11.5254
木𤓰	-11.5254
宰我	-11.5254
昌齡	-11.5255
楚國	-11.5261
者往往	-11.5269
水面	-11.5271
王喬	-11.5272
易簡	-11.5273
敵國	-11.5274
浙東	-11.5276
陸賈	-11.5287
小吏	-11.5291
馮道	-11.5291
九寸	-11.5293
雙陸	-11.5294
嗜酒	-11.5297
遂絶	-11.5298
元載	-11.5302
雌黄	-11.5305
刑法	-11.5309
和平	-11.531
甲兵	-11.5311
意思	-11.5315
詘	-11.5316
勞苦	-11.5317
入京	-11.5317
不肖者	-11.5318
白鹿	-11.5319
腑	-11.5319
玷	-11.5319
碧雲	-11.532
班氏	-11.532
癘	-11.5322
苻堅	-11.5322
挍	-11.5323
悚	-11.5323
筴	-11.5323
脹	-11.5324
飡	-11.5324
黷	-11.5325
茫茫	-11.5325
幙	-11.5325
犒	-11.5327
姝	-11.5328
妣	-11.5328
團練	-11.5328
湊	-11.5329
纛	-11.5329
赤色	-11.533
入貢	-11.533
禫	-11.5331
塚	-11.5332
溶	-11.5333
敵人	-11.5334
夷吾	-11.5335
嶷	-11.5335
失道	-11.5336
僚屬	-11.5337
王導	-11.5337
几案	-11.534
沈括	-11.5342
都官	-11.5342
天下事	-11.5345
端明	-11.5345
近侍	-11.5348
厚薄	-11.535
羅紋	-11.535
莫測	-11.5352
僧孺	-11.5352
僖宗	-11.5352
兄子	-11.5353
異常	-11.5354
鹿鳴	-11.5355
有之矣	-11.5357
其中有	-11.5358
考察	-11.5359
乎對曰	-11.536
反復	-11.5361
變易	-11.5362
金城	-11.5369
乳香	-11.5373
宣撫	-11.5377
樂毅	-11.5379
延陵	-11.5383
今夕	-11.5385
南遷	-11.5385
何獨	-11.5387
可笑也	-11.5387
四角	-11.539
盾	-11.5391
敢問	-11.5392
月八日	-11.5395
蠆	-11.5395
斌	-11.5396
字韻	-11.5396
燕談	-11.5397
殿門	-11.5399
箆	-11.5399
視之乃	-11.54
歉	-11.5402
萬緡	-11.5402
潄	-11.5403
鐺	-11.5403
閙	-11.5404
甃	-11.5406
不違	-11.5406
神武	-11.5406
無幾	-11.5407
須是	-11.5407
縹	-11.5411
後苑	-11.5411
力行	-11.5413
盒	-11.5413
畫像	-11.5414
二十人	-11.5415
盛行	-11.5419
二十七日	-11.5421
吾將	-11.543
七星	-11.543
待罪	-11.5434
二説	-11.5438
堂前	-11.5442
朱雀	-11.5443
梁州	-11.5443
吳郡	-11.5445
紙上	-11.5449
草草	-11.5451
水精	-11.5454
且夫	-11.5455
貧富	-11.546
昭君	-11.5461
良馬	-11.5463
東坡先生	-11.5463
曰古者	-11.5464
堂中	-11.5464
不休	-11.5465
鸛	-11.5465
宣仁	-11.547
南向	-11.5471
簽書	-11.5472
彗	-11.5472
裨	-11.5474
扞	-11.5475
韓王	-11.5476
也雖然	-11.5476
便宜	-11.5478
儷	-11.5478
皆由	-11.5479
殛	-11.548
袤	-11.548
聿	-11.5481
籃	-11.5483
鷓鴣	-11.5484
虎賁	-11.5485
朐	-11.5486
伶人	-11.5489
集賢院	-11.549
劉貢父	-11.549
皇城	-11.5491
張九齡	-11.5493
杜子美詩	-11.5499
之態	-11.5508
郡太守	-11.5508
三足	-11.551
如今之	-11.5512
愕然	-11.5512
户部尚書	-11.5514
治世	-11.5516
有頃	-11.5527
舜典	-11.5532
苑中	-11.5534
困於	-11.5542
二十九日	-11.5543
掘地	-11.5545
韻㑹	-11.5548
使天下	-11.5549
祖述	-11.5551
和靖	-11.5553
蠏	-11.5553
蹕	-11.5555
珥	-11.5555
仿	-11.5556
愽	-11.5557
立朝	-11.5559
肄	-11.556
蘖	-11.556
汾陽	-11.5561
酤	-11.5561
熖	-11.5562
梭	-11.5564
龍圖閣	-11.5567
將士	-11.5567
中尉	-11.557
通志	-11.5575
君父	-11.5576
所向	-11.5578
榮辱	-11.5579
二十四日	-11.5581
服食	-11.5585
豫州	-11.5586
少傅	-11.5587
錄云	-11.5587
濟水	-11.5587
叅軍	-11.559
華隂	-11.5591
明珠	-11.5591
篆書	-11.5591
孔孟	-11.5602
靖難	-11.5609
律吕	-11.561
忌日	-11.5615
又東過	-11.5618
蔕	-11.562
為丸	-11.5621
歐陽修	-11.5623
不專	-11.5627
九歌	-11.5628
絺	-11.5629
長公主	-11.5629
濾	-11.563
褊	-11.5634
慣	-11.5634
鈐	-11.5636
盧氏	-11.5637
犁	-11.5638
上怒	-11.5638
汲汲	-11.5638
茨	-11.5641
笈	-11.5641
懾	-11.5642
八兩	-11.5643
箏	-11.5644
涖	-11.5644
河源	-11.5646
一絶云	-11.5647
夙夜	-11.5647
由此言之	-11.5648
庶㡬	-11.5651
二員	-11.5654
事親	-11.5654
金剛經	-11.5655
林下	-11.5655
無疆	-11.5656
煒	-11.5657
澠水	-11.566
常朝	-11.566
幾於	-11.5661
、《	-11.5662
花葉	-11.5662
典刑	-11.5662
不恤	-11.5668
每遇	-11.5671
九鼎	-11.5672
追封	-11.5676
博物	-11.5677
癸亥	-11.5681
孝亷	-11.5681
靡不	-11.5682
廷試	-11.5682
詣闕	-11.5684
百物	-11.5685
夏禹	-11.5687
十一日	-11.5689
呉興	-11.569
飲水	-11.569
虞舜	-11.5691
帥師	-11.5695
嗣位	-11.5696
睿宗	-11.5696
三十日	-11.5699
漢晉	-11.5699
韓文	-11.57
萬户	-11.5704
深淺	-11.5705
君謨	-11.5708
字衍	-11.5708
制禮	-11.5712
世系	-11.5713
肌膚	-11.5714
珣	-11.5715
臉	-11.5716
瑀	-11.5716
沈存中	-11.5718
隋煬帝	-11.5718
痺	-11.5718
暝	-11.5719
縊	-11.5719
玳瑁	-11.5719
青色	-11.572
蓺	-11.572
事實類苑卷	-11.5723
卿相	-11.5724
之别名	-11.5725
陸龜蒙	-11.5725
引兵	-11.5727
舖	-11.5727
夏后氏	-11.5729
楸	-11.5731
肩輿	-11.5732
殷勤	-11.574
葬於	-11.5742
古文尚書	-11.5746
五斗	-11.5746
六品	-11.5752
境内	-11.5754
樹木	-11.5755
辛苦	-11.5755
冬日	-11.5756
偽作	-11.5756
元吉	-11.5763
古之人	-11.5764
許慎	-11.5765
十二時	-11.5766
五丈	-11.5768
雄黄	-11.5768
動靜	-11.5771
作詩云	-11.5782
峨	-11.5783
林鍾	-11.5784
私第	-11.5784
頡	-11.5787
為翰林學士	-11.5788
先輩	-11.5789
卬	-11.5791
鬆	-11.5793
紫宸	-11.5793
絫	-11.5795
搭	-11.5795
曽孫	-11.5795
鄜	-11.5796
矦	-11.5796
騁	-11.5797
鉅鹿	-11.5798
覊	-11.5798
芰	-11.5798
喇	-11.5799
髀	-11.5799
眸	-11.5799
天雨	-11.58
艘	-11.5801
㤀	-11.5801
廷珪	-11.5803
俄頃	-11.5803
須㬰	-11.5803
桷	-11.5803
凸	-11.5804
孳	-11.5804
李徳裕	-11.5804
阮籍	-11.5805
敇	-11.5806
魏文侯	-11.5808
文采	-11.5809
趙簡子	-11.5811
呉人	-11.5813
真君	-11.5813
隨筆	-11.5814
帝崩	-11.5816
盛夏	-11.5816
遂不復	-11.5817
洞天	-11.5817
章惇	-11.5818
諸篇	-11.5818
葛洪	-11.5819
竹木	-11.582
一隻	-11.582
白虎通	-11.5824
累日	-11.5825
而況	-11.5825
螽	-11.5827
無忌	-11.5827
湯餅	-11.5829
太常卿	-11.5829
是之謂	-11.5829
十四日	-11.5837
閏月	-11.5839
妃子	-11.584
龍泉	-11.5841
積石	-11.5842
一毫	-11.5848
敢言	-11.5848
古今注	-11.5854
忠宣	-11.5854
由來	-11.5857
繆公	-11.5857
倣此	-11.5859
舍利	-11.5859
千二百	-11.586
十六日	-11.586
三百里	-11.5861
太嵗	-11.5861
夜光	-11.5865
湖上	-11.5865
忌諱	-11.5866
康公	-11.5866
白雪	-11.5869
異物	-11.587
糝	-11.587
蘇東坡	-11.5872
安敢	-11.5874
楊梅	-11.5875
廷臣	-11.5875
怛	-11.5875
麩	-11.5876
泳	-11.5879
所收	-11.5879
灸	-11.588
无咎	-11.588
佾	-11.588
大吕	-11.5881
文華殿	-11.5881
太平廣記	-11.5882
偪	-11.5882
辛酉	-11.5883
溼	-11.5884
貞觀中	-11.5886
滁州	-11.5886
樂記	-11.5886
六軍	-11.5887
未之有也	-11.5887
釋迦	-11.5887
朝鮮	-11.5887
中書侍郎	-11.5887
者此也	-11.5888
夥	-11.5889
宣徽	-11.589
洞中	-11.589
浙西	-11.5892
夀皇	-11.5892
閭里	-11.5894
秦穆公	-11.5895
梁簡文	-11.5896
太平之	-11.5896
印章	-11.5899
晏子曰	-11.5901
案上	-11.5901
周世宗	-11.5902
伯父	-11.5902
考古	-11.5903
㑹昌	-11.5904
論語曰	-11.5904
封疆	-11.5905
天地之間	-11.5907
新史	-11.5908
國亡	-11.5909
騎馬	-11.591
千餘人	-11.5912
司冦	-11.5918
盛德	-11.5918
儒家	-11.5918
飛動	-11.5921
卓然	-11.5923
毛公	-11.5926
至京	-11.5926
考證	-11.5927
乳母	-11.5929
一隅	-11.5935
數千人	-11.5937
伯仲	-11.5942
孰與	-11.5948
王季	-11.5949
窒	-11.5953
宫門	-11.5953
儆	-11.5955
勰	-11.5955
六卷	-11.5956
篩	-11.5956
桂陽	-11.5958
綦	-11.5959
波斯	-11.596
秬	-11.596
山頂	-11.5963
佞人	-11.5964
蝎	-11.5964
韓非子	-11.5965
慟哭	-11.5965
無慮	-11.5966
也若夫	-11.5966
雜劇	-11.5967
蝸	-11.5967
一統志	-11.5969
以下皆	-11.597
永州	-11.597
霹靂	-11.597
豈敢	-11.597
𢾗	-11.5971
淮西	-11.5971
凹	-11.5973
音韻	-11.5975
曽見	-11.5976
南吕	-11.5977
相率	-11.5977
曾祖	-11.5978
不可食	-11.5983
沈香	-11.5984
舟車	-11.5985
器物	-11.5987
向來	-11.5988
魏氏	-11.5988
周孔	-11.5989
姦邪	-11.5989
竹葉	-11.5992
㕘政	-11.5993
地勢	-11.5998
上下相	-11.6
以觀其	-11.6003
賢臣	-11.6005
無所用	-11.6009
石灰	-11.601
天啟	-11.601
亳州	-11.6012
安置	-11.6014
六典	-11.6014
悵	-11.6015
七國	-11.6015
良乆	-11.6017
固辭	-11.6018
經學	-11.6029
格物	-11.603
注疏	-11.603
涼州	-11.6031
曼卿	-11.6032
王公大人	-11.6033
壠	-11.6035
率皆	-11.6035
四萬	-11.6036
絶倒	-11.6036
七分	-11.6036
商周	-11.6037
笳	-11.604
䛕	-11.604
蘸	-11.604
甘心	-11.6041
九尺	-11.6041
劉原父	-11.6042
張湯	-11.6042
七品	-11.6042
剉	-11.6044
腋	-11.6045
瞰	-11.6045
集注曰	-11.6045
蟾蜍	-11.6046
顔氏家訓	-11.6046
其為人	-11.6047
墀	-11.6048
猛獸	-11.6048
爍	-11.6049
蜈蚣	-11.6049
如是則	-11.605
秣	-11.6051
庶吉士	-11.6051
叡	-11.6051
罅	-11.6053
舉世	-11.6054
朱子曰	-11.6055
市中	-11.6056
霤	-11.6056
天涯	-11.6057
安得有	-11.6057
校書	-11.6058
具載	-11.6058
真偽	-11.6059
天禄	-11.6059
冠冕	-11.606
范氏	-11.606
陵縣	-11.6061
淮陽	-11.6061
年五十	-11.6062
柰何	-11.6063
束帛	-11.6063
其父母	-11.6064
酷吏	-11.6064
漁人	-11.6064
辟雍	-11.6067
立秋	-11.6068
裕陵	-11.6072
唱和	-11.6073
王敦	-11.6074
田宅	-11.6076
𤣥武	-11.6076
王粲	-11.6077
百篇	-11.6078
宫闕	-11.6078
朝請	-11.6082
僕觀	-11.6082
果得	-11.6083
張籍	-11.6083
宣武	-11.6087
聖徳	-11.6089
雒陽	-11.609
北向	-11.6094
餓死	-11.6098
裴度	-11.61
光照	-11.6101
文莊	-11.6108
貧民	-11.6109
制科	-11.6109
宗社	-11.6112
顔氏	-11.6112
黑色	-11.6119
晳	-11.612
窈窕	-11.612
莭	-11.6121
輓	-11.6121
按史記	-11.6121
疼	-11.6123
登髙	-11.6123
國忠	-11.6124
㕘知政事	-11.6124
富鄭公	-11.613
孩兒	-11.6131
燒香	-11.6132
畎	-11.6132
登舟	-11.6133
睫	-11.6134
騾	-11.6134
閃	-11.6134
漚	-11.6135
天下之事	-11.6136
搔	-11.6138
松栢	-11.6138
不可以不	-11.6139
戎狄	-11.614
荷葉	-11.6142
抑揚	-11.6144
上品	-11.6148
君臣之	-11.6148
大駕	-11.615
浩然	-11.6151
象山	-11.6151
穆宗	-11.6152
中通曰	-11.6154
石勒	-11.6157
瑟瑟	-11.6162
祿山	-11.617
漢祖	-11.6171
者必有	-11.6171
致逺	-11.6175
願陛下	-11.6178
地獄	-11.6182
澠	-11.6189
四足	-11.619
金紫	-11.6193
壁上	-11.6195
元寳	-11.6196
錢糧	-11.6197
瓷	-11.6197
九章	-11.6201
橄欖	-11.6202
臺閣	-11.6203
僥倖	-11.6204
建昌	-11.6206
二百餘	-11.6208
西征	-11.6208
駐蹕	-11.6209
摴蒱	-11.621
嘴	-11.6211
孩	-11.6211
篾	-11.6212
癭	-11.6213
嚢	-11.6213
駑	-11.6214
鱸	-11.6217
勾踐	-11.6217
語人曰	-11.6218
姐	-11.622
往見	-11.622
鏃	-11.6221
擺	-11.6222
不輟	-11.6223
昭帝	-11.6223
爵禄	-11.6224
螫	-11.6225
召還	-11.6227
北辰	-11.623
吾聞	-11.6231
差遣	-11.6231
三才	-11.6238
姑洗	-11.6241
亭亭	-11.6252
臨終	-11.6253
跋云	-11.6255
大赦	-11.6256
廣南	-11.6258
初年	-11.6263
茂陵	-11.6264
庭下	-11.6265
甚竒	-11.6266
惑於	-11.6266
意林	-11.6273
獨坐	-11.6275
豈容	-11.6277
嗜欲	-11.6277
石硯	-11.6278
所遺	-11.6278
傅㑹	-11.628
謝表	-11.6288
諸路	-11.6288
親親	-11.629
如淳曰	-11.6291
西園	-11.6294
所共	-11.6294
青青	-11.6294
滲	-11.6295
巔	-11.6296
耄	-11.6298
躭	-11.6298
榼	-11.6298
恍惚	-11.6298
烽	-11.6299
二十五日	-11.63
范曄	-11.63
六部	-11.6301
酺	-11.6301
勦	-11.6302
其姓名	-11.6302
年九十	-11.6302
三千里	-11.6304
虞世南	-11.6304
刑政	-11.6306
丰	-11.6306
尺牘	-11.6306
二十六日	-11.6307
路史	-11.6309
温潤	-11.6315
巴陵	-11.6316
所忌	-11.6317
猶能	-11.6319
蔡州	-11.6323
祖考	-11.6327
鐘鼎	-11.6329
講讀	-11.6329
曹植	-11.6329
伯玉	-11.6334
劉裕	-11.6335
譏其	-11.6335
荷花	-11.6336
相沿	-11.634
誰家	-11.6341
防風	-11.6343
穀梁	-11.6347
五十六	-11.6354
縣東北	-11.6357
糕	-11.636
軍國	-11.6363
邪正	-11.6365
澧	-11.637
九族	-11.6371
倐	-11.6371
豨	-11.6373
蹊	-11.6377
聖朝	-11.6377
曹子建	-11.6377
扃	-11.6377
搥	-11.6378
纈	-11.6379
祓	-11.638
炷	-11.6381
秋月	-11.6381
奢侈	-11.6382
巒	-11.6383
豉	-11.6383
値	-11.6384
偓	-11.6384
隼	-11.6385
吉祥	-11.6386
菘	-11.6388
挼	-11.6388
異聞	-11.6388
窖	-11.6388
春秋傳	-11.6389
一代之	-11.6391
蕩蕩	-11.6391
卿士	-11.6395
都統	-11.6396
武林	-11.6398
孔融	-11.6402
求諸	-11.6404
酌酒	-11.6406
昭昭	-11.641
聲聞	-11.6412
江淹	-11.6413
太牢	-11.6414
王文正公	-11.6417
黄庭經	-11.6422
月朔	-11.6423
朝㑹	-11.6427
南征	-11.6428
元暉	-11.643
紹興中	-11.6433
光庭	-11.6433
應制	-11.6434
昭文	-11.6444
東井	-11.6445
吉日	-11.6448
蒼頭	-11.6451
石橋	-11.6452
暦	-11.6453
唐開元	-11.6455
此例	-11.6457
食邑	-11.6458
孔門	-11.6458
軍民	-11.6459
鎧	-11.646
未央	-11.6461
菰	-11.6462
容易	-11.6463
巡狩	-11.6464
鈕	-11.6464
筝	-11.6464
閟	-11.6465
倨	-11.6465
政令	-11.6466
蕤	-11.6468
衛士	-11.6468
鍳	-11.6468
穴中	-11.6469
一百四十	-11.6469
元史類編	-11.6469
東軒	-11.647
歌聲	-11.6471
燬	-11.6472
孫叔敖	-11.6473
五十四	-11.6473
橐	-11.6474
璵	-11.6474
知己	-11.6476
戰國策	-11.6478
蜡	-11.648
三十萬	-11.6482
餘杭	-11.6486
李伯時	-11.6486
伐齊	-11.649
白沙	-11.649
優游	-11.6493
皇朝	-11.6495
竟陵	-11.6497
編年	-11.6498
守節	-11.6505
二斗	-11.6509
中牟	-11.652
以是知	-11.6524
忠定	-11.6527
竹林	-11.6529
六句	-11.6533
盈尺	-11.654
未之見	-11.6542
鶩	-11.6544
論議	-11.6545
秪	-11.6546
礦	-11.6547
虺	-11.6549
甬	-11.6549
迸	-11.655
心術	-11.6551
阨	-11.6551
布政使	-11.6551
腊	-11.6552
娯	-11.6554
籟	-11.6555
絢	-11.6555
赧	-11.6555
宣州	-11.6557
憩	-11.6557
扆	-11.6557
嘘	-11.6558
箜篌	-11.6558
配天	-11.6559
人之心	-11.656
萬頃	-11.6561
鄧州	-11.6562
東壁	-11.6564
萬世之	-11.6564
未識	-11.6566
九齡	-11.6568
西向	-11.6569
項王	-11.6571
貢父	-11.6571
布帛	-11.658
不可考	-11.6582
勤勞	-11.6585
青緑	-11.6587
如漆	-11.6589
司馬氏	-11.659
旦夕	-11.6591
百工	-11.6593
有時而	-11.6594
除去	-11.6603
之所能	-11.6614
豈可以	-11.6619
荘子	-11.6621
萬乘	-11.6626
墓在	-11.6626
睨	-11.6636
矣然則	-11.6637
隨意	-11.6638
薩	-11.6638
壟	-11.6639
滷	-11.6641
羃	-11.6641
穩	-11.6644
穠	-11.6645
彧	-11.6646
南昌	-11.6647
談笑	-11.6648
扄	-11.6648
嵗久	-11.6649
咫尺	-11.6649
摻	-11.665
鴟夷	-11.665
丁卯	-11.665
隋文帝	-11.6651
汭	-11.6653
彈丸	-11.6654
不惑	-11.6654
庭堅	-11.6655
波濤	-11.6657
竹枝	-11.6657
虎狼	-11.6658
正獻公	-11.6659
彝	-11.666
十有五	-11.666
宫禁	-11.6661
廣平	-11.6662
謂此也	-11.6663
無限	-11.6666
劉表	-11.6668
不誣	-11.6668
彭澤	-11.6668
殆非	-11.6668
侍女	-11.6669
九千	-11.6672
十有三	-11.6674
聖祖	-11.6674
妙處	-11.6677
二百里	-11.6684
尺二寸	-11.6687
鴻漸	-11.669
刻本	-11.669
今考	-11.6696
曰此非	-11.6697
令㫖答	-11.6699
筆録	-11.6708
月十三日	-11.6708
天津	-11.6709
跣	-11.671
春正月	-11.6711
黃門	-11.6712
文懿	-11.6715
唯唯	-11.672
嗜慾	-11.6726
義門讀書記卷	-11.6728
譛	-11.6728
䄂	-11.6728
吳楚	-11.673
簧	-11.673
雇	-11.6731
楊用修	-11.6731
莞	-11.6731
墉	-11.6732
誰謂	-11.6732
歐陽詢	-11.6733
淳祐	-11.6733
吼	-11.6734
季札	-11.6736
漣	-11.674
吹笛	-11.6741
攅	-11.6741
縣東南	-11.6743
凡此皆	-11.6743
宗即位	-11.6745
無敵	-11.6746
鄭司農	-11.6751
管絃	-11.6754
分為二	-11.6754
已亡	-11.676
成康	-11.6762
榴	-11.6769
午時	-11.677
建寅	-11.677
定天下	-11.677
儒林傳	-11.6772
退朝	-11.6774
善歌	-11.6774
一粒	-11.6775
養性	-11.6775
終南	-11.6775
一女子	-11.6778
邵子	-11.678
朝堂	-11.678
雜錄	-11.6781
公曰吾	-11.6782
動静	-11.6783
寂然	-11.6788
建州	-11.679
吟詩	-11.6792
語之曰	-11.6793
亦佳	-11.6793
指南	-11.6795
年二十	-11.6797
洗馬	-11.6801
工巧	-11.6801
犯法	-11.6801
其大者	-11.6808
最難	-11.681
戰勝	-11.6811
所述	-11.6811
伋	-11.6814
悴	-11.6816
鏘	-11.6817
嘶	-11.6818
淛	-11.6818
往還	-11.6819
坼	-11.682
晁錯	-11.682
女媧	-11.6821
咄	-11.6822
毫釐	-11.6823
儘	-11.6824
殳	-11.6824
朂	-11.6824
告之曰	-11.6827
掬	-11.6832
宿衛	-11.6832
各以其	-11.6834
丹朱	-11.6834
鐘鼓	-11.6836
蒼蒼	-11.6837
創業	-11.6841
姦臣	-11.6846
叔謀	-11.6848
樞密使	-11.6852
淮水	-11.6856
正旦	-11.6858
鼓琴	-11.6858
無咎	-11.6858
龍鍾	-11.6859
嶺表	-11.6859
韋氏	-11.686
豈徒	-11.686
末句	-11.6862
世說	-11.6863
雲霧	-11.6864
門戸	-11.6867
尤妙	-11.6868
巴蜀	-11.6869
閣老	-11.687
欽若	-11.6872
十嵗	-11.6877
虞卿	-11.6877
仲夏	-11.6877
三昧	-11.6877
受禪	-11.688
四部	-11.688
貢舉	-11.6881
翺	-11.6882
野録	-11.6883
美女	-11.6884
導引	-11.6886
楊妃	-11.6887
范文正	-11.6888
鋼	-11.689
鳳皇	-11.6891
金釵	-11.6892
交易	-11.6896
砧	-11.69
筆意	-11.6901
娑	-11.6902
硃砂	-11.6903
五十八	-11.6904
熨	-11.6904
收藏	-11.6907
纊	-11.6909
褁	-11.691
皇甫謐	-11.691
曆	-11.6911
醯	-11.6912
禋	-11.6912
鬂	-11.6912
痢	-11.6913
燮	-11.6913
澡	-11.6913
颯	-11.6914
厦	-11.6914
喏	-11.6916
糶	-11.6916
講論	-11.6917
流沙	-11.6922
千乗	-11.6923
樂章	-11.6926
斷腸	-11.6927
李翺	-11.6928
千乘	-11.6929
洪武中	-11.6929
豈足	-11.6932
萬歲	-11.6934
近嵗	-11.694
群臣	-11.6941
:「	-11.6942
所自出	-11.6942
景德	-11.6943
亡秦	-11.6944
靈芝	-11.6944
雅樂	-11.6944
精舍	-11.6946
昔年	-11.6951
地利	-11.6954
弱冠	-11.6954
門之外	-11.6957
光彩	-11.6958
六科	-11.696
五采	-11.6965
婺州	-11.6966
皆出於	-11.6967
魏徴	-11.6983
尺五寸	-11.6984
茴香	-11.6986
手持	-11.6987
賢主	-11.6992
未嘗見	-11.6993
伯禽	-11.6994
燿	-11.6995
讌	-11.6997
謎	-11.6997
㩦	-11.6997
縉紳	-11.6998
容齋隨筆	-11.6999
磧	-11.6999
舩	-11.7001
百病	-11.7002
跂	-11.7004
琅	-11.7004
煨	-11.7005
短長	-11.7006
琯	-11.7006
鳳翔	-11.7008
漯	-11.7008
瑄	-11.7009
臧否	-11.7009
斾	-11.701
篙	-11.701
貞元中	-11.7013
鉦	-11.7014
大戴禮	-11.7017
少隂	-11.702
𢎞農	-11.7024
王欽若	-11.7029
蒼龍	-11.7029
左思	-11.7032
雜說	-11.7034
詞臣	-11.7041
地震	-11.7044
兩儀	-11.7044
五祀	-11.705
宋儒	-11.7051
注採	-11.7052
未見其	-11.7054
一軸	-11.7057
百五十	-11.7063
玉藻	-11.7065
魯君	-11.7065
術數	-11.707
祈雨	-11.7071
當塗	-11.7073
進止	-11.7075
出奔	-11.7077
三百五十	-11.708
萬萬	-11.7081
武丁	-11.7081
掃地	-11.7082
左氏傳曰	-11.7086
悄	-11.7088
野客叢書	-11.7089
記室	-11.7089
輜	-11.7089
汩	-11.7089
水洗	-11.7091
酉陽雜俎	-11.7091
湣王	-11.7092
揷	-11.7093
驄	-11.7093
侑	-11.7093
菓	-11.7094
膜	-11.7094
紱	-11.7094
磐	-11.7095
瑰	-11.7095
褰	-11.7096
阡陌	-11.7096
霏	-11.7096
半夏	-11.7096
疽	-11.7096
氂	-11.7097
許昌	-11.7098
由是觀之	-11.7099
顧命	-11.7099
秦少游	-11.7101
祀典	-11.7101
門下省	-11.7104
迤	-11.7104
杜少陵	-11.7105
㯽榔	-11.7106
措大	-11.7111
齊景公	-11.7113
題目	-11.7117
偏旁	-11.7118
應之曰	-11.7127
甲科	-11.7128
渭水	-11.7128
眉山	-11.7131
執筆	-11.7133
嘉靖中	-11.7133
觀此則	-11.7137
秉政	-11.7138
上林賦	-11.7138
太元	-11.714
何足以	-11.7141
紫雲	-11.7142
壬癸	-11.7145
監軍	-11.7145
忠肅	-11.715
賢才	-11.7158
笑語	-11.7158
亦足以	-11.7167
遺書	-11.7167
聖㫖	-11.7173
咬	-11.7174
讞	-11.7177
猝	-11.718
朔日	-11.718
藂	-11.718
丙丁	-11.7181
積雪	-11.7181
陸士衡	-11.7182
泝	-11.7183
郭子儀	-11.7184
昃	-11.7186
瀟	-11.7187
爪牙	-11.7187
獠	-11.7188
姤	-11.7188
羶	-11.7188
辛卯	-11.719
熈寜	-11.719
邏	-11.719
所以能	-11.7191
端坐	-11.7191
瀑	-11.7192
胭脂	-11.7192
惋	-11.7193
之美者	-11.7193
筩	-11.7193
兢	-11.7194
蔞	-11.7195
據此則	-11.7197
孝友	-11.7197
六畜	-11.7198
玉環	-11.7202
嘉話	-11.7203
銘云	-11.7206
譬猶	-11.721
陜州	-11.7214
精微	-11.7225
羽毛	-11.7228
織成	-11.7229
作平聲	-11.7231
政治	-11.7234
視聽	-11.7238
獻帝	-11.7238
吳氏	-11.7241
魏武帝	-11.7244
入覲	-11.7244
李泌	-11.7246
此輩	-11.7248
十六卷	-11.7249
豈特	-11.7253
擇日	-11.7254
主客	-11.7254
直𨽻	-11.7255
天資	-11.7265
塤	-11.7266
稚子	-11.7267
枯木	-11.7267
常熟	-11.7267
婚姻	-11.7269
麋鹿	-11.7269
跛	-11.727
仁和	-11.727
特賜	-11.727
讖	-11.7273
白芷	-11.7274
鮪	-11.7275
麪	-11.7276
戕	-11.7276
槿	-11.7277
海運	-11.7278
緦	-11.7278
魂魄	-11.7279
瀨	-11.7279
碓	-11.728
暎	-11.7282
吾輩	-11.7283
濺	-11.7283
無一字	-11.7284
棨	-11.7284
柳子厚	-11.7284
渺	-11.7285
秫	-11.7285
工部侍郎	-11.7286
蒨	-11.7286
温庭筠	-11.7287
太皇太后	-11.7287
米芾	-11.7287
左都御史	-11.7288
又次之	-11.7291
司𨽻	-11.7292
少監	-11.7293
八十里	-11.7294
東西南北	-11.7294
霅	-11.7294
到處	-11.7296
皆非也	-11.7297
庚辛	-11.7298
戊巳	-11.7299
乘輿	-11.7302
鄂州	-11.7303
鯉魚	-11.7303
然後可以	-11.7304
内庫	-11.7306
冬十月	-11.7309
吉州	-11.7313
知貢舉	-11.7314
寺觀	-11.7319
安陸	-11.7321
耆老	-11.7321
颶	-11.7322
毎日	-11.7324
周勃	-11.7326
稷契	-11.7326
趙岐	-11.7328
胡廣	-11.733
儒臣	-11.7332
簿書	-11.7336
賜姓	-11.7339
立祠	-11.7341
帝舜	-11.7343
冠帶	-11.7343
炎帝	-11.7344
冨貴	-11.735
侯景	-11.7352
不愧	-11.7353
昊天	-11.7355
治病	-11.736
孤山	-11.7361
芡	-11.7363
珠翠	-11.7363
梔子	-11.737
伹	-11.737
氛	-11.7371
馳騁	-11.7372
番禺	-11.7373
枷	-11.7374
鷰	-11.7374
罟	-11.7376
謐	-11.7376
兾	-11.7376
列聖	-11.7376
㓗	-11.7376
演繁露	-11.7376
塞外	-11.7377
褒貶	-11.7379
逡巡	-11.7381
繖	-11.7382
泗水	-11.7383
弇州	-11.7388
少昊	-11.7392
舊坑	-11.7393
皴	-11.7393
亭侯	-11.7395
武德	-11.7397
語錄	-11.7398
方鎮	-11.74
垂簾	-11.74
色赤	-11.7402
白蓮	-11.7403
莊宗	-11.7407
悵然	-11.7408
長幼	-11.741
二百年	-11.7412
祥瑞	-11.7413
末節	-11.7415
獅	-11.7416
衛青	-11.7416
束脩	-11.7419
第二首	-11.742
真誥	-11.7422
前漢書	-11.7427
鎮江	-11.7429
新序	-11.7438
仲父	-11.7444
紅色	-11.7445
玉牒	-11.7446
虎頭	-11.7449
謬誤	-11.7455
皇祖	-11.7458
科第	-11.7462
權勢	-11.7462
肻	-11.7463
湎	-11.7465
暮年	-11.7465
不寐	-11.7465
拽	-11.7466
企	-11.7466
譁	-11.7466
礶	-11.7466
堡	-11.7466
楊國忠	-11.7467
綱紀	-11.7468
嗅	-11.7468
列女傳	-11.7469
廌	-11.7469
楠	-11.7469
蠢	-11.7471
六十四卦	-11.7473
讙	-11.7473
苻	-11.7474
璉	-11.7474
硫黄	-11.7475
武王伐紂	-11.7476
凭	-11.7477
四肢	-11.7477
暁	-11.7477
娠	-11.7478
登樓	-11.7479
非聖人	-11.748
博洽	-11.7481
廵狩	-11.7482
龜兹	-11.7493
父祖	-11.75
茫然	-11.7501
提刑	-11.7501
衛尉	-11.7504
尊賢	-11.7504
仲宣	-11.7506
末世	-11.7507
友善	-11.751
東野	-11.7513
淳于	-11.7518
萬壽	-11.7521
之為言	-11.7523
賞賜	-11.7525
有如此者	-11.7528
岐公	-11.7529
誠齋	-11.753
輿地	-11.7531
蒼生	-11.7542
一百三十	-11.7542
美惡	-11.7545
氣味	-11.7545
相國寺	-11.7548
並列	-11.7549
露布	-11.7552
隂徳	-11.7554
氏族	-11.7554
藝文	-11.7556
唶	-11.7557
窶	-11.7557
事迹	-11.7558
煬	-11.7559
錬	-11.7559
厥後	-11.756
縣界	-11.756
氓	-11.7561
咳	-11.7564
鮫	-11.7565
散騎常侍	-11.7566
揩	-11.7566
泳化編	-11.7567
裊	-11.7567
羗	-11.7568
蛻	-11.7568
錡	-11.7569
擯	-11.757
毁譽	-11.757
壙	-11.757
蕭望之	-11.7571
荆軻	-11.7572
五月五日	-11.7572
何休	-11.7572
太平御覽	-11.7572
章疏	-11.7578
祕閣	-11.7578
潯陽	-11.758
中郎將	-11.7583
永徽	-11.7584
工拙	-11.7585
收拾	-11.7586
三十二年	-11.7586
積薪	-11.7587
建業	-11.7589
郭璞曰	-11.7592
老嫗	-11.7596
封爵	-11.7596
乾徳	-11.7598
五斤	-11.76
不可不察	-11.7603
朱崖	-11.7604
夏四月	-11.7604
二十三日	-11.7606
私意	-11.7606
蔡氏	-11.7613
筆硯	-11.7614
累朝	-11.7614
齊衰	-11.762
鳯皇	-11.7624
是一病	-11.7628
蘭陵	-11.7642
未知其	-11.7642
杜甫詩	-11.7643
莫愁	-11.7645
所從來	-11.765
疏請	-11.7651
全篇	-11.7654
學究	-11.7656
赫赫	-11.7656
甓	-11.7657
澀	-11.766
驃騎	-11.7662
塼	-11.7662
冬至日	-11.7665
迓	-11.7665
崇政殿	-11.7665
玉樓	-11.7666
農桑	-11.7668
秘書監	-11.7669
讃	-11.7674
魚鼈	-11.7675
楷書	-11.7684
侯伯	-11.7685
成式	-11.7687
章子厚	-11.7687
詢其	-11.7689
蒸熟	-11.7689
入閤	-11.7692
庶民	-11.7692
人之情	-11.7694
尤精	-11.7698
孰知	-11.7698
來謁	-11.7705
獸名	-11.7708
中孚	-11.7712
一般	-11.7719
晩年	-11.7719
仲秋	-11.7719
命之曰	-11.7725
黒色	-11.7728
萬貫	-11.7731
伏乞	-11.7733
耶抑	-11.7738
隆興	-11.7741
粲然	-11.7741
湘山	-11.7743
晨起	-11.7745
里許	-11.7747
開皇	-11.7748
僦	-11.7749
鍇	-11.775
茅山	-11.7751
硫	-11.7751
獲罪	-11.7752
瑞應	-11.7753
嵬	-11.7753
蚓	-11.7754
緬	-11.7754
鍜	-11.7755
孝悌	-11.7757
翥	-11.7758
四十六	-11.7758
堯舜禹湯	-11.7759
娣	-11.7759
侗	-11.776
筦	-11.7761
都邑	-11.7761
燉煌	-11.7762
白樂天詩	-11.7762
洹	-11.7762
黽	-11.7763
壬寅	-11.7763
鯽	-11.7764
槀	-11.7765
髦	-11.7766
伉	-11.7766
𢷬	-11.7767
埽	-11.7767
愜	-11.7767
留侯	-11.7772
螟	-11.7779
程文	-11.7785
魏明帝	-11.7788
京東	-11.779
此二字	-11.7792
然後能	-11.7794
梁冀	-11.7795
不憚	-11.7798
展轉	-11.7798
年十五	-11.7806
延壽	-11.7807
忘憂	-11.7807
田獵	-11.7812
第三節	-11.7815
陳蕃	-11.7823
汗出	-11.7824
大駭	-11.7836
此段	-11.7839
五十餘	-11.784
不足信	-11.7843
熲	-11.7848
混沌	-11.785
慊	-11.785
銚	-11.785
澣	-11.7853
蹻	-11.7856
堞	-11.7857
冺	-11.7857
瞬	-11.7857
文靖公	-11.7858
李後主	-11.7858
瀚	-11.7858
飱	-11.7858
謀反	-11.7859
澳	-11.786
琨	-11.7861
嬙	-11.7861
漪	-11.7861
京尹	-11.7861
肋	-11.7861
狠	-11.7862
訓詁	-11.7862
衆人之	-11.7862
闖	-11.7863
鴻鵠	-11.7866
闍	-11.7867
紛紜	-11.7869
豸	-11.7869
孜	-11.7869
碧落	-11.787
棖	-11.7871
括地志	-11.7871
遣中使	-11.7872
安禄山	-11.7876
圜丘	-11.788
猛虎	-11.7882
天聖中	-11.7882
自矜	-11.7885
央	-11.7891
叢生	-11.7894
此其所以	-11.7897
薄荷	-11.7899
十二辰	-11.7901
紛然	-11.7901
天地間	-11.7905
磴	-11.7951
椹	-11.7953
潼	-11.7954
鐃	-11.7957
堊	-11.7959
胙	-11.7959
騖	-11.7959
煌	-11.796
墊	-11.796
傴	-11.796
篁	-11.7961
闞	-11.7961
叫	-11.7963
攢	-11.7964
𣣔	-11.7966
斡	-11.7967
垓	-11.7971
噲	-11.8052
幔	-11.8053
艇	-11.8053
抉	-11.8054
藿	-11.8056
嬾	-11.8058
㳟	-11.8059
賡	-11.806
擿	-11.806
儁	-11.8061
酵	-11.8061
匄	-11.8063
貉	-11.8066
㐫	-11.8067
秊	-11.8069
筑	-11.8071
鄢	-11.8145
壩	-11.8152
諗	-11.8154
扺	-11.8155
泚	-11.8157
擠	-11.8157
衿	-11.8159
㕓	-11.816
𣺌	-11.816
鄖	-11.8161
蘚	-11.8163
棃	-11.8164
蹴	-11.8164
葑	-11.8166
傚	-11.8166
舸	-11.8167
滎	-11.8246
蛩	-11.8258
烙	-11.8259
凟	-11.826
皺	-11.8263
珏	-11.8264
逖	-11.8265
緫	-11.8266
酎	-11.8266
藐	-11.8268
㤙	-11.8269
䂓	-11.8272
奐	-11.8272
鄘	-11.8276
鑼	-11.8276
玦	-11.8277
囉	-11.8281
稹	-11.8355
硃	-11.8359
熒	-11.8361
罏	-11.8363
萎	-11.8365
鍵	-11.8366
蓑	-11.837
淖	-11.8371
岌	-11.8372
凑	-11.8373
塡	-11.8374
串	-11.8376
桴	-11.8382
兜	-11.846
楪	-11.8463
宙	-11.8467
眄	-11.8469
甦	-11.8469
膈	-11.847
㗖	-11.8471
爨	-11.8471
痒	-11.8471
銕	-11.8472
努	-11.8473
槊	-11.8474
嶂	-11.8475
諜	-11.8476
瞞	-11.8477
䲭	-11.8477
顙	-11.8478
蕈	-11.8479
莾	-11.8481
搶	-11.8483
吊	-11.8484
恙	-11.8509
沴	-11.8513
萇	-11.8564
籜	-11.8568
舫	-11.8572
胞	-11.8573
禺	-11.8573
蕐	-11.8574
鈇	-11.8575
阪	-11.8577
蕨	-11.8581
毓	-11.8581
忒	-11.8581
泔	-11.8581
柟	-11.8582
淅	-11.8583
擷	-11.8584
憊	-11.8587
檠	-11.8588
㫄	-11.8594
匜	-11.8682
緱	-11.8686
膓	-11.8686
抃	-11.8686
斐	-11.8687
煦	-11.8688
怙	-11.8691
旛	-11.8692
盻	-11.8692
酹	-11.8694
飫	-11.8697
鮒	-11.87
晶	-11.8769
嶮	-11.878
拐	-11.8784
枵	-11.8788
嗚	-11.8789
訕	-11.8791
餗	-11.8792
碍	-11.8792
咀	-11.8795
啗	-11.8796
櫻	-11.8797
踢	-11.8798
寬	-11.8799
篠	-11.88
剃	-11.8801
柞	-11.8803
嚙	-11.8804
襴	-11.8804
鸇	-11.8806
舡	-11.881
桮	-11.8811
譔	-11.8812
‧	-11.8862
龐	-11.8896
鯤	-11.8898
䋲	-11.8899
孑	-11.8904
昕	-11.8907
蝟	-11.8911
絜	-11.8914
榨	-11.8917
芾	-11.8918
鞮	-11.892
蹠	-11.8986
苹	-11.901
敺	-11.9011
僇	-11.9013
週	-11.9014
蠕	-11.9014
瀦	-11.9015
滸	-11.9017
崛	-11.9018
埀	-11.9018
螘	-11.9018
禊	-11.9019
郴	-11.9019
誹	-11.9019
癢	-11.9022
浥	-11.9023
塩	-11.9024
㨿	-11.9024
砑	-11.9024
悰	-11.9036
砲	-11.9115
袪	-11.9121
鞾	-11.9121
睽	-11.9123
羯	-11.9125
窈	-11.9125
踪	-11.9125
騃	-11.9128
湼	-11.9129
单	-11.9131
荃	-11.9131
昵	-11.9132
撑	-11.9133
贗	-11.9135
聃	-11.9135
窳	-11.9138
耤	-11.9145
雝	-11.9149
腳	-11.9153
滁	-11.9226
埒	-11.9238
讚	-11.9238
肸	-11.9239
瘁	-11.9239
醎	-11.924
嶸	-11.924
廕	-11.9241
汧	-11.9242
飜	-11.9244
瀘	-11.9247
帔	-11.9247
佇	-11.9247
黝	-11.9247
膂	-11.9249
蛛	-11.9249
娱	-11.925
魴	-11.925
皥	-11.9255
?	-11.9322
宂	-11.9345
捺	-11.9351
匭	-11.9352
贋	-11.9352
搢	-11.9353
潺	-11.9355
幟	-11.9356
攄	-11.9359
荇	-11.9359
枋	-11.9361
券	-11.9361
櫝	-11.9361
嚶	-11.9362
悛	-11.9363
拗	-11.9364
屣	-11.9368
菉	-11.9368
邳	-11.9435
犖	-11.946
祉	-11.946
闚	-11.9469
麞	-11.9471
冤	-11.9472
㓙	-11.9473
煅	-11.9474
犇	-11.9475
鄠	-11.9475
庄	-11.9476
毉	-11.9476
贑	-11.9477
珙	-11.9478
倕	-11.9478
劃	-11.9479
禿	-11.9479
簞	-11.9479
揄	-11.948
蛉	-11.948
罐	-11.9482
哨	-11.9483
鏐	-11.9484
炯	-11.9486
剋	-11.9584
㺯	-11.9585
撚	-11.9587
滙	-11.9588
澈	-11.9588
朏	-11.9589
万	-11.9589
殮	-11.959
燠	-11.959
妒	-11.9591
旴	-11.9592
喩	-11.9592
悸	-11.9593
鏊	-11.9593
廏	-11.9594
鰲	-11.9596
膊	-11.9597
檝	-11.9597
駘	-11.9598
莪	-11.9599
叵	-11.96
咮	-11.9601
錞	-11.9604
圻	-11.97
狙	-11.9701
珉	-11.9706
夐	-11.9707
捩	-11.9707
璨	-11.9709
臬	-11.9709
擡	-11.971
毘	-11.971
羹	-11.9712
鴞	-11.9713
猱	-11.9714
贛	-11.9714
坫	-11.9715
㕑	-11.9717
鬪	-11.9717
堇	-11.9722
肢	-11.9808
俳	-11.9825
餻	-11.9826
蛀	-11.9827
渤	-11.9827
祛	-11.9827
圈	-11.9828
鼐	-11.9829
疥	-11.9831
嘿	-11.9833
陁	-11.9833
頲	-11.9834
猺	-11.9835
鱟	-11.9835
堙	-11.9839
檣	-11.9839
抜	-11.9839
絰	-11.984
櫬	-11.9842
澮	-11.9843
樟	-11.9843
垜	-11.9844
嚏	-11.9845
輈	-11.9848
楙	-11.9849
盬	-11.9937
綫	-11.9941
瞋	-11.9944
觶	-11.9944
鈆	-11.9945
淬	-11.9947
趯	-11.9949
𠂻	-11.995
甎	-11.9952
瘳	-11.9955
屹	-11.9956
雎	-11.9959
踴	-11.9959
箒	-11.9959
啾	-11.9961
蝠	-11.9961
槧	-11.9962
涑	-11.9962
懵	-11.9962
爺	-11.9963
豺	-11.9963
邴	-11.9964
秔	-12.0059
罸	-12.0061
迃	-12.0069
沬	-12.0072
蔥	-12.0073
窪	-12.0073
䜿	-12.0076
桔	-12.0076
遡	-12.0077
禅	-12.0079
滉	-12.0081
縦	-12.0081
聦	-12.0081
祼	-12.0082
詫	-12.0082
鎚	-12.0082
郇	-12.0082
衒	-12.0083
涂	-12.0084
灋	-12.0084
遨	-12.0084
噱	-12.0085
橛	-12.0086
醅	-12.0086
腮	-12.0091
燖	-12.0188
埜	-12.0194
喑	-12.0194
籕	-12.0196
霆	-12.0197
蒔	-12.0198
翩	-12.0198
㬥	-12.0198
纁	-12.0199
貊	-12.0199
揑	-12.02
脞	-12.0201
掊	-12.0201
冽	-12.0201
劈	-12.0202
鰥	-12.0203
詒	-12.0204
踣	-12.0205
蔭	-12.0205
駔	-12.0206
璇	-12.0206
鞘	-12.0207
絙	-12.0208
縶	-12.0209
韙	-12.0209
紓	-12.021
劬	-12.0319
祅	-12.0322
堕	-12.0322
榔	-12.0323
攣	-12.0325
賃	-12.0328
腔	-12.0331
鑱	-12.0331
穽	-12.0332
謄	-12.0332
猨	-12.0332
遹	-12.0332
濼	-12.0334
燋	-12.0334
囷	-12.0334
烜	-12.0334
緼	-12.0335
冇	-12.0335
逗	-12.0337
㒺	-12.0339
郅	-12.0444
勔	-12.0448
衂	-12.045
瘖	-12.0451
儈	-12.0455
絀	-12.0456
濞	-12.0457
椰	-12.0457
枸	-12.0457
鉄	-12.0458
簀	-12.0459
𡨕	-12.046
橈	-12.0463
翬	-12.0464
埸	-12.0465
悒	-12.0467
幀	-12.0471
鍛	-12.057
㪷	-12.057
砭	-12.0574
淞	-12.0579
沇	-12.0582
辠	-12.0584
罨	-12.0584
渣	-12.0584
艦	-12.0585
旰	-12.0585
樁	-12.0586
濩	-12.0589
㠶	-12.0589
凜	-12.0593
慵	-12.0593
諼	-12.0594
㢤	-12.0595
糯	-12.07
巉	-12.0703
槨	-12.0711
𠻳	-12.0711
㛰	-12.0711
紡	-12.0712
賾	-12.0715
溧	-12.0718
絨	-12.072
蹋	-12.072
珊	-12.072
緹	-12.072
荏	-12.0725
鄞	-12.0725
菀	-12.0725
逌	-12.0726
柵	-12.0726
竣	-12.0728
曖	-12.0728
刖	-12.0729
皐	-12.0729
蠒	-12.0733
莅	-12.0842
扎	-12.0843
鯢	-12.0846
惹	-12.0846
飣	-12.0847
䜴	-12.0849
琚	-12.0849
蕡	-12.0849
栘	-12.0851
顰	-12.0853
适	-12.0853
哩	-12.0854
歘	-12.0856
檟	-12.0857
蠃	-12.0857
涔	-12.0862
䞇	-12.0866
鸚	-12.0966
璿	-12.0975
拄	-12.0978
煇	-12.0982
蘧	-12.0982
澶	-12.0984
胝	-12.0985
猖	-12.0985
矍	-12.0986
卣	-12.0986
羆	-12.0986
辤	-12.0987
禕	-12.0987
稾	-12.0989
惺	-12.0989
蜩	-12.0991
柝	-12.0993
穂	-12.0993
陔	-12.0993
郃	-12.0996
綈	-12.1018
;	-12.1057
邨	-12.1114
茆	-12.1115
硏	-12.1116
煆	-12.1118
袞	-12.1119
戞	-12.112
讜	-12.112
恡	-12.1123
扛	-12.1124
壕	-12.1125
枹	-12.1125
忮	-12.1126
媯	-12.1126
恆	-12.1127
囀	-12.1127
褫	-12.1127
䭾	-12.1128
弈	-12.1128
憮	-12.1133
瀧	-12.1133
銙	-12.1145
骰	-12.1236
痿	-12.1253
餡	-12.1253
箎	-12.1254
聆	-12.1258
彀	-12.1258
礫	-12.1259
飈	-12.1259
甪	-12.1259
璆	-12.1261
繙	-12.1261
萑	-12.1261
鍤	-12.1261
淆	-12.1261
瞭	-12.1262
訃	-12.1266
狃	-12.1267
蠣	-12.1268
哇	-12.1269
蘩	-12.1269
頋	-12.127
刓	-12.127
蠭	-12.1271
饕	-12.1271
礱	-12.1272
勗	-12.1272
𥙷	-12.1273
薜	-12.1277
鶬	-12.1277
菹	-12.1279
撇	-12.1284
莆	-12.1384
磊	-12.1386
齗	-12.1392
垤	-12.1393
冏	-12.1398
璹	-12.1398
䑛	-12.1398
戩	-12.1399
蜕	-12.1402
嶓	-12.1403
鷁	-12.1404
酆	-12.1404
瀋	-12.1406
掀	-12.1406
硜	-12.1407
貰	-12.1407
縟	-12.1407
鼃	-12.1407
氾	-12.1408
孃	-12.1411
綻	-12.1412
楔	-12.1413
垠	-12.1413
庳	-12.1418
螻	-12.1423
沌	-12.1528
鏞	-12.1531
鍮	-12.1532
裼	-12.1535
罇	-12.1536
蜻	-12.154
懣	-12.1544
蛆	-12.1545
簋	-12.1546
鄣	-12.1547
瘟	-12.1547
毦	-12.1548
嶲	-12.1548
奨	-12.1548
肪	-12.1548
朢	-12.1548
剩	-12.1549
媛	-12.1549
匯	-12.1551
妲	-12.1551
妺	-12.1551
癩	-12.1551
涙	-12.1552
縵	-12.1553
礎	-12.1554
栝	-12.1555
鐶	-12.1557
驎	-12.1677
銛	-12.1684
嵯	-12.1684
鯖	-12.1686
閥	-12.1687
褘	-12.1687
訢	-12.1687
鵩	-12.1687
昩	-12.1687
鴛	-12.1688
蕢	-12.1688
鎛	-12.1691
屎	-12.1694
榷	-12.1695
菟	-12.1695
韌	-12.1696
虙	-12.1697
姙	-12.1698
祺	-12.1699
釧	-12.17
鷃	-12.17
酧	-12.1701
阡	-12.1702
窆	-12.1702
袠	-12.1703
叉	-12.1708
啻	-12.1765
芷	-12.1821
陕	-12.1827
怵	-12.1831
郈	-12.1833
漱	-12.1834
袵	-12.1835
刎	-12.1835
鱓	-12.1836
畚	-12.1836
髩	-12.1838
躅	-12.1838
櫺	-12.1838
欷	-12.1839
喋	-12.184
怱	-12.1842
鞵	-12.1842
躓	-12.1844
糗	-12.1845
鄼	-12.1845
鞬	-12.1846
狷	-12.1846
仔	-12.1847
耎	-12.1847
夤	-12.1849
怳	-12.1849
噀	-12.1852
昜	-12.1852
櫚	-12.1852
攽	-12.1852
褾	-12.1854
窅	-12.1972
莠	-12.1975
饉	-12.1979
郟	-12.1981
縋	-12.1985
蚡	-12.1985
鍪	-12.1986
佺	-12.1986
諉	-12.1986
銍	-12.1987
荽	-12.199
殪	-12.199
璡	-12.199
抒	-12.1991
蒻	-12.1993
拿	-12.1993
棐	-12.1993
淒	-12.1994
菅	-12.1995
珩	-12.1996
酖	-12.1997
渦	-12.1998
碭	-12.1999
衎	-12.2007
墅	-12.2125
榱	-12.2132
臏	-12.2134
筥	-12.2135
剗	-12.2136
賙	-12.2137
翛	-12.2137
烱	-12.2137
揔	-12.2138
卲	-12.2138
櫂	-12.2139
仭	-12.2139
糺	-12.2139
濰	-12.2139
抝	-12.214
壚	-12.2141
劓	-12.2142
糲	-12.2143
廙	-12.2143
篷	-12.2143
偵	-12.2143
癰	-12.2145
暠	-12.2145
戛	-12.2145
卸	-12.2146
児	-12.2147
眊	-12.2148
餼	-12.2149
螣	-12.2153
觝	-12.2153
㯶	-12.2154
町	-12.2158
秭	-12.2165
蕞	-12.228
慥	-12.2284
撩	-12.2288
奘	-12.2289
灃	-12.229
畹	-12.2291
𬒳	-12.2293
挟	-12.2294
椁	-12.2294
巂	-12.2295
斁	-12.2296
菔	-12.2296
嫚	-12.2297
宄	-12.2297
痴	-12.2298
灝	-12.2298
眎	-12.2298
醵	-12.2299
埴	-12.2302
簸	-12.2303
暌	-12.2306
獐	-12.2307
皤	-12.2307
灤	-12.231
芎	-12.2429
鋩	-12.2432
暱	-12.2438
衽	-12.2438
鸎	-12.2442
僨	-12.2442
咲	-12.2446
昺	-12.2447
藺	-12.2447
齕	-12.2448
柚	-12.245
籓	-12.2452
蜮	-12.2452
爹	-12.2453
絆	-12.2453
嗛	-12.2453
聒	-12.2454
崗	-12.2454
蟒	-12.2456
嚕	-12.2457
掞	-12.2457
婣	-12.2459
鞞	-12.2468
狒	-12.2473
!	-12.2537
闐	-12.2561
謇	-12.2581
蘅	-12.2585
魘	-12.2591
鞦	-12.2597
喆	-12.2598
垞	-12.2601
扑	-12.2603
悝	-12.2604
椑	-12.2606
湟	-12.2607
韞	-12.2607
懃	-12.2607
囓	-12.2608
摛	-12.2608
蒟	-12.2609
閴	-12.2609
摠	-12.2609
冄	-12.2609
蓽	-12.261
恁	-12.261
崤	-12.2611
柷	-12.2611
党	-12.2612
㫤	-12.2612
腿	-12.2617
厝	-12.2617
𨗳	-12.2617
㩁	-12.2619
㢧	-12.2619
搴	-12.2755
噎	-12.2757
賻	-12.2761
芑	-12.2762
瑒	-12.2763
厎	-12.2763
𤼵	-12.2764
龠	-12.2765
鏑	-12.2768
棍	-12.2768
兗	-12.2768
鷟	-12.2769
鶂	-12.2769
蹌	-12.277
湔	-12.277
嚭	-12.277
胯	-12.277
轟	-12.2772
瘥	-12.2772
邽	-12.2773
韈	-12.2774
㾗	-12.2774
褶	-12.2774
瀰	-12.2774
捄	-12.2776
詼	-12.2778
鸝	-12.2778
牂	-12.2778
頊	-12.2779
盱	-12.2781
嚚	-12.2782
遘	-12.2789
祲	-12.2916
枲	-12.292
楞	-12.2923
罝	-12.2926
洿	-12.2927
凈	-12.2927
葳	-12.2929
躐	-12.2929
埏	-12.2929
捭	-12.2929
痊	-12.293
挐	-12.293
苫	-12.293
緗	-12.2931
喀	-12.2933
蹷	-12.2933
齪	-12.2934
殍	-12.2935
秖	-12.2935
糵	-12.2936
泫	-12.2937
懴	-12.2938
䏰	-12.2938
筏	-12.294
榕	-12.2941
籩	-12.2941
蚕	-12.2943
毯	-12.2944
襌	-12.2945
噤	-12.2951
罈	-12.3087
紉	-12.3089
橅	-12.309
薈	-12.3095
攙	-12.3096
鄶	-12.3098
瘢	-12.3099
鑛	-12.31
揵	-12.3101
慳	-12.3102
錘	-12.3102
唧	-12.3103
錙	-12.3103
鼂	-12.3104
竑	-12.3105
憨	-12.3106
篚	-12.3106
鰌	-12.3106
饘	-12.3107
畬	-12.3107
蹀	-12.3109
陲	-12.3119
眾	-12.3246
隃	-12.325
噍	-12.3257
咫	-12.3261
愎	-12.3261
晤	-12.3262
倮	-12.3262
礜	-12.3263
疚	-12.3268
撝	-12.3268
晢	-12.3268
箧	-12.3269
俑	-12.3269
澇	-12.327
畛	-12.3271
楛	-12.3271
菼	-12.3273
尭	-12.3274
鞶	-12.3274
怎	-12.3274
孥	-12.3275
纜	-12.3276
邰	-12.3277
摽	-12.3277
曦	-12.3278
蟣	-12.3278
戔	-12.3279
邶	-12.3286
楣	-12.3287
璪	-12.3428
吮	-12.343
泲	-12.343
篪	-12.3433
㟁	-12.3433
嫋	-12.3434
璀	-12.3435
芩	-12.3436
締	-12.3438
臛	-12.3439
扳	-12.3439
簴	-12.3439
綯	-12.344
徭	-12.344
棓	-12.3441
鋹	-12.3442
豊	-12.3442
陡	-12.3442
默	-12.3443
蒞	-12.3444
跬	-12.3445
鑲	-12.3445
􁁚	-12.3446
邛	-12.3447
棫	-12.3447
梏	-12.345
溱	-12.3454
雱	-12.3455
禖	-12.3603
蚶	-12.3604
掐	-12.3605
靠	-12.3605
稈	-12.3606
婪	-12.3609
䆒	-12.3611
搦	-12.3611
摇	-12.3611
㫰	-12.3611
跟	-12.3612
瞀	-12.3613
洶	-12.3613
棕	-12.3614
鎡	-12.3614
耜	-12.3614
瓴	-12.3615
轢	-12.3615
澒	-12.3616
靨	-12.3616
啚	-12.3617
顱	-12.3618
匈	-12.3621
灔	-12.3622
頔	-12.3622
刅	-12.3623
軄	-12.3623
霰	-12.3623
欸	-12.3624
埭	-12.3624
泐	-12.3625
薌	-12.3625
鐍	-12.3629
攔	-12.363
簣	-12.3631
挨	-12.3632
蟈	-12.3642
櫜	-12.3643
哮	-12.3645
錚	-12.3773
柎	-12.3777
馘	-12.3785
欖	-12.3785
臞	-12.3787
栩	-12.379
翣	-12.379
頎	-12.379
檇	-12.3791
𦕈	-12.3791
瓻	-12.3791
蹔	-12.3791
麕	-12.3792
煽	-12.3792
梃	-12.3793
玖	-12.3794
鍰	-12.3794
唳	-12.3795
畮	-12.3796
蜺	-12.3796
廚	-12.3796
坋	-12.3796
薳	-12.3797
敔	-12.3797
隤	-12.3797
柹	-12.3797
諝	-12.38
鏹	-12.3801
擂	-12.3802
机	-12.3803
晰	-12.3804
荈	-12.3804
朦	-12.3804
挏	-12.3806
痞	-12.3809
狨	-12.3816
杆	-12.3959
戅	-12.397
慱	-12.3971
璁	-12.3971
酲	-12.3971
刲	-12.3971
斆	-12.3972
璅	-12.3972
騂	-12.3974
膻	-12.3974
鷸	-12.3974
罘	-12.3975
鼙	-12.3975
孱	-12.3975
茜	-12.3976
髹	-12.3978
稲	-12.3979
殱	-12.3979
徉	-12.398
噩	-12.3981
畒	-12.3981
纘	-12.3982
坰	-12.3982
瓤	-12.3984
惘	-12.3985
捽	-12.3985
粃	-12.3986
寀	-12.3986
蕘	-12.3988
縚	-12.3988
翃	-12.3988
垍	-12.3989
紼	-12.3993
秒	-12.3996
鋌	-12.3998
」	-12.4116
晅	-12.4139
竢	-12.4151
駛	-12.4155
咈	-12.4155
闓	-12.4156
踦	-12.4156
拇	-12.4159
巋	-12.4161
枰	-12.4161
袐	-12.4161
篛	-12.4162
㦷	-12.4164
澂	-12.4165
礴	-12.4166
鈸	-12.4166
坻	-12.4167
歔	-12.4168
郕	-12.4168
珽	-12.4169
脰	-12.4169
与	-12.4169
芨	-12.4171
腆	-12.4171
輭	-12.4173
蓆	-12.4174
暍	-12.4175
襜	-12.4175
櫳	-12.4175
謩	-12.4177
椶	-12.419
蔀	-12.4191
頁	-12.4326
橦	-12.4328
藳	-12.4339
蓀	-12.4345
琱	-12.4347
貔	-12.4349
擴	-12.435
蹏	-12.435
倀	-12.4351
睇	-12.4351
娵	-12.4352
妳	-12.4355
虖	-12.4355
悻	-12.4355
雯	-12.4356
珎	-12.4358
釗	-12.4359
沭	-12.436
怍	-12.4361
䓁	-12.4362
荊	-12.4363
㦯	-12.4365
総	-12.4368
瑯	-12.4369
潯	-12.4523
嫪	-12.4528
荑	-12.4531
閶	-12.4532
笮	-12.4533
儤	-12.4533
嵒	-12.4537
摰	-12.4537
鍔	-12.4538
胆	-12.4538
櫨	-12.4539
嗽	-12.4539
媾	-12.454
淦	-12.4541
鵶	-12.4542
玅	-12.4543
頫	-12.4543
篔	-12.4544
斸	-12.4544
遴	-12.4546
潏	-12.4546
銃	-12.4546
鵜	-12.4547
浯	-12.4547
憙	-12.4548
賖	-12.4551
廋	-12.4551
涘	-12.4552
耋	-12.4552
瑑	-12.4552
珧	-12.4553
襠	-12.4554
斲	-12.4554
捃	-12.4554
縂	-12.4555
鯿	-12.4558
鱖	-12.4563
燐	-12.4724
伷	-12.4725
鼯	-12.4728
畯	-12.4728
弹	-12.4729
隈	-12.473
瑱	-12.4731
嬈	-12.4734
淩	-12.4736
巘	-12.4737
遄	-12.4737
莵	-12.4738
藟	-12.4738
䆳	-12.4739
頳	-12.474
霈	-12.474
咤	-12.4742
鷲	-12.4742
橡	-12.4743
苣	-12.4743
秧	-12.4743
柁	-12.4745
甖	-12.4746
軹	-12.4747
楝	-12.4748
黻	-12.475
飰	-12.4751
臈	-12.4766
鵙	-12.4924
嶧	-12.4928
篝	-12.4936
佼	-12.4937
炕	-12.4938
緍	-12.494
蒍	-12.494
涅	-12.4941
埤	-12.4941
鮎	-12.4941
疹	-12.4942
穡	-12.4942
熠	-12.4943
纚	-12.4943
呴	-12.4945
翀	-12.4945
譟	-12.4946
簻	-12.4946
睪	-12.4947
蕎	-12.4948
圮	-12.4948
芊	-12.495
捋	-12.4952
蓊	-12.4952
幺	-12.4952
帟	-12.4953
亰	-12.4956
繻	-12.4957
筞	-12.4968
茈	-12.5117
踧	-12.5125
颸	-12.5132
墁	-12.5133
峪	-12.5133
擐	-12.5136
瞥	-12.5138
鵷	-12.5141
㡳	-12.5141
蛭	-12.5142
餤	-12.5142
抔	-12.5142
舋	-12.5143
饜	-12.5143
畊	-12.5143
糸	-12.5144
异	-12.5146
顫	-12.5146
撈	-12.5146
襁	-12.5147
甆	-12.5149
霾	-12.515
淀	-12.515
騮	-12.515
贇	-12.515
搬	-12.5152
甗	-12.5152
摟	-12.5153
貓	-12.5154
斚	-12.5154
鳸	-12.5155
閿	-12.5156
穜	-12.5159
攴	-12.5159
㝛	-12.516
鷩	-12.5166
鮐	-12.5168
痔	-12.5328
綌	-12.5339
蹬	-12.5339
蘼	-12.5341
鞓	-12.5342
憸	-12.5345
㳙	-12.5345
茁	-12.5345
嚬	-12.5348
䍦	-12.5348
𥿄	-12.5349
涴	-12.5349
哦	-12.535
鹺	-12.535
艫	-12.5351
䈥	-12.5351
蠖	-12.5352
崐	-12.5352
澦	-12.5352
剙	-12.5353
佽	-12.5353
襆	-12.5353
昫	-12.5356
頺	-12.5357
旡	-12.5358
鷦	-12.536
􁏖	-12.5361
窣	-12.5362
櫪	-12.5364
眥	-12.5365
魋	-12.5365
鱷	-12.5367
眘	-12.5374
壝	-12.5376
蝮	-12.538
礲	-12.5541
霣	-12.5548
餕	-12.5549
臓	-12.5551
襞	-12.5553
釃	-12.5553
曁	-12.5558
鷇	-12.5558
晾	-12.5558
蠙	-12.556
褭	-12.5561
覯	-12.5561
咋	-12.5561
侁	-12.5562
矟	-12.5563
眚	-12.5563
灞	-12.5563
𤾉	-12.5565
粕	-12.5566
屩	-12.5567
噶	-12.5567
閡	-12.5568
娓	-12.5568
畸	-12.5569
桌	-12.557
爕	-12.5572
侖	-12.5573
煠	-12.5574
鰻	-12.5574
洄	-12.5576
彷	-12.5578
簏	-12.5578
笭	-12.5755
毐	-12.5757
礟	-12.5761
觕	-12.5768
崕	-12.5771
尿	-12.5773
荄	-12.5773
疉	-12.5774
淙	-12.5775
饔	-12.5776
磋	-12.5776
驁	-12.5777
餬	-12.5777
杕	-12.5777
琖	-12.5777
熺	-12.5778
杷	-12.5778
黴	-12.5779
磵	-12.5779
饀	-12.5779
紞	-12.578
嫣	-12.578
笻	-12.5781
軿	-12.5781
蒭	-12.5782
裋	-12.5782
洧	-12.5783
邙	-12.5784
郫	-12.5785
墠	-12.5787
蜆	-12.5788
撐	-12.579
橑	-12.579
哆	-12.579
䗶	-12.5792
瞎	-12.5793
薯	-12.5795
硤	-12.5795
扐	-12.5795
樛	-12.5795
厶	-12.5797
樅	-12.58
鯊	-12.5817
悤	-12.5984
䕷	-12.5984
翌	-12.5986
莩	-12.599
賸	-12.5994
繢	-12.5994
棻	-12.5994
巗	-12.5996
仡	-12.5997
懊	-12.5999
䡄	-12.5999
氍	-12.5999
皿	-12.6
挲	-12.6
緅	-12.6
笱	-12.6001
抺	-12.6002
瀏	-12.6003
觳	-12.6003
戣	-12.6003
鮀	-12.6004
爬	-12.6004
鷯	-12.6005
毖	-12.6006
癉	-12.6006
柂	-12.6006
睠	-12.6007
薙	-12.6007
玭	-12.6008
賺	-12.6008
蹂	-12.6008
郾	-12.6009
蠋	-12.6009
姁	-12.6009
綆	-12.6009
蜋	-12.601
杰	-12.601
禴	-12.601
鴽	-12.6011
餔	-12.6011
尻	-12.6011
詧	-12.6012
盩	-12.6014
跼	-12.6015
夹	-12.6015
靸	-12.6015
鵪	-12.6017
雊	-12.6017
芘	-12.6018
宀	-12.6019
繅	-12.602
雚	-12.6212
鄄	-12.6218
砮	-12.6221
飥	-12.6223
嚳	-12.6223
濆	-12.6224
萁	-12.6225
蹉	-12.6226
剜	-12.6228
洫	-12.6228
熄	-12.6228
𣏌	-12.6228
茋	-12.6229
櫞	-12.623
聱	-12.6231
苒	-12.6233
䧏	-12.6233
杌	-12.6234
薢	-12.6235
鄫	-12.6235
棼	-12.6236
氅	-12.6237
両	-12.6237
佻	-12.6237
汐	-12.6238
柈	-12.624
迻	-12.6241
堠	-12.6242
徨	-12.6242
伾	-12.6243
鄺	-12.6246
堨	-12.6247
尠	-12.6247
覷	-12.625
袷	-12.625
籹	-12.6251
隹	-12.6255
僥	-12.6454
尙	-12.6454
嗷	-12.6455
啣	-12.646
泪	-12.646
癯	-12.6461
欬	-12.6461
罋	-12.6461
綣	-12.6461
掎	-12.6462
矇	-12.6463
瓏	-12.6463
鴂	-12.6463
悮	-12.6463
懟	-12.6465
鬃	-12.6466
鉸	-12.6466
匽	-12.6467
臝	-12.6467
壖	-12.6467
狁	-12.6467
裀	-12.6467
磷	-12.6468
躇	-12.6468
萹	-12.647
喁	-12.647
蘊	-12.6473
疣	-12.6474
棬	-12.6474
晧	-12.6474
蟫	-12.6475
紾	-12.6476
獒	-12.6477
劌	-12.6477
糈	-12.6478
磑	-12.6479
搯	-12.648
泆	-12.6482
袟	-12.6484
耏	-12.6523
縗	-12.668
氲	-12.6681
劘	-12.6682
耑	-12.6683
嚇	-12.6691
駈	-12.6691
榧	-12.6692
樾	-12.6693
芃	-12.6695
麂	-12.6696
嘵	-12.6697
䳌	-12.6698
拷	-12.6698
藎	-12.6698
楗	-12.6699
酗	-12.6699
絇	-12.67
瞶	-12.67
剄	-12.6701
耰	-12.6701
轝	-12.6701
篴	-12.6702
蠐	-12.6703
縧	-12.6703
鄗	-12.6703
瓿	-12.6704
鴒	-12.6704
栅	-12.6706
犴	-12.6706
砍	-12.6706
颿	-12.6708
郿	-12.6708
螃	-12.6709
帨	-12.671
鍍	-12.6711
褉	-12.6712
貙	-12.6712
栲	-12.6712
鉶	-12.6713
瀼	-12.6713
姞	-12.6714
氈	-12.6714
璃	-12.6714
鄩	-12.6726
逡	-12.6728
􁔆	-12.6928
蜒	-12.693
麑	-12.6936
𫀆	-12.6936
嫄	-12.6942
𠖇	-12.6942
灊	-12.6943
癃	-12.6943
蒋	-12.6945
湓	-12.6945
崢	-12.6946
趕	-12.6946
篘	-12.6947
碟	-12.6948
佖	-12.695
裛	-12.6951
褕	-12.6951
滻	-12.6951
槱	-12.6952
觱	-12.6952
彜	-12.6952
瀍	-12.6953
柤	-12.6954
蘗	-12.6954
靁	-12.6954
踶	-12.6955
獎	-12.6955
瘍	-12.6959
甍	-12.6959
勍	-12.6962
噦	-12.6962
<	-12.6969
t	-12.6969
餂	-12.6969
軺	-12.718
𥙿	-12.7185
覦	-12.7185
蓉	-12.7186
剸	-12.7187
痼	-12.7189
瀬	-12.719
鷴	-12.719
侄	-12.7191
碏	-12.7191
詖	-12.7192
洑	-12.7193
篹	-12.7193
邲	-12.7194
瘵	-12.7194
麒	-12.7195
騏	-12.7195
湄	-12.7195
劚	-12.7197
璚	-12.7197
杠	-12.7198
憧	-12.7199
猊	-12.72
菡	-12.72
戹	-12.72
玃	-12.7202
淝	-12.7203
麛	-12.7203
粽	-12.7205
鄔	-12.7206
靛	-12.7207
澥	-12.7208
膢	-12.7209
跑	-12.721
紲	-12.7211
絁	-12.7211
:	-12.7405
籮	-12.7432
𧦬	-12.7434
棉	-12.7438
宷	-12.7443
臊	-12.7445
擄	-12.7445
紕	-12.7445
纇	-12.7445
暐	-12.7446
胼	-12.7447
溽	-12.7447
倆	-12.7448
慼	-12.7449
靦	-12.7449
瘤	-12.745
幌	-12.7451
洊	-12.7451
攖	-12.7451
螬	-12.7452
馗	-12.7452
稳	-12.7453
嵎	-12.7453
狴	-12.7453
闤	-12.7455
㨂	-12.7455
邜	-12.7456
㝡	-12.7456
鼾	-12.7456
孀	-12.7457
騙	-12.7457
踝	-12.7457
縲	-12.7459
筲	-12.746
鰐	-12.7462
徯	-12.7462
尫	-12.7462
諠	-12.7464
倬	-12.7464
蛄	-12.7464
箝	-12.7464
閧	-12.7465
韮	-12.7466
鵕	-12.7466
㶚	-12.7466
箄	-12.7467
瞷	-12.7468
吒	-12.7473
鳻	-12.7482
欿	-12.7498
弰	-12.7515
蜑	-12.7672
隍	-12.7687
乩	-12.7697
賍	-12.7699
薿	-12.77
䌓	-12.7706
丱	-12.7706
絪	-12.7708
鈃	-12.771
玘	-12.771
罡	-12.7711
蓰	-12.7711
㮚	-12.7711
苾	-12.7712
鏒	-12.7714
憬	-12.7715
籲	-12.7715
腓	-12.7715
柅	-12.7715
閾	-12.7716
瘕	-12.7716
膿	-12.7716
峡	-12.7716
煗	-12.7716
蚪	-12.7717
嬸	-12.7717
梲	-12.7717
卨	-12.7717
悱	-12.7717
炰	-12.7717
嶢	-12.7717
㽞	-12.7718
斿	-12.7718
闠	-12.7718
嬋	-12.7719
㬰	-12.7719
茇	-12.772
呫	-12.7721
徠	-12.7722
獬	-12.7723
諄	-12.7723
牯	-12.7723
瞪	-12.7723
稧	-12.7724
鷥	-12.7724
份	-12.7724
檉	-12.7726
鱔	-12.7726
傪	-12.7727
蝀	-12.7727
羇	-12.7727
泑	-12.7729
朅	-12.7729
裵	-12.773
蚳	-12.7732
鮭	-12.7734
肜	-12.7734
濌	-12.7735
鬐	-12.7737
鸒	-12.7754
厙	-12.7948
楬	-12.7961
黟	-12.7964
蓯	-12.7966
凳	-12.7966
凊	-12.7966
幫	-12.7973
壼	-12.7975
琹	-12.7976
塍	-12.7976
謻	-12.7977
楼	-12.7978
痤	-12.7978
揠	-12.7979
蛸	-12.798
届	-12.798
綮	-12.7981
燻	-12.7981
鋟	-12.7982
賕	-12.7982
諢	-12.7983
矚	-12.7983
腯	-12.7983
媟	-12.7984
䖟	-12.7985
杙	-12.7985
壎	-12.7985
蜓	-12.7988
諲	-12.7988
掄	-12.7988
慇	-12.7989
沍	-12.7989
琥	-12.7989
嫠	-12.7989
㪅	-12.7989
磻	-12.7989
塌	-12.7989
臀	-12.7989
嵋	-12.799
媼	-12.799
屺	-12.7991
肫	-12.7991
坳	-12.7992
柙	-12.7992
佰	-12.7994
鞔	-12.7994
渰	-12.7994
娜	-12.7995
茩	-12.7995
膞	-12.7996
曌	-12.7996
眯	-12.7996
陴	-12.7997
逭	-12.7997
忉	-12.7997
馹	-12.7998
虔	-12.7999
躞	-12.7999
緌	-12.7999
鼕	-12.8
龢	-12.8001
桉	-12.8002
唤	-12.8003
賨	-12.8004
韎	-12.8005
掔	-12.803
箵	-12.8229
禡	-12.825
魫	-12.825
讟	-12.8252
亹	-12.8255
癬	-12.8255
誖	-12.8256
㰖	-12.8257
澨	-12.8257
苽	-12.8258
鶹	-12.8258
醲	-12.8258
熯	-12.8259
饞	-12.8259
嫻	-12.8259
灕	-12.826
溯	-12.826
矗	-12.826
輳	-12.826
窬	-12.8261
溈	-12.8262
朧	-12.8262
甡	-12.8263
縢	-12.8263
褪	-12.8263
呶	-12.8264
珤	-12.8264
迢	-12.8264
狭	-12.8264
鎌	-12.8265
擫	-12.8265
賵	-12.8265
廛	-12.8265
鱄	-12.8266
諴	-12.8267
彄	-12.8267
舀	-12.8268
型	-12.8268
琵	-12.8268
頠	-12.8268
鏖	-12.8268
繰	-12.827
箾	-12.827
脗	-12.8271
聵	-12.8271
岧	-12.8273
籒	-12.8274
漶	-12.8275
焞	-12.8275
醺	-12.8276
妊	-12.8276
偸	-12.8276
噓	-12.828
勷	-12.8282
䆃	-12.8283
痘	-12.8283
褙	-12.8284
逶	-12.8286
敧	-12.8304
訿	-12.8306
茷	-12.8309
梔	-12.8525
鏜	-12.8529
㴱	-12.8529
蕕	-12.8532
砒	-12.8535
皖	-12.8536
硇	-12.8536
芧	-12.8536
佶	-12.854
𣆀	-12.8542
耼	-12.8543
喃	-12.8543
橄	-12.8543
悃	-12.8543
釂	-12.8544
鵾	-12.8545
迕	-12.8545
儵	-12.8547
獮	-12.8547
謖	-12.8547
鐔	-12.8547
麃	-12.8548
渟	-12.8548
澌	-12.8548
荐	-12.8548
皦	-12.8549
嗾	-12.855
蜞	-12.8551
狖	-12.8551
唁	-12.8551
鄤	-12.8551
蚋	-12.8552
遅	-12.8553
纉	-12.8553
濙	-12.8553
傒	-12.8553
歜	-12.8554
甿	-12.8554
綖	-12.8554
媫	-12.8555
窋	-12.8555
椘	-12.8556
刦	-12.8557
㹠	-12.8557
逯	-12.8557
芭	-12.8557
罥	-12.8558
厔	-12.8559
鶖	-12.8559
惚	-12.8559
蔲	-12.8561
㠯	-12.8564
豌	-12.8564
鰣	-12.8565
桕	-12.8566
栟	-12.8569
郜	-12.8569
胏	-12.8593
阱	-12.8818
熳	-12.8823
腭	-12.8824
圛	-12.8827
樝	-12.8827
痍	-12.8829
蹯	-12.8829
呬	-12.8832
罁	-12.8832
迮	-12.8834
萟	-12.8835
琶	-12.8836
㳒	-12.8837
餈	-12.8837
搓	-12.8838
驃	-12.8838
衊	-12.8839
㳫	-12.8839
㗋	-12.884
躊	-12.8841
䐑	-12.8843
釅	-12.8843
䧺	-12.8844
扯	-12.8844
萵	-12.8844
繐	-12.8845
唘	-12.8846
疴	-12.8846
沲	-12.8846
纏	-12.8846
鵂	-12.8847
恝	-12.8848
鑣	-12.8848
芍	-12.8848
𦍑	-12.8848
鯫	-12.8848
槮	-12.8849
謌	-12.885
蕳	-12.885
栻	-12.885
樺	-12.885
膴	-12.8851
妤	-12.8851
獷	-12.8851
獫	-12.8852
骼	-12.8852
蜼	-12.8852
槭	-12.8852
喈	-12.8852
䌫	-12.8853
囁	-12.8853
僰	-12.8854
韉	-12.8855
犨	-12.8856
筤	-12.8856
羖	-12.8856
磽	-12.8857
唃	-12.8857
虒	-12.8858
鶠	-12.8859
靼	-12.8859
麇	-12.8859
韍	-12.886
矻	-12.886
寉	-12.886
踽	-12.8861
贔	-12.8863
廞	-12.8864
佹	-12.8865
矰	-12.8866
渼	-12.8867
譊	-12.9109
簍	-12.9119
臕	-12.9123
浞	-12.9125
蔟	-12.9125
隟	-12.9128
胛	-12.9132
髽	-12.9136
媮	-12.9137
尔	-12.9137
颼	-12.9139
聪	-12.9141
誶	-12.9143
粳	-12.9143
溠	-12.9144
轑	-12.9144
篲	-12.9144
袚	-12.9145
嫰	-12.9145
螾	-12.9146
㝢	-12.9146
䜌	-12.9146
撅	-12.9147
搤	-12.9148
褻	-12.9149
顇	-12.9149
蕷	-12.9149
簹	-12.915
颷	-12.915
舳	-12.915
撙	-12.9151
齏	-12.9151
徜	-12.9151
杬	-12.9152
鵓	-12.9152
楩	-12.9152
断	-12.9153
瑠	-12.9153
桯	-12.9155
巇	-12.9155
嘈	-12.9155
裱	-12.9155
軏	-12.9156
昳	-12.9156
輊	-12.9156
螳	-12.9156
倞	-12.9156
頮	-12.9157
歧	-12.9158
懍	-12.9159
㐲	-12.9159
痟	-12.9159
鋋	-12.916
珀	-12.9161
彡	-12.9161
傖	-12.9162
侏	-12.9162
偘	-12.9162
褎	-12.9164
倔	-12.9168
芄	-12.9429
箑	-12.9434
蛋	-12.9443
劎	-12.9448
洺	-12.9449
晻	-12.9452
耍	-12.9453
恫	-12.9454
幬	-12.9454
庋	-12.9455
櫸	-12.9455
鬒	-12.9455
幞	-12.9455
騑	-12.9455
蝡	-12.9455
蜎	-12.9456
鸑	-12.9457
穟	-12.9457
䍧	-12.9457
綍	-12.9457
盉	-12.9458
壌	-12.9458
敳	-12.9458
䆫	-12.9459
泇	-12.9459
萆	-12.9459
汸	-12.9459
洱	-12.9459
煴	-12.946
洳	-12.946
拚	-12.946
忡	-12.946
醻	-12.946
㓨	-12.946
艤	-12.9461
琇	-12.9461
珵	-12.9461
站	-12.9462
蕖	-12.9462
旹	-12.9463
坌	-12.9463
虯	-12.9464
滃	-12.9465
駃	-12.9465
抇	-12.9466
闑	-12.9466
盫	-12.9466
縐	-12.9467
砦	-12.9468
亙	-12.9469
鋗	-12.9469
啐	-12.9469
籧	-12.947
泱	-12.947
矞	-12.9471
濇	-12.9473
稌	-12.9473
鏟	-12.9473
踔	-12.9473
祴	-12.9475
唫	-12.9478
涒	-12.9481
耉	-12.9481
誾	-12.9482
嘽	-12.949
蒩	-12.9513
螖	-12.9757
篸	-12.9757
銹	-12.9758
揎	-12.9759
窨	-12.976
獪	-12.9762
枌	-12.9769
逑	-12.9769
牏	-12.977
臑	-12.977
焜	-12.9772
閠	-12.9772
輶	-12.9773
趁	-12.9773
餧	-12.9773
旟	-12.9774
葠	-12.9774
圩	-12.9775
椏	-12.9775
騭	-12.9776
繦	-12.9776
穪	-12.9776
踉	-12.9777
盭	-12.9777
訒	-12.9777
淏	-12.9777
砢	-12.9777
粢	-12.9778
嶁	-12.9778
簔	-12.9778
糅	-12.9779
􁇒	-12.9779
酩	-12.9779
蝘	-12.9779
坯	-12.9781
淲	-12.9781
懔	-12.9782
斮	-12.9782
旉	-12.9783
漓	-12.9783
䣜	-12.9783
咻	-12.9783
鼫	-12.9784
韐	-12.9784
閈	-12.9785
礧	-12.9785
筳	-12.9786
尢	-12.9786
戇	-12.9787
鱧	-12.9789
倂	-12.9789
鷫	-12.979
㷀	-12.979
撏	-12.979
稑	-12.9791
鮦	-12.9794
枮	-12.9795
舷	-12.9796
鵁	-12.9797
鑷	-12.9797
絅	-12.9797
靶	-12.9797
哄	-12.98
獰	-12.98
繂	-12.9801
茘	-12.9801
槗	-12.9811
嗢	-12.9811
鮝	-12.9811
譸	-12.9825
鷊	-13.0087
郼	-13.0093
薏	-13.0101
轘	-13.0101
黶	-13.0102
禩	-13.0104
墼	-13.0104
驀	-13.0105
蝍	-13.0107
醨	-13.0107
叮	-13.0107
疢	-13.0108
鶺	-13.0108
踖	-13.0108
蓧	-13.0108
哽	-13.011
鐲	-13.011
胖	-13.0111
瑊	-13.0111
葽	-13.0112
􁰽	-13.0112
鄯	-13.0114
枇	-13.0115
佀	-13.0116
呿	-13.0116
窽	-13.0117
鍬	-13.0117
蠁	-13.0117
黮	-13.0118
蝌	-13.0118
槳	-13.0118
癲	-13.012
醑	-13.012
轔	-13.012
黧	-13.0121
澎	-13.0121
帀	-13.0121
瞠	-13.0122
蝱	-13.0122
朮	-13.0122
蟇	-13.0124
窊	-13.0125
羝	-13.0125
卺	-13.0125
芣	-13.0126
蜣	-13.0127
簠	-13.0128
洼	-13.0128
珦	-13.0129
狌	-13.013
狶	-13.013
癎	-13.0131
庿	-13.0132
桁	-13.0132
詗	-13.0133
齦	-13.0135
昞	-13.0136
継	-13.0139
鴘	-13.014
尒	-13.0142
驘	-13.0144
愞	-13.0145
䵷	-13.0156
擭	-13.0423
蓓	-13.043
絍	-13.0438
趄	-13.0438
虓	-13.0439
饟	-13.0444
昪	-13.0446
薅	-13.0447
袛	-13.0447
牗	-13.045
㮣	-13.0452
确	-13.0452
嘷	-13.0452
奶	-13.0452
崎	-13.0453
爱	-13.0453
黈	-13.0454
蝤	-13.0454
卹	-13.0454
絓	-13.0455
䡖	-13.0456
鬷	-13.0457
芫	-13.0457
媞	-13.0457
窕	-13.0458
灄	-13.0458
痁	-13.0458
㕦	-13.0459
瓛	-13.0459
娉	-13.0459
埓	-13.046
葚	-13.046
杻	-13.046
钁	-13.0461
犦	-13.0461
奡	-13.0461
鍠	-13.0462
骫	-13.0462
咆	-13.0463
釦	-13.0463
橊	-13.0464
蚺	-13.0464
儐	-13.0464
辵	-13.0466
蹐	-13.0467
芉	-13.0467
篨	-13.0467
寑	-13.0468
硾	-13.0468
墐	-13.0468
嘑	-13.0469
鶵	-13.0471
怫	-13.0471
澱	-13.0471
杇	-13.0472
紒	-13.0472
褌	-13.0472
渫	-13.0473
蹰	-13.0473
㒒	-13.0474
騅	-13.0474
恇	-13.0475
玢	-13.0477
嫵	-13.0477
褧	-13.0479
桺	-13.048
瞢	-13.0483
瑚	-13.0483
厺	-13.0484
蕝	-13.049
硼	-13.0788
飂	-13.0798
渢	-13.0799
鱘	-13.0799
泜	-13.0801
畞	-13.0802
傕	-13.0802
檛	-13.0803
槲	-13.0803
鈷	-13.0803
讕	-13.0803
蘢	-13.0804
栱	-13.0804
碪	-13.0804
醆	-13.0805
穄	-13.0805
丫	-13.0806
腠	-13.0806
磈	-13.0808
硎	-13.0809
佔	-13.081
醳	-13.081
嶰	-13.081
猩	-13.0811
謷	-13.0811
獗	-13.0812
繾	-13.0812
隩	-13.0813
鵑	-13.0813
衺	-13.0813
毌	-13.0813
徔	-13.0814
唄	-13.0814
薶	-13.0814
昷	-13.0814
瑁	-13.0815
㙮	-13.0815
蓏	-13.0815
漙	-13.0816
捎	-13.0816
讋	-13.0816
蠓	-13.0816
鏌	-13.0817
騄	-13.0817
吭	-13.082
巏	-13.082
蒱	-13.082
洚	-13.082
􁸘	-13.0822
燁	-13.0823
鈒	-13.0823
楶	-13.0824
惴	-13.0824
广	-13.0824
莓	-13.0824
炅	-13.0825
籛	-13.0825
囤	-13.0826
嚻	-13.0826
祏	-13.0827
鞚	-13.0827
儇	-13.0828
呱	-13.0828
骳	-13.0828
鱮	-13.0828
䢴	-13.0829
躑	-13.0829
囈	-13.083
㙔	-13.083
􁇲	-13.0831
䔩	-13.0832
桎	-13.0834
劻	-13.0834
牁	-13.0834
騧	-13.0836
鶄	-13.0837
疝	-13.0838
疃	-13.0865
卝	-13.1128
秸	-13.1154
蓁	-13.1161
稂	-13.1165
桅	-13.1166
甽	-13.1167
縌	-13.1168
枿	-13.1169
龡	-13.117
匳	-13.117
扅	-13.1174
鹻	-13.1174
扊	-13.1175
緄	-13.1176
嫓	-13.1176
茢	-13.1177
惨	-13.1177
攏	-13.1178
剟	-13.1178
珈	-13.1179
厖	-13.1179
酊	-13.1179
殼	-13.118
齷	-13.1181
綳	-13.1182
簺	-13.1182
襮	-13.1183
嶇	-13.1183
牣	-13.1183
塿	-13.1184
饐	-13.1184
汃	-13.1185
愒	-13.1185
爚	-13.1186
𥚹	-13.1187
晬	-13.1187
迯	-13.1188
唼	-13.1189
鴇	-13.1189
胚	-13.119
蚨	-13.119
呷	-13.119
凰	-13.119
眹	-13.1191
坏	-13.1192
鬨	-13.1192
惣	-13.1192
滏	-13.1193
儛	-13.1193
鼬	-13.1194
猳	-13.1195
啑	-13.1195
䥫	-13.1196
搊	-13.1196
鞀	-13.1196
蜾	-13.1196
𬎼	-13.1197
峕	-13.1197
崘	-13.1197
岵	-13.1198
罾	-13.1198
䦧	-13.1199
毡	-13.1199
觿	-13.12
淥	-13.1201
呻	-13.1202
㜑	-13.1202
鰍	-13.1203
䴊	-13.1205
僱	-13.1206
鬍	-13.1207
朒	-13.1208
菻	-13.1209
很	-13.121
韝	-13.121
秅	-13.1213
屭	-13.1217
鷖	-13.1217
摴	-13.1219
粔	-13.122
洸	-13.1229
尗	-13.1238
弝	-13.1243
湆	-13.1532
䵬	-13.1538
葯	-13.1545
薁	-13.155
豭	-13.1552
朘	-13.1559
􁆡	-13.1559
糚	-13.156
逴	-13.156
湃	-13.1561
籞	-13.1561
潬	-13.1562
圊	-13.1563
賠	-13.1564
浟	-13.1564
鮧	-13.1564
宁	-13.1566
躄	-13.1567
酏	-13.1568
蟊	-13.1569
醸	-13.1569
暾	-13.1569
焱	-13.157
􁣈	-13.157
㰱	-13.157
痎	-13.157
餺	-13.157
蹵	-13.157
曛	-13.157
嚄	-13.157
顦	-13.1571
裩	-13.1571
呀	-13.1572
侠	-13.1572
藨	-13.1572
蠹	-13.1574
姣	-13.1574
秺	-13.1574
溍	-13.1575
遝	-13.1576
䒶	-13.1576
獍	-13.1576
枘	-13.1576
諟	-13.1578
䏶	-13.1578
鏄	-13.1579
橢	-13.1581
淯	-13.1581
闒	-13.1581
踟	-13.1582
蛹	-13.1582
餚	-13.1582
亖	-13.1582
弢	-13.1584
咍	-13.1587
檗	-13.1587
冘	-13.1588
觖	-13.1588
柸	-13.1591
綢	-13.1592
泂	-13.1596
郪	-13.1596
旊	-13.1598
画	-13.1598
憖	-13.1599
䲹	-13.1608
贉	-13.1612
䅻	-13.1618
稯	-13.1623
廱	-13.1624
窱	-13.1931
杘	-13.195
沚	-13.1953
爌	-13.1957
搘	-13.1957
䣙	-13.1958
繽	-13.1959
蚑	-13.196
贙	-13.1961
禨	-13.1962
曕	-13.1962
箘	-13.1962
戻	-13.1963
洌	-13.1963
埰	-13.1964
蕒	-13.1965
碌	-13.1965
頟	-13.1966
𣢾	-13.1968
姫	-13.1968
堁	-13.1969
屧	-13.197
澍	-13.197
諏	-13.197
趵	-13.1971
𠡠	-13.1971
傜	-13.1971
壷	-13.1971
猒	-13.1971
罃	-13.1972
跽	-13.1972
菇	-13.1972
旎	-13.1973
屡	-13.1973
洓	-13.1973
廳	-13.1974
忭	-13.1974
囦	-13.1974
廆	-13.1974
滫	-13.1974
𤯝	-13.1975
蟛	-13.1975
煚	-13.1976
絻	-13.1976
剴	-13.1976
􁚿	-13.1976
廁	-13.1977
菠	-13.1978
霿	-13.1978
悢	-13.1979
橰	-13.1979
幪	-13.1981
眡	-13.1981
妯	-13.1981
敭	-13.1981
緰	-13.1982
駉	-13.1982
彳	-13.1982
韤	-13.1983
胾	-13.1983
瘼	-13.1984
沜	-13.1985
枓	-13.1987
瘋	-13.1988
嫕	-13.1988
嶤	-13.1988
珓	-13.1989
笪	-13.199
噂	-13.1991
簜	-13.1991
鞌	-13.1992
仟	-13.1992
禔	-13.1998
叜	-13.1999
屝	-13.2
姍	-13.2003
詻	-13.2004
欓	-13.2004
鵄	-13.2031
甏	-13.2339
「	-13.2352
胍	-13.2356
綝	-13.2357
臿	-13.2362
娀	-13.2363
啁	-13.2365
鄱	-13.2368
姆	-13.237
菏	-13.237
蘽	-13.2372
罳	-13.2374
唵	-13.2375
喎	-13.2375
搽	-13.2375
觽	-13.2376
翽	-13.2377
趫	-13.2378
薉	-13.2379
氄	-13.2379
㢠	-13.2379
蘺	-13.238
惬	-13.238
阽	-13.2381
裓	-13.2381
髫	-13.2382
踳	-13.2382
窿	-13.2383
簳	-13.2384
媢	-13.2384
湢	-13.2384
厪	-13.2384
崒	-13.2384
惛	-13.2384
帬	-13.2384
憺	-13.2385
蓞	-13.2386
菆	-13.2387
爟	-13.2387
濘	-13.2387
怜	-13.2388
簨	-13.2389
韲	-13.2389
俁	-13.2389
咥	-13.2389
踆	-13.2389
鐐	-13.239
盔	-13.239
輴	-13.239
遫	-13.239
媸	-13.239
嶄	-13.2392
彴	-13.2392
琲	-13.2393
阼	-13.2393
灧	-13.2393
繄	-13.2393
贐	-13.2393
簁	-13.2394
瀣	-13.2394
㕛	-13.2394
寞	-13.2395
淼	-13.2395
歊	-13.2395
嶔	-13.2395
曈	-13.2396
滈	-13.2396
韠	-13.2396
璐	-13.2397
埵	-13.2397
韡	-13.2397
袱	-13.2398
茒	-13.2398
眭	-13.2399
痾	-13.24
闉	-13.2402
葰	-13.2404
􁆁	-13.2405
崦	-13.2405
鋏	-13.2405
幰	-13.2407
僃	-13.2407
宬	-13.2407
㢮	-13.2407
壍	-13.2409
膁	-13.2409
牸	-13.241
琭	-13.2412
鸊	-13.2414
螉	-13.2414
蜴	-13.2417
䊷	-13.2419
鰂	-13.2428
睒	-13.2442
磾	-13.2797
桲	-13.2797
邅	-13.28
蔆	-13.2802
蘤	-13.2803
纑	-13.2804
囝	-13.2807
鍚	-13.2807
𣪚	-13.2808
顴	-13.281
坪	-13.2811
騢	-13.2811
喔	-13.2811
薍	-13.2811
仉	-13.2812
旼	-13.2812
楂	-13.2813
价	-13.2814
褦	-13.2816
襶	-13.2816
醁	-13.2816
蒳	-13.2817
薾	-13.2817
鵽	-13.2817
鑕	-13.2817
䓻	-13.2817
辮	-13.2818
颭	-13.2818
稺	-13.2818
𤏡	-13.2818
竚	-13.2819
䘚	-13.2819
暕	-13.282
匐	-13.282
酴	-13.2821
幇	-13.2821
歪	-13.2821
騣	-13.2821
澔	-13.2822
袗	-13.2823
匆	-13.2823
丣	-13.2824
獞	-13.2824
㲲	-13.2825
瀵	-13.2826
罣	-13.2826
噏	-13.2827
輾	-13.2828
胠	-13.2828
窫	-13.2828
浡	-13.2829
貘	-13.283
軔	-13.283
僎	-13.2831
婬	-13.2831
蠔	-13.2831
胲	-13.2832
燹	-13.2832
蕺	-13.2833
熝	-13.2834
鼮	-13.2834
卅	-13.2834
筊	-13.2835
撦	-13.2836
拮	-13.2836
蔈	-13.2836
𬋩	-13.2837
㫋	-13.2837
堋	-13.2838
坈	-13.2839
覡	-13.2839
僾	-13.284
甀	-13.2843
韃	-13.2843
倏	-13.2844
軛	-13.2844
泬	-13.2845
穾	-13.2845
􁙾	-13.2846
徊	-13.2846
茀	-13.2846
頖	-13.2846
桿	-13.2849
骭	-13.285
騠	-13.2857
䳺	-13.2859
鮆	-13.2859
檮	-13.286
侜	-13.286
葪	-13.3234
􁩌	-13.3246
榅	-13.3251
萋	-13.3251
紃	-13.3251
㔬	-13.3252
軵	-13.3254
斕	-13.3255
軷	-13.3258
陿	-13.3258
嬲	-13.3262
嗉	-13.3262
牱	-13.3262
穈	-13.3265
忼	-13.3266
嗃	-13.3266
芀	-13.3266
蚰	-13.3266
噆	-13.3266
圬	-13.3267
衕	-13.3267
駼	-13.3268
虆	-13.3268
换	-13.3269
痏	-13.3269
惔	-13.3269
伃	-13.327
磅	-13.3271
糙	-13.3272
棱	-13.3272
歠	-13.3272
恟	-13.3272
鮌	-13.3272
姹	-13.3273
蒺	-13.3273
鼗	-13.3273
癱	-13.3274
璙	-13.3274
葘	-13.3274
湣	-13.3274
稡	-13.3275
鬴	-13.3276
岠	-13.3276
凂	-13.3277
嚅	-13.3277
螄	-13.3277
蟜	-13.3277
塏	-13.3277
跱	-13.3277
蚧	-13.3277
悈	-13.3278
鶿	-13.3278
尨	-13.3278
搃	-13.3278
侶	-13.3279
葍	-13.3279
菂	-13.328
翾	-13.328
鄊	-13.3281
窯	-13.3282
栭	-13.3282
眙	-13.3282
蜿	-13.3282
竆	-13.3283
鴐	-13.3283
丨	-13.3284
睎	-13.3284
瘐	-13.3285
麀	-13.3285
嫫	-13.3287
娌	-13.3288
詶	-13.3288
鷓	-13.3288
禠	-13.3288
笊	-13.3289
慆	-13.3289
笆	-13.3289
曏	-13.329
𠞰	-13.3292
峘	-13.3293
鏇	-13.3293
藷	-13.3293
朓	-13.3294
籸	-13.3294
禜	-13.3296
梠	-13.3297
鳱	-13.3297
磕	-13.3299
榝	-13.3299
湩	-13.3299
饎	-13.3305
螗	-13.3306
咩	-13.3316
􁙆	-13.3328
佷	-13.3328
仌	-13.3715
摎	-13.3723
旐	-13.3729
赬	-13.373
鯈	-13.3732
疈	-13.3734
楦	-13.3735
撕	-13.3736
璲	-13.3739
莬	-13.374
鄏	-13.374
漩	-13.374
憃	-13.374
譆	-13.3741
鱁	-13.3741
醽	-13.3742
歕	-13.3742
龑	-13.3742
訏	-13.3742
㭊	-13.3743
帊	-13.3745
驌	-13.3747
弮	-13.3747
俵	-13.3747
騊	-13.3747
􁛏	-13.3748
艼	-13.3748
蔴	-13.3749
𧖟	-13.3749
壳	-13.375
鞴	-13.375
㭬	-13.3751
赩	-13.3751
冫	-13.3751
丏	-13.3751
縓	-13.3752
羢	-13.3753
𥅆	-13.3753
黌	-13.3753
慷	-13.3754
􁈍	-13.3754
沗	-13.3754
芵	-13.3755
婟	-13.3755
擗	-13.3755
跚	-13.3755
漭	-13.3756
阯	-13.3756
􁇋	-13.3757
雰	-13.3758
苢	-13.3758
輗	-13.3758
餖	-13.3758
蔪	-13.3758
趋	-13.3759
庀	-13.376
茝	-13.3761
絏	-13.3762
摳	-13.3763
慍	-13.3763
鋝	-13.3765
慴	-13.3765
擥	-13.3766
訇	-13.3766
逥	-13.3766
鎏	-13.3768
稭	-13.3769
薟	-13.3769
曀	-13.377
􁀐	-13.3771
帒	-13.3771
匊	-13.3772
抓	-13.3773
䘖	-13.3773
帢	-13.3775
轆	-13.3775
緞	-13.3776
囅	-13.3776
佟	-13.3776
肰	-13.3778
礼	-13.3778
攟	-13.3779
惎	-13.3783
萩	-13.3785
蚄	-13.3787
頞	-13.3789
緵	-13.3817
瓡	-13.421
銲	-13.4226
莨	-13.4228
矴	-13.423
枬	-13.423
皚	-13.423
鳧	-13.4231
罫	-13.4232
齶	-13.4236
􁎦	-13.4237
媍	-13.4238
篿	-13.4239
􁍈	-13.4239
丿	-13.4239
樨	-13.4239
唅	-13.424
垕	-13.4241
濊	-13.4242
怊	-13.4243
磥	-13.4243
􁅟	-13.4243
墬	-13.4243
姸	-13.4243
脤	-13.4244
蝉	-13.4245
摐	-13.4245
阬	-13.4246
稊	-13.4247
芙	-13.4247
瑭	-13.4247
脬	-13.4247
枻	-13.4248
悪	-13.4249
妗	-13.4249
刊	-13.4249
褖	-13.425
剞	-13.425
俏	-13.4251
俅	-13.4251
倥	-13.4251
眦	-13.4252
烖	-13.4252
鮞	-13.4252
隮	-13.4253
鸘	-13.4253
貤	-13.4253
憝	-13.4253
頍	-13.4254
嚲	-13.4254
郙	-13.4254
汛	-13.4256
鯔	-13.4256
㫺	-13.4257
卄	-13.4257
憒	-13.4257
蜯	-13.4257
𥜗	-13.4257
猘	-13.4258
幛	-13.4258
䴡	-13.4258
祍	-13.4259
蒢	-13.4259
瀠	-13.4259
鰓	-13.4259
跏	-13.426
枏	-13.426
􁌫	-13.426
砅	-13.4261
䍐	-13.4261
蓨	-13.4261
烕	-13.4261
蹢	-13.4262
䔲	-13.4262
琫	-13.4262
泖	-13.4262
㝎	-13.4263
賒	-13.4263
抂	-13.4263
烰	-13.4263
穼	-13.4263
鏝	-13.4264
傀	-13.4264
熛	-13.4264
麰	-13.4265
檿	-13.4265
袿	-13.4266
曅	-13.4266
鋐	-13.4267
筓	-13.4267
㪇	-13.4267
沄	-13.4268
勳	-13.4269
餦	-13.4269
萄	-13.427
撋	-13.4271
担	-13.4271
輠	-13.4271
汳	-13.4273
鵫	-13.4273
恧	-13.4273
葹	-13.4274
魨	-13.4274
耔	-13.4275
蓤	-13.4276
浼	-13.4276
㘭	-13.4276
胔	-13.428
满	-13.428
娖	-13.4283
寴	-13.4287
弡	-13.4298
剭	-13.4299
暵	-13.4742
􁞗	-13.4743
艣	-13.4752
􁉤	-13.4752
樐	-13.4754
榘	-13.4754
翏	-13.4758
釭	-13.4759
喂	-13.4763
暅	-13.4765
勌	-13.4765
皈	-13.4765
謏	-13.4766
鉧	-13.4766
溆	-13.4767
儡	-13.4769
牐	-13.4769
駹	-13.4769
隖	-13.477
㚇	-13.477
厘	-13.477
搉	-13.4771
僝	-13.4772
藾	-13.4772
凾	-13.4772
敡	-13.4772
蟁	-13.4772
犗	-13.4773
堥	-13.4773
孶	-13.4773
鎩	-13.4774
蠛	-13.4774
緆	-13.4774
旖	-13.4775
牾	-13.4776
鬖	-13.4777
椓	-13.4777
蟆	-13.4777
羭	-13.4777
椐	-13.4777
扱	-13.4778
胤	-13.4779
崙	-13.4779
饍	-13.4779
献	-13.4779
鸐	-13.478
𣙗	-13.478
齠	-13.478
茯	-13.4781
夌	-13.4781
彍	-13.4781
薹	-13.4781
噭	-13.4781
欪	-13.4781
蔘	-13.4782
璺	-13.4782
胹	-13.4783
倓	-13.4783
緤	-13.4784
号	-13.4784
騕	-13.4784
蔦	-13.4784
砆	-13.4785
揃	-13.4786
鴰	-13.4786
齔	-13.4786
淊	-13.4786
笴	-13.4787
靉	-13.4787
仳	-13.4787
裭	-13.4788
臽	-13.4788
漦	-13.4789
愾	-13.4789
㬋	-13.479
螈	-13.479
蓂	-13.479
韀	-13.479
􁐓	-13.479
籔	-13.479
悳	-13.4791
潾	-13.4791
􁡸	-13.4791
峜	-13.4792
􁎽	-13.4792
僴	-13.4793
臮	-13.4794
餲	-13.4794
侲	-13.4794
惙	-13.4795
襚	-13.4796
顕	-13.4796
缷	-13.4796
撟	-13.4797
揶	-13.4798
焬	-13.4798
竁	-13.4798
擩	-13.4799
㫪	-13.4799
懆	-13.48
嚨	-13.4801
幐	-13.4805
蠜	-13.4805
鯸	-13.4807
柲	-13.4807
搰	-13.4808
亓	-13.4811
蝝	-13.4815
噰	-13.4816
尀	-13.4817
掺	-13.4824
綀	-13.5265
蟳	-13.5306
畾	-13.5307
咠	-13.531
蕾	-13.531
叭	-13.5314
躶	-13.5318
㺊	-13.5318
惽	-13.5318
蚿	-13.5319
瞚	-13.5319
鑢	-13.532
跅	-13.5322
崈	-13.5323
昒	-13.5323
荸	-13.5324
蟶	-13.5324
啌	-13.5324
馢	-13.5325
鰾	-13.5326
厩	-13.5326
彿	-13.5326
咺	-13.5326
衩	-13.5327
嘡	-13.5327
鶼	-13.5328
㪍	-13.5329
霛	-13.533
豶	-13.533
裯	-13.5331
㲪	-13.5332
岨	-13.5332
埿	-13.5332
鱅	-13.5332
泅	-13.5333
渌	-13.5333
僶	-13.5334
宧	-13.5334
姉	-13.5334
饠	-13.5334
峋	-13.5335
嬀	-13.5335
秠	-13.5335
靿	-13.5335
鶗	-13.5336
碔	-13.5337
倢	-13.5337
攺	-13.5337
嘬	-13.5337
岔	-13.5337
䃺	-13.5337
憍	-13.5337
蓡	-13.5338
蹺	-13.5338
皜	-13.5338
惷	-13.5338
喤	-13.5338
簵	-13.5339
䥴	-13.5339
盝	-13.5339
殭	-13.5339
靃	-13.534
謪	-13.534
眴	-13.534
楥	-13.534
嵲	-13.5341
褏	-13.5341
孌	-13.5341
㲈	-13.5342
螮	-13.5342
篐	-13.5342
鞹	-13.5343
抖	-13.5343
觟	-13.5343
兟	-13.5343
蛣	-13.5343
蘝	-13.5344
牷	-13.5344
鞲	-13.5345
椵	-13.5345
塴	-13.5346
獃	-13.5346
榿	-13.5346
襤	-13.5347
湑	-13.5347
􁵂	-13.5347
婀	-13.5347
敉	-13.5348
頦	-13.5348
渗	-13.5348
圄	-13.535
欃	-13.5351
鷢	-13.5352
薷	-13.5353
裠	-13.5353
匃	-13.5354
鵃	-13.5354
䡾	-13.5354
煓	-13.5355
婼	-13.5355
䬃	-13.5356
樏	-13.5356
奓	-13.5356
帘	-13.5357
餭	-13.5358
忳	-13.5359
涷	-13.5359
鎦	-13.536
髕	-13.536
忖	-13.5361
㹀	-13.5364
茟	-13.5368
蝑	-13.5371
卾	-13.5373
蠯	-13.5373
蕰	-13.5373
捂	-13.5375
耡	-13.5377
􁀨	-13.5382
旝	-13.5882
螓	-13.5888
蚈	-13.5889
􁷼	-13.589
欂	-13.5892
曯	-13.5899
齍	-13.5899
屮	-13.59
肓	-13.59
壈	-13.59
朡	-13.5903
蓱	-13.5904
㱾	-13.5905
朿	-13.5907
鉷	-13.5908
踘	-13.5909
枅	-13.591
駪	-13.591
嵊	-13.5911
爊	-13.5912
骹	-13.5912
齲	-13.5912
齓	-13.5912
讘	-13.5912
潩	-13.5912
蝇	-13.5913
檔	-13.5913
𨫼	-13.5914
倜	-13.5916
胊	-13.5916
玁	-13.5916
趦	-13.5917
倛	-13.5917
槪	-13.5917
冑	-13.5917
疳	-13.5918
脁	-13.5918
瘓	-13.5918
抏	-13.5919
蹪	-13.5919
囧	-13.592
墢	-13.592
甔	-13.592
愊	-13.5922
颻	-13.5922
栵	-13.5922
軨	-13.5923
齮	-13.5923
揫	-13.5923
蔌	-13.5924
眢	-13.5924
飪	-13.5924
劖	-13.5924
娩	-13.5925
峥	-13.5926
􁇻	-13.5926
脡	-13.5926
㛐	-13.5926
謦	-13.5926
撱	-13.5926
尓	-13.5926
㝱	-13.5927
离	-13.5927
齱	-13.5928
癤	-13.5928
鎪	-13.5928
麐	-13.5929
汔	-13.5929
郉	-13.5929
𣅿	-13.5929
墫	-13.5929
欻	-13.5929
僔	-13.5929
柜	-13.5929
稃	-13.5931
偎	-13.5931
佉	-13.5931
轗	-13.5931
窔	-13.5931
匍	-13.5931
縿	-13.5932
戭	-13.5932
嬛	-13.5932
郍	-13.5932
悁	-13.5932
薖	-13.5932
惝	-13.5933
拴	-13.5933
圑	-13.5934
籐	-13.5934
臰	-13.5934
萏	-13.5935
巙	-13.5935
艋	-13.5935
皝	-13.5936
眈	-13.5936
㕮	-13.5938
祋	-13.5938
肹	-13.5938
鐎	-13.5938
縀	-13.5938
䖃	-13.5938
虡	-13.5938
卩	-13.5939
咿	-13.594
覼	-13.5941
凷	-13.5941
玫	-13.5942
蓻	-13.5944
魃	-13.5944
蒧	-13.5944
髄	-13.5945
䄡	-13.5945
祘	-13.5945
迾	-13.5945
獶	-13.5946
蔾	-13.5947
慺	-13.5949
秇	-13.5949
􁌽	-13.595
􁀱	-13.595
蚱	-13.5953
猲	-13.5953
䦩	-13.5955
謰	-13.5955
睆	-13.5956
磹	-13.5958
鶋	-13.5959
虸	-13.5965
筈	-13.5982
僷	-13.5987
摵	-13.6475
筅	-13.6513
蟢	-13.6516
䪫	-13.6517
﨑	-13.6518
贒	-13.6519
哅	-13.652
佴	-13.652
嘌	-13.6521
縯	-13.6522
㲝	-13.6522
媧	-13.6523
餑	-13.6523
甈	-13.6523
礿	-13.6524
詾	-13.6525
傔	-13.6528
毹	-13.6528
鄚	-13.6528
萐	-13.6528
喭	-13.6529
遌	-13.6529
焕	-13.653
熇	-13.6533
輞	-13.6534
𬗟	-13.6534
咷	-13.6535
􁭤	-13.6536
趼	-13.6537
蒹	-13.6538
剚	-13.6538
宐	-13.6539
㶑	-13.6539
毨	-13.6541
荂	-13.6541
㭨	-13.6542
僬	-13.6542
滾	-13.6542
梱	-13.6542
煏	-13.6542
簉	-13.6543
堧	-13.6543
旍	-13.6543
赳	-13.6543
樷	-13.6543
濉	-13.6544
嬭	-13.6544
酃	-13.6544
匼	-13.6544
剿	-13.6545
婭	-13.6545
覀	-13.6546
蜨	-13.6546
訩	-13.6546
𬒮	-13.6546
耇	-13.6547
襂	-13.6547
爝	-13.6547
䴵	-13.6547
堲	-13.6548
笨	-13.6549
搪	-13.6549
怏	-13.6549
蘀	-13.655
翶	-13.655
厂	-13.6551
塈	-13.6551
鋃	-13.6551
嶕	-13.6551
眶	-13.6551
妁	-13.6552
瓨	-13.6552
􁚗	-13.6552
頵	-13.6552
帋	-13.6552
詅	-13.6552
駵	-13.6552
庯	-13.6553
黚	-13.6553
蔔	-13.6553
湞	-13.6554
䕭	-13.6554
鬧	-13.6554
嘊	-13.6554
麏	-13.6554
襻	-13.6555
怇	-13.6555
簭	-13.6555
橱	-13.6555
葡	-13.6555
蜰	-13.6555
㕍	-13.6555
絝	-13.6555
蜍	-13.6556
麦	-13.6556
㓪	-13.6556
玕	-13.6556
猵	-13.6556
喌	-13.6557
灉	-13.6557
鎸	-13.6557
膨	-13.6558
摉	-13.6558
簩	-13.6559
刧	-13.6559
㷼	-13.6559
豑	-13.6562
忸	-13.6562
酳	-13.6562
窌	-13.6564
㮄	-13.6564
輛	-13.6565
遟	-13.6565
餝	-13.6565
邡	-13.6566
汋	-13.6567
鰒	-13.6568
㩽	-13.6568
厫	-13.6568
鈺	-13.6568
瓖	-13.6569
􁇞	-13.6569
汊	-13.6572
鶾	-13.6572
褸	-13.6575
燀	-13.6576
澅	-13.6578
撎	-13.6578
讁	-13.6578
萯	-13.658
磎	-13.6581
􁚈	-13.6581
缻	-13.6582
埠	-13.6588
弜	-13.6589
齩	-13.6592
脽	-13.6595
􁠴	-13.6596
噅	-13.6607
『	-13.7146
䚢	-13.7148
』	-13.715
莣	-13.7163
喟	-13.7171
肈	-13.7174
蕓	-13.7175
虣	-13.7175
㰂	-13.718
皸	-13.7182
􁫣	-13.7183
鬝	-13.7184
櫑	-13.7186
鼽	-13.7186
嘛	-13.7189
斨	-13.719
粼	-13.719
囏	-13.7193
鼛	-13.7193
𠫭	-13.7193
虩	-13.7194
貛	-13.7195
稬	-13.7195
旤	-13.7196
艓	-13.7197
碕	-13.7198
羕	-13.7198
噞	-13.7198
萠	-13.7199
糨	-13.7199
檾	-13.7199
馯	-13.7199
窵	-13.7199
蚹	-13.72
豋	-13.7201
㳄	-13.7202
㪺	-13.7203
瞍	-13.7204
凃	-13.7204
䅶	-13.7205
慫	-13.7205
餠	-13.7205
虉	-13.7205
鑌	-13.7206
埆	-13.7206
樑	-13.7206
諐	-13.7207
愓	-13.7207
踹	-13.7207
髆	-13.7208
琠	-13.7208
媽	-13.7208
繶	-13.7208
棁	-13.7209
茠	-13.7209
媕	-13.7209
􁆍	-13.721
溘	-13.721
攛	-13.721
纆	-13.721
贜	-13.7211
璈	-13.7211
撢	-13.7211
皛	-13.7211
晜	-13.7212
惄	-13.7212
鶘	-13.7212
􁆦	-13.7212
捌	-13.7212
虇	-13.7213
崿	-13.7213
䓤	-13.7213
廾	-13.7214
揱	-13.7214
螂	-13.7214
㱔	-13.7215
忞	-13.7215
嵳	-13.7215
䭔	-13.7215
炱	-13.7216
􁄭	-13.7217
嗺	-13.7217
㓛	-13.7217
渹	-13.7217
嘅	-13.7217
㩀	-13.7217
鄲	-13.7217
囟	-13.7218
𩔖	-13.7219
魌	-13.7219
獯	-13.722
杴	-13.722
腒	-13.7221
蝯	-13.7221
酘	-13.7221
牎	-13.7221
𬞞	-13.7222
瘇	-13.7222
㮏	-13.7222
㔻	-13.7223
蠦	-13.7223
麌	-13.7223
壜	-13.7224
􁂰	-13.7224
听	-13.7224
媺	-13.7224
迆	-13.7225
綪	-13.7225
棰	-13.7225
憋	-13.7225
墄	-13.7226
䏌	-13.7226
珌	-13.7227
䠞	-13.7227
枤	-13.7227
㸦	-13.7228
戺	-13.7228
鑴	-13.7228
嗁	-13.7229
莤	-13.7229
瓝	-13.7229
凴	-13.7229
嘐	-13.7229
剬	-13.7229
孿	-13.723
躪	-13.7231
溳	-13.7231
蠬	-13.7232
榾	-13.7232
黓	-13.7233
􁥀	-13.7233
亍	-13.7233
鬵	-13.7234
鵻	-13.7234
坟	-13.7234
壄	-13.7234
嶃	-13.7234
勩	-13.7235
瘉	-13.7235
蔊	-13.7235
漻	-13.7236
霝	-13.7236
㞕	-13.7236
杅	-13.7236
枒	-13.7237
珸	-13.7237
廽	-13.7237
􁋃	-13.7237
噽	-13.7238
痂	-13.7238
曶	-13.7239
幠	-13.724
愺	-13.7241
鱺	-13.7241
粺	-13.7245
鴩	-13.7245
轓	-13.7251
啍	-13.7252
蠵	-13.726
䙡	-13.7262
皵	-13.7264
嘄	-13.7267
魵	-13.7836
秕	-13.7891
蚘	-13.7893
啉	-13.7894
缿	-13.7901
菪	-13.7903
鼖	-13.7904
屼	-13.7904
籯	-13.7905
荍	-13.7906
嚌	-13.7907
撆	-13.7908
䛇	-13.7908
昋	-13.791
菖	-13.791
甹	-13.7911
傰	-13.7912
􁒍	-13.7912
蕁	-13.7912
櫉	-13.7914
劂	-13.7915
芔	-13.7916
餵	-13.7917
斝	-13.7917
鏨	-13.7918
殑	-13.7918
憯	-13.7918
粊	-13.7919
騤	-13.7921
勮	-13.7921
謣	-13.7921
嬝	-13.7922
爞	-13.7922
祊	-13.7923
蠨	-13.7923
鍭	-13.7924
瞂	-13.7924
瞤	-13.7924
侷	-13.7924
擻	-13.7924
犛	-13.7925
嘒	-13.7925
莙	-13.7926
扢	-13.7926
犠	-13.7926
玼	-13.7927
戧	-13.7927
幗	-13.7927
弨	-13.7927
趐	-13.7927
筧	-13.7927
弆	-13.7928
幧	-13.7928
碙	-13.793
嵞	-13.7931
餱	-13.7931
澷	-13.7931
逷	-13.7932
捼	-13.7932
叄	-13.7932
瘈	-13.7932
儳	-13.7932
絭	-13.7933
淈	-13.7933
麺	-13.7933
闟	-13.7933
􁳟	-13.7934
豇	-13.7934
禂	-13.7934
緥	-13.7934
筀	-13.7934
潸	-13.7934
訽	-13.7934
匚	-13.7934
􁎼	-13.7935
􁀬	-13.7935
鐻	-13.7935
褓	-13.7935
橚	-13.7935
娭	-13.7936
𥪡	-13.7936
开	-13.7936
坴	-13.7936
玳	-13.7936
椇	-13.7936
邘	-13.7937
䙀	-13.7937
鸋	-13.7937
眵	-13.7937
㬠	-13.7937
乹	-13.7938
躧	-13.7938
侫	-13.7938
豝	-13.7938
琁	-13.7938
斖	-13.7939
蹣	-13.7939
掦	-13.7939
溏	-13.7939
蠍	-13.794
涫	-13.794
慌	-13.794
偟	-13.794
傺	-13.794
鸖	-13.7941
葫	-13.7941
鰼	-13.7942
体	-13.7942
㐱	-13.7942
攡	-13.7942
禬	-13.7942
儌	-13.7942
裦	-13.7943
擪	-13.7944
桼	-13.7944
謼	-13.7944
鬥	-13.7945
觹	-13.7945
䶂	-13.7945
殹	-13.7945
鷤	-13.7946
欏	-13.7946
俙	-13.7947
䳏	-13.7947
郳	-13.7947
扒	-13.7948
􁋠	-13.7948
鷞	-13.7948
綟	-13.7948
犮	-13.7948
㘥	-13.7948
􁈏	-13.7949
䀋	-13.7951
繯	-13.7952
蜲	-13.7952
蜥	-13.7953
褠	-13.7953
􁬡	-13.7953
嘖	-13.7954
喊	-13.7955
恅	-13.7955
拶	-13.7955
荓	-13.7957
橇	-13.7957
棜	-13.7957
鬌	-13.7958
摋	-13.7958
銼	-13.7959
坱	-13.7959
讔	-13.7959
篥	-13.7959
胘	-13.796
亝	-13.7964
矲	-13.7967
骩	-13.7975
礥	-13.798
彯	-13.7982
慔	-13.7997
癆	-13.8627
圁	-13.8646
摃	-13.8647
禓	-13.8651
艽	-13.8654
痡	-13.8657
殲	-13.866
􁎯	-13.8662
掫	-13.8669
觡	-13.8669
􁅃	-13.867
鄑	-13.8671
啒	-13.8674
梹	-13.8676
滬	-13.8679
袀	-13.8679
耴	-13.8679
岢	-13.868
鱏	-13.868
􁸋	-13.868
榠	-13.8681
蕹	-13.8681
籤	-13.8681
跕	-13.8683
翖	-13.8683
鶷	-13.8683
雺	-13.8684
閆	-13.8685
瘀	-13.8686
卍	-13.8686
娗	-13.8687
䭅	-13.8687
箐	-13.8688
弌	-13.8688
蹛	-13.8688
靭	-13.8688
飃	-13.8688
兪	-13.8689
湥	-13.869
霪	-13.8692
剕	-13.8692
抨	-13.8692
橭	-13.8693
呑	-13.8693
穵	-13.8694
莝	-13.8695
蛅	-13.8695
芴	-13.8695
嘹	-13.8695
們	-13.8695
葸	-13.8695
馺	-13.8695
禚	-13.8696
飇	-13.8696
眂	-13.8696
乀	-13.8696
斠	-13.8696
墝	-13.8696
荗	-13.8696
儃	-13.8697
爁	-13.8697
􁞺	-13.8697
襺	-13.8697
関	-13.8697
簌	-13.8698
頯	-13.8698
埨	-13.8699
摑	-13.8699
晌	-13.8699
􁚇	-13.8699
淶	-13.8699
靆	-13.8699
苺	-13.8699
喣	-13.87
嵍	-13.87
腷	-13.87
硌	-13.8701
彠	-13.8701
㠪	-13.8701
䘿	-13.8701
畟	-13.8702
焄	-13.8702
苨	-13.8702
蛓	-13.8702
祸	-13.8702
檕	-13.8702
䔥	-13.8703
􁊵	-13.8704
舐	-13.8704
漷	-13.8705
醟	-13.8705
靧	-13.8705
襏	-13.8705
繿	-13.8705
䓗	-13.8705
栰	-13.8706
殢	-13.8708
穣	-13.8708
汍	-13.8709
㸙	-13.8709
嚷	-13.871
鼒	-13.871
唆	-13.871
仵	-13.8711
艑	-13.8711
􁔹	-13.8711
襐	-13.8711
蔏	-13.8712
黁	-13.8712
㴠	-13.8713
劳	-13.8713
矱	-13.8713
峞	-13.8714
廧	-13.8715
襈	-13.8715
渲	-13.8716
鷮	-13.8716
囋	-13.8716
胳	-13.8716
􁗤	-13.8717
歹	-13.8718
麡	-13.8718
怦	-13.8719
嚫	-13.872
􁉨	-13.872
饊	-13.872
輹	-13.8721
攰	-13.8721
怔	-13.8721
蟨	-13.8721
晣	-13.8722
瀲	-13.8722
夗	-13.8723
靷	-13.8723
齯	-13.8723
廄	-13.8724
檋	-13.8724
豩	-13.8725
􁊪	-13.8725
􁦙	-13.8729
剺	-13.8729
疔	-13.8731
藙	-13.8733
讇	-13.8733
歍	-13.8738
繘	-13.8739
跀	-13.874
㗊	-13.8741
榎	-13.8741
媠	-13.8746
穲	-13.8749
鴙	-13.8773
譶	-13.8793
踼	-13.9475
〈	-13.9479
〉	-13.9479
洍	-13.9485
鳺	-13.9489
蒤	-13.9496
悺	-13.9497
叧	-13.9498
鍥	-13.9498
懨	-13.9501
倧	-13.9502
鼏	-13.9502
鰉	-13.9503
臄	-13.9505
撁	-13.9507
鴣	-13.9509
雥	-13.9509
蹎	-13.951
縰	-13.951
蛘	-13.9511
壃	-13.9512
㠗	-13.9513
瀯	-13.9513
菢	-13.9513
丢	-13.9513
暏	-13.9514
玈	-13.9515
㟭	-13.9515
䟐	-13.9516
􁄻	-13.9516
崟	-13.9517
壐	-13.9517
髥	-13.9517
噙	-13.9518
墦	-13.9519
枽	-13.9519
糁	-13.9519
莕	-13.952
捆	-13.952
􁄞	-13.9521
嶙	-13.9521
􁂄	-13.9522
瑫	-13.9522
琤	-13.9522
醊	-13.9522
梡	-13.9522
衚	-13.9523
葈	-13.9523
歅	-13.9524
鉒	-13.9524
􁆒	-13.9524
蚉	-13.9525
箯	-13.9525
畷	-13.9525
坾	-13.9525
芈	-13.9525
胗	-13.9526
趠	-13.9526
葇	-13.9526
漑	-13.9526
禭	-13.9527
􁋍	-13.9527
佁	-13.9527
燝	-13.9528
軥	-13.9528
䭀	-13.9528
堀	-13.9528
睞	-13.9529
轤	-13.9529
蟚	-13.9529
􁸙	-13.9529
棅	-13.9529
糭	-13.953
梦	-13.953
韁	-13.9531
饁	-13.9531
幍	-13.9531
􁋚	-13.9531
􁗁	-13.9531
茌	-13.9531
鰋	-13.9531
偲	-13.9531
􁅕	-13.9532
篳	-13.9532
慁	-13.9532
葴	-13.9532
餁	-13.9532
狚	-13.9532
狢	-13.9533
阸	-13.9534
搒	-13.9534
仃	-13.9534
􁌆	-13.9534
􁞠	-13.9534
扮	-13.9534
梬	-13.9534
櫧	-13.9535
咡	-13.9535
拫	-13.9535
匋	-13.9535
矼	-13.9536
鶒	-13.9536
撘	-13.9536
攧	-13.9536
栒	-13.9536
嵫	-13.9536
蜷	-13.9537
抮	-13.9537
肭	-13.9538
滹	-13.9538
憹	-13.9538
㫃	-13.9538
䕡	-13.9539
蛬	-13.9539
鍧	-13.9539
騋	-13.9539
廑	-13.9539
灶	-13.9539
偞	-13.9539
鄀	-13.954
䘵	-13.954
戉	-13.954
轣	-13.954
鄽	-13.954
玟	-13.954
􁐔	-13.9541
鈗	-13.9541
珝	-13.9541
卼	-13.9541
杈	-13.9542
鬩	-13.9542
羼	-13.9542
猋	-13.9542
㭼	-13.9542
牼	-13.9543
箖	-13.9543
揕	-13.9543
娽	-13.9543
魶	-13.9543
牿	-13.9543
箊	-13.9543
梈	-13.9543
頹	-13.9544
咢	-13.9544
隥	-13.9545
瑨	-13.9545
蟺	-13.9545
阹	-13.9545
艴	-13.9545
裌	-13.9545
鰱	-13.9545
簂	-13.9546
划	-13.9546
杝	-13.9547
滍	-13.9547
嗸	-13.9547
糍	-13.9547
濚	-13.9548
酅	-13.9549
蔿	-13.9549
黳	-13.9549
愐	-13.9549
鳦	-13.955
鄃	-13.955
禝	-13.955
夊	-13.9551
笵	-13.9552
獝	-13.9552
濴	-13.9553
舠	-13.9554
聅	-13.9554
蓘	-13.9554
拕	-13.9555
垀	-13.9555
扭	-13.9556
鑞	-13.9556
狽	-13.9556
椉	-13.9557
㶣	-13.9558
墯	-13.9559
藋	-13.9559
镼	-13.956
咱	-13.956
侻	-13.9561
鴥	-13.9562
鷽	-13.9564
闛	-13.9564
䃩	-13.9565
蜢	-13.9565
迣	-13.9566
鬘	-13.9569
鼀	-13.9571
叀	-13.9575
䛘	-13.9579
坷	-13.9579
鵯	-13.9582
䐗	-13.9582
睾	-13.9582
蠰	-13.9585
剻	-13.9585
錔	-13.9588
碉	-13.9598
㜲	-13.9615
􁉜	-14.037
柢	-14.0376
肎	-14.0398
惸	-14.0401
􁀿	-14.0401
􁈣	-14.0403
磺	-14.0405
歈	-14.0405
瘃	-14.0406
􁒲	-14.0406
慸	-14.0406
溮	-14.0407
駴	-14.0408
㯹	-14.0408
鄡	-14.0409
麨	-14.0409
犵	-14.041
鶃	-14.0411
礁	-14.0413
跫	-14.0413
鉼	-14.0414
蔫	-14.0415
榤	-14.0415
鬈	-14.0416
暆	-14.0416
藃	-14.0418
愳	-14.0419
㵸	-14.0419
嶪	-14.0421
滺	-14.0421
蟧	-14.0421
歗	-14.0422
􁉍	-14.0422
郚	-14.0423
犆	-14.0423
疰	-14.0423
繟	-14.0424
苙	-14.0424
璊	-14.0424
紥	-14.0425
顐	-14.0425
椸	-14.0425
煿	-14.0426
瀂	-14.0426
蝥	-14.0426
梂	-14.0426
捴	-14.0426
佘	-14.0427
睟	-14.0427
扂	-14.0427
㞵	-14.0428
欎	-14.0428
􁂋	-14.0429
䲰	-14.0429
悊	-14.0429
澘	-14.0429
坍	-14.0429
舲	-14.043
瞫	-14.043
焻	-14.043
嗕	-14.0431
槔	-14.0431
簦	-14.0431
䄠	-14.0433
耬	-14.0433
瘰	-14.0433
匴	-14.0434
涏	-14.0434
虻	-14.0434
幵	-14.0435
犎	-14.0435
眣	-14.0436
俔	-14.0436
箙	-14.0436
􁑮	-14.0436
􁬁	-14.0436
蝃	-14.0437
礮	-14.0438
蜄	-14.0438
卙	-14.0438
塪	-14.0438
剷	-14.0438
􁈁	-14.0438
躚	-14.0439
䈄	-14.044
劼	-14.044
韘	-14.044
躒	-14.0441
籝	-14.0441
哻	-14.0441
潠	-14.0442
穸	-14.0442
莛	-14.0442
頬	-14.0442
襫	-14.0442
瘲	-14.0442
鈹	-14.0442
虰	-14.0443
籊	-14.0443
麹	-14.0443
璏	-14.0443
巛	-14.0443
熁	-14.0443
咯	-14.0443
孓	-14.0444
歃	-14.0444
榫	-14.0444
褲	-14.0445
釴	-14.0445
鯪	-14.0445
􁑶	-14.0445
嫜	-14.0445
瓽	-14.0446
涽	-14.0446
僛	-14.0446
栴	-14.0447
蟷	-14.0447
螔	-14.0447
驊	-14.0447
膋	-14.0448
淂	-14.0448
㽦	-14.0448
䠶	-14.0448
胰	-14.0448
霶	-14.0448
咂	-14.0448
𡵨	-14.0449
㭍	-14.045
覸	-14.045
𣑽	-14.045
涬	-14.045
􁒷	-14.045
刵	-14.045
蝹	-14.045
餮	-14.0451
吧	-14.0451
􁇪	-14.0451
嗒	-14.0451
嘱	-14.0452
揳	-14.0452
迍	-14.0453
𡡉	-14.0453
䵟	-14.0454
橜	-14.0454
殀	-14.0454
􁊋	-14.0454
䔍	-14.0454
埧	-14.0455
翿	-14.0455
礉	-14.0455
櫰	-14.0455
眤	-14.0455
殣	-14.0455
薋	-14.0456
衱	-14.0456
嫖	-14.0457
岍	-14.0457
焼	-14.0457
龣	-14.0457
昝	-14.0457
縭	-14.0458
𠢐	-14.0459
􁁏	-14.0459
朾	-14.0459
剮	-14.046
㯳	-14.046
鴶	-14.046
鶱	-14.046
蔎	-14.046
饡	-14.0461
斄	-14.0461
𫐠	-14.0462
焫	-14.0462
趿	-14.0463
荣	-14.0463
㷖	-14.0464
屵	-14.0464
鋄	-14.0464
蹗	-14.0465
醞	-14.0466
穤	-14.0468
撡	-14.0468
舵	-14.0469
吺	-14.047
珞	-14.0472
䢵	-14.0472
泃	-14.0473
屓	-14.0474
嫘	-14.0474
諵	-14.0474
櫽	-14.0475
輷	-14.0475
􁔗	-14.0475
􁫯	-14.0475
鬿	-14.0477
弸	-14.0477
傱	-14.0477
瀙	-14.0477
䘨	-14.0478
蹜	-14.0478
驒	-14.0479
鞻	-14.048
譍	-14.048
蠮	-14.0481
瀁	-14.0481
㔨	-14.0482
㧖	-14.0487
笇	-14.0488
騩	-14.0492
􁢱	-14.0494
医	-14.0494
魱	-14.0495
檓	-14.0495
䣛	-14.0497
僒	-14.0499
鱭	-14.05
飵	-14.0502
穋	-14.0502
濔	-14.0505
掤	-14.0507
禑	-14.0511
曣	-14.0514
訔	-14.0515
􁓒	-14.052
宍	-14.0541
婫	-14.1379
檴	-14.1383
藚	-14.1396
􁀾	-14.1397
䔧	-14.1399
􁊶	-14.1404
筄	-14.1405
汕	-14.1408
踠	-14.1409
硍	-14.1411
曡	-14.1411
莹	-14.1412
鱻	-14.1415
蟯	-14.1415
䵼	-14.1416
䐨	-14.1416
䱷	-14.1417
晹	-14.1417
鮚	-14.1418
䝁	-14.1418
輢	-14.1419
涆	-14.1419
橩	-14.1419
臃	-14.1419
鄅	-14.1419
諓	-14.142
翡	-14.142
靱	-14.142
淟	-14.1421
嵂	-14.1422
鬽	-14.1422
㚄	-14.1422
磲	-14.1423
䏿	-14.1423
鱑	-14.1423
酡	-14.1424
仚	-14.1424
鄹	-14.1424
殚	-14.1425
熭	-14.1425
􁃒	-14.1425
梣	-14.1426
訑	-14.1426
鸕	-14.1426
豵	-14.1426
抶	-14.1426
籽	-14.1428
㮳	-14.1428
慓	-14.1428
砉	-14.1429
紝	-14.1429
齅	-14.143
佋	-14.143
甒	-14.143
劙	-14.143
矅	-14.1431
鴝	-14.1431
惓	-14.1431
呐	-14.1432
臩	-14.1432
㶁	-14.1432
饅	-14.1433
歋	-14.1433
祻	-14.1433
皀	-14.1433
歬	-14.1433
艎	-14.1433
鴠	-14.1434
洟	-14.1434
􁃶	-14.1434
䋎	-14.1434
崞	-14.1435
聻	-14.1435
錣	-14.1436
璂	-14.1436
犕	-14.1436
欨	-14.1437
鞉	-14.1437
鄷	-14.1437
竫	-14.1437
跐	-14.1438
􁄄	-14.1438
㼐	-14.1438
佈	-14.1439
傞	-14.1439
䱉	-14.1439
䉀	-14.144
㲄	-14.144
恓	-14.144
陼	-14.144
􁌱	-14.144
䔖	-14.144
鵴	-14.144
􁑵	-14.144
缽	-14.144
騘	-14.1441
瘻	-14.1441
衖	-14.1441
攎	-14.1441
耙	-14.1441
幂	-14.1441
鬋	-14.1442
栞	-14.1442
聡	-14.1442
陊	-14.1443
圂	-14.1443
鄳	-14.1443
蝓	-14.1444
檏	-14.1444
碨	-14.1444
鴃	-14.1444
冂	-14.1444
睱	-14.1444
觩	-14.1445
訌	-14.1445
壒	-14.1445
譝	-14.1445
仱	-14.1445
巃	-14.1445
罛	-14.1445
溵	-14.1446
獧	-14.1446
䱇	-14.1446
簑	-14.1446
烺	-14.1447
𧺫	-14.1447
冪	-14.1447
􁰎	-14.1447
勹	-14.1447
晊	-14.1447
跧	-14.1448
圀	-14.1448
楱	-14.1448
䈚	-14.1448
萸	-14.1448
縕	-14.1448
䉉	-14.1449
鸂	-14.1449
𨳩	-14.1449
蘞	-14.145
麁	-14.145
毣	-14.1451
鰷	-14.1451
黦	-14.1451
躗	-14.1451
襘	-14.1451
螎	-14.1451
癅	-14.1452
􁂴	-14.1452
箛	-14.1452
虭	-14.1452
雗	-14.1452
圞	-14.1453
㝈	-14.1453
靻	-14.1453
閞	-14.1454
礛	-14.1454
醹	-14.1455
丽	-14.1455
窹	-14.1455
􁂁	-14.1456
蘦	-14.1457
傎	-14.1457
阝	-14.1457
寠	-14.1458
儱	-14.1458
蘹	-14.1458
焠	-14.1458
彔	-14.1459
犿	-14.1459
䂍	-14.1459
邗	-14.1459
姖	-14.146
􁚕	-14.146
檍	-14.146
辝	-14.146
輂	-14.1461
墡	-14.1462
鶊	-14.1462
檥	-14.1462
􁱖	-14.1463
橀	-14.1464
魟	-14.1464
綹	-14.1465
㮈	-14.1465
菶	-14.1465
玆	-14.1465
凥	-14.1466
唲	-14.1466
蓷	-14.1466
漈	-14.1467
皞	-14.1471
􁃇	-14.1471
鮠	-14.1472
睺	-14.1473
蝜	-14.1473
䲸	-14.1475
眛	-14.1476
帗	-14.1476
飩	-14.1477
竷	-14.1478
蝻	-14.148
爓	-14.1485
䃱	-14.1485
蛈	-14.1485
嗼	-14.1487
溞	-14.1487
檖	-14.1487
呰	-14.1487
琉	-14.149
菝	-14.1492
㦎	-14.1496
姽	-14.1497
毇	-14.1498
邧	-14.1501
袧	-14.1515
儜	-14.1515
飋	-14.1516
捥	-14.1541
顉	-14.161
噋	-14.1612
䖵	-14.2471
㸐	-14.249
髳	-14.2502
黂	-14.2502
䤨	-14.2504
涊	-14.2512
鍑	-14.2512
瘯	-14.2514
㛯	-14.2514
葧	-14.2516
䘐	-14.2517
賮	-14.2518
疁	-14.2518
蠌	-14.2519
砟	-14.2519
鱍	-14.252
袽	-14.2522
沝	-14.2522
氤	-14.2522
㡡	-14.2523
胐	-14.2524
蛑	-14.2524
怸	-14.2525
堈	-14.2525
樲	-14.2525
檽	-14.2526
吚	-14.2526
䈛	-14.2527
玗	-14.2527
䎶	-14.2527
蔂	-14.2528
蓚	-14.2528
􁞮	-14.2529
㩊	-14.2529
僁	-14.2531
垽	-14.2531
梀	-14.2531
咼	-14.2532
􁐠	-14.2533
誒	-14.2533
醝	-14.2533
嶒	-14.2534
噯	-14.2534
膘	-14.2534
呆	-14.2534
囮	-14.2535
蓶	-14.2536
㐅	-14.2536
陑	-14.2537
𦵔	-14.2537
􁋳	-14.2537
胕	-14.2538
炔	-14.2538
棙	-14.2539
陝	-14.2539
媱	-14.254
舗	-14.2541
瑳	-14.2541
盋	-14.2541
芪	-14.2541
偰	-14.2541
􁇹	-14.2541
􁰉	-14.2541
罙	-14.2541
旿	-14.2541
挻	-14.2542
蕣	-14.2542
猢	-14.2542
蟉	-14.2542
㢟	-14.2543
媳	-14.2543
搣	-14.2543
槫	-14.2543
骴	-14.2543
坵	-14.2544
峿	-14.2544
稕	-14.2544
畼	-14.2544
窴	-14.2544
雘	-14.2545
􁑉	-14.2545
琾	-14.2545
艟	-14.2545
􁎆	-14.2545
醷	-14.2545
罻	-14.2545
蝄	-14.2545
齵	-14.2546
鉎	-14.2546
鷅	-14.2546
欀	-14.2546
􁆲	-14.2546
嵸	-14.2546
庩	-14.2546
蜽	-14.2546
􁦚	-14.2546
鷔	-14.2546
誂	-14.2547
灂	-14.2547
捱	-14.2547
攲	-14.2547
瘝	-14.2547
儿	-14.2547
􁩢	-14.2548
髏	-14.2548
懺	-14.2548
㡊	-14.2549
􁏰	-14.2549
膎	-14.2549
鑨	-14.2549
𢡟	-14.2549
㒹	-14.255
謭	-14.255
慅	-14.255
弥	-14.255
蠉	-14.2551
慽	-14.2551
髊	-14.2551
氳	-14.2551
竞	-14.2551
觭	-14.2551
嗊	-14.2552
膄	-14.2552
刴	-14.2552
蟟	-14.2552
鄮	-14.2553
飊	-14.2553
䫻	-14.2553
窀	-14.2553
䘺	-14.2554
貐	-14.2554
琕	-14.2554
豻	-14.2554
劊	-14.2554
粵	-14.2554
嗌	-14.2554
屇	-14.2555
箟	-14.2555
鄪	-14.2555
榑	-14.2555
簆	-14.2555
姢	-14.2555
曎	-14.2555
䖴	-14.2555
儭	-14.2555
䵣	-14.2555
悕	-14.2556
袓	-14.2556
玲	-14.2556
壾	-14.2556
枑	-14.2556
􁡭	-14.2556
愻	-14.2557
殥	-14.2557
渑	-14.2557
􁇚	-14.2557
抆	-14.2558
牴	-14.2558
墖	-14.2558
􁩉	-14.2558
軃	-14.2559
珫	-14.2559
澉	-14.256
潴	-14.256
堌	-14.256
臡	-14.256
嘼	-14.256
獦	-14.256
畇	-14.256
鳷	-14.256
厴	-14.256
蚝	-14.256
苜	-14.256
噢	-14.256
羾	-14.2561
麢	-14.2561
䤈	-14.2561
戃	-14.2562
霎	-14.2562
訹	-14.2562
蹁	-14.2562
鬉	-14.2562
媻	-14.2562
羱	-14.2562
曨	-14.2562
鯶	-14.2562
瀃	-14.2562
燚	-14.2563
㧓	-14.2563
醡	-14.2563
廜	-14.2563
㱿	-14.2563
顜	-14.2563
䦱	-14.2564
嬗	-14.2564
圌	-14.2564
夋	-14.2564
碼	-14.2564
穅	-14.2565
柧	-14.2565
冋	-14.2565
轠	-14.2565
蘷	-14.2566
㟧	-14.2566
獡	-14.2566
箈	-14.2566
䐹	-14.2566
袝	-14.2566
紽	-14.2567
埳	-14.2567
侘	-14.2567
􁍋	-14.2567
脘	-14.2567
嚂	-14.2568
艗	-14.2568
畺	-14.2568
􁀈	-14.2569
蘬	-14.2569
邋	-14.2569
网	-14.2569
蚣	-14.2569
癕	-14.2569
薧	-14.257
嚾	-14.257
挶	-14.257
茤	-14.257
縴	-14.257
趎	-14.2572
柮	-14.2572
佌	-14.2572
鋈	-14.2572
峚	-14.2572
􁐦	-14.2572
黵	-14.2572
硋	-14.2573
􁘀	-14.2573
鰈	-14.2573
晽	-14.2573
儓	-14.2573
禙	-14.2574
莋	-14.2574
樻	-14.2575
嘰	-14.2575
鄍	-14.2575
攌	-14.2576
躱	-14.2576
齰	-14.2576
憀	-14.2576
昈	-14.2576
莍	-14.2577
憕	-14.2577
隑	-14.2578
甾	-14.2578
銎	-14.2578
鴳	-14.2578
蠑	-14.2578
卌	-14.2578
薞	-14.2578
跦	-14.2578
澼	-14.2578
戠	-14.2579
踁	-14.2579
㑂	-14.2579
袜	-14.2579
輣	-14.258
閜	-14.2581
嗶	-14.2582
盇	-14.2582
祤	-14.2582
滒	-14.2583
駏	-14.2584
鞛	-14.2584
􁙂	-14.2585
䡘	-14.2585
睍	-14.2585
燊	-14.2585
慹	-14.2586
􁥱	-14.2586
僢	-14.2586
揾	-14.2587
䲅	-14.2589
圠	-14.2589
槥	-14.2589
唌	-14.259
唈	-14.259
矬	-14.2591
㤄	-14.2591
蝂	-14.2593
貜	-14.2595
駓	-14.2595
猻	-14.2595
匵	-14.2597
杫	-14.2598
諆	-14.2601
奊	-14.2602
􁑦	-14.2604
􁄗	-14.2606
啽	-14.2606
頙	-14.2612
䢼	-14.2614
晛	-14.2622
􁟺	-14.2626
傹	-14.265
䓯	-14.2655
􁐹	-14.2671
蚇	-14.3662
􁄥	-14.3703
嘕	-14.3724
蟌	-14.3728
䑸	-14.3729
疿	-14.3732
䕩	-14.3734
􁪑	-14.3737
懁	-14.3739
傿	-14.3745
寍	-14.3746
韣	-14.3748
㰤	-14.3753
􁌙	-14.3754
蚖	-14.3754
氵	-14.3755
螙	-14.3755
蓌	-14.3756
􁏮	-14.3758
霨	-14.3758
窾	-14.3758
輲	-14.3759
謍	-14.3763
􁒇	-14.3763
岊	-14.3765
䗓	-14.3765
哠	-14.3765
醍	-14.3766
㨜	-14.3767
緁	-14.3767
􁛦	-14.3768
桭	-14.377
丂	-14.3771
􁑭	-14.3771
芁	-14.3772
櫈	-14.3774
鏂	-14.3774
鼨	-14.3775
众	-14.3775
鮿	-14.3776
墆	-14.3776
惧	-14.3776
祑	-14.3776
惪	-14.3777
􁐴	-14.3778
亄	-14.3778
豖	-14.3778
軆	-14.3778
湒	-14.3779
箣	-14.378
痑	-14.378
􁂶	-14.378
埊	-14.3781
瞾	-14.3782
􁒿	-14.3782
􁃟	-14.3782
愃	-14.3782
朌	-14.3783
鏦	-14.3783
萉	-14.3784
騌	-14.3784
丶	-14.3784
䥈	-14.3784
䐢	-14.3784
檡	-14.3784
篃	-14.3784
賅	-14.3784
繃	-14.3785
戬	-14.3786
苡	-14.3786
瀞	-14.3786
詑	-14.3786
痀	-14.3786
􁊯	-14.3786
麮	-14.3786
硨	-14.3787
癥	-14.3787
摖	-14.3787
霂	-14.3787
哤	-14.3787
裎	-14.3788
䀌	-14.3788
唉	-14.3788
􁀗	-14.3788
鷕	-14.3788
跲	-14.3789
􁒐	-14.3789
􁄺	-14.3789
􁏢	-14.3789
脢	-14.3789
馱	-14.3789
􁀅	-14.3789
駻	-14.3791
䱥	-14.3791
樠	-14.3791
牚	-14.3791
䊸	-14.3792
烋	-14.3792
􁁵	-14.3792
茴	-14.3793
闃	-14.3793
䓉	-14.3793
䥥	-14.3793
瞡	-14.3793
簃	-14.3793
漰	-14.3793
鈠	-14.3793
􁊃	-14.3793
䏑	-14.3793
臋	-14.3794
晲	-14.3794
疻	-14.3794
駙	-14.3794
蚯	-14.3795
黲	-14.3795
碇	-14.3795
彂	-14.3795
潨	-14.3795
窐	-14.3795
䟱	-14.3795
􁏩	-14.3795
𦦨	-14.3796
鞗	-14.3796
驉	-14.3796
劲	-14.3796
漊	-14.3796
祾	-14.3796
騬	-14.3797
憴	-14.3797
鯇	-14.3797
挣	-14.3797
夂	-14.3797
髤	-14.3797
嶻	-14.3797
冔	-14.3798
灨	-14.3798
偻	-14.3798
膀	-14.3798
暜	-14.3799
轊	-14.3799
餿	-14.3799
檵	-14.3799
鯷	-14.3799
戟	-14.3799
蜔	-14.38
坿	-14.38
揥	-14.38
瀺	-14.38
碚	-14.38
奯	-14.3801
􁣝	-14.3801
夰	-14.3801
蚏	-14.3801
煢	-14.3801
鬳	-14.3801
䒳	-14.3801
竂	-14.3801
􁀆	-14.3801
惮	-14.3802
欱	-14.3802
瓔	-14.3802
虋	-14.3802
蛚	-14.3803
釬	-14.3803
硩	-14.3804
􁋎	-14.3804
柣	-14.3804
鳭	-14.3804
䵍	-14.3804
䯻	-14.3805
臸	-14.3805
遰	-14.3805
漼	-14.3806
藼	-14.3806
􁅔	-14.3806
憗	-14.3806
􁥌	-14.3806
笫	-14.3806
㬉	-14.3806
苶	-14.3806
㧁	-14.3806
􁇂	-14.3806
㔶	-14.3807
嚵	-14.3807
䕢	-14.3807
蘃	-14.3807
􁂚	-14.3807
醭	-14.3808
煟	-14.3808
营	-14.3808
㠀	-14.3808
􁌏	-14.3808
螿	-14.3808
秌	-14.3808
蠺	-14.3808
湋	-14.3808
䳟	-14.3808
犓	-14.3808
𤦺	-14.3808
鱯	-14.3808
玻	-14.3809
楰	-14.3809
韔	-14.3809
驑	-14.3809
轕	-14.3809
幝	-14.3809
偯	-14.3809
溴	-14.381
霦	-14.381
攓	-14.381
淰	-14.381
戦	-14.381
艅	-14.381
葜	-14.381
鱒	-14.381
􁐻	-14.381
挌	-14.381
桄	-14.381
嚧	-14.381
伻	-14.3811
輀	-14.3811
酟	-14.3811
罦	-14.3811
􁌁	-14.3812
翲	-14.3812
儹	-14.3812
欘	-14.3812
啿	-14.3812
轇	-14.3812
呡	-14.3812
煕	-14.3812
蘜	-14.3813
觪	-14.3813
堄	-14.3813
澑	-14.3813
髟	-14.3813
竉	-14.3814
鞈	-14.3814
䄄	-14.3814
佅	-14.3814
䨲	-14.3814
窸	-14.3814
韸	-14.3814
㱃	-14.3814
鐇	-14.3815
􁚠	-14.3815
譓	-14.3815
䃣	-14.3815
䝿	-14.3815
􁣛	-14.3815
聓	-14.3816
鶞	-14.3816
冣	-14.3816
秈	-14.3816
汹	-14.3816
鴦	-14.3817
呃	-14.3817
隉	-14.3817
銊	-14.3817
陻	-14.3818
蟥	-14.3819
臲	-14.3819
耩	-14.3819
䳱	-14.3819
䴰	-14.3819
謜	-14.382
􁂭	-14.3821
襢	-14.3821
炸	-14.3821
姼	-14.3821
徲	-14.3821
鰫	-14.3821
厈	-14.3821
[...]
