<unk>	0
<s>	0
</s>	0
之	-4.45828
/	-4.58607
(	-4.66273
以	-4.83338
)	-4.92839
為	-5.06583
者	-5.20168
於	-5.27898
其	-5.29162
而	-5.38933
一	-5.47308
有	-5.48561
人	-5.71332
也	-5.71768
及	-5.75222
不	-5.77255
至	-5.77272
)(	-5.81677
官	-5.86051
曰	-5.92886
三	-5.95699
二	-5.98363
大	-5.99078
上	-6.00949
則	-6.0156
王	-6.08671
中	-6.09282
/)	-6.09521
等	-6.09942
行	-6.10333
自	-6.10794
州	-6.14907
用	-6.15585
與	-6.15627
所	-6.16443
各	-6.18721
無	-6.19052
▁	-6.20594
在	-6.20737
時	-6.22084
四	-6.23309
皆	-6.24246
子	-6.24448
又	-6.26033
如	-6.28301
文	-6.33828
後	-6.35111
臣	-6.35659
令	-6.36044
事	-6.37599
同	-6.37743
入	-6.39904
五	-6.40804
内	-6.42007
出	-6.42369
下	-6.45019
正	-6.5249
凡	-6.53685
今	-6.54237
明	-6.54682
名	-6.55989
設	-6.56287
縣	-6.57317
兵	-6.58468
前	-6.59258
天	-6.59811
山	-6.60376
○	-6.60695
定	-6.61196
日	-6.62489
道	-6.62975
奏	-6.64091
立	-6.647
分	-6.6513
地	-6.65494
應	-6.65635
言	-6.66059
亦	-6.66708
禮	-6.67079
將	-6.67494
本	-6.67879
此	-6.68611
元	-6.6886
長	-6.69481
若	-6.69574
六	-6.71459
馬	-6.71601
復	-6.71722
國	-6.72231
南	-6.72627
即	-6.72772
金	-6.7384
軍	-6.74338
並	-6.7495
故	-6.77151
次	-6.78049
府	-6.78502
使	-6.79079
得	-6.79136
門	-6.80012
于	-6.80023
書	-6.80125
或	-6.80225
安	-6.80417
民	-6.80464
城	-6.80583
置	-6.81078
水	-6.81296
公	-6.81955
年	-6.82392
從	-6.8258
成	-6.82886
當	-6.83301
見	-6.84088
進	-6.84249
平	-6.86057
命	-6.86606
多	-6.88429
司	-6.88456
西	-6.88457
重	-6.89005
諸	-6.90515
外	-6.90591
請	-6.90898
乃	-6.91155
作	-6.9131
兩	-6.914
東	-6.91881
方	-6.9464
已	-6.94773
合	-6.95282
生	-6.95607
樂	-6.9645
八	-6.96487
初	-6.96988
九	-6.97729
非	-6.97781
通	-6.98095
加	-6.98304
石	-6.98801
錢	-6.99232
法	-7.00023
經	-7.00566
取	-7.01337
河	-7.01549
封	-7.01625
服	-7.02176
是	-7.02199
俱	-7.02843
由	-7.03573
一人	-7.03577
相	-7.03586
奉	-7.03988
徳	-7.04914
數	-7.05561
因	-7.06265
先	-7.07416
實	-7.0753
十	-7.07882
引	-7.07948
漢	-7.09462
七	-7.09508
知	-7.1065
可	-7.10741
陳	-7.11674
周	-7.12547
武	-7.12962
每	-7.14927
祭	-7.14936
家	-7.15136
興	-7.15257
主	-7.15307
制	-7.15581
給	-7.16247
帝	-7.16325
北	-7.16334
小	-7.16713
黄	-7.1681
氏	-7.16985
仍	-7.17502
議	-7.18098
矣	-7.18159
宜	-7.18209
未	-7.19374
謂	-7.19601
和	-7.19849
舉	-7.2068
屬	-7.20687
位	-7.20924
宫	-7.21667
字	-7.2183
神	-7.21995
皇帝	-7.22479
云	-7.23067
右	-7.23111
稱	-7.23437
改	-7.23892
傳	-7.23959
開	-7.24263
宋	-7.24394
張	-7.25152
海	-7.25815
親	-7.26186
銀	-7.27102
降	-7.27132
然	-7.27409
惟	-7.27646
詔	-7.2765
髙	-7.2828
省	-7.28623
廣	-7.28726
郡	-7.293
發	-7.29558
既	-7.30359
陽	-7.31128
朝	-7.31257
始	-7.31315
世	-7.31376
白	-7.31507
古	-7.31649
布	-7.31905
共	-7.32404
例	-7.326
新	-7.33093
遂	-7.3334
部	-7.33477
常	-7.33915
餘	-7.34237
原	-7.3432
考	-7.34645
受	-7.35126
任	-7.3521
授	-7.35448
廟	-7.35555
三年	-7.35706
處	-7.36151
除	-7.3621
清	-7.36868
均	-7.37221
歸	-7.37894
李	-7.37979
營	-7.39163
唐	-7.39292
圖	-7.39332
齊	-7.39488
龍	-7.39884
賜	-7.39936
宗	-7.4004
升	-7.40179
來	-7.40492
儀	-7.40515
建	-7.41047
路	-7.42398
二人	-7.42608
義	-7.42628
舊	-7.42681
隨	-7.43635
心	-7.43717
以下	-7.43838
學	-7.44094
止	-7.44102
間	-7.44734
必	-7.44758
按	-7.4491
坐	-7.4522
居	-7.45346
具	-7.45412
食	-7.45643
流	-7.45977
守	-7.46007
載	-7.46251
著	-7.46383
月	-7.46521
田	-7.46887
木	-7.47197
衛	-7.47265
永	-7.47485
都	-7.47521
律	-7.47538
治	-7.47551
士	-7.47647
照	-7.47707
節	-7.47944
左	-7.48664
夫	-7.48808
爾	-7.49018
焉	-7.49041
嵗	-7.49137
師	-7.49405
何	-7.49438
玉	-7.49823
納	-7.49888
集	-7.49943
工	-7.50005
掌	-7.50307
雖	-7.5057
土	-7.50913
車	-7.51015
口	-7.51832
光	-7.52311
户	-7.52374
理	-7.52439
以上	-7.53526
起	-7.53979
直	-7.54017
兼	-7.54302
還	-7.54549
度	-7.54734
管理	-7.55109
旗	-7.55506
将	-7.55736
承	-7.55845
去	-7.56009
備	-7.56076
㑹	-7.56571
首	-7.56646
易	-7.56954
執	-7.57044
尚	-7.57298
二年	-7.57628
朕	-7.57675
過	-7.579
并	-7.59476
論	-7.59928
逺	-7.59943
額	-7.59976
殿	-7.60169
詣	-7.6047
領	-7.60829
少	-7.60853
免	-7.60914
收	-7.60952
修	-7.61042
告	-7.61347
鎮	-7.6138
江	-7.61495
聖	-7.61736
祀	-7.61803
佐領	-7.61988
交	-7.62575
色	-7.62617
犯	-7.62666
衆	-7.62737
聲	-7.62876
陵	-7.63179
率	-7.63207
以為	-7.63586
御	-7.63911
里	-7.64002
更	-7.64019
監	-7.64322
特	-7.64322
克	-7.64372
拜	-7.64504
計	-7.6456
功	-7.64576
依	-7.64845
物	-7.64899
死	-7.64919
撰	-7.64948
欲	-7.64955
近	-7.65099
運	-7.65116
科	-7.65412
風	-7.65505
春	-7.65549
詩	-7.66041
代	-7.66109
聞	-7.662
遣	-7.66471
宣	-7.66712
祖	-7.6698
乎	-7.67515
列	-7.67551
案	-7.67764
昭	-7.67776
獻	-7.67826
侯	-7.68084
善	-7.6813
雲	-7.68517
米	-7.68564
盡	-7.687
補	-7.69001
且	-7.69482
能	-7.70312
青	-7.7049
管	-7.7057
送	-7.70855
志	-7.70869
保	-7.71657
深	-7.71709
班	-7.71823
畢	-7.72218
夏	-7.72525
太	-7.72834
星	-7.73354
角	-7.7336
差	-7.73423
報	-7.73574
恭	-7.73809
典	-7.73832
阿	-7.73932
晉	-7.73998
思	-7.74388
寧	-7.74678
問	-7.75435
左右	-7.75568
萬	-7.75689
别	-7.75723
解	-7.76249
衣	-7.76315
利	-7.7643
元年	-7.76736
章	-7.77061
天下	-7.77077
君	-7.77883
慶	-7.77887
皇	-7.78742
罪	-7.78799
造	-7.78937
禁	-7.79164
政	-7.79585
再	-7.79599
之妻	-7.79613
尊	-7.79813
爵	-7.80161
紀	-7.80403
室	-7.80411
不得	-7.80869
就	-7.81086
訖	-7.81193
襲	-7.81219
廢	-7.81922
百	-7.82256
卷	-7.82332
務	-7.82567
異	-7.82609
選	-7.82712
梁	-7.83367
據	-7.8341
全	-7.83418
表	-7.8382
商	-7.83887
劉	-7.83908
林	-7.841
賊	-7.84106
卒	-7.84387
詳	-7.84405
房	-7.84748
福	-7.84764
徴	-7.84852
音	-7.85166
減	-7.85335
但	-7.8541
調	-7.85413
酒	-7.85529
闗	-7.85747
庫	-7.8582
不能	-7.85901
號	-7.86037
致	-7.86115
皇后	-7.86533
五年	-7.86687
意	-7.86739
史	-7.8678
折	-7.86814
退	-7.86936
充	-7.87177
私	-7.87284
諭	-7.88084
地方	-7.88165
頭	-7.88763
寳	-7.89157
失	-7.8926
仁	-7.8933
増	-7.89488
難	-7.89559
職	-7.89676
視	-7.89811
臨	-7.90113
鹽	-7.90285
女	-7.90619
役	-7.90636
不可	-7.9074
恩	-7.91131
堂	-7.9121
望	-7.91252
鼓	-7.91588
孝	-7.91603
父	-7.91835
順	-7.91957
觀	-7.92083
存	-7.92219
丁	-7.92799
孫	-7.92884
伯	-7.93058
銅	-7.93122
達	-7.93138
甚	-7.93458
帶	-7.9365
許	-7.93993
力	-7.94183
州縣	-7.94544
四年	-7.94599
糧	-7.94709
倉	-7.94855
華	-7.94883
花	-7.9535
羅	-7.9541
身	-7.95441
臺	-7.95877
益	-7.96022
壇	-7.96036
十二	-7.96348
景	-7.9648
濟	-7.96573
德	-7.96678
附	-7.96889
條	-7.97015
登	-7.97201
吏	-7.97396
察	-7.97613
船	-7.97653
敬	-7.97662
朱	-7.97978
崇	-7.98246
化	-7.9848
將軍	-7.98522
勒	-7.98647
往	-7.99006
求	-7.99823
信	-8.00645
闕	-8.00738
副	-8.0081
籍	-8.00915
留	-8.01285
勅	-8.01295
嚴	-8.01386
固	-8.01521
試	-8.01568
我	-8.01789
靈	-8.02216
悉	-8.02301
猶	-8.02325
反	-8.02876
二十	-8.0291
罷	-8.02976
/)(	-8.0329
嘉	-8.03846
注	-8.03905
火	-8.05112
查	-8.0516
格	-8.05245
體	-8.05332
遷	-8.05428
秦	-8.05543
轉	-8.05584
冠	-8.05678
比	-8.05743
魏	-8.06221
曲	-8.06758
追	-8.06801
支	-8.06942
遇	-8.07168
被	-8.07238
贊	-8.07254
教	-8.07309
祝	-8.07482
氣	-8.07515
厚	-8.07792
配	-8.07945
邊	-8.07951
半	-8.07954
誠	-8.07969
類	-8.08157
象	-8.08344
積	-8.08416
母	-8.08426
斯	-8.08608
刑	-8.08794
之人	-8.09193
題	-8.09196
滿	-8.0926
向	-8.09352
便	-8.09499
殺	-8.09583
申	-8.09601
宿	-8.09608
序	-8.09832
郎	-8.09925
甲	-8.10088
鄉	-8.10119
移	-8.10313
記	-8.10613
昌	-8.11006
編	-8.11155
耳	-8.11169
咸	-8.11205
對	-8.12018
限	-8.12216
業	-8.12222
紅	-8.12281
印	-8.12337
期	-8.12556
趙	-8.12659
係	-8.12791
雜	-8.12894
戰	-8.12895
赴	-8.13106
到	-8.13143
忠	-8.1317
貴	-8.13195
六年	-8.13688
足	-8.14026
吉	-8.14468
有司	-8.14475
天子	-8.14581
毎	-8.14658
祠	-8.14665
盛	-8.14851
准	-8.15045
蓋	-8.157
連	-8.15922
員	-8.15932
總	-8.15942
該	-8.16558
端	-8.17191
貢	-8.17217
冊	-8.173
夀	-8.17413
統	-8.17636
征	-8.1782
席	-8.17925
舞	-8.18023
終	-8.18044
七年	-8.18057
十月	-8.18851
要	-8.18857
面	-8.1901
大臣	-8.19067
署	-8.19176
寺	-8.19323
歌	-8.19407
泰	-8.19452
養	-8.1976
貫	-8.19767
富	-8.20114
高	-8.20524
輕	-8.2069
情	-8.20696
越	-8.20833
秋	-8.2089
爲	-8.21055
簡	-8.21116
巴	-8.21463
院	-8.21582
庶	-8.21694
隆	-8.21703
射	-8.21799
主人	-8.22129
御史	-8.22219
良	-8.22312
資	-8.22642
跪	-8.22646
千	-8.22671
延	-8.22812
接	-8.23113
所以	-8.2385
變	-8.24548
八旗	-8.24563
羣	-8.24583
辭	-8.246
恐	-8.24669
之後	-8.24715
豐	-8.24727
楊	-8.2485
供	-8.24906
候	-8.24934
草	-8.24954
尚書	-8.25191
盖	-8.26022
從之	-8.26028
鄭	-8.26058
香	-8.2617
十二月	-8.26405
式	-8.26423
扵	-8.26595
蘇	-8.26716
牛	-8.26732
錫	-8.26813
八年	-8.26864
素	-8.27066
習	-8.2726
孔	-8.27592
勝	-8.27601
騎	-8.27738
亡	-8.27934
垂	-8.27953
録	-8.28016
四人	-8.28049
川	-8.28195
散	-8.28488
精	-8.28493
卿	-8.28604
極	-8.28605
魯	-8.28609
享	-8.28638
器	-8.28722
賢	-8.29042
賞	-8.29457
九月	-8.29489
獨	-8.29523
京	-8.29691
澤	-8.29789
迎	-8.29795
委	-8.29844
后	-8.30167
賔	-8.30352
徒	-8.30405
冬	-8.30498
嗣	-8.30537
寶	-8.30661
賦	-8.30868
皇太子	-8.31158
容	-8.31361
屯	-8.31414
羽	-8.31425
疏	-8.31551
擬	-8.31563
繼	-8.31599
穆	-8.31882
放	-8.32468
伊	-8.3267
太祖	-8.32711
沙	-8.32812
楚	-8.32858
禮部	-8.32914
七月	-8.33058
推	-8.33122
刻	-8.33218
薦	-8.33525
權	-8.33756
謂之	-8.33909
莫	-8.33984
赤	-8.3409
肅	-8.34375
真	-8.34375
奠	-8.34385
手	-8.34386
施	-8.34485
絶	-8.35009
增	-8.35017
威	-8.35063
𨽻	-8.35065
界	-8.35107
博	-8.35196
局	-8.35197
量	-8.35519
老	-8.35582
動	-8.35634
結	-8.3575
謹	-8.35761
親王	-8.36086
尋	-8.36094
種	-8.36153
康	-8.36247
繫	-8.36459
八月	-8.36557
市	-8.36599
曹	-8.366
革	-8.36669
䝉古	-8.36684
茶	-8.36887
末	-8.37097
虞	-8.3726
册	-8.37315
座	-8.37851
盤	-8.37901
酌	-8.38021
説	-8.38165
之制	-8.38168
十一月	-8.38323
官員	-8.38466
戸	-8.38865
雨	-8.38912
辦	-8.39193
等謹按	-8.39247
九年	-8.39454
藏	-8.39455
大夫	-8.39622
果	-8.39886
篇	-8.39974
買	-8.40221
而不	-8.40281
指	-8.40282
兮	-8.40409
嗣後	-8.40443
久	-8.40674
兹	-8.40815
回	-8.41037
郊	-8.41345
等處	-8.41622
行禮	-8.41705
燕	-8.41793
厯	-8.41821
畫	-8.42088
山東	-8.42119
再拜	-8.42403
約	-8.42418
駕	-8.42474
徐	-8.4256
朔	-8.42618
圍	-8.42999
予	-8.43047
須	-8.43089
吳	-8.43403
價	-8.43629
傷	-8.43639
斷	-8.43699
江南	-8.4396
三十	-8.44136
獲	-8.44212
某	-8.4432
寛	-8.44608
嘗	-8.44646
目	-8.447
撥	-8.4492
東西	-8.45058
幸	-8.45085
河南	-8.45553
攻	-8.45607
裁	-8.457
胡	-8.45785
關	-8.4582
徵	-8.45967
邑	-8.45999
滿洲	-8.46028
階	-8.46291
葢	-8.46346
各一人	-8.46411
語	-8.46437
審	-8.46448
亂	-8.4655
擊	-8.46656
烏	-8.46701
来	-8.46861
乾	-8.46903
費	-8.47239
贈	-8.47259
珠	-8.4761
夜	-8.47623
妃	-8.47744
哉	-8.47832
三月	-8.47841
鈔	-8.48057
第	-8.48303
課	-8.48393
仰	-8.48668
之例	-8.48733
切	-8.48791
改為	-8.49102
春秋	-8.49142
豈	-8.49331
内外	-8.49338
敵	-8.49364
伏	-8.49438
使者	-8.49659
喪	-8.49694
門外	-8.49924
哈	-8.50043
之事	-8.50064
太子	-8.50074
歲	-8.50081
乗	-8.50083
諡	-8.50184
隊	-8.50397
御製	-8.50593
讀	-8.50973
瑞	-8.51101
頃	-8.51577
好	-8.51643
徑	-8.51665
詞	-8.51788
稍	-8.52104
疑	-8.52142
謀	-8.52517
泉	-8.52935
飾	-8.52965
祥	-8.53083
五十	-8.53118
英	-8.53127
亭	-8.53151
竒	-8.53301
十年	-8.53625
雅	-8.53666
為之	-8.53983
六月	-8.54322
勞	-8.5447
陞	-8.54563
顯	-8.54727
以來	-8.54796
湖	-8.54875
符	-8.54918
協	-8.54991
禄	-8.55105
衞	-8.55115
奏請	-8.55414
持	-8.55507
駐劄	-8.55607
莊	-8.55884
寜	-8.55956
社	-8.55992
閣	-8.56073
覆	-8.56331
尺	-8.5634
參	-8.56432
故以	-8.56742
乞	-8.56904
輸	-8.56966
品	-8.57004
於是	-8.57017
三人	-8.57036
五月	-8.57056
盜	-8.5737
停	-8.57382
校	-8.57415
維	-8.57455
隋	-8.57578
遺	-8.57584
夷	-8.5784
族	-8.57877
允	-8.57888
俟	-8.58136
柱	-8.58329
乘	-8.5851
塞	-8.5866
派	-8.58801
俸	-8.58823
念	-8.58948
鑄	-8.58953
聽	-8.59089
才	-8.59111
税	-8.59382
優	-8.59541
缺	-8.59721
諸侯	-8.59808
各省	-8.59815
勤	-8.60075
敗	-8.60363
懐	-8.60404
齋	-8.60635
郭	-8.60706
隂	-8.6079
賣	-8.61092
强	-8.61131
樂止	-8.61156
仲	-8.61277
洪	-8.61288
韓	-8.61716
頂	-8.61959
之禮	-8.62099
督	-8.62191
竹	-8.6224
破	-8.62286
館	-8.62333
源	-8.62683
至於	-8.62854
牧	-8.6329
惠	-8.63352
喜	-8.63381
揚	-8.6344
樓	-8.63461
召	-8.63655
太廟	-8.63697
豆	-8.63728
姓	-8.63764
程	-8.63928
其後	-8.63943
錢糧	-8.64035
撫	-8.64109
辰	-8.64429
池	-8.64467
所謂	-8.64536
駐	-8.64619
適	-8.64824
葉	-8.64845
閲	-8.64863
俗	-8.64943
願	-8.64992
如有	-8.65158
副都統	-8.65192
陜西	-8.65252
畧	-8.65307
榮	-8.65498
杖	-8.65594
進士	-8.6567
責	-8.65788
輿	-8.65825
牲	-8.65848
專	-8.65866
四川	-8.65913
之法	-8.65939
丞	-8.65941
遼	-8.65945
準	-8.65977
皮	-8.6599
紫	-8.66019
漢軍	-8.66031
哭	-8.66128
示	-8.66205
欽	-8.6634
之處	-8.66474
百官	-8.66546
遵	-8.66676
羊	-8.66812
累	-8.66893
幣	-8.67027
繡	-8.67094
吏部	-8.67146
遣使	-8.67173
帥	-8.67237
公主	-8.67262
侍	-8.67344
完	-8.67362
殷	-8.67422
婦	-8.67563
魚	-8.67622
庭	-8.67808
大學士	-8.68007
所屬	-8.68299
三分	-8.68389
驛	-8.68517
彼	-8.68615
耕	-8.68708
逆	-8.68769
絲	-8.68908
皇上	-8.69025
靖	-8.69029
假	-8.6904
漸	-8.69187
横	-8.69424
倍	-8.69706
占	-8.70035
息	-8.70052
場	-8.70134
園	-8.70228
他	-8.70316
四十	-8.70461
督撫	-8.70622
井	-8.70664
弟	-8.70758
旁	-8.70856
惡	-8.70868
直𨽻	-8.71077
顧	-8.71102
一百	-8.71135
京師	-8.7125
獄	-8.71266
丹	-8.71266
美	-8.71277
啟	-8.71277
位於	-8.71285
等官	-8.71307
橋	-8.71345
昔	-8.71446
子孫	-8.71463
四月	-8.71569
謝	-8.71728
殊	-8.71855
宴	-8.71961
形	-8.72076
筆帖式	-8.72102
築	-8.72182
空	-8.72185
不許	-8.72282
福建	-8.72431
賛	-8.72434
各一	-8.72533
将軍	-8.72557
最	-8.72649
尤	-8.72667
十五	-8.72899
豫	-8.72921
休	-8.73023
斗	-8.73026
浙江	-8.73147
之地	-8.7321
索	-8.7345
宮	-8.7353
歴	-8.73541
妻	-8.73593
野	-8.73659
吾	-8.73818
照例	-8.73836
儒	-8.74054
誤	-8.74082
農	-8.74157
拉	-8.74198
訓	-8.7426
三等	-8.74308
害	-8.74313
辦理	-8.74436
户部	-8.74662
懸	-8.74662
雲南	-8.74869
離	-8.75052
待	-8.75118
銜	-8.75182
兵部	-8.75228
邉	-8.75273
質	-8.75275
是以	-8.75349
鐵	-8.75726
釋	-8.75745
姦	-8.75951
罰	-8.76174
飛	-8.76199
而已	-8.76339
歳	-8.76374
熟	-8.7638
可以	-8.76495
虚	-8.76548
屢	-8.76558
東南	-8.76836
壽	-8.77224
導	-8.7724
一分	-8.77294
蘭	-8.77445
倫	-8.77534
孟	-8.77657
賓	-8.77784
粟	-8.77886
太宗	-8.77983
其餘	-8.77986
呼	-8.77991
畝	-8.78209
斬	-8.78247
境	-8.78294
兵丁	-8.78447
衡	-8.78455
之數	-8.78539
唯	-8.78804
都統	-8.78888
俾	-8.79725
續	-8.79825
眀	-8.79864
十六	-8.7998
稅	-8.8009
䕶軍	-8.80106
者皆	-8.80113
招	-8.80194
䕶	-8.80206
㫖	-8.80291
巡撫	-8.80669
立於	-8.80743
曽	-8.8079
薨	-8.80836
黒	-8.8091
佐	-8.81008
宗室	-8.81044
領催	-8.81093
郡王	-8.81106
急	-8.81158
災	-8.81274
仗	-8.8134
十三年	-8.81344
侍郎	-8.8144
一卷	-8.81711
一名	-8.81783
佛	-8.818
季	-8.81908
榖	-8.81945
逐	-8.82047
六十	-8.821
項	-8.82214
旋	-8.82216
各官	-8.8222
愛	-8.82224
之子	-8.82296
十一	-8.82315
江西	-8.82416
咨	-8.82465
西南	-8.82505
版	-8.82516
較	-8.82528
廷	-8.82628
循	-8.82861
虎	-8.82881
䝉	-8.8304
之時	-8.83099
戒	-8.83286
文武	-8.83313
一員	-8.8335
分别	-8.8349
病	-8.83507
勲	-8.83705
赦	-8.83957
驗	-8.83959
二百	-8.83984
竊	-8.84014
奉㫖	-8.84228
以後	-8.84247
識	-8.84319
細	-8.84369
舍	-8.84377
述	-8.84496
𫝊	-8.84563
會	-8.84749
産	-8.84833
揖	-8.84927
縱	-8.84984
松	-8.85145
勢	-8.85155
穀	-8.85205
鳯	-8.85419
租	-8.85686
展	-8.85767
違	-8.85818
距	-8.85949
步	-8.86034
講	-8.86143
翼	-8.86146
似	-8.86175
樹	-8.86333
葬	-8.86378
勘	-8.86482
塔	-8.86982
夾	-8.87141
敢	-8.87165
刑部	-8.87184
人等	-8.87281
侍中	-8.87292
輪	-8.87299
一日	-8.87502
段	-8.87567
舒	-8.87735
聚	-8.87753
鳴	-8.8777
侍衛	-8.87776
第一	-8.87857
皇太后	-8.88046
句	-8.8831
饌	-8.88356
防	-8.88387
勿	-8.8877
單	-8.88808
借	-8.88815
百姓	-8.88857
雙	-8.88981
檢	-8.89028
采	-8.89513
旱	-8.89552
樂作	-8.89595
徹	-8.89683
慈	-8.89692
預	-8.89854
抵	-8.89856
是年	-8.89868
捧	-8.90178
狀	-8.90258
叔	-8.90264
之所	-8.90342
姑	-8.90365
叙	-8.90383
賀	-8.90434
蜀	-8.90461
偽	-8.90569
伐	-8.90731
巡	-8.90784
烈	-8.91056
溪	-8.91152
杜	-8.91348
十二年	-8.91425
䇿	-8.91451
稽	-8.91507
温	-8.91529
决	-8.91605
夫人	-8.91628
所有	-8.91827
圓	-8.91843
錦	-8.91883
至是	-8.91967
康熙	-8.92192
純	-8.92477
又有	-8.92524
舟	-8.9265
五分	-8.92732
汝	-8.92763
財	-8.92792
秩	-8.92818
毁	-8.92845
者也	-8.92982
廣東	-8.93095
落	-8.93252
叅	-8.93365
算	-8.93374
性	-8.93406
哀	-8.93484
三日	-8.93507
不同	-8.93555
躬	-8.93566
考試	-8.93697
以次	-8.93702
東北	-8.93741
縁	-8.93749
乆	-8.93767
西北	-8.93855
輦	-8.93901
呉	-8.93932
頒	-8.93952
五人	-8.93986
賑	-8.93988
山西	-8.94187
十三	-8.94215
二月	-8.94309
祗	-8.94322
普	-8.94379
淮	-8.94392
絹	-8.94602
徙	-8.94802
州府	-8.9495
不足	-8.9503
不及	-8.9504
感	-8.95222
在京	-8.95462
上下	-8.95489
環	-8.95529
每年	-8.95604
盛京	-8.9562
卜	-8.95791
熙	-8.95854
憲	-8.95858
一等	-8.95896
坊	-8.95961
駐防	-8.95979
陸	-8.96105
先是	-8.96242
微	-8.96261
衙門	-8.96264
屋	-8.96477
戎	-8.96508
併	-8.96563
不敢	-8.96958
凖	-8.96966
寨	-8.97025
干	-8.97045
朝廷	-8.97086
鄂	-8.97088
人員	-8.97131
况	-8.9721
父母	-8.97233
渠	-8.97307
専	-8.97326
總督	-8.97483
什	-8.97524
擇	-8.97608
聴	-8.97897
太尉	-8.97995
繁	-8.98094
逹	-8.98217
鼎	-8.98242
茂	-8.983
底	-8.98505
頌	-8.98585
如此	-8.98714
荒	-8.98751
負	-8.98797
雷	-8.98802
絃	-8.98825
减	-8.9885
三百	-8.98999
振	-8.99037
貨	-8.99109
鐘	-8.99146
壩	-8.99168
呈	-8.99181
薄	-8.99204
國家	-8.9923
㕔	-8.99429
𢎞	-8.99608
滅	-8.99611
慎	-8.99625
斤	-8.99632
判	-8.99792
不知	-8.99822
者亦	-8.99858
十五年	-8.99921
戴	-9.0018
雍	-9.00189
貞	-9.00212
堡	-9.00246
履	-9.00257
厰	-9.00302
奪	-9.0051
然後	-9.00534
製	-9.00623
塲	-9.00675
陛下	-9.00693
八人	-9.00716
決	-9.00738
帛	-9.00886
郎中	-9.00949
羣臣	-9.0095
仙	-9.01271
根	-9.01317
助	-9.01381
曾	-9.01491
之日	-9.01498
浮	-9.01503
攝	-9.01538
巾	-9.01771
太平	-9.02114
提督	-9.02136
之意	-9.02199
疾	-9.0222
遣官	-9.02278
具奏	-9.02343
不過	-9.02515
避	-9.02637
大小	-9.02696
棄	-9.02709
贖	-9.02793
湖廣	-9.02821
付	-9.02928
鍾	-9.02953
尾	-9.02965
歩	-9.02971
綿	-9.02986
偏	-9.03269
十一年	-9.03334
弊	-9.03459
喇	-9.03522
逃	-9.03613
博士	-9.03652
宏	-9.03715
頗	-9.04208
桑	-9.04308
紹興	-9.04466
提	-9.0457
那	-9.04602
㑹同	-9.04631
介	-9.04675
収	-9.04902
一年	-9.04935
慮	-9.05079
辨	-9.05136
津	-9.0515
早	-9.05175
十四年	-9.05303
背	-9.05306
直省	-9.05422
損	-9.05447
扇	-9.05507
不必	-9.05543
麥	-9.05576
毆	-9.05607
太常	-9.05738
湯	-9.05807
吕	-9.05814
鳳	-9.05834
侵	-9.06026
零	-9.06036
子弟	-9.06045
至元	-9.06048
盗	-9.06072
皇子	-9.06316
弗	-9.06473
敦	-9.06501
二等	-9.06595
救	-9.06705
官兵	-9.06833
敏	-9.06993
赫	-9.07098
沈	-9.07298
討	-9.07383
苑	-9.0739
南京	-9.07642
六人	-9.07709
彌	-9.07777
致祭	-9.07784
之類	-9.07825
陛	-9.07983
鴻	-9.08068
添	-9.08111
第二	-9.08112
嘉靖	-9.08257
筆	-9.08318
總管	-9.08366
希	-9.08369
輔	-9.08489
南向	-9.08527
毛	-9.08595
工部	-9.08621
欽此	-9.08715
機	-9.08728
材	-9.08778
誅	-9.0879
畨	-9.08803
祭祀	-9.08987
汛	-9.09117
諸王	-9.0913
丈	-9.09402
𤣥	-9.09405
十四	-9.09446
洞	-9.09486
南北	-9.09669
恒	-9.09762
刺史	-9.09825
板	-9.10069
唱	-9.10128
雄	-9.10139
佳	-9.10316
洛	-9.1042
貯	-9.10422
韻	-9.10501
黑	-9.10526
瞻	-9.10568
邦	-9.10612
袍	-9.10684
䘮	-9.10702
随	-9.10712
漕	-9.10812
刀	-9.10822
牌	-9.10882
客	-9.11064
聖祖仁皇帝	-9.1116
副使	-9.11201
二分	-9.11417
屯田	-9.11455
窮	-9.11514
襄	-9.11571
之南	-9.11657
懿	-9.11681
洪武	-9.11696
宻	-9.11892
採	-9.12065
司馬	-9.12072
弓	-9.12089
為一	-9.12293
宗廟	-9.12337
前後	-9.12442
員外郎	-9.12557
十六年	-9.12566
懷	-9.12727
料	-9.12819
十八年	-9.12832
北向	-9.13072
勸	-9.13126
一體	-9.13129
范	-9.13161
濫	-9.13284
日月	-9.13299
錄	-9.13343
傅	-9.13349
盧	-9.13392
兄弟	-9.13413
堯	-9.13483
執事	-9.13487
之外	-9.13491
丞相	-9.13557
尸	-9.13567
究	-9.13567
麟	-9.13621
囘	-9.13629
十人	-9.13666
銷	-9.13878
蠻	-9.13968
不行	-9.13982
舉人	-9.13985
囚	-9.14217
復位	-9.1426
之儀	-9.14271
貝勒	-9.14412
蔡	-9.14435
援	-9.14463
禮畢	-9.14532
是也	-9.14566
徃	-9.14594
幾	-9.14659
陣	-9.14704
說	-9.14729
寒	-9.14913
官吏	-9.14969
八分	-9.15121
故事	-9.15139
之間	-9.15252
僧	-9.15319
敕	-9.1554
束	-9.15543
勇	-9.15576
趨	-9.15612
㕘	-9.15876
觧	-9.16024
太祝	-9.16026
於此	-9.16074
震	-9.16084
廵	-9.161
啓	-9.16231
天地	-9.1625
十八	-9.16648
陳設	-9.16651
崩	-9.16742
妄	-9.16846
儲	-9.16877
捕	-9.16938
前鋒	-9.17145
主事	-9.17194
級	-9.17205
武帝	-9.17321
規	-9.17364
投	-9.17396
牙	-9.17485
飲	-9.17528
黨	-9.17555
禹	-9.17695
一次	-9.17772
綱	-9.1788
西向	-9.17901
蕭	-9.17912
恵	-9.17933
岳	-9.17958
憂	-9.18159
叛	-9.18161
尉	-9.18214
番	-9.18306
四分	-9.18397
東向	-9.18771
廣西	-9.18821
地方官	-9.18836
六分	-9.18864
註	-9.18933
標	-9.18949
速	-9.19016
出入	-9.19054
祈	-9.19073
擅	-9.19081
周禮	-9.19093
毋	-9.19523
糴	-9.19548
贓	-9.19766
議準	-9.19785
其所	-9.19886
紙	-9.19983
敷	-9.20136
岱	-9.20246
有竒	-9.2037
嶺	-9.20452
匹	-9.20501
策	-9.20515
饑	-9.20574
以備	-9.20611
民間	-9.20618
墨	-9.20681
二十四	-9.20809
國公	-9.20812
藥	-9.20931
奏準	-9.20956
苦	-9.21033
奔	-9.21327
村	-9.21411
所司	-9.2146
饗	-9.2159
七分	-9.21624
驍騎	-9.21744
堅	-9.21893
者以	-9.21898
紹	-9.22116
僅	-9.22169
開元	-9.22265
輅	-9.22273
谷	-9.22393
竟	-9.22396
尼	-9.22549
藍	-9.22561
佩	-9.22678
患	-9.22994
箭	-9.23114
壁	-9.23191
隠	-9.23398
麻	-9.23439
育	-9.23452
藩	-9.23521
五百	-9.23542
塘	-9.23556
住	-9.23581
畆	-9.2366
冒	-9.23744
欽定四庫全書	-9.2376
堪	-9.2381
裕	-9.23862
男	-9.23997
却	-9.24051
竢	-9.24052
黃	-9.24098
略	-9.24152
明年	-9.24187
露	-9.24324
蒙古	-9.24328
俎	-9.24512
孔子	-9.24628
秀	-9.24709
▁(	-9.24724
太常寺	-9.24732
效	-9.24742
謁	-9.24745
而後	-9.24802
匠	-9.2481
中書	-9.2488
驍騎校	-9.24925
厥	-9.24937
戍	-9.24943
十七年	-9.25015
歡	-9.25065
正月	-9.25065
行事	-9.25128
基	-9.25221
遲	-9.25249
王公	-9.25303
初獻	-9.25361
萬厯	-9.25438
㸃	-9.25769
看	-9.25782
未有	-9.25853
矢	-9.26012
乾隆	-9.26136
之義	-9.26177
肆	-9.26254
生員	-9.266
顔	-9.26607
溝	-9.26642
宇	-9.26676
八十	-9.26761
寢	-9.26979
乙	-9.27078
街	-9.27272
属	-9.27351
婦人	-9.27532
皆有	-9.27555
一切	-9.27673
黎	-9.27688
創	-9.27918
第三	-9.27967
同知	-9.28038
蕃	-9.28147
等項	-9.28172
騐	-9.28188
圗	-9.28353
之東	-9.28403
三千	-9.28479
邱	-9.28656
密	-9.28667
在外	-9.28821
側	-9.28872
陶	-9.29088
即位	-9.29114
二名	-9.29301
蠲	-9.29354
以致	-9.29401
覺	-9.29448
鹿	-9.29464
麗	-9.29571
題準	-9.29612
大將軍	-9.29645
邪	-9.29733
冕	-9.29768
綏	-9.29791
險	-9.29837
旌	-9.29893
以上者	-9.29984
瓦	-9.30106
明堂	-9.30132
波	-9.30153
答	-9.30219
貧	-9.30301
其事	-9.30575
帳	-9.3077
司徒	-9.30858
亦如之	-9.3111
勾	-9.31113
都司	-9.31207
北面	-9.31221
洋	-9.31259
兆	-9.31511
學士	-9.31973
渡	-9.3204
革職	-9.32157
校尉	-9.32261
走	-9.32271
漏	-9.32352
斛	-9.32378
朝服	-9.32379
滋	-9.32485
濶	-9.32555
騰	-9.32561
黄鍾	-9.32984
永樂	-9.33046
擢	-9.33096
衍	-9.33108
内務府	-9.33156
孤	-9.33224
契	-9.33332
湖南	-9.33343
蒼	-9.33374
墓	-9.33395
齡	-9.3353
裏	-9.3356
沒	-9.33607
令其	-9.3372
七十	-9.33811
二十五	-9.34029
停止	-9.34034
仕	-9.34353
謨	-9.34378
貴州	-9.34575
卑	-9.3469
賈	-9.34756
忽	-9.34798
柴	-9.34841
彦	-9.35011
給事中	-9.35025
叅領	-9.35082
閘	-9.35099
垣	-9.35172
四方	-9.35233
後漢	-9.35409
董	-9.35414
裳	-9.35431
康熈	-9.35545
河東	-9.35616
催	-9.35639
覽	-9.35661
雪	-9.35675
綬	-9.35823
賤	-9.35928
押	-9.35954
遊	-9.35978
析	-9.35981
托	-9.36086
治罪	-9.3621
宰相	-9.36295
荆	-9.36305
緑	-9.36322
醫	-9.36513
又設	-9.3662
操	-9.36648
洗	-9.36648
韋	-9.36679
荘	-9.36824
無所	-9.36911
給與	-9.36911
輕重	-9.37143
亦有	-9.37166
捐	-9.37198
輝	-9.37221
禘	-9.37284
疋	-9.37293
各處	-9.3734
芳	-9.37365
薩	-9.37461
尹	-9.37485
藉	-9.37584
稷	-9.37612
守備	-9.37725
智	-9.37726
賴	-9.37864
崔	-9.37869
遞	-9.37948
用之	-9.38023
又以	-9.381
甫	-9.38263
閒散	-9.38274
飭	-9.38419
佑	-9.38664
翟	-9.3874
扣	-9.38894
壯	-9.38902
是日	-9.38932
徧	-9.39124
執事者	-9.39199
倘	-9.39208
逢	-9.3922
纂	-9.39349
甘肅	-9.39495
兒	-9.39548
奏准	-9.39666
以前	-9.39667
二縣	-9.39749
有功	-9.39753
礮	-9.39781
鼔	-9.39786
倚	-9.39788
包	-9.39886
線	-9.40015
譜	-9.40041
社稷	-9.40043
現	-9.40052
寄	-9.40066
錯	-9.40127
甘	-9.40236
笙	-9.40286
游	-9.40352
渾	-9.40482
暨	-9.4056
馳	-9.40563
酌量	-9.40589
噶	-9.40647
静	-9.40681
故以其子	-9.40758
長安	-9.40805
盈	-9.40926
爰	-9.41115
之西	-9.41145
從前	-9.4115
需	-9.41217
引見	-9.4137
包衣	-9.41567
逮	-9.41599
訪	-9.41674
愚	-9.41773
練	-9.41799
二十年	-9.41803
璧	-9.42002
之道	-9.42083
淺	-9.42108
各有	-9.42114
三公	-9.42119
挑	-9.42209
覆準	-9.42242
徽	-9.42258
皆以	-9.42284
監察御史	-9.42342
隔	-9.42432
太后	-9.42458
核	-9.42531
三品	-9.426
奏聞	-9.4276
九十	-9.42794
珍	-9.4293
懼	-9.43067
斂	-9.43157
璽	-9.43249
潔	-9.43265
只	-9.43272
具題	-9.43297
舊制	-9.43342
其子	-9.43347
塗	-9.43364
荷	-9.43391
愈	-9.43425
其地	-9.4348
滿漢	-9.43586
藝	-9.43636
神主	-9.43636
山川	-9.43707
也今	-9.43743
肉	-9.43755
弱	-9.43814
寫	-9.4401
罇	-9.44025
台	-9.4407
冬至	-9.44208
又定	-9.4424
乏	-9.4425
庸	-9.44306
二卷	-9.44322
弼	-9.44343
畏	-9.44369
十七	-9.44408
排	-9.44532
兄	-9.44711
有所	-9.44727
位于	-9.44821
上帝	-9.45095
沛	-9.45108
己	-9.45261
<	-9.45309
="33"/>	-9.45309
t	-9.4531
夕	-9.45357
泥	-9.45388
篚	-9.45727
值	-9.45745
萬年	-9.45746
逸	-9.45835
㕘領	-9.45876
扎	-9.45951
九分	-9.45998
柄	-9.46001
人犯	-9.46051
典禮	-9.46068
軒	-9.46088
亞獻	-9.46222
之内	-9.46232
詐	-9.463
指揮	-9.46368
西面	-9.46371
豪	-9.46389
抑	-9.46414
之屬	-9.46416
僕	-9.4645
聖人	-9.46586
卓	-9.46746
栁	-9.46829
困	-9.46837
掠	-9.46852
内侍	-9.46881
油	-9.469
刺	-9.46964
㣲	-9.46978
諸州	-9.47022
匪	-9.47085
鹵簿	-9.4718
術	-9.47299
姓名	-9.47341
暴	-9.47471
幽	-9.47578
遠	-9.47658
舜	-9.47708
黍	-9.47746
侍衞	-9.47798
實以	-9.47813
扶	-9.47818
仁宗	-9.47833
施行	-9.47907
爭	-9.47925
彭	-9.48009
衰	-9.48014
超	-9.48115
髙祖	-9.48135
秉	-9.48165
淳	-9.48355
世職表	-9.48373
批	-9.48388
漢人	-9.48505
之樂	-9.48568
宰	-9.48675
司官	-9.48724
有差	-9.48762
屏	-9.48764
一時	-9.48767
筵	-9.48791
齒	-9.48852
牒	-9.48963
冦	-9.49084
欠	-9.49167
另	-9.49211
祖宗	-9.49226
桃	-9.49296
□	-9.49384
東面	-9.4943
耶	-9.49522
臣等	-9.49607
伍	-9.49679
太常卿	-9.49726
琴	-9.49771
俊	-9.49841
都督	-9.4987
鋪	-9.49955
一百二十	-9.49992
簿	-9.50026
稽察	-9.50077
吹	-9.50172
旦	-9.50203
遇有	-9.50213
亦不	-9.50282
膺	-9.50285
如常儀	-9.50319
割	-9.50331
彰	-9.50428
罕	-9.50473
確	-9.50554
拘	-9.50565
死者	-9.50666
諸臣	-9.50799
隸	-9.50826
未嘗	-9.50846
謙	-9.50889
碑	-9.50898
繪	-9.50909
辟	-9.51002
旅	-9.51058
童	-9.51109
架	-9.51113
之北	-9.51146
千總	-9.51156
本朝	-9.51174
知縣	-9.51202
賞給	-9.5123
衝	-9.51302
廵撫	-9.51351
帖	-9.51449
之官	-9.5146
疆	-9.51468
溢	-9.5151
冀	-9.51536
當時	-9.51645
晋	-9.51787
含	-9.51901
獸	-9.52018
成化	-9.52025
緩	-9.52067
雞	-9.52185
本年	-9.5221
一出	-9.52257
防禦	-9.52404
二員	-9.52462
焚	-9.52528
恤	-9.52594
瑪	-9.52602
諱	-9.52673
之上	-9.5276
餉	-9.52761
藻	-9.52802
纛	-9.53006
國子監	-9.5302
主簿	-9.53025
承襲詳	-9.53048
截	-9.53071
彚	-9.53121
祭酒	-9.53225
舍人	-9.53227
有餘	-9.53229
簫	-9.53255
岸	-9.53394
自是	-9.5342
屈	-9.53457
者為	-9.53556
車駕	-9.53594
喀	-9.53602
綴	-9.53678
婚	-9.53708
神位	-9.53708
睿	-9.53797
儀仗	-9.53826
危	-9.53871
五品	-9.53954
議處	-9.53959
整	-9.53967
皇考	-9.53974
哲	-9.53996
骨	-9.54026
之中	-9.54032
十九	-9.54068
䖍	-9.54129
蒲	-9.54143
鳥	-9.54173
圭	-9.54308
緣	-9.54384
籌	-9.54492
謹按	-9.54554
貪	-9.54604
儀注	-9.54724
短	-9.54768
不復	-9.54924
帯	-9.55274
隄	-9.55299
十九年	-9.55356
三十六	-9.55385
直隸	-9.5547
羣官	-9.55478
緯	-9.55485
次之	-9.55519
五千	-9.55534
枝	-9.55534
亮	-9.55618
脚	-9.5566
笛	-9.55752
得㫖	-9.55845
淵	-9.55851
者各	-9.55876
並無	-9.56016
把	-9.56046
四寸	-9.56244
植	-9.56301
覈	-9.56323
太和	-9.56331
祚	-9.56338
輯	-9.56338
後魏	-9.56408
寵	-9.56409
其中	-9.56489
宅	-9.56728
之神	-9.56871
古今	-9.56968
漆	-9.57096
貞觀	-9.5723
奏言	-9.57359
曉	-9.57362
定例	-9.57369
潛	-9.57377
證	-9.57452
大同	-9.57563
行之	-9.57592
命婦	-9.57607
中國	-9.57631
没	-9.57671
釐	-9.57736
諫	-9.57817
布政司	-9.57864
復置	-9.57972
鄧	-9.58046
膳	-9.58087
不在	-9.58101
二十二年	-9.58208
肇	-9.58307
諸路	-9.58327
匈奴	-9.58332
隻	-9.58355
樂章	-9.58379
之名	-9.5857
籩豆	-9.58601
一月	-9.5862
少卿	-9.58733
丘	-9.5879
二十一年	-9.58843
従	-9.58857
籩	-9.58887
聼	-9.59077
閩	-9.59104
二千	-9.59188
友	-9.59213
虛	-9.59276
而無	-9.59384
一曰	-9.59403
禮部尚書	-9.5946
寸	-9.59545
五日	-9.59663
軍民	-9.59673
禦	-9.59757
京城	-9.59859
之前	-9.59859
馬匹	-9.59875
即行	-9.5998
洽	-9.60026
之心	-9.60082
績	-9.60137
疏言	-9.60138
獵	-9.60212
幕	-9.60242
飯	-9.60269
旗人	-9.6031
疎	-9.60341
世祖	-9.60518
如常	-9.6062
文武官	-9.60637
内有	-9.60666
嶽	-9.60716
輒	-9.60757
燎	-9.60809
偶	-9.60841
一千	-9.60857
覺羅	-9.60867
壺	-9.60876
阻	-9.60881
廂	-9.60882
内閣	-9.60937
夲	-9.61119
獻官	-9.61128
劾	-9.61173
禪	-9.61341
堤	-9.61352
以示	-9.61366
亷	-9.61456
所在	-9.61498
處分	-9.61505
貸	-9.61514
現在	-9.6152
禱	-9.61546
者即	-9.61548
龜	-9.61608
驅	-9.61611
篤	-9.61621
拜位	-9.61629
織	-9.61632
未經	-9.61666
神位前	-9.61811
奉天	-9.61849
恪	-9.61957
何以	-9.61981
浦	-9.621
削	-9.62208
四品	-9.62395
填	-9.62607
煩	-9.62627
舉行	-9.62666
阜	-9.62687
廬	-9.6269
怒	-9.62737
估	-9.62752
寡	-9.628
祔	-9.62951
蒙	-9.63087
登歌	-9.6311
者不	-9.63115
踰	-9.63132
各二	-9.6314
齎	-9.63201
午	-9.63308
測	-9.6331
閒	-9.63472
不用	-9.6351
諾	-9.63545
頓	-9.63568
馮	-9.63603
長子	-9.63613
河北	-9.63617
脱	-9.63672
陪	-9.63704
是時	-9.63737
之説	-9.63753
換	-9.63791
勉	-9.63797
單于	-9.63881
以聞	-9.63921
繩	-9.64034
或有	-9.64036
嫁	-9.64082
輔國公	-9.6414
暫	-9.64156
募	-9.6421
融	-9.64213
胥	-9.64218
貼	-9.64226
行走	-9.64238
凶	-9.64297
帷	-9.64338
拱	-9.64391
四百	-9.6443
官軍	-9.64577
妾	-9.64608
幹	-9.6462
巖	-9.64761
郡國	-9.64767
熊	-9.64817
漫	-9.64861
耀	-9.64932
前一日	-9.64981
數目	-9.65055
免其	-9.65086
内府	-9.65126
祿	-9.65225
桂	-9.65232
後世	-9.6524
欣	-9.65242
長官司	-9.65277
閱	-9.65299
教習	-9.65341
八百	-9.65429
𢎞治	-9.65513
又議準	-9.65546
鄰	-9.65585
五寸	-9.65592
從祀	-9.65704
第四	-9.658
之舞	-9.65882
釋奠	-9.65904
如初	-9.65905
門内	-9.65965
榜	-9.66105
監生	-9.66149
四名	-9.66204
祐	-9.66255
弦	-9.66265
姚	-9.66324
讓	-9.66338
之家	-9.66414
品級	-9.66474
正中	-9.66559
綵	-9.6672
陽縣	-9.66852
十日	-9.66892
鸞	-9.66942
翰林院	-9.67059
該督撫	-9.67298
之左	-9.67404
府州縣	-9.67416
託	-9.67445
遁	-9.67466
奸	-9.67524
中外	-9.67564
葛	-9.67608
萬石	-9.67634
文帝	-9.67675
絳	-9.67679
二十七年	-9.677
次引	-9.67838
十有二	-9.67983
郡縣	-9.67989
篆	-9.67989
韶	-9.68027
各二人	-9.68235
誕	-9.68256
伊等	-9.68299
凌	-9.68307
途	-9.68365
苗	-9.68491
閉	-9.68569
警	-9.68638
仍令	-9.68644
輙	-9.68795
皂	-9.68869
鞭	-9.68902
制度	-9.68941
千里	-9.69013
勵	-9.69052
誣	-9.69238
桓	-9.69238
槍	-9.69273
古者	-9.69287
入官	-9.693
通判	-9.6934
茍	-9.69354
鉛	-9.69375
歛	-9.69396
本部	-9.69396
甸	-9.69501
二十六年	-9.69667
穿	-9.69707
哩	-9.69721
俛伏興	-9.69729
之弊	-9.69755
六品	-9.69788
紗	-9.69836
逼	-9.69878
閏	-9.69905
如儀	-9.69916
所載	-9.69957
㡬	-9.6997
祇	-9.70013
饒	-9.70052
一品	-9.70086
替	-9.7015
官司	-9.7015
若干	-9.7018
御書	-9.70199
慰	-9.70223
澄	-9.7026
鶴	-9.70288
際	-9.70336
争	-9.70365
者照	-9.70446
欵	-9.70582
十分	-9.70593
翰林	-9.70609
大功	-9.70612
燒	-9.70616
諸司	-9.70634
因之	-9.70698
擾	-9.70734
禮樂	-9.7081
余	-9.70814
馬甲	-9.70935
梅	-9.70976
爼	-9.70978
燭	-9.70992
糶	-9.70994
禮官	-9.70996
南郊	-9.71013
吴	-9.71107
二十八	-9.71242
並同	-9.71242
汗	-9.71444
蠶	-9.71454
翰	-9.71464
層	-9.71485
二十三年	-9.71514
拒	-9.71551
每嵗	-9.71558
禮成	-9.71564
城縣	-9.71582
知府	-9.71586
三十年	-9.71638
几	-9.71638
弁	-9.71643
誘	-9.71656
禍	-9.71679
劍	-9.71735
旬	-9.71741
不應	-9.71745
之下	-9.71754
磬	-9.71913
鑒	-9.71924
雖有	-9.71957
國朝	-9.72004
總兵	-9.72011
無不	-9.72089
尚書省	-9.72104
乾隆元年	-9.7212
披	-9.7213
雍正元年	-9.72279
事務	-9.72317
黙	-9.72327
世職	-9.72354
羌	-9.7242
揚州	-9.72474
之用	-9.72512
虧	-9.72633
潤	-9.72655
怨	-9.72668
先後	-9.72694
㦸	-9.72713
範	-9.72817
萬夀	-9.72825
其國	-9.72895
邁	-9.72937
一尺	-9.72937
還宫	-9.72997
又曰	-9.7306
剛	-9.73104
糾	-9.73143
該管官	-9.73223
湖北	-9.73302
行宫	-9.73317
受命	-9.73377
金銀	-9.73423
互	-9.73426
節度使	-9.73431
每月	-9.73481
牆	-9.73592
潮	-9.73592
觔	-9.7364
償	-9.73698
請㫖	-9.73725
暢	-9.73769
以其	-9.73861
二十八年	-9.74068
所用	-9.74105
戸部	-9.7413
銀兩	-9.74158
影	-9.74174
像	-9.74184
縣界	-9.74223
五代	-9.74252
靡	-9.74427
掩	-9.74432
幄	-9.74438
訥	-9.74502
惜	-9.74531
概	-9.74619
鬼	-9.74639
衫	-9.74661
太監	-9.7469
郊祀	-9.74963
武職	-9.74986
應行	-9.75008
萬五千	-9.75058
鼓吹	-9.75079
陰	-9.75211
民人	-9.75236
莫不	-9.75277
邀	-9.75292
北齊	-9.75339
腰	-9.75426
巻	-9.75888
褒	-9.75908
世居	-9.75963
太學	-9.76023
不敷	-9.76184
驚	-9.76195
偕	-9.7626
區	-9.7635
之文	-9.76359
健	-9.76394
之分	-9.76434
蝗	-9.76522
衮	-9.76524
喀爾喀	-9.76578
耗	-9.76591
若有	-9.76604
弓矢	-9.7661
該管	-9.76824
改元	-9.76829
儉	-9.76847
杖一百	-9.76873
太白	-9.76874
攸	-9.76959
使副	-9.76983
𤓰	-9.76984
懲	-9.7704
寅	-9.77051
正統	-9.77113
幼	-9.77114
二十四年	-9.77155
頻	-9.77223
憑	-9.77277
朝鮮	-9.77413
域	-9.7742
序立	-9.77429
補用	-9.77592
部議	-9.77641
二十五年	-9.7768
萬八千	-9.77703
鮮	-9.77752
委官	-9.77752
公卿	-9.77765
䕶軍校	-9.77777
南面	-9.77824
僉	-9.77827
萬六千	-9.77827
忘	-9.77881
五色	-9.77891
等謹案	-9.779
凝	-9.77903
之士	-9.77904
擒	-9.78098
世宗憲皇帝	-9.78106
萬世	-9.78137
匿	-9.78216
陷	-9.78288
前導	-9.78351
䘏	-9.7836
在位	-9.78402
萬七千	-9.78601
誦	-9.7866
㤗	-9.78671
周公	-9.78677
殯	-9.7869
銓	-9.78793
括	-9.78887
抄	-9.78889
慕	-9.78942
緞	-9.79013
四時	-9.79025
耆	-9.79028
汪	-9.79039
舎	-9.79062
二十七	-9.79203
辛	-9.79222
縀	-9.79336
其有	-9.79382
三寸	-9.79383
二寸	-9.79396
從征	-9.79416
墾	-9.79434
元豐	-9.79468
打	-9.79484
十卷	-9.79494
祫	-9.79509
歴代	-9.79568
世子	-9.79645
六百	-9.79696
弔	-9.79775
遜	-9.79891
一百五十	-9.79976
賚	-9.80035
否	-9.80162
之言	-9.80204
𦵏	-9.80351
承襲	-9.80392
隱	-9.80419
巡檢司	-9.80425
祝版	-9.80486
天津	-9.80549
功臣	-9.80563
血	-9.80603
通行	-9.80622
帑	-9.80674
不合	-9.80713
貞元	-9.80763
拔	-9.80801
名曰	-9.80852
夢	-9.80877
和碩	-9.80878
追封	-9.8091
禮儀	-9.81005
國初	-9.81028
君子	-9.81063
地畝	-9.81131
副將	-9.81139
緝	-9.81145
曠	-9.81197
杭州	-9.81209
畿	-9.81395
其人	-9.81596
今日	-9.81637
就位	-9.81701
者謂	-9.81701
坤	-9.818
察哈爾	-9.81816
畜	-9.81963
昏	-9.81999
两	-9.82012
提舉	-9.82074
灌	-9.82081
正黄旗	-9.8212
辦事	-9.82296
舊例	-9.823
三名	-9.82314
内監	-9.82329
寕	-9.82356
淑	-9.82376
遥	-9.82403
之罪	-9.82408
我皇上	-9.82441
詳見	-9.8261
殘	-9.82617
)○	-9.82686
訛	-9.82887
醴	-9.83017
世宗	-9.8308
巨	-9.83092
遭	-9.83098
江浙	-9.83173
貽	-9.83204
今年	-9.83226
人之	-9.83255
沐	-9.83258
四海	-9.83296
前代	-9.83298
刋	-9.83314
翁	-9.83344
鏡	-9.83362
附近	-9.83365
萬餘	-9.83379
起居	-9.83546
司空	-9.83549
都尉	-9.83565
置於	-9.83573
欺	-9.83583
内地	-9.83591
跡	-9.83634
効力	-9.83694
六寸	-9.83776
濬	-9.83796
銘	-9.83803
七人	-9.83837
謁者	-9.83868
貝子	-9.83879
第五	-9.83912
綸	-9.83942
退復位	-9.8401
公服	-9.8403
後周	-9.8406
廐	-9.8411
陵寢	-9.84143
悦	-9.84161
五帝	-9.84236
把總	-9.84253
裔	-9.84257
孰	-9.84288
繞	-9.84298
四卷	-9.84356
脩	-9.84397
員闕	-9.84487
人丁	-9.84543
厲	-9.84587
諸軍	-9.84654
網	-9.84703
二十二	-9.84727
奴婢	-9.84772
太原	-9.84824
芝	-9.84826
卦	-9.84843
謬	-9.84866
則有	-9.84869
薛	-9.84943
契丹	-9.84999
搢笏	-9.851
此等	-9.85143
廪	-9.85167
樞	-9.85206
陣亡	-9.85228
以授	-9.85273
西安	-9.85397
在前	-9.85446
二品	-9.85468
繳	-9.85492
翠	-9.85527
柔	-9.8554
又覆準	-9.85544
河間	-9.85555
圜丘	-9.8558
州刺史	-9.85638
纓	-9.85646
撃	-9.85647
設立	-9.85667
者則	-9.8572
二萬	-9.85751
百里	-9.85875
鑿	-9.85896
劄	-9.85992
誥	-9.86041
誰	-9.86096
鄉試	-9.86111
樁	-9.86158
陞任	-9.86204
二十三	-9.86225
九卿	-9.86236
是為	-9.86254
丕	-9.86285
奉諭㫖	-9.8634
駝	-9.86363
爾等	-9.86406
率兵	-9.86424
楹	-9.86441
竇	-9.86491
件	-9.86625
二十九年	-9.86626
蔽	-9.86749
欽定	-9.86758
隨時	-9.86766
甲子	-9.86884
占曰	-9.86961
各設	-9.87009
幅	-9.87011
内大臣	-9.8706
庻	-9.87088
都察院	-9.87143
之右	-9.87297
樂奏	-9.87319
嫡	-9.87448
緒	-9.87472
峯	-9.87571
茅	-9.87582
議准	-9.8761
已上	-9.87706
熈	-9.87715
朗	-9.8781
等物	-9.87886
嵩	-9.87919
闢	-9.8795
該部	-9.87955
素服	-9.87962
判官	-9.87997
䟽議曰	-9.88068
珪	-9.88087
霑	-9.8816
齊集	-9.88187
飬	-9.88208
學政	-9.88261
遼東	-9.88373
七品	-9.8843
平之章	-9.88453
迴	-9.88489
職官	-9.88535
碧	-9.88536
寇	-9.88565
典儀	-9.88579
粤	-9.88602
詔曰	-9.88612
黜	-9.88645
御史臺	-9.88668
總兵官	-9.8875
弩	-9.88793
壊	-9.88877
蟲	-9.88892
増設	-9.88941
萬三千	-9.88944
監督	-9.8895
奎	-9.89021
酬	-9.89044
御座	-9.89078
歟	-9.89117
熒惑	-9.89201
前期	-9.89207
圜	-9.89232
一例	-9.89366
祧	-9.89435
猷	-9.89458
瘞	-9.89465
菜	-9.89469
二十一	-9.8947
亨	-9.89493
旂	-9.89543
國之	-9.89572
二日	-9.89619
傾	-9.89637
中興	-9.89645
定制	-9.8966
先期	-9.89667
太官令	-9.89717
貳	-9.8972
商人	-9.89723
袁	-9.89759
混	-9.89791
站	-9.89852
其間	-9.89875
宣徳	-9.89879
恃	-9.89943
低	-9.90044
隅	-9.90065
訴	-9.90118
蠲免	-9.90159
東宫	-9.90164
渭	-9.90186
不准	-9.90246
准其	-9.90252
執事官	-9.90338
壘	-9.90343
中有	-9.90355
額駙	-9.90403
江蘇	-9.90483
㧞	-9.90522
長史	-9.90534
諸道	-9.90563
票	-9.90565
黄河	-9.90589
敎	-9.90617
協領	-9.90627
奮	-9.90638
部落	-9.90641
足以	-9.90759
竭	-9.9076
之曲	-9.90786
不為	-9.90788
江寧	-9.90799
戚	-9.90877
為民	-9.90963
縁事革退以	-9.90963
轄	-9.91001
大定	-9.91028
戲	-9.91037
逾	-9.91048
舉哀	-9.91104
沿	-9.9111
薪	-9.91121
牢	-9.91126
絞	-9.9118
順天府	-9.91241
各衙門	-9.91276
齋戒	-9.91279
者有	-9.91285
太師	-9.91314
工程	-9.91334
壞	-9.91365
太守	-9.91379
詠	-9.91386
牀	-9.91418
户口	-9.91484
立于	-9.915
八名	-9.91514
福晉	-9.9164
大将軍	-9.91764
浙	-9.9182
師古曰	-9.91874
漲	-9.91893
天下之	-9.91949
突	-9.92015
晏	-9.92049
罰俸一年	-9.92188
簾	-9.92204
萬九千	-9.92268
毅	-9.92303
者並	-9.92319
枚	-9.92342
台吉	-9.92359
已經	-9.9239
掛	-9.92407
隴	-9.9241
縣令	-9.92532
往往	-9.92621
蘓	-9.92633
抱	-9.92641
叶	-9.92759
國王	-9.9279
以資	-9.92799
分為	-9.92809
自後	-9.92817
昆	-9.92836
懋	-9.92862
由是	-9.92926
播	-9.92953
出身	-9.9296
軍器	-9.92973
出於	-9.93016
千户所	-9.93022
吏部尚書	-9.93067
應用	-9.93082
必有	-9.93205
二次	-9.93219
充軍	-9.93238
本司	-9.93273
蕩	-9.93298
之孫	-9.93304
通州	-9.93316
巢	-9.93317
政和	-9.93418
平定	-9.93465
叚	-9.93511
竿	-9.93601
以此	-9.93632
淮南	-9.93657
呂	-9.93698
大兵	-9.93742
其日	-9.93758
槩	-9.93846
教授	-9.93884
鎗	-9.93927
尊諡	-9.93948
演	-9.93998
衛所	-9.9403
乖	-9.9404
棟	-9.94072
文字	-9.9413
上諭	-9.94177
未完	-9.94292
䕶軍統領	-9.94336
十萬	-9.94344
奚	-9.94351
碩	-9.94389
閤	-9.94409
西域	-9.94422
毫	-9.94461
黄道	-9.94505
貧民	-9.94507
正紅旗	-9.94538
違者	-9.94549
言之	-9.9458
肩	-9.94582
訟	-9.94587
虜	-9.94697
斜	-9.94702
四千	-9.94753
貿易	-9.94814
風俗	-9.94819
詢	-9.94884
黄帝	-9.94961
分左右	-9.94987
贊引	-9.95124
強	-9.95129
二十六	-9.95173
三代	-9.95205
斥	-9.95212
潰	-9.95233
腹	-9.95236
軌	-9.95255
鑑	-9.95268
運河	-9.9534
正白旗	-9.9538
支給	-9.95409
補授	-9.95644
奉安	-9.95648
猛	-9.95733
淤	-9.9578
之際	-9.95807
常服	-9.95848
壓	-9.95853
文官	-9.95871
也故	-9.95882
禮記	-9.95891
大使	-9.95914
團	-9.9595
遐	-9.95985
荆州	-9.96041
又題準	-9.96088
挾	-9.96126
靣	-9.96145
煥	-9.96167
失察	-9.96228
紛	-9.96259
遽	-9.96326
昨	-9.96335
不當	-9.96361
文王	-9.96362
武官	-9.9637
復為	-9.96375
開列	-9.96392
偷	-9.96421
庶人	-9.96461
事件	-9.96566
不以	-9.96581
裝	-9.96591
光武	-9.96629
上司	-9.96642
殿上	-9.96774
妙	-9.96799
逰	-9.96808
二十人	-9.96861
隂陽	-9.96893
鑄錢	-9.96908
鐸	-9.97014
冲	-9.9709
函	-9.97098
舎人	-9.971
地震	-9.97119
裴	-9.97122
上言	-9.97126
惑	-9.97154
而下	-9.97157
加恩	-9.97333
聘	-9.97339
知之	-9.97346
故也	-9.97387
貝	-9.97411
世祖章皇帝	-9.97465
委署	-9.975
長官	-9.9754
廕	-9.97542
巧	-9.97571
金吾	-9.97627
棺	-9.97652
帽	-9.97704
炎	-9.97819
再拜訖	-9.97842
朱子	-9.97865
陳氏曰	-9.97956
常平	-9.97963
十有五	-9.97994
次第	-9.9807
東西相向	-9.98127
者俱	-9.98134
管領	-9.9815
報部	-9.98245
瑚	-9.98272
炳	-9.98294
大唐	-9.98395
霍	-9.98444
今後	-9.98463
盟	-9.98525
司祝	-9.98595
庶子	-9.9862
冠服	-9.98635
一應	-9.9868
府屬	-9.9871
殿前	-9.98817
東方	-9.98856
兼轄	-9.98866
鑲黄旗	-9.98893
逺近	-9.98895
厭	-9.98954
水旱	-9.98972
立定	-9.98984
家人	-9.99
稻	-9.99019
黔	-9.99055
甚多	-9.9906
旨	-9.99061
宣帝	-9.99063
交與	-9.99087
拂	-9.99106
禮直官	-9.99123
諭曰	-9.99157
一百三十	-9.99166
萬四千	-9.99173
脊	-9.99186
取其	-9.99195
宥	-9.99254
無疆	-9.99286
坫	-9.99289
前往	-9.99331
來屬	-9.99373
天寳	-9.99448
岐	-9.99452
所得	-9.99611
財物	-9.99836
軍士	-9.99837
贊者	-9.9992
禁止	-9.99927
三卷	-9.99936
五品以上	-9.9994
之初	-9.9996
訊	-9.99966
御前	-10.0003
一百四十	-10.0006
駐蹕	-10.0009
鈞	-10.0011
宸	-10.0015
綽	-10.0017
柩	-10.0021
七百	-10.0025
艱	-10.0025
讀書	-10.0026
髙宗	-10.0027
不等	-10.0031
也其	-10.0037
查明	-10.0037
彛	-10.0037
朝㑹	-10.0041
五名	-10.0041
殿中	-10.0044
烟	-10.0045
西階	-10.0047
上香	-10.0049
消	-10.0051
事宜	-10.0052
民田	-10.0052
眷	-10.0054
毋得	-10.0055
之徒	-10.0055
其年	-10.0059
六名	-10.006
麾	-10.0062
俯	-10.0062
綾	-10.0064
二千石	-10.007
由部	-10.0077
注云	-10.008
未能	-10.0081
九百	-10.0082
之服	-10.0082
褥	-10.0083
南巡	-10.0083
淮安	-10.0085
沃	-10.0092
然則	-10.0094
大軍	-10.0095
邵	-10.0096
摩	-10.01
自行	-10.0101
効	-10.0101
笞	-10.0107
安徽	-10.0108
一百八十	-10.0115
娶	-10.0118
死罪	-10.0122
諸生	-10.0122
不見	-10.0123
見於	-10.0124
氏世居	-10.0128
永平	-10.0129
暇	-10.0133
閭	-10.0134
重行	-10.0137
太蔟	-10.0141
外其	-10.0148
小民	-10.0152
九寸	-10.0152
旒	-10.0158
鑲紅旗	-10.016
奉恩將軍	-10.0168
階下	-10.0175
升為	-10.0176
錠	-10.0176
鑲藍旗	-10.0177
受爵	-10.0179
一面	-10.018
鈎	-10.0188
繙譯	-10.0191
杭	-10.0195
恭奉	-10.0196
咨部	-10.0198
安南	-10.0206
姑洗	-10.021
犯罪	-10.0213
豕	-10.0219
傍	-10.0223
兇	-10.0224
紐	-10.0231
武徳	-10.0232
修理	-10.0236
刷	-10.0242
雍正二年	-10.0246
少退	-10.0247
得其	-10.0251
彈	-10.0254
旌表	-10.0258
加一等	-10.0263
一百六十	-10.0266
賠	-10.0272
公事	-10.0273
恩賜雲騎尉世職	-10.0274
兼管	-10.0284
之典	-10.0284
大祀	-10.029
實録	-10.0293
蓄	-10.0296
又令	-10.0296
肥	-10.0296
十五日	-10.0297
繕	-10.0308
未免	-10.0318
樂器	-10.0322
原任	-10.0322
正藍旗	-10.0326
𤼵	-10.0333
撤	-10.0345
明洪武	-10.0349
舁	-10.0356
不便	-10.0356
二百五十	-10.0357
江淮	-10.0361
敘	-10.0365
城門	-10.0372
及諸	-10.0376
沁	-10.0383
九人	-10.0384
一十	-10.039
羽林	-10.0394
晦	-10.0394
皇祖	-10.0398
再行	-10.0404
進呈	-10.0406
抽	-10.0413
淹	-10.0418
崖	-10.0419
莽	-10.0424
𣙜	-10.0427
出征	-10.0429
遍	-10.0429
又諭	-10.0431
行省	-10.0433
墳	-10.0437
史記	-10.0438
小功	-10.0438
萬壽	-10.045
涇	-10.0451
靜	-10.0454
萬國	-10.0455
見在	-10.0456
九品	-10.0459
中書省	-10.0463
聖祖	-10.0464
因而	-10.0465
所奏	-10.047
忌	-10.0482
情形	-10.0483
浪	-10.0486
七日	-10.0487
臘	-10.0487
禧	-10.0488
正位	-10.049
雕	-10.0493
科道	-10.0494
疊	-10.0499
為首	-10.0501
本旗	-10.0503
叩	-10.0509
北向立	-10.0511
堂官	-10.0511
自今	-10.052
姪	-10.052
奴	-10.0521
宰臣	-10.0522
衢	-10.0526
緋	-10.0528
古之	-10.0539
寓	-10.0541
殤	-10.0544
乳	-10.0545
十名	-10.0546
鐡	-10.055
佃	-10.0553
不勝	-10.0561
輩	-10.0563
行文	-10.0566
雲騎尉	-10.0568
髙麗	-10.0569
談	-10.0572
騎射	-10.0572
親軍	-10.0573
樽	-10.0582
鑲白旗	-10.0589
題叅	-10.059
闡	-10.059
秒	-10.0599
佟	-10.0601
殺人	-10.0602
山縣	-10.0602
使臣	-10.0608
或以	-10.0608
溥	-10.0609
太僕寺	-10.0619
徐州	-10.0627
冐	-10.0628
巫	-10.0632
坦	-10.0638
燈	-10.0643
貟	-10.0656
之物	-10.0657
箱	-10.0659
準其	-10.0663
熙寧	-10.0668
晝	-10.0671
綠	-10.0676
倒	-10.0681
屆	-10.0682
衣服	-10.0691
岡	-10.0695
彩	-10.0701
作樂	-10.0703
一卷陳氏曰	-10.0715
終獻	-10.0717
魁	-10.0719
倭	-10.0723
偹	-10.0724
庚	-10.0729
該旗	-10.073
軫	-10.073
埋	-10.0742
的	-10.0743
兵部尚書	-10.0745
撥給	-10.0765
舊有	-10.0767
雍正	-10.0768
稿	-10.0769
元年正月	-10.0769
晨	-10.0769
雇	-10.077
片	-10.0777
奉上諭	-10.0784
翊	-10.0785
掃	-10.0791
配享	-10.0792
賛者	-10.0797
哨	-10.0804
刪	-10.0805
奏稱	-10.0812
競	-10.0815
蔵	-10.0816
又奏準	-10.0816
堰	-10.0818
錦州	-10.0818
苖	-10.0832
不相	-10.0835
其制	-10.0839
元和	-10.084
如何	-10.0841
膠	-10.0844
千户	-10.0849
瓊	-10.0852
殆	-10.086
頼	-10.0869
壤	-10.0876
順天	-10.0879
多寡	-10.0885
等事	-10.0895
令史	-10.0903
殺之	-10.0912
駁	-10.0916
豹	-10.0918
武王	-10.0922
駒	-10.0923
賽	-10.0927
布政使	-10.093
闕里	-10.0931
人户	-10.0932
外藩	-10.0938
也又	-10.0939
本色	-10.0948
潘	-10.0959
七寸	-10.096
㑹試	-10.0963
籠	-10.0964
塵	-10.0974
等語	-10.0981
不論	-10.0986
周官	-10.0988
之位	-10.0995
之盛	-10.0997
嫌	-10.1008
十六人	-10.1014
髪	-10.1024
觴	-10.1025
繖	-10.103
鎭	-10.1036
武功	-10.1039
毎年	-10.1041
沉	-10.1046
逓	-10.1046
州郡	-10.1051
事故	-10.1051
氊	-10.1054
瀆	-10.1057
壻	-10.1058
八寸	-10.1061
使人	-10.1062
三十五	-10.1063
島	-10.1065
二百四十	-10.1068
状	-10.107
戈	-10.1074
每旗	-10.1076
四十五	-10.1077
滯	-10.1078
灣	-10.1079
大赦	-10.1089
踐	-10.109
發遣	-10.11
每日	-10.1109
降㫖	-10.1109
給發	-10.111
冶	-10.1111
大理	-10.1113
奉先殿	-10.1114
阿爾	-10.1115
箇	-10.112
觶	-10.1123
綺	-10.1127
亦無	-10.1128
蘆	-10.1132
了	-10.1135
帝王	-10.1145
二十九	-10.1145
疇	-10.1147
鎮國公	-10.1148
宫中	-10.1149
檢校	-10.1152
騎都尉	-10.1154
太宗文皇帝	-10.1156
學者	-10.1159
若不	-10.1162
寃	-10.1162
牽	-10.1164
數十	-10.1178
鑾	-10.1183
爐	-10.1185
月犯	-10.1187
潭	-10.119
謹案	-10.1193
至今	-10.1194
妖	-10.1198
次日	-10.1205
擁	-10.1211
臻	-10.1215
軍營	-10.122
故曰	-10.122
正徳	-10.1236
傳曰	-10.1237
奉禮	-10.1238
掣	-10.1247
以来	-10.1249
據實	-10.1252
妥	-10.1257
㨗	-10.1258
伊犁	-10.1258
䟽	-10.1259
四尺	-10.126
湏	-10.1261
萬物	-10.1263
勺	-10.1267
四十八	-10.1267
匡	-10.1268
琳	-10.1271
以待	-10.1277
羃	-10.1277
不堪	-10.1279
古人	-10.1281
毋庸	-10.1282
覲	-10.1282
升殿	-10.1282
先師	-10.1287
持節	-10.1288
大次	-10.1288
之民	-10.129
港	-10.1291
玉帛	-10.1292
認	-10.1295
酌獻	-10.1296
曰某	-10.1304
往來	-10.1305
隣	-10.1307
系出	-10.1314
窩	-10.1316
王子	-10.132
迄	-10.1326
日期	-10.1328
朝賀	-10.1331
戮	-10.1345
之故	-10.1348
煙	-10.1348
灾	-10.1353
障	-10.1355
元帝	-10.1359
祀典	-10.1361
男女	-10.1366
二年正月	-10.1366
諸國	-10.1368
睦	-10.1368
未及	-10.1373
𠞰	-10.1373
中書令	-10.1374
贍	-10.1374
當差	-10.1378
一錢	-10.1379
尚有	-10.1379
上曰	-10.138
廩	-10.139
承㫖	-10.1392
咎	-10.1401
貢生	-10.1404
壯丁	-10.1416
學校	-10.1421
壝	-10.1425
吉林	-10.1434
可也	-10.1436
百日	-10.1441
東階	-10.1443
神宗	-10.1447
竈	-10.1452
十二卷	-10.1464
鬻	-10.1466
姜	-10.1472
對曰	-10.1478
父子	-10.148
廊	-10.1484
一寸	-10.1489
峻	-10.1489
我朝	-10.1496
殿内	-10.1497
扎薩克	-10.1498
浩	-10.1499
墜	-10.1501
凉	-10.1503
人數	-10.1506
販	-10.1506
州縣官	-10.1508
乾隆三十	-10.1519
酋	-10.1522
笑	-10.1527
更定	-10.1531
御史大夫	-10.1534
拏	-10.1544
六卷	-10.1547
亞	-10.1547
竄	-10.155
來京	-10.155
定為	-10.1552
可汗	-10.1554
仍照	-10.1555
六品以下	-10.1558
大樂	-10.1559
虹	-10.1561
弟子	-10.1561
玩	-10.1561
孝宗	-10.1564
不言	-10.1571
涉	-10.1573
讀祝	-10.1574
道路	-10.1577
右翼	-10.1583
之次	-10.1584
爽	-10.1588
傑	-10.1589
俘	-10.1592
知其	-10.1594
漳	-10.1595
邸	-10.1599
伸	-10.1599
三縣	-10.1606
染	-10.1624
迹	-10.1626
奏事	-10.1631
土司	-10.1633
譯	-10.1633
者多	-10.1635
斃	-10.1635
冊寳	-10.1637
不準	-10.1641
酉	-10.1648
漢書	-10.1654
革帶	-10.1655
兩淮	-10.1671
東至	-10.1673
億	-10.1679
䧟	-10.1687
縣人	-10.1689
配位	-10.1698
五城	-10.1698
保定	-10.1705
三品以上	-10.1707
是月	-10.1707
誓	-10.1711
依舊	-10.1712
矜	-10.1714
耕種	-10.1715
從事	-10.1722
狼	-10.1724
祁	-10.1731
京官	-10.1733
官及	-10.1736
議者	-10.1738
五行	-10.1739
王府	-10.1747
給銀	-10.1749
凡有	-10.1749
此書	-10.1749
柳	-10.1759
樂工	-10.176
馭	-10.1761
突厥	-10.1762
其一	-10.1765
萬兩	-10.1767
大吕	-10.1767
詰	-10.1775
五星	-10.1776
肯	-10.1777
覩	-10.178
禾	-10.1784
犀	-10.1785
祝文	-10.1791
所生	-10.1792
孚	-10.1793
匱	-10.1793
着	-10.1795
建炎	-10.1796
瑶	-10.1797
閑	-10.1799
冠者	-10.18
雉	-10.1802
三司	-10.1807
尚未	-10.1809
則以	-10.1812
文書	-10.1817
禽	-10.1823
八卷	-10.1828
成服	-10.1829
奕	-10.183
朔望	-10.1833
西向立	-10.1836
誌	-10.184
他人	-10.1845
即以	-10.1857
三十二	-10.1866
陪祀	-10.1868
庥	-10.187
明白	-10.1877
痛	-10.1891
已下	-10.1891
不得過	-10.1893
三次	-10.1893
之員	-10.1898
妻子	-10.1898
自古	-10.1898
擊之	-10.1899
者仍	-10.1899
㓜	-10.1903
司香	-10.1904
禮部侍郎	-10.1906
隆慶	-10.1913
一帶	-10.1914
居住	-10.1917
光禄寺	-10.1925
氷	-10.193
舖	-10.1938
侍從	-10.1941
成都	-10.1943
旗員	-10.195
王者	-10.1951
來朝	-10.1953
來歸	-10.1955
不可以	-10.1958
閑散	-10.196
僖	-10.1962
降復位	-10.1964
年老	-10.1973
不載	-10.1977
懇	-10.1982
五尺	-10.1982
大理寺	-10.199
謁者引	-10.1992
臺灣	-10.1994
桐	-10.1994
親詣	-10.1996
數年	-10.1999
先生	-10.2001
送部	-10.2004
扈從	-10.2004
内官	-10.201
西路	-10.2018
繹	-10.202
盥洗	-10.202
牐	-10.2024
眼	-10.2026
耿	-10.2028
告官	-10.2029
欽天監	-10.203
氐	-10.203
搜	-10.203
祭器	-10.2033
列於	-10.2034
太史	-10.2036
盥	-10.2039
分數	-10.2039
眉	-10.2042
賑濟	-10.2047
文曰	-10.2048
在西	-10.2048
千餘	-10.2052
迺	-10.2056
翔	-10.2057
弛	-10.2065
臣民	-10.2071
東西面	-10.2075
外省	-10.208
其名	-10.2083
增設	-10.2084
其數	-10.2086
三萬	-10.2089
庚子	-10.2092
不免	-10.2098
明帝	-10.2099
大明	-10.21
議奏	-10.2106
不宜	-10.2107
宣和	-10.2121
不致	-10.2123
一萬	-10.2127
六部	-10.2128
中軍	-10.213
首領	-10.2131
荀	-10.2132
玊	-10.2133
教官	-10.2135
字號	-10.2136
致仕	-10.2136
三十八年	-10.2142
箋	-10.2143
宛	-10.2145
歩軍	-10.2145
霸	-10.2146
聨	-10.215
元祐	-10.2152
未詳	-10.2157
赤道	-10.2162
選用	-10.2165
釘	-10.2167
洲	-10.2171
殿中監	-10.2172
乗輿	-10.2174
左門	-10.2177
萬二千	-10.2186
世襲	-10.2186
㫁	-10.2188
奬	-10.2188
上以	-10.2191
抗	-10.2197
左翼	-10.2201
既而	-10.2201
嚕	-10.2202
之年	-10.2207
札	-10.2212
以供	-10.2214
察出	-10.2217
謚	-10.222
浚	-10.2221
乘輿	-10.2232
郊廟	-10.2234
無可	-10.2235
入貢	-10.2238
泰山	-10.2241
開復	-10.2243
拏獲	-10.2244
不與	-10.2247
章京	-10.2248
矟	-10.2248
燔	-10.2255
㑹典	-10.2255
第十	-10.2275
太常博士	-10.2281
君臣	-10.2285
粉	-10.2285
二十日	-10.2287
狄	-10.2288
臨時	-10.2289
兩月	-10.2292
怠	-10.2293
亟	-10.2295
響	-10.2296
串	-10.2297
本省	-10.2299
銖	-10.2306
祼	-10.2314
棗	-10.2316
五卷	-10.2319
樂舞	-10.2319
貴妃	-10.232
一兩	-10.2327
嚴加	-10.2328
舅	-10.233
墻	-10.2333
告成	-10.2335
激	-10.2335
理藩院	-10.2342
於東	-10.2349
礦	-10.2349
晴	-10.2351
掌事者	-10.2352
貂	-10.2356
一併	-10.2366
和之曲	-10.2385
各州縣	-10.2388
詹事	-10.2389
軸	-10.2389
裘	-10.239
之本	-10.2392
鐫	-10.2401
在東	-10.2403
學生	-10.2409
添設	-10.2416
婁	-10.2418
三尺	-10.2421
鴻臚寺	-10.2426
亦可	-10.243
控	-10.2433
遵㫖	-10.2434
之期	-10.2448
迎神	-10.2453
豁免	-10.246
活	-10.246
鉞	-10.2467
亢	-10.2469
濮	-10.247
鹽課	-10.247
乾道	-10.2476
朋	-10.2478
保之妻	-10.2484
蹕	-10.2485
探	-10.2486
親屬	-10.2491
臯	-10.2492
囊	-10.2493
倣	-10.2502
婦女	-10.2505
瑟	-10.251
無射	-10.251
孟子	-10.2511
店	-10.2521
雲龍	-10.2524
難以	-10.2533
二字	-10.2535
毒	-10.2537
陳於	-10.2544
之利	-10.2548
上書	-10.2553
一二	-10.2553
班首	-10.256
祝史	-10.2562
灰	-10.2562
渉	-10.2563
北京	-10.2566
百萬	-10.2569
知情	-10.2575
玉幣	-10.2578
勑	-10.2579
到部	-10.2582
十斤	-10.2586
北上	-10.2586
如是	-10.2586
之妻𤓰勒佳	-10.2587
收貯	-10.259
二十名	-10.2591
長沙	-10.2596
河西	-10.2599
百餘	-10.26
㳺	-10.2603
十二人	-10.2608
神武	-10.2608
從者	-10.2614
謝恩	-10.262
冰	-10.2621
羲	-10.2623
十里	-10.2625
宗人府	-10.2628
祭之	-10.2631
旺	-10.2633
寔	-10.2646
崇徳	-10.265
孝武	-10.2651
幔	-10.2652
羞	-10.2655
偃	-10.2656
梓宫	-10.2658
粮	-10.266
二年二月	-10.2662
倘有	-10.2663
屍	-10.268
憲宗	-10.2688
詔書	-10.2688
應鍾	-10.2693
鐙	-10.2694
民之	-10.2694
改正	-10.2695
被災	-10.2695
於本	-10.2701
太平興國	-10.2704
開墾	-10.2705
豈可	-10.2707
百人	-10.271
以昭	-10.2711
學習	-10.2712
降輿	-10.2718
轎	-10.2722
永寧	-10.2728
至大	-10.273
度支	-10.2731
之半	-10.2731
三十一年	-10.2735
昻	-10.274
千秋	-10.274
見任	-10.274
纔	-10.2744
更名	-10.2744
陸續	-10.2745
秋審	-10.2748
七十二	-10.2751
飢	-10.2757
龕	-10.2759
灘	-10.2761
有大	-10.2763
鳥槍	-10.2765
辯	-10.2765
鄙	-10.2771
定額	-10.2772
以下皆	-10.2773
穴	-10.2774
見經類	-10.2776
鈐	-10.278
雩	-10.2781
鎮總兵	-10.2783
磨	-10.2792
十餘	-10.2806
人心	-10.2806
絡	-10.2806
儀禮	-10.2816
炭	-10.2819
丹墀	-10.2821
踏	-10.2822
禀	-10.2826
清河	-10.2828
其罪	-10.283
官屬	-10.283
歆	-10.2832
男子	-10.2834
印信	-10.2835
北郊	-10.2836
洩	-10.2836
数	-10.2838
闈	-10.2838
淫	-10.2843
東平	-10.2845
執笏	-10.2846
嚮	-10.285
隘	-10.2855
二州	-10.2865
水利	-10.2866
都督府	-10.2867
而止	-10.2868
洵	-10.287
一半	-10.2878
閤門	-10.2878
先儒	-10.2897
瀛	-10.2897
法司	-10.2902
代之	-10.2906
者將	-10.2908
送神	-10.2913
入於	-10.292
之費	-10.2925
悔	-10.2925
三省	-10.2927
鬭	-10.2931
聖駕	-10.2937
沂	-10.2938
緡	-10.2945
中書門下	-10.2948
三間	-10.295
中軍守備一人千總二人把總四人兵	-10.2953
仍以	-10.2953
眞	-10.2954
人皆	-10.2956
一件	-10.2958
林鍾	-10.296
如遇	-10.2973
而為	-10.2975
六千	-10.2975
洛陽	-10.2984
味	-10.2984
兵馬	-10.2985
之職	-10.2987
管轄	-10.2992
鑪	-10.2993
銷金	-10.2996
窺	-10.3
溜	-10.3
揆	-10.3011
曰此	-10.302
鳴鞭	-10.302
三百六十	-10.3025
行在	-10.3027
不至	-10.303
栢	-10.3034
匣	-10.3036
醢	-10.3037
銀一兩	-10.304
殿下	-10.3041
時有	-10.3043
巳	-10.3043
營兵	-10.3052
䑓	-10.3052
砦	-10.3055
衣冠	-10.3059
丑	-10.306
昇平	-10.3062
鋭	-10.3062
邇	-10.3069
湘	-10.3079
三十四	-10.3082
入就位	-10.3086
一對	-10.3087
黒龍江	-10.3094
紬	-10.3094
歉	-10.3106
提舉司	-10.3108
頭目	-10.311
北方	-10.3111
刼	-10.3112
限内	-10.3113
䕶軍叅領	-10.3115
士卒	-10.3117
各項	-10.3119
羡	-10.3122
凱	-10.3122
先王	-10.3133
閔	-10.3135
順治元年	-10.3138
昭穆	-10.3138
為上	-10.3142
南陽	-10.3144
漕糧	-10.3149
口糧	-10.3154
十疋	-10.3154
六尺	-10.3161
數百	-10.3162
售	-10.3168
立為	-10.317
愧	-10.3173
門之外	-10.3177
一百七十	-10.3183
尊長	-10.3188
自然	-10.3188
宫架	-10.3192
膏	-10.3193
内管領	-10.3197
僕射	-10.3199
諭㫖	-10.3199
一并	-10.3204
吟	-10.3204
隐	-10.3209
弧	-10.3209
服之	-10.3211
陋	-10.3213
也夫	-10.3222
牟	-10.3224
濁	-10.3227
大事	-10.3229
大抵	-10.3233
泛	-10.3234
盆	-10.3237
三年正月	-10.3243
悼	-10.3245
各以	-10.325
太陽	-10.325
訂	-10.3254
俞	-10.3256
有事	-10.3256
征明	-10.3259
諸將	-10.3261
犢	-10.3264
光禄卿	-10.3267
有罪	-10.3268
佐領下	-10.3273
如前	-10.3273
后土	-10.3276
宿衛	-10.3276
此次	-10.3278
霞	-10.3281
協律郎	-10.3281
汴	-10.3285
職掌	-10.3292
經理	-10.3295
禮儀使	-10.3299
鋒	-10.3299
原係	-10.33
簋	-10.3305
蛇	-10.3312
無論	-10.3315
之書	-10.3315
河道	-10.3317
事例	-10.3319
滇	-10.3322
始祖	-10.3325
文學	-10.3329
罔	-10.3332
蟒	-10.3335
減一等	-10.3335
土官	-10.3335
飾以	-10.3341
文章	-10.3343
該撫	-10.3343
不如	-10.3345
如故	-10.3347
宜令	-10.3348
遵行	-10.3348
恩詔	-10.3353
神座前	-10.3356
二曰	-10.3356
刃	-10.3357
蹟	-10.3357
可謂	-10.3357
鞫	-10.3359
千石	-10.3362
吐蕃	-10.3363
價銀	-10.3372
五等	-10.3374
縣丞	-10.3376
大水	-10.3376
蒸	-10.3378
功封	-10.3378
其言	-10.3379
而行	-10.338
平糶	-10.338
取之	-10.3381
一嵗	-10.3383
按察司	-10.3384
初置	-10.3384
不拘	-10.3388
僚	-10.3388
黄金	-10.3389
照數	-10.3392
執爵	-10.3393
吐	-10.3406
昧	-10.3408
唐制	-10.3409
即於	-10.341
建武	-10.3411
者許	-10.3412
英宗	-10.3418
書曰	-10.3419
損益	-10.342
應得	-10.3421
寧夏	-10.3424
帝曰	-10.3429
蔣	-10.343
四十九	-10.3431
停其	-10.3434
泊	-10.3436
安縣	-10.3448
右衛	-10.3453
冊寶	-10.3454
嘉定	-10.3454
辛未	-10.3455
自應	-10.3459
䕶軍㕘領	-10.3459
箕	-10.346
為宫	-10.3461
陽郡	-10.3463
鼐	-10.3472
奏銷	-10.348
潞	-10.3492
明日	-10.3495
𣲖	-10.3497
俯伏興	-10.35
徇	-10.3502
鄒	-10.3504
扈	-10.3523
檀	-10.3523
狐	-10.3536
劒	-10.3537
於西	-10.3538
之禁	-10.354
定議	-10.354
太皇太后	-10.3545
題請	-10.3547
不加	-10.355
三十九	-10.3553
各一員	-10.3555
議覆	-10.3558
亦以	-10.356
營都司一人	-10.3564
廉	-10.3566
議叙	-10.3566
浸	-10.3569
乂	-10.3574
逋	-10.3576
胄	-10.3582
也然	-10.3588
二尺	-10.3591
罪人	-10.3591
帥其屬	-10.3592
奉迎	-10.3592
轅	-10.3592
降襲	-10.3593
䕃	-10.3597
萬人	-10.3599
吉禮	-10.3608
衚衕	-10.3614
噐	-10.3615
十有一	-10.3618
朝貢	-10.3623
組	-10.3624
平陽	-10.3625
經歴	-10.3628
該督	-10.3628
之案	-10.3633
勦	-10.3633
御殿	-10.3637
幡	-10.3637
祉	-10.3637
就近	-10.3638
老人	-10.3641
其實	-10.3641
徹饌	-10.3642
僻	-10.3647
朝堂	-10.365
為大	-10.3651
竝	-10.3655
昇	-10.3655
人以	-10.3657
分獻官	-10.366
亦照	-10.3662
節度	-10.3666
坎	-10.367
也若	-10.3673
有奇	-10.3673
部院	-10.368
今之	-10.3681
宣宗	-10.3682
十餘年	-10.3682
皆用	-10.3688
百斤	-10.3691
掲	-10.3692
西方	-10.3692
叢	-10.3693
犬	-10.3695
以便	-10.3699
黄鍾之	-10.3702
前引	-10.3703
嬪	-10.3705
孝文	-10.3707
山陵	-10.3709
迭	-10.3711
得以	-10.3714
駮	-10.3715
庾	-10.372
繋	-10.372
屠	-10.372
咨送	-10.3725
議曰	-10.3726
槽	-10.3727
議定	-10.3727
會同	-10.3729
領縣二	-10.3731
大都	-10.3735
凱旋	-10.3737
者必	-10.3737
遼陽	-10.3737
之功	-10.3739
幷	-10.3741
天順	-10.3741
百二十	-10.3746
千人	-10.3746
乃以	-10.3748
採買	-10.3749
壇上	-10.3749
臣僚	-10.3751
安定	-10.3752
額爾	-10.3753
霜	-10.3762
向來	-10.3765
脅	-10.3774
十兩	-10.3782
政事	-10.3792
亥	-10.3794
卯	-10.3795
妻妾	-10.3796
衍聖公	-10.3797
相應	-10.3798
三十七	-10.3799
緦麻	-10.3799
樸	-10.38
圏	-10.38
四面	-10.3804
巴爾	-10.3804
按察使	-10.3809
漢文	-10.381
衷	-10.3811
留守	-10.3816
步軍	-10.3816
徼	-10.3819
神座	-10.3822
䕶衛	-10.3822
㓂	-10.3828
各營	-10.3828
殺傷	-10.3828
恭遇	-10.383
芻	-10.383
萬里	-10.3835
天之	-10.3839
入朝	-10.3839
譏	-10.3842
杆	-10.3843
匏	-10.3844
襄陽	-10.3845
闔	-10.3846
球	-10.385
三十九年	-10.3851
所由	-10.3859
迨	-10.3865
公私	-10.3867
榆	-10.3871
從其	-10.3872
幫	-10.3873
努	-10.3873
丹陛	-10.3876
一家	-10.3876
一道	-10.3878
之則	-10.3881
多羅	-10.3883
繇	-10.3886
左衛	-10.3888
参	-10.3889
先聖	-10.3889
旣	-10.3897
銅錢	-10.3897
泗	-10.3903
怪	-10.3906
鼓鑄	-10.3908
作為	-10.3909
律吕	-10.3911
二十七日	-10.3911
上元	-10.3914
鞏	-10.3914
多爾濟	-10.3918
武舞	-10.392
襲封	-10.3921
兑	-10.3921
煬帝	-10.3924
故殺	-10.3926
敬謹	-10.3927
跪進	-10.3932
五間	-10.3934
察覈	-10.3935
乾清門	-10.3936
間有	-10.3936
暮	-10.3944
十有八	-10.3946
狹	-10.3953
己未	-10.3953
差官	-10.3955
叟	-10.3956
護	-10.3957
萬一千	-10.3961
舄	-10.3963
巡幸	-10.3967
帝即位	-10.3969
設於	-10.3971
額外	-10.3972
系	-10.3973
仍舊	-10.3975
鞾	-10.3976
金川	-10.398
一在	-10.3981
親臨	-10.3984
瓶	-10.3985
繒	-10.3985
斧	-10.3986
參軍	-10.3986
承辦	-10.3988
南吕	-10.3993
徴收	-10.3996
厄魯特	-10.3998
軍務	-10.4
貶	-10.4001
璋	-10.4002
后稷	-10.4003
司農	-10.4003
刑名	-10.4006
皆如	-10.4014
鑲	-10.4018
為主	-10.4021
宣慰司	-10.4022
三十六年	-10.4022
疏曰	-10.4024
十匹	-10.4029
多少	-10.403
罷之	-10.4034
造冊	-10.4035
皇貴妃	-10.4035
通典	-10.4036
幢	-10.4039
旗一	-10.4039
則不	-10.4043
塊	-10.4045
栗	-10.4046
不然	-10.4047
鉶	-10.4048
十三日	-10.405
其上	-10.405
自此	-10.4055
本處	-10.4057
縫	-10.4058
盥手	-10.4059
返	-10.406
夾鍾	-10.4062
二釐	-10.4071
為從	-10.4073
互相	-10.4077
考官	-10.408
暈	-10.408
五十六	-10.4085
有犯	-10.4085
壬午	-10.4086
制書	-10.4087
預備	-10.4087
萃	-10.4088
鑾儀衛	-10.409
升壇	-10.409
光禄	-10.4092
凡遇	-10.4092
六十四	-10.4096
五兩	-10.41
太傅	-10.4106
侈	-10.4113
即令	-10.4113
叩頭	-10.4113
司道	-10.4115
其家	-10.4117
成帝	-10.4123
侍儀	-10.4131
重者	-10.4132
所請	-10.4132
民生	-10.4132
一凡	-10.4132
次年	-10.4133
所部	-10.4133
培	-10.4144
悟	-10.4147
十有六	-10.4147
潁	-10.4149
情願	-10.4149
又於	-10.415
揭	-10.4152
王莽	-10.4155
考取	-10.4155
黄門侍郎	-10.4155
鈴	-10.4157
某官	-10.4165
開寳	-10.4166
丁丑	-10.4168
原封	-10.417
真定	-10.4173
罰俸	-10.4174
偉	-10.4177
京兆	-10.4181
月令	-10.4189
士子	-10.4191
不肯	-10.4191
渥	-10.4193
一百九十	-10.4195
里南至	-10.4195
遲延	-10.4198
百户	-10.4202
領縣三	-10.4202
二百二十	-10.4203
宋史	-10.4204
拆	-10.4206
諸儒	-10.4207
改設	-10.4212
職事	-10.4215
各依	-10.422
天子之	-10.422
僭	-10.4227
諧	-10.4231
西京	-10.4231
永安	-10.4237
遣官致祭	-10.424
㢘	-10.4242
籥	-10.4243
於太廟	-10.4244
監司	-10.4244
蓬	-10.4247
其法	-10.425
孝經	-10.4254
貺	-10.426
駿	-10.426
十餘萬	-10.4262
諸色	-10.4264
夘	-10.4266
等縣	-10.4267
般	-10.4269
臧	-10.427
評	-10.4272
皆不	-10.4273
外其餘	-10.4274
次於	-10.4278
率衆	-10.4278
畫一	-10.4279
届	-10.4283
甲辰	-10.4285
漕運	-10.4286
酌定	-10.429
檐	-10.4292
下馬	-10.4293
移駐	-10.4295
隨行	-10.43
寝	-10.4302
一疋	-10.4304
並如	-10.4306
闊	-10.4307
不通	-10.4309
向例	-10.4309
䕫	-10.4309
伎	-10.4314
熱河	-10.4319
為名	-10.432
衙	-10.4324
之妻張	-10.4326
四員	-10.4331
法駕	-10.4337
三曰	-10.4337
中都	-10.4344
丙	-10.4345
後為	-10.4346
金石	-10.435
大典	-10.4351
布政使司	-10.4354
鬯	-10.4355
盛典	-10.4356
一刻	-10.4361
枉	-10.4361
上年	-10.4362
升降	-10.4364
濯	-10.4372
不從	-10.4373
承祭官	-10.4376
躋	-10.438
第六	-10.438
譚	-10.4381
家長	-10.4384
原籍	-10.4386
俄	-10.439
㳟	-10.4393
經過	-10.4395
卧	-10.4398
考之	-10.4399
九州	-10.4401
晚	-10.4401
侍御史	-10.4401
其書	-10.4402
受冊	-10.4405
准此	-10.4406
商賈	-10.441
中統	-10.4411
南海	-10.4411
恢	-10.4418
滌	-10.442
方物	-10.4428
例議處	-10.4432
縣知縣	-10.4433
即將	-10.4434
棍	-10.4434
各置	-10.4434
枷	-10.4435
疲	-10.4437
各給	-10.444
北極	-10.4443
三十七年	-10.4444
境内	-10.4445
降一級調用	-10.445
冗	-10.4453
謹按本朝定制	-10.4454
流民	-10.4454
無事	-10.4462
交部	-10.4465
此皆	-10.4466
有無	-10.4466
定擬	-10.4468
四拜	-10.4468
讞	-10.447
筮	-10.4471
並不	-10.4473
皆為	-10.4474
庚辰	-10.4475
通考	-10.4477
不盡	-10.4478
河工	-10.4481
慶賀	-10.4488
臨清	-10.4488
濵	-10.449
四十人	-10.4493
一座	-10.4498
摺	-10.45
東門	-10.4502
太極	-10.4508
又詔	-10.4511
武宗	-10.4514
掘	-10.4515
此則	-10.4517
床	-10.4517
情實	-10.4519
潢	-10.452
詭	-10.452
芒	-10.4522
刑部尚書	-10.4525
遊擊	-10.4527
滿洲䝉古	-10.453
引河	-10.4532
里北至	-10.4532
者或	-10.4536
潜	-10.454
天聰	-10.454
亦同	-10.4541
緬	-10.4541
羙	-10.4543
忱	-10.4545
一部	-10.4546
敖	-10.4549
奉諭	-10.4552
三十一	-10.4554
實為	-10.4554
周制	-10.4555
致死	-10.4558
曰吾	-10.4558
一丈	-10.456
折銀	-10.4561
一石	-10.4565
其下	-10.4566
堆	-10.457
綜	-10.4571
貢方物	-10.4575
少府	-10.458
揑	-10.458
中道	-10.4581
家口	-10.4583
之恩	-10.4587
一斤	-10.4588
禮物	-10.4588
康熙四十	-10.459
司庫	-10.459
四十年	-10.459
知州	-10.4594
套	-10.4602
七名	-10.4602
以出	-10.4605
之理	-10.4607
昊天上帝	-10.4609
兩浙	-10.4613
毓	-10.4621
慢	-10.4622
雍正三年	-10.4623
西上	-10.4625
不一	-10.4633
苛	-10.4634
每石	-10.4636
不易	-10.4637
棚	-10.4638
房屋	-10.4641
封爵	-10.4643
軍功	-10.4644
賄	-10.4647
如式	-10.4647
元帥	-10.4647
恬	-10.465
四十二	-10.4651
前跪	-10.4652
裂	-10.4652
兩省	-10.4653
管理續以	-10.4654
承天	-10.4662
𦂳	-10.4669
茲	-10.4672
數萬	-10.4677
袖	-10.4679
姬	-10.4685
將士	-10.4686
以俟	-10.4687
建昌	-10.4687
諸部	-10.4688
遏	-10.4688
在内	-10.4695
真宗	-10.4696
八品	-10.4704
經義	-10.4705
罪止	-10.471
答拜	-10.4717
質明	-10.4719
天命	-10.4723
御史中丞	-10.4723
水師	-10.4725
竊盜	-10.4728
昊	-10.4731
不入	-10.4732
艾	-10.4734
助教	-10.4738
愆	-10.4741
揀選	-10.4743
時以	-10.4743
東海	-10.4745
一條	-10.4745
漁	-10.4749
正殿	-10.4753
於上	-10.4755
案於	-10.4758
册寶	-10.476
祭文	-10.4761
完結	-10.4762
叅將	-10.4764
中書舍人	-10.4765
祭天	-10.4769
葦	-10.477
三獻	-10.4772
大清	-10.4772
户部尚書	-10.4773
渤海	-10.4774
上表	-10.4774
文舞	-10.4775
臚	-10.4775
鏤	-10.4776
乙酉	-10.4777
謁者引太尉	-10.478
申報	-10.4781
貲	-10.4786
一首	-10.4788
所居	-10.4789
照舊	-10.4792
十有三	-10.4796
取中	-10.4801
鞍	-10.4805
外任	-10.4807
左庶子	-10.4808
溺	-10.4818
午門	-10.4824
盜賊	-10.4828
奠於	-10.4828
導引	-10.4836
劣	-10.4836
殿庭	-10.4837
蘇州	-10.4843
五萬	-10.4844
奠爵	-10.4845
文武百官	-10.4846
鴈	-10.4847
職名	-10.4847
蕃王	-10.4849
元年二月	-10.485
世爵	-10.4851
以次出	-10.4853
蓮	-10.4854
風雨	-10.4854
不出	-10.4857
又云	-10.4858
涵	-10.4861
東京	-10.4865
請以	-10.4867
寸二分	-10.487
不設	-10.487
牘	-10.4874
穹	-10.4875
其文	-10.4876
八尺	-10.4876
漕船	-10.4876
三十五年	-10.4877
所轄	-10.488
聞之	-10.4884
改置	-10.4884
㡌	-10.4885
棉	-10.4886
胙	-10.4889
攷	-10.4891
千二百	-10.4896
文職	-10.4897
聰	-10.4899
額數	-10.4899
一人掌	-10.4902
縣地	-10.4905
恕	-10.4908
樞宻院	-10.4911
女官	-10.4911
違限	-10.4913
簷	-10.4922
不可不	-10.4924
然而	-10.4924
太白犯	-10.4925
曰朕	-10.4931
一律	-10.4933
剿	-10.494
汲	-10.4941
後殿	-10.4941
又言	-10.4942
妨	-10.4949
拾	-10.4951
成王	-10.4959
無異	-10.4962
數千	-10.4964
其次	-10.4968
次詣	-10.497
太保	-10.4978
出次	-10.4979
軒轅	-10.498
電	-10.498
統領	-10.498
罍	-10.4983
又置	-10.4985
映	-10.4986
措	-10.4988
奏曰	-10.4988
該員	-10.4989
三十三	-10.4992
檄	-10.4995
三旗	-10.4996
曜	-10.5
歸於	-10.5002
買補	-10.5003
奏報	-10.5004
皆同	-10.5006
今嵗	-10.5008
簡選	-10.501
樊	-10.5012
儀同	-10.5014
屬官	-10.5019
賞賚	-10.5024
祜	-10.5028
辛巳	-10.5032
雖不	-10.5032
僧道	-10.5035
徽宗	-10.5035
功徳	-10.504
需用	-10.5046
三十人	-10.5049
北向西上	-10.5049
器械	-10.5051
烝	-10.5051
徴銀	-10.5055
聿	-10.5055
裹	-10.5062
大禮	-10.5063
太僕	-10.5064
様	-10.5065
汾	-10.5071
慶元	-10.5074
飲食	-10.5074
收買	-10.5076
東都	-10.5076
五經	-10.5082
恣	-10.5087
太宰	-10.5089
萬方	-10.509
一千二百	-10.5093
濟南	-10.5093
四年正月	-10.5093
府州	-10.5095
餘皆	-10.5095
諸衛	-10.5097
人所	-10.5099
之始	-10.5107
宗正	-10.5107
不忍	-10.5112
五官	-10.512
戾	-10.5121
其衆	-10.5126
順帝	-10.5132
其義	-10.5137
十畝	-10.5138
淳熙	-10.5139
位前	-10.5144
高祖	-10.5145
鄭氏	-10.5146
之祭	-10.5146
鷹	-10.5155
倉庫	-10.5156
徳州	-10.5157
詳定	-10.5157
之妻李	-10.5169
表裏	-10.517
辱	-10.517
齋郎	-10.5172
兖	-10.5172
贊禮郎	-10.5173
席於	-10.5173
留任	-10.5175
陜	-10.5175
暉	-10.5178
兩五錢	-10.5179
之君	-10.518
愍	-10.5187
喬	-10.519
永昌	-10.5197
存留	-10.5198
王公大臣	-10.5202
妃嬪	-10.5205
中書侍郎	-10.5206
褥位	-10.5207
長一丈	-10.5208
以金	-10.5211
其父	-10.5211
又按	-10.5212
用兵	-10.5213
各旗	-10.5214
宣制	-10.5214
溯	-10.5215
至徳	-10.522
城内	-10.5221
猪	-10.5222
南方	-10.5226
臂	-10.5226
徒一年	-10.5232
霄	-10.5232
致齋	-10.5234
請於	-10.524
琿	-10.5241
分引	-10.5244
學官	-10.5245
三十八	-10.5245
貨物	-10.5246
如此則	-10.525
四十五年	-10.5251
無窮	-10.5254
於民	-10.5256
從官	-10.5261
覆奏	-10.5261
西東向	-10.5262
忍	-10.5266
三十四年	-10.5273
廼	-10.5279
本身	-10.5279
平縣	-10.5279
韜	-10.5281
荅	-10.5282
玉輅	-10.5282
其屬	-10.5282
夷則	-10.5283
九尺	-10.5284
門下	-10.5286
睿宗	-10.5295
事者	-10.5296
祖父	-10.5298
經畧	-10.53
保舉	-10.5301
計贓	-10.5301
於廟	-10.5305
鉅	-10.5306
南直𨽻	-10.5307
昂	-10.5309
傷人	-10.5313
而有	-10.532
大成	-10.5328
森	-10.5328
領縣一	-10.533
統轄	-10.5331
工部尚書	-10.5331
砂	-10.5331
淨	-10.5335
石塘	-10.5335
者其	-10.5337
各服其服	-10.5339
東西向	-10.534
中丞	-10.5341
該處	-10.5342
先農	-10.5346
虐	-10.5353
厨	-10.5354
奢	-10.5354
絰	-10.5358
該地方官	-10.5359
降二級調用	-10.5366
仇	-10.5371
揺	-10.5373
田地	-10.5375
安撫司	-10.5379
粗	-10.5387
五十年	-10.539
沾	-10.539
神牌	-10.5391
世孫	-10.5398
兩翼	-10.54
所出	-10.5401
尅	-10.5403
簽	-10.5406
將來	-10.5409
宫縣	-10.5416
一斗	-10.5422
元旦	-10.5423
甎	-10.5424
以及	-10.5425
燦	-10.5427
喇嘛	-10.543
其説	-10.5438
多羅貝勒	-10.5438
東上	-10.5439
仿	-10.5439
大徳	-10.5441
悲	-10.5443
堵	-10.5443
每名	-10.5444
快	-10.5444
賞銀	-10.5445
稱賀	-10.5448
大觀	-10.5449
鎮守	-10.545
爛	-10.545
康熙三十	-10.5454
約束	-10.5454
夫子	-10.5454
草木	-10.5455
又再拜	-10.5459
奥	-10.546
捷	-10.5461
握	-10.5465
十有四	-10.5466
議敘	-10.547
品官	-10.547
譽	-10.548
人民	-10.5492
虧空	-10.5493
沿途	-10.5495
修撰	-10.5496
沮	-10.5498
不足以	-10.5498
嚴行	-10.5499
唐虞	-10.5499
廷臣	-10.5501
紅羅	-10.5507
之長	-10.5507
鄭𤣥	-10.5508
禋	-10.551
罰俸六月	-10.551
不絶	-10.551
夏至	-10.5511
臨軒	-10.5511
應令	-10.5512
熒惑犯	-10.5512
柏	-10.5516
以其子	-10.5517
髮	-10.5519
惕	-10.5522
監臨	-10.5524
其弟	-10.5527
行人	-10.5531
辛丑	-10.5534
被水	-10.5535
故云	-10.554
游擊	-10.5542
五里	-10.5544
蹈	-10.5546
閭閻	-10.5552
汶	-10.5553
二十萬	-10.5555
一事	-10.5562
因事	-10.5564
府尹	-10.5564
此項	-10.5566
七千	-10.5569
陂	-10.5571
執政	-10.5571
爾雅	-10.5573
趣	-10.5574
前鋒校	-10.5575
涼	-10.558
謀殺	-10.5581
一經	-10.5582
景帝	-10.5585
時刻	-10.5586
摘	-10.5588
焦	-10.5588
雍正七年	-10.5591
髙下	-10.5592
於後	-10.5592
奉命	-10.5593
三十二年	-10.5595
應照	-10.5596
蠻夷	-10.5599
兩旁	-10.56
脫	-10.5601
六十五	-10.5604
私鑄	-10.5606
武舉	-10.5606
齋宫	-10.5606
廣州	-10.5606
崇禎	-10.5608
宗即位	-10.5608
中間	-10.5613
二百八十	-10.5616
文宗	-10.5616
乾隆二年	-10.5618
掌印	-10.562
八千	-10.5622
千萬	-10.5624
魏晉	-10.5625
本寺	-10.5626
病故	-10.5631
粥	-10.5634
各就位	-10.5637
所殺	-10.5641
逐一	-10.5641
諒	-10.5643
軍事	-10.5643
總理	-10.5643
砌	-10.5646
禎	-10.5647
敇	-10.5647
拊	-10.5648
不報	-10.565
阿之妻	-10.5654
左傳	-10.5657
堂上	-10.5657
國語	-10.5659
先行	-10.5661
書院	-10.5661
自首	-10.5664
卿大夫	-10.5667
本紀	-10.5668
縗	-10.5669
尖	-10.5669
實在	-10.5672
上都	-10.5674
其時	-10.5674
諡文	-10.5678
鋪作	-10.5679
官有	-10.5683
看守	-10.5685
未必	-10.5691
四字	-10.5693
十萬石	-10.5694
五釐	-10.5696
夥	-10.5697
暑	-10.5701
黼	-10.5702
倡	-10.5703
索倫	-10.5703
交易	-10.5703
驕	-10.5704
軍流	-10.5706
六釐	-10.5708
以爵	-10.5709
擊敗	-10.5711
故以其弟	-10.5713
丁未	-10.5722
奏樂	-10.5725
應試	-10.5727
安西	-10.5728
攤	-10.5732
臣某	-10.5735
列聖	-10.5735
每一	-10.5737
劇	-10.5737
所作	-10.5739
可知	-10.5742
搆	-10.5744
上命	-10.5746
噶爾	-10.5746
八釐	-10.5746
旗下	-10.5747
酌酒	-10.575
指揮使	-10.5752
轉運	-10.5755
甄	-10.5756
官至	-10.5757
者曰	-10.5758
畤	-10.5758
不肖	-10.5759
所言	-10.5761
月食	-10.5765
嵗星	-10.5766
回部	-10.5767
稽查	-10.5769
至日	-10.5776
儼	-10.5776
兩廡	-10.5781
一字	-10.5786
見史類	-10.5788
四釐	-10.5789
分給	-10.5789
之左右	-10.579
諸郡	-10.5791
折色	-10.5791
公同	-10.5792
泣	-10.5795
祖父母父母	-10.5796
物料	-10.5796
道府	-10.5796
歎	-10.5799
衙署	-10.5799
之實	-10.5801
備用	-10.5802
王以下	-10.5802
左輔	-10.5808
之女	-10.5809
一實	-10.5812
餘兩	-10.5812
遮	-10.5813
田租	-10.5815
該省	-10.5816
王公百官	-10.5816
鱗	-10.5817
朕意	-10.5818
晝夜	-10.5819
瀋陽	-10.582
聲明	-10.5821
原額	-10.5821
社倉	-10.5827
楷	-10.5831
戌	-10.5832
中和	-10.5833
贊禮	-10.5834
粒	-10.5834
弑	-10.5837
地平	-10.5839
尊卑	-10.5845
鞭一百	-10.5847
冝	-10.5848
皇城	-10.5855
公子	-10.5855
私鹽	-10.586
皇孫	-10.5867
滕	-10.5868
喻	-10.587
等奏	-10.5871
饑民	-10.5871
吏部侍郎	-10.5872
朝夕	-10.5872
躍	-10.5872
恩賜	-10.5872
跪受	-10.5873
官一人	-10.5874
位在	-10.5875
肄業	-10.5876
以時	-10.5876
栱	-10.5876
楞	-10.5877
牛羊	-10.5877
二府	-10.5877
情罪	-10.588
開封	-10.5881
鎮江	-10.5882
礟	-10.5883
哈達	-10.5885
尚儀	-10.5889
磁	-10.589
之末	-10.5891
不時	-10.5896
中軍守備一人	-10.5897
今據	-10.5899
佳氏	-10.5905
案前	-10.5909
大業	-10.5909
時享	-10.591
葵	-10.5911
奇	-10.5912
二年三月	-10.5913
題補	-10.5916
造册	-10.5917
配天	-10.5918
郡地	-10.5926
株	-10.5928
題准	-10.593
及第	-10.593
萬緡	-10.5932
修築	-10.5932
大學	-10.5933
著加恩	-10.5939
都御史	-10.5939
之說	-10.5942
禘祫	-10.5948
之餘	-10.5949
軍節度	-10.5951
傘	-10.5957
貌	-10.5958
是嵗	-10.5959
長吏	-10.5959
候補	-10.5961
吿	-10.5962
暗	-10.5965
驢	-10.5966
巷	-10.5966
所需	-10.5969
況	-10.597
翻	-10.5971
降階	-10.5972
兩京	-10.5974
進酒	-10.5977
常朝	-10.5979
毛血	-10.5979
人情	-10.5981
庚戌	-10.5985
則是	-10.5985
明史	-10.5986
同上	-10.5986
兖州	-10.5987
不實	-10.5995
惟是	-10.5999
無益	-10.5999
羮	-10.6
版位	-10.6002
聖主	-10.6003
出師	-10.6006
國用	-10.6007
恭進	-10.6008
年諡	-10.6009
直𨽻州	-10.6009
狩	-10.6016
樂懸	-10.6016
百五十	-10.6017
四十名	-10.6017
五十五	-10.6018
菴	-10.602
月初一日	-10.602
四十九年	-10.6021
水勢	-10.6022
諳	-10.6023
翰林學士	-10.6024
甚衆	-10.6026
其聲	-10.6027
考滿	-10.6028
並令	-10.6031
坡	-10.6035
陟	-10.6036
漂	-10.6039
剪	-10.6044
列侯	-10.6045
未盡	-10.6046
几筵	-10.6047
復以	-10.6047
義倉	-10.605
初虧	-10.6053
桌	-10.6056
有三	-10.6056
領侍衛内大臣	-10.6057
紳	-10.6057
本管	-10.6061
責成	-10.6061
鞠躬	-10.6062
碑文	-10.6069
城中	-10.607
徒二年	-10.6074
聖徳	-10.6077
雍正五年	-10.6083
立法	-10.6085
擇日	-10.6086
四曰	-10.609
松山	-10.6094
止於	-10.6095
侑	-10.6097
府學	-10.6098
獻爵	-10.6101
祕書	-10.6102
二年四月	-10.6104
戊申	-10.6106
儒學	-10.6106
暖	-10.6108
一篇	-10.6114
弓箭	-10.6118
其職	-10.6118
進賢	-10.6118
己酉	-10.6121
千五百	-10.6122
滑	-10.6124
星去極	-10.6128
旗分	-10.6137
窄	-10.614
丙午	-10.6141
莭	-10.6141
三年二月	-10.6143
蔚	-10.6145
伯叔	-10.6145
雅樂	-10.6155
行至	-10.6155
順治	-10.6156
歿	-10.6156
之至意	-10.6156
侍臣	-10.6159
廻	-10.616
成功	-10.6161
景泰	-10.6161
督撫提鎮	-10.6164
奉國將軍	-10.6164
應升	-10.6165
三刻	-10.6166
貢使	-10.6168
始於	-10.6168
之任	-10.617
口外	-10.6175
敗之	-10.6176
移咨	-10.6176
各屬	-10.618
賞罰	-10.6181
為奴	-10.6183
則為	-10.6183
七廟	-10.6189
甲午	-10.6189
西門	-10.6191
入門	-10.6193
民力	-10.6193
九名	-10.6195
淳化	-10.6196
搶	-10.6196
之政	-10.62
衆官	-10.6201
未可	-10.6201
支領	-10.6205
侍立	-10.6208
新舊	-10.6212
祠祭	-10.6213
兊	-10.6214
睢	-10.6214
雁	-10.622
慧	-10.6221
第七	-10.6225
復圓	-10.6226
佐領係	-10.6228
行三跪九叩禮	-10.6234
壮	-10.6234
賊衆	-10.6235
而還	-10.6236
員外	-10.6237
山海闗	-10.6237
硃	-10.6238
照依	-10.624
戊	-10.624
是書	-10.6241
元年四月	-10.6244
條奏	-10.6245
梯	-10.6246
自為	-10.6247
濟寧	-10.6247
氏正白旗滿洲	-10.6248
伏以	-10.6249
為首者	-10.6253
外官	-10.6253
八十一	-10.6255
嗣立	-10.6255
朕心	-10.6257
二百七十	-10.6262
所定	-10.6262
五十四	-10.6263
外國	-10.6263
於壇上	-10.6264
已有	-10.6266
非常	-10.6269
北平	-10.6269
鬬	-10.6273
模	-10.6279
踵	-10.628
攝事	-10.6285
於前	-10.6285
克圖	-10.6286
裙	-10.6291
人君	-10.6292
之學	-10.6293
州界	-10.6294
天神	-10.6296
相去	-10.6301
秦漢	-10.6303
𦂳要	-10.6304
阮	-10.6304
降自西階	-10.6304
四十六	-10.6305
仲春	-10.6306
而未	-10.6314
乙巳	-10.6319
勘合	-10.632
等議	-10.632
薊	-10.6322
詎	-10.6323
等第	-10.6323
破之	-10.6324
國史	-10.6324
乾坤	-10.6325
纂修	-10.6326
一章	-10.6327
三師	-10.6329
年間	-10.6332
多有	-10.6334
丁憂	-10.6338
癸酉	-10.6341
大中祥符	-10.6341
狗	-10.6341
遂以	-10.6343
賡	-10.6347
乙未	-10.6347
之計	-10.6348
並未	-10.6349
在左	-10.635
芬	-10.6355
繆	-10.6359
舊章	-10.6359
其他	-10.636
艘	-10.636
戊辰	-10.6362
有二	-10.6363
北靣	-10.6369
人材	-10.6371
保甲	-10.6371
稽古	-10.6372
奉禮郎	-10.6372
装	-10.6376
船隻	-10.6387
寧逺	-10.6387
者聽	-10.6389
皆仍	-10.6389
駙馬	-10.6389
二十四人	-10.6395
研	-10.6398
有益	-10.6401
門下侍郎	-10.6404
都統副都統	-10.6405
製造	-10.6405
黄門	-10.6406
降調	-10.6408
㕘將	-10.6409
職銜	-10.641
覃	-10.641
想	-10.6417
於壇	-10.6419
帝以	-10.6421
四十七	-10.6432
千兩	-10.6434
叠	-10.6439
出納	-10.6442
㑹議	-10.6446
一千五百	-10.6448
本犯	-10.645
必須	-10.645
陞座	-10.6455
頤	-10.6457
邢	-10.6458
礙	-10.6459
年八月	-10.6462
城外	-10.647
若夫	-10.6473
使之	-10.6475
讐	-10.6478
御極	-10.6481
條例	-10.6483
十八日	-10.6483
大將	-10.6484
萊	-10.6485
海陵	-10.6485
事發	-10.6487
曲阜	-10.6489
觀察使	-10.6491
搭	-10.6491
蠟	-10.6493
技	-10.6493
周易	-10.6494
誼	-10.6494
所當	-10.6495
文獻通考卷	-10.6496
祖母	-10.6496
呈報	-10.6496
愷	-10.65
總管府	-10.6503
簧	-10.6506
氏正黄旗滿洲	-10.6507
豈不	-10.6508
特穆爾	-10.6511
両	-10.6514
蘄	-10.6516
徒流	-10.6518
脱逃	-10.652
者又	-10.6522
案件	-10.6523
山東河南	-10.6526
不獲	-10.6528
沿海	-10.6529
半年	-10.653
二百三十	-10.6531
千古	-10.6532
雨雹	-10.6532
瓜	-10.6533
盞	-10.6533
貼金	-10.6534
至于	-10.6535
形勢	-10.6535
瓚	-10.6536
年月	-10.6537
劵	-10.6537
副将	-10.6538
䓁	-10.6538
碎	-10.6539
伯克一人	-10.654
二百六十	-10.654
涸	-10.6541
供奉	-10.6543
引禮	-10.6546
納采	-10.6551
動支	-10.6553
誣告	-10.6555
水陸	-10.6555
恭領	-10.6556
矯	-10.6556
朶	-10.6556
奉表	-10.6557
四十四	-10.6557
天文	-10.656
特命	-10.656
皥	-10.6562
亦曰	-10.6563
康熙五十	-10.6566
令丞	-10.6569
于是	-10.6572
福州	-10.6576
小學	-10.6579
先帝	-10.6581
照常	-10.6582
鎮撫	-10.6582
廷尉	-10.6585
股	-10.6588
簪	-10.6588
幃	-10.6591
漢中	-10.6591
三老	-10.6591
贊引引	-10.6593
殿門	-10.6596
俱照	-10.6597
生事	-10.6597
鄴	-10.6598
處所	-10.6598
伺	-10.6598
墊	-10.6599
捉	-10.66
廣平	-10.6603
噶爾丹	-10.6605
受之	-10.6605
彤	-10.6608
之律	-10.6608
旛	-10.661
案内	-10.6612
郊社令	-10.6616
隙	-10.6617
在右	-10.6618
之主	-10.6619
彬	-10.6619
左氏	-10.662
螭	-10.662
迷	-10.6622
百兩	-10.6624
配帝	-10.6625
祭日	-10.6627
圈	-10.6629
合於	-10.6633
可見	-10.6633
自有	-10.6633
監候	-10.6634
遣人	-10.6634
可得	-10.6635
之患	-10.6637
之世	-10.6639
㑹稽	-10.664
入學	-10.6641
因循	-10.6643
丙辰	-10.6644
或曰	-10.6645
昴	-10.6646
公孫	-10.6649
别有	-10.665
尋常	-10.6651
長樂	-10.6652
虡	-10.6654
人世居	-10.6656
疏請	-10.6657
録事	-10.6658
袋	-10.6659
㤙	-10.666
四縣	-10.6662
己亥	-10.6664
建隆	-10.6666
天地之	-10.667
黍稷	-10.667
大風	-10.6672
存貯	-10.6677
日給	-10.6677
袒	-10.6678
尚食	-10.6679
之聲	-10.668
悃	-10.6687
吏目	-10.6689
祭官	-10.6691
元年詔	-10.6693
彼此	-10.6693
察明	-10.6695
杖六十	-10.6697
四夷	-10.6699
北路	-10.6703
初屬	-10.6703
著為令	-10.6708
坍	-10.672
乙丑	-10.6726
囬	-10.6727
癸巳	-10.6727
祀天	-10.6727
封禪	-10.6728
散官	-10.6729
筐	-10.6731
之水	-10.6733
唐宋	-10.6735
郵	-10.6736
領縣四	-10.6738
飲福	-10.674
彞	-10.6742
京畿	-10.6746
犧尊	-10.6746
伯克	-10.6748
故有	-10.6752
依律	-10.6753
太社	-10.6755
始置	-10.6757
定限	-10.6758
敝	-10.6765
穰	-10.6766
六合	-10.6769
異姓	-10.6769
矩	-10.677
丁酉	-10.677
建安	-10.6771
壬申	-10.6772
衮冕	-10.6773
子曰	-10.678
最為	-10.6781
彪	-10.6783
湛	-10.6788
有不	-10.679
皆再拜	-10.6794
正副使	-10.6796
中式	-10.6798
文公	-10.6798
二石	-10.6801
云云	-10.6802
寧之曲	-10.6802
居民	-10.6804
太和殿	-10.6805
中宫	-10.6806
陀	-10.6809
寧縣	-10.6809
五十九	-10.681
臣工	-10.681
柵	-10.6811
崇寧	-10.6811
應天	-10.6813
盗賊	-10.6813
府治	-10.6814
長短	-10.6815
􁀙	-10.6816
毎嵗	-10.6816
進士官至	-10.6819
阿桂	-10.682
選舉	-10.6822
廣寧	-10.6823
南昌	-10.6824
稍前	-10.6826
牲畜	-10.6826
忒	-10.6827
二年五月	-10.6829
内史	-10.683
苐	-10.6832
丙申	-10.6833
固山貝子	-10.684
城守尉	-10.6843
軍政	-10.6846
奄	-10.6846
所宜	-10.6846
禆	-10.6846
擇其	-10.6853
帝崩	-10.6855
貴賤	-10.6856
議凖	-10.6859
武昌	-10.6862
大司馬	-10.6862
者一	-10.6863
跪奠	-10.6864
嬰	-10.6869
做	-10.687
在位者皆再拜	-10.687
清吏司	-10.687
丙戌	-10.6871
古制	-10.6872
開國	-10.6872
酷	-10.6873
朽	-10.6873
例應	-10.6874
竣	-10.6876
如果	-10.6878
女子	-10.688
守衛	-10.6883
鉤	-10.6885
而去	-10.6886
進攻	-10.689
令各	-10.6891
諌	-10.6891
鞍馬	-10.6891
滙	-10.6899
之號	-10.6899
州或為	-10.69
乾隆十六年	-10.6901
枉法	-10.6901
堂下	-10.6901
因其	-10.6901
十丈	-10.6903
補服	-10.6905
膚	-10.691
而言	-10.6911
仲吕	-10.6913
王妃	-10.6913
率土	-10.6915
三百五十	-10.6918
奉御	-10.6921
梓	-10.6924
斿	-10.6927
一百十	-10.6927
散齋	-10.6927
地畆	-10.6938
遵照	-10.6938
堯舜	-10.694
中門	-10.6942
嚴禁	-10.6952
後唐	-10.6952
肅宗	-10.6957
不完	-10.696
琮	-10.696
官民	-10.6961
均照	-10.6961
矣然	-10.6962
祭於	-10.6962
其本	-10.6964
著於	-10.6966
日久	-10.6967
詳議	-10.6967
乘馬	-10.6968
鳴贊	-10.697
三百二十	-10.6971
塩	-10.6971
皇地祇	-10.6975
辛酉	-10.6976
郡主	-10.6978
訓導	-10.6979
故不	-10.6986
五十里	-10.6986
纁	-10.6988
稼	-10.6989
沅	-10.6991
轡	-10.6994
海内	-10.6996
立廟	-10.6997
漠	-10.6998
通事舍人	-10.6999
得之	-10.7001
原設	-10.7001
氏正白旗滿洲馬甲	-10.7001
闗防	-10.7001
進退	-10.7002
為三	-10.7003
始以	-10.7006
國學	-10.7009
古文	-10.7011
貴人	-10.7014
緑營	-10.7014
主之	-10.7015
隨征	-10.7018
憚	-10.702
南北向	-10.7025
各部院	-10.7026
嘉祐	-10.7028
擔	-10.7028
朕思	-10.703
曾孫	-10.7031
勃	-10.7037
攜	-10.7041
迫	-10.7042
大敗	-10.7044
枯	-10.7045
五十三	-10.7049
就次	-10.7049
保送	-10.7051
號曰	-10.7053
慿	-10.7058
樵	-10.7059
者雖	-10.7059
鎖	-10.7059
官弁	-10.7062
北面立	-10.7062
永興	-10.7063
壬寅	-10.7064
僉事	-10.7065
庚午	-10.7066
饋	-10.7067
為此	-10.7071
二刻	-10.7073
袴	-10.7074
馨	-10.7076
象尊	-10.7089
丙子	-10.709
教坊	-10.7091
國子	-10.7091
厯代	-10.7092
渡江	-10.7092
延祐	-10.7093
與其	-10.7094
笏	-10.7099
聊	-10.7104
西階上	-10.7105
頒行	-10.7111
宵	-10.7111
二年七月	-10.7111
江陵	-10.7111
大慶	-10.7117
逃人	-10.7118
無算	-10.7118
律令	-10.7119
者令	-10.7122
司爵	-10.7122
動用	-10.7123
生計	-10.7123
牖	-10.7126
此為	-10.7126
未知	-10.7127
鑰	-10.7128
太倉	-10.7129
有常	-10.7133
得失	-10.7133
婆	-10.7134
聖人之	-10.7138
蔬	-10.7139
逰擊	-10.7142
來㑹	-10.7144
圓明園	-10.7145
至京師	-10.7145
官學生	-10.7146
欄	-10.7148
㸔	-10.7152
斟酌	-10.7154
元年五月	-10.7157
衾	-10.7157
鎮標	-10.7157
鎮國將軍	-10.7159
青州	-10.716
餅	-10.7161
里南北距	-10.7164
取具	-10.7165
許之	-10.7168
糧道	-10.7171
苞	-10.7171
青海	-10.7171
國人	-10.7174
赦天下	-10.7177
選人	-10.7177
琵琶	-10.718
海塘	-10.7181
百石	-10.7182
二年六月	-10.7184
大門外	-10.7187
四等	-10.7189
治平	-10.719
日食	-10.7192
官二人	-10.7206
少監	-10.7207
戊戌	-10.721
大樂令	-10.7215
宫殿	-10.7217
一釐	-10.7219
給地	-10.722
碉	-10.7221
至正	-10.7221
一貫	-10.7222
犯法	-10.7225
無庸	-10.7229
初設	-10.7232
年終	-10.7233
乾隆四十	-10.7234
戊寅	-10.7236
十一日	-10.7237
駢	-10.7238
鬼神	-10.724
贖罪	-10.7243
者革職	-10.7245
管勾	-10.7247
力戰	-10.7248
其弊	-10.7248
陕西	-10.7249
行幸	-10.725
用者	-10.7251
開封府	-10.7255
尚書令	-10.7257
祈穀	-10.7257
三年三月	-10.7258
掾	-10.7259
王貝勒貝子公	-10.7259
則例	-10.7259
宣化	-10.7259
十二日	-10.7262
田賦	-10.7266
年正月	-10.727
甲申	-10.7273
左右衛	-10.7274
辜	-10.7275
誡	-10.7277
僱	-10.7277
見其	-10.7278
五升	-10.7285
不欲	-10.7285
丹陛上	-10.7287
二十餘	-10.7289
公侯	-10.7291
司樂	-10.7292
醴齊	-10.7293
簠	-10.7293
伴	-10.7295
安之樂作	-10.7295
𨗳	-10.7297
藁	-10.73
飽	-10.73
元年三月	-10.7301
號為	-10.7304
乃命	-10.7308
官給	-10.7308
欲以	-10.731
闌	-10.7317
溫	-10.7317
復舊	-10.7318
差役	-10.7319
轉運使	-10.7323
其應	-10.7323
觸	-10.7324
樞宻	-10.7326
人多	-10.7327
生民	-10.7328
辟雍	-10.7331
初以	-10.7336
至此	-10.7337
忠義	-10.7338
寧古塔	-10.734
記曰	-10.7341
以濟	-10.7342
主昏者	-10.7343
州治	-10.7343
恥	-10.7343
三十日	-10.7344
帙	-10.7347
捨	-10.7348
蟠	-10.7348
悉心	-10.735
皆得	-10.7352
年限	-10.7352
不給	-10.7355
相對	-10.7357
舅姑	-10.7358
天成	-10.7359
埽	-10.7361
塗金	-10.7362
珊瑚	-10.7364
近侍	-10.7365
三十里	-10.7365
奉㫖依議	-10.7367
神明	-10.7367
如無	-10.7368
癸未	-10.7371
籲	-10.7373
甲寅	-10.7377
四萬	-10.7378
俵	-10.7379
古尺	-10.7382
餘同	-10.7384
科爾沁	-10.7385
濕	-10.7385
琦	-10.7386
無過	-10.7386
孽	-10.7387
鼻	-10.7387
煎	-10.7388
恨	-10.7388
狂	-10.7388
賫	-10.7389
槃	-10.7389
之舊	-10.7391
七十五	-10.7396
節制	-10.7398
所見	-10.7404
賛禮	-10.7409
祖父母	-10.741
辛亥	-10.7411
在今	-10.7418
甘泉	-10.742
復命	-10.7424
千總一人	-10.7426
夙	-10.7427
論語	-10.7433
澗	-10.7434
今尺	-10.7434
學正	-10.7437
建中	-10.7437
秘	-10.7439
奉詔	-10.7441
上有	-10.745
懈	-10.7452
冩	-10.7455
二旗	-10.7456
拓	-10.7457
月給	-10.7457
奏明	-10.7463
南山	-10.7463
皷	-10.7463
黄鐘	-10.7465
加一級	-10.7466
印結	-10.7466
進貢	-10.7466
數日	-10.7468
晌	-10.747
贊禮唱	-10.747
二年九月	-10.7472
賛引	-10.7473
二百九十	-10.7473
三釐	-10.7476
忿	-10.7477
高宗	-10.7478
太微	-10.7479
曼	-10.7479
萌	-10.7479
等皆	-10.748
禮部堂官	-10.7481
都指揮使	-10.7482
奉行	-10.7482
一十五	-10.7483
工人	-10.7483
霧	-10.7483
為重	-10.7485
輔國將軍	-10.7489
將領	-10.7489
食甚	-10.749
琖	-10.749
郡守	-10.7493
青龍	-10.7496
龎	-10.75
壬辰	-10.7501
頴	-10.7501
㪚	-10.7501
舞蹈	-10.7501
宋齊	-10.7504
無以	-10.7506
抒	-10.7506
南至	-10.7506
禮也	-10.7507
軍中	-10.7508
太白晝見	-10.7512
者止	-10.7515
加意	-10.7519
其二	-10.7522
樞密院	-10.7522
驟	-10.7522
照磨	-10.7524
勁	-10.7524
阼階	-10.7525
壅	-10.7526
申明	-10.7531
大臣官員	-10.7536
祖考	-10.7537
相見	-10.7538
引禮引	-10.7539
跪奏	-10.7539
隕	-10.7539
四十三年	-10.7539
亦為	-10.7541
牛录	-10.7544
奨	-10.7545
藴	-10.7545
人口	-10.7547
己丑	-10.7548
卽	-10.7549
以下皆再拜	-10.755
終身	-10.755
五嶽	-10.7551
十六卷	-10.7551
遴選	-10.7553
丁巳	-10.7557
輔臣	-10.7557
亦應	-10.7558
一同	-10.7559
駕至	-10.756
襖	-10.756
隴西	-10.7561
九日	-10.7565
大興	-10.7566
内命婦	-10.7567
皆跪	-10.7568
三等侍衛	-10.7571
鬱	-10.7572
出笏	-10.7578
元年七月	-10.7578
三嵗	-10.7579
祭服	-10.7581
一等輕車都尉	-10.7582
原註	-10.7583
千八百	-10.7585
以成	-10.7585
堂子	-10.7588
奮勇	-10.7589
丁亥	-10.7592
脯	-10.7592
南向立	-10.7593
萬民	-10.7593
唐書	-10.7594
升堂	-10.7595
未得	-10.7597
恭請	-10.7597
耕耤	-10.7598
掖	-10.7598
罵	-10.7599
鈕	-10.76
卷一百	-10.7603
曺	-10.7606
滄	-10.7609
襲爵	-10.7611
錢塘	-10.7611
忻	-10.7613
建立	-10.7613
灑	-10.7615
戊午	-10.7615
先賢	-10.762
是故	-10.7622
萬嵗	-10.7624
曽孫	-10.7626
出宫	-10.763
者杖一百	-10.7632
經筵	-10.7635
瓣	-10.7636
儆	-10.7642
未見	-10.7644
由此	-10.7645
警蹕	-10.7649
谿	-10.765
元孫	-10.765
相繼	-10.7655
省牲	-10.7657
郡公	-10.7658
安置	-10.7658
十六日	-10.7659
揮	-10.7659
力戰陣亡	-10.766
三員	-10.7661
金輅	-10.7662
提㸃	-10.7663
官者	-10.7664
甲戌	-10.7664
恭上	-10.7665
其意	-10.7666
四十三	-10.7668
初封	-10.767
喪服	-10.7672
絨	-10.7675
濤	-10.7683
是編	-10.7683
司俎	-10.7686
三十三年	-10.7691
祭告	-10.7692
於篚	-10.7694
缺出	-10.77
爪	-10.7702
米價	-10.7702
執事人	-10.7704
百年	-10.771
經史	-10.7716
不著	-10.7719
嘉興	-10.7721
四十四年	-10.7721
内附	-10.7725
歸化城	-10.7726
後改	-10.7727
踈	-10.7727
時日	-10.7727
特進	-10.7727
建康	-10.7728
州屬	-10.773
妣	-10.7731
在南	-10.7733
四日	-10.7736
二年八月	-10.7737
乗馬	-10.7737
九江	-10.7737
調補	-10.7738
逃亡	-10.7742
揀	-10.7742
萬户	-10.7742
除服	-10.7743
中宗	-10.7744
到任	-10.7747
王氏	-10.7748
龍亭	-10.7748
曷	-10.775
丙寅	-10.7753
二十卷	-10.7754
總領	-10.7756
庚申	-10.7756
並用	-10.7761
官一員	-10.7763
皆無	-10.7765
六旬	-10.7765
第八	-10.7765
減等	-10.7766
之妻趙	-10.7767
姊妹	-10.7767
就拜位	-10.7767
王圻續通考	-10.7768
攀	-10.7771
者均	-10.7771
永嘉	-10.7773
間以	-10.7773
椿	-10.7775
各有差	-10.7775
神廟	-10.7775
晩	-10.7776
進至	-10.7777
五銖	-10.7778
劉向	-10.7781
之廟	-10.7781
銀米	-10.7784
畱	-10.7784
者如	-10.7784
五福	-10.7786
巴里坤	-10.779
無故	-10.7793
磚	-10.7795
二人掌	-10.7798
制錢	-10.7801
律治罪	-10.7801
四十一年	-10.7801
藉以	-10.7803
營守備一人	-10.7804
抹	-10.7805
訓練	-10.7806
香案	-10.7806
於下	-10.7808
相距	-10.7811
差遣	-10.7817
搏	-10.7817
追尊	-10.782
天聖	-10.7823
治之	-10.7825
緩急	-10.7828
稽首	-10.783
近年	-10.783
之限	-10.7832
李氏	-10.7832
等各	-10.7833
藝文志	-10.7834
泰和	-10.7835
改用	-10.7837
冷	-10.7839
黑龍江	-10.784
隆興	-10.7855
乾隆三年	-10.7857
神坐	-10.7859
征伐	-10.786
觀之	-10.7862
而出	-10.7866
夙夜	-10.7866
四年二月	-10.7872
耦	-10.7875
亦當	-10.7876
丈夫	-10.7879
加以	-10.788
起解	-10.7882
散秩大臣	-10.7885
正官	-10.7885
聖朝	-10.7889
甲胄	-10.7889
庠	-10.7889
一度	-10.7892
中大夫	-10.7895
城郭	-10.7895
銀一錢	-10.7897
三百三十	-10.7901
更代	-10.7901
地置	-10.7903
王大臣	-10.7905
順治二年	-10.7909
取進	-10.7916
中和韶樂	-10.7917
元年八月	-10.7919
土地	-10.792
戊子	-10.7923
山罍	-10.7924
五縣	-10.7925
元史	-10.7927
不分	-10.7928
夏秋	-10.7928
常侍	-10.7929
外命婦	-10.7929
虎賁	-10.793
如前儀	-10.793
安奉	-10.7931
失其	-10.7932
大中	-10.7933
文廟	-10.7936
卡	-10.7937
八音	-10.7938
視其	-10.7938
人主	-10.794
千七百	-10.794
縣學	-10.794
軼	-10.7941
右門	-10.7941
熱	-10.7943
四旗	-10.7944
拜訖	-10.7945
官學	-10.7949
之喪	-10.795
舊典	-10.7951
忌辰	-10.7955
孺	-10.7956
裁汰	-10.7956
䖏	-10.7957
各四	-10.7958
贄	-10.7958
禫	-10.7959
三百四十	-10.796
親征	-10.7961
八兩	-10.7962
中山	-10.7969
三十名	-10.7969
不即	-10.7971
率府	-10.7975
壬子	-10.7976
長蘆	-10.7977
彊	-10.7981
御筆	-10.7982
所過	-10.7983
同日	-10.7983
氏正黄旗滿洲馬甲	-10.7985
在上	-10.7985
其禮	-10.7986
一百一十	-10.7988
達爾	-10.7988
尚饗	-10.7992
相符	-10.7993
大如	-10.7993
八旬	-10.7997
傳諭	-10.7997
槐	-10.7999
縂	-10.7999
三年四月	-10.8
敞	-10.8
首飾	-10.8
在於	-10.8001
餘如	-10.8002
挺	-10.8004
軍人	-10.8008
湧	-10.8009
凛	-10.8011
邏	-10.8012
解部	-10.8013
孟春	-10.8013
犧	-10.8014
等弊	-10.8015
新城	-10.8017
少頃	-10.8021
王國	-10.8023
之議	-10.8025
杖八十	-10.8027
殱	-10.8028
所至	-10.8029
縷	-10.8032
内壝	-10.8033
奉移	-10.8035
為正	-10.804
迴避	-10.804
叙功	-10.8041
言其	-10.8045
中尉	-10.8045
玉牒	-10.8045
之情	-10.8046
稀	-10.8048
相承	-10.8048
哭盡哀	-10.8049
攬	-10.8052
多者	-10.8064
二年十一月	-10.8064
蜡	-10.8068
各府	-10.8068
牧馬	-10.807
如舊	-10.8072
之衆	-10.8073
白虎	-10.8078
者若	-10.8078
佐領名	-10.8079
薦舉	-10.8079
水手	-10.8081
至意	-10.8084
之象	-10.8085
儀制	-10.8086
髙帝	-10.8089
天竺	-10.8089
太牢	-10.8091
者與	-10.8094
引見補授	-10.8094
交代	-10.8095
莅	-10.8099
詩書	-10.81
尤為	-10.8102
子康熙	-10.8105
太公	-10.8107
兵餉	-10.8108
八十四	-10.8114
階上	-10.8116
四兩	-10.8116
典儀贊	-10.8117
方許	-10.8118
分司	-10.812
褂	-10.8122
百餘里	-10.8122
烏喇	-10.8123
狥	-10.8123
復有	-10.8124
官制	-10.8124
保題	-10.8124
武臣	-10.8125
諸子	-10.8131
明經	-10.8132
吉服	-10.8133
幽州	-10.8133
還本位	-10.8136
存案	-10.8136
之子孫	-10.8137
書吏	-10.8138
無定員	-10.814
諸王大臣	-10.8141
前鋒䕶軍	-10.8143
皆在	-10.8143
千戸	-10.8144
款	-10.8145
浴	-10.8146
濠	-10.8147
選擇	-10.8151
藤	-10.8151
城南	-10.8153
道南	-10.8154
孝子	-10.8155
増置	-10.8155
編修	-10.8159
阿管理	-10.816
未聞	-10.8161
所犯	-10.8163
可考	-10.8168
禮直官引	-10.8171
庶幾	-10.8171
不問	-10.8171
常平倉	-10.8171
舉麾	-10.8176
查勘	-10.8177
通省	-10.8178
豁	-10.8179
發兵	-10.8179
百名	-10.818
一頃	-10.8183
笞四十	-10.8184
曉諭	-10.8188
也此	-10.819
右侍郎	-10.8192
鳩	-10.8192
立春	-10.8193
冕服	-10.8193
恊	-10.8196
二年詔	-10.8199
徹豆	-10.8199
之節	-10.8199
五十人	-10.82
省入	-10.8202
岑	-10.8202
檢討	-10.8203
官田	-10.8204
主事一人	-10.8207
内使	-10.8207
待制	-10.821
分班	-10.8211
員缺	-10.8212
發落	-10.8213
降級	-10.8214
卑幼	-10.8215
册寳	-10.8216
纒	-10.8216
字子	-10.8217
赴京	-10.8218
不容	-10.8219
所管	-10.822
跋	-10.8222
其在	-10.8224
商民	-10.8225
己巳	-10.8225
河泊所	-10.8229
縣民	-10.8231
斌	-10.8231
四十二年	-10.8234
侍讀	-10.8236
君之	-10.8237
清口	-10.824
省方	-10.824
開平	-10.824
指示	-10.8241
免罪	-10.8242
庚寅	-10.8246
聖賢	-10.8247
扁	-10.8248
宫人	-10.8249
改屬	-10.8251
五錢	-10.8252
文移	-10.8254
也而	-10.8257
中郎將	-10.8259
全完	-10.826
有此	-10.8261
簮	-10.8261
郢	-10.8265
十五人	-10.8266
鷺	-10.8267
請將	-10.8268
班第	-10.8273
災傷	-10.8277
知事	-10.8278
州衛	-10.8279
諭朕	-10.828
縣有	-10.8286
五十八	-10.8287
三年七月	-10.8289
後人	-10.8289
任内	-10.829
匀	-10.829
傷者	-10.829
通事	-10.8293
蒐	-10.8293
先詣	-10.8293
到日	-10.8293
三府	-10.8295
昌平	-10.8296
下至	-10.8298
諭内閣	-10.83
主婦	-10.83
士庶	-10.8301
下有	-10.8305
杏	-10.8306
應將	-10.8311
官各	-10.8314
穆宗	-10.8315
周之	-10.8315
賁	-10.8315
實心	-10.8316
不待	-10.8316
淡	-10.8317
武弁	-10.832
二兩	-10.8322
犯者	-10.8323
大祭	-10.8324
禮部官	-10.8325
革退	-10.8325
十二月襲	-10.8325
數人	-10.8326
有徳	-10.8326
漢時	-10.8327
導從	-10.8329
武德	-10.833
臣下	-10.8332
年二月	-10.8337
之役	-10.8337
踊	-10.8337
椒	-10.8337
烏嚕木齊	-10.8338
徒三年	-10.8339
筭	-10.834
入海	-10.834
筠	-10.834
達嚕噶齊	-10.834
自稱	-10.8341
魂	-10.8342
大司樂	-10.8345
即今	-10.8345
與民	-10.8346
提調	-10.8347
人命	-10.8348
著將	-10.8349
别廟	-10.8353
春夏	-10.8354
通志	-10.8356
俱係	-10.8358
和之樂	-10.8361
詩曰	-10.8361
醉	-10.8364
奉祀	-10.8365
攻克	-10.8366
都䕶	-10.8366
雅爾	-10.8368
鹽政	-10.837
養贍	-10.8371
典故	-10.8372
相度	-10.8372
延安	-10.8373
西寧	-10.8376
租銀	-10.8377
冪	-10.8382
經費	-10.8382
詔以	-10.8382
仍照例	-10.8383
珮	-10.8385
鹽法	-10.8385
元初	-10.8386
撒	-10.8386
䑕	-10.8388
憶	-10.8391
拾遺	-10.8393
内選	-10.8394
者非	-10.8396
北海	-10.8398
同居	-10.8399
一隻	-10.84
後復	-10.8401
鎮國	-10.8403
討之	-10.8403
另行	-10.8403
漢唐	-10.8404
古北口	-10.8409
卭	-10.8411
元日	-10.8415
朝見	-10.8416
跪取	-10.8417
注册	-10.8417
禮服	-10.842
二三	-10.8421
聚衆	-10.8424
跳	-10.8426
元年六月	-10.8428
府知府	-10.8431
守禦	-10.8433
編為	-10.8434
笞五十	-10.8435
縧	-10.8435
望瘞	-10.8436
坐罪	-10.8436
志曰	-10.8436
潦	-10.8437
食之	-10.8437
憐	-10.8438
均與	-10.8439
汎	-10.8439
無子	-10.844
頁	-10.844
所能	-10.8451
一十二	-10.8451
帕	-10.8456
安設	-10.8457
應請	-10.8457
車馬	-10.8458
旭	-10.8461
涖	-10.8463
太康	-10.8464
侍讀學士	-10.8465
乙亥	-10.8469
北斗	-10.8472
無卷	-10.8473
以防	-10.8478
二年十二月	-10.8478
豈有	-10.8479
爾哈	-10.8481
倒斃	-10.8485
名為	-10.8487
鞠躬拜興拜興平身	-10.849
接濟	-10.8491
去處	-10.8495
耆老	-10.8495
扎爾	-10.8497
襯	-10.8498
石五斗	-10.8498
艱難	-10.8501
復設	-10.8509
巴圖魯	-10.8512
七卷	-10.8514
皁	-10.8515
諸太祝	-10.852
大駕	-10.8522
聞奏	-10.8525
徵收	-10.8526
不舉	-10.8526
典簿	-10.8527
千載	-10.8527
運司	-10.8528
康熙二十三年	-10.8531
五采	-10.8533
鵬	-10.8534
釁	-10.8537
恭逢	-10.8537
方澤	-10.854
私自	-10.8543
元年十月	-10.8547
運糧	-10.8547
元年十二月	-10.8548
上供	-10.8548
開採	-10.8548
莊頭	-10.855
儀衛	-10.8551
亘	-10.8553
加封	-10.8553
保管理	-10.8554
情弊	-10.8555
兼理	-10.8556
械	-10.8557
太妃	-10.8559
從重治罪	-10.8559
腥	-10.8559
墮	-10.8559
張家口	-10.856
襪	-10.8562
答曰	-10.8563
駭	-10.8564
通事舍人引	-10.8566
元年十一月	-10.8567
進爵	-10.8569
農桑	-10.857
珥	-10.857
挽	-10.8571
三輔	-10.8572
無常	-10.8574
上公	-10.8577
者依	-10.858
頒發	-10.8582
不願	-10.8585
癸亥	-10.8589
四十八年	-10.859
城隍	-10.8592
壇下	-10.8594
改名	-10.8594
既不	-10.8598
律例	-10.86
孝陵	-10.8601
為率	-10.8603
宫懸	-10.8606
永逺	-10.8611
癸丑	-10.8611
朴	-10.8616
各以其	-10.8616
十有七	-10.8617
東路	-10.8622
二千五百	-10.8624
遂為	-10.8627
椽	-10.8627
截留	-10.8628
嵗時	-10.8628
幘	-10.8629
大吏	-10.8631
坑	-10.8631
矣今	-10.8631
宣府	-10.8635
翎	-10.8637
西至	-10.8637
四書	-10.8639
之責	-10.8639
一縣	-10.864
琉璃	-10.8642
聖夀	-10.8644
一處	-10.8646
鑾駕	-10.8648
蠡	-10.866
寺丞	-10.8662
稱職	-10.8663
蠧	-10.8663
失之	-10.8663
稍有	-10.8665
灼	-10.8666
江東	-10.8668
各該	-10.8669
元年九月	-10.8673
種地	-10.8673
十二名	-10.8673
於天	-10.8675
諸書	-10.8678
仍將	-10.868
大義	-10.868
各部	-10.8681
之正	-10.8682
鹽鐵	-10.8682
二斗	-10.8682
壬	-10.8683
又改	-10.8684
厄	-10.8684
皆由	-10.8685
為始	-10.8687
顆	-10.869
太子太保	-10.8694
氏鑲黄旗滿洲馬甲	-10.8694
燕京	-10.8697
期滿	-10.8699
應天府	-10.8701
𩔖	-10.8702
峪	-10.8707
撫臣	-10.8709
童生	-10.8711
前行	-10.8711
開元禮	-10.8713
厪	-10.8714
龍門	-10.8714
西洋	-10.8716
内務府總管	-10.8717
望燎	-10.8718
紵絲	-10.8719
等並	-10.8721
何也	-10.8722
釐五毫	-10.8723
諸處	-10.8725
幞頭	-10.8725
贛	-10.8728
安國	-10.873
昆弟	-10.8734
章宗	-10.8735
郊社	-10.8735
罰俸三月	-10.8736
琅	-10.8737
不滿	-10.8739
檔	-10.8739
縣官	-10.874
薩載	-10.8742
後又	-10.8742
分兵	-10.8744
卒哭	-10.8748
各三	-10.8749
選補	-10.8756
各退	-10.8761
二百餘	-10.8762
城守	-10.8762
不服	-10.8762
王等	-10.8762
鄂爾	-10.8763
王制	-10.8764
之東西	-10.8765
雍正四年	-10.8766
在官	-10.8774
乃詔	-10.8775
星出	-10.8776
乾隆二十二年	-10.8776
宣撫司	-10.8777
於外	-10.8781
未成	-10.8781
月日	-10.8783
金龍	-10.8783
枕	-10.8786
未幾	-10.8787
若此	-10.8789
初為	-10.879
近日	-10.8796
委員	-10.8796
之妻劉	-10.8798
親祀	-10.88
莖	-10.8802
熹	-10.8803
者悉	-10.8805
孔雀	-10.8809
我兵	-10.8811
舛	-10.8812
不常	-10.8814
宰執	-10.8815
歐陽	-10.8815
六十七	-10.8818
東井	-10.8822
設官	-10.8823
之月	-10.8827
五曰	-10.8828
轝	-10.883
北岸	-10.8835
康熙十三年	-10.8838
前鋒統領	-10.8839
者斬	-10.8839
饌筵	-10.8839
郎官	-10.8839
敢不	-10.8839
各員	-10.884
驍	-10.884
粹	-10.884
之弟	-10.8841
惇	-10.8843
聖訓	-10.8843
給賞	-10.8846
梵	-10.8846
年久	-10.8847
給以	-10.8847
朝冠	-10.8848
所獲	-10.8853
宫門	-10.8856
婢	-10.8857
措置	-10.8858
相向	-10.8858
例治罪	-10.886
址	-10.8863
諸科	-10.8869
鍍金	-10.8869
三年五月	-10.8869
相同	-10.887
筵宴	-10.8872
以外	-10.8872
以象	-10.8873
案上	-10.8873
前殿	-10.8874
樣	-10.8874
似此	-10.8876
道士	-10.8879
奴僕	-10.888
士大夫	-10.8881
直長	-10.8881
龍頭	-10.8884
散騎常侍	-10.8885
江縣	-10.8887
五十名	-10.8888
通鑑	-10.8888
豋	-10.8889
親詣行禮	-10.8889
產	-10.889
餘人	-10.889
廣徳	-10.8891
棘	-10.8892
士民	-10.8893
之語	-10.8893
晟	-10.8893
考功	-10.8897
送至	-10.8897
等言	-10.8897
秦州	-10.8898
完顔	-10.8901
秦王	-10.8901
跪讀	-10.8903
經緯	-10.8903
雲中	-10.8907
縣屬	-10.8909
分置	-10.891
任意	-10.8912
入就	-10.8914
紋	-10.8916
赴部	-10.8916
得罪	-10.8916
之遺	-10.8918
淮揚	-10.892
正副	-10.8922
又為	-10.8924
别為	-10.8925
凖噶爾	-10.8925
醬	-10.8928
十五名	-10.8937
稔	-10.894
定奪	-10.894
本官	-10.8941
挈	-10.8941
景福	-10.8942
蜜	-10.8942
自當	-10.8944
奉天殿	-10.8945
至京	-10.895
同時	-10.895
幄次	-10.8951
罄	-10.8951
二丈	-10.8955
之章	-10.8957
十七日	-10.896
宋制	-10.896
天眷	-10.8962
鳥鎗䕶軍	-10.8965
已即位	-10.8966
咸平	-10.8966
諸家	-10.897
安帝	-10.8971
休致	-10.8972
先蠶	-10.8973
飲酒	-10.8973
形如	-10.8974
必先	-10.8975
凡三	-10.8976
等州	-10.8976
宵旰	-10.8977
而上	-10.8977
左丞	-10.8977
將此	-10.8977
教之	-10.8986
為國	-10.8986
祀官	-10.8987
神功	-10.8991
成之曲	-10.8991
九品以上	-10.8992
興工	-10.8992
果有	-10.8994
乾徳	-10.8995
五方	-10.8995
促	-10.8995
五十二年	-10.8998
額設	-10.9001
河州	-10.9008
不改	-10.9015
中官	-10.9015
皇帝御	-10.9015
晉封	-10.9016
相傳	-10.9019
怡	-10.902
蘇松	-10.9023
壬戌	-10.9024
磨勘	-10.9024
於案	-10.9025
行圍	-10.903
卓異	-10.9034
泰之妻	-10.9037
科舉	-10.9037
令該	-10.9045
賞賜	-10.9045
柯	-10.9046
不另圖	-10.9047
欽定續文獻通考卷	-10.9047
督催	-10.9048
十四卷	-10.9049
之度	-10.905
兩有竒	-10.9052
二十八日	-10.9053
惟神	-10.9054
大厯	-10.9055
祫祭	-10.9059
六百石	-10.9062
四角	-10.9062
乾元	-10.9063
絛	-10.9067
虢	-10.907
河道總督	-10.9073
醇	-10.9074
牡	-10.9074
縮	-10.9076
河内	-10.9078
月支	-10.9078
朔方	-10.9078
塟	-10.9079
非所以	-10.9079
宣德	-10.908
推官	-10.908
之變	-10.9083
衣食	-10.9084
中原	-10.9084
奉勅	-10.9084
河臣	-10.9085
長春	-10.9086
樂府	-10.9087
安得	-10.9089
祀之	-10.9091
編立	-10.9091
為定	-10.9092
從重	-10.9092
迤	-10.9093
皇帝再拜	-10.9098
愛民	-10.9099
陌	-10.91
峩	-10.9101
剰	-10.9103
禮儀使奏請	-10.9107
均由	-10.9107
三等男	-10.9108
各衛	-10.9112
霖	-10.9116
二年十月	-10.9117
浙省	-10.9118
哈爾	-10.9118
屨	-10.9119
亦未	-10.912
寮	-10.912
綢	-10.9122
星辰	-10.9122
义	-10.9127
尊號	-10.913
嘉禮	-10.9131
親祭	-10.9132
沖	-10.9133
之犯	-10.9135
杖一百徒三年	-10.9136
鼂氏曰	-10.9137
自今以後	-10.9138
大臣等	-10.9138
萬一	-10.9139
矣而	-10.9143
四瀆	-10.9144
殿中侍御史	-10.9144
亦然	-10.9146
二疋	-10.9146
此其	-10.9148
詩賦	-10.9152
籖	-10.9153
已久	-10.9154
考察	-10.9154
詳加	-10.9158
楹間	-10.9158
升自西階	-10.9158
臨安	-10.9159
諡曰	-10.916
公羊	-10.916
謹以	-10.9161
而成	-10.9161
景祐	-10.9162
監本	-10.9163
而又	-10.9164
六經	-10.9167
所收	-10.9167
之氣	-10.9169
宿遷	-10.9173
悖	-10.9178
西向北上	-10.9178
驛站	-10.9179
淳熈	-10.9179
錦衣衛	-10.9182
一本	-10.9183
廡	-10.9183
各督撫	-10.9184
煮	-10.9185
俱在	-10.9186
不下	-10.9186
贊禮者引	-10.9188
百匹	-10.9188
賔客	-10.9192
其利	-10.9193
投充	-10.9193
近臣	-10.9193
孟冬	-10.9198
具呈	-10.9198
麴	-10.9199
之序	-10.92
詹事府	-10.9206
並行	-10.9207
時為	-10.9208
靈座	-10.921
疏濬	-10.921
勤勞	-10.921
營田	-10.9212
重罪	-10.9215
年嵗	-10.9216
授為	-10.9221
除之	-10.9221
勅㫖	-10.9222
五十七	-10.9225
金黄	-10.9226
瘠	-10.9228
於門外	-10.9229
儀與	-10.9229
倖	-10.923
者罰俸一年	-10.923
卹	-10.9232
凍	-10.9232
祥符	-10.9233
正門	-10.9236
回鑾	-10.9237
秋冬	-10.9238
紇	-10.924
其兄	-10.9241
交角	-10.9243
七尺	-10.9244
於殿	-10.9246
掃除	-10.9246
防守	-10.9249
自漢	-10.9249
養馬	-10.9249
四十里	-10.9249
領縣五	-10.925
各按	-10.9251
或因	-10.9254
栽	-10.9256
縣主	-10.9258
里東至	-10.9259
相沿	-10.926
可比	-10.926
大名	-10.926
琛	-10.926
吉服冠	-10.926
等衙門	-10.9262
所致	-10.9264
聖母	-10.9264
杯	-10.9265
鐵匠	-10.927
爾圖	-10.927
醮	-10.9271
諸侯之	-10.9275
太樂令	-10.9275
文宣王	-10.9275
各就	-10.9276
東省	-10.9276
富察	-10.9279
不忘	-10.9286
四十一	-10.9287
燬	-10.9287
事實	-10.9288
從寛	-10.9292
一路	-10.9294
賛禮唱	-10.9298
收成	-10.9298
解送	-10.9299
聖王	-10.9299
以給	-10.9299
雍正十三年	-10.93
五百里	-10.9301
尚可	-10.9302
黄龍	-10.9302
攢	-10.9303
領軍	-10.9304
以北為上	-10.9304
請照	-10.9306
諫議大夫	-10.9311
棲	-10.9312
峽	-10.9313
五丈	-10.9314
尹繼善	-10.9317
顯慶	-10.9318
禮經	-10.9322
本末	-10.9322
文武各官	-10.9325
承制	-10.9329
奠酒	-10.933
烏拉	-10.933
二省	-10.9331
其王	-10.9332
四年三月	-10.9332
冉	-10.9333
遞運所	-10.9336
務令	-10.9337
永徽	-10.9338
旄	-10.9338
轍	-10.9338
今既	-10.934
候選	-10.9344
金山	-10.9344
慕容	-10.9344
拜褥	-10.9345
一千一百	-10.9345
山陽	-10.9345
百戸	-10.9346
魯特	-10.9348
南嚮	-10.9348
偏西	-10.9349
初制	-10.9352
九釐	-10.9352
巡視	-10.9353
興化	-10.9353
修造	-10.9361
淄	-10.9361
庇	-10.9361
宋朝	-10.9363
孳生	-10.9367
逞	-10.9369
序曰	-10.9373
例凡	-10.9377
複	-10.9378
出境	-10.9379
候過	-10.9379
較之	-10.9384
粢盛	-10.9386
有六	-10.9387
三等輕車都尉	-10.9387
軍需	-10.9391
領之	-10.9392
膝	-10.9393
彝	-10.9393
百僚	-10.9395
教化	-10.9396
以下至	-10.9397
簠簋	-10.9399
十四日	-10.9404
仍行	-10.9405
三十卷	-10.9405
本府	-10.9407
肺	-10.9408
午門外	-10.941
櫛	-10.9411
一千三百	-10.9412
行禮畢	-10.9413
倪	-10.9416
尊者	-10.9417
弄	-10.9421
壑	-10.9423
景徳	-10.9423
三年十月	-10.9423
踴躍	-10.9425
中央	-10.9428
盡行	-10.9429
序班	-10.9433
九十六	-10.9433
不息	-10.9434
之論	-10.9434
盾	-10.9437
賜宴	-10.9439
謫	-10.9442
第九	-10.9443
理事官	-10.9445
詳悉	-10.9445
偵	-10.9446
患病	-10.9448
留心	-10.9448
離任	-10.9449
地丁	-10.945
三百八十	-10.9451
墀	-10.9452
聽其	-10.9452
颺	-10.9456
漢陽	-10.9459
都事	-10.946
御容	-10.9462
兩端	-10.9463
以獻	-10.9464
長三尺	-10.9466
左右翼	-10.9468
嵗終	-10.9469
受財	-10.947
七釐	-10.947
冀州	-10.9471
小者	-10.9471
中允	-10.9472
博爾	-10.9474
五十二	-10.9476
鄆	-10.9477
火藥	-10.9477
少牢	-10.948
郊壇	-10.948
三年八月	-10.9482
五六	-10.9483
本州	-10.9485
萬邦	-10.9488
著照	-10.9489
滿洲蒙古	-10.9491
氏正藍旗滿洲馬甲	-10.9494
搢圭	-10.9496
壇廟	-10.9498
葺	-10.9499
封建	-10.9499
重修	-10.9501
十八人	-10.9501
晰	-10.9504
沽	-10.9505
朂	-10.9505
捍	-10.9505
罪名	-10.9506
圖管理	-10.9509
四十六年	-10.951
十卷陳氏曰	-10.9513
不失	-10.9514
外祖父母	-10.9516
之風	-10.9517
以禮	-10.9518
賂	-10.9519
宦	-10.9521
軍前	-10.9521
東晉	-10.9524
五年正月	-10.9525
進皇帝	-10.9526
正法	-10.9527
百王	-10.9528
㝠	-10.9529
匝	-10.9529
上京	-10.9532
梟	-10.9532
祭神	-10.9533
集議	-10.9537
耳目	-10.954
父兄	-10.9542
祗候	-10.9542
筆帖式二人	-10.9546
各隨	-10.9549
均於	-10.9549
之路	-10.9549
脯醢	-10.9552
子為	-10.9554
上親	-10.9554
南上	-10.9556
千牛	-10.9557
轉運司	-10.9557
寖	-10.9557
交納	-10.9558
叔父	-10.9558
二部	-10.9559
外委	-10.9561
千九百	-10.9561
跪迎	-10.9561
靈臺	-10.9562
三年詔	-10.9564
並非	-10.9566
受其	-10.9566
恭導皇帝	-10.9569
尺二寸	-10.9569
克什	-10.9573
水縣	-10.9573
則用	-10.9575
漢官	-10.9579
衛尉	-10.9582
乃止	-10.9582
六十八	-10.9582
迪	-10.9583
之宜	-10.9583
左都御史	-10.9583
減價	-10.9583
拿	-10.9584
尤甚	-10.9586
御幄	-10.959
從容	-10.9592
營遊擊一人	-10.9594
其先	-10.9596
責令	-10.9597
餘石	-10.9598
需索	-10.9599
守臣	-10.96
免議	-10.96
丹陽	-10.9601
縣省入	-10.9603
安之樂	-10.9605
無服	-10.9608
哈薩克	-10.9608
蕤	-10.9609
强盜	-10.9609
千餘里	-10.9609
氏鑲藍旗滿洲馬甲	-10.961
居中	-10.961
分屬	-10.961
大安	-10.961
廹	-10.9612
邕	-10.9612
氏正藍旗滿洲	-10.9613
皇帝至	-10.9613
殫	-10.9614
濱	-10.9614
者乃	-10.9614
髻	-10.9614
分設	-10.9617
改建	-10.9618
更為	-10.9618
熈寧	-10.9619
操演	-10.962
侍講	-10.962
即此	-10.9621
叅處	-10.9625
有五	-10.9625
升自東階	-10.9625
家産	-10.9627
改定	-10.9628
寘	-10.9632
諸縣	-10.9636
填星	-10.9636
發覺	-10.9638
后妃	-10.9639
擊鼓	-10.964
一書	-10.964
霽	-10.964
曰今	-10.9641
神坐前	-10.9641
子女	-10.9642
礪	-10.9643
隠匿	-10.9643
頑	-10.9644
監視	-10.9645
軫念	-10.9646
翰林院編修	-10.9647
不成	-10.9647
四百五十	-10.9652
祭禮	-10.9653
新安	-10.9653
蕃國	-10.9654
藍翎	-10.9655
不止	-10.9655
行營	-10.9657
問罪	-10.9657
諮	-10.9662
司獄	-10.9662
潯	-10.9664
舌	-10.9668
上林	-10.9669
營造	-10.9671
太祖太宗	-10.9671
億萬	-10.9671
不受	-10.9671
遵化	-10.9673
甘露	-10.9675
無復	-10.9676
敔	-10.9678
加減	-10.9679
賑之	-10.9679
歸徳	-10.968
何必	-10.9681
降為	-10.9681
七十八	-10.9681
州知州	-10.9682
運至	-10.9683
於朝	-10.9684
未明	-10.9684
五經博士	-10.9689
弋	-10.9689
奉旨	-10.9689
闘	-10.9695
限滿	-10.9696
鵠	-10.9696
方色	-10.9701
金飾	-10.9702
武定	-10.9703
二十五日	-10.9706
少保	-10.9707
謹附識	-10.9708
改𨽻	-10.9709
之所以	-10.971
不若	-10.9711
滿洲漢人各一人	-10.9712
永和	-10.9716
孔氏	-10.9718
未至	-10.9719
加級	-10.972
遙	-10.9721
六日	-10.9722
祺	-10.9724
迓	-10.9724
河水	-10.9725
纎	-10.9726
衆皆	-10.973
儐者	-10.973
半徑	-10.9731
提鎮	-10.9733
絁	-10.9736
各減	-10.9736
鎮總兵官	-10.9738
升轉	-10.9745
陸路	-10.9746
設法	-10.9747
塋	-10.9747
京口	-10.9748
璜	-10.9749
汚	-10.975
一門	-10.9752
囉	-10.9753
此事	-10.9754
敗賊	-10.9757
武帝時	-10.9759
問擬	-10.9759
升祔	-10.9763
年三月	-10.9767
改元一	-10.9768
此外	-10.9771
直學士	-10.9773
擊賊	-10.9773
受禪	-10.9773
武成	-10.9774
元年改	-10.9776
唐置	-10.9778
道員	-10.9779
廕生	-10.9779
康熙元年	-10.978
限一年	-10.9781
都水	-10.9782
正義	-10.9782
種馬	-10.9782
之勢	-10.9782
職方	-10.9783
飄	-10.9783
清明	-10.9785
祖廟	-10.9785
所取	-10.9789
滿洲一人	-10.9791
地勢	-10.9792
入詣	-10.9792
𤣥酒	-10.9794
官物	-10.9794
吉凶	-10.9795
寧府	-10.9795
九重	-10.9799
蹲	-10.9801
理宗	-10.9805
襴	-10.9807
簒	-10.9807
珠爾	-10.9807
廣南	-10.9808
廓	-10.9809
䦨	-10.9809
在後	-10.9809
行者	-10.981
原有	-10.9812
地祇	-10.9814
皇極	-10.9816
還樽所	-10.9823
祀事	-10.9824
萬斤	-10.9824
引進	-10.9827
奠帛	-10.9828
隰	-10.9829
童子	-10.983
入廟	-10.9832
禮器	-10.9832
火器營	-10.9834
釀	-10.9834
北面跪	-10.9836
收贖	-10.9839
浄	-10.9842
太常寺卿	-10.9847
髤	-10.9847
享太廟	-10.9848
祝文曰	-10.985
仍留	-10.985
議行	-10.9851
十五卷	-10.9853
始有	-10.9853
馬駝	-10.9854
仰見	-10.9854
四十七年	-10.9857
稜	-10.9857
刑法	-10.9858
長興	-10.9858
者准	-10.986
弓馬	-10.9861
男婦	-10.9862
胃	-10.9862
雀	-10.9863
椀	-10.9864
灤	-10.9864
教職	-10.9865
考覈	-10.9867
昌期	-10.987
多士	-10.9871
宋舊	-10.9875
現任	-10.9876
缾	-10.9878
無力	-10.9883
每遇	-10.9886
席前	-10.9886
閻	-10.9886
是非	-10.9888
如意	-10.9888
成祖永樂	-10.9889
良人	-10.989
螺	-10.989
其身	-10.9891
車騎	-10.9892
餘丁	-10.9893
官職	-10.9894
匠役	-10.9894
輸納	-10.9895
七十六	-10.9895
前進	-10.9896
僖祖	-10.9896
里西至	-10.9896
甘州	-10.99
於大門外	-10.9901
等府	-10.9902
戰國	-10.9902
書之	-10.9903
馬一匹	-10.9906
問曰	-10.9909
事畢	-10.9909
此例	-10.9909
光禄大夫	-10.9915
墩	-10.9915
王公以下	-10.9916
布爾	-10.9916
告於	-10.9916
朝日	-10.9916
秤	-10.992
貢舉	-10.992
之國	-10.9924
此時	-10.9925
靄	-10.9925
寰	-10.9926
莒	-10.9928
歸附	-10.9928
二錢	-10.9929
而得	-10.993
統兵	-10.9931
仍於	-10.9931
園寢	-10.9932
大禮使	-10.9936
撞	-10.9941
氅	-10.9942
百神	-10.9943
猶有	-10.9944
鶉	-10.9945
嶽鎮海瀆	-10.9946
碾	-10.9947
拒捕	-10.9948
氏鑲藍旗滿洲	-10.9949
出口	-10.9958
莫能	-10.9959
欽惟我皇上	-10.9962
充補	-10.9965
所未	-10.9968
為皇后	-10.997
未便	-10.997
納喇	-10.9973
鄱陽馬端臨貴與著	-10.9974
禮同	-10.9976
特氏	-10.9977
贊唱	-10.9977
屯衛	-10.9978
圃	-10.998
飾東珠	-10.998
平日	-10.998
璣	-10.9982
於南郊	-10.9982
亦非	-10.9983
氏鑲黄旗滿洲	-10.9984
又命	-10.9984
所經	-10.9985
珍珠	-10.9985
文明	-10.9985
謡	-10.9985
縣為	-10.9986
搢笏跪	-10.9986
皆是	-10.9987
上辛	-10.9987
買賣	-10.9987
東向立	-10.9988
請依	-10.999
也且	-10.9994
白玉	-10.9995
教諭	-10.9996
家莊	-11
鳥鎗	-11.0002
晷	-11.0002
耶律	-11.0005
轂	-11.0006
經厯	-11.0008
先王之	-11.0008
淪	-11.001
等省	-11.0011
大享	-11.0011
一十六	-11.0013
即用	-11.0013
左營	-11.0014
用紅	-11.0014
石工	-11.0016
廵狩	-11.0016
萬壽詩	-11.0016
議論	-11.0017
王貝勒	-11.0017
成祖	-11.0019
居之	-11.002
増減	-11.0022
後裔	-11.0022
文集	-11.0025
泗州	-11.0026
大學士等	-11.0026
每人	-11.0028
方丘	-11.0033
毎月	-11.0034
撲	-11.0035
差人	-11.0037
嗟	-11.0037
俄羅斯	-11.0037
千餘人	-11.0038
之音	-11.0039
四門	-11.0041
威儀	-11.0042
白金	-11.0043
薊州	-11.0045
順治九年	-11.0045
去年	-11.0046
亦宜	-11.0047
羊豕	-11.0047
崇文	-11.0054
俱著	-11.0061
㝷	-11.0062
史館	-11.0062
以進	-11.0062
亶	-11.0063
摧	-11.0064
請令	-11.0066
不得已	-11.0067
百餘人	-11.0069
麓	-11.0069
米麥	-11.0071
安撫	-11.0072
以明	-11.0072
樂部	-11.0078
器物	-11.0078
三州	-11.0084
幰	-11.0084
仁夀	-11.0087
不須	-11.0087
課銀	-11.0087
譙	-11.0088
鐘磬	-11.0088
以為常	-11.009
徒罪	-11.009
葉赫	-11.0095
致死者	-11.0096
臨御	-11.0097
之術	-11.0097
今以	-11.0098
瀾	-11.0098
六十六	-11.0098
伏惟	-11.0098
小人	-11.0099
懽	-11.01
退立於	-11.0102
既有	-11.0104
織造	-11.0104
二寸五分	-11.0106
封疆	-11.0106
入内	-11.0112
廟庭	-11.0112
靖康	-11.0113
宣讀	-11.0113
北至	-11.0114
㑹昌	-11.0115
挿	-11.0116
卷鼂氏曰皇朝	-11.0117
十年正月	-11.0119
兵民	-11.012
世宗嘉靖	-11.0124
四年四月	-11.0127
優劣	-11.0129
雹	-11.013
趕	-11.013
黄麾	-11.0132
一所	-11.0133
平章事	-11.0134
鳯陽	-11.0135
漢制	-11.0137
俱有	-11.0139
進封	-11.0142
太嵗	-11.0144
議郎	-11.0145
變宫	-11.0146
餌	-11.0146
不得不	-11.0146
從此	-11.0147
龔	-11.0147
者著	-11.0148
梨	-11.015
貂皮	-11.015
浙西	-11.0152
修葺	-11.0152
单	-11.0153
可用	-11.0154
一星	-11.0154
聫	-11.0155
貢物	-11.0156
沿邊	-11.0167
八日	-11.017
互見	-11.0172
購	-11.0172
司業	-11.0173
六宫	-11.0174
九章	-11.0175
明初	-11.0177
拷	-11.018
千三百	-11.018
鄜	-11.0182
起至	-11.0186
窑	-11.0186
西階下	-11.0186
枷號	-11.0186
户部侍郎	-11.0188
馬驛	-11.0189
殁	-11.019
本路	-11.0191
巡檢	-11.0194
各省督撫	-11.0197
奠幣	-11.0198
翼日	-11.02
翠華	-11.0207
宫室	-11.0207
交部議處	-11.0209
六十一	-11.021
良民	-11.0211
沿革	-11.0218
謀反	-11.0219
府屬之	-11.0226
四年七月	-11.0226
菹	-11.0229
鉦	-11.023
總河	-11.023
成造	-11.0232
氏鑲紅旗滿洲馬甲	-11.0232
祗告	-11.0232
詩集	-11.0233
旗二	-11.0234
儘	-11.0236
捐納	-11.0236
守之	-11.0238
二等輕車都尉	-11.0239
海寧	-11.024
米一石	-11.024
不坐	-11.0243
六十年	-11.0244
王肅	-11.0244
喧	-11.0245
峙	-11.0246
積欠	-11.0246
者加	-11.0247
價直	-11.0249
起程	-11.025
無多	-11.0251
更有	-11.0253
所稱	-11.0253
平原	-11.0255
尺寸	-11.0257
哥	-11.0259
駟	-11.026
其功	-11.0261
汰	-11.0263
榛	-11.0263
縁事	-11.0264
氏正紅旗滿洲馬甲	-11.0266
三營	-11.0266
鷄	-11.0268
軰	-11.0269
曰我	-11.027
泉州	-11.0271
畔	-11.0271
功牌	-11.0272
其子孫	-11.0273
禹貢	-11.0275
名色	-11.0275
秀才	-11.0276
人才	-11.0276
民食	-11.0277
運使	-11.0278
哈喇	-11.0279
出自	-11.028
觀其	-11.028
總裁	-11.028
其母	-11.0281
以杜	-11.0281
戰船	-11.0283
祔廟	-11.0283
其大	-11.0283
朝覲	-11.0284
興國	-11.0284
三百餘	-11.0287
徭	-11.0287
紹聖	-11.0288
運軍	-11.0288
承平	-11.0288
訖引	-11.0289
等謹案是書	-11.029
二舞	-11.0291
瓉	-11.0291
亦必	-11.0292
梁冠	-11.0293
趾	-11.0297
山海	-11.0299
繼母	-11.0299
豳	-11.03
緬甸	-11.03
二等侍衛	-11.0301
紘	-11.0303
箴	-11.0304
餘並	-11.0306
招撫	-11.0313
輕車都尉	-11.0317
朔日食	-11.032
百家	-11.0321
牛一	-11.0323
以實	-11.0325
歩軍統領	-11.0325
一千四百	-11.0326
命有司	-11.0326
縣界一百	-11.0328
靴	-11.033
悞	-11.033
諸親	-11.0331
之重	-11.0336
垓	-11.0336
明安	-11.0337
既無	-11.034
折衝	-11.0344
未備	-11.035
西河	-11.0351
調用	-11.0351
遣兵	-11.0353
工料	-11.0355
追諡	-11.0356
欽惟	-11.0356
儀駕	-11.0357
為限	-11.0357
清水	-11.0359
太祖髙皇帝	-11.036
黜陟	-11.036
相近	-11.036
今請	-11.0362
降神	-11.0363
内廷	-11.0363
所為	-11.0364
西魏	-11.0366
從之又	-11.0366
兵部侍郎	-11.0366
學臣	-11.0369
法也	-11.0371
讀祝官	-11.0374
外餘	-11.0375
扎布	-11.0377
中郎将	-11.0378
印官	-11.0379
亞終獻	-11.038
秉公	-11.0381
紊	-11.0383
於午門外	-11.0387
乾隆二十七年	-11.0387
鵲	-11.0387
大司農	-11.0387
燧	-11.0389
免死	-11.0389
嫁娶	-11.039
因以	-11.039
而復	-11.0392
天皇	-11.0396
藏之	-11.0398
封號	-11.04
令有司	-11.04
齊王	-11.0401
辭曰	-11.0402
漢之	-11.0402
來降	-11.0403
舊名	-11.0405
布哈	-11.0406
分管	-11.0406
軾	-11.0408
籍田	-11.0408
可行	-11.0411
都監	-11.0411
殿試	-11.0415
璘	-11.0415
擊敗之	-11.0416
位次	-11.0417
成書	-11.0417
八十五	-11.0419
河南府	-11.042
刑部侍郎	-11.0424
減半	-11.0424
一升	-11.0425
取士	-11.0426
奏告	-11.0426
分防	-11.0429
口徑	-11.0433
部曲	-11.0433
奉爵	-11.0433
止用	-11.0436
俛伏	-11.044
盛事	-11.0445
二十九日	-11.0446
邠	-11.0447
史官	-11.0448
年行書	-11.0451
恰	-11.0451
服制	-11.0451
實有	-11.0455
靈帝	-11.0457
叩興	-11.0458
同姓	-11.0458
乾隆十三年	-11.0458
桂陽	-11.0458
昊天	-11.0459
一級	-11.0461
旗各一	-11.0462
江北	-11.0462
户外	-11.0463
請嗣後	-11.0463
典籍	-11.0464
數多	-11.0464
典儀唱	-11.047
編審	-11.0472
搶奪	-11.0474
普天	-11.0476
賠補	-11.0476
安民	-11.0478
薩哈	-11.0478
一十八	-11.0479
詳察	-11.0479
科斷	-11.048
峒	-11.0481
清江	-11.0483
者免	-11.0485
之别	-11.0485
之田	-11.0485
安慶	-11.0489
與賊	-11.0495
使相	-11.0495
賜名	-11.0498
薩爾	-11.0501
雖未	-11.0502
淀	-11.0502
封贈	-11.0504
舂	-11.0505
四星	-11.0505
貝勒貝子	-11.0506
夙興	-11.0506
字様	-11.0508
必以	-11.0509
平人	-11.0512
惟有	-11.0514
昌縣	-11.0515
豐年	-11.0516
常起居	-11.0516
滄州	-11.0517
以兵	-11.0518
之寳	-11.0519
長慶	-11.0519
笞杖	-11.052
各加	-11.052
三斗	-11.0521
覆凖	-11.0524
於天下	-11.0525
於殿庭	-11.0526
回京	-11.0527
彭城	-11.0528
贊冠者	-11.053
永康	-11.053
醖	-11.0535
七十里	-11.0535
梗	-11.0537
雨水	-11.0538
新疆	-11.054
下詔	-11.0542
二十二日	-11.0542
左手	-11.0543
瑪爾	-11.0545
樞密	-11.0546
一代	-11.0546
王圻	-11.0546
法令	-11.0556
横行	-11.0558
省城	-11.056
論罪	-11.056
告祭	-11.0562
殉	-11.0564
郎中員外郎	-11.0564
寧宗	-11.0566
古禮	-11.0568
之謂	-11.0569
開報	-11.057
債	-11.0571
琴瑟	-11.0571
青衣	-11.0572
之福	-11.0573
領州一	-11.0573
正旦	-11.0574
升自	-11.0576
至尊	-11.0577
雍正九年	-11.0577
明徳	-11.0582
情節	-11.0582
期親	-11.0584
機宜	-11.0585
東珠	-11.0588
十四人	-11.0588
又奏	-11.059
長隨	-11.0592
等因	-11.0593
吏民	-11.0593
則又	-11.0596
太常卿引皇帝	-11.0597
田土	-11.0599
利害	-11.0601
然其	-11.0601
與人	-11.0602
伏乞	-11.0603
正黄旗滿洲	-11.0604
烏爾	-11.0605
守備一人	-11.0607
列名	-11.0611
籙	-11.0611
久之	-11.0612
田畝	-11.0613
東川	-11.0614
於左	-11.0616
還京	-11.0618
求之	-11.062
哀帝	-11.0624
浙東	-11.0624
弓匠	-11.0628
格之妻	-11.0629
易之	-11.063
領兵	-11.0633
駕士	-11.0636
以求	-11.0639
其外	-11.0642
通計	-11.0643
京兆府	-11.0643
更換	-11.0645
兩路	-11.0645
四年五月	-11.0646
一旗	-11.0646
正使	-11.0648
柷	-11.0649
檐下	-11.0652
兩二錢	-11.0654
劉氏	-11.0656
以充	-11.0656
二頃	-11.066
主婚者	-11.066
愁	-11.0661
之首	-11.0662
以定	-11.0664
也言	-11.0666
主者	-11.0666
並依	-11.0666
三百七十	-11.0666
也至	-11.0666
起科	-11.0666
督率	-11.0667
本無	-11.0668
通融	-11.067
價值	-11.0674
朝鮮國王	-11.0682
穢	-11.0683
所属	-11.0687
仍照舊例	-11.0688
財賦	-11.0689
溷	-11.069
枓	-11.0691
訐	-11.0692
元符	-11.0693
縣君	-11.0694
海州	-11.0697
者每	-11.0697
為中	-11.0698
為君	-11.0698
上疏	-11.07
庫使	-11.0701
定逺	-11.0701
奉天門	-11.0703
龍旗	-11.0704
韈	-11.0704
矣又	-11.0705
嵗貢	-11.0708
漕米	-11.0711
選取	-11.0712
今若	-11.0712
改歸	-11.0712
次子	-11.0713
躬親	-11.0716
一也	-11.0717
俸銀	-11.0718
儀刀	-11.0718
丈五尺	-11.072
者不得	-11.0721
圖書	-11.0722
䟦	-11.0723
報銷	-11.0724
裒	-11.0726
題報	-11.0727
勿論	-11.0727
凡四	-11.0728
省分	-11.0728
班次	-11.0731
九十里	-11.0734
二匹	-11.0734
明昌	-11.0737
城東	-11.0739
也自	-11.074
王師	-11.0741
奉制	-11.0744
皆從	-11.0747
與夫	-11.0748
兌	-11.0751
於明堂	-11.0751
壙	-11.0752
曩	-11.0754
再加	-11.0756
軍機	-11.0756
引皇太子	-11.076
規避	-11.076
錢法	-11.0763
人物志	-11.0763
一匹	-11.0763
江都	-11.0765
其南	-11.0765
尊崇	-11.0768
亦不得	-11.0769
殿門外	-11.0772
寺觀	-11.0772
皇祐	-11.0772
以下及	-11.0774
之繼妻	-11.0775
嚴飭	-11.0778
詔令	-11.0779
朝官	-11.0779
黄色	-11.0781
賭	-11.0782
六毫	-11.0782
惰	-11.0783
考其	-11.0784
十餘里	-11.0787
南極	-11.0787
制如	-11.079
始封	-11.079
督臣	-11.079
所議	-11.079
减一等	-11.0792
守令	-11.0792
提刑	-11.0793
賜之	-11.0794
分理	-11.0796
渡河	-11.0796
山水	-11.0799
其主	-11.0801
之妻伊爾根覺羅氏	-11.0803
一尺二寸	-11.0807
導駕官	-11.0807
建元	-11.0807
坐落	-11.0811
四百六十	-11.0813
項下	-11.0814
桞	-11.0815
曰臣聞	-11.0816
罍洗	-11.0822
實力	-11.0822
十有二人	-11.0823
族人	-11.0823
八旗都統	-11.0825
依例	-11.0826
明太祖洪武	-11.0826
曽祖	-11.0828
扶風	-11.0828
葅	-11.083
三百里	-11.0831
卒子	-11.0831
軍節度使	-11.0832
鄉村	-11.0833
大王	-11.0834
首告	-11.0836
定數	-11.0837
不能自	-11.084
帝命	-11.0842
等路	-11.0842
無逸	-11.0843
乾隆十九年	-11.0844
天章	-11.0844
帮	-11.0845
鳯凰	-11.0846
犯人	-11.0846
甌	-11.0846
徳宗	-11.0846
璟	-11.0848
旗鼓	-11.0849
者絞	-11.0849
郁	-11.0851
邈	-11.0851
人康熙	-11.0852
一作	-11.0852
者聴	-11.0853
陪位	-11.0854
熾	-11.0855
聯	-11.0856
之㫖	-11.0857
豫省	-11.0857
大行	-11.0866
副都御史	-11.0867
鼗	-11.0868
之誠	-11.0869
夕月	-11.0871
乾隆七年	-11.0873
慶典	-11.0874
偽總兵	-11.0876
巡狩	-11.0876
飭令	-11.0876
洪武初	-11.0877
氏正黄旗滿洲䕶軍	-11.0877
刑獄	-11.0878
檜	-11.0878
剔	-11.0879
何如	-11.088
蘭州	-11.0881
金城	-11.0881
海口	-11.0882
杖一百流三千里	-11.0882
撮	-11.0882
其半	-11.0883
嵩呼	-11.0883
斬之	-11.0885
税銀	-11.0885
造作	-11.0886
宜依	-11.0887
北南向	-11.0888
五十一	-11.089
銀印	-11.089
諸陵	-11.0891
諸物	-11.0892
親行	-11.0893
哈宻	-11.0896
曠典	-11.0897
顯祖	-11.0897
隨從	-11.0899
故縱	-11.09
法駕鹵簿	-11.0901
五世	-11.0902
南康	-11.0902
夹	-11.0903
富民	-11.0905
里東西距	-11.0906
受封	-11.091
府領	-11.0911
分立	-11.0913
宣洩	-11.0914
例處分	-11.0915
平行	-11.0917
憫	-11.0919
並以	-11.0923
宣武	-11.0925
五十七年	-11.0927
更不	-11.0928
起運	-11.0928
鳳陽	-11.0929
二星	-11.0929
十萬兩	-11.0931
妹	-11.0931
五十一年	-11.0931
二十里	-11.0935
喀喇沁	-11.0936
授官	-11.0936
則曰	-11.0937
千六百	-11.0937
文選	-11.0937
年號	-11.0944
六十三	-11.0952
大雨	-11.0957
不拜	-11.0958
籩豆簠簋	-11.0962
寛免	-11.0962
凉州	-11.0964
笄	-11.0964
遇賊	-11.0965
不法	-11.0965
三年九月	-11.0966
降三級調用	-11.0968
無遺	-11.0969
聲應	-11.0969
澹	-11.0972
稍却	-11.0973
三十餘	-11.0974
祈榖	-11.0975
大旱	-11.0975
湖水	-11.0977
平地	-11.0979
城守營	-11.098
祝帛	-11.0981
攔	-11.0981
桂林	-11.0985
廬舍	-11.0989
會典	-11.099
衆賔	-11.099
其妻	-11.0991
六十九	-11.0991
天禧	-11.0991
齊衰	-11.0992
莞	-11.0995
縛	-11.0999
大口袴	-11.0999
六年正月	-11.1001
有序	-11.1005
五府	-11.1005
吉日	-11.1006
降革	-11.1007
漿	-11.1009
一項	-11.1013
如上儀	-11.1014
禰	-11.1014
雍正六年	-11.1015
内閣學士	-11.1017
個	-11.1017
並為	-11.1018
器用	-11.1018
徭役	-11.1023
先於	-11.1023
罪犯	-11.1024
骨朶	-11.1025
七言律	-11.1025
披甲	-11.1027
異同	-11.1028
監丞	-11.1032
御馬	-11.1032
視事	-11.1034
太尊	-11.1034
貢獻	-11.1035
五聲	-11.1037
提領	-11.1039
既已	-11.104
雲梯	-11.1042
馬歩	-11.1044
楮	-11.1053
清酒	-11.1055
限期	-11.1055
尚膳	-11.1056
費揚古	-11.1058
緇	-11.1059
諡忠	-11.106
趙王	-11.1061
巽	-11.1064
以從	-11.1064
透	-11.1064
得人	-11.1065
州軍	-11.1066
大員	-11.1066
記名	-11.1067
紏	-11.1067
峰	-11.1068
奠獻	-11.1068
三度	-11.1068
萬戸	-11.107
所著	-11.1071
不備	-11.1071
剌	-11.1072
章程	-11.1074
武備	-11.1075
上中下	-11.1075
益州	-11.1077
之區	-11.108
其舊	-11.1081
撫按	-11.1083
則無	-11.1084
鐃	-11.1085
下嫁	-11.1087
或云	-11.1087
奏凖	-11.1094
各六	-11.1097
勾當	-11.1097
把總二人	-11.1097
於庭	-11.1098
簡用	-11.1099
立班	-11.1099
白馬	-11.11
喪主	-11.1102
封為	-11.1102
郡君	-11.1103
奏議	-11.1103
已而	-11.1103
夔	-11.1103
以東	-11.1104
即照	-11.1105
鞏昌	-11.1106
天道	-11.1107
助祭	-11.1107
髦	-11.1108
别立	-11.1109
家屬	-11.1112
回籍	-11.1114
以下者	-11.1115
仰體	-11.1116
年一貢	-11.1121
襲職	-11.1122
攅	-11.1123
其三	-11.1123
馴	-11.1125
初次	-11.1125
再犯	-11.1129
凡六	-11.113
毬	-11.113
永定	-11.1131
寧州	-11.1132
璇	-11.1132
羊一豕一	-11.1133
二麥	-11.1134
覺察	-11.1135
涯	-11.1135
之先	-11.1139
荒地	-11.1139
我國家	-11.1139
無罪	-11.1142
可不	-11.1142
近代	-11.1142
營伍	-11.1142
輟	-11.1143
爵洗	-11.1143
入覲	-11.1145
奈何	-11.115
志云	-11.1151
中正	-11.1152
實錄	-11.1152
宣諭	-11.1153
復行	-11.1153
積水	-11.1153
在位官皆再拜	-11.1155
衞所	-11.1156
擊賊於	-11.1157
春官	-11.1158
日本	-11.1159
景陵	-11.1159
梧	-11.1162
乾隆四年	-11.1164
疫	-11.1164
劄付	-11.1165
乾隆十四年	-11.1166
逄	-11.1167
崇徳元年	-11.1167
束帛	-11.1169
服衮冕	-11.1172
龍江	-11.1174
米豆	-11.1175
四年六月	-11.1175
俸餉	-11.1177
工匠	-11.1177
九年正月	-11.1178
若無	-11.1178
大慶殿	-11.1179
侍班	-11.1182
五十餘	-11.1182
自號	-11.1186
奏定	-11.1186
汝南	-11.1186
行事執事官	-11.1188
作亂	-11.1189
又何	-11.119
喪禮	-11.1191
可為	-11.1192
承傳	-11.1193
拍板	-11.1193
分獻	-11.1194
婺	-11.1194
騷	-11.1196
酌議	-11.1196
换	-11.1199
不知情	-11.12
各於	-11.1201
個月	-11.1201
三頃	-11.1201
公侯伯	-11.1202
扣除	-11.1203
悠	-11.1203
左僕射	-11.1206
之義也	-11.1206
亦得	-11.1207
保安	-11.1208
插	-11.1209
之親	-11.121
大率	-11.1211
服議	-11.1212
平江	-11.1213
鎮圭	-11.1215
銓選	-11.1217
十三人	-11.1223
飲福受胙	-11.1223
流罪	-11.1224
蹙	-11.1226
詣神位前	-11.1228
違禁	-11.1229
豈非	-11.123
小次	-11.1232
七十九	-11.1233
兩四錢	-11.1235
享官	-11.1235
伽	-11.1235
塤	-11.1237
滿洲䝉古漢軍	-11.1239
刋刻	-11.124
前導皇帝	-11.1241
宫門外	-11.1242
齊縗	-11.1243
泰安	-11.1244
内賛	-11.1244
監試	-11.1244
獻祖	-11.1247
者自	-11.1248
殿後	-11.1248
無私	-11.1248
千四百	-11.1252
鍋	-11.1256
中天	-11.1256
輔國	-11.1256
和糴	-11.1257
鑲黄旗滿洲	-11.1259
合祭	-11.1262
上天	-11.1263
有力	-11.1263
簴	-11.1263
歇	-11.1264
告者	-11.1264
正史	-11.1266
東序	-11.1267
繭	-11.1268
襟	-11.1268
為從者	-11.1268
承審	-11.1269
慶祝	-11.1269
肅州	-11.1271
里西北至	-11.1271
陵縣	-11.1272
本人	-11.1273
挨	-11.1274
推恩	-11.1275
稱為	-11.1275
川縣	-11.1276
位立定	-11.1278
該犯	-11.1278
有能	-11.1278
閲視	-11.1279
香帛	-11.128
爾格	-11.1282
南斗	-11.1285
尋議	-11.1287
南岸	-11.1287
合用	-11.1288
泰陵	-11.1289
人力	-11.1289
永清	-11.129
特賜	-11.129
在此	-11.129
若以	-11.1294
百世	-11.1295
三路	-11.1295
若今	-11.1297
嶠	-11.1299
自殺	-11.1302
軍機大臣	-11.1303
緩決	-11.1304
冠帶	-11.1306
三年六月	-11.1306
宗子	-11.1307
之祀	-11.1311
縣南	-11.1311
端拱	-11.1313
牧長	-11.1313
馬氏	-11.1315
餘頃	-11.1316
周圍	-11.1318
跪奠爵	-11.1319
擎	-11.132
漢魏	-11.1321
太醫院	-11.1324
報明	-11.1324
遞減	-11.1325
降一級留任	-11.1325
從人	-11.1325
甞	-11.1325
苴	-11.1326
前此	-11.1326
樂舞生	-11.1327
言語	-11.1327
扆	-11.1327
皓	-11.1328
羔	-11.1328
三錢	-11.1332
勞績	-11.1332
但有	-11.1332
畀	-11.1333
仍用	-11.1336
手足	-11.1343
至誠	-11.1343
編鐘	-11.1343
雖無	-11.1343
陪臣	-11.1344
以祀	-11.1346
推之	-11.1346
今理	-11.1348
者除	-11.135
楮帛	-11.1351
進表	-11.1352
亦皆	-11.1353
詳報	-11.1353
司正	-11.1354
天恩	-11.1358
大凌河	-11.1359
山林	-11.1362
匾額	-11.1365
立功	-11.1366
巍巍	-11.1371
當以	-11.1372
氏鑲白旗滿洲馬甲	-11.1372
我軍	-11.1373
咸寧	-11.1375
之徳	-11.1376
不知其	-11.1376
查核	-11.1378
照例議處	-11.1379
勒索	-11.1381
稽考	-11.1381
陳奏	-11.1383
皆可	-11.1384
之辭	-11.1386
殳	-11.1386
官府	-11.1387
廣陵	-11.1388
鈿	-11.1389
凡人	-11.139
七十三	-11.1391
記云	-11.1391
雜記	-11.1392
鹵	-11.1393
年滿	-11.1393
糧船	-11.1394
誨	-11.1394
綰	-11.1395
應否	-11.1395
果毅	-11.1395
之兵	-11.1397
秋成	-11.1398
現年一百	-11.1398
覈實	-11.1399
當是	-11.1399
名數	-11.1399
巡捕	-11.1401
事理	-11.1402
三毫	-11.1404
使司	-11.1405
𫝊曰	-11.1405
國事	-11.1407
既成	-11.1408
保住	-11.141
香案前	-11.1411
四年詔	-11.1412
三星	-11.1413
神州	-11.1413
一十四	-11.1415
教養	-11.1417
三年十一月	-11.1418
已成	-11.1419
三成	-11.1419
臣竊	-11.142
而自	-11.1423
焉其	-11.1424
曽經	-11.1425
携	-11.1426
十有九	-11.1428
乾清宫	-11.1428
刑罰	-11.1428
西山	-11.1429
此乃	-11.1431
經制	-11.1432
品秩	-11.1435
涼州	-11.1435
尺八寸	-11.1438
迎送	-11.1439
作弊	-11.144
首尾	-11.1443
伏見	-11.1443
嘉禾	-11.1444
朝集使	-11.1447
運米	-11.1449
如來儀	-11.1452
食鹽	-11.1453
水路	-11.1453
我皇考	-11.1454
數月	-11.1454
乾隆五年	-11.1454
楚王	-11.1455
宣徽使	-11.1455
四年八月	-11.1456
土黙特	-11.1456
六兩	-11.1457
憤	-11.1459
曦	-11.146
貞祐	-11.146
長公主	-11.146
養育兵	-11.1462
左右司	-11.1462
進獻	-11.1462
惠帝	-11.1465
開成	-11.1466
構	-11.1467
排列	-11.1467
江夏	-11.1468
降一級	-11.1468
庭中	-11.1471
正白旗滿洲	-11.1471
先登	-11.1473
饒州	-11.1473
新河	-11.1473
天寶	-11.1475
從來	-11.1475
東昌	-11.1475
銀二兩	-11.1477
臨江	-11.1479
六七	-11.1479
歸入	-11.148
司務	-11.1481
名下	-11.1482
卷鼂氏曰唐	-11.1482
流賊	-11.1483
聖節	-11.1483
安車	-11.1483
酌醴齊	-11.1484
可得而	-11.1484
積貯	-11.1484
出結	-11.1484
設香案	-11.1485
日出	-11.1486
用青	-11.1487
紀錄	-11.1488
矛	-11.1489
脂	-11.1489
郝	-11.149
三層	-11.1491
賢能	-11.1492
參知政事	-11.1492
烏蘇	-11.1492
厫	-11.1493
有聲	-11.1493
者矣	-11.1493
之亂	-11.1493
並如上儀	-11.1494
兩江總督	-11.1495
賛禮者引	-11.1499
置于	-11.1501
歩兵	-11.1501
十一人	-11.1502
我皇	-11.1504
遺漏	-11.1506
朝獻	-11.1508
歸順	-11.1509
不經	-11.1511
可否	-11.1512
賢良	-11.1515
長五尺	-11.1515
始也	-11.1515
果能	-11.1517
巡按	-11.1518
八十里	-11.152
爻	-11.152
倧	-11.1521
鑄造	-11.1521
邳	-11.1524
太陰	-11.1524
㨿	-11.1525
服色	-11.1525
牓	-11.1525
奉天府	-11.1526
个	-11.1526
因公	-11.1526
年四月	-11.1526
車輅	-11.1526
各府州縣	-11.1527
之失	-11.1527
岳州	-11.1528
獲罪	-11.1529
詩云	-11.153
宗伯	-11.1531
内殿	-11.1533
西平	-11.1534
侯伯	-11.1534
一丈二尺	-11.1534
之詩	-11.1535
蘭泰	-11.1536
溉	-11.1538
禮文	-11.1539
籌畫	-11.154
奈	-11.1541
大破之	-11.1542
始行	-11.1542
八十以上	-11.1542
降諭㫖	-11.1542
勒石	-11.1543
附於	-11.1543
不無	-11.1545
經傳	-11.1549
十有六人	-11.1551
游牧	-11.1554
不可勝	-11.1555
法度	-11.1556
流入	-11.1556
宫闈令	-11.156
掄	-11.1561
戢	-11.1563
嘆	-11.1564
社稷壇	-11.1565
將該	-11.1566
實行	-11.1567
渚	-11.1569
夜明	-11.157
詹	-11.157
等情	-11.157
發引	-11.1571
供給	-11.1572
出迎	-11.1573
人物	-11.1573
三獻官	-11.1573
太之妻	-11.1573
考課	-11.1574
羣牧	-11.1576
俱用	-11.1576
庫爾	-11.158
年分	-11.1581
幂	-11.1584
權衡	-11.1586
孟夏	-11.1587
景靈宫	-11.1591
化縣	-11.1592
長一尺	-11.1593
山谷	-11.1593
糜	-11.1596
交趾	-11.1598
天心	-11.1599
保結	-11.1599
故城	-11.16
先農壇	-11.16
者謂之	-11.1601
出圭	-11.1601
浹	-11.1601
中書門下奏	-11.1605
祀昊天上帝	-11.1607
除授	-11.1608
陳氏	-11.1609
數十萬	-11.1613
七星	-11.1615
南門	-11.1617
莫若	-11.1618
親迎	-11.1619
七年正月	-11.1619
降輅	-11.1619
歙	-11.1622
檻	-11.1623
耒	-11.1623
烹	-11.1623
祀昭忠祠	-11.1624
樂正	-11.1624
司言	-11.1626
有闕	-11.1626
滿漢各一人	-11.1626
十二律	-11.1627
沿河	-11.1628
盛徳	-11.163
觜	-11.1632
陞任以	-11.1634
緦	-11.1634
三朝	-11.1636
賔主	-11.1637
長白山	-11.1641
平時	-11.1642
主司	-11.1642
兩拜	-11.1642
者三	-11.1643
雨露	-11.1643
有異	-11.1645
八十七	-11.1646
御座前	-11.1646
書成	-11.1649
題凖	-11.1652
光宗	-11.1652
北面西上	-11.1653
建寧	-11.1653
贏	-11.1654
不符	-11.1654
應徴	-11.1654
者惟	-11.1655
子男	-11.1656
氏正白旗滿洲䕶軍	-11.1656
抹額	-11.1657
六十里	-11.1657
益都	-11.1658
者罪	-11.1659
十一年正月	-11.166
輓	-11.1661
三百九十	-11.1662
丈餘	-11.1662
潁川	-11.1663
鳯翔	-11.1664
雍正八年	-11.1666
石零	-11.1666
釐八毫	-11.1667
食貨志	-11.1667
乍	-11.1668
驛馬	-11.1668
束帶	-11.1668
各照	-11.1668
所云	-11.1668
某氏	-11.167
一寸五分	-11.1674
東上閤門官	-11.1675
司馬光	-11.1676
四百八十	-11.1677
恩賞	-11.1677
必致	-11.1677
尚書侍郎	-11.1678
千牛將軍	-11.168
銅鉛	-11.1681
皇朝	-11.1682
每斤	-11.1683
與天	-11.1683
乾隆三十年	-11.1685
達色	-11.1686
如所請	-11.1687
諸侯王	-11.1688
者給	-11.1689
凢	-11.1691
畿内	-11.1691
霖雨	-11.1692
吏典	-11.1695
庶吉士	-11.1695
别無	-11.1695
翣	-11.1695
墉	-11.1695
孔子曰	-11.1695
盒	-11.1695
殖	-11.1696
鵞	-11.1696
應於	-11.1698
陽侯	-11.1701
規模	-11.1701
又復	-11.1704
太廟令	-11.1704
屬府	-11.1705
石門	-11.1709
水師營	-11.1709
褐	-11.1715
按此	-11.1717
嶺南	-11.1718
先師孔子	-11.1721
瑜	-11.1722
輿鬼	-11.1722
桓帝	-11.1723
不善	-11.1723
兩六錢	-11.1724
各倉	-11.1724
酒罇	-11.1724
烏孫	-11.1725
多羅郡王	-11.1726
六十人	-11.1726
昭王	-11.1726
典章	-11.1728
瀕	-11.1728
𠡠	-11.1728
軍民人等	-11.173
渝	-11.1732
佔	-11.1732
尊親	-11.1732
陬	-11.1736
朝鮮國	-11.1737
分撥	-11.1739
東階下	-11.174
承應	-11.1741
迄今	-11.1746
百八十	-11.1749
謹遣	-11.1752
典史	-11.1753
各引	-11.1754
按年	-11.1759
盂	-11.176
刁	-11.1762
餘俱如	-11.1763
戀	-11.1764
罪囚	-11.1764
賑恤	-11.1765
五年二月	-11.1765
按翼	-11.1765
鮑	-11.1765
拖欠	-11.1766
亹	-11.1767
定鼎	-11.1767
民公	-11.1772
無人	-11.1773
戸口	-11.1773
前來	-11.1774
文徳	-11.1774
疾苦	-11.1774
詞訟	-11.1776
六度	-11.1776
恭候	-11.1778
甚屬	-11.1778
去其	-11.1782
宫内	-11.1783
宣王	-11.1785
宗廟之	-11.1789
隋唐	-11.1796
全書	-11.1798
俸滿	-11.1798
劭	-11.1799
垂拱	-11.1801
榆林	-11.1803
試卷	-11.1803
妥協	-11.1804
孜孜	-11.1805
職者	-11.1806
薫	-11.1806
互市	-11.1811
縁由	-11.1815
止哭	-11.1816
商船	-11.1817
每位	-11.1818
之要	-11.182
一等男	-11.1821
其族	-11.1821
起於	-11.1822
薨子	-11.1822
加増	-11.1823
編次	-11.1826
辰星	-11.1826
慤	-11.1826
監修	-11.1827
話	-11.1828
所設	-11.1828
昉	-11.1832
廟號	-11.1832
奠玉帛	-11.1832
八十九	-11.1833
宼	-11.1833
伊犂	-11.1834
五部	-11.1834
一千六百	-11.1834
扼	-11.1835
毆傷	-11.1836
平章	-11.1837
洎	-11.1837
箎	-11.1837
諏吉	-11.1839
桃源	-11.1839
召見	-11.184
乾隆十五年	-11.1841
代宗	-11.1842
附郭	-11.1843
霸州	-11.1844
又加	-11.1844
俱令	-11.1845
季秋	-11.1848
太上皇	-11.185
兩岸	-11.1851
猶未	-11.1852
千戸所	-11.1854
所領	-11.1855
行移	-11.1856
還齋所	-11.1857
四府	-11.1862
挂	-11.1865
内侍省	-11.1865
棣	-11.1866
精神	-11.1866
巴圖	-11.1866
乾隆二十一年	-11.1866
蝕	-11.1867
摹	-11.1868
顒	-11.187
移送	-11.1874
七十四	-11.1875
赤質	-11.1875
忭	-11.1875
里東北至	-11.1876
甲兵	-11.1876
而非	-11.1876
鑲藍旗滿洲	-11.1877
作何	-11.1878
大赦天下	-11.1879
縣北	-11.1881
六軍	-11.1882
大統	-11.1885
未滿	-11.1885
瀘	-11.1886
投誠	-11.1888
代為	-11.1889
查出	-11.1891
進饌	-11.1896
五十五年	-11.1897
釋之	-11.1898
佚	-11.1899
壮丁	-11.1899
漳州	-11.1899
覇	-11.19
摭	-11.19
嵗月	-11.1901
自今已後	-11.1901
是謂	-11.1901
公田	-11.1902
地方任	-11.1902
不識	-11.1904
該衙門	-11.1906
而立	-11.1907
叨	-11.1908
庫銀	-11.1908
所掌	-11.1916
州領	-11.1919
布衣	-11.192
雍熙	-11.1922
表文	-11.1922
祭法	-11.1924
大裘	-11.1924
青羅	-11.1924
禮義	-11.1925
烏什	-11.1926
開泰	-11.1929
本地	-11.1929
賞䘏如例	-11.193
生擒	-11.193
驃騎	-11.193
老疾	-11.1931
之道也	-11.1931
疾病	-11.1932
陞殿	-11.1933
改發	-11.1933
筩	-11.1934
亦多	-11.1934
祕	-11.1936
碣	-11.1938
砲	-11.1938
明兵	-11.1938
俯伏興平身	-11.1938
易州	-11.1939
鑾輿	-11.194
抃	-11.1942
廬州	-11.1942
泛齊	-11.1945
編入	-11.1945
徃徃	-11.1947
跪奠於	-11.1948
京都	-11.1948
丁卯	-11.1948
鄉侯	-11.1949
禁中	-11.195
再三	-11.1954
闗係	-11.1955
温州	-11.1955
若是	-11.1955
漢初	-11.1955
服同	-11.196
斬首	-11.196
宿衞	-11.1962
戰功	-11.1963
救荒	-11.1963
登極	-11.1963
惻	-11.1963
水災	-11.1963
闇	-11.1964
縀一疋	-11.1965
婚姻	-11.1966
賦役	-11.1966
乾隆四十五年	-11.1966
井田	-11.1967
七毫	-11.197
罽	-11.1971
廸	-11.1971
夫婦	-11.1971
視之	-11.1972
鴨	-11.1974
攘	-11.1975
摯	-11.1975
里西南至	-11.198
屬州	-11.1981
一案	-11.1981
雨雪	-11.1985
器皿	-11.1986
晡	-11.1986
轉行	-11.1987
柴塘	-11.1988
併入	-11.1988
見錢	-11.1989
軍旅	-11.1991
展限	-11.1994
皮弁	-11.1996
上三旗	-11.1996
其位	-11.1998
七萬	-11.1998
天啟	-11.1998
六縣	-11.2
國書	-11.2001
圉	-11.2002
額徴	-11.2002
順徳	-11.2003
於殿上	-11.2004
畿輔	-11.2004
神靈	-11.2004
省饌	-11.2009
拯	-11.201
掌儀司	-11.2011
秘書	-11.2011
牲牢	-11.2012
毗	-11.2013
特㫖	-11.2013
五年六月	-11.2014
制同	-11.2015
何所	-11.2016
午階	-11.2018
里東南至	-11.2019
小臣	-11.2022
大内	-11.2023
十五里	-11.2023
臨幸	-11.2024
安撫使	-11.2025
減二等	-11.2029
座前	-11.2032
平常	-11.2034
本名	-11.2036
零不等	-11.2037
襄王	-11.2037
阿里	-11.2039
千匹	-11.2044
俘獲	-11.2044
剥	-11.2046
六萬	-11.2046
鐵錢	-11.2049
太湖	-11.2049
即是	-11.205
薰	-11.205
倣此	-11.2051
山下	-11.2057
一統	-11.2059
天祐	-11.2061
三處	-11.2061
而民	-11.2064
三里	-11.2066
頭等	-11.2066
台州	-11.2067
聖廟	-11.2068
獲者	-11.2073
遇恩詔晉	-11.2074
湖北湖南	-11.2074
七十七	-11.2074
欽定續通典卷	-11.2075
笳	-11.2075
入立於	-11.2076
鴻臚寺官	-11.2076
窪	-11.2077
田宅	-11.2078
變價	-11.2078
甲乙	-11.2079
夾帶	-11.2079
悍	-11.208
祈禱	-11.2082
運送	-11.2083
金史	-11.2086
甄别	-11.2087
氏鑲紅旗滿洲	-11.2087
圩	-11.2089
神御	-11.209
時價	-11.209
按照	-11.2093
文武官員	-11.2095
某人	-11.2097
兵馬司	-11.2097
初定	-11.2098
神龍	-11.2098
主祭	-11.21
曾祖	-11.2102
清濁	-11.2102
首領官	-11.2104
百二十里	-11.2108
蛟	-11.2109
江蘇安徽	-11.2109
本生	-11.2109
頥	-11.211
臨朝	-11.2111
進士官	-11.2112
烟瘴	-11.2113
証	-11.2113
其色	-11.2114
烽	-11.2114
不雨	-11.2116
大辟	-11.2118
行中書省	-11.2119
右僕射	-11.2122
養亷	-11.2123
孝思	-11.2123
馬政	-11.2123
工竣	-11.2124
稱有制	-11.2124
從五品	-11.2125
太府	-11.2128
五百餘	-11.2128
用印	-11.213
為人後者	-11.2131
借給	-11.2131
之多寡	-11.2133
萬貫	-11.2134
覆以	-11.2135
視朝	-11.2135
耒耜	-11.2136
漢興	-11.2138
領縣六	-11.2138
海運	-11.2141
宦者	-11.2141
硯	-11.2142
郯	-11.2144
五疋	-11.2148
竽	-11.2149
篤疾	-11.2149
伶	-11.2149
罹	-11.215
所造	-11.2151
兵一千	-11.2152
塌	-11.2152
猗	-11.2153
支用	-11.2155
少者	-11.2157
草料	-11.2159
固山	-11.2162
今欲	-11.2162
大行皇帝	-11.2165
平凉	-11.2166
中途	-11.2166
京東	-11.2167
同知通判	-11.2169
安郡	-11.2171
二千四百	-11.2173
貧者	-11.2174
水草	-11.2177
漢字	-11.2177
豹尾	-11.2178
糧餉	-11.2178
降二級	-11.2181
俎豆	-11.2182
而不知	-11.2182
稟	-11.2182
旗民	-11.2182
受幣	-11.2184
隨行禮	-11.2186
挹	-11.2187
沔	-11.2187
嵐	-11.2187
犧牲	-11.2187
未央	-11.2188
譬	-11.2189
竅	-11.219
九十九	-11.2191
文理	-11.2191
太常卿奏	-11.2192
城北	-11.2193
拒戰	-11.2196
廢弛	-11.2199
金玉	-11.22
二處	-11.2201
蕤賔	-11.2202
龜兹	-11.2203
教坊司	-11.2205
周人	-11.2206
一千八百	-11.2207
太一	-11.2208
門之内	-11.2211
職任	-11.2213
有天下	-11.2215
珂	-11.2215
拍	-11.2216
托克托	-11.2216
䭾	-11.2216
騾	-11.2216
六十名	-11.2218
江左	-11.2218
五彩	-11.2218
亦令	-11.2219
柘	-11.222
鄉里	-11.222
即可	-11.2221
北軍	-11.2222
聖明	-11.2223
鐃歌	-11.2223
磧	-11.2224
典吏	-11.2225
佐領驍騎校	-11.2226
公費	-11.2227
恩澤	-11.223
順治八年	-11.2231
號令	-11.2231
特恩	-11.2232
常山	-11.2234
客省	-11.2235
出兵	-11.2235
每歲	-11.2237
聫曰	-11.2245
伏請	-11.2245
明代	-11.2245
武陵	-11.2247
大祥	-11.2247
北魏	-11.2249
各司	-11.2249
差使	-11.2251
頸	-11.2253
到京	-11.2254
䧏	-11.2255
該管上司	-11.2255
燔柴	-11.2257
上施	-11.2257
六年五月	-11.2258
邦國	-11.2258
兵起	-11.2258
嗜	-11.2259
囿	-11.226
皇帝皇后	-11.226
父老	-11.226
牛馬	-11.2261
聖壽	-11.2262
而不能	-11.2263
營房	-11.2264
髙一丈	-11.2268
本道	-11.2268
之難	-11.2269
條例一	-11.2274
採辦	-11.2275
天保	-11.2276
禮制	-11.2277
布帛	-11.2279
廵察	-11.2281
戯	-11.2284
里去西京	-11.2285
大駕鹵簿	-11.2287
戶	-11.2287
五刑	-11.2287
繖扇	-11.2289
沐浴	-11.2289
移文	-11.2289
䋲	-11.2289
典制	-11.229
泰管理	-11.229
紫禁城	-11.2291
瑛	-11.2291
歴年	-11.2291
醜	-11.2293
圎	-11.2293
滚	-11.2294
奏入報聞	-11.2297
衢州	-11.23
媚	-11.2301
五斗	-11.2305
入室	-11.2306
松江	-11.2308
奉使	-11.2311
一獻	-11.2311
萬全	-11.2311
制作	-11.2312
百司	-11.2312
貢馬	-11.2315
一十三	-11.2316
河清	-11.2317
敬天	-11.2317
章句	-11.2318
厚一寸	-11.2319
米石	-11.2319
擡	-11.2324
僎	-11.2324
者乎	-11.2325
四百二十	-11.2325
侍衛如常儀	-11.2326
撓	-11.2327
者杖八十	-11.2327
方畧	-11.2327
錢文	-11.2328
弭	-11.2328
斡	-11.2329
豈能	-11.2329
諷	-11.233
埠	-11.2331
姦夫	-11.2331
鶻	-11.2334
己卯	-11.2338
曰天子	-11.2342
準噶爾	-11.2344
遣官祭	-11.2346
湖州	-11.2349
班固	-11.235
以朱	-11.235
兵器	-11.235
執笏俛伏興	-11.2352
桓公	-11.2352
起居注	-11.2353
諭令	-11.2353
分之一	-11.2354
民户	-11.2355
明太祖	-11.2356
右丞	-11.2357
酢	-11.2357
里西南到	-11.2359
諤	-11.2359
兔	-11.2359
巵	-11.236
二十一日	-11.2362
一箇	-11.2362
千百	-11.2362
出門	-11.2363
其情	-11.2363
慶雲	-11.2363
身死	-11.2367
稱臣	-11.2369
部郎中	-11.2371
正五品	-11.2375
雲漢	-11.2376
時巡	-11.2379
倉厫	-11.2379
朕惟	-11.2381
興元	-11.2381
武衛	-11.2382
有司奏	-11.2383
九十七	-11.2384
五祀	-11.2386
右手	-11.2388
爵酒	-11.2389
唐縣	-11.2391
用事	-11.2392
水火	-11.2393
創業	-11.2395
女直	-11.2395
安石	-11.2396
行慶賀禮	-11.2396
景運	-11.2397
親戚	-11.2397
安樂	-11.2397
東漢	-11.2398
犁	-11.2398
僖公	-11.2399
鄭司農云	-11.2399
堅固	-11.2399
瑗	-11.24
癸卯	-11.24
明宗	-11.24
猾	-11.24
賃	-11.2401
岷	-11.2403
六十二	-11.2403
七八	-11.2403
卞	-11.2403
河南山東	-11.2404
西藏	-11.2405
松潘	-11.2405
行止	-11.2406
者準	-11.2407
扵是	-11.2407
古帝王	-11.2407
大計	-11.2412
統軍	-11.2413
邊外	-11.2416
司郎中	-11.2417
按月	-11.2418
進立於	-11.2418
舊法	-11.2418
洪範	-11.2419
五音	-11.242
四年十月	-11.2421
也按	-11.2423
南向設	-11.2425
中祀	-11.2426
簇	-11.2426
欽遵	-11.2426
侍臣上馬	-11.243
西廡	-11.2432
禮部奏	-11.2433
吞	-11.2434
不齊	-11.2435
洗馬	-11.2436
可矜	-11.2438
十八卷	-11.244
前任	-11.244
餻	-11.2441
三叩	-11.2441
正七品	-11.2443
商量	-11.2444
給事	-11.2445
九卷	-11.2445
威逺	-11.2446
祭地	-11.2446
得財	-11.245
天福	-11.2451
福胙	-11.2452
安東	-11.2453
主客	-11.2458
米榖	-11.2459
仁和	-11.2462
各四人	-11.2463
冄拜	-11.2464
務期	-11.2465
施於	-11.2467
農民	-11.2467
以爲	-11.2467
三年十二月	-11.2469
不限	-11.2471
金花	-11.2471
軟	-11.2471
入城	-11.2472
臨洮	-11.2474
入宫	-11.2475
養老	-11.2476
辨其	-11.2478
舶	-11.2478
去嵗	-11.2479
酺	-11.2479
等州縣	-11.248
出洋	-11.2482
食貨	-11.2483
嘉祥	-11.2483
北門	-11.2483
録一卷	-11.2486
城垣	-11.2489
五字	-11.2492
髙郵	-11.2492
或謂	-11.2495
東靣	-11.2496
穫	-11.2496
加元服	-11.2499
雍州	-11.25
府縣	-11.2505
應給	-11.2506
蔡邕	-11.2509
卿等	-11.2509
腸	-11.251
鳳凰	-11.2511
奏禮畢	-11.2513
筋	-11.2513
詮	-11.2513
紆	-11.2519
雩祀	-11.2519
制置	-11.252
可乎	-11.2521
翼領	-11.2521
甕	-11.2521
埏	-11.2521
詣罍洗	-11.2523
遵守	-11.2524
儀節	-11.2524
都城	-11.2525
二十四日	-11.2525
正四品	-11.2525
夾室	-11.2526
古稀	-11.2529
吏治	-11.253
東坡	-11.2531
八十六	-11.2532
洮	-11.2534
乃令	-11.2534
雍和	-11.2537
執法	-11.2538
䨇	-11.254
京察	-11.254
四品以上	-11.2542
鎛鐘	-11.2542
六字	-11.2542
議政大臣	-11.2542
用牲	-11.2543
諸貝勒	-11.2546
㒺	-11.2547
僣	-11.2548
蔽膝	-11.2549
□(	-11.255
彗	-11.255
拳	-11.255
氏正藍旗滿洲䕶軍	-11.2551
自備	-11.2552
蟬	-11.2552
監官	-11.2552
天子諸侯	-11.2552
雲南貴州	-11.2553
歌頌	-11.2555
皇統	-11.2559
之形	-11.2559
名臣	-11.256
不安	-11.2561
延綏	-11.2561
南安	-11.2562
不均	-11.2562
分𨽻	-11.2568
編磬	-11.257
神祇	-11.2573
宣示	-11.2574
九十四	-11.2574
不覺	-11.2575
金華	-11.2576
里去東京	-11.2578
不食	-11.2579
依次	-11.2579
察其	-11.2579
自陳	-11.2581
横刀	-11.2583
釋服	-11.2584
璉	-11.2584
商販	-11.2585
燾	-11.2586
地理	-11.2586
聰明	-11.2586
咄	-11.2587
翦	-11.2587
窘	-11.2588
兩廣	-11.2589
左右各	-11.2591
陳留	-11.2593
特諭	-11.2594
兩八錢	-11.2595
律一首行書	-11.2596
販賣	-11.2597
青質	-11.26
徳管理	-11.2601
市價	-11.2601
大帶	-11.2611
學問	-11.2612
革去	-11.2613
致有	-11.2613
四年十一月	-11.2616
爾泰	-11.2617
通事舎人引	-11.2621
沿塗	-11.2621
七品官	-11.2621
額賦	-11.2622
涪	-11.2623
蠲租	-11.2624
音樂	-11.2625
哷	-11.2625
以上皆	-11.2626
鄭康成	-11.2627
二百一十	-11.2628
集賢	-11.2628
録用	-11.2628
四百四十	-11.2629
二千餘	-11.2629
流星	-11.2632
渙	-11.2632
在其南	-11.2632
所據	-11.2633
追至	-11.2634
無主	-11.2636
五年七月	-11.2641
一尺五寸	-11.2641
東巡	-11.2645
佾	-11.2646
建國	-11.2646
大國	-11.2651
迅	-11.2658
流二千里	-11.2659
群	-11.2661
鈒	-11.2661
爾吉	-11.2663
諾爾	-11.2664
違例	-11.2667
月糧	-11.2667
者即行	-11.2668
書籍	-11.2669
緡錢	-11.2671
降輦	-11.2674
鈔法	-11.2674
史志	-11.2674
申飭	-11.2675
興安	-11.2677
敢昭告於	-11.2678
雍正十年	-11.2678
發往	-11.2679
典儀曰再拜	-11.2682
新任	-11.2682
司射	-11.2682
介幘	-11.2685
二十七月	-11.2685
其孫	-11.2688
一旦	-11.2695
祖宗之	-11.2695
暢春園	-11.2696
拖	-11.2697
圓丘	-11.2698
考選	-11.2698
逈	-11.2699
失於	-11.27
巴延	-11.2701
四品官	-11.2701
盡心	-11.2702
至死者	-11.2704
御製詩	-11.2704
禁軍	-11.2705
入殿	-11.2706
審理	-11.2707
二尺五寸	-11.2708
私販	-11.2708
四百七十	-11.271
世世	-11.2711
改封	-11.2714
之饌	-11.2715
以上及	-11.2716
十年五月	-11.2718
其俗	-11.272
山東巡撫	-11.2722
一槩	-11.2723
姆	-11.2724
他處	-11.2725
犯贓	-11.2727
廖	-11.2733
腰輿	-11.2733
楨	-11.2734
聖宗	-11.2734
四隅	-11.2735
四次	-11.2736
今已	-11.2737
餓	-11.2738
稼穡	-11.2739
屬國	-11.2739
二百里	-11.2739
次序	-11.274
萬姓	-11.2743
過多	-11.2743
客商	-11.2746
召募	-11.2747
太祖皇帝	-11.2749
便宜	-11.275
𤣥宗	-11.2751
屯糧	-11.2751
擇吉	-11.2753
特磬	-11.2754
六十一年	-11.2756
司員	-11.2761
白色	-11.2761
十三年正月	-11.2764
祭品	-11.2766
四斗	-11.2766
中二千石	-11.2766
大畧	-11.2767
太和門	-11.277
囂	-11.2772
遣大臣	-11.2773
釐二毫	-11.2773
金鉦	-11.2773
通用	-11.2773
鎬	-11.2774
正藍旗滿洲	-11.2775
規制	-11.2779
二里	-11.2781
八十二	-11.2781
我師	-11.2783
人役	-11.2783
勛	-11.2784
均令	-11.2786
貧乏	-11.2786
邾	-11.2788
進兵	-11.279
阿拉	-11.2791
簽書	-11.2793
胥吏	-11.2799
工食	-11.28
華亭	-11.28
分發	-11.2801
親王以下	-11.2801
餘官	-11.2802
馬端臨	-11.2802
通曉	-11.2804
歸併	-11.2804
餽	-11.2807
都省	-11.2807
三等輔國將軍	-11.2807
乾隆八年	-11.2808
閬	-11.281
蕃客	-11.281
稠	-11.2812
縹	-11.2813
酒尊	-11.2813
四百三十	-11.2814
辛卯	-11.2814
元嘉	-11.2814
獻帝	-11.2814
雲貴	-11.2814
武進士	-11.2815
得實	-11.2815
朕躬	-11.2816
七年二月	-11.2817
衣裳	-11.2817
爾部	-11.2818
永順	-11.2818
圍錦州	-11.2818
二條	-11.2819
安平	-11.2819
大營	-11.2821
屬員	-11.2821
閏月	-11.2822
詣盥洗位	-11.2822
寰宇	-11.2824
清查	-11.2828
嗣後凡	-11.2829
王安石	-11.2832
因此	-11.2832
七里	-11.2832
承恩	-11.2835
重犯	-11.2835
太子少保	-11.2836
䕶送	-11.2836
團扇	-11.2836
各工	-11.2837
贊者承傳	-11.2838
元始	-11.284
色楞	-11.2842
八十三	-11.2846
聖心	-11.2846
文華殿	-11.2847
猥	-11.2848
主人以下	-11.2849
世宗大定	-11.285
侵蝕	-11.2851
定邊	-11.2852
租賦	-11.2853
鄱陽	-11.2854
武庫	-11.2854
正身	-11.2856
婿	-11.2859
受賀	-11.2861
春秋時	-11.2861
鐘鼓	-11.2862
哲宗	-11.2864
更始	-11.2864
城下	-11.2864
青帝	-11.2868
未嘗不	-11.2868
管佐領	-11.2869
廵幸	-11.2869
洗爵	-11.2869
印文	-11.2871
冊使	-11.2873
酒尊所	-11.2876
員額	-11.2876
翅	-11.2876
以其地	-11.2878
赴任	-11.2879
至治	-11.2882
奠訖	-11.2884
粧	-11.2884
詣闕	-11.2886
福康安	-11.2887
順治五年	-11.2887
協副將一人	-11.2887
脚價	-11.2887
本院	-11.2889
聲教	-11.2889
南苑	-11.2889
石青	-11.2891
執事者以	-11.2892
遣陪臣	-11.2892
六百八十	-11.2893
著落	-11.2894
大閲	-11.2894
冡	-11.2894
宇文	-11.2896
各色	-11.2896
有㫖	-11.2897
西嚮	-11.2897
天顔	-11.29
金塗	-11.2901
席羊	-11.2901
順義	-11.2903
日為始	-11.2906
小旗	-11.2908
嫡子	-11.2908
税課	-11.291
潼	-11.2912
不暇	-11.2913
而行之	-11.2914
兩次	-11.2915
誅之	-11.2916
九十五	-11.2916
楯	-11.292
壕	-11.2921
遣官祭告	-11.2921
輿情	-11.2922
里西北到	-11.2922
不惟	-11.2924
筆帖式一人	-11.2924
綦	-11.2925
三桂	-11.2925
賭博	-11.2926
慎重	-11.2928
梓宮	-11.2928
鞠	-11.2928
無聞	-11.2931
職事官	-11.2931
鮮卑	-11.2934
立碑	-11.2934
少西	-11.2934
上夀	-11.2934
千一百	-11.2936
幨	-11.294
一等台吉	-11.2941
四十餘	-11.2941
升階	-11.2942
奉安於	-11.2942
印綬	-11.2943
山澤	-11.2945
第一星	-11.2948
三升	-11.2949
漢武帝	-11.295
家奴	-11.2952
功曹	-11.2953
詣壇	-11.2954
奠玉幣	-11.2954
乃得	-11.2957
冄	-11.2958
鄉縣	-11.2959
闋	-11.2959
愿	-11.2959
罪一等	-11.2963
順治初年定	-11.2963
納糧	-11.2964
臆	-11.2966
嗚呼	-11.2966
東安	-11.2967
婚禮	-11.2968
皇太子妃	-11.2969
倦	-11.297
每等異位重行	-11.2971
羨	-11.2971
㸃檢	-11.2972
奔走	-11.2972
䕶軍校䕶軍	-11.2973
川郡	-11.2974
開户	-11.2975
外壝	-11.2977
廟門	-11.2977
秋分	-11.2977
賛者引	-11.2981
專管	-11.2981
四品五品	-11.2982
無極	-11.2984
孝皇帝	-11.2984
格爾	-11.2987
著尊	-11.299
雍正十二年	-11.299
補闕	-11.2991
情由	-11.2992
太隂	-11.2997
衡州	-11.2997
肄	-11.2999
一萬五千	-11.3
流三千里	-11.3001
詔從之	-11.3003
抑勒	-11.3003
俾得	-11.3005
己夘	-11.3006
申嚴	-11.3008
皇仁	-11.3008
害稼	-11.301
抹金銅	-11.3012
之𩔖	-11.3012
防禦使	-11.3016
聴其	-11.3017
燕王	-11.3018
欽㸃	-11.3019
循環	-11.3019
窮民	-11.3023
中衛	-11.3023
五年三月	-11.3023
通事舎人	-11.3025
增置	-11.3031
門下省	-11.3036
百一十	-11.3038
鑲黄	-11.304
礬	-11.3041
繁多	-11.3042
縦	-11.3043
八年正月	-11.3043
太祖高皇帝	-11.3043
景雲	-11.3045
餼	-11.3047
清道	-11.3047
濡	-11.3048
進俎	-11.3049
聖恩	-11.305
往返	-11.305
止許	-11.3051
倉米	-11.3056
詩文	-11.3057
張氏	-11.3058
六年二月	-11.3058
太原府	-11.3059
元屬	-11.3063
九千	-11.3067
年逾	-11.3068
開府	-11.3068
豫章	-11.3069
送燎	-11.307
彜	-11.3071
甚至	-11.3072
矦	-11.3073
鹿角	-11.3075
上疏曰	-11.3077
岀	-11.3077
膽	-11.3078
酒食	-11.3078
輪流	-11.3078
曰昔	-11.3078
正三品	-11.3079
鼂	-11.308
郤	-11.3084
瓦爾喀	-11.3084
苟	-11.3084
敵兵	-11.3084
達禮	-11.3086
速行	-11.3087
深入	-11.309
郅	-11.3093
鑲紅	-11.3095
察罕	-11.3095
髙晉	-11.3097
候㫖	-11.31
為太子	-11.31
相生	-11.3101
清寧	-11.3105
北面再拜	-11.3105
頡利	-11.3105
七年三月	-11.3108
榻	-11.3109
興販	-11.3109
原定	-11.3112
滴	-11.3115
業經	-11.3116
禇	-11.3117
建文	-11.3118
謄	-11.3119
恩施	-11.312
待詔	-11.312
晉王	-11.3123
一摺	-11.3123
嗣王	-11.3125
應陞	-11.3127
兎	-11.3128
吏卒	-11.3128
金帛	-11.3129
岱宗	-11.3129
太常寺官	-11.3139
清蹕	-11.314
䕶衞	-11.3141
奏請皇帝	-11.3146
兄弟之子	-11.3146
挨次	-11.3147
長二尺	-11.3147
小祥	-11.3148
長六尺	-11.3148
俱詣	-11.3149
分别議處	-11.315
籌辦	-11.3151
農事	-11.3152
内簡選	-11.3153
牧養	-11.3153
三千餘	-11.3153
三等奉國將軍	-11.3154
格管理	-11.3155
埸	-11.3155
詔有司	-11.3156
翹	-11.3158
埒	-11.3158
狡	-11.316
寳座	-11.316
通天冠	-11.3161
日月星辰	-11.3162
見易類	-11.3162
虗	-11.3163
給還	-11.3163
誠敬	-11.3164
領運	-11.3164
厦門	-11.3165
蕃主	-11.3165
宫赤道在	-11.3166
班師	-11.3166
唐貞觀	-11.3166
拜送	-11.3166
杜典	-11.3173
八句	-11.3174
河決	-11.3175
五百人	-11.3175
又増	-11.3176
鼓舞	-11.3176
禮云	-11.3176
故謂之	-11.3176
懿祖	-11.3179
附録	-11.318
畜産	-11.3181
八旗漢軍	-11.3185
處置	-11.3187
下部議	-11.319
好生	-11.319
署丞	-11.3191
務要	-11.3191
不計	-11.3191
出具考語	-11.3195
糊	-11.3198
粲	-11.3198
京西	-11.32
遺詔	-11.32
抵銷	-11.3201
覧	-11.3201
置於案	-11.3202
箇月	-11.3203
内外命婦	-11.3205
士人	-11.3206
祝辭	-11.3206
補放	-11.3209
親王郡王	-11.3211
而不作	-11.3216
徇情	-11.3216
特牲	-11.3219
令地方官	-11.322
部臣	-11.3221
司吏	-11.3221
北直𨽻	-11.3222
講武	-11.3226
還罇所	-11.3232
陰陽	-11.3233
里東南到	-11.3235
隳	-11.3236
荒田	-11.3236
𢃄	-11.3237
九成	-11.3238
步軍統領	-11.3239
二十五人	-11.3239
百觔	-11.324
太常禮院	-11.3241
惶	-11.3241
江寜	-11.3242
神宗萬厯	-11.3242
保寧	-11.3243
寂	-11.3243
親祠	-11.3243
一等公	-11.3244
来朝	-11.3246
如例	-11.325
晉武帝	-11.3253
水田	-11.3256
後廢	-11.3256
發明	-11.3257
年七十	-11.3257
跪奏請	-11.3257
八十八	-11.3258
既定	-11.3259
乾隆六年	-11.326
仲尼	-11.3262
咸亨	-11.3262
都指揮使司	-11.3264
興修	-11.3267
水驛	-11.3268
功成	-11.327
煤	-11.327
十一年二月	-11.3271
鞶	-11.3271
除名	-11.3273
通髙	-11.3273
牲體	-11.3274
既經	-11.3276
究治	-11.3276
擬絞監候	-11.3276
袤	-11.3278
位北向立	-11.3279
中單	-11.3281
翕	-11.3281
道里	-11.3281
淮西	-11.3283
悅	-11.3284
行銷	-11.3284
沭	-11.3284
各路	-11.3285
騎都尉世職	-11.3285
革退以	-11.3285
駐守	-11.3285
八旗滿洲	-11.3286
薦新	-11.3288
自此始	-11.3288
寄養	-11.3291
比較	-11.3291
順治三年	-11.3294
滇省	-11.3298
每畝	-11.3299
多方	-11.3299
悉行	-11.3301
高下	-11.3301
聖慈	-11.3303
二千二百	-11.3303
宗祀	-11.3305
盡善	-11.3308
靳	-11.331
市易	-11.3311
北境	-11.3312
論俸	-11.3315
刦	-11.3315
可嘉	-11.3316
菽	-11.3318
煌煌	-11.3318
龍朔二年改	-11.3319
立秋	-11.3323
薨諡	-11.3323
斬絞	-11.3323
六科	-11.3326
傳云	-11.3326
矣故	-11.3329
工字	-11.3329
賛引引	-11.333
𢎞農	-11.3332
饋食	-11.3332
太簇	-11.3332
四頃	-11.3332
營守備	-11.3333
十三卷	-11.3334
髙一尺	-11.3336
按季	-11.3337
牧場	-11.3337
祇候	-11.3339
皇帝詣	-11.3342
尚多	-11.3344
始終	-11.3345
更衣	-11.3345
喪儀	-11.3349
六曹	-11.3352
乾隆四十九年	-11.3353
戴罪	-11.3354
拮据	-11.3355
歲星	-11.3355
剏	-11.3358
鴻臚	-11.3361
營汛	-11.3363
四匹	-11.3365
内院	-11.3367
都統等	-11.3368
尼堪	-11.3368
企	-11.3368
一等侍衛	-11.3368
財用	-11.3369
相當	-11.3372
買馬	-11.3372
提標	-11.3374
伊爾	-11.3377
外戚	-11.3378
在逃	-11.3381
十千	-11.3381
緑旗兵	-11.3382
未足	-11.3383
萬幾	-11.3384
建議	-11.3386
五世孫	-11.3387
宣撫	-11.3388
有願	-11.3391
於神座	-11.3394
顓頊	-11.3395
行三跪九拜禮	-11.3396
之忱	-11.3396
筒	-11.3397
台吉等	-11.3399
潼闗	-11.34
𠫭領	-11.34
産業	-11.34
府庫	-11.3401
東嶽	-11.3403
食俸	-11.3403
載入	-11.3404
瑣	-11.3404
詁	-11.3404
栿	-11.3405
所存	-11.3407
朝臣	-11.3408
左右廂	-11.3409
正賦	-11.3409
獅子	-11.341
九龍	-11.3411
相接	-11.3411
清文	-11.3413
氏鑲黄旗滿洲䕶軍	-11.3414
庫掌	-11.3416
逋賦	-11.3417
考成	-11.3421
武生	-11.3421
内外官	-11.3422
其勢	-11.3427
用度	-11.3428
畒	-11.3429
七百二十	-11.3431
和氣	-11.3431
貢士	-11.3431
歐	-11.3433
捲	-11.3434
蒿	-11.3436
棧	-11.3436
中庸	-11.3436
叅奏	-11.3436
剩	-11.3437
劔	-11.3438
坪	-11.3439
仲秋	-11.3439
五百五十	-11.344
慙	-11.3442
矧	-11.3443
評事	-11.3443
必欲	-11.3444
計程	-11.3445
于闐	-11.3447
内庫	-11.3447
十五萬	-11.3449
四品以下	-11.3449
歸化	-11.3451
大寧	-11.3452
首從	-11.3453
五言排律	-11.3454
流通	-11.3458
四年九月	-11.3462
五十九年	-11.3462
二隻	-11.3466
經管	-11.3466
非是	-11.3468
每引	-11.347
以其弟	-11.3471
銑	-11.3474
欲令	-11.3474
比年	-11.3476
三老五更	-11.3476
咸通	-11.3477
甲士	-11.3478
週	-11.348
瘦	-11.3482
綱目	-11.3485
前徃	-11.3486
則服之	-11.3486
雖非	-11.3488
大江	-11.3492
之妾	-11.3492
織金	-11.3492
穗	-11.3494
東南西向	-11.3494
故以其叔	-11.3497
黎元	-11.3498
户部議	-11.3498
可觀	-11.35
下部議行	-11.35
鄉君	-11.3503
馬牛	-11.3504
燕饗	-11.3504
藏於	-11.3505
為害	-11.3507
科罪	-11.3507
五百八十	-11.3508
豈得	-11.3509
墾田	-11.3509
順治十八年	-11.3511
庶民	-11.3511
任事	-11.3512
黥	-11.3515
征討	-11.3515
徒一年半	-11.3517
三十萬	-11.3518
涓	-11.3519
京兆尹	-11.3519
分晰	-11.3521
七百五十	-11.3521
武備院	-11.3521
硃紅漆	-11.3522
劑	-11.3523
縵	-11.3524
譴	-11.3527
梁陳	-11.3528
臨安府	-11.3531
忝	-11.3533
氏鑲紅旗滿洲䕶軍	-11.3535
舉羃	-11.3535
别置	-11.3536
最高	-11.3537
發帑	-11.354
八年二月	-11.3542
滎陽	-11.3542
奏聖躬萬福	-11.3545
物價	-11.3546
過半	-11.3546
加勺羃	-11.3549
前二日	-11.355
御營	-11.355
仁義	-11.355
一十七	-11.3551
永泰	-11.3551
進𠞰	-11.3552
偃麾	-11.3552
北向設	-11.3552
帨	-11.3553
毎日	-11.3553
嘏	-11.3558
造報	-11.3559
王后	-11.3559
郡邑	-11.3561
盝	-11.3562
庵	-11.3562
人嘉靖進士官至	-11.3562
瘞坎	-11.3563
腐	-11.3563
儒者	-11.3565
廣儲司	-11.3565
大晟	-11.3565
三辰	-11.3565
瑕	-11.3566
慶歴	-11.3566
沂州	-11.3566
頂帶	-11.3566
之䘮	-11.3567
輜重	-11.3568
鑠	-11.3568
五百兩	-11.3569
頒詔	-11.357
相國	-11.3573
集十卷	-11.3575
春分	-11.3577
有疾	-11.3578
希圖	-11.3579
給米	-11.358
訖退	-11.3581
臨淮	-11.3582
住之妻	-11.3583
降一等	-11.3583
文義	-11.3584
柶	-11.3585
監禁	-11.3587
九十三	-11.3591
十九日	-11.3595
節氣時刻	-11.3595
海宇	-11.3598
南廵	-11.3598
錢鈔	-11.3598
來貢	-11.36
武英殿	-11.3601
九十二	-11.3601
嵌	-11.3602
鳬	-11.3603
道徳	-11.3603
變通	-11.3603
七十一	-11.3604
五十兩	-11.3604
三法司	-11.3604
青陽	-11.3605
燉煌	-11.3605
遞加	-11.3607
滛	-11.3607
副尉	-11.3608
崇祀	-11.3608
惠王	-11.3609
右營	-11.3611
泰州	-11.3612
辛夘	-11.3612
丁銀	-11.3612
隋初	-11.3614
五十四年	-11.3614
安陸	-11.3615
兵攻	-11.3616
鄉㑹試	-11.3616
藹	-11.3619
不遵	-11.3619
朝儀	-11.362
琉球	-11.362
喝	-11.3624
數十年	-11.3625
百六十	-11.3626
協同	-11.3626
華盖	-11.3627
從七品	-11.3629
殺人者	-11.363
唐縣有	-11.3631
不但	-11.3634
臨川	-11.3635
情理	-11.3635
杖七十	-11.3637
鎔	-11.3638
吾子	-11.3638
筍	-11.364
藍翎侍衛	-11.3642
澳	-11.3644
懦	-11.3647
取爵	-11.3647
九十八	-11.3647
興復位	-11.3648
定價	-11.3655
叅将	-11.3655
五輅	-11.3656
僧尼	-11.3657
涿	-11.3658
龍首	-11.3659
潮州	-11.3664
不動	-11.3665
應徵	-11.3665
賜茶	-11.3667
十四年正月	-11.3669
祭社稷	-11.3672
精竒尼哈畨	-11.3673
西靣	-11.3675
從六品	-11.3675
陣亡賞䘏如例	-11.3678
變而	-11.3681
籍貫	-11.3682
東南隅	-11.3688
墟	-11.3688
兼用	-11.3689
佩刀	-11.369
西面北上	-11.3691
國柱	-11.3693
洋洋	-11.3695
稍後	-11.3696
物力	-11.3697
鑲紅旗滿洲	-11.3697
永豐	-11.37
有事於	-11.3705
公主適	-11.3705
屆期	-11.3705
民情	-11.3707
舊額	-11.3708
荆湖	-11.3709
關防	-11.371
賛者承傳	-11.3712
喀爾	-11.3713
尚宫	-11.3715
里長	-11.3716
秋糧	-11.3716
搢	-11.3717
河源	-11.372
酌減	-11.372
文獻通考	-11.3721
未入流	-11.3722
勸農	-11.3722
寳應	-11.3725
象牙	-11.3727
供應	-11.3729
癸夘	-11.373
銳	-11.3731
鳳翔	-11.3731
百四十	-11.3731
倩	-11.3732
前項	-11.3736
十惡	-11.3736
事蹟	-11.3738
事竣	-11.3739
列祖	-11.3739
長夀	-11.3742
亦屬	-11.3747
戸部尚書	-11.3747
景山	-11.3747
如係	-11.3747
柩車	-11.3748
泰定	-11.3751
紅漆	-11.3751
釐九毫	-11.3751
華蓋	-11.3755
糧米	-11.3757
依議	-11.3758
界内	-11.3762
望祭	-11.3763
副都統一人	-11.3763
朝審	-11.3764
佐貳	-11.3764
宫殿監	-11.3767
祭酒三爵	-11.3767
於圜丘	-11.377
賜胙	-11.3771
六年六月	-11.3772
即古	-11.3773
署令	-11.3773
下手	-11.3776
步兵	-11.3781
軍民府	-11.3782
備辦	-11.3786
彰徳	-11.3786
者免議	-11.3787
狀元	-11.379
鏤金	-11.3792
伏誅	-11.3793
第二星	-11.3793
嫡孫	-11.3794
纚	-11.3795
逾限	-11.3796
民居	-11.3799
瞻仰	-11.3803
氏正白旗漢軍	-11.3803
祫享	-11.3804
里東北到	-11.3805
椅	-11.3805
改補	-11.3806
滿洲二人	-11.3806
陞轉	-11.3806
不知何	-11.3811
踞	-11.3812
氓	-11.3813
葱	-11.3815
匾	-11.3815
們	-11.3816
黷	-11.3816
擴	-11.3817
左右丞	-11.3817
八佾	-11.3817
四百九十	-11.3817
鉢	-11.3817
七百七十	-11.3817
帶領引見	-11.3823
初獻官	-11.3823
殊恩	-11.3824
管理李	-11.3826
瀋	-11.3827
藉端	-11.3831
廬陵	-11.3833
咸朝服	-11.3836
六百四十	-11.3837
諏	-11.3838
萬騎	-11.3839
二十三日	-11.3842
本章	-11.3843
摶	-11.3844
科目	-11.3844
將帥	-11.3845
謁者引太常卿	-11.3846
陣亡贈	-11.3846
良醖令	-11.3846
留養	-11.3848
金鼓	-11.3848
覔	-11.3852
神農氏	-11.3852
百代	-11.3854
重囚	-11.3855
簍	-11.3855
甥	-11.3856
偽造	-11.3856
有禆益	-11.3858
宗室覺羅	-11.3859
五百四十	-11.3863
從一品	-11.3864
討論	-11.3866
京堂	-11.3867
務使	-11.3869
三代之	-11.387
司𨽻	-11.387
二千八百	-11.3876
萬福	-11.3876
至二十	-11.388
提調官	-11.3882
裁減	-11.3884
伏願	-11.3884
大使副使	-11.3885
虎符	-11.3886
祭畢	-11.3887
巡察	-11.3888
進取	-11.389
氏正紅旗滿洲	-11.3891
醋	-11.3892
可疑	-11.3894
第一等	-11.3894
會稽	-11.3895
鵝	-11.3896
新羅	-11.3896
員數	-11.3896
其黨	-11.3897
鎮安	-11.3899
賢良祠	-11.3901
總漕	-11.3902
乙卯	-11.3902
驥	-11.3902
沙河	-11.3902
康熙二年	-11.3903
侍立位	-11.3903
杜佑	-11.3907
萬觔	-11.3907
壺尊	-11.391
徃來	-11.391
聖㫖	-11.3911
帝后	-11.3917
欲使	-11.3921
也然則	-11.3923
府丞	-11.3924
御太和殿	-11.3932
衛輝	-11.3935
健鋭營	-11.3935
涕	-11.3937
雜職	-11.3939
節省	-11.3939
愉	-11.3941
夏侯	-11.3946
專司	-11.3947
供奉官	-11.3949
固已	-11.3949
課程	-11.395
五百名	-11.395
八員	-11.3953
驗看	-11.3953
蠲除	-11.3954
雨師	-11.3958
歌舞	-11.3959
帑金	-11.3964
人倫	-11.3966
躔	-11.3969
縣來屬	-11.3969
二斤	-11.3969
右丞相	-11.397
末年	-11.397
恭謁	-11.3973
監門	-11.3974
司贊	-11.3974
氏正藍旗漢軍	-11.3975
告廟	-11.3976
髤朱	-11.3976
聶	-11.3979
藪	-11.3979
裨	-11.398
亰	-11.3981
衛士	-11.3981
不著撰人名氏	-11.3981
杖罪	-11.3982
通政使司	-11.3983
文忠	-11.3984
萬古	-11.3985
寒暑	-11.3986
車服	-11.3989
淳祐	-11.399
寳慶	-11.3993
鉅典	-11.3995
保障	-11.3996
思哈	-11.3996
都指揮	-11.3997
正直	-11.3999
逺方	-11.4001
社壇	-11.4002
參政	-11.4004
善惡	-11.4007
慶厯	-11.4007
著該部	-11.4008
巴顔	-11.4013
皇太后皇后	-11.4013
鑲白旗滿洲	-11.4014
開放	-11.4016
梅勒章京	-11.4018
昭陵	-11.4019
察驗	-11.4019
一千七百	-11.402
䜟	-11.4022
儒林	-11.4022
猝	-11.4024
謐	-11.4025
十七人	-11.4026
睿親王多爾衮	-11.4027
固原	-11.4029
魄	-11.4029
慨	-11.403
七祀	-11.403
頒給	-11.4031
常熟	-11.4034
焚香	-11.4034
旌旗	-11.4034
市舶	-11.4035
折衷	-11.4036
萬餘人	-11.4037
正六品	-11.4038
五百七十	-11.4039
廣運	-11.404
和碩親王	-11.4041
諸司職掌	-11.4043
表案	-11.4044
從九品	-11.4044
營繕	-11.4047
皇甫	-11.4051
千把總	-11.4052
八十名	-11.4053
相者引	-11.4054
化成	-11.4058
開府儀同三司	-11.406
川陜	-11.4061
少傅	-11.4061
氏鑲白旗漢軍	-11.4062
成例	-11.4062
久矣	-11.4063
洊	-11.4064
其說	-11.4065
拙	-11.4065
胎	-11.4065
都䕶府	-11.4066
猺	-11.4067
一千九百	-11.4067
京營	-11.4067
擺	-11.4068
卸	-11.4069
木蘭	-11.4069
司直	-11.407
崇明	-11.407
孛	-11.4071
閏五月	-11.4071
怯	-11.4072
精兵	-11.4073
前鋒叅領	-11.4074
擕	-11.4074
濛	-11.4074
侔	-11.4074
朝會	-11.4075
之域	-11.4075
納吉	-11.4076
十數	-11.4078
駕幸	-11.408
聖武	-11.4082
天文志	-11.4083
前衛	-11.4084
徽州	-11.4084
輟朝	-11.4086
門外位	-11.4088
疏入	-11.4088
倉榖	-11.4088
延夀	-11.409
紫微	-11.409
泗水	-11.4091
可憫	-11.4094
解任	-11.4095
百官志	-11.4097
新建	-11.4097
總計	-11.4098
錢粮	-11.41
瓊州	-11.4101
倉糧	-11.4101
編年	-11.4101
酌尊所	-11.4103
不聽	-11.4103
阼階上	-11.4105
筝	-11.4105
杖九十	-11.4107
御道	-11.4109
羸	-11.411
讀冊	-11.411
既多	-11.411
鑾儀衞	-11.4111
繪圖	-11.4111
五年四月	-11.4111
實屬	-11.4111
馮翊	-11.4112
欒	-11.4112
杞	-11.4112
料錢	-11.4113
也又曰	-11.4115
川省	-11.4116
豐稔	-11.4116
臨陣	-11.4117
誇	-11.4118
同罪	-11.4118
茫	-11.4118
跨	-11.4119
房三間	-11.4121
型	-11.4122
老子	-11.4122
三疋	-11.4122
親身	-11.4122
坐事削爵	-11.4126
正紅旗滿洲	-11.4127
奪其	-11.4127
管束	-11.4133
分賠	-11.4135
三百石	-11.4136
奉冊	-11.4137
對越	-11.4137
講學	-11.4139
數倍	-11.4139
殿最	-11.4144
明禋	-11.4145
釋放	-11.4147
農夫	-11.4147
不顧	-11.4147
餘鹽	-11.4148
訖興	-11.415
朱雀	-11.4153
遷徙	-11.4153
百三十	-11.4153
稍東	-11.4154
十畆	-11.4155
塼	-11.4155
樽罍	-11.4156
槖	-11.4157
二百石	-11.4159
樽二	-11.416
深衣	-11.4161
嗣位	-11.4165
蹌	-11.4165
工部侍郎	-11.4166
量加	-11.4166
行掃除	-11.4166
二十六日	-11.4167
營總	-11.4173
覆准	-11.4174
占城	-11.4178
靡不	-11.418
王大臣等	-11.4181
六百七十	-11.4183
内遴選	-11.4187
每船	-11.4188
頗有	-11.4194
捜	-11.4194
實數	-11.4195
直班	-11.4195
孝宗𢎞治	-11.4198
織成	-11.4199
桀	-11.4199
泮	-11.42
鏞	-11.4201
蕆	-11.4201
奮勉	-11.4201
元氣	-11.4202
查辦	-11.4203
咏	-11.4203
赤黄	-11.4204
迥	-11.4205
技藝	-11.4205
會試	-11.4207
並列	-11.4207
唐太宗	-11.4208
亳	-11.4209
訖樂止	-11.4209
銅器	-11.4212
氏鑲白旗滿洲	-11.4213
實授	-11.4214
釐四毫	-11.4216
漢軍鑲黄旗人	-11.4218
任滿	-11.4222
集一卷	-11.4223
四百餘	-11.4224
格外	-11.4226
而用之	-11.4228
於京師	-11.423
他省	-11.4231
五匹	-11.4232
改易	-11.4232
拭	-11.4232
品物	-11.4235
奉慰	-11.4235
十年四月	-11.4237
斬獲	-11.4237
極邊	-11.4238
飼	-11.4242
墳墓	-11.4243
料理	-11.4243
縑	-11.4243
蔓	-11.4244
旗幟	-11.4244
秋禾	-11.4244
包攬	-11.4245
福酒	-11.4245
滿洲鑲黄旗人	-11.4246
照此例	-11.4246
内外皆	-11.4248
撥補	-11.4249
屯兵	-11.4251
二十八宿	-11.4251
澶	-11.4252
蓮花	-11.4253
應補	-11.4253
陕	-11.4254
什物	-11.4255
豐之章	-11.4256
糾察	-11.4257
聖神	-11.4258
祝案	-11.4259
康熙六年	-11.426
九年六月	-11.4264
勢必	-11.4269
土田	-11.4271
死刑	-11.4272
隨侍	-11.4273
乙字	-11.4277
亦照此例	-11.4278
旗軍	-11.4279
布之妻	-11.428
給價	-11.428
歩軍尉	-11.4281
輴	-11.4282
蹄	-11.4284
參差	-11.4284
隨征金川	-11.4285
溪縣	-11.4285
冠禮	-11.4285
卡倫	-11.4287
趺	-11.4287
馘	-11.4288
大射	-11.4289
一萬二千	-11.4289
唐志	-11.4289
詣厨	-11.4291
剖	-11.4291
騎兵	-11.4292
核實	-11.4293
州都督	-11.4294
倅	-11.4297
期年	-11.4298
俸禄	-11.4298
奉神主	-11.4301
康熙五十二年	-11.4302
受册	-11.4306
萬匹	-11.4307
禁約	-11.4307
委任	-11.4307
從重論	-11.4308
呈明	-11.431
册内	-11.4311
六年十一月	-11.4312
酋長	-11.4313
必得	-11.4313
近世	-11.4314
雲氣	-11.4314
舟師	-11.4314
掌饌者	-11.4315
象輅	-11.4315
賢否	-11.4315
開禧	-11.4316
青色	-11.4316
酳	-11.4316
廵檢	-11.4317
出糶	-11.4321
正紅	-11.4323
梁武帝	-11.4325
計算	-11.4327
黄麾仗	-11.4327
丹陛大樂	-11.4329
八分有餘	-11.4329
銃	-11.433
奉禮設	-11.4331
餙	-11.4331
依限	-11.4334
永著為例	-11.4335
五百六十	-11.4335
竹木	-11.4336
龍泉	-11.4338
擬絞	-11.4339
廣東廣西	-11.434
稍南	-11.434
兩三錢	-11.434
宇宙	-11.4342
例辦理	-11.4343
望燎位	-11.4344
布管理	-11.4347
㑹要	-11.4348
六年七月	-11.4348
車師	-11.4349
恭導	-11.435
丈八尺	-11.4353
扶同	-11.4355
東門外	-11.4355
所未有	-11.4356
毫無	-11.4361
官員兵丁	-11.4362
六員	-11.4362
版奏外辦	-11.4364
以憑	-11.4367
勒限	-11.4368
考校	-11.4369
牙行	-11.4369
姨	-11.4369
龍朔	-11.437
冊命	-11.437
鞋	-11.4371
其兄之子	-11.4372
贑	-11.4373
滿洲鑲黄旗人姓	-11.4374
儷	-11.4375
尺字	-11.4376
把總一人兵	-11.4377
向無	-11.4378
躡	-11.4379
丈四尺	-11.438
乙夘	-11.438
閫	-11.4381
完竣	-11.4382
亦係	-11.4383
廷試	-11.4384
紅錦	-11.4384
分駐	-11.4386
告竣	-11.4387
追贈	-11.4388
光華	-11.4389
平身	-11.4391
大袖	-11.4392
反覆	-11.4392
三上香	-11.4392
舍人引	-11.4395
曾經	-11.4395
八年五月	-11.4401
灌溉	-11.4401
之妻楊	-11.4404
不預	-11.4407
設洗於	-11.4408
縉	-11.4408
實係	-11.4409
太初	-11.4409
普安	-11.441
贊引奏	-11.4411
乾隆二十年	-11.4411
防守尉	-11.4414
龠	-11.4415
赭	-11.4415
綂	-11.4416
紫羅	-11.4417
䕶軍校驍騎校	-11.4418
縴	-11.4418
葉爾羌	-11.4418
贊善	-11.4419
兩七錢	-11.4419
褚	-11.442
壅滯	-11.442
崧	-11.4422
揣	-11.4422
慘	-11.4424
紛紛	-11.4424
鳥獸	-11.4426
鍵	-11.4427
文昌	-11.4428
億兆	-11.443
左右門	-11.4431
中和殿	-11.4432
夏税	-11.4432
武后	-11.4435
讀祝文	-11.4436
馬價	-11.4436
武威	-11.4437
貨賣	-11.4438
前隊	-11.444
卜日	-11.4442
文武大臣	-11.4444
傅恒	-11.4446
未敢	-11.4449
名目	-11.4453
八年四月	-11.4456
抵通	-11.4457
眂	-11.4457
棠	-11.446
蟄	-11.446
鹽引	-11.4463
炬	-11.4463
連坐	-11.4465
隷	-11.4467
審擬	-11.4468
山隂	-11.4469
水土	-11.4471
耽	-11.4471
逃走	-11.4472
奉皇太后	-11.4474
二尺二寸	-11.4474
乾隆二十四年	-11.4477
之政令	-11.448
直𨽻總督	-11.448
逆賊	-11.4483
賑糶	-11.4483
五百三十	-11.4489
窰	-11.4492
身故	-11.4494
遷都	-11.4495
宣撫使	-11.4496
仍歸	-11.4499
曰古者	-11.4499
雖然	-11.45
暫停	-11.4502
隆阿	-11.4503
火器	-11.4505
瑯琊	-11.4508
萬户府	-11.4508
玉環	-11.4509
康熙九年	-11.451
圍場	-11.4511
擾累	-11.4511
鎻	-11.4511
五百二十	-11.4514
者仍照	-11.4516
崇文門	-11.4518
錢物	-11.4518
集四卷	-11.4519
五方帝	-11.452
揑報	-11.4521
散處	-11.4521
借端	-11.4523
物件	-11.4524
庶㡬	-11.4526
白帝	-11.4526
而為之	-11.4528
四丈	-11.4528
鴈門	-11.4529
圻	-11.4529
皇帝廟號	-11.4531
先朝	-11.4538
五絃	-11.4538
理合	-11.4539
仗衛	-11.454
所費	-11.4541
少府監	-11.4542
滿日	-11.4542
蕪	-11.4542
副叅領	-11.4543
矣夫	-11.4544
江省	-11.4545
聮曰	-11.4545
秦屬	-11.4545
紺	-11.4546
編輯	-11.4551
鍊	-11.4551
抛	-11.4552
欽差	-11.4552
麤	-11.4552
傭	-11.4553
阿克蘇	-11.4554
繚	-11.4555
逝	-11.4557
紀録	-11.4557
張掖	-11.456
耄	-11.4563
長孫	-11.4564
襄公	-11.4564
安瀾	-11.4564
大饑	-11.4564
三丈	-11.4568
感激	-11.457
官品	-11.4572
音律	-11.4573
尚舍	-11.4573
江西浙江	-11.4576
人萬厯進士官至	-11.4582
耤田	-11.4583
過失殺	-11.4585
銀十兩	-11.4587
二萬五千	-11.4587
官革職	-11.4588
章奏	-11.4592
六年四月	-11.4593
三千五百	-11.4593
後改為	-11.4594
提學	-11.4594
一尺三寸	-11.4595
才能	-11.4596
城池	-11.4597
康熙十四年	-11.4597
祥瑞	-11.4597
蒼生	-11.4598
成都府	-11.4599
閎	-11.4602
彈壓	-11.4603
沅州	-11.4606
喀什噶爾	-11.4607
干戈	-11.4608
光祿寺	-11.4609
租税	-11.461
康熙八年	-11.4611
鹽井	-11.4612
五榖	-11.4615
振武	-11.4616
若遇	-11.4616
聖學	-11.462
老成	-11.462
完納	-11.4621
正白旗人	-11.4623
康熙三年	-11.4624
師古	-11.4625
二人位於	-11.4626
令各處	-11.4627
兼領	-11.4628
兩零	-11.4628
莫敢	-11.4631
元鼎	-11.4631
無疆之	-11.4634
神龍元年	-11.4635
郡界	-11.4636
每旗各	-11.4636
大夫士	-11.4637
者罪之	-11.4638
旗纛	-11.4639
鼠	-11.464
絳紗袍	-11.4641
甚少	-11.4642
變賣	-11.4643
贅	-11.4644
横吹	-11.4646
牽牲	-11.4647
滿洲正黄旗人姓	-11.4647
煦	-11.4648
太史局	-11.4649
氏鑲藍旗滿洲䕶軍	-11.4649
三匹	-11.4651
指授	-11.4651
閏三月	-11.4651
六頃	-11.4653
校正	-11.4656
始末	-11.4656
崑崙	-11.4657
五員	-11.4658
墠	-11.4659
咸陽	-11.4659
禮饌	-11.4663
君長	-11.4664
吉安	-11.4666
尚茶	-11.4667
涿州	-11.4667
卯階	-11.4668
從四品	-11.4668
從三品	-11.4669
嵗支	-11.467
互異	-11.4671
淮陽	-11.4674
降為縣	-11.4674
躬詣	-11.4674
擾民	-11.4678
十五年正月	-11.468
額管理	-11.4683
允協	-11.4685
二百名	-11.4685
西南面	-11.4685
千總一人把總一人兵	-11.4687
丈量	-11.4687
麫	-11.4688
冊立	-11.469
椎	-11.4691
所辦	-11.4691
節儉	-11.4691
殄	-11.4692
獄訟	-11.4693
寗	-11.4693
海蘭察	-11.4694
三品以下	-11.4695
逕	-11.4696
内閣中書	-11.4697
煌	-11.4697
姿	-11.4698
杏山	-11.4698
丕基	-11.4702
晡後	-11.4703
刺字	-11.4706
延慶	-11.4706
抽分	-11.4707
詔可	-11.4707
羣生	-11.4709
行禮如儀	-11.471
每佐領下	-11.4715
積年	-11.4718
從駕	-11.4719
雒	-11.472
列傳	-11.4722
吏員	-11.4727
出立於	-11.4729
何處	-11.4729
合為一	-11.473
無所不	-11.473
教塲	-11.473
簾降	-11.4731
誤也	-11.4732
廢疾	-11.4732
液	-11.4732
嫂	-11.4732
卜筮	-11.4732
各三人	-11.4733
鎧	-11.4734
迂	-11.4734
罇罍	-11.4735
銀三兩	-11.4735
營游擊一人	-11.4736
第十二	-11.4737
豹尾班	-11.4737
者罰俸六月	-11.4737
使某	-11.4737
魏公	-11.4737
逵	-11.4738
顓	-11.4739
五言律	-11.474
孝賢皇后	-11.4741
武清	-11.4741
修整	-11.4743
褾	-11.4747
拿獲	-11.4748
以上俱於	-11.475
汾州	-11.475
募民	-11.475
書目	-11.4751
一寸二分	-11.4752
賜爵	-11.4753
香山	-11.4754
御仗	-11.4755
衞尉	-11.4756
大都督	-11.4757
未獲	-11.4758
漢志	-11.4761
四季	-11.4763
琉球國	-11.4764
繪金	-11.4764
蕩平	-11.4769
上尊號	-11.477
持案者	-11.4771
五年八月	-11.4772
欽命	-11.4775
疏稱	-11.4776
太史令	-11.4776
觀察	-11.4778
髠	-11.4778
六品官	-11.478
滁州	-11.478
粱	-11.478
犒	-11.4781
羽葆	-11.4781
送部引見	-11.4782
櫃	-11.4782
憲宗成化	-11.4786
西湖	-11.4787
木輅	-11.4787
回回	-11.4788
瘴	-11.4788
各該督撫	-11.4789
閨	-11.4791
舊欠	-11.4792
奉特㫖	-11.4794
大學士九卿	-11.4794
初二日	-11.4795
無他	-11.4796
瀛臺	-11.4798
報可	-11.48
里初屬	-11.4802
姊	-11.4802
五年五月	-11.4803
衆星	-11.4805
儒臣	-11.4806
夫役	-11.4808
採桑	-11.4809
三品官	-11.4811
徽號	-11.4815
獻俘	-11.4816
無嗣	-11.4819
築城	-11.4821
冊内	-11.4823
那移	-11.4823
兠	-11.4826
滿洲正白旗人姓	-11.4827
時憲書	-11.4828
始皇	-11.4828
推諉	-11.4829
捕盜	-11.4829
之象也	-11.4832
囤	-11.4832
謹題為	-11.4834
茨	-11.4834
諭禮部	-11.4835
河防	-11.4835
獮	-11.4838
升詣	-11.4838
佐貳官	-11.4839
銀庫	-11.4841
殺死	-11.4841
降立於	-11.4842
勤政	-11.4844
司賛	-11.4844
表箋	-11.4845
三百人	-11.4846
武太后	-11.4847
塘工	-11.4852
四疋	-11.4852
宣力	-11.4852
支河	-11.4852
詳審	-11.486
㑹計	-11.4862
増定	-11.4867
鞍轡	-11.487
朕甚	-11.4873
譁	-11.4874
萬安	-11.4874
夭	-11.4874
侮	-11.4875
瑾	-11.4875
都爾	-11.4875
集賢院	-11.4875
宣慰	-11.4876
貢院	-11.4876
相間	-11.4876
銅印	-11.4876
拜舞	-11.4877
宗正卿	-11.4879
總統	-11.488
順治四年	-11.4882
數千里	-11.4883
縈	-11.4884
寧海	-11.4885
㝢	-11.4887
該堂官	-11.489
乾隆十八年	-11.4891
根本	-11.4892
失火	-11.4893
授職	-11.4894
良鄉	-11.4894
梯航	-11.4895
副總管	-11.4896
一品以下	-11.4897
淮東	-11.4898
鎮逺	-11.4898
罪二等	-11.4899
轉飭	-11.4901
十三年二月	-11.4905
三千六百	-11.4906
五斤	-11.4906
典賣	-11.4908
彼處	-11.491
擢用	-11.4912
暹羅	-11.4913
表章	-11.4913
欽定四庫全書政和五禮新儀卷	-11.4915
鉅鹿	-11.4916
設神位	-11.4917
牧副	-11.4918
厥後	-11.4919
髀	-11.492
瀝	-11.492
一年内	-11.4923
通政司	-11.4924
興京	-11.4924
嫻	-11.4924
忌日	-11.4925
南境	-11.4926
臭	-11.4928
八百八十	-11.4928
六百三十	-11.4928
専司	-11.4929
御坐	-11.493
義理	-11.4932
陜州	-11.4933
聖諭	-11.4933
太常少卿	-11.4934
天祚	-11.4935
無辜	-11.4935
年月日	-11.4935
某官某	-11.4936
汀	-11.4937
演習	-11.4939
帝王之	-11.4939
范陽	-11.494
七百四十	-11.4942
撥給旗人地	-11.4944
者準其	-11.4945
以爵授執事者	-11.4946
六年十月	-11.4946
水溢	-11.4949
廟堂	-11.495
祀天地	-11.495
白氣	-11.4954
廟宇	-11.4956
地理志	-11.496
王公等	-11.496
黄幄	-11.4962
雲麾使	-11.4962
繅	-11.4964
堊	-11.4965
跟	-11.4966
橫	-11.4967
犯死罪	-11.4967
煽	-11.4968
名口倉存榖	-11.4968
漕運總督	-11.497
剽	-11.497
阿睦爾撒納	-11.4971
破賊	-11.4972
正一品	-11.4974
阿勒	-11.4974
大宛	-11.4976
飲訖	-11.4977
公廨	-11.4978
神農	-11.4978
葱嶺	-11.4978
巍	-11.4979
署理	-11.4979
聲如雷	-11.4979
賓客	-11.4981
天地宗廟	-11.4984
牝	-11.4985
正二品	-11.4985
業已	-11.499
家語	-11.4993
貧富	-11.4995
四寸五分	-11.4996
延平	-11.4998
靈駕	-11.5
西東面	-11.5002
體例	-11.5007
上駟院	-11.5011
窠	-11.5015
行參軍	-11.5015
貎	-11.5017
該國王	-11.5018
訃	-11.5021
汙	-11.5021
塞外	-11.5022
各該處	-11.5022
先入就位	-11.5023
黎明	-11.5023
巴林	-11.5025
濩	-11.5028
花釵	-11.5029
出嫁	-11.5029
稍西	-11.5031
周詳	-11.5041
班位	-11.5041
太子太傅	-11.5044
部尚書	-11.5046
由來	-11.5048
進士舉人	-11.5049
院使	-11.5051
賛冠者	-11.5053
徳音	-11.5053
開寶	-11.5055
一片	-11.5056
氏正紅旗䝉古	-11.5057
與同罪	-11.5061
大小官員	-11.5061
廳	-11.5061
獨石口	-11.5063
二品以上	-11.5063
滂	-11.5066
洪武中	-11.5066
都司一人	-11.5066
鞮	-11.5067
宣祖	-11.5067
扉	-11.5068
恱	-11.5068
蟒袍	-11.5069
啇	-11.5069
脉	-11.5069
第十一	-11.5069
河渠	-11.507
畋	-11.507
蔡京	-11.5071
郊特牲	-11.5071
袞	-11.5072
繕寫	-11.5073
釋菜	-11.5075
十五年二月	-11.5076
蘇軾	-11.5077
祈雨	-11.508
辦銅	-11.508
審明	-11.5081
革輅	-11.5081
赤帝	-11.5083
露布	-11.5086
厯年	-11.5088
永福	-11.5089
附載	-11.5089
東上閤門	-11.5092
寳相花	-11.5092
數十人	-11.5094
他物	-11.5097
月朔日	-11.5097
清理	-11.51
千總把總	-11.5101
毋許	-11.5101
鎮海	-11.5102
縢	-11.5103
帨手	-11.5103
楊氏	-11.5103
之意也	-11.5103
地面	-11.5103
三分之一	-11.5106
晝見	-11.5106
别駕	-11.5107
鞅	-11.5107
七政	-11.5109
土著	-11.5109
該州縣	-11.511
三十二人	-11.511
盎齊	-11.511
連年	-11.5112
靠	-11.5112
喪主以下	-11.5112
丸	-11.5113
欽定大清㑹典則例卷	-11.5113
秸	-11.5114
錮	-11.5114
各省駐防	-11.5115
憩	-11.5119
洙泗	-11.5119
寰區	-11.5121
煟	-11.5121
慚	-11.5122
講求	-11.5122
牧放	-11.5122
盛世	-11.5124
莫知	-11.5127
奮擊	-11.5128
令該督撫	-11.513
諡襄	-11.513
賞卹如例恩賜雲騎尉世職	-11.5133
不知所	-11.5134
十哲	-11.5135
摺奏	-11.514
異數	-11.5141
侍講學士	-11.5143
縣尉	-11.5145
懐柔	-11.5146
使副使	-11.5151
升恒	-11.5153
十有四人	-11.5154
櫜鞬	-11.5155
桿	-11.5156
棒	-11.5157
殺賊	-11.5157
公中佐領	-11.5159
萬夀詩	-11.5161
三大節	-11.5162
六年三月	-11.5163
瑄	-11.5164
禳	-11.5166
百疋	-11.5167
望闕	-11.5168
率屬	-11.5168
孝弟	-11.517
順治十年	-11.5171
儀物	-11.5179
犯該	-11.5185
登封	-11.5187
副榜	-11.5189
棄市	-11.5189
陽氣	-11.5193
執饌者	-11.5194
一巻	-11.5194
協副將	-11.5194
西畨	-11.5196
邊境	-11.5197
收受	-11.5198
沿江	-11.52
惟恐	-11.5204
濓	-11.5204
視學	-11.5205
黄緞	-11.5206
加賞	-11.5207
荔	-11.5207
崇文總目	-11.5209
皇太后徽號	-11.521
賞卹如例	-11.5211
太常卿引皇帝進	-11.5213
知制誥	-11.5215
晉天福	-11.5216
重譯	-11.5217
平允	-11.5218
省牲位	-11.5219
徳之舞	-11.5222
牛種	-11.5224
兩頭	-11.5225
司尊	-11.5225
姑林	-11.5225
紀綱	-11.5226
楚克	-11.5229
▁本朝	-11.5231
和碩公主	-11.5232
欣逢	-11.5233
賦銀	-11.5235
禋祀	-11.5235
奸民	-11.5235
三年一次	-11.5235
高麗	-11.5238
説文	-11.5238
貢監	-11.5238
親盡	-11.5239
比例	-11.524
伊勒	-11.524
龍鳯	-11.5241
成婚	-11.5241
所遺	-11.5242
通寳	-11.5242
禄米	-11.5243
一尺八寸	-11.5245
酒脯	-11.5245
南門外	-11.5245
爵弁	-11.5245
捕役	-11.5247
鑲白	-11.5248
諡法	-11.5248
東廡	-11.5248
藩司	-11.525
坐贓論	-11.5251
兗	-11.5252
滋擾	-11.5252
蒼梧	-11.5253
禜	-11.5255
紱	-11.5255
嚇	-11.5255
進征	-11.5256
氏正黄旗漢軍	-11.5257
本注曰	-11.5257
十卷鼂氏曰	-11.5258
肘	-11.5259
雒陽	-11.5259
事例洪武	-11.5261
聳	-11.5263
窟	-11.5263
便殿	-11.5263
千斤	-11.5265
啜	-11.5266
馨香	-11.5267
福禄	-11.5268
修建	-11.527
▁疏曰	-11.5271
又在其南	-11.5271
臺站	-11.5272
盈餘	-11.5272
大名府	-11.5273
馳驛	-11.5273
廩増	-11.5277
九百六十	-11.5278
西安府	-11.528
變徴	-11.5283
案宋史	-11.5284
集二卷	-11.5286
秋收	-11.5287
江南浙江	-11.529
汧	-11.5291
閣門	-11.5291
正八品	-11.5291
内給事	-11.5293
不能盡	-11.5293
風雲	-11.5295
加增	-11.5296
賻	-11.5296
合式	-11.5299
犍	-11.5301
導駕官同太常卿導引	-11.5302
宣徽院	-11.5302
亭侯	-11.5304
追賠	-11.5304
行初獻禮	-11.5307
袱	-11.5309
食糧	-11.5309
芹	-11.5309
滿洲正黄旗人	-11.531
昭宗	-11.531
使持節	-11.5315
以木為	-11.5315
米穀	-11.5317
公主福晉以下	-11.5319
分貯	-11.532
一等子	-11.5322
神厨	-11.5328
死亡	-11.5328
祖妣	-11.5335
釐一毫	-11.5336
欽定八旗通志卷	-11.5336
詳細	-11.5336
小兒	-11.5337
協理	-11.5337
三寸五分	-11.5337
石壩	-11.5338
恩膏	-11.5338
屯種	-11.534
七百八十	-11.5344
應付	-11.5345
大宗伯	-11.5345
罇所	-11.5346
燎壇	-11.5346
髙五尺	-11.5347
倉場	-11.5347
五十八年	-11.5347
不啻	-11.5348
亞獻終獻	-11.5349
春秋傳	-11.535
葭	-11.5352
長洲	-11.5354
瑯	-11.5355
有司謹具請行事	-11.5355
隱匿	-11.5355
厮	-11.5357
壹	-11.5358
眇	-11.5358
徒二年半	-11.5359
七百六十	-11.5361
甚矣	-11.5363
楓	-11.5365
民欠	-11.5365
銀二十兩	-11.5365
侵欺	-11.5365
璿	-11.5366
南靣	-11.5367
烏桓	-11.5368
東西各	-11.5374
錢帛	-11.5375
餘丈	-11.5375
睿親王	-11.5376
遇恩詔	-11.5383
目録	-11.5387
瑞應	-11.5388
上黨	-11.5389
五年十月	-11.5391
延年	-11.5391
章帝	-11.5393
朝珠	-11.5394
戰國時	-11.5395
太室	-11.5399
乾隆二十三年	-11.5399
劫	-11.5402
僧格	-11.5404
九分有餘	-11.5404
冢	-11.5405
于篚	-11.5405
杓	-11.5405
龍鳳	-11.5405
羈	-11.5406
兾	-11.5407
茹	-11.5407
殁於陣	-11.5408
纘	-11.5408
取㫖	-11.5408
英宗正統	-11.541
芸	-11.5414
枷責	-11.5414
界西至	-11.5414
百寮	-11.5415
漾	-11.5416
蓬萊	-11.5416
五年十一月	-11.5418
被灾	-11.5418
溉田	-11.5419
吏科	-11.5419
歡呼	-11.542
現有	-11.5421
援兵	-11.5421
攻城	-11.5422
俯伏	-11.5424
就坐	-11.5427
僉書	-11.5428
稅課	-11.5428
設伏	-11.5429
嘉泰	-11.5429
源流	-11.5429
府同知	-11.5429
萬歲	-11.5432
廟祀	-11.5435
桑阿	-11.5436
他日	-11.5437
班齊	-11.5438
恭紀	-11.544
三卷陳氏曰	-11.5446
江西湖廣	-11.5446
民籍	-11.5446
幣篚	-11.5446
蘇爾	-11.5446
八百餘	-11.5447
壝門外	-11.5447
詣罍洗盥手洗爵	-11.5449
鹿脯	-11.545
一尺一寸	-11.5452
菩薩	-11.5452
兵仗	-11.5454
䆒	-11.5454
銀二錢	-11.5456
縞	-11.5456
雇工人	-11.5456
麒麟	-11.5459
整飭	-11.5462
半俸	-11.5462
致詞	-11.5463
殘疾	-11.5464
逾限不	-11.5465
白糧	-11.5465
散給	-11.5468
敬宗	-11.5469
季夏	-11.547
紹熙	-11.5472
撰擬	-11.5472
别項	-11.5472
橋梁	-11.5472
該將軍	-11.5473
器服	-11.5473
生息	-11.5474
孳	-11.5476
昆明	-11.5481
鎮巡檢司	-11.5484
司帛	-11.5485
几筵前	-11.5486
湖廣總督	-11.5489
歌工	-11.549
汀州	-11.549
亳州	-11.549
敷文	-11.5494
過淮	-11.5495
躬行	-11.5496
族長	-11.5497
分贓	-11.5498
阿達哈哈番	-11.5499
都綂	-11.5499
尊罍	-11.5501
以西為上	-11.5501
既久	-11.5502
謁廟	-11.5502
匃奴	-11.5503
上谷	-11.5504
斚	-11.5504
六百五十	-11.5505
新附	-11.5507
所在官司	-11.5508
平涼	-11.5508
倉場侍郎	-11.5508
被害	-11.5508
氏鑲白旗䝉古	-11.551
禽獸	-11.5512
僥倖	-11.5512
刑部郎中	-11.5513
二卷陳氏曰	-11.5514
尺一寸	-11.5515
黎庶	-11.5515
禮部尚書侍郎	-11.5516
住俸	-11.552
諭曰朕	-11.5521
龍虎	-11.5522
供職	-11.5523
半月	-11.5526
八年三月	-11.5529
殷實	-11.553
制曰可	-11.553
百嵗	-11.5532
建坊	-11.5537
吕氏	-11.5539
下游	-11.554
竊盗	-11.5543
蕩蕩	-11.5546
次引監察御史	-11.5546
小京官	-11.5548
崑山	-11.5548
奉俎	-11.555
挫	-11.555
䕶軍營	-11.5551
文武百僚	-11.5552
殪	-11.5553
香燭	-11.5553
冠頂	-11.5554
酒饌	-11.5555
塹	-11.5556
驂	-11.5558
薩克	-11.5558
太僕卿	-11.5559
悛	-11.5559
怙	-11.556
江隂	-11.5562
𨽻焉	-11.5563
劉歆	-11.5564
春風	-11.5566
頒賜	-11.5572
韓愈	-11.5572
溺死	-11.5572
國子祭酒	-11.5575
申送	-11.558
叅軍	-11.558
乾隆二十	-11.5587
數百人	-11.5588
以副朕	-11.5589
三等阿思哈尼哈畨	-11.5589
米糧	-11.5591
匕	-11.5592
一尺四寸	-11.5595
度牒	-11.5595
碭	-11.5595
臣僚言	-11.5595
帳房	-11.5597
水患	-11.5598
收税	-11.5598
加二等	-11.56
厚薄	-11.5601
將校	-11.5603
搖	-11.5603
鈐轄	-11.5606
致齋三日	-11.5607
孕	-11.5607
五百九十	-11.5607
地丁錢糧	-11.5607
東向北上	-11.5608
蕪湖	-11.5609
倬	-11.5609
本品	-11.5611
嬉	-11.5612
氛	-11.5612
紫宸殿	-11.5613
盃	-11.5614
東面北上	-11.5615
和闐	-11.5615
於堂上	-11.5617
不作樂	-11.5618
濃	-11.5619
宿旗一	-11.5621
勒帛	-11.5621
悉照	-11.5623
客星	-11.5625
整齊	-11.5629
盛漲	-11.5629
於壇下	-11.563
筵燕	-11.5631
京倉	-11.5632
是否	-11.5634
三千人	-11.5636
一卷鼂氏曰	-11.5637
獅	-11.5638
乾隆九年	-11.564
丞一人	-11.5641
博羅	-11.5642
竟不	-11.5642
未協	-11.5645
治儀正	-11.5646
樞密使	-11.5647
太社太稷	-11.5649
短少	-11.565
估計	-11.5651
登歌樂作	-11.5652
挑選	-11.5652
胸	-11.5653
柔逺	-11.5653
鏃	-11.5653
蜃	-11.5653
氏鑲藍旗漢軍	-11.5654
送内閣	-11.5656
拈香	-11.5656
施恩	-11.5656
菱	-11.5657
㐮	-11.5657
生徒	-11.5658
駱	-11.5658
漢因之	-11.5659
階間	-11.566
凖此	-11.566
招降	-11.5662
二千六百	-11.5662
之東西向	-11.5664
寃抑	-11.5665
十年二月	-11.5671
正配位	-11.5672
殿外	-11.5674
丁夘	-11.5675
界南至	-11.5676
水脚	-11.5676
數多寡	-11.5676
皇族	-11.5687
穆穆	-11.5687
漕項	-11.5688
覆載	-11.5688
木植	-11.5689
春臺	-11.5689
巴什	-11.5689
踰年	-11.5691
楅	-11.5694
帶領	-11.5695
冊封	-11.5695
未㡬	-11.5698
慶陽	-11.57
紂	-11.57
服飾	-11.5704
衿	-11.5705
糓	-11.5705
顔子	-11.5706
致敬	-11.5707
唐末	-11.5707
勣	-11.5707
東宮	-11.5708
岩	-11.5708
鼔吹	-11.5708
謗	-11.5709
字仲	-11.5709
不惜	-11.5709
漣	-11.5709
司坊官	-11.571
率領	-11.5711
比照	-11.5712
索諾木	-11.5712
採訪	-11.5713
前期一日	-11.5713
邵武	-11.5713
琢	-11.5714
伏兵	-11.5715
驪	-11.5716
魚鱗	-11.5718
肆赦	-11.5718
遇害	-11.5718
進講	-11.5719
恭順	-11.572
醴泉	-11.572
内聲明	-11.5721
臨期	-11.5721
林南林	-11.5721
穂	-11.5722
石青色	-11.5723
汴梁	-11.5723
柷敔	-11.5724
賦税	-11.5725
宻雲	-11.5727
西陛	-11.5731
十五年三月	-11.5735
配饗	-11.5737
来京	-11.5739
一概	-11.5742
遺失	-11.5747
遊表	-11.5748
櫺	-11.5748
勞苦	-11.5753
眀帝	-11.5753
義勇	-11.5754
肝	-11.5754
篋	-11.5755
剃	-11.5757
於是乎	-11.5758
紓	-11.5759
琪	-11.5759
詆	-11.576
屑	-11.576
印烙	-11.576
三十兩	-11.576
愜	-11.5761
左右前後	-11.5763
騎士	-11.5764
入設於	-11.5765
砥	-11.5765
守衞	-11.5767
驍騎校一人	-11.5771
四年十二月	-11.5778
第二等	-11.5778
叛逆	-11.5782
二十疋	-11.5786
照例治罪	-11.5787
否則	-11.5789
蔚州	-11.5792
縱容	-11.5795
髙昌	-11.5795
禮直官贊	-11.5797
嗇	-11.58
官二員	-11.5801
黻	-11.5804
漢軍正白旗人	-11.5806
名山大川	-11.5809
在府西南	-11.581
三百兩	-11.5811
蕃使	-11.5811
位於其後	-11.5811
鑼	-11.5812
固守	-11.5812
諸王貝勒	-11.5812
穎	-11.5815
顛	-11.5816
月初三日	-11.5817
前鋒㕘領	-11.5819
鴻臚寺官引	-11.5822
之處著	-11.5833
承政	-11.5834
執篚	-11.5836
解京	-11.5838
諡號	-11.5842
與否	-11.5843
少詹事	-11.5849
恊律郎	-11.5849
受胙	-11.585
太宗皇帝	-11.5851
名右營守備一人	-11.5853
漢舊縣	-11.5855
雋	-11.5857
兩廣總督	-11.5861
毛詩	-11.5862
兢	-11.5863
腦	-11.5865
巒	-11.5865
萬斛	-11.5867
一萬四千	-11.5869
奉幣	-11.5869
仁壽	-11.587
一尺六寸	-11.5875
雅圖	-11.5879
所産	-11.588
操練	-11.588
氏正藍旗䝉古	-11.5883
茶鹽	-11.5883
乾隆二十六年	-11.5887
起送	-11.5887
鳴鐘	-11.5895
贊跪	-11.5896
諸衞	-11.5896
朱漆	-11.5898
俱再拜	-11.5898
史冊	-11.59
遼史	-11.59
碩色	-11.5901
隴右	-11.5901
五色雲	-11.5904
禺	-11.5905
豚	-11.5905
拜唐阿	-11.5907
琬	-11.5908
旃	-11.5911
廿	-11.5913
既葬	-11.5913
良法	-11.5914
脈	-11.5916
寐	-11.5918
師傅	-11.5919
萬夀聖節	-11.5923
版圖	-11.5924
香爐	-11.5931
建極	-11.5931
久逺	-11.5932
鞏固	-11.5933
𤓰勒佳	-11.5938
吾仗	-11.594
孝敬	-11.5941
立哭	-11.5941
妄行	-11.5941
典儀官	-11.5941
齋宿	-11.5947
獄囚	-11.5949
黄道赤道	-11.5952
輻	-11.5954
粟米	-11.5955
八十人	-11.5956
駙馬都尉	-11.5957
領縣七	-11.5958
鄞	-11.596
西方北方	-11.596
交鈔	-11.5961
行一跪三叩禮	-11.5962
骸	-11.5962
剋	-11.5962
鄭親王濟爾哈朗	-11.5963
騫	-11.5963
顙	-11.5964
陘	-11.5966
針	-11.5968
唐㑹要	-11.5971
擄	-11.5973
無幾	-11.5973
轉輸	-11.5975
尋復	-11.5977
毎旗	-11.5977
濟南府	-11.5979
啟閉	-11.5979
奉聖㫖	-11.5983
學士院	-11.5987
釐正	-11.5988
長史司馬	-11.5989
定襄	-11.5991
欽定四庫全書通典卷	-11.5991
兆民	-11.5991
七年五月	-11.5994
於丹墀	-11.5996
魯克	-11.5996
達色之妻	-11.5997
就座	-11.5997
因病辭退以	-11.6003
陲	-11.6005
之妻富察氏	-11.6006
鑊	-11.6007
阿達哈哈畨	-11.6008
呼爾	-11.6008
囚徒	-11.6009
第三子	-11.6009
盔甲	-11.601
呵	-11.6012
陜甘	-11.6013
留守司	-11.6013
糧草	-11.6013
諄	-11.6014
縁坐	-11.6015
兄子	-11.6017
𠂻	-11.6017
匙	-11.6017
疏通	-11.602
庖	-11.602
經略	-11.6024
芮	-11.6027
暫行	-11.6027
六百六十	-11.6028
鄂爾泰	-11.6028
御輿	-11.6028
緑旗	-11.6028
伯父	-11.6029
之謂也	-11.603
各三間	-11.6033
中霤	-11.6034
莫大於	-11.6035
覈明	-11.6038
固倫公主	-11.6044
七旬	-11.6045
總章	-11.6047
欽承	-11.6055
弁兵	-11.6057
漁陽	-11.6058
盜案	-11.606
紀録一次	-11.606
顯宗	-11.606
佟國	-11.6063
瞽	-11.6063
本衙門	-11.6067
四庫全書	-11.6068
堂上官	-11.6069
飲福酒	-11.607
莊田	-11.6071
卵	-11.6071
仔	-11.6074
堦	-11.6075
光祿	-11.6076
䦕	-11.6079
率羣臣	-11.608
匏爵	-11.608
錄事	-11.6081
可知矣	-11.6081
過失	-11.6082
收支	-11.6083
鄭注	-11.6085
鼓柷	-11.6087
杜預	-11.609
疋綿	-11.6093
穆占	-11.6093
二尺四寸	-11.6093
諸司職掌凡	-11.6097
月初六日	-11.6102
七十餘	-11.6102
於階下	-11.6104
棗栗	-11.6111
經降㫖	-11.6115
纊	-11.6116
騶	-11.6117
讎	-11.6118
輛	-11.6118
顥	-11.6118
片金	-11.6118
閤門使	-11.6118
塜	-11.6119
閩省	-11.6119
僑	-11.6119
玉燭	-11.6121
冥	-11.6122
奏請中嚴	-11.6122
磔	-11.6122
舛錯	-11.6123
䏻	-11.6124
盪	-11.6124
聖德	-11.6124
瓌	-11.6125
加賑	-11.6127
緊要	-11.6129
特頒	-11.6131
鹽價	-11.6132
謄録	-11.6133
衙役	-11.6133
交界	-11.6133
制帛	-11.6133
杖鼓	-11.6133
烏蘭	-11.6133
三年期滿	-11.6134
干戚	-11.6134
夷狄	-11.6135
中常侍	-11.6135
祝嘏	-11.6137
西戎	-11.6137
輕車	-11.6138
兆惠	-11.6139
照舊例	-11.614
老弱	-11.6141
全完者	-11.6149
祈年	-11.6149
開銷	-11.6152
順治十六年	-11.6152
甬	-11.6152
羣黎	-11.6154
来貢	-11.6155
五品已上	-11.6157
等處地方	-11.6161
豫備	-11.6162
生童	-11.6163
祖禰	-11.6163
咨取	-11.6164
上尊號曰	-11.6165
山崩	-11.6165
和聲署	-11.6167
區别	-11.6169
降一級畱任	-11.6169
煬帝初州廢	-11.6169
老病	-11.6173
東方南方	-11.6173
廵檢司	-11.6173
緝拏	-11.6174
董仲舒	-11.6174
升祔太廟	-11.6174
邳州	-11.6175
長二丈	-11.6175
北面東上	-11.6177
湮	-11.6177
佞	-11.6178
蒲州	-11.6179
殃	-11.618
斟酒	-11.6181
鹽鐡	-11.6183
香盤	-11.6185
哺	-11.6185
分為二	-11.6186
室韋	-11.6187
鬬毆	-11.6189
恒星	-11.6191
東嚮	-11.6192
純嘏	-11.6194
加一雲騎尉	-11.6198
庫車	-11.6198
仰惟	-11.62
京房	-11.6201
丈六尺	-11.6202
袴褶	-11.6202
姑息	-11.6203
隋志	-11.6205
田産	-11.6213
哭臨	-11.6213
四十日	-11.6214
平巾幘	-11.6215
閃	-11.6217
孝慈	-11.6218
絳紗	-11.6219
脾	-11.6219
㕘政	-11.6221
營㕘將一人	-11.6221
十六年正月	-11.6222
斫	-11.6223
砍	-11.6223
弊端	-11.6224
夀春	-11.6225
氏正紅旗漢軍	-11.6225
䙝	-11.6226
隨駕	-11.6226
得㫖允行	-11.6227
饗殿	-11.6227
散秩官	-11.6228
四百名	-11.623
鹻	-11.623
莆田	-11.623
胙肉	-11.6232
皆斬	-11.6233
擬罪	-11.6233
億萬斯年	-11.6237
笞二十	-11.6239
特簡	-11.624
莢	-11.624
守宫設	-11.6247
押運	-11.6249
十嵗以上	-11.625
更造	-11.6253
縱横	-11.6254
八旬萬夀	-11.6254
二千三百	-11.6255
相似	-11.6255
繡金	-11.6256
象限	-11.6256
皇恩	-11.6258
不如法	-11.6261
祝釐	-11.6262
六年九月	-11.6265
芡	-11.6274
務須	-11.6275
刨	-11.6276
瑪瑙	-11.6277
筵前	-11.6279
䕫州	-11.6279
澆	-11.6281
菁	-11.6282
洙	-11.6282
絫	-11.6282
東門之外	-11.6283
雲騎尉世職	-11.6284
耐	-11.6284
犯壘壁陣	-11.6284
蘇州府	-11.6285
犂	-11.6285
蘋	-11.6286
兵二千	-11.6286
糜費	-11.6287
巡按御史	-11.6288
誥命	-11.6289
浩蕩	-11.629
海螺	-11.629
弇	-11.6291
塔爾	-11.6294
詐稱	-11.6294
行三跪九叩禮畢	-11.6294
明集禮	-11.6295
至是復	-11.6295
俞允	-11.6296
呈請	-11.6296
八旗大臣	-11.6296
舎人引	-11.6299
閏七月	-11.6299
從二品	-11.6299
九年二月	-11.63
三之一	-11.6301
殊非	-11.6302
届期	-11.6305
皇太后宫	-11.6308
裁革	-11.6316
審實	-11.6322
棱	-11.6326
銅鐵	-11.6327
縣界二百	-11.6327
氏正白旗漢軍馬甲	-11.6328
數千人	-11.633
見子類	-11.6332
丈二尺	-11.6332
癸	-11.6333
喚	-11.6333
焞	-11.6333
輔政	-11.6333
夏后氏	-11.6334
昱	-11.6335
至元二年	-11.6336
舒赫徳	-11.6336
閏二月	-11.6336
縳	-11.6337
崇政殿	-11.6337
悮	-11.6341
斬衰	-11.6344
兆恵	-11.6345
朝野	-11.6347
瑞靄	-11.6353
宗社	-11.6353
送神奏	-11.6354
馴象	-11.6355
郡太守	-11.6359
夾侍	-11.6361
奉敕	-11.6361
滿洲漢軍	-11.6362
礮手	-11.6365
添建	-11.6366
司爼	-11.6372
二千一百	-11.6373
年老辭退以	-11.6375
七年議準	-11.6376
無忌	-11.6377
任都統	-11.6378
左門入	-11.6379
讀文致祭	-11.6383
琰	-11.6384
宫架樂作	-11.6386
校書郎	-11.6386
遣奠	-11.6387
六百九十	-11.6388
釣	-11.6389
玻璃	-11.6393
餒	-11.6394
總制	-11.6396
傷人者	-11.6397
禅	-11.6397
摛	-11.64
隋文帝	-11.6401
墾種	-11.6401
喀喇	-11.6402
舵	-11.6402
北嶽	-11.6402
累朝	-11.6402
贊者引	-11.6404
佐雜	-11.6406
濟運	-11.6406
裁去	-11.6407
淵源	-11.6409
道北南向	-11.6411
察勘	-11.6411
濟濟	-11.6413
淮徐	-11.6415
犢一	-11.6417
卿雲	-11.6419
定陶	-11.6422
路費	-11.6422
勘明	-11.6424
回空	-11.6425
杌	-11.6431
配座	-11.6433
氏鑲紅旗漢軍	-11.6438
該上司	-11.6439
餐	-11.644
媵	-11.6441
兹據	-11.6441
各於其	-11.6442
瓘	-11.6443
華祝	-11.6443
慈寧宫	-11.6446
和買	-11.6447
國史院	-11.6447
訣	-11.6448
領隊大臣	-11.6448
翳	-11.6449
洺	-11.6449
吐谷渾	-11.6449
嵗辦	-11.645
擲	-11.6451
卑㓜	-11.6451
莘	-11.6451
塾	-11.6451
罰俸九月	-11.6452
改葬	-11.6456
騎操	-11.6456
稷壇	-11.6456
斷獄	-11.6457
祖奠	-11.6457
觥	-11.6459
䕶軍驍騎	-11.6461
得功牌	-11.6461
記室	-11.6462
天聰八年	-11.6464
萊州	-11.647
衰服	-11.6472
休息	-11.6473
滋生	-11.6474
底定	-11.6477
伏望	-11.6478
列陣	-11.6479
靈車	-11.6484
協律郎舉麾	-11.649
腊	-11.6491
司道府	-11.6493
七言絶	-11.6493
羗	-11.6494
諸太祝各	-11.6495
笞三十	-11.6496
給假	-11.6496
降自東階	-11.6497
親蠶	-11.6497
沱	-11.6499
綘	-11.6499
升自南陛	-11.6501
絲毫	-11.6502
金牌	-11.6504
鉉	-11.6504
七年六月	-11.6504
鎛	-11.6506
初七日	-11.6507
鰲拜	-11.6507
廊下	-11.6507
遇赦	-11.6508
財産	-11.6508
土爾扈特	-11.6509
十三年四月	-11.651
各部院衙門	-11.6516
十萬緡	-11.6523
防䕶	-11.6524
歉收	-11.6525
春秋致祭	-11.6527
萬餘兩	-11.6531
木質	-11.6532
龍潭	-11.6535
肇慶	-11.6536
田獵	-11.654
界北至	-11.654
折鈔	-11.6544
湟	-11.6552
春秋二季	-11.6555
誤作	-11.6556
省牲器	-11.6556
禕	-11.6557
愼	-11.6557
驛六十里	-11.6558
崑	-11.6558
緌	-11.6558
經術	-11.6559
袠	-11.6561
六百二十	-11.6563
六匹	-11.6564
碗	-11.6566
防範	-11.6569
鵷	-11.6571
率所屬	-11.6571
採取	-11.6576
地丁銀	-11.6577
維新	-11.6579
授執事者	-11.658
江湖	-11.658
女子子	-11.658
太常卿奏請	-11.6583
詣香案前	-11.6585
簿書	-11.6586
者甚衆	-11.6588
昭示	-11.6593
卒諡	-11.6594
㠯	-11.6597
雜録	-11.6597
容留	-11.6602
受賄	-11.6603
灑掃	-11.6605
保䕶	-11.6606
十二年二月	-11.6607
𨼆	-11.6608
夤	-11.6608
淇	-11.6608
小麥	-11.6609
十七卷	-11.661
文藝	-11.6611
象罇	-11.6611
流賊李自成	-11.6611
阿巴泰	-11.6611
神位前北向立	-11.6612
居庸	-11.6613
煖	-11.6614
京朝官	-11.6615
綍	-11.6616
紫宸	-11.6616
歲貢	-11.6618
雝	-11.6618
諸道州府	-11.6619
朱熹	-11.6619
五品以下	-11.662
緋羅	-11.6622
蒼璧	-11.6622
税糧	-11.6625
賓主	-11.6626
成憲	-11.6629
錢榖	-11.663
二等男	-11.6637
可知也	-11.664
康熙十六年	-11.664
朝謁	-11.6642
州三縣	-11.6643
牧丁	-11.6646
姓氏	-11.6657
媒	-11.6659
人順治	-11.6659
庶品	-11.666
錦繡	-11.6661
典祠啓	-11.6663
四百石	-11.6664
刄	-11.6665
拴	-11.6667
煜	-11.6667
之大者	-11.6668
考核	-11.6668
升輿	-11.6672
繙	-11.6672
教訓	-11.6674
銀三錢	-11.6676
距星	-11.6678
節級	-11.6679
饑饉	-11.6679
徇庇	-11.668
兩九錢	-11.6682
遣使朝貢	-11.6683
河南尹	-11.6687
福建浙江	-11.669
二十四卷	-11.6694
錦衣	-11.6696
營遊擊	-11.6697
餘黨	-11.6702
改鑄	-11.6703
九年四月	-11.6705
草率	-11.6706
貟外郎	-11.6709
朐	-11.6714
忠孝	-11.6716
姦婦	-11.6718
加耗	-11.6721
有虞氏	-11.6723
豫親王多鐸	-11.6723
邜	-11.6723
緊	-11.6723
戞	-11.6724
鈸	-11.6724
平章政事	-11.6725
參議	-11.6727
硝	-11.6727
阿喇	-11.6728
黼黻	-11.6729
推升	-11.6729
隋縣有	-11.673
昶	-11.6732
安南國王	-11.6733
恭謝天恩	-11.6734
率其屬	-11.6736
田廬	-11.6741
世系	-11.6741
乾隆四十六年	-11.6741
安插	-11.6741
詐偽	-11.6742
往来	-11.6748
跪送	-11.6749
月初十日	-11.6751
擊壤	-11.6752
黄鍾宫	-11.6753
祠堂	-11.6753
秦始皇	-11.6755
贓罰	-11.6757
居址	-11.6759
祕書監	-11.676
加勺	-11.677
具朝服	-11.6776
如淳曰	-11.6776
著為例	-11.6778
襍	-11.6779
愚民	-11.6781
喉	-11.6782
泌	-11.6782
雲貴總督	-11.6783
氏鑲白旗滿洲䕶軍	-11.6783
殂	-11.6783
光禄丞	-11.6783
三百一十	-11.6785
淸	-11.6785
眀堂	-11.6785
八百六十	-11.6787
於正寢	-11.6788
鬱林	-11.6788
陞授	-11.6788
卉	-11.6789
從八品	-11.6791
擎執	-11.6791
三尺五寸	-11.6793
入閤	-11.6794
拔補	-11.6797
極貧	-11.6798
旬日	-11.68
來㑹經	-11.68
内壝之外	-11.6802
四川總督	-11.6803
加倍	-11.6804
髙斌	-11.6805
翊衛	-11.6805
吏胥	-11.6806
庫大使	-11.6809
清漢文	-11.681
胥役	-11.6811
雅頌	-11.6817
酎	-11.6819
大雩	-11.6825
冬夏	-11.6826
郡二百	-11.6829
幕次	-11.6829
違制	-11.683
這	-11.6832
漢軍副都統	-11.6833
世管佐領	-11.6834
療	-11.6834
磐	-11.6835
蟒袍補服	-11.6835
乾隆三十六年	-11.6835
塡	-11.6836
艮	-11.6836
恩賜騎都尉世職	-11.6836
乾符	-11.6837
挖	-11.684
撻	-11.6841
鄯	-11.6842
嗣立在位	-11.6842
柱管理	-11.6845
縂督	-11.6846
豁除	-11.6847
丈尺	-11.6848
骨肉	-11.6848
十之三	-11.6849
掖庭	-11.685
宸翰	-11.6851
召試	-11.6852
告退以	-11.6852
斛斗	-11.6853
承制官	-11.6853
湖口	-11.6855
月掩	-11.6858
日躔	-11.686
尾迹	-11.6866
陪祭	-11.6873
註冊	-11.6873
堂主事	-11.6874
州縣衛所	-11.6877
杠	-11.688
醴酒	-11.6886
餧養	-11.6887
獠	-11.689
苾	-11.689
氂	-11.6891
損壞	-11.6892
之妻王氏	-11.6892
鑲黄旗䝉古	-11.6894
荆南	-11.6895
凟	-11.6895
泄	-11.6896
鋄	-11.6896
儧	-11.6897
瞿	-11.6897
凑	-11.6897
搬	-11.6897
致滋	-11.6898
迅速	-11.6898
漪	-11.6899
譟	-11.6899
懐逺	-11.69
達爾漢	-11.6904
燠	-11.6905
該都統	-11.6915
此㫖	-11.6915
該地方	-11.6916
蕭何	-11.6932
平巾幘緋	-11.6934
樹木	-11.6936
不妨	-11.6939
帥兵官	-11.6939
各該衙門	-11.694
醆	-11.694
七百三十	-11.6943
恂	-11.6944
撃敗	-11.6946
彙	-11.6947
六年八月	-11.695
鬚	-11.6952
緹	-11.6952
滁	-11.6955
宣宗宣徳	-11.6955
體恤	-11.6955
潼川	-11.6956
路總管府	-11.6956
内府三旗	-11.6958
十分之三	-11.6958
藏匿	-11.6961
九十度	-11.6962
閶闔	-11.6968
垂拱殿	-11.6969
魏文帝	-11.6969
流離	-11.6974
重複	-11.6975
嵗暮	-11.6981
經過地方	-11.6982
分為三	-11.6982
銅觔	-11.6983
僚屬	-11.6986
乾隆十一年	-11.699
至元十三年	-11.6992
同提舉	-11.6996
牕	-11.6997
埳	-11.6998
增減	-11.6999
鹽池	-11.6999
南嶽	-11.7001
考驗	-11.7001
焜	-11.7002
眡	-11.7003
實以醴齊	-11.7003
少尹	-11.7004
經籍考	-11.7007
乍浦	-11.7009
紳衿	-11.701
瑀	-11.701
海潮	-11.701
讒	-11.7011
刹	-11.7012
麋	-11.7013
諡勤	-11.7015
覘	-11.7015
教場	-11.7016
玠	-11.7016
寢殿	-11.7019
暘	-11.7019
九嬪	-11.7019
箜篌	-11.7022
焰	-11.7025
苦累	-11.7027
下五旗	-11.7027
雨澤	-11.7031
食邑	-11.7039
雕木	-11.7042
天文生	-11.7044
初四日	-11.7048
武岡	-11.7048
驘	-11.7055
果毅都尉	-11.7059
順治十五年	-11.7061
皇帝服通天冠絳紗袍	-11.7061
驍騎校二人	-11.7062
東壁	-11.7063
保和殿	-11.7063
倒死	-11.7063
派一出	-11.7065
輕罪	-11.7068
藩臬	-11.7068
朞	-11.7069
司禮監	-11.7069
樺	-11.707
瑩	-11.7072
正白旗䝉古	-11.7073
振旅	-11.7075
錫福	-11.7078
即御座	-11.7079
恩綸	-11.708
荘頭	-11.7081
鹿鳴	-11.7081
太醫	-11.7081
印票	-11.7081
萬頃	-11.7082
吳越	-11.7082
聖誕	-11.7091
商旅	-11.71
彗星	-11.71
百五十里	-11.71
愛戴	-11.7101
采亭	-11.7102
税務	-11.7102
祠宇	-11.7102
髙堰	-11.7103
十二年三月	-11.7104
大官令	-11.711
鰥寡孤獨	-11.7113
領催驍騎	-11.7113
妻女	-11.7116
拭爵	-11.7116
集八卷	-11.7121
蒋	-11.7121
蓍	-11.7123
霈	-11.7123
簨	-11.7124
諴	-11.7124
擠	-11.7125
鄂爾多斯	-11.7126
梧州	-11.7126
蠱	-11.7127
蟻	-11.7127
竪	-11.7127
鄖陽	-11.7128
閼	-11.7128
掖門	-11.713
搭放	-11.713
十里西至	-11.7133
精鋭	-11.7135
借貸	-11.7137
唐開元	-11.7138
隄防	-11.7143
瀘州	-11.7143
斤八兩	-11.7145
廬江	-11.7147
民饑	-11.7151
閏六月	-11.7153
描金	-11.7154
愍帝	-11.7155
差徭	-11.7155
尚書郎	-11.7157
永樂元年	-11.7159
席位於	-11.7161
七百餘	-11.7164
㸃視	-11.7164
宸章	-11.7165
糶賣	-11.7165
徑一寸	-11.7168
孔林	-11.7169
鄖	-11.7174
犧齊粢盛庶品	-11.7176
督標	-11.7178
十八年二月	-11.7179
陪祭官	-11.718
杉	-11.7181
屡	-11.7182
征湖廣	-11.7183
殺虎口	-11.7183
邯鄲	-11.7183
司賔引	-11.7184
袵	-11.7184
艦	-11.7187
侍中中書令	-11.7187
違犯	-11.7188
蜂	-11.7188
車輛	-11.7192
罔不	-11.7192
耆民	-11.7192
緩决	-11.7193
十八年正月	-11.7193
十一年四月	-11.7193
陪從	-11.7193
門外之西東面	-11.7194
維艱	-11.7194
珉	-11.7194
各該旗	-11.7194
七年四月	-11.7195
國子學	-11.7195
濊	-11.7196
十二年正月	-11.7196
荒政	-11.7198
支放	-11.7202
餉銀	-11.7203
銀五錢	-11.7203
版籍	-11.7204
竊惟	-11.7205
耗米	-11.7206
酒泉	-11.721
海防	-11.7214
祀五帝	-11.7221
一代之	-11.7233
忠勇	-11.7233
率更令	-11.7236
開濬	-11.7236
澧	-11.7236
考績	-11.7237
山東山西河南	-11.7237
匜	-11.7237
晁	-11.7238
擯	-11.7241
囑	-11.7242
季冬	-11.7243
内使監官	-11.7244
夸	-11.7244
東華門	-11.7245
榭	-11.7245
不在此限	-11.7245
忤	-11.7245
沴	-11.7246
某年生小子	-11.7246
聖躬	-11.7246
所自出	-11.7247
順治元年定	-11.7247
澧州	-11.7247
纍	-11.7248
至位樂止	-11.7249
庄	-11.725
取進童生	-11.7251
烝嘗	-11.7252
討平之	-11.7252
内大臣侍衛	-11.7253
月初八日	-11.7253
埃	-11.7254
丐	-11.7255
兀	-11.7256
伏羲	-11.7257
蕤賓	-11.7259
后土氏	-11.7259
后稷氏	-11.7262
哈什	-11.7262
副提舉	-11.7266
二千九百	-11.7268
團練	-11.7272
羊酒	-11.7273
副總兵	-11.7276
亘古	-11.7281
姻	-11.7283
再鼓皆	-11.7286
通政使	-11.7289
守禦千户所	-11.7291
舉劾	-11.7292
排班	-11.7292
酤	-11.7292
鶚	-11.7294
綱紀	-11.7294
爵於坫	-11.7295
詡	-11.7298
承天門	-11.7298
大長公主	-11.7299
脇	-11.73
盱眙	-11.73
舘	-11.7301
廏	-11.7301
紅色	-11.7301
金棺	-11.7302
鵰	-11.7302
袁州	-11.7303
辟邪	-11.7304
雌	-11.7304
隄岸	-11.7305
掌院學士	-11.7305
縠	-11.7305
引班引	-11.7306
蜀郡	-11.7308
舟楫	-11.731
勸懲	-11.7311
贏餘	-11.7314
岳託	-11.7314
髙三尺	-11.7314
救䕶	-11.7315
陜西甘肅	-11.7317
分寸	-11.7319
鶯	-11.732
幸闕里	-11.7322
十一年議準	-11.7323
吉祥	-11.7324
皇帝降座	-11.7327
集二十卷	-11.7337
十一年十一月	-11.7338
肉刑	-11.7341
詔曰朕	-11.735
皇上御製	-11.7352
折衝都尉	-11.7354
鹽運司	-11.7355
萬歴	-11.7361
行一叩禮	-11.7361
譲	-11.7361
淖	-11.7361
鈕祜禄	-11.7361
釡	-11.7361
萇	-11.7361
鏘	-11.7363
莊浪	-11.7366
諸州使人	-11.7366
孟秋	-11.7367
交阯	-11.7367
栅	-11.7368
榖梁	-11.7369
净	-11.737
貢監生	-11.737
長九寸	-11.737
八品官	-11.7371
荒蕪	-11.7373
迦	-11.7375
撫綏	-11.7375
迎神奏	-11.7377
集六卷	-11.7377
月俸	-11.7381
醫藥	-11.7395
守偹	-11.7396
明㑹典卷	-11.7398
年正書	-11.7406
進勦	-11.7407
尼雅	-11.7407
逆回	-11.7409
諸祝各	-11.7409
仍照原	-11.7411
限一月	-11.7412
流徒	-11.7414
簟	-11.7416
盎	-11.7416
如别儀	-11.7419
謳	-11.7421
太常卿引皇帝詣	-11.7421
泰定帝	-11.7421
絮	-11.7422
等謹案是編	-11.7423
痕	-11.7423
欝	-11.7423
掇	-11.7424
戕	-11.7426
數百里	-11.7431
叅政	-11.7434
専管	-11.7436
錯誤	-11.7439
曲柄	-11.744
賽音	-11.744
民公侯伯	-11.7441
酒樽	-11.7443
太液	-11.7444
武藝	-11.7444
成帝時	-11.7445
種植	-11.7448
十一年題準	-11.7449
十二年四月	-11.745
甘雨	-11.7451
督捕	-11.7453
保定府	-11.7456
塔拉	-11.7457
倉穀	-11.7459
正陽門	-11.7459
百辟	-11.7467
棨	-11.7472
有流星	-11.7476
毋致	-11.7478
篪	-11.7478
菁菹	-11.748
著作郎	-11.7481
嘉靖年諡	-11.7482
閤外	-11.7483
纉	-11.7483
汁	-11.7483
汜	-11.7483
韶州	-11.7484
南渡後	-11.7485
莎	-11.7485
畦	-11.7487
碍	-11.7487
船料	-11.7487
膏腴	-11.7489
扎拉	-11.749
宦官	-11.7492
霆	-11.7492
櫝	-11.7493
海澄	-11.7494
執圭	-11.7495
租庸	-11.75
火燄	-11.75
覃敷	-11.7501
零陵	-11.7502
榥	-11.7504
命儒臣	-11.7507
水漲	-11.7512
紳士	-11.7512
酌撥	-11.7513
十餘丈	-11.7514
楞額	-11.7516
洩水	-11.7522
騍馬	-11.7522
打牲	-11.7522
給付	-11.7524
乾隆十二年	-11.7525
稾	-11.753
繁簡	-11.7531
康熙十五年	-11.7532
十七年正月	-11.7535
絺	-11.7535
冠軍使	-11.7538
輪班	-11.7539
滿洲正藍旗人姓	-11.7539
紵	-11.7542
騙	-11.7542
額爾徳尼	-11.7544
煒	-11.7544
擘	-11.7544
董率	-11.7545
孝亷	-11.7547
講讀	-11.7548
瑤	-11.7548
幻	-11.7548
哈逹	-11.7549
慟	-11.7549
豎	-11.755
訶	-11.7553
筑	-11.7554
鍳	-11.7554
豐潤	-11.7554
捍禦	-11.7554
照時價	-11.7554
農隙	-11.7557
絹一疋	-11.7559
百七十	-11.757
上香行禮	-11.7573
嘉薦	-11.7574
御筵	-11.7575
乾隆十七年	-11.7576
朱裏	-11.7577
左氏傳	-11.758
强盗	-11.7586
千總二人把總四人兵七百	-11.7588
草場	-11.7591
尊彛	-11.7592
自序曰	-11.7593
掆	-11.7595
憲章	-11.7595
攙	-11.7597
臬	-11.7599
清釐	-11.7602
寶相花	-11.7602
紀錄一次	-11.7602
入八分公	-11.7603
滿洲鑲紅旗人姓	-11.7603
軻	-11.7603
征準噶爾	-11.7604
祭天地	-11.7604
騁	-11.7605
鰲	-11.7605
滿洲正白旗人	-11.7606
杵	-11.7606
櫟	-11.7607
兵一百名	-11.7607
嘴	-11.7609
嶧	-11.7609
金匱	-11.761
應劭曰	-11.761
騶虞	-11.7611
案牘	-11.7612
滚壩	-11.7614
我皇祖	-11.7614
纂輯	-11.7615
導迎樂	-11.7616
詩話	-11.7618
甬道	-11.7622
起居郎	-11.7626
兖州府	-11.7631
分洩	-11.7631
隊伍	-11.7632
百畝	-11.7638
鬭毆	-11.764
竈户	-11.7643
彩雲	-11.7645
仍照舊	-11.7647
犯姦	-11.7647
審録	-11.7651
億萬年	-11.7652
臺諫	-11.7654
騷擾	-11.7657
壇壝	-11.7659
餕	-11.7659
撫標	-11.766
諸方客使	-11.7662
葡萄	-11.7664
歴代帝王	-11.7666
蔑	-11.7666
符寳郎	-11.7667
稚	-11.7668
篴	-11.7668
乾隆十年	-11.7668
穆宗隆慶	-11.7668
泓	-11.7669
序略曰	-11.7672
翰林院檢討	-11.7673
鈒花	-11.7679
坦水	-11.768
盤察	-11.7683
姑姊妹	-11.7684
州四縣	-11.7688
購買	-11.7691
看詳	-11.7691
北嚮	-11.7692
謀叛	-11.7694
滿洲蒙古漢軍	-11.7696
咸淳	-11.7698
控告	-11.7701
摺内	-11.7703
之妻佟	-11.7706
百八十里	-11.7717
充裕	-11.7718
南北郊	-11.7718
搢笏盥手帨手	-11.7718
恩波	-11.7719
餘姚	-11.7721
逡	-11.7723
康熙二十二年	-11.7727
禮部太常寺	-11.7729
璁	-11.7731
頽	-11.7732
設一案	-11.7733
災異	-11.7733
陡	-11.7734
瞭	-11.7735
藩庫	-11.7735
在府東南	-11.7737
康熙六十一年	-11.7737
詣御座前	-11.7739
娑	-11.774
著該督撫	-11.7742
御榻	-11.7743
洮州	-11.7746
爾賽	-11.7746
豆籩	-11.7759
厦	-11.7764
三寸三分	-11.7764
十二年題準	-11.7766
十年三月	-11.7766
十分之一	-11.7769
赴援	-11.7771
在室者	-11.7773
捕獲	-11.7775
牝馬	-11.7776
石各有竒	-11.7776
知貢舉	-11.7782
垜	-11.7785
季春	-11.7786
釵	-11.7787
巴爾呼	-11.7788
追擊	-11.7788
瑋	-11.7789
立定奉禮曰再拜	-11.7789
萬餘石	-11.7789
騎分左右	-11.779
霍集占	-11.779
曄	-11.779
領侍衞内大臣	-11.7791
寳坻	-11.7792
菲	-11.7792
臣愚以為	-11.7792
僉都御史	-11.7794
垂幨	-11.7795
秣	-11.7795
斁	-11.7795
鉗	-11.7795
相者引主人	-11.7797
漢髙祖	-11.7803
媒氏	-11.7803
協濟	-11.7803
鎮江府	-11.7804
雜犯死罪	-11.7804
緜	-11.7805
嫓	-11.7805
挑濬	-11.7807
濟隂	-11.7808
孝惠	-11.7809
播種	-11.781
元貞元年	-11.7812
九百九十	-11.7814
徑一尺	-11.7817
八百七十	-11.7821
長八尺	-11.7824
黄鍾之律	-11.7831
揭報	-11.7834
桯	-11.7834
攝提	-11.7837
昌黎	-11.7838
丹陛樂	-11.7841
祭酒司業	-11.7848
溶	-11.7849
願陛下	-11.7849
翌日	-11.7851
賈誼	-11.7853
鹿臡	-11.7853
剡	-11.7856
熱審	-11.7857
肖	-11.7857
琯	-11.7859
擐	-11.786
阿爾泰	-11.7861
蠕蠕	-11.7862
内使監令	-11.7863
綵輿	-11.7863
蝻	-11.7863
順天鄉試	-11.7863
筯	-11.7864
歸順封	-11.7865
臨淄	-11.7867
嶼	-11.7867
姒	-11.7868
珠翠	-11.7871
乾隆二十九年	-11.7878
延燒	-11.7881
糚	-11.7883
直省督撫	-11.7886
浙江巡撫	-11.7887
密雲	-11.7889
迤北	-11.789
注銷	-11.7891
察拏	-11.7893
退出地共	-11.7893
順治十二年	-11.7897
七十以上	-11.7898
囘籍	-11.7901
鉛錫	-11.7901
饌幔内	-11.7904
瓷	-11.791
永平府	-11.7911
箸	-11.7912
拖沙喇哈番	-11.7912
扄	-11.7912
珣	-11.7914
神位之右	-11.7915
吻	-11.7916
悌	-11.7916
遼太祖	-11.7917
旻	-11.7923
招討司	-11.7924
九百三十	-11.7925
鯨	-11.7926
為二率	-11.7926
確查	-11.793
翰林院庶吉士	-11.793
重熈	-11.7933
區區	-11.7934
賑貸	-11.7935
確估	-11.7939
佟佳	-11.7943
樞宻使	-11.7944
宫闈	-11.7946
刪定	-11.7948
霤	-11.7949
八百五十	-11.7958
呼嵩	-11.7958
倉儲	-11.7959
國子監祭酒	-11.796
銀三十兩	-11.7962
奏凱	-11.7963
左右二營	-11.7971
還尊所	-11.7971
記注官	-11.7972
訾	-11.7974
脚幞頭	-11.7975
紕	-11.7977
致齋一日	-11.7979
襞積	-11.798
楫	-11.798
獺	-11.798
閹	-11.7981
詳慎	-11.7981
擬定正陪	-11.7981
兼一雲騎尉	-11.7983
孔安國	-11.7983
聖宗統和	-11.7983
薈	-11.7983
首領太監	-11.7984
文淵閣	-11.7984
險阻	-11.7986
蕉	-11.7986
侃	-11.7986
鼇	-11.7987
嬴	-11.7988
順帝至正	-11.7988
晃	-11.7988
徘徊	-11.7989
祕閣	-11.7989
吐魯畨	-11.7991
即皇帝位	-11.7991
闢展	-11.7997
十三年十一月	-11.8002
邊防	-11.8008
祝融	-11.8011
幣帛	-11.8018
受勞問者	-11.8024
瞻雲	-11.8026
鸞旗	-11.8027
大鴻臚	-11.8031
廨	-11.8036
盛京將軍	-11.8037
鞞	-11.8038
爾瑪	-11.8038
升自阼階	-11.8038
威寧	-11.8038
另户	-11.8039
杲	-11.8043
阡陌	-11.8044
魚醢	-11.8044
顏	-11.8046
譌	-11.8046
踪	-11.8046
梢	-11.8047
自東陛	-11.8047
躭	-11.8049
淋	-11.8053
十三年三月	-11.8053
汾隂	-11.8056
榔	-11.8057
蓄洩	-11.8057
僅存	-11.8058
宕	-11.8058
遲誤	-11.8059
哇	-11.8059
畱任	-11.8061
烏紗	-11.8063
蓂	-11.8064
彚題	-11.8068
訪聞	-11.8069
秘書監	-11.807
還大次	-11.8072
詔自今	-11.8079
無卷數	-11.8083
寶座	-11.8097
奉禮郎太祝	-11.8099
算學	-11.8099
呈堂	-11.81
殮	-11.8104
碑亭	-11.811
今擬國朝	-11.811
漢軍正黄旗人	-11.811
㸑	-11.8111
煑	-11.8111
縻	-11.8111
忩	-11.8111
皇太孫	-11.8112
騎尉	-11.8112
毆死	-11.8112
十六年二月	-11.8113
僊	-11.8113
芽	-11.8113
慝	-11.8114
囹圄	-11.8114
遶	-11.8115
爨	-11.8117
闥	-11.8117
懇請	-11.8118
糾叅	-11.8119
音韻	-11.812
罔極	-11.812
貢監生員	-11.8124
紅髹	-11.8124
固山額真	-11.8127
十年六月	-11.8128
敎習	-11.813
廩給	-11.8134
平陽府	-11.8139
五寸五分	-11.8145
七品以上	-11.8152
領縣十	-11.8152
長七尺	-11.8156
闐	-11.8157
寢室	-11.8159
屏風	-11.8159
滋弊	-11.816
追捕	-11.816
皇地祗	-11.8166
西向跪	-11.8166
謁者贊引各引	-11.8167
節度觀察	-11.817
糖	-11.817
賊黨	-11.8171
𦍑	-11.8174
男婦大小	-11.8176
接任官	-11.8176
詈	-11.8178
太微垣	-11.8178
蹂	-11.8178
二分五釐	-11.8178
撃賊	-11.8179
迤西	-11.8181
幸魯盛典	-11.8181
為夫之	-11.8182
鋤	-11.8182
簠實	-11.8183
把總一人兵一百	-11.8183
後唐同光	-11.8184
于坫	-11.8187
馬端臨考	-11.819
不可勝數	-11.8198
康熙四年	-11.8199
鞭八十	-11.82
歡騰	-11.8201
七百九十	-11.8201
未遑	-11.8202
撤回	-11.8205
宰桑	-11.8209
升西階	-11.8212
在府東	-11.8215
七寸五分	-11.8216
精微	-11.8221
伊拉	-11.8224
内謁者監	-11.8229
乾隆十三年欽定大駕鹵簿	-11.8231
翟衣	-11.8233
奭	-11.8234
瓠	-11.8237
三等䕶衛	-11.8238
灝	-11.8239
弓弩	-11.824
弓箭手	-11.8241
盔	-11.8241
囘鑾	-11.8242
在府南	-11.8243
婣	-11.8243
今校改	-11.8245
傅爾丹	-11.8245
佃户	-11.8246
股肱	-11.8247
能否	-11.8248
侵漁	-11.8249
考工記	-11.8249
隋煬帝	-11.8251
羽籥	-11.8256
减二等	-11.8262
唐因之	-11.8264
増損	-11.8267
太常丞	-11.8268
禮部郎中	-11.8268
黄琮	-11.8269
西陲	-11.827
哈密	-11.8271
北向東上	-11.8277
侵盜	-11.8277
集十二卷	-11.8278
永定河	-11.8279
權停	-11.828
恩㫖	-11.8281
阿思哈尼哈畨	-11.8282
肩臂臑	-11.8291
八百四十	-11.8292
月初九日	-11.8292
擾害	-11.8292
徽音	-11.8295
八百九十	-11.8298
紼	-11.8301
炕	-11.8301
杻	-11.8301
拐	-11.8302
燿	-11.8303
斐	-11.8303
漢軍鑲紅旗人	-11.8303
溝洫	-11.8305
燮	-11.8306
翼翼	-11.8306
削爵	-11.8307
羈縻	-11.8308
蹇	-11.8308
春秋仲月	-11.8311
衙署一所	-11.8312
珙	-11.8313
閟	-11.8314
伯叔父母	-11.8316
俊秀	-11.8317
廵捕	-11.8317
左副都御史	-11.8318
牽牛	-11.832
窖	-11.832
尾閭	-11.8321
銀五十兩	-11.8325
年貌	-11.8329
山西巡撫	-11.8333
賔揖	-11.8343
乾隆二十五年	-11.8347
贊跪叩興	-11.8348
翼尉	-11.8354
田禾	-11.8356
懲治	-11.8358
氏鑲黄旗漢軍馬甲	-11.8361
雍正十一年	-11.8362
控鶴	-11.8362
同皇帝大駕鹵簿	-11.8365
酌盎齊	-11.8365
紡	-11.8365
詣爵洗位	-11.8365
搏拊	-11.8366
僚佐	-11.8368
覿	-11.8368
授騎都尉	-11.8369
明安穆昆	-11.8369
頡	-11.837
石灰	-11.8372
靳輔	-11.8374
達什	-11.8374
公卿以下	-11.8375
驤	-11.8377
莱	-11.8377
十年題準	-11.8378
緘	-11.8379
吝	-11.838
碟	-11.838
虧欠	-11.8382
閏四月	-11.8385
大理卿	-11.8395
三年之喪	-11.8396
十七年四月	-11.8399
十四年四月	-11.8401
升東階	-11.8402
綠旗	-11.8403
郴州	-11.8405
選拔	-11.8419
駐防官兵	-11.8424
彫	-11.8424
勸諭	-11.8429
六錢六分六釐	-11.8431
就望瘞位	-11.8431
唐蕭嵩等撰	-11.8433
犧罇	-11.8434
搢大圭	-11.8434
撈	-11.8434
兵二百名	-11.8436
襈	-11.8436
蚤	-11.8436
丈三尺	-11.8437
諸葛亮	-11.8438
蓆	-11.8438
苻	-11.8438
捐軀	-11.8439
殞	-11.8439
百四十里	-11.8439
僖宗	-11.844
巴拉	-11.844
徂	-11.8441
罰俸一月	-11.8441
儋	-11.8441
瀦	-11.8442
字樣	-11.8447
扛	-11.8447
暄	-11.8447
以下將領八人	-11.845
前鋒侍衛	-11.8453
文徳殿	-11.8453
十二年議準	-11.8454
乾隆三十一年	-11.8456
丹墀内	-11.8458
江寕	-11.8458
長三丈	-11.846
揚雄	-11.846
應如所請	-11.8463
霍光	-11.8466
御覽	-11.8467
竭力	-11.847
陟降	-11.8478
典膳	-11.8478
竈丁	-11.848
岷州	-11.8487
左右武衛	-11.8487
儀鍠	-11.8498
福陵昭陵	-11.85
芟	-11.8501
恭候欽定	-11.8502
𠫭	-11.8502
楣	-11.8503
𦙍	-11.8504
謹案此佐領	-11.8507
遣官祗告	-11.8508
媯	-11.8509
𬗟	-11.8509
左右監門	-11.8509
頒詔天下	-11.8509
耨	-11.851
淆	-11.8512
戰殁	-11.8512
王以下各官	-11.8514
態	-11.8515
壼	-11.8515
詒	-11.8516
八旗滿洲䝉古	-11.8516
跪叩	-11.8524
歐陽修	-11.8525
乾祐	-11.8528
百餘萬	-11.8529
勤慎	-11.8544
順治七年	-11.8544
額森	-11.8549
瀚海	-11.8549
項羽	-11.8553
在府西	-11.8553
爐炭	-11.8557
反叛	-11.856
助奠	-11.8561
汎齊訖	-11.8563
之二世孫	-11.8565
欽定四庫全書大唐開元禮卷	-11.8568
喜峯口	-11.857
孔雀翎	-11.857
閽	-11.8572
帥齋郎	-11.8572
𤣥纁	-11.8572
一品二品	-11.8573
璠	-11.8576
閒㪚	-11.8576
堤工	-11.8578
咫尺	-11.8579
題㕘	-11.858
十四年五月	-11.8581
掾屬	-11.8583
兕	-11.8584
鑲黄旗漢軍	-11.8585
東萊	-11.859
湛露	-11.8593
衙前	-11.8597
率所部	-11.8598
溝渠	-11.8601
擒斬	-11.8602
暹羅國	-11.8603
名之曰	-11.8604
每等異位	-11.861
團龍	-11.8617
受朝賀	-11.8621
顔師古	-11.863
路明洪武	-11.8633
窓	-11.8635
大唐開元禮卷	-11.8635
大興宛平	-11.8638
鍚	-11.864
郷	-11.8641
删	-11.8641
氏正紅旗滿洲䕶軍	-11.8643
不分首從	-11.8643
坤寧宫	-11.8644
跌	-11.8646
雍正年間	-11.8647
沼	-11.8648
民瘼	-11.8648
麽	-11.8648
世祖至元	-11.865
千總二人把總四人兵八百	-11.8656
楠	-11.8657
為二重	-11.8658
採捕	-11.8661
滷	-11.8665
御書額曰	-11.8673
擒獲	-11.8679
二寸一分	-11.8682
揖讓	-11.8693
制置使	-11.8693
塲鹽課司	-11.8693
寳源局	-11.8699
不遑	-11.87
乾隆四十三年	-11.87
鴟	-11.8704
之應也	-11.8704
營叅將一人	-11.8704
鞠躬拜興拜興拜興拜興平身	-11.8704
斑	-11.8708
戛	-11.8709
佗	-11.8709
懌	-11.8709
觀音保	-11.871
黄廷桂	-11.8712
河南巡撫	-11.8712
婉	-11.8713
寃枉	-11.8713
秬黍	-11.8714
聖駕南巡	-11.8716
禔	-11.8719
洪澤湖	-11.8719
改今名	-11.8722
皮弁服	-11.8727
壝之外	-11.8728
鞭責	-11.873
斬縗	-11.8731
皇朝通志卷	-11.8733
霜降	-11.8743
瀚	-11.8744
中和韶樂作	-11.8746
十三年議準	-11.8756
八旗官兵	-11.8757
副㕘領	-11.8759
瘞埳	-11.8768
征金川	-11.8772
佐領内滋生人丁	-11.8773
拱衛司	-11.8774
以東為上	-11.8777
感生帝	-11.8777
阡	-11.8777
靑	-11.8778
河瀆	-11.878
㤀	-11.878
錞	-11.878
嘯	-11.8781
蒞	-11.8781
隧	-11.8781
刈	-11.8781
覬	-11.8783
莾	-11.8784
嶽瀆	-11.8786
鷹揚	-11.8787
宰牲	-11.8788
遐邇	-11.8788
十五頃	-11.879
詣望燎位	-11.8791
阿哥	-11.8792
禾稼	-11.8798
年為始	-11.88
火耗	-11.88
恩賚	-11.8806
偽将軍	-11.8809
詢問	-11.8817
順治十四年	-11.8821
請旨	-11.8832
澁	-11.8834
領州二	-11.8837
用太牢	-11.884
囘京	-11.8843
十七年二月	-11.8844
管理第四㕘領第	-11.8844
午門鳴鐘	-11.8844
遼金元	-11.8844
擬斬監候	-11.8845
裾	-11.8845
陜甘總督	-11.8848
上柱國	-11.885
週圍	-11.8854
山海關	-11.8854
瘡	-11.8854
狭	-11.8856
舫	-11.8857
褘衣	-11.8857
薙	-11.886
團練使	-11.8861
藤牌	-11.8862
萬錠	-11.8864
萬壽盛典初集卷	-11.8865
驛遞	-11.8867
黒漆	-11.8867
稽遲	-11.8871
一丈一尺	-11.8873
十觔	-11.8877
捧帛	-11.8879
守土官	-11.888
大唐因之	-11.8882
帝姬	-11.8884
佐領驍騎校各	-11.8887
諭向來	-11.8895
之妻覺羅	-11.8898
捕盗	-11.8899
仍其舊	-11.8902
太皇太后皇太后	-11.8905
枷號一個月	-11.8905
羣官客使	-11.8907
順治十一年	-11.8908
仍唐舊又	-11.891
鞘	-11.891
乾隆四十八年	-11.8911
罐	-11.8912
朝日夕月	-11.8913
光禄勲	-11.8913
煎鹽	-11.8916
木質髤	-11.8917
葆	-11.8917
踐阼	-11.8917
順治十	-11.8918
牋	-11.8918
鈍	-11.8919
糗	-11.8919
文武羣官	-11.892
損壊	-11.8924
幟	-11.8924
國子博士	-11.8924
寤	-11.8927
炊	-11.8929
百丈	-11.8937
毎斤	-11.8954
校勘	-11.8954
兄姊	-11.8957
一跪三叩	-11.8958
京留守	-11.8964
紅纓	-11.8966
秉政	-11.8969
扎庫	-11.8975
篚在洗西南肆	-11.8976
儐者入告主人	-11.8976
祀南郊	-11.8976
岔	-11.8981
十年議準	-11.8982
九百七十	-11.8982
芾	-11.8989
臾	-11.8989
戰艦	-11.8989
愽	-11.899
殽	-11.8991
孝恭仁皇后	-11.8991
湍	-11.8992
炙	-11.8993
癘	-11.8993
隋開皇	-11.8993
朔漠	-11.8997
縀疋	-11.8997
厪念	-11.8998
遘	-11.9
大理寺卿	-11.9005
秘書省	-11.901
二寸四分	-11.9016
張家口外	-11.9017
順治十七年	-11.9017
千五百里	-11.9021
員弁	-11.9022
元世祖至元	-11.9024
江西巡撫	-11.9026
老幼	-11.9026
牲幣	-11.9032
功績	-11.9033
痊	-11.9035
黔省	-11.9037
工部郎中	-11.904
中書舎人	-11.9043
瘞塪	-11.9048
一分五釐	-11.9049
棺槨	-11.9051
刀盾	-11.9053
郎中一人員外郎一人	-11.9053
滿洲鑲白旗人姓	-11.9054
齊齊哈爾	-11.9054
光祿大夫	-11.9058
武宗正徳	-11.906
禡	-11.9061
之南東西相向	-11.9062
太常卿前奏	-11.9063
必湏	-11.9064
扞	-11.9067
峭	-11.9068
秦檜	-11.9068
蜚	-11.9069
避暑山莊	-11.907
悚	-11.9071
妍	-11.9074
朱髤	-11.9075
應如所請從之	-11.9077
長一尺二寸	-11.9078
乾隆四十一年	-11.9078
刺史縣令	-11.9082
遣使入貢	-11.9085
稱萬嵗	-11.9088
誥勅	-11.9088
飾以金	-11.9091
景運門	-11.9097
十二年六月	-11.9097
甒	-11.9119
之饌升自	-11.912
日丑前五刻	-11.9122
廩犧令	-11.9123
色用石青	-11.9126
貿	-11.9128
光祿卿	-11.9129
歿於陣	-11.9129
儺	-11.913
鐶	-11.913
粘	-11.913
諜	-11.9131
縊	-11.9132
額亦都	-11.9132
繢	-11.9133
儻	-11.9133
駑	-11.9134
錡	-11.9134
扺	-11.9135
内贊奏	-11.9136
弹	-11.9137
康熙年間	-11.9137
謁祖陵	-11.9137
經筵講官	-11.9139
老鹽倉	-11.9139
孥	-11.9139
故以其伯	-11.9141
雨暘	-11.9142
尚書左丞	-11.9144
優渥	-11.9145
靺鞨	-11.9148
巴朗	-11.9151
陋習	-11.9151
外姻	-11.9155
在其東	-11.9157
置于案	-11.9158
接壤	-11.9159
委署驍騎校	-11.9163
覈銷	-11.9175
一統志	-11.9183
等進士及第出身有差	-11.9187
白紗中單	-11.9189
頰	-11.9192
粢	-11.9194
曹參軍	-11.9195
介公酅公	-11.9196
稻粱	-11.9196
扑	-11.9196
十一年五月	-11.9197
名右營都司一人	-11.9197
加一等罪止杖一百	-11.9199
冇	-11.9201
淶	-11.9201
俱就門外位	-11.9201
在府東北	-11.9204
在府西北	-11.9206
顔料	-11.9208
濼	-11.9209
仆	-11.9209
巴雅爾	-11.9209
進士出身	-11.921
黠	-11.9211
瀼	-11.9213
詳見刑	-11.9216
腹裏	-11.9217
峴	-11.9217
任䕶軍校	-11.9218
墾荒	-11.9218
十一年三月	-11.9218
工鼓柷	-11.9219
氏鑲黄旗漢軍	-11.9221
杖六十徒一年	-11.9221
太僕寺卿	-11.9222
宣慰使	-11.9223
殘缺	-11.9224
司天監	-11.9225
恪遵	-11.9226
拆造	-11.9227
病痊	-11.9228
鞠衣	-11.923
謳歌	-11.9234
奎章	-11.9243
西華門	-11.9246
乾隆五十五年	-11.9248
餘剰	-11.925
十九年正月	-11.9254
加役流	-11.9257
遴	-11.9257
合原設兵共	-11.9265
斟	-11.9265
籐	-11.9267
詣飲福位	-11.9271
奉宸苑	-11.9272
行終獻禮	-11.9274
鏁	-11.9274
烏梁海	-11.9275
耘	-11.9275
紫光閣	-11.9275
正旦冬至	-11.9276
逆藩吳三桂	-11.9276
山林川澤	-11.9276
㨂	-11.9277
蹤	-11.9278
腴	-11.9279
疵	-11.9279
聆	-11.928
煩擾	-11.928
厠	-11.928
賍	-11.9281
責四十板	-11.9282
戎狄	-11.9284
締	-11.9284
浩繁	-11.9286
航海	-11.9291
収貯	-11.9293
関	-11.9293
倒失	-11.9294
娘	-11.93
持盈	-11.9303
鄉飲酒禮	-11.9303
在其西	-11.9303
鳥槍驍騎	-11.9308
松江府	-11.9309
弩手	-11.931
鼔柷	-11.933
棊	-11.9331
畜牧	-11.9331
減等發落	-11.9335
越嶲	-11.9339
次之第三行	-11.9342
卺	-11.9343
鬛	-11.9343
瞻徇	-11.9344
逆藩耿精忠	-11.9346
㽔	-11.9346
先聖先師	-11.935
鏐	-11.935
璽綬	-11.9351
俳	-11.9351
挟	-11.9352
掣籖	-11.9352
籬	-11.9352
咽	-11.9352
天皇大帝	-11.9352
甃	-11.9353
内大臣侍衞	-11.9356
技勇	-11.9358
假借	-11.9361
合祭天地	-11.9363
一尺七寸	-11.937
如之何	-11.9373
鍾離	-11.9378
跪三叩興	-11.9381
大成殿	-11.9381
王府長史	-11.9383
崇徳三年	-11.9406
著傳諭	-11.9411
入門而左	-11.9412
韠	-11.9413
塪	-11.9413
具奏請㫖	-11.9414
敗走	-11.9416
鳶	-11.9418
㕓	-11.9419
笋	-11.942
楮幣	-11.9422
孝敬憲皇后	-11.9422
遄	-11.9423
𬗟甸	-11.9423
閩浙總督	-11.9423
天安門	-11.9423
桶	-11.9423
奏外辦	-11.9424
順天府尹	-11.9425
濰	-11.9425
凋	-11.9425
劓	-11.9426
枉法贓	-11.9426
阿濟格	-11.9427
祓	-11.9428
眚	-11.9429
壎	-11.9429
皇子福晉	-11.943
曙	-11.9431
諄諄	-11.9432
纘承	-11.9435
消息	-11.9436
硃漆	-11.9437
水晶	-11.9437
御馬監	-11.9442
百六十里	-11.9444
膏澤	-11.9445
甘結	-11.9453
不中者	-11.9463
郴	-11.9466
緝獲	-11.9468
苧布	-11.9481
淘	-11.9485
在東西向北上	-11.9487
牲醴	-11.9488
執樽者	-11.9488
娶妻	-11.9488
奏跪拜興	-11.9489
牛彔	-11.949
枵	-11.949
降三級	-11.9493
順治初	-11.9494
炯	-11.9494
卒子降襲	-11.9495
鳴螺	-11.9495
村莊	-11.9497
洒	-11.9497
三等鎮國將軍	-11.9498
宣慰使司	-11.9499
絀	-11.9501
革職提問	-11.9501
雎	-11.9502
迤東	-11.9504
絡帶	-11.9505
韃靼	-11.9505
内壝之内	-11.9505
讌	-11.9506
丈七尺	-11.9508
螟	-11.9508
桅	-11.9516
唐開元禮	-11.9516
起居舍人	-11.9517
􁇢	-11.9517
明太祖陵	-11.9518
蓄積	-11.952
十三年五月	-11.9532
首絰	-11.9537
一寸八分	-11.954
十二年覆準	-11.9551
千總一人把總三人兵	-11.9563
醓醢	-11.9564
穡	-11.9564
舒穆禄	-11.9565
醯	-11.9565
警蹕如常儀	-11.9565
奐	-11.9566
韭	-11.9566
坍塌	-11.9566
僮	-11.9567
嚢	-11.9567
㮣	-11.9568
頭等侍衛	-11.9571
鯉	-11.9571
委署䕶軍校	-11.9572
憾	-11.9575
者罪亦如之	-11.9576
泝	-11.9576
髙宗紹興	-11.9577
啼	-11.9577
鍰	-11.9577
宋王溥撰	-11.9577
攄	-11.9578
大臣命婦	-11.9578
公侯伯子男	-11.958
惓	-11.958
佩綬	-11.9583
陁	-11.9585
博囉	-11.9585
七言律一首	-11.9586
起西至	-11.9589
鏄	-11.9592
濶一寸	-11.9596
十四年二月	-11.9597
穆哩	-11.9597
康熙三十八年	-11.9604
彗星見	-11.9607
杏壇	-11.9607
倉廩	-11.9608
月初五日	-11.9609
北向立樂止	-11.9614
唱鞠躬拜興拜興平身	-11.9619
順治六年	-11.962
騸馬	-11.9622
在位者皆	-11.9623
管理第五㕘領第	-11.9633
神座前北向跪奠爵	-11.9636
整儀尉	-11.9637
氏正黄旗漢軍馬甲	-11.9637
陔	-11.9637
堡把總一人	-11.9639
失於覺察	-11.9641
緝捕	-11.9641
降四級調用	-11.9641
齍	-11.9641
鍼	-11.9643
毘	-11.9644
端罩	-11.9645
煉	-11.9646
公主福晉命婦	-11.9646
致齋二日	-11.9647
䄂	-11.9647
别經發覺	-11.9647
霓	-11.9649
鑪一鐙二	-11.9649
車騎將軍	-11.9649
嫩	-11.9649
衍聖公孔毓圻	-11.965
翩	-11.965
馥	-11.9652
遹	-11.9653
佇	-11.9654
沸	-11.9655
帆	-11.9656
規矩	-11.9656
覯	-11.9658
畏懼	-11.9662
六寸五分	-11.9662
沙漠	-11.9663
某年月日	-11.9664
一寸九分	-11.9666
箕疇	-11.9666
十一年七月	-11.9666
牽連	-11.9671
康衢	-11.9678
繕摺	-11.9681
月二十五日	-11.9697
本朝定制	-11.9704
至順元年	-11.9705
俛伏興太常卿引皇帝少退	-11.9707
騮	-11.9711
漢舊儀	-11.9714
彖	-11.9717
内壝東門之外	-11.9718
仞	-11.972
郃	-11.972
笠	-11.972
故以其族	-11.9721
風雲雷雨	-11.9721
度量衡	-11.9721
畸	-11.9721
翰詹	-11.9722
金水橋	-11.9724
黝	-11.9725
前鋒統領䕶軍統領	-11.9725
佶	-11.9725
珩	-11.9726
輻輳	-11.9726
滔	-11.9726
諳練	-11.9727
具服殿	-11.9727
罸	-11.9727
回原籍	-11.9729
帉錔	-11.9729
霏	-11.973
苫	-11.9731
鏤花	-11.9736
九寸五分	-11.9736
分别治罪	-11.9737
具官臣某	-11.9738
八品九品	-11.974
噶喇	-11.974
收穫	-11.9743
楮錢	-11.9744
少昊	-11.9744
星在黄道南	-11.9771
司賓引	-11.9781
裲襠	-11.9782
雲霞	-11.9783
塚	-11.9788
縁事革退以其弟	-11.9789
辟廱	-11.9791
鼓吹振作	-11.9792
十一年六月	-11.9793
沔陽	-11.9795
墨爾根	-11.9795
觚	-11.9795
某月某日	-11.9796
名口較増	-11.9796
穏	-11.9797
穿鑿	-11.9797
佯	-11.98
鹹	-11.98
豪傑	-11.9802
滿洲鑲藍旗人	-11.9802
回鶻	-11.9803
瞞	-11.9803
交椅	-11.9804
糺	-11.9804
成宗大徳	-11.9805
棹	-11.9805
宸衷	-11.9806
燃	-11.9806
白鍾山	-11.9806
嫻熟	-11.9807
攙和	-11.9809
緑旗營	-11.981
江蘇巡撫	-11.9811
鑾輅	-11.9812
悠久	-11.9816
校刋	-11.9817
拜手稽首	-11.9818
容隱	-11.9824
例分别議處	-11.9826
遴委	-11.9828
月二十三日	-11.9833
米一升	-11.9838
簠簋各二	-11.984
訓飭	-11.9843
午陛	-11.9846
炫	-11.9864
祝持版	-11.9865
謹以制幣	-11.9868
蓐	-11.9872
坂	-11.9875
糠	-11.9875
葫蘆	-11.9875
烜	-11.9875
澇	-11.9876
鉅野	-11.9877
酣	-11.9877
詛	-11.9878
㽞	-11.9878
貝勒夫人	-11.9879
翥	-11.9883
望月食在	-11.9883
滹	-11.9884
泳	-11.9885
勤惰	-11.9885
紹熈	-11.9888
尼瑪	-11.9888
胞	-11.9889
該督撫提鎮	-11.989
標中營	-11.9895
睿鑒	-11.9896
一錢二分	-11.9898
孳牧	-11.99
優恤	-11.9904
郞	-11.991
演放	-11.9912
饑寒	-11.9913
皿	-11.9914
樂止典儀唱	-11.992
侵擾	-11.9921
曰再拜在位者皆再拜	-11.9939
糝	-11.9943
星占曰	-11.9943
尚饗訖興	-11.9945
欽定大清㑹典卷	-11.9945
置於坫	-11.9946
腯	-11.9948
普洱	-11.9948
人員外郎滿洲	-11.9949
別	-11.9949
搥	-11.9949
賈逵	-11.9949
由中門入	-11.9951
招徠	-11.9952
孝莊文皇后	-11.9952
入就位立定	-11.9952
行亞獻禮	-11.9953
董其昌	-11.9954
傲	-11.9955
輾轉	-11.9957
僰	-11.9957
呼韓邪	-11.9957
縀二疋	-11.9959
毖	-11.9959
㽔賔	-11.9959
皇妣	-11.9959
㦯	-11.9959
儔	-11.9959
凶荒	-11.9967
皇朝文獻通考卷	-11.9968
熈寜	-11.9969
展謁	-11.9974
鳩工	-11.9974
十七年五月	-11.9976
俛伏跪奏	-11.9978
綵坊	-11.9986
銀褐	-11.9986
有司攝事	-11.9995
壽域	-11.9996
十七年六月	-12
司農卿	-12.0001
萬禩	-12.0003
萬億	-12.0007
氏鑲黄旗蒙古	-12.0016
氏鑲白旗漢軍馬甲	-12.002
瓖	-12.0022
提控案牘	-12.0023
實以盎齊	-12.0026
淦	-12.0027
都司守備	-12.0028
禮神之玉	-12.0029
塑	-12.0029
勻	-12.003
耻	-12.0031
謁者引告官	-12.0031
熬	-12.0031
苻堅	-12.0033
臼	-12.0033
槅	-12.0033
苗疆	-12.0034
酸	-12.0035
璫	-12.0036
些	-12.0037
刼掠	-12.0038
五卷陳氏曰	-12.0039
犯左執法	-12.0042
西北隅	-12.0044
隆恩門	-12.0048
凡二派一出	-12.0052
康熙三十四年	-12.0054
旱蝗	-12.0055
十六年三月	-12.007
覃恩	-12.007
十五年五月	-12.0078
皇弟皇子	-12.0083
乾隆三十七年	-12.0087
箔	-12.009
侍中版奏外辦皇帝	-12.0098
啐酒	-12.0103
次之第二行	-12.0104
遑	-12.0105
朢	-12.0105
西漢㑹要卷	-12.0106
就門外位	-12.0106
絜	-12.0108
豊	-12.0111
十三年九月	-12.0111
阿里衮	-12.0111
毯	-12.0112
稲	-12.0112
某人本生	-12.0114
曇	-12.0114
猜	-12.0114
閶	-12.0115
籟	-12.0117
烏撒	-12.0118
蚩尤	-12.0118
戧	-12.0118
摇	-12.0119
金塗銀	-12.012
土百戸曰	-12.0123
傷稼	-12.0128
勿替	-12.0128
淑妃	-12.0129
遣使來貢	-12.0132
黜革	-12.0133
征朝鮮	-12.0136
月十九日	-12.014
前祀一日	-12.0142
皇后儀駕	-12.0153
徇隠	-12.0158
熲	-12.0167
禮神制帛	-12.018
肴	-12.0181
奉禮曰衆官再拜衆官在位者皆再拜	-12.0181
恭加上	-12.0183
鄢	-12.0183
斵	-12.0186
配神作主	-12.0186
籤	-12.0187
仄	-12.0187
鑾駕出宫	-12.0188
之妻烏扎拉氏	-12.0188
邃	-12.0189
前代帝王	-12.0189
笴	-12.0191
繅藉	-12.0193
臯陶	-12.0193
十六年四月	-12.0194
廓爾喀	-12.0195
徠	-12.0195
誑	-12.0195
標中左右三營	-12.0195
衝決	-12.0199
蘿	-12.02
朝日壇	-12.0203
十九年三月	-12.0204
之妻納喇氏	-12.0215
十九年四月	-12.0244
該管大臣	-12.0253
禮儀使奏請執大圭	-12.0258
戞敔樂止	-12.0259
十三年六月	-12.0261
缶	-12.0264
簠二簋二	-12.0264
言古一首行書	-12.0265
列女傳	-12.0267
盌	-12.0267
卻	-12.0268
畯	-12.0269
薩克達	-12.0271
稗	-12.0271
䍐	-12.0271
茵	-12.0271
挐	-12.0272
勾芒	-12.0273
剝	-12.0273
屛	-12.0274
帝嚳	-12.0277
滸	-12.0277
藎	-12.0278
百萬緡	-12.028
徒罪以上	-12.028
龍驤	-12.0281
排簫	-12.0284
諭之曰	-12.0284
老㓜	-12.0285
揄	-12.0286
荆山橋	-12.029
三寸九分	-12.0305
年薨無子國除	-12.0319
征噶爾丹	-12.0326
肫胳	-12.0331
䃭	-12.0333
額森特	-12.0337
十三年覆準	-12.0338
晶	-12.0343
氏正藍旗漢軍馬甲	-12.0345
已齋而闕者通攝行事	-12.0345
橘	-12.0345
酹	-12.0345
後扈大臣	-12.0346
簿尉	-12.0346
欽定大清會典則例卷	-12.0347
厘	-12.0347
哲宗元祐	-12.0347
匭	-12.0347
四出陛	-12.0348
槨	-12.0348
衽	-12.0349
入監讀書	-12.035
腰絰	-12.035
諺	-12.0352
冢宰	-12.0353
苑馬寺	-12.0354
有成效	-12.0354
歴代帝王廟	-12.0355
費英東	-12.0355
旱澇	-12.0355
賮	-12.0355
堵築	-12.0355
方觀承	-12.0355
筦	-12.0356
乾隆五十年	-12.0362
太學博士	-12.0363
中軍都司一人	-12.0367
式廓	-12.0374
緝熙	-12.0375
公主下嫁	-12.0401
康熙三十五年	-12.0402
征逆藩呉三桂	-12.0403
薌	-12.0424
躁	-12.0424
祊	-12.0425
平之章辭曰	-12.0427
朕心深為	-12.0427
篳篥	-12.0429
部曲奴婢	-12.0429
二漢屬	-12.043
俶	-12.043
和碩額駙	-12.0431
陋規	-12.0432
甆	-12.0434
閠	-12.0434
鑽	-12.0435
彯	-12.0436
撙	-12.0436
紬絹	-12.0437
董卓	-12.0438
祲	-12.0438
勲戚	-12.0439
秘閣	-12.0439
甘霖	-12.0441
喂養	-12.0441
鴉	-12.0442
遁走	-12.0443
犯右執法	-12.0444
奏中嚴	-12.0445
䇿凌	-12.0446
淤墊	-12.0446
翰墨	-12.0447
考試繙譯	-12.0447
耗羡	-12.0463
銀百兩	-12.0465
絁生色	-12.0478
未襲卒	-12.0478
管軍臣僚	-12.0503
駕將至	-12.0503
綏逺城	-12.0503
儐者出告	-12.0503
鼙	-12.0504
管佐領時分編一佐領以	-12.0505
舒和之樂	-12.0508
督撫提鎭	-12.051
經歴知事	-12.0511
怠惰	-12.0512
脣	-12.0512
蘆溝橋	-12.0513
嚴行禁止	-12.0514
恩騎尉	-12.0516
鬰	-12.0516
叱	-12.0517
防禦八人	-12.0518
抗拒	-12.0518
麓川	-12.052
昇平人瑞	-12.0522
都察院右副都御史	-12.0523
強盜	-12.0525
整頓	-12.0528
赦宥	-12.0528
燎鑪	-12.0532
該旗都統	-12.0546
鄉飲酒	-12.0578
賢良方正	-12.0578
二尺六寸	-12.058
崇徳七年	-12.058
詳議具奏	-12.0581
卧𤓰	-12.0583
千總一人把總二人兵三百	-12.0583
管理第二㕘領	-12.0584
協律郎跪俛伏舉麾	-12.0585
興謁者引太尉少退	-12.0587
視滌濯	-12.059
袂	-12.059
曝	-12.0591
隋平陳	-12.0591
坐糧㕔	-12.0593
茶馬司	-12.0594
漷	-12.0595
据	-12.0595
墅	-12.0596
滿洲鑲藍旗人姓	-12.0596
糞	-12.0596
左春坊	-12.0597
遵㫖議定	-12.0597
壌	-12.0598
緗	-12.0598
木槽盆	-12.0598
毆打	-12.0599
侂胄	-12.06
步軍尉	-12.06
三等輕車都尉世職	-12.06
燥	-12.0602
檀弓	-12.0602
曹掾	-12.0604
櫺星門	-12.0604
淞	-12.0605
行四拜禮	-12.0605
昺	-12.0605
許敬宗	-12.0606
垠	-12.0606
避暑	-12.061
助敎	-12.0611
政和五禮新儀卷	-12.0611
沿邉	-12.0615
十五年四月	-12.062
女在室	-12.0628
順治十三年	-12.0654
豹尾槍	-12.0659
緇布冠	-12.0661
知客省事以下	-12.0663
横街之南	-12.067
文東武西	-12.067
千總二人把總三人兵	-12.067
宗正寺	-12.0671
芙蓉	-12.0674
亾	-12.0675
惲	-12.0675
知情故縱	-12.0676
廠	-12.0676
阻滯	-12.0677
駞	-12.0678
律吕正義後編	-12.0679
籽種	-12.068
慈寧門	-12.0681
顗	-12.0681
扈蹕	-12.0681
笥	-12.0682
蝦	-12.0682
湊	-12.0683
曵	-12.0683
秔	-12.0683
浮屠	-12.0684
神州地祇	-12.0684
韵	-12.0685
膊	-12.0689
呼爾哈	-12.0692
髙禖	-12.0693
軺車	-12.0694
婆羅門	-12.0694
二寸九分	-12.0694
互見徒	-12.0695
罪削爵	-12.0706
姓名敢昭告	-12.0706
六品七品	-12.0717
勤學好問	-12.0732
拜興拜興平身	-12.0741
賛唱者	-12.0741
開元神武皇帝	-12.0753
理事同知	-12.0754
藺	-12.0754
焯	-12.0756
香碟	-12.0757
氏正紅旗漢軍馬甲	-12.0757
娥	-12.0758
荼	-12.0759
鍮	-12.076
鋐	-12.076
缸	-12.076
謹身殿	-12.0761
輈	-12.0761
槀	-12.0762
洪承疇	-12.0762
左右領軍衛	-12.0766
延熹	-12.0766
玳瑁	-12.0766
泠	-12.0767
琚	-12.0767
堠	-12.0768
淮瀆	-12.0769
欽定四庫全書欽定南巡盛典卷	-12.0769
騑	-12.0769
茀	-12.0769
拈	-12.077
低桌	-12.077
慄	-12.077
栖	-12.0771
即行正法	-12.0773
値	-12.0776
駱馬湖	-12.0779
十二年五月	-12.0783
漢軍正藍旗人	-12.0793
一曲四言	-12.0795
千總二人把總四人兵六百	-12.0799
帑項	-12.0801
十一年覆準	-12.0824
十七年三月	-12.0824
康熙二十四年	-12.0836
協副将	-12.0839
逹嚕噶齊	-12.0839
三月廷試	-12.084
罍洗篚羃	-12.084
闗内侯	-12.0841
烏鞾	-12.0842
牡丹	-12.0843
椁	-12.0844
揚古利	-12.0845
藐	-12.0846
圯	-12.0847
逗遛	-12.0847
翁牛特	-12.0848
景帝景泰	-12.0848
提鑪	-12.0848
豢	-12.085
勅㫖依奏	-12.085
𤾉	-12.085
序畧曰	-12.085
眺	-12.0851
京房易傳曰	-12.0851
韓世忠	-12.0852
絢	-12.0852
諭大學士等曰	-12.0852
觱篥	-12.0853
淚	-12.0853
今年田租	-12.0856
被災税糧	-12.0858
革職留任	-12.0866
十四年三月	-12.0871
首俱行書	-12.0878
四尺五寸	-12.0887
呼萬嵗	-12.0898
圭璧	-12.0911
敢昭告于	-12.0911
佽飛	-12.0919
籩豆各十	-12.0923
凡樂皆	-12.0925
券	-12.0925
婺源	-12.0926
侍中版奏請中嚴	-12.0926
襠	-12.0926
侗	-12.0926
黯	-12.0927
曰敢請事	-12.0927
太府卿	-12.0928
獻將畢	-12.093
孟康曰	-12.093
寥	-12.0931
滿洲正藍旗人	-12.0932
庀	-12.0933
知樞宻院事	-12.0934
五世同堂	-12.0934
青黄不接	-12.0935
知道了	-12.0935
國初來歸	-12.0935
閙	-12.0936
矍	-12.0937
孶	-12.0937
隆恩殿	-12.0938
禖	-12.0938
巔	-12.0939
瘁	-12.0939
廻避	-12.0942
吁	-12.0942
逋欠	-12.0944
八旗滿洲䝉古漢軍	-12.0944
委署筆帖式	-12.0945
誄	-12.0946
筴	-12.0948
嵇璜	-12.0949
娣	-12.095
就位哭	-12.0962
毎畝科銀	-12.0963
月二十六日	-12.0973
中後所	-12.0979
百餘丈	-12.1001
十五斤	-12.1004
常參官	-12.1016
坻	-12.1017
拜他喇布勒哈番	-12.1018
印務章京	-12.1018
𬎼	-12.1019
娼	-12.1019
昕	-12.102
四分五釐	-12.102
世襲罔替	-12.1021
相和之分	-12.1021
蠢	-12.1022
倉庫錢糧	-12.1024
彘	-12.1024
恭呈御覽	-12.1024
耔	-12.1025
翬	-12.1025
祏室	-12.1025
抉	-12.1027
通行曉諭	-12.1027
肄習	-12.1027
羯	-12.1028
篷	-12.103
胡椒	-12.1031
文武官弁	-12.1031
屹	-12.1034
徒跣	-12.1036
殺傷人者	-12.1036
庠序	-12.1039
攅竹	-12.104
乾隆二十八年	-12.1046
康熙二十九年	-12.1064
弟姪	-12.1067
五尺五寸	-12.1078
西階之西	-12.1088
典謁引	-12.1089
龍頭竿	-12.109
折上巾	-12.1094
月二十四日	-12.1095
昭忠祠	-12.1096
褾襈裾	-12.1097
拖沙喇哈畨	-12.1098
大學士諡文	-12.1101
一寸六分	-12.1103
九卿詹事科道	-12.1104
執事者以爵授	-12.1107
豬	-12.1107
梭	-12.1109
問刑衙門	-12.1109
棲霞	-12.111
鴻臚卿	-12.1111
早稻	-12.1111
謁者引獻官	-12.1111
硬	-12.1112
謂侍臣曰	-12.1113
輿地考	-12.1113
娛	-12.1115
彥	-12.1115
康熙二十五年	-12.1115
涵濡	-12.1117
喁	-12.1119
謠	-12.1119
二尺三寸	-12.1123
驛七十里	-12.1126
篐	-12.1152
佐領係康熙	-12.1166
皇祖聖祖仁皇帝	-12.1174
盥饋	-12.1176
奉禮郎太祝太官令	-12.1179
枷號兩個月	-12.1183
未明二刻	-12.1184
粳	-12.1188
圓版四	-12.1188
褁	-12.1189
崇聖祠	-12.1189
仍照定例	-12.119
烏魯木齊	-12.119
暹	-12.1192
渤	-12.1192
發近邊充軍	-12.1192
駕四馬	-12.1192
土謝圖汗	-12.1194
皎	-12.1194
柰	-12.1195
實力奉行	-12.1195
喫	-12.1196
輔國将軍	-12.1196
酹酒	-12.1196
協辦大學士	-12.1196
眠	-12.1196
琥	-12.1196
戱	-12.1199
左右驍衛	-12.12
盈縮	-12.1203
櫓	-12.1206
闓	-12.1207
昬	-12.1216
雇募	-12.1217
八旬萬夀盛典卷	-12.1224
之妻黄佳	-12.1226
廒	-12.1262
部院衙門	-12.1263
司𨽻校尉	-12.1272
隨地之宜	-12.1272
寶源局	-12.1273
坑冶	-12.1276
正項錢糧	-12.1278
柴炭	-12.128
簾捲	-12.128
漳浦	-12.1281
犖	-12.1281
郕	-12.1282
上林苑	-12.1284
肌	-12.1284
湜	-12.1285
洱	-12.1286
杳	-12.1286
曳	-12.1287
憇	-12.1287
壠	-12.1287
衘	-12.1288
十五匹	-12.1288
旰	-12.1288
於柩東	-12.1288
褒貶	-12.1289
夀皇殿	-12.129
房二間	-12.129
蓼	-12.1291
矞	-12.1292
訓誨	-12.1292
挑挖	-12.1293
荒歉	-12.1293
縣夀民	-12.1295
議具奏尋議	-12.1298
每畝科銀	-12.1306
十八年三月	-12.1308
溧陽	-12.131
明㑹典卷一百	-12.1322
乾隆四十四年	-12.1331
金鍍銀	-12.136
加級紀録	-12.1361
佐領内餘丁	-12.1365
桷	-12.1365
紀録二次	-12.1365
澮	-12.1367
管理第三㕘領	-12.1368
航	-12.1368
陪祠文武官	-12.1369
希爾根	-12.1369
通事舍人分引	-12.1369
鬢	-12.137
滿洲正紅旗人姓	-12.1371
璞	-12.1372
涌	-12.1373
軋	-12.1373
㕘贊大臣	-12.1373
五軍都督府	-12.1374
睹	-12.1374
蘇尼特	-12.1377
溟	-12.138
𤨏	-12.1381
憲宗元和	-12.1382
澨	-12.1385
㕑	-12.1386
十萬貫	-12.1414
丈九尺	-12.1421
東階下西面	-12.1429
騎駕鹵簿	-12.1438
鹵簿大駕	-12.1438
瑱	-12.1453
俛	-12.1454
領縣八	-12.1456
臣某言請	-12.1457
騂	-12.1459
翰林院撰擬	-12.1459
耜	-12.1459
溱	-12.146
指名題叅	-12.1461
霞帔	-12.1461
鐲	-12.1461
漏泄	-12.1461
醍齊	-12.1461
沆	-12.1462
布按二司	-12.1463
詵	-12.1464
槌	-12.1464
褫	-12.1466
涿鹿	-12.1466
列聖相承	-12.1467
茭	-12.1467
不時稽察	-12.1467
璨	-12.1467
蔭	-12.1467
低窪	-12.1468
絡繹	-12.1469
浥	-12.1469
覊縻	-12.1471
輝煌	-12.1475
磯	-12.1476
朋友	-12.1478
正月上辛	-12.1518
欽定四庫全書欽定八旗通志	-12.152
氏鑲白旗蒙古	-12.1541
各一首俱行書	-12.1543
俛伏興還侍位	-12.1543
以南為上	-12.1545
元史輿服志	-12.1545
執鴈者	-12.1546
納采問名	-12.1547
乗黄令	-12.1548
鷩冕	-12.1549
它	-12.1549
鬱鬯	-12.155
混淆	-12.1551
宋徐天麟撰	-12.1551
塢	-12.1551
奠帛初獻	-12.1551
圮	-12.1553
祏	-12.1554
敉	-12.1556
澎	-12.156
穉	-12.1562
薑	-12.1642
泯	-12.1643
覊	-12.1644
隲	-12.1645
婪	-12.1645
輳	-12.1648
榦	-12.1649
匐	-12.1649
椘	-12.1652
禩	-12.169
擩	-12.172
胯	-12.1724
拽	-12.1727
綉	-12.1729
竑	-12.1732
萍	-12.1732
驩	-12.1737
驃	-12.1739
雛	-12.1741
矮	-12.1742
楪	-12.1746
囷	-12.1747
蕚	-12.1747
孜	-12.175
耉	-12.175
笲	-12.1823
䄍	-12.1824
桴	-12.1826
隗	-12.1827
旐	-12.1829
炷	-12.1831
妤	-12.1833
嚳	-12.1833
羆	-12.1833
肫	-12.1834
㝎	-12.1836
劬	-12.1836
曁	-12.1837
恍	-12.1837
爕	-12.1839
唘	-12.1843
鏗	-12.1845
讚	-12.1911
冺	-12.1923
崆	-12.1933
饔	-12.1934
懾	-12.1937
綳	-12.2013
糯	-12.2015
鞵	-12.2015
餬	-12.2017
煇	-12.2018
岫	-12.2019
㪷	-12.2019
愬	-12.2022
佺	-12.2025
餞	-12.2026
芃	-12.2027
吸	-12.2028
蘩	-12.2029
儐	-12.2054
􁑶	-12.2072
鞓	-12.2107
琇	-12.2107
黏	-12.2109
軷	-12.211
撿	-12.2114
汊	-12.2115
髹	-12.2116
呢	-12.2118
阼	-12.2119
唾	-12.2119
噫	-12.212
稳	-12.2122
幬	-12.2122
飫	-12.2125
菊	-12.2126
黌	-12.2126
絇	-12.2207
熏	-12.2208
郿	-12.2212
悝	-12.2213
貔	-12.2213
縿	-12.2217
賅	-12.2217
髽	-12.2218
繄	-12.2221
曈	-12.2225
箆	-12.23
酏	-12.2303
猫	-12.2304
卬	-12.2305
甦	-12.2309
箐	-12.231
迯	-12.2312
喙	-12.2313
橐	-12.2313
軿	-12.2313
篾	-12.2316
玷	-12.2317
阨	-12.232
你	-12.2387
榴	-12.2401
澍	-12.2407
翺	-12.2408
訢	-12.2409
綫	-12.241
杪	-12.2415
秬	-12.2418
湼	-12.2418
廽	-12.2419
鎰	-12.2499
掦	-12.2503
昩	-12.2507
壖	-12.2508
滏	-12.251
杼	-12.2511
禴	-12.2514
𤯝	-12.2514
箠	-12.2514
忙	-12.2515
倐	-12.2516
垢	-12.2516
厎	-12.2521
渦	-12.2522
瓞	-12.2523
儂	-12.2536
澠	-12.2606
愔	-12.2607
楸	-12.2608
梳	-12.2608
牷	-12.2609
扳	-12.2609
茗	-12.2612
咱	-12.2614
虬	-12.2616
硫	-12.262
騏	-12.2623
㽅	-12.27
屇	-12.271
窆	-12.2714
呌	-12.2714
貊	-12.2715
泚	-12.2717
僦	-12.2717
縟	-12.2717
汕	-12.2717
帟	-12.2718
霉	-12.2721
酥	-12.2806
琨	-12.281
麪	-12.281
仵	-12.2812
逭	-12.2812
軀	-12.2816
﨑	-12.2816
藕	-12.2818
踴	-12.2819
滲	-12.282
狃	-12.2823
怛	-12.283
譖	-12.2915
鋸	-12.2917
朦	-12.2919
茸	-12.2921
愴	-12.2922
瀑	-12.2923
戡	-12.2923
噬	-12.2931
罩	-12.2932
鬴	-12.3011
鈚	-12.3013
臥	-12.3017
榷	-12.302
扱	-12.3022
魅	-12.3026
佈	-12.3027
渴	-12.3031
謾	-12.3032
峨	-12.3033
媛	-12.3036
磺	-12.3037
褶	-12.3048
胖	-12.3116
椶	-12.3123
酇	-12.3125
珽	-12.3128
鋼	-12.3129
䟎	-12.313
炮	-12.3131
筏	-12.3131
甿	-12.3134
窻	-12.3134
菑	-12.3136
娱	-12.3136
頺	-12.3136
諍	-12.3137
葩	-12.3137
諂	-12.3137
髓	-12.3138
渰	-12.3139
媿	-12.3139
殍	-12.314
噴	-12.3141
遡	-12.3144
秃	-12.3232
臕	-12.3235
􁁊	-12.3235
扃	-12.3237
貉	-12.3239
爟	-12.3239
酪	-12.324
畎	-12.324
惬	-12.3242
搗	-12.3243
諦	-12.3246
磴	-12.3246
趋	-12.3247
盱	-12.3248
埭	-12.3249
巹	-12.3344
諶	-12.3345
晳	-12.3346
侣	-12.3347
麒	-12.3349
㮚	-12.3349
羹	-12.335
憎	-12.3351
貍	-12.3351
璈	-12.3353
曬	-12.336
槫	-12.3427
竺	-12.3446
嫗	-12.3447
饟	-12.3451
掯	-12.3452
彧	-12.3454
堉	-12.3456
撝	-12.3459
睠	-12.3459
糈	-12.346
閥	-12.3461
阪	-12.3462
掞	-12.3463
捶	-12.3464
鍜	-12.3465
竦	-12.3465
愾	-12.3465
堞	-12.3466
鉆	-12.3466
澂	-12.3475
毳	-12.3558
䕩	-12.3559
烙	-12.3562
秫	-12.3563
伋	-12.3564
嵇	-12.3565
宄	-12.3566
閾	-12.3567
枋	-12.3569
伉	-12.357
濘	-12.357
唇	-12.3575
斾	-12.3575
􁢌	-12.3576
窵	-12.3577
㟁	-12.3577
懶	-12.3578
湫	-12.3585
濉	-12.3598
啻	-12.3604
昑	-12.366
猴	-12.3672
腋	-12.3673
崗	-12.3674
盍	-12.3678
磽	-12.3678
啖	-12.368
襃	-12.3681
裡	-12.3683
獞	-12.3683
翫	-12.3683
錐	-12.3684
頊	-12.3684
猖	-12.3686
胷	-12.3686
蕙	-12.3686
塍	-12.3687
孩	-12.3687
昀	-12.3688
罘	-12.3688
䆳	-12.3692
孑	-12.37
厩	-12.3713
伃	-12.3714
糟	-12.3786
賵	-12.3787
醤	-12.3788
菓	-12.3791
逖	-12.3793
慣	-12.3794
麵	-12.3794
㩀	-12.3795
讃	-12.3796
譎	-12.3797
俚	-12.3798
冨	-12.3798
烘	-12.3804
蜺	-12.3804
楔	-12.3806
撾	-12.3807
描	-12.3859
汭	-12.389
啐	-12.3893
嚌	-12.3896
箧	-12.39
蹶	-12.3902
蘧	-12.3909
㴻	-12.3909
藜	-12.3913
磑	-12.3914
刊	-12.3918
妓	-12.3918
硤	-12.3919
汐	-12.3923
夐	-12.3926
煬	-12.399
靛	-12.4015
銕	-12.4016
孀	-12.4019
邽	-12.402
稭	-12.402
浣	-12.4021
薇	-12.4026
狠	-12.4026
麈	-12.4027
偁	-12.4028
諛	-12.4028
蒔	-12.4029
鬲	-12.403
傚	-12.403
悽	-12.4034
矗	-12.4038
褕	-12.4041
蠎	-12.413
筸	-12.4134
釗	-12.4135
俠	-12.4137
鼈	-12.4139
厓	-12.414
讙	-12.414
鞬	-12.414
㓕	-12.4145
埴	-12.4147
駛	-12.4148
韎	-12.4149
幙	-12.4149
鏑	-12.4156
棡	-12.4244
邯	-12.4246
聮	-12.4256
栻	-12.4258
珏	-12.426
緫	-12.4261
柿	-12.4261
酈	-12.4263
熖	-12.4264
趂	-12.4264
豺	-12.4264
黛	-12.4266
漓	-12.4269
窈	-12.4271
誚	-12.4272
嫄	-12.4273
妬	-12.4274
鑣	-12.4365
詘	-12.4372
渣	-12.4375
棖	-12.4376
骲	-12.4376
酆	-12.4377
晞	-12.4379
无	-12.4379
諠	-12.4385
辮	-12.4386
噲	-12.4387
虔	-12.4387
隼	-12.4387
唬	-12.4389
槱	-12.4389
澣	-12.4391
暠	-12.4392
紈	-12.4392
棻	-12.4392
攏	-12.4483
屉	-12.449
闟	-12.4495
撘	-12.4496
𫀆	-12.4499
縚	-12.4501
郾	-12.4504
艶	-12.4507
燼	-12.451
籀	-12.451
刖	-12.451
莵	-12.4511
堕	-12.4511
跂	-12.4512
兜	-12.4514
齧	-12.4514
貤	-12.4515
醲	-12.4522
軺	-12.4573
檩	-12.4616
姐	-12.4622
鋌	-12.4624
筌	-12.4625
謊	-12.4626
埂	-12.4628
嶷	-12.4629
旴	-12.463
鏹	-12.463
刮	-12.463
鶡	-12.4633
璹	-12.4633
靉	-12.4633
腕	-12.4634
䞇	-12.4635
櫜	-12.4637
睂	-12.4644
叡	-12.4743
唆	-12.4744
揠	-12.4748
杰	-12.4749
涂	-12.4751
趲	-12.4751
埔	-12.4753
緱	-12.4753
䂓	-12.4754
种	-12.4754
暐	-12.4754
芥	-12.4757
惹	-12.4757
廞	-12.4757
遒	-12.476
韍	-12.4763
洳	-12.4764
凜	-12.4764
闍	-12.4764
裼	-12.4854
鈃	-12.4869
搃	-12.4876
戩	-12.4879
嫉	-12.4881
狎	-12.4881
碌	-12.4882
鄗	-12.4882
躪	-12.4883
樗	-12.4884
恙	-12.4884
淅	-12.4885
濂	-12.4885
苔	-12.4885
菩	-12.4888
䍧	-12.4889
覓	-12.4889
螽	-12.489
帗	-12.489
饅	-12.4978
䡖	-12.4999
掊	-12.501
襚	-12.501
鰥	-12.501
譔	-12.501
盼	-12.5012
鯀	-12.5012
萹	-12.5013
槁	-12.5014
酗	-12.5016
彀	-12.5017
爍	-12.5018
怖	-12.502
訝	-12.502
甓	-12.5021
潑	-12.5022
訏	-12.5023
萱	-12.5026
駘	-12.5028
宙	-12.5029
滎	-12.5061
喏	-12.5128
螣	-12.5133
匵	-12.5134
窒	-12.5138
甯	-12.5138
䜿	-12.5139
蕎	-12.5139
蔥	-12.514
脗	-12.5141
紿	-12.5142
搴	-12.5144
奩	-12.5144
蘖	-12.5145
衎	-12.5147
堙	-12.5148
睒	-12.5155
鋋	-12.5253
癃	-12.5259
檝	-12.526
瞎	-12.5262
傔	-12.5264
肋	-12.5266
診	-12.5268
鏜	-12.5269
儁	-12.527
娯	-12.527
剗	-12.5271
殻	-12.5271
暾	-12.5276
賾	-12.5277
揷	-12.5277
蝶	-12.528
嗷	-12.5285
霾	-12.5388
瀏	-12.5391
璊	-12.5393
猩	-12.5394
豨	-12.5398
鞦	-12.5399
擦	-12.5399
吊	-12.5399
膜	-12.5401
罨	-12.5404
耑	-12.5404
塏	-12.5404
㢲	-12.5406
皋	-12.5409
緼	-12.541
僵	-12.541
淙	-12.5411
猊	-12.5413
央	-12.5472
崞	-12.553
冏	-12.553
埶	-12.5532
賖	-12.5534
礿	-12.5536
箏	-12.5537
諉	-12.5537
鄠	-12.5538
蜼	-12.5541
璆	-12.5542
怵	-12.5543
僨	-12.5544
鞉	-12.5544
鍪	-12.5545
靶	-12.5546
讋	-12.5549
猿	-12.5549
虺	-12.555
鄫	-12.5558
釜	-12.5667
樑	-12.5668
坼	-12.5672
笈	-12.5677
适	-12.5678
蟾	-12.5679
漈	-12.5679
柟	-12.5679
僾	-12.5679
暎	-12.568
瘝	-12.5681
抜	-12.5682
澈	-12.5683
詿	-12.5683
鸛	-12.5684
颶	-12.5684
轟	-12.569
昃	-12.5692
媳	-12.5694
煠	-12.5804
鞔	-12.5805
洧	-12.5808
賸	-12.5809
畮	-12.581
畛	-12.5811
袷	-12.5812
攪	-12.5812
挪	-12.5816
媧	-12.5816
麩	-12.5817
咒	-12.582
捫	-12.5822
芍	-12.5822
暵	-12.5825
洹	-12.5829
秧	-12.5829
璀	-12.5829
綖	-12.5947
嶲	-12.5947
壟	-12.595
瀉	-12.5953
􁋎	-12.5954
僞	-12.5955
鑛	-12.5956
憊	-12.5956
肢	-12.5956
蹬	-12.5959
郛	-12.596
槳	-12.5961
舡	-12.5965
飱	-12.5966
穩	-12.5969
郟	-12.6091
濞	-12.6092
炤	-12.6092
摸	-12.6094
啞	-12.6095
偪	-12.6096
汨	-12.6096
擣	-12.6097
桁	-12.6098
嶇	-12.6098
禠	-12.6098
礽	-12.6099
匍	-12.6101
襦	-12.6102
戬	-12.6104
讜	-12.6104
倨	-12.6105
麞	-12.6109
闉	-12.6109
瓴	-12.6109
藿	-12.6109
耤	-12.6196
􁈹	-12.623
􁎄	-12.6235
瓢	-12.6237
狸	-12.6237
醊	-12.6237
鼖	-12.6237
渌	-12.6241
岢	-12.6242
噪	-12.6242
潄	-12.6243
碁	-12.6245
瀹	-12.6246
痘	-12.6246
褠	-12.6247
瞬	-12.6247
釧	-12.6249
醒	-12.6249
瑁	-12.6251
槊	-12.6252
凈	-12.6252
澡	-12.6253
蔗	-12.6253
惴	-12.6254
艍	-12.6256
蛤	-12.6256
瑭	-12.6261
𦦨	-12.6279
瓪	-12.6342
捆	-12.6379
淩	-12.6382
焕	-12.6385
闑	-12.639
瞰	-12.639
嵎	-12.639
氈	-12.6391
秭	-12.6391
摠	-12.6391
沓	-12.6392
聪	-12.6395
鮫	-12.6395
糙	-12.6397
凹	-12.6398
錙	-12.6398
綈	-12.6398
渺	-12.6398
鑚	-12.64
衅	-12.6401
逗	-12.6401
珵	-12.6444
騍	-12.6444
䂍	-12.6514
撩	-12.6517
柬	-12.6538
嗎	-12.6538
珅	-12.6539
韉	-12.6539
櫬	-12.6539
韙	-12.654
荐	-12.6542
㛰	-12.6542
鍔	-12.6542
轓	-12.6543
頋	-12.6544
轜	-12.6545
稞	-12.6545
耋	-12.6548
炒	-12.6549
悰	-12.655
潾	-12.655
瀰	-12.655
爱	-12.655
璵	-12.6551
裊	-12.6552
洶	-12.6554
鋜	-12.6663
櫨	-12.667
肚	-12.6673
涎	-12.6681
敺	-12.6685
灋	-12.6685
埓	-12.6686
爓	-12.6687
崙	-12.6687
軛	-12.6688
儕	-12.6689
蔴	-12.669
撑	-12.6695
嬖	-12.6697
牱	-12.6698
貙	-12.6699
艫	-12.6699
㢤	-12.67
慷	-12.6702
隈	-12.6704
飴	-12.6705
欃	-12.6706
棋	-12.6829
臝	-12.6841
犛	-12.6844
穜	-12.6846
嘻	-12.6847
掉	-12.6848
刳	-12.6849
莠	-12.6851
愠	-12.6855
頖	-12.6856
鐐	-12.6856
祹	-12.6863
袪	-12.6992
榱	-12.6993
鄼	-12.6994
匯	-12.6998
𬒳	-12.6998
鬆	-12.6999
鉸	-12.7
貰	-12.7003
湄	-12.7004
漬	-12.7004
梏	-12.7005
遅	-12.7005
㙮	-12.7006
浃	-12.7007
敲	-12.7008
皤	-12.7008
鷙	-12.701
觝	-12.701
莩	-12.701
艷	-12.7011
彎	-12.7017
柈	-12.7024
脡	-12.7138
晒	-12.7151
璩	-12.7152
䜛	-12.7154
頲	-12.7154
苣	-12.7158
褙	-12.7158
犠	-12.7158
𤦺	-12.716
滉	-12.716
獗	-12.716
臀	-12.7161
暁	-12.7161
祛	-12.7162
縶	-12.7162
呪	-12.7162
榘	-12.7163
戳	-12.7164
昜	-12.7166
櫻	-12.7166
嫺	-12.7168
畵	-12.717
膂	-12.7173
巂	-12.7175
溧	-12.7263
醑	-12.7307
楬	-12.7312
垍	-12.7313
鈺	-12.7319
哆	-12.7319
璐	-12.732
瑑	-12.7323
煞	-12.7324
默	-12.7328
瀟	-12.7328
洄	-12.7332
砫	-12.7333
茁	-12.7346
徔	-12.7462
黈	-12.7473
坯	-12.7474
熛	-12.7475
煃	-12.7478
賙	-12.7478
断	-12.7478
茄	-12.7478
刧	-12.7481
珀	-12.7482
軨	-12.7483
欹	-12.7484
鄣	-12.7484
弆	-12.7486
糕	-12.7487
埀	-12.7488
埝	-12.7488
諲	-12.749
湩	-12.7491
慾	-12.7492
颯	-12.7493
攫	-12.7493
罏	-12.7496
勗	-12.7498
瀧	-12.75
麯	-12.75
坰	-12.7503
驁	-12.7643
籮	-12.7647
邛	-12.7648
𦕈	-12.7648
蒜	-12.7649
鷂	-12.7652
稹	-12.7655
瘳	-12.7656
紃	-12.7656
埧	-12.7656
崛	-12.7657
劃	-12.766
柢	-12.766
㐫	-12.766
繽	-12.7661
懵	-12.7662
絪	-12.7662
嗤	-12.7662
篁	-12.7663
怕	-12.7664
勰	-12.7665
擷	-12.7666
褊	-12.7667
蘊	-12.767
韇	-12.7802
咥	-12.7802
繶	-12.7815
菉	-12.7817
鍱	-12.7817
腵	-12.7817
珊	-12.7818
喊	-12.7819
峝	-12.7819
綪	-12.782
甜	-12.7821
鍇	-12.7822
萼	-12.7822
脛	-12.7822
渇	-12.7823
棐	-12.7824
媪	-12.7825
秪	-12.7825
岌	-12.7825
愕	-12.7825
蚌	-12.7827
㯶	-12.7827
竁	-12.7827
跣	-12.7829
髣	-12.783
髴	-12.7831
茒	-12.7832
迸	-12.7839
鰈	-12.7839
餈	-12.7985
瑠	-12.7987
閆	-12.7987
桎	-12.7988
麇	-12.7989
澀	-12.7989
鐏	-12.799
癉	-12.7991
燹	-12.7992
旟	-12.7993
枹	-12.7994
廚	-12.7995
擗	-12.7995
驄	-12.7996
荻	-12.7997
玻	-12.7998
曡	-12.8
刲	-12.8
橛	-12.8
碓	-12.8001
晾	-12.8001
㝡	-12.8002
蹋	-12.8004
蜿	-12.8004
曨	-12.8006
巘	-12.8006
綆	-12.8007
叉	-12.8154
餧	-12.8157
找	-12.816
塨	-12.8161
皖	-12.8163
稑	-12.8165
錬	-12.8168
幛	-12.8169
戟	-12.817
劈	-12.8171
㐲	-12.8171
穽	-12.8172
窳	-12.8173
窕	-12.8174
葑	-12.8175
脆	-12.8176
芷	-12.8176
睨	-12.8182
偓	-12.8182
氾	-12.8182
緲	-12.8183
闖	-12.8183
􁈞	-12.8326
侏	-12.8343
葠	-12.8344
鮪	-12.8347
驊	-12.835
𧖟	-12.8351
郄	-12.8352
紥	-12.8354
緅	-12.8356
皝	-12.8357
逅	-12.8357
澱	-12.8357
湔	-12.8358
邐	-12.8358
啄	-12.8359
嶂	-12.836
雘	-12.8364
么	-12.8367
䥖	-12.8406
莆	-12.8507
賕	-12.8529
庋	-12.853
篡	-12.853
麄	-12.8532
帚	-12.8533
謟	-12.8534
徤	-12.8534
羶	-12.8535
卲	-12.8535
勷	-12.8536
獷	-12.8538
孱	-12.8539
矚	-12.8546
扒	-12.8698
淏	-12.87
爚	-12.8704
籃	-12.8708
憬	-12.8711
箙	-12.8712
篥	-12.8712
饉	-12.8713
笮	-12.8714
闒	-12.8714
宁	-12.8715
眩	-12.8716
擿	-12.8717
苧	-12.8718
菆	-12.872
蜒	-12.8721
銎	-12.8721
酧	-12.8721
偈	-12.8722
缷	-12.8722
搨	-12.8722
㳂	-12.8723
絙	-12.8723
鍤	-12.8724
騖	-12.8724
吠	-12.8725
墁	-12.8725
蘂	-12.8725
蕊	-12.8728
蝀	-12.8731
鶼	-12.8731
橦	-12.8736
琺	-12.8888
儈	-12.8893
郗	-12.8895
鼉	-12.8896
鯤	-12.8897
甍	-12.89
翮	-12.8901
恡	-12.8901
尙	-12.8902
䒭	-12.8904
肱	-12.8905
宓	-12.8905
遯	-12.8906
柑	-12.8906
薤	-12.8907
帔	-12.8907
剜	-12.8907
腑	-12.8907
傜	-12.8908
腿	-12.891
廆	-12.8911
徨	-12.8911
鐍	-12.8912
熒	-12.8912
躅	-12.8913
閿	-12.8914
檣	-12.8915
郇	-12.8915
翽	-12.8924
騸	-12.8959
􁟱	-12.9037
臏	-12.9084
蔟	-12.9085
紒	-12.909
鍥	-12.9091
饈	-12.9092
篩	-12.9093
鄊	-12.9096
漉	-12.9097
矬	-12.9097
罣	-12.9097
紞	-12.9097
恧	-12.9098
嘛	-12.9098
䧺	-12.9098
殚	-12.9099
苜	-12.9099
躐	-12.91
褘	-12.91
翿	-12.9101
厝	-12.9101
[...]
