<unk>	0
<s>	0
</s>	0
。	-2.35137
,	-3.23383
、	-4.6565
者	-4.70927
故	-4.86308
▁	-4.86926
也	-4.95392
*	-5.22125
為	-5.31611
以	-5.38975
之	-5.41973
是	-5.46491
(	-5.4961
有	-5.51752
)	-5.51841
佛	-5.52329
二	-5.53936
無	-5.5951
;	-5.59867
於	-5.61632
此	-5.66799
如	-5.67647
不	-5.68816
法	-5.69111
即	-5.70368
而	-5.73954
若	-5.74266
中	-5.76634
心	-5.78274
一	-5.85866
相	-5.87522
生	-5.88519
行	-5.89536
名	-5.90354
!	-5.91194
等	-5.94904
三	-5.98795
謂	-5.99462
菩薩	-5.99912
非	-6.00528
:「	-6.01361
說	-6.02745
言	-6.06264
見	-6.06492
得	-6.06674
彼	-6.13963
則	-6.15766
其	-6.16577
人	-6.16655
如是	-6.16828
?	-6.21625
身	-6.22063
及	-6.23822
一切	-6.25153
明	-6.26238
如來	-6.27697
時	-6.28108
義	-6.36558
眾生	-6.37785
大	-6.40593
經	-6.40868
。」	-6.41137
下	-6.42455
我	-6.42637
諸	-6.42992
四	-6.4455
因	-6.44572
觀	-6.47663
皆	-6.47976
自	-6.4912
智	-6.49135
云	-6.49768
。】「	-6.51006
亦	-6.52963
▁南无	-6.54377
至	-6.55761
從	-6.57909
起	-6.5983
所	-6.60468
入	-6.60797
與	-6.61541
意	-6.62
。「	-6.62548
已	-6.63068
上	-6.64056
作	-6.64773
世尊	-6.64814
處	-6.64982
事	-6.65169
又	-6.66179
空	-6.66415
常	-6.66476
初	-6.67904
知	-6.68014
問	-6.69118
今	-6.6914
。」【	-6.73729
在	-6.74291
道	-6.74482
成	-6.76753
能	-6.77799
後	-6.78685
離	-6.79661
當	-6.80488
善	-6.80788
性	-6.8096
住	-6.83404
欲	-6.8373
或	-6.83874
受	-6.84562
依	-6.85457
修	-6.85948
云何	-6.8676
五	-6.87104
前	-6.87137
滅	-6.87656
多	-6.8809
分別	-6.88883
天	-6.88896
出	-6.90406
本	-6.91435
􂏥	-6.91677
即是	-6.92306
眾	-6.9316
樂	-6.93589
應	-6.93844
王	-6.94103
令	-6.94481
通	-6.95072
淨	-6.95308
大慧	-6.9532
然	-6.97246
覺	-6.99214
曰	-6.99314
果	-6.99408
現	-6.99472
色	-7.00029
由	-7.0007
識	-7.00188
緣	-7.00353
教	-7.01021
同	-7.01061
清淨	-7.01494
釋	-7.01864
地	-7.03449
既	-7.04429
念	-7.05206
解	-7.0679
雖	-7.07228
用	-7.09004
勝	-7.10456
復	-7.11565
隨	-7.12471
但	-7.12678
名為	-7.13254
無量	-7.1385
體	-7.14207
定	-7.14284
耶	-7.14692
種種	-7.15874
爾時	-7.16706
方便	-7.17006
涅槃	-7.1804
聞	-7.18216
盡	-7.1871
正	-7.18802
顯	-7.19065
功德	-7.19642
答	-7.19982
次	-7.20177
具	-7.20541
苦	-7.20637
諸法	-7.20729
無有	-7.21185
論	-7.21417
分	-7.21699
巳	-7.21784
斷	-7.21822
是故	-7.22587
疏	-7.22637
來	-7.22666
取	-7.22963
可	-7.23515
理	-7.23519
想	-7.23859
破	-7.23975
難	-7.24699
別	-7.26131
業	-7.26936
?」	-7.27108
唯	-7.27972
乃至	-7.28018
文	-7.28101
善男子	-7.29362
解脫	-7.29759
證	-7.30104
慧	-7.31954
菩	-7.32319
求	-7.32499
實	-7.3288
門	-7.32967
乃	-7.33004
世間	-7.33498
生死	-7.33757
妄想	-7.35047
過	-7.35179
】	-7.35258
轉	-7.35388
六	-7.35885
因緣	-7.36463
力	-7.36479
合	-7.36999
對	-7.37551
故云	-7.37746
喻	-7.37781
便	-7.3831
異	-7.38486
俱	-7.38899
耳	-7.38998
:『	-7.39058
真	-7.39526
惡	-7.39906
願	-7.40463
境界	-7.40527
七	-7.41596
煩惱	-7.4169
汝	-7.42045
食	-7.42756
攝	-7.42938
捨	-7.42953
水	-7.43124
境	-7.43183
寶	-7.43189
佛南無	-7.43192
先	-7.43302
是名	-7.43462
約	-7.43561
悉	-7.44558
南無	-7.44632
持	-7.44671
語	-7.45011
聲	-7.45079
德	-7.45191
除	-7.47021
化	-7.47664
不能	-7.47722
無明	-7.47767
餘	-7.48912
施	-7.49596
外	-7.49758
示	-7.50057
愛	-7.50918
立	-7.51379
何	-7.52289
數	-7.52472
具足	-7.52688
戒	-7.53164
光	-7.53454
諸佛	-7.5366
供養	-7.53876
智慧	-7.54481
法身	-7.56287
句	-7.56625
內	-7.56653
世	-7.56911
成就	-7.57145
不生	-7.57324
妙	-7.57938
平等	-7.58037
所謂	-7.58907
十	-7.58987
八	-7.59029
發	-7.6049
去	-7.61929
矣	-7.62222
華	-7.62368
:	-7.62459
未	-7.62724
修行	-7.63096
他	-7.63402
報	-7.63921
廣	-7.64105
信	-7.6483
根	-7.64909
方	-7.65032
光明	-7.65149
所以	-7.66499
無常	-7.67243
病	-7.67336
不得	-7.67903
記	-7.68087
子	-7.68156
不可	-7.68192
著	-7.68938
小	-7.69445
師	-7.69613
圓	-7.69657
菩提	-7.70412
三昧	-7.70765
大乘	-7.70832
外道	-7.71094
執	-7.71198
聲聞	-7.72736
字	-7.72749
重	-7.73985
度	-7.7439
位	-7.74512
指	-7.75106
乎	-7.76609
深	-7.76761
種	-7.768
火	-7.76844
藏	-7.76859
會	-7.76964
物	-7.77076
世界	-7.77426
佛言	-7.77928
還	-7.78436
各	-7.78966
比丘	-7.79119
不知	-7.79232
結	-7.79955
自在	-7.79974
譬如	-7.80053
聖	-7.80231
說法	-7.80372
宗	-7.80429
莊嚴	-7.8056
照	-7.80752
日	-7.8101
利	-7.8134
共	-7.81902
法性	-7.8194
自性	-7.83439
使	-7.83871
二乘	-7.84235
必	-7.84471
命	-7.84716
香	-7.84781
稱	-7.84963
眼	-7.84986
第一	-7.85247
亦不	-7.85403
妄	-7.85592
邪	-7.85621
止	-7.85687
一切法	-7.86289
品	-7.86654
山	-7.86686
復次	-7.87192
開	-7.87395
安	-7.88037
無生	-7.88546
一切眾生	-7.88861
極	-7.8912
辨	-7.89279
學	-7.90109
第二	-7.90479
不見	-7.9075
障	-7.91216
悟	-7.91259
總	-7.91377
壞	-7.91515
精進	-7.91965
等者	-7.92425
就	-7.93022
向	-7.93031
須	-7.93106
舉	-7.93258
順	-7.93589
迷	-7.94029
此經	-7.94309
更	-7.94444
不同	-7.94466
國	-7.94564
。』	-7.94568
二者	-7.94609
法界	-7.95191
故名	-7.95689
凡夫	-7.96012
滿	-7.96137
集	-7.96503
菩薩摩訶薩	-7.97441
斯	-7.97826
將	-7.97887
死	-7.97924
罪	-7.98253
計	-7.98398
引	-7.98528
趣	-7.98967
疑	-7.99725
失	-7.99738
一者	-7.99739
之法	-7.99947
亦無	-8.00285
界	-8.00509
皆是	-8.00568
動	-8.01498
第三	-8.01804
普	-8.01956
月	-8.02213
。【	-8.02846
了	-8.02916
究竟	-8.02923
金	-8.03028
惑	-8.03119
略	-8.03437
樹	-8.0412
真如	-8.04355
而不	-8.04598
墮	-8.05838
神	-8.0587
請	-8.05901
形	-8.06053
幻	-8.06198
尊	-8.06224
無所	-8.06308
坐	-8.06562
真實	-8.06726
何以故	-8.06864
遠離	-8.06889
益	-8.06925
九	-8.07272
舍利弗	-8.07402
差別	-8.07442
思惟	-8.07498
無相	-8.07821
福	-8.07866
少	-8.08183
類	-8.08725
風	-8.0893
忍	-8.09108
)。】「	-8.09233
一一	-8.09446
女	-8.09736
之所	-8.09924
所說	-8.10127
主	-8.10189
歸	-8.10376
以為	-8.10825
三界	-8.10831
乘	-8.10872
屬	-8.10909
流	-8.11046
好	-8.11099
四大	-8.11304
兩	-8.11602
土	-8.11858
於此	-8.11942
復有	-8.11984
家	-8.12165
長	-8.1244
習	-8.12947
生滅	-8.13799
護	-8.13819
蓋	-8.13828
慈	-8.13861
塵	-8.14215
造	-8.14393
劫	-8.14695
寂	-8.1479
僧	-8.14863
次第	-8.15058
法門	-8.15152
高	-8.15468
是為	-8.15781
讚	-8.15839
禪	-8.1606
猶	-8.16247
猶如	-8.16364
般若	-8.16635
若有	-8.16771
觀察	-8.16871
音	-8.17139
輪	-8.17173
喜	-8.17175
凡	-8.17434
魔	-8.17437
目	-8.17448
▁初	-8.17552
諸天	-8.17737
口	-8.18503
表	-8.18579
海	-8.18686
。」【(	-8.19378
往	-8.19569
所以者何	-8.20026
遍	-8.20247
要	-8.20307
達	-8.20314
文殊師利	-8.20712
寂滅	-8.21729
歡喜	-8.2173
且	-8.21733
言說	-8.21956
所有	-8.22226
假	-8.2226
阿難	-8.22359
故曰	-8.22476
思	-8.23296
豈	-8.23326
遠	-8.23568
頭	-8.23718
夫	-8.23963
相續	-8.24179
相應	-8.2436
自然	-8.24384
實相	-8.24481
不思議	-8.24517
無我	-8.26019
歎	-8.26265
出家	-8.26349
此是	-8.26805
十方	-8.2701
淨名	-8.27369
正法	-8.27436
直	-8.27487
建立	-8.27505
羅	-8.27937
足	-8.28248
一心	-8.28419
經云	-8.28448
。○	-8.28635
情	-8.28832
因果	-8.28886
當知	-8.28959
無礙	-8.29066
白	-8.29067
有無	-8.291
尊者	-8.29124
天子	-8.29366
圓覺	-8.29411
亦復如是	-8.2976
譬	-8.29883
貪	-8.30177
母	-8.31117
寂靜	-8.31122
竟	-8.31899
彌勒	-8.32264
味	-8.32473
龍	-8.32512
如來南無	-8.32679
不可思議	-8.3293
百	-8.32931
縛	-8.33313
三種	-8.33401
無為	-8.33632
。△	-8.33784
▁二	-8.33806
莫	-8.33957
爾	-8.34719
染	-8.34731
恒	-8.34742
贊曰	-8.3504
似	-8.35063
親	-8.35161
像	-8.35239
到	-8.35478
所作	-8.35597
虛空	-8.36035
息	-8.36173
如此	-8.36209
勸	-8.36222
近	-8.36236
陰	-8.36617
父母	-8.36724
三者	-8.3721
和合	-8.37859
不動	-8.38787
致	-8.39052
二種	-8.39112
第四	-8.39336
號	-8.39657
過去	-8.39675
始	-8.39747
金剛	-8.40298
答曰	-8.40322
何故	-8.40339
故言	-8.40621
小乘	-8.41862
不應	-8.41951
居	-8.421
有情	-8.42344
反	-8.42649
我今	-8.42856
佛說	-8.42939
聚	-8.42994
地獄	-8.43142
無邊	-8.43387
決定	-8.43432
機	-8.43474
計著	-8.44014
觸	-8.44302
花	-8.44352
隨順	-8.44415
之相	-8.44493
之人	-8.44726
疾	-8.45024
變	-8.45051
諦	-8.45278
設	-8.45372
量	-8.4543
終	-8.45569
本無	-8.45573
吾	-8.45754
增長	-8.46456
於是	-8.46587
於彼	-8.46643
兼	-8.46698
五陰	-8.4683
殺	-8.46943
絕	-8.47093
緣起	-8.47186
俗	-8.47225
名曰	-8.47326
佛法	-8.47954
那	-8.48
圓滿	-8.49048
進	-8.49158
沙門	-8.49216
于	-8.49919
況	-8.50094
.	-8.50249
神通	-8.50288
而生	-8.50305
散	-8.50483
頓	-8.50496
財	-8.50851
脫	-8.50862
之義	-8.51099
獨	-8.51333
禮	-8.51723
加	-8.51891
之中	-8.52027
城	-8.52353
垢	-8.52421
興	-8.52433
弟子	-8.52575
增	-8.52638
標	-8.52702
治	-8.52917
現在	-8.53191
亦非	-8.53218
不淨	-8.53294
林	-8.53409
千	-8.53695
伏	-8.53807
肇曰	-8.53904
無上	-8.54105
此云	-8.54258
獲	-8.54408
摩	-8.54634
修習	-8.5475
三乘	-8.5508
漸	-8.55148
不離	-8.5516
文殊	-8.55305
有二	-8.55345
皆悉	-8.55394
一切諸法	-8.55671
超	-8.55689
之心	-8.55787
發心	-8.56202
手	-8.56362
利益	-8.56375
〕」【	-8.56625
成佛	-8.56732
顛倒	-8.5677
衣	-8.56778
可知	-8.57139
大悲	-8.57263
邪見	-8.58445
癡	-8.58658
無漏	-8.58782
身心	-8.58873
唐云	-8.58999
如幻	-8.59118
全	-8.59217
王佛	-8.59346
文句	-8.59352
四句	-8.59638
我等	-8.59689
首	-8.59754
權	-8.59983
真諦	-8.60077
並	-8.60137
持戒	-8.60367
是人	-8.60507
最勝	-8.60719
未來	-8.60762
昔	-8.61591
雲	-8.61668
存	-8.61799
邊	-8.61838
而有	-8.6185
不為	-8.61872
中道	-8.61921
虗空	-8.61996
其心	-8.62063
不覺	-8.62171
雙	-8.62827
。」【【	-8.63116
四者	-8.63157
被	-8.63473
於中	-8.63554
以此	-8.63932
奉	-8.6396
悲	-8.64116
雜	-8.6418
敬	-8.64187
告	-8.64593
遣	-8.64757
脩	-8.64885
不起	-8.64937
章	-8.64946
聽	-8.65024
布施	-8.65069
遂	-8.65108
阿	-8.65181
。】「〔	-8.65276
雨	-8.65764
諸菩薩	-8.66141
自心	-8.66706
不可得	-8.66912
亦如是	-8.67085
淨土	-8.67212
志	-8.67285
翻	-8.67381
迦葉	-8.67428
有三	-8.6789
例	-8.67937
一時	-8.68015
藥	-8.68109
久	-8.68276
》	-8.68323
尚	-8.68336
善根	-8.68354
而為	-8.68484
智者	-8.68703
惟	-8.68814
行者	-8.68904
所見	-8.68978
此中	-8.69169
十二	-8.69218
注	-8.69392
冥	-8.69442
答言	-8.69481
內外	-8.69582
若人	-8.69873
恐	-8.69888
三世	-8.70224
放逸	-8.7027
故知	-8.70387
國土	-8.70397
不二	-8.70501
亦名	-8.70814
婆羅門	-8.71008
攝受	-8.71057
眷屬	-8.71451
易	-8.71462
不住	-8.71645
述	-8.71656
無性	-8.72153
根本	-8.72454
密	-8.72708
「	-8.73027
和	-8.73069
壽	-8.73076
波	-8.73118
氣	-8.73125
齊	-8.73399
果報	-8.7354
甚	-8.73705
梵天	-8.73865
何者	-8.74142
三寶	-8.74165
大眾	-8.74329
佛告	-8.74346
誰	-8.74381
婆	-8.74498
夢	-8.74516
種子	-8.74627
所行	-8.74796
辯	-8.74797
四種	-8.74932
鬼	-8.7502
呵	-8.75116
無盡	-8.75487
百千	-8.7554
堅	-8.75564
尋	-8.75583
蓮華	-8.75655
童子	-8.75745
哉	-8.75822
靜	-8.76063
細	-8.76089
燒	-8.76164
亦是	-8.76215
甚深	-8.76246
名字	-8.76397
愚癡	-8.76603
無所有	-8.76704
遮	-8.76747
害	-8.77035
又云	-8.77203
華嚴	-8.77409
座	-8.77651
年	-8.77667
器	-8.77822
偈	-8.77869
末	-8.77914
覆	-8.78044
則無	-8.78074
是則	-8.78288
何謂	-8.783
支	-8.78804
如來藏	-8.78856
汝等	-8.78986
示現	-8.79107
珠	-8.79113
彰	-8.7914
頌	-8.79232
序	-8.79292
毒	-8.79469
亦爾	-8.79596
并	-8.79629
梵	-8.79816
懺悔	-8.79829
傳	-8.79937
——	-8.80063
了知	-8.80243
音聲	-8.80376
陀	-8.80431
不斷	-8.80485
無畏	-8.8053
面	-8.80654
簡	-8.8072
釋曰	-8.80781
速	-8.8087
象	-8.81252
長者	-8.8131
禪定	-8.81331
第一義	-8.81413
遊	-8.81672
愚	-8.82003
堅固	-8.8207
善哉	-8.82462
光佛	-8.8301
退	-8.83152
飲食	-8.83247
所生	-8.83547
云云	-8.83563
所依	-8.83842
萬	-8.83851
舍	-8.84318
不壞	-8.8432
亡	-8.84491
安住	-8.84692
受持	-8.84888
遇	-8.84952
亂	-8.85197
不異	-8.8551
父	-8.85604
頂	-8.85706
提	-8.85745
經文	-8.85778
宜	-8.8621
列	-8.86237
制	-8.86286
違	-8.86288
註	-8.8635
迦	-8.86741
半	-8.8675
肉	-8.8685
懷	-8.87112
備	-8.87242
有為	-8.87284
習氣	-8.87311
據	-8.87777
偏	-8.87779
己	-8.88089
嚴	-8.8812
節	-8.8835
宿	-8.88428
畢竟	-8.8883
不著	-8.88847
如是等	-8.88848
天女	-8.88874
沒	-8.88963
積	-8.88995
調伏	-8.89173
師子	-8.89186
含	-8.89227
非有	-8.89291
〕	-8.89646
徧	-8.8967
最	-8.89744
印	-8.89868
望	-8.89995
畏	-8.90083
感	-8.90248
安樂	-8.90331
」	-8.90342
路	-8.90431
比	-8.90454
棄	-8.90462
安隱	-8.90499
能生	-8.90541
餓鬼	-8.90623
法華	-8.90648
剎那	-8.90697
却	-8.9077
是時	-8.908
不捨	-8.90834
若不	-8.90995
然後	-8.91029
微妙	-8.91069
者即	-8.91088
壽命	-8.9123
種性	-8.91273
十地	-8.91441
不生不滅	-8.91593
無間	-8.91701
三藏	-8.91797
白佛言	-8.9181
亦有	-8.91851
間	-8.91878
懺	-8.92013
可得	-8.92068
所得	-8.92107
礙	-8.92243
而起	-8.92365
福德	-8.92394
悉皆	-8.92411
聖人	-8.92537
執著	-8.92726
微	-8.92963
又復	-8.93083
燈	-8.9313
敘	-8.93185
永	-8.9325
如實	-8.93254
影	-8.93438
消	-8.93573
待	-8.93695
熱	-8.94239
鳥	-8.94419
十六	-8.94541
及諸	-8.94664
一切智	-8.94716
▁南無	-8.94852
或有	-8.95113
無異	-8.95181
第五	-8.95209
愚夫	-8.95249
謂之	-8.95302
又問	-8.95395
一念	-8.95407
圓教	-8.95951
道場	-8.96014
視	-8.96151
不滅	-8.96215
不善	-8.96251
四諦	-8.9631
文字	-8.96607
佛告大慧	-8.96724
救	-8.96846
宮	-8.96927
橫	-8.97025
大士	-8.97163
對治	-8.97292
助	-8.97404
而得	-8.97433
通達	-8.97606
佛土	-8.97668
沙	-8.97713
畜生	-8.98128
▁南无寶	-8.98224
老	-8.98229
諸眾生	-8.98314
推	-8.98319
譯	-8.98399
善法	-8.98614
切	-8.98679
此即	-8.98811
人天	-8.98837
輪迴	-8.98902
見佛	-8.98966
放	-8.99137
骨	-8.99158
非是	-8.99186
常住	-8.99248
勿	-8.99321
五百	-8.99371
若能	-8.99503
之處	-8.99575
最上	-8.99642
慢	-8.99704
廣大	-8.9985
由此	-8.99916
現前	-8.99931
無數	-8.99973
強	-9.00253
逆	-9.00328
賢	-9.00385
瞋	-9.00402
平	-9.00646
忘	-9.00732
離諸	-9.00972
迹	-9.01058
不退	-9.01061
輕	-9.01111
意識	-9.01129
中有	-9.01191
《	-9.01852
部	-9.0191
出世	-9.02225
如何	-9.0234
威德	-9.02506
▁後	-9.02528
?』	-9.02621
於諸	-9.02654
之時	-9.02711
日月	-9.02731
訶	-9.03016
犯	-9.03021
諸根	-9.03138
悔	-9.03324
憂	-9.03565
不取	-9.03781
各各	-9.03942
夜	-9.04069
周	-9.04353
苦惱	-9.04499
女人	-9.04594
都	-9.04881
惱	-9.04961
無不	-9.05152
不受	-9.0523
惡業	-9.05296
應知	-9.05356
佛性	-9.0543
元	-9.05559
論云	-9.05562
覩	-9.0558
顯示	-9.05683
三觀	-9.05808
此二	-9.05927
置	-9.06107
藏識	-9.06117
及以	-9.06157
不了	-9.06185
蟲	-9.06212
大海	-9.06226
窮	-9.06239
威儀	-9.06243
木	-9.06271
帝釋	-9.06339
亦然	-9.06341
古	-9.06549
恭敬	-9.06606
慈悲	-9.0666
不定	-9.06682
三身	-9.06683
濟	-9.06706
大小	-9.06716
法中	-9.06874
河	-9.0714
菩薩南無	-9.0717
破壞	-9.07244
故名為	-9.07304
而無	-9.07309
牛	-9.07551
何等	-9.07575
盛	-9.07803
許	-9.07837
有所	-9.07892
之事	-9.08098
終不	-9.08162
不說	-9.0822
滿足	-9.08243
相似	-9.08345
授	-9.08414
穢	-9.08453
劣	-9.08554
釋迦	-9.0868
各有	-9.0918
虛妄	-9.09203
其身	-9.09231
離於	-9.09319
維摩	-9.09527
名之為	-9.09591
科	-9.09634
前後	-9.09741
七寶	-9.09848
帝	-9.09949
恩	-9.10053
天王	-9.1008
應當	-9.10127
行相	-9.10363
倒	-9.10425
陀羅尼	-9.1053
五者	-9.10664
遊戲	-9.10868
守	-9.10877
之理	-9.10888
患	-9.10938
功	-9.10939
假名	-9.11059
不以	-9.11234
但是	-9.11404
無垢	-9.11454
所證	-9.115
供	-9.11535
虗妄	-9.11537
三德	-9.11542
辭	-9.11678
飲	-9.11798
若無	-9.12009
怨	-9.12031
十一	-9.12135
室	-9.12213
諸行	-9.12353
八識	-9.12535
忍辱	-9.12642
展轉	-9.12669
隱	-9.12685
有四	-9.1281
拔	-9.12976
蘊	-9.13078
無分別	-9.13084
而說	-9.13182
第六	-9.13256
不出	-9.13289
一句	-9.13313
虗	-9.13513
咸	-9.13576
波羅蜜	-9.13676
貪欲	-9.13943
一法	-9.14094
爾時世尊	-9.14145
無作	-9.14207
縱	-9.14308
如前	-9.14315
下明	-9.14357
何所	-9.14384
詣	-9.14392
善惡	-9.14562
捨離	-9.14784
怖畏	-9.14821
雖有	-9.14983
此法	-9.15311
馬	-9.15421
亦如	-9.15618
判	-9.15631
善業	-9.15689
。〔	-9.15894
能知	-9.15964
法者	-9.16139
卷	-9.16209
度無極	-9.16295
舌	-9.16399
初明	-9.16509
法相	-9.16529
舊	-9.16711
阿羅漢	-9.16905
相者	-9.16961
鉢	-9.16984
龍王	-9.17005
今此	-9.17009
神力	-9.17148
之行	-9.17326
無二	-9.17352
若以	-9.17424
何況	-9.17446
能所	-9.17487
變化	-9.17517
故說	-9.1779
不實	-9.1815
流轉	-9.18314
一切諸	-9.18445
王佛南無	-9.18553
金光明	-9.18558
決	-9.18581
焰	-9.18635
相故	-9.18886
鼻	-9.1894
互	-9.18956
為二	-9.19145
者謂	-9.1919
瞋恚	-9.19192
二明	-9.19209
所言	-9.19225
寧	-9.1945
資	-9.19455
▁三	-9.19517
天人	-9.19529
身子	-9.19544
復次大慧	-9.19591
故有	-9.19593
目連	-9.19649
皆有	-9.19655
殊	-9.19681
為說	-9.19796
則為	-9.19814
無因	-9.19955
剎	-9.1999
收	-9.20091
瓔珞	-9.20119
容	-9.20232
勝佛南無	-9.2027
曾	-9.20367
得道	-9.20585
演說	-9.20588
闇	-9.20695
善知	-9.20828
法師	-9.20836
焉	-9.20927
第八	-9.21064
留	-9.21163
則有	-9.21301
所知	-9.21379
讚歎	-9.21418
鬼神	-9.21459
律	-9.21489
別教	-9.21575
尼	-9.21576
。』「	-9.21602
旨	-9.2189
精	-9.21972
總持	-9.21978
能令	-9.22211
鐵	-9.22225
熏	-9.2244
。」「	-9.226
不復	-9.22769
降	-9.2317
第七	-9.23221
毀	-9.23252
一乘	-9.23293
億	-9.23293
自相	-9.23374
微塵	-9.23472
美	-9.235
轉變	-9.2354
飯	-9.2358
葉	-9.23587
玄	-9.23654
之言	-9.23792
只	-9.23971
唯有	-9.24042
靈	-9.24053
損	-9.24087
生於	-9.24096
勤	-9.24348
此則	-9.2451
厭	-9.24556
多聞	-9.24557
須菩提	-9.24831
熟	-9.24908
運	-9.24991
自他	-9.24995
乃是	-9.25382
三諦	-9.25519
緣覺	-9.25629
!」	-9.25871
養	-9.25899
亦復	-9.25948
五欲	-9.26048
我說	-9.26081
宣說	-9.26087
陳	-9.261
二諦	-9.26105
廣說	-9.2629
有二種	-9.26305
導	-9.26415
十八	-9.26577
賊	-9.26669
住於	-9.26694
不作	-9.26819
善女人	-9.26828
六度	-9.26835
無始	-9.27023
不成	-9.2716
皆得	-9.27349
所攝	-9.27349
唯識	-9.27426
佛道	-9.27457
記曰	-9.27501
南	-9.27553
配	-9.27598
居士	-9.28092
法故	-9.28098
調	-9.28131
義也	-9.28207
幢	-9.28245
服	-9.2832
底	-9.2833
詮	-9.28558
斥	-9.28601
此義	-9.2864
怖	-9.28656
親近	-9.28703
我見	-9.28773
東方	-9.28849
殊勝	-9.29179
信解	-9.29212
觀心	-9.29448
石	-9.29484
辯才	-9.29506
鏡	-9.29524
車	-9.29897
新	-9.29958
慈心	-9.30041
書	-9.30291
相好	-9.30352
亦云	-9.30473
梵王	-9.30502
此三	-9.30641
痛	-9.3065
聲聞緣覺	-9.30806
我當	-9.30883
▁南无大	-9.30941
自身	-9.31092
所緣	-9.31184
名相	-9.31245
其所	-9.31356
池	-9.31598
蓮花	-9.316
中間	-9.31628
威	-9.31717
所成	-9.32002
在於	-9.32017
融	-9.32091
辟支佛	-9.32476
逮	-9.3251
今日	-9.32609
為因	-9.32614
其義	-9.32667
受用	-9.32691
歷	-9.32778
舍利	-9.32808
權實	-9.32966
誠	-9.33044
契	-9.33087
草	-9.33207
此明	-9.3327
不可說	-9.33542
欲界	-9.33639
阿修羅	-9.33731
得名	-9.3377
七識	-9.33866
是以	-9.34068
如如	-9.34268
揀	-9.34315
覺性	-9.34504
公	-9.34528
發菩提心	-9.34538
不信	-9.34539
網	-9.34563
發起	-9.34618
談	-9.34622
須彌	-9.34623
宣	-9.347
際	-9.34798
是謂	-9.34865
無別	-9.34938
然此	-9.35314
攀緣	-9.3534
泥	-9.35436
觀行	-9.3545
力故	-9.35681
三業	-9.35739
訖	-9.35745
四教	-9.35842
弘	-9.35843
徹	-9.35877
虛	-9.35949
入於	-9.35949
有一	-9.3622
一切皆	-9.36283
正見	-9.36315
令其	-9.36435
孝	-9.36437
通教	-9.36458
非法	-9.36472
彌	-9.36474
炎	-9.36589
有漏	-9.36599
色相	-9.36707
何得	-9.36775
清	-9.3685
魚	-9.36874
增上	-9.36934
善知識	-9.36944
賢聖	-9.3698
其人	-9.37079
皆由	-9.37091
臣	-9.3777
性相	-9.37891
故也	-9.37906
句非	-9.38079
心不	-9.38265
勝佛	-9.38338
及與	-9.38366
純	-9.38476
初地	-9.38524
有三種	-9.38582
姓	-9.38851
可見	-9.38897
若見	-9.38971
諸惡	-9.39044
翳	-9.39174
住持	-9.39325
依止	-9.39331
問曰	-9.3954
潤	-9.39643
拘	-9.39758
念念	-9.39819
體性	-9.39836
本來	-9.39874
但以	-9.40047
貴	-9.40107
斷滅	-9.40176
解釋	-9.40285
呼	-9.40311
微細	-9.40407
不失	-9.40645
聞法	-9.40668
謗	-9.40763
妄計	-9.40766
差	-9.40835
塔	-9.40882
其中	-9.41028
凡愚	-9.41193
而言	-9.41278
他人	-9.41294
悅	-9.41359
愛樂	-9.41394
不墮	-9.41406
星	-9.4143
是法	-9.41621
之性	-9.41643
彼人	-9.41902
寄	-9.41919
摩尼	-9.41944
漸次	-9.42072
懈怠	-9.42125
。「『	-9.42144
守護	-9.4234
誦	-9.42362
汝今	-9.42428
倍	-9.42588
希有	-9.42649
乖	-9.42707
準	-9.42776
六者	-9.42794
淺	-9.42801
七日	-9.42896
甘露	-9.42958
有人	-9.42981
緣生	-9.43003
毘	-9.43206
聖智	-9.43304
亦可	-9.43445
二釋	-9.43506
如彼	-9.43608
一向	-9.43637
麤	-9.43713
不樂	-9.4386
什曰	-9.43922
貪著	-9.43941
未曾	-9.4415
為本	-9.44189
何因	-9.44204
則是	-9.44223
不行	-9.44236
無自性	-9.44258
族姓子	-9.44282
西	-9.44469
酒	-9.44476
血	-9.44589
闕	-9.44619
何以	-9.44669
葢	-9.44702
大王	-9.44771
嘆	-9.44789
至於	-9.44818
亦應	-9.45071
天眾	-9.45072
大師	-9.45218
正念	-9.4524
專	-9.45282
承	-9.45304
▁南无善	-9.45388
三明	-9.45446
諸比丘	-9.4545
題	-9.45508
巧	-9.45563
呪	-9.45614
十二因緣	-9.45732
實有	-9.45759
光明佛	-9.45963
端	-9.46054
二邊	-9.46071
囉	-9.46169
無量無邊	-9.46184
止觀	-9.46188
為體	-9.46226
無色	-9.46247
默	-9.46289
男	-9.46331
六根	-9.46415
無能	-9.46445
羅漢	-9.46521
施設	-9.46556
東	-9.46558
青	-9.46767
畢	-9.46777
妄見	-9.46819
講	-9.46976
仙	-9.4698
一人	-9.47047
宮殿	-9.47168
背	-9.4728
乳	-9.47294
黑	-9.473
以是	-9.47308
義故	-9.47352
惠	-9.4736
荊溪云	-9.47367
我所	-9.47489
有五	-9.4753
布	-9.47618
上來	-9.47674
神足	-9.47681
現行	-9.47695
夜叉	-9.47724
未得	-9.47784
徵	-9.47814
唯心	-9.47866
染淨	-9.4788
而能	-9.47925
若依	-9.47987
殿	-9.48005
問答	-9.48085
垂	-9.48136
即得	-9.48171
六識	-9.48281
空中	-9.48403
三千大千世界	-9.4841
此之	-9.48469
豈非	-9.48517
德佛	-9.48619
折	-9.4873
教化	-9.48753
鈔	-9.48834
譬喻	-9.48966
角	-9.48989
貧	-9.4902
伽	-9.49038
知見	-9.49104
欲令	-9.49169
見有	-9.49219
幾	-9.49268
落	-9.49329
云何菩薩	-9.49459
之道	-9.49473
令得	-9.49508
佛身	-9.49658
之意	-9.49817
梵行	-9.49843
則不	-9.49862
憶念	-9.49925
責	-9.49965
無住	-9.50059
以其	-9.50232
轉法輪	-9.50237
五蘊	-9.5043
法也	-9.50446
於法	-9.50595
蒙	-9.50674
迴	-9.50675
既無	-9.50724
演	-9.50728
所修	-9.50802
田	-9.50821
領	-9.50822
心生	-9.51313
勇	-9.51335
當得	-9.51666
十種	-9.51759
命終	-9.51821
士	-9.51902
二十	-9.51904
畫	-9.52205
顯現	-9.52224
一切諸佛	-9.52304
減	-9.52331
乾	-9.52334
濁	-9.52394
是菩薩	-9.52445
自體	-9.5252
滅度	-9.52543
非無	-9.52637
恒沙	-9.52641
戲論	-9.52681
之名	-9.5272
修行者	-9.52804
五種	-9.52841
仰	-9.52889
迴向	-9.52982
之本	-9.53016
鼓	-9.53049
特	-9.53107
是經	-9.53124
為一	-9.53242
無知	-9.53332
繫	-9.53335
即空	-9.53357
言語	-9.53366
佛國	-9.5338
金色	-9.53418
笑	-9.535
世俗	-9.53781
仍	-9.53783
傷	-9.53787
之身	-9.53813
跡	-9.5384
世諦	-9.53893
竝	-9.53926
源	-9.53962
王子	-9.54457
祖	-9.5449
泥洹	-9.54496
一切世間	-9.54539
若約	-9.54559
接	-9.54791
欲得	-9.54821
忽	-9.54845
隨喜	-9.54848
不在	-9.55011
是也	-9.55054
得解脫	-9.55176
三毒	-9.55189
雖復	-9.55197
不依	-9.55271
改	-9.55298
依此	-9.55409
段	-9.55461
勇猛	-9.5557
該	-9.5562
云何為	-9.5568
典	-9.5569
行人	-9.55735
奪	-9.55782
為欲	-9.55806
適	-9.55856
二法	-9.55921
佛所	-9.56
心無	-9.56011
不如	-9.56109
天眼	-9.56147
正道	-9.56228
文中	-9.56236
清涼	-9.56244
今現在	-9.56249
不現	-9.5628
漏	-9.56295
兒	-9.56304
於一切	-9.56492
自覺	-9.56698
太子	-9.56796
覺知	-9.57055
期	-9.5707
徒	-9.57078
天下	-9.57092
化佛	-9.57129
審	-9.5717
降伏	-9.57209
正觀	-9.57221
十力	-9.57381
所問	-9.57402
此言	-9.57403
見者	-9.57442
人中	-9.5749
文云	-9.57536
刀	-9.57594
之因	-9.57609
人民	-9.57725
十四	-9.57796
本覺	-9.5795
福田	-9.57991
塵勞	-9.58057
光明佛南無	-9.58079
越	-9.58142
累	-9.58364
正明	-9.58426
樓	-9.58475
步	-9.58544
薄	-9.58577
之境	-9.58743
憍慢	-9.58837
至真	-9.58857
化身	-9.589
勞	-9.58909
之體	-9.58936
國王	-9.58999
生曰	-9.59031
交	-9.5905
世論	-9.59197
所起	-9.59254
正智	-9.59435
是名菩薩	-9.59494
一切有情	-9.59512
誓	-9.5953
暫	-9.59756
此下	-9.59806
作是	-9.59862
固	-9.59866
等正覺	-9.59963
自行	-9.59969
此句	-9.60167
苦樂	-9.60173
以彼	-9.60211
幢佛	-9.6032
凡聖	-9.60378
故不	-9.60423
瑜伽	-9.60445
短	-9.60456
障礙	-9.60523
善巧	-9.60531
夏	-9.6054
○	-9.60544
此人	-9.60549
為人	-9.60644
受樂	-9.60672
赤	-9.60761
佛地	-9.60894
熏習	-9.60939
分明	-9.60972
歲	-9.6101
原	-9.61012
智力	-9.61075
寺	-9.61188
勢	-9.61191
髮	-9.61259
毛	-9.61271
心量	-9.61324
語言	-9.61331
經南無	-9.6138
二約	-9.6148
園	-9.61487
魏譯	-9.61498
六塵	-9.61502
作意	-9.617
不與	-9.61803
從此	-9.61862
所現	-9.61888
誡	-9.61938
質	-9.61946
道理	-9.61966
次名	-9.62
應身	-9.62004
【	-9.62105
唐譯	-9.62107
隨緣	-9.62132
諸識	-9.62245
今明	-9.62273
下文	-9.62273
纏	-9.62345
而行	-9.62377
富	-9.62457
二初	-9.62508
修多羅	-9.62601
之智	-9.62672
哀	-9.62677
黃	-9.62713
曉	-9.62716
魏云	-9.62731
所詮	-9.62755
生起	-9.62885
任	-9.62945
十五	-9.63116
菩提心	-9.63142
牒	-9.63224
無著	-9.63274
儀	-9.63305
本有	-9.63335
諸經	-9.63343
方等	-9.63653
不入	-9.63778
佛剎	-9.63841
正覺	-9.63942
八萬四千	-9.63994
三有	-9.64113
受生	-9.64123
仁	-9.6415
詳	-9.64167
流通	-9.64223
相違	-9.64268
作者	-9.64307
是佛	-9.6431
十善	-9.64323
修道	-9.6434
諸有	-9.64362
柔軟	-9.64436
授記	-9.64466
此乃	-9.64509
男女	-9.64511
彼佛	-9.64609
惑亂	-9.64659
單	-9.64659
不空	-9.64785
有四種	-9.64819
讀誦	-9.6492
而巳	-9.65051
說言	-9.65059
出生	-9.65143
􂛳	-9.65231
俱生	-9.65248
蛇	-9.65339
臥	-9.65438
乞	-9.65446
不盡	-9.65449
園林	-9.65846
妙法	-9.65858
一相	-9.65912
四相	-9.6604
有異	-9.66064
太	-9.66138
發願	-9.66204
隨其	-9.66228
吉祥	-9.66284
本性	-9.66432
遺	-9.66514
故須	-9.66638
皮	-9.6665
之文	-9.66656
若於	-9.66677
妄語	-9.66688
曲	-9.66703
有世界名	-9.66707
快樂	-9.66778
末世	-9.66789
及餘	-9.66877
懸	-9.66884
自覺聖智	-9.66972
法施	-9.67049
非真	-9.6711
有餘	-9.67117
實際	-9.67235
經中	-9.67243
業障	-9.67263
受苦	-9.67292
假使	-9.67334
則能	-9.67348
七者	-9.67374
稽首	-9.67378
於佛	-9.6742
聖道	-9.67425
亦得	-9.67574
多有	-9.67628
互相	-9.67666
陰界入	-9.67857
以明	-9.67896
天地	-9.67905
北	-9.67966
故以	-9.67993
作是念	-9.68141
諸相	-9.68165
解云	-9.68172
三法	-9.68188
走	-9.682
敷	-9.68204
護持	-9.68316
無智	-9.68585
逐	-9.68595
二障	-9.68609
其有	-9.68652
但有	-9.68666
諸煩惱	-9.68717
普賢	-9.68741
值	-9.68765
如實知	-9.68807
人間	-9.68813
勝義	-9.68842
由是	-9.68932
一切性	-9.6896
永斷	-9.69036
修學	-9.69075
住處	-9.69094
衣服	-9.69178
申	-9.69228
讀	-9.69229
此身	-9.69262
非性	-9.69315
察	-9.69348
急	-9.69421
奢摩他	-9.6949
於一切法	-9.69556
佛語	-9.69603
真心	-9.69686
▁「	-9.69785
此品	-9.69881
諸有情	-9.69933
十三	-9.70063
皆為	-9.70101
三摩地	-9.70141
下釋	-9.70174
珍寶	-9.70191
利他	-9.70245
唐譯云	-9.70271
四門	-9.70275
佛子	-9.70296
作如是言	-9.703
出離	-9.70385
不退轉	-9.70407
有大	-9.70504
二義	-9.70523
摩訶	-9.70544
▁南无普	-9.70582
大地	-9.70656
此文	-9.70664
二合	-9.70665
出世間	-9.70704
無所得	-9.70836
師子吼	-9.70898
總結	-9.70963
如人	-9.70988
歸依	-9.71118
愛欲	-9.71239
群	-9.71329
開示	-9.71424
寂然	-9.71466
疏曰	-9.71523
即能	-9.71584
作佛	-9.71658
不念	-9.7171
無非	-9.71804
色身	-9.71857
大智	-9.71892
略說	-9.72076
眼識	-9.72095
自有	-9.72103
招	-9.72149
民	-9.72154
不識	-9.72171
不求	-9.72302
何處	-9.72303
吼	-9.72309
勢力	-9.72358
法輪	-9.72374
樹下	-9.72417
端正	-9.72431
報身	-9.72516
閻浮提	-9.72561
無差別	-9.72563
非有非無	-9.72696
第九	-9.72733
今經	-9.72761
等覺	-9.72819
造作	-9.72834
」【	-9.72874
彼岸	-9.72909
請問	-9.72997
五法	-9.73065
依於	-9.73136
皆從	-9.73143
以顯	-9.73183
諸佛如來	-9.73408
證得	-9.73409
泯	-9.73469
再	-9.73525
法空	-9.73651
如上	-9.73682
能作	-9.73865
者即是	-9.73912
琉璃	-9.73963
勅	-9.74009
常樂	-9.74009
索	-9.74017
官	-9.74042
至心	-9.741
又如	-9.74102
非不	-9.74118
是名為	-9.7413
如意	-9.74159
唐	-9.74272
實無	-9.74289
不自	-9.74319
名色	-9.74365
事理	-9.74399
萬物	-9.7448
能斷	-9.74518
非我	-9.74633
准	-9.74639
此意	-9.74666
薩	-9.74759
投	-9.74769
續	-9.74785
經曰	-9.74871
即便	-9.74982
財物	-9.75001
言之	-9.75019
唯是	-9.75054
維摩詰	-9.75105
勤修	-9.7513
異相	-9.75141
諍	-9.75146
可愛	-9.75166
能得	-9.75171
應供	-9.75281
彼處	-9.75298
任運	-9.75325
成道	-9.75326
八地	-9.75364
而作	-9.75414
免	-9.75479
瓶	-9.75492
妙覺	-9.75608
六道	-9.75728
正受	-9.7577
即為	-9.75792
驚	-9.75842
妄想自性	-9.75898
或云	-9.75932
始終	-9.75995
有何	-9.7606
無餘	-9.76174
婬	-9.76214
惡趣	-9.76326
故得	-9.76467
床	-9.76475
於我	-9.76481
闍	-9.76515
所造	-9.76704
羅剎	-9.76742
諸地	-9.76836
云云一句	-9.76917
恐怖	-9.76935
未曾有	-9.76953
即時	-9.76956
法體	-9.7698
打	-9.76981
究	-9.77006
衰	-9.7703
浮	-9.77113
惡道	-9.7718
亦無所	-9.77231
得果	-9.77299
過患	-9.77313
不然	-9.77328
影像	-9.77398
迷惑	-9.77451
此土	-9.77665
其意	-9.77702
晝夜	-9.77742
若爾	-9.77897
寶積	-9.77912
分齊	-9.77944
立名	-9.77981
八者	-9.78067
三十二	-9.78121
光佛南無	-9.78192
須陀洹	-9.7821
是菩提	-9.78223
慮	-9.78305
代	-9.78357
若有眾生	-9.78418
麁	-9.78475
飛	-9.78481
離有無	-9.78516
今云	-9.78573
更有	-9.78699
玅	-9.78841
心念	-9.78873
楞伽	-9.78891
加行	-9.78975
性空	-9.7901
說有	-9.7903
得聞	-9.7908
即以	-9.79125
驚怖	-9.79126
大德	-9.79144
往昔	-9.79152
勝妙	-9.79226
故能	-9.79436
飾	-9.79472
災	-9.79477
貧窮	-9.79487
十界	-9.79525
化他	-9.79709
三千	-9.79738
幻化	-9.79773
自共相	-9.79829
若欲	-9.79866
未能	-9.79972
驗	-9.79978
侍	-9.79997
五根	-9.80089
善逝	-9.8013
界內	-9.80159
欣	-9.80161
長短	-9.80198
返	-9.80211
自心現	-9.80221
▁南无智	-9.80366
諸外道	-9.80381
結成	-9.8042
若言	-9.80475
暗	-9.80504
陽	-9.80521
成熟	-9.8057
何等為十	-9.80595
往來	-9.80624
臨	-9.80651
菩薩行	-9.80666
是其	-9.8079
不變	-9.8087
初心	-9.81038
妻	-9.81046
佗	-9.81048
即無	-9.81098
所化	-9.81117
念處	-9.81149
塗	-9.81215
不聞	-9.81277
身相	-9.81339
豈不	-9.81365
合掌	-9.81417
無實	-9.81456
而說偈言	-9.81516
安立	-9.81546
關	-9.81558
侵	-9.8157
喜樂	-9.81633
常無常	-9.81777
天上	-9.81784
疏云	-9.81833
輩	-9.81844
於其	-9.81857
四德	-9.81879
當體	-9.81918
諸菩薩摩訶薩	-9.81942
能證	-9.82027
見道	-9.8209
託	-9.82217
啟	-9.82239
菩薩曰	-9.82249
此等	-9.82317
是身	-9.82355
無障礙	-9.82419
威神	-9.82494
檀	-9.82533
二句	-9.82598
眾人	-9.82611
西方	-9.82682
不相	-9.82724
鹿	-9.82725
當來	-9.8273
都無	-9.82846
無記	-9.82854
昇	-9.82896
快	-9.82975
相也	-9.83051
身見	-9.83069
身中	-9.83131
非常	-9.83401
十七	-9.83518
誤	-9.83555
經論	-9.8357
此四	-9.83571
真空	-9.83611
茲	-9.83771
了達	-9.83783
非實	-9.83825
性自性	-9.83846
竪	-9.8387
所執	-9.84013
名號	-9.84023
開二	-9.84034
今文	-9.84067
之教	-9.84117
載	-9.84135
不解	-9.8416
吉	-9.8419
不達	-9.84291
皆名	-9.84301
色界	-9.8453
諸如來	-9.84568
靜慮	-9.84615
般涅槃	-9.84641
於一	-9.84664
深心	-9.84682
義者	-9.84717
亦同	-9.84875
七地	-9.84948
。▲	-9.84977
若干	-9.85012
有知	-9.85114
起於	-9.85118
世人	-9.8521
老死	-9.8522
稟	-9.8524
連	-9.85332
看	-9.85446
昧	-9.85476
無想	-9.85477
蘇	-9.85489
故非	-9.85547
圍遶	-9.85566
乞食	-9.85577
唱	-9.85684
有此	-9.8571
充滿	-9.85751
頌曰	-9.85858
涉	-9.85956
不共	-9.85974
繫縛	-9.86003
隔	-9.86105
氏	-9.86141
堂	-9.86174
彼天	-9.86268
八十	-9.86301
▁四	-9.86413
釋云	-9.86422
離欲	-9.86437
入涅槃	-9.86451
導師	-9.86481
自利	-9.86493
借	-9.8652
謬	-9.86545
大涅槃	-9.866
皆空	-9.86693
今以	-9.86711
諸天眾	-9.86712
委	-9.86765
善哉善哉	-9.86825
如法	-9.86832
能破	-9.86884
若菩薩	-9.86917
傍	-9.86952
貫	-9.86957
▁南无法	-9.87038
最後	-9.8709
九者	-9.87098
露	-9.87103
滯	-9.87119
可以	-9.87156
故無	-9.872
無形	-9.87228
罪人	-9.87244
一云	-9.87271
即此	-9.87275
過失	-9.8731
欲求	-9.87355
所聞	-9.87371
聲佛南無	-9.87432
實法	-9.87448
明了	-9.87475
錯	-9.87489
我法	-9.87546
界外	-9.87607
登	-9.87616
滅盡	-9.87675
曉了	-9.87677
梨	-9.87711
墮於	-9.8776
而住	-9.87788
為我	-9.87795
牽	-9.87852
心中	-9.87913
處處	-9.8796
銷	-9.87969
無量百千	-9.88056
一切人	-9.88092
饒益	-9.88192
▁南无無邊	-9.88205
諦聽	-9.8821
同時	-9.8832
是我	-9.88346
自心現量	-9.88357
本末	-9.88365
的	-9.88422
之力	-9.88484
如虛空	-9.88485
誹謗	-9.8851
醉	-9.88538
了義	-9.88577
五道	-9.88615
今初	-9.88616
六十	-9.88648
建	-9.88665
慶	-9.88668
遍滿	-9.88767
其實	-9.88822
皆以	-9.88828
奉行	-9.88844
妄心	-9.88878
等也	-9.88891
兵	-9.88927
貪愛	-9.88953
一味	-9.89076
我身	-9.89076
豈有	-9.89093
堪	-9.89139
萬行	-9.89207
佛告阿難	-9.89249
盲	-9.89284
菩薩言	-9.89308
百億	-9.8931
虎	-9.89325
各別	-9.89408
空無	-9.89511
幢佛南無	-9.89575
生死涅槃	-9.89596
當為汝說	-9.89619
酬	-9.89628
三句	-9.89805
眾會	-9.89816
修證	-9.8984
正行	-9.89922
知識	-9.89948
但云	-9.90085
四禪	-9.90177
能為	-9.90187
一切煩惱	-9.90279
剎土	-9.9029
聞是	-9.90353
經說	-9.90356
大慈	-9.90497
於空	-9.90514
說者	-9.90527
之類	-9.9062
問疾	-9.90688
苦行	-9.90765
即有	-9.90794
斷煩惱	-9.908
所明	-9.90814
天台	-9.90887
蜜	-9.90911
移	-9.9093
二字	-9.9093
廢	-9.91004
諸見	-9.91137
直心	-9.91202
乃能	-9.91279
而復	-9.9131
我於	-9.91334
故今	-9.9134
真性	-9.91353
能說	-9.91362
斷見	-9.91486
愛見	-9.91495
心意	-9.91551
不言	-9.9156
人法	-9.91702
法無我	-9.91738
無比	-9.91758
聞已	-9.91875
俗諦	-9.91883
學者	-9.9192
臂	-9.91944
正遍知	-9.91986
前文	-9.92093
▁南无金剛	-9.92114
二見	-9.92157
煩惱障	-9.92163
諸天子	-9.92176
尊重	-9.92177
局	-9.92252
狂	-9.92273
善友	-9.92344
同名	-9.92362
豈可	-9.92425
毗	-9.92431
聲佛	-9.92469
不忘	-9.92577
屈	-9.92611
明佛	-9.92668
妻子	-9.92693
也若	-9.92703
歌	-9.92739
初約	-9.92769
必有	-9.9279
同一	-9.92848
錄	-9.92907
污	-9.92908
成正覺	-9.93094
醫	-9.93232
。」【○	-9.93387
三教	-9.93438
是中有佛	-9.93511
說之	-9.93537
聽受	-9.93567
四天下	-9.93687
若在	-9.93777
不堪	-9.9385
能見	-9.93865
相對	-9.93885
不須	-9.93898
而自	-9.93898
當知是人	-9.93923
名稱	-9.94029
十方諸佛	-9.94113
良	-9.9412
大道	-9.94327
根塵	-9.94339
流注	-9.94389
恚	-9.94419
信心	-9.9442
鳴	-9.94453
▁南无一切	-9.94477
道者	-9.94573
此名	-9.94609
君	-9.9462
無心	-9.94707
變易	-9.94726
意佛	-9.9478
除滅	-9.94882
則知	-9.9496
正說	-9.95061
莫不	-9.95081
憶	-9.95099
復白佛言	-9.95104
若得	-9.95143
說名	-9.95162
行處	-9.95208
避	-9.9522
通別	-9.95252
是事	-9.9526
未有	-9.95282
帶	-9.95316
白言	-9.95332
永離	-9.95341
入道	-9.95396
法寶	-9.9542
無緣	-9.95421
不及	-9.9546
)。」【	-9.95507
何者是	-9.95551
默然	-9.9565
復以	-9.9565
梵語	-9.95688
身體	-9.95806
每	-9.95919
此翻	-9.9596
怒	-9.95967
心者	-9.96037
附	-9.96041
境智	-9.96091
取相	-9.96095
逢	-9.96122
妨	-9.96133
未盡	-9.96145
不名	-9.96179
臺	-9.96217
十九	-9.96251
彼諸	-9.96271
得見	-9.96358
恨	-9.96385
不敢	-9.96412
慕	-9.9645
初釋	-9.96472
途	-9.96508
良由	-9.96526
一分	-9.96579
長行	-9.96603
州	-9.96612
一劫	-9.96632
流布	-9.96707
不從	-9.96769
活	-9.9677
之果	-9.96849
教化眾生	-9.96867
獄	-9.96885
生故	-9.96935
朝	-9.97027
既云	-9.97088
孔	-9.97097
擁護	-9.97141
無窮	-9.97157
三道	-9.97159
□	-9.9718
慚愧	-9.97207
四天王	-9.97389
梵志	-9.97428
為眾生	-9.97493
十者	-9.97501
心性	-9.97511
慳	-9.97701
聚落	-9.97725
以是因緣	-9.97726
夫人	-9.97809
:「『	-9.97845
脚	-9.97874
如夢	-9.97896
既是	-9.9793
空寂	-9.97937
如我	-9.97952
誓願	-9.97986
胎	-9.98033
非謂	-9.9804
經典	-9.98148
復更	-9.98194
以無	-9.982
佛南無寶	-9.98201
出入	-9.98286
生處	-9.98291
或復	-9.98299
佛果	-9.98334
之德	-9.98375
離垢	-9.98462
厭離	-9.98469
因緣故	-9.98607
依正	-9.98642
開悟	-9.98645
盜	-9.98687
議	-9.98703
王菩	-9.98831
丹	-9.98882
憎	-9.99003
唯願	-9.99125
六入	-9.9916
▁南无勝	-9.992
餘如上說	-9.9921
持世	-9.99236
隨所	-9.99242
生天	-9.99304
散亂	-9.99362
厚	-9.99386
第一義諦	-9.99433
杖	-9.9952
次明	-9.99527
寒	-9.99543
依他	-9.99555
岸	-9.99609
無得	-9.99615
能詮	-9.99645
已得	-9.9972
更無	-9.99802
一切外道	-9.99824
次釋	-9.99887
正是	-9.99918
為宗	-9.99944
大臣	-9.99951
無復	-9.99962
分段	-9.99994
頓教	-10.0005
惡見	-10.0007
懼	-10.0007
濕	-10.0008
右	-10.0008
禁	-10.0009
藉	-10.0012
四方	-10.0015
授無上道記	-10.0028
形相	-10.0033
所應	-10.0035
謝	-10.004
覺心	-10.0041
舍利弗言	-10.0044
色等	-10.0046
上下	-10.0049
周遍	-10.0059
而成	-10.0092
地前	-10.0092
見其	-10.0092
即知	-10.0093
令彼	-10.0098
增減	-10.0102
三十	-10.0108
白佛	-10.0108
一名	-10.0109
旋	-10.0112
善行	-10.0116
三義	-10.0116
定慧	-10.0121
聞佛	-10.0124
御	-10.0129
隨意	-10.0134
認	-10.0134
丈夫	-10.0136
注云	-10.014
高下	-10.0145
而非	-10.0146
一身	-10.0148
食肉	-10.0152
擊	-10.0153
鬘	-10.0154
殺生	-10.016
一生	-10.0161
定意	-10.0162
令人	-10.0179
喪	-10.0182
憎愛	-10.0183
眾僧	-10.0185
內心	-10.019
而現	-10.0192
何有	-10.0195
此約	-10.0195
見之	-10.0196
軍	-10.0202
得生	-10.0208
邪正	-10.0208
歸命	-10.0214
詞	-10.0216
初標	-10.0226
其相	-10.0227
利根	-10.0233
求法	-10.0233
之後	-10.0235
知其	-10.0236
無上菩提	-10.024
眾苦	-10.0241
法王	-10.0245
等法	-10.0246
若復	-10.0251
若是	-10.0255
說此	-10.0262
波浪	-10.0263
牙	-10.0271
本願	-10.0272
四十	-10.0273
現身	-10.0273
所為	-10.0277
我相	-10.028
故此	-10.0283
佛教	-10.0284
北方	-10.0289
里	-10.0293
得此	-10.0295
聞說	-10.0295
相見	-10.0298
儒	-10.0317
第十	-10.032
法行	-10.0326
林中	-10.0334
不久	-10.034
化生	-10.0343
輪轉	-10.0348
希	-10.035
苟	-10.0352
苾芻	-10.0352
信相	-10.0356
之者	-10.0356
異名	-10.0356
愍	-10.0359
斷除	-10.0359
一切菩薩	-10.037
何不	-10.0371
三十二相	-10.0373
不妨	-10.0379
▁南无無量	-10.0382
云何名	-10.0388
諸佛菩薩	-10.0388
不可以	-10.039
前三	-10.039
而去	-10.0403
科竟	-10.0404
心識	-10.0407
飢渴	-10.0408
說是	-10.0409
能除	-10.0413
三結	-10.0426
仁者	-10.0428
比丘尼	-10.0431
博	-10.0432
聞此	-10.0436
蔽	-10.0447
問言	-10.0448
文二	-10.0468
響	-10.0471
一切種智	-10.0471
〔	-10.0476
三性	-10.0482
眾多	-10.0482
枝	-10.0483
自下	-10.0488
非但	-10.0497
有相	-10.0498
齒	-10.0499
文殊師利言	-10.0502
所受	-10.0504
況復	-10.0511
心境	-10.052
積集	-10.0528
為緣	-10.0532
諸功德	-10.0533
之說	-10.0533
▁南无師子	-10.0535
得入	-10.0539
灌頂	-10.0541
▁二釋	-10.0545
覺悟	-10.0546
大慧白佛言	-10.0552
覺了	-10.0554
長者子	-10.0563
割	-10.0572
非一	-10.0576
日光	-10.058
揚	-10.0584
虫	-10.0586
自心所現	-10.0588
鈍	-10.0588
心常	-10.0591
普照	-10.0593
真理	-10.0594
析	-10.0598
少分	-10.0612
一處	-10.0619
如佛	-10.0632
見聞	-10.0636
多少	-10.0646
不具	-10.0651
於諸法	-10.0655
若諸菩薩	-10.068
洗	-10.0686
為正	-10.0691
宿命	-10.0694
為是	-10.0696
實性	-10.07
竭	-10.0701
亦能	-10.0704
度眾生	-10.0713
一往	-10.0718
參	-10.072
本際	-10.0721
正釋	-10.073
阿僧祇	-10.0731
以法	-10.0735
同體	-10.0739
愈	-10.0743
四法	-10.0746
充	-10.0748
為彼	-10.0755
不隨	-10.0759
壽量	-10.0762
後世	-10.0768
限	-10.0771
繩	-10.0775
端嚴	-10.0791
法藏	-10.0793
尸	-10.0793
猛	-10.0794
如來法身	-10.08
見思	-10.0807
無念	-10.0808
四明	-10.0809
淨穢	-10.0814
共相	-10.0815
常為	-10.0817
以下	-10.0818
增益	-10.082
希望	-10.0823
無人	-10.0827
二十五	-10.0829
若知	-10.083
火燒	-10.0843
臭	-10.0847
化眾生	-10.0848
善解	-10.0848
無所著	-10.0852
者是	-10.0858
沈	-10.086
真俗	-10.0865
我為	-10.0868
是諸	-10.0869
大種	-10.0871
神名	-10.0872
漏盡	-10.0879
仙人	-10.0879
不爾	-10.0884
不染	-10.0888
行於	-10.089
財寶	-10.0894
聖教	-10.0902
是真	-10.0908
一切佛法	-10.0908
飢	-10.0912
一日	-10.0918
具如	-10.0921
淨心	-10.0925
無量功德	-10.0925
離一切	-10.093
在家	-10.0931
濫	-10.0937
意者	-10.0942
遭	-10.0946
則非	-10.095
眾寶	-10.0957
生者	-10.097
六種	-10.0971
優婆塞	-10.0973
無極	-10.0978
行道	-10.0981
不殺	-10.0981
如是如是	-10.0983
不生滅	-10.0989
是道場	-10.0989
超越	-10.0996
意樂	-10.1011
解曰	-10.1012
前二	-10.1014
染污	-10.103
八難	-10.103
意云	-10.1031
不放逸	-10.1032
誑	-10.1034
發阿耨多羅三藐三菩提心	-10.1035
隨機	-10.1037
訓	-10.1038
一切如來	-10.104
人王	-10.1041
藏佛	-10.1041
謂於	-10.1043
色心	-10.1045
不畏	-10.1046
因此	-10.1047
大願	-10.1056
同於	-10.1059
眾中	-10.106
滅故	-10.1067
功德佛	-10.1067
受記	-10.108
空華	-10.1085
得涅槃	-10.1086
應云	-10.1087
別有	-10.1092
脩行	-10.1092
舍利子	-10.1096
亦無有	-10.1096
之業	-10.1102
由旬	-10.1103
相即	-10.1103
根性	-10.1104
納	-10.1106
戲	-10.1107
四王	-10.1109
此心	-10.1116
般若波羅蜜	-10.112
空觀	-10.1126
處所	-10.113
或以	-10.1132
妄執	-10.1138
洲	-10.1141
宋	-10.1141
自知	-10.1141
種姓	-10.1143
無染	-10.1143
宅	-10.1153
此中間	-10.1161
嚴飾	-10.1163
正因	-10.1167
即於	-10.1168
復問	-10.1169
烏	-10.1169
保	-10.1179
有生	-10.1185
爾時世尊欲重宣此義而說偈言	-10.1186
威力	-10.1191
渴	-10.1202
二空	-10.1206
性故	-10.1206
召	-10.1207
獸	-10.1208
亦當	-10.1209
圍繞	-10.121
於中有二	-10.1222
左	-10.1226
今言	-10.1227
復言	-10.1234
入定	-10.1236
嫉妬	-10.1244
灰	-10.1247
卑	-10.1249
如水	-10.125
為實	-10.1251
逮得	-10.1251
本空	-10.1263
積聚	-10.1263
付	-10.1271
別釋	-10.1274
利養	-10.1276
大品	-10.1277
得無生法忍	-10.1277
諸業	-10.1278
無定	-10.128
閉	-10.1282
所引	-10.1285
剎至	-10.1286
殃	-10.1287
空有	-10.1289
善能	-10.1289
腹	-10.1292
心意意識	-10.1298
非道	-10.1301
統	-10.1311
大鈔	-10.1314
觀於	-10.1318
我我所	-10.1324
或可	-10.1327
名聞	-10.1329
二無我	-10.1342
萬法	-10.1346
最初	-10.1348
放光	-10.1351
此釋	-10.1352
▁【	-10.1357
七種	-10.1363
三十三天	-10.1374
自下第二	-10.1385
既有	-10.1394
以何	-10.1399
體相	-10.14
生身	-10.1408
號曰	-10.1412
客	-10.1412
成佛道	-10.142
不思議解脫	-10.1421
履	-10.1422
於他	-10.1423
聲聞乘	-10.1426
三事	-10.1426
釋迦牟尼佛	-10.1428
思議	-10.1445
草木	-10.1445
破戒	-10.1451
觀之	-10.1456
之上	-10.1458
『	-10.146
天中	-10.1464
棄捨	-10.1471
攝取	-10.1474
而白佛言	-10.1483
欲樂	-10.1489
生法	-10.1493
染著	-10.15
如理	-10.1513
炬	-10.1523
救護	-10.1526
天人師	-10.153
業報	-10.1531
能持	-10.1532
大法	-10.1535
二相	-10.1535
也又	-10.1535
聞者	-10.1538
三釋	-10.1542
諸世間	-10.1549
初中	-10.1553
一異	-10.1554
大聖	-10.1557
時節	-10.1564
生時	-10.1565
外境	-10.1568
道品	-10.1575
報恩	-10.1582
▁南无妙	-10.1599
畜	-10.1599
獲得	-10.16
繁	-10.1602
亦為	-10.1605
所住	-10.1608
所在	-10.1614
一百	-10.1614
言無	-10.1619
妄想不生	-10.1621
而彼	-10.1632
他方	-10.1645
自證	-10.1652
掌	-10.1654
得菩提	-10.1659
人無我	-10.1664
斷常	-10.1679
唯一	-10.168
或時	-10.1682
所求	-10.1683
信受	-10.1685
始覺	-10.1687
甚多	-10.1708
追	-10.1708
擇	-10.1709
辦	-10.171
世間解	-10.1711
摧	-10.1721
未斷	-10.1723
思量	-10.1728
為三	-10.1728
不可見	-10.1729
空也	-10.173
汝當	-10.1733
四眾	-10.1735
弟	-10.1738
下結	-10.1744
身命	-10.1749
清淨故	-10.1753
我執	-10.1764
惡人	-10.1765
一明	-10.1772
恣	-10.178
譬如有人	-10.1782
即名	-10.1783
卿	-10.1794
狗	-10.1795
天宮	-10.1797
離相	-10.1799
諸聖	-10.1808
敗	-10.1811
馳	-10.1812
大力	-10.1815
能現	-10.1823
欺	-10.1828
罪福	-10.184
天帝	-10.1842
二智	-10.1844
前云	-10.1844
化作	-10.1844
眼佛	-10.1844
教法	-10.1845
此亦	-10.1846
吐	-10.1847
慧眼	-10.1852
於世間	-10.1854
波羅	-10.1855
南方	-10.1861
私	-10.1866
雜染	-10.1869
心所	-10.1873
長養	-10.1873
無體	-10.1876
可解	-10.1876
釋名	-10.1879
深密	-10.188
去來	-10.1882
是為菩薩	-10.1888
若聞	-10.189
謂有	-10.1897
聽法	-10.1901
何法	-10.1903
初問	-10.1916
寶藏	-10.192
暢	-10.1927
上佛	-10.1941
漸漸	-10.1946
缺	-10.1947
一類	-10.195
皆云	-10.1955
流水	-10.1957
既不	-10.196
為作	-10.1966
真金	-10.1971
覺觀	-10.198
諦觀	-10.1981
友	-10.199
章句	-10.1992
修善	-10.1996
塞	-10.2002
同居	-10.2003
明其	-10.2005
不虛	-10.2005
手足	-10.2006
不能知	-10.2009
便能	-10.2013
擬	-10.202
阿耨多羅三藐三菩提	-10.2024
頂禮佛足	-10.2029
所觀	-10.2033
報應	-10.2043
九十	-10.2047
張	-10.2057
不絕	-10.2069
為名	-10.2069
因故	-10.2087
言教	-10.2098
起滅	-10.2102
拂	-10.2104
觀法	-10.2105
五戒	-10.2105
或見	-10.2106
如經	-10.2108
不違	-10.2111
男子	-10.2132
逼	-10.2137
六通	-10.2137
符	-10.2137
不令	-10.2138
須彌山	-10.2142
一種	-10.2143
皆無	-10.2146
正定	-10.2149
生住滅	-10.2161
深法	-10.2163
所說法	-10.2165
偽	-10.2168
善不善	-10.2173
豐	-10.2178
中無	-10.2179
無厭	-10.2182
番	-10.2182
密嚴	-10.2187
祇	-10.2188
施與	-10.2189
此事	-10.219
某	-10.2195
得脫	-10.22
六波羅蜜	-10.2213
蕩	-10.2216
寶蓋	-10.2216
尺	-10.2217
法樂	-10.2221
慳貪	-10.2223
邪行	-10.2234
術	-10.2242
悟入	-10.2242
八萬	-10.2243
延	-10.2245
轉輪聖王	-10.2248
讚佛	-10.2253
無央數	-10.2255
熾然	-10.2256
道法	-10.2258
是為六	-10.2264
睡	-10.2266
弊	-10.2272
徑	-10.2273
階	-10.2276
嚴淨	-10.2278
其餘	-10.2281
見此	-10.2282
種種相	-10.2284
佛出世	-10.2297
噉	-10.2305
身口意	-10.2305
於如來	-10.2308
是心	-10.2311
金光明經	-10.2317
春	-10.2327
冷	-10.2327
當有	-10.2327
第	-10.2331
會中	-10.2331
王舍城	-10.2332
輪王	-10.2333
本自	-10.2335
結集	-10.2343
栴檀	-10.2344
良以	-10.2347
珍	-10.2349
戰	-10.2358
刺	-10.2364
答云	-10.2373
菩薩得	-10.2374
無所畏	-10.2379
三字	-10.238
敢	-10.2382
得大	-10.2382
難得	-10.2383
廣釋	-10.2384
覺者	-10.2384
與彼	-10.2403
稍	-10.2406
諸大眾	-10.2411
長壽	-10.2411
諸佛世尊	-10.2411
】【	-10.2416
意在	-10.2416
迷悟	-10.2417
捨身	-10.2419
而入	-10.2424
皆同	-10.2424
別圓	-10.2424
音佛	-10.2426
軌	-10.2428
見已	-10.2429
爛	-10.2432
不能得	-10.2433
難可	-10.2439
邊際	-10.244
務	-10.244
頓漸	-10.2443
有幾種	-10.2445
。《	-10.2447
空者	-10.245
計有	-10.245
無諍	-10.2451
負	-10.2453
供養佛	-10.2454
說法者	-10.2454
裏	-10.2454
所居	-10.2456
地中	-10.2457
得佛	-10.2458
如虗空	-10.246
油	-10.2469
。』」「	-10.2474
豈得	-10.2478
門中	-10.2486
狀	-10.2491
弱	-10.2492
性非性	-10.2495
若離	-10.251
之物	-10.251
昏	-10.2511
十信	-10.2515
取著	-10.2521
亦不見	-10.2521
為大	-10.2526
諸幻	-10.2532
法眼	-10.2532
無言	-10.2536
若此	-10.2542
牟尼	-10.2548
增上慢	-10.2552
怪	-10.2553
二俱	-10.2555
由彼	-10.2556
三塗	-10.2557
之門	-10.256
妄想分別	-10.2564
自在佛南無	-10.2564
檢	-10.2569
已下	-10.2572
料簡	-10.2574
薪	-10.2584
無願	-10.2588
圓頓	-10.2588
事相	-10.2595
記云	-10.2605
念佛	-10.2606
非彼	-10.2606
乾闥婆	-10.2609
幽	-10.2612
出現	-10.2618
必須	-10.2621
安居	-10.2622
預	-10.2624
流出	-10.2624
麼	-10.2632
羊	-10.2632
自在佛	-10.2636
方名	-10.2638
異熟	-10.264
群生	-10.2642
下劣	-10.2644
只是	-10.2644
下二	-10.2646
不貪	-10.2647
彈	-10.2649
祕密	-10.2653
圓融	-10.2655
所取	-10.2658
經言	-10.2661
度脫	-10.2661
耶答	-10.2664
電	-10.2668
無上士	-10.267
信樂	-10.2677
上方	-10.2682
之外	-10.2684
然則	-10.2685
之樂	-10.2686
解說	-10.2689
意謂	-10.2704
般	-10.2706
知足	-10.2708
玉	-10.2711
心淨	-10.272
稱佛	-10.2723
種類	-10.2724
但說	-10.2726
自巳	-10.2727
敬禮	-10.273
波頭摩	-10.2735
娑	-10.2739
佛南無善	-10.2741
愚癡凡夫	-10.2743
勝解	-10.2745
常樂我淨	-10.2746
梵音	-10.2748
▁南无月	-10.2749
婦	-10.2758
淨戒	-10.2764
不當	-10.2768
佛所說	-10.2771
兔角	-10.2775
人所	-10.2778
初住	-10.2778
從是	-10.2781
通曰	-10.2785
大經	-10.2787
方得	-10.2789
愚人	-10.2797
澄	-10.2798
宛然	-10.28
為他	-10.2801
悉檀	-10.2801
諸聲聞	-10.2804
謂此	-10.2805
有性	-10.2806
廣明	-10.2807
其體	-10.2811
無見	-10.2814
嗔	-10.2815
令他	-10.282
銀	-10.2825
娑婆	-10.2826
得阿耨多羅三藐三菩提	-10.2828
麤重	-10.283
五識	-10.283
空故	-10.2832
無諸	-10.2835
不分別	-10.2838
一切法不生	-10.2841
不相應	-10.2841
以有	-10.2845
以成	-10.2848
圓成	-10.2849
遊行	-10.285
大論	-10.2865
妄念	-10.2866
能觀	-10.2868
作用	-10.2868
相現	-10.287
本淨	-10.287
窟	-10.2873
所念	-10.2874
常在	-10.2875
喚	-10.288
吹	-10.2882
防	-10.2882
五十	-10.2886
跋	-10.2894
瘡	-10.2901
何等為四	-10.2902
色像	-10.2902
如是我聞	-10.2905
圓明	-10.2907
毛孔	-10.2908
法供養	-10.2912
不見有	-10.2914
無色界	-10.2915
利物	-10.2919
唯佛	-10.2922
威德佛南無	-10.2923
皆依	-10.2927
偈云	-10.2928
有十	-10.2932
心故	-10.2935
便得	-10.2935
婦女	-10.2935
氷	-10.2941
智斷	-10.2943
應化	-10.295
佛南無大	-10.2953
事業	-10.2954
末世眾生	-10.2954
光照	-10.2956
一約	-10.2959
受持讀誦	-10.2959
文義	-10.2966
我是	-10.2966
乏	-10.2968
是為四	-10.2968
我聞	-10.2969
意菩	-10.297
法執	-10.2972
有所得	-10.2972
賢者	-10.298
往詣	-10.2988
現見	-10.2989
其性	-10.3004
夷	-10.3004
齋	-10.3005
於人	-10.3006
自性相	-10.3006
胡	-10.3008
分二	-10.3012
漢	-10.3013
睡眠	-10.3016
鈍根	-10.303
補	-10.3035
忽然	-10.3038
神變	-10.3038
但為	-10.3041
碎	-10.3042
須臾	-10.3045
優婆夷	-10.3046
曠野	-10.305
輒	-10.305
而來	-10.3053
護法	-10.3057
於是頌曰	-10.3062
能起	-10.3064
禁戒	-10.3066
一闡提	-10.3067
藏菩	-10.3069
知是	-10.3073
柱	-10.3074
通相	-10.309
無學	-10.3092
名義	-10.3093
誘	-10.3094
之地	-10.3095
無憂	-10.3096
糞	-10.3096
虗妄分別	-10.3112
別相	-10.3113
下方	-10.3116
諸苦	-10.3117
無可	-10.3121
如來所說	-10.3123
伎樂	-10.3123
▁南无功德	-10.3123
不死	-10.3124
如空	-10.3126
無所不	-10.3127
三時	-10.3127
夢中	-10.3127
摩訶衍	-10.3128
顧	-10.3135
身口	-10.3141
多羅	-10.3142
熾盛	-10.3146
而修	-10.3148
或為	-10.3148
善吉	-10.3152
禪那	-10.3158
者則	-10.3161
苦諦	-10.3165
藏佛南無	-10.3168
遷	-10.3174
不必	-10.3175
意業	-10.3176
異者	-10.3179
憂惱	-10.3189
修行菩薩	-10.3192
梁	-10.3193
勇健	-10.3196
能取	-10.3197
思念	-10.32
有為法	-10.3201
雖無	-10.3204
何謂菩薩	-10.3209
佛名	-10.321
贊	-10.3213
自相共相	-10.3221
此方	-10.3221
諸弟子	-10.3231
得成	-10.3233
是菩薩行	-10.3237
上上	-10.3239
法無	-10.324
彌勒菩薩	-10.3242
轉輪王	-10.3255
所立	-10.3257
煩	-10.3258
出於	-10.326
下至	-10.3268
後二	-10.3271
封	-10.3272
佛為	-10.3278
此諸	-10.3278
枯	-10.3279
真常	-10.3283
萬歲	-10.3284
合成	-10.3284
翻為	-10.3285
此菩薩者	-10.3286
如是觀	-10.3288
得失	-10.329
不有	-10.3292
不假	-10.3303
甘	-10.3311
護世	-10.3312
悉能	-10.3313
榮	-10.3322
夜摩天	-10.3329
依彼	-10.3333
無上道	-10.3333
於意云何	-10.3339
樂說	-10.3342
依報	-10.3343
赴	-10.3352
野	-10.3352
尊特	-10.3375
佛智	-10.3379
常得	-10.338
斷惑	-10.3382
不足	-10.3382
肉眼	-10.3385
大迦葉	-10.3392
哩	-10.3393
佛眼	-10.3395
叉	-10.3396
能滅	-10.3396
病者	-10.3402
常見	-10.3419
伴	-10.3423
王如來	-10.3426
冬	-10.343
肩	-10.3434
陀羅	-10.345
四念處	-10.3451
遵	-10.3452
諸大	-10.3457
中說	-10.3457
執持	-10.3457
得自在	-10.3459
罵	-10.346
常行	-10.3461
又曰	-10.3465
亦說	-10.3467
觀門	-10.347
當於	-10.3471
有六	-10.3472
無為法	-10.3474
所縛	-10.3474
更不	-10.3486
善思念之	-10.3488
或說	-10.3493
星宿	-10.3493
給	-10.3496
皆能	-10.3498
磨	-10.3501
為首	-10.3514
隣	-10.3516
若復有人	-10.3519
五性	-10.3522
之過	-10.3528
如海	-10.3531
述成	-10.3533
者荊溪云	-10.3538
沉	-10.3546
皆令	-10.3549
己身	-10.355
震	-10.3554
如斯	-10.3554
所願	-10.356
契經	-10.3561
文為二初	-10.3563
穀	-10.3566
心行	-10.3567
度無極有六事	-10.3572
稱讚	-10.3572
堅意	-10.3574
樂欲	-10.3576
禍	-10.3576
所不能	-10.3577
樹神	-10.3578
思想	-10.3578
自恣	-10.3579
十住	-10.3582
身者	-10.3583
悲心	-10.3589
船	-10.3592
慈氏	-10.3592
初發心	-10.3599
是知	-10.3602
而出	-10.3604
人也	-10.3606
時彼	-10.3606
三智	-10.3619
無量眾生	-10.362
楞嚴	-10.3627
方能	-10.3629
盧	-10.3635
為其	-10.3635
?」「	-10.3636
即前	-10.3637
無生忍	-10.3641
潛	-10.3645
否	-10.3645
蘭	-10.365
消滅	-10.3659
聖諦	-10.3663
能入	-10.3663
資生	-10.3666
不待	-10.3673
一切功德	-10.3675
才	-10.3676
從何	-10.3678
泉	-10.3678
入空	-10.368
作如是	-10.3682
得益	-10.3687
常不思議	-10.3693
作如是說	-10.3698
兩句	-10.3699
飲酒	-10.3702
非異非不異	-10.3705
取捨	-10.3706
所顯	-10.3709
一切法無	-10.3709
伐	-10.3715
憐愍	-10.3716
貪瞋癡	-10.3717
塵垢	-10.3717
上妙	-10.3718
種種諸	-10.3726
頃	-10.3731
二名	-10.3731
回	-10.3732
無滅	-10.3733
場	-10.3735
縱廣	-10.3736
按	-10.3736
銅	-10.3747
吒	-10.3748
應以	-10.3752
稱佛南無	-10.3754
族	-10.3756
三約	-10.3757
來生	-10.3758
其名	-10.3759
作法	-10.376
十方世界	-10.3764
意也	-10.3764
疑惑	-10.3773
無生滅	-10.3775
若作	-10.3776
心也	-10.3778
下三	-10.3782
可說	-10.3783
初禪	-10.3783
功用	-10.3784
於生死	-10.3787
愁	-10.3789
受者	-10.3789
論中	-10.3794
孤	-10.3794
四事	-10.3812
惟願	-10.3813
有其	-10.3814
聖眾	-10.3816
曜	-10.382
步佛	-10.3825
疎	-10.3829
我言	-10.3832
諸魔	-10.3837
有為無為	-10.3853
滿中	-10.3854
說經	-10.3856
之曰	-10.3856
▁一	-10.3865
正答	-10.3866
相待	-10.3867
䟽	-10.3868
若善男子	-10.3868
瑠璃	-10.3869
渡	-10.3874
如大	-10.3876
遙	-10.3877
淺深	-10.388
是一	-10.3881
何名	-10.3884
卒	-10.3887
嫉	-10.3889
□□	-10.3889
以自	-10.3904
初二	-10.3905
如幻夢	-10.3907
二教	-10.391
復見	-10.391
菩薩如是	-10.3913
無垢稱	-10.3914
善人	-10.3923
云何名為	-10.3928
勸請	-10.393
點	-10.3931
道中	-10.3934
誰為	-10.3939
真妄	-10.3943
名為涅槃	-10.3947
超過	-10.3952
起信	-10.3953
維摩詰言	-10.3959
密意	-10.396
觀也	-10.3966
實慧	-10.3968
知諸法	-10.3968
有我	-10.397
不是	-10.3976
燈佛	-10.3985
譏	-10.3993
我慢	-10.3994
用心	-10.3999
不修	-10.4007
毘琉璃	-10.4019
學道	-10.4024
生善	-10.4025
往生	-10.4025
鄙	-10.4032
為性	-10.4033
滅除	-10.4035
香積	-10.4039
不也	-10.4042
聲聞辟支佛	-10.4043
諸法無	-10.4047
所知障	-10.4057
行法	-10.4057
禮拜	-10.406
品云	-10.407
奮迅	-10.4099
欲見	-10.41
遍知	-10.4102
五句	-10.4103
後三	-10.4111
說一切法	-10.4111
而見	-10.4112
今謂	-10.4116
開發	-10.4127
束	-10.4129
初句	-10.413
塵沙	-10.4131
有疾	-10.4135
波羅蜜多	-10.4141
皆當	-10.4144
過於	-10.4146
八種	-10.4154
此問	-10.4156
後一	-10.4157
轉識	-10.4157
有見	-10.4158
性者	-10.4158
不食	-10.4163
諸法實相	-10.4165
知一切法	-10.4169
熾	-10.4173
神我	-10.4176
墜	-10.4177
自見	-10.4186
是實	-10.4191
我心	-10.4192
婬怒癡	-10.4193
唯然	-10.4197
省	-10.42
劫中	-10.4201
離我我所	-10.4201
得清淨	-10.4202
二答	-10.4203
月佛	-10.4203
時有	-10.4205
若彼	-10.4211
寂光	-10.4211
三月	-10.4212
不疑	-10.4215
復生	-10.4215
四佛	-10.4217
即彼	-10.4217
問佛	-10.4219
彼法	-10.4222
不來	-10.4225
便是	-10.4226
素	-10.4229
又有	-10.423
見彼	-10.4233
芽	-10.4236
因地	-10.4238
猶有	-10.4239
三藏教	-10.4239
▁初明	-10.4242
所熏	-10.4243
迦羅	-10.4248
能以	-10.4249
軟	-10.4253
為義	-10.4256
纔	-10.4257
之異	-10.4259
眾德	-10.4265
三品	-10.4269
到彼岸	-10.4273
十方佛	-10.4273
是非	-10.4274
法義	-10.4275
一品	-10.428
滅諦	-10.428
亦不得	-10.4282
金銀	-10.4284
不善業	-10.4285
幡	-10.4286
未來世	-10.4291
發意	-10.4291
無處	-10.4292
之有	-10.4294
諸趣	-10.43
因緣生	-10.43
阿僧祇劫	-10.43
如日	-10.4307
之用	-10.4311
至此	-10.4315
數息	-10.4316
虛妄分別	-10.4321
不轉	-10.4322
聖者	-10.4327
出體	-10.433
相分	-10.433
涅槃者	-10.4332
殺害	-10.4335
秋	-10.4345
能於	-10.435
悉令	-10.435
解脫者	-10.4354
化人	-10.4357
觀眾生	-10.4363
佛事	-10.4363
此說	-10.4365
同異	-10.4366
取證	-10.4375
或作	-10.4378
能成	-10.4381
利樂	-10.4387
是為入不二法門	-10.4397
釋成	-10.4398
踰	-10.4399
云何得	-10.4404
頂禮	-10.4404
壁	-10.4405
變異	-10.4405
與佛	-10.4406
如來所	-10.4407
娛樂	-10.4414
墮落	-10.442
熱惱	-10.4424
實語	-10.4426
與此	-10.4429
無疑	-10.4432
麻	-10.4444
不可盡	-10.4445
諸人	-10.4454
便生	-10.4459
彼此	-10.446
是無常	-10.4462
抑	-10.4463
眾行	-10.4464
我亦	-10.4467
斷諸	-10.4471
心意識	-10.4478
衣食	-10.4478
阿含	-10.4479
吾我	-10.4485
有七	-10.4488
我者	-10.4493
上文	-10.4493
𦦨	-10.4494
擾	-10.4496
庶	-10.45
實義	-10.4502
針	-10.4503
▁二明	-10.4503
富貴	-10.4508
藥師	-10.4508
亦以	-10.4509
作禮	-10.4515
三十六	-10.4517
十萬	-10.4523
禪師	-10.4525
風吹	-10.4525
何等為	-10.4525
降魔	-10.4526
即成	-10.4529
我所說	-10.4536
三十七品	-10.4536
錢	-10.4543
聞之	-10.4553
即非	-10.4555
觀佛	-10.4558
大千	-10.456
稻	-10.4565
文為二	-10.4566
有因	-10.4566
嫌	-10.4568
侍者	-10.4569
以是義故	-10.457
勝劣	-10.4573
外性非性	-10.4574
速疾	-10.4578
二人	-10.458
行也	-10.4586
不用	-10.4594
具云	-10.4595
證入	-10.4597
於諸眾生	-10.4597
盆	-10.4598
於餘	-10.4603
危	-10.4607
當為	-10.461
□□□	-10.4624
髻	-10.4627
淨信	-10.463
頓悟	-10.4631
律儀	-10.4639
休	-10.464
實智	-10.4643
為有	-10.4654
觀身	-10.4654
三世諸佛	-10.4656
今當	-10.4658
而為說法	-10.4663
三禪	-10.4665
毫	-10.4671
聞佛所說	-10.4674
皆不	-10.4674
穿	-10.4676
或現	-10.4677
五色	-10.4681
十八界	-10.4682
如文	-10.4684
空義	-10.4693
金光	-10.4695
鑒	-10.4695
十法	-10.4696
因也	-10.47
聞如是	-10.4702
佛世尊	-10.4702
雷	-10.4703
久住	-10.4703
九地	-10.4703
其事	-10.4706
後明	-10.4706
甲	-10.4707
心數	-10.4708
秪	-10.4708
凡有	-10.471
護念	-10.471
彼土	-10.4713
未知	-10.4713
箇	-10.472
滅者	-10.472
前白佛言	-10.4725
乃為	-10.4726
佛南無勝	-10.4727
何異	-10.4728
亦不可得	-10.4729
暴	-10.4733
澤	-10.4734
奉持	-10.4736
有無量	-10.4744
彼經	-10.4747
總名	-10.4749
哀愍	-10.4752
分三	-10.4756
實叉云	-10.4763
與諸	-10.4769
餘人	-10.4771
正等覺	-10.4775
女身	-10.4779
聚集	-10.478
謂彼	-10.4782
因中	-10.4788
四果	-10.4789
大慈悲	-10.479
畢竟空	-10.4792
5	-10.4793
是智	-10.4793
之與	-10.4797
現世	-10.4798
閑	-10.48
崇	-10.4808
慰喻	-10.4809
撿	-10.481
南無無量	-10.4814
惡心	-10.4818
如來身	-10.4822
業果	-10.4826
形像	-10.4828
又解	-10.483
最為	-10.4833
不可量	-10.4834
亦空	-10.4838
域	-10.4841
為諸	-10.4844
所持	-10.4845
賤	-10.4855
教授	-10.4857
即從座起	-10.4858
度生	-10.4863
有差別	-10.4865
來者	-10.4875
三昧樂	-10.4877
依他起	-10.4877
慚	-10.488
而取	-10.4883
瞻	-10.4885
道人	-10.489
觀者	-10.4891
句義	-10.4891
脈	-10.4894
形色	-10.4897
總別	-10.4897
巍巍	-10.4898
恃	-10.4899
若說	-10.49
一行	-10.4906
其本	-10.4906
五義	-10.4911
試	-10.4911
釋也	-10.4916
聞經	-10.4916
江	-10.4916
奇	-10.4918
箭	-10.4922
五通	-10.4923
若有善男子	-10.4924
無失	-10.4927
水中	-10.4931
魔王	-10.494
上明	-10.4943
通於	-10.4947
前說	-10.4947
猶未	-10.4947
愧	-10.4949
勤苦	-10.4956
能與	-10.4956
別明	-10.4958
業相	-10.4965
無所生	-10.4969
病苦	-10.4975
眠	-10.4978
非常非無常	-10.4979
雙非	-10.498
盖	-10.4987
今既	-10.4993
釋提桓因	-10.4994
此皆	-10.4996
摩羅	-10.5
莫能	-10.5004
各異	-10.5004
是曰智慧	-10.5005
數數	-10.5005
正報	-10.5006
肇公曰	-10.5008
隨心	-10.5022
瞿曇	-10.5023
來意	-10.5023
緩	-10.5027
無分別智	-10.503
左右	-10.5033
文三	-10.5034
作業	-10.5036
佛答	-10.5036
說偈	-10.5037
彼以聞慧或以天眼見	-10.5037
佛南無無邊	-10.5037
親友	-10.5039
狐疑	-10.5041
尋思	-10.5042
即真	-10.5043
善心	-10.5044
即當	-10.5046
體是	-10.5047
當以	-10.505
師子座	-10.5052
亦不能	-10.5057
抱	-10.5064
不觀	-10.5064
▁南无日	-10.5065
迎	-10.5067
我以	-10.5072
是曰布施	-10.5078
之見	-10.508
兩舌	-10.508
浪	-10.5081
頭陀	-10.5082
上中下	-10.5083
則以	-10.5085
深入	-10.5086
一一皆	-10.5087
升	-10.5089
開化	-10.509
人身	-10.5093
南無大	-10.5093
佛國土	-10.5099
!』	-10.5102
世尊告	-10.5103
法忍	-10.5112
釋之	-10.5113
奇特	-10.5113
作此	-10.5115
徵釋	-10.5119
抄	-10.5122
巳上	-10.5131
薰	-10.5131
所愛	-10.5133
善修	-10.5136
捉	-10.5137
妄分別	-10.514
天主	-10.514
墮地獄	-10.5141
八部	-10.5141
南無寶	-10.5141
隨時	-10.5142
於前	-10.5148
是三昧	-10.5148
斷德	-10.515
是曰精進	-10.515
若有人	-10.515
怨家	-10.5151
意生身	-10.5152
諸波羅蜜	-10.5156
就此	-10.5156
妙音	-10.5158
敵	-10.5158
山峯	-10.5162
天曰	-10.5165
為涅槃	-10.5168
是常	-10.5175
曼殊尸利	-10.5175
妄法	-10.5176
計我	-10.5178
考	-10.518
一體	-10.5182
為說法	-10.5182
悉是	-10.5186
是曰持戒	-10.5187
是曰一心	-10.5187
能壞	-10.5191
此初也	-10.5193
常以	-10.5196
鑛	-10.5199
其地	-10.5201
圖	-10.5204
所以然者	-10.5207
所趣	-10.5207
從彼	-10.5207
詐	-10.5214
動搖	-10.5217
世世	-10.5218
如是說	-10.5236
婬欲	-10.5239
言說妄想	-10.5239
淵	-10.524
亦皆	-10.524
作涅槃想	-10.5242
眾惡	-10.5242
其文	-10.5251
三障	-10.5252
受大苦惱	-10.5252
智德	-10.5253
智也	-10.5255
恒河沙	-10.5255
妙色	-10.5256
怛	-10.5261
扶	-10.5262
不能自	-10.5265
和尚	-10.5267
而此	-10.5267
惡口	-10.5267
耆	-10.5268
惡行	-10.5269
無有異	-10.5271
溺	-10.5276
也經言	-10.5278
有八	-10.528
八千	-10.5282
因相	-10.5286
不可得故	-10.5287
癡愛	-10.5302
鎧	-10.532
娑婆世界	-10.5323
二十四	-10.5324
佛慧	-10.5325
妙香	-10.5332
善住	-10.5333
是曰忍辱	-10.5334
無法	-10.5338
為諸眾生	-10.5344
經意	-10.5346
起行	-10.5347
諍訟	-10.5352
均	-10.5353
具有	-10.5357
莖	-10.5364
營	-10.5366
英	-10.5366
真珠	-10.5373
一切佛	-10.5378
釋義	-10.5379
身業	-10.5379
五力	-10.5383
悕望	-10.5385
狹	-10.5386
及諸菩薩	-10.5391
常念	-10.5395
所斷	-10.5397
何為	-10.5398
二事	-10.5398
健	-10.5401
無限	-10.5406
坐禪	-10.5407
觀此	-10.5408
隨逐	-10.541
山中	-10.5416
上品	-10.5416
知此	-10.5416
當生	-10.5419
助道	-10.5429
眾緣	-10.5429
智佛南無	-10.543
有緣	-10.543
晝	-10.5434
功德佛南無	-10.5438
不立	-10.5441
洞	-10.5448
成就眾生	-10.5454
弘誓	-10.5454
見諦	-10.5456
逸	-10.5467
芥子	-10.5468
困	-10.5469
士夫	-10.5475
彼云	-10.5475
大論云	-10.5481
無行	-10.5482
薩婆若	-10.5489
不肯	-10.5491
離自性	-10.5494
斷絕	-10.5495
故稱	-10.5496
書寫	-10.5505
▁初釋	-10.5506
率	-10.5507
妙吉祥	-10.5509
咎	-10.5511
經王	-10.5513
須知	-10.5515
▁南无淨	-10.5515
何謂為	-10.5516
地獄中	-10.552
所覆	-10.5522
毒蛇	-10.5522
緊那羅	-10.5523
起諸	-10.5526
真法	-10.5526
理事	-10.5527
無減	-10.5529
闡提	-10.5529
法華經	-10.553
言辭	-10.5531
非時	-10.5532
恭敬供養	-10.5534
攬	-10.5535
所入	-10.5535
如前所說	-10.5536
令諸眾生	-10.5536
為我說	-10.5539
擔	-10.5542
資糧	-10.5542
神呪	-10.5542
莊嚴佛	-10.5543
貌	-10.5545
光菩	-10.5545
故問	-10.5547
如火	-10.5549
偷盜	-10.5553
不應食肉	-10.5553
皆應	-10.5556
勤精進	-10.5558
三惡道	-10.5559
名言	-10.5559
於眾生	-10.5561
精勤	-10.5562
皆大歡喜	-10.5563
阿那含	-10.5564
亦滅	-10.5565
此五	-10.5569
所出	-10.5571
剋	-10.5576
眾魔	-10.5576
應時	-10.5579
踊	-10.5585
無方	-10.5587
上首	-10.5587
四土	-10.559
無主	-10.5592
門也	-10.5594
諸教	-10.5597
有法	-10.5601
九種	-10.5606
採	-10.5611
二門	-10.5613
天帝釋	-10.5615
六地	-10.5617
地水火風	-10.5618
▁南无無垢	-10.562
十惡	-10.5622
之間	-10.5625
是如來	-10.5626
爾時世尊告	-10.5626
分別說	-10.5626
現量	-10.5634
魏	-10.5637
聖賢	-10.5643
生生	-10.5646
城中	-10.5647
自在王佛	-10.5653
所須	-10.5657
無名	-10.5667
無有是處	-10.5667
是故我說	-10.5669
則生	-10.5676
永滅	-10.5677
勸修	-10.569
心即	-10.5692
武	-10.5694
令我	-10.5696
終教	-10.5696
百千萬億	-10.57
未生	-10.57
天神	-10.5714
所照	-10.5715
甞	-10.5717
諸菩薩等	-10.5719
包	-10.5721
中生	-10.5725
註云	-10.5728
之想	-10.5732
淨覺	-10.5733
說也	-10.5734
迦旃延	-10.5734
應有	-10.5735
諸師	-10.5739
象馬	-10.574
稱為	-10.574
生也	-10.5748
漂	-10.575
勝法	-10.5753
眾生心	-10.5754
如是知	-10.5755
遠離諸	-10.5755
於未來世	-10.5756
等事	-10.5758
了別	-10.5764
歸於	-10.5772
無動	-10.5774
陵	-10.5776
說為	-10.5778
那由他	-10.5779
寤	-10.578
絕待	-10.5783
殘	-10.5788
過故	-10.5788
至誠	-10.5788
有二義	-10.579
論師	-10.5791
峯	-10.5794
問也	-10.5795
無等	-10.5796
不過	-10.5796
我人	-10.5798
不亂	-10.58
而立	-10.5806
▁五	-10.5807
歡	-10.5807
當作	-10.5808
諸緣	-10.5808
煙	-10.5813
五逆	-10.5813
之旨	-10.5818
得度	-10.5818
聽聞	-10.582
疏二	-10.5827
正宗	-10.5828
停	-10.5829
什公	-10.5832
則得	-10.5834
口業	-10.5834
無眾生	-10.5841
香氣	-10.5842
出家者	-10.5848
菩薩白佛言	-10.5848
以智慧	-10.5849
今約	-10.585
舊云	-10.5852
一部	-10.5856
眾鳥	-10.5857
約教	-10.5862
何能	-10.5865
7	-10.5867
然彼	-10.5881
是空	-10.5887
性自性相	-10.5889
能行	-10.5889
總標	-10.589
工	-10.589
誨	-10.5891
披	-10.5892
德本	-10.5894
與之	-10.5895
業識	-10.5895
皆因	-10.5898
柔	-10.5899
獨覺	-10.5901
有說	-10.5902
雖是	-10.5904
不明	-10.5904
秦	-10.5904
聰明	-10.5907
雖行	-10.5907
尸羅	-10.5911
非作	-10.5911
無差	-10.5914
別名	-10.5915
鬪	-10.5915
威德佛	-10.5922
即入	-10.5925
篇	-10.5925
而作是言	-10.5926
如今	-10.5927
亦復然	-10.5931
羅網	-10.5931
休息	-10.5934
生相	-10.5935
此初	-10.594
轉依	-10.5942
食之	-10.5944
無病	-10.5946
多所	-10.5947
謙	-10.5949
精舍	-10.5951
能解	-10.5956
依法	-10.5963
之病	-10.5964
因者	-10.5964
體用	-10.5967
煖	-10.5967
羣	-10.5967
屋	-10.5971
然燈	-10.5975
為令	-10.5976
述曰	-10.5981
之苦	-10.5983
竹	-10.5989
結示	-10.5992
地上	-10.5992
子曰	-10.5997
不但	-10.6001
在前	-10.6002
忉利天	-10.6004
三摩鉢提	-10.6004
宴坐	-10.6005
此為	-10.6005
願力	-10.6006
發生	-10.6006
從初	-10.601
勒	-10.6011
能捨	-10.6012
諸菩薩眾	-10.6012
無起	-10.6015
復為	-10.6017
是故大慧	-10.6017
普遍	-10.6017
外法	-10.602
賜	-10.6021
諸禪	-10.6021
一事	-10.6022
頗梨	-10.6022
無數劫	-10.6025
丈六	-10.6029
但約	-10.603
了因	-10.6033
或言	-10.6035
游	-10.6036
稱歎	-10.6037
如下	-10.604
覺想	-10.6041
知法	-10.6045
你	-10.6046
觀智	-10.6048
憍	-10.6049
空性	-10.605
產	-10.6052
非唯	-10.6052
藥叉	-10.6056
王如來南無	-10.6057
湛然	-10.6057
不別	-10.6062
總相	-10.6063
輕安	-10.6063
唯說	-10.6064
此即初也	-10.6069
未甞	-10.6071
必定	-10.6076
佛之	-10.6078
▁南无香	-10.608
辨才	-10.6082
佉	-10.6087
能發	-10.6091
淚	-10.6094
能離	-10.6095
無生法忍	-10.6097
若使	-10.6097
行故	-10.6102
穢土	-10.6104
無罪	-10.611
利鈍	-10.6113
修羅	-10.6113
詰	-10.6115
不合	-10.6116
千歲	-10.6118
寬	-10.6125
行佛	-10.6126
西域	-10.6127
不實妄想	-10.6128
佛界	-10.613
今者	-10.6131
髓	-10.6131
怨賊	-10.6131
恥	-10.6133
彼等	-10.6134
功能	-10.6134
大城	-10.6141
彼時	-10.615
那羅延	-10.6154
顯理	-10.6162
祭	-10.6164
造業	-10.6168
與其	-10.6168
鏡像	-10.617
不息	-10.6174
為求	-10.6179
如來說	-10.6179
通名	-10.6179
為種	-10.6183
所由	-10.6186
即滅	-10.6188
於後	-10.6189
而後	-10.619
有佛	-10.619
至于	-10.619
聚佛	-10.6197
悉得	-10.6198
異於	-10.6199
虗偽	-10.62
為真	-10.6201
如來應供等正覺	-10.6203
上根	-10.6206
無際	-10.621
如是之人	-10.6214
截	-10.6215
遍計	-10.6216
六十二見	-10.6221
植	-10.6225
而常	-10.6234
▁○	-10.6238
皆具	-10.6242
出生死	-10.6245
所樂	-10.6247
玄義	-10.6251
問訊	-10.6253
應當修學	-10.6256
伸	-10.6258
染法	-10.626
因生	-10.6262
此非	-10.6264
中有二	-10.6268
之功	-10.6269
其國	-10.6271
悉知	-10.6271
未見	-10.6275
入不二法門	-10.6276
發明	-10.6279
湯	-10.628
請佛	-10.628
初總	-10.6282
而不能	-10.6284
佛弟子	-10.6285
之宗	-10.6285
繞	-10.6288
佛南無智	-10.6289
殖	-10.629
大鈔云	-10.629
一偈	-10.6291
騰	-10.6292
趣向	-10.6293
紅	-10.6295
乃得	-10.6298
自謂	-10.6301
復說	-10.6302
位中	-10.6306
法說	-10.6306
亦名為	-10.6311
難思	-10.6312
本迹	-10.6313
令知	-10.6314
無益	-10.6314
所計	-10.6316
五塵	-10.632
不相違	-10.6324
憑	-10.6325
不盡有為	-10.6325
龍樹	-10.6325
餘處	-10.6326
止息	-10.6334
受報	-10.6337
善巧方便	-10.634
離此	-10.6344
別說	-10.6349
禮敬	-10.6352
執有	-10.6353
由前	-10.6357
輕重	-10.6357
頗	-10.6359
法爾	-10.6365
盈	-10.6366
金剛藏	-10.6367
即生	-10.6368
俱胝	-10.6375
遠離一切	-10.6378
涅槃經	-10.6381
諂	-10.6381
補處	-10.6384
果也	-10.6392
佛南無普	-10.6398
不曾	-10.6402
孰	-10.6402
隨其所	-10.6406
道諦	-10.641
初正明	-10.641
事故	-10.6411
囊	-10.6413
何者為	-10.6413
又以	-10.6414
似有	-10.6415
心體	-10.6415
能了	-10.6416
自念	-10.6416
不顛倒	-10.6418
體也	-10.6419
村	-10.6419
雖不	-10.6423
裂	-10.6426
心相	-10.6431
便有	-10.6432
利益眾生	-10.644
內身	-10.6444
證涅槃	-10.6445
卷云	-10.6447
悉見	-10.6447
相生	-10.6449
後有	-10.645
聾	-10.6455
早	-10.6455
無過	-10.6459
廣如	-10.646
深妙	-10.646
隨宜	-10.6462
諸佛法	-10.6462
覓	-10.6465
疾得	-10.6468
今時	-10.6469
百劫	-10.6477
作種種	-10.6481
▁南无無	-10.6484
之患	-10.6484
華佛	-10.6485
自說	-10.6486
深淺	-10.6486
惜	-10.649
優	-10.6497
佛南無師子	-10.6499
施主	-10.6502
之辭	-10.6506
奴	-10.6507
世界名	-10.6508
國中	-10.651
周匝	-10.6511
有種種	-10.6514
故成	-10.6518
俱舍	-10.6518
大德須菩提	-10.6519
惱亂	-10.6522
是何	-10.6524
種善根	-10.6529
四等	-10.6535
無所住	-10.6536
得無生忍	-10.6539
性淨	-10.654
眾生故	-10.6547
愚夫妄想	-10.6547
實非	-10.6547
自生	-10.6553
作諸	-10.6554
無物	-10.6558
權智	-10.6562
猶是	-10.6565
也然	-10.6567
稱性	-10.6569
空空	-10.6569
在此	-10.6571
五眼	-10.6574
現相	-10.6579
推求	-10.6579
與我	-10.658
如實修行	-10.658
經者	-10.6581
見諸	-10.6584
荷	-10.6584
皆非	-10.6585
之子	-10.6589
冠	-10.6591
不住無為	-10.6592
恩愛	-10.6601
別異	-10.6602
其福	-10.6602
諸大菩薩	-10.6602
自業	-10.6603
宰	-10.6614
圓照	-10.6616
今欲	-10.6619
豎	-10.662
二十一	-10.662
苦集	-10.6621
二別	-10.6621
有生滅	-10.6623
護國	-10.6624
願佛	-10.6624
倚	-10.6626
盧舍那	-10.6626
溫	-10.6631
性也	-10.6631
門者	-10.6632
諸欲	-10.6633
異生	-10.6638
此喻	-10.6641
之語	-10.6643
求佛	-10.6644
是故名為	-10.6651
定性	-10.6651
異故	-10.6655
偈頌	-10.6656
疾病	-10.6657
寶莊嚴	-10.6659
欲知	-10.6662
法華云	-10.6662
難陀	-10.6664
校	-10.6667
釋迦牟尼	-10.667
無此	-10.6671
逼迫	-10.6673
是等	-10.6681
童	-10.6684
下約	-10.6684
堪任	-10.6687
二地	-10.6687
用之	-10.6688
深廣	-10.669
隨入	-10.6691
音樂	-10.6694
中初	-10.6696
海水	-10.6701
滋	-10.6701
對曰	-10.6702
丘	-10.6703
諦聽諦聽	-10.6704
又言	-10.6705
映	-10.6708
照明	-10.671
廟	-10.6712
妄想生	-10.6713
愛著	-10.6713
筋	-10.6715
作是思惟	-10.6719
二問	-10.6719
四智	-10.672
何由	-10.6725
所可	-10.6727
生疑	-10.6728
一切悉	-10.6729
如金	-10.6731
道也	-10.6738
正使	-10.6742
初分科	-10.6751
主宰	-10.6751
大疏	-10.6752
何緣	-10.6755
。』」	-10.6755
令心	-10.6757
俱是	-10.6757
思之	-10.6758
一音	-10.6762
月光	-10.6764
則成	-10.6768
於世	-10.6768
宗通	-10.6769
全體	-10.6776
上句	-10.6777
生佛	-10.6778
於三界	-10.6784
可取	-10.6787
競	-10.6788
策	-10.6791
若心	-10.6792
兄弟	-10.6793
不愛	-10.6795
翅	-10.6798
側	-10.68
彼論	-10.6801
后	-10.6802
菩提涅槃	-10.6814
賴耶	-10.6815
一佛	-10.6818
為證	-10.682
集諦	-10.682
非色	-10.6823
以上	-10.6828
自得	-10.6829
之位	-10.683
弗	-10.6831
伊	-10.6831
香華	-10.6832
以偈	-10.6832
是無	-10.6833
舒	-10.6834
二百	-10.6835
中云	-10.6837
豆	-10.6837
送	-10.6841
善說	-10.6842
黨	-10.6844
無情	-10.6845
新說云	-10.6846
罪業	-10.685
心起	-10.685
6	-10.6854
成立	-10.6855
佛陀	-10.6855
憙	-10.6858
所能	-10.6859
差別相	-10.6859
等故	-10.686
自在王佛南無	-10.6864
墮於地獄	-10.6867
莊	-10.6872
井	-10.6873
眾生界	-10.6873
為四	-10.6873
四分	-10.6874
海中	-10.6875
無受	-10.6875
異也	-10.6876
三門	-10.688
麥	-10.6882
既知	-10.6882
大意	-10.6883
焦	-10.6885
動轉	-10.6886
曼殊室利	-10.6888
不可言	-10.689
首楞嚴三昧	-10.6893
大苦	-10.6895
一千	-10.6904
此上	-10.6905
與眾生	-10.6907
如月	-10.6911
諸方	-10.6912
何須	-10.6915
釋論	-10.6916
七十	-10.6917
是有	-10.692
癡人	-10.6923
繫念	-10.6924
淨行	-10.6924
麗	-10.6926
餘三	-10.6928
佛乘	-10.693
寂照	-10.693
如實了知	-10.6935
腦	-10.6935
廣博	-10.6939
此一	-10.6941
3	-10.6941
令諸	-10.6943
復於	-10.6943
或在	-10.6948
正顯	-10.6952
二身	-10.6954
雜色	-10.6954
緣故	-10.6956
財施	-10.6964
涌	-10.6965
不通	-10.6965
六處	-10.6969
一生補處	-10.697
疏中	-10.6971
幸	-10.6972
灌	-10.6974
正理	-10.6981
十千	-10.6981
五無間	-10.6981
變現	-10.6982
貢高	-10.6982
生彼	-10.6985
若能如是	-10.6992
辟支佛南無	-10.6994
我已	-10.6995
承事	-10.6999
悔過	-10.7006
一切境界	-10.7008
三藐三佛陀	-10.7009
於心	-10.701
頻	-10.701
佛菩提	-10.7011
即法身	-10.7011
二十八	-10.7012
之別	-10.7014
朽	-10.7015
非人	-10.7019
諂曲	-10.702
其數	-10.7023
斫	-10.7023
之眾	-10.7023
以神力	-10.7024
4	-10.7027
殊妙	-10.7033
以釋	-10.7033
算	-10.7036
更相	-10.7042
隨類	-10.7044
眼見	-10.7047
斷疑	-10.7049
初正釋	-10.7049
侶	-10.7057
育	-10.7058
之一	-10.7063
遍照	-10.7064
見一切法	-10.7065
汁	-10.7067
無功用	-10.7068
應是	-10.707
世尊說	-10.7073
為之	-10.7078
自性清淨	-10.7079
魏譯云	-10.7083
唯除	-10.7084
婆沙	-10.7086
相貌	-10.7088
巳下	-10.7089
前世	-10.7089
如是名為	-10.709
薄伽梵	-10.709
眾香	-10.7092
相隨	-10.7097
示其	-10.7099
可謂	-10.7103
圭峯	-10.7105
天竺	-10.7106
為佛	-10.7107
纏縛	-10.7108
孔雀	-10.7109
其光	-10.711
離幻	-10.7111
諸善	-10.7114
眾善	-10.7114
作是言	-10.7115
雖知	-10.7118
可畏	-10.7118
自作	-10.7124
放光明	-10.7125
現識	-10.7125
結使	-10.7125
攝一切	-10.7128
妙吉祥菩薩	-10.7138
唯然受教	-10.7142
斯經	-10.7143
勉	-10.7146
法本	-10.7148
女言	-10.715
得受記	-10.7151
擲	-10.7153
膝	-10.7155
化物	-10.7157
性德	-10.7158
受諸	-10.7162
令眾生	-10.7169
但言	-10.7173
諸苾芻	-10.7174
惠施	-10.7175
療	-10.7179
尊貴	-10.718
諸佛所	-10.7181
解了	-10.7183
帝王	-10.7188
探	-10.7188
山頂	-10.7195
藏通	-10.7195
高廣	-10.7197
作所作	-10.7199
惑業	-10.7199
遊戲受樂	-10.7201
剎利	-10.7208
恭	-10.721
諸論	-10.7213
為法	-10.7213
眼佛南無	-10.7214
不欲	-10.7214
生死之	-10.7216
心生歡喜	-10.7216
大同	-10.7221
沒生	-10.7225
無取	-10.7226
作惡	-10.7233
應作	-10.7235
大菩提	-10.7241
人見	-10.7243
報佛	-10.7246
諸陰	-10.7246
皆如	-10.7249
婇女	-10.7249
具三	-10.7254
以諸	-10.7258
四明聰講師	-10.726
故先	-10.7263
師云	-10.7265
願我	-10.7268
初示	-10.7272
作是說	-10.7275
終無	-10.7277
掉	-10.7278
優波離	-10.7279
瑞	-10.7293
九界	-10.7294
終不能	-10.73
劍	-10.73
所欲	-10.7306
安置	-10.7306
誰能	-10.7307
中尊	-10.7308
為道	-10.7316
福慧	-10.7317
菩薩道	-10.7318
是故如來	-10.7318
從於	-10.7319
圍	-10.732
為樂	-10.7321
晉	-10.7324
隨眠	-10.7324
政	-10.7324
了了	-10.7326
貪恚癡	-10.7328
黎	-10.733
除去	-10.7333
智佛	-10.7333
若其	-10.7338
能使	-10.7339
既爾	-10.7341
此理	-10.7342
商主	-10.7342
手執	-10.7346
中之	-10.735
行菩薩	-10.735
本具	-10.7351
藥王	-10.7351
臥具	-10.7356
邪道	-10.7359
解者	-10.7363
成一	-10.7363
曹	-10.7365
生厭離	-10.7366
疲	-10.7367
亦復不	-10.7368
枝葉	-10.7368
菩薩亦爾	-10.7368
爪	-10.7372
又此	-10.7374
厄	-10.7379
久遠	-10.738
末那	-10.7381
永無	-10.7382
世界中	-10.7387
變為	-10.739
被呵	-10.7391
如幻化	-10.7392
諸物	-10.7393
生空	-10.7397
所覺	-10.7397
有時	-10.7398
怯弱	-10.7401
不可計	-10.7402
佛像	-10.7402
有兩	-10.7403
一切處	-10.7403
孝順	-10.7405
測	-10.7405
優劣	-10.7409
一切時	-10.741
如水中月	-10.7412
下句	-10.7414
眉	-10.7415
彼國	-10.7417
五體投地	-10.7418
折伏	-10.7418
忿	-10.742
結云	-10.7421
損減	-10.7425
惡法	-10.7427
。」《	-10.7428
為淨	-10.743
內證	-10.7431
三相	-10.7432
8	-10.7433
閻浮	-10.7435
空室	-10.7436
無有生	-10.7439
何時	-10.744
權教	-10.7442
而以	-10.7442
則墮	-10.7443
意生	-10.7443
法合	-10.7446
佛種	-10.7448
奔	-10.7465
雄	-10.7469
僧伽	-10.7469
然而	-10.7473
序分	-10.7476
一經	-10.7478
見分	-10.7485
修因	-10.7488
形處	-10.7493
頂上	-10.7494
能造	-10.7499
如是種種	-10.7499
▁初約	-10.7499
之聲	-10.7504
父王	-10.7505
余	-10.751
妬	-10.7512
叉手	-10.7512
見色	-10.7512
射	-10.7515
震動	-10.7517
頌云	-10.752
灑	-10.7521
智度	-10.7522
雖然	-10.7526
不犯	-10.7531
救濟	-10.7531
百千萬	-10.7535
輔	-10.7536
五事	-10.7539
今我	-10.7542
空慧	-10.7547
之殊	-10.7548
能緣	-10.7549
史	-10.755
大經云	-10.7551
下次	-10.7551
第八識	-10.7552
如是法	-10.7556
光嚴	-10.7556
香象	-10.7559
徧滿	-10.7566
是則名為	-10.7569
衰惱	-10.7569
何用	-10.757
愚者	-10.757
覺支	-10.7572
業故	-10.7572
初果	-10.7574
久近	-10.7577
證真	-10.7578
禮佛	-10.7588
因是	-10.7599
酪	-10.7603
佛復告	-10.7604
二示	-10.7604
胸	-10.7611
非如	-10.7612
菩薩藏	-10.7617
分析	-10.7618
先明	-10.762
得樂	-10.7621
若生人中	-10.7625
而受	-10.7625
本是	-10.7628
犯戒	-10.7629
所治	-10.7637
彼則	-10.7637
忘失	-10.7641
弓	-10.7642
顏	-10.7643
還復	-10.7644
寫	-10.765
便為	-10.7652
三土	-10.7657
三解脫	-10.7661
空假	-10.7662
正教	-10.7663
則無有	-10.7666
令住	-10.7676
以為莊嚴	-10.7676
勝義諦	-10.7679
身佛	-10.7679
天龍	-10.7683
而可	-10.7684
不還	-10.7685
口中	-10.7686
或謂	-10.7689
於一切眾生	-10.769
對待	-10.7691
豪	-10.7691
世法	-10.7693
而求	-10.7695
自通	-10.7695
欲使	-10.7696
竊	-10.7696
業道	-10.7697
壯	-10.7698
嬰兒	-10.7698
觀成	-10.7698
疊	-10.7699
妙智	-10.7703
不覺知	-10.7708
寶華	-10.771
離心	-10.7713
兄	-10.7715
如說	-10.7716
能照	-10.7719
地大	-10.772
為勝	-10.7724
復能	-10.7725
善利	-10.773
一切大眾	-10.773
四十九	-10.7731
三百	-10.7732
終日	-10.7732
假說	-10.7733
見非	-10.7735
彩	-10.7736
六師	-10.7745
瞋恨	-10.7753
山林	-10.7753
開敷	-10.7757
得無	-10.7765
不容	-10.7766
千由旬	-10.7767
持此	-10.7772
斯陀含	-10.7773
小兒	-10.7773
▁次	-10.7773
外道說	-10.7779
若論	-10.7779
是大	-10.7781
後生	-10.7783
一切世界	-10.7783
忻	-10.7783
逈	-10.7784
龜	-10.7784
占	-10.7789
體空	-10.7791
尚不	-10.7792
姊	-10.7792
四陰	-10.7794
即見	-10.7798
地神	-10.7799
心外	-10.78
一切善法	-10.7803
饒	-10.7803
此第二	-10.7804
見相	-10.781
而作佛事	-10.7811
正思惟	-10.7811
巳得	-10.7812
所施	-10.7819
品中	-10.7825
權疾	-10.7827
雪	-10.7829
併	-10.7832
六事	-10.7833
僧寶	-10.7836
怯	-10.7838
拔苦	-10.7838
故經云	-10.7839
幻滅	-10.7839
筆	-10.784
槃	-10.7841
陀羅尼門	-10.7843
天魔	-10.7843
若諸眾生	-10.7844
行願	-10.7849
而不知	-10.7855
見如來	-10.7855
若行	-10.7855
是故菩薩	-10.7856
淨佛國土	-10.7857
合掌恭敬	-10.786
一義	-10.7862
業果報	-10.7864
千萬	-10.7865
不許	-10.7865
雙照	-10.7867
紫	-10.7871
若生	-10.7875
教人	-10.7876
如次	-10.7876
▁初標	-10.7876
能覺	-10.7877
▁南无梵	-10.7878
善得	-10.788
驅	-10.7884
眼根	-10.7889
刻	-10.7891
臭穢	-10.7897
戒行	-10.7897
能治	-10.7898
生長	-10.7898
識藏	-10.7899
令生	-10.79
苦果	-10.79
非因	-10.7901
以大悲	-10.7902
有作	-10.7906
滅定	-10.7906
教門	-10.7908
華嚴經	-10.7909
或因	-10.791
險	-10.7918
隨彼	-10.7921
斷一切	-10.7922
無厭足	-10.7922
百八	-10.7922
儞	-10.7923
前明	-10.7924
普眼	-10.7924
篋	-10.7928
辛	-10.7928
正論	-10.7931
如風	-10.7938
五品	-10.7945
而言之	-10.7946
彼比丘	-10.7947
三昧正受	-10.7949
是法身	-10.7949
豈能	-10.7952
根本無明	-10.7956
華香	-10.7956
爾乃	-10.7956
無常者	-10.7957
由於	-10.7958
壞者	-10.7967
之色	-10.7969
心懷	-10.7969
義理	-10.797
乃可	-10.7974
慎	-10.7978
婆伽婆	-10.7978
雞	-10.7981
諸過	-10.7982
三十七	-10.7983
善來	-10.7984
威佛	-10.7985
恒常	-10.7986
妄想計著	-10.7987
未嘗	-10.7991
永不	-10.7994
付囑	-10.7994
於其中	-10.7996
兜率	-10.8006
雖現	-10.8009
淨妙	-10.8009
眾色	-10.801
而坐	-10.8012
坑	-10.8012
飯食	-10.8017
耀	-10.8022
是即	-10.8022
出現於世	-10.8024
常寂	-10.8024
皇	-10.8024
羅睺	-10.8027
飽	-10.8029
鄉	-10.8029
百年	-10.8029
寶珠	-10.8031
非身	-10.8031
所歸	-10.8033
正意	-10.8034
蜂	-10.8034
揭	-10.8035
初生	-10.8035
四病	-10.8037
而說頌曰	-10.8042
斯等	-10.8044
一切眾	-10.8046
不以為	-10.805
一門	-10.8054
又為二初	-10.8055
佛意	-10.8056
三識	-10.8057
二觀	-10.8059
外有	-10.806
不厭	-10.8064
為佛事	-10.8067
常當	-10.8069
未必	-10.8071
研	-10.8071
紛	-10.8075
爭	-10.8076
謀	-10.8076
誑惑	-10.8077
克	-10.8078
烟	-10.8078
房	-10.808
於大眾中	-10.808
即假	-10.8081
捐	-10.8083
釋梵	-10.8083
拏	-10.8086
燈明	-10.8086
圓覺性	-10.8096
三名	-10.8096
諸凡夫	-10.8098
長夜	-10.81
出三界	-10.8102
如鏡	-10.8104
生天上	-10.8105
融通	-10.8109
普現	-10.8115
此語	-10.8117
燃	-10.8118
真實義	-10.8119
舟	-10.8121
又彼	-10.8122
聞名	-10.8123
常有	-10.8125
涅槃云	-10.8125
若非	-10.8126
求那	-10.8126
虛偽	-10.8127
荒	-10.8129
遠近	-10.8131
而實	-10.8133
焚燒	-10.8134
梵天言	-10.8134
妄想者	-10.8136
四緣	-10.8139
室內	-10.814
以喻	-10.814
身壞命終	-10.8141
六句	-10.8142
講說	-10.8142
歡喜踊躍	-10.8144
亦通	-10.8144
餘經	-10.8147
嬈	-10.8149
作大	-10.8151
五趣	-10.8154
下品	-10.8157
善財	-10.8162
喻如	-10.8163
尤	-10.817
弟子等	-10.8173
紙	-10.8175
大悲世尊	-10.8176
下生	-10.8179
遶	-10.8183
不分	-10.8186
此室	-10.8187
之義也	-10.8189
劫數	-10.8194
離念	-10.8196
深信	-10.8196
二從	-10.8196
四時	-10.8201
▁南无蓮花	-10.8202
萬二千	-10.8207
無障	-10.8207
彼諸菩薩	-10.8208
彼彼	-10.8208
如其	-10.8209
見故	-10.8211
四生	-10.8214
等諸	-10.8214
以理	-10.8215
見聞覺知	-10.8224
神通力	-10.8225
用此	-10.8226
壇	-10.8226
見法	-10.8227
若諸有情	-10.8228
歌舞	-10.8229
為難	-10.823
巖	-10.8231
大乘法	-10.8232
五時	-10.8233
文殊問	-10.8234
諸天人	-10.8234
所因	-10.8235
於涅槃	-10.8236
功德如來南無	-10.8238
▁南无華	-10.824
行施	-10.8242
他心	-10.8244
所感	-10.8246
彼宗	-10.8252
四聖諦	-10.8259
等心	-10.8259
三重	-10.826
刼	-10.8261
世親	-10.8262
慧菩	-10.8269
威光	-10.8269
意根	-10.8269
正為	-10.8269
兔	-10.827
勝行	-10.8272
眾相	-10.8273
醍醐	-10.828
是名菩薩摩訶薩	-10.8283
生信	-10.8284
其德	-10.8285
多人	-10.8295
丈	-10.8296
必當	-10.8297
由斯	-10.8299
猶如虗空	-10.83
池中	-10.8301
示行	-10.8301
醜	-10.8305
有諸	-10.8308
汎	-10.8314
正解	-10.8314
猗	-10.8316
大富	-10.8317
嘉	-10.8319
撥	-10.832
受身	-10.8321
獻	-10.8321
聞慧	-10.8322
後結	-10.8322
義同	-10.8323
佛告文殊師利	-10.8325
無事	-10.8326
一實	-10.8328
已來	-10.8328
四魔	-10.833
死屍	-10.833
右膝著地	-10.8332
摩睺羅伽	-10.8332
為主	-10.8333
顯說	-10.8334
不由	-10.8342
既得	-10.8343
四義	-10.8345
無說	-10.8352
身分	-10.8353
顯真	-10.8355
逝	-10.8356
福報	-10.8357
三萬二千	-10.8358
什	-10.8359
愛心	-10.8359
值佛	-10.836
▁南无虛空	-10.8363
數量	-10.8364
不善法	-10.8364
二行	-10.8366
若入	-10.8367
遲	-10.8369
之慧	-10.8369
靡不	-10.8369
滅也	-10.8371
不懷	-10.8373
諸色	-10.8374
謂是	-10.8374
見是	-10.8374
文為三	-10.8374
供養諸佛	-10.8375
一問	-10.8379
謂諸菩薩	-10.838
見於	-10.8382
道果	-10.8383
不順	-10.8383
實報	-10.8384
為喻	-10.8384
餘皆	-10.8386
智度論	-10.8389
二十七	-10.8391
呪術	-10.8391
孫	-10.8398
恒河	-10.8399
為所	-10.8404
願為	-10.8408
此智	-10.8408
不盜	-10.8409
不計	-10.8409
取其	-10.8409
此以	-10.8411
佛一百	-10.8419
老病死	-10.8421
及其	-10.8422
對法	-10.8426
說一乘	-10.8428
踊躍	-10.8428
教他	-10.8429
調御	-10.8432
通釋	-10.8432
偏真	-10.8435
拜	-10.8436
八解脫	-10.8437
所集	-10.8446
勸助	-10.8447
是故說	-10.8447
之大	-10.8448
阿賴耶識	-10.8448
悉為	-10.8451
王曰	-10.8451
圓成實	-10.8454
欲顯	-10.8456
也次	-10.8457
名大	-10.8462
皆言	-10.8464
得成就	-10.8465
各自	-10.8468
百由旬	-10.8468
虧	-10.8471
冀	-10.8472
而論	-10.8474
循	-10.8475
婆羅	-10.8477
本不生	-10.8478
若有菩薩	-10.8478
山曰	-10.8478
楞伽王	-10.8478
在彼	-10.8479
深遠	-10.848
同事	-10.8481
寸	-10.8481
無生無滅	-10.8482
正當	-10.8483
涼	-10.8483
綺語	-10.8485
冤	-10.8485
善見	-10.8486
為王	-10.8486
報障	-10.8487
空理	-10.8488
世間法	-10.849
之具	-10.8495
二喻	-10.8495
滅時	-10.8503
通明	-10.8506
大用	-10.8509
湛	-10.8509
天中天	-10.8512
不證	-10.8513
外緣	-10.8514
諍論	-10.8515
有幾	-10.8516
此謂	-10.8517
冰	-10.8519
當觀	-10.8525
感應	-10.8527
十法界	-10.853
緣因	-10.8531
比丘僧	-10.8532
教中	-10.8533
無滯	-10.8536
五法自性	-10.8536
前五	-10.8544
不殊	-10.8547
意佛南無	-10.8557
畢竟無	-10.8558
諸善根	-10.856
黠慧	-10.856
種種異	-10.856
行善	-10.8561
有如是	-10.8562
雖殊	-10.8562
時眾	-10.8562
以是故	-10.8564
此識	-10.8565
步佛南無	-10.8567
勝利	-10.8568
猶若	-10.8571
之要	-10.8572
與人	-10.8579
耽	-10.858
何故不	-10.8582
長跪叉手	-10.8582
南無善	-10.8583
之機	-10.8584
未悟	-10.8584
自下第三	-10.8585
眾生來生其國	-10.8585
諷誦	-10.8586
彼有	-10.8588
閻魔羅人	-10.859
如華嚴	-10.8594
於色	-10.8595
種種色	-10.8596
唎	-10.8596
堅牢	-10.8597
破無明	-10.8598
摩尼珠	-10.8599
意趣	-10.8601
摧伏	-10.8603
色陰	-10.8606
六情	-10.8609
結勸	-10.8609
從佛	-10.8612
所著	-10.8612
識滅	-10.8613
約理	-10.8613
滅罪	-10.8615
為佛作禮	-10.8617
微塵數	-10.8617
定者	-10.8617
知之	-10.8618
富樓那	-10.8621
賴	-10.8621
是苦	-10.8622
莊嚴佛南無	-10.8622
賓	-10.8623
等皆	-10.8623
所云	-10.8624
憂苦	-10.8624
二正	-10.8624
經法	-10.8624
津	-10.8625
之流	-10.8627
練	-10.8628
祈	-10.8629
將欲	-10.8631
未至	-10.8631
右手	-10.8632
自在力	-10.8634
卷第三	-10.8635
審諦	-10.8636
奴婢	-10.8638
假觀	-10.864
但見	-10.8644
首楞嚴	-10.8645
比丘𡰱	-10.8649
娑羅	-10.8651
伽陀	-10.8654
箋	-10.8656
幢幡	-10.8656
者何	-10.8659
二十二	-10.8662
食者	-10.8664
大會	-10.8665
訛	-10.8665
乃以	-10.8667
道行	-10.8669
佛南無無垢	-10.867
衛	-10.867
乃有	-10.8676
不攝	-10.8678
弄	-10.8678
卷第四	-10.8679
令入	-10.8681
壞滅	-10.8681
之內	-10.8681
言我	-10.8685
對於	-10.8685
明淨	-10.8687
縣	-10.8691
度人	-10.8691
若我	-10.8692
安慰	-10.8693
檀波羅蜜	-10.8693
五分	-10.8694
若了	-10.8696
欺誑	-10.8697
開合	-10.8697
盡滅	-10.8698
就中	-10.8698
沙彌	-10.87
阿賴耶	-10.8701
於身	-10.8703
得不退轉	-10.8704
我不	-10.8705
五濁	-10.8708
悅樂	-10.8711
離四句	-10.8712
四攝	-10.8712
證者	-10.8713
胎藏	-10.8713
種種莊嚴	-10.8713
智論	-10.872
徧計	-10.8722
有多	-10.8724
此處	-10.8725
中觀	-10.8727
月佛南無	-10.8727
於自	-10.873
道德	-10.8731
示之	-10.8732
牢	-10.8733
二分	-10.8733
浴	-10.8734
眼等	-10.8736
曇	-10.8739
迦樓羅	-10.874
袈裟	-10.8742
怨敵	-10.8742
一切眾生皆	-10.8744
妄生	-10.8745
四重	-10.8746
觀音	-10.8747
離妄想	-10.8747
雪山	-10.8749
水月	-10.8749
雅	-10.8753
除諸	-10.8753
應受	-10.8757
生老病死	-10.8758
至靜	-10.8763
後時	-10.8763
修福	-10.8767
始教	-10.8771
汝見	-10.8772
不遠	-10.8772
德佛南無	-10.8774
為五	-10.8775
其子	-10.8779
渠	-10.8782
離言	-10.8783
如來地	-10.8784
拙	-10.8784
悞	-10.8785
樂著	-10.8785
中有三	-10.8786
刑	-10.879
諦理	-10.8794
次云	-10.8794
能轉	-10.8795
下中上	-10.8795
吞	-10.8795
輸	-10.8798
疏文	-10.8806
說此經	-10.8816
在世	-10.8817
雖說	-10.8818
能修	-10.8823
尋伺	-10.8823
然其	-10.8829
菩薩住	-10.883
速得	-10.8833
為得	-10.8836
不礙	-10.8837
千佛	-10.8837
百萬	-10.8837
猶如虛空	-10.8838
傾	-10.8839
說名為	-10.884
不正	-10.8841
不聽	-10.8842
無有差別	-10.8844
牛角	-10.8845
與前	-10.8845
之報	-10.8846
為此	-10.8846
以智	-10.8847
今且	-10.8848
一剎那	-10.8848
經行	-10.8849
放大光明	-10.885
微笑	-10.8853
內有	-10.8853
意同	-10.8854
善思	-10.8854
於理	-10.8854
電光	-10.8854
供給	-10.8857
泡	-10.8857
難勝	-10.8858
無礙智	-10.8859
迷悶	-10.8861
前四	-10.8861
日夜	-10.8863
散華	-10.8863
而今	-10.8864
入城	-10.8866
二禪	-10.8867
多種	-10.8867
此正	-10.8869
菩提分法	-10.887
道意	-10.8873
所讚	-10.8873
終始	-10.8875
退轉	-10.8876
極微	-10.8876
明義	-10.8878
創	-10.8881
彼外道	-10.8882
空閑	-10.8882
搖	-10.8882
如是一切	-10.8887
羅睺羅	-10.8891
倫	-10.8892
俱有	-10.8893
汝於	-10.8898
咽	-10.8901
條	-10.8903
佛南無法	-10.8903
彼見聞知	-10.8904
化為	-10.8905
發行	-10.8906
鞞	-10.8906
心得	-10.8906
無以	-10.8908
三會	-10.8913
之下	-10.8913
非非	-10.8913
等四	-10.8917
為自	-10.8924
復當	-10.8924
辱	-10.8926
渴愛	-10.8926
尚無	-10.8927
白佛言世尊	-10.8931
之罪	-10.8931
善道	-10.8931
佛告舍利弗	-10.8933
淫	-10.8937
繼	-10.8942
舞	-10.8947
有量	-10.895
大雲	-10.895
所逼	-10.8953
水火	-10.8954
行佛南無	-10.8954
九品	-10.8954
令離	-10.8956
我及	-10.8956
用也	-10.8957
菩薩阿耨多羅三藐三菩提記	-10.8958
總明	-10.896
有五種	-10.8961
低	-10.8965
商	-10.8967
力佛	-10.8968
常生	-10.8968
異見	-10.8969
謂由	-10.897
燒香	-10.8972
三昧門	-10.8972
境也	-10.8973
華嚴云	-10.8973
網明	-10.8974
淨名云	-10.8979
後際	-10.898
外人	-10.898
智光	-10.8981
不至	-10.8982
如來說法	-10.8984
長老	-10.8986
寶樹	-10.8986
及彼	-10.8988
四大造色	-10.8991
喻顯	-10.9
正士	-10.9
而於	-10.9001
鳩	-10.9002
林樹	-10.9004
白衣	-10.9007
眼目	-10.9007
亦隨	-10.9007
此觀	-10.9008
非餘	-10.9009
視之	-10.901
此諸菩薩	-10.9012
學人	-10.9015
諸乘	-10.9016
如說修行	-10.9018
皆共	-10.9022
非實有	-10.9024
顯揚	-10.9026
不安	-10.9028
轉相	-10.903
佛在	-10.9031
瑜伽論	-10.9034
心王	-10.9044
薩埵	-10.9044
住世	-10.9045
先後	-10.9045
敬重	-10.9046
頑	-10.9049
爾時大慧菩薩摩訶薩	-10.905
盡故	-10.9054
智故	-10.9057
幢菩	-10.9059
佛滅後	-10.9064
遊步	-10.9065
三初	-10.907
得勝	-10.907
於佛法中	-10.9072
開導	-10.9075
能令眾生	-10.9076
非有無	-10.9077
而知	-10.9079
不等	-10.9079
照曜	-10.908
日日	-10.9083
於過去	-10.9089
之由	-10.909
實體	-10.9094
悲智	-10.9094
一章	-10.9096
入地獄	-10.9096
淨國	-10.9098
俱空	-10.9102
一面	-10.9102
命根	-10.9104
此頌	-10.9105
我之	-10.9106
喜王	-10.9107
如是乃至	-10.9108
膩	-10.911
德菩	-10.911
嗅	-10.9111
聽者	-10.9113
受此	-10.9117
唯此	-10.9119
2	-10.912
逆順	-10.9121
如是思惟	-10.9122
不喜	-10.9122
性無性	-10.9124
法器	-10.9125
文殊師利菩薩	-10.9126
三一	-10.9126
如汝所說	-10.9127
任持	-10.9127
之數	-10.913
而得解脫	-10.9132
先世	-10.9134
以不	-10.9136
所學	-10.9143
離言說	-10.9144
或於	-10.9144
菩薩以	-10.9146
方為	-10.9147
酥	-10.9147
當說	-10.9148
謂我	-10.9152
補特伽羅	-10.9155
縷	-10.9156
釋經	-10.9158
精進佛	-10.9158
是菩薩淨土	-10.9159
五行	-10.9159
諸所	-10.916
本行	-10.9162
魔事	-10.9165
悋	-10.9165
大悲心	-10.9165
屠	-10.9166
洗浴	-10.9167
墮在	-10.9168
一段	-10.9168
我從	-10.9179
如世	-10.918
註曰	-10.9183
舉喻	-10.9183
故使	-10.9184
離過	-10.9186
欲心	-10.9188
明行成	-10.9189
為無	-10.919
又說	-10.9192
又二	-10.9193
當念	-10.9195
滿月	-10.9196
二乘人	-10.9196
常修	-10.9198
賢劫	-10.9199
大威德	-10.92
有身	-10.9201
坐道場	-10.9204
皆成	-10.9207
此法門者	-10.9207
根緣	-10.9208
如何是	-10.9209
乍	-10.9209
紹	-10.9213
決擇	-10.9214
這	-10.9214
正信	-10.9216
罰	-10.9216
攝大乘	-10.9218
圭峰	-10.9219
四大種	-10.9225
在大眾中	-10.9225
設有	-10.923
初正	-10.9233
則曰	-10.9233
一性	-10.9234
藍	-10.9235
初二句	-10.9237
能顯	-10.9239
於道	-10.9239
空相	-10.9239
無一	-10.9242
餘二	-10.9246
序品	-10.9248
身為	-10.925
當知是	-10.9252
大段	-10.9254
諸善男子	-10.926
滴	-10.9264
迷真	-10.9265
八法	-10.9271
有病	-10.9271
達磨	-10.9275
始得	-10.9276
雖在	-10.9278
成等正覺	-10.9278
今就	-10.9278
▁後釋	-10.9282
得阿羅漢	-10.9283
墮惡道	-10.9284
生歡喜	-10.9285
彈呵	-10.9285
舉一	-10.9286
來至	-10.929
如前說	-10.9293
經中說	-10.9295
所發	-10.9299
文也	-10.9303
勝處	-10.9305
諸病	-10.9306
徒眾	-10.9309
理智	-10.9311
觀解者	-10.9313
戶	-10.9314
斷故	-10.9316
並是	-10.9316
真相	-10.9316
滅則	-10.9317
是識	-10.932
悲愍	-10.9321
法想	-10.9323
同歸	-10.9324
智障	-10.9324
不思	-10.9325
設使	-10.9327
管	-10.9329
羸	-10.9329
席	-10.9331
皆屬	-10.9332
寂定	-10.9333
三輪	-10.9337
從心	-10.9338
諸餘	-10.9338
放逸行	-10.9338
係	-10.934
其母	-10.9342
或是	-10.9343
慧者	-10.9349
則不能	-10.935
外無	-10.9355
進退	-10.9358
此菩薩	-10.9359
真智	-10.9363
即同	-10.9363
後釋	-10.9366
戒定慧	-10.9366
乃名	-10.9367
自妄想	-10.9367
能忍	-10.9371
南無普	-10.9371
則滅	-10.9371
菩薩及	-10.9372
祕	-10.9374
約觀心	-10.9377
僧祇	-10.938
根境	-10.938
照了	-10.9381
能取所取	-10.9382
▁南无須	-10.9383
尾	-10.9384
甚難	-10.9385
深經	-10.9387
忠	-10.9389
嗜	-10.9391
道心	-10.9393
出過	-10.9395
於外	-10.9397
證悟	-10.9398
未成	-10.9399
周徧	-10.94
論者	-10.9401
諸佛國土	-10.9404
等持	-10.9405
』,	-10.9405
卷第二	-10.9405
以能	-10.9409
遠離於	-10.9416
未離	-10.9417
王言	-10.9417
妄想相	-10.9418
嘗	-10.9419
引發	-10.942
求菩提	-10.942
鬪諍	-10.9422
輕慢	-10.943
覺自心現量	-10.9431
波旬	-10.9431
音菩	-10.9436
三摩提	-10.9436
今依	-10.9437
賣	-10.9438
方是	-10.9439
普光	-10.944
也問	-10.9441
毗尼	-10.9442
足下	-10.9442
為苦	-10.9442
喜悅	-10.9443
果故	-10.9446
陰陽	-10.9446
彼如來授名	-10.9449
潔	-10.9451
輪相	-10.9452
邪婬	-10.9453
我常	-10.9455
重罪	-10.946
信者	-10.9461
大光明	-10.9463
修於	-10.9464
本心	-10.9465
妙寶	-10.9466
阿鼻	-10.9467
寶山	-10.9468
而問	-10.9473
心地	-10.9475
百歲	-10.9476
後答	-10.9478
自歸	-10.9479
著於	-10.948
妄想故	-10.9484
不去	-10.9487
甚深法	-10.9488
求之	-10.949
若不爾者	-10.9492
為果	-10.9493
劇	-10.9495
斷結	-10.9496
離苦	-10.9497
天樂	-10.95
善分別	-10.9502
前合	-10.9504
以依	-10.9504
垢淨	-10.9506
分為二	-10.9509
諸佛所說	-10.9509
莎訶	-10.951
三地	-10.9512
毀禁	-10.9517
佛號	-10.9518
言其	-10.9518
業盡	-10.952
諸善法	-10.9524
隨相	-10.9528
世尊告曰	-10.9529
上至	-10.953
即指	-10.9531
有實	-10.9531
之意也	-10.9531
獲益	-10.9532
有疾菩薩	-10.9536
當知此	-10.9537
言有	-10.9538
文相	-10.9541
事者	-10.9542
有愛	-10.9543
諸佛子	-10.9543
卜	-10.9546
能依	-10.9548
奏	-10.9548
鵝	-10.9549
親屬	-10.9549
佛說法	-10.9549
大神通	-10.9551
不能盡	-10.9552
案	-10.9553
十行	-10.9553
迦葉佛	-10.9553
理即	-10.9553
因緣法	-10.9556
於十方	-10.9558
能攝	-10.9559
發問	-10.9561
如恒河沙	-10.9561
天佛	-10.9565
古人	-10.9566
醯	-10.9569
捺	-10.9577
聖慧	-10.9577
於大乘	-10.9577
十二緣	-10.958
金鼓	-10.9581
捨於	-10.9581
虛空中	-10.9582
百八句	-10.9582
勸令	-10.9585
能障	-10.9586
二十三	-10.959
問云	-10.9593
且約	-10.9594
楞嚴云	-10.9595
下地	-10.9597
不二法門	-10.9598
業力	-10.9599
菓	-10.9602
百千億	-10.9603
此法門	-10.9605
促	-10.9605
有義	-10.9605
無義	-10.9605
哭	-10.961
為空	-10.961
證於	-10.9611
珊瑚	-10.9613
虛空界	-10.9613
今之	-10.9617
若謂	-10.9618
雖同	-10.9619
斯則	-10.9621
先問	-10.9621
緣起自性	-10.9631
讚嘆	-10.9631
因陀羅	-10.9635
二果	-10.9637
假立	-10.9639
▁初科	-10.9639
真身	-10.964
顯發	-10.9643
即中	-10.9644
所緣境	-10.9646
無貪	-10.9648
旦	-10.9648
不淨觀	-10.9651
伹	-10.9653
增上緣	-10.9654
從其	-10.9654
無罣礙	-10.9655
問如來	-10.9655
別示	-10.9657
知彼	-10.9658
混	-10.9661
啼	-10.9661
告言	-10.9662
得福	-10.9662
覈	-10.9664
樹木	-10.9664
巨	-10.9665
遙見	-10.9667
為眾	-10.9667
若就	-10.9668
貪瞋	-10.9668
無有我	-10.9675
善思惟	-10.9678
無所受	-10.9681
為善	-10.9682
少欲	-10.9683
出假	-10.9684
即涅槃	-10.9685
三年	-10.9685
分之	-10.9686
凡人	-10.9687
教令	-10.9687
必得	-10.9689
資財	-10.969
一切行	-10.9691
何等法	-10.9692
集會	-10.9693
以示	-10.9693
秘密	-10.9693
大弟子	-10.9694
無所依	-10.9694
鮮	-10.9696
一字	-10.9699
慧佛	-10.97
大仙	-10.9701
菩薩所行	-10.9702
其理	-10.9703
執為	-10.9703
下第二	-10.9704
隨情	-10.9704
受想行識	-10.9705
相續不斷	-10.9706
理性	-10.9707
衍	-10.9707
之初	-10.9708
如法華	-10.9708
君子	-10.9712
邑	-10.9713
略釋	-10.9714
性本	-10.9714
然燈佛南無	-10.9715
其間	-10.9718
一切聲聞	-10.9719
方便者	-10.9722
須菩提言	-10.9722
後得	-10.9724
善權	-10.9726
頸	-10.9726
攝諸	-10.9728
十億	-10.9731
妙樂	-10.9734
陁	-10.9735
真我	-10.9736
因行	-10.9738
引證	-10.9738
柔和	-10.9739
復何	-10.9739
恐懼	-10.9739
前七	-10.9743
如是觀察	-10.9745
身土	-10.9745
三脫	-10.9749
謂以	-10.9749
聞正法	-10.9749
當云	-10.9749
如佛所說	-10.9752
應如是	-10.9758
自思惟	-10.976
到此	-10.9766
諸天女	-10.9768
生因	-10.9769
苦痛	-10.9769
懃	-10.977
伺	-10.9771
亦不可	-10.9772
執我	-10.9773
今但	-10.9773
四無量心	-10.9774
之所說	-10.9774
撰	-10.9774
□□□□	-10.9776
現在前	-10.9776
難知	-10.9776
金山	-10.9778
神王	-10.9778
想念	-10.9779
唵	-10.9781
過去世	-10.9782
觀見	-10.9784
一塵	-10.9784
如實觀	-10.9786
驢	-10.9786
何義	-10.9786
了悟	-10.9788
破其	-10.979
功德莊嚴	-10.9791
重擔	-10.9793
性具	-10.9796
計度	-10.9799
聞聲	-10.9802
法御	-10.9803
淨命	-10.9804
為身	-10.9805
德也	-10.9805
自覺聖	-10.9806
眴	-10.9808
第十一	-10.9809
勝鬘	-10.9812
受於	-10.9813
日出	-10.9814
化菩薩	-10.9815
敷演	-10.9816
貪等	-10.9816
消除	-10.9817
謂一切法	-10.9821
見他	-10.9823
山佛南無	-10.9826
我時	-10.9828
難解	-10.9828
聽經	-10.9829
若法	-10.9829
五千	-10.983
業因	-10.983
度世	-10.983
汝應	-10.9832
爾時世尊欲重宣此義	-10.9834
疲厭	-10.9834
振	-10.9836
作佛事	-10.9836
不增不減	-10.9837
答中	-10.9838
祠	-10.9839
無因生	-10.984
貞	-10.9841
肥	-10.9844
瞻仰	-10.9844
本非	-10.9844
於佛法	-10.9845
不敬	-10.9845
勝進	-10.9846
眾生病	-10.9847
合會	-10.9847
啼哭	-10.985
有心	-10.985
我今當	-10.9851
今釋	-10.9853
既非	-10.9855
無依	-10.9858
理無	-10.986
如電	-10.9861
大劫	-10.9863
清淨心	-10.9865
心法	-10.9865
大火	-10.9865
是身如	-10.9866
兩行	-10.9867
但名	-10.9869
以離	-10.987
識陰	-10.9871
修梵行	-10.9872
正等正覺	-10.9873
弘經	-10.9874
美妙	-10.9877
中邊	-10.9879
迴轉	-10.9879
大小乘	-10.988
不毀	-10.988
治病	-10.9882
行業	-10.9886
大菩薩	-10.9886
詩	-10.9886
合為一	-10.9887
修集	-10.9889
買	-10.9894
於諸法中	-10.9895
總釋	-10.9895
顯其	-10.9896
勵	-10.9898
帛	-10.9898
以一	-10.9898
一日一夜	-10.9901
證成	-10.9901
楞伽經	-10.9906
瞿	-10.9908
說如來藏	-10.991
恒河沙等	-10.9913
後後	-10.9913
即現	-10.9917
躡	-10.9919
相佛	-10.9922
阿修羅王	-10.9923
入假	-10.9923
過惡	-10.9928
之難	-10.993
觀空	-10.9932
分中	-10.9934
有能	-10.9934
樹林	-10.9936
朗	-10.9937
受教	-10.9939
不一	-10.994
諸法相	-10.994
施戒	-10.994
希求	-10.9941
知覺	-10.9945
性宗	-10.9946
有色	-10.9947
前之	-10.9948
何必	-10.9949
罔	-10.9953
谷	-10.9953
即說	-10.9953
就初	-10.9953
枉	-10.9954
之始	-10.9957
能了知	-10.9959
生諸	-10.996
最大	-10.9961
唯願世尊	-10.9961
二執	-10.9967
攝所攝	-10.9969
所染	-10.9969
破之	-10.9969
比丘知業果報	-10.9975
以是之故	-10.9975
淨法	-10.9976
依教	-10.9977
不免	-10.9979
算數	-10.998
如地	-10.998
此三種	-10.9983
除病	-10.9985
餘天	-10.9986
施者	-10.9986
當學	-10.9988
五蓋	-10.9989
非智	-10.999
無量劫	-10.9991
秖	-10.9993
對前	-10.9993
耳識	-10.9996
聞其	-10.9997
妙用	-10.9998
法喻	-10.9999
四倒	-11
聖凡	-11.0001
富樂	-11.0001
諸女	-11.0004
十二年	-11.0006
鑑	-11.0006
無言說	-11.0007
南謨	-11.0007
三細	-11.0009
流入	-11.0009
能化	-11.001
某甲	-11.0011
除其	-11.0015
偶	-11.0016
住此	-11.0017
更生	-11.0018
謂諸	-11.0021
如雲	-11.0024
初會	-11.0025
力士	-11.0025
妙行	-11.0025
摩訶迦葉	-11.0028
習近	-11.0031
義釋	-11.0035
進趣	-11.0037
何等四	-11.0037
之一字	-11.0037
隨煩惱	-11.0038
堪能	-11.0039
在後	-11.0041
假實	-11.0052
凡所	-11.0053
但取	-11.0055
二初明	-11.0056
聞佛說	-11.006
雖云	-11.006
離分別	-11.0061
以此為	-11.0064
猛火	-11.0064
來去	-11.0064
求道	-11.0065
曠	-11.0068
此教	-11.0068
力用	-11.007
諸法皆	-11.0071
祥	-11.0075
脂	-11.0077
偏袒右肩	-11.0078
論曰	-11.0079
實教	-11.008
維	-11.0085
疏然	-11.0086
以何為	-11.0088
1	-11.0088
人法無我	-11.009
大覺	-11.009
見諸法	-11.0091
法王子	-11.0091
無量種	-11.0093
聖果	-11.0094
卷上	-11.0095
云何是	-11.0107
▁南无德	-11.0108
皆不可得	-11.0113
一大	-11.0113
中無有	-11.0113
性即	-11.0115
是中	-11.0116
智人	-11.012
菴	-11.0123
我無我	-11.0128
諸文	-11.0129
四無量	-11.013
福智	-11.0131
但依	-11.0132
第二明	-11.0132
有三義	-11.0132
香佛	-11.0132
不造	-11.0135
非一非異	-11.0136
第七識	-11.0142
雜集	-11.0144
若諸	-11.0145
愛敬	-11.0149
寶幢	-11.0151
依何	-11.0152
離文字	-11.0154
淨除	-11.0157
雲佛	-11.0159
無量無數	-11.0161
而云	-11.0163
現起	-11.0165
證法	-11.0167
我能	-11.0169
心為	-11.0171
證理	-11.0172
剛	-11.0173
能度	-11.0174
果位	-11.0176
其色	-11.0176
花佛	-11.0182
增進	-11.0183
二空觀	-11.0187
楚	-11.019
甚麼	-11.0193
司	-11.0194
毘尼	-11.0198
指前	-11.0202
之所以	-11.0202
十年	-11.0203
我等今者	-11.0204
壽者	-11.0206
證知	-11.0206
初文	-11.0207
佛境界	-11.0207
]	-11.0208
凡夫二乘	-11.0208
城邑	-11.0208
空法	-11.0209
於時	-11.021
人相	-11.0212
亂意	-11.0215
列名	-11.0218
良醫	-11.0229
分別諸法	-11.023
不減	-11.023
攝論	-11.0231
果上	-11.0232
也今	-11.0237
疑悔	-11.0238
依因	-11.0238
瑞應	-11.0239
若樂	-11.0244
分文	-11.0246
平等心	-11.0248
卦	-11.0249
二十五有	-11.0249
因緣和合	-11.0249
幻夢	-11.0251
汝今諦聽	-11.0254
垂髮	-11.0255
歇	-11.0256
不可知	-11.0258
而已	-11.0259
血肉	-11.0259
痛痒	-11.0264
古今	-11.0266
之謂也	-11.0268
山佛	-11.0268
今取	-11.0272
方便品	-11.0274
失壞	-11.0274
得離	-11.0275
同彼	-11.0276
所食	-11.028
有德	-11.0282
不成就	-11.0284
十二部經	-11.0285
即應	-11.0285
外道計	-11.0289
重釋	-11.029
本起	-11.0291
未證	-11.0292
若取	-11.0293
賢首	-11.0294
定心	-11.0295
能救	-11.0296
惡知識	-11.0297
俱時	-11.0299
下文云	-11.0299
歎德	-11.0303
佛南無波頭摩	-11.0304
聞持	-11.0306
由心	-11.0306
人心	-11.031
諸部	-11.031
利益安樂	-11.0312
願求	-11.0312
各隨	-11.0313
益物	-11.0313
以求	-11.0314
直指	-11.0316
灾	-11.0317
成於	-11.0318
此岸	-11.0318
有智	-11.0319
超出	-11.032
整	-11.0321
佛前	-11.0322
拳	-11.0323
浴池	-11.0327
說是法時	-11.0329
功勳	-11.033
成辦	-11.0331
不復更	-11.0331
福業	-11.0331
斷盡	-11.0332
大山	-11.0337
理故	-11.0338
將來	-11.0345
我即	-11.0347
何因緣	-11.0349
二千	-11.0349
說諸法	-11.035
方所	-11.0352
為顯	-11.0352
是涅槃	-11.0355
值遇	-11.0356
凝	-11.0358
有苦	-11.0358
智照	-11.0363
文略	-11.0363
入三昧	-11.0364
有住	-11.0366
以得	-11.0368
豫	-11.0371
菩薩成佛時	-11.0372
得法眼淨	-11.0374
下二句	-11.0374
囑	-11.0374
異不異	-11.0375
蓮	-11.0376
行慈	-11.0378
大圓鏡智	-11.0378
解脫門	-11.0379
崖	-11.0383
頌上	-11.0388
諸龍	-11.0391
三問	-11.0392
天親	-11.0398
除遣	-11.0398
種種妄想	-11.0399
深義	-11.04
染心	-11.0401
雖得	-11.0403
聲聞眾	-11.0403
思惑	-11.0407
住地	-11.0409
童真	-11.0409
為諸菩薩	-11.0409
光如來南無	-11.0416
別故	-11.0418
等觀	-11.042
人皆	-11.0421
然燈佛	-11.0422
樂見	-11.0423
此結	-11.0424
楊	-11.0426
戀	-11.0427
一切種	-11.0429
見惑	-11.0429
性惡	-11.0431
是故當知	-11.0433
從緣	-11.0443
彼所	-11.0445
佛南無一切同名	-11.0446
雖見	-11.0446
王者	-11.0448
性自	-11.045
安得	-11.0451
今世	-11.0451
若據	-11.0454
無本	-11.0455
波若	-11.0457
▁南无光	-11.046
為一切	-11.0461
八聖道	-11.0461
法佛	-11.0462
一切諸法皆	-11.0463
雷音	-11.0465
苾芻當知	-11.0469
大智慧	-11.047
苦報	-11.047
』	-11.0471
真正	-11.0471
慈愍	-11.0472
諸仁者	-11.0475
明之	-11.0477
文殊師利白佛言	-11.0479
▁南无天	-11.0479
佛南無妙	-11.0481
堪忍	-11.0482
一切法如幻	-11.0485
不云	-11.0485
執取	-11.0492
奮迅佛南無	-11.0493
諭	-11.0496
京	-11.0496
府	-11.0499
以何因緣	-11.0499
來世	-11.05
▁六	-11.05
此門	-11.0501
二月	-11.0502
修行者內身循身觀	-11.0503
時維摩詰	-11.0503
自性涅槃	-11.0504
相宗	-11.0507
三空	-11.0507
此顯	-11.0508
赫	-11.0508
得成佛	-11.0509
魅	-11.0509
優鉢羅	-11.051
大慈大悲	-11.0511
常自	-11.0512
卷第一	-11.0512
到已	-11.0514
菴羅	-11.0514
彼說	-11.0518
翻譯	-11.0518
論說	-11.0518
證果	-11.0519
以空	-11.0526
聞此經	-11.0529
方成	-11.053
無彼	-11.053
是處	-11.0534
三惑	-11.0534
恐畏	-11.0535
之藏	-11.0536
慧佛南無	-11.0542
焚	-11.0542
惟心	-11.0546
四名	-11.0552
以來	-11.0553
法報	-11.0555
晦	-11.0556
歎未曾有	-11.0558
同類	-11.0558
唾	-11.0558
所表	-11.0558
綺	-11.0559
為惡	-11.056
無增減	-11.056
青黃赤白	-11.0562
東西	-11.0562
隨順覺性	-11.0563
河沙	-11.0563
愛語	-11.0565
阿難陀	-11.0565
閱	-11.0565
如金剛	-11.057
調御丈夫	-11.057
如意珠	-11.0572
之極	-11.0572
正性	-11.0573
能伏	-11.0574
鷲	-11.0575
受快樂	-11.0577
菩薩眾	-11.0582
實是	-11.0584
為斷	-11.0588
而觀	-11.0588
若住	-11.059
登地	-11.059
初門	-11.0591
佛塔	-11.0593
作如是念	-11.0593
三分	-11.0595
隨念	-11.0597
請說	-11.0603
通論	-11.0607
慰	-11.0608
摩耶	-11.0609
無常性	-11.0609
釋疑	-11.0609
見我	-11.0614
問疾品	-11.0614
今說	-11.0614
客塵	-11.0616
東方去此	-11.0617
忌	-11.0619
團	-11.0622
所度	-11.0622
漿	-11.0626
三菩提	-11.0626
已上	-11.0627
格	-11.0628
是經典	-11.0628
疲倦	-11.0629
開解	-11.063
一釋	-11.063
地位	-11.0631
之實	-11.0631
鎖	-11.0631
二依	-11.0633
分別心	-11.0634
應生	-11.0635
有形	-11.0637
四月	-11.0637
擎	-11.0637
之徒	-11.0638
猪	-11.0638
所依止	-11.064
火輪	-11.0641
未聞	-11.0643
且如	-11.0644
有十種	-11.0644
遊於	-11.0645
來入	-11.065
捨諸	-11.0653
有佛性	-11.0656
故復	-11.0658
彼我	-11.0659
之益	-11.0659
夢見	-11.066
離性非性	-11.0661
無自性性	-11.0664
慧命	-11.0664
所致	-11.0665
愁憂	-11.0665
經卷	-11.067
還來	-11.067
名為解脫	-11.0673
皆見	-11.068
王等	-11.0682
一對	-11.0682
王宮	-11.0682
善本	-11.0684
三摩	-11.0684
世出世間	-11.0685
菩提之心	-11.0685
爾所	-11.0686
分別事識	-11.0686
無難	-11.0686
為智	-11.0688
無起滅	-11.0688
其法	-11.0689
醫方	-11.0693
琴	-11.0697
臍	-11.0698
此病	-11.0699
▁二約	-11.07
非異	-11.07
為能	-11.0702
千子	-11.0702
能受	-11.0711
淨業	-11.0712
諸子	-11.0716
釋中	-11.0717
修慧	-11.0718
發真	-11.0719
緣慮	-11.0723
當願眾生	-11.0723
諸所有	-11.0724
塗香	-11.0725
亦不離	-11.0731
歡喜奉行	-11.0734
兜率天	-11.0734
個	-11.0734
俱無	-11.0735
幻師	-11.074
成佛時	-11.074
加持	-11.074
一子	-11.074
今家	-11.0742
心則	-11.0744
動念	-11.0745
無邊際	-11.0745
若為	-11.0748
欝	-11.0754
光明照	-11.0755
屬於	-11.0755
妙幢	-11.0755
菩薩乘	-11.0756
與樂	-11.0757
而未	-11.0758
所用	-11.0759
諸妄想	-11.076
廁	-11.076
以心	-11.0762
正位	-11.0764
空見	-11.0764
四卷	-11.0764
准此	-11.0765
或有眾生	-11.0766
從因緣生	-11.0766
得安樂	-11.0772
不近	-11.0775
一曰	-11.0777
若觀	-11.078
善女天	-11.0782
智度論云	-11.0782
四十二	-11.0785
十二處	-11.0785
受其	-11.0788
尚不能	-11.0791
吾等	-11.0791
紺	-11.0793
西北方	-11.0793
不因	-11.0794
展	-11.0794
地處	-11.0798
西蜀復庵暉禪師曰	-11.08
論議	-11.0801
不忍	-11.0801
此十	-11.0803
禽獸	-11.0805
勝故	-11.0806
地界	-11.0809
依前	-11.081
能善	-11.0811
又前	-11.0811
所破	-11.0812
刃	-11.0813
之妙	-11.0814
次下	-11.0816
實疾	-11.0817
毀謗	-11.0818
惟願為說	-11.0818
肝	-11.0821
覺智	-11.0824
肅	-11.0825
謂依	-11.0825
死時	-11.0826
閣	-11.0831
師曰	-11.0831
三途	-11.0832
無作者	-11.0834
靡	-11.0835
色空	-11.0839
非無性	-11.084
千億	-11.0844
如上所說	-11.0844
修此	-11.0845
卷下	-11.0846
大地獄	-11.0847
於阿耨多羅三藐三菩提	-11.085
二頌	-11.0853
愛取	-11.0853
六七	-11.0853
是誰	-11.0857
所誑	-11.0861
異處	-11.0863
昭	-11.0864
月上	-11.0865
欲境	-11.087
複	-11.0871
八百	-11.0871
辭不堪	-11.0872
添	-11.0877
如燈	-11.0877
牀	-11.0877
今則	-11.0879
醫王	-11.0879
此經云	-11.0881
漫	-11.0881
兔無角	-11.0882
未免	-11.0883
所住處	-11.0887
掃	-11.0887
不妄	-11.0887
二會	-11.0889
提婆	-11.0892
復有菩薩名曰	-11.0893
私註	-11.0894
會通	-11.0896
全同	-11.0897
別立	-11.0898
心源	-11.0899
▁南无光明	-11.0902
苦道	-11.0905
下別	-11.0909
貪心	-11.0911
南無德	-11.0913
不停	-11.0915
無餘涅槃	-11.0916
毛輪	-11.0918
相應故	-11.0919
一標	-11.092
見一	-11.0923
眾聖	-11.0923
自證聖智	-11.0924
法自在	-11.0927
界內外	-11.0931
欲度	-11.0931
不獨	-11.0931
耳根	-11.0932
應同	-11.0933
分證	-11.0934
譽	-11.0936
是義	-11.0936
化導	-11.0937
菩提分	-11.0943
淳	-11.0943
眾罪	-11.0944
傍生	-11.0945
三千大千	-11.0945
見真	-11.0947
荼	-11.0949
養育	-11.095
一切相	-11.0951
如是比丘	-11.0952
縱橫	-11.0953
爾𦦨	-11.0953
不墮邪見	-11.0953
言音	-11.0953
眾生相	-11.0954
偈言	-11.0954
郡	-11.0954
一切法空	-11.0956
引喻	-11.0957
等三	-11.0959
稱揚	-11.096
願生	-11.0961
像法	-11.0962
正問	-11.0964
復云	-11.0965
叵得	-11.0965
大乘者	-11.0967
中具	-11.0968
自宗	-11.0968
如上說	-11.0969
作證	-11.0969
明見	-11.0969
智慧者	-11.0975
卷第十	-11.0983
等相	-11.0985
定力	-11.0985
現在說法	-11.0986
波離	-11.0988
樹王	-11.0993
諸漏	-11.0993
舉體	-11.0997
三自性	-11.0998
得至	-11.0999
獄卒	-11.1
鈔云	-11.1001
非為	-11.1002
雜亂	-11.1006
捨此	-11.1006
覩見	-11.1007
法緣	-11.1008
大哀	-11.1008
為除	-11.101
如云	-11.1012
得記	-11.1012
垢穢	-11.1013
逃	-11.1016
諷	-11.1016
偷	-11.1018
過此	-11.102
哆	-11.1023
所行境界	-11.103
修觀	-11.1032
卵	-11.1034
▁南无無㝵	-11.1034
成自性	-11.1035
六萬	-11.1035
如實知身	-11.1039
疾得阿耨多羅三藐三菩提	-11.104
不自在	-11.1041
眾經	-11.1042
不屬	-11.1044
繫屬	-11.1045
亦不生	-11.1046
修之	-11.1046
能成就	-11.1047
說於	-11.1049
結前	-11.1051
三處	-11.1052
四面	-11.1056
王所	-11.1057
亦成	-11.1057
餘文	-11.106
應物	-11.1066
種種差別	-11.107
善哉世尊	-11.1073
大人	-11.1073
境故	-11.1074
怠	-11.1076
若生若滅	-11.1077
鈎	-11.1078
削	-11.1078
六即	-11.1079
樓閣	-11.108
皆可	-11.108
駕	-11.108
怛薩阿竭	-11.1082
作是念已	-11.1083
百二十	-11.1083
奢	-11.1084
涅槃經云	-11.1084
之恩	-11.1089
六法	-11.109
滅壞	-11.1092
如實見	-11.1093
若天	-11.1094
能分別	-11.1096
莊嚴其身	-11.1098
何等為六	-11.1099
此偈	-11.1101
出世間上上	-11.1103
若起	-11.1105
當行	-11.111
善現	-11.1111
遍行	-11.1111
方廣	-11.1112
不能見	-11.1113
唯在	-11.1114
虛誑	-11.1115
黃金	-11.1117
而轉	-11.1118
生死苦	-11.112
方便力	-11.1122
極果	-11.1125
當如	-11.1126
以種種	-11.1127
區	-11.113
合文上科共成	-11.1135
啞	-11.1136
進止	-11.1136
伯	-11.1138
魔軍	-11.1138
不惜身命	-11.1139
夭	-11.1139
淤泥	-11.1141
大精進	-11.1142
念住	-11.1144
奉教歡喜	-11.1145
焰佛	-11.1148
叫	-11.1149
難也	-11.1149
受苦惱	-11.115
當自	-11.115
上生	-11.1154
=	-11.1156
佛法僧	-11.1156
已說	-11.1156
欲說	-11.1159
已後	-11.116
所釋	-11.1169
了無	-11.1169
出息	-11.1171
判教	-11.1173
不瞋	-11.1173
化現	-11.1179
彌留	-11.1181
如影	-11.1184
但於	-11.1184
理也	-11.1185
國人	-11.1185
無欲	-11.1186
不止	-11.1187
之相也	-11.1188
山王	-11.1189
華果	-11.1192
永盡	-11.1192
次約	-11.1192
西蜀復菴暉禪師	-11.1197
悟解	-11.1197
應須	-11.1198
外塵	-11.1199
▁南无上	-11.12
外道惡見	-11.1201
菩提樹	-11.1201
遍計所執	-11.1201
有九	-11.1204
病人	-11.1206
悉無	-11.1206
梵云	-11.1208
評曰	-11.1208
斬	-11.1209
住在	-11.121
及於	-11.121
吸	-11.1211
暖	-11.1211
屍	-11.1211
炭	-11.1211
人壽	-11.1213
佛功德	-11.1214
償	-11.1217
為破	-11.1218
瞖	-11.1218
前際	-11.1219
度者	-11.1221
一切法皆	-11.1223
白淨	-11.1227
大辯	-11.1227
如是大慧	-11.1229
猶豫	-11.123
下根	-11.123
識心	-11.1232
中疏	-11.1232
顏色	-11.1235
一由旬	-11.1236
依之	-11.1237
於無量	-11.1237
雖異	-11.1239
三根	-11.1243
不般涅槃	-11.1244
也問曰	-11.1246
成滿	-11.1246
常說	-11.125
應修	-11.125
下示	-11.1255
業因緣	-11.1257
有何等	-11.1259
之前	-11.126
無所見	-11.126
其一	-11.1262
縛解	-11.1263
受戒	-11.1263
彼地獄人	-11.1264
離煩惱	-11.1264
世間人	-11.1265
識生	-11.1266
過去諸佛	-11.1267
式	-11.1273
罪垢	-11.1277
飄	-11.1277
難見	-11.1277
根識	-11.1278
父名	-11.1278
盤	-11.1278
莊嚴具	-11.1278
大將	-11.1279
正智如如	-11.128
東北方	-11.1283
因成	-11.1284
調達	-11.1284
若從	-11.1286
裹	-11.1286
米	-11.1289
外道二乘	-11.129
如化	-11.129
今疏	-11.1291
所轉	-11.1292
平等性智	-11.1294
識者	-11.1295
現於	-11.1296
於一切處	-11.1296
全是	-11.1296
之失	-11.1298
二十九	-11.1299
一地	-11.13
現疾	-11.1303
滅後	-11.131
外道見	-11.1316
曷	-11.1318
法雲	-11.132
斯乃	-11.1321
中陰	-11.1321
非離	-11.1322
十由旬	-11.1322
有過	-11.1322
自在天	-11.1325
從空	-11.1326
出其	-11.1329
前問	-11.1329
滅相	-11.133
此第三	-11.133
妙喜	-11.1333
五明	-11.1334
行菩	-11.1337
宿世	-11.1339
何等為二	-11.134
其聲	-11.1341
跪	-11.1342
粗	-11.1342
儀式	-11.1344
實諦	-11.1346
侯	-11.1349
從座而起	-11.1351
億劫	-11.1352
西南方	-11.1353
空即	-11.1354
互為	-11.1354
於大	-11.1355
例前	-11.1358
起時	-11.1359
令此	-11.1363
栴檀香	-11.1366
大神	-11.1366
眾病	-11.1369
修治	-11.1371
如如智	-11.1371
秦言	-11.1372
諸受	-11.1374
見佛性	-11.1376
樂行	-11.1377
品類	-11.138
一卷	-11.1381
出時	-11.1381
如一	-11.1382
中現	-11.1383
孛	-11.1383
伽羅	-11.1389
從本	-11.139
黠	-11.1393
舉身	-11.1396
不除	-11.1398
知我	-11.1402
亦有亦無	-11.1403
未入	-11.1404
是諸菩薩	-11.1404
通妨	-11.1406
從空入假	-11.1407
得安隱	-11.1409
鍠	-11.1409
論文	-11.141
爾時大慧菩薩	-11.141
額	-11.1415
從緣生	-11.1415
說聽	-11.1416
鎮	-11.1417
將此	-11.142
無違	-11.1421
逼惱	-11.1423
苦哉	-11.1424
次有	-11.1424
無身	-11.1427
為根本	-11.1428
具四	-11.1431
行空	-11.1436
巳來	-11.1437
立宗	-11.1437
本生	-11.1441
之士	-11.1443
當令	-11.1445
不輕	-11.1449
空聚	-11.1451
二子	-11.1454
境界故	-11.1456
梵本	-11.1457
於上	-11.1461
叵	-11.1461
菩薩地	-11.1469
釋文	-11.1469
寢	-11.1471
一切諸眾生	-11.1471
求於	-11.1472
城名	-11.1473
校量	-11.1474
餓	-11.1476
是彼	-11.1477
排	-11.1479
覺相	-11.1483
莎羅	-11.1484
籠	-11.1484
脣	-11.1487
心如	-11.1487
佛心	-11.1488
五地	-11.149
洪	-11.149
無由	-11.1492
尋求	-11.1495
隨眾生	-11.1499
諸句	-11.15
空門	-11.1501
不可壞	-11.1501
福聚	-11.1506
所至	-11.1507
乃知	-11.1509
正以	-11.151
真陀羅	-11.151
云何名菩薩	-11.1513
頗有	-11.1513
▁南无無畏	-11.1514
淨故	-11.1518
欣樂	-11.1519
妄有	-11.152
略明	-11.1521
不斷絕	-11.1522
當復	-11.1523
使人	-11.1523
本為	-11.1526
信佛	-11.1528
菩薩亦復如是	-11.1528
及末世眾生	-11.1529
異因	-11.1529
退失	-11.1529
差別之相	-11.1536
六趣	-11.154
一行半	-11.1541
綱	-11.1541
難測	-11.1543
欲重宣此義	-11.1543
起用	-11.1543
尅	-11.1544
久如	-11.1546
杜	-11.1547
緒	-11.1548
方便教	-11.1548
其言	-11.155
當何所	-11.1553
所變	-11.1553
以大	-11.1554
變壞	-11.1555
自覺聖趣	-11.1556
正法念處經	-11.1556
彌樓	-11.1557
亦須	-11.1557
繒	-11.1561
樂於	-11.1563
此定	-11.1563
謂佛	-11.1567
覆藏	-11.1569
長時	-11.1573
下正	-11.1574
得悟	-11.1574
佛地論	-11.1574
無法可	-11.1575
有無二見	-11.1576
不可數	-11.1577
空無我	-11.1577
華佛南無	-11.1577
不會	-11.1578
欲行	-11.1579
因上	-11.1579
將護	-11.158
始從	-11.158
專心	-11.1581
思益	-11.1582
等分	-11.1584
正義	-11.1586
現有	-11.1589
結業	-11.159
聰	-11.159
佛寶	-11.1593
五識身	-11.1593
世出世	-11.1594
豈是	-11.1594
觀世音	-11.1596
令不	-11.1597
利眾生	-11.1605
空而	-11.1605
解脫知見	-11.1606
四洲	-11.1607
幻觀	-11.1607
後得智	-11.1612
觀諸法	-11.1615
非所作	-11.1615
八正道	-11.1615
如來種	-11.1617
若云	-11.1618
壓	-11.1618
其猶	-11.1619
皷	-11.1619
義利	-11.162
攝心	-11.1621
無二無別	-11.1622
喻於	-11.1623
舍宅	-11.1625
炙	-11.1625
無處所	-11.1626
為何等	-11.1627
今為	-11.1627
甜	-11.1627
一實諦	-11.1628
慇懃	-11.1628
人有	-11.1629
領受	-11.163
憒閙	-11.1631
三學	-11.1632
泥犁	-11.1632
巳斷	-11.1633
戒者	-11.1633
即起	-11.1634
是總	-11.1637
已見	-11.1639
白銀	-11.164
下云	-11.164
一切所作	-11.1642
調伏其心	-11.1642
能自	-11.1642
天華	-11.1643
皆悉具足	-11.1646
更無別	-11.1647
眾所	-11.1648
非滅	-11.1652
善權方便	-11.1654
可樂	-11.1655
同前	-11.1657
四釋	-11.1658
疏主	-11.1659
轉生	-11.1659
則一切	-11.1661
江河	-11.1662
分為	-11.1662
巧方便	-11.1667
本無生	-11.1667
諸入	-11.1668
今復	-11.1669
果德	-11.167
之念	-11.167
假有	-11.1671
進修	-11.1673
業者	-11.1674
心之	-11.1675
以手	-11.1675
乃可取食	-11.1677
能護	-11.1684
楞伽阿䟦多羅寶經	-11.1684
實無有	-11.1685
殊特	-11.1686
詔	-11.169
人眾	-11.169
十方界	-11.1692
生法二空	-11.1692
如世尊說	-11.1692
外性	-11.1693
泰	-11.1693
毗盧遮那	-11.1693
愛念	-11.1693
斗	-11.1694
憍尸迦	-11.1695
徐	-11.1696
世間出世間	-11.1696
多諸	-11.1699
如是如來	-11.1699
智境	-11.1703
其水	-11.1707
諸禪定	-11.1707
嚕	-11.1711
三十一	-11.1713
非究竟	-11.1714
若干種	-11.1716
百六十	-11.172
清淨法	-11.1723
觀彼	-11.1731
得解	-11.1732
圓修	-11.1733
囑累	-11.174
安處	-11.1741
背捨	-11.1742
當云何	-11.1747
云何菩薩得	-11.1747
是故說言	-11.1748
繫心	-11.1749
旃	-11.1751
有所說	-11.1752
三因	-11.1753
無邊功德	-11.1755
於地	-11.1756
生已	-11.1756
之情	-11.1758
欲為	-11.176
鋒	-11.176
好醜	-11.1762
隨轉	-11.1762
樂行多作	-11.1763
不生故	-11.1763
三脫門	-11.1764
外國	-11.1765
叢林	-11.1765
明行足	-11.1768
檀越	-11.1768
甚可	-11.177
諫	-11.177
空處	-11.177
嶮	-11.177
願行	-11.1771
俱非	-11.1771
邏	-11.1772
彼世界	-11.1779
菩提道	-11.178
皆生	-11.1784
諸佛世界	-11.1787
體同	-11.1787
多劫	-11.1788
破相	-11.1788
牛王	-11.179
出家人	-11.1802
十地菩薩	-11.1804
空宗	-11.1804
應斷	-11.1805
觀解	-11.1807
不可稱	-11.1808
方可	-11.1814
霜	-11.1822
現種種	-11.1822
二曰	-11.1822
如來南無善	-11.1824
孟	-11.1825
有六種	-11.1825
其罪	-11.1825
除斷	-11.1827
法住	-11.1829
展轉相	-11.1829
去聲	-11.183
緣集	-11.1832
庭	-11.1833
諸罪	-11.1833
讖	-11.1834
虎狼	-11.1835
亦知	-11.1835
所宜	-11.1836
穴	-11.1837
大利	-11.1838
鼠	-11.1838
發道心	-11.1838
菩薩大士	-11.1839
形狀	-11.1839
第十地	-11.184
第八地	-11.1841
照耀	-11.1842
時天帝釋	-11.1842
茶	-11.1843
野干	-11.1845
如空中	-11.1846
言說者	-11.1846
中有四	-11.1847
得於	-11.1848
9	-11.1848
俱名	-11.1852
今略	-11.1854
於內	-11.1856
三十五	-11.1858
乃成	-11.186
調順	-11.1862
上云	-11.1863
還是	-11.1864
墮惡趣	-11.1865
或計	-11.1866
多生	-11.1867
自致	-11.1868
等無有異	-11.187
尊者阿難	-11.187
華鬘	-11.1871
拔濟	-11.1874
南無師子	-11.1875
承上	-11.1876
軌則	-11.1878
磨滅	-11.1878
受決	-11.1879
顯德	-11.188
從來	-11.188
相成	-11.1882
求涅槃	-11.1884
善者	-11.1888
諸王	-11.1888
中下	-11.1892
供具	-11.1893
脇	-11.1893
如是次第	-11.1893
何意	-11.1894
苑	-11.1895
因彼	-11.1896
環	-11.1899
惡鬼	-11.19
絲	-11.1902
破惡	-11.1902
汗	-11.1902
重說	-11.1905
畫師	-11.1909
鷄	-11.1911
與汝	-11.1912
陽焰	-11.1912
地持	-11.1913
一境	-11.1914
義當	-11.1914
不相似	-11.1914
本處	-11.1917
三佛	-11.1919
成上	-11.192
0	-11.192
明菩薩	-11.192
違順	-11.1922
可度	-11.1923
端坐	-11.1923
是眾生	-11.1925
非聖	-11.1925
出定	-11.1926
後之	-11.193
彼諸眾生	-11.1931
伽藍	-11.1933
滅惡	-11.1935
彼諸外道	-11.1937
是諸眾生	-11.1939
為他說	-11.194
寒熱	-11.1941
稱名	-11.1943
執受	-11.1945
其形	-11.1945
盲者	-11.1945
故下文云	-11.1946
是果	-11.1947
略舉	-11.1947
百味	-11.1949
其上	-11.1951
四結	-11.1953
應用	-11.1954
觀世自在	-11.1956
則不生	-11.1957
正命	-11.1961
女色	-11.1964
他受用	-11.1965
釋迦文佛	-11.1967
所迷	-11.1971
羯	-11.1971
為業	-11.1971
二別釋	-11.1973
鄰	-11.1973
說偈言	-11.1974
入中	-11.1975
膏	-11.1975
二就	-11.1977
一家	-11.1978
真修	-11.1978
聞是法	-11.1979
麤細	-11.1979
成就如是	-11.198
而悉	-11.1981
院	-11.1981
持經	-11.1981
之可	-11.1982
觀如來	-11.1985
從世尊聞如是	-11.1987
膿血	-11.199
諸通慧	-11.199
於斯	-11.1991
香飯	-11.1992
名句	-11.1996
為物	-11.1998
廣為	-11.1998
之則	-11.2
轉勝	-11.2
不稱	-11.2001
說空	-11.2001
尚有	-11.2002
大樹	-11.2004
亂心	-11.2006
佛南無月	-11.2008
閻浮提人	-11.2009
巳還	-11.2013
復過	-11.2016
幾種	-11.2019
▁南无常	-11.202
非幻	-11.202
種智	-11.2021
方有	-11.2021
如來智	-11.2022
對境	-11.2023
最尊	-11.2024
得意	-11.2027
四無所畏	-11.2028
無缺	-11.2029
其道	-11.2029
實理	-11.2031
汝行詣維摩詰問疾	-11.2033
所牽	-11.2033
欲入	-11.2035
初後	-11.2036
從生	-11.2036
阿那律	-11.2038
今所	-11.2038
阿難言	-11.2039
依真	-11.2039
王及	-11.2039
讓	-11.204
後說	-11.204
不清淨	-11.2041
十事	-11.2041
謂若	-11.2046
知者	-11.2047
安心	-11.2048
人道	-11.2049
為常	-11.205
起故	-11.205
我欲	-11.2051
敗壞	-11.2056
諮	-11.2056
眾生何業生於彼	-11.2056
橫竪	-11.2058
今此經	-11.206
在其中	-11.206
充足	-11.2062
自莊嚴	-11.2062
羂	-11.2062
諸事	-11.2065
然非	-11.2065
本來寂靜	-11.2065
障故	-11.2066
一正	-11.2066
一心三觀	-11.2067
先以	-11.2068
塵境	-11.2068
天子復問	-11.2069
滅盡定	-11.207
㲲	-11.2073
同也	-11.2074
即用	-11.2077
二偈頌	-11.2078
善惡業	-11.208
彌陀	-11.2086
名利	-11.2092
伎	-11.2092
青色	-11.2093
性無常	-11.2094
不改	-11.2098
既以	-11.2099
▁南无清淨	-11.2099
此會	-11.21
見妄想	-11.21
都無所	-11.2107
分真	-11.2107
鉤	-11.2108
功成	-11.2109
日輪	-11.211
基	-11.2111
取食	-11.2113
此答	-11.2118
三七日	-11.2119
貨	-11.2119
攝持	-11.2119
淪	-11.212
位也	-11.2121
謹	-11.2121
以知	-11.2122
一切凡夫	-11.2122
無所分別	-11.2122
此初文	-11.2124
欲明	-11.2125
此三千大千世界	-11.2126
正知	-11.2126
三番	-11.2128
非想	-11.2128
但能	-11.2129
度人無量	-11.2129
諸性	-11.2131
魔界	-11.2132
覺意	-11.2132
通達佛道	-11.2133
初牒	-11.2133
諸境界	-11.2135
是能	-11.2137
緣覺乘	-11.2139
無有能	-11.2139
在外	-11.2146
音響	-11.2148
既見	-11.2148
隱覆	-11.215
不調	-11.215
便成	-11.215
名稱佛	-11.2151
忉利	-11.2151
身內	-11.2155
其土	-11.2156
後二句	-11.2156
所分別	-11.2157
有二意	-11.2157
法味	-11.2158
感動	-11.2162
躡前	-11.2163
諸眾生等	-11.2165
於義	-11.2166
質直	-11.2167
容受	-11.2169
意顯	-11.217
不孝	-11.217
何人	-11.2171
廣略	-11.2171
於諸佛	-11.2171
獨處	-11.2175
仁王	-11.2177
呵責	-11.2178
摩訶薩	-11.2179
△	-11.218
等行	-11.2182
器界	-11.2183
諸蘊	-11.2183
法要	-11.2183
自行化他	-11.2188
當文二句	-11.2188
初舉	-11.2188
圓鏡	-11.2189
無始虗偽	-11.2189
教以	-11.2191
解脫也	-11.2192
扇	-11.2196
治之	-11.2197
甘蔗	-11.2197
月蓋	-11.2198
於佛前	-11.2199
堅實	-11.22
幻法	-11.22
項	-11.2202
觀中	-11.2202
佛滅度後	-11.2202
性是	-11.2202
寶蓮華	-11.2203
屎	-11.2205
諸因緣	-11.221
十號	-11.2212
三人	-11.2215
末法	-11.2216
取之	-11.2216
知眾生	-11.2222
人非人等	-11.2223
本也	-11.2224
捨心	-11.2229
異說	-11.2229
▁二示	-11.2231
先有	-11.2232
百倍	-11.2237
相從	-11.2238
無惱	-11.2239
行布施	-11.224
在內	-11.2241
十度	-11.2242
之食	-11.2242
時諸	-11.2242
三歸	-11.2244
今觀	-11.2245
國名	-11.2246
此經典	-11.2246
但由	-11.2249
離異不異	-11.2249
不乖	-11.2249
此但	-11.225
聖行	-11.2253
直至	-11.2253
是別	-11.2255
何妨	-11.2257
觀世音菩薩	-11.2257
成唯識	-11.2258
法教	-11.2261
故法華云	-11.2263
方丈	-11.2263
摶	-11.2266
市	-11.2267
巳說	-11.2268
蔭	-11.2268
成所作智	-11.2271
慳悋	-11.2271
樂住	-11.2272
二十五輪	-11.2274
杵	-11.2274
▁初正	-11.2274
云何為四	-11.2275
斷其	-11.2278
說是語已	-11.2279
文四	-11.228
菩提者	-11.228
若但	-11.228
觀諸	-11.2281
樂聞	-11.2281
生在	-11.2283
以餘業故	-11.2283
具說	-11.2284
成熟眾生	-11.2284
於此經	-11.2284
本來無	-11.2285
寧有	-11.2287
棄捐	-11.2287
周旋	-11.2287
而死	-11.2289
今何	-11.2291
▁南无龍	-11.2291
依經	-11.2292
識浪	-11.2293
一頌	-11.2295
有四句	-11.2295
俱離	-11.2299
三惡	-11.23
共住	-11.23
之緣	-11.2301
下賤	-11.2301
可斷	-11.2304
比量	-11.2305
毒藥	-11.2306
業用	-11.2308
常懷	-11.2309
根本智	-11.2312
和上	-11.2312
遵修	-11.2318
名相妄想	-11.2322
一總	-11.2323
僧問	-11.2324
應機	-11.2324
造立	-11.2327
四地	-11.2327
須彌山王	-11.2328
本意	-11.2329
更互	-11.2329
化成	-11.233
入室	-11.2331
非生	-11.2331
逾	-11.2333
稱量	-11.2334
沙門婆羅門	-11.2337
意欲	-11.2338
叔	-11.234
軍眾	-11.2343
聖法	-11.2344
說是語時	-11.2345
是正	-11.2348
箜篌	-11.2348
帳	-11.235
初三	-11.2353
譬如大海	-11.2353
各以	-11.2355
信受奉行	-11.2356
大般若	-11.2358
二顯	-11.2368
川	-11.2369
事也	-11.2372
成前	-11.2374
而為上首	-11.2375
七十二	-11.2375
臨終	-11.2377
悉以	-11.2377
肇	-11.2377
報言	-11.238
明知	-11.2381
方便善巧	-11.2382
自此	-11.2382
䟦	-11.2383
新學	-11.2385
推之	-11.2385
去此	-11.2386
山河	-11.2387
非正	-11.2389
瞿那	-11.2391
經體	-11.2393
非斷	-11.2395
妙華	-11.2397
死者	-11.2397
若斷	-11.2398
是有為	-11.2401
梵世	-11.2402
今鈔	-11.2404
所有眾生	-11.2404
飛行	-11.2405
宗密	-11.2406
平等故	-11.2407
饒益眾生	-11.241
較	-11.2412
覽	-11.2414
以至	-11.2415
過諸	-11.2417
我有	-11.2417
一期	-11.2418
鬚	-11.2418
軀	-11.2418
所得功德	-11.2419
荷負	-11.242
何因緣故	-11.2421
今得	-11.2421
青黃	-11.2424
位者	-11.2424
般泥洹	-11.2425
城邑聚落	-11.2426
散脂	-11.2426
猛利	-11.2427
瓦	-11.2428
合掌向佛	-11.2429
自受用	-11.243
白毫	-11.2433
毀壞	-11.2433
欲以	-11.2434
結名	-11.2435
入滅	-11.2436
摩竭	-11.2437
不得言	-11.2438
識相	-11.2439
準此	-11.2439
造色	-11.2439
明智	-11.2445
能如是	-11.2446
一月	-11.2447
文為四	-11.2448
亦令	-11.2449
於一切時	-11.2455
道路	-11.2457
見諸佛	-11.2457
奉事	-11.2458
煮	-11.246
中出	-11.2463
燈佛南無	-11.2463
處生	-11.2464
永寂	-11.2465
一毛孔	-11.2465
食噉	-11.2469
觀照	-11.2472
苦海	-11.2473
四神足	-11.2475
六品	-11.2476
為第一	-11.2476
利生	-11.2477
』「	-11.2477
)。(	-11.2481
乃云	-11.2482
醫藥	-11.2482
撮	-11.2482
大菩薩眾	-11.2483
識性	-11.2484
是則為	-11.2485
能仁	-11.2485
同分	-11.2485
體即	-11.2486
世有	-11.2487
末香	-11.2488
心心所	-11.2488
句釋	-11.2489
釋題	-11.2491
肘	-11.2491
瓦石	-11.2492
燄	-11.2493
故立	-11.2494
鍊	-11.2495
菩薩於	-11.2496
其行	-11.2496
匿	-11.25
佛國因果	-11.2504
所共	-11.2505
鈴	-11.2505
輕賤	-11.2506
之日	-11.2507
黑闇	-11.2508
阿閦	-11.2509
南無月	-11.2511
諸佛剎土	-11.2512
損害	-11.2513
過也	-11.2517
▁初解	-11.2518
法海	-11.2518
普光明	-11.2519
▁初舉經	-11.252
光中	-11.2521
我及諸佛	-11.2522
常隨	-11.2525
惟願世尊	-11.2528
又於	-11.2528
覺巳	-11.2529
不易	-11.2529
發大心	-11.253
幻事	-11.2531
不學	-11.2532
報化	-11.2532
顛	-11.2533
高山	-11.2534
經題	-11.2535
要當	-11.2535
▁南无樂	-11.2535
我子	-11.2539
億百千	-11.2539
魅鬼	-11.2539
火所燒	-11.254
二十六	-11.2544
於有	-11.2549
此即第二	-11.255
十五日	-11.2552
正示	-11.2554
譯人	-11.2556
於戒	-11.2556
勝功德	-11.2556
彼於	-11.2557
憐	-11.2559
汝當知	-11.2559
教誨	-11.2559
片	-11.2561
普智	-11.2561
上有	-11.2563
醒	-11.2564
揵	-11.2564
如是菩薩	-11.2566
求其	-11.2567
而不捨	-11.2569
佛與	-11.257
為眾生故	-11.257
爾時大慧菩薩摩訶薩復白佛言	-11.2572
無明緣行	-11.2572
螺	-11.2573
座上	-11.2574
醜陋	-11.2575
四住	-11.2576
魔業	-11.2576
作是語已	-11.2578
今從	-11.258
自心妄想	-11.2581
不動地	-11.2582
餘義	-11.2582
塚間	-11.2583
離生滅	-11.2583
捕	-11.2585
無所起	-11.2585
解行	-11.2589
因性	-11.2593
祖師	-11.2594
官屬	-11.2595
死人	-11.2595
先說	-11.2596
諸邪見	-11.2597
所護	-11.2597
陀那	-11.2598
法名	-11.2598
無所從來	-11.2601
如須彌山	-11.2603
善寂	-11.2605
所疑	-11.261
因何	-11.261
法財	-11.2611
必具	-11.2616
宗趣	-11.2619
有罪	-11.2621
第十二	-11.2621
二性	-11.2624
皆然	-11.2625
若有比丘	-11.2626
異熟果	-11.2627
此三昧	-11.2627
譬若	-11.2631
釋者	-11.2631
白象	-11.2632
正勤	-11.2632
同佛	-11.2632
即與	-11.2635
慈悲心	-11.2637
為師	-11.2638
離生死	-11.264
求佛道	-11.2643
之家	-11.2644
旃陀羅	-11.2645
例此	-11.2651
涅槃也	-11.2651
選擇	-11.2654
可意	-11.2655
彼惑亂	-11.2655
財利	-11.2655
宗旨	-11.2655
間錯	-11.2656
前中	-11.2656
嚩	-11.2657
倒懸	-11.2657
其國有佛	-11.2658
崩	-11.2659
後人	-11.2661
曼	-11.2662
眾生見	-11.2667
濡首	-11.2669
甚大	-11.2676
亦曰	-11.2676
初一行	-11.2677
千劫	-11.268
法智	-11.2681
半偈	-11.2681
三慧	-11.2681
無數百千	-11.2683
及一切	-11.2687
邪法	-11.2687
經明	-11.2688
獵	-11.2689
財富	-11.2695
文為三初	-11.2698
妙理	-11.2699
積佛	-11.2699
無所知	-11.2699
二結	-11.27
卷第五	-11.27
無所有處	-11.2705
不破	-11.2706
奉上	-11.2711
絕言	-11.2713
法雨	-11.2713
三千世界	-11.2714
諸法性	-11.2714
筏	-11.2719
不同也	-11.272
圓通	-11.2721
四悉	-11.2721
自利利他	-11.2724
宣揚	-11.2724
聽許	-11.2726
妙慧	-11.2727
第二十	-11.2729
是因	-11.2732
法界性	-11.2733
為利	-11.2733
謂如來	-11.2734
三意	-11.2736
正直	-11.2738
總攝	-11.2738
毀犯	-11.2739
𧗪	-11.2742
亦未	-11.2745
云何知	-11.2745
百千劫	-11.2745
有七種	-11.2746
怨親	-11.2746
他性	-11.2748
▁初總	-11.2749
名善	-11.2749
▁南无離	-11.275
出入息	-11.2751
禪思	-11.2752
說三乘	-11.2755
厭生死	-11.2758
之耳	-11.276
淨居	-11.276
相空	-11.2762
長大	-11.2764
淨佛土	-11.277
所有諸	-11.2772
火大	-11.2772
一真	-11.2772
復起	-11.2774
說是經	-11.2776
學處	-11.2776
憂愁	-11.2777
如前釋	-11.2777
皆同一	-11.2778
法身也	-11.2783
果者	-11.2784
聞是經	-11.2789
盡其	-11.279
膿	-11.2796
掩	-11.2797
一如	-11.2798
十二入	-11.2798
拒	-11.2799
意明	-11.2802
復有二	-11.2802
填	-11.2803
信根	-11.2803
警	-11.2803
世尊所	-11.2803
尚書	-11.2808
心清淨	-11.2809
所及	-11.2809
不自生	-11.2811
去取	-11.2811
建立誹謗	-11.2813
色者	-11.2818
為眾生說	-11.2818
耽著	-11.2818
變易生死	-11.282
著我	-11.2822
不得自在	-11.2825
味著	-11.2825
六年	-11.2828
療治	-11.2831
悟道	-11.2832
意念	-11.2833
在生死	-11.2833
受諸苦惱	-11.2837
五住	-11.2837
不移	-11.2837
想者	-11.2845
莎呵	-11.2846
六十二	-11.2848
問其	-11.2849
竺	-11.2851
供養如來	-11.2853
度脫眾生	-11.2855
所作業	-11.2856
文意	-11.2858
有千	-11.286
而無所	-11.286
▁南无大雲	-11.286
中論	-11.2862
精氣	-11.2866
以何等	-11.2867
倦	-11.2872
即是法身	-11.2874
顯出	-11.2874
得之	-11.2876
不論	-11.2876
於欲	-11.2878
兩種	-11.2878
眼菩	-11.2878
作因	-11.2879
爾時世尊重說頌言	-11.2879
皆入	-11.288
馱	-11.288
製	-11.2881
寶佛	-11.2881
所被	-11.2881
東南方	-11.2883
圓妙	-11.2884
但明	-11.2884
八十種好	-11.2885
是所	-11.2887
床座	-11.2887
為解脫	-11.2888
機緣	-11.2889
同業	-11.2891
極苦	-11.2892
等文	-11.2893
復還	-11.2896
謂若菩薩	-11.2896
無性故	-11.29
流通分	-11.29
據此	-11.2901
耆年	-11.2902
阿彌陀	-11.2902
雖未	-11.2904
辟支	-11.2907
童女	-11.2907
群臣	-11.2908
無他	-11.291
)。】「〔	-11.291
妄起	-11.2914
有餘土	-11.2914
受法	-11.2915
彼彼空	-11.2918
當時	-11.2919
生滅門	-11.2919
大莊嚴	-11.2925
彼經云	-11.2926
又能	-11.293
於正法	-11.293
慧力	-11.2932
毘羅	-11.2935
即上	-11.2936
垢染	-11.2938
法相宗	-11.2938
三解脫門	-11.2938
受想	-11.294
聖默然	-11.294
淨名答	-11.2941
初學	-11.2943
既盡	-11.2943
受陰	-11.2943
開章	-11.2944
未明	-11.2945
生大	-11.2945
識知	-11.2948
罪報	-11.2948
不悟	-11.2948
断	-11.295
不懈	-11.2951
四約	-11.2952
魔怨	-11.2954
依義	-11.2955
中有一	-11.2956
定中	-11.2956
道教	-11.2957
苗	-11.2959
不思議事	-11.2961
幼	-11.2963
骸	-11.2963
役	-11.2965
三十三	-11.2967
毘舍佉	-11.2967
更無餘	-11.2968
章中	-11.297
渴仰	-11.2971
▁南无金	-11.2972
香花	-11.2973
比丘白佛	-11.2974
一切所有	-11.2974
妙德	-11.2974
非空	-11.2975
。」【△	-11.2978
堅住	-11.2978
當機	-11.2979
外物	-11.2979
生彼天	-11.298
世尊所說	-11.2982
非四大	-11.2983
流轉生死	-11.2984
者是也	-11.2985
欲貪	-11.2985
無與等	-11.2987
奉施	-11.2988
無所有故	-11.2989
自他俱	-11.2989
之源	-11.299
羅云	-11.2991
高座	-11.2992
空無所有	-11.2995
難云	-11.2995
方乃	-11.2996
勿令	-11.2997
五果	-11.2997
同此	-11.2997
自分	-11.2998
雖多	-11.2998
無識	-11.2999
「『	-11.3004
即離	-11.3006
幢王佛	-11.3006
禪波羅蜜	-11.3006
得未曾有	-11.3008
斯由	-11.3015
為識	-11.3016
邪命	-11.3016
其旨	-11.3019
同聞	-11.302
花鬘	-11.3021
有支	-11.3024
那得	-11.3026
秖是	-11.3029
鈎鎻	-11.3037
明空	-11.3038
慎勿	-11.3042
線	-11.3042
諸佛剎	-11.3043
羞	-11.3044
歌詠	-11.3045
汝可	-11.3046
所建立	-11.3048
六凡	-11.3048
還歸	-11.3053
千二百五十	-11.3054
涅	-11.3056
以辨	-11.3057
自在王	-11.3059
指示	-11.3059
約義	-11.3066
置於	-11.3067
本源	-11.3068
故令	-11.3069
舍衛國	-11.3069
地地	-11.3069
若自	-11.3071
種種方便	-11.3074
葛	-11.3075
以見	-11.3076
決了	-11.3077
妙聲	-11.308
不了義	-11.308
發露	-11.308
有物	-11.308
聲聞人	-11.3081
能通達	-11.3081
別顯	-11.3082
性常	-11.3086
會中有	-11.3089
泣	-11.3091
厭患	-11.3092
不曉	-11.3092
天佛南無	-11.3092
無漏法	-11.3097
相望	-11.3097
燒煮	-11.3098
定也	-11.3099
勝上	-11.3099
▁初別	-11.31
此女	-11.3101
多分	-11.3104
即理	-11.3105
迷亂	-11.3108
真體	-11.3108
億歲	-11.311
即具	-11.3112
有得	-11.3113
慈悲喜捨	-11.3116
之空	-11.3118
辰	-11.3118
住佛	-11.3119
去者	-11.312
康	-11.312
不受後有	-11.3123
茂	-11.3123
眼色	-11.3124
兆	-11.3124
纖	-11.3127
邪答	-11.3128
了不可得	-11.3131
世尊重攝此義而說	-11.3134
能到	-11.3136
受食	-11.3137
如幻三昧	-11.3138
墮二邊	-11.3138
祇域	-11.3138
法藥	-11.3139
蠲除	-11.3139
離彼	-11.3142
亦具	-11.3142
頒宣	-11.3145
險難	-11.3145
」【(	-11.3146
此即第一	-11.3149
以破	-11.315
當受	-11.3152
悉滅	-11.3154
當為汝	-11.3157
妄想習氣	-11.3157
世事	-11.3166
都不	-11.317
化度	-11.317
下顯	-11.3171
寶器	-11.3172
動靜	-11.3173
定有	-11.3174
所宗	-11.3177
樂受	-11.3179
略示	-11.318
法生	-11.3182
初分文	-11.3182
諸寶	-11.3183
復作是念	-11.3187
入息	-11.3188
常與	-11.3191
一實境界	-11.3193
三昧起	-11.3194
首菩	-11.3195
無常等	-11.3195
泥團	-11.3195
一念心	-11.3196
自稱	-11.3197
楞	-11.3199
盂蘭盆	-11.32
虔	-11.3201
其處	-11.3201
次觀	-11.3203
妙觀察智	-11.3204
魯	-11.3205
標指	-11.3207
勤行精進	-11.3208
皆歸	-11.3208
之土	-11.321
皆發阿耨多羅三藐三菩提心	-11.3214
橋	-11.3214
依文	-11.3215
述云	-11.3216
艱	-11.3216
授決	-11.3219
無量光	-11.322
正真	-11.3221
後四	-11.3222
非定	-11.3224
偈曰	-11.3227
那羅	-11.3228
釋論云	-11.3228
不散	-11.3233
四字	-11.3234
妄識	-11.3235
斷障	-11.3236
爾時佛告	-11.324
)。】	-11.3243
之異名	-11.3247
無覺	-11.3247
巳前	-11.3249
阿彌陀佛	-11.3254
五人	-11.3254
宛	-11.3257
七覺	-11.3259
滿願	-11.326
據實	-11.326
資具	-11.326
欲聞	-11.3261
懈	-11.3263
諸法自性	-11.3265
我愛	-11.3268
於緣起	-11.3268
無生死	-11.327
三際	-11.3273
慈恩	-11.3274
別者	-11.3274
不可取	-11.3275
修菩薩行	-11.3276
逕	-11.3277
理實	-11.3278
緣了	-11.328
樂音	-11.3281
故論云	-11.3283
於境	-11.3284
如有	-11.3284
兜率陀天	-11.3284
大明	-11.3287
溢	-11.3287
初先	-11.3288
大圓覺	-11.3293
二因	-11.3293
二初約	-11.3294
器世間	-11.3294
初列	-11.3296
無有實	-11.3297
方法	-11.3298
燋	-11.3298
頞	-11.33
▁南无甘露	-11.33
造惡業	-11.3301
聞是語已	-11.3302
心既	-11.3302
諸三昧	-11.3305
救度	-11.3306
圓人	-11.331
未審	-11.331
顯勝	-11.331
命終之後	-11.3311
悲泣	-11.3313
證菩提	-11.3314
解義	-11.3317
彼以聞慧見	-11.332
白世尊	-11.3322
應捨	-11.3323
王位	-11.3323
我空	-11.3323
於食	-11.3324
窮盡	-11.3324
作沙門	-11.3326
其王	-11.3327
淨潔	-11.333
故說為	-11.3331
骨人	-11.3331
經家	-11.3332
行步	-11.3332
覺所覺	-11.3334
即真如	-11.3336
謂能	-11.3338
可證	-11.3343
喻也	-11.3344
蓮花池	-11.3345
法愛	-11.3348
是凡夫	-11.3348
三曰	-11.3349
如響	-11.335
滅道	-11.335
若遇	-11.335
由是因緣	-11.3351
十里	-11.3351
極樂	-11.3353
夢幻	-11.3358
祀	-11.336
令修	-11.3362
證此	-11.3363
大寶	-11.3364
善趣	-11.3364
未忘	-11.3365
明鏡	-11.3366
規	-11.3367
無戲論	-11.3367
色法	-11.3367
諸山	-11.3367
領解	-11.3369
毘鉢舍那	-11.337
等經	-11.337
性起	-11.3372
戾	-11.3372
已斷	-11.3373
文殊章	-11.3373
勝性	-11.3374
千里	-11.3376
是第一義	-11.3378
真識	-11.3379
異道	-11.3379
一切有為	-11.3379
朋友	-11.3379
節節	-11.3381
信行	-11.3381
魔波旬	-11.3382
與外道	-11.3387
偏圓	-11.3389
論義	-11.3389
妄情	-11.339
來至此	-11.339
設教	-11.339
於虛空中	-11.3395
種諸善根	-11.3396
二慧	-11.3396
能燒	-11.3399
十八不共法	-11.3399
往彼	-11.3399
以身	-11.3401
幻智	-11.3402
奈	-11.3404
得人身	-11.3404
耶解云	-11.3405
汙	-11.3406
不復生	-11.3408
疑念	-11.341
觀其	-11.3412
劫初	-11.3412
遍覆	-11.3412
自守	-11.3413
有行	-11.3413
之頃	-11.3417
空品	-11.3418
故前	-11.3418
初中二	-11.3418
氣力	-11.3419
二種無我	-11.3424
即色	-11.3427
成就佛	-11.3427
教行	-11.3428
順法	-11.343
皈	-11.343
舍衛	-11.3436
持淨戒	-11.3437
燭	-11.3439
於菩提	-11.344
道俗	-11.3443
唯見	-11.3444
智相	-11.3444
外現	-11.3449
善德	-11.345
準前	-11.3451
把	-11.3452
瑩	-11.3452
於中有三	-11.3453
仗	-11.3453
演義	-11.3455
無有二	-11.3456
趨	-11.3456
莂	-11.3456
是道	-11.3457
後文	-11.3458
七八	-11.3458
難信	-11.3459
峰	-11.3459
稽首佛足	-11.346
來會	-11.346
是故說名	-11.3463
答也	-11.3463
洋	-11.3463
全無	-11.3464
相資	-11.3465
四無畏	-11.3466
無所罣礙	-11.3466
馳走	-11.3466
如來名號	-11.3468
是世間	-11.347
▁二結	-11.3471
中求	-11.3472
齋戒	-11.3474
身光	-11.3474
愍念	-11.3476
無力	-11.3477
四百	-11.3479
脩習	-11.3481
疏鈔	-11.3481
無住處	-11.3481
惱害	-11.3482
我病	-11.3482
肯	-11.3482
所從	-11.3483
眾具	-11.3483
若執	-11.3483
從他	-11.3485
顯體	-11.3485
美味	-11.3486
大品云	-11.3486
心想	-11.3487
修成	-11.3487
孝子	-11.3488
愛憎	-11.349
復有異	-11.3491
法性身	-11.3492
如其所	-11.3494
善男子善女人	-11.3495
食時	-11.3495
入不二	-11.3497
赤色	-11.3498
即是涅槃	-11.3502
若有若無	-11.3502
能信	-11.3502
亦常	-11.3511
腹中	-11.3512
逗	-11.3515
不被	-11.3517
夜摩	-11.3518
便自	-11.3518
之所能	-11.352
言語道斷	-11.3524
現瑞	-11.3524
各說	-11.3525
眾生之類	-11.3527
千年	-11.3528
對機	-11.3528
鑽	-11.3528
此通	-11.3529
奢利弗	-11.353
散動	-11.3532
佛知	-11.3532
阿蘭若	-11.3532
剛強	-11.3535
厥	-11.3536
之師	-11.3537
界中	-11.3538
貝	-11.3539
不加	-11.3541
債	-11.3541
贍部洲	-11.3542
踐	-11.3542
文殊師利童子	-11.3547
真如門	-11.3548
法雲地	-11.3549
二土	-11.3549
度之	-11.3549
時分	-11.3552
婁	-11.3553
復現	-11.3553
明矣	-11.3556
幻心	-11.3556
應離	-11.3557
一雙	-11.3557
行行	-11.3558
大般涅槃	-11.356
身長	-11.3561
水大	-11.3561
光如來	-11.3561
但得	-11.3562
法喜	-11.3563
我昔	-11.3563
結縛	-11.3564
歡樂	-11.3565
此即是	-11.3566
起煩惱	-11.3571
皆通	-11.3571
通教菩薩	-11.3572
得出	-11.3574
鵝王	-11.3576
常寂光	-11.3577
無上正真之道	-11.3577
究盡	-11.3577
普賢菩薩	-11.358
妙玄	-11.358
為異	-11.3581
白骨	-11.3584
頓證	-11.3585
唱言	-11.3589
過去未來現在	-11.359
亦即	-11.3592
得證	-11.3592
分四	-11.3594
六義	-11.3594
耆婆	-11.3595
譯云	-11.3596
吾今	-11.3602
八十億	-11.3603
解脫故	-11.3606
隨從	-11.3606
念言	-11.3607
當教	-11.3607
譯經	-11.361
雲集	-11.3612
殊勝功德	-11.3613
兔馬	-11.3613
共成	-11.3618
是諸佛	-11.3619
菩薩心	-11.3619
泛	-11.362
懇	-11.3621
水精	-11.3621
人物	-11.3622
凶	-11.3622
及諸大眾默然而聽	-11.3622
臘	-11.3623
所有一切	-11.3624
我想	-11.3627
命者	-11.3628
而得自在	-11.363
毘婆舍那	-11.3631
澡	-11.3631
沫	-11.3632
日月光	-11.3632
白法	-11.3634
本識	-11.3634
母胎	-11.3634
不增	-11.3637
香佛南無	-11.3637
喜心	-11.3638
自性清淨心	-11.3638
不即	-11.3639
為相	-11.3639
入地	-11.3639
犁	-11.364
如大海	-11.3641
詳之	-11.3645
說此法	-11.3646
告諸	-11.3648
無量諸佛	-11.3648
不執	-11.3649
若準	-11.3649
真佛	-11.3649
次二句	-11.365
如是見	-11.3656
亦不知	-11.3657
起心	-11.3657
樂修	-11.3657
發大	-11.3659
真實相	-11.3662
▁後別	-11.3663
三期	-11.3665
文殊師利法王子	-11.3669
於此中	-11.3671
阿難白佛言	-11.3672
目前	-11.3675
方圓	-11.368
除一切	-11.368
所餘	-11.3682
發言	-11.3682
引之	-11.3683
已還	-11.3685
喜見	-11.3686
二品	-11.3686
一切眾生心	-11.3686
菩提樹下	-11.3687
清白	-11.3688
身等	-11.3689
紀	-11.3689
願樂	-11.369
附文	-11.369
為上首	-11.369
大義	-11.369
不如法	-11.3692
五乘	-11.3692
故我不任詣彼問疾	-11.3692
願得	-11.3696
不來不去	-11.3696
佛神力	-11.3699
依主釋	-11.3699
有無量種	-11.3702
諸眾生故	-11.3702
李	-11.3702
本文	-11.3706
萬億	-11.3707
無縛	-11.3707
奚	-11.3707
鞭	-11.3708
他化自在天	-11.3709
吏	-11.371
▁南无堅	-11.3711
姝	-11.3712
大方廣	-11.3714
妙好	-11.3714
行門	-11.3715
阿須倫	-11.3718
經宗	-11.372
空界	-11.372
為方便	-11.3721
萎	-11.3721
序云	-11.3724
圓淨	-11.3726
成阿耨多羅三藐三菩提	-11.3726
三賢	-11.3726
但隨	-11.3728
此經文	-11.3729
識等	-11.373
聚沫	-11.373
說通	-11.3731
汝身	-11.3734
知有	-11.3735
苦因	-11.3737
八解	-11.3737
五名	-11.3741
之疾	-11.3741
覺體	-11.3743
是同	-11.3748
此間	-11.3748
既生	-11.3753
無閡	-11.3754
除煩惱	-11.3754
已離	-11.3754
放捨	-11.3757
從初發心	-11.3759
七百	-11.376
迷於	-11.3762
證圓覺	-11.3764
是相	-11.3764
▁南无波頭摩	-11.3765
疑網	-11.3767
攀	-11.3769
五教	-11.3769
有分別	-11.377
語業	-11.3771
而欲	-11.3771
然後乃	-11.3773
受用身	-11.3774
顯了	-11.3774
各得	-11.3777
趣入	-11.3779
佛南無香	-11.378
等是	-11.3781
其功德	-11.3781
右旋	-11.3782
受行	-11.3783
無等等	-11.3783
當勤	-11.3785
濟度	-11.3785
五百人	-11.3785
行陰	-11.3786
得神通	-11.3787
影現	-11.3787
差別故	-11.3787
狐	-11.3787
搏	-11.3787
一異俱不俱	-11.3788
▁南无持	-11.3788
▁初示	-11.379
何物	-11.3791
洛	-11.3791
遍一切處	-11.3792
剛藏	-11.3792
相與	-11.3792
夕	-11.3793
相傳	-11.3793
函	-11.3793
從何所來	-11.3794
毘耶離	-11.3794
約法	-11.3794
雖通	-11.3794
前巳	-11.3794
超度	-11.3795
國界	-11.3795
巳成	-11.3797
復觀	-11.3797
執着	-11.3798
於虛空	-11.3798
掘	-11.3799
又彼比丘知業果報	-11.38
奮迅佛	-11.3802
所纏	-11.3802
野馬	-11.3802
造惡	-11.3804
經書	-11.3804
已去	-11.3805
受之	-11.3805
芭蕉	-11.3806
是金光明	-11.3807
不雜	-11.3808
受五欲樂	-11.381
來集	-11.381
退沒	-11.3813
所解	-11.3813
或名	-11.3815
勝智	-11.3815
非無因	-11.3815
一切天眾	-11.3817
當得作佛	-11.3817
生巳	-11.3818
大梵天王	-11.3821
勝王佛南無	-11.3821
或生	-11.3822
有人言	-11.3824
鐵圍山	-11.3826
加被	-11.3826
破彼	-11.3827
所得法	-11.3828
十劫	-11.3829
違背	-11.383
印定	-11.3831
如來藏心	-11.3832
真性解脫	-11.3834
惡魔	-11.3835
諸國	-11.3835
八邪	-11.3836
除愈	-11.3838
遷流	-11.3839
曾聞	-11.3841
證智	-11.3845
各具	-11.3845
方知	-11.3845
四句者	-11.3845
亦離	-11.3845
卷第六	-11.3846
入初地	-11.3846
求索	-11.385
息滅	-11.3851
圓覺者	-11.3851
一切苦	-11.3852
成菩提	-11.3854
)「	-11.3854
今乃	-11.3855
其名曰	-11.386
經教	-11.3861
毒害	-11.3864
三心	-11.3864
資粮	-11.3865
曰眾祐	-11.3865
上二句	-11.3867
勝菩	-11.3868
異類	-11.3874
壅	-11.3875
無我所	-11.3875
獲大	-11.3878
三無性	-11.3878
勝相	-11.3883
三果	-11.3883
忽然不現	-11.3884
大光	-11.3887
巨海	-11.3889
以前	-11.3889
蹈	-11.3889
志願	-11.389
妄認	-11.389
了義經	-11.3891
入理	-11.3892
陣	-11.3893
厄難	-11.3893
甚可愛樂	-11.3894
內外法	-11.3895
寶勝	-11.3895
能引	-11.3895
從佛聞	-11.3895
由有	-11.3895
其女	-11.3896
大藏	-11.3898
間斷	-11.3899
散壞	-11.39
第四禪	-11.3901
若斯	-11.3902
地獄苦	-11.3903
漸頓	-11.3904
初對	-11.3905
靜觀	-11.3906
極大	-11.3907
隨行	-11.3908
終歸	-11.3908
有十二	-11.3908
菩薩得此	-11.3909
以證	-11.391
順行	-11.391
天衣	-11.391
觀境	-11.3912
六行	-11.3915
諸苦惱	-11.3915
承佛	-11.3917
外境界	-11.392
如來南無無邊	-11.392
染汙	-11.3921
共生	-11.3922
為護	-11.3922
無上正真道	-11.3923
三日	-11.3925
教主	-11.3926
普觀	-11.3926
施佛	-11.3926
風雨	-11.3927
思慧	-11.3929
發無上	-11.3932
真實法	-11.3933
此章	-11.3933
通序	-11.3934
別也	-11.3935
智菩	-11.3937
何謂為四	-11.3937
開顯	-11.3938
普見	-11.3939
如鏡中像	-11.394
漸修	-11.3942
次一行	-11.3942
善意	-11.3942
所獲	-11.3943
得值	-11.3943
阿閦佛	-11.3943
亦復無	-11.3945
之法也	-11.3946
稱理	-11.3946
如來出世	-11.3947
小異	-11.3947
頭上	-11.3949
不應說	-11.3951
嚴身	-11.3952
章安	-11.3954
白色	-11.3954
闡	-11.3957
無塵	-11.3961
疑佛	-11.3963
法律	-11.3965
無實體	-11.3966
非數	-11.3966
斤	-11.3968
迭相	-11.3968
助成	-11.3968
祕藏	-11.3968
若不異者	-11.3969
爾時世尊重說偈言	-11.397
疾疫	-11.397
猴	-11.397
無作相	-11.3971
增損	-11.3972
幾時	-11.3975
所作已辦	-11.3975
非諸	-11.3976
風大	-11.3978
於生死中	-11.398
為上	-11.3982
如所說	-11.3983
無量壽	-11.3985
此段	-11.3985
此難	-11.3985
利人	-11.3986
宮室	-11.3988
巴	-11.3988
所生之處	-11.3994
離心意意識	-11.3995
梵天王	-11.3995
亦見	-11.3996
居家	-11.3996
而用	-11.3996
脩行者	-11.4002
即解脫	-11.4002
▁南无寂	-11.4004
不存	-11.4007
深生	-11.4011
藥草	-11.4013
集眾	-11.4016
舊經	-11.4017
八相	-11.4018
眾華	-11.4021
不生妄想	-11.4021
次復	-11.4023
彼人如是	-11.4023
如蓮華	-11.4024
唯取	-11.4025
離妄	-11.4025
來生其國	-11.4026
此世界	-11.4034
入五法	-11.4038
貪求	-11.4038
志求	-11.404
與理	-11.4041
圓覺妙心	-11.4043
疆	-11.4043
四依	-11.4043
後心	-11.4044
調柔	-11.4044
扣	-11.4045
其室	-11.4045
清淨無垢	-11.4046
入正位	-11.4047
大利益	-11.4052
以神通力	-11.4053
法華經云	-11.4053
旃檀	-11.4053
天耳	-11.4054
却住一面	-11.4055
爐	-11.4056
相稱	-11.4056
一切惡	-11.4057
縮	-11.4059
唯以	-11.4059
藥師琉璃光如來	-11.4059
問我	-11.406
次一頌	-11.406
活命	-11.4061
▁南无雲	-11.4061
祕密藏	-11.4063
復有二種	-11.4064
假合	-11.4064
澡浴	-11.4064
食人	-11.4065
假使有人	-11.4065
瘦	-11.4066
專精	-11.4067
所有功德	-11.4068
四正勤	-11.4069
常寂光土	-11.4069
無煩惱	-11.4069
咽喉	-11.4072
思益梵天	-11.4073
宛轉	-11.4074
以善業故	-11.4074
然有	-11.4075
有非有	-11.4076
無涅槃	-11.4078
福行	-11.4079
死生	-11.408
功德智慧	-11.4083
雜寶	-11.4083
下答	-11.4087
勤求	-11.4089
八正	-11.409
阿闍世王	-11.4093
法花	-11.4094
若未	-11.4095
豐樂	-11.4096
發誓	-11.4096
為最	-11.41
以一切法	-11.4101
故偏	-11.4102
漸生	-11.4103
世所	-11.4104
變成	-11.4104
壽終	-11.4104
根力	-11.4106
此當	-11.4106
行放逸	-11.4107
發業	-11.4109
隨俗	-11.4109
皆爾	-11.4111
及涅槃	-11.4112
施食	-11.4112
隨處	-11.4114
長跪	-11.4115
應說	-11.4116
上味	-11.4119
三昧力	-11.4119
大丈夫	-11.4121
愛佛	-11.4125
樂處	-11.4125
紹隆	-11.4126
聲聞弟子	-11.4128
愍傷	-11.4128
諸難	-11.4129
勤行	-11.413
因地法行	-11.4132
肺	-11.4132
寂寞	-11.4133
謂離	-11.4135
敘述	-11.4135
漚	-11.4138
畔	-11.4139
如天	-11.4139
喧	-11.4139
月輪	-11.414
魂	-11.414
選	-11.414
非汝	-11.414
去來今	-11.414
旁	-11.414
以譬	-11.4144
如空華	-11.4144
隨文	-11.4144
恬	-11.4145
飢饉	-11.4146
引文	-11.4147
貴賤	-11.4147
㝡	-11.4148
本住法	-11.4148
有一人	-11.4151
次句	-11.4152
鴿	-11.4152
剝	-11.4153
山王佛	-11.4153
沸	-11.4154
之主	-11.4154
牛羊	-11.4154
彼見	-11.4156
金翅鳥	-11.4156
分別者	-11.4159
敬田	-11.416
山谷	-11.4161
腸	-11.4162
識界	-11.4162
寶光明	-11.4163
得忍	-11.4164
闇冥	-11.4166
伽他	-11.4166
成實	-11.4167
名如來藏	-11.4169
流支云	-11.4169
問何故	-11.4172
得住	-11.4173
魔外	-11.4177
皆說	-11.4177
障道	-11.4183
六時	-11.4183
入如來地	-11.4183
伽耶	-11.4184
身色	-11.4185
行中	-11.4186
鮮白	-11.4189
無斷	-11.4191
大德舍利弗	-11.4193
而發	-11.4193
無明住地	-11.4195
別惑	-11.4198
祐	-11.4198
文可見	-11.4198
須陀洹果	-11.42
少時	-11.42
應現	-11.4208
只為	-11.4209
彌勒佛	-11.421
到彼	-11.4212
是幻	-11.4212
寂靜故	-11.4212
智論云	-11.4213
常作	-11.4214
調伏心	-11.4215
諸經論	-11.4217
靜慧	-11.4217
已盡	-11.4218
漸教	-11.4221
集註云	-11.4222
六百	-11.4222
維摩經	-11.4223
先當	-11.4223
心得解脫	-11.4223
始知	-11.4224
韻	-11.4224
職	-11.4225
科攝屬	-11.4226
示現如是	-11.4226
羯磨	-11.4226
元是	-11.4227
今是	-11.4228
五門	-11.4228
微塵等	-11.4228
渾	-11.4229
無所取	-11.423
二引證	-11.4231
隙	-11.4231
依於一異俱不俱有無非有非無常無常	-11.4231
及諸外道	-11.4232
坌	-11.4232
鸚鵡	-11.4236
名佛	-11.4239
溪	-11.424
陷	-11.4241
見淨	-11.4241
祿	-11.4241
殘害	-11.4242
骨髓	-11.4243
身意	-11.4243
賒	-11.4244
成就佛南無	-11.4245
嬉戲	-11.4248
此六	-11.4253
此總	-11.4254
一道	-11.4254
幡蓋	-11.4257
?「	-11.4258
食肉者	-11.4259
精進力	-11.4259
即空假中	-11.4261
分散	-11.4262
大河	-11.4262
佛出	-11.4262
先修	-11.4264
巳滅	-11.4265
題目	-11.4265
?』「	-11.4266
十句	-11.4267
之音	-11.4271
亦由	-11.4273
生苦	-11.4276
二萬	-11.4277
四品	-11.4277
無妨	-11.4278
之論	-11.4278
但聞	-11.4279
去是	-11.428
印可	-11.4281
標名	-11.4282
作利益	-11.4282
戲樂	-11.4287
有殊	-11.4288
之惑	-11.4289
如汝所	-11.4289
何故說	-11.429
熱病	-11.4292
一切賢聖	-11.4292
佛南無甘露	-11.4296
得其便	-11.4296
那含	-11.4297
勝德	-11.4297
下別釋	-11.4298
邪因	-11.43
一切皆是	-11.4304
法音	-11.4306
修禪	-11.4308
當作佛	-11.4309
長遠	-11.4309
虛假	-11.4311
增勝	-11.4312
釋迦文	-11.4313
人之所	-11.4314
還成	-11.4315
少病	-11.4315
眾妙	-11.4316
當遠離	-11.4316
末後	-11.4318
解之	-11.4319
猶在	-11.432
討	-11.4321
重重	-11.4321
其音	-11.4323
平正	-11.4324
橋梁	-11.4325
佐	-11.4326
不定性	-11.4326
踏	-11.4327
四十二章	-11.4329
咄	-11.4329
時長者子	-11.4329
毀戒	-11.4329
以何義故	-11.433
作善	-11.4331
義通	-11.4331
在地	-11.4331
棃	-11.4332
色聲	-11.4332
四天王天	-11.4332
斧	-11.4333
溥首	-11.4337
不唯	-11.4338
結加趺坐	-11.4339
名不思議	-11.4341
同是	-11.4344
佛名經	-11.4345
欲往	-11.4346
能通	-11.4347
見法無我	-11.4347
六十四	-11.4348
大海水	-11.4349
果地	-11.4349
復得	-11.4351
夜摩天王	-11.4355
易見	-11.4358
此陀羅尼	-11.4358
行乞食	-11.4358
是應	-11.436
時無垢稱	-11.436
青蓮	-11.4361
無遺	-11.4362
淨眼	-11.4362
皆約	-11.4362
令斷	-11.4366
未詳	-11.4368
淨法界	-11.4371
色蘊	-11.4372
自心現妄想	-11.4374
不偏	-11.4375
別序	-11.4376
何別	-11.4378
寶光	-11.4378
無有障礙	-11.438
法會	-11.4382
金色光	-11.4384
既然	-11.4385
授與	-11.4385
宮中	-11.4388
生不生	-11.4392
眾祐	-11.4393
自立	-11.4393
室空	-11.4393
故舉	-11.4394
今更	-11.4396
三千界	-11.4396
外道邪見	-11.4397
其父	-11.4398
重頌	-11.4398
之覺	-11.4403
勘	-11.4404
舌相	-11.4405
壤	-11.4407
次文	-11.4407
盛滿	-11.4408
斷集	-11.4409
迫	-11.4411
俯	-11.4411
十歲	-11.4411
綿	-11.4413
故起	-11.4414
隋	-11.4415
諾	-11.4415
腰	-11.4417
已過	-11.4418
▁初正釋	-11.442
勸化	-11.442
前六	-11.442
不久當	-11.4422
王三昧	-11.4423
四天	-11.4423
不同故	-11.4425
六度無極	-11.4428
受罪	-11.4428
於菩薩	-11.4429
毛竪	-11.4429
過咎	-11.4429
犍	-11.443
無染著	-11.4431
垂迹	-11.4435
限量	-11.4435
功德海	-11.4435
合為	-11.4437
承佛威神	-11.4438
青寶	-11.4441
優波	-11.4443
二死	-11.4444
今亦	-11.4445
之稱	-11.4446
墮有無	-11.4447
達摩	-11.4447
可食	-11.445
輪轉生死	-11.445
室中	-11.4452
尊長	-11.4452
上座	-11.4453
之水	-11.4453
二乘外道	-11.4454
服藥	-11.4455
外色	-11.4456
南無華	-11.4461
善觀	-11.4463
多緻他	-11.4463
兩字	-11.4465
同學	-11.4467
萬八千	-11.4468
出聲	-11.4469
四悉檀	-11.447
汝何	-11.4471
下有	-11.4471
最極	-11.4471
齊修	-11.4471
皆在	-11.4472
所壞	-11.4473
七月	-11.4473
火中	-11.4474
相耶	-11.4476
此二種	-11.4479
大導師	-11.448
舉手	-11.4483
所犯	-11.4487
何等為三	-11.4487
隱顯	-11.4488
如須彌	-11.4489
慢心	-11.4489
不能了	-11.4491
我本	-11.4494
至佛所	-11.4495
在定	-11.4495
得定	-11.4496
鄭	-11.4497
後方	-11.4497
真淨	-11.4498
能造所造	-11.4498
所生處	-11.4501
佛知見	-11.4502
自娛	-11.4502
綸	-11.4503
倣	-11.4503
母字	-11.4504
巳盡	-11.4505
錯謬	-11.4506
朱	-11.4506
常能	-11.4506
正語	-11.4508
自體相	-11.4509
一億	-11.451
耐	-11.4511
為先	-11.4511
蟻	-11.4513
別離	-11.4513
巷	-11.4515
細滑	-11.4517
彼文	-11.4517
𢙣	-11.4517
勤修習	-11.4517
之觀	-11.4517
計為	-11.4518
釋上	-11.452
色無色	-11.4521
皆盡	-11.4522
有其二	-11.4524
聞斯	-11.4524
行菩薩道	-11.4527
飛鳥	-11.4528
即告	-11.4529
三尊	-11.4534
到佛所	-11.4534
入生死	-11.4537
即從坐起	-11.4538
說經法	-11.4538
魔羅	-11.4539
不發	-11.4539
生愛	-11.454
淨無垢	-11.4541
示人	-11.4542
初云	-11.4543
令一切眾生	-11.4544
隨於	-11.4546
勝慧	-11.4551
生人天	-11.4552
處非處	-11.4552
且置	-11.4552
境觀	-11.4553
如是人	-11.4555
而證	-11.4557
▁南无稱	-11.4558
此四句	-11.4561
王菩薩	-11.4561
極惡	-11.4562
化佗	-11.4563
次答	-11.4563
唯識云	-11.4564
二處	-11.4564
深密經云	-11.4567
兩重	-11.4567
虛無	-11.4568
菩薩戒	-11.457
為誰	-11.4571
勿生	-11.4571
大乘經	-11.4572
昔有	-11.4572
則見	-11.4574
有漏無漏	-11.4575
生酥	-11.4577
得自覺聖智	-11.4577
色性	-11.4578
毘曇	-11.4579
求善知識	-11.4581
為用	-11.4581
邊地	-11.4585
之識	-11.4588
空無相無作	-11.4592
靜處	-11.4594
之矣	-11.4595
春秋	-11.4596
無始以來	-11.4597
鏡中	-11.4597
行住坐臥	-11.4597
凡小	-11.4597
阿羅訶	-11.4597
▁南无成就	-11.4601
疑者	-11.4601
能住	-11.4603
者如來南無	-11.4603
未度	-11.4604
耕	-11.4605
機宜	-11.4606
轍	-11.4606
為滅	-11.4606
願令	-11.4608
澁	-11.4609
十二部	-11.4609
須達	-11.461
利故	-11.461
與大比丘眾	-11.461
姟	-11.4612
必由	-11.4613
▁初問	-11.4613
由昔	-11.4613
而往	-11.4613
出妙音聲	-11.4615
其有得聞	-11.4616
閡	-11.4617
而反	-11.4618
阿鼻地獄	-11.4619
怛姪他	-11.4619
未除	-11.4621
食已	-11.4624
無二相	-11.4627
有力	-11.4627
習學	-11.4633
無聞	-11.4634
惡事	-11.4636
法幢	-11.4636
權方便	-11.4636
化城	-11.4637
生緣	-11.4639
注云云者	-11.464
略疏	-11.464
刀杖	-11.4641
是故我今	-11.4643
能正	-11.4645
覺佛	-11.4646
自覺境界	-11.4646
病本	-11.4647
所動	-11.4649
一切聲聞緣覺	-11.4649
前境	-11.465
淨德	-11.4652
第三句	-11.4653
起妄想	-11.4654
我不說	-11.4655
發菩提心者	-11.4656
有世界名曰	-11.4657
聚佛南無	-11.4659
眾生類	-11.4661
復告	-11.4664
如來南無寶	-11.4668
其志	-11.467
其前	-11.4672
巳竟	-11.4672
饑	-11.4674
根量	-11.4676
三假	-11.4678
生愛樂	-11.4678
菴園	-11.4678
發趣	-11.4679
普令	-11.4679
彼王	-11.4679
果實	-11.468
為化	-11.4683
發無上正真道意	-11.4683
起信論	-11.4684
速證	-11.4686
有名	-11.4686
評	-11.4686
而致	-11.4687
惡報	-11.4687
示有	-11.4689
桃	-11.4689
所列	-11.469
安穩	-11.469
羅什	-11.4692
予	-11.4692
貪嗔癡	-11.4692
貧人	-11.4693
已能	-11.4693
順理	-11.4694
羽	-11.4694
結上	-11.4694
斛	-11.4694
譚	-11.4694
諸境	-11.4695
犢子	-11.4695
霧	-11.4695
季	-11.4696
巳去	-11.4697
諸界	-11.4699
無色定	-11.4701
頭面禮足	-11.4702
牟	-11.4702
無量億	-11.4703
兜	-11.4708
入於涅槃	-11.4709
貢	-11.4709
臨命終時	-11.471
色中	-11.471
獨步	-11.4713
頭面	-11.4713
阿耨達	-11.4714
思惟佛	-11.4716
隨業	-11.4716
圓成實性	-11.4717
隨法行	-11.4717
初徵	-11.4718
瑟	-11.472
諸道	-11.4723
不常	-11.4723
同處	-11.4725
其量	-11.4725
萬人	-11.4727
□□□□□□□□□□□□□□□□	-11.4727
義意	-11.4728
別義	-11.4729
便謂	-11.4731
始生	-11.4732
中品	-11.4735
意解	-11.4739
南山	-11.4742
所不及	-11.4743
壽量品	-11.4746
報曰	-11.4747
於苦	-11.4747
十月	-11.475
諸小	-11.475
好惡	-11.4751
生滅四諦	-11.4751
所行處	-11.4751
悲哀	-11.4754
其家	-11.4758
孔子	-11.4759
種種寶	-11.4759
雞兜	-11.476
發道意	-11.476
干	-11.4763
斯人	-11.4765
諸法空	-11.4766
億那由他	-11.4767
德如來	-11.4767
家中	-11.4768
各各自	-11.477
有門	-11.477
▁南无花	-11.4774
無始來	-11.4774
梵眾	-11.4774
九月	-11.4776
戒取	-11.4778
所從來	-11.4779
得陀羅尼	-11.4779
外道所計	-11.478
祗	-11.4783
生住異滅	-11.4783
芥	-11.4783
而顯	-11.4784
但用	-11.4784
從本巳來	-11.4785
法施之會	-11.4785
門入	-11.4785
罪報懺悔	-11.4787
所聞法	-11.4787
愛佛南無	-11.4787
隨應	-11.4789
分為三	-11.4789
其因	-11.479
無惡	-11.4791
景	-11.4793
化主	-11.4793
天尊	-11.4793
厭惡	-11.4793
而退	-11.4794
甚為希有	-11.4794
朋	-11.4795
滅已	-11.4795
香味	-11.4795
天龍八部	-11.4796
意令	-11.4797
吠	-11.4797
住者	-11.4799
花池	-11.48
工巧	-11.48
之首	-11.4801
千世界	-11.4801
三疑	-11.4802
俱舍云	-11.4805
之喻	-11.4806
雙遮	-11.481
亦不念	-11.4811
說此偈已	-11.4811
重明	-11.4812
淨佛	-11.4813
示入	-11.4813
非剎那	-11.4814
是第二	-11.4815
彼山	-11.4816
經部	-11.4816
道種智	-11.4817
入海	-11.4818
中根	-11.4819
而心	-11.482
善方便	-11.4822
三佛性	-11.4823
摩訶般若	-11.4823
極重	-11.4824
第六識	-11.4824
離染	-11.4824
反覆	-11.4826
第一義心	-11.4826
若唯	-11.4827
尸棄	-11.4828
善護	-11.4828
不應作	-11.4829
師長	-11.4833
亦作	-11.4834
火坑	-11.4835
此由	-11.4836
經初	-11.484
智者所	-11.4841
無殊	-11.4842
自悟	-11.4843
不覺不知	-11.4843
光相	-11.4844
▁南无栴檀	-11.4846
清淨者	-11.4847
非他	-11.4848
所請	-11.4849
無漏界	-11.4849
究竟覺	-11.4858
前章	-11.4861
觀一切法	-11.4861
而共	-11.4866
上地	-11.4866
四無礙	-11.4867
摩那	-11.4869
具說如彼	-11.4869
天子言	-11.4873
諸蟲	-11.4873
四十一	-11.4873
▁南无阿	-11.4874
故我說	-11.4875
等義	-11.4877
梵網	-11.4879
口出	-11.4881
纂	-11.4881
廣分別	-11.4881
瓦礫	-11.4881
緣修	-11.4884
非真實	-11.4884
文為二初釋	-11.4884
四大及造色	-11.4884
墨	-11.4885
科云	-11.4886
有二句	-11.4886
妖	-11.4889
此依	-11.4891
禱	-11.4891
模	-11.4892
狀如	-11.4892
徵起	-11.4893
師子之座	-11.4895
罵詈	-11.4895
深達	-11.4897
人空	-11.49
于時	-11.4901
佛德	-11.4901
問若爾	-11.4901
非理	-11.4901
勝定	-11.4903
起大悲心	-11.4905
園中	-11.491
二辨	-11.4911
本宿命時	-11.4912
!」「	-11.4916
展轉相因	-11.4916
不驚	-11.492
智識	-11.4922
修三觀	-11.4922
分位	-11.4922
中所有	-11.4923
諸賢聖	-11.4928
不害	-11.4931
離惡	-11.4932
色聲香味觸	-11.4932
行乞	-11.4933
是謂菩薩	-11.4933
真應	-11.4934
見性	-11.4935
見愛	-11.4936
尊敬	-11.4936
方處	-11.4937
斯為	-11.4937
廣長	-11.4939
無足	-11.4941
戒定	-11.4941
蓮華池	-11.4941
識宿命	-11.4945
然今	-11.4945
萬德	-11.4946
若如是者	-11.4947
度量	-11.4947
使者	-11.4949
惡友	-11.4949
有所作	-11.4949
所離	-11.4951
一切法性	-11.4955
劫生死之罪	-11.4957
世中	-11.496
愚痴	-11.496
入一切法	-11.4963
欲來	-11.4964
解脫道	-11.4966
慧行	-11.4967
不燒	-11.4967
能感	-11.497
憂悲	-11.497
長行中	-11.497
無去來	-11.4971
三科	-11.4971
多欲	-11.4971
一切言說	-11.4971
常求	-11.4972
唯依	-11.4974
不請	-11.4974
蘊界處	-11.4975
孰為本	-11.4976
半月	-11.4977
不縱不橫	-11.4978
次命	-11.4978
皆空不可思議	-11.4979
即其義也	-11.4979
我若	-11.498
旬	-11.4984
話	-11.4984
浮雲	-11.4985
何事	-11.4985
攻	-11.4986
剎帝利	-11.4986
十善業道	-11.4987
能所取	-11.4987
萬六千	-11.4988
挍	-11.4989
嚴佛	-11.4989
寡	-11.4989
以斯	-11.4989
輔行云	-11.4989
彰其	-11.4992
圓光	-11.4993
前念	-11.4994
孤山	-11.4995
藏教	-11.4998
及諸大眾	-11.5001
形聲	-11.5001
師子奮迅	-11.5001
影響	-11.5002
於未來	-11.5003
一時俱	-11.5003
持鉢	-11.5003
惡處	-11.5009
水界	-11.5011
所使	-11.5013
如來藏性	-11.5014
劫名	-11.5014
傾動	-11.5018
於地獄	-11.5022
四不可說	-11.5023
善神	-11.5023
三聚	-11.5025
諸沙門	-11.5029
歎佛	-11.503
被服	-11.5036
當離	-11.5036
一乘道	-11.5038
燈王	-11.5039
供佛	-11.5039
剎那不住	-11.5042
奈何	-11.5042
我亦如是	-11.5043
法已	-11.5044
初正示	-11.5044
諮問	-11.5045
不同者	-11.5046
安詳	-11.5047
供養於佛	-11.5051
輪佛	-11.5053
八地菩薩	-11.5054
能受持	-11.5054
隨其所應	-11.5058
火焰	-11.5059
佛法中	-11.506
大喜	-11.506
云何如來	-11.5061
相狀	-11.5062
瑜伽云	-11.5063
為利益	-11.5064
滅正受	-11.5065
簡異	-11.5066
欲令眾生	-11.5068
傳法	-11.5069
即於此	-11.507
非器	-11.507
更加	-11.507
廓	-11.5071
十二億	-11.5071
出世間法	-11.5072
得食	-11.5074
寂滅相	-11.5076
可信	-11.5077
奢摩	-11.5077
或從	-11.5078
教理	-11.5079
牢獄	-11.508
因位	-11.5081
嗟	-11.5081
既巳	-11.5083
耆闍崛山	-11.5084
阿逸多	-11.5084
所障	-11.5084
火然	-11.5085
以為涅槃	-11.5085
菩薩摩訶薩具足十法	-11.5089
惡世	-11.5089
怡	-11.509
今生	-11.509
不消	-11.509
智體	-11.5093
矜	-11.5093
喇	-11.5093
諸法如幻	-11.5099
疏釋	-11.5101
▁南无不空	-11.5104
大歡喜	-11.5105
一切智智	-11.5105
速成	-11.5105
小大	-11.5109
無瞋	-11.511
麁重	-11.5113
千二百	-11.5114
普眼章	-11.5115
於境界	-11.5115
一切眾會	-11.5119
命盡	-11.5119
無果	-11.5122
初讚	-11.5122
不生分別	-11.5123
明照	-11.5125
不缺	-11.5132
二初分文	-11.5133
五百億	-11.5133
總有	-11.5134
吼聲	-11.5135
悅意	-11.5141
念力	-11.5144
金剛般若	-11.5145
當處	-11.5145
古云	-11.5145
邪智	-11.5145
生怖畏	-11.5147
別答	-11.5151
加護	-11.5153
繇	-11.5157
皆來	-11.5158
并諸	-11.5159
百福	-11.5159
教相	-11.516
大果	-11.516
乃爾	-11.5164
要須	-11.5164
理趣	-11.5167
金剛三昧	-11.5169
則曾不說	-11.5171
諸有情故	-11.5171
䇿	-11.5173
神仙	-11.5173
本體	-11.5175
本自不生	-11.5177
邦	-11.5178
生人中	-11.5178
波羅密	-11.5178
體法	-11.518
鹽	-11.5181
候	-11.5181
假入空	-11.5181
十二月	-11.5181
戴	-11.5184
本事	-11.5184
四蘊	-11.5186
鷹	-11.5186
彼人以是惡業因	-11.5187
於其中間	-11.5189
隨諸眾生	-11.519
由此因緣	-11.5191
外別有	-11.5193
外道所說	-11.5193
渧	-11.5194
性離	-11.5195
修定	-11.5197
所悟	-11.5199
決斷	-11.5199
湯藥	-11.5202
軟首	-11.5202
遊戲神通	-11.5205
之方	-11.5205
唯約	-11.5207
譬如恒沙	-11.521
云何言	-11.521
則失	-11.5211
必無	-11.5211
曾無	-11.5211
從初地	-11.5213
變化身	-11.5214
前釋	-11.5216
玉女	-11.5216
今淨名	-11.5219
此疑	-11.5221
傳云	-11.5222
▁初敘	-11.5223
不能動	-11.5223
瑕	-11.5223
讚許	-11.5229
始本	-11.523
日佛	-11.5234
殺人	-11.5234
三十四	-11.5237
十二支	-11.5237
如幻等	-11.5237
不能壞	-11.5238
未曾聞	-11.5238
無因論	-11.5239
少有	-11.5241
方便慧	-11.5243
既離	-11.5245
留佛	-11.5246
第四句	-11.5247
一邊	-11.5247
行菩薩行	-11.5247
未曾見	-11.5248
聲聞法	-11.5248
現生	-11.5251
皆離	-11.5253
只此	-11.5253
五章	-11.5253
斷無明	-11.5254
▁南无善住	-11.5255
四聖	-11.5256
先所	-11.5258
南無淨	-11.5259
供養恭敬	-11.5261
未滅	-11.5261
自壞	-11.5262
引經	-11.5263
釋迦牟尼如來	-11.5263
上天	-11.5264
譬如虛空	-11.5266
最勝子	-11.5266
數論	-11.5268
明顯	-11.5269
無疾	-11.5269
妃	-11.5275
單修	-11.5276
悕	-11.5276
懷疑	-11.5277
止住	-11.5277
昔日	-11.5279
習行	-11.528
輙	-11.5282
非聖賢也	-11.5282
革	-11.5282
云何修行	-11.5282
涕	-11.5283
持禁戒	-11.5285
塊	-11.5285
瞬	-11.5286
黃檗	-11.5286
非我所	-11.5287
未滿	-11.5287
勝如來南無	-11.5289
象王	-11.5289
三段	-11.529
二宗	-11.5291
丁	-11.5291
監	-11.5291
牛馬	-11.5293
皆名為	-11.5298
不可稱計	-11.53
防護	-11.53
犬	-11.5301
成論	-11.5301
臣民	-11.5302
生老死	-11.5303
如說行	-11.5303
凡外	-11.5303
釋迦如來	-11.5305
念念生滅	-11.5306
其命	-11.5306
無患	-11.5307
四十里	-11.5307
倒見	-11.5308
安能	-11.531
雖觀	-11.531
燈光	-11.5313
無若干	-11.5314
阿羅漢果	-11.5314
第一義空	-11.5316
皆不能	-11.5316
價	-11.532
惡夢	-11.532
是則名曰	-11.5321
持律	-11.5321
不無	-11.5322
彼有情	-11.5322
還本	-11.5322
覆蔽	-11.5322
五穀	-11.5323
無漏智	-11.5324
後顯	-11.5327
餘四	-11.5327
大旨	-11.5327
迴心	-11.5329
▁南无慧	-11.5329
我於爾時	-11.533
法食	-11.5335
幻人	-11.5338
現觀	-11.5338
次辨	-11.5339
轉增	-11.534
五重	-11.5342
六衰	-11.5344
三結成	-11.5344
其次	-11.5347
心海	-11.5348
度諸眾生	-11.5349
無退	-11.5349
說空法	-11.535
諸眾生界	-11.5351
無有餘	-11.5351
下第三	-11.5354
二百五十	-11.5357
出過一切	-11.5358
之所依	-11.5359
離見	-11.5359
歸依佛	-11.536
專念	-11.5361
令汝	-11.5361
普集	-11.5362
痴	-11.5363
中最	-11.5364
▁三結	-11.5366
大施	-11.5366
右繞	-11.537
閻羅	-11.5371
透	-11.5371
舜	-11.5372
攝一切法	-11.5373
佛形像	-11.5375
正法存立	-11.5375
漸次生	-11.5376
欠	-11.5376
俾	-11.5377
所遊	-11.5377
對上	-11.5379
上界	-11.5379
五法三自性	-11.5379
寧可	-11.5379
所說事	-11.538
一切法中	-11.538
毘婆尸佛	-11.538
歿	-11.538
薩婆	-11.5381
善集	-11.5381
示現種種	-11.5382
詠	-11.5382
膚	-11.5382
侍從	-11.5383
滑	-11.5383
秉	-11.5384
老子	-11.5384
晚	-11.5385
好樂	-11.5386
僻	-11.5387
別處	-11.5389
諸大菩薩摩訶薩	-11.5389
十方無量世界	-11.5391
荅	-11.5391
菩薩若修如是十種法者	-11.5392
信法	-11.5392
於法界	-11.5392
菩薩若修十種法者	-11.5392
是為六種	-11.5392
願欲	-11.5394
暮	-11.5395
心大歡喜	-11.5396
然亦	-11.5396
預流	-11.5398
猶尚	-11.54
聲菩	-11.54
能淨	-11.5401
鉤鎖	-11.5402
來詣佛所	-11.5402
令諸有情	-11.5402
妄言	-11.5402
妨礙	-11.5403
總舉	-11.5405
墮地	-11.5408
但當	-11.5408
惡獸	-11.5409
坐於	-11.541
無量甚深	-11.541
分限	-11.5411
三從	-11.5412
一會	-11.5412
一切清淨	-11.5414
行位	-11.5416
先舉	-11.5416
醫師	-11.5416
大象	-11.5421
形貌	-11.5421
下去	-11.5423
不入涅槃	-11.5424
涅槃城	-11.5425
失於	-11.5425
真如理	-11.5426
無勝	-11.5426
二隨釋二	-11.5428
往到	-11.5428
閻浮檀金	-11.5433
不可譬喻	-11.5433
略也	-11.5433
為境	-11.5434
不能生	-11.5434
命問疾	-11.5435
眾像	-11.5436
不如實	-11.5437
堅強	-11.544
在心	-11.5441
器中	-11.5441
之所由	-11.5441
罪過	-11.5442
是為四事	-11.5443
共有	-11.5444
心樂	-11.5444
能施	-11.5444
自性空	-11.5445
真如性	-11.5448
於空中	-11.5449
有礙	-11.5451
得如幻三昧	-11.5452
後分	-11.5459
男子女人	-11.546
恐人	-11.5461
降伏魔	-11.5463
翼	-11.5464
菩薩摩訶薩復有六種	-11.5465
樂器	-11.5466
總指	-11.5467
二利	-11.5467
非世論	-11.5468
堪受	-11.5469
癈	-11.5471
使我	-11.5475
閻浮提中	-11.5477
已曾	-11.5478
經律	-11.5478
所生土地	-11.5479
王城	-11.548
河中	-11.548
不脫	-11.548
何益	-11.548
辟	-11.548
嗣	-11.5481
枝末	-11.5482
如是等無量	-11.5483
籍	-11.5483
幻相	-11.5483
瞋心	-11.5484
說如是言	-11.5486
鐘	-11.5486
盡未來際	-11.5487
菩薩成就十種法	-11.5487
得生天	-11.5488
大夫	-11.5488
此舉	-11.5489
空理義	-11.549
教道	-11.5491
匠	-11.5492
得是三昧	-11.5493
不知厭足	-11.5498
以偈頌曰	-11.5498
無自體	-11.5499
從前	-11.55
眉間	-11.5503
花果	-11.5504
不怖	-11.5504
侍者曰	-11.5505
誦持	-11.5505
盜賊	-11.5505
為令眾生	-11.5506
多饒	-11.5506
善觀察	-11.5508
門外	-11.5508
千萬億	-11.5509
五味	-11.5509
色究竟天	-11.551
唯然世尊	-11.5513
第三十	-11.5513
常定	-11.5514
尊特身	-11.5514
業緣	-11.5515
境中	-11.5515
理合	-11.552
尚不可得	-11.552
如來智慧	-11.552
分段生死	-11.5522
摩尼寶	-11.5524
佛威神	-11.5525
不虗	-11.5527
補註	-11.5527
▁南无火	-11.5531
其疾	-11.5532
□□□□□	-11.5532
證滅	-11.5534
赴機	-11.5535
心心	-11.5535
即是菩提	-11.5536
氣未盡	-11.554
最第一	-11.5541
所修行	-11.5542
緣而生	-11.5543
是理	-11.5544
最正覺	-11.5551
離障	-11.5553
七寶莊嚴	-11.5554
初總示	-11.5555
既空	-11.5557
又何	-11.5557
比丘眾	-11.5558
應理義	-11.5558
斯法	-11.5558
諸障	-11.5558
攝屬	-11.556
妙莊嚴	-11.5562
心心法	-11.5565
莊子	-11.5565
自覺聖智境界	-11.5567
法利	-11.5568
不堅	-11.5571
假施設	-11.5571
不及一	-11.5571
來到	-11.5573
金寶	-11.5575
菩薩摩訶薩亦復如是	-11.5576
不食肉	-11.5576
當文三句	-11.5581
彊	-11.5581
行精進	-11.5582
生疑惑	-11.5584
非有相	-11.5584
恩德	-11.5586
種種變化	-11.5586
宇	-11.5586
拾	-11.5587
不苦不樂	-11.5587
彼以聞慧	-11.5588
躍	-11.5588
匪	-11.5588
我法二執	-11.559
俱蘇摩	-11.5591
風起	-11.5591
大疏云	-11.5591
廣宣流布	-11.5593
七重	-11.5594
開佛知見	-11.5595
鬪戰	-11.5595
儻	-11.5596
涅盤	-11.5596
就前	-11.5596
流行	-11.5599
万	-11.56
怕	-11.56
破外道	-11.5602
諸塵	-11.5602
大梵	-11.5604
七千	-11.5608
不隨他	-11.5609
聖位	-11.5609
說伽陀曰	-11.5609
其果	-11.561
次別	-11.5613
未始	-11.5614
於汝意云何	-11.5615
唯識論	-11.5615
可滅	-11.5617
究竟涅槃	-11.5618
詣佛所	-11.562
無上尊	-11.5622
盡形	-11.5623
金性	-11.5623
非凡夫	-11.5625
清淨慧	-11.5626
且從	-11.5627
諸佛土	-11.5628
自度	-11.5628
佛土淨	-11.5629
流支	-11.5631
頓生	-11.5633
久時	-11.5636
至涅槃	-11.5637
四十八	-11.5641
除蓋障菩薩	-11.5643
如來境界	-11.5644
理外	-11.5644
貪婬	-11.5648
易解	-11.5648
所不能及	-11.5652
網明言	-11.5652
和會	-11.5653
得天眼	-11.5655
反顯	-11.5656
離性	-11.5657
四顛倒	-11.5659
前世時	-11.566
捨身命	-11.5666
隨事	-11.5669
三點	-11.567
是病	-11.5671
教示	-11.5672
演法	-11.5673
轉女身	-11.5674
順忍	-11.5676
妄想無性	-11.5677
十日	-11.568
愚癡人	-11.5682
亦難	-11.5683
毗耶離	-11.5684
歟	-11.5685
嬰	-11.5686
非求法也	-11.5686
岳	-11.5687
起幻	-11.5688
阿㝹	-11.5688
施等	-11.5689
無有一法	-11.5689
不名為	-11.569
肢	-11.5691
剖	-11.5693
石女兒	-11.5693
如恒沙	-11.5696
殞	-11.5696
軸	-11.5697
願我來世得菩提時	-11.5697
之迹	-11.5699
豪貴	-11.57
欽	-11.57
著欲	-11.5701
初敘	-11.5701
大樹緊那羅王	-11.5702
火光	-11.5702
身量	-11.5704
十種三法	-11.5704
水流	-11.5704
戟	-11.5705
報佛恩	-11.5705
慶喜	-11.5705
離於有無	-11.5706
顏貌	-11.5706
惣	-11.5707
所問經	-11.5708
故下文	-11.5709
分衛	-11.5711
魔眾	-11.5713
標舉	-11.5713
開演	-11.5713
故華嚴	-11.5713
奧	-11.5714
釋經文	-11.5715
對辨	-11.5715
未爛	-11.5716
支節	-11.5717
往至	-11.5717
非二乘	-11.5719
河池	-11.5722
清淨戒	-11.5724
南無慧	-11.5725
幻垢	-11.5726
是謂菩薩摩訶薩	-11.5726
不少	-11.5727
譬如大地	-11.5728
暴惡	-11.5729
各有所	-11.573
聞巳	-11.573
計著相續	-11.5733
本願功德	-11.5733
增廣	-11.5733
如幻如夢	-11.5735
最為第一	-11.5736
四曰	-11.5736
螢火	-11.5738
使其	-11.5739
謗法	-11.5741
妄說	-11.5741
但知	-11.5742
輪迴根本	-11.5744
現證	-11.5746
未曾有也	-11.5747
巧便	-11.5748
有菩薩名	-11.5749
果證	-11.5749
欲愛	-11.575
於彼處	-11.5751
外道妄計	-11.5754
何等是	-11.5754
面門	-11.5755
諸眷屬	-11.5755
星宿王	-11.5756
不妄語	-11.5757
業煩惱	-11.5761
無證	-11.5762
已滅	-11.5764
無有量	-11.5766
義別	-11.5766
離言說相	-11.5767
▁後科	-11.5767
悉無有	-11.5768
迭	-11.5768
正斷	-11.5771
不同二乘	-11.5772
支分	-11.5773
入胎	-11.5773
靈明	-11.5773
風界	-11.5777
之量	-11.5777
大慧白佛言世尊	-11.5779
之形	-11.5779
乃至云	-11.578
凡夫外道	-11.5784
大醫王	-11.5784
聞思修	-11.5786
穢惡	-11.5788
寶網	-11.5788
已復	-11.5789
慳嫉	-11.5789
梯	-11.579
牒前	-11.5791
叡	-11.5791
失念	-11.5791
圓觀	-11.5792
當文一句	-11.5793
尊勝	-11.5793
慤	-11.5794
摩醯首羅	-11.5795
諸度	-11.5795
栖	-11.5796
既成	-11.5797
圭山	-11.5798
後修禪那	-11.5798
賞	-11.5799
文有三	-11.58
剃	-11.5802
藝	-11.5802
籌量	-11.5802
積佛南無	-11.5802
脾	-11.5805
五分法身	-11.5805
分身	-11.5805
身根	-11.5805
離合	-11.5807
出家學道	-11.5809
我等四王	-11.5809
末代	-11.581
文二初	-11.581
於諸有情	-11.581
室外	-11.5813
諸數	-11.5814
相連	-11.5815
一世界	-11.5817
水性	-11.582
修禪那	-11.5821
稱我	-11.5822
聞我名	-11.5824
外道亦說	-11.5824
覺分	-11.5825
法性土	-11.5826
教導	-11.5826
諸根不具	-11.5827
尸利	-11.5828
瞋怒	-11.583
契理	-11.5831
指上	-11.5831
例如	-11.5832
心外無法	-11.5832
所習	-11.5834
等流	-11.5836
無量世界	-11.5839
明達	-11.5841
非別有	-11.5844
彼圓覺性	-11.5846
成壞	-11.5847
訟	-11.5848
攝念	-11.5852
如實法	-11.5854
更無有	-11.5855
十地論	-11.5856
五百比丘	-11.5856
三乘同	-11.5857
光曜	-11.5858
商人	-11.5858
具釋	-11.5859
歷別	-11.5868
無慧	-11.5869
愁惱	-11.5869
海浪	-11.5874
解知	-11.5875
從假入空	-11.5875
二行半	-11.5876
惡意	-11.5879
種種分別	-11.588
演說法	-11.5886
善聽	-11.5887
約就	-11.5888
慰問	-11.5889
下結示	-11.589
年歲	-11.589
不顧	-11.5891
不同外道	-11.5893
圓寂	-11.5894
其佛光明照	-11.5894
煞	-11.5895
所止	-11.5895
擇法	-11.5895
讚言	-11.5899
無上正等菩提	-11.59
棲	-11.5901
從地	-11.5902
清淨法界	-11.5902
得免	-11.5903
嘴	-11.5904
名等	-11.5905
阿脩羅	-11.5905
亘	-11.5907
入楞伽云	-11.5908
身壞命終墮於惡處	-11.5909
此示	-11.591
譬如明鏡	-11.591
牢固	-11.5911
真實性	-11.5911
有如是等	-11.5912
弟子品	-11.5914
經歷	-11.5914
理障	-11.5915
無盡燈	-11.5915
無法不	-11.5916
葬	-11.5916
非乘	-11.5917
車𤦲	-11.5919
捶	-11.5919
歡悅	-11.5921
▁初分文	-11.5922
隱蔽	-11.5922
終身	-11.5924
佛國品	-11.5924
第三明	-11.5924
未了	-11.5927
直說	-11.5935
門戶	-11.5935
無所從生	-11.5937
憶持	-11.5939
兩教	-11.594
事用	-11.5941
無量福	-11.5941
他物	-11.5943
緣滅	-11.5944
甚為	-11.5947
趣寂	-11.5949
者令得	-11.5949
之國	-11.595
憂喜	-11.5952
人中尊	-11.5954
▁南无廣	-11.5954
珠寶	-11.5954
憶想	-11.5957
不護	-11.5959
四輩	-11.596
無熱	-11.5961
一世	-11.5961
寶月	-11.5961
之屬	-11.5961
相承	-11.5962
功德具足	-11.5964
藥王如來	-11.5965
與眾	-11.5965
如此等	-11.5967
非處	-11.5967
因其	-11.5967
吾當	-11.5969
始於	-11.597
河流	-11.5975
圓證	-11.5975
聲聞獨覺	-11.598
外計	-11.5982
且舉	-11.5984
一時佛在	-11.5986
於三世	-11.5986
種種幻化	-11.5989
問我言	-11.599
旛	-11.5993
故稱為	-11.5993
餘習	-11.5994
辨其	-11.5995
欝單越	-11.5996
出要	-11.5997
不迷	-11.5998
七生	-11.5998
先須	-11.6002
帖	-11.6003
翫	-11.6004
都盡	-11.6008
作罪	-11.601
懸談	-11.601
鑊	-11.6011
菩薩成就此十種法	-11.6012
釆	-11.6013
之福	-11.6013
皎	-11.6014
姿	-11.6018
盲人	-11.6018
勳	-11.6019
貧富	-11.6021
皮肉	-11.6023
一年	-11.6023
為他人說	-11.6024
不得解脫	-11.6024
毀呰	-11.6025
妓樂	-11.6025
亦不住	-11.6025
意如來南無	-11.6026
歌舞戲笑	-11.6026
生解	-11.6027
住家者	-11.6028
s	-11.6028
愚迷	-11.603
調適	-11.6031
為權	-11.6032
有二種一	-11.6034
雙亡	-11.6035
轉身	-11.6038
盖佛	-11.604
最妙	-11.6041
須陀	-11.6042
即墮	-11.6046
並皆	-11.6051
非獨	-11.6051
將軍	-11.6054
異學	-11.6056
幻境	-11.6056
前五識	-11.6057
皆發無上正真道意	-11.6057
究竟清淨	-11.6058
佛南無金剛	-11.6066
第十三	-11.6066
不住涅槃	-11.6066
▁南无喜	-11.6068
計常	-11.6071
皆稱	-11.6071
下引	-11.6073
淨慧	-11.6074
四意止	-11.6075
暇	-11.6077
其華	-11.6081
入滅定	-11.6082
乞人	-11.6082
出沒	-11.6083
譬顯	-11.6083
與一切眾生	-11.6085
邪師	-11.6087
何等為五	-11.6092
十二緣起	-11.6093
不可思議解脫	-11.6098
無字	-11.61
蒙佛	-11.6101
第十五	-11.6104
一切身分	-11.6105
本自無	-11.6107
初總標	-11.6107
疑云	-11.6108
乃至微塵	-11.6109
楔	-11.611
說是法	-11.6111
皆得道證	-11.6111
佛在世時人壽	-11.6112
心心數法	-11.6115
可捨	-11.6115
鹿苑	-11.6117
毗曇	-11.6118
憶念我昔	-11.6118
無常苦空無我	-11.6118
廣說如彼	-11.6119
喉	-11.6119
當勤修學	-11.612
漸次增進	-11.612
隆	-11.612
具此十事是名菩薩	-11.6122
伴侶	-11.6122
若惡業盡	-11.6126
智慧力	-11.6126
沾	-11.6127
果性	-11.6127
造一切罪	-11.6128
勝應	-11.6128
年少	-11.6133
五樂音聲	-11.6135
一切善根	-11.6135
拘翼	-11.6136
雙遊	-11.6136
􂛱	-11.6137
悟理	-11.6139
破執	-11.6139
禮佛足	-11.614
無放逸	-11.614
阿耨菩提	-11.6141
何業	-11.6143
修禪定	-11.6144
疲極	-11.6145
計着	-11.6146
無底	-11.6146
王阿闍世	-11.6147
能熏	-11.6148
并餘	-11.6151
塔廟	-11.6152
旨趣	-11.6156
若不如是	-11.6157
不縛	-11.6161
密行	-11.6162
不惱	-11.6163
不忘失	-11.6164
身口意業	-11.6165
性不壞	-11.6166
悉無所有	-11.6167
自爾	-11.6169
妄謂	-11.6169
閑居	-11.617
般若云	-11.617
歸敬	-11.6171
八種識	-11.6171
得利	-11.6173
侍衛	-11.6175
不成佛	-11.6177
不退轉地	-11.6178
聖智三相	-11.6178
所敬	-11.6179
自在神通	-11.618
出世法	-11.618
初一頌	-11.618
普門	-11.6181
能盡	-11.6181
▁南无賢	-11.6181
歸趣	-11.6183
測量	-11.6183
本無所有	-11.6184
於欲界	-11.6184
俗人	-11.6185
第一義中	-11.6188
諸修行者	-11.6189
以佛神力	-11.6189
畢定	-11.619
甘露味	-11.6195
教所明	-11.6196
不可往	-11.6198
之器	-11.62
阿闍世	-11.6202
總示	-11.6202
雖曰	-11.6204
不能了知	-11.6205
詣佛	-11.6205
自觀身	-11.621
不高	-11.6211
嶽	-11.6211
父子	-11.6211
荊溪	-11.6211
不可復	-11.6213
求覓	-11.6215
槌	-11.6218
神足弟子曰	-11.6221
從無明	-11.6223
堅持	-11.6223
不可分別	-11.6223
不應立宗	-11.6223
躭	-11.6224
取土	-11.6225
堅濕煖動	-11.6226
擾亂	-11.6228
不說一字	-11.6229
四邊	-11.6229
憍陳如	-11.623
浩	-11.623
從無始來	-11.623
赴緣	-11.623
亦屬	-11.623
莎	-11.6231
證道	-11.6232
十方三世	-11.6233
降伏眾魔	-11.6233
唯心所現	-11.6234
彼地獄處爾乃得脫	-11.6235
悲願	-11.6235
不謗	-11.6235
散滅	-11.6236
於一切時與苦不止	-11.6236
捨家	-11.6237
憎嫉	-11.6238
真諦三藏	-11.6241
牟修樓陀夜摩天王	-11.6241
瞻視	-11.6242
方始	-11.6242
誰當	-11.6243
隱沒	-11.6246
互融	-11.6247
跛	-11.6248
卷中	-11.6249
南北	-11.625
之慈	-11.6251
百法	-11.6251
怙	-11.6255
既入	-11.6257
明不思議	-11.6258
展轉因	-11.626
作佛形像	-11.6262
一氣	-11.6264
未顯	-11.6265
必依	-11.6265
除却	-11.6265
幢如來南無	-11.6266
八戒	-11.627
坐臥	-11.6271
則不然	-11.6277
於我法中	-11.6277
有無相	-11.6277
此計	-11.6278
修奢摩他	-11.6279
普明	-11.628
淨不淨	-11.628
內無	-11.6283
圓別	-11.6285
不知自心現量	-11.6286
道慧	-11.6286
大人相	-11.6288
得真	-11.6288
普覺	-11.6289
說法要	-11.629
海佛	-11.629
與諸菩薩	-11.629
顛倒見	-11.6292
至道	-11.6294
聖王	-11.6295
不習	-11.6296
宜應	-11.6296
未解	-11.6297
橫死	-11.6298
藥病	-11.6301
自受用身	-11.6303
無窮盡	-11.6312
欲滅	-11.6321
得佛道	-11.6321
火界	-11.6323
具明	-11.6323
俱泯	-11.6325
華上	-11.6326
於五陰	-11.6328
括	-11.6328
於無量劫	-11.6329
取意	-11.633
因滅	-11.6331
以是因緣故	-11.6334
消文	-11.6334
無增無減	-11.6337
但舉	-11.6339
裁	-11.6339
上半	-11.634
勸發	-11.6341
隨世間習俗而入	-11.6342
愛別離	-11.6343
曩	-11.6343
綵	-11.6343
惛	-11.6343
貧賤	-11.6345
範	-11.6345
四攝法	-11.6346
國內	-11.6348
何罪所致	-11.6348
咒	-11.6351
不可思	-11.6352
羸瘦	-11.6352
欄楯	-11.6353
往復	-11.6354
生淨土	-11.6355
用四悉檀	-11.6355
薩婆多	-11.6358
恱	-11.6358
動作	-11.6359
往詣佛所	-11.636
揀擇	-11.6363
第七地	-11.6365
》(	-11.6366
糞穢	-11.6367
是我所	-11.6369
金色童子	-11.6372
十德	-11.6372
疑難	-11.6372
不思議品	-11.6376
爾炎	-11.6377
報土	-11.6378
持正法	-11.6378
四恩	-11.6379
巳身	-11.6379
不宜	-11.6379
令眾	-11.6383
本無生滅	-11.6383
消息	-11.6384
謗佛	-11.6384
無所得故	-11.6384
調和	-11.6385
紫金	-11.6387
光普照	-11.6387
何等人	-11.6392
燒然	-11.6396
趣菩提	-11.6396
今現	-11.6402
所害	-11.6403
無求	-11.6404
俱舍論	-11.6406
誠諦	-11.6406
縛脫	-11.6407
不二門	-11.6408
兩足	-11.6415
平等性	-11.6415
此之三	-11.6416
億萬	-11.6425
無所行	-11.6426
日月光明	-11.6427
正業	-11.6428
為害	-11.6429
能變	-11.643
相續相	-11.6431
照佛南無	-11.6436
先釋	-11.6438
故彼論云	-11.6441
色力	-11.6441
腐	-11.6442
以為實	-11.6446
阿陀那	-11.6446
文可知	-11.6446
蹔	-11.6446
占察	-11.6447
方便智	-11.6449
一會說經	-11.6449
躬	-11.645
根身器界	-11.6451
三十心	-11.6452
我於此	-11.6452
慼	-11.6452
吳	-11.6452
槩	-11.6453
▁南无海	-11.6453
馳騁	-11.6454
肇云	-11.6454
光明王佛	-11.6454
爾時大慧菩薩白佛言	-11.6455
不自知	-11.6455
蓋是	-11.6456
緊	-11.6457
▁初辨	-11.6457
那律	-11.6459
採集	-11.6459
柰	-11.6459
根身	-11.6459
品題	-11.646
在纏	-11.6461
少欲知足	-11.6462
受斯	-11.6463
齎	-11.6463
涯	-11.6465
諸法不生	-11.6465
現在諸佛	-11.6465
於佛道	-11.6465
十號具足	-11.6466
黑暗	-11.6468
應念	-11.6471
四衢	-11.6472
心之所	-11.6472
復有四事	-11.6475
含容	-11.6475
骨肉	-11.6479
四海	-11.6479
如世尊所說	-11.6479
元無	-11.648
與諸佛	-11.648
無有分別	-11.648
離病	-11.6481
罣礙	-11.6481
金剛藏菩薩	-11.6482
持五戒	-11.6483
所游	-11.6484
勇猛精進	-11.6486
明日	-11.6486
得羅漢	-11.6486
慎莫	-11.6489
無為緣集	-11.649
大王當知	-11.6496
慈室	-11.6496
金華	-11.6497
轉成	-11.6499
同外道	-11.6502
之聚	-11.6505
花香	-11.6505
依他起性	-11.6506
半滿	-11.6506
所未聞	-11.6507
觀想	-11.6507
了此	-11.6508
本願力	-11.6511
乃至廣說	-11.6514
觀慧	-11.6516
萬善	-11.6517
因緣生法	-11.6519
到於	-11.652
過未	-11.6522
命終時	-11.6522
入法性	-11.6523
根熟	-11.6525
有大力	-11.6525
未可	-11.6528
不滯	-11.6528
無量阿僧祇	-11.653
得聞如是	-11.653
生盲	-11.6531
正宗分	-11.6534
力能	-11.6535
耳聞	-11.6539
得授記	-11.6541
聞香	-11.6542
本清淨	-11.6542
之境界	-11.6544
測度	-11.6544
如實處	-11.6544
見理	-11.6547
秘	-11.655
覆心	-11.655
所益	-11.655
於閻浮提	-11.6551
求利	-11.6552
祖曰	-11.6554
目犍連	-11.6555
阿羅	-11.6556
俱致	-11.6558
教觀	-11.6559
總是	-11.6559
級	-11.656
如毒	-11.656
托	-11.656
垣	-11.6562
湧	-11.6562
十方無量	-11.6562
肇師	-11.6563
一萬	-11.6563
故大經云	-11.6564
訪	-11.6565
剌	-11.6567
作惡業	-11.6568
不起分別	-11.6568
彌勒菩薩言	-11.6568
煥	-11.6569
駛	-11.6569
有諸眾生	-11.6571
羼提波羅蜜	-11.6573
覲	-11.6574
宣暢	-11.6574
身財	-11.6574
法界觀	-11.6576
豁然	-11.6576
掠	-11.6577
質礙	-11.6578
不測	-11.658
▁南无福德	-11.658
色香	-11.658
與二乘	-11.6581
一國	-11.6583
諛諂	-11.6583
支佛	-11.6584
呬	-11.6585
婬女	-11.6586
信施	-11.6587
共諸天女	-11.659
飽滿	-11.6592
偈中	-11.6601
諸佛解脫	-11.6608
寂觀	-11.6609
賢善	-11.6609
行列	-11.6611
重問	-11.6612
普入	-11.6617
舌根	-11.6619
舍那	-11.6621
八萬四千諸	-11.6624
永除	-11.6625
二隨釋	-11.6633
優婆	-11.6634
噉食	-11.6636
即說偈言	-11.6636
▁南无愛	-11.6638
新本	-11.6641
有若干	-11.6643
向前	-11.6646
念念相續	-11.6647
乃應	-11.6648
師資	-11.6653
善丈夫	-11.6653
別對	-11.6654
既能	-11.6656
明珠	-11.6657
鐵輪	-11.6665
癡心	-11.6666
妙觀	-11.6666
悶	-11.6668
踞	-11.6668
無別體	-11.667
以淨覺心	-11.6672
大集	-11.6672
佛南無成就	-11.6674
惡覺	-11.6675
三般若	-11.6676
遍至	-11.6676
遍觀	-11.6676
作何等業	-11.6678
去來現在	-11.6679
尚爾	-11.6681
然雖	-11.6681
僕	-11.6681
淡	-11.6682
向於	-11.6683
十善道	-11.6683
具引	-11.6684
敏	-11.6684
劫盡	-11.6684
諦聽諦聽善思念之	-11.6685
肆	-11.6685
嗚呼	-11.6685
賀	-11.6686
奉辭不堪	-11.6686
狼	-11.6688
敬愛	-11.6689
暉	-11.6691
和悅	-11.6695
晃	-11.6695
無量壽佛	-11.6698
大品經	-11.6699
此山	-11.67
大乘教	-11.6701
彈指	-11.6705
結習	-11.6705
之儀	-11.6706
歌音	-11.6708
法之供養	-11.6711
焰如來南無	-11.6713
音聲佛	-11.6716
申日	-11.6717
無取捨	-11.6719
離塵	-11.6719
斡	-11.672
例餘	-11.6722
啟請	-11.6722
斷惡	-11.6722
暫時	-11.6723
仁和	-11.6726
一鬼	-11.6727
致問	-11.6727
二親	-11.6728
魔宮	-11.673
受化	-11.6732
若不得	-11.6733
金剛經	-11.6735
色究竟	-11.6735
梨耶	-11.6735
不相離	-11.6736
注曰	-11.6737
為人說	-11.6739
更復	-11.6743
融攝	-11.6743
勝鬘經	-11.6749
龍神	-11.6752
自恃	-11.6754
衣鉢	-11.6754
悶絕	-11.6756
求解脫	-11.6758
果報土	-11.6758
神通自在	-11.6763
陰入	-11.6764
亦兼	-11.6764
豈同	-11.6767
從座起	-11.6768
昔時	-11.6768
攝眾生	-11.6775
此二法	-11.6775
科文	-11.6775
通利	-11.6777
鶖子	-11.6777
但可	-11.6779
深重	-11.678
非我所說	-11.6781
▁南无山	-11.6781
等四句	-11.6783
然後乃消	-11.6787
十門	-11.6791
後修三摩鉢提	-11.6792
貶	-11.6794
皆無自性	-11.6794
一毛	-11.6794
宴	-11.6795
馬鳴	-11.6797
初引	-11.6798
顛倒想	-11.6798
著地	-11.6799
引導	-11.6799
吉凶	-11.68
分為四	-11.68
入深	-11.6801
聞說是	-11.6801
蠅	-11.6804
秤	-11.6804
〕-【	-11.6804
後約	-11.6805
別教菩薩	-11.6805
異口同音	-11.6805
鬼王	-11.6805
層	-11.6805
是如來異名	-11.6806
欲求圓覺	-11.6806
所謂苦者	-11.6806
也所以然者	-11.6814
隷	-11.6814
奇哉	-11.6817
聲王佛南無	-11.6817
庫藏	-11.6821
護戒	-11.6822
毘舍	-11.6822
隨世	-11.6823
適悅	-11.6824
修德	-11.6824
正知見	-11.6824
彌留佛南無	-11.6825
莫不皆	-11.6831
那伽	-11.6831
髻菩	-11.6837
眾蜂	-11.6843
偈讚	-11.6845
皆須	-11.6847
隨力	-11.6849
大自在天	-11.685
念慧	-11.6851
此飯	-11.6852
諸聖人	-11.6852
令悟	-11.6853
生人間	-11.6853
四枯	-11.6854
過去未來	-11.6855
分布	-11.6861
悲號	-11.6861
著身	-11.6862
迦葉佛時	-11.6865
三乘人	-11.6867
以為眷屬	-11.6868
總說	-11.6871
手菩	-11.6871
墮三惡道	-11.6872
離憂	-11.6876
悉不可得	-11.6878
道士	-11.6879
為如來種	-11.688
若夫	-11.6884
十方如來	-11.6885
願為我說	-11.6889
地藏	-11.6893
不惜	-11.6895
引例	-11.6895
如別卷	-11.6895
一切法相	-11.6896
文勢	-11.6897
嘿	-11.6899
異耳	-11.6899
從緣起	-11.6899
領納	-11.6901
可厭	-11.6901
我不堪任詣彼問疾	-11.6903
秪是	-11.6903
此是第二	-11.6903
▁南无離垢	-11.6906
薦	-11.6907
凡情	-11.6908
我時報言	-11.6909
常恒	-11.691
輝	-11.6911
持業釋	-11.6911
意在此也	-11.6912
二隨文釋義	-11.6912
醎	-11.6912
遍身	-11.6913
秀	-11.6915
掉舉	-11.6915
妄取	-11.6915
初發心住	-11.6915
雙照二諦	-11.6916
躁動	-11.6916
濡	-11.6916
表發	-11.6917
善惡業報	-11.6918
享	-11.6918
共行	-11.6919
身壞命終生於善道	-11.6921
有如是過	-11.6921
有四事	-11.6921
心外無	-11.6921
刀兵	-11.6922
後修奢摩他	-11.6923
擇滅	-11.6924
晨	-11.6924
燕	-11.6925
入真	-11.6926
清信士	-11.6926
甘美	-11.6926
憂悲苦惱	-11.6926
何曾	-11.6927
後念	-11.6927
念念不住	-11.6928
舉足	-11.693
亦乃	-11.693
牆	-11.6931
妄計性	-11.6932
種種幻相	-11.6934
德鎧	-11.6935
五無間業	-11.6938
日月星宿	-11.6939
同居土	-11.6939
二乘之人	-11.6939
戒品	-11.6939
以此因緣	-11.6939
邪定	-11.6942
智自在	-11.6943
大海中	-11.6943
悅豫	-11.6943
何處有	-11.6944
教誡	-11.6944
如鳥	-11.6948
十二種	-11.695
若修行菩薩	-11.695
驚畏	-11.6951
含藏	-11.6953
五受陰	-11.6954
少惱	-11.6955
迭共	-11.6955
觀中道	-11.6956
心自念言	-11.6958
諸佛國	-11.6959
如盲	-11.6964
非有為	-11.6965
連合	-11.6966
觀世間	-11.6968
貧苦	-11.6969
正修	-11.6971
俱起	-11.6974
有餘涅槃	-11.6974
文別有	-11.6975
吉祥佛	-11.6977
惡念	-11.6981
且依	-11.6981
本寂	-11.6981
夢中見	-11.6986
未達	-11.6987
云何菩薩摩訶薩	-11.6987
一切法無我	-11.6989
證覺	-11.6989
三總結	-11.699
真際	-11.6991
只如	-11.6991
着	-11.6996
未足	-11.6996
網明菩薩	-11.6996
輔行	-11.6996
迷之	-11.6997
尋即	-11.6999
而般涅槃	-11.6999
十相	-11.6999
以為實有	-11.7003
二別明	-11.7003
偏空	-11.7003
後合	-11.701
尊經	-11.7015
十卷	-11.7015
如來禪	-11.7017
暹	-11.7018
為二一	-11.7019
而實無	-11.7019
不知足	-11.7019
前品	-11.702
若不調順	-11.7022
巳後	-11.7024
眾流	-11.7024
踰繕那	-11.7028
无	-11.7029
聖明	-11.7031
何以知之	-11.7032
本性清淨	-11.7032
七世父母	-11.7033
不一不異	-11.7034
乾闥婆等	-11.7034
不休息	-11.7036
設供	-11.7036
惓	-11.7036
得一切智	-11.7038
喝	-11.7041
四位	-11.7041
咸皆	-11.7041
孤獨	-11.7042
無作四諦	-11.7042
棺	-11.7042
黑繩	-11.7043
一真法界	-11.7043
牧	-11.7043
天龍鬼神	-11.7044
智輪童子	-11.7044
八地巳上	-11.7044
錫	-11.7045
成實論	-11.7045
昭然	-11.7045
天竺三藏	-11.7047
▁南无高	-11.7047
饒益有情	-11.7048
散花	-11.7048
歎曰	-11.705
眾圍繞	-11.705
乃至菩提	-11.7051
七匝	-11.7051
光明遍照	-11.7052
大怖畏	-11.7053
百分	-11.7054
得為人	-11.7054
親族	-11.7057
尋常	-11.7058
閒	-11.7059
不如實知	-11.7059
向上	-11.7059
妄覺	-11.7059
有限	-11.7064
翳目	-11.7064
無不盡	-11.7064
弊惡	-11.7068
損益	-11.7068
邪念	-11.7068
熏修	-11.7069
其所說	-11.7071
自心現境界	-11.7075
苦受	-11.7077
令諸菩薩	-11.7078
光王佛	-11.7084
觀眾生品	-11.7085
煩惱業	-11.7087
不怯弱	-11.7087
六界	-11.7089
如我所說	-11.7089
巳知	-11.7089
稽首禮	-11.709
於自身	-11.7091
處胎	-11.7094
不興	-11.7095
信順	-11.7096
言詞	-11.71
中又二	-11.71
八苦	-11.7102
好色	-11.7103
熱時	-11.7103
唯是自心	-11.7103
淨居天	-11.7106
覆障	-11.7107
悉由	-11.7109
章云	-11.7109
治國	-11.711
滅受想	-11.7118
瓶等	-11.7124
廣辨	-11.7125
燃燈	-11.7125
梵聲	-11.7132
無救	-11.7132
拈	-11.7133
驗知	-11.7134
善女	-11.7134
佛道品	-11.7135
緊那羅王	-11.7137
根鈍	-11.7137
發聲	-11.7139
薗	-11.714
痰	-11.7145
修觀行	-11.7145
▁後解	-11.7145
剩	-11.7145
諸鬼	-11.7149
署	-11.715
尊卑	-11.715
劉	-11.715
寂而常照	-11.7151
至七地	-11.7151
圓覺經	-11.7152
樂報	-11.7152
農	-11.7153
無礙辯	-11.7153
兮	-11.7154
具足莊嚴	-11.7155
有生有滅	-11.7156
胞胎	-11.716
幾何	-11.7161
莫測	-11.7163
無雜	-11.7163
眼所見	-11.7165
權實二智	-11.7165
天雨	-11.7165
方顯	-11.7168
悴	-11.7168
廂	-11.7168
諸神	-11.7169
瞿陀尼	-11.7169
南無善住	-11.7171
復說偈言	-11.7172
甘露法	-11.7172
還自	-11.7174
如夢幻	-11.7174
熱鐵	-11.7175
所生功德	-11.7177
雞兜佛南無	-11.7179
相所相	-11.718
下次明	-11.718
傷害	-11.7183
生死海	-11.7186
諸鬼神	-11.7187
謨	-11.7187
永息	-11.7187
於來世	-11.7188
天道	-11.7188
所化眾生	-11.7189
不誑	-11.719
智境界	-11.719
梵王言	-11.7191
二年	-11.7193
亦不從	-11.7195
結歎	-11.72
正修行	-11.7202
地次第相續	-11.7204
不任	-11.7205
離一切相	-11.7205
雲雨	-11.7209
子孫	-11.721
金剛慧	-11.721
八月	-11.7211
阿那	-11.7212
共同	-11.7213
一切人民	-11.7214
苦盡	-11.7217
不生無常	-11.7219
云何是菩薩	-11.722
志性	-11.7223
喚作	-11.7223
第二句	-11.7225
惟是	-11.723
聚會	-11.723
陰界	-11.7231
諸愚夫	-11.7235
無差別故	-11.7239
黃色	-11.7243
兩品	-11.7245
答前問	-11.7245
為化眾生	-11.7246
風火	-11.7248
有頂	-11.725
乃名為	-11.7251
何則	-11.7252
諸經中	-11.7254
故華嚴云	-11.7254
短命	-11.7254
之際	-11.7257
合部	-11.7258
現在世	-11.7258
離二邊	-11.726
超過一切	-11.7261
遣使	-11.7265
增上慢人	-11.7265
非因非果	-11.7266
鶴	-11.7267
孩	-11.7269
筌	-11.727
捷	-11.727
誰是	-11.727
十無盡句	-11.7272
擯	-11.7273
止止	-11.7273
如應說法	-11.7274
郎	-11.7274
龍象	-11.7275
道眼	-11.7276
階級	-11.7276
甄	-11.7276
矯	-11.7276
種種不同	-11.7276
三十八	-11.7277
是則為寶	-11.7277
煎	-11.7277
多陀阿伽度	-11.7278
世間所有	-11.7279
建立及誹謗	-11.7279
愆	-11.7281
在在處處	-11.7282
中疏二一	-11.7284
徧滿法界	-11.7284
不獲	-11.7287
弗婆提	-11.7287
不見其	-11.7288
寐	-11.7288
如是等種種	-11.7289
亦猶	-11.729
衣服飲食	-11.729
總為	-11.729
號哭	-11.7291
治世	-11.7291
惟有	-11.7294
樓至	-11.7295
但有名字	-11.7296
專一	-11.7296
無間斷	-11.7299
南無金剛	-11.7299
第二從	-11.7299
阿梨耶識	-11.73
入其中	-11.7304
遂成	-11.7305
入滅盡定	-11.7307
損壞	-11.731
除疑	-11.7312
別列	-11.7313
陳如	-11.7314
福利	-11.7315
一切佛剎	-11.7316
牛頭	-11.7317
光明世界	-11.7319
色無色界	-11.7322
地水	-11.7323
流泉	-11.7324
道樹	-11.7326
攝受正法	-11.7327
汝能	-11.733
徧照	-11.7332
應當遠離	-11.7332
阿含經	-11.7333
親近供養	-11.7335
根源	-11.7336
鬼趣	-11.7336
乞求	-11.7339
四榮	-11.734
既滅	-11.7342
如夢中	-11.7342
地獄人	-11.7343
種族	-11.7345
無明滅	-11.7346
致敬	-11.7349
相可得	-11.7352
諸人等	-11.7354
▁南无不動	-11.7354
離貪	-11.7355
冥諦	-11.7357
妄境	-11.7358
懅	-11.7362
解悟	-11.7362
前來	-11.7364
智眼	-11.7366
正助	-11.7368
內觀	-11.7369
有二意一	-11.737
鏡智	-11.7372
陸	-11.7373
尚未	-11.7373
無涯	-11.7374
示同	-11.7374
▁二別釋	-11.7374
潤生	-11.7375
所思	-11.7382
閻	-11.7386
無犯	-11.7386
百千億那由他	-11.7387
如來名者	-11.7389
豁	-11.7389
得不起法忍	-11.7389
作是語巳	-11.739
正慧	-11.7391
四章	-11.7393
舍利子言	-11.7394
劒	-11.7395
萌	-11.7395
激	-11.7395
還滅	-11.7396
搆	-11.7396
生天中	-11.7397
愜	-11.7399
殆	-11.7399
鍾	-11.74
煩𢙉	-11.74
窮源	-11.7401
調心	-11.7401
騎	-11.7403
遠塵離垢	-11.7403
忽有	-11.7403
一切法趣	-11.7403
殷重	-11.7403
入中道	-11.7403
貪嫉	-11.7404
光明莊嚴	-11.7404
迦陵頻伽	-11.7404
脊	-11.7404
霑	-11.7406
眷	-11.7407
橫計	-11.7407
從坐而起	-11.7407
下正明	-11.7408
住三昧	-11.7408
緣合	-11.7408
棒	-11.7409
回向	-11.741
現法樂住	-11.7411
善語義	-11.7413
二支	-11.7415
二正釋	-11.7415
告之曰	-11.7417
機關	-11.7418
唯是一心	-11.742
合喻	-11.7422
枳	-11.7422
稱實	-11.7425
迭互	-11.7428
能讚	-11.7429
敘意	-11.7432
勸人	-11.7432
決疑	-11.7435
七覺支	-11.744
小教	-11.744
自在無礙	-11.7441
篤信	-11.7443
令捨	-11.7444
空不空	-11.7444
南無日	-11.7445
資助	-11.7445
聲聞藏	-11.7446
勝王佛	-11.7446
念佛三昧	-11.7449
空假中	-11.7452
死墮	-11.7452
往返	-11.7454
南無虛空	-11.7455
大慧復白佛言	-11.7457
終至	-11.7459
即是真如	-11.7459
光影	-11.7461
出火	-11.7465
無濁	-11.7469
海龍王	-11.747
所惱	-11.7474
於五欲	-11.7475
不饒益	-11.7476
明暗	-11.7476
向下	-11.7477
生地獄中	-11.7479
所辨	-11.748
有百千	-11.7482
證真如	-11.7482
爾時大慧菩薩復白佛言	-11.7488
畢竟清淨	-11.7491
衛護	-11.7491
述其	-11.7493
如是說者	-11.7493
有四義	-11.7493
初長行	-11.7496
無壽	-11.7498
辭句	-11.7499
令彼眾生	-11.7502
眾寶莊嚴	-11.7506
在何處	-11.7508
忘言	-11.751
疫	-11.7512
大龍	-11.7513
喫	-11.7517
四威儀中	-11.7518
現病	-11.7518
是諸如來	-11.7519
刪	-11.7519
廣歎	-11.752
願樂欲聞	-11.7522
嗔恚	-11.7522
泊	-11.7523
衡	-11.7523
體達	-11.7523
一念頃	-11.7525
晨朝	-11.7527
不謬	-11.7527
何但	-11.7528
巡	-11.7528
四部眾	-11.7528
癡惑	-11.7529
自心所見	-11.7529
輿	-11.7529
本無自性	-11.753
四弘	-11.7531
華池	-11.7533
離生住滅見	-11.7533
酸	-11.7534
鳥獸	-11.7535
無怨	-11.7535
思慮	-11.7537
非真非有	-11.754
良藥	-11.754
族姓女	-11.7541
饍	-11.7541
先斷	-11.7542
散佛上	-11.7544
領上	-11.7546
說妙法	-11.7546
實叉	-11.7546
叫喚	-11.7546
本來成佛	-11.7547
雜集論	-11.7547
自致正覺度脫一切	-11.7548
盈滿	-11.7549
諸有情類	-11.755
本自無生	-11.7552
鬚髮	-11.7555
隨染	-11.7557
寶聚	-11.7558
自心分別	-11.7561
如是等法	-11.7565
不漏	-11.7566
諸天人民	-11.7568
苦苦	-11.7569
勤心	-11.757
太虗	-11.757
已復生	-11.7572
誦經	-11.7573
三頌	-11.7576
幻身	-11.7578
廣慧	-11.758
若離於	-11.7582
有佛名	-11.7583
不共法	-11.7586
流動	-11.7586
能執	-11.7589
前三教	-11.759
如是天子	-11.759
如是比	-11.759
異耶	-11.7591
土地	-11.7593
豈況	-11.7593
因疾	-11.7594
髻佛	-11.76
他受用身	-11.7601
無有邊	-11.7603
十重	-11.7603
畢竟滅	-11.7603
具德	-11.7605
利刀	-11.7606
呪願	-11.7608
易得	-11.7609
自調	-11.7609
種種境界	-11.7616
藥樹	-11.7616
久習	-11.7619
聞思	-11.7622
深觀	-11.7624
聽我	-11.7625
無量百千萬億	-11.763
歲數	-11.763
定實	-11.7631
而為莊嚴	-11.7634
法供	-11.7636
飢餓	-11.7637
總歎	-11.7638
若存	-11.764
絃	-11.7641
敕	-11.7642
許可	-11.7642
如芭蕉	-11.7643
違逆	-11.7645
丸	-11.7647
諱	-11.7649
度脫一切	-11.765
右繞三匝	-11.7651
鳳	-11.7651
陽𦦨	-11.7652
所覩	-11.7654
族姓	-11.7655
空無相無願	-11.7655
腎	-11.7655
惑障	-11.7656
如向所說	-11.7656
齊限	-11.7657
六種震動	-11.7658
不可稱量	-11.7658
婢	-11.7658
不出不入	-11.766
畏生死	-11.7661
逼切	-11.7661
佛所說法	-11.7665
池水	-11.7665
資於	-11.7666
此二句	-11.7667
重顯	-11.7672
化化	-11.7673
主伴	-11.7674
何等名為	-11.7675
清淨佛土	-11.7677
萬劫	-11.7678
十一種	-11.7679
化樂天	-11.7679
風動	-11.768
無明為因	-11.7681
作此說	-11.7682
妨難	-11.7684
不覩	-11.7692
止論	-11.7692
永絕	-11.7693
大梵王	-11.7696
乃至老死	-11.7697
正辨	-11.7697
智慧光明	-11.7698
不越	-11.7699
乃至涅槃	-11.7702
有其三	-11.7702
惑盡	-11.7705
假令	-11.7707
真偽	-11.7712
此謂之	-11.7714
又舍利子	-11.7715
猶存	-11.7716
斷常二見	-11.7716
分部	-11.7718
黑白	-11.7719
於何處	-11.772
且止	-11.7721
我悉	-11.7722
遍法界	-11.7723
玄文	-11.7723
此三摩地	-11.7724
悟淨圓覺	-11.7724
我今當說	-11.7725
揀非	-11.7726
間雜	-11.7727
相縛	-11.7728
其舍	-11.7728
真天眼	-11.7728
內發	-11.7729
由迷	-11.773
種種不實	-11.7731
是為四種	-11.7733
富饒	-11.7738
面佛南無	-11.774
無垢稱言	-11.774
一異俱不俱有無非有非無常無常	-11.774
之甚	-11.7741
義推	-11.7742
為眾生說法	-11.7743
死苦	-11.7743
百丈	-11.7743
弗沙	-11.7744
擁	-11.7745
厭足	-11.7747
春時	-11.7748
死後	-11.7752
此四種	-11.7752
作師子吼	-11.7755
王菩薩南無	-11.7757
法印	-11.7759
賢者阿難	-11.7761
樹枝	-11.7761
四教明	-11.7762
法本無	-11.7763
三惡趣	-11.7765
調不調	-11.7769
修惡	-11.7772
啼泣	-11.7777
郭	-11.7778
後學	-11.7779
菩薩復有十法名	-11.778
自相同相	-11.778
能生諸法	-11.778
諸漏已盡	-11.7782
正觀察	-11.7782
法非法	-11.7783
名句形身	-11.7784
南無蓮華	-11.7785
九十六種	-11.7786
事事無礙	-11.7787
稚	-11.7788
右遶三匝	-11.7788
千輻	-11.7789
依倚	-11.7789
錯亂	-11.779
共相娛樂	-11.7791
善根力	-11.7791
尸波羅蜜	-11.7791
髀	-11.7791
肌	-11.7792
城郭	-11.7792
不可說不可說	-11.7792
純熟	-11.7793
以惡業故	-11.7794
月光童子	-11.7794
有何差別	-11.7796
馳散	-11.7796
悲田	-11.7796
▁二別	-11.7796
挽	-11.7796
南無彌留	-11.7797
稍稍	-11.7797
匱	-11.7797
生死即涅槃	-11.7798
盡不盡	-11.7799
吟	-11.7799
賢劫中	-11.7804
國邑	-11.7805
斷證	-11.7806
日用	-11.7806
依他性	-11.7808
憎惡	-11.7808
七地菩薩	-11.7809
一異等	-11.781
此一句	-11.781
稱之為	-11.781
一切諸法悉	-11.7811
□□□□□□□	-11.7814
所惑	-11.7824
所傳	-11.7825
戒律	-11.7827
六麤	-11.7828
自燒	-11.7829
調伏眾生	-11.783
弟子眾	-11.783
大名稱	-11.7831
地味	-11.7831
志在	-11.7833
是為五	-11.7834
縱使	-11.7834
釋種	-11.7835
稱譽	-11.7837
歡喜地	-11.7842
又彼比丘	-11.7842
能隨順	-11.7845
治生	-11.7847
五百由旬	-11.7848
各各差別	-11.7848
能招	-11.7849
置之	-11.7855
勝樂	-11.7856
患厭	-11.7858
曾見	-11.7861
詣彼	-11.7864
展轉相生	-11.7868
小乘教	-11.7868
意止	-11.7869
止觀云	-11.787
正約	-11.7871
法如如	-11.7876
有佛號	-11.7879
無緣慈	-11.7879
寂滅忍	-11.7882
不婬	-11.7882
隨意所	-11.7883
g	-11.7887
<	-11.7887
m	-11.7887
i	-11.7887
正月	-11.7887
威勢	-11.7888
舊解	-11.789
經旨	-11.7892
憙樂	-11.7892
他世	-11.7892
錢財	-11.7897
上首智慧弟子曰	-11.79
義趣	-11.79
普現色身	-11.79
上二界	-11.7901
膽	-11.7902
零	-11.7904
抵	-11.7904
諸家	-11.7905
十方佛土	-11.7905
允	-11.7905
正徧知	-11.7907
斥之	-11.7908
皆悉成就	-11.7908
月十五日	-11.7909
俱不俱	-11.791
無悔	-11.791
閙	-11.7912
埋	-11.7913
危厄	-11.7914
六祖	-11.7918
為生因	-11.7918
雜穢	-11.7919
挾	-11.7919
我及諸菩薩	-11.7919
唱喚	-11.7922
日光明	-11.7923
非常無常	-11.7925
蓮華上	-11.7927
縣官	-11.7927
有淺深	-11.7927
一代	-11.7927
不可具說	-11.7929
一切國土	-11.793
先標	-11.7931
起信論云	-11.7932
有佛名曰	-11.7932
如是展轉	-11.7932
無疑惑	-11.7932
堪為	-11.7935
人師子	-11.7937
恒河沙數	-11.7938
▁初舉	-11.7939
略答	-11.794
緣生無性	-11.7941
爾許	-11.7943
神通變化	-11.7943
被燒	-11.7945
想陰	-11.7945
金輪	-11.7946
汝今當知	-11.7946
制伏	-11.7947
可爾	-11.7947
諸外道等	-11.7951
爾時大慧菩薩復白佛言世尊	-11.7955
所有福德	-11.7955
旋轉	-11.7956
如下文	-11.7956
為人所	-11.796
與諸天女	-11.796
愛染	-11.7961
作是念言	-11.7961
吉祥菩	-11.7962
莊嚴佛土	-11.7967
往古	-11.797
諸餓鬼	-11.7972
他化	-11.7973
唯自心	-11.7974
圓覺清淨	-11.7974
心心所法	-11.7976
必先	-11.7979
二不二	-11.798
正陳	-11.7983
說如是法	-11.7984
感得	-11.7984
▁一心敬禮	-11.7985
四段	-11.7985
若望	-11.7987
離繫	-11.7988
禪宗	-11.799
十八空	-11.799
之所能知	-11.7994
阿僧祇界	-11.7994
更樂	-11.7998
阿難問	-11.8002
慈氏菩薩	-11.8004
悉現	-11.8007
與授記	-11.8009
咸共	-11.8009
禪門	-11.801
退屈	-11.8013
成就第一義	-11.8015
下正釋	-11.8018
諸惡業	-11.8019
是為宴坐	-11.8022
無所有菩薩	-11.8023
七十五	-11.8023
蠱	-11.8024
等是也	-11.8025
陶	-11.8026
墮餓鬼	-11.8026
諸有為法	-11.8028
快說	-11.8029
時維摩詰來謂我言	-11.8029
情欲	-11.803
埵	-11.8033
乙	-11.8035
下隨文釋義	-11.8037
幹	-11.8037
單複	-11.8038
所興	-11.804
眾圍遶	-11.804
目之為	-11.804
咨	-11.804
愛涅槃	-11.8041
脩多羅	-11.8044
稽	-11.8044
鉢頭摩	-11.8045
愚夫所行禪	-11.8046
貪嗔	-11.8046
無能勝	-11.8047
拂迹	-11.8047
迷惑法	-11.8047
是彼惡業餘殘果報	-11.8048
簡擇	-11.8048
是彼地獄第	-11.8048
十千天子	-11.8049
修圓覺者	-11.8049
牒釋	-11.8049
不貪著	-11.8049
根塵識	-11.8049
之詞	-11.8049
懊惱	-11.805
蔓	-11.805
在大眾中即從座起	-11.8051
直示	-11.8053
生希有心	-11.8054
如師子王	-11.8056
豐足	-11.8058
託疾	-11.8058
第十六	-11.8059
諸凡愚	-11.8059
潤澤	-11.806
歸命懺悔	-11.8062
踈	-11.8062
周圓	-11.8063
妙花	-11.8066
不作是念	-11.8067
前所說	-11.807
于今	-11.807
初歎	-11.8071
唯識論云	-11.8073
不壞身	-11.8074
佛告比丘	-11.8076
妙高山	-11.8077
天子天女	-11.8078
精神	-11.808
無有自性	-11.808
法炬	-11.8082
宣布	-11.8082
曼陀羅華	-11.8086
二種神力	-11.8086
大仙人	-11.8086
得往生	-11.8088
為解說	-11.8088
何耶	-11.8089
初地菩薩	-11.8093
有二義一	-11.8093
愚冥	-11.8094
燈明佛	-11.81
上生經	-11.8103
大千世界	-11.8103
▁二答	-11.8104
初文者	-11.8106
智慧觀察	-11.8107
有多種	-11.8107
攝大乘論	-11.8108
威如來南無	-11.8109
淨土因	-11.8111
引論	-11.8112
轉復	-11.8115
十迴向	-11.8117
重病	-11.812
退散	-11.8121
佛南無降伏	-11.8122
有通別	-11.8122
認我	-11.8124
隨物	-11.8125
因緣而生	-11.8127
行六度	-11.8128
離散	-11.8133
古師	-11.8134
光明威德	-11.8138
列眾	-11.8138
是有法	-11.814
衣被	-11.8141
□□□□□□	-11.8144
喜根	-11.8145
有情界	-11.8146
善調	-11.8147
終頓	-11.8152
性自性空	-11.8154
不能入清淨覺	-11.8158
雜華	-11.8159
遇善知識	-11.816
所證法	-11.8161
具四德	-11.8165
捨一切善根	-11.8167
蒼	-11.8168
物機	-11.8168
陀隣尼	-11.817
泥團微塵	-11.8171
龜毛	-11.8171
觀察義禪	-11.8174
▁初引	-11.8175
寶花	-11.8177
毘盧遮那	-11.8181
火宅	-11.8181
藥師瑠璃光如來	-11.8181
祭祀	-11.8181
乃至惡業未	-11.8182
編	-11.8182
麁細	-11.8182
歡喜信樂	-11.8182
準知	-11.8183
隨智慧行	-11.8183
入佛慧	-11.8186
是有漏	-11.8187
不可限量	-11.8187
𡰱	-11.8187
峻	-11.8187
申請	-11.8188
皇帝	-11.819
暫停	-11.819
憂慼	-11.8191
標云	-11.8193
閉目	-11.8194
周易	-11.8197
塔寺	-11.8201
見諸眾生	-11.8202
妙境	-11.8202
更求	-11.8203
九十六	-11.8204
三匝	-11.8206
皈依	-11.8208
如來之藏	-11.8209
其數無量	-11.821
記別	-11.8213
以何為本	-11.8213
種種性	-11.8215
他國	-11.8216
所乘	-11.8218
雖具	-11.8218
觀十二因緣	-11.8222
安止	-11.8224
一一分別	-11.8225
脩羅	-11.8231
喜王菩薩	-11.8232
未久	-11.8235
眾患	-11.8237
紺青	-11.8237
正路	-11.8239
護正法	-11.8242
有八種	-11.8242
汝等當知	-11.8243
罪滅	-11.8244
一百二十	-11.8245
具壽	-11.8247
被彈	-11.825
萬里	-11.825
不落	-11.8252
星宿劫	-11.8253
大菩提心	-11.8255
一條	-11.8256
是故汝等	-11.8257
觀行成就	-11.8259
博聞	-11.8261
了一切法	-11.8264
卷第七	-11.8265
圓極	-11.8269
六十億	-11.8269
尚不見	-11.8278
兩手	-11.8282
開覺	-11.8283
九十一劫	-11.8283
孝道	-11.8283
吼佛	-11.8284
歷劫	-11.8286
匝	-11.8287
遍十方	-11.8288
風之所殺害	-11.8288
正體	-11.8288
苦患	-11.829
東方過	-11.8295
琉璃光	-11.8297
歸本	-11.8298
乞士	-11.8299
第十四	-11.83
嚴淨佛土	-11.83
下二釋	-11.8301
無始時來	-11.8302
資身	-11.8302
以譬擬法	-11.8302
庸	-11.8303
寶臺	-11.8306
憫	-11.8308
新發意	-11.8308
凌	-11.831
平等無二	-11.8312
墳	-11.8313
呵責有為	-11.8313
不離於	-11.8314
腋	-11.8317
石蜜	-11.8317
繒綵	-11.8318
若有善男子善女人	-11.8318
態	-11.8318
迅速	-11.8319
成阿羅漢	-11.832
妙喜世界	-11.8324
雹	-11.8326
涕泣	-11.8326
妄想自性計著	-11.8327
破邪	-11.8327
自有眾生樂觀如來	-11.8328
樹上	-11.833
願聞	-11.833
是生滅法	-11.8333
應如是知	-11.8335
胎中	-11.8336
影略	-11.8337
行六波羅蜜	-11.8338
所流	-11.8341
相謂言	-11.8342
如乾闥婆城	-11.8343
懈廢	-11.8344
現法樂	-11.8345
如文可知	-11.8347
成最正覺	-11.8347
能降伏	-11.8349
普眼菩薩	-11.835
如瑜伽	-11.8352
猶如幻	-11.8354
青赤	-11.836
聞此法	-11.8361
將何	-11.8363
云何奉持	-11.8364
清淨慧菩薩	-11.8367
證信	-11.8367
心印	-11.8373
山精	-11.8376
種種色相	-11.8378
愚惑	-11.838
能摧	-11.8383
無常想	-11.8384
瑕穢	-11.8389
邊見	-11.8391
諸惡趣	-11.8395
惡星	-11.8397
利他行	-11.8399
如轉輪王	-11.84
水泡	-11.8402
般涅槃後	-11.8403
平聲	-11.8405
美食	-11.8406
成無上正真之道	-11.8406
機感	-11.8412
高遠	-11.8416
無動如來	-11.8418
聽是經	-11.8422
如實行	-11.8423
四微	-11.8425
普賢章	-11.8426
半頌	-11.8427
深奧	-11.843
不思議熏	-11.8435
若諸菩薩以變化力	-11.8435
種種句味	-11.8437
眾星	-11.8437
何獨	-11.8437
燈王佛	-11.8438
聖智境界	-11.8438
即法作譬	-11.8439
隅	-11.8441
終而復始	-11.8441
我人眾生壽者	-11.8441
松	-11.8442
菩薩摩訶薩復有四種	-11.8442
來集會	-11.8444
汝及餘菩薩摩訶薩	-11.8445
以偈問曰	-11.8446
波羅提木叉	-11.8446
啄	-11.8447
得無所畏	-11.8448
提舍	-11.8448
棘	-11.8449
錦	-11.845
動亂	-11.845
頰	-11.845
炳然	-11.8451
程	-11.8452
當爾之時	-11.8452
聖德	-11.8453
約四教	-11.8453
下總結	-11.8454
秘藏	-11.8456
有為相	-11.8457
無慚愧	-11.8459
界內界外	-11.8459
不定種性	-11.8459
眉間白毫	-11.846
搖動	-11.8463
祠祀	-11.8464
蒲	-11.8464
修淨土	-11.8466
陁羅	-11.8468
維耶離	-11.8469
親光	-11.847
朗然	-11.847
妄現	-11.8471
我今為汝	-11.8472
嚧	-11.8473
勃	-11.8476
聰慧	-11.8477
分分	-11.8478
嚴菩	-11.8483
諸法無性	-11.8484
却後	-11.8484
所制	-11.8489
假想	-11.8491
於三有	-11.8492
守意	-11.8495
化儀	-11.8495
獨存	-11.8496
▁二正釋	-11.8498
閻浮提內	-11.8499
大方廣圓覺	-11.8499
若善男子善女人	-11.8502
竹林	-11.8502
無動搖	-11.8504
樹提	-11.8508
迴施	-11.8514
即於佛前	-11.8518
輕毀	-11.852
障難	-11.8521
一切諸法亦復如是	-11.8524
上文云	-11.8526
待緣	-11.8528
人非人	-11.8531
諸地相	-11.8531
說一切法不生	-11.8531
肇公	-11.8532
無想天	-11.8533
至到	-11.8533
不懼	-11.8541
色聲香味觸法	-11.8541
成唯識論	-11.8545
頓斷	-11.8545
前起後	-11.8546
盧至	-11.8546
親承	-11.8547
明不二	-11.8548
幾許	-11.8549
六根清淨	-11.855
寂止	-11.8551
麁惡	-11.8552
不勞	-11.8555
六位	-11.8555
信位	-11.8557
毗鉢舍那	-11.8558
前段	-11.8559
斷諸煩惱	-11.8559
其修行者	-11.856
徧法界	-11.856
韋	-11.8562
何得有	-11.8562
羣生	-11.8563
光焰	-11.8571
難思議	-11.8571
不可忍	-11.8572
惡不善法	-11.8574
樹根	-11.8574
劬勞	-11.8582
凍	-11.8582
如來自覺地	-11.8583
苾芻眾	-11.8583
諸長者子	-11.8583
不觀色	-11.8584
料揀	-11.8585
僧佉	-11.8585
得滅度	-11.8586
織	-11.8586
窺	-11.8587
妹	-11.8587
灌頂章句	-11.8587
屏	-11.8588
二正明	-11.8588
社	-11.8588
籌	-11.8589
淨飯王	-11.8589
誣	-11.8589
梵音聲	-11.859
臆	-11.859
一體三寶	-11.859
齧	-11.8591
精血	-11.8592
螺髻	-11.8593
不能染	-11.8593
雀	-11.8595
近遠	-11.8595
寶物	-11.8596
一丈	-11.8597
是即為寶	-11.8597
借座	-11.8598
末尼	-11.8599
湏	-11.8601
阿修羅軍	-11.8602
此下第二	-11.8604
世尊復告	-11.8605
寶手	-11.8605
道非道	-11.8607
不差	-11.8612
親里	-11.8613
婦人	-11.8613
華蓋	-11.8613
次第相續	-11.8614
無倒	-11.8615
無差別相	-11.8617
漏無漏	-11.8617
合集	-11.8618
諸法無我	-11.8619
八十四	-11.8619
兩足尊	-11.862
天堂	-11.862
若廣分別	-11.862
天魔外道	-11.8622
覆蓋	-11.8624
山上	-11.8625
殊不知	-11.8625
衰損	-11.8626
法華文句	-11.8635
彌勒章	-11.8637
車乘	-11.8637
七支	-11.8639
下引證	-11.8639
如實觀察	-11.8643
前文云	-11.8644
醜惡	-11.8645
直顯	-11.8645
尚可	-11.8647
但有言說	-11.8648
無礙解	-11.8648
無垢光	-11.8654
面目	-11.8656
孝行	-11.8656
能了達	-11.8657
百千萬億那由他	-11.8658
生歡喜心	-11.8663
自己	-11.8664
非非想	-11.8668
幻術	-11.867
有無二邊	-11.8671
比丘比丘尼	-11.8672
受安樂	-11.8673
不勤	-11.8676
尸棄佛	-11.8678
以之為	-11.8679
得意生身	-11.8679
無恚	-11.8679
如實智	-11.868
不諂	-11.8681
一念不生	-11.8686
廣示	-11.869
炎佛南無	-11.8691
難量	-11.8692
天子又問	-11.8693
非一非	-11.8693
從坐起	-11.8702
根原	-11.8705
從因生	-11.8707
所醉	-11.8708
所作功德	-11.8711
現在未來	-11.8713
教呵	-11.8713
煩惱即菩提	-11.8717
粟	-11.8718
唐譯作	-11.8719
空如來藏	-11.8721
姦	-11.8722
本起因地	-11.8722
竅	-11.8724
循環	-11.8724
勇佛	-11.8726
無明愛業	-11.8727
此有故彼有	-11.8727
法式	-11.8727
外道常不思議	-11.8728
綠	-11.8728
虹	-11.8728
鑄	-11.8728
與其眷屬	-11.8729
此等皆	-11.8729
菩薩不爾	-11.8729
所說之法	-11.8731
汝今諦聽當為汝說	-11.8731
呈	-11.8731
完具	-11.8731
如夢所見	-11.8732
栗	-11.8732
嚮	-11.8733
諸天龍神	-11.8733
微玅	-11.8733
諧	-11.8733
忖	-11.8733
阿羅呵	-11.8734
大光明藏	-11.8735
板	-11.8735
罪障	-11.8736
訶責	-11.8736
韋陀	-11.8736
無有窮盡	-11.8736
偃	-11.8737
長者維摩詰	-11.8737
不鼓自鳴	-11.8737
云何為三	-11.8737
諸國土	-11.8739
寶髻	-11.8741
歌頌	-11.8741
乏少	-11.8741
有為緣集	-11.8744
刼一切諸佛諸	-11.8744
無所求	-11.8745
善業熟	-11.8747
當得阿耨多羅三藐三菩提	-11.8747
離四病	-11.8747
天冠	-11.8747
初標示	-11.8749
撾	-11.875
佛所初發道心	-11.8751
那術	-11.8756
狂亂	-11.8757
謂此菩薩	-11.8758
圓覺自性	-11.876
訛也	-11.876
水波	-11.8763
龍女	-11.8765
良久	-11.8766
所作事	-11.8768
成唯識云	-11.8768
斯經典	-11.8769
妄計有	-11.8771
圓攝	-11.8771
右脇	-11.8773
繫著	-11.8774
何得言	-11.8775
兩間	-11.8779
一百五十	-11.878
嚴好	-11.878
冠菩	-11.8781
羅婆	-11.8782
新學菩薩	-11.8783
諸佛說法	-11.8786
供事	-11.8786
全性	-11.879
法界常住	-11.8793
初簡	-11.8796
煩惱習	-11.8797
圓教明	-11.8799
圓具	-11.8803
智燈	-11.8805
數千	-11.8807
生如是心	-11.8809
迴向菩提	-11.8813
能信解	-11.8816
為欲利益	-11.8817
梵住	-11.8818
品第十	-11.8818
▁南无無憂	-11.8819
豈知	-11.8823
無價	-11.8826
巧妙	-11.8828
邪執	-11.8837
初總釋	-11.8838
攝取眾生	-11.8839
如上所	-11.8839
常存	-11.884
因緣所生	-11.8842
聖智事	-11.8843
正憶念	-11.8848
具一切智	-11.8848
摧滅	-11.8848
延促	-11.8851
讚歎品	-11.8852
即其事也	-11.8855
於佛所	-11.8856
欣然	-11.8857
唐言	-11.8857
順正理	-11.8859
澄清	-11.886
空無生無二離自性相	-11.886
鹹	-11.8862
褒	-11.8862
闊	-11.8862
巾	-11.8862
轉輪	-11.8863
換	-11.8863
脉	-11.8863
行於非道	-11.8863
形量	-11.8864
眾所知識	-11.8864
佛以一音演說法	-11.8865
如明鏡	-11.8866
禽	-11.8866
親證	-11.8867
當於何求	-11.8869
正述	-11.887
▁南无降伏	-11.887
賓主	-11.887
第六意識	-11.8871
牒上	-11.8871
自惟	-11.8871
寶衣	-11.8872
銜	-11.8873
亭	-11.8873
親疎	-11.8873
四輩弟子	-11.8873
十二分教	-11.8874
若諸菩薩以寂滅力	-11.8875
毗舍	-11.8876
摸	-11.8876
栽	-11.8877
不即不離	-11.8878
火聚	-11.8878
第一義悉檀	-11.8879
怱	-11.888
伎術	-11.8882
惶	-11.8882
沓	-11.8883
喘息	-11.8883
施作佛事	-11.8884
王舍大城	-11.8884
羅大將	-11.8887
形體	-11.8888
是為十	-11.8889
自見身	-11.8889
受天快樂	-11.889
華嚴經云	-11.8893
盲冥	-11.8894
貢上其佛	-11.8894
復有四法	-11.8895
大患	-11.8897
佛地論云	-11.8899
我法中	-11.8902
佛地經	-11.8912
無盡功德	-11.8913
聞此語	-11.8914
恭敬禮拜	-11.8914
名句文身	-11.8915
▁南无名稱	-11.892
十一品	-11.8923
永斷無明	-11.8924
獄中	-11.8927
▁後結	-11.8927
一切有為法	-11.8928
如法修行	-11.8932
真解脫	-11.8933
利益一切眾生	-11.8937
秋時	-11.8942
相不可得	-11.8947
覩其	-11.8949
美惡	-11.895
不與取	-11.8954
輔相	-11.8957
說何等法	-11.896
入無餘涅槃	-11.8964
禮記	-11.8969
釋義二	-11.8972
發動	-11.8974
此之謂也	-11.8975
寂滅一心	-11.8978
佛告諸比丘	-11.8978
最清淨	-11.8979
初中後	-11.8985
地上菩薩	-11.8987
如法華經	-11.8989
得聞此	-11.8992
自娛樂	-11.8996
癡冥	-11.8996
真出家	-11.9001
胃	-11.9005
缾	-11.9005
鉤鏁	-11.9005
下隨釋	-11.9007
清水	-11.9007
深妙法	-11.901
四辯	-11.9011
赦	-11.9011
岐	-11.9011
飡	-11.9011
仲	-11.9011
蹤	-11.9014
牟修樓陀	-11.9014
八相成道	-11.9014
僮僕	-11.9015
而興大悲心	-11.9017
羅婆那	-11.9017
雌	-11.9018
雕	-11.9019
塚	-11.9019
稠林	-11.902
樂說辯才	-11.9022
琦	-11.9023
突	-11.9027
鼻舌	-11.9027
有漏法	-11.9027
發揮	-11.9028
親愛	-11.9028
能知之	-11.903
五百歲	-11.9031
是謂無行	-11.9032
心所念	-11.9032
莊嚴王佛	-11.9033
中央	-11.9033
不可窮盡	-11.9033
赤白	-11.9033
七十三	-11.9033
枝條	-11.9034
所譯	-11.9034
水中月	-11.9034
次有一行	-11.9035
方等經	-11.9035
理事無礙	-11.9037
何等為八	-11.9038
邪魔	-11.9039
風力	-11.9044
▁初總標	-11.9046
覺自心現	-11.9048
拶	-11.9049
自念言	-11.9049
和同	-11.905
五十三	-11.9053
墮有無見	-11.9053
弗沙佛	-11.9054
光耀	-11.9062
靈山	-11.9062
漢書	-11.9063
十使	-11.9064
初總明	-11.9066
莊嚴世界	-11.9066
分科	-11.9069
竹園	-11.907
破戒比丘	-11.9073
戲笑	-11.9073
無變異	-11.9074
備足	-11.9074
禪定智慧	-11.9075
所觀境	-11.9076
遍計所執相	-11.9085
就座	-11.9086
光明普照	-11.9088
立一切法	-11.9091
自性差別	-11.9102
觀視	-11.9106
得生天上	-11.9108
觀一念心	-11.9111
在彼地獄	-11.9113
能縛	-11.9113
諸婆羅門	-11.9119
變似	-11.9119
應作是念	-11.9121
不休	-11.9123
南無無垢	-11.9128
適意	-11.9128
隨所應	-11.913
▁二隨釋	-11.913
彼愚夫	-11.9131
老病	-11.9135
現土	-11.9137
本質	-11.9139
諸天女眾	-11.9139
今當說	-11.9142
於百千劫	-11.9143
大迦葉言	-11.9144
權現	-11.9145
乾闥婆城	-11.9146
風住在身中	-11.9151
成佛果	-11.9152
無壞無雜	-11.9152
身得度者	-11.9154
而度脫之	-11.9154
死魔	-11.9154
七日七夜	-11.9158
荷澤	-11.9159
如意足	-11.9159
我及餘菩薩摩訶薩	-11.9159
伎兒	-11.916
遽	-11.916
那庾多	-11.9161
高顯	-11.9161
奢摩他毗鉢舍那	-11.9161
蝕	-11.9162
決定信	-11.9163
未發心	-11.9163
又修行者	-11.9163
全在	-11.9163
剃除鬚髮	-11.9164
銖	-11.9165
昌	-11.9165
聞彼佛名	-11.9165
唯願為說	-11.9165
跳	-11.9167
譬如幻師	-11.9167
罽賓	-11.9168
菩提薩埵	-11.9169
遏	-11.9169
空無相	-11.9169
退坐一面	-11.917
挺	-11.917
矛	-11.9171
富伽羅	-11.9171
釘	-11.9174
貿	-11.9176
弦	-11.9179
鮮潔	-11.9181
如來之身	-11.9183
有三句	-11.9184
無行空	-11.9184
軟語	-11.9186
肇公云	-11.9186
四如意足	-11.9188
師友	-11.9188
曼陀	-11.9189
菩薩行品	-11.9191
照物	-11.9194
諮受	-11.9198
▁二正	-11.9198
秘密藏	-11.9203
彼佛世尊	-11.9208
琰魔	-11.9208
後漢	-11.9213
初敘意	-11.9213
八句	-11.9214
大龍王	-11.9214
香山	-11.9215
懺悔品	-11.9216
中初言	-11.9216
攝受計著	-11.9217
殷	-11.922
歷然	-11.9222
聞不聞	-11.923
有性無性	-11.923
苦厄	-11.9233
苦切	-11.9239
於人中	-11.9241
有無等見	-11.9241
伏忍	-11.9242
舍利弗白佛言	-11.9251
妙吉祥言	-11.9252
聖旨	-11.9253
此是第三	-11.9253
厭捨	-11.9253
無不具足	-11.9255
波利	-11.9256
當來世	-11.927
自陳	-11.9272
質多	-11.9278
無上正真	-11.9282
千倍	-11.9284
甚深微妙	-11.9286
而起大悲	-11.9286
阻	-11.9293
所演	-11.9293
身子問	-11.9299
▁二引	-11.9301
央掘	-11.9301
心行處滅	-11.9303
爽	-11.9304
況餘	-11.9307
操	-11.9308
月氏	-11.9308
鄣	-11.9309
東西南北	-11.9309
拭	-11.9311
俟	-11.9311
藤	-11.9311
阿素洛	-11.9312
得自覺聖智善樂	-11.9312
波羅奈	-11.9313
隻	-11.9313
窟中	-11.9313
藐	-11.9314
陋	-11.9314
義不成	-11.9315
迴向阿耨多羅三藐三菩提	-11.9315
菩薩有四法	-11.9315
拍	-11.9315
勝思惟梵天	-11.9317
出城	-11.9318
匹	-11.9318
梵釋	-11.9318
三明六通	-11.9319
說名為病	-11.9319
閉塞	-11.932
示教利喜	-11.9321
何以不	-11.9321
因緣力故	-11.9322
炷	-11.9322
裸	-11.9323
風所吹	-11.9324
見此事已	-11.9325
見佛身	-11.9325
無吾我	-11.9325
是謂有行	-11.9326
無我我所	-11.9326
忿怒	-11.9327
斷三界	-11.9328
莊嚴王佛南無	-11.933
百種	-11.9331
微少	-11.9334
內心思惟	-11.9335
沈沒	-11.934
檀度	-11.9351
自心量	-11.9353
梁論	-11.9354
善清淨慧	-11.9355
思擇	-11.9359
胎生	-11.9367
生於人中	-11.9367
成男子	-11.9367
洞然	-11.937
受天樂	-11.9378
人中上	-11.9379
世俗諦	-11.938
微妙經典	-11.9385
來詣	-11.9387
障蔽	-11.9391
流散	-11.94
遊觀	-11.9405
縱令	-11.9407
二答二	-11.9407
出纏	-11.9407
佛南無栴檀	-11.9408
如來南無普	-11.941
縛著	-11.9411
尊者舍利弗	-11.9413
教勅	-11.9422
十六日	-11.9426
十方一切世界	-11.9428
說此偈	-11.9428
無上覺	-11.9433
不污	-11.9441
有一比丘	-11.9443
寶炎	-11.9444
引經證	-11.9447
普覺菩薩	-11.9447
山河大地	-11.9451
第二段	-11.9452
措	-11.9453
夾	-11.9454
鬱	-11.9456
衍門	-11.9456
風病	-11.9457
輕躁	-11.9457
與眷屬	-11.9458
効	-11.9458
佛之知覺	-11.9459
擊鼓	-11.9459
吽	-11.946
撫	-11.9462
村落	-11.9462
爾雅云	-11.9463
賢劫千佛	-11.9465
本來清淨	-11.9465
外種種義	-11.9465
如意寶珠	-11.9465
阿黎耶識	-11.9465
慘	-11.9466
」】「	-11.9466
得無所從生法忍	-11.9467
天王牟修樓陀	-11.9467
妄習	-11.9468
不如飯一	-11.9469
莊飾	-11.9469
今正是時	-11.947
摽	-11.947
如是無量百千年歲	-11.9473
徃	-11.9474
結益	-11.9474
賦	-11.9475
空無相願	-11.9475
功力	-11.9475
災橫	-11.9475
椎	-11.9475
髑髏	-11.9476
能正了知	-11.9477
不能測	-11.9482
無量劫來	-11.9483
抂	-11.9484
心之所念	-11.9484
山間	-11.9485
遮惡	-11.9488
以何業故	-11.949
無所歸	-11.9491
增上果	-11.9491
乾城	-11.9492
請飯	-11.9498
中道第一義諦	-11.9499
從三昧起	-11.9502
困苦	-11.9503
結歸	-11.9506
妙藥	-11.951
遮那	-11.9513
龍尊	-11.9518
佛語阿難	-11.9519
風殺	-11.9519
問維摩詰	-11.9521
隨心所	-11.9521
萬由旬	-11.9523
淨土因果	-11.9524
普濟	-11.9524
毘耶	-11.9528
持呪	-11.9529
在虛空中	-11.9533
亦復遠離	-11.9536
生兜率天	-11.9536
面像	-11.9539
病惱	-11.9543
濕性	-11.9547
來向	-11.9551
不飲酒	-11.9551
仁王經	-11.9552
趺	-11.9564
火焚	-11.9565
三種解脫	-11.9568
世尊而說偈言	-11.9572
善調伏	-11.9572
不可極	-11.9575
法華涅槃	-11.9576
八萬四千人	-11.9578
壞敗	-11.9579
唐作	-11.958
眾生心行	-11.9585
百萬億	-11.959
大千界	-11.9592
瑠璃光	-11.9596
何等為七	-11.9597
未來世中	-11.96
拘留孫佛	-11.9603
當墮地獄	-11.9604
執藏	-11.9604
無性攝論	-11.9604
唯心識觀	-11.9606
鴻	-11.9606
碧	-11.9607
朔	-11.9609
彼復問言	-11.9609
傅	-11.961
國城	-11.961
學習	-11.9611
憚	-11.9611
自下第四	-11.9611
無盡藏	-11.9614
完	-11.9614
離攀緣	-11.9614
詢	-11.9614
彈指頃	-11.9616
所緣緣	-11.9616
如其次第	-11.9617
菜	-11.9617
同於兔角	-11.9617
授阿耨多羅三藐三菩提記	-11.9617
墓	-11.9618
不有不無	-11.9619
祇陀	-11.9619
憒	-11.962
嫁	-11.962
金光明最勝王經	-11.962
波斯匿王	-11.962
坐於道場	-11.962
臻	-11.9621
䭾	-11.9621
翹	-11.9622
屋宅	-11.9622
曳	-11.9622
交徹	-11.9622
芬	-11.9622
虗假	-11.9623
侵奪	-11.9625
毀辱	-11.9626
橫豎	-11.9627
如是見已	-11.9627
斷見思	-11.9629
無體相	-11.9629
非想非非想處	-11.9629
精勤修習	-11.9632
鼻識	-11.9634
定判	-11.9634
生餓鬼中	-11.9634
尼揵	-11.9638
已下明	-11.9638
貪惜	-11.9639
不可言說	-11.9641
海印	-11.9641
皆蒙	-11.9643
卑賤	-11.9643
變動	-11.9645
與諸眷屬	-11.9647
鬼畜	-11.9652
如是等無量無邊	-11.9654
手捉	-11.9654
乳母	-11.9656
淨土之行	-11.9658
三十九	-11.9658
卷第二十	-11.9661
入不二門	-11.9662
三行半	-11.9664
諸有所作	-11.9671
追求	-11.9671
灰斷	-11.9677
河水	-11.9677
五百世	-11.9679
唯除如來	-11.9684
起信云	-11.9687
汝等應當	-11.9689
難易	-11.97
古德	-11.9701
悲喜	-11.9705
十八不共	-11.9712
聞法功德	-11.9712
熾火	-11.9713
整衣服	-11.9716
四大和合	-11.9717
鼓音	-11.9717
慈母	-11.9725
銷文	-11.9727
勸學	-11.9732
內懷	-11.9732
禪悅	-11.9734
自在王菩	-11.9742
為汝說	-11.9743
生大歡喜	-11.9746
百日	-11.9749
受大苦	-11.9749
性自空	-11.9754
恢	-11.9758
諸說不同	-11.9759
獲福	-11.976
穆	-11.9762
我證彼定得不還果	-11.9764
阿練若	-11.9765
太山	-11.9765
為何所作	-11.9765
第一義聖智大空	-11.9767
佛在世時	-11.9767
科共成	-11.9767
龍宮	-11.9769
如來於此而起大悲	-11.977
蝶	-11.9771
無量甚深法性	-11.9771
期限	-11.9771
內身證	-11.9771
無始虗偽習氣	-11.9771
蒸	-11.9772
燼	-11.9772
讎	-11.9774
舉足下足	-11.9775
坻	-11.9776
屈曲	-11.9776
恁麼	-11.9776
生死流轉	-11.9776
而來生此	-11.9777
印度	-11.9777
今悉懺悔	-11.9778
誠實	-11.9778
復有劫中	-11.9778
刊	-11.9778
如是等罪無量無邊	-11.9778
搜	-11.9779
凝然	-11.9779
百分不及一	-11.9779
晡	-11.978
低頭	-11.9781
魄	-11.9784
自投	-11.9784
誘進	-11.9785
誼	-11.9786
福寧為多不	-11.9787
臨濟	-11.9788
見是事已	-11.9789
譯如是我聞	-11.9789
爛壞	-11.9789
以明中道	-11.9789
赤銅	-11.9791
初標章	-11.9793
損惱	-11.9793
宣示	-11.9796
凡有三	-11.9797
囇	-11.9797
次一句	-11.9797
饒益一切眾生	-11.9799
善法堂	-11.9799
文有四	-11.9801
阿耨多羅三藐三菩提心	-11.9801
出於世	-11.9804
於三界中	-11.9806
廣長舌	-11.9806
寶冠	-11.9807
受諸苦	-11.9807
後段	-11.9808
安隱快樂	-11.981
化益	-11.9811
五百弟子	-11.9815
力勢	-11.9816
仁義	-11.982
表示	-11.9823
云何為五	-11.9825
堅執	-11.9826
無明業識	-11.9828
未來現在	-11.9829
而行乞食	-11.983
行菩薩道時	-11.9831
徧十方	-11.9834
徵問	-11.9834
靜室	-11.9834
三十四心	-11.9836
造諸惡業	-11.9841
能永斷	-11.9846
一箇	-11.985
始末	-11.9853
十乘	-11.9856
如來南無師子	-11.986
不可破壞	-11.986
生淨信	-11.9866
西天	-11.9871
著衣	-11.9873
無瑕	-11.9873
無實事	-11.9874
減少	-11.988
疑情	-11.9886
四等心	-11.9897
色非色	-11.9906
心無所著	-11.9907
名句文	-11.9913
初長文	-11.9914
昨	-11.9915
相符	-11.9917
修六度	-11.9918
在別卷	-11.9919
什麼	-11.992
前後際斷	-11.9921
名先修奢摩他	-11.9922
誥	-11.9923
造種種業	-11.9924
敬信	-11.9924
覔	-11.9925
大集經	-11.9926
起菩薩根	-11.9926
園苑	-11.9927
七萬	-11.9928
帀	-11.9928
闢	-11.9929
摘	-11.993
涎	-11.993
必假	-11.9931
胞	-11.9931
沃	-11.9932
肺病	-11.9932
無言無說	-11.9933
陰入界	-11.9933
文字性離	-11.9934
八萬四千由旬	-11.9934
百川	-11.9935
毱多	-11.9935
金剛力士	-11.9935
劈	-11.9936
荊棘	-11.9936
厨	-11.9936
跋陀婆羅	-11.9936
自活	-11.9938
世尊欲重宣此義而說偈言	-11.9938
惡習	-11.9938
復有異處名	-11.9939
羸劣	-11.9939
姊妹	-11.9941
假設	-11.9941
衣裳	-11.9942
述歎	-11.9943
有大威德	-11.9943
饌	-11.9944
羅睺阿修羅王	-11.9945
非一異	-11.9948
芻	-11.9949
熏成種	-11.9949
柯	-11.9951
修行者隨順觀外身	-11.9954
得作佛	-11.9955
身心轉變	-11.9956
翼從	-11.9956
諸法性相	-11.9957
柳	-11.9958
淨修梵行	-11.9959
如來藏識藏	-11.9961
非擇滅	-11.9964
智箋	-11.9968
有兩釋	-11.997
一百八十	-11.997
九部	-11.997
諸善知識	-11.9971
□□□□□□□□□	-11.9973
領悟	-11.9973
求大乘者	-11.9976
頭痛	-11.998
是即寶	-11.998
能遮	-11.9981
能作所作	-11.9985
本來平等	-11.9986
三種意生身	-11.9987
雙標	-11.9987
龍主	-11.9987
何殊	-11.999
違失	-11.9994
慈哀	-11.9995
我弟子	-11.9995
謙下	-11.9995
無暇	-11.9997
指歸	-11.9998
法華疏	-12
退墮	-12
究竟通達	-12.0005
印印	-12.0006
普覆	-12.0007
一標行	-12.0007
興發	-12.0008
九十九	-12.0009
不嫉	-12.001
怨結	-12.0013
真宴坐	-12.0013
世親釋	-12.0019
不煩	-12.0021
大段第二	-12.0024
辟支佛乘	-12.0028
香潔	-12.003
初中三	-12.0034
楞伽云	-12.0036
不了義經	-12.004
於後時	-12.0043
音王佛	-12.0044
形質	-12.0046
四住地	-12.0048
漸增	-12.0051
陰蓋	-12.0053
頭髮	-12.0053
四明云	-12.0056
金剛山	-12.0058
。】【△	-12.0059
便宜	-12.0068
不倦	-12.0072
年月	-12.0074
揣	-12.0076
薩婆多宗	-12.0079
埿	-12.0082
一滴	-12.0086
初段	-12.0086
論語云	-12.0087
葱	-12.0088
企	-12.0089
曇摩	-12.0089
不來相而來	-12.0089
如蠶作繭	-12.0091
汝等乃能為諸菩薩及末世眾生	-12.0092
不厭足	-12.0092
夙	-12.0092
阿惟越致	-12.0092
生緣老死	-12.0093
介	-12.0093
皮膚	-12.0093
常與無常	-12.0093
誕	-12.0093
惡露	-12.0094
我是眾生	-12.0095
恒河沙劫	-12.0096
夜夢	-12.0097
二挈旨	-12.0098
告大慧菩薩摩訶薩言	-12.0098
耗	-12.0099
戮	-12.0099
五性差別	-12.0099
耨	-12.01
▁南无普照	-12.01
珂	-12.0101
祝	-12.0101
錠	-12.0101
雷震	-12.0102
豈異人乎	-12.0102
顧戀	-12.0104
癩	-12.0104
裸形	-12.0104
無所發菩薩	-12.0106
奉獻	-12.0107
第十七	-12.0107
月如來南無	-12.0109
偏舉	-12.0109
惒	-12.0111
生於天上	-12.0114
六欲天	-12.0114
護持正法	-12.0124
金剛藏菩薩摩訶薩	-12.0124
隨眾生心	-12.0126
不得脫	-12.0127
本性空寂	-12.0128
結斥	-12.0131
因緣所生法	-12.0132
▁南无断	-12.014
貪恚	-12.0141
餘殘	-12.015
兩段	-12.0152
無量阿僧祇劫	-12.0153
利有情	-12.0158
今現在說法	-12.0159
七覺分	-12.016
過量	-12.0161
無有邊際	-12.0163
階差	-12.0166
諸罪人	-12.0166
承事供養	-12.0168
▁南无那羅延	-12.0169
四種四諦	-12.0173
統攝	-12.0175
契合	-12.0177
畢竟不可得	-12.0178
未到	-12.0178
得無上菩提	-12.0179
億千	-12.0184
無咎	-12.0187
皆得解脫	-12.0188
十方國土	-12.0188
如我所	-12.0189
所宣	-12.0189
豈容	-12.0189
而行布施	-12.0189
父母恩	-12.019
和集	-12.0193
香塗	-12.0193
千五百	-12.0195
長行云	-12.0196
曷為	-12.0196
猶屬	-12.0199
雙樹	-12.0199
天台云	-12.02
後代	-12.02
可往	-12.0206
偏小	-12.0218
七覺意	-12.022
彈訶	-12.022
鉢飯	-12.0225
譬如虗空	-12.0225
能覺了	-12.0227
知宿命	-12.023
必獲	-12.023
▁後辨	-12.0233
散失	-12.0236
有十事	-12.0236
坤	-12.0242
互具	-12.0243
左手	-12.0243
眾生心中所念	-12.0243
住不可思議解脫菩薩	-12.0245
午	-12.0247
今則無滅	-12.0247
格箋	-12.0248
八千菩薩	-12.025
淨諸業障菩薩	-12.025
重重無盡	-12.025
庵	-12.0251
諸正士	-12.0252
四弘誓願	-12.0253
梅	-12.0253
二述不堪之由	-12.0254
無常苦空	-12.0255
隨順正法觀察法行	-12.0256
增上力	-12.0257
爰	-12.0257
攀緣如禪	-12.0258
今即第一	-12.0258
自覺之境界	-12.0259
晝夜六時	-12.026
運載	-12.026
長跪叉手而白佛言	-12.0261
法界次第	-12.0261
叩	-12.0262
今謂不然	-12.0264
廓然	-12.0264
若於前世過去久遠	-12.0264
粒	-12.0264
作麼生	-12.0267
讐	-12.0267
屎尿	-12.0267
一挈旨	-12.0267
開示悟入	-12.0268
俱不可得	-12.0269
石壁	-12.0269
佇聽	-12.0269
猶如空華	-12.027
乃至愛善業盡	-12.027
深坑	-12.027
五行半	-12.0271
呻	-12.0272
群萌	-12.0272
瑞相	-12.0272
七段	-12.0272
頭面著地	-12.0272
漸淨非頓	-12.0273
不相捨離	-12.0274
晃耀	-12.0274
如來淨除一切眾生自心現流	-12.0275
推窮	-12.0275
裔	-12.0275
汝等四王	-12.0275
所住之處	-12.0276
牛跡	-12.0276
下次釋	-12.0278
閑靜	-12.0279
中陰有	-12.0282
色受想行識	-12.0286
阿蘭若處	-12.0286
覆其上	-12.0287
孤山云	-12.0287
導成	-12.0289
長劫	-12.0289
不起法忍	-12.0291
信敬	-12.0292
愁苦	-12.0293
何足	-12.0296
焰光	-12.0297
豪富	-12.0298
諸天世人	-12.0298
鉢囉	-12.0298
百里	-12.0299
會坐	-12.0303
發起序	-12.0309
如之何	-12.0312
文為二初正釋	-12.0314
彌滿	-12.0315
老母	-12.0322
大智論云	-12.0324
南無東方	-12.0325
觀心釋	-12.0332
跋陀	-12.0337
四維	-12.034
亂想	-12.034
生芽	-12.034
修諸善	-12.0341
少年	-12.0344
敷具	-12.0352
入無餘	-12.0353
雙結	-12.0358
不遷	-12.0359
厭苦	-12.0362
寶嚴	-12.0362
木石	-12.0364
愍哀	-12.0366
自性不壞	-12.0378
臨欲	-12.038
互顯	-12.0381
頌半	-12.0381
密語	-12.0384
一番	-12.0385
讚佛品	-12.04
下一行	-12.0406
篤	-12.0407
號叫	-12.0411
絕百非	-12.0411
亦不作念	-12.0413
退還	-12.0413
名先修三摩鉢提	-12.0414
如來應正等覺	-12.0414
安處徒眾	-12.0414
不顯示第一義	-12.0415
恕	-12.0417
陶師	-12.0417
療眾病	-12.0418
次半頌	-12.0418
無始虛偽	-12.0419
無性釋云	-12.0422
大目乾連	-12.0422
猶如大海	-12.0423
滅惡生善	-12.0423
如是三請終而復始	-12.0424
轉大法輪	-12.0424
蟒	-12.0425
乳哺	-12.0425
無取無捨	-12.0426
四百四病	-12.0427
纖毫	-12.0427
伊字	-12.0427
猫	-12.0429
持諷誦念	-12.0429
嗟歎	-12.0429
砂	-12.0431
房舍	-12.0431
變怪	-12.0434
三藏教明	-12.0434
劣應	-12.0435
酒肉	-12.0436
近善知識	-12.0436
燿	-12.0437
應如是學	-12.0437
奮	-12.0439
靣	-12.0441
庫曹官姓	-12.0441
發大願	-12.0442
孰能	-12.0443
悕求	-12.0443
出世間智	-12.0443
百穀	-12.0444
頻婆娑羅王	-12.0448
生於天中	-12.0449
萬端	-12.0449
穢濁	-12.045
菩薩作是思惟	-12.0451
悔恨	-12.0452
樹提伽	-12.0455
出胎	-12.0455
升進	-12.0456
從是得	-12.0458
劫奪	-12.0464
來聽法	-12.0471
亦不作是念	-12.0474
世界悉檀	-12.0475
善不善業	-12.0481
賢善首菩薩	-12.0483
力強	-12.0485
善分別自心現	-12.0496
四大天王	-12.0498
諸大乘經	-12.0501
非彼所	-12.0508
入聚落	-12.0511
得阿羅漢果	-12.0516
汝等比丘	-12.0523
寶冥	-12.053
難調	-12.0535
八萬歲	-12.0541
和合而有	-12.0548
諸根具足	-12.0549
往往	-12.0549
不能救	-12.055
輕微	-12.0552
色香味觸	-12.0558
連持	-12.0562
山海	-12.0562
百千種	-12.0568
受苦樂	-12.0572
瞋癡	-12.0576
無說無示	-12.0577
初番	-12.0581
卷第八	-12.0582
稷	-12.0582
虗幻	-12.0583
無所礙	-12.0583
毀譽	-12.0586
眾生本來成佛	-12.0587
飜	-12.0588
熱時𦦨	-12.0589
罷	-12.0589
威德自在菩薩	-12.0589
永嘉云	-12.0589
請觀音	-12.059
六根六塵	-12.059
六親眷屬	-12.0591
交絡	-12.0592
甚多甚多	-12.0592
行於非道通達佛道	-12.0593
優曇鉢	-12.0593
毘毘產	-12.0593
緯	-12.0594
轉識成智	-12.0594
哲	-12.0594
膳	-12.0595
賈	-12.0595
莫令	-12.0596
蘆	-12.0596
叫喚地獄	-12.0596
稠	-12.0597
誅	-12.0598
葦	-12.0599
作如是觀	-12.0599
吼聲佛南無	-12.0599
悋惜	-12.0599
攝所攝計著	-12.0601
湖	-12.0601
法清淨瓔珞	-12.0601
麁獷	-12.0603
承佛神力	-12.0603
喃	-12.0603
却坐一面	-12.0604
筋脈	-12.0605
陸地	-12.0605
意成身	-12.0607
優陀	-12.0607
是為忍辱不可極	-12.0607
决定	-12.0611
肉髻	-12.0611
毀傷	-12.0613
止此室	-12.0614
五欲樂	-12.0615
敵對	-12.0615
雙流	-12.0616
怨憎	-12.0617
如幻如化	-12.0617
福祐	-12.0618
應捨離	-12.0619
厭倦	-12.0622
前中有二	-12.0624
等輩	-12.0628
辛苦	-12.0631
又復問	-12.0631
五十一	-12.0634
塵土	-12.0636
法身常住	-12.0637
手指	-12.0637
真如實際	-12.0637
如汝所言	-12.0639
鏡中像	-12.064
猶如幻化	-12.0643
王領	-12.065
諸臣	-12.0652
欝單越人	-12.0654
初略示	-12.066
婆伽	-12.0667
風輪	-12.0669
行菩提行	-12.0672
焰燃	-12.0673
六度萬行	-12.0684
藏菩薩南無	-12.0686
堅精進	-12.0686
是地獄人	-12.0688
十二分	-12.0689
無瑕穢	-12.0699
光遍照	-12.0702
所知境界	-12.0703
根器	-12.0705
有佛國土	-12.0706
般若波羅蜜多	-12.0706
法無我智	-12.0711
卵生	-12.0711
一切法亦如是	-12.0713
不覺自心現量	-12.0715
略有二種	-12.0725
有所求	-12.073
華梵	-12.0734
一毫	-12.0736
曼陀羅	-12.0736
怛薩阿竭署	-12.0738
旃延	-12.074
骨節	-12.0745
世間言論	-12.0746
遐	-12.075
株	-12.0753
我人眾生壽命	-12.0754
費	-12.0755
揮	-12.0756
為他所	-12.0758
鎻	-12.0759
現眾色像	-12.0759
自覺覺他	-12.0759
瞻蔔	-12.0759
今為汝說	-12.0759
綖	-12.0761
餉	-12.0763
佛告觀自在菩薩曰	-12.0763
與七識俱	-12.0764
初地已上	-12.0766
偏袒右肩右膝著地	-12.0766
徧一切處	-12.0766
名先修禪那	-12.0766
禮三寶	-12.0769
拘隣	-12.0769
捧	-12.077
鱗	-12.077
儉	-12.0772
四大洲	-12.0772
驚懼	-12.0773
坦然	-12.0773
清潔	-12.0774
鴛鴦	-12.0774
阿闍梨	-12.0774
羅閱祇	-12.0774
實有自性	-12.0774
幽冥	-12.0775
段經文	-12.0776
拯	-12.0776
善思童子	-12.0776
阿難白佛	-12.0778
棗	-12.0779
滋茂	-12.078
睫	-12.078
身毛孔	-12.0781
萬五千	-12.0781
受諸快樂	-12.0782
父母兄弟	-12.0783
含攝	-12.0783
香味觸	-12.0784
佛時頌曰	-12.0785
寶印手	-12.0787
拈云	-12.0788
初文復	-12.079
大目揵連	-12.0794
▁南无世閒	-12.0795
八萬劫	-12.0796
諸音樂	-12.0798
謗毀	-12.08
法華文句云	-12.0803
妄生分別	-12.0804
本來寂滅	-12.0806
莫不歡喜	-12.0806
忘情	-12.0811
引導眾生	-12.0813
自證分	-12.0817
分段變易	-12.0817
嚴土	-12.0819
婆沙論	-12.082
復有幾種	-12.0823
如來為上首	-12.0824
歷諸	-12.0825
妄即真	-12.0827
恒河沙世界	-12.0828
初發意	-12.0832
▁南无求那	-12.0834
既得脫	-12.0834
爾時維摩詰	-12.0835
願諸眾生	-12.0837
甚深難	-12.084
若不出世	-12.0842
八倒	-12.0845
月天子	-12.0846
聞是語	-12.0847
所招	-12.0847
扶成	-12.0849
渴乏	-12.0855
慧命舍利弗	-12.0858
青蓮華	-12.0859
墜墮	-12.0859
毛頭	-12.0861
種植	-12.0862
不空如來藏	-12.0866
此句示	-12.0866
觀自在菩薩	-12.087
賴耶識	-12.0873
得阿羅漢道	-12.0874
所歸趣	-12.0874
高幢	-12.0875
鹿王	-12.0875
文為五	-12.0877
飛空	-12.0878
引法華	-12.0878
阿鼻獄	-12.0882
甚奇	-12.0892
無來去	-12.0905
梵志種	-12.0913
第一卷	-12.0918
為若此也	-12.0923
砧	-12.0923
給孤獨	-12.0925
汲	-12.0925
貫穿	-12.0926
食此飯者	-12.0929
大慧菩薩復白佛言	-12.0929
即空即假即中	-12.0932
名譽	-12.0932
住不思議解脫	-12.0933
求哀懺悔	-12.0933
時眾得益	-12.0933
諸惡道	-12.0934
虞	-12.0934
起惑造業	-12.0935
猿猴	-12.0935
勝義無自性性	-12.0936
根未熟	-12.0936
以要言之	-12.0937
離心緣相	-12.0938
菴摩羅	-12.0938
曠劫	-12.0938
螫	-12.0939
阿耨多羅	-12.0939
滌	-12.094
開為二	-12.0941
膠	-12.0941
驕	-12.0942
鄔	-12.0942
▁南无普光	-12.0943
讚揚	-12.0945
智不得有無	-12.0945
發大乘心	-12.0947
平坦	-12.0947
五濁惡世	-12.0947
沐	-12.0947
綴	-12.0948
枷	-12.0948
七月十五日	-12.0949
蚖	-12.0949
武帝	-12.0949
貧乏	-12.095
欻	-12.0951
瘂	-12.0951
沐浴	-12.0951
嵐	-12.0952
二法說入不二法門	-12.0953
給侍	-12.0953
媚	-12.0954
徙	-12.0954
迦毘羅	-12.0955
死入地獄	-12.0956
諂誑	-12.0957
摩睺	-12.0957
西晉	-12.0959
顧視	-12.0961
畜生之道	-12.0966
依智度論	-12.0966
禍福	-12.0968
恚怒	-12.0969
勝藏佛南無	-12.0974
彩色	-12.0978
空閑處	-12.0984
哀愍世間	-12.0988
疾走	-12.0989
三乘一乘	-12.099
諸天及人	-12.0991
布施持戒	-12.0991
是為觀心	-12.0993
。」「『	-12.0995
開士	-12.0996
五十七	-12.0999
出現世間	-12.1
餓鬼之中	-12.1004
總持門	-12.1005
比類	-12.1005
河岸	-12.1005
自在王如來	-12.1006
以此善根	-12.1008
性本空	-12.1011
若有女人	-12.1012
如來藏自性清淨	-12.1015
初標列	-12.1016
熟藏	-12.1023
獵師	-12.1025
求哀	-12.1027
說有我	-12.1027
受生死苦	-12.1027
頂髻	-12.103
死亡	-12.1031
互舉	-12.1036
香積品	-12.104
一心敬禮	-12.1043
□□□□□□□□	-12.1043
總頌	-12.1047
無上乘	-12.1048
貪癡	-12.1049
不思議變	-12.105
佛所種諸善根	-12.1056
智慧辯才	-12.1058
所繫	-12.1059
勝義諦相	-12.106
發誓願	-12.1066
文辭	-12.1066
阿耨	-12.1068
近惡友	-12.1071
計我我所	-12.1073
和合而生	-12.1073
不猗	-12.1085
虗空界	-12.1086
令我得	-12.1092
中道佛性	-12.1094
胝	-12.1101
諸化佛	-12.1104
森羅	-12.1105
緣覺乘無間種性	-12.1106
白佛言世尊我不堪任詣彼問疾	-12.1106
名識藏	-12.1106
挫	-12.1106
受眾苦	-12.1106
盧伽耶陀	-12.1108
烈	-12.1109
三十二相八十種好	-12.1109
魏唐二譯	-12.111
􂌴	-12.111
芳	-12.1112
邁	-12.1112
下釋義	-12.1112
狸	-12.1115
火炎	-12.1115
莫著言說	-12.1115
耆域	-12.1115
台	-12.1116
朋黨	-12.1116
癰	-12.1116
十不善	-12.1118
揣食	-12.1118
伺察	-12.112
究竟斷彼	-12.112
隨緣不變	-12.1121
派	-12.1121
不斷不常	-12.1121
鉢呵娑	-12.1121
旱	-12.1123
各不相知	-12.1124
多所饒益	-12.1124
拄	-12.1124
湊	-12.1124
犍闥婆	-12.1126
嚙	-12.1128
廣為我等	-12.1128
軀命	-12.1128
狹劣	-12.1128
我於今者	-12.1128
漏盡意解	-12.1128
□□□□□□□□□□□□	-12.1129
次復懺悔	-12.1129
了了分明	-12.113
撮略	-12.1132
膖脹	-12.1132
五百長者子	-12.1133
割截	-12.1133
笛	-12.1136
住其中	-12.1137
枕	-12.1138
萬民	-12.1139
無等倫	-12.114
更無異	-12.1141
有大威力	-12.1141
講堂	-12.1142
離心意識	-12.1144
弭	-12.1144
五衰	-12.1147
諸珍寶	-12.115
斥小	-12.1157
從初發意	-12.1158
行分衛	-12.1159
爾焰	-12.116
姪	-12.1161
燈如來南無	-12.1161
是雞羅句	-12.1163
諸大聲聞	-12.1164
歌舞遊戲	-12.1173
聖慧眼	-12.1176
成無上道	-12.1182
當知亦爾	-12.1188
拘那含牟尼佛	-12.1188
父母妻子	-12.1189
隱密	-12.1193
聞此法門	-12.1197
今不息	-12.1203
殊異	-12.1207
怖魔	-12.1207
䟦陀	-12.1215
香熏	-12.1219
毛端	-12.1221
於如來所	-12.1227
攝所攝妄想	-12.123
所緣境界	-12.124
得度脫	-12.124
不善觀察	-12.1247
開化眾生	-12.1255
半劫	-12.1257
佛及菩薩	-12.1267
煩惱賊	-12.1278
維摩詰所說經	-12.128
誠信	-12.128
盡諸漏	-12.1281
我說為心量	-12.1285
我作佛時	-12.1286
夫婦	-12.1286
空病亦空	-12.1289
善觀外性非性	-12.1291
調戲	-12.1293
仲尼	-12.1295
還宮	-12.1296
來至我所	-12.1298
袪	-12.1299
蠶	-12.1299
艾	-12.1299
思量計常	-12.13
屢	-12.13
國王大臣	-12.1301
鑿	-12.1302
寔	-12.1302
蹄	-12.1302
卓	-12.1303
濤	-12.1304
婆藪	-12.1304
鴦掘	-12.1304
一切菩薩及末世眾生	-12.1306
廣韻	-12.1306
尠	-12.1306
新熏	-12.1306
戈	-12.1306
發無上道心	-12.1308
嶮岸	-12.1308
沮壞	-12.1308
薜	-12.1308
娶	-12.1309
不應作想	-12.131
号	-12.131
羞恥	-12.1311
無上正等正覺	-12.1312
不望報	-12.1313
右遶	-12.1313
娜	-12.1314
疫病	-12.1315
孝養父母	-12.1315
成熟有情	-12.1317
倡	-12.1317
維摩羅詰經文疏	-12.1317
略鈔	-12.1318
財產	-12.1318
兩節	-12.1318
文為二初標	-12.1318
三諦之理	-12.1318
值佛世	-12.1321
識所變	-12.1322
戀著	-12.1327
災患	-12.1329
稽首作禮	-12.133
六蔽	-12.1338
愚夫妄	-12.1339
心行中求	-12.1339
正知見人	-12.1339
大品經云	-12.1341
彼林中	-12.1343
是妙經典	-12.1345
三乘聖人	-12.1347
所化有情	-12.1348
變化土	-12.1348
四大海水	-12.1348
智炬	-12.1348
是身為譬如	-12.135
七萬二千	-12.1352
乖違	-12.1354
閻摩	-12.1355
還源	-12.1355
墮諸惡趣	-12.1355
於諸佛所	-12.136
第三段	-12.1364
石女	-12.1371
答意者	-12.1376
九十億	-12.1376
氣息	-12.1378
第十八	-12.1381
妄計自性	-12.1382
犯罪	-12.1383
憂怖	-12.1394
展轉無窮	-12.1394
不從他	-12.14
迷醉	-12.1406
長老舍利弗	-12.1411
覺法無我	-12.1417
覆護	-12.1417
終不可得	-12.1419
處處皆	-12.1421
訶梨	-12.1438
形服	-12.1442
不傾動	-12.1444
和雅	-12.1445
可思議	-12.1448
二十八天	-12.1451
禮拜供養	-12.1452
輭	-12.1452
欲重宣此義而說偈言	-12.1454
汝意云何	-12.146
四無礙智	-12.1464
鬬	-12.1469
堯	-12.1472
我滅度後	-12.1473
緣自得法	-12.1474
是波羅蜜義	-12.1477
欣厭	-12.1478
婉	-12.1478
毀訾	-12.1481
不可思議解脫法門	-12.1481
若能持彼佛名	-12.1483
應病與藥	-12.1483
於大眾中唱如是言	-12.1485
摩羅耶山	-12.1485
孕	-12.1487
缽	-12.1487
姑	-12.1487
良田	-12.1489
茅	-12.1489
釋梵四天王	-12.1489
彼見聞知或天眼見	-12.1489
羅漢辟支	-12.1491
通別圓	-12.1491
涕唾	-12.1491
沈淪	-12.1491
三摩鉢底	-12.1491
襲	-12.1492
疇	-12.1492
為他廣說	-12.1492
瞋惱	-12.1493
撲	-12.1493
跟	-12.1493
小室	-12.1494
舉要言之	-12.1494
眩	-12.1494
到於彼岸	-12.1495
身壞命終墮於惡道	-12.1496
及其眷屬	-12.1496
人所敬	-12.1497
漸漸廣大	-12.1497
二萬一千	-12.1497
水火風	-12.1498
揵闥婆	-12.1498
鬲	-12.1498
科段	-12.1498
從無始已來至于今日	-12.1499
頂戴	-12.1499
仁慈	-12.15
毘奈耶	-12.15
奉詔譯	-12.15
而得生起	-12.1501
斷二障	-12.1501
八萬四千歲	-12.1503
沙門瞿曇	-12.1504
欠錢	-12.1504
初中後善	-12.1505
池沼	-12.1505
屈伏	-12.1506
雄猛	-12.1506
寶性論	-12.1506
脚足	-12.1506
五百長者	-12.1507
發清淨心	-12.1507
交露	-12.1511
嘿然	-12.1511
何者為十	-12.1513
中道正觀	-12.1513
無有休息	-12.1516
蠱道	-12.152
南宗	-12.152
深固	-12.1522
詳示	-12.1523
毘沙門	-12.1524
累劫	-12.1529
解深密經	-12.153
接引	-12.1531
瑜伽論云	-12.1533
於當來世	-12.1535
生空境	-12.1537
觀佛三昧	-12.1537
憎生死	-12.1538
宣傳	-12.154
天冠菩薩	-12.1541
無㝵	-12.1541
閻羅王	-12.1551
上首佛南無	-12.1554
黃金色	-12.1556
志存	-12.1556
善根成熟	-12.1561
眾緣和合	-12.1562
明旦	-12.1567
阿那含果	-12.1567
街	-12.1572
苾芻尼	-12.1576
窮極	-12.1587
檀那	-12.1591
諸法唯心所現	-12.1608
露地	-12.1621
甚為難	-12.1624
如來滅後	-12.1625
有人殺	-12.163
殺盜	-12.1636
衰老	-12.1636
娑羅王佛	-12.1637
險惡	-12.164
兩番	-12.1642
所行之道	-12.1654
阿毘曇	-12.1655
而取佛土	-12.1662
央	-12.1662
如昨夢	-12.1663
苦集滅道	-12.1663
科判	-12.1664
荊	-12.1664
罪畢	-12.1665
無是處	-12.1665
身受心法	-12.1666
為我等輩	-12.1668
如是三請	-12.1669
姚	-12.1669
等流果	-12.1669
勞慮	-12.1671
鎔	-12.1672
鉗	-12.1672
印所印	-12.1672
奘	-12.1673
億弟子集	-12.1673
谷響	-12.1673
誦呪	-12.1674
初中後夜	-12.1674
轉妙法輪	-12.1675
昆	-12.1675
羨	-12.1676
不二而二	-12.1676
身語意業	-12.1676
古德云	-12.1677
攘	-12.1677
呾	-12.1677
半品	-12.1678
永離諸	-12.1678
繕	-12.1678
汝為人時	-12.1678
善家子	-12.1679
宗鏡云	-12.168
辜	-12.1681
乳酪	-12.1682
慾	-12.1683
初進問威儀	-12.1683
今日至誠	-12.1684
梵行已立	-12.1684
沒溺	-12.1685
從地獄出	-12.1686
囚	-12.1687
餅	-12.1688
能成辦	-12.1688
金龍尊	-12.1689
忽忘	-12.1689
思察	-12.1689
鄣南	-12.1689
娑訶	-12.1689
是觀者名為正觀	-12.1693
菩提場	-12.1693
楚毒	-12.1694
文句記云	-12.1695
憶想分別	-12.1696
自貢高	-12.1699
三緣和合	-12.1702
心不亂	-12.1706
作禮而去	-12.1706
快哉	-12.1706
來至佛所	-12.1707
深厚	-12.1708
步如來南無	-12.171
謎	-12.171
圓覺之性	-12.1713
憂患	-12.1715
百姓	-12.1717
周禮	-12.1717
右足	-12.1722
乘急	-12.1724
無央數劫	-12.1725
佛種不斷	-12.1726
諸禽獸	-12.1727
佛告天帝	-12.1732
從假入空觀	-12.1733
斯陀含果	-12.1734
復問佛言	-12.1735
救脫	-12.1737
是謂不淨	-12.174
此是二明	-12.1743
答中先	-12.1747
九惱	-12.1755
無記論	-12.1756
四行半	-12.1772
標章	-12.1778
為諸菩薩說	-12.1779
親光釋	-12.1784
蘇摩	-12.1799
賢劫經	-12.18
無懈	-12.1804
大智論	-12.1807
尊重讚歎	-12.1823
如來南無求那	-12.1832
不共二乘	-12.1836
次一行半	-12.1837
圓覺經大疏釋義鈔卷第	-12.1841
文即有二	-12.1841
從此命終	-12.1842
目揵連	-12.1843
依怙	-12.1843
其佛號	-12.1845
恭敬尊重	-12.1846
捨身品	-12.1848
衢	-12.1851
微薄	-12.1854
無方便慧縛	-12.1854
三觀諸輪	-12.1854
這裏	-12.1856
時我世尊	-12.1856
何以知然	-12.1856
無修無證	-12.1857
根有利鈍	-12.1859
三十七道品	-12.1859
揆	-12.186
訥	-12.186
矚	-12.1862
千葉	-12.1862
崛	-12.1863
禳	-12.1864
花嚴	-12.1864
無去無來	-12.1864
未得謂得	-12.1865
葛藤	-12.1865
□□□□□□□□□□	-12.1867
解節經	-12.1867
呌	-12.1867
拄杖	-12.1868
曆	-12.1868
非空非有	-12.1869
訂	-12.1869
憔悴	-12.187
彼一切苦此中具受	-12.187
四結成不堪	-12.187
從無住本立一切法	-12.187
從本已來	-12.187
故下經云	-12.1871
糓	-12.1871
迅疾	-12.1872
文分為三	-12.1872
今受花報	-12.1873
長爪	-12.1874
無始已來	-12.1874
助菩提法	-12.1875
縈	-12.1875
膜	-12.1875
行緣識	-12.1876
黃帝	-12.1876
乾燥	-12.1876
說文曰	-12.1876
闡揚	-12.1877
見佛聞法	-12.1877
挑	-12.1877
映蔽	-12.1878
鴈	-12.1878
即此意也	-12.1878
兜術天	-12.1879
澹泊	-12.1879
後五百歲	-12.1879
釋籤云	-12.1881
帝青	-12.1881
遞相	-12.1882
思議解脫	-12.1882
諸教不同	-12.1882
糞掃衣	-12.1883
愚痴凡夫	-12.1884
▁南无無障㝵	-12.1885
為眾說法	-12.1885
不以二相	-12.1885
右掌	-12.1886
無有厭足	-12.1887
於是維摩詰	-12.1887
復有十法	-12.189
奉迎	-12.1891
有所施	-12.1893
妄想識滅	-12.1894
三十六物	-12.1894
▁南无月光佛	-12.1896
大事因緣	-12.1897
百千俱胝	-12.1901
所作事業	-12.1905
泯絕	-12.1907
光明王佛南無	-12.1907
稅	-12.1909
通達無礙	-12.1916
白王言	-12.1918
不生亦不滅	-12.1922
大腸	-12.1926
二隨釋三	-12.193
寶杖	-12.1931
沈水	-12.1934
踊出	-12.1937
愚癡無智	-12.194
無礙辯才	-12.194
一百三十	-12.1943
怨害	-12.1944
導引	-12.195
險道	-12.1952
初引經	-12.1959
無所染著	-12.1965
垢污	-12.1969
作此解	-12.1987
大火聚	-12.1989
君子種	-12.1996
說微妙法	-12.2003
水沫	-12.2004
德藏菩	-12.2017
受持諷誦	-12.2026
垢濁	-12.2029
祇樹	-12.2041
頭面禮	-12.2042
作是觀者	-12.2046
約通教	-12.2047
惛沉	-12.205
天主牟修樓陀	-12.205
犯禁	-12.205
女答曰	-12.2053
閻魔	-12.2053
有方便慧解	-12.2053
嵗	-12.2053
不唐捐	-12.2054
獻蓋	-12.2054
毗婆尸	-12.2056
象馬車乘	-12.2056
身語意	-12.2057
饑饉	-12.2058
結前生後	-12.2058
貯	-12.2058
住在身中	-12.206
離幻即覺	-12.206
潮	-12.206
聖智自性事	-12.2061
彗	-12.2061
灌其頂	-12.2062
諸經之王	-12.2063
非性非非性	-12.2063
歸命如是等無量無邊	-12.2064
窠	-12.2065
毘摩質多	-12.2065
嚼	-12.2065
釧	-12.2065
性自性第一義心	-12.2065
轉正法輪	-12.2065
三歸五戒	-12.2066
本來空寂	-12.2066
剪	-12.2066
矩	-12.2067
能觀之智	-12.2067
寂光土	-12.2067
八識二無我	-12.2068
心體離念	-12.2069
抽	-12.2069
法喜禪悅	-12.2069
苗稼	-12.207
二十八部	-12.207
蛾	-12.2071
託胎	-12.2072
甕	-12.2073
知眾生根	-12.2074
恭敬圍繞	-12.2074
蘇油	-12.2074
聽聞正法	-12.2075
疲勞	-12.2076
娑羅樹	-12.2077
有其二種	-12.2077
智不得耶	-12.2078
僕使	-12.2078
疼	-12.2078
所獲功德	-12.2079
文殊尸利	-12.208
歸命如是等	-12.208
此想成已	-12.208
讒	-12.2081
以是緣故	-12.2081
嬈亂	-12.2081
􂜠	-12.2081
燈燭	-12.2083
阿耨多羅三耶三菩	-12.2084
誹謗正法	-12.2084
容儀	-12.2086
皺	-12.2087
踊躍歡喜	-12.2088
始生天子	-12.209
元氣	-12.2092
萬象	-12.2092
付屬	-12.2097
薩遮	-12.2097
降神	-12.2111
消伏	-12.2115
遍計所執自性	-12.2116
遍布	-12.2117
貧家	-12.2117
楊云	-12.2119
一百七十	-12.2124
敗種	-12.2126
污染	-12.215
活地獄	-12.2153
頭面作禮	-12.216
小腸	-12.2182
幽深	-12.2189
賢善首	-12.2197
引大經	-12.2197
所漂	-12.2204
得值遇	-12.2208
佛告迦葉	-12.2213
世閒	-12.2215
髮毛	-12.2217
金輪王	-12.2227
南方去此	-12.2234
功德皆悉具足	-12.2238
詣彼問疾	-12.2239
生即無生	-12.2241
脹	-12.2248
液	-12.225
吉利	-12.2253
故云爾也	-12.2253
判屬	-12.2256
有佛無佛	-12.2257
未具佛法	-12.2257
種類俱生無行作意生身	-12.2258
枯榮	-12.2258
敦	-12.2259
頗胝迦	-12.2259
靈鷲山	-12.2259
大小便利	-12.226
援	-12.2261
全身舍利	-12.2261
心意及與識	-12.2262
色即是空	-12.2262
所觀之境	-12.2262
僅	-12.2262
答第二問	-12.2264
親近善友	-12.2264
虐	-12.2264
現等覺	-12.2265
效	-12.2266
汝及諸菩薩摩訶薩	-12.2266
業及果報如前所說	-12.2267
別題三字	-12.2267
名為邪問	-12.2267
如實而知	-12.2268
無始世來	-12.2268
勝鬘夫人	-12.2269
熱炎	-12.2269
蚊	-12.2269
掛	-12.2269
玩	-12.227
我生已盡	-12.227
大勢至	-12.227
棘刺	-12.2272
又如來光	-12.2273
為聽法故	-12.2274
掣	-12.2274
較量	-12.2275
尿	-12.2275
㝹	-12.2275
靡所不	-12.2276
安般	-12.2276
刀割	-12.2277
𦟛	-12.2278
彌覆	-12.2279
無緣大悲	-12.2279
鴨	-12.228
不斷佛種	-12.228
別圓兩教	-12.228
漚和拘舍羅	-12.2281
不應道理	-12.2282
光明照耀	-12.2282
爵	-12.2282
一百四十	-12.2283
蠕動	-12.2284
初半頌	-12.2285
殑伽沙數	-12.2285
日照商主	-12.2287
無上法王	-12.2289
不可稱數	-12.229
奈女	-12.2291
八十年	-12.2292
盛年	-12.2294
微密	-12.2299
入此門	-12.2304
變易死	-12.2304
彌留如來南無	-12.2306
水陸	-12.2308
發菩薩心	-12.2308
隨順法行	-12.2308
必藉	-12.231
禮懺	-12.2312
初正解	-12.2322
不了唯心	-12.2329
令得安隱	-12.2333
泥呵嚧	-12.2335
鐵鉤	-12.2341
佛及僧	-12.2351
刀山	-12.2353
所嬈	-12.2353
萬四千	-12.2359
何關	-12.2362
說佛名經	-12.2362
正釋經文	-12.2374
鐵圍	-12.2382
故注云云	-12.2389
墮有見	-12.2398
無所悕望	-12.2401
為有為無	-12.2422
諸過惡	-12.2425
世雄	-12.2434
五百年	-12.2443
苦聖諦	-12.2444
說種種法	-12.2444
苾蒭	-12.2451
恠	-12.2455
耻	-12.2456
舅	-12.2457
沙門釋子	-12.2457
濃	-12.2458
初敘意分科	-12.2458
癡暗	-12.2459
非有性建立	-12.2459
樂小法者	-12.2459
聊	-12.2459
禦	-12.246
大寂滅海	-12.246
車匿	-12.2461
揑	-12.2461
體宗用	-12.2462
今依大乘	-12.2462
何以得知	-12.2464
過世間望	-12.2464
不可為比	-12.2464
十小劫	-12.2464
某夜	-12.2466
道觀雙流	-12.2466
邃	-12.2466
帝網	-12.2466
字悞也	-12.2467
翔	-12.2467
坎	-12.2467
墮於二邊	-12.2467
藪	-12.2468
鬪訟	-12.2468
破和合僧	-12.2468
優曇	-12.2469
握	-12.2469
蹴	-12.2469
結跏趺坐	-12.2469
四維上下	-12.2469
緇	-12.247
後一頌	-12.247
迅	-12.247
販	-12.247
唇	-12.247
不能解了	-12.2471
善覺知自心現量	-12.2471
吾當為汝分別解說	-12.2471
二十五諦	-12.2472
陶家	-12.2472
轉無上法輪	-12.2472
冲	-12.2473
奄	-12.2473
奔走	-12.2474
若復有人作如是言	-12.2474
是故不能入清淨覺	-12.2475
長幼	-12.2475
長跪合掌	-12.2475
妓女	-12.2475
混沌	-12.2477
共天女眾	-12.2477
枷鎖	-12.2478
暑	-12.2478
焦熱	-12.2479
拘留孫	-12.2479
溝	-12.2479
瘖瘂	-12.248
褥	-12.248
罵辱	-12.2481
面貌	-12.2481
橛句	-12.2482
盧迦耶陀	-12.2482
不殺不盜	-12.2483
金銀珍寶	-12.2483
侵害	-12.2484
於後末世	-12.2485
學無學	-12.2486
隨業流轉	-12.2487
珂雪	-12.2487
清徹	-12.2488
柔輭	-12.2488
祚	-12.2488
愛緣取	-12.2489
洲渚	-12.2492
棄背	-12.2492
七種無常	-12.2493
淨圓覺心	-12.2494
細軟	-12.2496
在家出家	-12.2496
正法念經	-12.2498
危害	-12.2499
我為汝說	-12.2502
癹	-12.2502
禪誦	-12.2508
諸結使	-12.2509
次別釋	-12.251
逗機	-12.2513
所測	-12.2515
光澤	-12.2516
群品	-12.2518
閻浮利	-12.2525
欣悅	-12.2526
負重	-12.2532
改變	-12.2534
【○	-12.2535
奮迅王佛南無	-12.2546
僧殘	-12.2553
無我無人	-12.2556
▁南无普光明	-12.2566
濁惡	-12.2568
佛頂經	-12.257
第十九	-12.2577
炎熾	-12.2578
能摧伏	-12.2592
佛語舍利弗	-12.2593
無盡意菩薩	-12.2604
潔淨	-12.2622
渚	-12.2622
妻子眷屬	-12.2623
受無量苦	-12.263
遞	-12.264
庫	-12.2653
准上應知	-12.2656
來詣我所	-12.2657
晴	-12.2658
即一而三	-12.2662
心一境性	-12.2662
如來乘無間種性	-12.2663
頌長行	-12.2663
蕭	-12.2664
生老病死憂悲苦惱	-12.2665
二空所顯	-12.2665
料	-12.2666
病愈	-12.2667
三昧樂正受意生身	-12.2668
蘊處界	-12.2668
覺法自性性意生身	-12.2668
阿僧祗	-12.2668
有無俱遣	-12.2669
立量云	-12.267
非有因建立	-12.267
堅持禁戒	-12.267
班	-12.2671
厲	-12.2671
救拔	-12.2671
肖	-12.2672
斯則神力不共法	-12.2673
飼	-12.2673
包含	-12.2673
教起因緣	-12.2674
軌範	-12.2674
無來無去	-12.2674
瞑	-12.2674
惡心出佛身血	-12.2675
薝蔔	-12.2675
酢	-12.2676
參差	-12.2676
摩訶薩埵	-12.2677
無在無不在	-12.2677
嗢	-12.2678
邈	-12.2679
佩	-12.2679
柔順忍	-12.2679
取緣有	-12.268
犍闥婆城	-12.268
雲霧	-12.2684
復有勝者	-12.2684
誐	-12.2685
欲有所問	-12.2685
十方盡虛空界一切	-12.2685
属	-12.2685
熙怡	-12.2686
擣	-12.2686
縵	-12.2686
普照十方	-12.2687
梓	-12.2687
仇	-12.2687
紫磨金	-12.2687
積功累德	-12.2689
鑊湯	-12.269
遶佛三匝	-12.269
廣為人說	-12.2691
復往詣於	-12.2691
分為六	-12.2692
謹慎	-12.2692
c	-12.2693
告諸比丘	-12.2694
如是語已	-12.2695
閫	-12.2695
容貌	-12.2696
陁羅𡰱	-12.2697
器仗	-12.2698
常住不變	-12.2698
恚癡	-12.2698
願生生世世	-12.2699
發大莊嚴	-12.2699
我於今日	-12.27
或有佛土	-12.2703
專注	-12.2704
始終生滅	-12.2707
善戒經	-12.271
如實能知	-12.2715
受種種苦	-12.2716
江海	-12.2717
諮嗟	-12.2718
不可議	-12.2719
加哀	-12.2719
蓮華臺	-12.2719
遊戲之處	-12.272
雷電	-12.2723
妨廢	-12.2726
南無栴檀	-12.2732
得成阿耨多羅三藐三菩提	-12.2744
天上人間	-12.2759
坐其上	-12.276
殷勤	-12.2761
憂悔	-12.2761
月面佛	-12.2761
現前一念	-12.2782
一切法皆無自性	-12.2788
無不周	-12.2791
▁南无師子奮迅	-12.2793
十八億	-12.28
林野	-12.2807
相續流注	-12.2812
證阿耨多羅三藐三菩提	-12.2818
尼乾	-12.2818
復作是言	-12.2819
百千萬劫	-12.2827
無所猗	-12.287
夫求法者	-12.2872
捨富從貧	-12.2875
不守自性	-12.2876
默然而聽	-12.2879
先取至靜	-12.2879
般舟	-12.2879
若諸菩薩以至靜力	-12.2879
曇無竭	-12.288
無慧方便縛	-12.288
滓	-12.2882
非有見建立	-12.2883
此即問也	-12.2884
觸緣受	-12.2885
爾時大慧菩薩摩訶薩白佛言	-12.2886
抗	-12.2887
非有亦非無	-12.2888
剃髮	-12.2888
廬	-12.2888
瓶衣等	-12.2888
隘	-12.2889
尼犍	-12.2889
倉	-12.2889
四部弟子	-12.2889
承是懺悔	-12.289
無得無證	-12.289
奕	-12.289
猒	-12.2891
拔苦與樂	-12.2891
相續不相續	-12.2892
常覺不住	-12.2892
端直	-12.2892
娑伽羅	-12.2892
馨	-12.2893
霹	-12.2893
弘宣	-12.2894
儼然	-12.2894
百千俱胝那庾多	-12.2894
嶺	-12.2894
檗	-12.2895
以偈答曰	-12.2895
淳熟	-12.2895
傳寫	-12.2895
蚊虻	-12.2896
紅蓮華	-12.2897
义	-12.2897
自見己身	-12.2897
振動	-12.2897
虺	-12.2897
朕	-12.2897
十力無畏	-12.2898
欄	-12.2898
傘蓋	-12.2898
窓	-12.2899
亦教他人	-12.2899
無障無礙	-12.2899
澆	-12.2899
弩	-12.2899
作牛有角想	-12.2899
殖眾德本	-12.29
群黎	-12.29
無有限量	-12.29
庶幾	-12.2901
采	-12.2901
澍	-12.2902
冤家	-12.2902
興隆	-12.2902
離二種死	-12.2902
僧坊	-12.2903
著衣持鉢	-12.2903
釁	-12.2905
麁澁	-12.2905
如來獨得	-12.2906
f	-12.2906
𢝫	-12.2906
內過去身	-12.2906
陛	-12.2907
示現受生	-12.2907
求阿耨多羅三藐三菩提	-12.2907
緣斯積	-12.2909
非其境界	-12.2909
見不見故	-12.2909
珍財	-12.291
德叉迦	-12.291
鐵網	-12.291
雨淚	-12.2913
是持戒報	-12.2918
服飾	-12.292
▁南无無量光佛	-12.2922
不墮四句	-12.2922
權巧	-12.2924
立不生宗	-12.2927
不在內外	-12.2929
無有自通	-12.293
瀑流	-12.2931
佛南無寶光明佛南無	-12.2934
釋迦天王	-12.2935
哩斡	-12.2936
雨甘露	-12.2941
枯木	-12.2958
文字語言	-12.2961
無上正覺	-12.2967
十番	-12.2973
梵網經	-12.2973
墮自共相	-12.2981
三四五	-12.2986
稱我聞	-12.299
能解了	-12.3018
左傳	-12.3018
違犯	-12.3029
一異有無	-12.3038
刀劍	-12.3042
熟酥	-12.3053
殿堂	-12.3055
聞經歡喜	-12.3059
眼耳鼻舌身	-12.3076
准即可知	-12.3079
梁攝論	-12.3082
一生所繫	-12.3087
撓	-12.3089
如車輪	-12.309
北洲	-12.3092
核	-12.3092
心淨則佛土淨	-12.3092
筭	-12.3095
屑	-12.3095
辨音菩薩	-12.3096
賢愚經	-12.3096
佛告慈氏菩薩曰	-12.3097
不見相而見	-12.3097
伊蘭	-12.3098
悒	-12.3099
隨其本行	-12.3099
作止任滅	-12.31
植眾德本	-12.31
確	-12.31
一代時教	-12.3101
起七寶塔	-12.3101
及為末世一切眾生	-12.3101
受緣愛	-12.3101
炳	-12.3102
執為實有	-12.3103
汪洋	-12.3103
溥	-12.3103
分劑	-12.3105
朴	-12.3106
宏	-12.3106
牛有角	-12.3107
非諸聖賢	-12.3107
播	-12.3107
跨	-12.3107
言說有性有一切性	-12.3107
阿摩勒	-12.3108
惻	-12.3108
作是語巳五體投地如是三請終而復始	-12.3109
㮈	-12.3109
形處轉變	-12.3111
璧	-12.3111
耳鼻舌身意	-12.3112
剎那非剎那	-12.3112
㲉	-12.3112
善人所讚	-12.3112
風調順	-12.3112
旃陀	-12.3112
鐙	-12.3114
糠	-12.3114
虛空藏菩薩	-12.3114
能令他	-12.3115
佛告聖者大慧菩薩言	-12.3115
承佛聖旨	-12.3115
是金光明微妙經典	-12.3115
鳩摩羅	-12.3115
毘梨耶波羅蜜	-12.3115
臣佐	-12.3116
無所乏少	-12.3117
爾時聖者大慧菩薩	-12.3117
曲躬	-12.3118
梟	-12.3119
表裏	-12.312
人身難得	-12.312
正因佛性	-12.312
鈎鏁	-12.3121
不在中間	-12.3121
躭著	-12.3121
堅牢地神	-12.3123
具如止觀記	-12.3123
西晉月氏三藏竺法護譯	-12.3124
法法皆	-12.3124
茂盛	-12.3126
咨嗟	-12.3126
若能至心	-12.3126
眼耳鼻舌身意	-12.3127
天上天下	-12.3132
王妃	-12.3142
新舊	-12.3144
首題	-12.3146
毛髮	-12.3148
性無性無常	-12.3148
毗婆沙	-12.3152
愛惜	-12.3164
大如車輪	-12.3172
若爾何故	-12.3183
五逆罪	-12.3217
八地已上	-12.3224
山川	-12.3233
懈退	-12.3237
西天譯經三藏朝散大夫試鴻臚	-12.3238
文分為二	-12.324
初標舉	-12.3258
多羅樹	-12.326
地持論	-12.3278
名稱如來南無	-12.3297
大唐三藏	-12.3307
番問答	-12.3307
緣會而生	-12.331
就初文中	-12.3313
普願一切眾生	-12.3315
聞空中聲	-12.3317
皆生如來圓覺妙心	-12.3317
抖	-12.3317
悠	-12.3318
當知覺性平等不動	-12.3319
出佛身血	-12.3319
矧	-12.3319
若諸云云一句	-12.332
㩲	-12.332
凡入聖	-12.3322
戚	-12.3322
圓無際故	-12.3323
如燈照色	-12.3323
歌羅邏	-12.3323
璞	-12.3323
毗盧	-12.3324
圓合一切	-12.3325
儔	-12.3325
何謂四事	-12.3326
言於無言	-12.3326
琥珀	-12.3326
是為魔障	-12.3326
惰	-12.3327
唯心直進	-12.3327
慟	-12.3327
無有少法	-12.3328
聞法獲益	-12.3328
夏安居	-12.333
希奇	-12.333
涕淚	-12.333
不變隨緣	-12.333
踴	-12.333
馬頭羅剎	-12.3332
童蒙	-12.3332
何因何緣	-12.3332
復有菩薩名	-12.3333
離名字相	-12.3333
三千大千剎土	-12.3334
憒亂	-12.3335
腫	-12.3335
茫然	-12.3336
夜摩天王牟修樓陀	-12.3336
遜	-12.3336
恃怙	-12.3337
鋸	-12.3337
心善解脫	-12.3337
通曰上言	-12.3337
摩尼寶珠	-12.3338
梁攝論云	-12.3338
馬瑙	-12.3338
制諸外道	-12.3339
曼殊	-12.3339
迦留羅	-12.3339
舐	-12.3339
摩伽陀國	-12.3339
駝	-12.334
叢樹	-12.334
窣堵波	-12.334
恒邊沙	-12.3342
皇后	-12.3342
慳惜	-12.3344
心不散亂	-12.3345
僚	-12.3345
榻	-12.3346
復當更教	-12.3346
善時鵝王	-12.3346
即說頌曰	-12.3349
出家為道	-12.3349
鬘持天	-12.335
夙夜	-12.335
婆修吉	-12.335
四王品	-12.3351
躄地	-12.3352
睡夢	-12.3354
曼陀羅花	-12.3354
階降	-12.3354
東都	-12.3361
山澤	-12.3364
▁南无法幢	-12.3365
無名無相	-12.3366
受如是苦	-12.3381
利劍	-12.3384
總以結	-12.3386
住平等法	-12.3387
大莊嚴論	-12.3398
雲雷	-12.3449
佛南無月光佛南無	-12.3466
患累	-12.347
千萬劫	-12.35
隨文釋	-12.3509
威神之力	-12.3517
業所感	-12.3521
遊履	-12.3526
聲香味觸	-12.3531
樞	-12.3535
佛南無善見佛南無	-12.3538
倘	-12.3542
初中復二	-12.3543
遠行地	-12.3544
他受用土	-12.3544
做	-12.3545
如優曇鉢華	-12.3545
假名為身	-12.3547
百界千如	-12.3548
以變化力	-12.3548
𦘕	-12.3548
受教而聽	-12.3549
如次配	-12.3549
坊	-12.355
荊谿	-12.355
相好嚴身	-12.355
自受用土	-12.355
噬	-12.3551
有慧方便解	-12.3551
迦葉拘留孫	-12.3551
粳米	-12.3552
釋籤	-12.3552
后妃	-12.3552
一切性離自性	-12.3553
此世他世	-12.3553
挂	-12.3554
忙	-12.3554
赤真珠	-12.3554
剎那展轉壞	-12.3554
磨鏡	-12.3555
藕	-12.3555
鷲峯山	-12.3555
今世後世	-12.3556
離有離無	-12.3557
從顛倒起	-12.3557
縛不縛妄想	-12.3557
闥婆	-12.3557
對治悉檀	-12.3558
迮	-12.3558
盂	-12.3558
兇	-12.3558
癸	-12.3559
桓	-12.356
泯絕無寄	-12.356
地藏菩薩摩訶薩	-12.356
麟	-12.3561
此明何義	-12.3561
溈山	-12.3562
箭射	-12.3562
自行化佗	-12.3564
又如來光名曰	-12.3565
分陀利	-12.3565
說伽他曰	-12.3566
帝釋天主	-12.3567
發大誓願	-12.3567
十千魚	-12.3568
持心梵天	-12.3568
一切眾生從無始來	-12.3569
輕蔑	-12.3569
玅玄	-12.3571
太后	-12.3574
枯竭	-12.3574
清冷	-12.3575
受第一樂	-12.3575
內未來身	-12.3577
墮於惡道	-12.3577
我念過去	-12.358
鵝鴨鴛鴦	-12.3581
不學佛法	-12.3585
禰	-12.3589
飲食衣服	-12.3589
名集卷第	-12.3595
熾燃	-12.3611
柔順	-12.3613
如夢如幻	-12.3627
為魔所	-12.3667
百千歲	-12.3668
幢王如來南無	-12.3677
錐	-12.3759
詺	-12.377
四沙門果	-12.3771
蠲	-12.3771
有種無種	-12.3776
聖言量	-12.3777
瘡疣	-12.3777
汝等當學	-12.3777
起聲聞乘種性	-12.3777
釐	-12.3778
六塵緣影	-12.3778
四禪八定	-12.3778
眼睛	-12.3779
捷疾	-12.3779
裴	-12.3779
昆勒	-12.3779
不相妨礙	-12.378
瞥	-12.3781
銳	-12.3781
􂌞	-12.3782
不由於他	-12.3783
復有餘外道	-12.3783
綜	-12.3783
菴羅樹園	-12.3783
知幻即離	-12.3784
噫	-12.3784
擅	-12.3784
功德王光明	-12.3784
凉	-12.3784
三細六麤	-12.3784
犀	-12.3785
起居輕利	-12.3785
楷	-12.3786
相應心品	-12.3787
南天竺	-12.3788
阿蘇羅	-12.3788
軒	-12.3789
發露懺悔	-12.3789
為人悉檀	-12.379
無數千人	-12.379
讚請教益	-12.379
艶	-12.379
這箇	-12.3791
了悟覺性	-12.3791
爾時聖者大慧菩薩摩訶薩	-12.3791
獨一靜處	-12.3791
鳩槃茶	-12.3792
妻妾	-12.3792
汝當奉持	-12.3793
四大增損	-12.3793
戀慕	-12.3793
疲惓	-12.3793
觀自在菩薩復白佛言	-12.3795
三三展䖍誠	-12.3796
斂	-12.3796
縱廣正等	-12.3797
塹	-12.3797
新新	-12.3799
觀身不淨	-12.3799
侍養	-12.3799
六反震動	-12.38
如救頭然	-12.3801
酷	-12.3802
流水長者子	-12.3802
飛騰	-12.3803
豊	-12.3803
材	-12.3803
矢	-12.3803
厭背	-12.3804
灼然	-12.3804
䗍	-12.3805
潔白	-12.3805
光音天	-12.3806
顏容	-12.3809
樂說辯	-12.3809
忿恚	-12.3809
無始戲論	-12.3809
須臾間	-12.381
二而不二	-12.3814
瑟吒	-12.3816
若異觀者名為邪觀	-12.3819
爾時世尊而說偈言	-12.3834
諍競	-12.3835
蓮花臺	-12.3837
去無所至	-12.3846
近惡知識	-12.3859
佛南無不可降伏	-12.3862
熟蘇	-12.3863
過去未來現在諸佛	-12.3866
婆娑	-12.3867
禪定解脫三昧	-12.387
卷第九	-12.3908
觀身實相	-12.391
中三節	-12.393
許宣	-12.3937
顯揚論	-12.3947
竪窮	-12.3962
於諸法無所	-12.3984
彼以聞慧或以天眼	-12.3997
能呵之旨	-12.4
記別所解	-12.4003
因譬莊嚴	-12.4008
教為佛教	-12.401
生心動念	-12.4012
圓覺妙性	-12.4012
盾	-12.4016
科管於	-12.4016
擬議	-12.4016
恡	-12.4017
我說即是空	-12.4018
迫迮	-12.4018
如是知已而不	-12.4018
俄	-12.4018
妍	-12.4018
無慮無察	-12.4019
十力四無所畏	-12.402
五法三自性八識二無我	-12.4021
非彼所聞一切境界終不可取	-12.4021
燸	-12.4021
廣嚴城	-12.4022
知病識藥	-12.4023
負債	-12.4024
稽顙	-12.4024
證信序	-12.4025
見相二分	-12.4025
収	-12.4026
跛驢	-12.4027
捍	-12.4027
發弘誓願	-12.4028
杌	-12.4028
初序讚許	-12.4028
君臣	-12.4028
諸因及與緣	-12.4028
慇重	-12.4028
彼地獄處	-12.4029
寓	-12.4029
識緣名色	-12.4029
纏綿	-12.4029
唱如是言	-12.403
粹	-12.403
訣	-12.403
誓鎧佛	-12.403
列同聞	-12.4031
牆壁	-12.4032
降伏一切障礙菩薩	-12.4032
號泣	-12.4033
商賈	-12.4033
睺	-12.4033
二節經義	-12.4033
祇洹	-12.4034
陂	-12.4034
南西北方	-12.4035
摩騰	-12.4035
惶怖	-12.4035
山樹具足地處	-12.4036
牙齒	-12.4036
各各異相	-12.4037
庠序	-12.4038
挍量	-12.4038
佛說此經已	-12.4038
與大苾芻眾	-12.4038
翠	-12.4039
謁	-12.4039
墮大地獄	-12.4039
明網菩薩	-12.404
良福田	-12.4041
滋味	-12.4041
一時婆伽婆	-12.4041
人與非人	-12.4043
▁一心奉請	-12.4043
酉	-12.4043
觀自在菩	-12.4044
右經第	-12.4044
前後圍遶	-12.4046
鵄	-12.4047
即以聞慧	-12.4057
名不動相	-12.4073
為愛所	-12.4081
後有一行	-12.4102
彈斥	-12.4134
陽炎	-12.414
十萬億	-12.4141
倒不倒	-12.4164
無量義經	-12.4173
佛告觀世音	-12.4177
街巷	-12.42
幽微	-12.4208
佛南無妙聲佛南無	-12.4224
菀	-12.4232
餝	-12.4242
些	-12.4248
即三而一	-12.4255
虗妄浮心	-12.4256
駭	-12.4257
鍼	-12.4258
以寂滅力	-12.4259
取靜為行	-12.426
非有為非無為	-12.426
玻	-12.426
助伴	-12.4261
蒜	-12.4261
本相如故	-12.4261
狄	-12.4261
[...]
