<unk>	0
<s>	0
</s>	0
之	-4.32134
(	-4.64478
)	-4.65722
/	-5.00514
以	-5.21349
於	-5.397
有	-5.47331
爲	-5.50478
也	-5.50722
一	-5.51592
上	-5.51993
神	-5.54607
不	-5.54638
而	-5.5474
者	-5.56604
天	-5.60779
中	-5.69884
生	-5.76986
人	-5.79713
其	-5.83794
符	-5.85803
大	-5.88142
則	-5.94696
行	-5.95576
三	-5.96788
下	-5.97574
無	-6.00359
道	-6.0153
)(	-6.02087
如	-6.07115
日	-6.10292
心	-6.10689
法	-6.12533
自	-6.13429
用	-6.18275
某	-6.19628
靈	-6.19924
此	-6.20185
在	-6.22732
至	-6.24075
子	-6.26032
入	-6.28202
明	-6.28912
五	-6.3075
或	-6.30947
眞	-6.30978
臣	-6.31344
炁	-6.3147
身	-6.31773
出	-6.33569
水	-6.36323
令	-6.36341
得	-6.38739
時	-6.40876
九	-6.41563
所	-6.41735
見	-6.42393
玄	-6.43194
文	-6.43328
君	-6.43524
經	-6.46229
與	-6.4674
二	-6.48299
氣	-6.48772
曰	-6.49534
名	-6.4989
四	-6.50181
方	-6.50595
當	-6.50814
書	-6.52009
▁	-6.53898
地	-6.57121
内	-6.57589
火	-6.57741
右	-6.58329
即	-6.58526
金	-6.58575
同	-6.59301
成	-6.59688
若	-6.59773
存	-6.60365
真	-6.60882
元	-6.60938
皆	-6.6152
合	-6.61612
事	-6.62093
乃	-6.62125
山	-6.64306
後	-6.64534
宫	-6.64614
及	-6.66648
非	-6.66654
精	-6.66683
是	-6.67021
言	-6.6719
諸	-6.67476
師	-6.6803
又	-6.68151
玉	-6.68745
仙	-6.70126
命	-6.71368
相	-6.7162
從	-6.71989
通	-6.72132
故	-6.74028
風	-6.744
來	-6.75875
將	-6.76373
受	-6.77315
雲	-6.77391
形	-6.77666
光	-6.77679
字	-6.77746
主	-6.77917
陽	-6.79077
正	-6.7964
先	-6.80033
呪	-6.80287
立	-6.81145
化	-6.81418
作	-6.82547
鬼	-6.82859
七	-6.83457
前	-6.83513
六	-6.84585
分	-6.84671
王	-6.84854
使	-6.85279
章	-6.85321
飛	-6.85759
應	-6.85835
可	-6.85945
度	-6.86067
八	-6.86493
次	-6.86769
取	-6.87112
降	-6.87419
太上	-6.8754
未	-6.87921
星	-6.88173
各	-6.89173
念	-6.89701
我	-6.8996
治	-6.90786
開	-6.91066
常	-6.92062
攝	-6.92491
召	-6.92821
亦	-6.92871
帝	-6.92879
今	-6.93486
矣	-6.93995
雷	-6.94534
起	-6.96713
清	-6.9673
龍	-6.97072
去	-6.97902
白	-6.98566
知	-6.98586
發	-6.99449
安	-7.00581
長	-7.00989
萬	-7.01744
黄	-7.02365
左	-7.0261
能	-7.03613
月	-7.04229
運	-7.04908
門	-7.05529
凡	-7.05664
華	-7.06359
使者	-7.06819
青	-7.08269
欲	-7.08921
流	-7.09171
傳	-7.09502
外	-7.0999
重	-7.11082
訣	-7.11389
本	-7.11895
死	-7.11955
云	-7.12709
吾	-7.13013
九天	-7.13194
空	-7.13204
上清	-7.13367
等	-7.13755
處	-7.14018
過	-7.14331
年	-7.14987
服	-7.15045
丹	-7.15088
官	-7.15353
居	-7.15506
十	-7.15829
物	-7.16053
和	-7.16356
請	-7.16699
定	-7.1728
世	-7.17587
无	-7.18532
復	-7.18862
壇	-7.19554
聖	-7.1967
不得	-7.19818
結	-7.20064
天地	-7.2032
隨	-7.20766
善	-7.22082
歸	-7.2259
多	-7.22714
然	-7.2295
品	-7.23651
何	-7.23828
巳	-7.23945
解	-7.24502
公	-7.25339
頭	-7.26059
卷	-7.26118
景	-7.26119
天尊	-7.26286
妙	-7.26783
並	-7.26874
已	-7.2753
聞	-7.27559
邪	-7.27587
散	-7.28015
畢	-7.28151
德	-7.29038
乎	-7.30104
寳	-7.31081
難	-7.31478
洞	-7.31572
斗	-7.31923
魂	-7.32246
口	-7.32611
隂	-7.32912
陰	-7.32992
自然	-7.33166
食	-7.33378
衆	-7.33872
虚	-7.34308
病	-7.34634
印	-7.35126
數	-7.35778
罪	-7.3589
眞人	-7.364
雨	-7.36902
司	-7.3696
香	-7.3722
盡	-7.37294
赤	-7.3984
願	-7.40072
石	-7.40091
修	-7.40197
滅	-7.41004
因	-7.41112
除	-7.41465
位	-7.41905
紫	-7.42047
告	-7.42075
府	-7.4224
福	-7.42245
惡	-7.4232
奏	-7.42987
奉	-7.43065
求	-7.43619
離	-7.43684
家	-7.43804
土	-7.4382
觀	-7.44431
向	-7.44653
必	-7.44717
體	-7.44841
不可	-7.45364
便	-7.45781
木	-7.4623
關	-7.46395
信	-7.47133
功	-7.47189
還	-7.47948
意	-7.48048
理	-7.48185
致	-7.48214
動	-7.48349
小	-7.48886
執	-7.49221
太一	-7.49248
都	-7.49343
目	-7.50409
收	-7.50439
守	-7.50605
變	-7.50975
圖	-7.52069
布	-7.52769
東	-7.53596
録	-7.53624
交	-7.54054
始	-7.5423
張	-7.54353
高	-7.54653
教	-7.5485
將軍	-7.55022
坐	-7.55289
加	-7.56045
遂	-7.56113
宣	-7.56487
更	-7.56567
急	-7.56588
衣	-7.56798
北	-7.57243
南	-7.5734
百	-7.57365
保	-7.57591
儀	-7.57722
朝	-7.57933
止	-7.58054
西	-7.5834
申	-7.58529
平	-7.5867
速	-7.58756
耳	-7.58885
節	-7.59088
依	-7.59169
須	-7.59172
一切	-7.59232
思	-7.59387
之中	-7.60091
號	-7.60171
列	-7.60189
蓋	-7.60218
玉清	-7.60296
太	-7.60331
面	-7.60354
却	-7.60451
遊	-7.60465
仰	-7.60509
根	-7.60524
極	-7.60978
宜	-7.61012
齋	-7.61231
為	-7.61599
幽	-7.6288
于	-7.63215
女	-7.63382
伏	-7.6354
色	-7.63626
俱	-7.63867
照	-7.63875
三界	-7.64212
惟	-7.64395
周	-7.64917
兩	-7.65017
易	-7.65178
聲	-7.65191
深	-7.65323
隱	-7.65569
具	-7.65749
雖	-7.66363
要	-7.66537
汝	-7.66581
引	-7.66696
焉	-7.67144
疾	-7.67174
帝君	-7.67326
部	-7.67421
再	-7.67595
夫	-7.67685
狀	-7.67891
轉	-7.6826
遇	-7.68265
素	-7.68293
真人	-7.68378
絶	-7.68565
失	-7.68702
禮	-7.68728
實	-7.69074
雷霆	-7.69277
宿	-7.69305
備	-7.69841
□	-7.70057
陳	-7.70151
姓	-7.70173
十二	-7.70516
初	-7.7059
靈寳	-7.70977
千	-7.71058
性	-7.7126
敕	-7.71308
勑	-7.71362
籙	-7.71499
啓	-7.71706
注	-7.72089
但	-7.72182
微	-7.72332
大神	-7.72458
異	-7.72489
玉女	-7.72546
指	-7.72869
集	-7.72948
朱	-7.73102
謹	-7.73211
莫	-7.73446
牒	-7.73528
煞	-7.73819
不能	-7.74119
兵	-7.74504
進	-7.74547
十方	-7.74582
感	-7.74607
黑	-7.74613
持	-7.75076
授	-7.75289
簡	-7.75325
音	-7.75501
直	-7.76106
問	-7.76855
夜	-7.77045
舉	-7.77772
宗	-7.77846
稱	-7.7785
眞君	-7.77973
廣	-7.78054
對	-7.78153
辰	-7.7816
日月	-7.78192
威	-7.78208
民	-7.78805
謂	-7.78888
誦	-7.78954
馬	-7.79168
學	-7.7986
手	-7.79974
到	-7.80219
破	-7.80285
著	-7.80554
回	-7.80761
羅	-7.80993
苦	-7.81615
諱	-7.82102
神仙	-7.82216
說	-7.82522
首	-7.82567
元始	-7.82868
少	-7.82872
樂	-7.83007
斷	-7.83026
永	-7.83145
乗	-7.83569
兆	-7.83637
志	-7.83757
藥	-7.83975
考	-7.84001
共	-7.84277
鬼神	-7.84471
論	-7.84727
皇	-7.85364
想	-7.85433
藏	-7.85536
登	-7.85556
毒	-7.8563
國	-7.86339
乾	-7.86543
之道	-7.86589
禁	-7.86624
會	-7.86666
科	-7.86902
利	-7.87043
全	-7.87207
建	-7.87652
震	-7.88247
領	-7.88779
式	-7.88836
戒	-7.88837
足	-7.89162
承	-7.89696
老	-7.89744
好	-7.89748
積	-7.8979
冠	-7.90039
息	-7.90099
齊	-7.90366
象	-7.90593
聽	-7.90702
滿	-7.90974
望	-7.91107
臨	-7.91308
吉	-7.91346
消	-7.91494
呪曰	-7.91718
三元	-7.91762
室	-7.92014
乘	-7.92156
間	-7.92382
制	-7.92448
力	-7.92767
北斗	-7.92831
上帝	-7.9308
悉	-7.93271
屬	-7.93518
吏	-7.9358
海	-7.93659
酒	-7.93776
/)(	-7.94092
靜	-7.94329
魔	-7.94525
語	-7.9528
殺	-7.95346
林	-7.95547
逆	-7.96176
濟	-7.96497
大道	-7.96546
旣	-7.97255
興	-7.97919
恩	-7.98019
順	-7.98555
情	-7.98687
午	-7.98703
急急如	-7.98911
亡	-7.99242
終	-7.99275
諸天	-7.99276
筆	-7.99414
左右	-7.99639
誠	-7.99696
塵	-8.00134
律令	-8.00597
五方	-8.0092
功曹	-8.0132
付	-8.01334
升	-8.01345
罡	-8.01494
咸	-8.01923
由	-8.01932
弟子	-8.01967
胎	-8.02107
庭	-8.02234
髙	-8.02257
霹靂	-8.02263
穢	-8.02331
養	-8.02467
晨	-8.02643
親	-8.02667
拜	-8.02758
尊	-8.02812
謝	-8.03119
星君	-8.03206
劫	-8.03351
㑹	-8.03388
獄	-8.03632
詞	-8.0371
職	-8.03882
掌	-8.03913
災	-8.04001
昇	-8.04113
施	-8.04122
差	-8.04388
五帝	-8.04471
御	-8.04612
就	-8.04771
勿	-8.04867
遣	-8.04873
帶	-8.05178
堂	-8.05241
之炁	-8.0565
車	-8.06089
落	-8.06199
久	-8.06302
急急如律令	-8.06419
呼	-8.06997
甲	-8.07083
切	-8.07084
駕	-8.07136
血	-8.07178
達	-8.07196
甚	-8.07233
封	-8.07331
冥	-8.07395
花	-8.07657
犯	-8.07967
被	-8.07996
并	-8.08068
輕	-8.08198
記	-8.08958
識	-8.0905
顯	-8.09366
佩	-8.09495
延	-8.0958
士	-8.09636
崇	-8.09656
燒	-8.09875
别	-8.09945
道士	-8.10067
禍	-8.10671
五嶽	-8.10819
且	-8.11043
臺	-8.11159
妄	-8.11376
乞	-8.11413
祝	-8.11491
卯	-8.11957
奉行	-8.11998
之法	-8.12146
燈	-8.12514
違	-8.12523
浮	-8.12526
萬神	-8.12591
篇	-8.12658
傷	-8.12797
天下	-8.12887
童子	-8.12976
雷神	-8.13136
造	-8.13169
古	-8.13289
義	-8.13301
按	-8.13586
鎮	-8.13642
母	-8.13721
仍	-8.13772
三天	-8.13801
詣	-8.1393
爾	-8.14116
投	-8.142
害	-8.14236
慶	-8.14301
曲	-8.1433
許	-8.14384
然後	-8.14498
報	-8.1455
救	-8.15078
慈	-8.15135
垂	-8.15306
祖	-8.15411
元帥	-8.1545
酆都	-8.15522
太極	-8.15581
靈官	-8.15742
路	-8.15886
總	-8.16065
春	-8.16391
焚	-8.1655
了	-8.16731
果	-8.17038
凶	-8.17106
期	-8.17426
嚴	-8.1763
休	-8.17715
源	-8.17794
業	-8.17933
遍	-8.18214
長生	-8.1824
放	-8.18407
房	-8.18449
祕	-8.18953
報應	-8.19173
鍊	-8.19266
聚	-8.19306
淨	-8.1931
唵	-8.19473
餘	-8.19501
固	-8.19553
凝	-8.19597
反	-8.19669
盟	-8.19669
州	-8.19929
而不	-8.20218
哉	-8.20341
容	-8.20473
亂	-8.20545
中有	-8.20997
侍	-8.2103
典	-8.21291
三十六	-8.21381
曜	-8.21459
坤	-8.2159
普	-8.21712
法師	-8.21947
覺	-8.22075
金闕	-8.22539
恐	-8.22791
蒙	-8.22847
可以	-8.23011
輪	-8.23123
步	-8.23243
覆	-8.23609
誓	-8.23653
先生	-8.23963
紅	-8.24348
益	-8.24375
壽	-8.24415
專	-8.24446
獲	-8.24501
不知	-8.24592
太清	-8.24754
猶	-8.24819
醮	-8.25047
虎	-8.25142
大將軍	-8.25237
貴	-8.2528
遠	-8.25606
煙	-8.25965
瓊	-8.25995
既	-8.26024
李	-8.2617
霞	-8.26185
籍	-8.2638
㫖	-8.26442
南方	-8.26465
表	-8.26479
北方	-8.26628
童	-8.26654
所以	-8.26667
己	-8.26794
衛	-8.26863
留	-8.26901
如此	-8.27167
内外	-8.27589
骨	-8.27592
尚	-8.2763
質	-8.27663
住	-8.2769
河	-8.27879
變化	-8.27996
悟	-8.28073
賜	-8.28113
視	-8.28392
吹	-8.28418
每	-8.28427
神將	-8.28596
露	-8.28623
錬	-8.28694
謂之	-8.2877
妖	-8.28816
連	-8.2896
五雷	-8.28966
末	-8.29221
獨	-8.29359
辭	-8.29372
東方	-8.29397
種	-8.29476
敬	-8.29801
城	-8.29939
送	-8.2997
縁	-8.29976
設	-8.30001
累	-8.30285
徒	-8.30329
條	-8.30572
混	-8.30577
驚	-8.30713
良	-8.30845
右符	-8.30939
賢	-8.31059
新	-8.31669
元君	-8.31687
機	-8.31822
金光	-8.31829
輔	-8.31988
昔	-8.32018
只	-8.32107
五行	-8.32346
寒	-8.32579
超	-8.32601
吐	-8.32718
羽	-8.32784
一卷	-8.33514
水火	-8.33527
端	-8.33531
歌	-8.33624
北帝	-8.3418
近	-8.34316
鐵	-8.34916
之上	-8.34951
奔	-8.35195
符命	-8.35293
斯	-8.35296
隂陽	-8.3553
眼	-8.35655
勝	-8.35727
寅	-8.36035
昭	-8.36114
虛	-8.36174
契	-8.36262
驅	-8.36519
境	-8.36525
尋	-8.36547
津	-8.36675
坎	-8.36687
大將	-8.36692
監	-8.36703
劉	-8.36822
驗	-8.36846
騎	-8.36955
忘	-8.36969
光明	-8.37005
半	-8.37234
之所	-8.37389
魄	-8.37683
祈	-8.37686
俗	-8.37939
泉	-8.37994
天門	-8.38114
刑	-8.38201
之時	-8.3826
二十四	-8.38369
第二	-8.3837
忽	-8.38474
之後	-8.38556
斬	-8.3872
澤	-8.38803
歩	-8.38867
資	-8.38889
吒	-8.38928
招	-8.39044
逐	-8.39182
朗	-8.39307
尸	-8.39406
陰陽	-8.39585
現	-8.39814
退	-8.39966
負	-8.4002
䰟	-8.40194
返	-8.40329
披	-8.4046
鳴	-8.40543
含	-8.40837
示	-8.40885
役	-8.41747
映	-8.41749
玉帝	-8.41935
寧	-8.42169
遷	-8.42251
飲	-8.42273
施行	-8.42346
敢	-8.42474
任	-8.42483
背	-8.42689
英	-8.4279
耀	-8.42809
干	-8.4283
愛	-8.42901
司命	-8.4298
詳	-8.43165
漢	-8.43348
劒	-8.43424
太陽	-8.43454
五色	-8.4353
釋	-8.43531
廻	-8.43662
真君	-8.43835
塗	-8.44085
天罡	-8.4409
宻	-8.4413
律	-8.44543
紀	-8.4461
神霄	-8.4469
恭	-8.4485
財	-8.44955
萬物	-8.45013
護	-8.45208
彼	-8.45732
將吏	-8.45781
吸	-8.45856
圓	-8.46044
巽	-8.46174
憂	-8.46262
盛	-8.46492
雷公	-8.46583
遺	-8.46615
電	-8.46642
中央	-8.46653
北極	-8.46653
草	-8.46705
田	-8.46781
察	-8.46888
置	-8.46907
代	-8.46915
正一	-8.47007
喜	-8.47049
迷	-8.47198
閉	-8.4728
格	-8.47405
豈	-8.47532
伯	-8.47781
似	-8.47802
夢	-8.47936
證	-8.48159
唯	-8.48212
火鈴	-8.48304
一日	-8.48387
第一	-8.48573
具位	-8.48609
鳳	-8.48623
鎭	-8.488
西方	-8.48902
闕	-8.48948
騰	-8.48967
待	-8.49026
接	-8.49028
曹	-8.49237
混合	-8.49252
候	-8.49338
愈	-8.49672
履	-8.49949
禄	-8.50022
芝	-8.50023
一炁	-8.50047
窮	-8.50251
助	-8.50305
珠	-8.50316
上元	-8.50556
魁	-8.50767
黃	-8.50827
三官	-8.50916
第三	-8.51059
江	-8.51069
昌	-8.51197
原	-8.51403
行持	-8.51406
緑	-8.51452
尺	-8.5153
秋	-8.51678
碧	-8.51746
他	-8.5178
扶	-8.5182
徹	-8.52115
逺	-8.52521
夫人	-8.52719
梵	-8.52721
參	-8.52762
暉	-8.52815
雜	-8.52896
捉	-8.5298
之人	-8.53144
追	-8.53193
角	-8.53218
亥	-8.53559
天帝	-8.53825
三五	-8.53845
郷	-8.53863
父	-8.53877
界	-8.53916
歲	-8.54443
載	-8.54461
於是	-8.54621
禀	-8.54671
谷	-8.54708
煉	-8.54802
跡	-8.55189
損	-8.55522
案	-8.55592
熱	-8.55612
緫	-8.55676
廟	-8.55679
身中	-8.55754
殃	-8.56028
之精	-8.56037
限	-8.56057
訖	-8.56318
懷	-8.56329
看	-8.56521
嘗	-8.56551
歷	-8.56586
書符	-8.56613
烈	-8.56784
調	-8.56968
祭	-8.56969
乾坤	-8.5712
育	-8.57123
波	-8.57126
細	-8.57246
衝	-8.57264
勤	-8.57339
男女	-8.57359
丁	-8.575
之日	-8.57669
術	-8.57831
太玄	-8.58338
殿	-8.58405
赦	-8.58424
勞	-8.5843
以爲	-8.58706
係	-8.58918
輝	-8.58936
氏	-8.59279
左手	-8.59413
里	-8.59586
上下	-8.59937
患	-8.59941
逢	-8.60139
唐	-8.60225
滯	-8.60492
酉	-8.60544
炎	-8.60562
傾	-8.6061
統	-8.6078
智	-8.60806
武	-8.6085
雪	-8.60864
三洞	-8.60873
絳	-8.61236
庶	-8.61382
掐	-8.61382
附	-8.61518
押	-8.61594
仁	-8.61798
宅	-8.62256
仙官	-8.62361
往	-8.62371
沉	-8.62385
大聖	-8.62508
座	-8.62567
疑	-8.62888
納	-8.62937
舊	-8.62938
祖師	-8.6299
營	-8.62991
天師	-8.6303
肝	-8.63094
漸	-8.63098
痛	-8.63109
移	-8.63125
停	-8.63171
道君	-8.63522
走	-8.63558
序	-8.63611
淵	-8.63636
榮	-8.63814
伐	-8.64056
檄	-8.64086
擊	-8.64142
迎	-8.64753
計	-8.64916
危	-8.64922
霄	-8.65068
旛	-8.65072
省	-8.65343
愆	-8.65346
魚	-8.65384
祥	-8.65408
蕩	-8.65474
下降	-8.6551
鼓	-8.65524
夏	-8.65576
卿	-8.657
腎	-8.65791
階	-8.6591
野	-8.66028
惠	-8.66062
不敢	-8.66147
充	-8.66218
昏	-8.66559
横	-8.66784
艮	-8.66811
三清	-8.66824
赴	-8.66839
早	-8.66855
吏兵	-8.66953
泥丸	-8.67147
帥	-8.67256
潜	-8.67495
玉皇	-8.67496
刀	-8.67554
服之	-8.67709
牛	-8.67751
推	-8.67882
越	-8.67933
髙上	-8.68308
朱書	-8.6832
兹	-8.68697
天蓬	-8.68714
行道	-8.68721
地獄	-8.68848
稽首	-8.68934
管	-8.68985
之間	-8.69252
毋	-8.69354
慮	-8.69358
之内	-8.69399
本命	-8.69804
耶	-8.69821
户	-8.6987
洞玄	-8.69895
大帝	-8.69934
摧	-8.6996
揚	-8.70123
蟲	-8.70211
煥	-8.70389
紙	-8.70597
三日	-8.70729
師曰	-8.70786
井	-8.70791
温	-8.71145
讀	-8.71325
貪	-8.71394
怒	-8.71412
强	-8.71442
之士	-8.71577
四方	-8.71644
丑	-8.71681
太乙	-8.71688
又方	-8.71835
孫	-8.72216
鼻	-8.72291
/)	-8.72479
鑒	-8.72798
寂	-8.72868
據	-8.72942
主者	-8.72944
大法	-8.73115
生死	-8.73233
群	-8.73389
得道	-8.7339
再拜	-8.73495
卒	-8.73543
禳	-8.73643
兊	-8.7366
邊	-8.73704
神虎	-8.73706
蒼	-8.73731
習	-8.74407
院	-8.74426
比	-8.74473
肉	-8.74488
幸	-8.74615
肺	-8.74623
之神	-8.74691
一人	-8.74749
敷	-8.75215
錢	-8.75233
客	-8.75314
卧	-8.75458
湯	-8.75525
疾速	-8.75571
卦	-8.75739
怪	-8.75793
殊	-8.75919
檢	-8.75957
寫	-8.75963
羣	-8.76031
灾	-8.76118
遲	-8.7616
天丁	-8.76166
入意	-8.76395
寶	-8.76418
篆	-8.76564
獻	-8.76612
泰	-8.76781
姓名	-8.76804
旋	-8.76885
濁	-8.76944
伸	-8.77101
三炁	-8.77168
綱	-8.77308
趙	-8.77554
免	-8.77729
一名	-8.77759
刻	-8.77879
樹	-8.78052
告下	-8.78064
灌	-8.78232
吞	-8.78245
像	-8.78265
拔	-8.7832
希	-8.78526
紫微	-8.78581
三光	-8.78617
委	-8.78682
若有	-8.78688
補	-8.78904
八景	-8.78999
洪	-8.79106
兼	-8.79138
畫	-8.79204
烏	-8.7968
遵	-8.79746
舍	-8.79781
行之	-8.79971
徑	-8.80075
堅	-8.80091
功德	-8.8012
蛇	-8.80121
響	-8.80365
丘	-8.80388
塞	-8.80498
潔	-8.80509
秀	-8.80537
無窮	-8.80564
梁	-8.80576
幾	-8.80871
剔	-8.8124
分明	-8.81332
又曰	-8.81346
萬靈	-8.81356
訟	-8.81386
父母	-8.81445
詩	-8.81488
萬里	-8.81602
出入	-8.8208
澄	-8.82234
暗	-8.8234
修行	-8.82513
急急	-8.82635
瘟	-8.82653
徧	-8.82958
生人	-8.83252
黒	-8.83377
七星	-8.83449
霧	-8.8359
約	-8.8371
衆生	-8.83781
辛	-8.83841
盈	-8.83855
丸	-8.83859
唱	-8.83883
法官	-8.83993
述	-8.84112
仙人	-8.84274
嶽	-8.84659
風雨	-8.84786
巨	-8.84978
天君	-8.85026
男	-8.85162
厚	-8.85335
葉	-8.85343
謹請	-8.85374
人間	-8.85485
裏	-8.85515
美	-8.85554
冀	-8.85663
池	-8.85999
謁	-8.86285
宇	-8.86659
一身	-8.86776
俾	-8.86781
亦可	-8.86854
徃	-8.8686
供養	-8.87003
錦	-8.87233
盤	-8.87263
今日	-8.87458
晴	-8.87558
假	-8.87864
慧	-8.87974
味	-8.87976
克	-8.8824
效	-8.8825
所謂	-8.8843
試	-8.88605
二十	-8.88623
造化	-8.88643
縛	-8.88672
神君	-8.88725
沐浴	-8.88803
三年	-8.88803
靖	-8.88894
六甲	-8.88976
髙功	-8.89262
誅	-8.89303
提	-8.89377
特	-8.89434
演	-8.89462
洗	-8.89579
脫	-8.89594
鬱	-8.89601
大洞	-8.89674
化爲	-8.89779
振	-8.89806
誤	-8.90012
句	-8.90076
竟	-8.90217
秘	-8.90248
仲	-8.90323
劵	-8.90336
薦	-8.90472
速降	-8.90537
開度	-8.90544
逹	-8.90548
眞文	-8.90693
給	-8.90962
無極	-8.91021
玄都	-8.91083
燭	-8.91122
務	-8.91124
夷	-8.91325
呵	-8.91542
九宫	-8.91574
伏願	-8.91587
逸	-8.91607
倒	-8.91812
拘	-8.91881
類	-8.91881
脾	-8.92337
九幽	-8.92457
神明	-8.92478
髮	-8.92483
五炁	-8.92607
灰	-8.92833
脚	-8.92931
飛仙	-8.93048
清微	-8.93075
編	-8.93115
剛	-8.93147
神王	-8.9318
舌	-8.9325
改	-8.93276
行事	-8.93314
愚	-8.93357
縱	-8.93405
軒	-8.93444
土地	-8.93586
第五	-8.93835
七祖	-8.93843
笑	-8.94024
爾時	-8.94202
雷火	-8.94231
敗	-8.94264
兮	-8.94398
楊	-8.94498
之氣	-8.94717
上昇	-8.94846
盖	-8.94937
墨	-8.95005
戌	-8.95139
抱	-8.95259
竹	-8.95272
天中	-8.95392
官將	-8.95423
尤	-8.95463
是也	-8.955
摩	-8.95608
曾	-8.95984
辟	-8.95996
催	-8.96042
竒	-8.9615
巾	-8.96278
史	-8.96288
上眞	-8.96338
咽	-8.96359
鳥	-8.96384
鏡	-8.96396
顧	-8.96468
厄	-8.96517
治病	-8.9676
眞炁	-8.96969
泄	-8.96978
罰	-8.97084
默	-8.97173
芒	-8.97207
謀	-8.97529
縣	-8.97624
閑	-8.97708
馳	-8.97725
號令	-8.97727
名曰	-8.98051
右手	-8.98736
下元	-8.98793
懸	-8.9881
冷	-8.98901
太虚	-8.99006
五星	-8.99226
第四	-8.99343
鶴	-8.99566
器	-8.99585
搯	-8.9961
九炁	-8.99786
豐	-8.99912
適	-8.99915
𤣥	-8.99969
舟	-9.00252
打	-9.0026
康	-9.00318
頂	-9.00445
鳯	-9.00448
採	-9.00456
防	-9.0047
川	-9.00538
罩	-9.00768
忌	-9.00773
皮	-9.00891
之妙	-9.0097
肅	-9.01278
忠	-9.0133
七元	-9.01459
冬	-9.01468
席	-9.01506
度人	-9.01525
六天	-9.01577
令人	-9.01776
三十	-9.02082
上天	-9.02121
我身	-9.02139
雷電	-9.02298
陵	-9.02472
昧	-9.02496
一時	-9.02564
貫	-9.02794
瑞	-9.02825
薄	-9.02878
禱	-9.02928
南極	-9.03097
無上	-9.03281
杖	-9.03407
怨	-9.03411
才	-9.03454
掃	-9.03528
之鬼	-9.03528
⬤	-9.03553
先天	-9.03597
汁	-9.03669
化生	-9.03859
責	-9.03983
各有	-9.03985
十一	-9.04054
之下	-9.04222
激	-9.04263
東南	-9.04273
毎	-9.04328
輿	-9.04368
用之	-9.0437
際	-9.04561
手執	-9.04758
覩	-9.04913
雙	-9.04917
上聖	-9.05164
折	-9.05169
棄	-9.05196
齎	-9.05416
孔	-9.05466
億	-9.05497
着	-9.05551
預	-9.05664
影	-9.05672
太素	-9.05694
量	-9.05739
那	-9.05766
魔王	-9.05787
捧	-9.05796
丹田	-9.06023
沙	-9.06126
老君	-9.06425
八卦	-9.06616
彰	-9.06627
兵馬	-9.06664
熟	-9.06664
上有	-9.0673
孝	-9.06865
御前	-9.06906
一如	-9.06958
不見	-9.07216
毛	-9.07331
千里	-9.07363
直符	-9.07413
迴	-9.07432
況	-9.07549
旨	-9.0756
究	-9.07582
夕	-9.07662
侯	-9.07872
鼎	-9.08031
乆	-9.08146
邪鬼	-9.08294
松	-9.08352
魂魄	-9.08434
第六	-9.08443
依法	-9.08603
世間	-9.08821
純	-9.09196
筭	-9.094
佐	-9.09421
説	-9.09457
環	-9.09466
丈人	-9.09533
叅	-9.09754
十四	-9.09769
阿	-9.09783
宋	-9.09919
顔	-9.09966
液	-9.10059
六合	-9.10092
中元	-9.10179
衰	-9.10182
把	-9.10385
焚香	-9.1048
叩	-9.10564
祝曰	-9.10658
隆	-9.10661
第	-9.10852
射	-9.11006
瘡	-9.11051
之事	-9.11064
是以	-9.11109
甲子	-9.11133
火急	-9.11209
班	-9.1162
而爲	-9.11859
枝	-9.11989
沖	-9.12065
無爲	-9.12125
五老	-9.12182
憑	-9.12241
療	-9.12283
無所	-9.12426
西北	-9.12519
獸	-9.12522
懼	-9.12541
哀	-9.12769
權	-9.12849
觸	-9.12865
道法	-9.12896
悲	-9.12912
曉	-9.1292
桃	-9.13227
作用	-9.13309
洞天	-9.13331
无上	-9.13353
旦	-9.13426
三寳	-9.13441
山川	-9.13516
略	-9.13541
胡	-9.13545
眞符	-9.13561
局	-9.13616
龜	-9.13641
溪	-9.13872
仗	-9.13945
翳	-9.14062
霜	-9.14088
途	-9.14252
衞	-9.1435
苟	-9.14508
陶	-9.14519
穴	-9.14559
導	-9.1462
遥	-9.1485
厭	-9.14874
樓	-9.15215
沈	-9.15235
祈禱	-9.15246
翼	-9.15401
軍	-9.15403
五十	-9.15415
徐	-9.15474
七日	-9.15497
判	-9.15507
増	-9.15513
旬	-9.15543
十五	-9.15545
頌	-9.15707
撰	-9.15716
眞靈	-9.15786
燒香	-9.15842
友	-9.15954
門下	-9.15955
黄帝	-9.15988
詔	-9.15995
精神	-9.16043
道德	-9.16131
黙	-9.16425
元始天尊	-9.16483
竅	-9.16483
否	-9.16485
學道	-9.16639
龍虎	-9.16639
名山	-9.16696
聖人	-9.16745
二人	-9.16819
太平	-9.16838
樞	-9.16919
産	-9.16934
病人	-9.16944
續	-9.16994
天關	-9.1705
某人	-9.17123
冝	-9.17178
享	-9.17277
飛天	-9.17429
如是	-9.17489
斗中	-9.17576
兇	-9.17653
逍遥	-9.17738
潤	-9.17808
例	-9.17893
五藏	-9.17953
狂	-9.17959
飛行	-9.18105
戴	-9.18141
繫	-9.18147
賊	-9.18193
祐	-9.18225
校	-9.1823
膽	-9.18486
雄	-9.18505
學者	-9.1854
翻	-9.1855
太空	-9.18612
索	-9.18788
占	-9.18865
暎	-9.1888
没	-9.18881
醫	-9.18912
存思	-9.18942
金甲	-9.18958
太微	-9.19143
俯	-9.19178
長存	-9.19194
至眞	-9.19301
函	-9.19438
四十	-9.1944
供	-9.19484
彌	-9.19537
十六	-9.19558
設醮	-9.19745
□□	-9.19821
水府	-9.19878
威神	-9.20053
蘇	-9.20192
題	-9.20253
羊	-9.20279
誦經	-9.20336
無不	-9.20409
爽	-9.20525
指揮	-9.20537
率	-9.20582
夀	-9.20583
混沌	-9.2062
臣某	-9.20734
頓	-9.20776
漏	-9.20781
嘉	-9.20867
太上老君	-9.2093
密	-9.21031
天上	-9.21094
叩齒	-9.21237
嬰	-9.2133
甘	-9.2136
𩔖	-9.21469
泥	-9.21631
捨	-9.21634
有所	-9.21924
玉京	-9.21943
余	-9.21964
戰	-9.21984
蘭	-9.21988
祈雨	-9.22004
壁	-9.22017
不祥	-9.22045
避	-9.22102
煎	-9.22128
宫中	-9.22133
城隍	-9.22153
生於	-9.22174
聖前	-9.22275
於此	-9.22407
白虎	-9.22503
玉晨	-9.22714
齒	-9.22715
煑	-9.22836
佳	-9.22878
政	-9.22944
旗	-9.23158
炁吹	-9.23317
懇	-9.23322
迹	-9.23325
人身	-9.2334
吾奉	-9.23355
壞	-9.23411
誥	-9.2344
火輪	-9.23451
慢	-9.23453
智慧	-9.23475
握	-9.23506
私	-9.23628
神光	-9.23664
九霄	-9.23711
呪畢	-9.23832
點	-9.23852
雷部	-9.23869
戸	-9.23892
静	-9.24182
東華	-9.2429
也若	-9.24313
宴	-9.24461
八方	-9.2447
秦	-9.24517
浩	-9.24547
正炁	-9.24615
擇	-9.24844
嗣	-9.24856
萬鬼	-9.24891
搗	-9.25002
批	-9.25018
兩手	-9.25086
操	-9.2509
之功	-9.25243
陸	-9.25373
弘	-9.25407
兆身	-9.25511
侍衛	-9.2553
勢	-9.25583
玉童	-9.25591
威靈	-9.2575
尅	-9.25826
九年	-9.25845
淫	-9.25891
百神	-9.26072
天人	-9.26203
三台	-9.26235
均	-9.26258
腹	-9.26269
風火	-9.26298
繞	-9.26337
束	-9.2643
季	-9.26489
混元	-9.26546
策	-9.26555
翠	-9.26569
遐	-9.26655
无極	-9.26729
丈	-9.26866
玉文	-9.27029
一升	-9.27029
念呪	-9.27258
亡魂	-9.2733
二十八宿	-9.27417
人之	-9.27455
嚥	-9.27663
字號計十卷	-9.27677
併	-9.27698
天曹	-9.2775
腦	-9.27768
本司	-9.27838
最	-9.27897
九玄	-9.27899
註	-9.28048
欺	-9.28113
鍾	-9.28146
京	-9.28258
是時	-9.28269
貼	-9.28403
邪精	-9.28473
神吏	-9.28508
經云	-9.2851
屋	-9.28537
銀	-9.28579
烟	-9.28657
力士	-9.28817
淺	-9.28832
郭	-9.28846
黄庭	-9.2886
翁	-9.29001
侵	-9.29064
裂	-9.29267
南斗	-9.29362
上奏	-9.29439
維	-9.2948
杜	-9.29551
法中	-9.29606
葛	-9.29627
天皇	-9.29685
東嶽	-9.29831
徳	-9.2988
欽	-9.29911
寸	-9.29926
至道	-9.30002
傍	-9.30026
訓	-9.3004
莫不	-9.30307
弟子某	-9.30325
上真	-9.30349
沐	-9.30371
内有	-9.30379
北向	-9.30473
歳	-9.30499
姓某	-9.30504
食之	-9.30699
咎	-9.30815
逰	-9.30819
膏	-9.30826
救苦	-9.30938
劄	-9.31018
五神	-9.31127
靈文	-9.31136
託	-9.31172
讃	-9.31206
火車	-9.31357
和合	-9.31376
當以	-9.31435
寢	-9.31513
風雷	-9.31518
錯	-9.31526
勒	-9.31556
不同	-9.31666
唎	-9.31761
威儀	-9.31834
四時	-9.31913
奪	-9.31925
十八	-9.31932
喪	-9.31932
心中	-9.32068
神祇	-9.32071
因縁	-9.32109
辯	-9.32338
如法	-9.32553
審	-9.32631
荷	-9.32688
米	-9.32724
壯	-9.32835
神靈	-9.3294
懴	-9.32941
通靈	-9.33044
爲之	-9.3306
常以	-9.33061
融	-9.33086
兒	-9.33362
詠	-9.33478
魏	-9.33511
準	-9.33559
而後	-9.33621
毫	-9.33812
墮	-9.33862
爐	-9.33975
疾病	-9.33978
萬劫	-9.33981
玉符	-9.34043
上香	-9.34117
市	-9.34331
如何	-9.34354
暮	-9.34356
箇	-9.34576
一兩	-9.34718
世人	-9.34945
尾	-9.35042
慕	-9.35069
基	-9.35081
吴	-9.35126
乙	-9.35141
第七	-9.35142
活	-9.35153
不用	-9.35219
依科	-9.35314
遭	-9.35344
至於	-9.35394
慈悲	-9.35424
無量	-9.35449
貧	-9.35474
整	-9.35499
晝夜	-9.35526
纒	-9.35547
誰	-9.3557
黄籙	-9.35724
此法	-9.35725
染	-9.35743
上皇	-9.35749
答	-9.35794
單	-9.35841
隔	-9.35885
臻	-9.35886
紫雲	-9.359
未能	-9.3593
浪	-9.35936
陣	-9.35972
副	-9.35992
神呪	-9.36025
金丹	-9.36036
善惡	-9.36197
惑	-9.36263
而成	-9.36305
所在	-9.36322
南宫	-9.36415
亦不	-9.36419
而去	-9.36561
孤	-9.36589
芳	-9.36631
瞻	-9.36669
殘	-9.36749
入室	-9.36911
祈晴	-9.36959
罔	-9.37079
凌	-9.37113
繼	-9.37116
練	-9.37145
玄元	-9.37473
輙	-9.375
增	-9.3755
值	-9.37631
俟	-9.37713
纏	-9.37907
太隂	-9.37917
者也	-9.3792
鄧	-9.37964
晦	-9.37968
同前	-9.38039
吟	-9.38064
皇君	-9.38079
)□(	-9.38114
範	-9.3813
袍	-9.38269
囉	-9.38305
牙	-9.38335
銜	-9.38365
頭戴	-9.38503
洞神	-9.38536
㧞	-9.38552
上仙	-9.38558
吽	-9.38722
寄	-9.38768
如前	-9.38794
妙經	-9.389
蹤	-9.38917
右法	-9.39104
眉	-9.39126
剪	-9.39149
鑑	-9.39158
抑	-9.39172
虚皇	-9.39184
議	-9.39196
埋	-9.39226
號曰	-9.39429
三十二天	-9.39496
工	-9.39572
逃	-9.39587
一道	-9.39615
舒	-9.39632
犬	-9.39655
上詣	-9.39779
祛	-9.39824
其中	-9.39882
七寳	-9.39937
社	-9.39974
祠	-9.39992
金剛	-9.40002
鸞	-9.4007
攝召	-9.40128
竊	-9.40427
亨	-9.40446
僞	-9.40449
庚	-9.40588
須至	-9.40705
已上	-9.40707
赫	-9.40739
祀	-9.40788
裙	-9.40807
君召	-9.40864
掩	-9.40901
而生	-9.4091
妃	-9.40939
眞形	-9.40998
神符	-9.4108
以今	-9.41168
此符	-9.41227
旺	-9.41235
截	-9.41305
洞眞	-9.41369
斧	-9.41538
某處	-9.41563
㣲	-9.41595
悔	-9.41617
䇿	-9.41731
翔	-9.4175
遁	-9.41803
東北	-9.41975
轟	-9.41975
削	-9.42053
猛	-9.42178
稽	-9.42437
孟	-9.42454
繁	-9.42572
郡	-9.42572
暢	-9.42594
竭	-9.4267
胃	-9.4267
神兵	-9.42726
存神	-9.42867
日中	-9.42905
之門	-9.42918
岀	-9.43008
乖	-9.43009
而行	-9.43092
世界	-9.43208
火光	-9.4322
出於	-9.43252
後學	-9.43421
博	-9.4344
桂	-9.43449
允	-9.43503
度師	-9.43608
炁入	-9.4362
九色	-9.43679
穀	-9.43729
之至	-9.43731
勘	-9.43763
天眞	-9.43771
梵炁	-9.43869
攻	-9.43948
空洞	-9.44082
錫	-9.44265
稍	-9.44289
研	-9.44316
郎	-9.44571
不死	-9.44713
腰	-9.44805
剋	-9.44842
丙丁	-9.45105
决	-9.45116
茂	-9.45234
大小	-9.4524
腫	-9.45283
旱	-9.45401
水中	-9.45515
風雲	-9.45554
訪	-9.45593
五道	-9.4564
醉	-9.45651
館	-9.45722
圎	-9.45844
竈	-9.45854
主宰	-9.45891
貌	-9.45907
而已	-9.46005
金華	-9.46037
呈	-9.46066
傳授	-9.4611
煩	-9.46118
空中	-9.46198
太眞	-9.46241
網	-9.46413
口中	-9.46487
䟽	-9.46539
十三	-9.4661
▲	-9.46771
絳宫	-9.46789
四海	-9.46852
躬	-9.46961
氷	-9.47015
霆	-9.47015
第八	-9.47071
生民	-9.47125
生神	-9.47126
佑	-9.47274
促	-9.47353
短	-9.47423
𥘉	-9.47466
元炁	-9.47467
傅	-9.47467
須臾	-9.4748
青帝	-9.47689
畏	-9.47731
脉	-9.47856
洒	-9.47905
不必	-9.4791
天官	-9.47911
又有	-9.47955
其所	-9.47976
支	-9.48089
道場	-9.48162
穹	-9.48348
側	-9.48379
登壇	-9.48396
乳	-9.48432
正法	-9.48461
部領	-9.48528
娑訶	-9.48528
山林	-9.48559
鍊度	-9.48732
底	-9.48809
緣	-9.4881
蔽	-9.48821
規	-9.48836
役使	-9.49042
年月日時	-9.49206
擁	-9.49241
貞	-9.49255
奇	-9.49262
爭	-9.4931
保命	-9.49384
宰	-9.49395
三十二	-9.49432
滅形	-9.49547
十月	-9.49643
妙道	-9.49668
棗	-9.49678
蕭	-9.49688
身心	-9.49708
効	-9.49735
䖏	-9.49781
故曰	-9.49799
感通	-9.49847
不生	-9.49924
尊神	-9.49933
經曰	-9.49948
生炁	-9.49966
劔	-9.50081
域	-9.50098
所有	-9.5013
崑崙	-9.50169
馭	-9.50206
逮	-9.50211
天地之	-9.50231
幽冥	-9.50232
柳	-9.50264
吿	-9.50387
之宫	-9.50425
或有	-9.50481
嘯	-9.50481
三宫	-9.50627
三師	-9.50906
玄壇	-9.50915
趣	-9.50992
恠	-9.51051
此是	-9.51074
一年	-9.51086
以來	-9.51096
撫	-9.51171
賔	-9.51173
鮮	-9.51181
減	-9.51207
障	-9.51367
皓	-9.51393
自有	-9.51528
太陰	-9.51572
亦有	-9.51575
上清靈寳大法卷之	-9.51642
一寸	-9.5176
同卷	-9.51823
程	-9.51849
濟度	-9.51889
攺	-9.52095
生成	-9.52112
晝	-9.52116
中宫	-9.5231
冲	-9.52457
配	-9.52492
扇	-9.52579
墜	-9.52592
人民	-9.52605
之文	-9.5265
六丁	-9.52763
龍神	-9.52778
臣等	-9.52823
流光	-9.52831
地户	-9.52869
汗	-9.52874
晶	-9.52921
擲	-9.52976
鹿	-9.53076
次存	-9.53103
變形	-9.53119
箕	-9.53149
雷雨	-9.53214
亡人	-9.53218
元皇	-9.53331
青龍	-9.53481
驛	-9.5351
穿	-9.53566
皂	-9.53845
無形	-9.53875
清淨	-9.53907
韓	-9.53924
棲	-9.5402
閣	-9.54047
淳	-9.54049
缺	-9.5408
請降	-9.54103
黑雲	-9.54108
正月	-9.54167
高上	-9.5448
包	-9.54483
闊	-9.54497
嬰兒	-9.54507
困	-9.54509
項	-9.54526
奥	-9.54633
地祇	-9.54633
孰	-9.54812
符右符	-9.54843
歡	-9.54879
員	-9.54907
蒸	-9.55022
飄	-9.55039
龍王	-9.5511
准	-9.55124
祟	-9.55149
吉凶	-9.55165
頒	-9.55194
一念	-9.55267
妖精	-9.55341
叩齒九通	-9.55499
考召	-9.55522
十七	-9.55541
曰吾	-9.55655
三境	-9.55712
上啓	-9.55722
祖炁	-9.55752
胞	-9.55862
社令	-9.55881
三月	-9.55887
暫	-9.55941
赤書	-9.55967
虧	-9.55969
洞真	-9.56013
青炁	-9.56083
度厄	-9.56257
生靈	-9.56399
額	-9.56421
玉虚	-9.56435
萬人	-9.56443
一百	-9.56604
諸司	-9.56621
者皆	-9.56631
銅	-9.56771
妻	-9.56772
鷄	-9.56782
老子	-9.56803
普度	-9.56841
阻	-9.56874
滌	-9.56905
不利	-9.56944
謬	-9.56951
亭	-9.56959
地府	-9.56965
躡	-9.56982
无量	-9.57077
三千	-9.5708
凡有	-9.57093
茅	-9.57125
橋	-9.5722
㸃	-9.57238
彩	-9.57276
十二月	-9.57281
爛	-9.5737
也其	-9.57383
排	-9.57406
肆	-9.5741
磨	-9.57449
肇	-9.57458
楚	-9.57484
百日	-9.57559
三皇	-9.57629
某等	-9.57884
精思	-9.5793
桑	-9.57943
也故	-9.57956
熏	-9.57979
玉札	-9.58072
性命	-9.58119
上宫	-9.58163
飲食	-9.5825
眞王	-9.58347
文昌	-9.58364
富	-9.58417
拱	-9.58443
以此	-9.58472
天醫	-9.58609
三魂	-9.58642
柱	-9.58688
上聞	-9.58699
西南	-9.58849
人家	-9.58871
枯	-9.58905
碎	-9.58912
八十一	-9.58937
偶	-9.58964
分别	-9.58978
受度	-9.58986
五臟	-9.59029
赤帝	-9.59096
法籙	-9.59276
符使	-9.59291
慎	-9.59301
瀆	-9.59343
前後	-9.59375
中天	-9.59437
靈寶	-9.59457
廢	-9.5951
弗	-9.59534
臭	-9.5955
愼	-9.59581
后	-9.596
度命	-9.59613
白炁	-9.59619
所屬	-9.59627
中指	-9.5963
答曰	-9.59761
皈	-9.5978
患人	-9.59832
巳上	-9.59918
爰	-9.59973
暴	-9.59976
拂	-9.60009
礙	-9.60036
其人	-9.60096
二炁	-9.60135
凝神	-9.60195
人也	-9.60208
召將	-9.60312
再念	-9.60353
絡	-9.60361
游	-9.60512
凈	-9.60547
有一	-9.60547
三景	-9.60548
三素	-9.60552
儒	-9.60563
此經	-9.60569
𨽻	-9.60639
香火	-9.60649
萬丈	-9.60759
囊	-9.60929
文字	-9.60964
吕	-9.61013
欣	-9.61028
輒	-9.61036
秉	-9.61039
壓	-9.61051
飢	-9.61076
好生	-9.61101
去處	-9.61127
魁罡	-9.61132
洞明	-9.61183
捕	-9.61205
上上	-9.6122
子孫	-9.61244
不動	-9.61266
𩲸	-9.61299
前去	-9.61356
上道	-9.61393
冒	-9.61418
上相	-9.61498
標	-9.61499
髪	-9.61561
徘徊	-9.61571
之際	-9.61609
安寧	-9.61654
而無	-9.61658
莖	-9.61798
則有	-9.62047
辨	-9.6205
猪	-9.62091
君官將一百二十人治	-9.62115
璧	-9.62147
峯	-9.62157
中黄	-9.62226
不復	-9.62272
照應	-9.62306
六十	-9.6232
玉字	-9.62431
第十	-9.62471
屍	-9.6254
談	-9.62547
幕	-9.62594
禽	-9.62613
衡	-9.62999
知其	-9.6304
箋	-9.63054
彈	-9.63069
来	-9.63074
牌	-9.63095
添	-9.63132
嗔	-9.63147
覽	-9.63155
弱	-9.632
七十	-9.63215
宸	-9.63243
邪魔	-9.63289
佩之	-9.63294
解曰	-9.63357
帝王	-9.63469
云云	-9.63484
汝等	-9.63537
喝	-9.63562
姑	-9.63605
透	-9.63632
告行	-9.63634
方可	-9.63638
叔	-9.63664
商	-9.63668
書之	-9.638
章奏	-9.63833
欻火	-9.63872
陛下	-9.63897
𡨋	-9.63976
圍	-9.63991
簿	-9.6401
飛雲	-9.64123
之境	-9.6415
珍	-9.64189
堪	-9.642
謹召	-9.6421
巖	-9.64214
毀	-9.64216
宗師	-9.64218
帛	-9.64226
墓	-9.64229
溺	-9.64251
生天	-9.64264
,	-9.64336
符呪	-9.6439
官屬	-9.6443
馘	-9.64474
賤	-9.64706
蜀	-9.64743
叱	-9.64748
之數	-9.64773
之地	-9.6479
此道	-9.64812
現形	-9.64832
五靈	-9.65039
絲	-9.65124
飛昇	-9.65159
之心	-9.65183
太歲	-9.65198
牢	-9.65202
三卷	-9.65203
叨	-9.65273
之始	-9.65419
又存	-9.65491
之謂	-9.6567
飯	-9.65808
金書	-9.65844
天之	-9.6592
眞仙	-9.66134
漿	-9.66277
輕泄	-9.66363
舞	-9.6638
庸	-9.66388
東向	-9.66424
宮	-9.66429
傳度	-9.66476
九地	-9.66554
以聞	-9.66598
曰此	-9.66719
一分	-9.66773
中平	-9.66829
君子	-9.66853
長跪	-9.66857
夙	-9.66859
賦	-9.66942
自己	-9.66952
髙眞	-9.67051
若不	-9.67114
之前	-9.67196
焦	-9.67234
測	-9.67247
搜	-9.67319
賞	-9.67421
祗	-9.67428
真文	-9.67461
字號計九卷	-9.67484
互	-9.67614
此乃	-9.67651
紫虚	-9.6768
紫庭	-9.67769
赤炁	-9.67782
者不	-9.6783
無有	-9.67837
感應	-9.6785
是爲	-9.67886
頃	-9.67927
的	-9.67929
宥	-9.67943
偏	-9.67955
慾	-9.67981
垢	-9.68028
寡	-9.68054
神化	-9.68095
分形	-9.68135
洞淵	-9.68249
此文	-9.68297
爲禍	-9.68409
壇場	-9.68464
勸	-9.68558
叉	-9.68639
之外	-9.68732
不正	-9.68802
敢有	-9.68876
瑶	-9.69023
戮	-9.69048
二字	-9.69052
鋒	-9.6909
主之	-9.69139
柔	-9.69154
帔	-9.69161
漠	-9.69211
玉華	-9.69281
錬度	-9.69298
元降	-9.6939
是故	-9.69621
禹	-9.69711
托	-9.69716
超度	-9.69807
繒	-9.69914
大慈	-9.69943
敕命	-9.70008
在前	-9.70043
頭上	-9.70196
消災	-9.70265
得此	-9.70304
皆是	-9.70322
良乆	-9.70324
濯	-9.70328
良久	-9.70364
真炁	-9.70445
丙	-9.70506
下下	-9.70588
叙	-9.70803
粉	-9.70827
刺	-9.70832
厥	-9.70836
割	-9.70842
况	-9.70873
盗	-9.70885
齋戒	-9.71111
更生	-9.71124
癸	-9.71255
七月	-9.71291
三百	-9.71349
九眞	-9.71418
齋壇	-9.71424
爲一	-9.71434
麗	-9.71463
玄武	-9.71479
紫炁	-9.71574
者乃	-9.71777
之章	-9.71837
延生	-9.7186
伺	-9.71935
闡	-9.71986
鄭	-9.71988
踈	-9.71989
歎	-9.71999
咒	-9.72029
朔	-9.72196
判官	-9.72228
眞官	-9.72295
名爲	-9.72523
盧	-9.72527
除已	-9.72595
軿	-9.7261
浴	-9.72622
雞	-9.72637
上生	-9.72643
之初	-9.72691
追攝	-9.72721
其神	-9.72739
黑炁	-9.7287
修齋	-9.72901
上登	-9.73039
軀	-9.73048
経	-9.73162
競	-9.73185
聖衆	-9.73195
律令敕	-9.73206
在天	-9.73235
朱陵	-9.73267
憲	-9.73268
後世	-9.73396
清齋	-9.73504
延年	-9.73596
丐	-9.73649
叩齒三通	-9.73741
伏魔	-9.73741
孕	-9.7375
開明	-9.7376
𡻕	-9.73765
琅	-9.73797
篤	-9.73809
歴	-9.73846
元陽	-9.73933
斷絶	-9.74042
白雲	-9.74088
神通	-9.74204
得其	-9.74214
荒	-9.74219
悃	-9.7422
畜	-9.74235
不過	-9.74289
鞭	-9.74338
韻	-9.74349
族	-9.74374
元神	-9.74377
飾	-9.74381
朱雀	-9.74388
㝠	-9.74403
昇天	-9.74529
神人	-9.74543
而出	-9.74568
十二人	-9.74594
使人	-9.74632
齋法	-9.74695
擒	-9.74696
弟	-9.748
之者	-9.74907
藉	-9.74951
宏	-9.74955
盞	-9.74981
七玄	-9.74986
赴壇	-9.75046
道人	-9.7516
莊	-9.75235
其道	-9.75358
其心	-9.75474
虔	-9.75475
戎	-9.75543
園	-9.75603
雷局	-9.75617
八極	-9.75637
存想	-9.75661
虚無	-9.75753
結成	-9.75811
清虚	-9.75856
黄素	-9.7593
大指	-9.75964
符呪曰	-9.7597
賛	-9.76024
訶	-9.76061
旁	-9.76116
曠	-9.76119
淪	-9.76126
婦	-9.76129
農	-9.76146
牀	-9.76156
潭	-9.76195
焰	-9.76221
一枚	-9.76304
元始符命	-9.76312
神炁	-9.76562
之宗	-9.76608
之言	-9.76722
辱	-9.76725
滋	-9.7676
晉	-9.76793
閉炁	-9.76795
官吏	-9.76849
十天	-9.76854
閉目	-9.76955
玄科	-9.77017
亡䰟	-9.77035
白帝	-9.77047
之方	-9.77087
虞	-9.77099
劍	-9.77215
寳經	-9.77225
上升	-9.77283
植	-9.77301
牽	-9.77358
予	-9.7736
綵	-9.77392
纂	-9.77406
豋	-9.77414
告文	-9.77434
呼吸	-9.77458
七魄	-9.77479
鈴	-9.77531
洞陽	-9.77624
甘露	-9.77647
九靈	-9.77657
真仙	-9.77673
麻	-9.77712
天宫	-9.77769
囚	-9.77933
耗	-9.77977
天雷	-9.78015
岸	-9.78047
次第	-9.78048
電光	-9.78094
之恩	-9.78128
拜章	-9.78139
星辰	-9.78277
不須	-9.78425
片	-9.78524
卑	-9.78532
衆聖	-9.78556
後聖	-9.78639
虹	-9.78686
上品	-9.78766
頂門	-9.78773
河圖	-9.78862
微妙	-9.7901
白日	-9.79093
倉	-9.7914
喉	-9.79189
三塗	-9.79192
夭	-9.79201
九十	-9.79212
迅	-9.79228
枉	-9.79236
▁(	-9.79272
溢	-9.79279
甲乙	-9.79351
大羅	-9.79379
陽明	-9.79404
不足	-9.79409
真靈	-9.79471
口訣	-9.79516
紫房	-9.79526
未嘗	-9.79532
虚空	-9.79558
解厄	-9.79651
𡨚	-9.7968
借	-9.7973
經法	-9.79748
長夜	-9.79763
層	-9.79781
流精	-9.79819
倚	-9.79823
奴	-9.79838
如意	-9.79883
九祖	-9.79905
壘	-9.79905
第九	-9.79928
十日	-9.80006
存亡	-9.80045
斤	-9.80167
得之	-9.80215
唵吽吽	-9.80257
緯	-9.80305
奏聞	-9.80311
廬	-9.8037
之罪	-9.80379
轄	-9.80381
建壇	-9.8045
眀	-9.8048
必有	-9.80657
向來	-9.80767
幽顯	-9.80815
四大	-9.80825
疫	-9.80923
裳	-9.80962
道者	-9.81045
以致	-9.81052
眷	-9.81056
執法	-9.81084
飈	-9.81101
道化	-9.81102
山嶽	-9.81191
輦	-9.81202
功成	-9.81265
台	-9.81266
投詞	-9.81278
上章	-9.81279
板	-9.81421
具位姓	-9.81465
二十五	-9.81489
八門	-9.81515
而有	-9.81515
拔度	-9.81609
不爲	-9.81612
法事	-9.81628
言功	-9.81637
遊行	-9.81648
巡	-9.81678
勾	-9.81698
幻	-9.81708
賴	-9.8173
禦	-9.81733
屏	-9.81756
歛	-9.81757
天道	-9.81772
四字	-9.81773
針	-9.81775
誡	-9.81798
靈章	-9.8184
入靖	-9.81874
七十二	-9.81925
茶	-9.82013
伏以	-9.82061
斬鬼	-9.82065
從官	-9.82214
崖	-9.82254
衆眞	-9.82259
正神	-9.82345
誕	-9.82356
駐	-9.8236
盜	-9.82371
彭	-9.82418
盻	-9.82438
迸	-9.8245
仙道	-9.82492
而巳	-9.82505
元氣	-9.82579
三一	-9.82655
一一	-9.82669
陽光	-9.82726
枷	-9.82738
蓬	-9.82882
溟	-9.82896
之要	-9.82925
有符	-9.82933
右符治	-9.8296
繩	-9.83026
萌	-9.83058
冰	-9.83097
行用	-9.83184
無所不	-9.83215
玄冥	-9.83222
變神	-9.83249
清靜	-9.83291
合屬	-9.83296
緊	-9.83458
之則	-9.83489
女子	-9.83529
鎖	-9.8363
僧	-9.83696
又云	-9.83703
九州	-9.83746
也夫	-9.83835
金龍	-9.83896
之名	-9.83959
天真	-9.84007
使我	-9.84177
速至	-9.84185
皆得	-9.84201
成就	-9.84203
行人	-9.84213
符檄	-9.84229
億萬	-9.84251
憫	-9.84286
華蓋	-9.84325
邑	-9.84327
則爲	-9.84343
卓	-9.84354
油	-9.84369
燕	-9.84375
降臨	-9.84387
等神	-9.84412
天寳	-9.84535
皆有	-9.84558
不成	-9.84568
六畜	-9.84569
急速	-9.84758
湖	-9.84787
東極	-9.84803
之理	-9.84891
夜半	-9.85109
守一	-9.85176
二百	-9.8524
二兩	-9.85301
隨事	-9.85331
可得	-9.85331
上玄	-9.85351
靈符	-9.85365
科曰	-9.85367
問曰	-9.85376
八節	-9.85408
爲人	-9.85417
齡	-9.85456
以成	-9.85595
剌	-9.85619
消魔	-9.8562
鉛	-9.85635
船	-9.85652
怠	-9.85663
九日	-9.85701
宛	-9.85708
火急奉行	-9.8573
猛吏	-9.85745
功行	-9.85774
天心	-9.85811
之府	-9.85901
草木	-9.8591
速起	-9.85921
之類	-9.85964
上法	-9.85968
醜	-9.86131
若能	-9.86139
洞房	-9.86142
修之	-9.86261
素靈	-9.86277
世之	-9.86286
姚	-9.863
泛	-9.86329
沸	-9.86347
屈	-9.86383
安鎮	-9.86488
道炁	-9.86519
口舌	-9.86694
跪	-9.86708
洞玄靈寳	-9.8691
事畢	-9.86913
脩	-9.86939
飽	-9.86977
沾	-9.87009
緋	-9.87039
榜	-9.87103
十九	-9.87148
三升	-9.87317
符籙	-9.87378
三遍	-9.87422
主帥	-9.87436
之本	-9.87454
三兩	-9.87464
二升	-9.87515
等衆	-9.87531
雷王	-9.87548
冤	-9.8759
不應	-9.87602
遏	-9.87651
完	-9.87699
巧	-9.8771
魯	-9.87749
版	-9.87805
老人	-9.87806
灸	-9.87876
大有	-9.8791
無邊	-9.87962
中間	-9.87972
天機	-9.88168
太上道君	-9.88229
揮	-9.88232
婦人	-9.88232
璇璣	-9.88244
之狀	-9.88251
綿	-9.88255
罷	-9.88284
鑪	-9.88293
矜	-9.88315
婆	-9.88323
廓	-9.88372
枕	-9.88387
起雷	-9.88457
隱書	-9.88491
前來	-9.88517
泰山	-9.88684
亡者	-9.88706
五日	-9.88721
七轉	-9.88822
周天	-9.8886
天仙	-9.88865
合同	-9.88872
勉	-9.89023
姦	-9.89024
旌	-9.89035
睡	-9.89037
膝	-9.89052
灑	-9.89092
興雲	-9.89133
四聖	-9.89158
之術	-9.89475
之儀	-9.89503
解釋	-9.89576
幽明	-9.89666
講	-9.89675
吾今	-9.89675
有功	-9.89676
幡	-9.89694
二卷	-9.89703
屯	-9.89704
栖	-9.89759
惡鬼	-9.89781
鐘	-9.89791
至真	-9.89824
小兒	-9.89854
年月日	-9.89935
飛空	-9.89972
大夫	-9.90003
昊天	-9.90238
譴	-9.90364
上方	-9.90375
橫	-9.90387
真符	-9.90393
紛	-9.90406
欝	-9.90413
之誠	-9.90449
金簡	-9.90463
吞之	-9.90502
浸	-9.90508
左足	-9.90527
皈依	-9.90539
青宫	-9.90539
靡	-9.9055
曆	-9.90621
立功	-9.90625
明堂	-9.91046
三寸	-9.91049
飛龍	-9.91062
崔	-9.91097
幢	-9.91106
消滅	-9.91114
渡	-9.91127
豁落	-9.91132
瓦	-9.91144
神名	-9.91211
五符	-9.91216
形神	-9.91255
上朝	-9.91259
道之	-9.91308
入符	-9.91318
之意	-9.91327
肅清	-9.91338
不勝	-9.91395
金液	-9.91481
丹天	-9.91588
太和	-9.91604
靈光	-9.91605
洲	-9.91639
具法位	-9.91668
蜜	-9.91695
宣告	-9.91731
肩	-9.91739
寃	-9.91744
括	-9.91781
纔	-9.91786
與吾	-9.91789
選	-9.91794
帳	-9.91803
富貴	-9.91888
銘	-9.91891
奏狀	-9.92013
歩虚	-9.92073
天兵	-9.92103
受生	-9.92256
黄炁	-9.92303
言之	-9.92352
頑	-9.92457
派	-9.92474
諸法	-9.9248
賈	-9.92494
徴	-9.92523
靑	-9.92532
其法	-9.92537
里域	-9.92566
焚之	-9.92595
不受	-9.9262
其文	-9.92671
解脫	-9.92693
不行	-9.92727
也又	-9.9278
豈不	-9.92783
陽日	-9.92791
某乙	-9.928
不出	-9.92853
雷聲	-9.93034
督	-9.9305
九月	-9.93052
家書	-9.93071
也此	-9.93123
大梵	-9.93124
事理	-9.93133
蓬萊	-9.93192
二月	-9.93204
䕶	-9.93213
奸	-9.93213
圭	-9.93219
峰	-9.93275
子時	-9.93282
梅	-9.93293
天丁力士	-9.93334
以傳	-9.93352
人皆	-9.9342
名書	-9.93492
雹	-9.93505
道言	-9.93544
所居	-9.9355
即是	-9.93557
次念	-9.93684
二十七	-9.93751
之根	-9.93759
未有	-9.93803
循	-9.93873
玄天	-9.93874
太歳	-9.93921
恨	-9.93924
署	-9.93926
刃	-9.93931
存見	-9.93949
逝	-9.93983
眷屬	-9.93989
爲我	-9.93992
擎	-9.93993
三拜	-9.9404
某甲	-9.94236
也今	-9.94248
叩頭	-9.94261
人道	-9.94336
殺鬼	-9.94443
入道	-9.94469
四十九	-9.94497
湛	-9.94633
寓	-9.94657
恊	-9.94661
輩	-9.94665
倍	-9.94676
所行	-9.94695
携	-9.94714
軫	-9.94722
太帝	-9.94812
流行	-9.94813
下有	-9.94924
萬民	-9.94968
告盟	-9.94984
壬	-9.94986
真經	-9.95039
妙用	-9.9507
地司	-9.95181
所啓	-9.95186
六月	-9.95245
天元	-9.95252
神功	-9.95264
得見	-9.95274
者則	-9.95314
是非	-9.95317
快	-9.9532
壺	-9.95378
朝禮	-9.95408
玉童玉女	-9.95436
啼	-9.95439
琴	-9.9546
億劫	-9.95501
爻	-9.95518
南昌	-9.95602
復有	-9.95662
玉樞	-9.95722
其身	-9.95743
捉鬼	-9.95788
玉光	-9.95847
化形	-9.95932
洞章	-9.95967
一字	-9.9597
幽魂	-9.95977
以水	-9.95981
至誠	-9.9599
所受	-9.96063
諧	-9.961
閉氣	-9.96118
禪	-9.96125
藴	-9.96128
爵	-9.96129
戒者	-9.96131
惜	-9.96136
呪詛	-9.96187
應感	-9.96189
玄靈	-9.96272
出離	-9.96395
至尊	-9.9642
某家	-9.96444
帥將	-9.96518
之身	-9.96533
玄妙	-9.96555
勿令	-9.9659
八月	-9.96635
啓告	-9.96654
心拜	-9.96713
洛	-9.96725
收捉	-9.96733
消除	-9.96774
壇前	-9.96776
黨	-9.96813
塗之	-9.96815
䖍	-9.96859
帖	-9.96863
𩀱	-9.96942
卜	-9.96964
之先	-9.97001
者是	-9.97364
贈	-9.97491
通天	-9.97502
皇帝	-9.97548
流金	-9.97597
貺	-9.97604
一百二十人	-9.97645
壬癸	-9.97666
嶺	-9.97689
萬衆	-9.97691
官君	-9.9781
功曹使者	-9.97816
歘火	-9.97866
保舉	-9.97881
胷	-9.97889
收攝	-9.97915
震動	-9.97972
七遍	-9.98064
經中	-9.98153
三分	-9.98158
合干	-9.98171
餌	-9.9826
何以	-9.9826
飛騰	-9.9827
之厄	-9.98275
山中	-9.98338
瓶	-9.98351
庵	-9.98357
上靈官	-9.98358
手把	-9.9837
探	-9.98381
臘	-9.98395
雅	-9.98398
恒	-9.98407
兵士	-9.98425
太上大道君	-9.9846
臣聞	-9.98462
風伯	-9.98496
罪福	-9.98534
赤子	-9.98702
二寸	-9.98708
九轉	-9.98724
行下	-9.98777
蓮	-9.98884
受命	-9.98885
巫	-9.98964
之冠	-9.99008
耳目	-9.99024
微祝曰	-9.9905
星宿	-9.99071
青華	-9.99108
躍	-9.99146
鴻	-9.99152
濃	-9.99166
炙	-9.99171
○	-9.99177
齋官	-9.99196
爲吾	-9.9924
玉簡	-9.99296
王母	-9.99299
筵	-9.993
之祖	-9.9934
丹書	-9.99352
又請	-9.99355
古今	-9.99408
不及	-9.9947
斬邪	-9.99521
入符中	-9.99558
悉皆	-9.99576
齋功	-9.99729
以手	-9.99755
各各	-9.99758
午文	-9.99772
大衆	-9.99804
道學不得	-9.99835
符中	-9.99885
𨼆	-9.99892
戾	-9.99893
廉	-9.99901
衆真	-9.99912
軄	-9.99918
險	-9.9993
勃	-9.99934
字號計八卷	-9.99939
流金火鈴	-9.99941
師父	-9.99965
者必	-9.99969
存念	-9.99976
枚	-10
八十	-10.0007
一合	-10.0013
而下	-10.0014
萬化	-10.0032
元始一炁萬神雷司	-10.0033
直日	-10.0034
行雨	-10.004
拯	-10.0046
天獄	-10.005
合行	-10.0057
霑	-10.0061
酌	-10.0065
邦	-10.0065
強	-10.0066
一百二十	-10.0066
悅	-10.0067
巽方	-10.0068
膺	-10.0068
分野	-10.0077
之尊	-10.0078
之音	-10.0079
君吏	-10.008
當知	-10.0109
金精	-10.012
太白	-10.0126
天闕	-10.0127
札	-10.013
蔵	-10.013
天樞院	-10.0131
隨意	-10.0134
水官	-10.0138
以左手	-10.0138
尹	-10.0139
恍惚	-10.014
叩齒三十六通	-10.0144
葬	-10.0146
鼠	-10.0147
緩	-10.0147
陀	-10.015
通神	-10.0152
都天	-10.0152
侍宸	-10.0154
與之	-10.0156
下令	-10.0161
開天	-10.0163
昇度	-10.0164
玉陛下	-10.0165
五斗	-10.0172
天帝君	-10.0175
流火	-10.0187
三氣	-10.0188
道衆	-10.0191
之義	-10.0193
者右	-10.0193
多少	-10.0199
其間	-10.02
心存	-10.0202
四極	-10.0205
展	-10.0211
者以	-10.0212
拒	-10.0214
所治	-10.0215
忍	-10.0215
時刻	-10.0217
生化	-10.0221
頗	-10.0222
窺	-10.0223
汞	-10.0223
伽	-10.0234
聖位	-10.0237
下界	-10.0239
南嶽	-10.0239
司馬	-10.0242
與天	-10.0258
逐一	-10.0259
身形	-10.0261
一遍	-10.0262
骸	-10.0262
曹僊官	-10.0268
玉府	-10.0278
也凡	-10.028
青書	-10.0293
八天	-10.0296
貨	-10.0297
瑩	-10.0297
儻	-10.0299
儲	-10.03
謙	-10.0302
扶桑	-10.0303
零	-10.0303
仕	-10.0307
寳籙	-10.0308
工夫	-10.0312
四指	-10.0314
統領	-10.0323
五月	-10.0332
三百六十	-10.0333
團	-10.0342
自在	-10.0359
山神	-10.0363
臍	-10.0364
浄	-10.0365
威光	-10.0366
蠻雷	-10.0366
俓	-10.0373
諭	-10.0374
擾	-10.0375
可謂	-10.0375
森	-10.0376
曷	-10.0376
𥙷	-10.038
挺	-10.0382
之靈	-10.0383
之光	-10.0384
淡	-10.0389
一聲	-10.0392
六道	-10.0397
用此	-10.0414
寳珠	-10.0415
九皇	-10.0416
真王	-10.0419
開通	-10.0419
之機	-10.043
九龍	-10.0449
㧞度	-10.045
化成	-10.0452
修眞	-10.0456
毁	-10.0461
來臨	-10.0462
朝元	-10.0463
濕	-10.0464
禁忌	-10.0468
致雨	-10.0469
日月星辰	-10.0485
帝庭	-10.0485
三界十方	-10.0486
不容	-10.049
不許	-10.0497
甲午	-10.0507
不欲	-10.0511
九寸	-10.052
與道	-10.052
勇	-10.0523
一月	-10.0524
三才	-10.053
灼	-10.0539
撼	-10.0541
仙靈	-10.0542
丹元	-10.0543
臂	-10.0544
覃	-10.0546
者當	-10.0547
二景	-10.055
祕訣	-10.0551
皈命	-10.056
神威	-10.056
中出	-10.0565
其事	-10.0575
千萬	-10.0577
衆神	-10.0587
玉訣	-10.059
於人	-10.0595
晚	-10.0597
今有	-10.0604
湧	-10.0605
捲	-10.0606
建齋	-10.0606
曽	-10.0615
百病	-10.0616
漱	-10.0621
費	-10.0622
倫	-10.0623
晩	-10.0625
懴悔	-10.0628
附體	-10.0629
奉爲	-10.0634
日時	-10.0635
當先	-10.0636
十二時	-10.0656
太皇	-10.0658
靈飛	-10.0659
某日	-10.0665
坎離	-10.0667
金門	-10.0674
雨師	-10.0678
妨	-10.0688
火候	-10.0689
七年	-10.0694
東西	-10.0695
上仙都	-10.0696
愁	-10.0698
替	-10.07
一十二	-10.0702
巍巍	-10.0704
四天	-10.0705
嘘	-10.0706
雨澤	-10.0709
青衣	-10.072
謝恩	-10.0724
祈恩	-10.0724
太真	-10.0733
下丹田	-10.0733
天子	-10.0734
治之	-10.0738
髓	-10.0742
出行	-10.0748
元年	-10.0749
度世	-10.075
冠衣	-10.0752
九州社令	-10.0753
虚无	-10.0761
動靜	-10.0771
岳	-10.0771
善功	-10.0778
天河	-10.0778
恢	-10.0781
噀	-10.0782
詐	-10.0785
與道合眞	-10.0785
認	-10.0787
孚	-10.0787
壤	-10.0787
奮	-10.0788
蘂	-10.079
逕	-10.079
奉命	-10.079
喻	-10.079
三人	-10.0792
散花	-10.0794
萬法	-10.0794
三過	-10.0795
誦之	-10.0806
口吐	-10.0806
眞經	-10.0814
掣電	-10.0814
上經	-10.0823
不傳	-10.0828
鬼賊	-10.0831
元命	-10.0832
煞炁	-10.0834
受事	-10.0835
與我	-10.0837
所見	-10.0841
二年	-10.0844
九陽	-10.0848
不明	-10.0852
翊	-10.0854
萬象	-10.0869
妖魔	-10.0869
煞文	-10.087
荆	-10.087
治卒	-10.0871
熬	-10.0873
臨壇	-10.0874
三關	-10.0877
偃	-10.0877
金虎	-10.088
日夜	-10.0884
玄虚	-10.0895
出家	-10.0903
天將	-10.0906
邪神	-10.0909
今月	-10.0912
壇中	-10.0913
之衆	-10.0929
聞之	-10.0931
人物	-10.0938
十年	-10.0942
眞火	-10.0942
雙手	-10.0946
真形	-10.0947
秩	-10.0948
呼召	-10.0951
紋	-10.0952
鄉	-10.0954
床	-10.0955
爪	-10.0958
翅	-10.0959
𩓑	-10.0962
趨	-10.0962
爲末	-10.0963
九重	-10.0969
星斗	-10.0975
三尸	-10.0978
一旦	-10.098
端坐	-10.0987
元精	-10.0987
五人	-10.0993
輪轉	-10.0997
命魔	-10.1001
若干	-10.1003
死生	-10.1008
黄書	-10.1013
大力	-10.1019
天神	-10.1019
諸神	-10.102
不然	-10.1021
寺	-10.1036
奠	-10.1037
警	-10.1038
戀	-10.1038
脱	-10.1039
戲	-10.104
病者	-10.1041
愧	-10.1043
遮	-10.1045
昊	-10.1059
漬	-10.106
大師	-10.1073
成眞	-10.1073
四季	-10.1079
消息	-10.1081
應時	-10.1087
天魔	-10.11
承誥奉行	-10.1101
注生	-10.1103
天台	-10.1105
煑取	-10.1105
九壘	-10.1112
默念	-10.1115
見之	-10.1116
貢	-10.1118
寥	-10.1119
縳	-10.112
憐	-10.1122
嗚	-10.1123
榖	-10.1123
巢	-10.1123
狼	-10.1123
渉	-10.1125
袋	-10.1125
下情無任	-10.1125
帀	-10.1125
郊	-10.1127
乃是	-10.1127
翹	-10.1127
九氣	-10.1139
千二百人	-10.1147
百姓	-10.1151
三尊	-10.1151
視之	-10.1156
學仙	-10.1161
室主	-10.1166
精誠	-10.1171
甲申	-10.1176
他人	-10.1181
寳章	-10.1183
正道	-10.1191
四明	-10.1192
奉道	-10.1199
捷	-10.1201
該	-10.1207
殷	-10.1207
噴	-10.1209
一通	-10.1212
本無	-10.1213
揺	-10.1214
旡	-10.1216
低	-10.1216
狗	-10.1223
𠃔中	-10.1227
今則	-10.1233
二十八	-10.124
天文	-10.1242
之曰	-10.1244
道前	-10.1248
忽然	-10.1259
見其	-10.1269
疊	-10.1276
厲	-10.1291
衢	-10.1297
寬	-10.1297
堯	-10.1305
噉	-10.1308
我今	-10.1312
官使者	-10.1313
朝謁	-10.1325
兩目	-10.1331
破獄	-10.1334
蓮花	-10.1337
謹據	-10.1349
一條	-10.135
之位	-10.1354
聖賢	-10.1361
羅列	-10.1362
下方	-10.1377
豁	-10.1378
一如告命	-10.1383
紹	-10.1384
又名	-10.1385
腥	-10.1386
轡	-10.1386
邈	-10.1386
須㬰	-10.1386
董	-10.1387
暖	-10.1392
大魔王	-10.1392
五苦	-10.1392
即時	-10.1392
妖氛	-10.1393
煩惱	-10.1395
控	-10.1397
玉經	-10.1397
黄金	-10.1397
雷令	-10.1397
庚申	-10.1404
玉宸	-10.1406
上告	-10.1418
祭酒	-10.1419
發遣	-10.1421
十一月	-10.1423
帝敕	-10.1424
志心	-10.1426
受經	-10.1429
百二十	-10.1431
方便	-10.1436
不如	-10.1437
咽液	-10.1438
與人	-10.1441
冬至	-10.1447
天王	-10.1447
學士	-10.1448
北酆	-10.1451
五寸	-10.1453
關告	-10.1455
魒	-10.1458
一點	-10.1459
四月	-10.146
)(/)	-10.1464
八字	-10.1471
銷	-10.1472
蔣	-10.1472
嘆	-10.1473
急急奉	-10.1475
逼	-10.1476
太元	-10.1481
布炁	-10.1483
元始天王	-10.1484
有違	-10.1493
自生	-10.1493
紫清	-10.1493
心不	-10.1494
四司	-10.1496
未得	-10.1499
符文	-10.1502
伏乞	-10.1508
者亦	-10.1513
吞服	-10.1514
伏望	-10.1525
上達	-10.1527
雲霧	-10.1532
心章	-10.1532
甲寅	-10.1533
九府	-10.1538
不信	-10.154
宣行	-10.1541
無礙	-10.1545
群生	-10.1545
昇入	-10.155
雖有	-10.155
一斤	-10.1551
婚	-10.1554
佛	-10.1556
朱衣	-10.1557
攀	-10.156
昨	-10.1561
朽	-10.1561
鑄	-10.1561
䘮	-10.1561
大吉	-10.1562
泠	-10.1563
靄	-10.1564
請進	-10.1566
將來	-10.1568
升降	-10.157
徃來	-10.158
律令勑	-10.1581
白素	-10.1581
勑命	-10.1591
九元	-10.1591
孔子	-10.1595
貴人	-10.1603
下入	-10.1604
玉清訣	-10.1608
追魂	-10.1612
廣成	-10.1612
陽精	-10.1627
化身	-10.163
龜山	-10.163
建立	-10.163
天樞	-10.1631
无所	-10.1631
砂	-10.1632
玄關	-10.1634
芽	-10.1636
墨書	-10.1636
皆當	-10.1639
惶	-10.1644
亦無	-10.1644
拷	-10.1645
來迎	-10.1646
城隍社令	-10.1649
仙都	-10.165
自非	-10.1654
鱗	-10.1654
匠	-10.1654
嶽瀆	-10.1654
渾	-10.1657
十極	-10.1659
婁	-10.1663
樞機	-10.1666
皆可	-10.168
香爐	-10.1692
无窮	-10.1696
右足	-10.1698
上界	-10.1699
子文	-10.1703
場	-10.1704
風刀	-10.1706
東海	-10.1708
取炁	-10.1709
右手執	-10.1713
南向	-10.1714
盆	-10.1715
蠻	-10.1719
禍福	-10.1719
輕重	-10.172
下部	-10.1721
其餘	-10.1721
到壇	-10.1737
腸	-10.1737
婚姻	-10.1738
凡人	-10.174
痊	-10.1742
斥	-10.1742
厨	-10.1742
三十六天	-10.1744
懺	-10.1746
跨	-10.1746
敵	-10.175
仗劒	-10.175
炎帝	-10.1751
賀	-10.1753
具奏	-10.1753
不離	-10.1754
流鈴	-10.176
人有	-10.1764
火雷	-10.1768
之象	-10.1772
吾身	-10.1773
戊	-10.1779
不以	-10.1779
由是	-10.1786
呪唵	-10.179
方函	-10.1796
得仙	-10.1803
不在	-10.1804
受持	-10.1808
神丹	-10.181
不識	-10.1811
刼	-10.1819
各一	-10.1826
護身	-10.1828
眞司	-10.183
㐫	-10.1833
依前	-10.1834
杵	-10.1836
憎	-10.1837
涉	-10.1838
哪	-10.1838
便是	-10.184
之物	-10.1842
三字	-10.1849
萬魔	-10.1863
宻呪	-10.1864
雌一	-10.1864
諸仙	-10.1866
任意	-10.1876
般	-10.1877
召呪	-10.188
九星	-10.1889
事意	-10.19
合形	-10.19
方位	-10.1901
之處	-10.1907
召請	-10.1907
死者	-10.1918
道成	-10.1921
蠲	-10.1922
淸	-10.1924
祚	-10.1927
廕	-10.1927
黎	-10.1928
酬	-10.193
愍	-10.1931
入山	-10.1931
二日	-10.1933
歟	-10.1933
無道	-10.1933
褐	-10.1934
薪	-10.1936
歡喜	-10.1945
東方青	-10.197
苦爽	-10.1974
雷祖大帝	-10.1974
碧玉	-10.1978
赤天	-10.198
上靈	-10.1985
日用	-10.1986
玉籙	-10.199
治在	-10.1994
六府	-10.2
垣	-10.2001
赤明	-10.2003
崩	-10.2005
圓光	-10.2007
伏聞	-10.2011
以自	-10.2012
子午	-10.2015
觧	-10.2019
呢	-10.202
攪	-10.202
求仙	-10.2023
而至	-10.2023
乏	-10.2024
弊	-10.2024
太華	-10.2027
紫光	-10.2028
朴	-10.203
西王母	-10.2038
終不	-10.2044
炁合	-10.2045
即日	-10.2049
三途	-10.2052
丹陽	-10.2052
卷一	-10.2053
教主	-10.2055
熒惑	-10.2056
周流	-10.2063
還丹	-10.2066
二十一	-10.2068
太保	-10.2072
魂神	-10.208
出筆	-10.2081
諸將	-10.2081
九江	-10.2084
有餘	-10.2085
召雷	-10.2085
驅邪	-10.2088
洞徹	-10.2092
不相	-10.2097
鬼官	-10.2099
其形	-10.2099
飛玄	-10.21
仙童	-10.2102
雷霆都司	-10.2104
衣服	-10.2106
有三	-10.2109
一心	-10.2112
幼	-10.2114
炭	-10.2115
暑	-10.2116
鄕	-10.2117
不覺	-10.2117
冶	-10.2118
靈書	-10.2119
三萬六千	-10.2119
逥	-10.2121
三天門下	-10.2121
伊	-10.2121
陋	-10.2122
脂	-10.2122
恬	-10.2123
錦帔	-10.2125
絹	-10.2126
鹽	-10.2126
丹砂	-10.2127
又以	-10.2127
雷祖	-10.2128
主收	-10.2129
制魔	-10.213
御史	-10.2132
書名	-10.2135
章表	-10.2136
譬如	-10.2139
隨吾	-10.2144
泉曲	-10.2146
七宿	-10.2156
玄中	-10.2156
佩帶	-10.2156
飛符	-10.2156
五百	-10.2166
匝	-10.2171
過度	-10.2172
不止	-10.2175
文書	-10.2178
修真	-10.218
符上	-10.2181
有道	-10.2183
兄	-10.219
不通	-10.2191
之說	-10.2192
日光	-10.2197
及諸	-10.2198
人心	-10.2199
一曰	-10.2201
作一	-10.2203
氛	-10.2204
争	-10.2205
火燒	-10.2205
淹	-10.2206
擬	-10.2209
鈞	-10.2213
𢘆	-10.2213
尼	-10.2214
符召	-10.2215
捷疾	-10.2215
弼	-10.2219
醋	-10.2219
裘	-10.2223
種種	-10.2235
九道	-10.2238
陽神	-10.2242
炁一口	-10.2246
門户	-10.2248
華池	-10.225
光芒	-10.2252
猷	-10.2261
奏告	-10.2268
外道	-10.227
三道	-10.2271
之主	-10.2282
雷君	-10.2283
受法	-10.2285
禮拜	-10.2293
於世	-10.2294
行壇	-10.2303
死魂	-10.2303
恣	-10.2306
陟	-10.2306
昊天玉皇上帝	-10.2306
丁巳	-10.2308
軌	-10.2309
僕	-10.2309
古人	-10.2311
髻	-10.2312
皇上	-10.2313
天恩	-10.2313
五氣	-10.2316
上帝勑	-10.2316
懽	-10.2316
慈尊	-10.2319
帝命	-10.2321
而得	-10.2321
神力	-10.2322
不得妄	-10.233
别有	-10.2331
其日	-10.2349
如有	-10.2356
曰子	-10.2359
靈寳天尊	-10.2365
火獄	-10.2374
玉闕	-10.2378
齋主	-10.2381
隅	-10.2392
阜	-10.2402
恃	-10.2408
鋪	-10.2408
不問	-10.2408
而來	-10.241
有人	-10.2411
福地	-10.2415
自此	-10.2416
安鎭	-10.2418
陽雷	-10.2418
頓首	-10.2419
敢不	-10.242
月孛	-10.2421
殺伐	-10.2422
黄衣	-10.2422
四面	-10.2428
非人	-10.243
六宫	-10.2431
所至	-10.2432
今據	-10.2434
謹狀	-10.2435
東井	-10.2437
魅	-10.2444
成仙	-10.2446
卯文	-10.2452
領兵	-10.2456
之若	-10.2458
踏	-10.2459
玉眞	-10.2462
玉皇上帝	-10.2479
功過	-10.248
青詞	-10.2485
焚符	-10.2489
磬	-10.249
特賜	-10.249
血湖	-10.2496
袖	-10.2497
之家	-10.25
常存	-10.25
奚	-10.25
別	-10.25
紐	-10.2501
鑿	-10.2501
不宜	-10.2506
神鬼	-10.2507
一二	-10.2507
哭	-10.2507
九泉	-10.251
元辰	-10.251
寒暑	-10.2514
猛將	-10.2523
妖邪	-10.2529
十萬人	-10.2529
正眞	-10.2529
五年	-10.2541
四維	-10.2543
更相	-10.2545
應干	-10.2552
身長	-10.2555
庶使	-10.256
聽令	-10.2562
上中下	-10.2563
立至	-10.2566
則不	-10.2567
尸解	-10.2567
修造	-10.2572
急捉	-10.2578
上通	-10.258
玄玄	-10.2582
衍	-10.2584
五分	-10.2585
其炁	-10.2593
國土	-10.2595
陞	-10.2595
惱	-10.2598
雲中	-10.2599
耕	-10.2601
飲之	-10.2601
戟	-10.2601
匡	-10.2602
寵	-10.2603
雍	-10.2603
匪	-10.2603
焕	-10.2604
繡	-10.2604
不聞	-10.2604
征	-10.2604
轅	-10.2604
頻	-10.2606
獅子	-10.2606
漫	-10.2607
如雲	-10.2609
騫	-10.2612
施用	-10.2616
上三天	-10.2622
百里	-10.2624
天章	-10.2627
境界	-10.2638
驅除	-10.264
地上	-10.2647
之教	-10.2649
自然之	-10.2658
洞靈	-10.2659
景霄	-10.2666
四象	-10.267
之源	-10.2672
而立	-10.2673
上應	-10.2675
真官	-10.2675
延壽	-10.2676
帝一	-10.2684
到處	-10.2691
債	-10.2691
减	-10.2692
道門科範大全集卷之	-10.2693
淮	-10.2697
扣	-10.27
恪	-10.27
五嶽四瀆	-10.2701
晃	-10.2701
香花	-10.2702
濛	-10.2703
材	-10.2703
午時	-10.2703
㝷	-10.2704
應化	-10.2706
蔚	-10.2707
澗	-10.2709
祕呪	-10.2711
念呪曰	-10.2712
寳光	-10.2713
之書	-10.272
人能	-10.2722
紫陽	-10.2723
以至	-10.2728
二儀	-10.2729
月華	-10.2749
清明	-10.2752
然燈	-10.276
每日	-10.2779
聖母	-10.2782
不可以	-10.2782
燥	-10.2783
不從	-10.2784
雄黄	-10.2789
水雷	-10.2791
尖	-10.2794
之道也	-10.2795
誦呪	-10.2798
鉞	-10.28
芬	-10.2804
牧	-10.2806
字號計十一卷	-10.2806
敕煞攝	-10.2807
薰	-10.2807
靈寳大法	-10.2812
斗訣	-10.282
服符	-10.2823
萬炁	-10.2827
進退	-10.2832
人世	-10.2835
然而	-10.284
萬邪	-10.2848
大德	-10.2849
曰我	-10.2856
真誥	-10.2858
咭	-10.2861
往來	-10.2863
喧	-10.2871
三合	-10.2872
人所	-10.2874
煉度	-10.2876
明日	-10.2889
玉章	-10.2889
几	-10.289
慎之	-10.2894
做	-10.2894
大魔	-10.2895
至此	-10.2895
哺	-10.2897
神氣	-10.2897
綬	-10.2897
甫	-10.2899
火雲	-10.2901
當境	-10.2904
入水	-10.2905
遶	-10.2906
泯	-10.2908
巳身	-10.2909
喬	-10.2909
僊	-10.2909
掛	-10.291
無間	-10.2916
巽户	-10.2922
掃除	-10.2923
統兵	-10.2926
大如	-10.2934
掃蕩	-10.2942
兄弟	-10.2942
白鶴	-10.2943
符法	-10.2944
原赦	-10.2947
錢馬	-10.295
七徧	-10.2955
九清	-10.2958
五通	-10.2959
魔鬼	-10.2959
之徒	-10.2968
降靈	-10.2969
雷兵	-10.2971
金童	-10.2974
照耀	-10.2987
雷震	-10.2993
我之	-10.2995
麽	-10.2995
上願	-10.3
抽	-10.3006
二十四人	-10.3008
箭	-10.3011
雀	-10.3011
醴	-10.3011
有命	-10.3012
皆以	-10.3018
咄	-10.3018
玉堂	-10.3024
仙公	-10.3025
法服	-10.3031
頂上	-10.3037
青雲	-10.304
金木	-10.3041
大王	-10.3059
七炁	-10.3061
筋	-10.3062
統攝	-10.3062
亢	-10.3068
一口	-10.3071
太虛	-10.3073
河源	-10.3084
高眞	-10.3086
而退	-10.3088
之科	-10.3089
黒帝	-10.3089
急召	-10.3093
禮謝	-10.3095
服色	-10.3097
泰玄都省	-10.3101
三色	-10.3105
哩	-10.3105
萬福	-10.311
鄙	-10.3111
豉	-10.3111
隨時	-10.3111
䂓	-10.3112
光照	-10.3113
吁	-10.3114
廣成先生	-10.3115
河海	-10.3118
离	-10.312
頃刻	-10.3121
名字	-10.3122
生魂	-10.3126
玄母	-10.3126
聦明	-10.3128
庚辛	-10.3137
謝過	-10.3137
朱履	-10.3138
傅之	-10.3139
催生	-10.3142
乃得	-10.3148
國王	-10.3149
生氣	-10.3151
仙翁	-10.3157
青童君	-10.3159
人鬼	-10.3161
是謂	-10.3162
云何	-10.3169
普濟	-10.3179
勑攝	-10.318
破軍	-10.3184
謹具	-10.3189
在乎	-10.3191
其上	-10.3195
謹具狀	-10.3199
不忘	-10.32
百萬	-10.32
爲先	-10.3202
壇所	-10.3203
解穢	-10.3203
二分	-10.3203
流布	-10.3204
者有	-10.3205
過止	-10.3211
眠	-10.3216
辦	-10.3217
僣	-10.3218
讓	-10.3219
本法	-10.3221
內	-10.3225
玄黄	-10.3234
遊宴	-10.3236
月中	-10.3245
飲酒	-10.3246
關啓	-10.3248
告命	-10.325
於天	-10.325
此爲	-10.3254
之官	-10.3261
玉音	-10.3278
保生	-10.328
之㫖	-10.3283
救度	-10.3287
中部	-10.329
上至	-10.3294
地戸	-10.3295
□□□	-10.3295
授以	-10.3305
行此	-10.3306
守真	-10.3309
靈應	-10.3309
得一	-10.3311
顚	-10.3315
天一	-10.3318
匿	-10.3318
羣生	-10.332
受錬	-10.332
足以	-10.332
嗟	-10.332
鎻	-10.3321
符於	-10.3323
㗶	-10.3325
豫	-10.3326
弓	-10.3326
祅	-10.3326
瞑目	-10.3326
不停	-10.3326
白日昇天	-10.3327
甘草	-10.3328
有心	-10.3329
呬	-10.333
主人	-10.333
謗	-10.333
北極大帝	-10.3331
具法位姓	-10.3335
亦得	-10.3338
碧落	-10.3342
甘雨	-10.3342
刀兵	-10.3342
室中	-10.3342
神仙傳	-10.3348
廬山	-10.3348
幽關	-10.335
唵吽	-10.3352
不拘	-10.3353
赫赫	-10.3353
申時	-10.3369
祈求	-10.3371
甲戌	-10.3371
申狀	-10.3371
八素	-10.3373
之司	-10.3386
於道	-10.339
天皇大帝	-10.3391
江河	-10.3408
主法	-10.3416
勑召	-10.3421
闢	-10.3422
玄中大法師	-10.3427
俄	-10.3428
一尺	-10.3429
姿	-10.3431
醮官某	-10.3431
忿	-10.3432
迫	-10.3432
畧	-10.3433
邁	-10.3433
宵	-10.3433
匣	-10.3435
幘	-10.3435
玄眞	-10.3437
渴	-10.3438
斑	-10.3438
父毋	-10.3442
三品	-10.3443
偉	-10.3443
無心	-10.3443
益筭	-10.3447
思之	-10.345
皆由	-10.3451
以是	-10.3457
紫府	-10.3457
西山	-10.3458
金玉	-10.3467
有此	-10.3468
寳文	-10.3468
中央黄	-10.3469
接引	-10.3471
驅雷	-10.3471
符一道	-10.3483
在吾	-10.3485
昇玄	-10.3487
居中	-10.3489
之路	-10.3496
咒曰	-10.3506
通明	-10.351
琳	-10.3516
夏至	-10.3519
直上	-10.3519
册	-10.3522
四兩	-10.3522
謹按	-10.3525
都畢	-10.3525
空五寸篆符	-10.3529
金籙	-10.3533
亞	-10.3534
遽	-10.3535
太上洞玄靈寳	-10.3535
瓜	-10.3537
魓	-10.3537
仇	-10.3537
疰	-10.3538
襲	-10.3538
耿	-10.3539
罄	-10.3539
急急如高上神霄玉清眞王律令	-10.354
扵	-10.3541
拭	-10.3541
飛升	-10.3542
孤䰟	-10.3543
換	-10.3543
倘	-10.3543
訴	-10.3544
右呪	-10.3547
啓奏	-10.3548
隨方	-10.3548
藍	-10.3548
地官	-10.355
罡風	-10.3567
如干	-10.3567
與神	-10.3568
一切衆生	-10.3569
已身	-10.357
下臨	-10.3571
雷轟	-10.3573
普告	-10.3573
神咒	-10.3576
祕法	-10.3581
禹步	-10.3581
依式	-10.3585
諷	-10.359
微塵	-10.359
侍衞	-10.3597
三尺	-10.3602
真一	-10.3605
有無	-10.3607
三田	-10.361
不息	-10.3613
如式	-10.3615
斗口	-10.3625
副將	-10.3629
青玄	-10.363
千人	-10.3631
笈	-10.3632
四直	-10.3639
請命	-10.364
汲	-10.3645
屢	-10.3645
降下	-10.3645
帝尊	-10.3646
忱	-10.3647
青童	-10.3647
甲辰	-10.3647
皇天	-10.3648
介	-10.3648
朝眞	-10.3649
去滓	-10.3649
塡	-10.365
屠	-10.365
廉貞	-10.3651
鬚	-10.3651
粟	-10.3652
靈寳大法司	-10.3652
神水	-10.3652
弄	-10.3654
神眞	-10.3654
捕盗	-10.3654
符用	-10.3655
霐	-10.3656
法信	-10.3659
惡人	-10.3659
薩	-10.3661
奎	-10.3661
悔過	-10.3663
不絶	-10.3678
命門	-10.3691
眞一	-10.3691
炎炎	-10.3702
經師	-10.3702
離宫	-10.3706
百年	-10.3715
雲篆	-10.3716
胎息	-10.3722
流霞	-10.3723
本壇	-10.3724
明科	-10.3726
在此	-10.3732
黄雲	-10.3739
幹	-10.375
九億萬	-10.3756
革	-10.3757
之聲	-10.3757
乾薑	-10.3758
闔	-10.376
碑	-10.3761
赫奕	-10.3761
買	-10.3762
踐	-10.3763
剥	-10.3764
幅	-10.3765
畔	-10.3765
壑	-10.3766
搏	-10.3767
徵	-10.3767
縱横	-10.3768
五府	-10.3769
行法	-10.3771
北斗七星	-10.3772
能知	-10.3773
大仙	-10.3774
敕呪	-10.3781
上部	-10.3782
妙化	-10.3794
所求	-10.3795
具位姓某	-10.3803
來降	-10.3804
先存	-10.3805
爾時天尊	-10.3806
猶如	-10.382
某事	-10.3828
聖君	-10.383
一氣	-10.3832
手足	-10.3834
見形	-10.3839
運用	-10.384
開天門	-10.3847
北炁	-10.3848
齋事	-10.3851
清旦	-10.3851
大元帥	-10.3857
天堂	-10.3863
苗	-10.3866
慧光	-10.3867
貽	-10.3871
勵	-10.3871
醒	-10.3872
采	-10.3872
捻	-10.3872
粗	-10.3874
瀝	-10.3875
諸靈官	-10.3876
忤	-10.3876
析	-10.3876
從此	-10.3877
魁𩲃𩵄䰢魓𩳐魒	-10.3877
舜	-10.3877
成真	-10.3879
緒	-10.388
莫測	-10.3881
記名	-10.3884
陞壇	-10.3884
兔	-10.3885
漆	-10.3886
戊己	-10.3886
擲火	-10.3886
左手執	-10.3888
吐納	-10.3891
冠帶	-10.3892
臣妾	-10.3893
行遣	-10.39
先師	-10.3901
玉司	-10.3904
故能	-10.3904
出官	-10.3904
即與	-10.3908
若是	-10.3909
忽見	-10.3909
十方三界	-10.3916
主治	-10.3917
爲害	-10.392
始生	-10.3921
謹爲	-10.3924
今月某日	-10.3934
玄師	-10.3937
不言	-10.3942
亡過某	-10.3943
仙眞	-10.3944
承受	-10.3947
何處	-10.3949
勑呪	-10.395
涯	-10.3956
九天之	-10.3958
八威	-10.3962
北極驅邪院	-10.3971
二指	-10.3974
非常	-10.3981
即賜	-10.3981
□(	-10.3983
㓕	-10.3983
摽	-10.3985
諒	-10.3985
馮	-10.3985
符篆	-10.3986
緘	-10.3987
甦	-10.3987
魍魎	-10.3988
痾	-10.3988
菜	-10.3989
奕	-10.3989
罹	-10.399
蠱	-10.399
築	-10.399
立便	-10.4
九隂	-10.4001
身體	-10.4001
靈壇	-10.4007
關奏	-10.4009
所願	-10.401
南方火	-10.401
女人	-10.4013
北極紫微大帝	-10.4016
亡過某等	-10.4016
青面	-10.4017
仙階	-10.4018
黄華	-10.4018
滅魔	-10.4019
河魁	-10.4023
酉文	-10.4029
所得	-10.4035
此二	-10.4037
中嶽	-10.4038
青紙	-10.4044
人天	-10.4045
黄紙	-10.4054
天威	-10.4059
萬萬	-10.4059
奏申	-10.4059
或以	-10.407
平旦	-10.4073
噐	-10.4082
化作	-10.4085
世俗	-10.409
今爲	-10.4096
符章	-10.4098
邀	-10.41
疏	-10.4103
寛	-10.4105
附子	-10.4105
監生	-10.4108
巻	-10.4111
希夷	-10.4111
麟	-10.4112
十餘	-10.4112
養生	-10.4113
之𩔖	-10.4117
佑聖	-10.4119
骨肉	-10.4124
中文	-10.4124
奉請	-10.4138
救濟	-10.4141
鐵面	-10.4141
無方	-10.4143
祕之	-10.4144
髙真	-10.4148
卷一之十	-10.4149
九拜	-10.4154
天廷	-10.4156
羽衣	-10.4157
者可	-10.4157
乘雲	-10.4157
白簡	-10.4163
紫晨	-10.4165
辰文	-10.4165
四寸	-10.4167
並同	-10.417
丁卯	-10.417
呪塗	-10.4171
人事	-10.4171
宿啓	-10.4173
熾	-10.4176
手持	-10.4177
有五	-10.4177
土皇	-10.418
家國	-10.4187
左手掐	-10.419
之信	-10.4192
遵依	-10.4194
罪業	-10.4195
飛歩	-10.4195
相合	-10.4196
和氣	-10.4196
天符	-10.4199
地雷	-10.4199
入地	-10.4199
青靈	-10.4203
典者	-10.4203
祇	-10.4204
爲某	-10.4208
鴈	-10.4208
三部	-10.4209
在人	-10.4213
撥	-10.4214
殟	-10.4215
帬	-10.4215
换	-10.4217
畢又	-10.4217
濫	-10.4217
聾	-10.4217
唾	-10.4218
祀典	-10.422
洽	-10.422
貯	-10.422
賣	-10.4221
纓	-10.4223
酸	-10.4225
白衣	-10.4225
害人	-10.4232
百鬼	-10.4234
六神	-10.424
之極	-10.4241
隨符	-10.4242
大煞	-10.4243
步罡	-10.4247
解除	-10.4249
稽首再拜	-10.425
通玄	-10.4255
古者	-10.4255
上帝敕	-10.4258
在我	-10.4281
帝勑	-10.4285
滅亡	-10.4286
如常	-10.4287
所請	-10.4288
申奏	-10.4288
龍漢	-10.4289
歩綱	-10.4292
靈靈	-10.4292
方寸	-10.4294
天書	-10.4295
仙曹	-10.4299
豆	-10.4302
開悟	-10.4303
握固	-10.4304
卷一之	-10.4307
速出	-10.4309
心無	-10.431
三十九	-10.4314
无爲	-10.4318
二符	-10.4319
白玉	-10.4322
山魈	-10.4324
服食	-10.4325
嵩	-10.4326
萬道	-10.4328
即便	-10.4328
抛	-10.4331
宿命	-10.4331
熙	-10.4333
常行	-10.4333
鄰	-10.4336
色如	-10.4337
不知其	-10.4337
踰	-10.4337
駭	-10.4339
開化	-10.4339
召之	-10.4341
朱砂	-10.4341
拳	-10.4343
言語	-10.4343
尚書	-10.4344
表裏	-10.4351
蠶	-10.4351
蕩蕩	-10.4357
一方	-10.4358
上宰	-10.4358
年月	-10.4359
神室	-10.436
騎吏	-10.4366
夫妻	-10.4368
所說	-10.4369
醮儀	-10.4374
羽蓋	-10.438
男子	-10.4383
金石	-10.4387
雲雨	-10.4387
萬變	-10.4387
其方	-10.4392
九光	-10.4396
鬼魅	-10.4402
引進	-10.4404
召役	-10.4406
時有	-10.4408
永保	-10.441
拜上	-10.4415
牒請	-10.442
道路	-10.4427
公曰	-10.4431
百二十人	-10.4431
百靈	-10.4435
聦	-10.4436
太山	-10.4437
降眞	-10.4437
不干	-10.4439
挑	-10.4448
二十三	-10.4448
伍	-10.4449
臣某承誥奉行	-10.445
文曲	-10.445
勅	-10.4451
慰	-10.4452
遞	-10.4452
梓	-10.4453
賫	-10.4455
而行之	-10.4455
棺	-10.4455
降伏	-10.4455
四肢	-10.4458
肥	-10.4459
淩	-10.446
丑時	-10.4461
符吏	-10.4462
侵害	-10.4464
六通	-10.4467
未至	-10.4468
漸漸	-10.4471
陽炁	-10.4475
曰汝	-10.4477
今來	-10.4486
巨門	-10.4487
破廟	-10.4488
攝赴	-10.4493
四瀆	-10.4496
吉日	-10.4497
付度	-10.4502
天府	-10.4506
爲天	-10.4513
令行	-10.4519
聞吾	-10.4521
六洞	-10.4522
道學當念	-10.4524
至今	-10.4529
在心	-10.4531
風吹	-10.4531
或爲	-10.4531
近世	-10.4534
司命君	-10.4536
公公	-10.4539
月朔	-10.454
磚	-10.454
即得	-10.4542
一室	-10.4546
火府	-10.4548
少陽	-10.4551
其有	-10.4558
柄	-10.4559
九過	-10.4561
年月日具位	-10.4562
沼	-10.4565
復爐	-10.4566
徽	-10.4566
弦	-10.4572
亘	-10.4572
霍	-10.4574
播	-10.4574
縈	-10.4574
溥	-10.4575
炳	-10.4575
釁	-10.4575
漂	-10.4576
且如	-10.4577
凉	-10.4578
夾	-10.4578
籠	-10.4578
紫微大帝	-10.458
矢	-10.458
焦枯	-10.458
修奉	-10.458
謫	-10.458
嗜	-10.4581
刋	-10.4582
湘	-10.4583
上徹	-10.4584
狐	-10.4585
天蓬元帥	-10.4587
杳冥	-10.4587
風雲雷雨電	-10.4588
虎狼	-10.4588
都督	-10.4591
後人	-10.4593
兩腎	-10.4594
生生	-10.4601
懴謝	-10.4607
速去	-10.4609
嶽府	-10.4613
具狀	-10.4616
都天大	-10.4617
無復	-10.4617
道也	-10.4619
開光	-10.4626
妙法	-10.4633
苦酒	-10.4636
衆官	-10.4637
成道	-10.4638
靜坐	-10.4639
天魔王	-10.464
爲此	-10.4641
先亡	-10.4641
當時	-10.4642
寅卯	-10.4642
色界	-10.4645
復連	-10.465
在上	-10.4651
東方青帝	-10.4653
是何	-10.4665
發生	-10.4667
所向	-10.4673
妾	-10.4676
師眞	-10.4677
紫極	-10.4679
陰日	-10.4683
睿	-10.4686
戈	-10.4688
謹封	-10.4689
葷	-10.4694
坦	-10.4695
籤	-10.4696
渺	-10.4697
餅	-10.4697
者多	-10.4697
面前	-10.4698
叩齒十二通	-10.4699
塊	-10.4699
五體	-10.47
闇	-10.4701
之師	-10.4704
膠	-10.4704
生身	-10.4704
萬遍	-10.4707
升天	-10.4714
不至	-10.4714
衆魂	-10.4721
道塲	-10.4723
上士	-10.4723
仁義	-10.4725
在後	-10.4727
百關	-10.4729
必須	-10.4733
所用	-10.4747
金水	-10.4747
三晨	-10.4749
眞武	-10.475
日精	-10.4751
城隍主者	-10.4754
故也	-10.4759
西北方	-10.4763
聚形	-10.4769
紫書	-10.4771
金眞	-10.4779
太初	-10.4783
里社	-10.4783
經文	-10.479
而入	-10.4791
數十	-10.4792
邪崇	-10.4795
奉受	-10.4796
自稱	-10.4798
終身	-10.4801
𡄦	-10.4803
教法	-10.4811
與天地	-10.4811
較	-10.4812
社稷	-10.4813
立壇	-10.4813
謾	-10.4815
贖	-10.4816
藹	-10.4817
僚	-10.4818
之化	-10.4819
憶	-10.4821
快樂	-10.4823
餐	-10.4824
䑓	-10.4827
穆	-10.4832
上造	-10.4833
大定	-10.4835
洞府	-10.484
此時	-10.484
不審	-10.4847
於心	-10.485
太上靈寳	-10.4853
善男子	-10.4853
雲輿	-10.486
此則	-10.4865
嗣法	-10.4869
小人	-10.487
受鍊	-10.487
超生	-10.487
五穀	-10.4874
大丹	-10.4878
行移	-10.4879
頒行	-10.4881
言曰	-10.4885
八將	-10.4889
者不得	-10.4889
服氣	-10.4891
此理	-10.4896
經太上	-10.49
陛	-10.4908
壬寅	-10.4909
衆等	-10.4914
欲求	-10.4915
赤色	-10.4916
栢	-10.4925
昭報	-10.4926
修道	-10.4928
雲炁	-10.4932
東南方	-10.4933
不安	-10.4933
足躡	-10.4935
其功	-10.4935
道經	-10.4935
章師曰	-10.4935
公子	-10.4936
神公	-10.4936
暇	-10.4938
赦宥	-10.494
一下	-10.494
即以	-10.4944
之形	-10.4944
郁	-10.4946
黑煞	-10.4947
健	-10.4947
䕃	-10.4948
𢹂	-10.4951
汪	-10.4951
冥冥	-10.4952
殁	-10.4953
洞中	-10.4954
賓	-10.4955
一物	-10.4958
飮	-10.4958
不解	-10.4964
咬	-10.4965
頒降	-10.497
三獻	-10.4972
孤魂	-10.4972
策役	-10.4974
邪巫	-10.4975
通達	-10.4976
者死	-10.4979
火速	-10.4981
災厄	-10.499
九天之上	-10.5003
九品	-10.5006
難可	-10.501
冥司	-10.5013
好道	-10.5015
符圖	-10.5021
罪魂	-10.5023
十卷	-10.5029
雲宫	-10.5035
登眞	-10.5041
孽	-10.5047
鬼門	-10.505
萬事	-10.5059
斗星	-10.5062
無名	-10.5062
丕	-10.5062
𡖖	-10.5063
自得	-10.5065
可用	-10.5067
饒	-10.5069
敎	-10.5069
烹	-10.5069
紛紛	-10.5072
釜	-10.5072
摇	-10.5073
亦如	-10.5074
儉	-10.5074
急降	-10.5074
鈎	-10.5074
而自	-10.5075
㦸	-10.5075
訛	-10.5076
䧟	-10.5077
彦	-10.5077
譽	-10.5077
勑煞攝	-10.5078
衮	-10.5078
其本	-10.508
普天	-10.5082
邵陽	-10.5082
書篆	-10.5086
誦詠	-10.5092
八道	-10.5096
精光	-10.5101
之愆	-10.5103
疫癘	-10.5109
内文	-10.511
以次	-10.5111
者爲	-10.5118
吽吽	-10.5118
白蛇	-10.5127
東北方	-10.5131
辰星	-10.5141
無任	-10.5144
生産	-10.5145
級	-10.5153
三司	-10.5156
陰雷	-10.5157
南方赤	-10.5162
三十五	-10.5169
驅邪院	-10.5172
導引	-10.5175
雲車	-10.5179
七曜	-10.5182
允中	-10.5185
上請	-10.5187
居之	-10.5187
豈能	-10.5188
文章	-10.5189
梯	-10.5192
並用	-10.5193
道力	-10.5194
度人經	-10.5195
上卿	-10.5195
璽	-10.5195
掠	-10.5196
矧	-10.5196
馨	-10.5201
祭祀	-10.5201
盲	-10.5202
悶	-10.5202
監齋	-10.5203
釣	-10.5203
噓	-10.5203
頼	-10.5204
炁入符	-10.5206
偈	-10.5208
驕	-10.5209
火龍	-10.5209
世世	-10.521
夜光	-10.521
檀	-10.5211
吼	-10.5213
掌握	-10.5215
法位	-10.5218
者處斬	-10.5218
七百年	-10.5219
虛空	-10.5225
徹視	-10.5226
專行	-10.5226
諸方	-10.5227
靈寳大法司牒上	-10.523
牛馬	-10.5234
地下	-10.5238
青絲	-10.5243
方諸	-10.5245
通名	-10.5248
水池	-10.5258
下鬼	-10.5259
成形	-10.5263
侍從	-10.5268
上品妙經	-10.5272
而作	-10.5276
某身	-10.5276
方治	-10.5276
即爲	-10.5284
有敕	-10.5285
壇上	-10.5287
酆	-10.5288
遵奉	-10.5289
禄存	-10.5297
咽之	-10.53
追捉	-10.5301
聖帝	-10.5304
平坐	-10.5314
元景	-10.5316
丞	-10.532
哆	-10.5321
𧇊	-10.5323
伏地	-10.5323
島	-10.5325
東炁	-10.5325
匹	-10.5326
誘	-10.5327
瑕	-10.5329
綿綿	-10.5329
流水	-10.5329
妬	-10.533
魔精	-10.5331
滴	-10.5331
價	-10.5331
製	-10.5332
裹	-10.5332
閱	-10.5332
觜	-10.5333
粹	-10.5333
眇	-10.5334
簫	-10.5335
移徙	-10.5335
長生不死	-10.5336
書畢	-10.5337
千二百	-10.5337
西方白	-10.5338
飛捷	-10.5339
靈仙	-10.5342
和平	-10.5343
柯	-10.5343
之學	-10.5344
晨夕	-10.5347
蕃	-10.5351
酆都大帝	-10.5361
法主	-10.5361
九獄	-10.5361
有二	-10.5363
腹中	-10.5366
玄丹	-10.5382
靈君	-10.5386
天猷	-10.5387
豈可	-10.539
後有	-10.5393
劒訣	-10.5395
兇惡	-10.5397
金錢	-10.5397
區	-10.5399
日月之	-10.5403
死籍	-10.541
心火	-10.5411
鬼道	-10.5412
莫知	-10.5414
愼勿	-10.5418
大劫	-10.5418
至期	-10.5418
威猛	-10.5419
只今	-10.5424
姓某承誥奉行	-10.5426
醮筵	-10.5428
師尊	-10.5437
不盡	-10.5437
火師	-10.5446
謹牒年月日牒牒	-10.5454
怡	-10.5454
釘	-10.5454
要訣	-10.5455
疾疾	-10.5455
鷹	-10.5456
𫝊	-10.5457
縛鬼	-10.5457
霹	-10.5458
白書	-10.5461
牘	-10.5461
向北	-10.5461
敦	-10.5462
騰空	-10.5463
朝廷	-10.5463
歆	-10.5464
喫	-10.5464
駐劄	-10.5464
綺	-10.5465
庫	-10.5467
籟	-10.5467
驂	-10.5467
九華	-10.5468
鵝	-10.5472
者非	-10.5472
玉篇	-10.5473
氐	-10.5474
貴賤	-10.5476
煞鬼	-10.5477
不負	-10.5479
則是	-10.548
白元	-10.5481
各三	-10.5482
次以	-10.5483
瘟疫	-10.5486
而不知	-10.5488
中篇	-10.549
之首	-10.5491
運動	-10.5493
巳午	-10.5493
牓	-10.5496
無常	-10.5497
闕下	-10.5498
古法	-10.5505
雷法	-10.5505
神雷	-10.5505
君字	-10.5507
元始上帝	-10.5507
天目	-10.5512
俯仰	-10.5512
之郷	-10.5513
降眞炁	-10.5513
救苦天尊	-10.5514
長齋	-10.5518
願得	-10.552
太丹	-10.552
獄中	-10.5521
治病功曹	-10.5527
幽䰟	-10.5527
千年	-10.5527
不合	-10.5534
相傳	-10.5534
宫觀	-10.5536
玉仙	-10.5539
明皇	-10.5545
却以	-10.5547
見一	-10.5549
生門	-10.555
七色	-10.555
眞宰	-10.5551
所部	-10.5552
隂陽之	-10.5555
子曰	-10.5557
下世	-10.5557
左目	-10.5558
兩足	-10.556
畢乃	-10.5564
十里	-10.5568
超昇	-10.5569
黑霧	-10.5571
貪狼	-10.5571
大明	-10.5574
火令	-10.5575
西華	-10.5576
三昧	-10.5579
圈	-10.5579
烈火	-10.558
敷奏	-10.5588
抗	-10.5588
侣	-10.5588
者即	-10.559
而作是言	-10.559
冐	-10.559
在内	-10.559
無上黄籙大齋	-10.559
偷	-10.5591
掣	-10.5591
急急如上帝律令	-10.5592
伺候	-10.5594
椒	-10.5596
泣	-10.5598
散形	-10.5598
潰	-10.5601
此皆	-10.5602
苑	-10.5602
剖	-10.5604
十惡	-10.5605
歇	-10.5607
先須	-10.5609
天罡大聖	-10.561
考校	-10.5611
蛟龍	-10.5612
神也	-10.5614
灌注	-10.5616
蕩除	-10.5621
周旋	-10.5623
相生	-10.5628
黒書	-10.5629
長三寸	-10.5629
追䰟	-10.5633
太霄	-10.5637
正中	-10.5639
爲始	-10.5641
經同卷	-10.5643
星光	-10.5643
國家	-10.5651
星宫	-10.5654
玄真	-10.5656
正音	-10.5659
未生	-10.5667
皓靈	-10.5673
師友	-10.5674
大風	-10.5679
八難	-10.5693
萬年	-10.5693
罪咎	-10.5694
掌獄靈官	-10.5697
數也	-10.5697
莫能	-10.57
財物	-10.57
靈神	-10.5701
所出	-10.5702
凡遇	-10.5703
皇夫人	-10.5706
則無	-10.5709
浮雲	-10.571
之訣	-10.571
通眞	-10.5711
未時	-10.5712
說經	-10.5714
即愈	-10.5716
肘	-10.5716
歘	-10.5717
前驅	-10.5719
救治	-10.5719
其實	-10.5719
謄	-10.5721
廣大	-10.5722
一丸	-10.5722
擣	-10.5723
大力天丁	-10.5724
癡	-10.5724
薛	-10.5727
火星	-10.5729
襟	-10.5729
黄籙院	-10.5731
揖	-10.5732
裁	-10.5732
范	-10.5733
玊	-10.5734
狂風	-10.5737
太𡻕	-10.5739
不食	-10.574
先天一炁	-10.574
袁	-10.5741
小兆	-10.5741
簡文	-10.5743
湛然	-10.5746
星帥	-10.5749
緑靴	-10.5752
羅酆	-10.5754
修身	-10.5755
雷將	-10.5756
科法	-10.576
生薑	-10.576
火部	-10.5767
眞道	-10.5767
娑	-10.5768
不測	-10.5768
法門	-10.5769
疊書	-10.5769
紫皇	-10.5774
萬聖	-10.5787
若無	-10.5791
女青	-10.5794
晏	-10.5796
眞師	-10.5801
戌時	-10.5804
畢引	-10.5806
同學	-10.5807
土府	-10.5813
其名	-10.5817
宫主	-10.5819
所載	-10.5823
五雷使者	-10.5826
丹霄	-10.5835
黄老	-10.5837
古之	-10.584
一片	-10.5851
乗雲	-10.5855
汙	-10.586
請稱法位具位	-10.5861
燒之	-10.5862
窟	-10.5864
内諱	-10.5864
麾	-10.5865
蹈	-10.5865
十五日	-10.5867
七眞	-10.5867
衝天	-10.5867
誇	-10.5868
決	-10.5868
鑚	-10.5868
矯	-10.587
昆	-10.587
皁	-10.587
嵗	-10.5871
流傳	-10.5871
速召	-10.5873
核	-10.5878
鉢	-10.5884
朝奏	-10.589
而起	-10.589
祝畢	-10.5893
神變	-10.5894
太一眞君	-10.5895
下土	-10.5896
五岳	-10.5898
三轉	-10.5899
洞元	-10.5903
其色	-10.5906
飛裙	-10.5909
閃電	-10.5911
仙矣	-10.5918
九晨	-10.5923
靈驗	-10.593
山水	-10.593
故以	-10.5933
符誥	-10.5935
以其	-10.5936
常當	-10.5936
雷府	-10.5938
九真	-10.5938
六根	-10.5939
福慶	-10.594
諦	-10.5943
凡夫	-10.5944
今以	-10.5951
所奏	-10.5954
雌	-10.596
不肯	-10.596
下至	-10.5965
隂精	-10.5966
特與	-10.5968
助吾	-10.5969
便宜	-10.5976
一體	-10.5976
所犯	-10.5983
洞照	-10.5985
之力	-10.5987
勑符呪	-10.5992
丹靈	-10.5995
孩	-10.5997
採訪	-10.5998
洎	-10.5998
郞	-10.6001
閭	-10.6001
攅	-10.6002
將兵	-10.6003
除邪	-10.6003
縫	-10.6003
段	-10.6004
滛	-10.6004
君一人官將一百二十人治	-10.6004
誅斬	-10.6004
梨	-10.6005
十枚	-10.6007
舌拄上腭	-10.6007
狄	-10.6009
風伯雨師	-10.6009
欵	-10.6009
符右	-10.6009
竇	-10.6011
合用	-10.6011
忠孝	-10.6013
叟	-10.6014
當日	-10.6015
長七寸	-10.6016
慎勿	-10.6016
小豆	-10.6016
披髮	-10.6019
脇	-10.6019
幽爽	-10.602
斗柄	-10.6021
北斗七元	-10.6021
衆仙	-10.6021
又方治	-10.6021
喝云	-10.6023
雷司	-10.6025
十過	-10.6027
七祖父母	-10.6027
翊聖	-10.6028
傳言	-10.6028
𠔃	-10.6031
之君	-10.6035
公訟	-10.6035
本宫	-10.604
而言	-10.6041
乗空	-10.6042
敕㫖	-10.6043
其言	-10.6044
俯垂	-10.6048
散壇	-10.6049
壬子	-10.6052
急奉	-10.6054
光中	-10.6056
身爲	-10.6059
自知	-10.6064
金銀	-10.6065
妄傳	-10.6065
黃帝	-10.6067
與諸	-10.6069
一面	-10.6071
日出	-10.6073
調和	-10.6076
兆民	-10.6078
八年	-10.6078
凡受	-10.6087
三華	-10.6088
伐惡	-10.6089
四十二	-10.6089
吾道	-10.6091
號爲	-10.6097
玉室	-10.6098
西向	-10.6099
丹霞	-10.61
有形	-10.6102
二將	-10.6104
回向	-10.6108
某年	-10.6111
濟物	-10.6114
仍乞	-10.6121
頭建	-10.6121
虚書	-10.6121
南北	-10.6131
五升	-10.6135
所召	-10.6138
𩳐	-10.6139
重隂	-10.614
求之	-10.6142
霽	-10.6143
疼	-10.6145
霖	-10.6145
啖	-10.6145
叩齒七通	-10.6146
内觀	-10.6146
飡	-10.6146
迂	-10.6146
措	-10.6147
簪	-10.6149
是名	-10.6151
並與	-10.6151
麄	-10.6152
吊	-10.6153
二尺	-10.6153
脊	-10.6153
义	-10.6155
之災	-10.6161
乍	-10.6161
百餘	-10.6162
服藥	-10.6165
令得	-10.6166
祈禳	-10.6166
二十二	-10.6169
相應	-10.6173
血食	-10.6173
九千	-10.6176
雲氣	-10.6176
四生	-10.6176
不可不	-10.6177
一箇	-10.618
北海	-10.6187
龍雷	-10.6187
九醜	-10.6188
不違	-10.619
伏念	-10.6193
鬼精	-10.6194
安樂	-10.6196
齋醮	-10.6197
爍	-10.6198
倦	-10.62
南方赤帝	-10.6202
玉液	-10.6204
字上	-10.6205
制伏	-10.6208
青色	-10.6211
至聖	-10.6215
投簡	-10.6215
所指	-10.6216
紫元	-10.6223
有司	-10.6225
神龍	-10.6228
洞清	-10.623
面東	-10.6234
七千	-10.6236
有情	-10.6237
星中	-10.6238
申聞	-10.6244
面北	-10.6249
純陽	-10.6252
上將	-10.6257
鬼名	-10.6258
香上	-10.6262
巽宫	-10.6268
書一	-10.6268
太守	-10.627
不孝	-10.6273
内音	-10.6273
密呪	-10.6275
下民	-10.6278
而能	-10.6278
屑	-10.628
𩲃	-10.6285
紏	-10.6287
卵	-10.6288
熊	-10.6289
不可思議	-10.629
寔	-10.6291
翰	-10.6291
裝	-10.6291
各七	-10.6292
縮	-10.6293
形體	-10.6295
僕射	-10.6295
列位	-10.6298
莽	-10.6299
故炁	-10.63
通用	-10.6303
戍	-10.6306
法輪	-10.6307
江州	-10.6307
神真	-10.631
流入	-10.6312
幽夜	-10.6315
羣魔	-10.6315
噀水	-10.6318
使者符	-10.6319
召龍	-10.6325
髙仙	-10.6329
門人	-10.6335
白紙	-10.6335
自身	-10.6338
人爲	-10.6338
如違	-10.6343
流星	-10.6344
皆爲	-10.6353
三省	-10.6354
運化	-10.6354
二十六	-10.6354
祖宗	-10.6354
六十四	-10.6358
凶惡	-10.6359
中品	-10.636
我者	-10.6371
患家	-10.6375
運轉	-10.6378
謝罪	-10.6389
主雷	-10.6391
成一	-10.6391
不自	-10.6392
輕慢	-10.6393
人多	-10.6394
太始	-10.6395
心神	-10.6399
虛無	-10.6401
魈	-10.6401
求財	-10.6407
虛皇	-10.6408
不降	-10.6408
敕召	-10.6411
傷人	-10.6417
巴	-10.6424
守之	-10.6427
閬	-10.6427
案判官地府管	-10.6428
相見	-10.6428
墟	-10.6429
色之光	-10.6429
蹇	-10.643
話	-10.6432
撚	-10.6433
恍	-10.6434
蔡	-10.6434
淋	-10.6435
太子	-10.6435
讎	-10.6436
村	-10.6436
慚	-10.6436
此名	-10.6436
挹	-10.6436
鼔	-10.6437
顛	-10.6437
太微天帝君	-10.6437
俠	-10.6437
凋	-10.6438
豪	-10.6438
寅時	-10.6439
二斗	-10.6441
聊	-10.6441
飄飄	-10.6442
譯	-10.6442
荀	-10.6443
辜	-10.6443
十五人	-10.6444
昴	-10.6445
章從事	-10.6446
太㣲	-10.6451
紫㣲	-10.6451
主將	-10.6452
戊辰	-10.6453
無私	-10.6459
若非	-10.646
又呪	-10.646
丹臺	-10.6461
丁丑	-10.6462
若欲	-10.6462
不可得	-10.6463
不伏	-10.6463
猛獸	-10.6465
等事	-10.6466
丹誠	-10.647
至妙	-10.647
中國	-10.6474
水盂	-10.6476
二氣	-10.6477
雷光	-10.648
十萬	-10.6484
無由	-10.6484
正直	-10.6486
速爲	-10.649
丙子	-10.6491
真師	-10.6497
終始	-10.6498
矣若	-10.6499
燒鬼	-10.65
都統	-10.6504
春秋	-10.6505
之號	-10.6505
臨目	-10.651
斛	-10.6511
天剛	-10.6514
至人	-10.6515
二曰	-10.6515
九竅	-10.6516
長春	-10.6519
卿從官十	-10.6523
面目	-10.6526
追取	-10.6527
降雨	-10.6527
玉名	-10.6532
者自	-10.6534
祭之	-10.6538
禳災	-10.654
護命	-10.6541
明月	-10.6541
日宫	-10.6545
劈	-10.6545
以道	-10.6547
九老	-10.6547
萬仙	-10.655
法曰	-10.6555
伏藏	-10.6563
神霄玉清	-10.657
謹具狀上申	-10.6572
軸	-10.6572
永不	-10.6572
捧香驛龍騎吏侍香金童傳言散花	-10.6574
䰢	-10.6576
陰炁	-10.6577
污	-10.6577
俞	-10.6578
嚤	-10.6579
威德	-10.6579
饌	-10.658
啓白	-10.6581
玉樓	-10.6584
法職	-10.6585
巴豆	-10.6586
玄宫	-10.6586
赤文	-10.6587
獵	-10.6589
某州	-10.6592
五臓	-10.6593
劔訣	-10.6594
轉經	-10.6595
玄牝	-10.6596
中皇	-10.6598
仗劔	-10.66
營衛	-10.6601
歷代	-10.6604
可也	-10.661
三業	-10.6622
降真	-10.6624
可見	-10.6624
仙王	-10.6628
受者	-10.6636
官將吏兵	-10.6639
於前	-10.6647
人人	-10.6647
宫室	-10.6647
宣詞	-10.6647
蕩穢	-10.6652
酉時	-10.6653
福德	-10.6662
攝捉	-10.6664
奉道某	-10.6664
狀申	-10.6664
在地	-10.6664
武帝	-10.6667
應有	-10.6669
咽氣	-10.6672
粒	-10.6688
至理	-10.6692
經典	-10.6705
眞皇	-10.6708
黄道	-10.6709
玄珠	-10.6715
杳	-10.6716
天經	-10.6718
立教	-10.6719
溟泠	-10.672
鑊湯	-10.672
諸行法官	-10.6724
迍	-10.6725
僃	-10.6726
二十四炁	-10.6728
沉淪	-10.6728
艾	-10.6729
粮	-10.6729
抜	-10.673
僻	-10.6731
圃	-10.6731
扃	-10.6732
馥	-10.6733
饑	-10.6735
央	-10.6736
啞	-10.6737
朋	-10.6737
三時	-10.674
叢	-10.6741
内景	-10.6742
之性	-10.6742
運雷	-10.6745
齋修	-10.6745
金色	-10.6747
精邪	-10.6749
變爲	-10.675
香煙	-10.675
木郞	-10.6752
壬辰	-10.6755
一大	-10.6758
符到奉行	-10.6758
吸入	-10.6761
傷寒	-10.6766
所主	-10.6767
一應	-10.6767
無事	-10.6774
考官	-10.6777
玄微	-10.6779
壇下	-10.6779
速行	-10.6783
右呪畢	-10.6787
一竅	-10.6788
黄色	-10.6789
四分	-10.6795
善人	-10.6799
作禮	-10.6804
押赴	-10.6807
如左	-10.681
有異	-10.6811
歸命	-10.6811
無他	-10.6811
照臨	-10.682
曹局	-10.6822
刀山	-10.6823
玉真	-10.6824
三朝	-10.6825
文牒	-10.6835
但以	-10.6836
符水	-10.6836
一十	-10.6839
杏	-10.6844
法以	-10.6846
知之	-10.6849
帝前	-10.685
玄雲	-10.6852
皇老	-10.6853
須要	-10.6854
靡不	-10.6856
道家	-10.6858
分爲	-10.686
狀如	-10.686
撞	-10.6863
變成	-10.6866
玄元始	-10.6866
此方	-10.6867
真道	-10.6869
太靈	-10.6869
不堪	-10.6871
戚	-10.6872
謹言	-10.6873
嚧	-10.6873
四年	-10.6874
下情不勝	-10.6875
天炁	-10.6875
夫婦	-10.6876
結璘	-10.6876
諸鬼	-10.6877
蛟	-10.6878
肌	-10.6878
瘥	-10.6878
豹	-10.6879
公文	-10.6879
揆	-10.6879
飛神	-10.6879
瓊宫	-10.688
叛	-10.688
涵	-10.6881
邇	-10.6881
太上無極大道	-10.6881
艱	-10.6881
逓	-10.6882
時人	-10.6882
朱宫	-10.6883
渠	-10.6884
閼伯	-10.6885
殆	-10.6887
糞	-10.6887
仙傳拾遺	-10.6887
雷使者	-10.6887
師曰凡	-10.6888
直至	-10.6889
星君天	-10.6889
胞胎	-10.689
韋	-10.6891
第四十	-10.6891
天靈	-10.6894
武曲	-10.6895
霸	-10.6896
凡修	-10.6896
興隆	-10.6897
圈内	-10.69
閉塞	-10.6901
飛奏	-10.6902
津液	-10.6902
清都	-10.6904
開壇	-10.6906
符牒	-10.6909
頓服	-10.6909
太上正一	-10.6916
槌	-10.6917
扶持	-10.6917
丁酉	-10.6923
垂慈	-10.6926
本將	-10.6931
二道	-10.6931
存心	-10.6933
真宰	-10.6937
本家	-10.6937
主管	-10.6949
太霞	-10.695
謹以	-10.695
道法會元卷之	-10.6954
江海	-10.6954
香官	-10.6957
離合	-10.6959
行年	-10.6961
監度	-10.6964
之可	-10.6965
䰟𩲸	-10.6967
違者	-10.6968
聖意	-10.6968
愼之	-10.6972
玄機	-10.6973
罪愆	-10.6975
州縣	-10.6983
首謝	-10.6987
斗罡	-10.6989
未免	-10.699
教化	-10.6993
至心	-10.6995
隱文	-10.6998
啓請	-10.6999
此日	-10.7004
穩	-10.7008
上書	-10.7009
可乎	-10.701
抵	-10.7011
滅度	-10.7015
昇仙	-10.7015
卯酉	-10.7015
明鏡	-10.7019
忽有	-10.7024
科儀	-10.7026
勲	-10.7026
特爲	-10.7027
攸	-10.7028
藏之	-10.7028
背書	-10.7028
關召	-10.7029
星火奉行	-10.7029
輸	-10.703
滓	-10.703
黄籙大齋	-10.7031
擢	-10.7031
舎	-10.7032
一合來下	-10.7033
庇	-10.7035
刊	-10.7035
衛靈	-10.7036
雷車	-10.7037
討	-10.7037
模	-10.7038
炬	-10.7038
虬	-10.7039
之餘	-10.704
羅天	-10.704
酷	-10.7041
泊	-10.7042
杓	-10.7042
顛倒	-10.7042
差降	-10.7043
係薦	-10.7043
濡	-10.7043
澡	-10.7044
謹奉請	-10.7044
順行	-10.7046
削除	-10.705
於内	-10.7052
昭示	-10.7053
系	-10.7054
歸依	-10.7055
保安	-10.7056
靈風	-10.7056
黑書	-10.7057
七人	-10.7057
而傳	-10.706
亡靈	-10.7061
非有	-10.7061
學人	-10.7061
天庭	-10.7061
坎宫	-10.7062
玉書	-10.7068
持戒	-10.7075
登仙	-10.7076
清炁	-10.7078
修習	-10.7079
七政	-10.7091
官君將吏	-10.7093
吉利	-10.7095
攝唵	-10.7096
授之	-10.7103
佩身	-10.7105
非道	-10.7106
篇目	-10.7106
頒下	-10.7108
所言	-10.7112
香燈	-10.7113
呪書	-10.7119
收捕	-10.7121
恩光	-10.7122
通真	-10.7125
帝君律令	-10.7129
三十六人	-10.7132
金玄	-10.7136
急急如律令符召	-10.7138
華山	-10.714
數日	-10.7141
蓋之	-10.7142
曹治	-10.7143
行令	-10.7143
電母	-10.7144
信香符	-10.7145
不差	-10.7146
必先	-10.7147
滿散	-10.7147
侍經	-10.7147
受煉	-10.7151
五色雲	-10.7152
鼻中	-10.7153
干犯	-10.7164
狀式	-10.7164
眞元	-10.7171
馘魔	-10.7171
青天	-10.7179
此等	-10.718
帝眞	-10.7186
薫	-10.7187
火池	-10.7188
俊	-10.7188
列宿	-10.7189
擔	-10.719
先以	-10.719
无極大道	-10.719
葱	-10.7191
贊	-10.7191
月建	-10.7192
汚	-10.7193
之魂	-10.7194
髣髴	-10.7194
叶	-10.7194
嚥液	-10.7194
藻	-10.7195
鳩	-10.7195
威力	-10.7195
竿	-10.7195
線	-10.7196
覓	-10.7196
上相青童君	-10.7196
償	-10.7197
有四	-10.7198
掘	-10.7198
某郡縣郷里	-10.7198
柏	-10.7199
撒	-10.7201
華陽	-10.7202
蒲	-10.7202
金火天丁	-10.7202
蝗	-10.7203
帽	-10.7203
庶幾	-10.7207
鬱鬱	-10.7208
秋三月	-10.7209
厄大聖北斗七元君能解	-10.721
金房	-10.7211
列聖	-10.7212
鬼王	-10.7212
沓	-10.7212
群魔	-10.7213
太歳年月日	-10.7217
熖	-10.7218
無生	-10.7223
泥丸宫	-10.7224
執符	-10.7225
圓成	-10.7226
法用	-10.7231
又日	-10.7239
一轉	-10.7243
我形	-10.7245
金闕帝君	-10.725
南炁	-10.725
煞伐	-10.7252
當令	-10.7254
救護	-10.7256
來生	-10.7262
飛火	-10.7262
▲▲	-10.7263
玄上	-10.7264
靜夜	-10.7265
亥時	-10.7272
玉寳	-10.7279
念念	-10.7281
欲得	-10.7283
也如	-10.7284
沉滯	-10.7286
人情	-10.7287
七世	-10.7289
六日	-10.7289
水帝	-10.7289
今人	-10.7291
合道	-10.7293
焚修	-10.7295
違科	-10.7297
永離	-10.7299
申牒	-10.7313
不起	-10.7321
高明	-10.7321
師子	-10.7325
所爲	-10.7328
清濁	-10.7332
君將吏	-10.7334
請福	-10.734
日直	-10.7343
涓	-10.7343
照明	-10.7344
潭洞	-10.7345
藝	-10.7346
拜表	-10.7347
爲本	-10.7348
挾	-10.7348
字子	-10.7348
貸	-10.7349
𥝠	-10.735
其氣	-10.735
又何	-10.735
蕆	-10.7351
逞	-10.7354
岡	-10.7355
跣足	-10.7357
蠟	-10.7358
字號計七卷	-10.7358
旱魃	-10.7358
桓	-10.7358
急準	-10.7359
有犯	-10.736
舘	-10.736
填	-10.736
无有	-10.7362
雷符	-10.7363
道徳真經	-10.7363
勾陳	-10.7364
即使	-10.7365
戊戌	-10.7367
無量度人	-10.7367
祭鍊	-10.7368
光耀	-10.7368
流通	-10.7369
師傳	-10.737
丙午	-10.7375
爲主	-10.7376
抱一	-10.7376
月十五日	-10.7377
地仙	-10.7377
雷帝	-10.7378
遵承	-10.7379
冥曹	-10.738
猛烈	-10.7382
上帝律令	-10.7385
或曰	-10.7386
八千	-10.7387
煥爛	-10.739
之命	-10.739
發爐	-10.739
九天生神	-10.739
香湯	-10.7391
使其	-10.7395
都官	-10.7395
之格	-10.7397
無英	-10.7397
飛行上清	-10.7397
形影	-10.7399
石室	-10.7399
飛華	-10.7403
保護	-10.7404
千萬丈	-10.741
運行	-10.7418
師資	-10.7427
人知	-10.7428
混化	-10.7434
節度	-10.7434
得者	-10.7435
所陳	-10.7439
準此	-10.7442
辰時	-10.7444
咸令	-10.7445
玄章	-10.7448
可不	-10.7454
乞降	-10.7457
先於	-10.7459
以酒	-10.746
紫氣	-10.7461
呪訣	-10.7461
幽靈	-10.7461
道法會元卷之一百	-10.7461
萬病	-10.7462
心爲	-10.7467
玄老	-10.7471
玉芝	-10.7471
内院	-10.7475
不可輕	-10.7476
靈童	-10.7477
壇庭	-10.748
一陽	-10.7483
法身	-10.7485
以示	-10.749
中和	-10.749
附方	-10.749
上御	-10.7493
后土	-10.7494
務在	-10.7496
月光	-10.7499
十戒	-10.7499
患身	-10.7501
有令	-10.7502
正氣	-10.7503
黑帝	-10.7505
三十萬兵	-10.7507
西方白帝	-10.7508
仙卿	-10.7508
魑	-10.7509
仙籍	-10.7509
擅	-10.7509
耆	-10.751
案上	-10.7512
之綬	-10.7512
北辰	-10.7512
六丁六甲	-10.7513
躋	-10.7513
鈔	-10.7513
遜	-10.7514
諾	-10.7517
陷	-10.7517
貟	-10.7517
消亡	-10.7517
雌雄	-10.7518
无不	-10.7519
粥	-10.752
漁	-10.752
真氣	-10.752
節次	-10.752
恕	-10.7521
譚	-10.7521
泓	-10.7522
瀉	-10.7522
戯	-10.7522
詰	-10.7524
金容	-10.7525
問之	-10.7527
山精	-10.7527
三陽	-10.7528
符到	-10.7529
嗣教	-10.7531
正令	-10.7534
徒勞	-10.7535
同志	-10.7538
死亡	-10.7539
寳誥	-10.7541
洞經	-10.7547
之德	-10.7547
三四	-10.755
正心	-10.7553
誠惶誠恐稽首頓首再拜	-10.7555
起居	-10.7559
庚子	-10.756
戊子	-10.756
其時	-10.756
之職	-10.7562
爲道	-10.7565
玉郎	-10.7568
去皮	-10.7569
三十六部	-10.7571
大化	-10.7572
水部	-10.7575
廷	-10.7576
五千	-10.7579
三曰	-10.7585
微呪曰	-10.7587
之圖	-10.7587
永無	-10.759
黄籙齋	-10.7596
青城	-10.7597
月日時	-10.7599
右符用	-10.7602
萬眞	-10.7603
通逹	-10.7605
之色	-10.7605
乾元	-10.7607
升度	-10.7608
侍香	-10.7611
急攝	-10.7613
雲路	-10.7614
用黄紙	-10.7621
始青	-10.7622
始終	-10.7623
秋分	-10.7623
次思	-10.7626
子午斗	-10.7627
浮空	-10.7631
刻書	-10.7633
癘	-10.7638
三將軍	-10.7639
掐辰文	-10.7639
藏於	-10.7641
保奏	-10.7645
億萬衆	-10.7646
靜定	-10.7646
珮	-10.7648
說戒	-10.765
以為	-10.766
法界	-10.7661
聰	-10.7661
帝晨	-10.7661
道祖	-10.7662
羣仙	-10.7663
腴	-10.7664
嫌	-10.7667
蟾	-10.7669
故爲	-10.7669
亦非	-10.7669
眞科	-10.7669
未敢自專	-10.7669
埃	-10.767
凢	-10.7672
玉房	-10.7672
痢	-10.7673
慘	-10.7674
纖	-10.7674
郷里	-10.7675
與道合真	-10.7675
萬神咸聽	-10.7676
邪師	-10.7677
霈	-10.7677
壅	-10.7677
𥿄	-10.7677
儔	-10.7677
掇	-10.7678
宇宙	-10.7678
趙公明	-10.7681
圍繞	-10.7681
一合下降	-10.7681
郷貫	-10.7683
聳	-10.7684
昩	-10.7684
我道	-10.7691
紅袍	-10.7691
洪恩	-10.7691
利貞	-10.7691
無極大道	-10.7692
從心	-10.7694
五老上帝	-10.7696
黑面	-10.77
用心	-10.7702
肘後	-10.7705
也蓋	-10.7705
本方	-10.7706
當司	-10.7707
目前	-10.7711
走失	-10.7711
長九寸	-10.7713
爲善	-10.7716
受道	-10.772
雷門	-10.772
北帝曰	-10.7721
未見	-10.7721
九天丈人	-10.7722
坐卧	-10.7722
功徳	-10.7723
大乘	-10.7724
駕龍	-10.7725
牒至	-10.7725
附身	-10.7726
十二日	-10.7726
恭惟	-10.7732
斬妖	-10.7736
章文	-10.7737
則神	-10.7737
玄化	-10.7739
太極真人	-10.7749
千金	-10.7749
一斗	-10.7752
一事	-10.7752
之室	-10.7755
不免	-10.7755
佩服	-10.7758
明師	-10.776
盟誓	-10.7761
萬氣	-10.7765
飛步	-10.7768
歸一	-10.7769
仙吏	-10.7769
殺害	-10.777
此人	-10.7771
解結	-10.7772
急急如律令右	-10.7774
二星	-10.7779
嚩	-10.778
福堂	-10.7781
立秋	-10.7785
靈音	-10.7787
姓某狀	-10.7789
乙丑	-10.779
仰惟	-10.7791
燈燭	-10.7793
經教	-10.7795
有生	-10.7796
足下	-10.7804
五指	-10.7811
遍滿	-10.7816
令其	-10.7823
福禄	-10.7823
心印	-10.7823
各三十二人	-10.7826
官事	-10.7827
殿下	-10.7831
四將	-10.7835
具法位臣姓某	-10.7836
空三行	-10.7836
躁	-10.7837
香官使者左右龍虎君侍香諸靈官當令	-10.7838
殄	-10.7838
特降	-10.7838
裴	-10.7839
茫	-10.784
百事	-10.784
呼風	-10.784
浹	-10.7841
九人	-10.7841
燃	-10.7841
肚	-10.7842
太乙救苦天尊	-10.7843
騁	-10.7843
闘	-10.7844
皂袍	-10.7844
蝕	-10.7844
行司	-10.7845
搗篩	-10.7845
尉	-10.7848
懈	-10.7848
潮	-10.7849
仞	-10.7849
券	-10.785
聻	-10.7853
躭	-10.7853
徊	-10.7854
之祕	-10.7854
三禮	-10.7855
元洞	-10.7855
矣其	-10.7856
者斬	-10.7858
禱祈	-10.7859
恠異	-10.786
緋衣	-10.7861
燄	-10.7862
一行	-10.7864
激切	-10.7864
平等	-10.7864
精炁	-10.7865
件	-10.7866
毒龍	-10.7866
隱居	-10.7867
浩劫	-10.7871
大使	-10.7871
己身	-10.7875
生前	-10.7875
合明	-10.7877
訣曰	-10.7879
聰明	-10.7882
黃籙	-10.7888
氣君召	-10.7897
幽獄	-10.7898
救人	-10.7898
皂衣	-10.79
罡炁	-10.7902
將佐	-10.7904
妄想	-10.7904
鷄子	-10.7906
其意	-10.7907
十分	-10.7908
勿以	-10.7908
有知	-10.7909
誓願	-10.7914
紫虛	-10.7914
流珠	-10.7917
成功	-10.7925
自是	-10.7926
通幽	-10.7928
千眞	-10.7929
紫煙	-10.793
洞觀	-10.7934
三七	-10.7934
大君	-10.7938
日鬼名	-10.7941
一吸	-10.7942
功滿	-10.7945
主火	-10.795
救民	-10.7951
希恩	-10.7951
召靈	-10.7953
君諱	-10.7956
炎火	-10.7958
謁見	-10.7959
齋科	-10.7962
末學	-10.7963
萬億	-10.7965
速赴	-10.7972
敕令	-10.7973
圓明	-10.7974
又方取	-10.7975
起風	-10.7977
玄景	-10.7986
一盞	-10.7986
靈旛	-10.7987
禱祀	-10.7992
受之	-10.7993
𩵄	-10.7994
積功	-10.7994
噠	-10.7995
二使者	-10.7997
内視	-10.8005
神印	-10.8006
目光	-10.8008
㖿	-10.8008
湏	-10.8009
嚮	-10.8009
傑	-10.8011
躔	-10.8011
辤	-10.8012
叫	-10.8012
金名	-10.8013
不寧	-10.8013
八㑹	-10.8014
頰	-10.8015
唇	-10.8015
字號計十二卷	-10.8016
峙	-10.8016
料	-10.8017
蟻	-10.8018
䙱	-10.8019
字號計六卷	-10.8021
呌	-10.8022
一卷有符	-10.8022
罕	-10.8022
搆	-10.8024
迦	-10.8024
昨據	-10.8025
大雨	-10.8027
誅伐	-10.8031
斗府	-10.8032
上符	-10.8032
本師	-10.8033
之體	-10.8034
五尺	-10.8035
八風	-10.8036
其家	-10.8036
監察	-10.8036
隨其	-10.8037
元父	-10.8038
癸亥	-10.8041
乞賜	-10.8041
塵勞	-10.8042
金火	-10.8043
樹木	-10.8046
北都	-10.8048
請問	-10.8048
消灾	-10.8049
千日	-10.8049
庚寅	-10.8049
五芽	-10.8056
四溟	-10.8056
奏章	-10.8058
也又曰	-10.8063
章一通	-10.8065
殊不知	-10.8065
制御	-10.8068
六甲六丁	-10.8069
謹謹	-10.8069
沖和	-10.8069
利濟	-10.807
顔色	-10.8071
行道之所自然生金液丹碧芝	-10.8071
歷劫	-10.8074
慶雲	-10.8078
无形	-10.8079
今生	-10.8086
變景	-10.8095
衣食	-10.8098
玄一	-10.8099
之衣	-10.8099
一符	-10.8101
本命日	-10.8102
張使者	-10.8105
畢即	-10.8109
大地	-10.8112
萬歲	-10.8113
開目	-10.8114
謹依	-10.8117
相逢	-10.8121
者謂	-10.8123
精心	-10.8132
二帥	-10.8133
自當	-10.8133
五方五帝	-10.8135
身得	-10.8135
一半	-10.8136
各一兩	-10.8136
修鍊	-10.8137
道門	-10.814
之雲	-10.814
及其	-10.8141
味甘	-10.8147
再三	-10.8152
玉精	-10.8153
存焉	-10.8155
戒律	-10.8156
神明君姓	-10.8163
無以	-10.8164
之情	-10.8164
自古	-10.8165
七百	-10.8168
利益	-10.8172
神府	-10.8174
城隍里社	-10.8176
行道法事陞壇如式	-10.8178
隊	-10.818
菴	-10.8181
坊	-10.8181
劃	-10.8181
顫	-10.8181
誣	-10.8181
讚	-10.8183
須至申聞者右謹具狀申	-10.8184
嫉	-10.8184
篩	-10.8186
優	-10.8186
也然	-10.8186
協	-10.8186
各還	-10.8186
天降	-10.8186
具位臣姓某	-10.8186
腐	-10.8187
胥	-10.8188
盪	-10.8188
娥	-10.8189
傲	-10.8189
十二河源	-10.8189
猿	-10.8191
誑	-10.8191
葩	-10.8191
佞	-10.8191
鼓舞	-10.8191
凍	-10.8192
金木水火土	-10.8193
衆人	-10.8193
謀望	-10.8194
兌	-10.8194
此則反	-10.8196
乃至	-10.8197
織	-10.8197
刀圭	-10.8198
衆妙	-10.8199
即差	-10.8201
無停	-10.8203
稀	-10.8205
丞相	-10.8205
給付	-10.8205
堅固	-10.8206
祕要	-10.8206
之禮	-10.8211
丁亥	-10.8212
海嶽	-10.8215
教門	-10.8215
殺人	-10.8217
恭敬	-10.8218
五常	-10.8219
終日	-10.8219
申酉	-10.8227
九宸	-10.8229
身入	-10.823
差又方	-10.8234
天尊告曰	-10.8236
千妖	-10.8238
故有	-10.8241
人生	-10.8242
神州	-10.8242
而止	-10.8243
都講	-10.8248
心上	-10.8248
復歸	-10.8249
玄象	-10.825
答云	-10.8252
天界	-10.8256
不可得而	-10.8257
髙玄	-10.8259
絞	-10.8259
天光	-10.8261
亦然	-10.8263
平安	-10.8268
有事	-10.8269
以青	-10.827
文移	-10.8271
手中	-10.8273
未盡	-10.8274
心心	-10.8274
黄氣	-10.8282
不散	-10.8287
當院	-10.8287
開元	-10.8288
不假	-10.8289
謹奏	-10.8291
右目	-10.8299
生萬物	-10.8299
年命	-10.8301
赤衣	-10.831
直符使者	-10.8311
景雲	-10.8312
不順	-10.8313
受書	-10.8315
取罡炁	-10.8316
未應	-10.8317
欻	-10.832
藥物	-10.8321
密念	-10.8322
畢次	-10.8323
孛	-10.8324
臣謹	-10.8324
大悲	-10.8329
不失	-10.8329
對曰	-10.8337
六星	-10.8339
直齋功曹百二十人出	-10.834
有爲	-10.8341
所薦亡	-10.8341
一句	-10.8342
相對	-10.8344
小便	-10.8345
召雷神	-10.8345
歸於	-10.8347
道徳	-10.8348
繪	-10.8351
炁布	-10.8352
善果	-10.8353
揭	-10.8353
山澤	-10.8356
荅	-10.8356
樵	-10.8358
人倫	-10.8359
璣	-10.8359
綉	-10.836
頽	-10.8362
長生久視	-10.8362
遼	-10.8363
綸	-10.8363
忝	-10.8364
援	-10.8364
摶	-10.8364
扉	-10.8365
你	-10.8366
唤	-10.8366
一千	-10.8367
峨	-10.8368
靈山	-10.8368
不可思議功德	-10.8368
棒	-10.8368
蜂	-10.8369
天地水三官	-10.8371
奏啓	-10.8371
七月七日	-10.8372
都講舉	-10.8373
中有一	-10.8373
弃	-10.8373
雖然	-10.8377
衣青	-10.8377
嘔	-10.8377
不論	-10.8382
在於	-10.8383
恭準	-10.8384
進奏	-10.8386
起於	-10.8388
鬱儀	-10.8393
玉曆	-10.8394
進拜	-10.8395
十六字	-10.8396
不吉	-10.8397
普告三界	-10.8397
信香	-10.8398
何必	-10.8399
交媾	-10.84
宣揚	-10.84
玄文	-10.8404
依律	-10.8406
三元君	-10.8408
不滅	-10.841
洞眞太上	-10.8412
始於	-10.8412
赦罪	-10.8413
蒙恩	-10.8413
各五	-10.8414
以求	-10.8415
之次	-10.8417
經籙	-10.8417
髙尊	-10.8418
横天	-10.8418
當得	-10.8419
答言	-10.842
凡欲	-10.8423
四門	-10.8424
小吏	-10.8426
風霆	-10.843
好事	-10.8432
立應	-10.8432
我等	-10.8432
邪正	-10.8432
三千六百	-10.8437
閃	-10.8438
星星君	-10.8439
聽吾	-10.8439
鬼妖	-10.844
此呪	-10.8442
飛龍騎吏	-10.8443
大道君	-10.8445
都功	-10.8446
先當	-10.8449
萬有	-10.8449
相隨	-10.8452
于前	-10.8458
將帥	-10.8458
地水	-10.8463
奏事	-10.8464
四轉	-10.8465
今年	-10.8472
上起	-10.8473
犯者	-10.8478
帝皇	-10.848
得爲	-10.8481
高下	-10.8487
玉格	-10.8489
入我	-10.8492
君臣	-10.8493
之澤	-10.8496
雷霹靂	-10.8498
奏請	-10.8498
學之士	-10.8498
見聞	-10.8498
太一帝君	-10.8499
詩曰	-10.8502
無非	-10.8502
山下	-10.8509
差將	-10.851
未可	-10.8512
文檄	-10.8513
廣度	-10.8514
九色之	-10.8515
之語	-10.8517
以意	-10.8524
十二萬人	-10.8525
糺	-10.8533
椿	-10.8533
干冒天威	-10.8533
立於	-10.8533
謹牒年月日牒	-10.8534
南昌上宫	-10.8534
些	-10.8536
銖	-10.8537
柴	-10.8538
鬰	-10.8538
喘	-10.8538
立獄	-10.8539
叩齒二十四通	-10.854
暨	-10.854
齋官某	-10.854
麥	-10.854
皷	-10.8541
番	-10.8541
粘	-10.8541
脯	-10.8542
芥	-10.8543
眞氣	-10.8544
遵行	-10.8546
戊癸	-10.8547
驟	-10.8548
家門	-10.8548
降魔	-10.8548
尊卑	-10.8551
之期	-10.8551
潛	-10.8552
蟄	-10.8552
狹	-10.8553
上逹	-10.8561
祈雪	-10.8565
嵩山	-10.8566
願垂	-10.8567
人以	-10.8568
於中	-10.8568
卷一之四	-10.857
無數	-10.8572
劍訣	-10.8574
齎持	-10.8578
日三服	-10.8582
萬𩔖	-10.8586
茅山	-10.8586
狀奏	-10.8586
於上	-10.8587
一粒	-10.859
冬三月	-10.8592
印文	-10.8593
五轉	-10.8593
五湖	-10.8597
形如	-10.8597
數百	-10.8598
一服	-10.8599
種民	-10.86
寂然	-10.86
二者	-10.8601
以付	-10.8604
必獲	-10.8604
諸處	-10.8605
轟雷	-10.8607
以後	-10.8608
邪源	-10.8608
一員	-10.8609
治中	-10.861
而死	-10.8611
次用	-10.8613
三帥	-10.8614
秋冬	-10.8615
事竟	-10.8617
父子	-10.8621
啓壇	-10.8623
一階	-10.8624
某日某時	-10.8629
道氣	-10.8631
不是	-10.8633
清静	-10.8636
二神	-10.8637
存身爲	-10.8639
出乎	-10.864
遣呪	-10.8643
除巳	-10.8645
太无	-10.8646
衣冠	-10.8646
先行	-10.8648
十二願	-10.8648
敕符呪	-10.8652
恩命	-10.8652
群仙	-10.8653
月日	-10.8659
合神	-10.866
符吏天	-10.8663
五雲	-10.8669
所欲	-10.8673
得神仙	-10.8673
而降	-10.8675
祈福	-10.8676
有災	-10.8676
剔出	-10.8678
直壇	-10.8679
震宫	-10.8682
九天上帝	-10.8687
來入	-10.8689
不與	-10.869
雲龍	-10.8692
動則	-10.8692
一徧	-10.8693
滅鬼	-10.8695
千餘	-10.87
紙上	-10.87
道德真經	-10.8702
煥明	-10.8708
罪根	-10.8708
杯	-10.8709
甞	-10.871
瓢	-10.871
謹外封	-10.871
冩	-10.8711
火精	-10.8713
拾	-10.8713
入室燒香	-10.8713
膚	-10.8714
腑	-10.8714
衷	-10.8715
無象	-10.8715
鴉	-10.8715
腋	-10.8717
衘	-10.8717
塜	-10.8719
黍米	-10.872
霓	-10.872
术	-10.872
浙	-10.8721
贍	-10.8721
不畏	-10.8721
嗽	-10.8721
所作	-10.8721
瘧	-10.8722
燮	-10.8723
晋	-10.8724
眄	-10.8724
急急如上帝敕	-10.8725
倐	-10.8725
亮	-10.8725
拙	-10.8725
緑軿	-10.8725
茹	-10.8727
麵	-10.8727
罷對	-10.8727
寐	-10.8727
國祚	-10.8728
無言	-10.873
渚	-10.873
洩	-10.873
鳥獸	-10.8731
苦惱	-10.8731
何所	-10.8732
軒轅	-10.8733
混合百神	-10.8733
赦原	-10.8734
大震	-10.8735
合於	-10.8735
置於	-10.8738
痰	-10.8738
六轉	-10.8738
玉臺	-10.8743
戊寅	-10.8744
癸丑	-10.8745
四日	-10.8746
臣今	-10.8747
六寸	-10.8747
本境	-10.8749
當有	-10.8749
侍郎	-10.8752
愆尤	-10.8753
玄名	-10.8764
威震	-10.8767
投龍	-10.8767
玄臺	-10.8771
至申	-10.8772
天尊說	-10.8773
黑暗	-10.8775
無功	-10.8776
肯	-10.8777
二十四神	-10.8781
念云	-10.8782
於外	-10.8784
今之	-10.8787
玄光	-10.8787
速速	-10.8788
髙下	-10.8788
自巳	-10.8788
衆靈	-10.8788
常在	-10.879
一本	-10.8791
如遇	-10.8794
顯幽	-10.8795
壽命	-10.8796
十遍	-10.88
在壇	-10.8801
心生	-10.8805
劫運	-10.8807
聖㫖	-10.8807
野道	-10.8809
病患	-10.8815
亦能	-10.8815
丹皇	-10.8816
猛火	-10.8819
暘	-10.8819
思神	-10.8823
會合	-10.8828
開關	-10.8828
威制	-10.8829
精進	-10.883
梵行	-10.883
隱諱	-10.883
特賜聖㫖	-10.8832
青繒	-10.8836
二象	-10.8837
丁壬	-10.8838
吉祥	-10.8838
盂	-10.884
存之	-10.8841
却用	-10.8844
洞虚	-10.8846
玄門	-10.8848
髙明	-10.8864
五師	-10.8869
自新	-10.887
九夜	-10.8871
秘法	-10.8873
得長生	-10.8876
上古	-10.8876
總攝	-10.8878
道學不得教人	-10.8879
百千萬	-10.8881
常有	-10.8881
移文	-10.8884
伏爲	-10.8886
神霄眞王	-10.8888
子丑	-10.8889
朕	-10.889
外有	-10.8892
九孔	-10.8895
有圖	-10.8895
以應	-10.8895
依應施行	-10.8896
天騶甲卒	-10.8898
妙行眞人	-10.89
僉	-10.8902
澆	-10.8903
墳	-10.8903
濤	-10.8903
氤氲	-10.8904
䢖	-10.8904
亟	-10.8904
誨	-10.8904
太素三元君	-10.8904
筌	-10.8905
也自	-10.8905
迨	-10.8906
其理	-10.8907
虐	-10.891
属	-10.8911
忙	-10.8911
奢	-10.8911
循環	-10.8911
韶	-10.8911
兢	-10.8912
珏	-10.8912
哲	-10.8914
如此則	-10.8915
筆書之	-10.8915
突	-10.8916
疋	-10.8917
羽章	-10.8917
枯骨	-10.8918
開張	-10.892
無疆	-10.8921
四靈	-10.8922
乞丐	-10.8923
凡書符	-10.8924
敕下	-10.8927
行符	-10.8927
七枚	-10.8927
火犀	-10.8929
清微天	-10.8931
乙亥	-10.8931
干冒	-10.8935
正一功曹	-10.8937
洞微	-10.8937
速離	-10.8939
聖師	-10.8939
思存	-10.8941
入壇	-10.8943
以舌	-10.8948
方隅	-10.8949
明威	-10.895
月宫	-10.8951
大神王	-10.8952
長短	-10.8955
者不可	-10.8956
酆都山	-10.8957
鬼魔	-10.8959
斬滅	-10.896
燥火	-10.896
道學	-10.8963
癸未	-10.8963
火火	-10.8969
隨心	-10.897
各執	-10.8974
廣記	-10.8974
三十日	-10.8978
三指	-10.8978
洞景	-10.8979
根本	-10.898
七過	-10.8981
聞見	-10.8981
矣然	-10.8982
斗印	-10.8985
千載	-10.8985
祕文	-10.8985
禁戒	-10.8986
七寸	-10.8987
燈儀	-10.8988
精勤	-10.899
玄樞	-10.899
无英	-10.8991
從事	-10.8991
直下	-10.8992
丹成	-10.8992
關報	-10.8993
攝魂	-10.8993
西南方	-10.8994
守衛	-10.8994
黄河	-10.8996
黄白	-10.8996
人口	-10.8997
混成	-10.8998
不已	-10.8998
不敬	-10.8999
一夕	-10.9002
道術	-10.9003
淨明	-10.9004
甲子日	-10.9004
師前	-10.9008
不得違	-10.901
急急如律令敕	-10.901
司録	-10.9011
髙聖	-10.9013
開圖	-10.9014
爲國	-10.9014
掌中	-10.9016
升入	-10.9016
天柱	-10.9017
萬方	-10.9017
地皇	-10.9017
運度	-10.9022
丁未	-10.9026
無情	-10.9028
中指中	-10.9029
金輪	-10.903
出戸	-10.9035
得失	-10.9037
鍊形	-10.9038
轉輪	-10.9041
對齋	-10.9042
聖號	-10.9047
伏尸	-10.9048
雷城	-10.9049
平地	-10.9051
靈篇	-10.9053
真元	-10.9054
投於	-10.9055
邪祟	-10.9056
如上法	-10.9058
中央黄帝	-10.9067
止於	-10.9068
只是	-10.9069
轟天	-10.9074
直齋	-10.9076
爲下鬼	-10.9076
六害	-10.9077
五龍	-10.9082
養性	-10.9082
道㫖	-10.9084
可漏式	-10.9084
火焰	-10.9085
說法	-10.9086
洞天福地	-10.9087
仍以	-10.9088
洗心	-10.9088
悠	-10.909
滄	-10.9091
稚	-10.9091
潘	-10.9092
寳冠	-10.9092
燦	-10.9092
伎	-10.9093
具申聞謹狀年月日具位姓某狀申	-10.9094
九龍符命	-10.9095
茯苓	-10.9095
弭	-10.9095
殻	-10.9096
沛	-10.9096
涕	-10.9096
太尉	-10.9096
鬢	-10.9097
噀水一口	-10.9098
閻	-10.9098
得受	-10.9098
攄	-10.9098
沃	-10.9099
遯	-10.9099
創	-10.9101
紫虚元君	-10.9102
桃康	-10.9102
豁落七元	-10.9102
位爲	-10.9102
心呪	-10.9103
江湖	-10.9104
執斧	-10.9104
三清上聖	-10.9104
三目	-10.9104
牖	-10.9107
濟度金書	-10.9108
三十九章	-10.9109
髙上玉皇	-10.911
墻	-10.911
大指掐	-10.9111
束帶	-10.9111
爲簡	-10.9112
稽延	-10.9112
此言	-10.9113
太上三尊	-10.9113
一元	-10.9115
五月五日	-10.9116
几前	-10.912
黑律	-10.9121
訣取	-10.9121
眞水	-10.9126
是諸	-10.9127
經註	-10.9128
道德天尊	-10.9129
虛妄	-10.9138
西嶽	-10.914
通傳	-10.9141
庚午	-10.9142
興雷	-10.9146
奉迎	-10.915
依時	-10.9154
一座	-10.9157
復位	-10.9157
招眞	-10.9158
下品	-10.9161
心意	-10.9166
與道合	-10.9168
臨午	-10.9169
玄精	-10.9171
預告	-10.9172
之變	-10.9176
民間	-10.9179
也哉	-10.918
本來	-10.9184
太極眞人	-10.9184
宫府	-10.9187
水盆	-10.9187
大帝律令	-10.9189
不求	-10.9189
福田	-10.9193
人皇	-10.9196
明光	-10.9199
水銀	-10.9201
所傳	-10.9203
之寳	-10.9203
法凡	-10.9204
妖怪	-10.9207
亦爲	-10.9212
宻念	-10.9214
仙品	-10.9218
師授	-10.9221
未聞	-10.9221
受籙	-10.9224
以授	-10.9225
用事	-10.9225
混洞	-10.9226
精怪	-10.9229
黄房	-10.9234
去來	-10.9236
飛霞	-10.9238
聞道	-10.9239
不妄	-10.9242
告齋	-10.9243
崇奉	-10.9244
一丈	-10.9249
其說	-10.9254
水噀	-10.9254
江水帝	-10.9264
入口	-10.9266
靈臺	-10.9268
六年	-10.9271
語録	-10.9271
少時	-10.9271
有縁	-10.9271
羲	-10.9272
雷鳴	-10.9273
褒	-10.9274
道法會元	-10.9275
宸廷	-10.9277
臣某承誥	-10.928
桐	-10.9281
佇	-10.9281
頸	-10.9282
蠱毒	-10.9283
祉	-10.9284
硃	-10.9286
伴	-10.9287
凛	-10.9288
鎗	-10.9288
渺渺	-10.9288
睿㫖	-10.9289
凖	-10.9289
擲火萬里	-10.9289
恚	-10.9289
而不能	-10.9289
算	-10.929
錄	-10.929
竪	-10.9293
滑	-10.9295
領仙	-10.9295
雕	-10.9295
粲	-10.9296
疼痛	-10.9296
萬劫不原	-10.9297
東斗	-10.9298
痒	-10.9302
禮師	-10.9303
惡根	-10.9306
請師	-10.9308
妖孽	-10.931
動植	-10.9312
枯木	-10.9312
又問	-10.9313
將軍五人	-10.9313
衛護	-10.9317
俗人	-10.9323
南上	-10.9325
以右手	-10.9328
勑令	-10.9328
位登	-10.9328
之威	-10.9328
無上大道	-10.9329
碧霞	-10.9331
大赤天	-10.9332
如嬰兒	-10.9332
金仙	-10.9334
神霄玉清眞王	-10.9338
命元	-10.9343
玉清上帝	-10.9345
雲臺	-10.9345
宫闕	-10.9347
澄清	-10.9351
衛我	-10.9351
少許	-10.9352
總領	-10.9352
得之者	-10.9356
之庭	-10.9358
觀之	-10.9358
不足以	-10.9358
心念	-10.9362
應運	-10.9364
入户	-10.9364
玄炁	-10.9367
一同	-10.9367
之因	-10.937
功名	-10.9371
雲雷	-10.9373
寳符	-10.9373
諦聽	-10.9373
神女	-10.9376
金城	-10.9379
辟除	-10.938
仙仗	-10.938
蓋以	-10.9385
方圓	-10.9387
洞視	-10.9387
丹經	-10.9388
絳雲	-10.9389
霹靂攝	-10.9389
茅君	-10.9391
授於	-10.9398
黄寧	-10.9398
只用	-10.9398
宫殿	-10.9402
所佩	-10.9405
周回	-10.9405
幽隂	-10.9406
執對	-10.9409
合眞	-10.9412
速降臨	-10.9413
鬼祟	-10.9417
修建	-10.9419
鬼崇	-10.9419
六氣	-10.9419
名利	-10.9421
之山	-10.9422
之夫	-10.9424
聖胎	-10.9425
必得	-10.9434
呼之	-10.9436
天下之	-10.9439
持符	-10.9441
隻	-10.9443
不犯	-10.9443
表白	-10.9443
元和	-10.9446
光輝	-10.9449
飛青	-10.9449
須是	-10.9452
立春	-10.9453
傳之	-10.9455
下及	-10.9455
陰精	-10.9456
七字	-10.9458
至重	-10.9459
艮宫	-10.9462
邪炁	-10.9464
三呼	-10.9466
六分	-10.947
人身中	-10.9472
章符	-10.9472
龍潭	-10.9472
應干合屬去處	-10.9473
呵出	-10.9474
之臺	-10.9475
宗親	-10.9475
猖	-10.9476
好生之德	-10.9476
摺	-10.9476
飴	-10.9477
都司	-10.9478
這	-10.9478
翦	-10.9478
插	-10.9478
跳	-10.9479
嘍	-10.9479
豈無	-10.948
菲	-10.948
撓	-10.9481
翫	-10.9481
臨軒	-10.9481
悮	-10.9481
猫	-10.9481
敢當	-10.9482
九玄七祖	-10.9482
雲霞	-10.9483
婬	-10.9484
笙	-10.9484
廵	-10.9485
烜赫	-10.9486
樸	-10.9486
収	-10.9487
撲	-10.9487
瘵	-10.9487
皎	-10.9487
殞	-10.9489
徐徐	-10.949
有罪	-10.9491
箱	-10.9492
向東	-10.9492
具法位姓某今	-10.9492
上淸	-10.9493
癰	-10.9493
何爲	-10.9493
抄	-10.9494
一錢	-10.9495
諸大	-10.9495
歩罡	-10.9496
畢便	-10.9497
天蓬天蓬	-10.9497
不仁	-10.9497
正一法文	-10.9498
戊午	-10.95
膈	-10.95
精微	-10.9501
辛天君	-10.9502
方得	-10.9502
四目老翁	-10.9506
司額	-10.9507
丙寅	-10.9507
碗	-10.9509
帝鐘	-10.951
一宿	-10.9513
之權	-10.9513
家親	-10.9515
輔星	-10.9516
至矣	-10.9521
大洞真經	-10.9521
驅役	-10.9523
九變	-10.9524
公私	-10.9524
鐵甲	-10.9525
而復	-10.9526
九百	-10.9528
知此	-10.9529
感格	-10.953
之辭	-10.9532
今世	-10.9537
投誠	-10.954
之志	-10.9541
酉丑	-10.9541
養神	-10.9543
先生曰	-10.9544
要在	-10.9544
前件	-10.9546
三萬	-10.9548
輔弼	-10.955
黑虎	-10.955
熒	-10.9551
雷斧	-10.9552
每服	-10.9554
惶懼	-10.9555
衆經	-10.9555
四目	-10.9556
出户	-10.9557
揈天	-10.956
求道	-10.9561
所化	-10.9563
解散	-10.9564
面上	-10.9567
剛風	-10.9569
願賜	-10.9569
兩耳	-10.957
日辰	-10.9573
令我	-10.9575
行藏	-10.9576
月將	-10.9576
侍女	-10.9581
何如	-10.9583
九土	-10.9585
尊星	-10.9586
精靈	-10.9587
一函	-10.9588
證品	-10.9591
四百	-10.9591
日新	-10.9594
地分	-10.9597
邵	-10.9601
深重	-10.9609
次序	-10.9609
地方	-10.9612
傳送	-10.9613
華盖	-10.9613
存用	-10.962
寳祕	-10.9621
互相	-10.9621
鎮星	-10.9623
黑衣	-10.9623
百邪	-10.9626
便得	-10.9628
又念	-10.9631
百拜	-10.9633
五合	-10.9634
飛精	-10.9635
之苦	-10.9637
立誓	-10.9638
齋意	-10.9641
則致	-10.965
呪三遍	-10.9652
左右手	-10.9655
召集	-10.9658
災殃	-10.9659
都部	-10.9661
六度	-10.9665
醮謝	-10.9667
十八日	-10.9667
直入	-10.9669
門外	-10.967
轟轟	-10.9672
北方黑	-10.9672
玉陛	-10.9674
後天	-10.9675
七變	-10.9677
𨗳	-10.9679
蒜	-10.9681
收墳葬	-10.9682
以兩手	-10.9682
冒瀆	-10.9683
大洞眞經	-10.9683
干冒聖威某下情無任惶懼之至謹	-10.9683
斜	-10.9683
囂	-10.9684
詮	-10.9684
咳嗽	-10.9685
三官九府	-10.9686
右腎	-10.9686
扁	-10.9686
黜	-10.9687
炓	-10.9687
颺	-10.9687
炷	-10.9687
㣲祝曰	-10.9688
如初	-10.9688
嘿	-10.9689
嚼	-10.9689
箋狀	-10.9691
法印	-10.9691
鎚	-10.9693
祖天師	-10.9694
岑	-10.9695
誹謗	-10.9696
隣	-10.9697
請照驗	-10.9697
六腑	-10.9697
曇	-10.9698
證明	-10.9698
開闢	-10.9702
靈化	-10.9703
日月星宿	-10.9705
直符直事	-10.9705
隱符	-10.9705
十餘年	-10.9705
奉戒	-10.9705
延夀	-10.9705
紙筆	-10.9707
靈通	-10.9708
王君	-10.9709
交通	-10.9709
壬午	-10.971
不勞	-10.9713
無令	-10.9714
七十五	-10.9715
顯現	-10.9715
彌羅	-10.9716
醮祭	-10.9719
五兩	-10.972
洞煥	-10.9722
恭望	-10.9726
閉口	-10.9726
焚化	-10.9734
日魂	-10.9735
癸巳	-10.9735
玄經	-10.9736
北嶽	-10.9736
水神	-10.9736
科條	-10.9737
臨時	-10.9738
天羅	-10.9738
或云	-10.9739
精氣	-10.974
上境	-10.9741
久久	-10.9743
束形	-10.9743
詔命	-10.9751
投進	-10.9753
存爲	-10.9757
水旱	-10.9758
飛輿	-10.9762
直使功曹	-10.9763
道妙	-10.9766
泉源	-10.9766
本位	-10.9769
霹靂震	-10.9772
不計	-10.9774
開泰	-10.9774
明燈	-10.9775
其性	-10.9775
其下	-10.9779
欲界	-10.9783
帝座	-10.9785
某將	-10.9787
一般	-10.9787
辛未	-10.9794
羽服	-10.9795
祥光	-10.98
乙庚	-10.98
主司	-10.9801
某身中	-10.9803
山河	-10.9805
爲首	-10.9813
因而	-10.982
光童子	-10.9823
朗然	-10.9826
神童	-10.983
吹入	-10.983
盛之	-10.9833
印印之	-10.9834
玉清眞王	-10.9837
年月日時告下具位	-10.9838
一國	-10.984
斬馘	-10.9841
凡所	-10.9842
主張	-10.9843
毋得	-10.9847
一生	-10.9854
代之	-10.9854
亦同	-10.9856
斗一座	-10.9856
鬼兵	-10.9858
以下	-10.9859
臣姓某	-10.986
一十八	-10.9861
一依	-10.9861
岱	-10.9862
降致	-10.9866
急至	-10.9866
啓聞	-10.9866
付授	-10.9866
已成	-10.9867
豈非	-10.9868
伏望聖慈	-10.9871
長保	-10.9872
下赴	-10.9872
餓	-10.9873
專一	-10.9874
六親	-10.9874
魁星	-10.9875
安能	-10.9876
起雲	-10.9876
傾心	-10.9878
齋直	-10.9879
璇	-10.988
禾	-10.9881
求受	-10.9881
靣	-10.9881
逾	-10.9881
侮	-10.9882
苐	-10.9883
績	-10.9883
聖意云	-10.9883
紏察	-10.9884
裔	-10.9884
矩	-10.9885
氏之	-10.9887
五帝大魔	-10.9887
玉匱	-10.9887
㓂	-10.9887
三魂七魄	-10.9888
中央黄老君	-10.9888
迪	-10.9889
巽炁	-10.989
冥目	-10.9891
蔭	-10.9891
亶	-10.9891
飛天神王	-10.9892
存至	-10.9892
產	-10.9892
喚	-10.9893
印印	-10.9894
弔	-10.9894
之例	-10.9894
宦	-10.9894
構	-10.9895
三天正法	-10.9896
凝結	-10.9897
劑	-10.9897
架	-10.9897
頥	-10.9898
匀	-10.9898
軻	-10.99
殺生	-10.9901
澹	-10.9901
一言	-10.9902
何須	-10.9903
遷拔	-10.9903
飛斗	-10.9904
寒熱	-10.9904
於某處	-10.9904
真名	-10.9905
無物	-10.9908
七尺	-10.9908
二百四十人	-10.9915
雷威	-10.9918
木公	-10.9919
單衣	-10.9925
急急如北帝	-10.9928
源流	-10.9929
有云	-10.9933
敷陳	-10.9936
邪妖	-10.9937
召䰟	-10.9938
一息	-10.994
矣凡	-10.994
童君	-10.9946
黙念	-10.9946
俱入	-10.9949
靜室	-10.995
耳中	-10.9952
三匝	-10.9953
取炁吹	-10.9953
精兵	-10.9953
無涯	-10.9953
度人上品妙經	-10.9956
脾中	-10.9958
其精	-10.9959
修誦	-10.9959
幽微	-10.996
唯願	-10.996
太帝君	-10.9962
王甲	-10.9962
破地獄	-10.9963
炎光	-10.9965
先用	-10.9966
詣師	-10.9967
萬精	-10.9969
黄巾	-10.9971
之患	-10.9981
河伯	-10.9983
章書	-10.9986
亦以	-10.9986
忘形	-10.9989
之任	-10.9991
香烟	-10.9994
疾苦	-10.9995
不全	-10.9996
謹奉	-11
謹遣	-11.0002
籙中	-11.0004
臨事	-11.0006
法食	-11.001
微微	-11.001
誠心	-11.0011
香案	-11.002
不著	-11.0022
帝闕	-11.0022
三次	-11.0024
丁甲	-11.0026
邪道	-11.0027
急急如太上	-11.0029
何由	-11.0029
次書	-11.003
穢濁	-11.0031
鬼魂	-11.0033
金星	-11.0034
品格	-11.0036
身外	-11.0037
無色	-11.0042
普召	-11.0042
一如律令	-11.0045
幽精	-11.0051
自號	-11.0056
所告	-11.0057
之望	-11.0057
吾是	-11.0062
硯	-11.0063
朝修	-11.0065
上景	-11.0068
一筆	-11.007
飛輪	-11.007
四角	-11.0072
靈書紫文	-11.008
無人	-11.0082
火德	-11.0082
覔	-11.0082
患者	-11.0083
䑕	-11.0084
干冒聖威	-11.0084
玄元始三炁	-11.0085
隂靈	-11.0086
領詞虔切	-11.0086
啄齒	-11.0088
恰	-11.0089
廽	-11.0089
煮	-11.009
告諸	-11.0091
一如玄科律令	-11.0092
所宜	-11.0092
槁	-11.0092
明彰報應	-11.0092
奴婢	-11.0094
隙	-11.0094
疲	-11.0095
敢有拒逆	-11.0096
奄	-11.0097
希有	-11.0098
虔誠	-11.0098
正真	-11.0098
涌	-11.01
蹄	-11.01
盗賊	-11.01
矣夫	-11.01
省府	-11.0101
彬	-11.0102
興雲致雨	-11.0103
雌黄	-11.0103
坑	-11.0104
今古	-11.0105
化作微塵	-11.0105
二十四氣	-11.0106
影響	-11.0107
扁鵲	-11.0108
不得有違	-11.0108
森羅	-11.0112
拷鬼	-11.0112
銀牙	-11.0113
亥子	-11.0114
血刃	-11.0115
主領	-11.0119
爽靈	-11.0124
某押	-11.0125
伐廟	-11.0126
一隻	-11.0129
各二兩	-11.013
九天採訪	-11.013
中斗	-11.0131
小有	-11.0133
輪廻	-11.0133
丙辛	-11.0133
動雷	-11.0135
同心	-11.0135
玉庭	-11.0135
謹録狀上奏	-11.0136
一毫	-11.0141
再服	-11.0142
三塗五苦	-11.0143
瓊輪	-11.0143
太上洞𤣥靈寶	-11.0146
右有	-11.0147
瓊臺	-11.0147
不輕	-11.0149
神官	-11.0151
表奏	-11.0151
入吾	-11.0151
玉漿	-11.0153
傷亡	-11.0154
最爲	-11.0155
瓊林	-11.0158
靈府	-11.0158
一云	-11.0161
真火	-11.0161
呪水	-11.0164
未知	-11.0165
朱表	-11.0165
異香	-11.0165
天樂	-11.0165
仰視	-11.0165
乙未	-11.0166
紫霄	-11.0167
心腹	-11.0168
未分	-11.0171
提起	-11.0173
日夜半	-11.0176
令太一	-11.0182
不獲	-11.0182
榮華	-11.0183
自明	-11.019
速達	-11.0191
内傳	-11.0191
吒唎	-11.0193
都監	-11.0195
觀其	-11.0205
投之	-11.0209
熒惑星	-11.0209
青玄上帝	-11.0211
戌亥	-11.0212
元化	-11.0215
澄心	-11.0219
保仙	-11.0219
安得	-11.0225
洞達	-11.023
降福	-11.0234
子母	-11.0235
家宅	-11.0239
召魂	-11.0239
甚多	-11.0241
赤龍	-11.0244
誠惶誠恐稽首頓首	-11.0245
登真	-11.0256
主水	-11.0258
律令攝	-11.026
白光	-11.0261
召攝	-11.0262
萬天	-11.0263
四直功曹	-11.0263
死人	-11.0274
諸階	-11.0275
毋令	-11.0276
者處斬諸	-11.0277
報對	-11.0283
定志	-11.0285
登齋	-11.0286
目録	-11.0287
鐶	-11.0295
其義	-11.0296
除已具奏	-11.0299
青腰玉女	-11.0299
念道	-11.03
等無任	-11.0301
煉形	-11.0301
一尺二寸	-11.0302
者杖一百	-11.0302
扄	-11.0302
禹餘天	-11.0302
口吹	-11.0303
巽上	-11.0304
錬形	-11.0304
殗	-11.0304
重稱法位具位	-11.0304
剉	-11.0304
蟬	-11.0307
發奏	-11.0307
傳非其人	-11.0308
原宥	-11.0308
随	-11.0311
閒	-11.0311
聯	-11.0312
列仙傳	-11.0312
絃	-11.0313
恱	-11.0314
拍	-11.0314
謹當宣	-11.0314
萬二千	-11.0314
匕	-11.0315
上官	-11.0317
峻	-11.0318
慨	-11.0318
航	-11.0318
浮黎	-11.0318
更無	-11.0319
再加	-11.0322
帝令	-11.0322
落死	-11.0323
虚无自然	-11.0323
人門	-11.0323
長一尺二寸	-11.0324
毬	-11.0324
雲軿	-11.0326
日平旦	-11.0326
罪䰟	-11.0327
在其中	-11.0328
鎭宅	-11.0329
觸犯	-11.0331
中庭	-11.0332
玉册	-11.0332
道境	-11.0337
覆護	-11.0341
歩斗	-11.0343
大羅天	-11.0345
半夏	-11.0345
依此	-11.0346
青陽	-11.0346
辰戌	-11.0346
八百	-11.0347
召汝	-11.0348
紙朱書	-11.0349
滅邪精	-11.0351
各隨	-11.0354
臍下	-11.0356
上衝	-11.036
朝夕	-11.0362
日月星	-11.0364
炁聚	-11.0364
賢人	-11.0366
紫文	-11.0367
枷鬼	-11.0367
魔靈	-11.0369
當用	-11.037
交接	-11.037
止此	-11.0373
西靈	-11.0377
九朝	-11.038
神司	-11.0381
▲▲▲	-11.0382
守護	-11.0383
京師	-11.0384
右手劒訣	-11.0387
無知	-11.0389
電火	-11.0393
玄綱	-11.0394
本院	-11.0394
五卷	-11.0395
凡事	-11.0397
度脫	-11.0397
形骸	-11.0399
口傳	-11.0402
急如	-11.0402
忽聞	-11.0403
隱於	-11.0403
三惡	-11.0404
永斷	-11.0406
水陸	-11.041
不可妄	-11.0414
等分	-11.0414
焚燒	-11.0424
呪七遍	-11.0424
九過止	-11.0424
不能自	-11.0427
告曰	-11.0428
無益	-11.0432
五帝直符	-11.0435
九芒	-11.0435
黒炁	-11.0436
急急奉行	-11.0436
萬罪	-11.0447
丹法	-11.045
天蓬呪	-11.0451
黑氣	-11.0451
驅龍	-11.0453
高上神霄	-11.0456
五瘟	-11.0456
急急如律令呪畢	-11.0457
殃及	-11.0459
北玄	-11.0466
驅使	-11.0468
右奉	-11.047
素女	-11.0471
男女生	-11.0472
並依	-11.0473
咸得	-11.0475
小指	-11.0476
合景	-11.0476
未來	-11.0477
須得	-11.0478
專心	-11.0479
八分	-11.048
到來	-11.048
服方寸七	-11.0486
水洗	-11.0487
世以來	-11.0489
自覺	-11.049
一家	-11.0498
文檢	-11.05
長安	-11.0508
響應	-11.0509
畫一	-11.0509
助國	-11.051
分司	-11.0513
咸令照應	-11.0514
大帝敕	-11.0515
光映	-11.0517
出出者嚴裝顯服冠帶垂纓關啓玄壇	-11.0517
通感	-11.0518
合屬眞司	-11.0518
悖	-11.0519
禎祥	-11.0519
縷	-11.052
諮	-11.052
高道傳	-11.052
金字	-11.0522
踵	-11.0523
誠惶誠恐稽首頓首再拜上言	-11.0523
綴	-11.0523
撤	-11.0523
塩	-11.0524
攘	-11.0524
䏻	-11.0524
戰慄	-11.0524
眞光	-11.0524
乃知	-11.0525
喗	-11.0525
鞋	-11.0525
怖	-11.0525
魓𩳐魒	-11.0525
倏	-11.0525
沴	-11.0526
勿使	-11.0527
叚	-11.0527
熨	-11.0528
夾脊	-11.0528
隸	-11.0528
槩	-11.0528
叉腰	-11.053
噏	-11.053
陁	-11.053
兀	-11.0531
靴	-11.0531
懃	-11.0532
厠	-11.0532
捻香	-11.0532
吳	-11.0533
鵠	-11.0535
靖室	-11.0535
鄧天君	-11.0536
橘	-11.0536
洋	-11.0537
照應施行	-11.0537
冕	-11.0539
摧傾	-11.0539
屋宇	-11.0539
三代	-11.0539
廼	-11.054
誠意	-11.0541
妙訣	-11.0541
腰帶	-11.0541
輔佐	-11.0541
螫	-11.0543
圓通	-11.0545
甕	-11.0545
玉笈	-11.0547
監臨	-11.0548
遵元降	-11.0549
逺近	-11.0551
上層	-11.0552
癸酉	-11.0553
念天蓬呪	-11.0554
妖魅	-11.0562
伯温	-11.0562
入意臣	-11.0562
不昧	-11.0563
庚辰	-11.0565
聽候	-11.0568
玄毋	-11.0569
天丁冠	-11.0571
莊子	-11.0572
彼此	-11.0576
日月同	-11.0579
速現	-11.0581
六幕	-11.0582
二百四十	-11.0582
肝中	-11.0583
紫色	-11.0585
圓象	-11.0585
唵吽吒唎	-11.0585
治罪	-11.0587
發聲	-11.0588
小童	-11.0589
紫户	-11.0589
骨節	-11.059
爲眞人	-11.059
太歲年月日	-11.059
詩云	-11.0593
經緯	-11.0596
玄圖	-11.0596
師寳	-11.0596
燒灰	-11.0596
誥命	-11.0597
擒捉	-11.0597
聞召	-11.0598
相連	-11.06
垂光	-11.0601
左手搯	-11.0602
無終	-11.0603
傳付	-11.0605
妙理	-11.0607
無異	-11.0608
祝之	-11.0609
建獄	-11.061
進士	-11.0612
下士	-11.0612
家人	-11.0613
門庭	-11.0614
破穢	-11.0617
君姓	-11.0617
泰清	-11.0623
霜雪	-11.0631
駕景	-11.0631
一團	-11.0631
玄風	-11.0632
神烈	-11.0634
隨機	-11.0635
飛走	-11.0646
一小	-11.0648
可知	-11.0648
腎水	-11.0649
下照	-11.0658
所授	-11.066
水調	-11.0661
隨炁	-11.0661
行此道	-11.0663
魔試	-11.0664
宣化	-11.0664
出遊	-11.0665
不避	-11.0666
守其	-11.0667
都省	-11.0669
斗牛	-11.0672
半兩	-11.0679
髙妙	-11.068
積善	-11.0681
三十七	-11.0681
至于	-11.0682
一合下	-11.0683
正坐	-11.0685
五方蠻雷	-11.0686
常住	-11.0687
召合	-11.0687
陽之炁	-11.0689
施爲	-11.069
動作	-11.0695
莫非	-11.0699
合并	-11.0706
小鬼	-11.0712
十丸	-11.0713
誅滅	-11.0715
乘空	-11.0715
一萬人	-11.0718
不怠	-11.0721
相去	-11.0722
嗣法弟子	-11.0724
元老	-11.0726
瓮	-11.073
在世	-11.0731
存元帥	-11.0732
祼	-11.0732
惕	-11.0734
節制	-11.0734
北陰酆都	-11.0734
告聞	-11.0735
相似	-11.0736
天王姓	-11.0736
瞬	-11.0736
要妙	-11.0737
旅	-11.0738
涼	-11.0738
屠割	-11.0738
十二宫	-11.0739
到此	-11.074
岐	-11.074
𣲖	-11.074
朱陵火府	-11.0741
臣某承誥奉召	-11.0741
三洞四輔	-11.0742
怛	-11.0742
遏截	-11.0742
萬國	-11.0743
敢不上聞	-11.0743
㓜	-11.0743
淚	-11.0743
乙卯	-11.0743
韓君丈人	-11.0744
渥	-11.0744
曝	-11.0745
所管	-11.0745
翟	-11.0748
譜	-11.075
咀	-11.075
汎	-11.075
整肅	-11.0751
留人門	-11.0754
夢中	-11.0755
辟邪	-11.0755
琉璃	-11.0756
猪脂	-11.0756
禽獸	-11.0756
清風	-11.0756
魘	-11.0756
鵲	-11.0756
儛	-11.0757
塚	-11.0757
但見	-11.0757
翮	-11.0758
簇	-11.076
更有	-11.076
儼然	-11.076
佩受	-11.0761
銳	-11.0763
護送	-11.0764
蘆	-11.0764
則以	-11.0764
長一尺	-11.0768
玄帝	-11.0769
各依	-11.0773
第二指	-11.0774
又恐	-11.0775
左腎	-11.0775
塞鬼路	-11.0775
五雷大法	-11.0776
祖考	-11.0776
癸卯	-11.0778
入中宫	-11.0779
降聖	-11.078
辛酉	-11.079
急急如律令次	-11.079
有志	-11.079
何以故	-11.0791
願念	-11.0795
還元	-11.0796
長五寸	-11.0798
木德	-11.0799
從來	-11.0804
靈司	-11.0805
録奏	-11.0807
潤澤	-11.0816
雷字	-11.0817
輪迴	-11.0819
太上丈人	-11.082
勤行	-11.0822
常居	-11.0823
肺中	-11.0829
一朝	-11.0829
南山	-11.083
數千	-11.0832
閃爍	-11.0833
傳受	-11.0835
嗣師	-11.0835
當職	-11.0835
于今	-11.0837
恭依	-11.0837
根源	-11.0838
散景	-11.084
拘留	-11.084
無盡	-11.0847
頌曰	-11.085
來朝	-11.0852
雲錦	-11.0854
總監	-11.0858
苦海	-11.0859
則可以	-11.0861
一千二百	-11.0862
名列	-11.0862
地界	-11.0871
求乞	-11.0874
科文	-11.0875
白色	-11.0877
以鼻引	-11.0877
此謂之	-11.0881
拜奏	-11.0882
巳未	-11.0884
四十五	-11.0887
周行	-11.0888
其志	-11.089
明珠	-11.0896
燒符	-11.0897
皇極	-11.0897
流景	-11.0901
是經	-11.0902
齋主某	-11.0902
濟世	-11.0903
奏爲	-11.0905
受苦	-11.0908
人參	-11.0909
散華	-11.0916
神識	-11.0919
修學	-11.0919
精魅	-11.092
地煞	-11.0921
五戒	-11.0923
關牒	-11.0927
諸獄	-11.0936
五篇	-11.0937
合同符	-11.0945
于後	-11.0947
須當	-11.095
蕩滌	-11.0952
向外	-11.0953
聖眞	-11.0959
城隍司	-11.0962
稱善	-11.0963
亦不得	-11.0964
蘿	-11.0966
南極上元君	-11.0967
三十六部尊經玄中大法師	-11.0968
韜	-11.097
謡	-11.097
九老仙都	-11.097
告召	-11.0971
𧵥	-11.0972
慙愧	-11.0972
邉	-11.0972
䆫	-11.0973
鉛汞	-11.0974
不得留停	-11.0974
上清靈寳大法	-11.0975
秤	-11.0975
貧賤	-11.0975
濱	-11.0975
羸	-11.0976
𠂻	-11.0976
呉	-11.0977
方始	-11.0977
窒	-11.0977
帙	-11.0978
捐	-11.0979
飢渴	-11.0979
礬石	-11.0979
潑	-11.098
虎賁	-11.0981
糧	-11.0981
脹	-11.0981
副帥	-11.0983
斫	-11.0983
嚙	-11.0983
訣目	-11.0984
款	-11.0984
畢仰嚥	-11.0985
角亢	-11.0986
塗炭	-11.0986
斡旋	-11.0986
仙童玉女	-11.0986
脅	-11.0987
水潦	-11.0989
葛氏	-11.099
浩浩	-11.099
菩	-11.0992
春夏	-11.0993
夏三月	-11.0993
壬戌	-11.0995
王公	-11.0996
切以	-11.0997
一切威靈	-11.1002
喜怒	-11.1003
靈根	-11.1003
其要	-11.1003
尚慮	-11.1004
大將軍眞符	-11.1006
年月日時告下	-11.1006
指上節	-11.1009
九尺	-11.101
倒海	-11.1011
作善	-11.1011
靈寳度人	-11.1013
握雷局	-11.1014
主吏	-11.1017
乙酉	-11.1018
伏冀	-11.1018
主簿	-11.1021
罪犯	-11.1027
玉冠	-11.103
丙乙	-11.1031
魒星	-11.1032
穢氣	-11.1032
逍遥上清	-11.1035
眞君律令	-11.1035
治邪	-11.1035
命籍	-11.1043
錦衣	-11.1043
齊臨	-11.1043
庶可	-11.1044
紙錢	-11.1045
即命	-11.1047
府君	-11.1047
不專	-11.1047
四圍	-11.1049
生死之	-11.1052
咭唎	-11.1053
攝炁	-11.1055
萬類	-11.1057
婦女	-11.1058
玉池	-11.1065
不遵	-11.1069
謹牒	-11.107
愚人	-11.1071
唵嚩	-11.1075
未幾	-11.1075
受之於	-11.1078
香雲	-11.1081
三枚	-11.1085
以俟	-11.1088
傳法	-11.1094
引領	-11.1097
紅光	-11.11
不過三	-11.11
寒庭	-11.1101
不退	-11.1102
受戒	-11.1102
少女	-11.1102
道要	-11.1103
護國	-11.1113
呪畢存	-11.1117
化育	-11.1118
無上道	-11.1122
至極	-11.1124
隱隱	-11.1128
北方黒帝	-11.1134
王侯	-11.1138
祕籙	-11.1139
聲色	-11.1141
金鐘	-11.1141
朗靈	-11.1151
不住	-11.1152
所𨽻	-11.1153
酒果	-11.1156
千萬重	-11.1157
祝云	-11.1158
若夫	-11.1164
酆山	-11.1167
告斗	-11.1168
譬	-11.1169
小腸	-11.1171
相交	-11.1173
輕舉	-11.1173
積年	-11.1177
謹重誠上啓	-11.1178
矣故	-11.1186
尋常	-11.1186
得遇	-11.1188
脱貨	-11.1191
金母	-11.1192
中盟	-11.1193
宗㫖曰	-11.1195
詢	-11.1196
千乘萬騎	-11.1197
合屬去處	-11.1199
蠢	-11.1199
髙靈	-11.1199
稔	-11.12
丹華	-11.1201
出堂頌	-11.1202
顓	-11.1203
釡	-11.1203
亦復如是	-11.1203
曩	-11.1204
撮	-11.1205
昬	-11.1206
巵	-11.1207
亡過某等䰟	-11.1207
三十六部尊經	-11.1207
鳳凰	-11.1208
煥赫	-11.1208
鏤	-11.121
玩	-11.121
太無	-11.121
齎捧	-11.1211
炒	-11.1211
炮	-11.1211
干戈	-11.1211
漏泄	-11.1212
金刀	-11.1215
鄒	-11.1216
上帝有勑	-11.1216
三部八景	-11.1216
奈何	-11.1217
霍亂	-11.1219
虎豹	-11.1219
娘	-11.122
壇墠	-11.122
不以爲	-11.122
靈都	-11.122
嫁	-11.1222
取北炁吹	-11.1223
株	-11.1225
三五七九	-11.1226
羽裙	-11.1226
伏念臣	-11.1227
所薦	-11.1228
煖	-11.123
謹上詣	-11.123
行持之士	-11.1231
洞玄靈寶	-11.1233
安穩	-11.1233
玉清隱書	-11.1234
六陽	-11.1237
斬勘	-11.124
雲房	-11.1242
本身符	-11.1244
號召	-11.1244
壬申	-11.1245
不待	-11.1246
修持	-11.1247
結尾	-11.125
湧出	-11.1251
初獻	-11.1254
自消	-11.1255
兩邊	-11.1259
取天門	-11.1259
保胎	-11.1266
風輪	-11.1266
乙巳	-11.1267
盡皆	-11.1268
第十二	-11.127
迷魂	-11.1271
足踏	-11.1273
目視	-11.1274
死鬼	-11.1276
吸炁	-11.128
化為	-11.1281
大凶	-11.1285
頭痛	-11.1294
一㸃	-11.1294
耳聞	-11.1306
從官十五人	-11.1308
準令	-11.1309
面南	-11.1312
玉輿	-11.1315
廟貌	-11.1316
昏昏	-11.1317
士庶	-11.1329
勤苦	-11.133
豈得	-11.1331
數年	-11.1333
三災	-11.1334
名號	-11.1335
魂爽	-11.1337
疾厄	-11.134
亦曰	-11.135
九厄	-11.1352
入腹	-11.1352
四體	-11.1353
二十九	-11.1355
除去	-11.1356
請受	-11.136
本命之日	-11.1362
丹房	-11.1366
三百六十五	-11.1369
業報	-11.1372
刻名	-11.1374
二轉	-11.1378
唎吽	-11.1384
須知	-11.1389
和與道合眞	-11.1399
妖星	-11.1403
思念	-11.1405
薑	-11.1413
凡情	-11.1415
大帝勑	-11.1417
出世	-11.142
物外	-11.1421
天篆	-11.1422
太白星	-11.1425
而用之	-11.1426
古科	-11.1426
玄天上帝	-11.1429
睛	-11.1433
吐火	-11.1434
稻	-11.1438
死䰟	-11.1438
蓄	-11.1439
交易	-11.1439
黍	-11.1439
無疑	-11.144
鷹犬	-11.1441
形容	-11.1441
先凶後吉	-11.1441
騎各九億萬衆	-11.1441
腎中	-11.1441
咨	-11.1442
咈	-11.1442
姻	-11.1443
五臟六腑	-11.1443
咫尺	-11.1443
牒合屬真司外	-11.1443
同日宫狀	-11.1444
袂	-11.1445
碍	-11.1445
襄	-11.1446
嚴裝	-11.1446
稟	-11.1446
九州分野	-11.1446
歷關諸天	-11.1446
燁	-11.1446
弩	-11.1447
禧	-11.1447
趍	-11.1447
者是也	-11.1447
蟲蝗	-11.1447
天心正法	-11.1447
占陰晴晴田蠶	-11.1448
紗	-11.1448
器中	-11.1448
鮑	-11.1449
宜快	-11.145
猴	-11.145
麒麟	-11.145
胤	-11.145
懐	-11.145
消散	-11.1451
菊	-11.1452
抱朴子	-11.1454
寤	-11.1455
長生靈符	-11.1456
丹訣	-11.1456
膿	-11.1456
拯濟	-11.1458
媱	-11.1458
椎	-11.1459
紋繒	-11.146
海水	-11.146
欎	-11.146
之域	-11.1462
飛天神人	-11.1462
璈	-11.1462
監生大神	-11.1463
康寧	-11.1466
事事	-11.1467
庚戌	-11.1468
青城山	-11.1474
全眞	-11.1476
皆須	-11.1476
難成	-11.1477
中指中文	-11.1477
奔走	-11.1478
舌尖	-11.1478
室主治	-11.148
丙申	-11.1482
豈有	-11.1482
太倉	-11.1484
鬱羅	-11.1488
二人上靈官	-11.149
玉童玉女各	-11.1496
昇遷	-11.1497
入水中	-11.1497
醮禮	-11.1499
玉衡	-11.1504
捲水	-11.1505
護持	-11.1505
掾吏	-11.1508
文武	-11.1509
勇猛	-11.151
事實	-11.151
符籍	-11.1511
隂日	-11.1512
室主收	-11.1513
可漏	-11.1513
知磬舉	-11.1514
早朝	-11.1515
受化	-11.1518
三徧	-11.1521
三辰	-11.1521
中層	-11.1526
一通上詣	-11.1526
滅跡	-11.1529
救旱	-11.1529
道法會元卷之二百	-11.1529
定位	-11.1531
三十三	-11.1533
臣姓	-11.1537
勳	-11.154
寅文	-11.1543
惡逆	-11.1545
旦夕	-11.1547
五音	-11.1549
百千	-11.1561
威攝	-11.1563
異人	-11.1565
雨暘	-11.1569
具足	-11.1572
速令	-11.1573
靈芝	-11.1577
未遂	-11.1583
奉勑	-11.1583
珠玉	-11.1584
自天門	-11.1585
鳯文	-11.1592
禹歩	-11.1592
在外	-11.1596
白石	-11.1601
交會	-11.1601
俾令	-11.1606
化形爲	-11.1607
朝真	-11.1612
隨我	-11.1617
聖㫖下	-11.1618
丘山	-11.1619
不顧	-11.162
洞神三皇	-11.1623
善縁	-11.1623
庶得	-11.163
動止	-11.164
誰能	-11.165
猶未	-11.1651
道備	-11.1656
虛書	-11.1657
分位	-11.1657
紫微宫	-11.1658
謹謹上詣	-11.1674
告下者	-11.1675
修設	-11.1675
降世	-11.1676
右符鎭	-11.1677
不驕樂天	-11.168
急急如律令右符	-11.168
銅柱	-11.168
𦍙	-11.1681
東西南北	-11.1682
唏	-11.1683
使者十二人仙靈官	-11.1683
太㣲天帝君	-11.1684
戢	-11.1686
吻	-11.1686
綜	-11.1686
鴨	-11.1687
千變萬化	-11.1687
定録	-11.1687
左手持	-11.1688
焚燎	-11.1689
羅㬋	-11.1689
姬	-11.1689
魁𩲃𩵄䰢	-11.169
荐	-11.169
龔	-11.1691
洞玄靈寳法師南曹執法典者	-11.1691
舄	-11.1691
翊衛	-11.1691
恩惟太上	-11.1691
纒綿	-11.1692
后土皇地祇	-11.1692
飜	-11.1693
臼	-11.1694
啄	-11.1694
若遇	-11.1695
洋洋	-11.1695
敏	-11.1696
憚	-11.1696
岩	-11.1697
驢	-11.1697
不得拘留	-11.1697
劇	-11.1698
紫微上宫	-11.1698
長樂	-11.1698
化應聲天	-11.1699
耽	-11.1699
敘	-11.1699
塘	-11.17
郡縣	-11.17
蕪	-11.17
科教	-11.17
月魄	-11.1702
濛濛	-11.1703
書此符	-11.1703
蓬頭	-11.1704
鬼路	-11.1705
喜慶	-11.1706
仲尼	-11.1707
遷移	-11.1708
彈指	-11.1708
朱彦	-11.1709
本部	-11.171
不忍	-11.171
申子辰	-11.171
飲水	-11.1714
乾宫	-11.1715
淺深	-11.1715
檢會	-11.1717
保佑	-11.1718
諸神吏符使	-11.1719
騰騰	-11.172
掌心	-11.172
法官道士	-11.1722
盟天	-11.1723
正一天師	-11.1724
厄難	-11.1727
照前	-11.173
眞士	-11.1731
卷一之五	-11.1731
丙戌	-11.1732
丙辰	-11.1732
請雨	-11.1734
未悟	-11.1736
遠近	-11.1737
大豆	-11.1738
黄繒	-11.1739
大抵	-11.1739
沖虚	-11.1741
内思	-11.1744
乃止	-11.1746
元始一炁	-11.1748
元素	-11.1748
錦袍	-11.1752
散髮	-11.1761
金磚	-11.1761
品第十	-11.1762
濟人	-11.1763
無限	-11.1763
在人間	-11.1764
朗明	-11.1765
筆書	-11.1765
呪一遍	-11.1768
祕諱	-11.1772
來赴	-11.1772
髙皇	-11.1777
内鍊	-11.1778
各九人	-11.1778
午出	-11.1779
正教	-11.1781
至亥	-11.1782
皆悉	-11.1784
眞境	-11.1785
耀靈	-11.1785
光華	-11.1785
斗極	-11.1786
照徹	-11.1789
㧞出	-11.1794
六尺	-11.1794
奉送	-11.1797
安康	-11.1799
謹狀年月日具位	-11.1802
依按	-11.1805
六十人	-11.1806
交合	-11.1808
絶滅	-11.1808
午朝	-11.181
金蓮	-11.181
遍身	-11.182
普照	-11.182
黃素	-11.1821
天律	-11.1829
中界	-11.1829
百八十	-11.1833
茶酒	-11.1839
老子曰	-11.1841
炁一口吹	-11.1842
經戒	-11.1843
金光炁	-11.1848
弼星	-11.1848
胷中	-11.185
方丈	-11.1853
黄連	-11.1856
宅中	-11.1858
諸部	-11.1863
移山	-11.1867
右手持	-11.1867
作福	-11.1867
某年月日時	-11.1871
九遍	-11.1877
漬之	-11.1886
死之訟	-11.1887
祝白	-11.1888
十轉	-11.189
設教	-11.1894
本處	-11.1897
奉修	-11.1901
惟願	-11.1901
敢有違	-11.1902
真訣	-11.1904
死後	-11.1914
方無極飛天神王	-11.1919
龐	-11.192
奈	-11.1922
甲巳	-11.1924
五雷使院	-11.1928
合㑹	-11.1928
假如	-11.1929
天省	-11.1932
鞫	-11.1932
須至申聞者右	-11.1934
犀	-11.1935
何鬼敢	-11.1937
土地等神	-11.1937
三天大法師	-11.1937
鎔	-11.1937
煒	-11.1938
菖蒲	-11.1938
紫蓋	-11.1939
輕泄漏慢	-11.1939
黏	-11.194
溟涬	-11.194
直衝	-11.194
頴	-11.194
太一救苦天尊	-11.1941
届	-11.1942
蓊	-11.1942
南斗六司	-11.1943
沌	-11.1943
拆	-11.1943
嘻	-11.1944
瑟	-11.1944
晴雨	-11.1944
提携	-11.1945
當此之時	-11.1946
醮主某	-11.1946
應驗	-11.1947
迭	-11.1947
飛罡	-11.1947
𥼶	-11.1948
豈知	-11.1949
契勘	-11.195
浣	-11.195
圗	-11.195
木星	-11.195
盜賊	-11.1951
飛行太空	-11.1952
羞	-11.1952
指甲下	-11.1953
寳訣	-11.1955
半斤	-11.1955
長年	-11.1956
聖惠方治	-11.1956
分布	-11.1958
上帝有敕	-11.1959
百骸	-11.196
冥關	-11.196
覩光明	-11.1961
諸家	-11.1963
字號	-11.1965
不移	-11.1965
行之九年	-11.1966
祝融	-11.1966
開天門閉地户留人門	-11.1967
火鴉	-11.1969
謹奏爲	-11.1973
廣濟	-11.1975
聚魂	-11.1976
兩儀	-11.1977
高功	-11.1983
待時	-11.1986
滅爽	-11.1986
昭昭	-11.1989
幽暗	-11.199
宣示	-11.199
無色界	-11.1991
佐助	-11.1992
適意	-11.1992
經營	-11.1997
雲程	-11.2004
未必	-11.2004
具載	-11.2004
仙家	-11.201
金鈴	-11.2012
生旺	-11.2018
大醮	-11.2018
帝號	-11.2018
妻子	-11.202
天地日月	-11.2021
採藥	-11.2024
南方蠻雷	-11.2025
徃徃	-11.203
將軍吏兵	-11.2031
鼻引	-11.204
本府	-11.2041
辛巳	-11.2041
千千	-11.2042
西臺	-11.2043
宅舍	-11.2049
齋堂	-11.2056
紫霞	-11.2057
洞映	-11.206
急急攝	-11.2065
普救	-11.2067
隱語	-11.2068
科車赤符吏	-11.2068
雨露	-11.2074
玉局	-11.2075
專司	-11.2076
淨水	-11.2077
元吉	-11.2079
反胎	-11.2084
保全	-11.2084
籍師	-11.2085
仰祈	-11.2088
治國	-11.2088
玄恩	-11.2089
服又方	-11.2089
返生	-11.2089
此藥	-11.21
尸鬼	-11.21
小吉	-11.2108
儀式	-11.2109
壇席	-11.2114
地紀	-11.2116
所致	-11.2116
玄奥	-11.2121
月八日	-11.2123
桃木	-11.2123
十斤	-11.2127
泥丸中	-11.2128
長生大帝	-11.2144
僊官	-11.2145
語言	-11.2149
定息	-11.2154
爐中	-11.2156
衆邪	-11.2157
修善	-11.2157
八海	-11.2159
罪目	-11.2161
畢再	-11.2162
謹上啓	-11.2165
太上大道	-11.2168
五十五	-11.217
真武	-11.217
北府	-11.217
他方	-11.2171
物物	-11.2172
三盟	-11.2175
見患	-11.2179
海瓊	-11.2181
勦	-11.2184
州社令	-11.2187
璞	-11.2189
暘谷	-11.219
曦	-11.219
猥	-11.219
捻香功德歸流	-11.2191
八萬四千	-11.2191
燧	-11.2191
少隂	-11.2192
叱咤	-11.2192
慇懃	-11.2192
遨	-11.2193
默默	-11.2193
降臨醮席	-11.2193
又一鬼王姓	-11.2193
悠悠	-11.2194
占陰晴雨田蠶	-11.2194
千乗萬騎	-11.2195
占陰晴半陰半晴田蠶	-11.2196
不得久停	-11.2196
欠	-11.2197
飬	-11.2198
黄紙朱書	-11.2199
向南	-11.2199
激切之至	-11.2199
頂中	-11.22
帝廷	-11.22
萬劫一傳	-11.2201
蝶	-11.2201
侈	-11.2201
輟	-11.2201
赤書玉字	-11.2202
叩齒五通	-11.2202
萃	-11.2202
峩	-11.2202
駢	-11.2203
下元水官	-11.2203
應聲	-11.2205
歌曰	-11.2205
渭	-11.2205
寂寂	-11.2206
稱法位	-11.2206
鬱勃	-11.2207
俯伏	-11.2208
拽	-11.2208
玉眸	-11.2208
某嶽先生	-11.2208
衿	-11.2208
鐵索	-11.2209
賞罰	-11.2209
鼻孔	-11.2209
火炎	-11.221
肉人	-11.2211
右符鎮	-11.2211
百變	-11.2211
男左女右	-11.2212
庥	-11.2212
法式	-11.2213
隨宜	-11.2215
搗末	-11.2215
吟詠	-11.2217
六情	-11.2217
閉地户	-11.2218
八節之日	-11.2219
餓鬼	-11.2219
拱手	-11.222
考勘	-11.2222
攝伏	-11.2223
伏屍	-11.2224
童女	-11.2228
外合行	-11.2228
得道者	-11.223
亦須	-11.2232
三十萬人	-11.2235
虚無自然	-11.2239
上清大洞	-11.2246
取巽炁	-11.2253
閉息	-11.2256
紅塵	-11.2257
想見	-11.2257
延長	-11.2258
死之訟訴其	-11.226
請頒	-11.2262
刻石	-11.2262
雷揈	-11.2268
位列	-11.2271
字號計十卷太上	-11.2273
調理	-11.2278
搜捉	-11.2282
切慮	-11.2283
汗出	-11.2287
五苦八難	-11.2289
晚朝	-11.2291
齊并	-11.2291
下愚	-11.2295
仙伯	-11.2296
身中令	-11.2296
君居之	-11.2296
鎭星	-11.2298
隱顯	-11.23
无復	-11.2304
爾乃	-11.2309
切宜	-11.2312
朝上帝	-11.2313
日月五星	-11.2314
也是以	-11.2316
九天司命	-11.2325
進賢	-11.2331
飛揚	-11.2331
清虛	-11.2333
曜明	-11.2333
黑風	-11.2333
章第十	-11.2335
流俗	-11.2336
直事	-11.2338
敢忘	-11.2343
剔入	-11.2345
等伏聞	-11.2345
二十七日	-11.2353
雷公電母	-11.2354
皈身皈神皈命	-11.2356
取東南炁	-11.2361
鬼户	-11.2362
玄曹	-11.2364
奏上帝	-11.2365
十六日	-11.2368
元尊	-11.2368
分爲三	-11.2368
章詞	-11.2373
向本命	-11.2374
緑字	-11.2377
九千萬人	-11.2378
傳奏	-11.2386
抺額	-11.2389
釋放	-11.2393
百節	-11.2396
何謂	-11.2396
歲月	-11.24
土主	-11.24
電掣	-11.2401
神祠	-11.2403
威嚴	-11.2403
五味	-11.2405
十四日	-11.2411
母元君	-11.2412
水怪	-11.2413
玉虛	-11.2415
澤地	-11.2421
修行人	-11.2426
㫖命	-11.2427
吞魔食鬼	-11.2427
育物	-11.2427
因依	-11.2429
事由	-11.243
鎮宅	-11.243
步斗	-11.2437
塵世	-11.2438
八節日	-11.2438
儼	-11.244
七傷	-11.2445
様	-11.2446
狩	-11.2447
課	-11.2448
鞠	-11.2448
法銜姓九天掌雷採訪使應元保運眞君	-11.245
齋儀	-11.245
道經當思	-11.2453
廣成先生杜光庭刪定	-11.2454
雷公電母風伯雨師	-11.2454
普及	-11.2455
二捻上香	-11.2456
陽間	-11.2457
癢	-11.2458
激剥	-11.2458
瑛	-11.2459
霏	-11.2459
紛紜	-11.246
暦	-11.246
眩	-11.2461
盥	-11.2461
𥨸	-11.2462
天牢地獄	-11.2462
肖	-11.2462
斛食	-11.2462
黍珠	-11.2462
恥	-11.2462
嫁娶	-11.2463
汨	-11.2463
包巾	-11.2463
鐡	-11.2463
禱雨	-11.2463
和與道合真	-11.2463
咽喉	-11.2464
瘦	-11.2464
曳	-11.2465
正一盟威	-11.2466
阻滯	-11.2466
十方靈寳天尊	-11.2469
椀	-11.2469
剛柔	-11.2469
慾界	-11.2472
金鈕	-11.2472
伏羲	-11.2472
究竟	-11.2473
誌	-11.2473
愚癡	-11.2474
栗	-11.2474
收擒	-11.2475
䇿杖	-11.2476
學道之士	-11.2476
龜蛇	-11.2476
塵垢	-11.2476
六國	-11.2476
北陰	-11.2477
迷惑	-11.2478
十一曜	-11.2478
歸根	-11.2478
義曰	-11.2479
苦趣	-11.2481
太上无極大道	-11.2482
奔星	-11.2486
未曽	-11.2489
滯魄	-11.249
億千	-11.2493
五芝	-11.2494
務要	-11.2495
與語	-11.2496
符到處	-11.2496
閉眼	-11.2497
春三月	-11.2499
漢天師	-11.2499
六戊	-11.2501
充滿	-11.2502
煥落	-11.2505
度亡䰟	-11.2508
鬼邪	-11.2509
反覆	-11.2511
如此之人	-11.2516
半升	-11.2518
西北炁	-11.2519
衣裳	-11.2521
虎頭	-11.2523
削罪	-11.2529
法橋	-11.2529
寅午	-11.2529
他日	-11.2537
合藥	-11.254
六賊	-11.254
醫治	-11.2542
不染	-11.2543
請祈	-11.255
文彩	-11.2556
全形	-11.2556
永劫	-11.2557
犯罪	-11.2557
遣將	-11.256
馘滅	-11.2564
大帥	-11.257
結盟	-11.2572
各宜	-11.2576
玄範	-11.2577
遣使	-11.2577
蒼龍	-11.2581
以朱書	-11.2581
白雪	-11.2589
仰望	-11.2604
輔我	-11.2604
祝香	-11.2605
雷帥	-11.2611
考鬼	-11.2612
玉篆	-11.2617
霄漢	-11.2628
瓊書	-11.2628
酒食	-11.2634
二十日	-11.2638
追鬼	-11.265
高聲	-11.2654
諸司官將	-11.2659
七返	-11.2661
立差	-11.2662
解禳	-11.2667
斡	-11.2687
羅列左右	-11.2691
科戒	-11.2697
玉契	-11.2699
甲等	-11.2702
十二人上靈官右	-11.2713
又豈	-11.2716
九州都仙太史	-11.2719
暘谷神王	-11.2722
合干去處	-11.2722
濟生度死	-11.2723
領詞䖍切	-11.2724
並朱書	-11.2724
雞犬	-11.2724
南華真經	-11.2725
天上地下	-11.2726
葺	-11.2726
元亨利貞	-11.2726
行住坐卧	-11.2728
事干利濟	-11.2728
者徒三年	-11.2728
君五人官將一百二十人治	-11.2729
太乙火府	-11.2729
惡夢	-11.2729
昇入無形	-11.273
悼	-11.273
寜	-11.2731
辛亥	-11.2731
稼	-11.2731
彫	-11.2732
大梵隱語	-11.2732
膜	-11.2733
鱉	-11.2733
張元伯	-11.2733
庠	-11.2733
尾閭	-11.2734
舛	-11.2734
皮膚	-11.2734
岫	-11.2735
鐵板	-11.2735
天清地	-11.2735
七十二候	-11.2736
三洞羣仙録卷之	-11.2736
簾	-11.2737
扶桑大帝	-11.2737
涎	-11.2737
隠	-11.2737
繕	-11.2737
饗	-11.2738
右法掐辰文取巽炁	-11.2738
中斗大魁	-11.2738
罵	-11.2738
瘴	-11.2738
不知何許人	-11.2739
稷	-11.2739
蕭蕭	-11.274
竄	-11.274
帷	-11.2744
翼軫	-11.2744
酣	-11.2744
就某處	-11.275
勑㫖	-11.275
進呈	-11.2751
厭穢	-11.2751
斬精	-11.2752
北斗九皇	-11.2755
吐出	-11.2755
身中三五功曹左右官使者左右	-11.2758
戊申	-11.2759
賢愚	-11.276
辛丑	-11.276
靈嶽	-11.2761
黄芽	-11.2761
總統	-11.2765
碧霄	-11.2766
三洞法師	-11.2768
照驗	-11.2772
速捉	-11.2778
上件	-11.2787
吞下	-11.2793
咽止	-11.28
道果	-11.2803
雷公將軍	-11.2803
思慮	-11.2803
交泰	-11.2803
地獄主者	-11.2805
尊帝	-11.2805
計都	-11.2809
洛書	-11.2811
氣候	-11.2812
洞逹	-11.2812
未判	-11.2815
凡愚	-11.2816
不侵	-11.2817
陰德	-11.282
煎鬼	-11.2821
第十一	-11.2824
聖威	-11.2824
逆順	-11.2826
當司今據	-11.2835
印式	-11.2837
照破	-11.2837
每月	-11.2841
破軍星	-11.2841
關羽	-11.2849
乗虚	-11.2854
一百八十	-11.2858
急急準	-11.2863
災害	-11.2866
飛霄	-11.2881
最靈	-11.2881
毒害	-11.2883
直指	-11.2884
左眼	-11.2899
公卿	-11.29
禮樂	-11.29
二十四治	-11.2901
无色	-11.2907
萬歳	-11.2918
感動	-11.2925
二十四獄	-11.2935
手執金	-11.2947
仙班	-11.2948
天憲	-11.2951
覩此	-11.2952
更加	-11.2953
下副	-11.2954
吏十二人	-11.296
井字	-11.2964
泰玄	-11.2973
本始	-11.2973
日直符	-11.2974
曲垂	-11.2975
上帝訣	-11.2976
遣發	-11.2982
埋於	-11.2982
諸衆生	-11.2983
赤面	-11.2985
𠰢	-11.2985
唵吽吒	-11.2986
十二人上靈官左	-11.299
内錬	-11.2992
二七過	-11.2994
長夜之	-11.2998
孤爽	-11.2999
速達徑御至真無極大道昊天玉皇上帝	-11.2999
上元天官	-11.3
㫁	-11.3001
穰	-11.3001
股	-11.3001
玄都玉京	-11.3001
障礙	-11.3001
女青詔書	-11.3001
慙	-11.3003
軰	-11.3003
靉	-11.3004
評	-11.3004
聞吾呼召	-11.3004
形神俱妙	-11.3004
蛻	-11.3005
眞之德得道之後昇入無形	-11.3005
壼	-11.3006
钁	-11.3007
隴	-11.3007
金龍驛傳	-11.3007
楹	-11.3007
攷	-11.3007
喑	-11.3007
紳	-11.3007
敞	-11.3007
丈夫	-11.3007
塞鬼路穿鬼心破鬼肚	-11.3007
竈中	-11.3008
茫茫	-11.3008
鐵棒	-11.3008
二寸四分	-11.3008
無形無名	-11.3009
元綱流演	-11.3009
巔	-11.3009
金錢甲馬	-11.301
嫉妬	-11.301
某月某日	-11.301
瞳	-11.301
懇禱	-11.3012
彗	-11.3012
聿	-11.3012
瀛	-11.3013
營衞	-11.3013
辛漢臣	-11.3013
高道傳道士	-11.3013
睦	-11.3016
考掠	-11.3017
繆	-11.3017
葵	-11.3018
寥廓	-11.3018
浦	-11.3018
牢獄	-11.3019
酥	-11.3019
某年月日	-11.302
街	-11.302
冑	-11.302
土皇姓	-11.302
囑	-11.3021
滯爽	-11.3022
三千人	-11.3023
七真曰	-11.3025
靈飛六甲	-11.3027
紫綬	-11.3028
兩半	-11.3028
血脉	-11.3028
遇出行	-11.303
檢察	-11.303
驛吏	-11.3032
赤幘	-11.3032
種田	-11.3033
擁護	-11.3034
千歲	-11.3035
瑞雪	-11.3035
淮南	-11.3038
惠澤	-11.3038
金籙齋	-11.3038
攝䰟	-11.3039
岱嶽	-11.304
特垂	-11.304
豐登	-11.3041
百脉	-11.3042
恭望聖慈允	-11.3044
護法	-11.3044
貪狼星	-11.3045
罔極	-11.3045
覆載	-11.3046
總管	-11.3048
統御	-11.3049
不成官事	-11.3051
獲禱祀	-11.3051
九河	-11.3052
紫戸	-11.3055
杏人	-11.3057
无上三天	-11.3057
洗滌	-11.3057
不妨	-11.3057
道德經	-11.306
打坐	-11.3065
精專	-11.3066
深愆	-11.3067
右件	-11.3068
南海	-11.3069
太玄玉女	-11.307
關申	-11.307
升遷	-11.3074
冲和	-11.3081
馬勝	-11.3083
罩定	-11.3083
佩籙	-11.3087
山崩	-11.3087
今據入意	-11.3095
離卦	-11.3095
火鈴將軍	-11.3095
麻子	-11.3095
炁三口	-11.3095
重撰	-11.3096
社廟	-11.3097
廟在	-11.3098
前導	-11.3099
流演	-11.3102
宣傳	-11.3103
中央土	-11.3109
芝草	-11.3111
立冬	-11.3116
敕赦	-11.3119
咽液九過	-11.3121
宗壇	-11.3122
真妃	-11.3126
不衰	-11.3128
想念	-11.3131
錬魂	-11.3131
奉辭	-11.3131
神霄玉府	-11.3137
諸侯	-11.3138
日月之光	-11.314
入室東向	-11.3148
降鑒	-11.3149
三焦	-11.3154
太古	-11.3155
照會	-11.3157
千古	-11.3158
蓮華	-11.3163
差使	-11.3168
苗稼	-11.317
玉京山	-11.3174
三十年	-11.3175
慈仁	-11.3178
映照	-11.3181
始祖	-11.3184
准此	-11.3185
監壇	-11.3185
冥官	-11.3187
科格	-11.3187
施食	-11.3189
咽炁	-11.3191
奉承	-11.3191
造物	-11.3196
元始天尊說	-11.32
取煞炁	-11.3209
流血	-11.3218
於某日	-11.3221
角封	-11.3221
北方蠻雷	-11.3229
善男子汝	-11.3231
二十四字	-11.3231
入宅	-11.3235
年限	-11.3236
保守	-11.3241
二人天靈赤官	-11.3244
勿食	-11.3256
皇上帝	-11.3258
謹啓以聞	-11.3266
言訖	-11.3268
飛瓊	-11.3269
三上香	-11.327
成官事	-11.3277
頭面	-11.3278
邵陽雷公	-11.328
普掠	-11.3281
丹臺新録	-11.3283
薤	-11.3285
吃	-11.3285
吝	-11.3286
左右侍	-11.3286
篋	-11.3286
販	-11.3286
沿	-11.3287
督勒	-11.3288
四極明科	-11.3288
玉女五帝直符直日香官各三十六人	-11.3289
徤	-11.3289
仗劍	-11.3289
急急如元始上帝敕	-11.329
億曽萬祖	-11.329
媚	-11.329
蟠	-11.329
懲	-11.3291
自縊	-11.3292
哥	-11.3292
忍辱	-11.3292
𡜍	-11.3292
廣寒	-11.3292
捜	-11.3292
須㬰之頃	-11.3293
𡄼	-11.3293
名山大川	-11.3293
從官十四人	-11.3293
童初府	-11.3293
鄧伯温	-11.3293
昂	-11.3294
渟	-11.3294
㐲	-11.3294
悟微子	-11.3295
姜	-11.3295
燿	-11.3295
茲	-11.3295
甯	-11.3295
貝	-11.3296
素車白馬	-11.3297
殫	-11.3297
夢寐	-11.3298
王功曹僕射使者百二十人出	-11.3298
疑惑	-11.3298
烜	-11.3298
謄奏	-11.3298
噫	-11.3299
轍	-11.33
奧	-11.3301
態	-11.3301
赤松子	-11.3301
中理五炁	-11.3301
腎炁	-11.3301
簷	-11.3302
司命司録	-11.3303
抹	-11.3303
萊	-11.3303
個	-11.3304
吠	-11.3304
東方蠻雷	-11.3304
周匝	-11.3305
鉤	-11.3306
拒逆	-11.3306
九幽地獄	-11.3308
急急如丹霄流金火鈴律令	-11.331
貧窮	-11.331
戊已	-11.3311
辛卯	-11.3311
按摩	-11.3312
皂紙	-11.3315
三素元君	-11.3315
眞誥	-11.3316
昭鑒	-11.3318
地軸	-11.3321
天門開	-11.3321
𡨚對	-11.3322
卷一之六	-11.3324
桃花	-11.3325
儀範	-11.3325
復鑪	-11.3327
解寃	-11.3328
朗徹	-11.3329
右符佩服	-11.334
仰祝曰	-11.3343
靈祇	-11.3345
青黄白	-11.3345
取汁	-11.3348
將班	-11.335
披雲	-11.3365
虚靖	-11.3365
丁立	-11.3373
落落	-11.3385
塵穢	-11.3386
炁候	-11.3386
坐忘	-11.3389
翼星	-11.3391
大腸	-11.3394
左右前後	-11.3395
告之曰	-11.3412
姓某謹封	-11.3414
科式	-11.3426
掐訣	-11.343
某年某月某日	-11.3431
損傷	-11.3435
恭奉	-11.3436
諸人死鬼	-11.3436
少微	-11.3444
具位小兆	-11.3448
諸正神	-11.3448
緫監	-11.3451
太清大帝	-11.3452
引導	-11.3456
立夏	-11.3465
引魂	-11.3472
祛邪	-11.3475
丹田宫	-11.3479
不倦	-11.3484
驅治	-11.3485
呪謹請	-11.3486
栢木	-11.3487
務令	-11.3491
孝子	-11.3491
旣畢	-11.3499
笑曰	-11.3509
□□□□	-11.3515
賜我	-11.352
疫毒	-11.3523
病苦	-11.3525
下層	-11.3526
北方黑帝	-11.3529
境土	-11.3538
用此符	-11.3545
利物	-11.3547
拜發	-11.3547
神者請	-11.3554
律令右法	-11.356
得道之後昇入無形	-11.3573
隍	-11.3575
朋友	-11.358
置貨	-11.358
劾	-11.3583
赤天三五混沌	-11.3583
取北炁	-11.3584
淘	-11.3584
幃	-11.3584
天蓬都元帥	-11.3584
南極長生大帝	-11.3584
阮	-11.3585
玉清聖境	-11.3585
芙蓉	-11.3585
區區	-11.3585
須至奏聞者右	-11.3585
恭望天慈	-11.3585
娱	-11.3586
悛	-11.3587
攸司	-11.3587
速現形	-11.3588
陪	-11.3588
蹉	-11.3588
㡬	-11.3588
魑魅	-11.3588
冢	-11.3589
中元地官	-11.359
忻	-11.3591
樽	-11.3591
慿	-11.3591
驥	-11.3591
閩	-11.3591
慜	-11.3592
乾坎艮震	-11.3592
旭	-11.3592
霹靂轟轟	-11.3592
企	-11.3593
哮吼	-11.3593
遊奕	-11.3593
蔓	-11.3594
癩	-11.3595
兩眉間	-11.3596
辰戌丑未	-11.3597
轝	-11.3597
諍	-11.3597
交姤	-11.3598
右符訣在	-11.3598
雙目	-11.3598
霾	-11.3598
姥	-11.3599
懈怠	-11.3599
燒殺	-11.36
廊	-11.36
支干	-11.3603
碩	-11.3605
萬神朝禮	-11.3605
無鞅	-11.3606
持誦	-11.3608
錢財	-11.3611
東方九炁	-11.3613
靈寳官屬	-11.3614
隱韻	-11.3614
欽承	-11.3615
東嶽泰山	-11.3616
翌日	-11.3617
營護	-11.3622
玉磬	-11.3627
集註	-11.3628
黄婆	-11.363
步虚	-11.3631
編集	-11.3635
崑崙山	-11.3639
參差	-11.3639
到奉行	-11.3639
捉崇	-11.3641
前程	-11.3646
乾卦	-11.3647
啓祝	-11.3651
仰冀	-11.3654
日午時	-11.3656
了然	-11.3658
急切	-11.3664
經絡	-11.367
死尸	-11.3671
印篆	-11.3674
左手雷局	-11.3679
地網	-11.3683
地支	-11.3684
秘訣	-11.3686
安宅	-11.3688
弘道	-11.3689
祕㫖	-11.3694
髙晨	-11.3694
可畏	-11.3695
无崖	-11.3697
七竅	-11.3698
灾厄	-11.3699
斯須	-11.3701
布施	-11.3701
捉邪精	-11.3703
相尅	-11.3703
紫芝	-11.3704
青霄	-11.3716
聖祖	-11.3718
古儀	-11.3718
吉慶	-11.3725
典格	-11.3732
教授	-11.3738
九鼎	-11.3739
圎光	-11.374
跪奏	-11.3744
百魔	-11.3746
醮官	-11.375
金槍	-11.375
魔障	-11.3755
衣九色	-11.3762
黑色	-11.3763
念後呪	-11.3765
晏子	-11.3765
第十三	-11.3776
玉霄	-11.3781
龍蛇	-11.3783
金魚	-11.3792
華房	-11.3799
舉家	-11.3806
思惟	-11.3809
二枚	-11.3823
滿室	-11.3826
仙化成人	-11.3827
腹内	-11.3834
符散形	-11.3839
神后	-11.3845
天大魔王	-11.3865
本職	-11.3867
經一部	-11.3872
向來所啓之誠	-11.3872
睿號	-11.3877
寰	-11.3879
堆	-11.388
囚徒苦爽	-11.388
英百靈衆真交㑹在此香火爐前當願	-11.3881
身有光明	-11.3884
劣	-11.3884
燦爛	-11.3885
葆	-11.3886
餞	-11.3886
操捧上達	-11.3886
体	-11.3887
等皈身皈神皈命首體投地以是	-11.3887
誅邪	-11.3887
杳杳冥冥	-11.3887
寮	-11.3887
懿	-11.3887
珎	-11.3888
聴	-11.3888
𠻗	-11.3888
瞽	-11.3888
鈍	-11.3888
亞獻	-11.3888
悴	-11.3888
拘囚	-11.3889
臯	-11.389
徙	-11.389
挽	-11.389
獰	-11.3891
靈書中篇	-11.3891
上清三洞弟子靈寳領教嗣師王契眞纂	-11.3891
嬰孩	-11.3892
踢	-11.3892
暝	-11.3892
乾元亨利貞	-11.3892
本命元辰	-11.3893
五色綉衣玉女五伯人	-11.3893
天蓬大元帥	-11.3893
杜光庭	-11.3894
臟腑	-11.3894
三層	-11.3894
鐵圍	-11.3894
沫	-11.3894
禾稼	-11.3895
兎	-11.3895
牋	-11.3895
眇眇	-11.3896
軟	-11.3896
𡵯	-11.3896
塵埃	-11.3896
咸遵	-11.3897
漓	-11.3897
三天玉童	-11.3897
倏忽	-11.3897
刄	-11.3897
尚未	-11.3899
旺炁	-11.3899
謹上請	-11.3899
雞鳴	-11.39
謨	-11.3902
噬	-11.3902
暐曄	-11.3903
午文南炁	-11.3904
殄滅	-11.3904
顚倒	-11.3907
真君聖前	-11.3907
薦拔	-11.391
藥叉	-11.3911
我身形	-11.3913
墮落	-11.3914
松脂	-11.3915
正月一日	-11.3916
細辛	-11.3917
前後左右	-11.3917
兩眉	-11.3918
奇羅	-11.3919
蚓	-11.392
輔翼	-11.392
胞根	-11.3921
禳灾	-11.3922
歡樂	-11.3923
南方火德	-11.3925
驅馳	-11.3925
何異	-11.3926
昭格	-11.3931
靜默	-11.3931
疾速奉行	-11.3931
混雜	-11.3935
菌	-11.3936
朗耀	-11.3938
太微帝君	-11.3946
鬱絶	-11.3947
㧞罪	-11.3949
升騰	-11.3951
八荒	-11.3953
流芳	-11.3954
紀篇	-11.3954
希微	-11.3954
揚州	-11.3955
五蔵	-11.3955
温酒	-11.3955
上學之士	-11.396
髙虚	-11.3965
勤修	-11.3966
住宅	-11.3966
片時	-11.3969
左脚	-11.3969
八卦大神	-11.3971
衆諷	-11.3972
停輪	-11.3981
俯降	-11.3988
重泉	-11.3993
利害	-11.3994
孟子	-11.4007
斬妖精	-11.401
未曾	-11.4016
無虞	-11.4019
區分	-11.4021
司迎	-11.4023
封皮	-11.4039
口鼻	-11.404
謀事	-11.4041
了了	-11.4049
修崇	-11.4063
筋骨	-11.4063
吿下	-11.4066
炁吹布	-11.4067
禍害	-11.4073
上昇玉清	-11.4075
入口中	-11.4081
飛行羽	-11.4085
機關	-11.4096
速臨	-11.4099
臨壇所	-11.4113
臣某等	-11.4116
二十九日	-11.4117
吉疾病	-11.4137
青華大帝	-11.4141
唎吒	-11.4152
𠃔	-11.4153
凡道士	-11.4159
周圓	-11.4172
兵馬九億萬騎出	-11.4176
疆	-11.4176
煥煥	-11.4177
經洞玄靈寳	-11.4178
祈請	-11.4181
托人用事	-11.4184
巿	-11.4185
君官將一百二十人	-11.4185
飛鷹走犬	-11.4188
西方蠻雷	-11.419
求官陞職	-11.419
火索	-11.419
據詞難抑	-11.419
根刷	-11.4191
七日七夜	-11.4193
澤地土皇君	-11.4193
太清仙境	-11.4194
真道炁靈寳瑞光下降流入	-11.4195
囿	-11.4195
隊仗	-11.4195
北帝曰下元生人	-11.4196
天赦寳章	-11.4196
猜	-11.4197
恤	-11.4197
澍	-11.4197
應元保運	-11.4198
三河四海	-11.4199
六十四卦	-11.4199
轟雷掣電	-11.4199
今故燒香	-11.4199
娶	-11.4199
栽	-11.4199
兜鍪	-11.42
今故燒香自皈依師尊大聖衆至	-11.42
器械	-11.42
貪巨禄文	-11.42
飭	-11.4202
憾	-11.4202
救民疾苦	-11.4203
蹔	-11.4203
仰希	-11.4204
許旌陽	-11.4204
址	-11.4204
嬌	-11.4204
領詞難抑	-11.4205
茭龍驛吏	-11.4206
糜	-11.4206
耐	-11.4206
庾	-11.4207
妍	-11.4208
衫	-11.4208
籌	-11.4208
此天中人壽	-11.4209
擦	-11.4209
胄	-11.4209
惰	-11.4209
墀	-11.4209
鍚	-11.4209
踞	-11.421
𦤺	-11.4211
蠢動	-11.4211
森列	-11.4211
靈寳領教	-11.4211
金璫	-11.4211
光彩	-11.4212
滄海	-11.4213
䖍誠	-11.4213
大悲天尊	-11.4213
南斗上生	-11.4215
七壯	-11.4215
九眞妙戒	-11.4216
刮	-11.4217
菓	-11.4217
燦然	-11.4218
扶衰	-11.4219
玉女二十四人	-11.422
金鐶	-11.4224
洞𤣥靈寳	-11.4224
泄露	-11.4225
亡爽	-11.4225
分三服	-11.4227
飛捷使者	-11.4229
戊巳	-11.4229
青紙朱書	-11.423
束首	-11.4231
沉沉	-11.4232
十方無極世界	-11.4233
排列	-11.4233
某人等	-11.4233
仰荷	-11.4234
往往	-11.4236
念前呪	-11.4239
天民壽數	-11.4239
臍中	-11.4239
神將吏兵	-11.4242
長三尺	-11.4243
發揮	-11.4244
六丙	-11.4246
提舉	-11.4247
周迴	-11.4248
斡運	-11.425
貪著	-11.4253
威雄	-11.4254
驅逐	-11.4254
慕道	-11.4257
七十二將	-11.4257
投狀	-11.426
養育	-11.4263
丁罡	-11.4267
瓊房	-11.4267
玉珮	-11.4269
求哀	-11.4273
皆可用	-11.428
何縁	-11.428
五百年	-11.4281
掐煞文	-11.4284
紫微垣	-11.4288
雷演	-11.429
三五將軍	-11.4293
金橋	-11.4297
依格	-11.4298
鬼爽	-11.4305
甲庚	-11.4308
各十二人	-11.431
承差	-11.4316
災凶	-11.4318
一斛	-11.4319
百二十曹	-11.4326
邪魅	-11.4331
是夕	-11.4334
會首	-11.4334
承誥奉行宗師金闕昭凝妙道保仙元君	-11.434
黄絹	-11.435
校定	-11.4352
從官十二人	-11.4353
弟子某家	-11.4358
歳星	-11.4368
呪曰唵	-11.4377
疾患	-11.4378
隱藏	-11.4383
安泰	-11.4391
兩手相	-11.4402
浩蕩	-11.4404
龍吟	-11.4409
霖雨	-11.4413
江南	-11.4414
滅蹤	-11.4417
千丈	-11.442
昏迷	-11.4431
違犯	-11.4433
牒式	-11.4434
天人相	-11.4445
巳上並	-11.445
灾害	-11.4457
行於世	-11.4465
六丁玉女	-11.4465
緫領	-11.4467
各一人	-11.447
前項	-11.4471
清凈	-11.4492
翌	-11.4503
科禁	-11.4506
㗭	-11.4511
謹内封方函式	-11.4512
冒犯天威	-11.4513
詭	-11.4513
統制	-11.4513
謀事成事	-11.4513
臟	-11.4515
立俟昭報	-11.4517
清齋入室	-11.4517
温服	-11.4518
上官典者	-11.4519
叮嚀	-11.4519
疇	-11.4519
諸天諸地	-11.452
初捻上香	-11.452
斡旋造化	-11.452
提挈	-11.4521
猖狂	-11.4522
勿妄	-11.4522
如車輪	-11.4523
蒂	-11.4523
十苦八難	-11.4523
臰	-11.4523
鋤	-11.4523
生天寳籙	-11.4524
台將	-11.4524
琢	-11.4524
辟斥	-11.4524
受化更生	-11.4524
翕	-11.4525
衆等至心皈命	-11.4525
敢有干試	-11.4525
五丁都司	-11.4525
太上大道君太上老君昊天玉皇上帝	-11.4526
癆	-11.4526
熈	-11.4527
喗吒唎	-11.4527
誠惶誠恐稽首再拜	-11.4527
掃蕩妖氛	-11.4527
彝	-11.4527
嵓	-11.4528
流火之庭	-11.4528
僅	-11.4528
陶鎔	-11.4528
經籍度三師	-11.4529
之精思之還反真形修行	-11.4529
寰宇	-11.453
思之還反真形	-11.453
諳	-11.453
太平興國宫	-11.4531
一杯	-11.4531
卉	-11.4531
㝱	-11.4531
窈	-11.4531
灌溉	-11.4532
戹	-11.4532
靂	-11.4532
六十甲子	-11.4532
之精思之還反眞形修行	-11.4532
滂	-11.4532
魁𩲃	-11.4532
閏	-11.4532
姹女	-11.4533
羙	-11.4534
長生大君	-11.4534
棟	-11.4535
瀾	-11.4535
刦	-11.4535
朒	-11.4535
俓詣	-11.4536
窄	-11.4536
墉	-11.4536
拄	-11.4537
甑	-11.4537
不思議	-11.4537
卓劒	-11.4538
詎	-11.4538
璋	-11.4538
昭彰	-11.4539
莊嚴	-11.454
几案	-11.4542
金童玉女	-11.4543
洞照上清	-11.4544
給玉童玉女	-11.4545
蚊	-11.4546
追薦	-11.4546
擺	-11.4547
庶俾	-11.4547
監勒	-11.4548
蜜和	-11.4548
釀	-11.4548
介福	-11.455
借物	-11.4551
瑶臺	-11.4551
佐國	-11.4558
棗木	-11.4558
一百四十	-11.4559
包羅	-11.4559
一顆	-11.456
亦佳	-11.4561
洪造	-11.4561
二經同卷	-11.4561
沉迷	-11.4561
温瓊	-11.4562
紫紋	-11.4562
考罰	-11.4571
侍座	-11.4572
化爲塵	-11.4575
潔淨	-11.4577
南陵	-11.4581
演教	-11.4582
幸勿	-11.4583
斬絶	-11.4584
千愆	-11.4589
吞佩	-11.4591
萬刼	-11.4593
右二符	-11.4595
台光	-11.4597
厄度	-11.4599
陽晶	-11.4599
千遍	-11.4604
畢微祝曰	-11.4611
清㣲	-11.4612
格式	-11.4614
别室	-11.4621
交横	-11.4624
兩眼	-11.4624
太陽帝君	-11.4632
内妃	-11.4632
洞案	-11.4641
獲感通	-11.4649
□□□□□	-11.4657
結界	-11.4657
幽𡨋	-11.4659
二十八日	-11.4672
急急如律令右法	-11.4672
三級	-11.4672
年歳	-11.4676
服之又方	-11.4679
朝拜	-11.4679
宋朝	-11.4679
元祐	-11.468
役遣	-11.4685
掐午文	-11.4699
唎娑訶	-11.4701
竈君	-11.4709
相續	-11.4714
合爲一	-11.4715
騶	-11.472
室主收天下	-11.4724
骨髓	-11.4729
依舊	-11.4738
筆書符	-11.4743
劒訣虚書	-11.4744
狂邪	-11.4746
爍爍	-11.4746
享福	-11.4751
吉昌	-11.4756
魔魅	-11.4773
娑婆	-11.4773
宗祖	-11.4797
太上洞神	-11.4804
寳臺	-11.4809
誠悃	-11.4811
救苦眞符	-11.4829
君解謝之若犯	-11.483
瞤	-11.4832
硤	-11.4847
謹重封	-11.4848
眥	-11.4849
請詳事理	-11.4849
邃	-11.485
剛風騎置	-11.485
迓	-11.4851
跛	-11.4851
撿	-11.4851
𣗳	-11.4851
捺	-11.4852
塚訟	-11.4852
牲	-11.4852
風火無停	-11.4852
懋	-11.4852
落滅惡根	-11.4852
鼈	-11.4853
速附	-11.4853
驛馬上章吏	-11.4854
冡	-11.4854
上明天尊大慈之澤下副	-11.4854
燎	-11.4854
諸君丈人	-11.4855
咽液三過	-11.4855
虫	-11.4855
諂	-11.4856
洞微髙士開光救苦眞人𡩋全眞授	-11.4856
鄷	-11.4857
粤	-11.4857
當司據	-11.4857
鯨	-11.4858
蔕	-11.4858
穿鬼心	-11.4858
貳	-11.4858
廉武破	-11.4859
鐺	-11.4859
閟	-11.486
惹	-11.486
二人天靈赤官斬邪	-11.4861
梟	-11.4861
疾除罪簿落滅惡根	-11.4861
玃	-11.4862
混洞赤文	-11.4862
籖	-11.4863
如梧子	-11.4863
迢	-11.4863
怕	-11.4864
夾脊雙關	-11.4864
屎	-11.4864
汩	-11.4868
譏	-11.4868
姤	-11.4868
梧桐	-11.4868
駡	-11.4868
重封印全	-11.4868
入將名	-11.4869
絞取汁	-11.487
遷賞	-11.487
罣	-11.4871
冒犯	-11.4871
長六寸	-11.4871
四司五帝	-11.4871
鬱單	-11.4872
兵戈	-11.4873
敲	-11.4873
樣	-11.4874
紊	-11.4874
樊	-11.4874
項負	-11.4874
畢仰咽	-11.4874
湧泉	-11.4875
暈	-11.4875
瑶池	-11.4875
北斗落死	-11.4876
無幽不	-11.4877
譜録	-11.4877
甘澤	-11.4878
解𡨚	-11.4878
疾疫	-11.4878
非智慧也	-11.4879
清涼	-11.488
北帝伏魔	-11.4882
如大豆	-11.4884
學道之人	-11.4884
祈嗣	-11.4885
眉間	-11.4886
千二百官	-11.4889
九江水帝	-11.489
韓司	-11.4892
延康	-11.4892
倣此	-11.4894
撰集	-11.4895
顯揚	-11.49
玉清上宫	-11.4903
校録	-11.4903
脚踏	-11.4903
五千文	-11.4904
紅髮	-11.4909
丹悃	-11.4911
塵濁	-11.4912
從官十三人	-11.4914
豈容	-11.4914
諸大衆	-11.4915
科典	-11.4919
在目前	-11.4921
住滯	-11.4922
林泉	-11.4927
太史	-11.4929
百尺	-11.493
六壬	-11.493
星君門下	-11.4931
惡瘡	-11.4933
轟天霹靂	-11.4933
宣讀	-11.4942
六趣	-11.4942
紀綱	-11.4943
空腹	-11.4945
超升	-11.4945
幽沉	-11.4946
翠羽	-11.4951
請禱	-11.4953
改過	-11.4955
休息	-11.4959
群品	-11.4972
煌煌	-11.4973
五枚	-11.4975
章詞表	-11.4976
字蓋之	-11.4983
中央蠻雷	-11.4984
配合	-11.4994
玄洲	-11.4998
之道當以	-11.5015
於中庭	-11.5016
之氣更受錬	-11.5056
照曜	-11.5078
頭頂	-11.5097
朱墨	-11.5101
午戌	-11.512
功勤	-11.5128
等身中	-11.5153
禍患	-11.516
將九億萬騎出无上	-11.516
䘖	-11.5181
鞅	-11.5185
至壇前	-11.5185
上部洞天八景自然靈寳神仙	-11.5187
㔶	-11.5189
拈	-11.5189
是名眞人觀諸法性得决定心	-11.5189
丸如梧子大	-11.519
笥	-11.5191
唐葛周	-11.5193
中部洞玄八景自然靈寳神仙	-11.5194
眞道炁靈寳瑞光下降流入臣	-11.5194
鳴法鼓二十四通	-11.5195
藩	-11.5196
東極青宫	-11.5196
身中令臣所啓	-11.5196
誠惶誠恐	-11.5197
太一十神	-11.5197
真之德得道之後昇入無形	-11.5198
癥	-11.5198
俺	-11.5199
大慈大悲	-11.52
踴躍	-11.52
兵士十萬人	-11.52
須至關者右關	-11.52
𦔳	-11.52
太霄琅書	-11.5201
犒	-11.5201
超凡入聖	-11.5201
巒	-11.5201
庖	-11.5201
譴責	-11.5202
策杖	-11.5203
三捻上香	-11.5203
彷彿	-11.5203
合明天帝日	-11.5204
飛沙走石	-11.5204
帝君元始洞空自然髙上王炁金闕上聖	-11.5204
毗	-11.5204
錐	-11.5205
麓	-11.5205
風刀之考	-11.5205
棹	-11.5205
鵬	-11.5205
閤	-11.5206
速現眞形	-11.5206
十方飛天神王	-11.5206
誅戮	-11.5206
坐在立亡	-11.5206
天真皇人	-11.5206
葛仙翁	-11.5207
闌	-11.5207
嘯命風雷	-11.5207
皂莢	-11.5207
鉞斧	-11.5207
不得稽停	-11.5207
睹	-11.5208
寂寞	-11.5208
笏	-11.5208
鬻	-11.5208
躅	-11.5209
蜜丸	-11.5209
各二十四人出	-11.5209
瓊瑶	-11.5209
下部洞靈八景自然靈寳神仙	-11.521
扎	-11.521
榛	-11.521
掀	-11.521
閼	-11.521
皂靴	-11.5211
續仙傳	-11.5211
胡粉	-11.5211
淑	-11.5211
窗	-11.5212
催督	-11.5212
溝	-11.5212
乆乆	-11.5212
炷香	-11.5213
謄詞	-11.5213
笛	-11.5213
灝	-11.5214
沒	-11.5214
毓	-11.5215
蒿	-11.5215
伏匿	-11.5215
金馬驛	-11.5215
五方蠻雷使者	-11.5215
橋梁	-11.5215
繡衣	-11.5216
南嶽夫人	-11.5216
蜚	-11.5217
闗	-11.5217
檢校	-11.5218
龍行雨	-11.5219
稽滯	-11.5219
混元上德皇帝	-11.5221
昏暗	-11.5221
艱難	-11.5222
九月九日	-11.5222
火瓢	-11.5223
急急如上帝律令敕	-11.5225
煎湯	-11.5226
飢寒	-11.5228
綱維	-11.5228
百歲	-11.5228
祠廟	-11.5231
玉皇上帝敕	-11.5231
尚父	-11.5233
哀哉	-11.5233
癸申	-11.5239
盛衰	-11.5242
效職	-11.5242
十方世界	-11.5243
武夷	-11.5245
動静	-11.5246
賛化	-11.5248
送迎	-11.5253
形軀	-11.5255
筆硯	-11.5265
百川	-11.5266
髙座	-11.5266
三經同卷	-11.527
中指中節	-11.5271
調息	-11.5274
朱髮	-11.5277
忠信	-11.5279
佳又方	-11.5281
劈開	-11.5281
拯救	-11.5282
批發	-11.5292
長一丈	-11.5296
演說	-11.5303
斬殺	-11.5309
邵子	-11.531
墨黑	-11.5312
琳宫	-11.5313
夜卧	-11.5333
獄吏	-11.5336
等皈身皈神皈命	-11.5337
讀誦	-11.5343
某州郡縣郷里	-11.5347
唵吒	-11.5361
槍	-11.5362
尸穢	-11.537
三官大帝	-11.538
二炁交	-11.5407
月五日	-11.5424
靈寳大法司牒	-11.5449
胎嬰	-11.5457
準敕	-11.5473
高上玉皇	-11.5475
利六畜	-11.5492
土地正神	-11.5516
宿天華雷	-11.5521
採訪真君	-11.5531
掐子文	-11.5531
茭	-11.5541
眞人告童子言善見童子若諸眞人	-11.5544
天神地祇	-11.5545
恭望道慈	-11.5546
揣	-11.5549
神功妙濟眞君	-11.555
玉女五帝直符直日香官合三十六人	-11.555
滔	-11.5551
狐狸	-11.5551
珪	-11.5551
里域眞官	-11.5552
奬	-11.5552
品九億萬諸靈官飛龍騎吏	-11.5552
王氏神仙傳王	-11.5552
懶	-11.5553
須至牒者右牒上	-11.5553
各禮師存念如法宣衛靈呪	-11.5553
興販	-11.5553
伏須告報	-11.5554
天眞皇人	-11.5554
人惡星當滅復連當絶	-11.5554
扈	-11.5555
辟惡	-11.5555
匙	-11.5555
闡揚	-11.5555
舋	-11.5556
神烈陽雷神君苟留吉陰雷神君畢宗逺	-11.5557
藜	-11.5557
青龍白虎	-11.5557
羡	-11.5557
文又言敕	-11.5558
無動無作	-11.5558
駿	-11.5558
倶	-11.5558
㳺	-11.5559
潄	-11.5559
鄷都	-11.5559
六道四生	-11.556
悦	-11.556
叩齒三十二通	-11.556
㳙	-11.5561
禾苗	-11.5561
慊	-11.5561
羈	-11.5561
産孕	-11.5561
芟	-11.5561
貪巨禄文廉武破	-11.5561
徇	-11.5562
詛	-11.5562
時刻昇遷	-11.5562
土溽	-11.5562
廖	-11.5562
聖意訟	-11.5562
吽吒	-11.5563
夔	-11.5563
甲子庚申	-11.5563
左右龍虎君	-11.5563
稍稍	-11.5563
破鬼肚	-11.5563
燔	-11.5564
漲	-11.5564
謟	-11.5564
𠮷	-11.5564
崑	-11.5564
窠	-11.5564
蚕	-11.5564
以是因縁	-11.5564
蛟蜃	-11.5565
彤	-11.5565
怳	-11.5566
歐	-11.5566
樞紐	-11.5567
浮空而來	-11.5568
混元玉札	-11.5568
趺	-11.5568
萬里之外	-11.5569
貧富	-11.5569
稽停	-11.5569
叱咄	-11.557
妓	-11.557
瑩徹	-11.557
牡	-11.557
矜允	-11.5571
天動地	-11.5572
太嵗	-11.5573
七祖充責	-11.5573
角亢氐房心尾箕	-11.5573
惺	-11.5574
指中節	-11.5574
在上清之上	-11.5575
未甞	-11.5575
驅瘟	-11.5577
周而復始	-11.5577
遨遊	-11.5578
縻	-11.5578
右手劔訣	-11.5578
此間土地	-11.5579
得解脫	-11.5579
彪	-11.558
夙夜	-11.5581
竹葉	-11.5581
尹喜	-11.5583
殃咎	-11.5583
黒簿	-11.5583
敷揚	-11.5586
宗皇帝	-11.5587
髙穹	-11.5587
東方朔	-11.5589
符掾吏	-11.5589
口衘	-11.5592
充盈	-11.5592
升麻	-11.5592
作孽	-11.5593
霹靂一聲	-11.5593
黑簿	-11.5593
立春之日	-11.5595
超脫	-11.5595
大指搯	-11.5595
忠良	-11.5596
吸炁吹	-11.5597
宿炁名	-11.5602
雷神速起	-11.5607
决定	-11.5611
胷前	-11.5613
保舉師	-11.5615
千年仙矣	-11.5617
鐵城	-11.5618
偶然	-11.562
己酉	-11.5621
昇騰	-11.5629
玉帝勑	-11.5632
改易	-11.5636
年齡	-11.565
申東嶽	-11.5651
緊急	-11.5651
年月日時告下具位姓	-11.5664
□□□□□□	-11.5671
舊典	-11.5678
銅器	-11.568
求財利	-11.5686
名之爲	-11.569
黄老君	-11.5692
孰能	-11.5698
遭遇	-11.5707
準勑	-11.5722
捉縛	-11.573
隂翳	-11.5733
百億	-11.5738
亢陽	-11.5741
虎嘯	-11.5741
寅午戌	-11.5758
掾	-11.5769
功勳	-11.5795
卷有圖	-11.5804
飛行上昇	-11.5811
再拜上奏	-11.5835
第七十	-11.5856
炁咽之	-11.5863
獄主者	-11.5871
案判官	-11.588
獄符呪曰神霄眞王勑下九天	-11.5882
十四枚	-11.5901
遟	-11.5904
者分形諸邪神	-11.5908
腹痛	-11.591
倣	-11.591
太平興國	-11.5914
北都羅酆	-11.5917
憤	-11.5917
哀憐	-11.5918
字號計十	-11.5919
雷霆九司	-11.5921
麤	-11.5921
無鞅數衆	-11.5921
潦	-11.5921
衛我九重	-11.5922
土地方域神真	-11.5922
凝神定息	-11.5922
蓊鬱	-11.5922
保舉監度度師	-11.5922
纎	-11.5923
悚	-11.5923
黄華蕩形	-11.5924
欄	-11.5924
狐疑	-11.5924
急急如太上老君律令	-11.5924
大將軍百二十人北極神呪勑	-11.5925
空玄之中	-11.5925
三洞經籙	-11.5926
燃燈	-11.5926
臆	-11.5926
闊三寸	-11.5927
與道合真鳴法鼓二十四通無上三天玄	-11.5927
治太上中氣	-11.5927
灌漑	-11.5927
反嬰	-11.5928
鳧	-11.5929
螣蛇	-11.5929
竦	-11.593
癖	-11.593
悵	-11.593
五靈玄老	-11.593
嚴駕夔龍	-11.5931
驅雷役電	-11.5931
倡	-11.5931
褥	-11.5932
斟	-11.5932
兖	-11.5933
堯舜	-11.5933
裕	-11.5934
上生天堂	-11.5934
掖	-11.5934
問訊	-11.5935
修齋行道	-11.5935
殖	-11.5935
鈐	-11.5935
灰燼	-11.5935
彊	-11.5936
天一生水	-11.5936
啗	-11.5936
旋遶	-11.5936
開明三景	-11.5936
寇	-11.5936
普掃不祥	-11.5937
善哉善哉	-11.5937
烘	-11.5937
覬	-11.5937
廡	-11.5937
聮	-11.5937
西斗記名	-11.5938
宋無忌	-11.5938
羌	-11.5939
君之道常以	-11.5939
蚣	-11.5939
綾	-11.5939
癲	-11.594
茭龍	-11.5941
终	-11.5941
親踈	-11.5941
立成儀	-11.5942
閽	-11.5943
破地召雷	-11.5943
三界眞司	-11.5943
羹	-11.5943
榆	-11.5944
茱	-11.5944
蜃	-11.5944
諶	-11.5944
漢武帝	-11.5945
蛛	-11.5945
井鬼柳星張翼軫	-11.5945
澁	-11.5946
盼	-11.5946
巨獸	-11.5947
五色獅子	-11.5947
馮夷	-11.595
緊切	-11.5951
耳聾	-11.5951
枳	-11.5951
觜參	-11.5952
烟霞	-11.5953
騫林	-11.5954
鬱秀	-11.5955
麝香	-11.5956
欽崇	-11.5957
典祀	-11.5958
樓臺	-11.5958
充塞	-11.5958
俯賜	-11.5959
合而爲一	-11.5959
北方黒	-11.596
愚迷	-11.5962
第九十	-11.5963
少頃	-11.5964
併力	-11.5964
不知所在	-11.5966
寒池	-11.5966
細研	-11.5968
巡遊	-11.5969
斬伐	-11.5969
留停	-11.5969
緫統	-11.5972
沉䰟	-11.5973
推遷	-11.5974
清浄	-11.5975
推移	-11.5977
等謹重誠上啓	-11.5978
紫宸	-11.5978
老翁	-11.598
敷露	-11.5984
敷落	-11.5984
宻室	-11.5989
鶴林	-11.5989
瑶壇	-11.5991
周帀	-11.5992
己亥	-11.5995
己丑	-11.6
魈鬼	-11.6009
宅宇	-11.6021
上白天尊	-11.6046
日清旦	-11.6062
儀同卷	-11.6085
願得長生	-11.6099
即差又方	-11.6102
百丈	-11.6104
白絹	-11.6105
盟約	-11.6122
雪雹	-11.6183
妄泄	-11.6192
用黄紙朱書	-11.6194
左手握	-11.6203
寸斬	-11.6217
上帝敕命	-11.6223
邪食邪吏	-11.6267
金籙白簡	-11.6269
北極大帝敕	-11.6282
紫素元君	-11.6297
繳	-11.63
糓	-11.6301
轟霹靂	-11.6303
三界應感一切真靈	-11.6303
北極紫微	-11.6305
鴻濛	-11.6305
挈	-11.6305
狡	-11.6305
田疇	-11.6305
泒	-11.6306
玷	-11.6306
卞	-11.6307
讒	-11.6307
𡆄	-11.6307
投詞伏爲	-11.6308
嚤呢	-11.6308
嬪	-11.6308
侍香金童	-11.6308
干冒師嚴	-11.6309
服方寸匕	-11.6309
𤑔	-11.6309
𩲓	-11.631
杳杳	-11.631
冉冉	-11.631
燼	-11.631
飊	-11.6311
緬	-11.6311
夤	-11.6311
拖	-11.6312
禬	-11.6312
朔單	-11.6313
宗㫖曰兆	-11.6313
者針决	-11.6313
伏候昭報	-11.6313
肴	-11.6313
頤	-11.6314
元始天尊太上道君太上老君	-11.6314
高上神霄玉清王	-11.6314
瑣	-11.6314
琪	-11.6314
哀愍	-11.6315
蔬	-11.6315
元應太皇府	-11.6316
惻	-11.6316
驚怖	-11.6316
稠	-11.6317
悌	-11.6317
輅	-11.6318
濟物利人	-11.6318
炊	-11.6318
天圓地方	-11.6318
陽神决吏	-11.6318
服三丸	-11.6319
查	-11.6319
葢	-11.6319
咖	-11.6319
竺	-11.632
邙	-11.632
南曹執法	-11.6321
抽添	-11.6321
谿	-11.6321
㭒	-11.6322
塵寰	-11.6322
行雨龍王	-11.6323
密呪曰	-11.6323
髭	-11.6324
緋袍	-11.6324
者徒二年	-11.6324
黄素朱書	-11.6324
礪	-11.6325
洞微髙士開光救苦真人𡩋全	-11.6325
永保長生	-11.6326
噤	-11.6326
璇璣玉衡	-11.6326
終南山	-11.6326
盃	-11.6326
湮	-11.6326
鳴天鼓	-11.6327
桃枝	-11.6328
錦之囊	-11.6329
畝	-11.6329
上十方香	-11.6329
眞君度南昌上生	-11.6331
觴	-11.6331
巷	-11.6332
北斗七元星君	-11.6332
宂	-11.6332
媒	-11.6332
鐵札	-11.6334
痹	-11.6335
厲聲	-11.6335
肌膚	-11.6335
回紇	-11.6336
虵	-11.6339
下元生人	-11.6339
銅鐵	-11.6341
預期	-11.6342
辛帥	-11.6343
都天雷公	-11.6343
勤勞	-11.6346
點燈	-11.6347
領敎	-11.6349
元始祖炁	-11.6353
摇動	-11.6353
丑亥	-11.6356
服餌	-11.6367
遇至人	-11.6368
外合行元降	-11.638
籙籙中	-11.639
奉北帝敕	-11.6418
嚥止	-11.6421
指掐	-11.6472
右符黄紙朱書	-11.6472
者分形諸	-11.6473
木板	-11.6483
各三千	-11.6487
惶懼之至謹	-11.6546
海水帝	-11.6548
功曹一十五人	-11.6562
州社令雷神	-11.6577
一百五十	-11.6581
千八百	-11.6591
寅戌	-11.6613
交脚幞頭	-11.6624
金槌	-11.6645
上相青童	-11.6687
直齋僕射百二十人出	-11.6692
土地眞官	-11.6699
各三十六人	-11.67
宿生今世	-11.6701
膊	-11.6701
占財買賣	-11.6702
綏	-11.6703
符章經道	-11.6703
恭望師慈允	-11.6703
空三寸篆符	-11.6704
廬山太平興國宫	-11.6705
十一大曜	-11.6705
喏	-11.6706
㓗	-11.6706
櫛	-11.6707
疸	-11.6707
霶𩃱	-11.6708
鏗	-11.6708
徼	-11.6708
哼	-11.6708
𠷈	-11.6709
聞師省	-11.6709
四明破骸	-11.671
芍藥	-11.671
從上第	-11.6711
高上神霄玉清眞王長生大帝	-11.6711
當司得此	-11.6711
閫	-11.6711
耦	-11.6711
釐	-11.6711
恭望聖慈允今所申	-11.6711
壟	-11.6711
週	-11.6712
蹟	-11.6712
缸	-11.6712
迯	-11.6713
甄	-11.6714
泉扃	-11.6714
罪由不	-11.6714
蹙	-11.6714
肢體	-11.6715
真之德得道之後	-11.6715
鋸	-11.6715
朵	-11.6715
顙	-11.6715
大將軍十萬人玄老	-11.6715
冨貴	-11.6715
三啓三禮	-11.6715
濳	-11.6715
瞋	-11.6716
黷	-11.6716
名山洞府	-11.6717
五道四生	-11.6717
封山破洞	-11.6718
青木香	-11.6718
嶁	-11.6718
羲和	-11.6719
寂然不動	-11.6719
北魁玄範府	-11.6719
君隨四時形影在上清	-11.6719
降眞召靈	-11.672
吾今召汝	-11.672
餉	-11.672
怱	-11.672
橐籥	-11.6721
柈	-11.6721
化僊官	-11.6721
狸	-11.6722
滋味	-11.6722
痕	-11.6722
哀矜	-11.6722
如彈丸	-11.6723
闓	-11.6723
荼	-11.6723
恡	-11.6723
琅函	-11.6723
弁	-11.6723
俄頃	-11.6724
疥	-11.6724
璨	-11.6725
晅	-11.6725
峽	-11.6725
踊躍	-11.6726
槐	-11.6726
怠慢	-11.6726
簮	-11.6726
螟	-11.6727
木郎呪	-11.6727
癰疽	-11.6728
故關年月日關	-11.6728
買賣	-11.6728
溷	-11.6729
幄	-11.6729
自然而然	-11.6729
御製	-11.6729
霑足	-11.673
靈官一百二十人	-11.673
鐵鞭	-11.673
亢旱	-11.673
雙手雷局	-11.6731
彌綸	-11.6731
毫髮	-11.6731
九九八十一	-11.6731
國安民	-11.6731
喝神將	-11.6732
兵革	-11.6732
丹衷	-11.6733
奎婁胃昴畢觜參	-11.6733
纛	-11.6735
蠲除	-11.6736
虛無自然	-11.6736
英雄	-11.6736
皇后	-11.6737
苔	-11.6737
玉蟾	-11.6737
葬埋	-11.6738
尤佳	-11.6741
金匱	-11.6741
紂	-11.6744
庚亥	-11.6744
激電	-11.6745
便咒曰	-11.6748
撼動	-11.6749
幽牢	-11.6749
爾時仙人	-11.6751
金睛	-11.6752
瞻望	-11.6753
鶴鳴	-11.6753
元命眞人	-11.6756
因循	-11.6757
躡紀	-11.6764
溪谷	-11.6765
千六百	-11.6794
老莊	-11.6804
一百六十	-11.6829
保安寧	-11.6844
長九尺	-11.6847
又方搗	-11.6857
天下萬民	-11.6908
一百一十	-11.6973
左手剔	-11.6995
長生度世	-11.7019
社令雷神	-11.7062
遇明師	-11.7108
依應奉行	-11.7113
㔶盖	-11.7114
梳	-11.7118
筯	-11.712
脣	-11.712
炁食炁吏	-11.7121
從兆泥丸中入下布	-11.7121
技	-11.7122
謹内封	-11.7122
綿裹	-11.7123
埜	-11.7123
流鈴八衝	-11.7123
咒詛	-11.7123
三日三夜	-11.7123
贅	-11.7124
薩訶	-11.7124
𡀎	-11.7124
土地方域神眞臣今	-11.7125
巍	-11.7125
橐	-11.7125
挼	-11.7125
宴十方五雲浮蓋招神攝風	-11.7126
優游	-11.7126
鐘磬	-11.7126
晡	-11.7127
勁	-11.7127
上景玉仙飛行	-11.7127
請頒恩命	-11.7127
魂攝魄	-11.7127
南北二斗	-11.7127
苓	-11.7127
一如元降律令	-11.7128
㰱血	-11.7128
依律治罪	-11.7128
俯垂省覽	-11.7128
萎	-11.7128
金眞玉光	-11.7128
钁天大斧	-11.7129
攣	-11.7129
陌	-11.7129
旄	-11.713
衆妙之門	-11.713
厄符右符謹請	-11.713
陂	-11.7131
祈求雨澤	-11.7131
怨道咎師	-11.7131
唫	-11.7132
姧	-11.7132
䝉	-11.7132
何神不伏	-11.7132
恭望洪慈	-11.7132
𩔗	-11.7132
金龍驛吏	-11.7132
陸簡寂	-11.7133
虚無自然元始天尊	-11.7133
五湖四海	-11.7133
明皇道君	-11.7133
冗	-11.7133
琳琅	-11.7134
聘	-11.7134
孜孜	-11.7134
玉晨君北斗	-11.7135
髯	-11.7136
霓旌	-11.7136
夣	-11.7136
建大齋	-11.7136
始青天中	-11.7136
封皮式	-11.7136
擕	-11.7136
渇	-11.7137
以是功德歸流	-11.7137
下台三青	-11.7137
憂惶	-11.7137
欣欣	-11.7137
管轄	-11.7137
身中五體眞官	-11.7137
張道陵	-11.7137
緝	-11.7137
五道三途	-11.7138
立夏之日	-11.7139
涸	-11.7139
通章印	-11.7139
猫犬	-11.7139
金闕玉皇上帝	-11.7139
旙	-11.7139
旂	-11.714
栲	-11.714
胸	-11.714
蝗蟲	-11.714
鷄犬	-11.714
梧	-11.7141
僧尼	-11.7141
天羅地網	-11.7141
峴泉集卷之	-11.7141
曵	-11.7142
白日登晨	-11.7142
蚩尤	-11.7142
矅	-11.7142
癬	-11.7142
五藏六府	-11.7142
鳯凰	-11.7142
麻姑	-11.7143
◍	-11.7143
儵	-11.7144
昱	-11.7144
硬	-11.7144
檻	-11.7145
經爲司舉	-11.7147
腦裂	-11.7147
遭逢	-11.7148
沈淪	-11.7149
滌慮	-11.7149
蛾	-11.715
絶粒	-11.715
白玉蟾	-11.715
嶷	-11.7151
供給	-11.7151
御風註曰	-11.7152
者徒九年	-11.7153
閔	-11.7153
隋	-11.7153
綽	-11.7153
正月七日	-11.7153
延齡	-11.7154
團圓	-11.7154
役使萬神	-11.7154
芻	-11.7154
謡歌	-11.7154
催促	-11.7155
胃管	-11.7157
天中之天	-11.7158
髙上虚皇	-11.7158
休咎	-11.716
激切屏營之至	-11.7162
冬夏	-11.7163
展轉	-11.7165
尿	-11.7165
睫	-11.7168
魔王保舉	-11.7173
冠衣九色	-11.7205
諷誦	-11.723
錦囊	-11.7244
一百三十	-11.7295
東方木	-11.7303
之氣更受錬元	-11.732
王文卿	-11.7354
念金光呪	-11.7384
君之道當以	-11.7437
白天尊言	-11.7437
據家國利亨名刋玉簡字録帝房乗	-11.7542
捩	-11.7544
騾	-11.7548
𠰂	-11.7548
恭望聖慈允俞所	-11.755
千和萬合自然成眞	-11.755
隄	-11.7551
春夏秋冬	-11.7554
故作誤爲	-11.7554
仔細	-11.7554
恭望天慈允	-11.7555
擾擾	-11.7555
臧	-11.7555
無施不可	-11.7556
道賢者神名	-11.7556
死魂符解	-11.7556
元始一炁萬神雷司本司今據	-11.7557
萍	-11.7558
檗	-11.7558
玉清上元飛行混沌紫虚華景	-11.7558
祛却不祥	-11.7559
鄉貫	-11.7559
一炁都統大將軍	-11.7559
天一北獄	-11.756
差撥	-11.756
恊賛	-11.756
王屋山	-11.756
拓	-11.756
九靈飛步	-11.756
天關地軸	-11.7561
魁至魒	-11.7561
輔正除邪	-11.7561
上消天灾	-11.7561
三境伏魔心章	-11.7561
訾	-11.7562
嶮	-11.7562
鍔	-11.7562
偕	-11.7562
哭泣	-11.7563
暘谷神君張	-11.7563
豕	-11.7563
俯仰之格	-11.7563
籥	-11.7563
嗗	-11.7564
稅	-11.7564
泉曲之府	-11.7564
祈晴禱雨	-11.7564
矛	-11.7564
素梟三神	-11.7564
籬	-11.7565
殂	-11.7565
軽	-11.7565
劎	-11.7565
弓箭	-11.7565
霙	-11.7565
降炁入符解	-11.7565
霶	-11.7565
挂	-11.7565
㨿	-11.7565
高刁北翁	-11.7566
身中所佩太上	-11.7566
憩	-11.7566
九鳳破穢	-11.7566
須至録狀申聞者右謹具申	-11.7566
今故燒香自皈依道尊大聖衆至	-11.7566
秃	-11.7567
踊	-11.7567
今故燒香自皈依經尊大聖衆至	-11.7567
奎婁	-11.7567
監齋直事	-11.7568
塑	-11.7568
廚	-11.7568
赴壇受度	-11.7568
嘟	-11.7568
青黄白三炁	-11.7568
膩	-11.7569
鯉魚	-11.7569
糊	-11.7569
憇	-11.7569
殃及九祖	-11.757
寂寥	-11.757
法十種	-11.757
一如吿命	-11.7571
羨	-11.7571
筒	-11.7571
迄	-11.7571
艷	-11.7571
西華玉女	-11.7571
楓	-11.7572
七星移度	-11.7572
一如故事	-11.7572
巽離坤兊	-11.7572
七世父母	-11.7572
控轡	-11.7572
姻親	-11.7573
墳墓	-11.7573
敕制地祇	-11.7573
曖	-11.7573
枯朽	-11.7573
幣	-11.7573
𨇠	-11.7573
奕奕	-11.7573
櫃	-11.7573
渾淪	-11.7573
恭望眞慈	-11.7573
具法位姓押	-11.7574
生貴子	-11.7574
醇	-11.7574
皺	-11.7574
三官四聖	-11.7574
芩	-11.7574
正一道士陳葆光撰集	-11.7575
𤓰	-11.7575
燒香然燈	-11.7575
捍	-11.7576
天一北祚	-11.7576
繿	-11.7576
膿血	-11.7576
愛慾	-11.7576
社令正神	-11.7577
飼	-11.7578
纏繞	-11.7578
端的	-11.7578
依四極明科	-11.7578
旃	-11.7579
恐怖	-11.7579
洪濛	-11.758
呷	-11.758
培	-11.758
峩峩	-11.758
腰帶虎	-11.758
粉碎	-11.7581
天火地火	-11.7581
瞿	-11.7581
立冬之日	-11.7581
冶錬	-11.7581
便驚人	-11.7582
絕	-11.7583
梗	-11.7583
瞬息	-11.7583
白日上昇	-11.7583
三篇同卷	-11.7584
畢咽炁	-11.7584
急急如北陰玄天酆都鬱絶大帝律令	-11.7585
火光萬丈	-11.7585
蒼天上帝	-11.7586
速降威靈	-11.7586
疾速降臨	-11.7586
挫	-11.7587
武曲星君	-11.7587
碧落空歌	-11.7588
藪	-11.7589
暫停	-11.7591
收拾	-11.7593
阿那	-11.7593
當處土地	-11.7601
者何也	-11.7611
之訟訴其	-11.7612
一丈二尺	-11.7618
兩手雷局	-11.7626
杜廣成	-11.7641
色雲霞	-11.7649
示非人	-11.7651
統轄	-11.7683
可不慎	-11.7689
揈	-11.7691
婆訶	-11.7691
鎭貼	-11.7692
刀支	-11.7695
吸炁一口	-11.7697
三五功曹左右官使者	-11.7751
奉上帝敕	-11.7755
兵三十萬	-11.7772
掐卯文	-11.7857
生身受度	-11.7929
巳録告聞願得太上十方至	-11.7934
使清微洞	-11.795
允臣所奏	-11.7954
侍香金童傳言玉女	-11.7959
顆	-11.7971
急急如元始上帝命	-11.7993
匱	-11.7995
太極左宫	-11.7999
遑	-11.8
臓	-11.8003
無極世界	-11.8006
𦋇	-11.8008
喃	-11.8008
咸令照應特爲	-11.8009
太上三五正一盟威	-11.8009
真武靈應真君	-11.8009
出臣等身中三五功曹左右官使者左右	-11.801
繡衣使者玉童玉女各九億萬人	-11.801
劬	-11.801
冊	-11.8011
麈	-11.8011
郝	-11.8011
仙靈官右	-11.8011
浚	-11.8012
眸	-11.8013
湫	-11.8014
長生乆視	-11.8014
亡過某等及下元苦爽	-11.8015
右謹具申	-11.8015
陽神決吏	-11.8015
領兵三十萬人北極	-11.8015
赤帝養炁	-11.8016
恬淡	-11.8016
者處斬諸神吏符使	-11.8016
豺	-11.8016
倪	-11.8017
陽九百六	-11.8017
登道岸	-11.8017
𧷤	-11.8017
無極神郷	-11.8017
誠惶誠恐稽首頓首百拜上言	-11.8017
鳴法皷二十四通髙功發爐	-11.8017
雉	-11.8018
簽	-11.8018
龎	-11.8018
斟酌	-11.8018
𡨚仇	-11.8018
祖師高元宸照法王清眞紫虚元君	-11.8018
首體投地	-11.8018
出有入無	-11.8019
寥寥	-11.8019
悲泣	-11.8019
以今臨午行道請法衆等運兹	-11.8019
念淨天地呪	-11.8019
行神布炁	-11.8019
欻火律令大神	-11.802
坡	-11.802
九元煞童	-11.802
敷落五篇	-11.8021
滂沱	-11.8021
蠡	-11.8021
察命童子	-11.8021
槿	-11.8021
烱	-11.8022
感而遂通	-11.8022
至于今日	-11.8022
是諸仙人	-11.8022
膳	-11.8022
敝	-11.8023
慄	-11.8023
治病驅邪	-11.8023
咀嚼	-11.8023
中山神呪	-11.8023
萬鬼自潰	-11.8023
牡蠣	-11.8024
鑰	-11.8024
孤魂滯魄	-11.8024
靈官馬元帥	-11.8025
鯉	-11.8025
寰區	-11.8025
虹蜺	-11.8025
歸根復命	-11.8025
屈伸	-11.8025
柔弱	-11.8026
刁	-11.8026
謐	-11.8026
紫度炎光	-11.8026
八紘	-11.8027
驪	-11.8027
磊	-11.8027
萬彚	-11.8028
囊貯	-11.8028
拔贖	-11.8028
蹕	-11.8028
囬	-11.8028
魁𩲃𩵄䰢魓	-11.8029
嚏	-11.8029
戎狄	-11.8029
䑛	-11.8029
曁	-11.8029
西方七炁	-11.8029
曲素訣辭	-11.8029
蘋蘩	-11.8029
諫	-11.8029
馴	-11.803
槨	-11.8031
亨轟滑辣	-11.8031
妙行真人	-11.8031
命魔靈幡	-11.8031
論别本	-11.8031
旻	-11.8031
祿	-11.8031
以今清旦行道請法衆等運兹	-11.8031
刪	-11.8031
榻	-11.8031
急急如高上神霄	-11.8031
火急降臨	-11.8032
暝目	-11.8032
戶	-11.8032
天醫院	-11.8032
有幸得	-11.8032
鐵帽	-11.8032
殷勤	-11.8033
踪	-11.8033
逡巡	-11.8034
鐄	-11.8034
以鼻吸	-11.8034
藜蘆	-11.8034
法天象地	-11.8034
紅杏	-11.8034
二官直使	-11.8034
㖟	-11.8034
毅	-11.8035
槃	-11.8035
芙蓉冠	-11.8035
𩳐魒	-11.8035
嗶	-11.8036
蘧	-11.8036
疽	-11.8037
外臺祕要	-11.8038
主法祖師	-11.804
千金方治	-11.8041
獬	-11.8041
翼翼	-11.8041
南嶽衡山	-11.8042
權衡	-11.8042
棊	-11.8042
西嶽華山	-11.8044
癰腫	-11.8045
亥卯未	-11.8047
修之九年	-11.8049
梵寳天	-11.8053
萬年仙矣	-11.807
禾刀	-11.8095
年月日時劄	-11.8099
服方寸七日三	-11.8106
光映十方	-11.8112
喧轟	-11.8189
所奏特	-11.8221
所奏特賜	-11.8249
録狀上奏	-11.838
清旦行道	-11.8385
鬼食鬼吏	-11.8385
收神食神吏	-11.8395
頒敕㫖	-11.8418
某年某月	-11.8431
章次讀	-11.8465
尓	-11.8473
胚	-11.8481
痘瘡	-11.8482
九億萬重上眞九老上清皇眞玉帝	-11.8482
褚	-11.8483
彚	-11.8484
師尊大聖衆至眞之德得道之後	-11.8484
牝	-11.8485
虜	-11.8486
長八寸	-11.8487
俛	-11.8487
干冒威嚴	-11.8488
灘	-11.8488
除已飛奏	-11.8489
速達徑御太上無極大道昊天玉皇上帝	-11.8489
莾	-11.849
須至專牒者右牒	-11.849
仰依太上三尊十方衆聖願以是	-11.849
始勤終怠	-11.849
以爲効信	-11.8491
凟	-11.8491
當司今據入意同前須至牒者牒	-11.8491
天騶激戾	-11.8491
地司猛吏殷郊	-11.8491
冨	-11.8491
混淆	-11.8492
四天之下	-11.8492
洿	-11.8492
玉淸訣	-11.8492
䙝	-11.8492
亦當修齋行香誦經	-11.8492
粧	-11.8492
丹陽師父	-11.8492
鶉	-11.8493
以今靜夜行道請法衆等運兹	-11.8493
魂神澄正	-11.8493
臊	-11.8493
饑饉	-11.8493
旴	-11.8494
列言上清	-11.8494
冢墓	-11.8494
遘	-11.8494
㓨	-11.8494
浮空而至	-11.8494
南華眞經	-11.8495
各禮師存念如法	-11.8496
摘	-11.8496
承天效法后土皇地祇	-11.8496
天昏地黑	-11.8496
萬不得仙	-11.8496
阻遏	-11.8496
泮	-11.8496
蘋	-11.8496
郷神仙諸靈官	-11.8496
窈窕	-11.8496
一五七數及亥卯未年月日時方位正東	-11.8496
威劒神王	-11.8497
巳得道大聖衆至眞諸君丈人	-11.8497
无英公子	-11.8497
從官一百二十人與吾	-11.8497
臉	-11.8497
哀憫	-11.8498
賞善罰惡	-11.8498
禱雨祈晴	-11.8498
二千四百	-11.8498
都講舉各禮師存念如法髙功宣衞靈呪	-11.8498
鹹	-11.8498
乹	-11.8499
磐	-11.8499
爇	-11.8499
延年益壽	-11.85
啹	-11.85
白元尊神	-11.85
顏	-11.85
脛	-11.8501
禎	-11.8501
赭	-11.8501
召龍負水	-11.8501
鏁	-11.8501
桔梗	-11.8501
掬	-11.8501
如逆上清	-11.8501
譔	-11.8502
二千石	-11.8502
晴霽	-11.8502
琅玕	-11.8502
思之還反真形夏三月	-11.8502
皎潔	-11.8503
佗	-11.8503
鬽	-11.8503
悽	-11.8503
涇	-11.8503
猒	-11.8503
捍厄	-11.8504
窻	-11.8504
咤	-11.8504
一如告命太歳年月日時告下法位	-11.8504
摧山倒嶽	-11.8504
橘皮	-11.8504
凄	-11.8504
沿路土地	-11.8504
玲	-11.8504
綂	-11.8504
咳	-11.8505
厖	-11.8505
蒿里	-11.8505
三昧眞火	-11.8505
黯	-11.8505
亹	-11.8506
穎	-11.8506
都水使者	-11.8507
霰	-11.8507
昻	-11.8507
儗	-11.8508
犢	-11.8508
春分之日	-11.8508
朦朧	-11.8508
𩵄䰢	-11.8508
風雲雷雨	-11.8508
須至移文	-11.8508
彙	-11.8509
光明奕奕	-11.8509
誚	-11.8509
醖	-11.8509
波濤	-11.8511
九壘土皇	-11.8512
卽	-11.8512
峭	-11.8512
堵	-11.8513
金闕玉房	-11.8513
麻油	-11.8513
謫役	-11.8513
佯	-11.8514
天雷隱隱	-11.8514
苞	-11.8516
蚌	-11.8516
筠	-11.8518
洪恩靈濟真君	-11.8518
腸胃	-11.8519
雲笈七籖	-11.852
行法之士	-11.852
蜀郡	-11.852
瀨	-11.8521
彂	-11.8522
假借	-11.8525
齋官上香	-11.854
晨玉冠	-11.8582
叩齒二七	-11.8594
元始一炁萬神雷司今據	-11.8655
甘霖	-11.8703
炎熾	-11.8725
爲萬物之	-11.8736
松栢	-11.8766
炁呵入	-11.8772
可不愼	-11.8784
某月某日某時	-11.8827
百餘歲	-11.8841
諸大地獄	-11.8883
召出臣身中三五功曹左右官使者	-11.8927
訪使清微	-11.8941
烈火焚	-11.8943
兵馬九億萬騎出无上	-11.8972
西王毋	-11.8977
吩	-11.898
山魈五通	-11.8981
書竹膜	-11.8981
日後如遇	-11.8982
謹遵元降進呈	-11.8982
邢	-11.8983
蟬蛻	-11.8984
沖和妙道心章	-11.8984
艶	-11.8984
吴茱萸	-11.8984
千罪萬過	-11.8985
頽雲髻	-11.8985
釵	-11.8985
玉清上清太清	-11.8985
嬴	-11.8986
太一天章陽雷霹靂大法	-11.8986
陽雷神君苟	-11.8986
陞壇行道請法衆等運兹	-11.8986
欒	-11.8987
師友命過	-11.8987
右章泄自太虚流布三界	-11.8987
雲行雨施	-11.8989
天猷副元帥	-11.8989
天猷滅類	-11.8989
上件亡䰟	-11.8989
係薦亡䰟	-11.8989
斂	-11.899
十轉回靈	-11.899
𢊍	-11.899
言外丹	-11.899
茆	-11.899
愼之愼之	-11.899
水府扶桑大帝	-11.8991
優劣	-11.8991
如雞子	-11.8991
之誠謹啓以聞十二願復爐	-11.8991
新出老君	-11.8991
祖祖師金闕上保清眞紫虚元君魏	-11.8991
刳	-11.8991
机	-11.8991
輔佐行持	-11.8991
謹爲上請	-11.8991
詵	-11.8991
殯	-11.8992
常能行之	-11.8992
九天捷疾焚炎楊符使	-11.8992
雷霆主令大神鄧	-11.8992
螻蟻	-11.8992
黄神烈露臺	-11.8992
痼	-11.8992
炁三嚥止便讀玉經經畢又祝曰	-11.8993
需	-11.8993
亨利貞	-11.8993
瘞	-11.8994
瓊文帝章	-11.8994
清微宗主眞元妙化上帝	-11.8994
婢	-11.8994
柰	-11.8994
泰玄上相	-11.8994
翥	-11.8994
懇禱之至	-11.8995
具狀奏聞者右	-11.8995
㓙	-11.8995
諌	-11.8995
嘧	-11.8995
道門定制卷之	-11.8995
糠	-11.8996
鵰	-11.8996
燒香散花	-11.8996
周易參同契	-11.8996
西城王君	-11.8996
證明修奉	-11.8996
天慶觀	-11.8996
隷	-11.8996
歃	-11.8996
三界應感一切眞靈	-11.8996
垠	-11.8996
本命元辰洞天海嶽三界官屬一切真靈	-11.8996
一如告命風火驛傳	-11.8997
白玉龜臺	-11.8997
筞	-11.8997
北斗尊帝七元輔弼星君南極大帝	-11.8997
五七數及亥卯未年月日時方位東北第	-11.8997
邸	-11.8997
上清紫微碧玉宫太一大天帝	-11.8997
庻	-11.8998
孺	-11.8998
消災散禍	-11.8998
門下拜受	-11.8998
磁	-11.8998
襪	-11.8999
成就善功	-11.8999
矜憐	-11.8999
玄之又玄	-11.8999
翛	-11.9
喎	-11.9
斃	-11.9
老祖天師六合無窮高明大帝律令	-11.9
礫	-11.9
趕	-11.9
嵎	-11.9
二四八數及寅午戌年月日時方位西南	-11.9
蜒	-11.9
乂	-11.9001
杞	-11.9001
州刺史	-11.9001
狼吏虎賁	-11.9001
金液還丹	-11.9001
外臺秘要	-11.9002
追魂攝魄	-11.9002
覧	-11.9002
娠	-11.9002
漑	-11.9003
婉	-11.9003
揀	-11.9003
歸身歸神歸命	-11.9003
大洞眞經三十九章	-11.9003
燌	-11.9003
悟真篇	-11.9003
榴	-11.9004
井花水	-11.9004
嚕	-11.9004
圜	-11.9004
溟涬大梵	-11.9004
日布地支中	-11.9005
袴	-11.9005
滄浪	-11.9005
揩	-11.9005
剡	-11.9005
紙粉書	-11.9006
慳	-11.9006
東嶽天齊仁聖帝	-11.9006
桐栢	-11.9006
賚	-11.9006
𨺚	-11.9007
保命護身	-11.9007
瘻	-11.9007
蔣氏立成儀	-11.9007
楫	-11.9007
至心歸命	-11.9008
糾察	-11.9008
字號計十三卷	-11.9009
攔	-11.9009
楮	-11.9009
道法會元卷之一百九十	-11.901
太上大道玉清經卷之	-11.901
桉	-11.901
净	-11.9011
鍼	-11.9013
訣法未降	-11.9013
風雲雷電雨	-11.9014
聾盲	-11.9016
惒	-11.9016
械	-11.9016
梅師方治	-11.9016
晻	-11.9017
賾	-11.9017
嗜慾	-11.9017
玉司正法	-11.9017
旒	-11.902
竹筒	-11.9024
病可醫	-11.9025
道法會元卷之一百八十	-11.9035
𡨚債	-11.9035
道門科範大全集卷之五十	-11.9041
道法會元卷之二百五十	-11.9043
飛天神王長生大聖	-11.9049
道法會元卷之六十	-11.9059
道法會元卷之八十	-11.9059
十倍	-11.9078
道法會元卷之二百一十	-11.9089
道法會元卷之二百四十	-11.9089
雷速發	-11.9124
道法會元卷之七十	-11.9134
道法會元卷之一百七十	-11.9138
三天玄元始三炁太上道君太上老君召	-11.9149
道法會元卷之四十	-11.917
道門科範大全集卷之七十	-11.9205
三途五苦	-11.9237
道門科範大全集卷之四十	-11.9267
宗師金闕昭凝妙道保仙元君	-11.927
州縣城隍	-11.9335
煌	-11.9341
十方仙童玉女接侍	-11.941
英百靈衆眞交㑹在此香火爐前當願	-11.9411
再拜上言	-11.9429
媾	-11.9455
急急宻呪唵	-11.9472
璫	-11.9502
糖	-11.9504
九天採訪應元保運真君	-11.9505
依教奉行	-11.9506
積功累行	-11.9508
漚	-11.9508
某州縣郷里	-11.9509
惚	-11.9511
方函上詣	-11.9511
求字公書	-11.9512
賁	-11.9512
媿	-11.9513
奉行年月日時批行具法位姓	-11.9514
駁	-11.9515
白帝侍魄	-11.9515
髏	-11.9515
粳	-11.9516
殺鬼萬千	-11.9516
恭望師慈	-11.9516
東極青華大帝	-11.9516
無拘天門	-11.9516
搗爲散	-11.9517
神烈陰陽苟畢二雷君	-11.9517
局中天星地煞	-11.9517
不忠不孝	-11.9517
磕	-11.9517
南辰北斗	-11.9518
九真明科	-11.9518
靈寳監齋大法師	-11.9518
下官故炁	-11.9519
㘞	-11.9519
摭	-11.9519
泔	-11.9519
褻瀆	-11.9519
願神願仙	-11.952
十方無極太上靈寳天尊	-11.952
急急如元始上帝律令	-11.952
嚥液三過	-11.952
玄至眞自然靈飛隱書玉清	-11.952
確	-11.952
左日右月	-11.9521
者加一等	-11.9521
栝	-11.9521
荆棘	-11.9522
濮	-11.9522
鏘	-11.9522
邅	-11.9522
沽	-11.9522
𡨚讎	-11.9523
蕙	-11.9523
𣑽	-11.9523
𥬇	-11.9523
今上皇帝	-11.9523
上清三洞弟子靈寳領教嗣師王契真纂	-11.9523
瀟	-11.9524
售	-11.9524
蔑	-11.9524
什	-11.9524
杪	-11.9524
功滿德就	-11.9524
睇	-11.9524
縑	-11.9524
辣	-11.9525
屐	-11.9525
二四八數及寅午戌年月日時方位正南	-11.9525
今日今時	-11.9525
瓠	-11.9525
一點靈光	-11.9526
極進賢之冠	-11.9526
郵	-11.9526
訝	-11.9526
茗	-11.9526
两	-11.9526
等皈身皈神皈命以是功德歸流	-11.9526
騐	-11.9527
轂	-11.9527
長生保命天尊	-11.9527
岷	-11.9527
紆	-11.9528
呻	-11.9528
子午卯酉	-11.9528
苕	-11.9528
䄂	-11.9529
穿鬼心破鬼肚	-11.9529
狠	-11.9529
薈	-11.9529
匆	-11.9529
敢有不順	-11.9529
趁	-11.9529
鍳	-11.9529
酢	-11.9529
秪	-11.953
絞去滓	-11.953
共四卷	-11.953
杭	-11.953
生老病死	-11.953
廻骸起死	-11.953
八威龍文	-11.953
焚香關召	-11.9531
忒	-11.9531
姪	-11.9531
求謀大	-11.9531
颯	-11.9531
髠	-11.9532
駟	-11.9532
棋	-11.9532
一寸二分	-11.9532
三十代天師	-11.9532
丹景道精	-11.9532
天雷地雷	-11.9532
三色之雲	-11.9533
瑤	-11.9533
怙	-11.9534
濵	-11.9534
堤	-11.9534
琰	-11.9534
鬥	-11.9534
恁	-11.9535
搗蜜丸	-11.9535
河上公	-11.9535
陶隱居	-11.9536
煩悶	-11.9536
韭	-11.9536
旱澇	-11.9537
違吾令	-11.9537
疎	-11.9538
焜電	-11.9539
壹	-11.9539
恙	-11.954
攬	-11.954
峨嵋	-11.9542
以是當知	-11.9544
詵詵	-11.9545
道法會元卷之九十	-11.9547
樗	-11.9553
問其故	-11.9564
得乗飛	-11.9571
經太上混元上德皇帝	-11.9573
元始三炁太上道君太上老君召出	-11.9582
道法會元卷之二百三十	-11.9618
行道謹奏爲入意其諸忱悃	-11.9639
從官十七人	-11.9653
道法會元卷之一百一十	-11.9656
道法會元卷之一百四十	-11.9673
子文北炁	-11.9702
黄紙墨書	-11.9704
以水一斗	-11.9712
道法會元卷之一百三十	-11.9831
馘滅邪	-11.9831
取天罡炁	-11.9859
道法會元卷之三十	-11.9889
拔度亡過某	-11.9932
希恩照應外	-11.9939
洞𤣥靈寶	-11.9945
毒食毒吏	-11.9945
官各二人出	-11.999
塲	-11.9996
道祖鳴雷大帝	-12.0004
道法會元卷之一百二十	-12.0012
嗏	-12.0052
者處斬諸邪神	-12.0054
躬承開度	-12.0057
道法會元卷之二十	-12.0058
清醮三百六十分位	-12.0061
鈕	-12.0064
齋法符篆門	-12.0064
蒞	-12.0065
依草附木	-12.0066
鹵	-12.0067
稽首頓首再拜	-12.0067
禆	-12.0068
俚	-12.0069
元洞玉曆	-12.007
鄱	-12.007
覆取汗	-12.007
帚	-12.007
䖝	-12.0071
大將軍十萬人太上	-12.0071
猾	-12.0071
黄帝隂符經	-12.0071
正一靜應眞君	-12.0072
蓆	-12.0072
明檢鬼營	-12.0072
長顱巨獸	-12.0072
蓼	-12.0072
蹊	-12.0072
稼穡	-12.0072
朱陵度命天尊	-12.0072
鰲	-12.0073
四溟四丁大神當季行雨龍雷主者紫堂	-12.0073
垓	-12.0073
獠牙	-12.0073
三天門下上清天樞院	-12.0073
負天擔石	-12.0074
上張天羅下布地網	-12.0074
某法籙弟子某乙命屬北斗某星君	-12.0074
聖前伏望聖慈俯垂省覽	-12.0074
怎	-12.0074
驎	-12.0074
祓	-12.0074
三官五帝九府四司	-12.0074
嫗	-12.0074
者流三千里	-12.0074
上台一黄	-12.0075
竚	-12.0075
黄泉蒿里	-12.0075
搐	-12.0075
赤天曆旗剛風	-12.0075
背負火瓢	-12.0075
閶闔	-12.0075
禇伯秀	-12.0075
𠾬	-12.0075
沬	-12.0076
不得容情	-12.0076
理難抑違	-12.0076
誼	-12.0076
梢	-12.0076
葫蘆	-12.0076
右將軍九人治	-12.0076
英百靈衆眞交㑹在此香火	-12.0076
鬛	-12.0076
屇	-12.0076
求謀遂意	-12.0077
通天徹地	-12.0077
前生今世	-12.0077
貶	-12.0077
芸	-12.0077
頡	-12.0077
組	-12.0077
元天大聖后	-12.0078
甜	-12.0078
利婚姻有	-12.0078
崐	-12.0078
叩齒三通咽液三過	-12.0079
茵	-12.0079
䥫	-12.0079
真君降言曰	-12.0079
峴泉	-12.0079
篹	-12.008
九皇上真十方巳得道大聖衆至真諸君	-12.008
匃	-12.008
思之還反真形冬三月	-12.008
斿	-12.008
門丞户尉	-12.008
臣某與合壇官衆等謹同誠上啓	-12.008
一如告命年月日時告下具位	-12.0081
耗失行人有阻求謀不遂求財不利婚姻	-12.0081
袐	-12.0081
與天齊年	-12.0081
畢還北向平坐	-12.0081
瞞	-12.0081
萬始先生	-12.0082
走失難見生産難	-12.0082
凶家宅不寧文書難得已上先吉後凶應	-12.0082
妹	-12.0082
失望墳葬不吉	-12.0082
虹霓	-12.0083
前進作禮	-12.0083
甘露法食	-12.0083
三頭六臂	-12.0083
黔	-12.0083
訂	-12.0083
横金梁	-12.0083
泗	-12.0083
碎如微塵	-12.0083
解形遁變	-12.0084
千和萬合	-12.0084
甘草二兩	-12.0084
疵癘	-12.0084
無益恠異興災移徙見凶家宅不吉文書	-12.0085
官非家宅大不安文書不遂已上全凶應	-12.0085
四炁朗清	-12.0085
青靈始老	-12.0085
雷火速發	-12.0085
不收墳葬敗家六畜災損行人不	-12.0085
六畜有損行人阻滯求謀不成求財	-12.0085
出行不順修造不利疾病難瘥走失難見	-12.0085
㩀	-12.0085
度品南宫	-12.0085
綃	-12.0085
熛	-12.0085
監眞度生	-12.0085
匐	-12.0085
溪源潭洞	-12.0085
不遂求財	-12.0086
普同供養	-12.0086
今謹有	-12.0086
笠	-12.0086
天官地官水官	-12.0086
炫	-12.0087
某郡縣鄉里	-12.0087
不宜修造不利疾病危篤走失不見生	-12.0087
崎	-12.0087
吏三百六十人度文昌三五	-12.0087
知而故犯者	-12.0088
爲國爲民	-12.0088
拾遺記	-12.0088
嚇	-12.0088
𠎝	-12.0089
利婚姻大	-12.0089
吾奉玉清敕速降元炁成發符呪	-12.009
聃	-12.0091
餚	-12.0091
蟹	-12.0092
絮	-12.0092
通事舍人	-12.0092
臍下三寸	-12.0093
礴	-12.0093
斬滅邪	-12.0093
湊	-12.0093
裾	-12.0094
諸天曹案吏	-12.0096
萼	-12.0096
土地里域正神	-12.0097
方太上頌曰	-12.0097
某等謹同誠上啓	-12.0098
瀑	-12.0102
饑餓	-12.0109
黄帝中主	-12.0116
兩口訣是	-12.0119
衣大袖	-12.0122
道法會元卷之二百六十	-12.0125
日出行者	-12.014
籙白簡救苦眞符	-12.0155
炁上騰	-12.0382
曆旗將軍十二人	-12.0399
熒煌	-12.0449
上三天玄元始三炁太上道君太上老君	-12.0474
君隨四時形影在玉清	-12.0547
謹牒年月日時牒	-12.0598
吏三十六人中元地府定	-12.0632
天齊仁聖帝	-12.0636
水三升煑取一升	-12.0636
水六升	-12.0643
咜	-12.0647
仰速遵承	-12.0651
十大星帥	-12.0651
精食精吏	-12.0652
郤	-12.0653
巘	-12.0654
羶	-12.0655
啒	-12.0655
太上敕赦生天寳籙	-12.0655
八王猛將	-12.0656
嬉	-12.0656
努	-12.0656
二官直使正一功曹左右官使者	-12.0657
徑御太上無極大道昊天	-12.0657
煜	-12.0657
家宅人口	-12.0657
冒犯聖威	-12.0658
太一天章陽雷霹靂專司	-12.0658
以今焚香攝召	-12.0658
聞天尊所說	-12.0659
𣸸	-12.0659
事干濟衆	-12.0659
鷄子白和	-12.0659
寅申巳亥	-12.0659
帯	-12.066
近境各處山源溪谷潭湫行雨龍	-12.066
萬炁齊仙	-12.0661
紂絶隂天	-12.0661
徨	-12.0661
官使者八十萬億衆洞清虚	-12.0662
台光幽精爽靈	-12.0662
謹遣九天捷疾符使楊傑操捧	-12.0662
某與合壇	-12.0663
咸使知聞	-12.0663
覡	-12.0663
參同契	-12.0663
塔	-12.0664
觀諸法性	-12.0664
笞	-12.0664
萬神敬聽	-12.0664
有望墳葬小吉六畜無損行人將至求謀	-12.0664
無事謁見可許出行宜出修造宜動疾病	-12.0664
罵詈	-12.0664
芎	-12.0664
𥠖	-12.0665
成官事先凶後吉謁見小阻	-12.0665
願此香煙騰空俓上供養	-12.0665
半吉行人在路求謀半遂求財半利婚姻	-12.0665
璿	-12.0665
穩墳葬平穩	-12.0665
六畜平常	-12.0666
走失可尋生産安好捕盗得獲禱祀無應	-12.0666
南方丹天世界	-12.0666
螭	-12.0666
削死上生	-12.0666
恠異將散移徙動遲家宅向安文書遲滯	-12.0666
永爲身寳	-12.0666
恠異無事	-12.0666
燾	-12.0666
梵摩迦夷天	-12.0667
拊	-12.0667
剛風騎置驛馬上章吏	-12.0667
建生上屬北斗某星君	-12.0667
跋	-12.0667
頷	-12.0667
家宅終吉文書見遲已上中凶始末吉應	-12.0667
天煞地煞年煞月煞日煞時煞	-12.0667
豎	-12.0667
哂	-12.0668
啾	-12.0668
今故燒香自歸依師尊大聖衆至	-12.0668
疾除罪簿	-12.0668
除邪輔正	-12.0668
身被風刀之考	-12.0668
金真玉光	-12.0668
渤	-12.0668
黄帝隂符經註	-12.0668
湏㬰	-12.0669
煅	-12.0669
衒	-12.0669
㢤	-12.0669
犧	-12.0669
三百六十骨節	-12.0669
刷	-12.067
叩左齒三十六通	-12.067
殮	-12.067
金晨玉童	-12.0671
嶸	-12.0671
須至申聞者右謹具申	-12.0671
臣某承符	-12.0671
何喬二	-12.0672
闈	-12.0672
悰	-12.0672
盍	-12.0672
思之還反真形春三月	-12.0672
無利婚姻有破官事累後謁見	-12.0673
歘火律令大神	-12.0673
醪	-12.0673
抃	-12.0673
嘶	-12.0674
波梨答惒天	-12.0674
元始一炁開天通三界玉符	-12.0674
十回度人	-12.0674
楷	-12.0675
愕	-12.0675
孳	-12.0675
堰	-12.0675
經籍度師	-12.0676
呮	-12.0676
砥	-12.0676
杻	-12.0676
琚	-12.0677
聖前伏望聖慈特賜	-12.0677
科儀立成品	-12.0677
敖	-12.0677
太上助國救民緫真祕要卷之	-12.0677
店	-12.0677
桀	-12.0677
思之還反眞形秋三月	-12.0678
𦆵	-12.068
刑厄乞解	-12.068
噪	-12.068
灣	-12.068
捫	-12.068
脈	-12.0681
保制劫運	-12.0682
槎	-12.0682
嗃	-12.0682
暄	-12.0684
九萬九千九百九	-12.0684
。	-12.0685
藤	-12.0686
焙	-12.0686
虺	-12.0686
瑠璃	-12.0693
芋	-12.0694
思之還反眞形春三月	-12.0694
升煎取	-12.0709
爆	-12.0712
天官斬神	-12.0714
君列紀	-12.0717
謹牒年月日時牒具位姓	-12.0718
問名爲正問若人見	-12.0764
斬邪滅蹤	-12.0874
玉女五帝直符直日香官	-12.0933
方諸青童	-12.1032
三天扶教輔元大法師	-12.1092
恭望聖慈	-12.1198
鯁	-12.1243
南北二院	-12.1261
相故見諸	-12.1264
上部八景洞天飛行自然靈寳神仙	-12.1269
吾奉玉清敕速降元炁成攝	-12.1269
須至專牒者牒	-12.127
姙	-12.1272
押宗師金闕昭凝妙道保仙元君祖	-12.1273
譎	-12.1273
家宅人口平安	-12.1274
𠿼	-12.1276
僕射百二十人出	-12.1276
服二丸	-12.1276
雲雷雨部	-12.1277
湍	-12.1278
食鬼吞精	-12.1278
天章陽雷霹靂專司令本司	-12.1279
謹䖍誠上啓	-12.128
謹遣九天捷疾焚炎符使楊傑操捧上達	-12.128
牒具如前	-12.128
府真神道	-12.128
斬鬼五形	-12.128
勾陳星宫天皇大帝	-12.1281
伏候勑㫖	-12.1281
書刀一口	-12.1282
各禮師存念如法宣衞靈呪	-12.1282
神刀一下萬鬼自潰	-12.1282
靈寳大法司當司據	-12.1282
伏候敕㫖	-12.1282
某與臨壇官衆謹同誠上啓	-12.1283
下情無任惶懼之至謹具狀	-12.1283
榑桑大帝	-12.1284
譁	-12.1284
太初天君紫宸太華天帝	-12.1284
役使萬靈上衛仙翁	-12.1284
以聞謹狀年月日具法位臣姓某狀奏奏	-12.1284
匈	-12.1284
悞	-12.1284
領詞䖍切恪爲奉行	-12.1284
麋	-12.1285
厄童子十二人上仙官解	-12.1285
隲	-12.1285
泳	-12.1285
蘸	-12.1285
删	-12.1286
昊天至尊玉皇上帝	-12.1286
九斗陽芒流金火鈴大將	-12.1286
左右二仙龍王	-12.1286
卷十一之二十	-12.1286
愽	-12.1286
代天行化	-12.1286
者左右龍虎君侍香諸靈官當令臣向來	-12.1287
飛翼雷公	-12.1287
溶	-12.1287
紫微碧玉宫	-12.1288
將帶風雲電雷雨前來本	-12.1288
鐸	-12.1288
急急如玉皇上帝律令	-12.1288
大將軍九人治	-12.1288
天神龍水社諸部雷神三山木郎大神	-12.1288
上元始天尊說北帝伏魔神咒妙經卷第	-12.1289
買田宅人口頭疋	-12.1289
左將軍九人治	-12.1289
嚴裝顯服	-12.1289
𡨚仇和釋	-12.1289
本佩法籙中	-12.1289
丈人三十六部尊經玄中大法師圓穹	-12.129
天開化主宰	-12.129
願此香烟騰空徑上供養	-12.129
癎	-12.129
白日昇晨	-12.129
蹻	-12.1291
徙守舊家宅平安文書宜求已上中平應	-12.1291
鬭	-12.1291
覷	-12.1291
萬靈振伏	-12.1291
攜	-12.1292
蓊藹	-12.1292
埏	-12.1292
慵	-12.1292
厯	-12.1292
執符把籙	-12.1293
太上三尊十方衆聖	-12.1293
以明天憲	-12.1293
九天應元雷聲普化天尊九天雷祖大帝	-12.1293
刹	-12.1293
滕	-12.1293
孝道明王	-12.1294
妊	-12.1294
𡻕次月日	-12.1294
飛神謁帝	-12.1294
駑	-12.1294
窘	-12.1295
食五辛	-12.1295
雷次舍	-12.1295
拏	-12.1295
鑊	-12.1295
𡅗	-12.1295
今日欣慶受度	-12.1295
執法仙宰上仙真宰	-12.1295
夬	-12.1295
吽喗噠唎	-12.1295
書符燒召呼云	-12.1296
炅	-12.1296
上消天災	-12.1296
身没鬼官	-12.1297
愫	-12.1297
道門通教必用集卷之	-12.1297
六合無窮高明大	-12.1297
鄂	-12.1297
藁	-12.1297
寘	-12.1297
里中廻真下映入兆	-12.1298
禰	-12.1298
兵馬神衆	-12.1298
潼	-12.1298
黑雲靉靆	-12.1299
者徒一年	-12.1299
濟人利物	-12.1299
走火行風	-12.1299
顱	-12.1299
碌碌	-12.1299
九天應元雷聲普化天尊	-12.1299
以梓木	-12.13
趾	-12.13
俎	-12.13
七政八靈	-12.13
潯	-12.13
上金五兩	-12.13
迍邅	-12.1301
絳章單衣	-12.1301
太上神明中官	-12.1301
夕鳴有	-12.1301
天煞地煞年煞月煞	-12.1301
聞呼即至	-12.1301
畒	-12.1301
八威吐毒	-12.1301
嚳	-12.1301
溉	-12.1301
聽得三傳	-12.1302
腿	-12.1302
簞	-12.1303
溜	-12.1304
飛捷報應使者張	-12.1304
蝎	-12.1304
卜筮	-12.1305
一呼一吸	-12.1306
腭	-12.1306
劫劫長存隨劫輪轉與天齊年永度三	-12.1306
二丈四尺	-12.1307
急急如靈寳大法律令	-12.1308
棘	-12.1309
穹窿	-12.131
天皇伽耶霹靂攝	-12.1311
緜	-12.1311
指勾定	-12.1311
嵯	-12.1312
屣	-12.1313
迮	-12.1314
瀰	-12.1314
痛不可忍	-12.1314
仆	-12.1315
癧	-12.1315
酪	-12.1315
曼	-12.1316
攢	-12.1316
狎	-12.1317
畿	-12.1318
篁	-12.1319
珊瑚	-12.1325
㖂	-12.1331
右符書時	-12.1351
眞之德得道之後保天長存和與道合眞	-12.1428
舉存神燒香髙功復爐香官使	-12.1451
仙化成人生身受	-12.1456
正一靜應顯佑眞君	-12.1742
中下同卷	-12.1762
眞之德得道之後永保長存和與道合眞	-12.1823
年月日牒具位姓	-12.1909
謹同誠上啓	-12.1919
科曰出家之人	-12.1923
申牒眞司外	-12.1924
下部八景洞靈飛行自然靈寳神仙	-12.1927
十方仙童玉女接侍蘭烟傳	-12.1938
眞玉童龜山洞眞人各七千萬乗	-12.194
輻	-12.1941
赤天歷旗剛風	-12.1942
阿里鮮	-12.1943
三官九署	-12.1943
繚	-12.1944
訊	-12.1944
竢	-12.1945
某宫觀受某法籙	-12.1946
繹	-12.1946
俵	-12.1947
蝦	-12.1947
兵士各十萬人太无上元九天眞靈	-12.1948
高元宸照宫	-12.1948
臣干冐	-12.1948
太上高皇帝王神氣在身不能自分别	-12.1948
殉	-12.1948
右章泄自太虚流降三界	-12.1949
飛砂走石	-12.1949
蠅	-12.1949
趙子玉	-12.195
功曹官各二人出上元九天	-12.195
者針决充替	-12.195
葛仙翁肘後備急方卷之	-12.195
鳴法鼓	-12.1951
開天執符御曆含眞體道昊天玉皇上帝	-12.1952
飈散景飛騰太空出入冥無遊	-12.1952
今故燒香自歸依經尊大聖衆至	-12.1952
柩	-12.1952
閻世衝	-12.1953
溽	-12.1953
卻	-12.1953
㗸	-12.1953
摙	-12.1953
鑽	-12.1953
奉爲孤魂上資往生仙界念	-12.1953
菁	-12.1954
斷地逮役	-12.1954
急急如酆都大帝律令	-12.1954
晷	-12.1954
唧	-12.1955
體未洞眞	-12.1955
吉家宅大安文書有就已上大吉應	-12.1955
不妨走失宜尋生産有驚	-12.1955
七司玉女	-12.1955
五福十神太一眞君	-12.1956
喜捕盗便獲禱祀獲福恠異無咎移徙獲	-12.1956
大成官事大吉謁見	-12.1956
蠆	-12.1957
丗	-12.1957
蓐	-12.1957
一日一夜	-12.1957
霪	-12.1958
隳	-12.1958
大旺行人立至求謀大遂求財大利婚姻	-12.1958
訥	-12.1958
鎧	-12.1958
日月精華	-12.1958
䌝	-12.1958
伏望聖慈允兹申懇	-12.1959
迥	-12.1959
丈人司馬六司星君	-12.1959
田元宗	-12.1959
肹蠁	-12.1959
眺	-12.196
騰天倒地	-12.196
𠾑	-12.196
攙	-12.196
渙	-12.196
雲光先生曰	-12.1961
搥	-12.1961
石景水母	-12.1961
娩	-12.1961
地二生火	-12.1962
顓頊	-12.1962
駒	-12.1962
堦	-12.1962
大逞威靈	-12.1963
經驗後方治	-12.1963
晨朝之時	-12.1963
𤔵	-12.1963
中天大聖北斗九皇	-12.1963
字方一丈	-12.1963
天黑地黑	-12.1963
安魂定魄	-12.1963
東靈上相瑞光仙師	-12.1963
騏	-12.1964
縹緲	-12.1964
口口相傳	-12.1965
鬱單无量天	-12.1965
權童𥘉府右翊治金	-12.1965
回骸起死	-12.1965
窩	-12.1965
斗門方治	-12.1965
泡	-12.1965
皛	-12.1965
七聖玄紀	-12.1965
擘	-12.1966
某月某朔某日某	-12.1966
肓	-12.1966
負風猛吏	-12.1967
石景水毋	-12.1967
膂	-12.1967
行之十八年	-12.1968
剩	-12.1968
積夜之河	-12.1968
嶇	-12.1969
逼合鬼群	-12.1969
撩	-12.1969
發敗正	-12.1969
絣	-12.197
臈	-12.197
關靈寳大法司當司	-12.197
侍仙玉郎	-12.197
違者杖一百諸	-12.1971
萬無一失	-12.1971
轆	-12.1971
字號計四卷	-12.1972
笳	-12.1972
逋	-12.1972
紫文丹章	-12.1972
鬍	-12.1972
覿	-12.1972
晁	-12.1973
喙	-12.1974
䡖	-12.1974
腮	-12.1976
鷗	-12.1976
琥	-12.1977
𢍆	-12.1977
萄	-12.1977
太極左仙公	-12.1978
皓庭霄度天	-12.1979
銀牙耀目	-12.1979
牆	-12.1979
輯	-12.198
赤明和陽天	-12.1981
鍵	-12.1986
黛	-12.1986
剛騎吏十億萬衆洞天	-12.2011
故問名爲邪問不見	-12.2054
蠻雷速起	-12.2397
室燒香北向	-12.2432
水一斗煑	-12.2443
真炁注筆成符可以	-12.2496
官將一百二十人治	-12.258
褵	-12.2609
下情不勝激切俟命之至	-12.2636
中部八景洞玄飛行自然靈寳	-12.2636
道道宇道	-12.2644
能持否	-12.2645
兵馬九億萬騎	-12.2646
天立上精化生	-12.2648
獅	-12.265
熊守中	-12.2653
崇明金元心章	-12.2654
讁	-12.2654
通眞達靈	-12.2655
暹	-12.2656
三天扶教輔元大法天師	-12.2657
椹	-12.2657
兠術天	-12.2659
促炁功曹	-12.2659
三官北酆明檢鬼營不得容隱金馬驛程	-12.266
獺	-12.266
𤚥	-12.2661
洞眞太上太霄琅書卷之	-12.2661
齒落更生	-12.2661
君一人官將百二十人	-12.2661
傳經演教	-12.2662
璘	-12.2662
死罪死罪	-12.2663
悄	-12.2663
琮	-12.2663
颷	-12.2664
高元宸照法王清	-12.2664
恭望天慈允臣所奏特	-12.2664
不避誅夷	-12.2664
螻	-12.2664
昉	-12.2665
李仲清	-12.2665
耘	-12.2665
連天鐵障	-12.2665
當司今據入意同前須至專牒者牒	-12.2665
五星列照煥明五方水星却	-12.2665
災木德致昌熒惑消禍太白辟兵鎮星四	-12.2665
先天先地	-12.2666
緱	-12.2666
膓	-12.2666
一如告命太歳年月日時告下	-12.2666
訕	-12.2667
一道告聞天闕掌關諸君三界主者	-12.2667
烝	-12.2667
帆	-12.2667
非比泛常	-12.2667
𠑽	-12.2668
諸天諸地諸水諸山	-12.2668
帊	-12.2668
速達帝廷立俟昭報一如	-12.2668
鍛	-12.2668
旋斗歷箕	-12.2668
苧	-12.2668
地祇上將温元帥	-12.2668
上清天蓬伏魔大法	-12.2668
符文所至三界咸遵萬神侍衛奏入天門	-12.2669
敢司連宛屢天宫	-12.2669
咦	-12.2669
元始一炁都督雷府	-12.2669
四時失度隂陽不調	-12.2669
劫亡苦爽	-12.267
七千萬人虚清	-12.267
寨	-12.267
㳂	-12.267
晟	-12.267
𠒋	-12.267
九億萬重九玄緑暉丹曜洞靈自然龜山	-12.267
逭	-12.267
賽	-12.267
等身中令臣所啓之誠速達	-12.2671
綦	-12.2671
係天師某治炁	-12.2671
山川竹木水石精靈壇社祠廟鬼神	-12.2671
躑	-12.2671
磴	-12.2672
先亡後死	-12.2672
隕	-12.2672
叮	-12.2672
筮	-12.2672
以爲效信恩惟太上	-12.2672
諺	-12.2672
不得容隱	-12.2672
新汲水	-12.2672
辟尸千里	-12.2672
刧	-12.2673
髙聖帝君曰	-12.2673
隂神決吏	-12.2674
剱	-12.2674
青地朱書	-12.2674
藿	-12.2674
台星到處大賜	-12.2674
嘰	-12.2674
神風靜黙	-12.2674
逆天無道	-12.2675
須至關發者右關	-12.2675
度世司馬大神	-12.2676
苛	-12.2676
梭	-12.2676
𢌿	-12.2676
𠕂	-12.2676
姨	-12.2676
晞	-12.2676
隘	-12.2677
甲子諸官君	-12.2677
十五日二十五日	-12.2677
愔	-12.2677
跖	-12.2677
瑰	-12.2677
黒帝通血	-12.2677
躊	-12.2677
艱得已上中吉始末凶應	-12.2678
踏翻斗柄	-12.2678
人首蛇身	-12.2678
興利除害	-12.2679
朂	-12.2679
潺	-12.2679
隨願徃生	-12.2679
嵐	-12.2679
是男是女	-12.2679
東霞扶桑	-12.2679
匏	-12.2679
迺	-12.2679
檄至星火奉行一如元降律令年月日時	-12.268
瀬	-12.268
圄	-12.268
侔	-12.268
蠹	-12.2681
爨	-12.2681
它	-12.2681
凈壇符	-12.2681
風火驛傳	-12.2681
蔣剛輪	-12.2682
食醫心鏡	-12.2682
覲	-12.2682
姊妹	-12.2682
蜿	-12.2683
嚦	-12.2683
㮣	-12.2683
拉	-12.2683
三牙鬚	-12.2684
撻	-12.2684
燋	-12.2684
雰	-12.2684
哽	-12.2685
鴛	-12.2685
状	-12.2686
淵通元洞天	-12.2686
經驗方治	-12.2686
杉	-12.2686
畢仰嚥九氣止	-12.2686
燒作灰	-12.2687
菽	-12.2687
叠	-12.2688
鉅	-12.2688
魃	-12.2688
三尸九蟲	-12.2688
壊	-12.2689
氈	-12.2689
年若干歲	-12.2689
紋四十尺	-12.2689
文謹當宣奏	-12.269
掐大煞文	-12.269
思之還反眞形夏三月	-12.269
璝	-12.2691
綠	-12.2691
呤	-12.2691
鍋	-12.2691
北嶽恒山	-12.2691
化元聿白	-12.2693
諄	-12.2694
兠	-12.2696
二百四十萬人上仙都中官	-12.2697
罇	-12.27
黄神越章	-12.27
神州玉章曰	-12.2702
踝	-12.2704
駸	-12.2706
度亡過某等魂	-12.2706
蹠	-12.2713
𤺋	-12.2714
月二十五日	-12.2716
思之還反眞形冬三月	-12.2731
元使清微	-12.2783
上三境伏	-12.2807
經衍義	-12.2807
紫炁乗天	-12.2928
將軍十二人仙靈官左	-12.2971
丹霞赫衝	-12.3348
部各一十二萬人度地皇眞仙太上神明	-12.3401
須至專牒者牒候到請	-12.3412
縊	-12.3416
欹	-12.342
難以抑違	-12.3424
診	-12.3425
金鉞前戮巨天後刑屠割鬼爽	-12.3425
見公公書	-12.3426
祈禱芟禳之際	-12.3426
捉縛枷拷	-12.3427
聾兵啞將	-12.3427
據入意當司據詞難抑恭伺至期依	-12.3427
謹取今月某日先颺寳旛上聞齋意除	-12.3427
垚	-12.3427
準今符命	-12.3427
䜛	-12.3428
豬	-12.3428
迤邐	-12.3428
神烈陽雷苟神君陰雷畢神君	-12.3429
𤨏	-12.3429
七曜上清洞眞玄景玉皇青華	-12.3429
碭	-12.343
長充鬼役	-12.343
籲	-12.3431
龍光道明姚元君	-12.3431
蕤	-12.3431
牛頭獄卒	-12.3431
睠	-12.3431
今齎信詣三洞法師臣某請受	-12.3431
鉏	-12.3432
三境伏魔心章上聞者	-12.3432
裊	-12.3432
今故燒香自歸依道尊大聖衆至	-12.3433
㳟	-12.3434
刢	-12.3434
迴骸起死	-12.3434
兵士千億萬人十方	-12.3434
廳	-12.3435
㖮	-12.3435
疝	-12.3435
頊	-12.3435
天君正令大神辛天君行令大神張天君	-12.3435
嗼	-12.3435
白骨成人	-12.3435
砌	-12.3435
下文武考校一切曹僚三界應感一切眞	-12.3435
代師眞東嶽泰山天齊仁聖帝淑明皇后	-12.3435
吞火食炭	-12.3436
不避風刀冒干天	-12.3436
消愆滅罪	-12.3436
抺	-12.3436
鑛	-12.3436
君官將百二十人治	-12.3436
煆	-12.3436
補充法職請給司額印令	-12.3436
遡	-12.3437
所屬城隍祀典里域社令諸廟英烈神祇	-12.3437
飇	-12.3437
臣某與臨壇官衆等謹同誠上啓	-12.3438
娛	-12.3438
僮	-12.3438
姚同又方	-12.3439
南方無極太上靈寳天尊	-12.3439
太極左仙翁	-12.3439
高上紫虚空洞玉清自然更生	-12.3439
参	-12.3439
紫皇上道心章	-12.3439
赤天三五行印	-12.3439
道法師父母尊親	-12.344
三九素語	-12.344
星宿錯度日月失昏	-12.344
權童初府右翊治金允中	-12.344
令批付	-12.344
承行官吏	-12.344
衾	-12.3441
茸	-12.3441
童初府右翊治金𠃔中編	-12.3441
𨾏	-12.3441
先難後易	-12.3441
魚玉龍各一枚	-12.3441
捧香驛龍騎吏	-12.3441
太上黄素四十四方	-12.3441
兑	-12.3441
金明七眞	-12.3442
奉爲亡靈上資往生仙界念	-12.3442
颻	-12.3442
巨天力士	-12.3442
糾	-12.3442
笻	-12.3442
掲	-12.3443
大聖北斗七元君能解	-12.3443
疫毒流行兆民死傷	-12.3443
壝	-12.3443
許以自新	-12.3443
赤石脂	-12.3444
蛤	-12.3444
堕	-12.3444
枸	-12.3444
更相纒繞	-12.3444
千千截首萬萬剪形	-12.3445
江河淮濟	-12.3445
焱	-12.3445
苾	-12.3446
大將軍百千萬人赤天三五行印	-12.3446
碁	-12.3446
袪	-12.3446
嗢	-12.3446
覈	-12.3446
兜	-12.3446
捻香功德上祝當今皇帝	-12.3446
東斗注筭	-12.3446
槖	-12.3446
搬	-12.3446
偽	-12.3447
跌	-12.3447
圊	-12.3447
懴方儀	-12.3447
讖	-12.3447
青龍白虎朱雀玄武	-12.3447
廻天九霄	-12.3447
諠	-12.3448
侍靖素女	-12.3448
正一延生保命籙	-12.3448
左青龍右白虎	-12.3448
杲	-12.3448
斬絶地根	-12.3448
𡂑	-12.3449
弛	-12.3449
卭	-12.3449
斗牛女虚危室壁	-12.3449
㡌	-12.345
鉗	-12.345
瘤	-12.345
綿綿若存	-12.345
追䰟攝𩲸	-12.345
僥倖	-12.345
㤗	-12.345
臣某姓名冠	-12.345
渌	-12.345
蓍	-12.3451
珉	-12.3451
鋟	-12.3451
功德金色光	-12.3451
僵	-12.3451
翩翩	-12.3451
者克勤忠於君主	-12.3451
斕	-12.3451
羆	-12.3452
括異志	-12.3452
回度五常	-12.3452
顯定極風天	-12.3453
啟	-12.3453
牟	-12.3453
匄	-12.3453
藕	-12.3454
摸	-12.3454
祜	-12.3454
十惡五逆	-12.3454
廪	-12.3454
解壇散席	-12.3455
棠	-12.3455
清明何童天	-12.3455
嵬	-12.3455
鎭定乾坤	-12.3455
弟子歸命願得長生	-12.3455
龍頭書刀	-12.3455
長役鬼官	-12.3455
凱	-12.3455
風刀考身	-12.3455
微火煎	-12.3456
皇極經世	-12.3456
螚	-12.3456
逍	-12.3456
栁	-12.3456
巳上聖號各持一十遍各轉太上	-12.3457
銓	-12.3457
袿	-12.3457
雩	-12.3457
上金九兩	-12.3457
紫書訣言	-12.3457
齧	-12.3458
解曰胎産	-12.3458
鶡	-12.3458
五色祥雲	-12.3459
猛馬四張	-12.3459
元明文舉天	-12.3459
大將軍四十萬人太上	-12.3459
檐	-12.346
劫劫長存	-12.346
髙聖帝君曰欲書名	-12.346
齊到帝前	-12.346
搨	-12.346
閲	-12.3461
四鎭合同	-12.3461
靚	-12.3462
鄽	-12.3462
捶	-12.3462
隱地八術	-12.3462
明眞科曰无極世界男女之人生世	-12.3462
篷	-12.3463
悸	-12.3463
織女四哥	-12.3464
糟	-12.3464
媪	-12.3466
請恩施行外	-12.3467
龍變梵度天	-12.3469
急急如黃籙度生律令	-12.347
太一天章陽雷霹靂專司令照應本司	-12.3471
西源好	-12.3487
億萬劫次昇	-12.349
天中住夀	-12.349
生世何縁死	-12.3492
威南禦兇	-12.353
取天剛炁	-12.3599
玉賢元君	-12.3606
隨四時形影在	-12.3613
色真炁注筆成符	-12.3658
幞頭黄抺額	-12.368
之所自然生金液丹碧芝	-12.3787
唵嚙𡄦	-12.4129
主之不得復連後生人	-12.4212
羽綉衣玉童五伯人	-12.4213
而悟者第	-12.4215
麝	-12.4228
旬生中官	-12.423
時生筭延年久視保身護命	-12.4237
上加戌亥起子	-12.4238
哨	-12.4244
孕生男	-12.4251
等䰟及五道三途四生萬𩔖	-12.4253
檎	-12.4254
壻	-12.4255
日病者鬼名	-12.4255
鋩	-12.4256
先服陽符奪	-12.4256
方道都大主者	-12.4257
日瘟鬼名	-12.4257
普告無窮萬神咸聽三界五帝列言上清	-12.4258
神霄九宸上帝	-12.4258
月瘟鬼名	-12.4258
東極宫中大慈仁者	-12.4258
無奈著處	-12.4259
啡	-12.426
窮理盡性	-12.426
急急如玉清眞王律令	-12.4261
余心傳録云	-12.4261
百五十將軍籙	-12.4261
歉	-12.4261
上三天眞一太一	-12.4262
允今所申	-12.4262
痺	-12.4263
極左宫仙公沖應孚佑眞君	-12.4263
𠰹	-12.4263
渝	-12.4263
套	-12.4263
狩士徐	-12.4263
驤	-12.4264
十方仙童玉女接侍蘭煙傳	-12.4264
一切無道鬼神	-12.4265
関	-12.4265
鬲	-12.4265
暘谷張神君	-12.4265
威北銜鋒	-12.4265
清微肇慶宫	-12.4265
羯	-12.4266
閙	-12.4266
三天金闕九宸玉陛	-12.4266
九千萬億人上元自然洞眞玉帝虚靈	-12.4266
巴元醜伯	-12.4266
縉	-12.4266
𥙿	-12.4266
君五人官將一百二十人	-12.4266
三十代天師虚靖真君語録卷之	-12.4267
跂	-12.4267
一輪明月	-12.4267
搬運神水	-12.4268
賒	-12.4268
代天行化助國救民	-12.4268
燈七盞奉爲	-12.4268
開天符誥元始一炁開天通三界	-12.4268
山元籙曰	-12.4268
猋	-12.4268
時直符神吏	-12.4268
琯	-12.4268
泆	-12.4269
五劫開化	-12.427
一動一靜	-12.427
煇	-12.427
上廣清微之化	-12.427
萬範開張	-12.4271
酒陳終獻	-12.4271
同學門人隱居山林學眞道士諸賢者	-12.4271
濂	-12.4271
道德衆尊	-12.4271
雨澤愆期亢陽爲虐	-12.4271
聽法聞經	-12.4271
紱	-12.4271
萬不得仙玄都上品第	-12.4272
啜	-12.4272
租	-12.4272
鑠	-12.4272
賂	-12.4272
怏	-12.4272
當司今據入意同前須至專牒者右牒請	-12.4272
鳴法鼔二十四通	-12.4272
太上皓兇	-12.4273
跏	-12.4273
咸使聞知	-12.4273
𢖍	-12.4273
内想不出外想不入	-12.4273
年月日時關具位姓	-12.4273
鋤旱魃翦滅妖霓	-12.4273
皿	-12.4274
梏	-12.4274
縶	-12.4274
太玄夜光玉女	-12.4274
出幽入冥	-12.4274
恍恍惚惚	-12.4274
符到速追	-12.4274
鼻引口吸	-12.4274
上清司命玉府右卿	-12.4274
鱠	-12.4274
塢	-12.4274
酒陳亞獻	-12.4274
|	-12.4274
飛烈七十二將	-12.4274
刎	-12.4275
横天擔力	-12.4275
禺	-12.4275
擎羊陀羅	-12.4275
愡	-12.4275
十洲三島	-12.4275
保國寧家	-12.4275
噎	-12.4276
日宫月府	-12.4276
孫眞人千金方	-12.4276
天三生木	-12.4276
翻天覆地	-12.4276
勑制地祇	-12.4277
帡	-12.4277
○○○	-12.4277
翶	-12.4277
囄	-12.4277
愜	-12.4277
殽	-12.4277
𦚾	-12.4278
紺	-12.4278
馺	-12.4278
圕	-12.4278
星君二十八宿星君	-12.4278
君北極四聖眞君	-12.4278
咸望洪慈	-12.4278
瀹	-12.4278
碓	-12.4279
今正爾燒香	-12.4279
唳	-12.4279
金樓玉殿	-12.4279
沆	-12.4279
愴	-12.4279
汾	-12.4279
𣢾	-12.4279
㘅	-12.4279
上清太上開天龍蹻經	-12.428
瞰	-12.428
逈	-12.428
善男子汝今當知	-12.428
左耳旦鳴	-12.428
複	-12.428
穗	-12.4281
呴	-12.4281
茨	-12.4281
𠺕	-12.4281
襦	-12.4282
无上上元九天上靈飛	-12.4282
澶	-12.4282
稽首靈觀五聖尊願得	-12.4282
故牒年月日時牒	-12.4282
口是心非	-12.4282
逼合鬼羣	-12.4282
泝	-12.4283
耆山無爲天師張宇初撰	-12.4283
瓫	-12.4283
痞	-12.4283
嶂	-12.4283
宋徽宗	-12.4283
四瀆源王	-12.4283
雲之色從兆泥丸中入下布兆	-12.4283
弧	-12.4284
蹶	-12.4284
琁	-12.4284
駱	-12.4284
婺	-12.4284
玄胎平育天	-12.4284
五元素府	-12.4284
至眞無極大道昊天玉皇上帝	-12.4284
蜋	-12.4284
屛	-12.4284
沅	-12.4284
三清三境天尊	-12.4285
穢除氛	-12.4285
檜	-12.4285
傖	-12.4285
上揲阮樂天	-12.4285
霳	-12.4285
賑	-12.4286
一之炁而成天境	-12.4286
皈依䖍誠讃詠信禮髙上紫微垣北斗第	-12.4286
石阿雄	-12.4286
鄧辛張	-12.4286
㕘	-12.4286
咏	-12.4287
募	-12.4287
玄明恭慶天	-12.4287
玄元始三炁太上老君召出	-12.4288
元載孔昇天	-12.4288
順筆書之治	-12.4288
太安皇崖天	-12.4289
裸	-12.4289
日入室西向	-12.4289
元置品第	-12.4289
嚨	-12.429
邏	-12.429
釗	-12.429
畢還北向叩齒九通思	-12.4291
適寒温	-12.4291
流火兇星	-12.4292
鷺	-12.4292
子辛子寅子惠子	-12.4292
舅	-12.4292
再拜長跪具位小兆	-12.4292
太明玉完天	-12.4293
箸	-12.4293
罟	-12.4293
秖	-12.4294
三者不殺慈救衆生四者不	-12.4294
螺	-12.4295
君隨四時形像在上清	-12.4295
黼	-12.4296
丈人五靈老君祖大帝	-12.4298
甖	-12.4299
囘	-12.4299
陽耀通關	-12.4299
年歲次月日	-12.4299
滚	-12.4299
屨	-12.43
被無下九老	-12.4301
宼	-12.4304
嗇	-12.4308
急急如大赤天帝君	-12.4309
礀	-12.4314
𩲨	-12.4326
天靈赤官	-12.4421
邪吏二人	-12.4424
上詣三天曹	-12.4465
三五功曹左右官使者侍香金童傳言	-12.4797
蒼舌緑齒	-12.4859
吏百二十人度收	-12.4976
閉地户留人門塞鬼路	-12.5085
恭準元降道㫖玉符所至	-12.5107
墠	-12.5128
攝邪入獄	-12.5134
莎	-12.5151
干係等神	-12.5155
牎	-12.5159
眞中有神長生大君	-12.5159
帝通血黄帝中主萬神無越	-12.5166
鑪前當願十方仙童玉女接侍	-12.5167
喥	-12.5167
罏	-12.5167
雷霆一府二院三司	-12.5168
啓科之初伏	-12.5168
疣	-12.5169
妥	-12.517
神公受命普掃不祥	-12.517
神功妙濟真君	-12.517
某與合壇衆官等謹同誠上啓	-12.517
朞	-12.5171
箋魏祖	-12.5171
陰陽神决吏科車赤符吏	-12.5171
元始一炁萬梵洞章	-12.5172
獎	-12.5172
三歩九跡	-12.5172
北方無極太上靈寳天尊	-12.5172
懴方命魔三啓三禮重稱法位具位	-12.5172
潢	-12.5172
三十六部尊經玄中大法師北極佑聖	-12.5173
恭望道慈允臣所奏特	-12.5173
𣗥	-12.5173
遄	-12.5173
聖意名與利	-12.5173
金輪帳前	-12.5173
誠惶誠恐稽首頓首百拜上奏	-12.5174
𣡡	-12.5174
絆	-12.5174
失物難尋	-12.5174
祲	-12.5174
慟	-12.5174
含元太虛天蓬都元帥眞君	-12.5174
天無氛穢	-12.5174
奉承正道赤書玉文九	-12.5174
入舍求嗣	-12.5175
缶	-12.5175
撃	-12.5175
飆	-12.5175
今故燒香自皈依	-12.5175
除已拜上章書奏聞	-12.5175
凑	-12.5175
昇玄消災護命妙經	-12.5175
九天採訪應元保運妙化真君	-12.5175
謬誤語句無倫行列不端不合玄範就乞	-12.5175
正一法文經章官品	-12.5176
虚無自然金闕七寳上帝東宫	-12.5176
牕	-12.5176
三元都會府	-12.5176
道正明宫殿整肅三景齊并道合自然飛	-12.5176
泰殺諒事宗天宫	-12.5176
馬郭方鄧田	-12.5176
徂	-12.5176
黄素玉女十二人	-12.5177
冥關幽路	-12.5178
尔	-12.5178
身百邪摧落	-12.5178
廛	-12.5178
神虎何喬二大聖	-12.5178
葦	-12.5178
六丁七轉八合周旋天經聖化巍巍大道	-12.5178
𥁞	-12.5178
畨	-12.5179
賺	-12.5179
威奸凶無留萬魔振伏紛葩却消摧	-12.5179
驅逐暴虎	-12.5179
褁	-12.5179
招集群仙	-12.5179
七政八靈太上皓兇長顱	-12.5179
炁祭酒屬水在	-12.5179
雷霆都司鬼神公事	-12.5179
串	-12.5179
痿	-12.5179
荻	-12.5179
爲帝王國主君官吏民	-12.518
三官九府百二十曹五帝考官	-12.518
傭	-12.518
邪門閉塞正道明開映照我身三光同輝	-12.518
畊	-12.518
氅	-12.518
伶	-12.518
蕖	-12.518
怯	-12.518
禪善无量壽天	-12.518
囁	-12.5181
燠	-12.5181
萱	-12.5181
爲國爲民祈晴禱雨伐惡驅邪	-12.5181
謹奏年月日髙功銜宣	-12.5181
上言謹案文書	-12.5181
鼻下人中	-12.5181
水五升煑取二升	-12.5182
搖	-12.5182
同心恊力	-12.5182
狴	-12.5182
酌水獻花	-12.5182
等謹同誠上啓虚无自然元始天尊	-12.5182
布降霖雨蘇救禾苗恊成大有之年以慰	-12.5183
𠿗	-12.5183
驅龍捲水閃電興雲流布天河灌通斗極	-12.5183
三部追䰟使者	-12.5183
縟	-12.5183
凊	-12.5183
慝	-12.5183
天部霆司	-12.5184
嘷	-12.5184
眞君眞形符呪	-12.5184
左青右白	-12.5184
和天安地	-12.5184
湔	-12.5185
錮	-12.5185
蒭	-12.5185
金牌玉印	-12.5185
三捻上香願此香煙騰空	-12.5185
魍	-12.5185
鬟	-12.5185
斌	-12.5185
俟命之至謹奏年月日具位	-12.5185
瘳	-12.5185
字號計五卷	-12.5185
清微元上侍宸金闕昭凝妙道保仙元君	-12.5185
緇	-12.5185
衲	-12.5185
癇	-12.5186
攀戀之至	-12.5186
昊天至尊金闕玉皇上帝	-12.5186
峥	-12.5186
蛀	-12.5186
鞏	-12.5186
仭	-12.5186
慱	-12.5186
麥門冬	-12.5186
建節監功大將軍	-12.5186
母秀文英	-12.5186
腕	-12.5186
耻	-12.5187
寗	-12.5187
耜	-12.5187
願得太上十方正眞生炁	-12.5187
若存若亡	-12.5187
憧	-12.5187
挿	-12.5188
懾	-12.5188
揉	-12.5188
髀	-12.5188
䰟及五道三途四生萬𩔖一切沉靈滯爽	-12.5189
慣	-12.5189
膞	-12.5189
謳	-12.5189
三頭九目	-12.5189
䀎	-12.5189
鑾	-12.5189
榔	-12.5189
毆	-12.5189
千千截首	-12.519
誹	-12.519
懌	-12.519
申牒真司外	-12.519
𩬊	-12.519
彛	-12.519
俯伏俟命之至	-12.5191
山魈木客	-12.5191
吕洞賔	-12.5191
唵唎吽唵唎吽唎吽唵唵唎唵唵唎吽吽	-12.5191
衹	-12.5192
褰	-12.5192
拜精玉女名	-12.5192
坼	-12.5192
闋	-12.5192
保制劫運使天長存	-12.5192
中台二白	-12.5193
淛	-12.5193
𦕈	-12.5193
十將軍兵士各十萬人	-12.5193
積行累功	-12.5193
箴	-12.5194
妒	-12.5194
鼇	-12.5194
駍	-12.5194
執籙把籍	-12.5195
娟	-12.5196
芙	-12.5196
急奉北極大帝律令敕	-12.5196
沁	-12.5196
物我兩忘	-12.5196
里中廻眞下映入兆	-12.5196
前朱雀後玄武	-12.5196
𡍼	-12.5197
薇	-12.5197
熠	-12.5197
闥	-12.5197
蘚	-12.5198
迤	-12.5198
耀明宗飄天	-12.5198
思微定志	-12.5198
者敬讓孝養父母	-12.5198
小兒夜啼	-12.5199
𡩋	-12.5199
兵革四興	-12.52
嫂	-12.52
憊	-12.52
五億五萬五千五百五十五	-12.52
薊	-12.5201
罙	-12.5201
濠	-12.5202
上言謹按文書	-12.5203
𦤀	-12.5203
皇人按筆	-12.5203
太極平育賈奕天	-12.5205
題方壺	-12.5205
犴	-12.5205
上常融天	-12.5206
嘈	-12.5206
麯	-12.5206
仙童玉女接侍蘭煙傳臣向來所啓之誠	-12.5206
贛	-12.5206
一生始祖五炁眞皇雷	-12.5207
礬	-12.5207
臣某言臣今月某日爲某人	-12.5207
真授上清三洞弟子靈寳領教嗣師王	-12.5208
書白繒髙聖帝君曰	-12.5209
玄明恭華天	-12.5209
急急如玉清上帝敕唵	-12.5209
太極濛翳天	-12.521
䪃	-12.521
遙	-12.5211
嘯歌邕邕	-12.5211
雷威纔震	-12.5212
三十六員大將	-12.5212
芝生於名山之陰	-12.5218
萬億劫次昇入	-12.5227
𢎞	-12.5229
)▲▲▲▲▲	-12.5244
長九千萬丈春三月	-12.5268
祕法卷二百	-12.5351
卷二百一十	-12.6029
𠸎	-12.6048
形長九千萬丈	-12.6125
䏶	-12.6139
本身飛撞符	-12.6142
禄存星元辰	-12.6145
廉貞星元辰	-12.6149
文曲星元辰	-12.6149
武曲星元辰	-12.615
一切沉靈滯爽	-12.6153
玉符恭準元降道㫖	-12.6157
府主生太陽火官	-12.6158
至真大神浮空而至	-12.6158
陲	-12.616
唵喗吒唎喗吒唎速	-12.616
螢	-12.6161
罰功墮事	-12.6162
降臨壇所修齋行道奉請	-12.6163
今謹有佩籙道士某等	-12.6164
方無極飛天神王長生大聖無量度人君	-12.6165
𠻣	-12.6165
從官十三人從官各千乘萬騎治在	-12.6165
勗	-12.6166
岌	-12.6167
買田宅人口	-12.6167
蠁	-12.6168
須至牒者牒請	-12.6168
眞飛華七景龜山領眞	-12.6168
祖師金闕上保清眞紫虚元君魏	-12.6168
慼	-12.6168
自今而後凡有	-12.6168
熳	-12.6169
蜕	-12.6169
冠帶垂纓	-12.617
蓬萊都水司	-12.617
斬頭截足	-12.617
乃仰存七星使煥明於北方良乆微	-12.617
𠼳	-12.617
清微靈寳道德正一	-12.6171
今批上令者	-12.6171
淒	-12.6171
荑	-12.6172
𠱀	-12.6172
閨	-12.6172
日夜半之時於寢室牀上平坐北向接手	-12.6172
禹步三前還王上吞十二炁	-12.6172
各九千萬騎	-12.6172
洞映九門轉燭陽光掃穢除氛開明童子	-12.6172
官衆等謹同誠上啓	-12.6172
戛	-12.6173
坵	-12.6173
出出者嚴裝顯服冠帶垂纓關啓	-12.6173
搔	-12.6174
砭	-12.6174
德致昌熒惑消禍太白辟兵鎭星四	-12.6174
豈容坐視	-12.6174
疵	-12.6174
瘖	-12.6175
纍	-12.6175
願此香煙騰空俓上供養無上至眞	-12.6175
嫩	-12.6175
繄	-12.6175
咆	-12.6175
須至具狀申聞者右	-12.6175
蜎	-12.6176
攫	-12.6176
反山六目	-12.6176
笄	-12.6176
餒	-12.6176
佐天行化助國救民	-12.6176
昨據齋主某投詞乞就	-12.6176
捏	-12.6177
唵嚩𠯲囉	-12.6177
嗒	-12.6177
誠惶誠懼	-12.6177
滅惡道炁周流神光照夜隂翳	-12.6177
黒天魔王監醜朗馥	-12.6177
準此證應毋得稽	-12.6177
直齋使者百二十人出	-12.6177
装	-12.6177
某與闔壇衆官	-12.6177
蠢飛蠕動	-12.6177
五星髙耀瑞氣飛浮元始集神天地交	-12.6178
疪	-12.6178
醺	-12.6178
干冒聖威某下情無任	-12.6178
青天魔王巴元醜伯	-12.6178
五星列照煥明五方水星却災木	-12.6178
天流鈴摧奸滅	-12.6178
慎之玄都中品第	-12.6178
莭	-12.6179
儕	-12.6179
𡆀	-12.6179
億曾萬祖	-12.6179
孑	-12.6179
等奉爲齋官某仰謝	-12.6179
三洞經籙弟子仲勵編	-12.6179
赤明開圖運度自然	-12.6179
岧	-12.6179
青陽虚映耀日回靈神虎辟邪飛	-12.6179
轉入信根	-12.6179
金鉞前戮	-12.618
佪	-12.618
元始一炁萬神雷司本司欽奉道㫖	-12.618
使者張珏副帥張雲張亞	-12.618
𥹋	-12.618
中九幽之府開諸光明願以是功德爲帝	-12.6181
衙	-12.6181
汰	-12.6181
奩	-12.6181
中有度人不死之神	-12.6181
用雷祖玉帝元始金書	-12.6181
功外經法行	-12.6181
却患三景復位五行順常兵止病愈國祚	-12.6181
魂神澄正萬炁長存不經苦惱身有光明	-12.6181
䦨	-12.6181
請頒符命專行㧞度外須至奏聞者右	-12.6181
上請北帝神呪	-12.6181
西蜀道士樸庵吕元素	-12.6181
有事指揮疾	-12.6182
巨天力士執罰神兵	-12.6182
丹靈朱火炎霞激風赤輪剛運天光	-12.6182
兵四十萬人主收	-12.6182
已得道大聖衆至眞諸君丈人	-12.6182
草芥微生雷霆小吏上叨接引	-12.6182
錯綜以告不祥國土擾亂兵病並行帝王	-12.6182
知磬舉出堂頌出戸引至六幕堂	-12.6182
某處崇建無上黄籙大齋追	-12.6183
碾	-12.6183
貿	-12.6183
從日光中來在我	-12.6183
鷰	-12.6183
𠯐	-12.6183
爼	-12.6183
開具下項	-12.6183
發號施令	-12.6183
啵	-12.6184
搗蜜和丸	-12.6184
我位上王	-12.6184
耄	-12.6184
統天元聖天尊	-12.6184
攬姿運容	-12.6185
兵部手集	-12.6185
叵	-12.6185
耨	-12.6185
遷神寳旛	-12.6185
九色斑斕	-12.6185
蛙	-12.6185
堊	-12.6185
漾	-12.6185
嘙	-12.6185
高上大洞文昌司禄紫陽寳籙	-12.6185
已上先凶後吉應	-12.6185
日月薄蝕	-12.6186
兵士三十萬人上請北帝神呪	-12.6186
荄	-12.6186
闍	-12.6186
卷二十一之三十	-12.6186
和眞人北遊語録	-12.6186
虚无自然元始天尊无極大道太上	-12.6186
官使者各九千九萬人	-12.6186
椽	-12.6186
太上三五正一盟威籙卷之	-12.6186
中理五炁混合百神十轉回靈萬炁齊仙	-12.6187
鶩	-12.6187
㵼	-12.6187
耒	-12.6187
一生二二生三	-12.6187
爓	-12.6187
高上神霄玉清眞王南極長生大帝	-12.6188
躶	-12.6188
晹	-12.6188
邯	-12.6188
夐	-12.6188
顒	-12.6188
下臉夕瞤	-12.6188
蝸	-12.6188
青要玉女名	-12.6188
賊害善八者不驕傲	-12.6188
綰	-12.6188
奏宣詞按如詞言	-12.6188
澈	-12.6188
一二三四五	-12.6188
南華眞經義海	-12.6189
中斗大魁緫監衆靈	-12.6189
蕉	-12.6189
眞武靈應眞君	-12.6189
蠧	-12.6189
揔	-12.6189
元始洞眞天赦寶章	-12.619
哦	-12.619
么	-12.619
鬧	-12.619
螣	-12.619
右官使者隂陽神決吏	-12.619
𡪹	-12.6191
干冒眞威不勝惶懼謹狀	-12.6191
收視返聽	-12.6191
襯	-12.6191
上陽子金丹大要	-12.6191
烽	-12.6191
躇	-12.6191
耴	-12.6191
笋	-12.6192
𣈆	-12.6192
苖	-12.6192
螘	-12.6192
鞍	-12.6192
太素秀樂禁上天	-12.6192
聶	-12.6192
瓣	-12.6192
具髙功全銜	-12.6192
忽至眞九者不二奉戒專一	-12.6193
視之不見聽之不聞	-12.6193
脆	-12.6193
侃	-12.6193
愬	-12.6193
通玄究微	-12.6193
茫茫酆都中重重金剛山靈寳	-12.6193
草芥微生	-12.6193
箒	-12.6193
某號某年太	-12.6193
檳	-12.6193
三花聚頂	-12.6193
㸦	-12.6193
皈身皈神皈命首體投地以是捻香功德	-12.6193
恂	-12.6193
洞幽法師元妙宗編	-12.6194
超陵三界逍遥上清	-12.6194
梵監須延天	-12.6194
㢘	-12.6194
嗅	-12.6194
虚无越衡天	-12.6195
始皇孝芒天	-12.6195
慤	-12.6195
泉曲之府北都羅酆三官九署十二河源	-12.6196
竺落皇笳天	-12.6196
上元唐將軍中元葛將軍	-12.6196
吽咭吒	-12.6196
撑	-12.6196
簡要濟衆治	-12.6196
蒺	-12.6197
里中迴眞下映入兆	-12.6197
太歳年月日時告下法位	-12.6197
臥	-12.6197
君將一百二十人治	-12.6197
尙	-12.6198
貲	-12.6198
跬	-12.6198
曄	-12.6198
捉縛來呈	-12.6198
凹	-12.6198
四縱五横	-12.6199
左社右稷	-12.6199
癤	-12.6199
君畢還北向叩齒十二通思	-12.6199
盱	-12.6199
宙	-12.6199
怜	-12.62
六轉山鬼死七轉收	-12.62
佚	-12.62
帝内經素問	-12.62
氐房心尾	-12.6201
澳	-12.6201
牗	-12.6202
虚明堂曜天	-12.6202
傾光回駕	-12.6202
貪狼巨門禄存文曲廉貞武曲破軍	-12.6202
穽	-12.6202
鳶	-12.6203
琬	-12.6203
烕	-12.6203
黻	-12.6204
繽	-12.6204
鋭	-12.6204
榭	-12.6205
奎婁胃昴	-12.6205
瞑	-12.6206
鄴	-12.6206
四明功曹通眞使者	-12.6207
芝生於名山之陽	-12.6207
蠍	-12.621
縞	-12.6211
甌	-12.6211
竝	-12.6212
年月日關具位姓	-12.6212
昺	-12.6212
違者准前律諸法官職列	-12.6212
霤	-12.6213
一轉天地動二	-12.6213
砧	-12.6214
九千萬騎清虚玉京上靈丹檢赤符龜山	-12.6216
闚	-12.6217
蹷	-12.6219
喋	-12.6219
勾婁吉利	-12.622
祁	-12.622
下情不勝惶懼俟命之至謹	-12.6235
剛乗騎十億萬衆兵士洞仙赤天	-12.6235
鮓	-12.6238
罡風騎置吏驛馬上章吏飛龍騎吏	-12.6741
横身飲風	-12.6772
无上洞靈混沌自然玉清飛仙玉虚	-12.7022
侍衞佩者身得佩	-12.7217
地獄符臣某告行通幽破	-12.725
攴	-12.7252
又一鬼王自稱	-12.7257
天開化主宰定貴眞君	-12.7259
府主死太隂水官	-12.7262
府主生死罪録官	-12.7262
而至祝曰吾奉玉清眞王勑召	-12.7263
驛騎將軍五人上靈官	-12.7265
左上右下繞一宫	-12.7266
𩃱	-12.727
精兵十萬衆都天霹靂	-12.7272
謹齎香花法信供養之儀至心歸命	-12.7272
亳	-12.7273
玉皇大天尊玄穹髙上帝	-12.7273
喼	-12.7273
焴	-12.7275
萇	-12.7275
道生一一生二二生三三生	-12.7275
肸	-12.7275
成吉思皇帝	-12.7276
八威吐毒猛馬四張天丁前驅大帥仗	-12.7276
陽庭隂治	-12.7277
仿	-12.7277
正音行音遊音梵音	-12.7277
水五升煑取三升	-12.7278
旆	-12.7278
丹青腰玉女各三千萬衆九玄上	-12.7278
吾在壇前卓劒相待	-12.7279
擡	-12.7279
忖	-12.7279
炁天君一切神仙諸靈官䖍誠懴謝伏聞	-12.7279
領將一萬人度第	-12.728
之罪自從多生以至今生	-12.728
法橋大度天尊	-12.7281
東嶽天齊大生仁聖帝	-12.7282
色累苦心	-12.7283
弑	-12.7283
厄符臣某承誥奉行解	-12.7283
肢	-12.7283
仙都君九炁丈人	-12.7283
玉郞門下某帝先生王甲再拜謁	-12.7283
嘽	-12.7284
噂	-12.7284
大道君太上老君太上昊天玉皇上帝	-12.7284
東方九炁青天明星大神煥照東	-12.7284
旍	-12.7284
肱	-12.7285
嚚	-12.7285
後聖九玄金闕帝君	-12.7285
惶懼之至謹狀年月日具位姓某狀申申	-12.7285
量品至眞大神無鞅之衆浮空而至說經	-12.7285
倬	-12.7285
黄天魔王横天擔力五帝大魔萬神之宗	-12.7285
清微三炁九霄符章經道雷帝天君	-12.7285
天無氛穢地絶妖塵冥慧洞清大量玄玄	-12.7285
僭	-12.7285
糅	-12.7285
太霄琅書瓊文一遍則	-12.7285
巳録奏聞願得太上十方至	-12.7286
部各九千萬人度天皇	-12.7286
太上北極伏魔神呪殺鬼籙	-12.7286
各二人出上元九天	-12.7286
沾足田疇恊成大有之年以慰下民之望	-12.7286
真三光通靈八騎司馬龜山	-12.7286
太玄都省行壇牒	-12.7287
我愛山居好	-12.7287
西方七炁素天太白流精光耀金門洞	-12.7287
情不勝惶懼俟命之至謹狀年月日具位	-12.7287
金闕昭凝宫	-12.7287
明眞科曰生世	-12.7287
溫	-12.7287
哈	-12.7287
𢌜	-12.7287
司禄主者職貢舉眞君	-12.7287
膽碎心傾	-12.7287
星轉燭洞照太陽上有赤精	-12.7287
俓御至眞无極大道三清上聖昊天	-12.7287
諸天天尊諸天上帝上清日月星斗河漢	-12.7287
昇紫庭靈寳符命普惠萬生	-12.7287
䘙	-12.7288
照太冥中有素皇號曰帝靈保神安	-12.7288
四界直符功曹使者	-12.7288
謦	-12.7288
心肝脾肺腎	-12.7288
境土當使兵寢刑措國泰民安絶寇	-12.7288
此玉章每旦	-12.7288
霄主宰文昌大洞紫陽玉章第	-12.7288
五師三省眞君九天天曹諸位眞君歷	-12.7289
函上詣高元宸照宫	-12.7289
崱	-12.7289
絨	-12.7289
嗌	-12.7289
赤天魔王負天擔石白天魔王反山六目	-12.7289
其諸情悃巳録告聞願得太上十方至	-12.7289
今故立齋燒香然燈願以是功德照曜	-12.7289
俸	-12.7289
禋	-12.7289
功曹一人吏六人大洞天騶甲卒兵萬人	-12.7289
周玉符寳節嘯命微幽擲火	-12.7289
恭望睿慈允	-12.7289
行兵府雷祖大帝第	-12.7289
按如詞言丹誠懇切	-12.729
難長居無爲普	-12.729
蕳	-12.729
杇	-12.729
夸	-12.729
𣳚	-12.729
大天尊玄穹高上帝	-12.729
火兵備守玉堂	-12.729
尢	-12.7291
雇	-12.7291
𡀖	-12.7291
諸廟英烈神祇	-12.7291
膾	-12.7291
怍	-12.7291
昊天玉皇上帝九皇至尊十方	-12.7291
敢有小鬼欲來見狀钁天大斧斬鬼五形	-12.7291
昊天金闕玉皇大天尊玄穹高上帝	-12.7291
今靜夜行道謹奏爲	-12.7291
兵馬九騎使者八十二人	-12.7291
蘅	-12.7292
太上玄天眞武無上將軍籙	-12.7292
滅蹤辟奸破妖明耀元功金符召制躡雲	-12.7292
五炁玄天元始徘徊辰星煥	-12.7292
慾斬尸變景流光玉符	-12.7292
三元九府百二十曹	-12.7292
䵟	-12.7292
上帝東極救苦青玄上帝	-12.7292
鎖鬼關精	-12.7292
直符使者中界直符使者下界直符使者	-12.7292
招靈致眞攝魔之符	-12.7292
出堂頌出戸道門科範大全集卷之六十	-12.7293
運四極安隆伏御帝前罔有不恭	-12.7293
囀	-12.7293
淼	-12.7293
兆民懽泰人神安	-12.7293
壇凡星位	-12.7293
昇入無形與道合眞叩頭自搏	-12.7293
衝迸威包羅交變萬方流金豁落	-12.7293
地祇陰雷主者温瓊酆都朗靈元帥關羽	-12.7293
鼉	-12.7293
鰥	-12.7293
贏	-12.7293
龍章鳳篆	-12.7294
將軍兵士天官將吏	-12.7294
交付泰山神吏	-12.7294
胇	-12.7294
嵉	-12.7294
苴	-12.7294
六乙天喜	-12.7295
金火天丁火鈴妙帥	-12.7295
函封印全	-12.7295
巳生未生皆得生成	-12.7295
𠺗	-12.7295
王太霄琅書瓊文第	-12.7295
飇散景飛騰太空出入冥無遊	-12.7295
嬋	-12.7295
法衆䖍誠稱揚讃詠衆諷中篇旋遶	-12.7295
仰慮居宅之所犯觸	-12.7295
屑雲雕雪	-12.7295
漙	-12.7295
使多稼之復生庶烝民之蒙惠	-12.7295
斗樞上相眞君	-12.7295
今故燒香歸命靈寳天尊修齋行道謝過	-12.7296
下爲亡者攝炁聚神一如告命	-12.7296
閥	-12.7296
軋	-12.7296
白羽黒翮	-12.7296
瘍	-12.7296
桶	-12.7296
昃	-12.7297
懵	-12.7297
使者散花玉女主雪將軍回風結雲使者	-12.7297
懊	-12.7297
人門撼地軸	-12.7297
年月日時告下謹遣九天捷疾符使楊傑	-12.7298
覊	-12.7298
郭象註成	-12.7298
桴	-12.7299
蓉	-12.7299
睢	-12.7299
饉	-12.73
睨	-12.73
幷	-12.73
急急如含元太虛天蓬	-12.73
煨	-12.73
聆	-12.73
剏	-12.73
狂風摧山嶽	-12.73
腪	-12.73
黃帝隂符經	-12.73
亰	-12.73
謹據入事須至録狀申聞者右謹具申	-12.73
唵嚩明囉㗶囉娑婆薩訶	-12.7301
屹	-12.7301
嶠	-12.7301
饕	-12.7301
本在雜治中	-12.7301
龍天飛元攝魂徐符使	-12.7302
瑯	-12.7302
轉禍爲福	-12.7302
𠳤	-12.7302
舌柱上腭	-12.7302
上清五元玉册九靈飛步章奏祕法	-12.7302
綳	-12.7302
靈化梵輔天	-12.7303
芹	-12.7303
鶴林道士吕太古集	-12.7303
蠕	-12.7303
綉衣使者玉童玉女九九億億萬人	-12.7303
漉	-12.7304
某與合壇官衆等謹重誠上啓	-12.7304
觀明端靖天	-12.7304
饋	-12.7304
下禳地禍	-12.7304
生擒活捉	-12.7304
痂	-12.7304
盎	-12.7304
啇	-12.7305
上台一黄祛却不祥中台二白	-12.7305
榼	-12.7305
𠾐	-12.7305
謚	-12.7306
飫	-12.7306
倩	-12.7306
沮	-12.7306
鯽	-12.7306
無思江由天	-12.7306
雛	-12.7307
緼	-12.7307
嶼	-12.7307
速來救劫護天民	-12.7307
穢君五人官將百二十人謹請	-12.7307
擯	-12.7308
甍	-12.7308
靠	-12.7308
汀	-12.7308
鑼	-12.7308
寂然兜術天	-12.7308
敗仙相第	-12.7308
柘	-12.7309
濜	-12.7309
驍	-12.7309
濬	-12.7309
嗷	-12.731
搭	-12.731
各九千萬騎清虚上真靈仙玉官	-12.731
太文翰寵妙成天	-12.7311
醯	-12.7311
若能持此戒者獲	-12.7311
太煥極瑶天	-12.7311
陬	-12.7311
毳	-12.7311
囹	-12.7312
襌	-12.7312
毘	-12.7312
跼	-12.7312
太極都雷隱書	-12.7313
鴟	-12.7313
洙	-12.7314
瘕	-12.7314
太皇黄曽天	-12.7314
翊聖保德傳	-12.7314
遹	-12.7314
煦	-12.7315
球	-12.7315
腧	-12.7315
㤙	-12.7315
太釋玉隆騰勝天	-12.7315
羮	-12.7315
上明七曜摩夷天	-12.7316
𨗿	-12.7316
壽同四天之人九年飛行	-12.7316
蚰	-12.7318
碣	-12.7318
曙	-12.7319
炯	-12.732
將用自己元神	-12.732
幙	-12.732
駈	-12.7321
唦	-12.7323
鵶	-12.7323
湎	-12.7323
紙朱書存天色	-12.7323
㩗	-12.7323
珞	-12.7323
䧺	-12.7324
剛騎三十五萬衆兵士太上隂陽收	-12.7324
剛加君吏官將百億萬衆无上三天飛仙	-12.7325
弇	-12.7326
兕	-12.7328
用早朝行道儀	-12.7328
菰	-12.7329
某奉符奏降	-12.7329
豚	-12.7331
章右謹上請帝真	-12.7332
栩	-12.7335
粢	-12.7338
霄霹靂雷眞神君	-12.7339
狙	-12.7341
太玄部卷第	-12.7347
刀採之陰乾百日食	-12.7347
法亦空不生	-12.737
法本空不從	-12.7373
𠯐囉喗𠸎唎	-12.7435
急急奉道祖鳴雷	-12.754
唵嚩𠯐囉喗	-12.8359
蒼舌緑齒四目老翁天丁力士威南禦兇	-12.8386
之獄有諸罪人	-12.8495
披心露形引求自剋爲國謝殃燒香	-12.8505
中部八景洞玄飛行三五直靈神仙	-12.8505
下部八景洞靈飛行三五直靈神仙	-12.8507
畚	-12.8508
哄	-12.8508
牒書齋意再用符一道同燒之此功曹	-12.851
勺	-12.851
躰	-12.8512
景之輿授我	-12.8512
哳	-12.8515
𠰳	-12.8515
𠸩	-12.852
眞君卷雲冠方心曲領下有脅勢朱履	-12.852
九玄緑暉丹耀洞靈自然龜山	-12.8521
三清上帝十極髙眞	-12.8521
先服陰符奪	-12.8522
咷	-12.8522
人身赤衣持㦸	-12.8522
玭	-12.8523
候到請詳備去事理	-12.8523
暉玉華真人各九億萬重	-12.8523
上部八景洞天飛行三五直靈神仙	-12.8523
瑾	-12.8523
壷	-12.8524
以水六升煑取二升	-12.8524
人身黒衣持鑲	-12.8525
下情不勝惶悚之至謹狀年月日具位	-12.8525
柱呪爲鐵火	-12.8525
各八千九億萬人洞清皇虚眞景	-12.8525
呶	-12.8526
瑀	-12.8526
椅	-12.8527
奕諸天齊功上天度人嚴攝北酆	-12.8527
綘	-12.8527
中部三十二天洞玄八景	-12.8527
之司輾轉幽關無由解脫今日至心皈命	-12.8527
五帝三官四司九府	-12.8528
上部三十二天洞天八景	-12.8528
潁	-12.8529
天帝梵監須延天帝寂然兠術天帝波羅	-12.8529
請詳備去事理移文	-12.8529
學道得道求仙得仙	-12.8529
解冤釋結	-12.8529
部直符吏各九千萬億人	-12.853
埴	-12.853
外先行開赦所薦亡魂須至牒者	-12.8531
眞人龜山飛靈將軍各九千萬重	-12.8531
思極則止止又思差乃巳如上法罪由	-12.8531
君五人兵士十萬人主收某家宅中	-12.8531
仰祈恩霈開泰幽冥除巳具奏三天	-12.8531
鬬	-12.8532
鏳	-12.8532
石深九尺此帝君玉文鎮神上法文如左	-12.8533
行道謹奉爲入意其諸情	-12.8533
如細雨宻霧	-12.8533
巳得道大聖衆至真諸君丈人	-12.8533
謹牒太歲年月日時牒	-12.8533
鶯	-12.8533
蓽	-12.8534
縦	-12.8534
急急如南方火德星君律令	-12.8534
福善禍淫	-12.8534
玄壇土地方域神眞臣今靜夜	-12.8534
諦詳詞語灼見	-12.8534
下部三十二天洞靈八景	-12.8534
各九千億萬騎	-12.8534
搶	-12.8535
茄	-12.8535
靖廬治化	-12.8535
功一年轉一官	-12.8535
冦	-12.8535
真人龜山飛靈將軍七千萬重	-12.8535
香一炷十方肅清法鼓三通萬神咸集	-12.8536
何神不使何令不行	-12.8536
𩓑弟子身得飛仙	-12.8536
哃	-12.8536
𠻳	-12.8536
漳	-12.8536
擴	-12.8536
筶	-12.8536
醫諸司官將太上諸階經籙中仙官將吏	-12.8536
九千萬人玉虚洞靈上元紫章九眞	-12.8537
東青西素南丹	-12.8537
詳事施行謹牒年月日牒具位姓	-12.8537
景玉女各九千萬乗	-12.8537
直符吏各二十四億萬人	-12.8537
沔	-12.8538
瑋	-12.8538
東靈上相瑞光之家	-12.8538
人七耀上清洞眞玄景玉皇青華	-12.8538
以今晚朝陞壇行道請法衆等運兹	-12.8538
貫居住奉道信士某詞稱本命某年	-12.8538
璹	-12.8538
奮武揚威	-12.8538
開乾破巽	-12.8538
役使萬靈上衞仙翁和與道合眞	-12.8538
青城山通慧朱眞人	-12.8538
澇	-12.8538
元皇正炁來合我身功加一切天地咸寧	-12.8539
跂行蜎息一切衆生普得免度十苦八	-12.8539
帝明晨道君下降醮位賜甲神仙得乗	-12.8539
沭	-12.8539
廻光七曜玉華丹靈日月八術自然龜山	-12.8539
七百七十品九億萬諸靈官飛龍騎吏	-12.8539
彷	-12.854
之氣當以其月	-12.854
野人閑話	-12.854
上上禪善无量夀天	-12.854
就便攝赴所在有司依律治罪以明天憲	-12.854
度自然某家億曽萬祖囚徒先魂	-12.854
供養十方無上經寳天尊	-12.854
檠	-12.854
㹠	-12.854
監醜朗馥	-12.854
右謹上請天闕掌關諸君三界主者	-12.854
斬邪束妖剪截魔王北帝所承風火	-12.854
代傳宗啓教諸大師眞雷霆神虎	-12.8541
君張亞苟留吉畢宗逺	-12.8541
肋	-12.8541
是謂無量普度無窮	-12.8541
中山神呪普天使然五靈安鎮身飛上仙	-12.8541
各三千萬人皇眞下清玉王仙都	-12.8541
當精嚴入室燒香存思	-12.8541
萬人爲某延度厄難	-12.8541
𠵇	-12.8542
吔	-12.8542
筍	-12.8542
西北九拜朝元父東南三拜朝玄母還向	-12.8542
鏹	-12.8542
青黄白三色雲炁	-12.8542
道上二玄三元四始	-12.8542
閡	-12.8542
憂傷兆民無寧謹依大法披露眞文皈命	-12.8542
泰清飛集宏元	-12.8542
姹	-12.8542
赤書玉字八威龍文保制劫運使天長存	-12.8542
寖	-12.8542
鯤	-12.8542
除已具奏天闕宸廷	-12.8542
光三嚥止便讀玉經經畢又祝曰	-12.8542
國主有災兵革四興	-12.8542
羅育邈眇炁合雲	-12.8542
重念某德薄任重過著功微不足以感	-12.8543
曬	-12.8543
㖵	-12.8543
柸	-12.8543
却鬼延年按行五嶽八海知聞魔王	-12.8543
登眞度命出離生死	-12.8543
鎮星吐輝流煥九天開	-12.8543
筞龍謡歌慶㑹散花太空神化	-12.8543
日右耳旦鳴有	-12.8543
酋	-12.8543
蝣	-12.8544
顴	-12.8544
三天門下泰玄都省主宰髙眞	-12.8544
嚲雲髻第	-12.8544
金闕上保高元宸照法王清眞紫虚元君	-12.8544
各三千萬人皇真下清玉王仙都	-12.8544
僖	-12.8544
湄	-12.8544
開天門閉地戸留人門塞鬼路	-12.8544
察姦鉤騎	-12.8545
降三炁九霄符章經道雷帝天君	-12.8545
瞥	-12.8545
六天洞淵大帝六波天主帝君	-12.8545
剜	-12.8545
賄	-12.8545
六九數及巳酉丑年月日時方位正西第	-12.8545
王直齋功曹僕射百二十人出	-12.8545
茍	-12.8545
地仙得道上學之人言名於四天之王凡	-12.8546
迴光八耀玉華丹靈日月八術自然龜山	-12.8546
呂	-12.8546
薨	-12.8546
斗牛女虛危室壁	-12.8546
竟四垂不極不窮无邊无際无色之氣去	-12.8546
膻	-12.8546
烟香雲宻羅	-12.8546
鱔	-12.8546
以今午朝陞壇行道請法衆等運兹	-12.8546
奭	-12.8546
尋聲赴感	-12.8546
蟊	-12.8546
斾	-12.8547
洞玄玉樞雷霆大法	-12.8547
𤢟	-12.8547
玉誕長桑栢空度仙	-12.8547
飱	-12.8547
務令人鬼區分妖邪絶滅家庭	-12.8547
皥	-12.8547
巋	-12.8547
服之叩齒九通仰存四土皇姓諱悉	-12.8547
登僧得色	-12.8547
獲侍班行夙夜兢惶無由	-12.8547
從官一百二十人九天太微南陵	-12.8547
不忠不孝不仁不義	-12.8548
玄圃之上積石之隂	-12.8548
方獄牌符呪曰	-12.8548
供養十方無上師寳天尊	-12.8548
太清元道真經	-12.8549
靁	-12.8549
五雷院使眞君雷霆都司元命眞君	-12.8549
人能常清靜天地悉皆歸	-12.8549
天神龍水社	-12.8549
之鳳内藏三昧真火	-12.8549
太一三盟登壇大劵明眞大諱	-12.8549
巓	-12.8549
檢照本境人民應犯重罪深愆	-12.8549
皇繒八景三洞上清玉帝七曜五星	-12.855
捉縛枷栲	-12.855
磑	-12.855
鎭人身泥丸絳宫	-12.855
念法三遍取炁	-12.855
東華上相木公青童道君	-12.855
里中迴真下映入兆	-12.855
蒨	-12.8551
速降速降疾速降	-12.8551
𧆺	-12.8551
可韓司丈人眞君	-12.8551
北陰玄天酆都大帝	-12.8551
囷	-12.8551
如告命太歳年月日時告下法位外封式	-12.8551
蚤	-12.8552
嚴駕䕫龍	-12.8552
𤌿	-12.8552
一轉六神藏二轉四煞没三轉	-12.8552
邕	-12.8552
汜	-12.8553
㮈	-12.8553
天火雷神地火雷神五雷	-12.8553
舂	-12.8553
䰟制魔保舉度品南宫死䰟受	-12.8553
天同益筭保生	-12.8553
睽	-12.8553
東嶽上卿司命眞君	-12.8553
蚩	-12.8553
郴	-12.8553
圮	-12.8553
筏	-12.8553
迷離奴那唵唵吽吽	-12.8553
姓某承誥奉行外封式	-12.8553
各九千萬衆紫玄中清三元上虚太丹	-12.8554
缾	-12.8554
南上司命司録延壽益筭度厄尊神	-12.8554
鴆	-12.8554
騷	-12.8554
滉	-12.8554
畋	-12.8554
汋	-12.8554
揲	-12.8555
洌	-12.8555
氲	-12.8555
翊聖保德真君	-12.8555
珂	-12.8555
嫡	-12.8555
左有三十六部尊經右有玄中大法師	-12.8556
西瞿耶尼	-12.8556
距	-12.8556
雲笈七籤	-12.8556
𠿞	-12.8556
𡅵	-12.8556
眞玉童龜山玉眞七千萬乗	-12.8556
紈	-12.8557
舡	-12.8557
中出降侍前後次存	-12.8557
朶	-12.8557
藋	-12.8557
詹	-12.8557
冉	-12.8558
勛	-12.8558
上解祖考億劫種親疾除罪簿落滅惡根	-12.8558
輪羽車飛行雲中遊宴	-12.8558
窖	-12.8558
肧	-12.8558
㸔	-12.8558
正身處物五者不	-12.8559
六者不嗔兇怒凌人七者不詐	-12.8559
羽之裘腰帶	-12.8559
瘢	-12.8559
貂	-12.8559
神稽首邪魔歸正敢有不	-12.8559
㒒	-12.8559
䓁	-12.8559
悒	-12.856
三月六月九月十二月	-12.856
涣	-12.856
天尊答曰遍通眞士	-12.856
闊二寸四分厚二分	-12.856
三光通靈八部司命龜山眞人三千萬衆	-12.856
咁	-12.8561
雷師皓翁	-12.8561
楠	-12.8562
檝	-12.8562
磺	-12.8562
謔	-12.8562
揜	-12.8562
囦	-12.8562
醬	-12.8562
槲	-12.8563
銅牙鐵爪	-12.8564
喨	-12.8564
拌	-12.8564
楗	-12.8564
再拜書上宗師金闕昭凝妙道保仙元君	-12.8564
簧	-12.8565
日月皇華之根十二上願早得飛仙遊行	-12.8565
今則所伸丹禱願賜鑒觀遵太上之真	-12.8565
驀	-12.8566
吱	-12.8566
鸚	-12.8566
逵	-12.8566
奉爲亡靈上資徃生仙界念	-12.8566
景之道行之八年	-12.8566
爀	-12.8566
霅	-12.8567
矇	-12.8568
飃	-12.8568
顖	-12.8568
真功曹各九千萬人	-12.8568
詈	-12.8568
扞	-12.8568
櫟	-12.8569
急急應吾口急急應吾聲	-12.8569
中消魔智慧呪隱文金玄羽章	-12.8569
法度應得道之人髙上	-12.8569
蝠	-12.857
蹲	-12.857
第六品銘音曰	-12.857
崗	-12.857
踖	-12.8571
甲丙戊庚壬	-12.8571
蘖	-12.8571
第三品銘音曰	-12.8571
第二品銘音曰	-12.8571
第五品銘音曰	-12.8571
第四品銘音曰	-12.8572
烙	-12.8572
誤叩者死法官	-12.8572
急急如赤天吒龍都藥叉飛天歘火律令	-12.8572
之炁更受錬元	-12.8572
虎頭鞶囊	-12.8573
吙	-12.8573
真君侍從仙衆伏以	-12.8574
蛆	-12.8575
急急如正一老祖天師律令	-12.8576
絰	-12.8577
水二升煑取一升	-12.8578
麴	-12.8579
褖	-12.8584
滸	-12.8584
本將頭戴天丁冠身穿	-12.8585
宮玉皇正諱當向	-12.8586
硨	-12.8588
磲	-12.8588
痔	-12.8588
䕡	-12.8597
各二人出操	-12.8741
𡄦嚙𡄦	-12.8791
告聞願得太上十方至	-12.8826
斬邪滅蹤紫炁乗天丹霞赫衝吞魔食鬼	-12.9456
興行慶雲流布合景黄庭	-12.9597
詞難抑恭伺至期依科關奏預取今	-12.9688
星中靈官神仙兵馬七萬衆	-12.9912
矮	-12.992
囌	-12.9927
功曹九千萬人皇虚玉帝自然雲車紫景	-12.9935
各九千萬衆上元雲瓊太空飛霄自然領	-12.994
勝虔切之至謹狀年月日具位姓某狀申	-12.9943
右法於香爐内燒召祝之用牒差功曹請	-12.9943
右謹録狀上申	-12.9943
爕	-12.9944
各九千萬人皇靈玉帝自然靈章紫景	-12.9945
部靈飛使者各八千九億萬人	-12.9948
躄	-12.995
金銀錢帛吏兵直符使者百萬人太清招	-12.9951
儘	-12.9952
太上無形無名虚無自然至眞大道	-12.9952
千千截首萬萬剪形魔無干犯鬼無妖精	-12.9952
阡	-12.9953
清淵賛玄靈華夫人	-12.9953
伐惡符命所至文檄所通	-12.9953
厝	-12.9953
吏一十五人上三天三五元命司	-12.9954
速達徑御至眞無極大道昊天玉皇上帝	-12.9955
騖	-12.9956
鄞	-12.9956
禴	-12.9956
具位奉行太極祭鍊事	-12.9956
解五音咒詛祕籙	-12.9956
掌管行持道法庶獲通靈	-12.9956
啌	-12.9956
淬	-12.9956
奏申天闕省府眞司	-12.9956
漕	-12.9957
傚	-12.9957
斲	-12.9957
鵾	-12.9957
噇	-12.9958
請㫖頒行外須至申聞者右謹具狀上申	-12.9958
哀憐削治正定必使上合天心毋令遣	-12.9958
高上神霄玉清眞王九宸上帝	-12.9959
各三千萬人靈景眞仙都官候仙	-12.9959
某與闔壇官衆等謹同誠上啓	-12.9959
凾	-12.9959
中嶽中天崇聖帝	-12.9959
㕧	-12.996
生人有年月日時災厄者請	-12.996
沖玄神化靜應顯佑眞君	-12.9961
𢡖	-12.9961
上古經師君上古籍師君上古度師君	-12.9961
靈將軍各三千萬人虚景真仙都官候仙	-12.9961
㗖	-12.9961
靈元老一炁天君	-12.9961
蛩	-12.9961
履行天下有精	-12.9961
虱	-12.9962
唓	-12.9962
另	-12.9962
左青龍君右白虎君前朱雀君後玄武君	-12.9962
十方無極大道道德衆聖天尊	-12.9962
各七千萬重紫皇玉京虚无自然九色	-12.9962
嘏	-12.9962
尸冥演由之炁	-12.9962
徯	-12.9962
泌	-12.9962
剽	-12.9962
道藏經目録卷之	-12.9962
輜	-12.9962
攝召烏塗二神君	-12.9963
九天採訪使應元保運眞君	-12.9963
憒	-12.9963
正元雷祖轟天大帝	-12.9963
玉清神霄大法司當司	-12.9963
丈人天師女師三師君門下五炁君	-12.9963
雷奔電掣助吾行威	-12.9963
經寳臣等皈身皈神皈命首體投地	-12.9964
上真各三千二百人中部三十二天洞玄	-12.9964
趂	-12.9964
瀆長源王濟瀆清源王	-12.9964
茁	-12.9964
勾陳星宫天皇大帝中天星主紫微	-12.9964
西嶽金天順聖帝北嶽安天元聖帝	-12.9964
伺某續行符檄到日發遣	-12.9964
恩天下太平道德興	-12.9964
萬神九州社令雷神酆都地祇諸司官將	-12.9964
粱	-12.9965
去留如解帶	-12.9965
里廻真下映入兆	-12.9965
九千萬衆九玄上眞飛華七景龜山領	-12.9965
厄下禳地禍消刀兵水火旱蝗疾疫之灾	-12.9965
芝玉女三千萬人皇眞下清玉王仙都	-12.9965
非敢有干試豁落斬摧玉符所告神	-12.9965
哮	-12.9965
五百年福及生靈	-12.9965
東嶽濟度拜章大醮儀	-12.9965
賜福天官中元赦罪地官下元解厄水官	-12.9966
真人各三千萬衆靈光上元虚神官屬	-12.9966
甥	-12.9966
北斗靈靈斗柄前星	-12.9966
杰	-12.9966
星中靈官神仙兵馬五萬衆	-12.9966
各九千萬人上元雲瓊太空飛霄自然領	-12.9966
紫玄中清三元上靈太丹	-12.9966
雲同一色轉温盎以布	-12.9967
騭	-12.9967
水三升煑取二升	-12.9967
離地獄永辭長夜覩見光明	-12.9967
禁忌延致災殃	-12.9967
上張天羅下布地網周匝禁制把斷方	-12.9967
元和遷校府	-12.9967
日宫太陽帝君月府太隂皇君	-12.9967
毋致遁逃嚴加撲捉爲害	-12.9967
謹具家書上聞伏丐師慈俯念宗枝垂憐	-12.9967
諸類神鬼魍魎妖精無分大小親踈一體	-12.9968
北帝欽輪普靈神	-12.9968
玉宸七寳紫微玉符	-12.9968
左佩豁落右帶火鈴擲火萬里威制	-12.9968
二捻上香願此香煙騰空徑上供養	-12.9968
巴狂我享上功坐運魁	-12.9968
帶風雲電雷雨前來本壇布降霖雨蘇救	-12.9968
誅鋤旱魃剪滅妖霓	-12.9968
𥘵	-12.9968
擔砂負石	-12.9968
保一李眞人眉山混隱南眞人丹山雷淵	-12.9968
無所不禳無所不度	-12.9969
六花豁凶荒而成祥瑞俾民安於樂土庶	-12.9969
扭	-12.9969
憣	-12.9969
今歲自某月以來	-12.9969
修眞有分進道無魔同歸清靜之風永托	-12.9969
景玉符上元洞天炁部	-12.9969
碧落浮黎空歌保珍	-12.9969
上廣太上度人之化下副弟子向道之誠	-12.997
九千萬人上元靈瓊太空飛霄自然領	-12.997
逺遁無人之境滅跡潜形免爲民物之	-12.997
蘭煙傳臣向來所啓之誠速達俓御	-12.997
洊	-12.997
唬	-12.997
壠	-12.997
萋	-12.997
譖	-12.997
雲上九都飛生自騫	-12.997
鱸	-12.997
玉童各三千萬人紫天虚真皇帝金丹	-12.997
仝	-12.9971
兊卦統雄兵	-12.9971
崿	-12.9971
鍍	-12.9971
上聞天曹伏丐太上老君太上	-12.9971
厚地洞宫嶽瀆主宰	-12.9971
摯	-12.9971
軼	-12.9971
仍口引雲氣九咽㣲祝曰	-12.9971
不滅何福不臻元皇正	-12.9971
清肅人物安寧懋顯神功以彰道化	-12.9971
師寳臣等皈身皈神皈命首體投地	-12.9971
已上先凶後吉應三六九數及	-12.9971
火錬丹界天尊	-12.9971
然燈照曜諸天下暎无極	-12.9971
霹靂昌陽閃爍王昊二使者	-12.9971
左右僕射天雷上相	-12.9972
於豐年消殄蟲蝗肅清疵癘	-12.9972
那育郁馥摩羅法輪	-12.9972
北夢瑣言	-12.9972
嗄	-12.9972
無極曇誓天	-12.9972
祺	-12.9972
南方赤帝西方白帝北方黒帝中央黄帝	-12.9972
金眞玉光八景飛經	-12.9972
之道旣畢乃又兩足俱上	-12.9972
䖍切向道慇懃法許流傳理宜付度	-12.9972
星中靈官神仙兵馬三萬衆	-12.9972
雷霆鄧辛張三大天君	-12.9973
天蓬玉眞壽元眞君	-12.9973
闤	-12.9973
嵇	-12.9973
白蛇大將馬充	-12.9973
脘	-12.9973
紫極氷輪洪波鼓舞	-12.9973
歴世真仙體道通鑑	-12.9973
啝	-12.9974
芴	-12.9974
賖	-12.9974
惡之鬼何不消亡飛仙一吸萬	-12.9974
馥朗廓奕神纓自宫	-12.9974
太極左宫仙公冲應孚佑眞君	-12.9974
照應今來傳度事理日後如遇	-12.9974
緡	-12.9974
銚	-12.9974
玉府判府眞君玉府左右侍中	-12.9974
九天丈人眞君潜山九天司命眞君廬山	-12.9974
壙	-12.9974
芘	-12.9974
軾	-12.9974
一切眞仙恭望洪慈洞	-12.9974
佃	-12.9974
飛天大醜總監上天沙陀劫量龍漢瑛	-12.9974
使者百二十人出无上直齋	-12.9974
各七千萬乗靈清	-12.9974
初捻上香願此香煙騰空	-12.9975
可韓司丈人眞君九天採訪使眞君	-12.9975
阨	-12.9975
先天雷晶隱書	-12.9975
无所不度无所不成	-12.9975
瞪	-12.9975
告命無幽不聞上御	-12.9975
噃	-12.9976
鋼	-12.9976
𡼳	-12.9976
初捻上香願此香煙騰空徑上供養	-12.9976
天地神呪淨心口神呪安土地神呪玉清	-12.9976
擂	-12.9976
尻	-12.9976
黿	-12.9977
泰玄都正一平炁係天師	-12.9977
畢觜參井鬼柳星張	-12.9977
豔	-12.9977
骼	-12.9977
部功曹聖寳眞人九千萬人上	-12.9977
經句符書門	-12.9977
犂	-12.9977
漣汲溟波	-12.9977
清微宗主眞元妙化天帝	-12.9977
賷	-12.9977
九千萬重紫皇玉京虚无自然九色	-12.9977
将	-12.9978
蝀	-12.9978
穫	-12.9978
縢	-12.9978
魔王敬受事故能朝諸天	-12.9978
宗靈七非天宫第六	-12.9978
蘄	-12.9978
急急如高上玉皇紫微帝君律令奉行	-12.9978
楝	-12.9979
𡄳	-12.9979
嗑	-12.9979
左目上臉旦瞤	-12.9979
旬他羅之國	-12.9979
煙傳臣向來所啓之誠速逹徑御	-12.9979
長生大帝律令昊天金闕玉皇上帝勑	-12.9979
𨔡	-12.9979
紫晨玉童各九千萬重虚玄上清翠羽上	-12.9979
翩	-12.998
撈	-12.998
沍	-12.998
瓷	-12.998
元始符命金籙白簡長生靈符告下南方	-12.998
魔王監舉無拘天門	-12.998
㝡	-12.998
恵	-12.998
上皇先生紫晨君	-12.998
窓	-12.998
籛	-12.9981
燻	-12.9981
𩲕	-12.9981
之門三司進朝以定善惡	-12.9981
唵靈靈都攝邪	-12.9981
繇	-12.9981
禜	-12.9982
量光洞照炎池煩七祖諸幽魂身隨香雲	-12.9982
三界侍衛五帝司迎	-12.9982
愷	-12.9982
㕑	-12.9982
對齋九十日或三十日	-12.9982
稜	-12.9982
君畢還北向叩齒三通思	-12.9982
洄	-12.9983
笁	-12.9983
臠	-12.9983
服符又九咽止	-12.9983
風火元明天眞君火伯風霆天眞君	-12.9983
地藏發泄金玉露形	-12.9983
巳酉丑年月日時方位正北第	-12.9983
各九千萬人上清虚洞自然雲飛	-12.9983
地獄乗此陽光得生人道中	-12.9983
外國放品青童内文	-12.9983
楔	-12.9983
請某州縣宫觀道士姓名充	-12.9983
入意同前須至牒者牒請詳備去事理	-12.9983
太上老君說常清靜經	-12.9983
侖	-12.9983
唌	-12.9983
立五色師子之上	-12.9983
畢叩齒九通咽液九過祝曰	-12.9983
茟	-12.9983
塵期靈五通上願成眞滅禍生福上昇三	-12.9983
從官十一人從官各千乘萬騎治在	-12.9984
牃	-12.9984
閎	-12.9985
幔	-12.9985
偁	-12.9985
四部監功謁者	-12.9985
狽	-12.9985
苒	-12.9985
徑上供養太上三師	-12.9985
綬虎頭鞶囊或著	-12.9985
倅	-12.9986
翎	-12.9986
蟒	-12.9986
鋌	-12.9986
將軍兵士各十萬人太玄上元九天上靈	-12.9986
瘁	-12.9986
三捻上香願此香雲騰空	-12.9986
天無浮翳四炁朗清	-12.9986
此之日亦應誦消魔智慧百神呪一遍也	-12.9987
緗	-12.9987
輊	-12.9987
愉	-12.9987
元始祖劫化生諸天開明三景是爲天根	-12.9987
敗學仙之人凡修仙之道當以其日入室	-12.9987
通靈將軍三千萬人虚景眞仙都官候仙	-12.9987
願依凡悃不負天	-12.9988
嗤	-12.9988
三界侍衞五帝司迎	-12.9988
琊	-12.9988
隨呪隨召來降	-12.9988
急奉北帝敕四聖令	-12.9988
数	-12.9989
上台一黄驅却不祥中台二白	-12.9989
阿陀龍羅	-12.9989
屩	-12.9989
廻便心念微言	-12.9989
氓	-12.9989
九千萬騎清虚上眞靈仙玉官	-12.999
頋	-12.999
思之還長九寸九分夏三月	-12.999
各九千萬衆虚玄上清翠羽上真	-12.9991
塹	-12.9991
思之還長五寸五分春三月	-12.9991
雌右武鸞	-12.9991
二色之光領官屬	-12.9991
生人本命所屬北斗大聖	-12.9991
降形於兆身修行自致感應仙道自成也	-12.9992
如鷄抱卵	-12.9992
儀早朝行道儀	-12.9992
矚	-12.9992
玄靈北斗本命延生	-12.9992
餳	-12.9993
嘲	-12.9993
荏	-12.9994
偓	-12.9994
蓑	-12.9994
簡曰九天元始玉清	-12.9994
霹靂破石泉源通	-12.9994
今身所行與先不異	-12.9995
䨩	-12.9995
丸如桐子大	-12.9995
嘹	-12.9996
長夜之府九幽玉匱明眞科	-12.9996
疹	-12.9996
喊	-12.9997
第一品銘音曰	-12.9997
月長齋誦詠是經	-12.9997
嵌	-12.9998
刈	-12.9999
懀	-12.9999
水九升煑取三升	-12.9999
尊神億萬衆來扶我身	-12.9999
鈆	-13
藂	-13
鎰	-13
襁	-13.0001
徉	-13.0002
諤	-13.0002
犮	-13.0002
襈	-13.0003
九千萬乗紫玄中清三元上虚太丹	-13.0004
舫	-13.0004
上清玄都大洞三景弟子	-13.0006
呵羅提之國	-13.0006
煑取一升去滓頓服	-13.0008
噦	-13.0011
啘	-13.0012
箍	-13.0012
紫晨玉童九千萬重虚玄上清翠羽上眞	-13.0012
月某日先颺寳旛上聞齋意	-13.0017
𧟌	-13.0017
字號計十卷靈寳無量度人上品妙經	-13.0022
丹霞赫衝吞魔食鬼横身飲風蒼舌緑齒	-13.0702
科車赤符吏罡風騎置吏驛馬上章吏	-13.0739
未敢自專謹具箋狀端拜上啓	-13.0854
掌籍考校官屬道德應感一切眞靈臣聞	-13.1093
元始三炁太上道君太上老君	-13.1423
細㣲之内思之還	-13.1475
明晨耐犯武城天宫	-13.1517
關奏預取今月某日先颺寳	-13.1559
吏各三人南方收	-13.1572
㔌	-13.1581
萬劫受苦不捨晝夜又見	-13.1582
魔之所試也當	-13.1585
謹牒某年月日時牒具位姓某押	-13.1591
官並臨醮席再拜謹奉請	-13.1592
玅	-13.1593
𠳿	-13.1598
丫	-13.1605
獼	-13.1605
𠷯	-13.1605
宫煞鬼摧魔除兇剪崇大神	-13.1606
羇	-13.1612
靈寳大法司當司今據入意同前	-13.1612
巳上十神官將各百二十人兵士十萬人	-13.1612
焜	-13.1612
星中靈官神仙兵馬九萬人	-13.1612
扶桑大帝暘谷神君洞淵龍王	-13.1615
唔	-13.1617
蜩	-13.1618
𢦙	-13.1618
従	-13.1618
汶	-13.1618
希恩照應修奉外未敢自專謹具	-13.1618
下情不勝惶懼之至謹具章奏以聞謹	-13.1619
從官十五人從官各千乘萬騎治在	-13.1619
昊天北極天皇后土	-13.162
道化眞君中元護正眞君下元定志眞君	-13.162
顇	-13.162
仙考官二十四萬人主之	-13.162
靳	-13.162
制群靈斬天魔伏五兵	-13.162
鷯	-13.1621
素語内呪第	-13.1621
塋	-13.1621
交付追攝將吏管領赴壇承功	-13.1621
伏候法㫖年月日	-13.1621
巳具奏天廷請㫖頒下	-13.1621
神霄太平輔化弟子	-13.1622
聖威某下情無任惶懼之至謹	-13.1622
㖅	-13.1622
郡閣雅談	-13.1622
泰靈火都玉陽	-13.1622
兹苦伏冀真君不違誓願大展威靈驅此	-13.1622
冥慧洞清大量玄玄	-13.1622
空寂天清地靜永絶憑陵	-13.1622
頭人身白衣持弩	-13.1622
㝢	-13.1623
萬神奉行違者斬尸急急如律令	-13.1623
𢇁	-13.1623
麩	-13.1623
衆等今故燒香歸身歸神	-13.1623
跡報應以伺建齋上承恩霈受化更生	-13.1623
神烈苟畢二雷君	-13.1624
至眞无極大道三清上聖昊天玉皇上帝	-13.1624
某州郡縣郷里男女生姓名年歳	-13.1625
奉迎聖君於上清宫	-13.1625
感爽無凝滯	-13.1625
瑩炅容臺	-13.1625
素靈洞元大有妙經	-13.1625
霆三司五雷官君天雷嶽酆諸司掾吏及	-13.1625
幽魂劫亡苦爽滯魄精靈	-13.1625
俟恩之至謹奏年月日具位臣姓某狀奏	-13.1625
日發遣赴壇承恩開度冒犯天威	-13.1625
歧	-13.1626
天帝髙虚清明天帝無想無結無愛天帝	-13.1626
鬱單無量天帝上上禪善無量	-13.1626
真之德得道之後永天長存和與道合真	-13.1626
萬劫得還更生非人之道	-13.1626
姓某昨據入意同前除再具奏	-13.1626
年月日吉時告下具法位	-13.1626
於今夜亥子時中	-13.1626
領詞難抑看詳弟子某投誠	-13.1626
萬劫深愆疾除罪簿伺臣續行符檄	-13.1626
案主者天神靈官掌天下	-13.1627
壍	-13.1627
晰	-13.1627
超度宗先消除罪業紀名丹籍注職仙班	-13.1627
旙上聞齋意仰祈恩霈開泰幽冥除巳	-13.1627
書九天玉文埋所住嶽	-13.1627
食而失所天又將何以輸國賦而立人極	-13.1627
亢旱日久民困力疲低者車救	-13.1627
昊天金闕九宸玉陛	-13.1627
風伯方道彰雨師陳	-13.1628
犯罪律所不載者原情定罪	-13.1628
帬太上神仙洞天元洞	-13.1628
下副弟子向道之誠	-13.1628
天符命攝龍驛傳普天安鎮我得飛仙	-13.1628
甲子王文卿從官十八人	-13.1628
頭人身青衣持鍈	-13.1628
飰	-13.1628
不避威嚴上塵聰聽退思罪戾難逭斧誅	-13.1628
燥羅溽罡將金孛陽刃炁潦	-13.1628
纸	-13.1628
詬	-13.1628
𩳀	-13.1629
吚	-13.1629
圑	-13.1629
巨獸手把帝鐘素梟三神嚴駕夔龍威	-13.1629
茯	-13.163
踴	-13.163
田宅人口頭疋	-13.163
叻	-13.163
玉清元始法師黄籙院使眞君	-13.163
夥	-13.163
閘	-13.163
中有度世司馬大神中有好生韓君丈人	-13.163
雷局打去又用	-13.163
上真各三千二百人上部三十二天洞天	-13.163
無極飛天神王長生大聖無量度人君西	-13.163
疚	-13.1631
仰雷霆飛捷催督大使暘谷神君張亞	-13.1631
儀格進品仙階尚賴霜簡	-13.1631
各七千萬衆紫皇玉京虚无自然九色	-13.1631
道門科範大全集	-13.1631
三捻上香願此香烟騰空	-13.1631
掉	-13.1631
㨂	-13.1631
法界孤幽滯爽	-13.1631
十日一旬凶神姓	-13.1631
奉爲齋官某家修齋行道仰謝	-13.1631
妣	-13.1631
芝玉童各三千萬人紫天靈眞皇帝金丹	-13.1631
玉堂大教主黄籙院副使眞君	-13.1631
言功天闕乞按太眞	-13.1631
刑金門下詔功疑惟重端祈遷擢於官	-13.1632
國册祀典諸廟山川公忠正直英烈神祇	-13.1632
無想無結無愛天	-13.1632
一司命桃康合延執符把籙保命生根上	-13.1632
墯	-13.1632
風火無停千千截首萬萬翦形魔無	-13.1632
駕來臨齋事周圓還當奉送獻茶	-13.1632
方无極諸天福堂之内	-13.1632
裙玄履執簡坐	-13.1632
鴿	-13.1632
攘姦宄之餘恊安靖和平之祉	-13.1632
恭望大道天慈允	-13.1632
福庭土地眞官法壇諸司官將	-13.1632
聒	-13.1633
激切之至謹狀年月日具位姓某狀申	-13.1633
駮	-13.1633
周行六合威攝萬靈	-13.1633
本命玄曹太歲煞局	-13.1633
舐	-13.1633
專仗神威速爲傳達	-13.1633
乕	-13.1633
件如前事須牒上	-13.1633
恭準元降道㫖玉符所至萬神奉行今據	-13.1633
刀利禪猷婆泥咎通	-13.1633
郄	-13.1633
寳洞飛霄絶玄金章紫鳳赤書八景晨圖	-13.1633
炤	-13.1634
簣	-13.1634
華照光景身與日月同念道上聖前萬劫	-13.1634
速逹徑御至真無極大道昊天玉皇上帝	-13.1634
三十六部尊經玄中大法師圓穹上象火	-13.1634
收萬神降格扇景乗飈	-13.1634
肅清厭穢迎接雷神	-13.1634
帝釋章佩帶天罡五方兇	-13.1635
便讀玉經經畢又祝曰	-13.1635
廣顯清微之化用符祈禱之誠	-13.1635
紬	-13.1635
昭顯清微之化用弘好生之恩	-13.1635
二捻上香願此香煙騰空	-13.1635
三洞經籙弟子仲勵編安宅解犯儀	-13.1635
鬼宫悉是我營我之所部何鬼敢生	-13.1635
有犯玄都上品中品第一篇之罪	-13.1635
水澤盈泛漂浸五穀	-13.1635
殛	-13.1635
迃	-13.1635
付省府宣告九霄諸天臺館府閣	-13.1636
城隍里社合屬攸司咸令照應	-13.1636
渥下副禱祈干冒威嚴下情不勝激切	-13.1636
煬	-13.1636
謢	-13.1636
合契虚皇開明靈童號曰華房總	-13.1636
䛕	-13.1636
舶	-13.1636
太乙詔命應天玉符	-13.1636
將金孛陽刃炁潦丙燥羅溽	-13.1636
億曽萬祖幽䰟苦爽皆即受度上升朱宫	-13.1636
妙洞眞香靈寳慧香超三界香三境眞香	-13.1636
俯念宗枝垂憐末學	-13.1636
東華木公上相青童道君	-13.1637
惛	-13.1637
薺	-13.1637
髫	-13.1637
𧇖	-13.1637
瑜	-13.1637
胞命元元一黄演之炁	-13.1637
斁	-13.1637
洶	-13.1637
孛陽刃炁潦丙燥羅溽罡將	-13.1637
贓	-13.1637
守待恩命頒下施行凡歷雲程嚴加防護	-13.1637
賜敕㫖付太極諸部雷霆	-13.1637
上朝金闕下覆崑崙調理綱紀	-13.1638
微黒靈尊神號曰層	-13.1638
命元五仙中靈之炁	-13.1638
淤	-13.1638
蝢	-13.1638
十洞五嶽九江水帝八海龍王三河四	-13.1638
眞校録三元蕩清左嘯中黄右	-13.1638
蚋	-13.1638
秧	-13.1638
紫微碧玉宫太一大天帝六天洞淵大帝	-13.1638
以札記著玉格之上通我身	-13.1638
以風刀不出三年自然失	-13.1639
幟	-13.1639
僥	-13.1639
咮	-13.1639
摹	-13.1639
甃	-13.1639
臛	-13.1639
亂髮如鷄子大	-13.1639
榦	-13.1639
奏以聞謹奏年月日具位	-13.1639
扛	-13.1639
揵	-13.1639
泰智冲和彭眞人	-13.1639
玉臺之下便投玉札一枚奏	-13.1639
無上至眞道寳臣等	-13.1639
淆	-13.1639
道德高尊至眞神寳	-13.1639
北海湧波津	-13.164
元始符命時刻昇遷北都寒池部衞	-13.164
窿	-13.164
第一壘色潤地	-13.164
鼓以雷霆潤以風雨去其螣蠈及以螟蟊	-13.164
廐	-13.1641
形鬼妖滅種我得長生急急如	-13.1641
篠	-13.1641
酹	-13.1641
𠯲	-13.1641
東華南極西靈北眞仙都玉京	-13.1641
爲瀉吸爲補	-13.1642
咥	-13.1642
微微開幽關華池流眞香蓮蓋隨雲浮	-13.1642
洞眞太上八道命籍經	-13.1642
不任惶懼之至謹狀年月日具髙功全銜	-13.1642
日謹齎法信叩頭恭詣龍虎山嗣漢天師	-13.1642
莢	-13.1642
蜺	-13.1642
聖慈允今申懇	-13.1642
上帝玉帝大帝東華南極西靈	-13.1642
北極循璇霹靂灌斗暘谷張神君	-13.1642
眞各三千二百人下部三十二天洞靈	-13.1642
髙上玉皇本行集經	-13.1642
璇璣召魔品經	-13.1643
嗣孫四十三代天師宇初編次	-13.1643
沗	-13.1643
眞上經九靈太妙龜山玄籙	-13.1643
超離苦趣上朝帝	-13.1643
謹當宣奏宣詞諦詳詞語	-13.1643
恬照罪氣天宫	-13.1643
出者嚴装顯服冠帶垂纓關啓玄壇	-13.1643
妳	-13.1643
玃無自育九日導乾坤母東覆形攝上玄	-13.1643
而降祝曰吾奉玉清眞王勑召	-13.1643
俟命之至謹狀年月日具位姓	-13.1643
試萬魔束形九微迴道八威攝精千	-13.1643
㔹	-13.1643
豢	-13.1643
㖤	-13.1643
成仙千劫萬劫難一遇爲衆廣說業因縁	-13.1643
白玉龜臺九靈太眞金毋元君	-13.1643
不疾而速不行而至	-13.1643
以我簡録付監眞使者定録左仙上	-13.1643
波羅尼宻不驕樂天	-13.1643
若學道男女官不得	-13.1643
戒威神五帝直符六宫掾吏	-13.1644
一呼三寸一吸三寸	-13.1644
惔	-13.1644
殤	-13.1644
上合之時沐浴清齋	-13.1644
之簡思見二眞爲我記名於	-13.1644
聖几下簡録定名五老仙伯領仙玉郎化	-13.1644
隼	-13.1644
東方轟天震門雷帝	-13.1645
癃	-13.1645
𤤽	-13.1645
囉㗶囉娑婆薩訶	-13.1645
天圓地方六律九章	-13.1645
玕	-13.1646
牒至幸疾速依應施行謹牒	-13.1646
痘	-13.1646
癱	-13.1646
九開自辯阿那品首	-13.1646
天靈節榮願保長生太玄之	-13.1646
凳	-13.1646
尼維羅緑那之國	-13.1646
祖師金闕上保清眞紫虛元君魏	-13.1646
詆	-13.1646
輾	-13.1646
道香德香無爲香	-13.1646
上清玉霞紫暎内觀	-13.1646
帬太上神仙洞淵洞玄	-13.1646
邠	-13.1646
隂罪陽過上及七祖宿	-13.1646
㨗	-13.1647
六陰洞微仙卿盧	-13.1647
九天眞靈三百六十五部玄録	-13.1647
扳	-13.1647
每月祭鍊之日預行根刷法界諸類男女	-13.1647
祖宗父母師資眷屬悉與疾除罪	-13.1647
宫玉女一部同服	-13.1647
收閉蒸鬱無奈著處盡力	-13.1647
萬里邵陽將軍符到奉行不得留停	-13.1647
㦲	-13.1648
𨯂	-13.1648
駞	-13.1648
殍	-13.1648
五帝九府四司斗中道德諸君無鞅聖衆	-13.1648
入人身形或寒或熱	-13.1648
畦	-13.1649
縹	-13.1649
唆	-13.1649
關盟三界普告十方	-13.1649
旬直符流火白虎甲	-13.1649
相有无量光名无量義若有衆生能	-13.1649
𥜗	-13.1649
奉爲亡者上資徃生天界誦	-13.1649
枲	-13.1649
體不寧九醜之鬼知汝姓名	-13.1649
葛仙翁肘後備急方	-13.165
上之災當逃身	-13.165
玉都明魔上門	-13.165
菑	-13.165
崔元亮海上方	-13.165
部功曹聖寳眞人各十萬人上	-13.165
將軍一人君吏九十億萬人上元	-13.165
望洪慈洞回昭鑒	-13.165
甯君告黄帝曰吾昔承	-13.1651
右目上臉旦瞤	-13.1651
吮	-13.1651
香煙之女上白皇君小兆眞人某清齋絶	-13.1651
龍毒獸備守玉關巨士三千人皆備交金	-13.1651
列玄紀上篇曰	-13.1651
獠	-13.1651
齎儀信詣三洞法師某君門下請受太上	-13.1651
搓	-13.1651
臚	-13.1651
魎	-13.1651
闐	-13.1651
灧	-13.1651
請滅三惡斬絶地根飛度五戸名列太玄	-13.1651
眚	-13.1651
吅	-13.1651
如斯造罪是謂	-13.1651
瘑	-13.1651
還北向長跪讀簡呪如後法訖埋簡	-13.1651
諸天隱韻天中之音天中之尊	-13.1652
高元宸照法王紫虚元君	-13.1652
楪	-13.1652
圯	-13.1652
如作此星者名曰	-13.1652
玉清紫道虚皇上君	-13.1652
眞君靈符稽首南辰第	-13.1652
仙要語纂集	-13.1652
[...]
