<unk>	0
<s>	0
</s>	0
。	-1.6669
,	-4.19909
者	-5.22929
佛	-5.41059
也	-5.74106
菩薩	-5.76594
、	-5.82738
不	-5.84416
故	-5.85878
之	-5.96549
若	-6.02414
為	-6.07344
有	-6.08864
善男子	-6.09365
無	-6.11504
如來	-6.12346
心	-6.15791
世尊	-6.17684
中	-6.18593
法	-6.18799
南無	-6.26396
言	-6.30321
以	-6.32518
我	-6.34742
如	-6.36922
人	-6.37115
是	-6.39194
相	-6.40844
眾生	-6.45146
身	-6.47036
▁	-6.49563
一	-6.51307
如是	-6.53128
時	-6.53407
於	-6.55186
曰	-6.5713
行	-6.57459
即	-6.58351
從	-6.60961
得	-6.64422
或	-6.6467
一切	-6.65549
;	-6.66823
說	-6.67613
及	-6.70182
而	-6.70849
大	-6.71683
何以故	-6.72036
名	-6.72125
爾時	-6.72915
其	-6.73589
生	-6.73786
等	-6.76944
見	-6.7931
白佛言	-6.80401
!	-6.81881
亦	-6.82094
自	-6.82505
無量	-6.83825
復	-6.84152
上	-6.87245
作	-6.87963
。「	-6.88074
佛言	-6.88607
二	-6.89035
下	-6.91063
若有	-6.91442
道	-6.92681
已	-6.94194
三	-6.98726
善	-6.99584
皆	-7.00239
非	-7.01124
所	-7.0115
四	-7.01293
經	-7.01391
當	-7.0248
能	-7.02705
(	-7.0418
:「	-7.0429
出	-7.05943
一切眾生	-7.05988
)	-7.06554
令	-7.07136
此	-7.074
王佛	-7.08116
來	-7.10724
常	-7.11226
入	-7.11334
王	-7.12137
水	-7.12969
天	-7.13949
食	-7.14744
苦	-7.16716
故言	-7.16833
盡	-7.16924
欲	-7.17445
名為	-7.17471
處	-7.1769
無有	-7.1791
願	-7.2026
眾	-7.22216
□	-7.23236
義	-7.25409
在	-7.25851
」	-7.25922
五	-7.26669
汝	-7.26757
空	-7.26933
意	-7.27135
多	-7.27317
與	-7.27404
語	-7.28
難	-7.28263
受	-7.29558
地	-7.30304
樂	-7.30702
為人	-7.30727
死	-7.3124
色	-7.31354
惡	-7.3259
起	-7.33405
取	-7.33543
供養	-7.33553
子	-7.34422
則	-7.35144
諸	-7.36375
諸佛	-7.36603
。」	-7.39404
今	-7.39494
知	-7.39835
解脫	-7.40008
功德	-7.40496
明	-7.41335
問	-7.41602
煩惱	-7.41967
念	-7.42648
生死	-7.45339
又	-7.46341
云何	-7.4677
識	-7.47162
門	-7.49162
用	-7.5005
鬼	-7.50203
世間	-7.50243
眼	-7.50565
長	-7.51026
六	-7.51042
至	-7.52374
罪	-7.54198
是故	-7.54342
好	-7.54531
外	-7.54557
淨	-7.54597
由	-7.54824
力	-7.5522
?	-7.56237
事	-7.56915
成	-7.57023
劫	-7.5811
因	-7.58376
後	-7.58399
彼	-7.58454
地獄	-7.58626
譬如	-7.58798
應	-7.58954
定	-7.59272
此經	-7.60313
病	-7.61042
著	-7.61077
正	-7.61118
.	-7.61405
中來	-7.62005
聞	-7.62664
大乘	-7.6291
N	-7.63127
o	-7.63129
乃至	-7.63247
佛告	-7.6393
清淨	-7.6401
滅	-7.64775
但	-7.64795
光佛	-7.64951
是人	-7.65014
亦復如是	-7.65249
前	-7.65931
觀	-7.66392
修	-7.66446
智	-7.67111
然	-7.67814
可	-7.6867
實	-7.69133
國	-7.6935
方	-7.6938
乃	-7.69553
真	-7.6977
施	-7.70839
緣	-7.70879
本	-7.71088
神	-7.7137
七	-7.71407
師	-7.71632
第二	-7.72015
內	-7.72626
住	-7.72655
二者	-7.73176
山	-7.73523
不得	-7.74477
口	-7.74563
何	-7.74768
雖	-7.7488
求	-7.74909
去	-7.7512
持	-7.75756
隨	-7.76102
教	-7.76784
轉	-7.76825
日	-7.76893
除	-7.77624
命	-7.78013
智慧	-7.78296
現	-7.78521
安	-7.78538
便	-7.78967
少	-7.79002
理	-7.79022
是名	-7.79199
自在	-7.7965
捨	-7.8112
福	-7.82345
報	-7.83228
種	-7.83611
三寶	-7.84678
種種	-7.84732
既	-7.85251
重	-7.85276
懺悔	-7.85766
光明	-7.86004
依	-7.86252
父母	-7.87109
果	-7.87323
形	-7.87786
不能	-7.8855
解	-7.88823
名之為	-7.88958
頭	-7.89077
異	-7.89811
因緣	-7.90398
深	-7.90788
火	-7.91036
德	-7.91044
具	-7.91144
俱	-7.91953
初	-7.92087
莫	-7.92292
小	-7.92938
覺	-7.93004
過	-7.93259
一者	-7.93296
先	-7.93384
離	-7.9401
未	-7.94033
使	-7.94298
母	-7.94374
白	-7.94383
還	-7.94448
同	-7.94712
受持	-7.94952
一心	-7.94982
聲	-7.95029
破	-7.9514
自然	-7.96529
各	-7.96845
不可思議	-7.9718
耳	-7.97937
寶	-7.98301
菩提	-7.98393
物	-7.98447
唯	-7.98461
年	-7.98744
悉	-7.98836
歡喜	-7.99119
僧	-7.99362
八	-7.9937
通	-7.9992
遍	-7.99946
利	-7.99985
第三	-8.00127
爾時世尊	-8.00131
城	-8.00175
分	-8.00537
根	-8.00569
數	-8.01423
即是	-8.02689
之時	-8.02997
勝	-8.02999
斷	-8.03291
愛	-8.03664
萬里	-8.03669
沙門	-8.03836
香	-8.03867
涅槃	-8.04046
吾	-8.04731
想	-8.04895
廣	-8.05083
華	-8.05157
合	-8.05262
造	-8.05618
尊	-8.0637
性	-8.06876
所以	-8.07305
土	-8.07397
體	-8.07477
信	-8.07502
將	-8.0763
布施	-8.0814
不見	-8.0829
極	-8.09911
分別	-8.10175
動	-8.10735
妙	-8.10776
度	-8.10864
置	-8.10888
精進	-8.11322
並	-8.11347
虛空	-8.11393
邪	-8.11558
共	-8.1169
百	-8.11811
眷屬	-8.11933
家	-8.12745
十	-8.13443
具足	-8.13779
汝等	-8.1411
說法	-8.1441
足	-8.14617
□□□	-8.14861
開	-8.15206
皆悉	-8.15376
乘	-8.15886
文	-8.15948
名字	-8.16204
重罪	-8.16256
謂	-8.16341
名曰	-8.16623
佛告阿難	-8.16831
目	-8.16849
及以	-8.17052
悉皆	-8.17237
化	-8.17296
亦無	-8.17972
是經	-8.18281
歲	-8.18318
沒	-8.18658
普	-8.18963
證	-8.18978
餘	-8.19046
照	-8.19279
恒	-8.19307
興	-8.19618
以為	-8.19627
女	-8.19956
弟子	-8.19982
法身	-8.19989
復次	-8.20437
風	-8.20775
我今	-8.20786
男女	-8.2092
達	-8.20959
遠	-8.21575
肉	-8.21583
結	-8.22227
音	-8.2305
猶如	-8.23127
遂	-8.23314
他	-8.23473
比丘	-8.2359
會	-8.24151
金	-8.24285
萬	-8.24575
立	-8.24946
□□	-8.24967
向	-8.25044
莊嚴	-8.25433
貪	-8.25481
平等	-8.2571
善哉善哉	-8.26083
十方	-8.26085
復次善男子	-8.26135
光	-8.2622
和	-8.26307
方便	-8.26695
失	-8.26827
示	-8.26946
不識	-8.27007
金剛	-8.27175
亦不	-8.27227
世	-8.2744
唯有	-8.27511
月	-8.2755
慧	-8.27748
別	-8.27836
更	-8.29699
執	-8.29894
發	-8.30026
喻	-8.30091
像	-8.30149
業	-8.30494
之法	-8.31087
治	-8.31553
凡夫	-8.31675
云	-8.31864
學	-8.32129
往	-8.32325
稱	-8.3234
佛性	-8.32654
氣	-8.327
若不	-8.32704
善知識者	-8.32727
悟	-8.33169
坐	-8.33183
修行	-8.33389
戒	-8.33534
是非	-8.33813
馬	-8.33839
益	-8.34153
魔	-8.3417
七寶	-8.34957
爾	-8.35448
復有	-8.35524
持戒	-8.35802
□□□□□□□□□□□□□□□	-8.35891
手	-8.35966
不可	-8.36036
一時	-8.36053
護	-8.36077
三者	-8.36153
害	-8.36204
喜	-8.36375
久	-8.36525
即飽	-8.36632
故曰	-8.36746
今身	-8.36761
到	-8.36953
歸	-8.37013
賢	-8.37162
呪	-8.3729
善惡	-8.37954
四者	-8.38063
散	-8.38153
面	-8.38275
鳥	-8.38447
天地	-8.38468
我等	-8.38548
藏	-8.38567
說之	-8.38732
壽	-8.39344
未來世中	-8.3937
誦	-8.39409
高	-8.39508
□□□□	-8.39534
藥	-8.39765
九	-8.39804
日月	-8.40034
順	-8.40055
無礙	-8.40179
王菩薩	-8.40681
□□□□□□□	-8.40755
千	-8.408
己	-8.4082
慈心	-8.4088
攝	-8.41182
聲聞	-8.41728
呪魅人	-8.42202
止	-8.42231
聽	-8.42417
服	-8.42451
諸天	-8.42923
禮拜	-8.42963
亦名	-8.4305
賊	-8.43101
竟	-8.43629
阿難	-8.43713
或復	-8.43831
初明	-8.44016
海	-8.44073
近	-8.44473
忍	-8.44503
無明	-8.44578
流	-8.44602
虛	-8.44751
聖	-8.44915
南無寶	-8.44995
所有	-8.4536
障	-8.45372
寂	-8.4553
字	-8.45675
善男子善女人	-8.45679
三界	-8.45899
下明	-8.46362
衣	-8.46477
顛倒	-8.46513
終	-8.46646
須	-8.46754
不生	-8.46846
慈悲	-8.46954
餓鬼	-8.47172
不知	-8.47252
犯	-8.47549
鐵	-8.47755
耶	-8.47987
頭破作七分	-8.48013
第四	-8.48022
夫	-8.48118
死墮	-8.48134
虛空藏菩薩白佛言	-8.4822
如阿梨樹枝	-8.48311
是事	-8.4846
師子	-8.48576
大眾	-8.49024
不應	-8.49227
境	-8.4927
身心	-8.49359
之人	-8.49614
不同	-8.49699
蓮華	-8.49868
黃	-8.49884
情	-8.49927
凡	-8.49969
息	-8.50071
而白佛言	-8.50163
味	-8.50436
十八	-8.5052
花	-8.50639
請	-8.50823
龍	-8.51628
官	-8.51682
告	-8.51715
居	-8.5197
汝今	-8.51987
酒	-8.51993
讀誦	-8.52058
善友	-8.52212
如是受持	-8.52258
菩薩摩訶薩	-8.52308
燈	-8.526
究竟	-8.52747
次	-8.52911
被	-8.53049
出世	-8.53099
聚	-8.53779
若有眾生	-8.53877
路	-8.53997
惑	-8.5405
違	-8.54057
唯願世尊	-8.54434
無常	-8.54453
那	-8.54456
畜生	-8.54511
成就	-8.54586
窮	-8.54765
第一	-8.54887
受苦	-8.55259
恭敬	-8.55262
并	-8.55493
怨	-8.56002
世界	-8.56151
必	-8.56208
答	-8.56377
呼	-8.5639
旬	-8.56434
正法	-8.56559
顯	-8.56714
患	-8.56758
妄	-8.56849
獲	-8.57066
衰	-8.5742
里	-8.57593
論	-8.57623
五逆	-8.57741
如此	-8.57944
陰	-8.58123
速	-8.58427
慧法	-8.58461
舌	-8.58651
要	-8.58963
毀	-8.59357
亂	-8.59422
墮	-8.59515
厭	-8.59543
之中	-8.59694
無邊	-8.59873
禪定	-8.59962
殺	-8.60046
舉	-8.60297
血	-8.60405
天王	-8.60768
對	-8.60853
座	-8.60873
斯	-8.61032
收	-8.61148
善哉	-8.61229
諸法	-8.61231
恩	-8.61245
思	-8.6137
或作	-8.61425
父	-8.61429
大仙	-8.61527
其人	-8.61568
佛法	-8.61693
守	-8.61705
改	-8.61714
夜	-8.61771
境界	-8.61793
闇	-8.62364
集	-8.62388
不令	-8.62495
樹	-8.62592
塵	-8.62657
地獄中	-8.62851
絕	-8.62877
始	-8.63003
悔	-8.63011
邊	-8.63273
親	-8.63283
亡	-8.63678
虫	-8.63737
行者	-8.63806
惠	-8.6419
故得	-8.64312
大士	-8.64526
釋	-8.6458
彌勒	-8.65007
一切大眾	-8.65325
放	-8.65334
之所	-8.65435
一卷	-8.65671
習	-8.65761
兩	-8.65938
悲	-8.66145
類	-8.66189
未來	-8.66589
疾	-8.67131
亦爾	-8.67546
北	-8.67628
於彼	-8.6774
唯願	-8.6785
稽首	-8.68159
奉行	-8.6827
滿	-8.68384
不淨	-8.68557
走	-8.68587
災	-8.68754
幢	-8.68926
即便	-8.68935
如是之人	-8.69006
似	-8.69823
却	-8.70153
強	-8.70329
得解脫	-8.70347
草	-8.70503
□□□□□□	-8.70508
大仙答曰	-8.70695
玄	-8.7088
道人	-8.71076
迷	-8.71332
不動	-8.71341
財	-8.71591
摩	-8.71625
以是因緣	-8.71638
然後	-8.71765
五百	-8.72074
五陰	-8.72144
平	-8.72202
受持讀誦	-8.72304
普賢菩薩	-8.72735
釋迦牟尼佛	-8.72785
西	-8.7283
勸	-8.72837
不信	-8.72918
敬	-8.72962
七日	-8.7303
出家	-8.73108
誹謗	-8.73113
亦非	-8.73293
故名	-8.73338
善知識	-8.73432
今當請	-8.73762
當知	-8.73766
最	-8.74046
無所	-8.74057
釋迦	-8.74097
阿羅漢	-8.74227
值	-8.74231
趣	-8.74403
河	-8.74536
南	-8.74607
故知	-8.74666
救	-8.74704
常住	-8.74717
縛	-8.7481
□□□□□	-8.74858
何況	-8.74865
果報	-8.74907
懷	-8.75095
三昧	-8.75207
飲食	-8.753
其義	-8.75753
夢	-8.75842
之處	-8.75865
文字	-8.7589
正念	-8.75978
善法	-8.7598
井	-8.76
期	-8.76112
永	-8.76137
若有善男子善女人	-8.76294
神通	-8.76311
:	-8.76422
奉	-8.76563
?」	-8.76722
又法	-8.76745
頂	-8.77
加	-8.77093
眾僧	-8.77102
光明佛	-8.7717
存	-8.77371
車	-8.77389
則無	-8.77393
而不	-8.77397
活	-8.77422
真實	-8.78142
見食	-8.78239
痛	-8.78812
計	-8.78872
宜	-8.789
善思念之	-8.79028
其身	-8.79288
不住	-8.79396
羅	-8.79647
若人	-8.79839
已下	-8.79939
癡	-8.80255
陀	-8.80863
尼	-8.81089
主	-8.81238
了	-8.81242
引	-8.81377
是以	-8.81452
宮	-8.81453
進	-8.81538
清	-8.81549
危	-8.81589
幻惑	-8.81633
怖畏	-8.81639
妻	-8.8166
半	-8.81747
迦	-8.81772
佛告無礙菩薩摩訶薩	-8.8179
外道	-8.81838
令得	-8.81943
甚	-8.81997
致	-8.82268
輕	-8.82404
於中	-8.82667
何等為	-8.82879
化城	-8.8292
東	-8.83148
十里	-8.83191
此人	-8.83211
燒	-8.83286
寧	-8.83307
一一	-8.83442
萬歲	-8.83524
阿	-8.83708
無異	-8.83747
法界	-8.83757
之事	-8.83804
兒	-8.84247
直	-8.84369
不久	-8.84384
亦如是	-8.84403
若欲	-8.84756
有三	-8.85015
不離	-8.85077
處處	-8.85111
勿	-8.85157
福德	-8.85442
染	-8.8553
佛說	-8.85609
就	-8.85647
文殊師利	-8.85789
過去	-8.85873
皆得	-8.86658
謗	-8.86735
際	-8.86772
望	-8.86842
觸	-8.86984
尋	-8.8703
諦聽諦聽	-8.87072
皆由	-8.87111
臣	-8.87191
譬如有人	-8.87253
髮	-8.87347
貧窮	-8.87477
尚	-8.87567
示現	-8.87693
為說	-8.87737
第五	-8.87827
牛	-8.88147
□□□□□□□□	-8.88154
八萬	-8.88266
多欲	-8.88374
殺生	-8.88407
量	-8.88722
及諸	-8.88804
堅	-8.88816
影	-8.88881
文殊師利菩薩	-8.89092
俗	-8.89119
衣食	-8.89267
徹	-8.89297
至心	-8.89342
各各	-8.89408
爾時阿難	-8.89499
飲	-8.89509
壽命	-8.89564
起入	-8.89571
信受	-8.89627
內外	-8.89629
甚深	-8.90332
遇	-8.90351
壞	-8.90486
國土	-8.90672
亦當	-8.91004
雨	-8.91103
□□□□□□□□□□□□□	-8.91124
思惟	-8.91248
冥	-8.9141
故云	-8.91422
愚	-8.91788
棄	-8.9203
變	-8.9206
新	-8.92429
人民	-8.92513
辨	-8.92622
歸依	-8.92942
假	-8.92989
以不	-8.93029
舍	-8.93097
打	-8.93135
招	-8.93256
遠離	-8.93298
知識	-8.93321
其心	-8.93326
許	-8.93329
殃	-8.93428
財物	-8.93448
疑	-8.93603
我當	-8.9364
木	-8.93727
無礙菩薩摩訶薩	-8.93752
婆羅門	-8.93788
減	-8.93822
乎	-8.93827
十二部經	-8.93829
音聲	-8.94018
前白佛言	-8.94254
蓋	-8.9435
西方	-8.94367
形像	-8.94386
善根	-8.9442
和合	-8.94578
污	-8.94613
濟	-8.94701
琉璃	-8.94792
中有二	-8.94796
或有	-8.94796
敬禮	-8.94846
輪	-8.94979
佛語	-8.95328
無二	-8.9555
墮於地獄	-8.95852
一闡提	-8.9603
瞋恚	-8.96146
狗	-8.96247
皆是	-8.96464
辯	-8.96466
不解	-8.96552
吾今	-8.96777
大聖	-8.97105
作是言	-8.97243
非法	-8.97252
白銀	-8.97517
落	-8.97754
圓滿	-8.97756
諸大菩薩	-8.98057
佛道	-8.98154
貧	-8.98315
器	-8.98357
間	-8.98365
鬼神	-8.98409
首	-8.98456
今日	-8.9856
者少	-8.98624
不起	-8.9866
大海	-8.98816
背	-8.98861
應當	-8.98893
決定	-8.99023
而無	-8.99304
豐	-8.99337
垢	-8.99362
若能	-8.99382
諦	-8.99511
毒	-8.9966
無為	-8.99874
骨	-8.9995
讚歎	-8.99989
繼	-9.00053
告迦葉	-9.00054
恐	-9.00063
驅	-9.00088
生滅	-9.00224
不如有人	-9.00358
步	-9.00434
盜	-9.00438
裏	-9.00446
網	-9.00452
索	-9.00486
備	-9.00497
說偈言	-9.00579
元	-9.00584
盛	-9.00601
<	-9.00832
i	-9.00832
:>	-9.00833
g	-9.00834
m	-9.00834
罪福	-9.00948
猶	-9.00991
亦如	-9.01024
「	-9.01308
女人	-9.0157
拔	-9.01627
熱	-9.01909
之罪	-9.01925
都	-9.02055
終不	-9.02076
為作	-9.02081
離諸	-9.02174
十方諸佛	-9.02191
可得	-9.02372
制	-9.02386
用布施	-9.02611
欲求	-9.02619
尊者	-9.0267
齊	-9.02715
此法	-9.02719
度脫	-9.02843
隱	-9.03144
憂	-9.0329
須彌	-9.03372
者多	-9.03407
法性	-9.03448
其中	-9.03781
亦然	-9.03796
不滅	-9.04037
幡	-9.0409
即得	-9.04146
融	-9.04262
七佛	-9.04422
不聽	-9.04632
是真	-9.0474
愚癡	-9.04893
無心	-9.04995
人身	-9.05028
承	-9.05193
波	-9.05197
恒河沙	-9.05443
諸眾生	-9.05525
□□□□□□□□□□□□□□	-9.05689
禁	-9.05697
諸惡	-9.05712
所說	-9.05733
合掌	-9.06011
鼻	-9.06011
當爾之時	-9.06072
造作	-9.06282
有一	-9.06305
殊	-9.0634
喻如	-9.06438
室	-9.066
與我	-9.06742
了知	-9.06777
任	-9.06921
受持是經	-9.06933
急	-9.07175
衣服	-9.07304
拘	-9.07309
宅	-9.07313
差	-9.07532
他人	-9.07542
指	-9.07587
帝	-9.07614
榮	-9.07619
矣	-9.07653
相佛	-9.07683
之者	-9.0769
□□□□□□□□□	-9.07704
忽然	-9.07705
旨	-9.0772
不覺	-9.07743
放逸	-9.07768
第六	-9.07831
星	-9.07832
敬重	-9.07833
】	-9.07894
歷	-9.07935
苾芻	-9.08032
惡病	-9.08118
入涅槃	-9.08285
福田	-9.08312
積	-9.08445
若復有人	-9.08565
號	-9.08579
總	-9.08666
可知	-9.08736
惡人	-9.08894
是也	-9.08927
授記	-9.08948
心生	-9.08959
屬	-9.09071
說是法	-9.09148
無間	-9.09241
杖	-9.09307
禮	-9.09482
人天	-9.09486
界	-9.09597
光菩薩	-9.09632
君	-9.09723
當來	-9.09874
諸佛如來	-9.09895
陳	-9.09964
遣	-9.10015
宿	-9.10082
五戒	-9.10212
復白佛言	-9.10337
教化	-9.10345
先世	-9.10361
五者	-9.10705
有無	-9.10709
軌	-9.10912
末	-9.1093
石	-9.11014
首羅	-9.11131
守護	-9.11183
句	-9.11321
五欲	-9.11451
捉	-9.11685
咸	-9.11694
三世	-9.1183
誑	-9.12003
覆	-9.12059
方等	-9.12321
是諸	-9.12327
陽	-9.12388
若見	-9.12389
一日一夜	-9.12468
墮地獄	-9.12488
沙	-9.12525
遊	-9.12646
忍辱	-9.12649
寂滅	-9.12777
法藏	-9.12797
菩薩來	-9.12914
聞佛所說	-9.12919
大悲	-9.13394
覩	-9.13605
四大	-9.13615
二種	-9.13634
□□□□□□□□□□□□	-9.13739
實相	-9.13794
飛	-9.13959
志	-9.14118
曾	-9.14226
念佛	-9.14272
未曾	-9.14273
端	-9.14425
歎	-9.14584
因果	-9.14808
功	-9.14826
易	-9.14883
比丘尼	-9.14898
性空	-9.14951
心中	-9.14969
喚	-9.14993
不敢	-9.15045
我慢	-9.15059
周	-9.15077
儀	-9.15078
不從	-9.15094
以印印之	-9.15108
我等今者	-9.15236
位	-9.15243
雙	-9.15262
看	-9.15302
威儀	-9.15303
當知是人	-9.15313
弘	-9.15322
如是等人	-9.1533
調	-9.15341
感	-9.15449
遶	-9.15701
得聞	-9.15791
信心	-9.15863
不名	-9.15909
不能自	-9.15979
放大光明	-9.16207
惱	-9.16326
隨喜	-9.16501
迦葉	-9.16525
休息	-9.16572
若在	-9.16876
不可得	-9.1689
利益	-9.17036
何者為	-9.17332
微	-9.17366
圓	-9.1741
十惡	-9.1756
法門	-9.17701
見佛性	-9.1774
苦行	-9.17762
普光	-9.17874
天下	-9.18003
復有四	-9.18119
老	-9.18152
損	-9.18185
最勝	-9.18233
法王	-9.18244
作佛	-9.18349
三十三天	-9.18403
度者	-9.18565
四方	-9.18801
十二	-9.18893
東方	-9.18943
月光	-9.18967
逆	-9.191
一切法	-9.19183
宗	-9.19342
坐禪	-9.1961
晝夜	-9.19612
多有	-9.19629
聲聞緣覺	-9.19923
獨	-9.19947
惡業	-9.20074
得道	-9.20176
共相	-9.20233
忽	-9.20284
群生	-9.20342
在世	-9.20487
賤	-9.20703
成熟	-9.20976
反	-9.20982
八萬四千	-9.21006
若無	-9.21041
雲	-9.21161
樓	-9.21164
者從	-9.21228
三乘	-9.21252
□□□□□□□□□□	-9.21314
二同號	-9.2134
百億	-9.21367
無量無邊	-9.21461
況	-9.21583
靜	-9.21712
甲	-9.21749
而生	-9.21826
婆	-9.21942
虛妄	-9.22112
有二	-9.22131
倍	-9.22145
炎	-9.22275
讚	-9.22282
良	-9.22509
登	-9.22542
爾時除疑大士	-9.22595
為說之	-9.22645
上下	-9.22695
阿鼻地獄	-9.22782
嚴	-9.22837
導	-9.22891
師子吼	-9.22968
寶明	-9.23165
男	-9.23197
消滅	-9.2339
魚	-9.23426
誰	-9.23433
仰	-9.23471
乾	-9.23498
月光童子	-9.23501
迴	-9.23517
眾中	-9.2354
張	-9.23552
浮	-9.23556
人間	-9.23575
美	-9.23596
禪小增得生其中	-9.23624
優婆塞	-9.23643
公	-9.23654
禍	-9.23662
塞	-9.23687
舍利弗	-9.23715
得法眼淨	-9.23729
村	-9.23754
爾時普賢菩薩	-9.23795
莫如常意	-9.23801
千佛	-9.23885
救護	-9.23891
非有非無	-9.23929
一乘	-9.2393
金華	-9.24092
長者	-9.24197
化生	-9.24208
無生	-9.24233
今當	-9.243
善知識者是汝	-9.24308
五道	-9.2436
六度	-9.24377
遭	-9.24532
視	-9.2458
中間	-9.24605
歸依真善知識	-9.24618
一佛性	-9.24712
如是等	-9.25048
盲	-9.25056
憶念	-9.25058
於是	-9.25064
惡心	-9.25079
威神之力	-9.25151
破戒	-9.25181
是故今敬禮	-9.25188
書寫	-9.25356
訖	-9.25409
微妙	-9.25467
林	-9.25509
眾聖	-9.25545
邪見	-9.25611
三世諸佛	-9.25631
眾魔	-9.25632
澤	-9.2568
廣大	-9.25819
露	-9.25912
佛身	-9.2598
北方	-9.26063
一切諸	-9.2612
令諸眾生	-9.2623
國王	-9.26275
往生阿彌陀	-9.26369
隨意	-9.26594
得見彌勒	-9.26982
珍寶	-9.26989
并及	-9.27091
無始已來	-9.27206
塔	-9.27265
律	-9.27315
啟	-9.27351
逢	-9.27365
南無慧	-9.27584
云何名為	-9.27643
畢竟	-9.27649
三十日	-9.27758
不如	-9.27954
雜	-9.27965
所作	-9.2803
諸佛菩薩	-9.28122
相違	-9.28272
献佛	-9.28332
所見	-9.28371
生信	-9.28627
捨身	-9.2867
亦得	-9.2871
無上	-9.28722
得罪	-9.2904
得度	-9.29106
於此	-9.2912
銅	-9.29134
諍	-9.29607
亦為	-9.29643
左	-9.29675
百千	-9.29948
瞋	-9.30067
腹	-9.3007
羅剎	-9.30071
乳	-9.30217
而得	-9.30287
不為	-9.30299
行道	-9.30321
使人	-9.30374
此事	-9.30552
言教	-9.3067
池	-9.30706
諸行	-9.30726
消	-9.30759
刀	-9.30761
諸善男子	-9.30869
增	-9.30968
大慈	-9.31013
或時	-9.31198
修善	-9.31332
快樂	-9.31423
於其	-9.32013
圍繞	-9.32039
熟	-9.32135
橫	-9.3228
運	-9.32343
缺	-9.3242
哀	-9.32436
鉢	-9.32447
無上菩提	-9.32454
穢惡	-9.32658
得見	-9.32661
青	-9.32664
阿難白佛言	-9.32686
力士	-9.32698
益算	-9.32757
食噉	-9.3276
六根	-9.3276
死入地獄	-9.32778
護持	-9.32782
尺	-9.32785
乖	-9.32789
吞	-9.32818
此是	-9.32892
涌	-9.32904
請問	-9.32913
猶如虛空	-9.32961
有緣	-9.32973
今世	-9.33077
辟支佛	-9.33198
狼	-9.33258
不飢	-9.33312
男子	-9.3347
一處	-9.33475
記	-9.335
空寂	-9.33561
去地	-9.33587
應以	-9.33629
振	-9.33643
發願	-9.33646
而死	-9.33748
得正解脫	-9.33954
漸漸	-9.34027
之身	-9.34032
變化	-9.34037
病死	-9.34154
三十	-9.3427
不問	-9.34317
太子	-9.3453
牽	-9.34624
所求	-9.34641
本無	-9.34952
如車	-9.34961
毛	-9.34981
詣	-9.34984
心無	-9.351
辭	-9.35118
作如是	-9.35359
瑠璃	-9.35387
於諸	-9.35568
羅漢	-9.35738
擁護	-9.35832
他方	-9.36001
脫	-9.36106
安隱	-9.36108
不觀	-9.36127
昔	-9.36336
名為四	-9.36405
南方	-9.36456
豈	-9.36712
三明	-9.36741
容	-9.36749
萬法	-9.36759
行布施	-9.36851
為是	-9.37208
宣	-9.37225
之故	-9.37242
得福	-9.37323
正明	-9.37387
黃金	-9.37431
漸	-9.37462
者今作	-9.37466
以此	-9.37566
枯	-9.37885
金色	-9.37931
萬億	-9.38233
四十	-9.38275
寒	-9.38289
三塗	-9.38338
設	-9.38364
唱	-9.38546
之物	-9.38551
下方	-9.38586
為一切眾生	-9.38976
增長	-9.39035
此印	-9.3915
天魔	-9.3927
臥	-9.39282
藉	-9.39294
譬	-9.39383
眾惡	-9.39443
帝釋	-9.39614
右	-9.39834
三毒	-9.39935
聞之	-9.40049
傳	-9.40049
越	-9.40054
燒香	-9.401
即名	-9.40397
不善	-9.40533
億	-9.40541
如如	-9.40574
由此	-9.40736
怖	-9.40806
避	-9.40905
大小	-9.40933
如是我聞	-9.40957
一切諸法	-9.41049
一念	-9.41095
富	-9.4119
蛇	-9.41427
退	-9.41517
響	-9.4157
大王	-9.41648
疾病	-9.41669
者何	-9.41713
五體投地	-9.41873
貴	-9.41977
之心	-9.42036
狐	-9.42051
且	-9.42055
軍	-9.42061
注	-9.42191
獄	-9.42236
赤	-9.42247
田	-9.42304
一偈	-9.42414
黑	-9.4243
睡	-9.42434
緣覺	-9.42447
小乘	-9.42448
我說	-9.42466
助	-9.42485
夜叉	-9.42519
柱	-9.42528
巧	-9.42532
十二月為	-9.42532
誹謗正法	-9.4254
爭	-9.4254
不肯	-9.42603
異口同音	-9.42657
頂禮佛足	-9.42664
洗浴	-9.42678
洗	-9.42699
縱廣正等	-9.42701
天真菩薩摩訶薩	-9.42706
厨	-9.42724
隔	-9.4273
瑞	-9.42732
斫	-9.4274
作福	-9.42742
偈	-9.42748
從坐而起	-9.42763
錯	-9.4277
細	-9.42787
苦惱	-9.428
勤	-9.42827
犯戒	-9.4285
無所畏	-9.42862
傍	-9.42863
於大眾中	-9.42885
是空	-9.42902
領	-9.42919
悅	-9.42927
發菩提心	-9.42943
如說修行	-9.43024
若生人中	-9.43069
四天王	-9.43116
之理	-9.43145
▁287	-9.43147
分別解說	-9.43292
極樂	-9.43308
身相	-9.43327
屋	-9.43378
八難	-9.43464
奉持	-9.43485
殊勝	-9.43489
像法	-9.435
不自生	-9.43571
除罪	-9.43666
爾時復有	-9.4371
正見	-9.43733
授與	-9.4381
自心	-9.43853
三業	-9.43975
▁289	-9.44096
及諸大眾	-9.44148
法者	-9.4439
託	-9.4443
傷	-9.4447
▁288	-9.44501
六師	-9.44562
水精	-9.44575
滅盡	-9.44669
所由	-9.4498
自身	-9.45102
佛告文殊師利	-9.45134
聞法	-9.45172
維	-9.45204
海中	-9.45266
汝當諦聽	-9.45328
非解脫	-9.45477
有能	-9.45525
樹下	-9.45749
書	-9.45807
即是空	-9.45867
有情	-9.4596
須彌山	-9.46015
珠	-9.46029
見我	-9.46038
經典	-9.46164
竭	-9.4626
即無	-9.46352
堂	-9.46381
一切道俗	-9.46457
不現	-9.46505
不可稱	-9.46598
天人	-9.46643
或犯	-9.46704
是吾	-9.46785
何所	-9.46811
或見	-9.47135
無實	-9.47187
道俗	-9.47198
養	-9.47216
滅罪	-9.47225
遺	-9.4723
富貴	-9.47289
惡道	-9.47321
天上	-9.47337
道場	-9.47464
妙法	-9.47522
廣說	-9.47563
願佛	-9.47591
繫	-9.4782
是處	-9.4823
渴	-9.48346
一相	-9.48815
常處	-9.48925
端政	-9.48938
應如是	-9.4899
二明	-9.49035
眾生身	-9.4925
說是	-9.49706
縱	-9.49782
見佛	-9.49807
八者	-9.49853
現前	-9.5001
無盡	-9.50083
印	-9.50095
故名為	-9.50112
山林	-9.50328
節	-9.50442
能使	-9.50566
仙人	-9.5058
如人	-9.50727
蜜	-9.50741
一月	-9.50757
流轉	-9.50946
士	-9.50997
仙	-9.51094
中央	-9.51196
取捨	-9.51215
今是	-9.51288
讀	-9.51362
雖復	-9.51398
法輪	-9.51436
所謂	-9.51533
光如來	-9.51543
復能	-9.51645
濁	-9.51658
與人	-9.51748
罪人	-9.51748
角	-9.51868
諦聽	-9.51885
心不	-9.51921
談	-9.51944
勅	-9.52172
無相	-9.52204
得達	-9.52315
憙	-9.52455
修道	-9.52595
慈	-9.5262
常當	-9.5264
諸根	-9.52697
除滅	-9.52751
則為	-9.52794
龍王	-9.52847
齋	-9.52865
寺	-9.5298
地藏菩薩	-9.5303
慎莫	-9.53263
待	-9.53267
牙	-9.53323
當今人間	-9.53326
本雖	-9.53349
於心	-9.53365
臂	-9.53389
菓	-9.53503
□□□□□□□□□□□	-9.53532
觀世音	-9.53533
不聞	-9.53543
成佛	-9.5356
機	-9.53562
即從坐起	-9.53569
厚	-9.53613
此者為難	-9.53622
遮	-9.53627
一歲	-9.5365
生天	-9.5366
首羅問	-9.53664
薄	-9.53686
推	-9.53709
脚	-9.53712
幽	-9.53723
奴婢	-9.53724
于	-9.53736
兵	-9.53751
調伏	-9.53778
炭	-9.53844
閻浮履地	-9.53862
度世	-9.53881
欺	-9.53891
鳴	-9.53904
十善	-9.53905
保	-9.53905
嘆	-9.53912
烟	-9.53914
妻子	-9.53931
優婆夷	-9.53934
發露懺悔	-9.53942
食之	-9.53959
留	-9.5396
金剛照菩薩摩訶薩	-9.53974
米	-9.53998
載	-9.54005
短命	-9.54021
屍	-9.54038
利益眾生	-9.54038
方便菩薩摩訶薩	-9.54106
【	-9.54115
受記	-9.54131
▁291	-9.54138
而說偈言	-9.54152
第七	-9.54156
將軍	-9.54182
敷演	-9.54185
迦葉菩薩	-9.5421
▁290	-9.54253
聞此	-9.54255
隨其	-9.54568
噉	-9.54581
若能如是	-9.54593
二十億	-9.54724
或有菩薩得	-9.54949
即為	-9.54967
說佛性	-9.55004
菩薩白佛言	-9.55119
法要	-9.55129
謗方等	-9.55132
穴	-9.55152
淨莊嚴	-9.55154
有何	-9.55189
一劫	-9.55207
藏菩薩	-9.55313
多少	-9.5538
不實	-9.55446
何故	-9.55909
短	-9.55964
遠行	-9.55987
明了	-9.56024
四時	-9.56238
當敬禮	-9.56477
不與	-9.56526
解說	-9.56535
鼓	-9.56618
王如來	-9.56633
皆由禮是	-9.56722
精	-9.56918
默	-9.56985
亦可	-9.57051
所得	-9.57052
最上	-9.57199
捨離	-9.5729
大利益	-9.57316
無過	-9.57364
下至	-9.5751
一切諸佛	-9.57512
無智	-9.57775
一佛	-9.57885
入於	-9.58082
常得	-9.58084
人受	-9.58115
三千大千世界	-9.58146
寶車菩薩	-9.58323
信敬	-9.5835
俗人	-9.5844
說經	-9.58587
何者	-9.58632
等也	-9.58662
飢	-9.5892
我若	-9.58944
自念	-9.58952
所在	-9.59144
無極	-9.59261
一性	-9.59385
常行	-9.5956
南無華	-9.59788
愚者	-9.59818
明如來	-9.59858
顯為	-9.59867
已來	-9.60122
汝當	-9.60129
即從座起	-9.60244
不可以	-9.60391
以來	-9.60407
弊	-9.60461
破壞	-9.60537
南無淨	-9.6059
鐵圍山	-9.60631
希有	-9.60822
聞如是	-9.60997
讀此經	-9.61003
得失	-9.61046
斷絕	-9.61055
含	-9.61121
宣說	-9.61182
永無	-9.61354
阿修羅	-9.6144
三十二相	-9.61508
大福	-9.61602
根本	-9.61643
吾當為汝分別解	-9.61701
幻	-9.61976
有人	-9.62004
無能	-9.62165
交	-9.62221
世世	-9.62222
何處	-9.62299
行菩薩	-9.62344
十六	-9.62371
草木	-9.62521
寫	-9.62832
聞經	-9.632
行來	-9.632
駕	-9.63227
累	-9.63272
為一	-9.63367
剋	-9.63383
為說法	-9.63424
競	-9.63464
不盡	-9.63671
善女人	-9.63685
比	-9.638
泥	-9.63804
能除	-9.63889
還復	-9.63901
威	-9.63951
是時	-9.64065
超	-9.64069
南無善	-9.64194
由如	-9.64242
群	-9.64257
逕	-9.64353
之後	-9.64362
心心	-9.64401
唯願如來	-9.64428
禪	-9.64779
一切眾生皆	-9.64942
之言	-9.64995
欲令	-9.65023
修學	-9.651
簡	-9.65176
無數	-9.65189
思議	-9.65416
臨	-9.65435
其有	-9.65444
限	-9.65516
恒沙	-9.65566
宿命	-9.65594
剛	-9.6562
微塵	-9.65643
次有	-9.65655
弱	-9.65657
得值	-9.65674
諸比丘	-9.65681
惡事	-9.65687
沙彌	-9.65814
資	-9.65846
漢	-9.65875
聽許	-9.65898
弄	-9.65918
象	-9.65923
行五戒十善加行	-9.65991
行五戒十善得生其中	-9.65994
狀	-9.6602
勝佛	-9.66033
私	-9.66038
虎	-9.66047
負	-9.66071
身長	-9.66076
應作是念	-9.66084
受大苦惱	-9.661
金剛密迹	-9.66107
彰	-9.66124
貢高	-9.66128
孝順	-9.66129
吉凶	-9.66172
伽	-9.66182
諂曲	-9.6619
放光	-9.66191
其中亦有	-9.66191
星宿	-9.66195
山中	-9.66199
長養	-9.66202
決	-9.66218
源	-9.66222
逼	-9.66224
蘭	-9.6623
東西	-9.66233
曠野	-9.66256
序	-9.66257
所願	-9.6626
蕩	-9.66269
瘡	-9.66281
維摩	-9.66291
驚	-9.66296
威力	-9.66324
磨	-9.66328
風起吹水沫化為	-9.66331
申	-9.66332
慮	-9.66333
溫	-9.66338
繫縛	-9.66347
賣	-9.66351
鏡	-9.66362
昏	-9.66363
在在處處	-9.66365
鑒照菩薩摩訶薩	-9.6638
尾	-9.66383
金銀	-9.66401
不異	-9.6642
表	-9.66421
六波羅蜜	-9.66428
上首	-9.66436
靈	-9.66451
恐怖	-9.66474
章	-9.66486
來詣佛所	-9.66487
苦哉	-9.66491
三百三十六萬里	-9.66497
級	-9.665
祕	-9.66509
波旬	-9.6651
儞	-9.66514
妄生	-9.66523
灰	-9.66535
破汝	-9.66549
良由	-9.66565
令眾生	-9.66568
射	-9.66586
亦復	-9.66603
乳蜜	-9.66679
我遣	-9.66728
永離	-9.66755
無量大眾	-9.66758
空王	-9.66764
今悉	-9.66773
憍慢	-9.66813
愛樂	-9.66835
尊王佛	-9.66887
何用	-9.66893
我以	-9.66899
智者	-9.66932
將來	-9.66962
不得自在	-9.67
從空而	-9.67026
多聞	-9.67085
為有	-9.67122
成熟者	-9.67131
六識	-9.67173
毘	-9.67178
為我	-9.67268
威神	-9.67279
百日	-9.67296
月光出世	-9.67304
如其一	-9.67443
充滿	-9.6745
教門	-9.67658
能使人	-9.67673
是為	-9.67728
違順	-9.67735
空無	-9.67841
一種	-9.679
不能得	-9.67919
南無德	-9.6801
病人	-9.68015
我身	-9.68029
惡世	-9.68162
其子	-9.68239
安住	-9.68361
紫金	-9.68423
或作人	-9.68483
嚮	-9.68493
一切煩惱	-9.68571
不修	-9.68574
如此之人	-9.68624
若有人	-9.68633
空中	-9.68709
受其大	-9.68728
是故名為	-9.68734
寶物	-9.68751
能迴	-9.6892
清涼	-9.69031
不說	-9.69069
原	-9.69107
復不	-9.69216
慳貪	-9.69237
定光佛	-9.69248
無礙菩薩	-9.69394
無染	-9.6962
分身	-9.6964
海水	-9.6975
方廣經典	-9.69782
說是語	-9.69806
箭	-9.69938
假使	-9.69982
而起	-9.70129
天神	-9.70213
處在	-9.70222
爾時如來	-9.70245
見者	-9.70345
教人	-9.70389
身體	-9.70393
不定	-9.70634
不用	-9.70734
天真	-9.70895
流行	-9.70941
寶車	-9.71003
彼此	-9.71087
無不	-9.71096
即有	-9.71254
諸菩薩	-9.71288
者死作	-9.71363
法相	-9.71557
能令	-9.71695
專行	-9.71698
不成	-9.71878
食肉	-9.71883
何以	-9.71913
其福	-9.72045
我見	-9.72112
寶塔	-9.72272
布	-9.72376
大地	-9.72528
適	-9.72631
明師	-9.7268
戶	-9.7268
不失	-9.72708
佛母	-9.72766
謗毀	-9.72769
頓	-9.72852
慧菩薩	-9.72872
至於	-9.72881
卷	-9.72922
比丘比丘尼優婆塞優婆夷	-9.73004
其地	-9.73025
能斷	-9.73059
一切世界	-9.73228
明菩薩	-9.73358
三事	-9.73374
白衣	-9.7339
小兒	-9.73435
威德	-9.7364
三藏	-9.73875
正觀	-9.74027
明佛	-9.74093
充	-9.74129
禁戒	-9.74188
飲酒	-9.74446
如其	-9.74538
得此	-9.74581
日出時	-9.74667
部	-9.74783
若作	-9.748
吐	-9.74912
無上道	-9.74998
自在佛	-9.74999
不染	-9.75109
不相	-9.75132
自體	-9.75204
作惡	-9.75518
大劫	-9.75569
令人	-9.75651
行善	-9.75683
人之	-9.75794
身中	-9.75843
不捨	-9.75889
略說	-9.75915
佛前	-9.76056
無別	-9.7606
垂	-9.76151
為難	-9.76234
得免	-9.76443
諸大眾	-9.76501
事同	-9.76713
一日	-9.76789
無由	-9.76855
水火	-9.76855
憶	-9.76878
慢	-9.7698
南無月	-9.77018
山海慧菩薩	-9.77021
劫中	-9.77055
蘇	-9.77081
文殊	-9.77093
前後	-9.77183
怒	-9.77184
一切眾	-9.77274
亦不見	-9.77418
安置	-9.77432
南無海	-9.77468
六者	-9.77516
即以	-9.77718
此等	-9.77789
故則無	-9.77844
者皆	-9.7791
紫	-9.78246
下賤	-9.78252
下第二	-9.78358
眼不自見	-9.78378
說此	-9.78563
妄想	-9.78583
皮	-9.78625
輒	-9.78717
產	-9.78755
婦	-9.78828
悲田	-9.78865
萬相	-9.78867
此之	-9.78903
見他	-9.78984
南無常	-9.79074
三有	-9.79084
徒	-9.79098
梵	-9.79189
丈	-9.79397
慚愧	-9.79407
礙	-9.79465
無垢	-9.79518
不斷	-9.79548
喪	-9.79559
告諸大眾	-9.79687
吹	-9.79754
哀愍	-9.79804
南無須彌	-9.79805
彌	-9.79838
察	-9.79945
太	-9.79979
臭	-9.79995
畢	-9.79995
如上所說	-9.80018
自性	-9.80029
見惡	-9.80031
而言	-9.80033
帶	-9.80053
供	-9.80113
略	-9.80117
階	-9.80156
但有	-9.80243
冷	-9.80264
說言	-9.80271
返	-9.80282
諸惡苾芻	-9.8029
隣	-9.80306
如此人輩	-9.8034
狂	-9.80348
飽	-9.80354
流通	-9.80366
眾罪	-9.80367
無行菩薩	-9.80373
汝等今者	-9.80396
蟻子	-9.80418
慈愍	-9.80423
葉	-9.80429
健	-9.80431
清信女	-9.80434
式	-9.80437
穢	-9.80439
不生不滅	-9.80445
麻	-9.80446
文中初	-9.80455
困厄	-9.80459
奪	-9.80466
詐	-9.80473
斗	-9.80474
昇	-9.80478
每	-9.80491
大通方廣	-9.80504
奈	-9.8051
怪	-9.80511
顯示	-9.80516
朝	-9.80522
乏	-9.80523
辟	-9.80527
符	-9.80529
揚	-9.80546
億千萬歲	-9.8055
續	-9.80553
論言	-9.80553
羊	-9.80554
乍	-9.80561
阿者言	-9.80568
其人命終	-9.8057
衛	-9.80571
州	-9.80575
算	-9.80581
擬	-9.80584
乾闥婆	-9.80593
聰明	-9.80593
亦復歸命	-9.80598
如我所說	-9.80598
掌	-9.806
闍	-9.80602
碎	-9.80613
契	-9.80615
隨文取義	-9.80621
術	-9.80633
忌	-9.80636
謝	-9.80639
快	-9.80639
盈	-9.80645
不惜身命	-9.80651
枝葉	-9.80655
除無量劫以來	-9.80662
摧	-9.80669
頌	-9.8067
乘六牙白象	-9.80674
曲	-9.80678
崇	-9.8068
四天王宮	-9.80681
非有	-9.80686
閉	-9.80692
附	-9.80721
錢	-9.80726
六賊	-9.80732
當知此人	-9.80744
壁	-9.80744
善能	-9.80747
遂便	-9.80752
天龍夜叉	-9.80764
為度眾生	-9.80767
巍巍	-9.80771
十方世界	-9.80772
痛哉	-9.80782
盧	-9.80788
埿	-9.80789
咎	-9.80818
勇猛	-9.8082
早	-9.8082
菩薩漏盡和	-9.80821
剝	-9.80826
真善知識	-9.80831
咽	-9.80833
無生無滅	-9.80849
體解	-9.80852
抄	-9.80853
是故今日	-9.80855
以偈	-9.80864
道士	-9.80872
怨家	-9.8088
號曰	-9.80883
願佛慈悲	-9.80886
頭陀	-9.80898
皆來集會	-9.8091
魅	-9.80921
八十億	-9.80923
大菩薩	-9.80931
百千萬分	-9.80934
十者	-9.80944
皆大歡喜	-9.80947
入般涅槃	-9.80947
我獨	-9.80954
唱言	-9.80958
佛告虛空藏菩薩言	-9.80959
發心	-9.80964
囚	-9.80968
莫問	-9.81005
默然	-9.8101
潤	-9.81013
或取人家	-9.81013
卑	-9.81015
若有入人	-9.81041
我於	-9.81045
所生之處	-9.81086
多寶佛	-9.81108
大法	-9.81114
」「	-9.81116
讀經	-9.81146
有無量	-9.8117
教化眾生	-9.81185
惡眾生	-9.81214
教令	-9.81238
佛告無行菩薩	-9.8124
無自性	-9.81279
時有	-9.81306
觀世音菩薩	-9.81314
好惡	-9.81337
得是五	-9.81361
縱廣	-9.81373
亦未	-9.81375
汝應	-9.81408
得無生法忍	-9.81421
得入	-9.81438
衣食自	-9.81478
發露	-9.81483
速疾	-9.8152
不審	-9.81704
今身喜	-9.81717
佛告智度菩薩摩訶薩	-9.81784
大火	-9.81804
六種震動	-9.81926
度人	-9.81935
即現	-9.81989
白言	-9.81992
出入	-9.82026
救濟	-9.82104
四天下	-9.82118
集會	-9.82143
或在	-9.82155
得佛	-9.82181
要須	-9.82249
一子	-9.82336
佛告大眾	-9.82466
住心	-9.82511
下第二明	-9.82554
命終	-9.82573
而為	-9.82583
離苦	-9.82616
身則	-9.82623
共佛	-9.82674
既無	-9.82893
行人	-9.82917
往昔	-9.82931
消除	-9.82936
實法	-9.83012
宮殿	-9.8304
為諸眾生	-9.83132
法師	-9.83171
降注	-9.83232
心性	-9.83257
證之	-9.833
萬善	-9.83303
輩	-9.83318
為家	-9.83341
作是念	-9.83341
病苦	-9.83397
遊行	-9.83449
得人身	-9.83496
住於	-9.83542
之鬼	-9.8364
汝今諦聽	-9.8371
念念	-9.83731
瑠璃作	-9.83748
勇	-9.83751
大德	-9.83762
次第	-9.83795
摩尼	-9.83826
以是	-9.83919
為他	-9.83932
扶	-9.8394
愍	-9.83947
迦葉佛	-9.83961
宿世	-9.83979
姓	-9.84026
若人聞是	-9.84109
蒙	-9.84129
無窮	-9.84255
前中初	-9.84293
萬行	-9.84328
之與	-9.84466
是大	-9.8449
唯有一	-9.8452
悉皆消滅	-9.8468
言說	-9.8472
不壞	-9.8485
但以	-9.84943
迭相	-9.84967
聖人	-9.85035
天龍八部	-9.85094
見有	-9.85171
阿彌陀佛	-9.85231
九者	-9.85242
防	-9.85246
斷除	-9.85249
親近	-9.8525
聞知	-9.85385
潤澤	-9.85828
莫不	-9.85845
無分別	-9.85868
自守	-9.85879
當時	-9.85949
聽法	-9.85954
貪求	-9.86116
四毒	-9.86142
終無	-9.86151
深法	-9.86186
吾今為汝	-9.86228
是一	-9.86242
凡人	-9.8632
正道	-9.86321
成佛道	-9.86358
無量天人	-9.86376
安穩	-9.86578
具說	-9.86584
淺	-9.86654
而住	-9.86747
名之	-9.8676
滅我法	-9.86872
有八	-9.86876
法聚	-9.86884
各有	-9.86892
二年	-9.86998
依止	-9.87055
伏	-9.87129
如虛空	-9.87391
普遍	-9.87459
見之	-9.87487
不出	-9.87624
一人	-9.87636
中有	-9.87674
阿耨多羅三藐三菩提心	-9.87694
解了	-9.8779
王子	-9.87806
寶光明	-9.87867
即起	-9.8793
不得停止	-9.87994
不犯	-9.88009
勞	-9.88134
染著	-9.88238
六百	-9.88324
經像	-9.8851
為汝	-9.88579
水中	-9.88652
鑛	-9.8879
隱為	-9.88842
三日	-9.88849
摩訶	-9.88945
大明	-9.88995
罵	-9.89039
為諸大眾	-9.89093
非常	-9.89193
聞者	-9.8926
基	-9.89303
現在	-9.89421
為眾生	-9.89481
道德	-9.89517
歡喜奉行	-9.89554
隨所	-9.89569
首佛	-9.89639
恣	-9.89657
責	-9.89706
不了	-9.89908
有瑞應	-9.89939
底	-9.90132
如上	-9.9021
慎	-9.90367
造立	-9.90399
枚	-9.90435
於大乘	-9.90445
生時	-9.90686
三十二	-9.90801
闡提	-9.90856
故不	-9.91186
問佛	-9.91251
相好	-9.91301
無量眾生	-9.91453
令我	-9.91454
大慈大悲	-9.91525
寶池	-9.91688
聞說	-9.917
八百萬	-9.91738
師長	-9.91953
人俱	-9.9205
皆為	-9.92053
品	-9.9211
設有	-9.92176
度眾生	-9.92253
此義	-9.92273
良藥	-9.92416
云何五	-9.92439
皆當	-9.92594
得生	-9.926
陀羅尼菩薩	-9.92681
明王	-9.92704
眾人	-9.92708
受樂	-9.92748
南無法	-9.92766
覩見	-9.92866
賢聖	-9.92904
與說	-9.92977
閻浮提	-9.93056
得除滅	-9.93075
亦有	-9.93172
吾當為汝分別	-9.93356
出時	-9.93375
二十	-9.93559
忘	-9.93582
四重	-9.93597
空者	-9.93702
飛行	-9.93833
塗	-9.93873
漏	-9.93919
專	-9.93962
已為	-9.9399
隨順	-9.94056
淨土	-9.94071
一時佛在	-9.94121
展轉	-9.94229
人相	-9.94362
摧伏	-9.94374
不入	-9.9459
八百	-9.94599
穀	-9.94681
或是	-9.94708
梵音	-9.94803
受報	-9.94819
菩提道	-9.94877
亦當讀	-9.94903
亦令	-9.9494
南無龍	-9.95071
黑闇	-9.95148
之子	-9.95166
齒	-9.95415
常為	-9.95466
迴向	-9.9552
分別說	-9.95533
上至	-9.95567
身故	-9.95612
而便	-9.95655
不安	-9.95659
萬物	-9.95664
作善	-9.95671
氷	-9.95676
神力	-9.95824
岸	-9.95858
六國	-9.95864
須臾	-9.95975
混融	-9.96146
便得	-9.96168
必有	-9.96243
尸	-9.96271
導師	-9.96274
臺	-9.96289
甚多	-9.96299
不求	-9.96332
密	-9.96344
泯	-9.96353
善心	-9.96377
憐愍	-9.96378
復問	-9.96418
剎	-9.96523
買	-9.96567
逐	-9.9665
第	-9.96681
八禁	-9.96691
閻浮	-9.96786
困	-9.96814
飯	-9.96821
汝向所問	-9.96827
財貨	-9.96828
孤	-9.96871
膝	-9.96876
惡鬼	-9.96878
降	-9.96893
讀持是經	-9.96912
戲	-9.96933
餅	-9.96955
身命	-9.96964
下生	-9.9698
攀緣	-9.97003
諂	-9.97013
消供養	-9.97021
槃	-9.97037
軟	-9.97039
猛	-9.97064
枷鎖	-9.97067
弓	-9.97072
除一闡提	-9.97076
外而無	-9.97077
約	-9.97084
牆	-9.97092
給	-9.97101
嗔	-9.97101
出世時	-9.97104
市	-9.97107
第一義	-9.97119
折	-9.97133
不除	-9.97141
以是義故	-9.97143
穿	-9.97145
南北	-9.97162
畔	-9.9717
剃除鬚髮	-9.97174
啼哭	-9.97183
族	-9.97195
三千大千世界六種震動	-9.97196
床	-9.97205
茲	-9.9721
虎狼	-9.97212
覓	-9.9722
百歲	-9.97222
脈	-9.97223
武	-9.97236
吉	-9.97239
滋	-9.97247
周匝	-9.97255
龍種上尊王佛	-9.97256
為佛作禮	-9.97262
殘	-9.97269
縣官	-9.9727
左右	-9.97271
整理衣服	-9.97272
得無	-9.97272
不墮地獄苦	-9.97294
我等徒眾	-9.97298
名號	-9.97301
受諸苦惱	-9.97302
焉	-9.97307
歸伏	-9.97307
八十種好	-9.97311
暗	-9.97313
身長二	-9.97316
端坐	-9.9732
七百	-9.97325
據	-9.97329
養育	-9.97332
塚	-9.97342
敷	-9.97344
粳米	-9.97345
抱	-9.97348
熾盛	-9.97351
接	-9.97354
胎	-9.97355
夢見自身	-9.97358
故論言	-9.9736
濕	-9.9736
墮落	-9.97362
熾然	-9.97365
平正	-9.97373
殃禍	-9.97377
毀損	-9.97386
皆是普賢菩薩	-9.97391
諍訟	-9.97391
甚大吉利	-9.97393
大覺世尊	-9.97396
泉	-9.97398
懸	-9.97404
唐	-9.97417
枝	-9.97421
後世	-9.97421
最為第一	-9.97435
豈非	-9.97435
懃修	-9.97444
云何而言	-9.97447
疑惑	-9.97456
長跪叉手	-9.97457
奇	-9.97457
我等眷屬	-9.97461
還歸	-9.97466
柔軟	-9.9747
渾	-9.97471
歷劫	-9.97475
祇	-9.97478
妖邪	-9.9748
沸	-9.97493
涕	-9.97495
四部弟子	-9.97495
能滅	-9.97505
飲酒食肉	-9.97509
歡喜踊躍	-9.97532
納	-9.97545
種種無盡	-9.97546
其意	-9.97547
比丘比丘尼	-9.9756
白骨	-9.97563
麴	-9.97563
六塵	-9.97568
身口意	-9.9757
精舍	-9.97572
『	-9.97586
倉	-9.97586
前中復	-9.9759
是經亦如大	-9.97604
十五日	-9.97611
2	-9.97612
宜應	-9.97617
結跏趺坐	-9.97621
浴	-9.9765
此女人	-9.97661
5	-9.97661
光觸	-9.97661
昭文館學士	-9.97672
詳定奉勅	-9.97678
一身	-9.97687
搗	-9.9771
者云何	-9.97715
頗梨	-9.9773
四面	-9.97731
之因	-9.97736
發大乘心	-9.97744
得作佛	-9.97747
誓	-9.97753
想念	-9.97753
七十二	-9.97763
六趣	-9.97767
佛語阿難	-9.97769
受持此經	-9.97772
形質	-9.97776
而復	-9.97826
滿中	-9.97849
我於此劫	-9.97851
其妻	-9.97865
瓦	-9.97875
往來	-9.97898
高下	-9.97926
8	-9.97928
答曰	-9.97944
道邊	-9.97954
法忍	-9.9799
經者	-9.98012
淨潔	-9.9802
五濁惡世	-9.98024
法中	-9.98027
更無別	-9.98057
其夫	-9.98064
自覺	-9.98092
繼結	-9.98092
9	-9.981
貪著	-9.98137
道教	-9.98139
得須陀洹	-9.9821
不得解脫	-9.98214
叉	-9.98219
大水	-9.98345
0	-9.98364
6	-9.98389
心心念	-9.98403
嬈	-9.98404
毀壞	-9.98488
向人	-9.98512
學道	-9.98535
少分	-9.98554
當與	-9.98564
失心	-9.98584
聞是語	-9.98607
無厭	-9.9861
下有	-9.98632
純	-9.98697
性體空	-9.98713
無比	-9.98721
佛告虛空藏菩薩	-9.98726
尊者問	-9.98761
舉高	-9.98765
當觀	-9.98788
聞深法	-9.9882
所有言說	-9.98879
服之	-9.98967
大自在	-9.99037
愚人	-9.99153
復有眾生	-9.99174
欲入涅槃	-9.992
化作	-9.99213
發問	-9.99225
妙香	-9.99259
如汝所	-9.99334
諸大菩薩摩訶薩	-9.99364
千年	-9.99394
暫	-9.99409
天中即現	-9.99413
不二	-9.99463
夜半	-9.99546
三毒箭	-9.99565
五十三佛	-9.99567
生彼	-9.9959
其人功德	-9.99684
作禮	-9.99688
有二種	-9.99742
畏	-9.99849
所請	-9.9996
賢者	-9.99981
從此	-9.99996
四果	-10.0008
皆以	-10.0011
沈	-10.0016
眾多	-10.0021
光明照	-10.0023
不行	-10.0023
汝若	-10.0025
非時	-10.0027
剎那	-10.0029
光照	-10.003
直心	-10.0034
如太山	-10.0035
飢渴	-10.0039
語阿難	-10.0039
真法	-10.0041
二名	-10.0044
二見	-10.0045
縱令	-10.0046
相隨	-10.0051
語言	-10.0051
行世間	-10.0054
同歸	-10.006
我聞	-10.006
無量菩薩	-10.0073
普賢	-10.0076
過去世	-10.0096
不還	-10.0106
無所不為	-10.0106
音王	-10.0121
正身	-10.0128
足下	-10.0129
藥王菩薩	-10.0138
有實	-10.014
世間人	-10.0143
我法	-10.0143
南無大	-10.0143
誰為	-10.0145
因此	-10.0147
蒙佛	-10.0157
嚙	-10.0163
先當	-10.0167
苦事	-10.0169
若此	-10.0182
教戒	-10.0184
無有窮	-10.0184
即問	-10.0184
還入	-10.0189
於世	-10.0208
無量諸佛	-10.0216
割	-10.0225
解脫用	-10.0225
通達	-10.0233
百鬼	-10.0233
爾乃得	-10.0245
天女	-10.0252
智度菩薩摩訶薩	-10.0256
佛告山海慧	-10.026
向者	-10.0269
雀	-10.027
塔寺	-10.0271
七者	-10.0282
大師	-10.0284
何得	-10.0289
南無無	-10.0298
橋梁	-10.0302
朗	-10.0311
有心	-10.0311
甚可	-10.0322
如法	-10.0322
或復一時讚歎	-10.0323
經卷	-10.0334
閻浮提人	-10.0338
一升	-10.0341
值佛	-10.036
安樂	-10.0361
之間	-10.0363
猪	-10.0365
於一	-10.0381
三千人	-10.0382
此難	-10.0388
吾當	-10.0391
惡口	-10.0391
有五	-10.0393
廣宣流布	-10.0399
於我	-10.0407
所須	-10.0418
一心苦行	-10.0423
不須	-10.0424
修習	-10.0426
還得	-10.0426
聞此經	-10.0427
勢力	-10.0443
亦應	-10.0458
來世	-10.0459
解脫者	-10.0462
令還	-10.0469
厄	-10.0472
不著	-10.0476
世尊如來	-10.0476
九十	-10.0486
而求	-10.0488
舉身	-10.0491
普光莊嚴菩薩	-10.0491
佛像	-10.0495
今復	-10.0514
體性	-10.0514
塵不染	-10.0519
是實	-10.0529
品第	-10.0533
不受	-10.0533
光相	-10.054
銷融	-10.0544
恩愛	-10.055
設復有人	-10.0557
無性	-10.0564
奉事	-10.0572
不過	-10.058
泥洹	-10.0603
金山	-10.0612
齎	-10.0619
為我解說	-10.0635
身是	-10.0636
欲得	-10.0647
學者	-10.065
如來世尊	-10.0659
惺悟	-10.067
心念	-10.0673
中虫	-10.0674
陀羅尼	-10.0683
受五戒	-10.0687
即知	-10.0705
事故	-10.0722
住處	-10.0723
心相	-10.0726
免	-10.0729
一百二十	-10.0732
門戶	-10.0734
毒蛇	-10.0736
信解	-10.0742
離煩惱	-10.0776
作禮而去	-10.0781
更相	-10.0786
登王	-10.0799
口中	-10.0806
化之	-10.0807
車馬	-10.0808
但當	-10.0809
若善男子	-10.0811
人者	-10.0825
乃可	-10.0826
淨心	-10.0826
於空中	-10.0831
尊重	-10.0837
出三界	-10.0845
相行	-10.0881
女言	-10.0883
四種	-10.0894
變成	-10.09
解脫門	-10.0903
於後	-10.0905
諸苦	-10.0911
百萬	-10.0936
彼人	-10.0941
聞已	-10.0944
是不	-10.0962
南無普	-10.0966
日夜	-10.0969
滅度	-10.0982
勒	-10.0982
為汝宣說	-10.0984
夢見	-10.0986
復倍	-10.0987
即不得	-10.0987
□□□□□□□□□□□□□□□□	-10.0989
乞	-10.1
無體	-10.1005
色界	-10.1006
師子吼菩薩	-10.1008
此經者	-10.1008
所知	-10.1016
事云何	-10.1018
天雨	-10.102
或見如來	-10.1036
提	-10.1046
封	-10.1057
聚集	-10.1082
人皆	-10.1084
曠劫	-10.1103
諸見	-10.1103
若當	-10.1109
或復一時	-10.1132
妄見	-10.1135
神王	-10.1138
已上	-10.1138
諸塵	-10.1149
吾當為汝	-10.1157
或殺	-10.1161
十億	-10.1168
外求	-10.117
往詣	-10.1171
於一切	-10.1185
三名	-10.1193
真人	-10.121
功德山	-10.1214
演說	-10.1218
徒眾	-10.1222
佛所	-10.1223
一年	-10.1224
假使有人	-10.1229
那含	-10.1231
聞是經	-10.1233
造罪	-10.124
覺知	-10.1247
三途	-10.1251
八邪	-10.128
空即是	-10.1285
付囑	-10.1286
慳	-10.1291
侵	-10.1293
皆從	-10.1295
諸功德	-10.1303
自下	-10.1352
悲號	-10.1364
之由	-10.1371
仁	-10.1376
塔廟	-10.1388
六神	-10.139
婬	-10.1392
南無山	-10.1395
魔王	-10.1408
我常	-10.1432
覺者	-10.1433
那由他	-10.1442
受大	-10.1447
相菩薩	-10.1452
將至	-10.1457
起立	-10.1463
善人	-10.1467
五十歲	-10.148
乃能	-10.1487
了了	-10.1498
說其	-10.1498
有十	-10.15
在於	-10.1501
聖道	-10.1504
悉得	-10.1509
此經典者	-10.1515
得脫	-10.1518
無非	-10.1521
是經者	-10.1527
四眾	-10.1531
悉令	-10.1532
內有	-10.1538
問之	-10.1542
又復	-10.1543
南無光	-10.1549
牟尼佛	-10.1555
即於	-10.1559
梵天	-10.1559
銀	-10.156
而有	-10.1564
若離身心	-10.1571
是經能與眾生	-10.1571
分明	-10.1571
上生	-10.1574
燃燈	-10.1578
見已	-10.158
十惡五逆	-10.1582
其形	-10.1587
汝等諦聽	-10.1587
不有	-10.1592
惟	-10.1602
偽	-10.1607
佛即	-10.1607
五百歲	-10.1613
可見	-10.1614
及與	-10.1619
勉	-10.1625
百年	-10.1627
偏	-10.1628
停	-10.1634
已度	-10.1635
堅固	-10.1639
欲界	-10.1645
自滅	-10.1652
若得	-10.1655
敢	-10.1657
擁	-10.1658
不絕	-10.166
曾聞	-10.1664
雷	-10.1665
移	-10.1665
傾	-10.1667
違背	-10.1668
自說	-10.1671
典	-10.1682
野	-10.1682
百千萬倍	-10.1684
房	-10.1685
圍	-10.1685
容受	-10.1686
甘	-10.1686
南無妙	-10.1688
窟	-10.1688
快問是義	-10.1691
列	-10.1692
縣	-10.1693
著淨	-10.1694
博	-10.1695
如佛所說	-10.1695
妨	-10.1695
建	-10.1695
歸真	-10.1697
指授	-10.1698
聳上	-10.1698
拯濟	-10.1699
坊	-10.1699
謗是經故	-10.17
弓刀	-10.17
鷄	-10.17
從地獄出	-10.1701
孔	-10.1701
阿難白佛	-10.1701
殿	-10.1701
獻	-10.1702
行五戒十善加行四禪小增得生其中	-10.1702
行欲之法	-10.1703
胡	-10.1703
悶絕	-10.1706
嫌	-10.1706
閑居	-10.1706
暮	-10.1706
姦	-10.1707
麁	-10.1707
獄卒	-10.1708
恚	-10.1709
錄	-10.1709
日月燈明	-10.1709
出家在家	-10.171
篤	-10.171
我於往昔	-10.1711
承佛神力	-10.1711
講	-10.1712
涸	-10.1712
洪	-10.1712
六百七十二	-10.1712
點	-10.1713
我諸弟子	-10.1713
慈氏	-10.1713
憐	-10.1713
我若廣說	-10.1713
粟	-10.1714
耗	-10.1714
鹿	-10.1714
八十四	-10.1715
給與	-10.1715
腰	-10.1715
爐	-10.1716
寬	-10.1717
親近善知識	-10.1717
青黃赤白	-10.1717
苾芻及苾芻尼	-10.1717
媚	-10.1718
繩	-10.1719
柔	-10.1719
策	-10.1719
煩	-10.172
罔	-10.172
吒	-10.172
墜	-10.172
靡	-10.172
穢濁	-10.1721
祿	-10.1721
城邑聚落	-10.1721
誦經	-10.1721
鼓擊	-10.1722
沈溺	-10.1722
我觀如來	-10.1722
夜叉羅剎	-10.1722
五百萬世	-10.1723
力故	-10.1723
以此類之	-10.1723
運載汝等	-10.1723
顯現	-10.1724
擾	-10.1724
賜	-10.1724
局	-10.1724
胸	-10.1725
漢言	-10.1725
大臣	-10.1726
如來應供正遍知	-10.1726
懊惱	-10.1726
憎嫉	-10.1726
雞	-10.1726
罵詈	-10.1727
功德復多	-10.1727
崖	-10.1727
殷勤	-10.1728
烈	-10.1728
燃	-10.1729
太極	-10.1729
戰	-10.1729
無障礙	-10.173
作是語者	-10.173
遍敬菩薩摩訶薩	-10.1731
足指	-10.1731
梁	-10.1731
流水	-10.1731
增上慢	-10.1731
悉談婆也	-10.1731
驚怖	-10.1731
腸	-10.1732
叵	-10.1732
成正覺	-10.1732
光澤	-10.1732
翻	-10.1733
劍樹	-10.1733
所逼	-10.1733
雅	-10.1733
慇懃	-10.1734
非母不	-10.1734
錯用	-10.1734
攬	-10.1734
貪財	-10.1735
戀	-10.1735
貞	-10.1736
我滅度後	-10.1736
懃苦	-10.1736
娑婆世界	-10.1736
髻	-10.1737
脣	-10.1737
枉	-10.1738
涼	-10.1739
爛	-10.174
承佛威神	-10.174
奢	-10.174
誠	-10.1741
四道果	-10.1741
心生歡喜	-10.1742
食肉之人	-10.1742
暉	-10.1743
夫婦	-10.1743
七寶莊嚴	-10.1743
天曹	-10.1743
=	-10.1743
浴池	-10.1744
臭穢	-10.1744
效	-10.1744
離垢	-10.1744
無所不作	-10.1745
良以	-10.1745
鮮	-10.1745
鷹	-10.1746
任縱	-10.1747
狗入舍則	-10.1747
賈	-10.1748
靈真	-10.1748
無量慚愧	-10.1748
決疑	-10.1748
伎樂	-10.1749
悲泣	-10.1749
昌	-10.1749
冬	-10.175
隨機	-10.175
得未曾有	-10.175
蓮花	-10.1751
菩提樹	-10.1752
婬欲	-10.1752
皇	-10.1752
於我滅後	-10.1752
猪狗	-10.1752
魚鱉	-10.1754
如水中月	-10.1756
憍尸迦	-10.1756
除去	-10.1756
殊別	-10.1756
一清淨	-10.1756
雨大	-10.1757
諸波羅蜜	-10.1757
除愈	-10.1757
言得之	-10.1757
〔	-10.1757
紙	-10.1758
伯	-10.1759
摩訶般若波羅蜜	-10.1759
喪失	-10.176
塚間	-10.176
四禪	-10.1761
竹	-10.1761
犬	-10.1762
違於	-10.1762
作留難	-10.1763
莎訶	-10.1763
南無妙色	-10.1764
如是之人等亦不	-10.1765
3	-10.1766
久住	-10.1767
其婦	-10.1767
4	-10.1768
▁286	-10.1768
永除	-10.177
連	-10.177
輔	-10.1771
合為一	-10.1772
怨憎	-10.1773
真際	-10.1773
都無	-10.1775
更無餘	-10.1776
葉佛	-10.1778
妄起	-10.1779
師云	-10.1779
開通	-10.1779
修治	-10.178
三稱	-10.178
自在力	-10.178
此者	-10.1781
為因	-10.1782
不懈	-10.1783
汝等大眾	-10.1784
行五戒十善加行一	-10.1784
以不淨手	-10.1784
遍十方	-10.1784
南無寶月	-10.1785
七佛名字	-10.1785
七遍	-10.1786
必當	-10.1788
耳目	-10.1789
天龍鬼神	-10.1791
從無始已來	-10.1792
香火	-10.1793
如空中	-10.1793
五丈	-10.1793
樂著	-10.1796
常施	-10.1799
野狐	-10.1801
無諍	-10.1802
德本	-10.1805
難量	-10.1805
諸最勝	-10.1806
上士	-10.1807
墮餓鬼中	-10.1808
望欲令	-10.1808
四大五陰	-10.181
此三種人	-10.1811
而去	-10.1812
以偈讚	-10.1815
不食肉者	-10.1817
大罪	-10.182
無生法忍	-10.1823
能知	-10.1823
在心	-10.1824
涅槃時	-10.1824
即得解脫	-10.1824
無以	-10.1826
三尊	-10.1826
常修	-10.1828
隱在	-10.1828
城中	-10.183
發起	-10.1831
偈明	-10.1831
辯才	-10.1831
慧法菩薩	-10.1834
聾	-10.1834
不能解	-10.1837
如幻	-10.1841
來至	-10.1842
不忘	-10.1842
不可量	-10.1846
無始	-10.1847
一毫	-10.1849
其唯	-10.1849
我本	-10.1851
無量佛	-10.1854
善解	-10.1854
啄	-10.1854
作微塵	-10.1854
得聞此經	-10.1856
罪畢	-10.1858
日日	-10.1865
罪報	-10.1867
明珠	-10.1868
其名曰	-10.1868
同行	-10.1872
自責	-10.1877
令出	-10.1878
7	-10.1879
何等	-10.1879
皆共	-10.188
不濟	-10.188
藥上	-10.1884
故即是	-10.1887
信施	-10.1888
女身	-10.1889
法故	-10.1891
百六十八	-10.1892
實無	-10.1893
皆因	-10.1895
寂然	-10.1899
羝	-10.1899
者即	-10.1902
信相菩薩	-10.1906
福報	-10.1912
教法	-10.1913
手足	-10.1916
實如聖教	-10.1916
清淨莊嚴	-10.1919
聽之	-10.1922
外緣	-10.1922
亦是	-10.1923
無量阿僧祇佛	-10.193
道理	-10.1931
自活	-10.1935
無量功德	-10.1937
緣生	-10.1939
眾邪蠱毒	-10.194
嗚呼	-10.1941
出沒	-10.1944
將我	-10.195
心垢	-10.1951
汝能	-10.1952
在前	-10.1952
等覺	-10.1955
造惡業	-10.1963
如本	-10.197
糞	-10.197
上方	-10.1986
得授記	-10.1988
愛之	-10.1988
立名	-10.1989
洞	-10.1993
於外	-10.1999
是我	-10.2001
無願	-10.2005
諸罪	-10.2007
是我弟子	-10.2007
一心諦聽	-10.2009
非非	-10.2009
作諸	-10.201
今時	-10.2017
作佛形像世世	-10.2018
雖得	-10.2026
異同	-10.2028
空無所有	-10.2039
無行	-10.2052
生死涅槃	-10.2055
於如來	-10.2058
曠	-10.2065
有如是等	-10.2069
飲水	-10.2074
不可計	-10.2074
信邪	-10.2084
修理	-10.2086
得成佛	-10.2088
為初	-10.2099
念心	-10.2102
解無	-10.2106
此名	-10.2107
受種種	-10.2108
八解脫	-10.2109
不以為	-10.2117
殯葬之	-10.2126
十佛	-10.2132
病本	-10.2132
三品	-10.2134
而作	-10.2137
行惡	-10.2139
滅沒	-10.214
兄弟	-10.214
地中	-10.2142
佛滅後	-10.2146
一切佛	-10.2148
念之	-10.2149
墮惡道	-10.2155
發阿耨多羅三藐三菩提心	-10.2155
有如	-10.2157
復見	-10.216
供養三寶	-10.2161
如是說	-10.2167
藏中	-10.2179
惠施	-10.2188
五百世	-10.2195
名者	-10.2205
一體	-10.221
一切有情	-10.2215
手捉	-10.2221
普淨	-10.2231
正士	-10.2233
但看	-10.2245
見此經	-10.2248
今身作	-10.225
菩薩行	-10.225
不敬	-10.2253
肉眼	-10.2267
世間眾生	-10.2268
寶勝佛	-10.2269
出已	-10.2273
成欲	-10.2273
聖眾	-10.2274
色相	-10.2278
真如	-10.229
皆令	-10.2301
即生	-10.2308
若有善男子	-10.231
亦難	-10.2317
十方佛	-10.2319
已後	-10.2319
妙藥	-10.232
大力	-10.2324
八億	-10.2325
而是	-10.2325
音菩薩	-10.233
何須	-10.2338
教我	-10.2344
復有五	-10.2351
人思得	-10.2351
作是觀	-10.2352
不渴	-10.2357
淚	-10.2361
生天上	-10.2366
存心	-10.2368
隨人	-10.2376
令使	-10.238
不可具	-10.2382
人不	-10.2382
惠方便	-10.2383
福業	-10.2384
有罪	-10.2388
不使	-10.2388
不利	-10.2392
時節	-10.2396
我愛	-10.2406
須彌山南	-10.241
味相	-10.241
施與	-10.2429
妙樂	-10.2432
或為	-10.2434
空王如來	-10.2435
為一切	-10.2435
善神	-10.2437
人前	-10.2439
轉讀	-10.2442
達摩	-10.2447
師僧	-10.245
見菩薩	-10.2452
是佛名	-10.2459
齋戒	-10.2461
滅門	-10.247
地動	-10.2489
方有佛名	-10.25
菩提樹下	-10.2521
狩	-10.2522
召	-10.2524
善逝	-10.2528
不可說	-10.2547
彼國	-10.2568
我欲	-10.2571
修福	-10.2572
經教	-10.2576
於涅槃	-10.2586
觀身	-10.259
知之	-10.2595
無所不	-10.26
善住	-10.2601
有形	-10.2604
持淨戒	-10.2607
之日	-10.262
起行	-10.2625
之上	-10.2625
意菩薩	-10.2635
如海	-10.2639
以自	-10.264
所問	-10.2643
財寶	-10.2646
聞是	-10.2649
在何處	-10.2661
不解我意	-10.2662
敬信	-10.2663
不足	-10.2667
說是經	-10.2668
支	-10.267
無道	-10.2678
一切世間	-10.2693
聽受	-10.2694
常念	-10.2697
竟無	-10.2705
出地獄	-10.2709
未悟	-10.273
慈念	-10.2735
以何	-10.2736
見色	-10.2737
死墮鐵	-10.275
法雨	-10.275
堪	-10.2753
會說法	-10.2763
萬佛	-10.2766
非無	-10.2768
苦厄	-10.2769
南無無量	-10.278
求法	-10.2791
不在	-10.2798
無自體	-10.2803
肉者	-10.2823
不令他	-10.2829
改換	-10.2834
山頂	-10.2835
化眾生	-10.2839
六道	-10.2843
眼中	-10.2843
多饒	-10.2875
暢	-10.2877
饒	-10.2903
是不可	-10.2906
偷	-10.2909
一千	-10.2912
生此	-10.2921
慧法白佛	-10.2925
為人所	-10.2929
懃	-10.2951
未得	-10.296
終時	-10.2961
南無師子	-10.2974
延壽菩薩	-10.2976
出生	-10.2977
鼻者言	-10.299
捨命	-10.2996
永不	-10.3
不及	-10.3013
鎮	-10.3019
諸業	-10.3024
南無普光	-10.3024
種人	-10.3031
諸佛名	-10.3034
來下	-10.3035
四門	-10.3041
諸大	-10.3049
常以	-10.3051
入地獄	-10.3063
諸有情	-10.3064
身為	-10.3069
心淨	-10.307
此則	-10.3074
所為	-10.3077
所生	-10.3091
不恭敬	-10.3091
將欲	-10.3097
義故	-10.3098
來去	-10.3101
有出	-10.3102
身如	-10.3104
劫名	-10.3112
大藏	-10.3116
有大	-10.3125
說此法	-10.3128
天子	-10.3138
者喻如	-10.3139
未見	-10.3141
動地	-10.315
善友功能	-10.3159
長跪	-10.316
為母	-10.3167
已訖	-10.3175
得出	-10.3178
難得	-10.3178
我是	-10.3188
寂靜	-10.3191
迷惑	-10.3209
歸命	-10.322
小子	-10.3233
則是	-10.3235
心常	-10.3236
今者	-10.3237
雖有	-10.325
悟解	-10.3251
可得見	-10.3253
悔過	-10.328
事事	-10.3283
何人	-10.3294
世尊欲重宣此義	-10.3298
者眾	-10.3302
作罪	-10.331
為外	-10.3312
為弟子	-10.3321
緣起	-10.3339
食自然	-10.3345
五色	-10.3348
思量	-10.3356
佛名	-10.3371
生信心	-10.3375
頂上	-10.3377
疑心	-10.3379
觀行	-10.3381
之業	-10.3395
欲聞	-10.3396
往生	-10.3398
斷善根	-10.3403
後生	-10.3413
無邊身菩薩	-10.342
見彌勒	-10.3423
無法	-10.3433
生身	-10.3435
繼縛	-10.3436
千歲	-10.3437
更有	-10.344
佛事	-10.3451
饒益	-10.3451
本來	-10.3457
無著	-10.3465
大道	-10.3472
迎	-10.3476
信之	-10.3484
亦不得	-10.35
大智	-10.3512
萬劫	-10.3514
眾病	-10.3524
兄	-10.3525
身者	-10.3525
久長	-10.3538
佛告諸	-10.3547
惜	-10.3553
死亡	-10.3565
者作	-10.3569
難可	-10.3574
令彼	-10.3577
一面	-10.358
為法	-10.3588
善聽	-10.3592
為父	-10.3593
能生	-10.3596
得知	-10.3596
之過	-10.3596
百佛	-10.3597
地上與	-10.3609
降伏	-10.3612
不可言	-10.3624
地水火風	-10.3627
南無金剛	-10.3628
十二部	-10.3635
不別	-10.3651
延	-10.3652
民	-10.3655
即用	-10.3659
生處	-10.3666
迫迮	-10.3673
亦見	-10.3677
五百世中	-10.3679
遂成	-10.3682
從一	-10.3694
自生	-10.3698
欲度	-10.3713
愁	-10.372
鞞	-10.3721
有物	-10.3724
語寶車	-10.3734
即滅	-10.3734
無住	-10.3734
九百萬	-10.3738
獲得	-10.3754
嚴菩薩	-10.3762
以是之故	-10.3762
無覺	-10.3766
若心	-10.3767
無人	-10.3768
刀山	-10.3768
殯葬	-10.377
佛世尊	-10.3773
自見	-10.3784
趣向	-10.3787
修諸	-10.3791
滅也	-10.3793
之徒	-10.3794
誦之	-10.3805
正宗	-10.381
常無	-10.3818
種樹	-10.3826
所行	-10.3827
南無光明	-10.3833
食肉者	-10.3836
一生	-10.3843
自得	-10.3844
諸惡比丘	-10.3848
能救	-10.3848
莫作	-10.3849
寶藏	-10.3851
無餘	-10.3856
更莫	-10.3862
南無日月	-10.389
布施者	-10.3896
真金	-10.3901
日光	-10.391
無求	-10.3912
離有	-10.3933
慧命	-10.3944
富者	-10.3946
歡	-10.3961
文字即解脫用	-10.3961
何為	-10.3966
乞食	-10.3983
審	-10.3985
懺悔者	-10.3991
必得	-10.4003
復欲	-10.4005
善說	-10.4006
瓶	-10.4008
愍念	-10.4015
廣長	-10.4015
法律	-10.4016
佛所說	-10.4017
釜	-10.4032
明呪	-10.4037
匝	-10.4038
濡	-10.4041
遊戲	-10.4041
入諸	-10.4045
三匝	-10.4047
十恒河沙菩薩	-10.4049
長生	-10.4053
我觀	-10.4057
孝	-10.4058
得本心	-10.406
地獄中治罪	-10.4061
其父	-10.4069
金剛藏	-10.407
自至	-10.4073
心是	-10.4074
一句	-10.4075
依理	-10.408
閉目	-10.4093
法喜	-10.4095
切	-10.4095
質	-10.4107
毫	-10.4108
當令	-10.4108
議	-10.4117
不隨	-10.4119
纏	-10.412
覆藏	-10.412
智惠	-10.4121
老病死	-10.4133
恭	-10.4135
世時	-10.4136
三十六	-10.4137
不死	-10.4138
古	-10.4138
性相	-10.4143
此心	-10.4146
額	-10.4151
不施	-10.4153
薩婆	-10.4157
無我	-10.416
地大	-10.4163
天堂	-10.4166
燋	-10.4166
墮大地獄	-10.4166
驗	-10.4167
有我	-10.4168
故則	-10.4168
全	-10.4171
教以	-10.4172
大魔	-10.4173
滅度後	-10.4175
命終之後	-10.4178
寄	-10.4178
從繼業	-10.4178
星主	-10.418
奴	-10.4181
芥子	-10.4183
獨行布施	-10.4183
罷	-10.4183
波羅提木叉	-10.4183
狗得死	-10.4184
無有能知受持此經之人功德	-10.4184
涉	-10.4184
叫	-10.4184
差別	-10.4184
侍	-10.4185
眉	-10.4185
駱駝	-10.4185
告常施菩薩	-10.4186
坑	-10.4186
我等或從無量劫來	-10.4187
彼岸	-10.4187
汝於來世	-10.4187
人面似地形	-10.4188
貧賤	-10.4188
投	-10.419
此三人	-10.419
縱廣高下	-10.4191
蔟	-10.4191
心生重悔	-10.4191
固	-10.4191
造新	-10.4192
於彼岸	-10.4193
何故今日	-10.4193
戾	-10.4193
二萬億同號	-10.4193
諸行者	-10.4194
見人	-10.4195
迷悶	-10.4195
為名利故	-10.4196
罰	-10.4196
慧命法身	-10.4196
法而	-10.4196
阿鼻	-10.4197
屍陀林	-10.4197
劍	-10.4198
刺	-10.4198
以彼	-10.4198
所有善根	-10.4198
要期	-10.4199
無慧目	-10.4199
非虛	-10.4199
眠	-10.42
陸地名	-10.42
於其中間	-10.42
世尊大慈悲	-10.4201
履	-10.4201
即見	-10.4201
瞻仰	-10.4201
柳	-10.4202
沽	-10.4202
本師釋迦牟尼佛	-10.4202
結縛	-10.4202
寫却	-10.4203
汝等菩提	-10.4203
為我宣說	-10.4203
迦樓羅	-10.4204
干	-10.4204
㪷	-10.4204
呵	-10.4204
育	-10.4204
囓	-10.4204
臥具	-10.4205
棖公	-10.4205
於一切眾生	-10.4206
無有一念	-10.4206
今身作師	-10.4206
劣	-10.4206
豆	-10.4206
亭	-10.4207
乃是	-10.4207
噓	-10.4207
檀越	-10.4207
梨	-10.4208
跡	-10.4209
鬪諍	-10.4209
俠	-10.4209
郡	-10.4209
啼	-10.4209
泣	-10.4209
橋	-10.4209
常樂我淨	-10.421
惡法	-10.421
悲啼	-10.421
煮	-10.4211
飲食衣服	-10.4211
參	-10.4211
城郭	-10.4211
天上人中	-10.4211
條	-10.4211
內外推求	-10.4211
非定有	-10.4211
居士	-10.4211
隸	-10.4211
深入	-10.4212
迫	-10.4212
不如有人一發善心	-10.4212
誡	-10.4212
船	-10.4213
庶	-10.4213
占	-10.4213
捻	-10.4213
商	-10.4213
上半正明	-10.4213
輕賤	-10.4214
掃	-10.4214
普照十方	-10.4214
殺戮	-10.4214
洛	-10.4215
爾時眾中有一菩薩	-10.4215
冥識菩薩摩訶薩	-10.4216
得阿那含道	-10.4216
棘	-10.4216
屈	-10.4216
一一毛孔	-10.4216
當得作佛	-10.4216
󰝟	-10.4217
影嚮	-10.4217
下劣	-10.4217
諍論	-10.4217
舒	-10.4217
欝	-10.4217
作是語已	-10.4218
八部大眾	-10.4218
截	-10.4218
一生補處	-10.4218
轉輪聖王	-10.4218
毀呰	-10.4218
五岳	-10.4218
入人舍	-10.4218
至梵天	-10.4219
疲	-10.4219
竊	-10.422
寶珠	-10.422
專精	-10.422
軀	-10.422
飾	-10.422
殃咎	-10.422
比校	-10.422
緊那羅	-10.4221
非色非	-10.4221
八萬劫中	-10.4221
還家	-10.4221
憑	-10.4221
嗔恚	-10.4221
無有能知	-10.4222
阿闍世王	-10.4222
辱	-10.4222
不虛	-10.4222
伊	-10.4223
以此證知	-10.4223
奔	-10.4223
換	-10.4223
統	-10.4224
馳	-10.4224
丹	-10.4224
曇	-10.4224
同聲白佛言	-10.4224
淵	-10.4224
絲	-10.4224
自今以後	-10.4224
糧食	-10.4225
滿阿鼻城	-10.4225
神仙	-10.4225
慶	-10.4226
嫉	-10.4226
心中憶念普賢菩薩	-10.4226
熊	-10.4226
嶮	-10.4226
熾	-10.4226
娑婆	-10.4226
曉	-10.4227
若人因禮拜	-10.4227
如實	-10.4228
首羅比丘	-10.4228
我心	-10.4228
某	-10.4228
敵	-10.4228
黨	-10.4228
屬諸因緣	-10.4228
春	-10.4228
寶王	-10.4229
若干	-10.4229
內著心中	-10.4229
幾	-10.4229
身口意業	-10.4229
寅	-10.4229
荒	-10.4229
般若波羅蜜	-10.423
燈明	-10.423
伺	-10.423
忘失	-10.423
杵	-10.423
沒溺	-10.423
豁然意解	-10.423
諸天宮殿	-10.4231
嗜	-10.4231
有三種	-10.4231
爾時世尊告諸大眾	-10.4231
一芥子	-10.4231
至心受持	-10.4231
稽	-10.4231
爾時山海慧菩薩	-10.4231
行五戒十善四禪	-10.4231
吸	-10.4232
良田	-10.4232
福德可	-10.4232
普洽	-10.4233
零	-10.4233
建立	-10.4233
當何名此經	-10.4233
苾芻苾芻尼	-10.4234
哽咽	-10.4234
天中天	-10.4234
漿	-10.4234
太陽真極	-10.4234
世尊所說	-10.4234
壬	-10.4234
得斯陀含	-10.4234
飲酒醉亂	-10.4234
餌	-10.4234
號哭	-10.4235
累劫	-10.4235
飛空	-10.4235
定光如來	-10.4235
命終生天	-10.4235
歡欣	-10.4235
迦葉波	-10.4235
魍魎	-10.4236
誑惑	-10.4236
除却	-10.4237
下火徹上	-10.4237
姿	-10.4237
偷盜	-10.4237
辰	-10.4237
貪瞋	-10.4238
願除無量劫以來	-10.4238
調御	-10.4238
醒	-10.4238
怕	-10.4238
娑羅雙樹間	-10.4238
瞻	-10.4238
永沈苦海	-10.4238
乾闥婆阿修羅	-10.4238
同流	-10.4239
垢淨	-10.4239
蟲	-10.4239
謗方等經	-10.424
竝	-10.424
讀此經三遍	-10.424
上火徹下	-10.424
油	-10.424
圓教	-10.424
卒	-10.424
蒙光	-10.4241
是故汝等	-10.4241
支節	-10.4241
因緣幻起	-10.4241
汝所問者	-10.4241
貪嗔癡	-10.4241
譯	-10.4241
初首	-10.4241
睡眠	-10.4241
引導	-10.4242
尸羅	-10.4242
聖教	-10.4242
輪迴六趣	-10.4242
東西南北	-10.4242
貪瞋癡	-10.4242
非諸聲聞緣覺	-10.4243
憧	-10.4243
知汝姓	-10.4243
千是萬非	-10.4243
迦難羅比丘	-10.4243
繼業	-10.4243
悟正菩薩摩訶薩	-10.4243
十地菩薩	-10.4243
應化	-10.4243
浩	-10.4243
是魔	-10.4244
刀兵	-10.4244
竪	-10.4244
一名	-10.4245
后	-10.4245
消伏	-10.4245
毛髮	-10.4245
貫	-10.4245
八種人	-10.4245
或見此處	-10.4245
皆由恭敬禮十方三世佛	-10.4245
盜賊	-10.4246
頂戴	-10.4246
束	-10.4246
送	-10.4246
卵	-10.4246
霜	-10.4246
滿月	-10.4246
行五戒十善四禪具	-10.4246
憂苦	-10.4246
亦復然	-10.4247
雜類	-10.4247
浮圖	-10.4247
此經名為	-10.4247
利物	-10.4247
施主	-10.4247
爪	-10.4247
值善知識	-10.4248
若於	-10.4248
屏處	-10.4248
休	-10.4249
惡夢	-10.4249
丈夫	-10.4249
尊貴	-10.4249
從緣生	-10.4249
次一偈明	-10.4249
擔	-10.4249
踊躍	-10.4249
磨滅	-10.4249
澄	-10.4249
牛頭	-10.425
權	-10.425
田作	-10.425
善行	-10.425
四諦	-10.425
根塵	-10.425
倒見	-10.425
稱揚	-10.4251
佛告混融菩薩摩訶薩	-10.4251
於未來世	-10.4251
斬截	-10.4251
雜毒	-10.4251
得幾	-10.4252
三十二瑞應	-10.4252
遇善知識	-10.4252
誦五十遍	-10.4252
往返	-10.4252
水行天子樹音天子	-10.4252
ィ	-10.4252
把	-10.4253
迷闇	-10.4253
軸	-10.4253
此三厨法	-10.4253
萬民	-10.4253
一切諸眾生	-10.4254
薛	-10.4254
婇女	-10.4254
逮	-10.4255
恨	-10.4255
若有智者	-10.4256
唯願世尊為我解說	-10.4256
勇猛菩薩摩訶薩	-10.4256
無有疑	-10.4256
一心奉行	-10.4256
〕-【	-10.4256
衣裳	-10.4256
消息	-10.4257
佛說是經時	-10.4257
拔苦	-10.4257
逍遙	-10.4257
》	-10.4257
初云	-10.4257
住於世	-10.4258
耳聽	-10.4259
眾生見之	-10.4259
復過此劫	-10.4259
唯除菩薩	-10.4259
猛火	-10.4259
大地震動	-10.426
五分法身	-10.426
凡夫身中具有八	-10.426
誑或	-10.4261
不肖	-10.4261
譬如一人	-10.4261
忿	-10.4262
南無佛陀	-10.4262
夷	-10.4262
弱水	-10.4262
延年益壽	-10.4262
殿前	-10.4262
振動	-10.4262
禽獸	-10.4262
我於爾時	-10.4263
以偈歎	-10.4263
等法性	-10.4263
香象	-10.4263
謂呼	-10.4264
義味	-10.4264
南無那羅延	-10.4264
影現	-10.4264
麗	-10.4264
定墮地獄	-10.4265
南無離垢	-10.4265
日月五星二十八宿	-10.4265
寶相佛言	-10.4265
血肉	-10.4265
懷慚愧	-10.4266
爾時佛告除疑大士	-10.4266
深廣	-10.4266
躍	-10.4267
西國	-10.4267
昨	-10.4267
一切眾生皆有佛性	-10.4268
樓觀	-10.4269
得受供養	-10.4269
引喻	-10.4269
𠥱	-10.4269
􄞢	-10.427
金棺	-10.427
諸鬼神王	-10.427
國王亦主	-10.427
幻化	-10.4271
境智	-10.4271
主一切	-10.4271
成等正覺	-10.4271
四道	-10.4271
翻此八	-10.4272
寶幢	-10.4272
羅網	-10.4274
忽然至	-10.4274
千尺	-10.4274
猶亦不如有人能斷酒肉	-10.4274
陰陽	-10.4274
無量壽佛	-10.4275
頭破作七分如阿梨樹枝	-10.4275
作如是問	-10.4276
修梵行	-10.4276
蒸	-10.4278
南無百億	-10.4279
復以此經	-10.4279
為眾生說法	-10.428
汝等離	-10.428
本覺	-10.4281
結願	-10.4281
或取人	-10.4283
三萬	-10.4283
是邪	-10.4284
譬如有人依	-10.4284
不畏	-10.4285
十二入	-10.4285
若有女人	-10.4285
生一男	-10.4285
受持經人	-10.4285
執著	-10.4286
邊作	-10.4286
甚善	-10.4288
一千同號	-10.4288
風起	-10.4289
心相續	-10.4289
水災	-10.4289
長短	-10.429
心如	-10.4291
善知識者亦復如是	-10.4293
所護	-10.4293
佛法僧	-10.4293
長壽	-10.4293
為生子	-10.4294
來聽法	-10.4295
人貴	-10.4295
愚夫	-10.4295
同異	-10.4296
遠來	-10.4297
如海令	-10.4298
棄捨	-10.4299
地獄第十	-10.4299
爾乃	-10.4302
所有功德	-10.4302
億像	-10.4302
三障	-10.4302
腹中	-10.4304
修多羅	-10.4307
智度論	-10.4308
始從	-10.4308
行此法	-10.4308
光音天	-10.4309
其印	-10.4309
執持	-10.431
從座	-10.4312
二諦	-10.4312
自致	-10.4312
僧尼	-10.4315
不傳	-10.4316
十八地獄	-10.4317
火車地獄	-10.4318
爾時彌勒	-10.4319
盧舍那	-10.432
藏識	-10.432
復有無量	-10.4324
未聞	-10.4326
來集	-10.4326
人所	-10.4327
說經法	-10.4327
若說	-10.4328
誓願	-10.433
非斷	-10.4331
僧藏	-10.4333
取用	-10.4335
百歲於	-10.4335
號為	-10.4336
莫知	-10.4337
轉法輪	-10.4337
翳	-10.4339
寫此經	-10.4339
值遇	-10.4339
各自	-10.4339
受教	-10.434
解義	-10.4341
散亂	-10.4342
下第三	-10.4342
邪正	-10.4343
證信	-10.4344
藥叉	-10.4344
南無無上	-10.4344
所造	-10.4346
悲心	-10.4347
奉法	-10.4347
不閑	-10.4347
重病	-10.435
實非	-10.4351
太山崩	-10.4352
所不能	-10.4354
不調	-10.4356
無作解脫	-10.4356
悔心	-10.436
正是	-10.436
是世間	-10.4363
不會	-10.4366
與諸	-10.4366
其數	-10.4367
書寫讀誦	-10.4368
淨天	-10.437
雖與	-10.4371
小弱	-10.4375
其所	-10.4377
皆自然	-10.4379
舉手	-10.4382
說其意	-10.4383
觀察	-10.4385
低頭	-10.4389
此呪	-10.4399
無等等	-10.44
苦樂	-10.4401
吾見	-10.4403
以是因緣故	-10.4405
眾生佛性	-10.4405
出家人	-10.4405
為眾	-10.4406
最為	-10.4408
壽五百	-10.4409
無色界	-10.4413
未來世	-10.4414
同前	-10.4415
如是不可思議	-10.4417
未能	-10.4417
說涅槃	-10.4417
死人	-10.4418
千萬劫	-10.4418
或欲	-10.442
種種方便	-10.442
三惡道	-10.4422
更觀	-10.4423
意識	-10.4423
在地	-10.4423
行菩薩道	-10.4426
於一切法	-10.4426
聖心	-10.443
除其	-10.4431
猶如一	-10.4433
非實	-10.4433
己身	-10.4433
符之後	-10.4435
惡處	-10.4437
散花	-10.4439
過惡	-10.444
復告常施菩薩	-10.444
汝等眾生	-10.4442
諸徒眾	-10.4442
皆一心	-10.4445
1	-10.4446
無數劫	-10.4446
食子	-10.4449
法力	-10.445
處天	-10.4451
覆蓋	-10.4453
斷壞	-10.4455
思見	-10.4456
念處	-10.4456
萬五千	-10.4465
打罵	-10.4467
大願	-10.4467
師子遊戲	-10.4469
天人師	-10.447
眼所見	-10.4471
人形	-10.4473
有九	-10.4474
由有	-10.4475
能壞	-10.4477
使我	-10.4478
出於世	-10.4481
業所	-10.4483
大好	-10.4486
如來藏	-10.4489
背正	-10.4493
令其	-10.4497
千鐵圍山高至第	-10.4502
彼時	-10.4505
愛欲	-10.4507
常起	-10.4511
圍遶	-10.4512
黑闇地獄	-10.4513
萬萬	-10.4516
無戒	-10.4519
大國王	-10.452
心王菩薩	-10.4521
空理	-10.4521
相應	-10.4525
護法	-10.4526
為體	-10.4529
若欲求	-10.4529
善業	-10.4537
道者	-10.4537
來歸	-10.4538
殺害	-10.454
即不生	-10.4544
自裁	-10.4547
真珠	-10.4547
入已	-10.4551
去離	-10.4552
身天	-10.4555
心無形	-10.4557
此呪者	-10.4557
值我	-10.4559
千世界	-10.456
厄難	-10.4564
修持	-10.4569
大慈悲	-10.4569
世俗	-10.4574
倒	-10.4575
其福甚	-10.4575
以後	-10.4576
度一切	-10.4576
天名梵	-10.4583
並悉	-10.4583
專求	-10.4584
中品	-10.4584
之頃	-10.4584
至涅槃	-10.4587
恒為	-10.4591
觀智	-10.4594
緣是	-10.4594
授	-10.4598
求福	-10.4599
天名	-10.4602
無形	-10.4608
佛說經	-10.4609
欲作	-10.4613
集在	-10.4614
永斷	-10.4614
天眾	-10.4617
法王菩薩	-10.4619
常明	-10.4621
不來	-10.4623
莫令	-10.4628
競起	-10.4635
願皆	-10.4636
欲知	-10.4637
作惡業	-10.4639
遍觀	-10.464
流布此經	-10.4642
上來	-10.4645
無量阿僧祇	-10.4646
南無功德	-10.4659
亡失財	-10.4662
或以	-10.4666
如前	-10.4667
人多	-10.4672
大精進	-10.4673
夢中	-10.4673
坐者	-10.4679
般涅槃	-10.468
色身	-10.4691
清淨處	-10.4694
塵勞	-10.4696
悉知	-10.4696
無愧	-10.4701
如似	-10.4701
為汝說	-10.4704
虛凝	-10.4707
師所	-10.4708
為天	-10.4714
及此	-10.4715
百二十	-10.4719
兩舌	-10.4726
聲聞弟子	-10.4728
大涅槃	-10.4739
受持是經者	-10.4743
而能	-10.4743
樓秦佛	-10.4746
食肉者墮	-10.4747
以水	-10.4762
時至	-10.4768
如是願	-10.4773
符厭	-10.4777
者正念	-10.4781
佛現在	-10.4782
栴檀香	-10.479
住在	-10.4792
兩目	-10.4792
莫造	-10.4796
非他	-10.4809
如是種種	-10.4814
群盲	-10.4815
利眾生	-10.4819
佛在世	-10.4821
手菩薩	-10.4822
譬如有人身	-10.4829
見無量佛	-10.483
一石	-10.483
作是	-10.4832
吾當為汝說	-10.4833
餘人	-10.4834
無有異	-10.4847
出世間	-10.4847
深淺	-10.4851
湛然	-10.4854
陀羅尼神呪	-10.4861
得往生	-10.4861
如空	-10.4871
不免	-10.4873
若名字	-10.4874
謂為	-10.4875
炬	-10.4878
世尊說	-10.488
無生滅	-10.488
如來所說	-10.4881
此皆	-10.4881
此身	-10.4885
無對	-10.4886
者死墮	-10.4888
是則	-10.4892
不可度量	-10.4892
慈父	-10.4893
為無	-10.4897
三災	-10.4897
及善知識	-10.4903
若求	-10.4909
真實法	-10.4912
▁爾時	-10.4916
六親	-10.4918
色力	-10.492
南無明	-10.4933
何謂	-10.4934
崩	-10.4934
如幻如	-10.4947
知有	-10.4952
皆獲	-10.4954
言語	-10.496
六通	-10.4961
熱惱	-10.4962
諸邪見	-10.4973
護三寶	-10.4974
當為	-10.4976
醉	-10.4976
俱空	-10.4981
那羅	-10.4983
復無	-10.4993
未曾有	-10.4995
最清淨	-10.4995
無量世界	-10.4997
互相	-10.4997
若其	-10.5007
妙花	-10.5012
療	-10.502
得是	-10.5025
性力	-10.5042
今已	-10.505
貌	-10.505
能破	-10.5051
心定	-10.5055
南無上	-10.5055
離於	-10.5055
修行菩提	-10.5055
願悉得	-10.5058
來食魅人	-10.5062
滅之	-10.5064
為首	-10.507
雖聞	-10.5076
之令	-10.5076
大菩薩眾	-10.5084
間無	-10.5088
寶樹	-10.509
如大地	-10.5093
利他	-10.5098
所解	-10.5107
有苦	-10.5108
不持	-10.5109
殺父母	-10.5111
除疑	-10.5117
不自	-10.5119
百里	-10.5125
無疑	-10.5125
用寂	-10.5129
希有之	-10.5131
著地	-10.5133
故能	-10.5139
諸苾芻	-10.5156
功德故	-10.5164
無難	-10.5171
修集	-10.5175
心者	-10.5175
人能	-10.5179
無根	-10.5186
一切眾生若	-10.5188
分別名為	-10.5194
空故	-10.5202
說無	-10.5202
信樂	-10.5206
正心	-10.5216
乘者	-10.522
以方便	-10.5224
爾時世尊告	-10.5225
決定說	-10.5227
入定	-10.5229
聞佛	-10.523
發慈心	-10.5231
自言	-10.5233
是何	-10.5248
一如	-10.5253
若離	-10.5253
貪欲	-10.5271
其上	-10.5275
飲之	-10.5276
心王	-10.5281
其事	-10.5282
有病	-10.5286
從本已來	-10.53
言無	-10.5309
諸弟子	-10.5316
誦此經	-10.5326
無所依	-10.534
金師	-10.5349
何者是	-10.5363
得之	-10.5367
眾邪	-10.5373
清淨信	-10.5383
焰	-10.5387
若是	-10.5405
自高	-10.5415
一枚	-10.5416
持齋戒	-10.5417
一遍	-10.5419
一分	-10.5422
即是法	-10.5423
如何	-10.5425
於地	-10.5434
十四者	-10.5435
生誹謗	-10.5444
囑	-10.5447
教命	-10.5449
其母	-10.5454
萬倍	-10.5458
常見	-10.5463
我所	-10.5468
至十	-10.5483
自知	-10.5485
僧物	-10.5486
破煩惱	-10.5491
鎧仗	-10.5495
同一	-10.5501
一切眾生身是	-10.5507
護念	-10.5512
於諸眾生	-10.5513
見也	-10.5515
我能	-10.5519
則名	-10.5521
不散	-10.5523
敬三寶	-10.5526
波浪	-10.5544
諸國土	-10.5546
真理	-10.5548
從何	-10.5555
佛國	-10.5566
不熱	-10.5573
戒者	-10.5594
大弟子	-10.5597
若聞	-10.56
作食	-10.5601
誰能	-10.5603
願我	-10.5608
必作	-10.5612
行法	-10.5614
性命	-10.5619
謗正法	-10.5621
僧中	-10.5626
爾時佛告	-10.563
使者	-10.5638
者即是	-10.5642
瑞應	-10.5643
非為	-10.5643
驢	-10.5644
二俱	-10.5644
不自名	-10.5648
常施菩薩	-10.5651
其志	-10.5652
如水	-10.5656
悉是	-10.5668
為害	-10.5675
之力	-10.5676
若與	-10.5685
未來眾生	-10.5686
自無	-10.5687
南來	-10.5689
無主	-10.5689
緣動	-10.5704
諸世間	-10.5706
佛果	-10.5714
說於	-10.5716
若生	-10.5717
諸山	-10.5723
作大	-10.5727
有離	-10.5731
百味	-10.5731
日闇	-10.5735
無有二	-10.5736
得惺悟	-10.5739
於俗	-10.574
劫不	-10.5747
有如是	-10.5753
雖未	-10.5769
受持三歸五戒	-10.577
者喻	-10.577
唯佛	-10.5783
具相	-10.5788
為我說之	-10.5794
其光	-10.5798
願世尊	-10.5804
本是	-10.5813
月光菩薩	-10.5814
色像	-10.5814
所欲	-10.5832
云何有	-10.5834
勸諸	-10.5837
魔外道	-10.5837
常處於	-10.5847
悉不	-10.5848
調適	-10.5855
有佛性	-10.5857
斤	-10.5858
勸修	-10.5859
寸	-10.5859
與之	-10.5866
之形	-10.5875
之行	-10.5877
樹王	-10.5881
天龍	-10.5881
一根	-10.5884
則生	-10.5884
名聞	-10.5891
心亂	-10.5892
業者	-10.5896
未知	-10.59
窮盡	-10.59
不可見	-10.5904
一切皆	-10.5907
在下	-10.5908
自恣	-10.5909
法軌	-10.5909
不念	-10.5913
於僧	-10.592
爾時眾中	-10.5925
力菩薩	-10.5929
以淨	-10.5929
無量劫	-10.5936
其功德	-10.5936
獲福	-10.5939
其口	-10.5942
不止	-10.5948
還能	-10.5951
得見佛	-10.5962
汝之所	-10.5968
空相	-10.5971
子者	-10.5971
聞佛說	-10.5988
惡趣	-10.6004
不食	-10.6004
本心	-10.6008
針	-10.6026
現在諸佛	-10.6031
中害	-10.6043
坐臥	-10.6048
寂照	-10.6051
善友功力	-10.6055
佛因	-10.606
珠光	-10.6062
百國	-10.6077
有數	-10.6077
莊嚴佛	-10.6081
惡身	-10.6089
此三	-10.6094
其理	-10.6098
止住	-10.6104
不殺	-10.6117
得菩提	-10.6117
多人	-10.6128
貪佛	-10.6131
分別是	-10.6143
得涅槃	-10.6151
而此	-10.6152
若有比丘	-10.6154
近善友	-10.6167
修持十善	-10.6172
生歡喜	-10.6178
眾苦	-10.6179
須彌山王	-10.6181
演	-10.6181
常使	-10.6194
父母者	-10.62
見此	-10.6202
經一卷	-10.6203
即菩提	-10.6206
阿彌陀	-10.6221
之來	-10.6223
修觀	-10.623
是菩薩行	-10.6239
皆各	-10.6239
善師	-10.6247
如是苾芻	-10.6249
使汝	-10.6254
餘緣	-10.6254
功德無量無邊不可思議	-10.626
如是諸	-10.6261
八風	-10.6263
億歲	-10.6271
諸佛之	-10.6274
說法度	-10.6274
本緣	-10.6282
墮畜生	-10.6283
山神	-10.6291
皆盡	-10.6295
之相	-10.6297
得生天	-10.6301
無地	-10.6307
十方各有	-10.6311
音樂	-10.6312
於諸法	-10.6313
聰	-10.6328
空王佛	-10.6331
合成	-10.6332
捨身命	-10.6334
告諸	-10.6341
及作	-10.6343
動轉	-10.6344
升	-10.6348
會當	-10.635
不住心	-10.6355
服一	-10.6366
電	-10.6372
等者	-10.6372
獲大	-10.6374
與心	-10.6378
如起	-10.6382
獸	-10.6393
并諸	-10.6397
眾會	-10.6407
人中	-10.6416
十七者	-10.6418
福者	-10.6426
魔事	-10.6426
諸女	-10.6431
實也	-10.6441
南無不	-10.6447
能行	-10.6447
心住	-10.6453
後復	-10.6453
等諸法	-10.6456
在其	-10.6462
從本	-10.6466
南無一	-10.6467
昔日	-10.647
悉能	-10.6476
中宮	-10.6484
寶明菩薩	-10.6485
現身	-10.6487
佛光	-10.6493
墮於	-10.6509
止不	-10.6512
為色	-10.6514
寶華	-10.6515
空慧	-10.6524
初正	-10.6529
大光明	-10.653
食魅人	-10.6534
正信	-10.6534
以用	-10.6535
說為	-10.6536
相貌	-10.654
謬	-10.654
為己	-10.6541
防護	-10.6544
世尊云何	-10.6552
人身命	-10.6552
廣度	-10.6554
恒在	-10.6556
默念	-10.6563
故有	-10.6565
毀謗	-10.6584
雲集	-10.6584
又如	-10.6594
得住	-10.6602
難可得	-10.6605
為利	-10.6607
勝王佛	-10.6607
恃	-10.6624
於此經中	-10.6625
甘露	-10.6628
擲	-10.6632
則非	-10.6637
退轉	-10.6656
救度眾生	-10.6664
諸有	-10.6666
四維	-10.6666
從生	-10.6678
十指	-10.668
師教	-10.6681
現有	-10.6682
二十五菩薩	-10.6692
誦此	-10.6694
自空	-10.6695
於眾生	-10.67
如夢	-10.6703
懈	-10.6717
其實	-10.6724
會中	-10.6725
若遇	-10.6733
敬是經	-10.6738
常生	-10.676
南無琉璃	-10.676
同號	-10.6762
度量	-10.6767
大河	-10.6775
端正	-10.6781
處生死	-10.6782
在會	-10.6793
及所	-10.6793
十五者	-10.68
三昧起入	-10.6805
山下	-10.6808
是諸比丘	-10.6817
兜率	-10.6822
欲滅	-10.6824
如意	-10.683
增減	-10.6838
七珍	-10.6854
所持	-10.6855
畜	-10.6857
雖在	-10.6861
分身諸	-10.6865
自在王如來	-10.6874
我亦	-10.6875
不亂	-10.6877
呪術	-10.6882
漂	-10.6884
却坐	-10.6885
說三	-10.6885
摩訶薩	-10.6893
彌勒佛	-10.6896
即不	-10.6899
死生	-10.6903
人壽	-10.6904
南無栴檀	-10.6904
又觀	-10.6905
八識	-10.6907
我及	-10.6914
先無	-10.6914
但見	-10.6918
佛教	-10.6926
復令	-10.6928
念往昔	-10.6944
而以	-10.6948
至道	-10.6955
三月	-10.6955
生離	-10.6959
人心	-10.696
一大城	-10.6963
而說	-10.6968
普照一切	-10.6976
亦滅	-10.6978
唯見	-10.698
四十萬	-10.698
若受	-10.6984
隨我	-10.6985
下盡	-10.6987
如故	-10.6991
受其	-10.6993
汝問	-10.6995
多羅	-10.6997
神明	-10.7001
火光	-10.7009
佛智	-10.701
者夢	-10.7023
生於	-10.7032
爾時大眾	-10.7038
神變	-10.7049
禮拜供養	-10.7052
盲聾	-10.7063
無憂	-10.7065
眼菩薩	-10.7075
若起	-10.7079
作功德	-10.708
以通	-10.708
天衣	-10.7081
性本	-10.7083
此無上	-10.7085
九十遍	-10.7087
無礙智	-10.7089
南無十	-10.7092
魅人	-10.7095
得成	-10.7097
實不可	-10.71
以自性	-10.7124
性天真	-10.7126
匿	-10.7132
手把	-10.7133
法句	-10.7137
無量無邊眾生	-10.7138
無畏	-10.714
借	-10.7143
乃成	-10.7145
大城	-10.7146
一實	-10.7148
』	-10.7148
持戒者	-10.7152
教授	-10.7156
外有	-10.7163
實不	-10.7164
非我	-10.7173
造過	-10.7175
有漏	-10.7185
瑜伽	-10.7191
常淨	-10.7192
爾時世尊復	-10.7192
無病	-10.7194
為人說	-10.7201
勸人	-10.7203
不思議	-10.7204
頂受	-10.7204
憎	-10.7204
從意	-10.7206
敢發問	-10.7213
八萬四千徒眾	-10.7214
山海慧	-10.7219
今明	-10.7221
涌出	-10.7229
作五逆	-10.7232
若一	-10.7236
為諸	-10.7239
歸家	-10.7257
不樂	-10.7258
空處	-10.7261
歌舞	-10.7263
得活	-10.7275
性理	-10.7277
即病	-10.729
所得功德	-10.7296
所受	-10.7302
是如如說	-10.7302
六萬	-10.7303
訕謗	-10.7306
同塵	-10.7317
天宮	-10.7321
文相	-10.7322
妙華	-10.7325
信順	-10.7328
有所	-10.7328
即不可說	-10.7342
臍	-10.7342
心起	-10.7342
閑	-10.7343
懺	-10.7346
從空	-10.7348
代	-10.7357
有十八	-10.736
與此	-10.7366
有七	-10.7368
潔	-10.7375
無上正真	-10.7375
三千	-10.7379
告言	-10.738
係念	-10.7381
獲益	-10.7385
無想	-10.7387
日日禮	-10.7388
自有	-10.7397
斷諸	-10.7404
二萬	-10.7406
心滅	-10.7408
手摩	-10.7409
販賣	-10.7411
鑊湯	-10.7415
兼	-10.7417
虛空藏菩薩	-10.7417
癩	-10.7425
功力	-10.7426
龍神八部	-10.7428
我為	-10.743
政	-10.7433
中出	-10.7436
欲向	-10.7438
明淨	-10.7438
豈得	-10.7438
寶衣	-10.7439
墜落	-10.744
昔來	-10.744
自下第二	-10.7443
不退	-10.7453
父母兄弟	-10.7457
為大眾	-10.7458
慧方便	-10.7458
阿彌陀國	-10.7464
便生	-10.7464
地獄受苦	-10.7465
憍	-10.7467
皆發	-10.747
鬲	-10.7471
兩䝱	-10.7472
醫	-10.7473
乃自然	-10.7476
泡	-10.7476
寒氷地獄	-10.7476
學人	-10.7477
力應求	-10.7479
若行	-10.7479
開闡	-10.7483
福德力	-10.7483
薩埵	-10.7485
恐懼	-10.7486
案	-10.7486
法藥	-10.7487
以是故名佛	-10.7488
場	-10.7489
解脫知見	-10.7489
唇	-10.749
須彌山東	-10.749
生大	-10.7491
空無相	-10.7491
十萬	-10.7491
震	-10.7493
緣諸境	-10.7494
不食酒肉	-10.7494
埋	-10.7494
稅	-10.7495
水泡	-10.7495
炎摩天	-10.7495
闕	-10.7495
陵	-10.7498
妬	-10.7498
提頭賴吒	-10.7499
牒	-10.7501
梳	-10.7503
標	-10.7503
周圍	-10.7503
飢餓	-10.7504
献	-10.7504
弟	-10.7507
譬如有人造純	-10.7508
鼠	-10.7509
故知無性	-10.7509
無量音	-10.7509
總結	-10.751
婆伽婆	-10.751
未嘗	-10.751
多者教以	-10.7511
成已	-10.7512
阿閦	-10.7512
快哉	-10.7512
又莫更	-10.7512
爵位	-10.7512
簡擇	-10.7513
醜陋	-10.7514
嬰兒	-10.7514
殄	-10.7514
情貪	-10.7514
貧窮乞人	-10.7514
求覓	-10.7515
頑	-10.7515
百千萬億	-10.7516
若有具犯四重	-10.7516
無因無果	-10.7516
云何可報	-10.7516
上有	-10.7516
單	-10.7517
須彌山西	-10.7517
八陽經	-10.7518
受二百五十戒	-10.7518
然後得出	-10.7518
婬妷	-10.752
斧	-10.752
安般	-10.752
性用心	-10.752
三人	-10.752
住一劫	-10.7521
渧	-10.7521
不令惡人侵	-10.7521
佛世界所有珍寶	-10.7521
正習內	-10.7521
逝	-10.7521
辛	-10.7522
狸	-10.7522
瘂	-10.7522
廻向	-10.7522
如此人等	-10.7523
佛告文殊	-10.7523
五穀	-10.7523
迹	-10.7523
狹	-10.7524
腦	-10.7524
偕偶	-10.7524
湯藥	-10.7524
詐偽	-10.7524
心用性	-10.7524
五種	-10.7525
沸屎地獄	-10.7525
嫉姤	-10.7525
側塞	-10.7525
說真	-10.7525
湛	-10.7525
青黃	-10.7526
顧	-10.7526
善巧方便	-10.7526
園林	-10.7527
素	-10.7528
宿罪所追	-10.7528
幡蓋	-10.7528
介	-10.7528
友	-10.7529
帛	-10.7529
冠	-10.7529
右膝著地	-10.7529
海龍王	-10.753
荷負	-10.753
護惜	-10.753
心即是病	-10.753
存志	-10.753
毀禁	-10.753
佛性真金	-10.753
猪羊	-10.7531
妾	-10.7531
諭	-10.7531
大乘人	-10.7531
仗	-10.7531
旋	-10.7531
筋骨	-10.7532
灰河地獄	-10.7532
得阿耨菩提	-10.7532
啼泣	-10.7532
過去未來現在諸佛	-10.7532
酬	-10.7532
而殖	-10.7532
除疑大士	-10.7532
積聚	-10.7533
遭遇	-10.7533
顛	-10.7533
毛孔	-10.7533
栖	-10.7533
惡疾重病	-10.7534
凶	-10.7534
不豫	-10.7534
規	-10.7535
突吉羅	-10.7536
起信論	-10.7536
辛苦	-10.7536
彌輪	-10.7536
瑟	-10.7536
矚	-10.7536
賴	-10.7536
鄉	-10.7536
去蜂	-10.7536
騰	-10.7536
功德無量無邊	-10.7536
至彼岸	-10.7536
客塵煩惱	-10.7536
何用布施	-10.7536
破戒五逆	-10.7536
四面一時	-10.7536
折伏	-10.7537
青白	-10.7537
纔	-10.7537
若有眾生入寺之時	-10.7537
世間死尸	-10.7537
耳聾	-10.7538
雨寶蓮華	-10.7538
正衣服	-10.7538
繫閉	-10.7539
遍法界	-10.7539
慈孝	-10.7539
崑	-10.7539
崙	-10.7539
噉僧食	-10.7539
本性清淨	-10.7539
法性法身	-10.7539
床地獄	-10.754
求出世	-10.754
牛羊	-10.754
三歸五戒	-10.754
犯四重	-10.754
婢	-10.754
遞相	-10.754
隨逐	-10.754
髓	-10.754
了達諸法	-10.754
萌牙	-10.754
南無佛陀南無達摩南無僧伽	-10.7541
我於處處經中說	-10.7541
恚怒	-10.7541
練	-10.7541
日夜六時	-10.7541
當來之世	-10.7541
不欲是其	-10.7541
持火燒之	-10.7541
從初成道乃至	-10.7541
斯陀含	-10.7541
設會	-10.7542
百千萬劫	-10.7542
飲銅地獄	-10.7542
萬惡之所	-10.7542
句偈	-10.7542
俗官	-10.7543
突	-10.7543
若有退落	-10.7543
生大歡喜	-10.7543
逋慢	-10.7543
本來空寂	-10.7543
多端	-10.7543
不觀他	-10.7543
自下大文第二	-10.7543
一切眾生身內	-10.7543
銅柱地獄	-10.7544
色受想行識	-10.7544
施功	-10.7544
眼住於內	-10.7544
潰	-10.7544
片	-10.7545
心無形質	-10.7545
閉塞	-10.7545
七重城內	-10.7545
唯願仁者	-10.7545
拍	-10.7545
降伏諸魔	-10.7545
滑	-10.7545
自利德	-10.7545
赫	-10.7545
混	-10.7545
川	-10.7546
親友	-10.7546
混沌	-10.7546
茂	-10.7546
秦	-10.7546
煎	-10.7546
瞻視	-10.7546
優	-10.7547
摩睺羅伽	-10.7547
鸚鵡	-10.7547
首楞嚴三昧	-10.7547
押	-10.7547
領納	-10.7547
疾妬	-10.7547
乘定國師子	-10.7547
務	-10.7547
為人演說	-10.7547
繩墨	-10.7547
狐疑	-10.7548
專欲	-10.7548
佉	-10.7548
孫	-10.7549
催	-10.7549
綺語	-10.7549
悲哭	-10.7549
欲有所問	-10.7549
慾	-10.7549
出大音聲	-10.7549
四毒蛇	-10.7549
蠢	-10.7549
珍	-10.7549
嬰	-10.755
忖	-10.755
善見王子三千人	-10.755
金剛力士	-10.755
檀波羅蜜	-10.755
身光尋滅	-10.755
以佛神力	-10.755
召有緣	-10.755
歌	-10.7551
非定一	-10.7551
虔	-10.7551
􅶑	-10.7551
依友	-10.7551
血流	-10.7551
事友	-10.7551
栰樹	-10.7551
其下有	-10.7551
勅聽	-10.7551
如來僧寶眾	-10.7551
妃	-10.7551
虛通無礙	-10.7551
之為實	-10.7551
忻	-10.7552
五百同號	-10.7552
尖石地獄	-10.7552
彼土人民	-10.7552
行此行	-10.7552
裸	-10.7552
輸	-10.7553
五辛	-10.7553
創	-10.7553
貪善棄惡	-10.7553
踐	-10.7553
猛狗	-10.7553
頭目髓腦	-10.7553
庫藏	-10.7553
財富	-10.7553
天厨名字	-10.7553
名字空	-10.7553
常住僧物	-10.7554
從地踊出	-10.7554
凍	-10.7554
腐	-10.7554
淨持戒行	-10.7554
而披法服	-10.7554
焚	-10.7554
雖是凡夫	-10.7554
語已	-10.7554
雙泯	-10.7554
翼	-10.7555
千數至千	-10.7555
朱	-10.7555
善女人等	-10.7555
滿中珍寶	-10.7555
不可為無	-10.7555
及其覺	-10.7555
投海	-10.7555
訶那訶那	-10.7555
險	-10.7556
刑	-10.7556
那羅延	-10.7556
得無生忍	-10.7556
陸地	-10.7557
踏	-10.7557
疽	-10.7557
順教修行	-10.7557
喜悅	-10.7557
千差	-10.7557
白淨天中	-10.7557
蓬	-10.7557
破眾生愚癡之	-10.7557
天中尊	-10.7557
牛馬	-10.7558
若無所得	-10.7558
伽陀	-10.7558
吐毒	-10.7558
往古來今	-10.7558
於虛空中	-10.7558
諮請	-10.7558
拂	-10.7558
兔角	-10.7559
闇鈍	-10.7559
郭	-10.7559
飛鳥	-10.7559
我見樹	-10.7559
橫增我見	-10.7559
隱覆	-10.7559
順順於	-10.7559
能消	-10.7559
五逆罪	-10.7559
憐愍眾生	-10.7559
觀佛	-10.7559
濩湯	-10.7559
行住坐臥	-10.7559
存志功德	-10.756
譬喻	-10.756
法時	-10.756
悴	-10.756
懃流布此經	-10.7561
滅於諸行	-10.7561
潤益	-10.7561
憂愁	-10.7561
刀劍	-10.7561
得生其中	-10.7561
混融菩薩摩訶薩	-10.7561
等觀菩薩	-10.7561
垢穢	-10.7562
持佛身	-10.7562
調順	-10.7562
哉	-10.7562
無簡擇故	-10.7562
安居	-10.7562
好醜	-10.7562
奧	-10.7562
時長者子即	-10.7562
魂魄	-10.7562
滿足	-10.7563
赦	-10.7563
人身難得	-10.7563
台	-10.7563
緊	-10.7563
猨猴	-10.7563
及以三千人	-10.7563
波羅提木叉大藏	-10.7563
尋教會理	-10.7563
心開意解	-10.7563
挽拔	-10.7563
次作第	-10.7563
玉	-10.7564
工	-10.7564
疋	-10.7564
外道六師	-10.7564
毒龍	-10.7564
下約	-10.7564
生生之處	-10.7564
箜篌	-10.7564
鄔波索迦	-10.7564
吞熱鐵丸	-10.7564
憐愍眾生故	-10.7564
毒氣	-10.7564
無慈悲者	-10.7564
牢獄	-10.7564
遊於三界	-10.7564
遍滿虛空	-10.7564
輕微	-10.7564
亦復不	-10.7564
獼猴	-10.7565
為大	-10.7565
本際	-10.7565
兩足	-10.7565
筆	-10.7565
隱顯	-10.7565
渠	-10.7565
般若波羅蜜大藏	-10.7565
鄔波	-10.7565
於三處中	-10.7565
能翻一切惡為一切善	-10.7565
汝今應當	-10.7566
覆護	-10.7566
死尸	-10.7566
寶蓮花	-10.7566
鵝鴨	-10.7566
社	-10.7566
粉	-10.7566
􂌤	-10.7566
澄清	-10.7566
復有八萬四千	-10.7567
彼土	-10.7567
十九者世世	-10.7567
株	-10.7567
修多羅大藏	-10.7567
房舍	-10.7567
普覆	-10.7567
暴	-10.7567
胡跪合掌	-10.7567
踴	-10.7567
屏	-10.7567
偏袒右肩	-10.7568
演出	-10.7568
怙	-10.7568
局教經文	-10.7568
所作眾罪	-10.7568
海陵	-10.7568
爾時文殊師利菩薩重白釋迦牟尼佛	-10.7568
釋提桓因	-10.7568
婚	-10.7568
須彌山北	-10.7569
金翅鳥	-10.7569
狐狼	-10.7569
神符	-10.7569
名薩婆若	-10.7569
於是普光莊嚴菩薩	-10.7569
耽	-10.7569
受天尊教	-10.757
地獄餓鬼	-10.757
營	-10.757
廣度一切	-10.757
梟	-10.757
煙	-10.757
真實佛性	-10.757
候	-10.757
株杌	-10.757
君子國	-10.757
若見有人	-10.757
零宅	-10.757
似如	-10.7571
四輩弟子	-10.7571
棒	-10.7571
試	-10.7571
七日七夜	-10.7571
作佛形像	-10.7571
一切明呪	-10.7572
姊	-10.7572
㨶	-10.7572
判	-10.7572
汁	-10.7572
香熏	-10.7572
八邪之所牽	-10.7572
說是語已	-10.7572
流布是經	-10.7572
謂之生	-10.7572
順便	-10.7572
千二百	-10.7572
自己身	-10.7573
司	-10.7573
夭	-10.7573
廁	-10.7573
諦觀	-10.7573
簷	-10.7573
即入三昧	-10.7573
伏藏	-10.7573
如來清淨眾	-10.7573
弘誓	-10.7573
若教他作	-10.7573
五十遍	-10.7574
自觀身	-10.7574
甚重	-10.7574
色亦如是	-10.7574
色不自名	-10.7574
勸捨著	-10.7574
從何方來	-10.7574
他化自在天	-10.7574
瓮	-10.7574
模	-10.7574
寺廟	-10.7574
㵱	-10.7574
苗稼	-10.7574
述	-10.7574
一句一偈	-10.7574
天中	-10.7574
童子	-10.7575
御	-10.7575
唾	-10.7575
如甘露	-10.7575
南無寶印	-10.7575
善寂月音	-10.7575
大坑	-10.7575
寶蓋照空	-10.7575
灌	-10.7575
末代	-10.7576
懃精進	-10.7576
猫	-10.7576
厭離	-10.7576
心心相續	-10.7576
我聞是已	-10.7576
香水	-10.7576
琢	-10.7576
精神	-10.7576
秀	-10.7576
南無總持	-10.7576
成萬斛	-10.7576
空夜叉	-10.7576
阿梨耶龍	-10.7576
此土	-10.7576
生在人中	-10.7576
釋迦涅槃後	-10.7576
償	-10.7576
立塔	-10.7577
世尊我等	-10.7577
下至風	-10.7577
初一日	-10.7577
本坐	-10.7577
說是如如說	-10.7577
擇	-10.7577
旦	-10.7577
染污	-10.7577
吼	-10.7577
漫	-10.7577
銷	-10.7577
卿	-10.7578
嗅	-10.7578
不能吹動	-10.7578
備受眾苦	-10.7578
無量比丘斷	-10.7578
腋	-10.7578
例	-10.7578
鳳凰	-10.7578
次別	-10.7578
爾時常施菩薩	-10.7578
脇	-10.7578
豆留	-10.7578
齋訖	-10.7578
狐王	-10.7578
癡愛	-10.7578
雀梨浮圖	-10.7578
莖	-10.7579
一切聖眾	-10.7579
於善於惡不生分別	-10.7579
總成	-10.7579
不知何者是	-10.7579
採	-10.7579
清潔	-10.7579
無價	-10.7579
如所言	-10.758
椒	-10.758
渴仰	-10.758
炬照	-10.758
舍宅	-10.758
膊	-10.758
諸天伎樂	-10.758
爾時迦難羅比丘	-10.758
鉢受成萬斛	-10.758
獨處	-10.758
祥	-10.758
娑羅	-10.758
給孤獨園	-10.7581
不如聞此經名	-10.7581
狂亂	-10.7581
等無有異	-10.7581
佛說此經已	-10.7581
跪	-10.7581
衣毛	-10.7582
一字一句	-10.7582
妄計	-10.7582
蜚	-10.7582
淚下如雨	-10.7582
却後數日	-10.7582
敬之如	-10.7582
冲	-10.7582
淨佛知見廣開	-10.7582
無縫	-10.7582
甛	-10.7582
空無所得	-10.7582
詠	-10.7582
無量眾	-10.7582
一經於耳	-10.7583
輪迴生死	-10.7583
遂增	-10.7583
琴	-10.7583
遍滿三千大千世界	-10.7583
四種解脫	-10.7583
不得見此	-10.7583
疑網	-10.7584
或占	-10.7584
了達	-10.7584
六情	-10.7584
凡夫之人	-10.7584
大力神王	-10.7584
若生人間	-10.7584
依因父母如	-10.7584
黃精	-10.7584
擊	-10.7584
所囑	-10.7584
勢	-10.7584
攝持	-10.7584
作何	-10.7584
一旦	-10.7585
袈裟	-10.7585
惱熱	-10.7585
又於後時	-10.7585
汎	-10.7585
植	-10.7585
屠	-10.7585
一心禮	-10.7586
夭命	-10.7586
師子虎狼	-10.7586
如是人輩	-10.7586
何以然者	-10.7586
違理	-10.7586
入寺者今作	-10.7586
墻	-10.7586
體解歸真	-10.7586
一體三寶	-10.7587
在大眾中	-10.7587
衣帶	-10.7587
慈悲喜捨	-10.7587
谷	-10.7587
南無勇施	-10.7588
目連	-10.7588
稟	-10.7588
湧	-10.7588
邊際	-10.7588
行不	-10.7588
犲狼	-10.7589
生蘇煎煮	-10.7589
共內人	-10.7589
渡	-10.7589
不知何者為	-10.7589
南無難勝	-10.7589
泉源	-10.7589
遍滿	-10.7589
如鏡中	-10.7589
斂	-10.7589
再	-10.7589
即告阿難	-10.7589
隱藏	-10.7589
繒綵	-10.7589
汝今所問	-10.7589
厨神名	-10.759
諸法亦然	-10.759
福德具足	-10.759
志性	-10.759
我今說之	-10.759
衛護	-10.759
悶	-10.7591
面像	-10.7591
疏	-10.7591
水精作	-10.7591
煮肉	-10.7591
從佛聞	-10.7591
三十二種惡相	-10.7591
毘婆尸佛	-10.7591
夏	-10.7592
救度	-10.7592
賢士	-10.7592
寺舍	-10.7592
來世成佛道	-10.7592
如影隨形	-10.7593
口舌	-10.7593
四無所畏	-10.7593
於一切怖畏	-10.7593
呪誓	-10.7593
怜	-10.7593
蹈	-10.7593
若沙彌	-10.7593
陰入界	-10.7593
淨得生其中	-10.7593
生埋	-10.7593
千五百歲後	-10.7593
必定解脫	-10.7593
百千萬億阿僧祇	-10.7593
皆有佛性	-10.7593
功能	-10.7594
久遠	-10.7594
受吾勅者	-10.7594
師僧父母	-10.7594
三萬六千	-10.7594
圓明顯	-10.7594
順風	-10.7594
經書	-10.7595
觀一實諦	-10.7595
同虛空	-10.7595
四八三十二	-10.7595
以印印	-10.7595
不經八難	-10.7596
世世生生	-10.7596
魏	-10.7596
療治	-10.7596
當知即是	-10.7596
資糧	-10.7596
一食	-10.7597
倍報	-10.7597
憐愍一切眾生	-10.7597
鑵湯	-10.7597
剋印	-10.7597
往生阿彌陀佛國	-10.7597
役	-10.7597
末後	-10.7598
若有人能	-10.7598
冥會	-10.7598
鑪炭	-10.7598
閻羅王	-10.7599
無想解脫	-10.7599
兩遍	-10.7599
山陵	-10.7599
師子奮迅三昧	-10.7599
流傳	-10.7599
四十同號	-10.76
李	-10.76
至佛	-10.76
巾	-10.7601
無學解脫	-10.7601
開化	-10.7601
癡心是	-10.7601
善權	-10.7601
痢	-10.7601
破邪	-10.7601
遍覆	-10.7601
鬪戰	-10.7601
病困	-10.7601
五濁	-10.7601
嶮路	-10.7602
說者聽者	-10.7602
過去七佛	-10.7602
牢	-10.7602
最後	-10.7603
詳定	-10.7603
象馬	-10.7604
無明世界	-10.7604
人非人等	-10.7605
是故當知	-10.7605
三枚	-10.7605
三人共	-10.7605
三藏法師	-10.7605
佛說高王觀世音經	-10.7605
四輩	-10.7605
天帝百施	-10.7605
線	-10.7605
五蓋	-10.7605
首楞嚴定	-10.7606
先須	-10.7606
我滅後	-10.7606
十二因緣	-10.7606
去三尸	-10.7606
歸命十方	-10.7607
攝受	-10.7607
自居	-10.7607
多寶如來	-10.7607
眾人所	-10.7607
信邪倒見	-10.7608
白象	-10.7608
詐稱	-10.7608
諸菩薩等	-10.7609
令無量大眾	-10.7609
景	-10.7609
甲子	-10.761
亦為謗佛	-10.761
淨滿	-10.761
起請	-10.761
一一鬲	-10.761
乃至今日	-10.7611
體泯	-10.7611
未曾同	-10.7611
次合	-10.7611
惶	-10.7611
俱喪	-10.7612
通免	-10.7612
以我無	-10.7613
又生人間	-10.7613
唼	-10.7613
復得人身	-10.7613
來侵	-10.7613
憂波梨	-10.7613
頭面禮佛	-10.7614
兩卷	-10.7614
被法服	-10.7614
四蛇	-10.7614
為人喜	-10.7614
聖主	-10.7614
相空等觀	-10.7614
況復	-10.7615
後結	-10.7615
南無雷音	-10.7615
巧便	-10.7615
噉人精氣	-10.7615
命不久	-10.7615
迷子	-10.7615
動不動	-10.7615
善持守護	-10.7615
放光明	-10.7615
應往	-10.7616
後合	-10.7616
勿得	-10.7616
時欲將至	-10.7617
濟度	-10.7617
若化眾生	-10.7617
謗報	-10.7617
千人俱	-10.7618
相牽	-10.7618
不覺不知	-10.7618
即名清淨	-10.7618
轉動	-10.7619
父本	-10.7619
呪魅經	-10.762
六齋	-10.762
伽藍	-10.762
太一	-10.762
愛心是	-10.762
超出	-10.762
體同	-10.762
但寶明	-10.762
來至此	-10.762
其狐王	-10.762
目之為	-10.762
難禁	-10.7621
一心無二	-10.7622
為諸眾生說	-10.7622
諸佛亦如是	-10.7622
佛說七女觀經	-10.7622
親屬	-10.7623
作諸不	-10.7623
鬼兵	-10.7623
大勢至菩薩	-10.7624
真處	-10.7624
厭足	-10.7624
黃金作	-10.7624
於中初明	-10.7624
由人所	-10.7625
常安樂	-10.7625
證菩提	-10.7626
唯除	-10.7626
菓實	-10.7626
始知	-10.7626
欝單越	-10.7626
死者多	-10.7626
百千萬人	-10.7626
定執	-10.7626
五百餘	-10.7626
吾告	-10.7626
收獲	-10.7626
臍中	-10.7627
處處皆	-10.7627
根機	-10.7627
爾時世尊答	-10.7628
明君	-10.7628
滿虛空	-10.7628
隨順眾生	-10.7629
橫官	-10.7629
深妙	-10.7629
嚴淨	-10.7629
東方阿閦佛	-10.763
者善能	-10.763
薄福	-10.7631
等視	-10.7631
三百日	-10.7632
初文	-10.7632
深宮	-10.7632
始可	-10.7633
天厨	-10.7633
善友慈悲	-10.7634
世尊如上所說	-10.7634
於中一切眾生	-10.7634
真照	-10.7635
八萬億	-10.7635
墮地	-10.7635
國界	-10.7635
狗即	-10.7636
國主	-10.7636
或逢	-10.7636
即成	-10.7637
不自知	-10.7637
得吾經者	-10.7638
由如虛空	-10.7638
若念三寶	-10.7638
當何名	-10.7638
寫三	-10.7638
十戒	-10.7639
誰知	-10.7639
無真無	-10.764
憂悲	-10.764
無量劫來	-10.764
其法	-10.7641
正覺	-10.7641
金口	-10.7642
避我	-10.7642
萬惡	-10.7642
應須	-10.7642
假名	-10.7643
解脫三昧	-10.7643
無邊際	-10.7644
極果	-10.7644
安立	-10.7644
持帶	-10.7644
是故我今	-10.7645
廣明	-10.7645
於世間	-10.7645
證明	-10.7645
大豆	-10.7645
菩薩名者	-10.7646
現報	-10.7646
最下	-10.7646
今為汝等	-10.7647
必獲	-10.7647
不簡	-10.7652
已過	-10.7652
隨分	-10.7653
沈淪苦海	-10.7653
復牽	-10.7653
違名	-10.7654
文中有	-10.7655
南無師子音	-10.7655
不墮三塗	-10.7656
先觀	-10.7657
窮子	-10.7657
坐處	-10.7657
功用	-10.7658
非有相	-10.7658
經論	-10.7659
大眾意	-10.7659
與賊	-10.7659
常滿	-10.7659
是誰	-10.7659
願無不獲	-10.766
根門	-10.7661
眾僧物	-10.7662
一一世界	-10.7663
偈已	-10.7663
十號	-10.7664
言枝	-10.7664
立其	-10.7664
如是之人等	-10.7664
一移	-10.7665
永離生死	-10.7665
共同	-10.7665
在於世間	-10.7666
前所	-10.7666
相待	-10.7667
經云	-10.7668
大慈父	-10.7668
此老病死	-10.7668
七千佛	-10.7668
既盡	-10.7669
六種	-10.767
誹謗不信	-10.7671
諸餘	-10.7671
風大	-10.7671
非無相	-10.7671
治國	-10.7672
正等覺	-10.7672
火然	-10.7672
用僧	-10.7673
墜落三塗	-10.7673
如此眾生	-10.7674
橫死	-10.7675
水東	-10.7675
皆圓滿	-10.7675
不得輒	-10.7677
讀此呪	-10.768
一丈	-10.768
南無喜見	-10.768
之內	-10.768
未飽	-10.7682
從東方	-10.7684
人見	-10.7685
如是七日	-10.7685
心如虛空	-10.7685
癩病	-10.7686
道意	-10.7686
視之	-10.7686
自作教	-10.7687
行步	-10.7687
一世界	-10.7687
相似	-10.7687
應當如是	-10.7687
建福	-10.7687
案行	-10.7687
遠意	-10.7688
心生疑	-10.7689
金光明	-10.769
今覩	-10.769
論義	-10.7692
一倍	-10.7694
到彼	-10.7695
或造	-10.7695
賢德	-10.7696
說呪曰	-10.7697
其一一	-10.7697
出離	-10.7697
理教	-10.7697
愛念	-10.7697
其名	-10.7698
非但	-10.7699
五體	-10.7699
此女	-10.7699
旃檀香	-10.77
七寶華	-10.7701
既空	-10.7702
者專行	-10.7705
係念在	-10.7706
前中	-10.7707
少聞	-10.7708
苦海	-10.7709
眼識	-10.7709
種福	-10.771
順從	-10.7711
利根	-10.7715
稱名	-10.7715
和上	-10.7715
念三寶	-10.7717
但彼	-10.7719
▁「	-10.7719
救療	-10.7719
病患	-10.772
我亦如是	-10.772
齋食者	-10.772
將入	-10.772
天神王	-10.7725
離波	-10.7725
緣境	-10.7726
不動地	-10.7728
佛告常施菩薩	-10.7729
所照	-10.7729
齋日	-10.773
方所	-10.7732
觀音	-10.7732
功德種	-10.7732
觀十方佛	-10.7733
主人	-10.7733
夫妻	-10.7734
噤南無	-10.7736
復具	-10.7736
聖果	-10.7737
所證	-10.7737
外更無	-10.7738
若病	-10.7738
煩惱與	-10.7738
刀輪	-10.774
歡喜無量	-10.7741
光普遍	-10.7741
慈力	-10.7745
崩倒	-10.7745
發善心	-10.7745
一性清淨	-10.7746
唯是	-10.7747
大力菩薩	-10.7747
愛惜	-10.7748
盲者不見	-10.7749
多解	-10.775
我所說	-10.775
吾道	-10.7753
食中來	-10.7753
夫言	-10.7755
果者	-10.7756
不在中間	-10.7756
虛偽	-10.7756
菩薩之道	-10.7757
西面	-10.7757
風吹	-10.7758
妄生追	-10.7758
劫盡時	-10.7758
高於	-10.7759
一切分別	-10.7759
在彼	-10.7761
或有人	-10.7762
財利	-10.7763
何緣	-10.7763
三遍	-10.7764
頭上	-10.7766
理處	-10.7767
在一處	-10.7767
南無光嚴	-10.7769
諸宮殿	-10.7769
斯法	-10.777
作銀	-10.777
信用	-10.7771
但能	-10.7771
如金剛不壞	-10.7772
無愚	-10.7774
佛法僧寶	-10.7776
開解	-10.778
空解	-10.7781
示人	-10.7782
多方	-10.7785
日月光	-10.7786
乃當	-10.7786
自共	-10.7787
燋爛	-10.7789
思得	-10.7789
法施	-10.7792
死後	-10.7792
百千眾生皆發	-10.7792
無明之	-10.7792
覺力	-10.7793
四十九	-10.7795
說其因緣	-10.7796
取受	-10.7797
書寫此經	-10.7799
所覆	-10.78
諸乘中	-10.78
輕慢	-10.78
利養	-10.7802
四攝	-10.7806
所聞	-10.7807
四萬八千	-10.7809
復過	-10.7809
燃燈佛	-10.7811
令清淨	-10.7811
欲入	-10.7812
恒以	-10.7812
惠心	-10.7813
長大	-10.7813
如文	-10.7813
則常	-10.7814
之士	-10.7815
語汝	-10.7816
謂之	-10.7818
似有	-10.7818
又當	-10.7818
亦隨	-10.782
身充滿一切世界	-10.7821
觀此	-10.7822
枯竭	-10.7823
善惡雙泯	-10.7824
豈得為	-10.7825
雖無量	-10.7827
其根	-10.7829
空宗	-10.783
東南	-10.7831
將以	-10.7833
生身觀	-10.7833
以求	-10.7834
觀實諦	-10.7835
此屋	-10.7836
不可為有	-10.7837
重白佛言	-10.7837
香花	-10.7837
出外	-10.7838
理路	-10.7838
八十同號	-10.7839
頭戴地	-10.784
讀者	-10.784
有大功德	-10.784
魂神	-10.7841
重說	-10.7841
何以不	-10.7841
勸近	-10.7843
不望	-10.7843
妙性常	-10.7843
空明	-10.7844
天種	-10.7845
隨心所	-10.7845
常應	-10.7846
身雖	-10.7847
更說	-10.7847
一一一	-10.7848
世尊我今	-10.7849
雜寶	-10.7852
意常	-10.7852
或有眾生	-10.7853
佛力	-10.7853
此經名	-10.7855
見彼	-10.7855
不毀	-10.7859
心神	-10.786
招生	-10.7861
不能分別	-10.7861
不遷	-10.7862
我解	-10.7862
耕田	-10.7867
有法	-10.7868
知其	-10.7868
馱囉	-10.7868
法愛	-10.787
不假	-10.7871
臨欲	-10.7871
慈仁	-10.7872
得果	-10.7874
於先	-10.7874
得見我身	-10.7875
終不能	-10.7877
及人	-10.7877
菩提行	-10.7878
照曜	-10.788
但作	-10.7883
道鬼	-10.7883
眼即	-10.7884
稱之為	-10.7887
一音	-10.7888
無住無	-10.7889
皆作	-10.7889
歸命佛	-10.789
動亂	-10.789
道也	-10.7893
一切佛身	-10.7893
知見	-10.7893
不見施	-10.7895
言音	-10.7897
自求	-10.7898
憎惡	-10.7902
日三	-10.7902
於其中	-10.7903
必為	-10.7903
無命	-10.7904
三乘之	-10.7904
寶英	-10.7904
三乘人	-10.7905
所可	-10.7905
安行	-10.7907
吾身	-10.791
十方諸	-10.7911
天王名毘	-10.7914
向之	-10.7916
行乞食	-10.7918
破其	-10.7919
隨行	-10.7919
復告	-10.7921
化為	-10.7922
神性	-10.7926
一會	-10.7927
審此理	-10.7928
同時	-10.7929
三界眾生	-10.7929
七識	-10.7933
心恒	-10.7934
過百	-10.7935
著我	-10.7936
是故智者	-10.7936
供養十方一切諸	-10.7938
別教	-10.794
增益	-10.7943
口說	-10.795
一切智	-10.7951
利人	-10.7953
心中所	-10.7955
產生	-10.7956
家人	-10.7957
法音	-10.796
皆集	-10.7963
佛時	-10.7964
此二種	-10.7964
寶莊嚴	-10.7965
或不	-10.7965
啞	-10.7966
人得	-10.7966
色界天	-10.7969
何等人	-10.7971
衣不	-10.7972
為怨	-10.7973
恭敬圍繞	-10.7974
為沙門	-10.7974
謗法	-10.7975
南無依	-10.7979
是故名	-10.798
小法	-10.798
眾疑	-10.7981
年已	-10.7982
涅槃為	-10.7984
罪故	-10.7991
多所	-10.7992
自稱	-10.7993
盡來	-10.7997
手把金剛	-10.7999
門上	-10.8
二百五十	-10.8
入此	-10.8007
復為	-10.8008
深經	-10.801
上盡	-10.8012
爾時除疑大士復	-10.8017
能見也	-10.8018
若人聞	-10.8021
如死	-10.8021
一切大地	-10.8023
不達	-10.8028
雖是	-10.8029
以好	-10.803
性淨	-10.8032
淨食	-10.8033
處中間	-10.8036
前人	-10.8036
念此金有明呪	-10.8037
方計	-10.8038
行至	-10.8038
五無間	-10.8039
諸鬼神	-10.8047
一切萬物	-10.8049
觀者	-10.805
有四	-10.8052
俱寂	-10.8054
不飲酒	-10.8058
勸請	-10.806
得道果	-10.8064
校量	-10.8065
大難	-10.8066
不可比	-10.8067
別離	-10.8068
隱匿	-10.8068
一心淨	-10.8069
則有	-10.8071
然以	-10.8077
使之	-10.8078
心解	-10.8079
藉緣生	-10.808
貧者	-10.808
服者	-10.808
意欲	-10.8083
即離	-10.8085
汝等菩薩	-10.8085
暫時	-10.8088
或樂	-10.8095
西北	-10.8096
世界中	-10.8101
前文有	-10.8102
三十五佛	-10.8103
戒法	-10.8105
明行	-10.8108
六時	-10.811
若我	-10.811
性常淨	-10.8114
求之	-10.8114
不相見	-10.8116
皆能	-10.8116
以法	-10.8118
積行	-10.8119
有命	-10.8123
自非	-10.8124
及水	-10.8126
得起	-10.813
諸神王等	-10.8131
焚燒	-10.8132
南無神通	-10.8133
此鳥	-10.8137
悉以	-10.8138
為正	-10.8139
佛圖	-10.8146
邪師	-10.8146
化樂天	-10.8147
是大士	-10.815
心是無為	-10.8152
則止	-10.8153
禮佛	-10.8154
本從	-10.8156
種性	-10.8156
生希有	-10.8158
無利	-10.816
所至	-10.8164
求菩提	-10.8164
殺人	-10.8164
旃檀	-10.8166
知法	-10.8169
語則	-10.817
明法王	-10.8171
寂空	-10.8175
今生	-10.8181
無色相	-10.8182
是為三	-10.8189
為可見	-10.819
施故	-10.8191
爾時寶明菩薩	-10.8194
之根	-10.8195
當即	-10.8196
即信	-10.8198
若住	-10.82
藥力	-10.8203
淨光	-10.8208
復非	-10.8209
無有量	-10.8215
從順	-10.8219
如來正答	-10.8221
南無現	-10.8227
侵害	-10.823
令諸	-10.823
重為	-10.8232
太山	-10.8239
不可不	-10.8242
二十四天	-10.8244
為求	-10.8245
不識真	-10.8249
佛告寶明	-10.8249
能得	-10.8251
是八	-10.8251
是中	-10.8253
為無福	-10.8255
說諸	-10.826
行非	-10.8261
相處	-10.8265
無捨	-10.8265
少欲	-10.8266
有自體	-10.8272
十年	-10.8274
身內	-10.8276
今說	-10.8278
此大魔	-10.828
四名	-10.828
退心	-10.8282
畜八	-10.8283
者喻於	-10.8286
禮拜者	-10.8291
眾生未	-10.8293
善來	-10.8293
好人	-10.8293
性不生	-10.8294
今得聞	-10.8295
四角	-10.83
汝言	-10.831
死門	-10.8311
生疑	-10.8311
是滅	-10.8313
無淨	-10.8314
國名	-10.8314
及其	-10.8316
常住不	-10.8317
來迎	-10.8318
意樂	-10.8319
彼佛	-10.8319
而語之	-10.8319
此二	-10.832
化佛	-10.8321
並是	-10.8321
則夢見	-10.8322
之福	-10.8323
肉食	-10.8328
南無寶檀	-10.833
不計	-10.8331
從無量	-10.8331
心心不	-10.8332
我爾時	-10.8333
不相應	-10.8335
彌勒菩薩	-10.8338
云何可	-10.8339
始終	-10.834
布施貧窮孤老	-10.8345
金海	-10.8348
即非	-10.8348
兜率天	-10.8351
不時	-10.8353
願常	-10.8354
自現	-10.8358
何因緣	-10.8361
說此語	-10.8362
以一	-10.8362
成辨	-10.8365
遊觀	-10.8368
世人	-10.8368
當生	-10.837
施與一切	-10.8371
流布	-10.8372
犯重罪	-10.8375
盡心	-10.8379
無令	-10.8384
坐一面	-10.8387
南無水	-10.8392
能報	-10.8396
此中	-10.8398
超生死	-10.8399
吾今為汝說	-10.8406
法亦復如是	-10.8407
十三者	-10.8407
我教法	-10.8407
日三時	-10.8411
如是已	-10.8411
即自	-10.8412
一切聲聞	-10.8413
了無	-10.8413
今為	-10.8416
無緣	-10.8416
竟無所	-10.842
小便	-10.8422
為欲	-10.8422
棄之	-10.8425
願共	-10.8425
南無普明	-10.8426
第九	-10.8428
盡相	-10.8429
有限際	-10.843
觀世	-10.8433
以訖	-10.8444
阿那含	-10.8448
入中	-10.8449
明月	-10.8449
若滅	-10.845
爾者	-10.845
更不	-10.8457
小劫	-10.846
非一	-10.8461
顏	-10.8461
品第十	-10.8468
二月十五日	-10.8469
三丸	-10.8474
當自	-10.8474
皆如	-10.848
得名	-10.8481
世間法	-10.8481
孤窮	-10.8482
大富	-10.8483
讚毀	-10.8485
唯有此	-10.8495
照寂	-10.8495
如見	-10.8495
解自身	-10.8497
則不能	-10.8504
故智	-10.8505
現生	-10.8506
非意	-10.8506
指甲	-10.8515
於佛	-10.8519
起於	-10.852
博叉天	-10.852
家中	-10.8522
我法者	-10.8527
修福德	-10.853
世尊一切眾生	-10.8532
為解	-10.8532
生淨土	-10.8538
得過	-10.8539
喻若	-10.854
本來無	-10.854
自性清淨	-10.8542
白色	-10.8546
得滅	-10.8552
若多	-10.8553
如此之	-10.8553
具者	-10.8553
之難	-10.8554
所以然	-10.8554
如入	-10.8558
發是	-10.856
近者	-10.8564
於道場	-10.8565
南無定	-10.8565
與我同	-10.8568
十遍	-10.8569
乃至一	-10.857
觀臍	-10.8571
五百劫	-10.8573
和合僧	-10.8573
不退轉	-10.8577
之際	-10.8582
誰於	-10.8584
無漏	-10.8586
天之	-10.8589
說三乘	-10.8591
有八萬四千	-10.8592
定自在王	-10.8593
爾時會中有	-10.8599
此鬼神	-10.8604
火大	-10.8608
得清淨	-10.8613
或行	-10.8613
我今為汝	-10.8616
是經中	-10.862
或得	-10.8621
右手	-10.8625
諸佛子	-10.8627
南無梵	-10.8628
之地	-10.8631
是患	-10.8631
華光	-10.8632
惡意	-10.8634
初說	-10.8635
齋食	-10.8636
所向	-10.8638
願所	-10.864
盡入	-10.864
無所在	-10.8647
諸尊	-10.8665
定光	-10.8673
滅除	-10.8674
善不	-10.8675
諸道俗	-10.8677
有信	-10.8678
多劫受	-10.8681
無水	-10.8682
攝諸眾生	-10.8683
當受	-10.8685
若遇大	-10.8685
持禁戒	-10.8685
受大苦	-10.8687
修者	-10.8696
身中不	-10.8697
諸菩薩眾	-10.87
信佛	-10.8701
以大	-10.8701
與福	-10.8708
若入	-10.8711
乃見	-10.8712
波提	-10.8716
五百人	-10.8722
鬼神王	-10.8726
諸天人	-10.8726
不自覺	-10.8726
頂禮	-10.8731
▁切	-10.8732
問者	-10.8733
悟道	-10.8738
觀之	-10.874
不在內	-10.8751
乃遠	-10.8752
方可	-10.8754
現世	-10.8755
甚深妙法	-10.8755
飲酒者	-10.8762
善果	-10.8765
改悔	-10.8766
乃有	-10.8766
法僧	-10.8771
則無智慧	-10.8775
記之	-10.8784
惡毒	-10.8789
道中	-10.879
行處	-10.879
自莊嚴	-10.8792
則不	-10.8798
云何得	-10.8799
至三	-10.8799
取者	-10.8805
二同號功德	-10.8806
其福無量	-10.8806
甚深法	-10.8816
六欲	-10.8818
住也	-10.8825
法衣	-10.8826
反更	-10.8827
白玉	-10.8833
觀眾生相	-10.8835
皆由此	-10.8836
不忍見	-10.8839
終不見	-10.884
是名報佛恩復次善見王	-10.8849
佛剎	-10.885
我之	-10.885
或弟	-10.8853
眾生未有	-10.8853
神通威德	-10.8856
為異	-10.8859
如是諸人等	-10.886
佛子	-10.8862
▁如是	-10.8864
復作	-10.8874
心則不	-10.8876
不貪	-10.8878
土地	-10.8881
誦偈	-10.8882
獲罪無量	-10.8888
是我子	-10.8889
如須彌山	-10.8892
強力	-10.8893
過去諸佛	-10.8893
受持經	-10.8893
億萬	-10.8894
有惡魔	-10.8895
寶積	-10.8898
令一切眾生	-10.8901
無起	-10.8902
與道	-10.8904
三世諸佛所	-10.8904
我昔	-10.8908
至三年	-10.8927
皆生	-10.8931
佛之	-10.8934
滿願	-10.8935
爾時大眾聞	-10.8942
香光	-10.8943
諮問	-10.8944
破魔	-10.8944
不復	-10.8945
戲論	-10.8951
四千	-10.8956
以非	-10.8958
之身能	-10.8959
治罪	-10.8962
之具	-10.8966
如來出世	-10.8973
雙融	-10.8976
大身	-10.898
從著	-10.8988
藉此	-10.8991
陽氣	-10.8991
諸天人民	-10.8991
恐人	-10.8992
十方各有十	-10.8992
好莊嚴	-10.8999
身命財	-10.9
或見如來住	-10.9001
額上	-10.9006
皆無	-10.9007
如大海	-10.9008
凡夫人	-10.9008
祖	-10.9009
即說	-10.9013
正問	-10.9016
欲重宣此義	-10.9017
常精進	-10.9018
佛下生	-10.9021
性則	-10.9024
身非	-10.9025
我語者	-10.9035
觀緣	-10.904
成身	-10.9048
與汝	-10.9049
或現	-10.9054
出之	-10.9054
南無金	-10.9055
別有	-10.9057
國人民	-10.906
不取	-10.9065
應時	-10.9069
一切身相	-10.9069
永盡	-10.907
善願	-10.9071
人當	-10.9071
左手	-10.9072
者在所	-10.9073
十方三世諸佛	-10.9074
慈母	-10.9075
無復	-10.908
者世世見人	-10.9081
苾芻雖	-10.9084
要法	-10.9087
澤中	-10.9094
我有	-10.9096
南無清淨	-10.9097
諸天善神	-10.9098
見是	-10.9103
可得免	-10.911
南無樂	-10.9117
吾經	-10.912
數千萬歲	-10.9121
口而	-10.913
人共	-10.9131
一念善	-10.9137
又以	-10.9138
常使不	-10.9142
形相	-10.9144
比丘僧	-10.915
不在外	-10.915
前進	-10.9152
久不得	-10.9153
見我身	-10.9161
唱滅	-10.9165
第八	-10.9165
中王	-10.9169
文殊師利菩薩摩訶薩	-10.9172
是心	-10.9173
如是懺悔	-10.9181
一切地獄	-10.9182
二十五	-10.9183
妄說	-10.9202
我向	-10.9203
此大乘	-10.9205
必竟不	-10.9206
以得	-10.9208
無累	-10.9212
既自	-10.9223
有兩	-10.9232
眼者	-10.9237
妙尊	-10.924
得四	-10.9242
一切惡	-10.925
不蒙	-10.9252
苦報	-10.9259
於佛法	-10.9259
無雜	-10.9261
勝妙	-10.9263
未來世中諸惡比丘	-10.9266
隨念	-10.9268
四億	-10.9268
不正	-10.9268
無足	-10.927
隨身	-10.9271
是人現世	-10.9274
性無	-10.9276
合為	-10.9281
意而	-10.9288
坐於	-10.9288
他物	-10.9293
為我演說	-10.9293
雨華	-10.9293
犁	-10.9295
有身	-10.9312
眾生皆悉聞知	-10.9313
此三事	-10.9314
復更	-10.9314
鐵叉	-10.9316
無福	-10.9316
眾善	-10.9329
於閻浮提	-10.933
鐵網彌覆	-10.9333
金剛三昧	-10.9334
名目	-10.9335
無學	-10.9341
有常	-10.9342
從心	-10.9343
南無雲雷	-10.9343
中義	-10.9354
塵垢	-10.9359
隨緣	-10.9362
我從	-10.9365
非空	-10.9365
迷故	-10.9372
即是佛	-10.9375
迦樓羅緊那羅摩睺羅伽人非人等	-10.9376
方鞞樓	-10.9377
八種	-10.9383
今蒙善友	-10.9387
云何是	-10.9392
得其中	-10.9394
方天王宮舍治須彌山半腰	-10.9394
○	-10.9395
讀誦書寫	-10.9399
皆言	-10.9404
能持戒	-10.9405
勸眾生	-10.9408
說四解脫	-10.9412
地出	-10.9417
何況未來	-10.9421
大海水	-10.9428
合上	-10.9428
於無	-10.9437
此為	-10.9453
苦痛	-10.9454
無無覺	-10.9458
一心好	-10.9459
乃得	-10.9469
無故	-10.9473
諸佛菩薩能	-10.9475
末劫	-10.9478
故生	-10.9479
何況讀誦	-10.948
五門	-10.9488
斷佛性	-10.9493
十六者世世	-10.9495
心不二	-10.9501
不加	-10.9502
解脫果	-10.9502
本願	-10.9512
王語	-10.9514
如我	-10.9517
四鎮	-10.9517
我得	-10.9518
樂禪定	-10.9519
南無莊嚴	-10.9522
得為有	-10.9524
去來	-10.9528
闇中	-10.953
常轉	-10.9535
不輕	-10.9541
諦聽善思念之	-10.9541
不和合	-10.9556
常為一切眾生	-10.9556
誦此呪	-10.9561
不寒	-10.957
復聞	-10.9571
一寸	-10.9583
明經	-10.9591
佛塔	-10.9595
僧寶	-10.9597
得金剛三昧	-10.9604
飢貧	-10.961
震動	-10.9615
必墮	-10.9617
一心性	-10.9625
空空	-10.9625
不見如來	-10.9628
是正	-10.9632
一切眾生心性	-10.9637
聖慧	-10.9639
見是事已	-10.9642
上佛	-10.9642
是三歸	-10.9647
無取捨	-10.9647
福盡	-10.9654
能作	-10.9655
是人所	-10.9658
真佛	-10.9668
一斤	-10.9675
不能救	-10.9677
叫喚	-10.9678
生在	-10.968
佛者	-10.9684
即入	-10.9684
若定	-10.9692
是名為	-10.9698
第二天	-10.9701
福勝	-10.9701
雖無	-10.9706
南無彌勒	-10.9724
者死	-10.9725
能見	-10.9727
力所	-10.9733
得大利益	-10.9733
大地獄	-10.9736
不周	-10.9738
見作	-10.9739
一一佛	-10.9741
行行	-10.9744
失本	-10.9747
以下	-10.9756
告阿難言	-10.9759
餘殘	-10.9765
哭	-10.9769
眾生忍	-10.9778
調暢	-10.9783
千五百	-10.98
此地獄	-10.9804
我言	-10.9806
大善	-10.9806
惡行	-10.9825
法及	-10.9825
療除	-10.9827
於三寶	-10.9832
淨故	-10.9833
三歸	-10.9841
此本	-10.9842
成如來	-10.9844
語之	-10.9849
於空	-10.9852
有少	-10.9853
三世十方	-10.9853
南無持	-10.9862
處於	-10.9864
受者	-10.987
之報	-10.9876
如日月	-10.9878
食者	-10.9887
即於佛前	-10.9891
二十八	-10.9892
未來世中像法	-10.9897
二人	-10.9901
能解了	-10.9909
十一者	-10.9911
周遍	-10.9913
得阿耨多羅三藐三菩提	-10.9915
煩惱不生	-10.9927
方便說	-10.9929
大果	-10.993
持此經者	-10.9931
中後	-10.9939
守戒	-10.9942
諸穢惡	-10.9943
在所	-10.995
文中	-10.9958
有文字	-10.9964
不生信	-10.997
諸戒	-10.9972
土地多	-10.9975
之不	-10.9976
願生	-10.9985
之德	-10.9989
有長	-10.999
但於	-10.999
為內	-10.9991
名解脫	-10.9996
八十	-10.9998
合掌向佛	-11.0003
難見	-11.0007
福多於	-11.0009
心隨	-11.0025
而啟	-11.0026
眼色	-11.0028
無量劫中	-11.0044
眾生之相	-11.0044
猶是	-11.0047
萬四千	-11.0049
師子王	-11.0069
毘尼藏	-11.007
乃出	-11.0074
而來	-11.0075
所住	-11.0077
能度	-11.0079
中常	-11.0082
此諸	-11.0095
由是	-11.0095
當至心	-11.0101
不欲	-11.0103
雲雷音	-11.0106
弓箭	-11.0106
復告阿難	-11.0108
知情	-11.0119
見諸	-11.0119
恩深	-11.0123
說世間	-11.0123
其樹	-11.0124
魅人不得停止	-11.0128
無益	-11.0137
十力	-11.0139
未離	-11.014
愈	-11.0142
非是	-11.0143
欲受	-11.0145
唯願慈尊	-11.015
好受持	-11.0153
於五陰	-11.0157
於生死	-11.0161
值善	-11.0164
彌覆	-11.0165
文殊師利菩薩又問	-11.0166
登正	-11.0168
世間之	-11.0185
婆樓	-11.0186
何由	-11.0193
明王佛	-11.0199
實體	-11.02
十者世世	-11.021
味飲食	-11.0215
我等神	-11.0215
見一	-11.0222
道法	-11.0228
常行善	-11.0229
大哭	-11.0232
不信我	-11.0235
無得	-11.0235
人民皆	-11.0237
皆有	-11.024
前身	-11.024
之名	-11.024
莫不歡喜	-11.0242
有願	-11.0242
水不	-11.0245
雖不	-11.0245
入城	-11.0248
於大海	-11.025
說清淨	-11.0255
無取	-11.0259
如是觀	-11.0259
受我	-11.0265
經義	-11.0266
離此	-11.0273
欲來	-11.0275
二劫	-11.028
於中有	-11.0281
毒中	-11.029
無上之	-11.0295
淨戒	-11.0299
一故	-11.0299
其體	-11.0308
善力	-11.0315
一部	-11.0324
斬	-11.0326
壽八	-11.0332
菩提妙	-11.0333
無外	-11.0335
而現	-11.0336
身被	-11.0337
取黃	-11.0357
以施	-11.0366
波羅蜜	-11.0376
八正	-11.038
閻浮提中	-11.0383
諮	-11.0389
若一切眾生身	-11.0392
懈怠	-11.041
已心大歡喜	-11.0421
有可	-11.0428
若人以	-11.0429
六十	-11.0439
者以	-11.044
常定	-11.0448
諸人	-11.0454
住一	-11.0461
皆除滅	-11.047
見多	-11.047
為顛倒	-11.0471
不通	-11.0471
能以	-11.0472
然不	-11.048
如此之徒	-11.0481
眾生者	-11.0492
無去來	-11.0492
輪王	-11.0502
雖犯	-11.0512
忍也	-11.0512
諸方	-11.0522
懃行	-11.0527
教汝	-11.0528
一億十億百億千億萬億那由他恒河沙	-11.0546
佛是	-11.055
氣微	-11.0551
常懷	-11.0557
為他所	-11.0558
願為	-11.0558
一切眾生身	-11.0562
日中	-11.0563
有垢	-11.0579
向佛	-11.0584
得無上道	-11.0585
法盡	-11.0587
盡諸	-11.0596
不動故	-11.0598
既不	-11.0602
令我生生世世	-11.0603
性平等	-11.0603
云何能	-11.0606
我皆	-11.061
歸空	-11.0611
苾芻眾	-11.0613
小千	-11.0621
多諸	-11.0621
所犯	-11.0623
世有	-11.0636
經法	-11.0644
十一天名	-11.0647
一菩提樹	-11.0655
四依	-11.0656
諸俗人	-11.0662
解之	-11.0662
即是一	-11.0665
香臭	-11.0676
未有	-11.068
得千	-11.0687
為見	-11.0695
貪窮	-11.07
世尊云何名為	-11.0701
照真	-11.0702
而立	-11.0702
一切諸天人民	-11.0702
空有	-11.0702
便為	-11.0703
佛剎微塵數同號	-11.0707
無知	-11.0709
豈有	-11.0713
能開	-11.0721
佛形像	-11.0727
此經語	-11.0732
與眾生	-11.0732
名利	-11.0738
四方有	-11.0741
如有	-11.075
失其	-11.0754
汝今所	-11.0759
還受	-11.0764
十夢	-11.0766
見此地	-11.0766
死不	-11.0776
復次善見王	-11.079
本國	-11.0806
獲罪	-11.081
則無有	-11.0812
佛土	-11.0816
動心	-11.0823
若人不	-11.0824
何名	-11.0838
千人	-11.0853
二種心	-11.0872
不能為	-11.0872
即當	-11.088
大辯邪正甚深	-11.0886
不覩	-11.0891
有潤澤	-11.0892
可思量	-11.0896
為大眾說	-11.0902
水際	-11.0902
樹上	-11.0916
之智	-11.092
說妙法	-11.0924
毒病	-11.0928
常生下	-11.0929
善見王	-11.0932
第十	-11.0933
有異	-11.0933
須疑	-11.0934
猶如大	-11.0936
得自在	-11.0938
而於	-11.094
身毛	-11.0945
授記已	-11.0948
說一乘法	-11.0949
共食之	-11.095
不少	-11.096
行之	-11.0963
法空	-11.0964
三百	-11.0964
普攝	-11.0968
迭	-11.097
是義	-11.0971
舉目	-11.0975
定心	-11.0977
金床	-11.0981
物作	-11.0982
四方僧	-11.0982
堅持	-11.0994
取他	-11.0995
真淨	-11.0996
復有三	-11.1001
後得	-11.1002
說眾生	-11.1003
阿耨多羅三藐三菩提	-11.1006
晝夜相	-11.1008
生死流	-11.1008
若能一	-11.1017
拔刀	-11.1019
神足	-11.1025
飡	-11.1026
行十惡	-11.103
地獄餓鬼畜生	-11.103
心若	-11.1035
數百	-11.1041
善善	-11.1047
應身	-11.1052
明知	-11.1053
眼目	-11.1053
照東方	-11.1073
無慚愧	-11.1078
為非無	-11.1079
琉璃光	-11.1081
寶火	-11.1084
十方一切	-11.1093
若不問	-11.1095
來生	-11.1095
鋸	-11.1104
生長	-11.1108
心也	-11.1108
過無量	-11.1112
此印便	-11.1126
最是	-11.1128
是聲	-11.1134
不見其	-11.114
不染塵	-11.114
離恩愛	-11.114
見如來說	-11.114
諸聖	-11.1144
七千	-11.1146
照境	-11.1146
夢所見	-11.1146
六度之	-11.1151
聞說是	-11.1154
除煩惱	-11.1158
不自見	-11.1159
有眾生	-11.1172
一女	-11.1174
為親	-11.1182
威德自在	-11.1184
開悟	-11.1185
善事	-11.1185
心為	-11.1188
故今	-11.1204
正者	-11.1207
正說	-11.121
與佛	-11.1211
用真	-11.1216
則得	-11.1225
有疑惑	-11.1227
大國	-11.1235
努力	-11.1243
恒蒙	-11.1249
為真	-11.1254
羅漢道	-11.1264
能護	-11.1267
白蜜	-11.127
人下	-11.1273
一觀	-11.1275
受戒	-11.1278
亦與	-11.1279
南無勝	-11.128
豈不	-11.1284
摩訶薩言	-11.1285
無量壽	-11.1289
名無生	-11.129
入大乘	-11.1296
虛空藏菩薩摩訶薩	-11.1298
流淚	-11.1302
無光	-11.1303
此語	-11.1309
故使	-11.1309
慧者	-11.1311
施佛	-11.1312
法身常	-11.1315
南無慈	-11.1336
已還	-11.1337
其正	-11.1345
自讚	-11.1347
聖者	-11.1355
德無量	-11.1361
此乃	-11.1367
無礙神性	-11.1369
深坑	-11.1375
心現	-11.1376
為實	-11.1379
諸相	-11.1389
前世	-11.1397
要當	-11.1405
頂天下盡	-11.1408
令得正	-11.1418
治化	-11.1418
心用	-11.1423
慈悲心	-11.1425
生盲	-11.1429
身常住	-11.1432
方虛空界悉作	-11.1433
同體	-11.1434
是文殊師利	-11.1441
法體	-11.1446
時雨	-11.1448
大乘經	-11.1449
使一切	-11.1457
初總	-11.1462
小世界	-11.1465
以此三	-11.1469
常被	-11.1475
而作是言	-11.1475
終不相	-11.148
不得成	-11.1487
邪魔	-11.1494
無利益	-11.1501
惱亂	-11.1502
世尊一切	-11.1503
惡物	-11.1506
本淨	-11.1507
病之	-11.151
能迴八	-11.1511
佛臍	-11.1514
普光大眾	-11.1517
天人發	-11.1521
世燈	-11.1521
證得	-11.153
下者	-11.153
佛為	-11.1534
次復	-11.1537
尊如來	-11.1543
得自	-11.1544
獲如是	-11.1545
復從	-11.1545
諸善	-11.1547
塵無	-11.1562
應是	-11.1563
熱鐵	-11.1563
稱如來	-11.1563
作諸惡	-11.1566
得愈	-11.1566
一無	-11.157
身上	-11.1577
如盲人	-11.1577
若復有人能	-11.1583
名摩	-11.1587
世尊我	-11.1587
之外	-11.1587
三種	-11.1595
得失是非	-11.1598
未成	-11.1608
觀其	-11.1609
溺	-11.1611
說正	-11.1614
法坐	-11.1625
性常	-11.1629
之道	-11.1638
法中無	-11.1639
一淨	-11.1646
云何名	-11.1646
悉除	-11.1649
涅槃者	-11.1654
以上	-11.1661
須得	-11.1675
今日如來	-11.1679
某甲等	-11.168
繞	-11.168
病者	-11.1685
遶佛	-11.1691
為六	-11.1692
頃	-11.1696
名為邪	-11.1701
少說	-11.1704
俱融	-11.1704
以還	-11.1709
與其	-11.1715
水漸	-11.1717
於時	-11.1722
惡魔	-11.1724
當為汝說	-11.1724
腫	-11.1725
年後	-11.1729
▁有	-11.1732
不在有	-11.1733
能測	-11.1736
餘人不	-11.1743
世諦	-11.1748
雪	-11.1761
說甚深	-11.1763
頭戴	-11.1765
世間無	-11.177
鎖	-11.1771
後更	-11.1773
及謗	-11.1781
言道	-11.1781
裁	-11.1782
是故得	-11.1787
五百萬	-11.1789
知足	-11.1798
貧苦	-11.18
說理	-11.1807
本不	-11.1812
得無為	-11.1825
江	-11.1827
惡言	-11.1833
當得	-11.1842
理無	-11.1848
恒修	-11.1851
說者	-11.1855
皆悉一心	-11.1865
阿僧祇	-11.1868
非無故	-11.1874
為心	-11.1876
測	-11.188
祕密之	-11.1882
為無相	-11.1898
北方有	-11.1902
善思	-11.1902
四月	-11.1913
名梵音	-11.1915
須食	-11.1922
佛出世	-11.1923
是真人	-11.1923
救眾生	-11.1926
一億	-11.1927
令一切	-11.1929
佛弟子	-11.1931
名之為師	-11.1931
真妙	-11.1938
本自	-11.1939
修正觀	-11.1946
天名無量	-11.1951
鐵窟地獄	-11.1959
之方	-11.1961
大慧	-11.1965
所住處	-11.1978
修十善	-11.198
挽	-11.1981
如佛	-11.1985
長受	-11.1989
行違	-11.1992
平等無	-11.1995
當取	-11.1999
初普光	-11.2003
鐵床	-11.2004
來入	-11.2004
離一切	-11.2005
汝莫	-11.2006
自然而	-11.2007
百四十	-11.2011
寶相	-11.2013
今於	-11.2014
思念	-11.2019
見道	-11.202
復何	-11.2023
即發	-11.2023
上者	-11.2033
神通自在	-11.2036
闡提行	-11.2038
用法	-11.2039
曜	-11.2039
妙寶	-11.2049
不寫	-11.2049
去惡	-11.2053
須清淨	-11.2055
南無僧伽	-11.2059
豪	-11.2063
可得度	-11.2065
不得出	-11.2067
十方一切諸佛	-11.2071
一氣	-11.2072
報佛恩	-11.2073
南無歡喜	-11.2081
如炎	-11.2082
迦難羅	-11.2084
若有東	-11.2088
辟支	-11.2097
有十六	-11.2098
延壽	-11.2102
所施	-11.2108
來到	-11.211
世尊實如聖	-11.2111
放大	-11.2119
語故	-11.2124
無目	-11.2135
無量無邊不可思議	-11.2136
即除	-11.214
多生	-11.2143
謂為是	-11.2144
教之	-11.2146
百人	-11.2147
上半牒	-11.2151
障礙	-11.2158
發聲	-11.2165
不審此	-11.2165
超世	-11.2166
方始	-11.2167
得差	-11.2168
四海	-11.2168
心則	-11.2169
光炎	-11.2173
良師	-11.2175
南無炎	-11.2177
其外	-11.2178
心意	-11.2181
無有限	-11.2191
等法	-11.2192
充滿一切世界	-11.2199
小時	-11.2203
興盛	-11.2207
上人	-11.2208
中見	-11.2209
寶山	-11.2209
信三寶	-11.2214
及邪	-11.2214
山谷	-11.2215
師子吼菩薩摩訶薩	-11.2215
若有西	-11.2222
之路	-11.2225
明解	-11.2225
不落	-11.2226
須陀洹	-11.2229
拜	-11.223
皆見	-11.2233
心求	-11.2236
世尊食肉者	-11.2255
光中	-11.2257
金剛師子	-11.2258
疑或	-11.2258
經名	-11.2265
常聞	-11.2266
過此	-11.2269
為之	-11.2271
烏	-11.2274
其水	-11.2277
初舉	-11.228
常樂	-11.228
得禪定	-11.2282
善持	-11.2284
無念	-11.2286
所有一切	-11.2288
八地	-11.2291
或復一	-11.2291
斷惡	-11.2294
三升	-11.2299
外事	-11.2303
二十四	-11.2303
呪曰	-11.2304
次有金	-11.2305
四十二	-11.2306
取之	-11.2311
一切俗人	-11.2311
檀	-11.2312
噤	-11.2322
香積如來	-11.2328
安得	-11.2329
人名字	-11.2342
愍眾生故	-11.2343
縱廣八萬	-11.2344
其大	-11.2345
自下第三	-11.2346
壽二百五十	-11.2346
火車	-11.2347
初牒	-11.2354
如空谷	-11.2355
入禪	-11.2358
縱廣八	-11.2362
希	-11.2363
世尊大聖	-11.2365
名義	-11.2367
無邊身	-11.2369
無作	-11.2371
經藏	-11.2372
依我	-11.2379
長齋	-11.238
宜速	-11.2382
所護持	-11.2384
如生	-11.2384
八千同號	-11.2385
薩	-11.2394
陀羅尼呪	-11.2395
斷疑	-11.2401
莫使	-11.2403
眾生等	-11.2403
毘奈耶	-11.2404
大會	-11.2405
南無佛	-11.241
詮	-11.242
受諸苦	-11.2421
若有有情	-11.2423
復稱	-11.2427
相中	-11.2428
二百	-11.2429
一事	-11.243
破滅	-11.2432
作他	-11.2434
所從來	-11.2437
說言有	-11.2437
客	-11.244
授我	-11.2441
慈悲愍念	-11.2441
員	-11.2446
隆滿	-11.2446
耕	-11.2449
黠	-11.2449
質搪	-11.2452
餓	-11.2454
而說呪曰	-11.2454
現世得	-11.2454
第十二	-11.2455
如含㗛	-11.2455
衣覆	-11.2455
金光	-11.2457
順為體解	-11.2457
魂	-11.2458
違為繼結	-11.2458
六時行道	-11.246
猛火入心	-11.2461
不大不小	-11.2461
嘉	-11.2461
入聖	-11.2465
波若之利	-11.2465
不如修故	-11.2466
令出三有	-11.2466
正答	-11.2467
明雜眾	-11.2468
立盟	-11.2468
云修	-11.2468
金剛杵	-11.2469
持齋	-11.2469
付	-11.2469
百病	-11.247
復入諸小	-11.2471
出現於世間	-11.2471
明八部眾	-11.2471
遙	-11.2471
勵	-11.2474
毘舍闍鬼	-11.2474
鳩槃荼鬼	-11.2474
萬天人	-11.2475
有為	-11.2475
與藥	-11.2476
末法中	-11.2476
及見貧窮孤獨	-11.2477
普及有情	-11.2477
當復	-11.2478
宇	-11.2479
威神力	-11.248
誦七	-11.248
從餓鬼出	-11.248
姉	-11.248
泡體	-11.248
洲	-11.2481
敗	-11.2482
一月六齋年	-11.2482
彈指	-11.2482
是汝梯橙	-11.2482
陀婆羅	-11.2483
五㰅	-11.2483
我實未能	-11.2483
果生方	-11.2483
真金之法	-11.2483
輸稅	-11.2483
一切言教	-11.2484
癡狂修福	-11.2485
詳共譏	-11.2485
樹根	-11.2486
床敷	-11.2487
忻仰	-11.2487
情者以貪為	-11.2487
刈草	-11.2487
如是十方三世諸佛名	-11.2487
撾打	-11.2487
眾生見之心生	-11.2487
誹之	-11.2487
驅使三寶奴婢	-11.2487
無上正等	-11.2488
七月十	-11.2488
智慧勇健	-11.2488
從三昧起	-11.2488
暖	-11.2488
出家之人	-11.2488
過去未來現在	-11.2489
出一切眾生身內慧命法身	-11.249
助其少	-11.249
有空有無	-11.249
當遠求	-11.249
食我肉	-11.249
自作	-11.249
妖	-11.249
倦	-11.249
千里	-11.2491
填	-11.2491
犯十惡	-11.2491
落毀壞	-11.2492
咽如針	-11.2493
河大海	-11.2493
客僧	-11.2493
與奪顯	-11.2493
射殺汝等煩惱賊故	-11.2493
熒惑星	-11.2493
五通仙人	-11.2493
妙伽他	-11.2493
彼方眾生謂言	-11.2493
生故不住滅	-11.2493
諸惡重病	-11.2493
譬如陽炎	-11.2493
印三昧	-11.2494
投陀	-11.2494
佛告常施	-11.2494
能破汝等生死軍故	-11.2494
吹令微塵	-11.2494
諸有智	-11.2495
解人疑難	-11.2496
藐	-11.2496
三千界滿中一切人	-11.2496
九十五道雜類鬼神	-11.2496
偷蘭遮	-11.2496
入人身內	-11.2496
如此設會	-11.2496
慮為想	-11.2496
捉波梨	-11.2496
為我廣分別	-11.2496
牆壁	-11.2496
誰肯	-11.2496
謗禪壞亂眾	-11.2496
飲我血	-11.2496
肥	-11.2496
經歷多劫	-11.2497
劍林	-11.2498
樂好衣服	-11.2498
四天下須彌山	-11.2498
脂	-11.2498
縫	-11.2498
抃	-11.2498
經今	-11.2499
各隨力分	-11.2499
剛毳	-11.2499
上持五戒得生其國	-11.2499
七重寶山及	-11.2499
來至佛所	-11.2499
喪飲食	-11.2499
得見彼佛	-11.2499
成熟汝等涅槃食故	-11.2499
所觀理顯	-11.2499
此人邪命諂曲	-11.2499
禱	-11.2499
讀經不解	-11.2499
頹	-11.2499
一病比丘	-11.2499
多虛少實	-11.2499
教汝處	-11.2499
滅故不住生	-11.2499
妹	-11.2499
常來營護	-11.2501
有好	-11.2501
亦名報佛恩復次善見王於我	-11.2501
修此功德得生	-11.2501
爭骨各各貪多	-11.2501
隨宜	-11.2501
見他施時	-11.2502
破寺破	-11.2502
依之修習	-11.2502
二乘之行	-11.2502
在北斗星注	-11.2502
在除去	-11.2502
無始復無終	-11.2502
現泡	-11.2502
福盡罪	-11.2502
見他作善	-11.2502
認	-11.2502
身毛皆竪	-11.2502
附傍鬼	-11.2502
萬死萬生	-11.2503
貧富貴賤	-11.2504
法不知	-11.2504
毀訾	-11.2504
名為顛倒作	-11.2504
東方王明諸佛	-11.2504
根不具	-11.2504
囑當	-11.2504
如是諸人等亦名報佛恩若	-11.2504
說不退法	-11.2504
莫生	-11.2504
忉利天	-11.2504
人輕賤	-11.2505
匃	-11.2505
急疾	-11.2505
亂之世	-11.2505
膠	-11.2505
九百九十九	-11.2505
佛及僧	-11.2505
借取乞	-11.2505
初舉果勸	-11.2505
取水三升	-11.2505
從頂至下根凡高	-11.2505
損害	-11.2505
是汝薪火	-11.2505
漉諸	-11.2505
煩惱至涅槃故	-11.2505
者夢墮	-11.2505
與他作	-11.2505
覆蓋汝等功	-11.2505
闕於方便	-11.2505
係	-11.2506
捉得此人	-11.2507
百歲不死	-11.2507
驢馬	-11.2507
真金羅網彌覆	-11.2507
便昏醉	-11.2507
祕密	-11.2507
重禁	-11.2508
從畜生出	-11.2508
或造塔廟	-11.2508
粗	-11.2508
多饒財物	-11.2509
絞假	-11.2509
誨	-11.2509
我於一時	-11.2509
我於末世	-11.2509
云何更作心	-11.2509
冶	-11.2509
叉加天魔	-11.2509
善惡苦樂果報	-11.2509
昊	-11.2509
正修內	-11.2509
淩	-11.2509
舉世無量	-11.2509
持是經者	-11.2509
若在大火中	-11.251
念念之中	-11.251
七重鐵城	-11.251
汝以何相觀如來	-11.251
教他	-11.2511
弗	-11.2511
謬誤	-11.2512
見無上尊	-11.2512
令修解行	-11.2512
身長丈	-11.2512
唯有一乘	-11.2512
古月	-11.2512
然不名為	-11.2512
世有十倍	-11.2512
以飲食衣服布施	-11.2512
塔廟形像	-11.2512
抽	-11.2512
世世值	-11.2512
以是故名佛以為	-11.2512
佛言下答	-11.2512
役力	-11.2512
心不隨染	-11.2512
懇悅心	-11.2512
或見此地	-11.2512
曼哆羅	-11.2512
知苦盡	-11.2512
請僧在寺	-11.2512
違彼丘埌	-11.2512
偷僧祇物	-11.2513
我若解說食肉	-11.2513
只	-11.2513
決所疑	-11.2513
天下萬物	-11.2513
以何相觀	-11.2513
是諸行人	-11.2513
聲聞二乘	-11.2513
釵	-11.2513
三事俱	-11.2514
醜	-11.2514
此經多饒	-11.2515
亦從布施	-11.2515
三寶奴婢	-11.2515
住於外不應從	-11.2515
此亦不應買	-11.2515
破我法者	-11.2515
示信相	-11.2515
冥寂	-11.2515
於畢竟空中熾然建立	-11.2515
祠	-11.2515
寶明大眾聞法慶喜	-11.2515
下第三總結	-11.2515
內懷不	-11.2515
寶明請問	-11.2515
於此眾中欣然而	-11.2515
潤清汝等菩提	-11.2515
獨處遠離	-11.2515
竊盜	-11.2515
能破汝等五蓋	-11.2515
雨淚	-11.2515
導首	-11.2515
睺樓	-11.2515
破塔壞寺	-11.2515
鬚眉	-11.2515
鼻者言極	-11.2515
我等從今	-11.2516
哆	-11.2516
撲	-11.2516
身命皮肉	-11.2516
如世生盲	-11.2516
我所出法	-11.2516
破落毀壞	-11.2516
諸魔外道	-11.2516
投身於中	-11.2516
一日二日三日四日五日六日七日	-11.2516
本來無所動	-11.2517
熏	-11.2517
鐵丸地獄	-11.2517
段	-11.2517
山西日	-11.2518
廢	-11.2518
胞胎	-11.2518
觚	-11.2518
踊	-11.2518
皆不具足	-11.2518
應除諸見	-11.2518
須申	-11.2518
從畜生中來	-11.2518
癖	-11.2518
如起貪著	-11.2518
為諸煩惱弊於	-11.2518
甫	-11.2518
瞋喜之心	-11.2518
不能隨喜	-11.2518
或有見我	-11.2518
曲星主	-11.2518
欲求度世道	-11.2518
葬埋	-11.2518
還得活者	-11.2518
陰垢	-11.2518
雖造塔寺	-11.2518
無別心	-11.2518
受想行識	-11.2518
如是之人等亦	-11.2519
經書幡花	-11.252
百千萬世未曾聞有	-11.252
萬二千	-11.252
十方各有十佛剎微塵數同號	-11.252
端身而	-11.252
要藉	-11.252
勿以	-11.252
為我說	-11.2521
補	-11.2521
緻	-11.2521
娑羅樹王	-11.2521
抓	-11.2521
樂行惡行	-11.2521
洞好	-11.2521
共相勸	-11.2521
恒寂	-11.2521
橫羅	-11.2521
早亡	-11.2521
不得顯用	-11.2521
但求名聞	-11.2521
良賢	-11.2521
南無雲自在	-11.2521
蝎	-11.2521
爾時南方復有十恒河沙	-11.2521
阿彌陀佛現大神通	-11.2521
不是異	-11.2521
俱同一寂滅	-11.2521
六天皆盡	-11.2521
割斷汝等諸愛網故	-11.2521
助其勢力	-11.2521
如半月	-11.2521
得出火宅	-11.2521
從夢心而現	-11.2521
一切眾生無始以來	-11.2521
不可謂之	-11.2521
劫沈淪	-11.2521
微漸	-11.2521
爾時如童菩薩	-11.2521
蜜自恭已用	-11.2521
誑他取物	-11.2521
象應	-11.2521
身中放日光	-11.2521
顯佛德	-11.2521
可說	-11.2522
形狀大小	-11.2523
大智舍利弗	-11.2523
我若具說	-11.2523
廣博	-11.2523
辰星	-11.2523
唯願指授	-11.2523
賣與他人	-11.2523
汲	-11.2523
一者離體求相	-11.2523
天名密	-11.2523
奸	-11.2523
十八者見女人	-11.2524
得好衣	-11.2524
亦復不離世間	-11.2524
父慈子孝	-11.2524
憒	-11.2524
無上慈父將	-11.2524
熏習	-11.2524
所造佛像	-11.2524
一大城中如是取盡名一	-11.2524
有貧窮而	-11.2524
相依二俱	-11.2524
蚖	-11.2524
光照獄門開	-11.2524
小吏	-11.2524
應勸此人	-11.2524
當淨洗浴	-11.2524
郡縣	-11.2524
預	-11.2524
一切法定	-11.2524
不起異念	-11.2524
從地湧出	-11.2524
施福如野馬	-11.2524
疽恚嫉妬	-11.2524
龍王降雨	-11.2524
經莫不開解	-11.2526
意欲遠	-11.2526
鴦	-11.2526
槃龍	-11.2526
忉利天宮	-11.2526
便生嗤咲	-11.2526
除滅宿罪	-11.2526
不信身中有	-11.2526
求名求利求勝他	-11.2526
朔	-11.2527
五升	-11.2527
郎	-11.2527
栰	-11.2527
布薩	-11.2527
兩肩	-11.2527
共一國同住	-11.2527
若有有情能施身分	-11.2527
聽受經法	-11.2527
出現	-11.2527
屋宅	-11.2527
譬之如	-11.2527
騁	-11.2527
從何所出	-11.2527
作無量形	-11.2527
市肆販賣	-11.2527
疫氣	-11.2527
聾聽	-11.2527
醫藥	-11.2527
鬼神妖魅	-11.2527
媒	-11.2527
療治汝等煩惱病故	-11.2527
處處村落	-11.2527
四者常能	-11.2527
若無我見者究竟無	-11.2527
一日一宿中受持	-11.2527
何況有人而得	-11.2527
八功德水	-11.2527
則種種法	-11.2527
及以讚譽	-11.2527
含笑	-11.2527
悲啼懊惱	-11.2527
病是病	-11.2527
瘖瘂	-11.2527
眾蜂	-11.2527
自然三厨	-11.2527
莊嚴妙好	-11.2527
蔽	-11.2527
薄德	-11.2527
身處光明臺炎赫如	-11.2527
輕衣	-11.2527
針灸	-11.2527
鐵圍山百億	-11.2527
阿伽	-11.2527
陰氣漸	-11.2527
比丘尼優婆塞優婆夷	-11.2528
定無	-11.2529
生貧賤	-11.2529
安住清淨地	-11.2529
三千六百	-11.2529
周匝圍繞	-11.2529
汝能善問	-11.2529
不到彼岸	-11.2529
十方各有萬佛剎微塵數同號	-11.2529
此音聲者	-11.2529
求作沙門	-11.2529
知斤兩	-11.2529
縣官水火	-11.2529
說斯決定	-11.2529
阿羅羅	-11.2529
龜	-11.2529
席	-11.253
能解	-11.253
欲懺	-11.253
在日月宮中	-11.253
山南日	-11.253
專施敬田	-11.253
罵辱	-11.2531
小乘九部	-11.2531
殑伽	-11.2531
邪正真偽	-11.2531
增壽益算	-11.2531
救攝汝等	-11.2531
照曜汝等離黑	-11.2531
甚難甚難	-11.2531
終朝	-11.2531
若有體應有	-11.2531
借貸	-11.2531
大乘最為	-11.2531
紅	-11.2531
則我身是	-11.2531
椀	-11.2531
其狀如	-11.2531
可意之	-11.2531
善學諸方便度脫於群生	-11.2531
或在巷路	-11.2531
沈沒	-11.2531
知行亦寂滅是	-11.2531
一在地	-11.2531
何不開	-11.2531
大慈所薰	-11.2531
好婬	-11.2531
復過此劫劫名	-11.2531
忠信孝順	-11.2531
於阿僧祇劫中	-11.2531
是太一洪源神變	-11.2531
歇	-11.2531
水渧	-11.2531
生滅即涅槃本來無所動	-11.2531
當何以知	-11.2531
皆枯竭	-11.2531
眼耳鼻舌名為	-11.2531
莖節	-11.2531
笑	-11.2531
百億須彌山	-11.2531
流浪生死	-11.2532
追	-11.2532
白衣舍	-11.2532
比婆	-11.2532
唯除一闡提	-11.2532
河神王	-11.2532
汗	-11.2532
駈使	-11.2532
怖魔	-11.2532
若善知識諸有所作	-11.2532
三處	-11.2532
中建立佛	-11.2532
我是法師	-11.2532
灌注	-11.2532
稱是經中	-11.2532
諸來大眾	-11.2532
何況凡夫	-11.2532
應以辟支佛	-11.2532
正觀正念	-11.2532
婆毘	-11.2532
鬘	-11.2532
鐵圍	-11.2533
羯磨	-11.2533
鎧	-11.2534
懸遠	-11.2534
敬田者	-11.2534
若有比	-11.2534
風神王	-11.2534
婉	-11.2534
豫知	-11.2534
皆從布施	-11.2534
厲	-11.2534
羯磨布薩	-11.2534
翔	-11.2534
和睦	-11.2534
小鐵圍小	-11.2534
無始無明	-11.2534
癸	-11.2534
初明眼色	-11.2534
唯從眾僧乞索	-11.2534
或求僧長短	-11.2534
皆是違情	-11.2534
􅶊	-11.2534
不起一心得大功德	-11.2534
我是律師	-11.2534
資成	-11.2534
并無兒	-11.2534
是時大婦	-11.2534
狐魅妖術	-11.2534
下明寂滅	-11.2534
佐曳	-11.2534
千佛符打鍛眾魔	-11.2534
抃斗	-11.2534
最居	-11.2534
滂	-11.2534
用何法得	-11.2534
眾故非生	-11.2534
離眼之	-11.2534
鼓舞	-11.2534
心意緣慮	-11.2534
竈	-11.2534
銜	-11.2535
凶禍	-11.2535
阿修	-11.2535
無辜	-11.2535
縣官口舌	-11.2535
四天龍王	-11.2535
娛	-11.2535
得悋惜	-11.2535
㝹	-11.2535
堤塝	-11.2535
十千比丘得阿羅漢	-11.2535
壽百二十	-11.2535
此行	-11.2535
張眼	-11.2535
諸方菩薩盡來集會	-11.2535
二萬同號	-11.2535
假披法服	-11.2535
善力自然	-11.2535
或針人	-11.2535
或魅蠱人	-11.2535
用名為病元	-11.2535
秤	-11.2535
都無所得	-11.2535
誘	-11.2536
曳	-11.2537
綿	-11.2537
懷挾	-11.2537
眾生見三	-11.2537
雜香	-11.2537
費功	-11.2537
鞍	-11.2537
破壞四魔	-11.2537
樹神王	-11.2537
海神王	-11.2537
允	-11.2537
名終日名猶為無名	-11.2537
大通智勝	-11.2537
屠兒	-11.2537
轉近轉滅	-11.2537
酸	-11.2537
上中下	-11.2537
何況揣財	-11.2537
巖	-11.2537
或妹	-11.2537
諱	-11.2537
身意快然	-11.2537
不如復有	-11.2537
公卿	-11.2537
易救可懺	-11.2537
涉路	-11.2537
舍婆提國有吉槃陀女	-11.2537
用無窮盡	-11.2537
碁	-11.2537
菜茹懷	-11.2537
一生命	-11.2537
入惡趣	-11.2537
更相依持	-11.2537
正真路	-11.2537
求目前	-11.2537
者野虫	-11.2537
萬法緣生	-11.2537
進力不敢停	-11.2537
防護口業	-11.2537
隨意所喜	-11.2537
以諸法無	-11.2537
伯叔	-11.2537
佛欲出世懃	-11.2537
其火盛熱	-11.2537
犬亡	-11.2537
等相無故斷	-11.2537
見塵	-11.2538
色與心	-11.2538
陸	-11.2538
苞	-11.2538
優婆塞優婆夷	-11.2538
除滅四重禁	-11.2538
兩膝	-11.2538
祀	-11.2538
詣佛所	-11.2538
能擁護我百千萬億劫中	-11.2538
此經尊猛	-11.2538
五敬順	-11.2538
其聲遍滿	-11.2538
役使	-11.2538
摩訶迦葉	-11.2538
災變	-11.2538
譏呵	-11.2538
或刺人	-11.2538
貸	-11.2539
山北日	-11.254
相值	-11.254
音聲三昧	-11.254
夭喪	-11.254
合掌禮我	-11.254
悕	-11.254
火神王	-11.254
如斯之徒	-11.254
揣食入口	-11.254
借問	-11.254
衰喪	-11.254
前中初牒	-11.254
愆	-11.254
或作畫師	-11.254
灑	-11.254
所作法事	-11.254
緣在橋	-11.254
萬段	-11.254
即與我受記	-11.254
浸	-11.254
能因道	-11.254
鬼所病	-11.254
六百同號	-11.254
委付	-11.254
彰善友功能	-11.254
爾時眾中有一菩薩摩訶薩	-11.254
生疑不信	-11.254
不離而問	-11.254
佛復語	-11.254
取得一	-11.254
囉佐也	-11.254
妬磨	-11.254
妾母	-11.254
幻師弟子	-11.254
從是已後	-11.254
攢婆也攢婆也	-11.254
文字章句	-11.254
於光中觀	-11.254
普收歸	-11.254
燒香散花	-11.254
畔佐也	-11.254
盲冥	-11.254
若共此人同住	-11.254
親駄	-11.254
訶婆	-11.254
諮稟道教	-11.254
身相是文字	-11.254
輕呰不	-11.254
遍滿閻浮	-11.254
頻那	-11.254
馱也牟訶也牟訶也	-11.254
彌陀	-11.2541
吉祥	-11.2541
世界海	-11.2541
墨	-11.2541
鬪	-11.2541
巷巷相當門門相	-11.2542
普廣菩薩	-11.2542
讚嘆	-11.2542
盡施與人	-11.2542
波迸	-11.2542
因地初發心時	-11.2542
如電久住	-11.2542
悼	-11.2542
法身同於虛空	-11.2542
為作清淨	-11.2542
淺智之所聞見一以為一	-11.2542
作是觀已	-11.2542
說食與人	-11.2542
九十日	-11.2542
鈍	-11.2542
卜	-11.2542
國王大臣	-11.2542
作是語	-11.2542
如風火	-11.2543
併	-11.2543
必得成佛道	-11.2543
未蒙	-11.2543
能為父母作福造經	-11.2543
推尋	-11.2543
掩	-11.2543
毀譽	-11.2543
眾生死盡	-11.2543
前後圍繞	-11.2543
收萬法	-11.2543
無不歡喜	-11.2543
稱為解脫	-11.2543
五部僧	-11.2543
坐禪念定	-11.2543
對機說授	-11.2543
絃	-11.2543
一時之間	-11.2543
丁香	-11.2543
不見何況	-11.2543
他心智	-11.2543
兜率天宮	-11.2543
刀杖	-11.2543
初明炎隨	-11.2543
則文義	-11.2543
哺	-11.2543
帖	-11.2543
心妬心殺	-11.2543
我今如實說	-11.2543
我見顛倒	-11.2543
星辰	-11.2543
水若無風	-11.2543
牟訶儞	-11.2543
秦言	-11.2543
至於今日	-11.2543
薄伽跋羝	-11.2543
訖梨	-11.2543
赤骨	-11.2543
非相非非相	-11.2543
侶	-11.2544
鬚	-11.2544
從索物	-11.2544
伐	-11.2544
黑暗	-11.2545
戰懼	-11.2545
一亦不為一	-11.2545
心是妄非精	-11.2545
炎忍亦無所忍	-11.2545
為欲破諸數	-11.2545
愁憂	-11.2545
莊	-11.2545
彼阿彌陀佛國	-11.2545
毀呰誹謗	-11.2545
心相是言教	-11.2545
雪山	-11.2545
鈴	-11.2545
後念	-11.2545
九部	-11.2545
第一心開符	-11.2545
沾	-11.2546
妻婦	-11.2546
住持建立	-11.2546
太府	-11.2546
定墮三惡道	-11.2546
爾時除疑大士蒙佛	-11.2546
碓磨	-11.2546
脛	-11.2546
若提子等	-11.2546
爾時乾闥婆王	-11.2546
第三救護身命符	-11.2546
第二益算符	-11.2546
汝今善聽	-11.2546
觀身正念	-11.2546
是汝絙繩	-11.2546
眼視	-11.2546
帶印人	-11.2546
平旦時	-11.2546
壽萬六千	-11.2546
合掌作禮	-11.2546
呪咀	-11.2546
塼	-11.2546
大小悉皆為火	-11.2546
好勝欺人	-11.2546
守護心城	-11.2546
對十方一切諸佛	-11.2546
沙門梵志	-11.2546
白淨王如來	-11.2546
盈滿	-11.2546
繭	-11.2546
說此過現未來三世諸佛	-11.2546
體融大寂相即	-11.2546
低突	-11.2546
偈胡音	-11.2546
六十萬世	-11.2546
別教之中	-11.2546
動其水	-11.2546
十方各有百萬佛剎微塵數同號金剛	-11.2546
半佐也	-11.2546
厭惡身	-11.2546
哆滿怛囉阿地	-11.2546
壤	-11.2546
大明種智	-11.2546
愛見等者	-11.2546
攝持正法	-11.2546
是故我來欲	-11.2546
氣多則多見	-11.2546
照境分明	-11.2546
百千萬億日月	-11.2546
箜	-11.2546
紺青	-11.2546
聲聞凡夫人	-11.2546
若持明呪	-11.2546
雖於深法	-11.2546
所能知	-11.2546
人非人	-11.2547
鑪	-11.2547
土不相刻符	-11.2547
第五注生人阿姬死鬼秏	-11.2547
第四金木水	-11.2547
雲自在	-11.2547
百年後	-11.2547
中皆有	-11.2547
󰪠	-11.2548
梵釋	-11.2548
常能	-11.2548
行五戒十善然燈照	-11.2548
不能解我	-11.2548
亦復歸命諸餘經法	-11.2548
一上廁一	-11.2548
油殃	-11.2548
名為繼縛	-11.2548
或見報身坐蓮華藏	-11.2548
不授我記及汝名	-11.2548
人手脚	-11.2548
如法作齋	-11.2548
妙高山	-11.2548
散著無極之	-11.2548
盲病	-11.2548
汝之世尊氣力安	-11.2548
放光之時	-11.2549
以百億世界土石諸山	-11.2549
紛	-11.2549
摩尼幢	-11.2549
舞	-11.2549
須彌山頭	-11.2549
奴婢牛羊	-11.2549
睞	-11.2549
四天大王	-11.2549
槃馬	-11.2549
乃至千佛出世	-11.2549
自下大文第三	-11.2549
飲噉	-11.2549
攕猪	-11.2549
痒	-11.2549
聖志	-11.2549
豚	-11.2549
忍受他惱	-11.2549
時節欲到	-11.2549
究之無實	-11.2549
諸賢聖等	-11.2549
隻	-11.2549
或自己身	-11.2549
捕	-11.2549
見僧恭敬	-11.2549
不如早	-11.2549
受持讀誦書寫流通	-11.2549
嗅香	-11.2549
如石女兒	-11.2549
箏笛	-11.2549
陵奪所愛蔓陷師長	-11.2549
鴛鴦	-11.2549
塢舍	-11.2549
知嗔等	-11.2549
習行離欲	-11.2549
護法善神	-11.2549
主之金	-11.2549
他方地獄中受罪	-11.2549
但以無明	-11.2549
但自觀身	-11.2549
受持此經典者	-11.2549
大士菩薩等	-11.2549
如是遇者	-11.2549
容顏	-11.2549
床蓐	-11.2549
擲在	-11.2549
日出時天下	-11.2549
是經能度八難	-11.2549
東西南北四維上下虛空	-11.2549
欲知比	-11.2549
此訕謗之人	-11.2549
湧泉	-11.2549
獲報甚	-11.2549
王及大臣	-11.2549
破齋者墮	-11.2549
菩薩觀身二種	-11.2549
蠱道	-11.2549
賞	-11.2549
重劇	-11.2549
朦	-11.255
流涕	-11.255
智論	-11.255
號釋迦牟尼	-11.2551
濁翳	-11.2551
漬	-11.2551
槃荼	-11.2551
經卷唯	-11.2551
眾魔惡鬼	-11.2551
歲於	-11.2551
晃	-11.2551
輕賤我法	-11.2551
作福彌積	-11.2551
阿波	-11.2551
不聽酌酒與	-11.2551
佛告善見王子	-11.2551
前禮佛足	-11.2551
此安心妙法	-11.2551
者正念若能	-11.2551
若能如是觀身	-11.2551
非我力能	-11.2551
善棄惡	-11.2551
明照	-11.2552
盪	-11.2552
惡獸	-11.2552
白師	-11.2552
山東日	-11.2552
《	-11.2552
種種形	-11.2552
輕笑	-11.2552
綵	-11.2552
得失交競	-11.2552
論肉價	-11.2552
身犯如是	-11.2552
生滅不住	-11.2553
慳惜	-11.2553
汝向所說	-11.2553
衰老	-11.2553
變為狐	-11.2553
嗽	-11.2553
百二十賢君	-11.2553
秡	-11.2553
如種菓	-11.2553
翅	-11.2553
降伏外道	-11.2553
亦無增減	-11.2553
先栰	-11.2553
當得菩提	-11.2553
至人定分	-11.2553
道之	-11.2553
非出非	-11.2553
鴿	-11.2553
七寸	-11.2553
以邪定法	-11.2553
如來慧光	-11.2553
如是之徒	-11.2553
萬行圓備	-11.2553
仍	-11.2553
大梵天王釋提桓因四天大王	-11.2553
如似俗人	-11.2553
當觀三處	-11.2553
縣官事	-11.2553
舉足一步	-11.2553
莫呼洛迦	-11.2553
諸苾芻苾芻尼烏波索迦烏波斯	-11.2553
天名少	-11.2553
峪	-11.2553
流傳此法遞相囑付不使間斷	-11.2553
破滅三寶	-11.2553
䓾訶	-11.2553
一便聞香	-11.2553
一味之雨	-11.2553
不涼不熱	-11.2553
作塔者	-11.2553
備足	-11.2553
勿於僧中	-11.2553
哆梨	-11.2553
嚧難悉談婆也	-11.2553
惔虛	-11.2553
為人黑	-11.2553
甞䬽	-11.2553
眼能見	-11.2553
羆	-11.2553
耽見之	-11.2553
肉不從四大	-11.2553
胭	-11.2553
誘教法	-11.2553
諸陽漸	-11.2553
轉輪座	-11.2553
精氣	-11.2553
何法	-11.2553
云何世尊	-11.2553
諸梵天王及以	-11.2553
亦有亦無	-11.2554
蠲除	-11.2554
為等侶	-11.2554
唯願世尊分明	-11.2554
有如來性	-11.2554
壽命延長	-11.2554
提婆	-11.2554
程	-11.2554
交報	-11.2554
劬	-11.2554
行來出入	-11.2554
二億一千	-11.2554
執仗	-11.2554
大因大	-11.2554
如樹提伽	-11.2554
捨於財物	-11.2554
難解難	-11.2554
有德無德	-11.2554
未解安心者	-11.2554
未證菩提者	-11.2554
鎌	-11.2554
不從卵生	-11.2554
不從胎生	-11.2554
得阿羅漢身	-11.2554
心明觀察	-11.2554
憂怖	-11.2554
所可說者	-11.2554
縱使	-11.2554
膩吒利	-11.2554
諸根塵門	-11.2554
惺	-11.2555
均	-11.2555
劍樹地獄	-11.2555
面無	-11.2555
所有珍寶	-11.2555
糧	-11.2555
婦女	-11.2555
持將去	-11.2556
湯	-11.2556
四毒惡	-11.2556
美味	-11.2556
惡人惡鬼	-11.2556
錫杖	-11.2556
如是難知	-11.2556
披折	-11.2556
敷具	-11.2556
無智慧故	-11.2556
籌量	-11.2556
英雄	-11.2556
中究竟清涼樂	-11.2556
凡愚	-11.2556
唯除不信者	-11.2556
搏	-11.2556
叩頭	-11.2556
喜聞法	-11.2556
我恒在其中為護如是人令得無上道	-11.2556
無出無沒	-11.2556
蕩蕩而無	-11.2556
衣鉢自隨	-11.2556
佛去世後	-11.2556
封執	-11.2556
熱得清涼	-11.2556
經營三寶	-11.2556
三毒中修	-11.2556
不壞諸法	-11.2556
修道之人	-11.2556
喻彰	-11.2556
寔由	-11.2556
息諍	-11.2556
甦	-11.2556
第四句釋	-11.2556
能令汝等	-11.2556
事興請	-11.2556
以是故名佛為	-11.2556
何故如來今日說道	-11.2556
四大五陰三毒羅剎文字	-11.2556
大辯邪正法門品第	-11.2556
常住湛然不動累劫慈悲	-11.2556
慧眼故	-11.2556
我於千劫中算	-11.2556
整理威儀	-11.2556
波佐	-11.2556
用忍辱作	-11.2556
自下別中有	-11.2556
蜂子	-11.2556
發無上菩提善	-11.2556
棄惡從善	-11.2556
殖	-11.2557
畫	-11.2557
鉢羅華	-11.2557
此人愚癡	-11.2557
如波羅奢花	-11.2557
辦	-11.2557
其餘法師	-11.2557
巨	-11.2557
於僧中起邪見	-11.2557
譬如春月	-11.2557
卦	-11.2557
字句其以久如	-11.2557
懃行精進	-11.2557
若我此生	-11.2557
執取正法	-11.2557
亦復不為	-11.2557
寶冠瓔珞	-11.2557
溝	-11.2557
菩提無上	-11.2557
堰	-11.2557
貪欲瞋恚愚癡	-11.2557
五星	-11.2558
當奈何	-11.2559
心生慈悲	-11.2559
有學有	-11.2559
其土人民	-11.2559
從狗中來	-11.2559
悟達本無	-11.2559
阿脩羅	-11.2559
一切眾生造立	-11.2559
墮落三塗	-11.2559
逕年度月	-11.2559
正憶正念	-11.2559
又初欲	-11.2559
崛魔	-11.2559
成佛亦不久	-11.2559
曉了	-11.2559
連年累	-11.2559
伐樹不去	-11.2559
受戒懺悔	-11.2559
序分	-11.2559
得大總持	-11.2559
於虛空中凝然	-11.2559
枝條因	-11.2559
耳鼻舌身意	-11.2559
醯	-11.2559
大聖垂慈	-11.2559
山林社稷	-11.2559
得不退轉	-11.2559
法身壯大	-11.2559
生老病死	-11.2559
第十七	-11.2559
食肉之時	-11.2559
上三句明	-11.2559
債	-11.2559
和九流	-11.2559
天堂自來	-11.2559
并聞正法	-11.2559
心自忓清	-11.2559
於是眾中	-11.2559
曼多隸	-11.2559
此父母出生應佛緣佛報佛	-11.2559
殘罪所追	-11.2559
殺數千人	-11.2559
燃燈燒香	-11.2559
當證知	-11.2559
疫病	-11.2559
皆使聞之	-11.2559
而立呪誓	-11.2559
花菓	-11.2559
若有奪人	-11.2559
覺已知無	-11.2559
違理太甚	-11.2559
釀	-11.2559
顛倒情奢	-11.2559
之四喻	-11.2559
兢	-11.2559
南無善宿	-11.2559
又會結願	-11.2559
哆訶	-11.2559
妄心無本	-11.2559
拪	-11.2559
有瑠璃七寶	-11.2559
死墮鐵丸地獄	-11.2559
沖	-11.2559
試印	-11.2559
隨從大仙	-11.2559
食米蕩盡	-11.2559
廟	-11.2559
延年益	-11.256
前以頭面著地	-11.256
行業	-11.256
項	-11.256
才	-11.256
願大慈尊	-11.256
十方佛土	-11.256
見一老	-11.256
手把金杖	-11.256
云何一法中如生種種見	-11.256
不畏諸魔外道之難	-11.256
此會眾及未來	-11.256
題諸法	-11.256
得菩薩身	-11.256
一一門外	-11.256
大斗重秤	-11.256
憎愛	-11.256
謂呼為實	-11.256
鐙	-11.256
及見未來	-11.256
如法住	-11.256
七十萬	-11.2561
亦復歸命南方	-11.2561
受其殃	-11.2561
在在處處廣宣流布	-11.2561
從本已來未曾報恩	-11.2561
欻	-11.2561
讀誦講說	-11.2561
二千同號	-11.2561
旱	-11.2561
普賢行	-11.2561
兒息	-11.2561
有一童子	-11.2561
跋陀羅	-11.2561
伏諸魔	-11.2562
若在病困中	-11.2562
故說	-11.2562
諸佛名乃至	-11.2562
釋迦文佛	-11.2562
香湯	-11.2562
慈心養命	-11.2562
皆悉遠離	-11.2562
求名譽	-11.2562
爛壞	-11.2562
眼耳鼻舌身意	-11.2562
群品	-11.2562
遙聞	-11.2562
䩛勒	-11.2562
動舌轉斷默	-11.2562
服於法藥消煩惱病	-11.2562
未滿十	-11.2562
甑	-11.2562
行四等心	-11.2562
諸樹行列	-11.2562
醫師	-11.2562
以自防	-11.2562
僧殘	-11.2562
周匝鐵	-11.2562
如無授者	-11.2562
淡	-11.2562
無處不遍	-11.2562
符書厭禱呪	-11.2562
說是大乘	-11.2562
護持禁戒	-11.2562
以何等隨隨自性流	-11.2562
從此已上四天	-11.2562
復言隨自性流	-11.2562
戒定智慧	-11.2562
毘舍	-11.2562
而常流轉	-11.2562
諸惡毒	-11.2562
七殺之所	-11.2562
三千餘人	-11.2562
下正觀中	-11.2562
仙人玉女	-11.2562
佛說要行捨身經	-11.2562
倫	-11.2562
否	-11.2562
含識有形	-11.2562
天竺	-11.2562
嬰孩	-11.2562
從穿	-11.2562
微罪所追	-11.2562
或見我身	-11.2562
棗	-11.2562
琴戲	-11.2562
琶	-11.2562
瞿曇	-11.2562
禪照	-11.2562
豹	-11.2562
蹤緒無	-11.2562
閔	-11.2562
願畢	-11.2562
餘糧	-11.2562
初不聞	-11.2562
及餘他方	-11.2562
媾	-11.2562
會結願紫微山	-11.2562
欲得菩提	-11.2562
澄澄	-11.2562
訶	-11.2562
讀誦經	-11.2562
尤	-11.2562
皆見化佛	-11.2563
菩薩僧者	-11.2563
解我意	-11.2563
地神王	-11.2564
俱胝	-11.2564
受畜生身	-11.2564
厭惓	-11.2564
參羅及萬像一法之所印	-11.2564
圓光	-11.2564
虛無湛	-11.2564
燒香供養	-11.2564
十那由他	-11.2564
掛	-11.2564
於是東方	-11.2564
心亦	-11.2564
受持者書寫	-11.2564
於其住處	-11.2564
斷諸煩惱	-11.2564
無瑕穢	-11.2564
迎其精神不	-11.2564
一異俱	-11.2564
危脆	-11.2564
是即名為	-11.2564
滅除十惡業	-11.2564
諦信之	-11.2564
都無此肉	-11.2564
𣿖	-11.2564
曼	-11.2564
大病本亦有百一	-11.2564
爵	-11.2564
佐	-11.2564
譽	-11.2564
徐	-11.2564
肩	-11.2565
萬同號	-11.2565
總持	-11.2565
天眼者	-11.2565
兜	-11.2565
九十地獄	-11.2565
云何可度	-11.2565
身心本來	-11.2565
方三十八佛	-11.2565
怛	-11.2565
摩睺羅伽人非人等	-11.2565
傷嘆	-11.2565
所須之物	-11.2565
擾多務	-11.2565
諸法實相	-11.2565
逾	-11.2565
違背實相	-11.2565
􂎕	-11.2565
著相求	-11.2565
土沙	-11.2565
或兄	-11.2565
歎息	-11.2565
歡欣無量	-11.2565
災殃	-11.2565
諸道義	-11.2565
同輩	-11.2565
尋光雲集	-11.2565
我不應得佛	-11.2565
津	-11.2565
色聲香味	-11.2565
貪欲恚癡	-11.2565
若有比丘比丘尼清信士	-11.2565
泆	-11.2565
空無有無	-11.2565
若侵損	-11.2565
非不得樂	-11.2565
在家出家	-11.2565
妄情	-11.2565
懸繒幡蓋	-11.2565
有深有淺	-11.2565
趙	-11.2565
黿	-11.2565
五姓	-11.2565
以大願船	-11.2565
傷已迷	-11.2565
光輝	-11.2565
十人之力	-11.2565
厭安行	-11.2565
去地一千尺	-11.2565
及國內人民	-11.2565
受持陀羅尼呪	-11.2565
大臣宰相一切士官	-11.2565
已下舉	-11.2565
彫落	-11.2565
從何所來欲	-11.2565
怏	-11.2565
憍陳如	-11.2565
於此法中	-11.2565
明流通分	-11.2565
是大菩薩摩訶薩	-11.2565
有能受持寶車菩薩經	-11.2565
未通者	-11.2565
毀犯	-11.2565
水火盜賊	-11.2565
況餘	-11.2565
無是可是	-11.2565
疾疫	-11.2565
脫諸難	-11.2565
苞羅	-11.2565
若前人	-11.2565
言語此人	-11.2565
闇誦棄惡從善	-11.2565
離名數故	-11.2565
餘如上說	-11.2565
𦟛	-11.2565
百億世界	-11.2566
天眼觀	-11.2566
巷	-11.2566
駄	-11.2566
伎	-11.2566
都由	-11.2567
眾寶莊嚴	-11.2567
南無二萬	-11.2567
妙良藥	-11.2567
威儀具足	-11.2567
雄猛	-11.2567
卉木	-11.2567
志誠	-11.2567
惡瘡膿血遍體	-11.2567
火焚燒	-11.2567
或取五綵	-11.2567
兩頭	-11.2567
將法逐法	-11.2567
鬪亂人	-11.2567
不闕	-11.2567
嫁得夫主	-11.2567
恚恨	-11.2567
精微	-11.2567
亦復歸命北方	-11.2567
以斯空眼常看空色	-11.2567
如來應正等覺	-11.2567
惡見塵勞	-11.2567
懷抱	-11.2567
掘	-11.2567
無言無說	-11.2567
負重	-11.2567
阿毘	-11.2567
伴	-11.2567
炙肉	-11.2567
手把金	-11.2567
絞	-11.2568
短小	-11.2568
淨慧	-11.2568
慎勿	-11.2568
敗壞	-11.2568
瘻	-11.2568
魄	-11.2568
斷惡從善	-11.2568
炙肉之人	-11.2568
信順之	-11.2568
四維上下	-11.2568
文勢	-11.2568
下對境修	-11.2568
八萬四千人俱	-11.2568
走避	-11.2568
以慈悲故影現	-11.2568
哀戀	-11.2568
寒熱	-11.2568
炳	-11.2568
無動亂故則	-11.2568
無男無女無貴無賤	-11.2568
而無伴	-11.2568
若有依者	-11.2568
解一句	-11.2568
頑愚	-11.2568
鹿苑	-11.2568
諸惡獸	-11.2568
帝釋承書關下	-11.2568
此輩眾生	-11.2568
門戶井竈	-11.2568
何得不空	-11.2568
修何功德	-11.2568
分布	-11.2568
士庶	-11.2568
并及國界臣	-11.2568
心王自在	-11.2568
欲言其	-11.2568
無明根本	-11.2568
鋤	-11.2568
七百七十佛下生	-11.2568
世間空虛無	-11.2568
乃知虛妄	-11.2568
二事相須	-11.2568
信誑	-11.2568
可受不	-11.2568
圓融	-11.2568
天地破壞	-11.2568
徑	-11.2568
忱	-11.2568
於三寶所	-11.2568
是經能與眾生開大	-11.2568
有六千四百種	-11.2568
未得無生	-11.2568
混融大寂	-11.2568
無同無不同	-11.2568
略舉	-11.2568
百億鐵圍地獄	-11.2568
種姓	-11.2568
積習	-11.2568
維摩朔	-11.2568
總持無量	-11.2568
耳眼鼻舌身意	-11.2568
若名字定無	-11.2568
蠶蟲	-11.2568
隨諸眾生	-11.2568
頰	-11.2568
三菩提心	-11.2568
到涅槃岸	-11.2568
字槃	-11.2568
孚	-11.2568
形更受	-11.2568
盻	-11.2568
鐵蟒	-11.2568
譏	-11.2569
欲殺	-11.2569
世尊云何名	-11.2569
䠒合掌	-11.2569
九十九	-11.2569
奮迅	-11.2569
一切眾生身內二種	-11.257
如法修行	-11.257
而求佛者	-11.257
無垢清淨	-11.257
括	-11.257
優鉢羅華	-11.257
殞	-11.257
裂	-11.257
吏	-11.257
若有所疑	-11.257
如汝所問	-11.257
膿血	-11.257
一佛境界百億	-11.257
促短	-11.257
南無弗沙	-11.257
寂照照寂	-11.257
惻	-11.257
虛空無礙	-11.257
黃金水精作	-11.257
耳中	-11.257
慇重	-11.257
為欲調伏	-11.2571
可憐	-11.2571
惡心瞋心	-11.2571
三種人	-11.2571
項背光明	-11.2571
亦念人	-11.2571
仙賢	-11.2571
虱	-11.2571
莎	-11.2571
南無三萬	-11.2571
死墮肉山地獄中	-11.2571
橫害	-11.2571
燃燈續明	-11.2571
死墮斬	-11.2571
湛然不動	-11.2571
真佛弟子	-11.2571
墮泥犁	-11.2571
其池四岸有種種	-11.2571
妄執	-11.2571
屋椽	-11.2571
常處於三毒長養於	-11.2571
無目之人	-11.2571
若不發問	-11.2571
誦讀	-11.2571
證實相者知此陰中本來無色	-11.2571
南無無垢藏	-11.2571
安樂國	-11.2571
戚	-11.2571
故言眼不自見	-11.2571
死墮毒蛇	-11.2571
礔	-11.2571
見佛禮拜	-11.2571
信聖情慇	-11.2572
假他	-11.2572
施設	-11.2572
破封	-11.2572
一有心	-11.2572
下類凡夫	-11.2572
二鼠嚙	-11.2572
亡心息意	-11.2572
今世數逢	-11.2572
他所敵軍不能侵	-11.2572
作帳	-11.2572
僧菓子者	-11.2572
先世犯	-11.2572
千支	-11.2572
南無才	-11.2572
啼過度	-11.2572
太和	-11.2572
強勸比丘酒者	-11.2572
愛敬	-11.2572
懃行流布	-11.2572
撮	-11.2572
故稱為	-11.2572
旃檀窟	-11.2572
未來諸佛名	-11.2572
毀辱	-11.2572
無礙菩薩摩訶薩聞法歡喜	-11.2572
知眼屬緣	-11.2572
福德除	-11.2572
紀不同	-11.2572
緋	-11.2572
聰明智慧	-11.2572
色亦無實	-11.2572
萬七千人	-11.2572
處而求佛身	-11.2572
蛇螫	-11.2572
言語道斷	-11.2572
訊	-11.2572
變顯現	-11.2572
貪嗔等或	-11.2572
輪輻	-11.2572
離希	-11.2572
𠿇	-11.2572
澍	-11.2572
府	-11.2572
般若	-11.2573
緣外境界	-11.2573
己身明淨如	-11.2573
若有病痛	-11.2573
甘雨	-11.2573
招禍	-11.2573
騎	-11.2573
佛說無常三啟經	-11.2573
宿王華	-11.2573
不可測	-11.2573
婬女	-11.2573
拘物頭華	-11.2573
波頭摩華	-11.2573
身根具足	-11.2573
鄭	-11.2573
五蓋五欲	-11.2573
措	-11.2573
晝夜擁護令	-11.2573
講說經律	-11.2573
一千同號離	-11.2573
亦復歸命下方	-11.2573
堅牢	-11.2573
本來無所動諸佛	-11.2573
身諸毛孔	-11.2573
難踰	-11.2573
求其長短	-11.2573
兔	-11.2574
晉國	-11.2574
輝	-11.2574
半月	-11.2574
朋	-11.2574
一切世界入一	-11.2574
叉手	-11.2574
鈴鐸	-11.2574
二明眼色既空	-11.2575
南無阿彌陀佛	-11.2575
逕歷	-11.2575
壽終之後	-11.2575
逕年	-11.2575
崇重	-11.2575
二十日	-11.2575
有津液	-11.2575
毒乳相和	-11.2575
眾生不達	-11.2575
忙	-11.2575
澡	-11.2575
當於來世	-11.2575
眾生性皆同	-11.2575
在中住	-11.2575
幡綵花蓋	-11.2575
澁滑	-11.2575
白虎	-11.2575
空無相無作	-11.2575
維摩度人	-11.2575
長夜受苦	-11.2575
雙結	-11.2575
青龍	-11.2575
三事空	-11.2575
世尊慰問	-11.2575
供齋	-11.2575
前件法	-11.2575
吉日然始	-11.2575
太寧寺	-11.2575
妙性	-11.2575
必定獲得無	-11.2575
於有覺性	-11.2575
未覺者	-11.2575
涅槃非有	-11.2575
混沌流	-11.2575
滅意定	-11.2575
狼狐來	-11.2575
若人一聞	-11.2575
邪偽	-11.2575
金剛堅彊	-11.2575
饍	-11.2575
驗知	-11.2575
倍增疑	-11.2575
吾今為汝廣開	-11.2575
所有餘食	-11.2575
杜	-11.2575
說行法	-11.2575
身中事	-11.2575
七女	-11.2575
普及	-11.2575
阿羅	-11.2575
同號普	-11.2575
貪嗔	-11.2575
傾動	-11.2575
光焰	-11.2575
講堂	-11.2575
大通方廣懺悔滅罪莊嚴成佛經卷	-11.2575
能為諸眾生問如	-11.2575
自得利益	-11.2576
趣菩提樹	-11.2576
名稱遠聞	-11.2576
破齋夜食	-11.2576
若能有一人	-11.2576
三月四月	-11.2576
精懃	-11.2576
豈能	-11.2576
狹劣	-11.2576
一切眾生身內二種法身	-11.2576
修福者是	-11.2576
娑訶世界	-11.2576
廣長舌	-11.2576
牛驢	-11.2576
眾邪惡鬼	-11.2576
萬億等方便	-11.2576
諦聽諦受	-11.2576
還來人身	-11.2576
食眾生肉	-11.2576
無倦	-11.2576
懊	-11.2576
佛告信相菩薩摩訶薩	-11.2577
荷	-11.2577
難思	-11.2577
敬仰	-11.2577
發菩提	-11.2577
梨耶	-11.2577
皆是宿世久遠	-11.2577
象馬牛羊	-11.2578
無慚	-11.2578
午時	-11.2578
健瞋	-11.2578
豪富	-11.2578
初誦至第三日	-11.2578
五陰三毒	-11.2578
謂之為實	-11.2578
雙泯是非	-11.2578
一切皆心心	-11.2578
八尺	-11.2578
宿業	-11.2578
殊特	-11.2578
笛	-11.2578
耳飡法音	-11.2578
聖化	-11.2578
哮吼	-11.2578
對治	-11.2578
就文分別	-11.2578
濟諸	-11.2578
無染常淨	-11.2578
用財	-11.2578
諸聲聞凡夫	-11.2578
七寶瓔珞	-11.2578
七百年	-11.2578
不敢違犯	-11.2578
信女等	-11.2578
劫欲盡	-11.2578
唵急速訶尼攝	-11.2578
喜養	-11.2578
在海水中	-11.2578
悉能容受	-11.2578
慶喜	-11.2578
應立塔廟	-11.2578
我等眷屬常來	-11.2578
所同無異	-11.2578
招集	-11.2578
捨邪歸正	-11.2578
枯木	-11.2578
眾生與法一如無二	-11.2578
秋	-11.2578
究其玄旨	-11.2578
緯	-11.2578
肌	-11.2578
設名題	-11.2578
誇	-11.2578
諾	-11.2578
讀是經者	-11.2578
賢善大士	-11.2578
選	-11.2578
釋迦得道	-11.2578
雜毒善	-11.2578
海藏	-11.2578
自恃	-11.2578
說為解脫	-11.2579
匙	-11.2579
愍而	-11.2579
塵數	-11.2579
暝	-11.2579
念佛三昧	-11.2579
請南方赤帝神王來	-11.2579
俱發聲言	-11.2579
寶明名字	-11.2579
冥理奉	-11.2579
刀山地獄	-11.2579
剪諸	-11.2579
教如實觀	-11.2579
二十二者	-11.2579
或有闇取	-11.2579
於是道人	-11.2579
種種諸形相	-11.2579
去世後我等當流布	-11.2579
常住二字	-11.2579
色究竟天	-11.2579
金剛之體	-11.2579
瓔珞	-11.258
世榮	-11.258
一時薄伽梵	-11.258
死墮飲銅地獄中	-11.258
遊步	-11.258
倚	-11.258
唵	-11.258
各隨所修	-11.258
如此夢事	-11.258
七百七十佛	-11.258
吾經者	-11.2581
乞人	-11.2581
動時	-11.2581
修慈悲心	-11.2581
恐畏	-11.2581
聾盲瘖瘂	-11.2581
三世諸佛之所	-11.2581
兜率天上	-11.2581
傾心	-11.2581
過咎	-11.2581
上有白銀	-11.2581
八輩	-11.2581
并諸寶物	-11.2581
律儀	-11.2581
故言色亦如是	-11.2581
臥則	-11.2581
說有鬼	-11.2581
殺良善	-11.2581
妄渴心息	-11.2581
巡	-11.2581
常得聞正法	-11.2581
廓	-11.2581
故云皆得	-11.2581
燒殺	-11.2581
申酉年	-11.2581
皆由寶車	-11.2581
高遷富貴	-11.2581
一日之中	-11.2581
何況入中	-11.2581
取蜜	-11.2581
地夜叉	-11.2581
心滅意	-11.2581
愕	-11.2581
月光明王	-11.2581
未曾暫	-11.2581
無本無住	-11.2581
猶為無	-11.2581
解脫之果	-11.2581
饌	-11.2581
香林三昧	-11.2581
不得橫來	-11.2581
臨命終時	-11.2581
阿闍梨	-11.2581
毘耶	-11.2581
㘁哭	-11.2581
崛多	-11.2581
盡欲大樂	-11.2581
跋	-11.2581
凝	-11.2581
決罪福經	-11.2581
仲	-11.2582
化主	-11.2582
任他	-11.2582
數千萬	-11.2582
勸請隨喜	-11.2582
萬倍報	-11.2582
輪轉	-11.2582
縱廣三十	-11.2582
入一乘道	-11.2582
俱遊	-11.2582
慈光	-11.2583
昇天	-11.2583
寥	-11.2583
延壽經一百卷	-11.2583
神州	-11.2583
膖脹	-11.2583
劉	-11.2583
受持此經之人	-11.2583
九十同號	-11.2583
戒不淳	-11.2583
歎未曾有	-11.2583
當何所歸	-11.2583
靈鷲山	-11.2583
下有無極大風	-11.2583
不復覩見如來	-11.2583
十八不共法	-11.2583
坐寶蓮華	-11.2583
羅王	-11.2584
貢高自恃	-11.2584
上至第七	-11.2584
幡綵	-11.2584
煩惱交會	-11.2584
眾人樂	-11.2584
近惡友	-11.2584
如此經教	-11.2584
理俗	-11.2584
嬈惱	-11.2584
念妄心	-11.2584
不敢忘失	-11.2584
墓	-11.2584
常使是人臥	-11.2584
文字所由	-11.2584
滅福生	-11.2584
紫金作中	-11.2584
非是生滅之	-11.2584
分段	-11.2584
力力中力	-11.2584
娑	-11.2584
孝養	-11.2584
將領	-11.2584
得道迹	-11.2584
晨夜	-11.2584
殺業	-11.2584
法僧不滅	-11.2584
獵	-11.2584
皆現身	-11.2584
禮是三世佛	-11.2584
第六天上	-11.2584
身心是佛法器	-11.2584
韻	-11.2584
偏袒右肩右膝著地	-11.2584
其鑛	-11.2584
寶器	-11.2584
恭敬供養一切佛	-11.2584
意是分別識	-11.2584
應佛緣佛報佛	-11.2584
我今普禮一切十方三世諸佛	-11.2584
碓磑	-11.2584
諸餘外道行者遍遊罣形	-11.2584
酉子午	-11.2584
祕密圓教	-11.2584
芝	-11.2584
隨次	-11.2584
+	-11.2584
檢校	-11.2584
不聞真法	-11.2585
佐助	-11.2585
憐貧念	-11.2585
暫讀此經三遍	-11.2585
輻	-11.2586
氣絕	-11.2586
麥	-11.2586
佛說法句經	-11.2586
過無量壽	-11.2586
急去千里	-11.2586
此經一名	-11.2586
可丸如	-11.2586
常求諸	-11.2586
在毘耶離城中	-11.2586
寧以利刀	-11.2586
得足下平	-11.2586
殯	-11.2586
白疊	-11.2586
百日之中	-11.2586
知心住處	-11.2586
第十三	-11.2586
觀心住處	-11.2586
身皮肉筋	-11.2586
阿素洛	-11.2586
靉靆垂布	-11.2586
骸	-11.2586
𣏌	-11.2586
為汝問故	-11.2586
若色如是	-11.2586
針炙	-11.2586
阿迦貳吒天	-11.2586
是空滅	-11.2586
善見	-11.2586
得大陀羅尼	-11.2586
我從成佛	-11.2586
苦樂之事	-11.2586
故是名非	-11.2587
上所說	-11.2587
暫停	-11.2587
淳	-11.2587
途生死	-11.2587
坐中有	-11.2587
受持五戒	-11.2587
如赤子	-11.2587
阿婆	-11.2587
四攝法中	-11.2587
覩色	-11.2587
雖眾無	-11.2587
驢騾	-11.2587
佛說妙好寶車經	-11.2587
并共	-11.2587
百日已來每夢見得世間上味	-11.2587
陀伽	-11.2587
無定所	-11.2587
繼繼	-11.2587
芒	-11.2587
變作人像	-11.2587
供給	-11.2587
吾當出世	-11.2587
得佛法分	-11.2587
急去他方	-11.2587
為可不	-11.2587
無以可	-11.2587
這	-11.2587
一心一佛一性	-11.2587
其罪亦	-11.2587
命終之日	-11.2587
常聞正法	-11.2587
從心化生	-11.2587
成就無量功德	-11.2587
拔箭	-11.2587
智者呵責	-11.2587
朋友知識	-11.2587
檀施	-11.2587
洗浣	-11.2587
湛然常一	-11.2587
牢固	-11.2587
與上同	-11.2587
萬代	-11.2587
鬼獄	-11.2587
龍花初首	-11.2587
一切國王	-11.2587
不動身心	-11.2587
乃能解心之	-11.2587
今身畜多	-11.2587
南無善遊步	-11.2587
名為經卷亦名法	-11.2587
吐火	-11.2587
問八十種好	-11.2587
明呪祕呪一切諸藥	-11.2587
此二菩薩	-11.2587
發無上菩提心	-11.2587
眾人所棄	-11.2587
若受持若讀誦	-11.2587
赫奕	-11.2587
轉名無	-11.2587
阿賴耶識	-11.2587
雙泯善惡	-11.2587
漸衰	-11.2588
自當	-11.2588
伏連之鬼	-11.2588
符厭死喪新舊注雌雄破	-11.2588
馬瑙	-11.2588
為眾生說	-11.2588
破齋	-11.2588
萬八千	-11.2588
作畜	-11.2588
若能心不妄精進無有	-11.2589
度諸生死	-11.2589
雜物	-11.2589
於無量阿僧祇劫	-11.2589
邊地下賤	-11.2589
普潤	-11.2589
受持守護	-11.2589
泥洹後	-11.2589
無起作	-11.2589
剔除鬚髮	-11.2589
黑繩	-11.2589
令賊入	-11.2589
囑累	-11.2589
接引	-11.2589
數千萬劫	-11.2589
文字經教	-11.2589
汝諦聽受持	-11.2589
泯歸	-11.2589
發無上菩提之心	-11.2589
佛說智慧海藏經卷下	-11.2589
奄	-11.2589
縠	-11.2589
若自求者	-11.2589
蒲	-11.2589
不能捨	-11.2589
越三界	-11.259
安住佛法中	-11.259
萬刀輪一時來下	-11.259
生大憂惱	-11.259
孝子	-11.259
信實者少	-11.259
六欲天中	-11.259
唯然世尊	-11.259
慇重之心	-11.259
所饒	-11.259
不久速	-11.259
十千菩薩得無生	-11.259
破齋之人	-11.259
號明法王如來	-11.259
不求多文以取證義	-11.259
丘墟	-11.259
在虛空中	-11.259
故號世尊	-11.259
滿七日	-11.259
祐	-11.259
禍福	-11.259
藪	-11.259
貧病	-11.259
一時成佛	-11.259
不肖子者	-11.259
五百仙人	-11.259
作倡	-11.259
初明普光大眾	-11.259
囹圄繫閉	-11.259
國城妻子	-11.259
常與明師相	-11.259
舟	-11.259
行同凡夫	-11.259
轂車	-11.259
靜室	-11.259
上至諸佛	-11.259
不一不二	-11.259
不得大富	-11.259
內外表	-11.259
公司	-11.259
助三厨	-11.259
卜問	-11.259
吾欲畏是故求道	-11.259
四十九年	-11.259
大光普照	-11.259
妙色三昧	-11.259
宮殿樓閣	-11.259
悟無生忍	-11.259
智明三昧	-11.259
本來不動也	-11.259
板	-11.259
歸寂	-11.259
為法喪身	-11.259
燝	-11.259
自撲	-11.259
融銅灌口	-11.259
要由	-11.259
許護持此經	-11.259
諍不茹	-11.259
阿含經	-11.259
雨華動地	-11.259
非無非不	-11.259
鼈	-11.259
離眾苦	-11.2591
以不淨食	-11.2591
符厭赤舌之鬼	-11.2591
符厭遊天之	-11.2591
未解	-11.2591
自歸	-11.2591
正念解脫	-11.2592
能依本師	-11.2592
今現在	-11.2592
其光明中	-11.2592
欺誑	-11.2592
菜	-11.2592
諸有智者	-11.2592
屋裏	-11.2592
獨覺	-11.2592
置三乘	-11.2592
至誠	-11.2592
佛說如來成道經	-11.2592
南無普攝	-11.2592
南無普現色身	-11.2592
如芭蕉	-11.2592
若有見聞	-11.2592
誦此偈	-11.2592
一切檀越	-11.2592
兀	-11.2592
携	-11.2592
為利一切有情故	-11.2592
佛說觀經	-11.2592
過去未來	-11.2593
入佛知見	-11.2593
雲中	-11.2593
受持及讀誦	-11.2593
尋光	-11.2593
必致	-11.2593
紛動	-11.2593
涅槃舍	-11.2593
妄繼	-11.2594
百官	-11.2594
那致	-11.2594
青色	-11.2594
大彊精進勇	-11.2594
守真	-11.2594
五陰不聽	-11.2594
善於伎藝	-11.2594
契要	-11.2594
恃託一人	-11.2594
餘習未	-11.2594
千千萬	-11.2594
妄識不	-11.2594
於此中生	-11.2594
於毒害	-11.2594
樹木	-11.2594
白銀作中	-11.2594
若繫閉	-11.2594
赤繩	-11.2594
一心合掌白佛言	-11.2594
不住明空	-11.2594
不可為實	-11.2594
不洗一切	-11.2594
即不攀緣	-11.2594
含藏識	-11.2594
女婦	-11.2594
宿世久遠造五逆行	-11.2594
富㝹尼	-11.2594
小教法	-11.2594
從心意緣慮中修道	-11.2594
楞	-11.2594
法明三昧	-11.2594
瀅	-11.2594
男陽	-11.2594
若有兒啼	-11.2594
請命	-11.2594
讓利先人自居不足	-11.2594
貪法愛道順善	-11.2594
願與彼等常相	-11.2594
高下不淨	-11.2594
佛說延壽命經	-11.2594
哽噎	-11.2594
符厭比舍五土	-11.2594
挾	-11.2595
晝	-11.2595
一時聽法	-11.2595
終日	-11.2595
羅雙樹間	-11.2595
終日竟夜	-11.2595
六十二億	-11.2595
水煮之	-11.2595
蠢動	-11.2595
一人獨	-11.2595
二十一者	-11.2595
大眾及寶明菩薩	-11.2595
如上之罪	-11.2595
止宿	-11.2595
眾生人及非人	-11.2595
亦當讀誦此經典	-11.2595
圓具	-11.2595
大林藪	-11.2595
方圓	-11.2595
是大神呪	-11.2595
死獄死之	-11.2595
熾然流浪生死	-11.2595
牢強	-11.2595
祭	-11.2595
迷心波浪求	-11.2595
陀羅尼印三昧	-11.2595
爾時觀世音	-11.2595
佛說語已	-11.2595
妙色	-11.2596
丘	-11.2596
而說偈	-11.2596
方是	-11.2596
讚僧寶	-11.2596
震大法雷	-11.2596
躄	-11.2596
口銜	-11.2596
昔由	-11.2597
作義井	-11.2597
文書	-11.2597
萬字	-11.2597
我今涅槃時	-11.2597
赤眼	-11.2597
有三品	-11.2597
赤色	-11.2597
射箭	-11.2597
手脚中	-11.2597
法第一世尊	-11.2597
汝向所問云何	-11.2597
內朗	-11.2597
圜中	-11.2597
差後	-11.2597
樓上有	-11.2597
聰慧辯才	-11.2597
鐘	-11.2597
不詳	-11.2597
今身劫剝	-11.2597
則千萬不	-11.2597
哀愍我等	-11.2597
或尊或	-11.2597
扭	-11.2597
流離光	-11.2597
說所為	-11.2597
亡夫	-11.2597
令此眾生	-11.2597
俯身量等剎土塵虔心	-11.2597
力普及諸	-11.2597
可說百千億那由他佛剎微塵數同號普	-11.2597
心行莫緣	-11.2597
忉利天王	-11.2597
或有外現	-11.2597
或逕	-11.2597
所謂依	-11.2597
放恣	-11.2597
普賢菩薩行願王經	-11.2597
有形之類	-11.2597
正議大夫	-11.2597
死而復	-11.2597
為闡提人說	-11.2597
現在十方千五百佛名	-11.2597
百劫千劫百千	-11.2597
符厭日遊土氣之鬼	-11.2597
符厭星死之鬼	-11.2597
絹帛	-11.2597
綖	-11.2597
自然來至	-11.2597
驚恐	-11.2597
得何等	-11.2597
熱鐵丸	-11.2597
銅柱	-11.2597
千遍	-11.2597
共同一處	-11.2597
十同號光明	-11.2597
雜佛同號	-11.2597
法身惠命	-11.2598
護諸眾生	-11.2598
龜毛	-11.2598
燒好	-11.2598
蕩除	-11.2598
諸惡比丘亦復	-11.2598
中有一老	-11.2598
了了見	-11.2598
元年六月二十	-11.2598
南無善德	-11.2598
城池巷陌	-11.2598
激城	-11.2598
無量無邊恒沙	-11.2598
棺	-11.2599
手觸	-11.2599
諸境	-11.2599
佛說天地八陽神呪經	-11.2599
慈仁問八十種好經	-11.2599
燒其脂火	-11.2599
符厭客死之鬼	-11.2599
造作魅蠱	-11.2599
黿鼉	-11.2599
稷	-11.2599
鳥鳴	-11.26
與奪	-11.26
延長	-11.26
已下次	-11.26
嘷	-11.26
萬法平等	-11.26
唯願世尊為說	-11.26
喚聲	-11.26
而此功德	-11.26
豁然	-11.26
以何因緣	-11.26
嬉怡微笑	-11.26
汝今應當教諸眾生	-11.26
及諸尊菩薩	-11.26
本無所有	-11.26
正直菩薩	-11.26
無央數	-11.26
隱士	-11.26
世帝	-11.26
孝順父母	-11.26
火輪	-11.26
裹	-11.26
鳥鳴百怪	-11.26
於無量百千萬億恒河沙不可算數佛	-11.26
月英	-11.26
眾生雖無	-11.26
鐵鉤	-11.26
─────	-11.26
一切經一部	-11.26
上奏天	-11.26
乃知此非常	-11.26
五十同號	-11.26
今復自在	-11.26
伏圖	-11.26
佛為心王菩薩說投陀經	-11.26
南無山海慧	-11.26
又生蠶	-11.26
同下方名	-11.26
在於東海	-11.26
城墎	-11.26
墮於惡道	-11.26
大法聚池	-11.26
天繒寶	-11.26
嶮難	-11.26
我諸善友開	-11.26
救諸眾生一切苦難經	-11.26
流通此經	-11.26
無礙如日月所有	-11.26
瑋	-11.26
生死諸難	-11.26
皂王神通	-11.26
童男童女	-11.26
而無方便	-11.26
背負	-11.26
與一切眾生作	-11.26
舍利形像	-11.26
隨逐是人	-11.26
奉詔譯	-11.26
十方剎土中	-11.26
崛山	-11.26
耆	-11.26
經歷	-11.26
西方胡國中來	-11.26
車渠馬瑙珊瑚虎珀	-11.26
本免一	-11.2601
句樓秦佛	-11.2601
寫一本免一	-11.2601
寫兩本免	-11.2601
死者變成活	-11.2601
符厭兵	-11.2601
芽	-11.2601
詳定奉勅銀青光祿大夫	-11.2601
受持讀誦書寫	-11.2601
急難中	-11.2601
願以此功德普及於一切	-11.2601
佛是眾生	-11.2601
是人即得	-11.2601
各有異見	-11.2601
為諸大眾說	-11.2601
五穀不	-11.2601
無有彼此	-11.2601
佛性海藏	-11.2601
年歲次	-11.2601
眾中復有菩薩名曰	-11.2601
至心懺悔	-11.2601
諸煩惱	-11.2601
七十同號	-11.2601
三家使一牛五男同一婦僧尼巡門	-11.2601
不孝父母	-11.2601
五無間等諸	-11.2601
佛說天公經	-11.2601
假使有人純以	-11.2601
僧伽梨衣	-11.2601
千遍重罪皆消滅	-11.2601
大般涅槃經	-11.2601
大辨邪正	-11.2601
天龍藥叉	-11.2601
妙法蓮華經	-11.2601
復以此經大智	-11.2601
惡趣眾苦	-11.2601
散騎常侍昭文館學士權兼檢校	-11.2601
於我法中	-11.2601
此諸鬼神	-11.2601
漸沒	-11.2601
當來值彌勒	-11.2601
綴	-11.2601
縣開國	-11.2601
羽林將軍上柱國	-11.2601
脫亦難	-11.2601
舒金色	-11.2601
鉢盂	-11.2601
鳩槃荼人及	-11.2601
一時佛在王舍	-11.2602
大浮圖	-11.2602
㖒	-11.2602
佛說七千佛神符經	-11.2602
佛說山海慧菩薩經	-11.2602
勸善經一卷	-11.2602
四寶涌成高出一切	-11.2602
威勢	-11.2602
為其說法斷諸結漏得羅漢道	-11.2602
雷鳴雨	-11.2602
金有陀羅尼經	-11.2602
佛說現報當受經	-11.2603
城東門	-11.2603
大方廣佛花嚴經普賢菩薩行願王品	-11.2603
大方廣華嚴十惡品經	-11.2603
我今語汝	-11.2603
修集大乘	-11.2603
身下出	-11.2603
四天王各	-11.2603
空寂無生	-11.2603
躁	-11.2603
二十九者	-11.2603
炒	-11.2603
初偈明	-11.2603
殺生求	-11.2603
蒙度	-11.2603
須彌山頂	-11.2603
須飲	-11.2603
珠珍瓔珞	-11.2603
若老若少皆	-11.2603
邪婬	-11.2603
部洲	-11.2603
驅出	-11.2603
佛世難	-11.2603
地能生	-11.2603
蠕動	-11.2603
不著於水	-11.2603
世間一切人心	-11.2603
了境	-11.2603
佛說地藏菩薩經	-11.2603
像法決疑經	-11.2603
僧伽和尚	-11.2603
億劫受	-11.2603
光耀	-11.2603
勢力自在	-11.2603
十方無量剎	-11.2603
善精勤修	-11.2603
多諸過	-11.2603
如此體解	-11.2603
娑婆訶	-11.2603
寧喪身命	-11.2603
居中佛子眾圍繞	-11.2603
忘菩提心所有諸	-11.2603
怖迫	-11.2603
故眉	-11.2603
朽	-11.2603
次有銀	-11.2603
欲意者變	-11.2603
此飯	-11.2603
沾及	-11.2603
法句經疏	-11.2603
為小乘人說	-11.2603
稱謂斯斷	-11.2603
究竟大悲經卷第三	-11.2603
究竟大悲經卷第四	-11.2603
窖	-11.2603
諸惡友是人速見阿彌陀	-11.2603
都無生處	-11.2603
鐵山王	-11.2603
雖曰凡夫	-11.2603
雷電霹靂	-11.2603
靜住	-11.2603
類釋	-11.2603
龍華樹下	-11.2603
救疾經一卷	-11.2603
漏盡	-11.2603
坐金棺楯上	-11.2603
伏地	-11.2604
普賢菩薩說證明經	-11.2604
第一虐病	-11.2604
顯示實相	-11.2604
佛說父母恩重經	-11.2604
佛說善惡因果經	-11.2604
加葉菩薩	-11.2604
珍寶瓔珞	-11.2604
於我滅度後	-11.2604
南無龍種	-11.2605
六種見趣	-11.2605
博學	-11.2605
眾聖明了	-11.2605
圓寂	-11.2605
濁世	-11.2605
臨般涅槃	-11.2605
為欲攝取諸惡眾生令住善	-11.2605
至于	-11.2605
亦同然	-11.2605
修何行	-11.2605
家富	-11.2605
惡虫入	-11.2605
行願為一	-11.2605
三大阿僧祇劫	-11.2605
之果報唯佛知	-11.2605
亦作紫磨金色	-11.2605
以智慧力	-11.2605
作是說	-11.2605
信即成最勝功德聚	-11.2605
呪水七遍	-11.2605
大興善寺翻經	-11.2605
如是等菩薩摩訶薩	-11.2605
成等正覺轉法輪降伏一切魔軍眾	-11.2605
於勝菩提	-11.2605
普賢此行願	-11.2605
有中輪轉時	-11.2605
未來諸劫	-11.2605
濟物	-11.2605
病不愈	-11.2605
競來前	-11.2605
聞種種法	-11.2605
苅	-11.2605
解脫願成	-11.2605
入阿鼻地	-11.2605
空王佛時	-11.2605
佛說法王經	-11.2605
新菩薩經一卷	-11.2605
方寸七	-11.2605
眾生故即現	-11.2605
兩片	-11.2606
拘尸那	-11.2606
即授	-11.2606
目覩	-11.2606
一時佛住	-11.2606
後末世時	-11.2606
小乘四果	-11.2606
歎娛	-11.2606
羅大王	-11.2606
聞祕密圓教喜踊	-11.2606
眾魔外道	-11.2606
身業口業及意業	-11.2606
五百同號日	-11.2606
老病	-11.2606
一一地獄中	-11.2606
久署	-11.2606
容貌	-11.2606
拱	-11.2606
東廂	-11.2606
沙土	-11.2606
濟拔	-11.2606
西廂	-11.2606
非異非	-11.2606
二乘所	-11.2606
作車牛	-11.2606
修學大乘	-11.2606
劫海修行	-11.2606
勿有量	-11.2606
宿基	-11.2606
常生邪見	-11.2606
微細	-11.2606
我應入	-11.2606
普賢菩薩亦如是我	-11.2606
柱上懸金	-11.2606
每日念阿彌陀佛一千	-11.2606
海令清淨諸	-11.2606
生時不受戒	-11.2606
究竟大悲經卷第二	-11.2606
總持之	-11.2606
者服之即	-11.2606
行大供養盡未來劫	-11.2606
諸佛人及諸	-11.2606
迴向願我亦同於	-11.2606
選是擇非	-11.2606
還喚	-11.2606
頒下諸州	-11.2606
默誦	-11.2606
虛通	-11.2607
闍維之具	-11.2607
貧人	-11.2607
普賢行願力	-11.2607
若欲摧	-11.2607
太子右	-11.2607
尅	-11.2608
身長三	-11.2608
八陽之經	-11.2608
多摩羅跋	-11.2608
爾時雀梨浮圖	-11.2608
戰鬪	-11.2608
真容	-11.2608
說義不說文	-11.2608
受勅	-11.2608
怯	-11.2608
日月歲數	-11.2608
無明不起	-11.2608
佛說無量大慈教經	-11.2608
作七結	-11.2608
圓滿諸佛子中最	-11.2608
持經之人	-11.2608
普賢行等覺已	-11.2608
此普賢願	-11.2608
海令解脫	-11.2608
煩惱際我之願際量亦	-11.2608
逢大師已	-11.2608
隨分修習	-11.2608
特	-11.2608
心而	-11.2608
摧折	-11.2608
非見非	-11.2608
▁2917	-11.2608
依經我略	-11.2609
篩	-11.2609
廂	-11.2609
長者子	-11.2609
共坐	-11.2609
唯願世尊為諸邪見	-11.2609
縱多	-11.2609
乃至一闡提	-11.2609
造業	-11.2609
甘露法	-11.2609
百福莊嚴	-11.2609
積集少善根皆	-11.2609
自固	-11.2609
菩提過去十方	-11.2609
著綵色衣	-11.2609
諸法義願所希望	-11.2609
十善八齋	-11.2609
名之為偽	-11.2609
我從昔來	-11.2609
捨身受身	-11.2609
地自然生	-11.2609
普載	-11.2609
為人奴婢	-11.2609
第十五天上人	-11.2609
菴	-11.2609
人中最勝	-11.2609
他軍眾	-11.2609
仙能	-11.2609
僧中施	-11.2609
則同一十	-11.2609
力圓滿普賢行行力諸	-11.2609
呪七遍已而	-11.2609
善根為修普賢行迴向	-11.2609
在所墮生常	-11.2609
就聖道	-11.2609
序義	-11.2609
得無漏	-11.2609
從緣起	-11.2609
愛喜生	-11.2609
斂治	-11.2609
是故號之為普賢	-11.2609
材	-11.2609
法輕慢此法	-11.2609
波叫聲	-11.2609
海令圓滿諸佛	-11.2609
為人喜婬	-11.2609
為壞貪	-11.2609
無所罣礙	-11.2609
無明力所	-11.2609
眾寶普集	-11.2609
鎧仗防	-11.2609
陣	-11.2609
非見非說	-11.2609
非人等	-11.261
出現於世	-11.261
名為正中	-11.2611
禪師	-11.2611
恒常術	-11.2611
姊妹相將	-11.2611
為貪命	-11.2611
雲除	-11.2611
▁2901	-11.2611
功德之所不	-11.2611
功用絕	-11.2611
幽幽	-11.2611
怨親	-11.2611
有能讀誦此經	-11.2611
消滅永無餘	-11.2611
無緣觀菩薩	-11.2611
盡於虛空	-11.2611
親覩彌陀	-11.2611
醉酒	-11.2611
顏容	-11.2611
執己見	-11.2611
及諸天龍八部鬼神	-11.2612
難化難育	-11.2612
地芝	-11.2612
仰請	-11.2612
親侍	-11.2612
十九天名	-11.2612
名為邪中	-11.2612
入海水	-11.2612
下地菩薩之所	-11.2612
無量經教	-11.2612
闇室	-11.2612
十方諸剎土	-11.2612
所說毘奈耶	-11.2612
請轉於無上輪	-11.2612
世間愚癡人不信寶車經	-11.2612
死墮蟒蛇	-11.2612
神器	-11.2612
苦痛難可	-11.2612
飽滿	-11.2612
作餅	-11.2612
南無法自在	-11.2612
復五百世	-11.2612
有苑園浴	-11.2612
此經者即名	-11.2612
火焰	-11.2612
無數精進	-11.2612
當如如相說	-11.2612
超勝	-11.2612
鬼軍	-11.2612
寶蓮華	-11.2613
一百八	-11.2613
不信正法	-11.2613
周旋	-11.2613
常願與	-11.2613
行知語應受	-11.2613
佛還正坐告阿難言	-11.2614
尚書	-11.2614
章句	-11.2614
遠離生死	-11.2614
世尊我觀如來	-11.2614
係心在	-11.2614
佛說齋法清淨經	-11.2614
冥覺	-11.2614
同號蓮華香	-11.2614
實相亦	-11.2614
年此日	-11.2614
斷三寶種	-11.2614
月殿	-11.2614
無德之德	-11.2614
目錄	-11.2614
寶蓋	-11.2614
汝好受持	-11.2615
屬緣	-11.2615
出生諸	-11.2615
我滅度已	-11.2615
償宿	-11.2616
及花鬘	-11.2616
塗香及寶蓋	-11.2616
百節	-11.2616
若不分別	-11.2616
解窮	-11.2616
妻兒	-11.2616
帝王臣民	-11.2616
月八日	-11.2616
汝當受持	-11.2616
侍從	-11.2616
南無金剛不壞	-11.2616
如無簡擇	-11.2616
尅印	-11.2616
屠兒行上	-11.2616
恒受快樂	-11.2616
想牽	-11.2616
水大病本亦有百一	-11.2616
濁水	-11.2616
眾人敬仰	-11.2616
種植	-11.2616
翁	-11.2616
率	-11.2616
善巧	-11.2616
交流	-11.2616
摩頂	-11.2616
詣於	-11.2616
三萬佛同根本神	-11.2616
二千	-11.2617
死趣	-11.2617
百姓	-11.2617
南無妙德	-11.2617
若不布施	-11.2617
眾塵勞	-11.2617
妙衣服及薰香	-11.2617
風不動	-11.2617
善神加護	-11.2617
汝等眾生皆當一心	-11.2617
無功之功	-11.2617
無量音樂	-11.2617
燒香請	-11.2617
絕穀	-11.2617
統領	-11.2617
般泥洹	-11.2617
雜藥	-11.2617
七寶宮殿	-11.2617
寂意滅意三昧	-11.2617
菟角	-11.2617
智慧方便	-11.2617
髮文相	-11.2618
如針	-11.2618
軍眾	-11.2618
無欲無	-11.2618
不生邪見	-11.2619
信力故	-11.2619
相諦觀	-11.2619
為我徒眾	-11.2619
世間多有	-11.2619
建立一塵上如是無	-11.2619
二事者	-11.2619
修行善法	-11.2619
所愛之	-11.2619
無學無憂	-11.2619
不聽入	-11.2619
剎塵劫	-11.2619
合口	-11.2619
悉無殊	-11.2619
普賢之行	-11.2619
而至佛所	-11.2619
他婦女	-11.2619
六甲	-11.2619
南無海德	-11.2619
地肥	-11.2619
宿種善	-11.2619
封惡	-11.2619
岸上	-11.2619
是生滅法	-11.2619
毀破	-11.2619
種族	-11.2619
薩呼	-11.2619
賢者阿難	-11.2619
舍利	-11.2619
收槐子	-11.262
療諸	-11.262
淨穢	-11.262
善破此	-11.262
功德林	-11.262
平安	-11.262
積著	-11.262
轉不退	-11.262
如來弟子眾	-11.262
揵	-11.262
渴愛	-11.262
聲聞之人	-11.262
雖蒙	-11.262
及七世	-11.2621
到涅槃	-11.2621
令一切皆各	-11.2622
赤白	-11.2622
詮之	-11.2622
則兄弟	-11.2622
面目	-11.2622
上位	-11.2622
復逕	-11.2622
止聲	-11.2622
逮無所得	-11.2622
堂堂	-11.2622
如幻解脫力	-11.2622
瞻仰常於	-11.2622
陰陽氣以	-11.2622
已即時	-11.2622
應機	-11.2622
我初聞	-11.2622
箱	-11.2622
達縛	-11.2622
食粳米	-11.2622
一切諸佛解脫解脫知見海三昧	-11.2622
二十三日	-11.2622
今身禮佛	-11.2622
但䕪	-11.2622
優丘尼	-11.2622
共會	-11.2622
數息	-11.2622
稍	-11.2622
結氣	-11.2622
菩提行願	-11.2622
諸三昧海門	-11.2622
顛狂	-11.2622
佛在舍衛國	-11.2622
一乘道	-11.2622
惡苾芻	-11.2623
皆大歡喜踊躍	-11.2623
世尊今欲	-11.2623
大乘經典	-11.2623
斯由	-11.2623
于時	-11.2623
此大眾中	-11.2623
何憂	-11.2623
開目	-11.2623
胡言	-11.2623
我願行於	-11.2623
第十四	-11.2623
與彌勒尊佛	-11.2623
南無摩尼幢	-11.2623
正法不識	-11.2623
處於大眾中	-11.2623
釧	-11.2623
急去	-11.2624
土地出	-11.2624
黑風	-11.2624
決定大乘	-11.2625
來無所從	-11.2625
造十惡業	-11.2625
久存	-11.2625
藝	-11.2625
兩金	-11.2625
無上廣大	-11.2625
運行	-11.2625
作十惡業	-11.2625
會吾意	-11.2625
真實不虛	-11.2625
頭看	-11.2625
即讀此經三遍	-11.2625
及佛菩薩	-11.2625
與日月同	-11.2625
象王	-11.2625
得聞寶車經	-11.2625
愛網	-11.2625
我又一時讚歎	-11.2625
棄凡	-11.2625
父子	-11.2625
虎食	-11.2625
豐盈	-11.2625
走地	-11.2625
轉強	-11.2625
首羅比丘經	-11.2625
舉足	-11.2625
茯苓	-11.2626
遍此十	-11.2626
作是念已	-11.2626
遊於三世人師子	-11.2626
獲四如意	-11.2627
諸德海	-11.2627
南無電	-11.2627
建立一切法	-11.2627
乞願	-11.2627
彼行是等諸善	-11.2627
西北方	-11.2627
飢餓眾生	-11.2627
婦曰	-11.2627
方四佛	-11.2627
華臺	-11.2627
冥冥	-11.2627
荼	-11.2628
要請	-11.2628
強精進	-11.2628
定無故	-11.2628
說大乘法	-11.2628
輕重	-11.2628
改形	-11.2628
百千眾生	-11.2628
而復始	-11.2628
語論	-11.2628
以此取	-11.2628
問道人	-11.2628
狐眾	-11.2628
、《	-11.2628
一切佛境界海三昧	-11.2628
大智力智	-11.2628
是人有慧	-11.2628
自然消滅	-11.2628
作佛事	-11.2629
超過	-11.2629
聖僧	-11.263
教化諸眾生	-11.263
其蛇	-11.263
遠近	-11.263
在閻浮提	-11.263
失聲	-11.263
粟深	-11.263
純一	-11.263
獲如是福	-11.263
持此經	-11.263
四部眾	-11.263
入阿鼻地獄	-11.263
六十日	-11.2631
稱讚	-11.2631
眼色與心	-11.2631
遠行他	-11.2631
了了分明	-11.2631
不動不住	-11.2631
開示普賢	-11.2631
七尺	-11.2631
方便造	-11.2631
法觀者	-11.2631
)+	-11.2631
一切皆如是	-11.2631
不淨以為	-11.2631
亦無菩提	-11.2631
唯願世尊為眾宣說	-11.2631
土木	-11.2631
如此之事	-11.2631
欝離	-11.2631
者歸依佛	-11.2631
諸惡鬼神	-11.2631
長歎	-11.2631
食地芝	-11.2631
說偈	-11.2631
遊於三世諸最勝	-11.2632
獨語	-11.2632
悟第一義	-11.2632
識合	-11.2632
如護眼	-11.2633
餘念攝	-11.2633
東弗	-11.2633
西俱耶尼	-11.2633
啟發	-11.2633
海皆是諸佛	-11.2633
至心願	-11.2633
殿上	-11.2633
速往	-11.2633
學無學	-11.2633
恒居	-11.2633
盡消除	-11.2633
現受	-11.2633
希求	-11.2634
蓋障	-11.2634
在閻浮	-11.2634
不全	-11.2634
在人間	-11.2634
稱揚諸佛功德經	-11.2634
當付	-11.2634
諸天童子	-11.2634
出於世間	-11.2634
即名虛妄	-11.2634
設教	-11.2634
但叉	-11.2635
今身好喜	-11.2636
聖尊	-11.2636
十二因緣法	-11.2636
善知識力	-11.2636
安得有	-11.2636
獲得無量	-11.2636
父母恩	-11.2636
尊像	-11.2637
顯發	-11.2637
值佛聞法	-11.2638
長養眾生	-11.2638
一微塵上	-11.2638
見一道人	-11.2638
從蛇	-11.2638
花香	-11.2638
若有惡人	-11.2638
不住諸惡	-11.2638
馳散	-11.2638
一切草木	-11.2638
共分	-11.2638
金用	-11.2638
願諸福	-11.2638
一切諸魔	-11.2638
何所至	-11.2638
作何法	-11.2638
多逢	-11.2638
復作何	-11.2638
於其淨處	-11.2638
菩薩辟支	-11.2638
說不可說是如如說	-11.2638
飢時	-11.2638
無上法	-11.2638
具足十力	-11.2638
犁耕	-11.2639
譬如盲人	-11.2639
真實義	-11.2639
珠作上	-11.2639
今當請龍	-11.2639
假名字	-11.2639
若聞此法	-11.2639
體一相	-11.2639
存立	-11.264
豐嚴王	-11.264
目之徒	-11.2641
妨害	-11.2641
示教	-11.2641
良久	-11.2641
寶服	-11.2641
悉皆諍	-11.2641
文中初明	-11.2641
淨波羅蜜	-11.2641
僧力	-11.2642
常在	-11.2642
方術	-11.2642
所度眾生	-11.2642
日照	-11.2642
明星	-11.2642
乃至十方	-11.2642
作諸惡業	-11.2642
故罪性	-11.2644
有大風	-11.2644
常以軟	-11.2644
如師子王	-11.2644
同學	-11.2644
不溢	-11.2644
與眾生作	-11.2644
不顧	-11.2644
諸佛出世	-11.2644
性海	-11.2644
令消滅	-11.2644
只為	-11.2644
以惠力	-11.2644
德滿	-11.2644
大通方廣經卷中	-11.2644
常奉持	-11.2644
行行如海	-11.2644
可得識	-11.2644
若行此行	-11.2644
一震	-11.2644
大磨尼寶	-11.2644
如來何故	-11.2644
實諦諸罪	-11.2644
流星	-11.2644
當知世間	-11.2644
直心具說	-11.2644
肉髻	-11.2644
菩薩摩訶薩金剛相三昧	-11.2644
見臍中	-11.2644
設入	-11.2644
轉變	-11.2644
金剛頂三昧	-11.2644
鷄子	-11.2644
八種微妙	-11.2645
召集	-11.2645
從今無有或	-11.2645
俱共	-11.2645
未度	-11.2645
不懈怠	-11.2646
東南方	-11.2646
證理	-11.2646
勸學	-11.2646
誦滿	-11.2646
遍一切處色身三昧	-11.2646
作魅蠱	-11.2646
黠人	-11.2646
自下第二次	-11.2647
餘念	-11.2647
汝等眷屬	-11.2647
法成不	-11.2647
則易	-11.2647
却後	-11.2647
癡愛欲	-11.2647
供養彼等諸最勝	-11.2647
八音	-11.2647
寧神	-11.2647
悟理	-11.2647
月月	-11.2647
而致	-11.2647
罵僧	-11.2647
本壽	-11.2648
則名為	-11.2648
得生其中從此已下	-11.2648
明已	-11.2648
護身命經	-11.2648
夫天地	-11.2649
各將	-11.2649
常得親	-11.2649
百千劫	-11.2649
及現在	-11.2649
樂波羅蜜	-11.2649
南無寶蓮華	-11.2649
燒盡	-11.2649
狂花	-11.2649
迴向經	-11.2649
良善	-11.2649
梵王	-11.2649
近遠	-11.2649
薰我	-11.265
何等功德	-11.265
平除罪	-11.265
月九月	-11.265
自下第二以	-11.265
入一乘	-11.265
米五升	-11.265
咸令	-11.265
成無上道	-11.265
爾時東方	-11.265
來奉佛	-11.265
大眾之中	-11.265
內外清淨	-11.265
急依	-11.265
次後	-11.265
五毒	-11.265
尋後	-11.265
悟覺	-11.265
是非性	-11.265
老子	-11.265
要他	-11.265
大海智	-11.2651
大船	-11.2651
佛即是法	-11.2652
法名號	-11.2652
并餘	-11.2652
雖先	-11.2652
則無煩惱	-11.2652
若食肉者	-11.2652
與無量菩薩	-11.2652
可謂	-11.2652
長夜	-11.2652
勸諸眾生	-11.2653
用財貨	-11.2653
手執波若之	-11.2653
譬如慈母	-11.2653
妄生染著	-11.2653
愚夫不了	-11.2653
真佛智	-11.2653
隨流	-11.2653
同一病	-11.2653
世尊如佛所說	-11.2653
一事者	-11.2653
何期	-11.2653
成親	-11.2653
持五戒者	-11.2653
雨師	-11.2653
蓮花臺	-11.2655
遍緣	-11.2655
伺人	-11.2655
法船	-11.2655
云何於中	-11.2655
盡不	-11.2655
使諸眾生	-11.2656
如是無量無邊	-11.2656
我有方便令入	-11.2656
未來人天	-11.2656
捨無常	-11.2656
而要	-11.2657
憶想	-11.2657
分別性	-11.2657
性流	-11.2657
欲求解脫	-11.2657
負處	-11.2657
如願悉得	-11.2657
惠通	-11.2657
惡罵	-11.2657
時即名為	-11.2657
法身光明	-11.2657
縱廣四	-11.2657
謗因緣	-11.2657
順理	-11.2657
是名第	-11.2657
遍虛空	-11.2657
善牙	-11.2657
初偈	-11.2658
地藏菩薩經	-11.2658
從心出	-11.2658
智者能	-11.2658
若無煩惱	-11.2658
四聖	-11.2658
天帝	-11.2659
究竟平等	-11.2659
蜂王	-11.2659
體性清淨	-11.2659
聾者	-11.266
佛性未	-11.266
應思	-11.266
是故上盡	-11.266
色財	-11.266
是名出家	-11.266
入三塗	-11.266
所生子	-11.266
滅諸魔相三昧	-11.266
無恐懼	-11.266
睡時	-11.266
舍在	-11.266
梵行	-11.266
其身長大	-11.2661
免墮惡	-11.2661
獄囚	-11.2661
八戒	-11.2661
不捨眾生	-11.2661
求利	-11.2661
三事俱空	-11.2662
二十四者	-11.2663
色亦有	-11.2663
能洗	-11.2663
上尸	-11.2663
二卷	-11.2663
入律	-11.2663
去影	-11.2663
少福	-11.2663
香華	-11.2663
及彌	-11.2664
真金色	-11.2664
即於佛前而說呪	-11.2664
一法即	-11.2664
咸供養	-11.2664
橫來	-11.2666
慈愍一切眾生	-11.2666
亦不求	-11.2666
同共	-11.2666
名曰大乘	-11.2666
即是涅槃	-11.2666
五尺	-11.2666
染淨	-11.2666
身法聚	-11.2666
人受四	-11.2666
八陽經者	-11.2666
來奉	-11.2666
立福	-11.2666
王大臣	-11.2666
二升	-11.2667
種惡夢	-11.2667
樹性	-11.2667
生信解	-11.2668
南無現在	-11.2668
報恩	-11.2668
還國	-11.2668
一切天人	-11.2668
逕得	-11.2668
餘化	-11.2668
圓明	-11.2668
之主	-11.2668
外境	-11.2668
侍郎昭文館學士	-11.2669
生住滅	-11.2669
鬼神形	-11.2669
方便隨宜	-11.2669
如何於	-11.2669
若知心	-11.2669
黃色	-11.2669
告普賢菩薩	-11.2669
我身體	-11.2669
亦名智慧	-11.2669
罪垢	-11.2669
聲聞緣覺及	-11.2669
觀一佛性	-11.2669
凡無	-11.2669
畢竟空	-11.267
兄弟姊妹	-11.267
目前	-11.267
逆罪	-11.267
□□□,□□□□□□□,	-11.267
或正月	-11.2671
名出家	-11.2671
聽聞	-11.2671
印帶	-11.2671
方等經	-11.2671
是出家人	-11.2671
有富	-11.2671
吾教	-11.2672
老病死苦常	-11.2672
大經卷	-11.2672
明深法	-11.2672
且如	-11.2672
一逕	-11.2672
半見	-11.2672
取金	-11.2672
積罪	-11.2672
重玄	-11.2672
一千五百	-11.2673
十億菩薩	-11.2674
子見母	-11.2675
南無達摩	-11.2675
其臭	-11.2675
實際	-11.2675
乃能除	-11.2675
無能勝	-11.2675
一心智慧	-11.2675
一者離	-11.2675
七寶山	-11.2675
如是種種思之念之	-11.2675
悉現	-11.2675
若如是者	-11.2675
道人死	-11.2675
不見八難	-11.2675
並由	-11.2675
微妙上	-11.2675
橫病	-11.2675
能牽	-11.2675
普示	-11.2675
結實	-11.2675
空寂無	-11.2676
一切眾生身內佛	-11.2676
死墮寒氷地獄	-11.2676
智慧隨身	-11.2677
者不少	-11.2677
希儞希儞希	-11.2678
度願常	-11.2678
自然去	-11.2678
或君	-11.2679
宜令	-11.2679
父母家	-11.2679
一百日	-11.2679
四辯	-11.2679
汝當如是	-11.2679
解吾	-11.2679
邊地	-11.2679
閻浮眾生	-11.2679
長發	-11.268
以潤	-11.268
聞法因緣	-11.268
能制	-11.268
諸三昧	-11.2681
當今人間四	-11.2681
與他	-11.2681
觀諸眾生	-11.2681
壽命盡	-11.2682
化物	-11.2682
華香	-11.2682
蛇身	-11.2682
飛來	-11.2682
何得言	-11.2682
慎水	-11.2682
河水	-11.2682
皆由久修大乘	-11.2682
眾多劫	-11.2682
欲度眾生	-11.2683
貴於	-11.2683
除斷無量	-11.2683
此諸惡	-11.2683
不解此	-11.2683
無量人天	-11.2684
乘白	-11.2685
求涅槃	-11.2685
聲聞眾	-11.2685
謂實	-11.2685
光明中來	-11.2685
當墮地獄	-11.2685
雖施	-11.2685
黃門	-11.2685
自纏	-11.2685
於一劫	-11.2686
教化一切眾生	-11.2687
空中語	-11.2688
明呪祕呪藥	-11.2688
見振旦國	-11.2688
於如來滅後	-11.2688
流布故	-11.2688
喜見城	-11.2688
老不能	-11.2688
今始	-11.2688
覺轉法輪示	-11.2688
別識	-11.2688
息惡	-11.2688
普同	-11.2688
南無超	-11.2688
即是菩提	-11.2688
譬如金剛	-11.2688
上妙	-11.2689
法王子	-11.269
常樂我淨故	-11.269
使用	-11.269
居處	-11.269
流生死	-11.269
人應善	-11.269
譬如凡夫	-11.269
已然後	-11.2691
歸理	-11.2691
處虛空	-11.2691
種種光明	-11.2691
空花	-11.2691
若作他	-11.2691
見月光童子	-11.2691
不孝	-11.2693
日光如來	-11.2693
無能過	-11.2693
得授記我	-11.2693
後世受	-11.2693
唯然	-11.2694
恭敬供養	-11.2694
智炬	-11.2694
歸處	-11.2694
復離此	-11.2694
世尊聽許	-11.2694
所縛	-11.2694
此八種人	-11.2694
損身	-11.2694
佛語不虛	-11.2694
初始	-11.2694
於諸功德	-11.2694
墮黑闇地獄	-11.2695
明觀	-11.2695
歸一	-11.2696
為非	-11.2696
闡提眾生	-11.2697
不老不	-11.2697
菩薩住不退	-11.2697
為人貧窮	-11.2697
平地	-11.2697
可却	-11.2698
應重	-11.2698
雜華	-11.2699
如是見者	-11.2699
大法王	-11.2699
證無著	-11.2699
惑復	-11.2699
未合	-11.2699
獨自	-11.27
一切外道	-11.2701
四怨	-11.2701
觀世音菩薩摩訶薩	-11.2701
有菩提因	-11.2701
依法行	-11.2702
大熱	-11.2702
外現	-11.2702
度脫眾生	-11.2702
結解	-11.2702
等無差	-11.2703
令他	-11.2703
生善道	-11.2704
墮在	-11.2704
應同	-11.2704
不見愛	-11.2704
佛滅度後	-11.2705
如上法	-11.2705
無所知	-11.2705
破家	-11.2705
究竟無實	-11.2706
罪者悉皆	-11.2706
隨因緣	-11.2707
諸賊	-11.2707
殺母	-11.2707
具足大乘	-11.2707
中尸	-11.2707
然既	-11.2707
不習外	-11.2707
了義	-11.2708
眾患	-11.2709
南無珠	-11.2709
三尸	-11.2709
作是觀者	-11.2709
心懷歡喜	-11.2709
過度	-11.271
乃使	-11.271
成佛時	-11.271
爾時一切大眾	-11.271
制得	-11.271
十善為	-11.271
衣則	-11.271
種智	-11.2711
精進軍	-11.2711
藥王	-11.2712
或臣	-11.2712
遍莊嚴	-11.2712
慧日	-11.2712
念前	-11.2712
五大城	-11.2712
救苦	-11.2713
拔舌地獄	-11.2713
如人在	-11.2713
一佛一	-11.2713
懃行勸	-11.2713
伏身	-11.2713
恒持	-11.2713
不久皆	-11.2713
▁男子	-11.2713
二際	-11.2713
相光	-11.2714
不識尊	-11.2714
南無慈力	-11.2715
南無上首	-11.2715
遍體	-11.2715
如病得	-11.2715
來降伏	-11.2715
身上出	-11.2715
聖君	-11.2716
理是一	-11.2716
遣使者	-11.2716
諸導師	-11.2716
得視	-11.2716
導從	-11.2716
一闡提人	-11.2717
人壽二百五	-11.2717
眾生無明之	-11.2718
藥病	-11.2718
為宗	-11.2718
龍種上尊王佛法	-11.2719
貪取	-11.2719
得見世尊	-11.272
深解	-11.272
有八菩薩	-11.272
若見此經	-11.272
遣人	-11.272
三法衣	-11.272
二十三者	-11.2721
重任	-11.2721
人財	-11.2721
然燈佛	-11.2721
令其官	-11.2722
橫死不遭	-11.2723
不見諸法	-11.2723
中略	-11.2723
便捨	-11.2723
況能	-11.2723
深信	-11.2723
親知	-11.2723
南無過去無量	-11.2723
飯食	-11.2724
報德	-11.2724
妙用	-11.2724
無一	-11.2725
皆遊	-11.2725
無智人	-11.2726
年十一月	-11.2726
依因	-11.2726
等類	-11.2726
最勝大	-11.2726
諸菩薩摩訶薩	-11.2726
四日	-11.2727
名出世人	-11.2727
子息	-11.2727
所以名為	-11.2728
萬罪	-11.2728
無禪定	-11.2728
斷攀緣	-11.2728
何得定	-11.2728
不中夭	-11.2729
頭白	-11.2729
六根是	-11.2729
其癡	-11.2729
或在人	-11.2729
此間	-11.2729
隨師教	-11.273
萬世	-11.273
有情類	-11.273
釋迦牟尼佛所	-11.2731
以逕	-11.2731
無礙解脫	-11.2731
成大樹	-11.2731
色塵	-11.2732
名無自體	-11.2732
業而生	-11.2732
資容	-11.2732
識了	-11.2732
是經名為	-11.2732
覺性	-11.2732
異去	-11.2732
勝因	-11.2732
尋時	-11.2732
今身多	-11.2732
一惡言	-11.2732
是度眾生	-11.2732
如雲	-11.2733
諸龍鬼神	-11.2733
病冷	-11.2734
形命	-11.2734
若聞此經	-11.2734
還著	-11.2734
第二正	-11.2735
偈次明	-11.2735
復放	-11.2735
捨棄我	-11.2736
行檀	-11.2736
立死	-11.2737
十八阿鼻地獄	-11.2738
所有未來諸世	-11.2738
五香	-11.2739
二十七者	-11.2739
度難	-11.2739
諸類	-11.2739
平等供養	-11.2739
重障	-11.2739
生販賣	-11.2739
雖小	-11.2739
父母兄弟妻子	-11.274
與父母	-11.274
六者不	-11.2741
遊於	-11.2741
犯三寶	-11.2741
本空	-11.2741
四十二億諸	-11.2742
惠及	-11.2742
南無無勝	-11.2743
殺害眾生	-11.2743
相屬	-11.2744
國內	-11.2744
像法時	-11.2744
觸而	-11.2745
罪根	-11.2745
城地獄	-11.2745
守善	-11.2745
一切諸法無	-11.2746
無常住	-11.2746
此普賢行	-11.2746
致此	-11.2746
居空	-11.2746
行布施時	-11.2747
便覺	-11.2748
則分別	-11.2748
普功德	-11.2748
善根眾生	-11.2748
自融	-11.275
是故是人	-11.2751
十地	-11.2752
如雀	-11.2753
捨去	-11.2753
身觸	-11.2753
重不能	-11.2753
而命	-11.2754
大災	-11.2754
尊長	-11.2754
下有一	-11.2754
等須彌	-11.2754
憶是	-11.2755
藏用	-11.2755
聞法者	-11.2755
寶塔今	-11.2755
三長齋	-11.2756
若逢	-11.2756
身心起	-11.2756
古今	-11.2756
長命	-11.2757
畢竟不	-11.2757
九同號	-11.2757
兒即	-11.2758
其功	-11.2758
父母眷屬	-11.2759
處處在	-11.2759
南無金華	-11.2759
吾後	-11.2759
南無照	-11.276
為垣	-11.276
事多	-11.276
命終時	-11.276
鼻中	-11.276
最勝樂	-11.276
自滅亡	-11.276
自然解脫	-11.2761
三歸依	-11.2761
地味	-11.2761
常居	-11.2761
理觀	-11.2761
醫王	-11.2762
絕於	-11.2762
二十五者	-11.2762
轉用	-11.2762
如來大慈	-11.2763
所起	-11.2763
於諸身	-11.2763
十九者	-11.2763
施立	-11.2764
是名為實	-11.2765
人之命	-11.2765
順如	-11.2765
而告	-11.2765
頭火	-11.2765
一切眾生具足	-11.2765
非謂	-11.2765
謂五陰	-11.2766
異香	-11.2766
俱世間	-11.2767
消世間	-11.2768
或父	-11.2769
山石	-11.2769
知宿命	-11.277
欲酒	-11.277
復似	-11.277
現在十方	-11.277
其器	-11.277
佛神力	-11.2772
當爾時人	-11.2772
纏縛	-11.2772
出地獄苦	-11.2772
菩薩聖眾	-11.2772
輪相	-11.2773
中不得解脫	-11.2773
大陀羅尼呪	-11.2773
斬肉	-11.2774
利益無	-11.2774
三人病	-11.2775
豈是	-11.2775
食他	-11.2775
安著	-11.2776
欲來時	-11.2776
觀益中有	-11.2777
且觀	-11.2777
學所	-11.2779
行人觀	-11.2779
不相識	-11.2779
飽也	-11.278
引我	-11.278
高貴	-11.278
十方三世佛	-11.2781
絕大	-11.2781
多將	-11.2781
誰以	-11.2781
爾時佛在娑羅雙樹	-11.2781
親自	-11.2782
出家眾	-11.2782
十歲	-11.2782
常安隱	-11.2782
無心意	-11.2783
緣諸境不	-11.2783
口不能	-11.2783
老不聞	-11.2783
如須彌	-11.2784
塔中	-11.2784
老人	-11.2784
皆以一心	-11.2784
法雲	-11.2784
琉璃作	-11.2784
或犯十惡	-11.2785
從心性本際	-11.2785
世間所有	-11.2785
諸鬼	-11.2786
有眾多	-11.2786
宅中	-11.2786
又因	-11.2786
云何除	-11.2786
禪聚	-11.2786
潤枯	-11.2786
勝藏	-11.2787
色同	-11.2787
常和	-11.2788
同修	-11.2788
爾時下方	-11.2788
涅槃樂	-11.2788
一功	-11.2789
智覺	-11.2789
復以香	-11.2789
令法	-11.279
是以故天下	-11.279
兼復	-11.279
以一味	-11.2791
亦空故	-11.2791
如來嚴	-11.2791
如熱	-11.2791
出過三	-11.2791
已白師	-11.2792
自近	-11.2792
寂滅為	-11.2792
火滅	-11.2792
小惡	-11.2792
廣起	-11.2792
從竟	-11.2792
教除	-11.2792
後代眾生離	-11.2792
慈恩	-11.2793
無限	-11.2793
於惡世	-11.2793
無量聲聞	-11.2793
令失道	-11.2793
悲田者	-11.2794
四魔	-11.2795
臂菩薩	-11.2795
在時	-11.2795
波若	-11.2795
法忍也	-11.2795
深著	-11.2797
有為他	-11.2797
聖說	-11.2798
何心	-11.2798
盧舍那佛	-11.2799
口語	-11.2799
與剎土	-11.28
一佛二	-11.28
或夫	-11.28
加羅	-11.2801
如視	-11.2801
諸佛說法	-11.2802
信知	-11.2802
分別八識	-11.2803
顯名	-11.2803
佛告師子吼菩薩	-11.2804
則利	-11.2805
安在	-11.2805
難化	-11.2805
能得佛意	-11.2806
上方香積如來	-11.2806
相泯	-11.2806
地獄門	-11.2807
化身	-11.2807
大悲世尊	-11.2808
別世間	-11.2808
若其有	-11.2808
理成	-11.2808
以為毒	-11.2808
然後即	-11.2808
真用	-11.2808
大方等	-11.2809
分身者	-11.281
命根	-11.281
用好	-11.281
癡故	-11.281
初正勸	-11.2811
還來	-11.2811
刀利天	-11.2811
其頭	-11.2811
所有諸	-11.2811
順名	-11.2811
更復	-11.2811
病眼	-11.2811
真成	-11.2811
成實	-11.2811
能向	-11.2811
若見佛性	-11.2811
苦歸	-11.2812
得成佛道	-11.2812
溫和	-11.2813
莫念	-11.2813
護正法	-11.2813
久停	-11.2813
意想	-11.2814
麻子	-11.2814
不用法	-11.2814
正想	-11.2814
許心	-11.2814
六賊者	-11.2814
正寶	-11.2814
清淨諸業力	-11.2815
於三界	-11.2815
智慧眼	-11.2816
億諸佛所說	-11.2816
正真之道	-11.2816
右手指	-11.2817
心自起	-11.2817
即是妙	-11.2817
之印	-11.2817
佛自說	-11.2817
變為	-11.2817
縱有	-11.2818
本師	-11.2818
云何而有眾生聞即	-11.2818
不違背	-11.2819
唯願大慈尊	-11.2819
常性	-11.2819
若有清信士	-11.282
空谷嚮	-11.282
者勞	-11.2821
無為則	-11.2821
極苦	-11.2821
日月光明	-11.2821
無分別相	-11.2821
戴山谷	-11.2822
往生無量壽	-11.2822
大導師	-11.2822
如斯人	-11.2822
作五逆罪	-11.2822
五陰身	-11.2822
如是等罪	-11.2823
入山	-11.2824
此云	-11.2824
福罪	-11.2824
安穩處	-11.2824
不復生	-11.2824
業行	-11.2825
圓滿如	-11.2825
高大	-11.2825
福智	-11.2825
一者守	-11.2826
所依	-11.2826
如文殊師利	-11.2827
從因緣生	-11.2827
乃知	-11.2827
者輒	-11.2828
無量方便	-11.2828
體融	-11.2828
無缺	-11.2829
魔力	-11.283
斷常	-11.283
使知	-11.283
若書寫	-11.283
常近	-11.283
獸中	-11.283
前功德	-11.2832
以求人	-11.2832
得見我	-11.2833
如是禮拜	-11.2833
今既	-11.2833
如汝	-11.2834
謗是	-11.2834
諸乘	-11.2835
我當於	-11.2835
皆悉解脫	-11.2835
魔神	-11.2836
塵勞中	-11.2837
念命	-11.2837
欲利	-11.2838
後代	-11.2838
四向	-11.2838
十六天名	-11.2838
如來今日	-11.2839
昔來所	-11.2839
風災	-11.2839
生死故	-11.2839
須說	-11.284
五馬	-11.284
南無辯	-11.284
斷上	-11.2841
能知見	-11.2842
佛菩薩	-11.2842
未盡	-11.2843
通天	-11.2843
及諸菩薩	-11.2843
汝眼	-11.2844
兩手	-11.2844
可救者	-11.2845
雖不是於	-11.2845
今年	-11.2846
解脫之	-11.2846
受苦眾生	-11.2846
事用	-11.2846
因義	-11.2846
安寧	-11.2847
八十萬劫	-11.2847
破諸煩惱	-11.2847
何時	-11.2848
取寶	-11.2848
宿命罪	-11.2848
癡心	-11.2849
南無頂	-11.2849
情生	-11.2849
師子音聲三昧	-11.285
烏呼	-11.285
進心	-11.2851
正因	-11.2851
說不可	-11.2852
皆使	-11.2852
智起	-11.2852
惡性	-11.2852
或被	-11.2852
何為不	-11.2853
心堅固	-11.2853
樓至	-11.2853
惡國不	-11.2854
事力	-11.2854
幽冥	-11.2855
買者	-11.2856
便有之	-11.2856
造此經一	-11.2857
墮阿鼻獄	-11.2857
不可復	-11.2859
及餘	-11.2859
知聞	-11.2859
如牛	-11.286
二邊	-11.286
力普及普	-11.286
常爾	-11.286
隨其力	-11.2861
自下第三偈	-11.2862
深入無量	-11.2862
不習	-11.2862
爾來	-11.2862
即須	-11.2862
眼山	-11.2863
愚者入	-11.2863
如是大士	-11.2865
病愈	-11.2865
異意	-11.2866
一兩	-11.2867
應斷疑	-11.2867
盡唯	-11.2867
相對	-11.2868
音聲如來	-11.2868
身滿	-11.2868
乃起	-11.2868
待佛	-11.2868
生滅苦	-11.2869
雖滅	-11.287
眾香	-11.287
已曾	-11.2871
至彼	-11.2871
見於彼	-11.2871
常命	-11.2871
知世	-11.2871
我當行	-11.2871
在後	-11.2871
彌勒言	-11.2871
此城	-11.2871
持五戒	-11.2871
無義語	-11.2872
別作	-11.2873
他自	-11.2873
相殺	-11.2873
瑠璃城	-11.2874
甘露味	-11.2874
惱之	-11.2874
菩薩觀身	-11.2876
怖心	-11.2877
大寂	-11.2877
者狗	-11.2877
水大	-11.2877
南無妙意	-11.2878
定相	-11.2879
一切凡夫	-11.2879
不勉	-11.288
不出世間	-11.2881
妄言	-11.2881
時會	-11.2881
大千	-11.2881
諸波羅	-11.2882
對眼為	-11.2884
應念	-11.2884
為解脫	-11.2884
出城	-11.2885
於惡世中	-11.2885
南無無邊	-11.2885
』,	-11.2886
所學	-11.2888
時受苦	-11.2888
三喻明	-11.2889
普容	-11.289
下根	-11.289
未聞是	-11.289
樂好	-11.289
想見	-11.289
勝如	-11.2892
罵人	-11.2892
如五百	-11.2893
水乃	-11.2894
鬼語	-11.2894
鼻是	-11.2894
其髮	-11.2895
此理	-11.2896
相惑	-11.2896
能爾	-11.2897
心存	-11.2897
世淨	-11.2897
無偏	-11.2897
樂求	-11.2898
憶我	-11.2898
但空	-11.29
不任	-11.29
二形	-11.29
十三者世世	-11.29
令安穩	-11.29
盛之	-11.2901
莫復	-11.2903
治一	-11.2903
入手	-11.2903
香供養	-11.2904
剎那我	-11.2904
之獲益	-11.2906
似而	-11.2906
非聲	-11.2906
專心	-11.2906
佛即以	-11.2908
在地上	-11.2908
而行	-11.2909
罪畢復	-11.2909
壽二千	-11.291
菩薩大士	-11.291
百六十	-11.291
現作	-11.2912
但成	-11.2912
來出	-11.2913
如佛前	-11.2914
闇故	-11.2914
皆從一	-11.2914
生死苦	-11.2915
常受苦	-11.2915
作業	-11.2916
南無喜	-11.2916
南無釋	-11.2916
逕生死	-11.2916
無住故	-11.2916
於一心中而	-11.2917
有緣者	-11.2918
無定	-11.2918
一百九	-11.2918
覺了	-11.2918
無上果	-11.2919
地獄刑竟	-11.292
十三	-11.2922
岸無	-11.2922
為善	-11.2922
七地	-11.2922
宮城	-11.2923
一切眾生既	-11.2924
無縛	-11.2924
當清淨	-11.2924
此土之	-11.2924
五十	-11.2924
諸佛剎	-11.2926
令諸弟子	-11.2927
印人	-11.2927
如不諍	-11.2928
南無須	-11.2928
淨行	-11.2929
先去	-11.2929
勝樂	-11.2929
歲三月六	-11.2929
水洗	-11.2931
望之	-11.2932
信等	-11.2932
應供養	-11.2933
熟者	-11.2933
一切諸佛菩薩	-11.2935
身心定	-11.2935
求報	-11.2936
亡失	-11.2937
實事	-11.2937
聽食肉者	-11.2937
名數	-11.2938
空淨	-11.2938
眾聲	-11.2938
長則	-11.2938
常隨	-11.2939
四天王等	-11.294
數匝	-11.2941
前中有	-11.2941
明蒙記	-11.2943
眾生肉	-11.2944
祕密藏	-11.2944
不差	-11.2944
等虛空	-11.2944
說不以	-11.2945
▁垢	-11.2945
名字我	-11.2947
故致	-11.2948
從何所	-11.2948
時女	-11.295
走人	-11.295
而覺	-11.2951
案教奉	-11.2951
同光	-11.2951
海令得	-11.2951
王名	-11.2953
實是	-11.2954
意淨	-11.2954
正心正	-11.2956
亦無異	-11.2956
病熱	-11.2957
求三	-11.2958
佛子圍繞	-11.2958
大菩提	-11.2958
壞魔	-11.2959
二明因	-11.2959
罪了	-11.2959
天神地	-11.2959
雨潤	-11.296
上廣	-11.296
義不同	-11.296
當為汝分別	-11.2962
最上者	-11.2963
稱之	-11.2966
不覩真	-11.2966
從無始以來	-11.2967
說一	-11.2967
乘空而	-11.2967
未曾有一	-11.2967
阿難及	-11.2968
會宗	-11.2969
意在	-11.297
大眾等	-11.297
而共	-11.297
愍念眾生	-11.2972
如聾人	-11.2972
見實諦	-11.2972
諸妄想	-11.2973
便能	-11.2973
蓮華中	-11.2973
大空	-11.2973
願滿	-11.2974
諸神	-11.2975
聽是經	-11.2976
并法	-11.2976
命經	-11.2976
者是為	-11.2976
亦莫	-11.2978
志者	-11.2978
已前	-11.2978
重復	-11.2979
來詣佛	-11.2979
無處所	-11.298
可度量	-11.298
人命終已	-11.298
從頭	-11.2981
彼亦無	-11.2981
初一	-11.2981
佛道場生	-11.2982
諸佛前	-11.2982
而說之	-11.2982
刀林	-11.2982
護我	-11.2983
阿彌陀佛處於	-11.2984
阿難我	-11.2984
五陰煩惱	-11.2984
慈哀愍	-11.2984
諸障礙	-11.2985
大聖圓	-11.2985
向所說	-11.2985
萬劫不	-11.2985
知意	-11.2987
沙門大	-11.2987
到佛所	-11.2988
於無上	-11.2988
諸佛功德	-11.2989
爾時世尊即	-11.2989
教亦	-11.299
菩薩大士亦	-11.299
住立	-11.2991
受命	-11.2991
是經能與眾生作	-11.2991
子孫興	-11.2992
時開	-11.2992
謂言	-11.2992
云何可得	-11.2993
訶烏那致	-11.2993
上半牒其	-11.2993
印之	-11.2996
共生	-11.2997
如是布施	-11.2997
談法性	-11.2997
我波羅蜜	-11.2997
令除	-11.2997
作懺悔	-11.2998
若父	-11.3
沙訶	-11.3
寂體	-11.3001
不覆藏	-11.3001
邪見人	-11.3001
來前	-11.3001
願聞	-11.3001
法難聞	-11.3002
無中夭	-11.3002
異於	-11.3003
請如來	-11.3003
上品	-11.3003
知何	-11.3004
苦惱眾生	-11.3004
其中有	-11.3005
訕謗者	-11.3005
南無自在王	-11.3005
杵碎其	-11.3005
官法	-11.3006
於父母	-11.3006
歲以上	-11.3007
取義	-11.3008
世尊向	-11.3008
不須除	-11.301
度眾生令	-11.301
知三界	-11.3011
法河	-11.3011
手是	-11.3011
施悲田	-11.3011
相三昧起入	-11.3011
有出生	-11.3012
小善	-11.3014
沙門師利	-11.3014
若住一劫	-11.3014
是人爾時	-11.3014
亦深	-11.3014
又願	-11.3014
在世間	-11.3014
口食	-11.3015
分別五	-11.3017
佛讚	-11.3017
斷得	-11.3019
不信有	-11.302
失善	-11.3022
在其中	-11.3022
為凡	-11.3024
無明煩惱	-11.3024
示眾生	-11.3024
妄語	-11.3025
不作	-11.3025
一心垢	-11.3025
有為空	-11.3026
老苦	-11.3027
千萬歲	-11.3028
唯有如來	-11.3028
時至即	-11.3029
須彌寶山	-11.303
所種	-11.303
哀愍眾生	-11.303
手中	-11.3031
著善	-11.3032
為妄	-11.3033
讚誦	-11.3034
不知有	-11.3035
二相	-11.3035
生物	-11.3036
亂世	-11.3037
十五同號	-11.3037
七天	-11.3038
捨諸	-11.3038
見他舊	-11.3038
以善意	-11.3039
十六者舉	-11.3039
鬼王	-11.3039
自隨	-11.3039
作是見	-11.304
是故則無	-11.304
離身心而	-11.3041
無智者	-11.3041
見智惠	-11.3041
來時	-11.3042
無所著	-11.3043
行偈	-11.3044
號為釋迦牟尼	-11.3045
一一蓮華	-11.3047
離諸著	-11.3047
即白	-11.3047
凡有	-11.3047
我等天人	-11.3048
南無妙音	-11.3048
於塔寺	-11.3048
為眾生故	-11.3052
其命	-11.3052
七佛在	-11.3052
學法	-11.3052
目如	-11.3052
因受	-11.3054
離諸有	-11.3054
口常說	-11.3054
受佛教	-11.3056
所成	-11.3057
見性	-11.3058
求短	-11.3058
行道者	-11.3058
當云何	-11.3058
行正真	-11.306
心趣向	-11.3062
一切眾生云何	-11.3062
仙人所	-11.3062
如金剛	-11.3062
甚深要	-11.3064
於一心	-11.3064
非去	-11.3065
食則	-11.3065
南無金藏	-11.3065
德亦	-11.3066
難心	-11.3066
無垢如	-11.3067
作諸功德	-11.3067
有目	-11.307
依何	-11.307
此內	-11.3071
之類	-11.3073
我能知	-11.3073
令知	-11.3076
聞我說	-11.3076
滅已	-11.3076
道師	-11.3076
得成已	-11.3076
以妙	-11.3077
欲行	-11.3079
心境	-11.3079
四天	-11.3081
功德無量	-11.3081
亦不可得	-11.3081
佛還入第	-11.3082
八萬菩薩	-11.3082
非真	-11.3084
向刀山	-11.3084
常意	-11.3085
或果	-11.3086
兩耳	-11.3087
斯經	-11.3087
等利	-11.3087
彼等諸佛	-11.3087
不患	-11.3087
亦名法	-11.3092
三寶處	-11.3092
菩薩緣覺	-11.3093
眾等	-11.3093
七下	-11.3093
喜歌舞	-11.3094
日光明	-11.3095
無量大眾於	-11.3095
一清淨處	-11.3096
佛三匝	-11.3097
有執	-11.3097
致苦	-11.3097
南無虛空	-11.3098
廣長三十	-11.3099
一豪	-11.3099
如來弟子	-11.31
刀而欲	-11.3102
無善無	-11.3104
病痛	-11.3105
起煩惱	-11.3105
根方	-11.3105
動搖	-11.3106
同色	-11.3106
經文	-11.3108
一異	-11.3108
不得金	-11.3109
奉勅	-11.311
而還	-11.3111
觸之	-11.3112
道真	-11.3112
如是之人不	-11.3113
復入	-11.3113
教諸眾生	-11.3114
迦羅	-11.3115
於白	-11.3116
不飲	-11.3118
二字	-11.3118
邪中	-11.3119
得百	-11.3122
善因	-11.3122
大尊	-11.3124
一心法	-11.3124
生毀謗	-11.3124
應有	-11.3125
我於此	-11.3126
不得嬈	-11.3127
師子坐	-11.3127
乘之	-11.3128
而著	-11.3128
從日	-11.3128
為四	-11.3129
同師	-11.3129
用功	-11.3129
行十善	-11.3129
皆是一	-11.3129
謹慎	-11.3131
地菩薩之	-11.3131
大空智三昧	-11.3132
瓶中	-11.3132
邪神	-11.3134
鐵床地獄	-11.3135
佛說決罪福經卷	-11.3137
在空	-11.3137
作畜生	-11.3137
莫見	-11.3138
多陀	-11.3138
供養無量恒	-11.3138
以是因緣令	-11.314
眾生求	-11.314
南無普賢菩薩	-11.3144
即解	-11.3145
三十二者	-11.3145
世界能入	-11.3146
隨業	-11.3148
如猴	-11.3149
女等	-11.315
正智	-11.315
達菩薩	-11.315
即去	-11.3151
兩眼	-11.3152
談說	-11.3155
諸病	-11.3156
牽挽	-11.3156
斷惡趣	-11.3156
初心	-11.3156
千同號	-11.3156
所觀	-11.3157
成人	-11.3158
妙相	-11.3159
受誑	-11.3159
勞疲	-11.3159
不久得阿耨多羅三藐三菩提	-11.3159
五體投地而	-11.3162
炎幢	-11.3162
最尊	-11.3163
百億釋迦	-11.3163
法性自	-11.3163
侵損	-11.3163
眾生無	-11.3164
聲聞之	-11.3164
重光	-11.3165
虛無	-11.3166
了了明	-11.3168
食不	-11.3168
會之中	-11.3169
共法	-11.317
功德經	-11.317
聖之	-11.317
不時來	-11.317
布施畜生	-11.3172
度生死流	-11.3173
南無淨光	-11.3173
讀誦此經典	-11.3174
承事	-11.3175
專念	-11.3175
佛母聞此	-11.3178
即使	-11.3178
言文字即解脫用	-11.3179
及至	-11.3179
脈為水	-11.3181
劫等	-11.3183
治之	-11.3183
諸識	-11.3187
而至	-11.3187
瞋恚者	-11.3187
求名聞	-11.3188
輕罪	-11.3188
有言說	-11.319
大功德	-11.3191
法無	-11.3193
妻不識	-11.3193
人意	-11.3193
入盡	-11.3194
得瑜伽	-11.3194
一種人	-11.3195
不相知	-11.3196
現在世	-11.3197
無精進	-11.3197
得物	-11.3197
法界眾生	-11.3198
壽四千	-11.3199
受諸	-11.3199
說世	-11.32
南無百	-11.3201
大寶	-11.3202
慢法	-11.3203
一佛道場	-11.3204
證於	-11.3204
水則	-11.3205
其神	-11.3205
手如	-11.3205
若謂	-11.3205
出在	-11.3207
與作	-11.3208
爾時迦難羅	-11.3208
眾生病	-11.3209
地上	-11.3209
如僧	-11.321
多於	-11.3211
於理	-11.3211
界相	-11.3214
生者皆	-11.3219
際眾生無	-11.3219
思而	-11.3223
日天	-11.3223
無二心	-11.3224
而後	-11.3224
五者見	-11.3224
體即	-11.3224
短長	-11.3225
眾生命	-11.3226
或信	-11.3227
父母之恩	-11.3228
人命	-11.3229
十小劫	-11.323
誰遊三世	-11.3231
糞屎	-11.3231
五逆等	-11.3231
是影	-11.3231
故得齒	-11.3232
地涌出	-11.3233
令惡	-11.3233
性相是	-11.3235
身力	-11.3236
八部神	-11.3237
者悉能	-11.3238
樂作	-11.3239
文大	-11.3239
出世故	-11.3239
遂有	-11.324
千三百	-11.3242
已盡	-11.3243
迴向我	-11.3244
聽食肉	-11.3246
為初心	-11.3246
相依	-11.3246
因其	-11.3246
六十五	-11.3248
復至	-11.3248
死墮鐵窟	-11.3249
一切眾生從無始	-11.3251
由何	-11.3253
二十七	-11.3253
會空解	-11.3253
罪已	-11.3255
知如來常	-11.3255
以不知	-11.3256
奉教	-11.326
見聞	-11.326
地藏菩薩摩訶薩	-11.3261
明願	-11.3262
懃心作	-11.3262
殺之	-11.3265
南無深	-11.3266
云何如	-11.3267
久後	-11.3268
精進故	-11.3268
師法	-11.3272
像佛	-11.3273
垢性	-11.3273
南無寶莊嚴	-11.3276
眾中有	-11.328
得為	-11.3281
證也	-11.3281
出處	-11.3285
聲性空	-11.3286
於身上	-11.3286
法護	-11.3288
無殊	-11.329
付囑於汝	-11.3291
初住	-11.3291
身清淨	-11.3294
彼地獄	-11.3294
炎邊	-11.3295
得何	-11.3297
常食	-11.3297
為謗此	-11.3299
令得度	-11.33
戒之	-11.33
順者	-11.33
欲求者	-11.33
故不識	-11.3301
諸下	-11.3301
慧力	-11.3303
欲死	-11.3307
濟生死	-11.3307
以修	-11.3307
心悔	-11.331
諸患	-11.331
為此人	-11.3312
所不	-11.3316
心還	-11.3316
心無心	-11.3316
法即名	-11.3317
善知	-11.3317
所棄	-11.3318
願悉	-11.3319
無量生死	-11.332
身神	-11.332
刀山劍樹	-11.3321
即覺	-11.3321
我實	-11.3321
地者	-11.3321
壽六十	-11.3323
水上	-11.3323
爾時遣	-11.3324
三惡趣	-11.3324
明王雖	-11.3325
世諦之	-11.3327
懃心精進	-11.3327
五陰有故	-11.3328
四出	-11.3328
不積	-11.3331
為小	-11.3332
自利	-11.3336
心緣	-11.3336
七殺如	-11.3336
外經	-11.3339
是則是	-11.334
得病	-11.334
及今	-11.3341
行惡道	-11.3341
門觀	-11.3342
如是說者是	-11.3344
持此	-11.3344
聞而	-11.3345
是光	-11.3347
入善	-11.3348
以覺	-11.3349
而下	-11.3349
勝菩薩	-11.335
江河	-11.335
但眾生	-11.3352
所勅	-11.3352
我先	-11.3352
不能受	-11.3353
捨心	-11.3353
求一	-11.3353
時來	-11.3353
皆出	-11.3355
但言	-11.3355
何其	-11.3355
懺悔法	-11.3355
解者	-11.3358
地獄行	-11.3362
普濟	-11.3365
何故自	-11.3365
所及	-11.3366
以去	-11.3366
深心	-11.3366
彼行	-11.3366
同號不思議	-11.3367
是響	-11.3367
佛性者	-11.337
煩惱之中	-11.3373
斷煩惱	-11.3373
乃以	-11.3377
體一	-11.3378
一切病	-11.3378
我念	-11.338
不信三寶	-11.338
樂見	-11.3382
頭有	-11.3384
亦不在	-11.3385
聞此語	-11.3385
現世不	-11.3387
聞便	-11.3388
如種	-11.3389
是外道眷屬	-11.3395
如雪	-11.3396
背非	-11.3396
則有身	-11.3397
中泣血	-11.3399
吾為汝說	-11.34
修證	-11.3401
之香	-11.3403
令觀	-11.3403
水穀	-11.3404
所誑	-11.3405
十八界	-11.3406
力無有	-11.3406
心無念	-11.3408
修福不	-11.3408
大威德	-11.341
病不生	-11.3411
訶帝	-11.3412
是罪	-11.3413
皆同一	-11.3413
皆現前	-11.3414
我智慧身	-11.3415
之文	-11.342
十二天名	-11.3421
日之	-11.3424
觀空	-11.3424
受供養	-11.3425
相承	-11.3426
有益	-11.3427
所生之	-11.3427
惡皮	-11.3429
密教	-11.343
分中	-11.343
大作	-11.3431
諸來菩薩	-11.3431
熱氣	-11.3431
如母	-11.3434
非我先	-11.3434
知眼	-11.3435
南無智	-11.3437
中如	-11.3437
所憙	-11.3437
住於內	-11.344
不思	-11.3442
願捨	-11.3442
生故	-11.3442
若別	-11.3443
於十方	-11.3444
如來所	-11.3446
三千大千	-11.3448
恒寂滅	-11.3448
作罪不	-11.3448
南無教	-11.3451
能分別	-11.3453
地獄苦	-11.3455
以因	-11.3456
愚癡之人	-11.3456
多種	-11.3457
自在心	-11.3457
要先	-11.3459
罪生	-11.3461
一人能却	-11.3461
不須食	-11.3462
不妄	-11.3462
室然	-11.3464
如電光	-11.3464
是非無	-11.3464
腫病	-11.3465
金炎	-11.3466
道皆	-11.3466
無盡藏	-11.3466
覺有	-11.347
中國	-11.347
從九十	-11.347
諸非	-11.347
若人有	-11.3471
盡時	-11.3472
皆不實	-11.3473
地下	-11.3473
雖復受	-11.3474
欝金	-11.3474
無量苦惱	-11.3475
理融	-11.3478
順性	-11.3478
便不	-11.3478
北方水	-11.3479
因緣故	-11.3479
以應	-11.348
或受	-11.348
不定無	-11.3481
生施	-11.3482
復現	-11.3483
口言	-11.3483
不起二	-11.3486
解脫相	-11.3486
應一	-11.3486
志明	-11.3487
為可	-11.3489
諸定	-11.3489
名為一	-11.3491
心是空	-11.3492
轉身	-11.3495
要應	-11.3495
之果	-11.3497
達深義	-11.3499
煩惱亂	-11.35
用我語	-11.3503
立塔廟	-11.3503
生懈怠	-11.3503
持律	-11.3508
施我	-11.3509
南無日光	-11.3509
寫經	-11.351
寶勝菩薩	-11.3511
割肉	-11.3511
還無	-11.3512
莊嚴具	-11.3513
能所	-11.3514
一切混融	-11.3517
立得	-11.3518
是非恗談自所顯已濁他我慢陵欺謗毀	-11.3518
正受	-11.3519
賢善	-11.3519
相識	-11.352
二子	-11.3521
有雖	-11.3521
色與	-11.3522
成道	-11.3523
一門	-11.3524
分別也	-11.3525
過故得	-11.3528
云何生	-11.3528
一切眾生心	-11.3529
六日	-11.3529
劫破	-11.3532
眾智	-11.3533
一切諸天	-11.3537
心不起	-11.3537
門開	-11.3538
令眾得	-11.3538
萬年	-11.3538
捨身故	-11.3539
非色	-11.3539
第二偈	-11.3541
一切眾生聞	-11.3542
能問	-11.3544
有因緣	-11.3545
池水	-11.3546
皆清淨	-11.3547
一天堂	-11.3547
令其人	-11.3549
立即	-11.3552
乃敢發	-11.3555
法自在	-11.3556
▁意	-11.3557
悟空	-11.3557
疾人	-11.3558
故言一切眾生	-11.3558
四月一	-11.3559
知非非非	-11.3559
於愛	-11.356
常作	-11.3563
自燒	-11.3563
死時	-11.3564
之深	-11.3566
人在	-11.3569
乃成四	-11.357
下下	-11.357
病不	-11.357
五逆大	-11.3571
及菩薩	-11.3572
我因	-11.3574
大明呪	-11.3575
言此經	-11.3576
諸天所	-11.3576
法喜三昧	-11.3577
畢竟不生	-11.3577
持具戒	-11.3577
有智	-11.3578
命也	-11.3578
品十惡	-11.3581
可避	-11.3584
又無	-11.3586
四等	-11.3586
即能	-11.3588
飛騰	-11.3588
無量能	-11.3589
是佛真	-11.3594
一時者	-11.3595
者見人	-11.3595
達多	-11.3595
繞佛	-11.3597
對面	-11.3597
氣和	-11.3598
能造	-11.3601
理為	-11.3602
正以	-11.3602
末世時	-11.3605
受禁戒	-11.3606
始方	-11.3607
順教	-11.3608
名法行	-11.3609
覺悟	-11.3612
離本	-11.3613
百一同號	-11.3615
行何	-11.3619
皆滅	-11.3621
正等	-11.3623
說食	-11.3625
亦願	-11.3625
作此	-11.3626
寂靜故則無	-11.3626
此一	-11.3628
及非	-11.3628
人無	-11.3629
所念	-11.3631
觸相	-11.3632
無能壞	-11.3635
寫者	-11.3636
為度	-11.3636
摧伏諸	-11.3636
解空相三昧	-11.3641
香臭俱	-11.3642
能入	-11.3643
有國	-11.3644
第二十	-11.3644
尊豐	-11.3645
色從	-11.3647
此布施	-11.365
香臭一	-11.3652
無勞	-11.3653
生信復能解	-11.3654
即是菩薩	-11.3656
日滿	-11.3656
因是	-11.3656
長眼	-11.3662
然為	-11.3671
並得成	-11.3671
是佛法	-11.3672
此餓鬼	-11.3672
釋有	-11.3674
邪徒	-11.3675
人二十萬	-11.3676
誑人	-11.3676
得成就	-11.3677
受快樂	-11.3678
不共	-11.3679
八萬七千	-11.3681
知當	-11.3683
不救	-11.3683
稱佛	-11.3684
遍至	-11.3685
身滅	-11.3686
水之	-11.3687
施故得	-11.3687
聲悲號	-11.3688
一心奉行作禮而去	-11.369
善法故得	-11.3693
但是	-11.3695
大菩薩摩訶薩及	-11.3695
從今日	-11.3695
菩提之	-11.3696
須九	-11.3696
法智	-11.3697
若人無善根不得聞是	-11.3697
或繫	-11.3701
四歲	-11.3702
▁五	-11.3703
從緣	-11.3703
救人	-11.3706
是非不非	-11.3709
佛復告	-11.3711
為無罪	-11.3711
彼心	-11.3714
譬如高	-11.3716
高聲	-11.372
定得滅	-11.372
發意作	-11.3723
勝法	-11.3723
大苦	-11.3723
前念	-11.3725
福生	-11.3728
生其中	-11.3728
焚漂	-11.373
初一偈	-11.3731
念定	-11.3732
歡喜藏	-11.3739
願住	-11.374
意是	-11.3741
有善惡	-11.3742
分明解	-11.3742
問我	-11.3745
三者於	-11.3745
何處有	-11.3746
我想	-11.3746
本為	-11.3747
皆歸一	-11.3749
有一人	-11.375
壽八千	-11.375
南無解脫	-11.3753
離文	-11.3755
心若不	-11.3756
▁□	-11.3756
為本	-11.3758
一切諸法無我	-11.3758
名離	-11.3759
緣者	-11.376
之要	-11.3761
於定光佛	-11.3762
大乘決定	-11.3763
令說	-11.3765
法水	-11.3766
以是之故心	-11.3768
爾時世尊說是	-11.3769
下及	-11.3769
小心	-11.3769
心不緣	-11.377
等輩	-11.3773
眾寶	-11.3776
不動圓	-11.3779
人發意	-11.3779
難分別	-11.3781
三寶者	-11.3781
子若得	-11.3782
有情安樂	-11.3783
地獄人	-11.3785
從一小	-11.3786
不遠	-11.3786
東北	-11.3787
國城	-11.3788
故能入世間	-11.3789
觀外	-11.3789
生慳	-11.3789
若眼	-11.379
前中初明	-11.3791
而非	-11.3792
有佛	-11.3793
自上	-11.3793
南無大光	-11.3794
乘人說	-11.3794
即語	-11.3796
於夜	-11.3796
十一者世世	-11.3797
行入	-11.3799
勸觀	-11.3799
屬意	-11.38
同心	-11.3801
得水	-11.3801
如電	-11.3802
從何而	-11.3802
無心非	-11.3802
不濁	-11.3804
諸行願	-11.3804
知行違	-11.3807
云何三	-11.3809
其毒	-11.3809
離一心	-11.381
六惡	-11.3812
更無外	-11.3813
耳不	-11.3814
生不	-11.3814
無本即	-11.3815
不得妄	-11.3819
名波	-11.382
迷於正	-11.3823
意定	-11.3824
夢見四	-11.3824
必至	-11.3826
是眾罪	-11.3826
皆悉聞知	-11.3832
生果	-11.3835
不奉	-11.3835
及有	-11.3836
無垢光	-11.3837
渴得	-11.3837
為果	-11.3837
之物入手	-11.3838
一佛國	-11.3841
坑泥	-11.3842
境相	-11.3843
各發	-11.385
觀心相三昧	-11.3853
得阿羅漢	-11.3853
以名	-11.3855
持者為	-11.3858
新發	-11.3859
文明	-11.3861
云何今日	-11.3863
為令	-11.3863
先非	-11.3863
住不	-11.3865
佛說三厨經	-11.3867
與無	-11.3871
色界天人	-11.3876
第三會上	-11.3878
與子	-11.3878
樂人	-11.3879
墮鑊湯地獄	-11.3881
獲無量	-11.3884
二眾	-11.3885
不息	-11.3886
佛即見	-11.3887
廣莊嚴	-11.3887
能飛行	-11.3888
不請之	-11.3889
眾生著	-11.389
物以用	-11.3893
珍寶物	-11.3894
久受	-11.3896
須修	-11.3896
幻惑呪術	-11.3896
身血	-11.39
世世常	-11.3901
諸佛不	-11.3902
問深法	-11.3902
得羅漢道	-11.3902
生迫迮	-11.3902
無障無礙	-11.3903
佛說是經	-11.3904
我聞一時佛在	-11.3904
時宜	-11.3905
種種乘	-11.3908
妙良	-11.3908
五百世中常	-11.3909
修故	-11.3913
不能依	-11.3916
見其	-11.3916
令無	-11.3917
時眾中有一大士	-11.3917
平等不二	-11.3918
南無寶嚴	-11.3918
可得福	-11.3918
有樂	-11.3919
盡於	-11.392
法教	-11.3921
得上	-11.3921
南無度	-11.3922
上至頂天	-11.3925
修有	-11.3926
勸令	-11.3926
治化時	-11.3928
定起	-11.3931
八月	-11.3933
所有眾生	-11.3934
五光	-11.3935
住如來	-11.3936
言正	-11.3937
同聚	-11.3938
知而	-11.3943
淨明	-11.3943
但造	-11.3945
諸惱	-11.3947
三相	-11.395
一人三	-11.395
二境	-11.3951
隨世	-11.3955
名為二	-11.3958
者如	-11.3959
若犯	-11.3961
赤光	-11.3963
有罪業	-11.3966
至他方	-11.3969
自體非	-11.397
下此經	-11.397
處世	-11.3972
於一塵上微塵	-11.3972
能降伏	-11.3973
治道	-11.3975
無內	-11.3977
分之	-11.3979
一者於	-11.3981
目者	-11.3983
第一用	-11.3984
理無不	-11.3985
餘者	-11.399
今人	-11.3991
界性三昧	-11.3993
不語	-11.3998
住忍	-11.4
應於一	-11.4001
有因	-11.4002
子至	-11.4002
之神	-11.4005
眾生皆	-11.4005
煩惱若	-11.4007
從見	-11.4007
是味	-11.401
故知此	-11.4011
者不形咲	-11.4016
善相	-11.4021
可名	-11.4023
忿怒	-11.4023
之藏	-11.4023
人惡	-11.4026
同名為	-11.4026
南無拘	-11.4029
在三塗	-11.4029
生分別	-11.403
夫即	-11.4031
性一性	-11.4032
非理	-11.4032
能施	-11.4035
無方	-11.4035
為演說	-11.4035
無心無心是	-11.4036
慈藏	-11.4037
利益無量	-11.4038
見沙門	-11.4042
得無量	-11.4043
手捉金	-11.4045
問為	-11.4046
當努力	-11.4047
三惡	-11.4048
無量比丘	-11.4051
立功德	-11.4052
第一不	-11.4053
縱取	-11.4054
聽者	-11.4054
無功德	-11.4055
碓地獄	-11.4056
受持得	-11.4056
用心無	-11.4057
若知	-11.4057
清淨佛	-11.4058
若不持齋	-11.4059
若無有	-11.4059
依法	-11.4062
未來之	-11.4063
由延	-11.4066
其食	-11.4066
因故	-11.4067
不去	-11.4069
非同	-11.407
上智	-11.407
諸魔道	-11.407
無量寶	-11.4071
云何不	-11.4072
於深法	-11.4073
七十七	-11.4073
示所犯者瑜伽法鏡經	-11.4074
兒者	-11.4075
諸眷屬	-11.4075
色青黑	-11.4075
年至	-11.4077
大自在王	-11.4077
安置法	-11.4077
二十九	-11.4078
無思	-11.408
在三途	-11.4082
智慧無量	-11.4082
發來	-11.4084
應修	-11.4085
是一者即	-11.4088
屬眼	-11.4092
自出	-11.41
普為	-11.41
若取	-11.4102
作七	-11.4104
剋不	-11.4105
色有	-11.4106
修慈悲	-11.4107
護人身	-11.4114
畏故	-11.4118
之病	-11.412
有性	-11.4122
羅漢果	-11.4129
入佛	-11.4129
懈怠者	-11.4136
刀擲	-11.4137
淨行尼僧	-11.4137
無有緣	-11.4139
生死大	-11.4142
諸子	-11.4144
罪從心	-11.4149
成千	-11.415
之耳	-11.415
無不獲	-11.4153
然者	-11.4154
慧炬三昧	-11.4155
相當	-11.4156
非銷融	-11.4159
是汝明燈	-11.4159
日月普照	-11.416
為苦	-11.416
相因	-11.4162
甘露妙	-11.4163
生苦	-11.4164
依恃	-11.4165
請西方白帝神王來	-11.4166
請東方青帝神王來	-11.4166
有心即	-11.4168
可窮盡	-11.417
常波羅蜜	-11.417
藏所謂	-11.4173
如在	-11.4174
吾為	-11.4174
善入	-11.4176
而諸	-11.4178
殺佛	-11.4179
即至	-11.418
汝好諦聽諦聽	-11.418
除不至心	-11.4181
妙道	-11.4182
知此光	-11.4184
心遊	-11.4189
請北方黑帝神王來	-11.4194
一切眾生而	-11.4195
弟子某甲	-11.4196
方六佛	-11.4198
日服	-11.4202
嚴駕	-11.421
生無量壽	-11.421
世尊而此	-11.4211
行千里	-11.4211
定菩薩	-11.4214
南無五	-11.4215
鐵鋸	-11.4215
淚而言	-11.4215
上服	-11.4217
汝信	-11.4218
墮鐵輪地獄	-11.4218
諸緣	-11.4218
以惡	-11.4219
是汝脚足	-11.422
是緣	-11.4221
初我	-11.4221
身死	-11.4224
此大眾	-11.4225
能自	-11.4227
離諸惡趣	-11.4227
是汝善標	-11.4228
測佛	-11.4231
恒無	-11.4232
不求自	-11.4233
王宮	-11.4234
賢劫千佛	-11.4234
其身心	-11.4235
心口	-11.4236
維摩文殊	-11.4237
不能自見	-11.424
作何善	-11.4241
願心	-11.4242
故空	-11.4244
明人	-11.4245
中央土	-11.4247
阿蘇	-11.4249
遣我	-11.4249
水即	-11.4249
無量菩薩得	-11.425
若有能	-11.4252
不信佛	-11.4255
異類	-11.4256
者所有	-11.4258
難解	-11.4258
為三	-11.426
作自得	-11.4262
逆風	-11.4262
道心	-11.4264
南無琉璃光	-11.4275
覆障	-11.4277
念念不	-11.4278
上半	-11.428
死苦	-11.4284
為枯	-11.4294
無得無	-11.4295
說一偈	-11.4296
乘於	-11.4297
若未	-11.4298
學其	-11.4299
七種	-11.43
得聞此	-11.4301
非其	-11.4304
相續	-11.4309
量久	-11.4313
即與	-11.4314
中者	-11.4316
六味	-11.4316
為功德	-11.4317
云道	-11.4319
如來方便	-11.4319
大乘方廣經	-11.4321
佛亦	-11.4321
聞此呪	-11.4323
不度	-11.4323
十八者世世教	-11.4324
當讚	-11.4328
二即	-11.4331
眾共	-11.4338
無遺	-11.4342
但為	-11.4344
修善奉	-11.4344
世尊說為	-11.4345
此之謂	-11.4346
為利益	-11.4347
能遣	-11.435
煩惱心	-11.4351
此三種	-11.4353
有四種	-11.4354
速問	-11.4354
如理	-11.4355
鏡中面	-11.4355
共人	-11.4359
未得道者皆	-11.436
當隨	-11.4361
若施	-11.4364
方便救度	-11.4364
見狗	-11.4372
持心不	-11.4376
名及	-11.4376
喻正明	-11.4376
使受	-11.4378
至地	-11.4378
惱中	-11.4379
能如是	-11.4381
不得觸	-11.4385
我此	-11.4387
有見	-11.4388
佛菩提	-11.4389
修道作	-11.4396
未來當	-11.4402
為妻	-11.4402
如凡夫	-11.4403
十二者人	-11.4406
法幡	-11.4407
云何名為善	-11.4408
尊佛	-11.4409
制心	-11.4415
相或	-11.4415
餓鬼畜生	-11.4418
聞是已	-11.4419
起慈悲	-11.4422
兩山	-11.4423
無量恒河沙	-11.4428
幡勝	-11.4435
前世之	-11.4437
五陰山	-11.444
床臥	-11.4442
詣彼	-11.4444
來隨順	-11.4444
應在	-11.4446
不謬	-11.4448
求見	-11.4448
▁人	-11.4449
如羅剎	-11.4449
二心	-11.4451
在賢聖	-11.4451
在處	-11.4452
身著	-11.4457
當懃	-11.446
此人功德	-11.446
說大乘	-11.4461
人神	-11.4462
悉解脫	-11.4465
所見定	-11.4465
是眼	-11.4468
故而	-11.447
有百千	-11.4472
說大辯邪正	-11.4472
有無皆空	-11.4475
此印便得	-11.4476
心盡意	-11.4476
知一切法	-11.4477
久長大	-11.4479
一子者	-11.4483
是謂	-11.4488
為人短	-11.4491
當如是	-11.4492
名稱	-11.4495
不離身	-11.4495
西方阿彌陀佛	-11.4499
前而不	-11.45
南無金光	-11.4507
莫於此經	-11.4509
子不	-11.4512
壞善惡	-11.4514
此念	-11.4519
防護法	-11.4519
不暫	-11.452
中而	-11.4521
法服	-11.4523
諸善男子善女人	-11.4523
食之無	-11.4525
即受持	-11.4526
目覩見	-11.4528
如能	-11.4535
如善見王	-11.4537
度苦難	-11.4537
知其妄	-11.4538
我國	-11.4541
求佛	-11.4543
可能	-11.4546
非日月	-11.4546
若有一人	-11.4548
智同	-11.4551
所出	-11.4552
佛告菩薩	-11.4555
為益	-11.4556
所聞法	-11.4556
語說	-11.4556
一淨法	-11.4558
法則	-11.456
其人即	-11.4565
滅亡	-11.4566
有愚癡眾生	-11.4573
國人	-11.4573
能書寫	-11.4573
佛者多	-11.4575
得離	-11.4577
多人聚	-11.4577
受之	-11.4578
受善惡	-11.458
現見	-11.4581
如今	-11.4583
有戒	-11.4586
有如是無量	-11.4588
不傷	-11.4589
如王	-11.459
小疑	-11.4593
有愛	-11.4596
使汝等	-11.4598
佛法中	-11.4602
可滅	-11.4604
母得子	-11.4604
假使有人造	-11.4606
鼻香	-11.4607
實如	-11.4611
不如至心	-11.4613
在空處	-11.4616
地深	-11.4618
過於	-11.4619
誹謗之	-11.4619
現小	-11.4621
一切相	-11.4628
不種	-11.4631
不被	-11.4642
是故不	-11.4643
有父母	-11.4645
論其	-11.4646
見日月光	-11.4646
得除	-11.4647
之精	-11.4647
金剛手	-11.465
當爾之時一切俗	-11.4653
是氷	-11.4654
是故諸大眾	-11.4654
無與等	-11.4655
五帝	-11.4659
由於	-11.4662
住佛	-11.4664
夫欲	-11.4666
八大	-11.4667
中苦	-11.4671
可生	-11.4671
盡無遺	-11.4677
是病本	-11.4677
大乘心	-11.4683
食器	-11.4684
傳法	-11.4688
我者	-11.469
貪利	-11.4693
饒益諸	-11.4695
是繼縛	-11.4696
經中	-11.4697
十種	-11.4705
佛香天	-11.4705
緣非	-11.4707
人遠	-11.4707
何罪	-11.4713
常覺	-11.4717
命者從	-11.4717
復次迦葉	-11.4718
但唯	-11.4719
體常	-11.4726
我今如盲	-11.4729
不平	-11.4731
止之	-11.4737
以封	-11.4738
交通	-11.4745
性是為	-11.4746
地之	-11.4746
不信者	-11.4746
無滿	-11.4747
此諸佛	-11.4748
不當	-11.475
山幢	-11.475
功不	-11.4751
行一切	-11.4753
除此	-11.4755
為上	-11.4758
十月	-11.476
喜見	-11.476
容有	-11.4761
競之	-11.4765
原之	-11.4766
寧可	-11.4766
當至心念	-11.4768
也今	-11.4769
他故	-11.4774
諸根不具足	-11.4777
雨寶天	-11.4779
之大	-11.4781
一眾生	-11.4783
無不實	-11.4788
一心若	-11.4789
千國土	-11.4794
造罪不	-11.4796
是故應	-11.4796
其語	-11.4797
是故心	-11.4798
無兒	-11.4798
上境界	-11.4801
中各有	-11.4802
從眾生	-11.4816
汝所問	-11.4822
天世人	-11.4823
南無阿閦	-11.4823
勝力	-11.4826
和合同	-11.4829
當因	-11.4834
體空	-11.4837
語人	-11.4838
觀諸	-11.484
眾剎	-11.4846
佛之因	-11.485
苦難	-11.485
得心	-11.4851
口如	-11.4859
無照境	-11.4866
起福	-11.4866
聲聞身	-11.4867
即是我	-11.4868
此閻浮提	-11.487
於一心中	-11.4873
無方便	-11.4874
文有	-11.4874
復如故	-11.4881
無量數	-11.4882
身中能生一	-11.4882
人出家	-11.4883
無用	-11.4889
安住不動	-11.4894
頂名	-11.4894
當得罪	-11.4896
為人身	-11.49
多為	-11.4901
學大慈大悲	-11.4902
或生	-11.4903
滅佛	-11.4904
若讀	-11.4908
無忍辱	-11.4914
倍加	-11.4915
是即	-11.4918
中一日一夜	-11.4919
者願	-11.4922
名為六國	-11.4924
眾圍繞	-11.4931
是故學	-11.4935
依智	-11.4936
南方火	-11.4944
眾心	-11.4947
生不死	-11.4947
共為	-11.4951
萬者	-11.4954
生生世世還受	-11.4955
情稱	-11.4955
地生	-11.4956
斬其	-11.4956
百餘年	-11.4958
願恒	-11.4959
是汝利刀	-11.4959
病之良	-11.4962
定自在	-11.4964
冥心	-11.4965
如百	-11.4966
者定	-11.4966
不離心	-11.4973
此身心	-11.4974
佛性常	-11.4977
皆是眾	-11.4983
道俗作	-11.4987
此等眾生	-11.499
當善聽	-11.4996
宣佛	-11.4998
何福德	-11.5
有三十二	-11.5003
三寶物	-11.5008
說而	-11.501
起大悲	-11.5013
一者常	-11.5022
皆違	-11.5025
本來無所動一切諸	-11.5025
佛日	-11.5032
死作	-11.5041
從心生	-11.5044
苦毒	-11.5044
毒善	-11.5047
南無一億十億百億千億萬億	-11.505
時得出	-11.5052
銷融是非	-11.5057
為人不	-11.5057
既至	-11.5058
多者為說	-11.5063
菩薩眾	-11.5066
前僧物	-11.5068
生一念	-11.507
便答	-11.507
至老	-11.5072
非犯	-11.5075
開導	-11.5078
食眾僧	-11.5083
為福	-11.5088
施用	-11.5092
然後得	-11.5095
過自責	-11.5101
泣淚	-11.5101
如法奉	-11.5102
▁以	-11.5103
寧以	-11.5106
天下大	-11.5107
淨普賢如何	-11.5109
道成	-11.511
生果報	-11.5112
聲聞緣覺所	-11.5113
懷歡喜	-11.5113
空際	-11.5113
見自身	-11.5123
如馬	-11.5125
凡欲	-11.5134
勿生	-11.5134
四人	-11.5135
用何	-11.5139
之謂	-11.5141
順於	-11.5144
或用	-11.5146
家者	-11.515
今諸佛	-11.5151
利故	-11.5154
流轉諸	-11.5154
入深	-11.5155
得最勝	-11.5162
速得	-11.5174
彼等	-11.5179
無報	-11.5181
未覩	-11.5184
合成一	-11.5186
依他	-11.5192
日夜增	-11.5193
云何奉	-11.5194
入菩薩	-11.5196
所生處	-11.5197
諸小	-11.5197
會歸	-11.5205
不獨	-11.5206
下若	-11.5214
諸惡趣	-11.5215
入水	-11.5215
能奉行	-11.5216
從我	-11.5221
大鳥	-11.5221
五音	-11.5224
不過有	-11.5225
苦空	-11.523
已不	-11.5243
開智慧	-11.5243
善智	-11.5246
一切心	-11.5247
與者	-11.5247
轉輪	-11.5248
心不住	-11.525
劫數	-11.5255
悉見	-11.5258
見阿彌陀	-11.5267
現佛	-11.5274
四十億	-11.5275
從他	-11.5276
二事	-11.5277
性故	-11.5277
無量力	-11.5278
名經	-11.5279
帝釋之	-11.5281
今言	-11.5282
我弟子	-11.5286
八千	-11.5289
若不見	-11.5292
立塔寺	-11.5293
如本無	-11.5299
行施	-11.53
吐法	-11.5301
近惡	-11.5305
地方	-11.5309
外請	-11.5313
河邊	-11.5319
心大歡喜	-11.5322
以清淨	-11.5327
持者	-11.5332
為行	-11.5332
志願	-11.5335
眾生空	-11.5335
諸法故	-11.5336
色不	-11.5339
生寶	-11.5345
不住不	-11.5355
自然生	-11.5355
中亦有	-11.5367
處處經中	-11.5368
南無萬萬	-11.5371
年必	-11.5372
白石	-11.5375
卷上	-11.538
信者	-11.5382
受其苦	-11.5383
從此經	-11.5394
得悟	-11.5398
以財	-11.5399
若能如	-11.54
是四依	-11.5401
百神	-11.5401
本處	-11.5405
是常	-11.5407
周圍三千	-11.5408
世尊若有	-11.5414
日行	-11.5414
大利益者	-11.5415
金剛慧	-11.5415
名為六	-11.5416
人事	-11.5417
先身	-11.5419
天大	-11.5426
爾時眾中有	-11.5427
忽悟	-11.543
念故	-11.543
所行之	-11.5431
諸善根	-11.5433
蒙記	-11.5433
行則	-11.5434
法眼	-11.5434
故處處皆	-11.5434
萬死	-11.5436
大威神力	-11.5437
天下人	-11.5445
復有人	-11.5446
跪合掌	-11.5447
是汝時雨	-11.5447
見天	-11.545
三千世界	-11.5453
普現色身三昧	-11.5455
身得	-11.5462
三塗變	-11.5465
達深	-11.5465
眾魔比丘	-11.5469
香積	-11.547
二恒河沙	-11.547
毒心	-11.5473
罪除	-11.5483
佛藏	-11.5484
說邪	-11.5491
成聖道	-11.5494
無生無	-11.5496
非色非知	-11.5501
作何方便令	-11.5501
▁薩	-11.5504
如是者	-11.5505
之愚者	-11.5509
其山	-11.5509
定慧	-11.5511
上事	-11.5513
是爾時	-11.5517
俱為	-11.5518
復問其	-11.5519
今現	-11.5531
制諸	-11.5535
梵天王	-11.5536
知身中具有	-11.5539
水底	-11.5539
名為覺	-11.5539
善友亦爾	-11.5544
人如	-11.5545
共成	-11.5547
十善作	-11.5547
南無陀羅尼	-11.555
文字根本	-11.555
清淨眾	-11.555
我亦不	-11.5555
識不	-11.5556
鐵針	-11.5557
歸依法	-11.5561
諸國	-11.5561
永斷疑	-11.5562
惑立名	-11.5566
我作	-11.5566
現則	-11.5566
令圓滿	-11.5568
是動	-11.5571
有道	-11.5572
為惡	-11.5572
名為空	-11.5574
以成	-11.5576
南無相	-11.5578
一佛身	-11.5581
有惡	-11.5582
見一佛	-11.5582
是非則	-11.5582
但見現	-11.5585
定得	-11.5587
黃末	-11.5588
魔為	-11.5591
二者常	-11.5592
日月之	-11.5597
道心眾生	-11.5598
常一	-11.56
有信心	-11.5602
此印得	-11.5603
食及衣服	-11.5604
如來終	-11.5604
者從破	-11.5604
割其	-11.5607
之眷屬	-11.5607
人民莫不	-11.5609
念中	-11.5613
即便止	-11.5623
風飄	-11.5625
廣為一切	-11.5625
別之	-11.5627
名為究竟大悲哀戀	-11.5628
實相之理	-11.5632
以生	-11.5644
時行	-11.5645
東方木	-11.5645
名無間	-11.5645
我從過去	-11.5649
理志	-11.5651
善答	-11.5656
子不識	-11.5656
銀地上與	-11.5656
所得功德無量無邊	-11.5657
將內人入	-11.5657
身毛孔	-11.5658
彌勒出世	-11.5659
夫至	-11.566
樂中	-11.5673
淺漸	-11.5677
復有十恒河沙	-11.5679
生西方	-11.5679
四重五逆	-11.568
寶勝	-11.568
死者	-11.5681
能勝	-11.5683
互	-11.5683
不歡喜	-11.5685
屬於	-11.5686
今得	-11.5687
人道	-11.5689
又問三十二相	-11.569
則知	-11.5691
盡諸有	-11.5696
龍自在王	-11.5698
見他修	-11.57
一切苦厄	-11.57
變自在	-11.5702
得如是	-11.5706
││	-11.5707
與不	-11.5717
來惱亂	-11.5724
囑善	-11.5727
是汝弓箭	-11.5729
見心相	-11.5734
淨國	-11.5734
唯願慈尊為	-11.574
色蓮華	-11.5748
十七者世世	-11.5749
是眾聖	-11.5751
遂使	-11.5751
妄見諸	-11.5753
不得隨	-11.5755
苦因	-11.5758
說其義	-11.5765
照諸根	-11.5765
是聖	-11.5768
惡業捨	-11.5777
得中	-11.5778
苦不	-11.5779
當行	-11.5779
體無	-11.5782
直事	-11.5784
重之心	-11.5787
定意	-11.5788
滅乃	-11.5801
觀內	-11.5807
七日不得	-11.5809
敬禮已	-11.5813
生乃	-11.5825
整衣	-11.5825
因緣生	-11.5827
▁不	-11.584
吾今為汝解	-11.5841
不墮	-11.5843
南無師子吼	-11.5848
大池	-11.5849
住菩薩	-11.5852
西方金	-11.5859
罪者	-11.5859
眾生故得	-11.586
不清	-11.5861
唯說一	-11.587
人骨	-11.587
苦眾生	-11.5871
三藏者	-11.5877
無同	-11.5883
自取	-11.5889
不屬	-11.5889
爾應	-11.589
為自	-11.5899
七重	-11.59
日出時大	-11.5903
謂無	-11.5904
能破壞	-11.5904
而取	-11.5904
最勝妙	-11.5907
福甚	-11.5908
乃觀	-11.5909
念思惟	-11.5934
受佛	-11.5938
彼愚癡	-11.5938
進而	-11.594
捨於	-11.5941
南方來	-11.5944
此經語可	-11.5947
無量阿僧祇劫	-11.595
大道之	-11.595
起處	-11.5953
心坐禪	-11.5957
得安樂	-11.596
如其三	-11.5967
定生	-11.5975
馬中來	-11.5985
違性	-11.5986
施行	-11.5991
此法從	-11.5991
得充	-11.5992
受果	-11.6
賢劫	-11.6007
皆與	-11.601
復自稱	-11.6011
人當來	-11.6012
色而	-11.6012
合掌向佛而	-11.6022
面體	-11.6022
必竟	-11.6023
惡得惡	-11.6024
名名之	-11.6025
水火相	-11.6031
諸白衣	-11.6032
甚大	-11.6033
南無月光	-11.6033
知此	-11.604
邊地不生	-11.6049
隨佛	-11.605
萬鬼	-11.6052
慈能	-11.6054
國王大臣長者	-11.6056
性如虛空	-11.6062
十日	-11.6063
得免此	-11.6064
大神	-11.6064
者都	-11.607
中作	-11.6071
諸四眾	-11.6071
除我	-11.6072
於此劫	-11.6079
佛語故	-11.608
南無寶藏	-11.608
護身命經一卷	-11.608
一聞	-11.6086
示小	-11.6087
所言說	-11.6093
是眾生	-11.6093
關門	-11.6094
不修外	-11.6094
各出	-11.6096
出佛	-11.6096
名法	-11.6097
本來寂	-11.6098
起心	-11.6102
世尊眾生	-11.6104
隨力	-11.6105
八同號	-11.6107
復二	-11.6107
於毘尼	-11.6114
像法末	-11.6117
聞天	-11.612
一逆	-11.6122
此經時	-11.6123
名為甘	-11.6127
盡得見	-11.6134
親善	-11.6136
慈母亦	-11.6139
有誹謗	-11.6141
中生	-11.6147
畜生中	-11.6147
唯心	-11.6149
婬行	-11.617
諸佛世尊	-11.6177
是人不	-11.618
鑛之	-11.6182
南無日	-11.6188
傷害眾生	-11.6191
無惡	-11.6191
及彼	-11.6194
願一切眾生	-11.6197
汝罪	-11.6198
十恒河沙	-11.6203
若意	-11.6203
戒慧	-11.6206
無慧	-11.6206
能於此經	-11.6208
民父母	-11.6209
住即	-11.6212
無物	-11.6212
龍馬	-11.6214
不明	-11.6218
合一	-11.6221
無相空	-11.6225
自在者	-11.6227
禪定智慧	-11.6245
心若有	-11.6245
即見佛	-11.6247
意所	-11.6247
即便生	-11.6248
何不	-11.625
由不	-11.6251
在先	-11.6254
可得道	-11.6255
小兒謂	-11.6257
故言有	-11.6257
唯願佛世尊為我	-11.6262
摩尼寶	-11.6263
如寡女	-11.6269
亂起	-11.6273
見佛聞法	-11.6282
從座起而白佛言	-11.6286
世尊言	-11.6292
除諸穢惡	-11.6293
業不	-11.6296
性各	-11.6299
無受	-11.6301
真空	-11.6302
法更不	-11.6304
未知者	-11.6314
若持此經	-11.6322
清淨心	-11.6324
正經	-11.6325
捨命之	-11.633
是佛性	-11.6335
百二十種	-11.6344
十方現在	-11.6348
一切俗官不	-11.6349
發大	-11.6352
十千比丘	-11.6353
邪見煩惱	-11.6354
眾生作諸煩惱	-11.6355
汝名	-11.6356
是有住	-11.6362
作地	-11.6365
目而	-11.637
少法	-11.6372
自相	-11.6373
欲取	-11.6377
菩薩說	-11.6377
理衣服	-11.6381
如是心	-11.6383
我觀諸	-11.6383
一百	-11.6386
但諸佛	-11.6388
而自	-11.639
是天之	-11.639
故一切	-11.6394
疾得	-11.6402
出為人	-11.6402
名為解脫	-11.6404
一切無	-11.6404
安穩之	-11.641
問於	-11.6411
尊神	-11.6418
是故大乘	-11.6426
無原	-11.643
殘飲食	-11.6432
聞聲不	-11.6433
復於	-11.6436
行苦行	-11.6439
法漸	-11.6441
無禮	-11.6446
稱為	-11.6447
千由	-11.6453
金光流	-11.6454
故為	-11.6461
說正法	-11.6467
則便	-11.6469
如是展轉	-11.647
人受七	-11.6473
云何如能	-11.6474
不觀色	-11.6477
五陰有	-11.6478
不見有	-11.6479
心即	-11.6487
都不	-11.6489
相空	-11.6489
生瞋恚	-11.649
以何為	-11.6494
一性金剛	-11.6504
六入	-11.6505
度群生	-11.6505
法性無	-11.6508
真語	-11.6518
菩薩大	-11.6521
受報無	-11.6523
亦不教我	-11.6524
語即	-11.6529
行也	-11.6532
不定有	-11.654
寂用	-11.6545
王名不	-11.6545
三歸五戒奉行	-11.6547
山澤	-11.6548
使諸	-11.655
叫喚大	-11.6552
若有信	-11.6556
善者	-11.6563
與法	-11.6563
令放	-11.6566
為人長	-11.6586
發意	-11.6588
善故	-11.6591
人答	-11.6599
佛答	-11.6602
不逢	-11.6605
方十八地獄中	-11.6609
人民取	-11.6609
皆除	-11.6619
五百生	-11.6628
人施	-11.663
益人	-11.6632
出生死	-11.6639
同如	-11.6644
懃行此	-11.6646
於眾	-11.6648
四十四	-11.6649
終至	-11.6656
言若	-11.6657
漸自	-11.6659
若有疑	-11.6661
由如雲	-11.6664
體既不	-11.6665
得泥洹	-11.6669
眾生類	-11.6669
寺中	-11.6675
為淨	-11.6676
下釋	-11.6682
行故	-11.6683
是乘	-11.6689
大聖復	-11.6689
彼無明	-11.6691
得無盡	-11.6698
即拔	-11.67
自損	-11.6701
受斯	-11.6702
長不起	-11.6704
何有	-11.6706
故言無	-11.6709
斯苦	-11.6711
亦愈	-11.6716
為空	-11.6716
等大眾	-11.6718
未報	-11.672
久處	-11.6721
聞如來	-11.6721
共諸佛	-11.6723
眾生之性	-11.6723
與聖	-11.673
貧頓	-11.6739
既得	-11.6743
法即是	-11.6745
拔諸	-11.6746
首羅復	-11.6748
菩薩常	-11.6757
為汝分別解	-11.6767
展轉相	-11.6768
如凡夫夜夢見身	-11.6768
故於	-11.6772
君即	-11.678
驢中	-11.6782
是觸	-11.6796
甘水	-11.6798
關	-11.68
亦無所	-11.6801
欲遠行	-11.6804
真行	-11.6805
性則是法	-11.6806
是同	-11.681
若如是	-11.6811
以復得	-11.6816
能說	-11.6818
此諸大眾	-11.6821
亦令得	-11.6823
人自作	-11.6827
等皆是	-11.6834
真教	-11.6836
正路	-11.6837
心自	-11.6837
喜樂	-11.6837
於耳	-11.6846
藏不	-11.6859
隨所住	-11.6868
明不修	-11.6871
邪者	-11.6875
有苾芻	-11.6877
一切義	-11.6884
生為人	-11.6884
名改換	-11.6891
受人	-11.6902
說也	-11.6906
無寂靜	-11.6907
救護身命經	-11.6911
人堪	-11.6912
能傷害	-11.6914
世尊前	-11.6932
萬德	-11.694
眼是有	-11.694
故我	-11.6944
說心	-11.695
事同其	-11.6952
人食	-11.6958
是三	-11.6963
身自	-11.6964
爾時延壽	-11.6965
清淨行	-11.6965
事明師	-11.6969
過於此	-11.6971
欲末	-11.6972
不改	-11.6975
昔蒙	-11.6975
眾海	-11.6977
無男女	-11.6983
大雨	-11.6986
日伏	-11.6988
業則生	-11.6989
須彌光佛	-11.6996
動寂	-11.7002
護世四	-11.7003
樂音	-11.7011
地獄第	-11.702
不合	-11.7021
六百萬	-11.7021
若今	-11.7021
無量諸	-11.7028
七處	-11.703
於有無	-11.7036
離之	-11.7042
有餘	-11.7047
者不貪	-11.7048
依持	-11.7054
名曰普	-11.7054
下正	-11.7055
曾供養	-11.7056
整	-11.7058
世受樂	-11.707
淨洗手	-11.7073
生子	-11.7077
有能讀誦	-11.7077
即得見	-11.7078
金偈	-11.7078
意即	-11.7081
世尊今	-11.7082
無有一	-11.7085
觀心	-11.7087
得見此	-11.709
四十八	-11.7091
見是事	-11.7095
不應生	-11.7104
從彼	-11.7107
今蒙	-11.7109
譬如一	-11.7113
繫念	-11.712
禮敬	-11.7121
在心不令	-11.7121
得大	-11.7124
若有學	-11.7125
明施	-11.7128
高而	-11.7133
大名	-11.7135
十八地獄中	-11.7138
及故	-11.7143
十方諸大	-11.7152
人不使	-11.7153
眾不	-11.7155
從今以	-11.7158
出世之時	-11.7161
而不修	-11.7162
師子依	-11.7165
中劫	-11.7171
罪苦	-11.718
如能滅	-11.7181
慧水	-11.7181
奉施	-11.7184
七重鐵網	-11.719
不開	-11.7192
此經法	-11.7196
恒河沙菩薩	-11.7196
是汝鎧仗	-11.7196
障修	-11.72
大乘力	-11.72
三難	-11.72
眼是	-11.7201
遠離眾	-11.7207
是行	-11.7214
為寶明	-11.7218
欲懺悔	-11.7221
違如	-11.7225
普見	-11.7229
言在	-11.723
能生善	-11.7236
唯有出	-11.7239
智慧光明	-11.724
今見	-11.7244
作駱駝身	-11.7247
亦得見	-11.725
意用	-11.7251
二聖	-11.7253
身菩薩	-11.7255
得為人	-11.7258
如是皆	-11.726
未悟者	-11.7268
使人聞	-11.727
行於	-11.7271
若不除	-11.7272
南無無量音	-11.7274
飄動	-11.7276
│	-11.7276
劫人	-11.7279
終身	-11.7279
大妻	-11.728
○│	-11.7281
若不動	-11.7281
以佛	-11.7287
身中具有	-11.7289
如國王	-11.7291
難者	-11.7294
欲邪見	-11.7298
木偈	-11.7302
汝若不	-11.7308
苦厄眾生	-11.7313
或將內人	-11.7315
所宗	-11.7316
二俱空	-11.7319
見他人	-11.732
世尊若	-11.732
究竟大悲哀戀	-11.7324
眾生行	-11.7333
六者見	-11.7334
時薄伽梵說	-11.7336
作國王	-11.7337
心是無	-11.7342
釋梵	-11.7342
以無	-11.7344
毛孔中	-11.7344
塵垢不	-11.7347
佛口中	-11.735
萬里之	-11.7353
戒清淨	-11.7362
害眾生	-11.7363
邪道	-11.7366
故言善友亦	-11.737
住沙門	-11.7375
即無所	-11.7376
我說一乘	-11.7382
名懺悔	-11.7384
命無窮	-11.739
正念不	-11.7395
行亦	-11.7396
汝復	-11.74
無煩惱	-11.7404
欲說	-11.741
末和	-11.7415
是佛	-11.7415
過去無量阿僧祇	-11.7415
南無千光	-11.7422
諸趣	-11.7423
十方無量佛	-11.743
而不自	-11.743
之理圓	-11.7437
亦不遠	-11.7446
空慧三昧	-11.7451
出種種	-11.7455
光光	-11.7464
佛告諸大眾	-11.7467
中諸惡比丘不解我意	-11.7473
順則	-11.7475
當守護	-11.7477
生人中	-11.7479
是名三千	-11.748
緣性	-11.7482
鐵圍山周圍	-11.7491
經中所說	-11.7498
有二種人	-11.7514
普現色身	-11.7518
說經之	-11.7522
能於	-11.7535
為物	-11.7536
處處皆有	-11.7536
性隨	-11.7537
於內	-11.7538
眾生之	-11.7543
五戒者	-11.7547
佛已	-11.7553
末香	-11.7554
焰光	-11.7557
利刀	-11.7559
七十	-11.7562
夫無	-11.7564
是有	-11.757
不可得見	-11.7573
應得	-11.7573
神者	-11.7574
一切眾生如	-11.7574
知佛	-11.7577
起時	-11.7577
不可止	-11.7578
如聞	-11.758
飲食及	-11.7582
十方人	-11.7583
說非色非	-11.7589
不依	-11.7592
寂無	-11.7595
大功	-11.7598
學之	-11.7604
既聞	-11.7607
善惡雙	-11.7609
清淨法	-11.7616
諸羅漢	-11.7631
不容	-11.7632
大天	-11.7636
性而	-11.7651
精進可得	-11.7653
其箭	-11.7656
是汝財寶	-11.7657
及未來	-11.7657
之垢	-11.7661
不謗毀	-11.7663
致生	-11.7666
於無量劫	-11.7668
與我無	-11.7676
生不信	-11.7679
妙聲	-11.7681
若眾生	-11.7684
日時	-11.7689
有苦厄	-11.769
煩惱者	-11.7691
智寶	-11.7695
無性則	-11.7708
相即是	-11.7709
世尊雖	-11.7717
遍照	-11.7717
佛名字	-11.7717
數眾	-11.7721
世間無量	-11.7727
隱為法	-11.7744
四十五	-11.7746
南無天	-11.775
如是今	-11.7754
師子王三昧	-11.7757
一聞名	-11.7759
若言	-11.7761
同志	-11.7764
作車	-11.7767
後日	-11.777
神王等	-11.7771
壽四	-11.7774
即便前	-11.7778
無言	-11.778
復有十八	-11.7791
諸珍寶	-11.7792
為不	-11.7797
亦不離	-11.7798
之成	-11.7801
始得見佛	-11.7803
與此大	-11.7805
菩薩言	-11.7807
汝自	-11.7811
如來說	-11.7811
骨人	-11.7815
過去有	-11.7815
下合	-11.782
德藏	-11.7824
其夜	-11.7828
處所	-11.783
持世	-11.7839
此地動	-11.7839
夫不	-11.784
故一	-11.7841
言教文字	-11.7843
其道	-11.7848
具足諸	-11.7855
是汝妙藥	-11.7858
邪歸入八正道	-11.7861
召諸	-11.7862
戒性	-11.7868
即成聖	-11.7875
入空	-11.7876
半明	-11.7877
壽數千萬	-11.7887
無畏力	-11.7888
字無	-11.7888
廣宣流布無	-11.7894
猶未	-11.7896
見白	-11.7896
三毒之	-11.7897
有佛名	-11.7898
但聞	-11.7898
為王	-11.7907
善友開導	-11.7912
名六師	-11.7913
念欲	-11.7915
法說	-11.7918
事亦不	-11.7935
唯願為我	-11.7936
飲食隨	-11.7937
以三千大千世界	-11.7941
復自	-11.7946
真身	-11.7947
住著	-11.7949
內道	-11.7951
諸經	-11.7953
於他方	-11.7958
爾乃命	-11.796
守戒清	-11.7962
因得	-11.7964
可止	-11.7975
祖父	-11.7975
無是處	-11.7979
狩形	-11.798
者謂	-11.7995
行能	-11.8
與無量天	-11.8003
即應	-11.8004
語諸	-11.8004
為分別	-11.8009
己心	-11.8014
而此大	-11.8015
之命	-11.8023
普光莊嚴菩薩白	-11.8026
隨相	-11.8026
四寶	-11.8027
依之	-11.8027
八部	-11.8028
是非得失	-11.803
則法	-11.8032
一心聽	-11.8034
如無	-11.8039
或三十	-11.8057
如盲	-11.806
亦不能	-11.8073
不分別	-11.8078
成菩提	-11.8094
我以此	-11.8109
為防	-11.8119
持此呪者	-11.8126
皆住	-11.8128
則起	-11.8133
不生邊地	-11.8134
修道者	-11.8136
願佛世尊為我解	-11.8137
有一一	-11.8139
五義	-11.8145
八分	-11.8147
正理衣	-11.815
額上一	-11.8152
猪中	-11.8157
無罪	-11.8157
己見	-11.8158
是以來	-11.8162
得活者	-11.817
如此大	-11.8179
諸善逝	-11.8185
觀已	-11.8186
他性	-11.8198
此大	-11.8222
究竟無	-11.8222
中為人	-11.8234
山崩	-11.8235
若有南	-11.8238
知故	-11.8239
五智	-11.8241
受報不	-11.8244
寶輪	-11.8245
問是義	-11.825
火偈	-11.8254
所有未來	-11.8254
不應戲	-11.8255
求天	-11.8261
雀中	-11.8262
百千萬	-11.8268
聞十方	-11.827
無他	-11.8273
盡際	-11.8278
神力故	-11.8283
律清淨	-11.8288
指地	-11.8292
不入地獄	-11.8294
阿閦佛	-11.8295
在有	-11.8299
法而不	-11.83
則一	-11.8311
復以	-11.8316
一切諸法亦復如	-11.8323
云何能見	-11.8324
是汝橋梁	-11.8325
是相	-11.8326
身相皆	-11.8328
體明	-11.8337
菩薩大道	-11.8341
欲雨	-11.8343
一者諸	-11.8344
聲朗	-11.8347
是能	-11.835
即食	-11.8355
何故名為	-11.8378
無涅槃	-11.8379
然後誦	-11.8385
必為我	-11.839
三天下	-11.8391
作諸煩惱	-11.8395
心迷	-11.8401
善友恩	-11.8403
能捨離	-11.8404
四毒已	-11.8404
空取	-11.8406
可畏	-11.841
現大	-11.8417
此罪	-11.8417
求出	-11.8418
必生	-11.8421
若學	-11.8428
行中	-11.8431
文字故	-11.8431
光明王	-11.844
行我	-11.844
應可	-11.8442
人不信	-11.8443
可以	-11.845
禪定樂	-11.8452
如是諸人等是名報佛恩	-11.8452
云何名為是	-11.8457
世尊如是	-11.8469
七百餘	-11.8478
十方無量	-11.8481
入出	-11.8487
知者	-11.85
一一菩薩	-11.8501
其山四	-11.8507
根不具足者從	-11.8508
施此	-11.8518
通徹	-11.8523
犯說	-11.8524
有大神	-11.8524
神之	-11.8526
一塵	-11.8527
法味天	-11.8536
還自	-11.8548
得濟	-11.8556
實者	-11.8559
執不	-11.8559
三界之	-11.856
皆由禮是十方	-11.856
終不生	-11.856
種種諸	-11.8561
是為十	-11.8562
語之不	-11.8567
諸法亦	-11.8567
是名得	-11.8571
品第三	-11.8574
法別	-11.8575
甚深難	-11.8577
說其法	-11.8578
至心讀誦	-11.8578
以定	-11.8579
除疑復	-11.8585
一者發	-11.8608
有說言	-11.8609
我不忍	-11.8611
玉山	-11.8611
住無量劫	-11.8623
故言一	-11.8626
知是	-11.8626
憂波	-11.8628
心若在	-11.8631
在亂	-11.8631
好說	-11.8632
知苦	-11.8635
力稽首	-11.8636
在佛	-11.8638
解是	-11.864
世尊如來說	-11.8644
奉齋	-11.8646
爾時天	-11.8648
恭敬師	-11.8651
等或現	-11.8658
者歸依	-11.8662
相續不	-11.8672
生惑	-11.8676
事同於	-11.8677
緣定	-11.868
各有一	-11.8684
人者死作	-11.8685
心擁護	-11.8687
雖破	-11.8694
識心	-11.8696
愛多者	-11.8699
三佛	-11.8711
無稱	-11.8717
阿僧祇劫	-11.8726
上見	-11.8729
假使有	-11.8733
惡業者	-11.8742
是空於	-11.8743
經律	-11.8755
清淨法界	-11.8761
世世所	-11.8764
行此事	-11.8765
從地	-11.8769
求此	-11.8769
法供養	-11.8772
皆空	-11.8786
至成	-11.8791
觀諸法	-11.8792
皆悉生	-11.88
免此	-11.8805
法界盡無	-11.881
當為汝	-11.8811
應為	-11.8812
小垂	-11.8819
空即是法	-11.8821
無始已來恒	-11.8821
修修	-11.8832
得一	-11.8835
佛凡	-11.8843
稽首西方	-11.8844
行願	-11.8846
從法	-11.8848
母說	-11.8848
身能為	-11.8858
五通	-11.8864
隨意所	-11.8865
起者	-11.887
有一大	-11.8873
向善	-11.8883
道樹下	-11.8891
所說法	-11.8896
者使得	-11.8898
爾時空王	-11.8901
普為大眾	-11.8905
非鼻	-11.8909
者常	-11.8913
不辭	-11.8916
作一	-11.8918
人受持讀誦	-11.892
發之	-11.8922
九千	-11.8936
彼法	-11.8938
比丘比丘尼優婆塞優婆夷國王大臣	-11.8938
若讀此經	-11.8943
愚癡眾生	-11.8944
或不見	-11.8948
見定光佛	-11.8951
水偈	-11.8951
等一淨	-11.8974
能同凡	-11.8975
在僧	-11.898
三夜	-11.8981
譬如鏡中	-11.8982
得見佛也	-11.8984
間無異	-11.8984
南無離	-11.8987
具有	-11.8988
中尊	-11.899
念佛者	-11.8992
更無	-11.8992
得多	-11.8994
念阿彌陀佛	-11.8995
妄念	-11.8995
爾時閻浮提	-11.9002
羅帝	-11.901
除不	-11.9014
日已後	-11.9016
脚足	-11.9024
者求法	-11.9027
我即	-11.9027
是無	-11.9032
名墮	-11.9033
愍諸	-11.9034
七八	-11.9038
南無千	-11.9039
施為	-11.904
經七	-11.9042
集之	-11.9047
得道之	-11.905
同故	-11.9066
相次	-11.9068
散華	-11.909
有力	-11.9092
於所住	-11.9093
慚愧者	-11.9095
經之	-11.9102
無動	-11.9103
三念	-11.9106
神自然	-11.9107
將何	-11.9108
我從無量	-11.9111
十八者世世	-11.9111
可離	-11.9113
一一不	-11.9114
重不	-11.9118
上方有	-11.9123
得道者皆當	-11.9123
爾時會中	-11.913
得通達	-11.913
眾僧及	-11.9131
法雖	-11.9136
之謂是	-11.9137
五心	-11.9139
所化	-11.9147
雖說	-11.9151
能化	-11.9152
定正	-11.9156
大士維摩	-11.9158
一一諸	-11.9159
轉讀此	-11.9163
不住故	-11.9163
法常住	-11.9164
大菩薩摩訶薩	-11.9165
善標	-11.9168
山間	-11.9169
婆阿	-11.9174
唯一	-11.9179
閻浮提眾生	-11.918
重於	-11.9182
念動	-11.9183
無晝夜	-11.9191
善道	-11.9191
之下	-11.9197
成大	-11.9198
已即便	-11.9198
者可	-11.92
身色	-11.9203
皆同	-11.9205
道人神	-11.921
是清淨	-11.9214
所作不	-11.9221
何苦	-11.9231
一切人民	-11.9236
法使	-11.9237
後偈	-11.9237
得足	-11.9245
則無所	-11.9252
阿難汝好	-11.9261
障目	-11.9263
土偈	-11.9265
各各嚴	-11.9277
為波浪	-11.9286
二明大	-11.9294
鼓音	-11.93
不至心及	-11.9308
起逆	-11.9309
惡轉	-11.9318
未來賢劫	-11.932
是汝勇	-11.9324
青黑	-11.9325
所殺	-11.9343
九十二億	-11.9344
三同號	-11.9358
者教	-11.9365
非有故	-11.9365
人犯	-11.937
始得見	-11.9375
億聲聞	-11.9384
氷而	-11.9386
皆空寂	-11.939
奉善	-11.9392
此上基	-11.9395
不受塵	-11.9408
殺我	-11.9412
其類	-11.9414
得同	-11.9417
者亦復如是	-11.9426
顏色	-11.943
此是我	-11.9431
金杖	-11.9435
者從殺	-11.944
歸善	-11.9442
從心意緣慮中	-11.9442
競來	-11.9442
可為	-11.9447
能見他	-11.9448
生清淨	-11.9453
經法不	-11.9455
我造	-11.9459
住不動地	-11.9462
至足	-11.9465
十二者	-11.9467
理順	-11.9476
還墮	-11.948
愚癡等	-11.948
為造	-11.9483
尼僧	-11.9486
之眾生	-11.949
日服三	-11.9491
得見此經	-11.9495
名為七	-11.9496
毀壞此	-11.9497
得作	-11.9503
有正士	-11.9503
諸惡鬼	-11.9506
貧窮孤老乃至	-11.951
施人	-11.9511
佛後	-11.9512
常因	-11.9513
稱我	-11.9523
無心無心	-11.9528
是波浪	-11.9533
寂不	-11.9536
正破	-11.954
乘此	-11.9542
種種異	-11.9549
我時	-11.9555
智光	-11.9557
示所犯者瑜伽法鏡	-11.9559
先有	-11.9559
世間行	-11.9561
故曰不能	-11.9568
未來世中一切俗	-11.957
謂體	-11.957
說大乘經	-11.9571
起瞋	-11.9574
蓋諸	-11.9578
恩德	-11.9581
隨自性流故	-11.9583
之非	-11.9584
得度苦	-11.9591
空心	-11.9598
使諸天	-11.9609
從事	-11.9613
四大天	-11.9614
心生忿	-11.9615
那婆	-11.962
福無量	-11.9627
同號善	-11.9632
所患	-11.9633
其前	-11.9634
於多劫	-11.9635
知本	-11.9636
念惡	-11.964
大光	-11.9644
同號離	-11.9646
盡皆	-11.9652
有一菩薩	-11.966
其文	-11.9664
汝身	-11.9677
皆歸	-11.9684
惠命	-11.9689
日行千	-11.969
藥故	-11.9696
或一	-11.9697
者但看	-11.9702
八萬四千由	-11.9707
累無	-11.9714
來無	-11.9717
力多	-11.9725
有無平等	-11.9728
業障	-11.973
慳貪者	-11.9732
師者	-11.9735
阿耨	-11.9738
十千比丘得	-11.9738
稱量	-11.9748
天宮殿	-11.9752
人捨	-11.9753
邊沙	-11.9758
墮諸惡	-11.9758
一乘法	-11.9758
當墮	-11.976
會上神	-11.976
與魔	-11.9763
亦如慈	-11.9775
莊嚴其	-11.9779
遠離恩	-11.9785
其過	-11.9788
諸須彌山	-11.9788
不為眾	-11.9793
此雖	-11.9794
諸度	-11.9799
天神明	-11.9803
道之法	-11.9803
是汝身命	-11.9804
而能見	-11.9805
今在何	-11.9811
持齋者	-11.9817
光明相	-11.9823
親成	-11.9826
令立	-11.9834
性如	-11.9838
佛相	-11.9839
自在天	-11.9839
更於中	-11.9842
世不可	-11.9844
蠶	-11.9844
中不	-11.9851
讚歎少欲	-11.9852
菩提性	-11.9852
諸藥	-11.9858
淨眾剎	-11.9859
三解脫	-11.986
佛說三厨	-11.986
經像之物	-11.9863
身用	-11.9866
阿修羅幻惑	-11.9868
衣者	-11.9869
得聞經	-11.9874
一如來	-11.9876
身佛	-11.9879
此經生	-11.988
心依	-11.9886
求即	-11.9887
善方便	-11.9888
從師子	-11.989
彼若	-11.9893
此六	-11.9894
見赤	-11.9899
合兩	-11.99
鐵碓	-11.9907
人作罪	-11.9909
未安	-11.9915
為倒	-11.9919
無身	-11.992
復得	-11.9922
王即	-11.9925
正言	-11.9926
心真	-11.9928
月十五日	-11.9929
南無藥王	-11.9933
性空寂	-11.9936
罪業	-11.994
千一	-11.9944
法流	-11.9945
有色	-11.9954
何等三	-11.9962
知人	-11.9963
菩提體	-11.9963
求財物	-11.9974
當敬禮寶	-11.9981
微妙音	-11.9981
行至他方	-11.9985
唯願世尊為諸	-11.9995
當憶念	-11.9998
離三界	-11.9999
并問	-12
若人無善根不得聞	-12.0001
故號	-12.0004
身日	-12.0008
出遊	-12.0011
金剛寶	-12.0011
時以	-12.0012
失人	-12.0015
呪威神之力	-12.0017
心靜	-12.0017
能和	-12.0019
能生信	-12.0021
大明菩薩	-12.0034
下明善友功	-12.0037
而不取	-12.0039
老者	-12.004
圓現	-12.0043
一時雲	-12.0043
如是大乘	-12.0043
者是天	-12.0045
顛倒故	-12.0067
小鐵圍	-12.007
所染	-12.007
福利	-12.008
我今所	-12.008
阿難比丘	-12.0086
則方便	-12.0091
此經中	-12.0096
佛正法	-12.0104
常苦	-12.0104
眾生沈	-12.0107
行不淨行	-12.011
水火焚	-12.011
南無拘樓	-12.0111
是方廣經典	-12.0112
同號旃檀	-12.0114
八千人	-12.0116
毀罵	-12.0123
愧	-12.0124
身成	-12.0128
末世時人	-12.013
汝之	-12.0131
煩惱是	-12.0135
不違	-12.0137
見種種	-12.0143
佛像故	-12.0143
救之	-12.0145
非不非修	-12.0146
罪盡	-12.015
汝等諸	-12.0154
若持	-12.0155
信其	-12.0158
不變	-12.016
有疑	-12.0164
將刀	-12.0167
力起	-12.0168
託生	-12.0169
難死	-12.0172
諸法相三昧	-12.0173
學行	-12.0173
在內	-12.0174
眾緣	-12.0176
諸來	-12.0176
順情	-12.0184
龍王降	-12.0185
一切眾生亦	-12.0188
一切人	-12.0189
九佛名	-12.0191
不飢渴	-12.0192
者有罪	-12.0204
有言教	-12.0216
今身兩	-12.0218
觀法	-12.0219
用為	-12.0221
生瞋	-12.0222
寶天衣	-12.0223
則成	-12.0224
無混融	-12.0228
作不	-12.0231
之有	-12.0233
一切眾生作諸	-12.0239
父母師	-12.0239
無本處	-12.025
阿難復	-12.0251
聲聞等	-12.0252
若有白	-12.0252
不得自	-12.0259
以是因緣名	-12.0263
人雖	-12.0275
比丘比丘尼清信士	-12.028
生信復能	-12.028
焚燒山	-12.0286
大般涅槃	-12.0286
三者大	-12.0291
圖	-12.0293
大眾蒙	-12.0296
之語	-12.0296
常得見佛	-12.0302
釋中有	-12.0303
佛身如	-12.0306
最勝相	-12.0309
而聽	-12.0312
本性	-12.0316
王等	-12.032
今當請月	-12.0321
及諸眾生	-12.0324
我我所	-12.0324
鑊湯地獄	-12.0326
献佛八萬	-12.0327
人功德	-12.0328
心是無為不	-12.033
法是	-12.0333
幡佛	-12.0333
稽首以	-12.0338
鐵輪地獄	-12.0339
具受	-12.0341
作屋	-12.0345
生貪	-12.0346
功德不可思議	-12.0347
復次一切	-12.0349
明燈	-12.0351
於身	-12.0352
騰虛空	-12.0357
欲來惱	-12.0359
教我捨	-12.0367
讀誦受持	-12.0367
現生五	-12.0372
名之為惡	-12.0378
限際	-12.0385
如群狗	-12.0386
者受	-12.0391
王身	-12.0394
虛凝不	-12.0395
教我觀	-12.0403
亦空	-12.0406
不處	-12.0408
夜夢	-12.0411
若在空	-12.0413
佛釋迦	-12.0414
能成	-12.042
謗此	-12.0422
彼諸	-12.043
體是	-12.0431
知色	-12.0439
色空	-12.0439
法衣不	-12.0441
人能却	-12.0445
非非非是	-12.0446
之土	-12.0446
爾時寶明	-12.0449
名善知識	-12.0455
不親	-12.046
名為法喜	-12.0462
方菩薩	-12.0467
壽十	-12.0467
無有休	-12.0468
不見惡	-12.0468
解我	-12.0481
能滅我	-12.0481
先宗	-12.0484
無滅沒	-12.0485
此呪時	-12.0488
由悟	-12.0491
所修行	-12.0497
精專	-12.0501
如是真實	-12.0502
況出	-12.0504
後佛	-12.0505
並無	-12.0509
以是因緣聞	-12.0512
八萬人	-12.0512
五陰空	-12.0518
無量恒河沙諸	-12.0521
文有四	-12.0524
洞達	-12.0525
求難	-12.0527
令流布	-12.0547
徒自	-12.0558
大澤	-12.0559
皆明了	-12.0563
是不可思議	-12.0567
有信解	-12.0569
星第	-12.0573
不形咲人	-12.0578
戒如車	-12.0578
慈悲時	-12.0579
能自行	-12.0585
若起精	-12.0598
是故不得	-12.0599
高山	-12.0601
則於	-12.0602
若有不	-12.0604
十一	-12.0607
四偈	-12.061
解脫人	-12.0613
一偈明	-12.062
見一切	-12.062
時大迦葉	-12.0626
外道眷屬	-12.0629
諸世界	-12.0637
校量功	-12.0641
大菩薩僧	-12.0649
正理	-12.065
欝金地	-12.0654
一而	-12.0659
供養百億	-12.0662
於中夜	-12.0664
破亡	-12.0666
法化	-12.0669
解脫因	-12.0672
明非無	-12.0675
同號山	-12.0683
由生	-12.0686
難我	-12.069
及下方	-12.0704
我修	-12.0704
若得是	-12.0709
著入	-12.071
恣汝	-12.0713
授與阿	-12.0713
令得出	-12.0715
則功	-12.0728
一戒	-12.0731
求訶	-12.0732
木石	-12.0732
若爾	-12.0733
無內外	-12.0741
不是一	-12.0743
常為他	-12.0744
正勸	-12.0746
是經能	-12.0747
三世剎	-12.0752
難遭	-12.0752
得食	-12.0755
為邪見	-12.0758
隨心	-12.0758
外境界	-12.0759
能受持	-12.076
於時眾中有一	-12.0763
法常	-12.0763
有菩薩	-12.0764
身三界	-12.0772
無記心	-12.0779
於一身中	-12.0787
故得身	-12.0791
能益	-12.0794
眼為	-12.0803
諸惡人	-12.0806
注大	-12.0808
至日	-12.0809
酒家	-12.081
墮諸	-12.0816
可捨	-12.0818
初明眼藉	-12.0818
三寶中	-12.082
之風	-12.0825
唯說	-12.0825
樂無邊	-12.0827
生邊地	-12.0829
聞不	-12.0831
當成	-12.0832
取印	-12.0834
戒持	-12.0834
是輩	-12.0835
一二	-12.0842
以此經付囑	-12.0851
當爾之時若	-12.0853
界空	-12.0855
南無華光	-12.0859
嗚	-12.0864
力無能	-12.0864
然諸	-12.0866
諸法相	-12.0868
深義	-12.0868
欲供養	-12.0871
百三十	-12.0874
二十同號	-12.0883
諸眾生故	-12.0897
謗一切	-12.0897
識者	-12.0899
取真	-12.0901
穴隱	-12.0901
汝何	-12.0903
呼大哭	-12.0909
家財	-12.0912
唯願佛世尊	-12.0912
南無密	-12.0914
為火	-12.0922
乃是三世諸佛	-12.0925
念道	-12.0926
於佛性	-12.0932
能報父母	-12.0935
蠱毒悉皆消滅	-12.0941
六十四	-12.0942
人衣	-12.0945
經劫	-12.0947
出見	-12.0947
知生死涅槃	-12.0951
由此三毒	-12.0954
肉眼不	-12.096
因心	-12.0961
劍樹地獄中	-12.0965
五藏	-12.0969
不應有	-12.0971
合故	-12.098
終本	-12.0981
血脈	-12.0983
大千國土	-12.099
證無生	-12.099
時薄伽梵	-12.0992
道品	-12.0992
地六種震動	-12.1006
「□□□□□□□	-12.1007
亦須	-12.1008
疲極	-12.1012
力能	-12.1018
盡有佛	-12.1018
智王	-12.1022
山王	-12.1023
彌勒為	-12.103
求於	-12.1031
五千	-12.1032
令覺	-12.1032
聞聲	-12.1033
可識	-12.1038
一切世界皆	-12.1039
久當	-12.1045
定法	-12.1045
是故諸	-12.1047
著無	-12.1054
七殺	-12.1057
依善友	-12.1059
當知不久得	-12.1059
性恒	-12.1061
皆是虛	-12.1063
貧人得	-12.1067
不形咲	-12.1067
生汝	-12.107
十方佛常	-12.1071
受無量苦	-12.1071
舉聲	-12.1072
不得侵	-12.1077
得正	-12.1085
生慈父	-12.1085
一切經	-12.1087
永無生	-12.109
名眾生	-12.1102
歡喜恭敬	-12.1112
死墮糞	-12.1113
興念	-12.1115
某甲	-12.1115
第二如來正	-12.1122
一者世世	-12.1122
輪地獄	-12.1124
能誦此經	-12.1138
復有眾生見他	-12.1143
從無本	-12.1147
應勸	-12.1148
陀羅	-12.1158
濟窮	-12.1161
舊	-12.1163
初言	-12.1169
然火	-12.1179
決罪福經卷上	-12.1183
離疑惑	-12.1184
珠作	-12.1185
畢已	-12.1186
唯當	-12.1187
精進可得見	-12.1189
不見日月	-12.1192
外無	-12.1193
戒不	-12.1195
諸佛身	-12.1195
無所定	-12.1202
汝等護	-12.1203
正真	-12.1203
欲起	-12.1207
中即現	-12.1207
天王名毘樓	-12.1208
共相牽	-12.1208
時眾	-12.121
飽不	-12.1212
及以五	-12.1213
十五者世世	-12.1215
山河	-12.1215
無業	-12.1221
體真	-12.1222
隨順世	-12.1226
謹	-12.1227
此是不	-12.1235
著之	-12.1235
中無	-12.1238
搖	-12.1243
其舌	-12.1244
此福	-12.1246
罪過	-12.1246
聞我	-12.1252
皆悉集	-12.1255
人間二	-12.1256
以智	-12.1257
流布世	-12.126
乃得成	-12.1265
告阿難	-12.1266
如得	-12.1274
功德法	-12.1278
修行此	-12.1279
皆成佛	-12.1281
故言癡	-12.1282
將墮	-12.1282
作沙門	-12.1286
是汝飲食	-12.1292
修善法	-12.1294
無量罪	-12.1295
行是	-12.1297
自縱	-12.13
能具	-12.13
一比丘	-12.1303
囉羝	-12.1306
離於三	-12.131
身作其	-12.1314
一味之	-12.1315
馱	-12.132
是故身	-12.1328
如對	-12.133
如啞人	-12.1332
寶德	-12.1333
毀正法	-12.1334
有一大士	-12.1337
亦不中	-12.1338
化樂	-12.1338
修禪定	-12.1339
得金	-12.1339
智者善	-12.1341
英	-12.1343
生兒	-12.1343
善於	-12.1345
道行	-12.1347
與色	-12.1348
無所染	-12.135
如是說者	-12.1352
光明相三昧	-12.1352
萬那由他	-12.1353
合同一	-12.1362
有為功	-12.1369
說名字	-12.1372
是過去	-12.1372
者今	-12.1375
一切眾生亦復	-12.1377
人舌	-12.1377
佛名寶	-12.1377
穀不	-12.1379
威德力	-12.1379
遊三世人師子	-12.1381
得不	-12.1383
樂說	-12.1383
有諸眾生	-12.1385
益智慧	-12.1386
以意	-12.139
一佛世界	-12.1392
大道心	-12.1393
南無彌勒菩薩	-12.1395
用意	-12.1398
如是無量	-12.1406
令惡人	-12.1409
者有心	-12.1415
非相	-12.1423
耳是聲	-12.1432
眼而	-12.1433
無無	-12.1434
剎土	-12.1434
汝是大	-12.1438
別教所	-12.1439
化城在	-12.144
能入世間不	-12.1441
度有	-12.1442
者即變	-12.1443
見己	-12.1444
不以	-12.1445
分辯	-12.1445
眾生存	-12.1453
際名為	-12.1454
定惠	-12.1456
花光	-12.1458
遷	-12.1459
法皆是	-12.1466
心清	-12.1468
人作	-12.1469
初心菩薩	-12.1471
發露諸	-12.1471
空見	-12.1472
佛告虛空藏菩	-12.1473
令正	-12.1475
愛子	-12.148
達解	-12.1482
阿難問	-12.1485
流佛	-12.1488
求他	-12.1488
八難之	-12.149
氣不得	-12.1493
實諦	-12.1494
各得	-12.1505
善聽吾	-12.1505
求男	-12.1509
速滅	-12.1511
所能	-12.1516
造作惡	-12.1517
有一國	-12.1521
捨其	-12.1521
自知行	-12.1522
天王果	-12.1529
一切莊嚴	-12.1532
相殺害	-12.1535
復執	-12.1536
菩薩令諸	-12.1538
有沙門	-12.1541
已說	-12.1543
說名	-12.1547
杵碎	-12.155
勅令	-12.1551
解空	-12.1551
唯有修	-12.1551
眾生愚癡	-12.1551
不識弟	-12.1555
持用	-12.156
方便定	-12.1575
即是其	-12.1575
度諸	-12.1587
污淨行	-12.1588
是諸惡	-12.1589
長十	-12.1591
無人之	-12.1591
緣所生	-12.1592
南無不動	-12.1595
城西	-12.1595
四法	-12.1596
為八	-12.1597
見父	-12.1599
燋爛受	-12.1599
窮其	-12.1606
受此	-12.1607
罪得除	-12.161
當出	-12.1614
亂心	-12.1614
及惡	-12.1614
書寫受持	-12.1621
人魂	-12.1622
命盡	-12.1625
云何眾生	-12.1626
能救他	-12.1626
若能受持	-12.1631
南無迦	-12.1632
去地百	-12.1634
戒德	-12.1635
父母及	-12.1637
觀聲	-12.164
普光莊嚴	-12.164
釋中	-12.1641
塵中	-12.1642
案教	-12.1644
定實	-12.1646
聞佛名	-12.1648
聞經歡	-12.1651
諸佛無盡	-12.1652
亦能	-12.1653
念中即	-12.1657
造諸	-12.1663
心所	-12.1664
所有財	-12.1669
子孫	-12.1671
於五	-12.1672
見阿彌陀佛	-12.1673
人頭	-12.1681
如耕田	-12.1684
低	-12.1685
或妻	-12.1688
是汝日月	-12.1689
亦不處	-12.1691
癡住	-12.1692
雖言	-12.1696
光明普照一切	-12.1696
貧窮孤老	-12.1698
意法	-12.1703
能於此	-12.1711
刑竟得	-12.1718
諸佛無量菩薩	-12.1718
自染	-12.1719
悉皆同	-12.1721
人若	-12.1726
泯得失	-12.1733
來詣	-12.1734
生染	-12.1734
吾所	-12.1736
行同	-12.1736
中示現	-12.1737
草有	-12.174
法性理	-12.174
金粟	-12.1745
我出於	-12.1746
世以	-12.1747
從西	-12.1751
十五天名	-12.1752
父母為	-12.1757
多求	-12.1762
歡喜心	-12.1767
盧舍那天	-12.1768
智三昧起入	-12.177
爾時世尊語	-12.1773
王有	-12.1775
取無	-12.1779
成一切眾生	-12.1779
讀誦此經	-12.1781
意佛子	-12.1782
見多者	-12.1786
五波羅蜜	-12.1788
修行誰	-12.1795
廣大清	-12.1796
頭啄	-12.1796
如常	-12.1797
普光菩薩	-12.1799
僧寶眾	-12.1802
其師子	-12.1804
或取	-12.1808
定有	-12.1808
萬八千菩薩	-12.1809
者唯	-12.1813
諸佛所說	-12.1816
慈尊哀愍	-12.1825
意佛	-12.1825
海枯	-12.1826
王今	-12.1829
不歷	-12.1832
誓不	-12.1833
過八十	-12.1834
無事	-12.1841
名天人	-12.1843
備具	-12.1848
世間行世間不	-12.1853
染故	-12.1854
三者常	-12.1858
二十者	-12.1858
即化	-12.1858
本心更	-12.1864
淨名	-12.1865
稽首大	-12.1866
無量壽國	-12.1867
波羅	-12.1874
稽首上方	-12.188
知去來	-12.1881
直以	-12.1883
南無無礙	-12.1886
授人	-12.1886
正由	-12.1889
清信士女	-12.1892
田中	-12.1892
▁子	-12.1892
唯願世尊為	-12.1893
溫和調	-12.1898
年十二	-12.1901
行思	-12.1901
人等	-12.1904
者得	-12.1904
所污	-12.1905
高百	-12.1906
犯如是	-12.1908
害毒	-12.191
亦當歸	-12.1911
實難	-12.1914
開我	-12.1915
於世界	-12.1916
毒不可	-12.1916
持十善行	-12.1917
深難為	-12.1917
無有覺	-12.1919
爾時尊者	-12.192
云何而有眾生聞	-12.1926
從本來	-12.1928
而食	-12.1929
若王	-12.1929
諍後	-12.193
下品	-12.1934
月六齋	-12.1935
懷憍	-12.1935
即墮阿鼻	-12.1935
外眷屬	-12.1939
不得輕	-12.1939
對眼	-12.194
見體無實	-12.1943
後代眾生	-12.1944
無所愛	-12.1952
煩惱即	-12.1956
一百三十	-12.1958
普照	-12.196
盡得	-12.196
爾時世尊說此	-12.196
供養四	-12.1963
者則	-12.1964
垣	-12.197
歲三	-12.197
大乘方廣	-12.197
碓	-12.1972
香風	-12.1973
東方有	-12.1974
七十三	-12.1974
若修	-12.1975
妻子眷屬	-12.1978
眾生說其	-12.1979
並皆	-12.1983
安樂處	-12.1985
雨寶	-12.199
或小	-12.1991
迦難羅菩薩	-12.1991
神呪	-12.1991
當觀實	-12.1992
苦如是	-12.1993
諸外道	-12.1996
三百餘	-12.2002
亦有十	-12.2009
眾中以偈讚	-12.2011
若去	-12.2011
力破壞	-12.2013
未得道	-12.2015
一向	-12.2022
追求	-12.2027
生人	-12.2028
南無旃檀	-12.2032
九萬	-12.2033
泣血	-12.2033
語調	-12.2042
少財	-12.2044
恒沙諸	-12.2046
如上觀	-12.205
若寫	-12.2052
何待	-12.2052
知空	-12.2053
萬餘	-12.2054
十方三世	-12.2055
解其	-12.2057
能受供	-12.2057
南無甘露	-12.2058
礙自在	-12.206
雨七寶	-12.2061
在煩惱	-12.2061
而今	-12.2062
言我	-12.2063
之流	-12.2064
莫能	-12.2066
涅槃之	-12.2074
出雲	-12.2077
施菩薩	-12.2085
二十六	-12.2088
一切幽	-12.2091
。□	-12.2096
為魔	-12.2101
大念	-12.2103
具三	-12.2103
人愛	-12.211
彌深	-12.2117
今為汝	-12.2119
我相	-12.212
各四	-12.2124
藍	-12.2126
一過	-12.2127
二種人	-12.2127
呼尼	-12.2129
今身不	-12.213
復生一	-12.2133
下各	-12.2134
不樂世	-12.2136
者能得	-12.2137
所獲	-12.2138
所去	-12.2139
人入	-12.2139
億同號	-12.2139
菩薩所	-12.2141
寶光	-12.2142
海意三昧	-12.2144
亦是心有心	-12.2149
毘尼	-12.2151
明普光	-12.2152
四天神王	-12.2152
種類	-12.2154
華嚴	-12.2155
至西方	-12.216
世尊地水火	-12.2162
釋之身	-12.2162
思意	-12.2164
種病	-12.2164
三塗受苦	-12.2164
於此劫供養	-12.2169
或在山	-12.2171
損己	-12.2172
事中	-12.2173
者望欲令	-12.2173
慈哀	-12.2174
寂滅無	-12.2177
如海中	-12.2177
澤好不	-12.2178
劫者	-12.2179
始得	-12.2179
逆名為	-12.2181
十五	-12.2182
罪難	-12.2184
受印	-12.2185
相纏	-12.2187
乘空	-12.2188
應無	-12.219
佛威神	-12.219
令人得	-12.2191
唯願世	-12.2192
至理	-12.2195
善毒	-12.2197
有十恒河沙	-12.2197
學觀	-12.2198
往觀	-12.2202
觀益	-12.2204
十二月	-12.2208
聲聞發	-12.221
皆悉空	-12.2213
在娑羅雙樹間	-12.2215
與我同行	-12.2216
漏盡和	-12.2216
畜生一	-12.2217
者罪	-12.2221
薰	-12.2222
惡不造	-12.2224
無本	-12.2226
明義	-12.2228
能潤	-12.2232
利益有	-12.2232
件	-12.2233
是經名	-12.2234
六天	-12.2234
復為人	-12.2235
蜂	-12.2236
十八者	-12.2236
無邊法	-12.2237
爾時地藏菩薩	-12.2245
信相	-12.2245
為生死	-12.225
明眼	-12.2251
不橫死	-12.2252
「□□□	-12.2255
而不見	-12.2256
佛為說	-12.2257
肯	-12.2257
不得久	-12.2259
不墮橫死	-12.226
姊妹	-12.226
生無滅	-12.226
歸死	-12.2269
然燈	-12.2272
所說事	-12.2274
遍滿大	-12.2274
佛乘	-12.2275
普智三昧	-12.2276
心性本際	-12.2277
留難	-12.228
後還	-12.2283
即食父	-12.2286
至到	-12.229
善男子善女	-12.2291
不能離	-12.2293
不應緣	-12.2293
口常	-12.2295
修定	-12.2301
法義	-12.2301
願佛世尊為我	-12.2301
變形	-12.2302
為惑	-12.2303
寶住	-12.2305
大事	-12.2305
入大	-12.2309
依此	-12.2309
發無上	-12.231
貪癡	-12.2311
故天下大	-12.2311
聞此法	-12.2312
尊重為	-12.2315
緣在水	-12.2318
西南	-12.2318
又夢見	-12.2318
稽首東方	-12.232
破塔	-12.2321
船度	-12.2323
若能如是懺	-12.2326
故平等	-12.2327
人民父	-12.233
[...]
