<unk>	0
<s>	0
</s>	0
之	-4.19009
於	-4.95423
)	-5.00264
(	-5.00277
以	-5.15306
而	-5.35205
爲	-5.44939
/	-5.49348
有	-5.49844
不	-5.59398
也	-5.60147
上	-5.61157
者	-5.62232
一	-5.63694
中	-5.70096
神	-5.72749
天	-5.74649
人	-5.77799
臣	-5.79351
生	-5.80007
無	-5.8339
其	-5.85718
道	-5.89834
符	-5.92005
大	-5.9654
三	-6.02206
心	-6.04299
行	-6.06909
下	-6.09955
自	-6.14139
日	-6.15746
法	-6.18239
靈	-6.18307
則	-6.18467
此	-6.19918
眞	-6.2112
明	-6.22186
至	-6.2243
如	-6.25966
玄	-6.2845
在	-6.28658
五	-6.30762
或	-6.3159
身	-6.32024
所	-6.32094
時	-6.33804
九	-6.3907
經	-6.42489
得	-6.431
▁	-6.43295
名	-6.43849
炁	-6.45176
同	-6.47915
二	-6.48997
入	-6.49304
氣	-6.49468
曰	-6.49676
諸	-6.51333
玉	-6.53599
四	-6.54788
與	-6.55246
水	-6.55409
山	-6.56009
用	-6.56378
令	-6.56593
君	-6.56593
光	-6.5752
是	-6.5793
文	-6.58088
見	-6.58132
出	-6.5819
子	-6.60371
當	-6.60881
及	-6.61288
地	-6.6132
精	-6.61518
次	-6.6243
若	-6.63058
宫	-6.64328
故	-6.64599
化	-6.65307
仙	-6.65506
金	-6.66075
乃	-6.66146
開	-6.66217
某	-6.67682
相	-6.67871
常	-6.68377
即	-6.7007
言	-6.70094
皆	-6.70697
今	-6.7105
右	-6.7242
元	-6.73178
非	-6.73853
書	-6.74414
成	-6.74713
雲	-6.74959
形	-6.7507
師	-6.75081
度	-6.76225
門	-6.7682
天尊	-6.77767
合	-6.77846
願	-6.7971
内	-6.80582
方	-6.80895
章	-6.81316
眞人	-6.82581
真	-6.82633
七	-6.82683
受	-6.82896
來	-6.82932
字	-6.83386
陽	-6.83559
通	-6.84545
和	-6.84783
命	-6.8601
我	-6.86143
前	-6.86235
又	-6.8637
等	-6.86461
事	-6.86576
主	-6.86926
王	-6.86988
念	-6.87371
流	-6.87422
矣	-6.87565
未	-6.88092
帝	-6.89102
觀	-6.89502
六	-6.9007
萬	-6.90526
運	-6.90559
後	-6.90709
使	-6.90786
分	-6.91516
可	-6.91932
正	-6.93067
八	-6.93449
巳	-6.93881
應	-6.94403
飛	-6.94406
存	-6.94534
火	-6.94998
)(	-6.9509
聖	-6.95587
隂	-6.95587
華	-6.95694
司	-6.9621
能	-6.97456
長	-6.98005
作	-6.98019
亦	-6.98368
安	-7.00517
星	-7.00529
善	-7.00754
年	-7.00784
復	-7.00964
死	-7.01233
一切	-7.01541
立	-7.01916
降	-7.01997
景	-7.02493
清	-7.02537
從	-7.02587
本	-7.02769
寳	-7.02885
太上	-7.03013
重	-7.03165
聞	-7.03609
各	-7.0369
十	-7.03806
龍	-7.04109
青	-7.04352
官	-7.05799
宣	-7.06213
知	-7.06306
丹	-7.06842
妙	-7.071
先	-7.08074
請	-7.08535
鬼	-7.08821
風	-7.10266
云	-7.10591
德	-7.11063
月	-7.11335
將	-7.11473
自然	-7.12331
髙	-7.12366
欲	-7.12523
福	-7.12696
修	-7.13119
因	-7.13448
壇	-7.14071
罪	-7.14455
齋	-7.14477
靈寳	-7.14522
然	-7.14907
取	-7.15598
外	-7.15663
過	-7.17096
白	-7.17761
黄	-7.18236
奉	-7.18634
處	-7.18889
物	-7.19057
去	-7.20387
散	-7.20507
十方	-7.21948
歸	-7.22015
傳	-7.22073
洞	-7.22806
世	-7.23163
永	-7.23738
不得	-7.24694
食	-7.25785
解	-7.2579
隨	-7.26324
空	-7.26976
左	-7.27417
依	-7.27426
並	-7.27695
何	-7.27762
惡	-7.28421
儀	-7.28521
居	-7.28552
定	-7.28929
九天	-7.30449
多	-7.3052
衆	-7.3081
香	-7.31899
功	-7.32812
虚	-7.33154
朝	-7.34065
无	-7.34598
極	-7.34739
治	-7.35285
位	-7.35301
呪	-7.35386
結	-7.35532
凡	-7.35598
難	-7.35893
召	-7.36271
關	-7.36589
除	-7.3676
起	-7.37044
禮	-7.37528
告	-7.38432
攝	-7.39205
樂	-7.39574
數	-7.39903
畢	-7.40288
石	-7.40712
家	-7.40943
魂	-7.41372
府	-7.41445
服	-7.41471
登	-7.41477
眞君	-7.42168
天地	-7.42703
盡	-7.42905
口	-7.43712
玉女	-7.43811
衣	-7.44195
上清	-7.44932
發	-7.45039
離	-7.45067
惟	-7.45387
周	-7.45576
列	-7.46327
啓	-7.46646
具	-7.46674
還	-7.46809
滅	-7.46869
尊	-7.47182
幽	-7.47404
吾	-7.48247
致	-7.48873
教	-7.49569
遊	-7.49749
普	-7.50515
南	-7.50814
百	-7.51192
都	-7.51758
東	-7.52129
耳	-7.52138
道士	-7.52199
廣	-7.52203
奏	-7.52213
業	-7.52368
遂	-7.52424
赤	-7.52619
守	-7.52619
紫	-7.52884
色	-7.52935
照	-7.5301
俱	-7.53159
乗	-7.54304
聲	-7.54353
意	-7.54451
備	-7.54608
御	-7.54678
小	-7.54716
土	-7.54775
旣	-7.54837
保	-7.55082
思	-7.55788
㑹	-7.55882
苦	-7.56237
信	-7.56273
北	-7.56505
體	-7.5658
實	-7.56628
伏	-7.56901
邪	-7.57317
仰	-7.57532
深	-7.57826
息	-7.57945
西	-7.58258
諸天	-7.583
戒	-7.58444
病	-7.58801
太	-7.58871
求	-7.58912
執	-7.59023
藏	-7.59233
乎	-7.59376
始	-7.59547
簡	-7.60035
垂	-7.60562
理	-7.60654
訣	-7.60759
隱	-7.60799
千	-7.61155
積	-7.61219
已	-7.61457
災	-7.61496
謹	-7.61515
轉	-7.61612
羅	-7.61648
凝	-7.61743
向	-7.61766
造	-7.61772
根	-7.62042
公	-7.62337
舉	-7.62487
期	-7.62734
動	-7.62924
恩	-7.634
承	-7.63665
施	-7.64002
變	-7.64047
之中	-7.64237
素	-7.64958
兩	-7.65181
悉	-7.65446
木	-7.65456
玉清	-7.65528
目	-7.6553
必	-7.65673
節	-7.66016
法師	-7.66438
夜	-7.66581
交	-7.66663
便	-7.66887
消	-7.66919
平	-7.67194
莫	-7.67619
不可	-7.67709
元始	-7.68
回	-7.68202
蓋	-7.68293
說	-7.68297
劫	-7.68426
天尊志心朝禮	-7.69016
咸	-7.69029
性	-7.69033
絶	-7.69073
三界	-7.69098
宿	-7.69254
持	-7.69419
焉	-7.69544
耀	-7.69735
牒	-7.70511
殺	-7.70531
止	-7.70622
縁	-7.70648
超	-7.70993
十二	-7.71143
申	-7.71277
弟子	-7.71418
式	-7.71485
微	-7.71517
坐	-7.71799
女	-7.72028
初	-7.72291
更	-7.72325
日月	-7.72818
圖	-7.73076
感	-7.7312
昭	-7.73154
國	-7.73413
注	-7.73873
齊	-7.74662
引	-7.75035
號	-7.75059
疾	-7.75219
慶	-7.75641
力	-7.76097
考	-7.76167
宗	-7.76252
誠	-7.7649
于	-7.76612
神仙	-7.76844
授	-7.76992
大道	-7.77672
雖	-7.77707
燈	-7.77803
塵	-7.78038
首	-7.78482
臨	-7.78645
異	-7.78791
朱	-7.78817
著	-7.79045
狀	-7.79238
䰟	-7.79456
州	-7.79515
靜	-7.79652
須	-7.80065
録	-7.81172
濟	-7.81205
陳	-7.81205
象	-7.81348
諱	-7.81369
共	-7.81613
三元	-7.8215
伏願	-7.82751
詣	-7.82853
對	-7.82934
頭	-7.83025
誦	-7.83076
隂陽	-7.8346
建	-7.8357
勑	-7.83598
足	-7.83703
升	-7.8407
布	-7.84082
林	-7.84473
夫	-7.84571
謝	-7.84602
進	-7.8472
▲	-7.84766
但	-7.84895
終	-7.85199
集	-7.85268
犯	-7.8531
謂	-7.85644
藥	-7.85721
衆生	-7.86035
制	-7.86314
敷	-7.86556
拜	-7.87006
由	-7.87178
三天	-7.87419
真人	-7.87657
斗	-7.87731
使者	-7.88154
易	-7.88173
民	-7.88278
慈	-7.88374
印	-7.88524
領	-7.88693
職	-7.8873
傷	-7.88819
胎	-7.89009
黃	-7.89183
功德	-7.89324
地獄	-7.89325
室	-7.8936
威	-7.89368
天帝	-7.90147
呪曰	-7.90179
開度	-7.90258
失	-7.90357
利	-7.90616
品	-7.90734
海	-7.91044
五帝	-7.92502
東方	-7.9261
帝君	-7.92736
映	-7.92822
遇	-7.9285
庭	-7.92883
屬	-7.92889
旛	-7.93134
張	-7.9349
靈官	-7.93798
皇	-7.93872
獄	-7.93971
澤	-7.93989
音	-7.94049
面	-7.9413
表	-7.94191
恭	-7.94202
興	-7.94231
老	-7.94467
汝	-7.95277
按	-7.954
獲	-7.95489
籙	-7.95813
祈	-7.95835
資	-7.96062
延	-7.96176
果	-7.9628
宮	-7.96782
宜	-7.96796
歳	-7.96799
壽	-7.96893
直	-7.97069
不能	-7.97094
嚴	-7.97163
報	-7.9736
境	-7.97395
卷	-7.97695
全	-7.97935
辰	-7.98012
親	-7.98114
淨	-7.98204
問	-7.9877
收	-7.99087
想	-7.99393
科	-7.99424
斷	-7.99639
母	-7.99789
手	-7.99906
路	-8.00137
焚	-8.0028
大神	-8.00872
煥	-8.01028
歩	-8.01049
惠	-8.01256
童子	-8.01378
望	-8.01528
雨	-8.01529
志	-8.01649
情	-8.0169
指	-8.01728
駕	-8.02092
要	-8.02137
學	-8.02437
容	-8.02467
侍	-8.02821
生死	-8.02901
錬	-8.02956
速	-8.03052
榮	-8.03154
兵	-8.0331
毒	-8.03364
設	-8.03428
穢	-8.03565
鍊	-8.03744
宅	-8.03878
九幽	-8.04052
蒙	-8.04326
被	-8.04385
乞	-8.04515
紀	-8.04541
禁	-8.0458
破	-8.05002
投	-8.05155
少	-8.05326
瓊	-8.05553
三寳	-8.05559
養	-8.05696
曲	-8.05813
輪	-8.06066
魔	-8.06161
黒	-8.06219
冠	-8.06288
昇	-8.06635
左右	-8.06819
浮	-8.06942
之炁	-8.06996
醮	-8.07091
返	-8.07584
切	-8.07611
間	-8.07683
中有	-8.07956
臺	-8.08042
義	-8.0806
質	-8.08504
逺	-8.0852
祝	-8.08541
封	-8.08582
太一	-8.08914
天尊志心敬禮	-8.09203
稱	-8.09298
堂	-8.0936
界	-8.0938
晨	-8.09399
闕	-8.09666
北方	-8.09768
餘	-8.10002
聽	-8.10549
賜	-8.10802
籍	-8.11232
輝	-8.11277
好	-8.11295
害	-8.11361
滿	-8.11399
語	-8.1143
部	-8.11594
馬	-8.11596
長生	-8.11693
魄	-8.11724
宻	-8.11868
春	-8.1221
混	-8.12222
識	-8.1226
仁	-8.12294
古	-8.12513
城	-8.12725
顯	-8.12749
加	-8.13109
上帝	-8.13184
契	-8.13482
輕	-8.13669
到	-8.13678
殿	-8.13813
亡	-8.13937
崇	-8.1413
急	-8.14203
益	-8.143
别	-8.15429
護	-8.15475
供養	-8.15555
猶	-8.15795
敬	-8.15969
吏	-8.16092
鎭	-8.16166
無量	-8.16773
順	-8.16873
夫人	-8.17126
南方	-8.17469
累	-8.17508
愛	-8.17842
既	-8.17894
珠	-8.18271
悟	-8.18331
證	-8.18787
五嶽	-8.18848
固	-8.18917
會	-8.19192
乾	-8.19314
却	-8.19318
光明	-8.19402
落	-8.1953
冥	-8.19532
西方	-8.1956
妄	-8.19747
爾	-8.19838
履	-8.19954
久	-8.20009
源	-8.20203
種	-8.20645
住	-8.20793
房	-8.20884
稽首	-8.21011
功曹	-8.21462
克	-8.21515
覆	-8.22106
違	-8.2223
勿	-8.22316
再	-8.22402
佩	-8.22404
三洞	-8.22546
圓	-8.22595
遣	-8.22629
姓	-8.22739
掌	-8.22942
至眞	-8.22997
兹	-8.23239
留	-8.23248
雷	-8.23326
凶	-8.23343
總	-8.23687
三十六	-8.23714
載	-8.23758
斯	-8.23856
天下	-8.23889
急急如律令	-8.24138
如是	-8.24818
送	-8.24824
男女	-8.24887
梵	-8.24898
育	-8.25234
寧	-8.25245
詞	-8.25303
恐	-8.25482
先生	-8.25543
泉	-8.25625
新	-8.26024
遍	-8.26243
庶	-8.26466
羽	-8.26662
二十四	-8.26823
迴	-8.26901
誓	-8.27062
㝠	-8.27195
座	-8.27738
負	-8.27774
昔	-8.27785
昌	-8.27799
典	-8.27831
曹	-8.28381
之道	-8.28386
無極	-8.28388
就	-8.28645
煙	-8.28734
腎	-8.28757
迎	-8.28886
道君	-8.29192
星君	-8.2928
敢	-8.29286
盛	-8.29324
唯	-8.29581
甚	-8.29596
救	-8.29698
朗	-8.29797
祖	-8.29823
彼	-8.30075
露	-8.30141
五方	-8.30158
遷	-8.30288
覺	-8.30377
金闕	-8.30462
盟	-8.3054
扶	-8.30611
置	-8.30622
天人	-8.30949
潜	-8.31289
禍	-8.31346
忽	-8.31711
内外	-8.31882
臣等	-8.31888
騰	-8.31979
懴	-8.32183
蕩	-8.32206
哉	-8.32312
俾	-8.32472
勤	-8.32852
酒	-8.32916
徒	-8.33085
獨	-8.33087
監	-8.33375
近	-8.33652
貴	-8.33772
刑	-8.33969
休	-8.34053
尚	-8.34073
智	-8.3458
提	-8.34815
虎	-8.34858
接	-8.34941
釋	-8.34984
達	-8.35001
豈	-8.35009
許	-8.35195
示	-8.35235
停	-8.35256
吉	-8.35269
將軍	-8.35272
懴悔	-8.35414
士	-8.35623
徃	-8.35695
太極	-8.35863
無上	-8.36158
連	-8.36181
鬼神	-8.36259
幸	-8.36323
并	-8.36356
今日	-8.3649
班	-8.36505
不知	-8.36563
調	-8.36718
三官	-8.36777
聚	-8.36852
祐	-8.36884
勝	-8.37002
岀	-8.3702
縣	-8.3712
輔	-8.37146
鳯	-8.3732
敕	-8.37645
津	-8.37788
呼	-8.37996
澄	-8.38094
行道	-8.38319
反	-8.38381
尸	-8.3858
患	-8.3864
第一	-8.38972
付	-8.38984
花	-8.39035
俗	-8.3912
變化	-8.3924
曜	-8.3941
殃	-8.39471
中央	-8.39522
老君	-8.3957
得道	-8.39686
霄	-8.39706
符命	-8.39735
之所	-8.39823
鑒	-8.39872
血	-8.39887
大將軍	-8.39906
徳	-8.40081
車	-8.40227
賢	-8.40393
任	-8.40798
為	-8.41438
視	-8.4154
均	-8.41595
泰	-8.41854
毎	-8.41864
端	-8.41892
之後	-8.42228
天尊至心朝禮	-8.42527
第二	-8.42622
之法	-8.42875
霞	-8.42893
天門	-8.43035
演	-8.43075
跡	-8.4336
寒	-8.43404
像	-8.43425
俯	-8.43521
三光	-8.43571
田	-8.43655
沉	-8.43931
鳳	-8.44182
骨	-8.44512
祕	-8.44563
冝	-8.44632
條	-8.4464
貪	-8.44665
无上	-8.44686
五行	-8.44701
專	-8.44736
逍遥	-8.44755
之人	-8.44777
所以	-8.44804
代	-8.44922
眞文	-8.45131
迷	-8.45138
玄壇	-8.45441
原	-8.45794
痛	-8.4588
脫	-8.45965
玄都	-8.45999
差	-8.46012
免	-8.46093
辭	-8.46139
水火	-8.46367
驗	-8.46385
放	-8.46437
肅	-8.46491
父母	-8.46693
太清	-8.46726
爽	-8.46772
如此	-8.47194
漢	-8.47289
閉	-8.47364
里	-8.4742
第三	-8.47478
揚	-8.4762
童	-8.47698
奉行	-8.47803
仙官	-8.47935
院	-8.47995
逐	-8.48057
武	-8.48225
統	-8.48344
唱	-8.48401
頌	-8.48419
英	-8.48431
仍	-8.48512
格	-8.48527
徧	-8.48625
廻	-8.48626
獻	-8.48647
且	-8.4872
鼻	-8.48907
逆	-8.49178
遵	-8.49368
寂	-8.49461
幕	-8.49972
天師	-8.50001
喜	-8.50109
伏以	-8.50264
郷	-8.50347
愆	-8.50388
禀	-8.50445
記	-8.50664
他	-8.50979
元君	-8.51036
井	-8.51119
北斗	-8.51217
紙	-8.51468
淵	-8.51639
推	-8.51783
清淨	-8.51793
只	-8.51811
度人	-8.51966
亡魂	-8.51991
追	-8.52094
於是	-8.52171
亂	-8.52202
然後	-8.5226
爰	-8.52283
讃	-8.52453
移	-8.52482
無爲	-8.52642
計	-8.5265
是也	-8.52816
萬物	-8.53035
舍	-8.53083
禄	-8.53186
午	-8.53285
瞻	-8.53298
參	-8.53326
懷	-8.53556
以今	-8.5381
而不	-8.54033
廟	-8.54076
披	-8.54403
緫	-8.54505
往	-8.54531
碧	-8.54678
厄	-8.54732
兆	-8.54874
營	-8.54909
太陽	-8.55007
尋	-8.55065
含	-8.5511
肺	-8.55134
滯	-8.55171
萬神	-8.55322
緑	-8.55363
洪	-8.55411
味	-8.55418
巨	-8.55426
機	-8.55502
肝	-8.55789
弘	-8.56229
可以	-8.5632
祥	-8.56347
慈悲	-8.56428
律令	-8.56439
逹	-8.56557
徹	-8.56962
慧	-8.57002
經云	-8.57081
父	-8.57224
善男子	-8.5724
忘	-8.57286
驚	-8.57453
候	-8.57538
上元	-8.57575
野	-8.57605
舊	-8.57695
鳴	-8.577
波	-8.57733
庸	-8.57757
大聖	-8.57767
了	-8.57896
論	-8.57903
萬劫	-8.58212
訖	-8.58354
乆	-8.58382
眼	-8.58394
江	-8.5852
助	-8.58619
李	-8.58888
逢	-8.5891
虛	-8.59034
因縁	-8.59065
良	-8.59093
河	-8.59136
捨	-8.59225
以爲	-8.59252
神虎	-8.59428
瑞	-8.5953
司命	-8.59638
律	-8.59718
慮	-8.59744
融	-8.59778
震	-8.59784
徑	-8.59981
芝	-8.60051
每	-8.60584
所謂	-8.60707
夢	-8.60887
魔王	-8.60993
錢	-8.61024
鐵	-8.61246
潤	-8.61313
薦	-8.61324
憂	-8.61416
省	-8.6154
寅	-8.61739
允	-8.61851
鎮	-8.61911
殊	-8.62031
現	-8.62067
救苦	-8.62126
之時	-8.62153
神王	-8.62174
背	-8.62193
竟	-8.62293
宇	-8.62298
充	-8.62422
潔	-8.6257
歌	-8.62967
紫微	-8.63149
飛仙	-8.63402
階	-8.63559
拔	-8.63636
無邊	-8.6376
甲	-8.6383
大帝	-8.64006
㫖	-8.64009
若有	-8.64058
疑	-8.64216
彰	-8.64599
絳	-8.64718
序	-8.65133
威儀	-8.65284
燒香	-8.65447
妖	-8.65632
愚	-8.65717
振	-8.65731
飲	-8.65834
群	-8.65964
干	-8.66034
旋	-8.66057
炎	-8.66112
衞	-8.6639
際	-8.6639
秀	-8.6651
窮	-8.66595
招	-8.66642
草	-8.66658
域	-8.66687
谷	-8.66932
五色	-8.6718
財	-8.67249
冀	-8.67277
察	-8.6729
劵	-8.67313
無窮	-8.67348
𡨚	-8.67394
謂之	-8.67419
篇	-8.67587
嶽	-8.67765
傾	-8.67889
抱	-8.68022
納	-8.68025
之日	-8.68491
豐	-8.6854
太隂	-8.68617
秋	-8.68629
三炁	-8.68654
錬度	-8.68896
燭	-8.68987
氏	-8.69084
赦	-8.69306
太玄	-8.69432
康	-8.6955
生神	-8.69584
之功	-8.69646
沐浴	-8.70107
衛	-8.70265
荷	-8.70273
歷	-8.70352
樹	-8.70456
筆	-8.70496
遠	-8.70599
掐	-8.70651
髙功	-8.70658
眷屬	-8.70743
假	-8.712
仙人	-8.71334
蒼	-8.71418
本命	-8.71566
天尊信禮	-8.7157
池	-8.7179
酆都	-8.71806
勞	-8.71815
聖前	-8.71957
紅	-8.72295
亥	-8.72376
悲	-8.72397
智慧	-8.72491
眞靈	-8.72548
奔	-8.72642
正一	-8.7277
葉	-8.72798
馳	-8.72824
鼓	-8.72849
告下	-8.7285
損	-8.73005
吹	-8.73053
導	-8.73125
範	-8.73507
青玄	-8.73588
之上	-8.73851
天中	-8.74055
唐	-8.74182
檢	-8.74273
祖師	-8.7436
上聖	-8.74385
増	-8.74459
陶	-8.74784
頂	-8.7482
丈人	-8.74934
堅	-8.7495
劒	-8.75024
賛	-8.75292
主者	-8.75295
御前	-8.75558
越	-8.75563
高	-8.75639
孝	-8.76082
西北	-8.76087
末	-8.76196
希	-8.76321
佐	-8.76342
縱	-8.76418
之妙	-8.7663
真君	-8.76662
汝等	-8.76682
疾病	-8.76796
名曰	-8.77046
朱陵	-8.77092
脾	-8.77106
伯	-8.77281
翠	-8.77554
刀	-8.77588
戸	-8.77827
竒	-8.78074
烟	-8.78113
錫	-8.78138
斬	-8.78218
細	-8.78446
遺	-8.78454
副	-8.78514
危	-8.78621
長夜	-8.78707
吐	-8.78714
讀	-8.78748
之氣	-8.78828
黑	-8.78904
仗	-8.79155
川	-8.79179
東南	-8.7925
覩	-8.79262
䇿	-8.79289
罰	-8.79345
世間	-8.79399
灌	-8.79542
精神	-8.79598
芒	-8.79702
邊	-8.80086
役	-8.80103
三清	-8.80105
魂魄	-8.8026
液	-8.80336
摧	-8.80537
隆	-8.80775
頒	-8.80944
三塗	-8.80974
鸞	-8.81283
蟲	-8.81306
髙上	-8.81378
盈	-8.81567
比	-8.81665
臻	-8.8188
坤	-8.81915
朱書	-8.82027
輿	-8.82084
厚	-8.82551
無有	-8.82642
靈光	-8.82671
愈	-8.83004
鶴	-8.8304
道場	-8.83059
於此	-8.83088
兼	-8.83179
東華	-8.83231
退	-8.83261
將吏	-8.8337
䖍	-8.8363
歡	-8.83822
鐘	-8.83842
卿	-8.8386
學道	-8.83919
皈依	-8.83953
基	-8.83976
驅	-8.83989
乘	-8.84085
衝	-8.84091
向來	-8.84214
服之	-8.84479
之至	-8.8456
寶	-8.84672
再拜	-8.84868
空洞	-8.84881
男	-8.85112
丘	-8.85208
人間	-8.85249
書符	-8.85251
暉	-8.85265
亡靈	-8.85268
元陽	-8.85305
幾	-8.85594
皇帝	-8.85682
恒	-8.85881
函	-8.86103
此經	-8.86182
户	-8.86262
齋主	-8.86289
彩	-8.86415
客	-8.86477
懸	-8.86542
刻	-8.86625
案	-8.8664
同前	-8.8668
卯	-8.8674
半	-8.86746
雜	-8.8681
一人	-8.86967
墮	-8.87001
與道合眞	-8.87031
罡	-8.87199
之内	-8.87226
角	-8.87309
霧	-8.87784
名爲	-8.87869
眞符	-8.87982
羣	-8.88027
南宫	-8.88083
沈	-8.88088
繫	-8.88104
詔	-8.88129
忌	-8.88135
旁	-8.88153
帶	-8.88225
九炁	-8.88383
赴	-8.88474
太微	-8.88513
混合	-8.88678
己	-8.8878
早	-8.888
遐	-8.88858
一切衆生	-8.89068
委	-8.89222
黄籙	-8.8925
丈	-8.89384
沐	-8.894
幽魂	-8.89449
享	-8.89464
敎	-8.89582
曷	-8.89603
特	-8.89657
棄	-8.89671
甘露	-8.8982
普度	-8.89867
祖炁	-8.89873
丑	-8.89908
維	-8.89916
顧	-8.89931
閑	-8.89987
陵	-8.90134
具位	-8.90184
哀	-8.90269
金光	-8.90321
中元	-8.90464
䟽	-8.90469
下降	-8.90516
故曰	-8.90561
峯	-8.90653
孤	-8.90849
之神	-8.90894
政	-8.90908
横	-8.90951
響	-8.9098
之恩	-8.91028
又有	-8.91064
臣聞	-8.91116
綱	-8.91124
三十	-8.9117
髮	-8.91195
量	-8.91226
咽	-8.91529
梁	-8.91561
修行	-8.9159
影	-8.91602
瑶	-8.91881
急急如	-8.91921
況	-8.92011
洗	-8.92041
之精	-8.9208
給	-8.92264
看	-8.92303
造化	-8.92317
詳	-8.92322
種種	-8.9233
類	-8.9248
天曹	-8.92531
元始天尊	-8.92555
待	-8.92621
騎	-8.92786
劉	-8.92928
歩虚	-8.93001
宴	-8.9308
行之	-8.93103
神君	-8.93143
二十	-8.93324
暗	-8.93424
尺	-8.93498
謁	-8.93878
誦經	-8.9394
善惡	-8.94001
丁	-8.9408
是以	-8.94173
勸	-8.94195
夷	-8.94248
係	-8.94274
寫	-8.94337
竹	-8.94603
嬰	-8.94605
上章	-8.94761
祭	-8.94885
似	-8.94947
蛇	-8.95257
曽	-8.95366
舌	-8.95443
鬱	-8.95506
貫	-8.95641
管	-8.95677
甘	-8.95892
器	-8.95943
篆	-8.95975
禳	-8.95994
藹	-8.96039
乾坤	-8.9606
世界	-8.96097
塞	-8.9631
頓	-8.96327
上香	-8.96459
祝曰	-8.96537
應感	-8.96568
玊	-8.96576
翼	-8.96681
茂	-8.96726
宸	-8.96821
三日	-8.96824
吸	-8.96935
酉	-8.9694
伸	-8.96999
值	-8.97076
旬	-8.97086
神明	-8.97133
超度	-8.97159
子孫	-8.97188
産	-8.97234
鳥	-8.97271
科儀立成品	-8.97276
虚皇	-8.97276
枝	-8.97283
慕	-8.9737
主宰	-8.97473
拱	-8.97595
解脫	-8.97642
五炁	-8.9765
太虚	-8.97919
黙	-8.98076
濁	-8.98178
凌	-8.98353
昏	-8.98391
宫中	-8.98553
侵	-8.98644
身中	-8.98799
夀	-8.9883
湯	-8.9902
天官	-8.99039
法事	-8.9908
拘	-8.99114
遥	-8.99119
務	-8.99144
沖	-8.99397
東極	-8.99495
夕	-8.99529
衡	-8.99531
改	-8.99546
上方	-8.9965
軍	-8.997
出入	-8.99852
燒	-8.99955
漏	-9.0006
供	-9.00336
玉京	-9.00442
化生	-9.0045
一如告命	-9.00487
五道	-9.00576
爾時	-9.0067
一日	-9.00678
泥丸	-9.00902
巾	-9.00921
无量	-9.00955
大小	-9.01057
芳	-9.01063
四方	-9.01112
道德	-9.0113
蘭	-9.01198
不敢	-9.01392
水府	-9.01505
漸	-9.01576
洞玄	-9.01586
鴻	-9.02023
附	-9.02218
西南	-9.0222
長存	-9.02237
貞	-9.02325
舒	-9.02406
玄元	-9.02416
上眞	-9.02423
市	-9.02724
筭	-9.02734
攺	-9.02762
膺	-9.02789
晝夜	-9.02835
染	-9.0295
布施	-9.03019
夏	-9.03033
上下	-9.03042
走	-9.03066
滋	-9.03101
繒	-9.03114
殫	-9.03132
樞	-9.03427
不信	-9.03497
衰	-9.03527
化爲	-9.0357
一炁	-9.03694
卧	-9.03788
罄	-9.03875
告文	-9.0391
衆聖	-9.03936
不見	-9.03971
玉皇	-9.04009
忠	-9.04055
是故	-9.04176
龜	-9.04266
吟	-9.04333
拔度	-9.04511
美	-9.04533
一名	-9.04655
存亡	-9.04707
觸	-9.04771
左手	-9.04789
玉帝	-9.04798
拯	-9.04849
十華	-9.04906
第四	-9.0492
預	-9.05044
官吏	-9.05146
衆官	-9.05227
毋	-9.05298
嘉	-9.05344
五十	-9.05368
東北	-9.05579
受度	-9.05588
阿	-9.05727
旨	-9.05785
四時	-9.05831
齋主某	-9.05991
知磬舉	-9.06036
无極	-9.06059
烏	-9.06065
六甲	-9.06066
彌	-9.0609
雷霆	-9.06153
夙	-9.06154
塗	-9.06217
昧	-9.06238
南極	-9.06303
迹	-9.06472
若見	-9.06475
環	-9.06494
蜀	-9.06495
辛	-9.06507
人民	-9.06701
杖	-9.06798
郡	-9.06834
仙公	-9.06896
捧	-9.06914
一時	-9.06995
八景	-9.07022
度命	-9.07069
令人	-9.07096
適	-9.07244
説	-9.07262
開明	-9.07407
弟子某	-9.07438
續	-9.0753
術	-9.0761
聖衆	-9.07615
鍾	-9.07645
吞	-9.07806
樓	-9.07952
匪	-9.08021
伐	-9.08064
長跪	-9.08101
上天	-9.0811
十一	-9.08153
校	-9.08211
生人	-9.08304
耶	-9.08392
整	-9.08393
誅	-9.08523
銀	-9.08589
飛行	-9.08635
聖人	-9.08664
土地	-9.08673
形神	-9.0871
之罪	-9.08713
編	-9.08824
慈尊	-9.08879
靖	-9.08958
之門	-9.09101
勢	-9.09162
雪	-9.09179
約	-9.09204
之鬼	-9.09272
寜	-9.09499
友	-9.09574
辟	-9.09655
玉字	-9.09896
七祖	-9.09921
淪	-9.09941
世人	-9.09957
輙	-9.09996
安鎭	-9.1005
大慈	-9.10104
魚	-9.10306
禱	-9.10355
叅	-9.10381
試	-9.10453
欣	-9.10763
賔	-9.10963
巖	-9.11186
懼	-9.11233
十四	-9.11347
吏兵	-9.11378
飛天	-9.11483
榜	-9.11494
官將	-9.11532
賊	-9.11624
卒	-9.1164
席	-9.11746
屋	-9.11907
責	-9.11932
坎	-9.12213
之境	-9.12375
習	-9.12477
五靈	-9.12544
權	-9.12626
熟	-9.12768
所有	-9.12856
修齋	-9.12924
九宫	-9.12935
無所	-9.12941
太平	-9.12967
簿	-9.13018
尊神	-9.1306
無不	-9.13135
錦	-9.13187
侯	-9.13212
孫	-9.13363
元皇	-9.13397
皈	-9.13402
齡	-9.13426
五星	-9.13445
六十	-9.1346
障	-9.13476
眞炁	-9.135
天眞	-9.13528
冬	-9.13562
梵炁	-9.13566
者也	-9.13912
牛	-9.13928
太乙	-9.13972
墓	-9.13975
效	-9.13977
億	-9.14013
至道	-9.14141
三師	-9.14188
山川	-9.14237
太素	-9.14254
藉	-9.1441
三五	-9.14472
陛	-9.14519
我身	-9.14683
史	-9.14689
暢	-9.14815
下元	-9.14884
吿	-9.1504
威靈	-9.15089
四十	-9.15198
十八	-9.15229
單	-9.15298
賤	-9.15429
詠	-9.15474
濟度	-9.15512
熱	-9.15542
是名	-9.15548
鍊度	-9.15558
那	-9.15566
祚	-9.15597
訓	-9.15663
軒	-9.15667
自在	-9.157
憑	-9.15703
唵	-9.15947
罪福	-9.15952
冲	-9.16
擊	-9.16066
生天	-9.16095
廓	-9.16099
誥	-9.16333
敗	-9.16392
扣	-9.16546
虚无	-9.16727
萬里	-9.16758
北極	-9.16806
劔	-9.16872
天尊志心歸命	-9.16894
網	-9.16962
限	-9.17141
之間	-9.17168
翳	-9.17196
莫不	-9.17216
七寳	-9.17276
各有	-9.17292
咎	-9.17491
旦	-9.17656
玉文	-9.17657
亡人	-9.17687
直符	-9.17699
欺	-9.17768
㸃	-9.17778
削	-9.17805
五老	-9.17828
存思	-9.17958
垢	-9.18016
地府	-9.18111
洞天	-9.1813
棲	-9.1815
南斗	-9.18153
快樂	-9.18231
躬	-9.18264
據	-9.18512
答曰	-9.18584
溪	-9.18633
憫	-9.18635
亡故某	-9.18718
十五	-9.19021
煩惱	-9.19055
𩲸	-9.19116
第五	-9.19224
大洞	-9.1929
肉	-9.19383
層	-9.19386
一一	-9.19421
道言	-9.1945
云何	-9.19629
神光	-9.19659
趣	-9.1977
摩	-9.19889
流光	-9.19982
天尊志心信禮	-9.2
行持	-9.20208
孰	-9.2022
怨	-9.20294
萬靈	-9.20296
齎	-9.20308
綵	-9.20343
消災	-9.20437
天醫	-9.20573
之士	-9.2058
受生	-9.20684
保命	-9.2071
舞	-9.20783
雙	-9.20792
工	-9.20801
醫	-9.20836
怪	-9.20863
不生	-9.20868
𡨋	-9.20915
輪轉	-9.20995
而去	-9.21071
十極	-9.21098
一百	-9.21109
貧	-9.21144
徐	-9.21196
楊	-9.21214
毫	-9.2122
銅	-9.21271
生成	-9.21375
松	-9.21573
悃	-9.21581
一身	-9.21615
飄	-9.21654
率	-9.21657
姓名	-9.21672
煞	-9.21688
畫	-9.21704
經法	-9.21769
顔	-9.21973
罔	-9.21988
風雨	-9.22014
灰	-9.22044
植	-9.22051
洞神	-9.22132
之心	-9.22253
歲	-9.22295
束	-9.22357
竊	-9.2259
䕃	-9.22624
三月	-9.22717
八極	-9.2277
鼎	-9.22847
叩齒	-9.22925
孔	-9.22941
笑	-9.2301
配	-9.23023
纒	-9.23046
誕	-9.23053
爲人	-9.23309
玉符	-9.2331
包	-9.23441
山林	-9.23463
甲子	-9.23477
强	-9.23479
謹請	-9.23503
飲食	-9.2359
億劫	-9.23608
齒	-9.23817
下方	-9.23819
赤書	-9.23838
焚香	-9.23921
設醮	-9.24186
十六	-9.24263
一心	-9.24297
薄	-9.24375
金籙	-9.24387
亦不	-9.2448
清微	-9.24542
憲	-9.24547
珍	-9.24577
貌	-9.2476
神霄	-9.2478
修奉	-9.24828
巍巍	-9.24833
頼	-9.24836
嗣	-9.24845
富	-9.25012
建齋	-9.25191
曉	-9.25243
游	-9.25301
瘟	-9.25357
寸	-9.25378
受持	-9.25493
妙經	-9.25644
歸命	-9.25668
翔	-9.2567
壁	-9.2568
鉛	-9.25686
以來	-9.25715
大羅	-9.25742
伏冀	-9.25934
採	-9.26099
名山	-9.26101
雄	-9.26212
銷	-9.26238
成就	-9.26253
天上	-9.26402
眞仙	-9.26443
五苦	-9.26573
壞	-9.26583
慢	-9.26585
毛	-9.26585
六合	-9.26763
太空	-9.2678
碧落	-9.26999
局	-9.27026
厭	-9.271
人也	-9.27123
黄庭	-9.27137
繁	-9.2715
諒	-9.27155
謀	-9.27167
神靈	-9.27192
所在	-9.27265
三禮	-9.27314
俓	-9.27329
金書	-9.27331
如法	-9.27347
道炁	-9.27478
倒	-9.276
戌	-9.27647
十三	-9.27671
虚空	-9.27973
悔	-9.27973
避	-9.28083
上生	-9.28247
身心	-9.28304
禮拜	-9.28374
三年	-9.28519
戴	-9.28524
㝷	-9.2856
不任	-9.2862
丸	-9.28721
煉	-9.28739
胞	-9.28951
衆眞	-9.28987
京	-9.28988
轉經	-9.29092
威神	-9.29272
上願	-9.2944
寄	-9.29467
和與道合眞	-9.29494
側	-9.29503
某人	-9.29568
第十	-9.29582
三千	-9.29685
混元	-9.29765
㧞	-9.29832
私	-9.29897
分别	-9.29898
獸	-9.29915
神功	-9.29983
玉虚	-9.3003
勲	-9.3004
七日	-9.30047
撫	-9.30051
日中	-9.30073
沙	-9.30112
途	-9.30179
號曰	-9.30217
脚	-9.30432
尤	-9.30477
牀	-9.30505
幽㝠	-9.30612
亦可	-9.30842
題	-9.30874
洲	-9.30909
握	-9.30918
託	-9.30952
句	-9.30976
穴	-9.30979
天君	-9.30984
更生	-9.31214
毀	-9.31384
鏡	-9.3142
暴	-9.31452
溥	-9.31525
水官	-9.31673
之事	-9.31746
𩔖	-9.31761
胃	-9.31858
矜	-9.31962
奪	-9.31983
丹田	-9.31995
今齋主某	-9.32008
才	-9.32132
畏	-9.32174
攝召	-9.32352
狂	-9.32398
盤	-9.32446
龍王	-9.32523
四海	-9.32588
二人	-9.32724
大法	-9.32728
黄華	-9.32825
人天	-9.3288
肇	-9.32941
馭	-9.32944
勒	-9.32988
其中	-9.33063
擁	-9.33086
神將	-9.33278
之處	-9.3328
嘗	-9.33305
否	-9.33406
大將	-9.33438
惑	-9.3347
答	-9.33552
飢	-9.33555
効	-9.33805
泄	-9.33866
縈	-9.33932
宏	-9.33955
幽顯	-9.34238
爐	-9.34331
衍	-9.34332
遭	-9.34337
臣某	-9.34427
腹	-9.34656
最	-9.34675
增	-9.34683
治病	-9.34767
枯	-9.34798
竭	-9.34907
閣	-9.34962
幽明	-9.35053
泥	-9.35242
黄帝	-9.35343
髙眞	-9.35427
人身	-9.35452
血湖	-9.35468
飾	-9.3547
叨	-9.35533
解釋	-9.35646
三百	-9.35726
妻	-9.35737
至於	-9.3574
補	-9.35745
北帝	-9.35777
蓮	-9.35928
繼	-9.35966
上昇	-9.36224
荒	-9.36362
腦	-9.36392
懇	-9.36398
上有	-9.36426
磨	-9.36473
施行	-9.36487
第	-9.36546
開光	-9.36643
温	-9.36922
逮	-9.36984
隔	-9.37029
逸	-9.37142
偈	-9.37257
陸	-9.37317
族	-9.37348
今故燒香自皈依師尊大聖衆至眞之	-9.37383
舟	-9.37482
普濟	-9.3751
五藏	-9.3763
出離	-9.37754
法輪	-9.37929
兒	-9.37932
言功	-9.37952
淫	-9.37974
生生	-9.38045
掃	-9.38052
黄素	-9.38239
殘	-9.38453
爭	-9.38474
標	-9.38527
太歳	-9.38537
榖	-9.3876
一如	-9.3885
皈命	-9.39006
灑	-9.39028
闊	-9.39048
金龍	-9.3905
溢	-9.39056
千里	-9.39137
正眞	-9.39233
齋壇	-9.39398
壘	-9.39432
麗	-9.39589
諸司	-9.3959
徘徊	-9.39613
操	-9.39616
纏	-9.39649
兵馬	-9.39747
出家	-9.39832
呈	-9.39907
誤	-9.39937
寳籙	-9.39988
消滅	-9.40126
祗	-9.40156
功徳	-9.40224
東嶽	-9.40416
亭	-9.40634
懴謝	-9.40659
之儀	-9.40697
右符	-9.40732
玉簡	-9.40733
歸依	-9.40773
念呪	-9.41038
仲	-9.41211
正法	-9.41226
上請	-9.41237
伏聞	-9.41262
之郷	-9.41558
慾	-9.41655
太上无極大道	-9.41705
玄虚	-9.41741
凡有	-9.41794
至心	-9.42013
昇天	-9.42087
墨	-9.42119
以此	-9.42175
苦惱	-9.42204
魁	-9.42209
霜	-9.4227
堪	-9.42299
乖	-9.423
議	-9.42329
善功	-9.42365
幅	-9.42413
元始符命	-9.4242
東井	-9.42496
貺	-9.42498
爲一	-9.42498
判	-9.42536
追攝	-9.42536
三宫	-9.42562
不復	-9.42569
國王	-9.42746
額	-9.4276
闢	-9.42768
弗	-9.42829
秉	-9.42844
而爲	-9.42969
奉爲	-9.42976
百神	-9.43116
爲之	-9.43276
洞明	-9.43278
跪	-9.43279
明堂	-9.43284
三景	-9.43287
眉	-9.43294
九地	-9.43323
九霄	-9.43326
述	-9.43345
后	-9.43571
躡	-9.43647
祈恩	-9.4376
南昌	-9.43931
純	-9.4404
旌	-9.44069
復有	-9.44343
神名	-9.44364
靈寳領教濟度金書卷之	-9.44422
虚無	-9.44469
戰	-9.44475
巽	-9.44491
伺	-9.44508
誰	-9.44789
浴	-9.44838
翊	-9.44938
葛	-9.44958
神通	-9.44962
繞	-9.45002
柔	-9.45037
宋	-9.45059
如前	-9.45099
斷絶	-9.45246
嵗	-9.45323
微妙	-9.45344
安寧	-9.45391
激	-9.45568
盖	-9.45575
渉	-9.45617
眞經	-9.45858
今故燒香	-9.45896
不同	-9.4591
天道	-9.45998
志心	-9.46047
者則	-9.46051
叩	-9.4613
司馬	-9.46131
鋒	-9.46174
旗	-9.46206
天文	-9.46236
戍	-9.46252
死魂	-9.46288
萬聖	-9.46316
二者	-9.46325
神符	-9.46394
見在	-9.46474
水中	-9.46552
監齋	-9.46638
輦	-9.46732
賞	-9.46757
岸	-9.46768
虧	-9.46806
玉童玉女	-9.46843
陞壇	-9.46861
陽光	-9.46944
及諸	-9.47049
次第	-9.47065
依科	-9.47107
太上道君	-9.47148
折	-9.47178
膽	-9.47184
作用	-9.47213
電	-9.47221
右手	-9.47225
歴	-9.47249
喪	-9.47252
祠	-9.47262
恱	-9.47322
逃	-9.47324
旋行	-9.47337
百年	-9.47376
第六	-9.47439
天罡	-9.47458
朔	-9.47556
請命	-9.47571
宣告	-9.47572
激切	-9.47601
秘	-9.4761
三十二	-9.47611
三途	-9.4765
紫虚	-9.47663
乃至	-9.47754
趙	-9.47797
訪	-9.47876
泛	-9.47907
神祇	-9.48051
萬人	-9.48067
報應	-9.48086
飛天神王	-9.48438
盍	-9.48484
肆	-9.48508
是爲	-9.48513
北向	-9.48709
茅	-9.48773
三天門下	-9.48858
侍衞	-9.48953
纂	-9.48963
仙靈	-9.48967
恪	-9.49
門下	-9.49113
有所	-9.49129
戒者	-9.49131
眞道	-9.49135
鐡	-9.49136
方便	-9.49147
寒庭	-9.49328
吳	-9.49363
玉訣	-9.49395
漿	-9.49588
錯	-9.4962
勵	-9.4963
控	-9.49642
圍	-9.49981
消除	-9.50052
滌	-9.50135
駐	-9.50183
混沌	-9.50187
乳	-9.5019
競	-9.50196
米	-9.50242
災厄	-9.50397
廬	-9.50443
璧	-9.50693
忍	-9.50792
汞	-9.50793
油	-9.50808
奠	-9.50842
鈞	-9.50854
準	-9.50882
若不	-9.50891
神呪	-9.50899
押	-9.50956
三十二天	-9.50978
赤帝	-9.51026
青華	-9.51066
皮	-9.51304
枚	-9.51344
婦	-9.51349
徼	-9.51442
常以	-9.51443
皆得	-9.51483
宰	-9.51556
登眞	-9.51569
東向	-9.51696
皓	-9.51714
柱	-9.5174
世世	-9.51802
吉凶	-9.51978
彈	-9.5198
蕭	-9.51982
頃	-9.51995
埋	-9.52007
欽	-9.52019
羊	-9.52069
皇君	-9.52134
猶如	-9.522
仙道	-9.52205
龍虎	-9.52302
怒	-9.52339
練	-9.52649
好生	-9.5266
酬	-9.5266
蠲	-9.52736
有一	-9.52821
具足	-9.52938
此法	-9.52964
上升	-9.52983
浩	-9.5301
腰	-9.53106
卑	-9.53117
侍經	-9.53139
紫極	-9.53153
粹	-9.53167
僧	-9.53222
支	-9.5323
無礙	-9.53371
百二十	-9.53386
經緯	-9.53476
香火	-9.53528
保舉	-9.53583
砂	-9.53618
君諱	-9.53628
憐	-9.53755
地官	-9.53763
兇	-9.53772
某日	-9.53781
漠	-9.53786
我今	-9.53797
家國	-9.53856
不用	-9.53862
手執	-9.53862
何以故	-9.53911
歎	-9.53979
第七	-9.54104
八難	-9.54106
大王	-9.54166
天關	-9.54166
上仙	-9.54321
稽	-9.54368
審	-9.54372
楚	-9.54402
活	-9.54408
完	-9.54413
帝王	-9.54414
郎	-9.54437
闡	-9.54441
艮	-9.54469
選	-9.54484
感通	-9.54529
齋功	-9.54535
力士	-9.54589
大梵	-9.54677
凝神	-9.54794
弟	-9.54827
之苦	-9.54915
斤	-9.55038
冰	-9.55084
某甲	-9.55451
金華	-9.55529
溺	-9.55626
没	-9.55642
邑	-9.55645
鮮	-9.55661
軫	-9.55706
秦	-9.55714
身形	-9.55781
用之	-9.55854
大齋	-9.55927
太眞	-9.55986
奥	-9.56021
東北方	-9.56185
清虚	-9.56259
索	-9.56281
拂	-9.56342
筵	-9.56357
玉札	-9.56474
立功	-9.5655
靈寳天尊	-9.56597
白日	-9.56627
瀆	-9.56695
蘇	-9.56874
氛	-9.5689
見有	-9.56902
恣	-9.56945
盜	-9.56965
所居	-9.57213
牙	-9.57307
曾	-9.57545
即是	-9.57577
正神	-9.57692
九玄	-9.57699
百日	-9.57748
志心敬禮	-9.57912
衆等	-9.57922
項	-9.57925
受錬	-9.57984
謹召	-9.57991
截	-9.58019
之尊	-9.58074
軌	-9.58074
絲	-9.58083
捉	-9.58102
二百	-9.58109
不可思議	-9.58134
静	-9.58145
上皇	-9.58179
例	-9.58194
邁	-9.582
夭	-9.58206
神化	-9.58218
解除	-9.58286
上聞	-9.58399
七十	-9.58461
延生	-9.58538
國土	-9.58807
蹤	-9.58814
上品	-9.58886
草木	-9.58887
垣	-9.58898
九壘	-9.58929
齋戒	-9.58939
侍衛	-9.58978
之澤	-9.58987
靈壇	-9.59082
姓某	-9.59087
十月	-9.59212
七星	-9.59219
飛歩	-9.59308
短	-9.59342
清靜	-9.59368
淳	-9.59424
眞官	-9.59454
霑	-9.59489
二年	-9.59569
其所	-9.59629
一寸	-9.59743
其人	-9.59756
之府	-9.59765
符呪曰	-9.5978
破獄	-9.59937
正月	-9.59958
八方	-9.59983
城隍	-9.59992
嘯	-9.60034
婆	-9.60036
曆	-9.60048
扇	-9.60073
研	-9.60123
六道	-9.60142
瑩	-9.60146
睿	-9.60147
尅	-9.60175
璇璣	-9.60179
佑	-9.60196
俟	-9.60252
之下	-9.60308
詩	-9.60417
聞經	-9.60419
凡夫	-9.60517
而成	-9.60567
齋法	-9.60658
四大	-9.60694
某家	-9.60699
道法	-9.60717
割	-9.60739
杜	-9.6074
莊	-9.60759
攸	-9.60762
懽	-9.60816
翻	-9.6083
忱	-9.61154
乏	-9.61175
困	-9.61248
九十	-9.6126
准	-9.61263
或有	-9.61282
四十九	-9.61325
烈	-9.61374
分明	-9.61384
氷	-9.61409
逝	-9.61417
盗	-9.61447
追魂	-9.61471
之者	-9.61478
太上洞玄靈寳	-9.61503
襲	-9.61509
胡	-9.61536
正炁	-9.61653
三業	-9.6166
之際	-9.61801
三拜	-9.61804
而生	-9.61805
六畜	-9.61806
巳上	-9.61902
壯	-9.6207
倍	-9.62097
輒	-9.62099
歛	-9.6215
圎	-9.62169
急急	-9.62231
五神	-9.6228
十七	-9.6228
火鈴	-9.62293
大魔王	-9.62552
華蓋	-9.62646
土府	-9.62702
愍	-9.62708
西北方	-9.62725
促	-9.62755
天堂	-9.62758
一者	-9.62776
暫	-9.62812
一百二十	-9.62835
洽	-9.62846
之文	-9.62883
矣道言	-9.62976
金剛	-9.62989
之外	-9.63002
散花	-9.63111
精誠	-9.63112
度厄	-9.63171
亦有	-9.63248
橋	-9.63346
蓬	-9.63348
亦復如是	-9.6337
惜	-9.63416
藴	-9.63416
琅	-9.63437
稍	-9.63446
迅	-9.63467
晏	-9.63498
孟	-9.63511
剛	-9.63544
洞陽	-9.63634
九府	-9.63694
六天	-9.63785
青帝	-9.63903
延年	-9.64083
傍	-9.64084
余	-9.64091
紹	-9.64097
晦	-9.64101
回向	-9.64179
禹	-9.64257
甲申	-9.64273
火池	-9.64307
若能	-9.6432
過去	-9.64356
九祖	-9.64412
焦	-9.64499
癘	-9.6453
宿啓	-9.64576
感應	-9.64602
牌	-9.64701
桃	-9.64702
太和	-9.6475
晶	-9.64763
照耀	-9.64774
商	-9.64775
盧	-9.64798
宥	-9.64807
淺	-9.6483
𠔃	-9.64856
歡喜	-9.64857
化育	-9.64906
歩武	-9.64939
之地	-9.64945
福慶	-9.65042
帛	-9.65163
八門	-9.65176
救度	-9.6528
文字	-9.65288
晝	-9.65312
一旦	-9.65336
絳宫	-9.65432
倉	-9.65456
學仙	-9.65456
併	-9.65475
崖	-9.65484
低	-9.65504
射	-9.65509
愚癡	-9.65514
劄	-9.65516
傳授	-9.65543
良久	-9.65581
死者	-9.65616
八卦	-9.65637
上登	-9.65803
斗中	-9.65845
中來	-9.65947
爛	-9.66061
福田	-9.66087
靡	-9.66124
晉	-9.6618
囚	-9.66199
涵	-9.66208
九色	-9.66216
算	-9.66219
西南方	-9.66223
堯	-9.66238
赫奕	-9.66251
泉曲	-9.6646
無復	-9.66484
者皆	-9.66497
天光	-9.66539
炁吹	-9.66725
旱	-9.66757
是時	-9.66763
吒	-9.6679
綿	-9.6683
別	-9.66846
防	-9.6685
經寳	-9.66866
欵	-9.66895
八十	-9.66912
天皇	-9.66924
無形	-9.66927
龍漢	-9.67124
眞人道士	-9.67127
或爲	-9.67254
太上老君	-9.67279
卦	-9.67373
不死	-9.67498
鹿	-9.67507
星辰	-9.67613
中天	-9.67657
又云	-9.67673
莊嚴	-9.67682
上詣	-9.67759
曰此	-9.67795
言之	-9.67953
生於	-9.67966
罪學士及百姓子	-9.68185
膏	-9.68243
趨	-9.68251
祀	-9.68265
騫	-9.68279
祟	-9.68279
自今以去	-9.6828
上玄	-9.68283
科曰	-9.68312
剌	-9.68319
儲	-9.68325
妙道	-9.68341
通靈	-9.68357
動植	-9.68433
百姓	-9.68473
大乗	-9.68478
三寸	-9.68511
空中	-9.68551
五日	-9.68557
玄師	-9.68581
九光	-9.68592
自非	-9.68645
福地	-9.68704
穹	-9.68801
之音	-9.68812
碑	-9.68905
之初	-9.68906
鄉	-9.6894
誡	-9.68951
濯	-9.68954
天寳	-9.68973
恊	-9.69031
収	-9.69034
超凌	-9.69134
龍神	-9.6922
奏請	-9.69257
金液	-9.69264
云云	-9.69282
香花	-9.6938
伏惟	-9.69533
九靈	-9.69588
呉	-9.69626
之罪學者及百姓子	-9.69683
紛	-9.69687
沾	-9.69693
略	-9.69695
勉	-9.69705
嬰兒	-9.69711
區	-9.69729
今有	-9.6973
錬形	-9.6976
生炁	-9.69763
洪恩	-9.69868
亡過某	-9.69922
一年	-9.69943
神人	-9.70037
而無	-9.7013
成眞	-9.70159
至真	-9.70294
奉請	-9.70304
廢	-9.70392
踈	-9.70397
之名	-9.70407
囊	-9.70407
寢	-9.70419
各各	-9.70426
符召	-9.70437
湖	-9.70449
搯	-9.70452
峻	-9.70498
羣生	-9.70508
乙	-9.70571
利益	-9.70676
不勝	-9.70812
二炁	-9.70921
三寶	-9.70966
朝禮	-9.70979
所行	-9.71
亡䰟	-9.71085
罪業	-9.71097
牽	-9.71109
旡	-9.71115
祅	-9.71116
虔	-9.71116
冐	-9.71153
韻	-9.7116
綺	-9.71182
倚	-9.71232
四極	-9.71291
猷	-9.71346
衣服	-9.7139
十方三界	-9.71416
伏望	-9.71503
兩手	-9.71589
台	-9.71639
洞淵	-9.71732
入室	-9.7176
也故	-9.71782
佳	-9.71811
裏	-9.71834
宛	-9.71846
請稱法位具位	-9.71859
刃	-9.7188
圭	-9.7196
東南方	-9.72025
正道	-9.7206
姦	-9.72064
之前	-9.7207
水池	-9.721
可漏	-9.7211
學者	-9.72129
金眞	-9.72166
九清	-9.72214
之理	-9.72255
之期	-9.72303
洞煥	-9.72383
一念	-9.72467
書之	-9.72509
脩	-9.72603
沉淪	-9.72626
剋	-9.72643
蕩除	-9.72643
教化	-9.72683
一拜	-9.727
庚	-9.72819
度世	-9.72867
前後	-9.73225
玉晨	-9.73249
山中	-9.73266
攀	-9.7327
萬福	-9.73331
缺	-9.73344
所犯	-9.73351
熈	-9.73371
終不	-9.73402
祭鍊	-9.73412
十九	-9.73428
之光	-9.73432
明眞	-9.73436
元炁	-9.73457
幽夜	-9.73483
帝眞	-9.73591
玉章	-9.73779
口中	-9.74022
孕	-9.74048
賦	-9.74064
齋意	-9.74114
之衆	-9.74213
怠	-9.74253
三台	-9.7439
福德	-9.7454
虞	-9.74556
黄籙大齋	-9.74588
疫	-9.74597
几	-9.74659
之宫	-9.7468
眞形	-9.74684
講	-9.74713
呵	-9.74794
六丁	-9.74854
鬱勃	-9.74867
厥	-9.74876
獅子	-9.74898
曠	-9.74909
精思	-9.74912
等伏聞	-9.74912
不爲	-9.74976
生靈	-9.75033
皆有	-9.75039
洞房	-9.75074
中黄	-9.75145
之數	-9.75166
骸	-9.75274
齋官	-9.75349
魅	-9.7536
之義	-9.75365
裙	-9.7538
地戸	-9.75413
玄靈	-9.75419
諸法	-9.75422
關啓	-9.755
幢	-9.7552
墜	-9.75551
者是	-9.75569
勾	-9.75575
屏	-9.75579
庫	-9.75602
擇	-9.75672
二十五	-9.75841
猛	-9.75955
聖位	-9.75977
年月日	-9.75993
分野	-9.7602
十二月	-9.76176
符使	-9.76201
普及	-9.76204
崑崙	-9.7633
犬	-9.76368
署	-9.76405
六根	-9.7647
原赦	-9.76542
白帝	-9.76666
道衆	-9.76728
超生	-9.76772
互	-9.76872
無間	-9.7689
農	-9.76925
芽	-9.76956
某乙	-9.76964
流精	-9.7697
檄	-9.77023
訟	-9.77028
周天	-9.77034
屈	-9.77062
丹誠	-9.77115
䕶	-9.77174
全形	-9.772
齋用	-9.77225
此是	-9.77277
飛雲	-9.77298
僞	-9.77332
度師	-9.77392
存神	-9.77404
上宫	-9.77439
上相	-9.77456
枉	-9.77481
希夷	-9.77492
由是	-9.77528
靈文	-9.7754
竅	-9.77567
靈符	-9.77753
社	-9.77762
絹	-9.77801
婬	-9.77816
煩	-9.77829
縛	-9.77846
債	-9.77888
上啓	-9.77891
鑿	-9.77919
鑊湯	-9.77919
材	-9.77941
骨肉	-9.77941
覃	-9.7797
豁落	-9.77992
也若	-9.77997
福堂	-9.78034
飛昇	-9.78069
老子	-9.78098
又曰	-9.7816
我等	-9.78308
萬炁	-9.78459
六情	-9.78509
冷	-9.7861
頗	-9.78637
盻	-9.78662
焰	-9.78703
輩	-9.78733
䝉	-9.78741
先亡	-9.78748
三素	-9.78749
无爲	-9.7875
轉輪	-9.78842
眞元	-9.78875
南嶽	-9.78878
也其	-9.79035
其神	-9.79045
曰吾	-9.79125
無私	-9.79336
羅酆	-9.79367
髪	-9.79368
太乙救苦天尊	-9.7937
恰	-9.79382
桑	-9.79468
擾	-9.79487
遲	-9.79502
釁	-9.79548
受鍊	-9.79684
澄清	-9.79877
呪畢	-9.79938
閉氣	-9.7995
太白	-9.79988
遏	-9.80076
天地之	-9.80106
行事	-9.80162
幽關	-9.80162
夜半	-9.80167
展	-9.8018
遁	-9.80259
祈禳	-9.80273
咽液	-9.80277
常行	-9.80292
合屬	-9.80295
孚	-9.80315
慶雲	-9.80319
卜	-9.80357
髙尊	-9.80383
經曰	-9.80452
第八	-9.80523
者當	-9.80549
安樂	-9.80612
惡人	-9.80612
三靈	-9.80652
富貴	-9.80713
然燈	-9.80835
抑	-9.80844
受化	-9.8087
妃	-9.80908
浪	-9.80927
修之	-9.80943
鑑	-9.81011
換	-9.81016
罪根	-9.81021
寳光	-9.81045
戮	-9.8106
生身	-9.81063
飈	-9.81076
陟	-9.81078
慰	-9.8109
▲▲	-9.81132
太上無極大道	-9.81162
船	-9.8117
丹天	-9.81349
安鎮	-9.81385
當以	-9.81411
周圓	-9.81416
性命	-9.81426
至尊	-9.81596
八威	-9.81625
周流	-9.81733
掩	-9.81776
即得	-9.81796
愼	-9.81819
雞	-9.8184
之先	-9.81853
罷	-9.81859
闇	-9.81871
某處	-9.81882
黎	-9.81894
朝元	-9.81925
八十一	-9.8193
潭	-9.81966
惡根	-9.82031
而來	-9.82086
飛龍	-9.82092
赤明	-9.82232
永離	-9.82233
精進	-9.82243
師寳	-9.82257
十天	-9.82312
九夜	-9.82431
禁戒	-9.82483
和合	-9.82526
暮	-9.82597
奉戒	-9.82616
元年	-9.82619
弱	-9.82621
步	-9.82693
三境	-9.82701
逼	-9.82722
季	-9.82847
玄恩	-9.82862
女青	-9.83039
把	-9.83114
百餘	-9.83172
疾速	-9.832
之仁	-9.83302
黒帝	-9.83304
宿命	-9.83307
之方	-9.83316
靈寶	-9.8333
遊行	-9.83383
躋	-9.83428
髙明	-9.83432
三魂	-9.83464
着	-9.8352
壤	-9.83524
符勑呪	-9.83635
見之	-9.83656
玄妙	-9.83684
測	-9.83771
二儀	-9.83823
斛	-9.83835
請降	-9.83858
自生	-9.83915
以聞	-9.84138
第九	-9.8414
隨事	-9.84149
之物	-9.84155
臭	-9.84159
佩之	-9.84196
牢	-9.84204
鄭	-9.8422
恨	-9.84232
催	-9.84266
得見	-9.84285
道者	-9.84322
痊	-9.84352
慎	-9.84357
綸	-9.84374
輅	-9.84378
滓	-9.84392
枕	-9.84395
郊	-9.84402
裁成	-9.84513
七元	-9.84626
字道	-9.84642
太上靈寳	-9.84714
心中	-9.84725
俯仰	-9.84792
之樂	-9.84803
羅列	-9.84822
官屬	-9.84859
始青	-9.84871
使人	-9.84931
紫府	-9.85035
貼	-9.85067
見存	-9.85111
次法師	-9.85114
淸	-9.85132
苟	-9.85137
籠	-9.85151
淩	-9.85152
岳	-9.85153
五臟	-9.85176
偶	-9.85184
減	-9.8521
等衆	-9.85388
淨明	-9.85617
受經	-9.85666
應化	-9.85766
知其	-9.85829
勑呪	-9.85881
陽精	-9.8589
喉	-9.85917
衷	-9.85943
借	-9.85961
星宿	-9.85965
撰	-9.85981
炬	-9.85981
叩齒九通	-9.85985
嶺	-9.85987
之根	-9.85996
棺	-9.86007
譬如	-9.86025
秩	-9.86025
勑命	-9.86031
循	-9.86037
億萬	-9.86041
耕	-9.86059
人物	-9.86112
紫清	-9.86121
椿	-9.86204
幽暗	-9.86222
一切威靈	-9.86241
萬化	-9.86288
報對	-9.86296
清齋	-9.8641
三者	-9.86429
元氣	-9.86488
不祥	-9.86504
青龍	-9.8654
並同	-9.86586
仙都	-9.86594
蘂	-9.86742
帔	-9.86771
大夫	-9.86793
鑄	-9.86823
此符	-9.86837
寓	-9.86866
九年	-9.86871
之科	-9.86878
究	-9.86888
邈	-9.86921
符吏	-9.86977
至今	-9.86992
平等	-9.87
洞眞	-9.87131
也此	-9.8714
紫庭	-9.87144
復爐	-9.87189
侍香	-9.87195
遊宴	-9.87221
幽靈	-9.87354
魂神	-9.87406
玉童	-9.87408
次存	-9.87442
某等	-9.87484
漱	-9.87579
脉	-9.87615
之誠	-9.87681
百病	-9.877
蠶	-9.87709
麟	-9.8772
內	-9.87743
亶	-9.87752
胤	-9.87768
狗	-9.87788
不絶	-9.87914
死生	-9.88009
具法位	-9.88251
百里	-9.8833
玄功	-9.88424
陣	-9.88459
靈旛	-9.88475
博	-9.88517
故云	-9.88544
神仙諸靈官	-9.88553
懴主某	-9.88562
窺	-9.88573
太帝	-9.88582
聮	-9.88625
兊	-9.88625
無極世界	-9.88625
拜章	-9.8864
三皇	-9.88674
䖍誠	-9.88756
天符	-9.88839
人之	-9.88894
監臨	-9.88974
太皇	-9.89033
謹當	-9.89036
廣大	-9.89067
天王	-9.89125
曹治	-9.89152
帀	-9.8925
笈	-9.89307
依法	-9.89414
嚥	-9.89428
汙	-9.89441
之機	-9.89473
煎	-9.89476
采	-9.89497
刋	-9.89523
受福	-9.89571
紫炁	-9.89602
天蓬	-9.89622
者從	-9.89688
當願	-9.89704
人道	-9.89721
洞玄靈寳	-9.89736
名字	-9.89765
道塲	-9.89796
切切	-9.90059
絡	-9.90154
穩	-9.90209
北府	-9.90222
洒	-9.9028
偏	-9.90286
十里	-9.90286
穿	-9.90305
揖	-9.90319
譴	-9.9037
之象	-9.90401
火錬	-9.9041
悉皆	-9.90477
也夫	-9.90503
守一	-9.9051
同卷	-9.90521
之靈	-9.9054
本靖	-9.9063
平安	-9.90704
妙有	-9.90782
恭惟	-9.90804
死入	-9.90831
陽明	-9.90845
有道	-9.90915
帥	-9.90938
彭	-9.90992
投簡	-9.91017
大乘	-9.91033
襟	-9.91049
飽	-9.9115
諸大	-9.91166
屍	-9.91178
透	-9.91193
軀	-9.91194
五臓	-9.91195
中宫	-9.91197
剪	-9.91202
禽	-9.91219
徴	-9.91246
蓮花	-9.91251
九陽	-9.91263
禁忌	-9.91275
天仙	-9.91284
隂陽之	-9.91296
飛玄	-9.91321
北酆	-9.91341
壬	-9.914
某身	-9.91465
二十七	-9.91571
白虎	-9.91646
時有	-9.91677
七炁	-9.91739
九氣	-9.91792
注生	-9.91855
十年	-9.91912
九眞	-9.91943
而巳	-9.91989
主人	-9.91996
栢	-9.9207
寵	-9.9217
苦爽	-9.92201
之德	-9.92222
進拜	-9.92222
天樞	-9.92252
甲乙	-9.9235
病者	-9.92386
倫	-9.92481
三才	-9.92561
誦之	-9.92587
羅敷	-9.92704
流行	-9.92754
天恩	-9.92797
酆	-9.92837
而有	-9.92847
驛	-9.92867
耗	-9.92881
黃籙	-9.92931
之災	-9.92936
竈	-9.92938
蔽	-9.9294
髓	-9.92956
喻	-9.92965
館	-9.92966
桂	-9.92973
数	-9.92975
賴	-9.92985
呪詛	-9.93001
昭昭	-9.93016
製	-9.93022
抜	-9.93024
斥	-9.93039
喬	-9.93041
企	-9.93043
昨	-9.93048
匡	-9.93052
亡者	-9.93075
瘥	-9.93084
元精	-9.93137
洞照	-9.93138
謹上請	-9.93206
殺人	-9.9322
和平	-9.93265
口舌	-9.93269
得其	-9.93312
逕	-9.93417
三十六部尊經玄中大法師	-9.93419
五體	-9.93443
當願一切	-9.93448
三氣	-9.93457
軿	-9.93496
而行	-9.93519
之位	-9.93542
合用	-9.93543
三極	-9.93548
九州	-9.93554
解厄	-9.93581
縹緲	-9.93588
隱書	-9.93601
亦無	-9.93666
磬	-9.93666
地户	-9.93813
添	-9.93849
𡻕	-9.9388
皎	-9.93892
法橋	-9.93924
躍	-9.93924
眞授靈寳通玄弘教水南先生林靈眞編	-9.93936
覆載	-9.9395
妨	-9.93952
群生	-9.93973
千二百	-9.93978
玉華	-9.93987
皆當	-9.93998
願得	-9.94105
寳經	-9.94124
下有	-9.94145
而下	-9.94149
恭敬	-9.9447
陛下	-9.94503
建立	-9.94643
境界	-9.94702
瘡	-9.9472
志心朝禮	-9.94736
照臨	-9.94769
排	-9.94771
寥	-9.94771
寛	-9.94785
得生	-9.94808
餐	-9.94811
翹	-9.94829
蟻	-9.9483
慿	-9.94837
儀卷	-9.94843
道君曰	-9.94866
九月	-9.94886
今有齋主某	-9.94921
玄黄	-9.95012
玉籙	-9.95034
降眞	-9.95036
道力	-9.95038
當知	-9.95163
長樂	-9.95174
居之	-9.95196
領教	-9.95249
平坐	-9.95262
謝過	-9.95373
功成	-9.95389
丹書	-9.95392
與道	-9.95423
醜	-9.95534
百關	-9.95545
列位	-9.95575
承符	-9.9558
次舉	-9.95636
叔	-9.95666
匿	-9.95713
韓	-9.95741
挹	-9.95744
茶	-9.95751
戲	-9.95758
燦	-9.95762
晴	-9.95763
赫赫	-9.95776
牧	-9.9579
從官	-9.95793
歆	-9.95793
祛	-9.95802
鬼王	-9.95817
煑	-9.9583
開化	-9.9584
謬	-9.95848
丹元	-9.95872
必有	-9.95895
玄眞	-9.95908
是經	-9.95909
浩劫	-9.95912
裳	-9.9593
惱	-9.95988
䘮	-9.96055
日宫	-9.96066
常住	-9.96147
鳴法鼓二十四通	-9.96248
無任	-9.96404
有三	-9.96412
壇前	-9.96426
方函	-9.96431
昇入	-9.96452
者不	-9.96476
寳符	-9.96491
場	-9.96566
飛度	-9.96616
起死	-9.96623
村	-9.96639
所願	-9.96646
循環	-9.96749
如何	-9.96755
𢹂	-9.96774
二十八宿	-9.96777
輕慢	-9.96793
人所	-9.96949
天元	-9.97007
罪人	-9.9707
元帥	-9.97102
命魔	-9.97224
心不	-9.97283
千萬	-9.97283
開通	-9.97288
赦罪	-9.9734
醮筵	-9.97443
憎	-9.97471
尾	-9.97487
焚符	-9.97508
垂慈	-9.97521
炭	-9.9755
随	-9.97566
仙吏	-9.97569
告盟	-9.9757
冒	-9.9758
汁	-9.97597
玉闕	-9.97618
至于	-9.97624
程	-9.97644
丕	-9.97685
忠孝	-9.97693
况	-9.97693
逾	-9.97713
玄中大法師	-9.97728
都講	-9.97735
六府	-9.97828
道化	-9.97896
上朝	-9.97936
三捻上香	-9.97957
而後	-9.98013
仙眞	-9.98071
洞章	-9.98107
視之	-9.98125
同北	-9.98148
老人	-9.98358
君字	-9.98385
無由	-9.98459
則爲	-9.98518
病人	-9.98539
幻	-9.98547
斧	-9.98549
醉	-9.98556
天尊言	-9.98568
寡	-9.98573
罹	-9.98606
携	-9.98611
策	-9.98616
提携	-9.98633
功曹使者	-9.98673
腸	-9.98708
丙	-9.98796
崇建	-9.98811
赤天	-9.98893
又請	-9.98958
無方	-9.99138
湛	-9.99154
四司	-9.99335
打	-9.99496
九過	-9.99517
篤	-9.99521
廉	-9.99534
世之	-9.99567
超昇	-9.99568
貽	-9.99601
餓鬼	-9.9964
三塗五苦	-9.99646
大有	-9.9969
不安	-9.9973
法衆	-9.9977
諸靈官	-9.9981
冠帶	-9.9981
五月	-9.99828
生門	-9.99865
亡故某人	-9.99874
之化	-9.99893
至心朝禮	-9.99971
緯	-10.0003
之憂	-10.0004
之天	-10.0004
之風	-10.0009
九重	-10.0016
之家	-10.002
萬象	-10.003
度脫	-10.0031
八節	-10.0033
見世	-10.0037
七月	-10.0039
札	-10.004
萬方	-10.0042
郭	-10.0048
幡	-10.005
諸衆生	-10.0052
員	-10.0052
板	-10.0053
驕	-10.0054
廕	-10.0054
袍	-10.0057
踐	-10.0058
可得	-10.0058
熏	-10.006
開張	-10.0061
無常	-10.0062
五百	-10.0079
上眞道君	-10.0083
罪咎	-10.0084
後世	-10.0085
不聞	-10.01
於碧落	-10.0101
修齋行道	-10.0138
南上	-10.0139
飯	-10.0145
尼	-10.0148
𩀱	-10.0149
生根	-10.0149
倐	-10.0151
袐	-10.0151
姿	-10.0152
命門	-10.0155
茲	-10.0156
給付	-10.0161
畜	-10.0164
莫能	-10.0166
書名	-10.0167
俯垂	-10.0171
是一病	-10.0173
服食	-10.0188
道前	-10.0191
官君	-10.0192
於地	-10.0206
地下	-10.0216
罪魂	-10.0223
關告	-10.0223
妙化	-10.0225
者謂	-10.0232
瑕	-10.0234
監生	-10.024
死亡	-10.0244
辯	-10.0245
築	-10.025
入道	-10.0251
零	-10.0251
逍遙	-10.0251
虬	-10.0252
靄	-10.0253
覬	-10.0254
澗	-10.0255
符籙	-10.0257
聰明	-10.0258
祥光	-10.0259
哭	-10.0259
晚	-10.0266
善人	-10.0266
詩曰	-10.0272
靈山	-10.028
之章	-10.0282
讀誦	-10.0284
之力	-10.0295
六親	-10.0298
成形	-10.031
仙聖	-10.0312
皆是	-10.0312
不動	-10.0318
蒙恩	-10.0321
尊願以是功德歸流	-10.0325
經典	-10.0325
大衆	-10.0327
受事	-10.0331
是一藥	-10.0335
旙	-10.0338
捕	-10.0343
紋	-10.0344
得爲	-10.0346
辱	-10.0348
爲某	-10.035
版	-10.0353
朱章	-10.0355
之本	-10.0356
神燈	-10.036
奚	-10.0363
聚形	-10.0364
具位姓某謹據	-10.0364
擲	-10.0364
所見	-10.0365
眞名	-10.0373
簡文	-10.0375
玄珠	-10.0382
大吉	-10.0383
介	-10.0391
眞宰	-10.0398
者即	-10.0398
極狀	-10.0399
赤子	-10.0401
運度	-10.0404
得一	-10.0408
幽䰟	-10.0415
多少	-10.0415
長齋	-10.0418
鑪	-10.0435
開悟	-10.0435
三過	-10.0438
一道	-10.0439
命元	-10.0451
圃	-10.0456
救苦天尊	-10.0466
等歸身歸命首體投地仰依太上三	-10.0466
流火	-10.0473
玄元始	-10.048
法界	-10.0484
五寸	-10.049
生神章	-10.0493
年命	-10.0496
惟願	-10.0496
所言	-10.0519
臣今	-10.0524
入山	-10.0533
地仙	-10.0534
癸	-10.0536
無極大道	-10.0537
三尺	-10.0539
幽隂	-10.0545
園	-10.0548
尸解	-10.0548
冩	-10.0549
胷	-10.0549
片	-10.055
至誠	-10.0552
征	-10.0552
黄書	-10.0557
萬國	-10.0557
戎	-10.0558
盜賊	-10.0561
玉匱	-10.0561
靈書	-10.0566
髙下	-10.0576
之狀	-10.0577
三十九	-10.0579
嶽瀆	-10.058
黃庭	-10.0583
須至	-10.0585
入夜	-10.0587
役使	-10.0588
入意	-10.0594
大道君	-10.0597
無遺	-10.0597
於天	-10.06
靈風	-10.0601
爲先	-10.0602
宣行	-10.0606
判官	-10.0608
天丁	-10.0612
章奏	-10.0614
十萬人	-10.0614
二月	-10.0616
九玄七祖	-10.0624
萬年	-10.0626
落滅	-10.0626
行年	-10.0636
之術	-10.0638
仙曹	-10.064
召魂	-10.0648
者乃	-10.0648
須㬰	-10.0651
辨	-10.0653
癡	-10.0653
挺	-10.0654
隠	-10.0655
魏	-10.0655
迫	-10.0656
師曰	-10.0656
廵	-10.0657
墟	-10.0658
旅	-10.0658
玄上	-10.066
麤	-10.0661
錄	-10.0661
褐	-10.0662
蝗	-10.0664
騫林	-10.0665
禎祥	-10.0666
奏聞	-10.0669
權衡	-10.067
善心	-10.0671
安穩	-10.0677
接引	-10.0678
身命	-10.0682
也又	-10.0683
赫	-10.0683
無所不	-10.0684
鬱儀	-10.0684
師尊	-10.0686
濟物	-10.0687
帳	-10.0694
九轉	-10.0701
演說	-10.0702
者爲	-10.0702
其身	-10.0707
風雲	-10.0711
預修	-10.0721
香官使者左右龍虎君侍香諸靈官當令	-10.0728
發願	-10.0728
十餘	-10.0732
厄難	-10.074
十日	-10.0743
蛟	-10.0745
煥耀	-10.0745
人有	-10.0746
飬	-10.0748
功過	-10.075
級	-10.0752
卓	-10.0752
陀	-10.0758
何以	-10.076
戾	-10.0761
殄	-10.0762
軄	-10.0764
之類	-10.0768
郷神仙諸靈官	-10.077
僚	-10.0772
夜壑	-10.0772
一十二	-10.0772
持戒	-10.0777
眞聖	-10.0789
羽蓋	-10.0792
出於	-10.0793
蕩滌	-10.0799
金童	-10.0805
斷除	-10.0809
告行	-10.081
使我	-10.0812
引至	-10.0817
壇場	-10.082
修設	-10.0825
災凶	-10.0831
溟	-10.0839
衆神	-10.084
翁	-10.0842
劫運	-10.0847
之形	-10.0852
事畢	-10.0854
自此	-10.0855
渥	-10.0857
眷	-10.0858
餌	-10.0859
不欲	-10.0859
鋪	-10.0859
隻	-10.0863
呼吸	-10.0863
兄	-10.0864
濕	-10.0866
僕	-10.0866
驂	-10.0867
釐	-10.0868
貧窮	-10.0871
疫鬼	-10.0877
六洞	-10.088
千眞	-10.0882
若干	-10.0883
以昭宸貺	-10.0889
導引	-10.089
說法	-10.0891
五氣	-10.0892
慧光	-10.0905
之忱	-10.0905
稽首禮	-10.0908
普告	-10.0914
鈴	-10.0914
山在	-10.0934
飛空	-10.0945
禮懴	-10.0948
成仙	-10.0949
清都	-10.0955
流通	-10.0958
不敬	-10.096
尹	-10.0962
叙	-10.0963
衣食	-10.0965
忤	-10.0966
賣	-10.0971
凋	-10.0972
凖	-10.0972
毁	-10.0973
暎	-10.0973
方無極太上靈寳天尊	-10.0975
贖	-10.0975
微祝曰	-10.0976
金丹	-10.0978
頌曰	-10.0978
鍊形	-10.0983
今則	-10.0984
其道	-10.0988
閉目	-10.0989
各一	-10.1005
祉	-10.1023
復連	-10.1023
法門	-10.1028
三華	-10.1033
大明	-10.1034
雌	-10.1034
靈仙	-10.1037
可謂	-10.1054
之身	-10.1054
將來	-10.1059
泰山	-10.1062
浄	-10.1065
永保	-10.1065
攻	-10.1071
裂	-10.1072
費	-10.1073
肉人	-10.1074
軸	-10.1075
光照	-10.1076
上奏	-10.1077
表裏	-10.1078
亨	-10.1079
覲	-10.1079
姑	-10.108
遽	-10.1085
諦聽	-10.1086
眞精	-10.1088
經文	-10.109
黙念	-10.1094
公私	-10.1096
四面	-10.1099
萬罪	-10.11
雨露	-10.1101
寳誥	-10.1105
仙翁	-10.1108
八月	-10.1117
華池	-10.1125
自是	-10.1132
敢忘	-10.1139
二十八	-10.1142
昇仙	-10.1152
故也	-10.1153
之瑞	-10.1157
去來	-10.1157
之聲	-10.1163
萬民	-10.1167
經教	-10.1177
之宗	-10.1178
闘	-10.1182
梵炁天君	-10.1182
存想	-10.1183
叩頭	-10.1183
傅	-10.1186
叱	-10.1187
奸	-10.1189
之威	-10.1189
丙丁	-10.119
擬	-10.1191
占	-10.1191
穆	-10.1192
貨	-10.1193
罷對	-10.1194
光華	-10.1194
奕	-10.1194
侣	-10.1195
今當	-10.1196
成人	-10.1206
無量無邊	-10.1207
壽域	-10.1207
紫雲	-10.1211
形體	-10.1216
六趣	-10.1217
弘道	-10.1218
請福	-10.1226
吾今	-10.1227
無量度人	-10.1233
天神	-10.1243
欲望	-10.1257
无常	-10.1263
神炁	-10.1266
嵩	-10.128
膝	-10.1282
決	-10.1284
謝恩	-10.1291
修道	-10.1292
巧	-10.1296
饌	-10.1296
繩	-10.1297
覽	-10.1298
橫	-10.1298
七曜	-10.1298
庶得	-10.1298
神吏	-10.1299
說戒	-10.1302
官事	-10.1304
阜	-10.131
監察	-10.1312
胞胎	-10.1316
仙靈官吏	-10.1319
白簡	-10.1324
青宫	-10.1328
其心	-10.1336
金門	-10.1343
有人	-10.1345
返生	-10.1346
之運	-10.1347
之符	-10.1351
玄關	-10.1353
之界	-10.1365
爲我	-10.137
紫陽	-10.1376
森	-10.1379
天子	-10.1385
妙法	-10.1386
所爲	-10.1387
風雷	-10.1388
无極大道	-10.1392
眞王	-10.1392
眞師	-10.1392
甞	-10.1393
普天	-10.1394
之始	-10.14
食之	-10.14
擣	-10.14
女子	-10.1403
三乗	-10.1403
恃	-10.1404
虎狼	-10.1404
奮	-10.1406
料	-10.1409
鬰	-10.1409
天機	-10.141
宵	-10.1411
荆	-10.1411
轡	-10.1412
下土	-10.1412
藩	-10.1413
蕃	-10.1416
聽法	-10.1416
戈	-10.1417
甲午	-10.1418
所屬	-10.1418
聦明	-10.1424
皆由	-10.1425
奉道	-10.1426
神兵	-10.1429
勿令	-10.1431
修眞	-10.1434
三百六十	-10.1435
輕重	-10.1436
至人	-10.1437
妻子	-10.1441
無數	-10.1451
不以	-10.1455
財物	-10.1456
寒暑	-10.1466
升天	-10.1469
七十二	-10.1473
家庭	-10.1497
玄㝠	-10.1498
保護	-10.15
崔	-10.15
或作	-10.1504
療	-10.1505
棗	-10.1512
愧	-10.1514
顏	-10.1515
不受	-10.1516
謙	-10.1516
受戒	-10.1516
璇	-10.1521
蒸	-10.1522
隨方	-10.1522
二景	-10.1522
雅	-10.1523
寃	-10.1523
竪	-10.1523
天帝君	-10.1523
底	-10.1526
蠢動	-10.1528
某人靈䰟	-10.153
聿	-10.153
通用	-10.1531
𡨚仇	-10.1534
建壇	-10.1536
日月星宿	-10.1537
心生	-10.1539
某甲子	-10.1541
此人	-10.1544
三田	-10.1546
同學	-10.1556
不干	-10.1558
流布	-10.1562
次髙功	-10.1562
玄曹	-10.1564
所啓	-10.1573
殺生	-10.1581
慈雲	-10.1581
其文	-10.1584
月十五日	-10.1587
未能	-10.159
蕩蕩	-10.1591
回靈	-10.1593
不行	-10.1594
千年	-10.1607
布化	-10.1609
之意	-10.161
門外	-10.1618
俓上	-10.1618
不食	-10.1619
朝眞	-10.1619
奴婢	-10.1626
並用	-10.163
奏章	-10.163
天皇大帝	-10.1631
謫	-10.1632
敦	-10.1635
朱雀	-10.1636
瓶	-10.1636
禾	-10.1638
弄	-10.1638
紐	-10.164
社稷	-10.1642
此文	-10.1643
不識	-10.1644
子午	-10.1649
三獻	-10.1653
門庭	-10.1653
女人	-10.1655
承受	-10.1659
敢有	-10.1661
伏爲	-10.1667
煥明	-10.1667
先天	-10.1672
升壇	-10.1685
六月	-10.1693
耳目	-10.1694
大劫	-10.1715
流輝	-10.172
滅度	-10.172
五符	-10.1727
當爲	-10.1729
般	-10.174
自有	-10.1741
洛	-10.1741
念道	-10.1742
旺	-10.1743
流演	-10.1744
碎	-10.1745
替	-10.1746
恠	-10.1747
諭	-10.1748
中外	-10.1748
掘	-10.175
當念	-10.1751
績	-10.1752
嘆	-10.1753
慳貪	-10.1753
琳琅	-10.1753
紏	-10.1753
揮	-10.1754
灼	-10.1754
之輝	-10.1756
與道合真	-10.1764
懴罪	-10.1766
甲辰	-10.1767
當令	-10.1767
四瀆	-10.1777
在心	-10.1777
玄天	-10.1784
金符	-10.1792
惡鬼	-10.1796
開圖	-10.1801
不成	-10.1802
辰星	-10.1804
先生林靈眞編科儀立成品	-10.1804
得道之後昇入无形和與道合眞	-10.1812
飛騰	-10.1816
分形	-10.1816
洞府	-10.182
見其	-10.1825
開泰	-10.1829
西靈	-10.1831
惠澤	-10.1832
十二人	-10.1834
法雨	-10.184
月日	-10.1841
至此	-10.1844
來生	-10.1846
鬼兵	-10.1852
者以	-10.1853
𥙷	-10.1854
鎖	-10.1854
栖	-10.1855
惶	-10.1859
憶	-10.1863
灾	-10.1864
顚倒	-10.1865
剔	-10.1866
金科	-10.1867
萃	-10.1868
墀	-10.1869
繇	-10.1872
辤	-10.1872
鄕	-10.1873
說經	-10.1873
三十六部尊經	-10.1877
黄道	-10.188
地祇	-10.1884
雷電	-10.1884
福禄	-10.1889
啓白	-10.1892
持齋	-10.1899
玄冥	-10.1903
輪廻	-10.1903
無色	-10.1904
考對	-10.1915
信禮	-10.1915
符告文	-10.1915
戊	-10.1917
承天	-10.1918
四十二	-10.1921
謹爲	-10.1923
或號	-10.193
其家	-10.1934
轉經行道	-10.1934
威光	-10.1935
祖玄	-10.1937
道果	-10.1942
訴	-10.1947
九日	-10.1954
許君	-10.1955
之華	-10.1956
切以	-10.1961
風清	-10.1962
化人	-10.1964
萬鬼	-10.1968
有情	-10.197
相應	-10.1974
黨	-10.1978
厨	-10.198
饑	-10.198
賀	-10.1981
傲	-10.1982
巢	-10.1983
合同	-10.1984
隣	-10.1985
辟斥	-10.1985
二捻上香	-10.1986
蠻	-10.1989
播	-10.1992
指揮	-10.1992
玉眞	-10.1995
甲寅	-10.1996
在人	-10.2002
伏念	-10.2007
學士	-10.2007
畜生	-10.201
七魄	-10.201
通眞	-10.201
玉光	-10.2011
朝謁	-10.2014
苦海	-10.2019
天威	-10.202
符醫	-10.202
大德	-10.2024
永無	-10.2025
萬眞	-10.2026
幽爽	-10.2026
髙上玉皇十方巳得道大聖衆至眞諸君	-10.2033
其有	-10.2037
愚人	-10.2041
雖有	-10.2042
地獄主者	-10.2043
刀山	-10.2046
千災	-10.2051
素靈	-10.2053
中嶽	-10.2054
即使	-10.2055
後生	-10.2055
里域	-10.2056
而已	-10.2057
含靈	-10.2058
巳來	-10.2059
華夏	-10.2062
結成	-10.2064
萬魔	-10.2073
聦	-10.2076
經師	-10.2076
圓成	-10.2083
十戒	-10.2087
兮	-10.2087
靈音	-10.2088
更相	-10.2089
臘	-10.209
以其	-10.2091
罵	-10.2094
強	-10.2094
二氣	-10.2097
亞獻	-10.2099
葬	-10.21
禪	-10.21
貢	-10.2102
嗟	-10.2103
岱	-10.2104
身與我神	-10.2106
紛紜	-10.2107
結璘	-10.2108
浹	-10.211
所請	-10.2114
七世	-10.2117
三色	-10.2118
展轉	-10.2119
寳章	-10.212
神水	-10.2122
其事	-10.2126
十惡	-10.2132
所說	-10.2134
人家	-10.2141
道成	-10.2143
天宫	-10.2145
太一救苦天尊	-10.2149
法服	-10.2157
如常	-10.216
主執	-10.2161
書章	-10.2161
化身	-10.2162
方諸	-10.2175
正度	-10.2177
度人經	-10.2181
不相	-10.2188
口訣	-10.2189
恬	-10.2195
經者	-10.2199
午朝	-10.2201
今世	-10.2212
泯	-10.2213
𦤺	-10.2213
註	-10.2215
腥	-10.2215
敵	-10.2216
仙衆	-10.2216
闔	-10.2216
托	-10.2218
恢	-10.2219
悠悠	-10.2219
倘	-10.2223
玄武	-10.2224
葆	-10.2227
聳	-10.2228
玄玄	-10.2229
叶	-10.2229
今生	-10.223
五老上帝	-10.2235
預修弟子某	-10.2238
法身	-10.2243
四生	-10.2245
東海	-10.2247
天府	-10.2252
流金	-10.2255
瑶壇	-10.2258
四象	-10.2264
特降	-10.2265
天心	-10.2266
香燈	-10.227
乗晨	-10.2272
在前	-10.2276
以手	-10.2276
飛升	-10.2284
暑	-10.2285
終身	-10.2287
不離	-10.2287
是非	-10.2291
先世	-10.2297
受之	-10.2299
鬼官	-10.2302
亦如	-10.2312
宣化	-10.2314
中指	-10.2316
穀	-10.2318
存念	-10.2322
陞	-10.2336
歘	-10.2337
渴	-10.2338
閭	-10.2338
耽	-10.2338
澡	-10.2339
眄	-10.234
亘	-10.2341
叩齒三通	-10.2341
斡	-10.2343
攝醫	-10.2344
鱗	-10.2345
誹謗	-10.2346
誠惶誠恐稽首頓首	-10.2346
動靜	-10.2346
沛	-10.2347
良乆	-10.2347
金龍驛傳	-10.2352
靈章	-10.2359
受命	-10.2359
法信	-10.2368
以上	-10.2373
白鶴	-10.2375
之要	-10.2376
六宫	-10.2377
錬質	-10.2381
序立	-10.2383
殺害	-10.2383
昇度	-10.2384
徃來	-10.2388
與人	-10.239
聖力	-10.2399
與我	-10.24
妙炁	-10.24
得仙	-10.24
治之	-10.2409
動主	-10.2411
青天	-10.2416
離苦	-10.2418
四明	-10.2419
諸獄	-10.2429
臣等皈身皈神皈命首體投地仰依	-10.2437
散壇	-10.244
愼之	-10.2442
仰惟	-10.2445
戀	-10.2461
床	-10.2461
頻	-10.2462
讓	-10.2462
上真	-10.2462
无有	-10.2464
炳	-10.2464
騎吏	-10.2465
梓	-10.2466
鎻	-10.2466
詐	-10.2467
酌	-10.2468
徵	-10.2468
纎	-10.2469
蓬萊	-10.247
所受	-10.247
掛	-10.2471
頥	-10.2473
仙化成人	-10.2474
城隍社令	-10.2475
警	-10.2476
佇	-10.2477
真聖	-10.2483
十方靈寳天尊	-10.2484
莫測	-10.2485
傳度	-10.2494
諷	-10.25
宣揚	-10.252
用此	-10.2523
玉宸	-10.2526
開元	-10.2527
惡道	-10.2528
在上	-10.2532
不經	-10.2534
不必	-10.2539
四者	-10.2541
淨供	-10.2541
駕景	-10.2551
髙仙	-10.2552
玄科	-10.2554
臍	-10.2558
熒惑	-10.2559
金石	-10.2566
延壽	-10.2569
羽衣	-10.2577
三人	-10.2579
真靈	-10.2579
及以	-10.2583
羙	-10.2585
寺	-10.2587
探	-10.2587
嘘	-10.2588
禦	-10.2592
淮	-10.2594
登壇	-10.2594
㦸	-10.2594
四肢	-10.2594
盆	-10.2595
鍳	-10.2595
瓦	-10.2596
不須	-10.2598
構	-10.26
惡業	-10.2603
大慈大悲大聖大願隨機赴感發誓度人	-10.2606
五尺	-10.2614
人中	-10.2615
二日	-10.2618
龍章	-10.2618
來下	-10.2622
受苦	-10.2624
无形	-10.2626
金銀	-10.2629
死籍	-10.263
運限	-10.2637
歸位	-10.2638
非人	-10.264
等皈身皈神皈命首體投地	-10.264
思念	-10.2646
超升	-10.2648
升度	-10.2658
安泰	-10.266
法食	-10.2661
升入	-10.2664
兄弟	-10.2667
皇家	-10.2668
神也	-10.2669
然而	-10.2672
梵行	-10.2681
三災	-10.2686
曰我	-10.2688
兢	-10.269
攝書符唵	-10.269
聖母	-10.2704
畔	-10.2707
汗	-10.2707
帝東華南極西靈北眞玄都玉京金闕七	-10.2708
金簡	-10.2713
豆	-10.2713
嗔	-10.2714
濫	-10.2715
淡	-10.2717
壑	-10.2722
一如告命風火驛傳	-10.2724
戢	-10.2724
迓	-10.2725
郷里	-10.2726
若欲	-10.2727
浮黎	-10.2728
則上明天尊大慈之化下副	-10.2728
天一	-10.2728
訶	-10.273
鼓舞	-10.2734
有大	-10.2736
宅舍	-10.2738
籍師	-10.2745
而出	-10.2748
爲齋主某	-10.2756
之書	-10.2762
之路	-10.2762
引魂	-10.2762
之年	-10.2763
不從	-10.2765
五雷	-10.2767
而死	-10.2773
通玄	-10.2776
一切眞靈	-10.278
解穢	-10.2789
告命	-10.2794
諸仙	-10.2794
黃帝	-10.2797
齋事	-10.2807
道德日	-10.2808
礙	-10.2809
者見世	-10.2811
常存	-10.2811
衣冠	-10.2812
事理	-10.2814
浮空	-10.2822
一曰	-10.2822
生化	-10.2829
隅	-10.2832
快	-10.2832
隂精	-10.2832
銘	-10.2836
之大	-10.2837
遶	-10.2841
太山	-10.2843
法王	-10.2844
的	-10.2844
蛻	-10.2844
銜	-10.2846
祝之	-10.2846
廚	-10.2846
叛	-10.2847
塡	-10.2848
顛倒	-10.2848
弓	-10.2848
絕	-10.2849
誑	-10.2851
囚徒	-10.2851
銅柱	-10.2853
等今故燒香皈身皈神皈命	-10.2854
尊卑	-10.2856
日月星辰	-10.2857
道都大主者	-10.2857
金童玉女	-10.2861
頭上	-10.2861
後聖	-10.2863
光芒	-10.2867
彌羅	-10.2868
受法	-10.2868
玉曆	-10.2873
之令	-10.2873
道路	-10.2876
四寸	-10.288
四月	-10.2886
衆妙	-10.289
玄穹	-10.2891
之福	-10.2891
玉局	-10.2894
虚無自然	-10.2896
驅除	-10.29
卯文	-10.2907
月中	-10.2913
神郷	-10.2915
後學	-10.2917
妙用	-10.2923
梅	-10.2928
黄紙	-10.2943
怡	-10.2943
於人	-10.2945
道氣	-10.2947
如上	-10.295
得之	-10.2953
殺鬼	-10.2953
不及	-10.2954
有生	-10.2956
腑	-10.2962
前世	-10.2963
建三	-10.2963
十一月	-10.2964
再三	-10.2965
真人玉清	-10.2966
偃	-10.2967
壓	-10.2969
升神	-10.2969
慈心	-10.2972
今爲	-10.2972
謡	-10.2974
玄臺	-10.2974
擒	-10.2975
儒	-10.2976
朴	-10.2976
顚	-10.2977
裁	-10.2977
肥	-10.2978
葩	-10.2978
舘	-10.298
燕	-10.298
焚之	-10.2982
頑	-10.2982
五嶽四瀆	-10.2983
九天普度院	-10.2985
甲戌	-10.2986
發爐	-10.2987
衘	-10.2987
過度	-10.2987
妙行眞人	-10.2988
其後	-10.2989
𨇠	-10.2993
靡不	-10.2995
寂然	-10.2996
尚慮	-10.2997
書刀一口	-10.2997
終獻	-10.2999
爲始	-10.3006
無疆	-10.3009
玄中	-10.3016
不足	-10.3016
證明	-10.3018
幽冥	-10.3019
輝華	-10.302
累劫	-10.3023
靈寳領教濟度金書卷之二百	-10.3023
昊天玉皇上帝	-10.3028
重泉	-10.3031
元洞	-10.3035
救護	-10.3036
太歳年月日	-10.3041
神龍王	-10.3042
流明	-10.3045
符呪	-10.3055
太無	-10.3056
九華	-10.3056
三分	-10.3061
萬姓	-10.3061
不善	-10.3066
四聖	-10.3068
土皇	-10.3076
眞氣	-10.3076
太極眞人	-10.3089
有違	-10.3091
琴	-10.3091
邪魔	-10.3092
一方	-10.3093
古今	-10.3094
勃	-10.3102
沼	-10.3102
誘	-10.3103
鄧	-10.3104
括	-10.3104
申狀	-10.3105
萌	-10.3105
扶桑	-10.3105
蔵	-10.3107
箕	-10.3108
葵	-10.311
室中	-10.311
雍	-10.3113
五篇	-10.3114
等魂	-10.3114
羲	-10.3117
二十一	-10.3119
好道	-10.3121
不應	-10.3122
三清上聖	-10.3122
部衞	-10.3124
真符	-10.3125
三尊	-10.313
兆民	-10.3136
考校	-10.3136
邪精	-10.3136
孤魂	-10.3136
歡樂	-10.3136
攝魄	-10.3136
非常	-10.314
其形	-10.314
善縁	-10.3144
於玄	-10.3149
昭回	-10.315
天尊曰	-10.3159
無終	-10.3159
以自	-10.3161
不淨	-10.3165
未有	-10.3166
歸心	-10.3168
以成	-10.3169
此乃	-10.3169
出堂頌	-10.3174
上法	-10.3179
照應	-10.3181
所得	-10.3191
御運	-10.3195
眞一	-10.3198
通神	-10.3199
虚无自然	-10.3199
仙品	-10.3201
平旦	-10.3209
是謂	-10.3217
流形	-10.3218
白雲	-10.3223
懇祈	-10.3232
神威	-10.3233
眠	-10.3237
徽	-10.3237
辦	-10.3238
眞常	-10.3238
鼔	-10.3239
饒	-10.3239
梯	-10.3239
冶	-10.324
沸	-10.324
渡	-10.3241
六腑	-10.3241
妾	-10.3242
狐	-10.3242
婁	-10.3242
猛獸	-10.3246
津梁	-10.3252
樞機	-10.3252
關奏	-10.3253
慈光	-10.3258
九龍	-10.3261
歸依師尊大聖衆至眞之德得道之後	-10.3263
齋醮	-10.3263
其上	-10.3263
玄極	-10.3264
隂靈	-10.3266
謗	-10.3269
流浪	-10.3269
生氣	-10.3271
追䰟	-10.3275
之眞	-10.3278
昇玄	-10.3279
靈寳符命	-10.3285
體道	-10.3286
無盡	-10.3292
依按	-10.3298
土皇君	-10.3299
下愚	-10.3308
帝尊	-10.3309
之果	-10.331
患人	-10.3311
壬癸	-10.3318
元神	-10.3324
化形	-10.3325
受此	-10.3325
此道	-10.3327
午文	-10.3337
思惟	-10.3337
太一天尊	-10.3343
門戸	-10.3349
來臨	-10.3351
恩光	-10.3355
冤	-10.3362
不通	-10.3363
儼	-10.3367
下照	-10.3368
琳	-10.3373
漂	-10.3373
島	-10.3375
撓	-10.3376
飄飄	-10.3378
人能	-10.3379
一元	-10.338
革	-10.338
天地水三官	-10.3381
陋	-10.3382
䢖	-10.3383
瑤	-10.3383
陶鎔	-10.3384
讃詠	-10.3385
爲上	-10.3385
超淩	-10.3386
徃生	-10.3386
熖	-10.3386
作禮	-10.339
紫戸	-10.3406
年月	-10.3412
三十六天	-10.3414
故次之以	-10.3416
表文	-10.3422
之徒	-10.3422
他人	-10.3429
之庭	-10.3429
上應	-10.3441
一口	-10.3452
中部	-10.3452
五濁	-10.3453
正氣	-10.3453
孝道	-10.3455
公子	-10.3455
諸君丈人	-10.3457
伏地	-10.3458
爲弟子	-10.3462
之報	-10.3466
執符	-10.3467
昊天	-10.3467
其義	-10.3471
可不	-10.3478
青紙	-10.3485
至聖	-10.3492
丹靈	-10.3492
眞風	-10.3499
怖	-10.3506
劫劫	-10.3506
杳	-10.3508
烹	-10.3509
縳	-10.3509
摇	-10.351
上言	-10.3515
五斗	-10.3516
鄰	-10.3517
輸	-10.3517
九天生神	-10.3517
鉞	-10.3517
擎	-10.3518
榆	-10.3521
有漏	-10.3521
諧	-10.3521
八素	-10.3522
投誠	-10.3522
稼	-10.3522
焼香	-10.3523
寥廓	-10.3524
之典	-10.3525
悔過	-10.3525
誦詠	-10.3526
神氣	-10.3527
鳥獸	-10.3528
覩光明	-10.353
黒鬱	-10.3533
暘谷	-10.3534
不知所	-10.3535
未得	-10.3537
即得免	-10.3538
煥爛	-10.3538
者亦	-10.3545
國家	-10.3553
風刀	-10.3554
眞皇	-10.3555
三一	-10.3556
明皇	-10.3558
司主管天下	-10.3564
案判官嶽府第	-10.3564
爲道	-10.357
尊靈	-10.3572
苦魂	-10.358
陰	-10.3585
謹按	-10.3591
請臣等	-10.3593
無上道	-10.3593
白玉	-10.3597
三世	-10.3598
所求	-10.36
生前	-10.3601
衆等志心皈命	-10.3602
天帝君上清	-10.3606
乗雲	-10.3607
靈源	-10.3609
修建	-10.3609
通天	-10.3611
曰子	-10.3613
授以	-10.3613
過去生	-10.3615
四十八	-10.3627
南向	-10.3631
不起	-10.3633
人多	-10.3638
泣	-10.3644
朽	-10.3644
晚朝	-10.3647
急急如上帝律令	-10.3647
涼	-10.3649
尉	-10.3652
汚	-10.3652
謹重誠上啓	-10.3652
今以	-10.3653
禎	-10.3653
痾	-10.3654
涵濡	-10.3655
賈	-10.3655
毓	-10.3656
靈童	-10.3656
霓旌	-10.3658
三萬六千	-10.366
苗	-10.3661
稽首皈依	-10.3661
南昌上宫	-10.3662
庚申	-10.3663
錬化	-10.3663
九星	-10.3665
三界官屬	-10.3665
流鈴	-10.3665
以次	-10.3666
皇中元祈請大齋臣等誠愚誠魯非賛大	-10.3666
追薦	-10.3666
洞神之法立墠設位象三十六天燒香然	-10.3666
於鴻覆生靈曷遂於燕安或旱澇之所災	-10.3666
海災消禎祥雲集八節安和一切羣生咸	-10.3666
或民庶之多難覩此物	-10.3666
用叩天恩冀社稷之尊隆庶民物之康阜	-10.3666
恠夢消除二儀交泰則七曜調明風雨以	-10.3666
先亡同得離幽苦上昇福堂轉輪成眞利	-10.3666
五者	-10.3667
大慈大悲	-10.3669
几前	-10.3673
譯文	-10.3675
未來	-10.3676
當境	-10.3676
興隆	-10.3679
靈飛	-10.3679
心存	-10.368
之祥	-10.3683
東西	-10.3685
北嶽	-10.3687
真人右	-10.3691
詩書	-10.3697
窮魂	-10.37
故名	-10.3703
神眞	-10.3704
聞之	-10.3705
道徳	-10.3708
眞司	-10.3712
不明	-10.3715
州縣	-10.3716
今來	-10.3721
之言	-10.3721
三關	-10.3722
身中三五功曹左右官使者	-10.3723
火車	-10.3727
之主	-10.373
尊師	-10.3731
金精	-10.3732
成道	-10.3734
之喜	-10.3736
去處	-10.3751
天河	-10.3757
赴壇	-10.3763
地司	-10.3763
大臣	-10.3768
聖澤	-10.377
鬼賊	-10.3776
盲	-10.3784
霹靂	-10.3786
脱	-10.3786
日夜	-10.3787
邦	-10.3788
粮	-10.3789
一分	-10.379
捐	-10.379
埃	-10.3792
白炁	-10.3793
麥	-10.3793
吕	-10.3797
饗	-10.3797
粲	-10.3797
群靈	-10.3799
地禁	-10.38
四司五帝	-10.3804
前去	-10.3804
如意	-10.3804
當今皇帝遇荷玄恩幸藉餘慶屬當萬機	-10.3807
三官九府	-10.3807
燈應三十六地消釋幽闇招引神明爲某	-10.3807
暄涼應節黎庶咸安兵戈止息天下太平	-10.3807
罔極之澤垂救度之福賜更造之仁使道	-10.3807
悔丹誠以是功德歸流某七廟之靈九玄	-10.3807
如有	-10.3809
塚	-10.3812
今故燒香自皈依師尊大聖衆至	-10.3814
三命	-10.3815
存見	-10.3817
當先	-10.3828
兆身	-10.3829
五福	-10.383
火鍊	-10.3834
升降	-10.3839
從此	-10.3853
萬天	-10.3856
不孝	-10.387
玄風	-10.3873
禁壇	-10.3874
輪迴	-10.3877
受道	-10.3883
師資	-10.3883
初捻上香	-10.3888
凡人	-10.3894
神魂	-10.3898
壽命	-10.3901
變神	-10.391
福庭	-10.3912
白素	-10.3916
護持	-10.3916
地上	-10.3921
諸神	-10.3923
七祖一切	-10.3928
鴈	-10.3931
内有	-10.3932
愁	-10.3932
盞	-10.3934
九龍符命	-10.3934
廷	-10.3934
畧	-10.3935
洎	-10.3936
談	-10.3937
疊	-10.3937
若是	-10.3939
帷	-10.394
爍	-10.394
沴	-10.394
腫	-10.3942
億曽萬祖	-10.3942
塗炭	-10.3944
茫茫	-10.3944
皈身皈神皈命	-10.3945
諸部	-10.3949
隨我神運	-10.3949
摽露眞文揚旛請命披心散	-10.395
已身	-10.3955
須至申聞者右謹具狀上申	-10.3955
寂寂	-10.3958
東方青	-10.3961
不解	-10.3963
五榖	-10.3965
欲得	-10.3967
紫宸	-10.3969
己身	-10.397
來迎	-10.397
水旱	-10.3981
不覺	-10.3981
謄	-10.3984
九圍	-10.3985
不肯	-10.3987
如儀	-10.3992
中國	-10.3997
丹霞	-10.4003
中間	-10.4004
肅清	-10.4007
朱表	-10.4009
謹狀	-10.401
月一日	-10.4012
青詞	-10.4012
不測	-10.4026
朱宫	-10.4032
化成	-10.404
之源	-10.4041
記名	-10.4044
禍福	-10.4046
西向	-10.4046
乗此	-10.4047
非有	-10.4048
昊	-10.405
主之	-10.4058
洞微髙士開光救苦眞人寗全	-10.4059
垂光	-10.4067
百靈	-10.4071
豫	-10.4073
暖	-10.4074
滛	-10.4075
規	-10.4076
紫金	-10.4078
霈	-10.4083
乍	-10.4084
哺	-10.4084
某與臨壇官衆等謹同誠上啓	-10.4085
靣	-10.4087
不在	-10.4087
搆	-10.4088
禧	-10.4089
拔贖	-10.4089
姓某上表	-10.409
仙童玉女	-10.409
六道四生	-10.4091
粉	-10.4091
合屬去處	-10.4091
隨其	-10.4094
玄化	-10.4095
復次善男子	-10.4096
國祚	-10.4106
西嶽	-10.4109
資薦	-10.411
二符	-10.411
三尸	-10.4114
元靈	-10.4117
靈應	-10.4117
玉樓	-10.4119
不過	-10.4122
俄	-10.4125
重隂	-10.4126
男子	-10.4135
七政	-10.4138
化化	-10.414
自從	-10.4142
經中	-10.4144
子文	-10.415
早朝	-10.4151
問其	-10.4152
神龍	-10.4155
諸惡	-10.4158
其法	-10.4159
於世	-10.4166
三界十方	-10.4173
炎光	-10.4174
受報	-10.4178
受書	-10.4184
開啓	-10.4184
一徧	-10.4193
宻呪	-10.4195
靈魂	-10.42
不退	-10.4201
之禮	-10.4205
數百	-10.4209
若非	-10.4213
仇	-10.4213
緣	-10.4217
筋	-10.4218
勇	-10.4218
數十	-10.4219
浩蕩	-10.422
面東	-10.4221
殁	-10.4221
特爲	-10.4225
朋	-10.4229
眇	-10.4229
不老	-10.4231
逰	-10.4231
喚	-10.4231
掾	-10.4232
八紘	-10.4234
懿	-10.4235
匠	-10.4235
炁入	-10.4237
閻	-10.4238
而行之	-10.4242
劒樹	-10.4242
𡨚愆	-10.4242
百骸	-10.4244
身得	-10.4246
九幽地獄	-10.425
碧霞	-10.425
之辰	-10.4253
三十六部尊經玄中大法師上相上宰	-10.4254
逺近	-10.4256
君子	-10.4256
經絡	-10.426
削落	-10.426
䰟𩲸	-10.4261
妄想	-10.4264
靈寳大法	-10.4267
一尺	-10.4268
司額	-10.427
聖旨	-10.4276
以生	-10.4278
引旛	-10.4287
玉音	-10.4287
増延	-10.4288
教主	-10.4289
入妙	-10.4298
疾苦	-10.4299
在世	-10.4301
授之	-10.431
則有	-10.4312
言語	-10.4317
太上三尊	-10.4319
武帝	-10.4332
百鬼	-10.4337
前生	-10.4339
謝罪	-10.4343
道流	-10.4349
若無	-10.4354
疆	-10.4354
天開	-10.4354
洞天仙官	-10.4361
破地獄	-10.4361
召役	-10.4362
衣食自然	-10.4367
傷亡	-10.4367
箭	-10.4368
救苦眞人	-10.4369
焼	-10.4369
鄙	-10.437
勤修	-10.437
玄司	-10.437
福郷	-10.437
纔	-10.4371
萬丈	-10.4372
崩	-10.4372
初捻上香願此香煙騰空	-10.4378
聖帝	-10.4378
不可思議功德	-10.4378
孽	-10.438
煌	-10.438
鷄	-10.438
𨽻	-10.4381
小兒	-10.4383
暁	-10.4383
慧日	-10.4383
攄	-10.4385
養生	-10.4387
故能	-10.4391
根本	-10.4394
衢	-10.4398
愆尤	-10.4401
稱揚	-10.4402
能知	-10.4405
歷劫	-10.4405
來降	-10.4406
國主	-10.441
真經	-10.441
内音	-10.4419
壷	-10.4419
亦是	-10.4427
出者嚴裝關啓玄壇天帝神君當召此間	-10.4434
遷神	-10.4436
經信禮	-10.4438
依前	-10.4444
五通	-10.4444
不得妄	-10.4451
衆人	-10.4452
玉液	-10.4455
太元	-10.4457
從官十	-10.4458
直壇	-10.4472
隂符	-10.4472
塲	-10.4473
狼	-10.4484
子等	-10.4485
覺悟	-10.4488
靈通	-10.4496
次唱	-10.4501
法中	-10.4505
即與	-10.4509
婦人	-10.4517
御炁	-10.4519
有命	-10.452
險	-10.4523
杯	-10.4524
方可	-10.4525
紋繒	-10.4529
渺渺	-10.453
悅	-10.453
遼	-10.453
勘	-10.4532
之厄	-10.4535
奕奕	-10.4535
𦍙	-10.4536
自今	-10.4536
蔚	-10.4536
丁卯	-10.4536
奬	-10.4537
駒	-10.4538
所部	-10.4538
人皆	-10.4539
聖化	-10.454
亢	-10.4541
醜虜歸降某所苦某病即蒙差愈或官司	-10.4543
殗	-10.4543
萬生	-10.4544
十二河源	-10.4544
奏狀	-10.4545
我者	-10.4549
人事	-10.4551
聖日	-10.4551
庚辛	-10.4554
言曰	-10.4554
俯賜	-10.4556
夜光	-10.4557
森羅	-10.4558
金童傳言散花玉女五帝直符直日香官	-10.4559
二寸	-10.4562
八㑹	-10.4564
不負	-10.4566
太上大道君	-10.4567
九寸	-10.4568
御景	-10.4582
之私	-10.4587
陽神	-10.4588
洞徹	-10.4589
往生	-10.459
江河	-10.459
五行之	-10.4591
忽見	-10.4594
方寸	-10.4598
元始天尊太上大道君太上老君	-10.4599
虚玄	-10.4603
㝠㝠	-10.4603
散形	-10.4606
調和	-10.4609
凝眞	-10.4609
帝庭	-10.4613
丹臺	-10.4615
經戒	-10.4621
得解脫	-10.4621
得此	-10.4624
豈不	-10.4627
真人左	-10.4628
召請	-10.4638
有功	-10.464
金容	-10.4644
人見	-10.4649
皇上	-10.4652
天丁力士	-10.4653
霍	-10.4654
多有	-10.4659
上御	-10.4662
捻香	-10.4664
殺害衆生或	-10.4664
降福	-10.4666
昭宣	-10.4668
唎	-10.4674
臂	-10.4677
濛	-10.4678
恍惚	-10.4679
扆	-10.468
三籙	-10.4681
弊	-10.4683
刺	-10.4684
窈	-10.4684
寔	-10.4684
抗	-10.4685
今故燒香自歸依師尊大聖衆至	-10.4685
廊	-10.4687
講說	-10.4691
幽獄	-10.4693
琅函	-10.4696
猷之人特念巳叨	-10.4696
巳忝敢負登盟之誓謹共精嚴	-10.4697
謹上啓	-10.4698
陶冶	-10.4698
方隅	-10.4701
靈寳淨明	-10.4717
洞靈	-10.472
手足	-10.4721
玊女	-10.4721
具位姓某	-10.4726
證品	-10.4727
清明	-10.4727
五常	-10.4728
齋主某家	-10.4728
流芳	-10.4728
學眞	-10.4731
具載	-10.4743
有二	-10.4748
等至心稽首禮	-10.475
真文	-10.4754
一氣	-10.4758
金錢	-10.4768
炁一口	-10.4769
太子	-10.4772
皇后	-10.4776
上告	-10.4776
上宰	-10.4777
曹仙官	-10.4778
某月	-10.4783
玄微	-10.4785
分位	-10.4791
宗師	-10.4794
河源	-10.4794
明科	-10.4794
行此	-10.4794
皇圖	-10.4798
一二	-10.4799
現形	-10.4802
不作	-10.4803
九江	-10.4805
月華	-10.4808
二十二	-10.481
黃華	-10.4813
命靈	-10.4817
三㑹	-10.4821
一枚	-10.4821
乃得	-10.4826
睦	-10.4826
書符呪	-10.4827
二字	-10.4827
北都	-10.4829
仕	-10.4829
掠	-10.4834
艱	-10.4835
聾	-10.4835
酸	-10.4835
剥	-10.4836
屯	-10.4837
邀	-10.4839
慙	-10.484
吽	-10.484
裔	-10.4841
認	-10.4842
戚	-10.4842
予	-10.4843
杓	-10.4843
皂	-10.4844
隴	-10.4845
駭	-10.4846
謹録狀上奏	-10.4846
入於	-10.4846
麾	-10.4846
宇宙	-10.4847
四字	-10.4848
忝	-10.4848
鍚	-10.4849
眞交㑹在此香火爐前令	-10.485
二斗	-10.4851
泰玄樞機三省	-10.4852
何謂	-10.4853
无上黄籙大齋	-10.4856
刀兵	-10.4856
朗徹	-10.4857
石室	-10.4859
道德天尊	-10.4863
鬱絶	-10.4868
在天	-10.487
三洞之	-10.4871
或以	-10.4874
天帝君太清	-10.4877
嘯命	-10.488
而至	-10.4883
一朝	-10.4886
罪録	-10.4888
禮謝	-10.489
恭望	-10.4892
紫房	-10.4894
普告三界	-10.4895
千生	-10.49
積善	-10.49
金木	-10.4902
歩罡	-10.4903
生者	-10.4904
雲中	-10.4906
勑符呪	-10.4909
敢不	-10.492
日光	-10.492
化日	-10.4922
廣度	-10.4922
午時	-10.4924
滅罪	-10.4934
之性	-10.4935
祝畢	-10.4937
不可得	-10.4939
百八十	-10.494
皇夫人	-10.4945
願賜	-10.4948
考官	-10.4948
與道合眞鳴法鼓二十四通	-10.4948
身體	-10.495
靈觀	-10.4954
青書	-10.4954
有何	-10.4955
從心	-10.4956
遵奉	-10.4957
一斗	-10.4963
不言	-10.4964
六塵	-10.4964
七年	-10.4964
天尊告	-10.4965
五年	-10.4966
聖眞	-10.4969
天台	-10.4972
其功	-10.4977
舜	-10.4985
髣髴	-10.4987
少陽	-10.4987
馮	-10.4988
奴	-10.4988
瘟疫	-10.4991
吐納	-10.4992
躭	-10.4992
黄炁	-10.4995
薰	-10.4996
箇	-10.4999
創	-10.5
扉	-10.5001
戶	-10.5003
飮	-10.5003
幾晝夜	-10.5003
閱	-10.5004
獵	-10.5005
節次	-10.5005
祭酒	-10.5005
阻	-10.5005
勤拳	-10.5006
瀹	-10.5006
沈淪	-10.5007
至心皈命	-10.5008
魯	-10.5009
冥冥	-10.501
月宫	-10.5012
疑惑	-10.5013
九幽之	-10.5015
天兵	-10.5016
錢馬	-10.5019
觸犯	-10.502
身爲	-10.5021
龍虎君侍香諸靈官當令臣	-10.5023
所向	-10.5023
仙王	-10.5028
仙君	-10.5029
道性	-10.5036
本無	-10.504
制魔	-10.5044
二尺	-10.5049
朝修	-10.505
吉祥	-10.5052
九晨	-10.5062
之信	-10.5063
一兩	-10.5066
往來	-10.5071
事竟	-10.5075
眞人童子	-10.5076
甚多	-10.5076
聖壽	-10.5078
下臨	-10.5078
具位臣	-10.5079
不滅	-10.5084
而退	-10.5086
前驅	-10.5087
飢寒	-10.5087
傾光	-10.5089
無他	-10.5093
咸得	-10.5094
謹有	-10.5094
章醮	-10.5095
伏乞	-10.5098
不違	-10.5099
長春	-10.51
臣等皈身皈神皈命首體投地仰依太	-10.5102
碧玉	-10.5104
寳珠	-10.5111
上徹	-10.5111
年中	-10.5113
即俾	-10.5113
雲路	-10.5114
郷貫	-10.5116
百千萬	-10.5118
衆仙	-10.5127
聖慈	-10.5131
度魂	-10.5135
蠲消	-10.5136
虛空	-10.5137
尚書	-10.5139
仙階	-10.5139
青炁	-10.5144
默	-10.5147
端正	-10.5148
與天地	-10.5149
帝闕	-10.5149
聖號	-10.515
地紀	-10.515
爵	-10.5158
䂓	-10.5159
矯	-10.5159
蝕	-10.5159
鞠	-10.516
㓂	-10.516
辜	-10.516
睡	-10.516
胥	-10.5161
虹	-10.5162
白書	-10.5162
恍	-10.5162
巡	-10.5163
藻	-10.5163
柳	-10.5163
巳得道大聖衆至眞諸君丈人	-10.5164
緬	-10.5164
丹砂	-10.5165
暇	-10.5165
之愆	-10.5165
父毋	-10.5165
河伯	-10.5165
邇	-10.5166
峨	-10.5168
分靈	-10.5168
躔	-10.517
清涼	-10.5172
本壇	-10.5172
鐵圍	-10.5174
各三十二人出出者嚴裝關啓	-10.5174
元始天尊无極大道太上道君太上老君	-10.5174
天王姓	-10.5177
吉日	-10.5181
頭戴	-10.5182
萬法	-10.5191
寳蓋	-10.5196
河圖	-10.5199
青玄黄籙	-10.5209
出官	-10.521
形容	-10.5211
切慮	-10.5212
别有	-10.5213
災殃	-10.5214
中出	-10.5219
真授靈寳通玄弘教水南先生林靈真編	-10.5221
玉女五帝直符直日香官各三十二人出	-10.5222
龍文	-10.5223
符文	-10.5226
永辭	-10.5227
拔罪	-10.5228
應聲	-10.5231
大化	-10.5232
含生	-10.5234
之節	-10.5234
天女	-10.5234
者必	-10.5235
四維	-10.5241
黄籙齋	-10.5245
君吏	-10.5251
成都	-10.5264
宫殿	-10.5268
之竒	-10.527
仁風	-10.5278
天庭	-10.528
金玉	-10.5281
遵依	-10.5281
歸於	-10.5281
一丈	-10.5282
即日	-10.5285
隨意	-10.529
禮方懴方	-10.5291
長安	-10.5299
五千	-10.5303
明日	-10.5305
擲火	-10.5305
宣詞	-10.5307
風火	-10.5308
桐栢	-10.5309
除巳	-10.531
罏	-10.5311
繡	-10.5317
貟	-10.5318
嫌	-10.5318
法衆運誠	-10.5319
鎔	-10.532
䑕	-10.532
檀	-10.5321
鞭	-10.5322
北辰	-10.5322
法食符	-10.5323
苑	-10.5323
屢	-10.5323
粟	-10.5324
剖	-10.5324
今月某日	-10.5324
沒	-10.5325
洞門	-10.5326
督	-10.5326
十轉	-10.5327
挾	-10.5328
朱陵火府	-10.5329
煒燁	-10.533
熒	-10.533
六道四生孤魂滯魄	-10.5332
度生	-10.5332
飲酒	-10.5333
後有	-10.5333
义	-10.5333
菲	-10.5333
太華	-10.5334
霄衢	-10.5334
烽	-10.5334
南北	-10.5334
合炁	-10.5334
十二願	-10.5339
之道也	-10.5339
燈以照	-10.534
上達	-10.5342
睿號	-10.5342
隱韻	-10.5343
髙真	-10.5345
果報	-10.5353
起居	-10.5354
四十五	-10.5356
九竅	-10.5357
𥘉	-10.5357
三品	-10.5358
拜表	-10.536
三十二天帝君	-10.5364
普薦	-10.5366
香煙	-10.5366
種民	-10.5367
三焦	-10.5367
皆以	-10.5371
朗耀	-10.5372
焚化	-10.5372
扶持	-10.5375
難可	-10.5375
合景	-10.5376
無英	-10.5379
兵士	-10.5383
紫霞	-10.5386
與之	-10.5388
生成之	-10.5388
壇中	-10.5393
又以	-10.5396
願得玉清道炁靈寳妙光下降流入	-10.5407
妙哉	-10.5408
見前	-10.5412
晨君	-10.5412
一月	-10.5412
心無	-10.5416
永斷	-10.5419
生身受度	-10.5419
王子	-10.5421
下及	-10.5421
南丹	-10.5422
姓某承誥奉行	-10.5423
聖君	-10.5424
考召	-10.5427
周回	-10.5428
斗極	-10.5428
亦復	-10.5431
墨書	-10.5434
旛符	-10.5435
諸苦	-10.5452
忽有	-10.5454
身長	-10.5456
受其	-10.5456
有此	-10.5457
若人	-10.5457
念念	-10.5461
相見	-10.5463
形魂	-10.5465
精心	-10.5468
醮儀	-10.5469
洞微髙士開光救苦眞人𡩋全	-10.5472
珮	-10.5472
敬聽	-10.5472
六時	-10.5475
主張	-10.5475
心拜	-10.5476
之官	-10.5477
牒請	-10.5478
抵	-10.5478
龍君	-10.5479
弼	-10.5481
大水	-10.5483
之祕	-10.5485
嗜	-10.5485
殞	-10.5485
譽	-10.5486
湧	-10.5486
奄	-10.5487
緒	-10.5487
人口	-10.5488
揺	-10.5489
濤	-10.549
漫	-10.549
漬	-10.549
洞朗	-10.549
柄	-10.549
飜	-10.5492
削除	-10.5493
得聞	-10.5494
戊已	-10.5495
匝	-10.5496
黒簿	-10.5497
羞	-10.5497
廣成先生杜光庭	-10.5498
援	-10.5498
洞天福地	-10.5498
郁	-10.5499
掾吏	-10.5499
眷序	-10.5501
點	-10.5501
十方救苦天尊	-10.5503
北隂玄天酆都大帝	-10.5503
蒙福慶俱服正教同歸自然得道之後與	-10.5503
寳瓊臺紫微上宫靈寳至眞明皇道君	-10.5504
靈寳大法司	-10.5508
炁合	-10.5508
章從事	-10.5508
功行	-10.5513
所陳	-10.5515
蕩穢	-10.5524
上士	-10.5525
仰冀	-10.5526
獲福	-10.553
紫户	-10.5531
㧞度	-10.5532
求仙	-10.5534
燈燭	-10.5534
之表	-10.5534
耀景	-10.5536
相傳	-10.5537
問曰	-10.5539
紫霄	-10.5546
焚修	-10.556
上部	-10.5563
災害	-10.5567
而作	-10.5568
執對	-10.5571
自己	-10.5571
善果	-10.5572
列聖	-10.5575
憂苦	-10.5577
稽首再拜	-10.558
爲善	-10.5583
心神	-10.5589
賢者	-10.5589
定命	-10.5589
聖境	-10.5591
飛潜	-10.5594
上界	-10.5597
傳言	-10.5601
百邪	-10.5602
常有	-10.5605
丹青	-10.5611
令得	-10.5614
青童	-10.5616
災衰	-10.5618
永劫	-10.5623
吞之	-10.5628
宗親	-10.5633
言我	-10.5634
何處	-10.5636
所作	-10.5638
上通	-10.5641
口吐	-10.5646
山下	-10.5651
樵	-10.5654
嫉	-10.5654
蠟	-10.5654
於前	-10.5654
肩	-10.5655
迸	-10.5656
綿綿	-10.5656
豪	-10.5656
擢	-10.5657
丞	-10.5658
兎	-10.5658
楓	-10.5659
址	-10.566
劎	-10.566
噉	-10.5662
幼	-10.5662
亮	-10.5662
囿	-10.5663
凛	-10.5663
渺	-10.5664
天眞皇人	-10.5665
玩	-10.5669
王君	-10.5671
畿	-10.5671
髙上玉皇	-10.5671
爲汝	-10.5674
利貞	-10.5679
四百	-10.568
夫妻	-10.5681
燒香頌	-10.5684
始生	-10.5684
碧漢	-10.5684
臨軒	-10.5688
萬𩔖	-10.5695
與道合	-10.5696
名列	-10.5696
九道	-10.5698
仰謝	-10.5699
長生大帝	-10.5701
景星	-10.5702
小鬼	-10.5703
也今	-10.5705
破穢	-10.5705
修習	-10.5709
泰定	-10.5716
九獄	-10.5722
皆爲	-10.5722
而得	-10.5727
知之	-10.5733
小腸	-10.5739
消魔	-10.5741
之崇	-10.5744
仰祈	-10.5749
告齋	-10.5755
父子	-10.5757
不思	-10.5757
山嶽	-10.5757
之志	-10.5761
仰荷	-10.5764
則是	-10.5768
呼召	-10.5769
玉律	-10.5769
返本	-10.5769
事意	-10.5774
受諸	-10.5775
之謂	-10.5776
法籙	-10.5776
此一	-10.5778
品物	-10.5778
當來	-10.5781
一眞	-10.5781
憲天	-10.5789
本司	-10.5791
幽都	-10.5801
皇老	-10.5802
護身	-10.5804
吉慶	-10.5808
緋	-10.5809
蹈	-10.5823
法官	-10.5824
人各	-10.5824
嗚	-10.5826
日月星	-10.5826
嫉妬	-10.5828
妬	-10.5829
濡	-10.583
流金火鈴	-10.5832
爻	-10.5832
酣	-10.5834
捷	-10.5834
慘	-10.5835
焚燎	-10.5835
抽	-10.5836
倐忽	-10.5837
歟	-10.5838
洋	-10.5841
干戈	-10.5843
悟道	-10.5843
灌沐	-10.5845
以致	-10.5848
皆令	-10.5849
堅固	-10.5851
元和	-10.5852
十五日	-10.5852
陽之炁	-10.5854
諸符	-10.5857
鬱羅	-10.5859
黄白	-10.5859
乃可	-10.5863
總領	-10.5867
重樓	-10.5868
洪慈	-10.5868
悉令	-10.5868
社令	-10.5869
名書	-10.5871
臭穢	-10.5872
仰瞻	-10.5878
傾心	-10.5878
應時	-10.5885
右出	-10.5889
勿得	-10.589
普照	-10.5891
紫光	-10.5892
無外	-10.5893
立成	-10.5896
能爲	-10.5904
祥雲	-10.5905
佐命	-10.5907
多違	-10.5908
河海	-10.5914
其地	-10.5914
一面	-10.5916
傳云	-10.5917
不遺	-10.592
人命	-10.5921
乞降	-10.5922
八千	-10.593
流傳	-10.594
五味	-10.5943
乗空	-10.5945
作一	-10.5951
當得	-10.5963
少隂	-10.5963
天根	-10.5964
之慈	-10.5969
中三五功曹左右官使者侍香金童傳言	-10.5971
旋遶	-10.5971
見有國王	-10.5972
西山	-10.5975
常在	-10.5979
九鳳	-10.598
赤炁	-10.5987
變爲	-10.5987
眞實	-10.599
莫知	-10.5994
暦	-10.5997
衆靈	-10.5999
㓕	-10.6001
汲	-10.6003
太一救苦天尊至心朝禮	-10.6004
巫	-10.6004
搜	-10.6004
飢渴	-10.6005
緘	-10.6006
肌	-10.6007
於道	-10.6007
是用	-10.6008
竿	-10.601
皷	-10.601
稟	-10.6012
淑	-10.6013
慚	-10.6013
三省	-10.6013
治病功曹	-10.6014
葺	-10.6015
羡	-10.6016
鹽	-10.6016
緲入大乗因心立福田靡	-10.6017
中央黄	-10.602
羅絡	-10.602
經籍度師	-10.6021
達神氣和合靈官衛護	-10.6021
光耀	-10.6024
白元	-10.6025
乂	-10.6026
勾陳	-10.6028
滯爽	-10.6031
未聞	-10.6033
十善	-10.6033
山水	-10.6035
眞人寗全眞授靈寳通玄弘教水南	-10.6036
無涯	-10.6036
存神燒香香官使者左右	-10.604
未嘗	-10.6042
亦當	-10.6043
凝妙	-10.6044
傳經	-10.6046
端坐	-10.6047
二十六	-10.6048
過咎	-10.605
紫煙	-10.6061
三洞法師	-10.6062
故得	-10.6066
之格	-10.6068
皆悉	-10.6072
天柱	-10.6077
通達	-10.6088
招眞	-10.609
洞真	-10.6092
祇	-10.6094
鬼門	-10.6095
四指	-10.6104
流珠	-10.6107
北炁	-10.611
以求	-10.6119
速降	-10.6124
本始	-10.6125
等身中	-10.6125
神儀	-10.6138
神變	-10.6139
一過	-10.6139
白石	-10.614
某謹重誠上啓	-10.6142
之敬	-10.6142
自相	-10.6144
之玄	-10.6146
神室	-10.6146
混成	-10.615
豁	-10.6154
上帝勑	-10.6155
靈司	-10.6156
天災	-10.6157
子時	-10.6159
之訟	-10.616
作善	-10.6167
也凡	-10.6168
大千	-10.617
開建	-10.6171
則無	-10.6172
家有	-10.6173
踏	-10.6174
衆魂	-10.6176
二十九	-10.6177
火星	-10.6179
偉	-10.6179
罵詈	-10.6179
針	-10.6179
拾	-10.618
討	-10.618
吾當	-10.6182
坑	-10.6182
九泉	-10.6182
廼	-10.6182
取其	-10.6183
雀	-10.6184
崐崘	-10.6185
㓗	-10.6186
填	-10.6186
章表	-10.6186
下情無任	-10.6186
翫	-10.6189
梯航	-10.6192
雌雄	-10.6193
録事	-10.6193
壬辰	-10.6193
德得道之後保天長存和與道合眞	-10.6194
屠割	-10.6194
韜	-10.6195
獄五苦解悉歸太上經靜念稽首禮三禮	-10.6195
該	-10.6196
必先	-10.6197
岡	-10.6198
讃歎	-10.6198
除巳具奏諸天上帝申牒三界真司外	-10.6201
請師	-10.6202
吊	-10.6208
無異	-10.6208
如是等	-10.6209
蠲除	-10.621
陸離	-10.6213
三官大帝	-10.6213
九元	-10.6213
小劫	-10.6216
遷拔	-10.6216
長史	-10.6217
玉陛下	-10.6218
寳香	-10.6221
不出	-10.6223
冥曹	-10.6228
三惡	-10.6229
地水	-10.6231
民欲	-10.6232
千愆	-10.6236
是諸	-10.6239
丁亥	-10.6241
仙童	-10.6242
一體	-10.6243
水陸	-10.6247
九土	-10.6247
發遣	-10.6252
或云	-10.6256
髙皇	-10.6259
以水	-10.6261
城隍司	-10.6263
分爲	-10.6266
放生	-10.6267
靈寳玉鑑卷之	-10.6268
仙籍	-10.6271
無憂	-10.6272
救濟	-10.6274
𡨚對	-10.6279
宣通	-10.6283
魔試	-10.6287
表具位	-10.6292
黍	-10.6299
人倫	-10.63
道心	-10.6306
姻	-10.6307
問之	-10.631
都畢	-10.6311
已上	-10.6316
洗心	-10.632
而言	-10.6326
天魔	-10.6326
不息	-10.6331
銖	-10.6332
乃是	-10.6332
之可	-10.6333
合眞	-10.6334
五分	-10.6336
三部	-10.6338
萬事	-10.6346
三遍	-10.6346
首謝	-10.6346
度人上品妙經	-10.6352
天尊說	-10.6355
之品	-10.6355
諦	-10.6356
綬	-10.636
津液	-10.6362
泠	-10.6362
偷盜	-10.6363
積功	-10.6363
崇建某齋	-10.6364
樊	-10.6364
壬午	-10.6364
矢	-10.6365
瞋	-10.6366
主水	-10.6366
脇	-10.6367
善哉善哉	-10.6367
先師	-10.6367
刼	-10.6369
韶	-10.6369
厲	-10.6369
架	-10.637
其一	-10.6371
挽	-10.6372
布炁	-10.6372
忱恂	-10.6372
牢獄	-10.6372
彤	-10.6372
瀛	-10.6373
街	-10.6374
熈熈	-10.6375
浸	-10.6376
里域眞官	-10.6379
乞賜	-10.6384
其本	-10.6385
三徧	-10.6385
仗劒	-10.6388
三辰	-10.6389
來詣	-10.6389
醮詞伏以	-10.6392
和不可思議功德	-10.6393
灌注	-10.6395
火燒	-10.6395
傷亡符	-10.6396
求道	-10.6397
如斯	-10.6398
送迎	-10.6399
奉師	-10.64
五億	-10.6402
祥煙	-10.6402
入水	-10.6404
庶俾	-10.6404
圓明	-10.6406
大獻	-10.6407
丹悃	-10.641
下界	-10.6413
昭明	-10.6417
百寳	-10.6418
之域	-10.6421
今年	-10.6421
取炁	-10.6422
聖祖	-10.6425
人鬼	-10.6426
如上法	-10.6429
六者	-10.6432
一家	-10.6434
之情	-10.6439
又復	-10.6443
仍乞	-10.6444
一行	-10.6447
徑上	-10.6448
數日	-10.6449
玄老	-10.6451
符命告下	-10.6453
混洞	-10.6453
咸令	-10.6456
之色	-10.6459
向東	-10.646
願垂	-10.6463
求乞	-10.6467
在後	-10.647
修崇	-10.6472
之所自然生金液丹碧芝英百靈衆	-10.6475
太極左	-10.6476
得度	-10.6476
演教	-10.648
某上啓	-10.648
故爲	-10.6481
后土皇地祇	-10.6484
照燭	-10.649
直日	-10.6497
舉家	-10.6497
者即是	-10.6497
丹陽	-10.6498
言其	-10.6499
四靈	-10.6501
宫内	-10.6505
存之	-10.6506
萬仙	-10.6506
君臨	-10.6506
九章	-10.6509
眞光	-10.6511
法用	-10.6516
侍從	-10.6527
爲本	-10.6527
湛然	-10.6532
誓願	-10.6535
天真	-10.6537
膀胱	-10.6542
澆	-10.6545
熾	-10.6546
皆從	-10.6547
葷	-10.6547
昬	-10.6548
宫觀	-10.6549
𣈆	-10.655
麻	-10.6551
莽	-10.6551
甫	-10.6552
飴	-10.6552
酷	-10.6552
常當	-10.6552
馳騁	-10.6553
優	-10.6554
償	-10.6555
右手執	-10.6556
三部八景	-10.6556
析	-10.6557
稔	-10.6557
𣗳	-10.6557
法音	-10.6559
七宿星君	-10.6559
謐	-10.656
攪	-10.656
一句	-10.656
燄	-10.6561
本命元辰	-10.6561
等志心稽首禮三十六部尊經	-10.6563
洗滌	-10.6563
閉塞	-10.6563
玉府	-10.6563
疇	-10.6564
塑	-10.6565
寮	-10.6566
朱砂	-10.6568
幽寥	-10.6568
六十甲子	-10.6569
邦家	-10.6569
注訟	-10.657
轉法輪	-10.6571
太歲年月日具位姓某狀申申	-10.6572
焚香供養	-10.6573
發心	-10.6575
羣品	-10.6575
仙界	-10.6576
十方天尊	-10.6576
梵唱	-10.658
三時	-10.6582
司録	-10.6584
八荒	-10.6588
大師	-10.6589
真炁	-10.6593
周旋	-10.6596
圓滿	-10.6599
因今	-10.6599
鬼道	-10.6605
安寜	-10.6605
无窮	-10.6607
當須	-10.6608
赤文	-10.661
直入	-10.6611
校録	-10.6611
神公	-10.6612
九尺	-10.6612
元始上帝	-10.6614
土地里域眞官正神急上關啓	-10.6616
丁未	-10.6619
紫闕	-10.662
有四	-10.6621
吾遣	-10.6624
紫微宫	-10.6628
福壽	-10.6632
入靖	-10.6632
各禮師存念如法衞靈	-10.6638
咸通	-10.6641
忽然	-10.6641
師友	-10.6644
召神	-10.6644
日日	-10.6645
故炁	-10.6647
洞虚	-10.6648
玄雲	-10.6649
天羅	-10.6651
皓靈	-10.6651
就某處	-10.6653
中和	-10.6655
件	-10.6657
立春	-10.6658
和釋	-10.6665
玄景	-10.6672
髙歩	-10.6673
鑒映	-10.6674
者可	-10.6676
未悟	-10.6676
和氣	-10.6679
一千	-10.6681
修持	-10.6683
爲衆生	-10.6685
門户	-10.6687
大戒	-10.6693
天和	-10.6695
洞清	-10.6702
北鬱	-10.6709
紫氣	-10.6711
成功	-10.6714
等身中令	-10.6716
疫毒	-10.672
有形	-10.6721
太靈	-10.673
須臾	-10.6731
不能自	-10.6732
陁	-10.6733
二曰	-10.6735
誨	-10.6736
蟾	-10.6736
突	-10.6737
以是義故	-10.6738
遮	-10.6738
㐲	-10.6739
乞丐	-10.6739
峙	-10.6739
夾	-10.6739
岫	-10.674
跨	-10.6741
朱陵度命天尊	-10.6741
挑	-10.6741
斜	-10.6741
稻	-10.6741
輟	-10.6741
縮	-10.6742
炷	-10.6742
翰	-10.6744
綂	-10.6744
玲瓏	-10.6744
拒	-10.6745
魁罡	-10.6745
冊	-10.6746
戹	-10.6746
虐	-10.6747
飛龍騎吏	-10.6747
霏	-10.6748
儔	-10.6748
瀾	-10.6749
織	-10.6749
話	-10.6749
溟泠	-10.6749
𣗥	-10.6749
降臨	-10.675
槖籥	-10.6751
蹕	-10.6751
九幽拔罪天尊	-10.6752
都講舉	-10.6753
山洞府得道神仙三界官屬一切眞靈臣	-10.6753
黄籙院	-10.6754
名號	-10.6754
降下	-10.6757
翊衛	-10.6759
存神燒香	-10.6763
無垠	-10.6764
萬道	-10.6766
長短	-10.6767
雲氣	-10.6768
康寧	-10.6769
公卿	-10.6772
蛟龍	-10.6772
煙霞	-10.6774
玉笈	-10.6774
坎離	-10.6776
内景	-10.6777
丁巳	-10.6785
覆護	-10.6787
經籙	-10.6794
則能	-10.6794
攝炁	-10.6794
重玄	-10.6797
救拔	-10.6801
召靈	-10.6806
先身	-10.6813
玉篆	-10.6823
科儀	-10.6826
六氣	-10.6828
鬱鬱家國盛濟濟經道興天人同其願縹	-10.6829
所生	-10.6838
宣演	-10.6841
太守	-10.6849
隂功	-10.685
八百	-10.6852
落景	-10.6866
遊神	-10.6868
道寳	-10.6869
投龍	-10.6869
百體	-10.687
說是	-10.6871
肯	-10.6871
某官	-10.6881
不入	-10.6882
九戒	-10.6884
九微	-10.6894
小兆	-10.6896
香案	-10.69
有餘	-10.69
合德	-10.6901
白天尊言	-10.6901
三啓三禮重稱法位具位	-10.6902
苦趣	-10.6902
之英	-10.6905
譬	-10.6906
曰汝	-10.6906
之魂	-10.6909
千載	-10.6913
永度	-10.692
潰	-10.6921
釘	-10.6922
咨	-10.6925
上古	-10.6927
以傳	-10.6928
𡖖	-10.6928
飛神	-10.6928
脂	-10.6928
髻	-10.6929
不知其	-10.6929
伍	-10.6929
者有	-10.693
馘	-10.693
旂	-10.6931
渾	-10.6932
馥	-10.6933
弦	-10.6934
買	-10.6935
諾	-10.6935
㳙	-10.6935
矣若	-10.6937
驛吏	-10.6938
受化更生	-10.6938
鴻濛	-10.694
歷關諸天	-10.694
霐	-10.6941
墻	-10.6941
蔣	-10.6942
陷	-10.6942
九天生神上帝	-10.6942
駢	-10.6943
三界應感一切眞靈	-10.6944
丁丑	-10.6944
燒香然燈	-10.6946
典者	-10.6946
二捻上香願此香煙騰空	-10.6946
无上三天玄元始三炁太上道君召出臣	-10.6947
乞恩	-10.6948
飛仙眞人名山洞府得道神仙諸靈官	-10.6948
呈祥	-10.6948
宫府	-10.6948
愼勿	-10.6948
太歳年月日具位姓某狀申申	-10.6949
列宿	-10.695
昔有	-10.6955
靈根	-10.6956
不拘	-10.6957
不可以	-10.6957
二十三	-10.6957
亡故某乙	-10.6959
削罪	-10.6959
千齡	-10.6965
蒼生	-10.697
三兩	-10.6977
運行	-10.6977
狀如	-10.6981
慈悲之	-10.6986
形骸	-10.6992
靜念	-10.6993
亦名	-10.6993
神司	-10.7001
謹依	-10.7005
救人	-10.7007
終天	-10.7009
隂翳	-10.7009
朗照	-10.701
福善	-10.7012
三朝	-10.7012
一首	-10.7014
可見	-10.7019
華林	-10.702
常爲	-10.7024
群仙	-10.7024
眞慈	-10.7029
威力	-10.703
邪鬼	-10.7032
並乞	-10.704
圓光	-10.7042
隂神	-10.7044
玉樹	-10.7047
入戸	-10.7048
下情不勝	-10.7051
之屬	-10.7052
天界	-10.7056
倦	-10.7067
純陽	-10.7072
眞之德得道之後升入無形和與道合眞	-10.7075
七尺	-10.7075
遂成	-10.7076
降炁	-10.7082
天衢	-10.7086
正齋	-10.7091
福祥	-10.7092
神鬼	-10.7092
萬品	-10.7099
錬神	-10.7102
十尺	-10.7102
七情	-10.7105
亦得飛仙	-10.7106
而莫	-10.7109
安宅	-10.7114
九曜	-10.7116
向北	-10.7117
髙座	-10.7118
腐	-10.7118
裝	-10.7119
所奏	-10.712
抄	-10.7121
罪爽	-10.7121
槐	-10.7122
癩	-10.7122
太歲年月日	-10.7123
喝	-10.7124
终	-10.7126
衆等至心歸命	-10.7127
粗	-10.7127
三十五	-10.7128
雲車	-10.7128
襄	-10.713
常居	-10.713
賫	-10.7132
囂	-10.7132
次都講唱	-10.7134
濳	-10.7135
丁酉	-10.7135
彦	-10.7136
上生天堂	-10.7137
逍遥快樂天尊	-10.7138
卿司命茅君定録保命二眞人名	-10.7138
翊衞	-10.7139
庇	-10.714
儀璘	-10.7141
神丹	-10.7144
日精	-10.7144
三界官屬一切眞靈	-10.7144
坦	-10.7144
見在使陵廟墳基肅寧殃注斷絶宫宅安	-10.7145
寅卯	-10.7145
清泠	-10.7147
治在	-10.7148
通明	-10.715
上清天樞院	-10.7152
自滅	-10.7153
業垢	-10.716
南炁	-10.716
流恩	-10.716
各禮師存念如法	-10.7168
丈人三十二天帝君玉虚上帝玉帝大	-10.7169
下鬼	-10.7175
至心稽首禮三十六部尊經	-10.7179
鈎	-10.7179
瓊臺	-10.7181
不盡	-10.7182
在身	-10.7186
太无	-10.7187
玉女五帝直符直日香官各三十六人出	-10.719
衆經	-10.7191
斬之	-10.7191
大魔	-10.7192
啓運	-10.7192
日清旦	-10.7192
之影	-10.7193
中文	-10.7196
之所自然生金液丹碧	-10.72
星君北斗	-10.7203
臨目	-10.7212
天書	-10.7224
錢財	-10.7224
也人之	-10.7229
洞源	-10.723
永固	-10.723
上道	-10.7236
表白	-10.7243
南山	-10.7246
儀卷一百	-10.7251
稱善	-10.7251
巳身	-10.7252
統御	-10.7254
雲輿	-10.7259
黄老	-10.726
而立	-10.7263
燒香行道	-10.7263
靈儀	-10.7265
萬有	-10.7272
神輝	-10.7275
證果	-10.7276
此身	-10.7278
不悟	-10.7279
央	-10.729
神力	-10.7291
之懇	-10.7292
寰	-10.7292
由中	-10.7295
衞靈呪	-10.7296
或在	-10.7297
不瘥	-10.7299
今古	-10.7299
第一日	-10.7302
玄宗	-10.7304
皇極	-10.7306
北方無極太上靈寳天尊	-10.731
身入	-10.731
薪	-10.7313
董	-10.7317
醴	-10.732
扃	-10.7321
之用	-10.7321
鉛汞	-10.7322
菜	-10.7322
涕	-10.7323
龍符	-10.7323
唾	-10.7324
渠	-10.7325
啖	-10.7327
汨	-10.7328
䧟	-10.7328
竇	-10.7329
脊	-10.7329
褒	-10.7329
周迴	-10.733
手持	-10.733
閬	-10.7331
顛	-10.7331
七月七日	-10.7331
蘿	-10.7331
貧賤	-10.7332
莖	-10.7332
覧	-10.7332
掃蕩	-10.7333
福生無量天尊	-10.7333
兔	-10.7334
溷	-10.7334
篝	-10.7334
殺則	-10.7335
儻	-10.7335
太丹	-10.7335
薫	-10.7336
斿	-10.7336
僣	-10.7336
歇	-10.7337
袖	-10.7337
等身中三五功曹左右官使者侍香	-10.7338
翼翼	-10.7339
輕泄	-10.734
名山洞府	-10.734
錦帔	-10.7341
雲霞	-10.7342
還丹	-10.7342
天玉闕宣化扶敎上仙昭靈博濟髙明弘	-10.7343
之師	-10.7344
五炁天君	-10.7344
諸君	-10.7345
普爲	-10.7346
解結	-10.7346
三十二天上帝	-10.7347
灑淨	-10.7348
无量度人	-10.7348
告下具位姓某承誥奉行謹封	-10.7349
本𣲖	-10.735
七竅	-10.7351
牛馬	-10.7351
得道者	-10.7354
戊巳	-10.7354
救治	-10.7356
愛河	-10.7356
破壞	-10.7357
玉皇上帝	-10.7361
無色界	-10.7363
非法	-10.7365
俯鑒	-10.7366
玉書	-10.7367
畢又	-10.7372
奏啓	-10.7376
而入	-10.7376
萬萬	-10.738
合明	-10.7381
所告	-10.7382
十方世界	-10.7382
妖氛	-10.7385
解壇	-10.7394
齋福	-10.7395
侍燈	-10.7396
如此之	-10.7401
敷陳	-10.7402
死䰟	-10.7404
元父	-10.7404
胎息	-10.7404
都司	-10.7405
帝澤	-10.7407
形像	-10.7408
南方赤	-10.7409
請聖	-10.741
合形	-10.7413
龍駕	-10.7415
不與	-10.7415
唯有	-10.7415
明燈	-10.7415
正薦	-10.7416
上經	-10.7417
鍊質	-10.7418
亦得	-10.7419
十過	-10.7421
其餘	-10.7422
者多	-10.7425
不利	-10.7432
足躡	-10.7432
開幽	-10.7437
年月日時	-10.7441
齋堂	-10.7445
是人	-10.745
建齋行道	-10.7454
陽炁	-10.7459
六通	-10.7462
昭彰	-10.7467
之慶	-10.747
歳星	-10.7471
未見	-10.7472
大醮	-10.7473
汝今	-10.7476
九鳯	-10.7484
也然	-10.7486
自得	-10.7489
之祖	-10.7492
胎生	-10.7493
宅中	-10.7498
殺之	-10.7502
所冀	-10.7502
五逆	-10.7503
之韻	-10.7506
欲求	-10.7507
三十日	-10.7509
之惠	-10.7511
薛	-10.7511
位爲	-10.7514
先據	-10.7515
斬邪	-10.7517
其諸	-10.7518
孝子	-10.7519
入口	-10.7521
執法	-10.7522
諮	-10.7523
遜	-10.7525
傳奏	-10.7527
魍魎	-10.7528
軒轅	-10.7529
欠	-10.7529
軰	-10.753
罪目	-10.753
啼	-10.753
出家法身	-10.753
劣	-10.7533
屠	-10.7534
皆可	-10.7534
知者	-10.7534
功圓	-10.7534
燥	-10.7535
厠	-10.7536
雞鳴	-10.7536
解脱	-10.7537
吾奉	-10.7537
寐	-10.7539
刄	-10.7539
知磬	-10.7539
同仁	-10.7539
峩峩	-10.754
福報	-10.754
瞋怒	-10.7541
祭祀	-10.7543
虎豹	-10.7544
思念無量普得	-10.7545
段	-10.7545
来	-10.7545
勤渠	-10.7545
靜冲湛妙應仁惠輔國佑民洪恩眞君	-10.7546
下丹田	-10.7546
善行	-10.7547
百千	-10.755
影響	-10.7555
下入	-10.7557
而能	-10.756
相對	-10.7562
享福	-10.7562
洪州	-10.7563
具官	-10.7563
出世	-10.7567
舊典	-10.757
仰依	-10.7571
大腸	-10.7574
萬善	-10.7575
耀彩	-10.7578
符右符	-10.7579
其下	-10.758
而坐	-10.7581
解散	-10.7583
春臺	-10.7586
不倦	-10.7586
池中	-10.7588
調理	-10.759
朝天	-10.7592
朱火	-10.7593
清濁	-10.7593
鎭星	-10.7598
次上	-10.7599
稱慶	-10.7602
如人	-10.7602
朝儀	-10.7602
太虛	-10.7606
黑帝	-10.7607
火候	-10.7611
火府	-10.7611
座前	-10.7612
謹言年月日具位	-10.7614
騰空	-10.7617
今人	-10.7617
地網	-10.7617
醮詞伏聞	-10.7618
元綱	-10.7619
仙去	-10.7619
某郷貫	-10.762
官君將吏	-10.7629
眞境	-10.7629
奉迎	-10.7631
空寂	-10.7631
賢人	-10.7633
澤被	-10.7634
復生	-10.7636
垂象	-10.7637
書篆	-10.7638
火光	-10.7638
死後	-10.7639
六幕	-10.7639
生世	-10.7641
飛符	-10.7645
逐一	-10.7645
臣某與臨壇官衆等謹同誠上啓	-10.7648
承恩	-10.765
師曰此	-10.7651
眞人曰	-10.7654
玉檢	-10.7657
其炁	-10.7669
臣身中	-10.7669
大如	-10.7672
救之	-10.7684
分身	-10.7684
宣示	-10.7687
有異	-10.7688
文書	-10.7692
如在	-10.7692
師主	-10.7694
下情	-10.7703
爾時天尊	-10.7703
案上	-10.7705
不恕	-10.7707
咽之	-10.7708
之深	-10.7708
六度	-10.771
六尺	-10.7715
萬衆	-10.7716
之㫖	-10.7718
水帝	-10.772
受身	-10.772
自稱	-10.7725
瘧	-10.7726
妙齋	-10.7728
摶	-10.7731
鋉	-10.7733
疰	-10.7734
忿	-10.7737
劇	-10.7739
裹	-10.7739
滴	-10.7739
蜜	-10.774
水簡	-10.7741
幷	-10.7742
璫	-10.7742
貯	-10.7743
无上黃籙大齋	-10.7743
囘	-10.7744
飭	-10.7744
掖	-10.7745
轅	-10.7745
學上道	-10.7745
白日昇天	-10.7745
奈何	-10.7745
勑下	-10.7746
海嶽	-10.7747
梨	-10.7747
一合來下	-10.7748
無量劫來	-10.7748
懐	-10.7749
蕃釐	-10.7749
落滅惡根	-10.775
堆	-10.7751
願得長生	-10.7751
俞	-10.7752
貸	-10.7753
𡨚債	-10.7754
普令	-10.7754
梵炁彌羅	-10.7754
恭望聖慈允兹申請	-10.7754
九炁天君	-10.7754
進退	-10.7757
不修	-10.7757
衞靈	-10.7757
祭錬	-10.7759
九江水帝	-10.7759
應干合屬去處	-10.7761
圍繞	-10.7761
披心	-10.7762
左足	-10.7762
百萬	-10.7765
端拱	-10.7767
億千	-10.7767
萬邪	-10.7768
山福地主仙録君	-10.7773
率土	-10.7773
縣城隍	-10.7774
上表	-10.7775
落落	-10.7777
浩浩	-10.778
丹忱	-10.7781
香湯	-10.7781
求哀	-10.7781
解𡨚	-10.7782
龍璧	-10.7782
光輝	-10.7783
二十四獄	-10.7785
㝠曹	-10.7785
景貺	-10.7785
從今	-10.7792
生民	-10.7792
受此經	-10.7795
住宅	-10.7795
定水	-10.7795
告下具法位	-10.78
玊清	-10.7807
民情	-10.7809
隱語	-10.7809
罪愆	-10.7811
靈驗	-10.7811
三陽	-10.7817
其日	-10.7824
具法位姓某	-10.7826
在我	-10.7827
之教	-10.7829
天長	-10.783
二象	-10.783
上靈	-10.783
學道得道求仙得仙	-10.7832
頭建	-10.7837
五德	-10.7838
延命	-10.7838
丹霄	-10.7839
於玄虚	-10.784
青城	-10.7842
之咎	-10.7842
衆和	-10.7843
數千	-10.7846
攝魂	-10.7846
普救	-10.7847
后土	-10.7853
降靈	-10.7853
罪籍	-10.7859
治職	-10.7862
後從	-10.7862
凶災	-10.7866
大指	-10.7867
神機	-10.787
无上道	-10.7871
塜	-10.7871
之座	-10.7872
少年	-10.7872
室内	-10.7875
宣德	-10.7876
北極紫微大帝	-10.7884
太歲	-10.7887
香爐	-10.7887
德得道之後	-10.7889
元始天尊太上道君太上老君	-10.7894
文武	-10.7897
入靜	-10.7897
承流	-10.7897
之謂也	-10.7899
凶惡	-10.7902
爲惡	-10.7905
燒香散花	-10.7905
罪䰟	-10.7906
仙宫	-10.7909
無塵	-10.7912
飛華	-10.7913
太上曰	-10.792
奉命	-10.7921
是敢	-10.7923
受者	-10.7929
淨水	-10.7931
天綱	-10.7931
扄	-10.7935
乗龍	-10.7936
修善	-10.7938
枷	-10.7944
朕	-10.7945
空玄	-10.7945
蒲	-10.7946
𧵥	-10.7947
窟	-10.7947
𣲖	-10.7947
頽	-10.7948
徊	-10.7948
宣表	-10.7949
其間	-10.795
娑	-10.795
縷	-10.7951
叩齒三十六通	-10.7951
相去	-10.7951
岑	-10.7952
禆	-10.7952
文獻	-10.7952
誠惶誠恐	-10.7952
瑟	-10.7954
晃	-10.7955
擔	-10.7956
俠	-10.7956
丙午	-10.7956
悶	-10.7956
玉堂	-10.7957
不犯	-10.7958
鋤	-10.7958
天樞院	-10.7958
簫	-10.7958
謌	-10.7959
虛無	-10.7961
除去	-10.7961
簮	-10.7962
叩齒十二通	-10.7962
較	-10.7962
不定	-10.7963
璣	-10.7964
狄	-10.7965
丞相	-10.7966
无上黄籙大齋立成儀卷之	-10.7967
菩	-10.7968
某身原赦宿新無量罪咎矜奬即今	-10.7969
再念	-10.7971
轝	-10.7971
今謹有黄籙大齋主某	-10.7971
宿世	-10.7971
營衞	-10.7971
霑恩	-10.7974
幽牢	-10.7976
曹仙官下元	-10.7977
法性	-10.7978
不然	-10.7978
延康	-10.7978
幽途	-10.7979
投詞	-10.7981
貞吉	-10.7983
分燈	-10.7984
康泰	-10.7984
五人	-10.7986
合道	-10.7986
青絲	-10.7986
詞㫖	-10.7987
益筭	-10.7987
重稱法位具位	-10.7989
所治	-10.799
御史	-10.7991
臨壇	-10.7992
七轉	-10.7993
炁入符	-10.7998
玄圖	-10.7999
運化	-10.8
帝前	-10.8
懇切	-10.8003
黄中	-10.8004
流華	-10.8007
今者	-10.8013
精氣	-10.8018
三生	-10.802
玉晨君	-10.802
部領	-10.8021
旦夕	-10.8024
宗祖	-10.8025
懇禱	-10.8027
終始	-10.8027
奏申	-10.8028
數年	-10.803
故氣	-10.8031
山之	-10.8033
玄澤	-10.8033
雲散	-10.8034
金樓	-10.8036
但以	-10.8037
神識	-10.8038
袋	-10.8041
呈章	-10.8042
引領	-10.8042
本來	-10.8044
關功曹	-10.8053
以今奉爲某	-10.8053
品格	-10.8054
存焉	-10.8054
流霞	-10.8059
如日	-10.806
丈餘	-10.806
相與	-10.8061
並是	-10.8061
士庶	-10.8062
拜上	-10.8064
土簡	-10.8066
解悟	-10.8068
飡	-10.8069
朱衣	-10.8072
勤行	-10.8073
萬病	-10.8074
貴賤	-10.8077
玄丹	-10.808
生尸	-10.8082
司空	-10.8082
能行	-10.8082
明霞	-10.8084
之㑹	-10.809
誅之	-10.8092
拔出	-10.8093
道境	-10.8097
香林	-10.8098
結炁	-10.8109
也謂	-10.811
啓奏	-10.8118
直上	-10.8121
九厄	-10.8124
言訖	-10.8125
讀經	-10.8125
三曰	-10.8126
粒	-10.8127
之說	-10.8137
飛玄之	-10.8138
同誠上啓	-10.8141
頒行	-10.8141
聖賢	-10.8142
登齋	-10.8142
餓	-10.8142
不夜	-10.8158
即便	-10.8161
鬱單	-10.8161
汎	-10.8164
三啓頌	-10.8165
蟠	-10.8165
穰	-10.8166
懈	-10.8167
迨	-10.8167
淚	-10.8167
疲	-10.8169
詮	-10.817
火翳	-10.8172
駟	-10.8172
氤氲	-10.8172
蠢	-10.8172
偕	-10.8174
䇿杖	-10.8174
拊	-10.8174
擕	-10.8175
月光	-10.8177
陪	-10.8177
噴	-10.8177
東嶽泰山	-10.8178
旒	-10.8179
一乗	-10.8179
有石	-10.818
訛	-10.818
或於	-10.8181
神仙傳	-10.8181
帝力	-10.8181
大海	-10.8181
褁	-10.8182
綍	-10.8182
百姓子男女人	-10.8182
範圍	-10.8184
三河四海	-10.8184
混合百神	-10.8184
日積月累	-10.8185
黄華蕩形	-10.8185
未敢擅便須至申聞者右謹具狀上申	-10.8185
玉眸	-10.8186
眇眇	-10.8186
之勤	-10.8187
里社	-10.8188
香油	-10.8189
干冐	-10.8189
未可	-10.8192
萬二千	-10.8194
梵天	-10.8198
形和與道合眞	-10.8202
萬變	-10.8204
天台山	-10.8209
年月日具位	-10.8212
五緯	-10.8217
七遍	-10.8218
靈虚	-10.822
金章	-10.822
靈化	-10.8222
敷露	-10.8223
升遷	-10.8225
無令	-10.8231
慈仁	-10.8232
不墮	-10.8235
唯願	-10.8236
告符	-10.8236
空歌	-10.8237
水錬	-10.8237
統攝	-10.8237
災危	-10.8238
妙果	-10.824
則知	-10.8251
長者	-10.8256
芝壇	-10.8256
毎日	-10.8256
之難	-10.8257
宣䟽	-10.8261
百和	-10.8264
逺離	-10.8267
齋主家	-10.8267
初獻	-10.8271
律曰	-10.8271
九拜	-10.8272
騰景	-10.8276
方域	-10.8279
附告	-10.828
玉池	-10.8281
綱常	-10.8285
玉清訣	-10.8285
奏對	-10.829
星宫	-10.8292
靈府	-10.8294
馨	-10.8294
下部	-10.8294
隂生	-10.8298
清衆	-10.8306
六炁	-10.8307
元尊	-10.831
亡過某靈䰟	-10.8323
善根	-10.8325
眞科	-10.8327
經行	-10.8331
玄元之	-10.8338
一條	-10.834
爲師	-10.8342
即時	-10.8345
度品	-10.8345
安全	-10.8348
妙音	-10.8353
無名	-10.8354
九州社令	-10.8354
文章	-10.8357
悉得	-10.8363
大羅天	-10.8367
至極	-10.8368
召龍	-10.8369
法解	-10.8372
此言	-10.8374
奉爲某	-10.8374
聰	-10.8377
鬼名	-10.8377
黒書	-10.8378
誠惶誠恐稽首頓首再拜	-10.838
𥿄	-10.8381
恩愛	-10.8383
六十四	-10.8383
根源	-10.8384
籥	-10.8385
洞觀	-10.8386
偷	-10.8386
范	-10.8388
凍	-10.8388
泊	-10.8389
國中	-10.8389
燼	-10.8389
鏤	-10.8391
儉	-10.8392
豫章	-10.8392
邵	-10.8392
拭	-10.8393
三日三夜	-10.8393
鷺	-10.8393
猿	-10.8395
東方青帝	-10.8395
躁	-10.8395
元陽上品	-10.8395
邪見	-10.8395
帯	-10.8395
欎	-10.8395
拳拳	-10.8396
空常	-10.8396
翩翻	-10.8396
蒂	-10.8397
收捕	-10.8397
僊	-10.8398
靜黙堂	-10.8398
芥	-10.8398
旋繞	-10.8398
蒨	-10.8399
爲禍	-10.8399
曵	-10.84
裘	-10.84
監眞度生	-10.8401
肚	-10.8401
湛露	-10.8402
昏衢	-10.8402
長壽	-10.8403
痢	-10.8404
逈	-10.8404
匹	-10.8404
等志心稽首禮太上无極大道	-10.8405
梧	-10.8405
北魁玄範府	-10.8406
形神俱妙	-10.8406
振響	-10.8407
衆災度脫壽命延長	-10.8408
還復	-10.8409
斛食	-10.8409
稽首歸依	-10.8411
驛馬	-10.8411
眞遂成金剛體超度三界難地	-10.8412
今時	-10.8413
函上詣	-10.8414
侍香金童傳言玉女五帝直符直日香官	-10.8414
破暗	-10.8415
土星	-10.8416
醴泉	-10.8417
鶴鳴	-10.8418
辟除	-10.8418
亦然	-10.8419
去離	-10.8419
黄金	-10.842
龍車	-10.8426
若有衆生	-10.8426
廣濟	-10.8433
含識	-10.8433
謂之曰	-10.8434
亦曰	-10.8437
一物	-10.8439
地獄之中	-10.8441
來入	-10.8442
罔知	-10.8442
總眞王君太乙眞人東嶽上	-10.8445
水鍊	-10.8445
陽靈	-10.8447
不可勝	-10.8447
敷落	-10.8448
爲害	-10.8448
度亡	-10.8448
雲龍	-10.845
黙朝	-10.8451
謹詞	-10.8452
无邊	-10.8452
周廻	-10.8454
發生	-10.8454
諸大地獄	-10.8456
頭破	-10.8463
玄門	-10.8463
正真	-10.8483
次宣	-10.8483
年若干	-10.8485
引進	-10.8487
不勝激切	-10.8487
形影	-10.8489
進章	-10.8489
宫室	-10.8492
秋分	-10.8497
羅天	-10.8506
直使	-10.8508
偈頌	-10.8508
法座	-10.8509
五府	-10.851
疫癘	-10.8513
以報	-10.8513
落死	-10.8516
志心稽首禮玄中大法師重稱法位具位	-10.8516
必得	-10.8518
精勤	-10.8527
風散	-10.8535
至眞大聖	-10.8538
九錬	-10.854
不立	-10.8542
又恐	-10.8546
百六	-10.8546
隂官	-10.855
五師	-10.8552
入壇	-10.8553
此皆	-10.8557
丹華	-10.8561
不失	-10.8562
七部	-10.8567
失其	-10.857
停輪	-10.8573
隱居	-10.8573
之春	-10.8576
上獻	-10.858
之命	-10.8592
内視	-10.8593
億兆任重嵩恒道慕堯舜旣纉承於大業	-10.8601
涯	-10.8601
登山	-10.8603
聲聞	-10.8603
所修	-10.8603
應號	-10.8606
巳徃	-10.8607
蠱	-10.8611
我形	-10.8612
下三界十方	-10.8613
巴	-10.8615
敬信	-10.8615
弧矢	-10.8618
亦如是	-10.8618
呌	-10.8619
姚	-10.862
𠃔	-10.862
緊	-10.8621
蓊	-10.8621
㐫	-10.8622
㡬	-10.8623
絃	-10.8623
七十四	-10.8623
閤	-10.8623
神風	-10.8624
霓	-10.8624
湘	-10.8624
健	-10.8624
杳杳	-10.8624
八萬四千	-10.8625
無鞅	-10.8625
緩	-10.8625
怖畏	-10.8625
掣	-10.8626
南方赤帝	-10.8627
隂曹	-10.8627
仭	-10.8628
地道功曹	-10.8629
簾	-10.8629
硤石	-10.8629
泓	-10.8629
謹言年月日具位臣姓某上表	-10.8629
六龍	-10.863
飊	-10.863
頴	-10.863
羽葆	-10.863
殆	-10.8631
向來所啓之誠速達俓御	-10.8631
奎	-10.8632
寒熱	-10.8635
三炁天君	-10.8635
迷途	-10.8636
北隂	-10.8637
皇天	-10.8638
㣲	-10.8638
亡過	-10.8638
靜室	-10.8642
德得道之後保天長存	-10.8642
痒	-10.8643
皇人	-10.8646
曹局	-10.8646
百榖	-10.8647
寒池	-10.8648
侍郎	-10.8648
洞微	-10.865
過止	-10.8656
掃除	-10.8657
戊辰	-10.8658
之盛	-10.866
得道眞	-10.8661
三十六部	-10.8662
九醜	-10.8662
同歸	-10.8671
雖復	-10.8671
瓊輪	-10.8673
世網	-10.8674
筆書	-10.8679
如初	-10.868
任意	-10.8688
困苦	-10.8689
公侯	-10.869
不忘	-10.8693
敬禮	-10.8693
自覺	-10.8694
頒宣	-10.8694
數也	-10.8698
明了	-10.8698
地方	-10.8699
自知	-10.87
衆誦	-10.8701
不去	-10.8703
不去者	-10.8705
守護	-10.8707
奉受	-10.871
㝠關	-10.8714
隂關	-10.8718
之野	-10.8728
修鍊	-10.8732
金甲	-10.8735
以答	-10.8735
黄雲	-10.8745
始終	-10.8748
符一道	-10.8751
紫蓋	-10.8753
吿下	-10.8754
頌次	-10.8759
便得	-10.8764
使之	-10.8766
經科	-10.8768
七玄	-10.8768
黃籙大齋	-10.877
受罪	-10.8772
惠露	-10.8772
病苦	-10.8774
衆惡	-10.8779
西方白帝	-10.8782
第二日	-10.8782
爲齋主	-10.8785
有象	-10.8788
主吏	-10.8788
冬至	-10.8794
大將軍符	-10.8794
有赫	-10.8796
經書	-10.8796
方圓	-10.8796
兩儀	-10.8805
科律	-10.8806
无上至眞	-10.8815
八表	-10.8818
七徧	-10.8819
敕命	-10.8825
天獄	-10.8826
官僚	-10.8827
不還	-10.8831
志心朝禮大慈大悲	-10.8831
九朝	-10.8832
各隨	-10.8836
陽日	-10.8839
匱	-10.8841
徤	-10.8846
先靈	-10.8848
雕	-10.8848
霽	-10.8848
不避	-10.885
三簡	-10.885
玄範	-10.885
芙蓉	-10.8851
葱	-10.8853
帖	-10.8854
軟	-10.8854
缸	-10.8856
凢	-10.8857
纓	-10.8857
澹	-10.8858
丹心	-10.8859
當須讃歎	-10.8859
齋官上香	-10.8859
咫尺	-10.8859
廻骸起死	-10.8859
栁	-10.886
崑	-10.8861
赤明開圖	-10.8861
元吉	-10.8862
北海	-10.8862
逭	-10.8862
考掠	-10.8862
以今晚朝行道請法衆等運兹	-10.8863
據齋意	-10.8865
升入無形和與道合眞	-10.8867
恭依	-10.8867
萬八千	-10.8868
讃揚	-10.8868
擁護	-10.8869
照徹	-10.8872
頓首	-10.8873
一如靈寳玄壇律令	-10.8873
黄絹	-10.8878
真仙	-10.8878
觀身	-10.888
急速	-10.8881
而上	-10.8882
身後	-10.8884
帝圖	-10.8885
玉清寳籙	-10.8885
一尺二寸	-10.8889
謹齎	-10.8889
春秋	-10.8889
有識	-10.8891
元命	-10.8891
五千文	-10.8892
水盂	-10.8893
壬子	-10.8893
春融	-10.8898
九百	-10.8898
昇遷	-10.8898
登仙	-10.8901
安得	-10.8903
拱極	-10.8904
造像	-10.8905
炁聚	-10.8906
處士	-10.8908
科法	-10.8913
王侯	-10.8916
三十二字	-10.8916
主簿	-10.8917
宰輔	-10.8921
望恩	-10.8923
清旦	-10.8924
光景	-10.8925
度死	-10.8926
惡縁	-10.893
啓告	-10.8932
之權	-10.8935
一合下	-10.8936
記云	-10.8939
三農	-10.894
玉皇上帝御前	-10.8941
兩足	-10.8942
靈臺	-10.8943
廬山	-10.8944
玄貺	-10.8948
者見有	-10.8952
帝勑	-10.8959
急急如律令次	-10.8961
祝香	-10.8962
監壇	-10.8964
復位	-10.8965
曲垂	-10.8967
智慧頌	-10.8969
至矣	-10.8969
敷奏	-10.8978
隱文	-10.8978
一丸	-10.8981
順行	-10.8982
俱入	-10.8988
億萬人	-10.899
臨照	-10.8992
復還	-10.8993
玉燭	-10.8995
函三	-10.8995
通利	-10.9003
清靈	-10.9011
三昧	-10.9012
景福	-10.9012
赤氣	-10.9016
上清靈寳行司	-10.9022
賛引	-10.9023
五劫	-10.9025
口業	-10.9027
九皇	-10.9029
經言	-10.9037
天澤	-10.9038
不正	-10.9038
風澤	-10.904
潜通	-10.905
行道願得玉清道炁靈寳妙光下降流入	-10.9051
百六十	-10.9056
驅邪院	-10.9057
太上大道	-10.9063
臟	-10.9065
喃	-10.9069
中有一	-10.9072
尊像	-10.9074
潘	-10.9076
刑殺	-10.9077
血尸	-10.9077
朝行道	-10.9077
救療	-10.9078
具奏	-10.9079
大兵	-10.9081
狹	-10.9081
吁	-10.9082
侮	-10.9082
妙光	-10.9085
握固	-10.9086
處處	-10.9086
華旛	-10.9086
誣	-10.9086
飛登	-10.9087
庻	-10.9088
無鞅數衆	-10.9089
术	-10.909
廽	-10.909
昆	-10.9091
寫經	-10.9091
螭	-10.9091
戊己	-10.9092
謹封方函	-10.9093
丹簡	-10.9094
𩥵	-10.9095
笙	-10.9095
乞爲	-10.9095
志心歸命	-10.9095
溟涬	-10.9095
浙	-10.9097
誠惶誠恐稽首頓首伏念	-10.9099
獅座	-10.91
蘋蘩	-10.91
紛葩	-10.91
冶錬	-10.91
以是因縁	-10.91
叚	-10.9103
杳㝠	-10.9103
玄都玉京	-10.9104
伺候	-10.9104
曁	-10.9106
毎省惕於眇躬道俗凌夷淳化難振隂翊	-10.9106
喧	-10.9106
伏魔	-10.9107
屋宇	-10.9107
梵監須延天	-10.9108
監生大神	-10.9108
大運	-10.9109
宮仙官	-10.9111
清浄	-10.9113
辟邪	-10.9113
迴骸起死	-10.9114
勵志	-10.9115
鳯篆	-10.9118
變錬	-10.9119
某不勝	-10.9119
下民	-10.9121
特賜	-10.9121
榮衞	-10.9122
向王	-10.9124
九幽長夜	-10.9125
紫元	-10.9125
天慈	-10.9128
放蕩	-10.913
五穀	-10.9132
咸臻	-10.9136
魂靈	-10.9138
仰希	-10.9138
群品	-10.9138
希恩	-10.9142
丹山	-10.9144
難量	-10.9147
九天金闕明道達德大仙顯靈	-10.9148
願念	-10.9148
浴室	-10.915
一斤	-10.9151
畢竟	-10.9151
懴祈	-10.9152
天寳君	-10.9154
互相	-10.9157
之旨	-10.916
休息	-10.9164
六甲六丁	-10.9165
本位	-10.9172
小吏	-10.9173
赤色	-10.9174
開目	-10.9174
惡趣	-10.9176
發露	-10.9179
名諱	-10.9182
功德牒	-10.9182
姓某狀奏	-10.9184
酉文	-10.9184
其數	-10.9188
追取	-10.9188
莫非	-10.9189
玄祖	-10.9192
束形	-10.9193
手把	-10.9196
一卷	-10.9198
應干	-10.9201
音聲	-10.9206
耀靈	-10.9211
華陽	-10.9221
慈風	-10.9227
衆尊	-10.9227
衆苦	-10.9227
分解	-10.923
百二十曹	-10.9236
衛靈呪	-10.9237
百節	-10.9238
正面	-10.9238
頂門	-10.9239
金星	-10.9241
亦爾	-10.9242
仙家	-10.9243
重罪	-10.9249
虚靈	-10.9249
請問	-10.9249
四尺	-10.9249
十宫	-10.9251
土公	-10.9252
何有	-10.9256
青衣	-10.9257
除滅	-10.9258
向西	-10.9258
法教	-10.927
依式	-10.9272
所用	-10.9274
所宜	-10.9277
願以是功德	-10.9281
丹陽符	-10.9281
瀝	-10.9282
造諸	-10.9286
佐國	-10.9287
災咎	-10.9294
道岸	-10.93
非是	-10.9303
風行	-10.9305
死户	-10.9311
人世	-10.9316
膠	-10.9321
壅	-10.9325
左手執	-10.9327
瀉	-10.9329
墳	-10.933
評論	-10.933
燧	-10.9332
戯	-10.9333
竄	-10.9333
禮十方	-10.9334
作是念	-10.9334
之至謹稽首再拜	-10.9335
九眞妙戒	-10.9336
𢘆	-10.9336
柯	-10.9337
芬	-10.9337
沃	-10.9338
團	-10.9339
經營	-10.9339
咽喉	-10.934
清信	-10.934
歸身歸神歸命	-10.934
犂	-10.934
憇	-10.9341
韋	-10.9341
裴	-10.9341
恚	-10.9341
相合	-10.9341
曇	-10.9341
業報	-10.9343
捲	-10.9343
人志心敬禮大慈救苦真人志心敬禮大	-10.9343
笏	-10.9343
咸使	-10.9343
暝	-10.9344
今醮官某	-10.9344
定位	-10.9346
黍珠	-10.9347
金鈕	-10.9347
之𩔖	-10.9347
⬤	-10.9347
水府扶桑大帝	-10.9347
寰區	-10.9348
生萬物	-10.9348
遐邇	-10.9348
鬱鬱	-10.9348
稽首皈依無極大道	-10.9349
靈寳五師眞君	-10.9349
仙衣	-10.9349
四直功曹	-10.9349
北極驅邪院	-10.935
諦受	-10.9352
太尉	-10.9353
夣	-10.9353
席二領	-10.9356
霽月	-10.9357
二十八宿星君	-10.9357
拯濟	-10.9357
運轉	-10.9358
不宰	-10.9358
億兆	-10.936
滯魄	-10.9367
眞人信禮	-10.9368
濟濟	-10.9368
西方白	-10.9369
群魔	-10.937
關發	-10.9378
雲衢	-10.9378
三代	-10.9382
五臘	-10.9383
前件	-10.9388
玄中大法師三天大法師	-10.9396
以生成	-10.9397
立夏	-10.9399
也道言	-10.9399
世俗	-10.94
三周	-10.9401
靈妃	-10.9404
毒害	-10.9411
發放	-10.9413
不久	-10.9413
赤城	-10.9415
致使	-10.9415
一遍	-10.9417
君親	-10.942
面目	-10.942
空碧	-10.9421
貪欲	-10.9424
七人	-10.9424
弼星	-10.9433
追魂攝魄	-10.9438
宫闕	-10.9438
神呪經	-10.944
炎帝	-10.9441
遍滿	-10.9442
寳華	-10.9446
德行	-10.9447
冥關	-10.9449
觀宇	-10.945
玉臺	-10.9453
元陽經	-10.9454
道域	-10.9459
元辰	-10.946
午後	-10.946
太上无極大道至眞玉皇上帝御前	-10.9462
玉篇	-10.9466
治仙官	-10.9468
青玄上帝	-10.9469
君官將百二十人	-10.947
十八日	-10.9478
設齋	-10.9479
歩虛	-10.948
精修	-10.9483
八日	-10.9485
高上	-10.9487
土木	-10.9488
一座	-10.949
臣學道得道求仙得仙齋主受福幽顯	-10.9491
清旦行道	-10.9492
寳齋	-10.9494
聲色	-10.9497
洞映	-10.9497
天尊志心敬禮太一救苦天尊志心敬禮	-10.9499
玄女	-10.95
得免	-10.9509
禹歩	-10.9523
延長	-10.9523
頃刻	-10.9533
普召	-10.9534
具位臣姓某	-10.9538
道備	-10.9546
馳神	-10.9548
玉室	-10.9548
飛化	-10.9549
帝命	-10.9549
南方火	-10.9553
金色	-10.9557
二指	-10.9559
肘	-10.9561
聖德	-10.9562
十絶	-10.9563
於某處	-10.9566
守一之元	-10.9569
九奏	-10.9572
東西南北	-10.9573
卿雲	-10.9574
寳光以爲	-10.9574
叉	-10.9575
澄神	-10.9576
最爲	-10.9576
高眞	-10.9578
誦念	-10.9579
牘	-10.9579
遨	-10.958
鈔	-10.958
杏	-10.958
孝悌	-10.9581
祖宗	-10.9582
禽獸	-10.9582
聊	-10.9583
蜃	-10.9583
三魂七魄	-10.9584
聆	-10.9585
僉	-10.9586
尊經	-10.9587
轉輪聖王天尊	-10.9588
君一人官將百二十人	-10.9588
翺翔	-10.9589
粘	-10.959
閶闔	-10.959
疼	-10.9591
囉	-10.9591
槌	-10.9592
囑	-10.9592
撥	-10.9593
藝	-10.9593
奉爲齋主某仰謝	-10.9593
供飬	-10.9595
幣	-10.9596
譜	-10.9596
无上黃籙大齋立成儀卷之	-10.9596
純嘏	-10.9596
嚴裝	-10.9596
召攝	-10.9597
上帝敕	-10.9597
太妙至極	-10.9598
飽滿	-10.9598
上元金籙簡文眞仙品曰然燈威儀	-10.9599
驚心	-10.96
與道合眞鳴法鼓二十四通發爐	-10.96
彌綸	-10.96
今將聖德	-10.9601
恭望聖慈允兹申請特降聖㫖	-10.9601
度爲弟子某	-10.9601
司命六神	-10.9602
鐵杖	-10.9603
相連	-10.9604
娥	-10.9605
十餘年	-10.9606
干冒	-10.9606
應時下降	-10.9607
九垓	-10.9609
香華	-10.9609
寄籍	-10.9613
院宇	-10.9614
綱紀	-10.9615
承顔	-10.9617
嶽府	-10.9617
家人	-10.9618
靜黙	-10.9618
申酉	-10.9622
某誠惶誠恐稽首頓首再拜上言	-10.9622
洪澤	-10.963
濟拔	-10.9631
无色	-10.9631
九天上帝	-10.9639
丹懇	-10.9641
四季	-10.9641
延洪	-10.9642
齊并	-10.9644
列職	-10.9645
溥濟清微洞玄冲虚妙感慈惠	-10.9645
深慮	-10.9645
覺海	-10.9645
未分	-10.9646
未備	-10.9648
靈威	-10.9648
立冬	-10.9649
所召	-10.965
昭鑒	-10.965
無上三天	-10.965
家口	-10.965
年齡	-10.9655
詞旨	-10.9657
幽沉	-10.9661
南辰	-10.9662
五色雲	-10.9665
䖍恭	-10.9666
九地之	-10.9666
萬類	-10.9667
稱爲	-10.9667
八鸞	-10.9669
八遐	-10.9672
未曽	-10.9673
勤苦	-10.9677
焚香上啓	-10.968
三皈依	-10.9682
未盡	-10.9683
赤白	-10.9685
山河	-10.9686
宿對	-10.969
願以是功德歸流	-10.9691
光風	-10.9693
飛揚	-10.9693
合并	-10.97
千日	-10.9702
靈寳君	-10.9702
特與	-10.9705
遐長	-10.9711
黄房	-10.9716
十二年	-10.9716
十斤	-10.9729
猛火	-10.9729
太始	-10.9732
長新	-10.9734
星冠	-10.9738
北方无極太上靈寳天尊	-10.974
月日時生行年若干歳伏念某	-10.9741
祈福	-10.9741
南方无極太上靈寳天尊	-10.9742
玄紀	-10.9745
何由	-10.9745
疋	-10.9751
清醮	-10.9752
黃素	-10.9752
圓通	-10.9756
化作	-10.9757
無虧	-10.9758
科品	-10.9761
紫文	-10.9764
身佩	-10.9766
服御	-10.9769
萬億	-10.9769
左目	-10.9769
旌陽	-10.977
延夀	-10.977
金口	-10.9775
悉是	-10.9775
噀	-10.9775
九野	-10.9778
閉炁	-10.9779
爲某事	-10.9782
見有男女	-10.9789
所須	-10.9789
輝輝	-10.9793
便可	-10.9794
化雨	-10.98
無傾	-10.9804
應運	-10.9811
鍾山	-10.9811
宗廟	-10.9812
后妃	-10.9812
山簡	-10.982
恭願	-10.9825
泥丸宫	-10.9825
死魂符	-10.9828
叟	-10.9829
木星	-10.983
入天門	-10.983
聚魂	-10.9831
漆	-10.9832
呬	-10.9832
耿	-10.9833
稱名	-10.9833
涌	-10.9833
鈕	-10.9833
僻	-10.9836
志心信禮	-10.9839
玄機	-10.984
牖	-10.984
閃	-10.984
䆫	-10.984
瑠璃	-10.984
太上洞淵神呪經卷之	-10.9841
醫治	-10.9842
詰	-10.9842
擅	-10.9843
巵	-10.9843
結至謹狀	-10.9844
懈怠	-10.9846
郡縣	-10.9846
各二十四人出	-10.9846
曹太玄下元	-10.9846
若有善男子善女人	-10.9846
天上地下	-10.9846
粤	-10.9847
鯨	-10.9847
玉冠衣	-10.9847
注念	-10.9847
弔	-10.9847
嵯峨	-10.9847
金籙簡文	-10.9847
眀	-10.9848
轍	-10.9849
志心敬禮隨願往生天尊志心敬禮	-10.9849
衮衮	-10.9849
赤松	-10.9849
詵詵	-10.985
千乗萬騎	-10.985
監齋大法師	-10.9851
自今月某日爲始	-10.9851
德得道之後昇入無形	-10.9851
絞	-10.9851
曹太玄中元	-10.9851
綴武	-10.9851
營衛	-10.9852
揆	-10.9853
身有光明	-10.9853
希微	-10.9854
枯骨	-10.9854
煦	-10.9855
沿	-10.9856
命禮威震雷霆澤垂雨露神通自在	-10.9857
之虞	-10.9857
䖍誠讃願賜威光鑒此忱願共諸有情同	-10.9857
上奏靈官	-10.9858
鬱秀	-10.9861
席一領	-10.9863
州社令司主者	-10.9863
溟泠大神	-10.9865
炷香	-10.9865
雲錦	-10.9867
歷代	-10.9869
十一曜	-10.9872
帝渥	-10.9877
匪由	-10.9878
青城山	-10.9878
玉磬	-10.9881
以兩手	-10.9882
退人	-10.9883
西華	-10.9883
攸司	-10.9885
太陽帝君	-10.9889
念誦	-10.9889
符焚	-10.9891
潤澤	-10.9892
制地	-10.9894
赦除	-10.9894
七寸	-10.9895
橋梁	-10.9897
某日夜	-10.9898
檢㑹	-10.9898
萬惡	-10.99
護國庇民洪恩眞君志心皈	-10.9903
恕	-10.9903
疾厄	-10.9904
守衛	-10.9908
變形	-10.9911
加臨	-10.9916
或怒	-10.9917
照破	-10.9918
宴景	-10.9918
東炁	-10.9918
華夷	-10.9922
逍遥上清	-10.9923
无英	-10.9926
九族	-10.9933
所載	-10.9936
王公	-10.9936
除蕩	-10.9944
雲臻	-10.9953
仰望	-10.9955
雲篆	-10.9955
無虞	-10.9956
子丑	-10.9957
齊臨	-10.996
淨土	-10.9962
弘慈	-10.9963
白氣	-10.9964
七過	-10.9968
太初	-10.9975
化機	-10.9981
清寧	-10.9983
方位	-11.0007
道家	-11.0007
垂恩	-11.0007
次吟	-11.0009
玉芝	-11.0011
洪水	-11.0011
上無無至眞無上無爲大道應感眞精第	-11.0012
青童君	-11.0012
來赴	-11.0016
九祖父母	-11.0019
少女	-11.0019
威德	-11.0019
三十八	-11.0019
三晨	-11.0023
北方黒帝	-11.0023
應物	-11.0024
所由	-11.0042
皆須	-11.0042
不吉	-11.0054
無期	-11.0054
破獄符	-11.0054
志心皈命	-11.0057
玄慈	-11.0057
刑獄	-11.0057
七祖父母	-11.0061
色界	-11.0063
地分	-11.0064
入法門	-11.0075
從容	-11.0082
六職	-11.0082
㓜	-11.0092
長年	-11.0094
伽	-11.0094
蟬	-11.0094
夏禹	-11.0095
齋直	-11.0097
寳華圓滿天尊	-11.0098
直下	-11.0098
糜	-11.01
蓮華	-11.0102
捍	-11.0103
志心奉請	-11.0104
轗軻	-11.0105
袂	-11.0105
暘	-11.0105
蔡	-11.0105
惻	-11.0106
晻	-11.0106
竺	-11.0106
璈	-11.0107
以今清旦行道請法衆等運兹	-11.0107
𠂻	-11.0107
冨	-11.0107
書寫	-11.0107
踊躍	-11.0107
紗	-11.0108
将	-11.0108
滑	-11.0108
章具法位上言謹按文書	-11.0109
攀戀	-11.0109
凢夫	-11.011
冨貴	-11.0111
㑹稽	-11.0111
社稷尊靈	-11.0111
鶉	-11.0111
鳯凰	-11.0111
巾笥	-11.0111
蘂笈	-11.0111
解𡨚釋結	-11.0112
巍峩	-11.0112
𡨚親平等	-11.0112
恭望道慈	-11.0112
玉清降福天尊志心敬禮尋聲救苦天尊	-11.0113
熱惱	-11.0114
宣詞按如詞言	-11.0114
四念同志學人早得仙道更相開度	-11.0115
財寳	-11.0115
天花	-11.0116
嘯詠	-11.0116
殷	-11.0117
蒭	-11.0117
縱横	-11.0118
諸省府院司	-11.0118
天罡大聖	-11.0118
登道岸	-11.0118
七世父母	-11.0119
澄湛	-11.0119
上保上傅太平下教二十四眞人西城	-11.0119
一炁天君	-11.0119
疵癘	-11.0119
寰瀛	-11.012
太妙	-11.012
各稱法位	-11.012
皈無上道志心皈命禮	-11.0121
元始天王	-11.0121
籌	-11.0121
米一石二斗	-11.0121
長七寸	-11.0121
激越	-11.0122
曹僚	-11.0122
毒蛇	-11.0123
赤松子	-11.0124
普掠	-11.0124
服氣	-11.0124
司判官志心敬禮	-11.0124
炎炎	-11.0125
佐助	-11.0126
邦國	-11.0129
北極大帝	-11.013
佩奉	-11.013
干冒聖威下情无任惶懼之至謹狀	-11.0131
狀式	-11.0131
中元玉籙簡文神仙品曰詣師威儀當	-11.0132
因緣	-11.0135
無際	-11.0135
啓請	-11.0136
違律	-11.0138
九天生神天尊	-11.014
騰勝	-11.014
之粹	-11.0145
引導	-11.0145
臣等身中即使玄壇清淨内外成眞天	-11.0146
虛皇	-11.0148
靖廬仙官	-11.0149
升仙	-11.0151
所致	-11.0156
拯拔	-11.0161
飛翔	-11.0167
瀝懇	-11.0169
太霞	-11.0174
續命	-11.0182
沉魂	-11.0186
沖和	-11.0188
▲▲▲	-11.0189
設拜	-11.0189
隂暗	-11.0192
泥九	-11.0197
九老	-11.0199
甚深	-11.0199
腹中	-11.0199
有一人	-11.02
帝座	-11.0206
塵勞	-11.0209
下項	-11.0209
眞戒	-11.021
無侵	-11.0216
何等	-11.0222
俯降	-11.0225
幽路	-11.0229
制伏	-11.023
修齋直	-11.0231
五賊	-11.0234
飛霄	-11.0242
㝠官	-11.0243
禀命	-11.0245
召䰟	-11.0246
炎精	-11.025
謹具	-11.0252
凡欲	-11.0254
佩身	-11.0255
脾神	-11.0256
三竒	-11.0265
寳範	-11.0265
八圓	-11.0272
洞元	-11.0274
白色	-11.0277
仁恩	-11.0278
古法	-11.0278
不死之	-11.0281
乗景	-11.0284
照㑹	-11.0294
護命	-11.0294
圓方	-11.0296
各依	-11.0298
靜定	-11.0299
而化育	-11.0299
根塵	-11.03
玉京山	-11.0304
前來	-11.0306
六害	-11.0307
永享	-11.0318
今奉爲	-11.0322
却入	-11.0324
八海	-11.0329
紀字	-11.033
再生	-11.0332
老病	-11.0334
冥心	-11.0338
命根	-11.0342
交㑹	-11.0345
尺二寸	-11.0346
玄壇天帝神君當召此間土地里域眞官	-11.0346
瑞炁	-11.0347
盂	-11.0353
明鏡	-11.0353
死戸	-11.036
忍辱	-11.0367
眉間	-11.0367
于後	-11.0368
棒	-11.0368
矅	-11.0368
覔	-11.0369
硯	-11.0369
决	-11.037
矩	-11.0371
摽	-11.0372
復何	-11.0372
猪	-11.0372
釣	-11.0373
子母	-11.0373
壺	-11.0373
桃康	-11.0374
邃	-11.0375
醒	-11.0375
左右龍虎君	-11.0376
趍	-11.0376
贈	-11.0376
仞	-11.0377
哲	-11.0377
謨	-11.0379
清衆運誠	-11.038
濃	-11.038
洋洋	-11.038
佛	-11.038
時刻昇遷	-11.0381
杜光庭	-11.0381
棟	-11.0381
三途五苦	-11.0381
一行官吏	-11.0381
億劫種親	-11.0381
嬪	-11.0382
告文太上符命告下	-11.0382
淹	-11.0384
兌	-11.0384
剡	-11.0384
一夕	-11.0385
鳳凰	-11.0385
逓	-11.0386
昻	-11.0386
三官九署	-11.0386
西王母	-11.0386
靡法輪昇七祖生天堂我身白日騰	-11.0386
時刻升遷	-11.0386
桐	-11.0387
流火之庭	-11.0387
貪慾	-11.0389
司命司録	-11.0389
受其發揚萬物滋生國儲民豐九	-11.0389
刹	-11.039
貴人	-11.0391
嚼	-11.0392
香一斤	-11.0392
北斗七星	-11.0393
採藥	-11.0393
同登福境	-11.0394
芝蘭	-11.0396
受三洞	-11.0396
十苦	-11.0398
曷俾	-11.0399
籙齋用	-11.04
玉暦	-11.0401
不侵	-11.0403
職司	-11.0403
直日香官	-11.0404
陽縣	-11.0404
復歸	-11.0404
邪淫	-11.0405
青玄老君	-11.0405
髙躋	-11.0406
癸未	-11.0407
參差	-11.041
十方無極世界	-11.041
從何	-11.0412
夫婦	-11.0413
物外	-11.0414
地上音	-11.0416
諸凡夫一切衆生	-11.0416
罔極	-11.0416
結尾	-11.0416
端嚴	-11.0418
施惠	-11.0425
仰承	-11.0432
豈可	-11.0434
回旋	-11.0435
凌空	-11.0435
玄師前	-11.0436
諸天大聖	-11.0439
十八年	-11.044
臨午	-11.044
罪簿	-11.0444
業機	-11.0447
還元	-11.0449
敬奉	-11.0449
罪結	-11.0451
棲神	-11.0455
不專	-11.0455
定慧	-11.0459
妙樂	-11.046
三彭	-11.046
衍慶	-11.0463
瓊林	-11.0464
相隨	-11.0464
委炁	-11.0466
十方大聖	-11.0467
香官	-11.0467
廣覆	-11.0467
隱顯	-11.0468
相交	-11.0469
但見	-11.047
千枝	-11.0477
宻呪曰	-11.0484
身亡	-11.0486
孰能	-11.0486
頒降	-11.0487
濟苦	-11.0487
紫禁	-11.049
魔精	-11.0492
雲軿	-11.0494
咸蒙	-11.0502
魄將軍	-11.0507
不獲	-11.0507
帝郷	-11.0513
月魄	-11.0517
次讀	-11.0517
降伏	-11.0517
拜手	-11.0519
拜奏	-11.0521
一切神靈	-11.0522
表白宣	-11.0523
害人	-11.0524
火急	-11.0527
轉誦	-11.0531
珍寳	-11.0534
坐起	-11.0537
筆墨	-11.0542
崇修	-11.0543
司官吏	-11.0543
次思	-11.0549
鬼魔	-11.0551
結節	-11.0556
靈泉	-11.0558
正坐	-11.0558
異香	-11.0562
關牒	-11.0565
服色	-11.0572
千餘	-11.0573
不怠	-11.0575
南方丹	-11.0576
祝呪	-11.0576
玄綱	-11.0577
受煉	-11.0584
妖精	-11.0587
萬壽	-11.0596
下副	-11.0598
賢聖	-11.0602
三天大法師	-11.0604
濟人	-11.0604
二千	-11.0605
芝英百靈衆眞交㑹在此香火爐前令臣	-11.0606
救苦眞人志心朝禮大慈大悲大惠眞人	-11.0611
歌曰	-11.0612
開度祈	-11.0615
滅除	-11.0616
陞壇行道之所自然生金液丹碧	-11.0622
何故	-11.0627
問曰何謂	-11.0628
至理	-11.063
通幽	-11.0631
錬魂	-11.0633
不審	-11.0633
毗	-11.0639
道術	-11.0639
𦋇	-11.0641
稱法位	-11.0641
綴	-11.0643
垓	-11.0644
朝宗	-11.0646
贍	-11.0647
皮膚	-11.0647
優游	-11.0649
鬢	-11.0649
喫	-11.0649
跛	-11.0649
霆	-11.0651
不勝䖍祝之至	-11.0652
樓閣	-11.0653
搏	-11.0655
髙上神霄玉清眞王	-11.0655
盥	-11.0655
真人志心敬禮	-11.0655
霖	-11.0656
潛	-11.0656
模	-11.0657
臣某等上啓太	-11.0658
風火無停	-11.0658
瘵	-11.0658
傷亡復舊還形	-11.0659
藪	-11.0659
坊	-11.0659
肆覲	-11.066
風披拂	-11.066
六丁六甲	-11.0661
茯苓	-11.0661
江湖	-11.0662
君一人官將百二十人上請	-11.0662
喜怒	-11.0662
石景水母	-11.0662
峰	-11.0662
恩惟太上	-11.0663
灌溉	-11.0663
棊	-11.0663
綱維	-11.0666
迂	-11.0666
璞	-11.0667
君降大慈之恩流	-11.0667
北方黒	-11.0667
倪	-11.0667
願五嶽各安其方巍巍包藏長爲仙宫安	-11.0668
德配乾坤功叅日月神通妙用正直	-11.0668
充盈	-11.0668
厄㑹	-11.0668
靈化梵輔天	-11.0669
障礙	-11.0669
文曲	-11.067
關盟	-11.0671
廟貌	-11.0671
凡夫衆生	-11.0671
俗人	-11.0672
清萬魔不干眞誠上徹令	-11.0672
遷賞	-11.0672
恭望聖慈允茲申請	-11.0674
拔度某人靈䰟	-11.0674
天帝合眞	-11.0674
行道請法衆等運兹	-11.0674
紫微上宫	-11.0675
勑符呪唵吽吽	-11.0677
太𡻕	-11.0677
長生不死	-11.0677
庚辰	-11.0677
卯酉	-11.0677
金庭	-11.0678
課	-11.0678
未甞	-11.0679
要在	-11.0682
深重	-11.0684
進呈	-11.0686
江海	-11.0686
五道大神	-11.0689
二品	-11.069
旣畢	-11.069
塵世	-11.0691
沉迷	-11.0691
酆都大帝	-11.0692
九龍符	-11.0693
捻	-11.0694
兩舌	-11.0696
離坎	-11.0697
鬼王等	-11.0698
銷平	-11.0699
瑶圖	-11.0699
忠良	-11.0702
斗印	-11.0703
覆育	-11.0704
靈祇	-11.0705
燃燈	-11.0705
吟詠	-11.0705
南陵	-11.0708
曷遂	-11.071
夏至	-11.0713
交泰	-11.0714
家門	-11.0718
甲子日	-11.0724
辟非	-11.0724
五芽	-11.0726
千祥	-11.0726
太霄	-11.0727
䖍祈	-11.0729
九鍊	-11.073
宰制	-11.0733
噀水	-11.0734
視聽	-11.0741
設禮	-11.0746
炁吹符	-11.0746
節度	-11.075
立秋	-11.0754
亡爽	-11.0758
太上三尊十方衆聖	-11.076
不染	-11.076
佩服	-11.0764
預告	-11.0765
離合	-11.0772
林木	-11.0772
三茅	-11.0777
敷羅	-11.0777
救物	-11.0777
功滿	-11.0782
眞明皇道君三十六部尊經玄中大法師	-11.0782
不窮	-11.0784
十遍	-11.0788
開皇	-11.079
錫慶	-11.0793
兩目	-11.0798
今有某	-11.0809
入符中	-11.081
㝠司	-11.0812
君五人	-11.0817
剛風	-11.0824
醮禮	-11.0831
法筵	-11.0836
地獄苦	-11.0845
壷天	-11.0846
四千	-11.0846
天錫	-11.0848
儀卷二百	-11.0848
黒炁	-11.0853
太極眞人曰	-11.0868
召將	-11.088
酆都山	-11.0882
無滯	-11.0887
願諸凡夫	-11.0892
復六十日	-11.0893
變通	-11.0911
拳	-11.0916
諫	-11.0918
殺害衆生	-11.0918
諶姆	-11.0919
之考或有	-11.092
帝車	-11.092
上京	-11.0923
豹	-11.0926
籟	-11.0928
肢體	-11.0928
渇	-11.0929
百尺	-11.0929
彊	-11.093
冕	-11.0932
亊	-11.0932
之厄次解	-11.0937
喘	-11.0937
筋骨	-11.0937
伴	-11.0937
翮	-11.0937
畫一	-11.0938
叢	-11.0938
燒灰	-11.0938
批	-11.0939
罕	-11.094
宿縁	-11.0941
大元帥	-11.0941
顆	-11.0941
今日道場大衆人各運心	-11.0941
腰帶	-11.0941
白帝侍魄	-11.0941
芻	-11.0942
𤑔	-11.0942
迍	-11.0942
供給	-11.0943
閽	-11.0944
系	-11.0944
犴	-11.0944
庵	-11.0944
𩲸將軍明承符命追攝	-11.0944
桑梓	-11.0944
丙申	-11.0945
赴旛受度焚符太乙救苦天尊謹召	-11.0945
金闕化身天尊	-11.0945
鬚	-11.0946
諸靈官伏聞	-11.0947
三河	-11.0947
綜	-11.0947
恪遵	-11.0947
訊	-11.0947
遨遊	-11.0947
丙寅	-11.0947
香官使者	-11.0948
軿頌	-11.0948
圜扉	-11.0948
如意萬司	-11.0948
崇建无上黄籙大齋	-11.0948
也科曰	-11.0949
東方八天	-11.0949
桓	-11.095
五念九親和睦好尚仁義貴道賤財行	-11.095
培	-11.0951
炁三口	-11.0951
運應滅度	-11.0953
懺	-11.0953
壬午年	-11.0954
勇猛	-11.0954
弭	-11.0954
罪過	-11.0954
上明天尊	-11.0954
惕	-11.0954
朔單	-11.0955
無氛穢地絶妖塵琳琅振響十方肅	-11.0955
恢張	-11.0956
具位姓某謹據齋意	-11.0957
雍熈	-11.0958
門下君一人官將百二十人上請	-11.0959
寸二分	-11.096
信向	-11.0961
行道之所自然生金液丹碧芝英百靈衆	-11.0963
遠近	-11.0967
願得太上	-11.097
大聖元始天尊	-11.0974
破軍	-11.0974
目前	-11.0976
北魁	-11.0977
送聖	-11.0978
無上三天玄元始三炁太上老君召出臣	-11.0978
猶慮	-11.098
鍊化	-11.0981
姓某狀	-11.0984
之氣諱	-11.0986
祝融	-11.0986
豐登	-11.0988
急急如玉清	-11.099
凝玄	-11.099
紅塵	-11.0994
仙妃	-11.0995
障難	-11.0995
提封	-11.0996
流祥	-11.0997
皇皇	-11.0998
真宰	-11.0998
異常	-11.0999
震動	-11.1
昭融	-11.1001
仰觀	-11.1004
升沉	-11.1005
微塵	-11.1005
妙嚴	-11.1006
玉帛	-11.1006
此謂	-11.101
冲和	-11.1015
閉口	-11.1017
帝業	-11.102
江南	-11.1023
不衰	-11.1024
變成	-11.1024
廬在	-11.1027
一切神明	-11.1027
侍職	-11.1029
結習	-11.1033
禮誦	-11.1035
風馳	-11.1035
隨機	-11.1039
君内名	-11.104
微呪曰	-11.1042
印印	-11.1042
百昌	-11.1044
死之訟	-11.1044
須延	-11.1046
福祐	-11.1053
滿口	-11.1058
無影	-11.1065
羣仙	-11.1066
犯觸	-11.1069
返魂	-11.107
共相	-11.1073
降真	-11.1074
肅建	-11.1077
海龍王	-11.1079
俄而	-11.1081
凝精	-11.1087
消平	-11.1096
賛化	-11.1101
九天之上	-11.1102
東斗	-11.1105
米五斗	-11.1112
輝煥	-11.1112
仙卿	-11.1115
福祉	-11.1117
克獲	-11.112
章具法位	-11.1121
莫知其	-11.1124
九河	-11.1126
所指	-11.1129
介福	-11.113
普施	-11.1131
終劫	-11.1133
安靜	-11.1139
苦痛	-11.1141
羣靈	-11.1144
十六字	-11.1144
時刻	-11.1147
章一通	-11.1148
君父	-11.115
錦衣	-11.1154
蒙福	-11.1159
福境	-11.116
正直	-11.1165
禳災	-11.1167
明眞科	-11.1172
无極世界	-11.1174
奉爲齋主某	-11.1175
混化	-11.1175
文昌	-11.1179
輔星	-11.1192
太玄都省	-11.1195
死䰟符追	-11.1209
中央黃	-11.121
廡	-11.1214
四十六	-11.122
粥	-11.1222
拷	-11.1226
脯	-11.1226
諂	-11.1227
漁	-11.1227
涉	-11.1228
满	-11.1229
乗虚	-11.1231
溝	-11.1231
祿	-11.1231
人各恭敬	-11.1232
彫	-11.1233
鷹	-11.1233
善男子善女人	-11.1233
遯	-11.1234
勛	-11.1235
飲酒食肉	-11.1236
唇	-11.1237
繪	-11.1238
韞	-11.1238
庚午	-11.1238
掌醮司	-11.1238
恭望洪慈	-11.1239
禮此懴文五體投地	-11.1239
犢	-11.1239
峭	-11.1239
潢	-11.1239
度世司馬大神好生韓君丈人	-11.1239
上官典者	-11.1239
鐶	-11.1239
母子	-11.124
秤	-11.124
靈書中篇	-11.124
徇	-11.124
檻	-11.124
神寳君	-11.124
翦	-11.124
赦宥	-11.124
九老仙都	-11.1241
斂	-11.1241
長一尺二寸	-11.1242
墠	-11.1242
臣等皈身皈神皈命	-11.1242
翅	-11.1242
覩見光明	-11.1242
九祖七玄	-11.1243
漸漸	-11.1243
嗔怒	-11.1243
彛	-11.1243
百脉	-11.1243
速逹俓御太上无極大道至眞玉皇上帝	-11.1245
南極長生大帝	-11.1245
尋聲救苦	-11.1245
陽造隂謀	-11.1245
社稷尊靈宗祧先聖	-11.1246
敢不上聞	-11.1246
髙虚清明天	-11.1247
田蠶	-11.1247
煙飛空髙澄䕃覆玄玄隱	-11.1247
釀	-11.1249
某嶽先生	-11.1249
方无極飛天神王長生大聖无量度人君	-11.125
建齋有期移文到日部衞前來領受功德	-11.125
兵戈	-11.1252
飛浮元始集神天地交周	-11.1252
至眞無極大道	-11.1252
如彼	-11.1255
得道之後升入無形	-11.1256
聖像	-11.1258
上三尊願以是功德皈流	-11.1259
右件	-11.1261
學道者	-11.1262
一切有情	-11.1262
存殁	-11.1262
萬災	-11.1266
種植	-11.1266
戊子	-11.127
某與臨壇官衆等謹同誠上啓虚无自然	-11.1271
長九寸	-11.1278
矣夫	-11.1281
飛天使者	-11.1281
未審	-11.1282
氷清	-11.1282
籲天	-11.1283
資福	-11.1283
駐景	-11.1285
敷揚	-11.1286
玉珮	-11.1287
五帝直符	-11.1287
三十七	-11.1287
聽受	-11.1291
首體投地仰依太上三尊願以是功	-11.1293
鳳篆	-11.1295
統制	-11.13
消愆	-11.1301
京師	-11.1305
太子諸王	-11.1309
慈愛	-11.1312
罪累	-11.1313
圓象	-11.1317
禱祈	-11.132
雷公	-11.1321
辛巳	-11.1321
雲層	-11.1324
怡神	-11.1324
天尊號	-11.133
周遍	-11.1335
昇平	-11.1338
藏府	-11.1346
祕法	-11.1347
秘法	-11.1347
大洞眞經	-11.1348
陰陽	-11.1357
方輿	-11.1361
萬宇	-11.1365
仙仗	-11.1369
太上無無至眞無上無爲大道應感	-11.137
事訖	-11.137
回耀	-11.1372
玄壇天帝神君當召此間	-11.1373
四夷	-11.1374
關祝	-11.1374
災祥	-11.1381
最靈	-11.1387
崇奉	-11.1389
到處	-11.139
是夕	-11.1395
休門	-11.1402
建功	-11.1402
朝拜	-11.1402
消亡	-11.1409
追度	-11.141
得受生	-11.141
希夷之	-11.1419
禳通用	-11.1425
霍山	-11.1438
金花	-11.1443
隨力	-11.1445
中央黄帝	-11.1451
宻運	-11.1453
乙卯	-11.1457
金房	-11.1469
雷雨	-11.1473
春分	-11.1473
消散	-11.1473
獲奉	-11.1479
瓊章	-11.1479
齋官某	-11.1488
穢濁	-11.1489
煉度	-11.1491
沾恩	-11.1495
讎	-11.1496
幽𡨋	-11.1497
一點	-11.15
妖惡	-11.1502
廣成先生	-11.1514
急急如上帝勑	-11.1523
凈	-11.1524
宦	-11.1525
眸	-11.1525
猒	-11.1526
真君九天	-11.1526
曝	-11.1529
憚	-11.1529
太上玉經隱注曰	-11.1529
守雄抱雌二大將	-11.1532
枯朽	-11.1533
滄海	-11.1533
懲	-11.1534
𧷤	-11.1534
恵	-11.1535
庠	-11.1537
惡口兩舌	-11.1537
岐	-11.1539
稀	-11.1539
三清上聖十極髙眞	-11.154
蕆	-11.154
蕘	-11.154
於黄混	-11.1542
甦	-11.1542
首過	-11.1542
踰	-11.1543
悼	-11.1544
隨機赴感	-11.1544
玄一三眞人	-11.1545
紛紛	-11.1545
燒香散華	-11.1545
雞犬	-11.1546
檢校	-11.1546
輯	-11.1546
眩	-11.1546
穢慢	-11.1546
扣齒	-11.1547
靈寳監齋大法師眞君	-11.1547
煥赫	-11.1547
璇璣玉衡	-11.1547
萬變混沌玄元老君	-11.1547
徨	-11.1548
十餘里	-11.1548
寒冰	-11.1548
皁	-11.1548
受錬更生	-11.1549
靴	-11.1549
徙	-11.1549
今以至心回向大道歸依天帝委命至眞	-11.155
肅建玄壇	-11.155
具位姓某狀申申	-11.1551
縫	-11.1551
鋪設	-11.1551
亡過某乙	-11.1551
遭逢	-11.1552
酒肉	-11.1552
根刷	-11.1553
好生度命天尊	-11.1555
繡衣	-11.1556
黄色	-11.1556
上聖髙眞	-11.1557
洎乎	-11.1558
晨夕	-11.1558
薩	-11.1558
河洛	-11.1559
遭遇	-11.1562
門下君一人官將百二十人上請天曹勑	-11.1563
寰中	-11.1564
凶衰	-11.1567
顔色	-11.1571
碧霄	-11.1572
充滿	-11.1572
某月日	-11.1576
迎祥	-11.1577
十方飛天神王	-11.1577
湛寂	-11.1581
徧滿	-11.1583
車馬	-11.1585
列位眞人	-11.1586
長庚	-11.1588
𡨚親	-11.1588
削除罪	-11.1589
客塵	-11.159
二官直使正一功曹左右官	-11.159
訟訴	-11.159
具法位臣	-11.1591
等皈身皈神皈命首體投地仰依太上三	-11.1593
護送	-11.1597
慈恩	-11.1597
潔已	-11.1598
對揚	-11.16
宣讀	-11.1601
養育	-11.1606
六寸	-11.1606
飛鳥	-11.1608
某謹同誠上啓	-11.1608
種親	-11.1609
等謹同誠上啓	-11.161
上件	-11.161
開闢	-11.1614
月十三日	-11.1614
䟽云	-11.1615
髙拱	-11.1615
預修黄籙	-11.1618
伏尸	-11.1625
清夷	-11.1631
捨身	-11.1633
聖夀	-11.1634
必須	-11.1636
監度	-11.1642
容止	-11.1642
與臨壇官衆等謹重誠上啓	-11.1643
妄語	-11.1646
良因	-11.1648
相歡	-11.1658
垂科	-11.166
必應	-11.1661
謂曰	-11.1664
昭然	-11.1665
未兆	-11.1681
玉輿	-11.1683
徃徃	-11.1693
答言	-11.1694
恭啓	-11.1695
位列	-11.1701
定志	-11.1702
篆文	-11.1702
老君曰	-11.1704
關報	-11.171
威嚴	-11.1715
辰巳	-11.1738
祕訣	-11.1753
救民	-11.1757
道德經	-11.1759
與臨壇官衆等謹同誠上啓	-11.1761
諷誦	-11.1765
上答	-11.177
覺地	-11.1784
聖胎	-11.1784
雲臺	-11.1794
小童	-11.1807
重稱法位	-11.1812
響應	-11.1819
味甘	-11.182
脣	-11.1822
司命君	-11.1826
學道得道求仙得仙齋主受福幽顯	-11.1828
風扇	-11.183
縊	-11.1831
歩斗	-11.1831
杵	-11.1839
敘	-11.1841
什	-11.1841
綉	-11.1841
譯	-11.1842
癸酉	-11.1845
青帝護魂	-11.1845
三啓三禮	-11.1846
坐在立亡	-11.1846
卵	-11.1846
咽液三過	-11.1846
罩	-11.1846
覊	-11.1847
叩齒七通	-11.1847
法天象地	-11.1847
抃	-11.1847
旻	-11.1848
伏惟陛下	-11.1848
璀璨	-11.1848
君五人官將百二十人	-11.1849
祠宇	-11.1849
渙	-11.1849
雉	-11.1849
攘	-11.1849
兩眉間	-11.1849
黒帝通血	-11.185
稽顙	-11.1851
五月五日	-11.1851
伎	-11.1851
肌膚	-11.1851
㗸	-11.1851
瑛	-11.1852
伊	-11.1853
郡人	-11.1853
冒犯聖威	-11.1853
孛	-11.1853
普受開度	-11.1853
孩	-11.1853
孤魂滯魄	-11.1854
隳	-11.1854
芹	-11.1854
麒麟	-11.1854
厖	-11.1854
恐怖	-11.1855
三洞四輔經籙法科	-11.1855
名山大川	-11.1856
杳冥	-11.1857
資財	-11.1857
過去未來	-11.1857
帝天中神仙和諸靈官伏聞	-11.1857
勑制地祇	-11.1858
受鍊更生	-11.1858
氐	-11.1858
壇而法象神輝𤑔香彛而關通帝闕歸命	-11.1858
遙	-11.1858
紀羣靈裁成萬化今有某精心扣地稽首	-11.1858
咏	-11.1859
開明三景	-11.1859
曹太玄上元	-11.1859
凄	-11.1859
敞	-11.1859
際天尊志心敬禮功徳海天尊志心敬禮	-11.186
七炁天君	-11.186
與天齊	-11.186
嗊嗃	-11.186
逞	-11.186
宫左府主生太陽火官	-11.1861
光八衝迸威包羅交變萬方	-11.1862
所啓速達俓御	-11.1862
丹靈朱火炎霞激風赤輪剛運天	-11.1862
賷	-11.1862
欄	-11.1863
茍	-11.1863
無想無結無愛天	-11.1863
今以至心回向大道歸依土皇委命至眞	-11.1863
自作教他心生口語	-11.1863
岩	-11.1864
玊京	-11.1864
神將吏兵	-11.1864
毀壞	-11.1864
摧毀	-11.1865
首尾	-11.1865
恭望天慈允兹奏請特降勑命	-11.1866
歷關天中度命登眞焚符	-11.1867
伏屍	-11.1867
騫樹	-11.1868
天心正法	-11.1869
丘陵	-11.1871
拯救	-11.1871
忠貞	-11.1872
玉晨君北斗	-11.1873
銀漢	-11.1873
虚耗	-11.1875
虔誠	-11.1876
天下太平	-11.1878
禱祝	-11.1879
三帀	-11.1881
天下人民	-11.1883
洗蕩	-11.1883
三斤	-11.1885
丹衷	-11.1887
萬九千	-11.1888
左右捧香驛龍騎吏侍香金童傳言散花	-11.1891
飛天神人曰	-11.1891
鬱單無量天	-11.1891
干試	-11.1892
部衛	-11.1896
詞伏以	-11.1897
逆順	-11.1898
宴坐	-11.1899
舜日	-11.19
金帛	-11.19
慧力	-11.1901
烈火	-11.1901
儼然	-11.1901
醮位	-11.1902
太玄玉女	-11.1907
轉此經	-11.1908
文檄	-11.1918
六銖	-11.1919
醮壇	-11.192
六賊	-11.1923
良善	-11.1931
五十七	-11.1933
修黄籙	-11.1934
毒藥	-11.1935
虚皇道君	-11.1938
人身中	-11.1939
出者嚴裝顯服冠帶垂纓關啓	-11.1942
丹陵	-11.1946
洞微髙士開光救苦真人寗全	-11.1961
特乞	-11.1966
不畏	-11.197
與道合眞禮方懴悔	-11.1972
諸天上帝	-11.1973
父母兄弟	-11.1975
一千二百	-11.1979
長生保命天尊志心敬禮	-11.1982
燈圖	-11.1984
流潤	-11.1987
四角	-11.2001
收除	-11.2012
九芒	-11.2038
壇席	-11.2039
前愆	-11.2058
某謹焚香上啓	-11.2062
十餘人	-11.2065
削名	-11.2069
開度亡故某	-11.2086
科典	-11.2102
吐氣	-11.2103
黃籙齋	-11.2112
俟命之至	-11.214
清微天	-11.2143
櫛	-11.2152
筌	-11.2154
吴	-11.2156
咀	-11.216
寳祕	-11.2161
價	-11.2161
瞳	-11.2162
兜	-11.2163
囬	-11.2164
熒煌	-11.2164
无上正眞大道	-11.2165
誠惶誠恐稽首頓首再拜以聞	-11.2165
輻	-11.2165
拆	-11.2166
瘴	-11.2166
悴	-11.2167
獅	-11.2167
幕神位	-11.2168
鐘磬	-11.2169
璋	-11.2169
駿	-11.2169
稽首皈依无極大道	-11.2169
塊	-11.217
糞穢	-11.217
悦	-11.2171
廪	-11.2171
亡親某乙	-11.2172
叩齒五通	-11.2173
驛龍	-11.2173
隋	-11.2173
漙	-11.2173
桒	-11.2174
陲	-11.2174
鳩	-11.2174
沓	-11.2174
倣	-11.2174
悖	-11.2176
左玄眞人	-11.2176
腴	-11.2176
𣑽	-11.2176
蕪	-11.2177
悠	-11.2177
闌	-11.2178
姪	-11.2179
須至申聞者右某謹具狀申	-11.2179
姓某謹重封	-11.2179
不勝激切之至	-11.2179
在㑹係薦	-11.218
柰何	-11.2181
餅	-11.2181
賦形以來紀録黒籍厭世之後	-11.2181
裝嚴	-11.2181
謳歌	-11.2181
繕	-11.2182
降聖司	-11.2182
聞元始開圖	-11.2183
派	-11.2183
家親	-11.2184
五靈玄老	-11.2184
鳴法皷二十四通	-11.2184
馨香	-11.2184
慈航	-11.2185
蔕	-11.2185
井竈	-11.2186
禮二十拜若	-11.2187
二千石	-11.2188
無極神郷	-11.2188
上十方香	-11.2188
整肅	-11.2189
劫仞	-11.2189
汎景	-11.2189
太倉	-11.2192
髙蹈	-11.2193
赤書玉字	-11.2195
愚衷	-11.2195
取今月某日	-11.2196
披髮	-11.2196
春夏	-11.2196
鶴赦	-11.2197
係薦	-11.2198
壇塲	-11.22
正眞三寳	-11.22
呪咀	-11.2201
催召	-11.2202
方丈	-11.2202
請詳前項事理疾速	-11.2204
得此報	-11.2204
牌位	-11.2204
沉滯	-11.2207
霄漢	-11.221
下並有	-11.2211
五斤	-11.2219
損傷	-11.222
三捻香	-11.2222
億萬衆	-11.2224
移籍	-11.2225
十枚	-11.2225
南方無極太上靈寳天尊	-11.2225
佩帶	-11.2227
不足以	-11.2234
死入地獄	-11.2234
妙義	-11.2237
背面	-11.2237
校定	-11.2238
閉息	-11.2239
八節日	-11.2241
千𡨚	-11.2243
感格	-11.2243
天帝君諱	-11.2244
仁義	-11.2245
長沙	-11.2246
年限	-11.2246
緑羅	-11.2249
洪造	-11.225
殃注	-11.225
荷恩	-11.2251
故誤	-11.226
護國	-11.2273
塵沙	-11.2273
諸侯	-11.2276
餘慶	-11.2278
准此	-11.2279
清潔	-11.2282
導從	-11.2286
塜訟	-11.2289
然後可	-11.2293
一疋	-11.2298
産死	-11.2298
難勝	-11.2298
尊貴	-11.2303
增長	-11.2311
髙澄	-11.2315
三惡道	-11.2328
還返	-11.2329
謝恩醮	-11.233
定籍	-11.2332
照對	-11.234
一斛	-11.2341
辛苦	-11.2346
垂鑒映	-11.2353
萬遍	-11.2359
某與臨壇官衆等	-11.2389
蒙惠	-11.241
掐中指	-11.2411
罪尤	-11.2416
五帝大魔	-11.2421
三捻上香願此香	-11.2437
辛酉	-11.2448
曹靈官	-11.2452
煥映	-11.2456
太清宫	-11.2463
一百八十	-11.2471
善男子若	-11.2475
禮敬	-11.2476
嚧	-11.2477
善男子眞人道士	-11.2486
憤	-11.2487
𠋣	-11.249
落景行道	-11.2491
七十五	-11.2493
幘	-11.2494
調灰下	-11.2494
蠕	-11.2496
斫	-11.2496
恬淡	-11.2497
茭郭	-11.2497
血脉	-11.2498
俊	-11.25
貪狼	-11.2501
醋	-11.2502
覓	-11.2502
綏	-11.2503
裊	-11.2503
鏘	-11.2503
長八尺	-11.2503
而容與	-11.2504
以今晚朝陞壇行道請法衆等運兹	-11.2505
稷	-11.2505
葛仙公	-11.2506
轟	-11.2506
丙辰	-11.2507
儛	-11.2507
於黄垓	-11.2508
赤帝養炁	-11.2508
火急奉行	-11.2508
撞	-11.2508
金馬驛程	-11.2509
以爲效信	-11.2509
玉眸錬質	-11.251
徯	-11.251
湧泉	-11.251
憂惶	-11.2511
椀	-11.2511
䄂	-11.2511
茫	-11.2511
荐	-11.2511
轄	-11.2512
禹餘天	-11.2512
柏	-11.2512
一如吿命	-11.2512
攬	-11.2512
挈	-11.2512
嘿	-11.2512
隙	-11.2512
太皇萬福	-11.2512
快覩	-11.2513
臓腑	-11.2513
無鞅聖衆	-11.2513
宴樂	-11.2513
簇	-11.2514
兢兢	-11.2514
旄	-11.2514
經籍度三師	-11.2515
九宫八卦	-11.2515
歸身歸神歸命大道	-11.2515
翠葆	-11.2516
樂法以爲妻愛經如珠玉持戒制六	-11.2516
虚空鑒察	-11.2516
瞻天建	-11.2516
謹具狀申	-11.2516
按如詞言	-11.2517
某靖	-11.2517
哀愍	-11.2517
庚子	-11.2518
殘害	-11.2518
兠	-11.2518
直符直事	-11.2518
皇合眞臣某等上啓	-11.2518
衿	-11.2519
夙宵	-11.2519
懴主某伏爲	-11.252
朝廷	-11.252
亶藉	-11.2522
與神同	-11.2523
閭里	-11.2527
黄籙簡文	-11.2527
混元玉札	-11.2527
章右用	-11.2531
玄牝	-11.2532
志切	-11.2534
䖍誠懴悔	-11.2534
東方無極太上靈寳天尊	-11.2535
七祖生天	-11.2535
暗曜	-11.2536
焚燒	-11.2537
延齡	-11.2537
欣慶	-11.2539
仰咽	-11.2539
録籍	-11.2541
虚妄	-11.2545
衞護	-11.2548
曲赦	-11.2549
包羅	-11.2551
潔淨	-11.2553
業障	-11.2554
敕赦	-11.2556
業網	-11.2559
上中下	-11.256
九天生神章	-11.2562
靈貺	-11.2563
塵寰	-11.2563
宿愆	-11.2568
無形和與道合眞	-11.2571
佐理	-11.2572
瓊闕	-11.2578
凡伸	-11.2578
洪災	-11.2579
疾患	-11.2582
傷害	-11.2583
官將吏兵	-11.2596
仙都山	-11.2598
吳君	-11.2598
塵垢	-11.2605
九軌	-11.2605
熒惑星	-11.2606
髙奔	-11.2611
福基	-11.2613
雌一	-11.2615
戒勿	-11.262
升壇行道	-11.2621
易失	-11.2622
醮詞	-11.2626
飛奔	-11.2633
洞達	-11.2644
降祥	-11.2646
四明山	-11.2652
月朔	-11.2665
斗訣	-11.2669
飛爽	-11.2673
午朝行道	-11.2683
名之爲	-11.2684
天尊告曰	-11.2686
丙子	-11.2696
祈禱	-11.2699
黙誦	-11.27
四十四	-11.2707
諸大衆	-11.2719
翌日	-11.2749
屏營	-11.2756
志心皈命禮	-11.2761
人僞	-11.277
皇太子	-11.2789
死之訟訴其	-11.2809
燎	-11.2829
使者隂陽神決吏科車赤符吏剛風騎置	-11.2831
臓	-11.2837
椒	-11.2837
無形無名	-11.2837
踵	-11.2837
菴	-11.2838
釜	-11.2839
堦	-11.284
百一十	-11.2841
簽	-11.2842
思念無量普	-11.2843
礪	-11.2843
熊	-11.2844
飢渇	-11.2844
苖	-11.2845
𠡠	-11.2846
糞	-11.2847
墉	-11.2848
汨没	-11.2848
嚮	-11.2849
荀	-11.2849
綃	-11.285
誌	-11.285
塘	-11.285
嗽	-11.2851
无鞅	-11.2851
捨身受身	-11.2851
䑓	-11.2852
撲	-11.2852
牓	-11.2853
奢	-11.2853
隊	-11.2853
穆穆	-11.2854
觜	-11.2854
茹	-11.2854
灌漑	-11.2855
密	-11.2856
跳	-11.2857
膿血	-11.2858
採訪	-11.2858
豬	-11.2858
稼穡	-11.2858
姧	-11.2858
天曹諸司眞君	-11.2858
衆等至心皈命无上自然	-11.2858
褥	-11.2858
之物或盜	-11.2859
猥	-11.2859
璿	-11.2859
娑訶	-11.286
諸天復位	-11.286
葳蕤	-11.286
浦	-11.286
以今午朝行道請法衆等運兹	-11.286
飛空歩虚	-11.2861
咸乞蕩除	-11.2861
長㓜	-11.2862
醮神位	-11.2862
州刺史	-11.2862
中嶽嵩山	-11.2863
跂行一切衆生咸蒙成就八念赦	-11.2863
至心稽首禮玄中大法師重稱法位具位	-11.2864
金龍驛吏	-11.2864
北隂酆都大帝	-11.2864
沐浴冠帶	-11.2864
巳奏聞諸天上帝申牒三界眞司外	-11.2864
氣候調節四運和平國安民豐普天	-11.2864
祀典	-11.2865
江水帝	-11.2866
光普照	-11.2867
流曵	-11.2867
彼岸	-11.2867
本靖官將	-11.2868
儲副	-11.2869
和往生神仙界	-11.287
壬申	-11.287
品彚	-11.2871
三塗五苦八難	-11.2872
偃月	-11.2874
濯質	-11.2874
蓮座	-11.2882
賢良	-11.2883
判官地府	-11.2887
龍尾	-11.2889
太漠	-11.2889
黄籙齋壇	-11.289
破酆都	-11.289
煥彩	-11.2891
乙未	-11.2892
蘭公	-11.2895
靈寳官屬	-11.2895
素悃	-11.2896
四溟	-11.2897
證無爲	-11.2904
宸恩	-11.2907
一粒	-11.2907
詩云	-11.291
篇目	-11.291
勸戒	-11.2911
補過	-11.2913
樹木	-11.2915
過尤	-11.2915
備嬰	-11.2915
顧惟	-11.2916
紫烟	-11.2918
眞人𡩋全眞授靈寳通玄弘教水南	-11.2923
丹禱	-11.2932
庶品	-11.2935
金鼎	-11.2936
良縁	-11.2936
二十三日	-11.2938
散彩	-11.2947
垂休	-11.2948
仁壽	-11.2951
驅邪	-11.2953
左旋	-11.2961
丈夫	-11.2969
披散	-11.297
午朝陞壇行道	-11.297
黍米	-11.2975
丹谷	-11.2976
青牙	-11.2978
性識	-11.2993
官將百二十人	-11.2997
太白星	-11.3008
癸亥	-11.3017
盟誓	-11.3018
玄奥	-11.3021
如儀次	-11.3024
昇入无形和與道合眞	-11.3026
北斗七元	-11.3046
二百四十	-11.3048
淨明院	-11.3053
一通上詣	-11.3055
本壇奉爲	-11.3055
謹爲某	-11.3064
玉皇大天尊玄穹髙上帝	-11.3084
夜夢	-11.3089
妖魔	-11.3107
憂懼	-11.3126
衣裳	-11.313
滌慮	-11.3137
朱筆	-11.3141
壽禄	-11.3143
以今奉爲	-11.3145
拔苦	-11.3158
當知是	-11.3161
地獄或入	-11.3168
了悟	-11.3172
夙夜	-11.3177
稚	-11.3193
白日升天	-11.3197
啗	-11.3199
金木水火土	-11.3199
千四百	-11.32
玉醴	-11.32
叩齒二十四通	-11.32
姹	-11.3202
魒	-11.3202
无量无邊	-11.3203
麻姑	-11.3204
蚊	-11.3205
驢	-11.3206
滄	-11.3206
凉	-11.3206
舛	-11.3206
嗣法弟子	-11.3207
傑	-11.3207
装	-11.3207
迪	-11.3207
様	-11.3208
羸	-11.3208
南嶽衡山	-11.3208
撿	-11.3209
在㑹衆魂	-11.3209
淋	-11.3209
翩翩	-11.3209
渚	-11.321
緜	-11.321
筞	-11.321
匣	-11.321
臯	-11.321
纒綿	-11.3211
三官九府百二十曹	-11.3211
黍稷非馨	-11.3211
慨	-11.3211
寗	-11.3212
迄	-11.3212
尹喜	-11.3212
驟	-11.3212
青靈始老	-11.3213
靈寳天仙内院	-11.3213
晩	-11.3213
魚鼈	-11.3214
碍	-11.3214
城郭	-11.3214
蔬	-11.3214
度仙上聖天尊	-11.3215
知見覺	-11.3215
願神願仙	-11.3215
文檄發放品	-11.3215
諸天至極上聖	-11.3215
宗祧	-11.3215
𥙿	-11.3215
萬彚	-11.3216
燦爛	-11.3216
靈童子明承	-11.3216
北都羅酆	-11.3216
盪	-11.3216
矜憐	-11.3217
腥穢	-11.3217
波羅尼宻不驕樂天	-11.3218
挺秀	-11.3218
察命童子	-11.3219
雨露之恩	-11.322
陽燧	-11.322
無上三天玄元始三炁太上道君召出	-11.322
惒	-11.322
紫微中天北極大帝	-11.322
伯叔兄弟	-11.322
僕射	-11.322
願風雨流灑無窮普加施泄	-11.3221
開啓齋壇	-11.3221
河車	-11.3222
西方八天	-11.3223
方无極太上靈寶天尊	-11.3223
疾除罪簿	-11.3223
榛	-11.3223
二願諸天結炁澄清髙虚廣覆保眞固靈	-11.3224
頒行外	-11.3224
精炁神	-11.3225
珠幢	-11.3225
束帶	-11.3226
鼻孔	-11.3226
三業紛紜	-11.3227
筆硯	-11.3228
嗔恚	-11.3229
晚朝陞壇行道	-11.3229
懴滌	-11.323
幽扄	-11.3231
徹視	-11.3231
𥙷過	-11.3231
節度使	-11.3232
廣寒	-11.3234
朗晏	-11.3235
紺	-11.324
嘉祥	-11.3241
姓某謹封	-11.3242
塵籠	-11.3242
瑶臺	-11.3242
嵩山	-11.3242
香鑪	-11.3244
參賛	-11.3244
總監	-11.3248
明皇道君	-11.3249
周帀	-11.3251
八緯	-11.3252
宿啓儀	-11.3254
長生靈符	-11.3255
侍香金童傳言玉女	-11.326
日月五星	-11.3262
皈向	-11.3263
視履	-11.3263
羅網	-11.3263
乙巳	-11.3264
鑒祐	-11.3265
華盖	-11.3272
臍下	-11.3273
宿綱清炁	-11.3274
臨億兆任重嵩恒道慕堯舜旣纉承於大	-11.3275
飛裙	-11.3277
至心稽首	-11.3283
泉源	-11.3284
三十六獄	-11.3292
祈雨	-11.3295
五方五帝	-11.33
住持	-11.332
魂爽	-11.3327
親姻	-11.3343
普濟曰	-11.3372
月八日	-11.3394
承誥奉行	-11.3399
二寸四分	-11.3406
千尋	-11.3416
等皈命之誠謹啓以聞發願	-11.3426
奏三天門下	-11.3444
等身中三五功曹左右官使者	-11.3451
紫晨	-11.3454
違科	-11.3472
卷之一	-11.3475
以昭宸貺干冒	-11.3537
司仙靈官吏	-11.3547
真君天曹	-11.3557
等身中即使玄壇清淨内外成眞天	-11.3559
幃	-11.3563
遞	-11.3568
如雞子	-11.357
啄	-11.357
疫病	-11.357
橐籥	-11.3571
如太上口勑	-11.3571
縠	-11.3571
恙	-11.3571
籖	-11.3572
鵬	-11.3572
戊午	-11.3573
胡麻	-11.3573
誇	-11.3574
榻	-11.3574
溟渤	-11.3575
鵲	-11.3576
臥	-11.3576
瞑目	-11.3577
頸	-11.3578
簷	-11.3578
翕	-11.3579
曩	-11.3579
溟濛	-11.3579
挿	-11.3579
汪	-11.3579
砌	-11.358
迢迢	-11.358
萬炁齊仙	-11.358
醜陋	-11.358
穗	-11.358
扁	-11.358
寤	-11.358
菊	-11.358
措	-11.358
蒙如丹禱	-11.3581
甄陶	-11.3581
僖	-11.3581
潦	-11.3582
券	-11.3582
協	-11.3582
攷	-11.3582
榦	-11.3582
度品南宫	-11.3583
幹	-11.3583
睿旨	-11.3583
門䦨	-11.3583
紋之繒	-11.3583
鳴法鼔二十四通	-11.3584
究竟	-11.3585
六洞十宫	-11.3585
逢昌運	-11.3585
殯	-11.3586
上清靈寳玄壇	-11.3586
狴	-11.3586
西嶽華山	-11.3586
門隆盛宗廟有人世生賢才十念尊受	-11.3587
有二種一者	-11.3587
七十二福地	-11.3587
靡法輪升七祖生天堂我身白日騰	-11.3588
昇天堂衣食自然	-11.3588
姻親	-11.3588
㮣	-11.3589
凡有皈投	-11.3589
綺言妄語	-11.3589
暈	-11.3589
迷惑	-11.3589
晃朗	-11.3589
度人无量天尊	-11.359
虹霓	-11.359
不可稱量九者遣情	-11.359
穢汚	-11.359
不可稱量五者修心	-11.359
頰	-11.359
不可稱量八者飾身	-11.359
下情無任激切	-11.359
虜	-11.3591
笥	-11.3591
同三師狀	-11.3591
須至專牒者	-11.3591
泰玄都省	-11.3591
躅	-11.3591
謄詞	-11.3592
則無爲散則彌天神仙同居結友衆眞惠	-11.3592
豁然	-11.3592
君官將百二十人治	-11.3592
伏望聖慈	-11.3593
翹勤	-11.3593
巔	-11.3593
䇿役	-11.3593
滂	-11.3594
班聮	-11.3594
飛天神王長生大聖	-11.3594
月孛	-11.3595
筆一管	-11.3598
漱口	-11.3599
垂洞鑒	-11.3599
十方巳得道大聖衆至眞諸君丈人	-11.3599
歌詠	-11.36
謝過祈恩	-11.36
殄滅	-11.3602
霞鶴服朱履長𥚑玉珮	-11.3604
赦拔	-11.3606
生成之德	-11.3607
火沼	-11.3607
金穰	-11.3608
肘後	-11.3609
蒼蒼	-11.361
最勝	-11.3611
貼黄	-11.3614
汝等男女	-11.3616
正一天師	-11.3619
沾恩十方仙童玉女侍衛蘭煙傳	-11.3625
鶴駕	-11.3626
太上无極大道至眞玉皇上帝	-11.3629
休祥	-11.363
几案	-11.3631
依咸得受生五願天下太平五榖豐	-11.3633
千妖	-11.3646
吞服	-11.3651
除愈	-11.3653
大聖衆至眞諸君丈人	-11.3681
鬼魅	-11.3684
掐訣念呪	-11.3686
炁布入	-11.3695
預以同學普得升虚與天相保長存無憂	-11.3713
臣下情無任激切之至謹奉表奏以聞	-11.3726
迴旋	-11.3757
了了	-11.3766
闕七寳玄臺紫微上宫靈寳至	-11.3773
誰能	-11.3806
季主	-11.3813
念呪七徧	-11.3816
雲擁	-11.3839
上清大洞	-11.3852
六丁玉女	-11.3869
掐訣	-11.3881
詞伏聞	-11.3881
見有皇后	-11.3911
復爐香官使者左右	-11.3915
太上老君太上丈人	-11.392
飛天神人	-11.3929
謹啓以聞	-11.3933
十三年	-11.3938
漑	-11.3944
恤	-11.3946
半斤	-11.3946
册	-11.3948
淡泊	-11.3949
爪	-11.3953
當此之時	-11.3953
瓜	-11.3954
暨	-11.3955
祼	-11.3956
鎚	-11.3956
柔弱	-11.3957
諸天諸地	-11.3958
㵸	-11.3958
徐徐	-11.3958
茭	-11.3958
疼痛	-11.3958
漲	-11.3958
回靈養素天尊	-11.3958
瘦	-11.3959
泝	-11.396
䆳	-11.396
械	-11.396
巳得道大聖衆至眞尊神	-11.3961
諠	-11.3961
踊	-11.3962
沭	-11.3962
九靈飛歩	-11.3962
兀	-11.3963
太極左仙公	-11.3963
青龍白虎朱雀玄武	-11.3963
上三尊願以是功德上祝皇帝陛下伏願	-11.3963
伶	-11.3963
列仙傳	-11.3964
膳	-11.3964
豎	-11.3965
鴛	-11.3965
僅	-11.3965
圵	-11.3966
彗孛	-11.3966
仇讎	-11.3966
桑麻	-11.3967
恭望聖慈	-11.3967
轂	-11.3967
酥	-11.3967
飛行太空	-11.3967
遡	-11.3967
庚寅	-11.3968
拓	-11.3968
鄷都	-11.3968
玄之又玄	-11.3968
萬神咸聞	-11.3968
瑩徹	-11.3969
具法位姓某今據某郷貫	-11.3969
燁	-11.3969
凾	-11.3969
梅仙	-11.397
三業六根	-11.397
玉寳皇上天尊	-11.397
昌熾	-11.397
宿命因縁	-11.397
勅	-11.3971
以今清旦陞壇行道請法衆等運兹	-11.3971
爕理	-11.3971
回骸起死	-11.3972
短促	-11.3972
以今奉爲齋主某	-11.3972
玉眸鍊質	-11.3972
乙亥	-11.3972
萬神敬聽	-11.3973
干冒聖威	-11.3973
太上曰復有十種	-11.3973
不可稱量七者精進	-11.3974
不可稱量四者行功	-11.3975
三昧神呪	-11.3975
刁	-11.3975
不可稱量六者善業	-11.3975
田疇	-11.3975
出堂頌引至幕謝師	-11.3975
妹	-11.3975
戊寅	-11.3975
部尚書	-11.3975
謹爲上請	-11.3975
業每省惕於眇躬道俗凌夷淳化難振隂	-11.3976
油一斗二升	-11.3976
届	-11.3978
枝葉	-11.3978
錦繡	-11.3978
須至關發者右關	-11.3978
債訟	-11.3979
上清靈寶行司	-11.3979
繳	-11.398
混合爲一	-11.398
弟子於燈下	-11.398
有二種	-11.398
以今清旦行道請法衆等運茲	-11.398
五星髙耀瑞	-11.3981
墨一笏	-11.3981
益算	-11.3982
昏迷	-11.3982
芝草	-11.3984
一者智慧	-11.3985
三元八節	-11.3985
放逸	-11.3986
森然	-11.3989
杜廣成	-11.399
超邁	-11.399
按玄科	-11.3994
歡呼	-11.3997
本命之日	-11.3999
邪祟	-11.4
兆庶	-11.4004
絳霞	-11.4006
洒淨	-11.4007
獨峯	-11.4008
閉眼	-11.4008
河漢	-11.4014
勤勞	-11.4032
訾毀	-11.4058
緋衣	-11.4058
俄頃	-11.4071
石壁	-11.4076
方无極世界一切	-11.4078
兩半	-11.4096
無始以來	-11.4116
丁甲	-11.4131
生神寳符	-11.4163
獄卒	-11.4172
无上三天玄元始三炁太上道君召出	-11.4177
枉死	-11.4189
某官某乙	-11.4194
早朝行道	-11.4209
敕旨	-11.4241
法師上香	-11.4262
免離	-11.4306
三啓樂法以爲妻愛經如珠玉持戒制六	-11.4313
㕹	-11.4326
東嶽天齊大生仁聖帝志心朝禮	-11.4342
見有賢者	-11.4343
劫生死之罪	-11.4344
尾閭	-11.4345
太上无極大道虚无自然元始天尊太上	-11.4346
姤	-11.4346
𠜍	-11.4346
莫大於	-11.4347
噠	-11.4349
蜂	-11.435
膚	-11.435
枷鎖	-11.4351
錐	-11.4352
唵吽吽	-11.4352
黯	-11.4352
婚	-11.4353
耄	-11.4353
叩齒三通咽液三過	-11.4353
螟	-11.4354
蹟	-11.4355
三千六百	-11.4355
瀑布	-11.4356
睛	-11.4356
僮	-11.4357
弩	-11.4357
羽飛衣	-11.4358
离	-11.4358
臟腑	-11.4358
鳴法鼓	-11.4358
乙丑	-11.4358
颺	-11.4358
甎	-11.4359
隷	-11.4359
一如告命年歳次月日	-11.4359
爛壞	-11.4361
運明保元上帝	-11.4362
𤓰	-11.4362
不勝䖍禱之至	-11.4362
吞火食炭	-11.4363
璽	-11.4363
係薦亡魂	-11.4363
瘁	-11.4363
昩	-11.4363
鵠	-11.4363
穎	-11.4364
两	-11.4364
府主生太陽火官	-11.4364
𢢽	-11.4364
徳得道之後保天長存	-11.4364
扶衰度厄	-11.4365
九天司命府	-11.4365
賁	-11.4365
唵吽吒唎	-11.4365
泳	-11.4365
炙	-11.4366
魏夫人	-11.4366
艾	-11.4366
寂寞	-11.4366
詭	-11.4366
松蘿	-11.4366
䘏	-11.4366
潮	-11.4366
省覽	-11.4367
搖	-11.4368
帝王國主	-11.4368
簾櫳	-11.4368
虹橋	-11.4369
青𥿄	-11.4369
不得拘留	-11.4369
荅	-11.4369
玉晨道君	-11.4369
停酸	-11.437
某月某朔某日某	-11.437
摺角封	-11.437
生天寳籙	-11.437
亹	-11.437
謹依科法	-11.4371
清凉	-11.4371
雲鏞	-11.4371
候八願萬物生全九願家多孝悌十願國	-11.4372
无上三天玄元始三炁太上老君召出	-11.4372
以今落景行道請法衆等運茲	-11.4372
癎	-11.4372
風雨均調	-11.4372
梨棗	-11.4372
抛	-11.4373
謹爲黃籙大齋主某	-11.4373
不可稱量何等爲十種	-11.4373
太上三尊願以是功徳皈流	-11.4374
驚懼	-11.4374
四炁朗清	-11.4374
生慳貪心或見	-11.4374
普天率土	-11.4374
不可稱量二者慈悲	-11.4375
寧一普天興昌六願四時隨節推遷景	-11.4375
南方八天	-11.4375
最爲第一	-11.4376
莅止	-11.4376
淘	-11.4377
九天諸司眞君天曹諸司眞君	-11.4377
各禮師存念如法宣衛靈呪	-11.4378
蘭湯	-11.4378
惡對罪根	-11.4379
禎貺	-11.4379
北方八天	-11.4379
以昭宸貺干冐聖威	-11.4379
啓白具位	-11.4379
妙樂眞人	-11.4379
錢一千二百文	-11.438
謾	-11.438
金籙白簡	-11.438
三捻上香願此香煙騰空	-11.438
栢庭	-11.4382
考訟	-11.4382
甲子諸官君	-11.4384
光下燭	-11.4385
層霄	-11.4387
發鑪	-11.4388
瓊笈	-11.4388
宿命讃	-11.4388
太素三元君	-11.4389
茭龍	-11.4389
恪祈	-11.439
工夫	-11.4392
決定	-11.4393
賦質	-11.4394
補職	-11.4395
六戊	-11.4396
墮落	-11.4399
障累	-11.44
慾海	-11.44
危厄	-11.44
牛頭	-11.44
殊不知	-11.4401
盛衰	-11.4401
曷克	-11.4403
星中神仙	-11.4404
効信	-11.4405
建齋之所自然生金液丹碧芝英百靈衆	-11.4405
八溟	-11.4408
朱顔	-11.441
則無以爲	-11.441
𡨚憎	-11.4417
推移	-11.4421
祕典	-11.4427
所啓速達逕御太上无極大道	-11.4429
方无極太上靈寳天尊梵炁天君	-11.444
院使眞君	-11.4443
甲庚	-11.4453
所啓之言速達	-11.4461
北斗九皇	-11.4502
章醮吉符	-11.4691
玄冲虚妙感慈惠護國庇民洪恩眞君	-11.4713
氛穢	-11.4719
兵士十萬	-11.4727
至眞玉皇上帝御前請稱法位具位	-11.4732
昇天堂	-11.4736
專爲齋主	-11.4745
某謹重誠上啓三清上聖十極髙眞	-11.4748
保天長存	-11.475
璘	-11.4753
得道之後昇入無形	-11.4759
爲日神傷	-11.4767
往生神仙界	-11.4768
聾盲	-11.4768
捜	-11.4769
老叟	-11.4771
萊	-11.4771
堰	-11.4772
登眞隱訣	-11.4772
蟄	-11.4773
人各恭信	-11.4774
潺	-11.4774
一之元	-11.4774
臼	-11.4774
技	-11.4775
超凡入聖	-11.4776
千罪萬過	-11.4776
啞	-11.4776
普及幽冥𡨚親平等	-11.4776
梟	-11.4777
箱	-11.4777
伏須告報	-11.4777
霾	-11.4777
袁	-11.4777
悵	-11.4778
嶠	-11.4778
殮	-11.4778
求乞章奏	-11.4779
鈍	-11.4779
貳	-11.4779
炁一口吹	-11.478
棘	-11.478
殷勤	-11.4781
醮筵内外一切威靈	-11.4781
念呪三徧	-11.4781
表臣某伏	-11.4782
正爾燒香	-11.4782
販	-11.4782
水火刀兵	-11.4782
彗	-11.4782
爐炭	-11.4783
稽首皈依䖍誠讃詠信禮	-11.4783
女青詔書	-11.4783
歡恱	-11.4783
勃勃	-11.4783
庥	-11.4783
龍漢蕩蕩	-11.4784
大行梵炁	-11.4784
糧	-11.4784
鄂	-11.4784
鄉神仙諸靈官	-11.4784
請聖初獻	-11.4784
降眞召靈	-11.4784
常上祝曰	-11.4785
今故燒香自皈依師尊大聖衆至真之	-11.4785
鰲	-11.4785
壬寅	-11.4786
娛	-11.4786
哩	-11.4786
屑	-11.4786
魘	-11.4786
巳得道大聖衆	-11.4786
黻	-11.4786
慊	-11.4786
塵稽首皈依䖍誠讃詠信禮无上大羅天	-11.4786
五族六親	-11.4787
辛丑	-11.4787
混茫	-11.4787
陽九百六	-11.4787
法橋大度天尊	-11.4787
曳	-11.4787
滄溟	-11.4787
三天化主玄中大法師眞君	-11.4788
玉清聖境元始天尊	-11.4788
賢智眞人	-11.4788
學道得道求仙得仙齋官蒙福幽顯	-11.4789
急急如律令又呪	-11.4789
扶桑大帝	-11.4789
十方仙童玉女接侍香煙傳	-11.4789
昴	-11.4789
三洞四輔經籙	-11.479
九天金闕洪恩眞君九天玉闕洪恩眞君	-11.479
粧	-11.479
登眞度命	-11.479
敕制地祇	-11.479
𥫄	-11.4791
寥寥	-11.4791
未敢擅便須至奏聞者右	-11.4791
誦念是經	-11.4792
戌亥	-11.4792
支干	-11.4792
今奉爲入意以今	-11.4793
氛穢地絶祅塵琳琅振響十方	-11.4793
香五兩	-11.4793
臣衆等至心皈命	-11.4793
偷盗	-11.4794
金籙度命	-11.4794
大道洞玄虚有念無不契錬質入仙	-11.4794
青玄老君太乙救苦天尊運明保元上帝	-11.4794
毛髮	-11.4794
拔度科品	-11.4794
五靈五老上帝	-11.4795
不零一切濟度靡不鮮榮	-11.4795
運神㑹道功曹	-11.4796
耳混宫商	-11.4796
夷夏	-11.4797
玉符寳節嘯命微幽擲火揚威奸凶無留	-11.4798
乞就某處	-11.4798
夏屋	-11.4799
紏察	-11.4799
敖	-11.48
太靈虚皇天尊	-11.48
月駟	-11.4801
松脂	-11.4802
蠲潔	-11.4802
玉籟	-11.4804
封疆	-11.4805
嬰童	-11.4805
外封面式	-11.4806
森列	-11.4807
逸響	-11.4808
下降玄壇	-11.481
在會衆	-11.481
宗社	-11.481
庶𩔖	-11.4812
聖威某下情無任惶懼之至謹狀年月日	-11.4813
百穀	-11.4818
救苦眞符	-11.4819
隆昌	-11.4822
得一之元	-11.4828
靜黙天魔並敬護世世享大福	-11.4829
徒勞	-11.4829
河沙	-11.4836
蘂簡	-11.4861
罪瑕	-11.488
尺餘	-11.4886
大指掐	-11.4904
眞之德得道之後升入無形	-11.4937
敢干	-11.4941
形長二寸	-11.4997
丹霍	-11.503
神虎追魂	-11.5074
厄符解	-11.508
毀謗	-11.512
訾	-11.5124
之至謹奉表陳啓以聞	-11.5144
十方无極太上靈寳天尊	-11.5171
眞誥云	-11.5195
怨恨	-11.5195
愚劣謹因	-11.5196
元皇開度天尊	-11.5197
荼	-11.5199
洩	-11.52
九萬九千九百九十	-11.52
龕	-11.5201
醇	-11.5203
柈	-11.5203
乙酉	-11.5204
砥	-11.5204
馴	-11.5204
譬如有人	-11.5204
鉤	-11.5205
瞋恚	-11.5205
頓首頓首	-11.5206
恥	-11.5206
會稽	-11.5208
刳	-11.5208
𥨸	-11.5208
人鳥山	-11.5209
熬	-11.5209
降臨壇所	-11.5209
左右官使者	-11.5209
竃	-11.521
刀山劒樹	-11.521
株	-11.5211
昂	-11.5211
九千人无上洞清混沌自然	-11.5211
一丈二尺	-11.5211
慳	-11.5211
涸	-11.5212
簴	-11.5212
墳墓	-11.5212
括蒼	-11.5213
朽骸	-11.5213
各䖍誠懴謝	-11.5213
朋友	-11.5213
元亨利貞	-11.5214
消災散禍	-11.5214
寂然兜術天	-11.5214
脹	-11.5215
愽	-11.5215
矛	-11.5215
溟涬大梵	-11.5215
剉	-11.5215
耐	-11.5216
慈悲道場消災九幽懴	-11.5216
衮	-11.5216
鄷	-11.5216
佐國立功	-11.5216
謬誤	-11.5217
上開八門	-11.5217
匪繇	-11.5217
三途五苦八難	-11.5217
戊申	-11.5217
簟	-11.5218
恭望天慈	-11.5218
十二時辰	-11.5218
奉爲某人靈䰟	-11.5218
塜墓	-11.5219
二捻上香願此香烟騰空	-11.5219
𢡖	-11.522
兵革	-11.522
霓裳	-11.522
丹靈眞老	-11.522
鼎湖	-11.522
銓	-11.522
巒	-11.522
莅	-11.5221
開通道路	-11.5221
䙱	-11.5221
三道順行慶雲流布合景黄庭	-11.5221
謹具狀	-11.5221
舎	-11.5221
好生韓君丈人	-11.5221
碓	-11.5222
詎	-11.5222
無拘天門	-11.5222
拽	-11.5222
晡	-11.5222
蕭蕭	-11.5222
箕裘	-11.5222
線	-11.5223
吠	-11.5223
九天尚父	-11.5223
山魈	-11.5223
憂惱	-11.5224
罔極之恩	-11.5224
一願乾坤明素二願	-11.5224
元陽妙經	-11.5225
九壘土皇君	-11.5225
隂忤神靈	-11.5225
不可稱量十者普心	-11.5226
累月積	-11.5226
奔走	-11.5226
倉箱	-11.5226
無上靈寳天尊諸尊諸聖諸大真人諸大	-11.5227
翥	-11.5227
三十六部尊經眞文寳符	-11.5227
出戸太上黄籙齋儀卷之	-11.5227
峽	-11.5227
天官君將吏兵	-11.5227
仰慮亡靈某及九祖父母一切死魂	-11.5227
某氏門中先逺	-11.5227
散花轉經行道生死宿過咸乞赦原伏冀	-11.5227
朗映十方各安其位經緯直行保	-11.5228
千愆萬罪紀録靈曹兆劫億齡	-11.5228
顚倒六情紛紜三業日	-11.5228
普慈護國天尊志心敬禮逍遥快樂天尊	-11.5228
臣等今故燒香志心皈身皈神皈命謹	-11.5228
以昭玄貺	-11.5228
爓	-11.5228
斾	-11.5229
渟	-11.5229
誠惶誠恐稽首頓首謹録狀上奏以	-11.5229
三台華蓋星君	-11.5229
泉扄	-11.5229
碧落空歌	-11.523
鋪張	-11.523
恢廓	-11.523
侍靖仙官	-11.523
幽扃	-11.523
未經懴滌	-11.523
於方來	-11.5231
謹奉降	-11.5231
神虎追攝	-11.5231
門攝之若	-11.5232
特降聖旨依凖今來修奉開度事理	-11.5234
主宰髙眞	-11.5234
无礙	-11.5236
闕信儀	-11.5238
恪副	-11.5238
邊夷	-11.5238
太上生天寳籙	-11.5239
奉爲亡靈	-11.5239
𠅘	-11.5242
三界官屬一切眞靈臣聞	-11.5242
天門冬	-11.5243
得此報受生	-11.5244
銀河	-11.5246
桃源	-11.5248
水火鍊度	-11.525
太微天帝君	-11.5252
今故焼香自皈依師尊大聖衆至	-11.5256
香一兩	-11.5259
無幽不	-11.5278
運四極安隆伏御帝前罔有不恭	-11.5278
具法位姓	-11.5282
妙行真人	-11.5282
萬六千	-11.5283
禄祚	-11.5304
臺玉樓	-11.5355
斬妖	-11.5379
十幅	-11.5429
大帝東華南極西靈北眞玄都玉京金	-11.5432
七洞微髙士開光救苦	-11.5444
下情無任激切之至謹奉表奏以聞謹言	-11.5513
晚朝行道	-11.5514
八洞微髙士開光救苦	-11.5579
燃	-11.5589
福地主仙録君	-11.5599
情念道遣所欲澹泊正氣停蕭然神	-11.5605
城隍里域	-11.563
稅	-11.5643
次一弟子姓	-11.5648
娱	-11.5651
姆	-11.5653
柰	-11.5655
芬芳	-11.5656
瞬	-11.5656
騁	-11.5656
掐玉清訣	-11.5658
鍾磬	-11.5658
當職道士	-11.5661
亟	-11.5661
孳	-11.5662
三災九厄	-11.5662
言功舉遷	-11.5662
斬絶地根	-11.5662
栗	-11.5663
瀑	-11.5663
等至心歸命	-11.5664
窻	-11.5664
𨓜	-11.5664
捫	-11.5664
上相上宰四司五帝三界官屬一切眞靈	-11.5665
香花燈燭供養如法	-11.5666
檐	-11.5666
跋	-11.5667
蕚	-11.5667
梗	-11.5667
丧	-11.5668
扶揺	-11.5668
兖	-11.5668
主火大將軍	-11.5669
姨	-11.5669
莭	-11.5669
靈寳玄局	-11.567
牛羊	-11.567
惶懼	-11.567
纏繞	-11.5671
戊戌	-11.5672
恡惜	-11.5672
迦	-11.5672
葵忱	-11.5672
𥬇	-11.5672
今日道場大衆	-11.5672
萬一之忱	-11.5672
袱	-11.5672
侍衞送迎	-11.5672
梵寳昌陽	-11.5672
辛卯	-11.5672
阮	-11.5672
玊皇上帝	-11.5673
蠱毒	-11.5673
稠	-11.5673
娶	-11.5673
閒	-11.5673
蔓	-11.5674
若復有人	-11.5674
蓐	-11.5674
茶湯	-11.5674
至眞道炁靈寳瑞光下降流入	-11.5674
旌旄	-11.5675
蹔	-11.5675
以今臨午陞壇行道請法衆等運兹	-11.5675
炊	-11.5675
叵	-11.5675
防禦	-11.5675
燔	-11.5675
無極之國	-11.5676
所薦亡魂	-11.5676
隨願徃生	-11.5676
朱陵火府南昌上宫	-11.5676
葵藿	-11.5676
不可稱量	-11.5676
大慈之化下副	-11.5676
菓	-11.5676
漓	-11.5676
守雄抱雌	-11.5677
經師眞君靈寳籍師眞君靈寳度師眞君	-11.5677
天牢地獄	-11.5677
䇿六丁七轉八合周旋天經聖化巍巍	-11.5677
風火驛傳	-11.5677
師經不敢中怠平等一心廣度一切	-11.5677
度人不死尊神南極長生大君	-11.5677
仰荷玄恩	-11.5677
接引此亡靈	-11.5678
汗漫	-11.5678
七祖九玄	-11.5678
奉承正道赤書	-11.5678
四直玉文功曹	-11.5678
地水職司	-11.5678
稽首作禮	-11.5678
澣	-11.5679
身口意	-11.5679
𡨚債和平	-11.5679
地獄符破	-11.5679
𡨚仇和釋	-11.5679
鼇	-11.5679
永無輪轉	-11.568
所啓速逹徑御	-11.568
形長三寸	-11.568
以今臨午行道請法衆等運兹	-11.568
導迎景貺	-11.568
考官門下	-11.568
上章詞表靈官	-11.5681
介祉	-11.5681
急急如元始度人律令宣	-11.5681
邇遐	-11.5681
髮謝過自新伏願	-11.5681
鎭家國無有災傷四海	-11.5681
燌	-11.5682
茭龍驛吏	-11.5682
爲如上縁請聖作證	-11.5682
獅頭	-11.5682
球	-11.5682
縦	-11.5682
焕	-11.5682
灑衆生五願星辰與日齊光轉燭照耀	-11.5683
博士	-11.5683
爲黄籙齋主某懴悔亡故某普及幽	-11.5683
猖	-11.5683
甲戍	-11.5683
妃后	-11.5683
有感斯通	-11.5683
揺曵	-11.5683
䟽瀹	-11.5683
抄寫	-11.5684
運應滅度身經太隂	-11.5684
痛楚	-11.5684
洞玄化應聲天	-11.5684
今故修齋行道燒香散花皈身皈神皈命	-11.5684
生輪轉積劫循環流浪六情馳騁三業玄	-11.5684
甲子庚申	-11.5685
上上禪善無量壽天	-11.5685
動植飛潜均陶惠澤得道之後	-11.5685
爲某事建某齋懴罪祈恩消災請福切慮	-11.5685
北嶽恒山	-11.5685
則上明天尊大慈之化下副臣等皈命之	-11.5685
卑棲	-11.5686
爲國爲家	-11.5687
如其言	-11.5687
黄華蕩形天尊宣	-11.5687
右府主死太隂水官中府主生死罪録官	-11.5688
屇	-11.5688
臉	-11.5689
正神急上關啓臣今奉爲入齋意以今	-11.569
縉雲	-11.569
䕫	-11.5691
所啓之誠速逹俓御	-11.5693
鳯曆	-11.5693
諸君丈人三十六天帝君玉虚上帝玉帝	-11.5696
謡歌	-11.5697
衙	-11.5698
殃斷絶	-11.5699
紀録黒	-11.5719
米三斗	-11.5734
兢憂	-11.5836
眞靈臣聞	-11.5866
一心發念稽首慈尊敬禮真聖志心敬禮	-11.5908
從無始	-11.5986
里域土地	-11.5986
死魂醫	-11.6065
願此香烟騰空俓上供養无上至眞	-11.6114
等皈身皈神皈命首體投地仰依太	-11.6118
臣等身中令臣所啓之誠速達俓御	-11.6119
餉	-11.6121
奇	-11.6125
西方无極太上靈寳天尊	-11.6127
租	-11.6127
哆	-11.6131
東方无極太上靈寳天尊	-11.6132
蒿	-11.6133
嬰孩	-11.6133
媾	-11.6133
不生不滅	-11.6133
舄	-11.6133
五臓六腑	-11.6133
蹄	-11.6134
浣濯	-11.6134
玄都律曰	-11.6135
膈	-11.6136
侈	-11.6136
痕	-11.6137
口是心非	-11.6137
噐	-11.6138
不肯布施或見	-11.6138
専	-11.6139
峒	-11.614
玄三部洞天八景自然靈寳神仙	-11.614
慇懃	-11.614
𡜍	-11.6141
黜	-11.6141
長生久視	-11.6141
自今以去若有道士	-11.6141
長生乆視	-11.6141
長生大君	-11.6141
大梵隱語	-11.6141
敏	-11.6142
怱	-11.6142
盲聾	-11.6142
壹	-11.6142
不忠不孝	-11.6143
嶮	-11.6143
願以是功德上祝皇帝陛下伏願	-11.6143
疏	-11.6143
刪	-11.6143
寰宇	-11.6143
飄零	-11.6143
立觀度人	-11.6144
榭	-11.6144
肹	-11.6144
吼	-11.6144
泗	-11.6145
龍漢開圖	-11.6146
稽首皈依䖍誠讃詠	-11.6146
櫝	-11.6146
財物或盜	-11.6146
翼轅	-11.6146
股	-11.6146
侍香金童	-11.6147
摘	-11.6147
玃	-11.6147
籬	-11.6147
矚	-11.6148
今故燒香自皈依道尊大聖衆至眞之	-11.6148
九幽㧞罪天尊	-11.6148
姊	-11.6148
棹	-11.6148
以今早朝陞壇行道請法衆等運兹	-11.6148
畒	-11.6148
太上敕赦生天寳籙	-11.6148
聴	-11.6149
耆	-11.6149
九靈飛歩章奏司	-11.6149
煖	-11.6149
祅氛	-11.615
燦燦	-11.615
上極无上	-11.615
肌肉	-11.615
乹	-11.615
混洞赤文	-11.615
蝎	-11.6151
楪	-11.6151
柴	-11.6152
泉曲之府北都羅酆三官九署十二河源	-11.6152
儀歩虚洒淨	-11.6152
三十六部尊經玄中大法師天師君	-11.6152
九炁天君東郷神仙諸靈官	-11.6152
洗浣	-11.6152
鴛班	-11.6152
襪	-11.6153
樸	-11.6153
緱	-11.6153
琅琅	-11.6153
沾濡	-11.6153
具位臣姓某謹據	-11.6153
𥝠	-11.6153
踴	-11.6153
惚	-11.6154
眞校録三元蕩清左嘯中黄右	-11.6154
願天垂甘露六願地發祥煙七願四時應	-11.6154
轉誦太上洞玄靈寳	-11.6155
侔	-11.6155
三業恣縱六情	-11.6155
下違地理上逆天文	-11.6155
鞏	-11.6155
萬件千條	-11.6155
撻	-11.6155
萬神咸聽	-11.6155
上相上宰上保上傅	-11.6155
幄	-11.6156
玄眞萬福天尊	-11.6156
欽奉綸音崇修金籙	-11.6156
三時行道	-11.6156
師尊父母	-11.6156
飢寒者天下人民各得其所七念蠕動	-11.6156
貰	-11.6156
泒	-11.6156
泉曲河源	-11.6157
等三師四友	-11.6157
鎭國祚保天無終護度一切莫不仰宗	-11.6157
无自然元始天尊无極大道太上大道君	-11.6157
癸丑	-11.6157
太隂皇君	-11.6157
纏綿	-11.6157
洪濛	-11.6158
當境土地里域眞官	-11.6158
夀命延長	-11.6158
特爲弟子某	-11.6158
況奉詞㫖敢不上聞	-11.6158
甖	-11.6158
志心稱念	-11.6159
哀矜	-11.6159
罄丹誠	-11.6159
返形太	-11.6159
故三洞弟子某	-11.616
億劫循環	-11.616
即俾弟子某	-11.616
紙百張筆一管墨一丸	-11.616
將亡過某原赦罪愆蠲除考對候	-11.6161
髙上大道金闕玄元天皇大帝太上老君	-11.6161
蒿里	-11.6162
州縣城隍司	-11.6162
萬魔振伏紛葩却消摧怪伐惡道炁	-11.6162
緑軿	-11.6162
巷	-11.6162
徑上供養无上至眞經寳	-11.6162
郷貫某住居奉道弟子姓某本命某甲子	-11.6162
黄帝中主	-11.6163
前生今世	-11.6164
青紙朱書	-11.6164
吉祥音檀熾鈞	-11.6164
八門開度天尊	-11.6164
斗柄	-11.6166
曠蕩	-11.6167
各稱法位具位	-11.6168
爵禄	-11.6168
麴	-11.6168
畢引炁	-11.6169
無量太華天尊	-11.6176
禄算	-11.6182
得道之後昇入無形與道合眞	-11.6183
月上詣太上	-11.619
激切屏營之至	-11.6206
土地里域真官	-11.6209
天尊志心朝禮大慈大悲救苦	-11.6216
𡨚讎	-11.6218
上品妙經人各一	-11.6234
升天堂衣食自然二念帝王國主道化興	-11.6236
虧盈	-11.6236
詞預告	-11.6245
今故燒香自皈依	-11.6284
上白天尊	-11.6293
窮乏	-11.6293
靈寳領教濟度金書卷之一百八	-11.6295
速達徑御	-11.6316
土地里域眞官	-11.6318
至眞無極大道三清上聖昊天至尊金闕	-11.6322
一通上聞	-11.635
寳玄臺紫微上宫靈寳至眞明皇道君	-11.6418
太上无極大道虚无自然元始天尊	-11.6427
下情无任惶懼之至謹狀太	-11.6429
籲	-11.6585
鹹	-11.6613
殂	-11.6623
髯	-11.6625
歉	-11.6627
嗜慾	-11.663
吒唎	-11.663
噬	-11.6631
驛馬上章吏	-11.6632
千變萬化	-11.6632
綾	-11.6632
大齋法事小兆臣某與臨壇官衆等	-11.6633
所以爾者	-11.6635
愉	-11.6636
昇玄經云	-11.6636
乞於齋次	-11.6636
表臣某言	-11.6637
鐫	-11.6637
劑	-11.6637
瞿	-11.6637
䑛	-11.6637
詛	-11.6638
鮑	-11.6638
緝	-11.6639
詢	-11.6639
守坐飛鉤一切神君土府	-11.664
虺	-11.664
孔竅	-11.6641
衆眞監度	-11.6641
悋	-11.6642
𩛙	-11.6642
飢餓	-11.6644
蘋藻	-11.6644
投龍進簡	-11.6644
閫	-11.6644
紫虚鬱秀	-11.6644
巻	-11.6644
人各恭敬志心朝禮	-11.6644
晷	-11.6644
㢘	-11.6644
癸卯	-11.6644
腋	-11.6645
懋	-11.6645
捲簾	-11.6645
縻	-11.6645
遑	-11.6645
盱	-11.6645
顙	-11.6645
珪	-11.6645
揉	-11.6645
欻	-11.6646
玄靈經懴	-11.6646
迤	-11.6646
周而復始	-11.6646
態	-11.6646
太眞科曰	-11.6647
鵝	-11.6647
牎	-11.6647
道教靈驗記卷之	-11.6647
顒	-11.6647
舋	-11.6647
之至謹稽首再拜奉送	-11.6647
若存若亡	-11.6648
攣	-11.6648
遍十方際盡玄虚界	-11.6649
交媾	-11.6649
正薦亡親某乙	-11.6649
今故燒香自皈依經尊大聖衆至眞之	-11.6649
崇建无上黃籙大齋	-11.6649
削死上生	-11.6649
嚩	-11.6649
埏	-11.6649
扈	-11.665
姜	-11.665
蹇	-11.665
修眞之士	-11.665
𠉀	-11.6651
巍	-11.6651
浩渺	-11.6651
牛頭獄卒	-11.6651
虚皇玉晨大道君	-11.6651
葑菲	-11.6651
髭	-11.6651
麓	-11.6651
雍雍	-11.6652
属	-11.6652
刑擣獄中	-11.6652
靈寳領教濟度金書卷之一百三十	-11.6653
開業道	-11.6653
火錬丹界天尊	-11.6653
人雲車羽駕	-11.6653
徑上供養无上至眞道寳	-11.6653
逺近廟貌	-11.6653
人經法道場以今謹率在㑹法衆	-11.6653
奉道弟子姓某	-11.6653
候敕旨頒行外	-11.6653
甄	-11.6654
軄惟領教理難抑違	-11.6654
凡歸陶冶悉	-11.6654
汪涵伏願開瓊笈以宣揚啓琅函而嘯	-11.6654
壇修誦太上洞玄靈	-11.6654
等首體投地歸命太上	-11.6654
願此香煙騰空徑上供養無上至眞師寳	-11.6655
不可稱量是謂十種	-11.6655
無任激切	-11.6655
緑鬢	-11.6655
匪聽法以聞經曷明心而見性俾	-11.6655
洞微髙士開光救苦真人𡩋全	-11.6655
以來至于今日	-11.6655
心謝過無邊罪犯並乞蕩除伏冀慈造垂	-11.6655
多生輪轉	-11.6655
靈寳領教濟度金書卷之一百七十	-11.6656
縹	-11.6656
言功遷賞	-11.6656
考罪玄曹恐墮沉淪未繇懴滌今依	-11.6656
虚永爲種民不經苦惱得道之後身入無	-11.6656
提携敢忘修誦	-11.6656
畆	-11.6656
揷	-11.6656
富才賢十一願齋功廣被十二願善瑞日	-11.6656
蘭桂	-11.6656
肖	-11.6656
電掃	-11.6657
玉虚明皇天尊	-11.6657
清衆運誠平坐如法平坐讃	-11.6657
拒遏	-11.6657
碩	-11.6657
超凌三界逍遥上清	-11.6657
徃生神仙界	-11.6657
筍	-11.6657
陌	-11.6658
具表奏聞者	-11.6658
監壇某神	-11.6658
禾稼滋植營運日豐咸得厚載萬	-11.6659
白素四十尺	-11.666
清明何童天	-11.666
㑹散花太空神化	-11.666
具位臣姓某謹據齋意	-11.666
真符告下	-11.666
發遣超生今來齋期將届凖格審告須至	-11.6661
九真妙戒	-11.6661
遊宴十方五雲浮	-11.6661
未敢擅便須至奏聞者右臣謹録狀上奏	-11.6663
隊仗	-11.6663
擷	-11.6663
上保上傳太平下教二十四眞人西城	-11.6664
急急如長生大帝勑	-11.6664
歳年月日具位臣姓某狀奏奏	-11.6664
袍吊䪃靴	-11.6665
靈寳領教濟度金書卷之一百二十	-11.6666
西南方無極太上靈寳天尊	-11.6667
州剌史	-11.6667
靈寳領教濟度金書卷之九十	-11.6673
經老君授	-11.668
赤明和陽天	-11.6683
靈寳領教濟度金書卷之二百六十	-11.6698
靈寳領教濟度金書卷之二百八十	-11.6706
真人上清太微	-11.6713
學道得道求仙得仙齋主受福幽顯沾恩	-11.6741
十方仙童玉女接侍蘭煙傳	-11.6749
日直功曹	-11.6753
靈寳領教濟度金書卷之八十	-11.6784
花稽首投誠	-11.6801
臣等身中令臣所啓	-11.6807
至心稽首禮太上無極大道	-11.6917
之誠速逹徑御至眞無極大道三清上聖	-11.6996
侍香金童傳言散花	-11.6997
謹同誠上啓太上无極大道虚无自然	-11.7022
輔弼	-11.7029
道生一	-11.7029
年某月某日	-11.7053
願此香煙騰空徑上供養无上至眞師寳	-11.7106
垠	-11.7134
抽添	-11.7143
斑	-11.7149
硃	-11.7152
攔	-11.7153
驛馬上章吏官各二人出操	-11.7154
重誠上啓	-11.7156
丐	-11.7156
浣	-11.7157
努	-11.7157
各三十二人	-11.7157
髙功入科	-11.7158
店	-11.7159
地水火風	-11.7159
㕔	-11.716
憩	-11.716
竦	-11.716
卭	-11.7161
廣建福田	-11.7161
道士女冠	-11.7161
碣	-11.7162
遒	-11.7162
急急如長生大帝敕	-11.7162
千和萬合	-11.7162
素以胎生	-11.7163
偽	-11.7163
讚	-11.7163
劬	-11.7164
鞋	-11.7164
距	-11.7165
伏惟皇帝陛下	-11.7165
撼	-11.7165
玩弄	-11.7165
窒	-11.7165
繹	-11.7166
𥮅	-11.7166
龍虎君侍香諸靈官當令臣向來	-11.7166
剱	-11.7166
樣	-11.7166
孕粹	-11.7166
蘆	-11.7167
行住坐卧	-11.7167
松栢	-11.7167
咄	-11.7167
然九幽神燈上照	-11.7167
閩	-11.7168
五臟六腑	-11.7169
悽	-11.7169
啄齒	-11.7169
火鍊丹界	-11.7169
飛行羽經	-11.7169
巳生未生	-11.7169
上祝皇帝陛下伏願	-11.7169
冒犯天	-11.717
出青入玄	-11.717
魑魅	-11.717
匀	-11.717
膓	-11.717
縶	-11.7171
魂神澄正	-11.7171
惰	-11.7171
尋聲赴感太一救苦天尊	-11.7172
倶	-11.7172
滄浪	-11.7172
萱	-11.7172
閟	-11.7173
傳符授戒	-11.7173
金闕玉房	-11.7174
黔	-11.7174
搶	-11.7174
太上洞玄靈寶業報因縁經卷之	-11.7174
螫	-11.7175
各百二十人	-11.7175
𧇊	-11.7175
願此香煙騰空徑上供養無上至眞經寳	-11.7175
大道洞玄虚有念無不契鍊質入仙	-11.7177
掇	-11.7177
三元品戒	-11.7177
瓊輪羽蓋	-11.7177
堕	-11.7177
彷徨	-11.7177
薑	-11.7177
法事如式	-11.7177
薈	-11.7177
斃	-11.7178
太上三尊十方衆聖願以是香功德	-11.7178
迭	-11.7178
風雷雨部	-11.7178
嚢	-11.7178
藍	-11.7178
眚	-11.7178
魂度朱陵	-11.7179
櫃	-11.7179
麵	-11.7179
上謝天恩	-11.7179
恡	-11.718
大天帝六天洞淵大帝六波天主帝君	-11.718
四生六道	-11.718
若干日夜	-11.7181
勁	-11.7181
九州分野	-11.7181
應感分輝	-11.7181
姬	-11.7182
太明玉完天	-11.7182
鼔舞	-11.7182
謹牒太歳年月日牒具法師衘位姓押	-11.7182
亶頼	-11.7182
澤得道之後升入無形和與道合真	-11.7182
謹率見前清衆升壇	-11.7182
所啓之言速達徑御太上無極大道	-11.7182
除壽齡延永不經苦惱身	-11.7183
前生今世罪對立功補過九念家	-11.7183
恭望聖慈允兹申請特降聖㫖行下	-11.7183
極含容恢廓無細不植淵奥柔惠潤加	-11.7183
葷辛	-11.7183
超度亡故某普及幽冥𡨚親平等	-11.7183
天君天樞左丞相天君天樞右丞相天君	-11.7184
三部追魂使者	-11.7184
各䖍誠懴悔跪懴臣等	-11.7184
氣和調無有災患疫毒消滅普天安平五	-11.7184
靈寳領教濟度金書卷之一百十	-11.7184
百邪摧落	-11.7185
善知識	-11.7185
𧇖	-11.7185
枸杞	-11.7185
職惟領敎理難抑違敬依所卜日辰肅建	-11.7185
侃侃	-11.7185
九天應元雷聲普化天尊	-11.7185
冉冉	-11.7186
十願江海蕩蕩	-11.7186
未敢擅便須至申聞者右謹録狀上申	-11.7186
降勑命行下三界十方	-11.7186
玄壇恭按眞科次第修奉巳於某月某日	-11.7188
轉誦太上玄靈北斗本命延生眞經	-11.7188
君度南昌上生	-11.7188
天一北祚	-11.7188
伏乞應感分輝降臨醮座	-11.7189
九皇夫人九隂内妃	-11.7189
靈寳淨明飛天度人	-11.7189
之境面朝	-11.7191
哭泣	-11.7193
皇笳天	-11.7193
齋三日節目	-11.7193
存亡二世	-11.7198
左府主生太陽火官右府主死太隂水官	-11.7199
无極大道至眞玉皇上帝御前出堂頌	-11.72
百張筆一管墨一笏	-11.72
眞人志心朝禮大慈大悲大惠眞人	-11.7247
早朝陞壇行道	-11.7278
靈寳領教濟度金書卷之二百七十	-11.7339
五體投地	-11.745
靈寳玉鑑卷之三十	-11.7471
身中三五功曹左右官使者左右捧香	-11.7539
騶	-11.7599
靈寳領教濟度金書卷之二百四十	-11.7652
牝	-11.7657
心或起	-11.7658
弈	-11.7672
見有女官	-11.768
願以是功德皈流	-11.7697
怛	-11.7704
廂	-11.7706
嘻	-11.7709
橘	-11.7709
蚩尤	-11.7711
鑚	-11.7712
龍興觀	-11.7713
犮	-11.7714
佞	-11.7714
栽	-11.7715
渭	-11.7715
溉	-11.7715
諌	-11.7716
神功妙濟	-11.7717
瞽	-11.7717
迮	-11.7718
蔭	-11.7718
攅	-11.7718
癲	-11.7718
鋸	-11.7719
艶	-11.7719
九月九日	-11.7719
二捻上香願此香煙騰空俓上供養	-11.7719
毳	-11.7721
奈	-11.7722
翟	-11.7722
以何因縁	-11.7722
忻	-11.7722
煆	-11.7722
礫	-11.7722
紳	-11.7723
翛	-11.7723
妓	-11.7725
孝道明王	-11.7725
三界内外應感	-11.7726
裕	-11.7727
要修科儀戒律鈔	-11.7727
太安皇崖天	-11.7727
下方无極太上靈寳天尊	-11.7727
劃	-11.7727
姊妹	-11.7727
猴	-11.7727
烜赫	-11.7728
上方无極太上靈寳天尊	-11.7728
牲	-11.7729
搗	-11.7729
𨗉	-11.7729
緼	-11.7729
恭對道前	-11.7729
瓢	-11.7729
劍	-11.773
太上慈悲九幽拔罪懴卷之	-11.773
𣸸	-11.773
槨	-11.773
檜	-11.773
南閻洞浮	-11.773
常樂我淨	-11.773
需	-11.773
太上三尊願以是功徳歸流	-11.7731
輪囷	-11.7731
燋	-11.7731
楷	-11.7731
濟生度死	-11.7731
延壽益筭	-11.7731
欲望天慈特降勑命	-11.7731
齊同慈愛	-11.7731
眞之德得道之後長享自然和與道合眞	-11.7731
殖	-11.7731
黍稷	-11.7732
謹具表奏聞者臣伏以	-11.7732
得道之後昇入無形和與道合眞	-11.7732
犀	-11.7732
確	-11.7732
玄明恭慶天	-11.7732
鑾	-11.7732
謹召神霄生	-11.7733
南斗六星	-11.7733
恍愡	-11.7733
皓庭霄度天	-11.7733
舉形仙飛	-11.7733
蜎	-11.7733
鉦	-11.7733
磐	-11.7733
颷	-11.7733
㝷聲救苦	-11.7734
太歳年月日關具法師衘位姓押	-11.7734
爲修齋弟子某	-11.7734
抹	-11.7734
上三尊願以是功德皈流齋主某伏願	-11.7734
蝸	-11.7734
無形無名虚無自然金闕玉陛下	-11.7735
本靖諸省府院司	-11.7735
觀聽法音	-11.7735
啓堂頌	-11.7736
皈身皈命大慈大悲無上天尊至心朝禮	-11.7736
宗祧先聖	-11.7736
太歲年月日牒具法師衘位姓押牒	-11.7736
違律罰	-11.7737
符生身受度削名北府紀字南宫厄難蠲	-11.7737
締	-11.7737
太上靈寳元陽妙經卷之	-11.7737
飛天神王長生大聖無量度人君	-11.7737
赦夙生今世一切愆尤開度九祖七玄三	-11.7738
俾令六道幽靈受食等衆形神俱妙定慧	-11.7738
簮紱	-11.7738
生四負俾得一身清	-11.7738
黃籙簡文靈仙品格修齋行道燒香散	-11.7738
譬喻	-11.7738
所以者何	-11.7738
注上生名	-11.7738
東華南極西靈北眞上宰上相上保上	-11.7738
產	-11.7738
土地里域眞官正神急上關啓臣今奉爲	-11.7738
刈	-11.7738
東方風雷地獄	-11.7739
鎭家國兆民興從養生安死惠周十方	-11.7739
生神上帝三十二天上帝五靈五老上帝	-11.774
者杖一百	-11.774
依按靈寳嗣師祕典恭就某處	-11.774
謝過自新伏願天帝君降大慈之恩流	-11.774
髪謝過自新伏願天帝君降大慈之恩流	-11.774
肅清萬魔不干眞誠上徹令臣所啓之誠	-11.7741
爲如上縁志心稱念	-11.7741
中元洞空青靈宮	-11.7741
閏	-11.7741
淵通元洞天	-11.7741
帝東華南極西靈北眞玄都	-11.7741
奉爲亡故某人靈䰟仗兹往生仙界念	-11.7741
㝢	-11.7743
乞賜原赦無邊罪犯並與蕩除伏冀	-11.7743
消災謝過請福延生	-11.7743
元明文舉天	-11.7744
嵐	-11.7744
皥	-11.7745
以昭宸貺干冒天威	-11.7745
抺	-11.7746
上香師白文	-11.7747
善種大王	-11.7748
鄉神仙諸靈官竊以	-11.7748
𩔖皆從四願日月二景髙明無有	-11.7749
道君髙清	-11.7749
𥠖	-11.775
香二兩	-11.7754
外封背式拔度某人靈䰟	-11.7756
卿三十六部尊經玄中大法師三天大	-11.7759
大悲大願	-11.7775
靈寳領教濟度金書卷之二百五十	-11.7779
可不愼	-11.7781
若然者	-11.7801
賜證明	-11.7813
湛湛	-11.782
願此香煙騰空徑上供養無上至眞道寳	-11.7833
州社令主者	-11.7837
十大洞天	-11.7914
緲	-11.7943
六洞微髙士開光救苦	-11.8013
上詣三天曹	-11.8015
召出臣等身中三五功曹左右官使者	-11.8034
等皈命之誠謹啓以聞	-11.8045
所啓速達徑御太上無極大道	-11.8157
各三十二人出出者嚴裝關啓玄壇天帝	-11.8169
等今故燒香歸身歸神歸命奉爲某乙	-11.8172
洞天福地靖廬治化	-11.8173
月日時生	-11.8202
大慈大悲救苦眞人大慈大悲大惠眞人	-11.8241
三咽止	-11.8269
五洞微髙士開光救苦	-11.828
年歳次月日	-11.8283
九幽玉匱明	-11.8287
本際經云	-11.8293
生諸怨恨	-11.8294
髙上月宫太隂元君孝道仙王靈寳淨明	-11.8294
亡故某及一切産魂	-11.8297
盃	-11.8297
杭	-11.8298
鳴天鼓	-11.8298
甑	-11.8299
篋	-11.8301
豊	-11.8303
捶	-11.8303
正一盟威	-11.8304
争	-11.8305
繋	-11.8305
恩惟太上分别哀	-11.8306
斬之不恕矣道言	-11.8306
箋	-11.8306
茨	-11.8306
搥	-11.8307
夾脊	-11.8307
羌	-11.8307
若男若女	-11.8308
飛神謁帝	-11.8308
威禁至重	-11.8308
豚	-11.8308
降臨醮座	-11.8309
一塵不染	-11.8309
稽首再禮	-11.8309
表榜規制品	-11.831
臍下三寸	-11.831
茶酒果	-11.831
瓣	-11.831
無上靈寳天尊諸尊諸聖諸	-11.831
梳	-11.831
癰疽	-11.8311
以爲效信恩惟太上	-11.8311
譛	-11.8311
鯉	-11.8311
齊到帝前	-11.8311
信受奉行	-11.8312
璠	-11.8312
職惟領教理難抑違	-11.8312
斚	-11.8312
枯槁	-11.8312
鬻	-11.8313
舟航	-11.8313
挫	-11.8313
霶	-11.8313
撩	-11.8313
撮	-11.8313
亳	-11.8313
今有黄籙大齋主	-11.8313
念諸聖呪	-11.8314
鵷	-11.8314
豺狼	-11.8314
祈天澤保佑	-11.8314
琪	-11.8314
愊	-11.8315
元載孔昇天	-11.8315
蠅	-11.8315
須至奏聞者右	-11.8315
某上言今月某日爲齋法弟子某	-11.8315
普慈護國天尊志心敬禮	-11.8315
窕	-11.8316
拖	-11.8316
逋	-11.8316
冡	-11.8316
破齋犯戒	-11.8316
無有出期	-11.8316
汪洋	-11.8316
莾	-11.8316
祖玄眞師列位眞人經籍度師列位眞人	-11.8316
返故根	-11.8317
書題云	-11.8317
摙	-11.8318
仕宦	-11.8318
攜	-11.8319
悮	-11.8319
掐中指中文	-11.8319
太極濛翳天	-11.8319
㤙	-11.832
寨	-11.832
各禮師存念如法宣衞靈呪	-11.832
岷	-11.832
某郷貫住居奉道弟子姓某本命某甲子	-11.8321
至聖至靈	-11.8321
度人不死尊神	-11.8321
趾	-11.8321
從劫至劫	-11.8321
倒生玄司	-11.8322
伏乞聖慈特	-11.8322
筦	-11.8322
青玄黄籙左府	-11.8322
雷霆九司諸天省府東華西靈執職眞衆	-11.8323
齎持法信	-11.8323
上清眞境靈寳天尊太清仙境道德天尊	-11.8323
𦆵	-11.8323
諄	-11.8323
證生方	-11.8323
枌	-11.8323
不可稱量三者舍忍	-11.8323
隴畒	-11.8323
坡	-11.8323
得道之後升入无形	-11.8323
九宫捍厄天尊	-11.8323
主將某副將某護道某監壇某	-11.8324
扶桑大帝暘谷神王三河四海九江水帝	-11.8324
璨	-11.8324
泬	-11.8324
玉輔上宰四恊侍宸	-11.8324
上元一品賜福天官	-11.8324
谿	-11.8324
愚謹因	-11.8324
主將副將	-11.8324
願得太上十方正眞生炁降流	-11.8325
測瓊漿寳飯異果竒	-11.8325
視聽自民	-11.8325
裸	-11.8325
遍下十方三界	-11.8325
無極無量品至眞大神	-11.8325
嫗	-11.8325
無文不度	-11.8326
廳	-11.8326
嵎	-11.8326
三天大聖都天大法	-11.8326
妙齋法事小兆	-11.8326
中斗大魁	-11.8327
護道監壇	-11.8327
罪業消除災衰洗蕩福壽資命善果臻身	-11.8327
動植飛潜	-11.8327
衆災度脫	-11.8327
欬	-11.8328
今來欲得三界十方預期聞知除巳具奏	-11.8328
畝	-11.8328
九炁青天明星大神煥照東郷洞映九門	-11.8328
事意至須至申聞者右某謹録狀上申	-11.8328
蒙如所啓仰荷玄恩得道之後昇入无	-11.8328
貿	-11.8328
本州城隍司本縣城隍司	-11.8328
嫁	-11.8329
屐	-11.8329
告文靈寳三景玉符告下爲齋主某	-11.8329
缺者考屬	-11.8329
等謹按經云	-11.8329
流一切興國愛民普濟羣生人同劫年八	-11.8329
禺	-11.8329
尭	-11.8329
七道功曹	-11.833
願得玉清道炁靈寶妙光下降流入	-11.833
位臣姓某謹據齋意集此善縁總祈開度	-11.833
生身受度劫劫長存隨劫輪轉與天齊年	-11.833
三皇内文	-11.833
今有齋主某崇建某齋開度亡	-11.833
請轉寳經誦經畢度人	-11.8331
亦當修齋行香誦經	-11.8331
監醮香官	-11.8331
聞謹狀太歲年月日具位臣姓某狀奏奏	-11.8332
具位姓某謹據齋意大教除巳具奏	-11.8332
謹重伸上啓太上	-11.8333
德致昌熒惑消禍太白辟兵	-11.8333
乗黒雲	-11.8334
蛾	-11.8341
一如女青詔書	-11.8341
建某齋	-11.8354
眞之德得道之後昇入无形和與道合眞	-11.8362
七寳自然宫殿永與道合所啓玄感	-11.8368
度人無量天尊	-11.8383
人爾欲自	-11.8389
虚无自然元始天尊无極大道太上	-11.8413
向來所啓速達	-11.8424
靈寳領教濟度金書卷之二百二十	-11.849
已得道大聖衆至眞諸君丈人	-11.8516
下屬玄	-11.8523
流一切興國愛民普濟群生人同劫年	-11.8587
靈寳領教濟度金書卷之二十	-11.8677
南極長生大帝東極青華大帝	-11.8683
君將吏兵	-11.8688
昊天至尊金闕玉皇上帝	-11.8721
以今午朝陞壇行道請法衆等運	-11.8731
急上關啓	-11.8768
體投地仰依太上三尊願以是功德歸流	-11.8864
三捻上香願此香煙騰空俓上供養	-11.8869
法位姓某押	-11.8871
凡學黄素書者	-11.8904
瘖瘂	-11.8921
怳	-11.8921
杻	-11.8923
思微定志	-11.8924
涓	-11.8924
蝦	-11.8924
譏	-11.8926
萬劫一傳	-11.8927
濶	-11.8927
評	-11.8928
吝	-11.8929
三五功曹左右官使者	-11.8929
笞	-11.8931
掲	-11.8931
娘	-11.8931
某今歸命	-11.8931
陂	-11.8931
三五七九	-11.8931
荘	-11.8932
龍變梵度天	-11.8934
以今落景行道請法衆等運兹	-11.8934
匐	-11.8934
抱朴子	-11.8934
麈	-11.8935
沐浴更衣	-11.8935
獰	-11.8935
風刀之考	-11.8935
呌喚	-11.8936
瘳	-11.8936
悚	-11.8936
上揲阮樂天	-11.8938
你	-11.8938
弋	-11.8938
慄	-11.8938
今日大慶	-11.8939
篩	-11.8939
祭鍊内法	-11.8939
貝	-11.8939
懃	-11.894
仗此寳香普同供養	-11.894
十方九幽苦魂罪魄	-11.894
拙	-11.894
三梁冠	-11.894
五文開廓	-11.894
踞	-11.894
兵馬各九億萬騎	-11.894
道衆雲集	-11.8941
兾	-11.8941
今奉爲入齋意以今	-11.8941
𢊍	-11.8942
月府太隂皇君	-11.8942
醮筵内外一切眞靈	-11.8942
𡵨	-11.8942
隨品受生	-11.8942
甸	-11.8942
鉢	-11.8943
呼隂召陽	-11.8943
此間土地里域眞官	-11.8943
狸	-11.8943
黔黎	-11.8943
負隂抱陽	-11.8943
粛	-11.8943
蛆	-11.8943
歴關諸天	-11.8944
符祝曰謹召	-11.8944
蘖	-11.8944
下情无任	-11.8944
祺	-11.8944
飼	-11.8944
邉	-11.8945
飄颻	-11.8945
歐	-11.8945
廣成集卷之十	-11.8945
超度三界難	-11.8945
胚	-11.8945
請光分燈	-11.8945
濵	-11.8946
狎	-11.8946
疾除罪簿落滅惡根不得拘留	-11.8946
玄都大獻玉山淨供	-11.8946
凡有投告敢不關聞	-11.8946
紆	-11.8946
下元暘谷洞源	-11.8946
從官符吏飛空變化攝召生炁奉爲亡魂	-11.8946
某年某月某日某時	-11.8946
熟六願臣忠子孝君仁父慈	-11.8946
以今早朝行道請法衆等運兹	-11.8946
舅	-11.8947
急急如太上律令	-11.8947
無窮安平不䧟海淪不崩保	-11.8947
粱	-11.8947
羅天大醮	-11.8947
匃	-11.8947
唵吽吒唎四字	-11.8948
圻	-11.8948
玄胎平育天	-11.8948
太煥極瑶天	-11.8948
永爲種民	-11.8948
東嶽天齊仁聖帝	-11.8948
洞元化應聲天	-11.8948
某下情無任激切之至謹狀年月日具位	-11.8949
隍	-11.8949
髙上神霄玉清眞王長生大帝	-11.8949
尖	-11.8949
白骨成人	-11.8949
方無極飛天神王長生大聖無量度人君	-11.8949
重封印全	-11.8949
年月日牒具法師衘位姓押	-11.8949
廩	-11.8949
月初一日	-11.8949
異口同音	-11.8949
悲拔罪真人今日道場懴主及以大衆	-11.895
奸滅試萬魔束形九微回道八威攝精千	-11.895
福佑見存	-11.895
陽虚映耀日回靈神虎辟邪飛天流鈴摧	-11.895
燿	-11.895
紊	-11.895
机	-11.895
接陽眷	-11.895
璝	-11.895
㳟	-11.895
痾旋即痊愈十願孤露衆生豐衣足食	-11.8951
法事如式各禮師存念如法請宣神呪	-11.8951
閑寧廣濟一切惠	-11.8951
靈寳領教濟度金書卷之一百九十	-11.8951
亡親某	-11.8951
功德金色光	-11.8951
一隂一陽	-11.8951
上明天尊大慈之澤下副	-11.8952
繚繞	-11.8952
冥保固劫運世祚和平普加潤澤惠	-11.8952
愈十願孤露衆生豐衣足食	-11.8952
琢	-11.8952
中有素皇號曰帝靈保神安	-11.8952
移文者牒候到請詳前項事理疾速	-11.8952
禮十拜若	-11.8952
生老病死	-11.8953
東南方銅柱地獄	-11.8953
焚詞頌	-11.8953
北極四聖眞君	-11.8953
六願臣忠子孝君仁父慈七願四海	-11.8954
讒	-11.8954
十二願蝖飛蠢動巳生未生咸蒙安全普	-11.8954
麽	-11.8954
揚揚兆庶稱慶長樂未央十二願	-11.8954
帡	-11.8955
劄本家土地司命遍告齋意	-11.8955
大帝九天應元雷聲普化天尊九天雷祖	-11.8955
跂	-11.8955
上帝有勑	-11.8956
擎拳	-11.8956
睇	-11.8957
雷霆九司	-11.8958
靈寳大法司當司	-11.8958
瓮	-11.8958
靈寳領教濟度金書卷之一百四十	-11.8958
稽首虚皇修行經法敷座	-11.8959
方隅禁忌一切	-11.896
各九億萬衆九天玄元太空洞虚自然	-11.896
崗	-11.896
功德周圓伏願	-11.8961
南方臣等今故燒香皈身皈神皈命	-11.8962
某帝眞人	-11.8963
一心歸命禮	-11.8968
皈命之誠謹啓以聞十二願	-11.906
下情无任惶懼之至謹狀	-11.9176
向來所啓之誠速逹徑御	-11.9179
上清靈寳行司據	-11.9186
蠕息天人獲慶年同劫石十一願帝王國	-11.9203
芝英百靈衆眞交㑹在此香火爐前	-11.9214
一願大道流行普天懷	-11.9312
激切懇祈之至謹奉表陳啓以聞	-11.9362
某不勝虔祝之至	-11.9388
烟騰空俓上供養无上至眞師	-11.9434
神君當召此間土地里域眞官正神	-11.9436
真交㑹在此香火爐前令	-11.9439
太上無極大道虚無自然元始天尊	-11.951
黄素書卷之	-11.9575
沌	-11.9576
中元玉籙簡文神仙品曰詣師威儀	-11.9579
西昇經云	-11.9582
香上度過	-11.9584
某州社令司	-11.9589
急急如元始度人律令	-11.9591
十方仙童玉女侍衛香煙傳	-11.9592
緑輦丹輿	-11.9592
庖	-11.9592
二丈四尺	-11.9593
眥	-11.9594
轉誦太上洞玄靈寳無量度人上品妙經	-11.9594
匙	-11.9596
坐致自然	-11.9596
无上至眞經寳臣等皈身皈神皈命	-11.9597
狩	-11.9597
屹	-11.9597
糠	-11.9597
壊	-11.9597
噏	-11.9598
翁重浮容天	-11.9599
舐	-11.9599
珊	-11.9599
天一生水	-11.9599
蓄	-11.9599
華夏讃引	-11.96
鵰	-11.96
畎	-11.96
遘	-11.9601
甕	-11.9601
殻	-11.9602
章一通上詣太上某宫曹治	-11.9602
驪	-11.9602
嚀	-11.9602
彷彿	-11.9603
五星列照煥明五方水星却災木	-11.9603
糺	-11.9603
孾	-11.9603
堤	-11.9603
訕	-11.9603
丐祈原赦齋主某前生今世	-11.9604
專度曲度	-11.9604
樽	-11.9605
姥	-11.9605
仰對慈尊	-11.9605
磅礴	-11.9605
胄	-11.9606
槿	-11.9606
隨劫輪轉	-11.9607
甓	-11.9607
冦	-11.9607
醮三百六十分位	-11.9607
疪	-11.9607
禋	-11.9607
壝	-11.9608
湮	-11.9608
念呪九徧	-11.9608
淅	-11.9608
一日一夜	-11.9608
在會係薦	-11.9609
顓頊	-11.9609
三啓頌三禮重稱法位具位	-11.961
𠎝	-11.961
坳	-11.961
无想无結无愛	-11.961
鏗鏘	-11.961
綽	-11.961
稜	-11.961
天尊從此巳上禮念天尊聖號乞懴某	-11.9611
楫	-11.9611
孜孜	-11.9611
𤁋	-11.9611
罰香半斤	-11.9611
蘋	-11.9612
祓	-11.9612
泡	-11.9612
三天扶教輔元大法天師	-11.9612
剏	-11.9612
鎗	-11.9612
萬願從心	-11.9612
監齋直事	-11.9612
眞皇洞神天尊	-11.9613
太嵗年月日	-11.9613
犒	-11.9613
乍遐乍邇	-11.9613
无形无名	-11.9613
釋八願潜胞處卵咸得生成九願積疾新	-11.9614
金馬驛呈	-11.9614
天下都大城隍	-11.9614
九天符命攝龍驛傳普天安鎭我得飛仙	-11.9614
境界其有眞人名曰	-11.9614
髙拱彌髙	-11.9614
琰	-11.9614
復次眞人道士	-11.9614
玄都元陽七寳紫微	-11.9614
俓上供養无上至眞經寶	-11.9614
前生今世罪對立功𥙷過九念家	-11.9614
道炁百千萬重	-11.9614
三界眞司牒合屬去處	-11.9614
明檢鬼營	-11.9614
大勲魔王	-11.9614
㳺	-11.9614
三洞法師冲靖先生留用光傳	-11.9615
餚	-11.9615
各二人出	-11.9615
丹輿緑輦	-11.9615
灝	-11.9615
淨天地呪	-11.9615
闈	-11.9616
氣象清玄三願聖人萬壽四願化洽八埏	-11.9616
五人官將一百二十人	-11.9616
豕	-11.9616
消災集福	-11.9617
靈寳經籍度三師眞君	-11.9617
炫	-11.9617
瘞	-11.9617
蚤	-11.9617
惣	-11.9617
爲物範六念損已布施道士及	-11.9617
蓋招神攝風役使萬靈上衞仙翁	-11.9618
今故燒香願以是功德上爲	-11.9618
繿	-11.9618
傅日月星宿北斗南辰周天眞宰十方	-11.9618
同𡨚親和釋八願潜胞處	-11.9618
仰依太上三尊願以是功德上祝	-11.9619
斗牛女虚危室壁七宿星君	-11.9619
長生保命天尊福生無量天尊	-11.9619
卵咸得生成九願積疾新痾旋即痊	-11.9619
蕋	-11.9619
宣通召命	-11.9619
之柱石	-11.962
本命神將本宿星官	-11.962
太平下敎二十四眞人	-11.962
轉燭陽光掃穢除氛開明童子號曰玄	-11.962
𦔳	-11.962
徂	-11.9621
十二河源水府神仙諸靈官	-11.9621
譔	-11.9621
敎導頑夫皆蒙惠澤精苦	-11.9621
湊	-11.9621
歳年月日具位姓某狀	-11.9622
孛蝕虧盈安清光照諸天洞消暗	-11.9622
七日七夜	-11.9622
以今中分行道請法衆等運茲	-11.9622
南方火翳地獄	-11.9622
微天皇大帝紫微北極大帝后土皇地祇	-11.9622
仰祈天澤克證徃生	-11.9622
念道遣所欲淡泊正氣停蕭然神	-11.9622
曖	-11.9623
零一切濟度靡不鮮榮和與道合眞復爐	-11.9623
玄明恭華天	-11.9623
蓋招神攝風役使萬靈上衛仙翁	-11.9624
導迎善瑞榮進家庭利旺子孫昌隆福壽	-11.9624
都大獻玉山淨供上奉	-11.9624
齋主營造所在	-11.9625
獄定罪考鬼靈官志心朝禮酆都	-11.9626
臣誠惶誠恐稽首頓首再拜伏念臣	-11.9626
諸天上帝申牒三界真司外	-11.9628
謹牒太歳年月日牒具法位姓某押牒	-11.9628
自然上升玉	-11.9629
謹牒太歳年月日牒具位姓某押	-11.963
桉	-11.9631
倒生玄司七玉女	-11.9632
猫	-11.9633
須至專牒者牒候到	-11.9633
飛元聚靈	-11.9634
第三日早	-11.9655
十方靈寳天尊十方巳得道大	-11.9673
行香之所自然生金液丹	-11.9674
得生成皆見元氣受陽之形草木果林經	-11.9677
謹同誠上啓虚无自然	-11.9706
科車赤符	-11.9742
令臣所啓之誠	-11.9751
某年某月	-11.9775
四洞微髙士開光救苦	-11.9777
玄壇土地方域神眞臣今	-11.9795
長生大帝東極青華大帝后土皇地祇	-11.9903
各禮師存念如法衛靈	-11.9932
魂一時解脫四願孤	-12.0003
玄壇天帝神君當召此間土地里域	-12.0146
達有生保天長存億劫不傾三願土地	-12.0187
二念帝王國主道化興隆庠序濟濟皇	-12.0203
總眞王君	-12.0212
誠謹啓以聞發願存神燒香香	-12.0216
告下具法位臣姓某承誥奉行	-12.0276
先亡後死	-12.0281
楮	-12.0293
門下求覔之如不具者又詣	-12.0293
瓠	-12.0298
遂成金剛體超度三界難地	-12.03
不肯布施見	-12.03
某謹爲某求乞	-12.0301
溲	-12.0301
娠	-12.0303
拍	-12.0303
涎	-12.0305
騭	-12.0306
志心皈依信禮	-12.0306
藤	-12.0307
録異記卷之	-12.0307
墊	-12.0308
航	-12.0308
有光明此世他生常膺福慶	-12.0308
痺	-12.0308
諶	-12.0308
櫟	-12.0308
踪	-12.0309
紫金瑞相	-12.0309
餒	-12.031
延年益壽	-12.031
種病病殺惡人	-12.031
沮	-12.0311
功滿德就	-12.0311
要修科儀戒律鈔卷之十	-12.0312
衣服卧具	-12.0312
當爾之時	-12.0312
鑊	-12.0312
㘅	-12.0313
詳前項事理疾速	-12.0313
也其星則號	-12.0313
番	-12.0313
悞	-12.0313
杲	-12.0313
揭	-12.0313
阨	-12.0313
嬌	-12.0313
薤	-12.0313
㪷	-12.0313
闐	-12.0314
拘魂制魄	-12.0314
咬	-12.0314
嶂	-12.0314
鍵	-12.0315
符到奉行	-12.0315
禮三寳巳復次懴悔	-12.0316
状	-12.0316
耻	-12.0316
如車輪	-12.0316
瀟	-12.0316
覷	-12.0316
疹	-12.0317
圗	-12.0317
婢	-12.0317
願此香煙騰空逕上供養无上至眞經寳	-12.0317
懾	-12.0317
瑚	-12.0318
魁𩲃𩵄䰢魓𩳐魒	-12.0318
核	-12.0318
眞人光妙音	-12.0319
蛸	-12.0319
嬉	-12.0319
仰祈天澤克證生	-12.0319
揣	-12.0319
筠	-12.0319
邪食邪吏	-12.0319
汾	-12.0319
上明七曜摩夷天	-12.032
顓	-12.032
堵	-12.032
矧	-12.032
劈	-12.032
願此香煙騰空逕上供養无上至眞道寳	-12.032
媚	-12.032
箸	-12.0321
玄靈璇璣府	-12.0321
茅茨不剪	-12.0321
痼	-12.0321
十回度人	-12.0321
顯定極風天	-12.0321
一唱萬眞	-12.0321
禴	-12.0321
唳	-12.0321
㝷聲赴感	-12.0322
鈐	-12.0322
六道都案	-12.0322
經師籍師度師	-12.0322
冗	-12.0322
丗	-12.0323
蜺	-12.0323
本靖主將副將護道監壇	-12.0324
𩲃	-12.0324
佗	-12.0324
蛙	-12.0324
悸	-12.0324
崇建某齋幾晝夜開度亡過某靈䰟	-12.0324
弃	-12.0325
不得留停	-12.0325
大道洞玄虚有念無不契煉質入仙	-12.0325
畋	-12.0325
恭望師慈	-12.0326
桴	-12.0326
鐺	-12.0326
枵	-12.0326
地獄餓鬼畜生	-12.0326
玉山淨供	-12.0327
四海四瀆溪澗潭洞	-12.0327
五嶽五帝眞君	-12.0327
玷	-12.0327
三十六眞人三十六將軍	-12.0327
𥚑	-12.0327
仆	-12.0327
通眞達靈	-12.0327
歿	-12.0327
臣某謹重誠上啓太上无極大道	-12.0327
婺	-12.0328
㣧	-12.0328
天堂享大福	-12.0328
早朝行道儀燒香頌各禮師存念如法	-12.0328
四直功曹三界符使	-12.0328
元陽上品大乘經典	-12.0329
太上執法仙士蔣叔輿編	-12.0329
故殺誤傷	-12.033
靑	-12.033
道上二玄三元四始	-12.033
升壇轉誦太上洞玄靈寳无量	-12.033
運神㑹道	-12.033
太上黄籙齋儀卷之四十	-12.033
丘丞墓伯	-12.033
鴟	-12.0331
凡有皈投敢忘關告	-12.0331
枽	-12.0331
太上三尊十方巳得道大聖衆至	-12.0331
金華仙魔王敬受事故能朝諸天皆從齋	-12.0332
侍爐引班	-12.0332
埸	-12.0332
綠	-12.0332
即與和合隂陽調平經緯其有身命運限	-12.0332
各三十二人出出者嚴装關啓	-12.0332
三界應感一切威靈	-12.0332
九世七玄	-12.0332
榖豐熟國富民歡七願浮雲結炁聚	-12.0332
崐	-12.0332
門下君官將百二十人兵士十萬	-12.0333
帝一尊百關自調理俯命八海童仰	-12.0333
蜒	-12.0333
十洲三島	-12.0333
七炁素天	-12.0333
寕	-12.0333
芝英百靈衆眞交會在此香火爐前	-12.0333
髪謝過自新伏願	-12.0333
魔王監舉	-12.0333
須至申聞者右	-12.0333
須至奏聞者右臣謹録狀上奏	-12.0333
慟	-12.0334
須至專牒者右牒上	-12.0334
宣告十方三界合屬真司	-12.0334
賑	-12.0334
貅	-12.0334
西方七炁素天太白流精光耀金門洞	-12.0334
呻	-12.0334
覆載無窮安平不陷海淪不崩保	-12.0334
敷列壇場	-12.0334
寂然兠術天	-12.0334
拔罪真人今日道場施主及以大衆仰願	-12.0334
七誦重關開	-12.0334
生成皆見元炁受陽之形草木果林經冬	-12.0335
羗	-12.0335
極无量品至眞大神飛天神王長生大聖	-12.0335
琉璃	-12.0335
宣關靈符赦罪天尊某重誠上啓	-12.0335
得道之後昇入無爲	-12.0335
妖明耀元功金符召制躡雲	-12.0336
幞	-12.0336
井鬼栁星張翼軫七宿星君	-12.0336
出堂頌回靜黙堂	-12.0337
倏	-12.0337
諳	-12.0337
宜於期日具奏	-12.0337
魃	-12.0337
天尊斗極宗師	-12.0337
玄壇恭按眞科次第修奉	-12.0337
旃	-12.0338
咒	-12.0338
恩惟太上分别求哀	-12.0338
謹㳙今月某日爲始	-12.0338
玉皇上帝御前各稱法位上清玄都弟子	-12.0339
有感必通	-12.0339
曰善哉	-12.0339
玄中大法師重稱法位上清玄都弟子	-12.0339
請轉法輪師題經	-12.034
曹仙官中元南洞陽左宮	-12.034
玄上玉晨天尊	-12.0343
泮	-12.0345
法師衘位姓押	-12.0345
命素一疋	-12.0345
訝	-12.0346
昇入无形和與道合眞禮方懴悔	-12.0348
北方臣等今故燒香皈身皈神皈命	-12.035
五星列照煥明五方水星却災木德致昌	-12.0351
咽止行此	-12.0364
帝瓊闕髙眞玄都玉京金闕七寳瓊臺紫	-12.0366
長生保命天尊	-12.0385
紂	-12.0398
十方懴儀	-12.0409
庠序濟濟皇	-12.0455
狼吏虎賁	-12.0501
五帝眞君五天聖帝洞天福地靖廬治化	-12.0517
之至謹稽首	-12.0536
符簡軌範品	-12.0595
各三十六人出出者嚴裝	-12.0911
靜黙天魔並敬護世世受大福	-12.0932
昊天至尊玉皇上帝	-12.0986
無上三天玄元始三炁太上老君召出	-12.1015
所啓速達徑御太上无極大道	-12.1042
之罪或罵詈	-12.1052
倩	-12.1067
恩章一通上詣某天曹伏須告報	-12.1071
疽	-12.1072
苔	-12.1072
闗	-12.1073
砭	-12.1073
扣齒九通	-12.1073
牡	-12.1073
邢	-12.1073
閉氣九息	-12.1073
虵	-12.1074
志心奉請北都泉曲府	-12.1074
冥寂玄通	-12.1075
鐸	-12.1076
婉	-12.1076
降臨醮座謹奉請	-12.1077
筏	-12.1078
肱	-12.1078
幽寂度人	-12.1079
尺八寸	-12.1079
饍	-12.108
螺	-12.108
叩頭自搏	-12.108
無常的法	-12.1081
歧	-12.1081
毬	-12.1081
㗖	-12.1082
急急如上清律令勑右誦呪	-12.1082
薙	-12.1082
譚	-12.1082
一生二二生三	-12.1082
募	-12.1082
然燈續明	-12.1082
芸	-12.1082
上物或盜天尊寶	-12.1082
不悠想法	-12.1083
思神念眞	-12.1083
晋	-12.1083
硬	-12.1083
膂	-12.1083
倂	-12.1083
㓙	-12.1083
冽	-12.1084
㨿	-12.1084
櫺	-12.1085
冢	-12.1085
桃康合延	-12.1085
喑	-12.1085
湍	-12.1085
雹	-12.1085
鑠	-12.1086
胎卵濕化	-12.1086
凱	-12.1087
喜慶難言	-12.1087
碭	-12.1087
不彼念法	-12.1087
無拘留逼合之憂	-12.1087
挂	-12.1087
右手撫心左手指	-12.1087
騾	-12.1087
者流三千里	-12.1088
同心併力	-12.1088
謹遵金籙品格肅䢖然燈威儀於	-12.1089
脗	-12.1089
欽奉綸音	-12.1089
絢	-12.1089
妍	-12.1089
酒陳終獻	-12.1089
羈	-12.109
三生四負	-12.109
法衆運誠修齋奉	-12.109
無常顧法	-12.109
溫	-12.109
苞	-12.109
俯垂省録	-12.1091
屨	-12.1091
潤屋潤身	-12.1091
圈	-12.1091
繭	-12.1092
蒞	-12.1092
御案香	-12.1092
狠	-12.1092
衫	-12.1092
减	-12.1092
願此香煙騰空逕上供養无上至眞師寳	-12.1092
漣汲溟波	-12.1092
道君太上老君昊天玉皇上帝	-12.1092
鏞	-12.1092
亰	-12.1092
峩	-12.1093
栲	-12.1093
甯	-12.1093
而說偈言	-12.1093
腕	-12.1094
三洞道士朱法滿編	-12.1094
扎	-12.1094
主宰龍神社稷山川城隍里域三界官	-12.1094
第七壘水制澤地	-12.1095
鑰	-12.1095
搬	-12.1095
檢鬼營不得容隱	-12.1095
淒	-12.1095
魂神執繫在	-12.1095
門下君一人上請	-12.1095
豉	-12.1095
裾	-12.1095
恭惟太上无形无名虚无自然至	-12.1096
留冲靖	-12.1096
可韓司丈人天尊	-12.1096
智慧生戒根眞道戒爲主三寳由是興	-12.1096
釆	-12.1096
圜	-12.1096
九天命靈章生神神自超元君遏死	-12.1096
太上洞玄靈寳无量度人上品妙經	-12.1096
秪	-12.1096
異骨成親	-12.1096
鮒	-12.1097
不追懷法	-12.1097
寘	-12.1097
饑寒者天下人民各得其所七念蠕動	-12.1097
法衆等志心皈身皈神皈命	-12.1097
姓某誠惶誠懼稽首頓首再拜上	-12.1097
鳶	-12.1097
散如常儀	-12.1097
宮眞仙聖衆	-12.1097
凡有投告盍爲關聞	-12.1097
無極大道道德衆聖天尊至眞大帝天帝	-12.1097
光熒星轉燭洞照太陽上有赤精	-12.1097
蠡	-12.1097
俸	-12.1098
混元十二炁化生大將軍	-12.1098
者徒二年	-12.1098
蕳	-12.1098
行道燒香散花轉誦太上洞玄靈寳无量	-12.1098
飇	-12.1098
下元三品解厄水官大帝	-12.1098
太歲年月日具位臣姓某狀奏	-12.1098
賃	-12.1099
牟	-12.1099
邅	-12.1099
夐	-12.1099
張萬福天師	-12.1099
今醮主某	-12.1099
某上言今月某日爲修齋弟子某崇建	-12.1099
三炁天君南郷神仙諸靈官	-12.1099
莫究希夷	-12.1099
臣等身中令臣所啓之誠速逹徑御	-12.1099
三百六十五度	-12.1099
魓	-12.1099
克獲上仙白日登天拜見太上永成眞	-12.1099
南斗六司星君	-12.1099
願化洽八埏五願天垂甘露六願地發祥	-12.11
歙	-12.11
善防言法	-12.11
習悉意法	-12.11
如影隨形	-12.11
西方七寳金門	-12.11
疵	-12.11
䜟	-12.11
之厄疾速關告某本命元辰本命	-12.1101
靈寳天尊紫微天皇大帝禹餘天	-12.1101
諸獄考鬼靈官	-12.1101
應念垂慈	-12.1101
籣	-12.1101
炁和調無有災患疫毒消滅普天安平五	-12.1101
逕御太上無極大道至眞玉皇上帝	-12.1101
今齋主某仰慮亡故某	-12.1101
輕泄漏慢	-12.1101
厄告文玄靈解厄符命告下解	-12.1101
太文翰寵妙成天	-12.1102
洗垢穢法	-12.1102
殺鬼萬千	-12.1102
眞緑霞煥映三天飛雲丹霄諸天控軿晨	-12.1102
陽耀通關	-12.1102
尢	-12.1102
閙	-12.1102
永爲身寳	-12.1102
膿	-12.1102
凡有投告敢不上聞	-12.1102
開九宫八卦係屬之門爲弟子某解除	-12.1102
金龍一枚皈命	-12.1102
曹僚案掾	-12.1102
靈寶領敎濟度金書卷之三百	-12.1102
放翫習法	-12.1102
或大或小	-12.1103
嬴	-12.1103
九天玉闕宣化扶敎上仙昭靈	-12.1103
諸天丞相南昌上宫韓司主録監生大神	-12.1103
垂淵鑒	-12.1103
方无極飛天神王長生大聖無量度人君	-12.1103
糾	-12.1103
忍不可忍法	-12.1103
眞鎭星吐輝流	-12.1103
磕	-12.1103
祈恩昇薦某靈進登	-12.1103
身中令臣所啓速達俓御	-12.1103
徐葛鄭三	-12.1103
玉樞五雷院	-12.1104
魔無干犯	-12.1104
上相上宰上保上傅四司五帝十二仙	-12.1104
志心稽首禮太上無極大道	-12.1104
五嶽五天聖帝	-12.1104
火兵備守玉堂斬邪束	-12.1104
如律宣行	-12.1104
不淫想法	-12.1104
祐見在使陵廟墳基肅寜殃注斷絶	-12.1104
衛護某身原赦宿新無量罪咎矜奬即	-12.1104
熙	-12.1105
蜚	-12.1105
寧免𡨚愆	-12.1105
敎恢弘威儀翼翼普天所瞻民稱太平	-12.1105
不可稱計	-12.1105
无量度人君妙行眞人天眞皇人	-12.1105
香官使者左右龍虎君侍香諸靈官當今	-12.1105
厦	-12.1105
龍頭書刀	-12.1105
普上法橋無有障礙	-12.1105
前行諸妄想或於	-12.1106
絶心想法	-12.1106
微上宫靈寳至眞明皇道君	-12.1106
總眞王君太元眞人東嶽上	-12.1106
鶱	-12.1106
曜明宗飄天	-12.1106
不疑空法	-12.1106
唐廣成先生杜光庭刪	-12.1106
玄上玉宸天尊	-12.1106
髙皇九土四司五帝十二仙君	-12.1106
某等同誠上啓虚	-12.1106
十華上聖俯	-12.1107
平好醜法	-12.1107
除惡想法	-12.1107
離口過法	-12.1108
氊	-12.1108
控轡適十方旋憇玄景阿仰觀劫	-12.1108
謹據某郷貫住居奉道弟子姓某本命	-12.111
紙一百二十張	-12.111
再拜奉送	-12.111
至眞玉皇上帝御前謹稱法位具位	-12.1111
官使者左右龍虎君侍香諸靈官當令臣	-12.1111
𦍒	-12.1112
迥	-12.1112
急急如靈寳无量度人律令	-12.1112
虚明堂曜天	-12.1113
凭	-12.1113
青帝護䰟	-12.1113
玉都玄臺内省	-12.1115
夘	-12.1121
不邪還法	-12.1124
中元玉籙簡文神仙品曰奉師威儀	-12.1128
太上玉晨大道君	-12.1137
聖衆至眞諸君丈人諸天	-12.1167
无上至眞師寳臣等皈身皈神皈命	-12.1185
願此香煙騰空俓上供養无上至眞師	-12.121
道君太上老君昊天至尊玉皇上帝紫	-12.1219
瞻天望聖激切屏營之至	-12.1222
沾恩十方仙童玉女接侍蘭煙	-12.1244
稱法位具位臣姓某與臨壇官衆等謹	-12.1265
歸身歸神歸命奉爲某乙修齋行道仰謝	-12.1303
昊天玉皇上帝十方巳得道大聖衆至眞	-12.134
龍虎君侍香諸靈官當令	-12.136
功德超度亡過某	-12.1385
恭就某處崇建靈寳	-12.1529
淡泊虚无安閑空寂澄清自居廣開法門	-12.153
年歳次月日時告下簡袋式	-12.1559
無上至眞道寳	-12.1631
人東嶽上卿司命茅君定録保命二	-12.1805
紂絶隂天宫	-12.1813
三十二天帝君玉虚上帝玉帝大	-12.183
飛空變化攝召生炁奉爲亡魂化生	-12.185
道炁靈寳妙光下降流入臣等身中	-12.1873
藕	-12.1876
菖	-12.1892
志心歸依信禮	-12.1898
歃	-12.1901
磨崖于	-12.1901
僥	-12.1901
㕑	-12.1902
潄	-12.1902
癆	-12.1903
齒落更生	-12.1903
栴	-12.1904
月上計死忌在	-12.1905
狡	-12.1906
圄	-12.1906
綾羅錦綺	-12.1906
种	-12.1906
熒惑消禍太白辟兵鎭星四據家國利亨	-12.1907
雲驂俯降風駟遥臨來赴醮筵證明修奉	-12.1908
所啓速逹	-12.1908
瘖	-12.1908
旭	-12.1909
囹	-12.1909
飛戈飄㦸	-12.191
咽液三十過	-12.191
泆	-12.191
三十六天帝君玉虚上帝玉帝	-12.1911
鬬	-12.1911
具法位上言云云	-12.1911
酪	-12.1912
辰午申戍子寅	-12.1912
凡得淨明法者	-12.1913
當得人身許錢	-12.1914
濬	-12.1914
鳬	-12.1914
宂	-12.1915
潑	-12.1915
領仙玉郎	-12.1915
乗雲駕龍	-12.1915
亞	-12.1915
取五方炁吹	-12.1916
郵	-12.1916
掌禮請齋官	-12.1916
謹按玄科今據	-12.1916
告給符籙門	-12.1916
𨼆	-12.1916
三部八景洞天飛行自然靈寳神仙	-12.1917
是男是女	-12.1917
蚌	-12.1917
䘙	-12.1917
膜	-12.1917
炁大將軍符祝曰謹召長生大帝君	-12.1917
賓	-12.1918
肆自然録我神天尊常擁	-12.1918
鯀	-12.1918
呵風罵雨	-12.1919
耒	-12.1919
鉅	-12.1919
圊	-12.1919
膻	-12.192
天騶甲卒	-12.192
脆	-12.192
學詩學禮	-12.192
𩵄	-12.192
炮	-12.192
長三尺六寸	-12.192
撒	-12.1921
吾奉玉清勑速降元炁成	-12.1921
鴉	-12.1921
揀	-12.1922
䌓	-12.1922
東極青玄老君太乙救苦天尊	-12.1922
青詞謹當宣奏宣詞	-12.1922
㸔	-12.1922
灸	-12.1922
誹	-12.1922
参	-12.1922
太上勑赦生天寳籙	-12.1922
兵馬騎乗	-12.1922
暄	-12.1922
禮各虔誠懴謝	-12.1922
霹	-12.1923
鴿	-12.1923
具章奏法位	-12.1923
合明天帝日	-12.1923
無上玄元太上道君召出	-12.1923
祈禳云爲某事仰	-12.1923
有主無主	-12.1923
珂	-12.1923
紈	-12.1923
拈	-12.1924
撤	-12.1924
鏁	-12.1925
金眞萬炁祖母	-12.1925
金籙定籍玉字除殃朱陵	-12.1925
样	-12.1925
蔑	-12.1925
儵	-12.1925
𠑽	-12.1925
角亢氐房心尾箕	-12.1925
火府齎簡童子	-12.1926
𡨥	-12.1926
蹲	-12.1926
衒	-12.1926
蓆	-12.1926
茫茫酆都中重重金剛山靈寳	-12.1927
者敬讓孝養父母	-12.1927
茄	-12.1927
蚓	-12.1927
觀明端靖天	-12.1927
罰𥮅一紀	-12.1927
斁	-12.1927
九天採訪使天尊	-12.1928
第八壘大風澤地	-12.1928
俛	-12.1928
明晨行道續更啓聞	-12.1928
欽奉聖㫖	-12.1928
表文謹當宣奏宣表	-12.1928
宼	-12.1928
𡏖	-12.1928
上御九天請下玉文日月	-12.1928
願垂大慈力超度此亡靈	-12.1928
螘	-12.1929
某縣某郷某里	-12.1929
一切去處照應	-12.1929
百昌茂育	-12.1929
福所覃普天	-12.1929
悛	-12.1929
磑	-12.1929
諸天承受玉女	-12.1929
副再三之禱	-12.1929
主家土地司命六神	-12.1929
猊	-12.1929
謔	-12.193
八角垂芒	-12.193
胎結解根	-12.193
諦聽經言一切衆生	-12.193
前代今生	-12.193
教恢弘威儀翼翼普天所瞻民稱太平	-12.193
解計君一人官將百二十人兵士十萬人	-12.193
儀啓堂頌各禮師存念如法宣衛靈呪	-12.193
右狀請前條	-12.193
噫	-12.193
曹仙官上元太極右宮	-12.193
風雲藏靜	-12.1931
龍鱗萬劫保智用豈但在厥年奉戒不暫	-12.1931
淬	-12.1931
奉修无上解考妙齋轉經行道皈命	-12.1931
承領符命	-12.1931
東霞扶桑丹林大帝	-12.1931
朶	-12.1931
謟	-12.1931
上無復祖超	-12.1931
九天溥度院	-12.1932
剛風騎置吏驛馬上章吏飛龍騎吏	-12.1932
輾	-12.1932
謹稽首再拜奉送回軿頌	-12.1932
書篆旨訣品	-12.1932
誠意具載緘謄願得太上	-12.1932
雇	-12.1932
蘄	-12.1933
牋	-12.1933
七願四海㑹同𡨚親和	-12.1933
磿	-12.1933
同心恊力	-12.1933
一心諦聽稽首慈尊敬禮真聖志心敬禮	-12.1933
爽無凝滯去留如解	-12.1933
厄者速令	-12.1933
地府十宫眞君	-12.1933
帙	-12.1934
九五箕疇	-12.1934
東北方鑊湯地獄	-12.1934
廁	-12.1934
贏	-12.1935
某帝眞人某甲再拜五香稽首奉請	-12.1935
今日道場大衆如經所言	-12.1935
本州本縣城隍	-12.1935
某身原赦宿新無量罪咎矜獎即今	-12.1935
乞爲敷奏外未敢擅便須至奏聞者右	-12.1935
巨澤沛靈寳之弘功	-12.1935
胎息靜百關寥寥究三便泥丸洞明	-12.1935
嚴我九龍駕	-12.1936
琥	-12.1936
曹仙官中元北酆都右宮	-12.1936
閡	-12.1936
三元三官帝君北極四聖眞君	-12.1936
中元太陽洞耀	-12.1936
七炁天君西郷神仙諸靈官	-12.1936
某上言今月某日爲修齋	-12.1936
臈	-12.1937
昊天金闕玉皇上帝東極慈尊青玄上帝	-12.1937
一切神仙諸靈官懴悔	-12.1937
午朝行道儀燒香頌各禮師存念如法	-12.1937
東方角亢氐房心尾箕七宿星君	-12.1937
請在壇聽候䇿役除别行外須至牓示者	-12.1937
經師不敢中怠平等一心廣度	-12.1937
下元金靈洞隂大帝三品解厄水官洞眞	-12.1937
无極曇誓天	-12.1937
碧芝英百靈衆眞交㑹在此香火爐前令	-12.1937
常居吉慶永處福齡	-12.1937
學仙絶華念念念相因積去	-12.1938
普及含靈均蒙利	-12.1938
隘	-12.1938
庫曹官姓	-12.1938
三天門下三元眞君上章詞表靈官	-12.1938
無猶豫法	-12.1938
法弟子某崇建某齋幾晝夜依按眞科修	-12.1939
臰	-12.1939
九幽抜罪	-12.1939
雷公電母風伯雨師	-12.1939
靈音振空洞九玄離幽裔感	-12.1939
躑	-12.1939
月天殺在	-12.1939
玩好身	-12.1939
爇	-12.194
晚朝行道儀燒香頌各禮師存念如法	-12.194
東嶽泰山青帝眞君	-12.194
仙降格扇景乗飈群生咸遂惠遍神州	-12.194
籍度三師眞君靈寳官屬三界眞靈伏聞	-12.1941
㝠𡨚親平等爰從無始逮至有	-12.1941
奉道旨爲	-12.1941
目躭黼黻	-12.1941
舌貪滋味	-12.1941
鼻貪馨馥	-12.1941
某下情無任激切之至謹狀	-12.1941
太上黄籙齋儀卷之五十	-12.1942
壠	-12.1942
律令謹牒太歳年月日牒具位姓某押牒	-12.1942
按眞科次第修奉	-12.1942
无氛穢地絶妖塵琳琅振響十方肅	-12.1942
闓	-12.1943
中理五炁混合百神	-12.1943
之中上計或以	-12.1943
文具法位姓某上啓	-12.1943
掌醮降聖	-12.1944
願者願我受身生身所在託生	-12.1946
溪真之神	-12.1947
蜿	-12.1948
髠	-12.1948
雌右武鸞	-12.1949
者其徳如	-12.1949
存神焼香香官使者左右	-12.1949
則屬眞君考校	-12.195
毫髮無遺今有孝子某	-12.195
𩃇	-12.1951
澁	-12.1951
捾	-12.1954
以求仙道又見道士	-12.1959
䙝	-12.196
第二壘剛色地	-12.1961
甚深法藏信禮	-12.1962
願此香煙騰空俓上供養无上至眞道寳	-12.1996
某崇建某齋幾晝夜	-12.2003
至心歸命敬禮	-12.2028
持戒制六情念道遣所欲澹泊正氣停	-12.2062
帝玉司符	-12.2082
茅君定録保命二眞人名山洞府得道	-12.2102
有生保天長存億劫不傾三願土地覆載	-12.2134
宫洞仙官官屬酆都	-12.2147
敎理難抑違敬依所卜日辰肅建	-12.2177
金闕明道達德大仙顯靈溥濟清微洞	-12.2216
寳通玄弘教水南先生林靈眞編	-12.2504
十方仙童玉女接侍蘭煙傳臣向來所	-12.2512
師尊大聖衆至眞之德得道之後	-12.2535
不勝懇禱之至	-12.2571
東華南極西靈北眞玄都玉京金闕七	-12.2602
禮方懴方命魔歩虚	-12.2649
眞人名山洞府得道神仙	-12.2702
蕭然神靜黙天魔並敬護世世享大福又	-12.2762
擺	-12.2803
肢	-12.2803
賂	-12.2807
姓某誠惶誠恐稽首頓首再拜上言某	-12.281
妊	-12.2812
𥩈	-12.2812
嗇	-12.2813
眞水眞火	-12.2813
靉	-12.2813
一呼一吸	-12.2813
幙	-12.2813
隕	-12.2814
持心勿犯第	-12.2814
魑	-12.2815
以今臨午行道請法衆等運茲	-12.2815
尊願以是功德上資	-12.2815
臆	-12.2816
黄素篇第	-12.2817
四過天王降仙	-12.2817
譎	-12.2818
穏	-12.2818
眞交㑹在此洞案爐前令	-12.2819
𡨚家債主	-12.282
瞑	-12.2821
杞	-12.2821
覇	-12.2821
巓	-12.2822
逍	-12.2822
傾光迴駕	-12.2823
樗	-12.2823
閨	-12.2823
凜	-12.2824
二三四五六七八九	-12.2824
湫	-12.2824
鴨	-12.2824
言功報勞	-12.2824
足履刀山	-12.2825
檝	-12.2825
劫不傾三願土地	-12.2825
觧	-12.2825
玄虚之主宰仙僚洞府	-12.2825
大帝天帝三十六部尊經玄中大法師	-12.2826
䥫	-12.2826
蓽	-12.2826
不勝虔禱之至	-12.2826
謳	-12.2826
森羅淨霐	-12.2826
㰱	-12.2826
躊	-12.2826
皿	-12.2827
㨂	-12.2827
從官符吏等爲亡魂攝降	-12.2827
䰢	-12.2827
臊	-12.2827
蝨	-12.2827
兵革四興	-12.2827
闥	-12.2827
秖	-12.2828
斟	-12.2828
嗅	-12.2828
省府院司	-12.2828
飛天大聖無極神王	-12.2828
杉	-12.2829
穫	-12.2829
恩惟太上衆眞分别求哀	-12.2829
騎各九億萬衆	-12.2829
左日右月	-12.283
弢	-12.283
一洞微髙士開光救苦	-12.283
今有齋主某蠲潔蓬居恪殫葵志皈命	-12.283
蒜	-12.283
慱	-12.283
媿	-12.2831
平育賈奕天	-12.2831
皆從四願日月二景髙明無有	-12.2831
地府齎簡童子	-12.2831
得如所願仰荷玄恩呪曰	-12.2831
緾	-12.2831
矝	-12.2831
槁	-12.2831
願以是功德皈流齋主某伏願	-12.2831
勦	-12.2832
憧	-12.2832
千乘萬騎	-12.2832
大將軍兵士十萬人上請	-12.2832
玄元始三炁太上道君太上老君召出臣	-12.2832
廣度沉淪天尊	-12.2832
匆	-12.2833
看誦太上洞玄靈寳無量度人上品妙經	-12.2833
鬱單无量天	-12.2833
等物或盜	-12.2833
五丁都司	-12.2833
宿啓告齋明晨行道	-12.2833
富才賢十一願	-12.2833
箚	-12.2833
謹爲伏地拜章一通	-12.2833
陬	-12.2834
妙有上帝萬變混沌玄元老君至眞大帝	-12.2834
禄遍山河緬想神仙路逍遥上大羅	-12.2834
慝	-12.2834
串	-12.2834
遝	-12.2835
廖	-12.2835
爰有青詞謹當宣奏宣詞按如詞	-12.2835
笋	-12.2835
鞘	-12.2835
奉爲亡靈上資徃生天界念	-12.2835
男左女右	-12.2835
槩	-12.2836
耘	-12.2836
太上无極大道至真玉皇上帝	-12.2836
於疆隅	-12.2836
日月星宫至眞大聖三光神仙諸靈官	-12.2836
同慶得道之後升入無形和與道合眞	-12.2836
叮	-12.2836
磴	-12.2836
薨	-12.2836
天帝神君當召此間土地方域神眞臣今	-12.2836
𣏌	-12.2836
元始天尊太上道君太上老君无上玄	-12.2836
三光全而寒暑平	-12.2837
修設三界清醮	-12.2837
犁	-12.2837
韓君丈人	-12.2837
従	-12.2837
巿	-12.2837
今世捨生受生三業六情十因五欲藴結	-12.2837
塋	-12.2837
等病或患	-12.2837
躃	-12.2838
寂無遺響	-12.2838
太虚感靈㑹命我生神章一唱	-12.2838
報對玄曹恐墮沉淪莫由解贖今依	-12.2838
瀣	-12.2838
眞科品修齋行道燒香散花稽顙三元皈	-12.2838
罪咎積若沙塵	-12.2838
賚	-12.2838
五星北斗七元中告五嶽四	-12.2838
靈駕不待轡朗然生神章	-12.2838
流光法界天尊	-12.2838
明開映照我身三光	-12.2838
東嶽天齊大生仁聖帝	-12.2838
出隂入陽	-12.2838
中央土德鎭星	-12.2838
上清童初府	-12.2839
五仙中靈之炁	-12.2839
丄	-12.2839
昭垂應感之恩普放神光降流	-12.2839
祗受齋功	-12.2839
呢	-12.2839
姓名謹重封	-12.2839
帝上清大帝太清大帝	-12.2839
或沉或浮	-12.2839
其諸丹悃具載青詞	-12.284
繆	-12.284
次齋官上香設拜	-12.284
天地同靈九祖種親腐骸更榮魂	-12.284
依準黄籙靈仙科品元始符命開度事理	-12.284
太釋玉隆騰勝天	-12.284
三獻散花某上啓	-12.284
無邊爽識	-12.284
天一北獄	-12.284
㬰	-12.284
念一念爲道四大合德齋主七世父母免	-12.284
愕	-12.284
眞火合同符	-12.2841
醯	-12.2841
正一沖玄神化靜應顯佑眞君	-12.2841
無極太上至眞上上太一君三洞天尊次	-12.2841
詹	-12.2841
帝眞華府命元眞靈化凝之炁	-12.2841
右符宻呪召	-12.2841
大神監生主録南上三	-12.2841
志心皈依奏啓无上大羅天	-12.2841
臣等向來奉爲	-12.2841
上解祖考億劫種親疾除罪簿落滅惡根	-12.2842
請滅三惡斬絶地根	-12.2842
䆁	-12.2842
售	-12.2842
旍	-12.2842
校量功德院	-12.2842
迢	-12.2842
元皇正炁來合我身功加一切天地咸	-12.2842
身受度預修黄籙大齋幾晝夜仰祈天澤	-12.2842
六道四生孤䰟滯𩲸諸𩔖傷亡	-12.2842
弁	-12.2842
王開度飛玄爽凝化輪空洞故根離昔愛	-12.2842
槖	-12.2842
西南方屠割地獄	-12.2843
九皇玉帝當召九皇靈官飛龍騎	-12.2843
沉淪惡對匪繇懴贖曷遂解除	-12.2843
虚度百年之荏苒桑榆莫駐頓驚九夜之	-12.2843
本思舊宗幽夜淪遐劫對盡大運通	-12.2843
洞垂淵聽	-12.2843
𩳐	-12.2843
㴠	-12.2843
包羅中有度人集萬眞而校録仰玄元之	-12.2843
无上玄元太上道君召出	-12.2843
體耀金輝斬伐胞根七玄	-12.2843
太素秀樂禁上天	-12.2843
五炁天君北郷神仙諸靈官	-12.2843
省歸神願紀南宫之字庶承釐於見在而	-12.2843
三十二天三十二帝	-12.2843
專爲亡故三洞弟子某	-12.2843
解𡨚謝過受戒傳符度命成眞不經苦惱	-12.2843
𣲖祖玄眞師	-12.2843
九幽長夜之府魂充考撻諸痛備嬰形體	-12.2843
儉愛欲法	-12.2843
靈寳玄一經籍度師侍經五帝玉童玉女	-12.2843
紱	-12.2843
𠆸	-12.2844
昊天上帝紫微大帝天皇大帝	-12.2844
玉符所告神眞八威邪門閉塞正道	-12.2844
稽首拜辤十方	-12.2844
奧	-12.2844
爲善最樂	-12.2844
今日道場大衆人各運心仰對慈尊懴悔	-12.2844
柝	-12.2844
穀豐熟國富民歡七願浮雲結炁聚	-12.2844
不亂轉法	-12.2844
太歳某年月日	-12.2844
中有度人不死之神	-12.2845
奥柔惠潤加蠕息天人獲慶年同劫	-12.2845
俓上供養无上至眞經寳天尊	-12.2845
旋行躡雲綱乗虚歩玄紀吟	-12.2845
驚天駭地	-12.2845
鍤	-12.2845
戕	-12.2845
盩	-12.2845
西方奎婁胃昴畢觜參七宿星君	-12.2845
建齋之日願賜恩光證明修奉干冒聖威	-12.2845
三洞法師沖靖	-12.2845
至真无極大道中天二大尊帝九皇玉	-12.2845
逹神氣和合靈官	-12.2845
畚	-12.2846
寄庫經財	-12.2846
清上相天君泰玄上相天君天	-12.2846
播種无期	-12.2846
禾稼滋植營運日豐咸得覆載萬	-12.2846
地府掌亡人案	-12.2846
事意至須至申聞者右謹録狀上申	-12.2846
水府掌亡人案	-12.2846
次回向念善	-12.2846
救苦眞符長生靈符靈寳九眞妙戒	-12.2846
唐廣成先生杜光庭剛	-12.2846
泰素妙廣	-12.2847
事意至緫祈利益除	-12.2847
拔逮根法	-12.2847
節度奎光	-12.2847
曦	-12.2847
具法師衘位姓	-12.2847
无停今日大慶欣喜蒙	-12.2847
機上相天君天機内相天君天樞	-12.2847
龍神鎭守	-12.2847
眞授靈寶通玄弘敎水南先生林靈眞編	-12.2848
荏	-12.2848
幕上清靈寶玄壇恭	-12.2848
袵	-12.2848
上章大吉利	-12.2848
剪截魔王北帝所承風火	-12.2848
應念充周隨感飽滿	-12.2848
猖狂我享上功坐運魁罡億劫長存保天	-12.2848
𧷢	-12.2848
元始勑下五老監明濟度群品瞬息	-12.2848
生魂育魄	-12.2848
湔	-12.2849
生人欠錢	-12.2849
喙	-12.2849
先生林靈眞編科儀立成品祈禳通用	-12.2849
主紫微大帝北斗	-12.2849
俢	-12.285
南極眞王朱陵大帝	-12.285
隨本根亹亹	-12.285
苒	-12.285
眞自然大聖上元一品賜福天官大帝君	-12.285
綰	-12.285
豁滯非神武運通由中發髙唱稽首舉	-12.285
騫樹圓景園煥爛七寳林	-12.285
垂洪造願賜證明以今奉爲齋主某崇建	-12.285
陽過隂愆千條萬件無邊無量罪結九幽	-12.2851
黄籙拔度威儀燒香然燈修齋行道仰謝	-12.2851
伏願大道矜憐髙眞憫佑告下	-12.2851
太上黃籙齋儀卷之二十	-12.2851
操智慧之舟	-12.2851
煞即俾鎮守封維沉	-12.2851
天獸三百名獅子巨萬	-12.2852
混化歸元一髙結元始	-12.2852
非意别人我四維不守三惑未除元臘威	-12.2852
幔	-12.2852
玄曹愆書玉簡一朝滅度九夜沉淪非仗	-12.2852
玄悟我理兼忘介福九天端交禮地辰良	-12.2852
之郷衣食自然形神俱妙得道之後	-12.2852
當司今據某郷貫	-12.2853
解壇散席	-12.2853
度魂儀斷除考對俾亡故某出離幽	-12.2853
郷神仙諸靈官廣運慈悲特垂原赦告下	-12.2853
煥落景霞布神	-12.2853
纍	-12.2853
流年臨犯	-12.2853
玄都山十方宗皇一岧岧天寳臺光明	-12.2853
聚炁返形俓登長樂得道之後昇入	-12.2854
簸	-12.2858
行幕拜首祈恩	-12.2859
剛風騎置驛馬上章	-12.2859
亡故某人生有惡縁死罹按問	-12.2859
洞大魔王酆都山	-12.2867
天師君上相上宰四司五帝	-12.2869
裝嚴无極之國	-12.2869
風火驛傳年歳次月日時告下具法位	-12.2877
無極大道太上大道君太上老君	-12.2886
神霄九宸上帝	-12.2898
无任惶懼之至謹狀太歳年月日具位	-12.2935
皇大帝斗中	-12.2991
隂陽神決吏	-12.3027
妙无上帝虚皇玉晨大道君	-12.3045
教導頑夫皆蒙惠澤精苦自	-12.3152
下情不勝激切懇祈之至謹奉表陳啓以	-12.3186
第一壘色潤地	-12.3214
皆悟道三願九夜悲魂一時解脫四願孤	-12.3279
无安閑空寂澄清自居廣開法門	-12.3316
德大仙顯靈溥濟清微洞	-12.3332
靈寶領敎濟度金書卷之一百五十	-12.3417
沾恩十方仙童	-12.3479
表具位臣姓某上言今月某日爲	-12.3621
眞交㑹在此香火爐前	-12.3631
左右官使者隂陽神決吏科車赤符吏	-12.3662
某下情無任惶懼之至謹狀年月日	-12.3747
芋	-12.3788
殟	-12.3789
遅	-12.3798
時後天綱加鬼門	-12.3801
倖	-12.3802
鍜	-12.3803
天魔王制邪玉文	-12.3803
腿	-12.3804
殼	-12.3806
鞅	-12.3807
煇	-12.3808
糟	-12.3808
肴	-12.3808
髙功再入科	-12.3808
自皈依師尊大聖衆至眞之徳得道之後	-12.3808
寬	-12.3809
薜	-12.381
藜	-12.381
晹	-12.381
名刋玉簡字録帝房乗飈散景飛騰太空	-12.381
薬	-12.381
不負效信恩惟太上分别	-12.3811
赤松子章曆卷之	-12.3811
怙	-12.3812
洿	-12.3813
蘊	-12.3816
坼	-12.3816
悄	-12.3817
圯	-12.3817
讟	-12.3817
書符置前呪曰	-12.3818
鯤	-12.3818
煨	-12.382
噓	-12.382
筒	-12.382
婿	-12.3821
夲	-12.3821
感而遂通	-12.3821
仐	-12.3822
孑	-12.3822
脅	-12.3822
歸根復命	-12.3822
港	-12.3822
鋩	-12.3823
羶	-12.3823
媒	-12.3823
心肝脾肺腎	-12.3823
井鬼柳星張翼軫	-12.3823
啜	-12.3823
悌	-12.3824
之神靈主執三界内外一切聖衆	-12.3824
𩃱	-12.3824
行諸綺言或於	-12.3824
敲	-12.3825
曄	-12.3825
今以授子子其	-12.3825
代天行化	-12.3825
舁	-12.3825
謹集見前清衆	-12.3826
鱗介羽毛	-12.3826
州都仙太史	-12.3826
仙主萬法宗師至道玄應神功妙濟眞君	-12.3826
以今運誠悉	-12.3826
諍	-12.3827
禮足各長跪皈命懴悔	-12.3827
地絶妖塵	-12.3827
琚	-12.3827
弑	-12.3827
愓	-12.3827
詞謹當宣奏宣詞按如詞㫖	-12.3827
無量品至眞大神無鞅之衆浮空而至	-12.3827
北方无極世界一切玄司	-12.3827
鄒	-12.3828
楠	-12.3828
擘	-12.3828
靈寳官屬領仙監齋	-12.3828
人不喜見	-12.3828
洞空青靈宫	-12.3828
執籙把籍	-12.3829
無極諸天福堂之内	-12.3829
解繫大將軍一人兵士十萬人來下上請	-12.3829
卉	-12.3829
天尊東北方度仙上聖	-12.3829
襯	-12.3829
客塵滓性	-12.3829
觴	-12.3829
卷二百九十	-12.3829
誥命等級品	-12.383
煒	-12.383
鼠	-12.383
譟	-12.383
一如靈寳無量度人律令	-12.383
羯	-12.383
九天自然生神上帝	-12.383
第六壘金剛鐵澤地	-12.383
和天安地	-12.383
臧	-12.383
愴	-12.3831
楣	-12.3831
養靈根不復枯	-12.3831
戞	-12.3831
閲	-12.3832
司馬誦洞謡	-12.3832
畨	-12.3832
𦕈	-12.3832
錢二萬四千	-12.3832
𤼵	-12.3833
戺	-12.3833
畦	-12.3833
昌運欣逢慶基夙植	-12.3833
塵流浪三業紛紜上逆天文下違地理陽	-12.3833
蹠	-12.3833
帝有恩言	-12.3833
驤	-12.3833
人紀隂忤神明日積月深陽	-12.3833
生口語自作教他萬過千愆无邊无極因	-12.3833
怕	-12.3834
九老仙都君九炁丈人	-12.3834
怨道咎師	-12.3834
伏願應感分輝流光下降謹奉請	-12.3834
過有淵陵	-12.3834
存思玄妙品	-12.3834
弟子某身及家口大小	-12.3834
疐	-12.3834
素車白馬	-12.3834
太上玄元五靈老君	-12.3834
嶼	-12.3834
方無極飛天神王長生大聖皆來擁護	-12.3835
依玉匱九幽明眞科品修	-12.3835
臣衆等今故燒香歸身歸神歸命欽奉聖	-12.3835
上品妙經人各一過爲齋主禳謝積犯	-12.3835
扺	-12.3835
貪累苦形門	-12.3835
付與身中悉令備具	-12.3835
帝君化爲嬰兒始生之狀在	-12.3835
五榖熟而人民育	-12.3835
切念齋主某天根顚倒地	-12.3835
詵	-12.3835
迴度人之仁符	-12.3836
左右捧香驛龍騎吏侍香金童傳言	-12.3836
始皇孝芒天	-12.3837
羨	-12.3837
嘯歌邕邕	-12.3837
無極世界恒沙衆生	-12.3837
某上言今月某日爲某修建某	-12.3837
楹	-12.3837
它	-12.3837
東極宫中大慈仁者	-12.3837
奉修神呪行道轉神呪妙經首謝罪愆斷	-12.3837
塍	-12.3837
渝	-12.3838
志心稽首禮玄中大法師	-12.3838
以演洞章次書靈符元始	-12.3838
烱	-12.3838
謦	-12.3838
長靈明仙之炁	-12.3838
太華靈仙赤文告命無幽不	-12.3838
簡如上法奉降	-12.3838
曺	-12.3838
瘨	-12.3838
崿	-12.3838
等今故燒香奉爲某乙修建靈寳解考妙	-12.3838
泰玄樞機三省諸相天君	-12.3838
爲物範六念損巳布施道士及	-12.3838
冉	-12.3838
糓	-12.3839
靜黙堂序立華夏	-12.3839
情悃具載緘謄願得太上十方	-12.3839
南陵樞府	-12.3839
上奉諸天尊帝中熏三界	-12.3839
俓登長樂大慈大悲尋聲救苦來无上尊	-12.3839
柩	-12.3839
下元黄籙簡文靈仙品	-12.3839
罰油五升	-12.3839
天官地官水官	-12.3839
五方徘徊一丈之餘天眞皇人按筆乃書	-12.3839
之至謹伸亞獻亞獻	-12.3839
宿世以來七祖父母下及	-12.3839
焚太乙注生錬䰟生	-12.3839
葩非色非香非空非假祥雲甘露綵霧	-12.3839
靈下供神祇回資品	-12.3839
太皇元光皇帝君	-12.3839
雍和萬化	-12.3839
舫	-12.384
故傷誤殺	-12.384
色累苦心門	-12.384
方至真神仙一切大聖衆	-12.384
上清十一曜眞皇君南斗六	-12.384
三元三官大帝北極四聖眞君	-12.384
司眞君北斗九皇眞君二十八宿星君	-12.384
昕	-12.384
令諸罪人自識宿命悔過	-12.384
來到㑹中以用供養	-12.384
風伯雨師	-12.384
滕	-12.384
臣適來引領官衆升壇轉	-12.384
下五老監盟濟度群品瞬息	-12.384
朦	-12.384
无極世界五嶽四瀆神仙至眞	-12.384
東華木公上相青童道君	-12.384
眞諸君丈人東華南極西靈北眞	-12.384
德得道之後長享自然	-12.3841
俵	-12.3841
謹奏爲入意其諸	-12.3841
懴悔亡故某億劫循環宿縁輪轉前	-12.3841
鶴駕臨軒與醮衆眞如儀朝禮朝禮旣周	-12.3841
洞微髙士開光	-12.3841
法衆等至心皈身皈神皈命	-12.3841
已生未生	-12.3841
執大象以	-12.3841
方幽爽靈識上登仙	-12.3841
𥹭	-12.3842
玄壇土地方域神真	-12.3842
下告所司開度故三洞弟子某溥及	-12.3842
儀歩虚燒香頌各禮師存念如法衞靈	-12.3842
賖	-12.3842
浚	-12.3842
另	-12.3842
生報對六根三業五欲七情隂過陽愆日	-12.3842
進拜衆眞監度朱章入夜	-12.3842
歲德尊神土地主執三界應感一切	-12.3842
亶婁阿薈	-12.3842
无極世界神仙正眞	-12.3842
凄涼顧謀家	-12.3842
奉行生身受度科法傳授金籙	-12.3842
方九幽長夜之府魂繫	-12.3842
某氏門中先逺宗祖齋主身後故誤𡨚仇	-12.3842
浮黎法㑹之時不忘元始付祝之訓特遣	-12.3842
日回靈神虎辟邪飛天流鈴摧	-12.3842
帝克誠事天以實望蘭缸而容與想芝炬	-12.3842
滌穢消氛萬魔恐怖龍虎飛	-12.3842
亡故某普及幽明𡨚親平等積劫循環	-12.3842
攝役鬼靈中山神呪普天使聞五靈安	-12.3843
天司命注上生名飛度南宫永	-12.3843
莫由解贖因今轉經行道懴悔首陳伏冀	-12.3843
彬	-12.3843
稽首皈依䖍誠讃詠信禮無上玉虚天	-12.3843
常享太平之運	-12.3843
繄	-12.3843
饋	-12.3843
無上玄老太上洞淵三昧神呪三洞天	-12.3843
三光映照我身無衰䇿空駕浮舉形仙飛	-12.3843
今有齋主某崇建十迴度人道場	-12.3843
功散壇投龍奠簡滿散修設三界清醮一	-12.3843
度命籍太一輔精延泥	-12.3843
無極世界一切玄曹悉祈赦宥仍乞開度	-12.3843
以今落景陞壇行道請法衆等運兹	-12.3844
法衆運誠修齋奉請請神	-12.3844
流金豁落群魔滅蹤辟奸破	-12.3844
請命奏金章罪名	-12.3844
跪奏具位誠惶誠恐稽首頓首再拜奏啓	-12.3844
各一過專爲故三洞弟子某消除所犯	-12.3844
方多劫罪咎普及	-12.3844
網五賊顚倒誰操欲海之舟六鑿搶攘孰	-12.3844
胎炁生上元陵梵	-12.3844
靜念如法開經誦經經畢度人	-12.3844
龍謡歌慶㑹散花太空神化	-12.3844
吏綉衣使者三炁正神急上關啓	-12.3844
曹仙官上元太極左宮	-12.3844
隆庠序濟濟皇教恢	-12.3844
所有眞符謹當宣告宣符宣關飛空歩虚	-12.3844
生世之日所行元惡	-12.3844
邕	-12.3844
眺	-12.3844
上帝太乙救苦天尊十方分身應化	-12.3844
年月日告下具位姓某奉行	-12.3844
背亂四時致使上天降災后	-12.3844
開度亡過某靈魂謹具表奏聞者臣伏以	-12.3844
歩虚燒香頌各禮師存念如法宣衛靈呪	-12.3844
瀘	-12.3845
香林㑹中法解眞人十華眞人普救眞人	-12.3845
十迴度人道場依按經科頒宣符命告下	-12.3845
命飛天使者承領	-12.3845
无量度人上品妙經落滅夙今所犯	-12.3845
祇社稷城隍里域主宰興雲降雨走電驅	-12.3845
符命敬爲頒行庶得天衍祥禧地除災	-12.3845
清明重霄上合期慶雲際玉章散	-12.3845
十方諸天大聖慈悲願力主盟經功伏願	-12.3845
伏願頒龍符於	-12.3845
既嚴修奉盍罄懇祈以今奉爲	-12.3845
元始度人之訓嘯命飛天使者承領白簡	-12.3845
迨至今生齋戒不修綱常不守侮慢天地	-12.3845
中有南極長生之君中有度世司馬大神	-12.3845
太上唱清謡香	-12.3845
玄上開明元始監眞上帝五老赤書	-12.3845
世界一切玄司原赦宿愆誕敷仁澤勑下	-12.3845
巳得道過去及未得道見在福中	-12.3845
控告因今修齋行道發露懴祈伏冀淵聽	-12.3845
父母一切死魂惡對罪根三界司筭女青	-12.3845
舉臣衆等宣懴宣表	-12.3845
從官十四人符吏	-12.3845
携髙仙子諸天散香花	-12.3845
上帝上清紫微碧玉宫太	-12.3845
都所有眞符謹當告下告符宣關焚簡頌	-12.3845
行諸婬欲或	-12.3845
照對本司先據齋意	-12.3846
曷臻吉慶	-12.3846
陽罪隂過	-12.3846
無極飛天神王五天三界大魔王	-12.3846
煮	-12.3846
做	-12.3846
宣告十方三界合屬眞司專爲齋主某	-12.3846
西嶽華山白帝眞君	-12.3846
郷神仙諸靈官今故燒香歸命懴	-12.3846
恭俟恩榮所有眞符謹當宣告宣符	-12.3846
玄曹愆書黒簡未經	-12.3846
懴主某歛心長跪諦聽經言一切衆生	-12.3847
事畢衆官復位	-12.3847
巋	-12.3847
仞臺俯盻紫雲羅逍遥太上京相與坐蓮	-12.3847
啟	-12.3847
寳無量度人上品妙經人各一過開度	-12.3847
應聲天帝靈化梵輔天帝髙虚清明天帝	-12.3847
方救苦無上慈尊	-12.3847
回兹勝利昇度亡靈俓朝	-12.3847
如浮黎侍座之日不忘元始度人之言嘯	-12.3847
居奉道弟子姓某本命某甲子	-12.3847
尊一切神靈仰謝	-12.3847
等謹率見前清衆	-12.3847
斗中天罡萬真節度奎光	-12.3847
之獄䰟繫	-12.3848
十方道寳當願衆生起心回向一切信禮	-12.3848
壽齡延永	-12.3848
天文下逆地理陽干人紀隂忤神靈	-12.3848
德二願一切有生咸皆悟道三願九夜幽	-12.3848
玉皇大天尊玄穹髙上帝斗中之尊天	-12.3848
靈䰟上生福境謹具表奏聞者	-12.3848
時陞壇儀第	-12.3848
刧	-12.3848
宗祖亡人生前殁後故誤𡨚仇	-12.3848
齋主罪業消除災衰洗蕩福壽資命善果	-12.3848
眞水合同符	-12.3848
誠旋行讃詠歩虚	-12.3848
依按經科頒宣符命告下	-12.3848
方碧落空歌至真大神	-12.3848
帶明識生神章髙遊無終敗	-12.3849
刀利禪猷	-12.3849
敭	-12.3849
迴開經文臣恭以	-12.3849
皈命靈寳天尊修齋行道謝過祈恩	-12.3849
南嶽衡山赤帝眞君	-12.3849
術天帝波羅尼宻不驕樂天帝洞	-12.3849
願得太上十方至眞道炁靈寳	-12.3849
曹仙官上元紫微宮	-12.3849
礬	-12.3849
沽	-12.3849
禮足各長跪	-12.3849
睠	-12.385
八難順經寥妙哉靈寳囿興此大法橋	-12.385
罣	-12.385
輕慢四大穢賤	-12.385
方無極玉音神王	-12.385
映朗十方各安其位經緯直行保	-12.385
一如靈寶玄壇律令右牓曉諭各	-12.385
訣憑受度之金科肅按經儀聿	-12.385
故某人溥及幽冥𡨚親平等	-12.385
河清海晏	-12.3851
陞壇行道燒香散花轉誦太上洞玄靈寳	-12.3851
世界諸大地獄之中拔度䰟儀赦除考對	-12.3851
情見乎辭	-12.3851
偁	-12.3851
之曹長夜㝠㝠無由解脫今依	-12.3851
必詣司存銓量無隱今有弟子某遵預	-12.3851
不經苦惱常覩光明	-12.3851
藎	-12.3851
南上司命司録延壽益筭度厄尊神	-12.3852
普及幽㝠𡨚親平等爰從無始迨至有終	-12.3852
清衆運誠平坐如法平坐讃靜念如法	-12.3852
方考對之司徑詣	-12.3852
四運和平國安民豐普天閑	-12.3852
丹元廉貞玉晨君北斗太常	-12.3852
輙伸善頌仰賛神功	-12.3853
人禄存玉晨君北斗遊擊	-12.3853
乃仰存七星使煥明於北方良乆	-12.3853
王稽首儔靈運長謝囂塵張	-12.3853
天關破軍玉晨君北斗玉帝	-12.3853
府定罪㝠官酆都山	-12.3854
仗兹功德回薦亡靈清衆運誠皈依讃詠	-12.3855
誠謹啓以聞發念一念爲道四大合德	-12.3855
瑞露凝甘	-12.3855
䄄	-12.3855
又祝曰願得除某七世以來下逮某身	-12.3856
筭度厄君一人官將百二十人上請	-12.3856
正神急上關啓臣今奉爲齋意以今	-12.3857
玄中法師信禮	-12.3858
太皇黄曽天	-12.3858
誓者出家之後誓不	-12.3858
隂宫凡下元生人運應滅度身經太隂期	-12.3859
恪冀眞慈特垂矜憫靈符昭告善頌敷陳	-12.3859
以昭玄貺干冐聖威	-12.386
道敎靈驗記	-12.386
祖炁眞光齊接引	-12.386
紋之繒一疋金龍一枚歸命	-12.3861
今奉爲入齋意以今陞壇設醮願得	-12.3863
玉清道炁靈寳妙光下降流入	-12.3864
𠒋	-12.3864
巨億萬計	-12.3864
諸省府院司將吏兵馬	-12.3865
侖	-12.3866
侁	-12.3877
鎭星四據家國利亨名刋玉簡	-12.3884
無形無名虚无自然金闕玉陛下	-12.3904
向來所啓之誠速	-12.3905
某上言今月某日爲奉齋法弟子某	-12.4079
場法事小兆臣某與臨壇官衆等	-12.4082
臣晚朝行道之所自然生金液丹碧	-12.4103
流神光照夜隂翳俱收萬仙降格扇景乗	-12.4139
淡泊虚無安閑空寂澄清自居廣開法門	-12.4177
克勤忠於君主	-12.435
靈寳生身受度預修黄籙大齋	-12.4364
賢聖日生三念法師功德大建教化明	-12.4381
无極大道元始天尊太上大道君太上	-12.4444
儲福定命眞君九天	-12.4536
等謹同誠上啓虚無自然元始天尊	-12.4644
五嶽五帝眞君五天聖帝	-12.4673
顯服冠帶垂纓關啓玄壇土地方域神眞	-12.4675
虚無自然元始天尊無極大道太上	-12.4707
太上玉晨大道君金闕後聖玄元老君	-12.478
結空峙玄霄諸天挹流芳其妙難思議	-12.4796
量天尊仰惟三	-12.4844
俓上供養无上至眞道寳天尊	-12.4871
敗仙相第	-12.4887
碽	-12.491
五過五帝朝眞	-12.4913
元皇帝真元君	-12.4914
窨	-12.4914
當來託生獲	-12.4914
急急如元始無量度人律令	-12.4915
嚏	-12.4915
佯	-12.4915
一切頌一契	-12.4917
豢	-12.4917
苐	-12.4917
磧	-12.4918
脛	-12.4918
䟦	-12.4923
𦤀	-12.4924
誠惶誠恐稽首載拜	-12.4925
咤	-12.4926
脈	-12.4926
舌拄上腭	-12.4926
蜕	-12.4927
上柱國蔡	-12.4928
套	-12.4928
毅	-12.4928
西山許眞君八十五化録	-12.4929
禠	-12.4929
閼	-12.493
凊	-12.493
衾	-12.4931
蛭	-12.4931
控愚衷臣誠惶誠恐稽首頓首	-12.4931
卯巳未酉亥丑	-12.4931
舌柱上腭	-12.4932
稽首皈依䖍誠讃詠信禮無上太虚天	-12.4932
鞍	-12.4932
尿	-12.4932
辠	-12.4932
夔	-12.4933
政和二年五月准誥封	-12.4933
無思江由天	-12.4933
謚	-12.4933
回靈養素天尊謹召靈寳玄局	-12.4933
衆等至心皈身皈神皈命慈尊投誠上聖	-12.4934
或男或女	-12.4934
躓	-12.4934
疾赴玄壇向來召集幽魂有	-12.4934
謹按仙科第	-12.4934
九轉景靈備	-12.4935
正音土皇姓	-12.4935
行音土皇姓	-12.4935
遊音土皇姓	-12.4935
積愆未伸懴悔或	-12.4936
梵音土皇姓	-12.4936
毐	-12.4936
癭	-12.4936
憍	-12.4936
涇	-12.4936
僵	-12.4937
缶	-12.4937
複	-12.4937
重念亡過某靈䰟爰從生育乃至淪亡	-12.4937
金花潤曉	-12.4937
不捨慈悲俯運威神爲開	-12.4937
九獄神燈頒宣青玄眞符依科破獄開度	-12.4937
哂	-12.4937
如斯罪咎無量無邊今對道前䖍心	-12.4937
禇	-12.4937
攫	-12.4937
牕	-12.4937
奉醮具官位	-12.4937
懹	-12.4938
九天採訪應元保運	-12.4938
第五壘金粟澤地	-12.4938
桔	-12.4938
倡	-12.4938
棠	-12.4938
仍誦本天章	-12.4938
玫	-12.4938
南方无極世界一切玄司	-12.4938
壟	-12.4938
歸依朝禮眞君求懴悔志心歸命禮	-12.4938
窮萬神咸聽三界五帝列言上清	-12.4939
埴	-12.4939
鷙	-12.4939
至心朝禮十方化號太一救苦天尊	-12.4939
上三天執法開化隂陽功曹	-12.4939
玖	-12.4939
污	-12.494
篡	-12.494
威制群魔普掃不祥急急如律令次至	-12.494
魂神澄正萬炁長存不經苦惱身有光明	-12.4941
若人臨終之日願生彼國當	-12.4941
籃	-12.4941
鞫	-12.4941
仗此善功回度	-12.4941
曕	-12.4942
髙仙洞笈之炁	-12.4942
查	-12.4942
散形聚形第	-12.4942
無英公子白元尊神	-12.4942
戾天躍淵	-12.4942
導運御世	-12.4942
眞戒受持之後獲	-12.4942
符使青宮第	-12.4942
覘	-12.4943
崇建九天自然生神妙齋	-12.4943
鄉神仙諸靈官三禮各虔誠懴謝	-12.4943
㫁	-12.4943
天尊東南方好生度命天尊西南方太靈	-12.4943
乞按靈寳科格然懴九獄神燈伏願	-12.4943
寸四分厚二分	-12.4943
送修齋事畢仰荷玄恩志心稽首奉送	-12.4943
媱	-12.4943
鼈	-12.4944
尊願垂大慈力拔度此亡魂出離	-12.4944
獄徃生人天道不可思議功德	-12.4944
㠀	-12.4944
爾時元始天尊爲普救眞人演說	-12.4944
今燒香行道咸乞蕩除伏冀	-12.4944
東極青玄救苦九龍符	-12.4944
清衆歸依虔誠讃詠	-12.4944
設三界髙眞清醮	-12.4944
救苦天尊至心敬禮	-12.4944
徳得道之後升入無形和與道合眞	-12.4944
裒	-12.4944
汩	-12.4945
拌	-12.4945
昜	-12.4945
初捻上香願此香煙騰空俓上供養无上	-12.4945
捏	-12.4945
徑上供養至眞無上師寳五靈玄老	-12.4945
煙騰空俓上供養无上至眞師寳天尊	-12.4945
嶷	-12.4945
獄五苦解悉歸太上經靜念稽首禮	-12.4945
款	-12.4945
雲輿巳降鶴駕來臨齋事圓成還當奉送	-12.4945
奉戒頌道爲無心宗一切作福田立功	-12.4945
茆	-12.4945
諜	-12.4945
收神食神吏收鬼食鬼吏收	-12.4945
霑恩十方仙童玉女侍衞	-12.4945
赤書玉字八威龍文保制劫運使天長存	-12.4946
九天金籙無量壽生神君	-12.4946
䛕	-12.4946
三清至尊十方上聖玉京金闕天帝天	-12.4946
家給人足	-12.4946
巵神燈布帝眞	-12.4946
朝奏次序品	-12.4946
修飛歩之道當思夫人姓諱形像	-12.4946
殽	-12.4946
九州都仙太史髙明大使	-12.4946
志心稽首禮謝無上正眞三寳	-12.4946
無停今日大慶欣喜蒙恩諸天懽恱	-12.4946
玄隂七靈九炁合形	-12.4946
廨	-12.4946
敢皈神於璇極爰請命於	-12.4946
蕩孰還本始以生神萬竅淪迷誰固根源	-12.4946
翩	-12.4947
交㑹在此香火鑪前	-12.4947
今有青詞謹當宣奏宣詞按如詞	-12.4947
誠十極生死重過並乞蕩除伏冀	-12.4947
籩	-12.4947
酋	-12.4947
六之常未臻玄妙徒陟鴛班而綴武曷敡	-12.4947
由宿世功立德務及時發願莫不從善惡	-12.4947
肘行膝歩	-12.4947
量之章宻契靈寳嗣師之㫖衆真監度受	-12.4947
愛累苦神門	-12.4947
㧞度大齋燒香行道懴謝某億劫以來至	-12.4947
皆五億五萬五千五百五十五億五萬重	-12.4947
眞乗遵元始法訓修齋首過傳戒佩符	-12.4947
净	-12.4947
萎	-12.4948
五嶽眞君名山洞府得道神仙諸靈官	-12.4948
消厄難獲迓禎祥恭惟	-12.4948
上朱煙洞照天下及臣等身百邪摧落	-12.4948
上南宫不經此獄謹懴	-12.4948
命駕御九龍金華擎洞經捧香	-12.4948
三禮訖懴臣某等謹爲某家	-12.4948
鏧	-12.4948
之眞符降元皇之正炁即俾弟子某	-12.4948
攙	-12.4948
願垂慈造俯錫隆恩頒	-12.4948
持心勿怠	-12.4948
鶯	-12.4948
无極大道太上老君太上丈人元始天尊	-12.4949
𣺌	-12.4949
名於遁甲今有	-12.4949
靈山下告河海十二泉源九府水帝溟	-12.4949
亦有五億五萬五千五百五十五億五萬	-12.4949
受持之後當獲	-12.4949
侶	-12.4949
酢	-12.4949
訂	-12.4949
竣	-12.4949
邸	-12.4949
煥爛光耀太微黒靈尊神	-12.4949
都天大法主印	-12.4949
囓	-12.4949
焚本天眞炁符	-12.4949
紀善功俾離惡對百年運盡即得返形逕	-12.4949
三界衆眞醮筵列聖適伸拜請諒	-12.495
沾恩十方仙童玉女侍衛香烟傳	-12.495
諸大童子遍十方際盡玄虚界	-12.495
膩	-12.495
龎	-12.495
三百六十五度河漢星	-12.495
德大建教化明達俱獲飛仙	-12.495
主左府太陽火官	-12.495
虚无大道九天元皇玉帝御前	-12.495
附我旛賜汝靈書歸上清急急如太	-12.495
始符命金籙白簡長生靈符告下南方丹	-12.495
各還神房便散香再拜次上勞	-12.4951
擲火萬里流鈴八衝	-12.4951
違天負地	-12.4951
不得拘留逼合鬼羣	-12.4951
太上洞玄靈寳九天自然生神章經	-12.4951
儕	-12.4951
誠謹啓以聞發願一念爲道四大合	-12.4951
黿	-12.4951
八道祕言	-12.4951
三清上聖七御玄尊	-12.4951
无上九幽玉匱明真普度无間黄籙大齋	-12.4951
以今稽顙投誠擎拳皈命	-12.4951
沾恩十方仙童玉女侍衞蘭煙傳	-12.4951
分輝應感下映靈旛隨風飛揚直向	-12.4951
梭	-12.4951
蒙如丹禱允荷玄恩	-12.4951
蠆	-12.4952
虗	-12.4952
皈依䖍誠讃詠信禮髙上紫微垣北斗	-12.4952
陽之符即上	-12.4952
普及含靈均沾利	-12.4952
星中大聖眞人玉女星宫神仙	-12.4952
書符時存本天	-12.4952
大變神王六龍普變靈官溟涬大梵靈官	-12.4952
艷	-12.4952
帝眞始明精號曰字元陽	-12.4952
晞	-12.4952
黷	-12.4953
建節持幢	-12.4953
圠	-12.4953
寳瓊臺紫微上宮靈寳至眞明皇道君	-12.4953
摺	-12.4953
混合空洞炁飛爽浮幽寥延康無期劫	-12.4953
特爲係薦亡靈落滅夙劫以來上犯	-12.4953
上明天尊廣濟之澤下副	-12.4953
獺	-12.4953
喨	-12.4953
无思江由天	-12.4953
位今有齋主某克練時日爰作室家慮犯	-12.4953
備香花燈燭之儀布宫卦方隅之象皈命	-12.4953
凡勤拳而皈命必激越以馳	-12.4953
動九玄二誦天地通混合自相和九	-12.4953
極大道中天二大尊帝九皇玉	-12.4953
萬劫受苦不捨晝夜	-12.4953
領仙監齋飛龍騎吏	-12.4953
曁六道四生無邊幽爽均行	-12.4953
業者見之爲	-12.4953
蝖飛蠢動巳生未生咸蒙安全普	-12.4954
連粘在前	-12.4954
芝英百靈衆眞交㑹在此香火鑪前當願	-12.4954
郤	-12.4954
三寳中供眞靈回施三塗旁資庶	-12.4954
凡有謀猷悉彰善慶得道之後升入無形	-12.4954
次九朝行道六上轉經某日進拜不經地	-12.4954
消北府生籍注南昌見存皆快樂	-12.4954
至某日開啓齋壇入夜宿啓告齋關燈	-12.4954
長在光明魔無干犯一切神靈侍	-12.4954
從官十三人符吏天	-12.4954
入夜宿啓告齋	-12.4954
博濟髙明弘靜冲湛妙應仁惠	-12.4954
玉清上相大羅无極神公	-12.4954
㝷飛龍躑躅	-12.4954
嶽聖帝酆都大帝扶桒大帝	-12.4954
況奉詞旨敢不上聞	-12.4954
肘歩膝行	-12.4954
年如干歳某月生	-12.4954
髙上玉皇昊天上帝三寳	-12.4954
敢祈吿命於靈司是用頒符於曲府匪	-12.4954
無窮普加施泄	-12.4954
請稱法位具位奉行黄籙大齋法事小兆	-12.4954
辭北府不經輪轉衣食自然	-12.4954
宿罪重過得免離三惡	-12.4954
衿靡不邁玉條流逸響從容虚妙話	-12.4954
瀰	-12.4954
國佑民洪恩眞君靈濟宫中神仙諸靈	-12.4955
一切罪厄仰希矜軫俯賜允俞	-12.4955
上聖矜憐列眞開宥告下	-12.4955
受持佩奉永作津梁至某日	-12.4955
炁下浹身中	-12.4955
備申三官大帝東嶽酆都水府外	-12.4955
擢百關備仙解除死籍宴坐泥丸東華	-12.4955
符東方南方西方北方中央	-12.4955
柬	-12.4955
方无極世界一切玄司陽罪隂愆悉令	-12.4955
以今恭按典式頒行玉清度厄玉簡告下	-12.4955
南斗眞君北斗眞君	-12.4955
原赦夙愆出離苦趣欲望慈觀有造淵	-12.4955
老君十方无極大道道德衆聖	-12.4955
五福天膺三壽神錫子孫榮顯眷屬和	-12.4955
液芝顔玄虚素合心動三關騎	-12.4955
畢九叩頭搏頰	-12.4955
終左命青腰右攝芝童逍遥	-12.4955
香至靈濟宫遍九天	-12.4955
謹率在壇清衆持誦太上玄靈北斗本命	-12.4955
今古攸遵	-12.4955
之樂郷仰冀隆慈俯	-12.4955
本司據齋意職惟領	-12.4956
北方五炁玄天元始徘徊辰星	-12.4956
澇	-12.4956
本家土地司命六神	-12.4956
入齋意以今清旦陞壇	-12.4956
出入㝠無遊宴十方五雲浮	-12.4956
慶斗極流恩赦其既徃之愆錫以方來之	-12.4956
魄命元碭尸㝠演由之	-12.4956
正炁流行敢有	-12.4956
呪勑之一名	-12.4956
四大興靈慶及王侯七祖生天堂煌煌	-12.4956
無昏惑法	-12.4956
郷救苦眞人童子无鞅眞衆恭望聖慈俯	-12.4956
釋𡨚債朱章入夜修設玄	-12.4956
除畫一具奏	-12.4956
雷即俾膏雨應時旱魃退	-12.4956
削除罪録開度窮魂身入光明上	-12.4956
毀瘁苦毒難任長淪萬劫	-12.4956
叡	-12.4956
髙上玉皇尊帝太微玉帝北極玄卿大帝	-12.4956
早得更生福慶之門某甲身得道眞	-12.4956
等歸命之誠謹啓以聞發願一願大道	-12.4956
皡	-12.4957
鸐	-12.4957
與神合同次	-12.4957
罡風騎置吏	-12.4957
出戸太上黃籙齋儀卷之	-12.4957
公仙侯仙卿仙伯玉童玉女飛天典禁翊	-12.4957
恭望天慈允兹奏請	-12.4957
伏望慈悲俯垂洞鑒以今奉爲齋主某崇	-12.4957
无量天尊仰惟三寳髙尊十華上聖	-12.4957
進拜啓告玄穹朱章至某日行自然朝	-12.4957
太上黄籙齋儀卷之十	-12.4957
南方三炁丹天煥景流光熒星轉燭洞	-12.4957
合契虚皇開明童子號曰華	-12.4957
帝座照臨星宰	-12.4957
翠玉尊明梵飛玄景開度長夜魂	-12.4957
以今陞入經座異口同音	-12.4957
奉請當境主司虚空鑒察香官使者里域	-12.4957
頒符告札進拜超度祖玄解	-12.4957
撃	-12.4957
三清上境天眞皇人	-12.4957
芳胤祚衍慶家庭得道之後升入	-12.4957
從劫至劫三業六根構造諸罪殺生偷盗	-12.4957
禳謝易致災危其或身命加臨運限守照	-12.4957
南辰六闕道君	-12.4958
十苦八難九厄之中	-12.4958
太隂黄旛豹尾三符七煞五鬼九良	-12.4958
恐謀家營宅舊葺新修觸犯住宅離方太	-12.4958
毀訾眞靈怨暑咨寒呵風罵雨輕賤五	-12.4958
郷神仙諸靈官長跪䖍誠懴謝	-12.4958
鎮家國無有災傷四海	-12.4958
佪	-12.4958
中元北酆都右隂天	-12.4958
五帝直符傳言奏事飛龍騎吏	-12.4958
刑定命撞命或生災難不自覺知以今陞	-12.4958
名山洞府靖廬福地	-12.4958
玉符寳節嘯命微幽擲火揚威	-12.4958
的煞劫煞伏吟返吟六害三刑四衝二刃	-12.4958
隨風散玉音成紫霄五苦一時迸	-12.4958
方無極世界得道天尊仙眞聖品無	-12.4958
君赤帝養炁君黒帝通血君黄帝中主君	-12.4958
鍪	-12.4959
玉京金闕七寶瓊臺紫微上宫	-12.4959
臻身伏望誕	-12.4959
澳	-12.4959
度之夕乞降	-12.4959
丸敷帝席三部八景分魂生攝	-12.4959
開經玄藴呪	-12.4959
莊嚴无極之國應號天尊	-12.4959
依凖本司日前	-12.4959
十方仙童玉女侍衞蘭烟傳臣向來所啓	-12.4959
尤於既徃	-12.4959
五帝考官九幽地獄巨天力士執罰神兵	-12.4959
剋獲上仙白日登天拜見太上永成	-12.4959
善芽増長	-12.4959
梵行道德隨日新宿命積福	-12.4959
謹率在壇清衆	-12.4959
奉行玄靈璇璣妙齋法事小兆	-12.4959
徳得道之後長享自然	-12.4959
超死蔕克返天根恭惟	-12.4959
㝠保固劫運世祚和平普加潤澤惠	-12.496
痁	-12.496
一切眞宰諸天聖衆	-12.496
亡過某原赦宿生今世一切𡨚愆部衞	-12.496
修行經法敷座賛題經誦經畢解座賛臣	-12.496
將伸受度盍罄懇	-12.496
百年運盡依光俓陟於南丹	-12.496
萬貫屬第	-12.496
誠惶誠恐稽首頓首切念弟子某	-12.496
仰祈天澤克證徃生本司職惟領	-12.496
荊	-12.496
洞玄靈寳自然九天生神章經	-12.496
今依明真玉匱女青	-12.496
六十分位上謝天恩集此殊勲緫祈利益	-12.496
振響十方肅清萬魔不干眞誠上徹令	-12.496
知悉太歲年月日具法位主行齋事姓押	-12.4961
髙上玊皇十方	-12.4961
大帝中元二品赦罪地官	-12.4961
霔	-12.4961
故定知無我	-12.4961
保固劫運世祚和平普加潤惠澤	-12.4961
壇生身受度科法謹	-12.4961
望眞慈俯垂鍳映以今奉爲齋主某崇建	-12.4961
預修黄籙大齋㡬晝夜今宵滿散奉行第	-12.4961
牆	-12.4961
𡩋	-12.4961
所犯四肢舉措動違戒律不依經典	-12.4961
師我見世人	-12.4961
拳拳有請切切無違某不勝䖍祝之至	-12.4961
方淨土聞經聽法面對天尊衣食自然逍	-12.4961
兵馬九宫五帝兵馬	-12.4962
中元四十二曹仙官	-12.4962
聞者右謹具狀上申	-12.4962
瑰	-12.4962
以今欽奉綸音崇修玉籙昇薦某靈	-12.4962
貔	-12.4962
察命童子護戒威神五帝直符六宫掾吏	-12.4962
流金豁落群魔滅蹤辟	-12.4962
錬靈官某壇牒上	-12.4962
滿散修設謝恩清醮三百六十分位	-12.4963
戟	-12.4963
濟我六度行故能	-12.4963
道化眞君中元護正眞君下元定志眞君	-12.4963
普及六道四生孤魂滯魄諸𩔖傷	-12.4963
上都太清宫内供奉應制文章大	-12.4963
謹牒太歲年月日牒具法師衘位姓押	-12.4963
禪善導靈炁玄哺飛天芳華景秀玉質精	-12.4963
旁資苦爽均證生方今者誦詠寳章巳周	-12.4963
組	-12.4964
昱	-12.4964
薇	-12.4964
以今午朝行道請法衆等運茲	-12.4964
北極武曲玉晨君北斗上帝	-12.4964
仗良因之妙力消億劫之愆瑕免歷	-12.4964
水府扶桑丹林大帝	-12.4964
和常居十二樓急宣靈寳㫖自在天堂遊	-12.4964
醪	-12.4965
出堂頌回靜黙謝師	-12.4965
衆諷經畢解座吟侍經囘向仰惟三境	-12.4965
護度之深恩所	-12.4965
方具位啓聖伏以	-12.4965
等向來奉爲齋主某轉誦度人妙經禳謝	-12.4965
槃	-12.4966
此皆元始慈悲之大造實由天尊	-12.4966
監度注上生名玄壇表文謹當宣奏宣表	-12.4966
門門有四光芒爓照九億萬里中上有	-12.4966
不捨晝夜謹當資薦願遂往生志心歸命	-12.4966
俯囘慈造同賜證盟臣等諷誦寳章巳周	-12.4966
暗得覩光明萬罪蕩除𡨚仇和釋上	-12.4966
執簡當心平坐如法	-12.4966
所啓速達逕御太上無極大道	-12.4966
無結固無情	-12.4967
上清日宫太陽帝君上清木火	-12.4967
摭	-12.4968
溶	-12.4968
願運威神下破	-12.4969
窓	-12.4969
靈寳科格然㸃九獄神燈皈依清微應化	-12.4971
欲乞勑命關告	-12.4971
考鬼仙官酆都山	-12.4971
曙	-12.4972
闚	-12.4972
前綺言妄語或於	-12.4974
宣䟽移班第	-12.4974
疾赴玄壇恭領符命隨我神運催召	-12.4974
攝速至風火無停伺候天恩普受開度宣	-12.4975
面建十法座	-12.4977
天尊至眞大帝天帝	-12.4977
天君將諸眷屬無量國人來到㑹中住其	-12.4977
亾	-12.4981
前生諸慳貪或於	-12.4986
大洞三景弟子无上三洞法師奉行	-12.4987
録帝房乗飈散景飛騰太空	-12.4997
左右中三府主隂陽水火生死罪録官	-12.5003
中分行道請法衆等運	-12.5098
禮方懴方三啓樂法以爲妻愛經如珠	-12.5124
道正明宫殿整肅三景齊并道合自然飛	-12.5131
大道君金闕後聖玄元老君十方靈	-12.5134
至眞道寳臣等皈身皈神皈命	-12.515
玉女五帝直符直日香官	-12.5313
方无極太上靈寳天尊志心皈命禮	-12.5338
之界某不勝虔祝	-12.5338
初捻上香願此香烟騰空俓上供養	-12.5368
右府主死太隂水官	-12.5393
皇大天尊玄穹髙上帝北極紫微大帝	-12.5396
黄旗無英命靈旛攝召長夜府開度受生	-12.5454
无上玄老十方巳得道大聖衆至	-12.546
臣姓某上言今月某日爲弟子某崇建	-12.5479
某月日時生行年若干歳伏念	-12.552
向來所啓速達逕御太上	-12.5535
等志心稽首禮玄中大法師重稱法位	-12.5558
寶天尊髙上玉皇十方巳得道大聖衆至	-12.5624
沾恩十方仙童玉女侍衞香煙傳臣	-12.576
今故焼香自皈依	-12.6094
十方仙童玉女侍衛蘭煙傳	-12.6103
等歸身歸命首體投地仰依	-12.6148
擿	-12.6152
眞法帝君太一五神	-12.6154
眞戒宣告亡靈第	-12.6154
盼	-12.6156
不知動入罪網不能自覺	-12.6156
跽	-12.6158
茵	-12.6162
餧	-12.6164
意持戒終身奉行是吾太上太上太一第	-12.6164
肓	-12.6164
䜛	-12.6166
邳	-12.6166
絆	-12.6167
麞	-12.6169
缾	-12.617
拏	-12.617
仙苑編珠	-12.617
鰥	-12.6171
神聖工巧	-12.6171
膊	-12.6171
故榜年月日榜具法位姓押	-12.6172
洞玄靈寳自然九天生神章經解義卷之	-12.6172
方太上靈寳天尊信禮髙上	-12.6172
惔	-12.6173
炅	-12.6174
穪	-12.6174
楨	-12.6174
賄	-12.6174
藿	-12.6174
驥	-12.6175
縑	-12.6175
鰥寡孤獨	-12.6175
飆	-12.6175
䢫	-12.6176
㵼	-12.6176
槎	-12.6177
贊	-12.6177
並仰具狀經本院投押	-12.6177
澮	-12.6177
彜	-12.6178
𩲓	-12.6179
𦈢	-12.6179
𥞫	-12.618
見前清衆請爲讃揚	-12.6181
者轉位入第	-12.6181
徉	-12.6181
粳	-12.6182
隄	-12.6182
真之德得道之後昇入無形和與道合真	-12.6183
○	-12.6183
跌	-12.6183
龐	-12.6183
鳧	-12.6184
此得靈寳淨明飛仙度人之	-12.6184
恭願頒行符命拯濟亡䰟地獄無苦聲	-12.6184
不知何許人也	-12.6184
薊	-12.6184
百萬炁淨色界	-12.6184
繢	-12.6184
𡨕	-12.6185
護魔王爲保言晃晃金	-12.6185
〇	-12.6185
冠執圭光景燁然真人跪奏乞	-12.6185
和𡨚釋對	-12.6186
娯	-12.6186
麝	-12.6186
某年太歲某	-12.6186
寇	-12.6186
潯	-12.6186
借盈尺地	-12.6186
生天逍遥快樂弟子再拜	-12.6186
身累苦魂門	-12.6186
誼	-12.6187
黃帝中主萬神無越	-12.6187
熛	-12.6187
隱書金玄内文	-12.6187
耦	-12.6187
斗中神仙和諸靈官伏聞	-12.6188
搦	-12.6188
帝眞藏府命元五仙中靈之炁	-12.6188
睨	-12.6188
堙	-12.6188
永享無終紀豈知年劫多	-12.6188
彚	-12.6188
笛	-12.6188
㬌	-12.6188
方應號天尊長跪懴悔免恒沙罪障獲	-12.6188
上三尊願以是功徳上祝皇帝陛下伏願	-12.6188
諼	-12.6188
大運將期數終甲申	-12.6188
詬	-12.6189
上元金籙簡文眞仙品	-12.6189
閔	-12.6189
爕	-12.6189
褰	-12.6189
㤗	-12.6189
華競苦精門	-12.6189
鬛	-12.619
覈	-12.619
河澄月淡	-12.619
億曾萬祖	-12.619
風調雨順	-12.619
饕	-12.6191
雲輿弗駐鶴駕難留仰望雲霄不勝攀戀	-12.6191
䘖	-12.6191
𤔵	-12.6191
體投地仰依太上三尊十方衆聖願以是	-12.6192
𣻌	-12.6192
男官法身女官法身	-12.6192
極神郷普受開度上生天堂和與道合眞	-12.6192
誷	-12.6192
旣竟重爲演說	-12.6192
天世界朱陵火府南昌上宫長生大君	-12.6192
秧	-12.6193
覿	-12.6193
鎬	-12.6193
曷提奬於幽靈九拜陳情一忱請命恭惟	-12.6193
大願有重報玄德必	-12.6193
誤紹玄宗濫承宏化科崇存念莫神運於	-12.6193
領對揚之首職懼貽校録之深文仰	-12.6193
璉	-12.6194
斸	-12.6194
行元始符命金籙白簡救苦眞符	-12.6194
今欽奉綸音崇修玉籙	-12.6194
朝解穢符第	-12.6194
醮儀歩虚燒香頌各禮師存念如法	-12.6194
中央玉寳元靈元老	-12.6194
月淡河澄	-12.6194
㪚	-12.6194
屣	-12.6194
聖母慶萬年三界並歡樂稽首禮天尊	-12.6194
烝	-12.6194
精光都一吸	-12.6194
錬更生玄壇表文謹當宣奏宣表	-12.6194
宗桃先聖	-12.6194
鷰	-12.6195
誚	-12.6195
重和元年徽宗皇帝賜	-12.6195
但當存思念誦聖號	-12.6195
福天尊西方太妙至極天尊北方玄上玉	-12.6195
虚明皇天尊下方眞皇洞神天尊	-12.6195
髫	-12.6195
㕘	-12.6195
靈山眞人江河四	-12.6196
徑上供養玉晨至聖自然靈寳大道天尊	-12.6196
上言今月某日奉爲弟子某崇建十回度	-12.6196
助國扶命	-12.6196
德得道之後長享和平	-12.6196
任激切感戴之至謹奉表陳謝以聞	-12.6196
備守五門檢精捕非敢有干試豁落斬摧	-12.6196
第四壘潤澤地	-12.6196
五體投地仰依太上三尊願以是	-12.6196
胴	-12.6196
四象吁員	-12.6196
削除罪録開度幽關身入光明上昇天堂	-12.6197
請福保命延生謹具表奏聞者臣伏以仰	-12.6197
㳂	-12.6197
䓁	-12.6197
趂	-12.6197
帬	-12.6197
奏三天門下省泰玄樞機	-12.6197
太極左仙公葛玄纂集	-12.6197
惟願眞光下映混合華旛隨風飛揚直向	-12.6197
珞	-12.6197
慈大悲普濟眞人以業報因縁請問太上	-12.6197
炒	-12.6197
和九遍諸天朝稽首恭劫年慶此榮舊苗	-12.6197
皓靈皇老白帝七炁天君	-12.6197
蛸翹蠢動	-12.6197
𠖇	-12.6197
皆元始慈悲之大造實由天尊開度之深	-12.6198
㧞度某億劫罪根三界司算女青	-12.6198
以今解壇散齋者	-12.6198
神力護持神光照耀伏願	-12.6198
賝	-12.6198
儲慶保德眞君九天遊奕	-12.6198
𡊮	-12.6198
州社令司牒	-12.6198
詞意奏申牒劄	-12.6198
三洞威神三寳官屬	-12.6198
當願十方仙童玉女接侍蘭	-12.6199
天逺醮壇香氣多玄恩覃宇宙	-12.6199
所冝稽首肅恭凝神叩謝更憑法衆讃	-12.6199
桶	-12.6199
九重爲所度幽靈纏其	-12.6199
正眞生炁下降流入	-12.6199
男官女官	-12.6199
𡪹	-12.6199
㬢	-12.6199
聒	-12.6199
愫	-12.6199
道君太上老君東極青玄老君運明保元	-12.6199
鍋	-12.6199
玄景曜雲衢跡超神方外應感無方圓	-12.6199
魔神公攝遊炁飄飄練素華	-12.6199
㡬晝夜開度亡過某靈䰟以今奉行靈寳	-12.6199
揩	-12.6199
五帝五嶽神仙眞人	-12.6199
泠大神今日上告萬願開陳	-12.6199
逄	-12.6199
遍成人功大聖慶元	-12.62
功曹冠九德通天之冠衣	-12.62
斷地逮役	-12.62
蕉	-12.62
斵	-12.62
硝	-12.62
令驛庭丞四部監功謁者	-12.62
幟	-12.62
禮道禮經禮師	-12.62
誠惶誠恐稽首頓首切慮亡過某靈䰟	-12.62
燠	-12.62
志心皈依十方道寳當願衆生起心	-12.6201
蹙	-12.6201
諸天星宿璇璣玉衡周天二十八宿	-12.6201
志心懴悔奉爲亡靈懴悔	-12.6201
數安可稱浮爽縁故條返胎自有	-12.6201
三者不殺慈救衆生四者不	-12.6201
老上眞玄中大法師三天大聖師五帝四	-12.6201
恭假香傳奉修齋直以今	-12.6201
挿架之籖	-12.6201
右府太隂水官中府風刀之考	-12.6201
烟騰空徑上供養混元大聖自然	-12.6201
禮方方懴啓神王某上啓	-12.6201
夤	-12.6202
幽遐一入大乗路孰計年劫多不生亦不	-12.6202
具法位姓某今據某	-12.6202
斬尸度户	-12.6202
從官十五人符吏天	-12.6202
雲笈七籖云龍漢元年化生	-12.6202
氳	-12.6202
眞之德得道之後永保清寧	-12.6202
三台華蓋星君斗中玄曹道德	-12.6202
青童大道君紫微元靈青金	-12.6202
建齋弟子家億曽萬祖歷劫種親	-12.6202
天康泰得道之後升入無形和與道合眞	-12.6202
謝恩清醮法事小兆	-12.6203
維而布政尊	-12.6203
即使玄壇清淨内外成真天	-12.6203
眼前見過目即言悠大賢明道	-12.6203
消除多劫以來故作誤爲宿罪重過上犯	-12.6203
玉符符形滅度	-12.6203
願神願仙長生度世飛行上清五	-12.6203
鏗	-12.6203
舞鳯金翅朱鳥	-12.6203
㽔	-12.6203
元九幽玉匱長夜之函宿世罪根	-12.6203
御玉樓之邃執	-12.6203
所薦亡魂姓名生死年月	-12.6203
衍慶於方來擬㳙	-12.6203
螢	-12.6204
北酆都右羅酆宫	-12.6204
本𣲖祖師本𣲖度師	-12.6204
慿洪造難格玄恩伏望緑輦丹轝	-12.6204
方恭文宣表關焚化宣	-12.6204
癖	-12.6204
躐	-12.6204
諸塲一品	-12.6204
願回慈造監真度生勑命	-12.6204
初捻上香願此香烟騰空徑上供養	-12.6204
告行符命依按河圖九宫所𨽻乞爲削落	-12.6204
四夷賔伏祅惡自滅	-12.6204
學道修真伏願遂成度符	-12.6204
帝眞魂命元長靈明仙之炁	-12.6204
老輔根萬帝攝眞體圓珠映	-12.6204
相天君天機上相天君天	-12.6204
兜術抗大羅靈化四景分萬條翠朱霞	-12.6204
關功曹上清靈寳行司今發	-12.6204
上祝皇帝陛下恭願	-12.6205
九天生神天尊焚火鍊第	-12.6205
鑒映克副傾投臣向來祗率清衆	-12.6205
拔贖亡故某及齋主某家	-12.6205
嘔	-12.6205
不在大不在小	-12.6205
壇受事香官使者左右龍虎君虚空下降	-12.6205
伏願應感分輝垂慈下降謹奉請	-12.6205
清蕩人各一過咸巳周圓伏願	-12.6205
等今故燒香擎拳皈命	-12.6205
終天無解今依盟眞玉匱女青	-12.6205
聽無私一如浮黎侍坐之時	-12.6205
茱	-12.6205
三業紛紜六情流浪	-12.6205
丈人三寳帝君九天應元雷聲普化天尊	-12.6205
剰	-12.6205
聖道蕩蕩十方肅清保制劫運元亨利貞	-12.6205
三官九署百二十曹宿世罪根咸與落滅	-12.6205
爲道弘之在兆心	-12.6206
三天門下泰玄樞機三省東極瑶	-12.6206
伸奉請請聖散花陞座演第	-12.6206
凡有急難盍先禱祝以今奉爲齋主某解	-12.6206
奔紫雲交覆萬炁齊并	-12.6206
女五帝直符直日香官各三十二人出	-12.6206
願江海蕩蕩無極含容恢廓無細不植淵	-12.6206
洞玄靈寳河圖仰謝三十六土皇齋儀卷	-12.6206
沍	-12.6206
穌	-12.6206
幀	-12.6206
煤	-12.6206
纸	-12.6206
眞香普同供養恭望洪慈俯垂省録臣	-12.6206
世界一切玄司陽罪隂愆悉令消蕩離	-12.6206
帝眞元府命元髙仙洞笈之炁	-12.6206
昭回仁恩孚佑特頒勑命遍告	-12.6206
回向一切信禮志心皈依十方經寳當願	-12.6206
五星虚映煥景神庭包羅	-12.6206
福慶俱服正教同歸自然得道之後與	-12.6206
衆災度脱壽命延長	-12.6206
應元保運眞君	-12.6207
吟諷經畢解座吟回向臣恭以	-12.6207
曷遂昇遷恭惟	-12.6207
一如靈寳无量度人律令	-12.6207
向來祗率法衆奉爲齋主某解禳	-12.6207
某月某日某時生行年若干歳伏念	-12.6207
登天拜見太上永成眞人雲車羽駕	-12.6207
祉精神茂恱歩武康	-12.6207
正月十五日七月十五日十月十五日	-12.6207
石十一願帝王國主日昌四	-12.6207
某齋法事小兆	-12.6207
方聖衆衆等志心歸命	-12.6207
烕	-12.6207
眞大道无上元尊金闕玉陛下	-12.6207
蝶	-12.6208
丹文天地本始總領三	-12.6208
周流神光照夜隂翳俱收萬	-12.6208
窘	-12.6208
靈寶玄一經籍度師侍經五帝玉童玉女	-12.6208
髙上玉皇尊帝君太微玉帝玄卿大帝君	-12.6208
牒候到請詳前項事理	-12.6208
妣	-12.6208
始皇青天碧霞鬱壘中有老人總校圖	-12.6208
眞王長生大帝東極青玄上帝后土皇地	-12.6208
卿備衛我軒上對帝君收魔束妖討捕	-12.6208
罰油二升	-12.6208
鞅數衆一切敬禮遍悉歸依證明懴悔即	-12.6208
四司五帝三界官屬一切尊靈	-12.6208
太上玄虚宗弘道尊其經俯仰	-12.6208
蕭然靈風起宿願定命根	-12.6208
始陽上眞青皇道君	-12.6208
禰	-12.6209
進右足幷通氣	-12.6209
願得長生燈光普照天尊	-12.6209
天赤帝玉堂中有大神號曰赤皇上炎流	-12.6209
眞人雲車羽駕和與道合眞復爐	-12.6209
邅雲上九都飛生自騫那育郁馥	-12.6209
瓊房有妙韻汎登髙神所	-12.6209
兜術開大有一慶享祚多上聖	-12.6209
宣告十方三界合屬眞司	-12.6209
平坐讃舉經題誦經玄靈感應天尊	-12.6209
左輔右弼	-12.6209
前代今生至于累劫上犯	-12.6209
方上香旋行復位	-12.6209
七轉八合周旋天經聖化巍巍	-12.6209
戚憫頑夫依依念子苦勤勤令我憂	-12.6209
北斗太一玄冥司	-12.6209
乞於齋次升壇行道轉誦太上洞玄靈寶	-12.621
勾陳星宫天皇大帝	-12.621
灑衆生五願星辰與日月齊光轉燭照	-12.621
積學爲眞人恬然榮衞和永享無期	-12.621
九轉自成仙琅琅九天音玉章生萬神三	-12.621
亡並與解考除愆齊赴齋壇俱	-12.621
聖威下情無任懇禱之至法衆䖍誠謹	-12.621
揄	-12.621
飛天神王九天眞衆三界應感一切眞靈	-12.621
南辰六闕上眞道君北極九府上眞道君	-12.621
國隆盛宗廟有人世生賢才十念尊受	-12.621
永契虚無不經輪轉垂	-12.621
不可稱量三者含忍	-12.621
乞丐原赦所行罪負上觸	-12.621
鎮星四據家國利亨名刋玉簡字録帝房	-12.621
無由解脫因今修齋行道燒香散花皈命	-12.621
三天化主玄中大法師靜老天尊	-12.621
上棟下宇	-12.621
無量無邊今日䖍誠咸乞懴悔次復回向	-12.621
卻	-12.621
掃穢除氛	-12.621
上品妙經人各一過特爲齋主某禳謝	-12.621
綱常不守故爲誤犯口語心生陽造隂謀	-12.621
文施行母或違滯一如靈寶度人律令	-12.6211
質入仙眞遂成金剛體超度三界難地	-12.6211
上上禪善无量壽	-12.6211
懴悔亡故某人浩劫以來死生相續	-12.6211
符使速出班次祗受公文宣關焚化	-12.6211
願回淵聽曲賜海涵	-12.6211
雨順風調	-12.6211
鎮國祚保天無終	-12.6212
曼	-12.6212
九天生神天尊焚水鍊第	-12.6212
五星四曜南辰	-12.6212
具有䟽文謹當宣吿宣䟽謹請	-12.6212
恭望聖慈允兹申請特降聖旨遍下	-12.6212
同流神光照夜隂翳俱收萬	-12.6212
師寳當願衆生普上法橋無有障礙	-12.6212
修齋事皈命地府第	-12.6212
罐	-12.6212
方有諸罪人處	-12.6212
十方靈寳天尊三寳丈人三寳	-12.6212
故致標髙擬歡樂太上前萬劫猶未始	-12.6213
幽爽例與召集候玄壇修設淨供之夕來	-12.6213
修預以同學普得昇虚與天相保長存	-12.6213
不任莫庭乂	-12.6213
攴	-12.6213
宣狀弟子拜退天尊號引至第	-12.6213
牒請上遵玄律下副齋誠俾亡過某錬	-12.6213
喗	-12.6214
曷副䖍祈恭惟	-12.6214
自從無始以來至於今日	-12.6214
牒本州城隍司	-12.6214
睟	-12.6214
飛度色累户	-12.6214
秫	-12.6214
我見是故斷不	-12.6214
毀鎻張門	-12.6215
世界一切玄司人各一過咸巳周圎伏願	-12.6215
余家自然生七寳人人坐蓮	-12.6215
日奚計年劫多法	-12.6215
一如無量度人之章宻契靈寳嗣師之	-12.6216
隨雲浮千靈	-12.6216
曈	-12.6216
過仰憑經法昇薦某靈進登	-12.6218
太上洞玄靈寳長生度命無上黄籙	-12.6218
洞天三百里在	-12.6218
甿	-12.6219
願此香煙騰空俓上供養无上至眞經寳	-12.622
掬	-12.622
玉籙簡文神仙品	-12.6222
泰殺諒事宗天	-12.6222
各九萬重髙上洞清紫虚空洞自然	-12.6222
千萬炁淨色界	-12.6223
帽	-12.6225
呪今當宣誦	-12.6225
有齋主某崇建某齋然㸃九幽神燈上照	-12.6225
豔	-12.6226
哦	-12.6227
當常發大心	-12.6227
下降玄壇檢魔蕩穢急急如律令噀水次	-12.6228
願普救亡魂永出三塗苦志心皈命禮	-12.6235
齋主七世父母免墮憂苦上	-12.6236
號曰層威統冠飛天仙裙羽衣備	-12.6284
具位臣某謹重誠上啓三清上聖十極髙	-12.6293
某與臨壇官衆等謹重誠上啓太上无極	-12.6305
府主生死罪録官上元太極右	-12.6307
太上老君髙上玉皇十方巳得道大聖衆	-12.6378
出堂頌靈寶領敎濟度金書卷之一百	-12.6512
蕭然神靜黙天魔並敬護世世受大福	-12.6523
道君太上老君髙上玉皇十方巳得道	-12.6531
翌	-12.664
天人歌唱吉應來翔敷敎濟濟威化	-12.6732
賔伏妖惡自滅賢聖日生三念法師功	-12.6761
二洞微髙士開光救苦眞人	-12.683
無自然元始天尊無極大道太上大道君	-12.6881
▁師尊大聖衆至眞之	-12.6908
德二願一切有生咸皆悟道三願九夜悲	-12.696
等懴謝之誠謹啓以聞發	-12.7001
府主死太隂水官上元	-12.7055
三洞微髙士開光救苦眞人寗全眞授靈	-12.7106
安閑空寂澄清自居廣開法門教導頑	-12.7176
眞授靈寳通玄弘教水南	-12.7179
遵奉即與亡過某原赦罪愆蠲除考對候	-12.7356
居仙聖自相㝷若不信法言胡爲棲山林	-12.7385
眞官正神急上關啓臣今奉爲入意以今	-12.7394
衛我身形斷絶邪源王道正明宫殿整	-12.7403
肅三景齊并道合自然飛	-12.7403
下幽夜開光罪消北府名列南	-12.7484
仰慮居宅修造之所犯觸	-12.7513
章吉醮凶符	-12.7513
衆等志心皈命中天大聖北斗	-12.7551
不揚天人歌唱吉應來翔敷教濟濟威化	-12.7555
噤	-12.7559
齊附靈旛來赴玄壇和受兹開度功德	-12.7571
膁	-12.7581
惟願仰承三寳力今夜今時	-12.7582
魂精祕音内諱玉佩開明上符	-12.7583
蟇	-12.7586
獷	-12.7586
下降流入臣等身中令臣所啓之誠速達	-12.7589
椹	-12.7589
司察右演教使傅飛卿	-12.7591
𥧌	-12.7592
芷	-12.7592
㔶	-12.7593
郝	-12.7593
兵馬各九億萬騎出太玄三部洞天	-12.7593
奉薦神儀超昇此境伏願	-12.7594
紫微右典者少微都録靈寳淨明院	-12.7595
蠧	-12.7595
哽	-12.7597
竸	-12.7597
卹	-12.7597
魈	-12.7598
陶魂鑄魄	-12.76
頋	-12.76
莎	-12.76
嗷	-12.76
滃	-12.76
澍	-12.76
瘕	-12.7601
塹	-12.7601
清衆運誠恭吟寳偈	-12.7602
赭	-12.7602
涿	-12.7602
七過星宿停關	-12.7602
條林法淨眞人	-12.7603
匕	-12.7603
鍼	-12.7603
遍噀水一口於符上了放訣上清	-12.7603
九重下降爲受度弟子某纏其	-12.7603
一之炁而成天境	-12.7603
忖	-12.7603
靚	-12.7603
贅	-12.7604
爺	-12.7605
嚇	-12.7606
些	-12.7606
桀	-12.7606
蝮	-12.7606
荄	-12.7606
用左手大指搯	-12.7606
瀬	-12.7606
章一通上詣某曹伏須告報	-12.7607
無義神王飛鷹走犬使者北帝煞鬼一行	-12.7607
曀	-12.7608
断	-12.7608
朞	-12.7608
譁	-12.7608
元皇九醜靈魔絳宫紫	-12.7609
妒	-12.7609
攝亡魂赴壇受度	-12.7609
崙	-12.7609
貍	-12.7609
姙	-12.7609
蓼	-12.7609
簧	-12.7609
飛天身乗六龍水上火下流入三宫神	-12.761
掯	-12.761
禮我化號真像	-12.7611
黠	-12.7611
歠	-12.7611
茸	-12.7611
𥨊	-12.7611
六元運陽化隂大將軍	-12.7612
今有齋主某依按科格然懴神燈請降	-12.7612
度司太玄靈官功曹玉女主簿	-12.7612
蹴	-12.7612
鱔	-12.7612
筮	-12.7612
讖	-12.7612
君各五人官將百二十人	-12.7612
心朝禮大慈大悲大惠真人	-12.7613
善哉元始尊衆生慈父母傾光紫微宫曲	-12.7613
袄	-12.7613
頤	-12.7613
慜	-12.7613
箓	-12.7613
氣宣告玉光寳符下開	-12.7613
真師列位真人經籍度師列位真人	-12.7613
百二十考吏一千二百考兵	-12.7613
飾以幔帷	-12.7614
餽	-12.7614
君求哀懴悔臣等自從無量劫	-12.7614
陡	-12.7614
蕙	-12.7614
艘	-12.7615
𥼶	-12.7615
法輪誡業本行	-12.7615
姓某今據某郷貫	-12.7615
貲	-12.7615
西方金德太白星君	-12.7616
千載有幸得奉大道	-12.7616
甲等修建洞淵三昧神呪大齋行道禮懴	-12.7616
钁天大斧	-12.7616
懵	-12.7616
惹	-12.7617
仔	-12.7617
塩	-12.7617
緇	-12.7617
奉爲亡故某溥及幽冥𡨚親平等落滅	-12.7617
三部八景洞天飛行三五直靈神仙	-12.7617
虧世世善結縁精思念大乗㑹當體道	-12.7617
魔無干犯鬼無妖精	-12.7617
太上洞玄靈寳天尊說救苦妙經	-12.7618
諤	-12.7618
瑪	-12.7618
自無玄挺運誰能悟	-12.7618
黒帝君玄滋五	-12.7618
地獄萬劫方生受	-12.7618
激切之至謹狀太歳年月日具位姓某狀	-12.7618
知磬舉金眞演教天尊	-12.7618
之衆願乗符命隨我神運速爲拯濟俾	-12.7618
受持無退轉永表道心堅和生生常信奉	-12.7618
訌	-12.7618
簞	-12.7618
如是之人元陽第	-12.7618
志心歸命十方常住三寳臣等懴悔	-12.7619
蠹	-12.7619
關發宣符奏本壇恭奉道㫖關白	-12.7619
三儀同卷軆	-12.7619
錬質飛神太蒼三官九府	-12.7619
二指掐大指根	-12.762
餔	-12.762
齋法恭依次第宣演眞科	-12.762
齋功廣被十二願善瑞日臻復爐	-12.762
餞	-12.762
鲁	-12.762
進拜天官濟度諸章	-12.762
際天尊志心敬禮功德海天尊志心敬禮	-12.7621
清旦爲始正齋行道三日九朝某日夜普	-12.7621
來至于今劫今生今日	-12.7621
飛禽走獸	-12.7621
柿	-12.7621
孱	-12.7621
吻	-12.7621
一陽混溟𤥭瑝之炁	-12.7621
來臨法㑹施錬往生八門開度天尊焚召	-12.7621
沆	-12.7621
眹	-12.7621
颯	-12.7621
監齋直事侍香金童散花玉女	-12.7622
玉山大獻清淨法食之中攝化無窮神變	-12.7622
欝	-12.7622
瓫	-12.7622
旛儀歩虚洒淨上香具位	-12.7622
攖	-12.7623
旋斗歷箕	-12.7623
𢈔	-12.7623
巘	-12.7623
夬	-12.7623
㚄	-12.7623
鳶飛魚躍	-12.7623
蛤	-12.7623
隨日新衆人未得度終不度我身	-12.7623
騖	-12.7623
是故復名不可思議善男子	-12.7624
䔥	-12.7624
㡬晝夜開度亡過某靈䰟以今請炁奉行	-12.7624
等歸命之誠謹啓	-12.7624
至道玄應神功妙濟眞君	-12.7624
𥿈	-12.7624
天尊告道君曰吾開法輪	-12.7624
阡	-12.7624
俓上供養无上至眞道寶	-12.7624
罙	-12.7624
摙汲溟波	-12.7625
胞命元元一黄演之	-12.7625
玉皇上帝御前請稱法位具位臣姓	-12.7625
凝靈府隂陽炁象交胞元結長命惡根應	-12.7625
及以大衆仰願	-12.7625
輧	-12.7625
三界天門守衞諸神	-12.7625
九天尚父天蓬都元帥眞君九天佐翊	-12.7625
懌	-12.7626
東方玉寳皇上天尊南方玄眞	-12.7626
滚	-12.7626
知磬舉玉清蕩穢天尊	-12.7626
靈官地仙玉女五嶽飛仙神仙諸仙官君	-12.7626
天符帝帥歳分王神五瘟氣候	-12.7626
承天效法后土皇地祇	-12.7626
芃	-12.7626
忝敢負登盟之誓謹共精嚴	-12.7626
𦕅	-12.7626
元始五老上帝髙尊十方至眞	-12.7626
昇紫庭靈寳符命普惠萬生	-12.7626
左青龍右白虎前朱雀後玄武	-12.7627
願運淵慈俯迂飈馭	-12.7627
世界飛天神人曰我嘗歷觀諸天出遊	-12.7627
耕食鑿飲	-12.7627
願此燈光回向眞君散花	-12.7627
十方無極太上靈寳天尊十極天君	-12.7627
興生獨𨽻可韓功都聚魂	-12.7627
九回八景六周聖運所持左	-12.7627
仙班共祗迎於帝馭降九位鸞輿至止	-12.7627
當召此間土地里域眞官正神速出	-12.7627
九府水帝十二河源江河淮濟溟泠大神	-12.7627
穡	-12.7627
網乃至旛幢寶蓋衣服	-12.7627
耨	-12.7627
俯仰存太上華景秀丹田左顧提鬱	-12.7627
千千截首萬萬剪形	-12.7627
洪恩眞君願此香煙供養九天	-12.7627
𠔃萬鬼潜天地動𠔃萬鬼爽	-12.7627
日大慶萬道同歸玄壇正炁保天	-12.7627
須召又到一如故事	-12.7628
化主道德天尊願以是捻香功	-12.7628
普度諸人物宿世恩德報道心超然發	-12.7628
向來所啓徑達至眞无極大道	-12.7628
土地里域真官正神急上關啓臣今奉爲	-12.7628
軍愽士黄旛豹尾	-12.7628
𦍑	-12.7628
謹召守䧺抱雌大將引領亡故某人	-12.7628
本靖經籙法部諸省府院司	-12.7628
虚眞人太極左宫仙翁沖應眞	-12.7628
徑上供養至眞無上道寳大羅元始天尊	-12.7628
獠	-12.7629
心神丹元字守靈	-12.7629
箔	-12.7629
沱	-12.7629
童子遍十方際盡玄虚界隱現一切真聖	-12.7629
象於星燈表	-12.7629
採集飛空景舊爽多不存	-12.7629
𢑴	-12.7629
榮秀椿劫期乗運應靈圖	-12.7629
痿	-12.7629
咳	-12.763
三華離便大有妙庭	-12.763
漉	-12.763
座前信禮无上大羅天	-12.763
淆	-12.763
幕上香具位某上啓	-12.763
直使功曹住立	-12.763
願得東極青玄妙炁百寳光明下降流入	-12.763
正神左右龍虎君天仙地仙五靈香官當	-12.763
今正爾燒香奉爲某官某乙爲國爲家	-12.763
胸	-12.763
沬	-12.763
節貟甲馬	-12.763
本州城隍司主者當境土地里域眞官	-12.763
凰騎上章雲龍騎言章風	-12.763
法師行持如前儀呪曰	-12.763
税	-12.7631
多違禁戒每背綱常	-12.7631
宫弔替太歳太隂將	-12.7631
上帝乞降敕命及奏諸天帝尊請降	-12.7631
南極真王朱陵大帝	-12.7631
臣職惟領敎理難抑違	-12.7631
三清告下七星念七眞内	-12.7631
左嘯中黄右	-12.7631
靈芝無根衆化之	-12.7631
先生留用光傳授太上執法仙士蔣叔輿	-12.7631
原赦前生今世生死宿罪重過得免離三	-12.7631
懴謝致使愆書黑簡過録玄曹積成災衰	-12.7631
司十方三界玄虚應感一切眞靈臣	-12.7631
學道得道求仙得仙齋官獲福幽顯	-12.7631
業塵洞明覺性返還祖炁宻認旛光俓乗	-12.7631
衛五門檢精捕非敢有干試豁落斬	-12.7631
域降鳳詔於	-12.7631
災厄轉誦太上玄靈北斗本命延生真經	-12.7631
領生丹書赤文元始上精普告天下	-12.7631
從官十二人符吏天	-12.7632
隸	-12.7632
傭	-12.7632
効功後部効殺驛庭	-12.7632
北隂酆都玄天大帝	-12.7632
十方飛天使者傳言奏事飛龍騎吏	-12.7632
泰玄上相天君天機	-12.7632
無惒觀音須延明首法攬菩曇稼那阿	-12.7632
三朝行道二上轉經	-12.7632
后土皇地祇九天上帝五老上帝三	-12.7632
孤䰟滯𩲸諸類傷亡	-12.7632
輪無停映眞仙參列序上上霄	-12.7632
遊爽赴期歸炁炁返故根	-12.7632
刦	-12.7633
礎	-12.7633
増月累罪結	-12.7633
特與敷奏上玄請降勑命	-12.7633
章入夜修設三官北隂淨醮某日進拜南	-12.7633
專爲齋主原赦宿生今世	-12.7633
施用仙曹三界所向仙曹	-12.7633
極四聖真君三天	-12.7633
奉庶消人厄永戴生全	-12.7633
宣簡宣關焚簡旋行歸位聖德流科教	-12.7633
流年臨犯一切星宰願降天光俾知	-12.7633
練自成容務玄育上生羅列備明堂	-12.7633
之人九親門族天下人民蜎飛蠢動	-12.7633
志心稽首禮謝无上至眞三寳	-12.7633
耀九星開明童子號曰天璘陽炁燄上朱	-12.7633
褻	-12.7633
維渟字散融	-12.7633
㓛	-12.7633
風之所被各從其方	-12.7633
六道四生諸𩔖幽	-12.7633
十六部尊經玄中大法師三寳聖衆一切	-12.7633
方上香再拜臣恭以	-12.7633
歳徳尊神土地主執三界應感一切眞靈	-12.7633
經心開悟解受持讀誦	-12.7633
自然金闕玉陛下各稱法位具位	-12.7633
澈	-12.7634
瞬息無停今日大慶欣喜蒙恩諸天歡恱	-12.7634
九幽酆都天牢地獄主者	-12.7634
乞赦罪放魂赴壇受度是日	-12.7634
妖明耀元功金符召制躡雲䇿龍謡歌慶	-12.7634
擎羊陀羅二仙使者左右綉衣使者通事	-12.7634
有生三業紛紜六情浩蕩多違禁戒	-12.7634
朝謁帝眞奉爲入齋意其諸	-12.7634
沐光臨請各整於	-12.7634
神仙諸靈官懴悔齋主某爰從無始逮至	-12.7634
五經揚威耀日役使甲丁却	-12.7634
合炁羣靈潜形杳黙周	-12.7634
淊	-12.7634
人各運誠旋行讃詠旋行至	-12.7634
修齋福壽長延生依玉簡	-12.7634
太極太虚眞人太極左宫仙翁冲應眞人	-12.7634
某上言今月某日奉爲弟子某崇建十	-12.7634
摛	-12.7634
延禧大齋幾晝夜臣今引領官衆升壇第	-12.7634
申太陽帝君太隂皇君五星眞君	-12.7634
壇行道謹奏爲入意其諸忱悃	-12.7634
徑上供養至眞無上經寳玉宸	-12.7634
烟七願四時應	-12.7634
靈寳天尊妙有上帝萬變混沌玄元老君	-12.7635
九晨回駕萬魔束形九	-12.7635
羇	-12.7635
𢌞	-12.7635
駝	-12.7635
修設三界髙真清醮一座六十分位	-12.7635
元始虚皇集炁居中三	-12.7635
散壇上齋詞上言功	-12.7635
之恩普放神光降流真炁灌注玉	-12.7635
乗虚自然征日月爲炳灼安	-12.7635
誕長桑栢空度仙	-12.7635
天帝君玊虚上帝玊帝	-12.7635
眞官正神以今奉爲入意祈恩玉闕進拜	-12.7635
太平下教二十四眞人	-12.7636
今謹有皇帝齎持法信䖍設	-12.7636
仰玄元之巨澤	-12.7636
特降聖㫖依準今來預修黄籙事理	-12.7636
閑寧廣濟一切惠逮有生保劫長存億	-12.7636
光明上昇天堂衣食自然某身得道眞和	-12.7636
石十一願帝王國主日昌四鎭安睦兵	-12.7636
咸乞赦原伏冀	-12.7636
四宿星君下謝	-12.7636
徧列正位炁參八辰門玄關	-12.7636
衰洗蕩福壽資命善果臻身	-12.7636
濠	-12.7636
虧盈安清光照諸天洞消暗	-12.7636
乗飈散景飛騰太空出入	-12.7636
掾吏城隍社令里域司命三界官屬一切	-12.7636
筐	-12.7636
清溟涬大梵甘露淨供之中攝化	-12.7636
起諸欲心或見	-12.7636
自從曠劫以來至于今日	-12.7637
䧺	-12.7637
中元金書九天寳誥	-12.7637
天子王侯土地官長經籍度師	-12.7637
腪	-12.7637
願得元皇正炁來合	-12.7637
劫量龍漢瑛鮮碧落浮黎空歌保珍惡奕	-12.7637
恭望天慈允茲奏請特降勑命遍下	-12.7637
披露眞文奉修齋直歸命	-12.7637
沈淪惡對匪繇懴贖曷遂解除	-12.7637
忙	-12.7637
世界五嶽四瀆神仙正眞乞丐原赦某家	-12.7637
太上黄籙齋儀卷之三	-12.7637
於方來運限迎禧命身介壽公私吉慶宅	-12.7637
大帝上清紫微碧玉	-12.7637
從衆妙門而入在左還左在右還右	-12.7637
欽奉其諸丹悃具載緘謄願得太上	-12.7637
西方素天白帝七門金靈	-12.7637
齋壇應感一切眞靈乞以經功願力安鎭	-12.7637
欣慶受度歷關諸天請滅三惡斬絶地根	-12.7637
斗中大道九晨上真	-12.7637
五兵偃戢	-12.7637
天人同其願縹緲入大乗因心立福田靡	-12.7637
无上至眞道寳大羅元始天尊金闕	-12.7637
瀏	-12.7637
方仰荷慈光俯垂鑒映法筵告罷齋	-12.7637
亦皆瑠璃水精中有	-12.7638
元始符命金籙白簡救苦眞符告下十方	-12.7638
至眞無所待時或轡飛龍長齋	-12.7638
是日立眞師幕	-12.7638
之章庸薦靈儀從容受食	-12.7638
瑞光下降流入臣	-12.7638
紋之繒一段金龍一枚皈命	-12.7638
丈人三十二天帝君玉虚上帝玉帝太	-12.7638
靈唱靡不同無可無不可思與希微通	-12.7638
千𡨚萬祖普及六道四生諸	-12.7638
菌	-12.7638
邠	-12.7639
北都寒池部衞形魂制魔保舉度品南宫	-12.7639
斗太尉陽明貪狼玉晨君北斗上宰隂精	-12.7639
非色非香非空非假祥雲寳霧甘露霏	-12.7639
玉皇君斗中神仙和諸靈官伏	-12.7639
玄虚監察應感靈司	-12.7639
生存所行元惡醜逆觸犯	-12.7639
𡨋𡨚親平等爰從無始逮至有	-12.7639
愜	-12.7639
芟	-12.7639
涖	-12.7639
[...]
