<unk>	0
<s>	0
</s>	0
。	-1.79516
故	-4.31564
者	-4.51297
也	-4.91327
以	-5.11436
是	-5.20174
(	-5.23122
)	-5.28825
有	-5.30701
二	-5.30887
為	-5.42834
此	-5.44049
即	-5.44168
如	-5.5108
▁	-5.51853
中	-5.52505
等	-5.52535
無	-5.53452
謂	-5.60018
之	-5.66677
言	-5.67575
於	-5.6802
若	-5.68278
一	-5.70709
不	-5.71334
心	-5.74149
名	-5.76188
法	-5.78813
非	-5.83944
相	-5.85431
義	-5.85559
因	-5.88522
生	-5.89419
而	-5.94222
說	-5.95313
三	-5.96435
下	-6.04408
至	-6.1022
又	-6.10572
彼	-6.10693
行	-6.11019
及	-6.15863
則	-6.16654
如是	-6.18784
得	-6.2163
*	-6.2324
亦	-6.23294
論	-6.24371
成	-6.26046
其	-6.27477
。】「	-6.28379
人	-6.29445
明	-6.34587
依	-6.36358
起	-6.39222
自	-6.40734
時	-6.42754
。」【	-6.4308
見	-6.4396
四	-6.46177
與	-6.48401
門	-6.4851
由	-6.48833
智	-6.5057
所	-6.50862
或	-6.53446
皆	-6.53446
一切	-6.54317
佛	-6.5481
諸	-6.55053
性	-6.57083
作	-6.57117
初	-6.57203
身	-6.57608
大	-6.58092
云	-6.58764
答	-6.58949
眾生	-6.59948
本	-6.60875
後	-6.614
處	-6.61839
緣	-6.61871
宗	-6.62312
顯	-6.62621
同	-6.67148
上	-6.68554
滅	-6.69555
從	-6.69931
能	-6.70669
離	-6.70781
觀	-6.70953
體	-6.71091
前	-6.72311
無明	-6.72523
問	-6.72532
我	-6.73807
耶	-6.7681
知	-6.76917
空	-6.77445
分	-6.7792
即是	-6.78109
雖	-6.7833
立	-6.78413
定	-6.78624
今	-6.79472
故云	-6.7972
名為	-6.80346
是故	-6.80715
然	-6.81279
云何	-6.81432
意	-6.81777
菩薩	-6.82409
識	-6.82547
常	-6.82567
果	-6.85551
入	-6.85823
唯	-6.85963
異	-6.86574
色	-6.86668
令	-6.86705
應	-6.87416
覺	-6.87611
釋	-6.87813
多	-6.88049
過	-6.89311
通	-6.89871
真如	-6.90634
既	-6.9101
分別	-6.91617
五	-6.92873
隨	-6.93681
事	-6.93864
已	-6.93967
業	-6.94498
別	-6.95041
等者	-6.95543
解	-6.96751
樂	-6.97463
現	-6.97531
苦	-6.97783
用	-6.98727
修	-7.00093
斷	-7.00471
受	-7.00784
攝	-7.01024
喻	-7.01152
具	-7.01554
欲	-7.01998
在	-7.02616
但	-7.02776
念	-7.03006
難	-7.03123
正	-7.03203
當	-7.03318
住	-7.04156
餘	-7.06768
善	-7.06998
真	-7.08537
地	-7.09421
疏	-7.09565
因緣	-7.09621
乃至	-7.09991
聲	-7.10236
道	-7.1052
二者	-7.11119
經	-7.11889
取	-7.12488
先	-7.12639
他	-7.13691
一者	-7.14007
出	-7.1465
境	-7.16045
理	-7.16345
轉	-7.17591
淨	-7.17779
證	-7.17863
合	-7.20571
引	-7.20695
復	-7.21892
根	-7.2247
盡	-7.23105
信	-7.23119
差別	-7.24444
功德	-7.2469
勝	-7.25028
故名	-7.25097
六	-7.25221
次	-7.25305
俱	-7.26332
問曰	-7.26603
生滅	-7.26796
答曰	-7.2772
文	-7.28146
無有	-7.28902
如來	-7.28971
無常	-7.29621
可	-7.29883
煩惱	-7.32608
何	-7.33567
對	-7.33699
復次	-7.3419
十	-7.34279
約	-7.34385
王	-7.34808
本覺	-7.3488
水	-7.3643
德	-7.36525
教	-7.36818
不能	-7.38397
實	-7.39243
位	-7.39452
量	-7.39684
染	-7.40454
外	-7.41021
除	-7.42795
相應	-7.43323
世間	-7.43398
捨	-7.4359
】	-7.4485
諸法	-7.45041
方便	-7.45082
未	-7.46028
所謂	-7.46672
此中	-7.47003
舉	-7.47368
力	-7.47572
內	-7.49528
」	-7.49984
發	-7.50453
清淨	-7.50844
想	-7.51203
妄	-7.51391
大乘	-7.51659
執	-7.53386
具足	-7.55241
藏	-7.55501
廣	-7.56882
示	-7.5749
境界	-7.57517
總	-7.57518
八	-7.57646
一心	-7.57653
方	-7.57834
各	-7.57977
,	-7.59075
聞	-7.59499
故言	-7.59965
七	-7.61049
破	-7.61465
火	-7.61613
巳	-7.61671
不同	-7.61737
平等	-7.6179
動	-7.62162
天	-7.62791
眾	-7.63177
乃	-7.63554
修行	-7.63889
戒	-7.63988
便	-7.64365
記	-7.65652
汝	-7.65727
論曰	-7.65744
求	-7.65809
惡	-7.67726
種種	-7.68382
)。】「	-7.68989
。「	-7.69069
重	-7.69507
語	-7.69595
來	-7.69661
▁二	-7.70998
解脫	-7.71122
種	-7.71536
就	-7.71759
共	-7.73102
遍	-7.73642
第二	-7.7366
是名	-7.74349
熏	-7.74437
不覺	-7.75295
自性	-7.75447
略	-7.75974
施	-7.76066
曰	-7.76303
深	-7.76312
所作	-7.76468
諸佛	-7.76689
所依	-7.771
止	-7.77154
物	-7.77243
法身	-7.77279
障	-7.77449
師	-7.77579
二種	-7.77899
無量	-7.77964
違	-7.77973
必	-7.7857
數	-7.78838
結	-7.78852
決定	-7.79064
。」【(	-7.79102
始覺	-7.79152
涅槃	-7.79213
慧	-7.79484
成就	-7.79753
不可	-7.80618
三者	-7.8082
悉	-7.81183
愛	-7.81504
不定	-7.8158
自在	-7.81697
故知	-7.8248
食	-7.83235
極	-7.83411
何故	-7.83493
▁初	-7.83913
句	-7.8414
相續	-7.84617
辨	-7.85592
耳	-7.85595
所以者何	-7.85718
使	-7.86353
惑	-7.86464
和合	-7.86571
利	-7.87225
相違	-7.87349
失	-7.87414
疑	-7.87867
染淨	-7.8865
持	-7.89165
更	-7.89893
字	-7.89972
願	-7.91572
了	-7.91696
指	-7.92403
迷	-7.9268
所以	-7.93661
屬	-7.93849
報	-7.94616
譬如	-7.94668
生死	-7.94886
眼	-7.95344
次第	-7.95643
界	-7.96905
少	-7.96958
之義	-7.97309
第三	-7.97847
風	-7.97856
不得	-7.98643
品	-7.99514
邪	-7.99547
凡夫	-7.99697
滿	-8.00038
述曰	-8.00144
不成	-8.00653
似	-8.01004
對治	-8.01793
開	-8.01974
由此	-8.02186
亦無	-8.02325
兩	-8.02828
有法	-8.03115
還	-8.0313
法界	-8.03695
觸	-8.03957
喜	-8.03979
世	-8.04653
子	-8.04733
順	-8.04751
海	-8.04768
能立	-8.0482
精進	-8.04883
並	-8.0521
所有	-8.05232
所說	-8.0596
不生	-8.06313
望	-8.06538
集	-8.06613
故說	-8.0662
所立	-8.06992
著	-8.07101
細	-8.07348
遠離	-8.07675
發心	-8.07798
根本	-8.08297
以此	-8.08385
音	-8.08422
外道	-8.0848
流	-8.08583
遮	-8.09033
二門	-8.09191
妙	-8.09255
稱	-8.09457
闕	-8.09668
意識	-8.09952
塵	-8.10616
究竟	-8.10699
於此	-8.10734
何以故	-8.10751
。△	-8.10755
寶	-8.11185
許	-8.11448
恒	-8.1154
皆是	-8.1176
第一	-8.11826
假	-8.12114
。【	-8.12207
死	-8.12622
猶如	-8.12862
此即	-8.129
當知	-8.13175
歸	-8.13244
日	-8.13553
二合	-8.13599
要	-8.14047
照	-8.14258
學	-8.14304
圓滿	-8.14356
可知	-8.14472
會	-8.1456
小	-8.14704
自體	-8.15349
思	-8.16221
遣	-8.16399
化	-8.16432
須	-8.16854
造	-8.17564
一切法	-8.177
論云	-8.18412
一切眾生	-8.18571
真實	-8.18634
亦有	-8.18934
類	-8.18973
矣	-8.19407
之相	-8.2035
向	-8.20372
四種	-8.20574
度	-8.20658
自然	-8.20848
比量	-8.20958
光	-8.21169
無礙	-8.2136
九	-8.21617
智慧	-8.2191
隨順	-8.22227
三種	-8.22393
不離	-8.22553
無我	-8.22558
經云	-8.22856
圓	-8.23372
麁	-8.23462
因果	-8.2354
釋曰後	-8.23717
行者	-8.23883
建立	-8.23913
熏習	-8.23993
壞	-8.24007
斯	-8.24026
亦不	-8.24065
聖	-8.24496
顯示	-8.25025
形	-8.25294
福	-8.25351
標	-8.25362
將	-8.25404
之中	-8.25436
增長	-8.25656
簡	-8.26082
變	-8.26331
全	-8.26354
山	-8.26439
不知	-8.26676
有二	-8.26769
猶	-8.26866
一分	-8.26973
去	-8.27185
月	-8.27241
不動	-8.27303
忍	-8.27577
乘	-8.27762
四相	-8.27878
之法	-8.27958
四者	-8.28289
遠	-8.28456
罪	-8.28692
貪	-8.29219
菩提	-8.2959
治	-8.29655
無相	-8.30577
一一	-8.30612
且	-8.31106
為因	-8.31528
○	-8.31545
爾	-8.31584
二乘	-8.31592
以為	-8.31729
不應	-8.31857
悟	-8.31872
故名為	-8.32318
而不	-8.32404
如來藏	-8.33181
反	-8.33448
趣	-8.33607
廣大	-8.33829
聚	-8.34289
始	-8.34293
末	-8.34653
雙	-8.34722
亦名	-8.34788
長	-8.34799
法性	-8.353
利益	-8.36007
白	-8.36528
瓶	-8.36533
虛空	-8.36552
比丘	-8.36597
不見	-8.36865
之所	-8.36898
羅	-8.37105
兼	-8.37203
世尊	-8.37353
親	-8.37727
妄心	-8.38205
亦爾	-8.38221
非有	-8.38262
而有	-8.38481
能生	-8.38874
波	-8.3916
若有	-8.39348
善根	-8.3938
命	-8.39422
竟	-8.39427
增	-8.39522
凡	-8.39533
香	-8.39617
安	-8.39796
非是	-8.40043
設	-8.40061
若無	-8.40192
所攝	-8.4029
於中	-8.40352
亦復如是	-8.40714
直	-8.41108
目	-8.41879
計	-8.41979
豈	-8.42335
如本	-8.43109
則無	-8.43185
供養	-8.43259
主	-8.43504
家	-8.43852
亦是	-8.44158
種子	-8.44183
病	-8.44207
據	-8.44271
若人	-8.44577
那先言	-8.44616
於彼	-8.44931
徧	-8.45116
自相	-8.45166
此論	-8.45374
足	-8.45543
此二	-8.45962
第四	-8.46118
不淨	-8.46339
因明	-8.46757
亦如是	-8.46837
觀察	-8.46846
言說	-8.46846
所成	-8.46983
樹	-8.47372
終	-8.47497
同異	-8.47938
三昧	-8.48562
四句	-8.48834
味	-8.49111
禪	-8.49221
若不	-8.49244
益	-8.49326
獨	-8.49423
。」【【	-8.49644
邊	-8.49949
甚深	-8.50089
業識	-8.5015
摩	-8.50155
今此	-8.50418
異品	-8.50434
無漏	-8.50632
無邊	-8.50752
鏡	-8.50884
莊嚴	-8.51015
劫	-8.51068
唯識	-8.51103
神	-8.51331
詮	-8.51534
義故	-8.5163
金剛	-8.51644
佛法	-8.51692
息	-8.52267
二義	-8.52375
云何為二	-8.52817
二初	-8.53102
中有	-8.53757
那	-8.54124
前後	-8.54224
如偈	-8.54309
無所	-8.54458
常住	-8.54519
同品	-8.54957
近	-8.54959
魔	-8.55127
光明	-8.55212
寂靜	-8.55396
僧	-8.55517
金	-8.55796
巳說	-8.55837
是人	-8.55908
麤	-8.56348
漸	-8.56349
百	-8.56354
到	-8.56466
修習	-8.5648
所言	-8.5689
被	-8.57128
智者	-8.57229
比	-8.57238
現量	-8.57409
達	-8.57652
若爾	-8.57791
習	-8.57985
行相	-8.5804
有二種	-8.58088
衣	-8.58441
思惟	-8.58563
釋曰	-8.58745
亦可	-8.59139
染法	-8.60191
癡	-8.60433
此是	-8.60595
輪	-8.60892
最	-8.60958
器	-8.6114
真如門	-8.61299
過去	-8.6162
過失	-8.61797
加	-8.61858
不說	-8.61995
大悲	-8.62224
阿	-8.62295
、	-8.62325
同喻	-8.62558
千	-8.62559
國	-8.62829
有情	-8.63178
互	-8.63339
之心	-8.63737
影	-8.63763
現在	-8.64429
寂	-8.64524
普	-8.64614
經說	-8.64761
由是	-8.64795
瞋	-8.65139
相似	-8.65198
如是等	-8.65278
表	-8.65525
坐	-8.65545
護	-8.65798
十種	-8.65944
退	-8.66115
名字	-8.66128
不異	-8.66357
法門	-8.66436
義也	-8.66617
皆悉	-8.66941
心體	-8.67085
蓋	-8.67096
事識	-8.67266
以下	-8.67804
正法	-8.67821
待	-8.67913
而為	-8.67973
此則	-8.6824
又云	-8.68265
覆	-8.6838
未來	-8.68433
不空	-8.68759
無別	-8.68842
尚	-8.68926
口	-8.68982
即此	-8.69138
手	-8.69322
是為	-8.69373
道理	-8.69549
悲	-8.69851
信心	-8.69916
絕	-8.69931
如實	-8.70043
散	-8.70081
復有	-8.70137
異喻	-8.70141
雖有	-8.70216
如何	-8.70225
所起	-8.7043
虗空	-8.71223
體相	-8.71256
存	-8.71316
能所	-8.71411
爾時	-8.71502
此謂	-8.71748
王言	-8.72016
微細	-8.72219
如前	-8.72238
若言	-8.72613
部	-8.72679
像	-8.72985
然此	-8.73028
寂滅	-8.73204
佛言	-8.73218
本曰	-8.73333
應知	-8.73575
往	-8.73599
辯	-8.73603
最勝	-8.74022
此初也	-8.74193
并	-8.7421
劣	-8.74649
華	-8.74861
不起	-8.74895
無始	-8.75
四大	-8.75005
根本無明	-8.75249
斯則	-8.75561
名曰	-8.75743
此義	-8.75833
小乘	-8.75948
一念	-8.75978
勸	-8.76062
三界	-8.76129
因喻	-8.76195
乎	-8.76241
墮	-8.76476
惱	-8.7649
如此	-8.7667
成立	-8.76852
不退	-8.76852
五陰	-8.76921
通達	-8.76937
五者	-8.77044
伹	-8.77045
高	-8.77271
所生	-8.77382
三相	-8.77387
陰	-8.77505
此明	-8.77547
生滅門	-8.77745
果報	-8.77785
所見	-8.7786
而生	-8.77936
色等	-8.7797
含	-8.78064
不斷	-8.78084
或有	-8.78117
頭	-8.78298
異相	-8.78796
花	-8.78829
了知	-8.79226
畢竟	-8.79609
染心	-8.79626
能起	-8.79757
闇	-8.79835
囉	-8.79974
諦	-8.8009
居	-8.80099
世界	-8.80392
婆	-8.80439
依此	-8.80729
無念	-8.81067
有無	-8.81157
現前	-8.81216
寧	-8.81338
久	-8.81396
相故	-8.81831
珠	-8.8195
隨緣	-8.82097
法中	-8.82213
亦非	-8.82348
▁三	-8.82505
真心	-8.82605
論文	-8.82959
情	-8.83027
請	-8.83039
亂	-8.83116
十地	-8.83235
於中有二	-8.83325
微	-8.83589
能破	-8.83747
解釋	-8.83748
不許	-8.83766
無體	-8.83778
伏	-8.83953
.	-8.84298
此云	-8.84413
問答	-8.84731
有三種	-8.85092
脩	-8.8513
無為	-8.85246
但是	-8.85269
況	-8.85348
窮	-8.85523
不善	-8.8572
說法	-8.86027
發起	-8.86055
尊	-8.8635
亦應	-8.86435
緣起	-8.86484
已說	-8.86484
好	-8.86666
邪見	-8.86739
其相云何	-8.86968
又若	-8.86977
名之為	-8.87002
各有	-8.87074
害	-8.87461
不變	-8.87482
本無	-8.87525
一時	-8.87561
隱	-8.87603
雜	-8.87607
者即	-8.87818
現識	-8.87915
不共	-8.87933
正因	-8.88068
阿羅漢	-8.88145
無異	-8.88203
不了	-8.88256
焉	-8.88298
象	-8.88358
易	-8.8837
第五	-8.88422
怖	-8.88532
1	-8.88544
下釋	-8.88686
幻	-8.88733
年	-8.88981
地獄	-8.89067
遂	-8.8907
極成	-8.89134
置	-8.8982
十信	-8.89821
支	-8.89938
所緣	-8.89961
傳	-8.89981
作意	-8.90123
自他	-8.90242
有三	-8.903
如人	-8.90687
諸眾生	-8.90774
例	-8.90976
燒	-8.91071
頌	-8.91099
齊	-8.91149
是則	-8.91446
十二	-8.91475
意云	-8.91658
堅	-8.918
五種	-8.92099
法體	-8.92104
又此	-8.92249
故曰	-8.92347
收	-8.92438
進	-8.92493
故得	-8.92632
是其	-8.92661
而無	-8.92685
藥	-8.9283
能見	-8.92943
聲聞	-8.92956
廣說	-8.92963
止觀	-8.92983
過患	-8.93035
最上	-8.93181
次說	-8.93249
中間	-8.9327
我今	-8.93404
諸天	-8.93411
色相	-8.93561
之因	-8.93633
陀	-8.93661
二相	-8.94084
偏	-8.94086
獲	-8.94203
縛	-8.94376
別釋	-8.94554
帝	-8.94899
夫	-8.95009
卷	-8.95012
母	-8.95258
第七	-8.95287
讚	-8.95291
佛說	-8.95362
應當	-8.95398
殺	-8.95484
淨法	-8.95868
本來	-8.95968
非謂	-8.96148
間	-8.96247
下文	-8.96267
輕	-8.96303
彰	-8.96507
是時	-8.97025
顛倒	-8.97248
相者	-8.97249
如說	-8.97368
業相	-8.97521
有性	-8.9757
禮	-8.97627
經中	-8.97985
無盡	-8.98068
熟	-8.98286
般若	-8.98321
不壞	-8.98398
半	-8.98462
迴向	-8.98576
縱	-8.98578
城	-8.98591
摩訶衍	-8.98661
能成	-8.98741
妄念	-8.98815
出離	-8.99231
菩提心	-8.99535
此因	-8.99644
又如	-8.99751
此識	-8.9991
新	-8.99998
述	-9.00336
迦	-9.00341
萬	-9.00345
備	-9.00437
生起	-9.00601
受用	-9.00609
十方	-9.00707
配	-9.00836
機	-9.00896
以是	-9.00993
真妄	-9.01098
一切諸法	-9.01152
燈	-9.01181
感	-9.01222
唯有	-9.01275
恐	-9.01467
不二	-9.01848
出生	-9.02094
眷屬	-9.02116
顯現	-9.02199
安住	-9.02213
第八	-9.02219
那先	-9.0226
決	-9.02275
既無	-9.02328
陳那	-9.0234
而起	-9.02346
沙門	-9.02425
生相	-9.02606
牒	-9.02613
皆有	-9.02783
木	-9.02931
致	-9.02969
不可說	-9.03088
假名	-9.03212
揀	-9.03243
正理	-9.03451
歡喜	-9.03523
能知	-9.03604
眼識	-9.03666
大海	-9.03867
佛性	-9.0398
隨一	-9.04004
三寶	-9.04053
無性	-9.04158
龍	-9.0421
一向	-9.04265
剎那	-9.04369
門中	-9.04481
唯心	-9.04487
轉識	-9.04679
於是	-9.04809
之言	-9.04849
三細	-9.04888
古	-9.04928
體性	-9.0511
返	-9.05268
宜	-9.05304
不相應	-9.05674
鬼	-9.05674
熱	-9.05722
契	-9.05768
頌曰	-9.06015
慈	-9.06119
莫	-9.06241
沒	-9.06291
懈怠	-9.06363
譯	-9.06408
頂	-9.06572
誦	-9.06698
如經中說	-9.06748
而得	-9.06753
准	-9.06833
依止	-9.06882
不言	-9.07079
宗因	-9.07172
以有	-9.07192
非一	-9.07321
七識	-9.07393
無餘	-9.07399
飲食	-9.07516
第六	-9.07529
十六	-9.07549
徵	-9.07605
靜	-9.07753
翻	-9.07788
興	-9.07942
科	-9.08032
垢	-9.08206
二法	-9.08219
超	-9.0822
尋	-9.08293
殊勝	-9.08301
中說	-9.08539
強	-9.08617
末那	-9.08783
二釋	-9.08885
受持	-9.09048
亡	-9.09124
有漏	-9.0914
亦復	-9.09247
厭	-9.09289
本識	-9.09356
見佛	-9.09676
經中說	-9.09706
實有	-9.09992
救	-9.10177
助	-9.10202
相也	-9.10247
略說	-9.10272
一體	-9.1029
此文	-9.10639
能令	-9.1076
父母	-9.10928
後二	-9.10966
財	-9.11106
犯	-9.11149
宗法	-9.11172
女	-9.11303
法故	-9.11326
不思議	-9.11472
不爾	-9.11473
路	-9.1159
礙	-9.11778
能別	-9.11807
印	-9.11843
功	-9.119
敬	-9.11955
殊	-9.1227
不取	-9.12343
先明	-9.1243
法者	-9.12442
甚	-9.12656
能緣	-9.12661
不捨	-9.12768
2	-9.12958
無二	-9.13013
土	-9.13176
面	-9.13261
令其	-9.13466
可見	-9.13565
石	-9.13845
其心	-9.13846
不出	-9.13904
弟子	-9.13959
謗	-9.13975
不然	-9.14017
滿足	-9.14078
若以	-9.1408
從此	-9.1436
互相	-9.14387
禪定	-9.14455
共相	-9.14851
成佛	-9.1496
車	-9.15072
能依	-9.15128
說為	-9.15284
三世	-9.15311
諸行	-9.15319
若離	-9.15327
夢	-9.1534
而能	-9.15406
力故	-9.15546
不可得	-9.15554
一法	-9.15598
有二初	-9.15768
此法	-9.1579
何得	-9.1583
憶	-9.15962
欲界	-9.16032
下明	-9.16079
永	-9.1608
所得	-9.16102
是常	-9.16231
為宗	-9.1625
蘊	-9.16318
倒	-9.16434
林	-9.16585
有四	-9.16764
流轉	-9.16798
遇	-9.16847
初地	-9.16893
布施	-9.16915
善法	-9.16922
何者	-9.16983
即無	-9.17046
不滅	-9.17104
我見	-9.17294
而言	-9.17353
誰	-9.17595
苦樂	-9.17747
汝言	-9.17828
造論	-9.17845
唯是	-9.17881
滅相	-9.17889
無不	-9.17966
無生	-9.18244
泥洹	-9.1827
却	-9.18374
此義云何	-9.18409
速	-9.18534
之人	-9.18586
審	-9.18671
六者	-9.18702
毀	-9.18743
清	-9.18783
之體	-9.18851
各各	-9.18862
嚩	-9.18889
聽	-9.18909
慢	-9.18917
章	-9.19052
不信	-9.19192
何以	-9.19468
為一	-9.1957
牛	-9.19684
持戒	-9.1972
所詮	-9.19775
聖人	-9.19922
大王	-9.20099
作用	-9.20101
心性	-9.20335
舍	-9.2058
本有	-9.20969
勿	-9.21189
一味	-9.2134
雲	-9.21353
諸根	-9.21384
夜	-9.21406
此釋	-9.21552
無上	-9.21977
一種	-9.22131
號	-9.22136
正念	-9.22151
勤	-9.22193
一相	-9.22212
是中	-9.22263
出家	-9.22289
能現	-9.22434
身心	-9.22776
即前	-9.2293
有體	-9.22941
之時	-9.22943
唯一	-9.22976
咸	-9.2301
以明	-9.23188
妄想	-9.23267
但說	-9.23376
可得	-9.23403
佛果	-9.2342
不為	-9.23452
釋成	-9.23544
智相	-9.23575
玄	-9.23735
亦如	-9.23871
己	-9.23926
耶答	-9.2393
有所	-9.24047
微塵	-9.24298
提	-9.24311
俗	-9.24406
於諸	-9.24448
青	-9.24538
若依	-9.24542
所知	-9.24564
初禪	-9.24656
密	-9.24915
際	-9.24925
守護	-9.24981
陳	-9.25084
能入	-9.2527
說名	-9.2531
釋云	-9.25358
源	-9.25372
則不	-9.2546
諸菩薩	-9.2549
頓	-9.25553
節	-9.25584
所入	-9.25633
義者	-9.25768
以彼	-9.25918
老	-9.26079
依於	-9.26109
總相	-9.26111
上下	-9.26284
尼	-9.26334
憂	-9.26596
行人	-9.26642
馬	-9.26651
功能	-9.2671
切	-9.26842
列	-9.27102
壽命	-9.27199
出世	-9.27202
是事	-9.27271
自心	-9.27293
歎	-9.27359
有人	-9.27484
皆名	-9.27669
以無	-9.27828
所行	-9.27901
何等	-9.28031
旨	-9.28212
于	-9.2822
位中	-9.28389
毒	-9.28623
此三	-9.28658
又說	-9.28758
所作性	-9.28793
都	-9.28992
偈曰	-9.29013
昔	-9.29127
亦然	-9.29184
不立	-9.29478
四諦	-9.29662
不生滅	-9.30004
貪欲	-9.30005
0	-9.30119
善惡	-9.30193
周	-9.30208
十一	-9.30339
利他	-9.30349
用大	-9.3038
里	-9.30383
轉相	-9.30527
所證	-9.30536
內外	-9.3076
報身	-9.3078
文中	-9.31059
諸識	-9.31135
西	-9.31361
和	-9.31361
瞋恚	-9.31456
立義	-9.31543
三乘	-9.316
解云	-9.316
越	-9.3167
畏	-9.31678
底	-9.31766
能作	-9.31938
梵	-9.31971
減	-9.31986
此說	-9.31989
此心	-9.32213
是名為	-9.32429
河	-9.3243
三藏	-9.32796
質	-9.32862
寬	-9.32945
得名	-9.32955
法執	-9.33036
此等	-9.33094
又復	-9.3332
心所	-9.33349
則是	-9.33496
堅固	-9.33548
造作	-9.33738
只	-9.33833
地前	-9.33939
立者	-9.34069
怖畏	-9.34109
云何名為	-9.34202
性故	-9.34229
此顯	-9.3425
有異	-9.34326
是無常	-9.34402
論主	-9.34571
緣生	-9.34587
此約	-9.34606
父	-9.34611
得入	-9.34773
六識	-9.34837
有為	-9.34901
故有	-9.34983
能熏	-9.34991
故下文云	-9.35165
消	-9.35199
謂此	-9.35229
初明	-9.35374
元	-9.35375
差	-9.35459
愚癡	-9.35627
正見	-9.35631
幾	-9.35645
骨	-9.35674
鼻	-9.35679
悉皆	-9.35708
3	-9.35733
呪	-9.35799
共許	-9.36056
是也	-9.36422
信解	-9.36486
準	-9.36586
繫	-9.36639
舌	-9.36778
但以	-9.36794
仍	-9.36828
生滅門中	-9.36952
總標	-9.37069
改	-9.37101
異故	-9.37125
敘	-9.37202
別明	-9.37235
十五	-9.37254
權	-9.37258
哉	-9.37275
初釋	-9.37341
東	-9.37523
念念	-9.37728
脫	-9.37752
虛	-9.37794
更無	-9.37804
令起	-9.37842
分明	-9.37881
廣釋	-9.38
親近	-9.38009
各別	-9.38191
三大	-9.38229
野	-9.38254
承	-9.38395
論中	-9.38455
得成	-9.38529
本性	-9.38601
五識	-9.38656
宣說	-9.38673
無實	-9.38933
伽	-9.38936
棄	-9.39024
正明	-9.39042
背	-9.39054
地上	-9.39143
故今	-9.39398
三句	-9.39443
判	-9.39478
隨其	-9.39493
及與	-9.39493
其身	-9.39511
毛	-9.39551
融	-9.39595
婆羅門	-9.39655
善知識	-9.39692
若於	-9.39929
見分	-9.39995
正智	-9.40139
安立	-9.40297
無間	-9.40326
神通	-9.40383
云何為三	-9.40515
文云	-9.40546
法也	-9.40606
何有	-9.4061
舊	-9.40717
少分	-9.40821
而說	-9.40894
展轉	-9.41021
損	-9.41109
池	-9.41124
怛	-9.41151
色界	-9.41207
執著	-9.41273
資	-9.413
詳	-9.41311
申	-9.41314
六種	-9.41417
是心	-9.41445
方得	-9.4154
不失	-9.41548
業報	-9.41614
愚	-9.41623
未得	-9.41712
有此	-9.41729
二障	-9.41812
分齊	-9.4183
現相	-9.41872
徵釋	-9.41873
無量無邊	-9.41885
謂由	-9.42153
故無	-9.42234
不相捨離	-9.42418
非無	-9.42597
麤細	-9.42609
之智	-9.42796
則有	-9.42826
怨	-9.4299
壽	-9.43192
瓶等	-9.43194
因中	-9.43312
安樂	-9.43336
狹	-9.43561
第十	-9.43767
所依不成	-9.4393
或以	-9.43948
為欲	-9.44014
誠	-9.44222
示現	-9.4429
所現	-9.4432
極微	-9.44465
音聲	-9.44514
以顯	-9.44584
若說	-9.4472
恭敬	-9.44767
現見	-9.44804
障礙	-9.44877
虛妄	-9.45044
呵	-9.45299
冥	-9.45563
等也	-9.45611
而非	-9.45642
有四種	-9.4569
覺義	-9.45897
不名	-9.45903
正釋	-9.4592
無過	-9.46025
談	-9.46063
暗	-9.46294
不實	-9.46515
續	-9.46574
有過	-9.46586
寺	-9.4672
問云何	-9.46787
其體	-9.46821
初標	-9.46889
離於	-9.47136
有二義	-9.47219
現行	-9.47226
斷除	-9.47285
發菩提心	-9.47378
正行	-9.47424
心境	-9.47729
鳥	-9.47804
華嚴	-9.47807
□	-9.47846
諸煩惱	-9.47946
諍	-9.48062
住處	-9.48186
前二	-9.48188
猶豫	-9.48226
二字	-9.48432
上來	-9.48571
真體	-9.48672
有一	-9.48921
惡業	-9.48928
體用	-9.48951
肉	-9.48989
釋曰次	-9.49049
不生不滅	-9.49108
貪著	-9.49218
名言	-9.49318
患	-9.49374
隨應	-9.49583
然後	-9.49597
謂於	-9.49653
住相	-9.49746
後一	-9.49828
此言	-9.49898
別有	-9.49954
何所	-9.49988
難云	-9.5017
梨耶	-9.50222
同時	-9.50239
語言	-9.50245
今言	-9.50247
俱生	-9.50321
若能	-9.50458
八種	-9.50527
有義	-9.5054
惠	-9.50541
同一	-9.50542
等諸	-9.50547
此事	-9.50581
尊重	-9.50588
之性	-9.50631
敵	-9.50754
相分	-9.50848
是事不然	-9.50848
雨	-9.50855
本論	-9.50856
所作性故	-9.51083
別故	-9.51249
烟	-9.5125
無因	-9.51341
得生	-9.51542
七者	-9.51554
三賢	-9.51598
妄法	-9.51599
別解	-9.51807
虗	-9.51878
於他	-9.51911
濕	-9.52021
服	-9.52141
飲	-9.52168
帶	-9.52199
開示	-9.52413
正顯	-9.52523
法爾	-9.52609
故成	-9.52774
尸	-9.52832
論說	-9.52865
不可思議	-9.52894
該	-9.53189
者謂	-9.53215
實無	-9.53223
容	-9.53231
住持	-9.53242
前文	-9.53502
後顯	-9.53717
藏識	-9.5381
攝受	-9.53813
但言	-9.5384
離念	-9.53921
國土	-9.53932
守	-9.54047
深心	-9.54103
無住	-9.54111
其義	-9.54157
一切入	-9.54228
契經	-9.54271
馬鳴	-9.54383
沙	-9.54563
次釋	-9.54658
亦得	-9.54706
初一	-9.54718
薄	-9.54756
調伏	-9.54769
首	-9.54795
所造	-9.54807
一切智	-9.54835
不與	-9.55
成宗	-9.55036
不復	-9.55075
與彼	-9.55125
離諸	-9.5525
六塵	-9.55259
精	-9.55282
福德	-9.55362
業障	-9.55371
善男子	-9.55387
疾	-9.55389
離相	-9.55418
一人	-9.55434
破壞	-9.5562
別相	-9.55786
之用	-9.55829
人天	-9.55851
此身	-9.55884
此下	-9.55928
八者	-9.55967
眼等	-9.56007
起信	-9.56015
體大	-9.56058
原	-9.56084
橫	-9.56099
八識	-9.56109
偈	-9.56206
不住	-9.5624
調	-9.56302
佛地	-9.56465
中初	-9.56571
所熏	-9.56579
苦惱	-9.56594
初相	-9.5661
淺	-9.56674
視	-9.56775
可愛	-9.56888
無色	-9.57074
此之	-9.57077
為體	-9.57078
氣	-9.57202
若見	-9.57208
落	-9.5728
△	-9.57341
網	-9.57401
誹謗	-9.57407
但有	-9.5741
心也	-9.57447
一云	-9.57534
声	-9.57568
說有	-9.57589
心法	-9.5763
不著	-9.57653
不作	-9.57755
恩	-9.57757
疏云	-9.57767
不須	-9.5779
淨心	-9.57817
不以	-9.57836
愛樂	-9.57853
說言	-9.57854
非異	-9.58021
草	-9.58099
威儀	-9.58478
了因	-9.58479
能感	-9.58529
逆	-9.58754
雖復	-9.58884
中道	-9.59258
悔	-9.59334
立名	-9.59432
過也	-9.59442
真理	-9.59465
之行	-9.59477
自利	-9.59511
無分別	-9.59733
八地	-9.59873
業用	-9.59896
意許	-9.59978
無記	-9.60013
譬	-9.60022
忘	-9.60125
刺	-9.60138
性德	-9.60161
瑜伽	-9.60254
令彼	-9.60313
作業	-9.60349
南	-9.60384
總別	-9.60433
數量	-9.60505
渴愛	-9.60612
分別事識	-9.60633
滅者	-9.60639
波羅蜜	-9.60808
外緣	-9.60833
能詮	-9.60895
不遍	-9.60919
奉	-9.60993
依心	-9.61064
兩俱	-9.61071
4	-9.6118
阿梨耶識	-9.61192
阿難	-9.61219
魔事	-9.61224
所別	-9.61226
次當說	-9.61274
如次	-9.61279
放逸	-9.61335
覺觀	-9.61426
演	-9.61446
寄	-9.61551
懷	-9.61559
顕	-9.61601
第一義諦	-9.61625
貫	-9.61724
覺知	-9.61972
所執	-9.62001
無窮	-9.62011
終不	-9.62066
即有	-9.62128
如下	-9.62153
盛	-9.62219
作如是說	-9.62379
則能	-9.62383
貪愛	-9.62606
化身	-9.62622
是法	-9.62687
前說	-9.62785
謂即	-9.62915
薰	-9.6304
此四	-9.63075
眾生心	-9.63079
生因	-9.63088
無數	-9.63162
之意	-9.63226
園	-9.63357
慮	-9.63399
我當	-9.634
一句	-9.63476
契經中作如是說	-9.63515
取著	-9.63555
黑	-9.63619
第一義	-9.63665
憶念	-9.6377
一切皆	-9.63841
欲令	-9.6389
別異	-9.63979
如上	-9.64021
內熏	-9.64033
漏	-9.64036
如彼	-9.64048
何不	-9.64059
得解脫	-9.6408
轉故	-9.64152
捨離	-9.6417
無知	-9.64184
端	-9.64281
立義分	-9.64394
段	-9.64486
諸佛菩薩	-9.64532
宮	-9.64611
書	-9.64628
總結	-9.64687
本末	-9.64907
不分	-9.65025
此人	-9.65074
今既	-9.65199
楞伽	-9.65287
又以	-9.65304
或復	-9.65316
總攝	-9.65476
故能	-9.65492
因也	-9.65592
如理	-9.6562
五塵	-9.65652
立宗	-9.65682
運	-9.65851
美	-9.65997
為緣	-9.66022
生故	-9.66071
彌	-9.661
乖	-9.66102
慳	-9.66303
心相	-9.66408
隨所	-9.66418
眠	-9.66464
以其	-9.66506
覺者	-9.66511
是菩薩	-9.66537
心不	-9.6656
葉	-9.66613
譬喻	-9.66692
住地	-9.66944
自身	-9.67005
滅故	-9.67017
暫	-9.6711
謂依	-9.67123
鐵	-9.67154
虗妄	-9.67176
理門	-9.67199
勢	-9.67238
a	-9.67303
室	-9.67393
定有	-9.67476
非真	-9.6764
同法	-9.67712
十四	-9.67725
真如三昧	-9.67741
二喻	-9.67828
是一	-9.67864
不依	-9.67886
曾	-9.67887
今初	-9.68058
之境	-9.68214
而成	-9.68306
釋上	-9.68313
又經中說	-9.68418
四法	-9.68424
推	-9.68437
宣	-9.68519
若約	-9.68547
真如門中	-9.68584
相待	-9.68626
真性	-9.68649
毘	-9.68681
謂有	-9.68699
俱有	-9.68712
一切世間	-9.68722
引證	-9.68785
詞	-9.68791
能斷	-9.68796
故不	-9.68867
行處	-9.68912
濫	-9.68918
慈悲	-9.68966
法相	-9.68974
快樂	-9.68985
離欲	-9.69005
俱不成	-9.69107
次下	-9.6911
云何為四	-9.69178
逐	-9.692
角	-9.69286
正覺	-9.6929
尾	-9.69333
前三	-9.69377
潤	-9.69395
穢	-9.69405
拔	-9.69465
我執	-9.69472
徒	-9.69604
若是	-9.69637
心無	-9.69689
二合引	-9.69769
何須	-9.69795
聲無常	-9.69856
顯其	-9.69916
別說	-9.69954
明了	-9.69994
心故	-9.70133
不樂	-9.7033
何等為	-9.70332
任運	-9.70361
之本	-9.70388
泥	-9.70451
覩	-9.70482
論師	-9.70492
受生	-9.70502
不現	-9.70505
何況	-9.70514
邪執	-9.70609
大有	-9.70656
倍	-9.70761
宿	-9.708
皆以	-9.7094
法師	-9.71041
為相	-9.71049
體也	-9.71061
百千	-9.71142
未能	-9.71144
如其次第	-9.71154
此意	-9.71162
自許	-9.71211
中無	-9.71235
長者	-9.71283
未盡	-9.71302
遊	-9.71325
能攝	-9.71463
為彼	-9.71524
總舉	-9.71531
得道	-9.71638
十八	-9.71689
訖	-9.71871
留	-9.71893
色心	-9.71951
心中	-9.72038
疑惑	-9.72109
未曾	-9.72154
繁	-9.72377
皆為	-9.72456
復說	-9.72458
免	-9.72653
輪迴	-9.72702
鉢	-9.72842
佛身	-9.72888
因云	-9.72961
隨染	-9.7305
出現	-9.73081
無差別	-9.73115
他人	-9.73165
我慢	-9.73183
種類	-9.73235
之力	-9.7326
無所有	-9.7338
初句	-9.734
同相	-9.73427
三初	-9.73686
女人	-9.73821
謬	-9.73858
皆由	-9.73892
巳上	-9.73897
一切諸	-9.73995
去來	-9.74051
無自性	-9.74101
男女	-9.74297
歲	-9.7433
▁【	-9.74399
動念	-9.7447
猶預	-9.74484
其相	-9.74491
上文	-9.74497
五欲	-9.74602
增上	-9.74702
故須	-9.7472
所作性因	-9.7479
中有二	-9.74866
一法界	-9.74901
學者	-9.74945
志	-9.75028
本法	-9.75038
恒沙	-9.75077
正定	-9.75081
五根	-9.75147
始終	-9.75177
五蘊	-9.75187
兩俱不成	-9.75249
題	-9.75304
大小	-9.75324
依前	-9.75338
舉體	-9.75343
座	-9.75439
成熟	-9.75465
焰	-9.75545
四義	-9.75564
必有	-9.75575
證得	-9.75666
對治邪執	-9.75837
其因	-9.75936
修止	-9.76064
安隱	-9.76139
法空	-9.76226
其中	-9.76229
微妙	-9.76251
應身	-9.76383
制	-9.76532
而作	-9.76586
九相	-9.76592
同體	-9.76617
巳下	-9.76618
布	-9.76633
單	-9.76695
清涼	-9.76696
二十	-9.76778
似因	-9.76925
如是以	-9.76939
相對	-9.77068
云何為	-9.77093
南無	-9.77109
即名	-9.77235
所顯	-9.77349
不相離	-9.77363
總名	-9.77389
億	-9.77445
勇猛	-9.77565
心識	-9.77729
日月	-9.7774
散亂	-9.77758
薩	-9.77783
以心	-9.77893
局	-9.7807
或為	-9.78091
立量	-9.78168
由旬	-9.78204
且如	-9.78232
唱	-9.7824
由彼	-9.78263
隔	-9.78315
》	-9.78343
六染	-9.78344
呼	-9.78379
或可	-9.78431
二句	-9.78471
若法	-9.78542
非實	-9.78546
名色	-9.78556
空義	-9.78599
及諸	-9.78635
相違決定	-9.78757
宗中	-9.78761
五十	-9.78782
四十	-9.78805
業果	-9.78959
此亦	-9.79064
積	-9.79079
諸有情	-9.79094
賊	-9.79255
而實	-9.7926
常恒	-9.79272
無障礙	-9.79278
所成立	-9.79412
是無	-9.79439
古師	-9.79469
為他	-9.79508
我等	-9.79536
為顯	-9.79641
招	-9.79734
則為	-9.7977
迴	-9.79814
如言	-9.79883
濁	-9.79951
豈非	-9.80004
良以	-9.80024
責	-9.80027
取相	-9.80031
敵者	-9.80072
者即是	-9.80078
具有	-9.80113
戲論	-9.80146
不在	-9.8015
九者	-9.80155
得自在	-9.80253
此名	-9.80298
No	-9.80407
能得	-9.80467
一處	-9.8047
煩惱障	-9.80656
心生	-9.80691
真諦	-9.807
引經	-9.80749
不定過	-9.8078
空無	-9.8078
稽首	-9.80818
忍辱	-9.80871
總明	-9.80884
此中有二	-9.80997
四禪	-9.81027
大願	-9.81042
所聞	-9.81074
枝	-9.81206
不覺義	-9.81261
誐	-9.81323
趣向	-9.81359
次明	-9.81392
一切染法	-9.81421
藉	-9.81472
法寶	-9.81544
正觀	-9.81671
見道	-9.81695
三摩地	-9.81697
靈	-9.81732
以何義故	-9.81745
奢摩他	-9.8175
者意云	-9.81812
所明	-9.8187
不違	-9.81913
有五	-9.82004
所化	-9.82013
亦能	-9.82019
凡聖	-9.82032
故非	-9.82143
喜樂	-9.82221
洲	-9.82254
未有	-9.82314
謂若	-9.82389
缺	-9.82425
下二	-9.82446
以依	-9.82471
茲	-9.82569
為喻	-9.82589
無畏	-9.82715
是苦	-9.8275
諸惡	-9.82759
有差別	-9.828
前云	-9.82822
即當	-9.82839
之名	-9.82927
等法	-9.82976
令他	-9.83194
浪	-9.83235
賢	-9.83311
資糧	-9.83324
後重	-9.83399
但為	-9.83433
分二	-9.83435
唯取	-9.83444
有六	-9.83448
蓮華	-9.83449
世俗	-9.83478
體故	-9.83495
俱非	-9.83543
彼此	-9.83591
因故	-9.83711
受樂	-9.83718
定心	-9.8376
冷	-9.83811
大義	-9.83835
善行	-9.83873
妄境	-9.84102
中亦二	-9.84122
二因	-9.84138
更有	-9.84152
偈言	-9.84196
皮	-9.84239
北	-9.84278
則知	-9.84296
意業	-9.84308
浮	-9.84323
是有法	-9.84328
仰	-9.84343
修行信心分	-9.84399
結成	-9.84504
性相	-9.84723
若得	-9.84793
七日	-9.84842
最後	-9.84842
纏	-9.84951
嚴	-9.8496
無作	-9.85064
自性差別	-9.85104
今以	-9.85133
但取	-9.85145
三分	-9.85262
尊者	-9.85277
娑	-9.85305
辭	-9.85338
離言	-9.85354
即為	-9.85382
遍滿	-9.85399
初總標	-9.85455
以成	-9.85506
眼根	-9.85545
如幻	-9.85588
若心	-9.85689
所發	-9.85961
應化	-9.85961
赤	-9.85996
髮	-9.86034
二覺	-9.86052
不自	-9.86084
刀	-9.86097
勤修	-9.86209
彼坐禪人	-9.86259
三業	-9.86281
專	-9.86303
空等	-9.86331
哩	-9.8639
即成	-9.86436
初二	-9.86482
勝義	-9.86482
非法	-9.86545
加行	-9.8656
列名	-9.86713
之事	-9.86907
佛世尊	-9.86917
諸佛如來	-9.86932
俱是	-9.86978
問何故	-9.87002
如水	-9.87063
總持	-9.87063
鈍根	-9.87074
是有	-9.87085
妄執	-9.87143
未生	-9.87146
如其	-9.8723
長時	-9.874
心源	-9.87404
即顯	-9.8747
自有	-9.87671
歷	-9.87672
常無常	-9.8772
理事	-9.87798
授	-9.87827
徹	-9.87857
田	-9.87864
奪	-9.87864
曲	-9.87869
牽	-9.87967
相大	-9.87992
歸命	-9.88009
相即	-9.88011
智淨相	-9.88044
見聞	-9.88071
可說	-9.88117
之理	-9.88122
既是	-9.88178
念念滅	-9.88307
後三	-9.88434
獲得	-9.88441
住於	-9.88547
不相違	-9.8862
之過	-9.88639
說名為	-9.88716
妄染	-9.88729
攝一切	-9.88741
乃至廣說故	-9.88746
於一	-9.88778
從本巳來	-9.88784
喻中	-9.88822
饒益	-9.88854
外境	-9.88863
入涅槃	-9.88866
有何	-9.88954
同類	-9.88981
似破	-9.89054
隨喜	-9.89065
不相	-9.8915
數論	-9.89217
惡趣	-9.89223
皆無	-9.89234
生於	-9.89351
中言	-9.89367
一切境界	-9.89546
漸漸	-9.89573
義理	-9.89587
黎耶	-9.89634
准此	-9.89639
厚	-9.89719
轉勝	-9.89745
左	-9.89791
心外	-9.89802
周遍	-9.89871
念佛	-9.90044
不如	-9.90147
最初	-9.90252
不攝	-9.90335
命終	-9.90354
亦即	-9.90384
一切煩惱	-9.90384
因者	-9.90396
後釋	-9.90397
濟	-9.90469
相符	-9.90487
偈云	-9.90509
見愛	-9.90515
巧	-9.90529
短	-9.90603
繫縛	-9.90709
律	-9.90748
稱讚	-9.90806
一義	-9.90917
畜生	-9.91016
證真	-9.91098
眾多	-9.91215
本自	-9.91334
告	-9.91423
但云	-9.91449
等相	-9.91533
放	-9.91553
打	-9.91567
脩行	-9.91638
此上	-9.91648
苦諦	-9.91654
諸有	-9.9169
因緣故	-9.917
盡故	-9.9171
異法	-9.91783
有我	-9.91824
不具	-9.91828
從彼	-9.91999
如前所說	-9.92097
值	-9.92099
曩	-9.92159
故論云	-9.92191
異熟	-9.92216
生滅相	-9.92237
明何義	-9.92313
生時	-9.92352
聖諦	-9.92496
所取	-9.92536
寂寂	-9.92544
黃	-9.92592
符	-9.92645
有火	-9.92662
後得智	-9.92829
諸業	-9.92836
罪人	-9.9287
既不	-9.92908
萬行	-9.92919
七種	-9.93023
是謂	-9.93066
如前說	-9.93097
實等	-9.93206
以何	-9.93284
解行	-9.93347
無差	-9.93352
不是	-9.93456
鹿	-9.93456
釋曰三	-9.93482
若據	-9.93513
擊	-9.93551
實相	-9.93566
一切處	-9.9372
能為	-9.93721
能證	-9.93724
受苦	-9.93731
無自體	-9.9382
即能	-9.93842
三身	-9.93886
十者	-9.93896
疏中	-9.93921
之上	-9.94056
聞法	-9.94202
鼓	-9.94383
不待	-9.94435
穀	-9.94525
破戒	-9.94531
讚歎	-9.94532
梵行	-9.94567
立敵	-9.94654
世諦	-9.9469
大智	-9.94775
凡夫二乘	-9.94786
依他	-9.94829
此門	-9.94896
能取	-9.9506
真如法	-9.95113
於中有三	-9.95123
至於	-9.95146
群	-9.95161
復生	-9.95175
習氣	-9.95262
二明	-9.95299
別立	-9.95352
邪定	-9.95368
一百	-9.95375
於我	-9.95378
訶	-9.95441
或於	-9.95477
性淨	-9.95603
岸	-9.95609
釋曰二	-9.95699
之異	-9.95722
心念	-9.95819
能顯	-9.95826
已下	-9.9585
皆得	-9.95851
第八識	-9.95851
五分	-9.95917
心王	-9.95972
天人	-9.96046
都無	-9.96319
大師	-9.96362
憍慢	-9.96395
方成	-9.96411
投	-9.96462
平	-9.96484
防	-9.96487
非一非異	-9.96497
為本	-9.9652
弘	-9.9652
差別故	-9.96674
三釋	-9.96876
又汝言	-9.96895
師子	-9.96908
二量	-9.96929
信位	-9.96952
亦名為	-9.9708
不可得故	-9.97096
獄	-9.97206
動靜	-9.97236
悅	-9.97338
乞	-9.97388
菩薩摩訶薩	-9.97424
諸苦	-9.97433
能治	-9.97444
懺悔	-9.97482
釋曰四	-9.97497
別顯	-9.97557
勝論	-9.97699
淨用	-9.97704
麁細	-9.97712
種性	-9.97721
修道	-9.97856
文殊	-9.97908
三義	-9.97934
正義	-9.98023
我所	-9.98086
三聚	-9.98086
之文	-9.98093
其所	-9.98112
此偈	-9.98199
聖道	-9.982
龍樹	-9.9831
何名	-9.98314
所歸	-9.98402
詣	-9.98454
從無始來	-9.98456
虫	-9.98467
非彼	-9.98483
雖不	-9.98491
貧	-9.98522
脚	-9.98531
棄捨	-9.98571
釋迦	-9.98616
趣入	-9.98673
心起	-9.9875
汝問	-9.98759
無著	-9.98979
泯	-9.99008
供	-9.99024
無常等	-9.99036
我說	-9.99052
此乃	-9.99112
不定聚	-9.99121
隨意	-9.99131
相好	-9.9914
相違因	-9.99162
有力	-9.99233
善人	-9.99275
特	-9.99548
自證分	-9.9956
蛇	-9.99572
十住	-9.99619
於異品	-9.99648
起滅	-9.99678
跡	-9.99681
而轉	-9.9969
簡別	-9.99785
能除	-9.99815
二俱	-9.99961
不唯	-9.99973
渴	-9.99975
出世間	-10.0002
通於	-10.0003
即真如	-10.0003
7	-10.0004
無力	-10.0005
天眼	-10.0005
此二種	-10.0017
王復問那先	-10.002
決擇	-10.0021
盜	-10.0023
後世	-10.0024
堪	-10.003
序	-10.0036
導	-10.004
究	-10.005
再	-10.0059
葢	-10.0059
即便	-10.006
名義	-10.0061
緣故	-10.0064
實性	-10.0066
其猶	-10.0074
名也	-10.0084
諸相	-10.0093
說者	-10.0097
門者	-10.0098
不盡	-10.0101
知見	-10.0104
乃是	-10.0105
8	-10.0109
於前	-10.0112
真智	-10.0115
先說	-10.0116
傍	-10.0119
者此意	-10.0129
相續識	-10.013
云何對治	-10.0133
樂受	-10.0133
一切菩薩	-10.0141
又於	-10.0143
動心	-10.0146
異者	-10.0151
吉祥	-10.0155
懸	-10.0157
勸請	-10.0158
廢	-10.0163
非常	-10.0165
賴耶	-10.0166
亦說	-10.0179
無上菩提	-10.0182
成正覺	-10.0184
十善	-10.0189
5	-10.0194
以一切法	-10.0194
法合	-10.02
隨逐	-10.0209
作此	-10.0215
何用	-10.0217
智力	-10.0223
之外	-10.0223
經論	-10.0224
思之	-10.0227
俱名	-10.0237
見者	-10.0241
應云	-10.0247
災	-10.0256
立義分中	-10.0257
衰	-10.0262
檀	-10.0263
涅盤	-10.0267
財物	-10.0269
如有	-10.027
廣明	-10.027
接	-10.0271
比量相違	-10.0271
滅盡	-10.0292
我於	-10.0305
令心	-10.0311
過者	-10.0323
起信論	-10.0332
六度	-10.0333
又有	-10.0337
非因	-10.0343
非但	-10.0346
無智	-10.0364
兩重	-10.0365
兒	-10.0367
若有眾生	-10.0368
何處	-10.0372
生疑	-10.0381
所為	-10.0388
文義	-10.0389
明其	-10.0395
而立	-10.041
處處	-10.0411
皆非	-10.0417
教法	-10.0418
有十	-10.0421
與前	-10.0424
真故	-10.0436
之處	-10.0439
逼	-10.0443
老死	-10.0446
如實知	-10.0453
所量	-10.0454
諸功德	-10.0456
4)	-10.0458
為其	-10.0459
覺了	-10.0461
粗	-10.0464
若在	-10.047
乳	-10.0472
三法	-10.0472
連	-10.0472
曉	-10.0473
相應故	-10.0474
所別不成	-10.0476
魚	-10.0477
繩	-10.0479
貴	-10.0481
令得	-10.0484
八十	-10.0486
▁四	-10.0489
能別不成	-10.0491
無別體	-10.0492
餘人	-10.0506
施設	-10.0508
聲論	-10.0515
解釋分	-10.0516
於其	-10.0519
下顯	-10.0522
等義	-10.0524
第九	-10.053
分中	-10.0535
相用	-10.0548
名究竟覺	-10.0551
似立	-10.0552
故經云	-10.0554
生滅因緣	-10.0561
邪正	-10.0566
必須	-10.0569
人中	-10.0575
亦云	-10.0581
任	-10.0585
慚愧	-10.0585
軟	-10.0586
之宗	-10.0586
驗	-10.0587
後得	-10.0587
正解	-10.059
即得	-10.0592
無違	-10.0595
所觀	-10.0599
限	-10.0599
雖無	-10.0601
是實	-10.0602
一切有情	-10.0606
2)	-10.0615
如實修行	-10.0618
性功德	-10.062
勤勇	-10.0624
大覺	-10.0624
妄語	-10.0624
依義	-10.0627
士	-10.0628
不極成	-10.0631
陀羅尼	-10.0634
解脫道	-10.0636
諸如來	-10.0636
相續相	-10.0637
漸次	-10.0645
若我	-10.0648
8)	-10.0649
7)	-10.0649
5)	-10.0649
釋義	-10.0657
軌	-10.0668
廣略	-10.0669
有相	-10.0678
律儀	-10.068
養	-10.0688
怯弱	-10.0689
名相	-10.069
伊	-10.0692
稍	-10.0693
乾	-10.0694
信根	-10.0696
為自	-10.0696
生處	-10.0698
空寂	-10.0698
降	-10.07
周徧	-10.0707
定慧	-10.0709
能了	-10.071
義說	-10.0722
自證	-10.0735
多聞	-10.0735
思量	-10.0735
所斷	-10.0736
有人言	-10.0742
或現	-10.0753
6)	-10.0755
1)	-10.0761
三事	-10.0765
可以	-10.0772
用相	-10.0775
並是	-10.0775
初中	-10.0775
及以	-10.0778
善業	-10.0783
不解	-10.0789
三支	-10.0795
自此	-10.0795
遷	-10.0801
宮殿	-10.0803
翳	-10.0805
說此	-10.0805
睡	-10.0806
初中言	-10.0809
余	-10.0814
初門	-10.0815
衣服	-10.0816
以是義故	-10.0816
影像	-10.0818
出興	-10.0828
皆從	-10.083
人所	-10.0834
非一切	-10.0839
身口	-10.0841
五十一位	-10.0845
國王	-10.0845
無能	-10.0848
於一切	-10.0852
6	-10.0858
如佛	-10.0862
心行	-10.0869
轉變	-10.0869
不可知	-10.0888
所餘	-10.0895
變異	-10.0895
能觀	-10.0896
象王	-10.0896
徵起	-10.0904
利根	-10.0905
二智	-10.0907
為同喻	-10.091
前所說	-10.0911
侵	-10.0911
?	-10.092
睡眠	-10.0921
飛	-10.0921
大慧	-10.0923
摩訶	-10.0924
畢	-10.0925
五十一	-10.0927
宗義	-10.093
軍	-10.0944
大眾	-10.0949
因義	-10.095
辨相	-10.0952
皆依	-10.0952
初重	-10.0953
隨一不成	-10.0964
猶未	-10.0965
釋文	-10.0968
退失	-10.0974
不入	-10.0976
大地	-10.098
時中	-10.0982
何法	-10.0985
祖	-10.0996
圓覺	-10.1002
第七識	-10.1008
法自相	-10.1012
依法	-10.1026
賴	-10.1027
為苦	-10.103
唐	-10.1032
此經	-10.1033
新論	-10.1033
3)	-10.1037
所修	-10.1039
久遠	-10.1044
唯佛	-10.1044
覺心	-10.1046
叉	-10.1047
故生	-10.1052
誓願	-10.1053
頌中	-10.1056
然則	-10.1059
智礙	-10.106
9)	-10.1061
斷滅	-10.1064
唯是一心	-10.1068
不聞	-10.1071
有三初	-10.1072
生念	-10.1073
無明住地	-10.1074
六道	-10.1084
變化	-10.1093
梵天	-10.1093
或有眾生	-10.1097
眼見	-10.1105
見有	-10.1105
若欲	-10.1107
忽	-10.1114
不能得	-10.1121
偽	-10.1132
但約	-10.1143
步	-10.1148
萬法	-10.1149
分別發趣道相	-10.1151
威德	-10.1151
傷	-10.1151
白佛言	-10.1154
自下	-10.1157
善友	-10.1157
凡小	-10.1162
神我	-10.1164
賢首	-10.1164
此解	-10.1164
不遣	-10.117
全體	-10.1176
悟他	-10.1176
有其	-10.1177
殺生	-10.1181
於佛	-10.1185
以真如	-10.1191
無量功德	-10.1201
如意	-10.1205
二禪	-10.1208
妄見	-10.1215
心者	-10.1215
細分	-10.1233
成於	-10.1237
當念	-10.1241
大意	-10.1244
變易	-10.1244
出入	-10.1249
代	-10.1251
隨心	-10.1251
若彼	-10.1256
瓦器	-10.1262
伸	-10.1263
疎	-10.1264
註	-10.1266
攀緣	-10.1267
不欲	-10.1268
汎	-10.1268
隨其所應	-10.1271
之門	-10.1274
別義	-10.1274
寫	-10.1292
如鏡	-10.1296
以一	-10.1298
雜亂	-10.1303
中有三	-10.1308
能見相	-10.1316
十三	-10.1316
時節	-10.1328
下云	-10.1343
何義	-10.1346
第四禪	-10.1346
昧	-10.1351
登	-10.1352
三德	-10.1357
不定因	-10.1361
臥	-10.1368
得涅槃	-10.1373
惡道	-10.1378
冤	-10.1382
熱惱	-10.1385
天子	-10.1389
解行發心	-10.1392
利養	-10.1393
無所得	-10.1425
是知	-10.1426
四門	-10.1438
若汝	-10.1442
非同	-10.1446
不行	-10.1448
斷煩惱	-10.1449
▁二釋	-10.1451
心生滅門	-10.1452
厭求	-10.1452
所治	-10.1455
因緣和合	-10.1459
果海	-10.1459
等事	-10.1468
劍	-10.1483
常見	-10.1484
無分別智	-10.1486
心數	-10.149
若云	-10.1493
下文云	-10.1494
為欲顯示	-10.1499
從本已來	-10.15
途	-10.1503
貧窮	-10.1503
辟支佛	-10.1504
下品	-10.1509
迷悟	-10.1514
公	-10.1515
智識	-10.1517
九種	-10.1519
為實	-10.1521
說故	-10.1528
略明	-10.1532
有五種	-10.1535
是我	-10.1538
可解	-10.1541
也問	-10.1555
修多羅	-10.156
覺悟	-10.1565
希有	-10.1577
此論中	-10.1586
自性清淨	-10.159
而巳	-10.1595
起行	-10.1597
起於	-10.1603
顯了	-10.1607
帝釋	-10.161
惟	-10.1616
境故	-10.1618
境界相	-10.1619
不守自性	-10.1623
於同品	-10.1631
云何為五	-10.1635
妨	-10.1637
論者	-10.1651
散壞	-10.1652
我心	-10.1657
問云何以	-10.1661
煩	-10.1672
無心	-10.1673
反顯	-10.1676
我我所	-10.1682
覺性	-10.1696
疑云	-10.1697
即彼	-10.1702
六麤	-10.1704
剎	-10.1709
佛智	-10.1711
是明	-10.1716
染相	-10.172
令人	-10.1721
純	-10.1721
亦為	-10.1724
不假	-10.1725
建	-10.1726
修觀	-10.173
說也	-10.1731
永離	-10.174
如上說	-10.1743
所立宗	-10.1745
不達	-10.1747
閉	-10.1748
是真	-10.1752
釋前	-10.1753
不善業	-10.1754
宿命	-10.1755
唯依	-10.1761
講	-10.1762
關	-10.1762
是所	-10.1763
有多	-10.1765
獄卒	-10.1772
同前	-10.1774
罪福	-10.1781
能成立	-10.1782
疏二	-10.18
生長	-10.1801
不思議業相	-10.1803
仙	-10.1808
報化	-10.181
姓	-10.1811
為正	-10.1814
戲	-10.1821
亦同	-10.1822
真俗	-10.1835
真似	-10.1844
疏文	-10.1846
狀	-10.1846
謂之	-10.1848
五百	-10.1849
善心	-10.185
其實	-10.1852
是前	-10.1857
功用	-10.1858
殘	-10.1859
正是	-10.1859
沈	-10.1861
形相	-10.1869
競	-10.187
油	-10.187
依正	-10.1879
聞慧	-10.188
更生	-10.1881
於空	-10.1881
慈心	-10.1882
積聚	-10.1884
真覺	-10.1888
六根	-10.1908
汝等	-10.1923
外人	-10.1924
因緣分	-10.1925
四分	-10.1926
有諸	-10.1928
應是	-10.1949
結前	-10.1954
餘處	-10.1955
臣	-10.1962
汝說	-10.1965
應言	-10.1968
舉喻	-10.1972
方名	-10.1973
為異	-10.1977
散心	-10.1982
梨	-10.1986
起故	-10.1989
是業	-10.199
交	-10.199
成滿	-10.1992
過故	-10.1997
為作	-10.1998
毀謗	-10.1999
顯示正義	-10.2004
無定	-10.2005
分位	-10.2005
是故名為	-10.2006
前四	-10.2014
三十	-10.2017
心心所	-10.2025
一卷	-10.2025
有為法	-10.2025
以離	-10.2026
學人	-10.2029
自宗	-10.2034
以前	-10.2036
「	-10.2042
在於	-10.2043
淨土	-10.2049
既有	-10.2053
無能所	-10.2053
若此	-10.2053
不轉	-10.2054
不從	-10.2064
立因	-10.2065
五意	-10.207
如是已說	-10.207
為令	-10.2075
此難	-10.2079
用故	-10.2081
發生	-10.2083
應說	-10.209
亦通	-10.2093
佛寶	-10.2097
鈍	-10.2103
等中	-10.2109
勝劣	-10.2112
i	-10.2114
有十種	-10.2116
若為	-10.2121
太	-10.2129
隨染本覺	-10.213
無有是處	-10.2132
牙	-10.2134
讀	-10.2141
以此義故	-10.2142
言無	-10.2144
不受	-10.2144
長行	-10.2161
今約	-10.2164
聲上	-10.2168
六十	-10.217
謂以	-10.2174
是處	-10.2177
身命	-10.2182
念處	-10.2184
是色	-10.2185
是名為三	-10.2187
教化	-10.2194
修多羅中	-10.2195
富	-10.2199
聲是無常	-10.2211
今當	-10.2214
平等平等	-10.2218
剡浮提	-10.2219
阿耨多羅三藐三菩提	-10.2223
受報	-10.2225
皆同	-10.2237
無染	-10.2239
眾苦	-10.2241
幢	-10.2243
ā	-10.2243
上說	-10.2245
福田	-10.2245
修行信心	-10.2248
痛	-10.2249
希	-10.2249
夢中	-10.2257
實智	-10.2259
七地	-10.226
佛弟子	-10.2266
智也	-10.2274
何者是	-10.2276
後義	-10.2284
餘法	-10.2286
見色	-10.2291
龍王	-10.2295
無常宗	-10.2295
立量云	-10.2297
然於	-10.2297
中間有	-10.2299
歸依	-10.23
有別	-10.2306
緣也	-10.2309
三有	-10.2314
無色界	-10.2318
彼人	-10.2319
何故不	-10.2322
勤勇無間所發	-10.2326
如虛空	-10.2335
當得	-10.2337
善巧	-10.2339
若非	-10.2343
須陀洹	-10.2343
如空	-10.2343
多言	-10.2346
雖是	-10.2348
而住	-10.2352
鬼神	-10.2354
如是巳說	-10.2355
般若波羅蜜	-10.2361
腹	-10.2363
法義	-10.2367
積集	-10.2375
垂	-10.2378
意根	-10.2379
佛所	-10.2382
正道	-10.2382
自利利他	-10.2386
雖說	-10.2389
四位	-10.2389
其人	-10.2401
真識	-10.2401
真空	-10.2401
根性	-10.2404
頭陀	-10.2407
不令	-10.2407
中生	-10.2408
之功	-10.2415
一心法	-10.2415
造業	-10.2416
人民	-10.2421
一劫	-10.2427
頌云	-10.243
利樂	-10.2434
已竟	-10.2435
故釋曰	-10.2436
楞伽經	-10.2437
方能	-10.2439
所作因	-10.2448
能離	-10.2451
但隨	-10.2459
性者	-10.246
眾生界	-10.2461
如大	-10.2474
神王	-10.2474
有因	-10.2477
即滅	-10.2482
佛道	-10.2485
自知	-10.2487
荅	-10.25
覓	-10.2504
無為法	-10.2505
能滅	-10.251
錄	-10.251
滅諦	-10.2512
二諦	-10.2513
亦如上說	-10.2518
授記	-10.2521
遍無	-10.2529
法藏	-10.2531
是佛	-10.2532
諸陰	-10.2545
大乘起信論	-10.2554
為能立	-10.2557
各異	-10.2557
等覺	-10.256
悲心	-10.2561
本質	-10.2562
不改	-10.2564
直心	-10.2564
九地	-10.2565
之身	-10.2566
十二因緣	-10.2569
攝故	-10.257
有大	-10.257
因此	-10.2571
本空	-10.2579
二約	-10.2584
從初	-10.2585
二云	-10.2588
云何名	-10.2592
諸比丘	-10.2593
皆因	-10.2595
有非有	-10.2604
既云	-10.2609
牒前	-10.2617
起時	-10.2622
更不	-10.2622
實法	-10.2625
上轉	-10.2628
一門	-10.2628
苟	-10.2636
市	-10.2639
一切諸佛	-10.2639
然其	-10.264
令諸眾生	-10.264
梵王	-10.2642
釋摩訶衍論	-10.2642
所乘	-10.2643
不求	-10.2644
三禪	-10.2645
応	-10.2647
有實	-10.2649
攝持	-10.265
非有非無	-10.2652
謂真如	-10.2657
佛子	-10.2658
了別	-10.2658
唯此	-10.2663
思慧	-10.2669
法施	-10.2671
無上道	-10.2678
自性清淨心	-10.2687
久住	-10.2687
能化	-10.2688
六句	-10.2692
以法	-10.2693
本來無	-10.2696
示義	-10.2696
豈不	-10.271
二邊	-10.2715
勞	-10.2735
諸善	-10.2739
9	-10.274
愛著	-10.2746
應作	-10.2747
答中	-10.2747
勤發	-10.2753
異也	-10.2753
宗因喻	-10.2754
有始	-10.2762
不成因	-10.2768
注	-10.2769
柔軟	-10.2769
前之	-10.2771
漏盡	-10.2775
箭	-10.2775
所須	-10.2777
諸經	-10.2778
中陰	-10.2779
正信	-10.278
淺深	-10.2788
所覺	-10.279
能覺	-10.2791
無明所起	-10.2793
有餘	-10.2797
諸色	-10.2798
馬鳴菩薩	-10.2799
難曰	-10.2805
二礙	-10.2806
理故	-10.2806
資熏	-10.281
初後	-10.2811
勝故	-10.2813
能障	-10.2814
之一字	-10.2815
便成	-10.2817
聚集	-10.282
是故說言	-10.2821
勝妙	-10.2824
他宗	-10.2826
拏	-10.2829
後說	-10.2836
終教	-10.2841
《	-10.2849
執取相	-10.2852
總有	-10.2856
西方	-10.2871
領	-10.2875
所引	-10.2875
諸位	-10.2888
王所	-10.289
誑	-10.2892
大乘者	-10.2892
恚	-10.29
現比	-10.29
文殊師利	-10.2902
飾	-10.2907
猗	-10.2909
之與	-10.2912
已得	-10.2912
謂前	-10.2914
謝	-10.2917
命根	-10.292
或時	-10.2921
除滅	-10.2924
萬物	-10.2926
信成就發心	-10.2932
為我	-10.2937
能有	-10.2938
多種	-10.2943
大士	-10.2943
不思議熏	-10.2951
邪道	-10.2954
所由	-10.2954
斷絕	-10.2955
又二初	-10.2957
義中	-10.2961
理實	-10.2965
總說	-10.2966
欲顯	-10.2969
如來藏者	-10.2974
為說	-10.2974
惡口	-10.3019
賢聖	-10.3024
流通	-10.3027
事故	-10.303
不相離故	-10.3032
名如來藏	-10.3033
擇	-10.3035
無明熏	-10.3036
真能立	-10.3038
俱行	-10.304
皆應	-10.3041
應非	-10.3042
此句	-10.3042
竪	-10.3044
遭	-10.3044
不亂	-10.3044
炎	-10.3044
臭	-10.3045
或說	-10.3045
廣如	-10.3045
負	-10.3048
體中	-10.3053
何別	-10.3053
決定相違	-10.3055
拘	-10.3056
壽量	-10.3056
不一	-10.3058
為勝	-10.3064
勇	-10.3066
都盡	-10.3073
反流	-10.3073
準此	-10.308
九十	-10.3081
淨德	-10.3083
餘皆	-10.3085
不無	-10.3088
污	-10.3091
熏義	-10.3093
而現	-10.3096
非作	-10.3103
等過	-10.3103
為如	-10.3109
及餘	-10.3117
色身	-10.312
圓明	-10.3121
愍	-10.3129
聖教	-10.3133
佛經	-10.3133
修善	-10.3137
因三相	-10.314
勸修	-10.314
無緣	-10.314
故說為	-10.3147
宗之	-10.315
摩尼	-10.3152
愛欲	-10.3159
離此	-10.3161
第二禪	-10.3166
下結	-10.3173
後際	-10.3175
動故	-10.3176
晝夜	-10.3186
果位	-10.3191
佉	-10.3192
內心	-10.3194
優	-10.3196
般若波羅蜜多	-10.3196
德相	-10.3197
鈔	-10.3197
急	-10.3199
為根本	-10.32
行成	-10.3201
於身	-10.3206
得菩提	-10.321
遺	-10.3216
無所有處	-10.3218
平等緣	-10.3219
今說	-10.3222
承事	-10.3223
不由	-10.3232
罪業	-10.3238
無可	-10.324
非所作	-10.3243
不必	-10.3244
種姓	-10.3248
種智	-10.3248
出過	-10.3249
地中	-10.3249
知之	-10.325
惹	-10.3251
入於	-10.3253
與此	-10.3264
釋論	-10.3267
十由旬	-10.327
無此	-10.3271
無質礙故	-10.3271
無垢	-10.3275
前五	-10.328
圓教	-10.328
門有二初結指	-10.3281
不別	-10.3289
次顯	-10.3291
意明	-10.3292
隨他	-10.3298
那先問王	-10.3304
此為	-10.3305
煩惱礙	-10.3307
船	-10.3307
亦空	-10.331
勝行	-10.3312
為性	-10.3312
跋	-10.3321
今論	-10.3325
即真	-10.333
壁	-10.3331
有八	-10.3332
竭	-10.3333
錯	-10.3335
不增不減	-10.3336
儀	-10.3336
阿含	-10.3336
兔	-10.3337
緣覺	-10.3337
手足	-10.3339
理智	-10.3343
圓融	-10.3344
因於	-10.3344
增益	-10.3344
二名	-10.3344
若不爾者	-10.3345
願力	-10.3346
塔	-10.3349
厭離	-10.3351
缺減	-10.3352
無學	-10.3353
真如是	-10.337
枝末	-10.3371
斷惑	-10.3374
釋疑	-10.3376
違他	-10.3378
乃至廣說	-10.3378
立論	-10.3385
得有	-10.3385
滅壞	-10.3387
則生	-10.339
一乘	-10.3402
所應	-10.3402
則成	-10.3403
得定	-10.3404
行也	-10.3406
豈可	-10.3412
日夜	-10.3412
若就	-10.3413
非直	-10.3421
身中	-10.3427
證發心	-10.3428
盲	-10.3432
非他	-10.3437
惡心	-10.3441
執取	-10.345
同故	-10.3451
增減	-10.3451
固	-10.3459
云何得	-10.3463
而已	-10.3463
上品	-10.3464
誓	-10.3464
揚	-10.3468
灰	-10.3472
難言	-10.3472
弱	-10.3474
意樂	-10.3474
對法	-10.3475
釋相	-10.3478
務	-10.3479
實義	-10.348
榮	-10.348
不能自	-10.3484
此依	-10.3488
時彼	-10.3494
不成就	-10.3494
往來	-10.3501
迷真	-10.351
二一	-10.3512
章門	-10.3512
此二義	-10.3514
究竟離	-10.3528
大性	-10.3539
是諸	-10.3542
善不善	-10.355
吒	-10.3551
由前	-10.3561
世人	-10.3564
見彼	-10.3569
應有	-10.3575
果故	-10.358
期	-10.3581
餘二	-10.3581
業等	-10.3582
至此	-10.3588
起業相	-10.3607
有所作	-10.3609
如法	-10.3612
各具	-10.3613
令眾生	-10.3613
位地	-10.3613
阿僧祇	-10.362
人執	-10.362
得見	-10.3622
移	-10.3623
菓	-10.3623
草木	-10.3625
羅漢	-10.3628
昏	-10.3628
覺與不覺	-10.3628
血	-10.3629
樓	-10.3629
統	-10.363
某	-10.3633
難得	-10.3634
薪	-10.3635
轉現	-10.3638
此有	-10.364
珍寶	-10.3648
萬德	-10.3651
前中	-10.3655
意言	-10.3661
有二門	-10.3664
巳去	-10.3668
聖智	-10.3669
十解	-10.3673
俱時	-10.3678
究竟覺	-10.3681
電	-10.3682
三品	-10.3682
真如平等	-10.3682
門也	-10.3688
非過	-10.3691
依何	-10.3692
所變	-10.3697
即以	-10.3703
言陳	-10.3704
見相	-10.3706
但名	-10.3706
雖多	-10.3707
波羅蜜多	-10.3715
修慧	-10.3722
之德	-10.3724
不可見	-10.3726
依無明	-10.3736
不思議業	-10.3743
形色	-10.3753
應觀	-10.3756
得果	-10.3758
又佛	-10.376
佛語	-10.3761
佛土	-10.377
磨	-10.3773
寒	-10.3776
異義	-10.3779
憂惱	-10.3783
意也	-10.3784
初三攝	-10.3791
成故	-10.3807
經文	-10.3808
往生	-10.3816
不修	-10.3819
未知	-10.3819
而亦	-10.3822
惡人	-10.3824
超過	-10.3828
摧	-10.3833
幻化	-10.384
貪等	-10.384
佛菩薩	-10.385
是名為二	-10.3851
為難	-10.3859
文字	-10.3862
所求	-10.3863
心真如門	-10.3865
問此	-10.3865
觀行	-10.3865
自悟	-10.387
所樂	-10.3877
胎	-10.3878
假說	-10.3879
當觀	-10.3885
欲求	-10.3887
有二意	-10.3893
是故當知	-10.3893
悲願	-10.3901
罵	-10.3903
哆	-10.3906
所問	-10.3907
後陳	-10.3908
佛心	-10.3909
樂為	-10.3915
男	-10.3918
適	-10.3918
琉璃	-10.3919
不可以	-10.3921
有無量	-10.3921
闍	-10.3923
斥	-10.3926
攬	-10.3927
瓔珞	-10.3928
般涅槃	-10.393
依真	-10.3931
渡	-10.3932
辯才	-10.3932
包	-10.3933
驚	-10.3933
點	-10.3935
輩	-10.3936
我為	-10.3938
薰習	-10.3938
諸外道	-10.3939
與眾生	-10.3941
一因	-10.3954
亦以	-10.3958
初問	-10.3959
圓音	-10.3961
次言	-10.3962
有四一	-10.3964
則滅	-10.3966
起用	-10.3967
自念	-10.3969
或云	-10.3972
分別者	-10.3977
一性	-10.3982
苦滅	-10.3984
佛所說	-10.399
言之	-10.3995
四不成	-10.4003
因緣生	-10.4007
大決擇分	-10.4014
受身	-10.4017
正受	-10.4022
俗諦	-10.4024
是宗法	-10.4024
如疏	-10.4028
則不能	-10.4029
便是	-10.403
隨流	-10.4032
不存	-10.4033
為同品	-10.4034
發心修行	-10.4034
信行	-10.4037
相違故	-10.4043
依如來藏	-10.4043
能善	-10.4044
一日	-10.4045
如夢	-10.4049
此非	-10.405
悲智	-10.405
合結	-10.4051
則非	-10.4058
露	-10.4064
義相	-10.4066
不顯	-10.4067
則於	-10.4069
問若	-10.407
毗	-10.4071
故稱	-10.4074
三結	-10.4079
杖	-10.408
別體	-10.4081
真如體	-10.4083
遍計	-10.4085
應審觀察	-10.4087
幽	-10.4089
過恒沙	-10.4092
俱轉	-10.4094
以智	-10.4096
梵語	-10.4097
軌則	-10.4104
其本	-10.4104
色聲	-10.4104
明淨	-10.4104
二執	-10.4109
斷故	-10.4115
且約	-10.4117
嚕	-10.4127
文也	-10.4128
無常性	-10.4129
僧寶	-10.4137
初住	-10.414
根本智	-10.4141
坐禪人	-10.4143
似宗	-10.4144
妙覺	-10.4145
一名	-10.415
信受	-10.4152
相望	-10.416
滅時	-10.416
二識	-10.4162
能入門	-10.4164
所諍	-10.4166
一約	-10.4171
假立	-10.4171
不到	-10.4175
三賢位	-10.4176
因法	-10.4179
自作	-10.4184
舉數	-10.4185
始教	-10.4189
聲是	-10.4192
不至	-10.4198
熏真如	-10.4206
淳	-10.4209
以上	-10.4209
其理	-10.4211
此三種	-10.4215
令生	-10.4219
迦葉	-10.4223
非如	-10.4224
破他	-10.4225
既非	-10.4225
彼岸	-10.4228
委	-10.423
狂	-10.4231
理無	-10.4232
遲	-10.4234
分三	-10.4238
富貴	-10.424
昇	-10.424
枯	-10.4243
道諦	-10.4247
慈氏	-10.4247
畫	-10.4248
常宗	-10.425
我亦	-10.4258
忽然	-10.4259
推求	-10.426
今此論中	-10.4261
勢力	-10.4262
因位	-10.4267
令知	-10.428
第四句	-10.4283
俱不	-10.4285
難知	-10.4289
一識	-10.4297
勝進	-10.4302
佛為	-10.4309
不久	-10.4313
心動	-10.4317
五意中	-10.432
相見	-10.4325
非色	-10.4331
中實	-10.4331
起諸	-10.4334
護法	-10.4334
隨念	-10.4337
勝緣	-10.4341
諸論	-10.4343
三自	-10.4344
法喻	-10.4349
下二句	-10.4353
是故下	-10.4353
永不	-10.4353
初顯	-10.4355
不許有	-10.4356
無依	-10.4357
心則	-10.4365
以無明	-10.437
宗體	-10.4373
飯	-10.4381
其性	-10.4385
皆空	-10.4386
別名	-10.439
由無明	-10.4393
常樂	-10.4394
附	-10.4394
停	-10.4395
違自	-10.4401
州	-10.4402
善說	-10.4402
恃	-10.4402
博	-10.4403
夏	-10.4404
隨相	-10.4404
於自	-10.4404
作是念	-10.4407
厭生死苦	-10.4409
即心	-10.4412
疊	-10.4413
名相違	-10.4414
惡法	-10.4416
第三句	-10.4418
理門論云	-10.442
通名	-10.4422
而常	-10.4425
如是說	-10.443
所示	-10.4433
動作	-10.4438
數數	-10.4445
初起	-10.4446
悟入	-10.4448
彼論	-10.4448
天主	-10.446
此量	-10.4462
其宗	-10.4466
無差別故	-10.4468
異名	-10.447
義准	-10.4472
宗依	-10.4473
具三相	-10.4473
言語	-10.4477
一切種智	-10.4478
當體	-10.4482
難也	-10.4487
句義	-10.4491
前陳	-10.4494
二分	-10.4495
良	-10.4498
宗過	-10.4504
身見	-10.451
作者	-10.4514
品類	-10.4516
初約	-10.4518
相應心	-10.4521
所立法	-10.4526
因生	-10.4527
一切如來	-10.4532
為依	-10.4537
人空	-10.4539
由斯	-10.454
名不成	-10.4551
中亦有	-10.4555
澄	-10.4556
迹	-10.4557
累	-10.4558
飢	-10.4558
擬	-10.4559
其事	-10.4559
拂	-10.456
堂	-10.456
託	-10.4562
憑	-10.4563
此定	-10.4564
波浪	-10.4567
者問	-10.4568
載	-10.4571
違順	-10.4574
不有	-10.4574
皆能	-10.4575
覺照	-10.4578
是義	-10.4578
邪行	-10.458
入定	-10.4584
馱	-10.4586
十九	-10.4588
以之為	-10.4588
唯除	-10.459
遍知	-10.4593
空觀	-10.4593
初正釋	-10.4594
成事	-10.4596
覽	-10.4601
讀誦	-10.4608
後二相	-10.4612
地界	-10.4614
上有	-10.4616
不絕	-10.4619
智故	-10.4621
毫	-10.4621
屬於	-10.4634
典	-10.4638
之旨	-10.464
乞食	-10.4645
成道	-10.4645
下別釋	-10.4662
若望	-10.4663
於餘	-10.4667
義門	-10.4668
若知	-10.4673
通別	-10.4682
若作	-10.4683
絕言	-10.4684
此菩薩	-10.4685
以知	-10.4687
海水	-10.4689
大慈	-10.4698
相依	-10.4701
擲	-10.4711
五位	-10.4714
各攝	-10.4718
答此	-10.4718
涉	-10.4721
走	-10.4721
何以知之	-10.4721
勸修利益分	-10.4724
堪任	-10.4724
右	-10.4724
厭患	-10.4726
愁	-10.4727
臂	-10.4728
頗	-10.473
諸波羅蜜	-10.4731
体	-10.4731
大悲心	-10.4732
妙樂	-10.4736
空有	-10.4736
云何為十	-10.4745
能示	-10.4745
作是說	-10.475
其義云何	-10.4756
無動	-10.476
大本	-10.4765
如來法身	-10.4765
▁「	-10.4769
望於	-10.4771
一音	-10.4772
邊際	-10.4773
演說	-10.4775
不放逸	-10.4777
已生	-10.4788
今就	-10.4789
然彼	-10.479
二別	-10.4794
不善法	-10.4794
皆名為	-10.4796
義不然	-10.4797
同於	-10.4798
心生滅	-10.4807
體者	-10.4808
威	-10.481
一者明	-10.4813
眾善	-10.4813
信者	-10.4816
如如	-10.4818
法身菩薩	-10.4826
門法	-10.4826
三合	-10.4826
熏習義	-10.4828
修定	-10.4829
則應	-10.483
以色	-10.4832
之果	-10.4835
難可	-10.4835
仙人	-10.4844
立聲無常	-10.485
覺故	-10.4852
別記	-10.4859
一切行	-10.486
即下	-10.486
除疑	-10.4862
是彼	-10.4874
麻	-10.4876
馳	-10.4878
生苦	-10.4878
是身	-10.4883
識者	-10.4883
无常	-10.4885
第二相	-10.4886
諸魔	-10.4886
受想行識	-10.4887
盧	-10.4888
響	-10.4889
惜	-10.4889
爛	-10.489
之內	-10.4891
給	-10.4892
道者	-10.4892
𨷂	-10.4893
經言	-10.4893
水相	-10.4894
三中	-10.4894
阿賴耶識	-10.4897
始從	-10.4899
計我我所	-10.4899
生解	-10.49
」【	-10.4912
由有	-10.4912
躡前	-10.4917
若復	-10.4918
發願	-10.4921
舉因	-10.4923
楞伽云	-10.493
音樂	-10.4931
十力	-10.4934
巳前	-10.4936
議	-10.4948
相離	-10.495
爭	-10.4951
以喻	-10.4952
中二	-10.4961
六相	-10.4963
大種	-10.4974
體同	-10.4974
糞	-10.4987
五十由旬	-10.4988
牟尼	-10.4991
異生	-10.4994
民	-10.5001
已上	-10.5005
一切功德	-10.5006
了義	-10.501
隨轉	-10.5013
為樂	-10.5014
一剎那	-10.5019
攝法	-10.5026
受者	-10.5026
以下明	-10.5028
用也	-10.5035
鄔	-10.5036
其數	-10.5037
今則	-10.5037
非我	-10.504
下轉	-10.5045
上云	-10.505
無妄	-10.5054
綱	-10.5055
啟	-10.5059
出入息	-10.5062
牟休多	-10.5063
料揀	-10.5065
豎	-10.5066
奇	-10.5066
真如性	-10.5067
位故	-10.5069
電等	-10.5072
似能立	-10.5072
所知障	-10.5075
染污	-10.5076
彼彼	-10.5077
之色	-10.5083
表示	-10.5088
正宗	-10.5092
之源	-10.5093
所依故	-10.5094
百由旬	-10.5095
此亦不然	-10.51
煖	-10.5108
而復	-10.5109
即明	-10.5114
其意	-10.5123
有眾生	-10.5125
七十	-10.5127
不自在	-10.5128
身口業	-10.5129
即生	-10.513
二十五	-10.513
不過	-10.5131
能發	-10.5133
二地	-10.5134
即應	-10.5138
八門	-10.514
心之	-10.5145
各自	-10.5158
真如相	-10.5169
皆具	-10.5172
止息	-10.5177
後明	-10.5178
上句	-10.5179
臥具	-10.5179
異類	-10.5181
苦受	-10.5184
動轉	-10.5186
生死涅槃	-10.5186
諸染法	-10.5188
所聞性因	-10.5189
我法	-10.519
覺體	-10.5192
妙吉祥	-10.5192
塗	-10.5195
無疑	-10.5196
根本不覺	-10.5201
恐怖	-10.5203
有自體	-10.5212
或是	-10.5219
隨自	-10.5224
甘	-10.5227
率	-10.5229
諂	-10.5229
隨彼	-10.5229
餓鬼	-10.523
復言	-10.523
邪定聚	-10.5231
柱	-10.5231
滯	-10.5231
閑	-10.5232
豈得	-10.5233
蓮花	-10.5236
論之	-10.5237
答言	-10.5238
蜜	-10.5238
禮敬	-10.5242
靜慮	-10.5247
性淨本覺	-10.5251
復以	-10.5251
淨心地	-10.5252
圓成	-10.5257
事業	-10.5258
酥	-10.526
多少	-10.5261
差別之相	-10.5271
為初	-10.5271
多羅	-10.5272
名利	-10.5275
諸教	-10.5277
非量	-10.5279
此位	-10.5281
離妄	-10.5287
十地菩薩	-10.5288
清淨本覺	-10.5294
咎	-10.5295
初三	-10.5296
皆說	-10.5301
無厭	-10.5302
執相	-10.5302
斷見	-10.5302
當說	-10.5304
無法	-10.5308
永斷	-10.531
有法差別	-10.5311
復更	-10.5312
能遮	-10.5323
為所	-10.5323
伴	-10.5324
雙非	-10.5326
之緣	-10.533
意在	-10.5331
風相	-10.534
釋名	-10.5341
以本	-10.5344
眾生亦爾	-10.5344
是名為十	-10.5345
三際	-10.5346
心不相應	-10.535
為有	-10.5351
水火	-10.5352
十信位	-10.5367
合本	-10.5367
中具	-10.5374
生滅門內	-10.5375
則無有	-10.5379
是正	-10.538
未必	-10.5382
大劫	-10.5382
身業	-10.5383
立破	-10.539
本具	-10.5392
童子	-10.5393
思擇	-10.5394
若取	-10.5396
上明	-10.5399
身分	-10.5401
充滿	-10.5402
屋	-10.5404
禮拜	-10.5407
猛	-10.5407
西瞿耶尼	-10.5412
婬欲	-10.5413
初正	-10.5413
每	-10.5414
復何	-10.5416
法界一相	-10.5417
六入	-10.5418
贊	-10.5419
集諦	-10.5421
初正明	-10.5421
滿足方便	-10.5431
業繫苦相	-10.5435
謂離	-10.5445
外有	-10.5446
答云	-10.5448
初生	-10.5455
一念相應	-10.5456
時分	-10.5456
名為法身	-10.5458
以不	-10.5463
故理門云	-10.5468
初心	-10.5472
況復	-10.5482
一類	-10.5484
海中	-10.5488
楞嚴云	-10.5488
體空	-10.5489
前義	-10.5491
此一	-10.5491
以空	-10.5493
妄識	-10.5496
同異性	-10.5497
別開	-10.5499
所覆	-10.5508
權實	-10.5509
不名為	-10.5512
皆是無常	-10.5513
三名	-10.5516
現身	-10.5523
如是觀	-10.5525
德業	-10.5526
一異	-10.5527
頓教	-10.5531
道中	-10.5531
別用	-10.5533
為首	-10.5536
行苦	-10.5536
法為	-10.5544
二別釋	-10.5546
不離眼識	-10.5549
貪瞋	-10.5549
重罪	-10.5551
宗也	-10.5556
依因	-10.5559
憎	-10.5561
普賢	-10.5562
離分別	-10.5567
婬	-10.5568
不妨	-10.5569
下劣	-10.5569
此五	-10.5571
義邊	-10.5577
齒	-10.5578
捉	-10.5578
問言	-10.5579
閻浮提	-10.5586
孔	-10.5586
斫	-10.5587
天王	-10.5588
洗	-10.559
化度	-10.559
超越	-10.559
預	-10.5591
本一	-10.5591
任持	-10.5592
歌	-10.5592
之業	-10.5593
隱覆	-10.5597
即指	-10.5597
體非	-10.5602
一法界心	-10.5603
染淨法	-10.5604
行願	-10.5608
具說	-10.5617
攝取	-10.5625
如虗空	-10.5637
雖未	-10.564
離心	-10.564
具足圓滿	-10.5641
如實空	-10.5642
亦成	-10.5643
於宗	-10.5645
彼經	-10.5655
非定	-10.5658
進趣	-10.5662
二種門	-10.5678
緣境	-10.5678
外曰	-10.5681
無分齊	-10.5687
信成就	-10.5691
滅也	-10.5691
見故	-10.5696
復有二種	-10.5696
諸師	-10.5697
此業	-10.5697
空空	-10.5698
而彼	-10.57
之類	-10.5702
圍繞	-10.5709
所感	-10.5711
是真如	-10.5712
苦行	-10.5713
開悟	-10.5715
持業	-10.5719
最極	-10.5721
地地	-10.5732
向上	-10.5733
謂諸	-10.5734
二如是下	-10.5738
欲明	-10.574
能解	-10.5741
之失	-10.5744
不礙	-10.576
知有	-10.5761
仗	-10.5763
王言善哉	-10.5765
履	-10.5765
盡於未來	-10.5766
逢	-10.5766
測	-10.5766
不墮	-10.5767
井	-10.5767
延	-10.5767
聲聞緣覺	-10.5769
芽	-10.5771
揀擇	-10.5773
聚落	-10.5776
佛剎	-10.5777
有法自相	-10.5777
譽	-10.5777
十方世界	-10.5779
差別緣	-10.5779
脩習	-10.578
辦	-10.5783
非唯	-10.5785
離言說相	-10.5785
▁○	-10.5787
覺不覺	-10.5793
今云	-10.5799
是因	-10.5807
煙	-10.5811
度脫	-10.5812
此亦如是	-10.5812
契經云	-10.5821
四事	-10.5825
明知	-10.5826
不愛	-10.583
平等無二	-10.5831
實際	-10.5836
隨分	-10.5857
謂眾生	-10.5865
處所	-10.5866
成一	-10.5869
人也	-10.587
向下	-10.5871
彼說	-10.5877
方有	-10.5882
天上	-10.5884
願諸眾生	-10.5885
會通	-10.5887
人我見	-10.5894
惑業	-10.5894
其名	-10.5906
之海	-10.5908
敵論	-10.591
以因	-10.5911
用熏習	-10.5912
無覺	-10.5914
不正	-10.5924
既言	-10.5928
解了	-10.5928
於法	-10.593
若自	-10.5932
是非	-10.5933
不苦不樂	-10.5936
而此	-10.5937
空中	-10.5942
執相應染	-10.5943
見諦	-10.5947
創	-10.5948
崇	-10.5948
祕密	-10.595
層	-10.5951
兵	-10.5952
二乘人	-10.5953
施等	-10.5953
嫌	-10.5953
因相	-10.5953
非理	-10.5953
似能破	-10.5954
蔽	-10.5955
旋	-10.5955
之位	-10.5956
下句	-10.5959
施戒	-10.5962
舍利子	-10.5962
又諸	-10.5966
五明	-10.5968
名聞	-10.5969
是正因	-10.597
因過	-10.597
無想	-10.597
修學	-10.5971
心滅	-10.5972
勝鬘	-10.5972
證真如	-10.5975
如立	-10.5978
難思	-10.5978
分際	-10.598
合成	-10.5981
忉利天	-10.5982
所不能	-10.5984
唯立	-10.5988
所許	-10.599
異法喻	-10.5991
空華	-10.5995
無所不	-10.5995
相攝	-10.6004
非勤勇無間所發	-10.6004
略標	-10.6007
相滅	-10.6017
千歲	-10.6018
念法	-10.6018
設有	-10.6019
又解	-10.602
而行	-10.602
賀	-10.6023
不通	-10.6025
善修	-10.6031
未至	-10.6033
理門論	-10.6034
是空	-10.6037
敢	-10.604
分為二	-10.6042
釋中	-10.6048
如經言	-10.6054
道路	-10.6054
立聲	-10.6055
今日	-10.6056
本智	-10.6057
所聞性故	-10.6061
等者此	-10.6066
流出	-10.6072
得住	-10.6077
全分	-10.6077
為異品	-10.6081
之差別	-10.6086
樂欲	-10.6089
皆不	-10.6096
識處	-10.6099
依彼	-10.6102
分離	-10.6102
於如來	-10.6103
受諸	-10.6104
字事	-10.6105
即名為	-10.6108
能說	-10.6111
即知	-10.6113
下釋成	-10.6114
生天	-10.6115
欣	-10.6122
摩訶衍法	-10.6123
即同	-10.6126
已訖	-10.6127
成辦	-10.6128
是宗	-10.6129
為人	-10.6129
樹下	-10.6132
德句	-10.6132
客	-10.6135
顯真	-10.6135
星	-10.6136
厚薄	-10.6136
酒	-10.6137
許有	-10.6139
寔	-10.6139
孤	-10.614
體相用	-10.6141
二巳說下	-10.6141
題目	-10.6143
離心緣相	-10.6143
乏	-10.6144
纔	-10.6144
術	-10.6144
烏	-10.6145
熾然	-10.6145
喚	-10.6145
休	-10.6146
亦無有	-10.6146
初舉	-10.6147
重釋	-10.6148
天台	-10.615
不殊	-10.615
塞	-10.6152
者即此	-10.6156
以辨	-10.6156
觀也	-10.6156
初言	-10.6161
本覺隨染	-10.6164
第三禪	-10.6164
識相	-10.6168
而自	-10.6169
補	-10.6171
地上菩薩	-10.618
相隨	-10.6183
此語	-10.6191
為異喻	-10.6192
前解	-10.6195
終無	-10.6196
濕性	-10.6199
無見	-10.6201
四德	-10.6205
初二句	-10.6206
佛位	-10.6209
得此	-10.6215
觀智	-10.622
正意	-10.6226
施者	-10.6226
得福	-10.623
生果	-10.6236
以是因緣	-10.6238
之後	-10.6241
以對	-10.6241
性空	-10.6245
以自	-10.6246
唯一真如	-10.6249
性也	-10.6254
非自	-10.6254
名一切種智	-10.6255
堪能	-10.6256
經典	-10.6256
徧計	-10.6259
四方	-10.6259
俱不極成	-10.6259
其過	-10.6269
而知	-10.627
不共不定	-10.6272
空無為	-10.6278
起念	-10.6279
即離	-10.6283
若其	-10.629
殺等	-10.6291
有緣	-10.6294
必定	-10.6295
知足	-10.6296
此智	-10.6298
謗法	-10.6305
比知	-10.6308
又由	-10.6308
退墮	-10.6312
心與	-10.6313
而取	-10.6314
己身	-10.6315
空故	-10.6316
亦不得	-10.6316
吹	-10.6318
豈有	-10.632
此但	-10.632
為眾生	-10.632
離性	-10.6321
疲	-10.6323
屈	-10.6325
瞻	-10.6327
十七	-10.6329
付	-10.6329
通用	-10.633
兔角	-10.6332
三千大千世界	-10.6332
飢渴	-10.6332
大宗地玄文本論	-10.6332
為欲現示	-10.6333
如來地	-10.6333
圓覺云	-10.6334
立聲為常	-10.6335
驚怖	-10.6335
眾中	-10.6336
植	-10.6337
策	-10.6337
於心	-10.6337
了達	-10.6338
尸羅	-10.6338
斧	-10.6338
活	-10.6338
此問	-10.6338
戰	-10.634
參	-10.6341
殺害	-10.6342
得起	-10.6344
未入	-10.6348
真相	-10.635
解者	-10.6353
遍一切處	-10.6356
淨信	-10.636
業煩惱	-10.6361
知此	-10.6363
住心	-10.6372
此過	-10.6375
解脫門	-10.6375
但依	-10.6376
得無念	-10.6376
細相	-10.6377
教中	-10.6382
隨其所	-10.6383
後時	-10.6383
非一異	-10.6386
鉢囉	-10.6388
十行	-10.6389
無前後	-10.6389
修行者	-10.639
諸境	-10.6391
依主	-10.6395
揀異	-10.6406
生老死	-10.6407
所入法	-10.6408
身相	-10.6415
懈	-10.642
廣大心	-10.6421
三明	-10.6423
鏡中	-10.643
常為	-10.6431
令入	-10.6436
第十地	-10.6438
初標徵	-10.644
真如理	-10.644
解也	-10.6447
名本覺	-10.6449
能持	-10.6452
苦故	-10.6454
一事	-10.6454
總問	-10.6455
疏主	-10.6457
無明者	-10.6459
過於	-10.6465
並皆	-10.6471
量故	-10.6473
以能	-10.6475
三慧	-10.6476
為能	-10.6479
華嚴經	-10.648
法華	-10.648
又釋	-10.6486
多分	-10.6489
後二句	-10.6489
境也	-10.6491
慚	-10.6491
第	-10.6497
能歸	-10.6499
觀心	-10.6502
違宗	-10.6504
珍	-10.6506
作惡	-10.6511
果也	-10.6511
不相應心	-10.6513
此門中	-10.6513
是顯	-10.6513
共成	-10.6513
前則	-10.6524
校	-10.6524
稟	-10.6526
e	-10.6527
御	-10.6528
此識有二種義	-10.6528
名異品	-10.6528
是時諸人	-10.6528
八萬四千	-10.653
應審思擇	-10.653
恣	-10.6532
摩羅	-10.6533
敷	-10.6533
誤	-10.6533
蒙	-10.6533
之識	-10.6535
離一切相	-10.6537
筆	-10.6538
雙運	-10.6538
業果報	-10.6539
不可破壞	-10.6543
出纏	-10.6543
今此文中	-10.6544
雖同	-10.6548
遍有	-10.655
百億	-10.6552
眼所見	-10.6552
非餘	-10.6557
神力	-10.6564
處說	-10.6566
高下	-10.6566
曼	-10.6569
畢竟平等	-10.657
廣顯	-10.6577
所欲	-10.6579
修集	-10.6584
有一實	-10.6584
立我	-10.6586
離染	-10.6586
於世間	-10.6592
信有	-10.6592
因分	-10.6598
多人	-10.6598
應成	-10.6598
於一切時	-10.6599
餘三	-10.66
謂彼	-10.6602
夫人	-10.661
於此中	-10.6612
無明業相	-10.6612
名稱	-10.6612
聲性	-10.6613
人身	-10.6616
聞已	-10.6619
可遣	-10.6621
契經說	-10.6623
智障	-10.6626
非實有	-10.6628
釋也	-10.664
不等	-10.6641
始起	-10.6647
如風	-10.6648
俱無	-10.6649
證理	-10.665
誦呪	-10.665
所愛	-10.6653
皆屬	-10.6656
於大乘	-10.6657
畜	-10.6659
墮地獄	-10.6659
其法	-10.6662
二十四	-10.6666
人我	-10.6669
取境	-10.6669
同彼	-10.6671
階	-10.6674
所謂下	-10.6678
眾寶	-10.668
舍利弗	-10.6683
能與	-10.6693
得大	-10.6698
大力	-10.6699
論也	-10.6701
深廣	-10.6702
故說名	-10.6703
不念	-10.6704
上妙	-10.6708
本覺義	-10.6714
不能知	-10.6715
鍵	-10.6717
樂著	-10.6717
雖具	-10.6718
擔	-10.6726
逼惱	-10.6726
北欝單越	-10.6727
懼	-10.6727
造種種業	-10.6727
僕	-10.6728
豫	-10.6728
即非	-10.6729
境相	-10.673
泉	-10.6732
製	-10.6732
報業	-10.6732
幸	-10.6732
不決定	-10.6734
割	-10.6735
湛然	-10.6735
避	-10.6736
枝末不覺	-10.6737
朝	-10.6738
分別事識熏習	-10.6739
東弗婆提	-10.6739
於眾生	-10.6745
能分別	-10.6755
開章	-10.6757
唯以	-10.676
重顯	-10.6762
悉能	-10.6764
病苦	-10.6767
一行	-10.6768
旦	-10.6768
緣者	-10.6769
言簡	-10.677
發趣	-10.6771
何為	-10.6771
有時	-10.6777
生已	-10.6783
相符極成	-10.6787
執持	-10.6791
群生	-10.6793
華嚴云	-10.6794
是故應	-10.6798
因滅	-10.6801
諸塵	-10.6804
業者	-10.6806
有為無為	-10.6807
受熏	-10.681
所遣	-10.6815
實教	-10.6817
言詞	-10.6818
那先言人	-10.6826
何由	-10.6829
立為	-10.6829
是故我	-10.6831
能照	-10.6833
福報	-10.6836
正說	-10.6837
彼文	-10.6848
攝諸	-10.685
以種種	-10.685
尚不	-10.6851
今據	-10.6851
體無	-10.6853
相違過	-10.6857
為此	-10.6859
中云	-10.686
能遣	-10.6861
彼所	-10.6864
定是	-10.6865
若入	-10.6867
自力	-10.6868
有七	-10.6869
▁五	-10.6871
微塵數	-10.6872
約法	-10.6876
所以也	-10.6879
空性	-10.689
相資	-10.6894
隱顯	-10.6897
彼天	-10.69
受苦樂	-10.6901
察	-10.6901
若聞	-10.6905
云何說	-10.6906
欲樂	-10.6913
如實不空	-10.6918
成有法	-10.6919
以一切	-10.6919
最為	-10.6921
見其	-10.6921
非離	-10.6923
身口意	-10.6923
心性無動	-10.6926
掉	-10.6926
坑	-10.6927
彼處	-10.6927
營	-10.6928
醉	-10.6929
計名字相	-10.6929
是故說	-10.693
禁	-10.693
樂求涅槃	-10.6931
離名字相	-10.6932
研	-10.6933
分段	-10.6933
大乘法	-10.6933
銷	-10.6933
金銀	-10.6934
得成就	-10.6935
詰	-10.6935
以要言之	-10.6936
憐愍	-10.6937
得勝	-10.6937
嫉妬	-10.6938
計我	-10.6938
與力	-10.6941
九句	-10.6942
而論	-10.6947
苦因	-10.6948
食噉	-10.6948
喃	-10.6956
隨眠	-10.6956
不論	-10.6957
立此	-10.6969
同品定有性	-10.6969
俱不遣	-10.6969
良由	-10.6971
法執分別	-10.6977
諸弟子	-10.698
決斷	-10.6984
先後	-10.6988
心心數法	-10.699
喻依	-10.6994
為根	-10.6995
合說	-10.6998
相成	-10.6998
有對	-10.6998
而去	-10.7001
相似過類	-10.7004
耳識	-10.7008
若唯	-10.7012
相應者	-10.7015
該攝	-10.7018
時有	-10.7018
妙法	-10.7019
於何	-10.7019
釋頌	-10.7022
非無常	-10.7026
作如是	-10.7026
不緣	-10.7026
普遍	-10.7028
悲愍	-10.7028
一身	-10.7029
▁初標	-10.7032
不但	-10.7034
不染	-10.7034
永無	-10.7035
論宗	-10.7039
障故	-10.7039
世親	-10.704
此真如	-10.7041
量果	-10.7042
萬由旬	-10.7044
謂能	-10.7049
但由	-10.7054
攝論	-10.7059
詳之	-10.7063
空者	-10.7065
聖法	-10.7066
對前	-10.7068
不息	-10.7075
信心成就	-10.7076
是何	-10.7083
臨	-10.7087
諸染	-10.7089
翻前	-10.7091
【	-10.7093
行法	-10.7094
一切佛法	-10.7096
諍論	-10.7105
無病	-10.7109
信佛	-10.7109
深信	-10.7115
以大悲	-10.7115
若準	-10.7118
族	-10.7119
如火	-10.712
江	-10.7123
三十二	-10.713
阿修羅	-10.713
一萬	-10.7134
恨	-10.714
中亦	-10.7141
親友	-10.7141
利鈍	-10.7142
三細六麤	-10.7142
繞	-10.7143
明鏡	-10.7144
善逝	-10.7144
沉	-10.7145
玉	-10.7146
看	-10.7147
束	-10.7147
不相妨	-10.7148
覺心初起	-10.715
末那識	-10.715
金剛位	-10.7154
吾	-10.7155
見之	-10.7156
非愛	-10.7159
云何為六	-10.7161
近遠	-10.7167
唯在	-10.7168
若許	-10.7169
東方	-10.7171
專念	-10.7174
言顯	-10.7175
以信	-10.7176
指法	-10.7182
色像	-10.7182
不相離性	-10.7192
為法	-10.7192
止觀門	-10.7196
心緣	-10.7196
為門	-10.7198
數論師	-10.72
今世	-10.7204
不明	-10.7204
輪轉	-10.7205
有緣性	-10.7211
名能破	-10.7212
標名	-10.7213
自教	-10.7213
似有	-10.7217
內有	-10.722
此觀	-10.7222
不增減	-10.7224
無處	-10.7224
如下文云	-10.7224
於真如	-10.7232
餘四	-10.7235
名為無明	-10.7236
八法	-10.7239
無非	-10.7243
即上	-10.7248
對待	-10.7249
或言	-10.7253
妄境界	-10.726
因是	-10.7261
諸大	-10.7266
違教	-10.7273
得佛	-10.7275
合云	-10.7275
論意	-10.7284
無際	-10.7285
有殊	-10.7288
差別相	-10.7293
修證	-10.7294
如瓶	-10.7297
化眾生	-10.7312
前明	-10.7313
護持	-10.7315
除遣	-10.7316
四智	-10.7316
信等	-10.7323
友	-10.7325
真宗	-10.7333
熏習真如	-10.7343
法說	-10.7345
有色	-10.7346
實非	-10.7346
五法	-10.7348
嚴飾	-10.7349
商	-10.7351
過於恒沙	-10.7351
王位	-10.7352
裂	-10.7352
怒	-10.7352
返顯	-10.7353
汁	-10.7354
殿	-10.7354
復云	-10.7354
奢	-10.7354
難可了知	-10.7354
不斷相應染	-10.7354
騰	-10.7355
追	-10.7355
獸	-10.7355
於無	-10.7356
頃	-10.7357
所被	-10.7358
貪瞋癡	-10.7358
三輪	-10.736
墜	-10.736
乃得	-10.736
攝化眾生	-10.7361
但舉	-10.7362
剋	-10.7362
淚	-10.7363
蟲	-10.7364
猶如瓶等	-10.7364
合掌	-10.7364
乃至菩薩究竟地	-10.7364
善道	-10.7369
無罪	-10.7369
顯因	-10.7374
自語相違	-10.7376
劫數	-10.7379
云何修行	-10.738
財利	-10.7382
三字	-10.7385
而可	-10.7388
違自教	-10.739
不雜	-10.7391
未相應	-10.7397
捺	-10.7399
所陳	-10.7402
所逼	-10.7402
如我	-10.7402
對彼	-10.7403
後一句	-10.7404
無明不覺	-10.7409
為無	-10.741
名宗	-10.7411
離垢	-10.7415
指陳	-10.7415
轉相門	-10.7416
妄計	-10.7416
由心	-10.7419
苦果	-10.7423
有法上	-10.7423
一論	-10.7424
起動	-10.7425
後身	-10.7425
依真如	-10.7426
彼諸	-10.7427
自分	-10.7428
對染	-10.7434
下約	-10.7434
自利行	-10.7436
以起	-10.7437
二行	-10.7437
為破	-10.7438
真能破	-10.7439
彼中	-10.745
揀非	-10.7452
如餘	-10.7452
知是	-10.7454
無所依	-10.7454
慳貪	-10.7461
為義	-10.7463
謂從	-10.7469
有智	-10.7471
無色定	-10.7476
三毒	-10.7477
五句	-10.7481
為有法	-10.7488
無失	-10.7488
若如是	-10.7493
初一句	-10.7493
不淨觀	-10.7493
人有	-10.7497
實德業	-10.7507
利益眾生	-10.7514
唯言	-10.753
色者	-10.753
治障	-10.7533
同異品	-10.7535
他用	-10.7536
示相	-10.7537
徧轉	-10.7538
之道	-10.7539
本云	-10.7543
今者	-10.7545
因緣具足	-10.755
為先	-10.7551
非能立	-10.7556
於一切法	-10.7558
起成	-10.7561
綺語	-10.7562
合為	-10.7563
緩	-10.7564
敗	-10.7564
甲	-10.7567
轉輪聖王	-10.7567
妻	-10.7568
杌	-10.7568
伐	-10.7568
不及	-10.7568
張	-10.7569
若起	-10.757
喪	-10.757
瘡	-10.757
彌勒	-10.757
三大義	-10.757
毒蛇	-10.7572
丈	-10.7572
阿那含	-10.7572
迎	-10.7572
阿僧祇劫	-10.7572
戶	-10.7573
撰	-10.7575
此之謂也	-10.7576
優婆塞	-10.7577
官	-10.7577
禁戒	-10.7578
甘露	-10.7578
墮負處	-10.758
譏	-10.7581
言有	-10.7583
辛	-10.7584
実	-10.7586
財施	-10.7591
安置	-10.7593
総	-10.7595
相應義	-10.7597
端正	-10.7598
所持	-10.7601
天下	-10.7606
五事	-10.7609
行布施	-10.7609
此中有三	-10.7611
初發心住	-10.7613
有生滅	-10.7613
無間道	-10.7618
名法身	-10.7619
增勝	-10.762
伽陀	-10.7621
王數	-10.7635
初學	-10.7638
即是真如	-10.7638
一多	-10.7647
應觀察	-10.7651
樂等	-10.7654
故名真如	-10.7656
妄有	-10.7658
墮於	-10.7659
受想	-10.766
取捨	-10.767
所破	-10.7672
析	-10.7673
由其	-10.7676
依不覺	-10.768
當於	-10.768
大慈悲	-10.768
此理	-10.7681
水界	-10.7685
生法	-10.7686
生滅之相	-10.7687
即現	-10.769
但於	-10.7692
遂令	-10.7693
真金	-10.7695
大苦	-10.77
其餘	-10.7702
不忘	-10.7705
不住生死	-10.7707
取陰	-10.7711
先有	-10.7711
法自相相違	-10.7711
無有自性	-10.7718
三千	-10.7722
歸敬	-10.7723
別法	-10.7726
而修	-10.773
譬若	-10.7732
說無	-10.7735
宗者	-10.7738
顯理	-10.7743
梁	-10.7743
煩惱業	-10.7751
智人	-10.7752
未起	-10.7754
一切眾生皆	-10.7755
離苦	-10.7755
菩薩於	-10.7758
即於	-10.7761
約義	-10.7765
此皆	-10.7765
攝義	-10.7767
此六	-10.7774
勝處	-10.7776
皆不可得	-10.7779
乃能	-10.7784
是無明	-10.7784
親證	-10.7785
故前云	-10.7785
不容	-10.7786
入正定聚	-10.7788
損減	-10.7788
所緣境	-10.779
積聚他用	-10.7791
斯陀含	-10.7793
自體相熏習	-10.7793
剖	-10.7794
按	-10.7794
三摩提	-10.7796
奧	-10.7796
素	-10.7797
僧佉	-10.7797
清淨心	-10.7797
碎	-10.7798
鄙	-10.7799
損害	-10.7802
鑒	-10.7802
齋	-10.7802
生滅心	-10.7803
無質礙	-10.7803
見諸眾生	-10.7805
神呪	-10.7807
答以	-10.7809
王言善哉善哉	-10.7809
隨機	-10.781
故但	-10.7811
非所聞	-10.7812
若因	-10.7812
在纏	-10.7813
已還	-10.7815
未斷	-10.7816
始本	-10.7819
儞	-10.782
問云	-10.7821
天道	-10.7822
染著	-10.7822
初中有三	-10.7823
此位中	-10.7825
非約	-10.783
十門	-10.7831
順真	-10.7831
如上所說	-10.7832
邪命	-10.7832
餘義	-10.7834
不同故	-10.7836
隨釋	-10.7836
今文	-10.7837
通相	-10.7841
頂禮	-10.7841
離過	-10.7843
順理	-10.7844
人間	-10.7844
淳淨	-10.7848
何因	-10.7849
方始	-10.7852
後結	-10.7852
第六識	-10.7855
大法	-10.7856
等取	-10.7858
兩俱隨一	-10.7861
立論者	-10.7862
妄相	-10.7862
無別異	-10.7863
入真如門	-10.7863
無量劫	-10.7864
淨戒	-10.7871
一切物	-10.7872
唯說	-10.7873
婆羅	-10.7876
出息	-10.7877
知識	-10.7879
此結	-10.7881
能成就	-10.7885
無功用	-10.7889
不合	-10.7889
麁相	-10.7889
得離	-10.7894
於水	-10.79
無常性故	-10.791
計名	-10.7912
遍一切	-10.7913
十卷	-10.7915
名能立	-10.7917
已去	-10.7918
二意	-10.7918
兩句	-10.7921
此無明	-10.7922
不同也	-10.7924
但明	-10.7933
功力	-10.7934
道路中	-10.7934
自下第二	-10.7935
大仙	-10.7937
因成	-10.7937
即空	-10.7938
今明	-10.7938
入道	-10.7941
名不定	-10.7942
令滿	-10.7948
汝今	-10.795
無形	-10.795
八相	-10.7951
於境	-10.7954
自見	-10.796
行善	-10.7961
本意	-10.7962
未離	-10.7962
三門	-10.7965
潔	-10.7966
故次	-10.7968
智淨	-10.7973
聲生	-10.7973
菩薩行	-10.7983
無二體	-10.7984
入住	-10.7984
化生	-10.7986
同分	-10.7987
唯一心	-10.799
難陀	-10.7997
二過	-10.8
無終	-10.8002
非非	-10.8003
楞嚴	-10.8003
相應也	-10.8006
於一切眾生	-10.8007
垢染	-10.8008
狗	-10.8014
一日一夜	-10.8014
甜	-10.8017
舒	-10.8018
丸	-10.8018
一切時	-10.8018
氷	-10.8019
衛	-10.8019
出體	-10.8021
勝德	-10.8021
式	-10.8025
龜毛	-10.8025
則得	-10.8025
故新論云	-10.8025
顯發	-10.8026
臺	-10.8026
妻子	-10.8027
降伏	-10.8028
之方便	-10.8028
勤勇發	-10.8029
上中下	-10.8032
總釋	-10.8033
業因	-10.804
何謂	-10.8044
彼法	-10.8051
得罪	-10.8053
三細中	-10.8057
是總	-10.8059
聲聞乘	-10.8063
眾僧	-10.8067
覺分	-10.8071
實體	-10.8073
聲為	-10.8076
業力	-10.8079
還生	-10.8084
雖殊	-10.8085
法差別	-10.8086
可取	-10.809
四行	-10.809
依主釋也	-10.8093
量云	-10.8096
生一切法	-10.8096
而實不	-10.8097
初總	-10.8113
上二	-10.8113
妄生	-10.8117
義同	-10.8121
未成	-10.8125
六塵境界	-10.8125
過去未來	-10.8127
生彼	-10.8129
所宗	-10.813
何者為	-10.8132
比觀	-10.8133
轉釋	-10.8135
顯此	-10.8141
含攝	-10.8141
聲常	-10.8142
根塵	-10.8145
不退轉	-10.8145
謂如來藏	-10.8146
作諸	-10.8158
三百	-10.816
在前	-10.8163
名同	-10.8168
分分	-10.8171
同法喻	-10.8171
未證	-10.8175
若觀	-10.8176
二顯	-10.8177
宗喻	-10.8179
八千	-10.8185
聞說	-10.8187
奉行	-10.819
為常	-10.8191
如佛所說	-10.8205
善見	-10.8207
真法	-10.8207
若菩薩	-10.8208
品中	-10.8218
皆盡	-10.822
我義	-10.822
猶若	-10.8225
一切下	-10.8225
心真如者	-10.8225
鬘	-10.8226
有二初結指	-10.8226
同此	-10.823
證成	-10.823
取其	-10.8234
所立不成	-10.8234
掌	-10.8238
十法	-10.8241
隣	-10.8242
曠	-10.8245
之機	-10.8245
未來世	-10.8248
聽受	-10.8249
外塵	-10.8249
蘇	-10.825
是妄	-10.825
擾	-10.825
正辨	-10.825
生住異滅	-10.8251
自此已下	-10.8251
回向	-10.8251
熾盛	-10.8252
爪	-10.8252
荷	-10.8252
頌言	-10.8253
周迴	-10.8253
尋伺	-10.8255
豐	-10.8257
何能	-10.8258
無有窮盡	-10.8258
霧	-10.8259
無所不遍	-10.826
見聞覺知	-10.826
諸佛世尊	-10.826
喻體	-10.8261
瞿	-10.8261
甚深法	-10.8261
淨法滿足	-10.8262
乍	-10.8264
聖賢	-10.8264
證入	-10.8265
勤行	-10.8265
我身	-10.8266
眼所不攝	-10.8267
非宗法	-10.8267
慶	-10.8268
異品遍無	-10.8275
修生	-10.8279
苦者	-10.828
和尚	-10.8284
愚者	-10.8285
若立	-10.8286
聖凡	-10.8286
名差別	-10.8293
智了	-10.8294
轉法輪	-10.8294
禰	-10.8296
種種相	-10.83
大臣	-10.8303
精勤	-10.8305
於理	-10.8306
因名	-10.831
過咎	-10.8311
又此人	-10.8311
故不說	-10.8311
名身	-10.8313
假使	-10.8313
▁初總	-10.8314
之相也	-10.8319
人見	-10.8321
我與	-10.8324
凡愚	-10.8326
必當	-10.8326
即法身	-10.8327
為主	-10.8328
t	-10.8334
勝解	-10.834
闕一	-10.834
斷常	-10.8342
生信	-10.8345
因明論	-10.8352
中之	-10.8353
屬當	-10.8354
稱量	-10.8355
總立	-10.836
有德	-10.8366
不得言	-10.8372
因亦	-10.8373
為所熏	-10.8384
三重	-10.8387
稱性	-10.8389
貌	-10.839
開合	-10.839
釋所以	-10.8392
難者	-10.8405
既爾	-10.8408
眾緣	-10.8417
今且	-10.842
所聞性	-10.842
徧知	-10.8424
第二句	-10.8424
色法	-10.8424
證智	-10.8425
白言	-10.8426
文意	-10.8428
染淨諸法	-10.843
人法	-10.8432
謂眾生心	-10.8438
依主釋	-10.844
妄起	-10.844
約人	-10.8445
有所得	-10.8445
起業	-10.8447
大涅槃	-10.8449
佛塔	-10.8452
謂無明	-10.8452
真如也	-10.846
天女	-10.8461
故說名為	-10.8462
五十一種	-10.8464
事理	-10.8466
不足	-10.8468
中三	-10.8472
如海	-10.8473
之量	-10.8479
次二	-10.8482
嫉	-10.8484
阿賴耶	-10.8485
斯論	-10.8485
他方佛色	-10.8485
毛孔	-10.8486
嗅	-10.8487
工巧	-10.8488
尤	-10.8488
多一心	-10.8489
羊	-10.8489
的	-10.849
所量性故	-10.849
緣熏習鏡	-10.849
弗	-10.8491
漂	-10.8492
流注	-10.8494
侍	-10.8495
以不解故	-10.8496
伺察	-10.8497
陀羅	-10.8498
須彌	-10.8498
暢	-10.8499
速疾	-10.8499
陵	-10.85
愈	-10.8501
兩舌	-10.8502
訓	-10.8505
遷流	-10.8505
救度	-10.8506
留惑	-10.8507
喻如	-10.8507
長短	-10.8509
上上	-10.851
能立不遣	-10.8512
不成過	-10.8515
廣大圓滿	-10.8522
可畏	-10.8526
進退	-10.8527
造此論	-10.8527
具德	-10.853
見已	-10.8531
無斷	-10.8531
心數法	-10.8531
六趣	-10.8539
信力	-10.8541
而於	-10.8542
常行	-10.8545
為因緣	-10.8546
與其	-10.8549
及彼	-10.8552
絕待	-10.8553
六染中	-10.8554
得樂	-10.8554
常住一心	-10.8559
相者是	-10.856
心生滅者	-10.8565
令不	-10.8569
廣分別	-10.857
言生因	-10.8571
應無	-10.8572
入正理	-10.8577
亦不應	-10.8578
總略	-10.8583
所念	-10.8587
無雜	-10.8589
無常想	-10.8589
此三昧	-10.8589
十向	-10.8589
以為其	-10.859
果分	-10.8591
是名為四	-10.8593
蓋以	-10.8595
前際	-10.8596
禪師	-10.8598
淨熏	-10.8602
事識中	-10.8603
又問	-10.8605
未說	-10.8606
如是如是	-10.861
之語	-10.861
熏故	-10.8612
先釋	-10.8613
下答	-10.8615
別別	-10.8618
若實	-10.862
釋其	-10.8621
當來	-10.8624
從本	-10.8629
本淨	-10.8639
引文	-10.864
總為	-10.8641
現起	-10.8642
此處	-10.8646
求菩提	-10.8647
顯說	-10.8647
猶在	-10.8648
既離	-10.8653
俱分	-10.8654
具云	-10.8654
薩婆多	-10.8655
中文	-10.8656
比量者	-10.8661
信真如	-10.8661
但能	-10.8665
非可	-10.8667
於諸眾生	-10.8668
若如是者	-10.8669
知一切法	-10.867
除此	-10.8681
執我	-10.8684
又言	-10.8685
為除	-10.8686
即真如門	-10.8688
能生一切	-10.8699
而有無明	-10.87
已見	-10.8701
相去	-10.8701
開門	-10.8706
一由旬	-10.8711
婦	-10.8713
彼宗	-10.8714
無二故	-10.8716
誡	-10.8717
總顯	-10.8718
非有相	-10.8723
三十六	-10.8723
應如是	-10.8724
醎	-10.8724
義利	-10.8725
伎	-10.8726
奔	-10.8729
問意	-10.873
鮮	-10.873
紛	-10.8734
常恒不變	-10.8734
若修止者	-10.8734
域	-10.8735
以慧	-10.8735
等三	-10.8736
阿毘曇	-10.8736
括	-10.8738
脩多羅中作如是說	-10.8738
日光	-10.8738
隨時	-10.8738
吐	-10.8739
逼迫	-10.8739
氏	-10.874
柯	-10.874
羣	-10.8741
為真	-10.8742
無有增減	-10.8742
纏縛	-10.8743
行施	-10.8744
沙門婆羅門	-10.8745
救護	-10.8745
歸本	-10.8746
能正	-10.8747
現境	-10.8747
一一各各	-10.875
刻	-10.875
有何差別	-10.8751
違理	-10.8753
定不離眼識	-10.8754
轉輪王	-10.8757
四信	-10.8761
識等	-10.8763
意熏習	-10.8764
喻也	-10.8766
本來平等	-10.8771
染緣	-10.8773
僧祇	-10.8775
唯是一	-10.8783
名為智礙	-10.8787
義別	-10.8787
度眾生	-10.8787
說名能立	-10.8789
次下第二	-10.8791
不可壞	-10.8791
無復	-10.8792
聲等	-10.8794
於虛空	-10.8794
猶有	-10.8795
如是眾生	-10.8797
不淨想	-10.8798
五過	-10.8799
似現	-10.8801
熏力	-10.8803
之有	-10.8804
事中	-10.8814
利眾生	-10.8814
▁初正釋	-10.8816
登地	-10.8817
風界	-10.8818
四過	-10.8823
九過	-10.8824
如斯	-10.8828
新生	-10.8828
百年	-10.8831
中各	-10.8833
一切世界	-10.8836
千由旬	-10.8839
行因	-10.8841
作沙門	-10.8842
此當	-10.8849
依生滅門	-10.8852
廣辨	-10.8855
教令	-10.8857
五趣	-10.8857
體即	-10.8865
可斷	-10.8867
將欲	-10.8867
一明	-10.8868
出其	-10.8868
相耶	-10.8871
令心生滅	-10.8871
諸門	-10.8873
又彼	-10.8874
標釋	-10.889
又行者	-10.8896
如是諸	-10.8903
一千	-10.8907
與我	-10.8909
日日	-10.8911
引喻	-10.8912
無流	-10.8914
無惑	-10.8915
無邊際	-10.8917
定中	-10.8919
無數劫	-10.8919
先問	-10.8921
為得	-10.8922
生佛	-10.8923
二緣	-10.8925
初正顯	-10.8925
意謂	-10.8925
火燒	-10.8928
乘者	-10.8933
種種差別	-10.8935
應修	-10.8937
三十三	-10.8943
發智	-10.8948
位在	-10.895
全分一分	-10.8951
即說	-10.8952
界中	-10.8955
相違義	-10.8956
見苦	-10.8956
修作	-10.8961
為善	-10.8962
同許	-10.8963
不能了	-10.8965
無俱不成	-10.8965
有無明	-10.8966
意顯	-10.897
唯自	-10.8971
鳩	-10.8973
皮肉	-10.8977
通攝	-10.8979
灌頂	-10.8982
我今當	-10.8982
等皆	-10.8982
本文	-10.8983
有念	-10.8983
銅	-10.8983
雅	-10.8983
踰	-10.8983
詐	-10.8984
村	-10.8984
折	-10.8985
稻	-10.8986
小兒	-10.8986
大圓鏡智	-10.8986
扶	-10.8986
得聞	-10.8986
穿	-10.8987
借	-10.8987
愚夫	-10.8988
阿蘭若	-10.8988
米	-10.8989
弊	-10.8989
蕩	-10.899
忻	-10.8991
從無始世來	-10.8991
宿世	-10.8993
萬像	-10.8993
得度	-10.8993
逕	-10.8993
是故無	-10.8994
為大	-10.8995
曼陀羅	-10.8996
無漏種子	-10.8996
沙彌	-10.8997
汝當	-10.8997
七變	-10.8998
無有變異	-10.9001
從心	-10.9003
試	-10.9005
唯有一	-10.9006
斷盡	-10.9008
文可見	-10.9011
觀之	-10.9012
智慧觀察	-10.9016
此疑	-10.9017
所立義	-10.902
則不得	-10.902
左右	-10.9025
善哉	-10.9026
未見	-10.9032
更相	-10.9033
不可言	-10.9033
當知是人	-10.9033
作禮	-10.9034
八萬	-10.9036
四字	-10.9038
容受	-10.9038
作如是言	-10.9038
以後	-10.904
動搖	-10.9044
靜處	-10.9047
是大	-10.9048
以無常	-10.9051
智用	-10.9052
諸趣	-10.9055
合為一	-10.9056
終不能	-10.9057
經書	-10.9072
五教	-10.9075
五蓋	-10.9079
二年	-10.9083
無所立	-10.9084
便生	-10.9085
卷第一	-10.9089
主宰	-10.9089
初中有二	-10.9091
可言	-10.9091
不覺故	-10.9096
據此	-10.9098
口業	-10.9099
比智	-10.9101
結云	-10.9102
藏中	-10.9106
已成	-10.9107
▁二別釋	-10.9107
一真	-10.9108
有前後	-10.9108
護念	-10.9111
在家	-10.9112
立聲常	-10.9114
即生滅門	-10.9115
今但	-10.9119
此復	-10.912
還淨	-10.9123
譬如有人	-10.9123
供養諸佛	-10.9123
能使	-10.9124
似喻	-10.9126
離障	-10.9128
亦滅	-10.9129
即墮	-10.9131
四五	-10.9131
仁	-10.9135
業轉	-10.9148
順真如	-10.9152
發心相	-10.9153
內因	-10.9157
絕相	-10.9157
妄心熏習	-10.9157
瑜伽論	-10.9158
亦當	-10.9161
上文云	-10.9163
虛空界	-10.9167
或見	-10.9167
般	-10.9175
持業釋	-10.918
靜心	-10.9181
愛敬	-10.9183
言生	-10.9184
炙	-10.9186
三諦	-10.9186
盡十方	-10.9193
說彼	-10.9194
悉知	-10.9199
此舉	-10.92
因言	-10.92
不能見	-10.92
自他共	-10.92
之別	-10.9203
之義也	-10.9204
此方	-10.9211
以方便	-10.9215
之大	-10.9215
為能熏	-10.9216
相違者	-10.922
標數	-10.922
彼復	-10.922
具明	-10.9221
是識	-10.9223
我是	-10.9223
自成	-10.9226
後有	-10.9227
入十住	-10.9229
是心生滅因緣相	-10.9232
六麁	-10.9233
如何得	-10.9233
洞	-10.9237
以諸	-10.9238
等經	-10.9238
唯佛窮了	-10.9238
作善	-10.9239
優劣	-10.924
如經	-10.924
君	-10.924
善根微少	-10.924
思議	-10.9243
怨賊	-10.9243
是菩提	-10.9243
湯	-10.9243
醜	-10.9244
春	-10.9245
阿棃耶識	-10.9246
映	-10.9246
健	-10.9246
孝	-10.9247
游	-10.9249
圖	-10.925
工	-10.925
真如熏習	-10.9251
逆順	-10.9252
諸眾生等	-10.9254
怨家	-10.9254
未滿	-10.9255
何異	-10.9255
重重	-10.9258
迴向菩提	-10.9258
無所畏	-10.9259
或生	-10.926
能受	-10.9262
生喜	-10.9262
塵沙	-10.9263
轉生	-10.9263
有法及法	-10.9263
不亡	-10.9265
更無別法	-10.9268
未甞	-10.927
失念	-10.927
或作	-10.9273
本覺內熏	-10.9275
無質礙因	-10.9276
所住	-10.9284
梨耶識	-10.9288
無礙自在	-10.9289
世間相違	-10.9294
見法身	-10.9295
眾德	-10.9295
要須	-10.9296
總答	-10.9297
空無我	-10.9298
之由	-10.9301
位位	-10.9305
方是	-10.9305
無分別故	-10.9306
困苦	-10.9308
即依	-10.9309
妙用	-10.9312
今取	-10.9314
觀義	-10.9314
成其	-10.9314
隨宜	-10.9316
名似現量	-10.9316
不增	-10.9317
首陀	-10.9318
見非所作	-10.932
通明	-10.9321
各各差別	-10.9321
成佛道	-10.9322
清淨始覺	-10.9322
別門	-10.9323
七八	-10.9323
謂一切	-10.9324
遍照	-10.9325
合修	-10.9326
詮表	-10.9328
實故	-10.9329
正體	-10.933
熏真	-10.9332
有二義一	-10.9332
若生	-10.9334
希求	-10.9335
得益	-10.9336
相續不斷	-10.9337
此一心	-10.9339
此之二	-10.9342
大德	-10.9346
有分	-10.9347
執有	-10.9348
釋曰五	-10.9351
他比量	-10.9358
雜染	-10.9358
云何有	-10.936
以眾生	-10.936
善知	-10.9361
二人	-10.9367
福智	-10.9368
復能	-10.9372
已作	-10.9374
非正	-10.9375
失故	-10.9379
以不知	-10.938
淨智	-10.9383
結指	-10.9385
有二一	-10.9385
水中	-10.9386
後別	-10.9387
知彼	-10.9388
覆藏	-10.9388
所成故	-10.9389
諸禪定	-10.9392
後合	-10.9398
相從	-10.9402
他受用	-10.9404
之具	-10.9405
本體	-10.9407
佛法僧	-10.941
地者	-10.9411
不云	-10.9412
以彰	-10.9413
又若人	-10.9414
故唯	-10.9415
大城	-10.942
多義	-10.9421
名為大	-10.9424
相似覺	-10.9424
之教	-10.9428
業識心	-10.943
則名	-10.9431
於因	-10.9432
不離真如	-10.9432
嚤	-10.9435
二利	-10.9435
足處	-10.9436
寶藏	-10.9437
智身	-10.9441
通妨	-10.9441
身體	-10.9445
他不許	-10.9445
聖者	-10.9448
如是下	-10.9448
牒章	-10.9451
既成	-10.9452
戒取	-10.9453
論師說	-10.9454
知者	-10.9456
從緣生	-10.9456
意說	-10.9457
作釋	-10.9472
業故	-10.9472
思念	-10.9472
少分見	-10.9475
體無二	-10.9475
具如	-10.9477
諸禪	-10.9477
勅	-10.9478
論言	-10.948
亦具	-10.948
焚	-10.9481
六七	-10.9482
後四	-10.9488
河沙	-10.9491
巖	-10.9491
圍遶	-10.9494
大用	-10.9494
於契經中	-10.9497
遍行	-10.9497
從來	-10.9498
宅	-10.9498
快	-10.9499
貪恚	-10.95
私	-10.9501
此地	-10.9502
默	-10.9502
不染而染	-10.9502
鎔融	-10.9503
法出離鏡	-10.9503
斷無明	-10.9503
笑	-10.9503
染汙	-10.9504
保	-10.9504
哀	-10.9504
善男子善女人	-10.9504
危	-10.9505
遲速	-10.9506
得自相	-10.9506
亦不相違	-10.9507
而言之	-10.9507
善哉善哉	-10.9507
現色不相應染	-10.9509
差別也	-10.9513
是所立	-10.9514
如量智	-10.9515
至教	-10.9515
皆通	-10.9516
出家人	-10.9517
八聖道	-10.9518
道場	-10.9519
此本覺	-10.9522
香象	-10.9522
不住涅槃	-10.9523
之根本	-10.9523
作緣	-10.9526
答釋	-10.9526
難意	-10.953
此謂修	-10.953
隨文	-10.9532
無餘涅槃	-10.9533
之見	-10.9533
願我	-10.9534
具三	-10.9534
法輪	-10.9536
治道	-10.9536
起後	-10.9536
四念處	-10.9542
真言	-10.9544
作有緣性	-10.9544
雖念	-10.9544
說偈	-10.9545
四攝	-10.9547
火聚	-10.9547
以少	-10.9548
須菩提	-10.9548
見佛身	-10.9553
努	-10.9556
諸物	-10.9557
便無	-10.9558
亦隨	-10.9562
此段	-10.9572
▁初明	-10.9573
意者	-10.9573
▁二釋成	-10.9574
明此	-10.9574
五行	-10.9581
佛世尊說	-10.9581
異於	-10.9581
往彼	-10.9592
令增長	-10.9593
行道	-10.9595
愛取	-10.9597
見性	-10.9599
解義	-10.96
同品定有	-10.9604
已知	-10.9607
天魔	-10.9607
初結前生後	-10.9614
因有	-10.9614
可壞	-10.9614
惑亂	-10.9616
麤相	-10.9616
云何下	-10.9621
修心	-10.9622
能變	-10.9623
現證	-10.9624
而悉	-10.9624
有九	-10.9627
各有三	-10.9632
有生滅心	-10.9632
空相	-10.9633
則有三種	-10.9634
利他行	-10.9634
世間法	-10.9638
無有前後	-10.9639
在後	-10.964
因由	-10.9642
其文	-10.9643
具顯	-10.9645
是法身	-10.9646
電光	-10.9651
劫中	-10.9653
得無	-10.9657
故立	-10.9659
隨妄	-10.9661
謂無	-10.9664
當生	-10.9665
摩訶衍論	-10.9666
略舉	-10.9666
中作如是說	-10.9667
十方諸佛	-10.9668
應如是知	-10.9668
所集	-10.9669
染熏	-10.967
總體	-10.9679
理應	-10.968
六處	-10.9684
無生滅	-10.9684
故華嚴云	-10.969
差別者	-10.9692
卒	-10.9694
自共	-10.9699
法我見	-10.9699
三世間	-10.9702
老病死	-10.9703
真熏	-10.9704
三世諸佛	-10.971
隨滅	-10.9712
如金	-10.9713
未曾有	-10.9716
真如隨緣	-10.9718
其上	-10.9726
依經	-10.9731
千世界	-10.9737
不應作	-10.974
意欲	-10.974
苾芻	-10.9741
無同喻	-10.9745
噉	-10.9747
十惡	-10.9753
不離於	-10.9753
滅度	-10.9753
此文中	-10.9756
初發心	-10.9758
初義	-10.9759
能信	-10.9759
釈	-10.9761
過類	-10.9764
一生	-10.9764
知相緣相	-10.9765
充	-10.9766
癡行人	-10.9767
於彼中生	-10.9767
番	-10.9768
若心有動	-10.9768
暴	-10.9769
伺	-10.977
鬪諍	-10.977
阿黎耶識	-10.9771
即入	-10.9772
闡提	-10.9772
索	-10.9773
條	-10.9774
鑽	-10.9774
憎愛	-10.9775
染而不染	-10.9775
懺	-10.9775
心行處滅	-10.9776
廓	-10.9776
怪	-10.9776
遊戲	-10.9777
螺髻	-10.9778
所別不極成	-10.9778
卑	-10.9778
醍醐	-10.9779
床	-10.9779
聰明	-10.9779
憍	-10.9779
過去世	-10.9781
□□	-10.9781
皇	-10.9781
方起	-10.9786
到彼岸	-10.9786
對色	-10.9786
合離	-10.9786
樂相	-10.9786
深厚	-10.9788
塔廟	-10.9789
法身不現	-10.9791
王復問	-10.9792
文有三	-10.9792
諸人	-10.9792
第三相	-10.9794
隨緣成	-10.9796
迦羅	-10.9796
所以言	-10.9797
戲樂	-10.9798
幾種	-10.9798
阿字	-10.9799
耽	-10.9799
種生	-10.9801
正定聚	-10.9802
元年	-10.9802
應以	-10.9802
往向	-10.9804
詔	-10.9804
麗	-10.9807
卷第三	-10.9808
可立	-10.981
無自相	-10.981
意趣	-10.9811
大無量	-10.9811
色無色界	-10.9812
依處	-10.9812
皆令	-10.9821
即是不覺	-10.9822
念念生滅	-10.9822
常有	-10.9822
師云	-10.9823
如勝論師	-10.9823
雖異	-10.9824
結名	-10.9825
聲是有法	-10.9826
由於	-10.983
初牒	-10.9831
。」【(○	-10.9834
無始無明	-10.9834
隷	-10.9834
勝論師	-10.9836
作大	-10.9837
何成	-10.9837
深妙	-10.9839
復次有	-10.9839
若有人	-10.984
果德	-10.9842
何因緣故	-10.9843
減失	-10.9844
離礙	-10.9845
不繁	-10.9847
大菩提	-10.985
涅槃經云	-10.9851
諸菩薩等	-10.9851
作證	-10.9853
所願	-10.9853
標列	-10.9857
何故說	-10.9858
泯相	-10.986
迷惑	-10.9862
應機	-10.9864
現色	-10.9869
法有法	-10.9874
心常	-10.9878
古今	-10.9878
林中	-10.9878
分別六塵	-10.988
後門	-10.9885
亦不離	-10.9886
表實	-10.989
不能盡知	-10.989
淨相	-10.9894
此中有	-10.9894
地等	-10.9897
合喻	-10.9898
而其	-10.9899
脩羅	-10.9901
全同	-10.9902
有本覺	-10.9903
相生	-10.9913
諦觀	-10.9915
無倒	-10.9917
取彼	-10.9921
為三	-10.9927
不喜	-10.9929
假有	-10.9929
如瓶等	-10.9931
五門	-10.9932
染淨本覺	-10.9932
世間人	-10.9934
戒者	-10.9935
智體	-10.9936
因性	-10.9937
從緣	-10.9937
為味	-10.9945
攝一切法	-10.9945
但得	-10.9946
互為	-10.9947
必無	-10.9954
亦不成	-10.9959
論釋	-10.996
五大	-10.9961
力用	-10.9963
起大悲	-10.9966
諸佛法身	-10.9968
三心	-10.9968
壞苦	-10.9969
唯識論	-10.9969
皆在	-10.9973
識故	-10.9974
後生	-10.9974
空也	-10.9976
所作事	-10.9982
言因	-10.9983
前約	-10.9984
四名	-10.9987
此釋之	-10.9992
其聲	-10.9998
十句	-10.9998
即時	-10.9998
無人	-11.0002
染故	-11.0003
略釋	-11.0008
是故一切法	-11.0009
實句	-11.0011
為過	-11.0014
正思惟	-11.0014
苦集	-11.0015
為始	-11.0018
性自	-11.0019
善根增長	-11.0022
凡所	-11.0025
與佛	-11.0028
是智	-11.003
不定故	-11.0034
二十七	-11.0034
攝盡	-11.0041
提婆	-11.0041
徵列	-11.0043
谷	-11.0044
愧	-11.0045
竟在於前	-11.0045
漫	-11.0046
價	-11.0047
作是思惟	-11.0048
麥	-11.0048
劇	-11.0049
尺	-11.005
端嚴	-11.0052
徑	-11.0052
圍	-11.0052
善惡業	-11.0053
無所不徧	-11.0053
曇	-11.0054
體相二大	-11.0054
異執	-11.0055
誘	-11.0056
心不見心	-11.0056
富樂	-11.0056
證涅槃	-11.0056
送	-11.0057
濕性不壞	-11.0058
基	-11.0058
釋曰後合本論	-11.0058
於一心	-11.0059
裟	-11.0059
枳	-11.0059
傾	-11.006
大菩薩	-11.0061
教授	-11.0062
故下論云	-11.0063
八句	-11.0063
不應說	-11.0066
無得	-11.0068
二處	-11.0068
卷第四	-11.007
立比量	-11.0072
頓悟	-11.0073
舍利	-11.0073
生淨土	-11.0073
異心	-11.0073
言我	-11.0074
雖無量	-11.0076
返流	-11.0077
定無	-11.0079
合集	-11.008
形像	-11.008
信樂	-11.0082
應滅	-11.0082
如燈	-11.0084
卷第二	-11.0084
真妄和合	-11.0086
但遮	-11.0087
十八界	-11.0088
之所以	-11.0089
隨順法性	-11.009
惡行	-11.009
佛教	-11.0093
滅惑	-11.0095
所詮義	-11.0096
使令	-11.0098
於上	-11.0098
正教	-11.0099
所緣境界	-11.0099
略顯	-11.0099
謂由無明	-11.01
之境界	-11.0103
此正	-11.0109
異品有	-11.0109
名一行三昧	-11.011
契當	-11.0114
何等為四	-11.0115
依業識	-11.0125
為果	-11.0125
此通	-11.0126
於聲	-11.0133
具戒	-11.0137
轉成能見	-11.0138
持業釋也	-11.0138
若異	-11.0139
此示	-11.0139
自高	-11.0144
無用	-11.0144
自在天	-11.0145
永滅	-11.0145
名為如來藏	-11.0146
能立因	-11.0147
境起	-11.015
今疏	-11.0151
別辨	-11.0151
然有	-11.0152
卷上	-11.0152
如是一切	-11.0159
本非	-11.016
皆當	-11.0162
繫屬	-11.0163
倒離	-11.0163
所受	-11.0164
證法身	-11.0167
天中	-11.0168
四住	-11.0172
二品	-11.0173
假智	-11.0174
即攝	-11.0174
天耳	-11.0176
此喻	-11.0178
道果	-11.0179
已被	-11.0179
忘失	-11.018
百非	-11.0183
今欲	-11.0183
為同	-11.0186
有法自相相違	-11.0186
愚人	-11.0186
六麤中	-11.0188
隨從	-11.019
作法	-11.0193
一分轉	-11.0194
若與	-11.0194
若如	-11.02
對此	-11.0201
無名	-11.0201
等持	-11.0203
廣論	-11.0207
十歲	-11.0208
能令眾生	-11.0212
謨	-11.0214
而今	-11.0225
還歸	-11.0226
顧	-11.0227
結也	-11.0227
六門	-11.0227
便能	-11.0228
增上緣	-11.0229
用熏	-11.0231
受此	-11.0232
開發	-11.0234
違共	-11.0234
師說	-11.0239
生空	-11.0241
略辨	-11.0242
勝用	-11.0243
喻明	-11.0248
此執	-11.0249
無二無別	-11.025
為境	-11.0255
隨根	-11.0255
此經文	-11.0256
速得	-11.0258
三時	-11.0259
貫通	-11.026
淨業	-11.0261
如日	-11.0265
因行	-11.0267
熏成	-11.0268
不相應染	-11.027
無妨	-11.0274
顯義	-11.0277
說念	-11.0278
常念	-11.0279
▁二別	-11.028
即如來藏	-11.0283
准前	-11.0283
五中	-11.0284
業轉現	-11.0289
兩宗	-11.029
清淨法	-11.0291
還復	-11.0294
自立	-11.0296
俱時而有	-11.0296
其用	-11.0307
獨一	-11.0307
剛	-11.0319
四無量	-11.0319
滑	-11.0323
正答	-11.0323
無比	-11.0326
境者	-11.0328
不殺	-11.0329
苗	-11.0332
聾	-11.0332
祕	-11.0333
筏	-11.0333
生義	-11.0334
區	-11.0334
下釋成二初	-11.0335
脩多羅說	-11.0336
嘆	-11.0336
㲲	-11.0337
酪	-11.0338
猒	-11.0339
猴	-11.0339
槃	-11.0339
念住	-11.034
出三界	-11.034
秘	-11.034
納	-11.0343
射	-11.0343
因熏習鏡	-11.0344
偶	-11.0345
朗	-11.0345
故此釋云	-11.0345
嗔	-11.0346
簡擇	-11.0347
召	-11.0348
因明入正理論	-11.0348
冠	-11.0349
他方	-11.0351
方便善巧	-11.0352
梵世	-11.0353
從他	-11.0353
此二因	-11.0354
異說	-11.0354
默然	-11.0355
通緣	-11.0355
三祇	-11.0355
還源	-11.0355
上根	-11.0357
其後	-11.0359
所言法者	-11.0359
既其	-11.036
以如來藏	-11.0361
非一相	-11.0363
住位	-11.0363
爾時世尊	-11.0368
謂一	-11.0368
無明起	-11.0368
墮惡道	-11.0368
戒定慧	-11.0371
瑟	-11.0372
險	-11.0372
善利	-11.0373
有云	-11.0376
除斷	-11.0378
因體	-11.0379
權教	-11.0379
異熟識	-11.0381
擇滅	-11.0381
妄動	-11.0382
一切凡夫	-11.0382
種種莊嚴	-11.0383
求那	-11.0387
太虗	-11.0389
次辨	-11.039
方為	-11.0393
敵智	-11.0396
及四	-11.0396
上之	-11.0397
為名	-11.0398
正修	-11.0399
通依	-11.0401
地獄中	-11.0402
下第三	-11.0402
無所依止	-11.0403
此中下	-11.0404
欲得	-11.0407
有愛	-11.0411
生老病死	-11.0411
那先問王言	-11.0412
一切言說	-11.0414
變作	-11.0418
故不得	-11.0422
又經云	-11.0422
法上	-11.0428
同也	-11.0433
總中	-11.0436
是經	-11.0439
一切諸法皆	-11.044
上所說	-11.0442
無明熏真如	-11.0444
所離	-11.0446
能立不成	-11.0448
云何當	-11.0454
何故此中	-11.0458
以理	-11.0459
佛出世	-11.046
諸天子	-11.0461
火界	-11.0465
為明何義	-11.0465
本始	-11.0469
至極	-11.047
有三門	-11.0471
厭惡	-11.0471
他智	-11.0474
一字	-11.0476
本願	-11.0476
已滅	-11.0478
如一	-11.0478
無常故	-11.0479
能藏	-11.048
立無常	-11.048
品云	-11.0481
不去	-11.0483
是思	-11.0483
為事	-11.0488
我所說	-11.0491
生人中	-11.0493
識心	-11.0493
契真	-11.0497
東西	-11.0498
平等故	-11.05
初立	-11.0502
於色	-11.0502
復次若	-11.0503
退轉	-11.0503
抑	-11.0506
應得	-11.0508
體義	-11.0509
不用	-11.0509
不遮	-11.0512
熱觸	-11.0514
無明滅	-11.0517
者謂即	-11.0518
菩薩藏	-11.0519
歸一心	-11.0522
令修	-11.0525
熏起	-11.0527
真如中	-11.0527
德也	-11.0528
此宗	-11.0531
緣中	-11.0532
就此	-11.0537
緣滅	-11.0539
雖知	-11.0542
重明	-11.0546
於一切處	-11.0547
種種諸	-11.0553
心想	-11.0555
識變	-11.0556
本覺體	-11.0557
別也	-11.056
是語	-11.0562
四障	-11.0568
若行	-11.0571
怯	-11.0571
有俱不成	-11.0572
又是	-11.0575
以何為	-11.0578
喻顯	-11.0578
無漏法	-11.0578
聽法	-11.0582
無增減	-11.0586
行位	-11.0586
論所說	-11.0587
恩愛	-11.0588
分別心	-11.059
意意識	-11.0591
經所說	-11.0595
以瓶	-11.0597
聽聞	-11.0598
已後	-11.0599
從於	-11.0601
陰所攝	-11.0602
決疑門	-11.0602
言教	-11.0607
丈夫	-11.0608
若對	-11.0608
若比丘	-11.0609
甞	-11.0609
所依止	-11.061
則與	-11.0611
屬著	-11.0612
不共許	-11.0613
蓮	-11.0618
破云	-11.062
醫	-11.0623
若汝意謂	-11.0625
佛告	-11.0625
諸眾生故	-11.0625
問若爾	-11.0625
盈	-11.0626
憙	-11.0626
䇿	-11.0627
不思	-11.0627
二立	-11.0627
奴	-11.0629
瑜伽等	-11.0629
願求	-11.063
鑛	-11.0631
竝	-11.0631
依如來藏故有生滅心	-11.0631
錢	-11.0632
逸	-11.0632
鍊	-11.0633
鬪戰	-11.0634
尅	-11.0636
所修離相	-11.0637
陽	-11.0638
賤	-11.0639
宗家法	-11.0639
雪山	-11.0639
即屬	-11.064
二種本法	-11.0642
怠	-11.0642
縷	-11.0642
早	-11.0643
不苦不樂受	-11.0643
寬狹	-11.0646
無有斷絕	-11.0647
鉤	-11.0648
亦乃	-11.0648
不思議變	-11.0649
是故汝	-11.0649
翻譯	-11.0649
譬如瓶等	-11.065
財寶	-11.0654
釋之	-11.0654
今依	-11.0661
與心相應	-11.0663
答意	-11.0665
前來	-11.0666
顯現法身	-11.0669
如諸部	-11.0672
配屬	-11.0677
有礙	-11.0679
施主	-11.0684
為證	-11.0692
悔過	-11.0692
常在	-11.0693
非為	-11.0694
融通	-11.0696
合二	-11.0696
無礙智	-11.0703
自比量	-11.0703
能以	-11.0705
一一皆	-11.0706
乃至十地	-11.0706
此相	-11.0715
山王	-11.0716
所著	-11.0717
執受	-11.0717
摩訶衍者	-11.072
日輪	-11.0721
前重	-11.0724
正因相應	-11.0725
彼等	-11.073
阿羅漢果	-11.0732
雖在	-11.0738
為對治	-11.0738
不堪	-11.0739
標指	-11.0741
可聞	-11.0742
情有	-11.0743
同相者	-11.0748
覺分齊	-11.0748
無斷絕	-11.075
佛體	-11.0752
合故	-11.0759
四句者	-11.0761
有物	-11.0762
四中	-11.0762
一心二門	-11.0764
無貪	-11.0767
取此	-11.0769
但緣	-11.0769
二徵列	-11.077
不得名	-11.077
斷結	-11.0771
不安	-11.0771
正命	-11.0774
翻對	-11.0775
畢竟空	-11.0778
入理	-11.0782
自語	-11.0783
不自在故	-11.0784
離眼識	-11.0787
答前	-11.0787
自不成	-11.0788
後文	-11.0788
後報	-11.0793
歸向	-11.0793
專心	-11.0797
不敬	-11.08
作是言	-11.08
眾人	-11.08
不可分別	-11.0802
此即是	-11.0803
所辨	-11.0809
諸過	-11.081
諸善根	-11.081
約生滅門	-11.0811
云何能	-11.0812
諸惑	-11.0816
差別相故	-11.0819
無邊功德	-11.082
是行	-11.0821
不闕	-11.0828
持淨戒	-11.0829
堅等	-11.0831
後解	-11.0831
少欲	-11.0832
故令	-11.0835
初解	-11.0835
以修	-11.0837
然亦	-11.0837
之詞	-11.0839
極樂	-11.0843
所作無常	-11.0843
能見能現	-11.0843
遂成	-11.0843
後三句	-11.0845
福行	-11.0846
後位	-11.0847
翻染	-11.0847
常得	-11.085
當知此	-11.0859
一行三昧	-11.086
無明滅故	-11.0868
清淨戒	-11.0868
依體	-11.0871
求之	-11.0871
令成	-11.0875
信故	-11.0876
名為意識	-11.0876
熏者	-11.0878
相關	-11.0885
雖然	-11.0887
宗同品	-11.0888
二云何下	-11.0889
之極	-11.0892
淨名	-11.0892
似現量	-11.0892
口中	-11.0895
十義	-11.0895
間斷	-11.09
諸佛法	-11.0903
釋曰後別	-11.0905
即理	-11.0906
耳根	-11.091
種種性	-11.0912
共不定	-11.0914
八義	-11.0914
隨於	-11.0918
何假	-11.0919
即是一心	-11.092
筋	-11.0921
昔在人中	-11.0921
明白	-11.0923
枝葉	-11.0923
有質礙	-11.0924
因言遣言	-11.0929
如說聲常	-11.0929
天地	-11.093
憎惡	-11.0931
g	-11.0931
庶	-11.0931
所現之色	-11.0932
夷	-11.0933
報化二身	-11.0933
採	-11.0933
理體	-11.0934
黑暗	-11.0934
焦	-11.0934
恥	-11.0934
踊躍	-11.0935
溺	-11.0935
動則有苦	-11.0935
髓	-11.0935
眾寶所成	-11.0936
如來之藏	-11.0936
撥	-11.0936
修遠離法	-11.0937
離念相者	-11.0937
堅牢	-11.0938
凝然	-11.0938
驅	-11.0939
摂	-11.0939
才	-11.0939
阿梨耶	-11.0939
収	-11.094
此即初也	-11.0941
如是功德	-11.0941
色香味觸	-11.0942
皆無自立	-11.0942
無德	-11.0943
披	-11.0943
省	-11.0944
冤家	-11.0944
惡知識	-11.0945
對敵	-11.0945
賜	-11.0946
發如是心	-11.0946
隨眾生	-11.0946
能熏所熏	-11.0946
溫	-11.0946
以為體故	-11.0946
殃	-11.0949
則可	-11.0949
佛法身	-11.095
掃	-11.0952
是業熟	-11.0954
不變隨緣	-11.0956
獨存	-11.0956
遮表	-11.0956
正體智	-11.0957
予	-11.0958
自教相違	-11.0959
往昔	-11.096
他世	-11.0961
輕安	-11.0962
若至	-11.0965
又亦	-11.0966
三衣	-11.0967
輕重	-11.0967
破和合識相	-11.0969
前世	-11.097
所縛	-11.0976
果滿	-11.0976
曳	-11.0976
由是義故	-11.0977
法集經	-11.098
必為	-11.0986
名現量	-11.0987
當何	-11.0988
理趣	-11.0989
三節	-11.0991
中又二	-11.0994
歸於	-11.0994
更互	-11.0995
論議	-11.0997
設使	-11.0999
信之	-11.1001
聲瓶	-11.1008
寶池	-11.1008
佛功德	-11.1012
器世間	-11.1014
娑婆	-11.1016
序分	-11.1021
四相違	-11.1024
初中後	-11.1028
實是	-11.1028
力能	-11.1029
隨所應	-11.103
其地	-11.1031
有法差別相違	-11.1033
依真如門	-11.1034
諸部	-11.1034
無中間有	-11.1035
義成	-11.1037
影現	-11.1038
以此因緣	-11.104
不怖	-11.1041
今舉	-11.1045
色蘊	-11.105
者何義	-11.1053
臥具等	-11.1055
清白	-11.1061
我有	-11.1062
則離	-11.1065
外無	-11.1068
二段	-11.1071
得脫	-11.1073
諸有智	-11.1074
於十方	-11.1081
異前	-11.1081
共有	-11.1082
不犯	-11.1086
智起	-11.1089
無道理	-11.1091
念故	-11.1091
而不能	-11.1099
一切佛	-11.1099
為令眾生	-11.1099
聞者	-11.1103
我相	-11.1104
已前	-11.111
可成	-11.111
四塵	-11.1112
正當	-11.1112
如似	-11.1113
進修	-11.1116
不如實知	-11.1117
不應有	-11.1117
此二法	-11.1118
亦不可	-11.112
或立	-11.1131
於諸法	-11.1132
淨名云	-11.1132
業也	-11.1132
前三染	-11.1134
舉此	-11.1135
說有無明	-11.1135
總言	-11.114
釋師	-11.1141
真如生滅	-11.1142
唱本	-11.1145
此第二	-11.1145
得彼	-11.1146
名相似覺	-11.1146
智性	-11.1148
方便心	-11.1149
諸世間	-11.115
本源	-11.1154
耀	-11.1156
亦不能	-11.1157
若具	-11.1159
不斷絕	-11.116
方所	-11.1161
總攝諸	-11.1161
惡作	-11.1161
名法	-11.1165
前雖	-11.1166
水等	-11.1171
離彼	-11.1173
由因	-11.1174
生歡喜	-11.1178
是其常	-11.118
為惡	-11.1182
定有性	-11.1183
不消	-11.1184
融攝	-11.1184
更無別	-11.1185
言詮	-11.1185
如何說	-11.1189
不證	-11.1193
乘義	-11.1196
如波	-11.1196
王言我	-11.1197
佛之	-11.1197
死時	-11.1198
成此	-11.1198
真如自體	-11.1198
功德故	-11.1202
言總	-11.1205
善因果	-11.1208
萬劫	-11.1214
陀那	-11.1219
喻上	-11.122
莫不	-11.1221
離見	-11.1225
當自	-11.1225
無邊故	-11.1226
𡄣	-11.1227
名苦	-11.1236
杵	-11.1236
迅	-11.1236
得解	-11.124
龜	-11.1241
所疑	-11.1241
可樂	-11.1241
生喜樂	-11.1241
藏性	-11.1241
道人	-11.1242
我以	-11.1242
初地以上	-11.1243
遍照法界義	-11.1243
無物	-11.1243
毘婆舍那	-11.1244
地水火風	-11.1244
細中之細	-11.1245
成自然業	-11.1245
故亦名	-11.1246
動亂	-11.1246
片	-11.1246
頸	-11.1247
所謂心性不生不滅	-11.1247
包含	-11.1248
差別義	-11.1249
若生若滅	-11.1249
異門	-11.1249
敗壞	-11.1249
依覺故迷	-11.125
綿	-11.125
􂵋	-11.125
警	-11.125
稠林	-11.125
紹	-11.1251
吞	-11.1251
今此偈中為明何義	-11.1251
方隅	-11.1252
懈慢	-11.1252
輒	-11.1253
;	-11.1254
移轉	-11.1254
勉	-11.1255
一切法皆	-11.1255
泥團	-11.1256
希望	-11.1256
若念	-11.1256
卷第十	-11.1257
皆是無明	-11.1257
開敷	-11.1258
流布	-11.1259
愛念	-11.1259
教義	-11.126
妙行	-11.1261
生滅也	-11.1262
墮二乘地	-11.1263
風吹	-11.1264
踈	-11.1268
凡位	-11.127
本有法身	-11.127
寶花	-11.1271
三十二種	-11.1273
無有邊際	-11.1273
真偽	-11.1276
答若	-11.1277
消滅	-11.1278
足目	-11.128
餘一切	-11.1283
今此門中	-11.1284
四天下	-11.1285
即本覺	-11.1285
句處	-11.1286
波羅	-11.1287
白衣	-11.129
結頌	-11.1292
瓶衣等	-11.1292
有法者	-11.1293
寶船	-11.1295
言極成	-11.1297
俱舍	-11.13
徧滿	-11.13
自體相用	-11.1303
此唯	-11.1304
所染	-11.1306
前位	-11.1308
緣慮	-11.1308
三十二相	-11.1309
數息	-11.131
熱鐵	-11.1313
無有一法	-11.1315
凡夫人	-11.1318
決擇分	-11.1319
後當	-11.1319
無他	-11.132
說我	-11.132
然上	-11.1325
求解脫	-11.1325
瓶上	-11.1326
無退	-11.1331
不覺而起	-11.1334
下正明	-11.1334
識浪	-11.1335
名似因	-11.1335
唯局	-11.1337
救世	-11.1338
遇佛	-11.1338
六波羅蜜	-11.1339
依功力	-11.1339
實語	-11.134
深法	-11.134
若爾何故	-11.134
一期	-11.1345
無我想	-11.1349
名為真如	-11.1349
上首	-11.1351
攝護	-11.1355
若修	-11.1359
▁二答	-11.1361
略示	-11.1364
智惠	-11.1372
以本覺	-11.1372
依之	-11.1374
如虗空等	-11.1376
是假名	-11.1378
治斷	-11.138
等種種	-11.1384
上言	-11.1385
自下第三	-11.1387
所化眾生	-11.1388
他身	-11.1389
。《	-11.139
於真	-11.1394
如世	-11.1397
今為	-11.1397
生緣	-11.1399
唯為	-11.14
言辭	-11.1401
諸餘	-11.1401
彼子	-11.1401
不減	-11.1402
非無相	-11.1402
苦相	-11.1403
受等	-11.1417
何功德	-11.1419
現報	-11.142
若滅	-11.1421
值佛	-11.1421
境智	-11.1425
皆共	-11.1429
大有性	-11.1433
如見	-11.1433
上無	-11.1433
是體	-11.1434
始得	-11.1435
前所	-11.1436
何言	-11.1441
止也	-11.1441
明論	-11.1443
名同品	-11.1443
王子	-11.1443
虛空相	-11.1445
三十四	-11.1446
隨緣不變	-11.1447
若住	-11.1448
三類	-11.1452
報應	-11.1452
真門	-11.1455
是第二	-11.1456
證果	-11.1458
塵境	-11.146
之念	-11.1463
菩提行	-11.1465
但欲	-11.147
現世	-11.1474
一切無量	-11.1475
勤勇無間所發性故	-11.1476
不能入	-11.1482
我已	-11.1483
後句	-11.1483
文二	-11.1484
實理	-11.1484
均	-11.1486
苦想	-11.1487
微劣	-11.1487
俱起	-11.1489
熏眾生	-11.149
菩提分	-11.1491
則見	-11.1491
敵對	-11.1498
城門	-11.1501
述曰此	-11.1502
如汝	-11.1504
智生	-11.1506
無合	-11.1509
證菩提	-11.1511
諸見	-11.1511
依不覺故	-11.1514
不貪	-11.1516
邪念	-11.1517
知法	-11.1518
欲行人	-11.1518
顯照	-11.1518
即與	-11.152
外別有	-11.1522
此標	-11.1523
信成就發心者	-11.1523
熏習力故	-11.1524
同品異品	-11.1526
當作	-11.1527
兼取	-11.1531
總是	-11.1531
自性空	-11.1534
修梵行	-11.1535
或唯	-11.1536
一段	-11.1537
當云何	-11.1538
云何言	-11.1539
能壞	-11.1541
滅無餘	-11.1542
能捨	-11.1543
亦知	-11.1543
我語	-11.1543
場	-11.1546
一切相	-11.1547
唯屬	-11.1547
二初結前生後	-11.1548
則墮	-11.1548
自生	-11.1549
如下文	-11.1551
有六種	-11.1553
直顯	-11.1555
中受生	-11.1556
運載	-11.1557
血肉	-11.1557
塹	-11.1558
欺誑	-11.156
禮佛	-11.156
炬	-11.1561
常樂我淨	-11.1562
從初正信	-11.1562
前七	-11.1563
聲聞獨覺	-11.1563
鎧	-11.1564
諂曲	-11.1565
維摩詰	-11.1565
園林	-11.1566
云何取其相	-11.1567
依一心法有二種門	-11.1567
憒閙	-11.1567
竹	-11.1568
畧	-11.1568
根本業不相應染	-11.1568
七寶	-11.1569
l	-11.1569
以念	-11.1569
灌	-11.1569
名因	-11.1569
軌法師	-11.1569
吼	-11.1569
分門	-11.157
聞修多羅說	-11.157
周匝	-11.1571
諸苦惱	-11.1571
復次真如自體相者	-11.1571
淪	-11.1571
鳴	-11.1572
裏	-11.1572
成相違	-11.1572
智性不壞	-11.1572
治之	-11.1573
旃陀羅	-11.1573
迭	-11.1574
能別不極成	-11.1574
供給	-11.1574
無厭足	-11.1574
例此	-11.1574
活命	-11.1576
冬	-11.1576
針	-11.1577
勒	-11.1577
更復	-11.1578
居士	-11.1578
佛法中	-11.1578
能發起	-11.1579
在其中	-11.1579
赴	-11.158
石女	-11.1581
無逼樂無有受樂	-11.1581
浴	-11.1582
彼坐禪人如是	-11.1582
京	-11.1582
導師	-11.1583
能知名義	-11.1583
一月	-11.1583
云云	-11.1583
作如是念	-11.1583
常無常品	-11.1584
唯見	-11.1584
起相	-11.1584
分量	-11.1584
楚	-11.1587
平等一味	-11.1589
沾彌利望群	-11.159
所言義者	-11.159
可燒	-11.1591
龍樹菩薩	-11.1593
十千劫	-11.1595
遍是宗法性	-11.1596
長夜	-11.1596
惱亂	-11.1598
今於	-11.1599
以為宗	-11.1599
先標	-11.1603
中無有	-11.1604
新熏	-11.1605
依如來藏故	-11.1607
見愛煩惱	-11.1611
示法	-11.1613
後則	-11.1613
是亦不然	-11.1614
色陰	-11.1617
雖非	-11.1618
不能成	-11.162
道分	-11.1622
三年	-11.1623
非人	-11.1623
妙吉祥言	-11.1629
難解	-11.163
疏記	-11.1636
宗有法	-11.1637
隨義	-11.1637
指前	-11.1638
知有我	-11.1639
而用	-11.1639
妙寶	-11.1643
天像	-11.1643
道品	-11.1646
且依	-11.1647
漸斷	-11.1647
正取	-11.1647
名似比量	-11.1648
意之識	-11.1652
堪受	-11.1653
有不定	-11.1653
五頂	-11.1654
▁二釋相	-11.1662
盡無餘	-11.1662
衣食	-11.1664
一問	-11.1668
無有差別	-11.1668
有終	-11.1669
結使	-11.1673
前量	-11.1675
消除	-11.1676
後後	-11.1677
從其	-11.1681
莊嚴具	-11.1687
潤生	-11.1694
二執相	-11.1694
一切法無	-11.1699
作佛	-11.1703
能度	-11.1703
威神	-11.1704
染淨始覺	-11.1706
境界也	-11.1708
不能盡	-11.171
應念	-11.1711
教說	-11.1711
頓斷	-11.1712
之因緣	-11.1712
王即	-11.1715
一味平等	-11.1716
別處	-11.1717
於人	-11.1719
器世界	-11.172
施與	-11.1721
福蘊	-11.1727
傍生	-11.1728
資生	-11.1729
獨覺	-11.173
與無明	-11.1735
巳來	-11.1735
不破	-11.174
不簡	-11.174
諸境界	-11.1742
他心	-11.1746
對勝論	-11.175
麤分	-11.1751
六不定	-11.1753
此下第二	-11.1753
寧有	-11.1753
惑染	-11.1754
可有	-11.1757
斷障	-11.1758
方顯	-11.1761
不敢	-11.1761
生滅法	-11.1766
若隨	-11.1767
空理	-11.1768
先世	-11.1773
宜應	-11.1773
三性	-11.1777
無益	-11.1778
順於	-11.178
成就故	-11.178
令住	-11.1781
應當知	-11.1781
誰為	-11.1782
瓶等無常	-11.1782
依報	-11.1784
聲上所作	-11.1794
無其	-11.1796
教理	-11.1798
無由	-11.1799
解脫者	-11.1808
先陳	-11.1808
未解	-11.1808
諸界	-11.1811
同異喻	-11.1812
諸受	-11.1813
成佛時	-11.1818
求法	-11.1819
亦同此	-11.182
前六	-11.1825
能乘	-11.1827
遊行	-11.1828
如是知	-11.1829
八因	-11.1829
依本覺	-11.1834
故名現量	-11.1834
自受用	-11.1835
合前	-11.1835
自說	-11.1836
修止觀	-11.1837
於義	-11.184
華嚴經云	-11.1841
非實等	-11.1841
所起之	-11.1842
枝末無明	-11.1845
淨鏡	-11.1853
實我	-11.1853
科分	-11.1854
一塵	-11.1856
各各不同	-11.1856
學道	-11.1859
攝末	-11.186
極成色	-11.1862
鈴	-11.1863
佛意	-11.1863
無義	-11.1864
我等今	-11.1864
勝義諦	-11.1864
於色等	-11.1868
於世	-11.1869
更無餘	-11.1876
兼正	-11.1877
鄣	-11.1878
名為覺	-11.1881
如前所	-11.1882
一邊	-11.1886
忍門	-11.189
日出	-11.1892
周圍	-11.1892
此中意	-11.1896
僻	-11.1897
如經說	-11.1897
一切諸佛本所乘故	-11.1898
須彌山	-11.1898
對無空論	-11.1898
筌	-11.1899
欺	-11.19
墨	-11.19
自得	-11.19
二自此下	-11.19
大智慧光明義	-11.1902
本始二覺	-11.1902
不易	-11.1902
金剛心	-11.1903
苦報	-11.1903
二十三諦	-11.1904
爰	-11.1904
亦無可立	-11.1904
教誨	-11.1905
料簡	-11.1905
黨	-11.1906
若復有人	-11.1907
且初	-11.1907
太子	-11.1907
得見心性	-11.1907
貪恚癡	-11.1907
賣	-11.1907
剎那不住	-11.1908
軸	-11.1908
克	-11.1908
唯佛能知	-11.1908
房	-11.1908
增上慢	-11.1909
福業	-11.1909
蘊處界	-11.1909
岐	-11.1909
不清淨	-11.1909
若如是義者	-11.1909
侶	-11.191
戀	-11.191
假使有人	-11.1912
倚	-11.1913
心無初相	-11.1913
主伴	-11.1914
端坐	-11.1914
截	-11.1915
一切智智	-11.1915
折伏	-11.1916
若干	-11.1918
法及有法	-11.1918
膝	-11.1918
偈頌	-11.1918
結屬	-11.1919
妄顯真	-11.1919
等苦	-11.1921
救拔	-11.1922
入胎	-11.1931
方盡	-11.1931
遠近	-11.1933
問前	-11.1933
佛種	-11.1934
名涅槃	-11.1938
眼等根	-11.1942
見此	-11.1943
闕初相	-11.1944
須陀洹道	-11.1945
惑障	-11.1948
疑故	-11.1949
正量	-11.195
違害	-11.1951
依本	-11.1952
得利	-11.1953
名為應身	-11.1955
方便道	-11.1955
▁三結	-11.1957
善根力	-11.1959
通釋	-11.1961
自害	-11.1963
科文	-11.1963
共生	-11.1963
違於	-11.1965
有一實因	-11.1968
以是故	-11.1973
勤苦	-11.1974
猶豫不成	-11.1974
知諸法	-11.1978
亦不可得	-11.1983
王富	-11.1985
生了	-11.1985
不空義	-11.199
呬	-11.1991
義如前說	-11.1991
二事	-11.1995
遠離一切	-11.1995
賢善	-11.1997
云何知	-11.1997
業幻	-11.2003
如來身	-11.2004
有信	-11.2005
所解	-11.2007
四大種	-11.2011
四種住相	-11.2013
所謂顯示	-11.2013
已盡	-11.2017
不相應義	-11.2017
有垢	-11.2019
攝彼	-11.202
喻於	-11.2023
有八種	-11.2031
坐時	-11.2043
無常者	-11.205
未分	-11.2052
山林	-11.2052
五種意	-11.2053
觀待	-11.2054
定力	-11.2054
菩提涅槃	-11.2062
無願	-11.2066
大乘義	-11.2067
例知	-11.2068
入解	-11.2069
無相可得	-11.2071
時方	-11.2076
舉本	-11.2083
真常	-11.2084
人眾	-11.2084
似比量	-11.2085
對於	-11.2089
善能	-11.2093
後方	-11.2095
為所依故	-11.2107
隨有	-11.2108
熏修	-11.2108
如佛說	-11.211
無有邊	-11.2112
諸善法	-11.2114
又人	-11.2115
經意	-11.2117
大歡喜	-11.2122
為地獄	-11.2125
大果	-11.2125
出世間法	-11.2126
云何隨順	-11.2129
令觀	-11.2131
謂一切法	-11.2133
一則	-11.2138
列釋	-11.2143
或因	-11.2143
眼耳	-11.2145
神解	-11.2145
住異	-11.2146
困	-11.2146
想念	-11.2147
四百	-11.2147
如是乃至	-11.2149
違自宗	-11.2151
猶是	-11.216
▁初問	-11.2161
徵問	-11.2162
經本	-11.2162
最大	-11.2163
論者言	-11.2164
生厭離	-11.2165
生滅因緣相	-11.2165
得安隱	-11.2167
有三一	-11.2168
見也	-11.2168
分之一	-11.2168
更作	-11.2168
開釋	-11.2171
示其	-11.2176
故下云	-11.2176
又為	-11.2178
業道	-11.2181
樂故	-11.2183
四眾	-11.2184
二十二	-11.2184
遍轉	-11.2184
發時	-11.2187
分為三	-11.2189
對量	-11.2191
攝心	-11.2191
智境	-11.2198
愛語	-11.2199
會釋	-11.2201
唯明	-11.2204
而見	-11.2207
又因	-11.221
豈無	-11.2212
燃	-11.2213
識體	-11.222
教也	-11.2221
施作	-11.2226
頌文	-11.2226
違世間	-11.2228
本數	-11.2229
名婆羅門	-11.223
德所依故	-11.2232
造惡	-11.2232
福慧	-11.2232
邑	-11.2234
聲上有	-11.2238
顯實	-11.2239
業識等	-11.224
盡不盡	-11.224
真故極成色	-11.2241
喧	-11.2242
倒合	-11.2243
俱行俱轉	-11.2243
如是我聞	-11.2243
翻為	-11.2243
從本以來	-11.2245
分別智相應染	-11.2246
所住依果	-11.2246
雷	-11.2246
先所	-11.2246
薩埵	-11.2246
耆	-11.2247
脩多羅中	-11.2247
無別異故	-11.2247
湛	-11.2248
心王心所	-11.2249
逾	-11.2249
作正因緣	-11.2249
金剛喻定	-11.2249
唯證相應	-11.225
依無明起差別	-11.225
府	-11.2251
柔	-11.2251
菩薩盡地	-11.2251
酬	-11.2252
峯	-11.2252
寒熱	-11.2252
言真如者	-11.2253
蜂	-11.2254
罰	-11.2254
忿	-11.2254
正業	-11.2255
所以然者	-11.2255
適悅	-11.2256
二作釋文	-11.2256
為佛	-11.2256
長養	-11.2257
非汝	-11.2257
巨	-11.2257
杜	-11.2257
吉	-11.2257
虛誑	-11.2259
有體無體	-11.2259
不依氣息	-11.2259
縣	-11.2259
無有能	-11.2259
觀音	-11.226
卿	-11.226
領納	-11.226
認	-11.2261
能別所別	-11.2262
本業經云	-11.2264
書寫	-11.2265
耕	-11.2265
深固	-11.2266
細滑	-11.2268
和會	-11.2269
聲宗	-11.2272
疾病	-11.2272
善巧方便	-11.2272
理法	-11.2273
親愛	-11.2275
中央	-11.2275
花鬘	-11.2276
顯法身	-11.2276
即斯義	-11.2278
瓶盆等	-11.2278
世出世間	-11.2279
相應心滅	-11.2282
就初中有二	-11.2283
二者相大	-11.2285
資具	-11.2289
塵勞	-11.2291
遍於	-11.2293
之末	-11.2295
生愛	-11.2295
所分別	-11.2295
微少	-11.2296
失也	-11.2299
故圓覺云	-11.2301
本覺性	-11.2305
猶存	-11.2306
心淨	-11.2308
不二大乘	-11.231
轉識現	-11.2312
分流	-11.2312
三段	-11.2312
二初結指分門	-11.2313
直明	-11.2314
麤重	-11.2317
不捨離	-11.2319
引經證	-11.232
地水	-11.2321
諸事	-11.2326
弭	-11.2328
文言	-11.2332
牒上	-11.2334
二初牒指	-11.2335
無苦	-11.2335
四聖諦	-11.2336
自在無礙	-11.2337
住正定	-11.234
熏動	-11.234
重說	-11.234
摩尼寶	-11.2341
質礙性	-11.2343
淨行	-11.2344
中疏	-11.2346
是常住	-11.2347
即分為	-11.2349
上釋	-11.2351
亦有二種	-11.2352
信地	-11.2354
陳那菩薩	-11.2358
斯乃	-11.2358
是能立	-11.2361
遍法界	-11.2362
始覺般若	-11.2364
更說	-11.2368
但應	-11.2372
於瓶等	-11.2379
即始覺	-11.238
徧照	-11.2381
亦得名	-11.2388
而後	-11.2389
餘物	-11.2392
所立宗義	-11.2393
最多	-11.2393
深入	-11.2395
非勤發	-11.2395
無明動	-11.2397
或從	-11.2405
無法可	-11.2405
能止	-11.2407
有二釋	-11.2407
有邊	-11.2408
總指	-11.2408
麤顯	-11.2408
迷理	-11.2409
起念相續	-11.2409
所獲	-11.241
迴心	-11.2413
非究竟覺	-11.2416
善事	-11.2416
初總明	-11.2419
所敬	-11.2421
不顛倒	-11.2423
我從	-11.2424
謂諸菩薩	-11.2427
即無明	-11.2428
彼云	-11.2434
法相宗	-11.2436
齊等	-11.2439
據實	-11.2441
行者見	-11.2441
有五百	-11.2441
云何修	-11.2448
忍受	-11.245
盡滅	-11.2451
名數	-11.2455
是名為五	-11.2456
外無別	-11.2457
隨類	-11.2459
大事	-11.2463
諸漏	-11.2463
違逆	-11.2466
約位	-11.2467
根境	-11.2467
所信	-11.2475
反此	-11.2475
見邊	-11.2476
眾生真心	-11.2477
汝難	-11.2477
不同彼	-11.2478
相順	-11.2483
身識	-11.2488
非斷	-11.249
瓶體	-11.2492
四鏡	-11.2496
對顯	-11.2502
前門	-11.2502
成淨	-11.2502
成菩提	-11.2503
佛在	-11.2505
何故不說	-11.2506
答彼	-11.2508
能自	-11.2511
離實有	-11.2511
義當	-11.2511
并及	-11.2512
所住處	-11.2514
種現	-11.2516
凡有	-11.2521
若言有	-11.2523
釋有二初	-11.2525
別離	-11.2526
易解	-11.253
宗趣	-11.2532
常法	-11.2533
同喻如	-11.2536
▁初結指	-11.2536
眼色	-11.2541
何緣	-11.2541
有多種	-11.2542
不疑	-11.2545
名生	-11.2547
問意云	-11.2555
隨緣義	-11.2559
合是	-11.2564
質礙	-11.2567
無減	-11.2571
十波羅蜜	-11.2574
文略	-11.2577
莖	-11.2578
不覺知	-11.258
耐	-11.2582
出所以	-11.2582
故楞伽云	-11.2585
已斷	-11.2586
入證	-11.2586
標徵	-11.2586
下引證	-11.2587
合上	-11.2588
淡	-11.259
三十七	-11.2594
發趣道相	-11.2594
一切障	-11.2596
一切無量無邊	-11.2597
故說無	-11.2597
得成佛	-11.2597
陀羅驃	-11.2598
祠	-11.2599
穴	-11.2599
男子	-11.2599
終至	-11.2599
振	-11.2599
彼識	-11.26
舉數總標	-11.2601
肢	-11.2601
漠	-11.2602
高一由旬	-11.2602
堂殿	-11.2603
諸男女天	-11.2603
等言	-11.2603
棃耶識	-11.2603
羸	-11.2603
叵	-11.2604
頗梨	-11.2605
虎	-11.2605
受道緣	-11.2605
炷	-11.2606
補特伽羅	-11.2606
念無住相	-11.2607
提婆達多	-11.2607
非真實	-11.2608
交徹	-11.2608
柔和	-11.2608
非覺照義	-11.2608
空無相無願	-11.2609
各差別故	-11.2609
舍宅	-11.2609
幹	-11.261
四種無為	-11.261
經中佛說	-11.261
無生無滅	-11.261
同異二品	-11.2611
忠	-11.2612
瑩	-11.2612
匪	-11.2612
轉成	-11.2613
要依	-11.2613
調柔	-11.2613
伴侶	-11.2613
纂	-11.2614
阿闍梨	-11.2614
經無量劫	-11.2615
隨業	-11.2615
無有異	-11.2615
黃金	-11.2616
攝化	-11.2616
輪王	-11.2617
皆悉各各	-11.2617
過去未來現在	-11.2617
佛像	-11.2618
無法可現	-11.262
是道	-11.262
青黃	-11.262
四正勤	-11.262
一切苦	-11.262
起心	-11.2621
毘鉢舍那	-11.2621
立喻	-11.2624
畢竟無念	-11.2627
合也	-11.2628
境界為緣	-11.263
生大	-11.263
勤修習	-11.2631
障難	-11.2631
尋思	-11.2632
敬禮	-11.2633
對佛弟子	-11.2633
勇猛精進	-11.2634
佗	-11.2636
不動地	-11.2637
扇	-11.2637
苟能	-11.2638
云何為八	-11.2639
長老	-11.2639
一切善法	-11.2643
問既	-11.2647
滅盡定	-11.2648
比度	-11.2649
不斷故	-11.2651
一者體大	-11.2652
▁初總標	-11.2652
兩輪	-11.2652
長遠	-11.2654
差別不同	-11.2654
依位	-11.2654
不具足	-11.2656
勝能	-11.2657
真如無相	-11.2661
慧眼	-11.2662
漸增	-11.2665
之曰	-11.2666
無去來	-11.2666
二由旬	-11.267
為利	-11.2674
和合句	-11.268
無明下	-11.268
暫時	-11.2681
死者	-11.2681
無明熏習	-11.2683
未了	-11.2685
相分色	-11.2686
一一門	-11.2686
不怯	-11.2688
度生	-11.2692
是第三	-11.2694
比丘尼	-11.2694
見報身	-11.2696
上二句	-11.2698
悟解	-11.27
例前	-11.2701
是故應說	-11.2702
不肯	-11.2707
▁二引經	-11.2708
生住	-11.2708
文可知	-11.2709
開二門	-11.2712
先總	-11.2712
緣熏	-11.2713
名似能破	-11.2714
十萬	-11.2715
如同異性	-11.2716
所障	-11.2716
如來藏心	-11.2722
結歸	-11.2728
方說	-11.2735
涅槃經	-11.2742
王復問那先言	-11.2743
大乘不許	-11.2745
真如者	-11.2754
可名	-11.2754
因熏	-11.2755
立聲是無常	-11.2756
敵證	-11.2756
禪者	-11.2757
為菩提	-11.2758
亦在	-11.276
離色	-11.2763
大乘經	-11.2763
無窮盡	-11.2764
性火	-11.2765
故淨名云	-11.2766
修福	-11.2768
恒沙功德	-11.2769
相貌	-11.2769
復有何	-11.2771
迴轉	-11.2772
破之	-11.2772
入滅	-11.2777
若論	-11.2783
離言說	-11.2784
盡智	-11.2786
契合	-11.2787
神變	-11.2791
他心智	-11.2792
牒釋	-11.2792
不得自在	-11.2792
真實性	-11.2794
之稱	-11.2795
起妄	-11.28
所有一切	-11.2801
苦苦	-11.2802
變現	-11.2803
十六種	-11.2803
大菩提心	-11.2806
稱實	-11.2807
室中	-11.2808
壞時	-11.2808
無形相	-11.281
月輪	-11.2813
一解	-11.2815
遠行	-11.2816
破諸	-11.2816
可謂	-11.2817
瓶所作	-11.2817
信根本	-11.2817
非智	-11.2818
次句	-11.2819
所謂真如	-11.2819
麁顯	-11.282
文中有二	-11.2823
當修	-11.2825
同品非有	-11.2825
是人於	-11.2827
不斷絕故	-11.2828
究竟地	-11.2829
立宗言	-11.2834
文句	-11.2836
能伏	-11.2837
如勝論	-11.284
染欲	-11.2841
皆苦	-11.2842
不平等	-11.2846
有三義	-11.285
通凡聖	-11.285
見彼無常	-11.2858
相可得	-11.2859
八分	-11.286
無限	-11.2862
此據	-11.2863
長大	-11.2863
現比量	-11.2864
照明	-11.2868
所計	-11.2875
我母	-11.2876
謂如來	-11.2876
可爾	-11.2878
唯心所作	-11.2878
成得	-11.2885
香等	-11.2885
之異名	-11.2888
三總結	-11.2888
則不應	-11.2891
先舉	-11.2895
始覺智	-11.29
故不名	-11.2901
性本無	-11.2901
深生	-11.2902
然前	-11.2902
心相應	-11.2903
愚迷	-11.2907
照達	-11.2909
者是心	-11.2913
在心	-11.2916
何非	-11.2916
純淨	-11.2919
差別性故	-11.2921
大神通	-11.2927
相宗	-11.2927
愛見	-11.2927
相濫	-11.2935
先已	-11.2935
無漏智	-11.2939
種種法	-11.2942
極喜	-11.2945
如山	-11.2949
被燒	-11.295
初標數	-11.2954
善巧門	-11.2954
亦許	-11.2958
為所成立	-11.2958
如金剛	-11.2959
標也	-11.296
集成	-11.2961
豆	-11.2961
取之	-11.2962
熏變	-11.2963
生死苦	-11.2965
澁	-11.2965
有論師言	-11.2967
銀	-11.2968
俱品一分轉	-11.2969
政	-11.2969
得究竟樂	-11.297
嘗	-11.2971
覺於念住	-11.2971
五種寶樹	-11.2971
踐	-11.2972
以不知為破著故	-11.2972
旬	-11.2972
為所立	-11.2972
倣	-11.2973
華文論	-11.2973
摽	-11.2973
成等正覺	-11.2974
發起問答決疑門	-11.2975
罔	-11.2975
信相應地	-11.2975
渾	-11.2975
翼	-11.2976
平等性智	-11.2976
秖	-11.2976
屠	-11.2976
除障	-11.2977
菩提資糧	-11.2977
悕	-11.2977
歟	-11.2979
勵	-11.2979
行根本方便	-11.2979
不和合	-11.298
窺	-11.298
未曾離念	-11.298
立大誓願	-11.298
托	-11.298
巷	-11.298
應說此論	-11.2981
幡	-11.2982
有幾數	-11.2982
舟	-11.2982
亦遣除想	-11.2982
升	-11.2982
徧一切處	-11.2983
派	-11.2983
隨事	-11.2984
又心起者	-11.2985
練	-11.2985
有二初問	-11.2985
依如來藏有生滅心	-11.2985
不失不壞	-11.2985
隱沒	-11.2985
封	-11.2985
撿	-11.2986
剃	-11.2986
往詣	-11.2986
未嘗	-11.2986
對薩婆多	-11.2987
滴	-11.2987
輔相	-11.2988
天竺	-11.2989
何義謂	-11.2989
惱害	-11.2989
第二解	-11.299
以一切法悉皆真故	-11.299
此有二義	-11.299
畢竟不退	-11.2991
戴	-11.2991
宛然	-11.2991
無滅	-11.2993
他化自在天	-11.2994
勑	-11.2994
氣息	-11.2994
聲論師	-11.2995
心體不滅	-11.2995
為當	-11.2998
一真法界	-11.2998
善現	-11.2999
以熏習故	-11.2999
餘位	-11.3001
大丈夫	-11.3002
亦犯	-11.3003
如所說	-11.3004
名不相應	-11.3005
憂喜	-11.3005
標舉	-11.3006
諸凡夫	-11.3007
一一心	-11.3007
我及	-11.3007
後三染	-11.3008
通指	-11.3008
皆無分齊	-11.3012
次云	-11.3013
勤精進	-11.3015
能詮教	-11.3016
能取境界	-11.3016
決定有性	-11.3019
迷亂	-11.3024
中初一	-11.3025
總攝一切	-11.3026
名句文	-11.3027
初徵	-11.3028
可了	-11.3032
正勤	-11.3032
外色	-11.3038
四類	-11.3038
調心	-11.3038
滅相續心相	-11.3043
業繫	-11.3043
三種發心	-11.3044
亂心	-11.3044
名為能立	-11.3047
一切法空	-11.3049
善財	-11.3052
諸法皆	-11.3052
有說言	-11.3052
地前菩薩	-11.3054
四相俱時	-11.3055
自信	-11.3055
影略	-11.3057
等物	-11.3057
我若	-11.3057
初喻	-11.3058
現識所現	-11.3058
世間出世間	-11.306
是不善	-11.306
觀身	-11.3062
入真如	-11.3063
小乘不許	-11.3066
現像	-11.3066
妙智	-11.3073
七句	-11.3077
亦復然	-11.308
次當	-11.3082
教化眾生	-11.3084
故前文云	-11.3085
始覺同本	-11.3086
身根	-11.3086
常所	-11.3088
無與等	-11.3089
三自一心	-11.3092
捨心	-11.3093
四無為	-11.3094
如是次第	-11.3095
常在前	-11.3101
異時	-11.3104
名隨分覺	-11.3108
本際	-11.3109
三善根	-11.3109
那羅	-11.311
墮惡趣	-11.3112
第二明	-11.3115
合釋	-11.3119
本業經	-11.3122
顯了分	-11.3127
應化身	-11.3128
伏難	-11.3129
天親	-11.313
光照	-11.3132
法我見者	-11.3132
分別智	-11.3134
今釋	-11.3136
而出	-11.3138
漸轉	-11.314
西天譯經三藏朝散大夫試鴻臚少卿	-11.3142
名煩惱礙	-11.3149
然此菩薩	-11.3149
現染	-11.3152
就第	-11.3152
略無	-11.3156
罪惡	-11.3158
出觀	-11.3161
前境	-11.3161
語業	-11.3163
此四種	-11.3163
諸妙	-11.3168
不離本覺	-11.3168
戒定	-11.3169
念相	-11.3172
或施	-11.3176
二十一	-11.3182
不散	-11.3182
名因明	-11.3183
水性	-11.3185
分析	-11.3186
此翻	-11.3189
大利	-11.3189
佛種不斷故	-11.319
應受	-11.3191
無所著	-11.3191
而來	-11.3193
覺相	-11.3194
非生滅	-11.3197
因何	-11.3198
二頌	-11.3201
不可分	-11.3201
我空	-11.3201
此辨	-11.3202
用熏習者	-11.3202
人我見者	-11.3203
從本來	-11.3205
似彼	-11.3207
智斷	-11.3207
自共相	-11.3209
我昔	-11.321
無明染法	-11.3212
壞滅	-11.3213
不作意	-11.3216
俱成	-11.3216
一切智心	-11.3216
正語	-11.3219
正念真如	-11.322
本也	-11.3221
ra	-11.3226
功德品	-11.3233
無量差別	-11.3235
不生滅心	-11.3236
王問	-11.3238
如文	-11.324
各取	-11.3243
受用身	-11.325
不可立	-11.325
諸善行	-11.3252
初分門	-11.326
正知	-11.326
所趣	-11.3261
汝若	-11.3261
退分	-11.3263
無根	-11.3264
圓智	-11.3268
不異真如	-11.3269
今更	-11.327
虛空處	-11.3271
復為	-11.3273
後答	-11.3275
尚未	-11.3278
何妨	-11.3279
十方三世一切	-11.3282
依真起	-11.3283
今顯	-11.3286
虗空等	-11.3286
法出離	-11.3287
聞聲	-11.3289
所繫	-11.3289
敵論者	-11.3291
既許	-11.3297
高舉	-11.33
曜	-11.33
理門云	-11.3301
▁三釋	-11.3304
為起	-11.3305
第四分	-11.3307
餘七	-11.3308
淨覺	-11.3312
顯示正義者	-11.3313
七法	-11.333
菩薩乘	-11.3332
下引經	-11.3332
隨生	-11.3337
無所住	-11.3341
諸地	-11.3345
上上品苦	-11.3348
涌	-11.3349
匿	-11.3349
猪	-11.335
崖	-11.335
悶	-11.335
中有四	-11.335
死屍	-11.3352
取著轉深	-11.3353
脹	-11.3354
阿脩羅	-11.3354
毺	-11.3354
發大心	-11.3356
欲界繫	-11.3356
那羅延	-11.3356
頻	-11.3356
盡未來際	-11.3356
晝	-11.3357
腰	-11.3358
貝	-11.3358
不動則無見	-11.3358
席	-11.3358
紙	-11.3359
教行	-11.3359
案	-11.3359
何修何相何味何處何	-11.3359
則無真覺自相可說	-11.336
無有休息	-11.3361
苦海	-11.3361
念無異相	-11.3362
違平等性	-11.3362
無外境界	-11.3363
刀杖	-11.3364
依染淨差別	-11.3364
悋	-11.3364
樓閣	-11.3364
朋友	-11.3365
格	-11.3365
即此相續識	-11.3365
慕	-11.3365
負債	-11.3365
現現別轉	-11.3365
如前云	-11.3365
無所遺	-11.3366
摠	-11.3366
十方世界之塵量	-11.3367
非時	-11.3367
探	-11.3367
同有異無	-11.3367
塚間	-11.3367
秋	-11.3368
非想非非想處	-11.3368
下正釋	-11.3369
怨親	-11.3369
色無色	-11.337
中開	-11.337
以之故言	-11.337
同相門	-11.337
衰惱	-11.3371
隙	-11.3372
入於涅槃	-11.3372
欣厭	-11.3374
積聚性因	-11.3375
不無之有	-11.3376
無盡意經	-11.3377
▁初釋義	-11.3378
刃	-11.3378
止濫	-11.3379
五受陰	-11.3379
二釋疑	-11.338
利益安樂	-11.338
為第一	-11.338
即同本覺	-11.3381
諸無常者	-11.3381
容有	-11.3382
法無我	-11.3382
是誰	-11.3382
當知下	-11.3383
我應	-11.3385
地種	-11.3385
瞋惱	-11.3386
流轉生死	-11.3386
二復次下	-11.3386
經營	-11.3388
教誡	-11.3388
善趣	-11.3388
難測	-11.339
三量	-11.339
何人	-11.339
上生	-11.3392
受陰	-11.3392
勝方便	-11.3393
但見	-11.3393
香味	-11.3395
經戒	-11.3395
次第生	-11.3397
不樂世間	-11.3398
從真起	-11.3398
忿恨	-11.3403
焚燒	-11.3404
本來涅槃	-11.3404
猶如虗空	-11.3406
尋求	-11.3407
作四句	-11.3408
故不相違	-11.3408
能依所依	-11.3409
歸真	-11.3413
是實有	-11.3413
若諸眾生	-11.3413
如次配	-11.3414
意識轉	-11.3415
楞伽經云	-11.3415
能攝一切法	-11.3417
制伏	-11.3418
無所不至	-11.342
更無別體	-11.3421
無有障礙	-11.3422
此世	-11.3423
三賢菩薩	-11.3424
那先言譬如	-11.3424
俱決定故	-11.3427
離無明	-11.3427
未熟	-11.3428
見五陰	-11.3429
已起	-11.343
聖種	-11.343
無諍	-11.3431
依他性	-11.3432
喻合	-11.3432
三解脫門	-11.3437
染淨熏習	-11.3438
類也	-11.3438
受染熏	-11.344
決了	-11.3444
譬如虛空	-11.3445
得知	-11.3447
助道	-11.3448
名為報身	-11.3449
初唱本論	-11.3449
其水	-11.3457
無常法	-11.3457
正報	-11.3458
使其	-11.3458
諸罪	-11.346
何故但說	-11.346
二初唱本	-11.3461
五逆	-11.3462
何以不	-11.3462
意令	-11.3462
假令	-11.3463
總聚	-11.3464
準前	-11.3465
諸外道等	-11.3465
則壞	-11.3465
甚多	-11.3466
多劫	-11.3468
無塵	-11.3473
劫初	-11.3482
智淨相者	-11.3484
有人云	-11.3487
佛種不斷	-11.349
名曰馬鳴	-11.3491
眾行	-11.3493
亦應有	-11.3495
此中所說	-11.3495
十信心	-11.3502
為車	-11.3504
就初	-11.3505
觀聽	-11.3508
前陳有法	-11.3509
受化	-11.351
遍宗法	-11.3512
總示	-11.3521
既說	-11.3525
非取	-11.353
求出離	-11.3532
所見者	-11.3543
攝屬	-11.3552
千年	-11.3559
麤分別	-11.3562
滿覺	-11.3564
共起	-11.3565
玄理	-11.3565
之地	-11.3566
護身	-11.3567
四十二	-11.3567
今之	-11.3567
約境	-11.3575
前難	-11.3577
之始	-11.3579
如理智	-11.358
觀色	-11.3581
圓通	-11.3595
梵音	-11.3597
滅相續心	-11.3597
觀一切法	-11.3597
安慧	-11.3598
為增上緣	-11.3599
初中二	-11.3605
亦無所	-11.3609
不能成宗	-11.361
根宜	-11.361
所學	-11.3612
和合成	-11.3614
覺心源	-11.3616
▁二明	-11.362
耳聞	-11.3622
相屬	-11.3625
自餘	-11.3625
身形	-11.3626
地藏	-11.3629
證無常	-11.363
三受	-11.3631
是樂	-11.3633
題名	-11.3633
共住	-11.3635
具足無量	-11.3635
用心	-11.3636
還滅	-11.3637
相續心	-11.3637
內身	-11.3638
那尸	-11.364
何時	-11.364
執著相	-11.3649
其形	-11.3652
起惑	-11.3652
乃至無量	-11.3652
在生滅門	-11.3656
藍	-11.3661
一往	-11.3668
述曰此下	-11.367
所施	-11.367
因緣起	-11.3683
常生	-11.3684
無變異	-11.3684
病人	-11.3691
分齊也	-11.3692
起大悲心	-11.3695
所惱	-11.3698
樂說	-11.3698
義不相應	-11.3698
常寂	-11.3698
似異	-11.37
且說	-11.3702
之水	-11.3704
一切分別	-11.3712
百二十	-11.3713
麁念	-11.3715
入初禪	-11.3716
於中有	-11.3717
業繫苦	-11.3718
菩薩發心	-11.372
金色	-11.3722
總成	-11.3722
先立	-11.3726
他功力	-11.3729
名為同品	-11.3729
何得言	-11.3731
之間	-11.3742
煮	-11.3745
勳	-11.3745
現法	-11.3746
少壯	-11.3746
鹽	-11.3747
裸形	-11.3749
臭穢	-11.375
勝遍光天	-11.375
h	-11.3754
燥	-11.3755
說因宗所隨	-11.3755
非前際生	-11.3755
宗無因不有	-11.3755
譬如北地妙好	-11.3755
妙觀察智	-11.3756
作事	-11.3756
天水盈滿	-11.3756
起厭求	-11.3756
捐	-11.3756
有正智生	-11.3756
無所闕失	-11.3756
身有無量色	-11.3757
苑	-11.3758
覺則不動	-11.3758
調適	-11.3758
境界妄現	-11.3759
不約	-11.3759
解釋分中	-11.3759
k	-11.3759
c	-11.3759
欝單越	-11.3759
諸所作者皆是無常	-11.3759
無障無礙	-11.3759
心實不動	-11.376
謂心體離念	-11.376
竊	-11.3761
歌舞	-11.3761
第二重	-11.3761
種種事	-11.3761
二次說下	-11.3762
潛	-11.3762
無始無終	-11.3762
韻	-11.3763
客塵	-11.3763
以此下	-11.3763
形相如何	-11.3763
低	-11.3764
夜叉	-11.3764
則不須論	-11.3764
執取計名	-11.3764
象馬車	-11.3764
立其名故	-11.3764
嘉	-11.3765
信得增長	-11.3765
六種染心	-11.3765
非有無俱相	-11.3765
而實無有始覺之異	-11.3766
庫藏	-11.3766
芥子	-11.3766
恐繁	-11.3766
智體不動	-11.3767
以無念等故	-11.3767
獨力業相	-11.3767
周遍法界	-11.3767
諸不善	-11.3767
則無是處	-11.3767
與此相違	-11.3768
所觀境	-11.3768
史	-11.3768
毒藥	-11.3769
緒	-11.3769
綸	-11.3769
報佛	-11.3769
共比量	-11.3769
憂悲苦惱	-11.377
梵志	-11.377
猛利	-11.377
鬪	-11.377
綱要	-11.3772
或有說者	-11.3772
叫	-11.3772
具無漏法	-11.3772
閱	-11.3772
帶過	-11.3773
坐臥	-11.3773
惡友	-11.3774
事事無礙	-11.3775
有一比丘	-11.3775
險難	-11.3775
否	-11.3776
巾	-11.3778
是佛境界	-11.3778
下第二明	-11.3779
▁二答釋	-11.378
有何咎	-11.3783
釋曰後解釋有二初	-11.3784
十種信心	-11.3784
根緣	-11.3784
引導	-11.3785
無始已來	-11.3786
師教	-11.3787
猒求	-11.3787
知一切眾生	-11.3787
正遍知	-11.3788
展轉相	-11.3789
金剛三昧	-11.379
因有三相	-11.379
両	-11.3791
以有妄心	-11.3793
維摩	-11.3793
拔除	-11.3794
三者用大	-11.3794
菩提道	-11.3795
聖弟子	-11.3796
燒炙	-11.3796
須陀洹果	-11.3797
一千由旬	-11.3798
憂悲	-11.3799
如聲論師	-11.3799
具足無漏	-11.38
為那先耶	-11.38
生怖畏	-11.3801
次答	-11.3802
巳後	-11.3802
佛滅後	-11.3803
有慧	-11.3806
分別染淨	-11.3809
本覺智	-11.3811
終不可得	-11.3812
墮落	-11.3813
不為那先	-11.3813
十迴向	-11.3813
遠離大悲	-11.3813
散說	-11.3814
不相應也	-11.3816
龍樹云	-11.3816
真淨	-11.3817
之要	-11.3817
身口意業	-11.382
非不可壞	-11.3821
不耐	-11.3823
身土	-11.3824
魔王	-11.3824
簡異	-11.3827
若准	-11.3827
六麁中	-11.3829
勝義諦中	-11.3832
既滅	-11.3834
酤	-11.3834
起愛	-11.3835
妄取	-11.3835
之深	-11.3836
𧹞	-11.3837
以下明其	-11.384
依此義	-11.384
不名為覺	-11.3845
佛不說	-11.3846
亦有亦無	-11.3846
且止	-11.3849
罪報	-11.3849
亦如前說	-11.3849
現於	-11.385
猶預不成	-11.3851
不順	-11.3851
。」【△	-11.3852
初略明	-11.3852
一時俱	-11.3853
即有二門	-11.3854
見如來	-11.3856
名為得入	-11.3858
等是也	-11.386
依緣	-11.3861
又復有	-11.3862
是名菩薩	-11.3863
三對治	-11.3864
十五種	-11.3864
制止	-11.3866
大龍王	-11.3868
斷道	-11.3872
隨順修行	-11.3876
亦攝	-11.3878
初中亦	-11.388
必應	-11.3881
元無	-11.3882
遠離諸	-11.3882
助成	-11.389
准理	-11.3891
違自現	-11.3892
我愛	-11.3894
不退位	-11.3898
大千	-11.39
初總敘	-11.3901
本論云	-11.3904
佛自說	-11.3905
豈能	-11.3905
何等眾生	-11.3908
餘教	-11.3908
但就	-11.3911
生滅之法	-11.3924
如是名為	-11.3928
應是常	-11.3934
後智	-11.3935
重辨	-11.3936
幻有	-11.3939
清淨持戒	-11.3939
而動	-11.394
說名法身	-11.3947
同事	-11.3948
此二句	-11.3954
之妙	-11.3954
覺滅相	-11.3956
何故下	-11.3961
王言然	-11.3965
即是常	-11.3965
無明為因	-11.3966
順性	-11.3967
攝大乘	-11.3968
界內	-11.3968
不謬	-11.3969
初三句	-11.397
勤勇因	-11.397
色究竟	-11.3971
現形	-11.3971
現種種	-11.3977
於瓶	-11.3978
謂此菩薩	-11.3988
淨妙	-11.3989
異相者	-11.3991
今當說	-11.3991
必隨	-11.3992
外物	-11.3993
真德	-11.3995
為求	-11.3997
利根者	-11.3999
名為眾生	-11.4001
總字	-11.4002
異法者	-11.4007
名得涅槃	-11.4008
覺道	-11.4018
如華嚴	-11.4018
緣外	-11.402
信解行	-11.4021
總宗	-11.4023
就此門中	-11.4024
故上文云	-11.4027
不越	-11.4029
攝生	-11.4032
今略	-11.4036
而為其	-11.4037
不離識	-11.4037
當知一切法	-11.404
罪過	-11.404
四邊	-11.4046
亦不然	-11.4056
汝執	-11.4056
上煩惱	-11.4058
若諸菩薩	-11.406
經部	-11.4064
釋曰後辨	-11.4065
不稱	-11.4067
不可取	-11.4073
方可	-11.4076
不能分別	-11.4077
魔境	-11.4083
太虛	-11.4085
言音	-11.4086
第三總結	-11.4086
四無礙	-11.409
亦兼	-11.4095
不虛	-11.4096
發心住	-11.4097
即是本覺	-11.4098
五字	-11.4098
能顯示	-11.4099
無此過	-11.41
妙理	-11.4103
因同品	-11.4103
初機	-11.4111
滅除	-11.4111
諸經論	-11.4112
右手	-11.4125
心得解脫	-11.4127
福聚	-11.4128
若離神通及	-11.413
如是二種	-11.413
堅相	-11.4131
真身	-11.4134
如此之	-11.4135
燒然	-11.4137
開解	-11.4139
罪重	-11.4141
即簡	-11.4146
知味	-11.4147
不相離也	-11.4148
等無差別	-11.4151
如虛空等	-11.4154
性海	-11.4156
例餘	-11.4157
自違	-11.4157
若多若少	-11.4157
機感	-11.4158
邪婬	-11.4159
宛	-11.4159
外道說	-11.4159
見思	-11.416
不流轉	-11.4161
七轉識	-11.4162
於中二	-11.4164
但可	-11.4166
剎帝利	-11.4166
城中	-11.4167
對後	-11.4167
是三昧	-11.4168
三賢十聖	-11.4168
得失	-11.4169
身量	-11.417
延促	-11.4171
秦	-11.4171
胸	-11.4171
心住不亂	-11.4172
成實論	-11.4172
軀	-11.4173
一切菩薩皆乘此法到如來地故	-11.4173
有四句	-11.4173
覺於念異	-11.4173
色有無量相	-11.4174
成所作智	-11.4174
黑繩	-11.4175
還作眾生	-11.4175
獵	-11.4175
涎	-11.4175
若離不覺之心	-11.4175
厄	-11.4176
綺互	-11.4177
自然而有不思議業	-11.4177
即觀之止	-11.4177
真實識知義故	-11.4177
所依不成過	-11.4178
川	-11.4178
知心妄動	-11.4178
無不盡	-11.4178
順明	-11.4178
妄心熏習義有二種	-11.4179
炭	-11.4179
所緣之境	-11.418
依法力熏習	-11.418
非色非心	-11.4181
奏	-11.4181
徐	-11.4182
甘蔗	-11.4183
脇	-11.4183
略不說	-11.4183
聞思修	-11.4183
不取不著	-11.4183
真俗二諦	-11.4184
是心則攝一切世間出世間法	-11.4184
心若馳散	-11.4184
則不生	-11.4184
不樂眾善	-11.4184
宋	-11.4184
稱揚	-11.4185
故攝論云	-11.4186
純熟	-11.4186
不覺心動	-11.4187
不燒	-11.4187
此有二種	-11.4187
後以心除心	-11.4188
究竟離故	-11.4188
即是一法界大總相法門體	-11.4188
飛鳥	-11.4188
都無所得	-11.4189
依於此心	-11.419
寶性論云	-11.419
出胎	-11.4191
肩	-11.4191
異品徧無性	-11.4191
有及非有	-11.4191
卷第五	-11.4192
誕	-11.4192
吠	-11.4195
瓶上無常	-11.4195
王舍城	-11.4195
捧	-11.4198
頭面	-11.4199
隨眾生根	-11.4199
剎利	-11.42
總為一	-11.4201
虗假	-11.4202
支提	-11.4203
偽妄	-11.4204
誰言	-11.4205
一切有為	-11.4206
瞋行人	-11.421
有二種義	-11.4212
出生增長	-11.4213
隨分覺	-11.4214
答初問	-11.4214
證自證分	-11.4215
了不可得	-11.4218
以一切下	-11.4219
妄說	-11.4221
顯揚	-11.4222
可思議	-11.4229
合顯	-11.4235
即般若	-11.4241
是故菩薩	-11.4241
猶如虛空	-11.4243
同品有異品	-11.4245
大品	-11.4245
因緣總相	-11.4246
得阿耨多羅三藐三菩提	-11.4248
自他俱	-11.4248
信三寶	-11.4249
薩哩	-11.425
本來清淨	-11.425
滅已	-11.426
下結成	-11.426
何故名	-11.426
一切無常	-11.4261
何別答	-11.4262
離心無	-11.4263
立宗云	-11.4265
妄熏	-11.4265
依他起	-11.4268
樂念	-11.4272
其數無量	-11.4275
不可念	-11.4275
眾生心者	-11.4277
上地	-11.4279
六七識	-11.4282
後別釋	-11.4285
結勸	-11.4291
39	-11.4293
耳鼻	-11.4294
應用	-11.4295
變化身	-11.4297
過未	-11.4298
已來	-11.4298
能引	-11.43
那先言王	-11.4301
事法	-11.4302
十信位中	-11.4302
仁者	-11.4304
無有分齊	-11.4305
異耳	-11.4307
極細	-11.4308
釋曰六	-11.4308
所迷	-11.4309
能念	-11.431
染法淨法	-11.4311
等虛空界	-11.4319
於自心	-11.432
成宗義	-11.4321
配合	-11.4322
難了	-11.4322
字輪	-11.4325
何等為三	-11.4328
禪那	-11.4333
為諸眾生	-11.4347
生三種相	-11.4349
熏習之義	-11.4349
所聞因	-11.435
指示	-11.4352
廣多	-11.4355
自巳	-11.4355
法印	-11.4357
佛事	-11.4365
實德業三	-11.4368
具二義	-11.437
隨何	-11.437
變為	-11.4371
大乘教	-11.4372
又是菩薩	-11.4373
言自許	-11.4375
乃至云	-11.4375
自比	-11.4375
如佛弟子	-11.4378
不變義	-11.4379
菩薩境界	-11.4382
散說門	-11.4385
應供	-11.4387
有流	-11.4391
諸聲聞	-11.4393
地一切入	-11.4395
四結	-11.4399
約真如門	-11.4402
必具	-11.4406
行蘊	-11.4406
不乖	-11.4409
定執	-11.4413
對障	-11.4415
念念相續	-11.4416
修習信心	-11.4417
中三句	-11.4418
息滅	-11.4418
十一種	-11.4419
麁分別	-11.442
上座	-11.4422
究竟位	-11.4423
相雜	-11.4428
六界	-11.4431
絕諸	-11.4435
真如之體	-11.4437
佛那謨	-11.4438
名為阿梨耶識	-11.4439
作境界	-11.444
勝前	-11.4441
是故世尊	-11.4442
有厭求	-11.4442
異體	-11.4444
無所有故	-11.4452
所說法	-11.4454
即是顯示	-11.4457
無念故	-11.4466
事火	-11.4466
藏海	-11.4467
可念	-11.4469
諸罪人	-11.4472
非大有	-11.4478
反云	-11.4478
消文	-11.448
同法相似	-11.4481
差別緣者	-11.4482
下徵釋	-11.4485
皆除	-11.4488
一心三大	-11.4489
實德	-11.4489
所除	-11.4493
妙音	-11.4496
生天上	-11.4497
智了因	-11.4498
十億	-11.4502
自思惟	-11.4503
十重	-11.4504
復二初	-11.4506
各開	-11.4511
四住地	-11.4527
大乘起信	-11.4528
源本	-11.4528
同緣	-11.4535
亦得名為	-11.4536
順成	-11.4536
更立	-11.4538
多諸	-11.454
色力	-11.454
雖少	-11.4548
和合因緣	-11.455
隨觀	-11.455
隨順真如	-11.4551
略論	-11.4554
其體性	-11.4558
妄情	-11.4562
本王	-11.4563
來去	-11.4563
深解	-11.457
樹林	-11.4573
勝鬘經	-11.4573
能隨順	-11.4576
恭	-11.4577
心心法	-11.4581
橫說	-11.4581
汝何	-11.4592
即指前	-11.4593
怨憎會	-11.4594
不愚癡	-11.4595
虛空無	-11.4598
皈	-11.4599
厭生死	-11.4599
夾	-11.46
平等緣者	-11.46
極堅極強最為痛	-11.46
現影	-11.4601
作逆事	-11.4601
初發意	-11.4601
無相觀	-11.4603
謂東為西	-11.4603
起大乘正信	-11.4604
依業受果	-11.4605
朽	-11.4606
何以得知	-11.4606
環	-11.4606
消惡業障	-11.4607
此事不然	-11.4607
漸漸轉	-11.4607
如實空鏡	-11.4607
非非想處	-11.4608
肇	-11.4608
當知無明能生一切染法	-11.4608
羅睺羅	-11.4608
羅剎	-11.4609
陰界入	-11.4609
偷	-11.4609
所言覺義者	-11.4609
等虗空界	-11.4609
不生不滅與生滅和合	-11.4609
遞	-11.4609
其數幾有	-11.4609
䟦	-11.461
混	-11.461
凝	-11.461
說有五分	-11.461
造斯論	-11.461
d	-11.461
灑	-11.4611
紅	-11.4611
心滅則種種法滅	-11.4611
所起見愛熏習	-11.4611
能障真如根本智故	-11.4611
述造論意	-11.4612
妄起想念	-11.4612
因滅故不相應心滅	-11.4612
燭	-11.4612
如華嚴經	-11.4613
非生非滅	-11.4613
不二摩訶衍法	-11.4613
起惑造業	-11.4613
我見愛染煩惱	-11.4614
今謂不爾	-11.4614
其心怯弱	-11.4614
真如生滅二門	-11.4614
不也世尊	-11.4614
只是	-11.4615
欝	-11.4615
無始覺之異	-11.4615
夙	-11.4615
斷三寶種	-11.4615
謙	-11.4615
木石	-11.4615
是心真如相	-11.4615
立敵共許	-11.4616
:「	-11.4616
逈	-11.4616
育	-11.4616
名似立宗	-11.4616
畢竟常恒	-11.4616
冀	-11.4617
如鏡中像	-11.4617
哭	-11.4617
娑羅	-11.4617
故唯識云	-11.4617
促	-11.4617
亂行者心	-11.4618
一切染法不相應故	-11.4618
整	-11.4618
俱合動相	-11.4618
剩	-11.4618
此以何義	-11.4619
不覺心起而有其念	-11.4619
專注	-11.4619
受大苦惱	-11.4619
境界隨滅	-11.4619
貞	-11.462
編	-11.462
切身	-11.4621
退屈	-11.4621
諮	-11.4621
解脫知見	-11.4622
蟻	-11.4623
寺沙門	-11.4624
以況	-11.4624
思慮	-11.4624
目連	-11.4625
寶積經	-11.4625
今此下	-11.4625
麼	-11.4625
昭然	-11.4626
孰	-11.4626
亦名如來法身	-11.4626
三種大義	-11.4628
金城	-11.4628
風雨	-11.4629
波利夜多樹	-11.4629
求覓	-11.463
蘭	-11.4631
斷諸煩惱	-11.4631
善解	-11.4632
法差別相違因	-11.4632
正證	-11.4634
端直	-11.4636
報恩	-11.4637
百歲	-11.4639
。」【(△	-11.464
播	-11.464
▁s	-11.4643
迦葉波	-11.4643
又是人	-11.4645
對餘	-11.4646
分際門	-11.4648
迷倒	-11.4648
九句中	-11.4649
聞思	-11.4652
江水	-11.4653
根熟	-11.4654
故說為意	-11.4656
救濟	-11.4656
無漏業	-11.4659
未顯	-11.4661
子微	-11.4662
伹是	-11.4667
第三明	-11.4667
二隨釋	-11.4667
一切有為法	-11.4667
極成有法	-11.4668
法身顯現	-11.4669
種族	-11.4669
若無明滅	-11.4671
食已	-11.4671
若爾何	-11.4671
心所法	-11.4676
何相	-11.4677
一萬劫	-11.468
根本罪	-11.4681
加持	-11.4682
極成能別	-11.4682
作不定過	-11.4683
名相續識	-11.4683
說名同品	-11.4683
五欲樂	-11.4683
小劫	-11.4684
黎耶識	-11.4685
住正念	-11.4687
更互相	-11.4687
是般若	-11.4688
不離眼識色	-11.469
憂苦	-11.4692
五十一種位	-11.4695
於三寶	-11.4696
親屬	-11.4696
七支	-11.4701
如立聲常	-11.4701
虛妄分別	-11.4701
因無所依	-11.4705
一切心行	-11.4709
即熏習真如	-11.4711
氣分	-11.4712
有何等	-11.4712
喻況	-11.4713
大海中	-11.4716
於諸法中	-11.4716
望自	-11.4718
成不定	-11.472
金輪	-11.472
二何故下	-11.4721
配釋	-11.4723
兩重所入	-11.4725
所入本法	-11.4733
所現境	-11.4734
引經證成	-11.4737
自下第二明	-11.4737
如立聲無常	-11.4744
有五一	-11.4745
愛別離	-11.4746
兩重能入	-11.4748
所配	-11.4749
然此二	-11.4752
名相續相	-11.4753
歡喜地	-11.4756
准知	-11.4758
兩種	-11.4759
有分別智	-11.4765
詮顯	-11.477
相稱	-11.4772
若坐禪人	-11.4772
眾生心中	-11.4774
門有三初	-11.4778
十方界	-11.4782
總名為	-11.4782
各隨	-11.4791
第八地	-11.4793
修慈	-11.4797
何事	-11.4799
前段	-11.4805
為同法	-11.4805
勝慧	-11.4805
發起善根	-11.4806
ar	-11.4809
受變易	-11.481
大總持	-11.4811
所覺相	-11.4813
一室	-11.4815
餘文	-11.4815
一偈	-11.4816
以有自體	-11.4819
入初地	-11.4822
二十八	-11.4841
勤求	-11.4844
日行	-11.4844
盲人	-11.4848
修因	-11.485
如雲	-11.4852
並屬	-11.4853
十二分	-11.486
陀羅尼門	-11.4864
如來所說	-11.4865
在生滅門中	-11.4866
不死	-11.4867
圓頓	-11.4867
色等法	-11.4868
中二句	-11.4869
十地論	-11.4875
道智	-11.4875
遂能	-11.4877
所立無常	-11.4882
寂然	-11.4884
真我	-11.4885
體是一	-11.4886
行乞食	-11.4888
能治之	-11.4892
假觀	-11.4893
迷方	-11.4896
生滅相者	-11.4901
通染淨	-11.4906
非情	-11.4911
諸德	-11.4912
四寶	-11.4923
一切善根	-11.4927
五有為	-11.4929
一心法界	-11.4931
共知	-11.4931
見滅諦	-11.4936
細苦	-11.494
其福	-11.494
五戒	-11.4949
妄分別	-11.495
便應	-11.495
不能動	-11.4954
自類	-11.4955
指事	-11.4962
是故不說	-11.4963
瓶上所作	-11.4964
大梵	-11.4967
搖	-11.4968
位次	-11.4971
必依	-11.4973
此第四	-11.4979
唯應	-11.498
聖位	-11.4984
見空華	-11.4985
從無始	-11.4986
諸法自性	-11.499
觸身	-11.4992
▁二結	-11.4992
觀照	-11.4992
真現量	-11.4996
者即前	-11.5001
證發心者	-11.5006
可作	-11.5006
一時生	-11.5006
少時	-11.501
初牒指	-11.501
所觸	-11.5012
義趣	-11.5015
箇	-11.5016
俱名為	-11.502
堅實	-11.5022
遍在	-11.5023
七住	-11.5027
佛菩薩等	-11.5034
能示摩訶衍自體相用故	-11.5039
飄	-11.5039
值遇	-11.5041
聰	-11.5042
輔	-11.5046
宰	-11.5049
壓	-11.505
展	-11.505
熾	-11.5052
五道	-11.5053
難可堪忍	-11.5053
方知	-11.5055
泛	-11.5055
返成	-11.5055
螺	-11.5056
奇特	-11.5056
瞿曇	-11.5056
勇健	-11.5057
錯謬	-11.5057
文中二	-11.5057
鵂	-11.5058
所牽	-11.5059
薩般若慧	-11.5059
併	-11.5059
嗜	-11.506
其樹中間	-11.506
毘舍	-11.506
籍	-11.506
為欲解釋如來根本之義	-11.5061
我癡	-11.5061
閻浮	-11.5061
者此中意說	-11.5062
非求世間名利恭敬故	-11.5062
肅	-11.5062
暇	-11.5062
色聲香味觸	-11.5063
滋	-11.5063
因熏習	-11.5063
回	-11.5063
菩提薩埵	-11.5063
俱胝	-11.5063
二十小劫	-11.5064
𥁞	-11.5064
有其染心	-11.5064
闡	-11.5064
紫	-11.5065
廁	-11.5065
馬鳴菩薩造真諦三藏譯	-11.5065
o	-11.5065
以一切法皆同如故	-11.5065
次文	-11.5065
梁攝論云	-11.5065
體無不實	-11.5065
以有不覺妄想心	-11.5066
下總結	-11.5066
心生則種種法生	-11.5066
無缺	-11.5066
現比二量	-11.5066
黑闇	-11.5066
摩醯首羅	-11.5067
爾時文殊師利	-11.5067
前科	-11.5067
無始時來	-11.5067
緣滅故相應心滅	-11.5068
沸	-11.5068
備有不思議業	-11.5068
聲聞辟支佛	-11.5068
顯示摩訶衍義	-11.5068
匹	-11.5068
作境界之性	-11.5068
捷	-11.5068
見修煩惱	-11.5068
曠野	-11.5068
取種種塵	-11.5069
畢竟無得	-11.5069
初三攝眼所不攝故	-11.5069
訛	-11.5069
倦	-11.5069
應廣通達	-11.5069
不相違也	-11.5069
暖	-11.5069
俾	-11.5069
所作業	-11.5069
深解現前	-11.507
泡	-11.507
諸佛甚深廣大義	-11.507
慳悋	-11.507
教理行果	-11.5071
巧方便	-11.5071
三界虗偽	-11.5071
請轉法輪	-11.5071
皆同真如性相	-11.5072
叢	-11.5072
無覺無觀	-11.5072
八因緣	-11.5072
以有境界緣故	-11.5072
彼身體相	-11.5073
四天王天	-11.5073
發動身口	-11.5073
虧	-11.5074
次第漸轉	-11.5074
啼	-11.5074
挙	-11.5074
親疎	-11.5075
療	-11.5075
不取不念	-11.5075
虗偽	-11.5075
須彌山王	-11.5076
所言空者	-11.5076
猶如淨鏡	-11.5076
因無明風動	-11.5076
斯皆	-11.5076
妙吉祥菩薩	-11.5076
自當顯	-11.5077
異品一分轉	-11.5077
即謂無念	-11.5077
忿恚	-11.5077
對聲顯論	-11.5077
泰	-11.5078
賓	-11.5078
色心不二	-11.5079
違自順他	-11.508
辰	-11.508
唯一真心	-11.508
雖曰	-11.508
瑞	-11.5081
微薄	-11.5081
互通	-11.5082
聲是所聞	-11.5082
(21	-11.5082
誦經	-11.5083
損益	-11.5085
武	-11.5085
所纏	-11.5086
安心	-11.5087
釋成上義	-11.5087
(36	-11.5089
輸	-11.5089
歸趣	-11.509
怖畏生死	-11.5093
妄念而生	-11.5094
旡	-11.5094
印度	-11.5095
具足成立	-11.5095
護持正法	-11.5095
初執緣	-11.5097
過患品	-11.5097
離實等有	-11.5098
九因	-11.5098
由是道理	-11.5098
舍那	-11.5099
生住滅	-11.5101
以之為別	-11.5101
佛滅度後	-11.5102
等同一味	-11.5105
樹木	-11.5105
五種有為	-11.5107
毀犯	-11.5108
可信	-11.5111
與心不相應	-11.5114
恒行	-11.5115
始覺義者	-11.5117
法自相相違因	-11.5118
白王言	-11.5118
不曾	-11.512
滅無明故	-11.5121
四無量心	-11.5122
次二句	-11.5125
暫住	-11.513
而作因緣	-11.5135
不堅	-11.5137
若一切法	-11.5143
得生天上	-11.5144
此位菩薩	-11.5144
所說偈	-11.5151
唯識論中	-11.5151
果不離因故	-11.516
不為車	-11.5163
無數時	-11.5164
結集	-11.5164
不決	-11.5167
若然者	-11.5168
不空如來藏	-11.5169
三惡道	-11.5173
亦須	-11.5173
若人修行	-11.5174
不相似	-11.5177
非佛語	-11.5182
巳竟	-11.5186
眼見色	-11.5186
成立有法	-11.5191
能立所立	-11.5191
麁重	-11.5193
一味一相	-11.5193
但唯	-11.5195
長壽	-11.52
有二種門	-11.5206
一切淨法	-11.5206
同種	-11.5208
亦有二義	-11.5208
未詳	-11.5211
之所圍繞	-11.5212
無咎	-11.5212
若知一切法	-11.5213
根勝	-11.5213
萬億	-11.5217
無量無數	-11.5223
有勝劣	-11.5225
巳還	-11.5228
攝主	-11.523
便利	-11.5231
信滿	-11.5235
真如之法	-11.5246
八解脫	-11.525
一時轉	-11.5256
得法空	-11.5262
有法自相相違因	-11.5262
殊妙	-11.5263
強名	-11.5268
阿那	-11.527
不悔	-11.5274
門有二初	-11.5275
波相	-11.5279
貪樂	-11.5282
九法	-11.5284
國中	-11.5285
心沈沒	-11.5285
所習	-11.5289
起現行	-11.5291
無作者	-11.5294
只此	-11.5298
貪欲生	-11.5299
轉徵釋	-11.5302
念著	-11.5304
而猶	-11.5307
甚難	-11.5308
離散	-11.5309
內曰	-11.531
恒常	-11.5311
漸離	-11.5312
次第說	-11.5315
之益	-11.5316
無常為宗	-11.5324
影顯	-11.5328
四萬由旬	-11.5329
求不得	-11.5334
末法	-11.5344
無明亦爾	-11.5347
自心現	-11.535
具闕	-11.5353
無量菩薩	-11.5357
總徵	-11.5358
別取	-11.536
為護	-11.5367
豈同	-11.5381
羅婆	-11.5386
本趣	-11.539
二十三	-11.5399
當喻	-11.5404
一分不成	-11.5405
次復	-11.5406
造立	-11.5408
照用	-11.5411
迷人	-11.5411
我亦如是	-11.5413
諦所攝	-11.5414
一心真如	-11.5416
垢淨	-11.5423
此總結	-11.5424
熏習不斷	-11.5424
自家	-11.5425
還入	-11.543
以下第二	-11.543
眾會	-11.5431
三由旬	-11.5434
分能所	-11.5439
眾事	-11.544
如實智	-11.5441
若如此	-11.5446
既屬	-11.545
青色	-11.545
諦聽	-11.5452
如立無常	-11.5452
順結	-11.5453
大光明	-11.5453
實知	-11.5454
前二句	-11.5457
以偈	-11.5459
六塵境	-11.5461
入三昧	-11.547
墮在	-11.5475
斷證	-11.5476
當知無明	-11.5477
如是作意	-11.5478
自許言	-11.5478
名句	-11.5478
亦非有	-11.5478
所現色	-11.5479
種種方便	-11.5482
亦勿	-11.5493
摩訶衍者總	-11.5495
於有法	-11.5498
有四門	-11.5499
過惡	-11.5502
簡過	-11.5503
遙	-11.5506
無我等	-11.5507
慳嫉	-11.5511
修諸行	-11.5513
名號	-11.5513
無常苦	-11.5514
皆依無明	-11.5514
屎尿	-11.552
泥犁	-11.5521
顏	-11.5522
柵	-11.5524
祀	-11.5524
肘	-11.5524
平等心	-11.5526
等亦爾	-11.5528
如電	-11.553
震	-11.5532
算	-11.5532
於所比義	-11.5533
而坐	-11.5533
字義差別	-11.5533
鷲	-11.5534
九月	-11.5535
飲酒	-11.5535
增長行緣	-11.5535
繼	-11.5536
前文云	-11.5536
:	-11.5536
肥	-11.5537
悉於中現	-11.5537
鏤	-11.5537
以何因緣	-11.5537
十方世界微塵數	-11.5537
裹	-11.5538
法雲地	-11.5538
諍訟	-11.5538
相有無量好	-11.5538
貨	-11.5538
頑	-11.5538
正解不謬	-11.5538
而得解者	-11.5539
階降	-11.5539
離分齊相	-11.5539
溼	-11.554
千劫	-11.554
聳	-11.554
n	-11.5541
鐵圍山	-11.5541
若修觀者	-11.5541
p	-11.5541
以依業識生滅相示	-11.5541
拔濟	-11.5542
窟	-11.5542
勤勇所發	-11.5542
即得往生	-11.5542
牟	-11.5542
旁	-11.5542
範	-11.5542
衛世	-11.5542
相狀	-11.5543
挍	-11.5543
即是如來平等法身	-11.5543
如來根本之義	-11.5543
屍	-11.5543
受解緣別	-11.5543
豪	-11.5543
跏	-11.5543
問答決疑門	-11.5544
轍	-11.5544
恒河沙	-11.5544
即止之觀	-11.5544
涕	-11.5544
言語道斷	-11.5544
筆削	-11.5544
水相風相不相捨離	-11.5545
文相可知	-11.5545
薩婆若	-11.5545
盤	-11.5545
則無邪執	-11.5545
如是此論	-11.5545
遐	-11.5545
拯	-11.5545
憂悔	-11.5546
非心智滅	-11.5546
諸所有事	-11.5546
繒	-11.5546
毗鉢舍那	-11.5546
池岸	-11.5546
能自發心	-11.5546
覈	-11.5546
文相可見	-11.5546
證何境界	-11.5547
所修之行	-11.5547
為先導	-11.5547
躬	-11.5547
團	-11.5547
芳	-11.5547
有因有緣	-11.5547
一切諸法唯依妄念而有差別	-11.5548
即熏習妄心	-11.5548
戒律儀	-11.5549
隣虛	-11.5549
謂心為念	-11.5549
受持讀誦	-11.5549
以彼文中	-11.5549
皆同如故	-11.5549
師子吼	-11.5549
不可說不可念	-11.5549
為如眼識	-11.555
非心體滅	-11.555
揀濫	-11.555
離二取相	-11.555
遍計所執	-11.555
懃	-11.555
藕	-11.5551
如意足	-11.5552
戲笑	-11.5552
欠	-11.5552
隨染幻差別	-11.5552
同一覺故	-11.5552
猛風	-11.5553
考	-11.5553
所立不遣	-11.5553
九十六種	-11.5553
染淨相資	-11.5554
(43	-11.5554
故說無始無明	-11.5555
見從外來	-11.5555
敵者不許	-11.5555
念佛三昧	-11.5555
正明執相	-11.5556
此中常宗	-11.5556
與因俱	-11.5556
追求	-11.5557
阿鼻	-11.5557
象馬	-11.5557
違他順自	-11.5558
不離覺性	-11.5558
所言止者	-11.5558
得利益故	-11.5559
飲食衣服	-11.5559
卷第六	-11.556
比尼	-11.5562
(33	-11.5562
一體無異	-11.5563
師尊	-11.5563
名之為法	-11.5564
所遮	-11.5564
復次為欲顯示	-11.5564
哥	-11.5565
能忍	-11.5566
(22	-11.5566
起於大悲	-11.5566
境界滅時	-11.5569
伽羅	-11.5569
不思議佛法	-11.5569
即心不覺	-11.557
巳訖	-11.557
本來常住	-11.5572
弟	-11.5572
親里	-11.5572
亦名為量	-11.5573
四天王	-11.5573
翻云	-11.5574
無所不通	-11.5575
自受用身	-11.5575
有其二種	-11.5577
諸法實相	-11.5579
(23	-11.5579
曉了	-11.5582
梵眾	-11.5582
別記云	-11.5583
約喻	-11.5584
細微	-11.5586
嚴淨	-11.5588
兩門	-11.5589
之殊	-11.5589
下中上	-11.5589
正使	-11.559
相應不相應義	-11.5591
初坐禪人	-11.5592
滅度後	-11.5593
馳散	-11.5596
略指	-11.5597
一切異生	-11.5597
謂下中上	-11.5598
聲上無常	-11.5599
一體一心	-11.5599
居止	-11.5605
如凡夫人	-11.5606
應思	-11.561
一切皆是無常	-11.5613
中邊論	-11.5615
未亡	-11.5618
諸苾芻	-11.5622
三塗	-11.5622
比類	-11.5623
窮盡	-11.5627
以此妄心	-11.5629
當墮	-11.563
集會	-11.5634
智光明	-11.5635
皆悉具足	-11.5635
所得功德	-11.5638
國師	-11.564
意識界	-11.5641
堅住	-11.5642
我不說	-11.5643
於同品有	-11.5648
極遠	-11.5648
伹言	-11.565
次下第三	-11.565
準知	-11.5651
更無異	-11.5652
諸蓋	-11.5658
遣疑	-11.5659
平正	-11.5661
歷然	-11.5661
亦應如是	-11.5664
唯心所現	-11.5666
王聞	-11.5671
來世	-11.5672
文內有	-11.5673
標立	-11.5673
依於業識	-11.5673
領解	-11.5675
不藉	-11.5678
此中應	-11.5682
樹根	-11.5682
惡不善法	-11.5685
入第四禪	-11.5686
所述	-11.5686
均等	-11.5689
離諸過	-11.569
恩德	-11.5695
唯是真如	-11.5697
獨尊	-11.5698
直至	-11.5708
以三行	-11.5711
轉增	-11.5711
於處處	-11.5712
別所依	-11.5717
求名利	-11.5717
共量	-11.5718
得漏盡	-11.572
微苦	-11.5721
勿生	-11.5723
含識	-11.5726
此牒	-11.5726
聲亦如是	-11.5732
從因生	-11.5735
十度	-11.5737
破滅	-11.5738
理門論中	-11.5743
此正釋	-11.5746
上半	-11.5747
八風	-11.5748
染用	-11.575
又佛說	-11.5751
凡夫境界	-11.5751
十住位	-11.5752
科云	-11.5754
願樂	-11.5756
不顧	-11.5756
寶印	-11.5757
空無我等	-11.5757
不共因	-11.5762
不離心	-11.5763
莫能	-11.5764
如來根本	-11.5765
二百五十	-11.5767
計著	-11.5767
相續識滅	-11.5768
風水	-11.5778
園中	-11.5782
俱許	-11.5785
覺四相	-11.5785
信僧	-11.5786
故說無明	-11.5786
能所熏	-11.5788
始能	-11.5793
舉例	-11.5795
依分別事識	-11.5796
即是法身	-11.5798
真如之用	-11.5804
真如之理	-11.5804
結示	-11.5806
學者世間	-11.5809
前七識	-11.5824
安定	-11.5825
所表	-11.5832
第二釋	-11.5834
是第七識	-11.5835
所取相	-11.5836
取瓶	-11.5836
是故應知	-11.5839
無漏心	-11.584
無生智	-11.5841
反前	-11.5853
離二邊	-11.5854
無所分別	-11.5864
為智障	-11.5865
白毫	-11.5866
欲取	-11.5873
乃至究竟	-11.5876
死後	-11.589
初行菩薩	-11.5892
有法不成	-11.5895
假實	-11.5904
是故說名	-11.5905
人我執	-11.5906
安立門	-11.5906
名為異品	-11.5911
假我	-11.5915
於餘處	-11.5917
而說偈	-11.5917
勿令	-11.5924
有人說	-11.5926
未聞	-11.5927
宗法性	-11.593
歸三寶	-11.5931
意界	-11.594
忉利	-11.5942
皆不相應	-11.5943
正慧	-11.5948
上界	-11.5948
涯	-11.5952
破和合識	-11.5957
世出世	-11.5969
善觀察	-11.5971
同一味	-11.5973
體即真如	-11.5981
色心等	-11.5986
不念我	-11.5988
其旨	-11.5988
是生滅因	-11.599
極重	-11.5992
無分別心	-11.5995
標宗	-11.5996
以一下	-11.6
祇	-11.6007
所成法	-11.6014
具足無量性功德故	-11.6015
卵	-11.6016
妃	-11.6022
哪	-11.6023
風動	-11.6023
攀	-11.6028
說法者	-11.603
咽	-11.6033
二初標示	-11.6034
壘	-11.6034
堆	-11.6034
以是二門不相離故	-11.6034
項	-11.6035
牢獄	-11.6035
狼	-11.6035
示教利喜	-11.6035
起信論疏筆削記卷第十	-11.6035
彼中生已受用種種不善	-11.6036
能捨二乘怯弱之見	-11.6036
鎖	-11.6037
始本二覺	-11.6037
對治凡夫住著世間	-11.6037
從因至果	-11.6037
乃可	-11.6037
髻	-11.6037
倫	-11.6037
衰變	-11.6038
遍是宗法	-11.6038
<	-11.6038
朋	-11.6038
依本覺故而有不覺	-11.6038
疲極	-11.6038
嶮	-11.6039
真實識知	-11.6039
依不覺故說有始覺	-11.6039
慎	-11.6039
非後際滅	-11.6039
麤中之細	-11.6039
始不異本	-11.6039
長水沙門子璿錄	-11.604
清涼不變自在義故	-11.604
蚊	-11.604
覺知前念起惡	-11.604
於其中	-11.604
溢	-11.604
依何等人	-11.604
離見則無境界	-11.604
飽	-11.6041
非可修相	-11.6041
舉劣顯勝	-11.6041
依數列名	-11.6041
寡	-11.6041
阿毘達磨	-11.6041
萎	-11.6041
十解以上	-11.6041
士夫	-11.6041
行住坐臥	-11.6042
取色分齊	-11.6042
若止觀不具	-11.6042
誨	-11.6042
此識依見愛煩惱增長義故	-11.6042
決定常住無	-11.6042
唯是法身智相之身	-11.6042
有大智用	-11.6042
后	-11.6042
聲顯論	-11.6043
親友尊長	-11.6043
生滅與不生滅	-11.6043
尊貴	-11.6043
無明頓盡	-11.6043
]	-11.6043
此云何示	-11.6043
無自心力	-11.6043
唵	-11.6044
所謂樂念真如法故	-11.6044
跳	-11.6044
如菩薩地盡	-11.6044
欽	-11.6044
復生六種相	-11.6044
西域	-11.6045
畢竟不可說相	-11.6045
隨一攝故	-11.6045
心即常住	-11.6046
嬈	-11.6046
不稱法性	-11.6046
諂誑	-11.6047
世世	-11.6047
疲倦	-11.6047
循環	-11.6047
不出不入	-11.6047
業果不失	-11.6048
少欲知足	-11.6048
無始妄想熏	-11.6048
院	-11.6048
放大光明名	-11.6048
新坐禪人	-11.6048
當念唯心	-11.6048
皆同微塵性相	-11.6049
與外道共	-11.6049
蹔	-11.6049
瘂	-11.605
非彼相違義能遣	-11.605
五百歲	-11.6051
四大所造色	-11.6051
菴	-11.6051
対	-11.6052
苦根	-11.6052
化樂天	-11.6053
第一變中	-11.6053
廣大神王	-11.6053
門樓一	-11.6053
唯示體	-11.6053
自此巳下	-11.6054
經中所說	-11.6055
彼壽量者	-11.6056
漢	-11.6056
最極微細	-11.6056
智度論云	-11.6057
夕	-11.6057
審察	-11.6058
謂止一切境界相	-11.6058
堪忍	-11.6058
耽著	-11.6058
復次真如者	-11.6058
是生滅緣	-11.6059
恒河	-11.6059
檀越	-11.6059
嗔恚	-11.6059
吽	-11.606
如幻夢	-11.606
乃至得佛	-11.606
十七者	-11.6061
除障方便	-11.6061
激	-11.6061
黑白	-11.6062
美味	-11.6062
通而言之	-11.6063
三十七品	-11.6063
離一切苦	-11.6063
沾彌利	-11.6064
中亦同此說	-11.6065
常無斷絕	-11.6065
白疊	-11.6066
虛假	-11.6067
午	-11.6068
三大之義	-11.6068
無明所動	-11.6068
波羅提木叉	-11.6068
分明顯示	-11.6069
動作生滅	-11.6071
法我執	-11.6071
一分兩俱不成	-11.6072
寶鈴	-11.6074
生此天	-11.6075
勝負	-11.6075
澄淨	-11.6081
六粗	-11.6081
自性淨心	-11.6083
住阿蘭若	-11.6087
一切不善	-11.6087
答前問	-11.6089
犯隨一	-11.6089
若離業識	-11.6091
動相滅	-11.6092
現妄境界	-11.6093
熏習之力	-11.6098
非正因	-11.6098
老病	-11.61
即九句中	-11.6101
異品遍無性	-11.6102
報障	-11.6103
俱合	-11.6105
冒	-11.6107
犯戒	-11.6108
摩尼珠	-11.6109
增長善根	-11.611
故說為空	-11.6111
立敵俱	-11.6115
唧	-11.6117
嚴身	-11.6117
當知亦爾	-11.6117
一者覺義	-11.6118
一切諸行	-11.6119
淨法熏習	-11.6121
上轉門	-11.6123
修進	-11.6124
內路	-11.6125
熏習力	-11.6126
味著	-11.6127
病眼	-11.6128
如是多言	-11.6129
問那先	-11.613
無所少	-11.6133
根本熏習	-11.6135
來到	-11.6139
謂如實不空	-11.6141
欲使	-11.6144
手執	-11.6147
正直	-11.6148
則無不覺	-11.6149
剎土	-11.6149
正道理	-11.6149
有此過	-11.615
世出世法	-11.6152
淨潔	-11.6152
深遠	-11.6152
於佛法中	-11.6153
婆婆	-11.6153
各有二種	-11.6154
決疑	-11.6154
慮知	-11.6154
理不失	-11.6156
積聚性故	-11.6157
普照	-11.6161
不住道	-11.6164
又於此中	-11.6164
不異本覺	-11.6167
本覺佛性	-11.6168
法相觀	-11.6168
為異法喻	-11.6169
亦無有相	-11.6171
心外無	-11.6172
於己	-11.6173
為四句	-11.6174
說之為	-11.6179
大乘法體	-11.6182
摧邪	-11.6188
二十九	-11.6192
所作性等	-11.6193
更成立	-11.6193
不可盡	-11.6194
雙舉	-11.6195
立聲是常	-11.6198
法差別相違	-11.6198
千佛	-11.6199
無量莊嚴	-11.62
三十三天	-11.6206
不盜	-11.6213
四倒	-11.6215
他受用身	-11.6217
未審	-11.6217
諸過患	-11.6218
行劣	-11.622
易知	-11.6224
有中間有	-11.6224
花果	-11.6225
受記	-11.6227
無相違過	-11.6227
燈明	-11.6231
如何者是	-11.6233
相違不定	-11.6235
斷善根	-11.6236
心不亂	-11.6236
惠施	-11.6238
能招	-11.6241
復次若人	-11.6241
有實體	-11.6243
動靜不一	-11.6245
不相應心滅	-11.6245
定心緣	-11.6247
尊勝	-11.6249
空界	-11.625
即是真心	-11.625
前中言	-11.6254
習熏	-11.6254
覺觀滅	-11.6256
住著	-11.6257
癡暗	-11.626
聖眾	-11.6262
論旨	-11.6264
六句義	-11.6268
釋本文	-11.628
不可言說	-11.6282
曾無	-11.6283
有四義	-11.6283
四威儀	-11.6287
倍增	-11.6289
▁No	-11.6294
諸賢聖	-11.63
如是展轉	-11.6301
多羅樹	-11.6303
陳疑	-11.6305
界外	-11.6309
見烟	-11.6309
覺體相	-11.631
百六十	-11.6313
指體	-11.6319
俱不違	-11.6325
曾有	-11.6326
行列	-11.6329
經中作如是說	-11.6332
即說偈	-11.6335
治惑	-11.6339
有不定過	-11.6339
不煩	-11.6346
亦隨滅	-11.6348
修一切善	-11.635
直就	-11.6352
一面	-11.6354
一切皆悉	-11.6355
自立義	-11.6357
小事	-11.6363
不相離義	-11.6366
中之一	-11.6369
根力	-11.6374
識蘊	-11.6376
增數	-11.6382
有何義	-11.6384
皆無自體	-11.6385
十年	-11.6395
同一體	-11.6399
大乘集菩薩學論卷第	-11.6399
計執	-11.64
十事	-11.6402
隨風	-11.6405
無二相故	-11.6416
故名為空	-11.6417
故略不	-11.6417
能順	-11.6435
彼經又	-11.6455
彌陀	-11.6456
入如來地	-11.646
大聖	-11.6471
後總結	-11.6475
施物	-11.6482
第三結	-11.6493
離色等	-11.6498
後段	-11.6499
珠寶	-11.6502
亦有三種	-11.6502
弓	-11.6502
空無邊入	-11.6504
從心生	-11.6504
下釋所以	-11.6505
初總釋	-11.6521
妬	-11.6528
教示	-11.6531
歡	-11.6542
昔時	-11.6549
自許之言	-11.6553
黎	-11.6554
非想非非想	-11.6555
叫喚	-11.6555
善法堂	-11.6559
是故此光名	-11.6559
何等外道說	-11.6559
晦	-11.656
紺	-11.6561
發阿耨多羅三藐三菩提心	-11.6561
剪	-11.6562
亦名分離識	-11.6562
能立法不成	-11.6563
如來在世	-11.6563
親承供養	-11.6563
能化教法出興門	-11.6564
窮未來際	-11.6564
欲求無上菩提	-11.6564
入正位	-11.6564
四寶所成	-11.6564
即心不覺常無別異	-11.6565
脈	-11.6565
抱	-11.6565
亦無有相可取	-11.6565
而顯現故	-11.6566
兜率陀天	-11.6566
綺	-11.6566
苞	-11.6566
躁	-11.6566
重罪業障	-11.6567
略不別釋	-11.6567
菩	-11.6567
以如來藏無前際故	-11.6567
則無能入菩提之道	-11.6567
欲求正信	-11.6567
風所吹	-11.6567
終無有退	-11.6568
初發意菩薩等	-11.6568
顛	-11.6568
依名辨相	-11.6568
產	-11.6568
賓頭盧	-11.6568
不依文字	-11.6569
如初廣說	-11.6569
當勤正念	-11.6569
唯依妄念而有差別	-11.6569
鼻舌身	-11.6569
為欲總攝如來廣大深法無邊義故	-11.6569
鞭杖	-11.657
殑伽沙數	-11.657
雖復名覺	-11.657
由宗因喻多言	-11.657
非真識知	-11.657
淳淨明故	-11.657
檢	-11.657
陣	-11.6571
籠	-11.6571
似因似喻	-11.6571
謂不如實知真如法一故	-11.6572
謂若為修彼止輪門	-11.6572
拍	-11.6572
若心起見	-11.6572
狹劣	-11.6572
禮懺	-11.6573
無始有終	-11.6573
饒	-11.6573
無明力不覺心動	-11.6573
彩	-11.6574
給侍	-11.6574
依此法身說名本覺	-11.6574
得入如來種性	-11.6574
瑕	-11.6574
▁初偈頌	-11.6574
心非動性	-11.6574
常與無常	-11.6574
依本修治	-11.6575
排	-11.6575
阿鼻地獄	-11.6575
悶絕	-11.6575
無想天	-11.6575
祕藏	-11.6575
增長取熏習	-11.6575
十卷經云	-11.6575
亦無色相可見	-11.6576
駕	-11.6576
各攝一切法	-11.6576
攻	-11.6576
為明無明	-11.6576
必為他用	-11.6576
問答釋疑	-11.6576
覧	-11.6576
裁	-11.6577
奉詔譯	-11.6577
茶	-11.6577
支節	-11.6578
帛	-11.6578
俯	-11.6578
密嚴	-11.6578
二十五諦	-11.6579
揣食	-11.6579
此即初門	-11.6579
重擔	-11.658
和南	-11.658
契經異說	-11.658
矯	-11.658
發大慈悲	-11.6581
童女	-11.6581
似同	-11.6581
同無異有	-11.6581
阿彌陀佛	-11.6581
得泥洹道	-11.6582
謂若是常	-11.6583
所言觀者	-11.6583
能依別相	-11.6584
廣百論	-11.6586
是故不應	-11.6586
隱密	-11.6587
穢土	-11.6587
八種識	-11.6587
總括	-11.6588
▁二長行	-11.6588
無體可得	-11.6588
心性不起	-11.6589
種種妄執	-11.6589
寶雲經	-11.6589
〔	-11.659
暮	-11.659
夜摩天	-11.6592
周圓	-11.6592
狂亂	-11.6592
瓶衣	-11.6592
同品一分轉	-11.6593
神通力	-11.6595
雖有染心	-11.6595
是猶豫因	-11.6596
造諸惡	-11.6597
依境界緣	-11.6597
汝所說	-11.6597
父子	-11.6598
二十六	-11.6601
王復言	-11.6601
同鏡	-11.6602
修習善根	-11.6606
乃至總說	-11.6608
圓備	-11.661
固知	-11.6611
委釋	-11.6612
尚不能	-11.6612
有為自在	-11.6612
廣狹	-11.6617
性真如理	-11.6618
釋曰後解釋	-11.6618
名分別事識	-11.6619
深淺	-11.6621
普徧	-11.6623
四種信心	-11.6624
後五三	-11.6624
寂照	-11.6625
不恭敬	-11.6626
二者不覺義	-11.6628
染淨二法	-11.6629
無想定	-11.6631
未離欲	-11.6631
真實不空	-11.6632
如立聲是無常	-11.6632
法門海	-11.6638
信業果報	-11.6639
今此亦爾	-11.6643
終日	-11.6644
大智慧光明義等	-11.6644
瑜伽論說	-11.6644
生愛樂	-11.6645
是義已	-11.6646
聲是常	-11.6649
雙遣	-11.665
說法要	-11.6653
外路	-11.6656
何等是	-11.6659
本覺般若	-11.666
終不得	-11.666
發心之相	-11.6661
如文可見	-11.6664
隨自意	-11.6664
老苦	-11.6664
不定相違	-11.6667
繫念	-11.6667
且就	-11.6668
依一心法	-11.6669
始覺之智	-11.667
受蘊	-11.6671
無慚	-11.6673
大乘集菩薩學論卷第十	-11.6673
相續滅	-11.6676
於中有四	-11.6678
進入	-11.6678
種種諸惡	-11.6679
具陳	-11.6681
下釋相	-11.6681
如說修行	-11.6681
功德過患	-11.6686
順流	-11.6699
瓶無常	-11.67
深理	-11.6702
略去	-11.6704
波動	-11.6706
則無境界	-11.6707
不一義	-11.671
將來	-11.6712
菩提分法	-11.6718
離分別相	-11.672
有二類	-11.6726
望他	-11.6727
諸有為法	-11.6727
所證理	-11.6728
佛及菩薩	-11.6732
宿業	-11.6734
無有彼此	-11.6735
為能量	-11.674
斷不斷	-11.6743
所制	-11.6744
當如何	-11.6745
復次戒有	-11.675
止持	-11.6752
然據	-11.6757
諸馬	-11.6759
本自無	-11.676
何以知	-11.6762
相應不離	-11.6766
違現量	-11.677
總標門	-11.6774
女色	-11.6776
緣現在	-11.6785
如師子	-11.6786
之辭	-11.6788
六月	-11.679
是故佛說	-11.6796
隨染緣	-11.6799
調身	-11.6801
置自許	-11.6802
外熏	-11.6805
諸法自相	-11.6805
不可愛	-11.6815
諸佛子	-11.682
冷熱	-11.6825
為實有	-11.683
藏總攝	-11.6833
無法不	-11.6834
入所攝	-11.6843
增長念	-11.6845
恐人	-11.6846
皆依此	-11.685
冥熏	-11.686
不應分別	-11.6868
文持	-11.6873
眾生利根	-11.6875
當獲	-11.6877
首楞嚴	-11.6877
先師	-11.6878
旨趣	-11.688
真如淨法	-11.6885
細念	-11.6894
所尊	-11.6899
便違	-11.6904
不可斷	-11.6905
大地獄	-11.6917
下別明	-11.6923
厭苦	-11.6934
情器	-11.6938
所受用	-11.6947
有煖	-11.6951
諸龍	-11.6969
天壽命	-11.6973
鏡像	-11.6981
於菩薩所	-11.6984
速證	-11.6985
是事已	-11.6989
肯	-11.6991
生盲	-11.6999
此則約	-11.7002
分別法執	-11.7004
萬歲	-11.7009
次別釋	-11.7014
彼有情	-11.7028
無量百千	-11.7029
祇數	-11.7036
美妙	-11.7038
隨一所依不成	-11.7043
千億	-11.7043
似因智	-11.7044
諸眷屬	-11.705
若為造作	-11.7063
如大海水	-11.7065
能測	-11.7075
s	-11.7082
不可遣	-11.7091
贍部	-11.7096
无	-11.71
臍	-11.7101
文可解	-11.7105
寶性論	-11.7108
一法界大總相法門體	-11.711
矛	-11.7111
貲	-11.7112
阿耨	-11.7113
赤鐵	-11.7114
斤	-11.7114
初發心菩薩	-11.7114
瓦	-11.7115
此生中	-11.7116
修習二禪	-11.7116
勇悍	-11.7116
諾	-11.7116
隨事攀緣	-11.7116
二演義疏文	-11.7117
狐	-11.7117
無常苦空無我	-11.7117
辱	-11.7117
丘龍	-11.7117
雪	-11.7117
離言絕慮	-11.7119
令諸眾生正解不謬故	-11.7119
婬女	-11.7119
信滿入住	-11.7119
抧	-11.7119
殿堂	-11.7119
速趣涅槃	-11.7119
禽獸	-11.7119
有覺有觀	-11.712
所謂依不定聚眾生	-11.712
掩	-11.712
羞	-11.712
其旨趣者	-11.7121
即智名果	-11.7121
謂言說之極	-11.7121
童	-11.7121
轉彼淨心	-11.7121
醒	-11.7121
非可作相	-11.7121
蠅	-11.7121
無發悟	-11.7121
如有成立聲是無常	-11.7122
牢固	-11.7122
更無所念	-11.7123
閙	-11.7123
識無邊入	-11.7123
茂	-11.7123
唯是其空	-11.7123
非其實退	-11.7123
u	-11.7123
以始覺者即同本覺	-11.7123
陀尼	-11.7123
以依動故能見	-11.7123
▁166	-11.7124
【△	-11.7124
效	-11.7124
三寶之海轉廣大故	-11.7124
絲	-11.7124
所言不空者	-11.7124
津	-11.7124
攝眾生戒	-11.7124
阿闍世王	-11.7124
與種種善法	-11.7124
心起著故	-11.7125
遠離微細念	-11.7125
以不達一法界故	-11.7125
若心有起	-11.7125
為令善根成熟眾生	-11.7125
雖實有此諸功德義	-11.7126
筋骨	-11.7126
不了真如法故	-11.7126
眉	-11.7126
那由他	-11.7126
循	-11.7126
具足無漏性功德故	-11.7126
不可窮盡	-11.7127
亦非業繫	-11.7127
以現烟故	-11.7127
發揮	-11.7127
未經一萬劫	-11.7127
能攝一切法生一切法	-11.7127
忿怒	-11.7127
往復除疑	-11.7128
初地巳上	-11.7128
以有如是大方便智	-11.7128
皆從心起	-11.7128
隨所示現	-11.7128
本來平等同一覺故	-11.7128
癰	-11.7129
厥	-11.7129
通是宗法性	-11.7129
徧照法界義故	-11.7129
外緣之力	-11.7129
枉	-11.7129
說名智身	-11.7129
珂	-11.7129
對此義故	-11.7129
豁	-11.713
喧動	-11.713
自性無生	-11.7131
三結成	-11.7131
鼠	-11.7131
懸敘	-11.7131
謹	-11.7131
見本法身	-11.7131
且止斯事	-11.7131
若得無念者	-11.7131
側	-11.7131
令修善根	-11.7132
結觀分齊	-11.7132
撮	-11.7132
常樂我淨義故	-11.7132
諸所作者	-11.7133
嬉戲	-11.7133
所餘法門	-11.7133
阿迦尼吒天	-11.7133
達磨	-11.7133
同體智力	-11.7133
無有少法	-11.7134
無事處	-11.7134
勸請隨喜	-11.7134
怙	-11.7134
善根成熟	-11.7134
毘曇	-11.7134
名聞利養	-11.7134
乃至不依見聞覺知	-11.7135
以有妄境界染法緣故	-11.7135
遵	-11.7135
(44	-11.7135
躍	-11.7135
從業生	-11.7135
住持苦樂	-11.7136
三事和合	-11.7136
似同法喻	-11.7136
爽	-11.7136
剝	-11.7136
饑	-11.7136
喘息	-11.7137
地獄餓鬼畜生	-11.7137
故彼文云	-11.7137
景	-11.7137
抄	-11.7137
英	-11.7137
闇鈍	-11.7138
嗟	-11.7138
歡樂	-11.7138
自性清淨心義故	-11.7138
掘	-11.7138
八萬由旬	-11.7139
群品	-11.714
求不得苦	-11.714
之虫復有	-11.7141
屏	-11.7142
故無有斷	-11.7142
疎遠	-11.7142
二初結指二	-11.7142
巧妙	-11.7144
作善惡	-11.7144
得無分別心	-11.7144
無明緣行	-11.7145
塗香	-11.7145
敏	-11.7145
二初標門	-11.7145
漸漸修習	-11.7145
照察	-11.7145
醫師	-11.7145
無明為緣	-11.7147
無量功德藏	-11.7148
恭敬供養	-11.7148
放光明	-11.715
奘師	-11.7151
人天二乘	-11.7152
得人身	-11.7152
分為四	-11.7152
過河沙	-11.7152
▁初問起	-11.7153
飯食	-11.7153
久久	-11.7153
何過耶	-11.7155
同異二喻	-11.7156
𡁠	-11.7156
通能所	-11.7157
初發心時	-11.7159
釋曰後徵釋	-11.7161
第二中言	-11.7163
精神	-11.7163
劫中間	-11.7164
調順	-11.7164
十二支法	-11.7167
此等皆是	-11.7171
現在世	-11.7171
文繁	-11.7173
訥	-11.7173
勝利	-11.7174
第六意識	-11.7176
故說為用	-11.7177
二門不二	-11.7178
無明則滅	-11.718
無畏施	-11.718
其心平等	-11.7183
於本論中	-11.7184
順益	-11.7184
更有何	-11.7184
馬鳴菩薩造	-11.7185
住世	-11.7186
論中說	-11.7187
巘尼	-11.7187
教勅	-11.719
名為退分	-11.7191
約別義	-11.7191
論主答	-11.7192
利樂眾生	-11.7192
摧伏	-11.7197
相應不斷故	-11.7204
冥合	-11.7205
就此門中即有二	-11.7206
示大乘體	-11.7207
中唯釋	-11.7208
不思議業用	-11.7209
分限	-11.721
智生因	-11.7211
憂根	-11.7219
諸城門	-11.7224
而有所說	-11.7224
所知境	-11.7229
能仁	-11.7232
護戒	-11.7234
忽起	-11.7244
舍利弗等	-11.7245
並可知	-11.7252
開二種門	-11.7256
師曰	-11.7256
是故我今	-11.7258
那婆	-11.726
剡浮提人	-11.7265
常無常等	-11.7268
止惡	-11.727
能摧	-11.7272
月二十	-11.7273
舉足	-11.7274
一異等	-11.7274
修萬行	-11.7275
從他聞	-11.7279
以二行	-11.7282
聲是所作	-11.7283
戒學	-11.7284
深重	-11.7289
三如是下	-11.7289
覺不覺義	-11.7291
深著	-11.7293
修諸善	-11.7294
故名為藏	-11.73
寬宗	-11.7301
即起下	-11.7305
修習止觀	-11.7309
三辨相	-11.7309
有二初總	-11.731
第一重	-11.731
名為業相	-11.7315
變易生死	-11.7318
何須更	-11.7322
無明義者	-11.7322
數習	-11.7329
質直	-11.7333
習近	-11.7336
一切心識	-11.7337
於是中	-11.7338
二乘之人	-11.7339
所至處	-11.734
不共無明	-11.7342
燒木	-11.7347
得無生忍	-11.7352
契證	-11.7355
力士	-11.7355
普現	-11.7356
為伴	-11.7356
一切三寶	-11.736
權智	-11.737
宣梵大師賜紫沙門臣日稱等奉詔譯	-11.7371
一一根	-11.7375
百餘	-11.7378
妙香	-11.7383
謂於前	-11.7384
十五日	-11.7385
推其	-11.7396
因緣所起	-11.7401
能出生	-11.7402
敵者智	-11.7412
無常之宗	-11.7424
百八	-11.7426
對辨	-11.7427
恒沙德	-11.7428
一切諸佛菩薩	-11.7435
十行位	-11.7436
近住	-11.7436
十界	-11.7446
僧伽	-11.7462
讀之	-11.7468
三賢位中	-11.7472
非有性	-11.7478
不懈	-11.7484
若菩薩摩訶薩	-11.7484
敬三寶	-11.7486
了自心	-11.7488
有二分	-11.749
能生長	-11.7493
後之二	-11.7494
結前生後	-11.7502
真比量	-11.7502
得無分別智	-11.7505
不一不異	-11.7506
內凡	-11.7508
偈中	-11.751
施食	-11.7518
得一切智	-11.7518
王宮	-11.752
準上	-11.7522
如意寶	-11.7526
俱絕	-11.7527
能斷煩惱	-11.7527
失壞	-11.7541
法華經	-11.7544
依信力	-11.7547
計度	-11.7549
離絕	-11.755
極微細	-11.755
生淨信	-11.7556
既不許	-11.7557
三昧力	-11.7562
無邊識	-11.7562
ṃ	-11.7563
細惑	-11.7576
諸佛所證	-11.7584
胎藏	-11.7587
諸大眾	-11.761
所現境界	-11.7611
敵證智	-11.7615
躡	-11.762
有通別	-11.7623
且舉	-11.7626
能燒	-11.7631
更增	-11.7634
因云所作性故	-11.7636
慧命	-11.7638
不定及相違	-11.7641
火焰	-11.7644
諸法唯心	-11.7653
長水	-11.7657
一切煩惱皆	-11.7659
相應不相應	-11.7666
佛果位	-11.7667
如來滅後	-11.768
賢位	-11.7681
別配	-11.7691
酢	-11.7692
為無明所染	-11.7694
林樹	-11.7694
三不善根	-11.7695
身肉	-11.7696
不住見相	-11.7696
此岸	-11.7698
二唱本作釋	-11.7699
修念死	-11.7701
無始世來	-11.7701
坐禪人入寂寂	-11.7703
故受之以	-11.7703
放光	-11.7704
始本不二	-11.7704
聲聞獨覺地	-11.7704
以五事治五事	-11.7705
眾寶莊嚴	-11.7705
鞞	-11.7705
釋曰後釋文有二初	-11.7706
於義異轉	-11.7706
於汝意云何	-11.7707
遠離凡夫不修善根	-11.7707
覺異相	-11.7707
好醜	-11.7707
是故此義唯佛能知	-11.7708
不覺念起現妄境界	-11.7708
火所燒	-11.7708
亦如耳璫眾寶	-11.7709
以說不究竟	-11.7709
▁【【	-11.771
此真如體無有可遣	-11.771
顯法體空無妄故	-11.771
嬰	-11.771
擣	-11.7711
智度論	-11.7711
炳	-11.7711
答後問	-11.7711
買	-11.7711
於色究竟處	-11.7711
復次眾生初學是法	-11.7711
而亦即念性不可得	-11.7711
覺心初起心無初相	-11.7711
纓絡	-11.7712
俱非絕離	-11.7712
hā	-11.7712
此意復有五種名	-11.7712
背覺合塵	-11.7712
妄取涅槃	-11.7712
智相相續相	-11.7713
此非心識分別能知	-11.7713
菩薩發是心故	-11.7713
二初問起二答釋二初偈頌	-11.7713
沖	-11.7713
以阿羅漢道	-11.7713
哀愍	-11.7713
海東疏	-11.7713
能見心不相應染	-11.7713
澤	-11.7713
妄與法違	-11.7713
栖	-11.7713
厭生死苦樂求涅槃	-11.7714
非是水滅	-11.7714
揆	-11.7714
遠離一切心境界相	-11.7714
毘盧遮那	-11.7714
則名不空	-11.7714
不了一法界義者	-11.7714
未至心源	-11.7714
勸修利益	-11.7714
無因無果	-11.7714
▁167	-11.7714
撫	-11.7715
棄擲	-11.7715
眾生依心意意識轉	-11.7715
棘	-11.7715
若得淨心	-11.7715
藤	-11.7715
慨	-11.7715
忽然念起	-11.7715
發何等心	-11.7715
使人愛著	-11.7716
不覺念起	-11.7716
脣	-11.7716
未入正位	-11.7716
囊	-11.7716
懃勇	-11.7716
舞	-11.7716
璃	-11.7716
智淳淨故	-11.7716
斷命品	-11.7716
由不共故	-11.7717
緊	-11.7717
苦樂等報	-11.7717
心性離見	-11.7717
一心本法	-11.7717
一隅	-11.7717
非智非識	-11.7717
依覺有不覺	-11.7717
彼諸部見	-11.7717
自信巳性	-11.7717
識名色六入觸受	-11.7718
舉益勸修	-11.7718
若風止滅	-11.7718
所言法者謂眾生心	-11.7718
習種性	-11.7718
引教證	-11.7718
令行十善	-11.7719
當知真如自性	-11.7719
礦	-11.7719
迦旃延	-11.7719
前後無量差別	-11.7719
惛	-11.772
懶	-11.772
非非有相非非無相	-11.772
檀波羅蜜	-11.7721
厭捨	-11.7721
南北	-11.7721
此亦不爾	-11.7721
自信己性	-11.7721
則有淨用	-11.7722
妄取境界	-11.7722
所立法不成	-11.7722
須臾頃	-11.7722
戰鬪	-11.7722
俱生法執	-11.7722
若無明斷	-11.7722
藝	-11.7723
與體相應	-11.7723
踰繕那	-11.7723
慰	-11.7723
令其念著	-11.7723
已生已得	-11.7723
學無學	-11.7724
下答有二	-11.7724
亦不怯弱	-11.7725
以有真如法故	-11.7725
離於妄見	-11.7725
添	-11.7725
顯照諸法	-11.7726
能入所入	-11.7726
無明迷故	-11.7726
徧是宗法性	-11.7726
驢	-11.7726
如世尊說	-11.7727
馬鳴大士	-11.7727
▁初標示	-11.7727
神足	-11.7727
輿	-11.7728
臨命終時	-11.7728
求索	-11.7729
司	-11.7729
不覺起念	-11.7729
以依轉識說為境界	-11.7729
庸	-11.7729
毛頭	-11.7729
唯一心在	-11.7731
忽爾	-11.7731
由彼為因	-11.7731
無所不當	-11.7732
復次真如用者	-11.7733
向佛智	-11.7733
能生一切染法	-11.7733
輕慢	-11.7734
餘文可知	-11.7735
貪等煩惱	-11.7735
如實了知	-11.7736
譬如瓦器	-11.7736
圓圓海	-11.7736
涅	-11.7738
在家菩薩	-11.7738
似宗因喻	-11.7739
威力	-11.7739
校量	-11.7739
菩提之道	-11.7739
像時中	-11.774
窮源	-11.7741
臨終	-11.7741
遠離誹謗	-11.7741
發露	-11.7742
承事供養	-11.7742
三細六麁	-11.7742
形容	-11.7743
囑	-11.7743
受大苦	-11.7744
覺樂等	-11.7745
畔	-11.7745
求死不	-11.7746
獲益	-11.7748
法門名字	-11.7749
加護	-11.775
三無數劫	-11.7751
亦應爾	-11.7753
現識亦爾	-11.7757
得他心智	-11.7759
寅	-11.776
南山	-11.776
金光明經	-11.776
勤発	-11.7762
伎樂	-11.7764
坐禪	-11.7766
正宗分	-11.7767
有四種大義	-11.7768
憶持	-11.7769
迦葉佛	-11.7769
所謂六塵	-11.7769
一箇	-11.777
含二義	-11.7771
妙好	-11.7773
皆無常故	-11.7777
詳明	-11.7783
釋曰後指	-11.7786
身猗	-11.7788
損他	-11.7789
百弓	-11.779
雜集	-11.779
依於境界	-11.7791
樂不樂	-11.7792
無不覺故	-11.7795
菩提之法	-11.7797
是假名有	-11.7799
其狀	-11.7801
風輪	-11.7802
五枝	-11.7803
有漏無漏	-11.7804
是名為六	-11.7804
偏執	-11.7805
自下明	-11.7811
兩俱全分	-11.7812
非一義	-11.7813
唯識論云	-11.7815
則不復	-11.7815
無垢地	-11.7818
四洲	-11.7819
即是一法界	-11.782
如意珠	-11.7822
何勞	-11.7823
終盡	-11.7824
五神通	-11.7829
俱泯	-11.7832
能觀人	-11.7833
益物	-11.7835
名正定聚	-11.7844
壞失	-11.7845
釋曰後依門	-11.7846
偏舉	-11.7848
間地	-11.7849
為如瓶等	-11.7851
亦得成	-11.7855
隨自樂	-11.7861
能救	-11.7862
汝法中	-11.7864
通為一	-11.7868
未入十信	-11.7869
判云	-11.787
往復	-11.7872
兩字	-11.7876
一向生滅	-11.7884
麁惡	-11.7884
如薩婆多	-11.7886
無妄染	-11.7888
根源	-11.7891
覺生相	-11.7891
業識熏習	-11.7892
地獄苦	-11.7907
段論文	-11.7914
純一	-11.7922
更有餘	-11.7925
巧便	-11.7927
于時	-11.7928
五十四	-11.7931
佛法不許	-11.7939
禪枝	-11.7943
修三昧	-11.7947
共同品	-11.7949
而實無	-11.7954
心與無明	-11.7973
糞穢	-11.7974
別釋散說	-11.7974
不知不覺	-11.7975
令歡喜	-11.7981
有實德業	-11.7999
惡業障	-11.8009
小乘教	-11.8017
答中有二	-11.8022
諸異生	-11.8035
阿羅	-11.8035
書本	-11.8043
四段	-11.8051
意所許	-11.8066
復次以下	-11.8082
能制	-11.809
俗門	-11.809
勝論立	-11.8096
趣菩提	-11.8096
修善行	-11.8096
別列	-11.8099
逮	-11.8103
ta	-11.811
方圓	-11.8114
此真如體	-11.8116
二列釋	-11.8122
量所量	-11.8125
空無所有	-11.8127
喜足	-11.8129
無生忍	-11.8133
散動	-11.815
二初標列	-11.8151
所不及	-11.8152
夢覺	-11.8164
魔鬼	-11.8178
醫藥	-11.8179
增上業	-11.818
心之生滅	-11.8186
日照	-11.8189
一切法無我	-11.8189
且據	-11.8198
五種位	-11.8198
無後際	-11.8199
生滅之心	-11.8199
增進	-11.8206
前六識	-11.8219
入正定	-11.8223
生牙	-11.8231
積聚性	-11.8244
和上	-11.8246
前後差別	-11.8258
有法之上	-11.8278
大智慧光明	-11.8284
法之自相	-11.8285
潤業	-11.8285
非宗過	-11.8295
兜率	-11.8306
愛取有	-11.8312
無實體	-11.8313
水非動性	-11.8313
胝	-11.8313
雌	-11.8315
渚	-11.8316
毘佛略	-11.8316
慈悲喜捨	-11.8318
淨居天	-11.8319
不善律儀	-11.8321
踊	-11.8322
三巳說下	-11.8323
釋提桓因	-11.8324
乃至小罪	-11.8325
費	-11.8325
非根覺	-11.8325
閻羅	-11.8326
能起厭苦之心	-11.8326
歇	-11.8327
嘶	-11.8327
報化色	-11.8327
訶梨跋摩造姚秦三藏鳩摩羅什譯	-11.8327
羼提	-11.8327
感彼中生	-11.8328
兇	-11.8328
㖡	-11.833
床座	-11.833
牧	-11.833
細中之麤	-11.833
債	-11.833
真如體相	-11.833
咽喉	-11.8331
則知法界一相	-11.8331
能成此信	-11.8332
種種雕	-11.8332
以同體智力故	-11.8332
皆離此因	-11.8332
惓	-11.8332
即是眾生外緣之力	-11.8332
略說信心有四種	-11.8332
悲鳴	-11.8332
能生一切世間出世間善因果故	-11.8333
或學他發心	-11.8333
逃	-11.8333
若無人知	-11.8333
謂一切法真如平等不增減故	-11.8333
依諸凡夫取著轉深	-11.8333
一心者名如來藏	-11.8333
以依能見故境界妄現	-11.8333
以阿那含道	-11.8333
洛叉	-11.8333
七重寶	-11.8333
言真如者亦無有相	-11.8333
先宗後因	-11.8334
削	-11.8334
則有過恒沙等諸淨功德相義示現	-11.8334
隔檀	-11.8334
難行苦行	-11.8334
約體絕相	-11.8334
身語意	-11.8334
依於動心能見相故	-11.8334
當護譏嫌	-11.8334
諳	-11.8334
猶如迷人	-11.8334
篋	-11.8335
諸聖人	-11.8335
雞	-11.8335
雄	-11.8335
修何等行	-11.8335
當念身自性	-11.8335
離名種等所有分別	-11.8335
又以覺心源故	-11.8336
染心者有六種	-11.8336
壯	-11.8336
鋒	-11.8336
疲勞	-11.8336
皆各總攝	-11.8336
修唯識觀	-11.8336
鬚髮	-11.8336
匠	-11.8336
f	-11.8336
ḍ	-11.8336
從微至著	-11.8336
不須重釋	-11.8336
少分而見	-11.8336
皆應止觀俱行	-11.8336
此用有二種	-11.8337
以真如自在用義故	-11.8337
是現識因	-11.8337
依方故迷	-11.8337
非空決定住法	-11.8337
梯	-11.8337
逗	-11.8337
以隨順法性無斷絕故	-11.8338
對至即現	-11.8338
貪嗔	-11.8338
四如意足	-11.8338
虛偽	-11.8338
游戲	-11.8338
自性清淨心因無明風動	-11.8338
則有不見之相	-11.8338
漚	-11.8338
即得隨順入真如門	-11.8338
至心源時	-11.8338
若因滅則緣滅	-11.8338
麁中之細	-11.8338
隨無明緣	-11.8339
無明之相亦無有始	-11.8339
寶𠕋	-11.8339
斯之謂也	-11.8339
歸敬述意	-11.8339
如虛空明鏡	-11.8339
衢	-11.8339
沼	-11.8339
嗢	-11.8339
離心則無六塵境界	-11.8339
自然歸順真如法故	-11.8339
唯如來能知故	-11.8339
良藥	-11.8339
若心滅者云何相續	-11.8339
假名為	-11.8339
云何熏習起淨法不斷	-11.834
念無自相不離本覺	-11.834
復次覺體相者	-11.834
若從坐起	-11.834
儀式	-11.834
依心自在地能離故	-11.834
孫	-11.834
修諸福德	-11.8341
所謂能現一切境界	-11.8341
離和合相	-11.8341
此阿梨耶識當何決擇	-11.8341
誦經門	-11.8341
肝	-11.8341
寶塹	-11.8341
輕賤	-11.8341
以念相應不斷故	-11.8341
陽焰	-11.8341
不知轉識現故	-11.8342
又令使人	-11.8342
止觀雙運	-11.8342
修諸波羅蜜	-11.8342
知心妄動無前境界	-11.8342
歸命盡十方	-11.8342
斬	-11.8342
具示三大	-11.8342
以熏習因緣力故	-11.8342
復次生滅因緣者	-11.8342
情有理無	-11.8342
眾緣和合	-11.8342
燒煮	-11.8343
訶責	-11.8343
善不善無記	-11.8343
若離於念	-11.8343
奚	-11.8343
佛告阿難	-11.8343
得見心性心即常住	-11.8343
▁初摽	-11.8343
遽	-11.8343
芬	-11.8344
艱	-11.8344
所言不覺義者	-11.8344
髀	-11.8344
四卷經	-11.8344
之虫名	-11.8344
汗	-11.8344
心無懈怠	-11.8344
器仗	-11.8345
康	-11.8345
額	-11.8345
佛在世	-11.8345
如攝論云	-11.8345
六七二識	-11.8345
摸	-11.8345
衛世師	-11.8345
佛告文殊師利	-11.8345
罵辱	-11.8346
洪	-11.8346
較	-11.8346
暗鈍	-11.8346
若於是處	-11.8346
則有染相	-11.8346
二乘觀智	-11.8346
覲	-11.8346
照了	-11.8347
脩行信心	-11.8347
能熏習無明	-11.8347
漸漸微薄	-11.8347
古德云	-11.8347
羯	-11.8347
嵐	-11.8347
無前境界	-11.8347
陸	-11.8347
卷第九	-11.8347
烈	-11.8348
貧賤	-11.8348
入滅盡定	-11.8348
常不休廢	-11.8348
攝末歸本	-11.8348
滌	-11.8349
是人住下品	-11.8349
娛樂	-11.8349
涼	-11.8349
棄背	-11.835
醫王	-11.835
非實非德非業	-11.835
由不異故	-11.835
端坐正意	-11.835
最上授所問經	-11.835
妙高	-11.8351
經多劫	-11.8351
受具足戒	-11.8351
唾	-11.8351
無上大覺	-11.8351
心自在地	-11.8352
糞掃衣	-11.8352
問訊	-11.8352
若離心念	-11.8352
靈鑒	-11.8353
其體皆同	-11.8353
隨順奢摩他觀義故	-11.8353
神力自在	-11.8353
此玄文本論亦復如如是若有眾生類	-11.8354
夜摩	-11.8354
猶如明鏡	-11.8354
此說是為	-11.8355
臘	-11.8355
炎熱	-11.8356
是正念者	-11.8356
立敵俱許	-11.8356
逆風	-11.8357
皮持	-11.8357
転	-11.8357
次說立義分	-11.8358
畢竟空寂	-11.8358
六百年	-11.8359
何等信心	-11.8359
十二緣生	-11.8359
三者境界相	-11.8359
依於名字	-11.8359
往來生死	-11.8359
替	-11.836
外別無	-11.8361
豈容	-11.8361
而得成立	-11.8361
頓漸	-11.8362
唯有如如	-11.8362
依諸凡夫	-11.8363
勝鬘經云	-11.8365
顯因同品	-11.8365
長者子	-11.8366
目之為	-11.8366
顏色	-11.8367
慈雲	-11.8367
」《	-11.8368
俱無形相	-11.8369
毀壞	-11.8369
於其中間	-11.8369
奉施	-11.8369
因明正理	-11.837
凡聖染淨	-11.837
便成正覺	-11.837
生他解	-11.8371
穢惡	-11.8372
復次覺與不覺	-11.8372
城邑	-11.8372
螫	-11.8372
辣	-11.8376
第一心也	-11.8376
久習	-11.8376
帶質	-11.8376
志求	-11.8378
與彼不覺	-11.8379
住胎	-11.838
喜悅	-11.8381
謂若所作	-11.8381
如是略說名	-11.8382
染淨等法	-11.8383
」「	-11.8383
厨	-11.8385
豈況	-11.8393
盡不盡義	-11.8397
細尋	-11.8399
五十位	-11.8402
魔羅	-11.8405
自然常住	-11.8406
師資	-11.8406
所依總相	-11.8407
而不覺知	-11.8407
無和合義	-11.8408
喝	-11.8409
赤色	-11.8411
是喻過	-11.8412
下轉門	-11.8413
疑情	-11.8418
金寶	-11.8418
大恩	-11.8418
應得罪	-11.8421
第七句	-11.8421
獨影	-11.8422
若有若無	-11.8425
無所不作	-11.8427
次釋第二	-11.8428
雙標	-11.8429
釋意轉	-11.843
分段變易	-11.843
邪思惟	-11.8432
自然熏習	-11.8434
發是心	-11.8435
器界	-11.8435
本性清淨	-11.8449
無明滅時	-11.8452
知他心	-11.8453
七種識	-11.8457
至不至	-11.8457
修般若波羅蜜多	-11.846
非無因	-11.8463
二利行	-11.8465
攝世間法	-11.8466
神眾	-11.8468
師主	-11.8475
法如是故	-11.8478
本末不覺	-11.8479
念念分別	-11.8482
周盡	-11.8491
起不善業	-11.8494
由此義故	-11.8499
宗為能立	-11.8502
九十八	-11.8509
九品	-11.8513
然準	-11.852
勤加	-11.8523
後重所入	-11.8524
燒熱	-11.8532
有四軍	-11.8532
宗本法	-11.8533
有法差別相違因	-11.8539
心起分別	-11.8542
仁王經云	-11.8552
初牒章	-11.8557
決定不退	-11.8557
盆	-11.8558
四角	-11.8576
四相違因	-11.8579
立聲常宗	-11.8585
釋曰後開示有二初	-11.8595
有非有俱	-11.8605
珠鏡	-11.8609
有為相	-11.861
標其名	-11.8627
大有句	-11.8632
分相門	-11.8657
以顯真如	-11.8674
復退失	-11.8677
自心所現	-11.868
同體智	-11.8691
微風	-11.8693
穢污	-11.8713
所立之宗	-11.8721
瓶盆	-11.8733
無主宰	-11.8734
無所有事	-11.8738
為量果	-11.8739
加力	-11.8739
妨難	-11.8742
命終生	-11.8757
作佛事	-11.8763
師長	-11.8773
現在未來	-11.8777
四相違中	-11.8793
諸惡道	-11.8793
亦不能盡	-11.8804
根本無明熏習	-11.8808
積聚他	-11.8811
初標立	-11.8819
火熱	-11.8829
萬大劫	-11.8838
兩段	-11.8847
果不離因	-11.8868
猛火	-11.8874
十住菩薩	-11.8885
無前際	-11.8894
犯相符	-11.8895
立常宗	-11.8897
無遺	-11.8905
變改	-11.8909
以依智淨	-11.8918
受無明熏	-11.8919
r	-11.8933
神呪門	-11.8936
二依門釋相	-11.8937
出現於世	-11.8951
從定起	-11.8966
心念法異	-11.8967
雙現前故	-11.8975
一者總標	-11.8976
𠼝	-11.8979
串	-11.8981
丘	-11.8981
亦取如來地	-11.8983
酸	-11.8986
燼	-11.8986
無所有無邊入	-11.8986
攝善法戒	-11.8988
洛	-11.8989
一一皆各各	-11.8991
攝律儀戒	-11.8991
劫盜	-11.8992
脊	-11.8993
崩	-11.8994
所謂自有熏習之力	-11.8994
因遍非有	-11.8995
真言行人	-11.8995
初說因緣分	-11.8995
輪回	-11.8996
是我見有二種	-11.8996
必定不退信心故	-11.8997
傲	-11.8997
有生有滅	-11.8997
如是信心成就得發心者	-11.8998
無去無來	-11.8998
本無今有	-11.8998
對治凡夫二乘心過故	-11.8998
擯	-11.8998
然起人天種子	-11.8998
捨壽命後	-11.8998
妄心熏無明	-11.8998
非凡夫能知	-11.8999
取要言之	-11.8999
有法能起摩訶衍信根	-11.8999
及不思議熏之所成就	-11.8999
妄作境界義故	-11.8999
苐	-11.8999
無慚無愧	-11.8999
渧	-11.8999
雖念因緣善惡業報	-11.8999
六度萬行	-11.8999
痰	-11.9
藪	-11.9
三重塹外	-11.9
四寶為塼	-11.9
色離識	-11.9
求學如實行故	-11.9
有其終盡	-11.9
鳥獸	-11.9001
本在因地	-11.9001
昭	-11.9001
乃至如來地能究竟離	-11.9001
幽致	-11.9001
以未入法身位故	-11.9001
邈	-11.9001
以見始故	-11.9001
增其不了	-11.9001
若有眾生來求法者	-11.9001
是中罪人	-11.9001
依士釋	-11.9001
顯因同品決定有性	-11.9001
釋上立義分中	-11.9002
此體用熏習	-11.9002
皆令究竟無餘涅槃	-11.9002
龍獸	-11.9002
蹈	-11.9002
光炎	-11.9002
調御	-11.9002
煥	-11.9002
入大乘道	-11.9002
淵	-11.9002
施與無畏	-11.9002
翅	-11.9002
正念正知	-11.9002
隆	-11.9002
綜	-11.9002
體備一切功德之法	-11.9002
言相應義者	-11.9003
謂一切諸佛所證之道	-11.9003
ṇ	-11.9003
寂而常照	-11.9003
以一切時任運而起常在前故	-11.9003
十方世界之微塵數量	-11.9003
星宿	-11.9004
隨順得入真如三昧	-11.9004
謂以專意念佛因緣	-11.9004
是故得名一切種智	-11.9004
終不為惱	-11.9004
▁184	-11.9004
寥	-11.9004
以能成就分別事識義故	-11.9004
永離惡道	-11.9004
混融	-11.9004
秀	-11.9005
確	-11.9005
謂如來藏具足無量性功德故	-11.9005
受種種苦	-11.9005
入淨心地隨分得離	-11.9005
唯佛能了	-11.9005
菩提樹下	-11.9005
常見佛故	-11.9005
燕	-11.9006
無明為因生三細	-11.9006
自畏不能常值諸佛	-11.9006
善惡之業	-11.9006
仁王	-11.9006
膚	-11.9006
法性真如海	-11.9006
决	-11.9006
離於施作	-11.9006
猶如明鏡現於色像	-11.9007
南剡浮提	-11.9007
名為識藏	-11.9007
故地論云	-11.9007
而亦不取眾生相	-11.9007
禽	-11.9007
爾時世尊告	-11.9007
如芭蕉	-11.9007
能作一切勝妙境界	-11.9007
非非想	-11.9007
以如實知無前境界故	-11.9007
或起懈怠	-11.9007
速成不退	-11.9007
與彼本覺不相捨離	-11.9007
現鏡識	-11.9008
何曾	-11.9008
魏	-11.9008
蠲除	-11.9008
開示諸有問者未了義故	-11.9008
以真如法常熏習故	-11.9008
次說解釋分	-11.9008
慎勿	-11.9008
無量前後差別	-11.9009
嬈亂	-11.9009
心不懈退	-11.9009
亦不得隨心外念境界	-11.9009
若心體滅	-11.9009
則知心相生住異滅	-11.9009
修習觀者	-11.9009
捨麁分別	-11.9009
乃至久遠熏習力故	-11.9009
填	-11.9009
不相違背	-11.9009
麤念相	-11.9009
分明顯說	-11.901
名住如來種中	-11.901
謂離一切法差別之相	-11.901
金鼓經	-11.901
貪著世間名利恭敬	-11.901
餘如初廣說	-11.901
謂於是處	-11.9011
奈	-11.9011
依於此心顯示摩訶衍義	-11.9011
硬	-11.9011
非明分位	-11.9011
依無明熏習所起識者	-11.9011
圓音一演	-11.9012
異類等解	-11.9012
廣二由旬	-11.9012
砂	-11.9012
云何有信無信	-11.9012
冲	-11.9012
釋曰後答有二初結頌	-11.9012
大願平等方便	-11.9012
無對礙	-11.9012
者此意說云	-11.9012
前三位中	-11.9012
頂骨	-11.9013
顯其礙義	-11.9013
經一萬劫	-11.9013
依是義故	-11.9013
青黃赤白	-11.9013
世諦故有	-11.9014
膿血	-11.9014
或為世間事務種種牽纏	-11.9015
或為病苦所惱	-11.9015
有如是等眾多障礙	-11.9015
三藏法師	-11.9015
荷負	-11.9015
住於靜處	-11.9015
善說法要	-11.9015
真如熏無明	-11.9015
邏	-11.9016
騎	-11.9016
生二種相	-11.9016
妄心則滅	-11.9016
所修善根	-11.9016
該收	-11.9016
真非妄	-11.9016
生於彼已受下品	-11.9016
則無見相	-11.9016
販	-11.9016
以立其名	-11.9016
生緣老死	-11.9017
遮非表	-11.9017
規	-11.9017
同體大悲	-11.9017
棲	-11.9017
如寶雲經說	-11.9017
八萬劫	-11.9018
評	-11.9018
茫	-11.9018
勘	-11.9018
依於妄執	-11.9018
噵	-11.9018
王又問那先	-11.9018
受於一切身心等苦	-11.9019
現身說法	-11.9019
於後世生	-11.9019
逆罪	-11.9019
遣拂	-11.9019
連續	-11.9019
達俗	-11.9019
胡	-11.902
云何修行止觀門	-11.9021
模	-11.9021
有其二義	-11.9021
與用相應	-11.9021
澡	-11.9022
輕毀	-11.9022
常慘菩薩	-11.9022
諸有情類	-11.9022
方寸	-11.9023
不可說不可說	-11.9023
開導	-11.9024
問意可知	-11.9025
纖毫	-11.9025
▁初標指	-11.9025
琰	-11.9026
此論所明	-11.9027
色相可見	-11.9027
以是緣故	-11.9027
優波離	-11.9028
毘尼	-11.9029
丁	-11.9029
於生死中	-11.9029
不可稱量	-11.903
種種勝妙	-11.903
調達	-11.9031
色無礙自在	-11.9032
洞然	-11.9033
十信初心	-11.9033
不到而	-11.9034
藥草	-11.9034
算數	-11.9035
而水非動性	-11.9035
猶如極微	-11.9036
謐	-11.9036
字事差別	-11.9036
在知境	-11.9037
初學菩薩	-11.9037
能取所取	-11.9038
愁憂	-11.9039
無間獄	-11.9039
具足性功德	-11.9039
依於此義	-11.904
世俗諦	-11.904
謂心念法異	-11.9041
如前已說	-11.9041
三十三種	-11.9044
常無常外	-11.9046
那先言譬如人	-11.9048
諸無質礙	-11.9048
如四卷經	-11.9049
凌	-11.9049
次下別釋	-11.9049
一切無量眾生	-11.905
色究竟天	-11.9053
若如來滅後	-11.9054
經部師	-11.9056
分段苦	-11.9057
無餘究竟	-11.9057
修菩薩行	-11.9058
一切身分	-11.9059
適意	-11.9063
了別識	-11.9064
當知唯心	-11.9065
次立正	-11.9067
沒馱	-11.9068
復次善男子	-11.907
影兼	-11.9071
愛憎	-11.9073
瑜伽論云	-11.9073
心所見者	-11.9075
此文有二	-11.9078
何容	-11.908
能立能破	-11.9081
鼓聲	-11.9081
想蘊	-11.9082
小乘外道	-11.9082
鑁	-11.9084
女天	-11.9084
結縛	-11.9084
見諸境界	-11.9085
由此道理	-11.9086
宗違因	-11.9088
相之夢	-11.909
其無常性	-11.9095
減少	-11.9095
後代	-11.9098
終歸	-11.9099
徹過	-11.9099
但隨眾生	-11.91
無不皆	-11.91
此下有二	-11.9101
意意識轉	-11.9102
於色等義	-11.9106
初正問答	-11.9108
皆是現量	-11.9109
說名為業	-11.9119
好惡	-11.912
無涯	-11.9124
乖真	-11.9128
楞伽契經中作如是說	-11.9129
常非所作	-11.913
自下第二釋	-11.9135
幻師	-11.9136
以無明力	-11.9139
臨死	-11.9152
有其三	-11.9163
當為汝	-11.9164
普賢行	-11.9168
譬如大海	-11.9169
世界無邊	-11.9172
未了義	-11.9175
令諸眾生離	-11.918
百劫	-11.9183
大富	-11.9184
十四過	-11.9192
照耀	-11.9203
伽藍	-11.9204
隨機現	-11.9209
願諸眾生得	-11.9217
安坐	-11.9226
改變	-11.9227
有三初徵	-11.9244
同喻如瓶	-11.9248
香氣	-11.9253
不思業	-11.9254
約機	-11.9261
法執相應	-11.9283
釋迦牟尼佛	-11.9283
月光	-11.9285
下釋相二初	-11.9288
十二月	-11.9314
抑亦	-11.9321
元來	-11.9326
根所執	-11.9338
敬愛	-11.9342
起不斷絕	-11.9343
得不退轉	-11.9346
今於此中	-11.9357
意許差別	-11.9359
疑悔	-11.9376
沈沒	-11.9406
前後際	-11.9414
轉時中	-11.942
所爭	-11.9423
徳	-11.9442
三十三過	-11.9451
比丘僧	-11.9453
致敬	-11.9488
汝說我	-11.9494
譬如種種瓦器	-11.9522
質多羅	-11.9539
見煙	-11.9554
二別示	-11.9561
欲者如	-11.9573
八地巳上	-11.9581
花香	-11.9599
無能勝	-11.9621
與生滅和合	-11.964
由無明力	-11.9651
示摩訶衍體	-11.9655
二牒釋	-11.967
真有妄	-11.9673
受中品上品	-11.9676
名修慧	-11.9688
潰爛	-11.9689
造像門	-11.9692
蹉	-11.97
右旋	-11.97
涕唾	-11.9701
姊妹	-11.9701
軟滑	-11.9702
中入三昧於	-11.9702
尼乾子	-11.9704
籌	-11.9704
醯摩跋多	-11.9704
初列名	-11.9704
凋	-11.9705
歸依德處	-11.9705
是遣諸法自相門故	-11.9705
定離眼識色	-11.9706
初結指標分	-11.9706
膜	-11.9707
飡	-11.9707
憒	-11.9707
天帝釋	-11.9708
趺	-11.9708
二散文釋	-11.9708
奄	-11.9709
雕	-11.9709
又復說名分別事識	-11.9709
諸佛菩薩教令發心	-11.971
高半由旬	-11.971
班	-11.971
迫	-11.9711
漸漸能生無量三昧	-11.9711
三世一切佛	-11.9711
煎	-11.9711
可燒可見	-11.9711
說我是思	-11.9711
若見一切來求索者	-11.9711
無我無人	-11.9711
非染非淨	-11.9711
復有別風	-11.9712
鞭	-11.9712
紹佛種	-11.9712
勤勇無間所支	-11.9712
或起二乘種子	-11.9712
壺	-11.9712
善見大城	-11.9712
除疑捨邪執	-11.9712
瘦	-11.9712
観	-11.9713
技	-11.9713
常樂親近諸菩薩眾	-11.9713
如是淨法無量功德	-11.9713
結末歸本	-11.9713
竅	-11.9713
戾	-11.9713
二千五百	-11.9713
秉	-11.9713
広	-11.9713
寂滅者名為一心	-11.9713
是近遠二緣	-11.9713
無有超過之法	-11.9713
非有為非無為	-11.9713
於大眾中	-11.9713
桑	-11.9714
方實不轉	-11.9714
以一切染法皆是不覺相故	-11.9714
冊	-11.9714
偷盜	-11.9714
而知相緣相同故	-11.9714
七寶樹林之所圍	-11.9714
徧是宗法	-11.9714
眼等必為他用	-11.9715
則一切境界滅	-11.9715
則得少分見於法身	-11.9715
經中亦說	-11.9715
降雨	-11.9715
如是摩訶衍諸佛祕藏	-11.9715
無一一法而非	-11.9715
是中依未入正定聚眾生	-11.9715
能所未分	-11.9715
於中若見若念	-11.9715
於二量中	-11.9716
無有世諦境界	-11.9716
亦有無量種種莊嚴	-11.9716
以有大願自在力故	-11.9716
脂	-11.9716
攸	-11.9716
依言說分別	-11.9716
結果由因	-11.9716
後陳宗體	-11.9716
諭	-11.9717
又一切染法所不能染	-11.9717
若人修行一切善法	-11.9717
凡夫二乘心所見者	-11.9717
以隨順法性離癡障故	-11.9717
文相明故	-11.9717
以瓶等為同品	-11.9717
依二乘鈍根故	-11.9717
動彼靜心	-11.9717
與諸佛智用相應	-11.9717
若人專念西方極樂世界阿彌陀佛	-11.9717
略說發心有三種	-11.9718
麁中之麁	-11.9718
成實論卷第十	-11.9718
一切世間生死染法	-11.9718
乃能志求無上之道	-11.9718
如大海水因風波動	-11.9718
以隨順法性無住故	-11.9718
即是大智慧光明義故	-11.9718
所謂自體有大智慧光明義故	-11.9718
與行與相	-11.9718
蘇摩	-11.9718
從細至麁	-11.9718
略說方便有四種	-11.9718
乃得平等見諸佛故	-11.9719
色像不現	-11.9719
則無一切境界之相	-11.9719
細中之麁	-11.9719
職	-11.9719
菟角	-11.9719
以智性即色故	-11.9719
時諸天子從	-11.9719
財富	-11.9719
有人聞說	-11.9719
圭山	-11.9719
甚為可愍	-11.9719
尋名取著	-11.9719
善人所行	-11.9719
以住於此娑婆世界	-11.9719
以智相無可見故	-11.9719
依諸凡夫二乘人等	-11.9719
我法二執	-11.972
境界熏妄心	-11.972
云何熏習起染法不斷	-11.972
与	-11.972
汝先言	-11.972
得信成就堪能發心	-11.972
有其六種	-11.972
當知如來善巧方便	-11.972
但以無明而熏習故	-11.972
拒	-11.972
法應爾	-11.972
牒因顯果	-11.972
若能觀察知心無念	-11.972
寐	-11.9721
復次分別生滅相者	-11.9721
但隨妄念不可得故	-11.9721
則有香氣	-11.9721
古因明師	-11.9721
思之可見	-11.9721
以遠離微細念故	-11.9721
如風依水而有動相	-11.9721
無有初相可知	-11.9721
復次顯示從生滅門即入真如門	-11.9721
不毀不失	-11.9721
喉	-11.9721
傳梵大師賜紫沙門臣法護等奉詔譯	-11.9722
况	-11.9722
若水滅者	-11.9722
或卒起精進	-11.9722
爐	-11.9722
令不失故	-11.9722
釋曰後作釋有二初分門	-11.9722
無明熏習義有二種	-11.9722
心與無明俱無形相	-11.9722
是故一切眾生不名為覺	-11.9722
難知難解	-11.9722
乃至滿足無有所少義故	-11.9723
非受樂相	-11.9723
三界虛偽	-11.9723
墮餓鬼	-11.9723
妙音聲	-11.9723
因一喻二	-11.9723
是難顛倒	-11.9723
當知此中道理亦爾	-11.9723
太原	-11.9723
鴻	-11.9723
共相助成	-11.9723
侵奪	-11.9723
三支無過	-11.9723
牀	-11.9723
故涅槃云	-11.9723
五種非空	-11.9724
一因二喻	-11.9724
以是等緣	-11.9724
得免諸障	-11.9724
除滅無明見本法身	-11.9724
則為向佛智故	-11.9724
妓	-11.9724
彼無過故	-11.9725
同品非定有	-11.9725
一一位位	-11.9725
增倍數	-11.9725
得長相續	-11.9725
十方世界之塵數	-11.9725
異喻如空	-11.9725
聖言量	-11.9725
金剛五位	-11.9725
分別假名言相	-11.9725
若離覺性	-11.9725
花嚴	-11.9725
眼等五識	-11.9726
鞠	-11.9726
以有無明染法因故	-11.9726
栽	-11.9726
減損	-11.9726
深密經	-11.9726
晨	-11.9726
有兩意	-11.9726
若離善知識所護	-11.9726
宗義一分為因	-11.9726
於同品有非有	-11.9726
劣弱	-11.9727
臆	-11.9727
墮負	-11.9727
池沼	-11.9727
所謂不生不滅與生滅和合	-11.9727
亦復同前	-11.9727
如實而知	-11.9727
重牒分別	-11.9727
亘	-11.9728
離於分齊	-11.9728
鑑	-11.9728
震動	-11.9728
聞思修慧	-11.9728
有一實故有德業故	-11.9728
意生身	-11.9729
盛年	-11.9729
何須重說	-11.9729
八相成道	-11.9729
宗等多言	-11.9729
心相隨滅	-11.9729
沛	-11.9729
寸	-11.9729
乖角	-11.9729
嚙	-11.973
離教說故	-11.973
是隨同品言	-11.973
樞	-11.973
弄	-11.973
一切諸花	-11.9731
無所從來	-11.9731
寂滅寂靜念	-11.9731
謂分別因緣生滅相	-11.9731
而能得入	-11.9731
輪轉生死	-11.9731
廣如彼說	-11.9731
對法論云	-11.9731
牘	-11.9731
牆	-11.9731
沫	-11.9732
輟	-11.9732
誅	-11.9732
監	-11.9732
辯才無礙	-11.9732
離於想念	-11.9732
釋曰後辨相有二初	-11.9733
金剛薩埵	-11.9733
境界為緣生六	-11.9733
輝	-11.9734
淨梵行	-11.9734
所立無處	-11.9734
一向離故	-11.9734
從初發意	-11.9734
犢子	-11.9734
辨才	-11.9735
鳳	-11.9735
核	-11.9735
翔	-11.9735
得阿羅漢道	-11.9736
住持過去	-11.9736
第八見分	-11.9736
石女兒	-11.9736
一者信根本	-11.9736
荅曰	-11.9736
翰	-11.9736
佛語比丘	-11.9736
糖	-11.9737
剎那剎那	-11.9737
能成立法無質礙無	-11.9737
火宅	-11.9737
芻	-11.9738
愛別離苦	-11.9738
精舍	-11.9738
冷觸	-11.9738
亭	-11.9738
怨憎會苦	-11.9739
遠離怯弱	-11.9739
有為有二種	-11.9739
鍵摩	-11.974
地持論	-11.974
帝網	-11.974
閣	-11.9741
聲名句文	-11.9741
釋曰後開示有二初唱本	-11.9741
復次如前所說	-11.9741
本來唯心	-11.9741
開曉	-11.9741
〕	-11.9741
無所障礙	-11.9741
互融	-11.9742
歒	-11.9743
癡闇	-11.9743
體非無故	-11.9743
犁	-11.9743
不墮惡道	-11.9743
天人師	-11.9745
供養恭敬	-11.9745
楞	-11.9746
至教量	-11.9746
兩俱極成非佛語所不攝	-11.9746
唯識所現	-11.9747
無上尊	-11.9747
堵	-11.9749
無量壽	-11.9749
一者執相應染	-11.9749
吻	-11.975
若不異者	-11.975
卵生	-11.9751
如是知已	-11.9751
尊長	-11.9751
有其三種	-11.9753
復次文殊師利	-11.9753
說所立無	-11.9754
具遮表	-11.9755
能見所見	-11.9755
生樂想	-11.9755
與虗空等	-11.9756
十方一切世界	-11.9757
我曹	-11.9758
隨舉一	-11.9759
宣說法要	-11.9759
本覺智明	-11.976
▁初標分	-11.976
瑟吒	-11.976
善星	-11.9762
指掌	-11.9763
氣味	-11.9764
不能正解	-11.9764
來詣	-11.9764
百千萬億	-11.9766
無有間斷	-11.9767
直置	-11.9768
居家	-11.9769
四種大義	-11.9769
長久	-11.9769
何所來	-11.977
欣樂	-11.9771
稱歎	-11.9771
露地	-11.9771
孕	-11.9774
有何所以	-11.9774
作是念已	-11.9778
釋其所以	-11.9779
獲斯	-11.978
何所疑	-11.9782
二法二門	-11.9784
所以造論	-11.9784
初問後答	-11.9786
自相可說	-11.9787
反覆	-11.9789
合中言	-11.9794
四神足	-11.9796
囉拏	-11.9803
異品無故	-11.9811
隨緣變	-11.9821
濟度	-11.9825
眾生有念	-11.9826
百千劫	-11.9827
為過失	-11.9839
百千歲	-11.9845
初中二初	-11.9857
十方三世	-11.987
恒常熏習	-11.9873
後之一	-11.9877
因之明	-11.9893
事識熏	-11.9914
無明熏真	-11.9919
初正辨	-11.9964
攝論下	-11.9965
當說似	-11.9973
第七末那	-11.9983
靡不	-11.9987
法成法	-11.9993
現前介爾心性	-12.0014
此義云何以下	-12.003
祖師	-12.0046
摩訶薩	-12.0052
所信之境	-12.0056
著衣	-12.0058
十八日	-12.0069
云何得知	-12.011
決定安立	-12.0122
法自相相違過	-12.0157
又汝所	-12.0161
四住煩惱	-12.0165
如燈焰	-12.0212
靡	-12.0215
獲罪	-12.0229
返熏	-12.0229
親眷	-12.0254
前中二初	-12.026
眾生現前介爾	-12.0273
樂為所立	-12.0339
後之三	-12.0343
軍眾	-12.0356
娑婆訶阿阿訶呵若此神呪誦	-12.037
維	-12.0411
立已成	-12.0412
七菩提分	-12.0423
盧舍那佛	-12.0427
咤	-12.0434
與彼不覺相應不離	-12.0445
干	-12.045
乾闥婆	-12.0452
恭敬父母沙門婆羅門	-12.0464
猫	-12.0467
熏離俱相	-12.0468
覚	-12.047
二長行釋二初	-12.0471
峻	-12.0472
八功德水	-12.0472
貧乏	-12.0472
鎮	-12.0472
莊飾	-12.0474
耳璫	-12.0476
應觀世間一切有身	-12.0476
纖	-12.0477
是證相故	-12.0478
復一小門	-12.0478
憶想分別	-12.0478
應觀過去所念諸法	-12.0478
寤	-12.0479
矚	-12.0479
晴	-12.0479
不可合一	-12.0479
臼	-12.0479
無一可樂	-12.0479
十二支	-12.0479
甚深極妙	-12.0479
復次言意識者	-12.048
以離念境界唯證相應故	-12.048
受此果報	-12.048
能念所念	-12.048
若離心念則無一切境界之相	-12.048
有何因緣而造此論	-12.048
是二種門皆各總攝一切法	-12.0481
潤澤	-12.0481
無上正等菩提	-12.0481
善護其心	-12.0481
閒	-12.0481
得值諸佛	-12.0481
有熏習善根力故	-12.0481
或立為常	-12.0481
造作論教	-12.0482
廣果天	-12.0482
四衢道	-12.0482
若見若聞	-12.0482
犬	-12.0482
對治此執說	-12.0482
不得輕於如來所制禁戒	-12.0482
一剎那頃	-12.0482
後譯云	-12.0482
貿易	-12.0483
乃至惡業受報未盡求	-12.0483
分劑	-12.0483
盡其未來	-12.0483
寄言簡過	-12.0483
彼契經中	-12.0483
阿毘止	-12.0483
念安般	-12.0483
我已總說	-12.0483
菟	-12.0483
雹	-12.0483
云何修行施門	-12.0483
得淨心地究竟離故	-12.0483
身從定起	-12.0483
昔行何業受此	-12.0483
即此法身是色體故	-12.0483
意欲退者	-12.0484
尒	-12.0484
十二部經	-12.0484
鎔	-12.0484
以深信真如法故	-12.0484
初結前標後	-12.0484
迢	-12.0484
是諸門者	-12.0484
不限劫數	-12.0484
願令我心離分別故	-12.0484
舉非顯失	-12.0484
以隨順法性離諸過故	-12.0484
定常為宗	-12.0484
所謂見佛色相而發其心	-12.0484
當觀一切世間有為之法	-12.0484
下廣上狹	-12.0485
不惜身命	-12.0485
依諸凡夫說有五種	-12.0485
飜	-12.0485
▁163	-12.0485
一者施門	-12.0485
亦能使人得諸三昧	-12.0485
則無後際故	-12.0485
知彼色相莊嚴等事	-12.0485
有諸婇女	-12.0485
若心離於妄動	-12.0485
起執緣	-12.0485
金剛巳還	-12.0485
無來無去	-12.0485
以意意識熏習	-12.0485
則能遠離是諸業障	-12.0486
或說有退墮惡趣者	-12.0486
是覺利益	-12.0486
漸漸猛利	-12.0486
灑散	-12.0486
名為法身如來之藏	-12.0486
所謂雖念諸法自性不生	-12.0486
濤	-12.0486
謂法喻合	-12.0486
棱伽	-12.0486
鏡若有垢	-12.0486
少文而攝多義	-12.0486
以心住故	-12.0486
血塗	-12.0486
何故不唯念真如	-12.0486
皆因諸波羅蜜等無漏行熏	-12.0486
是故眾生應勤修學	-12.0486
一切菩薩發心修行趣向義故	-12.0486
依色自在地能離故	-12.0486
畢竟不畏墮二乘地	-12.0486
暨	-12.0486
具足無漏熏眾生故	-12.0486
旋火輪	-12.0487
墮邪網	-12.0487
如來但為說人無我	-12.0487
乃至具有過恒沙等妄染之義	-12.0487
以見法身故	-12.0487
捶	-12.0487
釘	-12.0487
一切世間境界悉於中現	-12.0487
真如淨法實無於染	-12.0487
牢	-12.0487
亦無得淨	-12.0487
此緣有二種	-12.0487
行者常應智慧觀察	-12.0487
假以言說引導眾生	-12.0487
彈指	-12.0487
又如來藏無有後際	-12.0487
復次究竟離妄執者	-12.0487
皆依眾生無明妄心而得住持	-12.0488
乃得成辦	-12.0488
定性二乘	-12.0488
爍	-12.0488
以唯依真如義說故	-12.0488
又亦無有用相可得	-12.0488
從細至麤	-12.0488
熱灰	-12.0488
終無得淨	-12.0488
謂分別染淨法故	-12.0488
管	-12.0488
別立以為阿梨耶	-12.0488
撓	-12.0488
依言說分別有二種義	-12.0488
又是菩薩功德成滿	-12.0488
有三種心微細之相	-12.0488
十地滿心	-12.0489
統收	-12.0489
八地以上	-12.0489
倏	-12.0489
哲	-12.0489
涸	-12.0489
必為諸佛之所授記	-12.0489
復以何義得說差別	-12.0489
不為諸魔惡鬼所能恐怖	-12.0489
劬	-12.0489
盡欲度脫等眾生界	-12.0489
醯	-12.0489
掌珍	-12.049
以為懈慢眾生故	-12.049
境界風所動	-12.049
彼經復說	-12.049
離有離無	-12.049
亮	-12.049
能現於色	-12.049
以知法性體無慳貪故	-12.049
示一切世間最高大身	-12.049
凡所有相	-12.049
從麁至細	-12.049
性除智	-12.049
能受凡夫業繫苦故	-12.049
闢	-12.049
皎	-12.049
云何復說體有如是種種功德	-12.049
亦知未來之事	-12.049
或令人知宿命過去之事	-12.049
而使證會永息妄者	-12.049
約心境釋	-12.049
汝意若謂	-12.0491
唯彼有性	-12.0491
忌	-12.0491
如世間衣服	-12.0491
所變相分	-12.0491
自體顯照一切妄法	-12.0491
却敵	-12.0491
但隨眾生世界不同	-12.0491
自然而有不思議業種種之用	-12.0491
膿	-12.0491
澡浴	-12.0491
約終教說	-12.0491
人法二執	-12.0491
愆	-12.0492
以修世間諸禪三昧	-12.0492
應成非所說	-12.0492
拕	-12.0492
以一切言說假名無實	-12.0492
奴僕	-12.0492
意及意識	-12.0492
六者根本業不相應染	-12.0492
未曾與如來藏相應故	-12.0492
現世當得十種利益	-12.0492
四信五行	-12.0493
故云深也	-12.0493
貪嫉	-12.0493
腐	-12.0493
而有見色相者	-12.0493
離於見相	-12.0493
如幻如夢	-12.0493
宏	-12.0493
執取計名字相	-12.0493
向涅槃道	-12.0493
僅	-12.0493
或進或退	-12.0493
復有罪人	-12.0494
因明正理門論	-12.0494
鑿	-12.0494
以上四分	-12.0494
▁165	-12.0494
復次若人雖修行信心	-12.0494
堅依堅	-12.0494
唵摩羅	-12.0494
見一處住地	-12.0494
透	-12.0494
唯一夢心	-12.0494
婦女	-12.0494
不住得相	-12.0494
依一切眾生以有妄心	-12.0494
香臭	-12.0494
救世大悲者	-12.0494
令彼憶念本極成故	-12.0495
一執緣	-12.0495
未得無分別心	-12.0495
葛	-12.0495
穩	-12.0495
不耐食想	-12.0495
念即無念	-12.0495
有所簡別	-12.0495
若有眾生能觀無念者	-12.0495
諠	-12.0495
次說勸修利益分	-12.0495
三相應染	-12.0495
立聲滅壞	-12.0495
唯心相滅	-12.0495
身心適悅	-12.0495
數瞋數喜	-12.0496
信有涅槃	-12.0496
即分別自心	-12.0496
幼	-12.0496
腦	-12.0496
処	-12.0496
㲉	-12.0496
云何隨順而能得入	-12.0496
甫	-12.0496
若自若他	-12.0496
鹽味	-12.0496
正念真如法故	-12.0496
非同非異	-12.0496
五者滅一切疑諸惡覺觀	-12.0496
旃檀	-12.0496
則起外道見故	-12.0496
發決定心	-12.0496
隨流反流	-12.0497
盈滿	-12.0497
資生具足	-12.0497
住空閑	-12.0497
性自本無	-12.0497
直等三心	-12.0498
充足	-12.0498
無有能說可說	-12.0498
障量智	-12.0498
摶	-12.0498
性染幻差別故	-12.0498
故不別說	-12.0499
分明顯了	-12.0499
羽	-12.0499
三摩鉢底	-12.0499
唯心虗妄	-12.0499
發迴向心	-12.0499
溟	-12.05
疱	-12.05
貯	-12.05
一切染因	-12.05
獻	-12.05
奉獻	-12.05
諸佛所師	-12.05
塚	-12.05
因即是明	-12.0501
答有二解	-12.0501
若時於所緣	-12.0501
報化之用	-12.0501
遠轉遠縛	-12.0501
爾時住唯識	-12.0501
朕	-12.0501
為善不善因	-12.0501
虛幻	-12.0502
懈倦	-12.0502
浣	-12.0502
一者業識根本熏習	-12.0502
所作非常故	-12.0502
劫奪	-12.0502
若不然者	-12.0502
相違及不定	-12.0502
節量食	-12.0502
彌蘭	-12.0503
相應心品	-12.0503
光潔	-12.0503
廣答門	-12.0503
割截	-12.0504
釋曰後引教證	-12.0504
遇善知識	-12.0504
造業受報	-12.0505
唐譯	-12.0505
與行與相如來藏	-12.0505
所謂如來在世	-12.0506
身語意業	-12.0506
同一緣起	-12.0506
損惱	-12.0506
一者如實空鏡	-12.0507
住壽一	-12.0508
曷	-12.0508
此亦非真	-12.0508
五逆罪	-12.0508
假名無實	-12.0509
祥	-12.0509
心一境性	-12.051
三支比量	-12.051
畢竟得生	-12.051
闍梨	-12.051
八種本法	-12.0511
禾	-12.0511
藥叉	-12.0511
勝意樂	-12.0511
業識未盡	-12.0511
同一所緣	-12.0512
與理相應	-12.0512
泯絕	-12.0512
護法論師	-12.0512
板	-12.0513
見是事已	-12.0513
離垢地	-12.0513
初歡喜地	-12.0513
能緣所緣	-12.0514
来	-12.0514
大覺海	-12.0514
生善處	-12.0515
聲是其常	-12.0518
若有正智	-12.0519
惡罵	-12.0519
短命	-12.052
唯一心量	-12.052
處非處	-12.0522
是故得知	-12.0522
誦習	-12.0522
兜率天	-12.0523
苦諦所攝	-12.0523
除智障	-12.0523
不假方便	-12.0524
宗為所立	-12.0524
化度有情	-12.0525
水戲	-12.0526
極解脫道	-12.053
有於無明	-12.0531
是為魔事	-12.0531
不覺心起	-12.0531
集量論	-12.0533
王復問何等為	-12.0534
一心二門三大	-12.0534
常恒相續	-12.0535
衣鉢	-12.0535
如十地經	-12.0536
則有妄心	-12.0538
運載眾生	-12.0538
十信滿心	-12.0541
無本覺故	-12.0542
賢劫	-12.0542
覺察	-12.0543
以何為體	-12.0547
六十小劫	-12.055
遙見	-12.055
如下所說	-12.0551
毗盧舍那	-12.0554
樹間	-12.0557
即理門第	-12.0561
因一果	-12.0567
資助	-12.0571
未入正定聚	-12.0572
聞是說	-12.059
發心勇猛	-12.0597
退沒	-12.0601
照曜	-12.0619
垢穢	-12.0621
有動相	-12.0639
以隨下	-12.065
慈恩	-12.0656
就此門中則有	-12.0673
梁攝	-12.0679
無漏性德	-12.0684
寶階	-12.0685
劍林	-12.0685
或勤勇無間所發性	-12.0713
勝佛者	-12.0719
無取無	-12.0735
始本無二	-12.0741
造惡業	-12.0755
以一心為	-12.0783
逮得	-12.0798
最尊	-12.0852
根行不	-12.087
就初中有	-12.0875
初標舉	-12.0909
計為我	-12.0917
菩薩集西天譯經三藏朝散大夫試鴻臚	-12.0968
卿宣梵大師賜紫沙門臣日稱等奉詔譯	-12.0969
色界繫	-12.097
無明之念	-12.0996
初結指分門	-12.1005
隨一猶預	-12.1056
入此門	-12.1095
分流楞伽	-12.1191
􂵦	-12.1225
皆是疑因	-12.1232
非定不離	-12.1278
㖿	-12.1287
現一切境	-12.1292
是故得成此光明放大光明名	-12.1293
是地獄人	-12.1295
大極地	-12.1298
如次率自類	-12.1301
慧及方便	-12.1302
犀	-12.1302
異品徧無	-12.1304
轉彼靜心	-12.1305
香味觸	-12.1305
抂	-12.1305
怨憎	-12.1306
菴羅	-12.1307
羨	-12.1307
郡	-12.1307
有一實等因	-12.1308
營事比丘	-12.1308
如兜羅綿	-12.1309
紀	-12.1309
𦦨	-12.1309
廟	-12.1309
五唯量	-12.131
十不善業道	-12.131
當知真如是三昧根本	-12.131
防退方便	-12.131
從外來	-12.131
大攝主識	-12.131
又為諸佛菩薩等慈悲願護	-12.131
吹諸花鬘	-12.131
醜陋	-12.1311
隨時隨處	-12.1311
憫	-12.1311
不入實智故	-12.1311
此等並同	-12.1312
作非有緣性	-12.1312
云何修行戒門	-12.1312
若雖有外緣之力	-12.1312
是菩薩淨土	-12.1313
迮	-12.1313
咄	-12.1313
一切分別即分別自心	-12.1313
惰	-12.1313
無常苦無我	-12.1313
本末二不覺	-12.1313
大乘起信論裂網疏卷	-12.1313
若因緣具足者	-12.1313
言生智了	-12.1313
無我無我所	-12.1313
髮毛爪齒	-12.1313
遍淨天	-12.1313
是因緣有八種	-12.1313
現在即有無量逼迫	-12.1313
或有眾生無善根力	-12.1314
亦非二乘智慧所覺	-12.1314
以起大悲熏習之力	-12.1314
償	-12.1314
膖脹想	-12.1314
遶	-12.1314
虔	-12.1314
斬斫	-12.1314
又一行處	-12.1314
轉大法輪	-12.1314
俟	-12.1314
諸戲論識	-12.1315
僧坊	-12.1315
六觸入	-12.1315
而倒說言	-12.1315
族姓	-12.1315
因緣互闕	-12.1315
一切妄念無相	-12.1315
能自燒木	-12.1315
即應勇猛立大誓願	-12.1315
饌	-12.1316
二初牒屬	-12.1316
閻	-12.1316
下隨釋二初	-12.1316
猶如螺貝	-12.1316
西天譯經三藏	-12.1316
押	-12.1316
胎藏不安者	-12.1316
嗣	-12.1317
懊惱	-12.1317
憍逸	-12.1317
依於無明熏習而有	-12.1317
精魅	-12.1317
對治二乘不起大悲狹劣心過	-12.1317
非常非樂非我非淨	-12.1317
故法華云	-12.1317
二文合也	-12.1317
當持此論	-12.1317
輕躁	-12.1317
隨應見聞而現作業	-12.1317
非有為非無為一心本法	-12.1317
見相二分	-12.1317
波羅密	-12.1317
若聞無量無邊阿僧祇劫	-12.1318
疼痛	-12.1318
八十種好	-12.1318
於無量阿僧祇劫	-12.1318
皆是不覺相故	-12.1318
則有所少	-12.1318
皆乘此法	-12.1318
銛	-12.1318
搏	-12.1318
對果舉因	-12.1318
不令眾生妄起過罪故	-12.1318
或因供養眾僧而發其心	-12.1318
松	-12.1318
或為知友	-12.1318
此謂如來廣大性智究竟之義	-12.1318
能現十方利益眾生	-12.1318
所謂從兜率天退	-12.1318
起事心滅	-12.1319
十善業道	-12.1319
常能住持不毀不失	-12.1319
禪那波羅蜜	-12.1319
鵝	-12.1319
信謗損益	-12.1319
真如熏習義有二種	-12.1319
所謂眾生依於三昧	-12.1319
心識之相皆是無明	-12.1319
挺	-12.1319
(46	-12.1319
以瓶等為異品	-12.1319
初三攝眼所不攝因	-12.1319
或為眷屬父母諸親	-12.1319
色體無形	-12.1319
問答通妨	-12.132
以一切法即真實性故	-12.132
b	-12.132
復假求學諸善之行	-12.132
當知此人定紹佛種	-12.132
其有眾生於此論中	-12.132
我入息	-12.132
人非人等	-12.132
又復汝說	-12.132
當知世間一切境界	-12.132
良田	-12.132
迷於無相	-12.132
隨力所能	-12.132
唯為開導利益眾生	-12.1321
琴	-12.1321
能令眾生貪著世間名利之事	-12.1321
陶	-12.1321
墮大地獄	-12.1321
前陳宗依	-12.1321
依正二報	-12.1321
瀑流	-12.1321
謂有眾生作如是	-12.1321
若如來藏體有妄法	-12.1321
建立名字門	-12.1321
唐西京太原	-12.1321
以心除心	-12.1321
以念一切法	-12.1321
皆各總攝一切法	-12.1321
愛與不愛故	-12.1321
深伏煩惱	-12.1321
能止一切惡法不令增長	-12.1321
我巳總說	-12.1321
平坦	-12.1321
不如實知真法一故	-12.1322
一者名為業識	-12.1322
三者發起善根增長方便	-12.1322
先問後答	-12.1322
應亦名宗	-12.1322
袪	-12.1322
能生無量三昧	-12.1322
有遮有表	-12.1322
荼	-12.1322
儲	-12.1322
雖有染心而常恒不變	-12.1322
非前際生非後際滅	-12.1322
非現量攝	-12.1322
現形恐怖	-12.1322
所起諸似義智	-12.1322
如是無漏無明種種業幻	-12.1322
如法身菩薩等	-12.1322
非正能立	-12.1323
以諸極微	-12.1323
無二山王	-12.1323
四歎實行	-12.1323
宣揚	-12.1323
料	-12.1323
陞	-12.1323
非可壞非不可壞	-12.1323
謂法性功德無有盡故	-12.1323
籌量	-12.1323
以為怯弱眾生故	-12.1323
因風波動	-12.1323
麤中之麤	-12.1323
儻	-12.1323
據本而言	-12.1323
非有相非無相	-12.1323
隨順修行檀波羅蜜	-12.1323
依解起行	-12.1324
又是菩薩發心相者	-12.1324
假使有人能化三千大千世界滿中眾生	-12.1324
奄含	-12.1324
鴦	-12.1324
明行足	-12.1324
於念念中	-12.1324
泣	-12.1324
以善方便	-12.1324
愛不愛	-12.1324
因於廣論而得解者	-12.1324
而言知初相者	-12.1324
非異非不異	-12.1325
唯癡滅故	-12.1325
心有分齊	-12.1325
是故一切法從本巳來	-12.1325
唯有過恒沙等諸淨功德	-12.1325
何所攝耶	-12.1325
蒸	-12.1325
金翅鳥	-12.1325
肇公云	-12.1325
如薩婆多對大乘	-12.1325
玻	-12.1325
得入如來地能離故	-12.1325
從信相應地觀察學斷	-12.1325
無差違故	-12.1325
洗浴	-12.1325
(45	-12.1325
隨順修行羼提波羅蜜	-12.1325
殖	-12.1325
立宗過性	-12.1326
阿陀那	-12.1326
先因後宗	-12.1326
乃至廣破	-12.1326
根本心盡	-12.1326
約王數釋	-12.1327
楷	-12.1327
以深自害	-12.1327
三者分別智相應染	-12.1327
烟立火	-12.1327
火立觸	-12.1327
即熏習無明	-12.1328
乾闥婆城	-12.1328
奮	-12.1328
係	-12.1328
號哭	-12.1328
一者增長念熏習	-12.1328
本體神王	-12.1328
誠心懺悔	-12.1328
戌	-12.1328
分段麁苦	-12.1328
天竺國	-12.1328
重重無盡	-12.1328
鋸	-12.1328
癩	-12.1329
猒生死苦	-12.1329
輻	-12.1329
役	-12.1329
此非心識	-12.1329
則眾生斷絕	-12.1329
轂	-12.1329
蚊蚋	-12.1329
與之相應	-12.1329
熾火	-12.133
唯是妄有	-12.133
啟請	-12.133
開總體	-12.133
速離眾苦	-12.133
影響	-12.133
屈曲	-12.133
地獄畜生餓鬼	-12.133
法準思之	-12.133
翻染成淨	-12.133
癈	-12.1331
一體三自	-12.1331
作依止故	-12.1331
二者依於業識	-12.1331
境從心起	-12.1331
所為機	-12.1331
嬰兒	-12.1331
而無差別之相	-12.1331
自此已下顯示	-12.1331
無等等生	-12.1331
變易行苦	-12.1331
以依轉識	-12.1331
智性即色	-12.1331
牟尼尊	-12.1332
十四過類	-12.1332
合掌恭敬	-12.1332
扃	-12.1332
懵	-12.1332
不思議熏變	-12.1332
舉體而為	-12.1332
頂禮佛足	-12.1333
如是無漏無明	-12.1333
隨念皆除	-12.1333
巨海	-12.1333
若說陀羅尼	-12.1333
所見微妙	-12.1333
一體一心摩訶衍	-12.1333
祈	-12.1333
有大利益	-12.1333
而有其念	-12.1334
安受苦忍	-12.1334
任運而起	-12.1334
賓主	-12.1334
故云爾也	-12.1334
無有自相可說	-12.1334
如月燈經	-12.1334
決定相違不定過	-12.1334
鴈	-12.1334
九孔	-12.1335
悴	-12.1335
不失壞故	-12.1335
坐道場	-12.1336
把	-12.1336
黑象	-12.1336
綵	-12.1337
噉食	-12.1337
因及果	-12.1337
鄭	-12.1338
優波底沙梁言大光造梁扶南三藏僧伽	-12.1338
遏	-12.1338
元曉	-12.1338
思量修習	-12.1338
列章門	-12.1339
殘害	-12.1339
非非異相	-12.1339
復次信成就發心者	-12.1339
漿	-12.1339
白銀	-12.1339
皆非現量	-12.134
降魔	-12.134
絃	-12.1341
黃石	-12.1341
失意者	-12.1341
惺	-12.1342
安慰	-12.1342
輾	-12.1342
􂶗	-12.1342
有如是過	-12.1342
故智論云	-12.1343
浮雲	-12.1343
等流果	-12.1344
破裂	-12.1344
毘沙門	-12.1344
斂	-12.1344
二若爾下	-12.1344
九種心住	-12.1345
誑惑	-12.1345
万	-12.1346
是遠離言	-12.1347
此似不成	-12.1347
皆悉相待	-12.1348
後世不復生	-12.1348
冥加	-12.1348
汝等比丘	-12.1349
瓶等是常	-12.135
種種異類	-12.135
二以何下	-12.1351
安布	-12.1352
今此論者	-12.1354
(47	-12.1354
娛	-12.1355
二者是別	-12.1356
(48	-12.1356
風飄	-12.1357
眾生分故	-12.1357
(49	-12.1358
三通權教	-12.1358
禪外行	-12.1359
一即一切	-12.1362
華香	-12.1362
昨	-12.1363
水之動	-12.1369
能止惡	-12.1369
喻上能立	-12.1379
瓶有所作	-12.1386
不耐想	-12.1388
念念不可得	-12.1393
淫	-12.1394
囕	-12.1405
性本離	-12.1415
能作熏事	-12.1419
能示摩訶衍	-12.1421
中觀論	-12.1437
總說有二種	-12.1488
母胎	-12.1561
所作亦無常	-12.1565
望言陳	-12.1614
二初問起	-12.1725
體相用三大	-12.1772
了唯心	-12.1876
據論意	-12.1935
故同喻云如	-12.1966
向大菩提	-12.2022
對大乘立	-12.2058
險惡	-12.2095
成就自身利益	-12.2173
􂵧	-12.2178
娑多耆利	-12.2188
禱祀門	-12.2196
如實伺察	-12.2203
捄	-12.2207
歡悅	-12.2208
非眾生數	-12.221
腋	-12.2211
內因熏習	-12.2212
父母兄弟	-12.2212
膺	-12.2215
起貪瞋等	-12.2215
花葉	-12.2215
在一心中	-12.2216
婢	-12.2216
九十九門	-12.2217
光明遍照	-12.2217
復次依是三昧故	-12.2217
復有種種諸惡業報	-12.2218
壅	-12.2218
祗	-12.2218
膳	-12.2218
荒	-12.2218
骸	-12.2219
願求一切智故	-12.222
由乾陀山	-12.222
瞬	-12.222
從眾緣生	-12.222
彈	-12.2221
如是等人所不能入	-12.2221
漠冥	-12.2221
琰魔羅卒	-12.2221
隨力施與	-12.2221
繫緣法界	-12.2222
獨力隨相	-12.2222
减	-12.2222
雖值於佛亦得供養	-12.2222
恍	-12.2222
如是外緣有無量義	-12.2222
最高大身	-12.2222
初約識舉人	-12.2222
覺至心源	-12.2223
在棃耶中	-12.2223
雖有正因熏習之力	-12.2223
乃至一切所作無量行緣	-12.2223
二於空謬執	-12.2223
生得住地	-12.2223
不應貪求名利恭敬	-12.2223
能令眾生增長善根	-12.2223
亦不能究竟厭生死苦	-12.2224
着	-12.2224
獷	-12.2224
不消死	-12.2224
一切眾生本來常住入於涅槃	-12.2224
即是真心常恒不變	-12.2224
斷一切惡	-12.2224
若有眾生善根微少	-12.2224
跟	-12.2224
園苑	-12.2224
是能覺人	-12.2224
或因二乘之人教令發心	-12.2225
深里出興地藏大龍王	-12.2225
自然隨著	-12.2225
謂諸菩薩從初發意	-12.2225
懷孕	-12.2225
燈炬	-12.2225
皆依我見	-12.2225
一切邪執皆依我見	-12.2225
亦應遠離憒閙	-12.2225
但依眾生心現	-12.2225
復謂如來所得涅槃	-12.2225
輙	-12.2225
為示利益勸修行故	-12.2225
王數之別	-12.2225
能障世間自然業智故	-12.2226
謂凡夫二乘初發意菩薩等	-12.2226
則為諸魔外道鬼神之所惑亂	-12.2226
為欲令眾生除疑捨邪執起大乘正信	-12.2226
迴向願求生彼世界	-12.2226
攝護信心	-12.2226
役使	-12.2226
極成之聲	-12.2227
陷	-12.2227
即謂真如涅槃之性	-12.2227
脉	-12.2227
遮所遮	-12.2227
二者能止方便	-12.2227
麟	-12.2227
有解無行	-12.2227
玩	-12.2227
此我今說	-12.2227
而有無量無邊無明	-12.2227
還同本覺	-12.2227
隨心能示十方世界	-12.2227
唯除疑惑	-12.2228
初學是法	-12.2228
委曲	-12.2228
是中諸天須彼花	-12.2228
動相隨滅	-12.2228
八十小劫名	-12.2228
允	-12.2228
然是菩薩未名法身	-12.2228
謂以一念相應慧	-12.2228
遠離殺生偷盜邪婬妄語兩舌惡口綺語	-12.2228
腸胃	-12.2228
熱惱衰變	-12.2228
豪貴	-12.2228
三自本法	-12.2228
依迷顯覺	-12.2228
或起四攝	-12.2228
狩	-12.2228
軌生物解	-12.2228
執性德同色心	-12.2228
拳	-12.2228
不變自在義	-12.2228
參禪	-12.2228
大乘之起信	-12.2228
或現端正男女等相	-12.2228
熾焰	-12.2228
修一切善行以為對治	-12.2228
如水中月	-12.2228
最後身菩薩	-12.2228
沙門法藏述疏	-12.2229
但隨眾生見聞得益	-12.2229
禍	-12.2229
略後廣	-12.2229
以起如是願故	-12.2229
種子海會	-12.2229
若證法身得少分知	-12.2229
肌	-12.2229
謂應說言	-12.2229
啼哭	-12.2229
三者名為現識	-12.2229
依根本心滅	-12.2229
即是諸法之性	-12.2229
四者名為智識	-12.2229
庭	-12.2229
復次若人唯修於止	-12.2229
▁rakṣa	-12.2229
bh	-12.2229
若進若退	-12.2229
如修多羅說	-12.2229
如鏡中像無體可得	-12.2229
孔雀	-12.2229
猶如於鏡	-12.2229
宋秀州長水沙門子璿修	-12.2229
清錢塘慈雲沙門續法	-12.2229
遮無表	-12.223
想受滅	-12.223
執法性本有染	-12.223
謂慚愧悔過	-12.223
終南草堂沙門宗密錄	-12.223
不為他人所惱	-12.223
以愛敬三寶淳厚心故	-12.223
而此證者無有境界	-12.223
過恒河沙等上煩惱	-12.223
以依能見故	-12.223
猨	-12.223
對彼有論	-12.223
所見所聞根欲性異	-12.223
五者名為相續識	-12.223
是故眾生但應仰信	-12.223
信法有大利益	-12.223
十有無為	-12.223
諸淨功德	-12.2231
皆為離念歸於真如	-12.2231
分剖門	-12.2231
謀	-12.2231
粮	-12.2231
作內熏之因	-12.2231
勝拔道	-12.2231
若諸佛法身離於色相者	-12.2231
身有威德	-12.2231
就實而言	-12.2231
一法界大總相	-12.2231
將命終時	-12.2231
於似所比	-12.2231
似現似比	-12.2231
後便休廢	-12.2231
作與作者	-12.2231
普利一切眾生界	-12.2231
阿彌陀	-12.2231
而為其門所趣入故	-12.2231
開曉問者	-12.2231
無有所少	-12.2231
本無所動	-12.2232
羅列遍	-12.2232
眼等五根	-12.2232
久久時節	-12.2232
隨順修行般若波羅蜜	-12.2232
汙	-12.2232
以心無形相	-12.2232
久習淳熟	-12.2232
中貪使	-12.2232
蛾	-12.2232
無增無減	-12.2232
荊棘	-12.2232
鷄	-12.2232
頹綱	-12.2232
因論生論	-12.2232
故示所行亦有差別	-12.2232
究竟能至無上之道	-12.2232
若約始教	-12.2232
若離業識則無見相	-12.2232
如是眾生心若有垢	-12.2232
未入正定	-12.2232
不以自相為境界	-12.2232
後唯止濫	-12.2232
故新論言	-12.2232
異處轉	-12.2232
隨其願力	-12.2233
離此二邊	-12.2233
謂所立法均等義品	-12.2233
我今隨順總持說	-12.2233
謂藉眾相而觀於義	-12.2233
宗家之法	-12.2233
皆徧法界	-12.2233
趨	-12.2233
復次精勤專心修學此三昧者	-12.2233
總攝諸論要義	-12.2233
色性即智	-12.2233
四十小劫	-12.2233
旱	-12.2233
或示超地速成正覺	-12.2233
賞	-12.2233
品德類	-12.2233
眼睛	-12.2234
貴賤	-12.2234
微風吹	-12.2234
以知法性無身心相	-12.2234
動相則滅	-12.2234
芽莖	-12.2234
兄	-12.2234
調戲	-12.2234
俱盧舍	-12.2234
貝葉	-12.2234
復以何義	-12.2234
為眾生離苦得樂	-12.2234
行至苦盡	-12.2234
其猶何等	-12.2234
顯前不二	-12.2234
於世尊所修	-12.2234
訪	-12.2234
扣	-12.2234
梵先行天	-12.2235
若諸凡夫不習此三昧法	-12.2235
若離妄心實無可空	-12.2235
謂現量相違	-12.2235
搆	-12.2235
我及我所	-12.2235
依棃耶有無明	-12.2235
無師智	-12.2235
槩	-12.2235
為令善根微少眾生	-12.2235
具足如是過於恒沙不離不斷不異	-12.2235
不生滅與生滅和合	-12.2236
其心得住	-12.2236
以此因緣故建立	-12.2236
離懈怠故	-12.2236
腸	-12.2236
剌	-12.2236
飢餓	-12.2236
法住智	-12.2237
擁	-12.2237
陰入界	-12.2237
雨眾寶	-12.2237
殷	-12.2237
多起味著	-12.2237
能信之心	-12.2237
初明起執之由	-12.2237
椽	-12.2237
金棺	-12.2237
乃至出定亦無懈慢	-12.2237
非一異俱相	-12.2237
前是遮詮	-12.2238
赫	-12.2238
以此妄心有厭求因緣故	-12.2238
所有煩惱漸漸微薄	-12.2238
拱	-12.2238
呵責	-12.2238
照體獨立	-12.2238
依義立名	-12.2238
無明所染有其染心	-12.2238
大總地	-12.2238
迦毘羅	-12.2238
羯磨	-12.2238
未所見邊	-12.2238
止觀俱行	-12.2238
能說之人	-12.2239
十解巳去	-12.2239
顏色變異	-12.2239
唯辨真性	-12.2239
發大誓願	-12.2239
祇夜	-12.2239
等皆熏習	-12.2239
(50	-12.2239
汝雖言	-12.2239
羸劣	-12.2239
廻向	-12.2239
佛告比丘	-12.224
親族	-12.224
不離不脫	-12.224
懷兔	-12.224
光澤	-12.224
変	-12.224
或捨本勝行	-12.224
一道清淨	-12.224
如法華云	-12.224
更修雜業	-12.224
樂集一切諸善行故	-12.224
非學世間	-12.224
晝夜六時	-12.224
有德業故	-12.224
色自在地	-12.224
埋	-12.2241
經律論	-12.2241
怖懼	-12.2241
於無明念中	-12.2241
遼	-12.2241
非想非非想無邊入	-12.2241
即涅槃相	-12.2241
正會伏疑	-12.2241
若說如空	-12.2241
肆	-12.2241
篇	-12.2241
那先說經	-12.2241
錫	-12.2241
貢高	-12.2242
作如是唱	-12.2242
石壁	-12.2242
陵蔑	-12.2242
至下當知	-12.2242
謂不空法	-12.2242
不覺妄慮	-12.2242
第七天王梵	-12.2242
金莊嚴具	-12.2243
廢忘	-12.2243
不依地水火風	-12.2243
膏	-12.2243
但隨妄念	-12.2243
一坐食	-12.2243
繫屬三界	-12.2243
二地至七地	-12.2244
舉廣類求	-12.2244
苦空無常	-12.2244
若真實天	-12.2244
為邪魔諸鬼之所惱亂	-12.2244
蒲	-12.2244
十二門論	-12.2244
壬	-12.2244
縈	-12.2245
尠	-12.2245
以有火故	-12.2245
立為唯識	-12.2245
應名立宗	-12.2245
無常之聲	-12.2246
植善根	-12.2246
顯示正義對治邪執	-12.2246
故次文云	-12.2246
大梵天王	-12.2247
非自性動	-12.2247
􂶛	-12.2247
於真如法中	-12.2247
爾時坐禪人	-12.2247
六十二見	-12.2247
諸佛所護	-12.2247
離實大有	-12.2247
不依形色	-12.2247
儒	-12.2247
順決擇分	-12.2248
野惒羅言	-12.2248
染法雖多	-12.2248
有法喻合	-12.225
眩	-12.225
一合相	-12.225
幻術	-12.225
覆蔽	-12.2251
渴乏	-12.2251
離教分別	-12.2251
調和	-12.2252
生於不信	-12.2252
見佛色身	-12.2253
刊	-12.2254
惶	-12.2254
作惡得殃	-12.2254
諱	-12.2255
曠劫	-12.2257
後陳眼識	-12.2258
孝順	-12.226
相不離體	-12.226
初一是總	-12.2263
有性有緣性	-12.2264
揭	-12.2265
俱胝劫	-12.2272
摩賀	-12.2274
摧伏我慢	-12.228
無果利	-12.2288
六十劫	-12.2301
遇惡因緣	-12.2303
以垢無量	-12.2327
是疑因性	-12.2332
大乘集菩薩學論卷第二十	-12.2366
所不攝故	-12.2388
重說偈	-12.2434
aṃ	-12.2467
生死之苦	-12.2476
喻上所立	-12.2482
海意經	-12.2534
用彼為	-12.2574
次當說現示	-12.2702
初結指科分	-12.2738
此業報於	-12.2815
有二初解義門	-12.286
初徵起	-12.2871
隨說一	-12.3025
二初結指	-12.3112
辟支	-12.3122
心動說名為業	-12.3184
餘中品上品	-12.319
色之與心	-12.3198
阿迦尼吒	-12.3206
不冷不熱	-12.3206
阿呼門	-12.3206
諸質礙者	-12.3207
豺	-12.321
鳩婁	-12.3212
因此地果報	-12.3214
精媚神	-12.3214
非是智色不空之性	-12.3214
五住性結	-12.3215
有違現亦	-12.3215
喻本性王	-12.3216
如遮實等	-12.3216
盡智無生智	-12.3216
捨念清淨	-12.3217
聚磕	-12.3218
凶	-12.3218
憎嫉	-12.3218
僧祇劫	-12.3218
祿	-12.3218
匡	-12.3218
睫	-12.3219
故知煩惱因緣有	-12.3219
彼說諸業	-12.3219
夭	-12.3219
七重多羅樹林之所圍	-12.3219
如說懷兔非月有故	-12.3219
於當所說	-12.322
恍惚如夢	-12.322
此二名譬喻	-12.322
此人依於諸佛菩薩等	-12.322
芥	-12.322
膩	-12.322
時外林中	-12.3221
属	-12.3221
餘皆此相似	-12.3221
搜	-12.3221
約法廣辨	-12.3221
久習淳熟其心得住	-12.3221
阿僧祗	-12.3221
言語路絕	-12.3222
聊	-12.3222
挑	-12.3222
設有求大乘者	-12.3222
唯依心現	-12.3222
而內淨法未有熏習力者	-12.3222
功德本藏	-12.3222
如是當念一切眾生	-12.3222
無相現應門	-12.3222
無明之相不離覺性	-12.3223
諦聽諦聽善思念	-12.3223
吟	-12.3223
若於坐中現形恐怖	-12.3223
踞	-12.3223
過患本藏	-12.3223
久遠得度故	-12.3223
欺詐	-12.3223
慣	-12.3223
假智及詮	-12.3223
若見若聞得利益故	-12.3223
防退之法	-12.3223
歸性門	-12.3223
乃能進趣向涅槃道	-12.3224
速得度故	-12.3224
若行若住	-12.3224
令得涅槃第一義樂	-12.3224
涅槃可欣	-12.3224
增上心學	-12.3224
是菩薩於一念頃	-12.3224
於中遇緣亦有發心	-12.3224
業識根本熏習	-12.3224
商羯羅主	-12.3225
彼坐禪人以此門以此行	-12.3225
囀	-12.3225
漾	-12.3225
能知名義為說真覺	-12.3225
同知同緣	-12.3225
若能分得進居	-12.3225
圓融具德	-12.3225
所獲罪報	-12.3225
卿曹諸沙門	-12.3225
金銀珍寶	-12.3225
澍	-12.3225
皆願度脫一切眾生	-12.3225
謳	-12.3225
鷹	-12.3226
以一切法常靜無有起相	-12.3226
而復即念因緣和合善惡之業	-12.3226
正陳所說	-12.3226
函	-12.3226
犍	-12.3226
若見厄難恐怖危逼	-12.3226
龍樹菩薩造姚秦三藏筏提摩多奉詔譯	-12.3226
諸無常者皆是所作	-12.3226
專意念佛	-12.3227
自無實相	-12.3227
給孤獨	-12.3227
師子虎狼	-12.3227
携	-12.3227
及諸雜花	-12.3227
於第一阿僧祇劫將欲滿故	-12.3227
未來之事不覺妄慮	-12.3227
為示專念方便	-12.3227
鞞世師	-12.3227
諸佛所得涅槃與之相應	-12.3227
依如來藏故有生死	-12.3227
實無於念	-12.3227
𦘕	-12.3227
從心念至	-12.3227
亦不限劫數盡於未來	-12.3227
次下辨相	-12.3227
執取相計名字相	-12.3227
隨於六道各見不同	-12.3227
專住一趣	-12.3228
掠	-12.3228
陳西印度三藏真諦譯	-12.3228
如種生芽	-12.3228
所流教法	-12.3228
兜	-12.3228
佛說立世阿毘曇論卷第	-12.3228
世間諸法畢竟體空	-12.3228
乃至涅槃真如之法亦畢竟空	-12.3228
勿令此心墮於邪網	-12.3228
於四諦中	-12.3228
虎狼	-12.3228
脛	-12.3228
蔭	-12.3228
作六根境界	-12.3228
帝釋天主	-12.3228
能令現在巳經之事	-12.3228
於一切時於一切處	-12.3228
是可見相	-12.3228
還兩答	-12.3228
修行有五門	-12.3229
或有或無	-12.3229
難捨難離	-12.3229
得少分見法身	-12.3229
▁164	-12.3229
多言名為能立	-12.3229
ś	-12.3229
不能得隨順世間一切境界種種知故	-12.3229
無始來有	-12.3229
無相方便地	-12.3229
興造一切趣生	-12.3229
庶幾	-12.3229
是故說此名	-12.3229
全攬真如為體	-12.3229
梵網經	-12.3229
以不知轉識現故見從外來	-12.3229
由彼於義	-12.3229
若觀彼佛真如法身	-12.3229
若許爾者	-12.3229
隨願得生他方佛土	-12.3229
譏嫌	-12.3229
約緣別顯	-12.3229
菩薩分知	-12.3229
九次第定	-12.3229
冷煖	-12.3229
就第一中有	-12.3229
一一位位各增	-12.3229
即示摩訶衍體故	-12.323
會編順天府府丞戴京曾閱定	-12.323
須臾變壞	-12.323
漸漸能捨	-12.323
但示於體	-12.323
從麤至細	-12.323
畢竟得生住正定故	-12.323
皆應一時自知有真如法	-12.323
逆論滅義	-12.323
建立二種摩訶衍門	-12.323
妄念而有差別	-12.323
初夜後夜	-12.323
湏	-12.323
牛羊	-12.323
厭為味	-12.323
一切諸想隨念皆除	-12.323
以取一切眾生如巳身故	-12.323
外緣力劣	-12.323
若人雖念真如	-12.323
若諸佛有自然業	-12.323
明能作緣者	-12.323
na	-12.323
受緣愛	-12.323
野干	-12.323
不從外入	-12.323
使無有餘	-12.323
可成能破	-12.323
青瘀	-12.323
五者能見心不相應染	-12.323
謂無明力不覺心動故	-12.323
ti	-12.3231
因生滅染義示現說差別故	-12.3231
若人聞是法巳	-12.3231
隨順修行禪波羅蜜	-12.3231
種種方便起隨順行	-12.3231
膽	-12.3231
養育	-12.3231
覺於念異念無異相	-12.3231
起下復次生滅	-12.3231
熱惱衰變則不自在	-12.3231
唯真如智	-12.3231
色即是空	-12.3231
其用轉勝	-12.3231
只由不覺	-12.3231
種種諸識浪	-12.3231
揔	-12.3231
舡	-12.3231
染淨雖成	-12.3231
無生法忍	-12.3231
合說契當門	-12.3231
過前功德不可為喻	-12.3231
開悟他時	-12.3232
而實菩薩種性根等	-12.3232
若人雖念寶性	-12.3232
若離於念名為得入	-12.3232
依業受報	-12.3232
滿足方便一念相應	-12.3232
有始無終	-12.3232
薄伽梵	-12.3232
孩	-12.3232
廣顯緣起差別	-12.3232
淨法熏習則無有斷	-12.3232
刪	-12.3232
義一名異	-12.3232
拙	-12.3232
因悲立願	-12.3233
假令十方一切諸佛	-12.3233
空與不空	-12.3233
遠離塵累	-12.3233
常自一心	-12.3233
信等五根	-12.3233
一者總表	-12.3233
諸無常者見彼質礙	-12.3233
倍勝於前阿僧	-12.3233
拾	-12.3233
亦害他人	-12.3233
吏	-12.3233
二寄問列名	-12.3234
是三無差別	-12.3234
而有鑛穢之垢	-12.3234
一發心後	-12.3234
三者不為九十五種外道鬼神之所惑亂	-12.3234
得自然香美飲食	-12.3234
心生法生	-12.3234
稠	-12.3234
妻妾	-12.3234
無怨無親	-12.3234
菩薩學處	-12.3234
轉至滅相	-12.3234
隨其五塵對至	-12.3234
坐菩提場	-12.3234
抖擻	-12.3234
念此定有	-12.3234
如言聲常	-12.3234
▁168	-12.3234
顛狂	-12.3235
信位初心	-12.3235
因功力生	-12.3235
得生正信	-12.3235
能修人	-12.3235
殺盜婬	-12.3235
浸	-12.3235
圓成實性	-12.3235
形相當如何	-12.3235
取色分齊不能盡知故	-12.3235
此娑婆世界	-12.3235
即識之色	-12.3235
五意六染	-12.3235
霑	-12.3235
輭	-12.3235
吉祥佛那謨	-12.3235
自性滿足一切功德	-12.3235
水起波	-12.3235
總說雖然	-12.3235
彊	-12.3235
將欲滿故	-12.3235
離三假相	-12.3236
性起為相	-12.3236
常見於佛	-12.3236
江河	-12.3236
詠	-12.3236
以一切如來皆依此法得涅槃故	-12.3236
釋法身能現	-12.3236
駄	-12.3236
以水不滅	-12.3236
能說之人色心業勝	-12.3236
內無色想觀外色	-12.3236
心法雖一	-12.3236
流溢	-12.3236
蕭	-12.3236
晉	-12.3236
懶惰	-12.3237
以能究竟顯實故	-12.3237
心樂總持少文而攝多義能取解者	-12.3237
復次本覺隨染分別生二種相	-12.3237
何相何味何起何處	-12.3237
斷絕一切三寶之種	-12.3237
唯為顯因	-12.3237
選	-12.3237
同喻如眼識	-12.3237
舉是彰得	-12.3237
從三生於	-12.3237
構	-12.3238
無覆無記	-12.3238
牽來近身	-12.3238
釋曰後依門辨相有二初	-12.3238
一者常為十方諸佛菩薩之所護念	-12.3238
依名辨釋	-12.3238
譬喻善巧門	-12.3238
如數論師對佛弟子	-12.3238
截手足	-12.3238
塑	-12.3239
羊鹿	-12.3239
是言便失能成立	-12.3239
韋陀	-12.3239
嶽	-12.3239
覺了心源	-12.3239
々	-12.3239
如是十名	-12.3239
引經第二十	-12.3239
相應先行海	-12.3239
謂有一類	-12.3239
輕蔑	-12.324
若內若外	-12.324
躭	-12.324
則風相斷絕	-12.324
抵	-12.324
緣相同者	-12.324
城邑聚落	-12.324
從本起末	-12.324
得色人	-12.324
於上不怯	-12.324
現形說法	-12.324
梓	-12.324
一一白白	-12.324
捕魚	-12.3241
有財釋	-12.3241
粉	-12.3241
乃至得佛後則有斷	-12.3241
刀刃	-12.3241
簡持義	-12.3241
於剎那頃	-12.3241
儀軌	-12.3241
申相違量	-12.3241
刀兵	-12.3241
答第二問	-12.3242
漬	-12.3242
粒	-12.3242
討	-12.3242
捲	-12.3242
駛	-12.3242
成淳淨圓智	-12.3243
慜	-12.3243
生死無本	-12.3243
前破後	-12.3243
􂎶	-12.3243
恢	-12.3243
如即此人	-12.3243
稍稍	-12.3243
生其苦樂	-12.3244
離實之有	-12.3244
揵	-12.3244
顯示所作業用門	-12.3244
紹隆	-12.3244
正謂此也	-12.3244
碍	-12.3244
譬若有人	-12.3244
真故極成色是有法	-12.3245
佛聖弟子修習	-12.3245
真隨妄轉	-12.3245
冐	-12.3245
材	-12.3246
橫竪	-12.3246
於五陰中	-12.3246
引經第三十	-12.3246
湛寂	-12.3246
睿	-12.3248
心無有起	-12.3248
有三初總	-12.3248
離流轉因	-12.3249
無量行緣	-12.3249
內外熏力	-12.3249
諷	-12.3249
若作此解	-12.3249
持散偈	-12.325
生於彼已受	-12.325
棄捐	-12.325
悲泣	-12.3251
燃燈	-12.3251
曆	-12.3251
月燈三昧經	-12.3252
貪嗔癡	-12.3253
童男童女	-12.3253
陰陽	-12.3253
已生於彼受業果報	-12.3254
数	-12.3254
汲	-12.3254
佐	-12.3256
李	-12.3257
如巳身	-12.3257
得成淨信	-12.3258
侯	-12.3258
殑	-12.3258
晚	-12.3261
完	-12.3263
由所說言	-12.3265
施時不	-12.3265
令人不喜	-12.3265
令人內愁	-12.3265
成礙義	-12.3266
推求五陰色之與心	-12.3269
因依有法	-12.3269
以依不覺故心動	-12.3272
一部論文	-12.3273
人與陰各	-12.3273
銘	-12.3274
妙高山	-12.3277
􂏔	-12.3283
在家出家	-12.329
得其便	-12.3324
有兩義	-12.333
住思應觀	-12.3337
燒燃	-12.3346
當此天	-12.3383
自宗所許	-12.3404
告諸比丘	-12.3412
心得安	-12.3414
我先不	-12.3425
▁第三十	-12.3429
月十五日	-12.3433
無表色	-12.344
堨那	-12.3453
下解第	-12.3479
▁第二十	-12.3482
良醫	-12.3516
前重所入	-12.3526
萬一千	-12.3532
無惡不	-12.3596
下依門釋相二初	-12.3653
初結指標徵	-12.3802
不生滅與生滅	-12.3876
如仁王經	-12.3974
所獲福	-12.4003
總結勸修	-12.4074
立敵共諍	-12.4157
作熏事	-12.419
位間五蘊	-12.4233
不為外緣一切音聲之所驚動	-12.4247
如厨等	-12.4262
明真如法身自體不空	-12.4286
婁	-12.4311
姹	-12.4312
放大光明	-12.4315
兄弟	-12.4316
傘	-12.432
盾	-12.4321
𠼦	-12.4322
木中火	-12.4323
皆能開示種種法義	-12.4323
分別修行正道相	-12.4323
立無果故	-12.4323
禦	-12.4324
如縷貫	-12.4324
斬斫離散	-12.4324
啻	-12.4324
痴	-12.4324
是心即攝一切世間出世間法	-12.4325
五知根	-12.4325
增上慧學	-12.4325
餓	-12.4325
愚夫異生	-12.4325
隨諸眾生所應得解	-12.4326
瑣	-12.4326
醋	-12.4326
渠	-12.4326
不壞假名而說實相	-12.4327
見彼質礙	-12.4327
毘提訶	-12.4327
蠶	-12.4328
發引業	-12.4328
滋茂	-12.4328
次經二十小劫	-12.4328
詢	-12.4328
四智心品	-12.4328
心不見心無相可得	-12.4329
我從今日斷	-12.4329
應觀未來所念諸法	-12.4329
百佛世界	-12.4329
盡知恒沙諸佛法界無差別相	-12.4329
各有十名	-12.4329
入正理之因明	-12.4329
唇	-12.4329
八分聖道	-12.433
受此殘害	-12.433
鑊	-12.433
諦聽諦聽	-12.433
赦	-12.433
勃	-12.4331
十八不共法	-12.4331
屢	-12.4331
與佛妙法味	-12.4331
栗	-12.4331
阿浮陀	-12.4331
企	-12.4331
巍	-12.4331
或以大悲故能自發心	-12.4331
觧	-12.4331
真諦三藏譯	-12.4332
下文自釋	-12.4332
皆因無明所熏習故	-12.4332
大目乾連	-12.4332
宮殿羅列	-12.4332
能覺此染	-12.4332
約非有義以明止	-12.4332
訟	-12.4332
􂌞	-12.4333
殄	-12.4333
增上戒學	-12.4333
開章略辨	-12.4333
說聲非所聞	-12.4333
以護法因緣	-12.4333
修止勝能	-12.4333
頗梨柯	-12.4333
由所量等九	-12.4333
何修何相何味何	-12.4333
毀滅佛法	-12.4333
以電空等為異品	-12.4333
及彼身體相法性真如海無量功德藏	-12.4333
翫	-12.4334
依此法得成淨信	-12.4334
有我無我不可說	-12.4334
水清珠	-12.4334
起含不起	-12.4334
傍成無我	-12.4335
所成立法常性是	-12.4335
聲是勤勇無間所發	-12.4335
蕉	-12.4335
勇銳	-12.4335
怱	-12.4335
洄	-12.4335
蚊虻	-12.4335
唯除坐時專念於止	-12.4335
根則不定	-12.4335
均等義品	-12.4335
摩訶摩耶經	-12.4335
波羅蜜多而得圓滿	-12.4335
二依標別釋	-12.4336
以一切色法	-12.4336
更見前法可念者	-12.4336
下釋相三初	-12.4336
復次初發意菩薩等所見者	-12.4336
乘船遊	-12.4336
常念修行諸波羅蜜故	-12.4336
色形醜陋	-12.4336
謂說如覺	-12.4336
若著世事種種牽纏	-12.4336
濯	-12.4337
交絡	-12.4337
陿	-12.4337
所謂依因依緣	-12.4337
所謂為令眾生離一切苦得究竟樂	-12.4337
於摩訶衍法堪任不退信故	-12.4337
執染淨有始終	-12.4337
匝	-12.4337
如服藥	-12.4337
倉庫	-12.4337
未得無分別心與體相應故	-12.4337
無超次第漸轉位	-12.4337
覺於念住念無住相	-12.4337
標歎甚深	-12.4337
隨其流處	-12.4337
不覺心源故	-12.4338
此藥能安	-12.4338
驕	-12.4338
綠	-12.4338
具足無量樂相故說為報	-12.4338
積功所得	-12.4338
候冷	-12.4338
隨其願力能現八種利益眾生	-12.4338
懷兔非月	-12.4338
以色性即智故	-12.4338
諸女天等	-12.4338
能至十方無餘世界	-12.4338
朗然大悟	-12.4338
無邊德藏僧	-12.4338
焦爛	-12.4338
以無量方便救拔一切苦惱眾生	-12.4338
胎藏止息	-12.4338
或復令人若一日若二日若三日	-12.4338
寒暑	-12.4339
出邪網故	-12.4339
生於佛前	-12.4339
患者服之	-12.4339
大總相法門體	-12.4339
棒	-12.4339
十種大因緣	-12.4339
時後不食	-12.4339
生滅是攬理成事門	-12.4339
乃至七日住於定中	-12.4339
妄執法體唯是空	-12.4339
若心有動非真識知	-12.4339
毗盧遮那	-12.4339
無有彼此色相迭相見	-12.4339
如言燒衣	-12.4339
秪	-12.4339
萬曆	-12.4339
隨巳堪任	-12.4339
初寄問生起	-12.4339
彩畫	-12.4339
拈	-12.4339
觀察學斷	-12.4339
囚	-12.4339
舶	-12.4339
心性和雅戒品具足	-12.4339
攝用歸體	-12.434
突	-12.434
心樂總持	-12.434
或說平等空無相無願	-12.434
結德屬人	-12.434
菩薩發心勇猛速趣涅槃	-12.434
常行勝善	-12.434
挽	-12.434
銀青光祿大夫	-12.434
亦當忍於利衰毀譽稱譏苦樂等法故	-12.434
如二乘觀智初發意菩薩等	-12.434
對始覺義說	-12.434
此識何相何境	-12.434
生滅是起動門	-12.434
悞	-12.434
以無常成所作	-12.434
無明住地其力最大	-12.434
止成得定除障不退	-12.4341
to	-12.4341
無名過量功德	-12.4341
真心隨熏	-12.4341
以一切法皆從心起妄念而生	-12.4341
苦樂等報不失不壞	-12.4341
六十千歲	-12.4341
區區	-12.4341
楊	-12.4341
卑賤家	-12.4341
嬌	-12.4341
馳走	-12.4341
唯風滅故動相隨滅	-12.4341
鬚	-12.4341
妄執事空以為法體	-12.4341
罄	-12.4341
□□□□	-12.4341
是分別事識因	-12.4341
依二乘解脫	-12.4341
頞浮陀	-12.4341
信業果報能起十善	-12.4341
去來進止	-12.4341
啄	-12.4342
換	-12.4342
有命無命	-12.4342
二者細與心不相應故	-12.4342
及信相應地遠離	-12.4342
心言罔及	-12.4342
性自神解	-12.4342
是其麤色	-12.4342
無明染法實無淨業	-12.4342
不覺念動	-12.4342
傅大士	-12.4342
復以廣論文多為煩	-12.4342
會相入實	-12.4342
於無過喻	-12.4342
椎	-12.4342
妍	-12.4342
如來應供正等正覺	-12.4342
如水八德	-12.4342
定當作佛	-12.4342
卿曹	-12.4342
嗚	-12.4342
如人迷故	-12.4343
不飢不渴	-12.4343
住持過去無量世等善惡之業令不失故	-12.4343
依本覺有不覺	-12.4343
是知今動	-12.4343
廻	-12.4343
橋	-12.4343
宗義相類	-12.4343
以色性即智故色體無形說名智身	-12.4343
即當攝來住於正念	-12.4343
從無始巳來	-12.4343
所證亦等	-12.4343
故勝鬘云	-12.4343
是時諸人依福德行	-12.4343
此人功德亦復如是無有邊際	-12.4343
能感富貴家生	-12.4343
未來菩薩當依此法得成淨信	-12.4343
現在菩薩今依此法得成淨信	-12.4343
後則有斷	-12.4343
不如有人於一食頃正思此法	-12.4343
及以善道善道中住	-12.4343
在生起識	-12.4343
執體疑相難	-12.4343
義豐文約	-12.4343
能受阿羅漢辟支佛一切菩薩生滅苦故	-12.4343
沈淪	-12.4343
衒	-12.4343
燋	-12.4343
頰	-12.4343
所謂以有真如法故能熏習無明	-12.4343
此妄境界熏習義則有二種	-12.4343
以四相俱時而有皆無自立	-12.4344
修死想	-12.4344
乃至有頂	-12.4344
用還歸體	-12.4344
不覺心源故非究竟覺	-12.4344
云何說究竟滅	-12.4344
於理無違	-12.4344
措	-12.4344
粹	-12.4344
心滅法滅	-12.4344
獨一山王摩訶山王	-12.4344
斯有何失	-12.4345
篤	-12.4345
不離不斷不異真如義故	-12.4345
於生死中勇猛不怯	-12.4345
是故一切法從本已來	-12.4345
若說布施持戒忍辱精進禪定智慧	-12.4345
難問門	-12.4345
因生滅染義	-12.4345
初釋生滅心法	-12.4345
即復此心亦無自相	-12.4345
諸佛及諸菩薩	-12.4345
名無始無明住地	-12.4345
賒	-12.4345
恒沙等上煩惱	-12.4345
自信巳身有真如法	-12.4345
貪愛瞋恚邪見	-12.4345
雖一切分皆能為因	-12.4345
如大乘對小乘	-12.4345
所謂不生不滅與生滅和合非一非異	-12.4345
所餘皆不定	-12.4345
瞑	-12.4345
飛禽	-12.4345
違他順巳	-12.4345
以眾生根行不等	-12.4345
謂於是處無其所立	-12.4345
捨於憍慢	-12.4345
計有外塵	-12.4345
識名色六處觸受	-12.4345
所謂應忍他人之惱	-12.4345
以熏習故則有妄心	-12.4345
以體不滅	-12.4345
由此有諸趣	-12.4345
非顛倒說	-12.4345
姑	-12.4346
心不懷報	-12.4346
心不自起	-12.4346
五十一種根本位	-12.4346
其義自顯	-12.4346
後六變如次增倍倍數轉	-12.4346
能示如是無數方便不可思議	-12.4346
若有眾生欲於如來甚深境界	-12.4346
初正答前問	-12.4346
以定研磨	-12.4346
心不相應忽然念起名為無明	-12.4346
非道邪行	-12.4346
天子天女	-12.4346
顯利他德	-12.4346
酉	-12.4346
初顯勝德	-12.4347
色性隨心	-12.4347
仲	-12.4347
無眾生無命	-12.4347
骨鎖	-12.4347
織	-12.4347
又諸部說	-12.4347
息諸緣務	-12.4347
是總體故	-12.4347
商羯羅	-12.4347
如木中火性	-12.4347
唯見此理	-12.4347
夢念未盡	-12.4347
性無常準	-12.4347
呾	-12.4347
若異此者	-12.4347
初略配	-12.4347
陌	-12.4347
反以釋成	-12.4348
付囑	-12.4348
多疑多慮	-12.4348
云何世間多不能見	-12.4348
釋罪重意	-12.4348
虛空藏經云	-12.4348
其一一塹	-12.4348
知心無念	-12.4348
故能現色	-12.4348
發大勇猛	-12.4348
筒	-12.4348
練磨	-12.4348
身受心法	-12.4348
厭生死樂求涅槃	-12.4348
念中最細	-12.4348
以能成就業識義故	-12.4348
定成一宗	-12.4349
顯所依因緣體	-12.4349
厚薄不同故	-12.4349
鄉	-12.4349
亥	-12.4349
應亦成因	-12.4349
標釋俱成門	-12.4349
燦	-12.4349
由合故知因	-12.4349
沾	-12.435
即見彼分	-12.435
薦	-12.435
似一似常	-12.435
能說字相門	-12.435
亦作如來像	-12.435
稽	-12.435
會釋伏疑	-12.435
証	-12.435
食差顏變	-12.435
但為成立此相應物	-12.4351
會彼同此	-12.4351
寢	-12.4351
楯	-12.4351
邪歸正	-12.4351
如細蜂蜜	-12.4351
從四大生	-12.4351
或多慈愛	-12.4351
挫	-12.4351
誣	-12.4351
自相大義門	-12.4351
智相及相續相	-12.4351
隨願往生	-12.4351
頼	-12.4351
我愛執藏	-12.4351
或有眾生能以自力廣聞而取解者	-12.4351
故因明疏云	-12.4352
是為發起第	-12.4352
生不信心	-12.4352
多有重罪惡業障故	-12.4352
須陀味	-12.4352
以無虗妄心念故	-12.4352
種種牽纏	-12.4352
本來法然	-12.4352
所謂於諸善事	-12.4353
儒童	-12.4353
準釋可知	-12.4353
立敵兩家	-12.4353
風水相依	-12.4353
無思成自事	-12.4353
欝多羅	-12.4353
牖	-12.4353
弁	-12.4353
這	-12.4353
富樓那	-12.4353
我今隨分總持說	-12.4354
冰	-12.4354
釋曰後釋文有三初	-12.4354
卯	-12.4354
成始覺萬德差別	-12.4354
悟辟支佛緣	-12.4354
墮諸惡趣	-12.4354
如理應思	-12.4354
債主無如之何	-12.4355
森羅	-12.4355
不覺與覺	-12.4355
退入凡夫	-12.4355
與上相違	-12.4355
裝	-12.4355
權衡	-12.4355
二足尊	-12.4356
成唯識云	-12.4356
拜	-12.4356
具無漏功德	-12.4356
異品通無	-12.4356
抗	-12.4356
乳湩	-12.4356
準華嚴說	-12.4356
約自體不斷	-12.4356
影顯示故	-12.4356
懇	-12.4357
巴	-12.4357
帖	-12.4357
無上法王	-12.4357
離慮知縛	-12.4357
浩	-12.4357
二所觀相	-12.4357
色心業勝	-12.4357
穆	-12.4358
能有四大非四大種	-12.4358
沈溺	-12.4358
舍衛城	-12.4358
匣	-12.4358
當念過去久遠巳來	-12.4358
有如是等無量	-12.4359
波羅㮈	-12.4359
牆壁	-12.4359
應審思惟	-12.436
是凡夫人修習	-12.436
外道執有等性與諸法	-12.436
此豈不是	-12.436
賜紫	-12.436
今此經文為	-12.4361
逝	-12.4361
紐	-12.4361
毘奈耶	-12.4361
惡立異法	-12.4362
因是業得	-12.4362
菩薩為諸有情起大悲心故	-12.4366
候	-12.4367
珊瑚	-12.4367
窣	-12.4367
過現未來	-12.4369
樂解脫智	-12.4369
鋒刃	-12.4369
或見一類有情	-12.4371
起厭樂	-12.4371
真如不礙生滅	-12.4372
七覺意	-12.4373
鼎	-12.4374
初述釋	-12.4375
能所平等門	-12.4387
報佛恩	-12.4388
釋疑廣辨	-12.4392
三依章廣釋	-12.4393
抳	-12.4424
下第二廣釋	-12.4455
所起種種惡業	-12.4486
三寶之種	-12.4498
千萬人	-12.4583
六大國	-12.4676
喻如眼根	-12.4683
下第二別釋	-12.4817
依門釋相	-12.4917
即是外道經說	-12.5108
若說三界外更有眾生始起者	-12.5113
業能感壽命短促	-12.5436
復次有四種法熏習義故	-12.5528
若遊行者唯	-12.553
染法淨法起不斷絕	-12.554
頗有現量相違	-12.5547
迦婁羅	-12.5548
所謂推求五陰	-12.5551
由此日夜三十日為一月	-12.5553
山壁柵	-12.556
皆不離見愛我慢之心	-12.5562
主海神王	-12.5562
罤	-12.5564
能止後念令其不起	-12.5565
捨壽命後上生	-12.5565
所棄屍	-12.5567
莊	-12.5568
揵闥婆	-12.5569
被染誑	-12.557
無明熏習所起識者	-12.5571
乃至識亦如是	-12.5571
深伏煩惱信心增長速成不退	-12.5571
有違現非	-12.5571
唯是隨染業幻所作	-12.5571
其出水塵	-12.5572
伊沙陀	-12.5572
晃耀	-12.5573
輪圍山	-12.5573
刑戮	-12.5574
竄	-12.5575
無前無後	-12.5575
以修善根成熟故	-12.5575
娠	-12.5576
􂵛	-12.5576
如是等似宗因喻言	-12.5576
當知唯有現比二量	-12.5576
四生九類	-12.5577
猶如於雲	-12.5577
久遠巳來煩惱深厚	-12.5577
恐繁不述	-12.5578
受熏持種	-12.5578
乾慧地	-12.5578
譬如妙好𣰽毺	-12.5578
海外有山	-12.5578
猿	-12.5579
立我以為和合	-12.5579
依言辨德以明生信境	-12.5579
諸佛無盡藏	-12.5579
毘那多	-12.558
我當為汝分別解說	-12.5581
若法能成相違所立	-12.5581
或因正法欲滅	-12.5581
闊	-12.5581
各緣自依	-12.5582
胞胎	-12.5582
作何業令諸有情	-12.5582
若身若心	-12.5582
則說為意	-12.5582
巳受一切身心大苦	-12.5582
柯羅羅	-12.5582
歘	-12.5582
種種妄執隨事攀緣	-12.5582
謂說如業	-12.5582
爾時世尊告我言	-12.5582
臘吉支	-12.5583
即與真如等遍一切處	-12.5583
宴	-12.5583
所作已辦	-12.5583
一切凡夫聲聞緣覺菩薩諸佛無有增減	-12.5583
二初寄問生起二	-12.5583
照而常寂	-12.5583
以電以瓶為同法	-12.5583
極成有法極成能別	-12.5583
四圍陀	-12.5583
人頂骨淨	-12.5583
今此起信論中	-12.5583
為如瓶等無常性故	-12.5583
稱我言說無道理	-12.5583
生長無常之	-12.5583
丹	-12.5583
拘舍彌	-12.5584
但遣所立	-12.5584
殞	-12.5584
為如電等無常性故	-12.5584
世尊即告文殊師利	-12.5584
成立最勝為有	-12.5584
遠離癡慢	-12.5584
勸脩利益分	-12.5584
少淨天	-12.5584
禱	-12.5584
囂	-12.5584
依此二義恒常熏習	-12.5584
就人標意	-12.5584
撻	-12.5584
訾	-12.5584
如成立聲為無常等	-12.5584
極怖畏故	-12.5584
若以離類合	-12.5584
此二皆有業用顯現	-12.5584
廣釋魔事對治門	-12.5585
根本總相門	-12.5585
若有眾生來到我所	-12.5585
是火正因	-12.5585
心無悋惜	-12.5585
應唯簡別	-12.5585
我造此罪	-12.5585
二問答除疑	-12.5585
入趣意	-12.5585
別釋廣說門	-12.5585
个	-12.5585
因眼緣色	-12.5585
狸	-12.5585
四悉檀	-12.5585
我今共汝	-12.5585
羹	-12.5585
二十種本藏	-12.5585
自滿足一切功德	-12.5585
有信無信	-12.5585
次佛後供養	-12.5585
初開問門	-12.5586
祭	-12.5586
宗等多言名為能立	-12.5586
則無虗空之相	-12.5586
取塵別相	-12.5586
總標略示門	-12.5586
餌	-12.5586
唯由精動隱流	-12.5586
嘴	-12.5586
世界散壞已住	-12.5586
人能攝德	-12.5586
以水不滅風相相續	-12.5586
前說諸位中	-12.5586
復次女人懷孕至第	-12.5586
懼謂信心難可成就	-12.5586
捨壽命已生	-12.5586
得少分知	-12.5586
依信力故而能修行	-12.5586
則為證得如來智慧	-12.5586
引經釋成心源無念	-12.5586
而有無量煩惱垢染	-12.5586
蔑	-12.5587
示現萬化	-12.5587
鉗	-12.5587
但為初學菩薩未入正位而懈怠者	-12.5587
唵婆尸尼	-12.5587
夢於異相	-12.5587
欲界及無色	-12.5587
祐	-12.5587
經一萬劫信心成就故	-12.5587
體離言以明觀智境	-12.5587
唯一真心無所不遍	-12.5587
顯示答釋廣說門	-12.5587
▁77	-12.5587
不捨緣而即真	-12.5587
痊	-12.5587
無得久停	-12.5587
不了一法界義者從信相應地觀察學斷	-12.5587
法執分別念也	-12.5587
愷	-12.5587
能觀無念者	-12.5587
纓	-12.5587
降伏一切諸外道輩	-12.5587
豐饒	-12.5587
諸女天等奏諸	-12.5587
三文合也	-12.5587
同品一分轉異品遍轉	-12.5587
四不壞信	-12.5587
於無過宗有過宗言	-12.5587
逕一萬劫	-12.5587
更受新身	-12.5587
界生有處	-12.5587
非觀偽法	-12.5587
通餘妨	-12.5587
􂵋􂵋	-12.5588
從生滅門入真如門	-12.5588
正遍覺	-12.5588
七地以還	-12.5588
塊	-12.5588
逃避	-12.5588
二者深心樂集一切諸善行故	-12.5588
別顯三慧益相	-12.5588
唯依法力自然修行	-12.5588
梗槩	-12.5588
如是亦能成立所立法差別	-12.5588
徃	-12.5588
但隨眾生見聞得益故說為用	-12.5588
親依無明因生	-12.5588
隨其所生與微苦相應	-12.5588
將釋此論	-12.5588
掣	-12.5589
金剛藏菩薩	-12.5589
八門二益	-12.5589
明生滅依因緣義	-12.5589
鑽燧	-12.5589
以瓶樂等為異品	-12.5589
先總後別	-12.5589
就此文中即有	-12.5589
龍猛菩薩	-12.5589
如勝論師對佛弟子	-12.5589
勤求正覺者	-12.5589
以空等為同品	-12.5589
入邪網	-12.5589
始息滅相	-12.5589
生長常之	-12.5589
喬	-12.5589
試光祿卿	-12.5589
為四菩薩也	-12.5589
若出家者為折伏煩惱故	-12.5589
以天百味飲食及天	-12.5589
非如虗空相	-12.5589
非約剎那生滅義也	-12.5589
▁85	-12.559
文處可見	-12.559
依二乘解脫及信相應地遠離故	-12.559
優波提舍	-12.559
動即有苦	-12.559
如風依水	-12.559
恐怖令彼勇猛故	-12.559
意之所許	-12.559
謂勤供養禮拜三寶	-12.559
不念彼此究竟寂滅故	-12.559
觀一切法因緣和合業果不失	-12.559
凡小非分	-12.559
晝夜六時禮拜諸佛	-12.559
帙	-12.559
滓	-12.559
-	-12.559
調御丈夫	-12.559
於霧等性	-12.559
隣近均等	-12.559
二初標分二	-12.559
依前轉相能現境界	-12.559
應障理智	-12.559
謂初能立缺減過性	-12.559
gacchatu	-12.559
nāṃ	-12.559
若離若脫	-12.559
▁sarva	-12.559
不動亦在動門	-12.559
當知如來有勝方便攝護信心	-12.559
事雖實爾	-12.5591
坏	-12.5591
故喻如海	-12.5591
頂光化佛	-12.5591
佛真法身	-12.5591
即謂如來之藏有色心法自相差別	-12.5591
唯真如智名為法身	-12.5591
以淨光明而為	-12.5591
勤苦難行乃得涅槃	-12.5591
乃至菩薩地盡見之究竟	-12.5591
即復此心亦無自相念念不可得	-12.5591
於真如法中深解現前	-12.5591
離本覺無不覺	-12.5591
一方三寶	-12.5591
二所化門中	-12.5591
鼈	-12.5591
即體之用	-12.5591
又因佛法僧力所護故	-12.5591
彼心為煩惱所染	-12.5591
遇緣便退	-12.5591
無超過法	-12.5591
茅	-12.5591
盎	-12.5592
讓	-12.5592
以眾生妄見境界	-12.5592
以明二種生滅之義	-12.5592
勸請行者離邪門	-12.5592
因明入正理論疏前記卷	-12.5592
蔓	-12.5592
譬如深大海	-12.5592
少光天	-12.5592
尖	-12.5592
紀綱	-12.5592
以體不滅心得相續	-12.5592
但以真如而熏習故則有淨用	-12.5592
始終起盡道理	-12.5592
種種摩尼之所	-12.5592
若相續者云何說究竟滅	-12.5592
但業相滅	-12.5592
於同有及二	-12.5592
唯依心現不離真如	-12.5592
究竟不究竟	-12.5592
若聞其說	-12.5592
靜令動	-12.5592
刑	-12.5592
唯風滅故	-12.5593
詩	-12.5593
乃至惡業受	-12.5593
大權神王	-12.5593
如無違法相違亦爾	-12.5593
無合倒合	-12.5593
若覩神變	-12.5593
隨問次第答釋門	-12.5593
遇惡緣	-12.5593
以有無明染法因故即熏習真如	-12.5593
依章別解	-12.5593
始得無念之覺	-12.5593
常應可得	-12.5593
所謂如本法名門亦爾故	-12.5593
湻	-12.5593
八大靈塔	-12.5593
従	-12.5593
液	-12.5593
入泥犁中	-12.5593
又為凡夫所見者	-12.5593
若出家菩薩	-12.5593
一切世間境界之相	-12.5593
以有妄心即熏習無明	-12.5593
化度一切眾生使無有餘	-12.5593
欲拔一切眾生苦故	-12.5593
誹	-12.5593
西天譯經三藏朝散大夫試	-12.5594
及喻過性	-12.5594
順順如如	-12.5594
念念不生念念不滅	-12.5594
所有功德無量無邊不可得說	-12.5594
舉彼損益	-12.5594
鷺	-12.5594
汝前所問	-12.5594
第六識相應之	-12.5594
不垢不淨	-12.5594
若提子	-12.5594
凡愚聞之	-12.5594
宗等多言說能立	-12.5594
譬如大摩尼寶	-12.5594
教所被機	-12.5595
鵠	-12.5595
不可以智知	-12.5595
以一切法常靜	-12.5595
依梨耶有無明	-12.5595
內無色想	-12.5595
各於無量無邊阿僧祇劫	-12.5595
增幾數	-12.5595
無說無示	-12.5595
設問答以明	-12.5595
三藏法師玄奘	-12.5595
二重釋前文	-12.5595
眾生勝劣不同門	-12.5595
在異無是因	-12.5595
四相不遷	-12.5595
之妙術	-12.5595
或說我於無量阿僧祇劫當成佛道	-12.5595
所量性因	-12.5595
世界無邊故眾生無邊	-12.5595
眾生無邊故心行差別亦復無邊	-12.5595
隨順修行尸波羅蜜	-12.5595
貿	-12.5595
謂依法出離故	-12.5595
受分段身	-12.5595
實無於香	-12.5595
舉體成生滅	-12.5595
但以無明而熏習故則有染相	-12.5595
不熏之熏	-12.5596
吾今此身	-12.5596
圓音一演異類等解	-12.5596
由合及離比度義故	-12.5596
即知心相生住異滅	-12.5596
岳	-12.5596
是業能感長壽	-12.5596
所謂以依真如法故有於無明	-12.5596
念此遍無	-12.5596
於中委悉	-12.5596
轉正法輪	-12.5596
體持用故	-12.5596
攝別成總	-12.5596
糞屎	-12.5596
若人以香而熏習故	-12.5596
以一切菩薩皆經三阿僧祇劫故	-12.5596
自問自答	-12.5596
淮	-12.5596
若所比處	-12.5596
今此唯依證了因故	-12.5596
皆依如來藏而有	-12.5596
讚歎三昧功德門	-12.5596
姿	-12.5596
吉凶	-12.5597
然唯一分且說為因	-12.5597
乃至烏波尼	-12.5597
髏	-12.5597
因心成體	-12.5597
稼	-12.5597
騰躍而轉生	-12.5597
內有色想觀外色	-12.5597
辨用之益	-12.5597
舛	-12.5597
餐	-12.5597
唼	-12.5597
稼穡	-12.5597
毘婆沙	-12.5597
多睡多病	-12.5597
若於是處說所立無	-12.5597
非佛語所不攝	-12.5597
洋	-12.5597
嫁	-12.5597
以從先世來多有重罪惡業障故	-12.5597
內熏力微	-12.5597
不顧論宗	-12.5598
以其過去無量世來	-12.5598
如是之罪倍勝於前阿僧	-12.5598
徧照眾生之心	-12.5598
是故修多羅說	-12.5598
若麁若細	-12.5598
蹙	-12.5598
辨定聖意	-12.5598
咀	-12.5598
為成大種和合火有	-12.5598
以過恒沙等煩惱染法	-12.5598
性離惑染	-12.5598
來到行者所	-12.5598
凖	-12.5598
增其勢力	-12.5598
或有眾生亦以自力少聞而多解者	-12.5598
潰	-12.5598
初生即有滅	-12.5598
瘧	-12.5598
傭	-12.5598
對非有論	-12.5598
明信心成就之行	-12.5599
處夢謂經年	-12.5599
賦	-12.5599
於下不戀	-12.5599
於貪等諸自證分	-12.5599
以無明滅故心無有起	-12.5599
力無畏等	-12.5599
波與水	-12.5599
開總成別	-12.5599
盥	-12.56
嫉妬他勝	-12.56
對敵申宗	-12.56
既取智為了因	-12.56
若青等色與色性	-12.56
商羯羅主菩薩造	-12.56
初直明淨相	-12.56
心成一性	-12.56
慼	-12.56
二初結前生後二演義疏文二初	-12.56
詺	-12.56
櫃	-12.56
對前辨異	-12.56
感應道交	-12.56
嚼	-12.5601
正結屬心	-12.5601
往生安樂國	-12.5601
得羅漢道	-12.5601
今助一釋	-12.5601
現念入息	-12.5601
則令妄心厭生死苦樂求涅槃	-12.5601
無罣礙	-12.5601
從妄念生	-12.5601
是故應當勇猛精勤	-12.5601
繹	-12.5602
架	-12.5602
崇福寺	-12.5602
諫	-12.5602
使信成滿	-12.5602
躇	-12.5602
摧邪顯正	-12.5602
榍	-12.5602
責總立難	-12.5602
如燈照物	-12.5602
輞	-12.5603
擎	-12.5603
念慮三世	-12.5603
沐浴	-12.5603
以從本來念念相續未曾離念	-12.5603
但說諸法皆空	-12.5603
依因者不覺義故	-12.5603
真如內熏無明	-12.5603
立志堅強	-12.5603
諸修定者	-12.5603
荔	-12.5604
悼	-12.5604
以從先世來	-12.5604
該攝安立門	-12.5604
但隨他動	-12.5604
坌	-12.5604
云何修行進門	-12.5604
亦無能念可念	-12.5604
即復此心	-12.5604
郡縣	-12.5604
占	-12.5605
斛	-12.5605
釋曰後作釋有二初科分	-12.5605
非異品中不顯無性	-12.5605
與二乘同	-12.5605
藐	-12.5605
一自作一	-12.5605
即於諸法無所分別	-12.5605
品識無邊入相應業	-12.5605
如是修習如是數行如第四	-12.5605
即從座起	-12.5606
兇險	-12.5606
坤	-12.5606
罕	-12.5606
髮毛爪等	-12.5606
逼迫侵形	-12.5606
反破方便	-12.5606
當知名止	-12.5606
開別釋成	-12.5606
對法藏攝	-12.5606
得免諸障善根增長	-12.5607
潭	-12.5607
能脫諸障	-12.5607
菩薩別解脫經	-12.5607
月九日	-12.5607
三摩呬多	-12.5608
多一識心	-12.5608
猶如伎兒	-12.5608
戒日王	-12.5608
然燈佛	-12.5608
共住雖未得見學此論火光明	-12.5608
樂從苦樂生恩愛從恩愛生貪欲從貪欲	-12.5608
朔	-12.5608
定通止觀	-12.5608
中初徵次	-12.5609
別除四障	-12.5609
若天若人	-12.5609
對理事二定以明真偽	-12.5609
宗相返	-12.5609
洽	-12.5609
壤	-12.561
殑伽河	-12.561
以異為同	-12.561
鉾	-12.561
有厭足	-12.561
能窮了	-12.561
隨順毗鉢舍那觀義故	-12.5611
丑	-12.5611
郤	-12.5611
昌	-12.5611
社	-12.5611
非男非女	-12.5611
體絕有無	-12.5611
疇	-12.5612
丙	-12.5612
一四句偈	-12.5612
褒	-12.5612
拽	-12.5612
彰所知論	-12.5613
一無逼樂	-12.5613
故清凉云	-12.5613
憲	-12.5615
螢	-12.5615
邃	-12.5615
仕	-12.5615
絹	-12.5615
現現別転	-12.5615
動中有不動	-12.5617
若其心念念	-12.5619
不驚不怖	-12.5619
兀	-12.562
菩提心者猶如	-12.562
浴屑	-12.5622
踵	-12.5623
斷彼是滅	-12.5626
太賢集云	-12.5626
三種相應染	-12.5627
前四十心	-12.5627
頞陂曰	-12.5628
諦察法忍	-12.5629
地界水界火界風界	-12.5631
根莖枝	-12.5635
曼拏羅	-12.5637
北山神王	-12.5643
發三種心	-12.5647
舅	-12.5647
在山上	-12.5647
爹	-12.5647
秫	-12.5649
不出此數	-12.5658
鐙	-12.5674
癹	-12.5675
皆願度	-12.5709
枿	-12.5735
不生滅心與生滅	-12.5749
壽命短促	-12.5755
小乘對大乘	-12.5832
除前第	-12.5846
開成八	-12.5922
如種種瓦器各各不同	-12.598
四軍之所	-12.6593
能自斷煩惱入涅槃者	-12.6825
現前介爾	-12.6858
從初發心乃至	-12.6926
復次依不覺故生三種相	-12.6934
曹	-12.6954
㕧	-12.6961
他化自在	-12.6966
吸	-12.6971
如以現量合	-12.6974
能成立法無質礙	-12.6979
住如來種中	-12.698
相違决定	-12.6981
俱胝那庾多	-12.6985
應知外道所有三昧	-12.6987
其子乃名	-12.6987
又如父名	-12.6987
阿阿阿	-12.6987
咇	-12.6989
果中所證最勝上	-12.6989
讎	-12.6992
眾生來生其國	-12.6995
其樹形相	-12.6996
岩	-12.6996
則值諸佛菩薩示教利喜	-12.6997
埵	-12.6997
若以合類離	-12.6998
云何此獄名	-12.6999
甄	-12.6999
叛	-12.7
朱	-12.7
聯	-12.7001
空空空一	-12.7001
謂一切諸佛法身與眾生身平等無二	-12.7001
控	-12.7001
約治不滅	-12.7001
觀無覺觀定	-12.7001
迦陵頻伽	-12.7002
其城外邊	-12.7003
如芥子許	-12.7003
四萬八千八十由旬	-12.7004
如佛弟子對數論	-12.7004
讒	-12.7004
依見愛煩惱增長	-12.7004
撾	-12.7004
三如本下合本	-12.7004
修行止輪得益門	-12.7005
舉勝顯勝形相門	-12.7005
眵	-12.7005
名其窮微	-12.7005
名其體深	-12.7005
狎	-12.7006
唯影無本	-12.7006
見眾生落生	-12.7006
使覺三昧觸	-12.7006
憬	-12.7006
喻地瑟	-12.7006
我念往昔	-12.7006
常念親近供養恭敬	-12.7006
四者進門	-12.7006
量成所量	-12.7006
苾	-12.7006
二所謂下釋成	-12.7007
洟唾	-12.7007
今論所辯	-12.7007
顯示得益位勝門	-12.7007
或通或別	-12.7007
污淨心故	-12.7007
今此經文為欲顯示	-12.7007
在因地時	-12.7008
舉劣顯勝生解門	-12.7008
此因唯於異品中有	-12.7008
皺	-12.7008
約非無義以明觀	-12.7008
此因如能成立	-12.7008
不解我意	-12.7009
稚	-12.7009
笳	-12.7009
勤勇所支	-12.7009
昔在因地	-12.7009
向即心絕	-12.7009
無盡海海	-12.7009
闐	-12.701
無觸對故	-12.701
直示修行止輪門	-12.701
初八九煩惱	-12.701
此因如能成立眼等必為他用	-12.701
此誤執	-12.701
自信己身有真如	-12.701
各有所依摩訶衍	-12.701
良以非有即是非無	-12.701
出於妙音聲	-12.7011
初順辨生緣	-12.7011
可退之人	-12.7011
思准可知	-12.7011
真如門是染淨通相	-12.7011
起大乘之信	-12.7011
欲於如來甚深境界	-12.7011
拭	-12.7011
離外惡緣	-12.7011
初三所攝眼所不攝	-12.7011
四方僧物	-12.7011
增上業報感彼中生	-12.7011
無德不備	-12.7011
癊	-12.7011
乃至初地證三無性	-12.7011
乃至菩薩究竟地心所見者名為報身	-12.7011
修習少欲知足頭陀等行	-12.7011
兼治凡夫懈怠之	-12.7011
在茲焉	-12.7011
戮	-12.7012
此中現量相違者	-12.7012
瓈	-12.7012
信心成就時量門	-12.7012
總問總答顯宗門	-12.7012
凡聖致一	-12.7012
如救頭然	-12.7012
種種異類非受樂相故說為應	-12.7012
所謂為令眾生離一切苦	-12.7012
若不遇諸佛菩薩善知識等以之為緣	-12.7012
三種皮持之所	-12.7013
乃至能現一切境等	-12.7013
優曇華	-12.7013
[...]
