<unk>	0
<s>	0
</s>	0
之	-4.02248
也	-4.06087
而	-4.47046
者	-4.58313
以	-4.7426
/	-4.85698
爲	-4.96127
則	-4.98085
不	-5.06124
其	-5.06372
有	-5.06578
)	-5.15748
(	-5.17187
於	-5.23424
無	-5.32146
故	-5.35437
人	-5.43375
一	-5.52839
生	-5.61722
道	-5.6989
大	-5.72348
矣	-5.72936
曰	-5.777
言	-5.82233
自	-5.89255
心	-5.91274
此	-5.91909
中	-5.92094
上	-5.92368
乎	-5.92735
用	-5.93853
是	-5.95273
天	-5.96404
)(	-5.96534
子	-5.96628
非	-6.02147
如	-6.03084
下	-6.05933
若	-6.06274
知	-6.08199
行	-6.0964
與	-6.10496
至	-6.10954
得	-6.11135
能	-6.11756
神	-6.14316
物	-6.21091
,	-6.21111
見	-6.2299
明	-6.23351
所	-6.26116
成	-6.27324
皆	-6.28561
氣	-6.28894
然	-6.29284
名	-6.30258
即	-6.30337
亦	-6.31118
三	-6.32766
在	-6.34133
時	-6.37568
可	-6.37836
事	-6.3817
○	-6.39685
出	-6.41208
同	-6.42139
夫	-6.42282
水	-6.42425
乃	-6.47124
又	-6.47699
作	-6.495
欲	-6.49558
常	-6.50811
謂	-6.51164
德	-6.51869
入	-6.51956
眞	-6.5534
身	-6.56479
反	-6.56851
相	-6.57032
日	-6.61064
形	-6.61084
今	-6.61099
▁	-6.615
去	-6.61695
法	-6.63149
或	-6.64973
當	-6.66003
取	-6.6607
内	-6.66564
而不	-6.67002
善	-6.68196
合	-6.68545
焉	-6.69265
天下	-6.69303
云	-6.69673
本	-6.70671
方	-6.70944
五	-6.72676
使	-6.72695
及	-6.73019
化	-6.7378
聖人	-6.74094
吾	-6.74781
雖	-6.74831
必	-6.77035
地	-6.77469
主	-6.77521
多	-6.7784
正	-6.7851
君	-6.78602
將	-6.79037
死	-6.80297
處	-6.80343
二	-6.81093
和	-6.81252
為	-6.81582
我	-6.81926
已	-6.82023
後	-6.82101
不可	-6.8229
理	-6.82345
令	-6.83102
山	-6.83691
所以	-6.84298
外	-6.8556
音	-6.856
安	-6.85758
治	-6.86258
四	-6.87143
通	-6.87772
先	-6.88408
精	-6.88514
金	-6.90121
不能	-6.90297
耳	-6.90359
復	-6.90441
哉	-6.91142
長	-6.91177
經	-6.916
天地	-6.92004
王	-6.92211
何	-6.92446
火	-6.9264
因	-6.92655
九	-6.92865
民	-6.93921
從	-6.93955
小	-6.94012
萬物	-6.9421
猶	-6.94246
居	-6.94752
性	-6.95414
陽	-6.95462
實	-6.95573
命	-6.95864
分	-6.97879
服	-6.9859
食	-6.9863
來	-6.98898
虚	-6.98909
白	-7.00057
玄	-7.00634
世	-7.00839
既	-7.03052
風	-7.03074
文	-7.0322
應	-7.03556
故曰	-7.03877
動	-7.04183
惡	-7.06448
靈	-7.06458
前	-7.06525
觀	-7.068
未	-7.07711
立	-7.08794
意	-7.09948
衆	-7.10265
无	-7.10484
重	-7.1062
易	-7.11548
聖	-7.11983
盡	-7.12783
石	-7.13277
師	-7.1355
國	-7.13576
利	-7.14525
體	-7.1534
䟽	-7.15729
。	-7.15948
諸	-7.16006
失	-7.16273
求	-7.17061
歸	-7.17571
以爲	-7.17658
始	-7.17891
高	-7.18513
難	-7.1857
藥	-7.18591
養	-7.18636
彼	-7.19266
樂	-7.19732
好	-7.21074
守	-7.21338
貴	-7.21657
極	-7.21814
數	-7.21924
自然	-7.2238
不知	-7.2272
足	-7.23017
蓋	-7.233
六	-7.23527
過	-7.24185
注	-7.24345
公	-7.24358
信	-7.24463
光	-7.24917
止	-7.25771
字	-7.2634
臣	-7.26434
邪	-7.26529
智	-7.28028
存	-7.28243
受	-7.28301
義	-7.29001
凡	-7.29403
各	-7.29442
七	-7.2977
⬤	-7.30199
變	-7.30326
己	-7.30821
平	-7.30865
之所	-7.30872
者也	-7.30946
解	-7.31009
教	-7.31606
清	-7.31907
兩	-7.31915
聞	-7.31946
異	-7.32048
木	-7.32984
忘	-7.33345
陰	-7.34095
定	-7.34174
書	-7.34532
萬	-7.35323
功	-7.35421
于	-7.35591
丹	-7.35596
切	-7.35925
色	-7.35996
謂之	-7.36057
微	-7.36216
仙	-7.36338
志	-7.36474
所謂	-7.37679
門	-7.37809
深	-7.37954
起	-7.38423
說	-7.38606
惟	-7.38689
黄	-7.4025
傳	-7.40298
全	-7.40383
靜	-7.40613
固	-7.41337
遂	-7.4154
根	-7.41591
土	-7.41788
終	-7.42422
家	-7.42656
流	-7.42715
爾	-7.42818
且	-7.43286
元	-7.43314
斯	-7.43614
目	-7.43987
散	-7.44524
不得	-7.44713
口	-7.44716
開	-7.44802
修	-7.45415
情	-7.45628
豈	-7.45749
玉	-7.45814
亂	-7.4584
可以	-7.46054
發	-7.46345
問	-7.46862
少	-7.47109
妙	-7.47124
力	-7.47656
絶	-7.47731
禮	-7.47787
似	-7.48356
執	-7.48356
任	-7.48375
章	-7.4998
百	-7.50677
遠	-7.50684
古	-7.50723
學	-7.50767
强	-7.50994
由	-7.5104
符	-7.51111
致	-7.51355
亡	-7.51906
藏	-7.5199
之道	-7.52135
無所	-7.52437
著	-7.5254
益	-7.52971
年	-7.53103
勝	-7.53552
帝	-7.53989
汝	-7.54412
唯	-7.55101
次	-7.5517
無爲	-7.5535
註	-7.55766
周	-7.56053
莫	-7.5642
直	-7.56754
度	-7.56835
甚	-7.56975
隨	-7.57365
兵	-7.57598
八	-7.57623
初	-7.57747
馬	-7.58203
聲	-7.59206
宜	-7.59211
制	-7.59508
是以	-7.59815
而已	-7.60026
炁	-7.6019
獨	-7.60215
病	-7.60302
青	-7.60863
宫	-7.61097
舉	-7.61349
末	-7.62047
適	-7.62181
象	-7.63099
鬼	-7.63119
但	-7.63285
龍	-7.63603
華	-7.63835
視	-7.63903
運	-7.63957
順	-7.64472
月	-7.6448
離	-7.65017
空	-7.65035
人之	-7.65496
州	-7.6577
稱	-7.6616
飛	-7.66454
語	-7.6683
並	-7.66976
伏	-7.66988
右	-7.67015
息	-7.67198
積	-7.67737
如此	-7.67823
殺	-7.68024
雲	-7.68121
官	-7.68731
等	-7.68842
齊	-7.68971
仁	-7.69052
草	-7.69537
降	-7.69655
愛	-7.69816
親	-7.70523
位	-7.71056
損	-7.71094
傷	-7.71159
更	-7.71558
葉	-7.72075
往	-7.72559
害	-7.72774
除	-7.7302
尊	-7.73042
十	-7.73642
熱	-7.73694
老	-7.73995
福	-7.74
尚	-7.7416
母	-7.74923
要	-7.75362
結	-7.75393
進	-7.75583
窮	-7.75799
美	-7.7589
遊	-7.76056
還	-7.76456
須	-7.76493
寒	-7.76528
陰陽	-7.76698
朝	-7.76803
厚	-7.76839
俱	-7.76917
頭	-7.7698
隱	-7.77183
赤	-7.77294
便	-7.77336
士	-7.7756
轉	-7.77675
思	-7.77924
南	-7.77963
毒	-7.78178
節	-7.78694
向	-7.79507
持	-7.79716
也夫	-7.79923
乆	-7.80088
一名	-7.80217
加	-7.80641
指	-7.80703
苦	-7.81036
間	-7.81166
賢	-7.81664
俗	-7.81742
患	-7.81826
寳	-7.82546
滿	-7.82761
太	-7.82933
眞人	-7.83134
容	-7.83881
疾	-7.8399
也故	-7.8566
西	-7.85834
識	-7.86007
號	-7.86193
别	-7.86449
保	-7.86464
近	-7.86477
論	-7.86491
爭	-7.87043
交	-7.87506
廣	-7.87669
而無	-7.8767
魚	-7.88241
顯	-7.88365
累	-7.88397
勞	-7.89328
達	-7.89422
至於	-7.89533
滅	-7.90735
細	-7.9097
會	-7.91374
果	-7.91592
其所	-7.91818
乾	-7.92523
興	-7.92668
照	-7.92676
施	-7.93304
之人	-7.93692
氏	-7.94059
迹	-7.94282
温	-7.94581
星	-7.94659
戒	-7.94713
妄	-7.9502
輕	-7.95279
誠	-7.95819
衣	-7.95964
海	-7.95969
血	-7.96033
了	-7.9608
備	-7.9631
東	-7.96554
不足	-7.96592
紫	-7.97035
造	-7.98156
味	-7.98222
奉	-7.98491
棄	-7.98588
故云	-7.98642
汞	-7.98709
大道	-7.99268
老子	-7.99804
就	-8.00148
器	-8.00153
盛	-8.00153
辯	-8.00187
老君	-8.00487
請	-8.00579
禍	-8.00645
女	-8.00918
香	-8.0101
遇	-8.01146
遺	-8.01179
宗	-8.01391
屬	-8.01746
有所	-8.01763
酒	-8.01787
然後	-8.01826
載	-8.02117
陳	-8.02534
感	-8.03432
而後	-8.03463
花	-8.03473
愈	-8.04064
待	-8.04629
壽	-8.04676
喜	-8.05265
仁義	-8.05456
聽	-8.05541
夜	-8.05594
并	-8.0589
類	-8.06414
夢	-8.06884
張	-8.07046
迷	-8.07218
車	-8.07288
首	-8.07515
共	-8.07674
篇	-8.07726
具	-8.07734
是也	-8.08163
故能	-8.08316
念	-8.09087
餘	-8.09644
室	-8.1008
都	-8.10394
喻	-8.10466
變化	-8.10916
悟	-8.11184
覺	-8.11243
鉛	-8.1143
濟	-8.11521
北	-8.11855
不爲	-8.12214
每	-8.12253
勿	-8.12267
愚	-8.12465
坐	-8.13073
機	-8.13152
務	-8.132
辭	-8.13353
骨	-8.13378
太上	-8.13405
逆	-8.1348
依	-8.13556
薄	-8.13648
假	-8.13689
乗	-8.13847
憂	-8.13897
喪	-8.14119
引	-8.14344
父	-8.14428
疑	-8.14592
授	-8.14662
巳	-8.14749
道之	-8.14826
黑	-8.15189
是非	-8.15197
罪	-8.15269
湯	-8.15346
消	-8.15613
是謂	-8.16017
懷	-8.16045
御	-8.16207
道德	-8.16523
洞	-8.16776
對	-8.1695
素	-8.17042
天下之	-8.17165
却	-8.17251
調	-8.17463
魂	-8.18532
代	-8.19077
真	-8.19262
曲	-8.19435
巧	-8.19797
徒	-8.19808
敗	-8.19902
先生	-8.19977
手	-8.20186
孔子	-8.20414
皇	-8.20638
砂	-8.20751
盈	-8.21168
推	-8.21433
歲	-8.21476
寧	-8.21773
再	-8.21967
舍	-8.2206
莊子	-8.22125
殊	-8.22334
業	-8.22447
新	-8.22502
告	-8.22542
肉	-8.22617
蟲	-8.2277
刑	-8.22836
建	-8.23036
威	-8.23254
旣	-8.23269
之中	-8.24043
慮	-8.24101
無不	-8.24251
君子	-8.24462
臨	-8.24678
弱	-8.24716
願	-8.24772
堅	-8.24883
千	-8.25012
司	-8.25064
退	-8.25174
封	-8.25397
卷	-8.25918
私	-8.26244
汁	-8.26634
嘗	-8.26709
:「	-8.26955
耶	-8.27197
質	-8.2757
景	-8.27677
慈	-8.2783
武	-8.28107
政	-8.28277
資	-8.28285
覆	-8.2836
半	-8.2838
春	-8.28392
之心	-8.28541
含	-8.28588
鍊	-8.28807
貪	-8.28829
聚	-8.28945
畏	-8.29038
爲之	-8.29097
兮	-8.29269
服之	-8.29341
許	-8.29638
救	-8.29683
夏	-8.29732
左	-8.29811
縁	-8.29826
恐	-8.29877
危	-8.29958
計	-8.30005
報	-8.30102
李	-8.30167
關	-8.30354
驚	-8.30475
放	-8.3059
谷	-8.30602
未嘗	-8.30707
不以	-8.30974
無窮	-8.31284
示	-8.31596
塵	-8.31646
煮	-8.31809
境	-8.31839
廢	-8.3185
幽	-8.32098
之意	-8.32195
良	-8.32903
齋	-8.33292
淵	-8.33325
賤	-8.33347
柔	-8.33398
察	-8.33633
原	-8.33634
不敢	-8.33782
急	-8.33875
昔	-8.33912
留	-8.33941
榮	-8.34004
游	-8.34126
魄	-8.34325
日月	-8.34399
召	-8.34677
澤	-8.34765
林	-8.34949
權	-8.35096
敬	-8.35419
役	-8.35433
之間	-8.35463
釋	-8.35618
怨	-8.35717
惑	-8.35737
幾	-8.35806
登	-8.35886
圖	-8.36287
種	-8.36338
永	-8.3649
物之	-8.3658
皮	-8.36831
河	-8.36936
也䟽	-8.36976
貌	-8.37318
斷	-8.37724
忽	-8.37779
冷	-8.37976
長生	-8.38045
不見	-8.38082
衰	-8.38183
烏	-8.3831
畢	-8.38467
集	-8.38484
望	-8.38572
縣	-8.3869
兼	-8.3878
收	-8.38831
比	-8.38884
謀	-8.38961
逐	-8.39243
破	-8.39615
道者	-8.39729
之事	-8.39884
面	-8.40514
冥	-8.40597
辱	-8.4061
天地之	-8.40715
置	-8.40992
列	-8.41545
熟	-8.41669
用之	-8.41725
銀	-8.41751
;	-8.43167
牛	-8.43208
暴	-8.43329
布	-8.43361
富	-8.4386
田	-8.44105
隂	-8.44106
候	-8.44254
而生	-8.44332
一兩	-8.44338
投	-8.44339
契	-8.44404
效	-8.44425
圓	-8.44809
不可以	-8.44825
宿	-8.45063
被	-8.45423
卒	-8.45735
百姓	-8.45801
約	-8.45908
浮	-8.46058
落	-8.46293
知其	-8.46633
以此	-8.46678
以其	-8.46758
表	-8.46776
違	-8.46777
矜	-8.46933
才	-8.47047
句	-8.47073
設	-8.47282
而爲	-8.47288
上下	-8.4731
專	-8.47466
紀	-8.47834
甘	-8.47891
死生	-8.479
府	-8.48221
徳	-8.48236
飲	-8.48334
路	-8.48663
戰	-8.48834
灰	-8.48916
差	-8.49056
量	-8.49438
之言	-8.49582
可謂	-8.49702
怒	-8.49887
恩	-8.49993
術	-8.50026
生於	-8.50145
之以	-8.50183
遣	-8.50609
唐	-8.50704
有餘	-8.50725
源	-8.50787
按	-8.51033
丘	-8.51263
咸	-8.51373
賜	-8.51379
足以	-8.51381
秋	-8.51597
採	-8.51842
仰	-8.51946
越	-8.52059
孰	-8.52163
虎	-8.52214
疏	-8.5224
堯	-8.52311
抱	-8.52444
弟子	-8.52664
出於	-8.5274
謙	-8.52789
精神	-8.52907
漸	-8.52983
老子曰	-8.53009
寂	-8.53067
冬	-8.53178
之時	-8.53202
返	-8.53258
勢	-8.53391
雄	-8.53447
承	-8.53461
濁	-8.53507
哀	-8.53518
天道	-8.53826
則無	-8.53924
夷	-8.53942
於人	-8.54159
況	-8.54248
於是	-8.54319
盜	-8.54359
犯	-8.54443
其身	-8.54525
漢	-8.54665
期	-8.55054
偏	-8.55099
甲	-8.55403
驗	-8.55768
一日	-8.55841
不同	-8.56001
燒	-8.56169
腹	-8.56208
久	-8.56215
之則	-8.56471
回	-8.56608
其心	-8.56628
特	-8.56652
記	-8.56711
研	-8.56953
奚	-8.57006
閉	-8.5733
禁	-8.5753
城	-8.57534
遷	-8.57581
納	-8.57669
於此	-8.57671
奇	-8.57851
予	-8.58088
伯	-8.5823
垂	-8.58264
胎	-8.58283
瘡	-8.58293
塗	-8.58339
至人	-8.58463
雜	-8.58677
泰	-8.58686
補	-8.58776
必有	-8.59154
療	-8.59179
奏	-8.59281
他	-8.59335
楚	-8.59335
神仙	-8.5936
之理	-8.59436
道也	-8.5951
序	-8.59993
寄	-8.60119
造化	-8.6023
而有	-8.60234
水銀	-8.60236
履	-8.60309
吉	-8.60316
痛	-8.60362
蛇	-8.60388
訣	-8.60527
乘	-8.60631
粉	-8.60637
也言	-8.60726
簡	-8.60877
十二	-8.60921
端	-8.61191
飾	-8.61264
衛	-8.61291
秦	-8.61461
鼎	-8.61509
無心	-8.61582
是以聖人	-8.6168
無形	-8.61702
密	-8.61812
謹	-8.61816
無有	-8.62031
財	-8.62299
鳥	-8.62346
録	-8.62388
姓	-8.62867
朱	-8.62891
休	-8.63168
助	-8.63191
樸	-8.6323
祖	-8.63575
敵	-8.63577
悦	-8.63591
剛	-8.63632
賊	-8.63641
塞	-8.63699
苟	-8.63825
背	-8.63939
者不	-8.6432
胡	-8.64393
孝	-8.64752
角	-8.64809
凝	-8.64885
臺	-8.64931
宋	-8.65012
河曰	-8.65149
言其	-8.65312
知之	-8.65368
四時	-8.65381
柔弱	-8.65523
崇	-8.65572
屈	-8.6578
折	-8.65988
習	-8.66236
於道	-8.66309
也故曰	-8.66342
樹	-8.66447
人也	-8.66486
縱	-8.66496
髙	-8.66536
庭	-8.66554
堂	-8.66606
移	-8.66797
泥	-8.66825
卑	-8.66912
雨	-8.66983
攝	-8.67075
令人	-8.67184
五行	-8.67277
於物	-8.67342
錢	-8.67392
伐	-8.67482
清靜	-8.675
群	-8.67803
自得	-8.67848
里	-8.67853
禀	-8.68013
到	-8.68176
一切	-8.68409
凶	-8.68666
均	-8.68706
丸	-8.68817
升	-8.69093
住	-8.69233
與物	-8.6925
泉	-8.69374
博	-8.69522
壇	-8.69525
勇	-8.69663
也若	-8.69787
不足以	-8.69889
雖有	-8.69891
之士	-8.70451
笑	-8.70459
食之	-8.70512
斗	-8.7075
徐	-8.70823
某	-8.70867
魯	-8.70877
只	-8.70881
弊	-8.70884
仍	-8.70953
不及	-8.71025
鐵	-8.71046
野	-8.71132
無名	-8.71459
得之	-8.71512
陵	-8.71737
證	-8.71767
而不知	-8.71856
孫	-8.71929
責	-8.72091
鹽	-8.72213
蒙	-8.72232
紅	-8.72234
蕩	-8.72414
第二	-8.72419
淨	-8.7264
啓	-8.72703
之謂	-8.72926
獲	-8.72958
神明	-8.72993
毛	-8.7304
羊	-8.7318
誰	-8.73192
呼	-8.7351
考	-8.73609
尋	-8.73628
羅	-8.73633
冠	-8.73638
總	-8.73643
其道	-8.74026
之後	-8.74035
接	-8.74148
羣	-8.74206
惠	-8.74401
煩	-8.74432
連	-8.74551
黃	-8.74619
衆人	-8.74625
狀	-8.7481
敢	-8.74831
吐	-8.74915
齒	-8.75184
怪	-8.7521
丹砂	-8.75226
生死	-8.75356
枝	-8.7545
工	-8.75643
恃	-8.75757
則有	-8.76119
世人	-8.76155
超	-8.76167
與之	-8.76192
之法	-8.7621
道士	-8.76246
參	-8.76301
者皆	-8.76307
名曰	-8.76324
舊	-8.76372
然則	-8.76379
則不	-8.76407
係	-8.76631
陸	-8.76677
而成	-8.76708
客	-8.76765
使人	-8.76786
拜	-8.76887
歷	-8.76983
一斤	-8.77074
速	-8.77134
申	-8.77353
奪	-8.78019
充	-8.78152
珠	-8.78201
影	-8.78367
鳴	-8.78388
宅	-8.78466
古之	-8.78745
略	-8.78885
跡	-8.78944
避	-8.78975
附	-8.79124
匱	-8.79552
商	-8.79675
其德	-8.7973
慕	-8.79767
者爲	-8.79984
軍	-8.80009
淫	-8.80019
最	-8.80019
者非	-8.80096
孔	-8.80142
改	-8.80207
歌	-8.80376
㫖	-8.80477
梁	-8.80523
黄帝	-8.80527
羽	-8.80542
謝	-8.80728
遍	-8.80867
者必	-8.80914
虛	-8.80958
得其	-8.80988
之名	-8.81113
昌	-8.81135
之功	-8.81181
延	-8.81197
顧	-8.81218
僞	-8.81266
天尊至心信禮	-8.81356
殿	-8.81535
又云	-8.81661
以道	-8.81727
其性	-8.81931
職	-8.81936
至道	-8.8205
昏	-8.82089
扶	-8.82142
護	-8.82422
默	-8.82498
忠	-8.82669
詳	-8.82708
煎	-8.82748
彰	-8.82748
經云	-8.8281
眼	-8.82871
水火	-8.83085
逺	-8.83377
言之	-8.83461
七日	-8.83504
混	-8.83527
勤	-8.83583
川	-8.84057
貨	-8.8412
鄉	-8.8421
然而	-8.84267
髮	-8.84419
免	-8.84466
宣	-8.84942
矣故	-8.84996
鬼神	-8.85069
寡	-8.85189
史	-8.85192
輔	-8.85198
偽	-8.8533
捨	-8.85431
傾	-8.85623
况	-8.85699
也故云	-8.8577
負	-8.85813
房	-8.8603
晋	-8.86078
四兩	-8.86339
不生	-8.86432
二兩	-8.86495
徹	-8.86584
井	-8.86812
鼻	-8.8698
懼	-8.87005
悲	-8.8707
河上公曰	-8.87114
萬物之	-8.87144
困	-8.87218
劍	-8.87337
曾	-8.87974
竊	-8.88031
勸	-8.88164
侍	-8.88309
普	-8.88356
逃	-8.88428
吏	-8.88518
辰	-8.88648
是故	-8.88683
滯	-8.88685
委	-8.88857
穢	-8.88886
不爭	-8.89064
沉	-8.89156
夫子	-8.89235
膏	-8.8934
昇	-8.89342
趣	-8.89382
莊子曰	-8.89387
之地	-8.89406
露	-8.89538
貧	-8.89615
者亦	-8.89653
父母	-8.89704
尤	-8.89913
審	-8.89996
循	-8.90121
决	-8.90126
不用	-8.90128
有爲	-8.90164
竭	-8.90174
劫	-8.90189
壯	-8.90376
嚴	-8.90411
尸	-8.90423
列子	-8.90599
卧	-8.90625
託	-8.90654
毁	-8.90676
忌	-8.90691
經曰	-8.90693
營	-8.90716
純	-8.91171
潜	-8.91265
辨	-8.91365
潤	-8.91553
見其	-8.91889
中有	-8.92197
印	-8.92369
儀	-8.92407
聖人之	-8.92546
不善	-8.92616
祥	-8.92868
刀	-8.92885
竹	-8.92921
昭	-8.93072
虚無	-8.9315
未有	-8.9318
悉	-8.93201
禹	-8.93286
走	-8.93356
之於	-8.9345
天之	-8.9346
射	-8.935
厭	-8.9364
魏	-8.93676
夭	-8.93693
此言	-8.93697
御註	-8.94225
雞	-8.94271
兆	-8.94279
部	-8.94293
鼓	-8.94321
諸侯	-8.94591
驕	-8.94592
條	-8.94699
於外	-8.94716
左右	-8.94825
據	-8.9483
者是	-8.94929
淺	-8.95026
三年	-8.95111
晦	-8.95277
無事	-8.95362
而自	-8.95525
點	-8.95647
競	-8.95839
弗	-8.95859
學者	-8.95868
克	-8.9587
涉	-8.95901
淳	-8.96097
莖	-8.96154
帶	-8.96207
而能	-8.96246
虧	-8.96266
。」	-8.9648
之義	-8.96509
爲末	-8.96535
希	-8.96536
儉	-8.96628
無極	-8.96826
朴	-8.96901
眞君	-8.96924
早	-8.96971
隂陽	-8.97012
人之所	-8.97111
煑	-8.97227
户	-8.9725
莫不	-8.9733
述	-8.97372
畜	-8.97404
之上	-8.97418
品	-8.97422
天子	-8.97609
慶	-8.97656
恒	-8.97666
干	-8.97805
出入	-8.97882
無欲	-8.98055
祭	-8.9821
岀	-8.98304
乳	-8.9839
盖	-8.9841
義曰	-8.98506
想	-8.98511
苗	-8.98636
辟	-8.9864
懸	-8.98715
桑	-8.98718
不言	-8.9872
亦不	-8.98937
短	-8.98947
彌	-8.99088
包	-8.99247
脩	-8.99353
禄	-8.99479
迎	-8.99529
亦有	-8.99657
揚	-8.99659
舜	-8.997
狂	-8.99752
染	-8.99781
化爲	-8.99812
而不可	-8.99858
之道也	-8.99895
歟	-8.99967
者謂	-9.00161
第一	-9.00298
刻	-9.00358
駕	-9.00411
搗	-9.00486
躁	-9.00552
人皆	-9.00559
腎	-9.00561
紙	-9.0058
友	-9.00832
之德	-9.00942
庶	-9.00984
泄	-9.01
無知	-9.01062
統	-9.01091
洗	-9.01218
溺	-9.01312
所以爲	-9.01346
耳目	-9.01391
育	-9.01442
通玄經曰	-9.01557
之妙	-9.01687
童	-9.01688
率	-9.01861
之氣	-9.01912
導	-9.01961
丁	-9.02086
趨	-9.02173
爐	-9.02232
而不能	-9.02252
無私	-9.02376
之所以	-9.02608
穀	-9.02613
富貴	-9.02633
雱曰	-9.02657
步	-9.02707
蜀	-9.02795
灾	-9.02801
第三	-9.0284
㝠	-9.0308
脱	-9.03162
旋	-9.03358
有無	-9.03359
譽	-9.03467
不欲	-9.03472
卷之	-9.03545
增	-9.0374
蒸	-9.03786
市	-9.0389
肺	-9.03915
龜	-9.0404
世之	-9.04114
曰吾	-9.04347
領	-9.04361
爲一	-9.04492
三十	-9.04526
何以	-9.04614
闕	-9.04761
無以	-9.0482
司馬云	-9.05004
讓	-9.05068
際	-9.05374
趙	-9.05506
不如	-9.05513
侯	-9.05568
兹	-9.0617
太極	-9.06174
繫	-9.06182
詐	-9.06208
銅	-9.06225
舟	-9.06291
攻	-9.06381
在於	-9.06439
蜜	-9.06449
滑	-9.06454
二十	-9.06485
如是	-9.06728
雌	-9.06761
遭	-9.06806
吹	-9.07146
夫人	-9.07162
活	-9.07181
爲人	-9.07337
肝	-9.07471
以為	-9.0754
不相	-9.07757
而非	-9.07953
得道	-9.08058
故無	-9.0828
五色	-9.08359
也此	-9.08409
殆	-9.08505
傅	-9.08511
不失	-9.08551
米	-9.08724
獻	-9.08822
余	-9.08824
産	-9.08859
逸	-9.08866
後世	-9.08921
内外	-9.09014
江	-9.09051
鑒	-9.09189
材	-9.09307
卦	-9.09362
讀	-9.09446
牙	-9.09504
翼	-9.0967
人君	-9.09791
廉	-9.09856
恭	-9.09989
生者	-9.10006
澄	-9.10111
看	-9.10147
三日	-9.10165
未能	-9.10203
又曰	-9.10207
昧	-9.10257
取出	-9.10335
燕	-9.10529
没	-9.10544
蔽	-9.10575
馳	-9.1068
脚	-9.10685
滋	-9.10826
防	-9.10891
貫	-9.11064
五藏	-9.11095
詔	-9.11194
不自	-9.11197
故也	-9.11261
弘	-9.11396
而行	-9.11756
不過	-9.11789
而已矣	-9.11906
擊	-9.11953
招	-9.12074
霜	-9.12088
尺	-9.12098
之精	-9.12104
此章	-9.12111
眞武	-9.12204
爲天下	-9.12224
底	-9.12293
卿	-9.12347
拘	-9.12452
宇	-9.12623
吴	-9.12687
枯	-9.12742
三十六	-9.12747
者言	-9.12804
抑	-9.12849
陶	-9.12989
濕	-9.13081
貞	-9.13154
鄭	-9.1325
輪	-9.13274
之本	-9.13493
徧	-9.13668
不信	-9.13682
邊	-9.13859
獸	-9.13988
詩	-9.14037
誤	-9.1405
徇	-9.14237
叔	-9.14332
殘	-9.14357
劉	-9.14459
二十四	-9.14546
壞	-9.14575
閑	-9.14912
貴賤	-9.1511
辛	-9.15524
於天下	-9.15553
儒	-9.15569
議	-9.15577
屋	-9.1559
無所不	-9.15723
偶	-9.16015
明皇曰	-9.16265
竟	-9.16325
仲	-9.16355
之物	-9.16518
與人	-9.16548
幸	-9.16826
省	-9.16932
玉女	-9.16975
寵	-9.17102
慎	-9.17104
醋	-9.17231
輿	-9.17248
操	-9.17261
現	-9.17298
乖	-9.1731
賔	-9.17465
祕	-9.17511
暗	-9.17675
往來	-9.1773
治天下	-9.17826
答	-9.18168
之外	-9.18291
治國	-9.18345
者有	-9.18347
不知其	-9.18383
小人	-9.1869
仲尼	-9.18721
管	-9.18742
也又	-9.18767
誅	-9.18951
肆	-9.18955
聞之	-9.18972
無爲而	-9.19022
郭	-9.19186
試	-9.19207
籍	-9.19311
厄	-9.19408
誦	-9.19443
波	-9.1953
春秋	-9.1961
?	-9.19634
潔	-9.19677
行之	-9.19702
曉	-9.19892
將軍	-9.1991
英	-9.20137
也今	-9.20339
蘇	-9.20422
觸	-9.20461
像	-9.20466
各有	-9.2055
尾	-9.20605
池	-9.20624
大夫	-9.20697
不死	-9.20757
荒	-9.208
狗	-9.2087
而天下	-9.20875
液	-9.20916
故不	-9.21045
終始	-9.21257
擇	-9.21386
衆生	-9.21528
浸	-9.21559
不可得而	-9.21575
堯舜	-9.21655
其名	-9.21657
耀	-9.21719
則知	-9.21793
衍義云	-9.21842
巨	-9.21854
人心	-9.2193
御注曰	-9.22312
其功	-9.22325
徵	-9.22351
入於	-9.22382
廟	-9.22441
性命	-9.22452
徑	-9.22629
無常	-9.22684
沖	-9.22778
人間	-9.22809
成䟽	-9.22813
四方	-9.22857
有形	-9.23197
動而	-9.232
分别	-9.23297
其形	-9.23329
大小	-9.23352
佳	-9.23401
畫	-9.23518
此乃	-9.23527
戴	-9.23557
杜	-9.23563
譬	-9.236
否	-9.23774
洪	-9.23933
芒	-9.23957
北斗	-9.24071
之謂也	-9.24322
付	-9.24369
矯	-9.24516
即是	-9.24556
徽宗註曰	-9.24569
兒	-9.24625
殃	-9.24711
停	-9.24867
生而	-9.24877
欺	-9.2493
籙	-9.2493
子曰	-9.24969
不離	-9.25075
鶴	-9.25109
暢	-9.25116
其言	-9.25178
醫	-9.25255
歎	-9.25348
物也	-9.25367
及其	-9.2546
還丹	-9.25477
其神	-9.25481
古今	-9.25484
訖	-9.25594
寓	-9.25607
於世	-9.2563
亦可	-9.25672
亦無	-9.25737
峰	-9.25834
打	-9.2587
臣義曰	-9.26056
霞	-9.26097
得一	-9.26111
體道	-9.26172
鈔	-9.26192
側	-9.263
不動	-9.26329
雷	-9.26513
律	-9.26528
校	-9.26531
錫	-9.26531
於天	-9.26583
?」	-9.2669
旦	-9.2672
腫	-9.26782
䟽義曰	-9.26837
碎	-9.27098
則是	-9.27124
宰	-9.27133
不然	-9.27188
草木	-9.27244
賞	-9.27291
天尊志心朝禮	-9.273
穴	-9.27306
則民	-9.27355
侯王	-9.27431
添	-9.27494
榮曰	-9.27501
死者	-9.27574
災	-9.2761
此道	-9.27658
利害	-9.27678
錯	-9.27716
小兒	-9.27908
修身	-9.27911
子孫	-9.28029
善惡	-9.28035
曹	-9.28039
則爲	-9.28137
恣	-9.28142
豆	-9.2817
斤	-9.28194
德之	-9.28243
生之	-9.28282
舌	-9.28334
睹	-9.28356
見之	-9.28391
墨	-9.28417
自有	-9.28549
津	-9.28557
三月	-9.28635
不在	-9.28635
介	-9.28695
豐	-9.2872
十三	-9.28755
十五	-9.28793
祈	-9.28934
訓	-9.28975
康	-9.28989
詞	-9.29066
者以	-9.29107
聰明	-9.29168
御䟽	-9.29257
故有	-9.29308
煉	-9.29359
道而	-9.29559
失其	-9.29588
繼	-9.29594
觀之	-9.29665
祝	-9.29702
太一	-9.29748
逍遥	-9.29751
淡	-9.29918
送	-9.29965
有道	-9.3011
之類	-9.30241
有名	-9.30316
故言	-9.30341
弟	-9.30344
漏	-9.30408
典	-9.3041
焦	-9.30413
咽	-9.30444
固濟	-9.30467
頂	-9.30476
網	-9.30634
!	-9.30655
者乃	-9.30707
爲善	-9.30782
眀	-9.30851
元氣	-9.30868
界	-9.30915
以明	-9.30953
鍾	-9.3098
鄙	-9.31055
奥	-9.3111
抱一	-9.31233
瑞	-9.31261
域	-9.31416
孟	-9.31495
暫	-9.3151
朱砂	-9.31706
沈	-9.31852
男	-9.32068
豈有	-9.32176
靡	-9.32237
庚	-9.3226
歩	-9.32269
魔	-9.32296
横	-9.32317
不成	-9.32357
此皆	-9.32422
之用	-9.32424
人能	-9.32478
慧	-9.32486
費	-9.32535
嬰兒	-9.32566
棗	-9.32606
式	-9.32612
刺	-9.32789
規	-9.32995
勑	-9.32998
太清	-9.33147
冲	-9.33207
應物	-9.33335
席	-9.33356
震	-9.33436
無物	-9.3348
瓦	-9.33585
晝夜	-9.33634
三兩	-9.33791
圍	-9.33822
李云	-9.33863
飢	-9.33906
外物	-9.33908
郡	-9.33919
之迹	-9.3395
麻	-9.33984
物物	-9.3403
鑿	-9.34049
一人	-9.34129
醮	-9.34201
第四	-9.3427
歸於	-9.3446
沙	-9.34479
之術	-9.345
不止	-9.34554
帝王	-9.34746
故聖人	-9.34755
五臟	-9.34762
擣	-9.3479
司馬	-9.34853
矣夫	-9.34857
繩	-9.34948
孤	-9.35142
之至也	-9.35157
鏡	-9.35326
丈	-9.35339
飲食	-9.35415
族	-9.35518
其實	-9.35616
生成	-9.35629
於内	-9.35759
筆	-9.3581
油	-9.35823
顔	-9.35826
之徒	-9.35931
邑	-9.35979
敦	-9.36008
嗣	-9.36008
紛	-9.36035
莊	-9.36082
能知	-9.36224
造物	-9.36393
一也	-9.36394
鎭	-9.36433
之說	-9.36609
彊	-9.36652
昩	-9.36692
之内	-9.36826
名也	-9.36926
不行	-9.37037
妖	-9.37063
大國	-9.37091
徃	-9.37119
圖經曰	-9.37164
婦人	-9.37189
之君	-9.37254
之行	-9.37429
頓	-9.37582
其本	-9.37636
北方	-9.37658
索	-9.37729
芝	-9.37754
竅	-9.37833
咎	-9.37865
元年	-9.37938
巖	-9.38092
粗	-9.38161
功成	-9.38177
佐	-9.38264
續	-9.38264
脂	-9.38291
配	-9.38409
不通	-9.38508
天師	-9.38657
塊	-9.38657
缺	-9.38716
盤	-9.38732
一升	-9.38739
京	-9.38786
賢人	-9.38793
皆有	-9.38808
瓊	-9.38899
則其	-9.38968
而得	-9.39013
之情	-9.39071
萌	-9.39092
嘉	-9.39132
松	-9.39208
愼	-9.39248
不出	-9.39255
無方	-9.39331
腸	-9.39503
百日	-9.39512
煙	-9.39582
謁	-9.39596
姦	-9.39612
孰能	-9.39641
季	-9.3968
限	-9.39687
自生	-9.39823
科	-9.39877
堪	-9.39913
罔	-9.40028
治之	-9.40103
▁(	-9.40259
奔	-9.40298
君臣	-9.40305
也然	-9.40403
牝	-9.40487
標	-9.40559
如字	-9.40626
筋	-9.40752
其事	-9.40848
緑	-9.40873
侵	-9.40895
追	-9.4095
視之	-9.40955
犬	-9.41004
鮮	-9.41036
雪	-9.41193
摩	-9.41261
不求	-9.41287
衍義曰	-9.41381
脾	-9.41468
老氏	-9.41474
楊	-9.41631
響	-9.41644
緩	-9.41674
晝	-9.41677
禍福	-9.41698
故謂之	-9.41868
給	-9.41919
〇	-9.42167
溢	-9.42206
麗	-9.42211
舊註	-9.42216
膽	-9.42382
相與	-9.42388
冰	-9.42413
險	-9.42444
杖	-9.42617
人所	-9.42636
使民	-9.42649
、	-9.42676
所見	-9.42683
一氣	-9.42798
矣故曰	-9.42855
寢	-9.43092
鼠	-9.4314
掌	-9.4324
不必	-9.43345
桃	-9.4336
詣	-9.43582
鳳	-9.43595
也聖人	-9.43691
曠	-9.43819
呪	-9.43838
又有	-9.43881
以成	-9.43972
其中	-9.4398
十日	-9.44046
闇	-9.44092
在上	-9.44099
世俗	-9.44137
是知	-9.44164
自知	-9.44174
四海	-9.4431
守其	-9.4431
撓	-9.44348
䟽夫	-9.4436
腦	-9.44562
鹿	-9.44711
削	-9.44791
炙	-9.44828
之際	-9.44983
坤	-9.45001
爵	-9.45012
二年	-9.4502
太平	-9.45224
環	-9.45242
莫能	-9.45421
有此	-9.45468
帛	-9.45479
談	-9.45523
民之	-9.45527
豫	-9.45551
歸之	-9.45588
之患	-9.45682
借	-9.45702
自化	-9.45705
清淨	-9.45737
座	-9.45786
夕	-9.45792
邦	-9.45794
焚	-9.45989
遠矣	-9.46362
砒	-9.46398
世間	-9.46491
墮	-9.46504
枉	-9.4651
寸	-9.46662
用兵	-9.46715
聲色	-9.46727
技	-9.46735
終日	-9.46764
拔	-9.46788
倫	-9.46793
金石	-9.46853
之門	-9.46897
太虚	-9.46926
易曰	-9.47014
弼曰	-9.4706
硫黄	-9.47177
惜	-9.47255
荆	-9.47292
豈不	-9.4736
鄰	-9.47489
繁	-9.47537
嶽	-9.47629
古人	-9.47631
乾坤	-9.47757
禮樂	-9.47974
厲	-9.47995
逢	-9.48012
臭	-9.4804
之數	-9.48122
雄黄	-9.48174
五兩	-9.4823
日夜	-9.4824
不復	-9.48275
雖然	-9.48276
碧	-9.48301
赤子	-9.48336
之大	-9.4836
千里	-9.48385
不勝	-9.48404
之至	-9.48476
裏	-9.48488
鑑	-9.48496
老君曰	-9.48546
虞	-9.48688
歡	-9.48701
肥	-9.4875
厥	-9.48794
味甘	-9.48833
男女	-9.48844
而況	-9.48984
則天下	-9.49134
無為	-9.49145
之主	-9.49226
耕	-9.49229
強	-9.49237
葛	-9.4924
襲	-9.49262
之貌	-9.49266
之性	-9.4937
在我	-9.49418
餌	-9.49464
又何	-9.49607
國家	-9.49672
山谷	-9.49674
不明	-9.4971
墜	-9.49713
坎	-9.49754
監	-9.49773
之變	-9.49776
在乎	-9.49827
治身	-9.49852
妙本	-9.49895
矢	-9.49969
動靜	-9.50115
聰	-9.50319
妻	-9.50487
割	-9.50524
修之	-9.50553
江海	-9.50634
吕	-9.50679
膠	-9.50779
傍	-9.50809
此之謂	-9.50912
阿	-9.51005
失之	-9.51049
人有	-9.51123
究	-9.51146
者乎	-9.51216
撫	-9.51333
澆	-9.51372
若此	-9.51385
不待	-9.51398
是爲	-9.51415
神人	-9.51484
倚	-9.51507
三皇	-9.51507
可得	-9.51673
擾	-9.51695
五帝	-9.51735
何謂	-9.51804
牧	-9.5184
四十	-9.51968
禽	-9.52014
偃	-9.52041
至矣	-9.52221
自是	-9.52225
稽	-9.52234
逝	-9.52347
鎮	-9.52373
日華子云	-9.52436
仙人	-9.52624
一物	-9.52642
喜怒	-9.52923
不聞	-9.53011
預	-9.53099
甲子	-9.53197
驅	-9.53385
麤	-9.53387
支	-9.53499
故知	-9.53617
寒暑	-9.53651
釜	-9.53767
淋	-9.53945
其用	-9.54058
慢	-9.54116
天尊	-9.54116
農	-9.54192
㑹	-9.54203
莫之	-9.54209
爛	-9.54226
火候	-9.54308
和氣	-9.5436
天理	-9.54413
爲用	-9.54414
非道	-9.5454
如何	-9.54648
道德眞經	-9.54822
所在	-9.5484
后	-9.54847
燈	-9.54871
三者	-9.54888
卵	-9.54913
炒	-9.55032
至理	-9.55135
其生	-9.55227
若能	-9.55288
使之	-9.553
尹	-9.5541
同於	-9.55458
九天	-9.55469
無聲	-9.55484
靈砂	-9.55551
无所	-9.55586
黄芽	-9.5563
革	-9.5572
渾	-9.55733
脫	-9.55734
藉	-9.55743
撰	-9.55781
炭	-9.55801
以求	-9.55928
思慮	-9.55939
賴	-9.56062
稍	-9.561
之下	-9.56113
披	-9.56324
基	-9.56406
德者	-9.56465
格	-9.56639
歳	-9.56831
南方	-9.56831
養生	-9.56886
嗇	-9.56919
常存	-9.57052
弦	-9.57075
以自	-9.57116
刃	-9.57122
隆	-9.57125
臂	-9.57149
夫唯	-9.57184
不得已	-9.57225
孔子曰	-9.57337
號曰	-9.57379
十六	-9.5741
蒼	-9.57435
菜	-9.57437
下同	-9.57498
五日	-9.57739
於己	-9.57784
文王	-9.57787
脉	-9.57903
哭	-9.57945
判	-9.58018
硫	-9.58159
神丹	-9.58204
垢	-9.58218
秀	-9.58263
故以	-9.58387
國之	-9.58394
迴	-9.58806
關尹子曰	-9.5891
求之	-9.58938
若夫	-9.59022
不若	-9.59067
未始	-9.59074
凌	-9.59106
賦	-9.59107
至于	-9.59122
上德	-9.59128
朕	-9.59139
若有	-9.59153
無用	-9.59196
不與	-9.59237
盞	-9.59305
虚而	-9.59311
忘其	-9.59367
沸	-9.59394
所言	-9.5944
晨	-9.59595
殺人	-9.59609
一身	-9.59633
鋭	-9.59673
者無	-9.59715
吞	-9.59832
道則	-9.59935
耗	-9.59948
之可	-9.59994
光明	-9.60029
以至	-9.60035
丹田	-9.60041
未始有	-9.60043
爲主	-9.60175
味苦	-9.6019
遁	-9.60192
途	-9.60226
學道	-9.60239
聖智	-9.60245
合於	-9.60265
本無	-9.60322
庸	-9.60461
茂	-9.6048
裂	-9.60491
奈何	-9.60556
內	-9.60599
穿	-9.60717
解曰	-9.60745
旬	-9.60753
鷄	-9.60783
祠	-9.61048
天門	-9.61112
與天地	-9.61117
可見	-9.61162
於心	-9.61225
蓬	-9.61282
人身	-9.61304
漿	-9.61307
祀	-9.61315
騰	-9.61319
覩	-9.61342
磨	-9.61362
成功	-9.61384
陶隱居云	-9.61578
之始	-9.61587
融	-9.61599
享	-9.6163
暮	-9.61638
雙	-9.61659
十一	-9.61711
寬	-9.61759
誘	-9.61927
好惡	-9.61952
爲道	-9.61981
午	-9.61987
柱	-9.62037
天之道	-9.62055
取其	-9.62121
而求	-9.62157
無爲也	-9.62279
恍惚	-9.62327
水之	-9.62328
芽	-9.62401
供	-9.62458
須臾	-9.62483
水中	-9.62511
其意	-9.62621
無情	-9.62644
黃帝	-9.62684
佩	-9.62794
小便	-9.62805
與道	-9.62904
知者	-9.62929
礙	-9.62966
案	-9.63
腰	-9.63035
珍	-9.6305
此是	-9.631
所爲	-9.63185
匠	-9.63274
於身	-9.63408
茅	-9.63463
赴	-9.6364
則非	-9.63653
篤	-9.63656
自以爲	-9.63699
太上老君	-9.63776
乎其	-9.63892
壤	-9.63958
用也	-9.64034
在人	-9.64172
演	-9.64264
使者	-9.64415
鬱	-9.64474
有一	-9.6448
跂	-9.64501
采	-9.64523
人主	-9.64574
痢	-9.64584
有物	-9.646
魂魄	-9.64604
非有	-9.6468
伏火	-9.64716
者道之	-9.64878
崔	-9.64948
汗	-9.64981
躬	-9.65142
其有	-9.6517
德也	-9.65229
丹陽	-9.65396
再拜	-9.65437
礬	-9.65575
飽	-9.65608
不測	-9.65695
諱	-9.65698
牽	-9.65714
依前	-9.65885
無言	-9.65923
胃	-9.65938
葬	-9.66004
湛	-9.6602
者即	-9.66082
提	-9.66247
測	-9.66266
怠	-9.66291
徼	-9.66293
因其	-9.66306
祐	-9.66312
隔	-9.66352
其所以	-9.66354
溪	-9.66369
不得不	-9.66523
者以其	-9.66554
取之	-9.66777
名爲	-9.66835
誕	-9.66899
炎	-9.66906
説	-9.66928
真人	-9.66936
悔	-9.66942
而無所	-9.66981
百年	-9.67009
不至	-9.67188
亦猶	-9.67207
燭	-9.67228
上清	-9.67362
綱	-9.67466
聖人之道	-9.67507
謬	-9.67513
曜	-9.67546
而言	-9.67578
非我	-9.6759
得失	-9.67667
此則	-9.67667
將欲	-9.67669
前後	-9.6767
之極	-9.67684
十四	-9.67732
乞	-9.67811
眞常	-9.67814
爽	-9.67842
知足	-9.67981
而去	-9.68034
子之	-9.68106
棲	-9.6811
一年	-9.68114
輒	-9.68115
以水	-9.68121
今日	-9.68157
窺	-9.68158
大聖	-9.68219
太陽	-9.68333
酸	-9.68418
無我	-9.6842
中央	-9.68468
樓	-9.68594
以來	-9.686
弓	-9.68696
有三	-9.68728
瞻	-9.68749
寒熱	-9.68777
四月	-9.68834
金丹	-9.68847
嘆	-9.68849
人事	-9.6895
老聃	-9.69009
奢	-9.69014
暖	-9.69074
夫道	-9.69161
凡人	-9.69166
自然之	-9.69215
便是	-9.69224
觀其	-9.69331
上有	-9.69374
無爲之	-9.69439
生物	-9.69588
𤣥	-9.69604
樞	-9.69615
砂子	-9.69674
盟	-9.69674
若是	-9.6973
眞經	-9.69884
有生	-9.69924
豈非	-9.69936
不免	-9.69939
不入	-9.69941
旁	-9.69973
洛	-9.70025
胥	-9.70241
瓜	-9.70251
無間	-9.70324
而知	-9.70497
囊	-9.70573
其理	-9.70596
若不	-9.7076
三五	-9.70791
植	-9.70833
失道	-9.70861
出乎	-9.71048
無毒	-9.71169
殷	-9.71169
振	-9.71227
二月	-9.71248
崖	-9.71275
十八	-9.71283
書云	-9.71309
善人	-9.71318
其子	-9.71447
醜	-9.71512
浪	-9.71527
韓	-9.71554
然也	-9.71644
自爲	-9.71769
形容	-9.71771
銷	-9.71818
十年	-9.71845
凉	-9.71845
三元	-9.71848
舞	-9.71855
肅	-9.71863
階	-9.71869
生萬物	-9.71961
小國	-9.71962
不可得	-9.72032
五味	-9.72038
而民	-9.7206
此明	-9.72125
我之	-9.72149
□	-9.72186
修道	-9.72199
柳	-9.72199
箇	-9.72362
二人	-9.72369
駭	-9.72452
理國	-9.72503
健	-9.72503
匿	-9.72508
壁	-9.7253
單	-9.72541
不仁	-9.72595
延年	-9.72709
也蓋	-9.72734
衡	-9.72775
大人	-9.72817
不窮	-9.72834
多少	-9.72866
幻	-9.72922
終身	-9.72984
不知所	-9.73048
一錢	-9.73052
精氣	-9.7306
寇	-9.73125
三界	-9.73134
注云	-9.73148
其根	-9.73165
桂	-9.73168
之處	-9.73228
陽氣	-9.73285
勉	-9.73436
道德之	-9.73454
拙	-9.73461
五月	-9.73478
長存	-9.73543
爲大	-9.73797
上古	-9.73827
人以	-9.73875
不忘	-9.73892
風雨	-9.74058
糞	-9.7406
不為	-9.74103
入藥	-9.74113
薪	-9.74116
竒	-9.74139
蔓	-9.74194
所能	-9.74198
而不爲	-9.74279
毫	-9.74344
天人	-9.74354
矣此	-9.74388
子貢	-9.74424
靜而	-9.74576
片	-9.7462
長乆	-9.74812
饑	-9.74884
亥	-9.7501
爲本	-9.75022
逹	-9.75038
智者	-9.75047
徙	-9.75115
覽	-9.75327
八月	-9.75381
正一	-9.75388
倒	-9.75417
存亡	-9.75502
霄	-9.75601
同乎	-9.75619
所欲	-9.75663
第五	-9.75688
蹈	-9.75744
有心	-9.75767
頌曰	-9.75883
十月	-9.75936
无爲	-9.75999
以知	-9.76024
攪	-9.76089
瓶	-9.7611
養之	-9.76115
互	-9.7627
十九	-9.76293
本作	-9.76324
陰陽之	-9.76337
崑崙	-9.76346
斬	-9.76362
爲君	-9.76393
北極	-9.76418
婦	-9.76582
以無爲	-9.76605
以致	-9.7663
也凡	-9.76638
飯	-9.76699
相似	-9.7671
絲	-9.76734
譬如	-9.76791
煅	-9.76827
西方	-9.76915
不厭	-9.76952
挫	-9.7702
仕	-9.77034
第六	-9.77045
孟子	-9.77097
於無	-9.77155
物我	-9.77202
泯	-9.77241
程	-9.77252
三才	-9.77277
醉	-9.7737
遥	-9.77375
薦	-9.77379
遽	-9.77381
核	-9.77381
叙	-9.77401
不絶	-9.77404
握	-9.77696
罰	-9.7771
何所	-9.77747
不盈	-9.77831
彼我	-9.77846
亦如	-9.77925
不祥	-9.77949
勿令	-9.7798
箭	-9.78061
而死	-9.78146
山林	-9.78156
恬	-9.78193
静	-9.78374
諫	-9.78386
眞空	-9.78472
玄元	-9.78491
金闕	-9.78618
進退	-9.78645
豈能	-9.78704
汙	-9.78739
烈	-9.78761
殺之	-9.78848
爲度	-9.7891
當時	-9.79028
踐	-9.79064
未必	-9.79143
以生	-9.79223
以下	-9.79336
敕	-9.79387
鑪	-9.79422
朔	-9.7943
情欲	-9.79526
十七	-9.79556
虚靜	-9.79699
道以	-9.79723
認	-9.79786
秘	-9.79805
視聽	-9.79846
安靜	-9.80011
不息	-9.80031
拱	-9.80067
措	-9.80102
贊	-9.80103
衝	-9.80117
束	-9.80353
物而	-9.80364
沐浴	-9.80421
邪氣	-9.80437
殻	-9.80444
檢	-9.80477
神氣	-9.80496
誓	-9.80506
無非	-9.80577
甫	-9.80701
排	-9.80711
天地之間	-9.80751
之日	-9.80756
淪	-9.80767
荷	-9.80782
戲	-9.80792
俾	-9.808
慾	-9.80811
十兩	-9.80868
東方	-9.8096
爲上	-9.80964
龍虎	-9.81039
至德	-9.81103
錦	-9.81127
俯	-9.81132
神農	-9.81135
芻狗	-9.8114
社	-9.81159
亦然	-9.81177
吉凶	-9.8122
星君	-9.81308
萬里	-9.8133
不已	-9.81353
知道	-9.81365
禽獸	-9.81475
瀉	-9.81495
七月	-9.81626
而忘	-9.81664
彩	-9.81701
則雖	-9.81733
而无	-9.81775
不堪	-9.8179
生生	-9.81812
把	-9.8187
爻	-9.81882
皆是	-9.81938
其上	-9.81963
若無	-9.81988
而不得	-9.82035
筭	-9.82099
應之	-9.82102
硃砂	-9.82169
丑	-9.82182
維	-9.82192
禱	-9.82212
纔	-9.82235
空虚	-9.82351
强梁	-9.82437
漆	-9.82471
夸	-9.82553
奸	-9.82554
僕	-9.82576
異於	-9.82613
者蓋	-9.82627
埋	-9.82804
題	-9.82846
下文	-9.82919
歌曰	-9.82964
靑	-9.82968
乎此	-9.8309
猛	-9.83145
渴	-9.83158
黨	-9.83222
佛	-9.8328
减	-9.83306
物無	-9.83312
遊於	-9.83426
與我	-9.83463
戮	-9.83489
鴻	-9.83566
賢者	-9.83596
裹	-9.83618
微妙	-9.83741
華池	-9.8381
可得而	-9.83846
襄	-9.83959
一百	-9.83998
長春	-9.84025
又以	-9.84112
自此	-9.84146
是之謂	-9.84176
大丹	-9.84196
不去	-9.84212
碑	-9.84297
山中	-9.84299
唱	-9.84308
抽	-9.84316
策	-9.84326
的	-9.84356
未知	-9.84515
之國	-9.84619
曰子	-9.84621
悶	-9.84674
生化	-9.84697
編	-9.84702
遵	-9.84716
性之	-9.84721
不盡	-9.84746
妨	-9.84795
由是	-9.84878
盗	-9.84973
軟	-9.85055
妙道	-9.85078
皇帝	-9.85131
之與	-9.85135
九轉	-9.85192
一時	-9.85284
從之	-9.85309
五十	-9.85397
敝	-9.85436
吸	-9.85442
迫	-9.85446
大者	-9.85507
不識	-9.85597
威儀	-9.85602
各自	-9.85613
安得	-9.85642
或云	-9.85643
也謂	-9.85647
上士	-9.85652
髓	-9.85661
之域	-9.85669
王者	-9.85693
麥	-9.85776
而歸	-9.86002
不治	-9.86005
絳	-9.86047
乃能	-9.86112
講	-9.86162
灌	-9.86208
之神	-9.86274
則必	-9.86337
有欲	-9.86343
二者	-9.8635
彭	-9.86533
無迹	-9.86605
之聲	-9.86644
玄牝	-9.86645
物皆	-9.86669
服食	-9.86726
道術	-9.86818
銖	-9.86835
訪	-9.86854
展	-9.86863
亭	-9.86869
則可以	-9.86912
忘言	-9.87017
社稷	-9.87216
桀	-9.87225
人不	-9.87226
有德	-9.87249
頑	-9.87271
之要	-9.87345
可名	-9.87357
曰此	-9.87407
之境	-9.87425
教之	-9.87517
賈	-9.87541
陷	-9.87572
守一	-9.87591
毎	-9.87593
頗	-9.87629
則物	-9.87757
嗜欲	-9.87791
陰乾	-9.87908
狹	-9.87987
屑	-9.88026
智慧	-9.88225
運動	-9.88303
萬民	-9.88326
翔	-9.88336
一曰	-9.88349
莫若	-9.88369
壅	-9.88414
乏	-9.88415
之形	-9.88446
萬世	-9.88489
形而	-9.88491
也是以	-9.88491
所不能	-9.88492
腹中	-9.88525
美惡	-9.88593
手足	-9.88602
其次	-9.88612
極則	-9.88643
寓言	-9.88667
鉛汞	-9.88669
雀	-9.88699
濡	-9.88705
綿	-9.88709
院	-9.88823
則人	-9.88823
之位	-9.88932
十方	-9.88996
雖復	-9.89074
激	-9.89089
完	-9.89095
功名	-9.89116
斂	-9.89132
四肢	-9.89179
理也	-9.89307
下士	-9.89334
而復	-9.89366
小大	-9.8944
白虎	-9.89442
虚心	-9.89487
之初	-9.895
茍	-9.89502
而動	-9.89521
例	-9.89522
戾	-9.8953
事之	-9.89538
而用之	-9.89568
所居	-9.89597
忍	-9.89734
殉	-9.89751
本命	-9.89766
惡乎	-9.89766
敷	-9.8988
帥	-9.89902
其人	-9.89949
常以	-9.90164
倍	-9.90211
而人	-9.90226
寅	-9.90233
此二	-9.90248
不言而	-9.90423
六合	-9.90432
金玉	-9.90438
而反	-9.9044
高下	-9.90445
童子	-9.90565
於我	-9.90619
遐	-9.90635
而欲	-9.90648
不安	-9.90782
剛强	-9.90909
自見	-9.90939
狐	-9.90955
鉤	-9.90968
仲尼曰	-9.90968
輝	-9.90984
隅	-9.9101
摇	-9.91023
無憂	-9.91109
止於	-9.91116
不受	-9.9116
味辛	-9.91197
問曰	-9.91205
之狀	-9.91308
戸	-9.91345
萬物皆	-9.91347
件	-9.91359
郊	-9.91367
舒	-9.91394
欲以	-9.91442
有道者	-9.91464
未嘗不	-9.91492
將以	-9.91559
已上	-9.91626
所用	-9.91703
製	-9.91721
兄	-9.91754
禦	-9.91755
全其	-9.91772
葵	-9.91801
之教	-9.91808
之使	-9.91825
靜則	-9.91908
正月	-9.91998
根本	-9.92004
眞性	-9.9207
之㫖	-9.92129
崩	-9.92184
去其	-9.92213
遲	-9.9222
成形	-9.92269
不貴	-9.92274
之罪	-9.92335
不化	-9.92362
上帝	-9.92393
也且	-9.92491
魁	-9.92505
有人	-9.9253
蘭	-9.92533
卜	-9.92568
侈	-9.92569
此意	-9.92581
今之	-9.92708
而出	-9.92794
金液	-9.92904
理之	-9.93195
析	-9.93305
帝君	-9.93318
其能	-9.93329
臧	-9.93344
伸	-9.93344
其國	-9.93365
存焉	-9.93449
者不能	-9.93478
古者	-9.93531
者道也	-9.93694
换	-9.93695
之學	-9.93753
痰	-9.93778
供養	-9.93878
利物	-9.93918
乆矣	-9.93984
許由	-9.93986
未可	-9.9406
則能	-9.94069
豈可	-9.94098
硝石	-9.9412
其志	-9.94124
眩	-9.94139
不畏	-9.94251
以喻	-9.94322
對曰	-9.94387
顔色	-9.94478
快	-9.94517
芳	-9.94528
華蓋	-9.9453
六月	-9.94584
獄	-9.94666
盜賊	-9.94732
隨時	-9.94779
至此	-9.94822
逮	-9.94891
知而	-9.9492
修行	-9.94951
急急如律令	-9.94979
八兩	-9.95001
爲物	-9.95038
南華	-9.95062
非人	-9.95128
時有	-9.95204
得而	-9.95217
物有	-9.95227
夫惟	-9.9526
仞	-9.95299
太和	-9.95337
准	-9.95345
不定	-9.9535
其迹	-9.95352
眉	-9.95374
如此則	-9.95488
常有	-9.95524
混沌	-9.95647
莫之能	-9.9565
聞道	-9.95666
蒼生	-9.95679
不傷	-9.95691
恥	-9.957
不應	-9.95718
忿	-9.95734
己之	-9.95737
輩	-9.95741
以德	-9.95879
之體	-9.95884
漠	-9.95976
藴	-9.96155
盲	-9.96155
一體	-9.96168
障	-9.96199
其眞	-9.96224
不覺	-9.96395
靈寳	-9.96432
善者	-9.96434
以養	-9.96451
蕃	-9.96502
道無	-9.96524
函	-9.96551
憑	-9.96558
而化	-9.96663
蒿	-9.96705
戎	-9.96832
動也	-9.96865
寶	-9.96924
清虚	-9.96935
蒲	-9.96939
浴	-9.96953
筋骨	-9.9697
其間	-9.97007
之辭	-9.97249
行道	-9.97258
黒	-9.9726
築	-9.97285
或有	-9.97307
攖	-9.97325
孕	-9.97335
萬化	-9.97339
巾	-9.97345
道不	-9.97367
貸	-9.97381
蠶	-9.97456
故爲	-9.97507
未嘗有	-9.97565
今人	-9.9757
閒	-9.97574
之先	-9.97662
搏	-9.97738
拂	-9.97748
選	-9.97752
狙	-9.97759
竈	-9.97765
燥	-9.97799
不易	-9.97868
悅	-9.98085
轂	-9.98128
頃	-9.98143
兊	-9.98153
靖	-9.98155
事也	-9.98155
庵	-9.98169
耽	-9.98176
始於	-9.98185
卓	-9.98189
哉故	-9.98248
覆載	-9.98416
取天下	-9.98425
形骸	-9.98445
不肖	-9.98563
琴	-9.98581
閣	-9.98605
而萬物	-9.98635
矣然	-9.98646
氏之	-9.98713
萬物而	-9.98766
化而	-9.98826
谷神	-9.9886
血氣	-9.98921
尅	-9.98939
半兩	-9.98944
卯	-9.98947
冀	-9.98997
七十二	-9.99089
止也	-9.99112
所遇	-9.99209
名之	-9.99223
玄妙	-9.99238
此經	-9.99312
猪	-9.99339
不容	-9.99364
其大	-9.99421
故其	-9.99536
南華經曰	-9.99556
范曰	-9.99767
朗	-9.99846
獨立	-9.99868
稽首	-9.99924
形體	-9.99966
教人	-10.0003
之炁	-10.0016
闔	-10.0017
混元	-10.0017
御註曰	-10.0018
者所以	-10.0018
則神	-10.0021
段	-10.0024
泣	-10.0026
相和	-10.0027
之分	-10.004
有功	-10.0046
天下之人	-10.0049
吾之	-10.0051
嚮	-10.0061
所生	-10.0066
疲	-10.0067
葱	-10.0069
何爲	-10.0074
元君	-10.0079
養神	-10.008
終不	-10.0082
名山	-10.0089
璧	-10.011
其行	-10.0112
粒	-10.0112
糧	-10.0112
掃	-10.0114
其情	-10.0117
而未	-10.0128
胎息	-10.0145
所知	-10.0149
六甲	-10.0149
謂其	-10.0153
昇天	-10.0174
不妄	-10.0175
忽然	-10.0177
粟	-10.0192
嗟	-10.0195
闊	-10.0196
嬰	-10.0196
法度	-10.0201
六十	-10.0207
之累	-10.0212
太玄	-10.0215
則失	-10.0219
而常	-10.0224
不居	-10.0228
雅	-10.0231
天下者	-10.0235
睡	-10.0236
騎	-10.0236
躍	-10.0236
猶有	-10.0248
皆以	-10.025
匀	-10.0252
此章明	-10.0253
世俗之	-10.0254
有言	-10.0255
事而	-10.0261
此謂	-10.027
而下	-10.027
館	-10.0279
銳	-10.0281
隸	-10.0282
通於	-10.0283
絹	-10.0284
軒	-10.0284
其氣	-10.0286
鍋	-10.0286
肌	-10.029
萬事	-10.0297
用心	-10.0302
不以爲	-10.0304
自然之道	-10.0306
賞罰	-10.0323
嫌	-10.0323
倉	-10.0323
第	-10.0327
物者	-10.0333
玄帝	-10.0338
山川	-10.0345
太山	-10.036
牢	-10.0365
愆	-10.0367
層	-10.0369
利器	-10.037
枕	-10.0372
日新	-10.0386
行注	-10.0388
郭註	-10.0388
天機	-10.0389
藏於	-10.039
可欲	-10.0393
則不能	-10.0403
幼	-10.0403
大患	-10.0405
飄	-10.0406
盆	-10.0411
項	-10.0412
太子	-10.0415
何也	-10.043
見於	-10.0435
於一	-10.0438
莫知其	-10.0439
之前	-10.0441
以言	-10.0441
方可	-10.0445
揺	-10.0451
子列子	-10.0451
匡	-10.0452
寐	-10.0453
亢	-10.0456
者也故	-10.046
葉似	-10.0465
法師	-10.0469
故雖	-10.0475
用其	-10.0477
虚空	-10.0484
空心	-10.049
巢	-10.0498
身中	-10.0503
其義	-10.0518
不當	-10.0535
腐	-10.0541
讎	-10.0545
其民	-10.0547
誡	-10.0551
王公	-10.0553
黄白	-10.0553
恬淡	-10.0554
玄同	-10.0556
守之	-10.0556
大道之	-10.0557
曰我	-10.0562
自然也	-10.0568
安能	-10.057
在天	-10.0571
知此	-10.0572
元始	-10.0578
杵	-10.0584
範	-10.0587
鎔	-10.0588
欽	-10.0588
俟	-10.0589
叛	-10.0589
苛	-10.0591
捐	-10.0592
善行	-10.0596
不失其	-10.0599
欲得	-10.0601
惠子	-10.0607
仁者	-10.0615
齋戒	-10.0622
不違	-10.0626
探	-10.0632
繞	-10.0635
受之	-10.064
翠	-10.0641
而巳	-10.0641
訣曰	-10.0641
玄德	-10.0646
妙用	-10.0653
傳曰	-10.0661
女子	-10.0664
消息	-10.0665
人家	-10.0667
聾	-10.067
佞	-10.0675
九月	-10.0678
寫	-10.068
顔回	-10.0683
拌	-10.0684
而心	-10.069
三升	-10.0694
一者	-10.0699
相應	-10.07
之師	-10.0702
廣大	-10.0704
始也	-10.0705
爲治	-10.0713
者豈	-10.0714
頤	-10.0715
可用	-10.0718
斥	-10.0719
扇	-10.0722
廬	-10.0724
泛	-10.0725
或以	-10.0728
以應	-10.0737
化人	-10.0742
戊	-10.0751
和之	-10.0753
狀如	-10.0755
二儀	-10.0756
褁	-10.0757
肯	-10.0759
拒	-10.0768
湛然	-10.0768
兔	-10.0772
自勝	-10.0773
大藥	-10.0777
始終	-10.0784
任其	-10.0791
青龍	-10.0793
之異	-10.0803
在内	-10.0807
無上	-10.0808
問之	-10.0808
籠	-10.081
研細	-10.0811
逰	-10.0811
猒	-10.0813
冒	-10.0816
祚	-10.0818
不由	-10.0827
不食	-10.0844
動作	-10.0846
必須	-10.0848
般	-10.085
文字	-10.0851
𩔖	-10.0855
愧	-10.0856
鵬	-10.0857
陋	-10.0858
鑄	-10.0864
碧虚子陳景元曰	-10.0869
一種	-10.0875
之化	-10.0876
乙	-10.0891
盡其	-10.0895
秉	-10.0903
噫	-10.0904
岸	-10.0905
胸	-10.0915
所出	-10.092
乃是	-10.092
堅强	-10.0922
不變	-10.0938
香火	-10.0943
日中	-10.0946
之象	-10.0948
聖賢	-10.0948
相生	-10.0951
出而	-10.0952
柴	-10.0952
崔云	-10.0957
誇	-10.0958
曰汝	-10.096
不虧	-10.0962
二錢	-10.0963
而未嘗	-10.0979
枚	-10.0986
此三者	-10.099
膝	-10.0991
也既	-10.0992
三寳	-10.0994
晏	-10.0996
鐘	-10.1
宗師	-10.1001
益氣	-10.1001
死地	-10.1004
藥性論云	-10.101
命也	-10.1017
凡有	-10.1019
心不	-10.1025
五嶽	-10.1026
可知	-10.1037
元炁	-10.1037
人生	-10.1039
班	-10.1042
曷	-10.1045
宻	-10.1047
章第二十	-10.1052
命之	-10.1053
蜂	-10.1058
而立	-10.1064
土地	-10.1065
得此	-10.1066
不勞	-10.1067
甘草	-10.1073
心無	-10.1073
此法	-10.1078
下降	-10.1086
也右	-10.1089
橐籥	-10.1093
污	-10.1094
其可	-10.11
人者	-10.1109
化之	-10.111
天下之至	-10.1111
與天	-10.1117
嗜	-10.112
有知	-10.1123
知止	-10.1132
形質	-10.1134
歛	-10.1135
徴	-10.1136
額	-10.1139
姑	-10.114
有常	-10.114
脊	-10.114
淳樸	-10.114
其於	-10.1154
漬	-10.1159
有毒	-10.1162
愛之	-10.1163
明目	-10.1164
不一	-10.1167
透	-10.118
天帝	-10.1182
銜	-10.1184
不能自	-10.1184
夾	-10.1186
賣	-10.1186
霸	-10.1187
日用	-10.1187
踵	-10.1188
占	-10.1188
行者	-10.1188
所得	-10.1189
翳	-10.1191
唐本注云	-10.1198
於前	-10.1201
父子	-10.1212
不恃	-10.1216
之所爲	-10.1216
者當	-10.1218
胸中	-10.1219
煆	-10.1222
盧曰	-10.1223
之喻	-10.1227
億	-10.1228
而止	-10.1229
牡	-10.1232
紫微	-10.1235
自爾	-10.1237
罷	-10.1237
喫	-10.1239
洞天	-10.1246
非常	-10.1249
有大	-10.1249
男子	-10.1254
忠信	-10.1259
是已	-10.1268
或作	-10.1273
曆	-10.1276
戚	-10.1279
畔	-10.1279
言道	-10.1281
虐	-10.1283
於彼	-10.1285
神者	-10.1287
言者	-10.1294
太古	-10.13
傷人	-10.1303
惟其	-10.1305
俄	-10.131
之文	-10.1316
玄武	-10.1316
天命	-10.1317
反又	-10.1323
能生	-10.1325
儻	-10.1325
爰	-10.1325
自在	-10.1325
爲德	-10.1326
性也	-10.1326
僻	-10.1327
佚	-10.1327
翻	-10.1328
煞	-10.1331
園	-10.1334
固有	-10.1341
其後	-10.1341
盈滿	-10.1354
二氣	-10.1361
終身不	-10.1363
乎天	-10.1366
以告	-10.1367
茶	-10.1373
明道	-10.1376
桓公	-10.1379
南華眞經義海纂微卷之	-10.1382
一心	-10.1382
黄金	-10.139
不可見	-10.1391
下有	-10.1398
之機	-10.1404
五金	-10.141
嶺	-10.1413
偕	-10.1421
值	-10.1422
併	-10.1427
夀	-10.1427
惡瘡	-10.1433
一分	-10.1433
圃	-10.1433
莫大於	-10.1433
之義也	-10.1435
莫測	-10.1435
金銀	-10.1446
聖人不	-10.1448
姓名	-10.1451
不得已而	-10.1455
!」	-10.146
物則	-10.1463
與汝	-10.1465
李曰	-10.1467
其體	-10.1468
緒	-10.1469
細研	-10.1475
晚	-10.1477
至大	-10.1495
者是也	-10.1497
諸天	-10.1501
何有	-10.1512
減	-10.1512
曰夫	-10.1518
寥	-10.1518
癸	-10.152
起於	-10.1522
潁濱蘇轍曰	-10.1531
兩忘	-10.1533
而不知其	-10.1534
汎	-10.1543
修眞	-10.1545
肖	-10.1556
則生	-10.1557
生人	-10.1558
方治	-10.156
所有	-10.1561
蜩	-10.1567
釣	-10.1568
悖	-10.157
烹	-10.1572
尖	-10.1575
往而不	-10.1575
亦是	-10.1578
三千	-10.1578
己而	-10.1581
本經	-10.1587
成也	-10.1588
察察	-10.1591
二升	-10.1596
不亦	-10.1597
知也	-10.1597
故名	-10.1601
劒	-10.1607
九年	-10.1609
一月	-10.1612
異也	-10.1614
映	-10.1616
椒	-10.1619
剖	-10.162
三尺	-10.162
者可以	-10.162
此亦	-10.1622
三清	-10.1624
百里	-10.163
是時	-10.1638
川谷	-10.1638
兩手	-10.164
器中	-10.1641
從而	-10.1644
先後	-10.1649
侮	-10.1651
纏	-10.1652
付之	-10.1653
常道	-10.1664
之書	-10.1665
態	-10.1669
彼此	-10.1669
屢	-10.167
盧	-10.1671
形之	-10.1673
超然	-10.1674
而行之	-10.1677
本草	-10.1678
䟽此	-10.168
不起	-10.1681
千萬	-10.1689
導引	-10.1689
可爲	-10.1697
未足	-10.1707
之實	-10.1709
法天	-10.1713
彈	-10.1717
谿	-10.1718
在下	-10.1718
諭	-10.1719
上元	-10.1719
亦非	-10.1721
我者	-10.1722
譏	-10.1722
多食	-10.1722
道家	-10.1725
熬	-10.1728
寵辱	-10.1728
行而	-10.1729
皆由	-10.1731
頌	-10.1733
以靜	-10.1736
亦得	-10.1742
也䟽夫	-10.1748
者多	-10.1764
世之人	-10.1765
昔者	-10.1765
天下皆	-10.1768
準	-10.1768
迭	-10.1769
臻	-10.1773
粥	-10.1773
此所以	-10.1782
澗	-10.1784
至樂	-10.1791
成而	-10.1795
天地之道	-10.1815
黎	-10.182
爪	-10.182
下氣	-10.1826
君之	-10.1827
其分	-10.1828
暇	-10.1836
神靈	-10.1836
道德經	-10.1844
為天下	-10.1844
三寸	-10.1853
孟子曰	-10.1854
書曰	-10.1854
其色	-10.1856
擬	-10.1867
梅	-10.1869
自然之理	-10.1869
蓮	-10.1869
身心	-10.1872
道不可	-10.1873
殊不知	-10.1873
朝廷	-10.1873
形如	-10.1878
半斤	-10.188
相去	-10.1892
吾身	-10.1898
遊乎	-10.1899
異乎	-10.1901
我獨	-10.1913
着	-10.1914
之器	-10.1914
所以能	-10.192
恍	-10.192
絡	-10.1921
死也	-10.1923
任物	-10.1926
孰爲	-10.1933
當以	-10.1934
名利	-10.1943
聖人所以	-10.1944
於萬物	-10.1947
以道爲	-10.1957
滓	-10.1958
爲事	-10.1959
他人	-10.1961
将	-10.1966
之方	-10.1968
豕	-10.197
區	-10.1971
於中	-10.1973
三十日	-10.1974
武王	-10.1976
愚者	-10.1976
有情	-10.1983
太初	-10.1987
相反	-10.1992
方且	-10.1993
不亂	-10.2004
善也	-10.2011
只是	-10.2013
爲我	-10.2014
功德	-10.2019
之本也	-10.2021
謚	-10.2021
可以爲	-10.2021
詭	-10.2023
盜跖	-10.2024
復命	-10.2026
强名	-10.2027
屎	-10.2031
相合	-10.2032
結成	-10.204
自成	-10.204
雌雄	-10.2042
自正	-10.2043
無爲則	-10.2044
第七	-10.2045
江南	-10.2047
政和	-10.2051
爲臣	-10.2058
於事	-10.2059
常在	-10.2061
者不可	-10.2062
服氣	-10.2062
此三	-10.2062
東海	-10.2068
顆	-10.2072
黙	-10.2073
宇宙	-10.2074
忤	-10.2076
跨	-10.2078
心腹	-10.2078
莫知	-10.2085
人物	-10.2097
呪曰	-10.2097
霧	-10.2106
豪	-10.2121
頻	-10.2122
岐	-10.2123
板	-10.2123
薑	-10.2124
捉	-10.2125
人多	-10.2126
善之	-10.2128
神化	-10.2131
神符	-10.2136
不處	-10.2139
一家	-10.2144
不異	-10.2145
人道	-10.2157
篇云	-10.2163
長短	-10.2165
之利	-10.2165
養火	-10.2166
二字	-10.2168
旨	-10.2174
擁	-10.2175
掩	-10.2178
贍	-10.2182
濃	-10.2182
明矣	-10.2186
寂然	-10.2189
成寳	-10.2208
以慈	-10.2214
鋪	-10.2215
爲器	-10.2215
凡物	-10.2216
無異	-10.2217
之病	-10.2223
者矣	-10.2224
軌	-10.223
薰	-10.223
一伏時	-10.2231
湖	-10.2235
隳	-10.2235
榆	-10.2236
千金	-10.2237
蟬	-10.2237
橋	-10.2242
聽之	-10.2243
之弊	-10.2246
則心	-10.2248
自然而	-10.2248
之末	-10.2255
爲體	-10.2258
十餘	-10.2264
而至於	-10.2267
叩	-10.2271
不可測	-10.2279
御曰	-10.2281
自來	-10.2281
生焉	-10.2282
憲	-10.2284
贅	-10.2286
沖虚	-10.2291
此所謂	-10.2292
以待	-10.2292
傅之	-10.2295
者雖	-10.2296
物故	-10.2298
門人	-10.2302
復於	-10.2312
九竅	-10.2313
三王	-10.2323
爲盜	-10.2327
奴	-10.2333
羸	-10.2334
成汁	-10.2334
針	-10.2336
暈	-10.2336
捷	-10.2339
淘	-10.2339
懐	-10.234
所適	-10.234
烟	-10.2342
所宜	-10.2342
言教	-10.2353
之屬	-10.2358
為之	-10.2364
之表	-10.2365
一本作	-10.2367
先天	-10.2368
道之人	-10.2381
酉	-10.2389
掘	-10.239
可不	-10.2398
寡人	-10.2405
未得	-10.2406
相類	-10.2411
以智	-10.2422
以至於	-10.2429
了悟	-10.2432
求其	-10.2435
墓	-10.2436
梧	-10.2437
錬	-10.2439
紂	-10.244
瑩	-10.2441
鱗	-10.2442
憐	-10.2443
括	-10.2444
贈	-10.2447
雖欲	-10.2449
焉故	-10.2453
丙	-10.2468
丈人	-10.2471
自足	-10.2478
無量	-10.2478
箕	-10.2487
二日	-10.2489
硃	-10.2489
兀	-10.249
蕭	-10.2495
至極	-10.2496
硇砂	-10.2497
緊	-10.25
物之所	-10.2501
整	-10.2502
鬼名	-10.2507
疾病	-10.2509
生則	-10.2511
樂也	-10.2514
疵	-10.2516
眞道	-10.252
無由	-10.2521
上昇	-10.2522
歸根	-10.2522
十二月	-10.2526
請問	-10.253
之哉	-10.2536
萬方	-10.2541
栗	-10.2544
距	-10.255
劣	-10.2554
綿綿	-10.2554
餅	-10.2554
也雖	-10.256
口中	-10.2568
兼忘	-10.2568
神室	-10.2571
著書	-10.2573
若然者	-10.2574
一云	-10.2577
人民	-10.2581
宮	-10.2589
桓	-10.2592
其聲	-10.2597
天眞	-10.26
槩	-10.2602
綺	-10.2606
傲	-10.2608
揣	-10.2609
天地萬物	-10.2613
三百	-10.2616
禮義	-10.2623
也義曰	-10.2623
三斤	-10.2625
者衆	-10.2626
五星	-10.2629
豈知	-10.263
遠近	-10.2633
貼	-10.2646
司命	-10.2649
沖和	-10.265
縛	-10.2656
所行	-10.2657
衞	-10.2658
創	-10.2659
大吉	-10.2668
功曹	-10.267
死矣	-10.2671
性命之	-10.2677
非其	-10.2679
爲義	-10.2681
之力	-10.2685
俗人	-10.2685
有時而	-10.2691
既有	-10.2692
合子	-10.2696
順物	-10.2699
而爲之	-10.2699
之宗	-10.2705
取汁	-10.2706
難治	-10.2708
所好	-10.2708
太微	-10.2709
先以	-10.2709
然後能	-10.271
濫	-10.2714
我則	-10.2715
莊子所謂	-10.2716
眇	-10.2716
乎道	-10.2717
副	-10.2721
林氏曰	-10.2723
坑	-10.2724
器也	-10.2727
不立	-10.2732
不顧	-10.2733
本亦作	-10.2738
飲之	-10.2742
靜也	-10.2745
此藥	-10.2745
告之	-10.2752
旱	-10.2752
之論	-10.2761
者不知	-10.2765
之令	-10.2765
藝	-10.2769
形者	-10.2771
無所用	-10.2772
迕	-10.2772
哀樂	-10.2773
沖氣	-10.2777
之源	-10.278
亦何	-10.278
榮辱	-10.2788
四者	-10.2794
不知所以	-10.2795
五年	-10.2801
上文	-10.2801
人情	-10.2807
文子	-10.2808
使我	-10.2809
也〇	-10.2809
少許	-10.281
衍	-10.2816
鳩	-10.2818
之意也	-10.2823
規矩	-10.2824
暑	-10.2824
桐	-10.2824
漫	-10.2829
五方	-10.283
性命之情	-10.283
尹喜	-10.283
橫	-10.2832
稀	-10.2834
形神	-10.2836
乃可	-10.2839
陳藏器云	-10.284
白馬	-10.284
黑色	-10.2841
之由	-10.2842
之而不	-10.2846
守道	-10.2847
不思	-10.2848
不宜	-10.2854
於地	-10.2855
造化之	-10.2864
之勢	-10.2866
五寸	-10.287
自矜	-10.2871
無不爲	-10.2872
一處	-10.2875
附子	-10.2875
爲天	-10.2875
鸞	-10.2879
鋒	-10.2879
斛	-10.2879
嗜慾	-10.288
得以	-10.2881
日月之	-10.2884
佑	-10.2885
合道	-10.2888
玄黄	-10.2899
二物	-10.2899
而又	-10.29
法也	-10.2903
而我	-10.2903
磁石	-10.2905
又名	-10.2909
之世	-10.291
精誠	-10.2911
尹子曰	-10.2912
死而	-10.2912
大盜	-10.2912
中國	-10.2914
庖	-10.2926
之美	-10.2927
王曰	-10.2928
教化	-10.2933
鈞	-10.2936
勃	-10.2936
匪	-10.2936
歙	-10.2937
硬	-10.2937
之相	-10.2937
冶	-10.2938
上天	-10.2939
孩	-10.294
玩	-10.2942
白礬	-10.2946
不假	-10.295
古之人	-10.2953
未至	-10.2956
而致	-10.2957
既無	-10.2961
群生	-10.2961
名實	-10.2964
本末	-10.2971
而終	-10.2977
且夫	-10.2979
大同	-10.2986
闢	-10.2988
成云	-10.2989
七十	-10.299
何如	-10.2992
雕	-10.2992
蹶	-10.2994
剋	-10.2996
相忘	-10.2996
則易	-10.3001
所由	-10.3003
爾雅云	-10.3008
害人	-10.3014
而弗	-10.3017
昭昭	-10.302
燒之	-10.3024
曰道	-10.3027
用此	-10.303
以正	-10.3036
或曰	-10.3036
命者	-10.3037
人自	-10.304
西北	-10.3044
分明	-10.3044
屏	-10.3052
吟	-10.3052
小者	-10.3052
雍	-10.3053
峻	-10.3053
縮	-10.3056
百餘	-10.3056
疼	-10.3061
呼吸	-10.3062
在己	-10.3067
坐忘	-10.3067
於德	-10.307
而後能	-10.3073
至眞	-10.3074
第八	-10.3076
答曰	-10.3078
而來	-10.309
五穀	-10.3092
結繩	-10.3093
蛤	-10.3094
次之	-10.3094
猶如	-10.3095
七年	-10.3099
纂微	-10.3101
几	-10.3103
宴	-10.3104
柄	-10.3107
咬	-10.3108
鹹	-10.3109
耳非	-10.3111
又方治	-10.3112
巫	-10.3112
可乎	-10.3117
問於	-10.3118
碧虚	-10.3124
能無	-10.3133
德不	-10.3136
若以	-10.3139
者如	-10.3139
於民	-10.314
以身	-10.3143
一箇	-10.3146
一尺	-10.315
有爲之	-10.3151
所聞	-10.3151
毀	-10.3152
一二	-10.3153
之所能	-10.3158
萬變	-10.3159
粉霜	-10.316
杏	-10.3162
不可爲	-10.3164
十五日	-10.3165
藤	-10.3165
赫	-10.3165
欣	-10.3166
漱	-10.3167
秋毫	-10.3167
毋	-10.3168
該	-10.3169
明白	-10.3185
大通	-10.3185
欲令	-10.3185
人亦	-10.3191
百病	-10.3196
可道	-10.3197
浩	-10.3198
肩	-10.3198
匹	-10.321
第九	-10.3214
捕	-10.3218
轍	-10.3221
伊	-10.3225
蒂	-10.3225
希夷	-10.3231
不肯	-10.3232
矣若	-10.3238
如前	-10.324
不正	-10.324
黄色	-10.3242
二子	-10.3243
在此	-10.3245
紫色	-10.3247
皆可	-10.3252
爲己	-10.3258
何嘗	-10.3264
言語	-10.3272
去皮	-10.3273
文武	-10.3273
訟	-10.3274
莊子云	-10.3281
從此	-10.3281
船	-10.3282
纖	-10.3282
臼	-10.3285
牀	-10.3287
裁	-10.3287
一國	-10.3287
五音	-10.329
爲貴	-10.3291
終無	-10.3295
喪其	-10.3295
窮極	-10.33
白雪	-10.33
尊卑	-10.331
如是則	-10.3311
隨之	-10.3318
方圓	-10.3323
夫聖人	-10.3336
驟	-10.3337
閲	-10.3339
偷	-10.3339
怖	-10.3339
熊	-10.334
芥	-10.334
不見其	-10.3341
憫	-10.3342
順之	-10.3344
局	-10.3346
洽	-10.3347
何氏曰	-10.3348
之甚	-10.3351
一本	-10.3351
應變	-10.3351
謙下	-10.3354
人欲	-10.3355
全眞	-10.3357
每服	-10.3357
下德	-10.3361
直符	-10.3362
常無	-10.3363
不樂	-10.3367
朽	-10.3369
天下也	-10.3372
礬石	-10.3375
註夫	-10.3384
之過	-10.3386
前章	-10.339
以觀	-10.3393
禾	-10.3394
軀	-10.3396
矣䟽	-10.34
每日	-10.34
以生爲	-10.3401
輕重	-10.3403
馳騁	-10.3403
柏	-10.3404
愁	-10.3406
嘘	-10.3408
中和	-10.3408
癰	-10.3408
焚香	-10.3409
如法	-10.3417
我以	-10.3419
人之生也	-10.3421
燒香	-10.3421
東西	-10.3424
此理	-10.3425
六兩	-10.3426
壺	-10.3428
棄之	-10.3429
使其	-10.3431
眞知	-10.3439
皆非	-10.3442
不悟	-10.3444
黍	-10.3453
口訣	-10.3453
海内	-10.3456
後人	-10.3456
抱一子曰	-10.346
脆	-10.3462
存乎	-10.3463
言人	-10.3465
鳥獸	-10.3465
臘	-10.3465
養七日	-10.3472
必先	-10.3475
獨化	-10.3487
何以知	-10.3493
萬象	-10.3495
眞氣	-10.35
而實	-10.3505
憂患	-10.3511
軸	-10.3512
灑	-10.3513
墻	-10.3518
巽	-10.3518
盈虚	-10.352
吕氏曰	-10.3522
霍亂	-10.3523
其下	-10.3524
識之	-10.3527
駐	-10.3528
惡之	-10.3528
葉如	-10.3529
八卦	-10.3535
之端	-10.3537
所施	-10.3542
無能	-10.3543
之民	-10.3546
無時	-10.3547
道徳	-10.3547
去滓	-10.3549
也若夫	-10.3555
曰天	-10.3568
公子	-10.3568
屯	-10.3572
飮	-10.3574
禪	-10.3575
隙	-10.3577
協	-10.3577
瀆	-10.3578
褐	-10.3578
壑	-10.358
功用	-10.3581
不害	-10.3586
之自然	-10.3595
賢愚	-10.36
非所	-10.3601
者何	-10.3602
去來	-10.3607
流行	-10.3611
之質	-10.3612
者謂之	-10.3612
欲求	-10.3613
曾青	-10.362
㸃	-10.3621
如水	-10.3622
以示	-10.3625
動則	-10.3628
數十	-10.3633
墟	-10.3634
旌	-10.3635
不老	-10.3635
衆人之	-10.3637
不免於	-10.3639
唾	-10.3639
恨	-10.3639
相因	-10.364
醇	-10.3644
於國	-10.3654
用火	-10.3656
孝慈	-10.3667
傷寒	-10.3667
四象	-10.3669
百官	-10.3687
憎	-10.3687
於下	-10.3688
允	-10.369
泥丸	-10.3693
太陰	-10.3693
隨物	-10.3694
胞	-10.3696
治人	-10.3697
而物	-10.3697
截	-10.3698
天行	-10.3704
山之	-10.3707
也彼	-10.3717
銘	-10.372
河上公	-10.3721
文云	-10.3722
無求	-10.3739
萬有	-10.3745
千年	-10.3748
合乎	-10.3748
左手	-10.3752
運行	-10.3755
別	-10.3756
玉清	-10.3756
馭	-10.3757
逾	-10.3759
自謂	-10.376
寂然不動	-10.3766
未有不	-10.3767
因而	-10.3768
渾沌	-10.3769
癢	-10.3774
乃至	-10.3775
正道	-10.3777
九州	-10.3779
則無所	-10.3782
絶學	-10.3784
在位	-10.3787
必以	-10.3789
易之	-10.3795
暴乾	-10.3796
無道	-10.3799
台	-10.3801
榮華	-10.3807
分爲	-10.381
而不自	-10.381
痔	-10.3811
不矜	-10.3817
甚多	-10.3817
物各	-10.3818
敖	-10.3819
推之	-10.3822
兄弟	-10.3822
邇	-10.3823
扁	-10.3823
也惟	-10.3825
至柔	-10.3825
不利	-10.3826
自古	-10.3826
不須	-10.3827
之稱	-10.3833
壬	-10.386
時人	-10.3863
德之人	-10.3867
韋	-10.3868
爲而不恃	-10.387
令乾	-10.3873
此物	-10.3877
赦	-10.3878
料	-10.3879
挺	-10.3881
僧	-10.3881
邈	-10.3883
斧	-10.3883
籥	-10.3884
促	-10.3885
幹	-10.3886
鬚	-10.3888
處於	-10.3888
皮膚	-10.3892
保其	-10.3895
見聞	-10.3903
三尸	-10.3905
難得	-10.3912
矣又	-10.3917
不拘	-10.3917
伏願	-10.392
不敢爲	-10.3922
其文	-10.3926
地名	-10.3927
爲正	-10.3929
無厭	-10.3933
秤	-10.3935
爲心	-10.3939
死之徒	-10.394
害也	-10.3941
練	-10.3941
寤	-10.3942
詠	-10.3943
雷霆	-10.3945
之治	-10.3947
詰	-10.3948
非道也	-10.3951
螫	-10.3951
莊周	-10.3955
論之	-10.3958
不從	-10.3959
倪	-10.3962
范	-10.3962
者常	-10.3965
兼愛	-10.3966
萬神	-10.3967
而入	-10.3968
能行	-10.3968
陰氣	-10.3975
無始	-10.3976
之樂	-10.3976
亦不能	-10.3978
者能	-10.3979
人之心	-10.3984
物自	-10.3987
魅	-10.3999
使天下	-10.3999
門户	-10.4001
必然	-10.4004
不齊	-10.4005
此章言	-10.4006
攘	-10.4008
闡	-10.4009
剪	-10.4009
大矣	-10.4016
無爲而無不爲	-10.4018
去之	-10.4018
其說	-10.402
無功	-10.4024
聖人以	-10.4025
三天	-10.4034
在地	-10.404
能勝	-10.4042
倦	-10.4043
於俗	-10.4044
於大	-10.4046
皆得	-10.405
名者	-10.405
至人之	-10.4051
道非	-10.4052
崔本作	-10.4055
亢倉子	-10.4056
翁	-10.4058
九日	-10.406
輕身	-10.4062
尚書	-10.4062
弔	-10.4063
君曰	-10.4064
彫	-10.4065
鼔	-10.4069
渡	-10.4071
鈎	-10.4072
開元	-10.4076
無益	-10.4077
祛	-10.4077
接物	-10.4077
蝕	-10.4077
道在	-10.4079
盡矣	-10.408
甘露	-10.4082
不可名	-10.4083
不尚賢	-10.4084
點化	-10.4086
居其	-10.4088
而已故	-10.4088
無爲者	-10.409
非眞	-10.4094
故得	-10.4094
而可	-10.4095
皆有之	-10.4096
所貴	-10.4097
不散	-10.4101
之家	-10.4104
貪求	-10.4115
人倫	-10.4122
揭	-10.4131
播	-10.4132
戒者不得	-10.4133
滴	-10.4133
棘	-10.4134
歇	-10.4137
較	-10.4137
有聲	-10.4137
摧	-10.4137
修鍊	-10.4142
謹按	-10.4149
滌	-10.415
其内	-10.4172
樓觀	-10.4172
白色	-10.4172
臍	-10.4173
傳之	-10.4173
積德	-10.4182
唯聖人	-10.4182
膚	-10.4182
朋	-10.4187
無失	-10.4189
莽	-10.419
心者	-10.4191
多言	-10.4193
殖	-10.4195
綸	-10.4195
馮	-10.4196
蘆	-10.4197
吿	-10.4197
敏	-10.4198
惚	-10.4198
此書	-10.4199
脅	-10.4202
俞	-10.4202
物莫能	-10.4203
敢問	-10.4204
厨	-10.4204
至妙	-10.4215
相爲	-10.4231
四時之	-10.4237
五百	-10.424
者先	-10.4245
痹	-10.4245
䰟	-10.4252
而見	-10.4252
忘我	-10.4253
至精	-10.4257
邀	-10.4259
艮	-10.4259
欲明	-10.4259
以賤爲本	-10.426
嚥	-10.4263
此篇	-10.4268
形形	-10.427
君子之	-10.4272
道之體	-10.4273
庶幾	-10.4274
與此	-10.4286
東南	-10.4291
三代	-10.4291
師之	-10.4293
全而	-10.4297
纂	-10.4301
八石	-10.4309
所求	-10.4316
羲	-10.4316
爲名	-10.4316
同異	-10.4316
閉氣	-10.4317
受命	-10.4317
龍芽	-10.4319
上仙	-10.432
和合	-10.4323
菌	-10.4323
蘄	-10.4324
幣	-10.4325
受其	-10.4326
多有	-10.4326
羞	-10.4327
不作	-10.4328
杯	-10.4328
其知	-10.433
涯	-10.433
篆	-10.4332
更相	-10.4333
五常	-10.4333
則道	-10.4335
有爲也	-10.4336
血脉	-10.4337
體用	-10.4342
眞仙	-10.4349
所歸	-10.4351
上善	-10.4356
大順	-10.4358
南面	-10.4358
妙理	-10.4364
爲下	-10.4367
在外	-10.437
積聚	-10.4374
犀	-10.4374
榖	-10.4375
爲先	-10.4376
變而	-10.4379
禍患	-10.438
諸藥	-10.4385
皓	-10.4387
喙	-10.4388
赤石脂	-10.4389
旅	-10.4389
五斤	-10.439
賀	-10.439
火燒	-10.4391
渠	-10.4392
重陽	-10.4393
粹	-10.4394
在彼	-10.4403
求道	-10.4414
若乃	-10.4417
無定	-10.4417
抵	-10.4422
者猶	-10.4425
雲母	-10.4426
大王	-10.4434
從事	-10.4436
何由	-10.4438
安於	-10.4438
盛德	-10.4441
身之	-10.4441
本也	-10.4445
剥	-10.4452
戌	-10.4453
形也	-10.4455
泠	-10.4458
枯槁	-10.4459
罕	-10.446
儒墨	-10.446
皆爲	-10.446
齡	-10.4462
章第十	-10.4462
祭祀	-10.4463
消渴	-10.4464
以善	-10.4465
道人	-10.4466
茯苓	-10.4467
十斤	-10.4469
燒灰	-10.4474
於上	-10.4474
者明	-10.4475
苦酒	-10.4475
之根	-10.4479
恐其	-10.448
以神	-10.4482
不可勝	-10.4483
四大	-10.4493
其力	-10.4494
無爲之道	-10.4502
理身	-10.4506
爲是	-10.4512
本性	-10.4514
䘮	-10.4516
天下之物	-10.4517
其外	-10.4518
眠	-10.4519
無外	-10.4519
彭祖	-10.4521
望之	-10.4522
諾	-10.4522
貝	-10.4527
摶	-10.4529
金瘡	-10.4529
疑獨註	-10.4531
而不失	-10.4538
太白	-10.4543
居之	-10.4549
入山	-10.4554
中心	-10.456
土釜	-10.4561
猶未	-10.4561
難矣	-10.4563
冥冥	-10.4568
有待	-10.4568
清濁	-10.4571
二寸	-10.4572
相隨	-10.4574
則可	-10.4578
六根	-10.4578
遜	-10.4579
争	-10.458
床	-10.4584
電	-10.4585
蟻	-10.4585
蜕	-10.4587
旺	-10.4589
低	-10.4589
叩齒	-10.459
羡	-10.4593
詮	-10.4596
由此	-10.4597
與神	-10.4598
是則	-10.46
爲惡	-10.4602
以此爲	-10.4605
而易	-10.4613
之不可	-10.4614
安知	-10.4615
道君	-10.4624
也吾	-10.4626
二百	-10.4628
之難	-10.4629
能使	-10.463
然有	-10.4631
未見	-10.4631
緯	-10.4644
瘦	-10.4649
韜	-10.4649
叟	-10.465
豉	-10.465
未盡	-10.465
恱	-10.4652
墳	-10.4653
祝曰	-10.4653
援	-10.4654
聘	-10.4656
各有所	-10.4656
降生	-10.4657
腹痛	-10.4663
王元澤曰	-10.4665
夜半	-10.4667
無一	-10.4669
囿	-10.4669
道之所	-10.4671
辯者	-10.4671
無名之樸	-10.4674
於天地	-10.4674
而退	-10.4674
誰能	-10.4678
爲利	-10.468
方外	-10.4681
楊朱	-10.4683
自無	-10.4688
帝王之	-10.4691
取此	-10.4692
丹經	-10.4693
而言之	-10.4695
混成	-10.4696
無人	-10.4702
應用	-10.4702
能爲	-10.4703
不竭	-10.4704
臟	-10.4713
詩曰	-10.4715
養性	-10.4716
輻	-10.4716
沐	-10.4717
征	-10.4718
蠟	-10.4719
脛	-10.4719
調和	-10.4719
黜	-10.472
艾	-10.472
戀	-10.472
愛人	-10.4722
有事	-10.4722
壓	-10.4722
至今	-10.4722
挈	-10.4723
劑	-10.4723
奕	-10.4724
啼	-10.4724
安其	-10.4728
無復	-10.4734
此即	-10.4747
色如	-10.475
不載	-10.475
三一	-10.4752
六丁	-10.4753
逼	-10.4756
言我	-10.4758
當其	-10.4758
有道之士	-10.476
一字	-10.4761
宥	-10.4766
情性	-10.4768
中風	-10.4771
微寒	-10.4771
也老子曰	-10.4773
聖德	-10.4774
不言之教	-10.4774
去聲	-10.4776
天上	-10.4776
之具	-10.4777
玄珠	-10.4779
之容	-10.4779
制之	-10.4782
山澤	-10.4783
藍	-10.4784
天之所	-10.4785
呈	-10.4786
誥	-10.4786
何足以	-10.4787
懇	-10.4788
一斗	-10.479
謗	-10.4791
生乎	-10.4797
於水	-10.4797
道行	-10.48
發明	-10.4806
一道	-10.4813
白雲	-10.4814
入道	-10.4817
音聲	-10.4822
斯乃	-10.4826
而外	-10.4827
大將軍	-10.483
甚矣	-10.483
碧虚註	-10.4838
昭王	-10.484
之爲物	-10.4847
亦將	-10.4849
豈得	-10.4853
兩儀	-10.4855
潰	-10.4855
企	-10.4856
異名	-10.4857
梵	-10.4857
虔	-10.4858
將來	-10.4864
惡人	-10.487
章第三十	-10.4873
性而	-10.4873
人人	-10.4874
漸漸	-10.4874
尊貴	-10.4874
三人	-10.488
勤行	-10.4883
至誠	-10.4887
失也	-10.4892
欲使	-10.4911
一粒	-10.4913
可與	-10.4914
稷	-10.4918
瘧	-10.4919
腥	-10.4921
狸	-10.4922
躡	-10.4924
踰	-10.4925
討	-10.4926
二曰	-10.4926
巡	-10.4926
渝	-10.4926
運轉	-10.4928
循環	-10.4931
言此	-10.4932
萬人	-10.4933
萬法	-10.4935
方其	-10.4936
二三	-10.4936
三光	-10.4943
而莫	-10.4943
於理	-10.4946
矩	-10.4948
方寸	-10.4965
爲師	-10.4967
多則	-10.4968
之語	-10.4968
任其自	-10.4968
堯之	-10.498
無德	-10.4982
惟聖人	-10.4985
凡此	-10.4986
屨	-10.4986
脯	-10.4987
縫	-10.4988
掇	-10.499
室中	-10.4991
肇	-10.4992
禳	-10.4994
不與物	-10.4994
窒	-10.4996
鄕	-10.4996
托	-10.4997
難得之貨	-10.4999
以心	-10.5002
自非	-10.5013
本來	-10.5015
弼	-10.5015
理而	-10.5016
道之士	-10.5018
而往	-10.502
而况	-10.503
貨財	-10.503
長久	-10.5032
一句	-10.5035
之流	-10.5037
往往	-10.504
硝	-10.5042
大成	-10.5044
三公	-10.5044
眞鉛	-10.5045
順也	-10.5046
治亂	-10.5048
紫金	-10.5056
涕	-10.5059
囚	-10.5061
鬻	-10.5063
禮者	-10.5064
鬥	-10.507
訥	-10.5074
之首	-10.508
反本	-10.5086
吾心	-10.5087
子路	-10.5087
而獨	-10.5093
章第七	-10.5096
五升	-10.5097
其死也	-10.5098
生故	-10.5103
以形	-10.5104
王之	-10.5105
所及	-10.5106
而失	-10.5109
也唯	-10.511
天一	-10.5111
捨其	-10.5111
而不窮	-10.5112
傳云	-10.5119
爲無爲	-10.5123
譽之	-10.5125
也然則	-10.5127
肘	-10.5132
别有	-10.5133
零	-10.5134
謫	-10.5136
邁	-10.5136
福地	-10.5137
麟	-10.5138
陛下	-10.514
清和	-10.5141
復有	-10.5143
封固	-10.5147
墨子	-10.5148
隱於	-10.5151
而後有	-10.516
之志	-10.5167
已來	-10.5172
无形	-10.5174
化生	-10.5178
煎取	-10.5181
火之	-10.5184
之風	-10.5188
右手	-10.5192
冝	-10.5197
曽	-10.52
能制	-10.5201
呵	-10.5202
姬	-10.5204
袋	-10.5204
簿	-10.5205
抗	-10.5209
陟	-10.5211
不離於	-10.5215
四句	-10.5216
三分	-10.5216
蠱毒	-10.5219
度人	-10.5223
滋味	-10.5223
不惑	-10.523
星辰	-10.523
俗學	-10.5234
復歸	-10.5235
穆	-10.5237
中道	-10.5238
天尊志心歸命	-10.5244
明日	-10.5247
千二百	-10.5258
大宗師	-10.526
治也	-10.526
不二	-10.5268
役使	-10.5269
老聃曰	-10.5271
昆	-10.5273
踈	-10.5273
鞭	-10.5274
隋	-10.5274
仗	-10.5277
繼之	-10.5278
耆	-10.5278
臣某	-10.528
入水	-10.528
無敵	-10.5283
斑	-10.5285
隨其	-10.5293
羣生	-10.5293
達於	-10.5297
皆同	-10.5302
玉皇	-10.5307
初生	-10.5309
精微	-10.531
通神	-10.5311
不遇	-10.5312
成就	-10.5312
義云	-10.5319
廣成子	-10.5324
何能	-10.5327
又音	-10.5329
勿食	-10.533
産後	-10.5331
阜	-10.5339
丈夫	-10.5342
牒	-10.5342
拯	-10.5343
偉	-10.5343
搜	-10.5344
鵲	-10.5344
僅	-10.5344
讚	-10.5346
如彼	-10.5346
揆	-10.5347
槐	-10.5349
斲	-10.5349
梨	-10.5351
楊子	-10.5351
二篇	-10.536
骸	-10.5362
全生	-10.5363
信之	-10.5364
六一泥	-10.5364
其精	-10.5369
飲酒	-10.537
謂我	-10.5372
病也	-10.5375
百二十	-10.5382
湯武	-10.5385
學人	-10.5387
可知矣	-10.5388
亦以	-10.539
虎狼	-10.5392
此心	-10.5393
蹄	-10.5397
爲美	-10.5398
因物	-10.54
爲萬物	-10.5405
藏之	-10.5406
人得	-10.541
鱉	-10.5412
頸	-10.5416
陣	-10.5417
憚	-10.5417
恤	-10.5418
俯仰	-10.5418
瑶	-10.5418
團	-10.5418
挾	-10.5418
勒	-10.5419
有數	-10.5419
愍	-10.542
故不可	-10.5422
凋	-10.5422
江湖	-10.5422
裕	-10.5423
庚申	-10.5424
不和	-10.5427
貼身	-10.5429
也是以聖人	-10.543
貧賤	-10.5432
壽夭	-10.5433
公曰	-10.5434
以禮	-10.5437
與世	-10.5438
存神	-10.5441
劉曰	-10.5443
通靈	-10.5445
全也	-10.5447
不差	-10.5447
六經	-10.545
不學	-10.5451
金水	-10.5451
有益	-10.5452
不愛	-10.5453
法道	-10.5454
害之	-10.5454
感應	-10.5455
將恐	-10.5456
未免	-10.5457
爲常	-10.5458
樂之	-10.5458
喉	-10.5462
亦不可	-10.5463
以相	-10.5465
皆自	-10.5466
爲宗	-10.5472
於其間	-10.5474
爲道者	-10.5478
章句	-10.5482
用則	-10.5487
終南	-10.5489
慰	-10.549
术	-10.5491
亘	-10.5496
之野	-10.5497
塵垢	-10.5499
而不用	-10.5513
戒之	-10.5514
乎哉	-10.5519
盡性	-10.5521
者良	-10.5522
化也	-10.5524
罡	-10.5525
度世	-10.5529
仙官	-10.5534
一炁	-10.5535
名字	-10.5536
等分	-10.554
太素	-10.554
坦	-10.5543
神通	-10.5546
者可	-10.5547
人謂之	-10.5547
深遠	-10.5548
南北	-10.5548
之禍	-10.5549
三百六十	-10.555
建立	-10.555
反司馬云	-10.555
其自然	-10.555
以虚	-10.5552
無爲故	-10.5555
雖異	-10.5556
歸往	-10.5557
恠	-10.5561
刳	-10.5562
郎	-10.5563
裘	-10.5564
蒜	-10.5566
此又	-10.5567
化者	-10.5567
慄	-10.5567
無敗	-10.557
窈冥	-10.5571
此符	-10.5572
衆妙之門	-10.5573
冷氣	-10.5586
若欲	-10.5587
往而	-10.5588
不怒	-10.5597
夫婦	-10.5598
四面	-10.5599
爲非	-10.56
聞見	-10.5601
之大者	-10.5602
五千	-10.5605
無害	-10.561
澹	-10.5612
四子	-10.5613
不材	-10.5615
不亡	-10.562
不務	-10.5621
不解	-10.5622
者言其	-10.5626
握固	-10.5629
蹇	-10.5632
奮	-10.5633
則萬物	-10.5634
乆服	-10.5634
通玄	-10.5635
肌膚	-10.5635
疳	-10.5639
趾	-10.5639
狄	-10.5639
梓	-10.564
同謂之玄	-10.5643
亦能	-10.5643
瓠	-10.5644
純粹	-10.5644
執之	-10.5645
是謂玄德	-10.5645
聖惠方治	-10.5646
蠻	-10.5648
心神	-10.5648
其家	-10.5652
之禮	-10.5654
也苟	-10.5655
則死	-10.5658
然自	-10.5662
南海	-10.5663
是皆	-10.5665
至寳	-10.5673
忠臣	-10.5676
昊	-10.5682
四年	-10.5682
愚人	-10.5684
不留	-10.5686
執一	-10.5687
應化	-10.5689
磁	-10.5692
以治	-10.5697
之人也	-10.5705
餐	-10.5707
饒	-10.571
多矣	-10.571
綵	-10.5711
織	-10.5712
庫	-10.5712
爵禄	-10.5713
悶悶	-10.5713
不自見	-10.5715
者不以	-10.5719
玄之又玄	-10.572
終於	-10.5721
徐徐	-10.5722
正也	-10.5722
眞人曰	-10.5727
之尊	-10.5731
春夏	-10.574
空中	-10.5743
冲和	-10.5746
寒無毒主	-10.5747
又法	-10.575
未生	-10.5752
示人	-10.5752
是其	-10.5752
清明	-10.5762
華山	-10.5767
何哉	-10.5767
在身	-10.5768
人之性	-10.5769
貢	-10.577
多方	-10.5775
狼	-10.5776
爲仁	-10.5776
地之	-10.5777
忘形	-10.5777
優	-10.5779
姜	-10.578
世世	-10.5783
駢	-10.5783
齎	-10.5784
從容	-10.5788
澀	-10.5791
而神	-10.5805
十一月	-10.5815
有五	-10.5817
勝人	-10.5819
無他	-10.582
不可不	-10.5821
所作	-10.5823
八十	-10.5823
寡欲	-10.5827
廓	-10.5829
不能知	-10.5833
極也	-10.5835
故可	-10.5835
世界	-10.5836
服藥	-10.5836
不善人	-10.5853
守靜	-10.5855
純陽	-10.5859
顚	-10.5859
酥	-10.586
豁	-10.5861
宫室	-10.5862
而應	-10.5864
有分	-10.5866
赤色	-10.5867
伏羲	-10.5867
不足以爲	-10.5868
德全	-10.5869
其德乃	-10.587
大如	-10.5871
仁義之	-10.5872
離道	-10.5872
不畏死	-10.5881
章第六	-10.5883
更生	-10.5884
不達	-10.5885
子産	-10.5887
得道之	-10.5894
爲物所	-10.5895
亂也	-10.5897
者哉	-10.5898
大方	-10.59
上聖	-10.5904
教以	-10.5907
記云	-10.5912
故物	-10.5915
損益	-10.5922
詩云	-10.5923
王母	-10.5928
督	-10.593
其君	-10.5932
道之用	-10.5932
亨	-10.5933
道本	-10.5933
能治	-10.5934
貴乎	-10.5936
何異	-10.5937
垣	-10.5937
無味	-10.5938
栖	-10.5938
聞而	-10.5939
衒	-10.5939
填	-10.5942
耻	-10.5946
戰勝	-10.5948
合而	-10.5957
於是乎	-10.5959
衆妙	-10.5963
之原	-10.5969
叢	-10.5973
金木	-10.5974
曾不	-10.5975
不聽	-10.5981
不憂	-10.5983
十里	-10.5984
天性	-10.5989
一致	-10.599
地獄	-10.5991
心痛	-10.5993
配天	-10.5998
自伐	-10.5998
妙有	-10.6
而不知其所	-10.6003
窈	-10.6004
跪	-10.6004
毬	-10.6006
此數	-10.6007
恢	-10.6009
所受	-10.6012
胷	-10.6012
拭	-10.6012
未聞	-10.6013
酌	-10.6014
桀紂	-10.6016
生薑	-10.6016
刑罰	-10.602
鉢	-10.6021
穆王	-10.6028
已有	-10.6028
而不見	-10.6034
二斤	-10.6034
可使	-10.6035
秋冬	-10.6035
事事	-10.6036
本又作	-10.6038
不中	-10.6038
不移	-10.6039
言有	-10.6045
神全	-10.6045
西南	-10.6046
於自然	-10.605
有實	-10.6052
類也	-10.6055
不遠	-10.6056
有罪	-10.6057
知所	-10.6058
也此章明	-10.6058
尚賢	-10.607
大豆	-10.6072
忘功	-10.6075
鈔莊子	-10.6076
所惡	-10.6077
所不知	-10.6077
法用	-10.6079
椿	-10.608
樊	-10.6082
觔	-10.6083
寰	-10.6085
册	-10.6087
昨	-10.6088
苑	-10.6089
篩	-10.6093
攀	-10.6094
皆在	-10.6095
渾淪	-10.6095
貺	-10.6096
諧	-10.6097
地黄	-10.6099
疼痛	-10.61
剛柔	-10.6104
亦名	-10.6104
千歲	-10.611
而不敢	-10.6111
又用	-10.6112
無象	-10.6114
第三十	-10.6114
第一百	-10.6114
平無毒主	-10.6114
無端	-10.6117
無涯	-10.6117
相傾	-10.6125
三曰	-10.6125
所載	-10.6128
不知道	-10.6128
衣食	-10.6131
江河	-10.6131
十有三	-10.614
聖知	-10.6145
與時	-10.615
之藥	-10.615
諸家	-10.6151
良乆	-10.6151
體道者	-10.6155
𤇨	-10.6157
蠱	-10.616
南華眞經	-10.6162
而猶	-10.6163
跖	-10.6163
蕪	-10.6166
二十五	-10.6169
熙	-10.617
之政	-10.617
而不以	-10.6171
疫	-10.6171
廼	-10.6172
屈伸	-10.6172
津液	-10.6173
天樂	-10.6174
表裏	-10.6175
用藥	-10.6176
有國	-10.6179
道眞仁靜先生曹道冲曰	-10.6179
畏之	-10.6181
並作	-10.6183
三四	-10.6184
爲政	-10.6188
一一	-10.6193
不問	-10.6196
名譽	-10.6196
法令	-10.6196
難知	-10.6197
故常	-10.62
不逆	-10.6207
如嬰兒	-10.621
雖不	-10.6211
此莊子	-10.6223
樂推	-10.6224
之害	-10.6225
内觀	-10.6229
近於	-10.6237
控	-10.624
警	-10.6242
啖	-10.6245
宏	-10.6245
嵗	-10.6246
遯	-10.6247
詎	-10.6247
則不然	-10.6248
非聖人	-10.6248
嗽	-10.6248
生育	-10.625
天皇	-10.6251
圖經	-10.6251
之理也	-10.6253
雌黄	-10.6255
百川	-10.6257
也莊子曰	-10.6259
可畏	-10.6262
變爲	-10.6266
吾將	-10.627
義也	-10.627
愛民	-10.6272
無傷	-10.6273
也萬物	-10.6276
至虚	-10.6278
乃爲	-10.628
足矣	-10.6283
失性	-10.6285
非吾	-10.6296
一寸	-10.6303
世有	-10.6311
立言	-10.6311
之所生	-10.6314
犧	-10.6317
孽	-10.6319
道經	-10.632
濱	-10.6322
此兩者	-10.6322
瑕	-10.6322
携	-10.6323
同歸	-10.6323
襌	-10.6325
凍	-10.6325
提點	-10.6326
焰	-10.6326
擅	-10.6326
動之死地	-10.6326
膺	-10.6327
立教	-10.6328
鎖	-10.6329
用道	-10.6333
爲丸	-10.6336
浮丘	-10.6336
若是者	-10.634
倚伏	-10.6342
聲也	-10.6346
行則	-10.6356
之業	-10.6356
非無	-10.6357
待之	-10.6361
平旦	-10.6362
先須	-10.6363
飛昇	-10.6365
逆順	-10.6375
之基	-10.6379
既已	-10.6382
歎曰	-10.6385
嚴曰	-10.6385
至神	-10.6386
不修	-10.6387
无窮	-10.6388
槁	-10.639
水土	-10.6392
此其	-10.6394
萬物之母	-10.6394
之盛	-10.6394
日乾	-10.6398
裝	-10.64
孚	-10.6401
溟	-10.6401
而治	-10.6401
轡	-10.6403
已而	-10.6403
因以	-10.6404
相代	-10.6405
洎	-10.6405
橐	-10.6406
疇	-10.6406
吴氏曰	-10.6408
蓄	-10.6408
滯於	-10.6408
繡	-10.6409
聖祖	-10.6417
者欲	-10.6418
其餘	-10.6419
自愛	-10.6436
盡也	-10.644
身也	-10.6452
籟	-10.6453
自然而然	-10.6454
消滅	-10.6456
以仁義	-10.6457
而至	-10.6458
河伯	-10.6458
用智	-10.6458
關尹	-10.6458
妾	-10.6459
智巧	-10.6465
但以	-10.6467
得所	-10.6468
反徐	-10.6471
古之善	-10.648
夙	-10.6482
株	-10.6483
髪	-10.6485
羿	-10.6485
爲眞	-10.6486
妃	-10.6487
知常	-10.6487
損之又損	-10.6487
子綦	-10.6489
不可食	-10.649
仙經	-10.6493
國王	-10.6496
以利	-10.6496
八極	-10.6498
也盧曰	-10.6499
日出	-10.65
字子	-10.6506
未始有物	-10.6507
能守	-10.6515
六氣	-10.6519
我身	-10.652
八十一	-10.652
其父	-10.6526
萬物之所	-10.6531
中宫	-10.6533
也吕註	-10.6535
無過	-10.6535
信也	-10.6539
但見	-10.6539
其法	-10.6543
故稱	-10.6544
謂之道	-10.6548
明其	-10.655
爲地	-10.6555
甲兵	-10.6556
郤	-10.6558
栢	-10.6558
罐	-10.6561
酬	-10.6563
相感	-10.6563
損之	-10.6564
蛻	-10.6564
獵	-10.6564
巴	-10.6564
立功	-10.6565
畝	-10.6565
華子	-10.6567
話	-10.6567
拳	-10.6567
秪	-10.6567
叅	-10.6568
姚	-10.6568
穹	-10.6569
無二	-10.6574
細剉	-10.6579
知我	-10.6581
以天下爲	-10.6586
用力	-10.6589
以手	-10.659
悉皆	-10.6591
自己	-10.6593
不可知	-10.6594
病者	-10.6598
於人也	-10.6598
代之	-10.6599
三官	-10.6604
一丸	-10.6604
域中	-10.6607
解之	-10.6607
知有	-10.6609
老氏之	-10.6613
有二	-10.6614
大抵	-10.6616
生死之	-10.6618
所說	-10.6618
餘怨	-10.662
天然	-10.6621
無疵	-10.6622
二十日	-10.6623
眞實	-10.6623
天柱	-10.6625
王侯	-10.6626
眞一	-10.6628
彼之	-10.6632
知天	-10.6633
銚	-10.6636
皂	-10.6639
其母	-10.6641
暉	-10.6644
危殆	-10.6646
先人	-10.6646
柰何	-10.6647
鄧	-10.6648
摘	-10.6648
丞	-10.6649
和平	-10.6649
瀝	-10.665
失於	-10.665
二分	-10.6651
人不能	-10.6651
不貴難得之貨	-10.6653
爾雅	-10.6654
由其	-10.6655
祖庭	-10.6658
遂使	-10.6659
幾何	-10.6659
相傳	-10.666
瘟	-10.6661
有象	-10.6661
小腸	-10.6667
河東	-10.6672
各得其	-10.6672
候乾	-10.6681
有迹	-10.6687
不雜	-10.6689
十一年	-10.6689
莫如	-10.6692
無以爲	-10.6694
制伏	-10.6695
善哉	-10.6695
法式	-10.6701
之號	-10.6703
同塵	-10.6704
至無	-10.671
此之謂也	-10.671
以道德	-10.6712
而有之	-10.6714
也崔云	-10.6717
政教	-10.6719
而走	-10.672
人知	-10.6722
壘	-10.6722
齧缺	-10.6723
汲	-10.6725
構	-10.6725
如人	-10.6726
無心於	-10.6726
哲	-10.6727
茹	-10.6727
六年	-10.6729
珪	-10.673
杳冥	-10.6732
遣使	-10.6732
上善若水	-10.6732
持之	-10.6733
知道者	-10.6735
之辭也	-10.6736
有身	-10.6739
迷惑	-10.674
史記	-10.6744
也莊子	-10.6745
數百	-10.6745
之長	-10.6749
洞神	-10.675
道化	-10.6754
乎夫	-10.6754
呼爲	-10.6754
安有	-10.6755
處下	-10.6756
重玄	-10.676
小而	-10.6768
通達	-10.6771
乆而	-10.6779
不殆	-10.678
是非之	-10.6783
御注	-10.6786
指歸	-10.6788
牛馬	-10.6788
惟道	-10.6791
有司	-10.6791
八方	-10.6798
不順	-10.6801
是乃	-10.6807
怡	-10.6808
貯	-10.6808
餓	-10.6809
輸	-10.6809
尉	-10.681
夫至人	-10.6811
蚊	-10.6811
蘿	-10.6814
匙	-10.6814
曾史	-10.6816
洲	-10.6817
知其所	-10.6817
軒冕	-10.6818
洩	-10.6818
而任之	-10.6819
從官	-10.6819
禍亂	-10.6819
清源子劉驥曰	-10.6819
味鹹	-10.6826
之餘	-10.6827
之時也	-10.6829
一章	-10.6831
八景	-10.6832
第十	-10.6834
河車	-10.6834
行乎	-10.684
則所謂	-10.6841
無滯	-10.6848
朱書	-10.6851
反覆	-10.6851
有心於	-10.6855
則傷	-10.6856
利用	-10.6864
天下莫不	-10.687
不任	-10.6872
流珠	-10.6873
丸如	-10.6874
弄	-10.688
養形	-10.6882
獨有	-10.6883
當須	-10.6884
枝葉	-10.6886
徂	-10.6889
郷	-10.6894
傷也	-10.6895
以奉	-10.6899
其猶	-10.6905
貴也	-10.6906
一合	-10.6907
溺於	-10.6908
周公	-10.6908
何足	-10.691
而明	-10.6912
傷害	-10.6919
濟物	-10.6919
支離	-10.692
要在	-10.6921
其明	-10.6923
至貴	-10.6928
之鄉	-10.693
識者	-10.693
在其中	-10.6935
任之	-10.6941
流水	-10.6942
至言	-10.6942
化成	-10.6946
乃所以	-10.6946
正氣	-10.695
又方	-10.6959
之類也	-10.6964
之用也	-10.6964
揮	-10.6966
一言	-10.6966
危亡	-10.6968
已矣	-10.697
舎	-10.6973
貽	-10.6974
剉	-10.6976
如斯	-10.6977
誣	-10.6978
同研	-10.6978
毗	-10.6978
先王	-10.6979
犢	-10.6979
寂寞	-10.6984
之祖	-10.6984
涎	-10.699
黃茂材曰	-10.6991
或爲	-10.6992
欲其	-10.6996
離散	-10.7002
非所以	-10.7008
有力	-10.7008
而何	-10.701
謂道	-10.7012
體之	-10.7016
生而不有	-10.7017
乃得	-10.7019
問道	-10.7023
於物而	-10.7023
六日	-10.7025
輕敵	-10.7031
得之以	-10.7033
此道者	-10.7035
宗廟	-10.7037
既而	-10.7038
於道也	-10.704
哉夫	-10.7042
釋氏	-10.7043
反於	-10.7047
窮通	-10.7055
無分别	-10.7055
混然	-10.7055
數也	-10.7056
鮑叔	-10.7056
擲	-10.7056
衆人之所	-10.7056
閭	-10.7058
穗	-10.7059
亮	-10.7059
灼	-10.7059
漂	-10.7062
弩	-10.7064
芸芸	-10.7064
那	-10.7067
臭腐	-10.7068
樂其	-10.7069
此爲	-10.7069
熏	-10.7071
章第五	-10.7073
道生一	-10.7073
於形	-10.7074
正直	-10.7077
不擇	-10.7078
神神	-10.7079
耳夫	-10.7081
亦曰	-10.7083
物而不	-10.7084
不懼	-10.7086
設教	-10.7088
則與	-10.7099
赤白	-10.7099
必至	-10.7099
乃以	-10.71
東北	-10.7102
不滯	-10.7102
其方	-10.7102
樂殺人	-10.7103
寒主	-10.7103
不得其	-10.7105
牖	-10.7106
皆因	-10.7108
傳授	-10.7108
:	-10.7111
惠施	-10.7123
各異	-10.7124
虚極	-10.7124
安寧	-10.7125
故舉	-10.7125
其妙	-10.7128
生之畜之	-10.7135
莖葉	-10.7136
在心	-10.7138
喘	-10.7141
揖	-10.7142
鮑	-10.7144
蓋謂	-10.7149
疰	-10.7149
齊國	-10.7154
一盞	-10.7155
吕吉甫曰	-10.716
保命	-10.7168
爲國	-10.7168
自守	-10.7169
守柔	-10.7171
匹夫	-10.7179
以全	-10.718
互相	-10.7186
正性	-10.7188
其極	-10.7188
天文	-10.719
則我	-10.7193
容貌	-10.7195
不傷人	-10.7196
一宿	-10.7197
俗爲	-10.7201
上品	-10.7209
鼎中	-10.7214
周天	-10.7214
大象	-10.7215
此語	-10.7222
觀於	-10.7225
次以	-10.7225
鬭	-10.7228
物理	-10.723
天地之大	-10.7231
主於	-10.7231
豹	-10.7231
沫	-10.7232
増	-10.7232
曲則全	-10.7233
買	-10.7235
籌	-10.7236
炊	-10.7236
汨	-10.7237
釐	-10.7237
秩	-10.7237
喬	-10.7239
郞	-10.724
而勿	-10.7241
不合	-10.7244
瓷	-10.7247
以仁	-10.7249
不可得也	-10.7251
而民自	-10.7255
爲奇	-10.7261
疆	-10.7265
智力	-10.7267
多用	-10.7273
文章	-10.7278
一半	-10.728
事物	-10.728
非特	-10.7282
爲佳	-10.7291
萬物之宗	-10.7293
人臣	-10.7293
虚其心	-10.7294
一枚	-10.7296
爲害	-10.7305
無爭	-10.7308
不著	-10.7308
强爲	-10.7309
炭火	-10.7309
丗	-10.731
我也	-10.7317
哉此	-10.7317
濯	-10.7317
與夫	-10.7317
者何也	-10.7317
辜	-10.7322
伺	-10.7323
怯	-10.7323
効	-10.7325
復性	-10.7326
德經注云	-10.7327
婆	-10.7327
不辭	-10.7327
草木之	-10.7331
物不能	-10.7332
痿	-10.7337
順天	-10.7342
身體	-10.7346
其要	-10.7348
久服	-10.735
金色	-10.735
精華	-10.7354
明者	-10.7355
乎故	-10.7361
不下	-10.7369
昔之	-10.737
究其	-10.7371
兩句	-10.7375
亦云	-10.7376
不改	-10.7376
泊	-10.7381
平易	-10.7382
矣且	-10.7384
德充	-10.7384
惡死	-10.7386
大德	-10.7386
不知其所	-10.7387
耳故	-10.7389
旗	-10.7402
茱萸	-10.7403
分外	-10.7405
可作	-10.7406
軫	-10.7406
緘	-10.7406
玄天	-10.7406
邵	-10.7407
裴	-10.7407
無心而	-10.7407
聃	-10.7407
憍	-10.7408
立而	-10.741
其在	-10.741
竿	-10.7411
麻子	-10.7412
阻	-10.7412
爲樂	-10.7412
葆	-10.7413
蔡	-10.7415
什	-10.7415
此其所以	-10.7416
下血	-10.7418
但當	-10.7418
文帝	-10.742
動植	-10.743
中士	-10.7432
遠也	-10.7433
外無	-10.7437
雌靜	-10.7438
章第四	-10.7438
受氣	-10.7441
妻子	-10.7442
大熱	-10.7443
頭痛	-10.7448
有道之君	-10.7448
流俗	-10.7448
以有爲	-10.7452
長也	-10.7457
一旦	-10.7458
自出	-10.7459
視而	-10.7459
百歲	-10.7464
一方	-10.7464
吞之	-10.7467
於後	-10.7467
老人	-10.7472
往也	-10.7474
若驚	-10.7475
無思	-10.7475
塗之	-10.7479
顔子	-10.7483
延生	-10.7483
不貪	-10.7486
晉	-10.7486
之過也	-10.7488
從事於	-10.7488
不存	-10.7497
轅	-10.7497
憤	-10.7498
於無形	-10.7498
千變萬化	-10.75
絃	-10.7501
咽之	-10.7501
禹錫云按	-10.7508
土木	-10.7509
之深	-10.7519
泰山	-10.7522
與衆	-10.7526
道矣	-10.7532
無礙	-10.7533
由於	-10.7534
周之	-10.7537
一節	-10.7538
之疾	-10.7541
黄庭	-10.7543
今子	-10.7543
過於	-10.7545
其末	-10.7548
德以	-10.7557
不顯	-10.7559
酒服	-10.7565
與萬物	-10.7568
覆之	-10.7569
復爲	-10.7569
石膽	-10.7569
性情	-10.7572
又能	-10.7573
以事	-10.7575
它	-10.7578
匱養	-10.7578
顙	-10.7582
煥	-10.7582
嘯	-10.7583
物情	-10.7583
㣲	-10.7583
諸法	-10.7584
尼	-10.7585
紹	-10.7586
癥	-10.7586
屍	-10.7586
必得	-10.7587
捧	-10.7587
之寳	-10.7587
無待	-10.7589
檀	-10.759
而得之	-10.7591
湧	-10.7591
刀圭	-10.7593
善言	-10.7596
始有	-10.7599
蕩蕩	-10.76
裙	-10.7602
潤澤	-10.7604
朴硝	-10.7604
種種	-10.7608
目之	-10.761
女人	-10.761
十分	-10.7611
甲乙	-10.7612
雞子	-10.7615
亦作	-10.7617
神王	-10.762
大帝	-10.7622
信不足	-10.7623
大定	-10.7629
心中	-10.7631
自明	-10.7639
輕死	-10.7643
然若	-10.7643
如上	-10.7645
不平	-10.7649
亦無所	-10.7652
下流	-10.7652
無盡	-10.7654
有形者	-10.7654
無可	-10.7656
異而	-10.7658
不可與	-10.7659
致其	-10.7659
知人	-10.7661
離乎	-10.7663
善則	-10.7666
此一句	-10.7668
決	-10.7668
而進	-10.7669
苟得	-10.7671
員	-10.7672
桎梏	-10.7675
系	-10.7676
償	-10.7676
自全	-10.7677
吁	-10.7677
甕	-10.7677
梗	-10.7681
確	-10.7682
論語	-10.7682
蠢	-10.7685
駟馬	-10.7687
孤寡	-10.7687
惑於	-10.7696
無往而不	-10.7697
授以	-10.7699
母砂	-10.7701
善治	-10.7704
道體	-10.7707
半夏	-10.7707
之所由	-10.7714
與道合	-10.7717
有爲而	-10.7718
言之則	-10.7721
天地之始	-10.7723
飛仙	-10.7723
丘山	-10.7723
所致	-10.7725
兩者	-10.7726
各安其	-10.7733
治世	-10.7734
與道同	-10.7735
有爲則	-10.7739
七元	-10.7744
之始也	-10.7749
煮之	-10.7749
若愚	-10.775
玄都	-10.775
戈	-10.7756
勾	-10.7762
萬殊	-10.7762
管仲	-10.7766
艱	-10.7767
衮	-10.7769
聖王	-10.777
爲身	-10.777
姿	-10.7772
天長地乆	-10.7775
也然而	-10.7777
伯夷	-10.778
能化	-10.7786
沛	-10.7789
酢	-10.7789
害物	-10.7791
故君子	-10.7791
上章	-10.7792
次用	-10.7793
我我	-10.7795
三錢	-10.7796
不忍	-10.7796
二味	-10.7797
而忘其	-10.7806
兮若	-10.7806
無遺	-10.7806
行不言之教	-10.7807
熱毒	-10.7809
變也	-10.781
無足	-10.7819
五神	-10.7821
自貴	-10.7821
其書	-10.7826
五行之	-10.7827
心之所	-10.7828
益生	-10.7829
天下有道	-10.7836
巳上	-10.7837
黄土	-10.7841
一世	-10.7842
如水之	-10.785
刖	-10.785
聖人之心	-10.7851
冲氣	-10.7853
應感	-10.7853
三魂	-10.7856
換	-10.7856
熙熙	-10.7856
翦	-10.7858
替	-10.7858
依法	-10.7858
侔	-10.7858
郢	-10.7859
屠	-10.7861
模	-10.7863
孤寡不穀	-10.7866
得道者	-10.7868
人必	-10.7868
故爲天下貴	-10.7871
坎離	-10.7871
而不言	-10.7872
癰腫	-10.7873
萬靈	-10.7874
仁也	-10.7874
爲病	-10.7876
應世	-10.788
猶言	-10.7881
鼈	-10.7881
骨肉	-10.7882
三黄	-10.7884
三十二	-10.7886
身存	-10.7887
介然	-10.7895
二尺	-10.7895
善勝	-10.7904
爲人所	-10.791
次第	-10.7911
衣服	-10.7913
休息	-10.7917
者宜	-10.7917
甚易	-10.7917
雖殊	-10.7924
脹	-10.7925
因時	-10.7927
己也	-10.7928
空青	-10.7929
則氣	-10.793
也是故	-10.793
勿以	-10.7936
不宰	-10.7939
不彰	-10.794
糝	-10.794
其位	-10.7941
嵩	-10.7944
也昔	-10.7948
不全	-10.7948
擒	-10.7949
而强	-10.7949
訛	-10.795
撮	-10.7952
而形	-10.7954
頓服	-10.7954
署	-10.7954
中庸	-10.7955
其來	-10.7955
腸胃	-10.7957
者固	-10.7959
在物	-10.7961
之而已	-10.7961
至尊	-10.7961
勝物	-10.7966
無餘	-10.7966
至仁	-10.7969
得仙	-10.797
微言	-10.797
四達	-10.7971
為人	-10.7973
貴於	-10.7974
後學	-10.7975
李氏曰	-10.7978
太清宫	-10.7978
日益	-10.7979
得喪	-10.798
長安	-10.7986
精粗	-10.799
守雌	-10.7993
夫子之	-10.7993
和光	-10.7994
道場	-10.7995
升降	-10.7995
道無形	-10.7996
文始	-10.8
篇曰	-10.8003
好生	-10.8006
宫觀	-10.8007
天曹	-10.8007
末世	-10.8008
者易	-10.8008
之智	-10.8009
身退	-10.8011
含德	-10.8013
逐物	-10.802
本乎	-10.8023
明年	-10.8025
故天下	-10.8028
大師	-10.8028
而不爭	-10.8033
傷性	-10.8035
名號	-10.8037
其地	-10.804
卯酉	-10.804
緫	-10.8041
聖母	-10.8042
隻	-10.8043
呴	-10.8044
鶉	-10.8045
黔	-10.8045
嗔	-10.8046
倡	-10.8046
節解曰謂	-10.8046
嗚呼	-10.8047
觀之則	-10.8048
見而	-10.8048
韶	-10.8049
猛獸	-10.8051
大哉	-10.8053
形名	-10.8057
同食	-10.8059
毫末	-10.8059
金精	-10.8059
其化	-10.8061
出處	-10.8062
入鼎	-10.8063
勇敢	-10.8066
水旱	-10.8068
吐納	-10.807
聖人體道	-10.8071
七返	-10.8072
文公	-10.8077
爲天下正	-10.8077
不廢	-10.8077
道之妙	-10.8079
少而	-10.8083
不染	-10.8084
四十九	-10.8088
不擾	-10.8091
成道	-10.8092
生有	-10.8093
神光	-10.8094
白日	-10.8094
此事	-10.81
服餌	-10.8102
門下	-10.8103
神水	-10.8106
必敗	-10.8108
之色	-10.8109
木爲	-10.8109
吾所以	-10.8117
有四	-10.8118
比之	-10.8122
目視	-10.8127
来	-10.8129
稼	-10.8129
已下	-10.8133
睦	-10.8134
煖	-10.8134
村	-10.8135
各一	-10.8135
無體	-10.8136
皆出於	-10.8136
元和	-10.8137
以天	-10.8137
祅	-10.8138
則無以	-10.8138
遏	-10.8139
怕	-10.8139
癡	-10.814
形色	-10.8143
蹤	-10.8143
主人	-10.8143
居善地	-10.8146
睿	-10.8146
知常曰明	-10.8147
順其	-10.8148
於斯	-10.8149
生之徒	-10.8156
潭	-10.8157
法地	-10.8159
形器	-10.8159
也雖然	-10.8161
太易	-10.8164
德行	-10.8165
學士	-10.8169
有形之	-10.8171
眾	-10.8172
乾汞	-10.8172
前章明	-10.8181
救之	-10.8184
去彼	-10.819
也一云	-10.8195
石上	-10.8198
太空	-10.8198
爲福	-10.82
若是則	-10.8202
及至	-10.8203
五者	-10.8203
未兆	-10.8206
不同而	-10.8209
常德	-10.8216
即此	-10.8217
一毫	-10.8225
萊	-10.8226
瓢	-10.8227
載之	-10.8228
晶	-10.8228
故民	-10.8229
雉	-10.823
怵	-10.8231
廣雅云	-10.8231
璽	-10.8231
朱雀	-10.8234
右件	-10.8237
虎豹	-10.8238
甲寅	-10.8238
谷神不死	-10.824
恬惔	-10.8244
礜石	-10.8246
使物	-10.825
不停	-10.8251
壺子	-10.8252
難於	-10.8255
者必有	-10.8257
形似	-10.8257
青羊	-10.8257
羊角	-10.8258
復歸於	-10.8259
以酒	-10.8263
九鼎	-10.8267
勝於	-10.8269
六十時	-10.827
侮之	-10.8271
也但	-10.8274
固非	-10.8276
吾道	-10.8279
最爲	-10.8287
主宰	-10.8288
舉其	-10.8292
解其紛	-10.8294
不尚	-10.8295
發於	-10.8295
半日	-10.8297
道之爲物	-10.8298
全身	-10.8302
救人	-10.8302
及諸	-10.8305
散則	-10.8308
悲夫	-10.8308
在世	-10.8312
期於	-10.8315
禍福之	-10.8316
作匱	-10.8318
拊	-10.8319
至於此	-10.832
名聲	-10.8321
至藥	-10.8322
宛	-10.8324
之中有	-10.8325
若存	-10.8326
鼓琴	-10.8328
來者	-10.8329
沃	-10.833
蓬萊	-10.8331
酷	-10.8331
這	-10.8331
貳	-10.8332
突	-10.8332
囂	-10.8333
爲寳	-10.8337
是猶	-10.8338
不敢爲天下先	-10.8338
周行	-10.834
淮南	-10.8342
叩頭	-10.8342
棺	-10.8344
採無時	-10.8346
奚爲	-10.8347
無已	-10.8353
上好	-10.8355
日日	-10.8356
貪欲	-10.8357
吏兵	-10.836
自稱	-10.8362
以救	-10.8366
笑曰	-10.8367
虚則	-10.8372
久矣	-10.8375
吾所	-10.8379
施爲	-10.8383
馬之	-10.8384
美善	-10.8388
於道者	-10.839
道理	-10.8391
色青	-10.8394
州郡	-10.8396
一念	-10.8397
美之	-10.8401
靈臺	-10.8405
之母	-10.8406
精思	-10.8413
言聖人	-10.8415
無主	-10.8418
視之不見	-10.8419
何處	-10.8419
奉行	-10.8419
熒	-10.842
劵	-10.8423
唯道	-10.8423
曳	-10.8424
媒	-10.8424
國君	-10.8426
燧	-10.8427
膀胱	-10.8427
晴	-10.8429
净	-10.8429
猿	-10.8429
匕	-10.8429
七星	-10.8431
此段	-10.8431
同其塵	-10.8432
擢	-10.8433
瞽	-10.8433
溲	-10.8433
嚼	-10.8435
窟	-10.8437
淳淳	-10.8438
譬喻	-10.8439
饌	-10.844
是何	-10.8441
緒餘	-10.8442
之主也	-10.8444
千日	-10.8445
火煅	-10.845
萬物之理	-10.8451
不令	-10.8452
我亦	-10.8452
慈悲	-10.8453
之事也	-10.8455
金鼎	-10.8459
安危	-10.8461
其死	-10.8465
此等	-10.8467
何必	-10.8469
俄而	-10.8469
反下同	-10.8471
聖迹	-10.8472
以上	-10.8473
以己	-10.8475
處處	-10.8478
盛衰	-10.8479
平等	-10.848
遞	-10.8481
八日	-10.8486
善用	-10.849
以前	-10.8491
塞其	-10.8493
至元	-10.8494
眞死	-10.8496
冷水	-10.8496
眞精	-10.8498
不輟	-10.8498
以小	-10.8499
隴	-10.8501
人力	-10.8502
温無毒主	-10.8506
也言人	-10.8506
樗	-10.8508
柔弱者	-10.8512
神器	-10.8518
緡	-10.8518
有不信	-10.8518
祖師	-10.8519
其利	-10.8519
則天地	-10.852
不饑	-10.8521
圭	-10.8522
頽	-10.8523
瘥	-10.8524
者或	-10.8524
菴	-10.8525
譎	-10.8525
械	-10.8525
婁	-10.8526
臯	-10.8526
瞑	-10.8527
立法	-10.8528
唇	-10.8529
足則	-10.8529
攫	-10.853
鉛中	-10.853
相離	-10.8531
鈍	-10.8533
牲	-10.8533
心善淵	-10.8534
蓼	-10.8539
功行	-10.8539
之微	-10.854
令其	-10.8541
丹法	-10.8549
也以其	-10.855
察其	-10.855
太公	-10.8555
無患	-10.8562
之辯	-10.8564
萬國	-10.8566
求生	-10.8568
天下莫	-10.8569
中黄	-10.8572
米醋	-10.8575
鼻中	-10.8575
神炁	-10.8577
弱其志	-10.8578
抱樸	-10.8581
必至於	-10.8583
故次之以	-10.8583
而不辭	-10.8593
爲細末	-10.8593
養生之	-10.8596
无有	-10.8598
已成	-10.86
臣等	-10.86
若不足	-10.8601
兵强	-10.8603
將何	-10.8604
鼻口	-10.8604
無怨	-10.8605
相通	-10.8606
壬癸	-10.8611
俗呼	-10.8613
本或作	-10.8613
至一	-10.8613
百八十	-10.8614
得水	-10.8615
臣按	-10.8617
僚	-10.862
訾	-10.8621
齊物	-10.8621
象帝之先	-10.8622
詳道註	-10.8624
車之	-10.8625
鄧析	-10.8625
逕	-10.8625
和光同塵	-10.8626
與人同	-10.8627
癖	-10.8629
懈	-10.8629
其鬼不神	-10.8631
不常	-10.8631
不煩	-10.8632
乾薑	-10.8633
師資	-10.8634
爲神	-10.8634
水調	-10.8638
推移	-10.8642
其術	-10.8643
自取	-10.8648
億萬	-10.8649
一百二十	-10.8651
天地者	-10.8654
以和	-10.8655
謙卑	-10.8657
願聞	-10.8658
然後可以	-10.8663
天地間	-10.8663
烏頭	-10.8664
又將	-10.8664
不能行	-10.8672
深矣	-10.8675
力士	-10.8677
神聖	-10.8678
以御	-10.868
治病	-10.8691
要妙	-10.8695
之憂	-10.8697
微温	-10.87
也所謂	-10.8702
光照	-10.871
數日	-10.8711
成金	-10.8711
箔	-10.8714
鑽	-10.8716
丹成	-10.8716
侣	-10.8721
萬物之上	-10.8722
驪	-10.8722
攸	-10.8723
斃	-10.8724
口縫	-10.8725
僂	-10.8725
兇	-10.8725
弑	-10.8726
股	-10.8726
杜光庭	-10.8726
干戈	-10.8727
豚	-10.8728
之所不能	-10.8728
涣	-10.8729
蔬	-10.8729
怛	-10.873
焉能	-10.8732
即止	-10.8732
雖大	-10.8733
心有所	-10.8733
無累	-10.8734
絶學無憂	-10.8734
變易	-10.8736
甜	-10.8736
禮記	-10.8739
咒	-10.8739
鄉里	-10.8739
素樸	-10.874
也人能	-10.8752
以制	-10.8754
以理	-10.8757
忽有	-10.8757
不休	-10.8761
北面	-10.8762
未形	-10.8764
澆汞	-10.8765
細末	-10.8766
内視	-10.8768
七寳	-10.8768
形狀	-10.877
又奚	-10.8771
則難	-10.8772
中間	-10.8773
師曰	-10.8775
莫非	-10.8777
列子曰	-10.8778
多事	-10.878
亦當	-10.878
地仙	-10.8783
人參	-10.8786
二十七	-10.8787
親疏	-10.8788
日損	-10.8793
周流	-10.8795
下及	-10.8796
通玄經	-10.8808
者存	-10.8812
即成	-10.8813
耳目之	-10.8816
無之以爲用	-10.8818
渉	-10.882
武帝	-10.882
勅	-10.8821
其宜	-10.8821
皆然	-10.8822
饗	-10.8823
做	-10.8825
驛	-10.8826
自失	-10.8826
狎	-10.8827
膿	-10.8827
爨	-10.8827
入火	-10.8827
算	-10.8828
而遊	-10.883
今以	-10.883
滄	-10.8831
刮	-10.8831
功成不居	-10.8835
疊	-10.8835
吾聞	-10.8836
風俗	-10.8842
天德	-10.8844
高明	-10.8856
向云	-10.8856
不期	-10.8858
恃其	-10.8859
也碧虚註	-10.8861
文武火	-10.8864
五斗	-10.8867
也政和	-10.8867
金剛	-10.887
鼓之	-10.8871
注夫	-10.8876
爲學	-10.8878
先王之	-10.888
成丹	-10.8881
九丹	-10.8881
無一物	-10.8882
之跡	-10.8885
淳和	-10.8888
復乎	-10.8889
因縁	-10.8889
者唯	-10.889
於小	-10.889
示之以	-10.8891
洞眞	-10.8894
識其	-10.8894
師曠	-10.8895
小豆	-10.8901
萬物莫不	-10.8905
冲虚	-10.8908
宸	-10.892
不壞	-10.8921
蓋頭	-10.8921
薛	-10.8924
治民	-10.8924
心虚	-10.8925
乍	-10.8927
毅	-10.8928
而起	-10.8928
矣今	-10.8929
癸丑	-10.893
以順	-10.893
三句	-10.893
寵辱若驚	-10.8932
宣王	-10.8932
寺	-10.8934
爲之使	-10.8934
則亂	-10.8937
五六	-10.8939
稠	-10.8939
麫	-10.894
乃知	-10.8941
影響	-10.8943
人不知	-10.8945
之北	-10.8946
之所起	-10.8948
比於	-10.8949
則无	-10.895
毁譽	-10.8951
天神	-10.8957
四十九日	-10.8959
哀公	-10.8965
多欲	-10.8968
而小	-10.8969
者由	-10.8973
一人之	-10.8975
内篇	-10.8977
有間	-10.8982
譬猶	-10.8983
亡也	-10.8991
天官	-10.8991
大功	-10.8995
行事	-10.9002
依前法	-10.9004
天下之交	-10.9004
相對	-10.9013
曲直	-10.9014
無識	-10.9017
物莫	-10.9017
爲不善	-10.902
無所容	-10.9021
漁	-10.9023
即有	-10.9024
無邊	-10.9029
一大	-10.903
叱	-10.903
輦	-10.9031
鬢	-10.9032
劌	-10.9032
死人	-10.9036
長而不宰	-10.9037
武侯	-10.9037
溝	-10.9038
莫知所	-10.9038
抱朴子	-10.9039
爲天下式	-10.9041
玄宗	-10.9043
三蟲	-10.9045
凡所	-10.9048
與天地同	-10.9048
松脂	-10.9049
採得	-10.905
參差	-10.9051
恭敬	-10.9052
生靈	-10.9052
法服	-10.9054
丙丁	-10.9059
試之	-10.9061
天寳	-10.9062
執持	-10.9066
異類	-10.9068
嶺南	-10.9069
吐血	-10.9072
兵馬	-10.9075
孰知其	-10.9077
物化	-10.9079
何得	-10.9083
天罡	-10.9083
紫雲	-10.9086
同體	-10.9087
道常無名	-10.9088
反李云	-10.909
鼎内	-10.9097
而足	-10.9097
弗能	-10.91
何者	-10.91
三七日	-10.9102
河上	-10.9104
運用	-10.9105
道成	-10.9109
成器	-10.9115
有限	-10.9117
常行	-10.9119
如玉	-10.9122
之才	-10.9122
隱顯	-10.9123
洋	-10.9125
堝	-10.9126
非常道	-10.9127
者所謂	-10.913
芋	-10.9131
婢	-10.9133
椎	-10.9133
巍巍	-10.9133
洒	-10.9136
也以此	-10.9136
迨	-10.9136
掛	-10.9136
八年	-10.9136
四日	-10.9137
曝	-10.9137
尿	-10.9139
公孫龍	-10.9139
蟾	-10.9139
挫其鋭	-10.914
六腑	-10.9141
褚伯秀	-10.9141
瘀血	-10.9141
不終	-10.9142
耦	-10.9142
涸	-10.9145
石灰	-10.9153
因其所	-10.9154
其親	-10.9156
大聖北斗七元君能解	-10.9158
水水	-10.9158
其辭	-10.9162
全德	-10.9163
止渴	-10.917
日以	-10.9175
既得	-10.9177
南斗	-10.9181
堅固	-10.9182
不察	-10.9184
六畜	-10.9189
臣聞	-10.9189
氣候	-10.9191
夢中	-10.92
通乎	-10.92
靈符	-10.9202
何暇	-10.921
亡國	-10.921
羹	-10.9211
故去彼取此	-10.9212
告以	-10.9214
顏	-10.9214
不爲主	-10.9216
元神	-10.9219
絞	-10.9223
正法	-10.9223
明王	-10.9223
其中有	-10.9225
焼	-10.9226
無色	-10.9226
亦有之	-10.9227
未悟	-10.9227
爲禍	-10.9227
稜	-10.9236
瑟	-10.9236
輕清	-10.9236
而去之	-10.9236
跳	-10.9237
裳	-10.9237
外道	-10.9237
内有	-10.9237
牡蠣	-10.9238
求之於	-10.9239
嘻	-10.924
都忘	-10.924
韻	-10.9241
眹	-10.9243
僖	-10.9244
纘義	-10.9247
者佳	-10.9247
札	-10.9248
至德之世	-10.9248
過分	-10.9249
焙乾	-10.9251
自治	-10.9251
莫見其	-10.9253
縱横	-10.9253
孔丘	-10.9254
悟道	-10.9256
書符	-10.926
各得	-10.9266
大風	-10.9269
黄精	-10.9272
役於	-10.9275
無益於	-10.9277
死亡	-10.9278
結氣	-10.9278
户牖	-10.9281
而身	-10.9285
醫家	-10.9286
雖未	-10.9288
知之所	-10.9289
愛惡	-10.9291
之妙用	-10.9292
虚通	-10.9297
千餘	-10.9298
不爲物	-10.9303
條下	-10.9303
身外	-10.9314
絕	-10.9318
上眞	-10.9319
眞宰	-10.9324
愛養	-10.9326
未達	-10.9328
吳	-10.9334
未足以	-10.9336
長生乆視	-10.9338
千載	-10.9339
向之	-10.934
輕舉	-10.934
琅	-10.9344
悠	-10.9346
代大匠斲	-10.9348
刊	-10.935
恕	-10.935
鳯	-10.935
長生不死	-10.9351
名之曰	-10.9351
覓	-10.9354
筒	-10.9355
瘻	-10.9355
一卷	-10.9355
孟詵云	-10.9355
强其骨	-10.9357
不與物爭	-10.9358
委蛇	-10.9359
苔	-10.9359
四五	-10.9361
卑下	-10.9363
歸本	-10.9364
性分	-10.9369
靜者	-10.937
萬類	-10.937
疥	-10.9375
同於道	-10.9376
質樸	-10.9376
玉京	-10.9377
衣冠	-10.9377
此非	-10.9379
流沙	-10.9384
他日	-10.9386
二千	-10.9387
實無	-10.9387
載營魄	-10.9387
聖道	-10.9389
雖多	-10.939
孰知	-10.9394
金華	-10.9399
其生也	-10.9401
知道之	-10.9402
靈應	-10.9403
大丈夫	-10.9406
三洞	-10.9407
律令	-10.9413
厚薄	-10.9413
不以物	-10.9414
彌遠	-10.9419
爲累	-10.942
則多	-10.9426
而愈	-10.9428
莫能知	-10.9431
未成	-10.9435
人間世	-10.9437
鐺	-10.9443
暨	-10.9443
其智	-10.9444
子母	-10.9444
有異	-10.9444
方便	-10.9445
伊尹	-10.9448
瞀	-10.9453
皎	-10.9453
瘕	-10.9455
無乎不在	-10.9456
蟠	-10.9457
恢恢	-10.9458
丁卯	-10.946
蘂	-10.9461
碗	-10.9462
麵	-10.9463
與俗	-10.9465
者寡	-10.9465
五月五日	-10.9466
實其腹	-10.9467
遶	-10.947
政事	-10.9474
相見	-10.9474
者未嘗	-10.9477
以爲己	-10.9484
三台	-10.9488
子云	-10.9493
骨髓	-10.9496
不同也	-10.9497
昭然	-10.9497
無擇	-10.9498
然哉	-10.9501
雖知	-10.9504
物來	-10.9507
又作	-10.9507
不可執	-10.9513
元宫	-10.9518
玄通	-10.9519
虚實	-10.952
祕之	-10.9522
天下之所	-10.9522
守之以	-10.9523
不加	-10.9527
傷生	-10.9527
而自得	-10.9529
歲月	-10.9535
雜篇	-10.9538
再服	-10.9541
淳風	-10.9546
常無欲	-10.9547
但能	-10.9548
尚不能	-10.9551
成眞	-10.9551
誨	-10.9554
諂	-10.9554
而後知	-10.9556
膩	-10.9556
紛紛	-10.9556
形全	-10.9557
靈府	-10.9558
派	-10.9558
當是時也	-10.956
窮理	-10.956
聊	-10.9561
寛	-10.9562
棟	-10.9564
縈	-10.9565
績	-10.9566
儲	-10.9566
貴大患若身	-10.9567
鷄子	-10.9569
比干	-10.9569
和其光	-10.957
煩惱	-10.957
癇	-10.9571
而不見其	-10.9572
以喪禮處之	-10.9572
雷公云凡使	-10.9574
王倪	-10.9574
今夫	-10.9577
希言自然	-10.9578
不輕	-10.958
寄託	-10.9583
不化者	-10.9584
聖人者	-10.9585
何物	-10.9586
攝生	-10.9586
觀乎	-10.9589
半錢	-10.9596
相承	-10.9598
作汁	-10.9599
處世	-10.9604
未萌	-10.9604
陽精	-10.9604
平微	-10.9607
方用	-10.9607
塊然	-10.9611
宫中	-10.9612
其數	-10.9612
之恩	-10.9621
汗出	-10.9625
爲王	-10.9629
在前	-10.9633
妙行	-10.9635
方能	-10.9637
自私	-10.9639
雖小	-10.9645
萬劫	-10.9647
吕註	-10.9648
火養	-10.9649
率性	-10.9653
不遺	-10.966
却用	-10.9662
蔭	-10.9668
平主	-10.9669
稻	-10.9669
全矣	-10.9671
漁父	-10.9671
糊	-10.9671
鵝	-10.9671
簫	-10.9673
荀	-10.9673
懽	-10.9673
惕	-10.9674
九重	-10.9674
顛	-10.9674
成敗	-10.9676
眄	-10.9678
己身	-10.9679
耐	-10.968
姹女	-10.9682
糖	-10.9683
思之	-10.9683
儒者	-10.9684
忠孝	-10.9685
忘身	-10.9687
今處處有之	-10.9688
未能忘	-10.9688
反郭	-10.9691
韋曰	-10.9691
雷公	-10.9694
無門	-10.97
方術	-10.9703
獨見	-10.9705
再用	-10.971
青金	-10.971
一曲	-10.971
不可輕	-10.9712
雖曰	-10.9713
何可	-10.9722
當作	-10.9723
候冷	-10.9725
覺夢	-10.9727
交相	-10.9732
王子	-10.9734
口鼻	-10.9739
能應	-10.9741
不虚	-10.9742
庚桑子	-10.9743
合和	-10.9746
水腫	-10.9752
宜其	-10.9758
陶隱居云今	-10.9759
可見矣	-10.976
而存	-10.9763
未分	-10.9763
胡蝶	-10.9768
何故	-10.9773
裔	-10.9777
世之所	-10.9778
繆	-10.9779
是我	-10.9779
帔	-10.978
法取	-10.9782
笋	-10.9782
渇	-10.9782
翹	-10.9783
杳	-10.9783
趍	-10.9785
先天地生	-10.9786
甑	-10.9786
菖蒲	-10.9786
食療云	-10.9788
不喜	-10.9788
沾	-10.9788
神藥	-10.9789
更有	-10.979
平王	-10.9791
脚氣	-10.9791
恚	-10.9792
黄帝曰	-10.9795
武當	-10.9795
無名者	-10.9797
又解	-10.9797
乃復	-10.9797
之中而	-10.9803
不可言	-10.9805
舉世	-10.9806
隱居	-10.9809
味酸	-10.981
純素	-10.981
所在皆	-10.9816
到此	-10.9817
泊然	-10.9818
其妻	-10.9822
上仁	-10.9827
大黄	-10.9828
二種	-10.9829
自然而已	-10.983
任自然	-10.9833
子貢曰	-10.9836
外其身	-10.984
失其所	-10.9841
近道	-10.9842
珠玉	-10.9844
二十八	-10.9845
之路	-10.9845
相遇	-10.9846
不昧	-10.9848
還淳	-10.9852
骨節	-10.9852
不自矜	-10.9854
其藥	-10.9854
於物也	-10.9855
神奇	-10.9857
配合	-10.9859
所禀	-10.986
青牛	-10.9861
宋人	-10.9863
而趨	-10.9866
瓶子	-10.9874
惡氣	-10.9876
譬之	-10.9876
解釋	-10.9876
一重	-10.9877
色白	-10.9881
丹書	-10.9882
明皇	-10.9882
耳若	-10.9882
天下之事	-10.9883
保身	-10.9884
治小兒	-10.989
窪	-10.9891
無容心	-10.9892
事業	-10.9892
徐音	-10.9892
遼	-10.9893
媚	-10.9893
倏	-10.9894
七尺	-10.9894
有善	-10.9894
爍	-10.9894
森	-10.9894
妄作	-10.9895
級	-10.9895
焕	-10.9895
迂	-10.9896
唤	-10.9896
勵	-10.9896
逆旅	-10.9897
褒	-10.9898
嗚	-10.9898
道經注云	-10.9899
庚辛	-10.99
鯢	-10.99
諦	-10.99
陀	-10.9901
帝曰	-10.9902
煩悶	-10.9902
自然之性	-10.9903
櫟	-10.9904
藻	-10.9904
士庶	-10.9907
四寸	-10.9909
示以	-10.9911
補虚	-10.9914
庚辰	-10.9916
䟽言	-10.9917
風化	-10.9919
形氣	-10.9921
積善	-10.9922
結實	-10.9929
達者	-10.993
愛欲	-10.9934
云云	-10.9936
十九年	-10.9939
混同	-10.9941
之所欲	-10.9948
楚王	-10.9949
水流	-10.995
堅白	-10.9951
定矣	-10.9951
淮南子	-10.9956
與化	-10.9959
致虚	-10.996
唯其	-10.997
無毒主	-10.9971
豈復	-10.9971
弱者道之用	-10.9973
乃成	-10.9974
六極	-10.9979
採根	-10.9979
居處	-10.9987
乎䟽	-10.9987
疑其	-10.9989
氣者	-10.9995
生於有	-10.9996
之期	-10.9997
廻	-10.9998
德化	-10.9999
醬	-11
忘其所	-11.0001
三業	-11.0002
冨	-11.0002
水氣	-11.0005
稚	-11.0005
亟	-11.0008
董	-11.0008
恂	-11.0008
炳	-11.0009
西王母	-11.0009
出生入死	-11.001
猨	-11.0011
即今	-11.0013
汲汲	-11.0015
鴨	-11.0015
鵠	-11.0015
黄丹	-11.0016
石室	-11.0017
百骸	-11.0018
個	-11.0019
千金方治	-11.0019
一千	-11.002
靈官	-11.002
鬳齋云	-11.0022
白皮	-11.0022
好憎	-11.0025
大羅	-11.0029
當歸	-11.003
不自貴	-11.0031
恐懼	-11.0033
愼之	-11.0034
頂火	-11.0035
之德也	-11.0035
煮汁	-11.0036
誠能	-11.0038
貴高	-11.004
百萬	-11.004
糠	-11.0041
之極也	-11.0042
復還	-11.0042
雄雌	-11.0047
匠石	-11.0047
得其所	-11.0048
所造	-11.0048
與天同	-11.0054
世事	-11.0056
无心	-11.0059
其㫖	-11.0065
而民不	-11.0067
繩繩	-11.0071
:『	-11.0073
更以	-11.0075
上香	-11.0076
强大	-11.0084
鍊丹	-11.0087
蓋言	-11.0087
而不能自	-11.009
王弼	-11.0097
財貨	-11.0099
場	-11.01
化物	-11.0101
于此	-11.0105
道之常	-11.0107
鍋子	-11.0109
爲陽	-11.011
簡易	-11.0111
二十年	-11.0111
道之所以	-11.0112
粱	-11.0116
須是	-11.0117
櫛	-11.0118
而求之	-11.0119
鳶	-11.0119
藩	-11.012
扈	-11.0121
斫	-11.0121
先物	-11.0121
價	-11.0122
驥	-11.0122
罟	-11.0124
嫩	-11.0127
苞	-11.0127
翛然	-11.0128
茨	-11.0129
無不成	-11.013
多言數窮不如守中	-11.0131
我之所	-11.0131
槁木	-11.0132
蟹	-11.0133
年月	-11.0133
漢中	-11.0135
禹錫等按	-11.0135
橘	-11.0136
夔	-11.0136
甲申	-11.0136
氣氣	-11.0138
細辛	-11.014
羌	-11.014
安心	-11.0141
酒下	-11.0142
不見可欲	-11.0142
育萬物	-11.0143
其狀	-11.0144
立名	-11.0147
孰敢	-11.0148
玄門	-11.0151
不自知	-11.0151
何則	-11.0155
火上	-11.0159
歷代	-11.0162
果敢	-11.0165
所屬	-11.0166
埋之	-11.0169
刑名	-11.0172
滌除	-11.0173
致柔	-11.0176
廓然	-11.0178
不幸	-11.0183
眞官	-11.0184
乎故曰	-11.0189
之謂歟	-11.0192
人之情	-11.0193
精炁	-11.0196
失眞	-11.02
此蓋	-11.0201
何患	-11.0202
無係	-11.0203
或使	-11.0204
无名	-11.0205
儼	-11.0206
所願	-11.0207
奚足	-11.0207
皆須	-11.0209
六親	-11.021
河上本	-11.0211
百谷	-11.0216
五千言	-11.0218
身輕	-11.0221
手執	-11.0222
民之所	-11.0229
一十二	-11.0231
有感	-11.0233
睢	-11.0236
汩	-11.0236
芻	-11.0239
忻	-11.024
拾	-11.0241
詢	-11.0241
之心則	-11.0242
向秀曰	-11.0242
穩	-11.0243
没身不殆	-11.0245
軒轅	-11.0246
罹	-11.0247
黄茂材曰	-11.0247
安其居	-11.0248
閼	-11.0248
是以聖人猶難之	-11.0249
江東	-11.0249
風氣	-11.0251
五石	-11.0252
光而不耀	-11.0255
天下之心	-11.0257
㝠㝠	-11.0257
充塞	-11.026
西域	-11.0262
盡爲度	-11.0264
亡身	-11.0266
兵革	-11.0267
公主	-11.027
田野	-11.0272
周旋	-11.0278
靈公	-11.0279
能容	-11.0279
之節	-11.0281
玄覽	-11.0281
其勢	-11.0281
古之眞人	-11.0283
眞汞	-11.0286
輕易	-11.0287
在我者	-11.0288
意在	-11.0289
生民	-11.0292
勝負	-11.0294
無差	-11.0296
可知也	-11.0297
忽見	-11.03
若之何	-11.0304
廣成	-11.0309
號爲	-11.0311
樸散	-11.0311
官長	-11.0312
火火	-11.0315
上皇	-11.0316
存身	-11.0318
因循	-11.0325
交感	-11.0326
引之	-11.0328
大笑	-11.0328
奈	-11.033
不住	-11.0332
以身爲	-11.0333
隨機	-11.0334
莫知其所	-11.0338
重濁	-11.0338
醯	-11.0341
瞿	-11.0352
與彼	-11.0354
玊	-11.0355
綽	-11.0355
扣	-11.0356
竄	-11.0356
筴	-11.0357
紋	-11.0358
翕	-11.0361
翫	-11.0361
騁	-11.0362
病矣	-11.0365
唐本注云此	-11.0366
太始	-11.0366
黄老	-11.0367
我好靜而民自正	-11.0367
消石	-11.0368
常使民無知無欲	-11.0368
蝸	-11.0369
唐虞	-11.037
輪迴	-11.037
咦	-11.0371
得之矣	-11.0375
須用	-11.0381
良久	-11.0385
貧富	-11.0386
如前法	-11.0399
猶云	-11.0402
益州	-11.0407
入爐	-11.0408
之序	-11.041
汎然	-11.0412
故幾於道	-11.0418
之塗	-11.0419
爾義曰	-11.0419
庶人	-11.0424
化而爲	-11.0424
眞炁	-11.0429
性命之理	-11.043
一息	-11.043
者歟	-11.0431
加火	-11.0436
相聞	-11.0444
六七	-11.0445
凡欲	-11.0448
相連	-11.0453
長年	-11.0456
一身之	-11.0458
汞一斤	-11.0463
注同	-11.0466
枳	-11.0467
渾然	-11.0467
熾	-11.0469
寜	-11.047
不消	-11.0471
譚	-11.0471
灰汁	-11.0472
南榮趎	-11.0472
娛	-11.0473
琢	-11.0473
可以長乆	-11.0473
猴	-11.0474
淮	-11.0474
以成其	-11.0475
復何	-11.0476
夫道者	-11.0477
魯侯	-11.0478
跋	-11.0478
渺	-11.0479
只爲	-11.0479
晩	-11.0481
醴	-11.0481
知者不言言者不知	-11.0483
娱	-11.0483
修學	-11.0483
坡	-11.0484
纉義	-11.0484
櫃	-11.0485
吾所謂	-11.0488
妄情	-11.049
臨川王安石曰	-11.0491
循理	-11.0492
樞機	-11.0493
神妙	-11.0493
鋪蓋	-11.0499
爲天下谷	-11.0502
群品	-11.0503
得長生	-11.0505
慢火	-11.0508
變而爲	-11.0513
無得而	-11.0514
吉祥	-11.0515
一時之	-11.0515
爾時	-11.0517
施於	-11.0518
君主	-11.052
五龍	-11.0525
先師	-11.0526
煩熱	-11.0528
動用	-11.0531
聖人之言	-11.0534
太過	-11.0536
寬大	-11.0538
之名也	-11.0541
百體	-11.0542
非譽	-11.0549
功力	-11.055
固然	-11.0551
舜之	-11.0554
之行也	-11.0556
玄微	-11.0561
念呪	-11.0565
道之大	-11.0572
白石	-11.0574
窮達	-11.0576
黑鉛	-11.0576
正眞	-11.0581
損人	-11.0585
一石	-11.0587
靣	-11.0591
王駘	-11.0591
一氣之	-11.0592
巴豆	-11.0592
詹	-11.0593
曼	-11.0594
以死爲	-11.0595
憊	-11.0595
吠	-11.0595
羶	-11.0596
寔	-11.0597
前言	-11.0598
顚倒	-11.0599
莅	-11.06
栽	-11.0601
禹錫云按藥性論云	-11.0603
大音希聲	-11.0605
和大怨	-11.0606
執滯	-11.0607
虱	-11.0607
變通	-11.0609
愈有	-11.0612
一偏	-11.0612
窠	-11.0613
其徒	-11.0615
多端	-11.0616
離形	-11.0626
也又曰	-11.0627
悲哀	-11.0628
流通	-11.0634
澤及	-11.0635
亦不知	-11.0637
大洞	-11.0642
白公	-11.0646
禮法	-11.0652
任意	-11.0654
不重	-11.066
道本無	-11.066
閉目	-11.067
說文	-11.067
所化	-11.067
則有所	-11.0673
夭下	-11.0674
則又	-11.0676
異物	-11.0678
重言	-11.0682
學道者	-11.0685
前識	-11.0691
止水	-11.0698
中元	-11.07
伯樂	-11.0701
餌之	-11.0703
以彰	-11.0705
依此	-11.0707
安樂	-11.0708
眷	-11.071
飲水	-11.0712
倣	-11.0715
甘鍋	-11.0715
醋調	-11.0716
蛟	-11.0717
峨	-11.0721
俛	-11.0721
挹	-11.0723
包裹	-11.0724
道德眞經廣聖義卷之	-11.0725
霑	-11.0725
攘臂	-11.0725
萬古	-11.0726
版	-11.0727
以死懼之	-11.0727
二炁	-11.0729
税	-11.0729
風雲	-11.073
混而爲一	-11.073
被褐	-11.0731
於天地之間	-11.0731
失義而後禮	-11.0733
翅	-11.0733
免於	-11.0734
十餘年	-11.0735
再入	-11.0736
鍋内	-11.0736
昏亂	-11.0738
東嶽	-11.074
太宗	-11.0743
惠子曰	-11.0745
非其人	-11.0746
先將	-11.0747
榮衛	-11.0747
鯉魚	-11.0749
容心	-11.0751
專一	-11.0751
平澤	-11.0753
深妙	-11.0753
難測	-11.0754
也夫道	-11.0755
王天下	-11.0755
御䟽此	-11.0757
臣妾	-11.0759
易所謂	-11.076
切司馬云	-11.076
曲全	-11.076
此說	-11.0764
讀書	-11.0766
皇天	-11.077
仙公	-11.0771
天年	-11.0773
天下之民	-11.0773
左味	-11.0783
莫能行	-11.0789
淡然	-11.079
非獨	-11.0791
下元	-11.0792
報應	-11.0794
十二兩	-11.0796
攻之	-11.0801
不侵	-11.0805
不忒	-11.0808
所以生	-11.0808
達眞	-11.0812
無爲無事	-11.0817
罪福	-11.0819
不伐	-11.0821
星官	-11.0824
施行	-11.0824
受道	-11.0825
壽命	-11.0828
陰符	-11.0828
玄精	-11.0829
矣老子曰	-11.0831
戟	-11.0833
殫	-11.0835
硇	-11.0837
是故聖人	-11.0838
三十輻	-11.0839
常寂	-11.084
蛙	-11.084
鬳齋口義	-11.0841
閱	-11.0841
修道之	-11.0842
圎	-11.0842
由此觀之	-11.0843
自然汁	-11.0844
用之不勤	-11.0844
萬物化	-11.0846
皈	-11.0847
粘	-11.0848
浄	-11.0848
窺牖	-11.0848
趎	-11.0848
日月星辰	-11.0848
旡	-11.0849
而不失其	-11.0849
物無不	-11.0851
遑	-11.0851
窈㝠	-11.0851
生生之厚	-11.0851
以道佐人主	-11.0852
騫	-11.0853
姑射	-11.0853
用之則	-11.0853
未若	-11.0856
石榴	-11.0857
叫	-11.0857
篇之文	-11.0857
大象無形	-11.0858
四支	-11.0863
惑者	-11.0869
漿水	-11.0871
飛龍	-11.0872
勿使	-11.0878
也及其	-11.0879
問其故	-11.0882
耳聾	-11.0883
行氣	-11.0888
急急	-11.0891
徐曰	-11.09
不美	-11.0908
如泥	-11.091
無疑	-11.0911
空腹	-11.0912
冬至	-11.0917
關節	-11.0923
事無事	-11.0925
二七日	-11.0927
開化	-11.0932
立身	-11.0936
當年	-11.0942
性冷	-11.0952
也疑獨註	-11.0953
問答	-11.0954
脩身	-11.0956
天運	-11.0956
公私	-11.0956
善否	-11.0957
不可解	-11.0957
不皦	-11.0958
未及	-11.096
玉石	-11.096
萬年	-11.0962
有之以爲利	-11.0963
拆	-11.0967
闚	-11.0968
赫赫	-11.0968
有虞氏	-11.0968
鼃	-11.0969
邯鄲	-11.0969
歴	-11.097
頼	-11.097
正言若反	-11.0971
鈴	-11.0971
仇	-11.0971
公子牟	-11.0971
疽	-11.0972
牟	-11.0973
綿綿若存用之不勤	-11.0974
臣眞述曰	-11.0974
抄	-11.0974
三皇五帝	-11.0975
勇於敢	-11.0977
釀	-11.0977
含德之厚	-11.0978
自適	-11.0979
天元	-11.0981
八節	-11.0982
峯	-11.0985
道之要	-11.0992
河上名	-11.0994
仁愛	-11.0994
志云	-11.0994
乃止	-11.0999
百節	-11.1001
言人君	-11.1003
游乎	-11.1003
元陽	-11.1005
胡麻	-11.1008
入地	-11.101
此四者	-11.1015
飽食	-11.1016
洗心	-11.1018
妙經	-11.102
分内	-11.1021
盈則	-11.1024
丹頭	-11.1026
執著	-11.1026
當其無	-11.103
水性	-11.103
方將	-11.1033
異於人	-11.1034
營爲	-11.1036
能如嬰兒	-11.1043
貪生	-11.1045
抱道	-11.1048
下界	-11.1048
惚恍	-11.1053
物而物	-11.1057
六府	-11.1058
故能成其大	-11.106
十五章	-11.1062
東向	-11.1063
魚鼈	-11.1064
大塊	-11.1071
丁巳	-11.1074
鐡	-11.1077
不暇	-11.108
入室	-11.1087
撥	-11.1088
蹙	-11.1088
蝶	-11.1088
䖍	-11.109
黍米	-11.109
捻	-11.1091
膳	-11.1092
事物之	-11.1093
司馬本作	-11.1094
汴	-11.1094
讃	-11.1097
嫁	-11.1097
潛	-11.1097
陜	-11.1098
翰	-11.1099
純白	-11.1099
澁	-11.1099
湛兮似或存	-11.1101
可觀	-11.1101
物或惡之故有道者不處	-11.1102
瓮	-11.1102
伯昏	-11.1103
小國寡民	-11.1104
膜	-11.1104
原㫖曰	-11.1105
鄰國相望	-11.1105
葉夢得曰	-11.1108
以智治國國之賊	-11.1109
戎鹽	-11.1113
其所由	-11.1115
月十五日	-11.1115
石硫黄	-11.1116
則止	-11.1119
切下同	-11.1125
唐明皇曰	-11.1125
不避	-11.1125
益人	-11.1129
浩然	-11.1131
狀若	-11.1136
愈多	-11.1136
六十日	-11.1136
生生者	-11.1137
面上	-11.1141
妄想	-11.1141
相交	-11.1153
一生二	-11.1154
无為	-11.1158
畏死	-11.117
玄玄	-11.1175
藥物	-11.1177
以示人	-11.1179
無偏	-11.118
守眞	-11.1183
過去	-11.1185
致一	-11.1192
幽冥	-11.1202
之生也	-11.1204
賓	-11.1206
妙體	-11.1207
之冠	-11.1208
妄爲	-11.1208
甞	-11.121
彦	-11.121
靈飛	-11.1211
炒令	-11.1212
隱士	-11.1214
神凝	-11.1217
韭	-11.1218
妹	-11.1219
鴟	-11.122
捶	-11.1221
不屬	-11.1221
心智	-11.1222
椀	-11.1222
區區	-11.1223
髻	-11.1223
瘴	-11.1224
揀	-11.1224
非但	-11.1225
釁	-11.1225
甘美	-11.1226
功成事遂	-11.1228
弛	-11.1228
炮	-11.1228
悴	-11.1228
尊師	-11.1228
田獵	-11.1228
信言不美	-11.123
鐵線	-11.123
劇	-11.123
濕痹	-11.1231
優劣	-11.1232
動善時	-11.1232
與道爲一	-11.1233
事善能	-11.1235
鬼魅	-11.1238
𩐎	-11.1239
成都	-11.124
曝乾	-11.1243
舟車	-11.1245
曰吾聞	-11.1246
朝夕	-11.1246
至堅	-11.1249
朝元	-11.1249
庚子	-11.125
天下之理	-11.125
弟子某	-11.1252
雲中	-11.1252
難易	-11.1252
少時	-11.1253
腎氣	-11.1253
戊己	-11.1253
誰與	-11.1255
代謝	-11.1256
無棄人	-11.1259
謙退	-11.1262
七竅	-11.1265
利小便	-11.1267
天籟	-11.1268
此義	-11.1269
制汞	-11.1274
皇君	-11.1276
太祖	-11.1277
而使之	-11.1286
故能長生	-11.1288
不善之人	-11.1288
應時	-11.1289
言訖	-11.129
九炁	-11.1297
變成	-11.1298
此一章	-11.1298
公孫	-11.1299
假令	-11.1303
不恃其	-11.1305
三炁	-11.1309
哉蓋	-11.1311
勤勞	-11.1313
天降	-11.1315
聚散	-11.1319
七魄	-11.1322
無形無	-11.1322
黄花	-11.1324
不干	-11.1325
不病	-11.1326
一生	-11.1327
眞形	-11.133
經教	-11.133
各一兩	-11.1331
形聲	-11.1333
用兵者	-11.1337
進火	-11.134
攣	-11.1343
蹴	-11.1347
度數	-11.1348
殺身	-11.1348
萃	-11.1349
淹	-11.1352
惵惵	-11.1353
琳	-11.1353
冤	-11.1354
沬	-11.1355
非有非無	-11.1355
蚌	-11.1356
衷	-11.1357
涓	-11.1357
霜雪	-11.1357
鼓舞	-11.1357
葦	-11.1357
萍	-11.1359
竹筒	-11.136
窮理盡性	-11.1361
信不足有不信	-11.1362
秃	-11.1362
尋常	-11.1362
反者道之動	-11.1363
修德	-11.1364
殃咎	-11.1367
巵言	-11.1367
我與若	-11.1368
張弓	-11.137
甲辰	-11.1371
薊	-11.1374
十七章	-11.1378
賢聖	-11.1383
海中	-11.1385
降于	-11.1391
馬蹄	-11.1392
是以聖人之治	-11.1395
役役	-11.1396
不出於	-11.1398
波流	-11.1398
物之情	-11.1399
德經云	-11.1407
大器	-11.1409
今古	-11.1411
和柔	-11.1411
可愛	-11.1413
終南山	-11.1416
猶存	-11.1417
諸仙	-11.142
丹一名	-11.1421
自然之理也	-11.1421
仙聖	-11.1421
弗知	-11.1422
亦可以	-11.1422
遂其生	-11.1423
煎之	-11.1426
河水	-11.1433
誦經	-11.1433
充滿	-11.1434
亂之首	-11.1436
利益	-11.1437
高祖	-11.1444
可貴	-11.1444
色聲	-11.1447
白銀	-11.1447
與造化	-11.1452
求勝	-11.1455
外臺秘要	-11.1455
求名	-11.1459
契道	-11.1459
鷇	-11.1471
丙午	-11.1473
莢	-11.1475
又況	-11.1477
爲妖	-11.1477
乙卯	-11.148
衢	-11.1481
簇	-11.1482
劔	-11.1483
飴	-11.1484
亞	-11.1485
丹華	-11.1485
伍	-11.1485
庇	-11.1486
懲	-11.1486
駒	-11.1487
肚	-11.1487
圖經曰文具	-11.1487
架	-11.1487
滅亡	-11.1489
常勝之道	-11.1489
欠	-11.1489
匝	-11.1491
喘息	-11.1491
藪	-11.1491
處無爲之事行不言之教	-11.1493
言善信	-11.1493
款	-11.1494
重靜	-11.1496
白日昇天	-11.1498
何事	-11.1499
十二年	-11.1501
嵩山	-11.1502
玄默	-11.1503
閉塞	-11.1504
郭云	-11.1507
四夷	-11.1508
未免於	-11.151
曆數	-11.1513
希言	-11.1524
南嶽	-11.1524
北海	-11.1527
凡夫	-11.1534
不出乎	-11.1535
空洞	-11.1535
充實	-11.1537
作爲	-11.1539
知識	-11.154
經所謂	-11.154
太隂	-11.1543
之所致也	-11.1555
書無名	-11.1567
數足	-11.1568
均平	-11.1568
之所以爲	-11.157
虚寂	-11.1572
無名天地之始	-11.1573
庶物	-11.1574
之場	-11.1585
凶器	-11.1586
關令	-11.1588
也劉曰	-11.1597
也鬳齋云	-11.1602
緣	-11.1606
凝神	-11.1606
弢	-11.1609
亳	-11.1611
碩	-11.1611
脣	-11.1611
沒	-11.1615
未定	-11.1616
茫	-11.1616
顓頊	-11.1616
徐無鬼	-11.1616
奠	-11.1618
樵	-11.1618
妬	-11.1618
珀	-11.162
陶鑄	-11.162
些	-11.162
驢	-11.1621
弋	-11.1621
玄冥	-11.1622
冕	-11.1622
潁	-11.1623
聳	-11.1626
不見可欲使心不亂	-11.1626
復命曰常	-11.1628
擣篩	-11.1629
鼎器	-11.163
天地雖大	-11.1631
交通	-11.1632
無所不爲	-11.1633
但知	-11.1635
夫子曰	-11.164
開闔	-11.164
任其自然	-11.1642
死灰	-11.1649
九霄	-11.1651
凝寂	-11.1653
輪轉	-11.1654
用炭	-11.1658
逐境	-11.166
聖人之治	-11.1664
勇於	-11.1664
坦然	-11.1665
得之於	-11.1667
者神之	-11.1667
法象	-11.1678
三宫	-11.1679
於道矣	-11.168
病病	-11.1683
鄭人	-11.1686
汞一兩	-11.1687
漠然	-11.1687
非指	-11.1687
十二章	-11.1687
拘於	-11.1691
丹藥	-11.1704
無疆	-11.1712
有道則	-11.1716
之有哉	-11.1724
盒	-11.1724
應帝王	-11.1729
夫何故	-11.173
夲	-11.1734
囿於	-11.1735
萬形	-11.1735
自苦	-11.1735
住火	-11.1736
蘧	-11.1744
於道而	-11.1745
綦	-11.1745
百五十	-11.1746
萬機	-11.1746
殁	-11.1749
奄	-11.175
不脱	-11.1751
謨	-11.1751
而安之	-11.1751
壬午	-11.1753
鍛	-11.1753
丁亥	-11.1755
敎	-11.1756
高以下爲基	-11.1756
四聖	-11.1756
閉其門	-11.1757
踏	-11.1757
有爲有	-11.1757
缺缺	-11.1757
墨翟	-11.1758
莫大焉	-11.1759
咳嗽	-11.1759
與天爲徒	-11.176
憾	-11.176
吾之所	-11.1762
樣	-11.1762
接輿	-11.1763
高宗	-11.1763
清靜無爲	-11.1764
島	-11.1765
誑	-11.1766
不可以爲	-11.177
季咸	-11.1771
道無不在	-11.1771
後其身	-11.1771
徽	-11.1771
不拔	-11.1772
仙翁	-11.1774
二十六	-11.1785
非徒	-11.1787
受命於	-11.1793
圓明	-11.1796
明堂	-11.1797
純一	-11.1799
善建	-11.1803
如小豆	-11.1807
求諸	-11.1809
返本	-11.1813
十二日	-11.1815
與之俱	-11.1815
教門	-11.1817
縱欲	-11.1818
禮拜	-11.1821
石膏	-11.1844
守母	-11.1846
聖人之所以	-11.1851
元始天尊	-11.1853
忘己	-11.1855
無崖	-11.1857
哉故曰	-11.1858
百鬼	-11.1865
芽子	-11.1865
經世	-11.1869
分野	-11.1871
太史	-11.1879
樂音洛	-11.1881
啄	-11.1883
動止	-11.1883
煬	-11.1884
婬	-11.1884
譴	-11.1885
缸	-11.1886
𨼆	-11.1886
玄元皇帝	-11.1886
瘳	-11.1887
禦寇	-11.1888
伎	-11.1888
蹔	-11.1889
鑠	-11.1889
宵	-11.1889
悌	-11.1889
勁	-11.1891
弃	-11.1891
鏤	-11.1891
商丘開	-11.1892
浙	-11.1894
虹	-11.1894
字之曰道	-11.1894
必致	-11.1895
鳧	-11.1896
勘	-11.1896
爲天下谿	-11.1896
況於人乎	-11.1896
井中	-11.1897
䇿	-11.1897
大白若辱	-11.1897
莫能與之爭	-11.1897
治國者	-11.1898
撲	-11.1898
少私寡欲	-11.1898
甲午	-11.1899
肌肉	-11.1899
茸	-11.19
疣	-11.1901
功成名遂身退天之道	-11.1902
蕉	-11.1907
厭其所生	-11.1908
則失其	-11.1908
而不已	-11.1909
飄風	-11.1916
答以	-11.1919
屬於	-11.1921
混合	-11.1922
賢不肖	-11.1926
柔和	-11.1927
服炁	-11.1928
罔兩	-11.193
肩吾	-11.193
而應之	-11.1931
七兩	-11.1933
善惡之	-11.194
乗雲	-11.1959
一條	-11.1963
賢良	-11.1965
玄教	-11.1967
文侯	-11.1969
「	-11.1977
逐末	-11.1979
非常名	-11.1984
却入	-11.1987
相須	-11.1991
忘情	-11.1992
凡俗	-11.2001
四尺	-11.2004
第二明	-11.2007
武火	-11.2011
所以貴	-11.2016
荅	-11.2021
知音智	-11.2021
岳	-11.2024
樽	-11.2025
者未之有也	-11.2025
終其天年	-11.2026
慚	-11.2027
廊	-11.2027
瞬	-11.2028
相繼	-11.2028
筩	-11.2029
贏	-11.203
饕	-11.203
翊	-11.203
論道	-11.2031
梅師方治	-11.2031
冢	-11.2031
彘	-11.2032
潘	-11.2032
變動	-11.2032
顔闔	-11.2033
拱璧	-11.2036
懴	-11.2036
玄之又玄衆妙之門	-11.2037
專氣致柔	-11.2037
惱	-11.2038
滑石	-11.2039
似不肖	-11.2039
紀綱	-11.204
薤	-11.2043
正炁	-11.2047
一而不變	-11.2051
百倍	-11.2053
二八	-11.2054
忘懷	-11.2062
無知無欲	-11.2063
不可長保	-11.2067
六情	-11.2068
化育	-11.2071
衰老	-11.2075
反又音	-11.2076
使然也	-11.2079
住持	-11.2081
昊天	-11.2082
金砂	-11.2083
枯木	-11.2083
金碧	-11.2086
澹然	-11.2091
委順	-11.2091
積氣	-11.2094
清酒	-11.2096
不朽	-11.2096
大禹	-11.2098
日三服	-11.21
其致之	-11.2106
觀其妙	-11.211
腹内	-11.2115
不出户	-11.212
生殺	-11.2122
色黄	-11.213
修養	-11.213
已死	-11.2142
勤苦	-11.2143
砂中	-11.2146
非吾所謂	-11.216
髑髏	-11.2162
粲	-11.2163
掠	-11.2168
帳	-11.2168
扁鵲	-11.2168
搆	-11.2169
磬	-11.2169
慘	-11.2169
拍	-11.2171
涵	-11.2172
不自生	-11.2172
哺	-11.2172
倘	-11.2172
袍	-11.2172
迄	-11.2173
深不可識	-11.2173
動而愈出	-11.2173
駿	-11.2173
雕琢	-11.2173
沮	-11.2173
無欲則	-11.2173
征伐	-11.2175
有名萬物之母	-11.2175
爲道日損	-11.2175
菊	-11.2176
寃	-11.2176
與善仁	-11.2176
生而不有爲而不恃長而不宰是謂玄德	-11.2177
陳象古曰	-11.2179
蠹	-11.2179
有物混成	-11.2181
不尚賢使民不爭	-11.2181
盒子	-11.2181
物壯則老	-11.2182
太乙	-11.2182
機械	-11.2186
用兵有言	-11.2186
腰痛	-11.2189
司殺者	-11.219
上下相	-11.2194
權道	-11.2196
補不足	-11.2196
家國	-11.2196
不得已而用之	-11.2199
老莊	-11.2201
久久	-11.2206
順理	-11.2206
天地不仁	-11.222
精進	-11.222
三品	-11.2221
善士	-11.2222
大腸	-11.2228
延壽	-11.2228
與物化	-11.223
六尺	-11.2234
寓於	-11.2239
莊公	-11.2239
黄連	-11.2249
東華	-11.2257
王郭	-11.2259
無所得	-11.226
設問	-11.2263
黄華	-11.2264
有爲者	-11.2266
。』	-11.2266
相望	-11.2269
列仙	-11.2274
第一明	-11.2281
不獲	-11.2285
下痢	-11.2287
僊	-11.2291
夏至	-11.2293
不得其死	-11.2295
彼且	-11.2297
止痛	-11.2297
曩	-11.2308
祟	-11.2309
卻	-11.2309
宜僚	-11.2312
億劫	-11.2313
菑	-11.2314
饋	-11.2314
感而遂通	-11.2314
舛	-11.2314
郭璞	-11.2315
隘	-11.2316
一丈	-11.2317
襟	-11.2318
愛民治國	-11.2318
物物皆	-11.2319
刋	-11.232
韜光	-11.2321
膈	-11.2321
默然	-11.2322
味甘平無毒主	-11.2323
塘	-11.2323
二斗	-11.2325
莫過於	-11.2327
耳聽	-11.2328
由是觀之	-11.2333
龜蛇	-11.2336
消災	-11.2336
研如粉	-11.2339
於胸中	-11.234
如粉	-11.2342
專氣	-11.2343
頭風	-11.2345
不失其所	-11.2347
一片	-11.2347
水火鼎	-11.2348
十六日	-11.2357
尹氏	-11.2358
天地萬物之	-11.2358
十二時	-11.2362
功過	-11.2364
欲不欲	-11.2367
白鹿	-11.2369
頂上	-11.237
朝拜	-11.2371
登山	-11.2378
元辰	-11.238
有涯	-11.2388
古之聖人	-11.2389
斗中	-11.2391
損有餘	-11.2391
感動	-11.2392
不止於	-11.2394
性分之	-11.2397
治大國	-11.2398
尸解	-11.2401
淳朴	-11.2407
猶龍	-11.2409
却將	-11.2409
川澤	-11.2421
故能成其	-11.2424
十三年	-11.2428
天下皆知	-11.2436
白花	-11.2436
自悟	-11.2441
而物自	-11.2442
麝香	-11.2446
繒	-11.2447
教民	-11.2447
翟	-11.2449
伯陽	-11.2449
踞	-11.2451
徘徊	-11.2452
輙	-11.2454
殞	-11.2455
濛	-11.2456
寂寥	-11.2458
筌	-11.2458
銅鐵	-11.2459
喜怒哀樂	-11.2459
竇	-11.246
祗	-11.2461
穎	-11.2461
街	-11.2461
讒	-11.2462
醒	-11.2462
綿綿若存	-11.2462
捍	-11.2462
我無事而民自富	-11.2463
益之而損	-11.2464
孔德之容	-11.2464
緋	-11.2465
九幽	-11.2465
懸胎	-11.2465
可與言	-11.2465
葷	-11.2466
陂	-11.2467
兩足	-11.2467
慙	-11.2468
脇	-11.2468
以靜爲下	-11.2469
涑水司馬光曰	-11.2469
聦明	-11.2469
味無味	-11.247
若存若亡	-11.247
政善治	-11.247
家有北斗經	-11.2473
昏昏	-11.2475
數年	-11.2477
鬼疰	-11.2479
長跪	-11.2481
開闢	-11.2481
腰脚	-11.2483
太后	-11.2485
無有不	-11.2486
禁忌	-11.2486
陰陽之氣	-11.2488
綱紀	-11.2489
隨意	-11.249
觀其徼	-11.2493
水煮	-11.2494
五尺	-11.2495
不在於	-11.2496
抱守	-11.2496
衆甫	-11.25
道之華	-11.2512
不倦	-11.2522
上面	-11.2525
洞徹	-11.2529
博學	-11.2533
李氏	-11.2533
以正治國	-11.2535
人莫不	-11.2541
第八十	-11.2542
不飢	-11.2549
慈仁	-11.256
執政	-11.2562
只在	-11.2563
交會	-11.2564
十四章	-11.2566
柿	-11.2572
語汝	-11.2572
玄女	-11.2574
智詐	-11.2585
相資	-11.2589
盻	-11.2592
䟽姓	-11.2594
鴈	-11.2595
鴻蒙	-11.2595
亶	-11.2597
傑	-11.26
汾	-11.26
僨	-11.2602
喪禮	-11.2602
一塊	-11.2602
滚	-11.2603
絶聖棄智	-11.2603
紫河車	-11.2603
糾	-11.2604
明白四達	-11.2605
辦	-11.2605
痊	-11.2606
馴	-11.2606
沴	-11.2607
我無欲而民自樸	-11.2608
瀛	-11.2608
程大昌曰	-11.2611
以道莅天下	-11.2611
不亦宜乎	-11.2611
廡	-11.2611
入灰池	-11.2612
淵兮似萬物之宗	-11.2612
齊物論	-11.2612
躭	-11.2612
邃	-11.2612
孜	-11.2612
鷙	-11.2613
嬰孩	-11.2614
持而盈之不如其已	-11.2614
袋盛	-11.2618
十惡	-11.2619
安其性命之情	-11.2626
首標	-11.2631
無所不通	-11.2632
復樸	-11.2634
畜養	-11.2638
周易	-11.265
外篇	-11.2656
紫府	-11.2658
豈直	-11.2663
飛鳥	-11.2672
屬火	-11.268
古之所謂	-11.2688
豈唯	-11.2689
七祖	-11.2692
合於道	-11.2693
也若以	-11.2694
祖宗	-11.2702
十七年	-11.2702
憂樂	-11.2703
此所以爲	-11.2705
莫得而	-11.2708
經營	-11.2717
衣被	-11.2718
治天下者	-11.2721
昇仙	-11.2724
嘆曰	-11.2727
李音	-11.2727
將迎	-11.2728
患難	-11.2737
觴	-11.2738
斯道	-11.2738
衍義	-11.2739
宇内	-11.274
六寸	-11.2741
凝結	-11.2741
天地陰陽	-11.2743
而天下治	-11.2745
簡文云	-11.2745
閬	-11.2749
蟄	-11.2751
感而後應	-11.2752
池澤	-11.2753
濟度	-11.2756
飬	-11.2756
篋	-11.2756
纓	-11.2756
忮	-11.2757
凑	-11.2758
謾	-11.2758
大制不割	-11.2758
學仙	-11.2759
楊墨	-11.276
知其榮守其辱	-11.276
聖人無心	-11.276
灸	-11.2762
上德不德	-11.2763
陸佃曰	-11.2765
冷熱	-11.2766
筌蹄	-11.2766
唐本先附	-11.2766
楷式	-11.2766
癲	-11.2769
輔佐	-11.2769
紫霄	-11.2769
以至於無爲	-11.277
䟽前章明	-11.2772
顔淵	-11.2778
君子小人	-11.2782
虚己	-11.2792
盧曰夫	-11.2794
不可多食	-11.2794
二十一日	-11.2795
夫妻	-11.2795
幽深	-11.2797
善不善	-11.2803
鐺中	-11.2808
同於失	-11.2813
已具	-11.2816
京師	-11.2818
甚愛	-11.2836
二卷	-11.2851
十八章	-11.286
下品	-11.286
入甘鍋	-11.2866
漢書	-11.2866
王弼曰	-11.2882
眞常之道	-11.2885
面目	-11.2887
菽	-11.2895
九宫	-11.2896
衛生之經	-11.2896
諛	-11.2897
睨	-11.2898
韄	-11.2898
絮	-11.2899
窗	-11.29
吝	-11.29
糟	-11.29
需	-11.2901
䑕	-11.2902
枘	-11.2902
綏	-11.2903
驂	-11.2903
圭角	-11.2904
梯	-11.2904
叶	-11.2904
笈	-11.2904
躋	-11.2904
𧏾	-11.2904
燔	-11.2905
天關	-11.2905
挽	-11.2905
紐	-11.2906
財物	-11.2906
輜	-11.2907
揩	-11.2907
蹷	-11.2907
戢	-11.2908
乆視	-11.2908
第五十	-11.2909
氛	-11.2909
欻	-11.291
𡨚	-11.2911
刑戮	-11.2912
處無爲之事	-11.2912
喉痹	-11.2913
使夫知者不敢爲也	-11.2915
釜中	-11.2916
宛轉	-11.2916
三丸	-11.2917
道之本	-11.2919
夫何故哉	-11.2919
味苦辛	-11.2926
七寸	-11.2926
制御	-11.2928
雨露	-11.293
十六章	-11.293
默默	-11.2933
繫辭	-11.2935
八荒	-11.294
壺子曰	-11.2941
好靜	-11.2944
色赤	-11.2944
眞僞	-11.2945
閉口	-11.295
地皇	-11.2952
長生之道	-11.2954
自歸之	-11.2955
外臺秘要治	-11.2956
泯然	-11.2959
萬歲	-11.2966
八史	-11.297
人之所以	-11.2979
四季	-11.2981
祇	-11.2983
假借	-11.2991
圓通	-11.3
絶句	-11.3
長保	-11.3014
自以為	-11.3036
地户	-11.3038
微寒無毒主	-11.3041
逺矣	-11.3041
早已	-11.3044
玉帝	-11.305
丁酉	-11.3052
嘔	-11.3053
開悟	-11.3054
峒	-11.3054
開花	-11.3056
俊	-11.3058
兢	-11.3059
悔吝	-11.306
孺	-11.306
噴	-11.306
誌	-11.3061
咨	-11.3062
狡	-11.3063
厠	-11.3063
不自見故明	-11.3064
吾見其不得已	-11.3064
綴	-11.3065
此一段	-11.3065
人之所畏不可不畏	-11.3065
人呼爲	-11.3065
逞	-11.3067
隱几	-11.3067
可以爲天下母	-11.3068
頒	-11.3068
穰	-11.3068
執左契	-11.3068
淄	-11.3068
安可以爲善	-11.3069
其可得乎	-11.3069
勳	-11.307
猪脂	-11.3071
後且先	-11.3072
葛洪	-11.3073
有無相生	-11.3074
少則得	-11.3075
百餘年	-11.3076
而不自知	-11.3078
沖虚經曰	-11.3081
史記云	-11.3082
爲之使惡	-11.3084
殺戮	-11.3085
藏室	-11.3087
矜伐	-11.3088
乳汁	-11.3089
包含	-11.3089
祭酒	-11.3093
包容	-11.3105
煎湯	-11.3105
入藥用	-11.3105
巧利	-11.3106
水浸	-11.3107
道經云	-11.3122
脹滿	-11.3124
希聲	-11.3136
輕躁	-11.3139
威靈	-11.3139
人之所惡	-11.3143
楊朱曰	-11.3145
深淺	-11.3146
必待	-11.3147
樸素	-11.3152
叢生	-11.3154
無咎	-11.3168
濕地	-11.3175
感通	-11.3181
紫陽	-11.3181
强弱	-11.3182
大滌	-11.3182
啓聖	-11.3182
膿血	-11.3191
品物	-11.3194
交接	-11.3195
不能傷	-11.3199
有德者	-11.3202
之常也	-11.3206
猖狂	-11.3207
壹	-11.3207
畛	-11.3208
東西南北	-11.321
無所不知	-11.3211
軋	-11.3212
囑	-11.3212
豆蔻	-11.3212
旦暮	-11.3212
苓	-11.3212
賾	-11.3214
憶	-11.3214
迺	-11.3214
廷	-11.3214
會稽	-11.3215
閔	-11.3215
代赭	-11.3216
忌諱	-11.3217
司殺	-11.3217
諒	-11.3219
樂天知命	-11.3222
址	-11.3222
我無爲而民自化	-11.3222
未甞	-11.3224
退藏於密	-11.3225
儉且廣	-11.3226
遮	-11.3228
道可道	-11.3228
癥瘕	-11.3231
岩	-11.3233
杓	-11.3234
題曰	-11.3244
是以輕死	-11.325
萬二千	-11.3256
億萬人	-11.3256
仁義禮樂	-11.3265
寒温	-11.3268
曰朕	-11.3284
謙虚	-11.3296
生畜	-11.3298
二十七日	-11.3302
不答	-11.331
相接	-11.3311
善救	-11.3322
恬然	-11.3326
山嶽	-11.3326
改元	-11.3327
得其道	-11.3337
線	-11.3353
温服	-11.3353
陶隱居云此	-11.3356
兆民	-11.3358
莊生	-11.3359
鋪底	-11.3362
尻	-11.3362
惴	-11.3364
赤帝	-11.3364
芍藥	-11.3367
桔梗	-11.3367
蚿	-11.337
熒惑	-11.337
可點	-11.3371
覲	-11.3371
扃	-11.3371
伴	-11.3372
后稷	-11.3373
煦	-11.3373
岑	-11.3374
牝牡	-11.3374
娶	-11.3374
憂苦	-11.3376
鋸	-11.3376
藿	-11.3377
臆	-11.3377
巷	-11.3377
氤氲	-11.3378
渭	-11.3379
是謂要妙	-11.338
怳	-11.3381
六合之外	-11.3382
敦兮其若樸	-11.3382
糯米	-11.3382
自古及今其名不去	-11.3383
以兵强天下	-11.3386
凈	-11.3387
八月採	-11.3387
身後之	-11.3387
三斗	-11.3388
詐僞	-11.3394
敦能	-11.3397
君父	-11.3404
天竺	-11.3405
巨細	-11.3405
以智治國	-11.3406
萎	-11.3407
趣舍	-11.3409
繩約	-11.341
百脉	-11.3412
嘗試	-11.3415
登眞	-11.3419
茅山	-11.343
走馬	-11.3437
壬子	-11.3437
無不容	-11.3438
不死之道	-11.3438
工夫	-11.344
天地之根	-11.344
十有二	-11.3445
紫粉	-11.3448
親愛	-11.3452
節候	-11.3453
午時	-11.3454
臍下	-11.3456
冬月	-11.3459
石鹽	-11.3463
關尹子	-11.3464
二十八日	-11.3466
萬物之情	-11.3472
廣州	-11.3473
有意於	-11.3482
入匱	-11.3487
令匀	-11.3489
消食	-11.3498
老君降于	-11.3507
河南	-11.351
賢士	-11.3514
駘	-11.3515
清齋	-11.3515
各得其所	-11.3516
伯昏瞀人	-11.3522
飈	-11.3526
葺	-11.3526
脗	-11.353
牛膝	-11.3531
氷	-11.3532
訶	-11.3532
惶	-11.3533
檜	-11.3533
霍	-11.3534
郭象曰	-11.3534
婚	-11.3534
慨	-11.3535
粮	-11.3536
畦	-11.3537
芬	-11.3537
是謂襲明	-11.3537
口乾	-11.3538
髭	-11.3538
吃	-11.3538
南華眞經口義卷之	-11.354
藜	-11.3541
莧	-11.3541
二生三	-11.3543
京兆	-11.3543
東流水	-11.3544
善貸且成	-11.3544
大成若缺	-11.3545
縷	-11.3546
是以聖人終不爲大故能成其大	-11.3546
慈且勇	-11.3547
可名於大	-11.3548
狹其所居	-11.3549
多忌諱	-11.355
與民同	-11.3551
蔚	-11.3551
泪	-11.3556
有生於無	-11.3557
故無尤	-11.3559
山海經	-11.356
聲聲	-11.3564
不相往來	-11.3564
鼻納	-11.3569
祕訣	-11.357
清静	-11.3574
戰國	-11.3584
猛火	-11.3585
登假	-11.3593
護持	-11.3594
發狂	-11.3596
發泄	-11.3602
道沖	-11.361
五千文	-11.3611
制度	-11.3614
五彩	-11.3614
使之然	-11.3625
之詞也	-11.3633
本經云	-11.3637
傾入	-11.3639
飛走	-11.3641
萬物歸之	-11.3673
具足	-11.3673
柱下	-11.3674
輅	-11.368
猷	-11.3682
鰌	-11.3692
蔕	-11.3694
錐	-11.3694
丁丑	-11.3694
鷹	-11.3697
涌	-11.3697
藕	-11.3698
鯤	-11.3698
陶隱居	-11.3699
眸	-11.3699
番	-11.3699
名與身孰親	-11.37
攬	-11.37
榦	-11.37
啇	-11.3701
復歸於嬰兒	-11.3702
纍	-11.3703
炫	-11.3703
醴泉	-11.3704
天地不仁以萬物爲芻狗	-11.3705
故終無難	-11.3705
聖人不仁以百姓爲芻狗	-11.3705
捺	-11.3705
挼	-11.3705
昂	-11.3705
異端	-11.3706
繕性	-11.3707
善利萬物	-11.3708
塵境	-11.3709
服方寸七	-11.371
爲者敗之執者失之	-11.371
仁義禮智	-11.371
死而不亡者壽	-11.3712
垂訓	-11.3716
設醮	-11.3717
通玄經曰古者	-11.372
無棄物	-11.372
不死不生	-11.3723
成其私	-11.3723
羣品	-11.3725
清源	-11.3726
布施	-11.3727
長生乆視之道	-11.3729
羊肉	-11.3731
不滯於	-11.3731
纂云	-11.3736
第十二	-11.3737
十四年	-11.374
響應	-11.3741
一般	-11.3741
權謀	-11.375
邪魔	-11.3754
道之極	-11.3755
雲霧	-11.3757
乎其中	-11.3758
伏汞	-11.3763
丁未	-11.377
離朱	-11.3774
不爲而成	-11.3778
善閉	-11.3788
浮雲	-11.3789
刻意	-11.3789
萬姓	-11.3797
鹽花	-11.3806
圓光	-11.3826
者氣之	-11.3833
十丸	-11.3854
日鬼名	-11.3854
緇	-11.3857
蓍	-11.3857
孫叔敖	-11.3858
桀跖	-11.3858
遷善	-11.386
工倕	-11.386
駟	-11.386
斤兩	-11.386
羔	-11.3862
娥	-11.3863
碾	-11.3864
黑卵	-11.3865
畧	-11.3865
栀子	-11.3866
漓	-11.3866
諜	-11.3866
狩	-11.3866
嫉	-11.3866
浣	-11.3867
壬辰	-11.3867
宦	-11.3868
酪	-11.3869
自古及今	-11.3869
迫而後動	-11.387
繪	-11.3871
袖	-11.3871
覃	-11.3874
轄	-11.3874
明白四達能無知乎	-11.3875
不可致詰	-11.3875
參同契	-11.3875
隧	-11.3876
進道若退	-11.3877
用人之力	-11.3877
故立天子置三公	-11.3877
鍾乳	-11.3877
是謂不爭之德	-11.3877
骨弱筋柔而握固	-11.3878
淚	-11.3879
陜西	-11.388
倒置	-11.388
天下樂推而不厭	-11.388
雞犬	-11.388
始制有名	-11.3882
雷電	-11.3884
是謂玄同	-11.3887
切成云	-11.3887
無危殆	-11.3894
莫知其極	-11.3895
嚴君平曰	-11.3899
平無毒	-11.39
穆公	-11.39
膽礬	-11.39
委曲	-11.3903
漉出	-11.3911
宗皇帝	-11.3912
玉帛	-11.3915
孔氏	-11.392
北辰	-11.3922
玄牝之門是謂天地根	-11.3926
交泰	-11.393
絳宫	-11.3934
遞相	-11.394
淺深	-11.3941
瘡疥	-11.3943
肘後方治	-11.3944
經訣	-11.3949
五月採	-11.3951
如雞子	-11.3955
舊說	-11.3966
熟火	-11.3966
資始	-11.3971
八十一章	-11.3983
宰制	-11.399
第十一	-11.3999
符籙	-11.4001
澄清	-11.4005
陵舄	-11.4014
戹	-11.4018
戶	-11.4022
腑	-11.4025
殄	-11.4027
傴	-11.4027
萬端	-11.4029
彷徨	-11.403
劓	-11.403
澼	-11.4033
竪	-11.4035
愼勿	-11.4035
應而不藏	-11.4036
偈	-11.4036
各正性命	-11.4038
咽氣	-11.4039
泳	-11.4039
不自以爲	-11.404
斜	-11.4041
復歸於無物	-11.4041
抽添	-11.4041
嗄	-11.4041
此兩者同出而異名	-11.4042
侍郞	-11.4043
岡	-11.4043
蚓	-11.4043
不知所以然而然	-11.4044
法令滋彰盜賊多有	-11.4044
不責於人	-11.4045
殉名	-11.4045
佗	-11.4045
蝱	-11.4046
畏壘	-11.4046
子母秘録	-11.4047
賢於貴生	-11.4047
微妙玄通	-11.4047
皺	-11.4048
熨	-11.4048
擾擾	-11.4049
插	-11.4049
雖有甲兵無所陳之	-11.4049
疹	-11.4053
救世	-11.4054
七月七日	-11.4055
其中有精	-11.4057
元君曰	-11.406
故能長乆	-11.4063
厚三分	-11.4063
偃兵	-11.4065
虧盈	-11.4066
潔白	-11.4066
申徒	-11.4072
十八年	-11.4073
議論	-11.4074
何言哉	-11.4075
埏埴	-11.4077
之類是也	-11.4078
莫不由	-11.408
動其心	-11.4081
天之所惡	-11.4081
用其光	-11.4083
蜜丸	-11.4084
八尺	-11.409
開看	-11.4096
神祇	-11.4103
尤甚	-11.4122
百步	-11.4134
王屋	-11.4135
莊子之言	-11.4142
殺蟲	-11.4152
修習	-11.4159
度關	-11.4164
讓王	-11.4169
十四日	-11.4179
欣然	-11.4181
當願一切	-11.4187
搖	-11.4191
之鬼次收	-11.4195
縵	-11.4198
狶	-11.4198
券	-11.4201
柯	-11.4201
翰林	-11.4203
忝	-11.4204
吊	-11.4206
楮	-11.4206
塡	-11.4207
閡	-11.4207
六句	-11.4207
罄	-11.4207
濤	-11.4209
謳	-11.421
溉	-11.421
聾盲	-11.421
擎	-11.421
恰	-11.421
戕	-11.4212
螺	-11.4212
若畏四鄰	-11.4212
二十八宿	-11.4214
鍵	-11.4214
溥	-11.4214
伯夷叔齊	-11.4214
蚤	-11.4215
茵	-11.4215
埴	-11.4215
澡	-11.4216
羈	-11.4216
方而不割	-11.4216
指揮	-11.4216
治大國若烹小鮮	-11.4216
潮	-11.4216
攻堅强	-11.4217
質眞若渝	-11.4218
權衡	-11.4219
差忒	-11.4222
成黄金	-11.4225
西昇經云	-11.4226
蒼蒼	-11.4227
弊弊	-11.4236
無爲而治	-11.4243
學不學	-11.4243
浸一宿	-11.4244
首尾	-11.4245
胡粉	-11.4249
紏	-11.4251
不識不知	-11.4255
物之性	-11.4256
實録	-11.4261
學道之人	-11.4266
左契	-11.427
六律	-11.4272
喉中	-11.4274
掌教	-11.4275
龍漢	-11.4288
風波	-11.4289
幾於道	-11.4293
自恃	-11.4294
與之爭	-11.4295
愛其身	-11.4304
銘曰	-11.4308
陳迹	-11.4317
者其唯	-11.4324
三生萬物	-11.4327
肘後方	-11.4329
最靈	-11.4332
被髮	-11.4349
垂教	-11.4352
窅	-11.4353
聦	-11.4358
風雷	-11.4362
勝敵	-11.4363
柔順	-11.4369
孟孫陽	-11.4373
隰朋	-11.4375
擔	-11.4376
盍	-11.4377
捲	-11.4377
槃	-11.4378
殤	-11.4378
窪則盈	-11.4379
訴	-11.4379
蛟龍	-11.438
悠悠	-11.438
髀	-11.4382
葢	-11.4383
幕	-11.4384
莫大乎	-11.4385
蛾	-11.4386
袤	-11.4386
燼	-11.4386
覬	-11.4387
曼衍	-11.4387
炷	-11.4387
坯	-11.4388
大方無隅	-11.4389
喑	-11.4389
愛憎	-11.439
函谷關	-11.4391
聴	-11.4392
槌	-11.4392
衆人皆有以	-11.4393
催	-11.4394
失者同於失	-11.4394
不貴難得之貨使民不爲盜	-11.4394
瘍	-11.4394
牝常以靜勝牡	-11.4395
多則惑	-11.4395
達眞子曰	-11.4397
千里之行始於足下	-11.4398
第十六	-11.4398
營營	-11.44
不知其所以然	-11.44
是以不病	-11.44
太牢	-11.4401
在宥天下	-11.4407
南郭子	-11.4411
與道合眞	-11.4417
不見其形	-11.442
於其間哉	-11.4428
八寸	-11.4429
第十三	-11.4431
半升	-11.4434
作羹	-11.4435
口舌	-11.4436
紅色	-11.4444
施惠	-11.4444
空寂	-11.4449
丈餘	-11.445
武曲	-11.4453
少壯	-11.446
材器	-11.4465
芒硝	-11.4469
經歷	-11.4469
苦縣	-11.4474
以我爲	-11.4479
十六年	-11.4479
七遍	-11.4487
冷取出	-11.4489
民之迷	-11.4501
根源	-11.4515
可不慎	-11.4526
郭象注	-11.4531
左傳	-11.4535
無往不	-11.4537
庚寅	-11.4542
亦樂得之	-11.4552
昬	-11.4554
岱	-11.4554
枸杞	-11.4554
沓	-11.4555
芷	-11.4556
庖丁	-11.4556
禺	-11.4557
罏	-11.4557
鄒	-11.4558
欬	-11.4559
慊	-11.4559
枉則直	-11.456
柢	-11.4561
晃	-11.4561
湘	-11.4563
爲學日益	-11.4563
燦	-11.4565
淩	-11.4566
挑	-11.4567
慤	-11.4567
食醫心鏡	-11.4567
詩書禮樂	-11.4567
功成名遂	-11.4567
糜	-11.4569
諷	-11.4569
㧞	-11.4569
昉	-11.457
惰	-11.457
聽之不聞	-11.457
不祥之器	-11.4571
曠兮其若谷	-11.4571
處衆人之所惡	-11.4572
苴	-11.4572
長生久視	-11.4572
勇於不敢	-11.4573
我獨異於人	-11.4573
大道廢有仁義	-11.4573
方寸匕	-11.4574
不以智治國國之福	-11.4575
駢枝	-11.4577
執大象	-11.458
咽液	-11.4581
知者不言	-11.4586
一切衆生	-11.4587
無爲之益	-11.4597
未曾	-11.4598
愛利之	-11.4598
經緯	-11.46
切李云	-11.4608
一兩半	-11.4612
致虚極	-11.4622
儼然	-11.4623
凝滯	-11.4627
去彼取此	-11.4637
謙柔	-11.4648
總結	-11.4654
西戎	-11.4658
之所由生	-11.4662
惟恐	-11.4667
境界	-11.4677
如之何	-11.468
研匀	-11.4701
箇月	-11.471
祿	-11.4718
瞋	-11.4735
蜘蛛	-11.4736
三十輻共一轂	-11.4737
芫花	-11.4737
麾	-11.4738
虜	-11.4738
郵	-11.474
姤	-11.474
盪	-11.474
泮	-11.4743
青童	-11.4744
却走馬以糞	-11.4745
碌	-11.4745
善行無轍迹	-11.4746
袁	-11.4746
愉	-11.4747
兩不相傷	-11.4748
甓	-11.4748
擘	-11.4748
俎	-11.4748
濠	-11.4749
嘔逆	-11.4749
叨	-11.4749
經驗方治	-11.4751
直而不肆	-11.4751
不窺牖見天道	-11.4752
相去幾何	-11.4752
终	-11.4753
與天爲一	-11.4753
遨遊	-11.4753
賄	-11.4753
徼妙	-11.4753
不言而善應	-11.4753
天將救之以慈衛之	-11.4754
渾兮其若濁	-11.4755
道之全體	-11.4756
侯王若能守	-11.4757
距縣	-11.4759
舒王曰	-11.4759
蕤	-11.476
絞取汁	-11.4761
牡丹	-11.4761
殷湯	-11.4762
益筭	-11.4765
乙未	-11.4766
添汞	-11.4769
光輝	-11.4772
五痔	-11.4775
長幼	-11.4786
光耀	-11.4805
絞汁	-11.481
玉童	-11.4814
武都	-11.4814
念念	-11.4842
宫商	-11.4845
癬	-11.4849
某甲	-11.4854
稅	-11.4905
洞府	-11.4909
龍蛇	-11.491
譙	-11.4915
㳺	-11.4918
奔馳	-11.4922
懿	-11.4923
丕	-11.4924
字林云	-11.4924
辛酉	-11.4926
馨	-11.4927
迅	-11.4927
楮汁	-11.4928
矧	-11.4928
心若死灰	-11.4928
餒	-11.4928
惻	-11.4929
湮	-11.4929
倨	-11.4929
悼	-11.4929
自古以固存	-11.4929
當此之時	-11.4929
荆棘	-11.493
圜	-11.493
恬愉	-11.493
闘	-11.493
咀	-11.493
孰能與於此	-11.4931
瘰癧	-11.4932
繳	-11.4932
繹	-11.4932
美言不信	-11.4932
三日三夜	-11.4932
癭	-11.4933
噓	-11.4933
與化俱	-11.4933
其安易持	-11.4933
貶	-11.4933
二月八月採	-11.4934
猜	-11.4935
蚩尤	-11.4936
綬	-11.4936
吾不知其名字之曰道	-11.4936
璃	-11.4936
蹊	-11.4937
知足者富	-11.4937
長養萬物	-11.4937
復歸於樸	-11.4937
物壯則老是謂不道不道早已	-11.4938
謡	-11.4938
天之道利而不害	-11.4939
汪	-11.4939
德交歸	-11.494
形而上者	-11.494
鋤	-11.494
驕奢	-11.4942
瘙	-11.4942
失道而後德失德而後仁失仁而後義	-11.4942
土苴	-11.4944
道常無爲而無不爲	-11.4945
大隗	-11.4947
七枚	-11.4954
樂其俗	-11.4956
左手執	-11.496
營魄	-11.4961
五榖	-11.4964
有大毒	-11.4973
荘子	-11.4978
泰氏	-11.4998
爭競	-11.4999
詩書	-11.5
昇降	-11.5002
感而應	-11.5013
服一丸	-11.5013
天倪	-11.5015
老子之言	-11.502
破血	-11.5026
可不愼	-11.5041
幻化	-11.5054
志心朝禮	-11.507
乙巳	-11.5073
令尹	-11.5074
與道相	-11.5077
第十四	-11.5082
辟惡	-11.5095
鹽泥固濟	-11.5103
玉童玉女	-11.5104
繇	-11.5107
狠	-11.5112
瓦礫	-11.5112
辛卯	-11.5113
鬬	-11.5113
照臨	-11.5114
翣	-11.5114
蹢	-11.5114
䕶	-11.5115
辰砂	-11.5116
麽	-11.5116
矜誇	-11.5116
管夷吾	-11.5117
道法自然	-11.5117
俄頃	-11.5119
舂	-11.512
商太宰	-11.5121
天門開闔	-11.5121
扼	-11.5121
天下有始	-11.5122
拇	-11.5122
澆淋	-11.5123
繩墨	-11.5123
有物混成先天地生	-11.5123
陶冶	-11.5125
霹	-11.5125
痺	-11.5126
丸如梧桐子大	-11.5126
鳳凰	-11.5127
蔑	-11.5128
專氣致柔能如嬰兒乎	-11.5128
執古之道以御今之有	-11.5128
圈	-11.5129
擬議	-11.513
虎兕	-11.5131
道隱無名	-11.5132
不言之辯	-11.5132
沼	-11.5134
求諸己	-11.5134
奢泰	-11.5135
天門冬	-11.5136
驚悸	-11.5139
百家之	-11.5139
此兩句	-11.5142
不爭之德	-11.5143
飛騰	-11.5146
蘇恭	-11.5148
天下神器	-11.5149
紅銀	-11.5153
百六十	-11.5161
不可不爲	-11.5176
夢覺	-11.5209
相生相	-11.5215
劉向	-11.5218
累於物	-11.5274
愚之始	-11.5287
徽宗	-11.5292
𥐼	-11.5292
噀	-11.5293
頥	-11.5296
痕	-11.5297
弇	-11.5298
萇	-11.5298
再拜稽首	-11.5299
軿	-11.5301
俠	-11.5302
鼇	-11.5303
壙	-11.5304
無是無非	-11.5304
哭泣	-11.5304
訊	-11.5305
癸酉	-11.5305
愷	-11.5305
菰	-11.5306
瘢	-11.5307
篡	-11.5307
淸	-11.5307
戊戌	-11.5308
不可思議	-11.5309
有小毒	-11.531
十五年	-11.5312
芹	-11.5312
賁	-11.5312
剔	-11.5312
皂角	-11.5313
銛	-11.5314
頰	-11.5314
迥	-11.5314
攪匀	-11.5314
曬乾	-11.5315
郭注云	-11.5315
粟米	-11.5315
堇	-11.5315
雁	-11.5315
外其身而身存	-11.5315
癩	-11.5316
詬	-11.5316
妊娠	-11.5316
妍	-11.5316
聖人之道爲而不爭	-11.5317
其政察察其民缺缺	-11.5317
荒兮其未央哉	-11.5318
將欲取天下而爲之	-11.5318
吾何以知天下之然哉以此	-11.5319
以道蒞天下	-11.532
善戰者不怒	-11.532
愛民治國能無爲乎	-11.5321
疝	-11.5321
噬	-11.5321
萬物負陰而抱陽	-11.5321
飢渴	-11.5322
人之不善何棄之有	-11.5322
上義爲之而有以爲	-11.5323
甘其食	-11.5323
上仁爲之而無以爲	-11.5323
肝膽	-11.5323
不以多少	-11.5324
感而遂通天下之故	-11.5325
亭毒	-11.5328
蓮花	-11.5329
打破	-11.5329
窅然	-11.5333
乆服輕身	-11.5333
老翁	-11.5334
最佳	-11.534
合子内	-11.5343
何爲哉	-11.5346
玉晨	-11.5349
九月採	-11.5349
唯阿	-11.5351
在宥	-11.536
川谷及	-11.5374
佳兵	-11.5374
物得以生	-11.5388
西伯	-11.539
憂畏	-11.5405
無以知	-11.5448
大曰逝	-11.5477
產	-11.5489
㓕	-11.5495
畋	-11.5495
甆	-11.5495
僵	-11.5496
蜚	-11.5497
明窗塵	-11.5499
塚	-11.5499
黥	-11.5499
衣裳	-11.5501
熬令	-11.5503
頃刻	-11.5504
窶	-11.5504
粤	-11.5504
偊	-11.5504
百姓皆注其耳目	-11.5505
亳州	-11.5505
不亦難乎	-11.5505
鬰	-11.5506
揖讓	-11.5506
啻	-11.5506
凖	-11.5507
掖	-11.5507
無狀之狀	-11.5507
峙	-11.5507
生天生地	-11.5507
一萬事畢	-11.5508
嗅	-11.5508
劉蔣	-11.5508
執者失之	-11.5509
孳	-11.5509
紫石英	-11.5509
等分爲末	-11.551
萬乘之主	-11.5511
礪	-11.5511
憒	-11.5511
吾不知誰之子象帝之先	-11.5512
復歸於無極	-11.5512
驚癇	-11.5513
塞其兊	-11.5513
惛	-11.5513
古之所以貴此道者何	-11.5513
箸	-11.5514
一陰一陽之謂道	-11.5515
什伯之器	-11.5515
江海所以能爲百谷王者以其善下之	-11.5515
僣	-11.5516
鍼	-11.5517
金液還丹	-11.5517
軰	-11.5517
塞其兊閉其門	-11.5517
幾近也	-11.5518
垂拱	-11.5519
味辛温無毒主	-11.5522
不善人之所保	-11.5522
餘杭	-11.5523
下德爲之而有以爲	-11.5523
早晚	-11.5524
祈禱	-11.5524
射干	-11.5527
武當山	-11.5531
侍衛	-11.5539
右手執	-11.5539
謹請	-11.5549
第十五	-11.5552
夜卧	-11.5557
道本無名	-11.556
開胃	-11.5562
修煉	-11.5568
第七十	-11.5591
爲天下母	-11.5594
朴消	-11.5599
竹葉	-11.5602
疥癬	-11.5615
所以然者	-11.5626
未離乎	-11.5628
與物交	-11.5667
自然之分	-11.5672
巵	-11.5675
俏	-11.5686
媧	-11.5696
梳	-11.5699
形神俱妙	-11.57
錙	-11.5701
帷	-11.5702
旛	-11.5702
睫	-11.5704
阮	-11.5705
邠	-11.5706
知足不辱	-11.5706
弭	-11.5706
坼	-11.5707
天皇大帝	-11.5707
跂者不立	-11.5707
閽	-11.5707
鴉	-11.5707
嗌	-11.5707
相忘於江湖	-11.5708
關令尹喜	-11.5708
張君房	-11.5708
皁	-11.5708
藜蘆	-11.5709
稔	-11.5709
灰池	-11.5709
㝷	-11.5709
寒水石	-11.5709
賂	-11.571
燿	-11.5711
者此人先身	-11.5711
是以萬物莫不尊道而貴德	-11.5711
無可無不可	-11.5711
莫知其極可以有國	-11.5712
無思無慮	-11.5712
無名天地之始有名萬物之母	-11.5713
皆知善之爲善斯不善已	-11.5713
壊	-11.5713
妍醜	-11.5713
駢拇	-11.5713
簧	-11.5714
柔弱勝剛强	-11.5714
羸瘦	-11.5714
斡	-11.5715
爲者敗之	-11.5715
祁	-11.5715
爲無爲則無不治矣	-11.5716
絶仁棄義	-11.5716
張仲景	-11.5716
不見而名	-11.5716
輯	-11.5717
不召而自來	-11.5718
强名曰道	-11.572
芙蓉	-11.572
教誨	-11.5721
四海之内	-11.5722
搗篩	-11.5723
故能成其私	-11.5723
純純	-11.5723
殿宇	-11.5726
三月三日	-11.5729
毛髮	-11.5731
蜜調	-11.5737
夏禹	-11.5741
赤子之心	-11.5745
或問道	-11.5746
逍遥遊	-11.5759
不釋然	-11.577
巨勝	-11.5776
奇特	-11.5777
國之君	-11.5787
花紅	-11.5791
德之至	-11.5805
十萬人	-11.5819
不累於	-11.5847
能成其大	-11.5859
舶	-11.5899
蹍	-11.5899
色界	-11.5899
剌	-11.5903
壬寅	-11.5903
芴	-11.5904
視之不見聽之不聞	-11.5904
庚戌	-11.5904
瞳	-11.5905
盂	-11.5907
悚	-11.5908
皥	-11.5908
眥	-11.5908
殽	-11.5909
大巧若拙	-11.5909
汚	-11.591
重爲輕根	-11.5911
獨立而不改	-11.5911
蚋	-11.5912
身與貨孰多	-11.5912
憩	-11.5912
瘁	-11.5913
蔞	-11.5913
百姓日用而不知	-11.5914
蜣	-11.5914
受國之垢	-11.5914
薇	-11.5914
浹	-11.5914
淡泊	-11.5914
庚桑楚	-11.5914
禎	-11.5915
後其身而身先	-11.5916
稟	-11.5916
赤白痢	-11.5916
廣德若不足	-11.5916
眎	-11.5916
獺	-11.5916
朋友	-11.5916
周穆王	-11.5917
及吾無身吾有何患	-11.5917
奴婢	-11.5919
夫物芸芸	-11.5919
痼疾	-11.5919
明道若昧	-11.5919
善結無繩約而不可解	-11.592
柔弱者生之徒	-11.592
帶利劍	-11.592
强行者有志	-11.592
滌除玄覽能無疵乎	-11.5921
恬澹	-11.5921
生而不有爲而不恃	-11.5921
拾遺	-11.5921
湧泉	-11.5922
道者萬物之奥	-11.5922
御製	-11.5924
國家昏亂有忠臣	-11.5925
癰疽	-11.5926
卿大夫	-11.5926
民之難治以其智多	-11.5927
君臣父子	-11.5927
善人之寳	-11.5929
有小毒主	-11.5931
地祇	-11.5934
墮胎	-11.5939
兵戈	-11.594
歡喜	-11.5941
丘陵	-11.5942
乳香	-11.5947
無用之用	-11.5947
第十八	-11.595
二十五日	-11.5951
芝草	-11.5956
不道之道	-11.5959
唯有道者	-11.5972
年八十	-11.5975
風痹	-11.5991
十枚	-11.6002
莊子外篇	-11.6005
火逼	-11.6016
江淮	-11.6017
尹眞人	-11.6023
泥塗	-11.605
洗滌	-11.6061
借喻	-11.6077
籙籙中	-11.6087
皂莢	-11.6102
㡬	-11.6103
芩	-11.6104
粳米	-11.6104
冐	-11.6105
焰硝	-11.6106
祉	-11.6108
闉	-11.6109
嬴	-11.611
槽	-11.6111
井花水	-11.6112
涼	-11.6114
扎定	-11.6114
姝	-11.6114
蠲	-11.6114
弊則新	-11.6115
挂	-11.6116
隕	-11.6117
昆蟲	-11.6117
三伏時	-11.6118
烏梅	-11.6118
髯	-11.6118
聖人皆孩之	-11.6119
佯	-11.6119
守而勿失	-11.612
璇璣	-11.6121
宙	-11.6122
黜聰明	-11.6122
不如守中	-11.6122
環堵	-11.6122
其政悶悶	-11.6122
能爲百谷王	-11.6123
無象之象	-11.6124
崑	-11.6124
鏃	-11.6124
以奇用兵	-11.6124
其出彌遠其知彌少	-11.6124
歉	-11.6124
南華經曰古者	-11.6124
其次親之譽之	-11.6124
常無欲以觀其妙常有欲以觀其徼	-11.6125
滌除玄覽	-11.6125
保此道者不欲盈	-11.6125
損之而益	-11.6126
生之徒十有三死之徒十有三	-11.6126
功成而不居	-11.6126
含德之厚比於赤子	-11.6126
大國者下流	-11.6127
善勝敵者不爭	-11.6127
酆都	-11.6127
浩浩	-11.6127
揣而鋭之不可長保	-11.6128
不貴其師不愛其資	-11.6128
道之出口淡乎其無味	-11.6129
淫僻	-11.6131
厚一寸	-11.6131
虞舜	-11.6132
玄牝之門	-11.6133
致虚極守靜篤	-11.6135
反注同	-11.6135
百一十	-11.6136
發揮	-11.6137
結砂子	-11.6138
復其初	-11.6138
是以天下樂推而不厭	-11.6138
鍾鼓	-11.6139
碧落	-11.6141
温公曰	-11.6142
良醫	-11.6145
咽喉	-11.6148
琅玕	-11.6156
雷公云	-11.6158
桃花	-11.6163
四方上下	-11.6165
皇后	-11.6167
災害	-11.6168
萬物並作	-11.6173
無形無名	-11.6188
狼毒	-11.6213
歷劫	-11.622
》	-11.6267
《	-11.6269
戎馬	-11.6278
以物爲	-11.6279
遨	-11.6314
蹲	-11.6318
譆	-11.6321
黿	-11.6322
悍	-11.6322
蠐螬	-11.6323
西昇經	-11.6323
鴞	-11.6324
有憂色	-11.6324
戊申	-11.6325
戍	-11.6326
罩	-11.6327
鬱鬱	-11.6327
概	-11.6328
不離輜重	-11.6328
州刺史	-11.6329
辛亥	-11.6329
閎	-11.633
汋	-11.633
暝	-11.633
陳藏器	-11.633
不復重録	-11.6331
泆	-11.6331
淖	-11.6331
肢體	-11.6331
儵	-11.6332
滛	-11.6332
摭	-11.6333
撻	-11.6333
郁	-11.6334
善言無瑕謫	-11.6334
波斯國	-11.6334
頁	-11.6334
閏	-11.6335
雖有榮觀燕處超然	-11.6335
三萬六千	-11.6335
兜	-11.6335
逄	-11.6336
帀	-11.6336
叉	-11.6336
嗛	-11.6336
螻	-11.6337
瀨	-11.6337
四海之外	-11.6337
堊	-11.6337
楷	-11.6338
天下皆知美之爲美斯惡已	-11.6338
兑	-11.6339
擁腫	-11.6339
竦	-11.6339
筵	-11.6339
善建者不拔	-11.6339
黏	-11.634
知和曰常	-11.634
戚戚	-11.6341
楷模	-11.6341
行住坐卧	-11.6341
未央	-11.6342
緼	-11.6342
與物反矣	-11.6344
役使鬼神	-11.6344
復衆人之所過	-11.6345
兵者不祥之器	-11.6345
羊蹄	-11.6345
使民復結繩而用之	-11.6345
道生一一生二二生三三生萬物	-11.6345
五勞七傷	-11.6347
上德無爲而無以爲	-11.6348
有萬不同	-11.6348
菊花	-11.635
兕虎	-11.635
尤佳	-11.6352
與道同體	-11.6357
絶粒	-11.6359
澆淳	-11.6359
終身不勤	-11.6361
庚午	-11.6368
洗淨	-11.6368
萬杵	-11.6375
産後血	-11.6405
文火養	-11.6413
三十丸	-11.6428
所從出	-11.6455
第十七	-11.6469
糠火	-11.6498
㘽蓮	-11.6528
扎	-11.653
侗	-11.6532
北海若曰	-11.6535
見小曰明	-11.6537
榜	-11.6537
戊寅	-11.6537
以身觀身	-11.6539
冦	-11.654
躊躇	-11.654
熈	-11.654
幢	-11.6541
苣	-11.6542
楹	-11.6542
盱	-11.6544
丐	-11.6546
胚	-11.6546
諺	-11.6546
嘿	-11.6547
霓	-11.6548
彀	-11.6548
愕	-11.6549
純氣之守	-11.6549
鉗	-11.6549
松栢	-11.6549
耳目鼻口	-11.6549
金木水火土	-11.655
囘	-11.655
曏	-11.655
芻豢	-11.655
不出户知天下	-11.655
稽首再拜	-11.655
賦斂	-11.6551
消息盈虚	-11.6552
其不欲見賢	-11.6552
或利或害	-11.6553
鏌	-11.6553
自見者不明	-11.6553
彙	-11.6554
鶩	-11.6554
懺	-11.6556
驟雨	-11.6556
孰誰也	-11.6556
一以貫之	-11.6556
珮	-11.6556
唯施是畏	-11.6556
摳	-11.6556
故下文云	-11.6556
以無事取天下	-11.6557
筠	-11.6557
玄妙玉女	-11.6558
奉聖㫖	-11.6558
蝎	-11.6559
飄風驟雨	-11.6559
噉	-11.6559
麋鹿	-11.656
靜勝熱	-11.6561
娠	-11.6562
靄	-11.6562
故大國以下小國則取小國	-11.6563
奔走	-11.6564
大者宜爲下	-11.6564
煙霞	-11.6564
劄	-11.6565
失道而後德	-11.6565
勤儉	-11.6566
覆盆	-11.6566
咳逆	-11.6567
其中有信	-11.6568
是謂玄牝	-11.6568
欣欣	-11.657
珍寳	-11.657
孰知其極	-11.657
補五臟	-11.6571
不得已而後起	-11.6571
山福地眞人	-11.6572
牛糞	-11.6575
弄丸	-11.6575
坊	-11.6576
長春宫	-11.6576
孰得而	-11.6581
頓首	-11.6584
聖人不積	-11.6585
太史公	-11.659
皦	-11.6591
修道之士	-11.6595
慎勿	-11.6597
芒消	-11.6601
輟	-11.661
無思無爲	-11.6615
掌握	-11.6623
年七十	-11.6678
有如此者	-11.6694
東方青	-11.671
央	-11.6712
栩	-11.6759
㦸	-11.676
霖	-11.676
拓	-11.6762
桁楊	-11.6762
詒	-11.6762
丙戌	-11.6762
皋	-11.6763
丙申	-11.6763
者道之用也	-11.6767
冉	-11.6767
匣	-11.6769
齕	-11.677
五金八石	-11.677
咄	-11.6771
奬	-11.6771
孑	-11.6771
驁	-11.6771
兕	-11.6772
眯	-11.6772
杭	-11.6772
多言數窮	-11.6772
迪	-11.6773
逡巡	-11.6773
肅肅	-11.6774
耜	-11.6774
𥙷	-11.6774
撝	-11.6774
煨	-11.6775
肛	-11.6775
磚	-11.6775
人法地地法天天法道道法自然	-11.6775
爲之於未有	-11.6776
橘皮	-11.6776
常善救人	-11.6776
痃癖	-11.6776
知止不殆	-11.6777
有德司契	-11.6777
棠	-11.6777
歧	-11.6778
重積德則無不克	-11.6778
天下無道戎馬生於郊	-11.6778
腰膝	-11.6778
菟絲	-11.6779
攘無臂	-11.6779
死而不亡	-11.6779
爲之於未有治之於未亂	-11.6779
葫	-11.6779
我獨若遺	-11.6779
常無欲可名於小	-11.6779
其無以易之	-11.6779
衂	-11.6779
泔	-11.6779
循天之理	-11.678
澹泊	-11.6781
胸膈	-11.6781
柔之勝剛弱之勝强	-11.6782
六親不和有孝慈	-11.6782
鄉黨	-11.6782
脾胃	-11.6783
甲戌	-11.6783
殷勤	-11.6783
知常容	-11.6783
知人者智	-11.6784
廣聖義	-11.6784
執大象天下往	-11.6784
宋通直郎辨驗藥材寇宗奭編撰宋	-11.6785
夫禮者忠信之薄而亂之首	-11.6785
伏犧	-11.6787
千里之外	-11.6788
小國以下大國則取大國	-11.6788
六合之内	-11.6789
二十三日	-11.6789
絶仁棄義民復孝慈	-11.6791
銅器中	-11.6791
腹脹	-11.6792
舟輿	-11.6793
億兆	-11.6796
光明砂	-11.6806
浮腫	-11.6809
二十五年	-11.6817
陽子居	-11.6828
腫痛	-11.6848
谷神不死是謂玄牝	-11.6854
五十丸	-11.6864
䏻	-11.696
謹出太上正一	-11.6968
鐻	-11.6978
鹵莽	-11.6984
鹿角	-11.6987
罵	-11.6988
揉	-11.6994
謷	-11.6994
常善救物	-11.6994
燄	-11.6997
眉睫	-11.6999
和而不唱	-11.6999
芎藭	-11.7
潦	-11.7
浥	-11.7
碑銘	-11.7
臟腑	-11.7
蔣	-11.7
𩲸	-11.7
持而盈之	-11.7
鍜	-11.7001
貲	-11.7001
蝗	-11.7001
欄	-11.7002
絜	-11.7002
噲	-11.7002
橛	-11.7002
萬物恃之以生而不辭	-11.7002
評	-11.7003
鹵	-11.7003
梟	-11.7003
大辯若訥	-11.7004
臠	-11.7004
天道無親常與善人	-11.7004
建德若偷	-11.7004
修之身其德乃眞	-11.7004
虬	-11.7004
報怨以德	-11.7005
鷃	-11.7005
彷	-11.7005
偁	-11.7006
三十輻共一轂當其無有車之用	-11.7006
故次此章	-11.7006
奢侈	-11.7007
聖人無常心以百姓心爲心	-11.7007
亷	-11.7007
茄	-11.7007
將欲歙之必固張之	-11.7007
道可道非常道	-11.7007
迎之不見其首隨之不見其後	-11.7007
麻姑	-11.7008
常有司殺者殺	-11.7008
櫻	-11.7008
木强則共	-11.7009
勝人者有力	-11.7009
賛	-11.7009
道之眞以治身	-11.7009
吒	-11.7009
禹餘糧	-11.701
能知古始是謂道紀	-11.701
閩	-11.701
眷屬	-11.701
是以聖人去甚去奢去泰	-11.7011
癸亥	-11.7011
萬物並作吾以觀其復	-11.7011
猪肉	-11.7011
案明刋本	-11.7011
常德不離	-11.7012
季梁	-11.7012
絶巧棄利盜賊無有	-11.7012
見素抱樸少私寡欲	-11.7012
言有宗事有君	-11.7013
使我介然有知行於大道	-11.7014
耳目聰明	-11.7015
總管	-11.7017
泄痢	-11.7018
勢成之	-11.702
侯王若能守萬物將自化	-11.7021
礦	-11.7022
沌沌	-11.7034
逝曰遠	-11.7036
國之賊	-11.7036
包羅	-11.7036
美其服	-11.7044
曠然無	-11.7096
麝	-11.7201
廪	-11.7211
檳榔	-11.7215
辛丑	-11.7216
麴	-11.7221
守柔曰强	-11.7221
批	-11.7221
纒	-11.7222
鸇	-11.7222
専	-11.7222
丙寅	-11.7222
蘖	-11.7223
誶	-11.7223
涇	-11.7223
于僞反	-11.7224
喟	-11.7225
柤	-11.7225
陪	-11.7226
不亦悲乎	-11.7226
諌	-11.7226
萬物與我爲一	-11.7226
顛倒	-11.7227
漚	-11.7227
廕	-11.7228
昃	-11.7228
譜	-11.7228
陳蔡	-11.7228
泓	-11.7228
摻	-11.7228
硋	-11.7229
籬	-11.7229
聶	-11.723
閻	-11.723
轝	-11.723
其寢不夢	-11.723
塵垢之外	-11.7232
蜈蚣	-11.7232
㝢	-11.7232
摯	-11.7232
憯	-11.7232
其精甚眞其中有信	-11.7233
胠篋	-11.7233
以天下觀天下	-11.7233
窘	-11.7233
通乎物之所造	-11.7233
埃	-11.7233
周行而不殆	-11.7233
强爲之名曰大	-11.7233
儔	-11.7234
粃	-11.7234
獅	-11.7235
瀾	-11.7236
善人之資	-11.7236
雄黄雌黄	-11.7236
其微易散	-11.7237
𨥥	-11.7237
有無之相生	-11.7239
大直若屈	-11.7239
受國之垢是謂社稷主	-11.7239
朝甚除	-11.724
是以兵强則不勝	-11.724
吉事尚左凶事尚右	-11.724
知雄守雌	-11.7241
深根固蒂	-11.7241
執無兵	-11.7241
歸根曰靜靜曰復命	-11.7242
益生曰祥	-11.7242
殺人衆多以悲哀泣之	-11.7242
亦若是而已	-11.7243
下知有之	-11.7243
同於道者道亦得之	-11.7243
殁身不殆	-11.7243
細研如粉	-11.7244
腋	-11.7244
禹錫等按蜀本圖經云	-11.7245
洞靈經曰	-11.7245
勤而行之	-11.7245
黄疸	-11.7247
優游	-11.7247
以其言下	-11.7248
心使氣	-11.7252
容乃公	-11.7254
遊心於	-11.7255
薺	-11.7275
以其不自生	-11.7278
德乃豐	-11.7296
酒漬	-11.7423
秋豪	-11.7454
汰	-11.7455
節度使	-11.7457
忙	-11.7459
燮	-11.746
蠡	-11.7461
桎	-11.7462
淬	-11.7463
軼	-11.7463
喧	-11.7464
塩	-11.7465
笙	-11.7465
獨往獨來	-11.7465
紫微大帝	-11.7466
耨	-11.7466
你	-11.7467
衛靈公	-11.7467
奎	-11.7468
恪	-11.7468
金玉滿堂	-11.747
烹小鮮	-11.747
溟涬	-11.747
不如其已	-11.7471
聽之不聞名曰希	-11.7471
燠	-11.7471
箱	-11.7471
濮	-11.7471
笛	-11.7471
謟	-11.7471
道可道非常道名可名非常名	-11.7472
懃	-11.7473
漆園	-11.7473
無不克則莫知其極	-11.7474
鬳齋林希逸	-11.7474
顓	-11.7474
比於赤子	-11.7474
售	-11.7475
瘤	-11.7475
茫茫	-11.7476
髣髴	-11.7476
春生苗	-11.7476
故道大天大地大王亦大	-11.7477
脱於淵	-11.7477
上德若谷	-11.7477
穿鑿	-11.7478
歸根復命	-11.7478
鼠瘻	-11.7478
删	-11.7479
知此兩者亦楷式	-11.7479
善用人者爲之下	-11.7479
幘	-11.748
綿裹	-11.748
樂與餌過客止	-11.748
究竟	-11.7481
隠	-11.7481
䘒	-11.7482
治人事天	-11.7482
玷	-11.7482
五臓	-11.7483
沉淪	-11.7483
鹵鹹	-11.7483
以其不爭故天下莫能與之爭	-11.7483
杳杳	-11.7484
其用不窮	-11.7484
形而下者	-11.7488
化而欲作	-11.7488
蜀郡	-11.7489
利水道	-11.7495
小兒驚癇	-11.7509
温瘧	-11.7519
載營魄抱一能無離乎	-11.7568
候冷取出	-11.7582
抱一能無離	-11.7628
蓽	-11.7696
燋	-11.7702
歆	-11.7703
汜	-11.7703
綢繆	-11.7703
跣	-11.7705
蒐	-11.7705
幡	-11.7706
僥倖	-11.7707
郝	-11.7709
詘	-11.7709
纆	-11.7709
嬪	-11.771
翌	-11.771
未嘗過而問焉	-11.7711
溶	-11.7712
酣	-11.7713
剩	-11.7714
闋	-11.7714
惠盎	-11.7714
一尺二寸	-11.7714
頡	-11.7714
壼	-11.7715
猗	-11.7715
關楗	-11.7715
金玉滿堂莫之能守	-11.7716
申徒狄	-11.7716
受其殃	-11.7716
愀	-11.7716
成玄英	-11.7717
吾不知其名	-11.7717
侍郎	-11.7717
蔵	-11.7717
呬	-11.7717
道沖而用之	-11.7717
功曹使者	-11.7717
耒	-11.7718
三千六百	-11.7718
畜之長之育之成之熟之養之覆之	-11.7718
鬳	-11.7719
其政悶悶其民淳淳	-11.7719
生之所無以爲	-11.7719
垠	-11.772
勇於敢則殺勇於不敢則活	-11.772
漢武帝	-11.772
終而復始	-11.772
不可得而利不可得而害	-11.772
不可不察也	-11.772
建言有之	-11.7721
珊	-11.7721
代司殺者殺	-11.7721
道沖而用之或不盈	-11.7721
不知常妄作凶	-11.7721
其次畏之侮之	-11.7721
唯道是從	-11.7722
鞴	-11.7722
不失其所者乆	-11.7722
沖和之氣	-11.7722
旦夕	-11.7722
納竹筒中	-11.7723
躁勝寒	-11.7723
診	-11.7724
謌	-11.7724
巖穴	-11.7725
復歸其明	-11.7725
太醫助教辨驗藥材許洪校正	-11.7726
蝦蟆	-11.7726
無狀之狀無物之象	-11.7726
心之所念	-11.7727
浮屠	-11.7728
九日九夜	-11.773
果而勿强	-11.7731
愚癡	-11.7731
道乃乆	-11.7731
老萊	-11.7732
王乃天	-11.7732
及冤句	-11.7735
九轉還丹	-11.7737
與化爲人	-11.7737
所從來	-11.7785
庚桑	-11.7829
紛紜	-11.7867
硼	-11.794
桴	-11.7945
纂微司馬蘇曹	-11.7945
悞	-11.7945
霆	-11.7948
柰	-11.795
凱	-11.7951
鉅	-11.7953
鍮	-11.7954
簞	-11.7954
古之道術有在於是者	-11.7956
冑	-11.7956
抛	-11.7958
暘	-11.7958
八紘	-11.7958
荔	-11.7958
蒺藜	-11.7959
砥	-11.796
箋	-11.7961
騏	-11.7961
鯨	-11.7962
芸	-11.7962
惔	-11.7962
鞅掌	-11.7962
戊辰	-11.7963
馘	-11.7963
烝	-11.7963
乙酉	-11.7963
塑	-11.7964
寂兮寥兮	-11.7964
特未定也	-11.7964
常無欲以觀其妙	-11.7964
田子方	-11.7964
培	-11.7965
知其雄守其雌爲天下谿	-11.7966
綜	-11.7967
有國之母可以長乆	-11.7967
橘柚	-11.7967
萬物作而不辭	-11.7967
爲柱下史	-11.7968
迦	-11.7968
釡	-11.7968
榭	-11.7968
不爭而善勝	-11.7968
凋弊	-11.7968
蘇子由曰	-11.7968
是以聖人抱一爲天下式	-11.7968
以約爲紀	-11.7968
黄庭經云	-11.7969
天得一以清	-11.7969
藐	-11.7969
掣	-11.797
無轍迹	-11.797
牌	-11.7971
郭象註	-11.7972
雖有拱璧以先駟馬不如坐進此道	-11.7972
大小多少	-11.7973
智慧出有大僞	-11.7973
文子問曰	-11.7973
常德乃足	-11.7974
沿	-11.7974
范蠡	-11.7974
仍無敵	-11.7974
吾所以有大患者爲吾有身	-11.7975
一曰慈二曰儉三曰不敢爲天下先	-11.7976
前識者道之華而愚之始	-11.7976
上禮爲之而莫之應則攘臂而仍之	-11.7976
葉一行	-11.7976
鈎吻	-11.7977
黄帝九鼎神丹經訣卷	-11.7977
塵埃	-11.7977
毫毛	-11.7979
經新傳卷之	-11.798
貪狼	-11.7982
治身治國	-11.7988
所在有之	-11.7992
隴西	-11.8043
罪莫大於可欲	-11.8044
鯉	-11.8142
故授之以	-11.8182
父子兄弟	-11.8197
悗	-11.8202
五倍子	-11.8202
導諛	-11.8203
麥門冬	-11.8205
川椒	-11.8208
復扶又反	-11.8209
腴	-11.8209
與音餘	-11.8211
螳蜋	-11.8211
酆	-11.8212
頯	-11.8212
瑶池	-11.8213
混茫	-11.8214
棺槨	-11.8214
跨者不行	-11.8214
壬戌	-11.8215
宄	-11.8215
噎	-11.8215
𡨕	-11.8215
鮓	-11.8216
戊午	-11.8217
毓	-11.8218
萆	-11.8218
難易相成	-11.8218
賫	-11.8219
課	-11.8219
戎馬生於郊	-11.8219
枷	-11.8219
綱維	-11.822
酬酢	-11.822
天南星	-11.8221
瑕疵	-11.8221
至仁無親	-11.8221
畸	-11.8222
盥	-11.8222
矛	-11.8222
甄	-11.8222
傖	-11.8223
虺	-11.8223
部尚書	-11.8223
澶	-11.8223
知白守黑	-11.8223
伎巧	-11.8223
愠	-11.8223
終不爲大	-11.8223
餘食贅行	-11.8224
蕭炳云	-11.8224
苧	-11.8224
富貴而驕自遺其咎	-11.8224
庸詎	-11.8224
嗤	-11.8224
三蒼云	-11.8224
以百姓心爲心	-11.8224
忠信之薄	-11.8225
悮	-11.8225
蘧廬	-11.8226
搏之不得	-11.8226
物或惡之	-11.8226
無爲之有益	-11.8226
帝嚳	-11.8227
炬	-11.8227
寵爲下	-11.8227
師之所處荆棘生焉大軍之後必有凶年	-11.8227
是以聖人後其身而身先外其身而身存	-11.8227
交媾	-11.8228
瞿麥	-11.8228
民至老死不相往來	-11.8228
汁飲之	-11.8228
各當其分	-11.823
稍稍	-11.823
倖	-11.8231
民之從事常於幾成而敗之	-11.8232
往而不害安平泰	-11.8232
不知知病	-11.8233
古之善爲道者非以明民將以愚之	-11.8233
什伯	-11.8234
欵	-11.8234
君子居則貴左用兵則貴右	-11.8235
和其光同其塵	-11.8235
是以聖人被褐懷玉	-11.8235
拘攣	-11.8237
此章南華經	-11.8238
飄風暴雨	-11.8239
知與不知	-11.824
不自有其	-11.8241
將以愚之	-11.8242
道常無爲	-11.8243
海藻	-11.8243
馳騖	-11.8244
可名於小	-11.8245
尺許	-11.8257
錦帔	-11.8262
陛	-11.8443
志心敬禮	-11.8455
虚而不屈動而愈出	-11.8468
揵	-11.8468
殷紂	-11.847
刁	-11.847
何以知其然邪	-11.8471
嫗	-11.8474
硼砂	-11.8475
餔	-11.8475
邴	-11.8476
仆	-11.8477
狶韋氏	-11.8478
重陽祖師	-11.8478
撞	-11.8479
搶	-11.8479
菘	-11.8479
鐍	-11.848
兎	-11.8481
僉	-11.8481
胤	-11.8481
蹟	-11.8481
賑	-11.8482
龔	-11.8482
滔	-11.8482
聯	-11.8482
橡	-11.8482
嚙	-11.8482
躓	-11.8483
諍	-11.8483
守靜篤	-11.8483
夫何故以其生生之厚	-11.8484
踶	-11.8484
鏌鎁	-11.8485
蓬蒿	-11.8486
觜	-11.8486
虚室生白	-11.8487
冉冉	-11.8488
懦	-11.8488
寂泊	-11.8488
䟽此覆釋	-11.8488
兖	-11.8489
俗人昭昭	-11.8489
周而復始	-11.8489
太上下知有之	-11.8489
經驗後方治	-11.8489
深根寧極	-11.849
痞	-11.849
斟酌	-11.849
其日固乆	-11.849
妊	-11.8491
善用人者	-11.8491
釵	-11.8491
夫慈以戰則勝以守則固	-11.8491
善攝生者	-11.8491
虚而不屈	-11.8491
涣若冰將釋	-11.8491
㬠乾	-11.8491
地得一以寧	-11.8491
毒蟲不螫猛獸不據攫鳥不搏	-11.8492
我獨頑似鄙	-11.8492
祝融	-11.8493
挫其銳	-11.8493
强梁者不得其死	-11.8494
城隍	-11.8494
豈虚言哉	-11.8494
福善禍淫	-11.8495
錄	-11.8496
不行而至	-11.8497
舊不著所出州土	-11.8498
鞋	-11.8499
瓣	-11.8499
莨	-11.85
任萬物之自	-11.85
公乃王	-11.8503
口噤	-11.8504
若使民常畏死	-11.857
天乃道	-11.8587
天下之至柔馳騁天下之至堅	-11.87
無有入於無間	-11.8701
鴳	-11.8735
上仙上靈	-11.874
嘗試論之	-11.8742
黯	-11.8743
鐵銚	-11.8743
犁	-11.8743
焱	-11.8743
礴	-11.8744
癘	-11.8744
兌	-11.8746
豺	-11.8746
咫	-11.8746
芮	-11.8747
春夏秋冬	-11.8747
接上章	-11.8747
股肱	-11.8748
埏	-11.8748
塜	-11.8748
古之善爲士者	-11.8749
酸鹹	-11.8749
雹	-11.8749
錘	-11.8749
藹	-11.875
王子搜	-11.875
絶聖棄知	-11.875
纇	-11.875
掊	-11.875
列御寇	-11.875
葛仙翁	-11.8751
猫	-11.8751
耄	-11.8751
知北遊	-11.8752
縞	-11.8752
欒	-11.8752
罽賔	-11.8752
吾何以知其然哉	-11.8753
外臺秘要方治	-11.8753
棋	-11.8753
糟粕	-11.8753
體性抱神	-11.8754
非陰非陽	-11.8754
渚	-11.8755
洋洋	-11.8755
率性而動	-11.8755
痾	-11.8755
紳	-11.8755
敞	-11.8756
悸	-11.8756
弧	-11.8757
爲無爲事無事	-11.8757
跌	-11.8757
松柏	-11.8757
靜爲躁君	-11.8757
袂	-11.8758
文定曰	-11.8758
天無以清將恐裂地無以寧將恐發	-11.8758
天慶觀	-11.8758
故能成器長	-11.8759
扞	-11.8759
或行或隨	-11.8759
土苴以治天下	-11.8759
以戰則勝	-11.8759
知其白守其黑爲天下式	-11.8759
白石英	-11.8759
有國之母	-11.876
栝樓	-11.876
堅强者死之徒	-11.8761
以守則固	-11.8761
不可得而貴不可得而賤	-11.8761
故聖人云我無爲而民自化	-11.8761
蠅	-11.8761
嘔吐	-11.8761
高良薑	-11.8762
儼若客	-11.8762
俚	-11.8763
麩	-11.8763
不敢以取强	-11.8764
形變之始	-11.8764
輕則失臣躁則失君	-11.8764
不言之教無爲之益天下希及之	-11.8764
守藏史	-11.8764
天下之物生於有有生於無	-11.8765
古之善爲士者微妙玄通深不可識	-11.8765
鯤鵬	-11.8766
侯王若能守萬物將自賔	-11.8766
絶聖棄智民利百倍	-11.8766
玄天上帝	-11.8771
支離其德	-11.8774
各二人出	-11.8782
兵者不祥之器非君子之器	-11.8785
見張本舊作	-11.8796
靡所不	-11.881
十日成水	-11.8814
之總名	-11.8815
是謂微明	-11.8987
筍	-11.901
缾	-11.9017
羨	-11.9019
䧟	-11.902
渤海	-11.9022
滀	-11.9022
杞	-11.9023
鈃	-11.9023
押	-11.9024
惡音烏	-11.9024
旒	-11.9025
薺苨	-11.9027
虫	-11.9027
鱠	-11.9027
緬	-11.9027
鳳翔	-11.9028
溜	-11.9028
長短相形	-11.9029
有車之用	-11.903
懋	-11.903
跬	-11.903
尾閭	-11.903
焙	-11.903
墉	-11.9031
猥	-11.9031
鞅	-11.9031
慳	-11.9031
衄	-11.9031
陽起石	-11.9032
堆	-11.9032
剽	-11.9032
茗	-11.9032
隤	-11.9033
誙	-11.9033
祈禳	-11.9033
束縛	-11.9034
得與亡孰病	-11.9034
既知其子復守其母	-11.9034
巍	-11.9035
𣗳	-11.9035
蝨	-11.9035
鯽魚	-11.9036
萬物無以生將恐滅	-11.9036
前後之相隨	-11.9036
何思何慮	-11.9036
杳㝠	-11.9036
慝	-11.9037
儉故能廣	-11.9037
稼穡	-11.9037
田甚蕪	-11.9037
心凝形釋	-11.9037
蒞	-11.9038
拈	-11.9038
涿	-11.9038
使民重死而不遠徙	-11.9039
笥	-11.9039
勛	-11.904
絹袋盛	-11.904
天一生水	-11.904
是以大丈夫處其厚	-11.904
癤	-11.904
蜂蠆	-11.904
馥	-11.904
天下有始以爲天下母	-11.9041
妖孽	-11.9042
傚	-11.9042
萬物將自賔	-11.9042
令浥浥	-11.9043
飫	-11.9043
夫兩不相傷故德交歸焉	-11.9043
天台山	-11.9043
合抱之木生於毫末九層之臺起於累土	-11.9044
圖難於其易爲大於其細	-11.9046
顧歡曰	-11.9046
虚心實腹	-11.9047
味甘温無毒主	-11.9047
檗	-11.9048
如梧子	-11.9049
濾	-11.9049
蛔蟲	-11.9051
知不知上	-11.9051
吏官各二人出	-11.9059
萬八千	-11.9079
月採陰乾	-11.9247
▲	-11.9291
䝉	-11.9292
肢	-11.9297
以其無死地	-11.9304
寨	-11.9306
槢	-11.9307
死生亦大矣	-11.9308
聵	-11.9308
扉	-11.9308
有室之用	-11.931
溷	-11.9311
秦穆公	-11.9311
螻蟻	-11.9313
喚	-11.9313
芚	-11.9314
渺渺	-11.9314
逍	-11.9314
塞其兊閉其門終身不勤	-11.9314
膾	-11.9314
隄	-11.9315
嗌不嗄	-11.9315
楯	-11.9315
壷	-11.9316
大道汎兮	-11.9316
鼉	-11.9316
一陰一陽	-11.9316
於未亂	-11.9317
踴躍	-11.9317
如享太牢	-11.9317
隊	-11.9317
冬涉川	-11.9317
儋	-11.9318
肱	-11.9318
能無知乎	-11.9318
嶮	-11.9318
肴	-11.9319
通玄眞經卷之	-11.9319
其事好還	-11.9319
知其所由然	-11.932
澹漠	-11.932
琭琭	-11.932
衺	-11.932
匈	-11.932
咳	-11.9321
堵	-11.9321
這箇	-11.9321
吉凶與民同患	-11.9321
奇物滋起	-11.9321
鎚	-11.9321
韞	-11.9321
畋獵	-11.9321
懴悔	-11.9321
瘞	-11.9322
不自矜故長	-11.9322
天門開闔能無雌乎	-11.9323
一日一夜	-11.9323
大小多少報怨以德	-11.9323
唵	-11.9324
勞形怵心	-11.9324
隣	-11.9324
失其常然	-11.9324
組	-11.9324
彖	-11.9325
贅疣	-11.9325
棱	-11.9325
大國不過欲兼畜人小國不過欲入事人	-11.9325
夫惟不居是以不去	-11.9325
不敢爲主而爲客	-11.9325
天下神器不可爲也爲者敗之執者失之	-11.9325
新汲水	-11.9326
巒	-11.9326
一以靈谷得一以盈萬物得一以生	-11.9326
䑛	-11.9326
弁	-11.9326
天網恢恢疏而不失	-11.9327
胝	-11.9328
雒	-11.9329
失德而後仁	-11.933
禹錫云按日華子云	-11.933
天下將自正	-11.933
輔萬物之自然	-11.933
寒有毒主	-11.9331
耿	-11.9332
雷公云凡使勿用	-11.9334
林東曰	-11.9334
傷其手	-11.9342
秫	-11.959
娘	-11.959
及其有事不足以取天下	-11.959
以家觀家	-11.9591
蠙	-11.9592
芧	-11.9597
椄	-11.9598
坳	-11.96
鐔	-11.96
詛	-11.9602
擿	-11.9602
鶂	-11.9603
疋	-11.9603
翩	-11.9603
掊擊	-11.9604
啜	-11.9605
豬	-11.9605
誹	-11.9605
柩	-11.9606
蚊虻	-11.9606
謵	-11.9606
寥廓	-11.9606
阨	-11.9606
癸卯	-11.9607
菓	-11.9607
天下柔弱莫過於水	-11.9608
啍啍	-11.9608
巓	-11.9608
殂	-11.9609
淑	-11.9609
斡旋	-11.9609
于僞切	-11.961
齧	-11.961
翮	-11.9611
畎	-11.9611
陌	-11.9611
蘸	-11.9611
與接爲構	-11.9611
感物而動	-11.9611
籌策	-11.9611
屣	-11.9611
域中有四大	-11.9611
嵇	-11.9611
同焉皆得	-11.9612
駁	-11.9612
妙萬物而爲言	-11.9612
沖虚至德眞經解卷之	-11.9612
斄	-11.9612
若槁木之枝	-11.9613
飼	-11.9613
倐	-11.9613
日見恠	-11.9613
自遺其咎	-11.9613
食於母	-11.9614
至言去言	-11.9614
勞而無功	-11.9614
復守其母	-11.9614
我獨悶悶	-11.9615
神鬼神帝生天生地	-11.9615
無入而不自得	-11.9615
我獨若昏	-11.9615
無德司徹	-11.9616
補中益氣	-11.9616
鉞	-11.9616
存而不論	-11.9616
莫之爲而常自然	-11.9616
大威至矣	-11.9617
大道甚夷	-11.9617
神無以靈將恐歇谷無以盈將恐竭	-11.9617
紿	-11.9618
去智與故	-11.9618
夫惟不爭故無尤	-11.9618
勇於敢則殺	-11.9618
善抱者不脱	-11.9618
廳	-11.9619
瘖	-11.9619
昔之得一者	-11.962
悛	-11.962
禍兮福所倚福兮禍所伏孰知其極	-11.962
萬乘之	-11.962
不敢進寸而退尺	-11.962
與天合德	-11.9622
勝而不美	-11.9623
自知不自見自愛不自貴	-11.9623
失仁而後義	-11.9623
衾	-11.9624
瘟疫	-11.9624
不道早已	-11.9626
道德眞經玄德纂䟽卷之	-11.9629
王郭二眞	-11.9631
夷希微	-11.9631
善爲士者不武	-11.9632
故以身觀身以家觀家以	-11.9644
排膿	-11.9691
忒	-11.9696
道篇第	-11.977
難得之貨令人行妨	-11.9857
竺	-11.9866
杉	-11.989
車前子	-11.9891
查	-11.9896
窾	-11.9901
儛	-11.9901
璣	-11.9903
聒	-11.9903
飭	-11.9903
發乎天光	-11.9903
哇	-11.9906
栁	-11.9906
輳	-11.9908
氐	-11.9909
輻轂	-11.9909
㬰	-11.991
軻	-11.991
蠓	-11.9911
亦復如是	-11.9911
黷	-11.9912
歘	-11.9912
鸛	-11.9913
何棄之有	-11.9913
湛然常寂	-11.9913
鱔	-11.9914
其天守全	-11.9914
悃	-11.9914
逗	-11.9914
綉	-11.9914
痒	-11.9914
踊	-11.9914
厢	-11.9915
取足於身	-11.9915
頡滑	-11.9915
五味令人口爽	-11.9915
鐶	-11.9915
摸	-11.9915
故有道者不處	-11.9915
斧鉞	-11.9916
鵰	-11.9916
徭	-11.9916
倶	-11.9916
渦	-11.9916
絯	-11.9917
九月九日	-11.9917
憺	-11.9917
潞	-11.9917
視之不見名曰夷	-11.9918
萬壽宫	-11.9918
夷平也	-11.9918
豪傑	-11.9918
駡	-11.9918
吕惠卿註	-11.9918
不善者吾亦善之	-11.9919
大器晚成	-11.9919
歸根曰靜	-11.9919
桔	-11.9919
禹錫云按蜀本圖經云	-11.9919
疎	-11.9919
絶巧棄利	-11.9919
籤	-11.9919
天下希及之	-11.9919
啞	-11.992
椹	-11.992
常善救人故無棄人常善救物故無棄物	-11.992
爲天下谿常德不離復歸於嬰兒	-11.992
或下而取	-11.992
知足之足常足	-11.992
芘	-11.992
是以聖人執左契而不責於人	-11.992
和以天倪	-11.992
鴻烈解	-11.9921
雖智大迷	-11.9921
其未兆易謀	-11.9921
攘臂而仍之	-11.9921
挫其鋭解其紛和其光同其塵	-11.9922
緝	-11.9922
唯之與阿相去幾何善之與惡相去何若	-11.9922
名可名非常名	-11.9922
夫輕諾必寡信多易必多難	-11.9923
治人事天莫若嗇	-11.9923
埒	-11.9923
是謂襲常	-11.9923
荆棘生焉	-11.9924
汧	-11.9925
非以其無私耶故能成其私	-11.9925
治之於未亂	-11.9925
天門開闔能爲雌乎	-11.9925
故物或損之而益益之而損	-11.9925
釘	-11.9926
獐	-11.9927
勾踐	-11.9927
菱	-11.9927
虢	-11.9929
心使氣曰强	-11.9929
卞	-11.9931
下士聞道大笑之不笑不足以爲道	-11.9931
痛不可忍	-11.9932
峭	-11.9933
未之有也	-11.9936
善養生者	-11.9948
無所措其	-11.9955
萬四千	-12.0003
禍莫大於不知足	-12.0012
樂推而不厭	-12.0205
黛	-12.021
筐	-12.0214
好呼報反	-12.0215
縳	-12.0216
攓	-12.0216
荽	-12.0217
疸	-12.0217
汶	-12.0218
沍	-12.0218
慟	-12.0218
呪詛	-12.0218
劈	-12.0219
寘	-12.0219
靜之徐清	-12.0219
洫	-12.0219
茆	-12.0222
冗	-12.0222
藁	-12.0223
懟	-12.0223
駑	-12.0223
謐	-12.0223
嫉妬	-12.0224
舄	-12.0224
人生而靜天之性	-12.0225
禹錫云	-12.0226
强知之病	-12.0226
故天下莫能與之爭	-12.0226
駴	-12.0226
旄	-12.0226
爝	-12.0226
常道常名	-12.0226
贄	-12.0226
漻	-12.0226
踶跂	-12.0226
鏗	-12.0227
刷	-12.0228
罘	-12.0228
埳	-12.0228
嬌	-12.0229
梱	-12.0229
璞	-12.0229
廵	-12.0229
艷	-12.0229
嗒	-12.0229
竊竊然	-12.0229
北宫子	-12.0229
生生化化	-12.023
悵	-12.023
子孫祭祀不輟	-12.023
與天地合其德	-12.023
漆固口	-12.0231
凛	-12.0231
皷	-12.0231
昴	-12.0231
航	-12.0231
梏	-12.0231
資財有餘	-12.0231
與物委蛇而同其波	-12.0232
倉廪	-12.0232
上將軍處右	-12.0232
盃	-12.0232
詆	-12.0232
筦	-12.0232
偏將軍處左	-12.0232
蝦	-12.0233
牂	-12.0233
跛	-12.0233
明慎奉行如律令老君曰	-12.0234
迤	-12.0234
蒔	-12.0234
夫樂殺人者不可得志於天下	-12.0234
處上而人不重處前而人不害	-12.0234
䂓	-12.0235
甦	-12.0235
竽	-12.0235
耆艾	-12.0236
勇於不敢則活	-12.0236
揣而銳之	-12.0237
衹	-12.0237
無遺身殃	-12.0237
故不可得而親	-12.0238
紺	-12.0238
至三更	-12.0238
知者不博博者不知	-12.024
愼終如始則無敗事	-12.024
魚不可脱於淵國之利器不可以示人	-12.024
紊	-12.024
悽	-12.0241
赤松子	-12.0241
絶而棄之	-12.0241
故或下以取或下而取	-12.0242
牘	-12.0242
久服輕身	-12.0242
寮	-12.0243
見江南古藏本舊作	-12.0243
痔瘻	-12.0244
闐	-12.0245
道德眞經䟽義卷之	-12.0246
柚	-12.0247
說經臺	-12.0254
咎莫大於欲得	-12.0325
千九百	-12.0439
十有八	-12.0468
晬	-12.0503
麋	-12.0524
開其兊濟其事終身不救	-12.0526
東郭先生	-12.053
㡭	-12.0531
葉二行	-12.0534
罨	-12.0536
荑	-12.0536
槍	-12.0537
魍魎	-12.0538
贖	-12.0538
紗	-12.0538
扵	-12.0539
蹵	-12.054
缶	-12.054
衽	-12.0541
屠羊說	-12.0541
譔	-12.0543
盎	-12.0543
訝	-12.0543
涘	-12.0543
誚	-12.0543
販	-12.0544
衿	-12.0544
粢	-12.0544
倩	-12.0545
禧	-12.0545
呉	-12.0545
觚	-12.0545
摶之不得	-12.0547
簾	-12.0547
攺	-12.0547
不將不迎	-12.0548
蕎麥	-12.0548
昏昏默默	-12.0548
袐	-12.0548
形全精復	-12.0549
卹	-12.0549
躔	-12.055
自伐者無功	-12.055
拏	-12.055
梁惠王	-12.055
纊	-12.0551
靳	-12.0551
温伯雪子	-12.0551
愛以身爲天下	-12.0552
不自是故彰	-12.0552
嚇	-12.0553
南伯子葵	-12.0553
菟	-12.0553
能長且乆	-12.0553
行下孟切	-12.0554
以閲衆甫	-12.0554
注焉而不滿酌焉而不竭	-12.0554
氾	-12.0554
靜曰復命	-12.0554
是故甚愛必大費多藏必厚亡	-12.0554
長於上古	-12.0555
斑猫	-12.0555
玲瓏	-12.0555
骨肉都融	-12.0555
人之道則不然損不足以奉有餘	-12.0555
有罪以免耶	-12.0556
知止所以不殆	-12.0556
鈇	-12.0556
数	-12.0556
腠	-12.0556
擯	-12.0556
是謂行無行	-12.0556
簣	-12.0557
無瑕謫	-12.0557
善閉無關楗而不可開	-12.0557
菁	-12.0557
長短之相形	-12.0557
豫若冬涉川	-12.0558
离	-12.0558
民至老死	-12.0558
此三者不可致詰故混而爲一	-12.0558
長之育之	-12.0558
鑊	-12.0558
天之道不爭而善勝	-12.0558
無始無終	-12.0559
同於德者德亦得之同於失者失亦得之	-12.0559
次前者前章	-12.0561
陸行不遇兕虎	-12.0561
夜半子時	-12.0561
强梁者不得其死吾將以爲教父	-12.0563
兩者各得其所欲故大者宜爲下	-12.0564
臚	-12.0564
知不知上不知知病	-12.0564
物得以生謂之德	-12.0564
斗門方治	-12.0565
亦可單用	-12.0565
吾言甚易知甚易行天下莫能知莫能行	-12.0566
帝君臣等至心歸命	-12.0567
俗人昭昭我獨若昏俗人察察我獨悶悶	-12.0567
疵癘	-12.0568
怳惚	-12.0568
聖人亦不傷人	-12.0569
見張本舊闕	-12.0589
嚴君平	-12.0824
巿	-12.0854
庶人之劍	-12.086
圍於陳蔡	-12.0866
之精也一名	-12.0866
逍遙	-12.0866
駝	-12.0868
絖	-12.0869
讁	-12.0869
銀石器中	-12.0871
悪	-12.0871
鷂	-12.0872
皿	-12.0872
鈐	-12.0872
𦍙	-12.0873
不射之射	-12.0873
艽	-12.0874
卜筮	-12.0874
有器之用	-12.0874
體合於心	-12.0875
魒	-12.0876
鑰	-12.0877
蕪菁	-12.0877
讙	-12.0878
郄	-12.0878
庻	-12.0879
枸	-12.088
噐	-12.088
蓏	-12.088
璇	-12.0881
翰林學士	-12.0881
邢	-12.0881
開其兊	-12.0881
塞兊閉門	-12.0882
渥	-12.0882
仰觀俯察	-12.0882
織而衣	-12.0882
闗	-12.0883
檻	-12.0883
鴆	-12.0883
寂兮寥兮獨立而不改周行而不殆	-12.0883
臛	-12.0883
孰能以有餘奉天下	-12.0883
除情去欲	-12.0884
睛	-12.0884
如彈丸	-12.0884
宎	-12.0884
汒	-12.0884
是以君子終日行不離輜重	-12.0884
難終難窮	-12.0885
萹	-12.0885
其知彌少	-12.0885
裸	-12.0885
然後乃至大順	-12.0885
誼	-12.0885
人貌而天	-12.0885
攢	-12.0885
聞善攝生者陸行不遇兕虎入軍不被甲	-12.0886
畿	-12.0886
常生常化	-12.0886
噏	-12.0886
善者不辯辯者不善	-12.0886
疫癘	-12.0887
葡萄	-12.0887
自極七息	-12.0887
知者不博	-12.0887
推功於物	-12.0887
不可得志於天下	-12.0887
龐	-12.0887
或載或隳	-12.0888
扆	-12.0889
美言可以市	-12.0889
樸散則爲器聖人用之則爲官長	-12.0889
𩲃	-12.0889
崗	-12.0889
吾是以知無爲之有益	-12.089
萬物皆備於我	-12.089
嬉	-12.089
之得一者天得一以清地得一以寧神得	-12.089
彝	-12.0891
褚	-12.0892
是以聖人爲腹不爲目故去彼取此	-12.0892
柔之勝剛	-12.0892
坦然而善謀	-12.0892
夫唯不爭故天下莫能與之爭	-12.0892
不欲琭琭如玉落落如石	-12.0892
喝	-12.0893
水善利萬物而不爭處衆人之所惡	-12.0893
以其上食税之多	-12.0893
𡨋	-12.0893
難易之相成	-12.0894
邕	-12.0894
以爲人己愈	-12.0894
梭	-12.0894
故善人不善人之師不善人善人之資	-12.0895
是謂用人之力是謂配天古之極	-12.0896
吾不敢爲主而爲客不敢進寸而退尺	-12.0897
胼	-12.0897
此三者以爲文不足故令有所屬	-12.0897
是以聖人欲不欲不貴難得之貨學不學	-12.0899
瓤	-12.0899
醪	-12.09
鬲	-12.09
月十八日	-12.0904
樸雖小天下不敢臣	-12.0905
爪兵無所容其刃夫何故以其無死地	-12.0916
』	-12.1156
繕	-12.1205
愿	-12.1214
朵	-12.1215
隼	-12.1216
窈窈冥冥	-12.1218
螢	-12.1219
呻吟	-12.1219
捽	-12.1219
多藏必厚亡	-12.1219
躑躅	-12.122
動之徐生	-12.122
随	-12.122
縢	-12.122
煌煌	-12.1221
嶠	-12.1221
繚	-12.1221
掲	-12.1221
形諜成光	-12.1221
與造物者遊	-12.1222
䧺	-12.1222
傀	-12.1222
柘	-12.1222
俘	-12.1223
圾	-12.1223
萑	-12.1223
蝍蛆	-12.1224
斵	-12.1224
戯	-12.1224
纎	-12.1224
耎	-12.1224
行年六十而六十化	-12.1224
藺	-12.1224
膻	-12.1225
蛭	-12.1225
上德不德是以有德	-12.1226
躁則失君	-12.1226
甌	-12.1226
而貴食母	-12.1227
本來妙心	-12.1227
迎之不見其首	-12.1227
人哭亦哭	-12.1227
懾	-12.1227
楸	-12.1227
仿	-12.1227
物而不慴	-12.1228
善者吾善之	-12.1228
蘧伯玉	-12.1228
飂	-12.1228
罝	-12.1228
其動若水	-12.1228
榛	-12.1228
紈	-12.1228
䰢	-12.1228
匐	-12.1228
隨之不見其後	-12.1228
洞霄宫	-12.1228
乂	-12.1229
而以身輕天下	-12.1229
見賢遍反	-12.1229
其精甚眞	-12.123
淡乎其無味	-12.123
以人滅天	-12.123
天之道其猶張弓乎	-12.123
怍	-12.123
菹	-12.123
三百八十四	-12.123
德至同於初	-12.123
不自伐故有功	-12.123
海藥云謹按	-12.1231
忱	-12.1231
爲天下谷爲天下谷常德乃足復歸於樸	-12.1231
諔	-12.1231
㸔	-12.1231
不可得而親不可得而疏	-12.1232
柔勝剛弱勝强	-12.1232
爲天下式常德不忒復歸於無極	-12.1232
同出而異名	-12.1232
陞	-12.1233
簪	-12.1233
卉	-12.1233
天道無親	-12.1233
磅礴	-12.1233
扔	-12.1233
智周萬物	-12.1234
延年益壽	-12.1234
道之尊德之貴	-12.1235
深根固蔕	-12.1235
笏	-12.1235
以道佐人主者不以兵强天下其事好還	-12.1235
吐故納新	-12.1235
圉	-12.1235
無古無今	-12.1235
常知楷式是謂玄德	-12.1235
或强或羸	-12.1235
餳	-12.1235
似無所止	-12.1236
鶚	-12.1236
善者果而已	-12.1236
涅	-12.1237
與陽同波	-12.1237
天下難事必作於易天下大事必作於細	-12.1237
不如坐進此道	-12.1238
呷	-12.1238
皆知善之爲善	-12.1238
燒作灰	-12.1238
肪	-12.1238
建之以常無有	-12.1239
繟然而善謀	-12.1239
天下莫能知莫能行	-12.1239
金玉滿堂莫之能守富貴而驕自遺其咎	-12.1239
釅	-12.124
人之所教亦我義教之	-12.1241
純粹而不雜	-12.1241
澈	-12.1242
如梧桐子	-12.1243
見江南古藏本舊闕	-12.1243
嘗又與來明日又與之見壺子	-12.1246
菀	-12.1249
今按别本注云	-12.125
德者同於德	-12.1252
高者抑之下者舉之有餘者損之不足者	-12.1319
天之道損有餘補不足	-12.1325
馳騁田獵令人心發狂	-12.152
亡過某	-12.1556
溫	-12.1559
文惠君	-12.1566
滂	-12.1569
詵	-12.1569
行下孟反	-12.1573
浦	-12.1574
白玉蟾	-12.1575
可以盡年	-12.1575
子午卯酉	-12.1575
枋	-12.1576
坂	-12.1576
擠	-12.1576
遘	-12.1577
廟堂之上	-12.1577
賅	-12.1577
烘	-12.1578
吹萬不同	-12.1578
已乎已乎	-12.1578
臣有道於此	-12.1578
擦	-12.1579
瑋	-12.1579
搥	-12.158
六十四卦	-12.158
䜴	-12.158
天下多忌諱而民彌貧	-12.158
眡	-12.1581
自本自根	-12.1581
合氣於漠	-12.1582
窩	-12.1582
斁	-12.1582
大無不包	-12.1582
蒭	-12.1582
名者實之賔	-12.1582
塋	-12.1583
抉	-12.1583
舜以天下讓	-12.1583
近取諸身	-12.1584
緜	-12.1584
殛	-12.1584
志乎期費	-12.1584
道尊德貴	-12.1585
状	-12.1585
膲	-12.1585
無何有之鄉	-12.1586
氣形質具而未相離	-12.1586
潄	-12.1586
褊	-12.1587
槖	-12.1587
蘘	-12.1587
修之國其德乃豐修之天下其德乃普	-12.1588
自本自根未有天地自古以固存	-12.1588
市南宜僚	-12.1588
上士聞道勤而行之	-12.1588
掾	-12.1589
故貴以身爲天下若可寄天下	-12.1589
穎濱蘇轍曰	-12.1589
所以能長且乆者以其不自生故能長生	-12.1589
道生之德畜之物形之勢成之	-12.159
廣利方治	-12.159
蠕	-12.159
安平泰	-12.159
而貴求食於母	-12.159
不以故自持	-12.1591
天下皆謂我道大似不肖	-12.1591
徤	-12.1591
董氏曰	-12.1591
川谷之與江海	-12.1591
刈	-12.1591
諄諄	-12.1592
覧	-12.1592
使心不亂	-12.1592
暄	-12.1592
沂	-12.1592
民自富	-12.1593
翱	-12.1593
餮	-12.1593
道生之德畜之	-12.1593
㕮咀	-12.1593
𤺋	-12.1593
榻	-12.1594
嘶	-12.1594
荐	-12.1594
樸散則爲器	-12.1594
故堅强者死之徒柔弱者生之徒	-12.1594
怙	-12.1595
利而不害	-12.1595
抗兵相加	-12.1595
得之若驚失之若驚是謂寵辱若驚	-12.1595
虵	-12.1596
孰能濁以靜之徐清	-12.1596
美言可以市尊行可以加人	-12.1597
䵟	-12.1597
乘乘兮若無所歸	-12.1597
傷寒類要	-12.1597
炁四十九口吹	-12.1597
博大眞人	-12.1597
曰吾惡乎知之	-12.1599
知足不辱知止不殆可以長乆	-12.1599
我愚人之心也哉純純兮	-12.1599
蚛	-12.1599
萬物負陰而抱陽冲氣以爲和	-12.1599
非以其無私邪故能成其私	-12.1599
蘅	-12.16
瞰	-12.16
楊氏産乳	-12.1601
搉	-12.1601
上士聞道勤而行之中士聞道若存若亡	-12.1604
無名之朴	-12.1605
痂	-12.1607
諠	-12.1607
水之潘爲淵	-12.1608
楓	-12.1612
二十四三十六三十	-12.1615
荘	-12.1859
高者抑之下者舉之	-12.1864
漉	-12.1882
凢	-12.1888
縁於不得已	-12.1918
軦	-12.1921
馬牙硝	-12.1934
脤	-12.1939
町	-12.1939
揲	-12.1941
聆	-12.1941
蒯	-12.1942
翺	-12.1943
闈	-12.1943
哽	-12.1943
瀵	-12.1944
餽	-12.1945
丸如菉豆大	-12.1946
諄	-12.1946
躅	-12.1947
歅	-12.1948
巋	-12.1949
耘	-12.1949
五千餘言	-12.195
敬聞命矣	-12.195
兵兕無所投其角虎無所措其	-12.1951
伏龍肝	-12.1951
噭	-12.1951
以百姓爲芻狗	-12.1951
䕃	-12.1952
猶兮其貴言	-12.1952
煒	-12.1952
藏天下於天下	-12.1952
稊稗	-12.1953
爲腹不爲目	-12.1953
流浪生死	-12.1953
捜	-12.1953
以國觀國	-12.1953
曵	-12.1953
魭	-12.1954
是以侯王自謂孤寡不穀	-12.1954
裁非之義	-12.1954
惛然若亡而存	-12.1954
呌	-12.1954
俗學以求復其初	-12.1954
螟	-12.1955
姻	-12.1955
箴	-12.1955
用其光復歸其明	-12.1956
可以託天下	-12.1956
既得其母以知其子	-12.1956
唯之與阿	-12.1956
深根固柢	-12.1956
驎	-12.1956
楞	-12.1957
褚氏管見	-12.1957
蜜陀僧	-12.1957
豫兮若冬涉川	-12.1958
其政察察	-12.1958
伽	-12.1958
剡	-12.1958
頊	-12.1958
桶	-12.1959
果而勿矜	-12.1959
熔	-12.196
孛	-12.1961
覈	-12.1961
玄者天之色	-12.1961
不就利不違害	-12.1961
愛以身爲天下若可託天下	-12.1961
信者吾信之不信者吾亦信之德信	-12.1961
號而不嗄	-12.1961
婉	-12.1962
天尊地卑	-12.1962
人以其言下之欲先人以其身後之	-12.1962
出而謂列子曰	-12.1962
不處其薄居其實不居其華故去彼取此	-12.1963
不榮通不醜窮	-12.1963
故抗兵相加哀者勝矣	-12.1964
强大處下柔弱處上	-12.1964
知我者希	-12.1965
草木之生也柔脆其死也枯槁	-12.1965
常有欲以觀其徼	-12.1965
狐剛子	-12.1965
鄉觀鄉以國觀國以天下觀天下	-12.1965
或下以取	-12.1965
神得一以靈	-12.1966
吾得執而殺之	-12.1966
終日號而嗌不嗄和之至	-12.1967
挫其銳解其紛和其光同其塵	-12.1967
機發於踵	-12.1967
搰	-12.1968
域中有四大而王居其一焉	-12.1968
誠惶誠恐稽首	-12.197
萬物將自化	-12.197
璨	-12.1972
爻三十時加至	-12.1973
蒡	-12.1975
鎰	-12.1976
癮	-12.1979
非以明民	-12.198
奪之必固與之是謂微明	-12.2041
而爲奇者吾得執而殺之孰敢	-12.2076
知其所以然	-12.213
將欲奪之必固與之	-12.2268
沌	-12.2286
騖	-12.2306
莒	-12.2317
豎	-12.232
惡能正之	-12.232
僓	-12.232
涽	-12.2321
稊	-12.2322
凄	-12.2324
鷦	-12.2325
遡	-12.2326
擴	-12.2326
涬	-12.2328
蟪蛄	-12.2328
摽	-12.2329
栝	-12.2329
杼	-12.233
虻	-12.233
塼	-12.233
謦	-12.233
物物而不物於物	-12.233
鍔	-12.2331
婪	-12.2331
斟	-12.2332
裒	-12.2332
傘	-12.2333
葭	-12.2333
黼黻	-12.2333
蔔	-12.2333
棒	-12.2334
芨	-12.2334
軾	-12.2335
魘	-12.2335
與天地合德	-12.2336
訞	-12.2336
縶	-12.2336
公閲休	-12.2337
玉虚師相玄天上帝	-12.2337
撃	-12.2337
様	-12.2338
蚉	-12.2338
相視而笑	-12.2338
䛕	-12.2338
蝡	-12.2338
茲	-12.2338
無上三天玉司正法律曰十方天人	-12.2338
豨	-12.2338
塵垢粃糠	-12.2338
潑	-12.2339
諮	-12.2339
獷	-12.2339
目不妄視	-12.234
佇	-12.234
肋	-12.234
虗	-12.234
鯀	-12.2341
醷	-12.2341
菲	-12.2341
無端之紀	-12.2341
檄	-12.2341
良賈深藏若虚君子盛德容貌若愚	-12.2341
寞	-12.2341
泡	-12.2341
笱	-12.2342
繙	-12.2342
隩	-12.2342
入灰缸	-12.2342
天下莫柔弱於水而攻堅强者莫之能先	-12.2342
痼	-12.2343
迸	-12.2343
愜	-12.2343
除垢止念	-12.2343
大道汎兮其可左右	-12.2343
常因自然而不益生	-12.2343
猶兮若畏四鄰	-12.2343
宂	-12.2344
有天下而不與	-12.2344
愴	-12.2345
貿	-12.2345
猶其貴言	-12.2345
萬物皆往資焉而不匱	-12.2345
鎸	-12.2345
参	-12.2345
山無蹊隧澤無舟梁	-12.2345
日甲一月	-12.2346
瀹	-12.2347
上士聞道章第四十一	-12.2347
天下之至柔章第四十三	-12.2347
柔勝剛	-12.2347
此合喻也	-12.2347
岫	-12.2347
高三四尺	-12.2348
罾	-12.2348
縑	-12.2348
倉甚虚	-12.2348
將欲廢之必固興之	-12.2348
湍	-12.2349
楫	-12.2349
陸希聲曰	-12.2349
民之難治以其上之有爲是以難治	-12.2349
鯁	-12.2349
稱物平施	-12.2349
猛獸不據	-12.2349
咳逆上氣	-12.2349
誠全而歸之	-12.235
天地相合以降甘露	-12.235
何謂寵辱寵爲下	-12.235
况於人乎	-12.235
纛	-12.235
此兩者或利或害天之所惡孰知其故	-12.235
騷	-12.2351
知美之爲美	-12.2351
膂	-12.2351
恁	-12.2351
運而無所積	-12.2351
甘其食美其服安其居樂其俗	-12.2352
擺	-12.2352
慎終如始則無敗事	-12.2352
債	-12.2352
㤀	-12.2353
泌	-12.2353
蔗	-12.2353
蜍	-12.2354
弱之必固强之將欲廢之必固興之將欲	-12.2354
方而不割廉而不劌直而不肆光而不耀	-12.2355
上將軍居右	-12.2356
吾將以爲教父	-12.2356
易知易行	-12.2357
入軍不被甲兵	-12.2358
天地相合以降甘露人莫之令而自均	-12.236
太上玄靈北斗本命延生	-12.2361
復衆人之所過以輔萬物之自然而不敢	-12.2363
德不德是以有德下德不失德是以無德	-12.2372
蠍	-12.2374
鴝	-12.2708
鮒	-12.2709
天地之間其猶橐籥乎	-12.2715
騞	-12.2718
佹	-12.2719
橈	-12.2721
洴	-12.2723
冩	-12.2726
媾	-12.2726
糺	-12.2728
豳	-12.2729
墊	-12.2729
螳螂	-12.2729
治直吏反	-12.2729
宇泰定	-12.273
㓗	-12.273
躑	-12.2731
寒爐取出	-12.2731
秦始皇	-12.2731
匆	-12.2732
簷	-12.2732
歐	-12.2732
楝	-12.2732
菔	-12.2732
叩齒三通	-12.2733
勲	-12.2733
吻	-12.2733
畚	-12.2734
輾	-12.2734
則婦姑	-12.2734
坏	-12.2734
矉	-12.2734
溼	-12.2734
殯	-12.2734
壺丘子林	-12.2735
鏑	-12.2735
聿	-12.2735
墀	-12.2735
嘷	-12.2735
籩	-12.2735
胈	-12.2736
翶	-12.2736
伯成子高	-12.2736
璋	-12.2736
揄	-12.2736
潼	-12.2738
毳	-12.2738
麄	-12.2738
煌	-12.2738
蹻	-12.2738
黶	-12.2738
一化之所待	-12.2739
衆父父	-12.2739
胥易技係	-12.274
長於上古而不爲老	-12.274
噦	-12.274
艶	-12.274
受天下之垢	-12.274
遺物離人	-12.274
訂	-12.274
故從事於道者	-12.2741
𩵄	-12.2741
窈兮冥兮其中有精	-12.2742
垛	-12.2742
豢	-12.2743
其脆易破	-12.2743
滕	-12.2743
故令有所屬	-12.2743
鋣	-12.2743
善爲士者	-12.2744
瘵	-12.2744
鐃	-12.2744
其安易持章第六十四	-12.2745
夫唯不爭故無尤	-12.2745
善者吾善之不善者吾亦善之德善	-12.2745
崐崘	-12.2745
自强不息	-12.2745
淡乎無味	-12.2745
持而盈之章第九	-12.2746
修之家其德乃餘修之鄉其德乃長	-12.2746
廖	-12.2746
果而勿伐	-12.2747
故從事於道者道者同於道德者同於德	-12.2747
晞	-12.2747
陳景元	-12.2747
穉	-12.2748
視之不足見聽之不足聞	-12.2748
人之所惡唯孤寡不穀而王公以爲稱	-12.2748
用之不可旣	-12.2748
樠	-12.2748
使我介然章第五十三	-12.2749
道之爲物惟恍惟惚	-12.2749
大事必作於	-12.2749
夫物芸芸各復歸其根	-12.2749
之所謂曲則全者豈虚言哉誠全而歸之	-12.2749
天之所惡孰知其故	-12.2749
谷得一以盈	-12.2749
禍莫大於輕敵	-12.275
人之道則不然	-12.275
人之生也柔弱其死也堅强	-12.275
人多伎巧奇物滋起	-12.275
道生一章第四十二	-12.275
令人目盲五音令人耳聾五味令人口爽	-12.2751
橰	-12.2751
侯王得一以爲天下正	-12.2752
菪	-12.2752
功成不名有	-12.2753
上德不德章第三十八	-12.2753
蟯	-12.2753
箠	-12.2754
懷道抱德	-12.2754
吾言甚易知甚易行	-12.2754
砌	-12.2754
夫代大匠斲希有不傷其手矣	-12.2756
蓯蓉	-12.2757
天長地久	-12.2757
漕	-12.2759
蓂	-12.2803
谷神不死是謂玄牝玄牝之門是謂天地	-12.302
峕	-12.3121
孀	-12.3133
芫	-12.3138
廚	-12.3138
迓	-12.314
鷯	-12.3141
渙	-12.3141
晷	-12.3142
皯	-12.3143
鋏	-12.3143
喁	-12.3144
蒴藋	-12.3144
蚹	-12.3144
桑螵蛸	-12.3145
鬛	-12.3146
曳尾於塗中	-12.3146
埏和也埴	-12.3146
蘁	-12.3147
與日月參光	-12.3147
蹩躠	-12.3148
漲	-12.3149
劬	-12.3149
瑠	-12.3149
杪	-12.3149
檐	-12.315
褥	-12.315
蹉	-12.315
掉	-12.3151
叚	-12.3152
穫	-12.3152
赧	-12.3152
顫	-12.3152
痀	-12.3152
𩳐	-12.3152
拄	-12.3152
落落如石	-12.3152
爚	-12.3153
錠	-12.3153
百姓皆謂我自然	-12.3153
幅	-12.3153
蠆	-12.3153
撒	-12.3153
黬	-12.3153
覷	-12.3154
丸如麻子大	-12.3154
盼	-12.3154
餉	-12.3154
國之利器不可以示人	-12.3155
薫	-12.3155
儘	-12.3155
届	-12.3155
收視反聽	-12.3156
見張君房本舊作	-12.3156
受國不祥	-12.3156
道德眞經取善集卷之	-12.3156
麓	-12.3156
自是者不彰自伐者無功自矜者不長	-12.3156
嶷	-12.3157
楚莊王	-12.3158
蛄	-12.3158
瘀	-12.3158
葂	-12.3158
覿	-12.3158
五色令人目盲	-12.3158
樟	-12.3159
正容悟物	-12.3159
道可道章第一	-12.3159
爲天下渾其心	-12.3159
不疾而速不行而至	-12.3159
豈不惑哉	-12.3159
瀘	-12.316
不自是故彰不自伐故有功不自矜故長	-12.3161
同乎無知其德不離	-12.3161
芻爲狗	-12.3161
天下皆知章第二	-12.3161
非君子之器	-12.3161
蕩蕩乎民無能名	-12.3162
鶵	-12.3162
道生之章第五十一	-12.3162
馬巨濟曰	-12.3162
愛養萬物而不爲主	-12.3162
畤	-12.3163
刄	-12.3163
兩者各得其所欲	-12.3163
眚	-12.3163
遣之又遣	-12.3164
腸風瀉血	-12.3164
我有三寳保而持之	-12.3164
覦	-12.3164
我愚人之心也哉	-12.3165
聖人不病以其病病是以不病	-12.3165
玄聖素王	-12.3165
令人肥健	-12.3165
勺	-12.3166
正復爲奇	-12.3166
夫佳兵者不祥之器	-12.3166
不得已而用之恬淡爲上	-12.3167
夫惟不厭是以不厭	-12.3167
雖有舟輿無所乘之	-12.3168
能陰能陽	-12.3168
夫亦將知止	-12.3168
知人者智章第三十三	-12.3168
用兵有言章第六十九	-12.3169
兕無所投其角	-12.3169
近道處處有	-12.3169
和大怨章第七十九	-12.317
知者不言章第五十六	-12.317
憔	-12.317
旣以與人己愈多	-12.317
執言滯教	-12.317
韜光晦迹	-12.317
不限多少	-12.3171
輕身耐老	-12.3171
努	-12.3171
吾言甚易知章第七十	-12.3172
蛀	-12.3174
駙	-12.3178
琉	-12.318
蒓	-12.3192
之至柔馳騁天下之至堅無有入於無間	-12.3257
其無正邪	-12.3353
堥	-12.3555
五嶽四瀆	-12.3562
鰻	-12.357
阪	-12.3571
用鉛不用鉛	-12.3572
黮	-12.3575
鬐	-12.3576
麈	-12.358
鋼	-12.358
僑	-12.358
燎	-12.358
吾不知誰之子	-12.358
知之所無奈何	-12.3581
笠	-12.3581
如春登臺	-12.3582
耰	-12.3582
去起吕反	-12.3582
俋	-12.3582
怫	-12.3583
攦	-12.3584
筮	-12.3584
崩中帶下	-12.3584
複	-12.3585
春秋冬夏	-12.3585
眴	-12.3585
葳	-12.3586
素樸而民性得矣	-12.3586
善人不善人之師	-12.3586
椽	-12.3587
鷽	-12.3587
堤	-12.3588
呺	-12.3588
黼	-12.3588
魓	-12.3588
賒	-12.3588
蘩	-12.3588
𫝊	-12.3588
胜	-12.3589
燁	-12.3589
衙	-12.359
内聖外王	-12.359
莪	-12.359
惺	-12.359
元嘉本作	-12.3591
鞠	-12.3591
羖	-12.3592
六通四闢	-12.3592
福兮禍所伏	-12.3592
禆	-12.3593
厦	-12.3593
其於道也曰餘食贅行	-12.3593
道隱於小成	-12.3593
晡	-12.3593
蜃	-12.3593
不曰求以得	-12.3593
蓋聞善攝生者	-12.3593
春生夏長	-12.3593
吾何以知衆甫之然哉	-12.3593
詩大雅	-12.3594
不獨親其親	-12.3594
鑚	-12.3594
膍	-12.3594
搔	-12.3594
不笑不足以爲道	-12.3595
嗃	-12.3595
天何言哉四時行焉百物生焉	-12.3595
邉	-12.3595
鵷	-12.3595
㓜	-12.3596
吷	-12.3596
蒹	-12.3596
庾	-12.3596
仙童玉女	-12.3596
滲	-12.3596
受國之不祥是謂天下王	-12.3597
受國不祥是謂天下王	-12.3597
騾	-12.3597
聖人無常心章第四十九	-12.3597
匍	-12.3597
官天地府萬物	-12.3598
胲	-12.3598
具茨之山	-12.3598
治人事天章第五十九	-12.3598
大盈若冲其用不窮	-12.3598
天道虧盈而益謙	-12.3598
薨	-12.3598
是以聖人不行而知不見而名不爲而成	-12.3599
譯	-12.3599
繟	-12.3599
不欲以靜天下將自正	-12.3599
地道變盈而流謙	-12.3599
譬道之在天下猶川谷之與江海	-12.3599
砧	-12.36
罯	-12.36
輕諾必寡信	-12.36
栅	-12.36
幾喪吾寳	-12.36
高下之相傾	-12.36
其政悶悶章第五十八	-12.3601
夷道若類	-12.3601
勝而不美而美之者是樂殺人	-12.3601
品物流形	-12.3601
戛	-12.3601
趺	-12.3601
荼	-12.3601
鄆	-12.3601
玄中大法師	-12.3601
虚其心實其腹弱其志强其骨	-12.3602
蔽於一曲	-12.3602
天覆地載	-12.3603
抑高舉下	-12.3603
民不畏威則大威至	-12.3603
一闔一闢	-12.3603
故有無之相生難易之相成長短	-12.3605
夫唯病病是以不病	-12.3606
三十輻章第十一	-12.3606
魑	-12.3606
能知古始	-12.3606
机	-12.3606
梢	-12.3607
温有毒主	-12.3611
寅時卯時辰時巳時午時	-12.3618
罪莫大於可欲禍莫大於不知足咎莫	-12.3901
南華真經卷第	-12.3992
臥	-12.4003
蒟	-12.4019
華胥氏之國	-12.402
洺	-12.4021
蓑	-12.4022
柳下季	-12.4023
蛇蚹蜩翼	-12.4024
貟	-12.4027
幷	-12.4029
何容心哉	-12.4031
㘽	-12.4032
迍	-12.4032
引之盈貫	-12.4032
善刀而藏	-12.4033
舐	-12.4034
嵐	-12.4034
倕	-12.4035
造乎不形	-12.4036
軹	-12.4036
齋心服形	-12.4037
泗	-12.4037
詈	-12.4037
飡	-12.4037
粧	-12.4037
解音蟹	-12.4038
伋	-12.4038
揜	-12.4039
胄	-12.4039
蚩	-12.4039
週	-12.4039
茯	-12.4039
狌	-12.4039
渟	-12.4039
阫	-12.404
合異以爲同	-12.404
赤張滿稽	-12.404
早服謂之重積德	-12.4041
秖	-12.4041
霏	-12.4041
鎻	-12.4041
敲	-12.4041
不以利累形	-12.4041
满	-12.4041
畀	-12.4041
生於陵而安於陵	-12.4041
埏埴以爲器	-12.4042
愽	-12.4043
䋲	-12.4043
其在兹乎	-12.4043
法令滋彰	-12.4044
詩小雅	-12.4044
徉	-12.4044
赭	-12.4044
太初者氣之始	-12.4045
薯	-12.4045
卑以自牧	-12.4045
㫁	-12.4045
繭	-12.4045
蹎	-12.4045
有乎生而莫見其根	-12.4045
榔	-12.4046
善計不用籌策	-12.4046
形而上者謂之道形而下者謂之器	-12.4046
吸風飲露	-12.4046
宕	-12.4046
蝮	-12.4047
示之以未始出吾宗	-12.4047
雛	-12.4048
琪	-12.4048
商角徵羽	-12.4048
馳騁天下之至堅	-12.4048
中士聞道若存若亡	-12.4048
霽	-12.4049
慼	-12.4049
壠	-12.4049
赫胥氏	-12.4049
邸	-12.4049
玄德深矣遠矣	-12.4049
大直若屈大巧若拙大辯若訥	-12.405
齏	-12.405
偎	-12.405
搢	-12.405
其上不皦其下不昧	-12.405
躁勝寒靜勝熱清靜爲天下正	-12.405
奂	-12.4051
鋟	-12.4051
人皆取先己獨取後	-12.4051
滿招損謙受益	-12.4052
知其白守其黑	-12.4052
以正治國以奇用兵以無事取天下	-12.4052
破癥結	-12.4053
劉涇曰	-12.4053
夫惟不爭故天下莫能與之爭	-12.4053
髢	-12.4053
既以與人己愈多	-12.4053
本經不載所出州土	-12.4053
黠	-12.4053
霍亂轉筋	-12.4053
罅	-12.4053
犠	-12.4053
骨弱筋柔	-12.4054
陬	-12.4054
謙以自牧	-12.4054
假設疑問	-12.4054
未知牝牡之合	-12.4054
難事必作於易	-12.4054
多易必多難	-12.4054
與陰同德	-12.4054
古之善爲道章第六十五	-12.4055
氈	-12.4055
廉而不劌	-12.4055
合抱之木生於毫末	-12.4055
道無問問無應	-12.4056
張沖應曰	-12.4056
受國之不祥	-12.4056
服文采帶利劍厭飲食	-12.4056
痩	-12.4056
閤	-12.4056
薏苡人	-12.4056
劉惟永	-12.4057
惟施是畏	-12.4058
不計時候	-12.4058
劉仲平曰	-12.4058
雲行雨施	-12.4058
是謂盜誇	-12.4059
古之善爲士章第十五	-12.4059
未知牝牡之合而䘒作	-12.406
未始出其宗	-12.406
譊	-12.406
稽首禮謝	-12.4064
知我者希則我者貴	-12.4065
蝙	-12.4065
鰥	-12.4066
萼	-12.4071
醍	-12.4074
地之間其猶橐籥乎虚而不屈動而愈出	-12.4081
芭	-12.4083
天下常以無事及其有事不足以取天下	-12.4091
柑	-12.4118
埏埴以爲器當其無有器之用	-12.437
以鄉觀鄉	-12.448
雱	-12.4491
軱	-12.4494
監河侯	-12.4496
靚	-12.4499
貉	-12.45
蠛	-12.4502
方矢復寓	-12.4507
懌	-12.4509
犍	-12.4509
慹	-12.451
雩	-12.451
獼	-12.4511
杷	-12.4511
尓	-12.4514
笞	-12.4515
徨	-12.4515
洿	-12.4515
爲善無近名	-12.4515
譖	-12.4516
謑	-12.4518
紬	-12.4518
葈	-12.4518
瀟	-12.4518
逭	-12.4518
油然不形而神	-12.4518
疱	-12.4519
安時處順	-12.4519
既以爲人己愈有既以與人己愈多	-12.4519
洼	-12.452
惘	-12.4521
不日求以得	-12.4521
自是而非彼	-12.4521
狥	-12.4521
倮	-12.4521
琰	-12.4522
將欲歙之章第三十六	-12.4522
數車無車	-12.4522
無狹其所居無厭其所生	-12.4523
大器晩成	-12.4523
猵	-12.4523
遹	-12.4524
不欲琭琭如玉	-12.4524
澠	-12.4524
鷗	-12.4524
未嘗生未嘗死	-12.4524
塊然獨以其形立	-12.4524
石龍芮	-12.4525
殗	-12.4525
飄風不終朝驟雨不終日孰爲此	-12.4525
裒多益寡	-12.4525
凭	-12.4525
縻	-12.4525
是以聖人不行而知	-12.4526
故致數輿無輿	-12.4526
用其光復歸其明無遺身殃是謂襲常	-12.4526
碁	-12.4526
瘑	-12.4526
簳	-12.4526
道不可言言而非也	-12.4527
萬物作焉而不辭	-12.4527
魁𩲃𩵄䰢魓𩳐魒	-12.4527
鞍	-12.4527
覕	-12.4527
勗	-12.4527
䃣	-12.4527
莛	-12.4528
若肖乆矣其細也夫	-12.4528
不生者能生生	-12.4528
劾	-12.4528
逶	-12.4528
莫之爵而常自然	-12.4528
筯	-12.4528
小國不過欲入事人	-12.4529
螂	-12.4529
民之輕死以其求生之厚	-12.4529
臰	-12.4529
江海爲百谷王章第六十六	-12.4529
癱	-12.453
夫唯大故似不肖	-12.453
盛德容貌若愚	-12.453
符用黃帛五寸右	-12.453
棧	-12.453
蛣	-12.4531
以濡弱謙下爲表	-12.4531
代大匠斵	-12.4531
以閲衆甫吾何以知衆甫之然哉以此	-12.4531
恙	-12.4532
居不知所爲行不知所之	-12.4532
岐山之陽	-12.4532
荏	-12.4532
今按陳藏器本草云	-12.4533
視之不足見聽之不足聞用之不可既	-12.4533
我有三寳寳而持之	-12.4533
拽	-12.4534
吼	-12.4534
儉故能廣不敢爲天下先故能成器長	-12.4534
彤	-12.4535
魚不可脱於淵	-12.4535
帽	-12.4535
玃	-12.4535
知我者希則我貴矣	-12.4536
五日爲一候	-12.4537
瑰	-12.4537
集驗方治	-12.4537
衆人熙熙如享太牢如登春臺	-12.4539
孰能安以乆動之徐生	-12.4539
殭	-12.4539
癃	-12.454
莎	-12.4542
鄂	-12.4543
端坐生腰	-12.4546
正復爲奇善復爲妖	-12.4732
鑿户牖以爲室	-12.487
蜳	-12.4989
螴	-12.4989
跈	-12.4991
腊	-12.4992
慿	-12.4998
蠸	-12.5
韙	-12.5001
嚆	-12.5003
迢	-12.5005
相類門第	-12.5006
觭	-12.5007
父慈子孝	-12.5008
姓某上表	-12.5009
惡烏路切	-12.5009
砉	-12.501
係華蓋道場	-12.501
普天大醮	-12.5011
開度亡過某靈魂	-12.5011
曬	-12.5011
禁攻寢兵	-12.5011
臊	-12.5011
信者吾信之	-12.5012
菉	-12.5014
無所逃於天地之間	-12.5014
聏	-12.5014
其應若響	-12.5015
愔	-12.5015
超凡入聖	-12.5015
吾不知其誰之子象帝之先	-12.5016
潢	-12.5016
囷	-12.5016
長於水而安於水	-12.5016
陁	-12.5018
棣	-12.5018
夷道若纇	-12.5018
黄茂村曰	-12.5018
掬	-12.5019
北極眞武普慈度世法懴卷之	-12.5019
將欲弱之必固强之	-12.5019
芰	-12.502
帖	-12.502
輐	-12.502
曄	-12.5021
𢎞	-12.5021
堯舜禹湯	-12.5021
跐	-12.5021
噆	-12.5021
此其以賤爲本邪非乎	-12.5021
𧵥	-12.5021
道生德畜	-12.5021
嫡	-12.5021
犿	-12.5021
醨	-12.5022
瞞	-12.5022
從水之道而不爲私	-12.5022
舘	-12.5022
娑	-12.5022
鵂	-12.5023
絪	-12.5023
挐	-12.5023
不藏是非美惡	-12.5024
若嬰兒之未孩	-12.5024
侯王得一以爲天下貞	-12.5024
妣	-12.5024
如嬰兒之未孩	-12.5024
故今身爲人	-12.5024
邱	-12.5024
㳙	-12.5024
元和遷校府	-12.5024
阡	-12.5025
坐在立亡	-12.5025
嗑	-12.5025
楗	-12.5025
駮	-12.5025
道德眞經衍義手鈔卷之十	-12.5026
水仙源録卷之	-12.5026
名與身孰親身與貨孰多得與亡孰病	-12.5027
無物不然無物不可	-12.5027
搗羅爲末	-12.5028
惚兮恍兮其中有象	-12.5028
五音令人耳聾	-12.5028
武王伐紂	-12.5028
腓	-12.5029
槿	-12.5029
恡	-12.5029
宋王元澤傳	-12.5029
誸	-12.5029
某誠惶誠恐稽首頓首再拜上言	-12.5029
從本降迹	-12.5029
聖人用之則爲官長	-12.503
二月八月採根暴乾	-12.503
吾以觀其復	-12.503
恍兮惚兮其中有物	-12.503
末酒服方寸七	-12.503
大盈若沖其用不窮	-12.503
樅	-12.503
奧	-12.5031
鎗	-12.5031
萬物恃之以生	-12.5031
未知牝牡之合而䘒作精之至也	-12.5031
茜	-12.5032
南華眞經循本卷之二十	-12.5032
圖經衍義本草卷之十	-12.5032
通於一而萬事畢	-12.5032
凝遠大師常德路玄妙觀	-12.5032
蠧	-12.5033
頷	-12.5033
前朝奉大夫	-12.5033
蚕	-12.5033
夫惟病病是以不病	-12.5033
果而勿驕	-12.5034
圖經衍義本草卷之三十	-12.5034
圖經衍義本草卷之二十	-12.5034
我獨怕兮其未兆如嬰兒之未孩	-12.5035
夫惟不可識故强爲之容	-12.5035
聽之不聞名曰希搏之不得名曰微	-12.5036
果而不得已是果而勿强	-12.5037
綟	-12.5038
無有室之用故有之以爲利無之以爲用	-12.5039
夫唯無以生爲者是賢於貴生	-12.504
太上老君混元上德皇帝	-12.5042
螘	-12.5042
蘋	-12.5042
恊	-12.5043
申時酉時戌時亥時子時	-12.5046
野馬塵埃	-12.5046
苕	-12.5046
唐玄宗御製道德眞經䟽卷之	-12.505
碢	-12.5056
甥	-12.5057
器當其無有器之用鑿户牖以爲室當其	-12.5185
取天下常以無事	-12.5504
狃	-12.5511
义	-12.5513
臓	-12.5515
蕘	-12.5519
䕡	-12.5521
墠	-12.5521
大道甚夷而民好徑	-12.5527
醢	-12.5528
牆	-12.5529
仵	-12.553
搽	-12.553
縉	-12.553
蝟	-12.5531
刦	-12.5533
餞	-12.5533
縠	-12.5533
兩火養三日	-12.5534
跫	-12.5535
跰	-12.5536
隨變任化	-12.5536
窖	-12.5536
隍	-12.5537
撤	-12.5537
離力智反	-12.5538
硏	-12.5539
一與言爲二二與一爲三	-12.5539
鼓盆而歌	-12.5539
㓂	-12.554
屛	-12.554
下德不失德是以無德	-12.554
抹	-12.5541
使人輕乎貴老	-12.5541
卬	-12.5541
西方庚辛金	-12.5542
霈	-12.5542
焚符破璽	-12.5543
簡要濟衆方治	-12.5544
募	-12.5544
披髮跣足	-12.5544
凰	-12.5544
德又下衰	-12.5544
睥	-12.5545
兩臂重於天下	-12.5545
有乎出而莫見其門	-12.5545
骰	-12.5546
璉	-12.5546
湛兮似若存	-12.5546
奈何萬乘之主而以身輕天下	-12.5546
闞	-12.5546
九老仙都君	-12.5546
聞其風而悦之	-12.5546
蕷	-12.5546
糵	-12.5547
溞	-12.5547
薾然疲役	-12.5547
長丁丈反	-12.5547
故貴以身爲天下	-12.5547
萱	-12.5548
窢	-12.5548
曇	-12.5548
天地所以能長且乆者	-12.5548
其息深深	-12.5548
捏	-12.5549
兩者交通成和而物生焉	-12.5549
眺	-12.5549
暁	-12.5549
逮德下衰	-12.5549
行賢而去自賢之行	-12.555
煴	-12.5551
謹按修眞第	-12.5551
歃	-12.5551
愼終如始	-12.5551
濳	-12.5553
閃	-12.5553
大國以下小國	-12.5553
禍兮福所倚	-12.5553
蹈火不熱行乎萬物之上而不慄	-12.5553
遄	-12.5553
子孫以祭祀不輟	-12.5554
篦	-12.5554
儕	-12.5554
濬	-12.5554
天下莫柔弱於水	-12.5554
窬	-12.5554
嵬	-12.5555
以博溺心	-12.5555
惹	-12.5555
垍	-12.5555
蜎	-12.5556
窿	-12.5556
駸	-12.5556
跟	-12.5556
蘼	-12.5556
泝	-12.5557
垓	-12.5557
先天地生而不爲乆長於上古而不爲老	-12.5557
塔	-12.5557
天地之於萬物聖人之於百姓	-12.5558
飄風不終朝驟雨不終日	-12.5558
椏	-12.5558
翏	-12.5558
别說云謹按	-12.5559
尊行可以加人	-12.5559
處前而人不害	-12.556
眞武靈應眞君	-12.556
惋	-12.556
攤	-12.556
恵	-12.556
故能爲百谷王是以聖人欲上	-12.5561
窈窈㝠㝠	-12.5561
太府寺簿兼	-12.5561
徊	-12.5562
禹錫云謹按藥性論云	-12.5562
螯	-12.5563
目擊道存	-12.5564
訕	-12.5565
形高下之相傾音聲之相和前後之相隨	-12.5566
定乎内外之分	-12.5566
陳士良云	-12.5567
屐	-12.5568
収	-12.5568
名之樸亦將不欲不欲以靜天下將自正	-12.5569
八月採根陰乾	-12.557
笄	-12.5575
崔元亮海上方	-12.5575
道之尊德之貴夫莫之爵而常自然	-12.5995
》、《	-12.6031
之鬼符猒	-12.6049
纂微蘇曹	-12.6064
虎無所措其爪兵無所容其刃	-12.6068
朝甚除田甚蕪倉甚虚	-12.6073
雚	-12.6074
翂	-12.6074
翐	-12.6074
大將軍九人出	-12.6082
黣	-12.6082
綮	-12.6084
躇	-12.6085
甸	-12.6086
措杯水其肘上	-12.6089
以外鎮人心	-12.6089
閶	-12.609
羆	-12.609
匏	-12.6091
𤓰	-12.6091
熖	-12.6091
䘏	-12.6091
𠂻	-12.6092
鑿户牖以爲室當其無有室之用	-12.6092
善游者數能	-12.6093
琊	-12.6093
蒻	-12.6093
袪	-12.6093
蛆	-12.6094
驩	-12.6094
窨	-12.6094
薢	-12.6096
弅	-12.6096
慣	-12.6096
蕊	-12.6096
吡	-12.6096
枲	-12.6096
朂	-12.6096
稗	-12.6097
隰	-12.6098
屹	-12.6098
縊	-12.6098
萬物皆出於機皆入於機	-12.6098
憧	-12.6098
磷	-12.6099
大中祥符	-12.6099
揣而鋭之	-12.6099
鴯	-12.6099
庚道集卷之	-12.6099
睽	-12.61
未嘗死未嘗生	-12.61
其熱焦火	-12.61
蜋	-12.61
鑾	-12.61
自利利他	-12.61
体	-12.61
混元聖紀卷之	-12.61
帆	-12.6101
才全而德不形	-12.6101
蕨	-12.6101
鼬	-12.6101
碣	-12.6101
珥	-12.6101
濵	-12.6101
矰	-12.6101
不欲碌碌如玉	-12.6102
翥	-12.6102
娯	-12.6103
不信者吾亦信之	-12.6103
以輔萬物之自然而不敢爲	-12.6103
六鑿相攘	-12.6104
吉事尚左	-12.6104
東郭順子	-12.6104
莘	-12.6104
以美利利天下	-12.6104
五峯清安逸士王守正集	-12.6105
美者自美吾不知其美	-12.6105
髮引千鈞	-12.6105
原始要終	-12.6105
名與身章第四十四	-12.6106
唯止能止衆止	-12.6106
彎	-12.6106
時老君下爲師號	-12.6106
湣	-12.6106
故物或損之而益	-12.6106
釿	-12.6107
棊	-12.6107
帝王無爲而天下功	-12.6107
璘	-12.6107
莓	-12.6108
帑	-12.6108
宋杭州州學内舍生	-12.6108
無上三天玉司正法律曰	-12.6108
道徳眞經廣聖義卷之	-12.6108
不得一未遽	-12.6108
餓死於首陽	-12.6108
凶事尚右	-12.6108
燃	-12.6108
執大象章第三十五執大象天下往	-12.6109
反者道之動章第四十反者道之動	-12.6109
肅肅出乎天赫赫發乎地	-12.6109
燻	-12.6109
蜒	-12.6109
惚兮恍其中有象恍兮惚其中有物	-12.6109
而不爲高在六極之下而不爲深	-12.6109
鎬	-12.611
斔	-12.611
怱	-12.611
賽	-12.611
南華眞經循本卷之十	-12.611
男左女右	-12.611
睢睢盱盱	-12.611
善計不用籌筭	-12.611
光矣而不耀	-12.6111
人之生動之死地十有三	-12.6112
之王天下也我太上	-12.6112
故善者果而已不敢以取强	-12.6112
滷	-12.6112
瀑	-12.6113
饜	-12.6113
月採實陰乾	-12.6113
者天地天地尚不能乆而況於人乎	-12.6114
雖有舟輿無所乗之	-12.6114
故致數譽無譽	-12.6114
皴	-12.6114
不獨親其親不獨子其子	-12.6114
璫	-12.6115
德若谷大白若辱廣德若不足建德若偷	-12.6115
湊	-12.6116
四人相與游於世胥如志也窮年	-12.6116
轟	-12.6116
异	-12.6116
善閉無關鍵而不可開	-12.6116
其安易持其未兆易謀其脆易	-12.6116
偏將軍處左上將軍處右言以喪禮處之	-12.6116
叠	-12.6117
綫	-12.6117
膠膠擾擾	-12.6117
昊天玉皇上帝	-12.6118
樞密院編修	-12.6118
蘽	-12.6118
殢	-12.6119
與善仁言善信政善治事善能動善時	-12.6119
作而不辭生而不有爲而不恃功成不居	-12.612
锐	-12.612
鋌	-12.612
奭	-12.6121
絆	-12.6121
蚱	-12.6122
化而欲作吾將鎮之以無名之樸	-12.6126
譍	-12.6126
載營魄章第十載營魄	-12.6489
謋	-12.666
澧	-12.6666
殟	-12.6666
旂	-12.6666
埌	-12.667
隗	-12.6671
頴	-12.6672
𢂽	-12.6674
騮	-12.6674
璿	-12.6676
貎	-12.6677
未嘗先人而常隨人	-12.6677
紆	-12.6677
蓊	-12.6677
踉	-12.6678
自貴而相賤	-12.6679
絀	-12.6679
以隸相尊	-12.668
蜴	-12.668
鴦	-12.668
太沖莫勝	-12.668
蜥	-12.6681
廐	-12.6681
生非貴之所能存	-12.6682
佒	-12.6682
篲	-12.6682
属	-12.6683
磐	-12.6683
㤗	-12.6683
沆	-12.6684
德有心而心有眼	-12.6684
峩	-12.6684
誠惶誠恐稽首頓首伏念	-12.6684
瀣	-12.6684
鼪	-12.6684
處乎不淫之度	-12.6685
僥	-12.6685
返老還童	-12.6685
求馬於唐肆	-12.6686
豊	-12.6686
趕	-12.6686
篠	-12.6686
茭	-12.6686
民不聊生	-12.6686
其寒凝冰	-12.6687
宋鈃尹文	-12.6687
芣	-12.6687
鷾	-12.6687
不以萬物易蜩之翼	-12.6687
丧	-12.6688
蕆	-12.6688
两	-12.6688
啗	-12.6688
齟	-12.6688
姪	-12.6688
諤	-12.6689
天子不得臣諸侯不得友	-12.6689
彪	-12.669
不恤國事	-12.669
夫佳兵章第三十一夫佳兵者不祥之器	-12.669
通玄眞經纘義卷之	-12.669
譽堯而非桀	-12.669
賞善罰惡	-12.669
唳	-12.6691
觳	-12.6691
覘	-12.6691
甚易知甚易行	-12.6692
鶻	-12.6692
鬪	-12.6692
曲則全章第二十二曲則全	-12.6693
飊	-12.6693
鶡	-12.6693
蠖	-12.6693
神無以靈將恐歇	-12.6693
辣	-12.6693
親譽畏侮	-12.6694
皇甫謐	-12.6694
猾	-12.6694
古者謂之遁天之刑	-12.6694
多駢旁枝	-12.6695
銀青光禄大夫	-12.6695
大物也有大物者不可以物物	-12.6695
故取天下者常以無事	-12.6695
糯	-12.6695
鴿	-12.6695
炯	-12.6696
槎	-12.6696
道德眞經集義卷之十	-12.6696
閫	-12.6696
舋	-12.6696
色之所色者彰矣而色色者未嘗顯	-12.6696
彗	-12.6697
槲	-12.6697
壟	-12.6697
人之生章第七十六	-12.6697
混兮其若濁	-12.6697
飾智以驚愚	-12.6697
姒	-12.6697
恍恍惚惚	-12.6697
瘠	-12.6697
訢	-12.6697
窄	-12.6697
爲福先不爲禍始	-12.6697
下士聞道大笑之	-12.6698
茁	-12.6698
以有積爲不足	-12.6698
瞠若乎後	-12.6698
噤	-12.6698
硌	-12.6698
列子見之而心醉	-12.6698
竝	-12.6699
吾師乎吾師乎	-12.6699
家給人足	-12.6699
玄德深矣遠矣與物反矣然後乃至大順	-12.6699
物感斯應	-12.67
沽	-12.67
襯	-12.67
可左可右	-12.67
功蓋天下而似不自己	-12.67
串	-12.67
謖	-12.6701
北元統章第	-12.6701
中來今身爲人	-12.6701
衘	-12.6701
菩	-12.6701
大國不過欲兼畜人	-12.6701
六通四辟	-12.6702
緍	-12.6702
視之不見章第十四視之不見名曰夷	-12.6702
列子天瑞篇	-12.6702
道不爭而善勝不言而善應不召而自來	-12.6702
鈆	-12.6703
韌	-12.6703
居鄭圃四十年人無識者	-12.6703
日出而作日入而息	-12.6704
薏	-12.6704
憂患不能入邪氣不能襲	-12.6704
襁	-12.6704
元亨利貞	-12.6704
幀	-12.6704
新補見陳藏	-12.6705
大成若缺章第四十五	-12.6705
夫唯不居是以不去	-12.6706
大國者下流章第六十一大國者下流	-12.6706
果而勿矜果而勿伐果而勿驕果而不得	-12.6707
善建不拔章第五十四	-12.6707
九層之臺起於累土	-12.6708
爻三十時復退至	-12.6709
去以六月息	-12.671
無聽之以心而聽之以氣	-12.6712
龕	-12.6714
薔	-12.6716
志心皈命禮	-12.6722
荻	-12.6722
菥	-12.6783
水之潘為淵	-12.7255
硎	-12.7282
啟	-12.7283
乱	-12.7289
兾	-12.729
又與之見壺子	-12.729
旻	-12.729
㐫	-12.7296
䕫	-12.7298
拸	-12.7299
堈	-12.7299
悝	-12.73
有未始有夫未始有始也者	-12.73
仧	-12.73
莫覺莫悟何相孰也	-12.7301
諉	-12.7301
感豫出異	-12.7301
其狀義而不朋	-12.7302
好呼報切	-12.7302
惇	-12.7303
与	-12.7304
𨽻	-12.7304
羙	-12.7305
碏	-12.7306
欐	-12.7306
頞	-12.7306
灝	-12.7306
袠	-12.7307
蜺	-12.7307
舅	-12.7307
茀	-12.7307
澇	-12.7308
未嘗見舟而便操之也	-12.7308
埅	-12.7308
幃	-12.7309
拷	-12.7309
藋	-12.7309
髁	-12.7311
覯	-12.7311
鵜	-12.7311
噪	-12.7311
薷	-12.7311
芒然彷徨乎塵垢之外	-12.7312
𣻏	-12.7312
騶	-12.7312
刼	-12.7312
安魂定魄	-12.7312
疢	-12.7312
耼	-12.7312
掊斗折衡	-12.7313
諳	-12.7313
裾	-12.7313
棄事則形不勞遺生則精不虧	-12.7313
恍兮惚兮	-12.7313
太易者未見氣也	-12.7313
葍	-12.7313
薩	-12.7314
慇	-12.7314
忘其肝膽遺其耳目	-12.7314
䠓	-12.7314
岀生入死章第五十	-12.7314
搦	-12.7314
嬙	-12.7315
蕙	-12.7315
識感變之所起者事至則	-12.7315
惡乎然然於然惡乎不然不然於不然	-12.7315
既以與人己愈有	-12.7315
飱	-12.7316
澹兮其若海	-12.7316
時騁而要其宿	-12.7316
名耳字伯陽	-12.7316
閟	-12.7316
聖人在天下惵惵爲天下渾其心	-12.7316
朝聞道夕死可矣	-12.7317
谷無以盈將恐竭	-12.7317
死生無變於己	-12.7317
沖虚至德眞經四解卷之十	-12.7317
不曰求以得有罪以免邪故爲天下貴	-12.7317
朝四而暮三	-12.7318
䘮息浪反	-12.7318
乗物以遊心	-12.7318
唐本注云别録云	-12.7318
甃	-12.7318
槔	-12.7318
太素者質之始	-12.7319
人之生動之死地亦十有三	-12.7319
地無以寧將恐發	-12.7319
道不可聞聞而非也道不可見見而非也	-12.7319
癧	-12.7319
結草爲樓	-12.7319
驀	-12.7319
太始者形之始	-12.732
偃武修文	-12.732
圮	-12.732
蕈	-12.732
天無以清將恐裂	-12.732
和曰常知常曰明益生曰祥心使氣曰强	-12.7321
知其雄章第二十八知其雄守其雌	-12.7321
隨起隨滅	-12.7321
棰	-12.7321
彼亦一是非此亦一是非	-12.7322
爲輕根章第二十六重爲輕根靜爲躁君	-12.7322
天之道章第七十七天之道其猶張弓乎	-12.7322
目擊而道存	-12.7322
粳	-12.7322
咺	-12.7322
希有不傷其手矣	-12.7322
是以侯王自稱孤寡不穀	-12.7322
圄	-12.7323
爲學日益章第四十八	-12.7323
蹠	-12.7323
葩	-12.7323
廛	-12.7323
熠	-12.7323
吽	-12.7323
君子居則貴左	-12.7323
章第十二五色令人目盲五音令人耳聾	-12.7323
憂之病方且治之未暇治天下也	-12.7323
有始章第五十二天下有始以爲天下母	-12.7324
處前而民不害	-12.7324
者不立章第二十四跂者不立跨者不行	-12.7324
覡	-12.7324
符用緋帛七寸	-12.7324
損不足以奉有餘	-12.7324
非其鬼不神其神不傷民	-12.7324
是謂配天古之極	-12.7325
是謂深根固蔕長生乆視之道	-12.7325
㢘	-12.7325
悒	-12.7325
譛	-12.7326
上善若水章第八上善若水	-12.7326
綆	-12.7327
道隱無名夫惟道善貸且成	-12.7327
不尚賢章第三不尚賢使民不爭	-12.7327
塪	-12.7327
丈夫處其厚不處其薄居其實不居其華	-12.7327
貊	-12.7328
喎	-12.7328
則天地安從生	-12.7328
大道廢章第十八大道廢有仁義	-12.7329
膊	-12.7329
縹	-12.7329
道者萬物之奥章第六十二	-12.7329
轢	-12.733
饉	-12.733
塢	-12.733
宋鶴林彭耜纂集	-12.733
無知是以不吾知	-12.733
衆人皆有餘而我獨若遺	-12.7331
磔	-12.7331
知人者智自知者明勝人者有力自勝者	-12.7332
鯈	-12.7332
鉉	-12.7333
大方無隅大器晚成大音希聲大象無形	-12.7333
嶂	-12.7334
珉	-12.7334
道德眞經集註卷之十	-12.7335
褻	-12.7337
千乗萬騎	-12.7339
捄	-12.7339
天下萬物生於有有生於無	-12.7339
椁	-12.734
澤及萬世而不爲仁	-12.734
球	-12.734
浚	-12.7341
欖	-12.7341
馳騁田獵令人心發狂難得之貨令人行	-12.7452
夫惟大故似不肖若肖乆矣其細也夫	-12.793
厝	-12.7939
天下柔弱章第七十八	-12.796
薟	-12.796
昏然五情爽惑	-12.796
鱧	-12.796
稺	-12.7961
輇	-12.7962
槨	-12.7963
脰	-12.7964
詡	-12.7964
鷰	-12.7964
聞其風而悅之	-12.7965
瑗	-12.7965
睠	-12.7966
非其鬼不神其神不傷人	-12.7966
攷	-12.7967
百骸九竅六藏	-12.7967
硯	-12.7967
儆	-12.7968
行流散徙	-12.7969
誠惶誠恐稽首頓首謹言年月日具位	-12.7969
物奚自入焉	-12.7969
奩	-12.7969
櫨	-12.797
抜	-12.797
暍	-12.797
以指喻指之非指	-12.7972
鄭子陽即令官遺之粟	-12.7972
姣	-12.7973
犂	-12.7973
崎	-12.7974
痟	-12.7974
與人並立而使人化	-12.7974
哂	-12.7974
鄱	-12.7974
鏁	-12.7974
之而視全人其脰肩肩	-12.7974
猬	-12.7974
劎	-12.7974
齬	-12.7975
出則子止子先出則我止	-12.7975
逆旅人有妾二人	-12.7975
未知今之所謂是之非五十九非也	-12.7975
觧	-12.7975
儷	-12.7975
逆旅小子對曰	-12.7976
鼷	-12.7976
天下者大寳之位也	-12.7976
蠣	-12.7977
麪	-12.7977
楪	-12.7977
龢	-12.7978
黈	-12.7978
伯夷死名於首陽	-12.7978
渻	-12.7978
峽	-12.7979
澒	-12.7979
糅	-12.7979
䙱	-12.7979
背逡巡足二分垂在外	-12.798
朐	-12.798
民之難治以其上之有爲	-12.798
碭	-12.798
文滅質博溺心	-12.798
齲	-12.798
苻	-12.798
隷	-12.7981
跽	-12.7981
閨	-12.7981
萬物而不爲義澤及萬世而不爲仁	-12.7981
老子中道仰天而	-12.7981
扄	-12.7981
適人之適而不自適其適者也	-12.7981
挨	-12.7981
弟子欲請夫子	-12.7982
詭銜竊轡	-12.7982
與物化者一不化者也	-12.7982
人皆知有用之用而莫知無用之用	-12.7982
抃	-12.7982
旬有五日而後反	-12.7983
臾	-12.7983
弈	-12.7983
物固有所然物固有所可	-12.7983
蠪	-12.7983
形體保神各有儀則謂之性	-12.7983
祜	-12.7983
喣	-12.7983
輓	-12.7983
其覺也形開	-12.7983
生非汝有是天地之委和也	-12.7984
見一丈夫游之	-12.7984
譁	-12.7984
鷀	-12.7984
思以求致其明	-12.7985
旭	-12.7985
供養至五更散	-12.7985
夫惟不盈故能敝不新成	-12.7985
拔出公忠	-12.7985
人我之養畢足而止	-12.7986
鞏	-12.7986
旃	-12.7986
㜸	-12.7986
特降玉清道炁靈寳妙光	-12.7986
禍莫大於輕敵輕敵幾喪吾寳	-12.7986
璈	-12.7987
鴣	-12.7988
一生二二生三三生萬物	-12.7988
食豕如食人	-12.7988
鷄犬之聲相聞	-12.7988
繩繩不可名復歸於無物	-12.7988
鄠	-12.7989
飂兮似無所止	-12.7989
巍巍乎其有成功	-12.7989
非其神不傷民聖人亦不傷民	-12.7989
茙	-12.7989
叡	-12.7989
漑	-12.7989
孰能濁以靜之徐清孰能安以動之徐生	-12.7989
性短非所續	-12.7989
其日固已乆矣	-12.7989
鍳	-12.7989
謹為拜章一通上聞三天伏望	-12.799
民可使由之不可使知之	-12.799
奔逸絶塵	-12.799
怎	-12.799
珞珞如石	-12.799
人能常清靜天地悉皆歸	-12.799
茴	-12.799
罌	-12.799
𥝠	-12.7991
靜而與陰同德動而與陽同波	-12.7991
法令滋章盜賊多有	-12.7991
隂陽神決吏	-12.7991
言居上勢則以喪禮處之	-12.7991
蹋	-12.7991
氲	-12.7992
無動不生無而生有	-12.7992
乗乗兮若無所歸	-12.7992
詁	-12.7992
芙	-12.7992
媪	-12.7993
踣	-12.7993
道者萬物之奥善人之寳不善人之所保	-12.7993
夫子始一引吾並席而坐	-12.7993
開人者賊生	-12.7993
善爲士章第六十八善爲士者不武	-12.7994
瓞	-12.7994
小國寡民使有什伯之器而不用	-12.7994
胠	-12.7994
鬃	-12.7994
肢體黜聰明離形去	-12.7994
嘖	-12.7994
以貴下賤大得民也	-12.7994
德之厚章第五十五含德之厚比於赤子	-12.7994
禍莫大於輕敵輕敵則幾喪吾寳	-12.7995
天下莫不知而莫之能行	-12.7995
而攻堅强者莫之能勝其無以易之	-12.7995
夫唯不可識故强爲之容	-12.7995
墼	-12.7996
嵒	-12.7996
草木之生也柔脆	-12.7996
道常無名章第三十二道常無名	-12.7997
水流濕火就燥	-12.7997
樸雖小天下莫能臣	-12.7997
樃	-12.7998
夫唯無知是以不我知	-12.7998
袵	-12.7998
t	-12.7998
="33"/>	-12.7999
麂	-12.7999
<	-12.7999
韵	-12.7999
雞犬之音相聞	-12.7999
其動也天其靜也地	-12.8
太上章第十七太上下知有之	-12.8001
龍變梵度天	-12.8001
滁	-12.8002
甘其食美其服安其俗樂其業	-12.8003
夫代司殺者殺是謂代大匠斲	-12.8007
老君神符主收録	-12.8007
門著火五日用炭	-12.8008
奡	-12.8008
瘲	-12.801
茺	-12.8013
非其鬼不神其神不傷人非其神不傷人	-12.8013
橄	-12.8013
左將軍右將軍各九人出	-12.8022
南華眞經注䟽卷之十	-12.8199
夫大塊載我以形勞我以生佚我以老息	-12.8573
恆	-12.8617
『	-12.8633
玦	-12.8651
揔	-12.8666
呂	-12.8666
圊	-12.8676
俍	-12.8676
咤	-12.8678
甎	-12.8679
虀	-12.8679
攛	-12.868
倜	-12.868
蕢	-12.8681
鴛	-12.8681
驊	-12.8682
不言而飲人以和	-12.8683
棕	-12.8683
䠱	-12.8683
非其神不傷人聖人亦不傷	-12.8684
諈	-12.8685
鰓	-12.8685
惾	-12.8685
仄	-12.8685
虆	-12.8685
丘劉譚馬	-12.8687
苢	-12.8687
拉	-12.8687
内觀其心心無其心	-12.8687
蛛	-12.8687
𠃔	-12.8688
絺	-12.8688
葜	-12.8688
厯	-12.8688
惜乎而夫子其窮哉	-12.8688
帚	-12.8688
人多利器國家滋昏	-12.8689
爇	-12.8689
攄	-12.8689
𥐻	-12.8689
夬	-12.869
颺	-12.869
締	-12.869
䜟	-12.869
簟	-12.869
搧	-12.8691
逈	-12.8692
櫚	-12.8692
蛸	-12.8692
肔	-12.8692
䑓	-12.8692
隈	-12.8693
僭	-12.8693
有所正者有所差	-12.8693
曼胡之纓短後之衣瞋目而語難	-12.8693
安時而處順哀樂不能入也	-12.8693
金紫光禄大夫	-12.8693
暱	-12.8693
上忘而下畔	-12.8694
攩	-12.8694
讖	-12.8695
附贅縣疣	-12.8695
枉則直窪則盈弊則新少則得多則惑	-12.8695
斯彌爲食醯	-12.8695
青黄赤白黑	-12.8695
削曾史之行鉗楊墨之口	-12.8695
有弟而兄啼	-12.8695
鼓萬物而不與聖人同憂	-12.8696
裨	-12.8696
糲	-12.8696
夫孰足以患心	-12.8696
烽	-12.8696
眂	-12.8696
眞人之息以踵	-12.8696
泉涸魚相與處於陸相呴以濕相濡以沫	-12.8696
賚	-12.8697
萬物職職皆從無爲殖	-12.8697
譹	-12.8697
大浸稽天而不溺	-12.8697
桂可食故伐之漆可用故割之	-12.8698
神入其門骨骸反其根我尚何存	-12.8698
賃	-12.8698
熳	-12.8698
翎	-12.8698
不以養傷身雖貧賤不以利累形	-12.8699
挫鋭解紛和光同塵	-12.8699
科車赤符吏	-12.8699
燾	-12.87
故道可道非常道也名可名非常名也	-12.87
菝	-12.87
捋	-12.87
礱	-12.87
捫	-12.87
痓	-12.87
味之所味者嘗矣而味味者未嘗呈	-12.87
老子像名經卷之	-12.87
萬物歸焉而不知主可名於大	-12.87
儼兮其若客	-12.87
孔子窮於陳蔡之間七日不火食	-12.87
有天地然後有萬物	-12.87
或行或隨或呴或吹或强或羸或載或隳	-12.8701
嶸	-12.8701
侅	-12.8701
有道章第四十六天下有道却走馬以糞	-12.8701
精神生於道形本生於精	-12.8701
臏	-12.8701
擎跽曲拳	-12.8702
聲之所聲者聞矣而聲聲者未嘗發	-12.8702
無爲章第六十三爲無爲事無事味無味	-12.8702
邙	-12.8702
誫	-12.8702
性長非所斷	-12.8703
臣禹錫等謹按	-12.8703
巘	-12.8703
瑯	-12.8703
物混成章第二十五有物混成先天地生	-12.8704
有德司契無德司徹天道無親常與善人	-12.8704
叵	-12.8704
反覆終始不知端倪	-12.8704
天無爲以之清地無爲以之寧	-12.8705
反其性情而復其初	-12.8705
形動不生形而生影聲動不生聲而生響	-12.8706
嵌	-12.8706
澹然無極而衆美從	-12.8706
偆	-12.8706
曦	-12.8706
天地含精萬物化生	-12.8706
瘉	-12.8706
螭	-12.8706
軛	-12.8706
顪	-12.8707
既其文未既其實	-12.8707
鮫	-12.8707
估	-12.8707
兵部手集	-12.8708
奶	-12.8708
洞神經卷第	-12.8708
太學生江澂䟽	-12.8709
果而勿矜果而勿伐果而勿驕	-12.8709
擷	-12.8709
謂章第六十七天下皆謂我道大似不肖	-12.8709
囹	-12.871
春螽之股堪秋蟬之翼	-12.871
太上說玄天大聖眞武本傳神呪妙經	-12.871
人莫之令而自均	-12.871
眼如耳耳如鼻鼻如口	-12.871
犒	-12.8712
楷式是謂玄德玄德深矣遠矣與物反矣	-12.8712
名亦既有夫亦將知止知止所以不殆	-12.8713
三年之後心不敢念是非口不敢言利害	-12.8713
胙	-12.8713
万	-12.8713
納華池中三十日成水	-12.8713
氣也者虚而待物者也	-12.8713
倀	-12.8715
喋	-12.8715
人之所惡惟孤寡不穀而王公以爲稱	-12.8715
大道無形生育天地	-12.8717
顱	-12.8718
髲	-12.8718
丰	-12.872
芡	-12.8721
橙	-12.8721
常無爲章第三十七道常無爲而無不爲	-12.8721
闌	-12.8723
道德眞經注䟽卷之	-12.8725
若性之自爲而不知爲之者	-12.8726
蛔	-12.8731
」	-12.9391
喀	-12.9427
芊	-12.9431
暋	-12.9432
蚈	-12.9439
儃	-12.9439
邅	-12.9444
爼	-12.9444
殙	-12.9446
椑	-12.9446
穅	-12.9446
䖟	-12.9446
蒁	-12.9446
𣎭	-12.9447
稯	-12.9447
矼	-12.9449
鼻間栩栩然	-12.945
恢恑憰怪	-12.945
㐲	-12.9451
磻	-12.9451
呻	-12.9451
蹕	-12.9451
民多利器國家滋昏	-12.9452
婩	-12.9452
參萬歲而一成純	-12.9453
腞	-12.9453
謂之蔽蒙之民	-12.9454
崤	-12.9454
故行不知所往處不知所持食不知所	-12.9454
終身役役而不見其成功	-12.9454
駱	-12.9454
欝	-12.9454
其臣妾不足以相治乎	-12.9455
學者學其所不能學也	-12.9455
諶	-12.9455
坵	-12.9455
文始眞經言外㫖卷之	-12.9455
曰汝身非汝有也汝何得有夫道	-12.9456
楅	-12.9456
擉	-12.9456
墾	-12.9457
是故甚愛必大費	-12.9457
媵	-12.9457
卭	-12.9457
鏘	-12.9457
焫	-12.9458
有未始有夫未始有無也者	-12.9458
懁	-12.9458
意仁義其非人情乎	-12.9458
䗪	-12.9458
猖	-12.9458
春生夏長秋收冬藏	-12.9459
曁	-12.9459
囯	-12.9459
臝	-12.9459
瓌	-12.9459
皃	-12.9459
丌	-12.9459
戡	-12.946
痍	-12.946
踒	-12.946
若冰之將釋	-12.946
高山履危石臨百仞之淵	-12.946
恃道化而不恃智巧	-12.9461
養形果不足以存生	-12.9461
旁日月挾宇宙	-12.9461
磑	-12.9461
掔	-12.9461
復其見天地之心乎	-12.9462
曖	-12.9462
嬖	-12.9462
歔	-12.9462
也其惡者自惡吾不知其惡也	-12.9462
其一人美其一人惡惡者貴而美者賤	-12.9462
杌	-12.9463
不識不知順帝之則	-12.9463
檮	-12.9463
譲	-12.9463
㧙	-12.9464
越人斷髮文身	-12.9464
嘲	-12.9464
性命非汝有是天地之委順也	-12.9464
以賢臨人未有得人者也	-12.9464
姊	-12.9465
邂	-12.9465
佃	-12.9465
隲	-12.9465
謞	-12.9465
曰是天地之委形也	-12.9465
闥	-12.9465
抌	-12.9465
謇	-12.9466
絰	-12.9466
彼得全於酒而猶若是	-12.9466
方生方死方死方生	-12.9466
至人之用心若鏡	-12.9466
肓	-12.9466
嶇	-12.9467
峻宇雕墻	-12.9467
生有所乎萌死有所乎歸	-12.9467
以禮爲翼者所以行於世也	-12.9467
㬠	-12.9467
蜇	-12.9468
伇	-12.9468
灘	-12.9468
若知之若不知之若聞之若不聞之其	-12.9468
目無所見耳無所聞心無所知	-12.9468
寢秉羽而郢人投兵	-12.9468
伉	-12.9468
凹	-12.9469
腪	-12.9469
𤴯	-12.9469
桷	-12.9469
擪	-12.9469
廬陵竹峯羅勉道述門人彭祥點校外篇	-12.9469
豀	-12.947
齧缺問於王倪四問而四不知	-12.947
愎	-12.947
揠	-12.947
侫	-12.947
宋杜道堅撰	-12.947
衆人熙熙如享太牢如春登臺	-12.947
此其以賤爲本耶非乎	-12.9471
腭	-12.9471
上禮爲之而莫之應	-12.9471
幟	-12.9471
不知吾所以然而然命也	-12.9471
觀天之道執天之行	-12.9471
禋	-12.9472
士農工商	-12.9472
至言去言至爲去爲	-12.9472
豔	-12.9472
稌	-12.9472
覆載天地刻彫衆形而不爲巧	-12.9472
善建者不拔善抱者不脱子孫祭祀不輟	-12.9473
善者吾善之不善者吾亦善之得善	-12.9473
塹	-12.9473
太初有無無有無名	-12.9473
悋	-12.9473
問焉曰操舟可學邪曰可	-12.9474
修之家其德乃餘	-12.9474
信者吾信之不信者吾亦信之得信	-12.9474
珞	-12.9474
瑱	-12.9474
節與人同而犯害與人異其神全也	-12.9474
使物不疵癘而年穀熟	-12.9474
則俗惑於辯矣	-12.9474
蝓	-12.9474
夫唯不盈故能弊不新成	-12.9475
雷公云凡採得後	-12.9475
偯	-12.9475
有若無實若虚	-12.9475
鷓	-12.9475
通玄經道原篇曰	-12.9476
煢	-12.9476
無爲也則用天下而有餘	-12.9476
廩	-12.9477
是謂無狀之狀無物之象是謂惚恍	-12.9477
勌	-12.9477
攫鳥不搏	-12.9477
者天地天地尚不能乆而况於人乎	-12.9478
千乘萬騎	-12.9478
縰	-12.9478
腮	-12.9478
惓	-12.9478
早復謂之重積德	-12.9478
故柔勝剛弱勝强天下莫不知莫能行	-12.9478
璀	-12.9478
蠏	-12.9478
帠	-12.9479
彭蒙田駢愼到	-12.9479
庥	-12.9479
桓之審爲淵止水之審爲淵流水之審	-12.9479
附贅懸疣	-12.948
囉	-12.948
丹房鏡源云	-12.9481
衛窮於商周圍於陳蔡	-12.9481
夫唯不厭是以不厭	-12.9481
是謂行無行攘無臂仍無敵執無兵	-12.9481
我以死故善吾生者乃所以善吾死也	-12.9481
瘇	-12.9482
袒	-12.9482
蛉	-12.9482
逓	-12.9482
撿	-12.9483
雲從龍風從虎	-12.9483
與人偕來之衆	-12.9483
朝徹而後能見獨	-12.9483
邳	-12.9484
大道甚夷民甚好徑	-12.9484
機械者必有機事有機事者必有機心	-12.9484
汝惟不伐天下莫與汝爭功	-12.9484
一萬三千五百息	-12.9485
錡	-12.9485
撑	-12.9486
嘴	-12.9486
簠	-12.9486
降本流末而生萬物	-12.9486
痱	-12.9487
汝惟不矜天下莫與汝爭能	-12.9487
三軍五兵之運德之末也	-12.9488
卑而不可不因者民也	-12.9488
卸	-12.9488
疔	-12.949
趁	-12.9493
蘚	-12.9497
下多忌諱而民彌貧人多利器國家滋昏	-12.9499
也南華眞經注䟽卷之	-13.002
日陽銖六隂銖六	-13.0244
秬	-13.0251
者不祥之器非君子之器不得已而用之	-13.0257
蚧	-13.0264
左將軍九人出斗	-13.0265
裋	-13.0275
蓬頭突鬢垂冠	-13.0278
菠	-13.0281
翬	-13.0282
氓	-13.0282
吾所待又有待而然者	-13.0282
玕	-13.0284
熹	-13.0284
直後而未往耳	-13.0284
痤	-13.0284
礨	-13.0285
然則君之所讀者	-13.0285
勿已則隰朋可	-13.0286
詫	-13.0286
𤓸	-13.0286
另	-13.0286
彚	-13.0286
濰	-13.0287
舩	-13.0287
䏶	-13.0287
晁	-13.0287
断	-13.0288
𨇤	-13.0288
貍	-13.0288
官知止而神欲行	-13.0289
崇建某齋若干晝夜	-13.0289
内保之而外不蕩	-13.0289
拖	-13.0289
駞	-13.029
庠	-13.029
租	-13.029
天地一指也萬物一馬也	-13.029
烏足之根爲蠐螬其葉爲胡蝶	-13.029
鄴	-13.029
鏐	-13.029
觀於濁水而迷於清淵	-13.029
橑	-13.0291
刹	-13.0291
人其盡死而我獨存	-13.0291
物有餘而形不養者有之矣	-13.0292
謢	-13.0292
侑	-13.0292
人心排下而進上	-13.0292
顒	-13.0293
近附近之近	-13.0293
殆著乎吾所以著	-13.0293
剖左腋而生	-13.0293
不至乎孩而始誰	-13.0294
俸	-13.0294
掀	-13.0294
柙	-13.0295
禍亦不至福亦不來	-13.0295
韮	-13.0295
一朝而兩城下	-13.0295
婿	-13.0295
㓙	-13.0296
眲	-13.0296
至其罪我也又且以人之言	-13.0297
琦	-13.0297
民之饑章第七十五	-13.0297
蕡	-13.0297
謷乎大哉獨成其天	-13.0297
女青鬼律卷之	-13.0297
齧缺因躍而大喜	-13.0297
伶	-13.0297
空虚不毁萬物爲實	-13.0297
脈	-13.0297
上仙都太上神明上靈官中宮	-13.0297
假夫禽貪者器	-13.0297
能游者可教也	-13.0298
神將守形形乃長生	-13.0298
惙	-13.0298
利澤施乎萬世不爲愛人	-13.0298
如桐子大每服	-13.0298
沖虚至德眞經卷第	-13.0298
勖	-13.0298
視淵若陵視舟之覆猶其車却	-13.0298
岷	-13.0299
失吾道者上見光而下爲土	-13.0299
睪	-13.0299
常寬容於物不削於人	-13.03
懲忿窒慾	-13.03
窕	-13.03
餚	-13.03
祒	-13.03
嵯	-13.0301
醖	-13.0301
羮	-13.0301
鮭	-13.0301
惝	-13.0301
冇	-13.0301
和光散人高守元集	-13.0301
宋饒陽居士李霖集	-13.0301
入其妻望之而拊心曰妾聞爲有道者	-13.0301
純也者謂其不虧其神也	-13.0301
天地有大美而不言四時有明法而不議	-13.0301
良賈深藏若虚	-13.0301
有始也者有未始有始也者	-13.0302
十日又問曰未也猶疾視而	-13.0302
决性命之情而饕貴富	-13.0302
有太易有太初有太始有太素	-13.0302
祼	-13.0302
崛	-13.0302
何以聚人曰財	-13.0303
聞在宥天下不聞治天下	-13.0303
澹然獨與神明居	-13.0303
洄	-13.0304
澍	-13.0304
鷺	-13.0304
嗋	-13.0304
陽之所變者謂之生謂之死	-13.0304
南谷子杜道堅纂	-13.0304
立未定自失而走壺子曰追之列子追之	-13.0304
古者謂是帝之縣解	-13.0304
西昇經集註卷之	-13.0304
是以聖人常善救人故無棄人	-13.0304
柝	-13.0304
有積也故不足無藏也故有餘	-13.0304
汀	-13.0305
謄	-13.0305
一宅而寓於不得已	-13.0305
吾所以不受也其卒民果作難而殺子陽	-13.0305
積衆小不勝爲大勝者惟聖人能之	-13.0305
碓	-13.0305
其未兆易謀其脆易泮其微易散	-13.0305
虚靜恬淡寂寞無爲	-13.0305
大軍之後必有凶年	-13.0305
始吾以夫子之道爲至矣則又有至焉者	-13.0305
儌	-13.0306
絶迹易無行地難	-13.0306
强爲之名曰大大曰逝逝曰遠遠曰反	-13.0306
一受其成形不亡以待盡	-13.0306
雽	-13.0306
樞始得其環中以應無窮	-13.0306
鑛	-13.0306
九變而賞罰可言	-13.0307
執席妻執巾櫛舍者避席煬者避竈	-13.0307
唐玄宗御注并䟽河上公嚴君平李	-13.0307
重死而不遠徙	-13.0307
慴	-13.0307
民常不畏章第七十四	-13.0307
遙	-13.0307
繲	-13.0307
㲉	-13.0307
爲其殺之之怒也	-13.0307
琚	-13.0307
恍兮惚其中有物	-13.0307
月節一氣三用一用三功	-13.0307
瑣	-13.0308
皞	-13.0308
月中一氣三用一用三功	-13.0308
相忘以生無所終窮	-13.0308
修之於身其德乃眞	-13.0308
忘其業可謂亂矣	-13.0308
不將不迎應而不藏故能勝物而不傷	-13.0308
簡髮而櫛數米而炊	-13.0308
䈽	-13.0309
某州縣鄕里	-13.0309
五變而形名可舉	-13.0309
旣得其母以知其子旣知其子復守其母	-13.0309
至陰肅肅至陽赫赫	-13.0309
靡不有初鮮克有終	-13.0309
至矣盡矣不可以有加矣	-13.0309
媿	-13.0309
不畏威章第七十二民不畏威則大威至	-13.031
嘗試與來以予示之	-13.031
運量萬物而不匱	-13.031
盡而良弓藏	-13.031
知我者稀則我貴矣	-13.0311
簋	-13.0311
𠎝	-13.0311
言治天下如運諸掌	-13.0311
轊	-13.0311
建言有之明道若昧進道若退夷道若	-13.0311
公乃王王乃天天乃道道乃乆没身不殆	-13.0311
萬物草木生也柔脆	-13.0311
德總乎道之所一	-13.0312
大於欲得故知足之足常足矣	-13.0312
渫	-13.0312
壮	-13.0312
又幾居其半矣	-13.0312
呦	-13.0312
嘽	-13.0313
乹	-13.0313
紱	-13.0313
能得人心者必自得者也	-13.0313
損之又損之以至於無爲無爲而無不爲	-13.0313
儡	-13.0313
鑿井而飲耕田而食	-13.0314
屩	-13.0314
𨭊	-13.0314
跗	-13.0315
雖有忮心者不怨飄瓦	-13.0315
馽	-13.0315
義開三别第一	-13.0315
寵辱章第十三寵辱若驚貴大患若身	-13.0316
蹏	-13.0317
鑣	-13.0317
以道觀言而天下之君正	-13.0317
有爲也則爲天下用而不足	-13.0317
巇	-13.0318
篙	-13.0318
蓐	-13.0319
緲	-13.032
人之輕死以其求生之厚	-13.0321
正一受道威儀次當詣師奉受	-13.0322
瑿	-13.0323
見劉得一本舊作	-13.0324
絶聖棄智章第十九絶聖棄智民利百倍	-13.0325
琬	-13.0327
碍	-13.0327
咋	-13.0341
屬男女禄料	-13.0381
有餘者損之不足者補之天之道損有餘	-13.0984
皡	-13.1152
至彼至陽之原也	-13.1178
甚者不見他物之可好	-13.1178
綖	-13.1179
㵼	-13.1179
藊	-13.118
阬	-13.1183
洮	-13.1184
摺	-13.1185
鱺	-13.1189
簽	-13.119
纘	-13.119
瞚	-13.119
蜿	-13.1191
礜	-13.1191
蜄	-13.1191
甕㼜大癭	-13.1191
飜	-13.1192
夣	-13.1192
賙	-13.1194
南華眞經註䟽卷之二十	-13.1194
掜	-13.1194
麯	-13.1197
彼所小言盡人毒也	-13.1198
躐	-13.1198
虚無生自然自然生道	-13.1199
賭	-13.1199
眶	-13.1199
坰	-13.1199
尭	-13.12
蚺	-13.12
㳂	-13.12
灣	-13.12
陔	-13.1201
呿	-13.1201
嬀	-13.1202
鰕	-13.1202
嘏	-13.1202
黻	-13.1202
草木不待黄而落	-13.1202
冡	-13.1203
旆	-13.1203
外觀其形形無其形	-13.1203
杻	-13.1203
峗	-13.1203
大澤焚而不能熱	-13.1203
河漢沍而不能寒	-13.1204
嚏	-13.1204
鞨	-13.1204
窊	-13.1204
其於國有不聞也其於家有不見也	-13.1204
宓	-13.1205
渌	-13.1205
舜讓天下於子州支伯	-13.1205
檝	-13.1205
淆	-13.1206
蛞	-13.1206
殳	-13.1206
無人曰夫至人者上闚	-13.1206
歲爲春五百歲爲秋上古有大椿	-13.1206
口口相傳不記文字	-13.1206
鮀	-13.1207
由外入者無主於中聖人不隱	-13.1207
𡷮	-13.1207
迷陽迷陽無傷吾行	-13.1207
鬯	-13.1207
怊	-13.1207
我獨泊兮其未兆	-13.1207
揷	-13.1207
陰陽相照相蓋相治四時相代相生相殺	-13.1207
以天下之美爲盡在己	-13.1207
咯	-13.1208
壌	-13.1208
皐	-13.1208
螿	-13.1208
物無道正容以悟之使人之意也消	-13.1208
枅	-13.1208
鶬	-13.1208
迎天意揣利害	-13.1208
君非自知我也以人之言而遺我粟	-13.1208
踴	-13.1209
店	-13.1209
湏	-13.1209
聮	-13.1209
淛	-13.1209
鎭天眞武治世福神玉虚師相玄天上帝	-13.1209
立之本原而知通於神	-13.1209
泏	-13.121
齅	-13.121
磈	-13.121
廨	-13.121
遠觀其物物無其物	-13.121
以俗觀之貴賤不在	-13.121
鎒	-13.121
䡖	-13.121
衫	-13.121
㡳	-13.1211
腧	-13.1211
自其同者視之萬物皆一也	-13.1211
晻	-13.1211
甀	-13.1211
鈕	-13.1211
綰	-13.1211
訐	-13.1211
抇	-13.1211
幸能正生以正衆生	-13.1212
功成事遂百姓皆曰我自然	-13.1212
慜	-13.1212
吾是以不釋於老聃之言	-13.1212
鶘	-13.1212
民莫之令而自均	-13.1213
夥	-13.1213
反身而誠樂莫大焉	-13.1213
鋩	-13.1213
璜	-13.1213
圯	-13.1213
三日不舉火十年不製衣正冠而纓絶捉	-13.1213
昭昭生於冥冥有倫生於無形	-13.1213
滎	-13.1213
欽定四庫全書文子纘義卷	-13.1213
大惑者終身不解大愚者終身不靈	-13.1213
荃	-13.1213
盩	-13.1213
琮	-13.1214
職惟領教理難抑違	-13.1214
自見者不明自是者不彰自伐者	-13.1214
搯	-13.1215
獰	-13.1215
擗	-13.1215
由能勇而不能怯	-13.1215
堅强居下柔弱處上	-13.1215
凊	-13.1215
刻意尚行離世異俗	-13.1215
宗膾胥敖	-13.1215
生以殉物豈不悲	-13.1215
𥘉	-13.1216
也所苦者身不得安逸口不得	-13.1216
味形不得美服目不得好色耳不得音聲	-13.1216
痙	-13.1217
穬	-13.1217
四達並流無所不極上際於天下蟠於地	-13.1217
以懦弱謙下爲表	-13.1217
詖	-13.1217
何處何服則安道何從何道則得道	-13.1217
春氣發而百草生正得秋而萬寳成	-13.1217
㖟	-13.1217
煿	-13.1217
籲	-13.1217
之難事必作於易天下之大事必作於細	-13.1217
始制有名名亦旣有夫亦將知止知止	-13.1218
吾將鎭之以無名之樸	-13.1218
無處無服始安道無從無道始得道	-13.1218
可傳而不可受可得而不可見	-13.1218
是以聖人處上而民不重	-13.1218
入則鳴不入則止	-13.1218
其反也舍者與之爭席矣	-13.1218
道眞仁靜先生曹道沖曰	-13.1218
知其愚者非大愚也知其惑者非大惑也	-13.1218
明日列子與之見壺子出而謂列子曰	-13.1218
苟非其人道不虚行	-13.1219
咲	-13.1219
而不能自解者物有結之	-13.1219
數百步而出被髮行歌而游於	-13.1219
弸	-13.1219
愚謹至再拜以聞空行結尾同前	-13.1219
嗇是謂早復早復謂之重積德	-13.1219
簸	-13.1219
言不美章第八十一信言不美美言不信	-13.1219
二而不墜則失者錙銖	-13.122
鬼神害盈而福謙人道惡盈而好謙	-13.122
哮	-13.122
上際於天下蟠於地	-13.122
天不産而萬物化地不長而萬物育	-13.1221
爭魚者濡逐獸者趨	-13.1221
謔	-13.1221
道汎兮章第三十四大道汎兮其可左右	-13.1221
眦	-13.1221
鞫	-13.1221
躄	-13.1221
天何言哉四時行焉	-13.1221
邾	-13.1222
然後附之以文益之以博文滅質博溺心	-13.1222
仲尼曰子巧乎有道邪曰我有道也	-13.1222
忽若晦寂兮似無所止	-13.1222
盡堊而鼻不傷	-13.1222
瘼	-13.1222
夐	-13.1223
杙	-13.1223
厔	-13.1223
褓	-13.1223
㰱	-13.1223
玉宸道君靈寳天尊	-13.1223
遁天倍情忘其所受	-13.1223
古之人其知有所至矣惡乎至有以	-13.1224
時其饑飽達其怒心	-13.1224
朏	-13.1224
玻	-13.1224
苡	-13.1224
以道汎觀而萬物之應備	-13.1224
獦	-13.1226
嚚	-13.1226
懣	-13.1227
殆見吾善者幾	-13.1227
趂	-13.1227
其心之出有物採之	-13.1227
容乃公公乃王王乃天天乃道	-13.1227
上不皦其下不昧繩繩兮不可名復歸於	-13.1228
言有宗事有君夫惟無知是以不我知	-13.1228
棄名利反之於心則夫士之爲行	-13.1229
自大而求之則逝而往矣自往而求之	-13.1229
芎	-13.123
喜之復也必怒怒之復也常喜	-13.123
不刻意而高無仁義而	-13.1231
峰在大頂之西	-13.1231
厓	-13.1233
蕖	-13.1234
齦	-13.1234
心能修持經法	-13.1235
榱	-13.1235
阼	-13.1236
飥	-13.1238
讐	-13.1242
𤬏	-13.1243
嶲	-13.1243
兊濟其事終身不救見小曰明守柔曰	-13.1273
亦不知彼之是非利害歟	-13.1438
亦不知我之是非利害歟	-13.1439
紜	-13.1617
目欲視色耳欲聽聲口欲察味志氣欲盈	-13.176
其無正邪正復爲奇善復爲	-13.1778
啘	-13.2163
齓	-13.2175
檉	-13.2177
榷	-13.2178
㸑	-13.2178
無上上上元始太上玉皇	-13.2179
纂微司馬蘇五注曹	-13.218
踦	-13.2182
瞥	-13.2184
若是芒乎其我獨芒而人亦有不芒者乎	-13.2184
寖	-13.2185
𡖖	-13.2188
闔胡嘗視其良	-13.2189
怒其臂以當車轍	-13.2189
矮	-13.219
楠	-13.219
堡	-13.2191
㟪	-13.2191
𣙁	-13.2191
急與之期而觀其信	-13.2192
鵒	-13.2193
涫	-13.2193
剸	-13.2194
誒	-13.2194
與汝遊者莫汝告也	-13.2194
子産謂申徒嘉曰我先	-13.2194
辴	-13.2194
泅	-13.2194
其得罪於君也將弗乆矣	-13.2194
悄	-13.2194
則是之異乎不是也亦無辯	-13.2194
蠋	-13.2195
湎	-13.2195
其痀僂丈人之謂乎	-13.2195
與人之兄居而殺其弟	-13.2195
鸜	-13.2196
狢	-13.2196
襖	-13.2196
𧓽	-13.2197
中民之行進焉耳	-13.2197
敚	-13.2197
飆	-13.2198
僮	-13.2198
後鏃中前括	-13.2198
疚	-13.2198
冺	-13.2198
踠	-13.2198
與世偕行而不替	-13.2198
薌	-13.2198
煻	-13.2199
傭	-13.2199
慓	-13.2199
杲	-13.2199
從事華辭以支爲㫖	-13.2199
先存諸己而後存諸人	-13.2199
逋	-13.2199
心合於氣氣合於神神合於	-13.22
撚	-13.22
𡜍	-13.22
河南郭象註唐西華法師成玄英䟽雜篇	-13.22
踟	-13.22
佾	-13.22
恑	-13.22
吾語汝大亂之本必生	-13.22
埶	-13.2201
書不盡言言不盡意	-13.2201
荗	-13.2201
言者所以在意得意而忘言	-13.2201
青天下潜黄泉揮斥八極神氣不變	-13.2202
躊	-13.2202
昱	-13.2202
勣	-13.2202
形色名聲果不足以得彼之情	-13.2202
躶	-13.2203
亹	-13.2203
由中出者不受於外聖人不出	-13.2203
與人有痔病者不可以適河	-13.2203
薾	-13.2203
嗷	-13.2203
抶	-13.2203
命禮髙眞懴悔願除諸罪業志心皈命禮	-13.2203
無邊罪業實難逃臣	-13.2203
道德已明而仁義次之	-13.2204
扛	-13.2204
以牛之白顙者與豚之亢鼻者	-13.2204
者誅竊國者爲諸侯	-13.2204
㒺	-13.2204
徜	-13.2204
薹	-13.2204
媠	-13.2204
邴邴乎其似喜乎	-13.2204
以本爲精以物爲粗	-13.2204
决諸東方則東流决諸西方則西流	-13.2204
多生以來曽犯此戒今禮髙眞䖍誠懴悔	-13.2204
域中有四大而王處一焉	-13.2205
醎	-13.2205
不知先生之洗我以善邪	-13.2205
酲	-13.2205
䚦	-13.2205
牋	-13.2205
𧮒	-13.2205
浼	-13.2206
塲	-13.2206
使道而可獻則人莫不獻之於其君	-13.2206
蟣	-13.2206
髐	-13.2206
天下之善人少而不善人多	-13.2206
捩	-13.2206
儽	-13.2207
使道而可以與人則人莫不與其子孫	-13.2207
中純實而反乎情樂也	-13.2207
者以八千歲爲春八千歲爲秋	-13.2207
至於大病則寡人惡乎屬國而可	-13.2207
織而衣耕而食是謂同德	-13.2207
有人治道若相放	-13.2208
聖人躊躇以興事以每成功	-13.2208
其遞相爲君臣乎其有眞君存焉	-13.2208
養志者忘形養形者忘利致道者忘心矣	-13.2208
薳	-13.2208
剜	-13.2208
況得喪禍福之所介乎	-13.2208
南華眞經章句音義卷之十	-13.2208
舁	-13.2208
咶	-13.2208
帕	-13.2208
成然寐蘧然覺	-13.2209
忖	-13.2209
嫂	-13.2209
曰知道易勿言難	-13.2209
報縁弟子蒙恩天上人間願得	-13.2209
業先靈受度永免	-13.2209
王母得之坐乎少廣莫知其始莫知其終	-13.2209
是殆見吾善者機也	-13.2209
閈	-13.221
不知何時止而不盈尾閭泄之不知何時	-13.221
园	-13.221
民不難聚也愛之則親利之則至	-13.221
雇	-13.221
荄	-13.221
而有無矣而未知有無之果孰有孰無也	-13.221
財貨有餘是謂盜誇非道也哉	-13.221
而歌商頌聲滿天地若出金石	-13.221
意有所至而愛有所亡	-13.221
竊比於我老彭	-13.2211
道之爲名所假而行	-13.2211
佑聖助順眞武靈應福	-13.2211
符用青帛八寸右	-13.2211
罍	-13.2211
其出不訢其入不距	-13.2211
疾雷破山風振海而不能驚	-13.2211
眇乎小哉所以屬於人	-13.2211
物視其所一而不見其所喪	-13.2211
欽定四庫全書子部十四	-13.2211
瑛	-13.2211
巻	-13.2211
禮念旣周再竭一心遥瞻神府皈命紫皇	-13.2211
心皈神皈身皈命百拜朝天一誠悔	-13.2211
爰從宿世逮及今生三毒業深十惡障重	-13.2211
見使者再拜而辭使者去子列	-13.2211
今之人内化而外不化	-13.2211
原省已明而是非次之	-13.2211
愁身傷生以憂戚不得	-13.2211
殲	-13.2212
媱	-13.2212
而不知退知存而不知亡知得而不知喪	-13.2212
讟	-13.2212
柔勝出於己者其力不可量	-13.2212
逌	-13.2212
盬	-13.2212
闍	-13.2213
𪒟	-13.2213
汝登高山履危石臨百仞之淵若能射乎	-13.2213
今吾告子以人之情	-13.2213
千二百歲而形未嘗衰	-13.2213
天下皆知美之爲美斯惡矣	-13.2213
吾無道吾始乎故長乎性成乎命與	-13.2213
非彼無我非我無所取是亦近矣	-13.2213
沁	-13.2214
荳	-13.2214
罽	-13.2214
禍重乎地莫之知避	-13.2214
鼹	-13.2214
睆	-13.2214
唏	-13.2214
菆	-13.2214
湫	-13.2214
魚不畏網而畏鵜鶘	-13.2214
泰初有無無有無名	-13.2214
鉏	-13.2214
庸詎知吾所謂天之非人乎	-13.2214
使同乎我與若者正之既同乎我與若矣	-13.2214
段成式酉陽雜俎云	-13.2215
夫奚足以至乎先是色而已	-13.2215
虓	-13.2215
夫貴者夜以繼日思慮善否其爲形也亦	-13.2215
裛	-13.2215
端正而不知以爲義相愛而不知以爲仁	-13.2216
世之所美者爲神奇所惡者爲臭腐神奇	-13.2216
義明而物親忠也	-13.2216
則物之造乎不形而止乎無所化	-13.2216
雜乎芒芴之間變而有氣氣變而有形	-13.2216
黧	-13.2216
其生可樂其死可葬	-13.2216
知不得問反於白水之南登狐闋之上而	-13.2216
巉	-13.2217
椅	-13.2217
是非之彰也道之所以虧也	-13.2217
果且有成與虧乎哉果且無成與虧乎哉	-13.2217
無功自矜者不長其在道也曰餘食贅行	-13.2217
不當時命而大窮乎天下	-13.2217
摹	-13.2217
吾安得夫忘言之人而與之言哉	-13.2217
爲名尸無爲謀府無爲事任無爲	-13.2217
得盡用其爲形也亦外矣	-13.2218
撼	-13.2218
聖師豐乾大帝志心朝禮西國紫玄元君	-13.2218
旙	-13.2218
穊	-13.2218
媸	-13.2218
小知不及大知小年不及大年	-13.2218
清輕者上爲天濁重者下爲地	-13.2218
爲首以生爲脊以死爲尻	-13.2218
志心朝禮聖父明眞大帝志心朝禮聖	-13.2218
懵	-13.2218
而名從之名不與利期而利歸之	-13.2218
入獸不亂羣入鳥不亂行	-13.2218
而祝之社而稷之乎	-13.2218
善也所樂者身安厚味美服好色音聲也	-13.2219
衆雌而無雄而又奚卵焉	-13.2219
去甚去奢去泰	-13.2219
勦	-13.2219
岌	-13.2219
櫸	-13.2219
畆	-13.2219
天尊志心朝禮太清靈變天尊志心朝禮	-13.2219
方今之時僅免刑焉	-13.2219
㨿	-13.2219
功成者隳名成者虧	-13.2219
相造乎道者無事而生定	-13.222
今日適越而昔來	-13.222
所下者貧賤夭惡	-13.222
銲	-13.222
蟇	-13.222
辰星應化天尊臣等志心皈身皈神皈命	-13.222
至道之精窈窈冥冥至道之極昏昏默默	-13.222
両	-13.222
明四目達四聰	-13.222
一之精通合于天倫	-13.2221
人皆取實己獨取虚	-13.2221
明皇河上公王弼王雱註	-13.2221
瞍	-13.2221
蠐	-13.2221
上必無爲而用天下下必有爲爲天下用	-13.2221
噣	-13.2221
譬道之在天下猶川谷之於江海	-13.2222
符用白帛九寸右	-13.2222
功利機巧必忘夫人之心	-13.2222
暦	-13.2222
澮	-13.2222
是其言也猶時女也	-13.2222
眼耳鼻舌身意	-13.2223
復讎者不折鏌干	-13.2223
古襄寇才質集	-13.2223
知常曰明不知常妄作凶知常容容乃	-13.2223
齆	-13.2223
蠃	-13.2223
上有大役則支離以有常疾不受	-13.2224
始反終故知死生之說	-13.2224
化育萬物不可爲象其名爲同帝	-13.2224
桉	-13.2224
立我蒸民莫匪爾極不識不知順帝之則	-13.2224
蹩躠爲仁踶跂爲義	-13.2224
瑘	-13.2224
弰	-13.2224
莱	-13.2224
地之大萬物之多而唯蜩翼之知吾不反	-13.2225
盱江危大有集第	-13.2225
俛仰之間再撫四海	-13.2225
獯	-13.2225
抗兵相加則哀者勝矣	-13.2225
然後列子自以爲未始學而歸三年不出	-13.2225
老無妻子死期將至	-13.2226
烙	-13.2226
趼	-13.2226
鸒	-13.2227
以道觀能而天下之官治	-13.2227
志心朝禮金闕化身天尊志心朝禮	-13.2227
捃	-13.2228
不嗜殺人者能一之	-13.2228
坭	-13.2229
㹠	-13.2229
蜻	-13.2229
無聽之以耳而聽之以心	-13.223
臨尸而歌顔色不變	-13.2231
下多忌諱而民彌貧民多利器國家滋昏	-13.2235
死墮地獄長劫受苦苦盡復生	-13.2235
將欲噏之必固張之	-13.2236
䒽	-13.2239
瑁	-13.2239
𤸷	-13.224
褙	-13.2251
下柔弱章第七十八天下柔弱莫過於水	-13.2254
爲諸侯堯授舜舜授	-13.2255
䖝	-13.2267
大道甚夷而民好徑朝甚除田甚蕪倉甚	-13.2288
玉女五百人紅繡衣執	-13.3223
日隂銖六陽銖六二十	-13.3245
囬	-13.3267
羭	-13.3277
瞀芮生乎腐蠸	-13.3279
𩐋	-13.3279
闓	-13.328
翛	-13.3282
惼	-13.3282
鍰	-13.3283
秱	-13.3289
堯授舜舜授禹	-13.3291
𩀱	-13.3291
乕	-13.3293
鯽	-13.3294
從之遊者與仲尼相若	-13.3294
訃	-13.3295
虖	-13.3296
堯非有人非見有於人	-13.3297
遟	-13.3298
変	-13.3298
卒然問焉而觀其知	-13.3299
送君者皆自崖而反	-13.3299
度人情得亦中亡亦中	-13.3299
丘將引天下而與從之	-13.3299
咏	-13.33
父母豈欲吾貧哉	-13.3301
軺	-13.3301
抱一子陳顯微述	-13.3301
鄜	-13.3302
剗	-13.3302
胣	-13.3302
僬	-13.3302
蘡	-13.3302
吾思夫使我至此極者而弗得也	-13.3302
穄	-13.3302
塤	-13.3302
湩	-13.3302
夏蟲不可以語於冰者	-13.3302
指與物化而不以心稽	-13.3302
未成乎心而有是非是今日適越而昔至	-13.3302
薁	-13.3303
睱	-13.3304
夫水行不避蛟龍者	-13.3304
不若以非指喻指之非指也	-13.3304
非持其釣有釣者也	-13.3304
搭	-13.3304
壻	-13.3304
犇	-13.3305
紵	-13.3305
辤	-13.3305
知美矉而不知矉之所以美	-13.3305
慱	-13.3306
惡識所以然惡識所以不然	-13.3306
羊奚比乎不箰乆竹	-13.3306
嚗	-13.3307
聖人安其所安不安其所不安	-13.3307
圖傲乎救世之士哉	-13.3307
懶	-13.3307
古之人與其不可傳也死矣	-13.3307
知忘是非心之適也	-13.3307
其有介然之有唯然之音雖	-13.3307
欲靜則平氣欲神則順心	-13.3307
方無極太上道德天尊一禮至心歸命	-13.3307
提刀而立爲之四顧爲之躊躇滿志	-13.3308
木處則惴慄恂懼	-13.3308
我樹之成而實五石	-13.3308
荂	-13.3308
與乎其觚而不堅也	-13.3308
王來降道場爲吾助法力奉請	-13.3308
昔吾聞之大成之人曰	-13.3308
跱	-13.3309
臣之子亦不能受之於臣	-13.3309
砰	-13.3309
銓	-13.3309
孔子行年五十有一而不聞道	-13.3309
墝	-13.3309
秕	-13.3309
舉世而非之而不加沮	-13.3309
太清玄元無上三天無極大道太上	-13.331
猋	-13.331
且舉世而譽之而不加勸	-13.331
故聖人將遊於物之所不得遯而皆存	-13.331
死生驚懼不入乎其胸	-13.331
痣	-13.331
貴在於我而不失於變	-13.331
昀	-13.331
無謂有謂有謂無謂	-13.3311
篁	-13.3311
芟	-13.3311
餘骨乾餘骨之沫爲斯彌	-13.3311
發之鏑矢復沓	-13.3311
儵與忽時相與遇於渾沌之地	-13.3311
霫	-13.3311
籧	-13.3311
漣	-13.3311
寂無所寂欲豈能生	-13.3311
隽	-13.3311
緱	-13.3311
子嘗語諸梁也曰	-13.3312
庸詎知吾所謂知之非不知邪	-13.3312
合則成體散則成始	-13.3312
行今子止曩子坐今子起何其無特操與	-13.3312
呼我馬也而謂之馬	-13.3312
因女商見魏武侯	-13.3312
然則丘博學多識者也	-13.3312
化聲之相待若其不相待	-13.3312
昵	-13.3313
涖	-13.3313
不狀其過以不當存者寡	-13.3313
其形化其心與之然可不謂大哀乎	-13.3313
近死之心莫使復陽也	-13.3313
善射者能令後鏃中前括	-13.3313
罪將條列惡巳貫盈撓亂靈司紏録不	-13.3313
時也曲士不可以語於道者束於教也	-13.3313
暹	-13.3314
錢財不積則貪者憂	-13.3314
從容無爲而萬物炊累	-13.3314
子北方之賢者也子亦得道乎孔子曰未	-13.3314
挻	-13.3314
隹	-13.3314
人之父居而殺其子吾不忍也子皆勉居	-13.3314
四封之内無不賔服	-13.3315
㕝	-13.3315
予惡乎知夫死者不悔其始之蘄生乎	-13.3315
怜	-13.3315
麞	-13.3315
吾聞之不以所用養害所養因杖	-13.3315
不忘其所始不求其所終	-13.3315
無爲非欲於道道自歸之	-13.3315
或謂之死或謂之生或謂之實或謂之榮	-13.3315
是謂天均天均者天倪也	-13.3315
唉	-13.3315
即斯發露徑此懴陳伏願	-13.3315
腿	-13.3315
燬	-13.3316
鵾	-13.3316
則仁義又奚連連如膠漆	-13.3316
未知吾所謂之其果有謂乎其果無謂乎	-13.3316
制誥兼修國史	-13.3316
非汝能使人保汝而汝不能使人無	-13.3316
能損有餘而奉不足於天下者其唯道乎	-13.3316
以其知之所知以養其知之所不知	-13.3316
去之民相連而從之遂成國於岐山之下	-13.3316
蠁	-13.3316
笳	-13.3316
宋觀復大師高士謝守灝編	-13.3317
藂	-13.3317
攜	-13.3317
顥	-13.3317
言而足則終日言而盡道	-13.3317
其卒無尾其始無首	-13.3317
三王聖者歟孔子曰三王善任智勇	-13.3317
仁義已明而分守次之	-13.3317
是故迷亂而不能自得也	-13.3317
莠	-13.3318
用之彌滿六虚廢之莫知其所	-13.3318
夫道有情有信無爲無形	-13.3318
揮斥八極神氣不變	-13.3318
叮	-13.3318
宋人資章甫而適諸越	-13.3318
始乎故長乎性成乎命	-13.3318
曰已矣吾固告汝曰人將保汝果保汝矣	-13.3318
順物自然而無容私焉而天下治矣	-13.3318
福果形神俱妙與道合眞今故皈依	-13.3318
果且有彼是乎哉果且無彼是乎哉	-13.3319
彼且何肯以物爲事乎	-13.3319
適來夫子時也適去夫子順也	-13.3319
仰天而呼曰君乎君乎獨不可以	-13.3319
越人三世弑其君	-13.3319
吏官各十二人出監殺	-13.3319
庸詎知夫造物者之不息我黥而	-13.3319
又何以知天地之足以窮至大之域	-13.3319
嚬	-13.3319
故先王之法非所作也所因也	-13.3319
以刑爲體者綽乎其殺也	-13.3319
沖虚至德眞經鬳齋口義卷之	-13.3319
聖人之在天下惵惵爲天下渾其心	-13.332
進則人莫不進之於其親使道而可以	-13.332
能勝人之口不能服人之心辯者之囿也	-13.332
𡻕	-13.332
食於十漿而五漿先饋	-13.332
萬物之所一也得其所一而同焉則四	-13.332
子桑户孟子反子琴張	-13.332
告人則人莫不告其兄弟	-13.332
有七竅以視聽食息此獨無有嘗試鑿之	-13.332
朦	-13.3321
鐐	-13.3321
之齊中道而反遇伯昏瞀人	-13.3321
孾	-13.3321
覆載天地刻雕衆形而不爲巧	-13.3321
其生若浮其死若休	-13.3321
從今懴悔並冀赦除願與一切衆生俱入	-13.3321
日中則昃月滿則虧	-13.3321
河南郭象註唐西華法師成玄英䟽外篇	-13.3321
穽	-13.3321
聖人之道我有聖人之道而無聖人之才	-13.3321
如求得其情與不得無益損乎其眞	-13.3321
與物相刃相靡其行盡如馳而莫	-13.3321
以其至小求窮其至大之域	-13.3321
因其所有而有之則萬物莫不有	-13.3321
烜	-13.3322
皇天無親惟德是輔	-13.3322
仁則反愁我身不義則傷彼義則反愁我	-13.3322
哯	-13.3322
庸也者用也用也者通也通也者得也	-13.3322
瞻之在前忽焉在後	-13.3322
惠子曰不益生何以有其身	-13.3322
示之以虚開之以利後之以發先之以至	-13.3322
其作始有倫而今乎婦女	-13.3322
爕	-13.3322
成若缺章第四十五大成若缺其用不弊	-13.3323
師是而無非師治而無亂	-13.3323
紇	-13.3323
釿鋸制焉繩墨殺焉椎鑿决焉	-13.3323
高而不危所以長守貴也	-13.3323
藾	-13.3323
蒨	-13.3323
襦	-13.3323
鮧	-13.3323
有問道而應之者不知道也	-13.3323
向吾入而弔焉有	-13.3324
堦	-13.3324
鰲	-13.3324
魋	-13.3324
冽	-13.3324
欸	-13.3324
爲之斗斛以量之	-13.3324
夫天無不覆地無不載	-13.3324
欽定四庫全書神仙傳卷	-13.3324
有旦宅而無情死	-13.3324
箒	-13.3324
緳	-13.3324
文王順紂而不敢逆	-13.3324
厖	-13.3325
号	-13.3325
不言則齊齊與言不齊言與齊不齊也	-13.3325
臉	-13.3325
不識今之言者其覺者乎其夢者乎	-13.3325
人自生至終大化有四	-13.3325
颯	-13.3325
固有常矣日月固有明矣星辰固有列矣	-13.3325
貴富顯嚴名利六者勃志也	-13.3325
積衆小不勝爲大勝	-13.3325
痴	-13.3325
贐	-13.3325
自事其心者哀樂不易施乎前	-13.3325
順於兵故行有求	-13.3325
且方將化惡知不化哉方將不化惡知	-13.3325
其爲利也薄其爲權也輕而猶	-13.3325
所遯是恒物之大情也	-13.3325
彼是莫得其偶謂之道樞	-13.3325
孔子顧謂弟子曰用志不分乃凝於神	-13.3325
子貢趨而進曰敢問臨尸而歌禮乎	-13.3326
有清有濁有動有靜	-13.3326
物得道用因用立名	-13.3326
曰然君子不仁則不成不義則不生仁義	-13.3326
氣專志一和之至也物不傷焉德莫加焉	-13.3326
㺒	-13.3326
餬	-13.3326
欹	-13.3326
溏	-13.3326
之小人人之君子人之君子天之小人也	-13.3326
俵	-13.3326
可以貴可以賤可以約可以散	-13.3326
哥	-13.3326
睟	-13.3326
聖人之不病以其病病是以不病	-13.3326
去彼自見自貴取此自知自愛	-13.3326
奓	-13.3326
如哭其子少者哭之如哭其母彼其所	-13.3326
厘	-13.3326
娉	-13.3326
處物不傷物物莫之能傷也	-13.3326
性不可易命不可變時不可止道不可壅	-13.3327
素也者謂其無所與雜也	-13.3327
獪	-13.3327
縗	-13.3327
乆憂不死何之苦也其爲形也亦遠矣	-13.3327
地無窮人死者有時操有時之具	-13.3327
錮	-13.3327
割其股以食文公	-13.3327
已外生矣而後能朝徹	-13.3327
懯	-13.3327
不際之際際之不際者也	-13.3327
虷	-13.3327
仁者息焉不仁者伏焉	-13.3327
錣	-13.3327
民之饑以其上食稅之多	-13.3328
操之則慄捨之則悲	-13.3328
聖人之靜也非曰靜也善故靜也	-13.3328
操之則慄舍之則悲	-13.3328
坪	-13.3328
然用力甚多而見功寡	-13.3328
棅	-13.3328
見其所始即知其所終	-13.3328
乗天地之正而御六氣之辯以	-13.3328
憋	-13.3328
配神明醇天地育萬物和天下	-13.3329
吾子使天下無失其朴	-13.3329
前者唱于而隨者唱喁	-13.3329
假於異物託於同體	-13.3329
㹖	-13.3329
是得人之得而不自得其得者也	-13.3329
綾	-13.3329
形之所形者實矣而形形者未嘗有	-13.3329
小國寡民使民有什伯之器而不用	-13.3329
㨂	-13.333
咈	-13.333
煤	-13.333
槁木似遺物離人而立於獨也	-13.333
子貢曰然則人固有尸居而龍見	-13.333
其在死亡也則之於息焉反其極	-13.333
若不得者則大憂以懼其爲形也亦愚哉	-13.333
擂	-13.333
則其解之也似不解之者	-13.333
簁	-13.333
榮注西華法師成玄英䟽濛陽强思齊纂	-13.333
夫且不止是之謂坐馳	-13.3331
撫我則后虐我則讎	-13.3331
肝藏魂肺藏魄心藏神腎藏精脾藏志	-13.3331
邐	-13.3331
志心朝禮危星應化天尊志心朝禮天	-13.3331
是以輕死夫惟無以生爲者是賢於貴生	-13.3331
柞	-13.3331
不岀户章第四十七不出户知天下	-13.3332
蓆	-13.3332
獮	-13.3332
無人之情故是非不得於身	-13.3332
秋水時至百川灌河	-13.3332
如何萬乗之主而以身輕天下	-13.3332
荇	-13.3333
洛誦之孫聞之瞻明瞻明聞之聶許	-13.3333
疪	-13.3333
腔	-13.3333
常能遣其欲而心自靜澄其心而神自清	-13.3333
乾知坤作兆形位	-13.3333
容成氏大庭氏伯皇氏	-13.3333
詶	-13.3333
由生而生故雖終而不亡常也	-13.3334
是下與上同德下與上同德則不臣	-13.3334
夫知言之謂者不以言言也	-13.3334
祓	-13.3334
播精足以食十人	-13.3335
堁	-13.3335
曰自吾執斧斤以隨夫子未嘗見材如此	-13.3335
純白不備則神生不定	-13.3335
J	-13.3335
熛	-13.3335
今世俗之君子多危身棄	-13.3335
U	-13.3336
A	-13.3336
杘	-13.3336
濩	-13.3336
流九十里魚鼈弗能游黿鼉弗能居	-13.3336
顔回曰回之未始得使實自回也	-13.3336
N	-13.3336
甔	-13.3337
爲謂眞是也狂屈似之我與汝終不近也	-13.3337
麺	-13.3337
晦庵朱熹曰	-13.3337
㪷	-13.3337
姥	-13.3337
今者吾喪我汝知之乎	-13.3337
冬起雷夏造冰	-13.3337
撩	-13.3338
者柙而藏之不敢用也寳之至也	-13.3338
立不教坐不議虚而往實而歸	-13.3338
敍	-13.3339
求可功求成用力少見功多者聖人之道	-13.3339
以聖人爲而不恃功成不處其不欲見賢	-13.3339
原憲居魯環堵之室茨以生草蓬	-13.3339
孰能有餘以奉天下唯有道者	-13.3341
笮	-13.3342
軬	-13.3342
曰莫神於天莫富於地莫大於帝王	-13.3342
嚢	-13.3342
上來徃業見在世中	-13.3342
繻	-13.3343
晳	-13.3344
巔	-13.3344
逡	-13.3344
瑙	-13.3346
案内管三百六十星官三百六十	-13.3346
註西華法師成玄英䟽濛陽强思齊纂	-13.3349
猘	-13.3349
遂入惡道報盡復還生於茲世以前	-13.335
佘	-13.3353
蚖	-13.3354
鑑水之與形接也不設智故而物	-13.3355
瘛	-13.3359
附離不以膠漆約束不以纏索	-13.3733
犗	-13.4516
秠	-13.4518
𢶞	-13.4526
不知斯齊國幾千萬里	-13.4532
腽	-13.4534
鴽	-13.4535
蓋非舟車足力之所及	-13.4535
河澤之鳥視而生曰鶂	-13.4537
是以十九年而刀刃若新發於硎	-13.4538
技經肯綮之未嘗	-13.454
爲身而見形昧人者故云或以	-13.4541
鼺	-13.4542
淒	-13.4542
遊者與夫子中分魯	-13.4543
訑	-13.4543
耑	-13.4544
棹	-13.4545
淊	-13.4545
胕	-13.4545
鎧	-13.4545
齔	-13.4546
釬	-13.4547
聖人晏然體逝而終矣	-13.4547
螋	-13.4547
鳴而當律言而當法	-13.4548
忍性以視民而不知不信	-13.4548
櫾	-13.4548
覤	-13.4548
始也吾以南面而君天下	-13.4548
與物且者其身之不能容焉能容人	-13.4549
禇	-13.4549
以舟之可行於水也而求推之於陸	-13.4549
聖人工乎天而拙乎人	-13.455
磎	-13.455
不怒而今也怒向也虚而今也實人能虚	-13.455
蛺	-13.455
俔	-13.455
祺	-13.455
一呼而不聞再呼而不聞於是三呼	-13.4551
竊竊乎又何足以濟世哉	-13.4551
遌	-13.4551
奚必知代而心自取者有之愚者與有焉	-13.4551
垤	-13.4552
將惡乎託業以及此言邪	-13.4552
所解數千牛矣而刀刃若新發於硎	-13.4552
若趎之年者已長矣	-13.4552
鏡高堂物來斯照	-13.4552
冉相氏得其環中以隨成	-13.4552
丫	-13.4552
人親莫不欲其子之孝	-13.4552
瞿鵲子問乎長梧子曰	-13.4552
我與若與人俱不能相知也而待彼也邪	-13.4552
矌	-13.4552
不能論意之所不能察致者不期精粗焉	-13.4552
文惠君曰善哉吾聞庖丁之言得養生焉	-13.4553
聞至人之言恐吾無其實輕用吾身而亡	-13.4553
苽	-13.4553
刀刃者無厚以無厚入有間恢恢乎其於	-13.4553
積年之疾一朝都除	-13.4553
夫尊古而卑今學者之流也	-13.4554
檳	-13.4554
某再拜上言今月某日爲修齋	-13.4554
渾渾沌沌終身不離	-13.4554
親之所言而然所行而善	-13.4554
故德有所長而形有所忘	-13.4554
人主莫不欲其臣之忠	-13.4554
愡	-13.4555
侃	-13.4555
吾非至於子之門則殆矣	-13.4555
煽	-13.4555
鳥莫知於鷾鴯	-13.4555
若殆以不信厚言必死於暴人之前矣	-13.4555
君之所言而然所行而善	-13.4555
謭	-13.4555
使之和豫通而不失於兊	-13.4556
舜問乎丞曰道可得而有乎	-13.4556
㤉	-13.4556
行年七十而猶有嬰兒之色	-13.4556
氅	-13.4556
唯種也不知其身之所以愁	-13.4556
唯種也能知亡之所以存	-13.4556
今取猨狙而衣以周公之服	-13.4556
勻	-13.4557
蟮	-13.4557
吾將爲名乎名者實之賔也吾將爲賔乎	-13.4557
阸	-13.4557
歸亦捧心而矉其里	-13.4557
言論者物之粗也可以意致者物之精也	-13.4557
常季問於仲尼曰王駘兀者也從之	-13.4557
周與胡蝶則必有分矣	-13.4557
惽	-13.4557
曰天也非人也天之生是使獨也	-13.4557
至子桑之門則若歌若哭	-13.4557
苟有其實人與之名而弗受	-13.4557
肸	-13.4557
蕳	-13.4558
意者其有機緘而不得已邪	-13.4558
其里之醜人見而美之	-13.4558
邪天乎人乎有不任其聲而趨舉其詩焉	-13.4558
思士不妻而感思女不夫而孕	-13.4558
䄂	-13.4558
昔者子呼我牛也而謂之牛	-13.4558
瞶	-13.4558
彼且蘄以諔詭幻怪之名聞	-13.4558
兒子動不知所爲行不知所之身	-13.4558
故西施病心而矉其里	-13.4558
大旱金石流土山焦而不熱	-13.4559
是以火救火以水救水名之曰益多	-13.4559
購	-13.4559
子輿入曰子之歌詩何故若是	-13.4559
曰堯謂我汝必躬服仁義而明言是非	-13.4559
故命之曰有巢氏之民	-13.4559
是之謂不以心捐道不以人助天是之謂	-13.4559
狂屈中欲告我而不我告	-13.4559
喻馬之非馬不若以非馬喻馬之非馬也	-13.4559
其殺如秋冬以言其日消也	-13.4559
無私覆地無私載天地豈私貧我哉求其	-13.4559
食不敢先嘗必取其緒	-13.4559
楚人寄而蹢閽者	-13.4559
雖天地覆墜亦將不與之遺	-13.4559
髫	-13.4559
州之西台州之北	-13.4559
柟	-13.4559
也者爭之器也二者凶器非所以盡行也	-13.456
其明日又與合堂同席而坐	-13.456
蚑	-13.456
寒暑是事之變命之行也	-13.456
吾聞諸夫子聖人不從事於務	-13.456
行其所不能行也辯者辯其所不能辯也	-13.456
雜則多多則擾擾則憂憂而不救	-13.456
澱	-13.4561
也怒而飛其翼若垂天之	-13.4561
紼	-13.4561
蓺	-13.4561
君子行權貴於合義小人用之	-13.4561
巢於深林不過一枝偃鼠飲河不過滿腹	-13.4561
意者其運轉而不能自止邪	-13.4561
謂列子曰幸矣子之先生遇我也有瘳矣	-13.4561
五帝之所連三王之所爭仁人之所憂任	-13.4561
出怒不怒則怒出於不怒	-13.4561
欽定四庫全書列子卷	-13.4561
渾淪者言萬物相渾淪而未相離	-13.4561
一以己爲馬一以己爲牛	-13.4562
不知其不勝任也是其才之美者也	-13.4562
王乃牽而上殿宰人上食王三環之	-13.4562
謪	-13.4562
其大本擁腫而不中繩墨其小枝卷	-13.4562
吮	-13.4562
是以未嘗聞任氏之風俗	-13.4562
其身以下傴拊人之民以下拂其上者也	-13.4562
攔	-13.4562
啽	-13.4562
囈	-13.4562
且有大覺而後知此其大夢也	-13.4562
今世之人居高官尊爵者	-13.4562
而不受事之以犬馬而不受事之	-13.4562
且子見執政而不違子齊執政乎	-13.4562
惠子謂莊子曰吾有大樹人謂之樗	-13.4562
涂	-13.4563
相引以名相結以隱	-13.4563
汝不知夫養虎者乎不敢以生物與之	-13.4563
白刃交於前視死若生者烈士之勇也	-13.4563
椰	-13.4563
夢之中又占其夢焉	-13.4563
忘年忘義振於無竟故寓諸無竟	-13.4563
惠子曰與人居長子老身死不哭亦足矣	-13.4563
𢮞	-13.4563
父子之宜彼其乎歸居	-13.4563
且夫聲色滋味權勢之於人	-13.4563
矗	-13.4563
離朱子羽方晝拭	-13.4563
則聖人之利天下也少而害天下也多	-13.4563
安排而去化乃入於寥天一	-13.4563
莆	-13.4563
𡟬	-13.4563
庸詎知吾所謂不知之非知邪	-13.4564
予惡乎知惡死之非弱喪而不知歸者邪	-13.4564
大備矣莫若天地然奚求焉而大備矣	-13.4564
嚀	-13.4564
醉之以酒而觀其則雜之以處而觀其色	-13.4564
枹	-13.4564
狷	-13.4564
父之勇也陸行不避兕虎者獵夫之勇也	-13.4564
故聖人之用兵也亡國而不失人心	-13.4564
磕	-13.4565
賖	-13.4565
酈	-13.4565
去國數日見其所知而喜	-13.4565
知謀不用必歸其天此	-13.4565
苟子之不欲雖賞之不竊	-13.4565
螤	-13.4565
以明汙昭昭乎如揭日月而行故不免也	-13.4565
於心口不能言有數存焉於其間	-13.4565
疾則苦而不入不徐不疾得之於手而應	-13.4565
彼又惡能憒憒然爲世俗之禮以觀	-13.4565
骨非有加急而不柔也	-13.4565
癜	-13.4565
軵	-13.4565
曰不然是其始死也我獨何能無	-13.4565
丈夫與之處者思而不能去	-13.4565
故自無適有以至於三而況自有適有乎	-13.4565
以賢下人未有不得人者也	-13.4565
始終相反乎無端而莫知其所窮	-13.4565
鄢	-13.4565
仰仗道恩普垂赦宥	-13.4565
摰	-13.4565
窮數達變因形移易者謂之化謂之幻	-13.4565
而不求其報不知義之所適不知禮之所	-13.4565
鼐	-13.4565
太子乃使人以千金奉莊子	-13.4565
利仁義者衆夫仁義之行唯且無誠	-13.4566
沚	-13.4566
夜見彈而求鴞炙	-13.4566
其或是也其或非也邪	-13.4566
曰吾求之於度數五年而未得	-13.4566
曲而不中規矩立之塗匠者不顧	-13.4566
三皇之知上悖日月之明下	-13.4566
因案人之所感以求容與其心	-13.4566
厲風濟則衆竅爲虚	-13.4566
其知適足以知人之過而不知其所以過	-13.4566
儻乎若行而失其道也	-13.4566
物損於彼者盈於此成於此者虧於彼	-13.4566
桓公曰寡人讀書輪人安得議乎有	-13.4566
迫窮禍患害相棄也	-13.4566
婑	-13.4566
去國旬月見所嘗見於國中者喜	-13.4566
固有不言之教無形而心成者邪	-13.4566
許由曰不然夫盲者無以與乎	-13.4566
靜靜則明明則虚虚則無爲而無不爲也	-13.4566
對曰不願仕回有郭外之田五十	-13.4566
曰子不知利害則至人固不知利害乎	-13.4566
士成綺鴈行避影履行遂進而問	-13.4566
泰定之中天光自照	-13.4566
視喪其足猶遺土也	-13.4566
姹	-13.4566
火不息其於光也不亦難乎時	-13.4567
知與恬交相養而和理出其性	-13.4567
繄	-13.4567
善任仁義者聖則丘弗知曰三皇聖者歟	-13.4567
子產謂申徒嘉曰	-13.4567
𩐒	-13.4567
済	-13.4567
容動色理氣意六者謬心也	-13.4567
因其大以號而讀之則可也	-13.4567
以知爲時者不得已於事也	-13.4567
形高下之相傾聲音之相和前後之相隨	-13.4567
匠石覺而診其夢	-13.4567
若勝我我不若勝若果是也我果非也邪	-13.4567
吏捕得之問曰人皆在焉子攫人之金何	-13.4567
惸	-13.4567
輪於堂下釋椎鑿而上問桓公	-13.4567
廣行慈憫並賜赦原求懴弟子某	-13.4567
而子曰夫無莊之失其美據梁之失其力	-13.4567
妸荷甘與神農同學於老龍吉	-13.4567
足以給飦粥郭内之田十	-13.4567
今子之言大而無用衆所同去也莊子曰	-13.4568
榆枋時則不至而控於地而	-13.4568
大林丘山之善於人也亦神者不勝	-13.4568
自我觀之仁義之端是非之塗樊然	-13.4568
己以遊世其孰能害之	-13.4568
徯	-13.4568
昔之所是今或非之今之所棄後或用之	-13.4568
根遊於殷陽至蓼水之上適遭無名人而	-13.4568
天一眞慶宫元和遷校府北極佑聖院諸	-13.4568
知窮之有命知通之有時	-13.4568
禨	-13.4568
見似人者而喜矣不亦去人滋乆思人	-13.4568
遊於羿之彀中中央者中	-13.4568
南越有邑焉名爲建德之國	-13.4568
野馬也塵埃也生物之以息相吹也	-13.4568
純素之道唯神是守守而勿失與神爲一	-13.4568
自樂也回不願仕孔子愀然變容曰善哉	-13.4568
王子搜援綏登車	-13.4568
我勝若若不吾勝我果是也而果非也邪	-13.4568
今周見殷之亂而遽	-13.4568
猨猴然乎哉三者孰知正處	-13.4568
勇者不敢奮其忮	-13.4568
若王子搜者可謂不以國傷生矣	-13.4568
蜾	-13.4568
聾者不能自聞心之與形吾不知其異也	-13.4569
得失哀樂好惡擾擾萬緒	-13.4569
申徒嘉曰自狀其過以不當亡者衆	-13.4569
是以一人之斷制利天下	-13.4569
惠子謂莊子曰魏王貽我大瓠之種	-13.4569
䜛	-13.4569
禹之治天下使民心變人有心而兵有順	-13.4569
丁釋刀對曰臣之所好者道也進乎技矣	-13.4569
霰	-13.4569
未嘗見夫子遇人如此其威也	-13.4569
知天之所爲知人之所爲者至矣	-13.4569
窻	-13.4569
是故滑疑之耀聖人之所圖也	-13.4569
生青寧青寧生程程生馬馬生人人	-13.4569
殶	-13.4569
然不然可不可困百家之知窮衆口之辯	-13.4569
夭斤斧物無害者無所可用安所困苦哉	-13.4569
是以天下大駭儒墨皆起	-13.4569
有名則尊榮亡名則卑辱	-13.4569
罪中亦有四縁一是所	-13.4569
若是而不可謂成乎物與我無成也	-13.4569
大丈夫處其厚不處其薄	-13.4569
日夜相代乎前而莫知其所萌	-13.4569
朝菌不知晦朔蟪蛄	-13.4569
痛異彼痛彼痛異我痛	-13.457
籖	-13.457
棼	-13.457
痎	-13.457
夫子胡不入乎請講以所聞無趾出	-13.457
曰弟子勉之夫無趾兀者也猶務學以復	-13.457
驅人牛馬取人婦女	-13.457
東維騎箕尾而比於列星	-13.457
覇	-13.457
今丘抱仁義之道以遭亂世之患	-13.457
不以利自累也審自得者失之而不懼行	-13.457
皆重失之見利輕亡其身豈不惑哉	-13.457
崙	-13.457
圃澤之役有伯豐子者	-13.457
史鰌奉御而進所	-13.457
未始離於岑而足以造於怨也	-13.457
三人相與友曰孰能相與於無相與相	-13.457
勇悍果敢聚衆率兵	-13.457
若是而可謂成乎雖我亦成也	-13.457
適先生之所則廢然而反	-13.457
人辯之以相示也故曰辯也者有不見也	-13.4571
知之所不能知者辯不能舉也	-13.4571
已乎已乎旦暮得此其所由以生乎	-13.4571
而宋榮子猶然笑之	-13.4571
攙	-13.4571
黂	-13.4571
自彼則不見自知則知之	-13.4571
种	-13.4571
莫壽乎殤子而彭祖爲夭天地與我並生	-13.4571
帝王順之則治逆之則凶	-13.4571
熄	-13.4571
畢見其情事而行其所爲	-13.4571
思慮不自得中道不成章	-13.4571
𣈆	-13.4571
不遇治世之君也夫六經先王之陳迹也	-13.4571
塈	-13.4571
構以金銀絡以珠玉	-13.4571
無生也而本無形非徒無形也而本無氣	-13.4571
嵁	-13.4571
髏	-13.4571
因其所無而無之則萬物莫不無知東	-13.4571
或以封或不免於洴澼絖則所用之異也	-13.4571
羇	-13.4572
鄽	-13.4572
蹩	-13.4572
人皆尊其知之所知而莫知恃其知之所	-13.4572
愛人也人與之名不告則不知其愛人也	-13.4572
有自也而可有自也而不可	-13.4572
競民孕婦十月生子子生五月而能言	-13.4572
卒授之國無幾何也去寡人而行寡人	-13.4572
大樽而浮乎江湖而憂其瓠落	-13.4572
然而辭朝令而夜遁終身無聞	-13.4572
爲輪以神爲馬予因而乗之豈更駕哉	-13.4572
今指馬之百體而不得馬	-13.4572
是殆見吾杜德機也	-13.4572
故分也者有不分也辯也者有不辯也	-13.4572
[...]
