<unk>	0
<s>	0
</s>	0
之	-4.16821
以	-4.65774
而	-4.89268
為	-4.99763
也	-5.07047
其	-5.10392
於	-5.28608
者	-5.3013
有	-5.39972
不	-5.47929
曰	-5.4879
等	-5.58915
至	-5.60339
王	-5.667
與	-5.6841
則	-5.70683
臣	-5.77122
人	-5.77265
自	-5.80948
大	-5.89677
及	-5.89692
/	-5.92724
無	-5.93443
使	-5.97374
兵	-5.98445
將	-5.98649
一	-6.03721
子	-6.05388
(	-6.06257
上	-6.10522
在	-6.12512
于	-6.15179
行	-6.17527
乃	-6.20327
令	-6.2075
所	-6.2094
事	-6.21246
皆	-6.2433
時	-6.25223
公	-6.25666
今	-6.26286
出	-6.26308
又	-6.26348
矣	-6.30492
已	-6.30504
命	-6.30686
言	-6.31725
亦	-6.36453
如	-6.37389
▁	-6.38238
得	-6.40102
故	-6.41408
若	-6.45214
復	-6.45345
即	-6.45465
見	-6.45609
此	-6.46913
欲	-6.4741
中	-6.47691
入	-6.4837
知	-6.48562
請	-6.49544
我	-6.5007
三	-6.515
可	-6.51561
遂	-6.55651
馬	-6.55703
國	-6.57026
城	-6.57771
)	-6.57801
賊	-6.58341
軍	-6.59959
用	-6.60617
乎	-6.60623
必	-6.61204
因	-6.63544
道	-6.64429
當	-6.64524
下	-6.64569
是	-6.65675
)(	-6.65697
立	-6.67118
非	-6.67334
相	-6.69073
從	-6.7051
州	-6.70846
歸	-6.71803
生	-6.72278
民	-6.72296
後	-6.72497
安	-6.72908
内	-6.73767
多	-6.74673
/)	-6.74878
且	-6.7511
聞	-6.75758
官	-6.77182
成	-6.77412
遣	-6.79299
來	-6.79587
天	-6.80331
爾	-6.8062
山	-6.81927
文	-6.82474
君	-6.82539
爲	-6.82642
張	-6.83098
同	-6.83419
帝	-6.83684
先	-6.83919
死	-6.83936
明	-6.85097
或	-6.85237
既	-6.85291
陳	-6.85667
二	-6.85839
李	-6.85856
未	-6.87864
焉	-6.88554
應	-6.88606
謂	-6.88775
取	-6.89156
日	-6.90098
名	-6.9122
何	-6.92228
方	-6.92287
守	-6.92875
然	-6.93132
地	-6.9315
齊	-6.93366
前	-6.94245
各	-6.94362
正	-6.95326
奏	-6.9763
分	-6.9778
能	-6.98297
雖	-6.99161
衆	-6.99568
南	-7.00375
不能	-7.01088
進	-7.02475
去	-7.02517
殺	-7.0301
發	-7.03066
長	-7.03637
吾	-7.03748
五	-7.03821
書	-7.04095
平	-7.05261
四	-7.05319
徳	-7.05981
師	-7.06357
往	-7.06529
盡	-7.06796
西	-7.07464
定	-7.08254
實	-7.08402
還	-7.09765
不可	-7.10179
重	-7.11351
水	-7.11605
元	-7.12531
周	-7.13068
士	-7.13348
外	-7.13836
惟	-7.13957
數	-7.14218
劉	-7.14653
心	-7.15922
宜	-7.1639
攻	-7.16949
禮	-7.17034
東	-7.1775
由	-7.18288
諸	-7.18463
朕	-7.18582
秦	-7.18591
作	-7.18844
初	-7.19997
主	-7.20022
善	-7.20208
居	-7.20226
俱	-7.20399
家	-7.20545
謀	-7.20567
武	-7.20923
以為	-7.21303
天下	-7.21613
著	-7.22151
信	-7.22221
處	-7.22277
官兵	-7.22424
據	-7.23237
夫	-7.23316
楚	-7.23701
降	-7.23813
過	-7.24159
通	-7.24422
議	-7.24436
㑹	-7.25656
門	-7.26023
始	-7.27737
戰	-7.27743
營	-7.28066
稱	-7.28976
再	-7.29429
趙	-7.29497
親	-7.29856
兩	-7.29975
加	-7.30119
義	-7.30157
金	-7.31114
北	-7.31819
小	-7.32132
並	-7.32223
将	-7.32255
計	-7.32686
氏	-7.32808
思	-7.33192
難	-7.33551
受	-7.33731
克	-7.33757
晉	-7.34204
石	-7.34752
服	-7.34774
合	-7.34941
年	-7.35479
興	-7.35509
食	-7.36058
治	-7.36353
世	-7.36383
失	-7.36486
本	-7.36489
問	-7.36526
朝	-7.36892
力	-7.37089
求	-7.37226
共	-7.37661
留	-7.37821
尚	-7.37834
和	-7.37913
圖	-7.38074
逺	-7.38268
敵	-7.39001
髙	-7.39345
起	-7.39392
河	-7.39453
仍	-7.39819
陽	-7.41241
恐	-7.41526
將軍	-7.41535
常	-7.42471
法	-7.42607
詔	-7.42843
亂	-7.43032
固	-7.43234
但	-7.43424
樂	-7.43798
交	-7.44191
封	-7.44754
任	-7.4501
告	-7.451
卒	-7.45145
德	-7.45327
府	-7.45668
伯	-7.45691
政	-7.4602
身	-7.46219
經	-7.46678
縣	-7.48137
漢	-7.48338
甚	-7.48785
耳	-7.49718
執	-7.49881
意	-7.49993
宋	-7.5003
楊	-7.50455
反	-7.50465
少	-7.50657
車	-7.50689
更	-7.50874
舉	-7.5108
六	-7.51286
奉	-7.51439
深	-7.51615
保	-7.51696
敗	-7.51848
功	-7.52294
致	-7.52482
彼	-7.52621
口	-7.52812
云	-7.53154
都	-7.53501
易	-7.53655
報	-7.54337
利	-7.55082
賜	-7.55706
魏	-7.55805
到	-7.55913
金人	-7.55956
凡	-7.56334
備	-7.56488
宗	-7.56629
田	-7.5671
路	-7.56801
侯	-7.56871
召	-7.56909
猶	-7.57053
兵丁	-7.57054
鄭	-7.5709
止	-7.5764
設	-7.57727
白	-7.57967
并	-7.58333
布	-7.584
隨	-7.58681
地方	-7.58782
土	-7.58979
赴	-7.59317
鎮	-7.60678
俟	-7.60926
益	-7.61532
近	-7.62628
夏	-7.6269
濟	-7.6301
海	-7.63635
率	-7.63736
物	-7.63807
諭	-7.63842
坐	-7.64069
陛下	-7.64071
建	-7.6452
諸侯	-7.64665
罪	-7.6497
回	-7.65081
亡	-7.65672
辦理	-7.65753
伊	-7.65811
制	-7.66265
開	-7.66288
忠	-7.66428
木	-7.66531
送	-7.66767
除	-7.66826
九	-7.66908
置	-7.67876
係	-7.68257
哉	-7.68575
收	-7.68943
勝	-7.69042
許	-7.69359
而不	-7.69622
原	-7.6972
惡	-7.70186
衛	-7.70455
仁	-7.70648
寧	-7.70671
屬	-7.70894
不得	-7.71175
向	-7.71318
特	-7.71681
司	-7.72048
新	-7.72075
光	-7.72114
度	-7.72412
父	-7.72585
辭	-7.72922
帥	-7.73587
全	-7.73897
直	-7.74146
大夫	-7.74263
退	-7.74739
給	-7.75007
遇	-7.75397
拜	-7.75495
間	-7.7553
朝廷	-7.75712
悉	-7.76179
納	-7.76259
阿	-7.76579
賞	-7.76813
神	-7.76901
傳	-7.77129
約	-7.77246
解	-7.77293
左	-7.77632
現在	-7.77697
獨	-7.7788
右	-7.78112
好	-7.78274
望	-7.78442
魯	-7.78622
韓	-7.79358
是以	-7.7939
廣	-7.79899
江	-7.80289
論	-7.80618
百	-7.80698
黄	-7.80764
伐	-7.80784
風	-7.80886
查	-7.80921
願	-7.81071
圍	-7.81169
威	-7.81222
梁	-7.81303
女	-7.81395
於是	-7.8151
龍	-7.81743
誅	-7.81944
汝	-7.8244
犯	-7.83221
節	-7.83301
位	-7.83349
獲	-7.83588
卿	-7.83844
餘	-7.84257
觀	-7.84705
賢	-7.84796
異	-7.85142
貴	-7.85325
之人	-7.85484
首	-7.85533
順	-7.85536
走	-7.861
聲	-7.86587
達	-7.86713
被	-7.86735
就	-7.86738
懼	-7.86817
疾	-7.86835
次	-7.8699
引	-7.8719
獻	-7.87397
不敢	-7.87687
太子	-7.87691
前往	-7.88101
賊匪	-7.88425
變	-7.88612
舊	-7.88738
御	-7.89037
視	-7.8908
修	-7.89101
越	-7.89558
清	-7.90098
林	-7.90177
擊	-7.90592
理	-7.90649
等語	-7.90712
省	-7.90819
敬	-7.91111
吳	-7.91613
志	-7.91619
素	-7.91759
流	-7.91767
陵	-7.91861
逆	-7.92294
存	-7.92358
唐	-7.92465
屯	-7.9259
萬	-7.92606
孫	-7.92616
終	-7.93186
所以	-7.9328
代	-7.93383
夜	-7.93417
足	-7.93545
承	-7.93658
破	-7.93669
授	-7.93988
誠	-7.94188
氣	-7.94296
燕	-7.94423
權	-7.94737
天子	-7.94755
宫	-7.94868
恩	-7.94983
八	-7.95497
厚	-7.95538
噶爾丹	-7.95936
十	-7.95973
語	-7.96341
罷	-7.96432
大臣	-7.96616
運	-7.96843
七	-7.96861
兼	-7.9698
滅	-7.97329
不知	-7.97364
伊等	-7.97802
可以	-7.97831
宣	-7.97979
私	-7.9828
具	-7.98362
動	-7.98393
玉	-7.98496
比	-7.98496
棄	-7.98508
急	-7.98988
務	-7.99043
章	-7.99091
速	-7.99091
福	-7.9929
里	-7.99422
調	-7.99873
教	-8.00028
改	-8.00299
絶	-8.00475
刑	-8.00502
良	-8.00521
延	-8.00766
色	-8.00843
久	-8.00854
載	-8.01683
勿	-8.0192
古	-8.01927
火	-8.02307
祖	-8.02339
永	-8.02518
臺	-8.02906
邊	-8.03017
極	-8.03089
徐	-8.03155
輕	-8.03481
等處	-8.03495
景	-8.0357
乞	-8.03607
追	-8.0375
老	-8.03832
朱	-8.03976
怒	-8.04116
臨	-8.04205
叛	-8.04386
昭	-8.04494
史	-8.04598
衣	-8.04666
豈	-8.04764
莫	-8.05202
郡	-8.05951
闗	-8.06038
敢	-8.06334
説	-8.06625
領	-8.0683
胡	-8.06977
勒	-8.0713
怨	-8.07204
期	-8.07222
派	-8.07301
免	-8.07313
盛	-8.07367
騎	-8.0739
憂	-8.08298
撫	-8.08313
華	-8.08589
孝	-8.08677
之事	-8.09268
移	-8.09306
帶	-8.09525
遣使	-8.09657
適	-8.09876
奔	-8.09918
伏	-8.10301
頭	-8.10315
疑	-8.10344
察	-8.10386
果	-8.1043
大兵	-8.10552
部	-8.10811
勢	-8.10814
嚴	-8.1133
别	-8.11379
待	-8.11404
嘗	-8.11814
邪	-8.11861
春	-8.11974
左右	-8.11992
太	-8.12194
廢	-8.12335
集	-8.12412
斬	-8.1242
月	-8.1265
叔	-8.13341
唯	-8.13369
聖	-8.13619
尊	-8.13624
便	-8.13911
連	-8.14416
勞	-8.14432
救	-8.14498
選	-8.14531
三月	-8.14617
之地	-8.14746
迎	-8.14887
曹	-8.14929
傷	-8.15009
業	-8.15187
愛	-8.15221
吏	-8.15257
秋	-8.15273
喜	-8.15355
馬匹	-8.16338
對曰	-8.1662
如此	-8.1674
祭	-8.17173
顧	-8.17355
學	-8.17454
徒	-8.17475
養	-8.17557
昌	-8.17568
商	-8.17749
慮	-8.17807
夷	-8.17827
遺	-8.17874
離	-8.1796
慶	-8.18115
要	-8.18392
呉	-8.1851
登	-8.18887
討	-8.19019
申	-8.1905
散	-8.19104
幸	-8.194
邑	-8.19435
弗	-8.19645
隂	-8.19929
嵗	-8.20001
糧	-8.20343
職	-8.20526
手	-8.20629
危	-8.21286
弟	-8.21323
號	-8.21409
病	-8.21418
稍	-8.21449
容	-8.215
百姓	-8.21539
謂之	-8.21556
乘	-8.21561
仲	-8.21687
蜀	-8.21882
施	-8.22017
聞之	-8.22152
勇	-8.22727
聽	-8.22966
繼	-8.23023
害	-8.23207
富	-8.23301
川	-8.23302
懐	-8.23322
斯	-8.23467
冬	-8.2352
乗	-8.23524
公子	-8.23601
賊人	-8.23829
結	-8.23887
后	-8.23894
每	-8.23897
遷	-8.23974
蘇	-8.24189
母	-8.24247
差	-8.24429
羅	-8.24639
化	-8.24695
三年	-8.24756
甲	-8.24967
侵	-8.25094
何以	-8.25401
吉	-8.25603
持	-8.25608
宻	-8.25683
彊	-8.25779
造	-8.25857
雲	-8.2587
飛	-8.26073
塞	-8.26252
船	-8.26279
澤	-8.26358
須	-8.26438
米	-8.26663
射	-8.26668
皇	-8.2674
奪	-8.26768
禁	-8.26888
轉	-8.26997
竟	-8.27182
高	-8.27409
巴	-8.27539
兮	-8.27567
專	-8.27623
襲	-8.27674
崇	-8.28066
列	-8.2826
禍	-8.2844
督	-8.28638
均	-8.28829
廟	-8.29081
之兵	-8.29449
草	-8.29579
抵	-8.29692
念	-8.29802
一人	-8.30105
虎	-8.3018
嗣	-8.30522
弱	-8.30596
對	-8.3106
表	-8.31336
恭	-8.31557
錢	-8.31602
不足	-8.31619
紀	-8.32035
目	-8.32118
嘉	-8.32432
補	-8.32489
端	-8.32506
委	-8.3253
積	-8.32724
附	-8.32795
牛	-8.32817
器	-8.32859
来	-8.32866
戎	-8.3287
之後	-8.32883
太后	-8.32956
銀	-8.33053
京	-8.3312
密	-8.33233
屢	-8.33273
援	-8.33347
予	-8.33513
寳	-8.33526
喪	-8.33707
使人	-8.33744
斷	-8.3378
泰	-8.33941
候	-8.34136
軍營	-8.34242
呼	-8.34349
勸	-8.34568
指	-8.34569
卜	-8.34812
堅	-8.35659
畏	-8.35921
室	-8.36252
說	-8.36268
喀爾喀	-8.36438
負	-8.36728
智	-8.3697
賔	-8.37248
大將軍	-8.37345
曰吾	-8.37536
駐劄	-8.37589
之處	-8.37807
患	-8.37889
殿	-8.37906
隆	-8.38197
聚	-8.38433
厄魯特	-8.38696
奏言	-8.38719
郭	-8.3884
君子	-8.38848
台吉	-8.38872
逃	-8.38914
爭	-8.39119
充	-8.39167
情	-8.39169
情形	-8.39285
辦	-8.39408
畢	-8.39511
殷	-8.39534
美	-8.39778
旗	-8.39848
資	-8.39948
二人	-8.40335
諸將	-8.40674
從之	-8.40771
然後	-8.40851
强	-8.409
顯	-8.4092
九月	-8.40983
盟	-8.41083
鄉	-8.41221
依	-8.41341
冦	-8.41359
殺之	-8.41467
役	-8.41533
謹	-8.41541
謝	-8.41625
季	-8.41648
升	-8.41649
尋	-8.41768
客	-8.41794
二月	-8.41865
所有	-8.41865
蔡	-8.41891
征	-8.4194
爵	-8.42407
知之	-8.42417
令其	-8.42583
青	-8.42648
丘	-8.42937
羣	-8.43064
者也	-8.43333
示	-8.43439
會	-8.43534
照	-8.43669
關	-8.44115
孟	-8.44244
副都統	-8.44313
囘	-8.44356
咸	-8.444
輔	-8.44755
臣等	-8.4501
推	-8.45064
監	-8.45335
助	-8.45368
面	-8.45518
野	-8.45672
徃	-8.45679
險	-8.4568
榮	-8.45685
藏	-8.45893
渡	-8.45987
以來	-8.45992
早	-8.46042
毋	-8.46074
六月	-8.46196
額	-8.46236
索	-8.46245
之所	-8.46448
駐	-8.46569
温	-8.46582
接	-8.46863
十二月	-8.47032
該	-8.4735
五月	-8.47359
庶	-8.47698
之時	-8.47822
詣	-8.48018
昔	-8.48097
戒	-8.48143
星	-8.4815
州刺史	-8.48303
康	-8.48401
酒	-8.48431
撥	-8.48549
格	-8.48613
先是	-8.48815
皇上	-8.48824
至是	-8.49167
息	-8.49259
爾等	-8.49471
不過	-8.49574
習	-8.49833
責	-8.49948
維	-8.50091
司馬	-8.50274
防	-8.50571
費	-8.50636
國家	-8.50639
舍	-8.50723
丁	-8.50771
節度使	-8.50932
放	-8.51001
市	-8.51119
薄	-8.51137
象	-8.51605
體	-8.51732
烏	-8.51751
契丹	-8.51797
黨	-8.52025
逐	-8.52042
豫	-8.52261
曽	-8.52314
縱	-8.52486
儀	-8.52745
䇿	-8.52745
投	-8.52791
彦	-8.52817
尤	-8.53287
趨	-8.53314
杜	-8.53402
羣臣	-8.5357
統	-8.53858
八月	-8.54161
偽	-8.5419
折	-8.54329
穆	-8.54401
支	-8.54586
皇帝	-8.54705
豐	-8.54758
滿	-8.5493
靈	-8.5527
陷	-8.55272
按	-8.5542
窮	-8.55467
第	-8.55587
之意	-8.5559
戍	-8.55958
沙	-8.56054
魚	-8.5622
馳	-8.5636
竊	-8.56492
從前	-8.56538
違	-8.56596
郎	-8.56777
虚	-8.56866
覆	-8.57057
現	-8.57088
進兵	-8.57096
雄	-8.57118
(○	-8.57213
苦	-8.57625
京師	-8.57677
舟	-8.57746
管	-8.57776
簡	-8.5779
宿	-8.58495
祀	-8.58574
也今	-8.58728
起程	-8.58737
亮	-8.58801
族	-8.589
讓	-8.59072
况	-8.59086
署	-8.59166
羊	-8.59515
之心	-8.59581
俾	-8.59605
寨	-8.59605
工	-8.60381
博	-8.60462
游牧	-8.60894
飲	-8.60898
真	-8.61258
鼓	-8.61486
振	-8.61801
衞	-8.61833
釋	-8.62142
累	-8.62172
十一月	-8.62186
不如	-8.62199
困	-8.6236
尸	-8.62378
類	-8.62598
而後	-8.62627
揚	-8.6269
二年	-8.62724
審	-8.63212
質	-8.63282
而已	-8.63442
擒	-8.63446
典	-8.63482
余	-8.63588
寵	-8.63677
户	-8.63712
微	-8.63716
䝉	-8.64228
才	-8.64248
内地	-8.6431
性	-8.64414
尚書	-8.64459
虞	-8.64476
境	-8.64487
至於	-8.64557
福康安	-8.64563
例	-8.6465
為之	-8.64661
徙	-8.64681
愈	-8.64742
無所	-8.64759
庫	-8.64769
英	-8.64981
元年	-8.65009
考	-8.65061
財	-8.65327
臺灣	-8.65679
員	-8.65727
之子	-8.66031
遣人	-8.66077
闕	-8.6609
記	-8.66195
孔	-8.66203
竒	-8.66233
己	-8.66256
似	-8.66429
辟	-8.66456
漸	-8.66457
音	-8.66921
惠	-8.6711
領兵	-8.67121
供	-8.6715
程	-8.67202
淵	-8.67441
假	-8.67649
駕	-8.67709
不必	-8.67761
哀	-8.67782
兄弟	-8.67788
蕭	-8.67799
厥	-8.67812
懷	-8.67864
垂	-8.67878
孤	-8.68067
空	-8.68073
今日	-8.681
形	-8.68133
朔	-8.68146
冬十月	-8.68334
曲	-8.68339
字	-8.68371
幾	-8.68456
哈	-8.68848
量	-8.69248
之言	-8.69272
詳	-8.69313
虜	-8.6942
總兵	-8.69488
副	-8.6968
蠻	-8.69861
總	-8.70255
耶	-8.70349
疏	-8.70478
毎	-8.70508
兹	-8.70529
不從	-8.70537
决	-8.70758
夫人	-8.70913
酌	-8.70918
避	-8.7092
辱	-8.71035
寶	-8.71049
曾	-8.71111
佐	-8.71179
㫖	-8.71284
橋	-8.71442
酌量	-8.71532
逸	-8.71574
仰	-8.71617
決	-8.71662
千	-8.71785
乆	-8.71796
主人	-8.718
河南	-8.71852
効力	-8.71866
此時	-8.72008
城中	-8.72105
一日	-8.72182
賦	-8.72256
愚	-8.72344
前進	-8.72404
沈	-8.72553
提	-8.72563
掠	-8.72659
休	-8.72691
貪	-8.72692
中國	-8.72785
暴	-8.72845
允	-8.72853
精	-8.72868
伊犂	-8.72903
哈薩克	-8.72976
邦	-8.73036
忽	-8.73471
賀	-8.73494
禄	-8.73548
妻	-8.73668
寛	-8.73686
築	-8.73755
招	-8.73874
操	-8.7396
農	-8.74012
兒	-8.74228
參	-8.7428
士卒	-8.74335
廷	-8.74477
逹	-8.74517
奏稱	-8.74914
遽	-8.75059
徴	-8.75157
薦	-8.75203
賊衆	-8.75486
革	-8.75668
背	-8.75758
洪	-8.75797
雨	-8.75799
友	-8.75858
前來	-8.75904
訓	-8.76055
擇	-8.76098
干	-8.7612
阻	-8.76196
覺	-8.76281
将軍	-8.76282
頗	-8.76647
太守	-8.76676
籍	-8.76742
孔子	-8.76768
其所	-8.76901
緩	-8.76928
傅	-8.77146
秋七月	-8.77163
他	-8.77352
具奏	-8.77474
葬	-8.7748
用兵	-8.77511
略	-8.77658
諸軍	-8.77801
其餘	-8.78138
天下之	-8.78145
符	-8.78248
誰	-8.78314
茍	-8.78408
姑	-8.7845
所謂	-8.78496
吕	-8.78578
侍衛	-8.78748
牧	-8.78938
檄	-8.7912
社稷	-8.7919
衰	-8.79313
諫	-8.79314
之間	-8.79381
禹	-8.79509
拔	-8.79534
殊	-8.79714
賈	-8.79748
横	-8.7976
不及	-8.79918
掌	-8.79943
錫	-8.8016
詩	-8.80204
雅	-8.80216
肆	-8.80509
二十	-8.80836
引兵	-8.80874
慎	-8.80898
事宜	-8.81002
䕶	-8.81189
席	-8.81221
房	-8.81337
阿睦爾撒納	-8.81363
獄	-8.81437
鼎	-8.81718
效	-8.81903
桓	-8.81909
半	-8.81925
莊	-8.81938
姓	-8.82207
翼	-8.82396
夏四月	-8.8243
軍前	-8.8247
䘚	-8.82526
増	-8.82563
人之	-8.82598
赤	-8.82662
尹	-8.82982
擬	-8.83088
匹	-8.8311
即位	-8.83263
丹	-8.83294
此次	-8.83342
淮	-8.83437
機	-8.83462
人等	-8.83654
逼	-8.83937
僅	-8.8397
災	-8.83993
庭	-8.84272
某	-8.843
刻	-8.84464
夀	-8.84503
春秋	-8.8456
口糧	-8.84564
庸	-8.84597
即行	-8.84604
卷	-8.84662
恃	-8.84702
遵	-8.84771
與之	-8.84891
由是	-8.84974
將士	-8.8506
䝉古	-8.85246
冀	-8.85324
享	-8.85454
飭	-8.85686
郊	-8.85713
切	-8.85802
潰	-8.859
種	-8.86083
雍	-8.8612
咨	-8.86193
是日	-8.86258
巴里坤	-8.86393
寡人	-8.86577
勤	-8.86587
賞給	-8.86659
帶兵	-8.86756
倫	-8.87159
也故	-8.8732
而無	-8.87413
潛	-8.87481
兄	-8.87501
寒	-8.87578
蘭	-8.87645
不為	-8.87774
上諭	-8.88123
蓋	-8.88154
飾	-8.88168
許之	-8.8848
什	-8.88485
帶領	-8.88494
優	-8.88638
班	-8.88777
堂	-8.88835
四方	-8.88892
湯	-8.88899
使者	-8.8894
勲	-8.88966
哭	-8.89
毁	-8.89018
都統	-8.89093
冠	-8.89161
奮	-8.89215
妄	-8.89221
陜西	-8.89224
提督	-8.89305
未有	-8.8947
一切	-8.89523
閒	-8.89666
一帶	-8.89796
逆賊	-8.89949
樓	-8.90042
茂	-8.90159
足以	-8.90443
葢	-8.90498
侍	-8.90511
上諭軍機大臣曰	-8.9054
争	-8.9067
嶺	-8.90828
角	-8.90906
併	-8.90976
所奏	-8.9101
榖	-8.91039
肅	-8.91108
國之	-8.91382
貢	-8.91634
子曰	-8.91814
番	-8.91849
百官	-8.91917
介	-8.92002
范	-8.92077
震	-8.92289
刀	-8.92305
董	-8.92366
君之	-8.92476
預	-8.92561
犇	-8.92574
試	-8.92909
識	-8.92934
樹	-8.93148
常青	-8.93231
拉	-8.93472
項	-8.93589
付	-8.93606
回人	-8.93643
擊之	-8.93665
究	-8.93673
住	-8.9386
衡	-8.94307
○	-8.94486
畧	-8.945
崔	-8.94576
乾	-8.94595
詐	-8.946
倉	-8.94601
其子	-8.94763
該處	-8.94832
戴	-8.94838
盧	-8.95058
毛	-8.95071
尚未	-8.95099
總督	-8.95136
狀	-8.95139
需	-8.95333
准	-8.95389
屈	-8.95401
焚	-8.95683
赦	-8.95717
查明	-8.95763
隊	-8.95816
欽	-8.95854
孰	-8.95884
之罪	-8.959
誤	-8.95916
超	-8.9594
借	-8.95992
捕	-8.96003
知其	-8.9617
大王	-8.96261
四年	-8.96376
貫	-8.96391
谷	-8.9651
行走	-8.9653
界	-8.96659
婦	-8.96775
扵	-8.9682
憲	-8.96857
紹	-8.971
柴大紀	-8.97109
歡	-8.97137
術	-8.9717
溝	-8.97238
我兵	-8.9728
印	-8.97402
荒	-8.97521
貞	-8.97552
聖人	-8.97554
河北	-8.97568
游	-8.9772
舜	-8.97733
必有	-8.97811
趣	-8.97821
希	-8.97981
者皆	-8.9805
擾	-8.98056
策	-8.98059
天地	-8.98094
而去	-8.9811
拒	-8.98354
馮	-8.98461
驚	-8.98468
遼	-8.98481
姦	-8.98572
歌	-8.98623
部落	-8.98813
僕	-8.98885
戮	-8.9912
玄	-8.99198
文武	-8.99208
也夫	-8.99246
洛	-8.99275
鳴	-8.99333
竄	-8.99439
公孫	-8.99498
律	-8.99592
鳥	-8.99602
寺	-8.99661
三日	-8.99709
寇	-8.99802
缺	-8.99983
軍中	-9.00079
淫	-9.00195
如何	-9.00213
之道	-9.0047
宰	-9.00688
桓公	-9.00693
事務	-9.0077
伍	-9.00817
雜	-9.00853
詞	-9.00993
靖	-9.00996
之計	-9.01053
陸	-9.0111
都督	-9.01172
誓	-9.012
人心	-9.01215
荆	-9.01248
之士	-9.0131
寜	-9.01575
甘	-9.0215
續	-9.02156
恨	-9.02194
材	-9.02205
否	-9.02225
奸	-9.02232
遁	-9.02391
誘	-9.02482
陸續	-9.02491
凶	-9.02546
不許	-9.02562
泉	-9.02586
舒	-9.02591
弓	-9.02598
宰相	-9.02822
俊	-9.02885
羽	-9.02931
防守	-9.03019
奏請	-9.0308
感	-9.03236
矢	-9.03278
幣	-9.03446
驕	-9.03635
官軍	-9.03681
倘	-9.03728
協	-9.0373
諸羅	-9.0377
賴	-9.03784
曰此	-9.03862
亟	-9.03904
以致	-9.03926
李侍堯	-9.03929
奚	-9.04058
其後	-9.04099
死者	-9.04164
徑	-9.04178
一路	-9.04183
忘	-9.04239
有所	-9.04348
徵	-9.04387
刺	-9.04463
正月	-9.04506
太原	-9.04589
罰	-9.04776
一面	-9.04961
薛	-9.05033
秀	-9.0511
曰我	-9.05112
最	-9.0518
奏聞	-9.05427
割	-9.05443
彭	-9.05497
擒獲	-9.05586
訪	-9.05695
儒	-9.05734
斬之	-9.05734
五年	-9.05756
準噶爾	-9.05894
敏	-9.05959
將兵	-9.0599
上下	-9.06145
山東	-9.06208
西安	-9.06292
祝	-9.0635
襄	-9.06451
史記	-9.06487
價	-9.06516
末	-9.06614
殘	-9.0662
浚	-9.06621
夢	-9.06666
牙	-9.06734
損	-9.06967
循	-9.07009
寡	-9.0707
辰	-9.07101
傳諭	-9.07122
笑	-9.07202
却	-9.07254
細	-9.07335
御史	-9.07341
侍郎	-9.07342
周公	-9.07407
綱	-9.07481
案	-9.07527
顔	-9.07528
單	-9.07573
占	-9.0763
邀	-9.07787
進𠞰	-9.07838
敦	-9.07915
西路	-9.08007
吴	-9.08039
四月	-9.08163
雪	-9.08167
巡撫	-9.08228
専	-9.08234
所屬	-9.0826
有司	-9.08271
之日	-9.08282
畫	-9.08304
小人	-9.08312
葉	-9.08358
俗	-9.08423
抑	-9.08484
奏入報聞	-9.08566
遊	-9.08623
悔	-9.08631
㑹同	-9.08635
貝勒	-9.08668
上曰	-9.08715
屯田	-9.09108
竹	-9.09129
州縣	-9.09138
謙	-9.09159
䧟	-9.09173
壯	-9.09327
發兵	-9.09429
匪	-9.09619
未嘗	-9.09693
加恩	-9.09762
邉	-9.09877
社	-9.0991
序	-9.09923
以示	-9.09985
耕	-9.10186
吐蕃	-9.10203
未能	-9.10331
熟	-9.1036
竭	-9.10408
增	-9.10495
辨	-9.10564
津	-9.10641
訊	-9.10692
驛	-9.10713
有餘	-9.10802
卑	-9.10808
慈	-9.10815
勅	-9.11002
大學士	-9.1102
科	-9.11024
聼	-9.11151
而還	-9.11164
探	-9.11169
厯	-9.11364
宰桑	-9.11376
詢	-9.11391
珍	-9.11426
惑	-9.11809
忌	-9.1184
弘	-9.11891
驅	-9.1194
撃	-9.12176
裕	-9.12193
陣	-9.12198
聴	-9.12219
長安	-9.12225
盖	-9.12236
十二	-9.12283
臺站	-9.12299
其言	-9.12415
不肯	-9.12557
旁	-9.12578
買	-9.12645
藉	-9.12647
人也	-9.12722
雲南	-9.12815
啓	-9.12852
大軍	-9.12866
暫	-9.12866
鍾	-9.13125
堯	-9.13126
而行	-9.13144
齊侯	-9.13154
輒	-9.13339
衝	-9.13392
河東	-9.13478
太祖	-9.13614
録	-9.13825
幽	-9.13839
内外	-9.14137
輿	-9.14171
京城	-9.14283
啟	-9.14328
三千	-9.14467
宴	-9.14511
奈何	-9.14567
履	-9.14624
源	-9.1466
四川	-9.14669
鄂	-9.14673
餉	-9.14673
父母	-9.14678
距	-9.147
副將	-9.14817
蔽	-9.14881
撤	-9.14926
烈	-9.14927
祥	-9.15024
減	-9.15213
二千	-9.15333
厲	-9.15399
霸	-9.15596
十月	-9.15697
塔	-9.1576
盜	-9.15832
晉侯	-9.15886
盗	-9.159
憤	-9.15965
以待	-9.15967
托	-9.15968
敕	-9.16021
級	-9.16099
旦	-9.16146
賤	-9.1627
穀	-9.16288
堡	-9.16433
歲	-9.1654
池	-9.16568
貨	-9.16851
渠	-9.16904
壽	-9.16967
寢	-9.17062
尾	-9.17146
昨	-9.17327
規	-9.17328
狄	-9.17559
貶	-9.17615
之故	-9.17679
是時	-9.17726
公曰	-9.17741
正法	-9.17758
指揮	-9.17765
中外	-9.17878
五十	-9.17937
其衆	-9.17949
至于	-9.18133
姬	-9.18191
道路	-9.18244
官員	-9.18286
進攻	-9.18367
浮	-9.18455
従	-9.18475
崩	-9.185
汗	-9.18575
藩	-9.18576
松	-9.18587
父子	-9.1862
喇	-9.18649
不勝	-9.18664
十年	-9.187
靡	-9.18702
子孫	-9.18703
粟	-9.18724
落	-9.18797
入城	-9.18824
丞相	-9.18854
岳	-9.18978
桑	-9.19045
閣	-9.19056
步	-9.19133
遠	-9.19245
總兵官	-9.19273
以備	-9.19328
擅	-9.1938
妾	-9.19405
弑	-9.19443
不復	-9.19493
斗	-9.19533
託	-9.19559
前後	-9.19603
城下	-9.19706
歩	-9.19868
賂	-9.20067
根	-9.20114
昏	-9.20117
踰	-9.20157
較	-9.20158
歴	-9.20182
輸	-9.20192
無不	-9.20443
率兵	-9.20479
禦	-9.20633
普	-9.20708
於此	-9.20827
鄙	-9.21038
武王	-9.21068
注	-9.21094
不然	-9.21124
屋	-9.2113
猛	-9.21136
眀	-9.21325
沿途	-9.21381
井	-9.2142
卡倫	-9.21495
之衆	-9.21508
基	-9.21568
江南	-9.21704
剛	-9.21717
頃	-9.21775
弼	-9.21834
胥	-9.21949
旋	-9.2197
限	-9.22056
阿桂	-9.22084
環	-9.22085
守備	-9.22105
突厥	-9.22122
莫不	-9.22185
隠	-9.22208
辛	-9.22379
我等	-9.22385
奮勇	-9.22572
恒	-9.22623
分兵	-9.22626
湖	-9.22702
有功	-9.22742
恤	-9.22897
不至	-9.22926
宮	-9.22946
曉諭	-9.22952
所在	-9.23038
乏	-9.23164
露	-9.2334
縁	-9.23342
弊	-9.2344
壁	-9.23473
燒	-9.23571
以下	-9.23694
配	-9.23756
鄧	-9.24083
皇后	-9.24208
文王	-9.24218
三百	-9.24244
削	-9.24373
欺	-9.24464
言之	-9.24541
明日	-9.24594
藥	-9.24616
𤣥	-9.24652
忍	-9.2469
壘	-9.24867
寄	-9.24884
不可以	-9.24944
江西	-9.24958
堪	-9.25023
不聽	-9.25066
成都	-9.25133
秦王	-9.252
辯	-9.25203
一千	-9.25397
大敗	-9.25446
姚	-9.25503
中原	-9.25591
數萬	-9.25758
黒	-9.25882
兵力	-9.25883
稽	-9.25886
捷	-9.25886
斃	-9.25933
並無	-9.26
其事	-9.26055
短	-9.26059
十萬	-9.26095
著傳諭	-9.2612
完	-9.26122
之功	-9.26314
奏報	-9.26344
貿易	-9.26362
上言	-9.26372
倍	-9.26678
洗	-9.26699
其罪	-9.2677
千里	-9.26776
咎	-9.26787
札	-9.26821
糧餉	-9.26901
院	-9.26913
亦不	-9.26947
沒	-9.27086
歳	-9.27153
彌	-9.27254
痛	-9.27362
妃	-9.2737
収	-9.27443
不若	-9.27533
募	-9.2755
不見	-9.27597
杖	-9.27617
不忍	-9.27689
劒	-9.27712
繫	-9.27762
韋	-9.27773
站	-9.27946
既而	-9.27995
條	-9.28157
可汗	-9.28161
階	-9.28167
伯克	-9.28176
匿	-9.2818
來降	-9.2821
匈奴	-9.28272
誣	-9.28329
往來	-9.28422
圗	-9.28461
畨	-9.28481
掩	-9.28517
謁	-9.28527
三人	-9.28824
溪	-9.28845
再行	-9.28846
七月	-9.2887
北路	-9.28996
甚多	-9.29107
寧夏	-9.2912
閉	-9.2919
貧	-9.292
以此	-9.29251
采	-9.2934
用之	-9.29435
料	-9.29563
灋	-9.29574
囚	-9.29577
臧	-9.296
肉	-9.2963
偏	-9.29663
講	-9.29879
王曰	-9.29906
居住	-9.30009
不出	-9.30088
拏獲	-9.30217
逮	-9.30251
以爲	-9.3028
蒲	-9.30396
總管	-9.3056
成功	-9.30567
自應	-9.30749
妻子	-9.30828
之際	-9.30829
巡	-9.30876
血	-9.30882
疆	-9.30912
旅	-9.31064
辦事	-9.31114
饑	-9.31118
尼堪	-9.31201
薩	-9.31297
閲	-9.31307
倚	-9.31411
甫	-9.31412
館	-9.31419
書曰	-9.31475
七年	-9.315
柔	-9.31525
深入	-9.31552
以其	-9.31599
潜	-9.31649
遲	-9.3166
純	-9.3171
六十	-9.31725
殆	-9.32104
秉	-9.32163
而死	-9.32174
不行	-9.32208
煩	-9.32223
添	-9.32255
之民	-9.32359
整	-9.3248
也其	-9.32492
盈	-9.32496
軍士	-9.32634
導	-9.32704
曰今	-9.32737
數日	-9.32859
二百	-9.32993
不與	-9.33017
雖有	-9.33023
不可不	-9.33068
傾	-9.33093
不以	-9.33212
喇嘛	-9.33316
卡	-9.33325
淮南	-9.33382
前鋒	-9.33417
三十	-9.33493
裁	-9.3363
贊	-9.33824
戸	-9.33833
鎭	-9.33949
述	-9.33963
皮	-9.34017
聘	-9.34018
將來	-9.34032
擁	-9.34039
解送	-9.3404
恥	-9.34155
校	-9.34156
脩	-9.34302
舞	-9.34318
楚子	-9.34501
嵩	-9.34682
擢	-9.34754
亦有	-9.34845
六年	-9.34933
各處	-9.35226
一體	-9.35292
黎	-9.3537
儲	-9.354
雷	-9.35523
哈密	-9.35529
班第	-9.35588
貳	-9.35713
豈可	-9.35794
大事	-9.35844
僧	-9.35973
附近	-9.35984
人皆	-9.35989
随	-9.35996
數千	-9.36029
分别	-9.36042
可謂	-9.3607
龜	-9.36073
一員	-9.36084
泣	-9.36125
珠	-9.36206
齒	-9.36368
鳯	-9.36457
懸	-9.36515
十五	-9.36608
萬餘	-9.36734
不用	-9.36742
閩	-9.36836
義民	-9.36857
七十	-9.36963
柱	-9.36987
曰君	-9.36997
不免	-9.37161
袁	-9.37169
莽	-9.37193
式	-9.37267
建康	-9.37306
不相	-9.3755
齎	-9.37566
亦可	-9.37702
躬	-9.37734
洛陽	-9.37886
燕王	-9.38009
單于	-9.38066
截	-9.38149
㨗	-9.38258
姜	-9.38307
騰	-9.38364
兆惠	-9.38383
扶	-9.3854
鹽	-9.38579
漢中	-9.38664
鹿	-9.38763
烏魯木齊	-9.38851
骨	-9.3888
尚有	-9.3903
錯	-9.39058
萬人	-9.39166
之禮	-9.39274
阿克蘇	-9.39331
之役	-9.39359
確	-9.39523
抗	-9.39526
萬物	-9.39533
並未	-9.39535
巧	-9.39594
籌	-9.39681
取之	-9.39756
丕	-9.39784
鋭	-9.39872
衍	-9.3998
繁	-9.40063
國人	-9.40141
銀兩	-9.40155
統領	-9.40216
兩路	-9.40504
遭	-9.40512
翟	-9.40671
仙	-9.40696
畜	-9.40767
軍務	-9.40769
砲	-9.4078
只	-9.40789
側	-9.40837
八年	-9.409
勦	-9.40925
祗	-9.40993
自是	-9.41034
盤	-9.41077
駐防	-9.41123
受命	-9.41212
巢	-9.41231
欲以	-9.41313
陰	-9.41347
仗	-9.41378
何也	-9.4151
冒	-9.41522
攝	-9.41524
言於	-9.41569
東南	-9.41606
迅速	-9.41664
男	-9.41794
斥	-9.41834
屠	-9.41839
婦人	-9.41854
上皇	-9.42019
故曰	-9.4206
不同	-9.42215
舎	-9.42266
虛	-9.42314
羌	-9.42401
以聞	-9.4259
何如	-9.42602
來京	-9.42622
綏	-9.42663
奮勉	-9.42682
不足以	-9.4271
阿逆	-9.42859
賣	-9.43017
祠	-9.43285
一時	-9.43319
沮	-9.43508
鄭伯	-9.43553
以上	-9.43579
調遣	-9.43848
涉	-9.43878
滋	-9.43909
惜	-9.43915
之勢	-9.43977
楚王	-9.43983
麟	-9.43997
編	-9.44127
静	-9.44225
疲	-9.44325
彰	-9.44483
戚	-9.44549
上書	-9.44557
不言	-9.4483
瑞	-9.44885
固守	-9.4503
遵㫖	-9.4513
不克	-9.45146
曰子	-9.45224
幼	-9.45261
罕	-9.45425
覽	-9.45463
魏主	-9.4547
□	-9.45567
麻	-9.45598
其地	-9.45663
隱	-9.45756
諌	-9.45767
毒	-9.45773
出兵	-9.45854
㓂	-9.4594
之中	-9.45948
祿	-9.46151
鐵	-9.46187
肥	-9.462
属	-9.46226
此事	-9.46326
甘省	-9.46335
勉	-9.46363
嬰	-9.4639
練	-9.46408
徹	-9.46461
平定	-9.4652
輙	-9.46588
北面	-9.4659
同日	-9.46682
釁	-9.467
又有	-9.46733
太尉	-9.4678
䘮	-9.46816
宏	-9.46893
荆州	-9.4691
夫子	-9.46922
一併	-9.47082
睿	-9.47095
林爽文	-9.47173
儉	-9.47217
渡河	-9.47271
預備	-9.47386
拘	-9.47543
青海	-9.47581
懿	-9.47598
徽	-9.47626
岸	-9.47653
挾	-9.47659
何為	-9.47666
蕩	-9.47738
侍中	-9.47929
恵	-9.4794
入朝	-9.47989
旣	-9.47989
俘	-9.4824
行文	-9.48335
叙	-9.48374
突	-9.48401
未可	-9.4841
悲	-9.48447
岱	-9.48453
諸路	-9.4847
無以	-9.4848
斂	-9.48571
巨	-9.48597
奴	-9.48672
晏	-9.48677
亭	-9.48697
弔	-9.48763
兆	-9.48801
一百	-9.48816
眷	-9.48825
璧	-9.48828
五百	-9.48829
麥	-9.48897
贈	-9.48926
相與	-9.49128
鄰	-9.49178
鹿仔港	-9.49375
是故	-9.49408
黙	-9.49425
故也	-9.49428
即令	-9.49542
若不	-9.49607
金川	-9.49721
使臣	-9.49747
捐	-9.49769
二子	-9.49783
虐	-9.49806
屏	-9.49827
打仗	-9.49921
豆	-9.49977
𠞰	-9.5001
副使	-9.50045
豈不	-9.50049
諾	-9.50105
莒	-9.50157
接濟	-9.50248
諱	-9.50305
多爾濟	-9.50315
産	-9.50317
銜	-9.50317
之數	-9.50331
曉	-9.50365
公主	-9.50401
肅州	-9.50445
潘	-9.50469
攻之	-9.50485
頒	-9.50575
襄陽	-9.50646
給與	-9.50776
同知	-9.50855
刼	-9.50889
隻	-9.51003
以告	-9.51057
大小	-9.51116
諭㫖	-9.51146
冊	-9.51211
前赴	-9.51305
文公	-9.51386
觧	-9.51443
脱	-9.51463
紂	-9.51505
司徒	-9.51586
晏子	-9.5167
五千	-9.51751
至此	-9.51753
仇	-9.51869
可也	-9.51913
之外	-9.51927
烏梁海	-9.51956
貯	-9.5204
禀	-9.52047
而出	-9.52113
太平	-9.52118
民之	-9.52243
尺	-9.52324
碉	-9.52357
抱	-9.52358
園	-9.52372
戈	-9.52521
此等	-9.52543
破之	-9.52562
頓	-9.52599
一名	-9.52641
蒙	-9.52649
大同	-9.52711
古之	-9.52762
子弟	-9.52797
旬	-9.52842
另	-9.5286
達賴喇嘛	-9.52867
答	-9.52876
遜	-9.52931
器械	-9.52991
拏	-9.53012
況	-9.53061
錢糧	-9.53137
展	-9.5321
狐	-9.5326
親王	-9.53284
萬一	-9.53304
子之	-9.5332
進取	-9.53553
陣亡	-9.53582
了	-9.53593
二萬	-9.53641
出入	-9.53651
者不	-9.53759
率衆	-9.53842
瑪	-9.53885
偃	-9.53891
遣兵	-9.53975
秋八月	-9.54043
鄴	-9.54053
如是	-9.54066
曰臣	-9.5413
之用	-9.54375
西北	-9.54395
夕	-9.54445
譽	-9.54481
元帥	-9.54494
甘肅	-9.54553
瑾	-9.54613
救之	-9.54647
車駕	-9.54729
隙	-9.54792
激	-9.54897
卓	-9.54936
狂	-9.54996
扎薩克	-9.55037
兵馬	-9.55052
殺賊	-9.55188
先帝	-9.55219
陞	-9.55298
大國	-9.55344
派兵	-9.55365
誅之	-9.55491
已經	-9.55556
午	-9.55699
馬駝	-9.55752
㡬	-9.55824
効	-9.55825
幹	-9.55852
丈	-9.55866
來歸	-9.55882
雞	-9.55966
墨	-9.56004
察哈爾	-9.56171
治罪	-9.56245
帥師	-9.56281
遊擊	-9.56345
山西	-9.56399
忠義	-9.56416
佐領	-9.56431
璋	-9.5651
牢	-9.56536
鼔	-9.56544
上命	-9.56574
投誠	-9.56655
苗	-9.56701
匡	-9.56733
加意	-9.56778
夾	-9.56872
枝	-9.56916
哲	-9.56924
鬼	-9.5695
裴	-9.57041
逢	-9.57107
王子	-9.57345
守禦	-9.57362
先王	-9.57429
長史	-9.57564
攻城	-9.57604
渾	-9.57637
塗	-9.57716
攸	-9.57815
着	-9.57824
兵部	-9.57954
宗廟	-9.57965
欵	-9.57976
育	-9.58041
迫	-9.58052
賫	-9.58142
陶	-9.58171
吐魯番	-9.5821
劾	-9.58226
數人	-9.58258
防範	-9.58264
孔子曰	-9.58304
舒赫徳	-9.58598
慰	-9.58666
鑒	-9.58676
諸王	-9.58757
村	-9.58789
難以	-9.58946
晝夜	-9.59102
縛	-9.5924
庄	-9.59257
閔	-9.59316
君臣	-9.59346
明年	-9.59373
紅	-9.59406
詩曰	-9.59516
齊人	-9.59548
警	-9.5956
精兵	-9.59562
之法	-9.5987
峻	-9.59925
宇	-9.59962
赫	-9.59995
祖宗	-9.60162
其國	-9.60177
駝	-9.60183
之初	-9.6019
郡王	-9.60196
四十	-9.60236
王倫	-9.60283
得其	-9.60344
停	-9.60362
伊犁	-9.60399
邵	-9.60435
窺	-9.60648
之上	-9.60801
浩	-9.60833
歸化城	-9.60835
犬	-9.60903
篇	-9.61099
扎	-9.61173
尼	-9.61206
四人	-9.61221
㧞	-9.61265
晟	-9.6133
濬	-9.61389
軍民	-9.61443
出力	-9.61526
郤	-9.61529
囘人	-9.61571
等皆	-9.61656
詰	-9.61745
數百	-9.61781
鳳	-9.61782
利害	-9.61886
斬首	-9.61985
㠯	-9.62232
諒	-9.62273
𣲖	-9.6229
不致	-9.62297
就近	-9.62317
洋	-9.62365
㫁	-9.62446
祚	-9.62519
帝曰	-9.62579
南北	-9.62601
甲子	-9.62628
安插	-9.62644
鋒	-9.6266
獸	-9.6267
八十	-9.62745
台	-9.62768
被賊	-9.62813
九年	-9.62821
霍集占	-9.62831
宅	-9.62832
樞	-9.62833
罔	-9.62863
醫	-9.62888
巫	-9.6289
底	-9.62927
一旦	-9.62931
之徒	-9.62963
駐兵	-9.63061
脅	-9.63099
禽	-9.63132
日月	-9.63136
之國	-9.6324
四海	-9.6325
核	-9.63301
為人	-9.63325
臨清	-9.63348
先生	-9.63419
洞	-9.63434
軍需	-9.63602
十五日	-9.63619
嗣後	-9.63645
尉	-9.63746
標	-9.63869
㣲	-9.63927
汴	-9.64031
鬬	-9.64145
茶	-9.64145
不欲	-9.64172
諸臣	-9.64286
讎	-9.6433
讀	-9.64339
禮也	-9.64357
西南	-9.64382
械	-9.64398
蕃	-9.64398
庻	-9.64549
矜	-9.64744
公羊傳	-9.64803
翰	-9.64888
及其	-9.64922
䕶軍	-9.64932
花	-9.6495
其中	-9.64978
自成	-9.64998
敷	-9.65002
催	-9.65044
自古	-9.65048
滿洲	-9.65053
無事	-9.65115
諸處	-9.6513
熊	-9.65158
成王	-9.65169
亨	-9.6522
妖	-9.65235
頭目	-9.65277
禪	-9.65292
厭	-9.65323
誕	-9.65353
熈	-9.65371
長沙	-9.65482
珪	-9.65563
者必	-9.65611
恱	-9.65637
以兵	-9.65717
之子也	-9.65834
不下	-9.65866
饗	-9.65873
值	-9.65882
人主	-9.6592
不便	-9.65954
陜	-9.65987
弁	-9.66016
傑	-9.66028
與其	-9.66087
侍衞	-9.66109
千餘人	-9.66172
佛	-9.66216
也而	-9.66278
之師	-9.66336
又以	-9.66341
瓊	-9.66408
留守	-9.66409
亦無	-9.66416
鑄	-9.66446
鴻	-9.66644
渡江	-9.6667
之理	-9.66689
不受	-9.66702
怠	-9.66704
業經	-9.66762
左傳	-9.66786
使之	-9.66832
入覲	-9.66874
段	-9.6688
爰	-9.66905
見之	-9.66972
未至	-9.66981
金主	-9.67131
奏曰	-9.6722
葛	-9.67241
樊	-9.67285
植	-9.673
昧	-9.67311
黜	-9.67335
晉人	-9.67344
酋	-9.6741
播	-9.67486
之例	-9.67488
訖	-9.67489
仕	-9.67506
之語	-9.67539
束	-9.67629
大怒	-9.67656
宥	-9.67666
輩	-9.67692
堵截	-9.67695
楚人	-9.67765
政事	-9.67833
派出	-9.67891
没	-9.67954
祐	-9.6797
寔	-9.68105
鎗	-9.68121
驗	-9.68178
查辦	-9.68198
不利	-9.68324
宗室	-9.68343
其心	-9.68389
起兵	-9.68489
其人	-9.68609
越王	-9.68673
晋	-9.68685
軌	-9.68762
邾	-9.68809
前去	-9.68933
也若	-9.68939
乃止	-9.68963
達瓦齊	-9.68993
之患	-9.69011
中山	-9.69088
噶	-9.692
數十	-9.69246
爽	-9.6925
者何	-9.69428
壊	-9.69512
把	-9.69565
撤回	-9.69621
民人	-9.698
數年	-9.69804
懲	-9.6987
進勦	-9.69912
寡君	-9.69914
之謀	-9.70004
是也	-9.70021
千人	-9.70053
眞	-9.70086
算	-9.70148
競	-9.70149
而歸	-9.70154
速行	-9.70314
追之	-9.7033
乾隆	-9.7033
府城	-9.70536
臯	-9.70591
人情	-9.70657
張廣泗	-9.70734
管仲	-9.70841
十六	-9.70922
澄	-9.70977
相機	-9.71002
霍	-9.71005
慕	-9.71021
三萬	-9.71073
再拜	-9.71095
司空	-9.71172
坦	-9.71195
獵	-9.71203
自當	-9.71218
十五年	-9.71247
又曰	-9.71458
皆有	-9.71474
屬人	-9.71486
郢	-9.71494
鬭	-9.71507
𨽻	-9.71606
途	-9.7161
脫	-9.71628
而來	-9.71676
瞻	-9.71696
其民	-9.71748
敝	-9.71914
粮	-9.71985
齊王	-9.71988
未經	-9.72196
子産	-9.72233
各營	-9.72248
甚屬	-9.72262
即可	-9.72298
呈	-9.72321
烏什	-9.7236
跪	-9.72385
黑	-9.72392
一事	-9.72503
景公	-9.72525
揖	-9.72551
招撫	-9.72564
淺	-9.72616
西寧	-9.72647
舉兵	-9.72672
之禍	-9.72701
祈	-9.72751
請以	-9.72765
榜	-9.72799
看	-9.72812
晚	-9.72819
擒拏	-9.72847
籌辦	-9.72854
不在	-9.72871
恣	-9.72892
薨	-9.72899
郎中	-9.72908
氏之	-9.72945
肯	-9.72988
乃以	-9.73017
祁	-9.73025
人員	-9.73052
形勢	-9.73164
降㫖	-9.73167
士民	-9.73206
渉	-9.73281
忿	-9.73295
夏五月	-9.73421
悦	-9.73433
刺史	-9.73478
賊勢	-9.73485
帥衆	-9.73505
邢	-9.73587
中軍	-9.7363
以資	-9.73701
俱係	-9.73701
詢問	-9.73725
十三年	-9.73735
討之	-9.73744
押	-9.73762
給事中	-9.73849
廵	-9.73851
強	-9.73957
何不	-9.74035
逃竄	-9.74049
打	-9.74066
奉㫖	-9.74097
賑	-9.74109
廣東	-9.74187
絳	-9.74221
理藩院	-9.7427
朗	-9.74365
想	-9.74374
十三	-9.74409
波	-9.7443
鐘	-9.74461
世子	-9.74491
邦昌	-9.74556
巳	-9.7471
其黨	-9.74722
豈有	-9.74723
鈞	-9.74803
刃	-9.74833
頼	-9.74834
襄公	-9.74883
不得已	-9.74961
上年	-9.74962
是謂	-9.75022
壇	-9.75074
荷	-9.751
相見	-9.75109
不當	-9.75194
岳鍾琪	-9.75279
竇	-9.75379
約束	-9.75399
悟	-9.7541
寸	-9.75482
瓦	-9.7551
豪	-9.75521
牲	-9.75539
搶掠	-9.75542
秩	-9.75575
含	-9.7559
隋	-9.75606
稍有	-9.75625
寅	-9.7579
腹	-9.75798
其君	-9.75817
創	-9.75834
劫	-9.76022
歛	-9.76079
怪	-9.76106
得之	-9.76108
皇太后	-9.76173
汪	-9.76188
布魯特	-9.76472
奇	-9.76521
墮	-9.76534
金國	-9.76578
相繼	-9.76707
攜	-9.76728
羞	-9.76793
鮮	-9.76804
福建	-9.76805
懇	-9.76876
貝子	-9.76877
柵	-9.76972
栁	-9.76976
之亂	-9.77033
自稱	-9.77049
毅	-9.77052
者有	-9.77128
檜	-9.77131
貽	-9.77199
其家	-9.77223
東西	-9.77277
全忠	-9.773
湖南	-9.77358
舒赫德	-9.77368
閭	-9.77475
扎卜	-9.77525
一年	-9.77588
機宜	-9.77715
郡縣	-9.77764
先後	-9.77865
恪	-9.77884
生靈	-9.7789
之所以	-9.779
奏入得㫖	-9.77916
之臣	-9.77923
疎	-9.77929
桀	-9.7795
戰於	-9.77951
隔	-9.78014
百里	-9.78094
賚	-9.78123
幕	-9.78131
成衮扎布	-9.78155
如有	-9.78421
巖	-9.78428
之義	-9.78463
有罪	-9.78476
生擒	-9.78512
莫敢	-9.7852
倡	-9.78613
排	-9.78625
混	-9.78646
滋擾	-9.78653
奠	-9.78672
兵一千名	-9.78782
則有	-9.78796
巴圖魯	-9.78854
先行	-9.78906
趙王	-9.78956
行至	-9.7896
座	-9.78983
都司	-9.79012
穴	-9.7904
即將	-9.79059
蘭州	-9.79068
並不	-9.7909
其弟	-9.79092
然而	-9.79143
鑿	-9.79173
帛	-9.79202
用事	-9.79392
内有	-9.79398
之賊	-9.7946
㕘贊大臣	-9.79539
夾攻	-9.7958
王室	-9.79588
之志	-9.79626
五日	-9.7972
守之	-9.7977
交與	-9.79788
百餘人	-9.79809
信息	-9.79819
健	-9.79836
敖	-9.79869
愧	-9.7988
讐	-9.799
偹	-9.79902
侈	-9.79921
麗	-9.80079
二十日	-9.80157
宛	-9.80165
得以	-9.8022
作亂	-9.80243
在彼	-9.80262
績	-9.80304
範	-9.80307
十四年	-9.80319
運米	-9.80345
之路	-9.80362
滋事	-9.80371
後世	-9.80375
已而	-9.8049
柄	-9.80517
薩喇爾	-9.80562
箭	-9.80562
㑹合	-9.80573
饒	-9.80593
乙亥	-9.80604
葉爾羌	-9.80695
而立	-9.80723
搶	-9.8076
必須	-9.80769
其身	-9.80782
勘	-9.80787
斤	-9.8083
圭	-9.80855
遏	-9.80875
料理	-9.80993
力戰	-9.81073
應援	-9.81193
豹	-9.81235
行營	-9.81288
繕	-9.81361
蒼	-9.81362
廬	-9.81422
仍令	-9.81455
請㫖	-9.81456
牽	-9.81491
篤	-9.81575
我師	-9.81791
十六年	-9.81824
蓄	-9.81831
泥	-9.81833
本朝	-9.8188
河西	-9.81894
不成	-9.81897
故事	-9.81978
牲畜	-9.82052
叚	-9.82056
銅	-9.82085
未免	-9.82227
江淮	-9.82311
包	-9.82355
竝	-9.82387
不宜	-9.8248
旌	-9.825
不絶	-9.82554
疏奏	-9.8256
岐	-9.82574
奏入上從之	-9.82648
人衆	-9.82724
童	-9.82745
而下	-9.82752
未知	-9.82829
者亦	-9.82873
彼此	-9.82891
採	-9.83
執政	-9.83017
南京	-9.83035
萬餘人	-9.83076
暉	-9.83093
太師	-9.83097
芳	-9.83118
革職	-9.83152
原任	-9.83186
内大臣	-9.83217
管轄	-9.83287
逆匪	-9.83318
賛	-9.83321
不信	-9.83361
臣竊	-9.83392
門外	-9.83419
岳州	-9.83439
所得	-9.83482
香	-9.83561
膺	-9.83588
帯	-9.83672
廣西	-9.83725
丁未	-9.83726
南路	-9.83742
稅	-9.8382
偉	-9.83835
醜	-9.83864
亷	-9.83869
俎	-9.83899
分路	-9.83987
不敷	-9.84021
彬	-9.8406
辛巳	-9.84069
臂	-9.84097
安定	-9.841
括	-9.84122
侮	-9.84128
活	-9.84145
千餘	-9.84218
艱	-9.84219
自必	-9.84248
叅	-9.84264
士大夫	-9.84269
狼	-9.84325
穿	-9.84389
城外	-9.84608
晦	-9.84618
三軍	-9.84651
見其	-9.84676
俄	-9.8476
惡之	-9.84779
尚可	-9.84787
苑	-9.84824
獻忠	-9.8483
味	-9.84866
運送	-9.84904
髪	-9.84916
融	-9.84929
賞罰	-9.84988
事之	-9.85044
迹	-9.8512
敎	-9.85145
緒	-9.85179
明瑞	-9.85219
妥協	-9.85297
帑	-9.85346
那	-9.85374
拒之	-9.85398
徧	-9.85398
督撫	-9.85414
監軍	-9.85426
四百	-9.85463
未必	-9.85488
䖍	-9.85637
緝	-9.85695
官吏	-9.85742
糾	-9.85801
無益	-9.85834
牛羊	-9.85855
九十	-9.85915
王之	-9.85917
訴	-9.8593
甲午	-9.8593
不肖	-9.85985
之名	-9.85986
然則	-9.86014
其意	-9.86064
所部	-9.86099
憚	-9.86147
燭	-9.86196
大子	-9.86203
之命	-9.86249
至今	-9.86251
措置	-9.86256
耿	-9.86386
迷	-9.86407
統制	-9.86465
十一	-9.86511
衆心	-9.86538
進發	-9.86581
告稱	-9.8659
𫝊	-9.86629
應行	-9.86637
百萬	-9.86644
戊辰	-9.86646
之利	-9.86675
壬午	-9.86685
為一	-9.86747
駢	-9.86761
虢	-9.86804
丙子	-9.86833
不忘	-9.8691
奢	-9.86943
腹心	-9.87049
礮	-9.87058
貸	-9.87094
恒瑞	-9.87134
烏里雅蘇台	-9.87143
兆恵	-9.87178
富貴	-9.87205
狗	-9.87272
蛇	-9.87293
男女	-9.87317
俱已	-9.87425
劍	-9.87434
石峯堡	-9.87436
所殺	-9.87448
舅	-9.8745
丙午	-9.87455
今年	-9.87484
䟽	-9.87502
慢	-9.87509
金帛	-9.87533
大破之	-9.87547
蟲	-9.87552
銷	-9.87615
哨	-9.87673
額敏和卓	-9.87682
居民	-9.87709
弟子	-9.87728
己巳	-9.8773
税	-9.87732
行在	-9.87756
丁巳	-9.87846
互相	-9.87901
牌	-9.87947
代之	-9.87991
十八	-9.88022
濫	-9.88059
若此	-9.88083
圖之	-9.88137
賊首	-9.88186
等項	-9.88189
喀什噶爾	-9.88199
大金	-9.88204
四千	-9.88212
湏	-9.88231
昭公	-9.8824
狡	-9.88242
蒙古	-9.88271
醉	-9.88305
必不	-9.88307
欣	-9.88379
也且	-9.88393
旱	-9.88425
小國	-9.88427
照例	-9.88476
銳	-9.88489
王師	-9.88504
快	-9.88532
桃	-9.88554
歎	-9.88558
題	-9.88778
漏	-9.88779
當時	-9.8878
晉陽	-9.88828
娶	-9.88831
定議	-9.88883
俱著	-9.88891
返	-9.88915
挑	-9.88936
而進	-9.88952
普吉保	-9.88977
著加恩	-9.89006
勵	-9.89014
揆	-9.89068
賊黨	-9.89091
丁亥	-9.89094
者以	-9.89114
行之	-9.89144
各路	-9.89151
大員	-9.89182
曰昔	-9.8926
東北	-9.89283
輜重	-9.8929
壞	-9.89305
庚午	-9.89323
嫌	-9.89332
以成	-9.89347
垣	-9.89398
家屬	-9.89422
凌	-9.89483
謨	-9.89497
不報	-9.89592
十日	-9.89593
裘	-9.89601
而有	-9.89602
讒	-9.89639
仁義	-9.89673
童貫	-9.89791
徇	-9.89809
碩	-9.89812
日夜	-9.8984
紫	-9.89863
皇太子	-9.90004
十三日	-9.90064
佑	-9.90121
暮	-9.90152
曰公	-9.90152
出城	-9.90181
發往	-9.90221
回民	-9.90222
乙	-9.90233
待之	-9.90271
五人	-9.90301
駭	-9.90302
敗之	-9.90353
壬申	-9.90434
􁀙	-9.90444
甲辰	-9.90464
庚申	-9.90503
校尉	-9.90504
副將軍	-9.90573
裔	-9.90593
吳王	-9.90667
南陽	-9.90702
戊申	-9.90735
調度	-9.90765
叔孫	-9.90799
賊目	-9.9081
俯	-9.90837
此皆	-9.90884
籌畫	-9.90911
忠臣	-9.90924
策楞	-9.90936
戲	-9.90958
甲寅	-9.90973
幽州	-9.90975
鳥鎗	-9.91063
又據	-9.91064
錦	-9.91129
換	-9.91131
詭	-9.91165
本年	-9.91195
捜	-9.91206
數千人	-9.91225
事君	-9.91321
之君	-9.9138
出師	-9.91423
庚寅	-9.9146
移駐	-9.91462
古者	-9.91547
隴	-9.91578
在外	-9.91645
觀之	-9.91686
品	-9.91695
状	-9.91707
節制	-9.91761
東宫	-9.91781
察罕	-9.91791
來朝	-9.918
其母	-9.91813
大喜	-9.91821
黄廷桂	-9.91982
靣	-9.91985
衆人	-9.91993
施行	-9.92001
飬	-9.92045
休息	-9.9209
前徃	-9.92143
兵一千	-9.92227
庚	-9.92243
傳曰	-9.92259
戊午	-9.9228
壬辰	-9.92312
饋	-9.92336
之信	-9.92362
佞	-9.92366
四面	-9.9238
局	-9.92576
不通	-9.92617
飯	-9.92628
繩	-9.92629
弁兵	-9.92688
六百	-9.92738
壬寅	-9.92852
我軍	-9.9288
頌	-9.92883
嗚呼	-9.92891
灌	-9.92901
兵二千	-9.92905
庫車	-9.93027
號令	-9.93038
補授	-9.9304
出奔	-9.93044
國公	-9.93059
季孫	-9.9308
伺	-9.93107
十二年	-9.93112
督率	-9.93134
扣	-9.93243
伐之	-9.93289
牲隻	-9.93343
地方官	-9.93369
去年	-9.93381
𠞰賊	-9.93389
大功	-9.93392
艾	-9.93396
辛未	-9.93401
踐	-9.93427
金銀	-9.93457
浦	-9.93681
柴	-9.93724
人民	-9.93726
飢	-9.93729
數十人	-9.9373
劄	-9.93758
防禦	-9.93788
悞	-9.93863
先君	-9.93898
即於	-9.93935
剿	-9.93944
丁丑	-9.9397
句	-9.93973
於齊	-9.94018
測	-9.94024
無道	-9.94082
湖廣	-9.94122
之道也	-9.94148
渭	-9.94157
一萬	-9.94181
摩	-9.94228
盟于	-9.94264
摧	-9.94278
埶	-9.94281
談	-9.94288
俸	-9.94377
賔客	-9.94379
雅爾哈善	-9.94434
曠	-9.94441
軍事	-9.94445
千總	-9.94454
誨	-9.94455
亦如之	-9.94456
夏六月	-9.94464
十餘萬	-9.94519
綽	-9.94526
經理	-9.94529
之説	-9.94553
甲申	-9.94563
輕重	-9.94613
不死	-9.94633
如初	-9.94659
鬼神	-9.94689
無功	-9.94698
支給	-9.94729
繞	-9.94764
慕容	-9.94796
乙酉	-9.94802
魁	-9.94807
丙寅	-9.9481
淳	-9.94823
姪	-9.94825
丙辰	-9.94835
嫁	-9.949
上諭軍機大臣曰據	-9.94969
棟	-9.95059
烏珠	-9.9508
倭	-9.95097
頂	-9.951
錄	-9.9513
牧放	-9.95144
歸之	-9.95295
停止	-9.95309
之謂	-9.95341
𦵏	-9.95449
管理	-9.95483
八旗	-9.95518
撲	-9.9555
壬子	-9.95605
癸亥	-9.95664
宣諭	-9.95665
鸞	-9.95694
虧	-9.9572
死之	-9.95739
譏	-9.9576
不容	-9.95909
燕山	-9.95923
亦應	-9.95973
江陵	-9.95979
之下	-9.96019
滿兵	-9.96058
旺	-9.9607
藍元枚	-9.96142
上以	-9.96168
玩	-9.96194
輝	-9.96202
填	-9.96228
歎曰	-9.96233
甲戌	-9.96251
辛丑	-9.96263
妥	-9.96264
又遣	-9.96347
癸未	-9.96352
國事	-9.96353
扼	-9.96399
撤兵	-9.96405
趕	-9.96446
無可	-9.96455
阿里衮	-9.96483
可得	-9.96543
庚辰	-9.96552
揚州	-9.96624
昇	-9.96713
荘	-9.96715
索倫	-9.96739
搜	-9.96741
朝夕	-9.96764
岡	-9.96766
内侍	-9.96778
㕘	-9.96778
湘	-9.96782
庚子	-9.96795
晝	-9.96802
裂	-9.96827
喀	-9.96913
賢者	-9.96926
溺	-9.96945
訥親	-9.96953
詳悉	-9.96979
數百人	-9.97017
接應	-9.97114
黃	-9.97121
丞	-9.97138
遥	-9.97162
進退	-9.97376
公卿	-9.97379
鞭	-9.9738
銘	-9.97402
萌	-9.97432
大将軍	-9.97478
之使	-9.97487
哈宻	-9.97593
弩	-9.97649
李綱	-9.97656
土司	-9.97657
緣	-9.97664
騐	-9.97674
塵	-9.97687
節度	-9.97743
前此	-9.97759
冬十一月	-9.9776
它	-9.97879
紹興	-9.97928
跡	-9.97934
曜	-9.97952
恕	-9.98023
諸侯之	-9.9803
從賊	-9.98141
姓名	-9.98163
飲酒	-9.98175
一曰	-9.98219
準	-9.9823
吾子	-9.98246
偵探	-9.98258
屍	-9.98261
迨	-9.9827
甸	-9.98295
安得	-9.98318
曰朕	-9.98364
禦之	-9.98469
問之	-9.98485
觀其	-9.98549
水草	-9.98627
蔡京	-9.98679
呂	-9.98698
矣今	-9.98722
十七年	-9.98767
餘衆	-9.98774
中書	-9.98782
富徳	-9.98809
何謂	-9.98814
滇	-9.98827
藝	-9.98835
乃命	-9.98873
己亥	-9.98886
逺近	-9.98891
者非	-9.98924
十一年	-9.98952
魏王	-9.98979
即日	-9.99013
矯	-9.99045
言曰	-9.99186
佩	-9.99197
敵人	-9.99198
視之	-9.9923
情節	-9.99236
丙申	-9.99242
晉王	-9.99268
而不能	-9.99271
乙未	-9.99357
軍馬	-9.99368
琳	-9.99369
怯	-9.99381
觀望	-9.99434
偶	-9.9944
戊寅	-9.99457
不問	-9.99481
立功	-9.99481
一月	-9.99505
嬖	-9.99511
不應	-9.99597
邇	-9.99681
鼐	-9.997
不顧	-9.99778
無罪	-9.99865
山川	-9.99877
戾	-9.99894
甲兵	-9.99894
下詔	-9.99919
彼處	-9.99944
回部	-9.99977
十二日	-9.99982
止之	-10
帶往	-10.0002
癸酉	-10.0003
閩省	-10.0005
租	-10.0007
桂	-10.0007
晉國	-10.0009
如故	-10.0015
遁去	-10.0017
訥	-10.0017
議者	-10.002
若有	-10.0023
曰汝	-10.0024
䕶送	-10.0027
出戰	-10.0028
毋庸	-10.0034
恐其	-10.0035
張浚	-10.0037
十八日	-10.0038
輪	-10.0038
之内	-10.0041
堵	-10.0046
嚴加	-10.0046
兵部尚書	-10.0047
和議	-10.0055
五萬	-10.006
噶爾	-10.006
不已	-10.0061
攘	-10.0062
焦	-10.0064
于是	-10.0074
▁(	-10.0075
披	-10.0076
則不	-10.0077
於秦	-10.008
將帥	-10.0085
浙江	-10.0087
鐸	-10.0091
喬	-10.0093
太宗	-10.0095
蹈	-10.0098
學士	-10.0098
湛	-10.01
綠旗兵	-10.0102
此項	-10.0117
留後	-10.0124
何故	-10.0125
棘	-10.0128
不失	-10.0131
子胥	-10.0133
安西	-10.0135
徼	-10.0135
太監	-10.0136
又何	-10.014
所請	-10.0141
泄	-10.0144
伐鄭	-10.0146
疋	-10.0147
所領	-10.0153
駐守	-10.0155
十餘	-10.0156
孚	-10.0157
壹	-10.0162
於外	-10.0165
於是乎	-10.0168
昔者	-10.0172
不堪	-10.0174
勾	-10.0179
二十五日	-10.0182
恊	-10.0182
西京	-10.0185
薪	-10.0186
驟	-10.0188
自可	-10.0199
遼東	-10.0205
沛	-10.0211
淮西	-10.0211
各有	-10.0216
倒	-10.0217
圓	-10.0227
戰于	-10.0229
上從之	-10.0232
粤	-10.0235
膽	-10.0242
軍旅	-10.0246
為右	-10.0248
而退	-10.025
其父	-10.0255
殱	-10.0263
家口	-10.0266
十四	-10.027
父兄	-10.0271
衛侯	-10.0274
㓜	-10.0275
乙巳	-10.0276
貌	-10.0281
收復	-10.0282
鮑	-10.0282
豈能	-10.0291
偕	-10.03
未及	-10.03
閏	-10.03
邁	-10.0303
冐	-10.0305
耀	-10.0308
到日	-10.032
炎	-10.032
軫	-10.0323
屬下	-10.0332
天命	-10.0333
流涕	-10.0338
辛亥	-10.0339
將弁	-10.0342
事宜上諭軍機大臣曰	-10.0347
其下	-10.0348
查拏	-10.035
授為	-10.0355
其勢	-10.0358
之情	-10.0359
為大	-10.036
天子之	-10.0365
冲	-10.0368
鳯翔	-10.0369
墓	-10.037
出於	-10.0372
追至	-10.0383
百餘	-10.0389
有事	-10.039
應令	-10.039
留心	-10.0391
黄河	-10.0394
與我	-10.0394
特穆爾	-10.0395
丗	-10.0396
隂陽	-10.0397
隘	-10.0401
釐	-10.0401
僻	-10.0402
捨	-10.0402
也乃	-10.0402
以求	-10.0403
二三	-10.0407
王者	-10.0409
班第等	-10.0409
所言	-10.041
未便	-10.0411
前日	-10.0415
願陛下	-10.0418
癸丑	-10.0429
緑旗兵	-10.0429
不合	-10.043
愆	-10.0432
受其	-10.044
或有	-10.0442
十四日	-10.0446
執事	-10.0447
兆惠等	-10.0447
何處	-10.045
荀	-10.046
閱	-10.0461
癸巳	-10.0462
於天下	-10.0462
廹	-10.0462
己丑	-10.0463
耗	-10.0465
民間	-10.0465
守城	-10.0466
主上	-10.047
冬十二月	-10.0477
若干	-10.0486
賊巢	-10.0488
牒	-10.0489
宫室	-10.0489
以後	-10.049
大司馬	-10.0494
雙	-10.0496
杞	-10.0497
謗	-10.0501
漢軍	-10.0504
衆皆	-10.0508
天之	-10.051
之盟	-10.0513
協同	-10.052
囬	-10.0522
𢎞	-10.0525
掘	-10.0526
乙丑	-10.0527
數月	-10.0533
衣服	-10.0548
涼	-10.0556
㳺	-10.0557
握	-10.0561
冰	-10.0561
曰夫	-10.0565
己未	-10.057
敢不	-10.0571
十六日	-10.0573
護	-10.0584
裝	-10.0588
賄	-10.0588
禾	-10.0589
乎對曰	-10.0602
判	-10.0602
天地之	-10.0603
十七	-10.0605
恢復	-10.0606
城上	-10.0607
該督	-10.0619
辛酉	-10.0621
二十九日	-10.0625
南詔	-10.063
為此	-10.063
人馬	-10.0635
不服	-10.0643
芻	-10.0644
譚	-10.0649
挫	-10.0651
訟	-10.0654
裏	-10.0656
知縣	-10.0658
貝	-10.0662
乃遣	-10.0663
不聞	-10.0667
日久	-10.0677
不時	-10.0683
誦	-10.0685
節次	-10.0686
一二	-10.0687
茅	-10.069
諫曰	-10.0691
不獲	-10.0696
掃	-10.0698
二日	-10.0706
議叙	-10.0709
有一	-10.0711
筆	-10.0712
秋九月	-10.072
永常	-10.0725
為國	-10.0725
其功	-10.0728
殺其	-10.0729
遷移	-10.0734
一處	-10.0735
斡里雅布	-10.0738
肇	-10.0739
悖	-10.0742
纔	-10.0747
宼	-10.075
𦂳要	-10.0755
如晉	-10.0757
處所	-10.0758
統兵	-10.0761
靖康	-10.0762
睦	-10.0766
起行	-10.0766
遂以	-10.0769
墜	-10.0769
設法	-10.0774
固原	-10.0775
聖主	-10.0775
吹	-10.078
十人	-10.0782
偷	-10.0783
琴	-10.0786
不得不	-10.0786
太傅	-10.0792
曰卿	-10.0797
其實	-10.0804
兇	-10.0811
庚戌	-10.0812
我皇上	-10.0821
可乎	-10.0836
殺人	-10.0837
上帝	-10.0838
控	-10.0839
晨	-10.0845
敝邑	-10.0852
以安	-10.0854
臣聞	-10.0857
囊	-10.0868
憑	-10.0873
厰	-10.0875
閻	-10.0876
現有	-10.0878
消	-10.0879
耕種	-10.0881
未幾	-10.0887
奉使	-10.0889
帳	-10.0894
可用	-10.0894
世忠	-10.0895
錡	-10.0897
也吾	-10.0898
纂	-10.0904
採買	-10.0912
䘏	-10.0914
稷	-10.0916
賊營	-10.0918
直抵	-10.092
等俱	-10.0924
宋公	-10.0924
兵至	-10.0928
莊公	-10.0932
大將	-10.0932
應請	-10.094
二十八日	-10.0944
阜	-10.0944
丁酉	-10.0944
楚師	-10.0945
耳目	-10.0952
秦州	-10.0953
則民	-10.0957
内史	-10.0958
兵民	-10.0966
判官	-10.0967
先王之	-10.0967
一軍	-10.0972
乖	-10.0972
卧	-10.0972
自殺	-10.0973
踈	-10.0974
省城	-10.0975
徐績	-10.0979
不善	-10.098
也君	-10.0989
若何	-10.0991
不食	-10.0995
長驅	-10.0995
逞	-10.0999
散秩大臣	-10.1005
如此則	-10.1005
謬	-10.1005
取其	-10.1008
在此	-10.1009
勛	-10.1012
把總	-10.1018
安石	-10.1018
十有	-10.1019
大皇帝	-10.1032
沖	-10.1034
斌	-10.1034
章京	-10.1036
猷	-10.1038
伸	-10.1038
悍	-10.1039
二十萬	-10.1043
楷	-10.1043
上表	-10.1045
從事	-10.1046
八百	-10.105
四時	-10.1051
飲食	-10.1051
之難	-10.1056
里克	-10.1061
入見	-10.1063
翁	-10.1066
塘	-10.1066
衮	-10.1067
名曰	-10.1069
反覆	-10.1069
懋	-10.107
演	-10.1073
麾下	-10.109
女真	-10.1092
改元	-10.1095
大義	-10.1098
之弟	-10.1116
自知	-10.1117
隨同	-10.1119
之變	-10.1121
域	-10.1128
前因	-10.113
阿爾台	-10.1134
彭城	-10.1135
行事	-10.1135
蔣	-10.1136
不安	-10.1142
措	-10.1152
港	-10.1163
漕	-10.1169
暑	-10.1172
請於	-10.1172
有三	-10.1173
嚴行	-10.1176
諭令	-10.1177
褒	-10.1179
敗走	-10.1188
都指揮使	-10.119
加以	-10.1193
治之	-10.1198
筆帖式	-10.1199
鞅	-10.12
該部	-10.1202
成公	-10.1206
曰不可	-10.1208
劉豫	-10.121
十九日	-10.121
飽	-10.1216
言者	-10.1218
戊子	-10.1224
𠞰殺	-10.123
綿	-10.1237
業已	-10.124
康王	-10.124
送至	-10.1241
帯兵	-10.1247
派往	-10.1249
官爵	-10.125
疏言	-10.1253
經略	-10.1258
無庸	-10.1262
不知其	-10.1263
滕	-10.1267
請降	-10.1271
丙戌	-10.1272
織	-10.1273
暨	-10.1275
婦女	-10.1279
亦當	-10.1281
等奏	-10.1285
皆為	-10.1289
安撫	-10.1306
霜	-10.1309
於楚	-10.131
無有	-10.1313
水陸	-10.1313
平王	-10.1313
豕	-10.1317
八人	-10.132
平日	-10.132
旨	-10.1322
長子	-10.1323
乃使	-10.1329
百人	-10.133
皇考	-10.1331
大臣等	-10.1334
馭	-10.1335
鶴	-10.1343
枕	-10.1343
七日	-10.1345
祭祀	-10.1347
庇	-10.1348
僉	-10.1358
而入	-10.1358
沿	-10.1369
怒曰	-10.137
哈薩克錫喇	-10.1374
酬	-10.1375
即以	-10.1376
其妻	-10.1376
南面	-10.1378
韶	-10.1383
海内	-10.1384
伏兵	-10.139
宗社	-10.1392
所欲	-10.1395
實為	-10.1402
問於	-10.1403
之力	-10.1404
因其	-10.1405
二十一日	-10.1407
重兵	-10.1407
詔書	-10.1408
逰	-10.1408
叅將	-10.1409
從者	-10.1409
洲	-10.1412
己酉	-10.1413
諸郡	-10.1415
山梁	-10.1416
未見	-10.1416
隅	-10.1422
其志	-10.1426
皇子	-10.1427
失其	-10.1433
既已	-10.1434
信之	-10.1441
遣往	-10.1444
浸	-10.1448
者乎	-10.1454
二十四日	-10.1455
靈公	-10.1459
城内	-10.1463
參軍	-10.1466
貴州	-10.1469
是為	-10.147
所居	-10.1473
以前	-10.1474
俄羅斯	-10.1474
𠞰捕	-10.1476
壬戌	-10.1479
明白	-10.148
曉示	-10.1482
入于	-10.1484
濠	-10.149
靜	-10.1491
雲中	-10.1494
攻取	-10.1495
逾	-10.1511
柳	-10.1512
懈	-10.1514
戊戌	-10.1516
現已	-10.1517
報稱	-10.1519
艱難	-10.1522
諡	-10.1522
府庫	-10.1527
文子	-10.1537
駿	-10.1538
國語	-10.1539
無異	-10.1543
張俊	-10.155
同平章事	-10.1552
所獲	-10.1553
有差	-10.1557
竭力	-10.1561
殿下	-10.1566
以報	-10.1569
昭王	-10.1573
罵	-10.1574
乂	-10.1575
遐	-10.1577
臣請	-10.1578
縣城	-10.1578
一同	-10.1578
紛紛	-10.158
隣	-10.1581
之妻	-10.1582
牆	-10.1585
五百名	-10.1585
趙氏	-10.1587
膳	-10.1589
所見	-10.159
十九	-10.1598
境内	-10.1599
無人	-10.1602
韓魏	-10.1604
往往	-10.1611
朕意	-10.162
其間	-10.1622
尚在	-10.1626
興師	-10.1626
萬里	-10.1638
之馬	-10.1638
汛	-10.1647
狥	-10.1648
堵禦	-10.165
受之	-10.1654
潮	-10.1654
瑜	-10.1658
滑	-10.166
為陛下	-10.166
而復	-10.1666
作何	-10.1669
勁	-10.167
區	-10.1674
准其	-10.1683
契	-10.1689
數十萬	-10.169
一千名	-10.1694
冕	-10.1694
匱	-10.1695
詔以	-10.1704
十七日	-10.1709
者為	-10.1711
州剌史	-10.1713
抄	-10.1719
髙祖	-10.1722
册	-10.1723
崖	-10.1724
蔑	-10.1727
萊	-10.1728
武昌	-10.174
火藥	-10.1746
洩	-10.1755
出征	-10.1757
俞	-10.1758
肩	-10.1758
檢	-10.1759
邱	-10.1761
塹	-10.1763
賞賚	-10.1764
曰王	-10.1767
辭曰	-10.1772
土兵	-10.1773
而殺之	-10.1774
有益	-10.1774
甞	-10.1779
從容	-10.178
蹙	-10.1784
曰若	-10.1786
岑	-10.1791
以歸	-10.1795
未得	-10.1796
紛	-10.1796
綸	-10.1797
壺	-10.1798
藥師	-10.1801
恢	-10.1817
遇賊	-10.1818
熱	-10.1822
聚衆	-10.1822
不知所	-10.1825
驍騎校	-10.1827
彈壓	-10.1828
告之	-10.1831
諭以	-10.1836
廉	-10.1836
猶未	-10.1844
二十三日	-10.1844
者其	-10.1846
揺	-10.1856
所帶	-10.1862
概	-10.1862
聞其	-10.1862
圉	-10.1863
猝	-10.1865
莫若	-10.1866
曰善	-10.1867
斧	-10.187
諸部	-10.1871
河陽	-10.1872
太公	-10.1874
堅守	-10.1879
舟師	-10.188
以自	-10.1881
𠞰滅	-10.1884
東方	-10.1885
奪其	-10.1891
三千人	-10.1891
務期	-10.1893
乗勝	-10.1897
僣	-10.1898
板	-10.1898
登城	-10.1908
膏	-10.1908
東門	-10.1909
僚	-10.1915
來年	-10.1923
與賊	-10.1931
零	-10.1932
廸	-10.1933
問曰	-10.1934
㸃	-10.1938
王命	-10.194
顛	-10.1942
於上	-10.1945
壅	-10.1946
自行	-10.195
昆	-10.1952
之恩	-10.1954
不易	-10.1955
緩急	-10.1961
皆以	-10.1965
聰	-10.1967
次日	-10.1969
嗎哈沁	-10.197
泊	-10.1974
十一日	-10.1975
胄	-10.1976
可見	-10.1978
足下	-10.1979
經過	-10.198
者多	-10.1981
宫中	-10.1982
平公	-10.1984
黔	-10.1988
牟	-10.1989
患之	-10.1989
此其	-10.2
甚衆	-10.2003
衷	-10.2006
講和	-10.2007
寘	-10.2016
初十日	-10.2016
二十七日	-10.2025
都御史	-10.203
拱	-10.2042
搜捕	-10.2044
摺	-10.2046
二十年	-10.2047
倖	-10.2047
何必	-10.2051
以死	-10.2052
逆回	-10.207
為君	-10.2075
亦未可定	-10.2081
街	-10.2083
聲勢	-10.2084
遍	-10.2086
苖	-10.209
吏部尚書	-10.2095
辜	-10.2097
去之	-10.21
鄭人	-10.2103
麾	-10.2103
望風	-10.2106
師道	-10.2111
輕騎	-10.2115
償	-10.2121
歸順	-10.2132
遣其	-10.2133
七千	-10.2134
騾	-10.214
據稱	-10.2153
季氏	-10.2153
朋	-10.2157
批	-10.2159
暗	-10.216
二員	-10.2171
得免	-10.2173
糧運	-10.2173
河州	-10.2174
生計	-10.2177
禮樂	-10.2183
壤	-10.2184
文字	-10.2184
之䇿	-10.2186
青滚雜卜	-10.2186
聖上	-10.2191
無虞	-10.2191
齋	-10.2193
吐	-10.2193
喻	-10.2196
知府	-10.2196
已有	-10.2212
並著	-10.2219
永貴	-10.222
店	-10.2227
所過	-10.223
賜之	-10.2252
答拜	-10.2254
伐齊	-10.2254
迅	-10.2257
鎮守	-10.226
則無	-10.2264
要害	-10.2266
宇文	-10.2266
已定	-10.2266
瑚	-10.2266
為賊	-10.2267
闢	-10.2283
費揚古	-10.2285
土地	-10.2286
驍騎	-10.2292
勒爾謹	-10.2293
運糧	-10.2293
情事	-10.2295
何所	-10.2295
沃	-10.2295
琦	-10.2305
弛	-10.2306
人有	-10.2312
絲	-10.2313
悼	-10.2314
到彼	-10.2314
無復	-10.2316
世民	-10.2319
毋得	-10.2326
嗣昌	-10.2328
川省	-10.2331
和好	-10.2341
携	-10.2344
劄子	-10.2344
議奏	-10.2345
羸	-10.2346
達什	-10.2346
隕	-10.235
寃	-10.235
二十二日	-10.235
十九年	-10.2352
初五日	-10.2352
盡行	-10.2356
解京	-10.2363
駐蹕	-10.2376
潤	-10.2377
宣王	-10.2378
瓘	-10.2383
溢	-10.2385
莫能	-10.2389
無禮	-10.2401
兵三千	-10.2401
各省	-10.2405
挺	-10.2411
情願	-10.2415
不進	-10.2416
扈	-10.2418
佳	-10.2419
嚮	-10.242
沐	-10.242
諜	-10.2421
冉	-10.2422
彈	-10.2422
襄王	-10.2426
不法	-10.2426
於晉	-10.2427
雉	-10.2428
回京	-10.2432
涼州	-10.2436
復遣	-10.2437
久矣	-10.2438
契丹主	-10.2438
欽定四庫全書	-10.244
州郡	-10.2451
古人	-10.2456
諸子	-10.2458
慙	-10.2458
厦門	-10.2458
儆	-10.2458
網	-10.2461
僭	-10.2463
新教	-10.2465
件	-10.2466
琮	-10.2467
嗟	-10.2477
遇有	-10.2477
使其	-10.2482
藍	-10.2486
於朝	-10.2488
賽	-10.2489
豫備	-10.249
庾	-10.249
他日	-10.2493
復以	-10.2497
初四日	-10.2499
歸附	-10.2501
擒獻	-10.2501
不聼	-10.2506
合兵	-10.2508
其名	-10.2513
於民	-10.2513
望之	-10.2526
析	-10.2532
不祥	-10.2532
苟	-10.2535
另行	-10.2535
熙	-10.2536
藏匿	-10.2536
婁	-10.2537
遮	-10.2538
初六日	-10.2541
陳奏	-10.2542
該犯	-10.2546
將此	-10.2552
提舉	-10.2561
製	-10.2568
繳	-10.257
聞之曰	-10.2572
貲	-10.2573
驛站	-10.2577
之憂	-10.2578
笑曰	-10.258
萬世	-10.2583
嚴飭	-10.2585
草木	-10.259
之術	-10.2593
同心	-10.2595
等物	-10.2597
所能	-10.26
可嘉	-10.26
不識	-10.2603
巷	-10.2609
踵	-10.2609
鄒	-10.2614
鞫	-10.2614
棺	-10.2617
刑部	-10.2617
曰臣聞	-10.2617
不止	-10.2618
終不	-10.2619
將伊	-10.262
而止	-10.2629
萬全	-10.2633
事件	-10.2635
諸州	-10.2643
禱	-10.2651
米石	-10.2653
塲	-10.2653
踊	-10.2655
至京	-10.2655
之喪	-10.2656
泗	-10.2665
恭順	-10.2675
行臺	-10.2677
率領	-10.2681
為我	-10.2687
相公	-10.2687
丁卯	-10.2688
君命	-10.2689
畔	-10.2689
豎	-10.269
科卜多	-10.269
鞏	-10.2692
曷	-10.2696
致仕	-10.2704
數目	-10.2705
東都	-10.2708
秦檜	-10.2709
主事	-10.271
玠	-10.2717
雖然	-10.2719
緞	-10.2719
今又	-10.272
今已	-10.2725
輦	-10.2728
著將	-10.2728
鳩	-10.2729
則是	-10.273
安危	-10.2731
若能	-10.2731
浙	-10.2736
誥	-10.2737
矣夫	-10.2737
為政	-10.2738
十餘人	-10.2741
宋人	-10.2752
吏部	-10.2752
克用	-10.2762
坊	-10.2762
駝隻	-10.2766
死而	-10.2766
曰是	-10.2767
鬻	-10.2774
需用	-10.278
又復	-10.278
抽	-10.2798
上諭内閣曰	-10.2803
炳	-10.2803
僃	-10.2805
戌	-10.2807
吞	-10.2809
贖	-10.2809
是非	-10.2809
翔	-10.281
鼠	-10.2811
韓世忠	-10.2811
西域	-10.2814
若是	-10.2817
屢次	-10.2826
曰諾	-10.2827
萬兩	-10.2828
民力	-10.2828
暇	-10.2833
天道	-10.2834
漳	-10.2837
踞	-10.2839
䕶軍統領	-10.2848
股	-10.2851
以行	-10.2856
存亡	-10.2856
經畧	-10.2878
覆奏	-10.2878
騎兵	-10.2882
梅	-10.2884
帝以	-10.2886
枯	-10.2888
太廟	-10.2889
陋	-10.2889
窮蹙	-10.2889
馳赴	-10.289
瑕	-10.2893
叔向	-10.2893
禮記	-10.2895
其上	-10.2897
憐	-10.29
相國	-10.29
轉運	-10.2902
射之	-10.2903
不逺	-10.2907
為亂	-10.2911
自此	-10.2914
康熙	-10.2914
所需	-10.2917
營盤	-10.2924
喀倫	-10.2924
武子	-10.2926
溥	-10.2928
生於	-10.2928
郡城	-10.2936
揀選	-10.2938
遂與	-10.2939
之氣	-10.2942
勞苦	-10.2946
躍	-10.2952
萬民	-10.2956
以為然	-10.2961
得志	-10.2961
梁王	-10.2961
倒斃	-10.2965
亦未	-10.2967
是否	-10.2969
又聞	-10.2975
猶有	-10.2983
奏事	-10.2991
富德	-10.2993
阿布賚	-10.2994
或曰	-10.2996
楊應琚	-10.2998
家人	-10.3
鉞	-10.3004
辛卯	-10.3004
譯	-10.3007
勒兵	-10.3008
邦彦	-10.3009
互	-10.301
古今	-10.3011
佚	-10.3012
甥	-10.3012
惰	-10.3015
不義	-10.3017
執之	-10.3023
㑹稽	-10.3024
仲尼	-10.3028
上疏	-10.3031
奬賞	-10.3037
䕫	-10.3042
和闐	-10.3043
之政	-10.3044
六千	-10.3046
真定	-10.3047
援兵	-10.3053
有大	-10.3053
之世	-10.3054
元年春正月	-10.3057
禮義	-10.306
人君	-10.3064
奏言臣	-10.3064
户口	-10.307
中有	-10.307
逐之	-10.3071
班師	-10.3079
耆	-10.3082
奎	-10.3082
仔	-10.3083
勤王	-10.3085
筭	-10.3086
平陽	-10.3087
壮	-10.3095
三十里	-10.3097
兵五百名	-10.3098
據實	-10.3102
人以	-10.3104
傳㫖	-10.3106
各犯	-10.311
差遣	-10.3113
詩云	-10.3123
儻	-10.3125
親征	-10.3125
鑑	-10.3125
初八日	-10.3127
揮	-10.3128
奬	-10.3131
自取	-10.3132
請將	-10.3134
不動	-10.3138
青州	-10.314
乃與	-10.3142
二十六日	-10.3145
無一	-10.3146
黍	-10.3147
今據	-10.3147
置之	-10.3147
所至	-10.3161
梗	-10.3164
撰	-10.3167
癸卯	-10.3169
匠	-10.3169
邯鄲	-10.3169
而求	-10.3171
阿南達	-10.3174
王宗	-10.3176
所敗	-10.3176
今既	-10.3178
第一	-10.3182
山之	-10.3185
瑪木特	-10.3209
河中	-10.3209
昻	-10.3212
應用	-10.3216
敵國	-10.3216
紳	-10.3219
女子	-10.322
其時	-10.3221
至矣	-10.3222
所向	-10.3228
尚屬	-10.3232
中興	-10.3232
久之	-10.3233
通判	-10.3235
軍機大臣	-10.3237
徐州	-10.324
抗拒	-10.3245
乙卯	-10.3247
汾	-10.325
促	-10.325
矩	-10.325
弭	-10.3253
技	-10.3254
檀	-10.3254
廵撫	-10.3256
濁	-10.3258
不書	-10.326
未敢	-10.3271
無窮	-10.3271
新城	-10.3276
二十四	-10.3277
孽	-10.3278
併力	-10.3284
黄仕簡	-10.329
撓	-10.329
頻	-10.329
闗係	-10.3293
緯	-10.3293
寗	-10.3295
黃帝	-10.3299
必欲	-10.3301
處分	-10.3304
白馬	-10.3305
一也	-10.3311
安能	-10.3314
相持	-10.3319
不明	-10.3321
壓	-10.3329
踴躍	-10.333
丙	-10.3333
冝	-10.3335
潁	-10.3336
殃	-10.3337
更換	-10.3339
墻	-10.3339
傅爾丹	-10.334
達爾黨阿	-10.3342
丹津	-10.3346
再三	-10.335
於人	-10.3352
諸公	-10.3363
十八年	-10.3366
之㑹	-10.3367
叩	-10.3369
知州	-10.3369
派撥	-10.3371
陟	-10.3372
以事	-10.3373
繹史卷	-10.3377
繇	-10.3377
弃	-10.3378
為名	-10.3378
各城	-10.338
大驚	-10.3388
等事	-10.3392
之前	-10.3394
兵少	-10.3398
薊	-10.3403
璽	-10.3406
之議	-10.3407
可否	-10.3412
吿	-10.3417
船隻	-10.3418
鎗砲	-10.3419
寓	-10.3422
誼	-10.3422
溫	-10.3425
北方	-10.3426
上䟽	-10.3436
之餘	-10.3442
良玉	-10.3446
收其	-10.3448
釋之	-10.3449
宣子	-10.3449
傍	-10.3459
為天下	-10.346
直𨽻	-10.3463
謫	-10.3464
有疾	-10.3468
尚書令	-10.3468
諸事	-10.3471
几	-10.3476
城守	-10.3488
得㫖	-10.3492
埋	-10.3494
齊師	-10.3496
可比	-10.3497
山谷	-10.3497
副都綂	-10.35
副之	-10.3502
初七日	-10.3507
於國	-10.3513
黄帝	-10.3517
之閒	-10.3517
不意	-10.3525
每佐領	-10.3526
道也	-10.3529
外委	-10.353
殺死	-10.3539
氷	-10.3541
榖梁傳	-10.3546
中路	-10.3553
似此	-10.3556
所為	-10.3556
逐一	-10.3558
者則	-10.3558
派員	-10.3559
凉	-10.3561
最為	-10.3563
宦官	-10.3563
巴延	-10.3565
巴爾	-10.3566
來使	-10.3566
矣故	-10.3575
㕔	-10.3579
大梁	-10.358
之期	-10.3581
得木齊	-10.3582
贍	-10.3583
貟	-10.3584
人人	-10.3585
以便	-10.3587
無他	-10.3589
駟	-10.3591
自守	-10.36
所遣	-10.3601
自為	-10.3602
破賊	-10.3612
無知	-10.362
不加	-10.3624
袍	-10.3627
日期	-10.363
盡力	-10.363
紙	-10.3631
殖	-10.3631
而能	-10.3633
牀	-10.3633
三路	-10.3634
鼻	-10.3636
三公	-10.3638
故能	-10.364
漢王	-10.3641
堯舜	-10.3644
晉師	-10.3648
二名	-10.3651
協力	-10.3654
門下	-10.3655
誤國	-10.3659
闢展	-10.3661
拒守	-10.3661
江州	-10.3662
燕京	-10.3668
卿等	-10.3669
譙	-10.3669
汝等	-10.367
捜捕	-10.367
觸	-10.3676
苛	-10.3677
轡	-10.3677
現今	-10.3678
粲	-10.3679
欒	-10.3679
譖	-10.3684
死於	-10.3685
招討使	-10.3685
身死	-10.3688
奏明	-10.369
自今	-10.3694
未定	-10.3694
張儀	-10.3695
在位	-10.3696
以圖	-10.3698
遷延	-10.3699
指示	-10.37
一等	-10.3701
購	-10.3702
進士	-10.3702
此言	-10.3703
不暇	-10.3704
到時	-10.3705
禍福	-10.3706
不疑	-10.3708
必以	-10.3712
的	-10.3712
告急	-10.3712
逵	-10.3714
僖	-10.3714
中途	-10.3715
疲乏	-10.3718
弗能	-10.3721
侵擾	-10.3724
所用	-10.3728
沁	-10.3738
親戚	-10.3744
畝	-10.3744
觶	-10.3748
同行	-10.3748
凖	-10.3752
裹	-10.3759
諷	-10.3762
范蠡	-10.3762
大理	-10.3762
御史中丞	-10.3764
諸道	-10.3769
為首	-10.3769
亦必	-10.377
努三	-10.3773
分遣	-10.3779
士馬	-10.3783
於前	-10.3784
宣撫使	-10.3785
失守	-10.3789
初九日	-10.3798
添兵	-10.38
坤	-10.38
職銜	-10.3801
洽	-10.3802
駱駝	-10.3803
盍	-10.3809
遣其將	-10.3811
所辦	-10.3811
田五	-10.3813
聲援	-10.3813
西門	-10.3813
燕人	-10.3814
東面	-10.3816
一言	-10.3816
京兵	-10.3826
策楞等	-10.3827
而天下	-10.3833
曰彼	-10.3833
安置	-10.3834
曰爾	-10.3836
偵	-10.3842
磨	-10.3843
繹	-10.3843
等奏稱	-10.3843
拂	-10.3846
曹操	-10.3853
朕心	-10.3853
生民	-10.3856
矣而	-10.3861
以次	-10.3862
詹	-10.3872
謂其	-10.3872
彼時	-10.3874
退而	-10.3881
朔方	-10.3884
其次	-10.3887
都尉	-10.3888
策應	-10.389
曰天	-10.3891
荅	-10.3891
魂	-10.3891
欲與	-10.3892
退保	-10.3892
甚為	-10.3893
而不知	-10.3896
翦	-10.39
得力	-10.3901
盗賊	-10.3902
在京	-10.3903
看守	-10.3912
子路	-10.3914
而反	-10.392
邊境	-10.3921
有五	-10.3924
右衛	-10.3925
與戰	-10.3925
對曰臣	-10.3928
朱全忠	-10.3928
覘	-10.393
槩	-10.3934
而弗	-10.3946
降諭㫖	-10.3948
盜賊	-10.3955
一舉	-10.3956
畿	-10.3957
暫行	-10.3959
而欲	-10.3963
時有	-10.3964
綂	-10.3967
勅諭	-10.3972
圍之	-10.3973
指揮使	-10.3974
秦伯	-10.3974
餘黨	-10.3976
課	-10.3977
乞降	-10.3979
隄	-10.3981
者三	-10.3983
蚤	-10.3983
枉	-10.3984
望見	-10.3985
韓非子	-10.3986
二聖	-10.3989
間道	-10.3989
召之	-10.3992
莫如	-10.3993
宣和	-10.3997
攻擊	-10.4
壯士	-10.4008
齊國	-10.4011
弦	-10.4019
壕	-10.4021
㳺牧	-10.4022
搏	-10.4024
七百	-10.4025
凉州	-10.4026
曰陛下	-10.4028
割地	-10.403
酌議	-10.4031
邸	-10.4033
丈夫	-10.4035
前經	-10.4038
惟有	-10.4042
益州	-10.4047
降者	-10.4061
峽	-10.4064
都爾伯特	-10.4064
波羅泥都	-10.4064
壻	-10.4066
桓子	-10.4069
潔	-10.4073
闔	-10.4074
軰	-10.4074
頓首	-10.4078
達爾	-10.4078
是月	-10.4081
箕	-10.4084
著即	-10.4089
聽其	-10.4095
侃	-10.4102
飭令	-10.4103
逰擊	-10.4106
嬴	-10.4107
沔	-10.4109
己卯	-10.4111
於諸侯	-10.4111
民心	-10.4112
號曰	-10.4115
筮	-10.412
定邊	-10.4122
速赴	-10.4122
孟嘗君	-10.4125
之類	-10.4129
至城下	-10.4137
受傷	-10.4142
聖人之	-10.4144
無忌	-10.4144
戢	-10.4153
覩	-10.4154
愁	-10.4159
任承恩	-10.4161
城門	-10.4161
穆公	-10.4162
惟是	-10.4162
之屬	-10.4165
等疏奏	-10.4167
諸軍事	-10.4168
軍器	-10.4169
台吉等	-10.417
奉天	-10.4172
君也	-10.4175
封為	-10.4175
若之何	-10.4192
無能	-10.4196
諳達	-10.4197
晩	-10.4199
樞宻院	-10.4201
也然	-10.4212
尚書省	-10.4219
即如	-10.4219
復命	-10.4221
風雨	-10.4225
曰寡人	-10.4232
鎮撫	-10.4233
克之	-10.4234
諌曰	-10.4234
各員	-10.4235
開門	-10.4235
厄魯特等	-10.4237
次第	-10.4239
大里杙	-10.4239
鄂爾多斯	-10.4243
凍	-10.4244
郷	-10.4249
感激	-10.4249
舌	-10.425
之米	-10.4251
染	-10.4252
有此	-10.4253
呉王	-10.4256
要地	-10.4259
弓矢	-10.4261
世之	-10.4265
輯	-10.4277
得罪	-10.4279
胤	-10.4284
令尹	-10.4284
奏入	-10.4286
灣	-10.4289
相近	-10.4289
吏民	-10.429
弄	-10.4293
社稷之	-10.4296
灼	-10.4297
武帝	-10.4297
安南	-10.4299
亦屬	-10.4299
繼之	-10.43
四萬	-10.4302
子貢	-10.4303
出口	-10.4312
岳飛	-10.4312
悉心	-10.4321
等奏言	-10.4324
守臣	-10.4328
洮	-10.4329
擊敗	-10.433
闗中	-10.4333
太宰	-10.4335
碑	-10.4337
頑	-10.4338
㦸	-10.434
賁	-10.4346
二十五	-10.4349
未聞	-10.4356
東海	-10.4359
失之	-10.4359
九百	-10.4363
楚國	-10.4365
西方	-10.4366
病故	-10.4367
御前	-10.4368
築城	-10.4369
初一日	-10.4378
必死	-10.4385
行人	-10.4391
丹濟拉	-10.4394
雅爾哈善等	-10.4399
而民	-10.441
並非	-10.441
禮之	-10.4411
賞賜	-10.4416
而成	-10.4418
穀梁傳	-10.442
宣公	-10.442
額森	-10.4421
王公	-10.4423
舍人	-10.4423
噶爾丹䇿零	-10.4427
拾	-10.4429
斬獲	-10.4431
以待之	-10.4432
殯	-10.4432
佗	-10.4434
敵騎	-10.4435
之物	-10.4435
官屬	-10.4436
審訊	-10.4437
嗜	-10.4438
不忠	-10.4442
中行	-10.4444
今君	-10.4461
旬日	-10.4463
骨肉	-10.4472
又諭曰	-10.4472
諸将	-10.4476
泉州	-10.4476
髮	-10.4481
種種	-10.4481
緬	-10.4488
更為	-10.4497
下獄	-10.4504
如果	-10.4505
伊子	-10.451
三鎮	-10.4514
哈達哈等	-10.4517
徐嗣曽	-10.4518
不殺	-10.4521
看來	-10.4522
像	-10.4524
也子	-10.4524
兔	-10.4533
近日	-10.4533
髙麗	-10.4542
小民	-10.4548
潰散	-10.4548
二年春正月	-10.456
伏誅	-10.4565
臣恐	-10.4567
閤	-10.4569
寤	-10.4569
逓	-10.4571
大舉	-10.4574
兩處	-10.4574
追及	-10.4574
不盡	-10.4575
以書	-10.4582
免其	-10.4585
由此	-10.4589
雖欲	-10.4595
嚴宻	-10.4597
滔	-10.4602
差人	-10.4611
户部	-10.4612
凱旋	-10.4614
愛之	-10.4615
豈非	-10.4615
不屈	-10.4616
妹	-10.4618
自將	-10.4619
佯	-10.4619
清河	-10.4622
漆	-10.4624
裳	-10.4627
不待	-10.463
八千	-10.4634
之戰	-10.4636
非禮也	-10.4637
僖公	-10.4638
永昌	-10.4646
即當	-10.4646
侵犯	-10.465
禁中	-10.4656
之任	-10.4657
甘州	-10.4657
此㫖	-10.4659
叢	-10.4659
郝	-10.4666
歟	-10.4667
柏	-10.467
水軍	-10.467
藻	-10.4672
苴	-10.4672
大人	-10.4672
無遺	-10.4673
以禮	-10.4673
宣撫	-10.4678
生事	-10.4683
至軍營	-10.4686
五百人	-10.4691
國相	-10.4698
西面	-10.4699
拿	-10.4701
捍	-10.4707
𥘉	-10.4712
霧	-10.4712
兵於	-10.4713
和卓	-10.4715
挈	-10.4715
桐	-10.4718
䇿妄阿喇布坦	-10.4719
河間	-10.4725
祿山	-10.4727
又不	-10.4728
兵二千名	-10.4732
此地	-10.4735
或謂	-10.4735
之聲	-10.4742
二千人	-10.4745
南門	-10.4746
不測	-10.4748
海蘭察	-10.4753
巴圖爾	-10.4755
森	-10.4757
皓	-10.4757
應將	-10.4758
頴	-10.4758
之樂	-10.4761
矛	-10.4762
砦	-10.4763
譴	-10.4764
而自	-10.4764
驥	-10.4765
芮	-10.4766
豪傑	-10.4769
不虞	-10.4772
獻子	-10.4773
叱	-10.4774
自然	-10.4776
大赦	-10.4778
艘	-10.478
貴賤	-10.4787
老弱	-10.4791
法度	-10.4795
杭州	-10.4798
西藏	-10.4799
韜	-10.4802
忠信	-10.4802
土謝圖汗	-10.4804
㸔	-10.4804
男子	-10.4804
兖州	-10.4806
淡水	-10.4807
夙	-10.4808
平章	-10.4808
城池	-10.4811
即皇帝位	-10.4812
奈	-10.4814
以救	-10.4818
侍御史	-10.482
泗州	-10.4823
竟不	-10.4825
二曰	-10.4826
隆徳	-10.4828
安國	-10.4829
哀公	-10.4836
涕	-10.4837
制置使	-10.4838
遞	-10.4839
入於	-10.484
㑹議	-10.4844
不戰	-10.4845
卿大夫	-10.485
布政使	-10.4851
永興	-10.4856
之母	-10.4856
彛	-10.4856
們	-10.4859
廣陵	-10.4862
關中	-10.4868
守將	-10.487
討賊	-10.4871
玉保	-10.4873
臨陣	-10.4873
有道	-10.4875
寨桑	-10.4877
送之	-10.4878
忠賢	-10.4887
並令	-10.4893
軍糧	-10.4901
部曲	-10.4903
灾	-10.4904
降於	-10.4905
不願	-10.4906
灰	-10.4907
偪	-10.4907
憾	-10.4908
二州	-10.4908
筵	-10.4909
吐谷渾	-10.4912
新疆	-10.4913
嶽	-10.4915
等將	-10.4918
既得	-10.4923
封疆	-10.4928
千户	-10.4931
上天	-10.4935
初三日	-10.494
鄖	-10.4941
秦之	-10.4941
已極	-10.4944
其妻子	-10.4948
巢穴	-10.4948
僱	-10.4949
在上	-10.495
天祚	-10.4951
策布登扎布	-10.4951
天威	-10.4951
而得	-10.4953
眉	-10.4954
蠲	-10.4954
奉表	-10.4954
秘	-10.4954
縮	-10.4956
下令	-10.4957
縣知縣	-10.4957
既有	-10.4958
狹	-10.4958
闇	-10.496
安設	-10.4962
被害	-10.4962
隨時	-10.4963
雀	-10.4964
行軍	-10.4964
姑息	-10.4966
七人	-10.4968
告知	-10.4968
六人	-10.4969
五六	-10.497
等率	-10.4971
之家	-10.4971
棄之	-10.4971
後即	-10.4971
其主	-10.4973
河朔	-10.4973
孫士毅	-10.4975
生畨	-10.4979
奄	-10.4981
下士	-10.4982
絹	-10.4984
少卿	-10.4988
追捕	-10.499
員外郎	-10.4992
安民	-10.4992
是夜	-10.4995
督臣	-10.4995
蔡攀龍	-10.5001
灘	-10.5001
勃	-10.5002
巾	-10.5002
寕	-10.5002
浪	-10.5004
冶	-10.5005
碎	-10.5006
亢	-10.5007
踪跡	-10.5009
開封府	-10.501
於君	-10.5015
召募	-10.5017
其謀	-10.5018
宣撫司	-10.502
軍行	-10.5021
楚之	-10.5023
矢石	-10.5029
人者	-10.503
委任	-10.5032
三省	-10.5032
一一	-10.5035
納之	-10.5035
失利	-10.5039
其有	-10.5039
糧食	-10.504
有竒	-10.5042
既至	-10.5045
滅之	-10.5045
其首	-10.5048
曼	-10.5049
楊景素	-10.5053
其城	-10.5054
子也	-10.5056
圜	-10.5056
鉤	-10.5056
諛	-10.5057
愬	-10.5058
斛	-10.5058
進剿	-10.5065
百年	-10.5066
俱有	-10.5067
滿漢	-10.5076
之制	-10.5082
婢	-10.5083
濮	-10.5087
會同	-10.509
於道	-10.509
億	-10.5091
匹夫	-10.5096
淹	-10.5097
之費	-10.5097
鐡	-10.51
漁	-10.51
揣	-10.5102
奕	-10.5103
閑	-10.5104
頸	-10.5104
翰林學士	-10.5106
耶律	-10.5106
瀆	-10.5107
初二日	-10.5107
𥙿	-10.5115
商人	-10.5117
等因	-10.5123
等奏言臣等	-10.5125
署理	-10.5125
知㑹	-10.5126
欲立	-10.5129
必無	-10.5129
至京師	-10.5129
應之	-10.5133
人不	-10.5143
毫無	-10.5143
蘓	-10.5144
調撥	-10.5144
永寧	-10.5146
以期	-10.5147
滯	-10.5151
民不	-10.5152
函	-10.5154
軍機	-10.5157
烝	-10.5159
夥	-10.5163
保䕶	-10.5163
山中	-10.5164
公事	-10.5167
正在	-10.5176
連日	-10.5187
送往	-10.5187
風俗	-10.5188
莫之	-10.5189
咸陽	-10.5191
墾	-10.5192
世充	-10.5193
邏	-10.5194
又令	-10.5196
窘	-10.5198
腰	-10.5199
障	-10.5203
諾爾布	-10.5203
叔父	-10.5208
傲	-10.5208
曲沃	-10.5211
叩頭	-10.5212
和碩齊	-10.5212
巡查	-10.5213
皆在	-10.5214
成衮扎布等	-10.5215
庶子	-10.5216
始終	-10.5218
回至	-10.5223
大雨	-10.5225
獲罪	-10.5227
且曰	-10.5231
者即	-10.5232
都城	-10.5233
凱	-10.5236
殺傷	-10.5239
柔然	-10.5244
戕	-10.5247
示之	-10.5247
袒	-10.5248
替	-10.5249
其徒	-10.525
周室	-10.5251
蔵	-10.5254
托克托	-10.5256
杭	-10.5256
也遂	-10.5257
並將	-10.5261
即應	-10.5262
從而	-10.5267
一應	-10.5267
在於	-10.5268
非所	-10.527
王使	-10.5271
張邦昌	-10.5274
南山	-10.5275
之敗	-10.5275
以應	-10.5277
以正	-10.5283
可不	-10.5284
上流	-10.5287
不幸	-10.5298
窺伺	-10.5302
沉	-10.5306
人臣	-10.531
士氣	-10.531
必能	-10.5313
而卒	-10.532
酌定	-10.532
一次	-10.5323
可傳諭	-10.5324
為太子	-10.5326
稽查	-10.5336
及此	-10.5338
不但	-10.5345
也非	-10.5346
唐主	-10.5348
䇿應	-10.5349
其情	-10.5349
三十年	-10.5349
等官	-10.5352
主之	-10.5353
礟	-10.5355
竆	-10.5356
忤	-10.5357
鄉導	-10.5358
䜛	-10.5361
宦者	-10.5362
㕘將	-10.5363
事也	-10.5364
查出	-10.5365
有二	-10.5366
廷臣	-10.5367
曩	-10.5367
此乃	-10.5372
多矣	-10.5381
衣冠	-10.5383
宰執	-10.5389
漢書	-10.5391
興兵	-10.5393
殺戮	-10.5394
之行	-10.5397
無厭	-10.54
不使	-10.5403
便宜	-10.5404
攻圍	-10.5405
無故	-10.5405
宸	-10.5405
身為	-10.5405
寫	-10.5408
防䕶	-10.5419
無多	-10.542
大破	-10.5421
可為	-10.5422
神明	-10.5423
三桂	-10.5428
將至	-10.5435
為主	-10.5436
輔臣	-10.5437
世祖	-10.5438
各兵	-10.5442
之主	-10.5444
調兵	-10.5444
諸大夫	-10.5448
彪	-10.5449
皆不	-10.545
令人	-10.545
勅書	-10.5451
轍	-10.5457
若水	-10.5459
盛京	-10.546
不恤	-10.546
劉光世	-10.5461
已到	-10.5465
承辦	-10.5465
肆行	-10.5469
詩序	-10.5471
原係	-10.5474
留兵	-10.5474
一犯	-10.5474
軍節度使	-10.5475
總理	-10.5478
庶幾	-10.5478
禁止	-10.5481
等亦	-10.5482
恐有	-10.5485
廬州	-10.5487
伊尹	-10.549
認	-10.549
臣下	-10.5491
作速	-10.5495
不入	-10.5495
懐光	-10.5498
糜	-10.5499
而又	-10.5505
中郎將	-10.5506
夲	-10.5509
繡	-10.5513
栗	-10.5513
平凉	-10.5514
不敬	-10.5514
姊	-10.5514
納世通	-10.5516
谿	-10.5517
離散	-10.552
始皇	-10.5522
必先	-10.5522
轄	-10.5523
曰然則	-10.5523
虚實	-10.553
今若	-10.5533
刑罰	-10.5533
因而	-10.5542
國有	-10.5543
前據	-10.5544
都統制	-10.5545
即著	-10.5547
財物	-10.5549
所致	-10.555
漢兵	-10.5551
無敢	-10.5552
底店	-10.5557
猖獗	-10.5557
何敢	-10.5557
東京	-10.5558
㨿	-10.5559
祇	-10.5559
簡親王	-10.556
减	-10.556
自相	-10.5562
供稱	-10.5562
天時	-10.5567
脚	-10.557
日中	-10.5571
人所	-10.5572
而用之	-10.5572
夭	-10.5574
解到	-10.5576
之黨	-10.5577
疑之	-10.5581
犒	-10.5584
金兵	-10.5584
羊隻	-10.5586
聲言	-10.5588
根本	-10.5592
歸于	-10.5592
父之	-10.5593
秦人	-10.5593
北門	-10.5595
尤為	-10.5596
險阻	-10.5596
宵	-10.5598
漢主	-10.5603
子女	-10.5605
揑	-10.5607
坑	-10.5608
三曰	-10.5609
為質	-10.5609
畀	-10.5613
鄂拓克	-10.5613
媚	-10.5615
自立	-10.5615
熾	-10.5616
憫	-10.5619
緑營	-10.5622
不自	-10.5622
親身	-10.5624
等各	-10.5625
他人	-10.5625
再拜稽首	-10.5625
之望	-10.5626
布衣	-10.5627
回衆	-10.5628
實屬	-10.5628
南方	-10.5629
勤勞	-10.563
數千里	-10.5641
一朝	-10.5642
泰山	-10.5644
何人	-10.5649
阿爾	-10.5652
囂	-10.5657
雒	-10.5659
伐楚	-10.566
三十六	-10.5663
狩	-10.5664
隷	-10.5666
等日	-10.5667
所宜	-10.5668
唱	-10.5669
臻	-10.5669
大懼	-10.5669
柰何	-10.5672
棗	-10.5676
單騎	-10.5677
之重	-10.5677
仍留	-10.5679
之權	-10.5689
已至	-10.5691
逃入	-10.5692
也又	-10.5693
人口	-10.5698
漫	-10.57
聖明	-10.57
謂之曰	-10.5704
福州	-10.5706
父老	-10.5706
芝	-10.5707
莊大田	-10.5708
授之	-10.571
塞卜騰	-10.5713
凝	-10.5715
罹	-10.5717
漳州	-10.5717
朴	-10.5718
妨	-10.5718
撤囘	-10.5719
淑	-10.572
河内	-10.5722
開府儀同三司	-10.5723
就擒	-10.5724
預為	-10.5724
必敗	-10.5726
被執	-10.5732
無算	-10.5733
戰而	-10.5734
阿桂等	-10.574
選派	-10.5742
乘勝	-10.5742
璠	-10.5753
屯兵	-10.5754
王建	-10.5754
王黼	-10.5756
之北	-10.5764
兵丁等	-10.5765
有隙	-10.5767
哈什哈	-10.5767
龎	-10.5768
紿	-10.577
實心	-10.577
殫	-10.577
氛	-10.577
椒	-10.5774
姻	-10.5775
衢	-10.5775
馬力	-10.5777
説苑	-10.5784
助之	-10.5785
蠻夷	-10.5794
分道	-10.5798
吾君	-10.5799
大計	-10.5802
而走	-10.5806
俱在	-10.5811
豈敢	-10.5812
嚕	-10.5817
勒圖	-10.5817
場	-10.5819
扎哈沁	-10.5821
賓	-10.5821
亡也	-10.5826
明堂	-10.5827
肺	-10.5828
卞	-10.5831
靈壁縣知縣馬驌撰	-10.5831
許諾	-10.5833
不立	-10.5833
良嗣	-10.5837
又言	-10.5839
城郭	-10.5841
所稱	-10.5841
救援	-10.5843
自謂	-10.5845
車馬	-10.5846
奮力	-10.5849
言語	-10.585
委員	-10.5854
招降	-10.5856
沂	-10.5858
懦	-10.5864
氐	-10.5867
誠心	-10.5872
迪	-10.5872
搶奪	-10.5877
人之所	-10.5877
軫念	-10.5877
回紇	-10.5879
精鋭	-10.588
意欲	-10.5885
不思	-10.5885
必致	-10.5889
西川	-10.589
家語	-10.5896
向來	-10.5902
以俟	-10.5902
也昔	-10.5905
未易	-10.5905
馬步	-10.5906
諸君	-10.5908
佔	-10.5909
亥	-10.591
萬年	-10.5912
起居	-10.5912
行也	-10.5912
太史	-10.5912
平原	-10.5914
之南	-10.5914
索取	-10.5916
奏到	-10.5921
竣	-10.5924
起事	-10.5924
捧	-10.5926
卭	-10.5927
在内	-10.5931
糴	-10.5932
又與	-10.5932
汲	-10.5933
僑	-10.5933
否則	-10.5935
大將軍伯費揚古	-10.5937
剛塔	-10.5938
布哈	-10.5939
䝉古兵	-10.5942
阿桂福康安	-10.5948
議曰	-10.595
聞知	-10.5951
黼	-10.5952
此外	-10.5955
數萬人	-10.596
鄆	-10.5967
也此	-10.5968
京東	-10.5971
牛馬	-10.5972
授以	-10.5974
十里	-10.5974
用其	-10.5976
瓜	-10.5979
應得	-10.598
蘆	-10.5982
愍	-10.5983
膠	-10.5984
果能	-10.5984
般	-10.5984
潼闗	-10.5985
廖	-10.5985
醴	-10.5987
奏入上命軍機大臣傳諭	-10.5987
屯練	-10.5993
而不可	-10.5995
每年	-10.5996
禀稱	-10.5998
賞銀	-10.601
倉卒	-10.601
為相	-10.6018
三百人	-10.6022
禮部	-10.6022
疇	-10.6023
梟	-10.6025
多寡	-10.6025
擄	-10.6028
矣然	-10.6034
銓	-10.6035
何得	-10.6038
毫	-10.6038
惠王	-10.604
立于	-10.604
哈達哈	-10.6041
䑕	-10.6042
今日之	-10.6043
有無	-10.6045
倪	-10.6047
在前	-10.6048
前行	-10.6051
挑選	-10.6054
即行正法	-10.6057
萬户	-10.6058
進軍	-10.6058
神武	-10.6062
首級	-10.6063
張家口	-10.6065
南朝	-10.607
案内	-10.6074
鎮江	-10.6074
其死	-10.6076
來聘	-10.6078
固請	-10.6079
庶人	-10.608
絶其	-10.6087
捉	-10.6089
繆	-10.6089
相距	-10.609
璘	-10.6091
夙夜	-10.6093
坎	-10.6094
諸國	-10.6096
朕已	-10.6102
乃令	-10.6103
後路	-10.6109
言其	-10.6111
皆曰	-10.6116
未到	-10.6122
顒	-10.6123
甚厚	-10.6127
宗族	-10.6136
十餘里	-10.6136
一戰	-10.6141
夫婦	-10.6141
也公	-10.6141
潭	-10.6141
間有	-10.6143
和碩	-10.6143
邕	-10.6145
三十萬	-10.6146
攀	-10.6149
駝馬	-10.615
妥辦	-10.6152
構	-10.6156
兩月	-10.6157
印信	-10.6157
稽首	-10.6159
固辭	-10.616
禽獸	-10.616
曰何	-10.6162
殤	-10.6163
樞宻	-10.6171
有天下	-10.6173
交易	-10.6175
又云	-10.6176
魯人	-10.6176
也何	-10.618
公同	-10.6181
移文	-10.6183
甚矣	-10.6183
貴朝	-10.6185
大都督	-10.6187
豈得	-10.6188
何事	-10.619
六師	-10.6192
涪	-10.6192
光武	-10.6192
尼瑪	-10.6201
雖不	-10.6201
巴雅爾	-10.6202
栢	-10.6203
惕	-10.6204
拔達克山	-10.6204
亳	-10.6204
羈	-10.6206
輟	-10.6207
掖	-10.621
食之	-10.621
憎	-10.6211
發遣	-10.6217
將以	-10.6219
隨行	-10.622
當以	-10.6222
該省	-10.6222
任其	-10.6223
安撫使	-10.6223
孝子	-10.6228
與否	-10.6232
亦即	-10.6235
周之	-10.6242
莊子	-10.6242
實有	-10.6244
而上	-10.6245
從其	-10.6245
領軍	-10.6247
之威	-10.6248
三十餘	-10.625
在後	-10.625
已上	-10.6251
旂	-10.6252
於我	-10.6253
獲其	-10.6254
餘賊	-10.6254
首領	-10.6255
泌	-10.6258
侯景	-10.6258
鵬	-10.6259
扞	-10.6261
曰吾聞	-10.6262
慶復	-10.6263
鳯山	-10.6266
帝王	-10.6267
驍勇	-10.6267
鈔	-10.627
阿喇卜灘	-10.627
戰敗	-10.627
千金	-10.6271
宿衛	-10.6272
克圖	-10.6273
降㫖令	-10.6275
之始	-10.6276
戊	-10.6276
不備	-10.6282
目前	-10.6284
索倫兵	-10.6287
海口	-10.6287
商酌	-10.6294
與子	-10.6295
精騎	-10.6297
議和	-10.6297
已死	-10.6298
猶豫	-10.6301
千匹	-10.6307
𤼵	-10.6308
霄	-10.631
斫	-10.631
啇	-10.6312
哩	-10.6313
帖	-10.6315
三十日	-10.6315
以慰	-10.6316
芒	-10.6317
膝	-10.6319
為天子	-10.6319
者謂之	-10.6321
其族	-10.6323
永安	-10.6326
男婦	-10.6336
兄子	-10.6337
務須	-10.6339
勢必	-10.634
千餘名	-10.6342
聞風	-10.6347
二十五年	-10.6347
燧	-10.6354
額駙	-10.6359
榆	-10.6362
卡撒	-10.6364
此之謂	-10.6365
搆	-10.6366
萇	-10.6367
歸誠	-10.6368
怯懦	-10.6371
澗	-10.6372
恬	-10.6373
陪	-10.6373
撃之	-10.6375
求之	-10.6376
奉聖㫖	-10.6376
而起	-10.6379
教之	-10.6379
彝	-10.6379
寝	-10.6379
武功	-10.6386
兩軍	-10.6388
既經	-10.6393
御史大夫	-10.6397
矣若	-10.64
亦已	-10.6401
上聞	-10.6404
也是故	-10.6414
回鶻	-10.6415
淮南子	-10.6416
也不	-10.6417
也凡	-10.642
伴	-10.642
備用	-10.642
親往	-10.6422
剿捕	-10.6425
巴朗	-10.6426
擲	-10.6426
後患	-10.6426
稔	-10.6427
簒	-10.6427
瓌	-10.6428
迎之	-10.6429
而已矣	-10.6429
人言	-10.6431
儼	-10.6431
粗	-10.6433
相應	-10.6433
涕泣	-10.6434
被殺	-10.6434
軍於	-10.6438
常青等	-10.6439
醢	-10.6439
禀報	-10.644
觴	-10.6441
焚其	-10.6441
據供	-10.6443
江寧	-10.6443
不樂	-10.6444
議論	-10.645
復有	-10.6454
兵勢	-10.6456
二十四年	-10.646
之險	-10.6461
乃還	-10.6462
直言	-10.6466
烟	-10.6478
儘	-10.6478
納穆扎爾	-10.648
籠	-10.6481
惇	-10.6482
縳	-10.6484
刁	-10.6486
之盛	-10.6488
則必	-10.6488
謀反	-10.6489
寂	-10.6491
時日	-10.6497
所聞	-10.6505
君其	-10.6509
文侯	-10.651
靖逺	-10.6516
不允	-10.6517
議政大臣	-10.6518
必得	-10.6519
承襲	-10.6522
餓	-10.6524
遣回	-10.6527
守仁	-10.6532
黨壩	-10.6536
䇿凌	-10.6538
戰士	-10.6539
塗炭	-10.654
按察使	-10.6541
紇	-10.6541
亞	-10.6543
圃	-10.6544
眼	-10.6545
酷	-10.6546
欲得	-10.6548
左良玉	-10.6548
㑹于	-10.6549
昆弟	-10.6554
拒戰	-10.6556
曦	-10.6558
外藩	-10.6561
竄逸	-10.6562
其位	-10.6565
入貢	-10.6568
勉之	-10.6571
赴行在	-10.6571
齡	-10.6582
衙	-10.6587
直前	-10.6588
大呼	-10.6588
擊賊	-10.6589
擊破之	-10.6591
頗羅鼐	-10.6593
凢	-10.6596
山林	-10.6599
歷	-10.6601
二百名	-10.6601
轅	-10.6602
辭以	-10.6603
暢	-10.6604
我我	-10.6605
蒐	-10.6605
牡	-10.6606
各官	-10.6611
曰不然	-10.6613
良民	-10.6614
居中	-10.662
五千人	-10.6623
沿海	-10.6624
全行	-10.6627
國君	-10.6628
運至	-10.6628
以来	-10.6628
巴蜀	-10.6628
不仁	-10.6635
秦秦	-10.6639
方今	-10.6639
武公	-10.664
欲使	-10.664
塔爾	-10.6646
京西	-10.6647
彞	-10.6651
也於是	-10.6651
鑾	-10.6654
餽	-10.6654
耻	-10.6655
陳侯	-10.6657
年羮堯	-10.6658
冥	-10.666
弑其君	-10.6661
雕	-10.6661
濡	-10.6661
中書舍人	-10.6662
陂	-10.6663
枚	-10.6664
濟河	-10.6668
亦著	-10.6671
添設	-10.6674
四日	-10.6677
前次	-10.6678
之㫖	-10.6678
兵内	-10.6678
若以	-10.6679
先遣	-10.6683
之女	-10.6684
水師	-10.6685
公使	-10.6685
勝負	-10.6692
于成龍	-10.6694
六日	-10.6695
遵行	-10.6697
等十	-10.6701
叅領	-10.6702
二十餘	-10.6704
也王	-10.6705
不可復	-10.6705
聖㫖	-10.6709
委之	-10.671
經略大學士	-10.6711
貼	-10.6712
瑶	-10.6713
各州縣	-10.6713
綰	-10.6715
曰請	-10.6716
妙	-10.6718
該鎮	-10.6719
帷	-10.6721
朕所	-10.6722
畏懼	-10.6723
鈎	-10.6723
江東	-10.6723
馳驛	-10.6724
罷兵	-10.6728
於王	-10.6729
往返	-10.6734
寛宥	-10.6738
亦不能	-10.6741
何罪	-10.6742
人數	-10.6743
何足	-10.6752
副将	-10.6752
糧石	-10.6757
而食	-10.6762
軒	-10.6764
其他	-10.6768
酌留	-10.6769
卹	-10.6769
元吉	-10.677
𤓰	-10.677
諸人	-10.6773
過於	-10.6774
賢人	-10.6776
為左	-10.6777
消息	-10.6778
死守	-10.678
齊集	-10.6782
凡有	-10.6782
乗輿	-10.6783
軍于	-10.6787
縱兵	-10.6799
疾病	-10.6803
先君之	-10.6805
無常	-10.681
不稱	-10.6814
見於	-10.6816
癸	-10.6816
戎行	-10.6817
入宫	-10.6821
不順	-10.6823
遣官	-10.6827
中國之	-10.6827
從此	-10.6829
駒	-10.6829
兵數	-10.6831
將伊等	-10.6832
百餘里	-10.6834
弗許	-10.6834
噶斯	-10.6834
輅	-10.6835
埽	-10.6837
可與	-10.6842
熱河	-10.6844
鬱	-10.6845
兵敗	-10.6847
口外	-10.6847
皇甫	-10.6849
此非	-10.6851
豫章	-10.6852
行省	-10.6852
稱臣	-10.6856
倘有	-10.6859
之資	-10.686
以濟	-10.6863
給之	-10.6864
閉門	-10.6865
聰明	-10.6867
逃往	-10.6871
集議	-10.6872
自効	-10.6873
稟	-10.6874
以討	-10.6875
諸生	-10.6875
以是	-10.6878
阿固達	-10.6883
籽種	-10.6885
將吏	-10.6887
詎	-10.6887
軍威	-10.6888
戍兵	-10.6889
因此	-10.6889
噶爾藏多爾濟	-10.689
瘠	-10.6893
常山	-10.6894
九州	-10.6894
辠	-10.6897
出降	-10.6899
滛	-10.69
愼	-10.69
死生	-10.6904
斬其	-10.6908
與人	-10.691
要隘	-10.6914
其軍	-10.6921
事體	-10.6924
而東	-10.6924
一千五百	-10.6926
殆盡	-10.6931
耦	-10.6932
等兵	-10.6936
歸於	-10.6937
脅從	-10.6943
該員	-10.6948
不和	-10.6948
縦	-10.695
亶	-10.6951
厲公	-10.6957
嫡	-10.6958
夷使	-10.696
獻公	-10.6967
吾聞	-10.6967
无	-10.6968
以獻	-10.6969
内附	-10.6974
二三子	-10.6975
又奏言	-10.6977
賊番	-10.6978
春三月	-10.698
兵五千	-10.6985
范陽	-10.6986
而南	-10.6987
員缺	-10.6987
直至	-10.6989
二十一年	-10.6989
國中	-10.699
三年春正月	-10.6991
告以	-10.6992
米糧	-10.6996
功名	-10.6997
交戰	-10.7
貴人	-10.7004
不可謂	-10.7005
苞	-10.7008
中書侍郎	-10.7008
矣乃	-10.7008
慧	-10.701
燔	-10.701
誡	-10.701
燮	-10.7014
紏	-10.7014
蹇	-10.7015
來攻	-10.7016
實力	-10.702
事者	-10.7022
努	-10.7026
以相	-10.7028
留於	-10.703
際	-10.7032
誅戮	-10.7036
則可	-10.7037
獨不	-10.7039
天王	-10.7042
惶	-10.7048
陛	-10.7051
三朝北盟㑹編卷一百	-10.7052
安親王	-10.7053
小心	-10.7054
之美	-10.7056
死亡	-10.7057
可惡	-10.7057
稜	-10.7059
兩次	-10.706
行間	-10.7064
販	-10.7065
京口	-10.7066
翊	-10.7067
趲	-10.7067
趙孟	-10.7069
装	-10.707
球	-10.7071
使我	-10.7072
之勞	-10.7074
準夷	-10.7074
疫	-10.7074
至於此	-10.7076
地勢	-10.7076
璟	-10.7078
到齊	-10.7078
又使	-10.7079
翠	-10.7079
伏羌	-10.7081
天朝	-10.7082
同往	-10.7083
謚	-10.7085
紀年	-10.7086
某等	-10.709
前驅	-10.7094
第巴	-10.7095
不亦	-10.7095
置酒	-10.7096
其説	-10.7098
徳州	-10.7099
萬計	-10.7101
接續	-10.7102
賢能	-10.7106
等至	-10.7108
不可得	-10.7112
上遣	-10.7114
攻克	-10.7115
重慶	-10.7119
一經	-10.712
若夫	-10.7123
簿	-10.7124
有㫖	-10.7129
数	-10.7129
黑龍江	-10.7129
繪	-10.7129
車臣汗	-10.713
亦多	-10.713
畱	-10.713
繒	-10.7131
訓練	-10.7134
羡	-10.7138
都監	-10.7139
為民	-10.714
達爾漢	-10.714
汙	-10.7141
不去	-10.7141
紀律	-10.7142
曰今日	-10.7143
諸葛	-10.7143
兵革	-10.7144
行而	-10.7144
目下	-10.7145
次于	-10.7148
朋黨	-10.7149
七十餘	-10.7149
被圍	-10.7153
逃出	-10.7157
蜀主	-10.7161
議事	-10.7162
皆由	-10.7165
故有	-10.7167
叛逆	-10.7172
楚州	-10.7173
聲息	-10.7175
親信	-10.7177
果有	-10.7181
然之	-10.7182
厄	-10.7182
戰死	-10.7185
員弁	-10.7185
觔	-10.7185
渥	-10.7186
當即	-10.7186
建昌	-10.7187
亦非	-10.7188
殄	-10.7188
以示鼓勵	-10.7189
何能	-10.7189
也故曰	-10.719
汶	-10.7192
顓頊	-10.7193
車輛	-10.7194
施恩	-10.7197
堤	-10.7197
之賢	-10.7197
鮮卑	-10.7197
第二	-10.7198
購買	-10.7199
思明	-10.7201
二十八	-10.7201
朝政	-10.7201
種地	-10.7207
其能	-10.7208
小臣	-10.7209
文帝	-10.7209
方可	-10.7211
該管	-10.7213
非所以	-10.7214
奉詔	-10.7218
士誠	-10.7218
公室	-10.7218
隴西	-10.7219
之才	-10.7219
三朝北盟㑹編卷	-10.7222
伯克等	-10.7224
莊王	-10.7224
計議	-10.7225
員外	-10.7229
自有	-10.7229
乃復	-10.7229
上意	-10.7232
良臣	-10.7233
於魏	-10.7233
撥給	-10.7234
録曰	-10.7235
持節	-10.7238
於天	-10.7239
蔡侯	-10.7241
大亂	-10.7244
酋長	-10.7246
請和	-10.7248
廂	-10.7249
等謹按	-10.7249
筠	-10.7249
黙然	-10.725
監察御史	-10.7252
鎮標	-10.7252
又將	-10.7253
紀山	-10.7253
功臣	-10.7253
王王	-10.7254
你	-10.7254
旦夕	-10.7256
親率	-10.7256
之弊	-10.7257
為人臣	-10.7259
太上	-10.726
成子	-10.7263
哨探	-10.7263
四十里	-10.7268
明公	-10.7269
有能	-10.727
侍從	-10.727
告于	-10.7272
興元	-10.7273
殊屬	-10.7276
不拜	-10.7281
叔向曰	-10.7282
制置	-10.7283
耳今	-10.7287
為王	-10.7294
月餘	-10.7295
穎	-10.7298
二十六年	-10.7305
君王	-10.7306
之罪也	-10.7306
之族	-10.7307
乗間	-10.7309
圍城	-10.7309
鄂爾昆	-10.7312
即時	-10.7312
琨	-10.7312
上黨	-10.7313
愷	-10.7316
歆	-10.7316
保寧	-10.7316
泛	-10.7316
得一	-10.7319
汚	-10.7322
迭	-10.7324
攻戰	-10.7324
啟行	-10.7325
問其故	-10.7325
顥	-10.7328
君子之	-10.7329
有人	-10.7332
驍	-10.7335
所供	-10.7338
赦之	-10.7338
三分	-10.7339
大營	-10.7345
不難	-10.7348
一百五十	-10.7352
黄金	-10.7353
招集	-10.7354
步兵	-10.7355
管子	-10.7364
方略	-10.7364
茲	-10.7367
可疑	-10.7369
班珠爾	-10.7373
該督撫	-10.7374
㪚	-10.7374
妄行	-10.7375
渠魁	-10.7376
菜	-10.7376
來告	-10.7376
無難	-10.7376
卻	-10.7377
鉏	-10.7379
噐	-10.7379
緊要	-10.738
羅卜臧	-10.738
楹	-10.738
富寧安	-10.7381
之厄魯特	-10.7381
卦	-10.7381
㤗	-10.7382
巴圖爾額爾克濟農	-10.7383
瞽	-10.7387
㕘領	-10.7387
二千名	-10.7388
春王正月	-10.739
上怒	-10.7391
引見	-10.7393
友諒	-10.7393
東路	-10.7393
泰等	-10.7395
示以	-10.7397
相望	-10.7399
征伐	-10.7404
所親	-10.7405
之機	-10.7405
于朝	-10.7411
夫差	-10.7413
孺子	-10.7417
擒之	-10.7417
而好	-10.7419
乎且	-10.7424
宦	-10.7425
而生	-10.7426
嶠	-10.7427
可知	-10.743
今聞	-10.743
慟哭	-10.7434
財用	-10.7434
於市	-10.7435
䇿布登扎布	-10.7436
欲殺	-10.7436
售	-10.7439
畆	-10.7439
生子	-10.7439
人亦	-10.744
諭之曰	-10.7441
村庄	-10.7441
怙	-10.7442
槍	-10.7442
不聴	-10.7442
陜省	-10.7443
居正	-10.7443
鉅	-10.7443
相去	-10.7444
肝	-10.7447
衙門	-10.7448
堅壁	-10.745
建德	-10.7453
等語臣等	-10.7454
不日	-10.7456
并力	-10.7461
䘚子	-10.7462
如之何	-10.7462
以防	-10.7462
其兵	-10.7464
三名	-10.7466
夷吾	-10.7467
兖	-10.7467
州人	-10.7469
奉命	-10.7473
伏乞	-10.7473
逆黨	-10.7477
賊兵	-10.7477
兩河	-10.7479
潮州	-10.7484
賊犯	-10.7485
其利	-10.7487
查奏	-10.749
哈爾	-10.7495
於内	-10.7496
賠	-10.7497
者無	-10.7498
挐	-10.7498
蘇四十三	-10.7499
懽	-10.7499
丑	-10.7502
督兵	-10.7502
汜	-10.7503
郡太守	-10.7505
纓	-10.7507
於大	-10.7508
禮部尚書	-10.7509
帯領	-10.751
磔	-10.751
延綏	-10.7511
九千	-10.7514
泣曰	-10.7517
翰林	-10.752
說苑	-10.752
藩司	-10.7521
故地	-10.7523
滿漢官兵	-10.7524
事勢	-10.7527
道府	-10.7527
曷為	-10.7528
子羽	-10.7529
以觀	-10.7529
义	-10.7529
誰能	-10.7531
前軍	-10.7537
前已	-10.7543
母弟	-10.7545
可憫	-10.7547
曰非	-10.7548
各一	-10.7553
滿洲兵	-10.7556
以利	-10.7557
不少	-10.7558
不取	-10.7558
畢沅	-10.7561
酌派	-10.7563
若果	-10.7563
曰某	-10.7565
阿巴噶斯	-10.7566
戕害	-10.7567
房屋	-10.7568
證	-10.7568
譛	-10.7568
二處	-10.7568
儁	-10.7569
柯	-10.7569
聊	-10.757
瑗	-10.7572
得失	-10.7575
趙盾	-10.7577
歩騎	-10.7582
東平	-10.7584
子為	-10.7585
皆死	-10.7586
交割	-10.7586
致書	-10.7588
議定	-10.7588
政令	-10.7589
人事	-10.759
俱令	-10.7595
依舊	-10.7596
又欲	-10.7598
而行之	-10.7601
為上	-10.7601
著𫝊諭	-10.7602
三州	-10.7609
戰勝	-10.7609
足矣	-10.761
君子曰	-10.7612
踪	-10.7614
甘心	-10.7619
拆	-10.7622
天意	-10.7623
敇	-10.7624
之舉	-10.7627
擕	-10.7627
燾	-10.7631
叅贊大臣	-10.7632
河水	-10.7633
棄城走	-10.7633
蓬	-10.7634
瑟	-10.7635
濵	-10.7636
干戈	-10.7642
二帝	-10.7643
葵	-10.7644
已降㫖	-10.7645
譬	-10.7646
制勝	-10.7649
屨	-10.765
從逆	-10.7651
拔之	-10.7651
逃遁	-10.7651
不惟	-10.7655
所以為	-10.7657
道者	-10.7657
終日	-10.7659
作為	-10.7664
城西	-10.7668
都指揮	-10.767
盡忠	-10.767
劭	-10.7672
光世	-10.7673
交通	-10.7675
有四	-10.7676
逃歸	-10.7679
渝	-10.768
兵威	-10.7681
僕射	-10.7683
大潰	-10.7684
乎其	-10.7687
層	-10.7687
盾	-10.7688
犀	-10.7688
亦不可	-10.7689
慿	-10.769
不納	-10.7691
散騎常侍	-10.7691
琰	-10.7692
奏言據	-10.7693
幅	-10.7694
怖	-10.7694
土黙特	-10.7694
用命	-10.7695
剖	-10.7695
馘	-10.7695
上御	-10.7696
額爾徳尼	-10.7696
都綂	-10.7697
寮	-10.7697
主婦	-10.7697
雖未	-10.7699
統轄	-10.77
殉	-10.77
叡	-10.77
禘	-10.7701
李成	-10.7703
奏入上諭軍機大臣曰	-10.7703
太學	-10.7708
明瑞等	-10.7712
皇天	-10.7713
臣愚	-10.7714
國家之	-10.7718
石頭	-10.7718
之東	-10.772
正當	-10.772
些	-10.7721
其私	-10.7723
理應	-10.7724
襄子	-10.7724
視其	-10.7725
而君	-10.7728
宣府	-10.7729
窮追	-10.773
采石	-10.7734
元祐	-10.7735
二十人	-10.7735
仁宗	-10.7736
途次	-10.7736
懼而	-10.7737
十數	-10.7738
將佐	-10.7739
事畢	-10.774
三四	-10.7741
斷其	-10.7743
來者	-10.7743
者所以	-10.7744
不解	-10.7746
赴京	-10.7748
不妨	-10.775
雇	-10.7752
旗幟	-10.7755
靳	-10.7756
慝	-10.7758
句踐	-10.7759
揔	-10.776
油	-10.776
亾	-10.7762
二十二年	-10.7764
國也	-10.7765
股肱	-10.7766
聶	-10.7768
悅	-10.7768
不滿	-10.7769
穆占	-10.7769
禍亂	-10.7771
熟悉	-10.7773
太常	-10.7774
奪之	-10.7779
攻破	-10.7781
倉庫	-10.7782
所司	-10.7782
同姓	-10.7783
衣食	-10.7787
棄其	-10.7787
何時	-10.7789
李自成	-10.7792
及諸	-10.7792
八日	-10.7798
首惡	-10.78
左翼	-10.78
隘口	-10.7801
齊主	-10.7803
京兆	-10.7803
召見	-10.7808
以西	-10.7808
所餘	-10.781
於四月	-10.781
恃其	-10.781
猜	-10.7814
日乆	-10.7815
馬明心	-10.7817
所留	-10.7817
額爾齊斯	-10.7819
順天	-10.782
勑	-10.7822
劣	-10.7822
劔	-10.7822
駱	-10.7823
鞍	-10.7823
闖	-10.7828
皆係	-10.7828
承恩	-10.7832
實在	-10.7834
其力	-10.7836
兩國	-10.7842
右丞	-10.7844
征討	-10.7844
大業	-10.785
江北	-10.7852
逼近	-10.7853
是嵗	-10.7854
貴妃	-10.7854
遂入	-10.7855
此亦	-10.7856
者衆	-10.7859
二十七	-10.7859
猶可	-10.786
斷不	-10.7862
軍統制	-10.7862
蕩平	-10.7865
較之	-10.7866
孺	-10.7867
山後	-10.7867
諸大臣	-10.7873
亦皆	-10.7875
宫人	-10.7876
張皇	-10.788
之西	-10.7881
巻	-10.7883
以伐	-10.7885
拯	-10.7885
即有	-10.7886
劇	-10.7888
惟陛下	-10.7889
殽	-10.7889
來投	-10.789
棲	-10.7891
絞	-10.7891
𫝊諭	-10.7899
贄	-10.7899
皆降	-10.7904
軍法	-10.7907
追賊	-10.7909
晏子曰	-10.791
治天下	-10.7911
臣僚	-10.7911
軍至	-10.7911
察哈爾兵	-10.7913
不軌	-10.7913
之徳	-10.7915
所掠	-10.7916
迎敵	-10.7917
之員	-10.7917
出門	-10.7918
乃召	-10.7922
此案	-10.7923
前者	-10.7926
以身	-10.7932
衛人	-10.7932
聖恩	-10.7939
首尾	-10.794
舉事	-10.794
桑阿	-10.7946
同時	-10.7948
梯	-10.7949
使民	-10.7949
摘	-10.7957
秦師	-10.7958
渙	-10.7958
濳	-10.7958
諂	-10.7961
外其	-10.7961
餘兵	-10.7962
摺内	-10.7964
建炎	-10.7965
無疆	-10.7967
多方	-10.7971
三代	-10.7973
有異	-10.7977
追𠞰	-10.798
且言	-10.7984
治兵	-10.7985
所由	-10.7986
營中	-10.7986
暫留	-10.7988
不平	-10.7989
非常	-10.7992
大砲	-10.7993
官職	-10.7998
設立	-10.8003
髙宗	-10.8003
尚無	-10.8003
其一	-10.8004
議敘	-10.8006
國子	-10.8007
要犯	-10.8008
此二	-10.8008
䕶軍校	-10.8008
已將	-10.8008
䭾	-10.801
要路	-10.801
驢	-10.8013
六七	-10.8014
科爾沁	-10.8014
斗六門	-10.8015
署副都統	-10.8016
也是	-10.8016
熹	-10.8019
貽悞	-10.802
忻	-10.802
詆	-10.8021
鱗	-10.8025
隰	-10.8027
梓宫	-10.8029
君而	-10.8029
生而	-10.803
戎狄	-10.8034
因循	-10.8036
必至	-10.8038
存貯	-10.8038
无咎	-10.8038
鮑叔	-10.8039
添派	-10.8039
不令	-10.8044
將軍等	-10.8045
州牧	-10.8045
悔之	-10.8048
陽虎	-10.805
其道	-10.8051
國無	-10.8053
以從	-10.8053
十分	-10.8053
齊桓公	-10.8054
旗下	-10.8057
闕下	-10.8058
十有二	-10.8067
延安	-10.8071
此則	-10.8072
前奏	-10.8074
有徳	-10.8075
乆矣	-10.8077
處之	-10.8079
入其	-10.808
拓	-10.8083
頡	-10.8084
巴圖魯侍衛	-10.8085
季子	-10.8088
路徑	-10.809
乃可	-10.809
逆之	-10.8092
退縮	-10.8092
額爾克	-10.8092
濶	-10.8093
榆林	-10.8093
卵	-10.8095
敵兵	-10.8095
斷不可	-10.8097
西河	-10.8098
表裏	-10.8099
等即	-10.81
黄門	-10.81
三百名	-10.8101
之業	-10.8102
蹕	-10.8108
五十里	-10.8108
以南	-10.8109
曰寡君	-10.8111
陜甘	-10.8112
遂殺	-10.8116
等帶領	-10.8118
又問	-10.8119
所調	-10.812
無私	-10.8121
本日	-10.8122
引去	-10.8123
與金人	-10.8123
非有	-10.8125
君父	-10.8125
印務	-10.8126
中書令	-10.8129
學者	-10.8129
給發	-10.8129
等曰	-10.813
五帝	-10.813
濠州	-10.8131
以為不可	-10.8132
領之	-10.8135
門之外	-10.8136
乘間	-10.8142
赴援	-10.8149
㒺	-10.8151
纛	-10.8152
扺	-10.8153
貽誤	-10.8154
追擊	-10.8155
墩	-10.8156
旄	-10.8158
矣且	-10.816
察其	-10.8162
脱逃	-10.8163
四曰	-10.8165
竄入	-10.817
焚之	-10.817
之狀	-10.8171
萬騎	-10.8171
不自安	-10.8174
盡殺	-10.8174
鄰國	-10.8175
據險	-10.8176
夜半	-10.8179
任事	-10.818
申諭	-10.8181
輓	-10.8181
世宗	-10.8188
荆南	-10.8188
幾何	-10.8192
而動	-10.8193
慶封	-10.8194
擒賊	-10.82
步騎	-10.8201
尊號	-10.8202
親統	-10.8205
生也	-10.8206
逆犯	-10.8207
善為	-10.8207
如齊	-10.8207
棄城	-10.821
喇特	-10.8211
譟	-10.8212
近者	-10.8213
嶺南	-10.8213
哈喇沙爾	-10.8214
之長	-10.8215
俟其	-10.8217
務宜	-10.8217
左師	-10.8219
馴	-10.8221
㬥	-10.8221
糓	-10.8221
吳越	-10.8222
烹	-10.8222
兵攻	-10.8223
至尊	-10.8224
獻之	-10.8224
調發	-10.8225
稻	-10.8225
廩	-10.8226
扇	-10.8226
整頓	-10.8227
訾	-10.8227
兆恵等	-10.8227
荆襄	-10.8228
狎	-10.8229
佐之	-10.8231
下馬	-10.8231
接到	-10.8233
李克用	-10.8234
日食	-10.8241
事機	-10.8244
等於	-10.8244
馬騾	-10.8248
劉氏	-10.8248
恐懼	-10.8258
謹按	-10.8261
曰無	-10.8261
而往	-10.8263
本無	-10.8264
其數	-10.8265
不守	-10.8266
勇士	-10.8268
罪惡	-10.8272
郎君	-10.8272
福康安等	-10.8279
搬	-10.8282
滚	-10.8283
鷹	-10.8283
撫綏	-10.8283
襃	-10.8284
近臣	-10.8287
汰	-10.8288
㢘	-10.8291
尋常	-10.8291
䧏	-10.8293
帝命	-10.8293
壬	-10.8293
拿獲	-10.8293
巴圖	-10.8296
右翼	-10.8296
又命	-10.8297
奏至	-10.8299
亦以	-10.8299
莭	-10.8299
腸	-10.83
利而	-10.8302
夷狄	-10.8304
閣下	-10.8304
著授為	-10.8304
俘獲	-10.8305
蜀人	-10.8306
多有	-10.8306
一方	-10.8307
宗廟社稷	-10.8307
大掠	-10.8308
州知州	-10.8309
商議	-10.831
達蘭	-10.8313
何患	-10.8316
屢經	-10.8328
内山	-10.8331
禆	-10.8332
彰化	-10.8332
東昌	-10.8333
不修	-10.8334
之死	-10.8336
金城	-10.8337
確實	-10.8341
河上	-10.8346
個	-10.8349
濟南	-10.835
募兵	-10.8351
已久	-10.8351
潞	-10.8351
殺害	-10.8351
舖	-10.8352
擣	-10.8352
死矣	-10.8353
逋	-10.8354
額林哈畢爾噶	-10.8354
羅卜藏丹津	-10.8356
陸路	-10.8357
誑	-10.8357
坡	-10.8357
煙	-10.8358
公私	-10.8358
相攻	-10.8359
槐	-10.8361
煽惑	-10.8361
智者	-10.8364
自以為	-10.8364
之田	-10.8364
撲滅	-10.8365
即遣	-10.8365
山下	-10.8369
權知	-10.837
罪人	-10.8375
叅政	-10.8375
尚能	-10.8378
擊敗之	-10.8379
擇其	-10.838
奏摺	-10.8384
不悦	-10.8386
先鋒	-10.8392
行者	-10.8396
神人	-10.8396
有常	-10.8399
猶在	-10.84
昭子	-10.8403
未盡	-10.8404
乃得	-10.8408
到京	-10.8416
奔走	-10.8419
迎降	-10.8419
模	-10.8421
或以	-10.8421
鄫	-10.8425
酉	-10.8425
釡	-10.8426
翎	-10.8426
分給	-10.8427
冢	-10.8427
欠	-10.8427
竈	-10.8429
藪	-10.8431
蠧	-10.8434
䇿楞	-10.8435
浮橋	-10.8435
而西	-10.8435
二十一	-10.8439
俱經	-10.8439
魏人	-10.8439
悉以	-10.844
即係	-10.8442
厚恩	-10.8448
有名	-10.8449
為賊所	-10.8454
分派	-10.8457
説之	-10.8458
吉凶	-10.8458
以禦	-10.8459
呼曰	-10.8461
孝公	-10.8467
出其	-10.8468
遼主	-10.8468
也上	-10.8469
審明	-10.847
于齊	-10.8471
王孫	-10.8472
三等侍衛	-10.8473
各屬	-10.8473
二世	-10.8473
議處	-10.8478
師于	-10.8482
以拒	-10.8483
邪教	-10.8485
金陵	-10.8485
陳氏	-10.8487
徃來	-10.8488
鹽水港	-10.8489
特遣	-10.8491
二千餘人	-10.8492
烏梁海等	-10.8492
子西	-10.8494
濤	-10.8494
喧	-10.8495
三尺	-10.8495
迴	-10.8495
餘皆	-10.85
墳	-10.85
善後事宜	-10.85
楚公子	-10.8501
於本月	-10.8501
墟	-10.8502
樸	-10.8503
蠱	-10.8503
當是時	-10.8507
終身	-10.851
其誰	-10.851
城北	-10.8511
鳥獸	-10.8513
已成	-10.8515
六軍	-10.8515
老子	-10.8518
大臣官員	-10.8518
完顔	-10.852
吉安	-10.8521
曰天下	-10.8523
四夷	-10.8524
之孫	-10.8526
江上	-10.8529
誰敢	-10.8529
湖北	-10.8533
事竣	-10.8534
囘部	-10.8538
縊	-10.8539
乎夫	-10.8542
親屬	-10.8547
李氏	-10.8547
桓公曰	-10.8547
曽經	-10.8548
喀爾喀等	-10.8548
嬪	-10.855
派委	-10.8552
外内	-10.8554
是其	-10.8555
何益	-10.8565
盡心	-10.8566
進至	-10.8567
霍罕	-10.8568
漲	-10.8569
泚	-10.857
扎拉豐阿	-10.857
未足	-10.857
左僕射	-10.8575
矣吾	-10.8575
何以不	-10.8576
太上皇	-10.8577
羮	-10.8577
於地	-10.8579
而忘	-10.858
保全	-10.858
即速	-10.8583
九卿	-10.8584
幸而	-10.8585
以避	-10.8585
兼程	-10.8588
大水	-10.8591
羣盜	-10.8592
自陳	-10.8596
哈喇	-10.8597
什物	-10.8598
夏人	-10.8599
該犯等	-10.86
之福	-10.8602
未嘗不	-10.8602
乃出	-10.8604
義也	-10.8605
異姓	-10.8608
孟子	-10.861
而使	-10.861
陳蔡	-10.8613
先登	-10.8615
終始	-10.8616
留駐	-10.8619
朽	-10.862
撫臣	-10.8621
骸	-10.8622
魏博	-10.8623
遵照	-10.8623
辦給	-10.8623
宣示	-10.863
普爾普	-10.863
諸將皆	-10.8632
帳房	-10.8633
今日之事	-10.8633
士庶	-10.8634
瀛	-10.8635
鎬	-10.8636
率其	-10.8636
单	-10.8637
諤	-10.8637
魄	-10.8639
淪	-10.8639
将士	-10.864
成敗	-10.8641
閘	-10.8641
之策	-10.8642
索諾木	-10.8643
岀	-10.8644
平時	-10.8644
投出	-10.8644
頡利	-10.8644
遁走	-10.8645
稹	-10.8647
御筆	-10.8647
革去	-10.8647
吳人	-10.8647
問其	-10.8649
謂曰	-10.8649
乎曰	-10.8651
哈達	-10.8651
承天	-10.8652
實係	-10.8653
遣發	-10.8654
區區	-10.8654
不治	-10.8654
珠爾	-10.8656
領催	-10.8661
撫之	-10.8662
睢	-10.8662
民無	-10.8664
有寵於	-10.8665
安樂	-10.8669
三處	-10.8671
其辭	-10.8678
去其	-10.8681
定公	-10.8682
其兄	-10.8684
艦	-10.8686
臨時	-10.869
召公	-10.8691
留之	-10.8692
阿里	-10.8696
不能自	-10.8697
歸國	-10.8698
全軍	-10.87
於周	-10.8702
和親	-10.8703
疑懼	-10.8703
忱	-10.8704
達什達瓦	-10.8704
戀	-10.8705
䑓	-10.8706
卯	-10.8707
樵	-10.8707
一案	-10.8707
漏網	-10.8708
剽	-10.8709
鹵	-10.8709
搭	-10.871
易於	-10.871
㓕	-10.871
懾	-10.8711
拊	-10.8712
十餘年	-10.8712
節度副使	-10.8712
傅恒	-10.8713
我以	-10.8713
勍	-10.8713
餌	-10.8714
子産曰	-10.8714
摯	-10.872
為奴	-10.872
逃走	-10.8721
沿邊	-10.8723
梓	-10.8725
九江	-10.8727
敗績	-10.8728
不避	-10.8729
朝服	-10.873
之孫也	-10.8733
乘馬	-10.8733
三子	-10.8734
子家	-10.8735
有衆	-10.8736
俄而	-10.8742
琛	-10.8743
中丞	-10.8747
詣闕	-10.8748
夀張	-10.8751
府知府	-10.8752
邊界	-10.8753
簡子	-10.8754
戰守	-10.8755
一摺	-10.8756
二十二	-10.8758
和珅	-10.876
急攻	-10.876
大敗之	-10.8761
至則	-10.8763
吴主	-10.8763
鴈	-10.8771
邈	-10.8772
威儀	-10.8776
躡	-10.8776
上諭大學士曰	-10.8776
引兵還	-10.8777
遙	-10.8777
公議	-10.8777
鳳翔	-10.8778
遺史曰	-10.8778
晉之	-10.878
滄	-10.878
委署	-10.8783
檢校	-10.8784
畋	-10.8785
不正	-10.8785
逆戰	-10.8786
平原君	-10.8786
之兄	-10.8786
年少	-10.8787
機㑹	-10.8789
永貴等	-10.879
營伍	-10.879
之失	-10.879
牲口	-10.8792
天津	-10.8795
行宻	-10.8795
屯於	-10.8796
淖爾	-10.8797
官弁	-10.8798
添調	-10.8798
草料	-10.88
北平	-10.8801
避之	-10.8802
難於	-10.8802
奉迎	-10.8804
不親	-10.8807
人多	-10.8809
集事	-10.8811
二十三	-10.8815
濟農	-10.8817
王彦	-10.8819
百餘名	-10.8827
開封	-10.8829
聖王	-10.8829
朕亦	-10.8831
坐視	-10.8832
楚楚	-10.8834
思之	-10.8834
降人	-10.8835
不須	-10.8841
陛下之	-10.8843
團	-10.8844
分起	-10.8846
撒	-10.8847
有變	-10.8847
歉	-10.8848
定邊右副將軍	-10.8848
標下	-10.8848
蠢	-10.8849
易之	-10.8849
上諭大學士等曰	-10.8849
有言	-10.8849
亘	-10.885
夀春	-10.8851
襲擊	-10.8854
浹	-10.8854
乃退	-10.8856
其行	-10.8856
悼公	-10.8857
廷尉	-10.8857
二百餘人	-10.8858
配渡	-10.8859
乆之	-10.8859
于晉	-10.8867
之門	-10.8868
候㫖	-10.8869
克復	-10.8872
上問	-10.8873
惟恐	-10.8875
可得而	-10.8876
漢人	-10.8877
南昌	-10.8878
格隆	-10.8879
四年春正月	-10.8885
國而	-10.8885
治亂	-10.8886
復位	-10.8905
楞	-10.8908
赤子	-10.8914
有寵	-10.8915
跳	-10.8916
足敷	-10.8917
神農	-10.8917
龔	-10.8918
巡檢	-10.8919
督師	-10.8921
組	-10.8921
更始	-10.8921
莊浪	-10.8922
左丞	-10.8923
然也	-10.8923
遲悞	-10.8923
治國	-10.8924
蒯	-10.8924
無所不	-10.8925
者乃	-10.8925
隗	-10.8926
晞	-10.8926
議政諸臣	-10.8927
丸	-10.8928
始得	-10.8928
承疇	-10.8928
之形	-10.8929
祉	-10.8929
戰艦	-10.8931
始行	-10.8932
退屯	-10.8932
俶	-10.8933
不果	-10.8933
項羽	-10.8934
遣大臣	-10.8935
奉到	-10.8935
其徳	-10.8937
協助	-10.8938
降之	-10.8939
流民	-10.894
御營	-10.8942
以東	-10.8944
王安石	-10.8947
之於是	-10.8952
黄巢	-10.8955
臣子	-10.896
原議	-10.8961
㑹於	-10.8962
四路	-10.8965
國書	-10.8968
蔓延	-10.8968
戮力	-10.8968
千餘里	-10.8969
銑	-10.8977
不救	-10.8982
部郎中	-10.8983
琿	-10.8984
懇請	-10.8985
一靣	-10.8986
陜甘總督	-10.8991
禎	-10.8992
驚擾	-10.8993
應付	-10.8994
糶	-10.8995
回子	-10.8996
戡	-10.8998
窟	-10.8999
瑛	-10.9
漳泉	-10.9
駁	-10.9
去矣	-10.9001
急公	-10.9001
既定	-10.9002
拳	-10.9002
熒惑	-10.9003
内閣	-10.9004
扎木	-10.9004
情罪	-10.9006
不息	-10.9008
解圍	-10.9019
鄉勇	-10.9025
用人	-10.9028
之謂也	-10.9029
縱火	-10.9031
出迎	-10.9035
訊問	-10.9035
於事	-10.9035
五名	-10.9036
從來	-10.904
黎明	-10.9042
奪獲	-10.9043
樞密	-10.9044
如楚	-10.9045
非是	-10.9046
行宫	-10.9048
彼必	-10.9049
弗聽	-10.905
子反	-10.9052
衞侯	-10.9053
曰有	-10.9054
漠	-10.9055
兵已	-10.9059
勞績	-10.9059
伐宋	-10.9062
阿蘭泰	-10.9065
直入	-10.9065
方畧	-10.9065
招安	-10.9067
派令	-10.9067
轂	-10.9068
至巴里坤	-10.9068
上命軍機大臣傳諭	-10.9068
慘	-10.9069
一帯	-10.907
鹿仔草	-10.9071
萃	-10.9071
二十三年	-10.9071
照數	-10.9076
諧	-10.9076
於五月	-10.9076
來奔	-10.9076
婚	-10.9076
欲令	-10.9077
綴	-10.9077
後宫	-10.908
䖏	-10.9081
桀紂	-10.9081
藏之	-10.9082
不可勝計	-10.9082
抵禦	-10.9083
曰善哉	-10.9084
后稷	-10.9087
滎陽	-10.9088
無用	-10.909
部將	-10.9093
劉錡	-10.9093
國用	-10.9099
舊城	-10.91
七八	-10.91
周人	-10.9102
叛賊	-10.9105
綠旗	-10.9105
分為	-10.9106
訓諭	-10.9107
倦	-10.9107
未獲	-10.9108
得勝	-10.9109
一家	-10.9109
奮擊	-10.9111
因以	-10.9111
成事	-10.9115
供應	-10.9117
亦何	-10.912
勦賊	-10.912
懲創	-10.9121
二十里	-10.9121
喜曰	-10.9124
至意	-10.9128
許以	-10.9129
不畏	-10.9133
晉楚	-10.9133
魏大斌	-10.9137
愛隆阿	-10.9138
邊外	-10.9139
雍正	-10.914
而哭	-10.9142
必將	-10.9142
參贊大臣	-10.9145
种師道	-10.9145
推諉	-10.9146
跨	-10.9146
尅期	-10.9147
謀曰	-10.9147
焚燒	-10.9148
馬爾賽	-10.9148
聦	-10.9149
喀喇	-10.9149
羙	-10.915
閏月	-10.915
吝	-10.915
蠲免	-10.915
琪	-10.9151
别將	-10.9152
雲梯	-10.9153
蔡攸	-10.9154
呈報	-10.9157
七萬	-10.9158
道成	-10.9158
官司	-10.9159
克魯倫	-10.9165
邀擊	-10.9169
供出	-10.9172
其在	-10.9174
出塞	-10.9174
數十里	-10.9175
雖無	-10.9179
秦兵	-10.9181
之辭	-10.9184
大夏	-10.9186
屯聚	-10.9186
擁衆	-10.919
喇布	-10.919
輓運	-10.9191
咨稱	-10.9192
也言	-10.9192
一百二十	-10.9193
嘆	-10.9196
從弟	-10.9197
字子	-10.9198
予之	-10.9199
無辜	-10.9201
暫駐	-10.9203
敘	-10.9205
聽命	-10.9207
瓚	-10.9213
兵五百	-10.9213
掲	-10.9216
擔	-10.9217
挽	-10.9218
謀之	-10.9218
仆	-10.9219
隐	-10.9221
答曰	-10.9222
大赦改元	-10.9223
昬	-10.9223
椿	-10.9223
不愛	-10.9223
追襲	-10.9224
慄	-10.9225
䇿旺喇卜灘	-10.9226
以昭	-10.9226
蕆事	-10.9226
豚	-10.9229
有備	-10.9229
綦	-10.923
城南	-10.923
綵	-10.923
和州	-10.923
小醜	-10.9233
不早	-10.9233
大將軍費揚古	-10.9233
而遣之	-10.9236
其氣	-10.9245
誘之	-10.9246
標兵	-10.925
則天下	-10.9251
在軍營	-10.9254
三司	-10.9254
殊為	-10.9255
武俊	-10.9257
亦係	-10.9268
雲貴	-10.9272
遣使來	-10.9273
既成	-10.9274
正也	-10.9275
明主	-10.9275
又請	-10.9276
煽	-10.928
督戰	-10.9281
調用	-10.9281
翻	-10.9285
逺矣	-10.9286
電	-10.9288
齊齊	-10.9288
郭藥師	-10.9289
塔爾巴噶台	-10.929
郵	-10.929
渤海	-10.9291
捐軀	-10.9292
扎爾	-10.9292
葦	-10.9292
郁	-10.9293
來援	-10.9293
迂	-10.9294
杲	-10.9294
六萬	-10.9294
額爾	-10.9295
瀘	-10.9297
阿渾	-10.9297
霑	-10.9297
膚	-10.9297
有言曰	-10.9298
淮甸	-10.9299
弑君	-10.9299
金使	-10.9302
彘	-10.9303
博士	-10.9304
州諸軍事	-10.9304
註	-10.9305
不前	-10.9306
不戰而	-10.9307
接戰	-10.9307
無過	-10.9308
涇原	-10.9309
餘孽	-10.9311
長孫	-10.9312
一心	-10.9312
以北	-10.9315
知所	-10.9319
潛逃	-10.9319
來犯	-10.9321
食盡	-10.9323
二十七年	-10.9323
傳檄	-10.9326
鄧州	-10.9328
兵二萬	-10.9329
臨安	-10.9331
查核	-10.9336
有何	-10.9337
車騎	-10.934
軍政	-10.9342
逃去	-10.9342
賊已	-10.9345
戸部	-10.9347
師曠	-10.9348
有成	-10.935
存留	-10.935
設伏	-10.9351
其親	-10.9351
伏望	-10.9351
兩宫	-10.9352
是年	-10.9352
安泰	-10.9355
扎薩克台吉	-10.9356
以定	-10.9362
島	-10.9362
其義	-10.9365
軍門	-10.9365
王后	-10.9367
計也	-10.9369
也陛下	-10.9369
廪	-10.937
北京	-10.9371
抜	-10.9371
伏思	-10.9372
子皮	-10.9372
囿	-10.9373
冀州	-10.9373
謂我	-10.9374
亂也	-10.9374
粥	-10.9374
殄滅	-10.9374
盥	-10.9375
渚	-10.9377
不能支	-10.9379
手足	-10.9382
合諸侯	-10.9386
統軍	-10.9387
覲	-10.9389
平涼	-10.9389
不道	-10.9393
海上	-10.9395
策凌	-10.9397
亦難	-10.9397
二百餘	-10.9398
商賈	-10.9399
將相	-10.9403
魯君	-10.9405
滿洲䝉古	-10.9407
著賞給	-10.9408
打死	-10.9408
無極	-10.941
功成	-10.9418
淵聖	-10.9421
即與	-10.9421
亡者	-10.9422
復來	-10.9426
川陜	-10.9431
萬嵗	-10.9433
詳加	-10.9434
達頼喇嘛	-10.9434
其才	-10.9434
内應	-10.9436
死傷	-10.9436
國法	-10.9437
無為	-10.944
昨據	-10.944
非其	-10.9441
甚近	-10.9443
額林沁	-10.9446
話	-10.9449
影	-10.9449
一城	-10.9449
狼狽	-10.9449
大抵	-10.9449
稼	-10.945
汎	-10.945
叟	-10.945
濕	-10.945
於宋	-10.9451
迺	-10.9452
幷	-10.9452
聽之	-10.9452
脊	-10.9453
沸	-10.9455
竿	-10.9456
從征	-10.9456
城陷	-10.9457
湯武	-10.9457
欲自	-10.9457
本處	-10.9459
釗	-10.946
魯國	-10.9461
罷之	-10.9466
而不敢	-10.9466
素與	-10.947
所恃	-10.9476
陵寢	-10.9476
甲士	-10.9477
小子	-10.9479
雨雪	-10.9479
為界	-10.948
飛咨	-10.9481
先期	-10.9484
其故	-10.9484
披甲	-10.9484
李侍堯奏言	-10.9486
無一人	-10.9487
利也	-10.9488
迄	-10.9488
而亡	-10.9488
亡國	-10.9489
所存	-10.949
提標	-10.949
邦國	-10.9492
者何也	-10.9492
將何	-10.9493
惠公	-10.9493
而與之	-10.9497
兵法	-10.95
無備	-10.9501
其所以	-10.9502
統率	-10.9511
長樂	-10.9511
評	-10.9512
挖	-10.9513
出自	-10.9513
宗人	-10.9516
剪	-10.9516
蠡	-10.9517
王亶望	-10.9518
照料	-10.9519
一半	-10.952
也是以	-10.9523
實無	-10.9524
羿	-10.9525
俱行	-10.9527
剽掠	-10.9527
者言	-10.9527
戯	-10.9528
名號	-10.9528
𦙍	-10.9529
不能制	-10.953
大半	-10.953
絰	-10.9532
侑	-10.9533
焉用	-10.9533
穢	-10.9534
察之	-10.9535
即使	-10.9536
釣	-10.9537
鎔	-10.9537
四五	-10.9539
通好	-10.954
又恐	-10.954
知祥	-10.9541
以徇	-10.9541
照管	-10.9544
殿前	-10.9545
百匹	-10.9547
通行	-10.955
軍兵	-10.955
靈王	-10.9552
等率兵	-10.9552
五十餘	-10.9552
楚克	-10.9552
孫子	-10.9557
而致	-10.9557
無主	-10.9559
撫定	-10.9561
奉諭㫖	-10.9562
讀書	-10.9566
議覆	-10.9566
察達克	-10.9567
遣其子	-10.9567
報効	-10.9567
重耳	-10.9567
為國家	-10.9569
請令	-10.9571
營兵	-10.9571
欲為	-10.9574
投順	-10.9577
愛民	-10.9579
送到	-10.958
又奏	-10.958
黨羽	-10.9581
大河	-10.9581
廢立	-10.9586
國王	-10.9586
入海	-10.9588
不敢進	-10.9588
以守	-10.9589
賊中	-10.9591
昂	-10.9591
弗敢	-10.9594
是何	-10.9597
蔚	-10.96
雖已	-10.96
輔國	-10.9601
騶	-10.9601
頥	-10.9602
遣還	-10.9603
價值	-10.9603
孔雀翎	-10.9604
之位	-10.9605
覇	-10.9606
於二月	-10.9607
祜	-10.9607
梧	-10.9607
阮	-10.9608
興安	-10.9608
之至也	-10.9609
江浙	-10.961
部衆	-10.961
不亦可乎	-10.961
臭	-10.9611
次之	-10.9612
之末	-10.9612
廼	-10.9613
涇	-10.9614
二十六	-10.9616
萬邦	-10.9616
王氏	-10.9617
三王	-10.9618
可使	-10.9619
州軍	-10.9621
告於	-10.9623
保守	-10.9625
必當	-10.9629
守偹	-10.963
入蜀	-10.963
世職	-10.9631
貨物	-10.9631
息民	-10.9631
其屬	-10.9631
我也	-10.9632
乃自	-10.9633
銀絹	-10.9636
從中	-10.9643
與王	-10.9644
待罪	-10.9645
之本也	-10.9646
所當	-10.9647
退走	-10.9647
君若	-10.9648
中使	-10.965
可以為	-10.965
等議	-10.965
相州	-10.9651
謀逆	-10.9652
所派	-10.9655
從官	-10.9657
臣之所	-10.9658
於下	-10.9658
嘉之	-10.9658
不舉	-10.966
從軍	-10.9666
險要	-10.9667
之戒	-10.9669
元忠	-10.9672
顏	-10.9673
綬	-10.9675
闡	-10.9675
東下	-10.9677
阿喇	-10.9678
將何以	-10.9679
昱	-10.968
五路	-10.9681
朕思	-10.9681
殂	-10.9682
招討	-10.9682
三國	-10.9684
零星	-10.9684
葺	-10.9686
勿使	-10.9686
乎吾	-10.9686
令伊等	-10.9686
亡命	-10.9687
爛	-10.9688
往諭	-10.9692
金玉	-10.9692
顔色	-10.9695
四名	-10.9699
但恐	-10.97
之弟也	-10.9701
曰然	-10.9702
遣使者	-10.9704
袁州	-10.9705
水旱	-10.9708
左氏	-10.971
前来	-10.971
左軍	-10.971
又諭	-10.9714
二國	-10.9715
承㫖	-10.9716
先事	-10.9717
金人攻	-10.9719
號為	-10.972
東魏	-10.9724
元帥府	-10.9728
負恩	-10.9728
深為	-10.973
也對曰	-10.9733
信也	-10.9734
蔡州	-10.9735
霍集斯	-10.9736
統制官	-10.9739
報國	-10.9741
出境	-10.9741
五行	-10.9744
不甚	-10.9744
緡	-10.9744
應照	-10.9746
必勝	-10.9748
故君子	-10.9749
平州	-10.975
公爵	-10.9752
備禦	-10.9754
繋	-10.9755
悮	-10.9755
有禮	-10.9757
腦	-10.9757
進討	-10.9757
進逼	-10.9758
事宜上諭軍機大臣曰據	-10.976
汝南	-10.9761
兩人	-10.9762
晉侯使	-10.9762
不來	-10.9762
不得已而	-10.9763
赦天下	-10.9763
之職	-10.9763
臘	-10.9764
悌	-10.9765
五岱	-10.9766
重大	-10.9768
乏食	-10.9771
曰夫子	-10.9771
協辦	-10.9771
丹津俄木布	-10.9771
甚急	-10.9772
紀綱	-10.9773
給事	-10.9774
死士	-10.9775
策凌等	-10.9776
異日	-10.9782
乎今	-10.9783
無乃	-10.9787
其前	-10.9787
周詳	-10.9788
馬兵	-10.9789
通事	-10.9794
于此	-10.9797
兵馬使	-10.9802
亦宜	-10.9804
反位	-10.9804
民有	-10.9806
該撫	-10.9807
爲之	-10.9808
其半	-10.9809
引軍	-10.9811
以通	-10.9811
歸降	-10.9812
北伐	-10.9816
本省	-10.9819
齊楚	-10.9821
名為	-10.9822
即由	-10.9825
勇往	-10.9826
其外	-10.9827
爾圖	-10.9828
高麗	-10.9829
知也	-10.983
乳	-10.9832
覔	-10.9832
版	-10.9833
撥兵	-10.9834
坪	-10.9834
刼掠	-10.9834
㐮	-10.9835
恂	-10.9835
弇	-10.9838
顗	-10.9839
接壤	-10.9839
寐	-10.9843
不反	-10.9844
并州	-10.9848
子儀	-10.985
擁兵	-10.985
落職	-10.985
師中	-10.9851
一節	-10.9853
惡其	-10.9854
水火	-10.9859
入門	-10.9859
為己	-10.986
衛將軍	-10.986
其狀	-10.986
公至自	-10.9861
千萬	-10.9862
皇祖	-10.9863
弗克	-10.9864
而攻	-10.9864
始知	-10.9864
無疑	-10.9864
各該	-10.9865
未可知	-10.9869
攻其	-10.987
以問	-10.987
合機宜	-10.9871
非吾	-10.988
數百里	-10.988
以謂	-10.9881
雖多	-10.9884
十名	-10.9885
監禁	-10.9887
効力贖罪	-10.9887
之親	-10.9887
鄉里	-10.9888
監司	-10.9889
求救於	-10.989
阼階	-10.9893
涇州	-10.9896
非不	-10.9896
朝廷以	-10.9898
墊	-10.9899
怒而	-10.9904
而前	-10.9907
慶之	-10.9907
無敵	-10.9912
顆	-10.9913
㕘贊	-10.9913
六合	-10.9913
噶爾丹策零	-10.9914
騷擾	-10.9915
光禄大夫	-10.9917
二十九	-10.9917
大名	-10.9917
堰	-10.992
搖	-10.992
矧	-10.9922
山陽	-10.9923
額駙策凌	-10.9925
於後	-10.9926
冡	-10.9928
經營	-10.9928
朕以	-10.9929
文徳	-10.993
督辦	-10.9934
太皇太后	-10.9935
汴京	-10.9937
李邦彦	-10.9938
五百里	-10.9941
萬五千	-10.9942
四十餘	-10.9943
不繼	-10.9944
振旅	-10.9944
不孝	-10.9944
中官	-10.9944
甚屬可嘉	-10.9948
不多	-10.995
暫停	-10.9952
進藏	-10.9952
祖父	-10.9952
聚集	-10.9952
收服	-10.9955
多人	-10.9957
舒赫德等	-10.9957
殺掠	-10.996
之節	-10.996
不生	-10.9961
酌撥	-10.9962
年老	-10.9962
先入	-10.9964
延夀	-10.9971
相拒	-10.9973
切責	-10.9975
大者	-10.9976
再查	-10.9981
無子	-10.9981
必不能	-10.9985
服之	-10.9987
騫	-10.9988
昶	-10.9992
曰天子	-10.9992
彧	-10.9993
叠	-10.9995
縀	-10.9995
能無	-10.9995
統之	-10.9996
得傷	-10.9996
狃	-10.9997
者甚衆	-10.9997
侍讀學士	-10.9998
謝罪	-10.9998
霽	-10.9999
天祥	-10.9999
譁	-11
不濟	-11.0002
素勒坦沙	-11.0003
寒暑	-11.0005
於六月	-11.0012
當此	-11.0014
好惡	-11.0015
遇之	-11.0022
今乃	-11.0023
兵二百名	-11.0023
不習	-11.0024
請命	-11.0024
璽書	-11.0025
奔潰	-11.0029
受降	-11.003
按名	-11.0031
稍稍	-11.0037
還至	-11.0039
州事	-11.004
詔曰	-11.0043
相遇	-11.0044
朝士	-11.0046
亦令	-11.0048
今欲	-11.0053
華元	-11.0054
四國	-11.0057
並進	-11.0057
一道	-11.0062
之先	-11.0063
放鎗	-11.0064
進忠	-11.0067
子罕	-11.0068
屬下人	-11.0069
軍興	-11.0069
十餘日	-11.0071
輸誠	-11.0073
餒	-11.0075
三品	-11.0075
即在	-11.0076
冷	-11.0077
勸進	-11.0077
帽	-11.0078
自新	-11.008
乗之	-11.0081
包沁	-11.0081
詳細	-11.0082
墨子	-11.0082
覃	-11.0084
一千二百	-11.0085
是用	-11.0085
磬	-11.0085
國政	-11.0087
副總管	-11.0087
二十九年	-11.0088
摶	-11.0089
此意	-11.0089
沛公	-11.0091
不變	-11.0092
扈從	-11.0092
逆酋	-11.0092
觀察使	-11.0095
旌旗	-11.0097
同謀	-11.0098
何地	-11.0101
官兵義民	-11.0102
怨望	-11.0103
失所	-11.0106
諸縣	-11.0107
代王	-11.0112
之虞	-11.0123
於東	-11.0123
截殺	-11.0129
危急	-11.0131
神宗	-11.0132
海明	-11.0134
困於	-11.0143
立於	-11.0147
五曰	-11.0148
稠	-11.015
廟堂	-11.015
貂	-11.015
罪狀	-11.0151
孟克	-11.0151
物也	-11.0153
以供	-11.0156
沅	-11.0158
之論	-11.0158
心腹	-11.0162
涸	-11.0163
魯克	-11.0163
軾	-11.0166
勞而	-11.0167
以實	-11.0168
主簿	-11.0169
前鋒統領	-11.0169
自來	-11.0171
交趾	-11.0173
乎若	-11.0177
猶不	-11.0177
覺羅	-11.0182
豈無	-11.0185
攸之	-11.0186
二帥	-11.0188
相度	-11.0192
明徳	-11.0193
任意	-11.0193
總統	-11.0198
受爵	-11.0199
動支	-11.0201
晉君	-11.0202
之要	-11.0203
尋陽	-11.0207
進曰	-11.0208
逺來	-11.0209
至大	-11.021
臣願	-11.0212
必為	-11.0212
和尚	-11.0214
殿中	-11.0215
其聲	-11.0217
附和	-11.0217
逆首	-11.0224
延慶	-11.0228
泓	-11.0228
藍翎侍衛	-11.0232
制也	-11.0233
經略大學士傅恒	-11.0235
仁者	-11.0237
五色	-11.0238
宗澤	-11.024
於西	-11.0242
脇	-11.0243
弋	-11.0243
禮部侍郎	-11.0243
恚	-11.0244
甄	-11.0244
識者	-11.0244
額爾德尼	-11.0244
架	-11.0245
允文	-11.0246
周元理	-11.0247
兵部侍郎	-11.025
芬	-11.0251
行陣	-11.0251
傅玉	-11.0251
迥	-11.0251
西階上	-11.0252
戰國䇿	-11.0253
䝉遜	-11.0254
舊制	-11.0255
輔政	-11.0257
二十餘人	-11.0258
擾害	-11.0258
不給	-11.0259
請罪	-11.0259
堂邑	-11.026
還朝	-11.0262
問罪	-11.0262
智伯	-11.0262
至誠	-11.0263
将兵	-11.0265
四出	-11.0267
齊桓	-11.0272
追擒	-11.0274
不敢復	-11.0275
以攻	-11.0276
黨與	-11.0281
不能得	-11.0281
而不得	-11.0283
調取	-11.0284
星速	-11.0285
四百餘	-11.0287
一國	-11.0289
軍使	-11.0299
稍存	-11.0301
佐食	-11.0301
人力	-11.0302
首先	-11.0303
何憂	-11.0304
隨征	-11.0308
朝臣	-11.031
九日	-11.031
之害	-11.0317
安知	-11.032
居之	-11.0321
馳驛前往	-11.0328
者又	-11.0328
頽	-11.033
閼	-11.0331
遵照辦理	-11.0331
昔嶺	-11.0333
回人等	-11.0333
責之	-11.0334
羔	-11.0334
遂行	-11.0342
天祐	-11.0342
首逆	-11.0344
入官	-11.0345
何㮚	-11.0347
翁金	-11.0349
其本	-11.0349
安平	-11.0357
左右皆	-11.0358
而遁	-11.0358
南下	-11.0362
不知也	-11.0363
患病	-11.0363
可令	-11.0363
已甚	-11.0373
者吾	-11.0374
伐我	-11.0375
以明	-11.0377
之便	-11.0379
克魯倫河	-11.0379
上乃	-11.038
之急	-11.0381
㕘奏	-11.0381
師古	-11.0382
起於	-11.0383
樞密使	-11.0384
降于	-11.0386
大國之	-11.0386
衆曰	-11.0387
誠能	-11.0388
吉林	-11.0388
甚是	-11.039
何至	-11.0391
兵一萬	-11.0392
右衞	-11.0393
曰余	-11.0394
舊教	-11.0394
鄂州	-11.0395
以取	-11.0397
云我	-11.0399
甚大	-11.0401
攷	-11.0402
也然則	-11.0404
手詔	-11.0404
復還	-11.0405
元昊	-11.0405
文學	-11.0406
其政	-11.0406
重賞	-11.0406
矣又	-11.0407
處置	-11.0408
上又命軍機大臣傳諭	-11.0409
鞠	-11.041
廓	-11.041
倣	-11.0411
下流	-11.0413
樞密院	-11.0413
舒恕	-11.0414
胸	-11.0414
鄢	-11.0414
軍府	-11.0415
遣中使	-11.0415
驂	-11.0416
村莊	-11.0416
塞外	-11.0417
去嵗	-11.0417
之力也	-11.042
伐秦	-11.0422
好生	-11.0423
而北	-11.0427
已屬	-11.0434
入冦	-11.0435
上諭兵部	-11.0435
珠玉	-11.0439
選擇	-11.0439
明矣	-11.044
恩㫖	-11.0443
喀喇沁	-11.0445
有年	-11.0445
往見	-11.0445
藩鎮	-11.0448
中尉	-11.045
以養	-11.0454
南宫	-11.0455
全無	-11.0456
護軍	-11.0457
其鋒	-11.0458
已得	-11.0458
萬石	-11.0466
高祖	-11.0467
問之曰	-11.0467
大雪	-11.0468
帥騎	-11.0471
不誅	-11.0472
臣聞之	-11.0482
失色	-11.0482
先人	-11.0483
特命	-11.0485
等帶兵	-11.0487
右僕射	-11.0488
毗	-11.049
已抵	-11.049
以授	-11.0491
中士	-11.0491
隨之	-11.0491
蚶江	-11.0492
葉爾羌喀什噶爾	-11.0492
瘦	-11.0494
照常	-11.0495
都虞候	-11.0496
仲尼曰	-11.0496
片	-11.0497
滌	-11.0497
故道	-11.0497
領隊大臣	-11.0498
贓	-11.0498
以奉	-11.0498
笞	-11.0499
自固	-11.05
免於	-11.0501
璜	-11.0501
幄	-11.0501
朔日有食之	-11.0504
奥	-11.0504
忠孝	-11.0505
所惡	-11.0506
二千五百	-11.0506
舒赫徳等	-11.0506
沙漠	-11.0507
之說	-11.0514
一身	-11.0516
春二月	-11.0519
列子	-11.0522
骸骨	-11.0523
之圍	-11.0524
大風	-11.0524
邾人	-11.0526
新降	-11.0527
入境	-11.0529
為患	-11.053
頗多	-11.053
通融	-11.0533
入援	-11.0533
西山	-11.0533
奔竄	-11.0534
又敗	-11.0534
防秋	-11.0538
給以	-11.0541
甚盛	-11.0543
通州	-11.0544
不能用	-11.0544
上書言	-11.0545
數里	-11.0547
頃之	-11.0555
復為	-11.0557
為要	-11.0562
司射	-11.0564
趙鼎	-11.0565
威武	-11.0567
東陽	-11.0567
遂圍	-11.0568
爵禄	-11.0572
民皆	-11.0572
洵	-11.0573
有過	-11.0573
欲殺之	-11.0573
悉力	-11.0574
廆	-11.0574
尼瑪哈	-11.0575
陕	-11.0575
兵三百名	-11.0576
安慶	-11.0577
琅玕	-11.0578
愛人	-11.0579
藍翎	-11.058
裨	-11.058
奭	-11.0581
東川	-11.0584
謟	-11.0585
譲	-11.059
巴顔	-11.0591
必亡	-11.0592
帝遣	-11.0592
千五百	-11.0592
驪	-11.0593
貧民	-11.0593
照看	-11.0598
逃亡	-11.0599
欒氏	-11.06
諳	-11.06
第三	-11.0604
糾衆	-11.0606
復入	-11.0606
以進	-11.0606
不准	-11.0609
襲之	-11.061
五十名	-11.0611
不一	-11.0615
縱横	-11.0616
獲之	-11.0618
也曷為	-11.0628
三百餘	-11.0629
周禮	-11.0631
約有	-11.0632
尚存	-11.0634
使副	-11.0635
親臨	-11.0636
擾亂	-11.0636
俱應	-11.0638
深知	-11.0638
遷徙	-11.0642
之官	-11.0642
希圖	-11.0643
責其	-11.0645
火器	-11.0648
不可勝	-11.0649
且夫	-11.0651
威將軍	-11.0651
兵大敗	-11.0652
申生	-11.0654
分駐	-11.0656
搗	-11.0659
栅	-11.066
轉運使	-11.0661
而為之	-11.0661
子夏	-11.0663
羅卜藏	-11.0664
如前	-11.0665
安居	-11.0667
薳	-11.0667
强敵	-11.0668
官兵等	-11.0669
召還	-11.0669
不遣	-11.0669
仇池	-11.0669
收穫	-11.0669
嫉	-11.0671
副元帥	-11.0671
慟	-11.0671
吕氏春秋	-11.0672
鯀	-11.0672
糗糧	-11.0673
拙	-11.0673
仞	-11.0675
太保	-11.0677
歐陽	-11.0677
若欲	-11.0679
鄩	-11.068
勦捕	-11.0684
釋放	-11.0687
貢賦	-11.0688
之具	-11.069
穆爾	-11.0691
辭也	-11.0694
冬至	-11.0698
文書	-11.0698
仰體	-11.07
速往	-11.0701
少師	-11.0701
制度	-11.0704
民兵	-11.0706
之號	-11.0712
𦂳	-11.0713
山南	-11.0713
囚之	-11.0713
早已	-11.0722
此之謂也	-11.0724
於魯	-11.0725
本末	-11.0726
乗馬	-11.0728
貢獻	-11.0729
毎年	-11.0731
曰賊	-11.0734
之境	-11.0735
伐晉	-11.0737
不告	-11.0739
後軍	-11.0745
百户	-11.0747
僥倖	-11.0748
歇	-11.0749
取道	-11.075
喂	-11.075
縂	-11.0752
祕	-11.0756
撻	-11.0756
縶	-11.0756
見上	-11.0756
投降	-11.0756
躁	-11.0758
精銳	-11.0758
縻	-11.0759
定長	-11.076
宜速	-11.0761
龐	-11.0761
驩	-11.0761
做	-11.0762
燎	-11.0763
盆	-11.0764
驪姬	-11.0765
持重	-11.0766
不即	-11.0767
各自	-11.0771
贖罪	-11.0771
駐劄大臣	-11.0773
倉皇	-11.0774
侂胄	-11.0778
飛飭	-11.0778
逺方	-11.0779
赴軍營	-11.0783
曰秦	-11.0784
今吾	-11.0784
背叛	-11.0785
三等	-11.0785
之責	-11.0785
䕶衛	-11.0787
㑹商	-11.0792
嘆曰	-11.0792
流離	-11.0793
大江	-11.0796
仍著	-11.0797
職貢	-11.0798
率之	-11.0798
京畿	-11.08
祖宗之	-11.0801
豫州刺史	-11.0802
提鎮	-11.0802
矣君	-11.0802
伊二人	-11.0805
太僕	-11.0805
屬之	-11.0805
何言	-11.0806
若使	-11.0806
徒以	-11.0808
今來	-11.081
二犯	-11.0813
喇卜	-11.0819
以謝	-11.082
竣事	-11.0823
以外	-11.0824
也使	-11.0824
之至意	-11.0828
慰諭	-11.0831
定邊左副將軍	-11.0835
伊拉古克三庫圖克圖	-11.0836
水土	-11.0839
澹	-11.0839
燕趙	-11.0841
剳	-11.0841
譎	-11.0844
禧	-11.0845
拘泥	-11.0846
茲謂	-11.0846
筋	-11.0846
逝	-11.0847
松潘	-11.0848
詠	-11.0849
冗	-11.085
犧	-11.0854
大叔	-11.0855
以治	-11.0855
鼓譟	-11.0856
所遺	-11.0857
上有	-11.0859
交部	-11.0861
天氣	-11.0861
任用	-11.0863
禆將	-11.0866
邊事	-11.0869
廣州	-11.0872
羽林	-11.0872
秦晉	-11.0873
城邑	-11.0873
官府	-11.0877
圍困	-11.0884
八九	-11.0886
六十餘	-11.0892
訊明	-11.0893
未甞	-11.0894
東道	-11.0895
記曰	-11.0896
鄭國	-11.0897
武宗	-11.0901
加賞	-11.0901
度支	-11.0901
緑	-11.0904
兵一百名	-11.0908
皆出	-11.0911
戒嚴	-11.0912
安都	-11.0912
所及	-11.0912
皆如	-11.0913
中大夫	-11.0915
應即	-11.0915
全數	-11.0917
跟	-11.0917
應否	-11.0918
順昌	-11.0919
比之	-11.0919
於七月	-11.0919
太行	-11.0921
常勝軍	-11.0922
九人	-11.0922
吾欲	-11.0923
等復	-11.0923
阿卜都	-11.0923
霖	-11.0924
唐古忒	-11.0925
估	-11.0926
詳議	-11.0928
㳟	-11.0928
沾	-11.0929
北軍	-11.0929
道徳	-11.093
危矣	-11.0931
涖	-11.0932
皷	-11.0933
疊	-11.0933
等領兵	-11.0933
雅爾	-11.0933
挈眷	-11.0933
饌	-11.0936
瓉	-11.0937
敬瑭	-11.0937
尺寸	-11.0937
隧	-11.0938
有才	-11.0939
擒𠞰	-11.0939
隴右	-11.094
蒍	-11.0941
呂氏春秋	-11.0943
之教	-11.0943
以城降	-11.0944
衛士	-11.0944
六十里	-11.0947
脯	-11.0949
奔齊	-11.0951
空虚	-11.0953
慶陽	-11.0953
管領	-11.0955
額外	-11.0957
淮北	-11.0957
宋徐夢莘撰炎興下帙起	-11.0958
臣願陛下	-11.0958
武都	-11.0959
也公曰	-11.096
北路軍營	-11.0968
不附	-11.0969
上諭曰	-11.0969
大元帥	-11.0972
皆可	-11.0974
申飭	-11.0975
詹事	-11.0975
提兵	-11.0977
應龍	-11.0977
欲攻	-11.098
在下	-11.098
小金川	-11.0981
糧道	-11.0982
得其所	-11.099
門户	-11.0993
一隅	-11.0994
孰與	-11.1002
而况	-11.1002
龍門	-11.1005
憲宗	-11.1005
文章	-11.1005
每日	-11.1006
俱屬	-11.1007
尅	-11.1009
小大	-11.1009
俾得	-11.1011
揀	-11.1012
大戰	-11.1012
苐	-11.1013
武侯	-11.1014
兩日	-11.1016
絡	-11.1017
人主之	-11.1018
率所部	-11.1018
道君	-11.1019
三十五	-11.1019
河北河東	-11.102
稚	-11.1021
劵	-11.1021
飄	-11.1022
養贍	-11.1022
根敦	-11.1022
復見	-11.1022
鼓勵	-11.1023
粉	-11.1024
釀	-11.1024
寖	-11.1026
鵠	-11.1027
也君子	-11.1028
捍禦	-11.1028
珣	-11.103
琬	-11.1031
孼	-11.1032
調往	-11.1034
滅亡	-11.1037
不敢言	-11.1039
盡矣	-11.104
又稱	-11.104
審辦	-11.104
衛大將軍	-11.104
收取	-11.1041
民情	-11.1041
淮東	-11.1043
三十人	-11.1046
以亡	-11.1056
光弼	-11.1056
三十二	-11.1057
押解	-11.106
報之	-11.1061
聞而	-11.1061
酌量辦理	-11.1065
成周	-11.1068
奉行	-11.1069
逆囘	-11.1069
五里	-11.1072
途中	-11.1074
善之	-11.1075
北宫	-11.1079
周主	-11.108
而未	-11.1081
司馬光	-11.1081
離心	-11.1089
朝鮮	-11.1092
宸濠	-11.1093
各項	-11.1098
以分	-11.1103
足用	-11.1103
禇	-11.1104
西平	-11.1105
洎	-11.1105
等州	-11.1106
二君	-11.1106
掾	-11.1106
責成	-11.1108
諮	-11.1108
漢陽	-11.111
妻之	-11.111
泮	-11.111
犂	-11.1111
殛	-11.1112
約計	-11.1112
炭	-11.1113
揭	-11.1113
蒸	-11.1114
貎	-11.1114
產	-11.1115
淚	-11.1116
瀕	-11.1116
剥	-11.1117
軍食	-11.1118
奏章	-11.1119
中書省	-11.112
文燦	-11.112
義兵	-11.1121
可行	-11.1125
納欵	-11.1125
今陛下	-11.1126
臨之	-11.1128
何有	-11.1131
皇長子	-11.1133
巴什	-11.1134
不得入	-11.1134
三道	-11.1135
之基	-11.1136
照舊	-11.1136
議䘏	-11.1138
周王	-11.114
文報	-11.1144
餘兩	-11.1146
言于	-11.1147
内臣	-11.1148
南岸	-11.1153
興國	-11.1153
應辦	-11.1154
任内	-11.1154
可知也	-11.1157
子思	-11.1157
當死	-11.1158
脱出	-11.1158
過河	-11.116
任之	-11.1161
除之	-11.1162
永福	-11.1164
度河	-11.1165
竒兵	-11.1169
之精	-11.1172
土喇	-11.1173
忠勇	-11.1174
見在	-11.1178
匪徒	-11.1178
子良	-11.1178
為帝	-11.1179
長者	-11.1183
公侯	-11.1184
諸蠻	-11.1185
厦	-11.119
五年春正月	-11.1191
峯	-11.1193
此處	-11.1193
亦不敢	-11.1193
右丞相	-11.1196
阿思哈	-11.1196
埔	-11.1196
明亮	-11.1197
刦	-11.1197
龢	-11.1198
訥黙庫	-11.1198
西陲	-11.12
菽	-11.12
策妄阿喇布坦	-11.12
婆	-11.1201
曽子	-11.1202
蠶	-11.1203
弗與	-11.1203
且以	-11.1205
纎	-11.1205
蹶	-11.1205
臥	-11.1206
監國	-11.1209
喙	-11.1209
殱除	-11.121
來迎	-11.121
詘	-11.1212
所議	-11.1212
䘚爵	-11.1216
願得	-11.1216
更有	-11.1218
書生	-11.122
嗣君	-11.122
奏言查	-11.1221
之典	-11.1222
臣不敢	-11.1223
公族	-11.1227
世襲	-11.1228
威福	-11.1229
西海	-11.1231
在我	-11.1232
者甚多	-11.1233
城堡	-11.1234
不害	-11.1234
再議	-11.1235
不覺	-11.1236
失信	-11.1236
旗分	-11.1237
二王	-11.1239
何可	-11.1241
入奏	-11.1241
現存	-11.1243
即派	-11.1244
六國	-11.1245
知伯	-11.1246
潭州	-11.1246
有子	-11.1246
語曰	-11.1247
運到	-11.1249
邠	-11.1262
且請	-11.1264
萬匹	-11.1264
但以	-11.1265
說之	-11.1266
身故	-11.1268
品級	-11.127
不務	-11.127
一夫	-11.1271
中常侍	-11.1277
以其子	-11.1278
成徳	-11.1278
燒燬	-11.128
復言	-11.128
不降	-11.1281
不可信	-11.1283
查郎阿	-11.1284
氓	-11.1285
今嵗	-11.1286
應於	-11.1287
壩	-11.1288
清馥	-11.1288
檻	-11.1289
著於	-11.1289
愔	-11.129
亦不必	-11.1291
阿拉善	-11.1293
廢弛	-11.1294
范氏	-11.1296
輝特	-11.1297
承嗣	-11.1298
舍之	-11.1299
欽遵	-11.1299
睹	-11.13
闔廬	-11.1301
復用	-11.1302
對曰君	-11.1302
可立	-11.1303
車騎將軍	-11.1303
金吾	-11.1304
伋	-11.1304
入山	-11.1304
孫思克	-11.1306
分布	-11.1307
捐助	-11.1309
朕躬	-11.1309
所統	-11.1309
撫恤	-11.131
浙東	-11.1315
於九月	-11.1316
于成龍等	-11.1318
林甫	-11.1319
震動	-11.1321
善後	-11.1324
以絶	-11.1329
阿克	-11.1332
應侯	-11.1336
飲之	-11.1336
令各	-11.1336
苦之	-11.1337
赴之	-11.1338
應天	-11.1339
粤東	-11.1339
此際	-11.134
帝乃	-11.1341
星夜	-11.1341
穆王	-11.1342
楊氏	-11.1342
羣小	-11.1345
總之	-11.1345
世世	-11.1346
中道	-11.1346
令副都統	-11.1349
愕	-11.1349
大夫種	-11.1349
遲延	-11.1352
等語查	-11.1354
上欲	-11.1359
建議	-11.1362
二百人	-11.1364
固有	-11.1366
改為	-11.1366
寒心	-11.1367
汝才	-11.1368
被擒	-11.1371
而輕	-11.1372
礦	-11.1372
傉檀	-11.1373
而食之	-11.1373
州安置	-11.1373
趙良棟	-11.1374
馬良柱	-11.1374
不改	-11.1375
將死	-11.1377
查明具奏	-11.1377
不悟	-11.138
詡	-11.138
扎薩克圖汗	-11.138
魯克察克	-11.1381
跋	-11.1381
閭閻	-11.1383
為辭	-11.1384
上諭辦理軍機大臣等曰	-11.1385
夘	-11.1385
停其	-11.1387
大理寺	-11.1387
旻	-11.1387
甯	-11.1387
鷄	-11.1387
三千餘	-11.1388
璫	-11.1388
粹	-11.1389
勔	-11.139
歙	-11.139
鏡	-11.1392
是夕	-11.1392
乍	-11.1392
胙	-11.1393
以全	-11.1393
有濟	-11.1395
建業	-11.1397
靈武	-11.1399
白公	-11.1404
軍容	-11.1408
建武	-11.1408
地畝	-11.1409
乗其	-11.141
博雅	-11.141
莒人	-11.141
聘于	-11.1411
駐藏	-11.1413
追殺	-11.1413
還京	-11.1414
協領	-11.1418
太息	-11.1429
子大叔	-11.1431
四百名	-11.1431
議政大臣等議	-11.1432
相率	-11.1434
海道	-11.1435
安在	-11.1436
手書	-11.1437
渡淮	-11.1441
用此	-11.1442
嗟乎	-11.1443
擄掠	-11.1445
著派	-11.1446
從子	-11.1447
精神	-11.145
且有	-11.1452
不赦	-11.1453
法令	-11.1453
以威	-11.1454
惻	-11.1456
陽氣	-11.1458
交部議叙	-11.1458
聖意	-11.1461
煥	-11.1461
訛	-11.1462
于天	-11.1462
蘄	-11.1465
淖	-11.1466
博囉	-11.147
擊大破之	-11.1471
前編	-11.1473
鹿耳門	-11.1475
堆	-11.1475
舍楞	-11.1479
天心	-11.1479
續調	-11.148
毆	-11.148
已為	-11.1481
仰天	-11.1481
以和	-11.1481
狡詐	-11.1482
之父	-11.1485
查勘	-11.1485
户部侍郎	-11.1485
覈	-11.1485
大旱	-11.1487
帶兵前往	-11.1488
又謂	-11.1491
茂貞	-11.1491
自後	-11.1492
善巴	-11.1492
人犯	-11.1493
修好	-11.1493
毋使	-11.1495
辦送	-11.1497
止有	-11.1498
整齊	-11.1501
平江	-11.1501
爾雅	-11.1501
等共	-11.1501
常徳	-11.1504
萬世之	-11.1506
體恤	-11.1506
所知	-11.1509
百司	-11.1513
甫經	-11.1514
承制	-11.1515
人才	-11.1515
率師	-11.1517
察看	-11.1518
建立	-11.152
黎陽	-11.1521
所轄	-11.1524
之方	-11.1528
河口	-11.1532
天討	-11.1537
多少	-11.1538
至長安	-11.154
季文子	-11.1542
吏士	-11.1545
招之	-11.1548
居庸	-11.1548
交納	-11.1549
未下	-11.155
不廢	-11.1554
皝	-11.1556
箕子	-11.1558
緊	-11.1561
難民	-11.1561
賜號	-11.1563
不論	-11.1564
大震	-11.1566
莽噶里克	-11.1568
即欲	-11.1568
蟻	-11.1569
春申君	-11.157
爐	-11.1571
羲	-11.1572
中間	-11.1572
鋪	-11.1573
夏侯	-11.1573
炮	-11.1574
生者	-11.1574
尚書右僕射	-11.1575
希烈	-11.1575
璞	-11.1575
從重治罪	-11.1575
酣	-11.1575
囑	-11.1575
濯	-11.1576
聚兵	-11.1576
䕫州	-11.1576
樽	-11.1577
腐	-11.1578
韓詩外傳	-11.1578
两	-11.1579
須臾	-11.158
浴	-11.1581
淮陽	-11.1581
兑	-11.1581
自安	-11.1582
閎	-11.1583
勦殺	-11.1585
兵三萬	-11.1587
登岸	-11.1588
火器營	-11.1588
今雖	-11.1589
馬軍	-11.1589
齊克	-11.159
大路	-11.1591
賜以	-11.1592
服也	-11.1593
沿江	-11.1594
吾聞之	-11.1594
窮困	-11.1596
死則	-11.1597
入秦	-11.1599
其室	-11.1603
牧養	-11.1604
而立之	-11.1604
恩賞	-11.1606
姦邪	-11.1606
文子曰	-11.1607
不遜	-11.1608
此番	-11.1609
後來	-11.1613
浙西	-11.1618
凡事	-11.1618
崧	-11.162
烏孫	-11.1621
也詩曰	-11.1622
侍衛章京	-11.1623
南向	-11.1626
雖經	-11.1626
卿士	-11.1629
也不如	-11.1629
遂復	-11.1629
四員	-11.1631
運往	-11.1632
寛免	-11.1633
矣遂	-11.1634
徐鼎士	-11.1634
三次	-11.1634
按兵	-11.1636
其咎	-11.1638
趙簡子	-11.1639
捐監	-11.164
隨後	-11.164
三晉	-11.1642
爭之	-11.1643
於三月	-11.1644
唐兵	-11.1646
緑旗	-11.1648
盟於	-11.1653
公㑹	-11.1653
稱帝	-11.1654
臺諫	-11.1654
所行	-11.1654
衛君	-11.1656
兾	-11.1659
舘	-11.1659
篚	-11.166
格外	-11.1661
額駙䇿凌	-11.1662
馬歩	-11.1662
山陵	-11.1662
既無	-11.1662
覓	-11.1665
愿	-11.1666
緞疋	-11.1666
換班	-11.1666
穫	-11.1666
奨	-11.1667
覿	-11.1667
隴州	-11.1667
玄感	-11.1668
殞	-11.1669
勤王之師	-11.1669
地震	-11.167
綺	-11.167
賜死	-11.1671
珂	-11.1671
新舊	-11.1671
徂	-11.1672
氊	-11.1672
蔓	-11.1673
貺	-11.1673
剿賊	-11.1673
讜	-11.1674
僕從	-11.1675
麋	-11.1675
鞏昌	-11.1676
越人	-11.1676
切齒	-11.1678
之野	-11.1679
崔杼	-11.168
櫟	-11.168
遂至	-11.1681
充裕	-11.1681
州防禦使	-11.1683
泣下	-11.1683
還報	-11.1685
人材	-11.1686
驅逐	-11.1688
不察	-11.1692
無憂	-11.1692
撫諭	-11.1694
誓書	-11.1697
髙陽	-11.1698
流血	-11.1699
諭之	-11.1701
國亡	-11.1701
定例	-11.1703
知悉	-11.1705
臣僕	-11.1706
達實	-11.1709
言我	-11.1712
將領	-11.1713
隨軍	-11.1714
都堂	-11.1716
或言	-11.1716
一聞	-11.172
比至	-11.172
二也	-11.1721
計日	-11.1722
萬七千	-11.1726
陽平	-11.1727
惠卿	-11.1729
僉事	-11.173
阿竒木	-11.1732
可到	-11.1733
武臣	-11.1733
軍前効力	-11.1735
嵩之	-11.1737
長江	-11.1739
附於	-11.174
女為	-11.1741
不煩	-11.1741
底定	-11.1742
左丞相	-11.1743
還宫	-11.1744
待制	-11.1747
器用	-11.1748
叱之	-11.1749
部議	-11.1752
萬國	-11.1753
所愛	-11.1756
鏐	-11.1757
犄角	-11.1758
呌	-11.1758
少子	-11.176
之恥	-11.176
掛	-11.176
欽奉諭㫖	-11.176
儔	-11.1761
佟	-11.1761
倉猝	-11.1761
媵	-11.1762
復歸	-11.1762
矣此	-11.1762
打箭爐	-11.1763
逭	-11.1763
燬	-11.1764
賞銀一百兩	-11.1764
重任	-11.1764
筴	-11.1766
兵到	-11.1767
阿睦爾撒納等	-11.1768
阪	-11.1768
柩	-11.177
詩書	-11.177
到後	-11.177
㤀	-11.177
趾	-11.177
閹	-11.177
論功	-11.1771
敗盟	-11.1772
有異志	-11.1772
聿	-11.1773
莫大焉	-11.1774
帶同	-11.1774
潁川	-11.1774
興復	-11.1774
語言	-11.1775
而后	-11.1776
此所謂	-11.178
已令	-11.1781
具言	-11.1783
還京師	-11.1784
殺我	-11.1786
三族	-11.1788
聞有	-11.1789
一夕	-11.179
拜受	-11.1793
可勝	-11.1795
職事	-11.1796
徃徃	-11.1797
夾擊	-11.18
姦臣	-11.1801
或因	-11.1803
穆叔	-11.1803
而外	-11.1806
表請	-11.1806
都護	-11.1808
奸民	-11.1812
蔡人	-11.1813
等自	-11.1814
僧辯	-11.1815
乗勢	-11.1819
威名	-11.1819
國珍	-11.182
奔逃	-11.1828
雩	-11.1832
管子對曰	-11.1833
復行	-11.1835
迎戰	-11.1835
若仍	-11.1838
也然而	-11.1838
向前	-11.1839
陳留	-11.1841
俱各	-11.1842
拖	-11.1847
漢唐	-11.1847
不能救	-11.1851
千戸	-11.1852
右軍	-11.1853
綝	-11.1858
菑	-11.186
刋	-11.1861
諶	-11.1862
秦王堅	-11.1863
犢	-11.1864
有意	-11.1865
劉向㠯為	-11.1865
絃	-11.1867
詬	-11.1868
袖	-11.1869
牧馬	-11.187
紆	-11.187
之過也	-11.1871
囘民	-11.1873
豈肯	-11.1873
更名	-11.1874
相機辦理	-11.1879
三萬人	-11.1879
明君	-11.188
欲去	-11.188
鐵騎	-11.1882
將軍大臣等	-11.1882
無論	-11.1883
扶風	-11.1885
上召	-11.1887
乗機	-11.1889
不無	-11.1892
朝野	-11.1894
舟船	-11.1894
四十八	-11.1896
來時	-11.1901
管仲曰	-11.1904
部院	-11.1906
城縣	-11.1907
重誨	-11.1907
朝議	-11.1907
譬如	-11.1909
數百名	-11.1909
破其	-11.1909
伯姬	-11.1909
同盟	-11.191
公叔	-11.1912
以道	-11.1913
自縊	-11.1917
擒其	-11.1919
逸賊	-11.1919
於八月	-11.1919
求和	-11.192
止於	-11.192
城垣	-11.1922
北地	-11.1928
户部尚書	-11.1929
無名	-11.1932
該縣	-11.1936
進擊	-11.194
相如	-11.1946
北山	-11.1947
金石	-11.1947
縱之	-11.1949
大隊	-11.195
等謹案	-11.1953
聨	-11.1954
順承郡王	-11.1955
平定金川	-11.1955
軀	-11.1956
黒龍江	-11.1957
潼關	-11.1958
鄂輝	-11.1958
順徳訥	-11.1959
鑾輿	-11.1959
犁	-11.1959
朕即	-11.1959
致死	-11.1961
雹	-11.1962
吏部侍郎	-11.1962
疎虞	-11.1962
朕甚	-11.1963
棠	-11.1965
忒	-11.1965
姒	-11.1965
餐	-11.1967
虎賁	-11.1968
不亦難乎	-11.1971
無患	-11.1972
數十年	-11.1972
擾累	-11.1973
江都	-11.1975
訊據	-11.1977
虎牢	-11.198
分作	-11.1984
傳聞	-11.1987
軍人	-11.1989
化及	-11.199
三面	-11.1992
祭酒	-11.1994
荆州刺史	-11.1996
移檄	-11.1997
分撥	-11.1999
屬實	-11.2
縣官	-11.2
何由	-11.2001
三千餘人	-11.2003
營壘	-11.2005
童子	-11.2007
未發	-11.201
萬乗	-11.2012
邾子	-11.2012
同列	-11.2014
南渡	-11.2017
共有	-11.202
肅清	-11.2021
臨江	-11.2024
又不能	-11.2029
假道	-11.2029
大有	-11.203
逃人	-11.2031
視事	-11.2032
國恩	-11.2035
謝曰	-11.2036
郃	-11.204
毋致	-11.2043
南安	-11.2043
之糧	-11.2044
别有	-11.2046
師徒	-11.2046
甚少	-11.2047
凡此	-11.205
笨港	-11.205
泝	-11.2052
劉統勲	-11.2054
出其不意	-11.2054
莎羅奔	-11.2054
鈐	-11.2055
敦煌	-11.2057
變亂	-11.2057
二等侍衛	-11.2057
蹤	-11.2058
鎧	-11.2058
訐	-11.2058
塩水港	-11.2059
敞	-11.2059
黄仕簡任承恩	-11.206
竦	-11.206
吟	-11.206
狄道	-11.2061
羅索	-11.2062
白水	-11.2063
古北口	-11.2063
雋	-11.2064
復振	-11.2065
安挿	-11.2066
蘇秦	-11.2067
鹽茶	-11.2067
鏤	-11.2067
嗣源	-11.2067
俱照	-11.2069
上卿	-11.207
撫慰	-11.2072
聲色	-11.2072
何以書	-11.2073
此必	-11.2077
太白	-11.2078
羽翼	-11.2079
城東	-11.2079
譬之	-11.2081
委以	-11.2082
䝉皇上	-11.2083
英雄	-11.2086
太和	-11.2087
衛尉	-11.2087
言事	-11.209
侵掠	-11.2091
五岱等	-11.2092
此數	-11.2093
等上諭軍機大臣曰	-11.2094
衆多	-11.2101
韓信	-11.2105
建安	-11.2107
為前鋒	-11.2108
二萬人	-11.2109
一舉而	-11.2112
從寛免	-11.2114
遂使	-11.2115
于外	-11.2119
獨斷	-11.212
神靈	-11.2123
施放	-11.2126
為内應	-11.2126
亦須	-11.2127
䝉恩	-11.2131
連年	-11.2131
靈州	-11.2132
四散	-11.2135
相同	-11.2135
收兵	-11.214
之事也	-11.2146
葬之	-11.2146
諸城	-11.2148
上又諭内閣曰	-11.2148
汪伯彦	-11.215
師敗績	-11.2151
博羅塔拉	-11.2152
閫	-11.2153
巒	-11.2153
未成	-11.2154
暠	-11.2155
餞	-11.2155
逗遛	-11.2155
唐喀禄	-11.2156
掣	-11.2158
衝突	-11.2158
李繼	-11.2158
榻	-11.2159
愎	-11.216
逄	-11.2161
陰陽	-11.2161
夸	-11.2162
弓箭	-11.2163
羊舌	-11.2163
棣	-11.2163
論之	-11.2165
被傷	-11.2165
老矣	-11.2165
黷	-11.2165
熲	-11.2165
􁁊	-11.2166
所管	-11.2167
克什	-11.2167
王曰善	-11.2167
駐扎	-11.2168
倨	-11.2172
議之	-11.2172
萬緡	-11.2176
憂之	-11.2177
忌之	-11.2177
典禮	-11.2177
半月	-11.2178
承平	-11.2179
簡公	-11.2179
三百里	-11.218
諸賊	-11.218
何日	-11.2182
爾部	-11.2185
帝從之	-11.2186
稽察	-11.2187
□□	-11.2188
度量	-11.2189
務使	-11.2193
一分	-11.2193
天錫	-11.2194
民生	-11.2195
親自	-11.2195
進屯	-11.2196
器甲	-11.2196
為重	-11.2196
嚴明	-11.2198
世蕃	-11.2198
三世	-11.2199
懷恩	-11.2202
諸司	-11.2203
五十萬	-11.2204
共議	-11.2205
挐獲	-11.2208
萬六千	-11.2209
使君	-11.221
自保	-11.221
閉城	-11.2212
三百餘人	-11.2215
坐而	-11.2215
每人	-11.2219
兩翼	-11.2221
勝非	-11.223
而易	-11.223
為有益	-11.2231
伯彦	-11.2233
資糧	-11.2234
務令	-11.2235
指授	-11.224
少而	-11.224
行糧	-11.2241
以義	-11.2242
大振	-11.2244
將軍大臣	-11.2246
禮儀	-11.2246
僧道	-11.225
㸑	-11.2251
瑋	-11.2252
仍以	-11.2252
届	-11.2254
陳州	-11.2254
安揷	-11.2254
駐軍	-11.2254
魏州	-11.2255
二十八年	-11.2256
總督哈占	-11.2257
乘機	-11.2258
附之	-11.2258
以私	-11.2258
傕	-11.2258
砍	-11.2259
渴	-11.226
隨即	-11.226
贇	-11.226
南郊	-11.2261
𣙜	-11.2261
喂養	-11.2261
倍加	-11.2262
給還	-11.2262
辛夘	-11.2262
今復	-11.2264
款	-11.2264
廣平	-11.2265
撫䘏	-11.2265
慨然	-11.2266
察罕廋爾	-11.2267
掃除	-11.2267
曏	-11.2269
幽王	-11.2269
而歸之	-11.227
應添兵	-11.227
自焚	-11.2271
浙省	-11.2272
額楚	-11.2273
朋友	-11.2275
瓦解	-11.2275
烏拉	-11.2279
者不過	-11.2281
各賞	-11.2281
禦敵	-11.2281
者悉	-11.2281
慰勞	-11.2282
金酋	-11.2282
頂帶	-11.2284
尚之信	-11.2287
移咨	-11.2288
不支	-11.2292
鎮南	-11.2292
之主也	-11.2294
萬八千	-11.2294
軍機大臣等	-11.2295
汝州	-11.2298
争先	-11.23
套	-11.23
軍國	-11.23
晉文公	-11.2301
騎射	-11.2301
引還	-11.2302
千騎	-11.2302
災異	-11.2304
大矣	-11.2305
日内	-11.2307
震恐	-11.2308
有詔	-11.2308
現據	-11.2309
將軍印	-11.2309
侍衛等	-11.2311
檄調	-11.2313
非特	-11.2313
吳子	-11.2313
洪州	-11.2314
知之矣	-11.2315
擯者	-11.2316
即照	-11.2316
鉛	-11.2316
博爾	-11.2317
紓	-11.2318
交界	-11.2319
軍吏	-11.232
體察	-11.2321
謝恩	-11.2322
江夏	-11.2327
調集	-11.2328
部下	-11.2329
伊父	-11.2329
温州	-11.2333
歸朝	-11.2333
伯父	-11.2334
無得	-11.2334
責以	-11.2335
著照	-11.2336
下人	-11.2336
滁州	-11.2337
仍前	-11.2339
遇害	-11.2339
死子	-11.234
焚掠	-11.2341
頗有	-11.2341
兩省	-11.2341
不雨	-11.2341
不説	-11.2342
趙武	-11.2343
備辦	-11.2343
追逐	-11.2343
分守	-11.2348
以充	-11.2351
滑州	-11.2353
經制	-11.2354
宜陽	-11.2355
車木楚克扎布	-11.2355
抒	-11.2357
三十一年	-11.2357
臬司	-11.2358
邊陲	-11.2358
凑	-11.236
工部尚書	-11.236
四十三	-11.2361
不預	-11.2362
賊夥	-11.2363
潞州	-11.2363
扎那噶爾布	-11.2363
岷	-11.2363
耽	-11.2365
鎻	-11.2365
王弘	-11.2371
屯駐	-11.2372
閽	-11.2372
朕㫖	-11.2372
守候	-11.2372
餼	-11.2373
屢敗	-11.2373
報知	-11.2373
陞補	-11.2375
羣下	-11.2376
可𫝊諭	-11.2378
缺額	-11.2378
延齡	-11.2379
百僚	-11.2379
頤	-11.2379
上曰朕	-11.2379
書云	-11.2381
詔諭	-11.2381
前在	-11.2382
候朕	-11.2382
地名	-11.2383
曹伯	-11.2384
僧格	-11.2385
勦滅	-11.2386
又五日	-11.239
韓宣子	-11.2392
不特	-11.2393
必不敢	-11.2393
不中	-11.2394
鎮海	-11.2394
太后曰	-11.2396
實難	-11.2397
攻擾	-11.2397
妥為	-11.2397
之宜	-11.2398
如雨	-11.2403
者十	-11.2404
伊勒	-11.2408
者也故	-11.2411
曰先生	-11.2414
地形	-11.2419
難行	-11.242
達爾黨阿等	-11.2424
日暮	-11.2425
所執	-11.2426
偽齊	-11.2426
張掖	-11.2427
或係	-11.2428
不可失	-11.2432
連兵	-11.2432
日以	-11.2433
掌其	-11.2434
既敗	-11.2436
善人	-11.2437
明珠	-11.2439
極言	-11.2439
以助	-11.2441
仍行	-11.2443
千乘	-11.2447
事理	-11.2448
好學	-11.2449
洪武	-11.2449
未决	-11.245
换	-11.2451
伍彌泰	-11.2451
一項	-11.2451
自衛	-11.2454
有加	-11.2454
日益	-11.2455
州都督	-11.2455
郢州	-11.2457
逰撃	-11.2459
龜兹	-11.2459
山上	-11.246
二千餘	-11.2461
事見	-11.2462
酈	-11.2463
到營	-11.2463
鄜延	-11.2464
額爾登額	-11.2464
驤	-11.2464
往来	-11.2464
澶淵	-11.2464
覬	-11.2465
茹	-11.2466
帥師伐	-11.2466
欲求	-11.2467
趙良嗣	-11.2468
企	-11.2468
兼中書令	-11.2468
稽顙	-11.2468
鎮江府	-11.247
入告	-11.247
項王	-11.247
䜟	-11.2471
邦之	-11.2471
牖	-11.2472
萬物之	-11.2472
牘	-11.2473
噬	-11.2473
笙	-11.2474
秦楚	-11.2474
治民	-11.2474
朝堂	-11.2475
自贖	-11.2475
錦衣	-11.2476
妥協辦理	-11.2476
刑部尚書	-11.2476
藴	-11.2477
竊發	-11.2477
無足	-11.2478
不振	-11.2478
康親王	-11.2479
佔據	-11.2479
之福也	-11.248
投之	-11.2481
為左右	-11.2483
科道	-11.2485
裴度	-11.2485
左都御史	-11.2488
帝王之	-11.249
已過	-11.249
雄州	-11.2491
赴闕	-11.2493
琅邪	-11.2494
宣子曰	-11.2496
鄂爾	-11.2496
有警	-11.2497
力不能	-11.2497
乗虚	-11.2499
藉口	-11.2499
協濟	-11.2502
糧盡	-11.2507
嗣位	-11.2509
前代	-11.2515
會于	-11.2517
河南府	-11.2518
登舟	-11.2518
遑	-11.2519
美人	-11.2519
派官兵	-11.2521
舉人	-11.2521
挑戰	-11.2523
責授	-11.2523
甚善	-11.2524
疑其	-11.2525
將校	-11.2527
上䟽曰	-11.253
孟氏	-11.2531
自京	-11.2535
忠良	-11.2542
遄	-11.2543
頵	-11.2543
向化	-11.2544
所擒	-11.2545
無慮	-11.2546
聖徳	-11.2546
單子	-11.2546
王爵	-11.2547
驅之	-11.2549
俱可	-11.2551
舒明	-11.2553
不違	-11.2555
圖海	-11.2556
餘俱	-11.2557
等情	-11.2558
令尹子	-11.2558
所載	-11.2559
甚重	-11.2559
公羊作	-11.2561
奏入上諭内閣曰	-11.2561
於庭	-11.2561
錢文	-11.2562
淨	-11.2562
刷	-11.2562
襄城	-11.2563
朱勝非	-11.2564
碧	-11.2564
藤	-11.2564
盂	-11.2564
輛	-11.2565
玉素富	-11.2566
綜	-11.2566
撥什庫	-11.2567
羗	-11.2568
止之曰	-11.2568
皎	-11.2569
叵測	-11.2569
淤	-11.2569
危亡	-11.2569
丁夘	-11.2569
馬家堡	-11.2569
剰	-11.2569
緫管	-11.2572
瞿	-11.2572
烏爾登	-11.2572
聖諭	-11.2572
無恙	-11.2574
直隸	-11.2574
帝王世紀	-11.2574
勾踐	-11.2575
勾結	-11.2575
髙郵	-11.2576
新附	-11.2576
褐	-11.2576
莘	-11.2576
眇	-11.2577
燕雲	-11.2578
闔閭	-11.2581
秋冬	-11.2582
束手	-11.2582
寛裕	-11.2582
牽制	-11.2582
匪犯	-11.2583
帝怒	-11.2583
緇	-11.2586
昊天	-11.259
無從	-11.259
曲直	-11.2591
起身	-11.2594
十匹	-11.2594
收貯	-11.2595
來獻	-11.2596
悖逆	-11.2597
陽太守	-11.2599
大師	-11.2599
隊伍	-11.2599
乞師	-11.2606
畏之	-11.2608
㑹𠞰	-11.2609
實情	-11.261
庶可	-11.261
初旬	-11.2612
回匪	-11.2613
逃散	-11.2614
覺之	-11.2614
一百名	-11.2615
新序	-11.2619
兵柄	-11.2621
數次	-11.2622
遷于	-11.2623
水路	-11.2625
劉瑾	-11.2628
調赴	-11.2636
疏入	-11.2637
荘公	-11.2638
放火	-11.2642
守者	-11.2642
上謂	-11.2645
隊内	-11.2645
王世充	-11.265
官兵及	-11.2651
突出	-11.2655
本地	-11.2656
宫門	-11.2656
留意	-11.2657
北征	-11.2658
悉衆	-11.2661
孟知祥	-11.2662
後再	-11.2663
招徠	-11.2663
忭	-11.2666
隸	-11.2668
珙	-11.2668
亦甚	-11.2668
宵旰	-11.2669
洪承疇	-11.2671
晴	-11.2671
坂	-11.2671
稀	-11.2672
彚	-11.2672
愉	-11.2672
惟在	-11.2674
帕	-11.2675
攬	-11.2676
枋	-11.2676
俠	-11.2676
滄州	-11.2677
慷慨	-11.2677
不能守	-11.2677
再四	-11.2678
巽	-11.2679
安可	-11.2682
圻	-11.2682
昉	-11.2682
通渭	-11.2683
遷都	-11.2683
緑旗兵丁	-11.2684
鵲	-11.2684
西岸	-11.2685
珽	-11.2685
節鉞	-11.2685
糞	-11.2687
祔	-11.2687
聖心	-11.2687
李茂貞	-11.269
遄行	-11.2692
上馬	-11.2693
轉戰	-11.2696
變化	-11.2698
益兵	-11.2702
各以其	-11.2703
工部	-11.2704
移書	-11.2705
杜充	-11.2706
惡也	-11.2706
不可得也	-11.2707
便可	-11.2712
慮其	-11.2713
子展	-11.2714
而況	-11.2715
子崧	-11.2716
此内	-11.2717
嘗為	-11.2718
師出	-11.2718
來見	-11.2718
五品	-11.2719
優加	-11.2724
無幾	-11.2726
先取	-11.2728
吾民	-11.2728
去就	-11.273
口食	-11.2731
宿州	-11.2732
閩主	-11.2733
乘勢	-11.2735
諸道兵	-11.2738
多為	-11.2738
農夫	-11.2741
定州	-11.2744
益州刺史	-11.2745
必不可	-11.2751
萬厯	-11.2752
曾經	-11.2756
益加	-11.2758
逖	-11.2758
雍州	-11.2759
所闗	-11.2761
觧送	-11.2762
明知	-11.2764
麓	-11.2769
響	-11.2771
越嶲	-11.2772
仍將	-11.2772
仲孫	-11.2773
城破	-11.2773
準噶爾部人	-11.2775
為念	-11.2776
箐	-11.2777
勃勃	-11.2777
五榖	-11.2778
多難	-11.2779
瑀	-11.278
陽侯	-11.278
他處	-11.278
賽音	-11.2781
墳墓	-11.2782
縉	-11.2782
兵糧	-11.2783
恩澤	-11.2783
以靖	-11.2784
誇	-11.2784
嚮導	-11.2784
旃	-11.2785
佃	-11.2785
生事端	-11.2785
宓	-11.2787
𠞰除	-11.2788
僇	-11.2789
鴈門	-11.2789
子貢曰	-11.279
季武子	-11.279
戰不利	-11.279
椎	-11.279
曵	-11.2791
袁紹	-11.2791
鶉	-11.2793
粤省	-11.2796
暴虐	-11.2797
攻具	-11.2802
兼侍中	-11.2802
無度	-11.2803
大悦	-11.2803
仲父	-11.2806
遇敵	-11.2807
求援	-11.2807
康叔	-11.2812
許其	-11.2817
戸口	-11.2824
得人	-11.2829
敢忘	-11.2832
使者曰	-11.2832
永樂	-11.2833
充國	-11.2834
重臣	-11.2838
後隊	-11.2838
門下侍郎	-11.2843
擯	-11.2845
今春	-11.2846
天水	-11.2847
嚴禁	-11.2849
汝愚	-11.2849
時中	-11.285
義康	-11.2851
池州	-11.2855
以功	-11.2855
君臣之	-11.2856
通信	-11.2857
惟當	-11.2858
巴勒	-11.2858
司寇	-11.2859
相符	-11.286
庫爾	-11.2862
易州	-11.2862
地土	-11.2863
遺失	-11.2867
歸路	-11.2869
師旅	-11.287
境上	-11.287
建成	-11.287
奠于	-11.2871
酒泉	-11.2871
從優	-11.2871
曄	-11.2873
敦多克	-11.2877
臨事	-11.2877
查察	-11.2878
公論	-11.2879
孫權	-11.288
刮耳崖	-11.288
燼	-11.2882
闌	-11.2885
虹	-11.2885
堯舜之	-11.2885
汝曹	-11.2885
瑄	-11.2885
㤙	-11.2885
難當	-11.2885
雎	-11.2886
琯	-11.2886
毬	-11.2886
遂致	-11.2888
如此辦理	-11.2889
讙	-11.2889
朱泚	-11.2889
奏膚功	-11.289
緜	-11.2891
絡繹	-11.2892
錢鏐	-11.2892
魋	-11.2893
悉平	-11.2894
逹賴喇嘛	-11.2894
道員	-11.2894
翳	-11.2895
侔	-11.2895
大衆	-11.2895
内官	-11.2898
猗	-11.2898
謡	-11.2899
兵三千名	-11.2899
木巴	-11.2901
之行也	-11.2901
楊行宻	-11.2901
籥	-11.2901
亡人	-11.2902
武安	-11.2903
國勢	-11.2904
忘其	-11.2904
事竣後	-11.2905
印綬	-11.2906
鐘鼓	-11.2906
訓飭	-11.2908
逃避	-11.291
幕府	-11.2914
委曲	-11.2915
尤甚	-11.2915
喜怒	-11.2917
大體	-11.2917
何以為	-11.2918
軍功	-11.2919
趙孟曰	-11.2921
入夥	-11.2923
歸命	-11.2927
不可用	-11.2928
復叛	-11.2929
殘破	-11.2933
不豫	-11.2933
代州	-11.2935
若非	-11.2936
解體	-11.2936
臧孫	-11.2939
懇求	-11.294
其性	-11.294
酌給	-11.2944
謁者	-11.2945
泰州	-11.2946
之實	-11.295
初無	-11.295
前抵	-11.2952
妄言	-11.2952
文王之	-11.2953
帳中	-11.2953
足資	-11.2955
諾爾	-11.2957
三十三	-11.2957
二千石	-11.2958
諸門	-11.2959
士奇	-11.2963
孟孫	-11.2965
特賜	-11.2965
朕前	-11.2965
如是則	-11.2966
舉動	-11.2968
時事	-11.2971
迤	-11.2971
非敢	-11.2974
敢言	-11.2976
酌辦	-11.298
我心	-11.2982
良久	-11.2984
湟	-11.2985
俱被	-11.2986
謐	-11.2987
重地	-11.2988
該督等	-11.2988
藔	-11.2989
吁	-11.2991
君君	-11.2991
商販	-11.2994
敢問	-11.2994
華善	-11.2995
颺	-11.2995
流言	-11.2996
黠	-11.2996
東省	-11.2997
優䘏	-11.2997
隳	-11.2998
規模	-11.2998
安坐	-11.2999
鷙	-11.2999
逺人	-11.3
惶懼	-11.3001
異牟尋	-11.3001
爪牙	-11.3002
一嵗	-11.3003
尚書左僕射	-11.3003
招諭	-11.3004
將軍穆占	-11.3005
穰侯	-11.3005
郭子儀	-11.3005
稱疾不	-11.3007
入寇	-11.3007
道逺	-11.3008
響應	-11.3009
孰能	-11.301
何用	-11.301
地利	-11.3011
菹	-11.3011
逺遁	-11.3012
石勒	-11.3016
悔禍	-11.302
新兵	-11.3021
節省	-11.3024
烏舍	-11.3024
期於	-11.3027
騎都尉	-11.3028
推官	-11.3031
縁坐	-11.3032
澤州	-11.3034
予以	-11.3035
不恱	-11.3035
繆公	-11.3037
確查	-11.3038
人望	-11.3039
南征	-11.3039
偷生	-11.3041
不可使	-11.3042
不才	-11.3042
相顧	-11.3042
之儀	-11.3046
兼管	-11.3048
北去	-11.3051
兵役	-11.3051
乾歸	-11.3056
亦不得	-11.3056
文華	-11.3056
衆議	-11.3062
從重	-11.3065
不移	-11.3068
民居	-11.3069
不離	-11.307
自盡	-11.307
君子以	-11.3071
此三者	-11.3071
馬營	-11.3072
夷人	-11.3076
員缺著	-11.3079
不憚	-11.3081
始末	-11.3081
孤軍	-11.3084
亦俱	-11.3084
晃	-11.3085
鄭鄭	-11.3089
却之	-11.309
既不能	-11.3093
仍照	-11.3094
七旗	-11.3097
不負	-11.3097
入京	-11.3099
在朝	-11.31
保定	-11.31
搢	-11.31
和托輝特	-11.3101
㽞	-11.3101
乙夘	-11.3103
莫知	-11.3103
㝠	-11.3103
低	-11.3103
仍遵前㫖	-11.3103
罪大惡極	-11.3104
涓	-11.3105
陜州	-11.3106
武安君	-11.3106
淄	-11.3106
阨	-11.3107
五十人	-11.3107
褚	-11.3108
披靡	-11.3108
彩	-11.3108
遣歸	-11.3109
列侯	-11.3109
李世傑	-11.3109
黒闥	-11.311
願大王	-11.311
阬	-11.311
南侵	-11.3111
然猶	-11.3111
通行曉諭	-11.3111
毓	-11.3111
灝	-11.3111
圖倫楚	-11.3112
慤	-11.3112
兵四千	-11.3113
㨗音	-11.3113
甚至	-11.3113
鏖戰	-11.3115
莖	-11.3116
磁	-11.3117
行軍司馬	-11.312
調補	-11.3121
義勇	-11.3123
供詞	-11.3124
則可以	-11.3124
學校	-11.3124
但當	-11.3125
前赴軍營	-11.3126
拒敵	-11.3128
尚須	-11.3129
先經	-11.313
常州	-11.3131
年久	-11.3132
累世	-11.3132
呈稱	-11.3135
免死	-11.314
萬三千	-11.314
憂懼	-11.3142
索倫察哈爾	-11.3142
惟以	-11.3143
憚之	-11.3147
宗廟之	-11.315
矯詔	-11.315
盛徳	-11.3151
剿殺	-11.3155
嚴訊	-11.3155
領兵前往	-11.3155
舊臣	-11.3155
難得	-11.3155
特諭	-11.316
失道	-11.3162
宣帝	-11.3163
三十餘人	-11.3164
而去之	-11.3166
天之所	-11.3168
分賞	-11.3171
於十月	-11.3172
四壁	-11.3172
欣然	-11.3173
復取	-11.3175
逃匿	-11.3179
謀殺	-11.3181
十五萬	-11.3188
昊	-11.3189
詐稱	-11.3191
神器	-11.3192
道里	-11.3196
四十五	-11.3197
可通	-11.3199
不辭	-11.32
扎薩克等	-11.3206
進止	-11.3207
大帥	-11.3208
二城	-11.3208
呢雅斯	-11.321
解散	-11.3212
二太子	-11.3213
喚	-11.3214
悚	-11.3216
勁旅	-11.3216
殱戮	-11.3218
失機	-11.3218
布庫察罕	-11.3218
舛	-11.3219
以副朕	-11.3219
整兵	-11.322
殪	-11.322
荷包	-11.3221
付之	-11.3221
礪	-11.3221
异	-11.3221
奏入上	-11.3222
袂	-11.3222
歿	-11.3223
鍼	-11.3223
蚩尤	-11.3223
詛	-11.3224
孝忠	-11.3224
伍子胥	-11.3226
穰	-11.3226
感戴	-11.3227
何如對曰	-11.3228
諸侯之師	-11.3228
眚	-11.3229
軍裝	-11.3231
勿令	-11.3231
往迎	-11.3237
阿竒木伯克	-11.3239
守貞	-11.3241
直學士	-11.3243
倡亂	-11.3244
為之奈何	-11.3246
相通	-11.3247
突圍	-11.3247
永平	-11.3248
吉祥	-11.3249
對曰臣聞	-11.325
不知所為	-11.3251
安輯	-11.3253
五分	-11.3254
甘茂	-11.3255
親親	-11.3255
欲往	-11.3257
二百里	-11.3259
徽宗	-11.326
宜令	-11.3262
延儒	-11.3263
天下之士	-11.3265
中宫	-11.3266
相接	-11.3268
章程	-11.3268
經降㫖	-11.3268
不以為	-11.3269
六百名	-11.327
智勇	-11.327
地界	-11.3271
永逺	-11.3276
受敵	-11.3278
李晟	-11.328
化為	-11.3282
子期	-11.3283
鎗礮	-11.3284
兵士	-11.3285
兩朝	-11.3287
備兵	-11.3288
自屬	-11.3292
輕兵	-11.3293
左右曰	-11.3294
曰吾欲	-11.3297
登山	-11.3298
宗周	-11.3298
囧	-11.3299
糾合	-11.33
隨營	-11.33
茍有	-11.3301
爾噶	-11.3304
踰年	-11.3304
臨朝	-11.3309
不對	-11.3315
在軍前	-11.3318
長吏	-11.3318
人臣之	-11.3318
江漢	-11.3319
粤西	-11.332
離間	-11.3321
郤至	-11.3323
駑	-11.3323
破敵	-11.3324
達禮	-11.3324
詳查	-11.3325
土伯特	-11.3326
涵	-11.3327
烽	-11.3327
諾顔	-11.3327
痩	-11.3328
以下皆	-11.3328
堂下	-11.3328
黽勉	-11.3329
張文慶	-11.3329
陀	-11.333
布隆吉爾	-11.3331
窖	-11.3331
也孔子曰	-11.3331
形勝	-11.3334
澳	-11.3334
亳州	-11.3334
東征	-11.3335
北邊	-11.3335
牝	-11.3335
達瓦	-11.3336
斟酌	-11.3336
郟	-11.3336
猾	-11.3338
放洋	-11.3338
騷動	-11.334
為盟主	-11.334
三千名	-11.3341
髙煦	-11.3341
不悛	-11.3345
創業	-11.3346
滂	-11.3347
壽春	-11.3349
縣丞	-11.3352
棧道	-11.3354
文皇	-11.3354
不可以不	-11.3355
夜遁	-11.3356
勇力	-11.3356
莫大於	-11.3357
横行	-11.3362
朕必	-11.3362
尾追	-11.3365
皆潰	-11.3365
突入	-11.3366
惑衆	-11.3366
萬乘之	-11.3367
各事宜	-11.3371
河曲	-11.3373
八十餘	-11.3376
詔㫖	-11.3378
比干	-11.338
仲文	-11.3382
辦事大臣	-11.3383
傾心	-11.3384
文伯	-11.3385
三輔	-11.3388
等四人	-11.3391
仁恭	-11.3391
武威	-11.3397
要務	-11.3397
伊犂屯田	-11.3398
勢難	-11.3398
恐致	-11.3399
所指	-11.3402
外其餘	-11.3403
北走	-11.3405
彦章	-11.3408
大畧	-11.341
可取	-11.341
厚集	-11.3414
山寨	-11.3416
於正月	-11.3417
歩兵	-11.3419
送京師	-11.342
攻𠞰	-11.342
衂	-11.3421
星馳	-11.3423
無由	-11.3424
累年	-11.3426
擒斬	-11.3426
此奏	-11.3429
悛	-11.343
平地	-11.3434
擴	-11.3434
進貢	-11.3435
大喪	-11.3435
裒	-11.3436
汭	-11.3437
將卒	-11.3437
熬茶	-11.3438
缺出	-11.3439
張興	-11.3439
藁	-11.3439
殲	-11.3439
勒歪	-11.344
耿南仲	-11.3441
順流	-11.3441
伎	-11.3442
宣慰	-11.3443
璁	-11.3443
煖	-11.3443
暐	-11.3443
咽	-11.3444
礙	-11.3445
荀息	-11.3446
桿	-11.3446
彗星	-11.3448
𬗟	-11.3448
翹	-11.3448
聳	-11.3448
子思曰	-11.3448
胷	-11.3448
漿	-11.3449
恭惟	-11.3449
禕	-11.3449
郕	-11.3449
左傳紀事本末	-11.345
崇禎	-11.345
勣	-11.345
阿宻達	-11.3451
穹	-11.3452
暹	-11.3452
孤城	-11.3453
子駟	-11.3454
八萬	-11.3454
䟦	-11.3458
二百年	-11.3458
玉帛	-11.3459
沿河	-11.3459
仲淹	-11.346
巡幸	-11.3463
貨財	-11.3463
乎哉	-11.3466
共知	-11.3467
三格	-11.3474
之水	-11.3474
貞吉	-11.3477
致命	-11.3479
與語	-11.3481
帝意	-11.3483
伊弟	-11.3485
帥兵	-11.3487
常侍	-11.3488
監生	-11.349
六卿	-11.3493
潜善	-11.3495
來㑹	-11.3495
嵗幣	-11.3495
劉備	-11.3496
漸次	-11.3498
每旗	-11.3499
司官	-11.3499
親見	-11.35
寜夏	-11.35
上幸	-11.3502
又况	-11.3504
厄魯特噶爾丹	-11.3506
削籍	-11.3507
速進	-11.3508
魏兵	-11.3508
聖母	-11.351
伏闕	-11.3513
秦軍	-11.3514
受詔	-11.3516
二萬餘	-11.3516
既死	-11.3518
五寸	-11.3526
委用	-11.3528
守光	-11.353
黄州	-11.353
尚多	-11.353
不踰	-11.3533
固已	-11.3535
不獨	-11.3535
承宗	-11.3536
霸先	-11.3536
羣臣皆	-11.3537
諸葛亮	-11.3545
大統	-11.3548
已破	-11.3551
准行	-11.3553
値	-11.3553
録尚書事	-11.3555
頊	-11.3556
推河	-11.3556
湊	-11.3556
無乃不可乎	-11.3558
軼	-11.3558
𫉬	-11.3558
散給	-11.3558
臕	-11.3558
恇怯	-11.3559
䭾載	-11.3559
饑民	-11.356
絀	-11.3561
之利也	-11.3561
豫州	-11.3562
曇	-11.3563
渇	-11.3563
梁朝桂	-11.3563
孩	-11.3563
禁軍	-11.3564
罔不	-11.3566
文煥	-11.3567
錢粮	-11.3567
根株	-11.3568
先發	-11.3569
娘	-11.357
范瓊	-11.3571
大節	-11.3572
副都統職銜	-11.3573
七十里	-11.3573
燕山府	-11.3575
羣生	-11.3577
一百六十	-11.3578
其形	-11.3579
闗𦂳要	-11.3579
重華	-11.358
逋逃	-11.3581
薩里	-11.3581
德𥙿	-11.3584
綱紀	-11.3586
一鼓	-11.3586
獻俘	-11.3589
或云	-11.3589
恥之	-11.3589
頓兵	-11.3593
一時之	-11.3593
微子	-11.3594
攻魏	-11.3594
交部議敘	-11.3597
不惜	-11.36
北岸	-11.36
驛馬	-11.3601
将來	-11.3602
卷四十	-11.3604
平城	-11.3604
未決	-11.3604
張獻忠	-11.3604
進呈	-11.3607
華州	-11.3608
咨部	-11.3612
退師	-11.3613
納木	-11.3613
之音	-11.3613
唐虞	-11.3617
朕念	-11.3619
海澄	-11.3619
送部	-11.362
大罪	-11.3623
保住	-11.3625
之犯	-11.3625
百日	-11.3626
供奉	-11.3627
允行	-11.363
軍資	-11.3632
解往	-11.3633
中都	-11.3634
舉國	-11.3637
力竭	-11.3637
叔文	-11.3639
給銀	-11.3639
少傅	-11.364
公羊	-11.3642
周旋	-11.3642
一石	-11.3644
赤心	-11.3653
馳奏	-11.3654
奸臣	-11.3658
成擒	-11.3658
千秋	-11.3659
卽	-11.3664
鹽菜	-11.3664
移兵	-11.3664
抛	-11.3665
碾	-11.3665
卞塔海	-11.3666
拮据	-11.3666
聖祖仁皇帝	-11.3671
賽里木	-11.3671
列國	-11.3673
赶	-11.3673
郝壯猷	-11.3675
賠補	-11.3675
煜	-11.3675
同來	-11.3675
峪	-11.3676
刈	-11.3676
略陽	-11.3676
殁	-11.3677
籌酌	-11.3679
炬	-11.3679
婉	-11.3679
曺	-11.368
兎	-11.3681
繼進	-11.3681
謳	-11.3681
竄匿	-11.3682
勺	-11.3683
努力	-11.3685
起復	-11.3685
稟稱	-11.3686
態	-11.3686
御製	-11.3687
蓼	-11.3687
酌量賞給	-11.3687
炙	-11.3688
所知也	-11.3688
鄖陽	-11.3689
魏文侯	-11.3689
少保	-11.3691
鼓舞	-11.3691
之區	-11.3693
令狐	-11.3693
孟獻子	-11.3694
單弱	-11.3694
宣化	-11.3694
正朔	-11.3697
二十餘年	-11.37
黙特	-11.3701
各路官兵	-11.3702
士衆	-11.3703
當國	-11.3703
軍營効力	-11.3705
部兵	-11.3706
七里	-11.3706
嚴切	-11.3707
眡	-11.3707
帳下	-11.3708
退回	-11.3708
先朝	-11.3711
人畜	-11.3712
靡不	-11.3714
達爾扎	-11.3716
第五	-11.3716
前㫖	-11.3719
并令	-11.372
涿州	-11.3721
廷議	-11.3723
師鐸	-11.3725
兵五萬	-11.3727
兵餉	-11.3727
更相	-11.3727
山路	-11.3729
滿福	-11.373
五尺	-11.3731
千餘級	-11.3731
車陵	-11.3735
賊始	-11.3737
降賊	-11.3738
伐陳	-11.3746
後再行	-11.3749
疏請	-11.375
據李侍堯奏	-11.3751
為都督	-11.3753
深悉	-11.3756
王莽	-11.3759
應募	-11.3767
素服	-11.3768
謂左右曰	-11.3769
騷	-11.3771
戍卒	-11.3772
崇文	-11.3772
䝉古主	-11.3777
之捷	-11.3782
篡	-11.3784
驃騎	-11.3786
厄爾錐音	-11.3786
堂上	-11.3787
子之言	-11.3787
滾	-11.379
咄	-11.379
貝勒察尼	-11.379
淡	-11.3791
輕進	-11.3792
踏	-11.3794
舉行	-11.3794
杏	-11.3794
擺	-11.3795
李化龍	-11.3795
申明	-11.3795
梧州	-11.3795
徭	-11.3796
端濟布	-11.3797
策旺喇卜灘	-11.3798
上諭議政大臣等曰	-11.3798
整飭	-11.3799
王時雍	-11.38
曹文詔	-11.38
副都御史	-11.38
庖	-11.38
尹繼善	-11.38
瘞	-11.38
躋	-11.3801
疆界	-11.3802
班禪	-11.3803
光逺	-11.3804
夏國	-11.3804
脂	-11.3804
綠旗官兵	-11.3804
賢良	-11.3807
遊牧	-11.3808
忠貞	-11.3809
暴露	-11.3809
修理	-11.3809
信任	-11.3811
禁旅	-11.3812
給賞	-11.3813
撤還	-11.3814
臯陶	-11.3815
徐州刺史	-11.3816
牧羣	-11.3816
敬宗	-11.382
傷損	-11.3821
太學生	-11.3822
趙鞅	-11.3822
定逺	-11.3823
乘輿	-11.3825
田宅	-11.3827
市井	-11.3829
老成	-11.3831
退軍	-11.3831
石城	-11.3834
務獲	-11.3837
朝義	-11.3837
八百餘	-11.3838
王權	-11.3838
無赦	-11.3838
侍讀	-11.3838
曰茍	-11.3838
八千人	-11.3839
不勝其	-11.384
甚屬奮勉	-11.3841
察達克等	-11.3842
青草	-11.3842
上尊號	-11.3843
合肥	-11.3844
政府	-11.3846
三十七	-11.3848
法司	-11.3849
奄至	-11.3851
不貳	-11.3851
可保	-11.3854
均屬	-11.3861
不倦	-11.3862
張永	-11.3865
烏爾	-11.3866
莫知其	-11.3869
補用	-11.3871
之咎	-11.3872
功罪	-11.3876
天文	-11.3876
秣馬	-11.3879
燕兵	-11.388
商州	-11.3881
衆賔	-11.3887
許人	-11.3893
進圍	-11.3895
為之備	-11.3896
先進	-11.3896
信義	-11.3897
何也曰	-11.3898
嶷	-11.3898
綠旗兵丁	-11.3898
出沒	-11.3899
罵曰	-11.3904
西伯	-11.3905
諸鎮	-11.3906
叨	-11.3908
璊	-11.3908
忝	-11.3908
先往	-11.3909
慚	-11.3909
卸	-11.391
瑚爾起	-11.391
文武員弁	-11.391
無所用	-11.3911
幟	-11.3912
不設備	-11.3912
經由	-11.3912
己夘	-11.3912
捲	-11.3913
瑱	-11.3914
黙啜	-11.3914
儀同三司	-11.3916
烏舎	-11.3916
鄉人	-11.3916
麤	-11.3917
黄門侍郎	-11.3918
前事	-11.3919
修撰	-11.3919
江中	-11.3919
熾磐	-11.392
廊	-11.392
夔	-11.3922
象昇	-11.3923
武定	-11.3925
自備	-11.3925
耆老	-11.3925
六年春正月	-11.3925
聴候	-11.3927
酖	-11.3927
傅庭	-11.3928
擐甲	-11.3929
天下之人	-11.3931
緑旗官兵	-11.3934
擢用	-11.3934
排列	-11.3934
言於上曰	-11.3935
本意	-11.3938
河源	-11.3939
上𦂳	-11.394
昭烈	-11.394
四州	-11.3941
上諭軍機大臣曰昨	-11.3943
一座	-11.3945
阿拉	-11.3948
揚言	-11.395
髙下	-11.395
曰主上	-11.3951
夜郎	-11.3953
半年	-11.3953
三川	-11.3954
而棄之	-11.3956
之為言	-11.3956
武備	-11.3956
迎接	-11.3957
意見	-11.3959
可恃	-11.3959
薩木	-11.3961
動用	-11.3962
卒子	-11.3962
我朝	-11.3964
十有六	-11.3965
安静	-11.3965
勞費	-11.3965
月日	-11.3966
諸王大臣	-11.3967
如所請	-11.3969
仲堪	-11.397
報部	-11.3976
太弟	-11.3979
甚明	-11.3986
國威	-11.3987
左將軍	-11.3987
似道	-11.3987
周圍	-11.3989
旋師	-11.3989
步軍	-11.399
率同	-11.3992
被官兵	-11.3992
為盜	-11.3994
不返	-11.3998
水道	-11.4008
親近	-11.4009
情由	-11.4009
薛延陁	-11.4015
上殿	-11.4015
涿	-11.4017
此舉	-11.4021
歐	-11.4021
兵討之	-11.4021
正統	-11.4021
莽依圖	-11.4022
十五里	-11.4024
不決	-11.4024
簽	-11.4025
被脅	-11.4026
咽喉	-11.4027
吳達善	-11.4027
逕	-11.4028
崇韜	-11.4028
平定準噶爾方略	-11.4029
沙喇擘勒	-11.4029
苻	-11.4029
㝷	-11.403
癸夘	-11.403
郯	-11.403
笏	-11.4031
罄	-11.4032
僮	-11.4034
兖州刺史	-11.4034
皋	-11.4034
漣	-11.4035
僅以身免	-11.4035
祧	-11.4035
奠爵	-11.4037
十有二月	-11.4038
顓	-11.4039
楯	-11.4039
醮	-11.4039
輻	-11.4039
君長	-11.404
吳起	-11.404
孳生	-11.4041
猜忌	-11.4041
部員外郎	-11.4041
甚喜	-11.4041
督府	-11.4043
瀚海	-11.4044
何哉	-11.4045
奏云	-11.4045
甘泉	-11.4045
竅	-11.4047
仁和	-11.4047
藍田	-11.4047
播遷	-11.4048
無食	-11.4048
疵	-11.4048
從寛	-11.4053
歌曰	-11.4055
之願也	-11.4062
君子不	-11.4063
所報	-11.4064
戰不勝	-11.4065
粤兵	-11.4066
立國	-11.4066
意外	-11.4066
處處	-11.4067
官一員	-11.4068
南鄭	-11.4069
将帥	-11.4072
安集	-11.4074
樓船	-11.4076
探知	-11.4078
驍將	-11.4078
南軍	-11.4078
反側	-11.4081
被甲	-11.4081
安陸	-11.4081
正值	-11.4083
如許	-11.4086
伏見	-11.4088
行裝	-11.4091
諸務	-11.4092
不協	-11.4092
指日	-11.4092
帶來	-11.4095
馳至	-11.4103
悉行	-11.4103
帝即位	-11.4104
急務	-11.4104
無所歸	-11.4108
必克	-11.4108
分散	-11.4111
民夫	-11.4114
關係	-11.4115
屯于	-11.4115
布置	-11.4118
辨其	-11.4118
協副將	-11.4121
退去	-11.4123
水泉	-11.4124
殺獲	-11.4125
威靈	-11.4127
天降	-11.4128
徳成	-11.4129
三員	-11.413
㑹盟	-11.4134
州刺史李	-11.4135
撫逺大將軍	-11.4136
嚴查	-11.4144
為令尹	-11.4144
前諭	-11.4145
更生	-11.4145
鬪	-11.4146
燦	-11.4146
飼	-11.4147
筏	-11.4148
楊起麟	-11.4148
阿史那	-11.4148
噶勒雜特	-11.4149
巴圖濟爾噶爾	-11.415
不可輕	-11.415
吹納木喀	-11.415
漂	-11.4151
跟役	-11.4152
鑠	-11.4152
租賦	-11.4154
匱乏	-11.4154
卬	-11.4155
仙芝	-11.4155
迫脅	-11.4155
舟楫	-11.4155
灑	-11.4156
商南多爾濟	-11.4156
迓	-11.4156
軸	-11.4157
食物	-11.4157
糗	-11.4158
兩浙	-11.416
箴	-11.416
京兆尹	-11.4161
撞	-11.4161
鄢陵	-11.4161
庠	-11.4162
縞	-11.4162
擠	-11.4163
線	-11.4163
虎狼	-11.4163
朝見	-11.4164
操演	-11.4164
吳三桂	-11.4165
漕運	-11.4165
斷無	-11.4165
奏凱	-11.4165
肱	-11.4165
明晰	-11.4165
郈	-11.4167
家属	-11.4167
顧謂	-11.4168
善戰	-11.4168
雖係	-11.4168
州吁	-11.417
用心	-11.417
復舊	-11.417
拾遺	-11.4172
李斯	-11.4172
數百騎	-11.4174
少年	-11.418
今月	-11.418
禁兵	-11.418
明詔	-11.4182
副總兵	-11.4182
烏蘭	-11.4183
既平	-11.4184
汾州	-11.4185
孝宗	-11.4185
黄龍	-11.4185
四十七	-11.4187
宣布	-11.4188
愛子	-11.4193
劄營	-11.4197
回營	-11.4198
寧逺	-11.4199
與之俱	-11.4204
特勒	-11.4206
詐為	-11.4207
覺察	-11.421
馳往	-11.421
四品	-11.4215
為害	-11.4224
二百五十	-11.4226
虞卿	-11.4227
以拒之	-11.423
過多	-11.4231
斷絶	-11.4233
夜襲	-11.4234
取天下	-11.4238
開元	-11.4239
琅邪王	-11.424
功績	-11.4241
職名	-11.4242
㮚	-11.4243
營私	-11.4243
重榮	-11.4243
復召	-11.4245
等報稱	-11.4249
體仁	-11.4251
土木	-11.4251
曰孤	-11.4251
天恩	-11.4252
至伊犂	-11.4253
督同	-11.4259
千餘匹	-11.426
志在	-11.4261
透	-11.4267
袋	-11.4267
契勘	-11.4268
本身	-11.427
三十一	-11.427
完竣	-11.427
孑	-11.427
豁免	-11.4271
凛	-11.4271
阿敏道	-11.4271
南仲	-11.4272
螽	-11.4272
潯	-11.4273
郞	-11.4274
址	-11.4274
協理台吉	-11.4274
繼至	-11.4275
斾	-11.4275
揔管	-11.4276
太宰嚭	-11.4277
未㡬	-11.4278
埃	-11.4279
籩	-11.4279
憊	-11.428
虗	-11.4281
羈縻	-11.4281
平定三逆方畧卷	-11.4283
涯	-11.4283
聾	-11.4284
噪	-11.4284
諫議大夫	-11.4284
毎佐領	-11.4285
過半	-11.4285
饑饉	-11.4285
布延圖	-11.4285
扁鵲	-11.4286
舒亮	-11.4288
阿爾尼	-11.4288
無别	-11.4289
殱滅	-11.429
不逮	-11.4291
田州	-11.4292
下邳	-11.4292
特進	-11.4293
深思	-11.4293
吾輩	-11.4294
福寧	-11.4295
什希	-11.4296
進據	-11.4296
較為	-11.4297
固當	-11.4297
常青李侍堯	-11.4297
政和	-11.4302
傳首	-11.4304
北漢主	-11.4309
故聖人	-11.431
求救	-11.431
巴禄	-11.4311
越州	-11.4313
糧米	-11.4315
其巢穴	-11.4316
四十六	-11.4318
作樂	-11.4318
雍州刺史	-11.4321
二女	-11.4323
上不許	-11.4329
馬甲	-11.4329
職官	-11.4331
倍道	-11.4332
也王曰	-11.4334
尚書右丞	-11.4335
典史	-11.4335
無所得	-11.4336
大兵進𠞰	-11.4338
李彦	-11.4338
帶青	-11.4341
經畫	-11.4342
支領	-11.4343
死罪	-11.4353
遊於	-11.4355
樞宻使	-11.4358
宣言	-11.4358
賜爵	-11.436
廣漢	-11.436
國忠	-11.4363
希萼	-11.4365
專權	-11.4367
魏徴	-11.4368
忠誠	-11.4369
新柱	-11.4373
咨㑹	-11.4375
不能克	-11.4375
庶民	-11.4378
轉奏	-11.438
郡守	-11.4381
奮勉効力	-11.4383
均係	-11.4385
孰不	-11.4385
營總	-11.4386
京營	-11.4386
才能	-11.4386
遺詔	-11.4387
海外	-11.4387
拜送	-11.4388
亡國之	-11.4389
薩喇爾等	-11.4389
撒拉爾	-11.4389
錮	-11.439
天下之大	-11.4392
守忠	-11.4393
作色	-11.4394
釜	-11.4395
折卜尊丹巴	-11.4396
聨絡	-11.4396
塔勒納沁	-11.4397
鄂對	-11.4398
䟎	-11.4399
諭定邊將軍兆惠等	-11.4399
疆土	-11.44
失職	-11.4401
冩	-11.4401
簾	-11.4402
幵	-11.4402
箇	-11.4403
王輔臣	-11.4403
餘匪	-11.4404
駐防滿兵	-11.4404
諉	-11.4404
塟	-11.4406
唇	-11.4406
鎰	-11.4406
大駭	-11.4408
下落	-11.4409
亹	-11.441
本國	-11.4412
昵	-11.4412
閲看	-11.4413
州揔管	-11.4417
景王	-11.4417
寧謐	-11.4419
仲熊	-11.4422
烏桓	-11.4423
拏解	-11.4425
惡乎	-11.4426
分屯	-11.4427
無害	-11.4429
沃日	-11.443
動静	-11.4431
晉晉人	-11.4433
砲位	-11.4434
梁山	-11.4435
清水	-11.4435
分别辦理	-11.4439
中流	-11.444
加恩賞	-11.4443
鍾離	-11.4445
六名	-11.4449
悔罪	-11.445
過冬	-11.4457
次子	-11.4457
顯忠	-11.4459
天性	-11.446
金幣	-11.4465
皆殺之	-11.4467
開府	-11.4468
格爾	-11.4472
每月	-11.4472
恩克	-11.4473
之所為	-11.4473
宣力	-11.4473
建康府	-11.4476
唯唯	-11.4479
是月也	-11.4481
利州	-11.4486
亦不過	-11.4486
豈容	-11.4487
入關	-11.4489
二十餘萬	-11.4491
昭義	-11.4492
得罪於	-11.4492
救鄭	-11.4493
神䇿	-11.4494
七名	-11.4494
蘇爾	-11.4501
河決	-11.4505
東走	-11.4508
往投	-11.4509
逃來	-11.451
通省	-11.4511
永清	-11.4516
兵權	-11.4516
磧	-11.4517
帶領前往	-11.4519
然後可以	-11.4521
華林山	-11.4521
南海	-11.4522
博羅	-11.4523
正典刑	-11.4523
夏后氏	-11.4525
諄	-11.4525
餉銀	-11.4525
捶	-11.4526
哷	-11.4528
摰	-11.4528
收集	-11.4528
肸	-11.4529
軻	-11.4529
鎖	-11.453
衘	-11.4531
荼	-11.4532
不用命	-11.4534
斧鉞	-11.4534
人掌	-11.4535
犀首	-11.4536
昨日	-11.4537
義民等	-11.4537
諾爾布林沁	-11.4537
晡	-11.4538
燥	-11.4538
𤓰州	-11.4538
軍敗	-11.4539
僨事	-11.4539
艮	-11.4539
督催	-11.454
四起	-11.4542
姑臧	-11.4542
巴祿	-11.4542
屯田兵丁	-11.4543
宗正	-11.4544
静寧	-11.4544
海運	-11.4544
閤門	-11.4546
故謂之	-11.4549
轉輸	-11.4552
百一十	-11.4553
隨宜	-11.4558
彦超	-11.4559
益急	-11.4561
逃回	-11.4562
東港	-11.4562
詭計	-11.4565
問焉曰	-11.4568
懿公	-11.4571
查詢	-11.4574
者無不	-11.4575
傅清	-11.4577
性命	-11.4578
死戰	-11.4579
相結	-11.4579
伏念	-11.458
未完	-11.4581
二字	-11.4584
㑹寧	-11.4586
聖祖	-11.4588
深信	-11.4588
夷簡	-11.459
推恩	-11.4597
稱藩	-11.4597
山澤	-11.4599
原籍	-11.46
不失其	-11.4603
據報	-11.4608
伏候	-11.4609
乘此	-11.461
善射	-11.4612
百世	-11.4615
取勝	-11.462
北漢	-11.4622
十倍	-11.4625
西戎	-11.4627
受恩	-11.4628
舉火	-11.4632
逆天	-11.4633
公薨	-11.4637
下大夫	-11.4637
共工	-11.4642
藏地	-11.4647
王廷贊	-11.4648
東夷	-11.465
在側	-11.4651
騏	-11.4652
鄂容安	-11.4652
个	-11.4653
株	-11.4653
粮餉	-11.4653
以示奬勵	-11.4653
弈	-11.4654
窄	-11.4655
而不用	-11.4655
䕶軍綂領	-11.4656
無怨	-11.4656
廻	-11.4656
蹤跡	-11.4656
北海	-11.4657
斥堠	-11.4657
猥	-11.4658
戈壁	-11.4658
上邽	-11.4658
吐番	-11.4658
格壘沽英	-11.4659
殺其大夫	-11.4659
會合	-11.4659
購辦	-11.4659
丹巴哈什哈	-11.466
刳	-11.466
縠	-11.466
工部侍郎	-11.4661
燈	-11.4661
團練	-11.4661
啼	-11.4662
臨洮	-11.4662
巴圖爾烏巴什	-11.4663
洶洶	-11.4663
襟	-11.4663
五福	-11.4663
稽遲	-11.4664
峰	-11.4664
黜陟	-11.4664
爨	-11.4665
部分	-11.4666
炊	-11.4666
遯	-11.4666
垢	-11.4667
妻孥	-11.4667
董卓	-11.4667
暱	-11.4667
少昊	-11.4668
嶲州	-11.4673
邊疆	-11.4673
未必不	-11.4675
父子兄弟	-11.4675
爭先	-11.4676
帝崩	-11.4677
天光	-11.4678
惶恐	-11.468
解赴	-11.4681
萬死	-11.4684
郴州	-11.4685
不啻	-11.4685
一頭	-11.4692
兹據	-11.4693
尊卑	-11.4696
諳練	-11.4697
它日	-11.4698
聖訓	-11.4702
騰格	-11.4702
而返	-11.4703
逢吉	-11.4705
六畜	-11.4705
神策	-11.4706
三寸	-11.4708
義宣	-11.4709
嘉靖	-11.4712
林爽文等	-11.4716
相視	-11.4717
遣使詣	-11.4718
負固	-11.4718
該將軍	-11.4721
屬員	-11.4721
巴西	-11.4721
肅宗	-11.4725
既退	-11.4726
慰撫	-11.4736
差官	-11.4737
交惡	-11.4739
回城	-11.4739
曽子曰	-11.4741
遣其弟	-11.4743
樂安	-11.4744
將中軍	-11.4745
著福康安	-11.4745
魯侯	-11.4746
給予	-11.475
金人陷	-11.4752
送京	-11.4752
兆民	-11.4758
驚懼	-11.4759
相對	-11.4762
多羅	-11.4764
白帝	-11.4765
以此為	-11.4771
詵	-11.4773
或勸	-11.4774
共攻	-11.4775
冐賑	-11.4775
所害	-11.4775
稱賀	-11.4775
丹巴	-11.4776
胆	-11.4779
吞圖布	-11.4781
牋	-11.4782
贑	-11.4782
弧	-11.4782
蹂	-11.4782
煽誘	-11.4782
終不能	-11.4783
茫	-11.4783
詈	-11.4783
廕	-11.4785
璽綬	-11.4785
仁人	-11.4785
媒	-11.4786
贛	-11.4787
奐	-11.4787
將軍莽依圖	-11.4787
一隻	-11.4788
解送來京	-11.4788
徹底	-11.4789
内挑選	-11.4789
齊衰	-11.479
殿中侍御史	-11.479
但念	-11.4792
從榮	-11.4793
朂	-11.4793
餧	-11.4793
畏罪	-11.4794
葭	-11.4794
鉉	-11.4794
鞮	-11.4794
鴟張	-11.4795
壑	-11.4795
與之同	-11.4796
黯	-11.4797
嗇	-11.4797
孫傳	-11.4798
戰船	-11.4798
晋侯	-11.4803
招募	-11.4803
溺死	-11.4804
兵甲	-11.4804
撥運	-11.4808
煬帝	-11.4808
張居正	-11.4808
勃海	-11.4811
命之曰	-11.4815
億萬	-11.4816
則不然	-11.4816
師老	-11.4817
埋伏	-11.4819
六州	-11.4821
羣賊	-11.4821
歴年	-11.4826
拉藏	-11.4827
不休	-11.4832
一百四十	-11.4832
計算	-11.4833
之義也	-11.4834
九重	-11.4834
親赴	-11.4835
相救	-11.4836
我國家	-11.4836
游擊	-11.4836
思慮	-11.4838
安堵	-11.4838
徐逹	-11.484
叅奏	-11.4842
此語	-11.4846
强弱	-11.4847
聲明	-11.4849
増兵	-11.4852
郭勒	-11.4857
移營	-11.4858
百餘匹	-11.4858
安靜	-11.486
不可失也	-11.4863
何異	-11.4863
兵萬人	-11.4864
伐木	-11.4866
恐不能	-11.4869
封侯	-11.4869
衞人	-11.4872
富徳等	-11.4872
五十六	-11.4875
虢公	-11.4878
終身不	-11.4889
立是為	-11.4889
伊克	-11.489
惠伯	-11.4892
之國也	-11.4892
兩淮	-11.4893
明史紀事本末卷	-11.4894
王淵	-11.4895
遵諭	-11.4896
韶州	-11.4898
上駐蹕	-11.4898
應如何	-11.4899
巴克	-11.4904
吾屬	-11.4904
有禆益	-11.491
而後可	-11.4911
恰	-11.4911
皖	-11.4911
哈什	-11.4913
㡌	-11.4913
吕頥浩	-11.4913
群	-11.4914
出痘	-11.4914
虞公	-11.4915
裡	-11.4915
廓清	-11.4916
濟爾哈朗	-11.4916
斷不能	-11.4916
禺	-11.4917
蜚	-11.4918
牓	-11.4921
闥	-11.4922
瞭望	-11.4922
廬舍	-11.4922
六尺	-11.4923
耿精忠	-11.4924
溼	-11.4924
之功也	-11.4924
天下幸甚	-11.4925
魴	-11.4925
蝕	-11.4926
進封	-11.4927
製造	-11.4928
瑣	-11.4928
三十名	-11.4928
赤眉	-11.4929
一介	-11.4929
衾	-11.493
瘳	-11.493
嘉義	-11.4931
按律	-11.4933
情弊	-11.4933
到臺灣	-11.4934
傾覆	-11.4937
自潰	-11.4939
激變	-11.494
犒軍	-11.4941
安敢	-11.4942
道士	-11.4942
遵前㫖	-11.4946
老幼	-11.4946
商辦	-11.4948
羣盗	-11.4949
之辭也	-11.4949
宫祠	-11.495
勢甚	-11.4951
疏曰	-11.4952
范宣子	-11.4953
可畏	-11.4954
歸罪	-11.4956
商量	-11.4959
輔國公	-11.4959
退守	-11.4962
海疆	-11.4964
非獨	-11.4968
屬可嘉	-11.4973
以紓	-11.4974
宜早	-11.4983
勁兵	-11.4985
牙將	-11.4986
在案	-11.4987
母子	-11.4991
建寧	-11.4992
畏死	-11.4993
修徳	-11.4996
達什策凌	-11.4999
科舉	-11.4999
候補	-11.5001
縋	-11.5003
借給	-11.5003
北歸	-11.5004
西突厥	-11.5005
懌	-11.5005
憐之	-11.5008
永嘉	-11.5008
欒書	-11.5009
一千五百名	-11.5011
翰林院	-11.5014
各一員	-11.5017
棄疾	-11.5018
不厭	-11.5025
衆寡	-11.5026
庫勒	-11.5029
曰吾聞之	-11.5038
烏合	-11.5038
合力	-11.504
祏	-11.504
功業	-11.5042
李靖	-11.5044
延禧	-11.5045
嫻	-11.5047
塢	-11.5047
伯什阿噶什	-11.5048
犬馬	-11.5049
咱	-11.5049
策卜登	-11.505
朕心深為	-11.5051
逐北	-11.5051
濟隆庫圖克圖	-11.5051
選侍	-11.5052
凟	-11.5052
种	-11.5052
鬚	-11.5052
澎湖	-11.5052
勒爾錦	-11.5053
馮翊	-11.5053
証	-11.5054
南北兩路	-11.5054
糜費	-11.5054
刑部侍郎	-11.5054
王經隆	-11.5055
甲胄	-11.5055
槊	-11.5055
邀截	-11.5055
二府	-11.5055
西走	-11.5055
訣	-11.5056
井陘	-11.5056
著加恩賞給	-11.5057
煎	-11.5057
藺	-11.5058
嚴審	-11.5058
州觀察使	-11.5059
幫	-11.506
荐	-11.5061
起發	-11.5062
百八十	-11.5063
開墾	-11.5065
欺罔	-11.5066
四鎮	-11.5067
萇𢎞	-11.5067
譜	-11.5068
阿珠	-11.5068
安逺	-11.507
爪	-11.5071
入對	-11.5071
伐魏	-11.5072
奸細	-11.5074
金州	-11.5074
太祖皇帝	-11.5075
振武	-11.508
楚莊王	-11.508
掩襲	-11.508
本係	-11.5081
里木	-11.5082
未暇	-11.5084
主管	-11.5089
趙魏	-11.509
五年春	-11.5091
二十餘里	-11.5091
核其	-11.5092
蘇子	-11.5093
聽從	-11.5095
罵賊	-11.5096
躍馬	-11.5098
黄鐘	-11.5099
聖駕	-11.5101
欽差	-11.5101
非其人	-11.5103
新安	-11.5105
烏巴什	-11.5105
墜馬	-11.5106
曰昔者	-11.5107
不睦	-11.5112
最要	-11.5112
詔曰朕	-11.5112
印文	-11.5114
二省	-11.5115
但伊等	-11.5116
臺諌	-11.5117
来京	-11.5118
郡國	-11.5119
世隆	-11.512
姜氏	-11.5124
其家屬	-11.5125
魏魏	-11.5126
國體	-11.5128
三十九	-11.5128
四鄰	-11.513
罪戾	-11.5131
陽榖	-11.5131
著查明	-11.5132
百金	-11.5137
主君	-11.5138
二百四十	-11.514
也臣聞	-11.5142
偏師	-11.5142
遵朕	-11.5144
帥所部	-11.5144
夀陽	-11.5144
續到	-11.5144
繼遷	-11.5146
成湯	-11.5148
脚價	-11.5148
后妃	-11.515
懲治	-11.5157
臣妾	-11.5158
經朕	-11.5159
上疏曰	-11.5159
一丈	-11.516
咸知	-11.516
恭儉	-11.5161
將軍成衮扎布	-11.5162
論列	-11.5165
敵衆	-11.5165
乗此	-11.5166
定西將軍	-11.5168
為庶人	-11.5171
成臯	-11.5173
晏子對曰	-11.5176
定擬	-11.5176
來春	-11.5177
親隨	-11.5178
欽定平定臺灣紀畧	-11.5178
傅友徳	-11.5178
乎王曰	-11.5178
朱爾都斯	-11.518
居處	-11.5181
僞	-11.5183
頭等侍衛	-11.5184
蹟	-11.5185
被獲	-11.5185
叶	-11.5185
商民	-11.5186
洧	-11.5186
得脱	-11.5186
阿齊圖	-11.5186
酒酣	-11.5187
孛	-11.5187
彫	-11.5187
概行	-11.5188
馬一匹	-11.5188
章邯	-11.5188
雷霆	-11.5188
浙江提學僉事谷應泰編	-11.5188
協𠞰	-11.5189
一等台吉	-11.5189
稼穡	-11.5189
示衆	-11.5189
順承親王	-11.519
阿喇卜坦	-11.519
姚平仲	-11.519
跌	-11.5191
州團練使	-11.5191
翌日	-11.5191
鹿角	-11.5192
絶域	-11.5192
邴	-11.5196
賢士	-11.5196
杯	-11.5198
荆軻	-11.5199
錢塘	-11.52
惻然	-11.5201
洪範	-11.5202
攻剿	-11.5202
弘農	-11.5203
楊沂中	-11.5204
宣州	-11.5204
老耼	-11.5205
管束	-11.5205
北狩	-11.5206
麓川	-11.5206
郭威	-11.5207
無悞	-11.5208
九年春	-11.5212
晉州	-11.5214
交結	-11.5215
義陽	-11.5219
乞罷	-11.5221
聖賢	-11.5223
定奪	-11.5223
浮梁	-11.5226
蘇州	-11.5227
蒙古兵	-11.5228
其子孫	-11.5229
補給	-11.5232
圖報	-11.5236
告竣	-11.5237
外戚	-11.5237
被擄	-11.5238
西階	-11.5239
春正月	-11.5241
六宫	-11.5241
被掠	-11.5242
八十里	-11.5243
恐難	-11.5244
前任	-11.5248
截留	-11.5252
大呼曰	-11.5252
打死賊匪	-11.5252
賊情	-11.5253
不遑	-11.5255
興化	-11.5257
告之曰	-11.5257
寛貸	-11.5257
攻打	-11.5257
不敷用	-11.5258
大笑	-11.526
均應	-11.5261
趙文子	-11.5262
偷安	-11.5263
之象也	-11.5264
共計	-11.5266
聞大兵	-11.5269
丹陽	-11.527
舎人	-11.527
奏乞	-11.5273
西北兩路	-11.5274
傷亡	-11.5274
移軍	-11.528
宿將	-11.5281
聴其	-11.5289
嬰齊	-11.5291
衆庶	-11.5292
可抵	-11.5294
荆王	-11.5298
定邉	-11.53
趙衰	-11.5302
甚易	-11.5303
巴陵	-11.5306
大元帥府	-11.5307
伏查	-11.5308
所駐	-11.5311
麵	-11.5313
三十四	-11.5314
觀音保	-11.5316
詧	-11.5318
濱	-11.5318
燕地	-11.5319
潼	-11.5319
脯醢	-11.532
濛	-11.532
諸夏	-11.5322
盎	-11.5323
醜類	-11.5323
蛟	-11.5324
冨	-11.5324
佈	-11.5325
默	-11.5325
安集延	-11.5325
繼岌	-11.5325
名目	-11.5325
良爾吉	-11.5326
夸蘭大	-11.5326
將士皆	-11.5326
刄	-11.5328
郛	-11.5328
回游牧	-11.5329
阿巴噶斯哈丹	-11.5329
游牧處	-11.533
毀	-11.533
一千六百	-11.5332
常平	-11.5332
縷	-11.5333
塊	-11.5333
伐莒	-11.5333
偕行	-11.5334
擒捕	-11.5335
巡按	-11.5336
賊踪	-11.5336
唾	-11.5337
孕	-11.5338
世傑	-11.5339
犍為	-11.5339
兕	-11.5341
進兵時	-11.5343
開銷	-11.5343
原奏	-11.5345
勇敢	-11.5346
多倫	-11.5346
伯克霍集斯	-11.5348
有功者	-11.535
琿齊	-11.5351
畨社	-11.5352
可虞	-11.5355
出郊	-11.5355
鎮西	-11.5356
萬安	-11.5356
欽定四庫全書明史紀事本末卷	-11.5357
伊都	-11.5358
二千餘名	-11.5361
愛惜	-11.5362
勿致	-11.5365
國泰	-11.5367
城濮	-11.5367
兩廣	-11.5369
五百餘	-11.5369
襄仲	-11.537
急需	-11.5374
休兵	-11.5375
異議	-11.5376
夥黨	-11.5377
各給	-11.5382
軍臺	-11.5383
迄今	-11.5386
不靖	-11.5386
西路軍營	-11.5388
予一人	-11.539
曾孫	-11.5391
百戸	-11.5397
勢益	-11.5398
俸餉	-11.5399
不答	-11.54
劉裕	-11.541
舟中	-11.5411
獨孤	-11.5411
步行	-11.5411
復遣使	-11.5412
長幼	-11.5415
掩其	-11.5416
仁厚	-11.5416
病死	-11.542
前世	-11.5421
扼其	-11.5428
知誥	-11.5433
蕪	-11.5446
友徳	-11.5447
潦	-11.5448
四十人	-11.5448
諸物	-11.5451
啓行	-11.5453
槖	-11.5454
獠	-11.5455
既破	-11.5455
偽將軍	-11.5456
拖陵	-11.5456
攔	-11.5457
呉達善	-11.5457
藩籬	-11.5459
馬文熹	-11.546
哈雅	-11.546
寰	-11.546
根括	-11.5461
朱爾黙特那木扎爾	-11.5461
沽	-11.5461
犫	-11.5462
麴	-11.5462
孫叔敖	-11.5462
堞	-11.5462
糧務	-11.5462
納噶查	-11.5463
溉	-11.5464
蒿	-11.5464
盼	-11.5465
齧	-11.5465
畏葸	-11.5465
塌	-11.5466
崑崙	-11.5467
攻勦	-11.5467
髠	-11.5468
今兹	-11.5468
怡	-11.5468
鬲	-11.5468
錯謬	-11.5468
猜疑	-11.5469
峴	-11.547
盪	-11.547
眩	-11.5471
旦暮	-11.5471
珏	-11.5471
常遇春	-11.5471
紘	-11.5472
媯	-11.5473
廞	-11.5474
吳玠	-11.5474
粱	-11.5474
折衝	-11.5476
脣	-11.5478
嚭	-11.5478
嬰兒	-11.5479
伐衛	-11.548
蘄州	-11.548
差往	-11.5481
涇陽	-11.5481
造冊	-11.5481
東郭	-11.5483
面諭	-11.5485
勉强	-11.5485
編修	-11.5487
張士誠	-11.5494
八名	-11.5495
扣還	-11.5497
李德𥙿	-11.5497
壯盛	-11.5498
于市	-11.5499
屯種	-11.5501
瞻對	-11.5502
震驚	-11.5503
上䇿	-11.5504
一矢	-11.5505
財賦	-11.5505
簡子曰	-11.5507
楚滅	-11.5508
百倍	-11.5508
潰兵	-11.551
近習	-11.5511
澤潞	-11.5511
靖逆	-11.5513
帥其衆	-11.5513
小白	-11.5516
有奇	-11.5518
中山王	-11.552
無宇	-11.552
邊防	-11.5522
積聚	-11.5524
恵王	-11.5526
都元帥	-11.5528
投拜	-11.5531
議具奏	-11.5532
嚴密	-11.5532
真宗	-11.5533
厚賞	-11.5534
聽政	-11.5535
悔過	-11.5542
賊陷	-11.5542
馬思喀	-11.5543
仍舊	-11.5545
擊破	-11.5548
顯然	-11.5549
青城	-11.5549
賢才	-11.555
廷和	-11.5557
二年夏四月	-11.5559
諸侯諸侯	-11.5559
英宗	-11.5565
囘人等	-11.5567
七十二	-11.5568
盟長	-11.557
柰	-11.5571
萬方	-11.558
經費	-11.5581
弗知	-11.5581
爵賞	-11.5584
忠直	-11.559
明旦	-11.559
亂世	-11.5591
督責	-11.5592
鴟	-11.5596
奏入得㫖軍機大臣議奏尋議	-11.5597
敗遁	-11.5597
大學士伊桑阿	-11.5597
健鋭營	-11.5597
古爾班	-11.5598
解甲	-11.5598
不佞	-11.5599
屆	-11.5599
陘	-11.56
路逺	-11.56
楊廷理	-11.5601
大將軍簡親王喇布	-11.5601
迅奏膚功	-11.5602
羆	-11.5603
通鑑紀事本末卷第	-11.5603
扎卜堪	-11.5604
欒盈	-11.5604
禮物	-11.5604
磚	-11.5605
鹿鹿山	-11.5606
噶爾藏多爾濟等	-11.5607
緦	-11.5607
瞑	-11.5607
谷應泰曰	-11.5608
巔	-11.5608
豈復	-11.5608
腊	-11.5608
柱國	-11.5609
姦人	-11.561
摩羅	-11.561
知樞宻院事	-11.5611
䕃	-11.5612
封爵	-11.5613
需時日	-11.5613
著交部	-11.5613
郄	-11.5615
幡	-11.5615
韋臯	-11.5615
探聽	-11.5615
匕	-11.5616
難敵	-11.5617
控制	-11.5617
可慮	-11.5617
沮渠	-11.5618
循化	-11.5618
南路賊匪	-11.5619
擊殺	-11.562
追趕	-11.5621
鬯	-11.5622
琴瑟	-11.5623
登州	-11.5624
戎服	-11.5625
盜竊	-11.5625
所部兵	-11.5626
廣信	-11.5627
太妃	-11.5628
歩行	-11.5629
卷三十	-11.563
叔姬	-11.5635
併傳諭	-11.5636
聖朝	-11.5636
十二人	-11.5637
傳位	-11.5641
誰可	-11.5644
伐趙	-11.5646
正彦	-11.5646
甚逺	-11.565
囘京	-11.5651
乎孔子曰	-11.5652
嵗月	-11.5654
諺曰	-11.5654
賜姓	-11.5656
逆謀	-11.5658
商君	-11.5659
室家	-11.5662
尚書左丞	-11.5662
敵情	-11.5663
俊臣	-11.5665
宫闕	-11.5667
隱公	-11.5669
召諸將	-11.567
為皇太子	-11.5673
罷去	-11.5673
往視	-11.5674
現駐	-11.5676
竊聞	-11.5677
乘騎	-11.5678
朝覲	-11.5679
上谷	-11.5682
中興之	-11.5683
中央	-11.5687
百艘	-11.569
百工	-11.5691
晏然	-11.5691
直趨	-11.5696
散亡	-11.5699
五吉	-11.5699
武舉	-11.57
江州刺史	-11.5701
富德等	-11.5702
疏稱	-11.5702
派調	-11.5704
往追	-11.5708
于門外	-11.5708
荆門	-11.5709
重傷	-11.571
機務	-11.5712
潞王	-11.5716
磁州	-11.572
西喇	-11.5721
雜處	-11.5722
遣囘	-11.5724
定長等	-11.5725
較多	-11.5725
左手	-11.5726
舊好	-11.5728
有之曰	-11.5729
浙兵	-11.573
遇春	-11.5731
傳集	-11.5735
𨗳	-11.5735
鯉	-11.5736
征𠞰	-11.5736
兵四百名	-11.5738
阿哈瑪特	-11.5738
邱能成	-11.5739
璉	-11.5741
董璋	-11.5741
遼西	-11.5742
轉致	-11.5743
我輩	-11.5743
亊	-11.5744
旌額理	-11.5745
鋒鏑	-11.5746
徳威	-11.5746
廐	-11.5746
哈寧阿	-11.5747
南薫門	-11.5748
瘡	-11.5748
悝	-11.5749
仰見	-11.5749
失望	-11.5749
雌	-11.5749
将弁	-11.575
中流矢	-11.575
跣	-11.575
無可逭	-11.575
王貝勒貝子公	-11.5751
芥	-11.5751
茨	-11.5752
照前	-11.5752
斜	-11.5753
扎克拜達里克	-11.5753
總督董衛國	-11.5753
哈丹	-11.5753
承訓	-11.5754
大金皇帝	-11.5755
興宗	-11.5756
五十四	-11.5756
魚鼈	-11.5756
赭	-11.5756
周公旦	-11.5757
曰嘻	-11.5758
未之有也	-11.5758
伏地	-11.5759
鄱陽	-11.5759
經筵	-11.5759
惴	-11.5761
邉境	-11.5763
北向	-11.5763
姜維	-11.5765
人户	-11.5766
周章	-11.5768
樂毅	-11.5769
期年	-11.5769
黄教	-11.5772
丁壯	-11.5774
鄆州	-11.5774
厲王	-11.5775
不能對	-11.5778
必需	-11.578
宣慰使	-11.578
主帥	-11.5781
對曰夫	-11.5787
六品	-11.5796
相隔	-11.5797
練兵	-11.5797
軍情	-11.5798
宗閔	-11.58
殊恩	-11.58
東向	-11.5808
賫勅	-11.581
遽行	-11.581
連夜	-11.5815
督率官兵	-11.5816
昭侯	-11.5818
近侍	-11.5821
彊弱	-11.5821
似應	-11.5821
不懌	-11.5824
溺死者	-11.583
通問	-11.583
敵勢	-11.5831
甚難	-11.5833
如所請奏入上從之	-11.5834
語之曰	-11.5835
密諭	-11.5838
景隆	-11.584
甚屬可嘉著	-11.584
衡州	-11.5842
圍攻	-11.5846
分隊	-11.585
四寸	-11.5853
歸併	-11.5853
馳報	-11.5854
五星	-11.5859
納世通等	-11.5859
區區之	-11.5859
招納	-11.5864
理宜	-11.5866
吴人	-11.5873
先驅	-11.5876
阿桂和珅	-11.5876
開列	-11.5877
率土	-11.5878
赴軍前	-11.588
供給	-11.588
赴巴里坤	-11.5881
金印	-11.5882
胡土克圖	-11.5882
葉護	-11.5882
躭	-11.5883
埒	-11.5885
沙喇斯瑪呼斯	-11.5886
呼倫貝爾	-11.5887
邜	-11.5888
叅贊	-11.5888
厪	-11.589
喀喇烏蘇	-11.5891
弓弩	-11.5891
苾	-11.5891
净盡	-11.5891
僵	-11.5892
千乗	-11.5892
贏	-11.5892
僚佐	-11.5892
劉歆㠯為	-11.5892
張憲	-11.5893
列女傳	-11.5894
紐	-11.5894
爕	-11.5894
海船	-11.5894
云云	-11.5894
鋤	-11.5895
預偹	-11.5895
捉生詢問	-11.5895
株守	-11.5895
實在情形	-11.5895
噶爾旦多爾濟	-11.5895
領侍衛内大臣	-11.5896
費用	-11.5897
豢	-11.5897
駮	-11.5899
溝壑	-11.5899
藍玉	-11.5899
十八人	-11.59
仰懇	-11.5902
斵	-11.5903
鹹	-11.5904
劫掠	-11.5904
鹽鐵	-11.5906
春夏	-11.5907
八百名	-11.5907
殱擒	-11.5908
馬彪	-11.5909
粒	-11.591
完聚	-11.5914
接准	-11.5914
乗夜	-11.5916
賦斂	-11.5916
孤立	-11.5917
赴藏	-11.5918
環慶	-11.5922
三代之	-11.5922
無庸議	-11.5923
異同	-11.5926
心懐	-11.5929
大雩	-11.593
侍講	-11.5935
過失	-11.5937
伐蜀	-11.5937
起運	-11.5938
庫銀	-11.5939
感動	-11.594
寨桑等	-11.594
刻期	-11.5943
定界	-11.5948
折色	-11.5954
四十年	-11.5955
輕動	-11.5955
縋城	-11.5957
銀米	-11.5957
迎擊	-11.5964
一百三十	-11.5969
中牟	-11.597
在途	-11.5972
叔孫氏	-11.5973
卑辭	-11.5975
伊游牧	-11.5977
四百人	-11.5977
無用之	-11.5981
南康	-11.5982
内揀選	-11.5983
江水	-11.5986
維揚	-11.5994
甚好	-11.5998
追奔	-11.6001
至土喇	-11.6004
坐待	-11.6006
君之所	-11.6007
原屬	-11.6007
權勢	-11.6008
徽州	-11.6008
吾先君	-11.6008
三百六十	-11.6009
誠恐	-11.601
髙氏	-11.6011
對曰昔	-11.6016
各部落	-11.6016
應如所請	-11.6018
哨探兵	-11.6022
所降諭㫖	-11.6023
齊凌扎卜	-11.603
英噶薩爾	-11.6031
荼毒	-11.6032
次年	-11.6032
覧	-11.6033
授首	-11.6034
剌	-11.6034
夹	-11.6034
小路	-11.6035
彗	-11.6036
禳	-11.6037
觚	-11.6037
暖	-11.6038
色稜	-11.6038
姿	-11.6038
玫	-11.6038
盱眙	-11.6038
厠	-11.6039
掣肘	-11.6039
李繩武	-11.604
攻陷	-11.6041
票	-11.6041
鋸	-11.6041
喇卜坦	-11.6041
橫	-11.6042
稟報	-11.6042
樓櫓	-11.6042
鉄	-11.6042
聖祖仁皇帝親征平定朔漠方略卷	-11.6043
明白曉諭	-11.6045
流亡	-11.6046
遞送	-11.6046
饒州	-11.6047
醴泉	-11.6049
工匠	-11.6049
鏜	-11.6052
辰刻	-11.6053
由海道	-11.6054
皇帝陛下	-11.6055
嘉謨	-11.6055
僚屬	-11.6057
奴婢	-11.6058
是役也	-11.6058
布疋	-11.6061
自刎	-11.6061
張良	-11.6063
布喇克	-11.6068
河南尹	-11.607
伯夷	-11.6072
貧賤	-11.6073
抵軍營	-11.6075
公曰善	-11.6076
趙高	-11.6077
訪聞	-11.6079
宵遁	-11.6079
眷屬	-11.608
疑惑	-11.6081
遵奉	-11.6083
七年春	-11.6087
小兒	-11.6088
略地	-11.6093
各帶	-11.6093
究係	-11.6099
探報	-11.6101
勢窮	-11.6101
王琳	-11.6102
邠州	-11.6103
痛加	-11.6103
派侍衛	-11.6104
不得志	-11.6104
兩零	-11.6104
七年春正月	-11.6107
扎卜等	-11.611
天雨	-11.6116
百餘户	-11.6117
懐州	-11.6117
天寒	-11.6117
雲集	-11.6119
邢州	-11.6121
鄂實	-11.6124
聖慈	-11.6125
老小	-11.6125
犯法	-11.6126
將若之何	-11.6127
收獲	-11.613
定陶	-11.6132
水手	-11.6134
更屬	-11.6135
貞觀	-11.6137
謚曰	-11.6138
遲疑	-11.6144
現在情形	-11.6147
追尊	-11.6147
秦昭王	-11.6149
畫一	-11.6149
臣光曰	-11.6158
聽候	-11.616
五百餘人	-11.616
糧草	-11.616
將軍孫思克	-11.6161
伏威	-11.6162
現任	-11.6162
掩擊	-11.6164
處斬	-11.6164
七千餘	-11.6169
徐達	-11.617
江左	-11.6171
帮	-11.6172
專制	-11.6173
色布騰巴爾珠爾	-11.6174
背盟	-11.6175
馨	-11.6179
定邊左副將軍成衮扎布	-11.618
成袞扎布	-11.618
走保	-11.6181
桑寨多爾濟	-11.6181
子游	-11.6182
蹂躪	-11.6183
定北將軍班第等	-11.6183
怏怏	-11.6183
厝	-11.6184
賀人龍	-11.6184
纒	-11.6184
鄂博什	-11.6184
輾轉	-11.6184
焚燬	-11.6185
升自西階	-11.6185
棍	-11.6185
殺虎口	-11.6185
砥	-11.6185
自立為	-11.6186
闘	-11.6186
覊	-11.6187
以我為	-11.6187
煮	-11.6188
洞鑒	-11.6189
量力	-11.6189
熟籌	-11.619
餘丁	-11.619
澆	-11.6191
翩	-11.6192
阿卜都喇伊木	-11.6192
芟	-11.6192
虺	-11.6193
億兆	-11.6193
裁減	-11.6194
安西提督	-11.6194
集賽	-11.6196
退避	-11.6196
四千人	-11.6196
缺乏	-11.6197
跟隨	-11.6198
馬匹牲隻	-11.6198
保甲	-11.6198
扁	-11.6199
伏羲	-11.6199
賭	-11.62
版圖	-11.62
帝嚳	-11.6201
章惇	-11.6201
塔克	-11.6201
賔賔	-11.6202
曾否	-11.6204
白虎通	-11.6204
精壯	-11.6205
完結	-11.6206
旬月	-11.6206
尚書班第	-11.6206
坐塘	-11.6207
燕燕	-11.6208
隔絶	-11.6209
舂	-11.6209
第四	-11.621
死者甚衆	-11.6211
兵四千名	-11.6211
慧景	-11.6211
義民首	-11.6214
聖王之	-11.6217
兩端	-11.622
虎豹	-11.6227
不朽	-11.6229
秣	-11.623
呉越	-11.6231
擅權	-11.6233
邊塞	-11.6233
淮隂	-11.6234
霸王之	-11.6235
孔丘	-11.6236
二年春二月	-11.6242
台州	-11.6242
逞其	-11.6244
散走	-11.6245
漫無	-11.6246
動揺	-11.6247
千載	-11.6252
堅固	-11.6256
南潭	-11.6258
四十萬	-11.626
阿布	-11.626
注云	-11.6261
央	-11.6266
頗屬	-11.6266
權衡	-11.6267
總制	-11.6269
書序	-11.6269
耕作	-11.6277
屬可行	-11.6279
監視	-11.6283
天地㑹	-11.6284
竟敢	-11.6286
更易	-11.6287
睢陽	-11.6291
繁多	-11.6294
城䧟	-11.6301
管押	-11.6307
得其人	-11.6323
牂牁	-11.6323
岌	-11.6324
鈐轄	-11.633
蜂	-11.633
耘	-11.6332
應請㫖	-11.6332
宫禁	-11.6333
五十餘人	-11.6333
徙居	-11.6334
様	-11.6335
司隷校尉	-11.6335
額林沁多爾濟	-11.6335
蟒	-11.6335
文秀	-11.6336
臾	-11.6336
厪念	-11.6337
酢	-11.6338
紊	-11.6338
峙	-11.6339
著有勞績	-11.6339
鏃	-11.6339
遼濶	-11.6339
佇	-11.634
皥	-11.634
何煟	-11.6341
讋	-11.6341
拴	-11.6341
槃	-11.6342
旗鼓	-11.6342
惲	-11.6342
豺	-11.6343
日有食之	-11.6343
弋獲	-11.6343
䛕	-11.6344
沐浴	-11.6345
屑	-11.6345
琢	-11.6345
菲	-11.6346
奏入報聞同日	-11.6346
儋	-11.6346
駙馬都尉	-11.6348
逺颺	-11.6348
舊例	-11.6349
廷隠	-11.6351
慶父	-11.6351
絜	-11.6351
築壘	-11.6351
孝純	-11.6354
曳	-11.6355
哈薩克貿易	-11.6356
驚潰	-11.6357
侵軼	-11.6358
不拘	-11.6358
推戴	-11.6359
子晳	-11.6359
泰寧	-11.6359
報銷	-11.636
孫氏	-11.6361
李顯忠	-11.6362
三十八	-11.6362
上下相	-11.6363
會稽	-11.6364
伯克鄂對	-11.6365
俘斬	-11.6367
和衷	-11.6369
價銀	-11.6369
狐疑	-11.6369
各該處	-11.6374
髙昌	-11.6374
陞賞	-11.6375
李嗣源	-11.6376
明確	-11.6376
散去	-11.6379
哈尚	-11.6381
口岸	-11.6386
著照所請	-11.6389
斃賊	-11.6391
妄動	-11.6392
牛酒	-11.6393
王僧辯	-11.6396
首犯	-11.6397
損益	-11.6403
餓死	-11.6404
莫知所	-11.6404
九錫	-11.6408
二萬餘人	-11.6412
右手	-11.6415
真州	-11.6415
張覺	-11.6438
綏靖	-11.644
朝貢	-11.6442
有㫖令	-11.6449
秦始皇	-11.645
嚴防	-11.6452
震怒	-11.6452
數騎	-11.6454
荆湖	-11.6456
夫子曰	-11.6458
飛龍	-11.6458
隂氣	-11.6462
著李侍堯	-11.6463
上諭兵部曰	-11.6464
朔州	-11.6469
王翦	-11.647
囘衆	-11.6471
雨水	-11.6472
學習	-11.6474
扑	-11.648
奏入諭曰	-11.6483
麫	-11.6483
晷	-11.6486
菴	-11.6487
啜	-11.6488
皂	-11.6489
侵蝕	-11.649
蹄	-11.6491
上命軍機大臣等傳諭	-11.6492
匣	-11.6492
直搗	-11.6493
逆首林爽文	-11.6493
呵	-11.6494
籲	-11.6494
橈	-11.6494
接奉諭㫖	-11.6494
詗	-11.6494
元振	-11.6495
師曠曰	-11.6496
蠟書	-11.6496
豺狼	-11.6496
征西將軍	-11.6496
禰	-11.6497
肘	-11.6497
蓐	-11.6497
𦂳急	-11.6498
博羅特	-11.6498
跳梁	-11.6498
禋	-11.6499
具疏	-11.6499
闊	-11.6499
三等侍衞	-11.6499
宂	-11.65
逡巡	-11.65
形跡	-11.65
平章政事	-11.6501
鎧仗	-11.6501
耒	-11.6504
頗知	-11.6504
昕	-11.6504
定議具奏	-11.6504
揖讓	-11.6504
妣	-11.6505
木楚克	-11.6507
豳	-11.6507
筦	-11.6508
奚齊	-11.6509
華陽	-11.651
歌舞	-11.6511
爾喇嘛	-11.6511
冢宰	-11.6515
武衛將軍	-11.6515
理合	-11.6516
甘露	-11.6516
仇讎	-11.6518
辦理回部	-11.6518
王曰寡人	-11.6519
論語	-11.6522
周徳威	-11.6522
薊州	-11.6527
鳴鼓	-11.6527
晉平公	-11.6527
秋毫	-11.6527
唐恪	-11.6527
欽定四庫全書繹史卷一百	-11.6527
何也對曰	-11.6528
貴戚	-11.653
厚賂	-11.6532
納旺	-11.6532
有大功	-11.6532
均奏入上命軍機大臣傳諭	-11.6533
驚駭	-11.6534
辦理軍務	-11.6537
姚古	-11.6538
六年春	-11.6539
呉敏	-11.654
撫標	-11.6551
定期	-11.6554
翟興	-11.6558
塞責	-11.656
副将軍	-11.6562
威權	-11.6563
入侍	-11.6565
酒食	-11.6568
疾馳	-11.657
畏威	-11.657
加倍	-11.6572
何暇	-11.6577
差委	-11.6578
母后	-11.658
彌逺	-11.6581
上疏言	-11.6582
叔仲	-11.6583
太上皇帝	-11.6583
番民	-11.6585
令軍中	-11.6594
千八百	-11.6597
俟大兵	-11.6598
情實	-11.6603
克㨗	-11.6604
竊思	-11.6605
傳示	-11.6606
四十餘人	-11.6606
博克	-11.6611
宰夫	-11.6614
髙皇帝	-11.6623
仇敵	-11.6625
駐牧	-11.6625
不逞	-11.6628
傅爾丹等	-11.6632
以爲然	-11.6633
轟	-11.6635
美女	-11.6635
楊榮	-11.6637
剋期	-11.6638
官兵奮勇	-11.6639
達賴	-11.6641
培	-11.6642
青海諸台吉	-11.6642
也且夫	-11.6642
英武	-11.6643
汧	-11.6644
命有司	-11.6646
遲滯	-11.6646
甕	-11.6647
篆	-11.6647
豆斌	-11.6648
防備	-11.6648
衆寡不敵	-11.6649
参	-11.665
匝	-11.665
鞍馬	-11.6651
尚書阿爾尼	-11.6651
安設臺站	-11.6652
渣	-11.6653
駙馬	-11.6653
楊國忠	-11.6653
噲	-11.6653
驚惶	-11.6654
供支	-11.6654
楨	-11.6654
莫儔	-11.6654
布政司	-11.6654
謂諸將曰	-11.6654
槁	-11.6655
安親王岳樂	-11.6657
詭詐	-11.6657
杭愛	-11.6657
戰國策	-11.6657
鑰	-11.6657
平江府	-11.6658
枝葉	-11.6659
彛陵	-11.6659
阼	-11.6659
取進止	-11.6659
洺州	-11.6661
蓍	-11.6664
親督	-11.6668
庫庫	-11.6671
定西將軍策楞	-11.6671
敗亡	-11.6672
黔首	-11.6674
數十騎	-11.6674
征勦	-11.6674
順風	-11.6676
沙津	-11.6676
顯戮	-11.6676
滑臺	-11.6678
仍須	-11.6678
澧	-11.6681
惟岳	-11.6682
迤西	-11.6684
俟明年	-11.6684
雒陽	-11.6686
而問焉	-11.6688
雜記	-11.6688
折給	-11.669
申刻	-11.6693
賢不肖	-11.6693
血氣	-11.6696
食邑	-11.6696
千里之外	-11.6699
起釁	-11.67
賊卡	-11.6703
就獲	-11.6703
妃嬪	-11.6704
子囊	-11.6709
累日	-11.6709
結好	-11.6711
餉道	-11.6714
清野	-11.6714
紹琛	-11.6718
號泣	-11.6722
孝寛	-11.6724
等率領	-11.6724
賔降	-11.6724
六百餘	-11.6725
紹宗	-11.6728
連營	-11.6728
昭儀	-11.6728
該將軍等	-11.6736
未曽	-11.6736
上諭議政王等曰	-11.6737
十員	-11.674
前項	-11.6743
盧氏	-11.6744
所繫	-11.6746
四尺	-11.6748
祖考	-11.675
永慶	-11.6759
衢州	-11.676
擇日	-11.6761
女妻	-11.6762
五穀	-11.6762
慶緒	-11.6763
一萬二千	-11.6764
欽定	-11.6768
熟計	-11.677
四十四	-11.6777
舟車	-11.6781
邳	-11.6783
遲緩	-11.6783
里塘	-11.6784
七百人	-11.6786
臨御	-11.6788
靖邊	-11.679
六百里	-11.6794
俱授為	-11.6798
匄	-11.6798
武陵王	-11.6799
沙克都爾曼濟	-11.6799
根敦帶青	-11.6799
公同商酌	-11.6801
夜間	-11.6801
從事中郎	-11.6801
豁	-11.6802
烏闌布通	-11.6806
漁陽	-11.6806
淵聖皇帝	-11.6806
撾	-11.6806
哈栁	-11.6807
党	-11.6807
身先士卒	-11.6807
僅能	-11.6808
經畧大學士	-11.6809
嘯聚	-11.6809
磐	-11.6809
湧	-11.681
頥浩	-11.681
供億	-11.6811
知樞密院事	-11.6813
甘肅巡撫	-11.6813
壯健	-11.6814
儕	-11.6815
緍	-11.6815
束帛	-11.6816
巵	-11.6817
羌胡	-11.6817
猺	-11.6817
盲	-11.6818
歎息	-11.6818
父母妻子	-11.6818
巴爾虎	-11.6819
刖	-11.6819
邠寧	-11.682
胃	-11.6821
翼日	-11.6821
全斌	-11.6821
爇	-11.6822
鮒	-11.6822
於秦秦	-11.6823
物件	-11.6823
馬擴	-11.6824
士匄	-11.6824
接據	-11.6825
就緒	-11.6827
卜筮	-11.6828
獄訟	-11.6828
拓跋	-11.6828
觀察	-11.683
一切事宜	-11.683
通衢	-11.683
許男	-11.6833
秬	-11.6833
已有㫖	-11.6839
事泄	-11.6841
偽總兵	-11.6843
損傷	-11.6844
恵公	-11.6851
愚民	-11.6852
滁	-11.6853
人之情	-11.6855
木壘	-11.6855
千七百	-11.6858
諫官	-11.686
著勞績	-11.6862
號哭	-11.6863
内扎薩克	-11.6863
鄴都	-11.6863
追勦	-11.6867
滋蔓	-11.6867
將軍兆惠	-11.6868
年號	-11.6871
兵一千五百名	-11.6873
田單	-11.6874
免罪	-11.6874
黔中	-11.6875
五味	-11.6875
休養	-11.6876
盟誓	-11.6882
詳察	-11.6885
各有差	-11.6887
詣行在	-11.6887
都噶爾	-11.6888
汀州	-11.6891
稍遲	-11.6891
范文子	-11.6892
到日即	-11.6897
百隻	-11.6898
私第	-11.6898
悃	-11.6901
淮安	-11.6902
負朕	-11.6902
喀爾喀厄魯特	-11.6904
朝歌	-11.691
兵八百名	-11.6911
恤民	-11.6915
兼顧	-11.6916
郊祀	-11.6925
伊兄	-11.6934
二年春	-11.694
仰視	-11.694
好色	-11.6944
馥	-11.6947
百五十	-11.695
東昏	-11.695
濟江	-11.6951
行𠞰滅	-11.6954
慎重	-11.6956
李紹	-11.6956
議政大臣等	-11.6957
非常之	-11.6957
陡	-11.696
布拉克	-11.6962
漢土官兵	-11.6964
稿	-11.6964
羯	-11.6965
寥	-11.6966
振作	-11.6966
一欽定四庫全書	-11.6967
帷幄	-11.6968
内閣學士	-11.6969
闔門	-11.6969
由此觀之	-11.6969
何面目	-11.697
棚	-11.697
遶	-11.697
逆順	-11.697
塔米爾	-11.6971
川陜總督	-11.6971
戶	-11.6972
多羅郡王	-11.6973
激勵	-11.6974
八卦	-11.6974
驁	-11.6974
昌宗	-11.6977
脛	-11.6977
厮役	-11.6978
駱駞	-11.6979
秦州刺史	-11.6979
耨	-11.6979
繹史卷一百	-11.6979
効力行走	-11.698
鄂勒錐	-11.6981
挟	-11.6983
淑妃	-11.6984
八年春	-11.6984
檀弓	-11.6984
閨	-11.6984
拱手	-11.6986
異域	-11.6988
三耦	-11.6989
供認	-11.6989
劉延慶	-11.6989
寶寅	-11.699
斛律	-11.6991
水寨	-11.6993
訛言	-11.6994
對壘	-11.6995
馬奈	-11.6997
廬陵	-11.6999
欽定四庫全書平定準噶爾方略正編卷	-11.7002
江湖	-11.7012
良弼	-11.702
沂中	-11.702
畨銀	-11.702
禦賊	-11.7022
聖德	-11.7023
露布	-11.7023
三十餘里	-11.7024
則曷為	-11.7027
民財	-11.7027
提刑	-11.7029
籌備	-11.703
安祿山	-11.703
確信	-11.7033
長途	-11.7033
婺	-11.7034
福康安海蘭察	-11.7041
籌議	-11.7042
督諸軍	-11.7053
家室	-11.7054
五千名	-11.7057
分為三	-11.7057
外尚有	-11.7061
占據	-11.7071
聖慮	-11.7072
鎗傷	-11.7073
此輩	-11.7075
聲震	-11.708
輕舉	-11.7081
哀侯	-11.7085
禮畢	-11.7086
戒之曰	-11.7092
四十二	-11.7095
巴拜	-11.7095
遵義	-11.7109
頤浩	-11.7112
弢	-11.7113
磺	-11.7117
窩	-11.7122
乾清門	-11.7122
䨇	-11.7122
為金人所	-11.7123
謂侍臣曰	-11.7127
新羅	-11.7127
大功告成	-11.7127
來降命賞給安插如例	-11.7128
嵬	-11.7128
峒	-11.713
有裨益	-11.7132
賍	-11.7132
可惜	-11.7132
䕶軍叅領	-11.7133
妓	-11.7133
右衛將軍	-11.7133
攺	-11.7133
奏准	-11.7134
鳯凰	-11.7134
垂簾	-11.7134
橐	-11.7135
蔬	-11.7135
銀一千兩	-11.7135
彥	-11.7135
賡	-11.7136
凋	-11.7136
張叔夜	-11.7136
這	-11.7136
琚	-11.7136
箠	-11.7138
厄魯特降人	-11.7139
金墉	-11.7139
冄	-11.714
璣	-11.714
闚	-11.714
遁逃	-11.7141
閫外	-11.7141
胎	-11.7143
濮州	-11.7143
剝	-11.7143
喟然	-11.7143
其歸路	-11.7144
故受之以	-11.7144
跋扈	-11.7144
位號	-11.7145
如晋	-11.7145
荘大田	-11.7146
竽	-11.7146
簋	-11.7148
西川節度使	-11.7148
曰敢問	-11.7152
庶㡬	-11.7154
逆賊阿睦爾撒納	-11.7155
楊士奇	-11.7155
喀爾喀游牧	-11.7155
抗拒官兵	-11.7157
哭泣	-11.7158
李林甫	-11.7161
幣帛	-11.7163
登庸	-11.7165
汴梁	-11.7165
了事	-11.7166
震駭	-11.7166
辦理軍需	-11.7168
廬江	-11.7169
抵鹿仔港	-11.7172
偕來	-11.7172
盤獲	-11.7173
閩浙	-11.7174
招服	-11.7174
生疑懼	-11.7176
帶回	-11.7178
料敵	-11.7183
嚴嵩	-11.7183
數千騎	-11.7183
到軍營	-11.7184
驚疑	-11.7185
帳前	-11.7186
飛鳥	-11.7187
三年春二月	-11.7188
賞䘏	-11.7188
北庭	-11.7189
詰問	-11.719
昇平	-11.719
所共知	-11.7191
屬𦂳要	-11.7191
巴里坤辦事	-11.7192
平章事	-11.7192
甲索	-11.7194
宫殿	-11.7195
六十七	-11.7196
六寸	-11.7197
應之曰	-11.7197
僅存	-11.7199
福禄	-11.7207
督標	-11.7209
貳師	-11.7218
致祭	-11.7219
現在軍營	-11.7222
縁由	-11.7225
著常青	-11.723
遣人往	-11.7239
貪利	-11.7246
威震	-11.7252
上表請	-11.7254
相謂曰	-11.7257
五百騎	-11.7259
八尺	-11.7261
新野	-11.7265
帝堯	-11.7274
平郡王	-11.7276
目擊	-11.7277
河南北	-11.7279
厯年	-11.728
么	-11.7283
挿	-11.7286
肆逆	-11.7289
小舟	-11.729
馬畜	-11.729
墉	-11.7294
陬	-11.7294
白虎	-11.7295
崙	-11.7295
剔	-11.7295
豈不知	-11.7297
二尺	-11.7298
世輔	-11.7298
觀文殿大學士	-11.7299
櫬	-11.7299
劑	-11.7299
墨爾根	-11.73
達什敦多卜	-11.73
伶	-11.73
薰	-11.73
著革職	-11.7301
作速奏聞	-11.7301
凍餒	-11.7302
鳬	-11.7302
婚姻	-11.7302
瘴	-11.7302
腆	-11.7303
櫜	-11.7303
樁	-11.7304
陌	-11.7304
厮	-11.7305
厨	-11.7305
黥	-11.7306
旒	-11.7306
咺	-11.7306
娣	-11.7307
羅汝才	-11.7307
北靣	-11.7309
言於帝曰	-11.731
疆埸	-11.731
庫圖克圖	-11.731
大將軍岳鍾琪	-11.7311
大名府	-11.7311
湫	-11.7312
黙爾根	-11.7314
形迹	-11.7314
暄	-11.7315
范仲淹	-11.7315
蓄積	-11.7316
藝祖	-11.7316
此項兵丁	-11.7317
奮勇出力	-11.7319
憫惻	-11.7322
讖	-11.7322
勅㫖	-11.7323
曽否	-11.7327
等語此等	-11.7333
不足恃	-11.7337
韓侂胄	-11.7337
安重誨	-11.7338
效尤	-11.7338
失機㑹	-11.7339
較前	-11.7341
粮食	-11.7345
六千人	-11.7349
百餘騎	-11.7351
君臣之義	-11.7352
封禪	-11.7352
都督府	-11.7354
未可知也	-11.7355
遣使諭	-11.736
喇克	-11.736
澶州	-11.7361
齊旺	-11.7361
喀爾喀扎薩克	-11.7375
右侍郎	-11.7385
曰何謂也	-11.7387
數十名	-11.7387
數倍	-11.739
漢兒	-11.7397
覽奏	-11.7407
兩路大兵	-11.7413
南單于	-11.7413
我先君	-11.7414
按照	-11.742
乏糧	-11.7425
皇皇	-11.743
千二百	-11.7432
計窮	-11.7435
力屈	-11.7438
部署	-11.744
莊子曰	-11.7448
前隊	-11.7456
從諌	-11.7459
蓮	-11.7459
鄂齊爾	-11.7461
鞬	-11.7461
四十九旗	-11.7461
福康安李侍堯	-11.7461
聯	-11.7464
廏	-11.7465
欽定四庫全書欽定平定臺灣紀畧卷	-11.7465
迯	-11.7465
索額圖	-11.7465
總督金光祖	-11.7465
自辰至	-11.7466
振武將軍	-11.7467
龍驤	-11.7467
壓境	-11.7467
种師中	-11.7467
慨	-11.7467
𠂻	-11.7467
旺扎爾	-11.7467
鄂木布	-11.7467
漳浦	-11.7469
髀	-11.7469
齊木庫爾	-11.7469
盤踞	-11.747
烏合之衆	-11.747
額爾得尼招	-11.747
催促	-11.747
扎什	-11.747
議政王等	-11.747
疾速	-11.747
台吉宰桑等	-11.7471
驃騎大將軍	-11.7471
匏	-11.7471
旰	-11.7472
著加恩授為	-11.7472
弘正	-11.7474
博碩克圖汗	-11.7474
可圖也	-11.7474
胞	-11.7474
廡	-11.7474
銖	-11.7474
蹇叔	-11.7475
狂悖	-11.7475
緘	-11.7476
菁	-11.7476
貉	-11.7476
錐	-11.7477
有應行	-11.7477
榛	-11.7477
瞋目	-11.7477
輔國將軍	-11.7478
肘腋	-11.7478
旤	-11.7478
複	-11.7478
蕪湖	-11.7479
腥	-11.7481
三十二年	-11.7483
荀子	-11.7484
該地方官	-11.7484
當此之時	-11.7485
令孜	-11.7486
范雎	-11.7489
隰朋	-11.7489
大兵前進	-11.749
酸	-11.7491
木薩	-11.7493
鮪	-11.7495
該提督	-11.7496
韓琦	-11.7497
馬燧	-11.7498
唐太宗	-11.7499
公曰寡人	-11.7499
用兵之道	-11.75
汴州	-11.7503
馳遞	-11.7503
瑪特	-11.7504
擊走之	-11.7505
巴桑	-11.7505
芻糧	-11.7505
一千四百	-11.7507
顔囘	-11.7512
富弼	-11.7513
酌量情形	-11.7513
布帛	-11.7513
突利	-11.7517
開導	-11.7523
臨清州	-11.7526
曲端	-11.7532
先零	-11.7532
石亨	-11.7533
市易	-11.7535
鼓勇	-11.7535
希廣	-11.7536
慶忌	-11.7539
奬諭	-11.7541
炎帝	-11.7544
新柱等	-11.7545
蕃漢	-11.7547
海蘭察等	-11.7557
施放鎗砲	-11.7557
何忍	-11.7559
各庄	-11.7561
論衡	-11.7565
聞命矣	-11.7565
棄市	-11.7568
益驕	-11.757
閣門	-11.7571
將步騎	-11.7572
七十五	-11.7573
秦穆公	-11.7573
淫亂	-11.7576
㡬何	-11.7577
薩爾	-11.7591
孟子曰	-11.7592
一千七百	-11.7603
報仇	-11.7603
西路大兵	-11.7616
崇寧	-11.7616
蠟	-11.7622
鑲	-11.7627
遵照前㫖	-11.7631
復讐	-11.7632
吠	-11.7634
從優議叙	-11.7634
伎倆	-11.7635
鉅鹿	-11.7636
宗憲	-11.7636
狠	-11.7636
跟究	-11.7637
梓潼	-11.7637
丹濟喇	-11.7638
哈薩克阿布賚	-11.7638
渾瑊	-11.7638
唐喀祿	-11.7639
夤	-11.7639
許應虎	-11.764
蝗	-11.764
玘	-11.764
皁	-11.764
沐英	-11.7641
瞰	-11.7641
疲瘦	-11.7641
蟬	-11.7641
何裕城	-11.7641
欄	-11.7642
大將軍公圖海	-11.7642
傒	-11.7643
據實具奏	-11.7644
將軍薩卜素	-11.7644
澈	-11.7645
訥親張廣泗	-11.7646
丐	-11.7646
負嵎	-11.7646
囘紇	-11.7647
失措	-11.7648
簽書	-11.7648
乾清門侍衛	-11.7648
冤	-11.7649
貍	-11.7649
羇	-11.7649
嫗	-11.7649
渦	-11.7649
都察院	-11.765
淳于髠	-11.765
尼楚赫	-11.7651
冠帶	-11.7651
阿蘭泰等	-11.7651
莅	-11.7651
怵	-11.7651
羣情	-11.7652
僉都御史	-11.7652
營請設兵	-11.7653
崔胤	-11.7653
淇	-11.7653
昭義節度使	-11.7653
建文帝	-11.7653
倉廩	-11.7654
駞	-11.7654
糠	-11.7655
㢤	-11.7656
徘徊	-11.7656
三年之喪	-11.7657
錦衣衛	-11.7657
詔獄	-11.7658
攜帶	-11.7663
赫連	-11.7664
是故君子	-11.7665
伏祈	-11.7666
一到即	-11.7669
巡防	-11.7669
潤州	-11.7669
桓温	-11.767
沈尹	-11.7671
桂陽	-11.7675
新滿洲	-11.7676
日可到	-11.7678
未知所	-11.7679
可知矣	-11.7681
彤	-11.7682
黨惡	-11.7683
嚴辦	-11.7687
昆明	-11.7687
憤怒	-11.7688
記室	-11.7688
阼階上	-11.7689
造父	-11.769
巡察	-11.7691
裝載	-11.7692
奸邪	-11.7694
母妻	-11.7699
赴閩	-11.7702
咎犯	-11.7703
阿桂等奏	-11.7704
能保其	-11.7708
陳軫	-11.7712
▁穀梁傳	-11.7714
原派	-11.7714
殊不知	-11.7719
圖喇	-11.7722
劾奏	-11.7723
帶領官兵	-11.7724
諸侯之大夫	-11.7724
似屬	-11.7724
總領	-11.7724
越境	-11.7727
舒常	-11.7727
宣化府	-11.7731
兵六百名	-11.7733
皇仁	-11.7734
縱火焚	-11.7739
盛衰	-11.774
著舒赫徳	-11.7743
九鼎	-11.7747
少頃	-11.7753
扎營	-11.7753
隨駕	-11.7755
昭穆	-11.7777
監糧	-11.7784
踰月	-11.7791
瀘州	-11.7794
寢疾	-11.7794
臣子之	-11.7796
瘁	-11.7803
呼韓邪	-11.7804
梁州刺史	-11.7807
條具	-11.7807
大學士管陜甘總督黄廷桂	-11.7811
一萬五千	-11.7811
都督中外諸軍事	-11.7811
敉	-11.7812
㳂	-11.7812
麒麟	-11.7813
朱滔	-11.7814
倐	-11.7816
崗	-11.7816
薩里罕	-11.7816
湖灘河朔	-11.7818
格外加恩	-11.7818
縉紳	-11.7818
両	-11.7819
祺	-11.782
檻車	-11.7821
一千三百	-11.7822
伯禽	-11.7822
豨	-11.7822
據實奏聞	-11.7822
屡	-11.7822
愽	-11.7823
憨都	-11.7823
衽	-11.7823
霞	-11.7823
椁	-11.7824
覬覦	-11.7824
傭	-11.7825
三年夏四月	-11.7825
綽爾濟	-11.7826
茶葉	-11.7826
奨賞	-11.7826
蟠	-11.7826
擒送	-11.7826
荀偃	-11.7826
郅支	-11.7827
世勣	-11.7827
色楞	-11.7827
嘿	-11.7827
甡	-11.7828
駕馭	-11.7828
規矩	-11.7829
逗留	-11.783
畏怯	-11.7831
此臣所以	-11.7832
數百萬	-11.7832
刮	-11.7833
倩	-11.7834
更替	-11.7836
水之上	-11.7837
前奉諭㫖	-11.7838
軍機處	-11.7839
錢帛	-11.7839
感泣	-11.784
閬	-11.7841
辦理不善	-11.7842
情狀	-11.7843
商旅	-11.7844
沿路	-11.7847
唐鄧	-11.7852
吉甫	-11.7852
懦怯	-11.7853
遲速	-11.7855
顔淵	-11.7856
打造	-11.7857
徳鈞	-11.7866
挺身	-11.7866
田獵	-11.7866
二百餘名	-11.7869
一千一百	-11.7873
閒散	-11.7887
萬機	-11.7889
七百名	-11.7891
奉上諭	-11.7891
俯伏	-11.7894
妻妾	-11.7895
李鄴	-11.7901
無所逃	-11.7902
帶甲	-11.7915
扼要	-11.792
每嵗	-11.792
鳳山	-11.7929
爵位	-11.7932
不諳	-11.7936
老母	-11.7944
摺奏	-11.7947
將兵救	-11.7948
千餘户	-11.7963
戰陣	-11.7969
太康	-11.7969
貝州	-11.797
庫庫特穆爾	-11.798
浄	-11.798
尼雅翰	-11.7981
佛尼勒	-11.7984
趍	-11.7985
垓	-11.7989
噶岱黙特	-11.7989
縀疋	-11.799
太湖	-11.799
鈍	-11.7991
玄謨	-11.7992
冠軍將軍	-11.7993
笠	-11.7993
玷	-11.7993
大事去矣	-11.7994
訢	-11.7994
珥	-11.7994
隍	-11.7994
絲毫	-11.7996
疆圉	-11.7996
靼	-11.7996
燃	-11.7997
痤	-11.7997
俞金鰲	-11.7998
郗	-11.7998
且戰且	-11.7998
額爾景額	-11.7999
掎	-11.7999
犧牲	-11.7999
臚	-11.7999
闞	-11.8
耐	-11.8
徤	-11.8
秦王世民	-11.8001
佩刀	-11.8001
鴆	-11.8001
犒賞	-11.8001
豢養	-11.8002
步卒	-11.8002
敺	-11.8002
孰大焉	-11.8002
不亦宜乎	-11.8002
沴	-11.8003
謾	-11.8003
狸	-11.8003
遣使入貢	-11.8003
纘	-11.8004
叅知政事	-11.8006
和碩特	-11.8006
館陶	-11.8008
心膂	-11.801
臨安府	-11.8011
妥速	-11.8011
暫緩	-11.8012
帥歩騎	-11.8012
正法示衆	-11.8013
事定後	-11.8014
萬歳	-11.8017
靜寧	-11.802
祼	-11.802
廷美	-11.8021
饑寒	-11.8027
積粟	-11.8027
烏魯木齊等處	-11.8028
犒師	-11.8029
孔叢子	-11.803
為謀主	-11.8032
敗衂	-11.8034
延壽	-11.8035
未肯	-11.8035
自此始	-11.8037
弟兄	-11.8045
感恩	-11.8053
旋經	-11.8063
拘留	-11.8063
籍其家	-11.807
管叔	-11.8079
左司馬	-11.8082
良乆	-11.8083
營汛	-11.8083
西安將軍	-11.8085
潰圍	-11.8085
典刑	-11.8087
十隻	-11.8089
者不可勝數	-11.8095
孝恭	-11.8097
成閔	-11.8107
失律	-11.811
百餘隻	-11.8116
打仗殺賊	-11.8118
棧	-11.8121
情理	-11.8128
御史臺	-11.8147
舉大事	-11.8148
奠觶	-11.8159
翕	-11.8166
巴特瑪車凌	-11.8169
甘凉	-11.8169
餙	-11.8169
俟事竣	-11.8169
闈	-11.817
褫	-11.817
世受國恩	-11.8171
袞	-11.8171
寘鐇	-11.8172
隗囂	-11.8172
兌	-11.8173
𬒳	-11.8173
鍳	-11.8174
三欽定四庫全書	-11.8174
竇建德	-11.8174
妬	-11.8175
蘇尼特	-11.8176
逈	-11.8176
瑊	-11.8177
杰	-11.8177
邾婁	-11.8178
蹂踐	-11.8178
諠	-11.818
椽	-11.818
克勒特	-11.818
臠	-11.818
軒轅	-11.8181
隄防	-11.8181
都部署	-11.8181
伉	-11.8182
巴爾楚克	-11.8182
脉	-11.8183
床	-11.8183
阻隔	-11.8184
烏勒木濟	-11.8184
察罕特穆爾	-11.8184
厲聲曰	-11.8185
巴顔烏闌	-11.8185
馳騁	-11.8185
疆場	-11.8185
裕親王	-11.8185
中書侍郎同平章事	-11.8185
耄	-11.8187
分晰	-11.8187
伏望陛下	-11.8187
水師提督	-11.8187
帮同	-11.8188
捽	-11.8188
臨淮	-11.8188
胡亥	-11.8188
村落	-11.8188
麇	-11.8189
范獻子	-11.8189
互市	-11.8189
哥	-11.8189
上封事	-11.819
梟首	-11.8193
祝融	-11.8193
揺動	-11.8194
衮布	-11.8196
入俄羅斯	-11.8197
桂林	-11.8197
太僕寺	-11.8197
柘	-11.8197
操練	-11.8197
閏三月	-11.8198
休戚	-11.82
拘禁	-11.82
馳驅	-11.8207
都䕶	-11.8209
鮮虞	-11.8209
徑趨	-11.821
莫肯	-11.821
宰輔	-11.821
押送	-11.821
李光弼	-11.8211
仰副	-11.8211
轉餉	-11.8211
河東節度使	-11.8212
訪查	-11.8215
照例辦理	-11.8216
聖躬	-11.8216
奚契丹	-11.8218
瑪哈	-11.8221
汪直	-11.8234
郊廟	-11.8234
駐防兵丁	-11.8239
徐兖	-11.8243
二欽定四庫全書	-11.8243
夏桀	-11.8244
敗露	-11.8244
愕然	-11.8247
萬姓	-11.825
分為二	-11.825
謂人曰	-11.8251
屈原	-11.8254
劒門	-11.8257
衝擊	-11.8262
帥諸軍	-11.8262
乘驛	-11.8265
憂勤	-11.8269
歡呼	-11.8269
彰化縣	-11.8269
孟養	-11.8272
三朝北盟㑹編	-11.8272
河套	-11.8274
另派	-11.8281
飭諭	-11.8282
五十七	-11.8286
𠞰撫	-11.8298
朕加恩	-11.8305
克捷	-11.8305
籍沒	-11.8309
穆子曰	-11.831
嶲	-11.8311
賜宴	-11.8312
道途	-11.8317
洺	-11.8322
萬斛	-11.8323
家産	-11.8325
㝢	-11.8343
陶侃	-11.8345
魏王珪	-11.8346
我軰	-11.8348
道並進	-11.8348
戰碉	-11.8353
棉	-11.8354
哲卜尊丹巴胡土克圖	-11.8354
莊錫舍	-11.8355
嘏	-11.8356
痊	-11.8357
朗州	-11.8357
策零敦多卜	-11.8357
徐嗣曾	-11.8357
藤峽	-11.8359
交部嚴加議處	-11.8359
枷	-11.836
丁朝雄	-11.8361
照此辦理	-11.8362
雱	-11.8362
膚功	-11.8362
逆匪滋事	-11.8362
舸	-11.8362
草束	-11.8363
冒昧	-11.8363
大里杙賊巢	-11.8363
賈似道	-11.8363
悵	-11.8363
疽	-11.8363
撥補	-11.8363
扆	-11.8363
董仲舒	-11.8363
圄	-11.8364
沙陀	-11.8365
腰站	-11.8365
鄣	-11.8365
揜	-11.8366
湜	-11.8366
左衛將軍	-11.8366
喉	-11.8366
蟜	-11.8367
嘯	-11.8367
峭	-11.8367
頠	-11.8368
博貝	-11.8368
冺	-11.837
浄盡	-11.837
袵	-11.8371
疎忽	-11.8372
午刻	-11.8372
怛	-11.8372
嬉	-11.8373
纁	-11.8373
黍稷	-11.8374
妒	-11.8374
阿嚕台	-11.8374
笄	-11.8375
甚合機宜	-11.8375
臼	-11.8375
世系	-11.8376
賓客	-11.8377
汜水	-11.8377
魏忠賢	-11.8378
太子太保	-11.8379
預籌	-11.8379
安撫司	-11.8379
丗隆	-11.838
熟畨	-11.8381
焦勞	-11.8382
頃刻	-11.8386
廟謨	-11.8388
十一年春	-11.839
帑藏	-11.839
玩好	-11.8394
濮陽	-11.8394
二百餘里	-11.8395
歲幣	-11.8396
土豪	-11.8397
嚴拏	-11.8399
賑濟	-11.84
留守司	-11.8401
白刃	-11.8407
元年夏四月	-11.841
困窮	-11.8412
傾危	-11.8412
廵查	-11.8413
莫之能	-11.8414
彦威	-11.8418
各土司	-11.8419
賦役	-11.8421
盧龍	-11.8422
奬賞藍翎	-11.8429
湖口	-11.8434
白塔	-11.8443
瞻仰	-11.8446
奮勇殺賊	-11.8447
結盟	-11.8449
平太守	-11.8449
慎勿	-11.8451
多羅貝勒	-11.8456
食肉	-11.8458
遣人招	-11.8468
萬戸	-11.8474
四十九	-11.8475
諭旨	-11.8477
汛地	-11.8491
遥逺	-11.8491
險隘	-11.8503
研	-11.8514
一百八十	-11.8522
五千餘人	-11.8523
鄯	-11.8524
責之曰	-11.8529
加一級	-11.8531
馮澥	-11.8534
晤	-11.854
㲄	-11.8542
左賢王	-11.8542
滿洲索倫	-11.8543
雅克特穆爾	-11.8545
舶	-11.8545
煦	-11.8546
炤	-11.8546
嚴行申飭	-11.8546
伊拉古克三	-11.8547
那木扎爾	-11.8547
邃	-11.8549
都督僉事	-11.8549
迦	-11.8549
綽爾多	-11.8549
䦨	-11.8549
紀成斌	-11.855
蕚	-11.855
固山貝子	-11.855
賞銀五十兩	-11.8551
鹽菜銀兩	-11.8551
愠	-11.8551
秦隴	-11.8551
告人曰	-11.8552
睿鑒	-11.8552
嗚	-11.8552
舁	-11.8554
沼	-11.8554
烏蘭烏蘇	-11.8554
藐	-11.8555
劉韐	-11.8555
馬四娃	-11.8555
控扼	-11.8556
哀牢	-11.8557
不旋踵	-11.8557
阿拉卜灘	-11.8557
内大臣索額圖	-11.8558
腫	-11.8558
餘依議	-11.8558
黿	-11.8558
喇什	-11.8559
烏蘭古木	-11.8559
刧	-11.8559
打牲	-11.856
杼	-11.8562
隠匿	-11.8562
臧文仲	-11.8562
僊	-11.8562
瓠	-11.8563
潢	-11.8563
懇切	-11.8564
元年春三月	-11.8564
臺榭	-11.8564
俓	-11.8564
疲弊	-11.8564
㓪	-11.8564
筐	-11.8565
堙	-11.8566
指麾	-11.8567
康熈	-11.8568
李世勣	-11.8569
洋面	-11.8569
洞庭	-11.8569
士竒曰	-11.8569
脫逃	-11.8569
牽牛	-11.857
編管	-11.8572
之所致也	-11.8573
果毅	-11.8575
繪圖	-11.8575
漢武帝	-11.8575
敖曹	-11.8576
巴爾布	-11.8576
條例	-11.8576
闓	-11.8577
由是觀之	-11.8577
百里奚	-11.8578
静寧州	-11.8581
詣軍門	-11.8583
翻山	-11.8585
府州縣	-11.8587
曰美哉	-11.8587
研訊	-11.8588
嚴整	-11.8591
抽撥	-11.8591
巴哈	-11.8593
通渭縣	-11.8594
缺出即	-11.8597
臣愚以為	-11.8599
霍光	-11.8599
仁傑	-11.8604
左長史	-11.8608
四靣	-11.8612
領隊	-11.8614
微弱	-11.8615
閩粤	-11.8619
兩岸	-11.8619
與賊打仗	-11.8623
四欽定四庫全書	-11.863
七寸	-11.8637
神機	-11.8638
山頂	-11.8648
查閲	-11.8648
東三省	-11.8655
盗竊	-11.866
叅議	-11.8663
不可勝數	-11.8672
爾罕	-11.8681
諺	-11.8696
買補	-11.8704
主和議	-11.8705
火箭	-11.8716
桶	-11.8729
埤	-11.8732
幹員	-11.8733
斟	-11.8734
詳議具奏	-11.8734
馬駞	-11.8735
嘉悦	-11.8737
柴達木	-11.8737
姚立徳	-11.8738
瑪納斯	-11.8738
鍋	-11.8739
訂期	-11.8741
加意防範	-11.8742
裁汰	-11.8742
趂	-11.8742
信賞必罰	-11.8742
貽悮	-11.8743
砂	-11.8744
㗖	-11.8744
青稞	-11.8744
褊	-11.8744
雝	-11.8744
范宗尹	-11.8745
孔彦舟	-11.8745
城守尉	-11.8745
矦	-11.8745
烏撒	-11.8746
咫尺	-11.8746
汧隴	-11.8746
陳步瀛	-11.8746
悉心籌畫	-11.8746
騁	-11.8747
媿	-11.8747
堕	-11.8747
方為妥協	-11.8747
剄	-11.8747
額倫特	-11.8747
陽處父	-11.8748
利鹿孤	-11.8749
焞	-11.875
﨑嶇	-11.875
申包胥	-11.875
無日矣	-11.875
冒賑	-11.8751
輪班	-11.8751
蘄黄	-11.8751
臕壯	-11.8751
京房易傳曰	-11.8751
觀文殿學士	-11.8752
甌	-11.8752
蠆	-11.8752
大將軍簡親王	-11.8752
踣	-11.8752
餧養	-11.8753
惶惑	-11.8753
隱匿	-11.8754
吳璘	-11.8754
逆賊霍集占	-11.8755
激切	-11.8755
鏌	-11.8755
參贊	-11.8757
無能為也	-11.8757
絺	-11.8758
遲誤	-11.8758
屠戮	-11.8759
認識	-11.8759
查拿	-11.8759
棒	-11.8762
動靜	-11.8762
奏入上諭軍機大臣曰據	-11.8762
塔拉	-11.8763
敬瑄	-11.8763
貪殘	-11.8767
皮弁	-11.8768
鉷	-11.8776
招誘	-11.8776
足敷用	-11.878
闗陜	-11.878
縛獻	-11.878
藉端	-11.8782
晉獻公	-11.8784
叔弓	-11.8784
舉措	-11.8786
升堂	-11.8788
桑仲	-11.8791
東京留守	-11.8794
巡視	-11.8796
名之曰	-11.8797
削奪	-11.8798
合為一	-11.8798
錫爵	-11.8799
錢榖	-11.8803
三百餘里	-11.8805
協理	-11.8812
軍機大臣等奏言	-11.8817
輔佐	-11.882
中書門下	-11.8827
哈逹	-11.8849
索倫兵丁	-11.8863
示懲	-11.8891
驕恣	-11.8907
綠	-11.8915
闐	-11.8927
厓	-11.8929
嵐	-11.8929
額爾克沙喇	-11.893
邯	-11.8931
鄂克濟哈	-11.8931
貪婪	-11.8932
𠫭	-11.8933
延殘喘	-11.8933
螳	-11.8934
折卜尊丹巴庫圖克圖	-11.8935
頭等台吉	-11.8936
螺	-11.8936
䏻	-11.8937
嘉峪闗	-11.8937
刨挖	-11.8938
滇黔	-11.8938
浞	-11.8938
庒	-11.8939
賞戴花翎	-11.8939
哈瑪爾	-11.8939
按察司	-11.8939
仇讐	-11.8939
達什達瓦屬人	-11.894
蕭道成	-11.8941
爻	-11.8941
震懾	-11.8941
鴉	-11.8942
曲折	-11.8943
袴	-11.8944
緋	-11.8944
穆克登	-11.8944
據實覆奏	-11.8945
頰	-11.8945
賻	-11.8945
袁術	-11.8945
泯	-11.8945
程途	-11.8946
正黄旗	-11.8946
龍驤將軍	-11.8947
菅	-11.8947
錠	-11.8947
郜	-11.8947
涖盟	-11.8947
纍	-11.8948
壌	-11.8949
沙雅爾	-11.8949
旺扎勒	-11.8949
哺	-11.895
絶根株	-11.895
畎	-11.8951
抄掠	-11.8952
給與口糧	-11.8952
太常寺	-11.8953
喀爾喀副將軍	-11.8954
雜谷	-11.8954
脱身	-11.8955
西安滿兵	-11.8955
揀派	-11.8955
潛匿	-11.8955
問於孔子曰	-11.8955
領軍將軍	-11.8956
史思明	-11.8957
弘肇	-11.896
訓導	-11.896
郊迎	-11.8961
接仗	-11.8963
陳霸先	-11.8964
凡祭祀	-11.8965
牛隻	-11.8965
鄜	-11.8965
産業	-11.8967
桓玄	-11.8968
查看	-11.8971
糾約	-11.8973
繫獄	-11.8973
回巢	-11.8974
疾篤	-11.8976
洞悉	-11.8977
屬裔	-11.8981
平壤	-11.8982
頒給	-11.8983
頒賜	-11.8992
勦除	-11.8993
伊柱	-11.8995
紹聖	-11.8998
掃地	-11.9006
上柱國	-11.9008
冀州刺史	-11.9013
三百餘名	-11.902
路安撫使	-11.903
大學士舒赫徳	-11.9033
嘉義縣	-11.9047
仍照前	-11.9056
衝要	-11.9064
審明正法	-11.9071
奮勉出力	-11.9077
澧州	-11.9081
上諭軍機大臣曰成衮扎布等奏	-11.9089
戰大破之	-11.9105
閬州	-11.9111
八寸	-11.9113
加賞賚	-11.9121
黄潛善	-11.9129
剋	-11.9131
大將軍康親王傑書	-11.9131
囉	-11.9131
陳邦光	-11.9131
釘	-11.9133
抵臺灣	-11.9135
革什咱	-11.9135
恩克博羅特	-11.9136
昴	-11.9137
納木扎爾	-11.9137
劓	-11.9138
徐秉哲	-11.9138
該二犯	-11.9138
慼	-11.9139
刦掠	-11.9139
嘉努	-11.9139
欽定四庫全書平定準噶爾方略前編卷	-11.914
錫克錫爾格	-11.914
飼秣	-11.914
太常少卿	-11.914
事無大小	-11.914
督撫提鎮	-11.9141
故有是命	-11.9141
佾	-11.9142
臆	-11.9142
軍承宣使	-11.9143
攫	-11.9143
太祖太宗	-11.9143
賾	-11.9143
雁	-11.9143
音濟圖	-11.9144
衿	-11.9144
霆	-11.9144
資政殿學士	-11.9144
叔孫豹	-11.9145
攄	-11.9145
奢侈	-11.9145
鄧艾	-11.9145
宣慰司	-11.9145
脈	-11.9145
肩輿	-11.9146
叅賛	-11.9146
祖良璧	-11.9146
憤懣	-11.9147
拾遺記	-11.9147
怠玩	-11.9147
耜	-11.9147
太子少保	-11.9147
蜂起	-11.9149
鎛	-11.9149
杆	-11.9149
瀚	-11.9149
舞弊	-11.915
篋	-11.915
欒黶	-11.9151
鉶	-11.9151
險峻	-11.9151
八欽定四庫全書	-11.9152
襚	-11.9152
執其手	-11.9152
纉	-11.9152
貨賄	-11.9153
凌遲	-11.9154
拜稽首	-11.9155
赫赫	-11.9156
蕭衍	-11.9156
四川總督	-11.9156
剡	-11.9157
文華殿	-11.916
籖	-11.9161
尉遲	-11.9161
準噶爾台吉	-11.9168
索丕	-11.9169
借支	-11.9169
赤倫	-11.9171
宮室	-11.9171
假借	-11.9175
公品級	-11.9177
千斤	-11.9177
驕奢	-11.9178
將軍費揚古	-11.9178
厄爾	-11.9178
夀張縣	-11.918
丞相泰	-11.9185
詐偽	-11.9187
掖門	-11.9193
盧蘇	-11.9199
若其不	-11.921
非正也	-11.9211
繼勲	-11.9212
嘉奬	-11.9216
儀仗	-11.9216
汝輩	-11.9224
六欽定四庫全書	-11.9266
𠞰禦	-11.9283
諾延	-11.9301
梓州	-11.9322
二十餘日	-11.9327
瑚畢勒罕	-11.933
王廷賛	-11.933
靖康元年	-11.9332
邲	-11.9333
軍糈	-11.9334
閔鶚元	-11.9336
辭不受	-11.9336
秃	-11.9336
韻	-11.9337
苻堅	-11.9337
一百七十	-11.9338
過天星	-11.9338
郭崇韜	-11.9338
交阯	-11.9339
雲騎尉	-11.9339
三百五十	-11.9339
摠	-11.9339
閶	-11.9339
子墨子曰	-11.934
議奏尋議	-11.934
搃	-11.934
讃	-11.9341
盤庚	-11.9342
綘	-11.9342
奬勵	-11.9342
弹壓	-11.9342
巴圗魯	-11.9342
療	-11.9344
阿喇衲	-11.9344
集議議曰	-11.9344
上諭理藩院曰	-11.9345
不動聲色	-11.9346
俄齊爾	-11.9346
山猪毛	-11.9346
顚	-11.9346
輯睦	-11.9346
綎	-11.9347
袤	-11.9347
沓	-11.9347
傅魁	-11.9348
蒞	-11.9348
憶	-11.9349
饕	-11.9349
越絶書	-11.9349
枹罕	-11.935
苫	-11.935
疚	-11.935
議政王貝勒大臣	-11.935
汲汲	-11.935
䝉塵	-11.9351
水潦	-11.9351
公孫述	-11.9351
鄯善	-11.9352
接踵	-11.9352
阿必達	-11.9352
洙	-11.9352
鴨	-11.9353
宣徽使	-11.9353
抉	-11.9354
掊	-11.9354
衰絰	-11.9354
穡	-11.9354
偓	-11.9354
䋲	-11.9355
張孝純	-11.9355
賦税	-11.9355
維艱	-11.9355
櫛	-11.9356
涂	-11.9356
悶	-11.9356
文武官員	-11.9356
商雒	-11.9357
誚	-11.9357
税賦	-11.9357
諭定邊左副將軍成衮扎布等	-11.9358
越王句踐	-11.9358
四面圍	-11.9358
州司户	-11.936
誹謗	-11.9361
葉爾羌等處	-11.9361
涿易	-11.9362
田令孜	-11.9362
和卓木	-11.9364
東平府	-11.9365
公祏	-11.9365
摺内稱	-11.9365
綠營	-11.9366
陛辭	-11.9366
減半	-11.9366
叩首	-11.9367
扣除	-11.9368
太平公主	-11.9368
王安中	-11.9368
左金吾	-11.9369
丞相歡	-11.9369
太常卿	-11.937
巴塘	-11.9371
痛哭	-11.9374
擊却之	-11.9377
積弊	-11.9385
逺邇	-11.9385
孟津	-11.9385
渝盟	-11.9386
申胥	-11.9386
石零	-11.9387
訓示	-11.9393
詰責	-11.9407
具摺	-11.9413
臣等伏思	-11.9419
百餘萬	-11.9439
孔子孔子	-11.9444
淮泗	-11.9451
七尺	-11.9454
一千八百	-11.949
九欽定四庫全書	-11.9515
阿克蘇辦事	-11.9538
竑	-11.9539
沙磧	-11.954
鰲	-11.9542
䜿	-11.9542
十年春正月	-11.9542
諮議參軍	-11.9542
塞卜騰巴兒珠爾	-11.9543
猪	-11.9545
枹	-11.9546
湘東王繹	-11.9546
特古斯	-11.9547
掌書記	-11.9547
磊	-11.9548
宇文虚中	-11.9548
龍尾山	-11.9548
喇嘛達爾扎	-11.9548
么䯢	-11.9549
折彦質	-11.9549
嬰城固守	-11.955
應如所奏辦理	-11.955
旺布多爾濟	-11.955
鱄	-11.9551
蕆功	-11.9551
蹻	-11.9552
阿卜都克勒木	-11.9552
倂	-11.9552
蒼梧	-11.9553
娥	-11.9553
怕	-11.9553
賵	-11.9554
朔漠	-11.9554
饔	-11.9554
困乏	-11.9554
翫	-11.9554
繚	-11.9555
匈	-11.9556
泣血	-11.9556
團結	-11.9556
鏞	-11.9556
都知兵馬使	-11.9556
訃	-11.9556
函谷	-11.9557
娛	-11.9557
駘	-11.9557
不聊生	-11.9557
牽綴	-11.9557
曙	-11.9558
穉	-11.9558
蟄	-11.9558
乾坤	-11.9559
貰	-11.9559
貔	-11.9559
湎	-11.956
羨	-11.956
兢	-11.9561
有憂色	-11.9561
尚書僕射	-11.9561
嫚	-11.9561
博碩克圖	-11.9562
沙鉢略	-11.9562
噫	-11.9563
醒	-11.9563
垂拱	-11.9563
肥壯	-11.9563
武王伐紂	-11.9564
糟	-11.9564
應天府	-11.9564
㐮陽	-11.9565
蠶食	-11.9567
巴里坤辦事大臣	-11.9567
芝龍	-11.9568
尼麻唐庫圖克圖	-11.9569
田疇	-11.9569
簇	-11.957
漠北	-11.9571
跛	-11.9572
河東河北	-11.9573
千把	-11.9574
漁父	-11.9574
整肅	-11.9575
瞻顧	-11.9575
農桑	-11.9576
黄巾	-11.9576
紹述	-11.9578
騷然	-11.9579
衣裳	-11.9579
譬猶	-11.9579
軍旅之事	-11.9585
熟識	-11.9585
被創	-11.9587
奏入上命	-11.9588
養育	-11.9591
遊撃	-11.9591
以謝天下	-11.9595
季札	-11.9596
斥逐	-11.9601
曰何故對曰	-11.9601
右賢王	-11.9603
預防	-11.9611
遥光	-11.9613
將軍馬思喀	-11.9634
割三鎮	-11.9661
理藩院奏言	-11.9671
策凌烏巴什	-11.9674
據福康安奏	-11.9679
情詞	-11.9682
婺州	-11.9684
屈己	-11.969
熟諳	-11.9705
庸懦	-11.9735
蕆	-11.9747
照所請	-11.9751
碁	-11.9753
元祐皇后	-11.9753
鄂哲特	-11.9754
古爾班和卓	-11.9755
諾顏	-11.9756
喝	-11.9756
仿	-11.9756
遴	-11.9758
官吏軍民	-11.9759
廵檢	-11.9759
邉陲	-11.9759
銃	-11.9759
謝克家	-11.976
矟	-11.976
洱	-11.976
撝	-11.976
壺漿	-11.9761
將軍噶爾漢	-11.9761
一面奏聞一面	-11.9761
含糊	-11.9761
慴	-11.9761
焰	-11.9762
煌	-11.9762
嗷	-11.9762
元年春二月	-11.9763
詳晰	-11.9763
採辦	-11.9764
闗廂	-11.9764
遴選	-11.9764
博碩克圖濟農	-11.9764
攔截	-11.9764
鈇	-11.9764
盆楚克	-11.9765
諦	-11.9765
昆都倫	-11.9765
鐃	-11.9765
拚	-11.9766
阿霸垓	-11.9767
頋	-11.9767
阿那瓌	-11.9767
旗分佐領	-11.9767
龕	-11.9767
有虞氏	-11.9768
祫	-11.9768
毗伽	-11.9768
㸃檢	-11.9768
塩	-11.9768
峩	-11.9769
呈御覽	-11.9769
更换	-11.9769
皇帝廟號	-11.9769
公㑹齊侯	-11.977
布拉罕	-11.977
司禮監	-11.977
顙	-11.9771
嫂	-11.9771
瞀	-11.9771
婪	-11.9771
鵝	-11.9771
盩厔	-11.9771
髦	-11.9771
肉袒	-11.9771
呼沙呼	-11.9772
毗連	-11.9773
鐘磬	-11.9773
頷	-11.9773
者可亡也	-11.9773
孫覿	-11.9774
知制誥	-11.9775
冪	-11.9775
平定準噶爾	-11.9775
癘	-11.9775
瑤	-11.9775
籩豆	-11.9776
娑	-11.9778
簫	-11.9778
宫闈	-11.9778
加𦂳	-11.9778
中書監	-11.9779
乾祐	-11.9779
㑹議具奏	-11.9779
旴𣅿	-11.978
洋洋	-11.9781
情愿	-11.9781
鼈	-11.9782
李希烈	-11.9782
國之君	-11.9783
國子監	-11.9783
榆次	-11.9784
剛柔	-11.9785
播種	-11.9786
巷戰	-11.9786
廟算	-11.9787
延頸	-11.9787
尅日	-11.9787
矯㫖	-11.9788
氐羌	-11.9788
為人後者	-11.9789
陳永福	-11.9789
陳敬瑄	-11.9789
二年春三月	-11.9791
漢軍火器營	-11.9794
酌量加恩	-11.9794
寡人寡人	-11.98
姑孰	-11.98
銀一兩	-11.9804
授為三等侍衛	-11.9824
運籌	-11.9832
常青藍元枚	-11.986
擒挐	-11.9873
内閣中書	-11.9898
彤弓	-11.9934
鄜州	-11.9947
八年春正月	-11.9969
睡	-11.9972
寧古塔	-11.9972
方為妥善	-11.9975
平灤	-11.9977
莱	-11.9977
絙	-11.9977
羅卜藏多爾濟	-11.9977
庥	-11.9978
濟爾噶爾	-11.9978
不勝懽忭	-11.9978
剩	-11.9979
𤦺	-11.9979
猴	-11.9979
騖	-11.9979
蕞爾	-11.9979
芽	-11.998
㨂選	-11.998
以示懲儆	-11.9982
馬三匹	-11.9982
檢校少保	-11.9983
噶卜倫	-11.9983
迸	-11.9983
鯁	-11.9984
桴	-11.9984
蕭幹	-11.9984
馬二匹	-11.9985
大兵雲集	-11.9986
麽	-11.9986
盡其日	-11.9986
遐邇	-11.9986
李文忠	-11.9987
常青恒瑞	-11.9987
澠池	-11.9987
悰	-11.9988
臣僚上言	-11.9988
嚚	-11.9988
烏魯特	-11.9989
綢	-11.999
膽落	-11.999
希範	-11.999
藍翎侍衞	-11.9991
爾朱榮	-11.9992
儐	-11.9992
東川節度使	-11.9993
僂	-11.9993
虖	-11.9994
聫	-11.9995
繭	-11.9995
積薪	-11.9995
皇泰主	-11.9995
焚香	-11.9996
柬	-11.9998
氏為皇后	-11.9999
蘇努	-11.9999
朱熹	-12
梟示	-12
準噶爾使臣	-12.0001
其亡乎	-12.0002
日月星辰	-12.0003
齡石	-12.0003
禁錮	-12.0003
明正典刑	-12.0006
楊光逺	-12.0006
克什圖	-12.0007
老㓜	-12.0008
舅姑	-12.0008
徼幸	-12.0019
容貌	-12.002
瑞體	-12.0044
之為人也	-12.0046
開門納	-12.0047
誠悃	-12.0065
阿奇木伯克	-12.0067
丈餘	-12.007
石至者	-12.0077
千餘隻	-12.0084
此五者	-12.0084
追躡	-12.0135
曷為不言	-12.0136
九年春正月	-12.0163
國信使	-12.0168
孳	-12.0182
土魯番	-12.0184
憒	-12.0192
佔踞	-12.0193
出示曉諭	-12.0194
硝	-12.0195
跴	-12.0196
瀝	-12.0197
檝	-12.0197
淝	-12.0197
奮不顧身	-12.0198
姊妹	-12.0199
阻滯	-12.02
畛	-12.0201
航海	-12.0201
綽斯甲	-12.0201
拏解來京	-12.0201
酬庸	-12.0201
宋徐夢莘撰靖康中帙起靖康元年	-12.0201
阿克蘓	-12.0201
同心協力	-12.0201
榭	-12.0202
子子孫孫	-12.0202
串	-12.0203
𣢾	-12.0203
蘇爾達	-12.0204
宋宗璋	-12.0204
枷號	-12.0204
喀喇和卓	-12.0204
紛紜	-12.0205
屹	-12.0205
傅宏烈	-12.0205
鬛	-12.0205
液	-12.0205
重治其罪	-12.0205
宇宙	-12.0205
格圖肯	-12.0206
擡	-12.0206
窑	-12.0206
鯨	-12.0206
葆	-12.0207
衮冕	-12.0207
班禪庫圖克圖	-12.0207
罟	-12.0209
甦	-12.0209
靖逆將軍富寧安	-12.0209
姧	-12.0209
烽火	-12.0209
破之必矣	-12.021
淄青	-12.021
諍	-12.021
糓梁傳	-12.021
吃	-12.0211
蹔	-12.0211
搶掠臺站	-12.0211
闢展等處	-12.0211
掘井	-12.0212
諌議大夫	-12.0213
舋	-12.0213
裹帶	-12.0213
建炎三年	-12.0213
霖雨	-12.0213
稽時日	-12.0213
嚢	-12.0213
車騎大將軍	-12.0213
徐處仁	-12.0214
肄	-12.0214
伾	-12.0214
荀罃	-12.0214
技藝	-12.0214
飱	-12.0214
阡	-12.0214
酈瓊	-12.0215
㺯	-12.0216
萱	-12.0216
慆	-12.0217
甬	-12.0217
挑補	-12.0218
戩	-12.0218
呈覽	-12.0219
桷	-12.0219
穆呼哩	-12.022
哈柳	-12.022
敵愾	-12.0221
奸匪	-12.0224
伏覩	-12.0224
區别	-12.0224
䍐	-12.0224
密邇	-12.0225
烏里雅蘇台軍營	-12.0226
殊堪	-12.0227
醯	-12.0227
邊汛	-12.0228
輈	-12.023
増添	-12.0231
貧窮	-12.0232
黔省	-12.0234
和起等	-12.0235
鄉村	-12.0241
慎矜	-12.0243
議具奏尋議	-12.0244
魯哀公	-12.0244
㕘贊大臣阿桂	-12.0266
二百八十	-12.028
七欽定四庫全書	-12.0289
事宜軍機大臣奏言	-12.0388
李侍堯剛塔	-12.0391
株連	-12.04
嚴緝	-12.0405
𢎞範	-12.0411
陜甘二省	-12.042
孜	-12.0422
靄	-12.0423
映	-12.0423
以逸待勞	-12.0424
納克楚	-12.0425
庫爾勒	-12.0425
諭伊犂將軍明瑞	-12.0425
煑	-12.0426
屯練降畨	-12.0426
薙	-12.0426
車里克齊	-12.0428
安設卡倫	-12.0428
儂	-12.0429
勞瘁	-12.0429
劣蹟	-12.043
肝腦塗地	-12.043
上諭軍機大臣等曰	-12.043
辦理軍機大臣等議	-12.043
什翼犍	-12.043
阿里雅	-12.043
烏朱穆秦	-12.043
翺	-12.0431
綽克托	-12.0431
埀	-12.0431
郾	-12.0432
酆	-12.0432
蜺	-12.0432
祁里徳	-12.0432
炯	-12.0433
水經注	-12.0433
奸宄	-12.0433
鳶	-12.0433
筵宴	-12.0434
螟	-12.0434
悠悠	-12.0434
寬	-12.0435
跂	-12.0435
遹	-12.0435
刀矛	-12.0436
凌遲處死	-12.0436
佶	-12.0436
豐訥亨	-12.0437
掃蕩	-12.0437
珊	-12.0438
關𦂳要	-12.0438
桞	-12.0438
䒭	-12.0438
察罕丹津	-12.0439
百萬之衆	-12.0439
鄶	-12.044
縫	-12.044
冐頓	-12.044
瀾	-12.044
祓	-12.044
詒	-12.0441
翕然	-12.0441
鰥寡	-12.0442
僧孺	-12.0442
脾	-12.0442
幹練	-12.0442
縊殺之	-12.0442
河陽節度使	-12.0444
四海之内	-12.0444
讟	-12.0446
訝	-12.0446
韭	-12.0447
剪除	-12.0448
紫荆	-12.045
國號大	-12.0452
彦暉	-12.0455
蘧伯玉	-12.0457
伺候	-12.046
題補	-12.046
曼濟	-12.0461
虧空	-12.0462
猗盧	-12.0464
泣涕	-12.0496
教坊	-12.0505
五百餘名	-12.0517
邊徼	-12.0534
虓	-12.0631
莠	-12.0647
孥	-12.0649
熖	-12.0649
鬢	-12.065
系	-12.065
卓鼐	-12.0651
兠	-12.0652
總督蔡毓榮	-12.0652
磡	-12.0654
黄奠邦	-12.0656
煬	-12.0656
水陸並進	-12.0657
邁喇木	-12.0658
羅克倫	-12.0658
順流而下	-12.0659
誌	-12.066
敷倫泰	-12.066
應如所奏	-12.066
軟	-12.066
靑	-12.066
識認	-12.0661
嚌	-12.0661
呼爾璊	-12.0663
嵯	-12.0663
宸衷	-12.0664
鑲黄旗	-12.0664
狡獪	-12.0664
聫絡	-12.0664
圖薩布	-12.0665
慱	-12.0665
砌	-12.0666
黶	-12.0666
夫人姜氏	-12.0666
郿	-12.0666
蛟龍	-12.0666
坐失事機	-12.0666
鈴	-12.0667
額爾德尼伯克	-12.0667
䙝	-12.0667
畤	-12.0667
鄄	-12.0668
門下侍郎同平章事	-12.0668
醇	-12.0669
馬四匹	-12.0669
吳越春秋	-12.0669
錦繡	-12.0669
拉旺多爾濟阿思哈	-12.0669
扎木禪	-12.067
駐兵屯田	-12.067
啖	-12.0671
䝉恬	-12.0671
擾攘	-12.0671
魂魄	-12.0671
布庫努特	-12.0671
侵漁	-12.0672
大將軍貝勒尚善	-12.0672
欒武子	-12.0673
喪服小記	-12.0673
討平之	-12.0674
汁	-12.0674
接伴	-12.0674
粢	-12.0674
驃信	-12.0675
鄖撫	-12.0675
田承嗣	-12.0676
西螺	-12.0676
裁撤	-12.0676
渭橋	-12.0677
哈薩克布魯特	-12.0678
􁂥	-12.0678
翅	-12.0678
藩屏	-12.0679
畜産	-12.0679
薄暮	-12.0681
溷	-12.0681
米脂	-12.0683
鉗	-12.0683
州鎮撫使	-12.0685
泠	-12.0686
忠義之士	-12.0695
亡無日矣	-12.0697
二百二十	-12.0698
君臣上下	-12.0713
牧犍	-12.0716
佺期	-12.0717
建炎元年	-12.0718
福康安到彼	-12.0735
鎗砲打死賊匪	-12.0757
兵馬大元帥	-12.0775
每佐領䕶軍	-12.0776
涿郡	-12.0789
千餘騎	-12.0856
敗賊於	-12.0869
璩	-12.0873
赴熱河	-12.0874
㓙	-12.0887
府二人史	-12.0888
笮	-12.0888
馳驛來京	-12.089
莽蘇爾	-12.0891
戸部尚書	-12.0891
媾	-12.0892
靚	-12.0893
挨	-12.0893
徐知誥	-12.0893
托克三	-12.0893
二郎保	-12.0894
槽	-12.0895
大鴻臚	-12.0896
齮	-12.0897
賑䘏	-12.0899
馬二千匹	-12.0899
歸田里	-12.0899
孫傅庭	-12.09
紬	-12.09
庫克新	-12.09
㕘賛	-12.09
躱	-12.09
四衛喇特	-12.09
萬里之外	-12.0901
玊	-12.0902
馹	-12.0902
銜枚	-12.0902
樊廷	-12.0903
滉	-12.0903
軍務告竣	-12.0903
孫林父	-12.0903
烏竒邁	-12.0903
轉禍為福	-12.0904
拽	-12.0904
昺	-12.0905
籙	-12.0905
𦍑	-12.0906
張應昌	-12.0906
姦宄	-12.0906
纊	-12.0907
溝壕	-12.0907
肌	-12.0907
扉	-12.0907
包藏禍心	-12.0907
簞	-12.0908
杜稜	-12.0908
抃	-12.0908
拭	-12.0909
迤邐	-12.0909
緹	-12.091
鉦	-12.091
祲	-12.0911
李嗣昭	-12.0911
拊循	-12.0911
䇿零敦多卜	-12.0911
中兵參軍	-12.0912
感悟	-12.0912
忷	-12.0912
籍𨽻	-12.0913
頺	-12.0913
偏禆	-12.0914
猛獸	-12.0914
俛首	-12.0914
誹	-12.0914
敗金人於	-12.0915
侗	-12.0915
七百餘名	-12.0916
不可不察也	-12.0917
舄	-12.0917
熊羆	-12.0918
姑姊妹	-12.092
楊漣	-12.0921
齋戒	-12.0923
雌雄	-12.0925
以此觀之	-12.0926
鄂爾泰	-12.0927
蒙遜	-12.0931
臨軒	-12.0946
葉爾羌辦事	-12.0972
該道府	-12.0974
躡其後	-12.0975
上諭議政王等	-12.0999
忌諱	-12.1017
烏魯木齊辦事	-12.1078
庭芝	-12.1133
租税	-12.1133
平定金川方略卷	-12.1134
呼濟爾	-12.1135
􁇳	-12.1135
轎	-12.1135
斜谷	-12.1136
水沙連	-12.1137
圖克坦	-12.1138
硬	-12.1138
忙	-12.114
肜	-12.114
朐	-12.114
褁	-12.114
鑊	-12.114
侍郎玉保	-12.1142
塔爾瑪善	-12.1142
葱	-12.1142
四子部落	-12.1143
以期迅速	-12.1143
罃	-12.1143
炒	-12.1144
赧	-12.1144
圖布慎	-12.1144
毖	-12.1144
僰	-12.1144
欽天監	-12.1144
献	-12.1144
慣	-12.1145
罪不容誅	-12.1145
衫	-12.1145
旭	-12.1145
淆	-12.1145
綫	-12.1145
盞	-12.1145
一勞永逸	-12.1145
聮	-12.1145
魅	-12.1146
榦	-12.1146
唁	-12.1146
鶻	-12.1147
瞭	-12.1147
吭	-12.1148
莎	-12.1149
靦	-12.1149
滙	-12.1149
盃	-12.1149
㔻	-12.1149
堇	-12.115
霈	-12.115
軋	-12.1151
鋌	-12.1152
朶	-12.1152
晁	-12.1154
俛	-12.1155
掇	-12.1155
珩	-12.1155
訕	-12.1155
愀	-12.1157
洒	-12.1158
涌	-12.1161
崈	-12.118
蕤	-12.1182
窃	-12.1383
辧	-12.1388
鐩	-12.1389
陝	-12.139
硤	-12.139
枵	-12.139
惋	-12.1391
癰	-12.1392
晶	-12.1393
焜	-12.1394
禡	-12.1395
帙	-12.1395
蹊	-12.1395
婿	-12.1395
濃	-12.1396
翀	-12.1398
箱	-12.1398
圏	-12.1399
鏘	-12.14
惛	-12.1401
脆	-12.1401
幬	-12.1402
嗾	-12.1402
㬰	-12.1403
菟	-12.1403
囤	-12.1404
娱	-12.1404
沭	-12.1405
摭	-12.1405
裸	-12.1406
湮	-12.1406
鶚	-12.1406
腑	-12.1407
湓	-12.1409
悴	-12.142
刎	-12.1622
瀰	-12.1639
柸	-12.164
碍	-12.1645
鐫	-12.1645
拍	-12.1645
査	-12.1647
謄	-12.1647
蛤	-12.1647
秒	-12.1648
蝟	-12.1648
濼	-12.1649
愜	-12.1651
懣	-12.1651
襍	-12.1652
綳	-12.1653
􁝠	-12.1654
贅	-12.1655
寀	-12.1655
喋	-12.1656
礫	-12.1657
脤	-12.1658
翬	-12.1658
鍊	-12.1658
愴	-12.1658
秪	-12.1658
剉	-12.1659
狙	-12.1659
燿	-12.166
懟	-12.166
崤	-12.166
櫓	-12.1661
窕	-12.1661
塡	-12.1661
楫	-12.1661
鰌	-12.1662
蹷	-12.1662
穽	-12.1662
漬	-12.1663
忬	-12.1668
縯	-12.1684
蠅	-12.1687
繅	-12.1702
汀	-12.1778
肖	-12.1845
澶	-12.1848
晰	-12.1874
竺	-12.1901
崑	-12.1905
㬠	-12.1906
鯤	-12.1906
邛	-12.1907
縈	-12.1909
僨	-12.1911
臬	-12.1913
䆳	-12.1914
匀	-12.1915
岩	-12.1915
褂	-12.1915
掉	-12.1916
尖	-12.1916
湍	-12.1917
畚	-12.1918
曆	-12.1918
唘	-12.1918
喊	-12.1919
陴	-12.1919
瑩	-12.192
鷂	-12.192
徔	-12.1921
麒	-12.1921
箝	-12.1922
妺	-12.1923
幻	-12.1924
湣	-12.1927
璨	-12.1929
紈	-12.1929
薫	-12.193
畮	-12.1951
氶	-12.2172
週	-12.2179
拷	-12.2179
倅	-12.2181
昩	-12.2181
岔	-12.2182
硃	-12.2182
訶	-12.2183
珉	-12.2183
悠	-12.2184
蒋	-12.2184
荔	-12.2185
謠	-12.2186
貿	-12.2186
宕	-12.2187
絢	-12.2188
婼	-12.2189
圎	-12.219
壙	-12.219
豬	-12.2191
伽	-12.2191
沱	-12.2192
憸	-12.2192
鏗	-12.2192
蓺	-12.2192
暘	-12.2192
仄	-12.2193
璿	-12.2193
掦	-12.2193
祟	-12.2193
債	-12.2193
縑	-12.2195
獮	-12.2195
坌	-12.2196
喘	-12.2199
袪	-12.2199
蕡	-12.22
紱	-12.2202
澣	-12.2203
藜	-12.2206
腎	-12.2207
穗	-12.2212
濰	-12.2447
廋	-12.2449
丒	-12.245
凜	-12.2451
犨	-12.2455
楮	-12.2455
栰	-12.2456
磯	-12.2457
鑕	-12.246
檔	-12.2461
緫	-12.2462
韐	-12.2462
洹	-12.2462
鍵	-12.2462
柝	-12.2463
睽	-12.2464
侄	-12.2464
滸	-12.2465
瓶	-12.2465
倮	-12.2466
熒	-12.2466
獷	-12.2466
齕	-12.2466
开	-12.2467
璝	-12.2467
噉	-12.2467
隤	-12.2468
啗	-12.2468
囷	-12.247
殮	-12.247
侏	-12.247
籬	-12.247
笥	-12.2471
趋	-12.2471
讚	-12.2471
撼	-12.2472
綾	-12.2472
醬	-12.2474
軹	-12.2474
霤	-12.2475
媧	-12.2475
爌	-12.2475
攖	-12.2478
眠	-12.2479
酤	-12.2482
虡	-12.2494
廿	-12.2735
鑼	-12.2735
蜃	-12.2737
莾	-12.2737
航	-12.274
瑁	-12.2741
𤾉	-12.2744
閆	-12.2748
薯	-12.2749
勗	-12.275
咏	-12.275
烙	-12.275
僥	-12.275
橘	-12.2751
燄	-12.2751
鼂	-12.2752
獅	-12.2754
肢	-12.2754
耑	-12.2755
凃	-12.2755
晳	-12.2758
塜	-12.2759
万	-12.2759
歧	-12.276
別	-12.276
爍	-12.2761
洫	-12.2761
祊	-12.2761
湆	-12.2762
佻	-12.2763
簟	-12.2764
猊	-12.2765
騂	-12.2765
罸	-12.2766
筓	-12.2766
璀	-12.2767
栖	-12.2768
慾	-12.2769
瑑	-12.2789
滎	-12.2974
蜩	-12.3025
驃	-12.3031
净	-12.3033
茵	-12.3034
謖	-12.3034
?	-12.3037
挹	-12.3038
藎	-12.3038
腿	-12.3039
猫	-12.304
佺	-12.304
褥	-12.3041
茸	-12.3043
庀	-12.3044
攤	-12.3045
洸	-12.3046
杪	-12.3046
獒	-12.3046
絮	-12.3047
夬	-12.3049
裼	-12.3049
垜	-12.305
徨	-12.3052
沬	-12.3052
幘	-12.3053
糺	-12.3053
殳	-12.3054
斐	-12.3055
炅	-12.3056
諏	-12.3056
酺	-12.3057
飫	-12.3057
凰	-12.3058
沌	-12.3064
藿	-12.3064
餕	-12.3074
啻	-12.3267
鋹	-12.3328
煒	-12.333
逗	-12.3332
慺	-12.3336
饟	-12.3338
訂	-12.3338
丼	-12.3339
杳	-12.3341
劌	-12.3342
厈	-12.3343
霓	-12.3343
盔	-12.3344
髯	-12.3344
扳	-12.3344
圯	-12.3344
柞	-12.3344
栽	-12.3345
茷	-12.3345
朦	-12.3345
蜡	-12.3345
𥙷	-12.3346
瞞	-12.3347
帆	-12.3348
瑯	-12.3349
悸	-12.3349
鄗	-12.3349
跖	-12.335
濓	-12.3352
嘔	-12.3352
愒	-12.3352
孶	-12.3353
尨	-12.3353
彎	-12.3354
娯	-12.3355
櫝	-12.3356
褰	-12.3356
莞	-12.3358
翣	-12.3359
梨	-12.336
幢	-12.336
駸	-12.3361
蛾	-12.3362
紵	-12.3362
濋	-12.3363
氾	-12.3363
鑽	-12.3364
楙	-12.3634
廙	-12.3644
鴦	-12.3647
斡	-12.3648
澠	-12.365
騍	-12.3653
侁	-12.3653
笁	-12.3654
箋	-12.3654
猿	-12.3655
溯	-12.3656
靴	-12.3657
郫	-12.3657
竪	-12.3657
聆	-12.3657
隼	-12.3657
辮	-12.3658
碭	-12.3658
蘖	-12.3659
鍜	-12.3659
輳	-12.3659
嘴	-12.366
溘	-12.366
喁	-12.3661
貙	-12.3661
茀	-12.3662
繄	-12.3663
躧	-12.3663
壠	-12.3663
刪	-12.3664
兊	-12.3664
蚡	-12.3665
昃	-12.3665
瘍	-12.3667
悽	-12.3667
絕	-12.3668
罍	-12.3669
溱	-12.3669
缶	-12.3671
璆	-12.3671
虵	-12.3672
蜜	-12.3672
𧃊	-12.3673
剏	-12.3676
醤	-12.3681
楅	-12.3934
舡	-12.395
璮	-12.3963
関	-12.3966
娃	-12.3968
郅	-12.3968
溧	-12.3972
烜	-12.3974
針	-12.3976
爼	-12.3978
碌	-12.3979
閿	-12.3979
鄊	-12.3979
町	-12.3979
䓁	-12.398
㰱	-12.398
甑	-12.3981
翥	-12.3981
檐	-12.3982
畞	-12.3982
杕	-12.3982
峨	-12.3983
箸	-12.3983
沆	-12.3983
韙	-12.3983
樑	-12.3983
澮	-12.3983
跽	-12.3983
湔	-12.3983
玖	-12.3983
髓	-12.3983
倓	-12.3983
璇	-12.3984
鞌	-12.3984
鼙	-12.3985
朞	-12.3986
儷	-12.3987
楠	-12.3987
藹	-12.3988
呐	-12.3988
陿	-12.3988
兀	-12.3988
璹	-12.3989
幃	-12.3989
鄠	-12.399
菩	-12.399
熏	-12.399
姞	-12.3991
稾	-12.3991
痾	-12.3991
柤	-12.3991
鞗	-12.3991
彄	-12.3992
皿	-12.3994
郇	-12.3996
玦	-12.4004
脰	-12.401
枳	-12.401
郴	-12.4263
駹	-12.4303
棊	-12.4305
啣	-12.4305
獺	-12.4309
憝	-12.431
睨	-12.4312
窠	-12.4312
䲭	-12.4312
毳	-12.4314
鞘	-12.4314
玁	-12.4315
啄	-12.4315
杓	-12.4315
騭	-12.4316
𤨏	-12.4316
棻	-12.4316
棼	-12.4317
剗	-12.4317
宙	-12.4317
𣏌	-12.4317
罙	-12.4318
恫	-12.4318
駛	-12.4318
簠	-12.4319
畼	-12.4319
霾	-12.4319
盱	-12.4319
䞇	-12.4319
徠	-12.4319
餅	-12.432
骼	-12.432
澌	-12.432
搤	-12.4321
紗	-12.4321
沫	-12.4322
柶	-12.4322
泳	-12.4322
歃	-12.4322
挂	-12.4323
猖	-12.4323
趯	-12.4323
卉	-12.4324
鉢	-12.4324
兗	-12.4324
呪	-12.4325
斿	-12.4325
泆	-12.4326
痕	-12.4327
絛	-12.4328
祸	-12.4328
嘻	-12.4328
蝥	-12.433
垍	-12.4331
紡	-12.4332
衎	-12.4333
勷	-12.4637
躔	-12.4648
禩	-12.4648
阽	-12.4648
蹋	-12.465
澂	-12.465
劈	-12.4652
掄	-12.4653
趫	-12.4654
瓛	-12.4656
癡	-12.4656
琕	-12.4656
轘	-12.4659
誄	-12.4659
郳	-12.4662
偫	-12.4662
轝	-12.4663
轢	-12.4663
嚻	-12.4663
窒	-12.4663
璃	-12.4664
璡	-12.4664
媪	-12.4664
袐	-12.4665
攅	-12.4665
邙	-12.4665
戱	-12.4666
飴	-12.4666
澨	-12.4666
躓	-12.4666
騈	-12.4668
睫	-12.4669
頎	-12.467
嗛	-12.4671
适	-12.4671
遘	-12.4672
很	-12.4672
烖	-12.4673
拐	-12.4673
壄	-12.4675
萑	-12.4677
銛	-12.4678
苓	-12.4678
縵	-12.4682
塈	-12.4684
偁	-12.4686
諲	-12.4982
膂	-12.4993
筰	-12.5004
㨂	-12.5005
灤	-12.5005
淅	-12.5007
鬷	-12.5011
蔴	-12.5012
鈕	-12.5013
觜	-12.5014
洊	-12.5015
芈	-12.5016
紞	-12.5016
翮	-12.5017
柷	-12.5017
竢	-12.5018
蠎	-12.5018
捫	-12.5018
豋	-12.5018
憖	-12.5018
浣	-12.5018
髻	-12.5019
贜	-12.5019
棐	-12.502
螫	-12.502
䄂	-12.502
份	-12.502
疥	-12.502
豸	-12.5021
醸	-12.5021
齪	-12.5022
塤	-12.5023
鷺	-12.5023
倬	-12.5023
闋	-12.5024
螭	-12.5024
鴞	-12.5025
譆	-12.5026
耼	-12.5027
鼉	-12.5027
椘	-12.5028
締	-12.5029
妲	-12.5029
褘	-12.503
傀	-12.503
寑	-12.503
槨	-12.5031
廄	-12.5032
芸	-12.5033
佼	-12.5042
窪	-12.5373
廨	-12.5379
碣	-12.538
噎	-12.5381
梵	-12.5382
桔	-12.5382
芾	-12.5382
畸	-12.5383
皐	-12.5383
匾	-12.5384
鄘	-12.5385
杌	-12.5385
骫	-12.5385
墯	-12.5385
捆	-12.5386
擘	-12.5386
莢	-12.5386
卨	-12.5387
𦕈	-12.5388
粧	-12.5388
惧	-12.5388
瑙	-12.5389
栻	-12.5389
蘧	-12.5389
籐	-12.5389
捏	-12.539
琇	-12.539
躇	-12.539
瘼	-12.539
营	-12.5391
咈	-12.5393
暈	-12.5393
咥	-12.5393
腕	-12.5395
聵	-12.5395
晸	-12.5396
貊	-12.5396
璐	-12.5396
蹌	-12.5396
謔	-12.5397
鷇	-12.5397
忮	-12.5398
眄	-12.5398
戅	-12.5399
饜	-12.5399
濩	-12.5401
蘩	-12.5401
卣	-12.5403
陁	-12.5403
鏊	-12.5404
蠃	-12.5404
蹴	-12.5406
珦	-12.5408
陲	-12.5724
棹	-12.5752
猓	-12.5754
朏	-12.5756
髽	-12.5757
㟁	-12.5758
輜	-12.5759
搴	-12.576
牂	-12.5761
蠭	-12.5763
荻	-12.5763
姫	-12.5765
弹	-12.5766
挪	-12.5766
閠	-12.5768
蹉	-12.5768
穣	-12.5768
􁇔	-12.5769
蕙	-12.577
徯	-12.577
堊	-12.577
餮	-12.577
兜	-12.5771
檮	-12.5772
敲	-12.5772
鵞	-12.5772
餱	-12.5772
嚙	-12.5774
傘	-12.5775
扃	-12.5775
嘖	-12.5775
冇	-12.5776
肚	-12.5777
譔	-12.5777
朘	-12.5777
閧	-12.5777
淘	-12.5777
餵	-12.5778
壟	-12.5778
蘋	-12.5779
懃	-12.5779
姣	-12.578
墀	-12.5781
庵	-12.5781
錬	-12.5781
倔	-12.5782
嘽	-12.5782
筥	-12.5782
槀	-12.5784
廧	-12.5784
烘	-12.5786
窳	-12.5788
閈	-12.5788
蕢	-12.5795
熬	-12.5798
憔	-12.58
悒	-12.58
湝	-12.5804
埓	-12.6148
勰	-12.615
岢	-12.6153
臏	-12.6156
曮	-12.6157
怱	-12.616
㠶	-12.616
瀋	-12.6163
喏	-12.6163
詮	-12.6164
斝	-12.6165
㛰	-12.6166
楓	-12.6167
賨	-12.6167
頇	-12.6167
䆒	-12.6168
尫	-12.6169
狭	-12.6169
躊	-12.6169
搔	-12.6169
絻	-12.617
鋋	-12.617
㐫	-12.6171
珮	-12.6171
庳	-12.6172
綁	-12.6172
㣧	-12.6174
窴	-12.6174
炕	-12.6174
痺	-12.6175
桁	-12.6176
鄔	-12.6176
躐	-12.6176
筑	-12.6177
俅	-12.6177
鬰	-12.6178
鍔	-12.6179
儧	-12.6179
帚	-12.6179
濙	-12.618
鞞	-12.6181
亰	-12.6182
牾	-12.6182
笫	-12.6182
蚊	-12.6182
糲	-12.6183
澍	-12.6184
慍	-12.6184
肓	-12.6186
􁱾	-12.6186
汨	-12.6187
夣	-12.6187
絏	-12.6189
煨	-12.6189
蠋	-12.619
鶩	-12.6196
飧	-12.6198
蔥	-12.6199
羹	-12.6212
恁	-12.657
灞	-12.657
昀	-12.6571
綍	-12.6575
鸛	-12.6577
慬	-12.6581
盻	-12.6582
尙	-12.6583
壼	-12.6583
燝	-12.6585
煤	-12.6585
襦	-12.6585
壐	-12.6586
閙	-12.6586
歂	-12.6586
斑	-12.6586
滴	-12.6586
罽	-12.6587
讞	-12.6587
瞬	-12.6587
稗	-12.6588
憨	-12.6588
艋	-12.6589
蝝	-12.659
禫	-12.659
樗	-12.6591
犖	-12.6591
襖	-12.6591
筸	-12.6591
稳	-12.6592
簪	-12.6592
羑	-12.6592
怎	-12.6593
巍	-12.6593
粘	-12.6593
葅	-12.6594
蘿	-12.6594
埸	-12.6595
閟	-12.6595
瞳	-12.6595
㩀	-12.6596
簧	-12.6597
崕	-12.6597
媮	-12.6597
罝	-12.6597
肵	-12.6598
麛	-12.6599
讁	-12.6599
塚	-12.6599
娼	-12.6599
癉	-12.6599
塾	-12.6599
躒	-12.6599
賃	-12.66
聃	-12.6601
綈	-12.6601
桌	-12.6604
歜	-12.6604
淋	-12.6605
踦	-12.6606
禜	-12.6608
煇	-12.6609
軏	-12.6614
麕	-12.662
臝	-12.662
頫	-12.6627
龠	-12.6635
捭	-12.6636
崘	-12.6643
囗	-12.6969
屛	-12.7007
梭	-12.7008
氍	-12.7015
跬	-12.7015
竚	-12.7015
敔	-12.7016
趁	-12.7016
鍠	-12.7016
舵	-12.7016
佽	-12.7019
軺	-12.7019
酳	-12.7019
机	-12.702
㐲	-12.702
棋	-12.702
坼	-12.702
磽	-12.702
琅	-12.7021
戬	-12.7022
翽	-12.7022
讌	-12.7023
楪	-12.7023
酅	-12.7024
墠	-12.7024
芹	-12.7025
虒	-12.7025
蜻	-12.7025
嚞	-12.7025
嬙	-12.7025
彷	-12.7027
斁	-12.7027
梏	-12.7027
馱	-12.7027
診	-12.7027
苕	-12.7028
伷	-12.7029
蚩	-12.7029
嘷	-12.7029
洄	-12.703
雛	-12.703
嚇	-12.703
喈	-12.7031
恠	-12.7031
餔	-12.7031
棓	-12.7031
哆	-12.7032
喑	-12.7033
窈	-12.7033
矍	-12.7034
嵓	-12.7035
餗	-12.7035
酗	-12.7036
貅	-12.7036
晙	-12.7038
撮	-12.7038
溲	-12.7039
梢	-12.7041
鼷	-12.7041
眺	-12.7043
膜	-12.7047
憯	-12.7051
邶	-12.7055
膾	-12.7065
嚳	-12.7459
譓	-12.7462
螂	-12.7466
窽	-12.7467
騸	-12.7468
埏	-12.7469
豊	-12.747
鞋	-12.7471
噤	-12.7471
暾	-12.7472
鏁	-12.7473
嫺	-12.7473
穏	-12.7473
燉	-12.7473
燹	-12.7474
捄	-12.7474
鍚	-12.7475
裙	-12.7475
茭	-12.7476
吮	-12.7476
彀	-12.7476
孱	-12.7477
憬	-12.7479
楣	-12.7479
漷	-12.7479
窬	-12.7479
蔗	-12.748
礬	-12.748
狷	-12.7481
蹲	-12.7481
掬	-12.7481
糒	-12.7481
纖	-12.7481
遡	-12.7481
盇	-12.7481
蟣	-12.7482
蝨	-12.7482
杉	-12.7482
耉	-12.7483
匜	-12.7484
霫	-12.7484
騑	-12.7484
罘	-12.7484
揄	-12.7486
蔭	-12.7486
繻	-12.7486
菌	-12.7487
慓	-12.7488
暌	-12.7488
傚	-12.7489
跑	-12.749
瘖	-12.749
羶	-12.749
縢	-12.7492
颷	-12.7493
脀	-12.7494
啞	-12.7494
鄤	-12.7496
攢	-12.7496
簮	-12.7496
姨	-12.7497
蚌	-12.7497
臊	-12.7498
揉	-12.7499
胾	-12.7499
瑰	-12.75
躅	-12.7504
柟	-12.7505
慊	-12.7508
粃	-12.7511
鼃	-12.7512
犍	-12.7805
蜮	-12.7936
墈	-12.7936
瑫	-12.7938
舫	-12.794
絅	-12.7942
勩	-12.7942
靠	-12.7943
爺	-12.7944
內	-12.7945
矼	-12.7945
擦	-12.7946
綆	-12.7946
䴡	-12.7946
畵	-12.7947
螘	-12.7947
璵	-12.7947
裾	-12.7947
魔	-12.7947
溜	-12.7948
黁	-12.7948
訽	-12.7949
桉	-12.795
淶	-12.795
攩	-12.795
仭	-12.795
堦	-12.7951
茄	-12.7951
鏑	-12.7951
紲	-12.7952
埴	-12.7952
暝	-12.7952
瓴	-12.7952
媛	-12.7952
芷	-12.7953
茆	-12.7953
謩	-12.7954
坍	-12.7954
悄	-12.7954
鷁	-12.7954
㕓	-12.7956
眊	-12.7956
橛	-12.7957
泫	-12.7957
檣	-12.7957
硯	-12.7957
嗤	-12.7957
凹	-12.7957
矰	-12.7958
摽	-12.7958
牣	-12.7959
旟	-12.7959
鍪	-12.796
崛	-12.796
沍	-12.796
㢮	-12.796
闉	-12.796
薇	-12.7961
豭	-12.7961
磝	-12.7961
朓	-12.7961
庲	-12.7961
覯	-12.7961
媳	-12.7962
児	-12.7962
坫	-12.7962
樛	-12.7962
喫	-12.7962
煚	-12.7963
麀	-12.7963
䠞	-12.7964
煉	-12.7965
靁	-12.7966
斮	-12.7966
嶼	-12.7966
鼏	-12.7967
薑	-12.7968
甗	-12.7969
瑭	-12.7969
罋	-12.7969
鸜	-12.797
肴	-12.7977
靷	-12.798
琥	-12.7987
棁	-12.799
邽	-12.8416
鏖	-12.8429
雚	-12.8431
窝	-12.8435
瘝	-12.8438
惔	-12.8439
􁀌	-12.844
淞	-12.8441
謊	-12.8443
勱	-12.8444
縝	-12.8445
㩦	-12.8446
廚	-12.8447
霏	-12.8448
幔	-12.8449
啐	-12.845
劬	-12.845
𣪚	-12.8451
酪	-12.8451
洿	-12.8452
斲	-12.8452
芊	-12.8452
梃	-12.8452
麑	-12.8453
䂓	-12.8453
鈹	-12.8454
惎	-12.8454
􁂷	-12.8455
櫃	-12.8455
饉	-12.8455
腋	-12.8456
隩	-12.8456
杵	-12.8457
嵌	-12.8457
鼇	-12.8457
黻	-12.8457
㳙	-12.8457
瞶	-12.8457
呑	-12.8458
虬	-12.8458
齟	-12.8459
鶂	-12.8459
牷	-12.8459
祛	-12.846
欃	-12.846
紕	-12.8461
綌	-12.8461
跗	-12.8462
颶	-12.8462
矇	-12.8462
牴	-12.8463
渢	-12.8463
厎	-12.8464
哂	-12.8464
戇	-12.8464
芋	-12.8464
蓆	-12.8465
棫	-12.8465
滏	-12.8465
冏	-12.8466
瘵	-12.8466
捃	-12.8467
塋	-12.8467
贐	-12.8467
圈	-12.8469
伃	-12.8469
鵒	-12.847
藟	-12.8471
溵	-12.8473
鐲	-12.8476
鰥	-12.848
筍	-12.8481
頲	-12.8486
显	-12.893
椉	-12.895
凈	-12.8954
萍	-12.8956
昝	-12.896
笳	-12.8961
䓶	-12.8963
厖	-12.8966
蚝	-12.8967
撘	-12.8967
丏	-12.897
諗	-12.897
禔	-12.8971
壝	-12.8972
褎	-12.8972
哱	-12.8972
惮	-12.8972
𥚹	-12.8972
爬	-12.8973
甿	-12.8974
㕑	-12.8975
姝	-12.8976
蹠	-12.8976
嵇	-12.8977
璪	-12.8977
刅	-12.8977
踉	-12.8977
凴	-12.8977
媟	-12.8978
艨	-12.8978
軛	-12.8979
㽔	-12.8979
㬇	-12.8979
笛	-12.8979
旐	-12.8979
訌	-12.898
魑	-12.8981
淬	-12.8981
徕	-12.8981
􁗁	-12.8982
垠	-12.8982
腓	-12.8982
忞	-12.8982
娠	-12.8983
躪	-12.8983
椀	-12.8985
蝦	-12.8986
瀨	-12.8986
秫	-12.8986
莬	-12.8987
縗	-12.8987
怍	-12.8988
迕	-12.8988
憺	-12.8988
閾	-12.8989
簀	-12.8989
肻	-12.899
儵	-12.8991
擿	-12.8991
楛	-12.8991
篳	-12.8991
券	-12.8991
隈	-12.8991
琊	-12.8992
葫	-12.8992
淒	-12.8992
宁	-12.8993
抶	-12.8993
襁	-12.8993
姐	-12.8994
壖	-12.8994
匆	-12.8995
恇	-12.8995
燠	-12.8996
欬	-12.8996
遟	-12.8996
枲	-12.8998
繖	-12.9
瘧	-12.9004
韠	-12.9004
鐙	-12.9004
栩	-12.9009
兪	-12.901
觳	-12.9013
晜	-12.9502
斶	-12.9506
溽	-12.9508
怦	-12.951
檛	-12.9517
插	-12.9517
誆	-12.9525
汊	-12.9526
秤	-12.9526
衒	-12.9528
阱	-12.9529
恍	-12.9531
臀	-12.9531
攪	-12.9532
氂	-12.9532
恧	-12.9534
霪	-12.9534
𢷬	-12.9535
錞	-12.9535
仡	-12.9536
栝	-12.9536
雊	-12.9536
忖	-12.9537
憇	-12.9537
俳	-12.9537
燇	-12.9537
椅	-12.9538
鍰	-12.9538
賕	-12.9539
惹	-12.9539
蓉	-12.954
霣	-12.954
蹯	-12.9541
泂	-12.9541
匃	-12.9541
羖	-12.9542
樣	-12.9542
霉	-12.9542
絓	-12.9542
畦	-12.9543
憩	-12.9543
[...]
