<unk>	0
<s>	0
</s>	0
。	-2.30174
,	-3.89239
故	-4.36985
者	-4.83091
▁	-4.88365
(	-4.97926
)	-5.01149
二	-5.02132
*	-5.17092
以	-5.22302
為	-5.26846
也	-5.30657
三	-5.32805
、	-5.37334
一	-5.40591
即	-5.41635
中	-5.45631
是	-5.50399
有	-5.57691
之	-5.60412
等	-5.63241
下	-5.64158
名	-5.66308
;	-5.68647
心	-5.68651
法	-5.71335
此	-5.72029
行	-5.73494
於	-5.75571
如	-5.77621
四	-5.78089
謂	-5.78674
菩薩	-5.79387
無	-5.80943
明	-5.92859
而	-5.94085
佛	-5.97503
說	-5.97671
相	-5.98181
不	-6.01484
一切	-6.03159
言	-6.04292
得	-6.10127
智	-6.11575
義	-6.11808
生	-6.12227
若	-6.15059
後	-6.17944
身	-6.21121
皆	-6.21885
五	-6.22987
非	-6.24614
。】「	-6.24889
。」【	-6.259
入	-6.26329
及	-6.27944
則	-6.28265
見	-6.2941
眾生	-6.29545
如來	-6.32893
其	-6.33987
時	-6.34519
成	-6.36243
因	-6.36424
亦	-6.37456
云	-6.38884
初	-6.40143
彼	-6.40462
至	-6.42768
大	-6.46374
如是	-6.4939
住	-6.49643
十	-6.50015
又	-6.50378
諸	-6.50971
知	-6.53902
同	-6.55343
起	-6.56388
上	-6.56854
自	-6.57342
觀	-6.57506
人	-6.60153
能	-6.60847
前	-6.60937
六	-6.61492
處	-6.65667
清淨	-6.67789
依	-6.67842
與	-6.6794
所	-6.68106
現	-6.68558
分	-6.69039
令	-6.69174
門	-6.69297
經	-6.70044
從	-6.7094
果	-6.72951
顯	-6.74102
通	-6.74259
事	-6.74522
然	-6.75527
意	-6.76852
疏	-6.76938
或	-6.7706
無量	-6.77501
修	-6.78107
七	-6.79083
道	-6.79737
多	-6.81166
今	-6.81412
問	-6.82709
善	-6.83741
淨	-6.83979
離	-6.85538
在	-6.86
佛子	-6.8674
八	-6.87231
由	-6.87678
常	-6.88139
法界	-6.88196
出	-6.88864
次	-6.89555
地	-6.90222
願	-6.90953
釋	-6.92392
性	-6.92572
喻	-6.92936
具	-6.9298
眾	-6.9312
教	-6.93883
我	-6.93972
業	-6.94533
體	-6.95514
自在	-6.95805
種種	-6.95971
應	-6.97417
即是	-6.97612
!	-6.99069
德	-6.99899
別	-7.00273
諸佛	-7.00928
隨	-7.01419
攝	-7.02139
海	-7.02512
方便	-7.04326
作	-7.04451
空	-7.04685
莊嚴	-7.04915
巳	-7.05394
答	-7.0584
故云	-7.05948
本	-7.06671
九	-7.06725
欲	-7.07037
廣	-7.07108
定	-7.07544
力	-7.07904
勝	-7.08036
解	-7.08235
用	-7.08414
論	-7.09739
▁二	-7.10016
緣	-7.10873
已	-7.11294
盡	-7.11527
證	-7.11724
色	-7.12875
第二	-7.13458
悉	-7.14232
文	-7.14843
念	-7.1519
先	-7.15237
當	-7.15397
但	-7.15457
唯	-7.16113
三昧	-7.16612
名為	-7.17377
受	-7.19059
功德	-7.19268
約	-7.19456
普	-7.19753
成就	-7.20043
雖	-7.20782
光	-7.21353
樂	-7.21809
理	-7.21938
正	-7.21977
無礙	-7.22296
滅	-7.23115
世間	-7.23642
化	-7.23647
聞	-7.25182
分別	-7.2537
天	-7.25394
智慧	-7.25726
▁初	-7.25752
世界	-7.26519
慧	-7.26749
難	-7.27396
乃至	-7.28349
會	-7.29423
差別	-7.29566
。「	-7.29951
境	-7.30203
復	-7.30282
王	-7.30366
光明	-7.30786
餘	-7.31437
總	-7.32092
苦	-7.33019
一切眾生	-7.33154
涅槃	-7.34037
位	-7.34165
:	-7.34745
對	-7.3516
既	-7.3517
藏	-7.35499
平等	-7.35606
是故	-7.35799
施	-7.35964
無盡	-7.36015
示	-7.36041
合	-7.36138
解脫	-7.37693
法門	-7.38128
求	-7.39221
過	-7.40454
取	-7.40711
內	-7.41268
境界	-7.41433
異	-7.41619
廣大	-7.41855
迴向	-7.4345
具足	-7.44242
耶	-7.45083
所謂	-7.45243
第三	-7.45882
修行	-7.46268
斷	-7.46397
耳	-7.46489
善根	-7.46586
信	-7.4662
寶	-7.47261
真	-7.47679
?	-7.47806
發	-7.48083
想	-7.48718
根	-7.4914
數	-7.49467
究竟	-7.49504
障	-7.4997
爾時	-7.50107
轉	-7.50484
無有	-7.50852
善男子	-7.51091
可	-7.51761
煩惱	-7.51764
不同	-7.54213
識	-7.54464
各	-7.54475
覺	-7.54776
益	-7.55222
立	-7.5573
持	-7.55782
曰	-7.56083
來	-7.56641
順	-7.57059
一一	-7.57188
實	-7.57258
方	-7.57683
外	-7.57764
雲	-7.58664
捨	-7.5926
無邊	-7.59349
劫	-7.59727
舉	-7.60124
深	-7.60778
未	-7.62213
俱	-7.62653
可知	-7.62944
云何	-7.62989
照	-7.63262
語	-7.6409
戒	-7.64297
圓滿	-7.64827
表	-7.65061
等者	-7.65207
十方	-7.66437
就	-7.66533
水	-7.66628
音	-7.66991
▁三	-7.6715
引	-7.67398
遍	-7.67915
普賢	-7.68226
因果	-7.68312
世	-7.68352
切	-7.69252
華	-7.69683
種	-7.69723
辨	-7.69827
他	-7.70043
不可說	-7.70055
妙	-7.71414
生死	-7.71917
因緣	-7.72953
第四	-7.73675
開	-7.74518
菩提	-7.75275
結	-7.75472
所有	-7.75858
界	-7.75931
一切諸佛	-7.76178
示現	-7.76671
重	-7.77029
十地	-7.77471
聲	-7.78891
圓	-7.79073
惡	-7.7919
滿	-7.79811
字	-7.79818
除	-7.80206
諸法	-7.80514
物	-7.80758
法身	-7.80812
故名	-7.80913
何	-7.81063
」	-7.81339
集	-7.82095
宗	-7.82505
三乘	-7.82932
第一	-7.8346
主	-7.83782
經云	-7.83864
破	-7.83975
今初	-7.84239
大悲	-7.84531
小	-7.84622
說法	-7.85227
了	-7.86162
香	-7.86587
供養	-7.86587
無明	-7.86806
剎	-7.87142
於中	-7.87251
報	-7.87308
三世	-7.87549
或名	-7.87741
乃	-7.88149
神	-7.88785
加	-7.88931
品	-7.89426
頌	-7.89638
鈔	-7.89641
安住	-7.90483
不思議	-7.91181
略	-7.91705
所以	-7.92142
恒	-7.92858
次第	-7.92861
觀察	-7.93653
度	-7.93931
山	-7.9398
忍	-7.94137
隨順	-7.94364
一切法	-7.94578
乘	-7.94634
大乘	-7.94748
不能	-7.9561
惑	-7.95889
:「	-7.9621
十種	-7.96212
徧	-7.96917
何以故	-7.97192
一乘	-7.97866
稱	-7.98564
釋曰	-7.98677
便	-7.99457
趣	-7.99563
解脫門	-7.99695
共	-8.00756
矣	-8.01674
真如	-8.01726
論云	-8.01833
向	-8.02122
學	-8.02813
菩薩摩訶薩	-8.03001
類	-8.03291
不可	-8.03765
必	-8.03955
神通	-8.04345
善財	-8.04347
二乘	-8.04786
將	-8.05344
治	-8.05824
▁南無	-8.06451
最勝	-8.06494
流	-8.06987
發心	-8.07596
緣起	-8.07624
金剛	-8.07884
第五	-8.07911
以為	-8.08552
思	-8.08916
嚴	-8.0892
輪	-8.08959
極	-8.09184
師	-8.09544
悲	-8.09759
讚	-8.10748
聲聞	-8.10903
使	-8.11155
形	-8.11279
法性	-8.11376
執	-8.11573
此中	-8.11799
眼	-8.1203
於此	-8.12837
。△	-8.13009
妄	-8.13138
請	-8.13436
汝	-8.13661
下明	-8.1372
佛法	-8.1464
要	-8.1514
著	-8.16023
利	-8.16207
不離	-8.16399
譬如	-8.16443
國	-8.16455
指	-8.1679
之中	-8.17106
去	-8.17512
斯	-8.17586
甚深	-8.18099
更	-8.18323
歎	-8.18327
塵	-8.18709
不見	-8.19392
還	-8.19581
少	-8.19612
竟	-8.20112
第六	-8.2029
迷	-8.20316
愛	-8.20375
家	-8.20385
日	-8.20631
皆悉	-8.20669
小乘	-8.2089
終	-8.21067
一念	-8.21306
失	-8.21389
幢	-8.21523
悟	-8.21654
習	-8.21786
不生	-8.22313
全	-8.22552
並	-8.2282
不壞	-8.23416
諸菩薩	-8.23464
之法	-8.23496
。」【△	-8.24368
般若	-8.24521
辯	-8.2485
聖	-8.24854
遠	-8.25078
雨	-8.25207
始	-8.25218
月	-8.25344
染	-8.25603
喜	-8.25643
無相	-8.26081
之義	-8.26219
土	-8.2632
所依	-8.26362
無生	-8.26457
止	-8.26598
精進	-8.26711
一切智	-8.27287
疑	-8.27371
決定	-8.27555
皆是	-8.27573
無性	-8.27583
以此	-8.27653
量	-8.27674
。」	-8.27864
修習	-8.27933
歸	-8.28281
不動	-8.29158
增	-8.29353
情	-8.29599
達	-8.29638
「	-8.29673
足	-8.29774
利益	-8.29924
堅固	-8.30115
第八	-8.30158
過去	-8.30285
有二	-8.3034
之所	-8.30472
勸	-8.3055
自性	-8.30644
兩	-8.30934
子	-8.30999
動	-8.31094
增長	-8.3125
彰	-8.31524
第七	-8.32404
城	-8.32524
所說	-8.32667
壞	-8.3287
出生	-8.33447
安	-8.33452
樹	-8.33564
一切菩薩	-8.3379
兼	-8.34382
二者	-8.34749
長	-8.35132
國土	-8.35166
風	-8.35667
百	-8.35994
福	-8.36517
見佛	-8.36722
歡喜	-8.36904
不得	-8.37107
猶	-8.37141
此是	-8.37218
無不	-8.374
邪	-8.374
。▲	-8.37908
三界	-8.37949
機	-8.3804
真實	-8.38098
偈	-8.38501
音聲	-8.39005
現在	-8.39045
虛空	-8.39186
坐	-8.39338
▁四	-8.39437
亦復如是	-8.39564
況	-8.39577
此云	-8.39597
猶如	-8.39669
而不	-8.39697
寄	-8.39978
往	-8.40043
亦是	-8.40125
不可思議	-8.40718
世尊	-8.41126
成佛	-8.41296
所行	-8.41397
不捨	-8.41941
亦不	-8.41978
】	-8.4205
一切世間	-8.42438
病	-8.42487
佛果	-8.4249
火	-8.42676
遠離	-8.42846
無上	-8.43246
座	-8.43437
目	-8.43571
何故	-8.43578
文殊	-8.43701
善知識	-8.43807
大願	-8.44114
食	-8.4412
護	-8.44291
屬	-8.44604
居	-8.44678
超	-8.44986
齊	-8.45014
寂滅	-8.45191
華嚴	-8.45415
四句	-8.45469
絕	-8.45473
無常	-8.45516
蓮華	-8.45599
一者	-8.45694
第十	-8.46362
標	-8.46496
須	-8.4661
思惟	-8.46686
寂	-8.47129
第九	-8.47187
令其	-8.47211
雙	-8.47253
不知	-8.47256
正法	-8.47405
權	-8.47876
出世	-8.47994
漸	-8.48408
罪	-8.48712
金	-8.48774
敬	-8.4879
摩尼	-8.49091
相應	-8.49412
之相	-8.49719
望	-8.49963
寂靜	-8.49974
咸	-8.50051
天王	-8.50139
無所	-8.50232
一切世界	-8.50815
句	-8.50924
假	-8.51125
末	-8.5124
眷屬	-8.51293
興	-8.51485
阿僧祇	-8.51532
頓	-8.51596
放	-8.51641
無畏	-8.5171
無二	-8.5231
龍	-8.52349
對治	-8.53053
者即	-8.53992
禪	-8.54233
調伏	-8.54392
似	-8.54497
為一	-8.54546
此經	-8.54558
含	-8.54886
像	-8.55012
所作	-8.55078
燈	-8.55449
圓融	-8.55479
大智	-8.55779
近	-8.55991
且	-8.56334
融	-8.56452
悉能	-8.56752
昔	-8.56779
高	-8.56794
演說	-8.5694
復次	-8.56962
網	-8.57319
直	-8.57772
僧	-8.57826
)。】「	-8.57937
如是等	-8.57974
未來	-8.58206
命	-8.58353
佛號	-8.58748
造	-8.58849
道場	-8.58925
出現	-8.58943
願一切眾生	-8.58947
復有	-8.59081
若有	-8.59174
或有	-8.59497
現前	-8.5955
其心	-8.59934
滿足	-8.60447
菩薩行	-8.60795
善巧	-8.60849
獲	-8.61042
之行	-8.61053
亦無	-8.61239
死	-8.61562
慈	-8.61659
了知	-8.61732
覆	-8.61869
變化	-8.62348
一切如來	-8.62376
一心	-8.62391
色身	-8.62583
菩提心	-8.62885
皆有	-8.62955
口	-8.63099
細	-8.63424
故名為	-8.63479
計	-8.63505
於彼	-8.63878
後一	-8.63898
後二	-8.64064
令一切眾生	-8.64102
無數	-8.64187
設	-8.64371
不退	-8.64378
卷	-8.64396
爾	-8.64481
凡	-8.645
窮	-8.64503
慢	-8.6471
無著	-8.64719
不異	-8.64903
有十	-8.64976
百萬億	-8.64978
有三	-8.6519
如經	-8.65291
印	-8.65482
經文	-8.65554
豈	-8.65589
息	-8.6579
宮殿	-8.66389
幻	-8.6654
十一	-8.66769
若約	-8.66834
初地	-8.66865
千	-8.6696
凡夫	-8.67022
女	-8.67136
諦	-8.67193
能知	-8.67222
蓋	-8.67322
自然	-8.67346
是名	-8.67563
十住	-8.67847
前後	-8.67946
不斷	-8.67946
染淨	-8.68048
三業	-8.68127
白	-8.68463
影	-8.6864
際	-8.68791
出家	-8.68803
今此	-8.6888
觸	-8.69038
微細	-8.69044
諸眾生	-8.69068
支	-8.69147
周	-8.69264
亦名	-8.69381
無我	-8.69427
中有	-8.69546
揀	-8.69664
是菩薩	-8.69715
分齊	-8.69735
前中	-8.69853
萬行	-8.69945
救	-8.70261
已下	-8.70379
名曰	-8.70523
所知	-8.70838
又云	-8.70839
一時	-8.71238
禮	-8.71416
羅	-8.71483
法輪	-8.71492
虗空	-8.7151
生滅	-8.7164
人天	-8.71727
大海	-8.7189
業用	-8.72057
萬	-8.72081
違	-8.72369
外道	-8.72496
不著	-8.72738
亦有	-8.73136
體用	-8.73187
首	-8.73284
由此	-8.7337
:『	-8.73386
初一	-8.73436
到	-8.73516
收	-8.73747
同時	-8.73924
為體	-8.74077
俗	-8.74306
諸根	-8.74335
散	-8.74458
林	-8.74614
法故	-8.74721
何以	-8.75223
者謂	-8.75291
佛智	-8.75707
一切諸	-8.75968
隱	-8.76103
尊	-8.76296
器	-8.76337
非是	-8.76497
變	-8.77348
上來	-8.77375
殊勝	-8.77577
邪見	-8.7771
佛剎	-8.77763
乎	-8.77773
微	-8.77901
佛身	-8.78239
存	-8.78541
供	-8.78572
諸佛子	-8.78866
手	-8.79023
各有	-8.79059
十二	-8.79161
慈悲	-8.79302
何等為十	-8.79338
此菩薩	-8.79455
不住	-8.79792
進	-8.79973
夢	-8.80249
雜	-8.80327
比丘	-8.80364
亦如是	-8.80409
互	-8.80429
無差別	-8.80669
貪	-8.80683
聚	-8.80687
好	-8.8071
顛倒	-8.80711
堅	-8.80773
自他	-8.80843
念念	-8.81041
根本	-8.8202
南	-8.82254
無漏	-8.82361
味	-8.82816
下釋	-8.82848
此約	-8.82849
并	-8.82979
莫	-8.82988
半	-8.83081
章	-8.8315
感	-8.83194
衣	-8.83335
頂	-8.83356
如此	-8.83378
尚	-8.83426
大眾	-8.83487
例	-8.83504
為欲	-8.83585
易	-8.83743
此二	-8.83807
無作	-8.83985
普賢菩薩	-8.84009
亡	-8.84593
利他	-8.84632
自體	-8.84741
一句	-8.8491
有無	-8.84975
遣	-8.85007
顯現	-8.85169
巳下	-8.8525
所成	-8.8561
無為	-8.8589
文殊師利	-8.85968
古	-8.86087
建立	-8.86243
記	-8.86293
初句	-8.86553
之言	-8.86712
瑜伽	-8.86766
無量無邊	-8.86785
珠	-8.86982
夫	-8.8702
受生	-8.87262
然此	-8.87603
難思	-8.87743
財	-8.87874
內外	-8.87875
玄	-8.87907
年	-8.87982
魔	-8.88088
所生	-8.88355
諸天	-8.88487
種性	-8.88491
一切佛	-8.88531
最	-8.88867
之心	-8.88914
三種	-8.88998
二義	-8.8905
邊	-8.89081
勝進	-8.89122
二種	-8.89575
其身	-8.89636
淨土	-8.89767
信解	-8.90239
迴	-8.9029
縛	-8.90392
佛性	-8.90497
恭敬	-8.90578
不應	-8.90669
不定	-8.90682
據	-8.90934
名之為	-8.91043
行相	-8.91124
教化	-8.91207
次二	-8.91302
悉皆	-8.91363
增上	-8.9139
無分別	-8.91414
地獄	-8.91415
致	-8.91526
藥	-8.91557
列	-8.91632
亦爾	-8.91649
先明	-8.91761
十句	-8.91864
百千	-8.91881
巧	-8.91987
如幻	-8.9205
唯識	-8.92075
許	-8.92174
諸行	-8.92195
何等為	-8.92294
獨	-8.92465
義故	-8.92489
十力	-8.92531
所見	-8.92869
欲界	-8.92871
故曰	-8.9291
充滿	-8.9337
伏	-8.93489
普現	-8.93614
能生	-8.93712
而為	-8.93767
相續	-8.93841
善知	-8.93966
顯示	-8.94049
有情	-8.94093
身心	-8.94469
一切佛法	-8.94481
法華	-8.94498
者是	-8.94639
中二	-8.95086
所得	-8.95368
那	-8.95448
不為	-8.95504
成正覺	-8.95516
號	-8.95661
住於	-8.95779
發起	-8.95815
永	-8.95974
加行	-8.95985
部	-8.9599
契	-8.96151
後三	-8.96311
重重	-8.96342
能所	-8.96463
守護	-8.96571
安立	-8.96621
殊	-8.9707
問答	-8.97091
二門	-8.97186
備	-8.97242
所攝	-8.97296
善財童子	-8.97378
安樂	-8.97447
種子	-8.97586
法師	-8.9774
正念	-8.97757
都	-8.97797
經中	-8.97902
亦然	-8.97925
和合	-8.98163
容	-8.98262
不起	-8.98397
演	-8.98679
反	-8.98683
遊	-8.99064
頭	-8.99274
習氣	-8.99366
初二	-8.99556
翻	-8.99593
親	-8.99609
福德	-8.99834
傳	-8.99912
令得	-9.00029
受持	-9.00347
科	-9.00426
劣	-9.00766
遮	-9.00818
能入	-9.00867
師子	-9.00917
善友	-9.00927
不礙	-9.00987
住處	-9.01329
於一切	-9.01568
二約	-9.01631
。』	-9.01704
體性	-9.01723
十門	-9.01783
配	-9.01793
此即	-9.01798
初明	-9.01826
教化眾生	-9.01861
眾會	-9.01899
為因	-9.02009
告	-9.02097
如前	-9.02153
陀羅尼	-9.02293
始終	-9.02317
親近	-9.02354
相即	-9.02363
河	-9.02415
隨緣	-9.02419
深入	-9.02512
間	-9.02678
梵	-9.02712
遇	-9.02784
各各	-9.02878
神力	-9.02948
有四	-9.03006
行故	-9.03111
通達	-9.03152
所現	-9.03193
文中	-9.03235
大小	-9.0337
志	-9.03397
鏡	-9.03582
普照	-9.03952
害	-9.04028
波	-9.04104
如來藏	-9.04128
垢	-9.04137
象	-9.04171
於中二	-9.04236
辯才	-9.04381
願一切眾生得	-9.04415
入於	-9.04561
陰	-9.04662
阿	-9.04827
尋	-9.05092
勤	-9.05253
無能	-9.05266
廣說	-9.05296
密	-9.05369
當知	-9.05467
被	-9.05544
言說	-9.05724
十八	-9.05785
無障礙	-9.0589
依止	-9.0597
轉法輪	-9.06098
偏	-9.06287
若依	-9.06323
深廣	-9.06346
理事	-9.06351
如實	-9.06501
賢首	-9.06964
徹	-9.07189
四諦	-9.07421
詮	-9.07441
五位	-9.07508
性相	-9.07612
▁五	-9.07763
悲智	-9.07813
三者	-9.08012
而無	-9.08047
其中	-9.08184
能令	-9.08234
別顯	-9.08309
愚	-9.08327
憶念	-9.08653
非有	-9.08659
所起	-9.08675
和	-9.0879
不出	-9.08899
東	-9.08904
倒	-9.09095
主伴	-9.09181
是為十	-9.09341
墮	-9.09354
為說	-9.09453
之處	-9.09554
或見	-9.09645
不說	-9.0965
正覺	-9.09806
威儀	-9.09868
授	-9.10128
十行	-9.10171
若不	-9.10581
布施	-9.10745
見聞	-9.10747
妄想	-9.10855
十六	-9.10874
徵	-9.11002
我當	-9.1106
聽	-9.11071
波羅蜜	-9.11164
癡	-9.1123
皆得	-9.11277
覩	-9.11356
陀羅尼門	-9.11386
己	-9.11588
自心	-9.11677
曾	-9.11812
放光	-9.11823
應知	-9.11845
蘊	-9.119
有十種	-9.12295
中道	-9.12474
遂	-9.126
以明	-9.12646
我今	-9.12976
麤	-9.13047
即前	-9.13225
速	-9.13239
有為	-9.13317
推	-9.13426
該	-9.13528
於一	-9.13633
十信	-9.13682
而有	-9.1375
是為	-9.13796
深心	-9.138
闕	-9.13894
摩	-9.1402
宮	-9.14196
以是	-9.14386
無異	-9.14392
十身	-9.14581
宜	-9.14842
所證	-9.14923
一切諸法	-9.14997
長者	-9.15304
摩尼寶	-9.15354
不可得	-9.15453
沒	-9.15528
法中	-9.15533
三寶	-9.15667
述	-9.15742
賢	-9.1583
智者	-9.15832
色相	-9.15932
嚴淨	-9.15947
而能	-9.16001
須彌	-9.16028
釋云	-9.16054
脫	-9.16106
發菩提心	-9.1613
隨其	-9.16213
比	-9.16217
饒益	-9.16556
展轉	-9.16565
○	-9.16824
詣	-9.17256
開示	-9.17285
百萬	-9.17435
初中	-9.17435
聞法	-9.17437
見者	-9.17438
總持	-9.17454
所化	-9.17641
。】「▲	-9.17683
脩	-9.17991
佛所	-9.18233
清涼	-9.18282
相故	-9.18379
.	-9.18548
佛土	-9.18565
虛	-9.18675
微妙	-9.18699
解釋	-9.18764
普賢行	-9.18857
氣	-9.19099
無別	-9.19127
巳下至	-9.19215
【	-9.19216
不成	-9.19246
太子	-9.19268
于	-9.19435
微塵	-9.19535
但是	-9.19581
眾寶	-9.19665
離垢	-9.19685
此上	-9.19699
入定	-9.19793
無間	-9.19962
行者	-9.20101
勇猛	-9.20116
世界海	-9.20131
次一	-9.20346
及以	-9.20524
常住	-9.20563
勤修	-9.20568
事理	-9.20693
是則	-9.21083
亦可	-9.21092
亦非	-9.2125
婆	-9.21351
總結	-9.21355
熏	-9.21372
明了	-9.2141
願力	-9.21546
攝受	-9.21625
陳	-9.21642
前三	-9.21692
但有	-9.21789
一法	-9.21805
冥	-9.21865
梵行	-9.21879
眾生界	-9.21974
却	-9.22027
自利	-9.2205
不失	-9.22329
信心	-9.22353
置	-9.22356
諸地	-9.22517
修多羅	-9.2254
安隱	-9.22752
或以	-9.22761
善法	-9.228
樓閣	-9.22813
序	-9.23082
不空	-9.23083
前二	-9.23309
之人	-9.2359
化身	-9.2364
八地	-9.23803
於諸	-9.24001
最上	-9.2407
無住	-9.24077
龍王	-9.24324
退	-9.24379
恐	-9.2444
甚	-9.24536
不淨	-9.24571
本末	-9.24575
地前	-9.24726
長行	-9.24806
布	-9.24824
面	-9.24951
無限	-9.25052
理智	-9.25102
新	-9.25173
剎海	-9.25326
池	-9.25338
▁二釋	-9.25528
西	-9.25668
厭	-9.25812
當願眾生	-9.25817
出離	-9.25895
潤	-9.26034
積集	-9.2612
是佛	-9.26185
了達	-9.26228
導	-9.26309
不可說不可說	-9.26326
無垢	-9.2649
互相	-9.26612
四種	-9.26674
佛子菩薩摩訶薩	-9.26811
證入	-9.26979
偈云	-9.27004
次句	-9.27056
愚癡	-9.27167
十方世界	-9.27179
資	-9.27233
迹	-9.27236
又此	-9.27295
積	-9.27415
中間	-9.27582
化眾生	-9.27589
若以	-9.27591
輕	-9.27659
久	-9.27692
修菩薩行	-9.27916
權實	-9.28257
自分	-9.2841
奪	-9.28564
夜	-9.28582
虗	-9.28782
此地	-9.28871
功	-9.29096
十四	-9.29098
不違	-9.2922
調	-9.29364
圓教	-9.29383
別明	-9.29487
妙法	-9.29497
友	-9.29529
未曾	-9.29567
路	-9.29831
離諸	-9.29887
智力	-9.30073
三藏	-9.30169
十三	-9.30419
怖	-9.3046
二十	-9.30568
大方廣佛華嚴經	-9.30594
則能	-9.30629
答曰	-9.30716
此明	-9.30815
行願	-9.30877
以成	-9.30899
緣覺	-9.31042
殿	-9.31094
殺	-9.31103
鬼	-9.31187
善惡	-9.31318
身業	-9.31468
闇	-9.31532
讚歎	-9.31626
威德	-9.31642
出世間	-9.31751
我等	-9.31813
一味	-9.31867
意業	-9.3205
一身	-9.32096
但云	-9.32146
畢竟	-9.32195
局	-9.32234
法者	-9.32239
瞋	-9.32476
一切佛剎	-9.32506
牒	-9.32527
但以	-9.32557
知一切法	-9.32841
覺悟	-9.32873
禪定	-9.3295
心境	-9.32952
所緣	-9.32974
無礙智	-9.33109
果報	-9.33118
實際	-9.332
下文	-9.33243
有二義	-9.33269
諸如來	-9.33365
之時	-9.33384
無依	-9.33549
靜	-9.33577
名色	-9.33661
見道	-9.33694
之果	-9.33779
橫	-9.33904
釋迦	-9.33974
根本智	-9.34079
而生	-9.34084
正顯	-9.34177
云云	-9.34218
則為	-9.34253
疾	-9.34321
譯	-9.34341
十五	-9.3437
下結	-9.34566
諸佛法	-9.34702
故知	-9.34707
利生	-9.34753
亦云	-9.3497
依此	-9.34975
相好	-9.35011
父母	-9.35148
知見	-9.35196
有二種	-9.35218
普入	-9.35226
儀	-9.35239
能成	-9.35249
持戒	-9.35256
捨離	-9.35373
放大光明	-9.35461
成熟	-9.35487
不退轉	-9.35532
一向	-9.35767
所入	-9.35855
一約	-9.35868
純	-9.35974
義也	-9.35987
緣生	-9.36008
分二	-9.36082
准	-9.361
一切皆	-9.36164
真空	-9.36324
所修	-9.36574
有漏	-9.36591
無染	-9.36765
妙音	-9.3693
住持	-9.3693
現身	-9.36936
不共	-9.36943
東方	-9.37085
繫	-9.37091
現行	-9.37128
非一	-9.37223
力故	-9.37298
正明	-9.37474
者明	-9.37491
而得	-9.37494
舌	-9.37556
簡	-9.37573
實相	-9.37715
剎那	-9.37717
自身	-9.37849
濟	-9.37889
欲令	-9.3798
相違	-9.38141
舍	-9.38223
大慈	-9.3825
大用	-9.38337
菩薩如是	-9.38442
得名	-9.38524
畏	-9.3854
縱	-9.38637
別釋	-9.38653
昇	-9.38653
準	-9.3878
陀	-9.38977
同教	-9.3911
敘	-9.39199
毒	-9.39356
三世諸佛	-9.39451
不二	-9.39468
亦如	-9.39477
神變	-9.395
二句	-9.39607
或現	-9.39689
瓔珞	-9.39784
十七	-9.39831
是以	-9.39915
故得	-9.39934
童子	-9.39983
起行	-9.39988
三千大千世界	-9.4004
不善	-9.40062
?」	-9.40084
夜神	-9.401
惱	-9.40243
熟	-9.40312
此則	-9.40413
得見	-9.40418
以智	-9.40651
若爾	-9.40656
是其	-9.40676
言音	-9.4077
百億	-9.40862
業報	-9.40881
不取	-9.40979
能持	-9.41074
則無	-9.41226
雖有	-9.41456
普遍	-9.41459
唯一	-9.41525
各別	-9.41528
如虛空	-9.41589
離相	-9.41607
是也	-9.41681
五蘊	-9.41765
相似	-9.41819
法相	-9.41838
盛	-9.41906
歷	-9.42004
何等	-9.42093
書	-9.42126
穢	-9.42137
同體	-9.42143
此品	-9.42189
礙	-9.42222
此三	-9.42251
此十	-9.42271
之德	-9.42371
元	-9.42507
本來	-9.42626
妙寶	-9.42677
一人	-9.42695
迦	-9.42755
不可壞	-9.42864
七地	-9.42889
彌勒	-9.42949
一分	-9.4304
母	-9.43092
第一義	-9.43098
田	-9.43114
▁初標	-9.43139
懺悔	-9.43194
下句	-9.43395
一切剎	-9.43459
金剛藏	-9.43473
五百	-9.43474
為首	-9.43487
有一	-9.43633
此義	-9.43643
奉	-9.43751
從此	-9.43882
婆羅門	-9.44002
菩薩摩訶薩亦復如是	-9.44078
性故	-9.44098
思之	-9.44111
及諸	-9.44131
流轉	-9.44253
北	-9.4431
成益	-9.44325
宣	-9.4442
之意	-9.4446
壽	-9.44805
之智	-9.44907
於一切法	-9.44978
吾	-9.45063
壽命	-9.45144
相者	-9.45149
靡不	-9.45232
周遍	-9.4539
判	-9.45416
依正	-9.45472
一相	-9.45533
若無	-9.45625
尊重	-9.45666
此文	-9.45708
總明	-9.45885
怖畏	-9.45985
逆	-9.46035
二釋	-9.46094
說者	-9.462
之門	-9.46221
亂	-9.46233
即以	-9.46379
疏云	-9.46379
意云	-9.46547
為令一切眾生	-9.46569
此法	-9.46718
熱	-9.46725
之因	-9.46918
𦦨	-9.4694
總相	-9.46961
旨	-9.46968
有五	-9.47047
忘	-9.47063
故此	-9.47152
二明	-9.47309
無量劫	-9.47329
如空	-9.47336
車	-9.47338
所為	-9.47385
結成	-9.47544
依他	-9.47684
如何	-9.47734
甚微細	-9.47835
以顯	-9.47903
焰	-9.48093
燒	-9.48237
立名	-9.48337
次三	-9.48477
在於	-9.48555
然後	-9.48585
攝取	-9.48589
待	-9.48657
終教	-9.48667
悉令	-9.48726
能現	-9.49019
於佛	-9.49029
別教	-9.49064
帶	-9.49077
得法	-9.49088
節	-9.49136
平	-9.49242
門中	-9.49448
聖者	-9.49511
帝釋	-9.49971
一塵	-9.50116
別中	-9.50142
三句	-9.50151
大地	-9.5035
。】	-9.50371
論釋	-9.50372
葉	-9.50405
一切法界	-9.50515
無始	-9.50558
誰	-9.50559
二諦	-9.50683
真理	-9.50792
作意	-9.50922
臺	-9.5096
─	-9.51065
十九	-9.51252
真性	-9.51316
廻向	-9.51329
初標	-9.51405
也言	-9.51469
一多	-9.51732
同前	-9.51789
䟽	-9.51817
靈	-9.51859
相入	-9.51867
宿	-9.51957
無所有	-9.52147
問曰	-9.5217
弟子	-9.52196
即為	-9.52277
今經	-9.524
空有	-9.52403
性空	-9.52437
是時	-9.5253
令諸眾生	-9.52612
承	-9.5268
質	-9.52822
之身	-9.52831
清	-9.52839
名號	-9.52888
若有眾生	-9.52898
決	-9.52964
無餘	-9.53044
為主	-9.53069
助	-9.5309
總別	-9.53332
心無	-9.53414
解行	-9.5342
一切處	-9.53437
等故	-9.53501
四者	-9.53534
一生	-9.53549
除滅	-9.53735
頓教	-9.53836
跡	-9.53841
之境	-9.53874
度眾生	-9.53886
法王	-9.5394
辭	-9.54097
制	-9.54224
光照	-9.54304
明淨	-9.54435
地中	-9.54525
唯有	-9.54562
犯	-9.5458
於中三	-9.54601
偈頌	-9.5467
故言	-9.54681
周徧	-9.54764
億	-9.54821
》	-9.54828
九地	-9.5488
為本	-9.5494
所詮	-9.55119
十法	-9.55122
毗盧遮那	-9.55164
為性	-9.55183
仰	-9.55197
等覺	-9.55199
何者	-9.55256
隨所	-9.55325
無色	-9.55468
華藏	-9.55583
日月	-9.5562
木	-9.55671
麁	-9.55703
語業	-9.55755
拔	-9.56001
不變	-9.56141
之理	-9.56183
極樂淨土	-9.56254
福智	-9.56283
眾生心	-9.56334
▁初明	-9.56456
於一念中	-9.5653
智光	-9.56621
雜染	-9.56631
懷	-9.56646
進修	-9.56712
▁六	-9.56722
自在力	-9.56801
如夢	-9.56911
此位	-9.56929
對前	-9.56931
焉	-9.56948
無所著	-9.56992
影像	-9.57287
暗	-9.57295
前四	-9.57399
唱	-9.57401
無等	-9.57705
纏	-9.5786
畧	-9.57868
得佛	-9.5787
不作	-9.57933
正見	-9.57994
往昔	-9.58015
聖人	-9.5804
相對	-9.58177
大意	-9.5825
損	-9.5848
智論	-9.58503
成壞	-9.58519
髻	-9.58633
攝生	-9.58683
但為	-9.58717
勝解	-9.58772
於法	-9.59007
不求	-9.59009
花	-9.59129
寺	-9.5931
堪	-9.59373
老	-9.59521
審	-9.59689
如上	-9.59715
最後	-9.59743
未得	-9.59808
常樂	-9.59874
多聞	-9.59881
總顯	-9.60157
佛境界	-9.60176
運	-9.60176
阿含	-9.60177
所持	-9.60191
本有	-9.60223
三昧門	-9.60246
不信	-9.60297
無比	-9.60338
諸善根	-9.60352
大慈悲	-9.60394
普眼	-9.60511
諸功德	-9.60601
少分	-9.60618
不盡	-9.60621
申	-9.60748
福田	-9.60821
皆令	-9.60891
源	-9.60983
無體	-9.61096
愛樂	-9.61117
論文	-9.61122
名字	-9.61161
談	-9.61238
方能	-9.61304
不了	-9.61316
泯	-9.61398
何況	-9.61522
而言	-9.61548
廢	-9.61561
謂此	-9.61565
一性	-9.6158
佛力	-9.6166
漸次	-9.61781
勝德	-9.61793
普門	-9.61811
衣服	-9.61848
知識	-9.61862
即得	-9.61896
此下	-9.62004
如彼	-9.62024
般若波羅蜜	-9.62114
毀	-9.62257
開悟	-9.62283
料揀	-9.623
成滿	-9.6236
哉	-9.62365
勝行	-9.62407
即空	-9.62409
虛妄	-9.62437
故有	-9.62629
中三	-9.6265
本無	-9.62713
往詣	-9.62807
念佛	-9.62881
垂	-9.63032
寧	-9.63061
化生	-9.6312
背	-9.63182
曲	-9.63294
一門	-9.63321
同一	-9.6333
阿僧祇寶	-9.63383
越	-9.637
今以	-9.63721
則得	-9.63732
悅	-9.63761
恩	-9.63806
所住	-9.63831
任	-9.63839
皆以	-9.63851
表法	-9.63892
四大	-9.63901
宣說	-9.63917
始教	-9.6394
吉祥	-9.64017
惡道	-9.64112
法雨	-9.64114
非無	-9.64115
善哉	-9.64216
強	-9.64244
▁○	-9.64271
本性	-9.64353
行成	-9.64379
佛剎微塵數	-9.6442
舊	-9.64496
馬	-9.64519
本願	-9.64692
注	-9.64758
此之	-9.64787
美	-9.64792
悔	-9.64903
悉得	-9.65037
上句	-9.65137
所引	-9.65186
修道	-9.6528
」【	-9.653
知一切	-9.65413
種種莊嚴	-9.65519
論中	-9.65611
提	-9.65699
略說	-9.65767
降	-9.65829
稠林	-9.65843
佛地	-9.65864
▁三結	-9.65877
閻浮提	-9.65885
差別智	-9.65927
放逸	-9.66003
趣入	-9.66062
不滅	-9.6608
毛孔	-9.66204
勢	-9.66248
無量眾生	-9.66441
真諦	-9.66462
受用	-9.6649
之內	-9.66505
下半	-9.6657
巳上	-9.66636
公	-9.66891
身雲	-9.66935
三性	-9.66959
通於	-9.67028
十方諸佛	-9.6703
故不	-9.67114
差	-9.67357
融通	-9.67361
一切善根	-9.67365
文云	-9.67407
祕密	-9.67538
證得	-9.67606
能說	-9.67611
蒙	-9.67637
頌前	-9.679
而說	-9.67925
體相	-9.67953
若干	-9.68006
尼	-9.68073
如來身	-9.68086
救護	-9.68098
故非	-9.68129
人法	-9.68215
。」【【	-9.68228
為宗	-9.68231
畜生	-9.68336
答言	-9.68498
法藏	-9.68504
謂於	-9.68585
草	-9.68671
相望	-9.6872
則有	-9.68736
威力	-9.68745
得入	-9.68993
之事	-9.69013
上二	-9.69163
解云	-9.69185
神足	-9.69201
隨機	-9.69299
誓願	-9.69309
故今	-9.69361
難知	-9.69445
段	-9.69533
園	-9.69559
我所	-9.6959
患	-9.69693
而起	-9.69716
智故	-9.69878
畢	-9.69946
地上	-9.69976
教法	-9.70001
石	-9.70026
毛	-9.70051
上下	-9.70064
初三	-9.70119
假名	-9.70207
怨	-9.70249
無礙用	-9.70263
鼻	-9.70273
無所依	-9.70278
善能	-9.70284
無厭足	-9.70285
承事	-9.70285
十義	-9.70317
懺	-9.70333
三約	-9.7038
後四	-9.70416
三明	-9.70446
導師	-9.70448
鳥	-9.70504
室	-9.70527
於念念中	-9.70555
四門	-9.70622
之名	-9.70842
歲	-9.70924
灌頂	-9.70926
沙門	-9.70993
無邊際	-9.7101
勿	-9.71044
令入	-9.71055
明其	-9.71156
宅	-9.71201
梵王	-9.71223
具德	-9.71237
其所	-9.71309
諸惡	-9.71453
肉	-9.7153
連	-9.71586
乖	-9.71791
代	-9.71876
是知	-9.71944
即入	-9.71944
誓	-9.72023
德用	-9.72028
者以	-9.72052
阿難	-9.72053
所由	-9.7217
如是一切	-9.72254
已下至	-9.72275
意樂	-9.72356
十千	-9.72385
功用	-9.72405
終不	-9.72527
處處	-9.72619
天子	-9.72663
七日	-9.72672
色界	-9.7271
領	-9.72741
沙	-9.72742
中說	-9.72781
嚴飾	-9.72782
菩薩摩訶薩有十種	-9.7288
位中	-9.72927
惡業	-9.72987
無際	-9.73206
甘露	-9.73294
聖教	-9.73367
永離	-9.73413
後釋	-9.73582
令他	-9.73616
同異	-9.73682
即此	-9.73687
恭敬供養	-9.73695
隨意	-9.73706
精	-9.73712
故說	-9.7376
之本	-9.73785
皆從	-9.73902
唯心	-9.73953
理實	-9.74013
諸位	-9.74081
士	-9.74137
初總	-9.74143
隨逐	-9.74272
三地	-9.74277
我慢	-9.74311
作用	-9.74321
即無	-9.74359
謗	-9.74407
熾然	-9.74425
之道	-9.74468
護持	-9.74473
有異	-9.74474
一佛	-9.7448
一云	-9.74525
智悲	-9.74526
如實知	-9.74534
最初	-9.7459
智海	-9.74657
性起	-9.74707
佛境	-9.74732
止觀	-9.74759
有三種	-9.74769
倍	-9.7482
童女	-9.74904
四天下	-9.74906
得解脫	-9.74915
原	-9.74977
成等正覺	-9.75043
憂	-9.75133
諸煩惱	-9.75157
正道	-9.75162
祖	-9.75189
底	-9.75216
之體	-9.7525
守	-9.75602
亦得	-9.75658
於世間	-9.75716
無厭	-9.75739
五欲	-9.75765
承佛神力	-9.75852
俱舍	-9.75905
諸世界	-9.7604
輪王	-9.7612
乳	-9.76152
釋文	-9.76179
悉知	-9.76259
法體	-9.76284
伽	-9.76393
所以者何	-9.76407
熏習	-9.76606
生故	-9.76626
入法界	-9.76715
仁	-9.76724
教義	-9.76732
法爾	-9.76743
神通力	-9.76764
一切煩惱	-9.76943
父	-9.76945
若見	-9.76986
諸教	-9.76994
加持	-9.7701
如海	-9.77052
十度	-9.77095
事故	-9.771
下顯	-9.77178
一毛	-9.77201
又以	-9.77256
不依	-9.77312
中初	-9.77468
不從	-9.77468
別相	-9.77493
金色	-9.7754
六度	-9.77541
果故	-9.77545
諸業	-9.77595
由前	-9.77631
有六	-9.77679
長養	-9.77716
隱顯	-9.77778
心不	-9.77784
隨心	-9.7784
釋成	-9.77851
何得	-9.77883
廣釋	-9.77909
入一切	-9.77934
十善	-9.77967
不染	-9.77989
不與	-9.7803
作是念	-9.78068
又如	-9.7807
或說	-9.78088
難得	-9.78118
慚愧	-9.78182
惡趣	-9.78214
一處	-9.7832
律	-9.78366
二障	-9.78388
生起	-9.78397
求法	-9.78502
多劫	-9.7853
諸有	-9.78604
一切智智	-9.78612
何有	-9.78701
端	-9.78708
無上菩提	-9.7873
而說頌言	-9.78765
諸天子	-9.78798
菩薩道	-9.78829
異故	-9.78926
得果	-9.78979
喜樂	-9.78987
華嚴經	-9.79037
發阿耨多羅三藐三菩提心	-9.79109
妙行	-9.79158
彼岸	-9.79237
意識	-9.79391
二地	-9.79417
行門	-9.79425
人中	-9.79499
作業	-9.79569
善根迴向	-9.79575
妙德	-9.79589
五陰	-9.79619
▁「	-9.79624
善男子我	-9.79667
唯是	-9.79685
隨喜	-9.79716
皆為	-9.79807
伴	-9.79841
如意	-9.79896
超過	-9.80023
仍	-9.80038
執著	-9.8013
隨眾生心	-9.80199
欲樂	-9.80273
諸菩薩眾	-9.80275
如下	-9.80292
所求	-9.80342
大聖	-9.80368
飲食	-9.80485
真俗	-9.80535
經論	-9.80575
不可盡	-9.806
憶	-9.80658
此句	-9.8067
一品	-9.80698
參	-9.80729
三有	-9.80755
起信	-9.80796
一對	-9.80806
若能	-9.80811
下辨	-9.80867
慈心	-9.80904
能作	-9.80913
弘	-9.80969
爾時善財童子	-9.80995
速疾	-9.80996
自行	-9.8103
彌	-9.81071
明知	-9.811
故迴向	-9.81245
皆能	-9.81262
視	-9.81263
懈怠	-9.8131
列名	-9.81312
香水海	-9.81358
如虗空	-9.81358
能見	-9.81394
蔽	-9.81465
空中	-9.81642
有世界名	-9.81715
佛道	-9.81835
或為	-9.81864
一明	-9.81885
分明	-9.81971
牒前	-9.82028
文字	-9.82039
於法界	-9.82077
能證	-9.82078
無功用	-9.82162
又前	-9.82166
淺	-9.82176
不及	-9.82224
靜慮	-9.82226
離世間品	-9.82276
憍慢	-9.82322
皆云	-9.82324
以彼	-9.8235
諸趣	-9.82474
梵天	-9.82498
佛子菩薩摩訶薩有十種	-9.82544
四地	-9.82568
而行	-9.82597
行位	-9.82666
岸	-9.82764
牛	-9.82823
建	-9.82835
利益眾生	-9.82903
法海	-9.8294
勢力	-9.83059
生於	-9.83062
無違	-9.83065
何等為十所謂	-9.83138
全同	-9.83227
餘皆	-9.8323
濁	-9.8331
十迴向	-9.83357
然其	-9.83383
行體	-9.83407
何不	-9.83448
服	-9.83499
舍利弗	-9.83554
棄	-9.83637
因故	-9.83661
智光明	-9.83707
五種	-9.83726
六地	-9.83745
非實	-9.83973
無窮	-9.83986
經說	-9.84017
語言	-9.84118
誦	-9.84144
廣如	-9.8425
淨心	-9.84306
耶答	-9.84309
諸佛如來	-9.84345
遍法界	-9.84348
諸世間	-9.84438
消	-9.84512
專	-9.84615
知眾生	-9.84671
滯	-9.84672
人間	-9.84682
離障	-9.84724
至於	-9.84742
於前	-9.84752
三品	-9.84758
文義	-9.8486
稱讚	-9.8487
減	-9.84916
滅度	-9.85022
二字	-9.8517
徒	-9.85195
淨名	-9.85255
謂一	-9.85292
莊嚴具	-9.85295
上半	-9.85365
可見	-9.85383
震動	-9.85429
異熟	-9.85559
留	-9.85599
調伏眾生	-9.85635
果德	-9.85695
本覺	-9.85707
總是	-9.85723
可得	-9.85746
敷	-9.85789
帳	-9.8581
隨時	-9.85844
」「	-9.86202
賢聖	-9.86235
悉見	-9.86263
五者	-9.86265
六根	-9.86273
道理	-9.86286
一切種智	-9.86319
成行	-9.86359
見彼	-9.86368
助道	-9.86426
亦通	-9.86438
皆由	-9.86448
毘盧遮那	-9.86493
遊戲	-9.86541
值	-9.86544
限	-9.86561
心故	-9.86585
慮	-9.8664
一劫	-9.86641
▁二明	-9.86685
苦樂	-9.86696
改	-9.86784
四禪	-9.86857
成道	-9.8686
大智慧	-9.86949
能起	-9.86959
前五	-9.87059
修學	-9.87104
於中初	-9.87105
之性	-9.87216
狹	-9.87259
太	-9.87358
成立	-9.87443
一切功德	-9.8746
餓鬼	-9.87541
盡未來際	-9.87564
幽	-9.8761
自相	-9.87639
法空	-9.87646
威	-9.87652
不以	-9.87659
三世佛	-9.87694
已上	-9.87712
斷惑	-9.87732
不聞	-9.87836
呼	-9.87869
分三	-9.87974
流通	-9.87975
在家	-9.87999
慶	-9.88004
同於	-9.88009
別有	-9.88011
初發心	-9.88117
三結	-9.883
歎佛	-9.88344
四十	-9.88356
報身	-9.88418
自在故	-9.88481
利樂	-9.88599
妙色	-9.88612
無心	-9.88618
園林	-9.88706
塔	-9.88735
毘	-9.88815
得聞	-9.88829
大心	-9.88832
而成	-9.88854
無差	-9.88857
冠	-9.88887
深密	-9.88931
空寂	-9.88955
七寶	-9.88959
青	-9.88979
翳	-9.88996
是人	-9.89107
開合	-9.89303
夜叉	-9.89392
初會	-9.89518
言辭	-9.89559
五句	-9.89854
昇進	-9.89965
勝故	-9.89974
堂	-9.89982
所居	-9.90016
漏	-9.90056
世界種	-9.90116
勝義	-9.90127
託	-9.90128
三時	-9.90184
若人	-9.90249
亦同	-9.90268
同名	-9.90313
一行	-9.90338
不爾	-9.9047
▁七	-9.90483
普光明	-9.90643
日光	-9.90669
為緣	-9.90698
顯法	-9.90749
天人	-9.90857
唯約	-9.90908
登	-9.9092
三毒	-9.90938
佛功德	-9.91044
論主	-9.91093
定慧	-9.91099
隨相	-9.9113
悉以	-9.91172
初二句	-9.91196
唐	-9.91252
三身	-9.91309
不言	-9.91337
微塵數	-9.9141
眾中	-9.91527
拂	-9.91599
不行	-9.91607
此等	-9.91671
今明	-9.91703
黑	-9.91756
曉	-9.91762
能以	-9.91792
戲論	-9.91861
正說	-9.91886
之一	-9.91922
西方	-9.91999
或云	-9.92084
不名	-9.92111
佛德	-9.92124
及與	-9.92151
智慧光明	-9.9217
無㝵	-9.92229
不分別	-9.92232
天眼	-9.92343
包	-9.92362
泥	-9.92438
為一切眾生	-9.92441
說故	-9.92446
菩提心者	-9.92484
行法	-9.92552
圓成	-9.92688
創	-9.92695
詞	-9.92747
帝	-9.92795
無念	-9.9287
今云	-9.92885
希有	-9.92937
期	-9.93169
寶華	-9.9319
髮	-9.93222
當得	-9.93241
無記	-9.93314
我為	-9.93338
苦行	-9.93417
離過	-9.93428
信樂	-9.9347
阿羅漢	-9.93532
直心	-9.93549
萬法	-9.93599
又復	-9.93609
如影	-9.93693
佛言	-9.93697
誠	-9.93741
聖道	-9.93825
寶莊嚴	-9.93833
後際	-9.93845
佛菩提	-9.9387
下別顯	-9.93906
見如來	-9.93919
世俗	-9.93923
正行	-9.94013
能治	-9.94015
隔	-9.94018
恐怖	-9.94041
此上過佛剎微塵數世界	-9.94106
一偈	-9.94142
海中	-9.94173
偈中	-9.94311
此亦	-9.94319
約法	-9.94345
令眾生	-9.9435
智身	-9.94369
▁初釋	-9.94422
自有	-9.94601
充滿法界	-9.9461
普見	-9.94647
特	-9.94658
懸	-9.94666
苦惱	-9.94667
迦葉	-9.94744
則是	-9.94764
解了	-9.94783
前中二	-9.94821
統	-9.94987
其相	-9.9499
後偈	-9.94999
娑婆	-9.95006
乃是	-9.95015
答前	-9.95082
答云	-9.95145
因緣故	-9.95297
有此	-9.95336
略無	-9.95377
悉亦如是	-9.95411
暫	-9.95413
皆同	-9.95446
初心	-9.95467
非唯	-9.95483
招	-9.95519
八萬四千	-9.956
普入一切	-9.95611
初禪	-9.95617
法雲	-9.95687
十波羅蜜	-9.95715
引證	-9.95775
如佛	-9.9579
眾生故	-9.95841
所言	-9.95903
摩尼王	-9.95917
交徹	-9.95976
塵數	-9.95987
十箇	-9.95994
能詮	-9.95994
生處	-9.96005
寬	-9.96289
以其	-9.96501
交	-9.96557
一切寶	-9.96563
剎塵	-9.96567
濕	-9.96572
不入	-9.96598
毗	-9.96599
諸波羅蜜	-9.96614
此釋	-9.9664
下二	-9.96654
正釋	-9.96693
無可	-9.96722
正是	-9.96789
天女	-9.96797
三際	-9.96805
大同	-9.96862
釋名	-9.96873
擊	-9.96913
前十	-9.9699
如來智	-9.97023
淨穢	-9.97161
下總結	-9.97177
飾	-9.97216
結云	-9.97255
深信	-9.97264
如一	-9.97265
第	-9.97294
希	-9.973
震	-9.97306
圓明	-9.97346
心常	-9.9742
障礙	-9.97438
餘義	-9.97467
離欲	-9.9752
同行	-9.97533
意明	-9.97539
不忘	-9.97545
以一	-9.97569
不覺	-9.97649
返	-9.97689
十佛	-9.97716
不受	-9.97757
柔軟	-9.97784
論經	-9.97785
一萬	-9.9781
攝論	-9.97845
圓覺	-9.97861
劫數	-9.97957
佛教	-9.97963
如人	-9.97971
無有休息	-9.97982
故無	-9.97996
故須	-9.98047
繁	-9.98068
佛說	-9.98103
眾苦	-9.98194
優婆夷	-9.9825
臣	-9.98349
所問	-9.9838
飲	-9.98388
境故	-9.9839
供佛	-9.98394
上妙	-9.98405
步	-9.98504
時分	-9.98785
上之	-9.98847
今疏	-9.98866
得益	-9.98878
寶藏	-9.98923
一事	-9.98934
鬘	-9.98947
不具	-9.99025
鐵	-9.99043
臨	-9.99096
星	-9.99099
二合	-9.99228
結前	-9.99411
如理	-9.99461
明此	-9.99462
舍那	-9.99474
單	-9.99676
虛空界	-9.99702
知其	-9.99745
二利	-9.99752
應云	-9.99797
供養諸佛	-9.99838
校量	-9.99848
譬如真如	-9.99877
善業	-10.0003
世法	-10.0008
只	-10.0012
說此	-10.0017
非真	-10.0019
亦應	-10.0034
為令眾生	-10.0036
離於	-10.0046
行菩薩行	-10.0047
願行	-10.0051
普照一切	-10.0052
上三	-10.0053
有其	-10.0056
竭	-10.0057
姓	-10.0065
三十二	-10.0066
大法	-10.0071
晉經	-10.0073
諍	-10.0081
薩婆若	-10.0081
體故	-10.0085
聚落	-10.0092
羅漢	-10.0102
並是	-10.0103
更有	-10.0105
爾時世尊	-10.0107
善知識者	-10.0109
之文	-10.0111
五教	-10.0125
五地	-10.0128
中有二	-10.0128
所受	-10.0131
稱性	-10.0136
酬	-10.0137
方為	-10.015
俱生	-10.0152
明見	-10.0155
普能	-10.0161
不在	-10.0166
而非	-10.0169
其義	-10.017
任運	-10.0172
獨覺	-10.0175
入涅槃	-10.0177
趣向	-10.0182
九十	-10.0184
竝	-10.0198
即於	-10.0202
往來	-10.0208
一義	-10.0209
中有三	-10.021
逮	-10.0225
須彌山	-10.0226
淨治	-10.0229
無力	-10.0232
楞伽	-10.0233
後明	-10.0243
旋	-10.0244
得清淨	-10.0244
勸修	-10.0246
六句	-10.0249
功德海	-10.0249
此人	-10.025
以無	-10.0258
此上過佛剎微塵數世界有世界名	-10.0262
三觀	-10.0266
朝	-10.0267
萬物	-10.0268
風輪	-10.0268
貪欲	-10.028
行布	-10.0293
大菩提	-10.0296
攝化	-10.0317
大涅槃	-10.0317
而作佛事	-10.0319
同相	-10.0329
為眾生	-10.033
十二因緣	-10.0332
無因	-10.0333
有世界	-10.0333
疑惑	-10.0333
凡聖	-10.0336
知法	-10.035
會通	-10.035
之力	-10.035
即有	-10.0353
空故	-10.0353
證智	-10.0355
二行	-10.036
六道	-10.036
求一切智	-10.0364
多少	-10.0365
王子	-10.0365
故能	-10.0372
良以	-10.0373
次四	-10.0375
栴檀	-10.0381
逆順	-10.0382
不亂	-10.0385
是總	-10.0386
知一切眾生	-10.0396
獲益	-10.0399
心念	-10.0403
妙智	-10.0403
後句	-10.0405
汝等	-10.0405
永斷	-10.0405
師子座	-10.0409
得此	-10.0411
心行	-10.0417
身中	-10.0419
義者	-10.0419
▁南無得	-10.0419
有多	-10.0435
受苦	-10.0441
略舉	-10.0443
分四	-10.0444
摧	-10.0447
法施	-10.0448
菩薩住此	-10.0451
普徧	-10.0454
若言	-10.0454
於他	-10.0457
六十	-10.046
下別	-10.0461
依報	-10.0464
而現	-10.0467
貴	-10.0472
所觀	-10.0473
隨眾生	-10.0474
調柔	-10.0477
智地	-10.0477
處所	-10.0481
獲得	-10.0482
聲聞緣覺	-10.0482
般涅槃	-10.0483
諸佛世尊	-10.0485
見此	-10.049
法也	-10.0495
諸相	-10.05
梵本	-10.0501
不可量	-10.0501
腹	-10.0504
無自性	-10.0508
更無	-10.051
妙莊嚴	-10.0511
富	-10.0511
義理	-10.0512
▁後	-10.0513
圍遶	-10.0515
因行	-10.0517
典	-10.0518
命終	-10.0522
從緣	-10.0523
權教	-10.0524
是法	-10.0525
不待	-10.0531
何所	-10.0545
不自	-10.0546
入佛	-10.0552
鈔云	-10.0557
經意	-10.0561
圍繞	-10.0561
方得	-10.057
徃	-10.058
能化	-10.0585
施行	-10.0585
天下	-10.0588
缺	-10.0589
實有	-10.0591
囉	-10.0598
之教	-10.06
佛事	-10.0601
悟入	-10.0601
彼經	-10.0604
皮	-10.0612
彼諸	-10.0612
之用	-10.0612
此四	-10.0619
迷惑	-10.063
佛名	-10.0631
四智	-10.0632
地法	-10.0634
一一皆	-10.0637
轉變	-10.0637
以法	-10.0645
白言	-10.0651
從初	-10.0655
女人	-10.0658
有四種	-10.0659
慧菩薩	-10.0668
皆名	-10.067
長短	-10.0675
信等	-10.0695
智體	-10.0696
欣	-10.0706
智眼	-10.0707
遊行	-10.071
默	-10.0711
世界中	-10.0713
大王	-10.0714
落	-10.0715
會釋	-10.0717
為顯	-10.0717
真心	-10.0717
為大	-10.0726
所治	-10.0726
時處	-10.073
賊	-10.0738
清淨故	-10.0756
仙	-10.076
所因	-10.0774
辟支佛	-10.0776
一切劫	-10.078
降伏	-10.0782
皆具	-10.0783
為其	-10.0786
則知	-10.0789
剎土	-10.0795
而來	-10.08
入此	-10.0802
防	-10.0805
若得	-10.0808
端正	-10.0812
無量無數	-10.0812
不樂	-10.0816
訶	-10.0816
亦復	-10.0828
為明	-10.0828
前七	-10.0833
此會	-10.0834
迴心	-10.0838
一音	-10.0841
威光	-10.0852
比丘尼	-10.0853
貪著	-10.0854
隨宜	-10.0855
於如來	-10.086
呪	-10.0866
徵釋	-10.087
《	-10.0875
令知	-10.0876
每	-10.0877
於我	-10.0879
證成	-10.0889
▁二別	-10.0892
晝夜	-10.0892
差別相	-10.0893
無盡故	-10.0895
道品	-10.0896
有人	-10.0896
化作	-10.0905
所聞	-10.0912
真妄	-10.0912
載	-10.0914
實教	-10.0917
貫	-10.0921
三門	-10.0922
百千億	-10.0923
而住	-10.0925
成德	-10.0926
一種	-10.0929
功能	-10.0929
復作是念	-10.093
菩薩地	-10.0935
老死	-10.0938
具云	-10.0946
唯願	-10.0951
後五	-10.0961
若欲	-10.0961
普光	-10.0961
前六	-10.0965
不雜	-10.0965
如如	-10.0966
貧窮	-10.0968
中云	-10.0968
一百	-10.0969
假使	-10.0975
無所障礙	-10.0977
寶樹	-10.098
一一毛孔	-10.0988
無實	-10.0992
護念	-10.0993
菩薩住	-10.0993
男女	-10.0997
遍計	-10.1002
以為莊嚴	-10.1007
續	-10.101
非異	-10.101
於世	-10.1016
無量功德	-10.1016
廣明	-10.1016
十一地	-10.102
響	-10.1022
𤼵	-10.1024
身相	-10.1033
初偈	-10.1034
四義	-10.1038
八十	-10.1045
所應	-10.1049
妙華	-10.1051
性淨	-10.1052
等也	-10.1057
展	-10.1059
初門	-10.1062
慳	-10.1067
律儀	-10.1077
虗妄	-10.1079
百千億那由他	-10.1084
是事	-10.1085
下三	-10.1095
諸三昧	-10.1096
心生	-10.1108
能受	-10.1112
昧	-10.1114
此乃	-10.1116
益物	-10.1118
勇	-10.1123
論曰	-10.1127
畫	-10.1137
能依	-10.1141
所知障	-10.1143
精勤	-10.1149
承佛威力	-10.1152
誤	-10.1165
廣狹	-10.1172
今當	-10.1176
德相	-10.1177
有力	-10.1182
變易	-10.1188
令一切眾生得	-10.1188
良	-10.1188
謂以	-10.1194
既爾	-10.1199
適	-10.1199
譬喻	-10.1203
事理無礙	-10.1205
正報	-10.121
事事無礙	-10.1212
後結	-10.1213
喻中	-10.1214
能攝	-10.1214
九句	-10.1215
同類	-10.1219
品云	-10.1225
慧眼	-10.1231
我皆	-10.1235
善行	-10.1242
古德	-10.1244
茲	-10.1246
瑠璃	-10.1247
此方	-10.125
何謂	-10.1252
大師	-10.1258
過失	-10.1259
如次	-10.1262
▁八	-10.1262
而作	-10.1263
云何為	-10.1268
獄	-10.1272
不即	-10.1273
當來	-10.1274
無所得	-10.1278
得自在	-10.1279
業果	-10.1279
轉輪王	-10.128
理故	-10.128
以前	-10.1281
因中	-10.129
如來境界	-10.1294
瞋恚	-10.1296
珍寶	-10.1297
講	-10.1298
牙	-10.1301
不放逸	-10.1302
如來所	-10.1303
仙人	-10.1306
十者	-10.1306
帝網	-10.132
三釋	-10.1322
即彼	-10.1324
種種差別	-10.1326
貧	-10.1331
骨	-10.1354
此為	-10.1357
論意	-10.136
諸佛菩薩	-10.1361
尸羅	-10.1371
見一切佛	-10.1372
釋經	-10.1393
離一切	-10.1394
攬	-10.1394
天地	-10.1397
生如來家	-10.1409
常行	-10.1416
善住	-10.1417
無想	-10.1423
疏文	-10.1427
遠近	-10.1427
眾行	-10.1429
第三句	-10.1433
今言	-10.1435
謂前	-10.1435
充	-10.1445
傍	-10.1446
以何	-10.1448
後後	-10.1449
鼓	-10.1449
異類	-10.1452
圓音	-10.1458
養	-10.1461
出體	-10.1463
諸剎	-10.1464
示其	-10.1466
我於	-10.1471
詳	-10.1471
罪報懺悔	-10.1472
餘九	-10.1474
門者	-10.1477
行德	-10.1478
心所	-10.1482
顯其	-10.15
總句	-10.15
逐	-10.1504
丈夫	-10.1507
設有	-10.1508
初教	-10.1509
臥	-10.151
具十	-10.1514
斯則	-10.1514
三義	-10.152
三世間	-10.1523
而得自在	-10.1525
作佛	-10.1529
為總	-10.153
非法	-10.1534
為令	-10.1535
後得	-10.1538
亦即	-10.1538
謂由	-10.1552
無所畏	-10.1554
唯佛	-10.1555
責	-10.1559
徧法界	-10.1562
一頌	-10.1563
此處	-10.1568
於眾生	-10.1569
菩提樹	-10.1574
沉	-10.1578
正義	-10.158
由旬	-10.159
於中先	-10.159
滅故	-10.1591
煩惱障	-10.1592
南方	-10.1602
主夜神	-10.1607
果海	-10.1609
六位	-10.161
令住	-10.161
起用	-10.1618
妙慧	-10.1619
唯除	-10.1623
嘆	-10.1629
不令	-10.1631
納	-10.1634
乾闥婆	-10.1635
復現十種	-10.1638
總名	-10.1639
歎德	-10.164
雜集	-10.1642
我見	-10.1643
十中	-10.1643
手足	-10.1648
得菩提	-10.165
兩句	-10.1657
此門	-10.1662
拘	-10.1667
▁初正	-10.167
不生不滅	-10.1672
無非	-10.1674
顯勝	-10.1675
隨應	-10.1679
第四句	-10.1681
閻浮	-10.1687
得成	-10.1689
而恒	-10.169
能破	-10.1691
隨根	-10.1693
諸大菩薩	-10.1695
無知	-10.1701
故經云	-10.1705
我身	-10.1708
種種色	-10.1714
令彼	-10.1714
古今	-10.1715
可以	-10.1718
忽	-10.1719
二空	-10.1728
▁二別釋	-10.1733
委	-10.1735
謝	-10.1738
忍辱	-10.1738
聞者	-10.174
隨其所應	-10.1741
不實	-10.176
州	-10.1763
▁初揔	-10.1768
誑	-10.1769
下正顯	-10.1777
一切行	-10.1779
十方佛	-10.178
入三昧	-10.178
有七	-10.1782
生華藏海	-10.1795
八識	-10.1797
成故	-10.1811
浮	-10.1818
普周	-10.1819
說偈	-10.1826
前之	-10.1828
於十方	-10.1828
或時	-10.1829
等是	-10.1831
檀	-10.1833
十億	-10.1837
今約	-10.1838
燄	-10.1838
無方	-10.1839
分中	-10.1843
此一	-10.1846
三十	-10.1851
善巧方便	-10.1852
塵勞	-10.1853
口業	-10.1858
善入	-10.1859
沈	-10.1866
今文	-10.1873
剎種	-10.1889
不相	-10.189
次名	-10.1892
阿耨多羅三藐三菩提	-10.1898
他方	-10.1901
十重	-10.1902
接	-10.1907
有二十	-10.1912
如來智慧	-10.1914
三輪	-10.1915
因位	-10.192
▁初正明	-10.1922
境智	-10.1923
亦為	-10.1924
恒沙	-10.1925
檀波羅蜜	-10.1926
飛	-10.1928
勞	-10.1938
上首	-10.1938
善男	-10.1939
淨戒	-10.1942
包含	-10.1944
依前	-10.1949
之後	-10.195
即當	-10.1953
一段	-10.1956
累	-10.1964
重重無盡	-10.1968
方所	-10.1969
世界種名	-10.1973
授記	-10.1979
三德	-10.1981
無有邊	-10.1991
前文	-10.1997
為果	-10.2002
修成	-10.2005
居士	-10.2007
有大人相	-10.2009
隨好	-10.201
至此	-10.2015
非不	-10.2028
滅除	-10.203
則不	-10.2036
端嚴	-10.2037
乃能	-10.2039
涉	-10.204
思議	-10.2044
歸依	-10.2048
法寶	-10.2051
妙覺	-10.2059
說為	-10.206
哀愍	-10.206
於是	-10.2061
別故	-10.2062
樂欲	-10.2064
不能知	-10.2073
聽聞	-10.2077
亦能	-10.2088
〔	-10.2089
光普照	-10.2092
此言	-10.2093
下第二	-10.2098
察	-10.2098
眾生身	-10.2104
珍	-10.2117
頌云	-10.2117
諸佛所	-10.2119
善根迴向亦復如是	-10.2122
十方一切世界	-10.2123
種種諸	-10.2124
無涯	-10.2136
師子吼	-10.2139
未曾有	-10.2141
謬	-10.2142
放光明	-10.2143
生長	-10.2143
復以	-10.2144
別說	-10.2145
異名	-10.2145
照耀	-10.2149
周法界	-10.2149
法說	-10.2151
智用	-10.2155
心者	-10.2165
繞	-10.2165
慈氏	-10.2167
即真	-10.2169
佛國土	-10.217
闡提	-10.217
既云	-10.2171
竪	-10.2172
妙香	-10.2173
五根	-10.2174
投	-10.2174
現相	-10.2175
隨諸眾生	-10.2184
會中	-10.2188
欲顯	-10.219
離言	-10.2192
薄	-10.2195
升	-10.2201
六者	-10.2205
隨眠	-10.2207
衰	-10.2209
於一切眾生	-10.2209
謂佛	-10.2214
御	-10.2215
為趣	-10.2217
應機	-10.2219
羅剎	-10.2226
等皆	-10.2229
是謂	-10.2231
次云	-10.2233
先標	-10.2235
一類	-10.2237
事業	-10.2242
菩提場	-10.2247
於理	-10.2248
所明	-10.2252
題	-10.2253
▁九	-10.2261
無生忍	-10.2262
遷	-10.2262
遮那	-10.2264
次二句	-10.2266
總攝	-10.2274
所說法	-10.2278
知諸法	-10.2284
發願	-10.2285
寂然	-10.2289
行中	-10.2296
箇	-10.2297
法合	-10.2304
常為	-10.2305
不可以	-10.2309
劫中	-10.2316
生安隱心	-10.2318
偈讚	-10.2319
施設	-10.2321
於其	-10.2325
之位	-10.233
分為二	-10.2336
修治	-10.2336
場	-10.2337
見諸佛	-10.234
本識	-10.2341
愍	-10.2344
有所	-10.2347
修諸行	-10.2355
是前	-10.2357
譬	-10.236
辦	-10.2366
無極	-10.2367
故論云	-10.2372
乾	-10.2372
別義	-10.239
難思議	-10.2393
普應	-10.2395
未知	-10.2399
頌中	-10.2399
博	-10.2402
爾時善財	-10.2404
毫	-10.2409
學者	-10.2413
合掌	-10.2414
淨光	-10.2417
甚深法	-10.2421
無有餘	-10.2426
潔	-10.2429
令生	-10.2436
佛剎微塵數世界	-10.2448
無分別智	-10.245
真金	-10.2456
觀行	-10.2457
是中	-10.2461
應當	-10.2463
然上	-10.2466
一日	-10.2466
說也	-10.2466
起安慰心	-10.2467
異相	-10.2471
無性故	-10.2475
應化	-10.2486
無失	-10.2486
必有	-10.2491
阿僧祇劫	-10.2491
六相	-10.2491
諸乘	-10.2495
佛國	-10.2498
種種方便	-10.25
群	-10.2506
取著	-10.251
山王	-10.2511
相成	-10.2517
餘如	-10.2518
層	-10.2522
聞此	-10.2523
從其	-10.2524
依於	-10.2524
以為其	-10.2524
三千	-10.2525
不息	-10.2527
枝	-10.2529
我已得住	-10.2529
二禪	-10.2532
妨	-10.2535
正智	-10.2539
六種	-10.2543
一體	-10.2544
藏菩薩	-10.2545
有餘	-10.2548
解脫月	-10.2549
即涅槃	-10.2554
塗香	-10.2555
有八	-10.256
為令他住	-10.2561
名稱	-10.2566
幢菩薩	-10.2567
普攝	-10.2568
名言	-10.2574
天宮	-10.2574
相也	-10.2575
貪愛	-10.2581
▁【	-10.2583
塗	-10.2596
無二故	-10.2597
亦復然	-10.2599
生信	-10.2604
金剛藏菩薩	-10.261
唐于闐國三藏沙門實叉難陀譯	-10.2614
十佛剎微塵數	-10.262
有為法	-10.262
法眼	-10.262
智波羅蜜	-10.262
短	-10.2624
深法	-10.2626
與前	-10.2627
厚	-10.2627
海印	-10.2629
攝持	-10.2629
又釋	-10.2633
▁初正釋	-10.2635
或復	-10.264
蓮華藏	-10.264
以佛	-10.264
因此	-10.2642
謙	-10.2654
妙光	-10.2659
問云	-10.2663
與眾生	-10.2674
大光明	-10.2677
能觀	-10.2681
常見	-10.2684
修菩薩道	-10.2687
雙行	-10.2687
雖復	-10.2694
同事	-10.2695
諸佛剎	-10.2699
思量	-10.2701
彼佛	-10.2705
供養佛	-10.2708
知之	-10.2709
釋中	-10.2711
豈不	-10.2715
第十地	-10.2715
覺觀	-10.2722
後得智	-10.2724
移	-10.2726
軌	-10.2732
一一塵中	-10.2736
不隨	-10.2744
為說法	-10.2744
次有香水海名	-10.2746
遠公	-10.2748
大慧	-10.2749
心性	-10.2752
回向	-10.2753
融攝	-10.2757
名義	-10.2758
果法	-10.2761
如說	-10.2763
發生	-10.277
今但	-10.2783
三段	-10.2789
斷滅	-10.2789
樓	-10.2792
角	-10.2796
普照十方	-10.2797
四攝	-10.2798
三摩地	-10.28
第二句	-10.2801
見其	-10.2802
身見	-10.2806
略釋	-10.2808
能捨	-10.2817
劫海	-10.2822
八相	-10.2823
法喻	-10.2825
作佛事	-10.2828
染著	-10.2832
澤	-10.2839
在此	-10.2844
固	-10.2851
是一	-10.2862
有三義	-10.2864
俗諦	-10.2865
快樂	-10.2866
餘三	-10.2871
實義	-10.2875
惠	-10.2877
行滿	-10.2884
現故	-10.2884
初舉	-10.2886
常在	-10.2887
恚	-10.2887
佛智慧	-10.2887
得道	-10.2888
中無	-10.2895
何處	-10.2897
普覆	-10.2906
智境	-10.2911
不移	-10.2912
無有盡	-10.2913
草木	-10.2914
所顯	-10.2916
舒	-10.2917
各異	-10.2927
雙非	-10.293
二教	-10.2935
義通	-10.2938
即同	-10.294
諸苦	-10.2944
黃	-10.2952
徧十方	-10.2961
餘二	-10.2964
俱有	-10.2976
大士	-10.2978
二相	-10.2982
十方一切	-10.2989
梵音	-10.2991
作如是念	-10.2992
釋之	-10.2997
不現	-10.2999
如其	-10.2999
無有障礙	-10.3
攝一切	-10.3005
既無	-10.3007
法義	-10.3008
阿脩羅	-10.3008
眠	-10.3012
已得	-10.3012
總標	-10.3012
鑒	-10.3017
七者	-10.3018
亦以	-10.3019
謂有	-10.3024
芽	-10.3024
畜	-10.3025
成菩提	-10.3025
廣顯	-10.3031
第二會	-10.3032
彼論	-10.3035
道故	-10.304
一切國土	-10.3045
今日	-10.3047
藉	-10.3048
世主	-10.3048
有二一	-10.3059
依彼	-10.306
啟	-10.3068
邊際	-10.3068
如金剛	-10.307
品中	-10.3071
知足	-10.3072
有大	-10.3076
免	-10.308
五門	-10.3082
偽	-10.3082
二依	-10.3089
種類	-10.3091
十方盡歸命滅罪增淨信願	-10.3096
足下	-10.3098
妻子	-10.3106
法慧	-10.3107
形像	-10.311
傷	-10.311
承事供養	-10.311
能淨	-10.3113
未能	-10.3113
頂禮	-10.3114
。』「	-10.3115
來意	-10.3116
聽受	-10.3116
未有	-10.3117
借	-10.3119
炎	-10.312
繫縛	-10.312
露	-10.3124
瞻	-10.3133
所行道	-10.3133
究	-10.3133
初十	-10.3135
離世間	-10.3136
演法	-10.3141
正受	-10.3143
證理	-10.3144
顧	-10.3144
關	-10.3146
莫不	-10.3147
惟	-10.3152
者如	-10.3156
案	-10.3157
問若	-10.3158
但約	-10.3159
不相違	-10.3159
饒益眾生	-10.3166
道者	-10.3167
勝劣	-10.3167
側	-10.3179
十願	-10.318
未來世	-10.3186
器世間	-10.3187
結歎	-10.3189
湛然	-10.319
嗔	-10.319
皆依	-10.3192
淺深	-10.3193
無數劫	-10.3193
所修行	-10.3195
三事	-10.3201
輪迴	-10.3205
報得	-10.3207
散亂	-10.3209
不可見	-10.321
成上	-10.3211
隨行	-10.3212
所立	-10.3213
再	-10.3215
破戒	-10.3218
於中四	-10.3219
辭退而去	-10.3221
三賢	-10.3224
汝今	-10.3228
君	-10.324
九會	-10.3241
八者	-10.3247
非有非無	-10.325
能為	-10.3256
願得	-10.3256
遍十方	-10.3257
有支	-10.3263
顯理	-10.3264
彼此	-10.3264
明菩薩	-10.3266
無障	-10.3272
十頌	-10.328
菩提樹下	-10.3281
等十	-10.3281
開發	-10.3282
能於	-10.3292
正定	-10.3293
心淨	-10.3303
表之	-10.3304
諸群生	-10.3322
豈非	-10.3325
所造	-10.3326
通明	-10.3337
後十	-10.3338
前中初	-10.334
摩耶	-10.3342
階	-10.3343
度脫	-10.3346
為佛	-10.3352
不分	-10.3354
合為一	-10.3357
供具	-10.3361
生者	-10.3375
是為菩薩	-10.3375
諸度	-10.3375
能得	-10.3382
佛為	-10.3383
興供	-10.3385
造作	-10.3386
差別故	-10.3388
下正	-10.3394
以義	-10.3394
用故	-10.3397
法雲地	-10.3403
城名	-10.341
有言	-10.3412
法光明	-10.3414
無所住	-10.3417
三聚	-10.3419
濫	-10.3419
天台	-10.342
無滅	-10.3424
合前	-10.3424
次有佛興名	-10.3425
下即	-10.3428
勸請	-10.3429
悟解	-10.343
照明	-10.3436
同佛	-10.3436
開敷	-10.3437
末後	-10.344
一會	-10.3442
乞	-10.3445
難可	-10.3453
資糧	-10.3455
菩薩所行	-10.3458
十萬	-10.3461
色像	-10.3467
三十七	-10.3467
一切種	-10.3469
文中二	-10.3469
十心	-10.3472
其意	-10.3474
菩薩眾	-10.3478
張	-10.3484
普觀一切	-10.3484
二十一	-10.3484
入一	-10.3486
此法門	-10.3488
利眾生	-10.349
一切眾	-10.3494
之上	-10.3498
於一切世界	-10.3498
摩耶夫人	-10.3499
願共諸眾生往生華藏海	-10.35
明佛	-10.3502
之業	-10.3502
令我	-10.3505
遍滿	-10.3506
彼云	-10.3509
方成	-10.351
盜	-10.3511
為物	-10.3513
諸經	-10.352
如日	-10.3523
懼	-10.3525
妄語	-10.3525
胎	-10.3527
廣多	-10.3532
此身	-10.3533
無有量	-10.3534
無形	-10.3535
生歡喜	-10.3538
此名	-10.3541
約位	-10.3541
鉢	-10.3544
以智慧	-10.3545
但說	-10.3552
諸國土	-10.3554
魚	-10.3557
行也	-10.3563
大力	-10.3565
淨眼	-10.3565
到彼岸	-10.3567
法器	-10.3569
為真	-10.3569
舍利	-10.3573
王位	-10.3574
勝妙	-10.3575
等法	-10.3575
障故	-10.3581
佛告	-10.3584
億劫	-10.3584
春	-10.3586
錯	-10.3587
有何	-10.3592
釋上	-10.3593
西域	-10.3594
▁十	-10.3598
業障	-10.3599
但言	-10.36
示現一切	-10.36
無生滅	-10.3602
信受	-10.3604
〕	-10.3605
能斷	-10.361
苦集	-10.3611
遺	-10.3612
纔	-10.3622
是為菩薩摩訶薩	-10.3623
寶光明	-10.3623
熱惱	-10.3625
普光明殿	-10.3628
無斷	-10.3639
故成	-10.3644
如諸菩薩摩訶薩	-10.3645
本事	-10.3645
如來出現	-10.3647
漸漸	-10.3648
暢	-10.3659
盡故	-10.3665
實性	-10.367
淨信	-10.3679
能除	-10.3686
難見	-10.369
雪山	-10.3692
六處	-10.3693
法忍	-10.3694
幾	-10.3694
則以	-10.3696
後之	-10.3698
無功	-10.3699
雲雨	-10.37
非但	-10.371
三十二相	-10.3711
所樂	-10.3714
窟	-10.3729
生時	-10.373
諸有情	-10.3731
索	-10.3731
總釋	-10.3731
盡未來劫	-10.3735
自在神力	-10.3736
自說	-10.3736
諸善知識	-10.3738
一部	-10.3739
僧祇	-10.3744
哀	-10.3749
明達	-10.3751
雖無	-10.3751
上云	-10.3751
稱歎	-10.3753
而為說法	-10.3755
寶網	-10.3756
入如來	-10.3756
遍周	-10.3764
諸見	-10.3768
無疑	-10.3769
無學	-10.3776
汝當	-10.3781
又問	-10.3782
為他	-10.3791
初生	-10.3801
稟	-10.3802
為正	-10.3802
方廣	-10.3808
具有	-10.3811
但明	-10.3814
其性	-10.3819
異體	-10.382
於無量劫	-10.3824
為勝	-10.3825
先釋	-10.383
等事	-10.3836
逢	-10.3837
無色界	-10.3839
如來應正等覺	-10.3842
總為	-10.3843
生死涅槃	-10.3849
阿修羅	-10.3849
圓通	-10.385
涅槃經	-10.3853
堪受	-10.3853
塵中	-10.3853
▁二別顯	-10.3859
乃至云	-10.386
二十五	-10.3864
字時	-10.3865
二顯	-10.3867
譬如有人	-10.3867
親近供養	-10.3872
盲	-10.3872
根性	-10.3874
性自	-10.3875
眾德	-10.3877
海住	-10.3883
影略	-10.3886
徧周	-10.3889
奏	-10.3891
誘	-10.3894
二法	-10.3895
有四句	-10.3903
諸比丘	-10.3905
通顯	-10.3912
船	-10.3918
氏	-10.3923
雙融	-10.3924
深妙	-10.3929
均	-10.393
出現品	-10.3934
增勝	-10.3939
結跏趺坐	-10.3941
洲	-10.3943
小異	-10.3946
前中三	-10.3946
為此	-10.3952
具如	-10.3956
普使	-10.3961
不立	-10.3963
▁初約	-10.3964
言教	-10.3964
一念中	-10.3968
救護一切眾生	-10.3969
地位	-10.3974
初四	-10.3977
徧照	-10.3978
真智	-10.3978
澄	-10.3979
令人	-10.3981
無緣	-10.3983
長時	-10.3985
。」「	-10.3988
殊特	-10.3991
為方便	-10.3992
修因	-10.4006
為諸眾生	-10.4006
即能	-10.401
勤求	-10.4011
充滿十方	-10.4011
侍	-10.4012
昏	-10.4012
險	-10.402
妻	-10.4021
化現	-10.4022
不識	-10.4022
諸門	-10.4024
一以	-10.4027
猛	-10.4028
他心	-10.403
不可說佛剎微塵數	-10.4032
普莊嚴	-10.4037
共相	-10.4039
不復	-10.4043
映	-10.4046
悉現	-10.4052
轉勝	-10.4052
前中亦二	-10.4055
已說	-10.4055
遠離一切	-10.4056
依果	-10.4056
不貪	-10.4059
諸會	-10.4062
九者	-10.4063
莖	-10.4067
種智	-10.4069
聲聞乘	-10.4071
於一切處	-10.4071
因陀羅	-10.4078
聞持	-10.408
空義	-10.4083
約理	-10.4084
相攝	-10.4084
眉間	-10.4086
摩尼寶王	-10.4086
但取	-10.4089
形相	-10.4101
可愛樂	-10.4101
是所	-10.4107
二智	-10.4108
十事	-10.411
觀者	-10.4112
分段	-10.4112
▁初總	-10.4116
巧方便	-10.4117
之首	-10.4117
又初	-10.4118
同別	-10.412
重釋	-10.4127
此教	-10.4127
尚不	-10.4129
般若波羅蜜門	-10.4135
正理	-10.4138
十偈	-10.4144
斷除	-10.4144
其體	-10.4148
或施	-10.4154
佛神力	-10.4154
作是	-10.4156
自知	-10.4156
是彼	-10.4158
方便智	-10.4161
其有	-10.4163
入法	-10.4164
智行	-10.4164
十段	-10.4168
三禪	-10.4168
錢	-10.4175
別教一乘	-10.4176
里	-10.4177
奇特	-10.418
應以	-10.4181
俱是	-10.4184
說有	-10.4185
決擇	-10.4201
右	-10.4202
文有三	-10.4207
普觀	-10.4217
一依	-10.422
無量諸	-10.4224
智通	-10.4225
彰其	-10.4227
法華經	-10.4228
修善	-10.423
事中	-10.4231
徧滿	-10.4234
他人	-10.4236
柱	-10.4242
之與	-10.4243
等正覺	-10.4245
十智	-10.4246
今依	-10.4247
而常	-10.4247
請問	-10.4249
由是	-10.4249
都無	-10.4252
補	-10.4255
箭	-10.4258
謂若	-10.4265
時有	-10.4277
志樂	-10.4277
得菩薩	-10.4277
恒河沙	-10.4282
知根	-10.4289
方便故	-10.4295
一切菩薩行	-10.4295
後義	-10.4301
攀緣	-10.4303
眼等	-10.4304
——	-10.4305
皆言	-10.4307
測	-10.4307
所念	-10.4308
今取	-10.4309
一切眾生心	-10.431
梵云	-10.431
與佛	-10.4315
增益	-10.4326
如水	-10.4326
所執	-10.4329
無窮盡	-10.4333
非如	-10.4335
護法	-10.4335
作如是言	-10.4338
不如	-10.4341
龍樹	-10.4341
日輪	-10.4342
頌曰	-10.4342
問此	-10.4343
緊那羅	-10.4344
施與	-10.4344
與彼	-10.4344
能引	-10.4346
五十	-10.4348
高下	-10.435
先舉	-10.4351
所斷	-10.4356
諸德	-10.4358
以自	-10.4366
眾妙	-10.4367
赤	-10.4369
諸劫	-10.437
非謂	-10.4374
此天	-10.4375
如化	-10.4377
伹	-10.4378
曜	-10.4379
不相知	-10.4382
不虛	-10.4384
雷	-10.4385
符	-10.4386
之初	-10.4389
中先	-10.439
及餘	-10.4395
理事無礙	-10.4397
尺	-10.44
明以	-10.4408
過患	-10.4411
體即	-10.4412
以此善根	-10.4418
無行	-10.4419
百川	-10.4423
此通	-10.4428
契經	-10.4431
或作	-10.4431
初總標	-10.4433
上品	-10.4434
兜率	-10.4435
無礙故	-10.4436
之益	-10.4437
等取	-10.4441
難測	-10.4444
分為三	-10.445
法慧菩薩	-10.4451
揀異	-10.446
大品	-10.4462
依教	-10.4465
之眾	-10.4467
一異	-10.4472
則得如來無上	-10.4473
非色	-10.4473
那由他	-10.4477
法智	-10.4484
後二句	-10.4485
一位	-10.4488
四約	-10.449
若諸菩薩安住此法	-10.4493
隨其所	-10.4494
順理	-10.4495
刀	-10.4495
七識	-10.4496
所住處	-10.4503
痛	-10.4505
看	-10.4506
帖	-10.4509
不相應	-10.4511
具一切	-10.4515
能滅	-10.4517
▁初問	-10.4518
一眾生	-10.4519
愛語	-10.4524
修證	-10.4534
按	-10.4537
揔	-10.4539
可說	-10.4542
和尚	-10.4544
准之	-10.4545
敵	-10.4549
釋義	-10.4555
二十八	-10.4557
實無	-10.4559
互為	-10.4561
其數	-10.4561
破壞	-10.4562
淨行	-10.4563
出過	-10.4566
造業	-10.4576
想念	-10.4577
明此位菩薩	-10.458
為實	-10.4583
樹下	-10.4588
各隨	-10.4589
釋前	-10.4589
豎	-10.4593
斷疑	-10.4596
心中	-10.4598
▁二顯	-10.4609
了因	-10.4611
所信	-10.4612
恨	-10.462
二俱	-10.462
意也	-10.4622
生死海	-10.4625
修生	-10.4626
前明	-10.4626
下二句	-10.4632
清淨心	-10.4639
無增減	-10.464
超出	-10.4641
如雲	-10.4645
就初	-10.4647
住此	-10.4649
出生一切	-10.4653
不然	-10.4655
不畏	-10.4657
亦具	-10.4658
不有	-10.4662
於一念頃	-10.4662
說名	-10.4664
十方國土	-10.4669
作者	-10.4669
善根故	-10.467
佛道場一切海眾	-10.4677
嚴具	-10.4677
有二義一	-10.4678
前際	-10.4679
念念中	-10.4679
無智	-10.4685
於諸眾生	-10.4686
第一義諦	-10.4694
婆沙	-10.4695
寶蓮華	-10.47
意在	-10.4701
百年	-10.4708
九門	-10.4708
位故	-10.4715
某	-10.4715
逝多林	-10.4716
也又	-10.4716
陽	-10.472
亦說	-10.4722
齒	-10.4723
蘇	-10.4725
染污	-10.4726
即如	-10.4734
因陀羅網	-10.4735
軍	-10.4736
轉正法輪	-10.4737
令離	-10.474
為彼	-10.4742
時善財童子	-10.4745
有相	-10.4746
勇健	-10.4748
能隨	-10.4749
諸大	-10.4754
生大歡喜	-10.4755
隨一	-10.4757
安置	-10.4766
證法	-10.4766
鬼神	-10.4768
正教	-10.4769
光明雲	-10.4769
而於	-10.4771
者表	-10.4772
中論	-10.4773
即上	-10.4775
言無	-10.4778
無有窮盡	-10.4783
淨故	-10.4785
隨類	-10.4785
方是	-10.4787
不足	-10.4791
二別	-10.4793
令眾	-10.4795
但隨	-10.4797
經典	-10.4799
北方	-10.4804
善解	-10.4804
嫉	-10.4805
記云	-10.4807
二品	-10.4808
白佛言	-10.4808
憂惱	-10.4809
如響	-10.4818
成其	-10.4818
香雲	-10.4819
天鼓	-10.482
諸佛境界	-10.4828
無退轉	-10.4831
有二意	-10.4831
惡行	-10.4832
知三世	-10.4833
有佛性	-10.4834
契理	-10.4835
是非	-10.4838
般	-10.4838
多身	-10.484
因圓	-10.4841
結歸	-10.4845
約事	-10.4846
雲集	-10.4847
說分	-10.4848
觀智	-10.4848
善說	-10.4849
滿故	-10.4849
先總	-10.4855
寂照	-10.4864
普賢行願	-10.4865
停	-10.4866
若諸菩薩	-10.4867
泉	-10.4871
訖	-10.4875
體也	-10.4875
此五	-10.4875
當位	-10.4876
而為上首	-10.4876
者之所住處	-10.4877
後顯	-10.4881
不可說劫	-10.4881
釋此	-10.4887
群生	-10.4891
不同故	-10.4893
屈	-10.4897
上皆	-10.4901
如世	-10.4905
喻喻	-10.4908
初住	-10.4911
百千萬億	-10.4911
逮得	-10.4914
錄	-10.4915
寶光	-10.4915
俱非	-10.4918
離染	-10.4922
是有	-10.4923
聞巳	-10.4923
與此	-10.4923
於無量	-10.4927
驗	-10.4928
了義	-10.493
於諸佛所	-10.493
來集	-10.4931
兵	-10.4941
琉璃	-10.4942
眾生世間	-10.4943
多門	-10.4946
果分	-10.4947
次釋	-10.4949
利物	-10.4949
玉	-10.495
於諸法	-10.4953
香華	-10.4953
有為無為	-10.4955
覺知	-10.4955
皆無	-10.4959
夜叉王	-10.496
教中	-10.4961
門也	-10.4961
力持	-10.4966
身土	-10.4967
諸菩薩行	-10.4968
准此	-10.4969
▁二約	-10.4975
於生死	-10.4976
果中	-10.4977
實德	-10.4977
皆通	-10.4978
能照	-10.4982
常以	-10.4989
閻浮檀金	-10.4989
所流	-10.499
施心	-10.4994
除滅一切	-10.4996
示現種種	-10.4997
束	-10.5005
惜	-10.5005
離惡	-10.5005
巳得	-10.5014
一切智道	-10.5014
世諦	-10.5017
是為菩薩摩訶薩十種	-10.5018
二偈	-10.502
緣成	-10.502
▁初示義	-10.5022
闍	-10.5025
一剎	-10.5026
悲心	-10.5029
非我	-10.5035
世界海微塵數	-10.5035
諸龍	-10.5037
應現	-10.5042
於上	-10.5045
本行	-10.5047
益生	-10.506
鄣	-10.5063
總舉	-10.5068
對上	-10.5074
無盡藏	-10.5077
真珠	-10.5083
椽	-10.5086
以表	-10.5088
無言	-10.5089
入地	-10.5093
荅	-10.5094
消滅	-10.5096
當成	-10.5103
業惑	-10.5108
一切境界	-10.5109
宗趣	-10.5112
心城	-10.5114
憐愍	-10.5116
蓮	-10.5118
降魔	-10.5122
就前	-10.5125
夢中	-10.5128
增減	-10.513
猶如虛空	-10.5133
欲得	-10.5133
不共法	-10.5137
疏中	-10.5147
稱法界	-10.5153
智論云	-10.5154
此一段	-10.516
任持	-10.5165
所願	-10.5173
斷煩惱	-10.5173
之外	-10.5178
諸佛國土	-10.518
合中	-10.5181
或唯	-10.5182
為業	-10.5184
即事	-10.5189
▁初徵	-10.519
前九	-10.5191
有無量	-10.5194
曉了	-10.5195
閉	-10.5198
略明	-10.5198
磨	-10.5199
半月	-10.5202
理性	-10.5202
一一各	-10.5204
爾所	-10.5204
同也	-10.5213
猶未	-10.5216
時彼	-10.5218
妙用	-10.522
對法	-10.5221
諸緣	-10.5223
不殊	-10.5225
離分別	-10.5226
流出	-10.5229
化度	-10.523
日夜	-10.5236
夜天	-10.5238
大菩薩	-10.5238
多佛	-10.5242
夷	-10.5243
末香	-10.5244
之異	-10.5245
歡喜地	-10.5251
清淨光明	-10.5255
圓滿故	-10.5257
難說	-10.5257
汝應	-10.5257
初後	-10.526
道場眾會	-10.5261
不可說不可說佛剎微塵數	-10.5261
生佛	-10.5262
別者	-10.5263
水中	-10.5265
定有	-10.5268
將欲	-10.5269
瞻仰	-10.5271
勝智	-10.5273
者此云	-10.5277
延	-10.5278
聽法	-10.5284
意生身	-10.5287
起於	-10.5289
正因	-10.529
化佛	-10.5291
在其中	-10.5291
無遺	-10.5292
根欲	-10.5292
不思	-10.5294
始成正覺	-10.5299
菩薩身	-10.53
若就	-10.5302
若取	-10.5303
即時	-10.5304
禮敬	-10.5306
善決定	-10.5306
四天王	-10.5308
不生滅	-10.5317
廣博	-10.5318
終頓	-10.5318
出三界	-10.5321
吉	-10.5322
有云	-10.5323
無過	-10.5327
中現	-10.533
下答	-10.5332
以是義故	-10.5335
從初發心	-10.5337
寒	-10.5341
世間法	-10.5343
舉其	-10.5346
脩行	-10.5349
為名	-10.5351
自見	-10.5353
證道	-10.5354
專求	-10.5354
答中	-10.5357
入正定	-10.5357
淨修	-10.5357
以諸	-10.5358
三乘中	-10.5359
洗	-10.5364
色等	-10.5373
法行	-10.5374
名體	-10.5375
江	-10.5375
策	-10.5375
若離	-10.5375
牒經	-10.5378
集眾	-10.538
事法	-10.5381
▁二辨	-10.5386
報恩	-10.5392
第七地	-10.5392
而實	-10.5393
信位	-10.5397
又見	-10.5397
乾闥婆王	-10.5399
樂說	-10.54
途	-10.5403
因也	-10.5405
受者	-10.5407
二十四	-10.5407
即知	-10.5409
莫能	-10.5414
多同	-10.5415
若見眾生	-10.5418
永不	-10.5419
寶珠	-10.542
聞說	-10.5424
利他行	-10.5427
泥洹	-10.5429
皆如	-10.543
且約	-10.5431
中具	-10.5432
悉了知	-10.5433
即成	-10.5433
法界品	-10.5433
我以	-10.5435
其名	-10.5436
廣大心	-10.5437
榮	-10.5437
求菩提	-10.544
以大悲	-10.544
相資	-10.545
所照	-10.5451
於三世	-10.5455
於一一	-10.5456
悲願	-10.5458
知諸	-10.546
未盡	-10.5463
別名	-10.5465
其餘	-10.5465
大方廣	-10.5472
執持	-10.5478
涅槃云	-10.5481
禪波羅蜜	-10.5487
喻顯	-10.5491
無得	-10.5491
孤	-10.5494
二段	-10.5498
現見	-10.5501
▁三釋	-10.5504
增廣	-10.551
須臾	-10.5517
遭	-10.5518
所覆	-10.5521
諦聽	-10.5523
有佛	-10.5524
殊妙	-10.5529
去來	-10.5532
過去世	-10.5538
二人	-10.5542
二十二	-10.5544
此智	-10.5544
遍一切	-10.5544
眾海	-10.555
說經	-10.5552
如法	-10.5553
一切三世	-10.5554
遵	-10.556
告言	-10.5565
善分別	-10.5567
大悲心	-10.557
威神	-10.5571
上上	-10.5572
普智	-10.5576
海水	-10.5576
薩	-10.5579
半頌	-10.558
若是	-10.558
於中有二	-10.5583
令物	-10.5584
心王	-10.5587
前地	-10.5587
攝故	-10.5589
超勝	-10.559
有體	-10.5592
又於	-10.5595
觀一切法	-10.5599
迦樓羅王	-10.5605
望於	-10.561
分位	-10.5615
五明	-10.5618
理無	-10.5618
六波羅蜜	-10.562
穀	-10.5622
令成	-10.5623
身口	-10.5623
方名	-10.5624
文有	-10.5624
蜜	-10.5625
盧舍那	-10.5627
同此	-10.5627
欲求	-10.5631
此意	-10.5634
量等	-10.5636
形色	-10.5637
謂初	-10.5642
初一總	-10.5644
中十句	-10.5645
受生藏	-10.5645
宿命	-10.565
閣	-10.5653
告善財言	-10.5654
名相	-10.5655
煩	-10.5658
了法	-10.5661
願我	-10.5663
牽	-10.5664
地智	-10.5665
義當	-10.5666
寄位	-10.5666
如我	-10.5669
自下	-10.5674
蟲	-10.5677
城邑	-10.5681
蛇	-10.5681
推求	-10.5683
緣故	-10.5686
智自在	-10.5689
佛種	-10.5689
孔	-10.569
出興	-10.5698
寶衣	-10.5699
百萬阿僧祇	-10.5704
智德	-10.571
者即是	-10.571
不可稱	-10.5713
族	-10.5714
授法	-10.5718
下正明	-10.5718
法界故	-10.5723
眾寶莊嚴	-10.5724
婬	-10.5724
即非	-10.5725
稱揚	-10.5728
分五	-10.5728
通局	-10.5729
瑜伽云	-10.573
摧伏	-10.5733
影現	-10.5733
収	-10.5733
曠	-10.5738
偈半	-10.574
開演	-10.5745
現一切	-10.5747
果位	-10.5748
叉	-10.5749
品類	-10.575
顯實	-10.5757
菩提分	-10.576
耀	-10.5766
各不同	-10.5769
問中	-10.577
仁王	-10.5771
貪等	-10.5772
四相	-10.5776
七種	-10.5777
正證	-10.578
眾善	-10.5781
胡	-10.5781
智明	-10.5786
大方廣佛華嚴經疏卷第	-10.5788
讀	-10.579
謂之	-10.579
者此	-10.5797
上文	-10.5798
兒	-10.5801
難云	-10.5804
以為眷屬	-10.5806
不可窮盡	-10.5806
既言	-10.581
愛欲	-10.5816
求佛	-10.5825
見有	-10.5827
出入	-10.5828
正等覺	-10.5831
又上	-10.5833
大莊嚴	-10.5837
四方	-10.5838
忽然	-10.5842
其事	-10.5845
而知	-10.5849
術	-10.5853
能令眾生	-10.5854
緊那羅王	-10.5854
果也	-10.5858
教門	-10.5858
約人	-10.5858
一世界	-10.5863
臂	-10.5867
等為	-10.5868
頂禮其足	-10.5868
右旋	-10.5872
伊	-10.5873
迎	-10.5874
五頌	-10.5874
能行	-10.5875
洞	-10.5876
法界無量	-10.5877
以上	-10.5878
無諍	-10.5885
以無著無縛解脫心	-10.5889
夫人	-10.5891
一字	-10.5892
令心	-10.5893
得一切智	-10.5895
摩睺羅伽王	-10.5899
阿脩羅王	-10.5902
才	-10.5903
凡小	-10.5903
以喻	-10.5904
例然	-10.5905
能信	-10.5906
毗盧遮那如來	-10.5909
掌	-10.5909
經曰	-10.5911
八部	-10.5912
不動智佛	-10.5918
敬禮	-10.5919
厭離	-10.593
三十六	-10.5935
諸惑	-10.5937
一剎那	-10.5937
之地	-10.5941
似有	-10.5941
瑞	-10.5945
初辨	-10.5946
□	-10.5946
第八地	-10.5947
依處	-10.595
正宗	-10.5952
。】△	-10.5953
菩薩得	-10.5955
有四義	-10.5959
讚佛	-10.5965
四重	-10.5966
以理	-10.5967
詐	-10.5967
無上道	-10.5969
反顯	-10.5972
第三時	-10.5979
果滿	-10.5984
是無常	-10.5984
真實義	-10.5985
偈文	-10.5987
業力	-10.5995
苦果	-10.5996
諸願	-10.5997
天上	-10.5997
現在前	-10.5997
愧	-10.6001
一方	-10.6001
一切法門	-10.6003
勒	-10.6011
異者	-10.6011
我唯知此	-10.6011
同教一乘	-10.6012
妙音聲	-10.6012
種善根	-10.6016
初中二	-10.602
一切悉	-10.6021
剎中	-10.603
轉輪聖王	-10.6031
十地中	-10.6035
令諸菩薩	-10.6036
頓現	-10.6041
此偈	-10.6043
既有	-10.6044
具足一切	-10.6049
彌勒菩薩	-10.6049
入位	-10.605
易了	-10.605
卑	-10.6053
一毛孔	-10.6056
起故	-10.6064
所在	-10.6064
今更	-10.6066
此諸	-10.6071
以有	-10.6072
慕	-10.6072
三十三天	-10.6075
之數	-10.6075
空無	-10.6077
二分	-10.6081
履	-10.6082
何名	-10.6083
大般若	-10.6087
復有無量	-10.6093
殺生	-10.6094
左	-10.6096
務	-10.6096
徵意云	-10.6098
發意	-10.6099
總中	-10.61
漏盡	-10.6103
所行處	-10.6107
本智	-10.611
其上	-10.611
諸魔	-10.6119
攝眾生	-10.6123
男	-10.6124
其光	-10.6124
下約	-10.6129
亦無所	-10.6129
所熏	-10.613
三重	-10.6131
離生	-10.6131
以法界	-10.6133
惠施	-10.6133
文有二	-10.6137
體無	-10.6141
侵	-10.6143
菩薩爾時	-10.6143
聞慧	-10.6144
不可得故	-10.6147
處故	-10.6147
定性	-10.6149
所有眾生	-10.615
青蓮華	-10.615
有五種	-10.6151
上四	-10.6153
去來今	-10.6153
釋論	-10.6154
惱害	-10.6157
謂依	-10.6169
不攝	-10.6172
問也	-10.6173
六識	-10.6173
平等心	-10.6178
二千	-10.6185
競	-10.6187
大行	-10.6188
摩頂	-10.6189
電光	-10.6189
略顯	-10.6189
血	-10.6191
取相	-10.6191
未生	-10.6193
得一切	-10.6197
共生	-10.6204
佛出興	-10.6206
六通	-10.6207
亦見	-10.6213
有九	-10.6215
相顯	-10.6216
即佛	-10.6219
能了	-10.622
七句	-10.6223
空觀	-10.6223
大會	-10.6223
色心	-10.6227
諂	-10.6227
大威德	-10.6227
碎	-10.6227
夏	-10.6229
無來去	-10.623
崇	-10.6231
筆	-10.6231
常勤	-10.6233
世親	-10.624
次明	-10.6244
大神通	-10.6244
百劫	-10.6247
論說	-10.6249
之境界	-10.625
羣生	-10.6252
五性	-10.6255
神通變化	-10.6258
▁二引證	-10.6259
蔭	-10.626
若云	-10.6263
那羅延	-10.6263
牟尼	-10.6265
於空	-10.6273
中亦	-10.6273
頻	-10.6274
隨業	-10.6274
何須	-10.6274
佛眼	-10.6275
亦知	-10.6276
此心	-10.6276
不念	-10.6277
無量世界	-10.6278
何謂為十	-10.628
幡	-10.6282
為四	-10.6282
餘四	-10.6282
其地	-10.6284
常隨	-10.6288
說言	-10.6295
一百一十	-10.6296
無定	-10.6298
更不	-10.6298
奇	-10.6298
應供	-10.6304
得大	-10.6306
遍照	-10.6308
三乘教	-10.6309
二會	-10.6311
十玄	-10.6312
何別	-10.6316
或於	-10.6321
若聞	-10.6323
召	-10.6325
如法界	-10.6328
呵	-10.6333
分為	-10.6339
為伴	-10.6341
唯識云	-10.6341
成就一切	-10.6342
經於	-10.6345
無動	-10.6346
彌覆	-10.6347
鈍	-10.6347
巳下明	-10.6348
謂如	-10.6349
戲	-10.635
海雲	-10.6351
聞已	-10.6353
寶王	-10.6354
阿僧祇世界	-10.6354
為依	-10.6355
盈	-10.6356
為諸	-10.6357
林中	-10.6358
不解	-10.6359
攝善	-10.6361
順行	-10.6363
住菩薩	-10.6363
久遠	-10.6364
釋曰此	-10.6364
身語意業	-10.6365
七十	-10.6366
既不	-10.6366
酪	-10.6367
並如	-10.6368
九世	-10.6368
又由	-10.6373
知佛	-10.6374
非一非異	-10.638
佛乘	-10.6381
自覺	-10.6393
引例	-10.64
成熟眾生	-10.6402
官	-10.6402
白淨法	-10.6405
所取	-10.6405
薪	-10.6409
附	-10.6415
退失	-10.6416
教化調伏	-10.6425
以辨	-10.6425
豈得	-10.6426
迴轉	-10.643
勇猛精進	-10.6434
初義	-10.6435
敗	-10.6437
▁二科經	-10.6441
初約	-10.6445
分為四	-10.6447
三昧者	-10.6447
無有是處	-10.6448
善來	-10.6448
無憂	-10.6448
是實	-10.6452
鹿	-10.6457
世出世	-10.6458
彌覆其上	-10.6458
廓	-10.646
言語	-10.6461
忿	-10.6462
無所不	-10.6469
滅盡	-10.6472
七八	-10.6474
相應故	-10.6474
何用	-10.648
外無	-10.6481
是心	-10.6485
善逝	-10.6488
以如是等	-10.6491
有三一	-10.6496
願海	-10.6499
下別釋	-10.65
一名	-10.6503
晉	-10.6507
內證	-10.651
中所有	-10.6513
利養	-10.6514
次偈	-10.6516
智入	-10.6518
大功德	-10.6524
佛子菩薩	-10.6525
心起	-10.6527
鍊	-10.6528
▁初總標	-10.6528
或見佛身	-10.6529
如斯	-10.6532
教說	-10.6536
勝用	-10.6536
肉眼	-10.6544
寂用	-10.6546
頂上	-10.655
正知	-10.6551
依持	-10.6554
上中下	-10.6554
由上	-10.6555
結通	-10.6556
極微	-10.6557
成於	-10.6559
自在神通	-10.656
峯	-10.6562
幻有	-10.6564
令修	-10.6566
險道	-10.6566
二云	-10.6567
以一切	-10.6568
所用	-10.6571
狀	-10.6574
差別者	-10.6575
第二明	-10.6576
羣	-10.6577
等經	-10.6579
兜率天	-10.658
五法	-10.6581
諦觀	-10.6583
黑闇	-10.6584
用也	-10.6585
下云	-10.6585
回	-10.6586
第一義空	-10.6587
問言	-10.6587
樂著	-10.6591
疑云	-10.6592
儒	-10.6595
龍女	-10.6596
繒	-10.6596
次一頌	-10.6599
月光	-10.66
智門	-10.6601
迦樓羅	-10.6602
大慈大悲	-10.6603
下文云	-10.6605
二邊	-10.6609
受樂	-10.661
十海	-10.661
一切諸如來	-10.6616
全體	-10.6617
從彼	-10.6622
決定解	-10.6622
財物	-10.6622
巳來	-10.6628
實法	-10.663
不可數	-10.6632
標名	-10.6633
具足成就	-10.6636
不遷	-10.6639
葢	-10.664
初總明	-10.6643
此有	-10.6644
所不能	-10.6645
二位	-10.6646
體空	-10.6648
答此	-10.665
摩睺羅伽	-10.6651
實報	-10.6652
稱理	-10.6653
相待	-10.6658
無前後	-10.6663
斷常	-10.6663
本自	-10.6665
不轉	-10.6665
法相宗	-10.6665
行業	-10.6671
純淨	-10.6673
為能	-10.6676
諂曲	-10.6678
和會	-10.668
諸世界中	-10.6681
𣗳	-10.6681
練	-10.6684
生天	-10.6685
彼人	-10.6688
如大	-10.6688
所出	-10.669
入理	-10.6697
二事	-10.6698
香海	-10.6699
同彼	-10.67
六七	-10.671
通別	-10.6711
取捨	-10.6712
而巳	-10.6714
於中有三	-10.6715
夜摩	-10.6722
希求	-10.6728
無量諸佛	-10.6729
下結成	-10.673
普現一切	-10.6731
油	-10.6732
豐	-10.6736
淨妙	-10.6738
悉入	-10.6739
剋	-10.6747
下劣	-10.6748
蓮花	-10.6748
來者	-10.6751
否	-10.6753
眾多	-10.6753
兩亡	-10.6753
普雨	-10.6754
序分	-10.6754
不可言說	-10.6754
結勸	-10.6755
淨法	-10.6757
已去	-10.6758
凡所	-10.676
如是觀	-10.676
慈愍	-10.6763
寶幢	-10.6764
窮盡	-10.6764
各差別	-10.6765
隨煩惱	-10.6765
標舉	-10.6767
請說	-10.6769
無與等	-10.677
▁初舉	-10.6771
算數	-10.6775
梵本云	-10.678
朗	-10.6781
現佛	-10.6781
一卷	-10.6781
殘	-10.6782
皆如實知	-10.6785
本業	-10.6786
天耳	-10.6786
陵	-10.6787
生疑	-10.6787
分布	-10.6789
幸	-10.6792
圖	-10.6795
蕩	-10.6795
法樂	-10.6795
性無	-10.6797
即攝	-10.6797
此菩薩摩訶薩	-10.6798
功德藏	-10.6799
其猶	-10.6799
若菩薩	-10.6805
同住	-10.6806
天眾	-10.681
入此三昧	-10.6811
地地	-10.6815
正解	-10.6816
得十種	-10.6817
能發	-10.6821
五對	-10.6822
勤精進	-10.6823
常得	-10.6823
數量	-10.6823
問何故	-10.6825
軟	-10.6825
眾會道場	-10.6825
人民	-10.6828
不別	-10.683
迷悟	-10.6834
以佛神力	-10.6837
智障	-10.6839
隨義	-10.684
何故不	-10.6841
種姓	-10.6843
一緣	-10.6847
所歸	-10.6848
大蓮華	-10.685
論經云	-10.6851
尊者	-10.6852
是別	-10.6859
十定品	-10.6859
事相	-10.6862
奮迅	-10.6865
音樂	-10.6866
十方各	-10.6867
炬	-10.6867
至一切處	-10.6868
揚	-10.687
下方	-10.6872
其文	-10.6876
聖智	-10.6877
是真	-10.6877
育	-10.6879
怛	-10.688
定體	-10.6885
文有十句	-10.6886
先問	-10.6892
云何得	-10.6895
尋伺	-10.6895
為我	-10.6895
非常	-10.6897
次有佛興	-10.6898
即顯	-10.69
生後	-10.69
心意	-10.6902
助成	-10.6905
百萬億菩薩	-10.6907
順忍	-10.6911
所欲	-10.6911
逼迫	-10.6914
一毛端	-10.6916
有二門	-10.6922
域	-10.6922
即是佛	-10.6923
上方	-10.6924
意趣	-10.6927
世界微塵數	-10.6928
無染著	-10.6929
覺分	-10.693
騰	-10.6931
莊嚴藏	-10.6933
億那由他	-10.6933
睡眠	-10.6934
國王	-10.6934
力用	-10.6939
罵	-10.694
約行	-10.6941
後七	-10.6941
中有四	-10.6943
得普	-10.6944
義同	-10.6944
出興於世	-10.6946
善修	-10.6947
其音	-10.6948
為十	-10.695
普法	-10.6952
菩提分法	-10.6955
睡	-10.6955
驚	-10.6961
定意	-10.6962
唐清涼山大華嚴寺沙門澄觀撰述	-10.6967
有十句	-10.6975
空空	-10.6975
舉體	-10.6976
斥	-10.6978
積聚	-10.6979
難勝地	-10.6979
佛及	-10.698
我法	-10.6981
觀心	-10.6982
中亦二	-10.6985
天竺	-10.6985
所施	-10.6987
己身	-10.6987
吼	-10.699
相中	-10.6992
遙	-10.6993
初一頌	-10.6997
算	-10.7006
大臣	-10.7009
不妨	-10.7009
一切有情	-10.701
隨位	-10.701
說之	-10.7011
所作業	-10.7011
希望	-10.7012
雖知	-10.7012
應言	-10.7013
雙照	-10.7015
▁南無此上過佛剎微塵數世界	-10.7018
望前	-10.7018
離垢地	-10.7018
】【	-10.7019
妄念	-10.7021
過前	-10.7024
獸	-10.7025
客	-10.7027
有法	-10.703
佛出世	-10.7031
合上	-10.7033
慚	-10.7033
無壞	-10.7038
訓	-10.7041
恒以	-10.7042
自在天	-10.7043
菩提心者猶如	-10.7049
修諸	-10.7053
此土	-10.7053
相融	-10.7057
或住	-10.7059
用之	-10.706
救護眾生	-10.7063
得如是	-10.7063
非空	-10.7065
資具	-10.7066
何法	-10.707
得定	-10.707
延促	-10.7074
受報	-10.7077
心清淨	-10.7078
預	-10.708
淨業	-10.7081
溺	-10.7082
種族	-10.7089
多一	-10.7091
利行	-10.7091
潛	-10.7098
通相	-10.71
行列	-10.7102
文並可知	-10.7103
許說	-10.7106
緫	-10.7113
誹謗	-10.7114
過未	-10.7118
戰	-10.712
探玄	-10.7121
善財見	-10.7122
盧	-10.7122
彌伽	-10.7123
初發心住	-10.7123
成阿耨多羅三藐三菩提	-10.7125
言不	-10.7127
妄計	-10.7127
不自在	-10.7128
合為	-10.7133
中初句	-10.7137
略示	-10.7141
番	-10.7142
究竟清淨	-10.7147
其行	-10.7147
微細智	-10.7148
出生無量	-10.7158
光影	-10.716
踊躍	-10.7162
渴	-10.7165
二喻	-10.7167
況於	-10.7171
混	-10.7174
游	-10.7174
法則	-10.7176
諸羣生	-10.7177
寶瓔珞	-10.7179
其人	-10.7181
隣	-10.7183
迴向行	-10.7186
第二十	-10.7193
當體	-10.7195
依法	-10.7195
發趣	-10.7197
下合	-10.7197
愛著	-10.7199
三十四	-10.72
此解脫	-10.7201
之前	-10.7203
左右	-10.7206
永滅	-10.721
若據	-10.721
成前	-10.7211
即明	-10.7213
一切時	-10.7214
生因	-10.7217
佛出現	-10.7217
十住中	-10.7219
世人	-10.7223
本分	-10.7227
中生	-10.7228
三空	-10.723
千佛	-10.7231
之間	-10.7231
經言	-10.7232
皆成	-10.7233
彼有	-10.7233
諸如來所	-10.7234
萬德	-10.7235
別也	-10.7238
善哉善哉	-10.7239
能熏	-10.724
證真	-10.724
我執	-10.7242
二十三	-10.7246
性離	-10.7248
六塵	-10.7248
數數	-10.7251
自力	-10.7255
之說	-10.7258
於彼一一	-10.7259
聽者	-10.7259
分量	-10.7259
佛海	-10.7264
危	-10.7266
梁	-10.7267
如是知	-10.7269
令無量眾生	-10.727
浪	-10.7275
形狀	-10.7277
後位	-10.7278
不可思	-10.7282
分之	-10.7284
折	-10.7289
佛所說	-10.729
八句	-10.7292
雖是	-10.7293
形奪	-10.7299
中出	-10.7302
所宜	-10.7303
全收	-10.7305
俱胝	-10.7306
彼諸菩薩	-10.7307
能緣	-10.7309
無有邊際	-10.7311
功德莊嚴	-10.7311
怒	-10.7314
與一切眾生	-10.7315
生解	-10.7315
佛菩薩	-10.7316
後有	-10.7316
不滯	-10.7317
智照	-10.7322
文意	-10.7322
出生死	-10.7326
四明	-10.7327
甘	-10.7327
入出	-10.7328
此界	-10.7331
愛取	-10.7331
無所礙	-10.7334
為眾	-10.7336
幻化	-10.7338
明利	-10.734
眼見	-10.7341
共成	-10.7344
心地	-10.7345
菩薩所	-10.7348
境界故	-10.7352
如是思惟	-10.7352
因分	-10.7354
淨智	-10.7355
No	-10.7359
中分二	-10.736
十問	-10.7366
大方廣佛新華嚴經合論卷第	-10.7366
五識	-10.7366
解脫者	-10.7369
彼菩薩	-10.7371
便成	-10.7375
亦當	-10.7376
為求	-10.7376
頃	-10.7377
餘文	-10.7382
無休息	-10.7382
必當	-10.7388
顯德	-10.7389
是智	-10.7391
變現	-10.7392
止息	-10.7393
香水	-10.7398
前八	-10.7398
佛剎極微塵數	-10.74
可思	-10.7401
一切眾生界	-10.7409
凖	-10.741
梵語	-10.7415
皆空	-10.7417
二徵	-10.7418
觀門	-10.742
乃至不可說不可說	-10.7424
義門	-10.7427
坐道場	-10.7427
稍	-10.7428
善知識教	-10.7428
依本	-10.7429
聲聞獨覺	-10.7429
普光明智	-10.7432
依主	-10.7433
大城	-10.7434
名同	-10.7435
大精進	-10.7437
善見	-10.7442
無量剎	-10.7442
為別	-10.7451
亦不見	-10.7453
佛子此菩薩	-10.7458
豈有	-10.746
有性	-10.7462
棄捨	-10.7462
佛名號	-10.7463
觀佛	-10.7465
大雲	-10.7465
無不盡	-10.7465
空者	-10.7465
攝法	-10.7469
隨文釋義者	-10.747
甲	-10.7472
十世	-10.7475
是因	-10.7485
方便力	-10.7486
此頌	-10.7486
普皆	-10.7486
默然	-10.7487
苦諦	-10.7489
為證	-10.7489
一切佛所	-10.749
須菩提	-10.7495
誡	-10.7495
八種	-10.7496
下出	-10.7498
滅惑	-10.7499
是故此	-10.7506
今䟽	-10.7506
是我	-10.7508
諸外道	-10.7508
有邊	-10.7514
八門	-10.7519
潤澤	-10.7519
然彼	-10.7525
世界名	-10.753
光明照	-10.753
弱	-10.7533
一地	-10.7533
本空	-10.7535
繩	-10.7537
見我	-10.7537
鎔融	-10.7542
令見	-10.7551
並皆	-10.7551
不動地	-10.7552
寶蓋	-10.7553
此三昧	-10.7556
處生死	-10.7556
歡	-10.7559
三會	-10.756
約教	-10.7561
如來力	-10.7564
彼諸如來	-10.7566
刺	-10.7569
性即	-10.7569
二就	-10.757
內心	-10.7572
摩訶衍	-10.7574
無時	-10.7577
普為	-10.7578
起滅	-10.7579
盡法界	-10.7584
請分	-10.7585
及彼	-10.7589
之妙	-10.759
又知	-10.7592
立教	-10.7599
▁四結	-10.76
幢幡	-10.76
大劫	-10.7601
貌	-10.7601
作大	-10.7605
稱揚讚歎	-10.7607
財寶	-10.7609
下第三	-10.7609
座上	-10.761
說頌	-10.761
之際	-10.7613
善慧	-10.7614
正答	-10.7614
趣求	-10.7614
現量	-10.7616
今且	-10.7623
之曰	-10.7627
烏	-10.7628
滅者	-10.7631
注云	-10.7632
處世	-10.7633
得阿耨多羅三藐三菩提	-10.7634
無量種	-10.7636
虗空界	-10.7638
時善根迴向	-10.764
抑	-10.764
總有	-10.7642
若於	-10.7647
次十	-10.7649
此顯	-10.765
明智	-10.7651
為作	-10.7654
次下	-10.7655
即便	-10.7657
又曰	-10.7657
身眾神	-10.7658
及其	-10.7658
無貪	-10.7662
緣集	-10.7664
妄心	-10.7665
說十地	-10.7667
俱泯	-10.7669
妄取	-10.7673
之類	-10.7673
心識	-10.7675
險難	-10.7676
諸莊嚴具	-10.7677
應時	-10.7677
此說	-10.7681
住地	-10.7684
指示後友	-10.7684
擇	-10.7686
下引證	-10.7686
無量阿僧祇	-10.7689
雖在	-10.7689
菩薩於	-10.7692
為先	-10.7692
心意識	-10.7692
光明普照	-10.7696
擬	-10.7696
成一	-10.7701
身等	-10.7704
一箇	-10.7705
勝法	-10.7714
一切莊嚴	-10.7716
闡	-10.7717
化儀	-10.7719
覩見	-10.772
斷故	-10.7723
第六地	-10.7723
法無我	-10.7723
歌	-10.7728
中之	-10.773
具說	-10.7731
初十句	-10.7732
不絕	-10.7735
第十一	-10.7736
心無所著	-10.7737
喻合	-10.7739
資生	-10.7741
餘處	-10.7743
脚	-10.7743
教也	-10.7743
點	-10.7745
能變	-10.7748
因緣生	-10.775
上約	-10.775
名等	-10.7754
百門	-10.7755
所有善根	-10.7765
不壞相	-10.7765
下舉	-10.7767
娑	-10.7768
百千劫	-10.7769
魔業	-10.7772
二對	-10.7776
不許	-10.7777
清淨莊嚴	-10.778
罪人	-10.7782
三學	-10.7783
六義	-10.7784
佛子此菩薩摩訶薩	-10.7785
堪能	-10.7791
中陰	-10.7793
救度	-10.7796
枯	-10.7796
合成	-10.7796
生死苦	-10.7803
十對	-10.7803
六入	-10.7804
義如前	-10.7806
通釋	-10.7807
則非	-10.7808
五戒	-10.781
就此	-10.7811
寤	-10.7813
充滿一切	-10.7818
而自	-10.782
受職	-10.7823
華鬘	-10.7824
思慧	-10.7824
修集	-10.7826
顏	-10.7826
身語	-10.7827
麗	-10.7829
淵	-10.783
業行	-10.7834
瑩	-10.7838
無量百千	-10.7842
麤細	-10.7846
塞	-10.785
一理	-10.7853
文中三	-10.7854
性海	-10.7855
其量	-10.7857
▁初長行	-10.7857
但名	-10.7864
匝	-10.7867
海藏	-10.787
一舉	-10.7881
各以	-10.7886
所變	-10.7888
清淨行	-10.789
書寫	-10.7891
之藏	-10.7896
契合	-10.7896
無上法	-10.7897
藏識	-10.7901
華雲	-10.7911
具四	-10.7912
方便行	-10.7914
十二緣	-10.7916
二偈頌	-10.7917
如來十力	-10.792
過惡	-10.7922
古人	-10.7937
非餘	-10.794
平等故	-10.7944
因者	-10.7945
皆爾	-10.7945
定心	-10.7949
遍行	-10.7953
方便善巧	-10.7957
而不捨	-10.7959
三十句	-10.7959
六趣	-10.7965
總云	-10.7966
是能	-10.7972
道諦	-10.7972
相作	-10.7977
無體性	-10.7978
優婆塞	-10.7991
三教	-10.7993
漂	-10.7993
身命	-10.7993
十惡	-10.7995
式	-10.7996
自具	-10.7996
常念	-10.8
引發	-10.8002
教道	-10.8004
佛興	-10.8007
中初二句	-10.8014
以釋	-10.8015
德本	-10.8015
未至	-10.8015
令此	-10.8018
說十	-10.8019
始從	-10.8022
四法	-10.8027
十眼	-10.8027
以是因緣	-10.803
如是下	-10.803
明鏡	-10.8031
依論	-10.8031
滅道	-10.8032
愚法	-10.8034
二見	-10.8035
之極	-10.8036
直至	-10.8036
金剛幢	-10.8038
之始	-10.8039
我為說法	-10.8046
方便波羅蜜	-10.8047
起信論	-10.8052
湛	-10.8053
眾魔	-10.8053
故次來也	-10.8059
觀諸法	-10.8065
遍一切處	-10.8071
常能	-10.8073
莊	-10.8073
而修	-10.8075
隨物	-10.8076
唯識論	-10.8078
其形	-10.808
十方界	-10.8082
可樂	-10.8083
一切諸眾生	-10.8088
大道	-10.8089
不修	-10.8092
乏	-10.8095
三偈	-10.8095
雙結	-10.8098
十向	-10.8099
果行	-10.8099
無量法	-10.81
七字	-10.8102
不厭	-10.8102
引論	-10.8105
攝前	-10.8108
五乘	-10.8108
嚴身	-10.8112
師子之座	-10.8112
真應	-10.8115
小相	-10.8116
狂	-10.8118
十一句	-10.8119
穿	-10.8119
隨文	-10.8121
准知	-10.8123
先後	-10.8126
法力	-10.8127
七覺	-10.8129
逈	-10.813
義利	-10.8134
諸法門	-10.8136
離苦	-10.8137
二宗	-10.8138
化用	-10.8145
佛心	-10.8149
難量	-10.8149
能轉	-10.8152
多約	-10.8155
觀法	-10.8158
漸頓	-10.816
了知一切	-10.8161
隨事	-10.8169
勵	-10.817
疎	-10.8174
二因	-10.8175
四段	-10.8176
急	-10.8179
眾色	-10.8179
玄妙	-10.8182
文殊普賢	-10.8182
上有	-10.8183
後六	-10.8184
自證	-10.8186
評曰	-10.8188
相見	-10.819
多羅	-10.8194
即具	-10.8196
二頌	-10.8199
久住	-10.8199
二十七	-10.82
諸論	-10.8201
自利利他	-10.8201
此事	-10.8201
緣生故	-10.8202
位行	-10.8203
怨敵	-10.8203
百萬億天	-10.8203
言我	-10.8207
其本	-10.8208
修行者	-10.821
使令	-10.8211
義兼	-10.8212
造修	-10.8212
善觀察	-10.8221
誨	-10.8222
膝	-10.8223
果用	-10.8224
俱存	-10.8225
自業	-10.8225
觀察十方	-10.823
於諸佛	-10.8235
同說	-10.8237
決了	-10.8243
人也	-10.8243
所集	-10.8246
法句	-10.8246
覺者	-10.8248
分身	-10.8252
就法	-10.8253
後別	-10.8253
惑障	-10.8256
十定	-10.8257
現觀	-10.8258
得三昧	-10.8259
白淨	-10.826
誕生	-10.8262
二處	-10.8262
於自身	-10.8264
楞伽云	-10.8267
後說	-10.8267
上明	-10.827
說一切法	-10.827
尸	-10.8271
深玄	-10.8274
衛	-10.8274
眾會中	-10.8275
宿住	-10.8276
與智	-10.8276
滅定	-10.8277
金銀	-10.8278
豈可	-10.8278
須陀洹	-10.8279
純熟	-10.8279
觀空	-10.828
無為法	-10.8282
奉行	-10.8287
生老病死	-10.8288
以偈頌曰	-10.8289
大方廣佛華嚴經隨疏演義鈔卷第	-10.8291
如來地	-10.8291
二果	-10.8292
析	-10.8293
及佛	-10.8294
樂故	-10.8297
方便門	-10.8298
一標	-10.8298
是行	-10.8302
成就眾生	-10.8304
中初一	-10.8305
有十事	-10.8308
正觀	-10.8308
十方無量	-10.831
不休息	-10.8311
喻況	-10.8312
慧光	-10.8312
既是	-10.8313
妓樂	-10.8316
王宮	-10.8317
不通	-10.8319
諸力	-10.832
性本	-10.8322
等觀	-10.8322
令捨	-10.8324
入般若波羅蜜門	-10.8324
本故	-10.8325
四結	-10.8327
為人	-10.8327
智知	-10.8329
中二先	-10.8329
素	-10.8336
生佛家	-10.8338
裏	-10.8344
身者	-10.8344
解說	-10.8344
無諸	-10.8346
采女	-10.8349
多種	-10.8353
是苦	-10.8356
德中	-10.8361
趣寂	-10.8361
令其得	-10.8363
不論	-10.8363
假立	-10.8364
一總	-10.8364
教證	-10.8367
解脫故	-10.8367
眾人	-10.8369
諸法性	-10.8373
理趣	-10.8373
我聞	-10.8373
餘九為伴	-10.8378
塵垢	-10.8379
過此	-10.8381
大種	-10.8383
吐	-10.8387
光明網	-10.8391
卦	-10.8392
勝音	-10.8393
有三十	-10.8404
行海	-10.8404
非想	-10.8404
三分	-10.8408
雜亂	-10.8408
摩訶	-10.8412
有十一	-10.8416
揀非	-10.842
亦有二種	-10.8421
形如	-10.8424
相分	-10.8425
是常	-10.8428
王佛	-10.8429
名也	-10.843
地相	-10.8431
論師	-10.8434
無情	-10.8436
結集	-10.8437
如來出現品	-10.8439
巳去	-10.8439
雙明	-10.844
惡心	-10.844
略不	-10.8444
瓶	-10.8448
憍	-10.8448
各具	-10.8452
不順	-10.8453
是果	-10.8453
得淨	-10.8459
此地菩薩	-10.8461
如有	-10.8461
多作	-10.8466
方便慧	-10.8466
性也	-10.8471
有十一句	-10.8471
眾相	-10.8474
▁二結	-10.8481
不動智	-10.8483
悉使	-10.8484
十方所有	-10.8485
定不定	-10.8485
妙好	-10.8486
文殊師利菩薩	-10.8487
賴耶	-10.8487
主城神	-10.8487
叚	-10.8487
如前說	-10.8488
一切智心	-10.8492
所發	-10.8493
▁二偈頌	-10.8494
象王	-10.8494
行處	-10.8498
已來	-10.8504
出沒	-10.8504
舟	-10.8505
隨彼	-10.851
灰	-10.851
輩	-10.8511
遶無數匝	-10.8514
不忘失	-10.8515
佛慧	-10.8515
精進力	-10.8518
一一身	-10.8518
無能勝	-10.8519
自性清淨	-10.8526
入一切法	-10.8527
善根力	-10.8527
皆明	-10.8531
或見處座	-10.8533
度生	-10.8538
禁	-10.854
本不	-10.8541
乞者	-10.8542
故稱	-10.8542
無人	-10.8543
馳	-10.8548
便為	-10.8549
四教	-10.8551
出纏	-10.8552
所不能及	-10.8555
大師子吼	-10.856
菩薩藏	-10.856
於三界	-10.8561
時節	-10.8561
之由	-10.8563
身子	-10.8563
舉數	-10.8564
白法	-10.8566
憑	-10.8566
悅意	-10.8566
謂彼	-10.8569
名普	-10.857
眾生海	-10.8572
二辨	-10.8573
兜率天宮	-10.8573
內有	-10.8575
頗	-10.8581
含容	-10.8581
教行	-10.8581
名大	-10.859
十種法	-10.8592
下四	-10.8594
後半	-10.8594
報化	-10.8595
卒	-10.8599
踊	-10.8603
百一十	-10.8603
二十句	-10.861
三諦	-10.8612
於境	-10.8613
喻於	-10.8614
外有	-10.8614
無有分別	-10.8614
本意	-10.8615
營	-10.8616
負	-10.8616
四偈	-10.8617
故受之以	-10.8623
調伏一切眾生	-10.8623
前偈	-10.8623
佛加	-10.8626
心體	-10.8629
結示	-10.863
爾時普賢菩薩	-10.8631
不可計	-10.8632
幻智	-10.8632
不欲	-10.8645
云何菩薩	-10.8645
出要	-10.8646
之色	-10.8647
下疏云	-10.865
如來神力	-10.865
毗盧	-10.8651
二正	-10.8653
等者即	-10.8656
通妨難	-10.8658
況復	-10.8659
光明覺品	-10.8663
感應	-10.8664
休息	-10.867
世間出世間	-10.8672
歷然	-10.8673
結上	-10.8674
汎	-10.8675
廣大智	-10.8675
追	-10.8675
五六	-10.8676
約智	-10.8677
一實	-10.8679
入菩薩	-10.8682
由斯	-10.8684
同上	-10.8692
此依	-10.8693
令歡喜	-10.8694
能障	-10.8694
次有	-10.8695
星宿	-10.8697
見諸眾生	-10.87
解妨	-10.8702
毛端	-10.8703
過於	-10.8703
為現	-10.8703
心心所	-10.8703
取其	-10.8704
犯戒	-10.8706
前來	-10.8706
一切智地	-10.8709
文二	-10.8712
破相	-10.8712
菩提行	-10.8717
餘經	-10.8718
廣辨	-10.8719
為門	-10.8719
十地菩薩	-10.8719
凝	-10.872
並可知	-10.872
無起	-10.872
教化一切眾生	-10.8722
修羅	-10.8722
雷音	-10.8723
住中	-10.8723
三世一切諸佛	-10.8723
。】【	-10.8725
於其中	-10.8725
谷	-10.8728
輕重	-10.8729
此段	-10.8733
下經云	-10.8733
未必	-10.8734
割	-10.8735
為成	-10.8736
憶持	-10.874
佛地論	-10.8741
智境界	-10.8742
正位	-10.8744
力波羅蜜	-10.8744
成一切智	-10.8747
而立	-10.8748
智日	-10.875
摩訶薩	-10.8752
又有	-10.8756
處說	-10.8759
電	-10.8761
隨俗	-10.8764
得一切佛	-10.8764
不失時	-10.8765
引經	-10.8766
不捨眾生	-10.8766
專念	-10.8766
有緣	-10.8772
出於	-10.8773
中四	-10.8774
道法	-10.8776
憎	-10.8776
我心	-10.878
由於	-10.878
嫌	-10.8782
不合	-10.8783
變異	-10.8783
后	-10.8784
自作	-10.8784
識支	-10.8789
與其	-10.879
修慧	-10.8794
六門	-10.8797
打	-10.8802
躡	-10.8803
令汝	-10.8805
我已先發阿耨多羅三藐三菩提心	-10.8805
前前	-10.8806
即第三	-10.8807
休	-10.8811
本師	-10.8812
常見諸佛	-10.8814
半偈	-10.8814
具此	-10.8816
念請	-10.8816
華藏世界	-10.8817
無救	-10.8817
得生	-10.8818
地行	-10.8818
隨樂	-10.8821
變化身	-10.8821
難遇	-10.8823
所有一切	-10.8825
幻師	-10.8828
大千	-10.8839
踰	-10.8841
東北方	-10.8842
龍宮	-10.8842
諸經論	-10.8845
直就	-10.8845
京	-10.8847
斯即	-10.8848
著我	-10.885
房	-10.8851
非情	-10.8852
長夜	-10.8853
地者	-10.8856
道場神	-10.8857
銅	-10.8858
三十八	-10.8859
方顯	-10.886
非理	-10.886
貪瞋癡	-10.886
千億	-10.886
願波羅蜜	-10.886
聚集	-10.8863
百千萬	-10.8865
欲知	-10.8868
各得	-10.887
金剛幢菩薩	-10.8871
現神通	-10.8878
不輕	-10.888
眾緣	-10.8883
植	-10.8883
法性宗	-10.8885
滿月	-10.8885
舉一	-10.8885
絕言	-10.8886
言之	-10.889
動地	-10.8893
方始	-10.8894
王菩薩	-10.8897
船師	-10.8897
下三句	-10.8898
三法	-10.89
攝益	-10.8902
𥁞	-10.8903
下經	-10.8907
出妙音聲	-10.8908
奧	-10.8909
已生	-10.8909
尤	-10.8912
如是無量	-10.8913
得知	-10.8917
志願	-10.8919
癡闇	-10.892
從前	-10.8927
一際	-10.8927
得證	-10.8929
總收	-10.8929
此十種	-10.8929
諸妙	-10.893
入俗	-10.8934
前義	-10.8935
不來	-10.8936
取意	-10.8939
果者	-10.8941
污	-10.8943
柔	-10.8944
▁南無十方三世盡虗空界微塵剎土中	-10.8947
迴向菩提	-10.8947
若在	-10.8948
可解	-10.8949
戀	-10.8952
無量智慧	-10.8952
十二有支	-10.8957
本處	-10.8958
普照法界	-10.896
孝	-10.8961
便能	-10.8962
滋	-10.8962
或有眾生	-10.8968
仁者	-10.8968
欺	-10.897
位滿	-10.8973
釋意云	-10.8975
一道	-10.8977
惡口	-10.8978
羊	-10.8978
何因	-10.8978
隨世	-10.8979
上二界	-10.898
普令	-10.898
於佛法中	-10.8982
十通	-10.8985
正直	-10.8988
此有二義	-10.8989
中文	-10.8993
佛剎塵數	-10.8993
民	-10.8996
能壞	-10.9001
於自	-10.9002
寶冠	-10.9004
而去	-10.9005
承力	-10.9008
此娑婆世界	-10.9014
菩薩摩訶薩以	-10.9014
幹	-10.9016
麻	-10.9017
自利行	-10.9018
及一切	-10.9023
多有	-10.9025
以行	-10.9025
攝末歸本	-10.9026
無邊世界	-10.9029
不斷絕	-10.9029
勝相	-10.903
專心	-10.9032
無願	-10.9035
之功	-10.9036
道中	-10.9039
初釋	-10.904
機感	-10.904
輪轉	-10.9041
慣習	-10.9042
皆具足	-10.9045
先總明	-10.9046
能普	-10.9049
末那	-10.905
雖不	-10.9051
無礙解	-10.9052
業者	-10.9054
業道	-10.9056
精進波羅蜜	-10.9056
瞿波	-10.9059
亡言	-10.9061
願為我說	-10.9064
無思	-10.9064
因成	-10.9066
上二句	-10.9067
議	-10.9069
指前	-10.9069
三慧	-10.907
纓絡	-10.907
五義	-10.907
若具	-10.9072
海幢比丘	-10.9074
香氣	-10.9076
四面	-10.9078
諸剎海	-10.9078
又作是念	-10.908
方便海	-10.908
婆羅	-10.9081
聞佛	-10.9081
實故	-10.9083
生公	-10.9086
為有	-10.9087
自巳	-10.9088
問明品	-10.909
同處	-10.909
現前地	-10.9091
位果	-10.9091
等言	-10.9092
又彼	-10.9092
不須	-10.9092
依何	-10.9097
過故	-10.9098
悉清淨	-10.9099
第九地	-10.91
一切毛孔	-10.9102
不堪	-10.9102
聞思修	-10.9104
受化	-10.9104
義耳	-10.9104
照了	-10.9105
於身	-10.9112
入海	-10.9113
八難	-10.9113
尋求	-10.9115
四五	-10.9116
受諸	-10.9117
城中	-10.9117
入胎	-10.9118
熾	-10.9119
教誨	-10.9121
處於	-10.9123
有一百	-10.9124
僧寶	-10.9124
總以	-10.9125
相盡	-10.9125
且依	-10.9129
法如是故	-10.9131
諸善	-10.9134
善心	-10.9135
種種相	-10.9136
晝	-10.9139
多人	-10.9141
後佛子	-10.9141
安處	-10.9146
陸	-10.9147
為我說	-10.9148
而論	-10.915
赴	-10.915
信行	-10.9151
喪	-10.9151
避	-10.9151
答以	-10.9154
恃	-10.9154
不能動	-10.9157
初句總	-10.9161
難行	-10.9162
即離	-10.9164
活	-10.9164
偈言	-10.9166
皆約	-10.9168
不思議品	-10.9168
如是乃至	-10.917
去來現在	-10.9172
號曰	-10.9177
現生	-10.9178
諸方	-10.9185
給	-10.9187
一即一切	-10.919
今則	-10.919
最下	-10.9193
疏釋	-10.9193
體是	-10.9194
有德	-10.9194
得此解脫	-10.9197
徑	-10.92
寶𦦨	-10.9206
等說	-10.9211
與樂	-10.9212
重頌	-10.9213
無礙門	-10.9214
一智	-10.9214
無處	-10.9214
教授	-10.9215
猒	-10.9218
法界中	-10.9221
合云	-10.9225
無礙解脫	-10.9225
若準	-10.9227
調順	-10.9229
叵	-10.9229
了一切法	-10.923
眾生煩惱	-10.923
此地中	-10.9234
普賢行品	-10.9235
授與	-10.9235
智契	-10.9236
中亦三	-10.9238
說此法	-10.9238
悲愍	-10.9241
恒住	-10.9243
應是	-10.9244
猗	-10.9245
妄見	-10.9246
能伏	-10.9248
之有	-10.9249
五趣	-10.9251
恱	-10.9251
順釋	-10.9252
有作	-10.9253
身為	-10.9254
之慧	-10.926
真故	-10.926
念處	-10.9261
拔濟	-10.9262
在彼	-10.9263
不墮	-10.9265
則顯	-10.9265
揀濫	-10.9269
妙有	-10.927
集成	-10.9272
即為十段	-10.9274
能遍	-10.9274
如山	-10.9275
善慧地	-10.9275
餘可	-10.9275
是名菩薩摩訶薩第	-10.9277
入證	-10.9277
夜摩天	-10.9277
伸	-10.9277
知是	-10.928
薩埵	-10.9282
酒	-10.9286
樂見	-10.9288
善財白言	-10.9294
」【【	-10.9294
欄楯	-10.9294
位也	-10.9294
必定	-10.9297
大威光	-10.9297
三果	-10.9298
之緣	-10.9304
海故	-10.9305
無眾生	-10.9305
三昧力	-10.9307
初對	-10.9309
無主	-10.9312
之空	-10.9312
分為五	-10.9316
隨念	-10.9317
所行之行	-10.9318
人所	-10.9319
本會	-10.9321
教體	-10.9323
二十六	-10.9326
不住道	-10.9328
儀式	-10.9328
三昧名	-10.933
讀誦	-10.933
異也	-10.933
壁	-10.9331
毛孔中	-10.9331
天神	-10.9331
無佛	-10.9332
開顯	-10.9332
多端	-10.9333
吒	-10.9334
十善道	-10.9334
一境	-10.9337
今既	-10.9339
心恒	-10.9341
心得	-10.9341
歡喜踊躍	-10.9343
炷	-10.9344
開化	-10.9347
六品	-10.9347
佛出	-10.9349
無央數	-10.9349
多分	-10.9349
無障礙故	-10.9353
捨離一切	-10.9355
四果	-10.9356
麁重	-10.9361
第八會	-10.9362
各自	-10.9362
賢首品	-10.9365
正辨	-10.9366
躡前	-10.9366
轉妙法輪	-10.9368
現在世	-10.937
悅樂	-10.9371
觀身	-10.9376
定者	-10.9377
為上	-10.9377
宋	-10.938
根器	-10.9383
難信	-10.9383
攝取眾生	-10.9384
所學	-10.9386
多故	-10.9387
不相捨離	-10.9387
佛剎微塵數劫	-10.9388
別辨	-10.9391
頭陀	-10.9391
秋	-10.9392
杖	-10.9393
本質	-10.9398
屈曲	-10.9403
一重	-10.9406
願智	-10.9409
阿賴耶識	-10.941
相海	-10.9411
淨光明	-10.9413
入大	-10.9414
前半	-10.9416
為得	-10.9419
以方便	-10.942
咸令	-10.9421
別異	-10.9424
利益一切眾生	-10.9425
五道	-10.9434
緣起法	-10.9436
今辨	-10.9437
常生	-10.9439
菩	-10.9441
又亦	-10.9443
能取	-10.9445
四洲	-10.9446
不唯	-10.9447
三十三	-10.9447
篇	-10.9448
十年	-10.9451
眾生數等	-10.9452
一乘教	-10.9453
深故	-10.9456
如說修行	-10.9456
無疲厭	-10.9456
以種種	-10.9457
開覺	-10.9461
智慧海	-10.9461
清淨戒	-10.9461
異耳	-10.9467
成果	-10.9473
慳嫉	-10.9473
藏者	-10.9477
到於彼岸	-10.9482
引導	-10.9484
二從	-10.9484
八萬	-10.9489
入道	-10.9489
下地	-10.949
唯取	-10.9491
末句	-10.9492
法執	-10.9494
不成佛	-10.9494
定故	-10.9495
▁二正	-10.9496
非人	-10.9496
心不動	-10.9498
主晝神	-10.9498
惑業	-10.9498
反此	-10.9498
莊嚴雲	-10.9499
無生法忍	-10.95
勝功德	-10.9501
真實法	-10.9501
取之	-10.9502
為所	-10.9503
娑婆世界	-10.9503
身口意	-10.9504
其狀	-10.9508
故令	-10.9509
遲	-10.951
總該	-10.9511
三依	-10.9511
佛知見	-10.9514
向菩提	-10.9514
發光地	-10.9516
寶山	-10.9518
三苦	-10.9518
宿世	-10.9519
二百	-10.9519
有二意一	-10.9522
心外	-10.9524
充徧	-10.9527
以能	-10.9529
是無	-10.953
通教	-10.953
驚怖	-10.9531
喻佛	-10.9531
六頌	-10.9537
從何	-10.9538
一切諸世間	-10.9538
菩薩大士	-10.954
菩提涅槃	-10.9541
久近	-10.9547
愛見	-10.9548
會前	-10.955
文有四	-10.9551
樂音	-10.9554
男子	-10.9554
無所染著	-10.9554
更無別	-10.9555
雜寶	-10.9555
無量差別	-10.9559
各一	-10.9559
􂐔	-10.956
諂誑	-10.956
前約	-10.9562
摩尼珠	-10.9568
為淨	-10.957
忻	-10.9572
自在無礙	-10.9575
眾生及	-10.9575
初見	-10.9577
龜	-10.9582
清淨智	-10.9584
永離一切	-10.9588
異生	-10.959
地體	-10.9591
梁論	-10.9591
信者	-10.9591
總歎	-10.9594
逼	-10.9594
證如	-10.9595
隨智	-10.9596
而為莊嚴	-10.9596
是空	-10.9597
他化自在天	-10.9597
賤	-10.96
次六	-10.96
聖諦	-10.96
故下經云	-10.96
顯揚	-10.9604
為難	-10.9605
一毛端處	-10.9606
無別體	-10.9607
而復	-10.9607
秦	-10.9608
皆令歡喜	-10.9608
無邊劫	-10.9609
思之可見	-10.9611
相容	-10.9613
一毛孔中	-10.9614
歸於	-10.9615
佛之	-10.9615
中亦有	-10.9618
執金剛神	-10.9618
通二	-10.9619
善巧智	-10.9619
度無極	-10.962
之樂	-10.962
三大	-10.9621
救眾生	-10.9622
充足	-10.9622
居然	-10.9623
實語	-10.9625
刊定	-10.9625
▁二依	-10.9627
超越	-10.9627
一由	-10.9629
柔輭	-10.9629
觀眾生	-10.9631
願力故	-10.9632
常修	-10.9637
悟一切法	-10.9638
能顯	-10.9638
不住涅槃	-10.9639
梨	-10.9639
種種身	-10.964
成佛道	-10.964
高出	-10.9642
相續不斷	-10.9645
十十	-10.9646
折伏	-10.9646
深遠	-10.9647
降雨	-10.9648
幢佛	-10.965
一切世界海	-10.9651
皆然	-10.9651
前品	-10.9652
皆清淨	-10.9655
以願力	-10.9656
思念	-10.9656
又善男子	-10.9657
前云	-10.9657
排	-10.9658
所成故	-10.9659
餘文可知	-10.9661
亦無有	-10.9662
準之	-10.9663
觀之	-10.9663
何能	-10.9664
徧入	-10.9667
逆觀	-10.9669
轉識	-10.9678
得涅槃	-10.9678
類顯	-10.9679
難聞	-10.9683
▁二答	-10.9685
時劫	-10.9685
在後	-10.9688
况	-10.9691
喻菩薩	-10.9691
然則	-10.9692
心念言	-10.9693
無數世界	-10.9694
是故得成此光明	-10.9695
即第二	-10.9696
第四禪	-10.9698
初一偈	-10.9699
大悲行	-10.9701
照曜	-10.9701
欣樂	-10.9701
撰	-10.9703
以無量	-10.9707
裂	-10.9708
佛種性	-10.9708
諸事	-10.9708
徧一切	-10.971
隨順世間	-10.9714
巾	-10.9714
解脫道	-10.9715
猶有	-10.9718
增上慢	-10.9718
非一故	-10.9718
兩舌	-10.9719
三塗	-10.972
離念	-10.9721
▁二合	-10.9724
醫	-10.9729
益眾生	-10.973
▁三雙結	-10.9732
一闡提	-10.9732
大自在	-10.9733
願令	-10.9733
如華嚴經	-10.9734
右遶	-10.9739
相差別	-10.9739
智業	-10.9741
煩惱業	-10.9741
清淨法界	-10.9742
則成	-10.9745
所聞法	-10.9749
內德	-10.9751
文也	-10.9752
義中	-10.9755
歸本	-10.9757
等流	-10.9759
雄	-10.976
四事	-10.976
小乘教	-10.9761
倫	-10.9762
增進	-10.9762
雖殊	-10.9763
知諸眾生	-10.9763
。《	-10.9764
現形	-10.9764
扶	-10.9764
弘誓	-10.9766
▁初總明	-10.9767
如來音聲	-10.9768
曠野	-10.9771
堪任	-10.9772
清淨身	-10.9772
怪	-10.9773
警	-10.9774
餘句	-10.9777
舊經	-10.9779
所有功德	-10.978
亦二	-10.9783
令諸	-10.9783
普攝一切	-10.9784
全是	-10.9786
不迷	-10.9787
第二釋	-10.9787
供養如來	-10.9787
根熟	-10.9793
一如	-10.9794
互有	-10.9795
說大	-10.98
初地中	-10.98
通論	-10.9801
一一毛孔中	-10.9804
第二佛子	-10.9805
邑	-10.9805
一切十方	-10.981
處中	-10.981
同歸	-10.9814
塔廟	-10.9814
智為	-10.9816
柔和	-10.982
成最正覺	-10.982
當說	-10.9822
如前釋	-10.9823
別立	-10.983
證知	-10.9832
墜	-10.9832
覺首	-10.9835
二十重	-10.9835
而以	-10.9836
此位菩薩	-10.9836
佛昔	-10.9837
所感	-10.9838
禪師	-10.9838
今略	-10.9838
武	-10.984
大歡喜	-10.9848
意者	-10.9851
我我所	-10.9852
命根	-10.9856
遠行地	-10.9857
燒香	-10.9858
根境	-10.9864
等法界	-10.9865
七處	-10.9866
觀照	-10.9872
後時	-10.9875
雅	-10.9878
思惟觀察	-10.9878
於善知識	-10.9879
化他	-10.988
同號	-10.9883
二別顯	-10.9885
唯說	-10.9888
無礙行	-10.9889
緣境	-10.989
次二頌	-10.9891
抱	-10.9892
但見	-10.9894
八九	-10.9895
名號品	-10.9895
飯	-10.9897
徧計	-10.9899
分別說	-10.9902
觀察眾生	-10.9903
受記	-10.9904
大者	-10.9906
紙	-10.9907
以身	-10.9908
一偈頌	-10.9916
禮拜	-10.9916
器界	-10.9916
宿因	-10.9917
色空	-10.9918
無缺	-10.9919
後九	-10.992
報相	-10.9921
王都	-10.9924
雖同	-10.9926
彼果	-10.9929
十喻	-10.9931
其實	-10.9932
增上心	-10.9932
銷	-10.9935
地神	-10.9935
二十九	-10.9936
無量身	-10.9938
或是	-10.9941
通結	-10.9942
無處所	-10.9944
屬於	-10.9944
報生	-10.9945
執我	-10.9945
無有二	-10.9946
帀	-10.9947
信滿	-10.9948
依身	-10.9948
熾盛	-10.9948
見法	-10.9948
即見	-10.9949
周帀	-10.9952
如是次第	-10.9953
漸教	-10.9954
生熟	-10.9954
皆入	-10.9954
普詣	-10.9955
菩薩無量	-10.9956
具引	-10.9957
阿修羅王	-10.996
垢故	-10.9961
私	-10.9963
佉	-10.9964
善現	-10.9968
等即	-10.9973
諸識	-10.9976
清淨功德	-10.998
同法界	-10.9981
亦不能	-10.9983
尊貴	-10.9984
金色世界	-10.9984
施戒	-10.9988
明入	-10.9988
智慧門	-10.9989
先辨	-10.9993
於一念	-10.9996
得出離	-10.9997
於虛空中	-10.9998
菩薩三昧	-10.9999
菩薩以此初發心	-10.9999
於諸世間	-10.9999
我悉	-11.0003
斷障	-11.0003
禁戒	-11.0009
懈	-11.0014
以為嚴飾	-11.0015
德行	-11.0016
若爾何	-11.0016
雖知諸法	-11.0017
始覺	-11.0018
者釋	-11.0023
酥	-11.0024
▁二喻	-11.0025
心樂	-11.0029
次五	-11.0029
淪	-11.003
別示	-11.0033
智正覺世間	-11.0035
亦皆	-11.0041
不虗	-11.0042
引文	-11.0042
無量方便	-11.0042
性者	-11.0048
設教	-11.0052
此諸菩薩	-11.0052
求善知識	-11.0053
童	-11.0062
今顯	-11.0062
應有	-11.0063
忍波羅蜜	-11.0064
相用	-11.0066
復更	-11.0066
念佛門	-11.0071
不能壞	-11.0073
亦有亦無	-11.0074
六偈	-11.0075
所有諸	-11.0077
四依	-11.0078
娛樂	-11.0078
色聲	-11.0079
方知	-11.0079
亦不離	-11.008
本淨	-11.0081
彩	-11.0083
法本	-11.0085
不增不減	-11.0085
經行	-11.0086
三字	-11.0086
不必	-11.0087
不住生死	-11.0088
譬如大海	-11.0092
猶如虗空	-11.0093
雖說	-11.0097
臭	-11.0098
進趣	-11.0101
以大	-11.0101
流注	-11.0105
三無性	-11.0107
此十地	-11.0107
無雜	-11.0108
無去來	-11.0111
當生	-11.0113
餘可知	-11.0113
難處	-11.0114
何者為十	-11.0114
修普賢行	-11.0118
時中	-11.0119
行於	-11.012
無障礙智	-11.012
及眾生	-11.012
等持	-11.0125
立理	-11.0127
唯就	-11.0127
心歡喜	-11.0131
準此	-11.0131
諸人	-11.0132
善道	-11.0133
大喜	-11.0138
別行	-11.014
快	-11.0143
已引	-11.0143
主方神	-11.0144
三千大千	-11.0144
銀	-11.0146
玄門	-11.015
業故	-11.015
多義	-11.0153
顯了	-11.0155
字即	-11.0157
津	-11.0157
滅諦	-11.016
因圓果滿	-11.0162
調生	-11.0162
明如來	-11.0163
互融	-11.0164
觀察一切	-11.0164
不假	-11.0165
辨相	-11.0166
但舉	-11.0167
盧舍那佛	-11.0167
披	-11.0169
若唯	-11.0169
非心	-11.0173
作是念言	-11.0175
隨入	-11.0176
菩薩戒	-11.0177
五塵	-11.0177
所能	-11.0179
▁二引	-11.0185
莫不皆	-11.0185
三惡道	-11.0186
之流	-11.0189
而為其	-11.0189
身智	-11.019
生老死	-11.019
我人	-11.019
示現無量	-11.0191
智也	-11.0193
稱為	-11.0195
波羅	-11.0198
智度	-11.0199
惡法	-11.0199
地持	-11.0201
善思惟	-11.0203
何者是	-11.0207
今謂	-11.0207
二文	-11.0209
有世界海微塵數	-11.021
義引	-11.0211
實智	-11.0212
吹	-11.0214
爪	-11.0215
作如是	-11.0217
謂諸	-11.0219
如是法	-11.0219
順違	-11.0221
笑	-11.0221
輔	-11.0225
飢	-11.0225
本際	-11.0226
大寶	-11.0227
說諸法	-11.0227
法住	-11.0227
條	-11.0228
若望	-11.0229
交絡	-11.023
佛世尊	-11.0232
方有	-11.0235
暴	-11.0235
▁初揔明	-11.0236
疾得	-11.0237
一言	-11.0237
流布	-11.0238
初即	-11.0241
最為	-11.0241
十地品	-11.0243
二我	-11.0248
要須	-11.0249
是諸	-11.0252
無量菩薩	-11.0254
行施	-11.0254
生盲	-11.0255
一微塵	-11.0259
上味	-11.0261
聞是	-11.0262
法界門	-11.0263
淨名云	-11.0265
微塵等	-11.0267
或可	-11.027
千歲	-11.0271
辨其	-11.0272
出定	-11.0272
一切諸佛法	-11.0273
雪	-11.0275
其名曰	-11.0275
說三乘	-11.0275
如地	-11.0276
四生	-11.0276
自得	-11.0281
於餘	-11.0281
親近善知識	-11.0282
色者	-11.0282
為五	-11.0283
文分為二	-11.0283
淨法界	-11.0284
當念	-11.0284
不去	-11.0287
平等清淨	-11.0288
淳	-11.0288
光中	-11.0289
復現	-11.029
遍入	-11.0294
章門	-11.0294
野	-11.0297
菩薩眾會	-11.0298
有義	-11.0298
所表	-11.0298
自在天王	-11.0301
輝	-11.0301
皆亦如是	-11.0306
二由	-11.0307
所莊嚴	-11.0309
堪忍	-11.0309
▁三明	-11.031
不能盡	-11.0311
初之	-11.0312
菩薩修行	-11.0314
餘人	-11.0318
無法	-11.0319
海會	-11.0319
餘八	-11.032
大施	-11.0323
地故	-11.0323
無此	-11.033
句義	-11.0334
滴	-11.0334
觀也	-11.0334
不思議解脫	-11.0334
通說	-11.0336
菩薩以此	-11.0337
初中後	-11.0338
彼經云	-11.0339
亦復不	-11.034
塵剎	-11.0343
初五	-11.0344
現前故	-11.0349
言詞	-11.0349
▁二迴向	-11.0349
勝緣	-11.0353
盈滿	-11.0354
諸眾生故	-11.0354
是何	-11.0354
前已	-11.0355
大段	-11.0358
如上說	-11.0358
又為	-11.036
經卷	-11.036
薰	-11.0361
第三地	-11.0364
瞋恨	-11.0365
認	-11.0372
則巳	-11.0373
攝入	-11.0373
先問後答	-11.0373
如須彌山	-11.0374
邊見	-11.0378
賢劫	-11.0382
貪求	-11.0391
未成	-11.0391
相貌	-11.0393
三千界	-11.0395
受身	-11.0395
明是	-11.0397
以論	-11.0397
口中	-11.0398
從定出	-11.0399
忉利天	-11.0402
頓證	-11.0403
有量	-11.0406
滅煩惱	-11.0408
此解脫門	-11.0409
前後際	-11.0412
初發心時	-11.0412
文三	-11.0413
次說	-11.0414
大悲為首	-11.0414
三昧海	-11.0416
行苦	-11.0416
無量佛	-11.0417
成就如是	-11.0417
生空	-11.0421
念力	-11.0422
據此	-11.0424
三顯	-11.0427
下引	-11.0428
別舉	-11.043
壽量	-11.0432
阿賴耶	-11.0432
諸句	-11.0433
我是	-11.0434
見善知識	-11.0437
智性	-11.044
而為眷屬	-11.0445
後學	-11.0453
佛子譬如	-11.0454
邪定	-11.0454
菩提之心	-11.0455
乞食	-11.0456
四字	-11.0458
難解	-11.0459
而取	-11.0461
菩提道	-11.0461
眷屬圍遶	-11.0465
非一異	-11.0465
倣	-11.0465
當相	-11.0467
欲明	-11.0469
地論	-11.047
忍行	-11.0471
䟽文	-11.0473
大方便	-11.0474
初六	-11.0477
上根	-11.0479
現種種	-11.0481
而未	-11.0482
國土身	-11.0483
三祇	-11.0483
動靜	-11.0483
演義	-11.0484
即體	-11.0487
第二時	-11.0488
四即	-11.0488
遍至	-11.0489
如是等無量	-11.049
與理	-11.0492
實則	-11.0492
靡	-11.0493
結前生後	-11.0496
異門	-11.05
初總餘別	-11.0505
智幻	-11.0505
是故菩薩	-11.0506
亦猶	-11.0506
如來無上	-11.0507
舉經	-11.0508
優劣	-11.0511
雖未	-11.0512
出聲	-11.0516
在前	-11.0517
懃	-11.0517
若謂	-11.0517
知無量如來	-11.0518
之機	-11.0519
數法	-11.0519
忉利	-11.0521
樹林	-11.0522
行果	-11.0523
種種行	-11.0523
成大	-11.0523
今就	-11.0524
智隨	-11.0524
憂苦	-11.0525
業海	-11.0526
故以為名	-11.0529
一佛剎	-11.053
持一切	-11.0532
三世一切佛	-11.0533
於有	-11.0535
讚德	-11.0535
如下文	-11.0535
證菩提	-11.0538
光色	-11.054
巳前	-11.054
引之	-11.0548
前巳	-11.0549
大般涅槃	-11.0552
現其身	-11.0552
餘七	-11.0554
歸命	-11.0555
言有	-11.0556
不可取	-11.0557
為眾生說	-11.0557
為喻	-11.0557
斷一切	-11.0558
滅一切	-11.056
斷證	-11.0562
工巧	-11.0562
無生故	-11.0565
聲聞辟支佛	-11.0565
受想行識	-11.0566
問難	-11.0566
集會	-11.0567
顯故	-11.0567
依住	-11.0568
各各差別	-11.0569
心無厭足	-11.057
空三昧	-11.0571
又放光明名	-11.0571
後門	-11.0571
樓閣雲	-11.0573
凡有	-11.0574
無依住	-11.0574
▁南無大方廣佛華嚴經中	-11.0579
無師	-11.0579
妙理	-11.0581
乍	-11.0583
說十住	-11.0584
自在行	-11.0585
戶	-11.0585
如是種種	-11.0595
俱時	-11.0596
如是等事	-11.0596
顯此	-11.0596
閑	-11.0601
有三句	-11.0605
五十三	-11.0606
大千世界	-11.0607
無有一法	-11.0608
所纏	-11.0609
無來	-11.0611
主藥神	-11.0615
中流	-11.0616
其間	-11.0617
第三會	-11.0622
西北方	-11.0622
約相	-11.0623
何為	-11.0623
霔	-11.0623
不由他悟	-11.0624
漸次遊行	-11.0624
巳後	-11.0629
茂	-11.0631
意可知	-11.0632
此與	-11.0632
走	-11.0633
清淨法	-11.0634
三對	-11.0636
五中	-11.0637
從緣生	-11.0641
已成	-11.0641
悉是	-11.0641
波浪	-11.0642
廣容	-11.0643
樂聞	-11.0643
虎	-11.0644
皆悉現前	-11.0645
及諸菩薩	-11.0647
常樂我淨	-11.0647
相順	-11.0648
得不退轉	-11.0652
初長行	-11.0657
以十	-11.0659
何緣	-11.0662
侶	-11.0663
所趣	-11.0664
廣分別	-11.0664
如來法身	-11.0667
理行	-11.0669
今初分二	-11.067
全在	-11.067
世界眾生	-11.067
母胎	-11.067
智慧境界	-11.0672
寶髻	-11.0673
永無	-11.0678
饒益一切眾生	-11.068
所餘	-11.068
非定	-11.068
亦顯	-11.0681
罪業	-11.0683
應物	-11.0683
菩薩云何	-11.0683
為義	-11.0684
平坦	-11.0685
威勢	-11.0685
發大心	-11.0689
法性身	-11.069
咎	-11.069
說一乘	-11.069
故䟽	-11.0691
三位	-11.0693
十藏	-11.0694
初問	-11.0696
方便者	-11.0698
多者	-11.0698
蓋雲	-11.07
不能自	-11.07
醫王	-11.07
勘	-11.0702
灌	-11.0704
下至	-11.0705
前會	-11.0707
會經	-11.0708
醉	-11.0708
智慧力	-11.0708
莊嚴幢	-11.0709
文句	-11.071
為上首	-11.071
為眾生故	-11.071
環	-11.0714
偈讚品	-11.0716
其類	-11.0724
三宗趣者	-11.0725
一切佛法故	-11.0727
無癡亂	-11.0728
離塵	-11.0729
人者	-11.0732
故立	-11.0734
一切諸佛國土	-11.0734
由有	-11.0735
有說	-11.0736
經部	-11.0736
衣雲	-11.0736
十二緣生	-11.0739
體者	-11.0741
護世	-11.0745
普行	-11.0745
復於	-11.0746
名目	-11.0746
能成就	-11.0748
妙光明	-11.0749
所共圍遶	-11.075
明徹	-11.0751
而不壞	-11.0752
方明	-11.0752
清淨法身	-11.0754
譬如虛空	-11.0754
現相品	-11.0755
大海水	-11.0755
下生	-11.0757
萬像	-11.0757
失壞	-11.0757
有二種一	-11.0758
一乘三乘	-11.0759
初言	-11.0761
所依處	-11.0762
體非	-11.0762
初一句	-11.0762
寶座	-11.0763
何異	-11.0764
正取	-11.0765
照十方	-11.0765
次有佛出	-11.0766
等諸	-11.0767
義如	-11.0767
隨於	-11.0769
然有	-11.077
是一乘	-11.0773
總說	-11.0774
法界等	-11.0777
瘡	-11.0779
一經	-11.0779
真身	-11.0779
含攝	-11.078
寶洲	-11.078
婦	-11.0781
名聞	-11.0782
剌	-11.0782
孰	-11.0782
冤	-11.0784
之物	-11.0785
轉故	-11.0786
吉凶	-11.0787
釋也	-11.0787
等眾生	-11.0788
貪瞋	-11.0789
其數無量	-11.0789
於中亦二	-11.0789
墨	-11.0791
正信	-11.0792
或一	-11.0793
分教	-11.0795
證此	-11.0799
首菩薩	-11.0804
仰推	-11.0808
是諸眾生	-11.0813
聖眾	-11.0814
能了知	-11.0815
聖慧	-11.0816
事也	-11.0817
出其	-11.0819
定無	-11.0819
而見	-11.0821
佛世界	-11.0821
如是等而為上首	-11.0822
無能壞	-11.0823
不可說不可說劫	-11.0824
受名	-11.0824
次前	-11.0826
自念	-11.0827
亦無量	-11.083
?「	-11.083
是此	-11.0831
離二邊	-11.0831
依空	-11.0833
云何名	-11.0835
下九	-11.0835
所加	-11.0836
甚難	-11.0836
主稼神	-11.0838
即理	-11.0838
住者	-11.0839
無量莊嚴	-11.084
增上緣	-11.0841
之海	-11.0841
四頌	-11.0841
三十五	-11.0844
一千	-11.0848
下別明	-11.0848
渡	-11.0851
詰	-11.0853
斫	-11.0853
我此	-11.0854
第七會	-11.0854
猛利	-11.0855
雨一切	-11.0856
吞	-11.0856
他受用	-11.0856
者約	-11.0858
早	-11.086
後一句	-11.0861
未滿	-11.0861
文亦	-11.0867
三世平等	-11.0868
本願力	-11.0872
功德智慧	-11.0872
處非處	-11.0875
辨才	-11.0875
教理	-11.0879
轉增	-11.0881
明照	-11.0883
法喜	-11.0884
靡不周	-11.0885
皆盡	-11.0887
不云	-11.0888
之別	-11.0889
本源	-11.0889
實非	-11.0893
一切眾生身	-11.0893
諸境界	-11.0894
迴向眾生	-11.0895
身出	-11.0896
以顯無盡	-11.0898
不可沮壞	-11.0899
高勝	-11.0901
加分	-11.0903
勝者	-11.0903
常寂	-11.0903
論名	-11.0904
美妙	-11.0905
善趣	-11.0907
令善財	-11.0908
得無量	-11.0909
鬚	-11.091
光明照耀	-11.0911
說此經	-11.0912
滌	-11.0913
業煩惱	-11.0913
生界	-11.0914
自在王	-11.0915
疏文有二	-11.0915
諸蘊	-11.0917
始成	-11.0919
臍	-11.092
意取	-11.0921
前位	-11.0922
十住十行	-11.0923
六千比丘	-11.0923
普救	-11.0923
入一切眾生	-11.0924
殊勝行	-11.0925
輕安	-11.0926
三道	-11.0929
邪道	-11.0929
漢	-11.0931
攝論云	-11.0931
高廣	-11.0933
▁二別明	-11.0934
我亦	-11.0934
人王	-11.0937
出妙音	-11.0938
詩	-11.0939
狗	-11.0939
敢	-11.094
於中二先	-11.0948
情有	-11.0948
真源	-11.0951
其心清淨	-11.0951
我觀	-11.0952
廣略	-11.0953
心無疲厭	-11.0954
大覺	-11.0955
一切語言	-11.0957
下十句	-11.0958
▁初法	-11.0959
法華云	-11.096
來詣佛所	-11.0965
五十五	-11.0966
起定	-11.0971
諸大眾	-11.0974
而昇	-11.0979
二經	-11.098
行修	-11.0982
調御	-11.0983
向上	-11.099
周旋	-11.0991
諸佛世界	-11.0992
見分	-11.0993
東南方	-11.0993
心之	-11.0993
紹	-11.0994
起大悲	-11.0994
是故我	-11.0995
克	-11.0996
我應	-11.0996
逾	-11.0999
發言	-11.1
四十八	-11.1
渾	-11.1002
清淨眼	-11.1003
皇	-11.1004
上二義	-11.1005
三車	-11.1012
非佛	-11.1013
深義	-11.1014
魔軍	-11.1015
常現	-11.1016
初云	-11.1016
生淨信	-11.1017
無表	-11.1018
如是迴向	-11.102
等覺位	-11.102
不存	-11.1021
願成	-11.1021
無相故	-11.1022
▁二釋名	-11.1022
一切香	-11.1025
世智	-11.1028
說佛	-11.1032
道路	-11.1033
出興于世	-11.1035
不久	-11.1036
等心	-11.1036
應身	-11.1036
解故	-11.1036
後方	-11.1037
本生	-11.1037
義相	-11.104
十德	-11.104
大河	-11.104
聞此法	-11.1041
中十波羅蜜	-11.1041
之主	-11.1047
大小乘	-11.105
顯前	-11.1052
婇女	-11.1052
結名	-11.1057
仁王經	-11.1059
謙巳推勝	-11.1061
惡人	-11.1063
若非	-11.1063
財施	-11.1065
截	-11.1066
樹王	-11.1066
無生無滅	-11.1068
上求	-11.1071
如今	-11.1072
傾	-11.1073
寫	-11.1073
初發心菩薩	-11.1075
從佛	-11.1077
德故	-11.1077
不可言	-11.1077
無量相	-11.1079
祇	-11.1079
追求	-11.1079
此童子	-11.108
作禮	-11.108
以一切法	-11.108
威神力	-11.1081
重顯	-11.1083
驅	-11.1083
自分行	-11.1085
今何	-11.1087
位位	-11.1087
成就菩薩	-11.1089
先總標	-11.1092
遶	-11.1093
種種業	-11.1094
密意	-11.1096
垂下	-11.1096
麤重	-11.1097
能離	-11.11
與諸菩薩	-11.1102
閻浮提中	-11.1108
無限量	-11.1108
本願力故	-11.1113
妄也	-11.1114
且如	-11.1116
普攝眾生	-11.1116
初成	-11.1117
皆屬	-11.1117
知彼	-11.1118
明燈	-11.1118
質直	-11.1118
會之	-11.1119
四十二	-11.112
見修	-11.1121
佛前	-11.1122
雨大法雨	-11.1123
無流	-11.1128
紺	-11.1128
至真	-11.1128
十卷	-11.113
法界性	-11.1131
即第一	-11.1132
起信云	-11.1132
推德昇進	-11.1136
逸	-11.1136
執有	-11.1139
梁攝論	-11.1139
所覺	-11.114
佛果故	-11.1142
九種	-11.1144
隨方	-11.1145
為用	-11.1147
一攝	-11.1147
魏	-11.115
入一切智	-11.115
助道法	-11.1151
如是見	-11.1151
能與	-11.1151
抄	-11.1152
齋	-11.1152
為嚴	-11.1152
一釋名	-11.1154
勤行	-11.1155
帝網重重	-11.1155
虛空法界	-11.1158
先正	-11.1159
執取	-11.1159
無量百千億那由他	-11.1159
事法界	-11.1161
究竟故	-11.1163
菩提心者如	-11.1164
智光照	-11.1165
義亦	-11.1167
過去未來現在	-11.1171
設敬	-11.1171
於後	-11.1172
非劫	-11.1178
光統	-11.1178
不散	-11.1179
淨佛國土	-11.1179
止住	-11.118
火燒	-11.1182
斷見	-11.1183
則一	-11.1185
成四句	-11.1187
疲	-11.1187
大經	-11.1189
廻	-11.1191
是身	-11.1191
十地位	-11.1192
成辦	-11.1192
一即多	-11.1192
也然	-11.1195
住一切智	-11.1196
菩薩法	-11.1198
而未知菩薩云何學菩薩行	-11.1198
供養一切諸佛	-11.1199
通妨	-11.1199
而覆其上	-11.1201
常求	-11.1201
具明	-11.1204
諸凡夫	-11.1205
慰	-11.1206
識種	-11.1211
佛說法	-11.1212
剖	-11.1214
苑	-11.1215
十明	-11.1217
卷第十	-11.1223
嘿	-11.1225
第三十	-11.1225
化法	-11.1225
十住初心	-11.1227
金網	-11.1227
不捨離	-11.1229
有一偈	-11.1229
戒定慧	-11.123
鈴	-11.1236
心法	-11.1236
所屬	-11.1238
雙泯	-11.1242
所依故	-11.1243
能示現	-11.1243
恭	-11.1244
得位	-11.1246
此之謂也	-11.1248
本迹	-11.1248
故發菩提心	-11.1248
准前	-11.125
初牒前	-11.1251
行人	-11.1263
為異	-11.1267
輒	-11.1268
諸師	-11.127
作證	-11.127
佛所行	-11.127
體不異	-11.1273
說其	-11.1276
大名稱	-11.1279
光天	-11.128
不融	-11.1281
是有為	-11.1281
來入	-11.1283
雖多	-11.1283
論釋云	-11.1285
諸惡趣	-11.1286
戒波羅蜜	-11.1288
攝他	-11.1288
籌量	-11.1289
作惡	-11.1289
諸法界	-11.1289
千萬	-11.1294
與我	-11.1295
䇿	-11.1297
盤	-11.13
有差別	-11.1303
菩薩見	-11.1303
鏡像	-11.1304
約體	-11.1306
其一	-11.1306
墮地獄	-11.1306
必須	-11.1307
淨居天	-11.1308
為教體	-11.1309
教者	-11.1311
海潮	-11.1311
四德	-11.1316
今說	-11.132
煩惱故	-11.1323
初三句	-11.1325
法非	-11.1326
於中現	-11.1327
所乘	-11.1329
嚴好	-11.133
真法	-11.1331
樓觀	-11.1331
計我	-11.1333
無邊法界	-11.1334
其法	-11.1335
別列	-11.1335
魔王	-11.1336
䟽云	-11.1337
音菩薩	-11.1337
問若爾	-11.1337
如善財	-11.1337
。●	-11.1338
無作者	-11.1339
菩薩解脫	-11.1341
主空神	-11.1341
遠公云	-11.1342
過也	-11.1342
覲	-11.1343
大德	-11.1344
不次	-11.1344
寶帳	-11.1345
而云	-11.1346
故偏	-11.1346
過者	-11.1346
過去未來	-11.1348
兼顯	-11.1349
身口意業	-11.135
顯義	-11.1351
勝進行	-11.1351
一切善法	-11.1351
自己	-11.1352
舉喻	-11.1353
第四地	-11.1353
普為眾生	-11.1354
倣此	-11.1354
師云	-11.1354
無邊故	-11.1354
遍於	-11.1355
無二相	-11.1355
祐	-11.1356
說聽	-11.1356
千世界	-11.1358
定用	-11.1359
滅除一切	-11.1359
所不能壞	-11.136
智斷	-11.136
事事	-11.1361
善覺	-11.1361
賜	-11.1363
漸增	-11.1366
是故經云	-11.1367
本法	-11.1368
俱舍云	-11.1368
別配	-11.137
▁初通	-11.137
無有差別	-11.1371
第八識	-11.1371
優	-11.1374
華果	-11.1374
來詣	-11.1377
有法喻合	-11.1378
餘之	-11.1379
諸法實相	-11.138
本論	-11.1382
往生	-11.1382
存亡	-11.1383
內身	-11.1388
進入	-11.1388
第一句	-11.1389
各現	-11.1392
汝觀	-11.1392
自在智	-11.1392
能忍	-11.1392
救濟	-11.1394
生身	-11.1396
辨十	-11.1397
合之	-11.14
降神	-11.14
斷空	-11.1401
▁初牒	-11.1402
徧一切處	-11.1402
光雲	-11.1403
說法者	-11.1405
中有十	-11.1406
雜類	-11.1408
轉依	-11.1411
以斯	-11.1411
第九會	-11.1412
法界體	-11.1412
長壽	-11.1413
死此生彼	-11.1418
如意寶王	-11.1418
十方天下人皆使	-11.1418
無有厭足	-11.142
一切二乘	-11.1421
皆現	-11.1421
軌則	-11.1422
度脫眾生	-11.1422
汝見	-11.1422
光幢	-11.1422
巳說	-11.1423
義說	-11.1423
大雨	-11.1425
見性	-11.1426
義云	-11.1426
防護	-11.1426
教化調伏一切眾生	-11.1428
證故	-11.1428
一切下	-11.1429
方說	-11.143
該攝	-11.1432
有六種	-11.1433
從初地	-11.1434
孔目	-11.1436
多剎	-11.1436
圍	-11.1438
何等為菩薩摩訶薩	-11.1439
智慧故	-11.1439
不無	-11.144
市	-11.1441
一切剎海	-11.1441
諮問	-11.1442
不怖	-11.1442
普賢菩薩摩訶薩	-11.1443
眉	-11.1447
勤修習	-11.1448
付	-11.1452
之真	-11.1455
心想	-11.1457
牒釋	-11.1457
寂故	-11.1459
勝鬘	-11.146
對治離	-11.1462
諸邪見	-11.1462
無過失	-11.1463
為究竟	-11.1466
不能見	-11.1467
度者	-11.1468
於人	-11.1468
通能所	-11.1472
有五百	-11.1473
墮惡道	-11.1474
法身故	-11.1477
諸眷屬	-11.148
一切法皆	-11.1482
而求	-11.1487
今為	-11.1488
在初	-11.149
商	-11.1491
此忍	-11.1492
請佛	-11.1496
三千世界	-11.1498
一切聲聞	-11.1498
十名	-11.1498
上言	-11.1498
佛位	-11.1499
主火神	-11.15
成佛故	-11.1501
大事	-11.1505
於一切智	-11.1509
經中說	-11.1509
是故當知	-11.151
第十三	-11.1512
九品	-11.1512
祕	-11.1512
勉	-11.1513
無自性故	-11.1514
具三	-11.1516
無名	-11.1516
欲令眾生	-11.1516
佛華嚴	-11.1518
佛法僧	-11.1519
斷德	-11.1519
一剎那中	-11.152
周匝	-11.1521
展轉相	-11.1522
奢摩他	-11.1522
余	-11.1522
不顛倒	-11.1523
佛以	-11.1524
向下	-11.1526
周圓	-11.153
佛神力故	-11.1535
心生歡喜	-11.1535
善財言	-11.1538
通因果	-11.1541
指示	-11.1541
此眾	-11.1542
法明	-11.1544
四分	-11.1545
大文第	-11.1547
智慧方便	-11.1547
徵起	-11.1547
以用	-11.1548
但依	-11.155
問既	-11.1551
大人	-11.1552
三昧分	-11.1553
無依處	-11.1555
即今	-11.1557
略辨	-11.156
諸大願	-11.156
八會	-11.1563
中行	-11.1565
一切寶莊嚴	-11.1566
知過去	-11.157
不明	-11.157
無障無礙	-11.1572
諸佛土	-11.1573
空界	-11.1575
不懷	-11.1577
是諸菩薩	-11.1577
第五地	-11.1578
▁初釋名	-11.1579
天之	-11.158
集因	-11.1585
曇	-11.1586
神力自在	-11.1587
譽	-11.1587
含於	-11.1591
後一偈	-11.1592
怠	-11.1592
因是	-11.1594
具足莊嚴	-11.1596
第三禪	-11.1597
遏	-11.1597
蘭	-11.1597
常說	-11.1599
為諸菩薩	-11.1604
大仙	-11.1604
謂離	-11.1606
幢王	-11.1609
列中	-11.1612
見普賢	-11.1613
不還	-11.1613
彼疏云	-11.1619
諸禪	-11.162
四無量	-11.1621
雙存	-11.1623
如是我聞	-11.1623
實體	-11.1627
得無礙	-11.1629
顯深	-11.1631
謂菩薩生如是心	-11.1632
良由	-11.1633
以立	-11.1633
解曰	-11.1634
焚	-11.1635
觀音	-11.1636
自見身	-11.1636
在文	-11.1637
離此	-11.1638
得大無畏安隱之處	-11.1639
作此	-11.164
得勝	-11.1641
為道	-11.1642
動寂	-11.1642
父王	-11.1643
而用	-11.1644
便得	-11.1645
非處	-11.1645
又表	-11.1646
▁初喻	-11.1648
彼眾生	-11.1657
有色	-11.1657
不可說世界	-11.1658
安慰	-11.1659
一切諸行	-11.1659
暎	-11.1661
師子頻申	-11.1662
此有二意	-11.1663
窮未來際	-11.1664
校	-11.1666
法界緣起	-11.1666
復生	-11.1666
起後	-11.1668
菩薩摩訶薩住此	-11.1669
以偈	-11.167
利根	-11.1671
不相離	-11.1672
為所依	-11.1675
緣相	-11.1675
麼	-11.1676
一切諸魔	-11.1676
於中有四	-11.1677
括	-11.1678
雲音	-11.168
就實	-11.168
文分	-11.1681
所得法門	-11.1682
十大	-11.1682
▁二會	-11.1684
後世	-11.1687
集起	-11.1688
反釋	-11.1688
慧者	-11.1691
的	-11.1694
恭敬尊重	-11.1695
等處	-11.1695
無常等	-11.1695
不善業	-11.1698
隨一一	-11.17
光𦦨	-11.1703
成事	-11.1704
以彰	-11.1704
受法	-11.1705
一一世界	-11.1708
𤼵心	-11.1708
如文自具	-11.1708
證分	-11.171
復為	-11.171
果相	-11.1713
第二七日	-11.1714
敘昔	-11.1714
萬有	-11.1715
諸菩薩摩訶薩	-11.1716
眼根	-11.1718
輪圍山	-11.172
聲者	-11.172
空無相	-11.1722
欲以	-11.1723
觀其	-11.1724
俱無	-11.1725
明前	-11.1726
海印三昧	-11.1726
迷真	-11.1727
結使	-11.1729
清淨道	-11.173
周徧法界	-11.1731
愁	-11.1732
菩薩心	-11.1732
五約	-11.1733
初二頌	-11.1733
若能如是	-11.1734
平等性	-11.1734
自因	-11.1737
心海	-11.1737
文殊師利童子	-11.1738
念慧	-11.174
羸	-11.1741
爾時如來	-11.1744
一真	-11.1745
▁初引	-11.1745
八地已上	-11.1746
五重	-11.1748
通前	-11.1749
二執	-11.1749
既非	-11.1749
採	-11.175
茶	-11.175
入無量	-11.1751
先有	-11.1752
滅障	-11.1753
下以經帖	-11.1753
四位	-11.1753
云何修菩薩道	-11.1756
含多	-11.1756
將此	-11.1757
苟	-11.1757
尅	-11.1759
分別者	-11.1768
勝益	-11.177
金剛智	-11.1772
徃昔	-11.1775
等法界無量	-11.1775
攝於	-11.1775
段中	-11.1775
皆與	-11.1777
二嚴	-11.1779
生苦	-11.178
所無	-11.1782
本位	-11.1784
若菩薩摩訶薩安住此	-11.1784
智滿	-11.1787
共法	-11.1787
無退	-11.1788
鮮	-11.1792
▁初揔標	-11.1792
中分三	-11.1795
水火	-11.1796
嚴剎	-11.1796
知時	-11.1796
適悅	-11.1798
有四一	-11.1799
文分三	-11.18
▁三結成	-11.18
三昧起	-11.18
地滿	-11.1803
亦名為	-11.1803
處也	-11.1805
定力	-11.1806
主山神	-11.1808
大天	-11.1809
不壞信	-11.181
皆歡喜	-11.1812
無餘涅槃	-11.1813
境也	-11.1813
妬	-11.1813
成佛果	-11.1814
天樂	-11.1814
轉法	-11.1814
應生	-11.1815
是為諸佛第	-11.1815
華光	-11.1816
微妙法	-11.1818
便有	-11.1821
諸王	-11.1822
耆	-11.1823
商主	-11.1824
旃檀	-11.1824
十方法界	-11.1826
愈	-11.1826
依真	-11.1827
攝盡	-11.183
值遇	-11.1831
肩	-11.1831
鄙	-11.1832
胸	-11.1832
邪行	-11.1833
光焰	-11.1833
有六行經	-11.1834
類通	-11.1835
卷第三	-11.1836
謂有問言	-11.1837
一切所有	-11.1837
順觀	-11.1838
加相	-11.1839
盡無餘	-11.1839
最極	-11.1839
第二地	-11.184
梵行品	-11.1841
光明輪	-11.1841
中際	-11.1842
讚說	-11.1844
加所為	-11.1848
須彌山王	-11.1852
離貪	-11.1854
滿十方	-11.1854
心大歡喜	-11.1858
無障礙法界	-11.1859
三舉	-11.1861
不離念	-11.1862
直進	-11.1862
非彼	-11.1863
大威力	-11.1863
業種	-11.1865
寶輪	-11.1867
乃得	-11.187
釋經文	-11.187
聞聲	-11.1871
說彼	-11.1872
無所分別	-11.1872
宮中	-11.1875
自在法	-11.1875
皆隨	-11.1876
故稱為	-11.1876
覺了	-11.1876
二愚	-11.1878
諸文	-11.1878
如月	-11.1881
即與	-11.1881
天中	-11.1882
宮殿中	-11.1883
菩薩名	-11.1887
藝	-11.189
三類	-11.1891
此四天下	-11.1891
知一切佛	-11.1891
稽首	-11.1893
純雜	-11.1893
戒取	-11.1894
形貌	-11.1894
離癡	-11.1895
無勝	-11.1896
剎塵數	-11.1897
牢獄	-11.1897
藏師子之座	-11.19
西南方	-11.19
地水火風	-11.1903
約時	-11.1905
溢	-11.1906
▁二徵	-11.1907
又言	-11.1908
華香	-11.191
離有無	-11.1911
洪	-11.1912
一一佛所	-11.1914
加被	-11.1916
身入	-11.1917
神通自在	-11.1919
大旨	-11.192
觀中	-11.1921
畔	-11.1921
小教	-11.1925
斯為	-11.1926
等殊	-11.1926
能度	-11.1927
請法	-11.1927
佛在	-11.1929
如文	-11.1931
五段	-11.1932
住世	-11.1934
菩薩成就	-11.1937
功德林	-11.1942
動轉	-11.1942
前段	-11.1945
國名	-11.1946
淨天	-11.1949
諸善法	-11.1949
無不現	-11.1949
復應	-11.1951
一切音聲	-11.1951
無明住地	-11.1952
障對治	-11.1952
頓漸	-11.1952
外緣	-11.1954
妄法	-11.1954
廣引	-11.1957
雙釋	-11.1957
得清涼	-11.1957
是權	-11.1958
入無邊	-11.1958
隨有	-11.1963
頌上	-11.1966
諸聲聞	-11.1966
若自	-11.1969
難勝	-11.1971
教令	-11.1971
亦攝	-11.1975
一切業	-11.1976
慎	-11.1977
右繞	-11.1979
來處	-11.1979
此行	-11.198
能盡	-11.1981
二解	-11.1985
黨	-11.1986
故論	-11.1986
念眾生	-11.1986
伏藏	-11.1987
緣中	-11.1987
隨他	-11.1988
下品	-11.1988
三宗	-11.1988
但觀	-11.1989
今釋	-11.1989
分別知	-11.1991
於大海	-11.1991
芥子	-11.1993
是為十若諸菩薩安住此法	-11.1994
可以意得	-11.1996
空理	-11.2
而亦不	-11.2
大龍王	-11.2002
重明	-11.2005
由得	-11.2005
宛然	-11.2008
正意	-11.2008
䟽釋	-11.201
為身	-11.201
菩薩功德	-11.2011
摧破	-11.2014
拔苦	-11.2014
能如是	-11.2017
此但	-11.2018
下明其	-11.2018
於如來所	-11.2019
其德	-11.202
約佛	-11.2021
別別	-11.2024
能住	-11.2025
正思惟	-11.2027
為順	-11.2027
隨所應	-11.2028
令信	-11.2029
......	-11.2031
一一眾生	-11.2031
處胎	-11.2033
現其前	-11.2036
不由	-11.2041
觀見	-11.2045
緣因	-11.2045
既得	-11.2045
法界智	-11.2045
普於十方	-11.2047
為末	-11.2047
主林神	-11.2048
無上智	-11.2048
不死	-11.2048
釋其	-11.2049
十住品	-11.2053
金剛藏菩薩言	-11.2053
晉經云	-11.2053
遍故	-11.2053
▁二正顯	-11.2056
▁初依	-11.2058
工	-11.2058
蓮華座	-11.2059
無所作	-11.206
鳴	-11.2062
以本	-11.2064
求覓	-11.2065
今有	-11.2065
而轉	-11.2066
治地住	-11.2067
勤苦	-11.2069
後正	-11.207
刃	-11.2071
付囑	-11.2072
云何是諸佛	-11.2072
現通	-11.2072
不見佛	-11.2073
鬪諍	-11.2074
冷	-11.2077
淨剎	-11.2077
悉具足	-11.2079
所緣境	-11.2079
如帝網	-11.208
欠	-11.2083
浩	-11.2086
不破	-11.2087
三總結	-11.2088
各有十	-11.2089
大光	-11.2089
能示	-11.2097
四河	-11.2098
其王	-11.2098
善不善	-11.2098
定中	-11.2101
體同	-11.2102
佛音聲	-11.2102
多生	-11.2103
廣破	-11.2105
於色	-11.2107
俱空	-11.2111
異道	-11.2112
第六會	-11.2114
能動	-11.2116
假說	-11.2117
卷第二	-11.2117
寄顯	-11.2118
普熏	-11.2128
之佛	-11.2129
三十九	-11.213
顯佛	-11.213
無礙自在	-11.213
欣慶	-11.213
阿僧祇品	-11.213
成佛時	-11.2131
主風神	-11.2132
隨其心樂	-11.2133
道塲	-11.2133
離眾	-11.2134
所具	-11.2134
生也	-11.2135
深重	-11.2138
又約	-11.2138
第十二	-11.214
廣大如法界	-11.2141
曷	-11.2141
村	-11.2143
值佛	-11.2149
恡	-11.2149
世界成就品	-11.215
刀山	-11.215
得安樂	-11.215
童蒙	-11.215
三節	-11.2151
辛	-11.2151
普賢身	-11.2153
劫名	-11.2155
苦故	-11.2156
尾	-11.2157
園中	-11.2158
大願力	-11.2164
先正明	-11.2166
親證	-11.2166
審諦	-11.2171
山頂	-11.2175
故說為	-11.2176
高顯	-11.218
染法	-11.2181
生喜	-11.2186
之剎	-11.2187
以空	-11.2187
不是	-11.2189
稱真	-11.219
而為供養	-11.2191
不似	-11.2193
比量	-11.2193
以信	-11.2194
成就如來	-11.2194
次一句	-11.2196
例餘	-11.2196
智慧光	-11.2199
四辯	-11.22
示成正覺	-11.2202
標章	-11.2203
佛家	-11.2203
天親	-11.2203
歡喜心	-11.2204
自乘	-11.2208
於地	-11.2209
虛無	-11.2209
恣	-11.2209
雖異	-11.2212
成實	-11.2213
結說	-11.2213
法名	-11.2213
前句	-11.2217
不至	-11.2219
真體	-11.222
樂求	-11.222
禍	-11.2223
乃至廣說	-11.2224
演暢	-11.2225
無明緣行	-11.2226
不廢	-11.2226
有我	-11.2229
化故	-11.223
後總結	-11.223
兆	-11.223
受行	-11.223
正心住	-11.2232
具足清淨	-11.2233
奔	-11.2233
三十一	-11.2234
更相	-11.2235
振	-11.2236
之苦	-11.2237
寶嚴	-11.2239
床	-11.2239
異因	-11.224
現起	-11.224
無外	-11.224
水輪	-11.224
子曰	-11.2243
不離此	-11.2244
不正	-11.2244
損減	-11.2246
邪婬	-11.2249
復說	-11.2251
陰陽	-11.2252
重會	-11.2252
持淨戒	-11.2252
文可知	-11.2253
魔境界	-11.2253
眾生等	-11.2254
皆悉清淨	-11.2255
現世	-11.226
二業	-11.2261
全攝	-11.2261
平等法	-11.2262
進退	-11.2262
陀羅	-11.2263
滅諸	-11.2267
品名	-11.2271
所護	-11.2273
聞經	-11.2274
度世	-11.2276
大性	-11.2276
容有	-11.2279
異於	-11.228
疏文有三	-11.228
五果	-11.2285
了別	-11.2285
非獨	-11.2288
化物	-11.229
先以	-11.2291
菩薩所住	-11.2291
宣揚	-11.2292
時即	-11.2292
見一一毛孔	-11.2295
以慧	-11.2296
離妄	-11.2298
之殊	-11.2299
成智	-11.23
發大願	-11.2301
共有	-11.2301
是定	-11.2303
後偈頌	-11.2304
疏釋論	-11.2304
又依	-11.2307
䟦	-11.231
妄情	-11.231
醜	-11.2312
樂具	-11.2314
復云	-11.2314
獻	-11.2314
孫	-11.2317
是故說	-11.2317
頭目	-11.2319
出世間法	-11.232
故為此通	-11.2322
名句	-11.2324
慳貪	-11.2325
癡愛	-11.2331
皆悉成就	-11.2335
世所	-11.2336
佛十力	-11.2337
長科	-11.2338
十不可說	-11.2341
妙月	-11.2343
成此	-11.2344
如此世界	-11.2344
得此三昧	-11.2345
一切世界中	-11.2346
佛是	-11.2349
應真	-11.2349
於心	-11.2351
見已	-11.2351
亦約	-11.2352
具前	-11.2354
中邊	-11.2357
光明幢	-11.2358
有想	-11.2358
起悲	-11.2359
顯發	-11.236
決斷	-11.2363
學佛	-11.2363
文分二	-11.2364
外境	-11.2364
志求	-11.2365
戒者	-11.2367
所須	-11.2368
託事	-11.2368
初發	-11.2368
相依	-11.237
然燈	-11.237
淨覺	-11.237
起心	-11.2371
治之	-11.2373
為表	-11.2374
一切魔	-11.2376
如諸菩薩	-11.2377
十忍	-11.2377
出所以	-11.2378
自餘	-11.2378
違順	-11.2379
經唐太原方山長者李通玄造論唐	-11.238
諸義	-11.238
不偏	-11.2382
觀相	-11.2382
有苦	-11.2386
本一	-11.2389
智慧觀察	-11.2393
無身	-11.2393
器仗	-11.2395
教海	-11.2395
涯	-11.2396
昇天	-11.2396
一切世	-11.2396
冀	-11.2397
無物	-11.2398
之要	-11.24
一切有為	-11.24
不異前	-11.2401
▁二荅	-11.2402
保	-11.2403
滅壞	-11.2404
易解	-11.2405
得無生忍	-11.2405
聰	-11.2405
約用	-11.2407
意顯	-11.2407
大山	-11.2407
恐繁不	-11.2409
但得	-11.241
正念思惟	-11.2415
西域記	-11.2417
若不爾者	-11.2417
十方三世	-11.2419
成就普賢	-11.242
破闇	-11.2421
王所	-11.2421
智度論	-11.2425
敵對	-11.2425
一切佛土	-11.2426
非斷	-11.2426
由心	-11.243
住佛	-11.2436
相從	-11.2438
無礙者	-11.2439
六千	-11.2439
自成	-11.244
會主	-11.244
欲見	-11.244
人眾	-11.244
限量	-11.2441
信力	-11.2443
皆是如來	-11.2443
忘失	-11.2445
色無色	-11.2448
正住	-11.2448
諸佛菩提	-11.2449
先顯	-11.245
十迴向中	-11.2453
亦二義	-11.2453
百千億那由他劫	-11.2455
本是	-11.2455
除斷	-11.2456
令不	-11.2458
五通	-11.2458
愛敬	-11.2458
可愛	-11.2462
是為菩薩摩訶薩施	-11.2462
世間所有	-11.2463
又若	-11.2464
剎那際	-11.2465
福州開元寺沙門志寧釐經合論	-11.2465
我說	-11.2466
不惜身命	-11.2469
師子奮迅	-11.247
向前	-11.247
眾生見者	-11.2474
藥草	-11.2475
悉巳	-11.2475
能救	-11.2477
為世	-11.2477
唯是一	-11.2478
此光	-11.248
出現品云	-11.2481
全別	-11.2482
記別	-11.2483
心有	-11.2483
佛光明	-11.2484
十類	-11.2485
不能得	-11.2485
了了	-11.2486
而自莊嚴	-11.2487
以法身	-11.2488
妙相	-11.2489
巖	-11.2489
鳩槃茶王	-11.249
十佛剎微塵數世界	-11.2491
毒蛇	-11.2491
▁初施行	-11.2492
噉	-11.2493
住在	-11.2493
正當	-11.2493
長劫	-11.2494
生生	-11.2495
真實行	-11.2496
之音	-11.2496
我得	-11.2498
我想	-11.2501
佛智故	-11.2502
出處	-11.2503
廣大無量	-11.2503
菩薩境界	-11.2504
真實性	-11.2506
餘並可知	-11.2507
大果	-11.2509
三處	-11.2512
如來出世	-11.2513
智正覺	-11.2515
得授記	-11.2515
皆非	-11.2515
一見	-11.2516
大苦	-11.2516
方等	-11.2518
名數	-11.2518
亦表	-11.2518
反上	-11.2522
周匝圍遶	-11.2523
佛剎微塵	-11.2525
五字	-11.2526
無法不	-11.2529
引接	-11.253
現無量	-11.253
顯說	-11.2534
亦不可	-11.2534
不常	-11.2535
罪福	-11.2538
種種性	-11.254
得至	-11.2541
過去諸佛	-11.2544
常無常	-11.2545
如蓮華	-11.2545
莊子	-11.2546
餘一切	-11.2547
福德智慧	-11.2549
滿中	-11.2549
同者	-11.2551
化樂天	-11.2551
信根	-11.2551
見之	-11.2551
無相觀	-11.2554
百萬億那由他	-11.2554
無間道	-11.2555
集諦	-11.2557
所共圍繞	-11.2557
隨所應化	-11.2558
開示演說	-11.2559
遐	-11.2559
之方便	-11.256
養育	-11.2563
隨順一切眾生	-11.2565
良醫	-11.257
望後	-11.2571
於善知識生	-11.2572
寶手	-11.2573
調和	-11.2574
並為	-11.2575
研	-11.2577
須彌山微塵數	-11.2577
弗	-11.2577
下彰	-11.2578
井	-11.2578
第十六	-11.2579
賴	-11.2581
眾惡	-11.2582
第二門	-11.2583
先長行	-11.2592
影響	-11.2592
亦有二	-11.2593
殺害	-11.2593
未證	-11.2597
摩羅	-11.2598
無不在	-11.2601
義則	-11.2602
香普熏	-11.2602
佛子是為	-11.2602
真佛子	-11.2607
彼諸眾生	-11.262
六中	-11.2621
此定	-11.2623
戴	-11.2623
見敬諮問	-11.2625
約機	-11.2625
云我	-11.2627
明珠	-11.2627
我時	-11.2627
性德	-11.2629
有生滅	-11.2629
登地	-11.2632
大願海	-11.2637
牙齒	-11.2638
問佛	-11.2639
真實相	-11.264
有見	-11.2642
文分為三	-11.2642
德藏菩薩	-11.2644
邏	-11.2646
困	-11.2647
之想	-11.2648
法自在	-11.2649
而入	-11.2649
一切惡	-11.265
彼論云	-11.265
不怯弱	-11.2651
不減	-11.2651
即名為	-11.2651
摩尼王雲	-11.2653
至心歸命禮	-11.2653
奴	-11.2654
化主	-11.2654
所目	-11.2654
依根	-11.2654
大神通力	-11.266
性戒	-11.266
邪正	-11.2661
牛車	-11.2664
所宗	-11.2664
所離	-11.2667
巳成	-11.2668
麁細	-11.2669
同在	-11.2672
佛性者	-11.2672
感果	-11.2674
無碍	-11.2674
圓融無礙	-11.2676
宗中	-11.2676
充遍	-11.2677
爛	-11.2678
隨文釋義	-11.2678
不相離故	-11.2681
菩薩大願	-11.2683
諸神	-11.2684
本經	-11.2685
始末	-11.2685
大義	-11.2686
雜華	-11.2689
聖賢	-11.269
待緣	-11.2692
不俱	-11.2694
身體	-11.2694
謙下	-11.2696
無分別故	-11.2696
義類	-11.2698
須彌山頂	-11.2698
超過一切	-11.2704
不曉	-11.2704
力士	-11.2707
初中三	-11.2708
約義	-11.2713
詣佛	-11.2713
但由	-11.2714
六種震動	-11.2716
南西北方四維上下亦復如是	-11.2719
先列	-11.2719
增上果	-11.2719
共教	-11.272
菩薩位	-11.272
五體投地	-11.2721
十使	-11.2722
下位	-11.2723
能容	-11.2724
世界種中諸佛道場一切海眾	-11.2724
疑網	-11.2725
善達	-11.2726
兜率陀天	-11.2726
肘	-11.2727
於一切佛	-11.2729
海岸	-11.2729
兩重	-11.2729
第三明	-11.2735
從三昧起	-11.2735
鑽	-11.2735
而出	-11.2736
異說	-11.2738
如本	-11.2739
常恒	-11.274
健	-11.2741
於阿耨多羅三藐三菩提	-11.2741
大梵天王	-11.2742
拏	-11.2743
號為	-11.2744
第一云	-11.2745
轉復	-11.2746
先見	-11.275
無由	-11.2753
之終	-11.2754
會三歸一	-11.2755
功德故	-11.2755
杜	-11.2756
善利	-11.2759
臥具	-11.2759
於諸法中	-11.2761
見取	-11.2761
十住位	-11.2762
前說	-11.2764
不動搖	-11.2765
寂用無礙	-11.2765
及涅槃	-11.2769
生死流	-11.2769
智觀	-11.2771
位極	-11.2773
證信	-11.2774
生歡喜心	-11.2775
以況	-11.2776
真常	-11.2778
此宗	-11.2778
如是觀察	-11.2778
□□□	-11.2779
一切施	-11.278
對境	-11.278
諸菩薩等	-11.278
相即故	-11.2782
行用	-11.2783
智慧藏	-11.2787
法界藏	-11.2788
一時頓	-11.2789
有二句	-11.2789
族姓子	-11.279
約境	-11.2793
斷諸	-11.2794
深淺	-11.2794
一切諸佛於一念中	-11.2795
聞思	-11.2797
無量義	-11.2797
月佛	-11.28
界外	-11.2801
屋宅	-11.2801
同生	-11.2802
三百	-11.2803
隱覆	-11.2803
八中	-11.2807
来	-11.2811
解脫長者	-11.2813
入佛境界	-11.2813
明現	-11.2813
於過去	-11.2813
主海神	-11.2813
憂喜	-11.2814
示法	-11.2814
憙	-11.2816
攝在	-11.2817
堅牢	-11.282
伐	-11.282
如初	-11.2821
圓淨	-11.2822
鏡中	-11.2823
人身	-11.2824
覽	-11.2824
淨分	-11.2825
堪聞	-11.2825
至相	-11.2826
基	-11.2828
自無	-11.2828
率	-11.2829
自位	-11.2829
例知	-11.2833
洛叉	-11.2836
劒	-11.2837
隋	-11.2838
周行	-11.2838
面門	-11.2839
動故	-11.2839
智首	-11.2839
同義	-11.284
餘門	-11.284
幻術	-11.2841
前門	-11.2841
因事	-11.2842
一切如來所	-11.2845
三十七品	-11.2845
大導師	-11.2846
稱實	-11.2848
理法界	-11.2848
起願	-11.2851
當機	-11.2852
地名	-11.2852
號之為	-11.2854
或入	-11.2854
世出世間	-11.2854
偈半頌	-11.2855
四對	-11.2857
悉檀	-11.2857
無間斷	-11.2858
微密	-11.286
不善法	-11.286
有斯	-11.2862
眾生類	-11.2863
解脫月菩薩	-11.2864
同會	-11.2865
有一頌	-11.2866
至佛所	-11.2872
功德林菩薩	-11.2874
現色	-11.2876
齊等	-11.2881
彼說	-11.2884
。」《	-11.2884
庶	-11.2884
初徵	-11.289
普觀十方而說頌言	-11.289
入三世	-11.289
燈光	-11.2891
願求	-11.2897
佛現	-11.2898
不揀	-11.2899
恩德	-11.29
有不可說	-11.2902
如是菩薩	-11.2903
多所	-11.2904
準知	-11.2905
見諸	-11.2905
小乘中	-11.2907
下釋成	-11.2908
眼識	-11.2908
聾	-11.2909
變易生死	-11.291
不毀	-11.2911
稱讚授法	-11.2911
今復	-11.2912
而得成就	-11.2913
得一切法	-11.2915
體相用	-11.2916
竹	-11.2917
伯	-11.2917
英	-11.2918
楚	-11.2919
朱	-11.2919
災	-11.292
動搖	-11.292
促	-11.2921
四行	-11.2922
淨慧	-11.2922
淨也	-11.2923
名淨	-11.2924
從定起	-11.2924
簡擇	-11.2925
信入	-11.2927
即通	-11.2927
現報	-11.2935
光明藏	-11.2936
兔	-11.2936
求解脫	-11.2938
此識	-11.2939
真法界	-11.294
脇	-11.294
維摩	-11.2941
與一切	-11.2942
成就故	-11.2944
八頌	-11.2944
▁初敘	-11.2945
欲解	-11.2945
示現受生	-11.2947
燭	-11.2948
性相無礙	-11.2948
集善根	-11.2948
懺除	-11.2949
菩薩亦如是	-11.295
百千那由他	-11.2952
不見有	-11.2958
性不	-11.2968
於大乘	-11.2968
有剎	-11.2969
此論	-11.2969
是為菩薩摩訶薩布施	-11.2971
所及	-11.2975
所依止	-11.2975
意加	-11.2976
該於	-11.2978
十忍品	-11.2979
主河神	-11.298
無有生	-11.2981
別則	-11.2981
次辨	-11.2982
下當	-11.2984
義大	-11.2984
故號	-11.2984
諸宗	-11.2985
嚴土	-11.2985
劫住	-11.2986
從喻	-11.2986
緣起相由	-11.2986
而可	-11.2986
於一切時	-11.2987
本業經	-11.2989
全無	-11.2991
轉更	-11.2992
塵沙	-11.2993
相收	-11.2994
速得	-11.2996
法味	-11.2997
中皆有	-11.2998
復次善男子	-11.2998
不證	-11.2999
第二段	-11.3
於中普現	-11.3001
照現	-11.3001
如來清淨	-11.3001
具二	-11.3001
弊	-11.3002
四中	-11.3005
燃	-11.3006
蒲	-11.3007
引攝	-11.3008
紛	-11.3011
成佛者	-11.3012
二三四	-11.3013
入火	-11.3013
詺	-11.3014
分六	-11.3014
尋思	-11.3014
十地論	-11.3018
有六句	-11.3018
此位中	-11.302
一一光明	-11.302
教化成熟	-11.3021
十方一切諸佛	-11.3023
已見	-11.3024
主佛	-11.3024
彼彼	-11.3025
八正	-11.3027
大菩提心	-11.3032
亦復無	-11.3033
真如隨緣	-11.3034
家故	-11.3036
得自在故	-11.3038
次有如來	-11.3039
還以	-11.3039
寶焰	-11.3042
以此法	-11.3045
舉果	-11.3046
金輪	-11.3046
正在	-11.3047
一切眾生皆	-11.3049
起信論云	-11.3049
非器	-11.3051
不思議法	-11.3054
來生	-11.3054
香味	-11.3056
化益	-11.3056
他心智	-11.3062
無偏	-11.3064
則得一切諸佛無上	-11.3064
說三世	-11.3066
聞之	-11.3066
問何	-11.3067
難者	-11.3067
玻瓈	-11.3068
持業	-11.3068
足行神	-11.307
四念處	-11.3074
初正明	-11.3075
侍衛	-11.3075
十千億	-11.3076
踐	-11.3078
瞋心	-11.3079
想者	-11.3081
夜摩天宮	-11.3082
餘亦如是	-11.3082
十八界	-11.3083
已有	-11.3083
壯	-11.3086
起大	-11.3088
開章別釋	-11.3089
論經名	-11.3089
十行位	-11.309
主地神	-11.309
法音	-11.309
猶如大海	-11.3093
瑜伽論	-11.3095
掉	-11.3095
增明	-11.3096
謂隨	-11.3097
夕	-11.3097
現於	-11.3098
圭峯	-11.3099
阿鼻地獄	-11.3104
入生死	-11.3104
之過	-11.3105
肇公	-11.3105
十自在	-11.3106
難陀	-11.3106
不增減	-11.3107
所可	-11.3108
勸學	-11.3108
頓悟	-11.3108
總辨	-11.3108
此喻	-11.3109
使其	-11.311
因生	-11.311
凡愚	-11.3111
如上所說	-11.3115
後報	-11.3118
勸令	-11.3119
唯在	-11.312
灌頂住	-11.3121
眾妙寶	-11.3123
初始	-11.3125
華葉	-11.3128
唯明	-11.3128
無減	-11.3129
下對	-11.313
十二句	-11.313
三世法	-11.3134
半明	-11.3135
引生	-11.3136
通為	-11.3136
等相	-11.3136
能感	-11.3138
之旨	-11.3141
科文	-11.3141
先徵	-11.3141
一切莊嚴具	-11.3144
證也	-11.3144
無罣礙	-11.3145
如來功德	-11.3145
生在	-11.3149
不二法門	-11.315
退轉	-11.3153
是故此處最吉祥	-11.3153
開闡	-11.3155
四聖諦	-11.3156
勝慧	-11.3158
即說頌言	-11.3159
譬如虗空	-11.316
三千大千世界微塵數	-11.316
此理	-11.316
垂布	-11.3161
即法界	-11.3162
知者	-11.3164
無始終	-11.3165
合掌恭敬	-11.3165
悅豫	-11.3166
一釋	-11.3167
法堂	-11.317
字時入般若波羅蜜門名	-11.3171
一生補處	-11.3173
來去	-11.3175
眾生心中	-11.3176
藥王	-11.3178
舍宅	-11.3178
所染	-11.3178
別喻	-11.318
顯證	-11.318
應受	-11.318
悋	-11.3182
劣故	-11.3182
補特伽羅	-11.3183
廣大法	-11.3183
自然而	-11.3184
狹劣	-11.3184
煙	-11.3184
初發心時便成正覺	-11.3186
分成	-11.3186
聰慧	-11.3187
常有	-11.3187
會融	-11.3188
為戒體	-11.319
天冠	-11.3191
諸佛功德	-11.3195
際故	-11.3198
冬	-11.3201
之水	-11.3204
顯其相	-11.3205
開導	-11.3205
散滅	-11.3205
釋疑	-11.3206
尊勝	-11.3206
終至	-11.321
滅盡定	-11.321
計有	-11.3211
優鉢羅華	-11.3212
正陳	-11.3213
品說	-11.3215
彈	-11.3215
莊嚴身	-11.3216
皆見	-11.3216
亦兼	-11.3219
化導	-11.322
既知	-11.3222
周徧十方	-11.3225
善人	-11.3225
略標	-11.3226
智神通	-11.3229
理也	-11.3229
終歸	-11.323
自生	-11.323
四釋	-11.323
此當	-11.3232
離垢三昧	-11.3232
今欲	-11.3236
彼文	-11.3236
此國	-11.3236
乃至十地	-11.3237
有三種一	-11.3237
作是言	-11.324
鎧	-11.324
不同前	-11.324
入法界品	-11.3241
淨行品	-11.3242
至誠	-11.3242
隨何	-11.3243
說時	-11.3246
說四諦	-11.3248
後三句	-11.3249
語言道	-11.325
離煩惱	-11.325
辨釋	-11.3252
念佛三昧	-11.3254
又是	-11.3258
汝詣彼問菩薩云何學菩薩行修菩薩道	-11.326
極微塵數	-11.326
悉能示現	-11.3261
上界	-11.3263
畢竟空	-11.3265
相宗	-11.3268
威神力故	-11.3269
半滿	-11.327
不過	-11.3271
猶是	-11.3272
第二云	-11.3272
虗無	-11.3272
娑羅	-11.3273
別章	-11.3274
聳	-11.3275
善學	-11.3276
貞	-11.328
清凉	-11.3282
已入	-11.3282
洛	-11.3282
宏	-11.3283
有別	-11.3283
於中分二	-11.3284
表示	-11.3284
皆應	-11.3284
隨器	-11.3287
漂溺	-11.3289
莊嚴道	-11.3289
得成佛	-11.3289
綺語	-11.329
事者	-11.329
十二部經	-11.3291
通辨	-11.3292
於法自在	-11.3294
凝然	-11.3295
光網	-11.3296
歡喜行	-11.3296
中千	-11.3297
於一毛孔	-11.3299
三昧境界	-11.33
為重	-11.3302
不愛	-11.3303
所被	-11.3304
遍遊	-11.3307
已前	-11.3309
亦同此說	-11.3309
初果	-11.3309
後一頌	-11.331
一百二十	-11.3312
可斷	-11.3314
覺心	-11.3315
最清淨	-11.3316
令清淨	-11.3317
苦眾生	-11.3318
地獄中	-11.3319
不喜	-11.3323
亦未	-11.3324
施者	-11.3324
餘方	-11.3324
梵世	-11.3326
合故	-11.3327
於佛法	-11.3327
法界自在	-11.3329
渴仰	-11.3331
是化	-11.3331
療	-11.3331
生彼	-11.3335
結請	-11.3335
謂觀	-11.3339
深觀	-11.334
依他起	-11.3341
從本	-11.3342
行斯道	-11.3343
多類	-11.3343
依佛	-11.3345
諸佛正法	-11.3346
以手	-11.3346
若此	-11.335
𢌞向	-11.3351
悉從	-11.3351
綺	-11.3353
一切諸佛皆	-11.3356
不殺	-11.3356
大乘中	-11.3358
相狀	-11.336
女身	-11.336
在纏	-11.336
有殊	-11.336
諸苦惱	-11.336
顯多	-11.3361
籍	-11.3362
希奇	-11.3363
或從	-11.3363
證真如	-11.3363
勝處	-11.3363
經歷	-11.3363
無量眾	-11.3364
十平等	-11.3368
略有四	-11.3369
明此位	-11.3372
衍	-11.3372
一切智海	-11.3374
隨諸眾生心	-11.3374
沙彌	-11.3375
所來	-11.3375
生貴住	-11.3376
摩竭	-11.3377
無去	-11.3377
理法	-11.3377
<	-11.338
i	-11.338
m	-11.338
g	-11.338
留惑	-11.3381
如此經	-11.3388
徧往	-11.3389
相現	-11.3389
便是	-11.3389
但顯	-11.3389
由善知識	-11.3389
語其	-11.3392
墮於	-11.3393
各攝	-11.3396
則通	-11.3399
入一乘	-11.34
通名	-11.3401
頓成	-11.3401
若知	-11.3401
果行離	-11.3402
四蘊	-11.3405
百佛	-11.3405
得智慧	-11.3407
不沒	-11.3408
無有異	-11.341
通難	-11.3411
梵天王	-11.3412
雖得	-11.3417
即淨名	-11.3417
無所取	-11.3419
中論云	-11.3419
行本	-11.3421
其中有	-11.3427
為相	-11.3427
因起	-11.3427
後辨	-11.3428
異前	-11.3431
多即一	-11.3433
無有疲厭	-11.3435
含藏	-11.3436
以諸善根如是迴向	-11.3436
所喻	-11.3436
即無性	-11.3437
音聲為體	-11.3437
得出世	-11.3438
定也	-11.3439
名利	-11.3442
穢土	-11.3443
五位中	-11.3446
倚	-11.3446
明業用	-11.3446
所以然者	-11.3447
江河	-11.3449
摩竭提國	-11.345
為智	-11.3451
具矣	-11.3452
層級	-11.3452
向佛	-11.3453
陿	-11.3454
兜率天王	-11.3454
自下第二	-11.3455
如法華	-11.3455
彼不思議	-11.3456
其華	-11.3457
則前	-11.3458
一一法	-11.3458
祥	-11.3459
必得	-11.3459
由彼	-11.346
十住位中	-11.3461
儼	-11.3464
大捨	-11.3468
上釋	-11.3469
現瑞	-11.3472
五偈	-11.3474
一偈半	-11.3475
業果報	-11.3476
同法	-11.3478
當為汝說	-11.3479
無盡功德	-11.3481
因門	-11.3483
無惑	-11.3484
一月	-11.3484
巳還	-11.3484
未見	-11.3488
無取	-11.3489
七頌	-11.3489
欲成	-11.349
世界微塵等	-11.349
大品云	-11.3491
從於	-11.3492
悔過	-11.3492
最勝智	-11.3495
有三義一	-11.3496
普現十方	-11.3497
別歎	-11.3497
無量無數劫	-11.3501
眾集	-11.3501
四十一	-11.3501
遊步	-11.3504
佛等	-11.3507
妨難	-11.3507
方處	-11.3507
有九種	-11.3509
魔怨	-11.3514
即第四	-11.3516
萬類	-11.3516
之報	-11.3518
或俱	-11.3518
彼王	-11.3521
總為一	-11.3523
為生	-11.3523
涌	-11.3524
具多	-11.3525
從緣起	-11.3526
圓宗	-11.3528
給施	-11.3528
童真	-11.3529
不懈	-11.353
功用行	-11.3532
是經	-11.3532
法性土	-11.3533
牆	-11.3534
藏教	-11.3534
右手	-11.3534
寶色	-11.3534
勤行精進	-11.3536
第二對	-11.3536
經書	-11.3537
不由他教	-11.3538
無著行	-11.3541
佛神通	-11.3542
所迷	-11.3542
能造	-11.3544
生滅門	-11.3545
於虗空中	-11.3546
權小	-11.3546
無能測	-11.3547
俱融	-11.3547
雖通	-11.3547
蘊界處	-11.3548
無礙眼	-11.3549
經明	-11.355
盡理	-11.3551
鑑	-11.3551
光音天	-11.3552
生起因	-11.3552
日藏	-11.3552
利鈍	-11.3553
教誡	-11.3555
如是下結	-11.3556
料簡	-11.3557
明因果	-11.3557
垢淨	-11.356
速證	-11.3561
古佛	-11.3561
有所得	-11.3561
初正	-11.3562
初一句總	-11.3562
觸境	-11.3563
何言	-11.3567
先牒前	-11.357
約實	-11.3572
君子	-11.3572
五品	-11.3572
無數眾生	-11.3573
復次佛子	-11.3574
普觀十方	-11.3574
已還	-11.3575
顯性	-11.3576
准思	-11.3577
念法	-11.3577
便生	-11.3578
如金	-11.3578
習行	-11.3578
資財	-11.3582
願樂	-11.3586
受眾苦	-11.3594
悉平等	-11.3594
以之為	-11.3595
字是	-11.3595
佛興世	-11.3595
耳鼻	-11.3596
無厭倦	-11.3596
他化	-11.36
不犯	-11.36
先牒	-11.3603
其源	-11.3603
普見十方	-11.3612
就人	-11.3614
薩婆多	-11.3618
先際	-11.3619
自此	-11.362
修此	-11.3622
城邑聚落	-11.3625
大集	-11.3626
能令一切	-11.3627
綱	-11.3628
廣大智慧	-11.3628
無量壽	-11.3629
之聲	-11.3629
十因	-11.363
無慚	-11.3631
不動心	-11.3632
唯以	-11.3633
是世間	-11.3633
現作	-11.3633
入佛法	-11.3634
一真法界	-11.3635
象馬	-11.3637
作是思惟	-11.3639
對現色身	-11.364
師長	-11.3642
種種色相	-11.3642
說之為	-11.3644
礙故	-11.3644
一切三昧	-11.3645
中辨	-11.3645
所生故	-11.3645
身語意	-11.3646
修觀	-11.3647
。】「△	-11.3647
旦	-11.3648
乃至一切	-11.3648
承佛力	-11.3649
等者謂	-11.365
試	-11.3651
送	-11.3653
了達一切	-11.3654
解脫月菩薩言	-11.3654
囊	-11.3654
下疏	-11.3655
線	-11.3657
▁三合	-11.3657
妄分別	-11.3659
饒益行	-11.3659
因義	-11.3661
微塵中	-11.3662
千劫	-11.3668
牀	-11.367
今亦	-11.3671
初總顯	-11.3672
何義	-11.3673
如來往昔	-11.3673
正釋文	-11.3673
人心	-11.3677
方可	-11.3677
應作	-11.3678
四倒	-11.3678
智藏	-11.368
生成	-11.368
諸諦	-11.368
伽羅	-11.3682
泯二	-11.3684
十種智	-11.3684
釋迦牟尼佛	-11.3685
令使	-11.3688
多說	-11.3689
智印	-11.369
無彼	-11.3692
昔人	-11.3692
其諸	-11.3693
之實	-11.3694
我不	-11.3696
種種寶	-11.3699
等虛空	-11.3702
能含	-11.3703
正趣	-11.3704
悉無餘	-11.3707
諸佛智慧	-11.3708
時也	-11.3709
菩薩諸行	-11.371
請中	-11.371
顯於	-11.3715
善根力故	-11.3715
九頌	-11.3715
終無	-11.3717
領受	-11.3718
觀察十方而說頌言	-11.372
主水神	-11.3721
即經	-11.3722
入正受	-11.3724
不屬	-11.3727
化者	-11.3728
無斷絕	-11.3729
出現於世	-11.373
如意珠	-11.373
權教菩薩	-11.3732
通用	-11.3733
波羅蜜多	-11.3733
一定	-11.3733
量智	-11.3733
弟	-11.3734
為根本	-11.3735
佛功德海	-11.374
無益	-11.374
權實雙行	-11.3742
破彼	-11.3743
學無學	-11.3744
難也	-11.3746
製	-11.3747
須知	-11.3747
界內	-11.3748
同時具足	-11.3749
輔翼	-11.3749
不可說不可說世界	-11.3749
能覺	-11.375
雙運	-11.375
報應	-11.3752
見巳	-11.3753
藏三昧	-11.3754
淨相	-11.3754
丸	-11.3754
更無餘	-11.3755
勝力	-11.3756
曠劫	-11.3757
揀擇	-11.3759
無信	-11.3759
然今	-11.3761
佛塔	-11.3763
歿	-11.3763
問前	-11.3765
無礙慧	-11.3766
佛果位	-11.3766
菩薩乘	-11.3767
如風	-11.3767
金山	-11.3767
座體	-11.3768
復過	-11.3769
耳根	-11.377
初喻	-11.377
若未	-11.3772
揀於	-11.3772
求佛道	-11.3772
一億	-11.3774
無量色	-11.3774
嫉妬	-11.3774
旨趣	-11.3774
開解	-11.3775
現佛身	-11.3777
中各有	-11.3778
光明王	-11.3785
而無所著	-11.3786
依之	-11.3788
不一	-11.3789
作諸	-11.379
遞	-11.3791
富貴	-11.3792
初牒	-11.3793
▁二正明	-11.3793
助菩提	-11.3794
成唯識	-11.3794
彼天	-11.3796
神通智	-11.3796
雨寶	-11.3799
身光	-11.3803
由業	-11.3804
間錯	-11.3805
悉為	-11.3805
對於	-11.3805
而我云何能知能說彼功德行	-11.3806
普覆一切	-11.3806
二釋名者	-11.3813
大數	-11.3814
之罪	-11.3815
八正道	-11.3816
發心者	-11.382
十二支	-11.3823
一切色	-11.3824
成就清淨	-11.3826
信佛	-11.3827
法化	-11.3827
仗	-11.3828
皆說	-11.3829
輕慢	-11.383
嚩	-11.3833
壞苦	-11.3836
孤獨	-11.3836
念念相續	-11.3836
皆大歡喜	-11.3837
所有莊嚴	-11.3838
承佛威神	-11.3838
親友	-11.3838
行菩薩道	-11.3838
亦由	-11.384
諸色	-11.384
知一切世界	-11.3841
窺	-11.3843
孟	-11.3843
迦羅	-11.3844
現證	-11.3845
▁初顯	-11.3847
則見	-11.3848
照理	-11.3848
起大悲心	-11.3848
雖現	-11.3848
能以一	-11.3849
遠離諸	-11.3851
卷舒	-11.3851
圭山	-11.3852
一切法海	-11.3853
造立	-11.3853
爾時金剛藏菩薩	-11.3854
四乘	-11.3855
普雨一切	-11.3858
大神變	-11.3859
無邊色相	-11.386
俱來	-11.386
十種力	-11.3861
為母	-11.3867
平等性智	-11.3871
日天子	-11.3873
菩提身	-11.3875
如出現品	-11.3876
長行中	-11.3876
法身智身	-11.3877
判為	-11.3878
若別	-11.3879
如大海	-11.3881
未入	-11.3882
見理	-11.3886
十行頌	-11.3887
栴檀香	-11.3887
先正釋	-11.3887
不妄	-11.3889
而轉法輪	-11.3892
爾許	-11.3892
不相似	-11.3896
引彼	-11.3896
異釋	-11.3902
佛自說	-11.3903
求佛智	-11.3903
大乘法	-11.3903
圓備	-11.3905
其諸菩薩	-11.3906
一切障	-11.3907
義成	-11.3908
㝵	-11.3908
之所以	-11.391
而與	-11.391
寂靜音	-11.3911
復何	-11.3911
拜	-11.3912
中有五	-11.3913
坑	-11.3914
應如是	-11.3917
阿僧祗	-11.3922
波羅蜜海	-11.3923
能問	-11.3924
泰	-11.3928
除一切	-11.3929
劍	-11.3929
悞	-11.3929
得見佛	-11.393
大圓鏡智	-11.393
鞞	-11.3931
省	-11.3931
亦有二義	-11.3931
阿那含	-11.3932
傳云	-11.3932
之義也	-11.3934
超情	-11.3934
住佛所住	-11.3935
離我	-11.3935
▁四所為	-11.3937
若從	-11.3938
次有香水海	-11.3939
之士	-11.394
不共佛法	-11.3943
撮	-11.3945
死後	-11.3946
不增	-11.3948
不現前	-11.3948
互奪	-11.3948
能求	-11.3951
總在	-11.3957
為利眾生	-11.3959
毘盧遮那如來	-11.396
福業	-11.3961
愚夫	-11.3961
賢勝	-11.3963
一一皆有	-11.3964
分別俱生	-11.3966
無上大	-11.3967
以為供養	-11.3969
不易	-11.3972
意欲	-11.3972
普示	-11.3973
壞相	-11.3974
或依	-11.3974
得十地	-11.3976
得其	-11.3977
所示現	-11.3978
空門	-11.3979
以普賢	-11.3979
川	-11.3981
舒光	-11.3981
尊敬	-11.3984
種種不同	-11.3984
衣食	-11.3987
先牒前起後	-11.3988
不捨菩薩	-11.3989
略列	-11.3992
稱量	-11.3994
東西	-11.3994
心佛	-11.3995
見佛身	-11.3997
普眼菩薩	-11.3998
此就	-11.4
攝德	-11.4003
佛母	-11.4004
爾時文殊師利菩薩	-11.4004
作利益	-11.4005
善能分別	-11.4006
天龍	-11.4007
或因	-11.4008
現有	-11.4008
終成	-11.401
不害	-11.401
善根廻向亦復如是	-11.4011
永出	-11.4015
寶雲	-11.4016
苦海	-11.4016
可化眾生	-11.4017
無功用行	-11.4018
大緣起	-11.4018
更互	-11.4022
大樹	-11.4023
是為第十	-11.4026
妙峯山	-11.4027
得失	-11.4027
出過諸天	-11.4029
眾生心行	-11.403
配之	-11.4032
丘	-11.4033
種諸善根	-11.4033
開章	-11.4034
李	-11.4034
有愛	-11.4035
所有微塵	-11.4036
福德藏	-11.4036
射	-11.4037
廣如經說	-11.4037
善法行	-11.4038
役	-11.4038
伺	-11.4038
欲入	-11.4038
貫穿	-11.4039
釋言	-11.4039
相在	-11.4041
大乘者	-11.4041
彼福德	-11.4041
如瑜伽	-11.4042
漫	-11.4042
器中	-11.4042
依定	-11.4043
目之為	-11.4045
即應	-11.4045
燈明	-11.4047
無差別故	-11.4048
入深	-11.4048
自明	-11.4049
妙吉祥	-11.405
通收	-11.405
菩薩所修	-11.4051
所作事	-11.4051
無底	-11.4051
十力智	-11.4051
小大	-11.4052
糞	-11.4054
周易	-11.4054
善現行	-11.4055
觀世間	-11.4055
問意	-11.4056
結文	-11.4057
勸發	-11.4058
一切智人	-11.4058
青黃	-11.4062
云何知	-11.4063
難度	-11.4064
不肯	-11.4064
二論	-11.4068
念善知識	-11.4068
雙亡	-11.4068
福慧	-11.4068
心無所	-11.407
瓦	-11.407
捨念	-11.4072
一教	-11.4074
自在者	-11.4077
染心	-11.4077
餘十	-11.4079
疏鈔	-11.4082
宇	-11.4084
三僧祇	-11.4084
覺支	-11.4085
無真實	-11.4087
職	-11.409
他作	-11.4091
明善財	-11.4093
人皆	-11.4093
中攝	-11.4093
諸天眾	-11.4097
於中初一	-11.4098
譯者	-11.41
喻云	-11.4101
遍覆	-11.4102
於阿耨多羅三藐三菩提得不退轉	-11.4102
我知	-11.4102
約其	-11.4103
依主釋	-11.4105
猶若	-11.4107
大誓願	-11.4108
園苑	-11.4109
巨	-11.4112
十地十一地	-11.4112
無能所	-11.4112
用大	-11.4112
自受用	-11.4114
結加趺坐	-11.4114
無忘失	-11.4115
吾我	-11.4116
等者等取	-11.4117
演出	-11.4117
無有能	-11.4118
得意	-11.4118
唯此	-11.4118
如經自具	-11.4121
捺	-11.4121
生心	-11.4122
上所引	-11.4122
頸	-11.4123
雜穢	-11.4123
教主	-11.4123
正入	-11.4124
分別演說	-11.4125
嬰	-11.4126
俱成	-11.4126
世界成壞	-11.4127
縷	-11.4127
堅實	-11.4129
其聲	-11.4129
範	-11.4129
佛意	-11.4129
喜目	-11.4132
樂法	-11.4132
大智光明	-11.4132
大光王	-11.4133
是為第六	-11.4134
以三昧力	-11.4135
無體故	-11.4135
有盡	-11.4137
頌歎	-11.4139
第一會	-11.414
假實	-11.4141
非道	-11.4142
異熟果	-11.4142
菩薩住此地	-11.4143
無倒	-11.4143
四住	-11.4144
使得	-11.4144
有劫名	-11.4145
菴	-11.4145
相好莊嚴	-11.4146
等虗空	-11.4146
無疑惑	-11.4149
悉共	-11.415
動念	-11.415
至果	-11.415
此岸	-11.4152
奉施	-11.4152
切音	-11.4153
五蓋	-11.4153
多法	-11.4155
三乘等	-11.4157
支節	-11.4157
現在諸佛	-11.4158
具上	-11.4158
涅槃經云	-11.416
直顯	-11.4161
無等等	-11.4162
對辨	-11.4163
攝報果	-11.4165
會者	-11.4165
無盡無盡	-11.4166
平等智	-11.4167
餘別	-11.4167
相與	-11.4168
有三偈	-11.4168
涅槃界	-11.4169
寶所成	-11.4169
妙嚴	-11.4172
為汝	-11.4177
雖能	-11.4178
聲聞眾	-11.4178
寶香	-11.4178
道樹	-11.4179
金剛寶	-11.4182
容受	-11.4185
淨身	-11.4185
遊戲神通	-11.4188
法報	-11.4189
於中初二	-11.4191
普放	-11.4191
住壽	-11.4191
用心	-11.4191
所從	-11.4191
易知	-11.4192
具顯	-11.4194
當知此	-11.4196
證法界	-11.4197
十二種	-11.4198
出世法	-11.4198
何等為四	-11.4199
慇懃瞻仰	-11.4199
臆	-11.42
正修	-11.4201
昔有	-11.4201
無住涅槃	-11.4203
感動	-11.4205
十數	-11.4207
發明	-11.4209
文顯	-11.4211
真見道	-11.4211
皆在	-11.4212
我得菩薩解脫	-11.4213
無能壞者	-11.4214
明了法	-11.4216
永不退轉	-11.4217
汝等應	-11.4217
而說頌曰	-11.4217
或現不可說佛剎微塵數	-11.4218
貪恚癡	-11.4218
洽	-11.4218
無癡	-11.4219
身淨	-11.422
飢渴	-11.422
有十門	-11.4221
剛	-11.4223
荷負	-11.4224
餘五	-11.4225
有十義	-11.4226
妄執	-11.4228
維摩經	-11.4228
三乘一乘	-11.4229
匿	-11.423
是理	-11.423
諸難	-11.423
發露懺悔	-11.4231
未嘗	-11.4232
日出	-11.4233
脩多羅	-11.4234
令除	-11.4234
弓	-11.4237
都結	-11.4237
變為	-11.4239
普施	-11.424
淫	-11.4241
荷	-11.4241
皆已	-11.4244
十方各過	-11.4245
罔	-11.4245
安得	-11.4247
軀	-11.4249
亦曰	-11.4249
文有五	-11.425
矯	-11.425
老子	-11.4251
說不可盡	-11.4253
佛會	-11.4256
思擇	-11.4257
致敬	-11.4258
巳入	-11.4258
明從	-11.4259
後約	-11.4261
轉生	-11.4261
刊定記	-11.4262
巧說	-11.4263
千年	-11.4265
聞名	-11.4266
依善知識	-11.4267
我昔	-11.4267
乃成	-11.4267
身行	-11.4268
不可說百千億那由他	-11.4269
廣大行	-11.4271
有難云	-11.4271
於往昔	-11.4273
疲倦	-11.4274
不計	-11.4274
諦理	-11.4274
法印	-11.4274
皆悉具足	-11.4275
一切大願	-11.4275
法流	-11.4275
此經中	-11.4276
▁初見	-11.4276
歎勝	-11.4277
若將	-11.4281
互望	-11.4282
中道義	-11.4283
當於	-11.4284
題中	-11.4284
滿足故	-11.4288
無礙辯	-11.4289
令增長	-11.4292
或聞	-11.4292
正使	-11.4293
以事	-11.4293
功勳	-11.4293
明之	-11.4294
意菩薩	-11.4296
到於	-11.4296
巍巍	-11.4297
淨者	-11.4298
無住處	-11.4298
字母	-11.43
餘教	-11.43
非直	-11.4301
一切凡夫	-11.4302
若說	-11.4303
如幻化	-11.4305
深智	-11.4306
前後圍遶	-11.4307
六段	-11.4309
形體	-11.4309
一切神通	-11.4309
離間	-11.431
此總持者	-11.4312
無有間斷	-11.4312
未說	-11.4312
與其眷屬	-11.4312
慈行童女	-11.4315
網羅覆其上	-11.4316
不達	-11.4317
渴愛	-11.4319
非世間	-11.4319
噐	-11.432
凡是	-11.4323
受想	-11.4324
諸佛海	-11.4325
約三乘	-11.4325
甞	-11.4326
夭	-11.4327
應名	-11.4328
該通	-11.4329
下列	-11.4329
駕	-11.433
世界海中	-11.433
制伏	-11.4331
不名為	-11.4331
曩	-11.4331
嘉	-11.4331
所疑	-11.4332
精氣	-11.4332
真佛	-11.4333
憎愛	-11.4334
體事	-11.4335
上三義	-11.4335
識等	-11.4336
入一切佛	-11.4336
低	-11.4336
不可破壞	-11.4337
無我故	-11.4337
得度	-11.4337
盡虗空界	-11.4341
毗尼	-11.4341
文顯可知	-11.4341
寬狹	-11.4341
十方諸國土	-11.4344
雨法雨	-11.4344
目連	-11.4344
得彼	-11.4345
坐於	-11.4346
通攝	-11.4348
不成故	-11.4348
十解	-11.4349
佛語	-11.4349
十善業道	-11.4349
知一切眾生心	-11.435
而興	-11.435
不生故	-11.4352
即真如	-11.4354
遍應	-11.4355
深厚	-11.4358
善了	-11.4358
真如門	-11.436
諸境	-11.4361
三世所有	-11.4362
敗壞	-11.4364
立義	-11.4365
蓮華光	-11.4366
色蘊	-11.4367
善根亦爾	-11.4367
常聞	-11.4368
瞿	-11.4368
龍神	-11.437
▁初依教趣求	-11.4371
於一切世間	-11.4371
說名為	-11.4374
五見	-11.4374
皆可	-11.4375
不覩	-11.4377
初分	-11.4379
俱行	-11.438
即合	-11.4382
慈悲心	-11.4383
總科	-11.4383
善知識所	-11.4383
金剛山	-11.4388
因相	-11.4391
平等迴向	-11.4393
華藏世界海	-11.4395
等佛	-11.4397
若順	-11.4397
之光	-11.4403
所釋	-11.4403
即唯識	-11.4404
揀定	-11.4404
示相	-11.4405
釋名分	-11.4405
上聲	-11.4406
諭	-11.4407
不唐捐	-11.4408
無中邊	-11.4409
五十二	-11.441
後地	-11.4411
我唯得此	-11.4413
重請	-11.4414
於諸境界	-11.4414
種種妙	-11.4414
無有退轉	-11.4414
先解	-11.4415
大乘經	-11.4415
如實覺	-11.4416
修惑	-11.4417
眾聖	-11.4417
本尊毗盧遮那佛	-11.4419
亦成	-11.4419
不可分	-11.4421
先世	-11.4424
鬪	-11.4425
念知	-11.4426
不乖	-11.4426
摩醯首羅	-11.4428
已知	-11.4428
遷流	-11.4429
是為第九	-11.443
佛所說法	-11.443
佗	-11.4431
奢	-11.4432
癡惑	-11.4433
即體之用	-11.4433
不動故	-11.4434
方見	-11.4434
繼	-11.4434
第四會	-11.4435
無亂	-11.4436
之經	-11.4436
諸惡業	-11.4437
無量清淨	-11.4438
之形	-11.4438
恒沙性德	-11.4438
明信	-11.4438
)。▲	-11.444
毀犯	-11.4445
終無有	-11.4449
火聚	-11.4451
所益	-11.4451
所愛	-11.4451
見自身	-11.4453
願他	-11.4454
三辨	-11.4454
枝葉	-11.4456
器盛	-11.4456
性宗	-11.4457
齊限	-11.4458
等虛空界	-11.4458
德雲	-11.4458
智燈	-11.446
今得	-11.4462
不遠	-11.4465
口加	-11.4466
共為	-11.447
前中四	-11.447
共同	-11.4472
無戲論	-11.4474
深密經	-11.4475
大法雨	-11.4476
以定	-11.4482
眾僧	-11.4483
苦滅	-11.4483
帝青	-11.4483
五逆	-11.4484
道場一切海眾	-11.4486
無對	-11.4488
以喻顯	-11.4489
眾生想	-11.4491
能加	-11.4491
所了	-11.4491
則可	-11.4492
必依	-11.4492
毛孔出	-11.4492
是凡夫	-11.4497
他化天	-11.4498
高山	-11.4498
智大	-11.4499
以經	-11.4501
不可盡故	-11.4503
普賢願	-11.4504
空不空	-11.4505
則同	-11.4508
何由	-11.4508
樂說無礙智	-11.4513
白毫	-11.4514
剎等	-11.452
不捨一切眾生	-11.4521
言論	-11.4521
發於	-11.4523
生淨土	-11.4523
所悟	-11.4525
猶豫	-11.4525
於此南方	-11.4525
歇	-11.4525
一切智性	-11.4526
以法性	-11.4526
隨緣成	-11.4527
天宮殿	-11.4527
是故名為	-11.4528
並通	-11.4531
依人	-11.4531
不可知	-11.4531
外事	-11.4533
詔	-11.4534
髓	-11.4534
匠	-11.4535
有二偈	-11.4535
光明徧照	-11.4536
之子	-11.4537
是為第八	-11.4538
常勤修習	-11.4539
體大	-11.4539
紅	-11.4539
槃	-11.454
未甞	-11.4541
魔事	-11.4541
生信解	-11.4542
淨月	-11.4543
圓極	-11.4543
彼時	-11.4543
樂受	-11.4544
已後	-11.4544
蜂	-11.4546
階降	-11.4546
為無為	-11.4546
發光	-11.4547
元氣	-11.4549
所解	-11.455
無所入	-11.455
陀那	-11.455
釋者	-11.4551
如意寶	-11.4551
恒河沙等	-11.4554
灾	-11.4555
安布	-11.4555
絕待	-11.4559
寶鈴	-11.456
如燈	-11.4561
剛藏	-11.4565
平等無二	-11.4565
答上	-11.4567
義別	-11.4569
如說行	-11.4572
約喻	-11.4577
皆如是	-11.4579
通云	-11.4582
諸法空	-11.4583
本文	-11.4584
可貴	-11.4585
常觀	-11.4585
同修	-11.4585
無有我	-11.4586
管	-11.4587
善男子譬如	-11.459
諸子	-11.4591
虛空等	-11.4593
終始	-11.4595
因緣者	-11.4596
故結云	-11.4596
善光	-11.4596
重頌分	-11.4599
淨德	-11.4599
約一乘	-11.4601
共相應	-11.4603
法師位	-11.4605
真正	-11.4607
說法故	-11.4607
無分齊	-11.4608
是為第一	-11.4608
=	-11.461
)。】	-11.4612
涉有	-11.4617
如空中	-11.4617
多是	-11.4619
巳知	-11.4619
堪為	-11.4619
恭敬禮拜	-11.4619
映奪	-11.462
不釋	-11.4623
出生智慧	-11.4624
嶮	-11.4624
宣暢	-11.4625
迫	-11.4625
無復	-11.4629
成敗	-11.463
處在	-11.4631
十中初	-11.4632
景	-11.4633
解知	-11.4634
惡見	-11.4634
阿閦	-11.464
亦同此	-11.4642
常放	-11.4642
醍醐	-11.4643
業自在	-11.4643
悕	-11.4644
餘六	-11.4646
袈裟	-11.4647
一百四十	-11.4648
第五會	-11.4648
成就佛法	-11.465
覺性	-11.4651
本無今有	-11.4651
是為第五	-11.4652
兼於	-11.4656
來求	-11.4657
有幾	-11.466
德雲比丘	-11.466
怯	-11.4662
定起	-11.4662
諸餘	-11.4663
正立	-11.4663
依經	-11.4663
今世	-11.4664
何時	-11.4665
語言法	-11.4666
無倦	-11.4667
一切大眾	-11.4667
迷理	-11.4668
觀世音	-11.4669
有三重	-11.4669
今從	-11.467
若法	-11.4671
遮救	-11.4672
正示	-11.4673
不自生	-11.4673
能同	-11.4677
一切眾生心行	-11.4677
初結前	-11.4678
天魔	-11.4679
貪心	-11.468
第三重	-11.468
如來自在力	-11.468
度脫一切眾生	-11.4681
日光明	-11.4683
如下說	-11.4685
能徧	-11.4685
一切即一	-11.4685
證涅槃	-11.4687
四無所畏	-11.4688
序云	-11.4688
形類	-11.4689
一行經	-11.4692
聞正法	-11.4692
散動	-11.4693
遍知	-11.4693
以嚴	-11.4693
身長	-11.4694
我常	-11.4695
分為十	-11.4696
或有世界	-11.4696
諸佛神力	-11.4696
難可得	-11.4697
當會	-11.4697
施物	-11.4697
窮其	-11.4697
以一音	-11.4698
我從	-11.4698
依止厭	-11.4698
五類	-11.4701
重罪	-11.4701
遞相	-11.4701
教章	-11.4701
悉圓滿	-11.4704
為一切眾生作	-11.4704
前釋	-11.4704
新舊	-11.4708
觸受	-11.471
以諸善根	-11.4712
來至此	-11.4713
經宗	-11.4715
空性	-11.4715
標中	-11.4715
現果	-11.4715
約因	-11.4721
後答	-11.4722
次別	-11.4724
此解	-11.4724
合有	-11.4727
昭	-11.4728
所列	-11.4729
此女	-11.4729
清涼山大華嚴寺沙門澄觀	-11.4729
覺慧	-11.473
能過	-11.473
攝彼	-11.473
所轉	-11.4731
科判	-11.4733
可爾	-11.4735
演說法	-11.4735
所演	-11.4735
菩薩住處	-11.4736
之器	-11.4737
能聞	-11.4737
覺樹	-11.4738
放眉間光	-11.4738
慧日	-11.4738
於意云何	-11.4739
雙標	-11.4739
常懷	-11.474
勝能	-11.4743
常現在前	-11.4743
史	-11.4744
世主妙嚴品	-11.4744
智勝	-11.4744
迭	-11.4746
苦因	-11.4747
羯	-11.4748
占	-11.4748
五分法身	-11.4749
無始無終	-11.4749
只為	-11.4751
智微細	-11.4752
忠	-11.4752
循	-11.4753
三種世間	-11.4754
躍	-11.4755
光照十方	-11.4755
普賢文殊	-11.4756
統收	-11.4761
盡未來	-11.4764
則具	-11.4764
一乘中	-11.4767
種種神通	-11.4767
得有	-11.4768
香𦦨	-11.4768
廣大願	-11.4768
於外	-11.4768
惑亂	-11.4769
無求	-11.4769
所生處	-11.4772
成信	-11.4772
有如是等	-11.4772
但從	-11.4772
讚言	-11.4772
是為第四	-11.4773
色無色界	-11.4773
翻譯	-11.4773
菩薩神通	-11.4775
相似故	-11.4776
一門中	-11.4776
興供養	-11.4777
無罪	-11.4781
俱通	-11.4783
一剎那際	-11.4786
見普賢菩薩	-11.4787
聲聞法	-11.4787
聖言	-11.4789
初會中	-11.4794
而示	-11.4795
內淨	-11.4796
離世	-11.4797
我於彼	-11.4798
心變	-11.4799
如是智慧	-11.4799
初列	-11.48
能滿	-11.48
初句為總	-11.4801
南行	-11.4802
一行半經	-11.4802
一多無礙	-11.4803
上文云	-11.4804
說種種法	-11.4805
極清淨	-11.4807
是為十若諸菩薩安住此法則得	-11.4807
一切諸菩薩	-11.4808
表行	-11.4811
未顯	-11.4812
準思	-11.4813
所嚴	-11.4814
所得法	-11.4814
一一微塵中	-11.4815
以根本智	-11.4817
不顯	-11.4818
各各不同	-11.482
初七	-11.4822
諸處	-11.4827
其城	-11.4827
無盡法	-11.4828
菩薩摩訶薩應如是知	-11.483
諸吉祥中最無上	-11.483
無有斷絕	-11.4831
竝是	-11.4831
菩薩云何學菩薩行	-11.4831
現影	-11.4832
親光	-11.4832
攝餘	-11.4834
心品	-11.4836
隅	-11.4837
妙高	-11.4837
稱曰	-11.4837
苦苦	-11.4837
能出生	-11.4838
理觀	-11.4838
同是	-11.4839
得此法門	-11.4841
十信心	-11.4842
佛子諸佛世尊有十種	-11.4842
明矣	-11.4844
後當	-11.4846
天衣	-11.4846
所迴善根	-11.4846
▁二見敬諮問	-11.4848
義釋	-11.4849
不泯	-11.485
亦無盡	-11.4852
智慧燈	-11.4855
能施	-11.4856
八方	-11.4856
能益	-11.4857
躭	-11.4858
黑暗	-11.4858
八地巳上	-11.4858
刑	-11.4858
是體	-11.4859
之見	-11.4859
常等	-11.486
皎	-11.486
光明遍照	-11.4861
今將	-11.4861
乃見	-11.4862
團	-11.4863
或號	-11.4863
究竟如虛空	-11.4864
阿彌陀佛	-11.4864
總持門	-11.4864
空定	-11.4864
障盡	-11.4865
日照	-11.4869
成就無量	-11.487
隨順眾生	-11.4872
而起大悲	-11.4872
故今答云	-11.4873
預流	-11.4874
其首	-11.4877
業因	-11.4878
為三乘	-11.4879
不疑	-11.4882
無數香	-11.4883
妙用自在	-11.4883
六十二見	-11.4884
悉周徧	-11.4884
受其	-11.4887
十方剎	-11.4887
即法身	-11.4888
垢穢	-11.4888
不壞迴向	-11.4889
深也	-11.489
所行無礙	-11.4891
彼諸佛	-11.4892
是菩提	-11.4893
願身	-11.4895
之失	-11.4897
多時	-11.4898
初段	-11.49
遍在	-11.4902
波羅蜜行	-11.4903
持法	-11.4904
執為	-11.4905
汙	-11.4907
手執	-11.4907
可畏	-11.4907
一切世間境界	-11.4907
無邊功德	-11.4908
無用	-11.4908
是為第三	-11.4909
禪體	-11.491
二所謂下	-11.4912
四十四	-11.4917
最勝法	-11.4918
帖前	-11.4921
然論	-11.4922
百千萬億那由他	-11.4924
門外	-11.4926
從事	-11.4927
如文可知	-11.4927
問其	-11.4927
歎其	-11.4927
出一切佛剎微塵數	-11.4928
實理	-11.4929
空無我	-11.4929
四句者	-11.4929
無礙法界	-11.493
不造	-11.493
而其	-11.4932
諸佛法如是	-11.4933
硨磲	-11.4941
有四十	-11.4941
不離本	-11.4941
是為第二	-11.4943
香王	-11.4944
之難	-11.4944
頂禮佛足	-11.4945
離性	-11.4948
灑	-11.4948
有多義	-11.4949
▁初辨	-11.4949
紺青	-11.4949
覆藏	-11.495
既以	-11.4951
隆	-11.4951
跋	-11.4953
無滯	-11.4954
隨文解釋	-11.4956
嗟	-11.4957
罪報	-11.4957
以神通力	-11.4958
皆共	-11.4959
惡道苦	-11.496
是為第七	-11.4961
譏	-11.4961
蹔	-11.4961
擔	-11.4962
妙色身	-11.4963
以此為	-11.4963
盡法界虗空界	-11.4964
亦空	-11.4964
於生死中	-11.4966
即屬	-11.4967
佛法故	-11.4968
鐵圍山	-11.4968
泛	-11.4969
)「	-11.497
化處	-11.497
二萬一千	-11.4972
一切佛事	-11.4973
觀自在	-11.4973
無惡	-11.4978
不即不離	-11.4978
五十四	-11.4979
無明闇	-11.498
圓寂	-11.4983
純陀	-11.4986
三根	-11.4987
拔出	-11.499
雜色	-11.4991
後善男子	-11.4991
通喻	-11.4991
第三門	-11.4992
伽陀	-11.4992
善淨	-11.4992
之源	-11.4999
十二分	-11.4999
此菩	-11.5
功成	-11.5002
身遍	-11.5004
超絕	-11.5004
輪圍	-11.5007
如法華經	-11.5008
一切眾生海	-11.5012
甚深三昧	-11.5013
妙衣	-11.5014
題目	-11.5014
出世間智	-11.5015
雙絕	-11.5015
第二重	-11.5016
經初	-11.5018
愛等	-11.5018
所成德	-11.5019
佛性論	-11.5021
約終教	-11.5021
如須彌	-11.5022
不退住	-11.5022
還歸	-11.5023
塵塵	-11.5024
▁初結前生後	-11.5024
乃至第十	-11.5025
小劫	-11.5027
因緣集	-11.5028
眾像	-11.5029
一切所作	-11.5029
充滿一切法界	-11.5029
汝應觀	-11.503
!」	-11.5033
【【	-11.5035
契真	-11.5036
莊嚴世界	-11.5037
章云	-11.5037
即寂	-11.5037
若諸菩薩安住其中	-11.5042
選擇	-11.5043
未足	-11.5045
大體	-11.5046
令觀	-11.5046
緣成故	-11.5046
雖然	-11.5047
十二年	-11.5048
相稱	-11.505
於中三初	-11.5052
正命	-11.5052
但用	-11.5053
長科為	-11.5054
▁二頌	-11.5054
因善知識	-11.5055
辭退	-11.5055
諸聖	-11.5058
德備	-11.506
亦令他	-11.506
三乘同	-11.5061
無瞋	-11.5061
先說	-11.5061
政	-11.5063
五事	-11.5063
自高	-11.5063
一切諸佛所	-11.5064
護持正法	-11.5065
淨修梵行	-11.5066
普入法界	-11.5067
有兩行半經	-11.5068
諸障	-11.5069
擾	-11.5069
如來家	-11.507
毀謗	-11.507
現神變	-11.507
堅住	-11.507
法界虛空界	-11.5072
四緣	-11.5074
寄同	-11.5074
略為	-11.5074
四眾	-11.5076
天帝	-11.5076
周遍法界	-11.5076
今時	-11.5077
煥	-11.5077
無盡法門	-11.5078
爭	-11.508
善安住	-11.508
𦦨雲	-11.508
王城	-11.5081
賣	-11.5082
如王	-11.5083
怨親	-11.5083
種植	-11.5083
安坐	-11.5083
閻羅王	-11.5084
財法	-11.5084
互為主伴	-11.5085
大文第三	-11.5089
眾香	-11.5092
三世智	-11.5094
善男子我唯知此	-11.5094
三途	-11.5097
先別明	-11.51
無熱	-11.51
十方菩薩	-11.5102
其處	-11.5102
未斷	-11.5103
幾時	-11.5103
非別	-11.5103
除諸	-11.5103
靈山	-11.5104
遍往	-11.5104
今是	-11.5108
知恩	-11.5112
無疲厭心	-11.5113
高大	-11.5113
第三云	-11.5113
五眼	-11.5117
歎眾	-11.5118
後段	-11.5118
而不失	-11.5119
念智	-11.512
發心住	-11.512
親屬	-11.512
▁初別明	-11.5121
欲說	-11.5122
造惡	-11.5122
染汙	-11.5123
耳識	-11.5124
列十	-11.5128
悉充滿	-11.513
【△	-11.5131
非世	-11.5131
所知境	-11.5132
一切眾會	-11.5132
故生歡喜	-11.5133
存泯	-11.5135
即空故	-11.5137
除障	-11.5137
無懈	-11.5142
與識	-11.5142
七門	-11.5143
有頂	-11.5144
道地	-11.5145
知眾生心	-11.5147
無量佛剎	-11.5153
廣大清淨	-11.5153
因果俱	-11.5153
一切物	-11.5154
有二十句	-11.5154
八禪	-11.5156
若作	-11.5157
來至我所	-11.5157
遙見	-11.5158
捨諸	-11.5158
假使有人	-11.5158
豈能	-11.5159
妙寶莊嚴	-11.5159
縱廣	-11.5159
長養一切	-11.5161
總無	-11.5162
行七步	-11.5163
第二義	-11.5163
文有十	-11.5164
無來無去	-11.5165
怡	-11.5165
不同也	-11.5165
戒行	-11.5165
於中五	-11.5167
捐	-11.5168
能觀察	-11.517
答若	-11.517
空華	-11.517
血肉	-11.517
是為如來	-11.5174
楞嚴	-11.5174
欲聞	-11.5174
僕	-11.5175
別開	-11.5177
激	-11.5177
翼	-11.5177
初來意者	-11.5178
令得解脫	-11.5179
不往	-11.518
不安	-11.518
善攝	-11.5181
一文	-11.5183
譯為	-11.5183
具一切智	-11.5184
楞伽經	-11.5186
其國	-11.5188
根未熟	-11.5189
不開	-11.519
七八九	-11.5191
幻法	-11.5194
受戒	-11.5195
六字	-11.5197
▁二正釋	-11.5199
十層	-11.52
普見一切	-11.52
風吹	-11.52
亦隨	-11.5201
之辭	-11.5201
菩薩摩訶薩又作是念	-11.5201
於一微塵中	-11.5205
釋梵	-11.5209
佛剎微塵等	-11.521
不測	-11.521
深解	-11.521
教網	-11.5215
巳具	-11.5216
於一切剎	-11.5218
之一字	-11.5218
別句	-11.5219
解脫力	-11.5221
不惱	-11.5222
所成行	-11.5223
復作	-11.5223
無功智	-11.5224
不斷佛種	-11.5227
三生	-11.5229
偈說	-11.5229
行六波羅蜜	-11.5235
已具	-11.5235
以一切智	-11.5236
熏修	-11.5237
近善知識	-11.5238
常光	-11.5241
皆幻住	-11.5242
十方眾生	-11.5242
心不亂	-11.5245
如因陀羅網	-11.5245
合說	-11.5245
解脫法門	-11.5247
報果	-11.5248
肢節	-11.5251
清淨光	-11.5251
正同	-11.5254
之法門	-11.5254
境界云何	-11.5256
情識	-11.5256
故彼經云	-11.5258
此語	-11.5259
名句文	-11.5259
證教	-11.526
四結數	-11.5261
干	-11.5262
寂滅法	-11.5262
曼殊尸利	-11.5264
至彼	-11.5265
鐸	-11.5266
不活	-11.5266
是名菩薩	-11.5266
而此	-11.5271
證實	-11.5271
巧便	-11.5272
信自心	-11.5272
徃詣	-11.5273
十地經	-11.5277
甚可愛樂	-11.5278
奉事	-11.5279
調柔果	-11.5279
二利行	-11.5281
無苦	-11.5281
阿蘭若	-11.5281
釋文中	-11.5283
羅網	-11.5283
二佛子下	-11.5283
惡眾生	-11.5283
是處	-11.5285
莫能測	-11.5285
擇滅	-11.5286
盖	-11.5286
諸含識	-11.5286
昔因	-11.5286
結彈	-11.5287
一釋品名目	-11.5288
二釋品來意	-11.5288
受持讀誦	-11.5289
恥	-11.529
令成熟	-11.529
有五十	-11.5293
傾動	-11.5293
為師	-11.5295
席	-11.5295
供給	-11.5297
辰	-11.5298
即其義也	-11.5298
二別釋	-11.5298
斯義	-11.5299
菩薩成就如是	-11.53
悉以迴向	-11.53
眾會說法	-11.53
冲	-11.5301
相續次第	-11.5301
客塵	-11.5302
塵毛	-11.5304
或言	-11.5306
還生	-11.5306
如火	-11.5306
差別門	-11.5308
消除	-11.5314
初成正覺	-11.532
報業	-11.5321
各見	-11.5321
勸說	-11.5323
置於	-11.5323
之頂	-11.5325
不定性	-11.5326
間斷	-11.5326
重疊	-11.5326
攝報	-11.5326
四品	-11.5327
根深	-11.5327
所化眾生	-11.5327
佛寶	-11.5329
教他	-11.5329
正云	-11.5333
一代	-11.5335
規	-11.5337
斯由	-11.5339
毗盧遮那佛	-11.5339
相傳	-11.5343
漏無漏	-11.5347
實色	-11.5347
如影像	-11.5349
愛取有	-11.5351
釋相中	-11.5353
說法時	-11.5357
次八	-11.5359
善觀	-11.5365
往復	-11.5365
晉本	-11.5368
入巳	-11.5369
之中有	-11.5369
曾無	-11.5369
▁初頌	-11.5371
圓光	-11.5372
▁南無大方廣佛華嚴經	-11.5373
名普照	-11.5375
歡悅	-11.5375
合釋	-11.5376
微妙音聲	-11.5377
小千	-11.5378
句句	-11.5382
而說偈言	-11.5382
丈	-11.5383
應修	-11.5383
不懼	-11.5384
相好莊嚴身	-11.5385
自然智	-11.5386
不用	-11.5388
諸惡道	-11.5391
又經云	-11.5391
撫	-11.5392
百福	-11.5395
次一偈	-11.5397
或稱	-11.54
海雲比丘	-11.54
敬心	-11.5401
即般若	-11.5402
正釋經文	-11.5402
疲懈	-11.5403
句數	-11.5404
怯弱	-11.5404
於何	-11.5404
志性	-11.5406
寶積	-11.5408
推功	-11.5408
虧	-11.5409
並顯可知	-11.541
谷響	-11.541
翻前	-11.541
鬘雲	-11.5411
摩那	-11.5415
涕	-11.5416
寂然不動	-11.5416
大水	-11.5416
損惱	-11.5418
見諸如來	-11.5421
有五行半經	-11.5421
甚深廣大	-11.5421
掩	-11.5422
普於一切	-11.5423
無明滅	-11.5423
及三乘	-11.5424
雙遮	-11.5427
外別有	-11.5427
定門	-11.5429
四無量心	-11.5429
無定性	-11.5429
此比丘尼為說法門名	-11.5431
能摧	-11.5433
今乃	-11.5433
者是其	-11.5435
淨法身	-11.5436
古釋	-11.5436
無量法門	-11.5437
四魔	-11.5439
少欲	-11.5439
違理	-11.5439
法界海	-11.544
忍可	-11.5441
慈念	-11.5442
無悔	-11.5444
如淨名	-11.5445
二聖	-11.5446
能出	-11.5448
諸禪定	-11.5448
惱亂	-11.5448
不等	-11.5448
無分量	-11.5448
一切諸天	-11.545
天主	-11.5452
所辨	-11.5453
文雖	-11.5458
普淨	-11.5459
深行	-11.546
種種光明	-11.5461
皆稱	-11.5462
令我得	-11.5462
只是	-11.5467
嚴淨佛剎	-11.5467
於東方	-11.5468
作如是說	-11.5469
因何	-11.5471
功行	-11.5474
佛光	-11.5475
可盡	-11.5475
求正法	-11.5478
餘法	-11.5479
惡知識	-11.5485
純一清淨	-11.5485
佛種不斷	-11.5485
碼碯	-11.5488
一曰	-11.5491
外相	-11.5491
眼耳	-11.5493
皆不可得	-11.5494
第三段	-11.5495
例此	-11.5496
散壞	-11.5499
謹	-11.55
可謂	-11.5501
尸波羅蜜	-11.5501
德圓	-11.5502
在虛空	-11.5502
稱根	-11.5502
▁五指示後友	-11.5503
豪	-11.5504
有八種	-11.5504
崖	-11.5504
處來	-11.5505
▁二徵釋	-11.5506
大方廣佛華嚴經疏鈔會本第	-11.5506
勝前	-11.5506
兩門	-11.5507
更加	-11.5507
城郭	-11.5507
一四天下	-11.5507
並同	-11.5507
白銀	-11.5508
互嚴	-11.5509
不動優婆夷	-11.551
獨覺乘	-11.5513
不住道行勝	-11.5513
一部經	-11.5513
於佛身	-11.5513
斯陀含	-11.5514
眾生數	-11.5514
螺	-11.5515
炳然	-11.5519
維摩詰	-11.5519
寂定	-11.552
要由	-11.5521
大丈夫	-11.5522
可愍	-11.5523
會緣入實	-11.5523
演說諸法	-11.5523
妙眼	-11.5523
▁四釋文	-11.5524
至于	-11.5525
盡虛空	-11.5527
非無因	-11.5527
初總舉	-11.5531
性常	-11.5532
來至	-11.5534
阿耨菩提	-11.5535
覈	-11.5536
深理	-11.5536
圓融具德	-11.5537
豈是	-11.5538
第十五	-11.5542
千二百	-11.5542
出生菩薩	-11.5543
非有無	-11.5544
聖位	-11.5545
心無障礙	-11.5546
火坑	-11.5546
亦乃	-11.5548
一切法平等	-11.5549
應發如	-11.555
儒道	-11.5551
內法	-11.5552
滅苦	-11.5553
智慧自在	-11.5554
常作	-11.5555
印印	-11.5555
校量勝	-11.5556
生家	-11.5556
或復見為	-11.5563
五濁	-11.5564
一切塵中	-11.5564
禮佛	-11.5564
十二分教	-11.5564
普賢等	-11.5565
第六識	-11.5566
光音	-11.5568
之所成就	-11.557
如是展轉	-11.5571
紫	-11.5576
退屈	-11.5576
世界差別	-11.5578
因地	-11.5578
標云	-11.5578
充滿虛空	-11.5579
山河	-11.5579
水月	-11.5581
最尊	-11.5581
正性	-11.5583
分限	-11.5584
厄	-11.5584
故涅槃云	-11.5588
至極	-11.5589
不改	-11.5591
修行勝	-11.5592
普照三世	-11.5593
約果	-11.5594
為救	-11.5595
諸法自性	-11.5596
今現在	-11.5598
樓閣中	-11.5598
實諦	-11.5599
劫轉變	-11.5599
無變易	-11.56
無所罣礙	-11.5602
剎利	-11.5603
十一品	-11.5607
往詣道場	-11.561
經無量劫	-11.5613
說儀	-11.5613
譬如幻師	-11.5613
2	-11.5615
下䟽	-11.5617
如是等而為上首其數無量	-11.5618
大音	-11.5618
須彌頂	-11.5618
畢竟無	-11.5618
離我我所	-11.562
巴	-11.562
漩澓	-11.5621
卷第五	-11.5621
人空	-11.5622
▁初列	-11.5622
歷位	-11.5624
寢	-11.5625
超諸世間	-11.5625
此類	-11.5626
當時	-11.5629
善根如是迴向	-11.5631
某甲	-11.5631
不壞相故	-11.5631
廁	-11.5631
聖凡	-11.5632
妙觀察智	-11.5632
現神通力	-11.5632
三賢十聖	-11.5634
配屬	-11.5635
欲悉知	-11.5635
後人	-11.5636
有國土	-11.5636
虧盈	-11.5636
之解	-11.5639
五受	-11.5639
餓	-11.564
斯乃	-11.564
色法	-11.5641
權智	-11.5642
方便三昧	-11.5649
無恚	-11.565
唐三藏	-11.565
梵本中	-11.5652
天龍夜叉	-11.5652
身內	-11.5654
不真	-11.5655
別境	-11.5658
寬廣	-11.5659
勝上	-11.566
百法	-11.5662
一乘法	-11.5662
具斯	-11.5665
十度行	-11.5665
極果	-11.5665
同一緣起	-11.5666
見佛性	-11.5667
無依止	-11.5668
相遍	-11.5669
還復	-11.567
見無量佛	-11.5672
大身	-11.5672
一滴	-11.5675
萬劫	-11.5677
一切諸佛剎	-11.5678
等類	-11.5679
唯屬	-11.5679
但可	-11.5679
不濁	-11.568
大慈悲心	-11.5681
互參	-11.5681
具足圓滿	-11.5683
兼明	-11.5684
坐禪	-11.5687
恒出	-11.5688
邪命	-11.5688
空慧	-11.5689
佛界	-11.569
故淨名云	-11.5695
欲生	-11.5696
十號	-11.5697
必具	-11.5698
菩薩大眾	-11.5699
娛	-11.5701
▁三約	-11.5706
普集	-11.5708
入於涅槃	-11.5708
汝詣彼問	-11.5709
無量寶	-11.5712
至一切處迴向	-11.5713
此師	-11.5715
一切智慧	-11.5715
因緣法	-11.5716
會歸	-11.5716
發如是心	-11.5717
目首	-11.5718
豈異人乎	-11.5719
歸趣	-11.5719
掉舉	-11.572
兩段	-11.572
最妙	-11.5721
今始	-11.5722
種種法門	-11.5724
諸供養具	-11.5725
告諸菩薩言	-11.5726
苦聚	-11.5727
伎	-11.5732
正慧	-11.5732
大人相	-11.5733
諍訟	-11.5733
正修行	-11.5736
所縛	-11.5736
文相	-11.5737
其中所有	-11.5738
無怯	-11.5738
列其名	-11.5739
如文具明	-11.5739
無所有處	-11.5739
意根	-11.5741
殄	-11.5742
▁三總結	-11.5743
竊	-11.5744
檢	-11.5745
脣	-11.5745
性起品	-11.5746
樣	-11.5746
有二頌	-11.5747
種種神變	-11.5749
被甲	-11.5749
皆名為	-11.5749
捉	-11.575
此據	-11.5751
諸菩薩摩訶薩應如是知	-11.5753
轍	-11.5753
今由	-11.5754
具釋	-11.5754
一塵中	-11.5754
明此地	-11.5756
財位	-11.5758
覓	-11.5759
阿鼻	-11.576
名離垢	-11.5761
交參	-11.5761
達磨	-11.5764
我於爾時	-11.5764
昭然	-11.5764
敬重	-11.5766
眾藝	-11.5767
利益安樂	-11.577
諸三昧門	-11.577
幻住	-11.577
煩惱垢	-11.5771
別解	-11.5771
一切諸菩薩行	-11.5773
故致	-11.5774
深定	-11.5775
皆充滿	-11.5776
雷震	-11.5777
惡友	-11.5778
病苦	-11.5778
涉入	-11.5778
立宗	-11.5778
所共	-11.5779
如經云	-11.578
表十地	-11.578
心王菩薩	-11.578
眾數	-11.5781
章曰	-11.5781
以大慈悲	-11.5783
深淨心	-11.5784
如真金	-11.5784
百歲	-11.5785
略有二種	-11.5787
苦事	-11.579
偏多	-11.5791
恒河	-11.5793
有兩重	-11.5795
無縛	-11.5796
誰能	-11.5796
修行故	-11.5797
各說	-11.5798
禮懺	-11.5799
長子	-11.5804
老病死	-11.5806
露地	-11.5807
滯寂	-11.5808
無空過者	-11.5809
一切妙寶	-11.5809
異解	-11.5811
非他	-11.5819
一年	-11.582
等是也	-11.5822
慧光明	-11.5822
悉能受持	-11.5823
本寂	-11.5823
五千	-11.5824
十玄門	-11.5825
繫念	-11.5826
汝於	-11.5827
疑悔	-11.5827
次二約	-11.583
忍受	-11.583
佛子住於此	-11.583
詣彼	-11.5831
夜摩天王	-11.5831
所請	-11.5831
力無畏	-11.5832
趣一切智	-11.5833
心喜	-11.5835
資生之具	-11.5835
於此段中	-11.5837
此二無礙	-11.584
若廣說者	-11.5841
漸次南行	-11.5842
於汝意云何	-11.5843
一切智乘	-11.5843
技藝	-11.5844
不以為	-11.5844
中有一	-11.5846
等虗空界	-11.5847
喜悅	-11.5847
共不共	-11.5849
寐	-11.585
解深密經	-11.5852
緣性	-11.5852
思益	-11.5853
有七行經	-11.5854
四十六	-11.5854
法師云	-11.5855
六決定	-11.5857
丑	-11.5859
日月星宿	-11.5859
平等因果	-11.5859
迷於	-11.5859
一切波羅蜜	-11.586
房舍	-11.586
一日一夜	-11.5861
瞬	-11.5861
念前	-11.5861
頓斷	-11.5862
府	-11.5864
渠	-11.5864
微薄	-11.5865
照世	-11.5865
闢	-11.5866
城東	-11.5866
相參	-11.5867
苗	-11.5868
依體起用	-11.5868
嘗	-11.5868
非想非非想	-11.587
緩	-11.5871
摽	-11.5872
邪因	-11.5873
普至	-11.5874
香摩尼	-11.5874
治障	-11.5875
鉤	-11.5876
雨百萬億天	-11.5878
商人	-11.5878
封	-11.5879
橫竪	-11.5882
爽	-11.5884
還源	-11.5886
虛空身	-11.5886
並在	-11.5889
金光明	-11.589
得不壞信	-11.5891
稱之為	-11.5893
無所從來	-11.5894
謂要	-11.5895
安隱處	-11.5898
決定信	-11.5898
普化	-11.5899
大風	-11.5901
三昧自在	-11.5902
第十四	-11.591
無分限	-11.5911
前人	-11.5912
往因	-11.5913
未久	-11.5913
自宗	-11.5913
為菩薩時	-11.5915
體即是	-11.5916
所種善根	-11.5918
若更	-11.5918
出離道	-11.592
文殊師利菩薩摩訶薩	-11.592
還令	-11.592
臨終	-11.5921
義含	-11.5925
普令眾生	-11.5929
來乞	-11.5929
非小	-11.5929
假有	-11.5931
下疏釋	-11.5933
類例	-11.5938
?』	-11.5942
行普賢行	-11.5942
偏舉	-11.5942
復次佛子譬如	-11.5942
根力	-11.5943
後二頌	-11.5944
諸神變	-11.5944
三科	-11.5944
至七地	-11.5948
翻為	-11.5948
諸友	-11.595
給侍	-11.595
生厭離	-11.5953
歸真	-11.5954
無上勝	-11.5956
末會	-11.5957
入般涅槃	-11.596
圓教中	-11.5961
成熟一切眾生	-11.5961
含識	-11.5963
芬陀利華	-11.5967
種種解	-11.5968
若先	-11.597
無德	-11.597
陁	-11.5973
空無所有	-11.5973
乳母	-11.5973
汝能	-11.5973
是菩薩生處	-11.5976
令喜	-11.5977
空無相無願	-11.5978
大文第二	-11.5978
堅固力	-11.5979
映蔽	-11.598
分別諸法	-11.5982
時非時	-11.5983
普遊	-11.5984
乃至涅槃	-11.5985
於一切劫	-11.5986
布列	-11.5986
有五句	-11.5987
瑟	-11.5987
周迴	-11.5987
坎	-11.5987
是誰	-11.5988
略有三義	-11.5989
世界塵數	-11.5992
首楞嚴	-11.5992
而演說法	-11.5993
海幢	-11.5993
車乘	-11.5993
評	-11.5993
鎮	-11.5994
無愧	-11.5997
章中	-11.5997
廣大佛事	-11.5998
捨身	-11.5998
甚多	-11.6
亦不生	-11.6
而不礙	-11.6
立稱	-11.6002
若諸眾生	-11.6003
助伴	-11.6003
十里	-11.6003
菩薩摩訶薩如是迴向時	-11.6005
墮在	-11.6005
聲聞藏	-11.6007
盡滅	-11.601
第三佛子	-11.6015
隨好品	-11.6015
色想	-11.6016
十頌分二	-11.6016
測量	-11.6019
梵志	-11.6021
奇妙	-11.6023
神天	-11.6023
此一乘	-11.6024
脩習	-11.6024
上辨	-11.6024
見諦	-11.6026
教起	-11.6027
偈意	-11.603
我得菩薩	-11.6031
法華經云	-11.6032
益相	-11.6032
圓鏡	-11.6034
解義	-11.6034
聞此經	-11.6034
非究竟	-11.6035
如經說	-11.6036
濟度	-11.6036
見正報	-11.6037
於無相	-11.6037
近佛	-11.6038
亦見眾會	-11.6039
第五十	-11.6039
離垢光明	-11.6042
盡無有餘	-11.6045
方面	-11.6046
寶車	-11.6049
後品	-11.6051
後十句	-11.6052
開出	-11.6053
皆生歡喜	-11.6054
無懈倦	-11.6057
什	-11.6058
一總標	-11.606
至究竟	-11.6061
念念出生	-11.6062
諮	-11.6062
▁三顯	-11.6062
次列	-11.6062
明潔	-11.6067
菩提體	-11.6068
初結前生後	-11.6069
莊嚴論	-11.607
精進行	-11.6071
所計	-11.6073
揀之	-11.6074
為體故	-11.6075
悉能了知	-11.6075
投身	-11.6077
了諸法	-11.6077
辨異	-11.6079
能招	-11.608
沮壞	-11.608
互入	-11.6083
同居	-11.6083
卵	-11.6084
淨識	-11.6085
財首	-11.6086
但釋	-11.6086
不可稱量	-11.6087
唯局	-11.6087
此解脫者猶如	-11.6087
淨土菩薩	-11.6088
有三意	-11.6089
外化	-11.609
一切菩提分法	-11.609
漩	-11.6091
縣	-11.6093
來眾	-11.6094
緒	-11.6095
鄰	-11.6095
瑞相	-11.6096
辱	-11.6099
智成就	-11.61
貝	-11.61
無聲	-11.61
世界性	-11.6101
十方剎海	-11.6102
結會古今	-11.6104
字義	-11.6104
爾時佛神力故	-11.6104
如來大智	-11.6106
放淨光明	-11.6108
將釋此品	-11.611
於三寶	-11.611
丹	-11.611
徧行	-11.611
分三初	-11.6111
死屍	-11.6111
體無二	-11.6114
一由旬	-11.6114
併	-11.6116
如來滅後	-11.6116
巨海	-11.6117
住此地	-11.6118
正示法界	-11.6118
十二行經	-11.612
現成正覺	-11.6121
四攝法	-11.6121
淚	-11.6122
氷	-11.6123
於一世界	-11.6123
譯人	-11.6124
鹹	-11.6124
萬象	-11.6125
所離障	-11.6125
施主	-11.6127
童真住	-11.6128
剎網	-11.6128
何等為五	-11.6129
準前	-11.6131
令悟	-11.6133
黃色	-11.6134
大勇猛	-11.6134
令淨	-11.6135
覆蔭	-11.6136
幻事	-11.6137
者是也	-11.6137
未作	-11.6137
梁攝論云	-11.6139
譬如金剛	-11.614
所遍	-11.614
重法	-11.614
通取	-11.6142
前三句	-11.6142
下別辨	-11.6144
山林	-11.6144
悉已	-11.6147
示同	-11.6147
發心功德	-11.615
往彼	-11.615
四卷	-11.6156
眾華	-11.6156
遣之	-11.6158
不曾	-11.616
現受生	-11.6161
非約	-11.6161
牒上	-11.6164
不出此	-11.6164
四結勸	-11.6164
疾病	-11.6164
先當	-11.6165
淨水	-11.6166
隨舉一	-11.617
隨一切眾生	-11.617
何事	-11.6173
多緣	-11.6173
遠行	-11.6175
依如來藏	-11.6176
諸佛子此	-11.6177
前二句	-11.6177
業性	-11.6179
不可動	-11.6181
勝藏	-11.6183
應用	-11.6184
故云平等	-11.6187
以菩提心	-11.619
自在王菩薩	-11.619
分齊境	-11.6195
普賢位	-11.6198
並非	-11.6198
諸天宮殿	-11.62
歸向	-11.6201
令諸眾生各別知見	-11.6202
威神之力	-11.6204
坐於道場	-11.6205
空處	-11.6205
魔所攝持	-11.6207
慇懃	-11.6209
寶聚	-11.6209
廣長舌	-11.621
無惱	-11.621
天寶	-11.6212
出家學道	-11.6213
人非人等	-11.6214
行布施	-11.6214
斷結	-11.6215
所觀境	-11.6216
秘密	-11.6216
佛子云何為菩薩摩訶薩	-11.6217
慈悲喜捨	-11.6219
有二可知	-11.622
相續不絕	-11.622
隨願	-11.622
偶	-11.6222
生在佛家	-11.6222
為眷屬	-11.6222
玩	-11.6223
諸病	-11.6224
受苦樂	-11.6225
俯	-11.6225
飜	-11.6226
聽聞正法	-11.6226
禪定解脫	-11.6227
說耶	-11.6227
趣求後友	-11.6228
攞	-11.6228
饑	-11.6229
因性	-11.6229
歟	-11.6229
力持身	-11.623
十中一	-11.6231
念念常	-11.6232
口言	-11.6233
遍計所執	-11.6235
十蓮華藏	-11.6235
饒益有情	-11.6235
分別了知	-11.6237
度人	-11.6237
瀑流	-11.6241
不驚	-11.6241
無量劫中	-11.6242
轉轉	-11.6243
居家	-11.6247
進善	-11.6248
而作是言	-11.6249
毀壞	-11.6249
辟支	-11.6249
入見道	-11.6252
△	-11.6253
眾福	-11.6253
如鏡	-11.6254
隨化	-11.6255
寶住	-11.6257
能到	-11.6257
喚	-11.6257
巳成就	-11.6258
答中二	-11.626
根本無明	-11.6262
死生	-11.6263
暫時	-11.6264
解脫海	-11.6265
彼宗	-11.6265
今舉	-11.6266
了世	-11.6268
略引	-11.6268
一念悉	-11.6268
我當云何	-11.6269
清白	-11.627
廣說乃至	-11.6271
應如是知	-11.6272
絕相	-11.6272
律師	-11.6272
光耀	-11.6273
中開出	-11.6273
所證法	-11.6274
滿十	-11.6274
樂修	-11.6274
心懷	-11.6275
不縛	-11.6275
顯業用	-11.6276
八聖道	-11.6276
情亡	-11.6278
垢濁	-11.6279
見一切法	-11.628
如來藏性	-11.6283
迴向實際	-11.6292
普音	-11.6296
世樂	-11.63
入城	-11.63
寶鬘	-11.6302
福聚	-11.6302
歷事	-11.6307
四流	-11.6307
後文殊	-11.6307
甚深義	-11.6308
後一結	-11.6308
救苦	-11.6309
更無異	-11.631
先約	-11.631
十由旬	-11.6312
之末	-11.6313
菩薩摩訶薩如是	-11.6314
染分	-11.6316
興世	-11.6316
解脫知見	-11.6316
則不能	-11.6317
心得自在	-11.6319
妙樂	-11.632
而不證	-11.6323
異見	-11.6323
潛入	-11.6324
現未	-11.6324
菩提場中	-11.6325
佛滅後	-11.6325
轉更明淨	-11.6326
價	-11.6328
于法界	-11.6329
脫門	-11.633
對緣	-11.6331
助化	-11.6334
有十二句	-11.6335
師子王	-11.6337
薩羅	-11.634
毛道	-11.634
為能治	-11.6341
無所依止	-11.6346
遽	-11.6348
峰	-11.6348
着	-11.6349
十行品	-11.635
相諦	-11.635
無始時來	-11.635
霧	-11.6351
勝樂	-11.6351
金剛輪	-11.6352
寶性論	-11.6353
華樹	-11.6354
世親釋云	-11.6354
編	-11.6355
總有四	-11.6356
拒	-11.6356
滑	-11.6358
獵	-11.636
鷲	-11.6361
舊云	-11.6363
至文當知	-11.6364
混融	-11.6365
無疲	-11.6366
異異	-11.6366
不敬	-11.6366
▁二釋文	-11.6367
觀機	-11.6367
於彼佛所	-11.6369
隨文釋	-11.6369
十迴向位	-11.6369
說十迴向	-11.637
重閣	-11.637
斬	-11.6371
故不同也	-11.6372
下文中	-11.6373
餘義如別章	-11.6374
翻破	-11.6375
焰雲	-11.6375
令一切眾生悉得	-11.6376
雖行	-11.6378
檀越	-11.6378
一一劫中	-11.6382
豈無	-11.6382
殺盜	-11.6383
沸	-11.6384
▁四釋	-11.6384
種種異	-11.6386
決定心	-11.6387
誰為	-11.6391
安立海	-11.6392
超世	-11.6394
此十法	-11.6396
初二偈	-11.6397
本云	-11.6399
善權	-11.64
法藥	-11.6401
果證	-11.6401
除疑	-11.6401
住一切劫	-11.6402
互不相	-11.6403
六重	-11.6404
百論	-11.6404
總題	-11.6406
七重	-11.6408
一切眾生煩惱	-11.6411
向實際	-11.6411
當果	-11.6412
如其所	-11.6413
二十行頌	-11.6414
約寄位	-11.6415
欲貪	-11.6416
煩惱染	-11.6417
身加	-11.6419
善女人	-11.6419
初三頌	-11.6422
慈行	-11.6426
加因	-11.6426
天主光	-11.6427
圓成實	-11.643
徧世間	-11.6431
將迴向	-11.6434
應云何	-11.6434
能燒	-11.6435
佛剎海	-11.6438
玄微	-11.6442
一切剎土	-11.6446
辭退南行	-11.6446
淨居	-11.6447
未聞	-11.6447
彼國	-11.6451
十行中	-11.6451
無盡法界	-11.6451
然約	-11.6452
而告之言	-11.6452
於佛所	-11.6453
答前問	-11.6453
此中最下方	-11.6455
疏義明匡山法雲寺憨山沙門德清提挈	-11.6457
莎	-11.646
嬈	-11.646
華嚴懸談會玄記卷第	-11.6461
之徒	-11.6462
筭	-11.6463
有千	-11.6464
勝妙心	-11.6465
後二偈	-11.6466
前後圍繞	-11.6469
光明普照十方	-11.647
迅	-11.647
相奪	-11.647
罰	-11.6471
同虛空	-11.6471
額	-11.6471
填	-11.6472
文中先	-11.6473
違逆	-11.6473
新華嚴經論卷第	-11.6473
普入三世	-11.6475
國師	-11.6479
無變	-11.648
撿	-11.648
教理行果	-11.648
佛所住	-11.6481
亂想	-11.6481
此有二種	-11.6482
二支	-11.6484
同一體性	-11.6484
籠	-11.6485
又欲令一切眾生	-11.6485
室利	-11.6485
毘尼	-11.6486
幢旛	-11.6486
月輪	-11.6487
穴	-11.6488
種現	-11.6489
上三句	-11.649
蘊等	-11.6491
今並	-11.6491
終頓二教	-11.6492
功德幢	-11.6493
是根本	-11.6493
菩薩摩訶薩住此三昧	-11.6495
南北	-11.6495
暮	-11.6498
色性	-11.6499
之稱	-11.65
多事	-11.65
就機	-11.6501
未免	-11.6502
反成	-11.6503
▁二釋相	-11.6505
觀解	-11.6507
大龍	-11.6508
二而不二	-11.6508
開曉	-11.6509
推勝	-11.651
無病	-11.651
稱法性	-11.6514
昔日	-11.6518
千由旬	-11.6518
聖王	-11.652
說妙法	-11.652
偈分二	-11.6523
▁初標章	-11.6525
舊來	-11.6526
通三乘	-11.6527
萬境	-11.6527
汝可	-11.6527
無所行	-11.6528
諍論	-11.6529
愛染	-11.6532
顯示如來	-11.6533
不思議法品	-11.6533
喜見	-11.6534
十一頌	-11.6535
如是十種	-11.6537
初品	-11.6537
滿願	-11.6538
師子幢	-11.6542
永寂	-11.6544
一切諸眾生故	-11.6545
普散	-11.6546
咸來	-11.6546
□□	-11.6547
▁三辨	-11.655
同一法界	-11.6555
所謂下別	-11.6557
成實論	-11.6557
頭面禮足	-11.6558
皆圓滿	-11.6559
如來所說	-11.6561
全身	-11.6561
所讚	-11.6564
未曾失時	-11.6564
轉淨法輪	-11.6567
華莊嚴	-11.6571
興雲	-11.6571
旛	-11.6571
成就一切智	-11.6572
隨流	-11.6572
普現身	-11.6573
真實智	-11.6573
諸世界海	-11.6574
亦不得	-11.6577
在世	-11.6579
其理	-11.6581
精勤修習	-11.6582
發菩提心者	-11.6582
随	-11.6586
妃	-11.6586
尊者舍利弗	-11.6587
整	-11.6588
結通十方	-11.6588
說十行	-11.659
品初	-11.659
害心	-11.659
怕	-11.6593
十五行經	-11.6594
芬	-11.6594
頻申	-11.6595
兜	-11.6595
贍	-11.6595
敕	-11.6595
何者為十所謂	-11.6597
初標數辨類	-11.6597
諠	-11.66
成所作智	-11.6602
機緣	-11.6602
結略顯廣	-11.6602
涼	-11.6604
即華嚴	-11.661
此是如來	-11.6611
偷	-11.6612
屬前	-11.6613
曼	-11.6613
不二而二	-11.6614
晦	-11.6615
總有三	-11.6616
猛火	-11.6616
已滅	-11.6617
供養恭敬	-11.6618
次正釋文	-11.662
密嚴	-11.6623
世第一	-11.6623
直說	-11.6623
十二入	-11.6625
是梵行	-11.6625
章句	-11.6626
故智論云	-11.6628
此有二	-11.663
二乘人	-11.663
互現	-11.6631
進止	-11.6632
生萬物	-11.6634
難捨	-11.6636
有六行半經	-11.6636
受無量苦	-11.6643
深入法界	-11.6644
復云何	-11.6645
成普賢行	-11.6645
無性釋云	-11.6645
塵內	-11.6646
告眾	-11.6647
成如來力	-11.6648
間錯莊嚴	-11.6648
假設	-11.6651
下諸句	-11.6654
供養於佛	-11.6654
無相法	-11.6656
密雲	-11.6658
上諸義	-11.666
業報身	-11.6661
一切道場	-11.6663
深勝	-11.6665
狀如	-11.6665
如華嚴	-11.6665
一念相應	-11.6668
於斯	-11.6668
報土	-11.6669
有漏無漏	-11.6669
六相圓融	-11.667
重舉	-11.6671
開悟眾生	-11.6673
毛端處	-11.6674
眾生諸根	-11.6681
開悟一切眾生	-11.6681
體用無礙	-11.6681
流入	-11.6681
所動	-11.6685
大神力	-11.6686
終極	-11.6687
發無畏心	-11.6687
約圓融	-11.6688
如波	-11.6689
毗舍	-11.669
例釋	-11.6693
三昧正受	-11.6694
於諸佛法	-11.6696
迴向於捨	-11.67
如次配	-11.6701
釋提桓因	-11.6703
虗空法界	-11.6705
并其眷屬	-11.6705
十方人	-11.6705
配釋	-11.6706
喜足	-11.6707
如是供養	-11.6707
海印道場十重行願常徧禮懺儀卷第	-11.6707
寂寞	-11.6708
不敢	-11.671
頓具	-11.6711
于闐國三藏沙門實叉難陀譯經	-11.6711
則已能	-11.6711
一切諸法皆	-11.6712
貧乏	-11.6712
調御師	-11.6712
兩足尊	-11.6713
然有二義	-11.6714
玅	-11.6714
文殊問	-11.6714
▁三揔結	-11.6714
總觀	-11.6716
顯色	-11.6717
十二行半經	-11.6718
根塵	-11.6718
尸棄	-11.672
從此生	-11.6721
欽	-11.6721
渧	-11.6723
思修	-11.6723
理融	-11.6724
拯	-11.6724
嚴麗	-11.6724
戀德禮辭	-11.6725
郎	-11.6726
今皆懺悔	-11.6727
祭	-11.6728
此會中	-11.6729
在母胎中示現	-11.673
躬	-11.673
逃	-11.6733
皆得成就	-11.6734
廣大力	-11.6735
療治	-11.6736
沙門婆羅門	-11.6736
能開	-11.6736
𤼵菩提心	-11.6737
異熟識	-11.6737
旁	-11.6738
識等五	-11.6739
搖	-11.6741
人壽	-11.6741
棲	-11.6744
燈王	-11.6745
惡慧	-11.6747
寸	-11.6747
流轉生死	-11.6751
類別	-11.6751
亦不住	-11.6752
受變易	-11.6754
兜率宮	-11.6754
無空過	-11.6756
大乘法師	-11.6762
▁南無次	-11.6763
捨身命	-11.6764
前起後	-11.6767
與一切法	-11.6769
劫火	-11.677
猶在	-11.6771
十剎	-11.6771
舉體全	-11.6774
同真性	-11.6779
一微塵中	-11.6779
香幢	-11.6783
無暫	-11.6784
充法界	-11.6785
妨云	-11.6786
普照世間	-11.6786
修止觀	-11.6787
少時	-11.6789
善男子善女人	-11.6791
萬里	-11.6794
大字	-11.6794
無妄	-11.6794
因緣和合	-11.6796
以此義故	-11.6798
前中先	-11.6799
行支	-11.6805
十方諸世界	-11.6806
百二十	-11.6806
如是下總結	-11.6807
真子	-11.6812
懺悔巳	-11.6816
所行境	-11.6816
福德身	-11.6816
心不退轉	-11.6816
寶燈	-11.6819
相徹	-11.6821
離斷常	-11.6823
業緣	-11.6825
我聞聖者善能誘誨	-11.6825
焚燒	-11.6826
重現	-11.6827
惓	-11.6828
始起	-11.6829
無疲倦	-11.6829
何者為	-11.6831
無有實	-11.6832
深奧	-11.6835
於一切佛法	-11.6837
菩薩諸地	-11.684
如是等種種	-11.6841
影喻	-11.6841
位中行	-11.6844
坐蓮華藏師子之座	-11.6845
有三門	-11.6847
於一切菩薩	-11.6847
頓實	-11.6847
𦟛	-11.6849
一文一句	-11.6849
善惡業	-11.6849
捧	-11.685
化境	-11.6851
愛憎	-11.6852
戒定	-11.6852
充滿其中	-11.6852
次三句	-11.6852
三摩鉢底	-11.6853
思惟大海	-11.6854
爾時普賢菩薩摩訶薩	-11.6854
墻	-11.6855
鳩	-11.6855
胎生	-11.6856
第十七	-11.6856
不淨觀	-11.6857
芳	-11.6857
翅	-11.6857
謀	-11.6858
詢	-11.6858
勅	-11.6859
同時具足相應門	-11.6861
總成	-11.6861
發心久近	-11.6862
守護一切眾生	-11.6863
幼	-11.6863
復有十	-11.6863
破云	-11.6863
所得果	-11.6863
運載	-11.6865
皆得清淨	-11.6866
浴	-11.6867
鋒	-11.6868
稽	-11.6871
圓頓	-11.6872
呈	-11.6873
不得自在	-11.6876
米	-11.6877
長養善根	-11.6877
▁初讚	-11.6877
住此三昧	-11.6878
玄旨	-11.6882
髻菩薩	-11.6883
佛日	-11.6884
繁興	-11.6886
唯識論云	-11.6886
陜	-11.6888
巧分別	-11.6892
速成	-11.6893
剎塵劫	-11.6893
厭苦	-11.6894
若無此	-11.6895
護小乘行	-11.6895
見佛聞法	-11.6896
就其	-11.6897
一眾生身	-11.6901
覆護	-11.6902
攝護	-11.6906
如光影	-11.6912
舌根	-11.6912
比智	-11.6913
邪法	-11.6914
大悲海	-11.6917
親因	-11.6917
眾生善根	-11.6918
唯除如來	-11.6919
入此門	-11.692
清淨如虛空	-11.6921
推之	-11.6922
鈍根	-11.6924
以大悲心	-11.6924
名句文身	-11.6925
徒眾	-11.6925
遊於	-11.6928
大願力故	-11.693
通力	-11.6936
遍觀	-11.6936
徵列	-11.6938
陀羅尼光明	-11.694
眾寶為	-11.694
好惡	-11.6944
昔曾	-11.6944
立意	-11.6945
六品經	-11.6945
悔除	-11.6951
俱舍論	-11.6951
大福	-11.6953
而我云何能知	-11.6953
厭生死	-11.6953
降伏眾魔	-11.6959
解深密	-11.696
原人	-11.6961
羼提波羅蜜	-11.6962
略有三	-11.6962
四十句	-11.6962
皆歸	-11.6962
破諸	-11.6963
普賢之行	-11.6963
相濫	-11.6964
難壞	-11.6967
第四門	-11.6968
菩薩摩訶薩住	-11.6971
加請	-11.6972
周帀圍繞	-11.6973
坦	-11.6973
下釋其相	-11.6976
華藏世界海本尊毗盧遮那佛	-11.6976
有佛世界微塵數	-11.6977
非量	-11.6979
毫光	-11.698
徐	-11.6981
貪嗔癡	-11.6981
彈指	-11.6981
刻	-11.6982
光照耀	-11.6982
輭	-11.6983
足指	-11.6984
恕	-11.6985
地獄畜生餓鬼	-11.6985
飽	-11.6987
合掌而立	-11.6988
跪	-11.699
以覆其上	-11.699
一質	-11.6994
于闐	-11.6995
說華嚴	-11.6997
纏縛	-11.6998
添	-11.6999
若有人	-11.7
無休息故	-11.7001
為大法師	-11.7002
足輪	-11.7003
佛加持	-11.7004
普現其身	-11.7006
得不退	-11.7006
欲言其	-11.7006
差殊	-11.7007
後佛子下	-11.7007
周普	-11.7007
堅密	-11.7009
釋中二	-11.701
所作皆	-11.7011
伏難	-11.7011
先照	-11.7012
探玄記	-11.7013
難得行	-11.7013
結屬	-11.7014
於此處	-11.7016
示導	-11.7018
文勢	-11.702
彼世界中	-11.702
繫屬	-11.7023
闕一	-11.7024
般若現前	-11.7024
白言聖者	-11.7024
萬億	-11.7025
乃至示現	-11.7025
殊異	-11.7025
漸修	-11.7029
真善知識	-11.7041
次有大人相	-11.7043
目前	-11.7047
例前	-11.7047
治前	-11.7047
若干種	-11.7048
前却	-11.7048
此世界中	-11.7052
因果交徹	-11.7055
天地之	-11.7056
下九句	-11.7056
菩薩摩訶薩布施	-11.7056
無損	-11.7057
然後乃	-11.7058
十八不共	-11.7059
是菩薩道	-11.7061
平正	-11.7061
寶女	-11.7063
當作佛	-11.7064
修福	-11.7064
會普光明殿	-11.7065
菩薩受生	-11.7069
未曾暫	-11.7069
有多種	-11.707
十一種	-11.707
無量力	-11.7071
互無	-11.7073
略有二	-11.7074
自陳	-11.7076
下釋文	-11.7077
天道	-11.7078
一攝一切	-11.7081
皆使	-11.7082
以方便力	-11.7082
合空	-11.7082
不久當	-11.7083
當學	-11.7083
大悲門	-11.7084
骨髓	-11.7086
月天子	-11.7087
寶性	-11.7087
苦報	-11.7087
群萌	-11.7087
倍倍	-11.7088
念持	-11.709
積集善根	-11.709
憂悲	-11.709
逝	-11.7097
旨歸	-11.7097
所著	-11.71
第一門	-11.71
無著無縛	-11.7102
辭無礙智	-11.7102
寄對	-11.7103
湯藥	-11.7103
奘	-11.7104
歌詠讚歎	-11.7104
乃云	-11.7106
呪術	-11.7106
菩薩一切海眾	-11.7109
自證分	-11.711
集福德	-11.711
憒	-11.7111
悉能往詣	-11.7111
不容	-11.7111
第三總結	-11.7111
若有眾生遇斯光者	-11.7111
隨順修行	-11.7112
▁四謙巳推勝	-11.7113
有八行經	-11.7114
顯佛德	-11.7114
趣菩提	-11.7115
選	-11.7117
天帝釋	-11.7118
皆同此	-11.7119
莊嚴之具	-11.712
日日	-11.712
羅睺	-11.712
欲盡	-11.7121
攝取一切	-11.7121
所獲	-11.7122
菩提薩埵	-11.7122
四維	-11.7123
大用無涯	-11.7123
一切菩薩地	-11.7123
十千劫	-11.7126
如大地	-11.7127
考	-11.7127
即智論	-11.7128
諸大聲聞	-11.7131
欲使	-11.7131
妄惑	-11.7133
故下文云	-11.7133
以種種方便	-11.7134
▁初正顯	-11.7135
庭	-11.7136
未熟	-11.7136
撥無因果	-11.7137
筋	-11.7138
有六義	-11.7141
所從來	-11.7141
口出	-11.7141
蘊積	-11.7142
肇	-11.7143
七十二	-11.7144
▁初總顯	-11.7145
永絕	-11.7147
死時	-11.715
六十二	-11.715
廣大剎	-11.7151
正斷	-11.7151
滅諸煩惱	-11.7152
正念觀察	-11.7154
四天下微塵數	-11.7155
寂靜光	-11.7155
阿耨	-11.7156
以大願	-11.7157
集助道	-11.7158
疲勞	-11.716
如實觀	-11.7163
解一切法	-11.7165
香積	-11.7166
彌勒菩薩摩訶薩	-11.7168
相屬	-11.7168
足趺	-11.7171
二徵數	-11.7172
以六相	-11.7173
為所緣	-11.7173
微塵數世界	-11.7175
瑕	-11.7175
開宗	-11.7176
師子座上	-11.7176
含生	-11.7177
力無所畏	-11.7177
間列	-11.7177
厭捨	-11.718
丈六	-11.718
散華	-11.7181
群黎	-11.7182
帝青寶	-11.7184
俱離	-11.7191
方為真	-11.7192
非一非	-11.7198
性不可得	-11.7198
所含	-11.7201
身形	-11.7202
中三初	-11.7211
香樹	-11.7212
常居	-11.7214
皷	-11.7217
即攝一切	-11.7218
亦須	-11.7218
別譯	-11.7218
既具	-11.722
修行住	-11.722
似彼	-11.722
經多劫	-11.7222
瓔珞經	-11.7222
如是之人	-11.7227
細尋	-11.7227
五臺	-11.7228
纖	-11.7229
生疑惑	-11.7233
無漏智	-11.7237
以善方便	-11.7238
二正明	-11.7238
九十六	-11.7241
等眾生數	-11.7241
阿彌陀	-11.7241
法身根本智	-11.7243
一一各有	-11.7243
慈父	-11.7244
此翻	-11.7246
微少	-11.7248
萌	-11.725
隨好光明功德品	-11.725
奇哉	-11.7252
飄	-11.7252
大悲力	-11.7252
依他性	-11.7255
群品	-11.7255
院	-11.7256
下中上	-11.7257
肝	-11.7257
深細	-11.7257
助道之法	-11.7258
獨立	-11.7258
泡	-11.7258
供養一切佛	-11.7258
心垢	-11.7258
藍	-11.7261
須彌山雲	-11.7261
何要	-11.7262
欺誑	-11.7263
衰惱	-11.7265
譬如日出	-11.7265
怨賊	-11.7267
無所有盡	-11.7267
隨其所樂	-11.7267
黎庶	-11.7267
舉一全收	-11.7267
一斷一切斷	-11.7268
匪	-11.7268
一切劫中	-11.7269
異論	-11.727
互攝	-11.727
餘皆是	-11.727
燋	-11.7271
能開示	-11.7272
初住地	-11.7272
起慈悲	-11.7272
先總後別	-11.7273
寂寥	-11.7273
蓮華藏師子之座	-11.7273
庸	-11.7275
明白	-11.7276
悶	-11.7277
接引	-11.7277
大智風輪	-11.7278
垢染	-11.728
種種境界	-11.7281
菩薩有十事	-11.7281
百非	-11.7282
演說正法	-11.7283
錯謬	-11.7284
一切眾魔	-11.7285
所被機	-11.7285
於所說法	-11.7286
物機	-11.7286
孔目云	-11.7286
見普雨一切	-11.7287
大品經	-11.7287
類智	-11.7287
太極	-11.7289
為人說	-11.7289
焰光	-11.729
多含	-11.7291
受教	-11.7292
結可知	-11.7294
具含	-11.7295
論議	-11.7296
寶繒	-11.7301
依瑜伽	-11.7301
惟願	-11.7311
積行	-11.7312
恒常	-11.7312
而正受	-11.7312
結例	-11.7313
▁二彰	-11.7314
有其二	-11.7315
其心廣大	-11.7315
救生	-11.7319
觀世音菩薩	-11.7322
無功用智	-11.7323
無盡德	-11.7325
以法為	-11.7329
愚癡闇	-11.7331
一切智門	-11.7332
壽量品	-11.7335
為此釋	-11.7337
▁南無如是等	-11.7339
生兜率天	-11.7339
於生死海	-11.7342
亂心	-11.7342
普照十方一切世界	-11.7344
無濁	-11.7345
眾病	-11.7347
普勝	-11.7349
初句標	-11.7349
黃金	-11.7352
闇障	-11.7354
一步	-11.7354
能詮教	-11.7357
妙法輪	-11.7358
所破	-11.7362
無下劣心	-11.7362
一切天人	-11.7363
分段身	-11.7363
牀座	-11.7364
一切眾生語言	-11.7365
自知受記	-11.7368
楚毒	-11.7368
釋本文	-11.7373
本分中	-11.7373
住普賢行	-11.7375
一總明	-11.7375
自性清淨心	-11.7375
有二釋	-11.7375
舉要言之	-11.7376
百億閻浮提	-11.7378
見網	-11.7378
大那羅延幢勇健法	-11.7379
珊瑚	-11.738
十住十行十迴向	-11.738
出無數百千億	-11.738
離言說	-11.7381
末世	-11.7385
焰慧地	-11.7385
小果	-11.7386
來詣其所	-11.7387
涅	-11.739
無邊無盡	-11.7391
輻	-11.7392
奮	-11.7392
毛光	-11.7392
其心平等	-11.7392
啞	-11.7393
寡	-11.7394
十四行經	-11.7395
出入息	-11.7396
由迷	-11.7396
往返	-11.7396
峻	-11.7398
此十句	-11.7398
好醜	-11.7399
攝善法戒	-11.74
爰	-11.7402
牒舉	-11.7403
司	-11.7404
荒	-11.7404
祇洹	-11.7405
所向	-11.7405
殃	-11.7406
忌	-11.7406
不污	-11.7407
模	-11.7407
未亡	-11.7409
故次明之	-11.7409
殊勝功德	-11.741
嚴事	-11.7412
答難	-11.7414
心一境性	-11.7415
發聲	-11.7417
歎德中	-11.7418
此二句	-11.7418
幻色	-11.7422
餘並	-11.7422
壇	-11.7423
大智慧寶	-11.7425
七勸	-11.7426
功力	-11.7427
見多佛	-11.7428
有菩薩名	-11.7434
大山王	-11.7436
思慮	-11.7437
無色定	-11.7438
已下明	-11.7442
入佛智	-11.7444
不同三乘	-11.7445
千里	-11.7446
動亂	-11.7446
清涼山	-11.7446
令彼眾生	-11.7446
攝物	-11.7447
結會	-11.7447
離慢	-11.7447
願智果	-11.7448
法界無差別	-11.7448
謂此真如	-11.7451
宜應	-11.7452
已斷	-11.7452
千門	-11.7454
得無上	-11.7455
黑白	-11.7456
隨轉	-11.7458
莊嚴之事	-11.7458
無性攝論	-11.7459
威勢身	-11.746
居處	-11.7461
諸剎土	-11.7461
將護	-11.7463
標列	-11.7463
卷經	-11.7464
無礙力	-11.7466
清淨慈	-11.7468
淨源	-11.7473
所繫	-11.7473
無來處	-11.7473
是謂菩薩	-11.7475
有六十	-11.7477
生貴	-11.7479
色心等	-11.7479
何必	-11.7484
愍念	-11.7485
倣之	-11.7486
說一切佛	-11.749
將何	-11.749
即是一乘	-11.7493
事事無礙法界	-11.7494
爾時已下	-11.7495
了達諸法	-11.7497
神識	-11.7498
所不及	-11.7501
心生尊重	-11.7501
億百千	-11.7502
心得安隱	-11.7502
空宗	-11.7502
定散	-11.7505
全遍	-11.751
欲重宣其義	-11.751
豫	-11.7511
掌中	-11.7513
敏	-11.7514
於諸如來	-11.7514
無不照	-11.7514
一切諸劫	-11.7514
無怯弱	-11.7515
故出現品云	-11.7516
種種音聲	-11.752
無處不至	-11.7523
恒不捨離	-11.7523
受稱	-11.7524
卍字	-11.7524
貢高	-11.7526
▁初揔顯	-11.7527
眾生之類	-11.753
若小乘	-11.753
各有三	-11.7532
得法久近	-11.7533
矚	-11.7533
火災	-11.7534
言語道斷	-11.7535
第十九	-11.7536
訪	-11.7537
月十五日	-11.7538
阜	-11.7538
輸	-11.7539
雞	-11.7541
屋	-11.7541
光所照	-11.7541
軌範	-11.7541
四五六地	-11.7543
此三法	-11.7543
六十四	-11.7543
項	-11.7543
顛	-11.7544
標釋	-11.7544
荼	-11.7544
見文殊	-11.7545
麥	-11.7545
議曰	-11.7546
甚深微妙	-11.7546
淳熟	-11.7546
正遍知	-11.7547
犢	-11.755
偈頌前	-11.7551
新新	-11.7553
義理分齊	-11.7556
真諦三藏	-11.7557
幡蓋	-11.7559
初地已上	-11.7563
無上覺	-11.7564
鈔文	-11.7564
風畫	-11.7564
繞無數帀	-11.7564
故中論云	-11.7566
按定	-11.7567
正趣菩薩	-11.7568
諸神通	-11.7569
金師	-11.7571
我知法界	-11.7572
童男	-11.7573
所得功德	-11.7574
從緣無性	-11.7578
普見三世	-11.7581
廣大光明	-11.7581
戒賢	-11.7587
某處	-11.7588
如鳥	-11.7588
救攝	-11.759
皆悉歡喜	-11.7594
無漏法	-11.7597
不可作	-11.7598
之所能	-11.7603
結數	-11.7605
光徧照	-11.7606
塵含	-11.7609
維	-11.7616
有功用	-11.7618
菩薩亦爾	-11.7618
勤方便	-11.7619
無不周	-11.7621
德深廣	-11.7622
熟教	-11.7624
周遍十方	-11.7625
諸有海	-11.7628
梵網經	-11.7631
他化自在天王	-11.7633
損益	-11.7634
讚曰	-11.7635
息滅	-11.7636
不同二乘	-11.7639
不調	-11.7641
此大樓閣	-11.7641
普告	-11.7642
知眾生根	-11.7643
善眼	-11.7646
勝熱	-11.7646
無等倫	-11.7647
所成果	-11.7649
海神	-11.7652
共集	-11.7652
所從來國	-11.7654
周帀圍遶	-11.7654
庫藏	-11.7656
無作用	-11.7658
音響	-11.7658
垣牆	-11.7659
亂意	-11.7662
今古	-11.7662
如鏡中像	-11.7663
徵問	-11.7663
破邪	-11.7664
輞	-11.7666
恬	-11.7667
一切聲聞辟支佛	-11.7667
賢首品云	-11.7667
有一百一十	-11.767
諷誦	-11.767
悉分別知	-11.7671
炤	-11.7671
福德力	-11.7672
逼惱	-11.7672
安危	-11.7673
魂	-11.7673
鳥獸	-11.7673
如經具明	-11.7673
恒河沙數	-11.7675
我於彼時	-11.7676
革	-11.7677
閻浮提內	-11.7677
發大誓願	-11.7677
魯	-11.7678
莊嚴道場	-11.7678
四釋文者	-11.7681
申今	-11.7681
無與等者	-11.7682
湯	-11.7682
有分限	-11.7682
三佛子下	-11.7683
纖塵	-11.7684
止惡	-11.7684
壞散	-11.7685
後彰	-11.7686
窮究	-11.7687
僻	-11.7688
明記	-11.7692
陀羅尼輪	-11.7693
一切佛境界	-11.7695
聖旨	-11.7695
得其名	-11.7697
眾患	-11.7697
擇法	-11.7698
掃	-11.7698
常存	-11.7699
雜集論	-11.7702
之所行	-11.7705
撥	-11.7707
普見諸佛	-11.7708
初正釋	-11.7712
癈	-11.7719
通達無礙	-11.772
諸有趣	-11.7721
性淨涅槃	-11.7721
光曜	-11.7722
於一塵中	-11.7724
陀羅尼力	-11.7725
癡暗	-11.7726
緣會	-11.7727
一切微塵	-11.7729
無相智	-11.7733
亦不可得	-11.7733
空即色	-11.7734
發露	-11.7735
自在主	-11.7735
損害	-11.7736
大菩薩眾	-11.7738
方堪	-11.7739
大哀	-11.7739
融會	-11.7741
習種性	-11.7747
無患	-11.7747
侍者	-11.7753
俱不可得	-11.7753
總指	-11.7761
繪	-11.7765
亦令眾生	-11.7769
▁初標舉	-11.7769
未來諸佛	-11.777
依主釋也	-11.7773
此華藏世界海	-11.7774
能以方便	-11.7775
輪三昧	-11.7776
普周法界	-11.7777
為汝說	-11.7777
更有一	-11.7778
同虗空	-11.7781
所建立	-11.7783
巳引	-11.7785
生厭	-11.7787
深旨	-11.7787
海中有	-11.7788
更樂	-11.779
時善財童子頂禮其足	-11.779
如焰	-11.7791
究竟大事	-11.7791
無依無	-11.7793
不可稱計	-11.7794
受生自在	-11.7798
菩薩種性	-11.7799
匹	-11.78
源底	-11.78
教義等	-11.7803
淨無垢	-11.7803
執受	-11.7803
1	-11.7804
有兩行經	-11.7807
遠法師	-11.7808
削	-11.7808
暨	-11.7809
二引證	-11.7809
復有十千	-11.7809
忍力	-11.781
饒	-11.7811
行住坐臥	-11.7812
無盡功德藏迴向	-11.7813
增上深心	-11.7814
三偈頌	-11.7814
問訊	-11.7815
所有境界	-11.7815
餘九別	-11.7816
一多相容不同門	-11.7817
牟	-11.7818
汝所問	-11.7819
朋	-11.7819
勝慢對治	-11.782
初文有三	-11.782
說十信	-11.782
伎樂	-11.7821
現法樂住	-11.7822
又發大願	-11.7822
有一住處	-11.7822
功終	-11.7823
迦旃延	-11.7824
鑛	-11.7824
祀	-11.7824
大同小異	-11.7825
又放光明	-11.7826
護煩惱行	-11.7827
貪恚	-11.7827
無私	-11.7827
流水	-11.783
除滅一切眾生	-11.7833
視聽	-11.7833
片	-11.7835
引瑜伽	-11.7836
嶺	-11.7837
正直心	-11.7838
本性清淨	-11.7839
飛行	-11.7839
有五義	-11.784
韻	-11.784
剝	-11.7841
離殺	-11.7842
得增上	-11.7844
一切佛平等	-11.7847
唐言	-11.785
度量	-11.785
略有五	-11.7851
相即相入	-11.7851
諸緣起	-11.7851
無自體	-11.7852
普賢廣大	-11.7853
入無量諸佛	-11.7857
一切法空	-11.7857
以此善根如是迴向	-11.7858
由了	-11.7859
甚微	-11.7859
敷演	-11.7861
億佛	-11.7862
香焰	-11.7864
五十一	-11.7866
華藏莊嚴世界海	-11.7866
智慧眼	-11.7867
能演	-11.7877
▁二料揀	-11.788
海印定	-11.7882
妙道	-11.7883
所收	-11.7888
大集經	-11.7888
群生類	-11.7889
寶器	-11.7892
所遊	-11.7892
善男子譬如有人	-11.7893
十住十行十迴向十地十一地	-11.7896
王女	-11.7899
離垢清淨	-11.7901
便成正覺	-11.7903
凡情	-11.7907
一錢	-11.7907
如電	-11.7908
有四重	-11.7909
此文有二	-11.7909
後友	-11.7912
無明支	-11.7912
皆無所著	-11.7915
年歲	-11.7916
相即門	-11.7918
于闐國三藏實叉難陀奉制譯	-11.7919
愛念	-11.7921
而覺悟	-11.7929
坐寶蓮華	-11.7929
修慈	-11.7931
吝	-11.7934
醫藥	-11.7937
勝過	-11.7937
但就	-11.7938
寶多羅樹	-11.7938
各有二義	-11.7938
此閻浮提	-11.7938
廣演	-11.7939
煩惱習氣	-11.794
壞滅	-11.7941
鐵圍	-11.7943
極樂	-11.7944
人畜	-11.7945
二來意者	-11.7945
莊飾	-11.7946
五百歲	-11.7948
終不能	-11.795
舉經對顯	-11.7953
馱	-11.7954
暎蔽	-11.7954
凶	-11.7956
微妙音	-11.7957
此品須來	-11.7957
而亦不捨	-11.7957
於其中間	-11.7958
窮法界	-11.7958
捨受	-11.7959
何謂為	-11.796
詠	-11.7961
有所表	-11.7961
彌綸	-11.7961
兔角	-11.7963
無所見	-11.7965
諸障礙	-11.7966
暇	-11.7967
銖	-11.7967
綱要	-11.7968
羞	-11.797
互舉	-11.797
艮	-11.7974
鹽	-11.7975
莊嚴其身	-11.7977
所揀	-11.7978
廣如彼說	-11.798
羊鹿	-11.7982
萬差	-11.7982
光嚴	-11.7984
▁二列名結數	-11.7993
城內	-11.7995
徵釋所由	-11.7997
而能出生	-11.7998
演妙音	-11.7998
如初會	-11.8001
大火	-11.8005
仁慈	-11.8006
波利	-11.8007
先敘	-11.8007
一珠	-11.8011
了俗	-11.8013
▁三宗趣	-11.8015
契實	-11.8018
僧伽	-11.8022
歎佛功德	-11.8023
貴賤	-11.8023
一切菩薩功德	-11.8026
能為眾生	-11.8026
生芽	-11.8027
變化土	-11.8028
分為六	-11.8032
大摩尼寶	-11.8035
歎深	-11.8039
無瑕	-11.8039
信一切法	-11.804
下䟽釋	-11.8041
波羅蜜道	-11.8045
謗法	-11.8046
破暗	-11.8047
香山	-11.8048
平等清淨心	-11.8048
依他起性	-11.8054
下通妨	-11.8055
繁廣	-11.8055
別彰	-11.8056
一一世界中	-11.8056
入此定	-11.8056
果之因	-11.8056
諸漏	-11.8057
十佛剎塵	-11.8058
賢善	-11.8061
正真	-11.8064
菩薩住是地	-11.8065
久如	-11.8066
一切樂具	-11.8068
有能所	-11.807
能領受	-11.8071
安住不動	-11.8071
無量乘	-11.8074
增長善根	-11.8076
一期	-11.8076
真淨	-11.8077
總融	-11.8079
得十力	-11.808
下四頌	-11.8081
金鈴	-11.8085
顯圓	-11.8086
答意云	-11.8087
襍	-11.8089
巳滿	-11.8092
瓔	-11.8092
疑難	-11.8094
唯有一	-11.8095
成前義	-11.8096
眷	-11.8096
甚可	-11.8097
亦復非	-11.8097
闇冥	-11.8097
無知者	-11.8097
有五行經	-11.8098
真如相迴向	-11.8098
供養一切諸如來	-11.81
久修	-11.81
煩惱熱	-11.81
示現涅槃	-11.8101
心源	-11.8102
▁二列	-11.8102
刀杖	-11.8104
婆珊婆演底	-11.8105
得無生法忍	-11.8105
如東方	-11.8105
贊	-11.8107
先須	-11.8107
囑	-11.8108
四衢道	-11.8111
耕	-11.8112
煖	-11.8113
綺互	-11.8114
波頭摩華	-11.8114
領納	-11.8114
升進	-11.8114
奚	-11.8115
一切世界微塵數	-11.8117
神通境界	-11.8119
如涅槃經	-11.812
科釋	-11.8121
綴	-11.8122
發心品	-11.8124
定亂	-11.8129
無違逆行	-11.8129
一佛身	-11.8129
有體無體	-11.8129
墮落	-11.8131
法界身雲	-11.8131
義邊	-11.8132
一切國土中	-11.8134
相承	-11.8134
失本	-11.8136
諸仁者	-11.8138
妙聲	-11.8139
次所謂下	-11.814
當知是人	-11.8143
近友	-11.8143
之母	-11.8143
四無色定	-11.8145
經行處	-11.8146
有增減	-11.815
非擇滅	-11.8151
有八萬四千	-11.8151
之謂也	-11.8152
我無我	-11.8154
圓教攝	-11.8155
如實智	-11.816
情非情	-11.8163
相盡故	-11.8165
別對	-11.8167
迦葉佛時	-11.8167
不斷菩薩行	-11.8169
莫能知	-11.8169
聞法受持	-11.817
我不見	-11.8171
種種供養	-11.8171
真界	-11.8172
了境	-11.8173
非不有	-11.8174
天眼見	-11.818
聖果	-11.8182
起慈心	-11.8183
爾時太子	-11.8185
具此三	-11.8188
指文	-11.8188
波羅蜜門	-11.8191
能增長	-11.8192
處俗	-11.8193
菩薩摩訶薩復作是念	-11.8194
十藏品	-11.8195
以大願力	-11.8196
真宗	-11.8197
端坐	-11.8201
雲網	-11.8203
總報	-11.8204
於此世界	-11.8205
】「	-11.8205
差別因果	-11.8211
喻喻佛	-11.8212
金翅鳥	-11.8216
音聲忍	-11.8217
魔境	-11.8221
鳩槃荼	-11.8223
疲厭	-11.8224
能清淨初歡喜地	-11.8224
且舉	-11.8227
發無疑心	-11.8228
出生無盡	-11.8234
寶物	-11.8236
師子座雲	-11.8239
世間燈	-11.8242
第三對	-11.8243
􂘢	-11.8243
能說彼功德行	-11.8244
六七八	-11.8246
又放光名	-11.8247
殷勤瞻仰辭退而	-11.8247
醜陋	-11.8247
佛所攝持	-11.8249
遊入	-11.825
授巳法界	-11.825
非即離	-11.8254
無上正等菩提	-11.8256
雙舉	-11.8257
陰界入	-11.8257
惰	-11.8258
無等住	-11.8259
搖動	-11.8259
華藏品	-11.826
十首菩薩	-11.8261
永斷一切	-11.8263
無雜亂	-11.8263
受用身	-11.8264
鬱	-11.8265
軸	-11.8266
涌出	-11.8266
暖	-11.8268
劉	-11.8269
喧	-11.8269
缺減	-11.8269
奈	-11.8269
交映	-11.827
念劫圓融	-11.827
逕	-11.8271
真際	-11.8274
各有四	-11.8274
諸善友	-11.8274
屠	-11.8274
潛流	-11.8275
俟	-11.8275
正結	-11.8276
腸	-11.8277
􂗲	-11.8277
為令一切眾生皆得	-11.8278
佛成道	-11.8278
鞭	-11.828
嚕	-11.8281
東南	-11.8281
節節	-11.8283
昨	-11.8283
世世	-11.8288
華幢	-11.8288
善護	-11.8289
所成益	-11.829
須彌頂上	-11.8291
是名下結	-11.8291
新經	-11.8293
那含	-11.8294
如前引	-11.8295
者帖	-11.8295
能悟	-11.8298
皆無障礙	-11.8301
堅固不動	-11.8303
地動	-11.8308
有其二義	-11.8309
七卷	-11.8312
普眼法門	-11.8313
示諸眾生	-11.8314
各於其	-11.8315
逐機	-11.8316
密語	-11.8317
列眾	-11.8325
疏文有四	-11.8326
不退輪	-11.8329
含在	-11.8329
菩薩初發心	-11.8333
相入門	-11.8336
皆自在故	-11.8336
四弘	-11.8337
假觀	-11.8341
為眾說法	-11.8341
那羅	-11.8343
如師子王	-11.8345
色類	-11.8347
本自無	-11.8348
初依教趣求	-11.835
示滅	-11.8352
言象	-11.8352
寶燄	-11.8354
中央	-11.8359
▁薩	-11.8361
揀別	-11.8362
念念示現	-11.8363
譬諭	-11.8364
皆無所有	-11.8368
分析	-11.837
以四攝	-11.837
圓妙	-11.8372
願垂	-11.8372
從兜率天	-11.8374
明法品	-11.8379
寶以為莊嚴	-11.8379
捨離魔業	-11.838
無有自性	-11.838
與十佛剎微塵數諸菩薩俱	-11.8382
修諸善根	-11.8384
何獨	-11.8384
迴向行中	-11.8385
佛陀	-11.8385
流類	-11.8387
能嚴	-11.8388
離諸分別	-11.8388
釋曰上	-11.839
嚴淨一切佛剎	-11.8392
百分不及一	-11.8393
四諦品	-11.8396
情計	-11.8396
休捨優婆夷	-11.8396
無礙辯才	-11.8397
瘦	-11.8398
眼目	-11.84
是為十若諸菩薩安住其中	-11.84
有四行經	-11.8402
妻妾	-11.8403
𡨋	-11.8404
有十行經	-11.8404
一切入一	-11.8405
頑	-11.8405
受請	-11.8405
影取	-11.8406
何故名為	-11.8407
扇	-11.8408
廟	-11.8408
覺法自性	-11.8409
遍周法界	-11.8409
下二頌	-11.841
別地行相	-11.841
諸佛道場一切海眾	-11.8411
方終	-11.8411
搜	-11.8411
為眾生作佛事	-11.8411
色究竟天	-11.8412
是為十事	-11.8414
結成正義	-11.8415
善根所生	-11.8416
吠	-11.8416
紀	-11.8417
粗	-11.8419
筌	-11.842
示現出家	-11.842
緣慮	-11.8421
普演	-11.8421
三七日	-11.8422
巡	-11.8423
士夫	-11.8424
所安立	-11.8427
究竟彼岸	-11.8428
令生歡喜	-11.8429
安能	-11.8429
阿練若處	-11.8432
咽	-11.8432
觀察諸法	-11.8434
又於佛所	-11.8436
各是一	-11.8437
牛頭	-11.8437
次二偈	-11.8438
無休	-11.844
▁三攝德圓滿	-11.8442
後二約	-11.8446
盲人	-11.8447
離憂	-11.8451
通染淨	-11.8451
無邊量	-11.8455
永除	-11.8455
以普賢行	-11.8456
為欲成就	-11.8458
能證智	-11.8461
又此四	-11.8462
准上	-11.8465
宿善	-11.8469
思想	-11.8469
決定了知	-11.8471
助道具	-11.8471
讚歎如來	-11.8472
菩薩地盡	-11.8474
留難	-11.8476
福力	-11.8479
修習善根	-11.8487
蒙光	-11.8488
國城	-11.8489
攝位	-11.8493
釋迦牟尼	-11.8494
大勢力	-11.8496
倒惑	-11.8498
任性	-11.8498
加行位	-11.8499
故法華云	-11.85
時善財下	-11.8502
除去	-11.8503
放捨	-11.8506
文別	-11.8507
出現世間	-11.8508
猶如金剛	-11.8511
地獄苦	-11.8512
門戶	-11.8513
十二住	-11.8516
為增上緣	-11.8517
事即理	-11.8517
如大雲	-11.8521
大千界	-11.8523
別中一	-11.8524
備矣	-11.8527
直語	-11.853
勝鬘經	-11.8531
入如來地	-11.8539
未曾休息	-11.8539
法所攝持	-11.8541
資生之物	-11.8543
三世諸如來	-11.855
▁六戀德禮辭	-11.8551
帝王	-11.8551
長安	-11.8551
▁初捴	-11.8556
法王子住	-11.8556
然此十	-11.8556
無功之智	-11.8556
微笑	-11.8557
摧滅一切	-11.8558
哲	-11.8558
如來藏身	-11.8559
是為魔業	-11.8559
攀	-11.8559
霑	-11.8559
丁	-11.856
諸法相即自在門	-11.856
衣服飲食	-11.856
具足方便住	-11.8561
羣品	-11.8562
無妨	-11.8568
習種	-11.857
惛	-11.857
揆	-11.857
現大神通	-11.8571
祖師	-11.8572
更求	-11.8573
其文非一	-11.8573
恩愛	-11.8574
啟蒙	-11.8575
貞元	-11.8575
佛剎微塵數世界圍繞	-11.8576
綿	-11.8578
即其事也	-11.8579
聾盲	-11.8579
宮殿樓閣	-11.8579
其中眾生	-11.858
身毛	-11.8581
一切文字	-11.8581
前中又二	-11.8582
錦	-11.8585
無盡功德藏	-11.8588
諸不善	-11.8598
軌持	-11.8603
長者子	-11.8603
億千	-11.8604
愛水	-11.8605
悔恨	-11.8607
頓演	-11.8611
能發起	-11.8614
信順	-11.8616
智度論云	-11.8616
總屬	-11.8617
四頓教	-11.8617
有淺深	-11.8617
中別義	-11.8618
爾時巳下	-11.8621
一謂菩薩生如是心	-11.8622
清淨佛剎	-11.8622
醫方	-11.8627
先舉論	-11.8631
八萬四千煩惱	-11.8633
不可稱說	-11.8634
徵云	-11.8642
如象王	-11.8643
和悅	-11.8644
悉明見	-11.8647
菩薩摩訶薩坐道場時	-11.8652
於中分三	-11.8655
不謗	-11.8655
一切諸趣	-11.8656
空閑	-11.8658
牒前起後	-11.8659
妙嚴品	-11.866
爾所劫中	-11.8664
都舉	-11.8665
因緣生滅	-11.8665
佛壽	-11.8666
大梵王	-11.8668
而未知菩薩云何學菩薩行云何修菩薩	-11.867
咸共	-11.8671
成滿一切	-11.8671
常轉法輪	-11.8671
譯經	-11.8676
無𥁞	-11.8677
焰地	-11.8678
相見道	-11.8678
若有聞	-11.8679
證成分	-11.868
次有大人相名	-11.8682
在母胎中	-11.8683
所招	-11.8684
摩尼寶光明	-11.8687
佛威神力	-11.8689
此娑婆	-11.8694
無倫匹	-11.8695
篤信	-11.8697
無殊	-11.8697
見一切佛剎清淨	-11.8699
轉大法輪	-11.87
如實相	-11.87
歌詠	-11.8703
僮僕	-11.8703
恐懼	-11.8704
檀度	-11.8705
乾竭	-11.8706
遙見佛來	-11.8708
遊觀	-11.8708
橋	-11.8708
本所事佛	-11.8711
郡	-11.8712
知一切法即心自性	-11.8714
蹈	-11.8714
探	-11.8714
無所取著	-11.8715
泣	-11.8715
一長科經意	-11.8716
▁初雙標	-11.8717
笈	-11.8717
賈	-11.8718
無去無來	-11.8718
七十七	-11.8718
具普賢行	-11.8718
肺	-11.8719
寅	-11.872
十大願	-11.8721
青黃赤白	-11.8721
康	-11.8723
技	-11.8723
悉能分別知	-11.8724
躡前起後	-11.8724
甚清淨	-11.8726
邃	-11.8726
八相成道	-11.8726
通二利	-11.8727
嶽	-11.8727
安穩	-11.8728
決志	-11.8736
二空所顯	-11.8736
豆	-11.8738
於中初句	-11.8738
變壞	-11.8743
文中有三	-11.8744
性融	-11.8744
一切寶色	-11.8745
勇猛力	-11.8746
迴向阿耨多羅三藐三菩提	-11.8748
二釋名	-11.875
何等為十所謂一切諸佛	-11.875
億數	-11.875
赤色	-11.8751
律儀戒	-11.8754
主宰	-11.8754
體性平等	-11.8755
何故唯	-11.8757
有四行半經	-11.8758
死畏	-11.8758
百箇	-11.8758
放無量光	-11.8759
不能了	-11.8761
大文第四	-11.8761
能受持	-11.8768
亦不成	-11.8769
坐道場時	-11.8771
美音	-11.8771
四十九	-11.8771
一即十	-11.8773
為何義	-11.8774
有人言	-11.8778
甚深智慧	-11.8782
事如理	-11.8782
自述	-11.8785
三謂菩薩生如是心	-11.8785
總有十	-11.879
後所謂下	-11.8792
▲	-11.8795
執手	-11.8796
為現身	-11.8797
於中有二先	-11.8798
潮	-11.8798
十力無畏	-11.8801
偏語	-11.8808
說如是法	-11.8809
表位	-11.881
緣覺乘	-11.8812
於五欲	-11.8813
華開敷	-11.8815
若准	-11.8815
得至一切處	-11.8816
之頃	-11.8819
如來右	-11.882
觀待	-11.8821
橫計	-11.8821
有四偈	-11.8821
二謂菩薩生如是心	-11.8821
亦復不見	-11.8823
祕密藏	-11.8824
不瞋	-11.8825
悉皆平等	-11.8833
示現成佛	-11.8833
歎善財	-11.8834
聰明	-11.8836
說四聖諦	-11.8837
終日	-11.8837
不怯	-11.8838
自慶	-11.8839
所說法門	-11.8839
明離障	-11.8841
以定慧	-11.8842
餘習	-11.8844
恒相續	-11.8849
少異	-11.8849
得人身	-11.885
而不捨離	-11.8852
諸佛剎土	-11.8854
依正無礙	-11.8854
持業釋	-11.8854
暉	-11.8856
所說之法	-11.8857
金剛圍山	-11.8858
勞倦	-11.8858
轉於法輪	-11.886
奉獻	-11.8862
禪門	-11.8862
於一念間	-11.8862
云何為菩薩摩訶薩	-11.8863
圓機	-11.8863
以偈讚	-11.8866
牢固	-11.8867
歌讚	-11.8867
雙辨	-11.8867
澍	-11.8868
供事	-11.8868
淤泥	-11.8868
能趣入	-11.8869
勸物	-11.887
所修善根	-11.887
香象	-11.887
善財見巳	-11.8871
加護	-11.8871
普賢三昧品	-11.8873
農	-11.8874
八十種好	-11.8874
入正位	-11.8875
大悲隨順觀	-11.8878
迥	-11.8879
產	-11.8879
如盲	-11.888
宛	-11.888
一有體	-11.888
數息	-11.888
戮	-11.8882
是則名為	-11.8882
人師子	-11.8883
溫	-11.8884
弗沙	-11.8885
無屈撓行	-11.8885
身受心法	-11.8886
兮	-11.8886
即成其佛	-11.8886
第十八	-11.8888
百倍	-11.8889
派	-11.8889
山間	-11.8891
區分	-11.8892
岳	-11.8892
脩羅	-11.8893
親近善友	-11.8893
初牒前起後	-11.8894
體絕	-11.8896
盡未來際劫	-11.8896
易簡	-11.8896
無性為性	-11.8897
隨何等	-11.8898
痴	-11.8899
何以得知	-11.8899
十通品	-11.89
集論	-11.89
得此法	-11.8902
生天上	-11.8905
剎海塵數	-11.8905
飲酒	-11.8907
頓修	-11.8908
四攝四無量	-11.8912
不可說不可說佛剎微塵數劫	-11.8918
此二不二	-11.8921
於此中	-11.8932
善哉善哉善男子	-11.8932
水精	-11.8933
大車	-11.8935
此菩薩成就	-11.8936
列十名	-11.8937
十二部	-11.8939
上二皆	-11.8941
事善知識	-11.8941
離垢藏	-11.8941
善能觀察	-11.8943
正助	-11.8943
百四十	-11.8945
婬欲	-11.8946
第二禪	-11.8948
現種種身	-11.895
五六七	-11.8952
或有國土	-11.8952
於一處	-11.8953
惡不善法	-11.8954
無障礙住	-11.8957
金色光	-11.8957
法明門	-11.8961
愚人	-11.8962
悉能分別	-11.8963
有眾多	-11.8964
忍位	-11.8966
斷二障	-11.8967
唯是一心	-11.8974
悉皆清淨	-11.8974
六行半經	-11.8976
智慧大海	-11.8977
自在神變	-11.8978
三災	-11.8979
一部之	-11.8981
講說	-11.8981
恭敬合掌	-11.8982
辯才門	-11.8984
然有二意	-11.8988
行頌明	-11.8988
而言等者	-11.8989
會師	-11.8993
正邪	-11.8993
班宣	-11.9001
以四攝法	-11.9002
次偈頌	-11.9002
興顯	-11.9004
十二門	-11.9004
通三世間	-11.9007
不疲	-11.9008
不傾動	-11.9009
或復施與	-11.901
宣布	-11.901
始終俱	-11.9012
乃至成佛	-11.9012
百世界	-11.9013
莊嚴具雲	-11.9016
梵住	-11.9018
玄文	-11.9018
度諸眾生	-11.9018
寶蓮華藏師子之座	-11.9019
隨諸眾生心之所樂	-11.9019
梵眾	-11.9019
蠲除	-11.9021
惡魔	-11.9022
膚	-11.9023
邊際不可得	-11.9023
􂘡	-11.9024
器中盛滿	-11.9025
入佛境	-11.9025
一心瞻仰	-11.9025
次有世界海	-11.9026
踈	-11.9026
成上義	-11.9027
十佛世界微塵數	-11.9027
真如平等	-11.9031
彩畫	-11.9031
第一正入當位法門中	-11.9033
離癡亂行	-11.9033
隨順堅固一切善根	-11.9033
胷	-11.9033
攝諸位	-11.9034
嗅	-11.9034
由親近善知識	-11.9036
染而不染	-11.9039
羯磨	-11.904
有五偈	-11.9041
九次第定	-11.9041
漉	-11.9041
轂	-11.9042
短劫	-11.9042
托	-11.9042
一一世界海中	-11.9042
級	-11.9043
稻	-11.9043
讚請	-11.9044
止觀雙運	-11.9044
記曰	-11.9045
計切	-11.9045
伏忍	-11.9045
祈	-11.9049
佐	-11.9049
悕望	-11.9049
權歸實	-11.905
肅	-11.9051
佛剎微塵數世界圍遶	-11.9052
焦	-11.9054
拳	-11.9054
始終二教	-11.9057
故今釋云	-11.9058
枉	-11.9058
不苦不樂	-11.9058
炭	-11.9061
啟請	-11.9061
在家出家	-11.9061
餘頌	-11.9062
頌分三	-11.9064
轉輪王位	-11.9064
祇夜	-11.9064
淨不淨	-11.9065
一切眾寶	-11.9066
九鏡	-11.9067
故名為藏	-11.9068
受持正法	-11.9068
屏	-11.9072
聖性	-11.9073
舍利弗等	-11.9075
縛解	-11.9077
在家則	-11.908
事訖	-11.908
普運	-11.9083
譬如真金	-11.9084
自分勝進	-11.9085
毒害	-11.9088
次有世界	-11.909
牛王	-11.9091
後正顯	-11.9091
乖違	-11.9092
隨染	-11.9093
有力能	-11.9097
瑠璃寶	-11.9098
餘如文自具	-11.9102
准梵本	-11.9106
卷第一	-11.9106
莫作	-11.911
一相無相	-11.911
品來	-11.9111
文有六	-11.9112
寶月	-11.9112
如實法	-11.9115
世界一劫	-11.9116
淨身口意	-11.9121
眉間出	-11.9121
段文	-11.9133
頗有	-11.9134
佛地論云	-11.9134
見如來身	-11.9143
有八句	-11.9149
目覩	-11.9152
不可說不可說佛剎極微塵數	-11.9154
無熱惱	-11.9154
迴向所為	-11.9156
雜集云	-11.9157
出胎	-11.9157
無性故空	-11.9162
有王名	-11.9163
永盡	-11.9165
貧苦	-11.9166
無錯謬	-11.9166
濡首	-11.9168
十一偈	-11.9169
但是一	-11.9172
應知如來音聲	-11.9174
有五種法則能清淨初歡喜地	-11.9174
種種名號	-11.9176
我唯知此菩薩	-11.9178
因感	-11.9178
誕	-11.9179
憶持不忘	-11.9179
後一總結	-11.9181
前四教	-11.9183
玉女	-11.9186
諸部	-11.9187
隨力隨分	-11.9187
次下當	-11.9187
鍊真金	-11.9187
深入如來	-11.9187
灌其頂	-11.9187
周匝圍繞諸佛道場一切海眾	-11.919
下句結	-11.9192
以此善根令一切眾生	-11.9192
現眾色	-11.9192
叢林	-11.9192
匪懈	-11.9192
▁二正說偈	-11.9192
化樂天王	-11.9192
一切種一切智智	-11.9193
義如前說	-11.9195
諸難處	-11.9202
成就大願	-11.9202
堅持	-11.9202
百億四天下	-11.9203
善財問	-11.9204
鎖	-11.9205
等覺位中	-11.9205
輙	-11.9206
色聲香味觸	-11.9208
觀自在菩薩	-11.9209
殷重	-11.9211
悲智相導	-11.9212
憐	-11.9212
不守自性	-11.9212
臭穢	-11.9213
砂	-11.9213
名句字	-11.9214
義旨	-11.9215
發勤精進	-11.9215
枝末	-11.9219
鶴	-11.9219
道俗	-11.922
如賢首品	-11.9222
徧覆	-11.9222
禽獸	-11.9223
普印	-11.9223
施作佛事	-11.9224
結酬	-11.9226
彌陀	-11.9226
答言善男子	-11.9227
普現法界	-11.9227
肥	-11.9228
梨耶	-11.9229
愚迷	-11.923
同頓同實	-11.9231
於中又二	-11.9232
初發菩提心	-11.9234
良藥	-11.9234
正揀	-11.9235
故作是說	-11.9236
敬養	-11.9236
華嚴經云	-11.9244
佛剎微塵數諸佛	-11.9245
誦持	-11.9246
輪字	-11.9247
善伏	-11.9247
兩字	-11.925
略有十	-11.9253
鳥跡	-11.9256
能忍受	-11.9256
生死大海	-11.9257
離繫	-11.9258
且就	-11.9261
改易	-11.9262
立此名	-11.9263
虛誑	-11.9266
作舍	-11.927
此比丘尼為說法門	-11.9271
等流果	-11.9273
阿字	-11.9273
為其母	-11.9274
通事理	-11.9275
准例	-11.9275
下三門	-11.9276
三一偈	-11.9278
直往	-11.9279
法華涅槃	-11.928
五圓教	-11.9281
諸善業	-11.9287
滅眾生苦	-11.9287
約同教	-11.9288
萬二千	-11.9289
十方一切佛	-11.9296
演說海	-11.9297
開化眾生	-11.9298
十五日	-11.9298
離憍慢	-11.9299
天人師	-11.9304
謬解	-11.9304
隱現	-11.9305
人天乘	-11.9306
偈歎	-11.9314
如是等類	-11.932
以何為	-11.932
未了	-11.9321
不免	-11.9324
其功	-11.9324
禪悅	-11.9326
不相應行	-11.9327
初歡喜地	-11.9327
攝眷屬	-11.9331
敬順	-11.9332
諸菩薩摩訶薩得此五法	-11.9337
皆不離念佛	-11.9338
為宣說	-11.9342
圓滿光雲	-11.9347
以法無礙智	-11.9347
離一切相	-11.9348
技術	-11.935
經帖可知	-11.9352
出生佛法道	-11.9353
咸在其中	-11.9354
二世樂	-11.9356
羅剎王	-11.9356
藥王樹	-11.9356
▁初說偈儀	-11.9357
▁一心頂禮	-11.9357
豈唯	-11.9357
吼聲	-11.9357
周圍	-11.9359
逈異	-11.936
此翻為	-11.936
講堂	-11.9361
踊悅	-11.9362
炳	-11.9362
求不得	-11.9365
無價寶	-11.9365
如上所	-11.9366
𦦨慧地	-11.9366
三有一偈	-11.9367
秀	-11.9368
又能如是	-11.937
熙	-11.937
如來於彼或名	-11.937
初一是總	-11.9371
事能顯理	-11.9372
註	-11.9372
如響忍	-11.9372
晚	-11.9373
後徵釋	-11.9374
閱	-11.9374
毗曇	-11.9375
芥	-11.9375
無不遍	-11.9377
經來未盡	-11.9377
教智淨	-11.9379
春秋	-11.9379
晉譯	-11.9381
方便攝行	-11.9381
蹤	-11.9383
於一身	-11.9383
孕	-11.9383
勿生	-11.9384
針	-11.9384
貨	-11.9385
午	-11.9385
矛	-11.9386
訛	-11.9387
見聞覺知	-11.9389
普賢願行	-11.9389
佛子如來應正等覺	-11.9389
以法施	-11.939
賢愚	-11.9392
▁初來意	-11.9394
興起	-11.9397
人無我	-11.9397
奉持	-11.9399
神仙	-11.94
善巧智明	-11.9404
遮詮	-11.9407
何以下徵釋	-11.9407
不思議乘	-11.9409
眾生界盡	-11.9411
常寂滅	-11.9412
有五重	-11.9413
▁初舉論	-11.9415
初文有二	-11.9421
遂令	-11.9423
十一段	-11.9423
蘂	-11.9429
融前	-11.9429
增數	-11.943
得一分	-11.9431
不謬	-11.9432
據實	-11.9434
入初地	-11.9435
不倦	-11.9436
出微妙音	-11.9445
頓圓	-11.9446
近遠	-11.945
八段	-11.9456
光宅	-11.9463
想著	-11.9464
力無礙用	-11.9466
契會	-11.9466
生住滅	-11.9468
起塔	-11.9468
心得清淨	-11.9472
捨命	-11.9474
略指	-11.9476
梵網	-11.9477
所轉法輪	-11.9477
所管	-11.948
五行半經	-11.9486
下結通	-11.9491
欣悅	-11.9491
得旨	-11.9493
離眾生相	-11.9493
緣起無性	-11.9495
為他說	-11.9495
魔梵	-11.9499
十住十行十迴向十地	-11.9499
觀察一切法	-11.95
▁初總釋	-11.95
頭面敬禮	-11.9501
重敘	-11.9502
魔道	-11.9504
又此十	-11.9505
未來劫	-11.951
如來名號	-11.9511
戀慕	-11.9513
得佛平等	-11.9513
從初發心乃至	-11.9515
釋曰此即	-11.9516
𦂶	-11.9518
繒綵	-11.952
悉無餘故發菩提心	-11.9523
何等是佛境界	-11.9524
歌舞	-11.9525
不求果報	-11.9525
誠願語	-11.9526
釋妨	-11.9527
亦不違	-11.9527
門闥	-11.9528
修習菩提行	-11.9528
得無上菩提	-11.9529
前際後際	-11.9529
天龍八部	-11.953
淨飯王	-11.953
祿	-11.9531
大方廣佛華嚴經䟽鈔會本第十	-11.9531
佛告最勝	-11.9532
善見比丘	-11.9536
玷	-11.9536
足指端	-11.9537
離欲際	-11.9538
稼	-11.9538
乞求	-11.9539
圓融自在	-11.9541
壅	-11.9543
搏	-11.9544
無上尊	-11.9545
一一國土	-11.9545
茫	-11.9548
腰	-11.9548
寒熱	-11.9548
恭敬供養一切諸佛	-11.955
▁南無西方	-11.9551
二列名	-11.9551
伽藍	-11.9552
美食	-11.9553
撓	-11.9553
隙	-11.9553
以性融相	-11.9554
唐清涼山大華嚴寺沙門澄觀撰	-11.9554
蒙佛	-11.9555
枝條	-11.9557
法性融通	-11.9558
准釋可知	-11.9561
會釋經文	-11.9561
不染著	-11.9562
次四頌	-11.9563
作此說	-11.9568
異類界	-11.9568
大盡分	-11.9572
入是三昧	-11.9575
同一體	-11.9575
莫知	-11.9578
一切菩薩諸行	-11.9578
厭患	-11.9581
其體性	-11.9583
只由	-11.9587
十二頌	-11.9588
調達	-11.9591
迷倒	-11.9592
懷疑	-11.9595
過咎	-11.9597
藏師云	-11.9597
食肉	-11.9598
訓釋	-11.96
釋總名	-11.9604
寶首	-11.9604
具列	-11.9609
因成果	-11.9611
無邊剎海	-11.9611
逈出	-11.9612
部類	-11.9612
徧周法界	-11.9615
十八種	-11.9616
第四段	-11.9624
妄識	-11.9627
有七種	-11.9629
大法明	-11.9632
字輪	-11.9634
離相迴向	-11.9635
正勤	-11.9637
依攝論	-11.9637
善士	-11.9645
冥性	-11.9645
亦二先	-11.9646
第七地中	-11.9649
初釋名者	-11.9651
如法供養	-11.9654
誡勸	-11.9656
所詮義	-11.9656
受諸苦	-11.9663
有二類	-11.9671
障礙山	-11.9671
作是說	-11.9675
示現降魔	-11.9682
乃至百億色究竟天	-11.9684
巧妙方便	-11.9684
一切處文殊師利	-11.9688
之狀	-11.9693
就初中	-11.9694
受我供養	-11.9694
而升	-11.9695
赤真珠	-11.9696
消竭	-11.9697
床座	-11.9697
映徹	-11.9698
橋梁	-11.97
瞽	-11.9701
不來不去	-11.9701
澡	-11.9702
善知眾藝	-11.9703
無有少法	-11.9704
貧賤	-11.9707
兄弟	-11.9709
即觀察如來	-11.971
十世隔法異成門	-11.9711
跛	-11.9712
䭾	-11.9713
窠	-11.9714
若生人中	-11.9715
活命	-11.9715
婆須	-11.9715
三道不斷	-11.9717
第一依教趣求	-11.9717
相似身雲	-11.9717
住胎	-11.9717
不染而染	-11.9718
所證理	-11.9718
諱	-11.9719
退還	-11.9719
家家	-11.972
不敢覆藏	-11.972
鎔	-11.9721
頓彰	-11.9723
漿	-11.9723
虔	-11.9724
嗔恚	-11.9724
溝	-11.9724
後善男子我	-11.9725
鷄	-11.9726
▁二解妨	-11.9726
勇猛幢	-11.9726
剃	-11.9726
無記法	-11.9728
遲速	-11.9728
假施設	-11.9729
敷榮	-11.9731
獨存	-11.9732
勤勇	-11.9732
縱奪	-11.9733
工業	-11.9736
欣厭	-11.9736
結德無盡	-11.9737
族姓	-11.9739
唐清涼山大華嚴寺沙門澄觀述疏	-11.974
愍傷	-11.974
該羅	-11.9741
無依無作	-11.9743
佛及菩薩	-11.9743
修六度	-11.9744
自下第三	-11.9745
華藏世界品	-11.9748
與法界等	-11.975
卵生	-11.975
往古	-11.9753
惡止	-11.9754
終南	-11.9756
下見敬諮問	-11.9757
第二會初	-11.9758
勝妙功德	-11.9758
魔眾	-11.9759
攝伏	-11.9765
能悟入	-11.9765
一切菩薩所行	-11.9775
譬如比丘	-11.9775
師資	-11.9777
彼此相	-11.9777
雙遣	-11.9778
猶存	-11.9778
曲躬合掌	-11.9783
無畏施	-11.9786
職位	-11.9786
舉因顯	-11.9787
如幻忍	-11.9788
冥加	-11.9788
一一剎中	-11.9789
苦患	-11.9791
攝受一切眾生	-11.9798
准可知	-11.9799
遂求	-11.9802
我巳先發阿耨多羅三藐三菩提心	-11.9808
大分為二	-11.9815
六行經	-11.982
代苦	-11.9821
三賢位	-11.9822
普徧十方	-11.9827
所緣緣	-11.9827
身無礙用	-11.9827
叵得	-11.9827
威德力	-11.9829
勸進	-11.9829
映蔽一切	-11.983
讚述	-11.9832
十錢	-11.9837
供養諸如來	-11.9841
七段	-11.9845
有四門	-11.9845
不相礙	-11.9846
放大光	-11.9847
得往生	-11.9848
隨類音	-11.9849
二正說	-11.985
一多相即	-11.985
欲重明此義	-11.9855
護小乘	-11.9859
千萬億	-11.986
有本云	-11.986
彼世界種中	-11.9861
遊居	-11.9861
最正覺	-11.9862
潤益	-11.9865
摩善財頂	-11.9865
論具云	-11.987
修短	-11.9871
不可思議劫	-11.9872
嵐毗尼	-11.9874
▁至心歸命禮大方廣佛華嚴經	-11.9874
頌前文	-11.9875
無虧	-11.9876
專意	-11.9877
宰	-11.9877
求索	-11.9878
錄疏注經	-11.9878
年後佛當出現	-11.9879
清涼山沙門澄觀述晉水沙門	-11.988
色雲出	-11.988
虛偽	-11.9883
微細相容安立門	-11.9884
可知邊際	-11.9884
或為眾生說	-11.9885
重擔	-11.9885
汝等當知	-11.9885
沫	-11.9886
躁	-11.9886
哀哉眾生	-11.9887
隨智慧行	-11.9887
較	-11.9887
妻子眷屬	-11.9888
三列釋	-11.9888
擎	-11.9888
稟氣	-11.9888
總別同異成壞	-11.9888
隨位進修	-11.9888
質多羅	-11.9889
廣如別章	-11.9889
腎	-11.9891
提舍	-11.9892
炙	-11.9892
圓明具德	-11.9894
校量顯勝	-11.9895
金翅	-11.9896
一成一切成	-11.9897
我唯下結	-11.9898
賓	-11.9899
澁	-11.99
成壞劫	-11.9901
與佛同	-11.9903
千年前	-11.9903
佛告阿難	-11.9905
予	-11.9905
赴感	-11.9906
無違逆	-11.9906
消文	-11.9907
地獄天子	-11.9908
一切相智	-11.9908
而有差別	-11.9909
自從無始	-11.9909
秤	-11.9909
諸毛孔	-11.9911
恐人	-11.9911
中自有	-11.9913
蝶	-11.9913
一切諸國土	-11.9914
三種意生身	-11.9914
除滅眾生	-11.9918
群機	-11.992
有三行經	-11.9921
總結多門	-11.9925
應度者	-11.9926
語言音聲	-11.9931
取蘊	-11.9933
行於世	-11.9934
潤業	-11.9938
守護正法	-11.9939
最寂靜	-11.9939
無想天	-11.9942
梵音聲	-11.9948
有何相	-11.9953
遍友	-11.9957
同生眾	-11.9959
見聞親近	-11.9966
不休	-11.9969
證實際	-11.9971
燄雲	-11.9972
喜目觀察	-11.9975
一望多	-11.9977
五位因果	-11.9985
內熏	-11.9986
苦痛	-11.9988
嚴淨一切世界	-11.9991
造罪	-11.9991
導引	-11.9994
無數品	-11.9997
治病	-12.0001
度脫一切	-12.0002
義同前	-12.0005
緣生無性	-12.0007
略舉十	-12.0009
凡夫二乘	-12.0018
疊	-12.002
波頭摩	-12.0025
滿足大願	-12.0025
空無邊處	-12.0026
難窮	-12.0026
準梵本	-12.0027
經題	-12.0035
▁二揔	-12.0039
至於彼岸	-12.004
巧密語	-12.0041
令知親近善知識	-12.0041
歎佛德	-12.0042
汝可往問	-12.0044
業性亦如是	-12.0045
無變異	-12.0045
四維上下	-12.0046
十不可說百千億那由他佛剎微塵數	-12.0048
得無盡善根	-12.0049
此有三義	-12.0049
無不包	-12.0051
倉	-12.0051
誥	-12.0051
至心歸命	-12.0053
瑙	-12.0053
所證法界	-12.0054
奉敬	-12.0056
不相雜亂	-12.0056
普德淨光	-12.006
仞	-12.0061
兩膝	-12.0062
次第行列	-12.0063
石壁	-12.0063
過現未來	-12.0063
欲界色界無色界	-12.0063
普雨法雨	-12.0064
不悔	-12.0065
稚	-12.0065
三十二相八十種好	-12.0065
眼所見	-12.0066
金光明經	-12.0067
休捨	-12.0067
如來成正覺時	-12.0068
善根所起	-12.0068
摩訶般若	-12.007
悉周遍	-12.0071
挺	-12.0073
增上意樂	-12.0073
替	-12.0074
無來往	-12.0077
勃	-12.0077
論攝為	-12.0078
穿鑿	-12.0078
我入此	-12.0079
照寂	-12.0079
讚揚	-12.0079
故今通云	-12.0081
靜處	-12.0082
夫子	-12.0082
佛地經	-12.0082
同類異類	-12.0086
兜率天子	-12.0087
皆得自在	-12.0088
善擇	-12.009
複	-12.0091
增損	-12.0092
玄談	-12.0092
尚未	-12.0095
後所謂下正顯	-12.0096
如上引	-12.0096
消息	-12.0097
當會答	-12.0097
故說一心	-12.0099
銷滅	-12.0099
千億佛	-12.0103
一乘三乘小乘	-12.0104
計度	-12.0105
照高山	-12.0105
有求眾生	-12.0108
盡虛空界	-12.0108
第二地中	-12.011
王家	-12.0111
現處王宮	-12.0111
善調	-12.0111
如幻夢	-12.0112
宅內	-12.0112
次徵	-12.0114
五百聲聞	-12.0116
閻浮提微塵數	-12.0117
而現其前	-12.0118
判教	-12.0123
引淨名	-12.0123
皆悉充滿	-12.0123
於中十句	-12.0127
甚難得	-12.0131
得法因緣	-12.0133
諸弟子	-12.0135
離過清淨	-12.0137
十八不共法	-12.0138
異生性	-12.014
萬歲	-12.0145
▁初別釋	-12.0158
善根迴向眾生	-12.0162
以佛威神	-12.0163
諸善行	-12.0163
既爾餘	-12.0164
無我我所	-12.0164
先總顯	-12.0164
速滅	-12.0167
引經證	-12.0167
無漏界	-12.017
墮惡趣	-12.0171
種種上妙	-12.0172
善根廻向	-12.0174
初釋名	-12.0182
增盛	-12.0184
初四頌	-12.0185
福城	-12.0187
成滿大願	-12.0188
義次第故	-12.0193
第二大段	-12.0194
三十九品	-12.0196
瞋惱	-12.02
十億佛剎微塵數	-12.0201
師弟	-12.0204
作是念時	-12.021
中分四	-12.0211
何故不說	-12.0212
無上正真之道	-12.0215
擁	-12.0216
至今不	-12.0218
波旬	-12.0219
令我載此乘	-12.022
憂怖	-12.0224
狐疑	-12.0224
說分中	-12.0225
是僧耶	-12.0228
略舉其	-12.0229
為求法故	-12.0229
七日七夜	-12.023
亦見彼佛	-12.023
於大眾中	-12.0231
苗稼	-12.0231
不由他	-12.0232
與授記	-12.0233
而來集會	-12.0233
▁􂗇	-12.0238
初二可知	-12.0238
波濤	-12.0239
悉皆明見	-12.0239
羽	-12.0242
陶	-12.0242
緊	-12.0243
最為殊勝	-12.0243
叩	-12.0244
迦毗羅城	-12.0245
迅疾	-12.0245
狂亂	-12.0245
入滅定	-12.0245
因陀羅網境界門	-12.0246
花嚴	-12.0246
毘舍	-12.0247
鳳	-12.0248
光遍照	-12.0249
杌	-12.0249
旃	-12.025
腨	-12.025
風災	-12.0251
鵝	-12.0251
教化成熟一切眾生	-12.0252
餘可思準	-12.0252
瞿曇	-12.0253
演說妙法	-12.0254
剛強	-12.0254
參而不雜	-12.0255
厥	-12.0257
眾寶華	-12.0257
不知不覺	-12.026
鈎	-12.026
高座	-12.026
質礙	-12.026
阿練若	-12.0261
窮來際	-12.0262
深坑	-12.0262
密訓	-12.0262
抑揚	-12.0265
縮	-12.0268
四衢	-12.0268
言語道	-12.0268
神通之力	-12.0269
精舍	-12.0269
謂有難言	-12.0271
彼二依止	-12.0271
不缺	-12.0276
各不相知	-12.0276
瑞應	-12.0277
厭惡	-12.0278
如夢忍	-12.0278
諸地功德	-12.0279
財利	-12.0279
毘曇	-12.028
二十句問	-12.0282
耆婆	-12.0282
互相攝	-12.0285
名色共	-12.0286
無量阿僧祇劫	-12.0287
和融	-12.0289
習學	-12.029
有何差別	-12.0292
乃至八萬四千	-12.0294
永離世間	-12.03
信解力	-12.0301
日沒	-12.0303
味著	-12.0309
立四教	-12.031
睡夢	-12.0315
諸聖教	-12.032
羅什	-12.0322
方便智通	-12.0322
讚佛功德	-12.0323
巧妙	-12.0334
時彼如來	-12.0338
理懺	-12.0338
難值遇	-12.0339
結縛	-12.034
照燭	-12.0349
得佛十力	-12.0358
大地獄	-12.0366
佛剎塵數世界	-12.0368
辟支佛地	-12.0369
新譯	-12.0371
帝網無盡	-12.0379
貫攝	-12.0381
如此世界中	-12.0385
悉成滿	-12.0386
放寶光明	-12.0391
香河	-12.0393
不疲厭	-12.0394
吾祖	-12.0394
▁初引論	-12.0394
第一段	-12.0398
泯絕	-12.0402
專精	-12.0405
此上過十佛剎微塵數世界	-12.0408
摩尼寶雲	-12.0409
盡未來劫修菩薩行	-12.0411
迫隘	-12.0412
曀	-12.0413
一切諸佛有無邊際	-12.0413
徧遊	-12.0414
沮	-12.0415
毀辱	-12.0416
普喜幢	-12.0418
依智論	-12.0418
設大施會	-12.0419
海月光大明菩薩	-12.0422
住兜率天	-12.0423
不相障礙	-12.0423
流入大海	-12.0423
一切諸佛眾會道場	-12.0425
杵	-12.0426
如文自明	-12.0426
錯亂	-12.0426
十回向	-12.0427
兩肩	-12.0427
繫著	-12.0428
微塵劫	-12.043
對治修行增長	-12.043
慙	-12.0431
不可測	-12.0432
燒香散華	-12.0433
法界虗空界	-12.0433
牢	-12.0433
求友	-12.0433
行餘經	-12.0434
楊	-12.0434
纂	-12.0436
依理成事	-12.0437
先喻後合	-12.0437
千輻	-12.0439
哩	-12.044
弊惡	-12.044
奴婢	-12.044
自覺聖智	-12.0441
法同喻	-12.0442
是謂菩薩慧	-12.0443
誡聽	-12.0443
遠離一切諸	-12.0443
膏	-12.0444
七處九會	-12.0444
智照無二相	-12.0444
頌半頌	-12.0446
餘九為別	-12.0447
九十五種	-12.0447
得阿羅漢果	-12.0447
慶悅	-12.0448
煞	-12.0448
隨順思惟	-12.0449
入生死海	-12.045
先標名	-12.045
憂愁	-12.0451
吳	-12.0452
教起因緣	-12.0453
苦惱眾生	-12.0454
菩薩住處品	-12.0455
無障㝵	-12.0455
眾妙香	-12.0455
經云爾時善財童子	-12.0457
收束	-12.046
果成因	-12.0461
得免	-12.0463
非了義	-12.0464
品末	-12.0467
法應如是	-12.0469
以空為	-12.0471
名色支	-12.0472
佛智海	-12.0475
俱句	-12.0476
無垢濁	-12.0476
摩尼妙寶	-12.0478
百佛世界	-12.0479
有三類	-12.048
攝化境界	-12.0482
癡翳	-12.0482
情量	-12.0487
諸賢聖	-12.0487
天子天女	-12.0487
大智大悲	-12.0488
如前所說	-12.0489
諸天人	-12.0491
斷一切疑	-12.0492
有一行半經	-12.0493
菩提場內	-12.0493
十三行經	-12.0496
自受用身	-12.0497
妙光城	-12.0498
一切法無相	-12.0499
補處	-12.05
功德之藏	-12.0503
疏文分二	-12.0506
大自在天王	-12.0507
鍊金	-12.0509
妙覺位	-12.0515
揀去	-12.0516
知一切眾生界	-12.0519
今初分三	-12.052
吾今	-12.052
道非道	-12.0524
無斷盡	-12.0524
化身雲	-12.053
不令眾生	-12.0535
一切諸波羅蜜	-12.0538
第二偈頌	-12.054
風雨	-12.0541
力無畏等	-12.0545
右脇	-12.0545
勸導	-12.0546
由此因緣	-12.0552
中具有	-12.0555
普知一切	-12.0559
依止滅	-12.0568
懈廢	-12.0578
能摧伏	-12.0578
白衣	-12.058
東晉天竺三藏佛馱跋陀羅譯	-12.0583
隨所化	-12.059
此華藏莊嚴世界海	-12.0591
具足主伴	-12.0593
如是等不可說佛剎微塵數香水海	-12.0596
卷第四十	-12.06
捴	-12.0601
過於此數	-12.0602
包攝	-12.0603
百城求法一生之內菩薩行圓為末世	-12.0608
辭退而行	-12.0608
悉能容受	-12.0609
有八行半經	-12.0611
貪染	-12.0612
峙	-12.0612
瑜	-12.0613
生疲厭	-12.0613
依真起	-12.0614
王夫人	-12.0615
琴	-12.0616
捷	-12.0617
正授法界	-12.0618
依章別釋	-12.0619
橫豎	-12.0619
從何處來	-12.0619
鎻	-12.062
泉流	-12.062
扣	-12.0622
祗	-12.0623
悉無所有	-12.0626
霜	-12.0627
戾	-12.0627
毗瑠璃	-12.0627
旃陀羅	-12.0627
諸佛子此娑婆世界	-12.0628
耽	-12.063
十信滿心	-12.063
泯絕無寄	-12.063
▁初敘昔	-12.063
留惑潤生	-12.063
若別說者	-12.0635
陷	-12.0635
信進修行	-12.0636
諸願海	-12.0637
常無常等	-12.0637
二何等下	-12.0637
摧壞	-12.0637
樹形等	-12.0638
有力無力	-12.0638
朕	-12.0639
懸隔	-12.0639
脩短	-12.064
鶖子	-12.0642
虫	-12.0642
函	-12.0644
非初非中後	-12.0646
皮肉	-12.0648
所依體事	-12.0648
親疎	-12.065
正體智	-12.065
名五法	-12.0651
文旨	-12.0651
厭倦	-12.0653
誤犯	-12.0653
頌分二	-12.0653
縱橫	-12.0655
無量無邊不可思議	-12.0655
驢	-12.0657
惑業苦	-12.0661
信增上	-12.0662
故來也	-12.0663
情塵	-12.0666
一切諸佛知一切法	-12.0668
椽等諸緣	-12.067
世情	-12.0672
祖曰	-12.0672
申敬	-12.0673
法界安立海	-12.0673
此經宗	-12.0674
不能測	-12.0677
摩尼寶網	-12.0681
二千行	-12.0682
宿主	-12.0682
無所不至	-12.069
間雜	-12.069
自性無所有	-12.069
慈恩	-12.069
縛著	-12.0692
種種欲樂	-12.0692
等無有異	-12.0693
此與前	-12.0694
閻浮檀	-12.0701
楞伽經云	-12.0703
種種言辭	-12.0704
持業釋也	-12.0708
聲聞辟支佛地	-12.0713
開為二	-12.0713
佛子是為菩薩摩訶薩	-12.0715
無想定	-12.0716
初列名	-12.0721
稱性之	-12.0721
八十億	-12.0725
隨意所	-12.0725
身肉	-12.0727
寶峯	-12.0732
諸法實性	-12.0744
略不明	-12.0748
一百八	-12.0748
於中有十	-12.0748
無齊限	-12.0749
林樹	-12.0751
根源	-12.0754
心無染著	-12.0768
隨彼所	-12.077
總有五	-12.0771
出生一切智	-12.0771
正申	-12.0772
歸敬	-12.0772
阿須倫	-12.0775
目不暫捨	-12.0776
兜率陀天王	-12.0781
訓誨	-12.0782
華冠	-12.0782
而莊嚴之	-12.0785
十方各有一大菩薩	-12.0787
難可值遇	-12.0788
碍	-12.0788
汝可觀察文殊師利	-12.0789
有八偈	-12.0791
則離貪欲	-12.0792
磨瑩	-12.0798
爾時普賢菩薩欲重宣其義	-12.0799
聽受正法	-12.08
3	-12.0801
侯	-12.0801
等一切佛迴向	-12.0803
供養之具	-12.0805
不活畏	-12.0805
萬八千	-12.0807
耽著	-12.0808
愜	-12.0808
菩薩智輪	-12.0809
無勝軍	-12.081
今當略	-12.081
忿恨	-12.081
劇	-12.0812
三乘終教	-12.0812
安住地神	-12.0813
十不善業道	-12.0813
心體離念	-12.0814
災患	-12.0814
暑	-12.0815
樞	-12.0816
揮	-12.0817
寂滅忍	-12.0819
儻	-12.082
從淺至深	-12.082
解法慢	-12.0822
慙愧	-12.0822
嚬申	-12.0822
敷座	-12.0824
旋轉	-12.0825
亭	-12.0825
萬由旬	-12.0826
醒	-12.0829
蚊	-12.0829
深心信解	-12.083
厄難	-12.0833
何妨	-12.0834
色非色	-12.0834
一切眾生心海	-12.0835
斗	-12.0836
是則可說	-12.0837
寶相輪	-12.084
諸佛護念	-12.0841
貪嗔	-12.0841
黑山	-12.0843
無高下	-12.0846
無慚無愧	-12.0846
非我所	-12.0847
不可說不可說佛剎微塵等	-12.0847
祇園	-12.0847
一切法界海	-12.0849
宗旨	-12.0851
徃來	-12.0855
方成緣起	-12.0857
不變異	-12.0857
具大威德	-12.0858
今此文中	-12.0859
布施持戒	-12.086
眉間放光	-12.0861
卷末	-12.0873
不正思惟	-12.0879
色即空	-12.0879
同體大悲	-12.0882
白毫相	-12.0884
九箇	-12.0885
無猒	-12.0887
濟物	-12.0888
皆悉了知	-12.0893
勤修精進	-12.0894
重玄	-12.0896
▁初自分	-12.0901
權實無礙	-12.0901
樹枝	-12.091
古人云	-12.0911
令生信	-12.0914
胎藏	-12.0917
此上諸義	-12.0918
如是迴向時	-12.092
無縛無著解脫	-12.0921
欲求眾生	-12.0922
彼有菩薩	-12.0924
救拔	-12.093
正路	-12.0932
皆無自性	-12.0934
偈分三	-12.0934
摩尼寶藏	-12.0935
初一總明	-12.0946
』	-12.0946
及餘無量	-12.0947
劫中有	-12.0962
周給	-12.0964
妙辯才	-12.0969
閑靜	-12.0976
火焚	-12.0978
字句	-12.0978
於所修行生	-12.098
老病	-12.098
際畔	-12.0983
所依怙	-12.0984
殷勤瞻仰	-12.0986
以諸善根如是迴向所謂願一切眾生	-12.0987
而供養之	-12.0987
佛剎為一日一夜	-12.0988
以何方便	-12.0988
人與非人	-12.0991
。」△	-12.0995
略有二義	-12.0996
各於佛所	-12.0996
斡	-12.0997
㗚	-12.0998
又釋此	-12.0998
徧滿十方界	-12.0999
眉間毫相	-12.1001
湧	-12.1002
阿惟越致	-12.1002
勾	-12.1003
申右手	-12.1003
乃往古世過	-12.1003
嚬	-12.1004
祠	-12.1005
粒	-12.1006
庠	-12.1007
季	-12.1008
俾	-12.101
非有想非無想	-12.1011
身諸毛孔	-12.1013
鹿苑	-12.1014
齅	-12.1014
悉令滿足	-12.1014
哆	-12.1015
同於諸佛	-12.1015
摸	-12.1016
修因契果生解分	-12.1017
光明以為眷屬	-12.1017
卯	-12.1018
朽	-12.1018
抵	-12.1018
得果不捨因	-12.1018
厭行分	-12.1018
後所謂下別顯	-12.1019
如化忍	-12.102
令信心者	-12.102
耐	-12.102
阿陀那識	-12.1022
八十卷	-12.1022
兄	-12.1023
引當經	-12.1023
不覺不知	-12.1023
振動	-12.1024
弄	-12.1024
禍福	-12.1024
真俗二諦	-12.1024
機宜	-12.1027
慈母	-12.1027
不斷三寶	-12.1031
遺教	-12.1032
熱鐵	-12.1032
熏成種	-12.1034
自受用土	-12.1034
有七行半經	-12.1035
天上人間	-12.1036
擁護	-12.1037
要期	-12.104
苦聖諦	-12.1043
十六句	-12.1045
後半頌	-12.1052
當知亦爾	-12.1054
無諸垢	-12.1055
示相答	-12.1056
光燄	-12.1058
餘如前說	-12.1058
愍哀	-12.1059
純雜無礙	-12.1072
十行十迴向	-12.1073
除遣	-12.1075
維摩經云	-12.1077
彼大王	-12.1081
均平	-12.1081
諸行無常	-12.1096
一乘圓教	-12.1098
貫通	-12.1101
方等經	-12.1103
勘梵本	-12.1103
現身說法	-12.1105
思之可知	-12.1108
令其歡喜	-12.1111
廣果天	-12.1113
宣示	-12.1117
一合相	-12.1118
已下一段	-12.1121
賴耶識	-12.1123
魔宮	-12.1126
辟支佛乘	-12.1128
歿生	-12.1132
法身本智	-12.1133
毗盧遮那品	-12.1139
識為種	-12.1139
一一如來所	-12.1148
以經帖	-12.115
請轉法輪	-12.1157
無暫捨	-12.1164
寶師子座	-12.1164
諸吉祥中最	-12.1172
他受用身	-12.1175
又能出生一切智性	-12.1176
肢	-12.1181
薪曰	-12.1184
天音樂	-12.1184
我悉曾供養	-12.1186
全収	-12.1186
頭頂禮敬	-12.1188
網羅覆其身	-12.119
隨其所須	-12.1193
▁二別示	-12.1193
開敷一切樹華	-12.1193
菩提之心亦復如是	-12.1193
屍	-12.1194
韋	-12.1195
忍辱柔和	-12.1197
我願乃盡	-12.1197
牖	-12.1199
變礙	-12.1201
令其聞者	-12.1203
徧處定	-12.1204
竿	-12.1205
赤銅	-12.1205
舉例	-12.1206
候	-12.1206
仲	-12.1207
人中尊	-12.1207
大人之相	-12.1208
翫	-12.1209
臻	-12.1209
依徵廣釋	-12.121
屢	-12.121
故云爾也	-12.1211
陟	-12.1212
昔所未	-12.1212
善住比丘	-12.1212
犬	-12.1213
寺沙門	-12.1213
古今諸佛	-12.1213
葛	-12.1214
頰	-12.1214
資粮	-12.1214
犁	-12.1214
諷	-12.1215
鄉	-12.1215
格	-12.1215
即智之悲	-12.1218
貯積	-12.1219
松	-12.1221
社	-12.1221
賞	-12.1222
非先有	-12.1222
今但取	-12.1224
澄清	-12.1225
和雅	-12.1225
六欲天	-12.1226
犍	-12.1229
初地巳上	-12.123
叫	-12.1232
未曾一念	-12.1238
一塵內	-12.1242
將導	-12.1245
怨家	-12.1246
末香雲	-12.1247
出生一切諸	-12.1248
􂗷	-12.1248
十信位中	-12.1248
新熏	-12.1249
十不可說佛剎微塵數	-12.125
謹對	-12.125
心所念	-12.1253
千差	-12.1255
乃至老死	-12.1257
中十一句	-12.1264
出妙香	-12.1281
緣起相由門	-12.1283
坐菩提樹	-12.1288
未審	-12.1291
不疲倦	-12.1293
暫停	-12.1298
三世古今	-12.1299
謙巳	-12.1302
秦言	-12.1304
無量億劫	-12.1305
有大勢力	-12.1308
利益支	-12.131
此云何知	-12.131
邪定相	-12.131
摩尼寶珠	-12.131
供養無量佛	-12.132
▁三釋文	-12.1325
誠實	-12.1328
勝義諦	-12.1338
聲如響	-12.134
先結前生後	-12.136
親族	-12.1368
百由旬	-12.1373
引論釋	-12.1376
詞無礙	-12.138
地前三賢	-12.138
毘梨耶波羅蜜	-12.1384
法智通	-12.1388
乃往古世	-12.1388
不可限量	-12.1391
汝應勤修	-12.1397
正希望	-12.1397
儔	-12.1398
皮膚	-12.1398
普現一切眾生前	-12.1398
諸菩薩摩訶薩應如是見	-12.1399
乃至為一切智智依止者	-12.14
戀著	-12.14
▁一心奉請	-12.14
依教趣求	-12.1401
極樂世界	-12.1401
金剛力士	-12.1403
積集一切善根	-12.1403
初結前標後	-12.1404
珊	-12.1405
不可傾動	-12.1406
獄囚	-12.1406
十七行經	-12.1407
沃	-12.1408
甲冑	-12.1408
毘沙門	-12.141
起具因緣	-12.141
能作佛事	-12.141
楞	-12.1411
渚	-12.1412
分別解說	-12.1412
如來涅槃亦如是	-12.1416
欝	-12.1416
踴	-12.1417
襲	-12.1417
帛	-12.1418
長者李通玄	-12.1419
偷盜	-12.1419
傷害	-12.1419
月十六日	-12.1419
亘	-12.1419
正顯問端	-12.142
隘	-12.1421
攻	-12.1421
以何義故	-12.1421
唯證相應	-12.1422
悲智雙運	-12.1422
殆	-12.1423
吸	-12.1424
甚為難	-12.1425
示行七步	-12.1425
真空絕相	-12.1428
俱舍頌云	-12.1429
溪	-12.143
親承	-12.143
狼	-12.1431
空中無色	-12.1438
四門同前	-12.144
攝相歸	-12.144
成無上道	-12.144
總相會通	-12.1441
祕藏	-12.1441
利刀	-12.1444
佛智亦如是	-12.1445
生如是心	-12.1445
隣近	-12.1454
不相雜	-12.1455
度生死海	-12.1459
悅可	-12.1459
闍王	-12.1459
隨好光明	-12.1465
怨害	-12.1468
入母胎	-12.1469
惑亡	-12.1469
兵眾	-12.1469
久習	-12.1471
無表色	-12.1472
約一乘別教	-12.1473
五門分別	-12.1475
佛不思議法品	-12.1475
供讚	-12.1482
其相云何	-12.1486
愚惑	-12.1486
臆說	-12.1487
一切諸佛皆悉具足	-12.149
一一位中	-12.1491
十四行半經	-12.1496
最第一	-12.1497
不生疲厭	-12.1498
寂用自在	-12.1499
幾何	-12.15
包容	-12.1502
沈掉	-12.1505
緣生故空	-12.1516
約所詮	-12.1522
理即事	-12.1528
十句可知	-12.1529
隨法行	-12.1534
雙寂	-12.1537
前白佛言	-12.1543
受胎	-12.1544
正受三昧	-12.1551
或見讚說	-12.1557
釋氏	-12.1559
作是念巳	-12.1565
近善友	-12.1567
流傳	-12.1584
發無量無邊廣大心	-12.1588
心無疲倦	-12.1589
如來現相品	-12.1596
匱	-12.1598
殖	-12.1598
摩尼寶蓮華座	-12.1598
未曾忘失	-12.1599
三藐三菩提	-12.16
於其座上	-12.1603
供養承事	-12.1606
總結成益	-12.1607
􂗆	-12.1607
略敘	-12.1607
釋梵護世	-12.1608
闡揚	-12.1609
能知此方便	-12.1609
卿	-12.1612
决定	-12.1614
枷	-12.1614
詣其所	-12.1615
繕	-12.1615
若生人中得二種果報	-12.1615
得二種果報	-12.1615
觀世音菩薩摩訶薩	-12.1615
攝為三	-12.1615
不染世法	-12.1615
它	-12.1616
先法後喻	-12.1616
閙	-12.1617
各各不相知	-12.162
菩提心金剛亦復如是	-12.1622
須彌山微塵數劫	-12.1622
安詳	-12.1623
憚	-12.1623
籌	-12.1624
我已成就	-12.1624
婆樓那	-12.1625
輟	-12.1625
普現其前	-12.1625
善不善無記	-12.1626
凌	-12.1626
從凡夫地	-12.1627
五百童女	-12.1629
復有四法	-12.163
閡	-12.163
不生不滅是無常義	-12.163
摶	-12.163
鄭	-12.1632
牧	-12.1632
卜	-12.1632
從無始來	-12.1633
護小心	-12.1633
擲	-12.1634
此城中	-12.1635
是謂菩薩摩訶薩	-12.1635
常與無常	-12.1635
即斯義也	-12.1635
伺察	-12.1636
尚不能	-12.1639
喉	-12.1639
自恣	-12.1641
清潔	-12.1641
絲	-12.1642
癡冥	-12.1649
所信因果	-12.1649
菓	-12.165
薄福	-12.1652
方隅	-12.1652
海門國	-12.1653
不可數劫	-12.1654
一一佛前	-12.1655
▁二釋經文	-12.1666
朗然	-12.1669
長老	-12.167
嚴潔	-12.1673
同名法慧	-12.1674
諸度無極	-12.1676
異生眾	-12.1676
念念生滅	-12.1678
四十二位	-12.1678
無有增減	-12.1681
不住無為	-12.1684
三賢十地	-12.1685
四正勤	-12.1687
王四天下	-12.1689
不共二乘	-12.1692
優鉢羅	-12.1694
十八句	-12.1695
鬘蓋	-12.1699
乖理	-12.1702
無所不在	-12.1708
所至處	-12.1719
列十門	-12.1721
引二經	-12.1721
於中分四	-12.1724
知一切眾生諸根	-12.1729
十萬偈	-12.1729
娑婆界	-12.1736
了知一切諸法	-12.174
華蘂	-12.1741
無法可	-12.1758
發菩提之心	-12.1786
總徵	-12.1787
究暢	-12.1788
示行苦行	-12.179
含二義	-12.1795
詣道場時	-12.1795
不失自性	-12.1797
常放光明	-12.18
衢	-12.1803
次第復有劫	-12.1803
〕-【	-12.1804
十番	-12.1805
神之解脫	-12.1805
若有應見	-12.1806
+	-12.1806
青蓮	-12.1808
池沼	-12.181
一乘別教	-12.1811
大願精進力救護一切眾生	-12.1814
三行經	-12.1815
悲泣流淚	-12.1815
去此不遠	-12.1816
嫌恨	-12.1817
璫	-12.1817
瞻奉	-12.1817
憂悲苦惱	-12.1819
篤	-12.1821
㲉	-12.1821
嚴持香華	-12.1821
耗	-12.1822
▁初牒經立名	-12.1822
降臨	-12.1822
矴	-12.1822
栗	-12.1822
目髮紺青	-12.1824
迦毘羅城	-12.1824
引攝論	-12.1825
來此會	-12.1825
舉足下足	-12.1825
推德升進	-12.1825
謟	-12.1826
無增無減	-12.1827
宴	-12.1827
大方廣佛華嚴	-12.1828
難陀龍王	-12.1829
上之十	-12.1829
自見其身	-12.1831
根本後得	-12.1831
十九行半經	-12.1831
鬻香長者	-12.1832
黠	-12.1832
所施物	-12.1832
諧	-12.1832
疫	-12.1833
薦福	-12.1835
中句別有	-12.1836
龕	-12.1836
裸形	-12.1839
熈	-12.1839
百劫千劫	-12.184
所言苦滅道聖諦者	-12.184
唯願世尊	-12.1841
卓	-12.1841
銜	-12.1842
揭	-12.1842
童子童女	-12.1842
根本普光明智	-12.1842
操	-12.1843
恠	-12.1843
篋	-12.1843
潭	-12.1844
缾	-12.1844
亮	-12.1845
文有四節	-12.1845
有中殊勝行	-12.1845
自相共相	-12.1845
啼	-12.1847
迷悶	-12.1848
樹木	-12.1848
曹	-12.185
色即是空	-12.1851
即事之理	-12.1851
慈悲本願	-12.1852
以理融事	-12.1853
該收	-12.1854
成熟有情	-12.1855
理望事	-12.1855
文中分二	-12.1856
問起發	-12.1857
有三行半經	-12.1858
有十行半經	-12.186
舉法請	-12.1861
此教中	-12.1862
開方便門	-12.1865
善財一生	-12.1865
發大菩提心	-12.1866
買	-12.1869
支提	-12.187
是此義也	-12.1872
淺近	-12.1872
入深法界	-12.1872
申請所求	-12.1873
魔波旬	-12.1875
常為諸佛	-12.1876
頂戴	-12.1877
生渴仰	-12.1877
程	-12.1878
究盡	-12.1878
末世眾生	-12.1879
伴侶	-12.1879
見者無厭	-12.1879
虗誑	-12.188
攝眾生戒	-12.1882
大眾部	-12.1884
是因義	-12.1884
轉更增	-12.1892
若有若無	-12.1897
尚爾	-12.1899
地巳去	-12.1902
金沙	-12.1904
天皷	-12.1904
恒沙功德	-12.1904
是出家人	-12.1905
從佛聞	-12.1905
令入佛法	-12.1907
百俱胝	-12.1908
定性二乘	-12.1911
十四頌	-12.1912
精進慧菩薩	-12.1918
灌頂位	-12.1937
虛寂	-12.1941
告言善男子	-12.1946
次句頌	-12.1948
互相資	-12.1953
山川	-12.1953
所逼	-12.1956
結成上義	-12.1956
華纓	-12.1962
偈辭	-12.1966
相海品	-12.1971
塔寺	-12.1978
妓	-12.1979
令出生死	-12.1989
妙德幢	-12.2001
他妻	-12.2002
起如是心	-12.2007
億百千姟	-12.2007
眾德本	-12.2011
短命	-12.2012
毘瑠璃	-12.2012
諸大願海	-12.2014
▁二引論	-12.2017
。「『	-12.2022
如聚墨	-12.2025
五熱炙身	-12.2026
更有異	-12.2027
如來即為示現	-12.2028
跏趺	-12.2031
村營	-12.2031
三昧雷聲	-12.2034
遍照法界	-12.2035
姝	-12.2036
如來性起妙德菩薩	-12.2036
往詣其所	-12.2036
]	-12.2037
獲善利	-12.2037
半月一月	-12.2037
頓門修證軌範善財菩薩摩訶薩	-12.2039
芬馥	-12.2039
靣	-12.204
第四釋文	-12.204
千手千眼	-12.204
以為光明臺	-12.204
常在其中而演說法	-12.2041
7	-12.2041
廣大喜莊嚴解脫	-12.2042
黎耶	-12.2043
汲	-12.2044
奉迎	-12.2045
有十一行經	-12.2046
區	-12.2047
託事顯法生解門	-12.2048
其巳久如	-12.2048
酉	-12.2049
讖	-12.2049
有一聚落	-12.205
纂靈記	-12.205
惶	-12.2051
有所須	-12.2051
十八行經	-12.2054
十不善道	-12.2055
貪欲瞋恚	-12.2055
壑	-12.2056
浣	-12.2056
漂流	-12.2057
同時意識	-12.2057
誡聽許說	-12.2058
親戚	-12.2061
處童子地	-12.2061
顯因廣大相	-12.2062
普賢菩薩行願	-12.2062
因緣所生法	-12.2062
非斷非常	-12.2063
清濁	-12.2063
心行處滅	-12.2063
用而常寂	-12.2064
父母兄弟	-12.2065
筭數	-12.2066
先小後大	-12.2066
受位分	-12.2066
本有今無	-12.2066
頌位果	-12.2066
無始巳來	-12.2068
交涉	-12.2068
爐	-12.2068
一時頓演	-12.207
傳寫	-12.207
西南	-12.2073
與我同	-12.2074
有一國土	-12.2074
愚法二乘	-12.2076
中復二	-12.2081
鹿園	-12.2081
脈	-12.2083
冥符	-12.2083
金光明云	-12.2086
柔順	-12.2087
壽量海	-12.2093
頌中十偈	-12.2093
半偈頌	-12.2095
更有餘	-12.2096
遇道場	-12.21
勝鬘云	-12.2111
俱不俱	-12.2114
其義云何	-12.2115
一入多	-12.2122
初發心功德品	-12.2133
千葉	-12.2133
▁初總科	-12.2162
無縛著	-12.2171
珍奇	-12.218
興慈	-12.2181
禮辭	-12.2191
莊嚴而自莊嚴	-12.2196
華藏界	-12.2202
明位果	-12.2213
慈哀	-12.2214
入不思議解脫境界普賢行願品	-12.2243
於彼如來大眾海中	-12.2246
明淨日	-12.2247
其最近輪圍山香水海	-12.2247
瞖	-12.2249
與金剛幢世界齊等	-12.2249
百千萬億那由他劫	-12.2253
化群生	-12.2253
一生所繫	-12.2253
無明滅行滅	-12.2254
諸來菩薩	-12.2254
安隱快樂	-12.2256
是戒耶	-12.2256
我身是也	-12.2258
鑒徹	-12.226
善權方便	-12.226
寂靜音海夜神	-12.2261
各胡跪	-12.2261
網縵	-12.2262
市肆	-12.2264
香水河	-12.2265
倍增	-12.2266
爾時普賢菩薩復告大眾言諸佛子	-12.2266
重頌前法	-12.2267
鬻	-12.2268
咸放光明	-12.2269
是菩薩遊戲	-12.2269
盲冥	-12.2269
翔	-12.2269
所招依果	-12.227
如說能行	-12.227
哀愍攝受	-12.2271
瞿波女	-12.2271
鬼魅	-12.2271
譏嫌	-12.2273
麤獷	-12.2273
頗梨	-12.2274
懶	-12.2274
滋味	-12.2274
至文當	-12.2275
貯	-12.2275
舍衛國	-12.2275
指斥	-12.2276
搆	-12.2276
實叉難陀	-12.2277
膜	-12.2278
刪	-12.2279
苦集滅道	-12.2279
我當云何能知	-12.2279
坤	-12.2282
裕	-12.2283
魔軍眾	-12.2283
四聖諦品	-12.2283
瓦石	-12.2284
眉間白毫相	-12.2284
擯	-12.2284
無相為相	-12.2285
中間三教	-12.2286
耎	-12.2286
巽	-12.2286
謂標釋結	-12.2286
三性三無性	-12.2287
慶遇	-12.2288
佞	-12.2289
即理之事	-12.229
初半偈	-12.2292
摧邪	-12.2293
無所遺	-12.2294
厭離有為	-12.2295
開士	-12.2296
會色歸空	-12.2297
星宿幢	-12.2298
懇	-12.2299
三僧祇劫	-12.23
不盡有為	-12.2301
二頌頌	-12.2302
法界悉充滿	-12.2303
有財釋	-12.2304
密迹	-12.2306
譬如日月	-12.2309
普照一切世界	-12.2311
發廣大心	-12.2312
於一法中	-12.2313
勝鬘經云	-12.2313
譬如真如體性	-12.2314
不他生	-12.2318
長阿含	-12.2322
初總辨	-12.2324
答不也	-12.2326
隨所樂	-12.2329
餘句別	-12.2331
寶網彌覆其上	-12.2332
大乘始教	-12.2334
他化自在	-12.2337
眼耳鼻舌身意	-12.234
太虗	-12.234
逈超	-12.2348
佛法僧寶	-12.2362
善財童子禮	-12.2385
第七遠行地	-12.2397
諸佛及諸菩薩	-12.24
可破壞	-12.2409
生死曠野	-12.2411
二百五十	-12.2414
禪定解脫三昧	-12.2418
花嚴經	-12.242
[...]
