<unk>	0
<s>	0
</s>	0
之	-4.2004
以	-4.59605
/	-4.63534
為	-4.70096
而	-4.87437
(	-4.92696
)	-4.9684
也	-5.09926
其	-5.31392
有	-5.3293
曰	-5.36231
者	-5.4237
王	-5.42416
不	-5.45888
子	-5.52479
於	-5.59047
人	-5.62248
▁	-5.64096
與	-5.64809
及	-5.88587
)(	-5.89273
大	-5.90013
自	-5.92792
至	-5.97019
上	-5.97569
于	-5.97738
使	-5.98043
無	-6.01081
時	-6.01305
事	-6.02311
一	-6.06117
乃	-6.07673
則	-6.07817
中	-6.11105
公	-6.12455
行	-6.18309
言	-6.18653
故	-6.19561
又	-6.20403
所	-6.21437
皆	-6.21748
見	-6.26089
國	-6.28618
出	-6.29115
在	-6.3028
氏	-6.30769
令	-6.30915
帝	-6.33829
後	-6.35495
遂	-6.37018
復	-6.37107
立	-6.37945
相	-6.38199
三	-6.38292
入	-6.39609
等	-6.42892
州	-6.44682
文	-6.46021
今	-6.46611
將	-6.46669
生	-6.46896
從	-6.48563
道	-6.49326
矣	-6.49739
亦	-6.49973
兵	-6.50336
元	-6.51162
得	-6.51633
下	-6.55587
此	-6.55759
書	-6.55971
欲	-6.56095
死	-6.57522
知	-6.58708
城	-6.58996
臣	-6.59047
二	-6.61091
封	-6.6174
君	-6.63766
作	-6.65224
陳	-6.65782
如	-6.66174
齊	-6.66557
謂	-6.66847
平	-6.67389
請	-6.67679
非	-6.67947
明	-6.68324
周	-6.70715
成	-6.70819
軍	-6.71073
官	-6.7138
安	-6.7139
用	-6.73119
因	-6.73371
當	-6.74146
多	-6.74208
乎	-6.74943
命	-6.74982
名	-6.76328
我	-6.77921
初	-6.78075
是	-6.7813
山	-6.78152
五	-6.78466
天	-6.78632
焉	-6.79569
卒	-6.81346
歸	-6.81959
張	-6.82004
可	-6.83136
南	-6.83775
必	-6.83863
長	-6.84376
方	-6.8513
正	-6.85306
已	-6.85481
民	-6.86248
何	-6.86912
年	-6.87791
同	-6.87835
若	-6.88555
秦	-6.8865
居	-6.8904
李	-6.90714
云	-6.90758
即	-6.9082
還	-6.91131
地	-6.91445
晉	-6.91607
以為	-6.91762
諸	-6.92672
日	-6.93876
魏	-6.93904
聞	-6.94034
家	-6.94257
四	-6.94265
侯	-6.94402
馬	-6.94595
先	-6.94772
禮	-6.94981
然	-6.95469
去	-6.96156
傳	-6.96407
殺	-6.96767
世	-6.97367
重	-6.97414
漢	-6.98472
詔	-6.98483
守	-6.99144
西	-6.99622
劉	-6.99634
父	-6.99766
未	-6.99864
楚	-7.00851
武	-7.01079
水	-7.01286
吾	-7.01561
師	-7.02
主	-7.02124
取	-7.02163
宋	-7.03003
士	-7.031
進	-7.03395
東	-7.03811
常	-7.04019
善	-7.04486
遣	-7.04588
既	-7.04772
賊	-7.05013
始	-7.06062
通	-7.06754
義	-7.07094
趙	-7.07264
遷	-7.07413
北	-7.07674
徳	-7.09624
能	-7.10619
字	-7.11074
陽	-7.11767
伯	-7.13342
法	-7.13488
且	-7.13812
前	-7.13913
數	-7.14093
天下	-7.14104
舉	-7.14928
定	-7.15951
内	-7.15956
拜	-7.16417
衆	-7.17247
梁	-7.17834
加	-7.18188
並	-7.1825
門	-7.18395
縣	-7.18687
朝	-7.19093
分	-7.19431
将	-7.196
服	-7.19709
㑹	-7.20545
求	-7.20625
起	-7.20675
石	-7.20756
雖	-7.21109
興	-7.21535
問	-7.21862
髙	-7.22052
心	-7.22362
親	-7.23805
夫	-7.24254
樂	-7.24275
稱	-7.24319
甚	-7.24382
六	-7.25134
弟	-7.25403
少	-7.25835
反	-7.26345
盡	-7.26839
史	-7.26909
宗	-7.27746
置	-7.28519
金	-7.28586
不可	-7.29057
不能	-7.29198
食	-7.30184
白	-7.30327
外	-7.30374
治	-7.30377
來	-7.30475
政	-7.30514
九	-7.30519
制	-7.30807
爲	-7.3088
降	-7.31364
賜	-7.31469
受	-7.31614
坐	-7.3186
過	-7.32089
和	-7.32288
田	-7.33056
信	-7.33093
小	-7.33366
光	-7.33777
攻	-7.33989
意	-7.34027
或	-7.34153
母	-7.34225
宜	-7.34261
位	-7.34329
發	-7.34405
府	-7.35111
鄭	-7.35239
奉	-7.35522
女	-7.35936
論	-7.36414
議	-7.36575
亡	-7.37655
都	-7.38432
郡	-7.38668
難	-7.38921
唐	-7.39454
敗	-7.3971
孫	-7.40194
魯	-7.40194
經	-7.4057
代	-7.41092
任	-7.4133
尚	-7.41415
除	-7.42067
宫	-7.42109
合	-7.42324
左	-7.42827
祖	-7.43025
謀	-7.4363
本	-7.44136
三年	-7.44788
亂	-7.45348
權	-7.45444
改	-7.45455
車	-7.45491
元年	-7.46352
好	-7.46371
失	-7.46904
夏	-7.47124
賢	-7.47906
益	-7.48066
逺	-7.48379
實	-7.48517
召	-7.48553
應	-7.48832
陵	-7.49038
廣	-7.49223
身	-7.49548
耳	-7.49808
易	-7.49869
奏	-7.50083
深	-7.50468
辭	-7.51075
八	-7.51672
學	-7.52159
直	-7.5245
共	-7.52467
志	-7.52723
太子	-7.52963
衛	-7.52963
力	-7.53034
思	-7.53101
太守	-7.53209
神	-7.5333
清	-7.53353
異	-7.53726
固	-7.53828
古	-7.54088
建	-7.54477
獨	-7.54681
韓	-7.5474
景	-7.54769
戰	-7.55157
破	-7.55338
龍	-7.5556
撰	-7.55917
惟	-7.55992
吏	-7.56202
吳	-7.56599
處	-7.57162
河	-7.57169
於是	-7.57365
卿	-7.57473
功	-7.57701
告	-7.57707
忠	-7.57714
二年	-7.58422
嘗	-7.58711
率	-7.59046
語	-7.59767
孝	-7.60073
猶	-7.60337
許	-7.6057
章	-7.60648
授	-7.60658
伐	-7.60671
諸侯	-7.60938
各	-7.61605
宣	-7.61642
計	-7.61821
右	-7.62119
表	-7.62336
聲	-7.62452
黄	-7.62493
鎮	-7.63022
不得	-7.63056
楊	-7.6315
十	-7.6318
邑	-7.63249
哉	-7.63509
物	-7.63981
七	-7.64502
昭	-7.6537
風	-7.65397
執	-7.6553
土	-7.65661
后	-7.65673
度	-7.65762
誅	-7.65917
利	-7.66216
屬	-7.67403
敬	-7.67448
罪	-7.67629
引	-7.67722
疾	-7.68117
貴	-7.68493
節	-7.6853
燕	-7.68548
每	-7.69323
次	-7.69392
理	-7.69484
止	-7.6958
留	-7.69949
臨	-7.70218
華	-7.70291
修	-7.70532
胡	-7.70621
説	-7.70816
間	-7.71085
領	-7.71129
罷	-7.72064
絶	-7.72131
凡	-7.72584
口	-7.72599
江	-7.72679
致	-7.72962
仁	-7.73165
越	-7.73515
觀	-7.7357
更	-7.73758
威	-7.74385
恐	-7.74607
勝	-7.74627
嗣	-7.74765
新	-7.74993
徐	-7.75241
兼	-7.75438
徙	-7.75565
叔	-7.76173
擊	-7.76441
首	-7.76457
省	-7.76693
望	-7.76706
曹	-7.76718
氣	-7.77315
兩	-7.7743
號	-7.776
開	-7.77679
終	-7.78085
集	-7.78708
免	-7.79012
衣	-7.79222
部	-7.79331
廢	-7.79344
路	-7.79727
并	-7.79755
大夫	-7.79802
俱	-7.80031
將軍	-7.80405
舊	-7.8052
圖	-7.81269
御	-7.82183
妻	-7.82359
左右	-7.82473
朱	-7.82571
惡	-7.8261
老	-7.8287
音	-7.83056
别	-7.83109
圍	-7.83328
便	-7.83578
德	-7.8362
而不	-7.83767
流	-7.83843
就	-7.84236
餘	-7.84243
百	-7.8458
幸	-7.84879
司	-7.85185
太祖	-7.85331
病	-7.85331
性	-7.85368
據	-7.86014
紀	-7.8605
保	-7.86105
討	-7.86423
走	-7.86495
崇	-7.8667
悉	-7.86871
高	-7.87003
獻	-7.87034
姓	-7.87633
遇	-7.8788
盛	-7.87928
記	-7.88082
厚	-7.88124
/)	-7.88457
玉	-7.88677
萬	-7.88957
收	-7.89086
備	-7.89134
素	-7.89136
仲	-7.89377
雲	-7.89398
承	-7.89756
比	-7.90127
登	-7.90156
納	-7.90228
公子	-7.90386
謝	-7.90529
夷	-7.9056
濟	-7.90618
刑	-7.90682
延	-7.91442
疑	-7.91519
顯	-7.91746
著	-7.91815
昌	-7.91899
滅	-7.91924
邪	-7.91965
永	-7.92058
怒	-7.92221
送	-7.92255
懼	-7.9237
良	-7.92699
順	-7.92798
皇	-7.93061
天子	-7.93071
典	-7.93392
咸	-7.93877
奔	-7.94235
遺	-7.94289
儀	-7.94428
林	-7.94459
載	-7.94459
嚴	-7.94632
火	-7.9467
轉	-7.9478
營	-7.94804
懐	-7.94861
原	-7.94928
教	-7.9508
被	-7.95096
果	-7.95733
尚書	-7.95879
汝	-7.96292
案	-7.9633
聖	-7.96334
私	-7.96459
歴	-7.96488
克	-7.96675
客	-7.97161
往	-7.97243
解	-7.97453
近	-7.9755
逆	-7.97955
商	-7.98079
爾	-7.98142
切	-7.98186
隨	-7.98311
木	-7.98606
報	-7.98704
夜	-7.98787
變	-7.98861
海	-7.9902
追	-7.99035
里	-7.99072
四年	-7.99328
不敢	-7.99465
伏	-7.9949
才	-7.99502
廟	-7.99527
視	-7.99897
布	-7.99935
敵	-7.99981
尊	-8.00293
職	-8.00424
豈	-8.00522
太	-8.01137
所以	-8.01138
交	-8.01321
業	-8.01352
百姓	-8.0174
附	-8.02393
具	-8.02439
錢	-8.02604
之後	-8.02643
退	-8.02713
薨	-8.03129
足	-8.03241
恩	-8.03894
要	-8.04359
迎	-8.04859
慶	-8.04959
列	-8.04995
動	-8.05015
由	-8.05258
襲	-8.05572
唯	-8.05581
太后	-8.05621
選	-8.0609
斬	-8.06134
寧	-8.06278
急	-8.0663
祭	-8.06921
喜	-8.07048
持	-8.07487
約	-8.07494
隂	-8.07772
月	-8.07988
願	-8.08067
乗	-8.08382
詩	-8.08773
春	-8.09271
愛	-8.09383
連	-8.09697
色	-8.09721
禁	-8.09725
象	-8.09885
叛	-8.0992
彊	-8.10003
室	-8.10411
會	-8.10462
器	-8.10791
屯	-8.10844
容	-8.11005
尋	-8.11465
酒	-8.11522
誠	-8.11536
怨	-8.11596
兄	-8.11693
靈	-8.11972
将軍	-8.12063
祀	-8.12451
五年	-8.12657
輕	-8.12913
秋	-8.12989
贈	-8.13053
乞	-8.13628
来	-8.13833
特	-8.13907
臺	-8.14153
朝廷	-8.1416
獲	-8.14641
監	-8.14716
向	-8.14762
申	-8.14773
扵	-8.14832
頭	-8.14848
推	-8.14939
郭	-8.15065
寳	-8.15274
青	-8.15496
人也	-8.15542
星	-8.15722
說	-8.15912
榮	-8.16377
設	-8.16389
諫	-8.16403
賞	-8.16411
害	-8.16442
鄉	-8.16546
季	-8.16577
戎	-8.16639
對	-8.16817
陛下	-8.16826
按	-8.1686
牛	-8.17044
皇后	-8.17326
允	-8.17488
殿	-8.17532
適	-8.17579
目	-8.17615
救	-8.17661
棄	-8.17681
恭	-8.17859
真	-8.18044
武帝	-8.18126
勸	-8.18138
市	-8.18217
嘉	-8.18273
勿	-8.18393
春秋	-8.18608
邊	-8.18674
甲	-8.18788
手	-8.18837
給	-8.19039
温	-8.19356
司馬	-8.19555
莫	-8.19661
亮	-8.19791
六年	-8.19903
曰吾	-8.20021
衞	-8.20191
犯	-8.20238
虞	-8.20354
吉	-8.20368
達	-8.20396
極	-8.20451
輔	-8.20506
杜	-8.21019
虜	-8.21103
化	-8.21166
寵	-8.21291
詣	-8.21515
蔡	-8.21539
傷	-8.21795
騎	-8.21979
操	-8.22231
結	-8.22503
造	-8.22571
虎	-8.22769
顧	-8.22819
辟	-8.22924
即位	-8.23107
督	-8.2331
末	-8.23362
孟	-8.23554
嵗	-8.23639
孔子	-8.23667
期	-8.24325
憂	-8.24622
爵	-8.24622
哀	-8.24724
冬	-8.2474
賦	-8.24869
養	-8.25341
但	-8.25356
統	-8.25489
再	-8.2554
類	-8.2579
簡	-8.25807
對曰	-8.25852
𢎞	-8.25995
福	-8.26068
移	-8.26125
郎	-8.26127
薦	-8.2628
參	-8.26336
務	-8.26454
離	-8.26467
英	-8.26622
夫人	-8.26837
仍	-8.26855
葬	-8.26884
頗	-8.26909
注	-8.27049
羅	-8.27092
掌	-8.27124
蜀	-8.27159
依	-8.27296
負	-8.27359
射	-8.27474
考	-8.27476
智	-8.27493
存	-8.27524
危	-8.27972
惠	-8.28401
休	-8.28774
徴	-8.29041
弗	-8.29126
徒	-8.29155
待	-8.29199
隆	-8.29362
䇿	-8.29907
聞之	-8.30122
昔	-8.30164
繼	-8.30215
責	-8.30232
康	-8.30327
皇帝	-8.30405
孤	-8.30455
冠	-8.30843
堅	-8.3094
赤	-8.31453
京	-8.31532
卷	-8.31592
獄	-8.31885
撫	-8.32259
崩	-8.32732
弱	-8.32895
散	-8.33
七年	-8.34311
曲	-8.34318
沈	-8.34553
指	-8.34587
如此	-8.34642
文帝	-8.34717
施	-8.34735
黨	-8.34776
蕭	-8.34839
察	-8.34847
草	-8.34956
范	-8.34959
輙	-8.35059
斯	-8.35405
久	-8.35556
援	-8.35579
勞	-8.35707
情	-8.3581
乘	-8.35858
殺之	-8.35875
侍中	-8.35901
州刺史	-8.36137
族	-8.36251
穆	-8.36273
羣	-8.36274
質	-8.36365
帥	-8.36415
魚	-8.36738
美	-8.36748
喪	-8.37008
積	-8.37067
無所	-8.37161
孔	-8.37306
窮	-8.3736
殷	-8.37494
體	-8.3758
侵	-8.37876
禹	-8.37939
舍	-8.38034
游	-8.38158
充	-8.38191
己	-8.39166
雄	-8.39227
聽	-8.39345
眀	-8.3955
不知	-8.39678
京師	-8.39714
晋	-8.40168
賀	-8.40307
而已	-8.40441
澤	-8.40513
雍	-8.40541
一人	-8.40698
憲	-8.40952
夀	-8.40956
勇	-8.40961
寕	-8.41006
雅	-8.41183
堂	-8.41678
闕	-8.41696
可以	-8.41742
呉	-8.41931
予	-8.41964
慮	-8.42024
其後	-8.42105
盟	-8.42133
塞	-8.4225
全	-8.42253
呼	-8.42355
一卷	-8.42972
勢	-8.4306
邱	-8.43072
竟	-8.43349
薄	-8.43349
吕	-8.43473
彼	-8.44201
釋	-8.4426
假	-8.44406
略	-8.44452
息	-8.44567
宿	-8.44916
紹	-8.45086
謂之	-8.45177
川	-8.45254
祠	-8.45298
三月	-8.45332
詳	-8.45368
籍	-8.45415
遵	-8.45867
畧	-8.45903
羣臣	-8.46282
之所	-8.46285
超	-8.46346
兄弟	-8.4676
精	-8.4678
尹	-8.46833
畢	-8.46912
禍	-8.46928
佐	-8.46942
丁	-8.47083
苦	-8.47248
朔	-8.47515
資	-8.47739
暴	-8.4799
飲	-8.48018
富	-8.4837
泰	-8.48392
習	-8.48572
野	-8.48573
逹	-8.48697
博	-8.48756
桓	-8.49101
讓	-8.49107
阿	-8.49121
宻	-8.49196
脩	-8.494
盖	-8.49499
遣使	-8.49549
振	-8.49765
吴	-8.50097
衡	-8.5016
明年	-8.50363
大將軍	-8.50368
俗	-8.50388
八年	-8.50396
放	-8.50449
禄	-8.50502
襄	-8.5071
尤	-8.50752
種	-8.50781
逐	-8.50825
敢	-8.50874
寺	-8.51034
累	-8.51035
十年	-8.51046
謹	-8.51067
斷	-8.51086
奪	-8.51091
患	-8.51263
運	-8.51267
工	-8.51282
識	-8.51447
是以	-8.51523
謙	-8.51611
湯	-8.51728
陸	-8.51761
君子	-8.51855
征	-8.52058
徃	-8.52172
賈	-8.52184
微	-8.52209
畏	-8.52291
者也	-8.52407
密	-8.52913
揚	-8.53074
户	-8.53147
升	-8.53601
舜	-8.5361
馳	-8.53616
丹	-8.53652
都督	-8.53665
盧	-8.53803
屈	-8.53953
偽	-8.54138
形	-8.54167
朕	-8.54236
豐	-8.54423
聚	-8.54526
司徒	-8.54561
助	-8.54793
調	-8.54853
争	-8.54857
妃	-8.5486
樹	-8.54981
不足	-8.55341
侍	-8.55524
律	-8.55683
到	-8.56012
財	-8.5609
録	-8.56126
專	-8.56301
大臣	-8.56366
御史	-8.5641
烈	-8.56449
䓁	-8.56929
也今	-8.57209
貞	-8.57452
蓋	-8.57575
寛	-8.57613
河南	-8.57743
馮	-8.57842
役	-8.57889
從之	-8.57923
第	-8.58036
雜	-8.58143
兒	-8.58276
他	-8.58295
端	-8.58301
長安	-8.58386
不如	-8.58438
丘	-8.58503
術	-8.5857
接	-8.58594
勒	-8.58608
角	-8.58699
丞相	-8.58755
之子	-8.58771
茂	-8.58838
試	-8.59027
洛	-8.59073
補	-8.59201
赴	-8.59328
誤	-8.59333
疏	-8.59482
歌	-8.59769
感	-8.59794
然後	-8.59894
竒	-8.60071
傅	-8.60486
洪	-8.60788
飛	-8.61153
藏	-8.61285
隋	-8.61333
肅	-8.61467
九年	-8.61614
勲	-8.61874
羊	-8.61959
違	-8.62362
副	-8.62466
署	-8.62497
公孫	-8.62504
闗	-8.62615
爭	-8.6262
二人	-8.62895
僧	-8.62966
舟	-8.62993
使人	-8.63189
翼	-8.63615
桓公	-8.63682
垂	-8.63746
㫖	-8.63757
費	-8.63939
敦	-8.63947
慎	-8.63963
徵	-8.63977
戒	-8.64073
折	-8.64322
滿	-8.64365
由是	-8.64378
防	-8.645
震	-8.64526
勤	-8.64669
最	-8.64754
曰此	-8.65011
卒子	-8.65047
羽	-8.65365
刺	-8.65536
堯	-8.65569
戍	-8.65676
䝉	-8.6579
友	-8.65953
訓	-8.66147
諭	-8.66196
諌	-8.66197
覆	-8.66207
兮	-8.66764
十二	-8.66905
雨	-8.67073
委	-8.67147
牧	-8.67178
貢	-8.6745
夢	-8.6751
太宗	-8.6772
背	-8.67738
總	-8.67823
歲	-8.67909
述	-8.68026
强	-8.6851
秀	-8.68632
畫	-8.68681
條	-8.68686
之事	-8.68686
半	-8.68686
乾	-8.68752
太尉	-8.6878
姑	-8.69001
符	-8.69134
崔	-8.6923
匈奴	-8.69268
毁	-8.69362
妾	-8.69783
荆	-8.69944
避	-8.69951
革	-8.70025
鼓	-8.70208
序	-8.70644
干	-8.70713
輿	-8.70756
班	-8.7083
機	-8.70834
忽	-8.70934
衰	-8.71192
房	-8.71261
淂	-8.71312
烏	-8.71326
面	-8.71439
司空	-8.71522
縱	-8.71526
逼	-8.71528
而後	-8.71821
候	-8.71871
遼	-8.71881
横	-8.71977
毛	-8.72027
婦	-8.7206
鄧	-8.7211
仕	-8.72339
長史	-8.7237
蘇	-8.72404
殊	-8.72533
不及	-8.72588
是為	-8.72685
庭	-8.73189
辱	-8.73198
郊	-8.73301
為之	-8.73467
例	-8.73767
碑	-8.73866
庶	-8.7389
招	-8.73941
彦	-8.74169
六月	-8.7421
其子	-8.74291
驚	-8.74461
歩	-8.74605
豫	-8.74786
厲	-8.74803
欽	-8.74841
厯	-8.74929
所謂	-8.75037
篇	-8.75152
投	-8.7516
儒	-8.75204
池	-8.75265
講	-8.75416
衍	-8.75427
似	-8.75824
决	-8.76222
之間	-8.76727
謁	-8.76931
于是	-8.77059
卜	-8.77133
敏	-8.7723
支	-8.77264
谷	-8.77365
維	-8.77402
乆	-8.77655
洛陽	-8.77791
關	-8.77973
盗	-8.77986
泉	-8.78136
冝	-8.78343
姦	-8.78479
薛	-8.7869
姬	-8.787
險	-8.78918
貪	-8.78955
不許	-8.79026
是時	-8.79171
何以	-8.79217
決	-8.79459
赦	-8.79934
亭	-8.8023
索	-8.80282
霸	-8.80297
厥	-8.8043
随	-8.80638
䘮	-8.80639
儉	-8.80692
廷	-8.80704
稍	-8.80833
之言	-8.81058
寡人	-8.81107
九月	-8.81131
榖	-8.81393
駕	-8.81462
毋	-8.81823
武王	-8.81871
虚	-8.81926
字子	-8.82049
觧	-8.82127
二月	-8.82274
愈	-8.82301
空	-8.82512
隠	-8.82634
彌	-8.82653
鳥	-8.82771
五月	-8.82962
奴	-8.83073
速	-8.83086
不從	-8.83106
須	-8.83179
竊	-8.83182
恒	-8.83311
壽	-8.8332
采	-8.83431
許之	-8.83522
示	-8.83548
累遷	-8.83682
子孫	-8.83896
寒	-8.83954
夏四月	-8.83987
宅	-8.84004
貧	-8.84077
靖	-8.84161
逸	-8.8417
二十	-8.84242
困	-8.84691
策	-8.84809
淵	-8.8491
災	-8.85087
䕶	-8.8513
十二月	-8.85196
使者	-8.85439
均	-8.85511
頃	-8.85591
融	-8.85819
築	-8.85856
之地	-8.8601
託	-8.8606
冀	-8.86113
鄴	-8.86119
念	-8.86156
淮	-8.86438
落	-8.86444
漸	-8.86487
莫不	-8.86645
科	-8.86716
勅	-8.86875
有所	-8.8699
蘭	-8.8706
髙祖	-8.87237
况	-8.87396
丞	-8.87546
宰	-8.87553
擢	-8.87609
邉	-8.87663
戴	-8.8769
賔	-8.87753
冬十月	-8.87896
循	-8.88043
千	-8.88074
庸	-8.88182
哭	-8.88596
優	-8.88757
顔	-8.88797
倫	-8.88809
早	-8.88847
舒	-8.88978
有司	-8.88982
冦	-8.88991
袁	-8.8901
君之	-8.8933
弼	-8.89341
飾	-8.89369
純	-8.89526
河東	-8.89551
格	-8.8972
逃	-8.89807
境	-8.89833
介	-8.90023
管	-8.90146
差	-8.90167
又有	-8.90169
幽	-8.90193
導	-8.90279
辨	-8.9032
公主	-8.90498
秋七月	-8.90571
論曰	-8.90575
囚	-8.9058
粟	-8.90689
其所	-8.90716
詐	-8.90855
禽	-8.90858
農	-8.90862
懷	-8.90948
忘	-8.90994
余	-8.91019
董	-8.91218
不見	-8.91229
鍾	-8.9129
以下	-8.91326
船	-8.91329
㧞	-8.91357
園	-8.9142
掠	-8.91448
俊	-8.91496
曰我	-8.91513
愚	-8.91611
誣	-8.91701
墓	-8.91712
者皆	-8.91795
啓	-8.91821
莊	-8.91849
拔	-8.91853
茍	-8.91968
擇	-8.92066
不為	-8.92088
鼎	-8.92106
劾	-8.92247
辰	-8.92304
誰	-8.92311
帶	-8.9235
十一年	-8.92355
羌	-8.9261
増	-8.92684
忌	-8.92709
恨	-8.92795
僕	-8.9282
蒲	-8.93052
祥	-8.93135
鹵	-8.93182
峻	-8.93194
妄	-8.93322
讀	-8.93359
戦	-8.93447
神武	-8.93499
程	-8.93613
蠻	-8.93716
松	-8.93741
桑	-8.93753
米	-8.93962
而還	-8.93983
社稷	-8.9425
單于	-8.94279
卑	-8.94366
刀	-8.94437
基	-8.94551
希	-8.94909
藥	-8.94971
渠	-8.94995
井	-8.95061
未嘗	-8.95084
回	-8.95166
姚	-8.9524
奮	-8.95264
八月	-8.95389
世家	-8.9543
遊	-8.95465
荒	-8.95497
杖	-8.95539
界	-8.95566
陶	-8.95593
珍	-8.95825
葢	-8.95892
校	-8.96083
先生	-8.96172
𦵏	-8.96262
捕	-8.96299
嬰	-8.963
至於	-8.96429
旦	-8.96583
賤	-8.96601
曽	-8.96616
席	-8.96658
預	-8.967
履	-8.96722
熊	-8.96864
皮	-8.96903
男	-8.96906
拒	-8.96995
幹	-8.97158
文武	-8.97249
配	-8.97321
秦王	-8.97326
大将軍	-8.97423
韋	-8.97635
寜	-8.97679
源	-8.97722
宴	-8.97895
上書	-8.98139
前後	-8.98324
審	-8.98394
周公	-8.98513
尉	-8.98561
歳	-8.98562
損	-8.98679
豪	-8.9872
材	-8.98755
懿	-8.98914
毅	-8.99232
貨	-8.99268
屋	-8.99451
之士	-8.99544
答	-8.99603
知其	-8.99794
文公	-9.00058
既而	-9.00158
光武	-9.00271
故事	-9.00544
䟽	-9.00611
彭	-9.00655
橋	-9.00799
以此	-9.0082
普	-9.00887
式	-9.00918
印	-9.00948
荆州	-9.01014
聘	-9.01043
百官	-9.01053
甘	-9.01219
天下之	-9.01225
占	-9.01241
量	-9.01322
羙	-9.01361
辯	-9.01616
至于	-9.01824
竹	-9.01925
匡	-9.01965
十卷	-9.01986
葉	-9.02039
不過	-9.02075
屢	-9.02118
湖	-9.02173
單	-9.02331
側	-9.02362
明帝	-9.0248
以其	-9.02518
𥘉	-9.02568
従	-9.02646
岳	-9.02687
江陵	-9.0279
鳴	-9.03157
幾	-9.03179
中山	-9.03183
熙	-9.03318
館	-9.03405
扶	-9.03613
四方	-9.03755
曰臣	-9.04144
𤣥	-9.04282
蕃	-9.04367
傾	-9.04399
割	-9.04417
驕	-9.04421
凶	-9.04467
刻	-9.04679
倉	-9.04698
藩	-9.04898
寇	-9.04903
曰君	-9.05198
莽	-9.05207
尸	-9.05265
貶	-9.05305
弑	-9.05309
沙	-9.05375
續	-9.05456
覽	-9.05521
員	-9.06082
奚	-9.06097
浮	-9.0623
嵩	-9.0627
辛	-9.06285
付	-9.06337
黒	-9.06361
十二年	-9.06448
卓	-9.06539
先是	-9.06576
三卷	-9.06739
鬼	-9.06821
斗	-9.06943
國家	-9.0726
晏	-9.07301
享	-9.07316
千里	-9.07327
舞	-9.07511
与	-9.07621
有功	-9.0771
至是	-9.07717
以來	-9.0772
内史	-9.07755
刺史	-9.07763
契丹	-9.07794
㓜	-9.07794
沒	-9.0781
恵	-9.0782
内外	-9.07837
抑	-9.07839
肆	-9.07938
宏	-9.07994
訪	-9.08194
太原	-9.08273
寶	-9.08323
死者	-9.08355
十一月	-9.08501
笑	-9.08579
陷	-9.08812
苑	-9.08861
壁	-9.08903
毎	-9.08929
耕	-9.08945
三日	-9.08998
悦	-9.09048
儲	-9.09068
閣	-9.09139
欲以	-9.09148
慕	-9.09224
饑	-9.09296
十三年	-9.09621
諡曰	-9.09638
聼	-9.09665
血	-9.09901
不肯	-9.09964
耶	-9.10159
𣸪	-9.10191
篤	-9.10259
秩	-9.1028
抗	-9.10325
聖人	-9.10438
尚書令	-9.10512
太常	-9.10551
鄙	-9.10838
没	-9.10864
佛	-9.11006
慈	-9.11115
也夫	-9.11158
而去	-9.1116
訟	-9.11205
諸將	-9.11234
鎭	-9.11245
樓	-9.11249
邦	-9.1125
黄帝	-9.11633
寔	-9.1168
弟子	-9.11684
自是	-9.11776
南陽	-9.11872
軌	-9.11902
史記	-9.11931
文王	-9.11991
祝	-9.12201
陣	-9.12296
偃	-9.12339
如故	-9.12357
啟	-9.12511
而死	-9.1258
津	-9.12631
天地	-9.12631
翟	-9.12637
輒	-9.12818
裴	-9.12862
趨	-9.12962
数	-9.12979
猛	-9.13018
骨	-9.13033
鴻	-9.13045
十五年	-9.13056
人之	-9.13216
幼	-9.13482
公卿	-9.13495
兆	-9.13549
不復	-9.13571
中國	-9.13949
諡	-9.14016
楚王	-9.14431
甫	-9.14504
規	-9.14645
从	-9.14675
貫	-9.14763
與之	-9.15045
弓	-9.15152
一日	-9.15277
繫	-9.15405
不受	-9.15423
寡	-9.15475
狄	-9.15502
在位	-9.1566
悲	-9.15677
其事	-9.15741
以上	-9.15804
戸	-9.16049
禦	-9.16054
未有	-9.16166
舎	-9.16288
宰相	-9.16327
斬之	-9.1635
劍	-9.16421
國人	-9.16588
根	-9.16655
父子	-9.16666
率衆	-9.16716
而無	-9.16719
階	-9.16913
遜	-9.17038
三十	-9.17172
㣲	-9.1719
戲	-9.17217
聴	-9.1743
淫	-9.17486
剛	-9.1754
先帝	-9.17561
宗廟	-9.17634
樊	-9.17635
偉	-9.17734
潛	-9.17864
戮	-9.1792
十四年	-9.18063
校尉	-9.18076
㨗	-9.18222
恃	-9.18345
之心	-9.18482
胥	-9.18563
糧	-9.18746
肉	-9.18775
是也	-9.188
削	-9.18821
䖏	-9.18826
之時	-9.18897
惑	-9.19015
巴	-9.19163
𨽻	-9.1926
範	-9.19313
𧺫	-9.19318
絳	-9.19413
躬	-9.19517
社	-9.19578
晏子	-9.19661
景公	-9.1977
弊	-9.19772
䧟	-9.19798
上下	-9.19881
皇太子	-9.19892
二子	-9.20153
減	-9.20195
伊	-9.20216
寢	-9.20252
大司馬	-9.2028
罰	-9.20304
效	-9.20351
狀	-9.2037
植	-9.20393
覺	-9.20444
今日	-9.20508
戚	-9.20732
雷	-9.2093
也故	-9.20976
幣	-9.21148
父母	-9.21163
所在	-9.21298
王子	-9.214
澄	-9.21406
知之	-9.21469
謚	-9.21512
矢	-9.21575
仇	-9.21589
攝	-9.21647
静	-9.2169
脱	-9.21784
産	-9.21796
露	-9.22074
荘	-9.22081
匿	-9.22277
誦	-9.22295
寄	-9.22355
鳯	-9.22457
後世	-9.22497
不與	-9.22519
誘	-9.22579
妻子	-9.22654
陰	-9.22666
擊之	-9.22828
陞	-9.22876
徽	-9.22886
談	-9.2326
秉	-9.23371
亷	-9.23379
巢	-9.23479
國公	-9.23618
州郡	-9.23713
㓂	-9.23912
足以	-9.23972
旁	-9.24081
漢中	-9.24093
兹	-9.24097
博士	-9.24098
祐	-9.2416
銀	-9.2418
爽	-9.24244
成王	-9.24268
紂	-9.24324
旗	-9.24519
三公	-9.24637
齊王	-9.24644
句	-9.24663
詞	-9.24812
珠	-9.24844
頌	-9.24857
屠	-9.24884
荀	-9.24903
尾	-9.24973
短	-9.24977
言之	-9.25167
逮	-9.25254
誕	-9.25281
惜	-9.25345
河北	-9.25414
郡縣	-9.25464
譽	-9.25466
豹	-9.25508
贊	-9.2554
為人	-9.25556
倍	-9.25622
撃	-9.25713
擅	-9.25717
忍	-9.25733
之禮	-9.25777
出為	-9.25829
頓	-9.25865
𫝊	-9.25889
彪	-9.26038
細	-9.26079
小人	-9.26117
黜	-9.2612
遁	-9.26151
筆	-9.26166
鹿	-9.26338
受命	-9.26358
矯	-9.2641
庫	-9.2648
専	-9.26534
廵	-9.2657
十五	-9.26611
遭	-9.26616
閉	-9.26756
旱	-9.26768
㑹稽	-9.26895
仁宗	-9.2698
仰	-9.2704
殘	-9.27042
郎中	-9.27047
遠	-9.27148
孝武	-9.27164
歎	-9.27178
之意	-9.27189
泣	-9.27242
錫	-9.27245
冲	-9.27283
壯	-9.27318
穀	-9.27427
必有	-9.27443
叙	-9.27465
隱	-9.27841
姜	-9.27841
時人	-9.27898
掩	-9.27958
墨	-9.28068
閭	-9.2819
二卷	-9.28216
祚	-9.28394
焚	-9.28398
判	-9.28435
帛	-9.28635
丕	-9.28646
臧	-9.28652
否	-9.2874
不用	-9.28844
又曰	-9.28999
輸	-9.29058
歡	-9.29107
夕	-9.29132
十六年	-9.29138
諱	-9.29341
山東	-9.29389
踰	-9.29735
騰	-9.29884
討之	-9.30002
靡	-9.30014
朗	-9.30055
淮南	-9.30066
西北	-9.3018
渡	-9.30216
國之	-9.30344
毒	-9.30408
牙	-9.30433
襄公	-9.30455
㳺	-9.30458
主簿	-9.30621
長子	-9.30695
借	-9.30719
士卒	-9.30726
児	-9.30761
給事中	-9.3077
醉	-9.308
盈	-9.30811
時有	-9.30859
瑾	-9.30918
欺	-9.30945
曾	-9.30956
都尉	-9.30979
悔	-9.31007
渉	-9.31031
婦人	-9.3104
可謂	-9.3106
迹	-9.31085
童	-9.31127
東宫	-9.3122
不至	-9.31333
裕	-9.31335
整	-9.31399
題	-9.3172
太傅	-9.31783
距	-9.31895
誓	-9.31956
痛	-9.31957
繁	-9.31977
曰子	-9.31985
彭城	-9.3205
紫	-9.32099
咎	-9.32133
逢	-9.32143
東南	-9.32242
麗	-9.3226
燕王	-9.32283
莒	-9.32313
斥	-9.32364
錯	-9.32405
侍郎	-9.32448
元帝	-9.32489
吏民	-9.32495
不以	-9.32535
擒	-9.32592
香	-9.32631
五十	-9.32738
纂	-9.32748
奈何	-9.32829
十七年	-9.32835
譚	-9.32892
属	-9.33184
黎	-9.33279
宛	-9.33305
却	-9.33387
貳	-9.33499
子弟	-9.33669
恪	-9.33796
錄	-9.33801
其言	-9.33831
奸	-9.33886
伍	-9.33909
瑞	-9.33945
編	-9.34127
栁	-9.3424
邢	-9.34268
孝文	-9.34291
稽	-9.34293
郡公	-9.34374
之道	-9.34387
曰昔	-9.34486
邵	-9.34512
擬	-9.34536
抱	-9.34682
績	-9.34815
燒	-9.35001
後主	-9.35303
両	-9.35372
諸子	-9.35393
江南	-9.35553
賂	-9.35595
裁	-9.35714
綱	-9.35832
品	-9.35858
不聽	-9.35949
鹽	-9.36115
子曰	-9.36263
之法	-9.36316
進士	-9.36361
芳	-9.36432
趣	-9.36435
乃止	-9.36444
花	-9.36478
柔	-9.36593
卧	-9.36733
渾	-9.36822
完	-9.36828
関	-9.36864
懸	-9.3692
盜	-9.36923
自殺	-9.37003
正月	-9.3708
虛	-9.37163
掾	-9.37203
邾	-9.37245
出入	-9.37323
不勝	-9.3733
遽	-9.37467
僖	-9.37502
莊公	-9.3757
供	-9.37632
韶	-9.37703
殆	-9.37813
岐	-9.37857
廬	-9.37869
不然	-9.37876
不行	-9.37899
㡬	-9.37919
宇	-9.37972
王曰	-9.37993
潰	-9.38038
停	-9.38093
蒙	-9.38468
娶	-9.38541
擾	-9.38743
刼	-9.38846
級	-9.38881
狐	-9.38913
湏	-9.38944
遼東	-9.38948
散騎常侍	-9.38952
郡國	-9.38968
世子	-9.39186
參軍	-9.3942
買	-9.39438
慕容	-9.39524
當時	-9.39549
巫	-9.39604
競	-9.39717
開府儀同三司	-9.39882
瞻	-9.40241
壘	-9.40523
霍	-9.40533
育	-9.40553
▁(	-9.40577
徑	-9.40593
閔	-9.40597
十月	-9.40632
龜	-9.4066
亦有	-9.40772
十萬	-9.4084
飬	-9.40857
堪	-9.40881
盟于	-9.40899
餉	-9.40968
曰今	-9.40984
葛	-9.41035
銅	-9.41081
中郎將	-9.41086
莭	-9.4114
璧	-9.41187
齒	-9.41415
作亂	-9.41507
何如	-9.41576
曜	-9.416
其母	-9.41714
齊人	-9.41883
蕩	-9.41889
不出	-9.41929
大怒	-9.42017
了	-9.4203
創	-9.42039
一曰	-9.42117
䘚	-9.42218
繇	-9.42452
夫子	-9.42524
提	-9.42623
麻	-9.42633
大敗	-9.42682
潘	-9.427
增	-9.42863
賣	-9.43027
状	-9.43065
之義	-9.43077
粲	-9.43172
賔客	-9.43223
諸王	-9.43278
是嵗	-9.43341
昭公	-9.43347
步	-9.43488
諸軍	-9.43516
無不	-9.43543
昭王	-9.43565
西南	-9.43709
垣	-9.43787
浩	-9.4379
尺	-9.43813
襄陽	-9.43828
大王	-9.43855
壇	-9.43866
湛	-9.43895
熈	-9.43977
弔	-9.43979
一年	-9.43994
濬	-9.4409
鑄	-9.44202
公曰	-9.4426
其國	-9.44268
欽定四庫全書	-9.44327
偏	-9.44349
旅	-9.44353
用之	-9.4448
書曰	-9.44546
其家	-9.4461
綏	-9.44656
恢	-9.44669
日月	-9.4468
蔽	-9.44753
宮	-9.44951
乙	-9.44974
畜	-9.45072
吏部尚書	-9.45084
麟	-9.45137
院	-9.45148
乏	-9.45165
六十	-9.45314
孰	-9.45386
限	-9.45449
三人	-9.45462
不可以	-9.45481
含	-9.4559
郢	-9.45623
竇	-9.45638
十六	-9.45729
曰卿	-9.45811
突	-9.45813
太平	-9.45822
塗	-9.45955
桀	-9.46114
昭烈	-9.46338
政事	-9.4634
詔曰	-9.46374
劒	-9.46407
□	-9.46418
十三	-9.46422
後漢	-9.46467
有罪	-9.46479
車駕	-9.4656
救之	-9.46582
趙王	-9.46584
怪	-9.46674
後魏	-9.4682
人皆	-9.46847
竭	-9.4691
不同	-9.47069
之功	-9.47183
肥	-9.47219
奢	-9.47281
旋	-9.47314
從事	-9.47453
其地	-9.47483
東北	-9.47592
其父	-9.47605
起兵	-9.47682
學士	-9.47769
恥	-9.47785
十八年	-9.47957
輅	-9.47969
無以	-9.4803
翰	-9.48033
午	-9.48053
狗	-9.48063
壊	-9.4823
採	-9.4823
宣帝	-9.48333
驅	-9.48362
勉	-9.48453
募	-9.48518
以爲	-9.48533
揚州	-9.48537
皓	-9.48746
忿	-9.48815
醫	-9.48838
煩	-9.48872
吏部	-9.48882
管仲	-9.48911
仙	-9.49024
二百	-9.49025
憤	-9.49075
巧	-9.49358
鳳	-9.49457
環	-9.49467
黑	-9.49488
以告	-9.49591
鐵	-9.49617
十一	-9.49621
練	-9.49812
狂	-9.49824
破之	-9.50012
獵	-9.50078
韓魏	-9.503
瓊	-9.50353
又以	-9.50368
蒼	-9.50406
見之	-9.50413
不忍	-9.50421
慰	-9.50675
柱	-9.50778
頋	-9.50825
熟	-9.50881
驗	-9.50902
成都	-9.51125
好學	-9.51269
攸	-9.51311
酋	-9.51389
檄	-9.51406
明堂	-9.51458
四月	-9.5149
沉	-9.51551
靈公	-9.51568
斬首	-9.51627
取之	-9.5175
亦不	-9.51816
皇太后	-9.51923
禪	-9.51949
京兆	-9.52075
緩	-9.52201
喬	-9.52202
於此	-9.52301
改封	-9.52302
盤	-9.52365
帝曰	-9.52399
明日	-9.52463
其衆	-9.52481
後為	-9.52679
之徒	-9.52835
緒	-9.5285
之制	-9.52861
賛	-9.52882
激	-9.53014
波	-9.5313
黙	-9.53499
閒	-9.53515
三百	-9.53563
君臣	-9.5357
宗室	-9.53602
瑜	-9.53609
饒	-9.53847
鑒	-9.53854
屏	-9.53966
礼	-9.53997
號曰	-9.54001
嫁	-9.54087
皆有	-9.54167
昇	-9.54199
某	-9.54232
何為	-9.5425
彛	-9.54325
皆以	-9.54332
巨	-9.54416
檢	-9.5443
夏五月	-9.5446
罕	-9.54463
虢	-9.54508
所殺	-9.54736
頻	-9.54782
台	-9.54882
如是	-9.54947
第一	-9.54959
欵	-9.54977
齋	-9.55161
叚	-9.55292
訖	-9.55328
稷	-9.55413
惠王	-9.55426
改元	-9.55466
之日	-9.55474
平王	-9.55494
仗	-9.55533
十八	-9.55665
晚	-9.55672
入朝	-9.55685
平公	-9.5571
悟	-9.55712
藝	-9.55757
匹	-9.55825
張儀	-9.55828
沛	-9.55997
項	-9.56022
束	-9.56158
淳	-9.56198
妖	-9.56396
恤	-9.56404
上疏	-9.56413
耿	-9.56524
伐鄭	-9.56732
神宗	-9.56828
乃以	-9.56839
􁀙	-9.57045
突厥	-9.57112
嶺	-9.57167
二十年	-9.57226
藉	-9.57237
已而	-9.57271
帝崩	-9.57353
不應	-9.5737
庾	-9.57439
歎曰	-9.5748
列傳	-9.57516
缺	-9.57574
不宜	-9.57591
恕	-9.57725
洞	-9.5774
郡王	-9.57753
雪	-9.57757
胄	-9.57895
大破之	-9.5792
十九年	-9.58008
為太子	-9.58012
婁	-9.58024
凖	-9.58045
百萬	-9.58133
晉陽	-9.58202
是故	-9.58228
渭	-9.58237
益州	-9.58354
世祖	-9.58419
契	-9.58428
岀	-9.58438
而歸	-9.58546
罔	-9.5862
而立	-9.58722
諷	-9.58723
潜	-9.58752
建安	-9.58821
茅	-9.58822
帳	-9.58842
改為	-9.58851
歛	-9.58862
縁	-9.58908
誅之	-9.58972
城中	-9.59038
算	-9.59114
子也	-9.59202
遲	-9.59218
亨	-9.59295
祁	-9.59357
越王	-9.59464
之中	-9.59466
棺	-9.59476
髪	-9.59584
頼	-9.59611
百里	-9.5973
括	-9.59837
曰夫	-9.59849
東西	-9.59893
流涕	-9.59946
更始	-9.60015
鮑	-9.60073
舅	-9.60115
曉	-9.60125
獸	-9.60142
曹操	-9.6019
晦	-9.60261
鄰	-9.60263
彬	-9.60328
虐	-9.60334
雞	-9.60342
犬	-9.60397
滕	-9.60477
侈	-9.60517
琴	-9.60522
之上	-9.60532
枝	-9.60847
沮	-9.60978
稅	-9.61018
高祖	-9.61081
久之	-9.61106
郷	-9.61138
錦	-9.61147
係	-9.61251
廷尉	-9.61295
東海	-9.61308
勑	-9.61346
之人	-9.61575
擁	-9.61575
古之	-9.61587
儁	-9.61656
大事	-9.61668
聰	-9.6172
開府	-9.61743
岸	-9.61785
七十	-9.61868
苗	-9.61923
之國	-9.62072
晝	-9.62099
其罪	-9.62104
萬人	-9.62168
頴	-9.62218
不欲	-9.62226
説文	-9.62282
鮮	-9.62381
穿	-9.6241
継	-9.62528
故曰	-9.62586
賓	-9.62679
伐我	-9.62724
平原	-9.62731
吳王	-9.62738
我師	-9.62779
也而	-9.62864
海内	-9.62879
五百	-9.62892
大赦	-9.62951
溪	-9.6298
阻	-9.62985
翁	-9.63001
褒	-9.63028
夲	-9.63033
牀	-9.63199
悼	-9.63229
曺	-9.63237
成公	-9.63314
謨	-9.63391
睦	-9.63551
一時	-9.63553
桃	-9.63562
局	-9.63648
俟	-9.63659
哲	-9.63675
舉兵	-9.63714
妙	-9.63758
汝南	-9.63913
抵	-9.63954
先王	-9.63961
諸生	-9.6408
古今	-9.64093
婚	-9.6427
祗	-9.64299
平陽	-9.64372
銘	-9.64518
桂	-9.64562
彰	-9.64627
侃	-9.64787
殺人	-9.64801
自稱	-9.64843
矜	-9.6497
効	-9.65001
文章	-9.65051
邕	-9.65145
蛇	-9.65236
挾	-9.65236
隐	-9.65237
有餘	-9.65287
暉	-9.65328
之役	-9.6533
貴人	-9.65384
敞	-9.65581
警	-9.65743
的	-9.6583
譜	-9.65843
饗	-9.6592
數十	-9.66185
之臣	-9.66257
髙帝	-9.66306
姊	-9.66841
二千石	-9.66851
襃	-9.66879
愍	-9.66928
孔子曰	-9.67054
鋭	-9.67073
租	-9.67101
南北	-9.67242
夾	-9.67266
襄王	-9.67313
三千	-9.67344
寅	-9.67376
贖	-9.67418
圗	-9.67421
文學	-9.67467
逰	-9.6749
祈	-9.67494
厭	-9.67578
旌	-9.6777
敝	-9.67846
拘	-9.67848
扈	-9.67884
諸将	-9.6793
艾	-9.67951
致仕	-9.67955
郡守	-9.67958
其餘	-9.67968
伺	-9.67995
兄子	-9.6802
潁川	-9.68032
廵撫	-9.68087
戰于	-9.68138
攻之	-9.68189
其妻	-9.68246
相國	-9.68324
中書令	-9.6837
醜	-9.68391
光禄大夫	-9.68483
課	-9.68524
西域	-9.68528
御史中丞	-9.68556
滛	-9.68611
安定	-9.68627
像	-9.68641
大業	-9.68859
軍中	-9.68948
隴	-9.68979
鐘	-9.69054
以待	-9.69062
者為	-9.69193
疆	-9.69345
貸	-9.69348
灌	-9.69377
併	-9.69384
男女	-9.69396
讒	-9.69442
以兵	-9.69473
七月	-9.69531
邯鄲	-9.69567
鈞	-9.69567
伐之	-9.69568
秋八月	-9.69571
發兵	-9.69603
十七	-9.69762
眞	-9.69769
以示	-9.69791
乆之	-9.69866
喻	-9.69882
四海	-9.69908
倚	-9.69942
地震	-9.70119
譏	-9.70187
大破	-9.70239
牽	-9.70271
住	-9.70272
貌	-9.70289
䧏	-9.70325
謬	-9.70351
之名	-9.7036
得其	-9.70413
楷	-9.70414
顗	-9.70443
吐	-9.70468
答曰	-9.70677
長沙	-9.7072
味	-9.70748
鞭	-9.70767
駿	-9.70902
段	-9.70916
中書	-9.70982
𬒳	-9.71007
不在	-9.71013
杞	-9.71156
未可	-9.71233
不克	-9.71289
五日	-9.7131
用事	-9.71339
僭	-9.7146
䖍	-9.71476
溝	-9.71509
侯景	-9.71628
憚	-9.7168
河内	-9.71816
知名	-9.71838
穆公	-9.71902
武昌	-9.72068
慧	-9.72218
矩	-9.72219
靜	-9.72237
冊	-9.72251
腹	-9.72254
功臣	-9.72259
収	-9.72259
州人	-9.72281
䕫	-9.7229
數千	-9.72336
雖有	-9.72338
宼	-9.72355
展	-9.72572
北齊	-9.72608
嗟	-9.72631
僕射	-9.72635
郤	-9.72678
暢	-9.72845
綜	-9.7286
肇	-9.72891
鑿	-9.72919
為政	-9.72951
裔	-9.72957
其君	-9.72965
十四	-9.7301
少府	-9.73041
冬十一月	-9.73099
不相	-9.73131
琳	-9.73182
閑	-9.73222
乂	-9.73259
莫敢	-9.73318
洽	-9.73326
譲	-9.73514
臯	-9.7356
伐齊	-9.73659
上曰	-9.73692
飲酒	-9.73693
遂以	-9.73774
裂	-9.73854
不利	-9.74013
敕	-9.74044
鮮卑	-9.74054
戈	-9.7412
勃	-9.74127
然則	-9.74181
嫌	-9.7422
復為	-9.74234
賁	-9.74243
㝎	-9.74322
之君	-9.74401
亟	-9.74558
咨	-9.74729
鞅	-9.74753
輩	-9.74911
焦	-9.74927
而出	-9.74988
其弟	-9.75015
不報	-9.75035
照	-9.75066
數年	-9.75157
沖	-9.75297
薊	-9.7531
繆	-9.75319
執政	-9.75331
塵	-9.75347
上黨	-9.75359
不足以	-9.75371
叡	-9.75385
家人	-9.75406
淑	-9.75492
強	-9.75512
協	-9.75587
昶	-9.75613
百餘	-9.75626
疎	-9.75704
賜爵	-9.75757
駟	-9.75809
持節	-9.75852
一百	-9.75894
靣	-9.75919
活	-9.76098
傍	-9.76118
釁	-9.76125
贍	-9.7613
廣陵	-9.76134
先主	-9.76162
卒於	-9.76265
孚	-9.76295
河西	-9.76308
鄒	-9.76342
文子	-9.76344
何也	-9.76371
之衆	-9.76408
有大	-9.76433
蟲	-9.76553
之所以	-9.76595
其人	-9.76701
見其	-9.7676
織	-9.76772
飯	-9.76787
卒贈	-9.76834
額	-9.76935
出奔	-9.76946
淺	-9.76985
讀書	-9.77022
謂曰	-9.77065
尅	-9.77111
者以	-9.77134
軍事	-9.7715
蘓	-9.77182
麥	-9.77198
獻公	-9.77212
隴西	-9.77246
言於	-9.77291
滋	-9.77374
人主	-9.77623
官至	-9.77643
徐州	-9.77664
墜	-9.77815
豫章	-9.77979
敷	-9.78016
切説文	-9.78084
左傳	-9.78189
閤	-9.7828
劭	-9.78338
樞	-9.78364
琰	-9.78399
甲子	-9.78458
斤	-9.7848
之故	-9.78502
説苑	-9.78592
牢	-9.78605
鸞	-9.7863
或曰	-9.78658
詠	-9.78702
不食	-9.78801
棘	-9.78837
洲	-9.78851
簿	-9.78893
丹陽	-9.78942
彈	-9.79021
黃	-9.79123
寝	-9.7913
以自	-9.79223
不言	-9.79247
齊侯	-9.79364
衝	-9.79451
詔書	-9.79544
不免	-9.7966
穴	-9.7972
帰	-9.79737
之難	-9.798
者不	-9.79851
播	-9.79916
百餘人	-9.79927
將兵	-9.79949
珪	-9.80042
萬物	-9.80042
死之	-9.801
今改正	-9.80134
㤗	-9.80165
欣	-9.80169
爰	-9.80196
笑曰	-9.80225
或云	-9.8026
夏六月	-9.80276
以聞	-9.80307
愷	-9.80329
慙	-9.8038
晨	-9.80528
十餘	-9.80558
枉	-9.80559
㝷	-9.80576
無子	-9.80615
佞	-9.80649
也若	-9.80663
亭侯	-9.80675
壮	-9.8069
讐	-9.80713
㕥	-9.8078
呂	-9.80815
謗	-9.80816
初為	-9.809
傑	-9.80947
二十一年	-9.80951
駐	-9.80979
冢	-9.81038
敎	-9.81172
會稽	-9.81203
閻	-9.81219
恣	-9.81222
鬬	-9.81229
墮	-9.81261
隂陽	-9.81265
婢	-9.81401
佩	-9.81467
偶	-9.8148
之計	-9.81531
曰臣聞	-9.81593
齎	-9.81596
上言	-9.81619
四人	-9.8167
曠	-9.81721
綽	-9.81888
营	-9.81905
之亂	-9.81969
及其	-9.82159
數百	-9.82188
昏	-9.8225
構	-9.82277
魁	-9.82327
璋	-9.82358
飢	-9.82513
瓦	-9.82529
裘	-9.82574
輔政	-9.82641
称	-9.82782
武公	-9.828
用兵	-9.82819
徹	-9.82824
太保	-9.82937
太武	-9.82951
狼	-9.8311
多所	-9.8318
潔	-9.83209
子胥	-9.83261
相與	-9.83333
氐	-9.83344
劇	-9.83387
數萬	-9.8344
子産	-9.83467
之罪	-9.83495
汾	-9.83536
譙	-9.83593
堡	-9.83618
汪	-9.83846
曰若	-9.83865
於齊	-9.8387
聞其	-9.84087
鬭	-9.84117
足下	-9.84132
太師	-9.84137
敖	-9.84168
曰汝	-9.84361
楚人	-9.84438
冕	-9.84477
魏王	-9.84482
訴	-9.84512
旣	-9.84532
門下	-9.84534
富貴	-9.84543
圉	-9.84553
終不	-9.84555
尼	-9.8456
丈	-9.8461
為相	-9.84636
忠臣	-9.84685
取其	-9.84717
之際	-9.84729
泰山	-9.84753
不絶	-9.84776
太公	-9.84787
濫	-9.84798
追贈	-9.84811
乃使	-9.8483
引兵	-9.84861
之下	-9.84933
宫室	-9.84947
斛	-9.84953
覇	-9.84992
祿	-9.84993
俘	-9.85155
叱	-9.85159
未至	-9.85172
再拜	-9.85202
節度	-9.85209
䑓	-9.85225
不當	-9.85259
詩曰	-9.85425
㢤	-9.85466
冉	-9.85543
溢	-9.85721
陳留	-9.85773
王莽	-9.85796
南京	-9.85802
者必	-9.85819
五人	-9.85856
俸	-9.85856
邀	-9.8587
刃	-9.85878
為司徒	-9.86107
真宗	-9.86208
甞	-9.86223
乖	-9.86329
等皆	-9.86332
太宰	-9.86333
潤	-9.86346
十九	-9.86371
諸軍事	-9.86398
詔以	-9.86415
軍節度使	-9.86463
建武	-9.86528
中興	-9.86559
恊	-9.86567
進封	-9.86678
璽	-9.867
始皇	-9.86732
滅之	-9.86747
巳	-9.86753
泥	-9.86792
邈	-9.86949
西河	-9.86965
賄	-9.86988
詭	-9.87012
徧	-9.87046
世宗	-9.87183
五千	-9.87229
巖	-9.8724
紅	-9.87245
演	-9.87265
妹	-9.87293
畔	-9.87299
不聼	-9.87334
為丞相	-9.87337
人心	-9.87359
士大夫	-9.87366
絹	-9.87368
僅	-9.87498
奇	-9.87512
山川	-9.87518
觸	-9.87743
韻	-9.87764
悼公	-9.87904
代之	-9.8791
献	-9.87986
大子	-9.88085
碩	-9.88103
蠕蠕	-9.88103
俄	-9.88137
遥	-9.8816
皇子	-9.88173
俄而	-9.88175
宣武	-9.88207
而有	-9.88215
厲公	-9.88225
當世	-9.88269
僚	-9.88269
遐	-9.88366
忤	-9.88399
耀	-9.88415
大都督	-9.8842
縣侯	-9.88449
未及	-9.88451
暮	-9.88572
綬	-9.88576
昆	-9.88602
十餘萬	-9.8865
誥	-9.88697
昧	-9.88713
石頭	-9.88767
為司空	-9.88775
也从	-9.88793
逵	-9.88857
賴	-9.88875
挺	-9.88876
脅	-9.88891
跪	-9.88934
中軍	-9.89097
絲	-9.89129
燭	-9.89178
琅邪	-9.89232
寨	-9.89308
至此	-9.89314
議者	-9.89369
紇	-9.89524
諸郡	-9.89542
二十五年	-9.89544
座	-9.89561
閲	-9.896
臂	-9.89604
不淂	-9.89606
行之	-9.89676
患之	-9.897
中書侍郎	-9.89768
風俗	-9.89825
仲尼	-9.8984
亢	-9.89857
牟	-9.89871
俞	-9.89876
㐮	-9.89898
也又	-9.89919
四時	-9.90012
進爵	-9.90037
祭酒	-9.90069
無道	-9.9007
人情	-9.90098
布衣	-9.90229
固辭	-9.90256
酷	-9.90273
文宣	-9.90303
惡之	-9.90331
荅	-9.90333
老子	-9.90382
之子也	-9.90473
宣王	-9.90482
隣	-9.90527
未幾	-9.90528
嶷	-9.90529
晉侯	-9.90547
大小	-9.90557
太僕	-9.90559
煜	-9.90559
廼	-9.90592
人也父	-9.90604
未詳	-9.9063
不肖	-9.90648
那	-9.90661
飲食	-9.90672
甄	-9.90721
成帝	-9.90821
領軍	-9.90823
嶽	-9.90958
雉	-9.90995
料	-9.91007
漏	-9.91007
官屬	-9.91118
不若	-9.91129
五卷	-9.91191
千人	-9.91202
諧	-9.91213
罵	-9.91235
誡	-9.91238
廉	-9.91239
中外	-9.91243
區	-9.91261
晉人	-9.91261
為大	-9.91278
青州	-9.91288
王室	-9.91302
一名	-9.91375
號為	-9.91378
浦	-9.91412
甲申	-9.91445
閩	-9.91471
祕	-9.91489
江西	-9.91494
柱國	-9.91537
幽州	-9.91576
則有	-9.91804
釐	-9.91809
嬖	-9.91818
視之	-9.91822
遂與	-9.91846
叔父	-9.91882
并州	-9.919
待之	-9.91984
耻	-9.9201
也其	-9.92068
三萬	-9.92123
謁者	-9.92145
豈可	-9.92159
豈不	-9.9216
神農	-9.92267
哀公	-9.92282
不合	-9.92283
緯	-9.92286
侮	-9.92294
陽侯	-9.92362
為侍中	-9.92366
鐸	-9.92449
聞而	-9.92459
勁	-9.9248
怠	-9.92487
經一卷	-9.92519
劉氏	-9.92519
芝	-9.92671
宥	-9.92732
跡	-9.92741
也且	-9.92837
各有	-9.92841
伐楚	-9.92864
萬餘人	-9.92906
頃之	-9.9293
豆	-9.92931
名曰	-9.92939
析	-9.93003
五經	-9.93128
奕	-9.93148
舍人	-9.93239
若此	-9.93241
不就	-9.93253
乃遣	-9.93298
鋒	-9.9331
中有	-9.93323
耆	-9.93325
潁	-9.93328
豫州刺史	-9.9337
湘	-9.93415
戾	-9.93499
於秦	-9.93571
安國	-9.93626
儼	-9.93627
驛	-9.93664
所得	-9.93684
雍州刺史	-9.93712
未能	-9.93719
以禮	-9.93755
牲	-9.93759
咸陽	-9.93834
朔日有食之	-9.93864
四十	-9.93882
護	-9.93897
三十年	-9.93897
墳	-9.93944
較	-9.93974
武子	-9.9399
車騎將軍	-9.94019
而行	-9.94053
縣公	-9.94076
八十	-9.94091
顒	-9.94094
輪	-9.94151
阮	-9.94164
大水	-9.94203
詢	-9.94225
滎陽	-9.9424
其名	-9.94299
字伯	-9.94349
蔣	-9.94385
輦	-9.94393
相見	-9.94431
異之	-9.94581
有一	-9.94629
薨子	-9.94649
把	-9.94657
辦	-9.94668
漢王	-9.94687
女子	-9.94756
常侍	-9.9477
荆州刺史	-9.94836
宇文	-9.94912
瑕	-9.94936
綸	-9.94943
天文	-9.94978
琛	-9.95061
五帝	-9.95169
系	-9.95304
冀州	-9.95348
王師	-9.95378
旬	-9.9545
安得	-9.95481
俾	-9.95495
冶	-9.95631
凌	-9.95646
二十三年	-9.9567
炎	-9.95776
捨	-9.95882
賢者	-9.95885
帝以	-9.959
二州	-9.95953
不信	-9.95964
囘	-9.95972
歆	-9.95975
卦	-9.96006
雙	-9.96131
宦	-9.96137
壹	-9.96173
廢帝	-9.96266
開元	-9.96362
舌	-9.96438
嬴	-9.96457
囊	-9.96459
訊	-9.96475
莫能	-9.96591
而不能	-9.966
少子	-9.96604
邸	-9.9667
竄	-9.96907
㦸	-9.96917
囂	-9.96939
桐	-9.96965
得失	-9.97006
矦	-9.97035
副使	-9.97056
得之	-9.97075
涼	-9.97098
該	-9.97182
必不	-9.97212
納之	-9.97227
不忘	-9.97243
萬餘	-9.97266
戰於	-9.9729
税	-9.97366
扵是	-9.97402
古人	-9.97455
為亂	-9.97488
其意	-9.97527
是月	-9.97599
之則	-9.97646
定公	-9.97679
披	-9.97736
為王	-9.97745
敗之	-9.97755
無功	-9.97762
萊	-9.97844
為一	-9.97846
寃	-9.97923
守之	-9.9793
詰	-9.97937
踐	-9.97938
巷	-9.9795
虧	-9.97971
涉	-9.9799
無忌	-9.98013
嫡	-9.98026
丗	-9.98083
億	-9.98103
望之	-9.98122
箕	-9.9813
孟子	-9.98169
以求	-9.98184
膳	-9.98187
𤓰	-9.9819
溺	-9.98227
佗	-9.98307
行臺	-9.98311
不死	-9.98372
殺其	-9.98376
宣公	-9.98393
衣服	-9.98498
南郡	-9.98529
夏侯	-9.98661
其先	-9.98676
二十二年	-9.98715
倒	-9.98728
一旦	-9.98738
荷	-9.98761
浚	-9.98765
學者	-9.98868
愧	-9.98878
長吏	-9.98888
紀年	-9.98943
藻	-9.98957
滑	-9.99024
栢	-9.99048
宫中	-9.99079
二萬	-9.99085
季氏	-9.99124
句踐	-9.99135
三十六	-9.99245
字仲	-9.99263
侍御史	-9.9931
歟	-9.99314
羡	-9.99354
之志	-9.99359
二十四	-9.99388
遣人	-9.99427
千户	-9.9955
二十卷	-9.99721
幕	-9.99741
集十卷	-9.99755
隊	-9.9977
讎	-9.99837
濮	-9.9989
小國	-9.99986
譖	-10.0002
大軍	-10.001
萌	-10.0011
之外	-10.0014
止之	-10.0017
雲中	-10.0022
滯	-10.0032
巾	-10.0043
河間	-10.0044
清河	-10.0048
以成	-10.0052
由此	-10.0057
握	-10.006
民之	-10.0068
曰天	-10.0075
畿	-10.008
蠻夷	-10.0082
慢	-10.0084
建康	-10.0088
惠公	-10.0096
人也少	-10.0097
鄭伯	-10.01
鑑	-10.0103
孟嘗君	-10.0109
减	-10.0112
兖州	-10.0121
衣冠	-10.0123
者亦	-10.0127
不通	-10.0129
人有	-10.013
檀	-10.013
太史	-10.0136
鬼神	-10.0136
襲爵	-10.0136
倭	-10.0141
帥師	-10.0148
漕	-10.0162
汲	-10.0164
祖宗	-10.0166
應之	-10.0178
印綬	-10.0184
上帝	-10.0187
禱	-10.0194
二世	-10.0195
岱	-10.0201
乃與	-10.0203
北伐	-10.0214
窺	-10.0216
隙	-10.0216
倡	-10.0217
大國	-10.0225
亦曰	-10.0228
而下	-10.023
亥	-10.0231
東方	-10.0236
苻	-10.024
元帥	-10.0243
渤海	-10.0246
之世	-10.0255
庻	-10.0261
巡	-10.0271
大義	-10.0274
請以	-10.0281
逺近	-10.029
卞	-10.029
何不	-10.0291
寗	-10.0291
漆	-10.0292
勵	-10.0292
脫	-10.0293
二十四年	-10.0294
仁義	-10.0296
無罪	-10.0303
東陽	-10.031
昱	-10.0312
沔	-10.032
大學士	-10.0327
鬻	-10.0327
上表	-10.0334
為太尉	-10.0339
永安	-10.0343
孫權	-10.0345
所居	-10.0345
翊	-10.0346
誼	-10.0352
其身	-10.0358
御史大夫	-10.0368
郁	-10.0371
什	-10.0375
消	-10.0379
駭	-10.0381
不聞	-10.0381
得免	-10.0388
惇	-10.0395
欒	-10.0402
排	-10.0404
混	-10.0405
賑	-10.0406
先王之	-10.041
汗	-10.0415
蔑	-10.0416
州諸軍事	-10.0418
琦	-10.0421
禮樂	-10.0431
氷	-10.0437
太和	-10.0457
道路	-10.0466
豈有	-10.0467
文襄	-10.0472
芒	-10.0472
不下	-10.0475
重耳	-10.0478
斌	-10.0478
艱	-10.0483
弩	-10.0484
域	-10.0504
觀之	-10.0512
返	-10.0512
版	-10.0513
從者	-10.0514
冐	-10.0517
簡子	-10.0521
稍遷	-10.0527
翻	-10.0533
着	-10.0538
況	-10.0543
送之	-10.0551
三軍	-10.0552
曰王	-10.0559
壬午	-10.0563
時年	-10.0568
摩	-10.057
龎	-10.0571
監軍	-10.0571
列侯	-10.0575
眷	-10.0576
千餘人	-10.0582
之師	-10.0583
以疾	-10.0584
銓	-10.0594
貲	-10.0596
帝即位	-10.0596
楚子	-10.0598
從容	-10.0598
甲午	-10.0599
有二	-10.06
長樂	-10.0612
陜西	-10.0614
嶠	-10.0618
所言	-10.062
糾	-10.0623
三十卷	-10.0623
冡	-10.0629
而卒	-10.0642
斂	-10.0647
姓名	-10.0647
簡公	-10.0647
乎對曰	-10.065
千餘	-10.0653
立是為	-10.0654
互	-10.0654
太學	-10.0658
篆	-10.0658
不入	-10.066
諫曰	-10.0661
天命	-10.0664
其民	-10.0674
不成	-10.0676
渡江	-10.0678
十里	-10.068
陂	-10.0681
大同	-10.0681
芮	-10.0683
柄	-10.0686
諸臣	-10.0688
縣令	-10.0692
亦以	-10.0695
柴	-10.0706
王者	-10.071
莊子	-10.0717
免官	-10.0718
㳟	-10.0728
黄門侍郎	-10.0729
之類	-10.0735
恂	-10.0735
饋	-10.0739
與其	-10.0745
冬十二月	-10.0749
所敗	-10.0752
之説	-10.0756
賞賜	-10.076
伊尹	-10.0762
之内	-10.0766
製	-10.0769
數月	-10.0769
元嘉	-10.077
繩	-10.0771
歸之	-10.0776
邁	-10.0788
將士	-10.0792
尼雅滿	-10.0792
疇	-10.0803
北海	-10.081
去之	-10.0812
繕	-10.0821
縛	-10.0822
眉	-10.0825
文侯	-10.0826
包	-10.0829
後宫	-10.0835
帯	-10.0847
永嘉	-10.0849
州總管	-10.0852
肩	-10.0854
圭	-10.0859
如何	-10.0861
梁王	-10.0869
有三	-10.087
殯	-10.088
笞	-10.0886
摯	-10.0888
壤	-10.0889
曰公	-10.0913
羞	-10.0915
之禍	-10.0922
人以	-10.0926
謐	-10.0932
疲	-10.0933
弁	-10.0935
趙氏	-10.0937
凱	-10.0938
軒	-10.0938
數日	-10.0942
佳	-10.0959
庚子	-10.0961
噐	-10.0966
夷吾	-10.0967
劔	-10.0968
甥	-10.0968
矣今	-10.0974
復以	-10.0974
四卷	-10.0977
亳	-10.0978
制度	-10.098
隗	-10.0985
有異	-10.0986
節度使	-10.0989
濟南	-10.0993
陋	-10.0995
般	-10.0996
揖	-10.0997
數千人	-10.1
門外	-10.1001
以備	-10.1003
事君	-10.1007
阜	-10.1008
從弟	-10.1011
汴	-10.1015
安石	-10.1016
謫	-10.1023
泄	-10.1024
于齊	-10.1027
寓	-10.1028
遣其	-10.1031
假節	-10.1038
公使	-10.1038
其中	-10.1042
殿中	-10.1047
萇	-10.1052
測	-10.1052
季孫	-10.1054
楚師	-10.1057
者非	-10.1058
之命	-10.1058
寸	-10.1064
所為	-10.1066
兵部尚書	-10.1069
賜之	-10.1074
晃	-10.1082
楽	-10.1088
無復	-10.1088
儀同三司	-10.11
屯田	-10.1104
宦者	-10.1106
朝夕	-10.1107
髮	-10.1111
關中	-10.1116
健	-10.1116
射之	-10.1136
英宗	-10.1145
軫	-10.1147
不顧	-10.1151
中大夫	-10.1156
鄉里	-10.1156
江東	-10.1161
得罪	-10.1162
十日	-10.1165
下邳	-10.1173
徽宗	-10.1175
隔	-10.118
為君	-10.119
太廟	-10.1191
問曰	-10.1194
永平	-10.1196
恬	-10.12
蠶	-10.1201
所害	-10.1207
𢾗	-10.1207
者乎	-10.1213
寡君	-10.1215
山陽	-10.1218
秋九月	-10.1224
究	-10.1233
之屬	-10.1243
齊桓公	-10.1252
濠	-10.1257
辛未	-10.1257
以報	-10.1265
䕶軍	-10.1269
鄉侯	-10.1273
之術	-10.1275
自古	-10.1275
膺	-10.1276
車騎	-10.1287
庚	-10.1292
之後也	-10.1298
臣之	-10.1305
子路	-10.1308
詣闕	-10.1314
尚書僕射	-10.1317
促	-10.1317
箭	-10.1318
晝夜	-10.1319
莊王	-10.1332
為國	-10.1348
貽	-10.1349
迷	-10.1351
各有差	-10.1365
之患	-10.1366
精兵	-10.1368
誨	-10.1378
粮	-10.1379
矣而	-10.1379
而止	-10.1382
逞	-10.1384
甲辰	-10.1389
漢書	-10.1394
王氏	-10.1397
淹	-10.1399
奄	-10.1402
繡	-10.1405
暨	-10.1407
濁	-10.1412
證	-10.1413
之利	-10.1414
僑	-10.1418
叔孫	-10.1426
乙酉	-10.1435
球	-10.1435
三子	-10.1436
故也	-10.1438
洋	-10.1439
二十五	-10.1441
次于	-10.1441
梅	-10.1442
軰	-10.1443
追封	-10.1448
五行	-10.1448
先君	-10.1452
舉進士	-10.1453
揚州刺史	-10.1457
之官	-10.1465
枕	-10.1469
壺	-10.1472
謚曰	-10.1473
來朝	-10.1474
愛之	-10.1475
闗中	-10.1476
陟	-10.1478
大赦天下	-10.1481
詩云	-10.1488
指揮	-10.1491
奐	-10.1497
價	-10.15
生子	-10.1502
有才	-10.1503
左氏	-10.1503
睢	-10.1507
江夏	-10.1509
宗族	-10.1524
疋	-10.1526
徐州刺史	-10.1526
兵部	-10.1526
出於	-10.1529
惲	-10.1535
塟	-10.1537
漢有	-10.1539
曰不可	-10.154
毗	-10.1556
部曲	-10.1557
而退	-10.1561
古者	-10.1564
瀆	-10.1568
盗賊	-10.1574
兖	-10.1574
乙未	-10.1577
案范書	-10.1581
冨	-10.1583
尚書郎	-10.1585
男子	-10.1586
不失	-10.1588
眼	-10.1589
陜	-10.1589
臣聞	-10.1589
縳	-10.1592
無事	-10.1594
為名	-10.1599
公薨	-10.1604
天之	-10.161
為右	-10.1615
諸國	-10.1615
驃騎將軍	-10.1617
詡	-10.1618
輕重	-10.1618
遏	-10.1618
彧	-10.1618
快	-10.1623
啇	-10.1626
捐	-10.1627
進退	-10.1627
𥙷	-10.163
白馬	-10.1633
見殺	-10.1636
偹	-10.1641
曰善	-10.1642
吹	-10.1642
屍	-10.1649
昻	-10.1649
丙子	-10.1651
進位	-10.1654
者多	-10.1658
絃	-10.1658
不問	-10.1658
夀春	-10.1665
雀	-10.1674
令尹	-10.1682
弛	-10.1683
康王	-10.1685
瓘	-10.1686
豕	-10.1687
谿	-10.169
腹心	-10.1692
豫州	-10.1693
萬世	-10.1696
死而	-10.1697
楚之	-10.1701
受之	-10.1707
殿下	-10.171
追之	-10.1711
二千	-10.1712
鞏	-10.1713
臣請	-10.1714
獻子	-10.1716
周易	-10.1717
崖	-10.1718
然而	-10.1726
其志	-10.1729
本紀	-10.174
城下	-10.1742
是日	-10.1745
翰林學士	-10.1745
公㑹諸侯	-10.1745
帝王	-10.1757
綝	-10.1762
秘	-10.1767
羲	-10.1769
盾	-10.1772
數百人	-10.1776
黄門	-10.1778
龔	-10.1779
曰寡人	-10.1781
是年	-10.1784
不易	-10.1788
武成	-10.1795
又遣	-10.18
東平	-10.1804
父兄	-10.1807
穢	-10.1809
日夜	-10.1816
乃令	-10.1817
十餘年	-10.1819
重之	-10.1821
雋	-10.1827
河陽	-10.1829
也然	-10.1829
不聴	-10.1831
不善	-10.1837
眀帝	-10.1837
鶴	-10.1842
十二卷	-10.1846
熲	-10.1856
昬	-10.1863
不祥	-10.1864
豎	-10.1864
釋之	-10.1866
綿	-10.1867
他日	-10.1868
膽	-10.187
冰	-10.1871
冒	-10.1876
北地	-10.1877
恱	-10.1878
姬姓	-10.1885
深入	-10.1888
不自	-10.1891
大司農	-10.1897
言其	-10.1899
不識	-10.19
圓	-10.1908
長者	-10.1911
而復	-10.1914
新城	-10.1917
也吾	-10.1921
不知所	-10.1922
時為	-10.1923
琬	-10.193
禎	-10.1931
三輔	-10.1933
苛	-10.1934
望出	-10.1937
江淮	-10.1937
匱	-10.1942
既至	-10.1946
九十	-10.195
謂其	-10.1951
不安	-10.1951
州縣	-10.1956
七日	-10.1957
壬辰	-10.1959
自此	-10.1968
炳	-10.1975
其實	-10.1977
札	-10.1994
掘	-10.1999
宣子	-10.2001
翰林	-10.2006
十人	-10.2009
至今	-10.2014
留守	-10.2025
駱	-10.2026
韜	-10.203
弄	-10.2031
粤	-10.2033
筠	-10.2034
不納	-10.204
江州	-10.2052
在外	-10.2053
少有	-10.2053
之民	-10.2059
李氏	-10.2061
曰朕	-10.2063
魯人	-10.2063
有司奏	-10.2063
叩頭	-10.2064
中常侍	-10.2068
殖	-10.2068
而反	-10.2072
尚書左僕射	-10.2075
一作	-10.2078
不已	-10.2083
塘	-10.2088
天地之	-10.2096
翔	-10.2097
九江	-10.2103
其心	-10.2115
涇	-10.2121
辛亥	-10.2122
周禮	-10.2139
三司	-10.2144
其年	-10.2147
琮	-10.2147
亞	-10.215
百人	-10.2151
諒	-10.2152
子貢	-10.2152
謀反	-10.2153
鐡	-10.2154
安帝	-10.2157
膝	-10.2158
壞	-10.2162
稱之	-10.2164
群	-10.2166
元祐	-10.2166
菜	-10.2167
來聘	-10.2173
其一	-10.2183
徼	-10.2185
不知其	-10.2189
俠	-10.219
甲寅	-10.219
以歸	-10.2197
其上	-10.2207
可乎	-10.2208
貴妃	-10.2212
給事	-10.2224
紏	-10.2227
後周	-10.2232
参	-10.2233
曰是	-10.2236
扶風	-10.2236
失其	-10.2243
城門	-10.2249
戊子	-10.2251
太康	-10.2255
靈王	-10.2265
辛丑	-10.2283
只	-10.2289
草木	-10.2292
几	-10.2295
曼	-10.2296
矣夫	-10.2296
皆為	-10.23
曰吾聞	-10.2301
所至	-10.2307
耳目	-10.231
乙亥	-10.2317
䘏	-10.2319
開皇	-10.2319
譴	-10.232
縦	-10.2322
事之	-10.2322
柳	-10.2322
通判	-10.2325
睿	-10.2333
從事中郎	-10.2333
攷	-10.2336
與秦	-10.2342
都御史	-10.2343
伏羲	-10.2344
戊午	-10.2353
少卿	-10.2354
斃	-10.2357
苞	-10.2358
鈔	-10.236
懲	-10.2363
及諸	-10.2379
孝公	-10.2383
燮	-10.2385
丙寅	-10.2386
吟	-10.2393
沂	-10.2395
西方	-10.2396
尋陽	-10.2397
詹	-10.2397
居之	-10.2405
二十七年	-10.2412
軍士	-10.2422
諸侯之	-10.2433
中郎	-10.2441
之任	-10.2442
施行	-10.245
怒曰	-10.2451
將以	-10.2453
廹	-10.2455
枚	-10.2455
禦之	-10.2455
八百	-10.2459
豊	-10.2462
黍	-10.2463
椒	-10.2471
其功	-10.2481
兵馬	-10.2484
戌	-10.2486
丙辰	-10.2487
知制誥	-10.249
塲	-10.2492
秦秦	-10.2499
九州	-10.25
確	-10.2516
玩	-10.2518
字元	-10.2518
乃還	-10.2519
特進	-10.2521
己巳	-10.2522
丁未	-10.2532
所生	-10.2535
萬里	-10.2538
朝政	-10.2539
憐	-10.2544
春三月	-10.2552
大風	-10.2555
悖	-10.2558
中正	-10.2567
在此	-10.2572
家貧	-10.2576
朋	-10.2586
平原君	-10.2588
瑗	-10.2589
後有	-10.2589
踈	-10.2593
受其	-10.2603
問之	-10.2614
稱其	-10.2616
漁	-10.2617
庚午	-10.2618
令人	-10.2621
元舊	-10.2622
摧	-10.2625
村	-10.2625
而進	-10.2629
羸	-10.263
愆	-10.2632
四百	-10.2632
女為	-10.2634
伏誅	-10.2637
年表	-10.2644
二十六年	-10.2651
二十八年	-10.2653
丁亥	-10.2656
劫	-10.2658
之勢	-10.2659
值	-10.2659
人臣	-10.2662
鉅鹿	-10.2662
也臣	-10.2665
黄金	-10.2665
立為	-10.2665
癸未	-10.2667
善之	-10.2669
浙江	-10.267
主人	-10.2674
國語	-10.2689
字文	-10.2689
親戚	-10.2689
又云	-10.269
鉞	-10.2691
言者	-10.2691
之樂	-10.2693
塔	-10.2697
無禮	-10.2703
王命	-10.2703
恵王	-10.2703
人多	-10.2704
琨	-10.2711
遇害	-10.2713
栗	-10.2722
乳	-10.2722
成功	-10.2724
諸州	-10.2725
茶	-10.2725
榆	-10.2728
丙午	-10.2729
凝	-10.273
蘇秦	-10.2738
溥	-10.2739
之才	-10.2746
宫人	-10.2748
劉裕	-10.2749
丙	-10.2754
褚	-10.2755
評	-10.2756
為主	-10.2757
久矣	-10.2759
博學	-10.2759
拒之	-10.2762
𢎞農	-10.2764
輯	-10.2764
廣州	-10.2764
可得	-10.2766
衛尉	-10.2769
枯	-10.2769
若不	-10.277
文字	-10.2774
雕	-10.2795
于秦	-10.2797
是非	-10.2802
涼州	-10.2802
傲	-10.2804
渡河	-10.2806
因此	-10.2811
坊	-10.2825
之情	-10.2828
隅	-10.2831
闇	-10.2834
緣	-10.2834
字叔	-10.2841
顥	-10.2842
曲沃	-10.2842
以後	-10.2844
也乃	-10.2851
者則	-10.2853
己亥	-10.2862
言曰	-10.2862
奎	-10.2869
賓客	-10.2871
熱	-10.2872
之變	-10.2886
之數	-10.289
賜死	-10.2896
庚申	-10.29
為左	-10.2904
徇	-10.2904
祔	-10.2906
攘	-10.2906
山中	-10.2908
兖州刺史	-10.2909
哈	-10.291
主事	-10.2914
坤	-10.2916
大驚	-10.2923
道武	-10.2923
嘆	-10.2923
三代	-10.2924
堯舜	-10.2924
晉國	-10.2924
楚國	-10.2925
功曹	-10.2928
乙丑	-10.293
不明	-10.2934
襄子	-10.2937
截	-10.2938
吞	-10.2939
九卿	-10.2946
臣竊	-10.2948
中丞	-10.2948
不得已	-10.2948
不果	-10.2953
判官	-10.2959
諮	-10.297
太監	-10.2971
丁巳	-10.2972
禮部	-10.2973
廬江	-10.2974
底	-10.2976
又為	-10.298
宋朝	-10.298
大鴻臚	-10.299
淮南子	-10.2993
悅	-10.2994
于時	-10.2994
尚書左丞	-10.2997
逋	-10.3
簒	-10.3
之家	-10.3004
戊辰	-10.3005
凉	-10.3007
倖	-10.3008
訥	-10.3009
遮	-10.3009
蓄	-10.301
畨	-10.3011
􁁊	-10.3011
二十萬	-10.3012
黔	-10.3014
顓頊	-10.302
未知	-10.3028
王使	-10.3028
曽孫	-10.303
其下	-10.303
岑	-10.3038
大統	-10.3039
開封	-10.3044
之道也	-10.3045
沙門	-10.3046
東門	-10.3051
洩	-10.3055
法度	-10.3059
下詔	-10.306
衛將軍	-10.3065
䑕	-10.3072
𤼵	-10.3074
所部	-10.3075
内侍	-10.3076
令史	-10.3078
繞	-10.308
朴	-10.3082
銜	-10.3084
奏事	-10.3085
寘	-10.3086
自立	-10.3087
桓温	-10.3092
行人	-10.31
郡太守	-10.3106
上以	-10.3107
眞宗	-10.3108
秦之	-10.3109
己丑	-10.3112
苻堅	-10.3114
憑	-10.3115
晟	-10.3115
千金	-10.3117
廖	-10.3118
㓕	-10.3119
亾	-10.312
于楚	-10.3122
不服	-10.3123
退而	-10.3129
不便	-10.3129
孝王	-10.313
吐谷渾	-10.3135
蠲	-10.3137
五萬	-10.3148
番	-10.3152
中原	-10.3152
即日	-10.3153
竈	-10.3154
圖一卷	-10.3154
辛巳	-10.3181
頸	-10.3182
庚寅	-10.3182
途	-10.3183
裳	-10.3184
彤	-10.3186
繒	-10.3188
毫	-10.3189
柏	-10.319
庙	-10.3198
潞	-10.3199
盜賊	-10.321
洪武	-10.3211
丁酉	-10.3214
鳩	-10.3215
雖然	-10.3215
鈎	-10.3219
失之	-10.3219
酬	-10.3222
所知	-10.3233
雍州	-10.3234
安平	-10.3238
魯侯	-10.3241
江州刺史	-10.325
辛酉	-10.3253
穎	-10.3253
曰何	-10.3255
外戚	-10.3256
禾	-10.3257
以安	-10.3261
断	-10.3266
入于	-10.327
浙	-10.3273
陪	-10.328
西京	-10.3283
非常	-10.3285
響	-10.3285
癸酉	-10.3287
吾子	-10.3292
朝臣	-10.3294
曰陛下	-10.3297
犢	-10.3297
奴婢	-10.3298
觴	-10.3299
驩	-10.33
慶之	-10.3302
教授	-10.3309
置酒	-10.331
直言	-10.3315
因之	-10.3318
王敦	-10.3319
金人	-10.3321
一切	-10.3321
可也	-10.3325
司𨽻校尉	-10.3326
昉	-10.3327
圖之	-10.3337
大悦	-10.3343
主上	-10.3344
嘉之	-10.3344
而殺之	-10.3349
江左	-10.3357
問其故	-10.3361
己酉	-10.3363
壬子	-10.3364
椘	-10.3366
涕泣	-10.3366
中書監	-10.3368
南宫	-10.3368
鼔	-10.3368
起家	-10.3371
澹	-10.3372
佚	-10.3373
頗有	-10.3375
嘗與	-10.3379
孝子	-10.338
有詔	-10.3385
欲令	-10.3386
左僕射	-10.3386
而入	-10.3387
赫	-10.3392
自以	-10.3393
年少	-10.3395
聖人之	-10.3396
敗走	-10.3398
國中	-10.3398
艦	-10.3399
逐之	-10.3401
扇	-10.3402
璫	-10.3402
所欲	-10.3403
竟不	-10.3405
歐陽	-10.3405
忠賢	-10.3406
之㑹	-10.3406
骨肉	-10.3407
齊國	-10.3419
獨不	-10.3422
第二	-10.3424
以来	-10.343
以功	-10.3431
世本	-10.3432
南郊	-10.3432
薪	-10.3435
求之	-10.3436
行事	-10.3436
模	-10.3436
諸葛亮	-10.3437
鏡	-10.3438
召公	-10.3439
隕	-10.3441
人也祖	-10.3442
准	-10.3444
勘	-10.3446
不悦	-10.3447
北方	-10.3447
煬帝	-10.3458
是歳	-10.346
卒年六十	-10.3462
於天下	-10.3468
匠	-10.3472
潭	-10.3476
叩	-10.3477
桓帝	-10.3478
酌	-10.3481
媚	-10.3482
之初	-10.3497
十餘人	-10.3498
一朝	-10.3499
晞	-10.3499
伐宋	-10.3502
南海	-10.3502
于此	-10.3502
不平	-10.3505
監國	-10.3506
諶	-10.3507
或有	-10.3508
刁	-10.3511
剋	-10.3512
網	-10.3514
繋	-10.3516
匪	-10.3518
械	-10.3519
甸	-10.3521
宿衛	-10.3522
不獲	-10.3522
皷	-10.3523
之議	-10.353
延年	-10.3532
禁中	-10.3537
同姓	-10.3537
對曰臣	-10.3537
少昊	-10.3538
召見	-10.3544
戊寅	-10.3545
歙	-10.3545
紙	-10.3547
論語	-10.3547
愔	-10.355
不容	-10.355
沐	-10.3551
暠	-10.3551
暑	-10.3553
春二月	-10.3555
征伐	-10.3557
琅邪王	-10.3557
崇禎	-10.356
元昊	-10.356
訛	-10.3561
不堪	-10.3565
轉運使	-10.3569
薦之	-10.3571
朝士	-10.3575
召之	-10.3587
戊申	-10.3588
殉	-10.3591
之學	-10.3593
甚厚	-10.3593
記室	-10.3594
並為	-10.3594
與王	-10.3595
衢	-10.3596
怯	-10.3597
常以	-10.3597
畝	-10.3599
廣漢	-10.3605
亦為	-10.3606
范蠡	-10.3607
六人	-10.3608
不止	-10.3609
而得	-10.3617
總管	-10.3618
曇	-10.3621
綺	-10.3626
標	-10.363
狎	-10.363
昔者	-10.3632
已下	-10.3633
瑶	-10.3634
從征	-10.3635
曷	-10.364
有五	-10.3641
羽林	-10.3644
雲南	-10.3645
金城	-10.365
董卓	-10.366
其文	-10.3662
唱	-10.3663
皇甫	-10.3673
百年	-10.3675
猶有	-10.3678
髙陽	-10.3692
肯	-10.3694
騫	-10.3701
叟	-10.3703
替	-10.3704
孺	-10.3705
彂	-10.3707
鉏	-10.3709
石勒	-10.3712
陽虎	-10.3713
三分	-10.3719
其才	-10.3721
承天	-10.3727
願陛下	-10.3729
中尉	-10.3732
丁丑	-10.3734
壬寅	-10.3736
癸巳	-10.3738
壬申	-10.3742
俯	-10.3742
瑋	-10.3742
汙	-10.3742
暇	-10.3748
蔵	-10.3749
父老	-10.3755
孝經	-10.3756
可汗	-10.3757
庶子	-10.3763
昆弟	-10.3769
埋	-10.3773
禮記	-10.3774
有疾	-10.3776
牒	-10.3777
蹈	-10.3779
鼻	-10.378
嬪	-10.3782
皇上	-10.3788
如晉	-10.3793
馮翊	-10.3798
訣一卷	-10.3806
癸	-10.3809
之謂	-10.381
大旱	-10.3813
王孫	-10.3813
丹陽尹	-10.3816
終日	-10.3816
碎	-10.3819
糴	-10.3819
夙	-10.3819
寫	-10.3819
十五卷	-10.3819
之兵	-10.3823
東都	-10.3823
也遂	-10.3836
相繼	-10.3839
不必	-10.3843
晉王	-10.385
袁紹	-10.3856
㫁	-10.386
牆	-10.386
榜	-10.386
飽	-10.3862
永興	-10.3865
有此	-10.3867
下獄	-10.3868
錦衣	-10.3871
其有	-10.3873
丑	-10.3875
行於世	-10.3877
之謀	-10.388
未㡬	-10.3881
者三	-10.3881
石虎	-10.3882
周之	-10.3888
光禄勲	-10.3889
瓌	-10.389
梟	-10.3891
贓	-10.3891
閹	-10.3893
坦	-10.3898
食之	-10.3898
之族	-10.3901
覩	-10.3903
自為	-10.3909
母弟	-10.3912
終身	-10.3912
姿	-10.3924
雒	-10.3925
癸丑	-10.3928
償	-10.3933
囬	-10.3933
悍	-10.3934
迫	-10.3935
若有	-10.3935
故不	-10.3938
及長	-10.3938
河南尹	-10.3942
牛馬	-10.3947
入宫	-10.3948
宗正	-10.395
禮之	-10.395
有子	-10.3952
非所以	-10.3957
之業	-10.3958
也君	-10.3962
丙申	-10.3967
大喜	-10.3968
庚辰	-10.3968
其黨	-10.3969
愼	-10.3973
視事	-10.3974
鞠	-10.3976
探	-10.3976
慷慨	-10.4005
脚	-10.4008
亦無	-10.4008
東郡	-10.4009
千萬	-10.4012
綰	-10.4013
岡	-10.4014
紛	-10.4016
天道	-10.4017
夫差	-10.4018
臯陶	-10.4018
車馬	-10.4024
卒官	-10.403
有道	-10.4036
自守	-10.4045
孝武帝	-10.4051
迄	-10.4051
順帝	-10.4052
墻	-10.4052
師于	-10.4053
諸大夫	-10.4056
之重	-10.4057
彘	-10.4058
敝邑	-10.4073
肅宗	-10.4075
朝野	-10.4084
苖	-10.4087
敗績	-10.409
暫	-10.4091
两	-10.4093
召為	-10.4094
自今	-10.4096
諤	-10.4097
㑹于	-10.4102
嘆曰	-10.4105
諸儒	-10.411
麾	-10.4111
東魏	-10.4113
受禪	-10.4114
京口	-10.412
或以	-10.4124
交趾	-10.4127
六國	-10.4127
腰	-10.4128
沃	-10.413
㸃	-10.413
災異	-10.4131
逄	-10.4131
人物	-10.4131
措	-10.4134
封禪	-10.4135
册	-10.4136
智伯	-10.4137
偕	-10.4138
幽王	-10.4143
記一卷	-10.4146
叔向	-10.4149
僉	-10.4155
于晉	-10.4159
永元	-10.4159
追尊	-10.4161
庶人	-10.4165
棟	-10.4167
風俗通	-10.4169
軍國	-10.4176
太妃	-10.4176
無他	-10.4183
使使	-10.4183
春正月	-10.4183
南山	-10.4187
是謂	-10.4193
鄆	-10.4194
公羊	-10.4197
簡文	-10.4202
立功	-10.4202
國事	-10.4202
癸亥	-10.4203
旨	-10.4206
佑	-10.4207
武侯	-10.4207
與我	-10.4208
臻	-10.421
▁子	-10.4215
桓子	-10.4215
孽	-10.4217
僖公	-10.4221
諸君	-10.4228
青州刺史	-10.4232
譯	-10.4236
賜以	-10.424
斧	-10.425
二十七	-10.425
遣使者	-10.4257
五色	-10.4257
衣食	-10.4258
泗	-10.4262
以前	-10.4262
翦	-10.4264
泰始	-10.4268
遂為	-10.4273
洗	-10.4275
道士	-10.428
帖	-10.4284
梓	-10.4285
或謂	-10.4286
二十九年	-10.4288
犀	-10.4288
愽	-10.4291
鎬	-10.4291
百僚	-10.4292
駒	-10.4293
丈夫	-10.4298
諸公	-10.43
為大司馬	-10.4306
之位	-10.4309
零	-10.4314
不治	-10.4321
㢘	-10.4323
準	-10.4324
杲	-10.4327
不樂	-10.4328
濤	-10.4329
以問	-10.4331
人事	-10.4331
又言	-10.4343
召還	-10.4345
宦官	-10.4346
沛公	-10.4346
管子	-10.4349
驃騎	-10.4352
大將	-10.4352
臣謹按	-10.4359
二十八	-10.4361
山西	-10.4362
埶	-10.4368
貝	-10.4368
顯宗	-10.4368
熾	-10.4369
范陽	-10.4373
僻	-10.4375
逾	-10.4376
盍	-10.4377
使持節	-10.4381
非也	-10.4387
驍	-10.4392
信之	-10.4394
裏	-10.4399
也於是	-10.44
入城	-10.4401
尚書右僕射	-10.4403
壻	-10.4403
出兵	-10.4407
伎	-10.4409
頒	-10.441
朔方	-10.4411
或言	-10.4412
以是	-10.4414
按原書	-10.4415
若是	-10.4415
蓬	-10.4416
士民	-10.4416
今君	-10.4418
不起	-10.4422
之號	-10.4424
之敗	-10.4424
東京	-10.4438
人所	-10.4443
論者	-10.4443
暹	-10.4445
之節	-10.4447
州牧	-10.4452
煥	-10.4454
弘	-10.4455
舘	-10.4457
㽞	-10.4457
死罪	-10.4457
奉詔	-10.4461
猷	-10.4463
望見	-10.4464
世之	-10.4464
廸	-10.4465
之聲	-10.4478
與語	-10.4481
三國	-10.449
函	-10.4491
汚	-10.4494
沿	-10.4494
桂陽	-10.4497
從兄	-10.4499
日中	-10.451
成子	-10.4516
諸葛	-10.4518
訣	-10.452
至矣	-10.4521
奪其	-10.4521
常山	-10.4522
於楚	-10.4522
中書舍人	-10.4525
輔臣	-10.4526
羿	-10.4529
輝	-10.4534
療	-10.4534
恚	-10.4535
虗	-10.4535
己未	-10.4536
拂	-10.4539
其間	-10.454
軾	-10.4542
華陽	-10.4543
以致	-10.4547
從子	-10.4547
獻之	-10.4555
門人	-10.4555
吴王	-10.4557
曰彼	-10.4558
不義	-10.4562
非其	-10.4563
自號	-10.4569
而欲	-10.4571
以應	-10.4572
有天下	-10.4572
何必	-10.4574
永昌	-10.4575
左將軍	-10.4575
於外	-10.4576
毓	-10.4576
金銀	-10.4577
漁陽	-10.4578
之矣	-10.4578
將帥	-10.4581
哀王	-10.4583
五星	-10.4585
其書	-10.459
因以	-10.4591
譬	-10.4596
定國	-10.4597
為民	-10.4597
舊制	-10.4599
萬户	-10.4604
鄂	-10.4605
疑之	-10.4608
不盡	-10.4611
璞	-10.4612
懋	-10.4613
等並	-10.4614
溫	-10.4614
壬	-10.4615
行幸	-10.4616
拱	-10.4619
訾	-10.4621
兵起	-10.4622
責之	-10.4622
部落	-10.4623
驟	-10.4625
蠡	-10.4625
邇	-10.4627
上疏曰	-10.4627
相如	-10.463
金陵	-10.4631
郃	-10.4631
代王	-10.4649
躍	-10.4652
驢	-10.4656
戯	-10.4658
填	-10.4658
虎賁	-10.4659
耗	-10.4661
一言	-10.4665
以為然	-10.4665
圃	-10.4669
經史	-10.4669
弱冠	-10.4673
風雨	-10.4682
自然	-10.4683
元年春正月	-10.4687
非所	-10.4688
大梁	-10.469
染	-10.4693
次子	-10.4695
奉使	-10.4699
敦煌	-10.4701
太中大夫	-10.4702
嗟乎	-10.4704
拾遺	-10.4704
鵠	-10.4705
弦	-10.4705
國有	-10.4707
齊師	-10.4708
所著	-10.4708
三王	-10.4713
攻魏	-10.4715
自知	-10.4727
藍	-10.4733
厨	-10.4736
抄	-10.4739
騎都尉	-10.4743
霜	-10.4746
偪	-10.4749
城郭	-10.4762
不疑	-10.4764
城内	-10.4768
宜陽	-10.477
閉門	-10.477
開門	-10.4772
范書	-10.4774
第五	-10.4777
金帛	-10.4778
攻城	-10.478
蝗	-10.4783
狩	-10.4783
踵	-10.4785
汜	-10.4785
灼	-10.4786
驥	-10.4787
憎	-10.4787
北面	-10.479
無有	-10.4793
嗣位	-10.4795
百餘里	-10.4797
辜	-10.4802
自陳	-10.4809
長孫	-10.4811
有寵	-10.4816
乃命	-10.4816
孺子	-10.4817
少年	-10.4818
籌	-10.4822
蹇	-10.4822
中行	-10.4823
勛	-10.4823
撤	-10.4824
鉤	-10.4825
袍	-10.4825
書云	-10.4826
覧	-10.4827
國王	-10.4828
股	-10.483
磨	-10.4831
冀州刺史	-10.4832
歴位	-10.4834
夷狄	-10.4844
以死	-10.4847
忠義	-10.4847
冏	-10.4856
益州刺史	-10.4858
衮	-10.4859
蔚	-10.4867
帷	-10.487
功名	-10.487
灰	-10.487
零陵	-10.487
兵法	-10.487
綵	-10.4871
搆	-10.4871
障	-10.4871
拯	-10.4872
騐	-10.4872
去官	-10.4875
㘴	-10.4876
景帝	-10.488
各一人	-10.489
國除	-10.4891
欲殺	-10.4892
為文	-10.4893
不立	-10.49
遣兵	-10.4901
臘	-10.4901
不忠	-10.4909
而民	-10.491
殁	-10.4911
春申君	-10.4912
未必	-10.4912
鄫	-10.4918
縂	-10.4926
太常卿	-10.4929
和帝	-10.4929
疾病	-10.4929
以身	-10.4934
明公	-10.4935
穆王	-10.494
靈帝	-10.494
二十一	-10.494
南方	-10.4944
曰非	-10.4949
閱	-10.4951
揮	-10.4951
武陵	-10.4951
乙巳	-10.4952
熒惑	-10.4954
顛	-10.4955
百八十	-10.4955
上柱國	-10.4956
告急	-10.4958
爱	-10.4961
賢人	-10.4961
渙	-10.4962
何故	-10.4969
楚楚	-10.4977
無敢	-10.4981
聞之曰	-10.4981
敢不	-10.4983
樂毅	-10.4989
郝	-10.4992
僣	-10.4994
當以	-10.4994
耽	-10.5
大行	-10.5
服之	-10.5002
組	-10.5002
剖	-10.5002
不拜	-10.5005
影	-10.5009
使其	-10.5015
刑罰	-10.5016
晉師	-10.5016
討平之	-10.5017
甚衆	-10.5031
太白	-10.5032
第十	-10.5033
上谷	-10.5034
所獲	-10.5035
祭祀	-10.5035
王王	-10.5036
䜟	-10.504
魏軍	-10.5042
堵	-10.5042
都䕶	-10.5045
廩	-10.5047
南安	-10.5049
之職	-10.5063
之形	-10.5072
泓	-10.5076
境内	-10.508
霧	-10.5084
三千人	-10.5085
蚤	-10.5088
柯	-10.509
湖廣	-10.509
佯	-10.5091
滿洲語	-10.5095
執事	-10.5099
太山	-10.5099
此其	-10.51
城南	-10.5104
儀同	-10.5107
貴賤	-10.5109
六卷	-10.511
厲王	-10.5116
章句	-10.5118
太元	-10.512
板	-10.5125
廻	-10.5126
禆	-10.5127
而弗	-10.5128
搏	-10.5131
荣	-10.5131
体	-10.5132
稚	-10.5134
閎	-10.5135
别駕	-10.5139
乃出	-10.514
迎之	-10.5141
出知	-10.5142
苐	-10.5143
與楚	-10.5156
舎人	-10.5159
建興	-10.5163
文成	-10.5167
逖	-10.5171
此言	-10.5173
馥	-10.5174
不亦	-10.5174
捷	-10.5176
弭	-10.5178
有聲	-10.5178
宣城	-10.5179
悪	-10.5179
于王	-10.5181
乃得	-10.5182
欲立	-10.5186
因而	-10.519
數十人	-10.5202
鄉人	-10.5203
通志卷	-10.5204
入見	-10.5209
款	-10.5211
之弟	-10.5213
嗜	-10.5213
之孫	-10.5213
大司空	-10.5214
瑩	-10.5214
緡	-10.5218
問其	-10.5218
繹	-10.5218
北征	-10.5218
者其	-10.5222
壓	-10.5223
燧	-10.5224
必死	-10.5225
而求	-10.5226
也原	-10.5228
雖不	-10.5236
年老	-10.5241
引見	-10.5247
固請	-10.5254
鄭人	-10.5259
又與	-10.5259
唐虞	-10.5263
纓	-10.5266
八卷	-10.5266
粛	-10.5272
憚之	-10.5273
坎	-10.5274
遷于	-10.5276
其主	-10.5279
恐其	-10.5284
固守	-10.5291
酒泉	-10.5295
引為	-10.5297
彩	-10.5299
信都	-10.53
功封	-10.5302
廐	-10.5303
寤	-10.5306
竒之	-10.5306
漳	-10.5306
詆	-10.5311
東都事略卷	-10.5312
不進	-10.5313
弑其君	-10.5315
吳郡	-10.5316
入為	-10.5318
赤眉	-10.532
往來	-10.5327
早卒	-10.5328
而天下	-10.5331
小子	-10.5332
大呼	-10.5333
一也	-10.5333
於前	-10.5341
銳	-10.5344
時事	-10.5344
詧	-10.5346
猾	-10.5347
戊	-10.5347
苟	-10.5351
四夷	-10.5352
為氏	-10.5354
挟	-10.5355
月餘	-10.5356
不屈	-10.5358
禮部尚書	-10.5365
濟隂	-10.5366
弋	-10.5367
晉楚	-10.5373
三老	-10.5373
黄龍	-10.5377
自謂	-10.5379
哀帝	-10.538
二女	-10.5386
酈	-10.539
西戎	-10.539
姻	-10.5391
廓	-10.5391
扼	-10.5392
宋人	-10.5393
鴈門	-10.5396
諾	-10.5397
壅	-10.5397
起居	-10.5397
廪	-10.54
位至	-10.5403
百户	-10.5403
矣然	-10.5408
得志	-10.5412
衆軍	-10.5412
拜為	-10.5413
二年春正月	-10.5414
髙麗	-10.5415
食邑	-10.5415
成侯	-10.5417
定州	-10.5418
行至	-10.542
曰諾	-10.5426
千五百	-10.5427
告之	-10.5432
建鄴	-10.5435
遺詔	-10.5435
著書	-10.5439
刪	-10.5441
頡	-10.5441
狹	-10.5444
灾	-10.5446
愁	-10.5447
不豫	-10.5448
元康	-10.5454
僧辯	-10.5455
禘	-10.5456
燕趙	-10.5458
皇考	-10.5459
莫如	-10.546
謂之曰	-10.5461
新野	-10.5463
南昌	-10.5464
周官	-10.5464
民間	-10.5466
萬暦	-10.5469
上䟽	-10.5476
第三	-10.548
近臣	-10.5482
禀	-10.5485
奠	-10.5487
七卷	-10.5488
撓	-10.5488
建元	-10.5494
不動	-10.5495
天子之	-10.5496
奔齊	-10.5506
其能	-10.5507
延夀	-10.5507
議郎	-10.551
獲其	-10.5512
事者	-10.5517
烏孫	-10.552
涕	-10.5522
暗	-10.5523
可為	-10.5525
芻	-10.5527
欲與	-10.5527
又使	-10.5528
殄	-10.5528
曰不然	-10.5531
卬	-10.5532
墟	-10.5532
膏	-10.5532
共王	-10.5534
録尚書事	-10.5535
山陵	-10.5535
隘	-10.5538
轅	-10.5539
病卒	-10.554
卒年七十	-10.5549
三十里	-10.555
鼓吹	-10.555
襄十	-10.555
北平	-10.5556
之書	-10.5562
而能	-10.5563
至尊	-10.5563
陽城	-10.5563
收其	-10.5564
韓子	-10.5569
㩀	-10.557
五代	-10.5581
偷	-10.5581
大人	-10.56
秦昭王	-10.5604
何足	-10.5606
筮	-10.5612
曰可	-10.5613
乗輿	-10.5619
若何	-10.562
户部	-10.5623
加侍中	-10.5625
璉	-10.5629
后稷	-10.5629
変	-10.5631
烏桓	-10.5631
樂安	-10.5638
有差	-10.5639
而生	-10.564
集二十卷	-10.5645
為天子	-10.5647
無益	-10.5649
禧	-10.5655
財物	-10.5656
經畧	-10.5658
絡	-10.5661
謡	-10.5661
不載	-10.5663
奭	-10.5666
卯	-10.5668
崔杼	-10.5671
長公主	-10.5671
魴	-10.5673
稱為	-10.5673
隋文帝	-10.5676
字季	-10.5677
君也	-10.5678
不幸	-10.5679
而不知	-10.5679
又何	-10.5683
伐陳	-10.5684
聚衆	-10.5692
趙盾	-10.5692
鄱陽	-10.5695
吳興	-10.5699
幘	-10.5704
亶	-10.571
八人	-10.5713
輟	-10.5713
利害	-10.5714
滇	-10.5715
托	-10.5716
是歲	-10.5717
愉	-10.5718
再遷	-10.573
得一	-10.5732
安邑	-10.5733
秦州	-10.5736
山隂	-10.5745
衆皆	-10.5748
新安	-10.5749
洮	-10.575
天監	-10.5758
正徳	-10.5759
襄二十	-10.5761
土地	-10.5761
箴	-10.5762
及至	-10.5762
迭	-10.5762
朝鮮	-10.5765
何所	-10.5768
戰國	-10.5771
腐	-10.5772
嵗餘	-10.578
征討	-10.5789
京城	-10.5791
光祿大夫	-10.5793
濮陽	-10.5794
則不	-10.5795
涪	-10.5798
司𨽻	-10.58
不可不	-10.58
江都	-10.5801
年七十	-10.5801
棄之	-10.5802
參知政事	-10.5804
眀年	-10.5807
昨	-10.5807
夭	-10.5811
祇	-10.5812
斬其	-10.5814
字公	-10.5816
為尚書	-10.5817
正統	-10.5819
天水	-10.5825
加散騎常侍	-10.5826
嗚呼	-10.5831
行也	-10.5837
廣平	-10.5841
為我	-10.5841
於朝	-10.5842
同知	-10.5843
頃公	-10.5845
都下	-10.5847
懐王	-10.5849
承制	-10.585
掃	-10.5854
黙然	-10.5855
媯	-10.5855
挫	-10.586
合肥	-10.5862
陽太守	-10.5867
之用	-10.5868
六卿	-10.5872
西平	-10.5874
扁鵲	-10.5874
夏人	-10.5876
吉凶	-10.5882
臣下	-10.5884
下車	-10.5885
此書	-10.5887
未聞	-10.5893
紳	-10.5901
屡	-10.5904
轡	-10.5904
劳	-10.5907
水旱	-10.5909
禽獸	-10.591
浸	-10.591
傳云	-10.5915
度支	-10.5916
姪	-10.5917
先後	-10.5917
鍾離	-10.5918
二曰	-10.5919
必以	-10.5919
三品	-10.5925
勉之	-10.5928
周室	-10.5932
趙鞅	-10.5935
存亡	-10.5936
昂	-10.5939
率兵	-10.5941
祕書監	-10.5943
南面	-10.5945
繪	-10.5948
閏	-10.5948
七百	-10.595
𦙍	-10.5952
闢	-10.5952
戢	-10.5953
之始	-10.5953
數十萬	-10.5957
張掖	-10.5958
上書言	-10.5961
進曰	-10.5962
無異	-10.5966
多矣	-10.5971
不去	-10.5971
而君	-10.5977
真定	-10.5977
進軍	-10.5987
慟	-10.5989
禕	-10.599
王導	-10.5991
稼	-10.5995
法令	-10.5995
棗	-10.5995
䜛	-10.6
無人	-10.6002
領兵	-10.6002
羈	-10.6005
所宜	-10.6007
同郡	-10.6008
闔廬	-10.6008
嘉其	-10.6009
雒陽	-10.601
疾篤	-10.6022
南征	-10.6024
之說	-10.6025
相傳	-10.6026
郊祀	-10.6029
不答	-10.603
騶	-10.6037
我我	-10.6042
乃召	-10.6043
街	-10.6046
䕃	-10.6049
酺	-10.6053
玄	-10.6055
臣等	-10.6061
顓	-10.6062
為天下	-10.6064
季子	-10.6073
武平	-10.6074
隷	-10.6074
出塞	-10.6074
桓元	-10.6077
卿士	-10.6081
為皇太子	-10.6082
瑀	-10.6083
少師	-10.6086
之風	-10.6087
克之	-10.609
拓	-10.609
少時	-10.609
渚	-10.6091
隄	-10.6091
妬	-10.6092
勾	-10.6092
憾	-10.6092
臨淮	-10.6093
集二卷	-10.6094
茹	-10.6094
相持	-10.6096
與人	-10.6097
樞密使	-10.6101
不取	-10.6103
鮑叔	-10.6105
太皇太后	-10.6109
乃復	-10.6111
武都	-10.6116
方今	-10.6117
當有	-10.6119
白起	-10.6124
無窮	-10.6125
陛	-10.613
曄	-10.6132
齊神武	-10.6133
二王	-10.6135
員外郎	-10.6137
擲	-10.6138
治之	-10.6138
綴	-10.614
歇	-10.6141
者有	-10.6142
鍼	-10.6142
周文	-10.6144
狥	-10.6145
犂	-10.6146
建徳	-10.615
安之	-10.6154
或作	-10.6154
辭曰	-10.6155
第四	-10.6156
子夏	-10.6159
觀其	-10.6159
淳于	-10.6165
不能用	-10.6169
义	-10.6171
朝貢	-10.6172
交通	-10.6173
所作	-10.6174
浪	-10.6186
鬱	-10.6188
棠	-10.619
丸	-10.6192
技	-10.6192
七人	-10.6193
為質	-10.6194
舍之	-10.6195
髠	-10.6195
吏士	-10.6204
倦	-10.6206
號令	-10.6213
執之	-10.6215
死於	-10.6217
其兄	-10.6218
事不	-10.6226
論一卷	-10.6233
知人	-10.6234
不改	-10.6234
公叔	-10.6238
蘄	-10.6238
刋	-10.6238
著作郎	-10.624
吿	-10.6244
此則	-10.6252
共工	-10.6253
禮義	-10.6257
敬王	-10.626
當今	-10.6266
安都	-10.6271
儒者	-10.6273
奏請	-10.6275
侍講	-10.6275
歐	-10.6275
椿	-10.6276
不解	-10.6283
蚩尤	-10.6284
亊	-10.6285
西伯	-10.6285
鉉	-10.6286
貂	-10.6287
之憂	-10.6287
共公	-10.6295
神明	-10.6302
蒐	-10.6302
則無	-10.6302
二字	-10.6302
大明	-10.6306
龍門	-10.631
不加	-10.6311
鎮撫	-10.6312
以明	-10.6313
女也	-10.6315
足矣	-10.6316
言事	-10.6318
為都督	-10.6321
朝服	-10.6323
柵	-10.6325
世為	-10.6329
為尚書令	-10.6331
丁卯	-10.6332
遂殺	-10.6335
徙封	-10.6336
帝遣	-10.6338
軍旅	-10.6342
與魏	-10.6343
歴代	-10.6344
進兵	-10.6347
而亡	-10.635
安能	-10.635
竟陵	-10.6354
為司馬	-10.6362
稽首	-10.6364
曰請	-10.637
教之	-10.6374
覲	-10.6376
忠孝	-10.6378
有過	-10.638
説之	-10.638
稜	-10.638
為秦	-10.6381
隸	-10.6383
晉文公	-10.6386
鄖	-10.6387
賜姓	-10.6387
選舉	-10.6388
官軍	-10.6389
粹	-10.6389
冬至	-10.639
際	-10.6397
衆心	-10.64
地方	-10.64
初置	-10.6403
人君	-10.6406
嶺南	-10.6408
人者	-10.641
四子	-10.641
京都	-10.6416
永樂	-10.6417
世隆	-10.6426
興師	-10.643
知縣	-10.6433
分為	-10.6434
國也	-10.6437
躡	-10.6438
伸	-10.6438
它	-10.6439
伋	-10.644
㱕	-10.6441
之南	-10.6441
左丞	-10.6444
古文	-10.6446
自若	-10.6456
故人	-10.6456
不道	-10.6458
未嘗不	-10.6461
始興	-10.6462
奔走	-10.6464
總兵	-10.6474
與同	-10.6475
爾朱榮	-10.6475
見於	-10.6477
案范	-10.6481
訢	-10.6482
曰秦	-10.6484
闡	-10.6484
馭	-10.6484
以救	-10.6485
出公	-10.6485
狡	-10.6486
其門	-10.6487
砦	-10.6489
其義	-10.6489
未得	-10.6489
劵	-10.6491
隴右	-10.6491
棲	-10.6492
炙	-10.6494
蔓	-10.6495
詔獄	-10.6499
便宜	-10.65
二十二	-10.6506
鳥獸	-10.6507
陽平	-10.6509
其族	-10.6512
瓚	-10.6521
趙武	-10.6529
歸于	-10.6531
乃自	-10.6531
淮陽	-10.6534
購	-10.6535
叢	-10.6538
平生	-10.6538
辛卯	-10.6539
烝	-10.654
魂	-10.654
隰	-10.654
攜	-10.654
珽	-10.6542
詩書	-10.6543
而自	-10.6545
衆人	-10.6545
以奉	-10.6546
自有傳	-10.6547
記云	-10.6547
伐秦	-10.655
漢兵	-10.655
聖王	-10.6552
麾下	-10.6555
禮也	-10.6563
一萬	-10.6563
語曰	-10.6568
遇之	-10.6569
曰然	-10.657
數人	-10.6572
何謂	-10.6574
已死	-10.6575
大亂	-10.6577
宋右廸功郎鄭樵漁仲撰	-10.6578
興宗	-10.6579
之盛	-10.6579
越人	-10.658
示之	-10.6581
郵	-10.6581
自成	-10.6583
槐	-10.6583
鞍	-10.6585
粗	-10.6586
膠	-10.6596
大理	-10.6603
燔	-10.6605
不修	-10.6606
參政	-10.6607
蘭陵	-10.6613
分兵	-10.6613
威儀	-10.6615
同心	-10.6621
嬰齊	-10.6623
酉	-10.6631
輜重	-10.6635
來奔	-10.6637
勒兵	-10.6638
於上	-10.6638
霄	-10.6639
鱗	-10.6639
搜	-10.664
嘉靖	-10.6641
嚮	-10.6642
莫若	-10.6644
携	-10.6645
吾君	-10.665
歌曰	-10.6654
縊	-10.6657
刑部	-10.6659
犯法	-10.6661
之力	-10.6661
生於	-10.6671
弇	-10.6674
有隙	-10.6676
自立為	-10.6677
孫氏	-10.6678
之於是	-10.668
鉅	-10.6681
未定	-10.6682
行而	-10.6684
旄	-10.6684
三皇	-10.6685
島	-10.6685
公㑹	-10.6688
無可	-10.6688
○	-10.6688
必先	-10.669
頂	-10.669
黃帝	-10.6691
翠	-10.6691
庇	-10.6692
建初	-10.6697
建業	-10.67
跋	-10.6701
哲宗	-10.6702
之前	-10.6706
復舊	-10.6706
二十九	-10.6707
康公	-10.671
弗許	-10.6711
復置	-10.6711
開國	-10.6713
弗能	-10.6714
魯君	-10.6719
建平	-10.673
齡	-10.6731
褐	-10.6733
乙卯	-10.6734
兵至	-10.6736
今之	-10.6737
歎息	-10.6744
藴	-10.6745
烹	-10.6747
處之	-10.675
福建	-10.675
服其	-10.6753
三郡	-10.6754
見而	-10.6769
劉備	-10.6774
昕	-10.6785
指揮使	-10.6786
炎帝	-10.6788
纔	-10.6789
内附	-10.6789
卭	-10.6789
柩	-10.6789
與俱	-10.6789
揆	-10.6795
嘗為	-10.6795
不任	-10.6795
子良	-10.6798
黄門郎	-10.6798
厄	-10.68
乗勝	-10.68
䝉遜	-10.6808
張氏	-10.6814
慶封	-10.6821
必敗	-10.6822
秦師	-10.6823
之女	-10.6825
巴陵	-10.6826
珣	-10.6828
猶未	-10.6834
遷都	-10.6834
所親	-10.6837
拾	-10.6838
二日	-10.6839
議論	-10.684
党	-10.6842
泛	-10.6842
籠	-10.6843
王叔	-10.6843
七十二	-10.6844
)□(	-10.6844
樞密副使	-10.6844
兀	-10.6845
詘	-10.6845
歩騎	-10.6847
猝	-10.6849
諡曰文	-10.6851
任城	-10.6854
則可	-10.6854
三晉	-10.6858
翳	-10.6858
府庫	-10.6859
赦之	-10.686
出自	-10.6861
有事	-10.6865
生而	-10.6867
遼西	-10.6869
人間	-10.6869
之文	-10.6869
今年	-10.687
臨朝	-10.6871
許昌	-10.6872
委以	-10.6873
義陽	-10.6877
城陽	-10.6885
之象	-10.6885
濟北	-10.6888
問於	-10.6889
樵	-10.6889
師曠	-10.689
斫	-10.6891
帝乃	-10.6892
勦	-10.6892
閏月	-10.6893
慱	-10.6894
澗	-10.6895
各一	-10.6895
名為	-10.6895
為帝	-10.6896
忻	-10.6896
中郎将	-10.6899
天祚	-10.6902
三世	-10.6915
齊楚	-10.6916
曰必	-10.692
入海	-10.6922
家屬	-10.6927
裒	-10.6933
前代	-10.6938
受業	-10.694
緑	-10.6943
矛	-10.6945
梧	-10.6947
瞿	-10.6947
軼	-10.6948
泊	-10.6949
軍敗	-10.695
儋	-10.6951
案范書本傳	-10.6952
遂入	-10.6952
有人	-10.6954
聘于	-10.6954
柰何	-10.6955
西周	-10.6955
威王	-10.6955
吕氏春秋	-10.6961
相率	-10.6967
者曰	-10.6967
圍之	-10.6968
曰無	-10.6972
鯀	-10.6976
禍福	-10.6981
宋公	-10.6981
昭二十	-10.6983
賦詩	-10.6983
又詔	-10.6985
正色	-10.6986
哀侯	-10.6991
怡	-10.6995
朝議	-10.6998
以正	-10.6999
璽書	-10.7002
年八十	-10.7004
成十	-10.7006
𣣔	-10.7008
以父	-10.7009
大司徒	-10.7011
囯	-10.7013
之末	-10.7016
陳蔡	-10.7017
力戰	-10.702
降者	-10.702
三十萬	-10.7021
甲兵	-10.7023
卒年五十	-10.7024
中道	-10.7028
數萬人	-10.7033
奉朝請	-10.7044
所以為	-10.7046
甚多	-10.7046
莫之	-10.7046
龕	-10.7048
爕	-10.7048
車師	-10.7049
麋	-10.7049
罪人	-10.7051
兇	-10.7052
倪	-10.7052
集五卷	-10.7053
朂	-10.7054
錄尚書事	-10.7055
匹夫	-10.7056
塩	-10.7056
怖	-10.7056
堕	-10.7057
覈	-10.7057
君子之	-10.7059
野王	-10.706
反覆	-10.7064
公私	-10.7069
田氏	-10.7073
在前	-10.7086
語在	-10.7092
子思	-10.7094
陽縣	-10.7095
其可	-10.7096
大敗之	-10.7097
年六十	-10.7102
東至	-10.7103
其次	-10.7105
槃	-10.7105
縣伯	-10.7105
黄巾	-10.7106
順天	-10.7106
先登	-10.7107
扞	-10.7107
右僕射	-10.7109
其勢	-10.7114
降之	-10.7116
衷	-10.712
晏子曰	-10.7124
武陵王	-10.7128
大功	-10.7128
食其	-10.713
不廢	-10.7131
河上	-10.7137
此乃	-10.7141
忠信	-10.7145
初封	-10.7146
吳人	-10.7148
挽	-10.7153
大者	-10.7155
涿	-10.7156
因其	-10.7157
窘	-10.7157
匄	-10.7157
知府	-10.7158
處士	-10.7159
遂至	-10.7159
拊	-10.716
穆之	-10.7161
蒼梧	-10.7161
受詔	-10.7164
冤	-10.7165
釣	-10.7166
餓	-10.7167
上有	-10.7169
後以	-10.7171
之理	-10.7174
若之何	-10.7174
元和	-10.7178
入秦	-10.718
其首	-10.7188
衞將軍	-10.719
䏻	-10.7195
懌	-10.7203
為令尹	-10.7204
其本	-10.7205
輔國將軍	-10.7212
郯	-10.7213
複	-10.7214
一家	-10.7214
孟氏	-10.7214
邃	-10.7215
贄	-10.7216
帑	-10.7218
朋黨	-10.7219
殃	-10.7219
安南	-10.7219
胙	-10.722
太子太傅	-10.7222
于朝	-10.7222
中書郎	-10.7222
欲使	-10.7226
此二	-10.7227
社稷之	-10.7237
李斯	-10.7238
勝之	-10.724
害之	-10.7241
即以	-10.7241
而成	-10.7242
旬日	-10.7242
故城	-10.7245
魯國	-10.7248
溉	-10.7251
皂	-10.7253
二州刺史	-10.7254
輕騎	-10.7254
而使	-10.7257
中官	-10.7257
奏之	-10.726
孔氏	-10.7263
寐	-10.7264
賜錢	-10.7265
悝	-10.7266
声	-10.7269
孕	-10.7269
粥	-10.7273
三曰	-10.7273
稱臣	-10.7274
㝠	-10.7274
與子	-10.7274
自言	-10.7275
豪傑	-10.7275
稻	-10.7276
千八百	-10.7278
軒轅	-10.7278
本朝	-10.728
復與	-10.728
屑	-10.7281
永明	-10.7285
甘茂	-10.7286
徃徃	-10.7289
臣恐	-10.7293
髙平	-10.7293
豈非	-10.7293
損益	-10.7299
楊素	-10.7303
下有	-10.7305
有四	-10.7306
不敬	-10.7309
無私	-10.7312
熹	-10.7313
以義	-10.7314
其所以	-10.7315
陳氏	-10.7315
家語	-10.7316
雎	-10.7317
定王	-10.732
諂	-10.7321
鯉	-10.7321
豈能	-10.7321
以天下	-10.7322
妨	-10.7322
駮	-10.7324
遍	-10.7325
周人	-10.7326
祕書	-10.7327
将士	-10.7329
靈太后	-10.7331
不仕	-10.7331
伐蜀	-10.7337
墨子	-10.7338
之徳	-10.734
大笑	-10.7342
貴戚	-10.7343
曰天下	-10.7346
乆矣	-10.7346
将兵	-10.735
元孫	-10.735
山谷	-10.7351
也昔	-10.7354
擊破之	-10.7357
萬騎	-10.7358
懼而	-10.7363
不避	-10.7364
諮議參軍	-10.7368
呵	-10.737
揺	-10.737
内臣	-10.7372
販	-10.7373
就國	-10.7375
淚	-10.7376
京兆尹	-10.7377
蒯	-10.7382
謝曰	-10.7383
異姓	-10.7385
勃海	-10.7385
䆒	-10.7386
尔	-10.7386
陕西	-10.7391
自以為	-10.7392
曾孫	-10.7397
是其	-10.7401
有志	-10.7409
復有	-10.741
使臣	-10.7411
十五里	-10.7411
参軍	-10.7412
竺	-10.7417
衛侯	-10.7419
大夏	-10.7423
不滿	-10.7425
以私	-10.7426
汎	-10.743
堤	-10.7431
吾聞	-10.7433
進號	-10.7436
宋衛	-10.7436
譛	-10.7436
甚有	-10.7438
駢	-10.7441
亡命	-10.7442
畆	-10.7445
獻帝	-10.7447
頓首	-10.7448
慶父	-10.7452
徙居	-10.7452
以濟	-10.7452
戎狄	-10.7453
乃立	-10.7455
人無	-10.7459
王元	-10.746
千戸	-10.746
縂兵	-10.7461
不能自	-10.7465
三年春正月	-10.7465
尭	-10.747
而况	-10.747
山南	-10.747
大懼	-10.7476
百家	-10.7476
璠	-10.7477
此人	-10.7479
復入	-10.7483
五里	-10.7484
別	-10.7486
想	-10.7486
昵	-10.7488
懇	-10.7491
餙	-10.7491
爛	-10.7491
縠	-10.7492
死亡	-10.7498
戰敗	-10.7498
廆	-10.7499
昭十	-10.7502
瘞	-10.7502
梁州刺史	-10.7505
奏曰	-10.751
周書	-10.7515
詹事	-10.7521
著作	-10.7524
姚興	-10.7527
獠	-10.7531
班師	-10.7531
公族	-10.7531
為郡	-10.7532
小兒	-10.754
控	-10.7542
臨江	-10.7545
曰大	-10.7546
軍至	-10.7547
猜	-10.7548
項羽	-10.7554
交州	-10.7564
前鋒	-10.7569
禮儀	-10.7569
法一卷	-10.7571
撫軍	-10.7575
所過	-10.7579
公事	-10.7581
縣子	-10.7583
景王	-10.7583
奉命	-10.7583
注云	-10.7587
二國	-10.7588
竦	-10.759
非有	-10.759
國子	-10.7593
奨	-10.7595
峯	-10.7596
夣	-10.76
水陸	-10.76
潮	-10.76
緝	-10.7601
頑	-10.7602
脉	-10.7602
母曰	-10.7603
請為	-10.7604
兎	-10.7604
凢	-10.7606
少好學	-10.761
死不	-10.7611
率騎	-10.7611
書奏	-10.7614
故能	-10.762
割地	-10.762
州府	-10.7624
齊之	-10.7625
而走	-10.7627
除名	-10.7628
終始	-10.7633
棄市	-10.7636
油	-10.764
夫婦	-10.764
你	-10.7644
諫議大夫	-10.7644
皎	-10.7645
定陶	-10.7646
汶	-10.7648
貎	-10.765
城守	-10.7652
猥	-10.7654
人或	-10.7655
故有	-10.7655
國子祭酒	-10.7656
録一卷	-10.7656
威名	-10.7658
應天	-10.766
日食	-10.766
王后	-10.7662
諛	-10.7662
萬民	-10.7664
仲堪	-10.7668
後人	-10.7673
毛詩	-10.7674
於諸侯	-10.7674
此皆	-10.7679
二十三	-10.768
踐阼	-10.7682
杜預	-10.7683
右將軍	-10.7689
以罪	-10.7691
百二十	-10.7692
濵	-10.7692
人民	-10.7696
梁州	-10.7697
其利	-10.7697
無常	-10.77
授之	-10.7702
海上	-10.7703
班固	-10.7705
轂	-10.7706
所聞	-10.7706
丐	-10.7708
于周	-10.7708
而起	-10.7709
甚矣	-10.7714
范氏	-10.7715
撥	-10.7715
事也	-10.7715
卵	-10.7715
寂	-10.7718
逝	-10.772
祖父	-10.7731
安樂	-10.7731
罷之	-10.7734
童子	-10.774
每有	-10.7741
乎曰	-10.7741
劉表	-10.7742
五十里	-10.7745
人父	-10.7746
當死	-10.7748
西魏	-10.775
於晉	-10.7751
闔	-10.7751
為前鋒	-10.7755
王公	-10.7758
舟師	-10.7759
攸之	-10.776
癸卯	-10.7762
入闗	-10.7766
官爵	-10.7767
有名	-10.7768
元旧	-10.7769
命也	-10.7773
廕	-10.7774
荼	-10.7774
䴡	-10.7774
秦人	-10.7775
未見	-10.7775
平章	-10.7776
二十人	-10.7778
尚史卷	-10.7778
千二百	-10.7785
救鄭	-10.7785
仲子	-10.7786
蔡邕	-10.7786
所見	-10.779
二十餘	-10.7791
漢陽	-10.7791
相攻	-10.7792
所由	-10.7793
威將軍	-10.7794
王儉	-10.7797
化為	-10.7797
不稱	-10.7804
不可得	-10.7807
君何	-10.7808
聊	-10.7808
字景	-10.7812
十有二	-10.7813
成敗	-10.7813
迥	-10.7816
紿	-10.782
梗	-10.7825
為後	-10.7826
按金史	-10.7827
堰	-10.7827
者乃	-10.7831
然之	-10.7831
悛	-10.7832
者衆	-10.7839
案此	-10.784
疑其	-10.7846
遂滅	-10.7846
閣臣	-10.7846
卒于	-10.7847
提舉	-10.7852
四面	-10.7853
以相	-10.7856
蜀人	-10.7856
未之	-10.7857
梁武	-10.7862
年二十	-10.7862
豈得	-10.7863
表請	-10.7864
穰	-10.7865
封侯	-10.7866
之美	-10.7868
四川	-10.7871
聰明	-10.7871
欽宗	-10.7874
魏氏	-10.7875
死子	-10.7875
君命	-10.7883
舉秀才	-10.7885
孫子	-10.789
諸縣	-10.7891
少孤	-10.7891
歴陽	-10.7892
慝	-10.7894
識者	-10.7894
世紀	-10.7897
明經	-10.7902
何得	-10.7905
惠帝	-10.7908
延之	-10.791
韓非子	-10.7913
則民	-10.7914
公車	-10.7915
太史公	-10.7916
美人	-10.7916
之門	-10.7924
絶其	-10.7924
使君	-10.7924
金石	-10.7929
埽	-10.7933
悌	-10.7934
世充	-10.7935
蟬	-10.7938
玠	-10.7939
璟	-10.7939
黎陽	-10.794
六軍	-10.794
劉毅	-10.7943
和親	-10.7946
登科	-10.7946
牡	-10.7948
長平	-10.7949
㑹諸侯之大夫	-10.7951
此時	-10.7961
王崩	-10.7963
哭之	-10.7964
萬國	-10.797
末年	-10.7971
尚之	-10.7971
諌曰	-10.7973
終於	-10.7974
國號	-10.7983
時政	-10.7985
五官	-10.7986
史官	-10.7987
海陵	-10.7989
平陵	-10.7991
銖	-10.7991
玊	-10.7992
刄	-10.7993
鬚	-10.7994
寮	-10.7995
未盡	-10.7995
猗	-10.7997
楨	-10.7997
廣州刺史	-10.7998
龜兹	-10.7998
篡	-10.7998
為刺史	-10.8
趙趙	-10.8004
不自安	-10.8004
傉檀	-10.8005
長城	-10.8005
司馬懿	-10.8007
奉迎	-10.8013
賞罰	-10.8013
之戰	-10.8014
然也	-10.8017
來降	-10.8018
上流	-10.802
不仁	-10.8029
乃歸	-10.803
志云	-10.8031
謝罪	-10.8032
貢獻	-10.8034
遣使朝貢	-10.8035
婦女	-10.8039
親征	-10.8046
祜	-10.8051
芬	-10.8052
覬	-10.8054
委任	-10.8055
文書	-10.8057
秃	-10.8058
駁	-10.8058
中書舎人	-10.8059
甲戌	-10.8061
逺矣	-10.8061
伐晉	-10.8061
五等	-10.8062
不意	-10.8062
徴為	-10.8063
紘	-10.8063
蒸	-10.8063
復遣	-10.8065
又作	-10.807
無知	-10.8073
萬計	-10.8076
以待之	-10.8083
之盟	-10.8087
與齊	-10.8087
良久	-10.8098
更名	-10.81
如其	-10.81
淮南王	-10.8106
所滅	-10.8106
至京師	-10.8111
䛇	-10.8112
慘	-10.8116
单	-10.8118
盎	-10.8118
同時	-10.8118
剪	-10.8119
是何	-10.8119
肹	-10.8124
上郡	-10.8127
吕覽	-10.8128
還都	-10.8129
三百人	-10.8134
白虎	-10.8134
事秦	-10.8135
一子	-10.8138
山林	-10.8139
廢立	-10.8142
而未	-10.8144
萬年	-10.8145
㑹諸侯	-10.8145
言官	-10.8147
帝嚳	-10.8149
三州	-10.815
有文	-10.8152
地而	-10.8154
新序	-10.8157
死後	-10.816
軍民	-10.8161
箕子	-10.8162
攀	-10.8164
召入	-10.8164
東夷	-10.8166
公公	-10.8167
若夫	-10.8167
言語	-10.8167
秦兵	-10.817
騷	-10.817
訐	-10.8173
團	-10.8174
執中	-10.8179
於人	-10.8179
冠軍	-10.8179
縶	-10.8183
先人	-10.8184
燎	-10.8184
蓼	-10.8185
之西	-10.8186
不測	-10.8186
太上	-10.8187
與諸	-10.8192
而言	-10.8193
元顯	-10.8194
公及	-10.8195
吾欲	-10.8196
以為不可	-10.8196
攻齊	-10.8199
太清	-10.82
幽州刺史	-10.8203
又謂	-10.8204
黄鐘	-10.8206
明主	-10.8208
僖二十	-10.8212
其將	-10.8215
閼	-10.8216
卒於家	-10.8224
趙魏	-10.8228
臣也	-10.8228
懦	-10.8229
國子博士	-10.8229
汰	-10.8232
宵	-10.8233
為太傅	-10.8233
踰年	-10.8236
齊齊	-10.8237
奪之	-10.8238
不順	-10.8239
研	-10.8239
需	-10.824
獻文	-10.824
庠	-10.8241
執法	-10.8241
縣男	-10.8242
戒之	-10.8247
許諾	-10.8251
顧謂	-10.8252
置之	-10.8255
焚之	-10.8256
不法	-10.8257
其辭	-10.8259
士誠	-10.8263
伯父	-10.8266
者悉	-10.8266
三嵗	-10.827
数十	-10.8272
平侯	-10.8275
數嵗	-10.8275
行者	-10.8276
一等	-10.8279
入關	-10.8281
章獻	-10.8281
國無	-10.8282
朽	-10.8282
伏兵	-10.8282
致之	-10.8284
南康	-10.8284
璜	-10.8288
水軍	-10.8289
乞骸骨	-10.829
牋	-10.8291
驂	-10.8294
伴	-10.8295
摇	-10.8295
懿公	-10.8297
其城	-10.8298
自有	-10.8299
之賢	-10.8302
虵	-10.8303
群臣	-10.8304
欲得	-10.8308
於民	-10.8308
以故	-10.8308
討賊	-10.8311
孫叔敖	-10.8312
有徳	-10.8314
事皆	-10.832
侵我	-10.8324
亦作	-10.8324
一嵗	-10.8332
韓詩	-10.8334
有變	-10.8335
加以	-10.8339
于天下	-10.834
過人	-10.834
又問	-10.8341
將有	-10.8342
儒學	-10.8342
坦之	-10.8343
孝友	-10.8345
庚戌	-10.8347
給事黄門侍郎	-10.8347
厮	-10.8348
光禄	-10.8348
永和	-10.8349
縑	-10.8355
蘆	-10.8355
蔡侯	-10.8358
愬	-10.8359
拳	-10.836
惰	-10.8361
羔	-10.8361
靳	-10.8362
祧	-10.8363
顔色	-10.8363
避之	-10.8363
襲封	-10.8364
道子	-10.8365
年十五	-10.8368
縉	-10.8373
無遺	-10.8374
還京師	-10.8376
之服	-10.8378
安世	-10.838
四萬	-10.838
梁武帝	-10.8382
萬機	-10.8384
於道	-10.8387
以次	-10.839
請降	-10.8391
十數	-10.8394
侯子	-10.8398
齊魯	-10.8398
衛将軍	-10.84
難以	-10.8402
留之	-10.8402
傳曰	-10.8404
成化	-10.8405
麤	-10.8409
槩	-10.8409
竝	-10.8414
公室	-10.8416
莘	-10.8417
淡	-10.8418
纎	-10.8418
舉孝亷	-10.8419
駙馬都尉	-10.842
摶	-10.842
轍	-10.842
十餘日	-10.8422
孰與	-10.8422
沆	-10.8423
前將軍	-10.8423
一月	-10.8424
皝	-10.8424
烏珠	-10.8426
漢之	-10.8426
更相	-10.8427
疫	-10.8427
之母	-10.8428
股肱	-10.8428
妻之	-10.8429
小字	-10.8434
謂人曰	-10.8443
遣子	-10.8444
髙宗	-10.8445
子元	-10.8448
復何	-10.8451
武威	-10.8457
莫有	-10.8459
巴蜀	-10.846
至孝	-10.846
稱疾不	-10.8464
呼為	-10.8466
應侯	-10.8467
也及	-10.8467
問于	-10.8467
田宅	-10.8467
大雨	-10.8472
曹公	-10.8472
在朝	-10.8472
戀	-10.8473
不暇	-10.8474
鷹	-10.8474
三十一年	-10.8474
友諒	-10.8475
曰今日	-10.8476
慚	-10.8476
五百里	-10.8476
工部	-10.8477
上卿	-10.8478
羮	-10.8478
器械	-10.8479
餌	-10.8482
之詩	-10.8483
𥙿	-10.8485
磬	-10.8486
撃之	-10.8487
弓矢	-10.8487
在郡	-10.8489
者以為	-10.8489
𢡟	-10.8491
而食	-10.8494
以和	-10.8495
亦如之	-10.8499
貴州	-10.8504
西至	-10.8506
故得	-10.8507
武城	-10.8515
於周	-10.8522
故地	-10.8525
君王	-10.8526
無後	-10.8527
廬陵	-10.8529
進攻	-10.8529
其死	-10.8531
丙戌	-10.8531
者無	-10.8531
甚盛	-10.8531
築城	-10.8531
賚	-10.8534
千六百	-10.8535
跨	-10.8538
杼	-10.8544
百寮	-10.8544
堅守	-10.8554
年三十	-10.8556
之北	-10.8558
無故	-10.8558
趙簡子	-10.8558
不救	-10.8559
繼之	-10.8564
皇天	-10.8567
曰願	-10.8569
三十三年	-10.8571
悔之	-10.8572
以東	-10.8573
居正	-10.8577
牛酒	-10.8582
時論	-10.8582
城西	-10.8582
保定	-10.859
太平興國	-10.859
糓	-10.8593
中領軍	-10.8595
吐蕃	-10.8595
捍	-10.8595
於時	-10.8598
作樂	-10.8598
大舉	-10.8598
内閣	-10.86
傭	-10.86
昜	-10.8601
監察御史	-10.8602
胸	-10.8604
工部尚書	-10.8604
吳起	-10.8606
容貌	-10.8607
袖	-10.8607
臨川	-10.8609
上天	-10.8609
魯公	-10.8612
甘泉	-10.8618
尚書右丞	-10.8622
平之	-10.8622
彗	-10.8625
上意	-10.8626
中山王	-10.8628
初立	-10.8628
後復	-10.863
且夫	-10.8631
三十二	-10.8631
如楚	-10.8635
不中	-10.8636
遣將	-10.8637
至自	-10.8643
為司	-10.8644
為郎	-10.8645
一篇	-10.8645
王安石	-10.8645
縣官	-10.8646
姒	-10.8655
國君	-10.8656
而至	-10.8657
當是時	-10.8657
上皇	-10.8658
燾	-10.8666
籓	-10.8666
終身不	-10.8672
蒍	-10.8674
二三	-10.8678
下士	-10.8679
諸侯王	-10.8683
矣若	-10.8693
以獻	-10.8694
國用	-10.8696
吾所	-10.8698
員外	-10.8702
經術	-10.8702
不願	-10.8703
以討	-10.8703
所執	-10.8704
與戰	-10.8707
黄初	-10.8709
南直	-10.8709
儀注	-10.8711
不孝	-10.8712
渝	-10.8718
其議	-10.8719
至徳	-10.8721
阪	-10.8724
望風	-10.8724
于外	-10.8728
罸	-10.8728
漫	-10.8728
場	-10.8729
金史	-10.8735
衞尉	-10.8735
平定	-10.8735
綱紀	-10.8738
北至	-10.8742
城外	-10.8742
悉以	-10.8748
至則	-10.8748
兵革	-10.8749
十三卷	-10.8749
北京	-10.8752
脈	-10.8756
之物	-10.8756
九卷	-10.8759
名士	-10.876
又令	-10.8763
武功	-10.8764
林父	-10.8764
陕	-10.8767
晉陵	-10.877
入洛	-10.8771
欲為	-10.8775
以實	-10.8778
者莫不	-10.8779
曰然則	-10.8779
雲陽	-10.8783
聶	-10.8783
厠	-10.8783
見害	-10.8784
崧	-10.8784
臨淄	-10.8786
征西將軍	-10.8786
荆軻	-10.8788
曩	-10.8789
腸	-10.879
礪	-10.879
掖庭	-10.8791
滂	-10.8791
不一	-10.8792
沸	-10.8792
其謀	-10.8797
秦州刺史	-10.8797
為庶人	-10.8797
之語	-10.8806
令狐	-10.8808
月令	-10.8814
五百人	-10.8815
第六	-10.8816
不知也	-10.8822
襄城	-10.8823
之失	-10.8824
出戰	-10.8827
祖母	-10.8828
其職	-10.883
大名	-10.8831
北宫	-10.8833
可不	-10.8839
鎧	-10.8843
种	-10.8844
黯	-10.8845
康叔	-10.8847
孝昭	-10.8848
看	-10.885
縣有	-10.8851
為御史	-10.8852
殿前	-10.8852
打	-10.8852
諜	-10.8853
薳	-10.8856
勰	-10.8856
袁術	-10.8856
嫂	-10.8856
覃	-10.8857
欲殺之	-10.8859
為東	-10.886
安危	-10.8861
桀紂	-10.8861
于天	-10.8861
諸部	-10.8863
晉大夫	-10.8864
詔令	-10.8865
奔晉	-10.8865
治天下	-10.8867
其位	-10.8869
封為	-10.8871
義宣	-10.8877
昌邑	-10.8879
一千	-10.8882
任之	-10.8882
王道	-10.8884
謚文	-10.8886
復見	-10.8889
倉卒	-10.8898
遁去	-10.8902
城北	-10.8902
禇	-10.8905
王琳	-10.8906
散騎侍郎	-10.8906
金紫光禄大夫	-10.8907
於天	-10.8908
暐	-10.8908
之政	-10.891
全忠	-10.8913
懈	-10.8913
覘	-10.8913
百金	-10.8914
渴	-10.8915
㤙	-10.8915
夙夜	-10.892
脂	-10.8921
韓信	-10.8922
机	-10.8922
在上	-10.8932
誰能	-10.8933
獻王	-10.8944
觀察	-10.8948
仲父	-10.895
罷兵	-10.8951
昭侯	-10.8951
人之所	-10.8952
騭	-10.896
不倦	-10.896
繼遷	-10.8962
五千人	-10.8963
國政	-10.8964
如此則	-10.8966
璩	-10.8971
二郡	-10.8972
之餘	-10.8973
鉄	-10.8976
耳今	-10.8979
相去	-10.8979
禮部侍郎	-10.898
偏將軍	-10.898
漂	-10.898
仆	-10.8982
鼠	-10.8982
夀陽	-10.8984
註	-10.8986
亡國	-10.8989
所重	-10.8989
往往	-10.8989
肱	-10.8994
左遷	-10.8995
不待	-10.8996
少而	-10.8999
中人	-10.9
管仲曰	-10.9001
曰先生	-10.9004
有常	-10.9007
趙髙	-10.9008
國寳	-10.9015
有識	-10.9016
在後	-10.9016
遜位	-10.9017
其徳	-10.9017
矣又	-10.9017
有竒	-10.9018
尚有	-10.9019
坐事	-10.9019
爾雅	-10.902
城人	-10.9022
山崩	-10.9024
攻趙	-10.9031
其行	-10.9032
帝親	-10.9034
頽	-10.9035
裝	-10.9037
賊帥	-10.9037
咸平	-10.9037
未發	-10.904
杯	-10.9042
呈	-10.9042
臼	-10.9043
颺	-10.9045
庾亮	-10.9047
魏郡	-10.9049
藪	-10.9051
年五十	-10.9052
郡人	-10.9053
老人	-10.9055
不害	-10.9064
乗馬	-10.9065
主者	-10.9065
牢之	-10.9066
於内	-10.9066
出于	-10.9067
祝融	-10.9068
于民	-10.907
并州刺史	-10.9071
以軍功	-10.9073
五品	-10.9075
三尺	-10.9076
郡中	-10.908
鄭氏	-10.9086
安陸	-10.9088
納言	-10.9092
所破	-10.9092
皆在	-10.9095
宗人	-10.9097
非是	-10.9099
紗	-10.9099
忱	-10.91
之恩	-10.9101
聰敏	-10.9102
也願	-10.9104
旻	-10.9106
稱疾	-10.9106
戰死	-10.9108
酒酣	-10.9108
衘	-10.9108
舛	-10.9109
濕	-10.911
楯	-10.9114
他人	-10.9114
諫官	-10.9116
大夫種	-10.9118
於國	-10.912
虎牢	-10.9121
華元	-10.9123
即皇帝位	-10.9124
奔于	-10.9128
其道	-10.9128
十一卷	-10.9129
掖	-10.9133
予之	-10.9135
二縣	-10.9135
前軍	-10.9138
至南京	-10.9138
都指揮使	-10.914
出師	-10.9141
巴西	-10.9141
封爵	-10.9143
下大夫	-10.9143
地志	-10.9144
願得	-10.9145
自後	-10.9145
相望	-10.915
廷臣	-10.9154
在於	-10.9154
河中	-10.9155
仲文	-10.9155
善射	-10.9157
水火	-10.9157
陰陽	-10.9157
魏武	-10.9162
四州	-10.9164
撻	-10.9164
七十餘	-10.9166
小白	-10.9167
秦使	-10.9168
鴈	-10.9169
千餘里	-10.9169
憲宗	-10.9169
謚忠	-10.9171
椎	-10.9171
躁	-10.9172
窟	-10.9172
曽子	-10.9173
韓王	-10.9173
戰勝	-10.9176
當為	-10.918
内有	-10.9182
莖	-10.9182
百疋	-10.9184
五六	-10.9186
矣故	-10.9188
艱難	-10.9188
瞽	-10.919
所愛	-10.9193
桓王	-10.9195
劉向	-10.9197
非一	-10.9198
之論	-10.9199
憐之	-10.9202
昭儀	-10.9202
四曰	-10.9202
元景	-10.9204
後至	-10.9204
萬一	-10.9206
依舊	-10.9206
前驅	-10.9207
王妃	-10.9217
卒諡曰	-10.9221
秦漢	-10.9222
如初	-10.9223
北門	-10.9226
智者	-10.9228
諭之	-10.923
易之	-10.923
鴆	-10.9234
秦楚	-10.9236
安陵	-10.9236
遂有	-10.9236
娥	-10.9237
城東	-10.9237
餞	-10.9238
粉	-10.9238
頥	-10.9239
雩	-10.924
鹽鐵	-10.924
魏文侯	-10.9241
骸	-10.9242
拙	-10.9243
摘	-10.9247
蜚	-10.9248
郕	-10.9248
以書	-10.9249
下令	-10.9252
天保	-10.9253
為人臣	-10.9253
以供	-10.9255
尊號	-10.9255
大赦改元	-10.9262
淮北	-10.9262
上怒	-10.9262
能為	-10.9263
何罪	-10.9265
勇士	-10.9266
稱善	-10.9275
去職	-10.928
車服	-10.9282
未敢	-10.9284
赴之	-10.9286
集一卷	-10.9288
而作	-10.9289
田單	-10.929
待詔	-10.929
蚡	-10.9291
則是	-10.9292
羆	-10.9293
曰爾	-10.9295
亡也	-10.9296
所能	-10.9296
志在	-10.9298
戊戌	-10.9299
夏口	-10.9299
洙	-10.9299
門生	-10.9301
百七十	-10.9302
徤	-10.9304
塹	-10.9304
執金吾	-10.9305
宣徳	-10.9305
軍人	-10.9305
擔	-10.9306
東觀	-10.9306
才學	-10.9307
菑	-10.9307
旃	-10.9312
所稱	-10.9313
士馬	-10.9316
敗於	-10.9323
道徳	-10.9324
獲免	-10.9327
見于	-10.9328
其妻子	-10.9328
千秋	-10.933
上聞	-10.933
憂之	-10.9331
又改	-10.9337
臨終	-10.9338
四十餘	-10.9338
千匹	-10.9339
攻楚	-10.934
之音	-10.9341
凡所	-10.9341
破賊	-10.9343
追至	-10.9344
右軍	-10.9345
士庶	-10.9349
朝歌	-10.935
詩一卷	-10.9355
與弟	-10.9355
府長史	-10.9359
棄官	-10.9359
涿郡	-10.9363
悼王	-10.9364
稱王	-10.9365
六十四	-10.9366
其聲	-10.9368
處分	-10.9369
中使	-10.9369
羣下	-10.9369
以徇	-10.937
銷	-10.9373
裹	-10.9374
錡	-10.9375
批	-10.9376
囿	-10.9377
奉表	-10.9377
帳下	-10.9379
殽	-10.938
字彦	-10.9386
及即位	-10.9388
家有	-10.9397
戰而	-10.94
八千	-10.94
之望	-10.9401
公侯	-10.9404
流血	-10.9406
建文	-10.9406
之費	-10.941
原書	-10.941
之路	-10.9413
為天	-10.9414
辟為	-10.9415
皆如	-10.9415
如齊	-10.9416
白公	-10.9418
以通	-10.9419
封建	-10.9419
之弊	-10.942
年十三	-10.9422
承宗	-10.9424
正始	-10.9426
謝安	-10.9427
兼侍中	-10.9428
壯士	-10.943
之氣	-10.9433
蠱	-10.9435
畤	-10.9436
周旋	-10.9437
議曰	-10.9437
撫之	-10.9439
坑	-10.944
繆公	-10.9442
筵	-10.9443
實録	-10.9444
服闋	-10.9444
宸	-10.9446
五子	-10.9447
貟	-10.9448
此事	-10.9452
及帝	-10.9457
北師	-10.946
通鑑	-10.9462
必無	-10.9465
九品	-10.9469
俱為	-10.9473
之辭	-10.9491
至於此	-10.9492
不終	-10.9493
騎射	-10.9493
君其	-10.9495
獲罪	-10.9495
六合	-10.9495
之要	-10.9496
白帝	-10.9496
五世	-10.9497
商人	-10.9498
佐之	-10.9499
葵	-10.9499
一軍	-10.9501
殂	-10.9503
都官	-10.9504
淪	-10.9504
合諸侯	-10.9505
嫗	-10.9507
里克	-10.9507
西征	-10.9508
趾	-10.9509
鞫	-10.9509
凍	-10.951
洎	-10.951
主父	-10.951
𬋩	-10.951
樸	-10.9511
字君	-10.9511
夸	-10.9511
饌	-10.9511
犒	-10.9513
天竺	-10.9518
濓	-10.952
姑臧	-10.952
慟哭	-10.952
道也	-10.9521
身死	-10.9521
蕭何	-10.9524
之長	-10.953
四十里	-10.9532
又按	-10.9537
殤	-10.9538
其兵	-10.9549
藏之	-10.9552
不韋	-10.9552
而好	-10.9558
選侍	-10.956
大興	-10.9564
櫟	-10.9565
軻	-10.9568
桞	-10.9569
世世	-10.957
蹙	-10.9571
踞	-10.9573
盡忠	-10.9573
轄	-10.9574
軀	-10.9575
以本官	-10.9576
醫藥	-10.9576
己卯	-10.9577
乞師	-10.9577
核	-10.9578
牖	-10.9579
甚得	-10.9581
牧守	-10.9581
三川	-10.9582
犀首	-10.9584
脯	-10.9584
曰善哉	-10.9587
傳一卷	-10.959
列子	-10.9592
計也	-10.9592
八十一	-10.9593
太官	-10.9594
之分	-10.9594
衡陽	-10.9596
秦伯	-10.9606
素服	-10.9607
論功	-10.9609
王翦	-10.9611
與兄	-10.9613
征之	-10.9614
必欲	-10.9614
永初	-10.9617
義士	-10.9617
盡力	-10.9619
義兵	-10.9621
山澤	-10.9621
先朝	-10.9627
家居	-10.9628
不變	-10.9628
中宗	-10.9629
不求	-10.9629
義也	-10.9629
賢而	-10.9633
霖	-10.9634
參将	-10.9634
簡王	-10.9635
岷	-10.9637
年四十	-10.9639
碧	-10.964
為卿	-10.9641
郄	-10.9642
成周	-10.9645
株	-10.9645
慤	-10.9646
仲淹	-10.9649
並以	-10.9649
委之	-10.9652
數千里	-10.9653
燈	-10.9653
太宰嚭	-10.9654
領軍將軍	-10.9657
為此	-10.966
廣東	-10.9661
老母	-10.9663
惡其	-10.9669
無過	-10.967
在州	-10.9671
於魏	-10.9672
五寸	-10.9673
不和	-10.9676
霍光	-10.9677
京邑	-10.9678
為大夫	-10.9679
授以	-10.968
衛人	-10.9685
肅然	-10.9688
於君	-10.9691
律令	-10.9693
老弱	-10.9696
失色	-10.9701
鄢	-10.9701
此所謂	-10.9702
恵公	-10.9703
親信	-10.9705
死生	-10.9705
所用	-10.9705
魏魏	-10.9706
朔日有蝕之	-10.9708
與韓	-10.9709
貯	-10.9709
袒	-10.971
搗	-10.971
以西	-10.9711
婉	-10.9712
黄鍾	-10.9712
馴	-10.9713
遼史	-10.9713
查	-10.9713
劣	-10.9713
考功	-10.9714
可知也	-10.9715
將相	-10.9716
蠧	-10.9717
東海王越	-10.9717
於後	-10.972
守令	-10.9724
退保	-10.9727
徳宗	-10.9727
功徳	-10.9731
并力	-10.9731
少康	-10.9735
率其	-10.9735
天啓	-10.9736
牛羊	-10.9738
胎	-10.9741
西山	-10.9744
哀十	-10.9747
不舉	-10.9754
千載	-10.9756
避難	-10.9758
士也	-10.9758
何敢	-10.976
斬獲	-10.9762
擢為	-10.9767
泣曰	-10.9779
䟦	-10.9782
剽	-10.9782
榻	-10.9785
天寳	-10.9787
庖	-10.9787
所致	-10.9787
十四卷	-10.9789
大如	-10.9789
瑄	-10.9793
刑部尚書	-10.9793
祫	-10.9793
民有	-10.9794
吏部郎	-10.9795
秦軍	-10.9795
者所以	-10.9796
之東	-10.9796
徵為	-10.9797
驪姬	-10.9798
酣	-10.9802
如其言	-10.9805
於下	-10.9818
不守	-10.9818
瑱	-10.9819
何能	-10.982
有禮	-10.9823
兵攻	-10.9823
比干	-10.9824
中牟	-10.9832
之妻	-10.9834
守仁	-10.9837
於世	-10.9839
公曰善	-10.9839
猶不	-10.9839
登進士第	-10.9841
小吏	-10.9841
卽	-10.9844
推官	-10.9844
車騎将軍	-10.9848
方正	-10.9848
將死	-10.985
冗	-10.985
殞	-10.985
州大中正	-10.9851
抽	-10.9851
縮	-10.9852
誄	-10.9853
屯兵	-10.9856
義熙	-10.9857
陽人	-10.9857
瑯琊	-10.9859
三百里	-10.9861
無宇	-10.9861
其情	-10.9861
旦夕	-10.9862
青龍	-10.9863
一二	-10.9864
文徳	-10.9866
為左右	-10.9867
病死	-10.9867
七十里	-10.9869
其俗	-10.9869
争之	-10.9872
而忘	-10.9872
矣且	-10.9879
不以為	-10.9887
二十餘年	-10.9891
不得入	-10.9901
搃	-10.9901
可用	-10.9901
諸侯之師	-10.9907
諸路	-10.9908
南陽太守	-10.9908
纘	-10.9909
燕燕	-10.9912
城陷	-10.9915
不虞	-10.9916
甘露	-10.9917
覊	-10.9918
壬戌	-10.9919
抜	-10.9919
閬	-10.992
吝	-10.9921
極言	-10.9921
門户	-10.9921
婚姻	-10.9923
固讓	-10.9923
懽	-10.9923
不事	-10.9925
入其	-10.9926
四國	-10.9933
高麗	-10.9934
羣臣皆	-10.9934
國史	-10.9935
伍子胥	-10.9936
澆	-10.9938
劾奏	-10.9938
景宗	-10.9941
武后	-10.9942
吕氏	-10.9944
禹貢	-10.9944
昭子	-10.9945
者甚衆	-10.9945
于諸侯	-10.9946
盛徳	-10.9947
青陽	-10.9948
擊破	-10.9951
葬之	-10.9952
靈運	-10.9955
不殺	-10.9958
民無	-10.9961
後除	-10.9963
于河	-10.9967
而已矣	-10.9969
叅	-10.9971
為吏	-10.9971
内官	-10.9971
六百	-10.9972
燕京	-10.9972
以病	-10.9975
安撫	-10.9976
帝幸	-10.998
瑟	-10.998
新亭	-10.9981
至長安	-10.9982
廙	-10.9983
帝王之	-10.9984
旂	-10.9985
善於	-10.9986
名也	-10.9986
妓	-10.9987
豁	-10.9987
同州	-10.9989
祏	-10.9991
矯詔	-10.9993
慨然	-10.9995
魏晉	-10.9996
筭	-10.9997
肝	-10.9998
闔閭	-11
千乗	-11.0003
燕山	-11.0005
同日	-11.0006
穰侯	-11.0006
鎮守	-11.0007
不軌	-11.001
東征	-11.0014
甲戍	-11.0015
與趙	-11.0016
故吏	-11.0021
大駕	-11.0022
軍師	-11.0023
詳見	-11.0025
大定	-11.0025
可使	-11.0025
於市	-11.0027
二十里	-11.0027
魏帝	-11.0028
其説	-11.0029
人倫	-11.003
也此	-11.003
于我	-11.0031
親屬	-11.0032
次曰	-11.0038
不逮	-11.0042
今若	-11.0043
既立	-11.0043
焚其	-11.0044
箇	-11.0046
為賊所	-11.0048
不給	-11.0048
朞	-11.0053
百九十	-11.0054
洪武中	-11.0055
添	-11.0059
明徳	-11.006
譎	-11.006
映	-11.0061
斟	-11.0062
幡	-11.0064
綦	-11.0064
名山	-11.0065
降于	-11.0066
博陵	-11.0068
紐	-11.007
疵	-11.0072
盂	-11.0073
伯宗	-11.0073
夷簡	-11.0074
加都督	-11.0076
寢疾	-11.0078
餘衆	-11.0083
聽之	-11.0085
曰天子	-11.0089
謂左右曰	-11.0092
山水	-11.0092
百一十	-11.0096
子朝	-11.0097
晉君	-11.0102
仁者	-11.0103
蜀郡	-11.0106
王府	-11.0107
劉曜	-11.0108
令丞	-11.0112
得臣	-11.0113
勃勃	-11.0115
五嵗	-11.0117
塢	-11.0129
既已	-11.0129
呌	-11.0129
贈侍中	-11.0129
女直	-11.0131
國初	-11.0131
憙	-11.0134
邴	-11.014
者死	-11.014
諮議	-11.0141
電	-11.0145
章帝	-11.0147
大辟	-11.0147
有言	-11.0149
家世	-11.0156
還至	-11.0157
諸人	-11.0157
東周	-11.0159
為長史	-11.016
治亂	-11.0165
天和	-11.0168
聖徳	-11.0173
蔡京	-11.0174
不附	-11.0177
廣西	-11.0181
湣王	-11.0181
仕至	-11.0181
建州	-11.0182
立皇子	-11.0185
弗聽	-11.0189
詩序	-11.0189
貧民	-11.0191
侍讀	-11.0193
七里	-11.0194
多有	-11.0195
儉約	-11.0195
帽	-11.0196
噲	-11.0197
孜	-11.0197
孛	-11.0198
婆	-11.0198
西陵	-11.0199
盡其	-11.02
趙郡	-11.0202
二十六	-11.0203
換	-11.0205
貞觀	-11.0205
區區	-11.0206
秣陵	-11.0207
啼	-11.0209
以避	-11.0209
流人	-11.0209
為諸侯	-11.021
錮	-11.021
飭	-11.0215
瓜	-11.0215
明改	-11.0215
武定	-11.0217
水中	-11.0218
切責	-11.0218
鬲	-11.0219
百五十	-11.0219
羊舌	-11.0219
于宋	-11.0219
司直	-11.0221
多少	-11.0223
大體	-11.0224
飲之	-11.0226
過之	-11.0227
嚭	-11.0227
郈	-11.0228
五原	-11.0228
湯武	-11.0229
上林	-11.0229
杭	-11.0229
鄢陵	-11.023
百日	-11.0232
主之	-11.0237
陶侃	-11.0237
至北京	-11.0241
珠玉	-11.0242
為大將軍	-11.0244
雖欲	-11.0245
逃歸	-11.0245
齊桓	-11.0245
此非	-11.0248
四十年	-11.025
之色	-11.0251
有頃	-11.0252
二三子	-11.0253
復歸	-11.0253
朝廷以	-11.0254
總督	-11.0258
與李	-11.0262
常為	-11.0264
辟雍	-11.0269
康居	-11.0269
可知	-11.0272
碁	-11.0275
罪也	-11.0279
攻圍	-11.028
浴	-11.0281
書傳	-11.0281
征西	-11.0281
葦	-11.0281
庶長	-11.0282
善屬文	-11.0282
斐	-11.0283
平城	-11.0283
死矣	-11.0283
百六十	-11.0285
滔	-11.0286
嘯	-11.0286
廷弼	-11.0286
涇原	-11.0287
圜	-11.0287
虹	-11.0287
甯	-11.0288
生于	-11.0288
恭王	-11.0288
善騎射	-11.0293
人人	-11.0295
太一	-11.0295
吾將	-11.0297
太甲	-11.0297
也先	-11.0297
帥衆	-11.0299
太子太保	-11.0301
利而	-11.0303
彗星見	-11.0305
令其	-11.0307
宣撫	-11.031
若水	-11.0311
林邑	-11.0312
神仙	-11.0316
爾雅曰	-11.032
為列侯	-11.0325
是則	-11.0326
可以為	-11.0328
亦可	-11.0334
城邑	-11.0334
三族	-11.0336
不覺	-11.0337
瑒	-11.0341
女弟	-11.0345
廂	-11.0348
邜	-11.0349
邏	-11.0349
不説	-11.0349
頠	-11.0349
驃騎大將軍	-11.0349
禁錮	-11.0353
永寧	-11.0353
炭	-11.0353
雖無	-11.0354
懾	-11.0355
斛律	-11.0355
陘	-11.0357
冠軍將軍	-11.0357
伯夷	-11.0359
千三百	-11.0359
烟	-11.036
萬歲	-11.0362
乎夫	-11.0365
左右皆	-11.0368
申生	-11.0368
察之	-11.0369
年十二	-11.0372
來歸	-11.0374
武徳	-11.0375
韓琦	-11.0377
尤甚	-11.0377
河水	-11.0378
從其	-11.0379
職事	-11.038
餘黨	-11.038
為臣	-11.0381
以謝	-11.0383
者並	-11.0386
子女	-11.0388
九錫	-11.0389
可與	-11.0392
也非	-11.0394
嘉靖中	-11.0394
因氏焉	-11.0395
連年	-11.0399
門之外	-11.04
不冝	-11.0401
所載	-11.0404
鄰國	-11.0405
亡者	-11.0406
矣王	-11.0407
云何	-11.0408
明矣	-11.0413
征南	-11.0414
性好	-11.0414
問之曰	-11.0415
成臯	-11.0416
朝堂	-11.0417
此亦	-11.0419
奏言	-11.042
高帝	-11.0424
未足	-11.0424
伐趙	-11.0425
莱	-11.0426
請救	-11.0426
著作佐郎	-11.0426
藺	-11.0427
荔	-11.043
喜曰	-11.0431
藁	-11.0432
驍勇	-11.0432
出鎮	-11.0432
丙戍	-11.0432
秦必	-11.0433
不親	-11.0435
太子詹事	-11.0436
並有	-11.0437
絞	-11.044
讙	-11.0444
亷頗	-11.0445
少帝	-11.0446
為魏	-11.0446
神主	-11.0447
起於	-11.0448
其官	-11.0449
歸而	-11.045
其計	-11.045
於是乎	-11.0452
鄭元	-11.0452
之處	-11.0453
郎中令	-11.0454
諸弟	-11.0454
經義	-11.0454
願大王	-11.0456
居官	-11.0457
南至	-11.0457
不息	-11.0458
嘗謂	-11.0461
上官	-11.0462
失利	-11.0464
縣人	-11.0464
郭氏	-11.0465
公仲	-11.0468
九人	-11.0468
曰夫子	-11.047
沈約	-11.0471
累世	-11.0472
小臣	-11.0472
宋齊	-11.0479
帝令	-11.0485
形勢	-11.0487
尚方	-11.0489
于魯	-11.0489
攻破	-11.0491
仰天	-11.05
用人	-11.05
鑠	-11.05
復還	-11.05
江北	-11.0502
玘	-11.0503
楼	-11.0504
東府	-11.0504
帝命	-11.0504
邯	-11.0504
因謂	-11.0504
鵬	-11.0505
㣧	-11.0505
晉平公	-11.0506
膚	-11.0506
宋王稱撰	-11.0506
也後	-11.0507
因言	-11.0509
同平章事	-11.0509
璣	-11.0511
仇池	-11.0514
傾覆	-11.0514
上邽	-11.0514
知伯	-11.0516
絀	-11.0516
有異志	-11.0516
宋史	-11.0516
不亦可乎	-11.0518
五國	-11.0518
商君	-11.0519
被誅	-11.0521
燕人	-11.0523
曰聞	-11.0524
老矣	-11.0534
以定	-11.0535
之野	-11.0537
輔國	-11.0541
高陽	-11.0544
又嘗	-11.0546
君若	-11.0547
滄	-11.0547
礼部	-11.0547
上尊號	-11.0548
既定	-11.055
卿等	-11.0552
府事	-11.0554
僮	-11.0555
議欲	-11.0557
昭明	-11.0561
云云	-11.0563
彭祖	-11.0566
伐魏	-11.0567
地理	-11.0568
后土	-11.0568
各以	-11.0569
嘗以	-11.057
逺方	-11.057
濶	-11.0571
叅知政事	-11.0572
璽綬	-11.0575
餽	-11.0576
州防禦使	-11.0577
杜預注	-11.0579
片	-11.058
隗囂	-11.058
子貢曰	-11.0581
桓公曰	-11.0582
臥	-11.0582
嘿	-11.0583
奢侈	-11.0584
臭	-11.0585
漢魏	-11.0586
節制	-11.0587
臣子	-11.0588
慕容垂	-11.059
經略	-11.059
也父	-11.059
而身	-11.059
中都	-11.0593
使者曰	-11.0595
還家	-11.0596
大計	-11.0597
闕下	-11.0598
而致	-11.06
集三卷	-11.0601
洪範	-11.0603
下至	-11.0604
漢使	-11.0608
王侯	-11.0608
四千	-11.0609
按此	-11.0609
張華	-11.061
臨海	-11.0612
得人	-11.062
左右曰	-11.0621
楚莊王	-11.0621
嘗有	-11.0622
得無	-11.0623
四年春正月	-11.0623
起義	-11.0628
十嵗	-11.0632
以金	-11.0635
爵位	-11.0636
軍吏	-11.0636
者吾	-11.0641
乎且	-11.0641
充國	-11.0642
未易	-11.0643
伐魯	-11.0643
反叛	-11.0645
有星孛于	-11.0647
旒	-11.0648
奬	-11.0649
引去	-11.065
宣十	-11.0652
斡里雅布	-11.0652
㪚	-11.0653
釗	-11.0653
蹕	-11.0654
莾	-11.0655
憶	-11.0657
百里奚	-11.0659
二百里	-11.066
焉及	-11.066
冥	-11.0661
之田	-11.0662
驎	-11.0662
之喪	-11.0663
▁年	-11.0663
一字	-11.0663
不濟	-11.0665
穆宗	-11.0667
常與	-11.067
猶以	-11.0673
以觀	-11.0675
師道	-11.0677
人馬	-11.0679
三十六年	-11.068
敬之	-11.0684
盆	-11.0685
都城	-11.0686
進賢	-11.0696
大抵	-11.0696
猶在	-11.07
字士	-11.0701
學校	-11.0702
不反	-11.0704
請罪	-11.0704
太子中庶子	-11.0709
祭之	-11.0709
不雨	-11.071
郡丞	-11.0712
不好	-11.0713
之儀	-11.0713
衛大將軍	-11.0715
沛國	-11.0716
代郡	-11.0717
方進	-11.0718
而用之	-11.0719
分遣	-11.0719
百世	-11.0721
佐命	-11.0722
東海王	-11.0723
尋除	-11.0724
君君	-11.0724
大潰	-11.0725
蘇代	-11.0726
有神	-11.0728
龍圖閣直學士	-11.0729
愛其	-11.0729
曽祖	-11.0729
嫉	-11.073
三十二年	-11.073
為長	-11.0732
之過	-11.0733
鏤	-11.0733
友善	-11.0733
城在	-11.0734
函谷	-11.0735
郢州	-11.0735
士衆	-11.0738
邦昌	-11.0739
俶	-11.074
詵	-11.074
蘇峻	-11.0741
以徳	-11.0742
敵國	-11.0743
齊名	-11.0752
定州刺史	-11.0755
漢興	-11.0756
西夏	-11.0758
右丞	-11.0758
東郭	-11.0759
千七百	-11.0759
亦何	-11.076
不時	-11.0762
下獄死	-11.0762
天王	-11.0763
楊氏	-11.0763
在東宫	-11.0764
之黨	-11.0769
東萊	-11.0769
卿大夫	-11.0771
靈臺	-11.0772
四十八	-11.0772
正義	-11.0773
年號	-11.0775
正直	-11.0776
先君之	-11.0776
節儉	-11.0777
興兵	-11.0778
稱帝	-11.0778
府君	-11.0779
死于	-11.078
之本	-11.0781
山下	-11.0784
異同	-11.0785
初平	-11.0789
友人	-11.0792
一見	-11.0793
敬則	-11.0796
其徒	-11.0797
元元	-11.08
戶	-11.0801
三十七	-11.0801
倩	-11.0801
黼	-11.0803
乱	-11.0803
武安君	-11.0804
字世	-11.0804
鵲	-11.0805
豚	-11.0805
髦	-11.0805
跳	-11.0806
陁	-11.0807
闥	-11.0808
捶	-11.0809
鳯翔	-11.0809
瓠	-11.081
伐吳	-11.081
鍳	-11.081
不由	-11.0811
葛榮	-11.0812
怨望	-11.0814
畋	-11.0818
真人	-11.0819
鳳翔	-11.0819
轉運	-11.0822
耶律	-11.0822
寒暑	-11.0823
後進	-11.0824
復命	-11.0827
大㑹	-11.0828
意如	-11.083
季札	-11.083
不省	-11.0832
秀才	-11.0833
河橋	-11.0834
薨諡曰	-11.0841
羌胡	-11.0841
人少	-11.0843
不降	-11.0843
列在	-11.0845
在官	-11.0847
無一	-11.0849
已定	-11.0853
庻人	-11.0854
羲之	-11.0854
喪服	-11.0856
於魯	-11.0858
部尚書	-11.086
人謂之	-11.0863
以給	-11.0863
以伐	-11.0866
不能得	-11.0867
元謨	-11.0868
乘輿	-11.0869
侯莫陳	-11.087
盡心	-11.0871
瀛	-11.0871
國家之	-11.0871
常有	-11.0872
豈敢	-11.0873
不朝	-11.0873
黥	-11.0874
惶	-11.0875
三十餘	-11.0877
肘	-11.0878
守臣	-11.0879
宫門	-11.0879
陸遜	-11.0879
媪	-11.0882
引軍	-11.0882
爪	-11.0882
更立	-11.0882
者矣	-11.0883
氊	-11.0883
檢校	-11.0883
陵侯	-11.0886
大逆	-11.0886
大衆	-11.0888
哥	-11.0888
五十餘	-11.0889
冷	-11.0889
奥	-11.089
司馬光	-11.0894
豨	-11.0895
恐懼	-11.0895
帝謂	-11.0897
奔楚	-11.0897
年十四	-11.09
部郎	-11.09
厰	-11.0903
太伯	-11.0904
名臣	-11.0907
使我	-11.0909
城䧟	-11.0912
也是故	-11.0912
於東	-11.0913
聲色	-11.0917
湘東王	-11.092
之力也	-11.0922
精騎	-11.0926
侍臣	-11.0927
賜名	-11.0935
一事	-11.0935
丁謂	-11.0936
對曰臣聞	-11.0936
士竒	-11.0937
恩信	-11.0938
曰孤	-11.094
治民	-11.0942
西門	-11.0944
巴郡	-11.0947
登城	-11.0948
貧賤	-11.0949
大兵	-11.095
治國	-11.0952
要害	-11.0952
爵為	-11.0952
辭以	-11.0955
聖賢	-11.0955
郗	-11.0956
不備	-11.0958
人才	-11.096
遷侍中	-11.0961
敢問	-11.0961
見稱	-11.0962
太子舍人	-11.0962
比之	-11.0962
磔	-11.0963
賢良	-11.0963
弃	-11.0965
南伐	-11.0965
餐	-11.0965
誌	-11.0965
弹	-11.0966
竿	-11.0967
瓛	-11.0967
煬	-11.0969
鮒	-11.0969
渥	-11.0969
竣	-11.097
欲誅	-11.0972
璁	-11.0972
不可復	-11.0973
聞其名	-11.0973
干戈	-11.0973
中二千石	-11.0974
散騎	-11.0974
歸國	-11.0975
起居注	-11.0975
魋	-11.0976
笙	-11.0978
濟河	-11.098
改名	-11.0981
四部	-11.0981
以利	-11.0983
六尺	-11.0987
縱横	-11.0988
稱職	-11.099
不恤	-11.0995
三十五	-11.0995
欲去	-11.0995
乃更	-11.0996
世有	-11.0996
而見	-11.0999
太后臨朝	-11.1003
還朝	-11.1006
帝怒	-11.1008
經傳	-11.1019
今陛下	-11.102
奉先	-11.1022
被害	-11.1023
長驅	-11.1023
欣然	-11.1025
舊典	-11.1026
天錫	-11.1028
勣	-11.103
將攻	-11.1034
九鼎	-11.1035
不遜	-11.1036
烏丸	-11.1037
闘	-11.1037
還報	-11.1038
㡌	-11.1038
之害	-11.1038
淄	-11.1039
押	-11.104
装	-11.104
炫	-11.1041
僉事	-11.1041
前世	-11.1042
隧	-11.1044
巻	-11.1045
牘	-11.1046
磐	-11.1046
手詔	-11.1047
趙衰	-11.1047
者謂之	-11.1047
天聖	-11.105
婼	-11.1051
虞卿	-11.1053
是後	-11.1054
蓮	-11.1055
字道	-11.1058
不逺	-11.1059
千餘級	-11.1061
為人所	-11.1063
憂懼	-11.1065
東昏	-11.1071
親臨	-11.1072
有能	-11.1074
建昌	-11.1075
年十八	-11.1076
親近	-11.1079
與張	-11.108
膠東	-11.1081
百四十	-11.1082
子髙	-11.1084
衡山	-11.109
恭帝	-11.1091
尚未	-11.1093
邠	-11.1094
三十五年	-11.1095
又欲	-11.1095
猶豫	-11.1095
王僧辯	-11.1095
乎其	-11.1096
其禮	-11.1098
殺我	-11.1103
也是以	-11.1105
康子	-11.1107
者何也	-11.1109
臣聞之	-11.1109
進爵為公	-11.1109
從父	-11.111
勔	-11.1111
壬戍	-11.1112
以充	-11.1112
擕	-11.1113
彥	-11.1115
絮	-11.1115
出身	-11.1115
麴	-11.1116
掖門	-11.1116
之誅	-11.1116
洵	-11.1117
鷄	-11.1117
聿	-11.1117
之主	-11.1119
除之	-11.1119
州觀察使	-11.112
姜維	-11.112
漿	-11.1122
戊戍	-11.1122
之迹	-11.1122
挈	-11.1125
善政	-11.1125
安侯	-11.1125
雌	-11.1126
之半	-11.1126
之國也	-11.1126
徳之	-11.1126
為楚	-11.1128
年十七	-11.1129
濱	-11.113
非吾	-11.113
楚滅	-11.1131
魄	-11.1131
蜀王	-11.1137
下吏	-11.1138
魯衛	-11.1138
千數	-11.1139
朝㑹	-11.1139
親自	-11.1139
之交	-11.114
怒而	-11.114
宗周	-11.1142
本草	-11.1144
之罪也	-11.1147
於西	-11.115
者或	-11.1152
已上	-11.1152
與晉	-11.1155
郊廟	-11.1156
也原作	-11.1157
皆曰	-11.1163
其外	-11.1165
師事	-11.1171
有云	-11.1174
萬石	-11.1174
護軍	-11.1175
遂行	-11.1179
韓厥	-11.1179
之遺	-11.1179
敵人	-11.118
其私	-11.118
上令	-11.1181
大恱	-11.1185
之資	-11.1192
鎮軍	-11.1192
征虜將軍	-11.1197
峽	-11.1197
矣吾	-11.1199
勤王	-11.1199
夔	-11.1199
嘏	-11.12
遺之	-11.1202
黠	-11.1203
縷	-11.1203
崔氏	-11.1203
失守	-11.1204
其臣	-11.1206
户部尚書	-11.1207
屨	-11.1208
吏部侍郎	-11.1208
范仲淹	-11.1209
綎	-11.1211
徂	-11.1212
無乃	-11.1213
唯有	-11.1215
藍田	-11.1215
百濟	-11.1216
以重	-11.1216
所出	-11.122
公孫述	-11.1221
侍從	-11.1222
告于	-11.1223
廵狩	-11.1223
欒氏	-11.1225
善者	-11.1228
山海經	-11.1229
守備	-11.123
大王之	-11.1233
元豐	-11.1238
湛之	-11.1239
長於	-11.124
不可勝	-11.1243
大饑	-11.1247
皆出	-11.1252
相應	-11.1254
鎮惡	-11.1257
而動	-11.1258
五年春正月	-11.1259
南都	-11.1261
識之	-11.1261
其親	-11.1267
後漢書	-11.1269
並見	-11.1277
豳	-11.1277
濡	-11.1277
之威	-11.1278
乃去	-11.128
大言	-11.128
䨇	-11.1281
屬國	-11.1282
王肅	-11.1284
匃奴	-11.1285
捧	-11.1285
廊	-11.1286
禅	-11.1288
斜	-11.1288
且以	-11.1288
媿	-11.1288
建隆	-11.1288
沾	-11.129
王曰善	-11.1291
皆得	-11.1296
報之	-11.1297
助之	-11.1298
胡亥	-11.1298
南平	-11.1299
手足	-11.1304
華山	-11.1305
隋開皇	-11.1306
而食之	-11.1309
求去	-11.1309
忌之	-11.1309
章武	-11.1313
鄧禹	-11.1313
純仁	-11.1316
武陽	-11.1316
棄其	-11.1317
自出	-11.1317
吕布	-11.1318
士人	-11.1324
東下	-11.1326
善惡	-11.1328
都官尚書	-11.1329
户口	-11.134
遣之	-11.134
清河王	-11.1343
合而	-11.1344
舉哀	-11.1345
子儀	-11.1346
立祠	-11.1346
道濟	-11.1347
其形	-11.1348
憂也	-11.135
交阯	-11.1355
兗	-11.1356
墾	-11.1356
獨孤	-11.1356
呉王	-11.1358
假道	-11.1359
義渠	-11.136
糞	-11.1362
暱	-11.1362
嵇	-11.1362
七千	-11.1365
積年	-11.1366
釋奠	-11.1371
曰吾欲	-11.1372
無名	-11.1376
為博士	-11.1376
五曰	-11.1377
巽	-11.1379
都指揮	-11.1381
伏法	-11.1383
等議	-11.1383
素與	-11.1384
子男	-11.1386
奉天	-11.1387
寰宇記	-11.1388
齊景公	-11.1396
千騎	-11.1399
無所不	-11.1402
未成	-11.1405
清白	-11.1407
戮之	-11.1408
還宫	-11.1408
可見	-11.1408
事多	-11.1409
所向	-11.141
如魯	-11.1411
絶人	-11.1412
曹氏	-11.1412
伯升	-11.1413
漠	-11.1414
可得而	-11.1414
鎮西	-11.1427
孝寛	-11.1428
荘王	-11.1431
逆之	-11.1431
行軍總管	-11.1432
因留	-11.1433
縣東	-11.1434
王僚	-11.1436
仕齊	-11.1437
屈原	-11.1438
終無	-11.1439
隨之	-11.1439
奔魯	-11.144
南門	-11.1441
仲孫	-11.1442
皃	-11.1443
㛰	-11.1443
祉	-11.1443
裨	-11.1444
去矣	-11.1444
入貢	-11.1445
蹶	-11.1447
豫章王	-11.1447
躬自	-11.1449
萃	-11.1449
文忠	-11.145
捉	-11.145
國亡	-11.1451
之先	-11.1451
渊	-11.1451
駘	-11.1451
砥	-11.1451
于闐	-11.1452
列女傳	-11.1452
立廟	-11.1454
畏之	-11.1456
謝病	-11.1456
闞	-11.1457
𬒳執	-11.1457
成人	-11.1457
魏人	-11.146
伯玉	-11.1462
歸於	-11.1464
攻韓	-11.1465
今吾	-11.1465
以賜	-11.147
試之	-11.1471
過於	-11.1471
叅軍	-11.1471
配享	-11.1472
杭州	-11.1473
首尾	-11.1474
宫殿	-11.1477
講武	-11.1478
而不得	-11.1479
孫皓	-11.1479
如舊	-11.1481
居處	-11.1486
西海	-11.1486
上京	-11.1487
推之	-11.1487
千餘家	-11.1487
来朝	-11.1488
異日	-11.1489
邳	-11.1491
不登	-11.1492
當國	-11.1493
勞之	-11.1493
昊	-11.1493
距之	-11.1493
更為	-11.1494
郤至	-11.1496
之實	-11.1498
存者	-11.1501
三寸	-11.1505
甲士	-11.1505
四品	-11.1506
親親	-11.1506
相對	-11.1508
三禮	-11.151
矣遂	-11.1511
凡三	-11.1514
州里	-11.1516
矟	-11.1518
禺	-11.1518
民心	-11.1519
知我	-11.152
陽翟	-11.152
居喪	-11.1524
兾	-11.1524
少傅	-11.1525
鄣	-11.1525
猛獸	-11.1526
正光	-11.1527
忝	-11.1527
欲求	-11.1527
樞宻	-11.1527
謟	-11.1529
讌	-11.1529
小者	-11.1531
揭	-11.1532
殮	-11.1533
惔	-11.1534
黜陟	-11.1534
金錢	-11.1534
惕	-11.1535
怪之	-11.1535
朐	-11.1536
迂	-11.1536
丈人	-11.1536
蒙古語	-11.1537
飄	-11.1537
黄河	-11.1538
督䕶	-11.1538
之歌	-11.1541
羯	-11.1541
非其人	-11.1542
有能名	-11.1544
周武帝	-11.1548
為樂	-11.1551
姜姓	-11.1551
見東觀記	-11.1552
避地	-11.1554
七嵗	-11.1555
禮畢	-11.1555
行參軍	-11.1556
文十	-11.1556
掾屬	-11.1557
夏后氏	-11.1557
金玉	-11.1559
入蜀	-11.1564
得以	-11.1564
数百	-11.1564
士匄	-11.1566
伐衛	-11.1567
江上	-11.1568
又請	-11.157
殤公	-11.1571
景徳	-11.1571
大吕	-11.1571
尚書省	-11.1572
一戰	-11.1574
徴拜	-11.1574
號哭	-11.1575
巴東	-11.1576
歸附	-11.1577
水出	-11.1579
其在	-11.158
三代之	-11.1582
之流	-11.1587
無聞	-11.159
秦始皇	-11.1594
位在	-11.1598
衛君	-11.1598
大用	-11.16
建國	-11.1601
以法	-11.1601
不能制	-11.1603
為正	-11.1604
鯁	-11.1604
永楽	-11.1605
同盟	-11.1606
前殿	-11.1606
人言	-11.1607
僉都御史	-11.1608
啖	-11.1608
諸道	-11.1608
太學博士	-11.1608
鄯善	-11.161
禳	-11.1611
罹	-11.1611
汭	-11.1613
師傅	-11.1614
曵	-11.1615
駝	-11.1615
死士	-11.1616
踊	-11.1616
居于	-11.1617
牌	-11.1618
不畏	-11.1618
噬	-11.1619
無恙	-11.1622
天時	-11.1622
敢言	-11.1624
攻秦	-11.1624
抃	-11.1624
瑛	-11.1625
時帝	-11.1626
皆從	-11.1628
徃來	-11.163
湘州刺史	-11.163
統軍	-11.1631
子文	-11.1632
刺之	-11.1633
安民	-11.1634
置左右	-11.1636
起為	-11.1638
徵拜	-11.1638
未嘗有	-11.164
尊卑	-11.164
又從	-11.164
中國之	-11.1643
有謀	-11.165
日南	-11.1654
也王曰	-11.1655
治水	-11.1657
毁之	-11.1658
涼州刺史	-11.166
何患	-11.166
武臣	-11.1662
而自立	-11.1664
卒於官	-11.1665
侯伯	-11.1665
為治	-11.1672
誰敢	-11.1676
晋陽	-11.1678
做	-11.1682
乘勝	-11.1684
者又	-11.1685
闗内侯	-11.1687
搖	-11.1689
甕	-11.169
蠆	-11.1691
苐一	-11.1692
大通	-11.1693
齊秦	-11.1693
瓉	-11.1693
鼓琴	-11.1693
可觀	-11.1694
瘳	-11.1696
暈	-11.1696
昺	-11.1697
兔	-11.1697
上前	-11.1699
聦	-11.1701
菽	-11.1701
督郵	-11.1702
知開封府	-11.1702
表裏	-11.1702
瘠	-11.1702
概	-11.1703
倣	-11.1703
東山	-11.1703
何可	-11.1704
編修	-11.1704
長官司	-11.1705
侍御	-11.1708
則必	-11.1708
舟山	-11.1714
武庫	-11.1715
曲赦	-11.1716
懷王	-11.1717
遼陽	-11.1721
將至	-11.1721
其室	-11.1721
在下	-11.1723
北軍	-11.1723
所奏	-11.1731
皆以為	-11.1731
廢之	-11.1732
且曰	-11.1734
鎮南	-11.1736
昆吾	-11.1737
而來	-11.1738
安成	-11.1738
初拜	-11.1738
廣武	-11.174
詔遣	-11.1743
敗我	-11.1746
一國	-11.1751
鄭鄭	-11.1756
知也	-11.1756
本姓	-11.1762
四十五	-11.1762
吳師	-11.1763
聞命	-11.1765
諸葛恪	-11.1766
宣宗	-11.1767
海西	-11.1767
幢	-11.1768
尋而	-11.177
子反	-11.177
千石	-11.177
乃作	-11.1772
有如	-11.1772
即墨	-11.1773
亳州	-11.1775
以功封	-11.1775
渇	-11.1777
字長	-11.1777
噉	-11.1779
之别	-11.178
中宫	-11.1781
冢宰	-11.1782
催	-11.1782
層	-11.1783
蕪	-11.1783
切説	-11.1783
苴	-11.1784
鄗	-11.1785
醢	-11.1785
城濮	-11.1786
槖	-11.1789
召試	-11.1789
與賊	-11.1789
鑄錢	-11.179
楹	-11.1791
章惇	-11.1791
參議	-11.1792
本郡	-11.1792
百戸	-11.1793
休之	-11.1795
然亦	-11.1796
彗星	-11.1797
投之	-11.1798
手書	-11.1798
犍為	-11.1801
濟陽	-11.1804
四十卷	-11.1805
良夫	-11.1805
者輙	-11.1808
衛鄭	-11.1809
示以	-11.181
苦之	-11.181
欲用	-11.1812
哀之	-11.1816
再三	-11.1819
又置	-11.1822
其任	-11.1823
傳中	-11.1823
學生	-11.1824
義興	-11.1825
山海	-11.1826
重華	-11.1826
鴻臚	-11.1827
不對	-11.1829
悉平	-11.1832
既成	-11.1832
氏女	-11.1834
其時	-11.1834
恨之	-11.1836
闗東	-11.1837
北郊	-11.1846
安陽	-11.1849
殺傷	-11.185
為主簿	-11.1851
黄帝之	-11.1851
一門	-11.1852
華隂	-11.1852
文選	-11.1853
臧孫	-11.1854
字孝	-11.1854
應對	-11.1854
召對	-11.1857
廞	-11.1857
夏后	-11.1859
信也	-11.1861
万	-11.1862
金墉	-11.1862
挹	-11.1862
文集	-11.1863
慄	-11.1864
煖	-11.1865
車駕還宫	-11.1865
後軍	-11.1865
則天下	-11.1866
君長	-11.1866
怙	-11.1868
利用	-11.1868
䄂	-11.1868
欒書	-11.187
攬	-11.1871
矣於是	-11.1871
泌	-11.1872
馘	-11.1872
城破	-11.1873
化及	-11.1873
鞮	-11.1874
征北	-11.1875
醇	-11.1875
譁	-11.1875
㣲子	-11.1876
刳	-11.1876
畧同	-11.1878
移書	-11.1878
之䇿	-11.1883
青徐	-11.1888
事上	-11.1889
文義	-11.1892
怨之	-11.1893
秘書	-11.1904
以養	-11.1904
太史令	-11.1905
於吳	-11.1908
猶可	-11.1909
時年四十	-11.191
皇帝諱	-11.191
縣北	-11.1911
于國	-11.1916
司農	-11.1919
凉州	-11.192
未甞	-11.192
乃謂	-11.1921
禹之	-11.1929
弘治	-11.1932
莫知	-11.1932
奈	-11.1933
萬戸	-11.1938
五十萬	-11.1938
詔賜	-11.194
守宰	-11.194
也不如	-11.194
初除	-11.1941
先入	-11.1941
莊宗	-11.1946
相州	-11.1946
企	-11.1947
氏改為	-11.1947
齧	-11.1948
鳬	-11.1948
州團練使	-11.1948
侔	-11.1949
經書	-11.1951
鹵簿	-11.1951
五大夫	-11.1951
秦穆公	-11.1951
髙第	-11.1951
為皇太后	-11.1952
慿	-11.1952
寖	-11.1954
古史卷	-11.1956
犧	-11.1957
炊	-11.1957
使民	-11.1958
娛	-11.1958
尝	-11.1959
臣以為	-11.1965
十餘里	-11.1968
拜議郎	-11.1968
後拜	-11.1968
祭仲	-11.1969
遂使	-11.197
越絶書	-11.1971
祕書郎	-11.1973
自將	-11.1974
為嗣	-11.1978
焉用	-11.198
勇力	-11.1982
書記	-11.1982
土木	-11.1984
可望	-11.199
母子	-11.1992
安西	-11.1992
秉政	-11.1995
申公	-11.1995
英雄	-11.1995
幸得	-11.2002
禮官	-11.2003
遂絶	-11.2006
軍還	-11.2006
號泣	-11.2011
其子孫	-11.2013
于是乎	-11.2015
謀殺	-11.2017
改正	-11.2017
安豐	-11.2018
講學	-11.2018
魏文帝	-11.2018
意欲	-11.2019
復立	-11.202
舉事	-11.2021
有六	-11.2023
皖	-11.2024
百匹	-11.2027
鎻	-11.2031
大象	-11.2031
盪	-11.2034
外國	-11.2034
俛	-11.2034
使公子	-11.2034
然猶	-11.2035
都督中外諸軍事	-11.2035
此為	-11.2037
航	-11.2038
西安	-11.2039
遞	-11.2041
司冦	-11.2041
媵	-11.2043
儆	-11.2043
徙都	-11.2044
二百四十	-11.2044
掲	-11.2046
消息	-11.205
爾雅云	-11.2053
入郢	-11.2054
西羌	-11.2057
四十二	-11.2058
當是	-11.2059
國䇿	-11.206
也公曰	-11.2064
第一百	-11.2068
贈司空	-11.2068
無怨	-11.207
河外	-11.2072
著述	-11.2074
完顔	-11.2076
止之曰	-11.2079
廵按	-11.2079
荆南	-11.2083
必當	-11.2085
之神	-11.2086
在職	-11.2087
本名	-11.2087
必為	-11.2091
盡殺	-11.2093
三十七年	-11.2093
一級	-11.2094
明宗	-11.2095
脩之	-11.2096
姓也	-11.2098
一里	-11.2099
西州	-11.2101
一時之	-11.2105
摩訶	-11.2106
同列	-11.2108
十六卷	-11.2108
甌	-11.2111
蝕	-11.2111
心腹	-11.2111
寡人之	-11.2112
貧者	-11.2113
少保	-11.2113
文王之	-11.2113
姓苑	-11.2116
今天下	-11.2117
文伯	-11.2117
石城	-11.2118
囚之	-11.2119
棣	-11.2119
羣小	-11.2119
𠡠	-11.2121
栖	-11.2122
吳越	-11.2123
晩	-11.2124
臣願	-11.2124
羗	-11.2125
亦云	-11.2125
伶	-11.2128
莅	-11.2129
開寳	-11.2129
趙王倫	-11.213
延熹	-11.213
异	-11.2131
四門	-11.2134
湘州	-11.2134
何其	-11.2135
譜一卷	-11.2137
臣不敢	-11.2137
思之	-11.2138
右諫議大夫	-11.2139
䝉古軍	-11.2139
而輕	-11.2143
草創	-11.2144
亦非	-11.2146
殛	-11.2148
時議	-11.2152
相結	-11.2156
紀綱	-11.2158
為尚書左僕射	-11.2158
笑而	-11.216
去長安	-11.216
遂圍	-11.2163
京房	-11.2164
賊衆	-11.2165
河間王	-11.2166
與周	-11.2167
共立	-11.2169
不䏻	-11.2174
珍寳	-11.2174
去就	-11.2174
寛厚	-11.2177
性剛	-11.2178
聖主	-11.218
正朔	-11.2182
立公子	-11.2182
不正	-11.2183
明帝即位	-11.2184
官府	-11.2185
曰余	-11.2187
過失	-11.2191
汝隂	-11.2196
山在	-11.2196
居中	-11.2202
烽	-11.2205
不務	-11.2205
䋲	-11.221
視其	-11.221
生民	-11.2212
薩	-11.2212
何用	-11.2212
伉	-11.2214
一寸	-11.2219
潦	-11.2219
迪	-11.2219
反國	-11.2221
僖十	-11.2221
妄言	-11.2221
謇	-11.2221
五刑	-11.2223
亭長	-11.2224
副之	-11.2224
欲攻	-11.2224
人也舉進士	-11.2225
六州	-11.2227
有風	-11.2227
圖書	-11.2229
立其弟	-11.223
輔之	-11.223
儒生	-11.223
衣裳	-11.2232
矣君	-11.2232
義康	-11.2232
羣公	-11.2236
小大	-11.2236
請命	-11.2237
數百里	-11.2238
兵擊	-11.2238
所統	-11.2238
昊天	-11.2238
隆之	-11.224
器用	-11.2249
攻其	-11.2252
本無	-11.2257
三十人	-11.2257
子罕	-11.2258
第三子	-11.2258
呼曰	-11.2258
羣公子	-11.226
受封	-11.2262
以禦	-11.2263
非禮	-11.2264
富人	-11.2264
不臣	-11.2264
不早	-11.2265
元感	-11.2267
出見	-11.227
二寸	-11.2276
遣將軍	-11.2278
亡矣	-11.2279
皇弟	-11.2279
觀者	-11.2279
文辭	-11.2279
度支尚書	-11.228
封疆	-11.2281
堯舜之	-11.2283
至京	-11.2286
交結	-11.2286
夜半	-11.2289
於宋	-11.229
廣徳	-11.2292
旭	-11.2294
珥	-11.2295
兕	-11.2296
子西	-11.2296
瑁	-11.2296
𢎞正	-11.2297
可知矣	-11.2298
間道	-11.2298
晦日有食之	-11.2299
倨	-11.23
袴	-11.23
司徒左長史	-11.2301
䧺	-11.2302
沈攸之	-11.2303
陀	-11.2303
得見	-11.2303
堂上	-11.2304
紆	-11.2305
度遼將軍	-11.2306
冩	-11.2308
阿那瓌	-11.2308
都統	-11.2308
㽔	-11.2309
江漢	-11.2309
太子少傅	-11.2309
出降	-11.2309
淳于髠	-11.231
不負	-11.2311
過江	-11.2311
臨菑	-11.2312
為盟主	-11.2313
臨洮	-11.2314
嘗問	-11.2315
大率	-11.2316
朋友	-11.2316
盧循	-11.2317
州吁	-11.2317
韓起	-11.2318
一品	-11.2322
侯王	-11.2323
曹爽	-11.2326
爭之	-11.2329
所歸	-11.233
吾聞之	-11.2333
詩賦	-11.2334
論議	-11.2336
餘皆	-11.2336
九族	-11.2337
之體	-11.2342
皇帝廟號	-11.2343
孝昌	-11.2347
敬宣	-11.2347
在内	-11.2349
㐮王	-11.235
帝從之	-11.2352
休息	-11.2355
左師	-11.2356
往者	-11.2356
萬五千	-11.2363
天順	-11.2365
湟	-11.2365
立太子	-11.2366
四十九	-11.2366
上庸	-11.2367
吏人	-11.2367
新書	-11.237
於地	-11.237
事畢	-11.2375
尋遷	-11.2378
更以	-11.238
乾歸	-11.2383
留意	-11.2384
於韓	-11.2385
吁	-11.2386
嘉禾	-11.239
駰	-11.2391
衆庶	-11.2391
涖	-11.2391
身長八尺	-11.2391
記室參軍	-11.2392
贑	-11.2392
犁	-11.2392
上士	-11.2392
令長	-11.2394
田常	-11.2394
彦博	-11.2395
槊	-11.2395
佺期	-11.2396
刖	-11.2397
一云	-11.2397
第七	-11.2398
武將軍	-11.2399
以進	-11.2399
濯	-11.24
錢塘	-11.24
郇	-11.2401
安在	-11.2403
竇憲	-11.2403
世襲	-11.2405
痤	-11.2405
以女妻	-11.2406
頤	-11.2408
禍及	-11.241
當作	-11.2411
犬戎	-11.2417
建中	-11.2418
豫章太守	-11.2419
鄭國	-11.2423
郤克	-11.2427
二百餘	-11.2428
千四百	-11.2429
使還	-11.243
其夜	-11.243
南單于	-11.2432
還京	-11.2432
始有	-11.2438
建寧	-11.2439
成湯	-11.2441
天性	-11.2442
弗與	-11.2444
身自	-11.2444
諸司	-11.2445
物也	-11.2446
州别駕	-11.2452
丹朱	-11.2455
何憂	-11.2457
科臣	-11.2457
漢軍	-11.2463
季友	-11.2468
昭穆	-11.247
髻	-11.2472
也對曰	-11.2474
尉遲迥	-11.2476
笛	-11.2478
十二里	-11.2478
之序	-11.2479
侠	-11.2479
稠	-11.248
為吏部尚書	-11.2482
巒	-11.2483
仕周	-11.2484
艘	-11.2484
龍驤將軍	-11.2484
兠	-11.2484
䔥	-11.2485
亘	-11.2486
後遷	-11.2487
第二子	-11.2487
蒿	-11.2487
温嶠	-11.2487
涓	-11.2487
翰林院	-11.2488
白衣	-11.2488
今者	-11.2488
灑	-11.2488
遯	-11.2489
撒	-11.2489
期年	-11.2489
愠	-11.249
鄧艾	-11.2491
襄國	-11.2491
不憂	-11.2492
籥	-11.2492
賈逵	-11.2493
喪亂	-11.2493
眇	-11.2494
戸部	-11.2495
菴	-11.2495
樂府	-11.2496
日蝕	-11.2497
而遣之	-11.2497
上封事	-11.2498
可法	-11.2499
而不敢	-11.2502
其弊	-11.2503
吳楚	-11.2503
振旅	-11.2504
無餘	-11.2504
戰士	-11.2505
天官	-11.2508
陳蕃	-11.2508
衆咸	-11.251
不甚	-11.2512
諸公子	-11.2518
已有	-11.2519
所司	-11.2521
事覺	-11.2521
陳倉	-11.2523
附庸	-11.2524
薨於	-11.2528
壮士	-11.253
其業	-11.253
太初	-11.2535
監司	-11.2537
者言	-11.2538
享之	-11.2542
幾何	-11.2543
固有	-11.2543
木為	-11.2543
無極	-11.2546
公輔	-11.2549
以此為	-11.2549
分野	-11.2552
五榖	-11.2553
兵入	-11.2553
必亡	-11.2555
次之	-11.2559
北有	-11.256
諸侯皆	-11.256
不歸	-11.2563
皆降	-11.2565
晉宋	-11.2569
進取	-11.257
建議	-11.2572
夫子之	-11.2573
臣之所	-11.2574
而東	-11.2574
江夏王義恭	-11.2574
子思曰	-11.2575
癡	-11.2577
兵部侍郎	-11.2578
何由	-11.2578
揣	-11.2578
稔	-11.2579
疊	-11.2579
刑獄	-11.258
產	-11.258
主客	-11.2581
日磾	-11.2581
安車	-11.2581
威福	-11.2583
庚戍	-11.2583
為本	-11.2585
禽之	-11.2586
而不可	-11.2589
盤庚	-11.259
今在	-11.2593
昌言	-11.2594
診	-11.2595
弗克	-11.2595
單騎	-11.2596
此何	-11.2596
嘉祐	-11.2597
羣書	-11.2598
入侍	-11.2601
晏嬰	-11.2602
笑之	-11.2602
為之奈何	-11.2607
萬二千	-11.2609
惟陛下	-11.2609
同異	-11.2609
孝亷	-11.2611
曲阿	-11.2611
南鄭	-11.2614
由余	-11.2616
鮮于	-11.2617
都司	-11.2618
無此	-11.2618
别有	-11.2621
堯佐	-11.2621
五尺	-11.2622
如之何	-11.2622
臨川王	-11.2623
良臣	-11.263
以防	-11.2632
八萬	-11.2633
二千人	-11.2635
于鄭	-11.2636
官吏	-11.2636
請和	-11.2637
文育	-11.2637
天門	-11.2638
賞之	-11.264
李牧	-11.264
酋長	-11.2642
一部	-11.2642
亦謂之	-11.2644
始興王	-11.2645
驤	-11.2647
東阿	-11.265
之舊	-11.2653
泣下	-11.2656
神靈	-11.2657
軍糧	-11.2657
愿	-11.266
歩兵校尉	-11.2661
在西	-11.2661
二里	-11.2662
後改	-11.2663
患也	-11.2664
所取	-11.2664
軹	-11.2665
惟有	-11.2666
成梁	-11.2666
曾子	-11.2667
行父	-11.2667
煌	-11.2668
晷	-11.2669
聖朝	-11.2669
肜	-11.267
軸	-11.267
糺	-11.267
趍	-11.267
緘	-11.2671
幅	-11.2672
晁	-11.2674
袁粲	-11.2674
漢制	-11.2674
而哭	-11.2676
犨	-11.2677
舊臣	-11.2678
六百石	-11.2678
五聲	-11.2678
漢末	-11.268
之宜	-11.2684
不離	-11.2686
煦	-11.2686
僭號	-11.269
六經	-11.2696
左丞相	-11.2698
十倍	-11.27
當與	-11.2702
以拒	-11.2705
宿衞	-11.2707
客卿	-11.2713
姜氏	-11.2714
字敬	-11.2714
道術	-11.2716
之謂也	-11.2716
陳軫	-11.2718
東師	-11.2718
刻石	-11.2719
宓	-11.2721
平州	-11.2721
千乘	-11.2722
孝惠	-11.2726
一方	-11.2729
寳夤	-11.2729
音律	-11.2729
棄疾	-11.273
荘公	-11.2731
大将	-11.2732
建武二年	-11.2732
謀之	-11.2732
以下皆	-11.2734
吏卒	-11.2735
攻陷	-11.2736
部衆	-11.2737
傕	-11.2739
來攻	-11.274
以太牢	-11.2742
在東	-11.2743
三十四年	-11.2744
獄訟	-11.2749
皆死	-11.2749
北海王	-11.275
礦	-11.2753
嘲	-11.2753
召陵	-11.2753
東莞	-11.2756
和尚	-11.2756
將作大匠	-11.2756
緜	-11.2756
鏞	-11.2757
無能	-11.2757
自固	-11.2758
田租	-11.2758
但以	-11.2758
易曰	-11.2759
之域	-11.2759
天意	-11.276
蹄	-11.276
荆王	-11.2762
蔡人	-11.2762
唐因之	-11.2763
郊迎	-11.2763
子期	-11.2763
杵臼	-11.2764
話	-11.2764
康成	-11.2765
外内	-11.2766
在今	-11.2767
必矣	-11.2768
吳興太守	-11.2769
造父	-11.277
二部	-11.2772
以全	-11.2772
復召	-11.2772
嗜酒	-11.2776
博覽	-11.2777
留心	-11.2777
河隂	-11.2779
驪	-11.2779
布帛	-11.2779
公如晉	-11.2781
地名	-11.2783
門下侍郎	-11.2783
鎮東	-11.2785
王曰寡人	-11.2788
謀誅	-11.2789
軍門	-11.279
太行	-11.2792
左光禄大夫	-11.2795
之女也	-11.2796
為變	-11.2798
恵子	-11.2798
家事	-11.2799
亡國之	-11.2799
此之謂	-11.28
居守	-11.2801
却之	-11.2804
過矣	-11.2804
焉耆	-11.2804
化之	-11.2805
二郡太守	-11.2807
姦邪	-11.2808
歴一卷	-11.2808
餘姚	-11.2815
有㫖	-11.2816
仲禮	-11.2816
大戰	-11.2817
形於	-11.2819
東平王	-11.282
稱制	-11.2821
不即	-11.2827
九真	-11.2828
太守劉	-11.2829
集三十卷	-11.2831
奉法	-11.2833
懼其	-11.2833
魏冉	-11.2834
者即	-11.2835
師還	-11.2837
軍主	-11.2837
移鎮	-11.2838
二君	-11.2845
之次	-11.2846
婺	-11.2849
日有食之	-11.2849
三司使	-11.2851
三十一	-11.2852
本末	-11.2853
瘡	-11.2854
征西大將軍	-11.2854
門者	-11.2856
椽	-11.2858
曾祖	-11.286
鷙	-11.286
耐	-11.286
隰朋	-11.2861
翩	-11.2861
雝	-11.2861
䛕	-11.2863
蘇軾	-11.2867
性命	-11.2867
其禍	-11.2867
李鍇撰	-11.2868
鑲白旗漢軍	-11.2868
周瑜	-11.2869
麓	-11.2869
書與	-11.2869
約束	-11.2869
既平	-11.287
嬉	-11.2871
六七	-11.2875
喜怒	-11.2878
乳母	-11.2879
庶幾	-11.288
拒守	-11.288
邊事	-11.2881
簒位	-11.2881
其政	-11.2882
人望	-11.2883
流民	-11.2883
太極殿	-11.2884
索隠	-11.2884
萬乗之	-11.2886
繫獄	-11.289
歸家	-11.2891
咸和	-11.2892
之事也	-11.2893
明徹	-11.2896
遇賊	-11.2897
第八	-11.2898
一郡	-11.2898
后父	-11.29
功業	-11.2914
不赦	-11.2919
新都	-11.2923
樂陵	-11.2925
乃至	-11.2926
六里	-11.2929
文宗	-11.293
漢武帝	-11.2935
其過	-11.2935
檻	-11.2937
笄	-11.294
少與	-11.2941
可否	-11.2942
蕪湖	-11.2943
等官	-11.2944
箱	-11.2944
貳師	-11.2945
而外	-11.2947
陌	-11.295
暄	-11.295
驃騎将軍	-11.295
爾朱	-11.2952
通志卷一百	-11.2952
二年春	-11.2952
詈	-11.2953
能屬文	-11.2955
童貫	-11.2955
孝伯	-11.2955
剥	-11.2955
荐	-11.2956
以孝聞	-11.2956
建武中	-11.2956
峙	-11.2958
思政	-11.2959
軍次	-11.2959
太昊	-11.2959
去疾	-11.296
煙	-11.2961
王郎	-11.2962
乃退	-11.2962
相秦	-11.2963
爻	-11.2963
晉晉	-11.2967
惧	-11.2969
太醫	-11.297
二嵗	-11.2971
居民	-11.2971
章邯	-11.2971
綱目	-11.2972
不妄	-11.2973
旌旗	-11.2974
不愛	-11.2975
富弼	-11.2975
簡子曰	-11.2976
六千	-11.2978
其為人	-11.2979
何事	-11.2979
代立	-11.298
詩傳	-11.298
等謀	-11.2981
教化	-11.2982
被甲	-11.2983
微子	-11.2983
莊帝	-11.2983
使使者	-11.2985
帝踐阼	-11.2989
靖王	-11.2989
下馬	-11.2991
音樂	-11.2992
史楚	-11.2994
臣意	-11.2995
勞苦	-11.2997
根本	-11.2997
考之	-11.3
幽公	-11.3001
民力	-11.3002
天雨	-11.3004
彭城王	-11.3005
者唯	-11.301
矢石	-11.3011
復封	-11.3014
而終	-11.3022
而泣	-11.3023
四十六	-11.3028
中庶子	-11.303
親故	-11.303
其法	-11.3031
出則	-11.3032
鴟	-11.3035
亰	-11.3036
欽定四庫全書御定歴代紀事年表卷	-11.3038
長水校尉	-11.3039
纒	-11.3041
欲伐	-11.3043
而歸之	-11.3043
炬	-11.3043
等州	-11.3043
旺	-11.3045
又無	-11.3045
惻	-11.3045
髯	-11.3048
圈	-11.3048
萬七千	-11.3049
修徳	-11.3049
蔬	-11.305
始得	-11.3051
变	-11.3052
孥	-11.3052
梯	-11.3052
外家	-11.3052
誹謗	-11.3053
饑饉	-11.3054
􁁻	-11.3056
三里	-11.3057
關羽	-11.3057
釡	-11.3057
華氏	-11.3057
亡歸	-11.3057
㓙	-11.306
義恭	-11.306
建義	-11.306
)􁁊(	-11.3061
未平	-11.3062
侵地	-11.3064
好士	-11.3067
行省	-11.3068
過半	-11.3073
子頽	-11.3075
尋為	-11.3075
若能	-11.3078
擾亂	-11.3079
勿復	-11.3079
不違	-11.3083
符瑞	-11.3088
國子監	-11.3092
六世	-11.3093
為大王	-11.3094
遂罷	-11.3097
義真	-11.3101
年十六	-11.3101
次第	-11.3103
有兩	-11.3105
而更	-11.3106
慶忌	-11.3107
風流	-11.3107
張昭	-11.3109
悦之	-11.311
無辜	-11.311
以免	-11.3112
赦天下	-11.3114
欽若	-11.3115
者豈	-11.3117
王師敗績	-11.3118
赫連	-11.3125
孔子孔子	-11.3126
遣其將	-11.3126
將何以	-11.3128
賢士	-11.3129
何益	-11.3131
潼闗	-11.3132
禁止	-11.3134
而與之	-11.3135
兵敗	-11.3135
中兵參軍	-11.3137
乙夘	-11.3138
闓	-11.314
鯤	-11.314
有父風	-11.3141
皆此類也	-11.3142
大中祥符	-11.3143
儻	-11.3144
别將	-11.3145
天章閣待制	-11.3145
並起	-11.3145
迅	-11.3146
魯陽	-11.3146
胷	-11.3148
為御史中丞	-11.3148
詛	-11.3149
夹	-11.315
太常少卿	-11.3151
涌	-11.3153
掛	-11.3154
士開	-11.3154
眩	-11.3155
圍城	-11.3157
出居	-11.3157
暴虐	-11.3158
一貫	-11.3159
財用	-11.3159
名位	-11.3159
尹氏	-11.316
藤	-11.316
拔之	-11.3161
四岳	-11.3161
彌牟	-11.3162
曰寡君	-11.3163
絶之	-11.3164
疏勒	-11.3164
許以	-11.3165
汾隂	-11.3165
高宗	-11.3167
帝堯	-11.3167
歌舞	-11.3168
廬陵王	-11.3169
髙熲	-11.3169
從官	-11.3172
配天	-11.3173
雖在	-11.3173
姑洗	-11.3174
說苑	-11.3175
鮮虞	-11.3176
求救	-11.3176
軍司馬	-11.3177
年九十	-11.3178
入冦	-11.3179
獲之	-11.318
十二人	-11.318
枀	-11.3181
趙普	-11.3185
獄中	-11.3186
一夫	-11.3186
狄道	-11.3187
皇孫	-11.3189
欲因	-11.3189
三桓	-11.3192
精神	-11.3192
族子	-11.3201
貢舉	-11.3201
威權	-11.3202
其制	-11.3203
無度	-11.3205
内屬	-11.3207
和平	-11.3207
折節	-11.3208
有大志	-11.321
職方	-11.3211
新蔡	-11.3212
延州	-11.3214
稱藩	-11.3219
舂	-11.3219
塞外	-11.322
于戚	-11.3221
顓帝	-11.3222
孟孫	-11.3222
進士授	-11.3223
不才	-11.3223
又徙	-11.3223
事平	-11.3224
各自	-11.3228
夘	-11.3229
衙	-11.323
漢志	-11.3231
景仁	-11.3231
梓潼	-11.3234
召拜	-11.3237
欽定四庫全書通志卷一百	-11.3238
中流矢	-11.3238
塋	-11.3239
二品	-11.3241
彫	-11.3241
欲還	-11.3242
襟	-11.3242
以臨	-11.3244
常在	-11.3244
恒山	-11.3244
紵	-11.3245
鑾	-11.3245
工部侍郎	-11.3246
鈴	-11.3248
驁	-11.3248
荘子	-11.3249
)􁀙(	-11.325
醒	-11.325
太倉	-11.3251
茟	-11.3251
鎮江	-11.3251
劓	-11.3252
精鋭	-11.3252
醴	-11.3253
匹磾	-11.3253
不犯	-11.3254
杜氏	-11.3254
好惡	-11.3255
北邊	-11.3256
哭泣	-11.3256
四世	-11.3261
武丁	-11.3263
不赴	-11.3264
歌一卷	-11.3265
道人	-11.3269
臣臣	-11.3277
同官	-11.3279
永康	-11.3279
租賦	-11.3279
讓之	-11.328
丹徒	-11.3283
女樂	-11.3283
無憂	-11.3284
持之	-11.3286
夏商	-11.3287
軍司	-11.3291
楚昭王	-11.3291
豪右	-11.3291
畿内	-11.3294
無主	-11.3298
肉刑	-11.3299
追諡	-11.33
歸鄉里	-11.3301
典籍	-11.3301
遂定	-11.3302
于市	-11.3303
指揮僉事	-11.3306
撫臣	-11.3308
逃亡	-11.3309
往見	-11.3311
威震	-11.3311
所置	-11.3315
宣府	-11.3315
萬全	-11.3316
侯卒子	-11.3318
以上史	-11.332
戎服	-11.332
臺閣	-11.3321
東歸	-11.3322
因問	-11.3323
所當	-11.3325
勤勞	-11.3327
告之曰	-11.333
水土	-11.3331
而前	-11.3332
蒲坂	-11.3333
餓死	-11.3333
四郡	-11.3334
海中	-11.3335
時年六十	-11.3338
前将軍	-11.3339
誑	-11.334
方伯	-11.3341
千九百	-11.3341
金華	-11.3342
樞密院	-11.3342
駑	-11.3342
無患	-11.3343
不煩	-11.3345
先遣	-11.3345
猪	-11.3345
僵	-11.3346
帷幄	-11.3346
吠	-11.3346
姫	-11.3348
纍	-11.3348
貺	-11.3349
筋	-11.3349
忤㫖	-11.335
不休	-11.335
點	-11.335
耦	-11.3351
梓宫	-11.3351
今欲	-11.3354
女媧	-11.3356
黨與	-11.3356
淳化	-11.3358
箠	-11.3358
為相國	-11.3358
者惟	-11.336
我兵	-11.3362
名號	-11.3364
亡去	-11.3365
將何	-11.3365
魏將	-11.3366
奚齊	-11.3367
樂浪	-11.3369
三府	-11.3369
八十里	-11.3375
自投	-11.3375
淮隂	-11.3377
為御史大夫	-11.3378
將伐	-11.338
簡文帝	-11.338
夷則	-11.3383
以南	-11.3383
有間	-11.3386
紹興	-11.3387
治兵	-11.3389
誠能	-11.339
數十里	-11.3392
牙門	-11.3395
儒術	-11.3396
從此	-11.3396
周君	-11.3399
崔浩	-11.3399
虜其	-11.3401
四寸	-11.3402
園陵	-11.3402
為逆	-11.3402
斷其	-11.3403
周公之	-11.3405
其難	-11.3406
六日	-11.3406
靈武	-11.3406
王恭	-11.3406
乃使人	-11.3407
無厭	-11.3409
關東	-11.3412
與諸侯	-11.3417
從祀	-11.3418
必能	-11.3421
后妃	-11.3422
亦然	-11.3424
既死	-11.3426
自安	-11.3426
慨	-11.3427
水草	-11.3429
蟠	-11.3429
三萬人	-11.3431
珂	-11.3431
復用	-11.3433
農桑	-11.3433
砲	-11.3433
流離	-11.3434
殱	-11.3434
張良	-11.3435
奏議	-11.3435
從平	-11.3437
剡	-11.3438
資政殿學士	-11.3438
讞	-11.3439
合從	-11.344
進止	-11.3442
出亡	-11.3442
餒	-11.3442
四十二年	-11.3444
字徳	-11.3445
于京師	-11.3446
桓侯	-11.3446
死傷	-11.3447
咄	-11.3447
表求	-11.3447
兵事	-11.345
垢	-11.345
險阻	-11.345
圍邯鄲	-11.3451
州來	-11.3452
為内應	-11.3452
御史中尉	-11.3453
羕	-11.3455
不可謂	-11.3456
溺死	-11.3458
相屬	-11.3459
不輟	-11.3461
慰勞	-11.3461
閭里	-11.3463
卜筮	-11.3463
不異	-11.3465
㽔賔	-11.347
四分	-11.3471
穆子	-11.3471
求見	-11.3472
乎吾	-11.3473
吳吳	-11.3476
壽春	-11.3478
陳侯	-11.3478
之義也	-11.3478
晉州	-11.348
尚可	-11.3483
以北	-11.3486
大典	-11.3488
髙歡	-11.3488
周制	-11.3489
請罷	-11.349
既得	-11.3493
政令	-11.3497
犯塞	-11.3498
大行臺	-11.3502
九里	-11.3504
重兵	-11.3505
太息	-11.3507
魏郡太守	-11.3508
刺殺	-11.3508
允恭	-11.351
之裔	-11.3511
崇文	-11.3516
持重	-11.352
於鄴	-11.352
宋宋	-11.3521
音義	-11.3523
普通	-11.3527
首領	-11.3528
無射	-11.3528
困於	-11.353
即此	-11.3531
世居	-11.3533
一夕	-11.3534
勸進	-11.3534
讚	-11.3536
賻	-11.3539
拜侍中	-11.354
鬱林	-11.3541
曰古者	-11.3541
者咸	-11.3542
救趙	-11.3542
峒	-11.3543
中流	-11.3545
田忌	-11.3545
二帝	-11.3545
翫	-11.3546
射殺	-11.3546
黷	-11.3547
澶淵	-11.3549
圻	-11.3549
樞密直學士	-11.355
失國	-11.355
其手	-11.3552
寕夏	-11.3553
僧䖍	-11.3554
秦滅	-11.3556
敢有	-11.356
送至	-11.3561
臨軒	-11.3562
無得	-11.3565
莊十	-11.3566
滄州	-11.3567
賀蘭	-11.3568
閔公	-11.3573
劉璋	-11.3574
宰輔	-11.3578
發喪	-11.358
先聖	-11.358
果然	-11.3582
所有	-11.3583
直隷	-11.3585
髙皇帝	-11.3586
遺書	-11.3587
一種	-11.3588
弗敢	-11.3589
御史臺	-11.3593
己而	-11.3598
燕兵	-11.3605
就第	-11.3605
百三十	-11.3606
成化中	-11.3611
守禦	-11.3612
不協	-11.3615
汝等	-11.3617
務在	-11.3618
黔中	-11.3619
一代	-11.3621
亡人	-11.3624
師敗績	-11.3624
文季	-11.3625
皆稱	-11.3629
帝大怒	-11.3633
知州	-11.3634
王莽時	-11.3635
沅	-11.3635
乃請	-11.3636
撝	-11.3636
敇	-11.3636
河圖	-11.3638
之本也	-11.364
驍騎將軍	-11.364
遇春	-11.364
龐	-11.3643
彭生	-11.3644
典籖	-11.3644
客星	-11.3646
闈	-11.3646
蛮	-11.3648
拉	-11.3649
果有	-11.365
伐韓	-11.3651
戡	-11.3651
㓗	-11.3651
謳	-11.3652
僞	-11.3657
入長安	-11.3657
謝晦	-11.3658
鮪	-11.3661
既無	-11.3661
十八卷	-11.3666
天穆	-11.3666
設伏	-11.3667
不知何	-11.3671
賈人	-11.3671
功成	-11.3673
經云	-11.3676
奉公	-11.3677
人士	-11.3679
十疋	-11.3679
道家	-11.3681
夷陵	-11.3681
出征	-11.3686
以慰	-11.3687
威武	-11.3688
李膺	-11.3689
王季	-11.3695
澶州	-11.3696
河朔	-11.3696
入内	-11.3701
濟江	-11.3705
州刺史諡曰	-11.3706
亦當	-11.3707
譏之	-11.371
大道	-11.3711
若敖	-11.3719
賈后	-11.3721
正言	-11.3722
三星	-11.3722
十三里	-11.3725
人莫	-11.3729
老臣	-11.3729
贈太尉	-11.3731
方畧	-11.3731
楚公子	-11.3732
監門	-11.3732
管子對曰	-11.3733
之狀	-11.3738
嗇	-11.3738
北斗	-11.3739
諍	-11.374
朝賀	-11.3742
琇	-11.3743
笏	-11.3743
虢公	-11.3743
爪牙	-11.3744
范作	-11.3745
悴	-11.3747
煮	-11.3748
竟以	-11.3748
孝宗	-11.3749
滑臺	-11.3749
王允	-11.375
優劣	-11.375
通鑑綱目	-11.3751
須臾	-11.3751
篋	-11.3751
擊匈奴	-11.3752
腦	-11.3752
豺狼	-11.3753
趋	-11.3756
一語	-11.3757
項王	-11.3757
卹	-11.3757
才能	-11.376
侍者	-11.376
梁國	-11.376
太常博士	-11.3761
舉動	-11.3761
事泄	-11.3762
崩子	-11.3763
縂督	-11.3763
湣公	-11.3764
美之	-11.3764
相謂曰	-11.3764
經筵	-11.3765
𤱔	-11.3765
都邑	-11.3766
任用	-11.3767
西討	-11.3767
文秀	-11.3769
稱尊號	-11.377
鐘鼓	-11.3774
仰視	-11.3775
也帝	-11.3775
之宫	-11.3776
病篤	-11.3776
為車騎將軍	-11.3776
行義	-11.3777
甲科	-11.3779
景祐	-11.3787
大心	-11.379
塗山	-11.3791
泗水	-11.3792
六萬	-11.3792
日久	-11.3797
太極	-11.3799
進至	-11.3803
以叛	-11.3803
六十里	-11.3807
招之	-11.3808
雲夢	-11.381
恭儉	-11.3818
忠良	-11.3818
地下	-11.3818
東井	-11.382
南頓	-11.3821
西行	-11.3821
施之	-11.3821
在焉	-11.3822
廟庭	-11.3823
對曰君	-11.3823
上馬	-11.3828
五郡	-11.3829
遂破	-11.3835
叔孫氏	-11.3835
漢武	-11.3837
姬生	-11.3838
宋師	-11.3842
不交	-11.3843
而行之	-11.3845
贇	-11.3845
明道	-11.3846
已來	-11.3848
厚恩	-11.3849
昴	-11.3849
史有傳	-11.385
安西將軍	-11.385
氏族	-11.3851
諡曰忠	-11.3851
贈太師	-11.3852
春秋戰國異辭卷	-11.3852
付廷尉	-11.3853
晉安王	-11.3854
卻	-11.3854
正徳中	-11.3855
國名	-11.3855
霑	-11.3856
小民	-11.3858
霽	-11.3859
茲謂	-11.3859
闚	-11.3859
校書郎	-11.3859
橘	-11.3859
檜	-11.386
太子少保	-11.386
元属	-11.3861
稱病	-11.3863
俎	-11.3866
不達	-11.3867
臣愚	-11.3868
十六里	-11.3869
龢	-11.3872
咎犯	-11.3873
臣稱曰	-11.3876
屬縣	-11.3876
南平王	-11.388
愛人	-11.3881
呉郡	-11.3881
所望	-11.3884
命婦	-11.3884
至城下	-11.3889
致書	-11.389
平地	-11.389
孝行	-11.389
以才	-11.3892
及諸侯之大夫	-11.3893
領縣	-11.3893
刑法	-11.3896
曹參軍	-11.3897
忠烈	-11.3898
等率	-11.3898
一尺	-11.3898
秦惠王	-11.3898
擁衆	-11.3901
承㫖	-11.3906
中書省	-11.3906
到官	-11.3908
威信	-11.3911
子皮	-11.3912
責其	-11.3913
八里	-11.3914
學問	-11.3916
王業	-11.3916
之過也	-11.3917
之墓	-11.3917
四里	-11.3918
伯陽	-11.3921
萬嵗	-11.3922
太和中	-11.3929
作詩	-11.3932
於庭	-11.3933
達蘭	-11.3933
之精	-11.3937
金山	-11.3939
簪	-11.3941
商賈	-11.3943
曰嗚呼	-11.3944
入居	-11.3944
袤	-11.3946
翕	-11.3952
報仇	-11.3953
榮之	-11.3954
部下	-11.3954
辠	-11.3954
寒心	-11.3954
泚	-11.3955
自非	-11.3955
綾	-11.3956
悼子	-11.3957
烏紳	-11.3958
謾	-11.3958
扶南	-11.3958
蹤	-11.3959
太子洗馬	-11.3959
孩	-11.3959
不喜	-11.396
曹叡	-11.3961
代宗	-11.3965
朱雀	-11.3966
謂宜	-11.3966
掾史	-11.3967
旬月	-11.3968
售	-11.3968
炤	-11.3969
禋	-11.3969
國公謚	-11.397
東晉	-11.397
合浦	-11.3973
罃	-11.3975
大海	-11.3977
空虚	-11.3978
吕䝉	-11.3978
素有	-11.398
洞庭	-11.3981
呉興	-11.3984
諸將皆	-11.3987
天禧	-11.3988
道規	-11.3995
力竭	-11.3995
羲和	-11.3995
相遇	-11.3996
遂奔	-11.3998
書生	-11.3999
劉琨	-11.4001
天光	-11.4004
帝舜	-11.4004
戮力	-11.4004
守節	-11.4012
九尺	-11.4014
其誰	-11.4017
附之	-11.4018
叔向曰	-11.4028
名譽	-11.4029
擅權	-11.4035
一百卷	-11.404
壼	-11.4043
武庚	-11.4048
崔光	-11.4048
為散騎常侍	-11.4048
不従	-11.405
南奔	-11.405
廷和	-11.4051
愛民	-11.4051
胃	-11.4057
則非	-11.4057
未拜	-11.4057
遙	-11.4057
假黄鉞	-11.4057
鄜	-11.4058
南蠻校尉	-11.4059
通直散騎常侍	-11.4059
撲	-11.4062
歔欷	-11.4063
奉車都尉	-11.4063
咽	-11.4064
綂	-11.4064
墳墓	-11.4065
新平	-11.4065
粒	-11.4066
樓船	-11.4066
從駕	-11.4066
酸	-11.4068
娠	-11.4068
爨	-11.4069
沮渠	-11.4069
三十三	-11.407
凋	-11.407
詬	-11.4071
天下事	-11.4072
倘	-11.4072
吕不韋	-11.4073
襍	-11.4075
中央	-11.4076
饑寒	-11.4077
艮	-11.4077
誰可	-11.4081
圖經	-11.4082
諸侯之大夫	-11.4083
卒後	-11.4085
盧氏	-11.4085
通好	-11.4087
堅壁	-11.4089
退走	-11.409
雨雪	-11.4091
靈州	-11.4092
都鄉侯	-11.4094
使告	-11.4094
得幸	-11.4095
曹彬	-11.4096
顧命	-11.4096
大畧	-11.41
邊境	-11.41
劉歆	-11.4102
立皇后	-11.4103
官職	-11.4105
始置	-11.4106
不敢言	-11.4106
不習	-11.4108
凡十	-11.411
其日	-11.4111
諸城	-11.4111
文侯曰	-11.4112
一身	-11.4113
本國	-11.4115
南朝	-11.4115
弘治中	-11.4116
復請	-11.4116
萬匹	-11.4117
别封	-11.4118
揚雄	-11.4118
徽之	-11.4121
治平	-11.4124
諺曰	-11.4125
不戰	-11.4126
漢初	-11.4131
存問	-11.4132
神人	-11.4134
共攻	-11.4135
縱兵	-11.4136
晏子對曰	-11.4139
西面	-11.4144
以進士	-11.4144
上問	-11.4145
河清	-11.4147
疾苦	-11.4152
所推	-11.4152
慶州	-11.4162
衛士	-11.4162
佃	-11.4163
樞宻院	-11.4165
旗幟	-11.4166
南討	-11.4166
豔	-11.4167
復拜	-11.4169
牝	-11.417
之利也	-11.4172
祕書丞	-11.4172
鬷	-11.4172
埀	-11.4173
聖明	-11.4174
㧞之	-11.4175
之舞	-11.4176
曲阜	-11.4176
伏地	-11.4177
弘光中	-11.4178
三縣	-11.418
晏駕	-11.4181
㦲	-11.4181
鉢	-11.4182
巡狩	-11.4183
媒	-11.4183
昭帝	-11.4183
貭	-11.4183
幕府	-11.4187
欒盈	-11.4187
武帝時	-11.4188
供養	-11.4188
者哉	-11.4189
馬融	-11.4189
生口	-11.4191
産業	-11.4193
卒弟	-11.4193
如前	-11.4193
耆老	-11.4193
抵罪	-11.4197
不得志	-11.4198
獨與	-11.4198
是吾	-11.4198
南兖州刺史	-11.4199
自此始	-11.4199
果如	-11.42
白水	-11.42
侯國	-11.4203
葉公	-11.4204
宋氏	-11.4207
所賜	-11.4208
東伐	-11.4209
右丞相	-11.4209
委質	-11.4209
及諸侯	-11.4211
等共	-11.4213
民多	-11.4214
筮之	-11.4214
時務	-11.4215
未至而	-11.4215
南郡太守	-11.4215
酒食	-11.4219
良乆	-11.4222
何如對曰	-11.4223
應龍	-11.4224
改容	-11.4225
伯禽	-11.4225
先軫	-11.4226
乎此	-11.4227
率師	-11.423
四十一	-11.423
梁元帝	-11.4236
孝景	-11.4236
恩澤	-11.4236
左将軍	-11.4237
放之	-11.424
嵗時	-11.4242
漢家	-11.4243
意者	-11.4243
畏其	-11.4244
晳	-11.4246
舊事	-11.4246
穀梁	-11.4246
分其地	-11.4247
三家	-11.4249
居士	-11.425
推誠	-11.425
茂陵	-11.4254
經典	-11.4255
囚徒	-11.4258
不能禁	-11.4259
互相	-11.426
九嵗	-11.4262
察其	-11.4264
國策	-11.4265
如此者	-11.4266
不拘	-11.4266
始祖	-11.4268
鵉	-11.427
至誠	-11.4271
數十年	-11.4274
攻殺	-11.4275
相承	-11.4275
七廟	-11.4277
梵	-11.4278
皆不就	-11.4278
待罪	-11.4279
户部侍郎	-11.4279
堆	-11.4279
緫	-11.428
不觧	-11.428
駙馬	-11.4281
瑣	-11.4281
為大都督	-11.4282
僚佐	-11.4283
謖	-11.4283
杏	-11.4284
愎	-11.4284
叔仲	-11.4284
擊大破之	-11.4284
郟	-11.4285
郭璞	-11.4285
儔	-11.4285
折衝	-11.4287
秦繆公	-11.4288
廡	-11.4288
大理寺	-11.429
韓詩外傳	-11.429
大説	-11.4291
邲	-11.4292
圍宋	-11.4292
宗伯	-11.4292
烏程	-11.4292
兑	-11.4293
經學	-11.4294
醮	-11.4295
時年五十	-11.4296
畀	-11.4296
黔首	-11.4296
省入	-11.4297
不决	-11.43
武宗	-11.43
官司	-11.4301
居庸	-11.4301
之後為	-11.4302
子建	-11.4303
度量	-11.4304
萬斛	-11.4307
等俱	-11.4307
挑戰	-11.4308
諡曰恭	-11.4309
歸心	-11.431
條例	-11.431
於路	-11.4313
三十八	-11.4314
明皇	-11.4315
軍法	-11.4316
大國之	-11.4316
八卦	-11.4321
將來	-11.4326
鎮北	-11.4328
殿内	-11.4329
従之	-11.433
刺客	-11.4332
最為	-11.4333
上命	-11.4335
長生	-11.4337
為廷尉	-11.4338
卿言	-11.4338
將吏	-11.4339
征虜	-11.4339
詔有司	-11.4342
為宰相	-11.4344
不須	-11.4344
學官	-11.4344
渭南	-11.4344
之句	-11.4345
撫按	-11.4353
虚實	-11.4355
美女	-11.4356
子昇	-11.4357
守将	-11.436
南陽王	-11.4362
百工	-11.4362
伊都	-11.4364
分别	-11.4365
西土	-11.4365
驍騎	-11.4367
定逺	-11.4369
石室	-11.4375
元徽	-11.4376
新法	-11.4376
此三者	-11.4378
努	-11.4378
士遜	-11.4379
簾	-11.4381
梁山	-11.4382
萹	-11.4382
茲	-11.4382
江水	-11.4382
爾朱兆	-11.4385
布政使	-11.4386
更生	-11.4388
得全	-11.4388
嗣君	-11.4388
我軍	-11.4389
斟酌	-11.4389
耒	-11.439
骸骨	-11.4391
一無所	-11.4392
請老	-11.4393
戱	-11.4395
殿上	-11.4395
徭	-11.4395
對曰昔	-11.4396
今據	-11.4396
跣	-11.4396
葺	-11.4397
不踰	-11.4397
麒麟	-11.4399
弑君	-11.4399
曹仁	-11.44
迨	-11.4401
脛	-11.4401
左賢王	-11.4402
翕然	-11.4402
聽政	-11.4403
束帛	-11.4403
曰古之	-11.4406
朔日食	-11.4406
臣愚以為	-11.4408
楊愔	-11.441
事實	-11.4415
晉獻公	-11.4416
頃襄王	-11.4416
瀛州	-11.4417
屬文	-11.442
王𢎞	-11.4422
遣将	-11.4422
氏為皇后	-11.4423
以俟	-11.4425
仲逺	-11.4426
樂平	-11.4427
四尺	-11.4429
專權	-11.4429
為害	-11.4431
四星	-11.4433
為盗	-11.4435
㑹稽太守	-11.4435
敬宗	-11.4436
一清	-11.4436
吉祥	-11.4436
一星	-11.4437
南向	-11.4438
徐兖	-11.4439
曰吾聞之	-11.4439
立其子	-11.4444
莒人	-11.4444
江表	-11.4444
輕車	-11.4447
伐呉	-11.4448
篤學	-11.4449
徳行	-11.4452
▁月	-11.4453
有寵於	-11.4453
歴官	-11.4454
博聞	-11.4456
数千	-11.4457
歸罪	-11.4459
二萬人	-11.4465
戴公	-11.4466
敬兒	-11.4468
法司	-11.4469
對曰夫	-11.4472
銜之	-11.4481
尋拜	-11.4482
朝見	-11.4482
廣寕	-11.4483
竹書	-11.4483
三十九年	-11.4485
朔望	-11.4486
淩	-11.4489
三朝	-11.4491
喟然	-11.4491
莎車	-11.4493
穉	-11.4493
御定歴代紀事年表	-11.4493
公府	-11.4495
讃	-11.4496
曰昔者	-11.4496
東討	-11.4497
霖雨	-11.4498
虓	-11.4498
釐侯	-11.4499
宣和	-11.4501
㑹諸侯于	-11.4501
誇	-11.4502
睡	-11.4502
䡖	-11.4502
雄州	-11.4502
河洛	-11.4502
喙	-11.4502
哩	-11.4502
祼	-11.4503
麒	-11.4503
魏收	-11.4503
沙苑	-11.4504
翹	-11.4504
諳	-11.4505
徒跣	-11.4505
僣號	-11.4506
立為皇后	-11.4506
胡廣	-11.4506
畱	-11.4509
引還	-11.4513
嬴姓	-11.4516
感悟	-11.4516
陸渾	-11.4517
都監	-11.452
安集	-11.452
郜	-11.4522
三年春	-11.4524
緩急	-11.4524
譬之	-11.4526
惜之	-11.4527
百司	-11.4528
軍前	-11.4528
擁兵	-11.4531
兼散騎常侍	-11.4532
妻妾	-11.4532
或勸	-11.4533
亡走	-11.4538
景文	-11.4543
平西	-11.4544
孔叢子	-11.4546
屯于	-11.4547
管叔	-11.4547
南越	-11.4554
晉武帝	-11.4556
典禮	-11.4556
堯之	-11.456
竒兵	-11.4561
孝成王	-11.4563
為患	-11.4567
太原王	-11.4569
各置	-11.457
猶存	-11.4571
潞州	-11.4574
失職	-11.4576
五十年	-11.4579
歸徳	-11.4579
呉人	-11.4582
度河	-11.4587
十七卷	-11.4588
之願也	-11.4589
元吉	-11.4592
震動	-11.4596
太上皇	-11.46
芈	-11.4606
謀議	-11.4608
不允	-11.4609
祭天	-11.461
閫	-11.4611
媾	-11.4611
不撓	-11.4613
合葬	-11.4613
籬	-11.4614
陵遲	-11.4614
濛	-11.4614
左軍	-11.4616
竇氏	-11.4616
絜	-11.4616
羣僚	-11.4616
涂	-11.4617
閽	-11.4618
上殿	-11.4618
培	-11.4618
蔡叔	-11.4619
褁	-11.4619
論事	-11.462
撞	-11.462
仁人	-11.4624
寰	-11.4625
摭	-11.4626
遁走	-11.4626
其屍	-11.4626
蔬食	-11.4626
僇	-11.4627
景隆	-11.4629
侑	-11.463
義疏	-11.463
危亡	-11.4631
蹇叔	-11.4631
妥	-11.4632
䟽請	-11.4635
范睢	-11.4635
懼乃	-11.4637
按察使	-11.4639
率歩騎	-11.4641
小邾	-11.4641
追擊	-11.4645
忠於	-11.4646
國遣使朝貢	-11.4647
東遷	-11.4647
立之是為	-11.4648
内地	-11.465
漢室	-11.465
河州	-11.465
權貴	-11.4651
舉兵反	-11.4651
縣省入	-11.4652
賈充	-11.4653
中䕶軍	-11.4655
所云	-11.4656
三十四	-11.466
厚加	-11.466
不戰而	-11.4663
堯臣	-11.4664
還鄉里	-11.4666
築室	-11.4667
二千餘人	-11.4669
郢州刺史	-11.4671
農夫	-11.4671
繼隆	-11.4672
衆議	-11.4677
以我為	-11.4679
白石	-11.4679
上疏言	-11.4679
孫恩	-11.4682
正統中	-11.4684
之弟也	-11.4687
又一卷	-11.4689
何也對曰	-11.469
之福也	-11.4693
與諸將	-11.4697
大罪	-11.4701
安成王	-11.4708
歲餘	-11.4709
諸葛誕	-11.471
秦晉	-11.471
中黄門	-11.4711
驃騎大將軍開府儀同三司	-11.4711
三千餘人	-11.4713
范雎	-11.4717
暕	-11.4718
曰君子	-11.4719
伐鄭鄭	-11.4719
來告	-11.4721
天之所	-11.4721
施於	-11.4722
𣙜	-11.4722
員外散騎常侍	-11.4723
敘	-11.4724
同中書門下平章事	-11.4724
宕	-11.4725
司隸校尉	-11.4726
征南大將軍	-11.4726
夷人	-11.4726
誚	-11.4727
鰥寡	-11.4727
鳯凰	-11.4729
大姓	-11.4729
詁	-11.473
嚳	-11.473
伽	-11.473
掦	-11.4732
忽有	-11.4733
六年春正月	-11.4733
廬州	-11.4733
燿	-11.4735
尋復	-11.4735
錐	-11.4737
認	-11.4737
賈誼	-11.4737
而笑	-11.474
臺城	-11.4741
復興	-11.4744
太僕卿	-11.4745
先鋒	-11.4745
好古	-11.4746
即今	-11.4747
荀息	-11.4748
三十九	-11.475
史記作	-11.4752
延慶	-11.4753
長短	-11.4754
比至	-11.4755
羣盗	-11.4758
雨雹	-11.4758
羽翼	-11.4759
酒肉	-11.4759
平涼	-11.4759
之功也	-11.4761
公卿以下	-11.4761
禁兵	-11.4761
鳯陽	-11.4762
今日之事	-11.4765
百餘萬	-11.4767
落職	-11.4771
南吕	-11.4775
涇州	-11.4775
單衣	-11.4777
其屬	-11.4777
入門	-11.4781
門内	-11.4784
相連	-11.4793
吾家	-11.4794
凡六	-11.4795
方平	-11.4798
求賢	-11.4799
吳漢	-11.4803
伐燕	-11.4803
前漢	-11.4807
司州刺史	-11.4811
因請	-11.4811
而不用	-11.4812
隠公	-11.4812
字思	-11.4813
東安	-11.4813
叱之	-11.4814
合謀	-11.4814
詔贈	-11.4816
鍾㑹	-11.4817
行路	-11.4819
父死	-11.4824
擊敗之	-11.4826
高皇帝	-11.4827
諸曹	-11.4828
申侯	-11.4831
事發	-11.4831
諸羌	-11.4832
擿	-11.4833
改易	-11.4833
伷	-11.4834
屯騎校尉	-11.4834
琵琶	-11.4836
越騎校尉	-11.4836
捜	-11.4836
咸寧	-11.4836
問疾	-11.4836
淑妃	-11.4837
失道	-11.4839
曹掾	-11.484
異議	-11.484
裙	-11.4841
櫬	-11.4842
竪	-11.4842
追奔	-11.4843
欠	-11.4843
阬	-11.4843
蠟	-11.4844
墾田	-11.4844
信陵君	-11.4845
范同	-11.4845
車騎大將軍	-11.4847
針	-11.4848
冡宰	-11.4848
容止	-11.4848
毆	-11.4849
悵	-11.485
為三公	-11.4856
大寳	-11.4859
滅亡	-11.486
城父	-11.4862
機密	-11.4865
陳留王	-11.4866
即拜	-11.4869
八嵗	-11.4873
政和	-11.4873
洛陽令	-11.4874
奏聞	-11.4875
洪水	-11.4875
而問曰	-11.4876
疾疫	-11.4878
延平	-11.4881
顔淵	-11.4881
遺令	-11.4885
彼此	-11.4889
李固	-11.4891
第九	-11.4892
分野元	-11.4895
鄆州	-11.4898
八日	-11.4899
魯哀公	-11.4901
師友	-11.4903
始封	-11.4903
在坐	-11.4905
胡公	-11.4905
而歎曰	-11.4907
東漢	-11.4908
髙辛	-11.4908
建言	-11.4911
侵鄭	-11.4915
廢太子	-11.4917
稽古	-11.4917
東林	-11.4918
食肉	-11.4918
國之大	-11.4919
新興	-11.4919
黄老	-11.492
彪之	-11.4924
九日	-11.4926
攻取	-11.4934
不悟	-11.4936
相拒	-11.4937
改授	-11.4948
齊王冏	-11.4949
因以為	-11.495
緄	-11.4951
樽	-11.4952
叔帶	-11.4953
朏	-11.4954
鎮西將軍	-11.4954
部員外郎	-11.4955
學術	-11.4955
同謀	-11.4956
渦	-11.4957
辞	-11.4957
糜	-11.4958
直史館	-11.4959
唾	-11.4959
瀋	-11.496
燼	-11.496
禰	-11.496
殿中侍御史	-11.496
唘	-11.4961
縫	-11.4961
建威將軍	-11.4961
其狀	-11.4961
態	-11.4962
修起居注	-11.4963
璿	-11.4963
床	-11.4963
進圍	-11.4965
睢陽	-11.4965
蓍	-11.4967
有闕	-11.4968
自剄	-11.4968
夏州	-11.4969
同知樞密院事	-11.4969
邦彦	-11.4974
未下	-11.4976
詔曰朕	-11.4979
切齒	-11.498
孝孺	-11.4982
清濁	-11.4983
仲舒	-11.4984
雖小	-11.4984
公子重耳	-11.4986
寳應	-11.4987
應聲	-11.4987
皇祐	-11.4992
東堂	-11.4993
張魯	-11.4993
防禦	-11.4994
十斤	-11.4997
長史司馬	-11.4999
建立	-11.5001
小名	-11.5004
従事	-11.5008
吉甫	-11.5008
不辱	-11.5009
廬江太守	-11.5018
於野	-11.5021
髙下	-11.5022
方略	-11.5026
離散	-11.5028
子嬰	-11.5029
伐我取	-11.5029
昌平	-11.5033
㑹議	-11.5034
荆楚	-11.5034
轉相	-11.504
神龍	-11.504
意氣	-11.5042
安淂	-11.5042
髙唐	-11.5042
庻子	-11.5043
咸康	-11.5044
尚在	-11.5044
散走	-11.5046
桓十	-11.5048
仲尼曰	-11.5048
二十餘萬	-11.5054
正聲	-11.5055
投水	-11.5056
戰不利	-11.5057
這	-11.5057
以國為氏	-11.506
至扵	-11.5061
少好	-11.5061
李廣	-11.5063
梁冀	-11.5063
避亂	-11.5065
辛夘	-11.5066
平南將軍	-11.5069
髀	-11.507
太子太子	-11.507
套	-11.5072
輓	-11.5072
虞夏	-11.5073
涸	-11.5074
平西將軍	-11.5076
大駭	-11.5077
赭	-11.5078
累擢	-11.5078
方一卷	-11.5078
䕶羌校尉	-11.5078
霞	-11.5079
黄鉞	-11.5079
豺	-11.508
無害	-11.5084
宥之	-11.5085
考課	-11.5085
娘	-11.5085
威徳	-11.5091
斾	-11.5091
車載	-11.5091
髙昌	-11.5093
孫林父	-11.5094
郡界	-11.5095
儀禮	-11.5095
景和	-11.5096
虎狼	-11.5097
小黄門	-11.5098
功賜爵	-11.5098
殺戮	-11.5101
十五日	-11.5103
政教	-11.5105
玉帛	-11.5105
改属	-11.5108
嘉納	-11.5109
太陽	-11.511
戎馬	-11.5111
宗祀	-11.5112
元妃	-11.5112
變色	-11.5114
祀南郊	-11.5115
後唐	-11.5116
陽氣	-11.5119
袁氏	-11.5127
鄴城	-11.5132
石門	-11.5133
其友	-11.5134
日益	-11.5134
而立之	-11.5136
自保	-11.5136
吏事	-11.5137
華州	-11.514
閨	-11.5142
六寸	-11.5153
韋昭	-11.5157
大悅	-11.516
乃釋	-11.5161
目夷	-11.5166
載記	-11.5166
愍帝	-11.5166
武皇帝	-11.5166
五音	-11.5168
重任	-11.5169
無所用	-11.5174
挑	-11.5177
天興	-11.5177
光祿勲	-11.5179
山戎	-11.5179
頴胄	-11.5181
先師	-11.5182
所誅	-11.5182
彊盛	-11.5186
鰥寡孤獨	-11.5186
湖南	-11.519
嗣立	-11.519
長陵	-11.519
縝	-11.5191
㤀	-11.5191
店	-11.5192
州刾史	-11.5192
峴	-11.5192
弧	-11.5192
贏	-11.5193
咺	-11.5194
眀徹	-11.5195
保全	-11.5195
餅	-11.5195
追斬	-11.5195
訶	-11.5196
騁	-11.5197
橐	-11.5198
於長安	-11.5198
蔡確	-11.5199
𦍑	-11.5201
殿門	-11.5202
年長	-11.5204
䕶軍將軍	-11.5204
剝	-11.5207
昆彌	-11.5208
攀龍	-11.5208
十三人	-11.5209
性至孝	-11.5212
應天府	-11.5212
也臣聞	-11.5213
器物	-11.5214
羡之	-11.5215
領州	-11.5219
髙密	-11.5219
囊瓦	-11.5222
籙	-11.5224
鄱陽王	-11.5231
長君	-11.5231
思明	-11.5233
蘭臺	-11.5237
圍鄭	-11.5239
王猛	-11.5239
王旦	-11.524
為右僕射	-11.5242
並進	-11.5243
并前	-11.5243
曰此兒	-11.5245
公子光	-11.5246
左氏傳	-11.5248
族弟	-11.5248
向髙	-11.525
堂下	-11.5251
恨不	-11.5256
武康	-11.5258
鄉黨	-11.526
良嗣	-11.5261
白鹿	-11.5263
後將軍	-11.5265
不可用	-11.5266
錢唐	-11.5266
上虞	-11.5267
伐齊齊	-11.527
萬六千	-11.527
安置	-11.5273
先驅	-11.5277
進討	-11.5282
選用	-11.5288
江湖	-11.5291
是夜	-11.5292
慈母	-11.5293
東觀記	-11.5294
詰之	-11.5297
三十八年	-11.5298
為太師	-11.5298
而去之	-11.5298
進據	-11.5299
乘馬	-11.5301
冠帶	-11.5302
新羅	-11.5304
有大功	-11.5304
召問	-11.5306
自負	-11.5306
巋	-11.5306
中散大夫	-11.5307
虎賁中郎將	-11.5307
暦	-11.5309
信義	-11.5311
肉袒	-11.5313
衾	-11.5314
歿	-11.5315
傳首	-11.5316
晉魯宋	-11.5316
便是	-11.5317
晉主	-11.5317
郅支	-11.5317
阨	-11.5317
舉賢良方正	-11.5318
肄	-11.5318
筑	-11.5319
姚萇	-11.532
騷動	-11.532
不厭	-11.5321
剔	-11.5321
舅氏	-11.5321
騎兵	-11.5321
葭	-11.5322
縣南	-11.5324
奄至	-11.5325
大宛	-11.5327
荆州牧	-11.5327
瑤	-11.5328
檀弓	-11.5328
當此之時	-11.5328
五校	-11.5329
北討	-11.5332
二丈	-11.5332
其尸	-11.5334
坐免官	-11.5334
虎豹	-11.5344
孔融	-11.5349
埋之	-11.5354
靡不	-11.5355
國之政	-11.5356
教民	-11.5357
四十七	-11.5358
定䇿	-11.5358
化貞	-11.5358
永楽中	-11.536
為尚書右僕射	-11.5363
復叛	-11.5363
少主	-11.5364
正色曰	-11.5365
退還	-11.5366
部伍	-11.5366
至洛陽	-11.5367
京畿	-11.5369
姦臣	-11.537
紹聖	-11.537
延壽	-11.537
皇祖	-11.537
自縊	-11.5376
懐公	-11.5382
秋冬	-11.5384
蕭氏	-11.5385
法律	-11.5389
交州刺史	-11.5391
昌黎	-11.5397
昭宗	-11.5397
何哉	-11.54
率諸侯	-11.5403
其父母	-11.5406
勝負	-11.541
不恱	-11.5412
田嬰	-11.5418
知之矣	-11.5418
夏禹	-11.5419
筞	-11.542
已甚	-11.5421
侗	-11.5422
銑	-11.5424
元皇帝	-11.5425
更封	-11.5427
熾磐	-11.5428
月氏	-11.5428
將中軍	-11.5429
愕	-11.5429
國並遣使朝貢	-11.543
宣言	-11.543
緬	-11.5431
流亡	-11.5433
鴨	-11.5434
陬	-11.5435
渉獵	-11.5436
蛟	-11.5436
廣川	-11.5436
覿	-11.5436
發覺	-11.5436
蒋	-11.5437
恠	-11.5437
撾	-11.5438
脊	-11.5438
妺	-11.5438
來救	-11.5438
即帝位	-11.5439
杳	-11.544
紓	-11.544
主帥	-11.544
肸	-11.544
汧	-11.544
滌	-11.5441
烮	-11.5442
鼓譟	-11.5443
詎	-11.5444
徭役	-11.5446
太子建	-11.5452
萬三千	-11.5452
王子朝	-11.5452
再拜稽首	-11.5454
檻車	-11.5454
沙漠	-11.5456
延齡	-11.546
督師	-11.5462
提督	-11.5463
二十餘人	-11.5466
右師	-11.5466
近代	-11.5475
七萬	-11.5476
窮困	-11.5481
吳郡太守	-11.5481
後嗣	-11.5486
五十人	-11.5491
被執	-11.5491
或問	-11.5492
齊大夫	-11.5494
清平	-11.5494
千疋	-11.5495
諡曰貞	-11.5496
劉聰	-11.5503
赴援	-11.5509
廢后	-11.551
乞降	-11.5512
失禮	-11.5516
輕薄	-11.5517
室中	-11.5519
俱死	-11.552
歸朝	-11.552
通典	-11.5521
平蜀	-11.5523
使持節都督	-11.5523
書佐	-11.553
風俗通云	-11.553
不佞	-11.5531
固已	-11.5531
萬八千	-11.5531
孔叢	-11.554
舊恩	-11.554
馬援	-11.5545
兵勢	-11.5545
五十四	-11.5547
交易	-11.555
要離	-11.5555
金紫光祿大夫	-11.5555
五十二	-11.5556
流水	-11.5557
駞	-11.5557
勱	-11.5557
肴	-11.5558
褥	-11.5558
舊章	-11.5558
姞	-11.5559
一夜	-11.5561
位次	-11.5561
遇疾	-11.5562
璘	-11.5563
尉遲	-11.5563
坡	-11.5563
耄	-11.5563
葱嶺	-11.5565
前日	-11.5565
𫀆	-11.5565
臨事	-11.5566
餘杭	-11.5566
築長城	-11.5566
勺	-11.5567
稀	-11.5567
非敢	-11.5567
蘧伯玉	-11.5568
遴	-11.5568
崑崙	-11.5569
扆	-11.557
都督僉事	-11.557
紛紛	-11.5571
隆慶	-11.5572
左氏春秋	-11.5572
致命	-11.5573
枳	-11.5573
承聖	-11.5578
元年正月	-11.5578
項籍	-11.5579
闖	-11.5579
母憂	-11.5582
左光祿大夫	-11.5582
頓邱	-11.5583
周公旦	-11.5584
而後可	-11.5586
汾州	-11.5589
毘	-11.5589
論衡	-11.5593
徼外	-11.5593
太㣲	-11.5594
無赦	-11.5594
不朽	-11.5596
諸鎮	-11.5597
先零	-11.5597
杜陵	-11.5599
羅索	-11.5599
乎王曰	-11.5599
好讀書	-11.5604
土山	-11.5605
大震	-11.5605
弑逆	-11.5606
雨水	-11.5606
拒戰	-11.5606
忠貞	-11.5609
按察	-11.5612
陜州	-11.5616
諸臣傳	-11.5618
王者之	-11.5621
惠卿	-11.5622
徃来	-11.5623
虞舜	-11.5624
親愛	-11.563
為荆州刺史	-11.5634
魯魯	-11.564
莒邾	-11.5642
仁孝	-11.5643
取士	-11.5647
後數日	-11.5647
朕甚	-11.5649
歸彦	-11.565
甘心	-11.5653
莫知所	-11.5662
和龍	-11.5663
沛郡	-11.567
也孔子曰	-11.567
子産曰	-11.5673
百口	-11.5674
子胥曰	-11.5674
謔	-11.5676
與之言	-11.5677
欲立之	-11.5679
越嶲	-11.568
襲殺	-11.568
怏怏	-11.5681
靚	-11.5682
韓非	-11.5683
佩刀	-11.5683
閠	-11.5684
謀臣	-11.5684
湼	-11.5684
因以為氏	-11.5686
徴還	-11.5686
㝢	-11.5687
隲	-11.5687
遂廢	-11.5687
溷	-11.5687
㨿	-11.5688
朶	-11.5688
逌	-11.5689
賜爵關内侯	-11.5689
棧	-11.5689
鋪	-11.5689
撫軍將軍	-11.5689
鶻	-11.5689
世稱	-11.569
太興	-11.5691
城門校尉	-11.5692
酆	-11.5692
蓐	-11.5692
紊	-11.5693
曰不如	-11.5693
擄	-11.5693
罄	-11.5694
蟜	-11.5696
鄶	-11.5696
薬	-11.5697
供奉官	-11.5697
戰功	-11.5699
孝莊	-11.5699
湫	-11.5699
御府	-11.5699
吳越春秋	-11.57
開封人	-11.57
十八里	-11.57
汴京	-11.5703
無乃不可乎	-11.5704
劉牢之	-11.5705
世俗	-11.5707
累日	-11.5708
夜遁	-11.5708
此類	-11.5708
丹陽太守	-11.5708
七尺	-11.571
天皇	-11.5717
丞相亮	-11.5722
闔門	-11.5722
所知也	-11.5723
定襄	-11.5725
願君	-11.573
泉州	-11.573
立為皇太子	-11.5731
汝州	-11.5732
歴年	-11.5732
無咎	-11.5733
任職	-11.5733
元年春	-11.5737
討平	-11.5738
伯爵	-11.5738
鄂侯	-11.5743
楚懐王	-11.5745
宋興	-11.5746
先儒	-11.5749
桓叔	-11.575
重黎	-11.5757
最後	-11.5758
及第	-11.5759
荀子	-11.5765
大澤	-11.5767
死之日	-11.5767
齊宣王	-11.5768
乾侯	-11.5769
皆由	-11.5769
為中軍	-11.577
後漢有	-11.5771
文皇帝	-11.5775
騑	-11.578
䝉古	-11.578
禮遇	-11.578
無疑	-11.5783
邾人	-11.5788
延安	-11.5789
斷絶	-11.5793
之至也	-11.5795
也然則	-11.5796
牧犍	-11.5797
紹宗	-11.5798
倜儻	-11.58
明旦	-11.58
晏然	-11.5804
書院	-11.5805
繻	-11.5807
四十萬	-11.5807
平北將軍	-11.5807
華林園	-11.5808
鞬	-11.5809
亹	-11.581
碭	-11.581
袂	-11.5812
征東將軍	-11.5812
流沙	-11.5812
朕意	-11.5812
服色	-11.5813
殫	-11.5814
悚	-11.5814
天保初	-11.5815
錦繡	-11.5816
鬰	-11.5817
鏘	-11.5817
薛公	-11.5817
纁	-11.5818
瞋目	-11.5818
蓺	-11.5818
祟	-11.5819
稼穡	-11.582
春夏	-11.5821
􁞗	-11.5822
圍我	-11.5822
奉㫖	-11.5822
几杖	-11.5823
也又曰	-11.5825
官渡	-11.5825
為尚書郎	-11.5827
廣固	-11.5828
僧珍	-11.583
騎士	-11.5831
優詔	-11.5833
哈宻	-11.5834
臨晉	-11.5842
桓𤣥	-11.5843
申屠	-11.5843
機宻	-11.5845
補闕	-11.5847
馬邑	-11.5849
呉越	-11.5851
祖考	-11.5854
上開府	-11.5855
司州	-11.5856
哀毁	-11.5858
南廵	-11.5867
募兵	-11.5867
髙士	-11.587
儒林	-11.5871
孝文帝	-11.5872
懐徳	-11.5873
爵禄	-11.588
平昌	-11.5881
洛水	-11.5881
克明	-11.5884
嬰兒	-11.5885
齊湣王	-11.5891
蘇威	-11.5895
中京	-11.5899
崇徳	-11.59
右賢王	-11.59
隠居	-11.5902
孔甲	-11.5904
馬超	-11.5906
獄吏	-11.5906
皇統	-11.5906
永樂中	-11.5907
乞伏	-11.5908
竊聞	-11.5908
蔡州	-11.5908
食盡	-11.5911
罽	-11.5913
始終	-11.5915
訛言	-11.5915
已破	-11.5916
釐公	-11.5916
稱㫖	-11.5916
五十七	-11.5919
藹	-11.5923
水灌	-11.5924
免冠	-11.5926
分散	-11.5928
檀道濟	-11.5931
奮擊	-11.5932
魯昭公	-11.5932
峭	-11.5932
於秦秦	-11.5932
境上	-11.5933
丞相御史	-11.5933
進爵為侯	-11.5934
舶	-11.5935
噪	-11.5938
勢必	-11.5938
柬	-11.5939
郍	-11.5939
縗	-11.594
聃	-11.5941
太后崩	-11.5941
六嵗	-11.5941
修撰	-11.5941
債	-11.5941
泝	-11.5942
涯	-11.5942
扣	-11.5942
洒	-11.5942
擯	-11.5942
帥師伐	-11.5942
喉	-11.5942
終不能	-11.5943
右春坊	-11.5945
紛紜	-11.5946
噫	-11.5946
大名府	-11.5946
貴嬪	-11.5947
阼	-11.5947
元舊一	-11.5947
昌意	-11.5947
粱	-11.5949
驕恣	-11.595
紞	-11.595
畎	-11.595
褘	-11.5951
莫大焉	-11.5952
莵	-11.5954
未有不	-11.5954
季孫行父	-11.5955
其術	-11.5958
移檄	-11.5962
部分	-11.5962
牽牛	-11.5962
舞陽	-11.5965
文彦博	-11.5967
郭云	-11.5969
齊髙帝	-11.5969
太祖太祖	-11.597
為參軍	-11.597
桂林	-11.5971
氐羌	-11.5971
一丈	-11.5972
孟津	-11.5974
千一百	-11.5975
譙王	-11.5977
千古	-11.5979
夫人生	-11.5982
僚屬	-11.5984
哀姜	-11.5984
直學士	-11.5987
之孫也	-11.5995
爵一級	-11.5999
位特進	-11.6
五部	-11.6
祿山	-11.6001
姦人	-11.6002
叔陵	-11.6002
公孫僑	-11.6003
荀卿	-11.6006
仙人	-11.6013
曰此非	-11.6016
大單于	-11.6016
乃下詔	-11.6018
宓子	-11.6021
太牢	-11.6026
丈餘	-11.6031
太夫人	-11.6031
東郡太守	-11.6032
對䇿	-11.6033
征東	-11.6034
惟庸	-11.6036
母喪	-11.6037
眀元	-11.6042
所造	-11.6043
一百二十	-11.6043
章奏	-11.6044
為揚州刺史	-11.6047
尋加	-11.6057
火燒	-11.6058
匕	-11.606
晉公䕶	-11.6062
橫	-11.6063
郿	-11.6063
良馬	-11.6063
韋孝寛	-11.6065
歩兵	-11.6068
裔孫	-11.6068
絰	-11.6069
九世	-11.6069
文子曰	-11.6069
眠	-11.6069
液	-11.6069
尺寸	-11.6069
鈐轄	-11.607
小心	-11.6071
匈	-11.6072
偵	-11.6072
逡廵	-11.6073
㴱	-11.6074
隳	-11.6074
繚	-11.6074
潢	-11.6075
孝悌	-11.6075
猜忌	-11.6075
肅侯	-11.6076
聳	-11.6078
舄	-11.6079
㒺	-11.6079
絢	-11.6081
嵬	-11.6082
淨	-11.6082
獻皇后	-11.6082
僧孺	-11.6083
鄜延	-11.6083
凡諸	-11.6083
權勢	-11.6084
殷浩	-11.6084
樂羊	-11.6085
良玉	-11.6085
楚靈王	-11.6085
諸樊	-11.6088
浮屠	-11.6089
連山	-11.6089
自刎	-11.6091
未決	-11.6092
江寧	-11.6092
步騎	-11.6093
諡文	-11.6094
甘露降	-11.6094
靖康	-11.6095
各以其	-11.6095
琴瑟	-11.6095
入㓂	-11.6096
甚急	-11.6097
自焚	-11.6097
兼領	-11.6098
督撫	-11.6099
稍稍	-11.6099
正旦	-11.6099
流星	-11.6101
叛逆	-11.6101
熙寧	-11.6103
也今君	-11.6104
詔不許	-11.6105
嘉平	-11.6115
惠文王	-11.6117
管蔡	-11.6118
貴重	-11.612
聊城	-11.6122
田獵	-11.6122
天順中	-11.6126
也雖然	-11.6127
武闗	-11.6128
豈惟	-11.6128
副都御史	-11.6128
慶厯	-11.613
祠部	-11.613
兖豫	-11.6132
其鋒	-11.6134
邵陵王	-11.6137
祠祀	-11.6137
千牛	-11.6138
蔡澤	-11.614
厯數	-11.614
雅好	-11.6142
便冝	-11.6144
臨陣	-11.6145
討破之	-11.6146
千斛	-11.6147
盡誅	-11.615
其半	-11.6151
立碑	-11.6152
人臣之	-11.6154
必危	-11.6155
司馬遷	-11.6158
子姪	-11.6165
河東太守	-11.6165
而棄之	-11.6165
不榖	-11.6167
伐莒	-11.6171
諌官	-11.6173
外孫	-11.6174
疑焉	-11.6175
室韋	-11.6179
王浚	-11.6183
荅曰	-11.6186
永平中	-11.6187
舸	-11.6188
進忠	-11.619
潼關	-11.6195
女真	-11.6195
韃靼	-11.6196
出境	-11.6196
督諸軍	-11.6196
散官	-11.6197
走馬	-11.6197
朱异	-11.6197
沼	-11.6197
宕昌	-11.6198
狃	-11.6198
葱	-11.6199
翅	-11.6199
秘書監	-11.62
鎮軍將軍	-11.62
丁夘	-11.62
瀘	-11.62
枹罕	-11.6201
北燕	-11.6203
叶	-11.6203
謀逆	-11.6204
舉茂才	-11.6204
頰	-11.6204
虬	-11.6204
疽	-11.6205
計吏	-11.6205
雛	-11.6205
鍾繇	-11.6207
睨	-11.6209
喧	-11.6211
數百萬	-11.6211
幄	-11.6212
椁	-11.6212
小學	-11.6213
越王句踐	-11.6214
六宫	-11.6214
西門豹	-11.6214
伍員	-11.6216
經籍	-11.6216
人也其先	-11.6216
友徳	-11.6217
未央宫	-11.6217
隂平	-11.6217
彊弩	-11.6218
出補	-11.6218
負芻	-11.622
不失其	-11.6221
尸子	-11.6221
丞相府	-11.6223
食禄	-11.6225
無日矣	-11.6225
扶蘇	-11.6226
禍亂	-11.6228
謂曰卿	-11.6232
遠近	-11.6238
伯益	-11.6238
閤門	-11.6239
搃兵	-11.624
萬疋	-11.6243
八尺	-11.6244
延熙	-11.6246
蜀漢	-11.6247
南徐州刺史	-11.625
尤善	-11.6259
公曰寡人	-11.6261
諸蠻	-11.6261
平陸	-11.6266
罪當	-11.6268
向戍	-11.6271
妖言	-11.6278
江海	-11.6279
安息	-11.6281
狄人	-11.6281
四嵗	-11.6285
簡易	-11.6286
潁川太守	-11.6297
遣使來	-11.6299
山之陽	-11.63
不知所為	-11.6301
寛和	-11.6302
近侍	-11.6306
南渡	-11.6307
校書	-11.6308
巫臣	-11.6318
詩説	-11.6318
慶歴	-11.6328
鎖	-11.633
瓶	-11.633
薫	-11.6331
腕	-11.6331
軍資	-11.6331
紱	-11.6333
侯景之亂	-11.6333
珉	-11.6333
貙	-11.6334
吕夷簡	-11.6335
闊	-11.6335
塊	-11.6335
尚存	-11.6335
澮	-11.6336
唐貞觀	-11.6336
擴	-11.6336
廕一子	-11.6337
纉	-11.6337
脇	-11.6338
㲄	-11.6338
罵曰	-11.6339
上洛	-11.634
諸大臣	-11.634
侯安都	-11.634
臠	-11.634
斧鉞	-11.6343
東土	-11.6343
申包胥	-11.6343
縻	-11.6344
蟻	-11.6344
閶	-11.6344
貉	-11.6344
風儀	-11.6347
二篇	-11.6347
啣	-11.6348
乾坤	-11.6348
全斌	-11.6348
帝王世紀	-11.6353
管仲對曰	-11.6355
追思	-11.6355
近世	-11.6358
宣太后	-11.6361
出獵	-11.6361
二年正月	-11.6362
君臣之	-11.6367
隂陽之	-11.6367
贖罪	-11.6368
假借	-11.6368
楊駿	-11.6369
河内太守	-11.6369
轉輸	-11.637
錦衣衛	-11.6371
蘇州	-11.6371
文詞	-11.6374
東向	-11.6375
晉王廣	-11.6385
禪位	-11.6386
可畏	-11.6388
春秋之義	-11.6389
櫟陽	-11.6391
辭讓	-11.6394
書籍	-11.6394
數里	-11.6395
鄧州	-11.6397
御正	-11.6397
世務	-11.6402
招集	-11.6404
端門	-11.6405
職官	-11.6408
之主也	-11.6409
蜀郡太守	-11.6411
既誅	-11.6419
屈建	-11.642
仁夀	-11.6421
司馬昭	-11.6422
作逆	-11.6426
貞元	-11.6429
在側	-11.643
財貨	-11.6432
延陵	-11.6433
入境	-11.6435
預云	-11.6438
南徐州	-11.644
何異	-11.644
七歲	-11.6444
燕昭王	-11.6446
天祐	-11.6447
斡	-11.645
居攝	-11.6451
孝文皇帝	-11.6453
不能救	-11.6456
家口	-11.6457
射聲校尉	-11.6459
有司請	-11.646
為功曹	-11.6461
每嵗	-11.6462
吾是以	-11.6463
伯姬	-11.6464
舉孝廉	-11.6465
磁	-11.6467
晡	-11.6468
􁃽	-11.647
長老	-11.647
乍	-11.647
熊廷弼	-11.6471
鵝	-11.6472
班劒	-11.6472
低	-11.6472
翌日	-11.6472
有文集	-11.6472
澧	-11.6472
直集賢院	-11.6473
猴	-11.6473
𠂻	-11.6476
鄊	-11.6477
匝	-11.6477
笥	-11.6478
夷三族	-11.6479
扁	-11.648
廣陵王	-11.6481
榆林	-11.6481
不可勝計	-11.6482
簫	-11.6482
鄀	-11.6483
首陽	-11.6484
仞	-11.6484
延昌	-11.6486
髙廟	-11.6487
廉頗	-11.6487
聚歛	-11.6487
右正言	-11.6488
萇𢎞	-11.6488
三丈	-11.6491
洧	-11.6491
申叔	-11.6492
佛寺	-11.6493
青苗	-11.6497
井田	-11.6497
曲直	-11.6498
蒼頭	-11.6498
左衛將軍	-11.6499
賦歛	-11.6499
固執	-11.6502
舂陵	-11.6504
而不言	-11.6504
慧景	-11.6506
孤竹	-11.6508
林甫	-11.651
汝南太守	-11.651
九疇	-11.6511
曲陽	-11.6511
娶于	-11.6512
萬一千	-11.6512
變化	-11.6512
左馮翊	-11.6512
漁父	-11.6514
蘇子曰	-11.6514
聚兵	-11.6521
亞夫	-11.6527
閨門	-11.6533
萬乘之	-11.654
萬九千	-11.6543
七寸	-11.6543
書闕	-11.6545
隂謀	-11.6552
不得已而	-11.6553
未有所	-11.6554
所忌	-11.6556
鍾山	-11.6556
失望	-11.6559
沈尹	-11.6559
誅戮	-11.656
犬馬	-11.6563
子琮	-11.6566
冬月	-11.6569
助教	-11.6574
伊吾	-11.6574
潭州	-11.6574
而返	-11.6577
仁恕	-11.658
太孫	-11.6581
庭中	-11.6581
召忽	-11.6582
斷獄	-11.6593
五官中郎將	-11.66
物情	-11.6601
以觀其	-11.6602
歸順	-11.6603
未之有也	-11.6604
進爵為王	-11.6604
郅	-11.6604
黃門侍郎	-11.6607
謠	-11.6608
浣	-11.6608
沈慶之	-11.6608
拍	-11.6609
湏臾	-11.6609
緇	-11.661
覔	-11.661
盱	-11.6611
聾	-11.6611
蹻	-11.6611
僥倖	-11.6611
瀕	-11.6612
酖	-11.6613
逡	-11.6613
鎮南將軍	-11.6613
隻	-11.6613
鋸	-11.6613
不決	-11.6614
逗	-11.6615
悸	-11.6615
兼侍讀	-11.6616
升平	-11.6617
鏗	-11.6621
生男	-11.6625
順流	-11.6633
八寸	-11.6638
伊闕	-11.6639
四十人	-11.6639
浞	-11.6641
張郃	-11.6641
六品	-11.6643
創業	-11.6644
張飛	-11.6646
阿房	-11.6649
東昬	-11.6649
本意	-11.6652
霸先	-11.6653
北虜	-11.6655
門徒	-11.6658
天下之士	-11.6659
日暮	-11.666
闗西	-11.6663
于秦秦	-11.6664
知己	-11.6664
無疆	-11.6665
副将軍	-11.6666
不返	-11.6666
四十四年	-11.6668
當塗	-11.6669
射獵	-11.6669
熈宗	-11.6671
觀望	-11.6674
州主簿	-11.6675
七品	-11.6675
非徒	-11.6676
得罪於	-11.668
太子太師	-11.668
眀日	-11.6681
領䕶	-11.6683
常山王	-11.6683
著名	-11.6684
荆揚	-11.6685
辭不受	-11.6685
便殿	-11.6687
莫知其	-11.6687
送京師	-11.6694
云黄帝	-11.6702
仕郡	-11.6704
後患	-11.6706
刑名	-11.6707
地形	-11.6708
彊秦	-11.671
者數十人	-11.6711
賂遺	-11.6713
清儉	-11.6714
經營	-11.6717
吏部郎中	-11.6718
累年	-11.6719
切諫	-11.6719
力争	-11.6722
厯代	-11.6722
畏服	-11.6724
盧龍	-11.6728
哨	-11.673
太府	-11.6733
縣界	-11.6734
沁	-11.6734
衛鞅	-11.6736
佃夫	-11.6736
捕得	-11.6737
森	-11.6737
歹	-11.6737
賍	-11.674
孝慈	-11.6741
帶甲	-11.6741
不可得也	-11.6742
乹	-11.6743
棊	-11.6744
件	-11.6745
廨	-11.6745
憫	-11.6745
廷議	-11.6746
寡欲	-11.6746
漳水	-11.6749
湜	-11.6749
瞑	-11.6749
䝉恬	-11.6749
髙祖受禪	-11.675
堞	-11.675
樗	-11.675
榖梁	-11.6751
髓	-11.6751
人相食	-11.6752
彖	-11.6753
太簇	-11.6754
婆羅門	-11.6755
梨	-11.6756
三歲	-11.6757
盲	-11.6758
學業	-11.6758
龍虎	-11.6759
莫大於	-11.6759
涿州	-11.676
不敢進	-11.676
㔻	-11.676
不懌	-11.6762
皮氏	-11.6767
劉淵	-11.6767
有力焉	-11.6767
故城在	-11.6768
㑹試	-11.6773
賢才	-11.6777
虎牙	-11.6779
舉止	-11.6781
猛虎	-11.6782
赤狄	-11.6786
華林	-11.6787
延綏	-11.6789
渠帥	-11.679
名之曰	-11.6792
開封府	-11.6793
富民	-11.6796
閣部	-11.6797
滋甚	-11.6797
唯唯	-11.6798
息民	-11.6801
八音	-11.6804
太宗即位	-11.6805
武帝即位	-11.6806
出迎	-11.6808
自裁	-11.6808
後庭	-11.6809
藩鎮	-11.681
母憂去職	-11.6817
廟號	-11.6821
廣平王	-11.6823
隔絶	-11.6823
糧盡	-11.6828
疾甚	-11.6828
賜帛	-11.6833
魯大夫	-11.6835
改葬	-11.6836
中軍將軍	-11.684
少監	-11.6842
也且夫	-11.6847
録尚書	-11.6854
江夏王	-11.6855
得其人	-11.6856
奏免	-11.6856
尊賢	-11.6859
儉素	-11.6866
縱火	-11.6868
蒨	-11.6869
金寳	-11.6869
徳裕	-11.6872
游道	-11.6875
平原君曰	-11.6878
馮異	-11.6878
酤	-11.6881
成都王頴	-11.6881
惋	-11.6881
鷹揚	-11.6882
單馬	-11.6883
愴	-11.6883
練兵	-11.6884
濳	-11.6885
父喪	-11.6886
刈	-11.6887
楫	-11.6887
厝	-11.6887
棨	-11.6889
二年春二月	-11.6889
臏	-11.6891
裸	-11.6891
兌	-11.6892
㐮陽	-11.6892
袵	-11.6893
附郭元舊	-11.6893
端拱	-11.6894
衮冕	-11.6895
魅	-11.6895
褊	-11.6896
廵檢	-11.6896
盥	-11.6896
鴦	-11.6896
榛	-11.6897
不可失也	-11.6897
簽	-11.6898
浮海	-11.6898
刀筆	-11.6899
岑彭	-11.6901
嫁娶	-11.6904
發病	-11.6905
斑	-11.6906
不可以不	-11.6908
范中行氏	-11.6908
興化	-11.6911
㥄	-11.6912
秦㧞	-11.6917
乾徳	-11.6919
侍衛	-11.6919
狐偃	-11.6919
屬籍	-11.6923
好施	-11.6924
為先鋒	-11.6925
王珪	-11.6927
赧王	-11.693
太祖征	-11.6935
竊見	-11.6935
譬如	-11.6938
数萬	-11.694
淮泗	-11.695
八十餘	-11.695
傅太后	-11.6952
藥師	-11.6954
供給	-11.696
乗車	-11.6965
忠直	-11.6966
井中	-11.697
七星	-11.6972
宗社	-11.6974
目録	-11.698
南岸	-11.6983
救我	-11.6983
酒色	-11.6989
名振	-11.6997
長沙王	-11.7001
攻戰	-11.7001
貢方物	-11.7005
雹	-11.7006
九州之	-11.7017
天柱	-11.7017
下詔曰	-11.7021
豕韋	-11.7023
狼狽	-11.7023
受學	-11.7023
輔國将軍	-11.7024
蜜	-11.7025
相接	-11.7025
継光	-11.7025
原任	-11.7026
隋志	-11.7027
砂	-11.7029
羣后	-11.7029
湊	-11.703
勳	-11.703
弓箭	-11.703
巵	-11.7031
秣	-11.7031
皋	-11.7031
唐武徳	-11.7032
單父	-11.7033
無錫	-11.7033
已久	-11.7033
斵	-11.7033
唇	-11.7034
璨	-11.7034
承業	-11.7034
㕔	-11.7034
洛州刺史	-11.7035
卷三十	-11.7036
擊走之	-11.7036
鶴鳴	-11.7036
荀林父	-11.7036
為之語曰	-11.7037
名儒	-11.7037
枹	-11.7039
俺	-11.704
絺	-11.7041
張遼	-11.7041
質直	-11.7042
救宋	-11.7044
右北平	-11.7047
十九卷	-11.7049
百揆	-11.7051
杜伯	-11.7052
經三卷	-11.7052
也昔者	-11.7056
縣東南	-11.7056
武衛將軍	-11.7057
環慶	-11.7062
響應	-11.7063
喪父	-11.7063
其咎	-11.7067
命之曰	-11.7069
法駕	-11.707
司理	-11.7071
四十三年	-11.7072
永定	-11.7072
居䘮	-11.7074
側目	-11.7075
我師敗績	-11.7082
貴盛	-11.7082
但當	-11.7086
慈聖	-11.7086
賦役	-11.7089
十七里	-11.7089
将帥	-11.7092
智勇	-11.7093
孔丘	-11.7094
謂所親曰	-11.7095
為使持節	-11.7097
献忠	-11.7098
記三卷	-11.71
芒山	-11.7101
侍坐	-11.7103
増邑	-11.7104
同産	-11.7105
駿馬	-11.7105
援兵	-11.711
此之謂也	-11.7113
符命	-11.712
何無忌	-11.712
冠服	-11.7122
紫宫	-11.7123
科道	-11.7124
無恤	-11.7124
廟碑	-11.7124
夜郎	-11.7125
親族	-11.7126
倉庫	-11.7126
𤣥孫	-11.7127
陸終	-11.7128
永眀	-11.7129
臧氏	-11.7133
二千里	-11.7135
相似	-11.7137
東郊	-11.7139
逐北	-11.7146
在其中	-11.7146
偃師	-11.7146
讜	-11.7147
舉手	-11.7147
其辭曰	-11.7148
成吉思	-11.7148
淮水	-11.715
亡奔	-11.7154
譙周	-11.7155
二千五百	-11.7159
無子國除	-11.716
遯甲	-11.7162
戩	-11.7165
諫大夫	-11.7166
偁	-11.7167
范中行	-11.7167
斜谷	-11.7169
埒	-11.717
屐	-11.7171
鋤	-11.7171
坐事免	-11.7172
瘁	-11.7173
莢	-11.7173
糶	-11.7175
有戰功	-11.7175
開皇初	-11.7175
遣使貢獻	-11.7176
荀躒	-11.7176
泯	-11.7177
燥	-11.7177
黶	-11.7178
迴	-11.7178
僊	-11.7182
坼	-11.7182
有憂色	-11.7182
和士開	-11.7182
菁	-11.7185
不亦難乎	-11.7186
賜爵闗内侯	-11.7189
及楚平	-11.719
孟軻	-11.7191
遂不復	-11.7191
七十五	-11.7193
惶恐	-11.7193
賦斂	-11.7195
江隂	-11.7196
叔孫豹	-11.7198
顧問	-11.72
左長史	-11.7203
肅慎	-11.7207
須句	-11.7209
好色	-11.721
赤烏	-11.721
文㐮	-11.7212
三苗	-11.7213
右手	-11.7215
曹丕	-11.7219
踐土	-11.7221
左手	-11.7226
擢用	-11.7229
宣帝時	-11.7229
淮夷	-11.7238
朝覲	-11.724
糧食	-11.7244
陸機	-11.7244
妖賊	-11.7245
不幸而	-11.7245
王曰善乃	-11.7249
而問焉	-11.7251
佐吏	-11.7252
寳器	-11.7252
淵明	-11.7253
夜夢	-11.7262
宣徳中	-11.7264
殆盡	-11.7266
季連	-11.7266
甚美	-11.7268
曰嘻	-11.7268
北狄	-11.7272
博物	-11.7276
孰能	-11.7277
叔牙	-11.7277
景穆	-11.7285
未見其	-11.729
曹休	-11.729
臨賀	-11.7295
魯連	-11.7299
庶民	-11.7299
龍朔二年改	-11.7302
忠臣也	-11.7303
河曲	-11.7305
嵗星	-11.7305
所著有	-11.731
百餘級	-11.7316
綘	-11.7316
鼂	-11.7317
圎	-11.7318
翰林侍讀學士	-11.732
鎮東將軍	-11.732
祺	-11.732
攄	-11.7321
迦	-11.7321
琅琊	-11.7321
湎	-11.7321
暁	-11.7321
宇文述	-11.7322
癘	-11.7322
勾踐	-11.7322
歷	-11.7322
褚淵	-11.7323
繳	-11.7324
何面目	-11.7324
㐮公	-11.7325
佟	-11.7325
碣石	-11.7325
鎔	-11.7325
襦	-11.7325
睹	-11.7326
舒嚕	-11.7328
狠	-11.7328
宸濠	-11.7328
䙝	-11.7329
志氣	-11.7329
袪	-11.7329
畵	-11.7331
沽	-11.7331
買臣	-11.7331
忠誠	-11.7332
眚	-11.7332
怫	-11.7332
壑	-11.7332
门	-11.7333
五十六	-11.7333
躋	-11.7333
延禧	-11.7334
沴	-11.7335
臆	-11.7338
淇	-11.7338
齮	-11.7338
票	-11.7338
圖䜟	-11.7344
漁者	-11.7345
敎授	-11.7345
齊威王	-11.7345
右扶風	-11.7347
御座	-11.7347
寛仁	-11.7348
踰月	-11.735
朞年	-11.7351
削籍	-11.7351
十一里	-11.7357
汲郡	-11.7362
動静	-11.7366
極論	-11.7372
臺省	-11.7378
吕梁	-11.7379
公卿議	-11.7383
夀夢	-11.739
無狀	-11.7396
仁壽	-11.7397
北中郎將	-11.7402
不悅	-11.7403
感動	-11.7408
暴風	-11.7408
未知所	-11.7408
建文中	-11.7408
十五萬	-11.7412
京官	-11.7418
鄧太后	-11.7419
六百里	-11.743
百餘日	-11.7434
斿	-11.7437
僑如	-11.744
嫡子	-11.7441
湖州	-11.7444
七百里	-11.7445
四百里	-11.7451
吕后	-11.7452
紺	-11.7455
十有三	-11.7456
癸夘	-11.7456
憲章	-11.7456
臾	-11.746
靺鞨	-11.7462
韙	-11.7462
懐逺	-11.7463
鈍	-11.7464
諡曰宣	-11.7465
專政	-11.7467
詔許之	-11.7467
緱氏	-11.7468
樓緩	-11.7468
出其不意	-11.7469
軍留後	-11.747
㮚	-11.7473
坂	-11.7473
臧否	-11.7473
沐浴	-11.7473
樗里子	-11.7474
兢	-11.7476
曇首	-11.7476
䰟	-11.7477
薰	-11.7477
稟	-11.7477
未遑	-11.7477
稿	-11.7478
一星在	-11.7478
竇融	-11.7478
餼	-11.7478
日月星辰	-11.7479
執其手	-11.748
阻兵	-11.748
跌	-11.748
猿	-11.7481
耿弇	-11.7481
鏜	-11.7482
圜丘	-11.7482
殿中尚書	-11.7482
浮橋	-11.7482
旦暮	-11.7482
妻張氏	-11.7484
狀如	-11.7484
肺	-11.7489
解職	-11.7492
枝葉	-11.7492
冒頓	-11.7493
郷里	-11.7495
曰何故	-11.7496
有文才	-11.7497
被圍	-11.7497
柟	-11.7498
一舉而	-11.7499
右衛將軍	-11.75
千斤	-11.7502
暴露	-11.7503
曰何謂也	-11.7503
揚州牧	-11.7504
未决	-11.7505
超宗	-11.7506
田成子	-11.7506
辯士	-11.7507
何以知之	-11.7508
伯禹	-11.7509
聞之大怒	-11.751
寡言	-11.7514
廵行	-11.7516
自矜	-11.7517
不堪命	-11.7519
樂器	-11.752
邠州	-11.7522
閼氏	-11.7527
天下大亂	-11.753
邵陵	-11.7536
博渉	-11.7537
太微	-11.7541
變易	-11.7542
建元元年	-11.7547
上書請	-11.7557
有言曰	-11.7558
象形	-11.7564
太學生	-11.7566
吾先君	-11.7567
宗憲	-11.7567
不可得而	-11.7567
乞休	-11.7569
府司馬	-11.7571
連和	-11.7572
大雪	-11.7572
固諫	-11.7574
忽然	-11.7576
新豐	-11.7576
咸稱	-11.7578
周文王	-11.758
配食	-11.7582
風角	-11.7582
攻䧟	-11.7587
趙襄子	-11.7594
來援	-11.7596
厚賂	-11.7601
渡淮	-11.7602
四十四	-11.7603
不能對	-11.7604
公主拜駙馬都尉	-11.7606
鋹	-11.7611
舜禹	-11.7611
五穀	-11.7613
柘	-11.7614
派	-11.7615
諌議大夫	-11.7615
孝悌力田	-11.7615
徐羡之	-11.7616
鉗	-11.7617
逓	-11.7619
右将軍	-11.7619
百斤	-11.7619
穰苴	-11.762
稹	-11.762
輿服	-11.7621
俚	-11.7621
釘	-11.7621
岌	-11.7621
以父任為	-11.7622
簮	-11.7622
堙	-11.7623
刑部侍郎	-11.7623
荀彧	-11.7625
講論	-11.7625
芉	-11.7625
煎	-11.7626
集賢校理	-11.7626
盃	-11.7626
架	-11.7627
容貎	-11.7628
葉向髙	-11.7628
旰	-11.7629
鄠	-11.763
六十卷	-11.7631
蒯聵	-11.7633
脣	-11.7634
伯夷叔齊	-11.7634
囉	-11.7634
易簡	-11.7635
管夷吾	-11.7636
孔安國	-11.7637
魏舒	-11.7641
華容	-11.7643
衆潰	-11.7645
孟昶	-11.7647
定策	-11.7647
伊洛	-11.7647
仲雍	-11.7648
光祿	-11.7651
季孫宿	-11.7652
齋戒	-11.7653
十四里	-11.7657
建武元年	-11.766
逆旅	-11.766
發揮	-11.7663
親友	-11.7663
文姜	-11.7665
今大王	-11.7665
百歩	-11.7668
豎子	-11.7669
引咎	-11.7671
元义	-11.7673
餘慶	-11.7674
林鍾	-11.7676
傅亮	-11.7679
躬親	-11.7682
安撫使	-11.7683
曰何不	-11.7685
急攻	-11.7686
西鄙	-11.7686
遇赦	-11.7689
貢士	-11.7691
命有司	-11.7693
八十四	-11.7694
薨時年	-11.7694
周宣王	-11.7696
戒嚴	-11.7698
神器	-11.7699
七十三	-11.77
無益於	-11.7707
示天下	-11.7713
建武初	-11.7715
光殿	-11.7725
兩端	-11.7728
永寕	-11.7732
幰	-11.7732
松江	-11.7732
孟春	-11.7739
星辰	-11.7742
放縱	-11.7743
畢萬	-11.7744
歎曰吾	-11.7748
上疏陳	-11.7748
魯肅	-11.775
北鄙	-11.7753
于太廟	-11.7756
幷	-11.7758
夬	-11.7758
河間王顒	-11.7767
盛衰	-11.7768
鑊	-11.777
欝	-11.777
南蠻	-11.7771
頊	-11.7772
煬帝即位	-11.7774
征南將軍	-11.7774
略陽	-11.7774
鄔	-11.7776
薛安都	-11.7776
衫	-11.7776
聀	-11.7776
鎮北將軍	-11.7777
費禕	-11.7777
崔暹	-11.7777
抉	-11.7777
毐	-11.7777
兊	-11.7777
非禮也	-11.7778
衂	-11.7778
顚	-11.7779
窃	-11.778
㕘	-11.778
殪	-11.778
蘧	-11.7782
巫蠱	-11.7783
鄞縣	-11.7784
恩寵	-11.7784
仕進	-11.7784
悰	-11.7784
祕閣	-11.7785
都察院	-11.7785
蒞	-11.7786
亰師	-11.7786
壌	-11.7787
箋	-11.7787
淮陽王	-11.7788
汁	-11.7789
弓弩	-11.779
飴	-11.7791
摰	-11.7791
知之乎	-11.7793
四十三	-11.7793
刺史二千石	-11.7794
樓煩	-11.7794
光禄卿	-11.7795
悲泣	-11.7797
鞌	-11.7798
突騎	-11.7803
韓子外	-11.7806
荀偃	-11.7806
攝政	-11.7806
代立是為	-11.7809
熹平	-11.7809
强秦	-11.7809
以功遷	-11.7813
宗廟社稷	-11.7817
振武	-11.782
壽陽	-11.7823
光照	-11.7825
不可勝數	-11.7829
歌之曰	-11.7833
輔弼	-11.7836
清約	-11.7837
聲援	-11.7838
僧達	-11.7839
因循	-11.784
魏太武	-11.7841
歳餘	-11.7844
御覽	-11.7846
加之以	-11.7848
引軍還	-11.7853
管子曰	-11.7864
二旬	-11.7871
削爵	-11.7876
王敬則	-11.7877
盆子	-11.7881
士鞅	-11.7883
悲夫	-11.7886
廬山	-11.7888
彭越	-11.7897
字希	-11.79
享太廟	-11.79
死獄中	-11.7902
吉射	-11.7907
豈容	-11.7907
朓	-11.791
姓纂	-11.791
四十八年	-11.7913
文公文公	-11.7915
泗州	-11.7916
文筆	-11.7922
鎗	-11.7923
鑰	-11.7924
氛	-11.7925
馨	-11.7925
穣侯	-11.7925
安東將軍	-11.7926
斆	-11.7926
曰大丈夫	-11.7926
姚泓	-11.793
羊祜	-11.793
􁉒	-11.793
窋	-11.7931
竟陵王子良	-11.7931
廽	-11.7932
姐	-11.7933
弘光𥘉追贈	-11.7933
琪	-11.7933
舫	-11.7933
拷	-11.7934
心膂	-11.7935
挂	-11.7935
王公以下	-11.7935
曇朗	-11.7935
櫓	-11.7935
犧牲	-11.7935
姊妹	-11.7935
挿	-11.7936
惶懼	-11.7936
救火	-11.7937
腋	-11.7937
騶忌	-11.7937
仕梁	-11.7939
娣	-11.794
犫	-11.7941
啜	-11.7941
宂	-11.7942
竅	-11.7942
欤	-11.7943
季孫意如	-11.7944
社禝	-11.7944
路明改府	-11.7944
捽	-11.7945
諡曰簡	-11.7946
滑稽	-11.7946
馳驛	-11.7946
舒鳩	-11.7947
摠督	-11.7947
罪惡	-11.7948
校獵	-11.795
夏竦	-11.7952
荀寅	-11.7952
𢎞農太守	-11.7953
由此觀之	-11.7954
兵討之	-11.7956
偏師	-11.7956
俯仰	-11.7963
不聽遂	-11.7967
侯食邑	-11.7968
飛鳥	-11.7973
聶政	-11.7973
求救於	-11.7974
辛苦	-11.7978
卒年八十	-11.7979
中貴人	-11.7979
賢不肖	-11.7983
京東	-11.7985
帛各有差	-11.7986
同母弟	-11.7987
羣蠻	-11.7987
應鐘	-11.7989
十二律	-11.7989
潁州	-11.799
諡法	-11.7993
彦卿	-11.7994
短長	-11.7995
敬仲	-11.7999
清静	-11.8002
来聘	-11.8004
勃然	-11.8015
臣之罪	-11.8016
儒雅	-11.8022
善用兵	-11.8026
牛𢎞	-11.8029
大猷	-11.8042
嘗詣	-11.8043
天監初	-11.8043
領司徒	-11.8046
司㓂	-11.8053
不屈死	-11.8054
旗鼓	-11.8054
三旬	-11.8055
㑹齊侯	-11.8057
納其言	-11.8058
臣妾	-11.8072
魏絳	-11.8078
經緯	-11.8079
姥	-11.808
知樞密院事	-11.808
加元服	-11.8081
不可奪	-11.8083
黎民	-11.8084
貊	-11.8084
營室	-11.8084
員外散騎侍郎	-11.8085
長社	-11.8086
遶	-11.8086
耕籍田	-11.8088
庵	-11.809
聨	-11.8091
煑	-11.8091
苑囿	-11.8091
踏	-11.8092
蜂	-11.8092
鑿齒	-11.8093
慼	-11.8093
聰慧	-11.8093
翺	-11.8093
縉紳	-11.8094
帖木児	-11.8095
賕	-11.8096
鴉	-11.8097
匣	-11.8097
戕	-11.8097
儕	-11.8098
塗炭	-11.8099
蹂	-11.8099
刦	-11.81
長八尺	-11.81
養老	-11.81
舅姑	-11.8101
免為庶人	-11.8101
溱	-11.8101
皇甫謐	-11.8101
嗇夫	-11.8103
機務	-11.8103
赱	-11.8103
統萬	-11.8103
招誘	-11.811
昪	-11.811
明年春	-11.8112
皇后諱	-11.8115
麇	-11.8115
翬	-11.8117
姿容	-11.8117
言於帝曰	-11.8118
七年春正月	-11.8119
旦日	-11.8122
陶謙	-11.8123
詰責	-11.8124
以功拜	-11.8125
俗呼	-11.8131
削奪	-11.8131
隂氣	-11.8132
追謚	-11.8137
越越	-11.8139
廟堂	-11.8141
白虎通	-11.8142
此臣之所	-11.8144
積粟	-11.8145
狐疑	-11.8148
守偹	-11.8148
遼東太守	-11.8153
種類	-11.8156
萬邦	-11.8159
錢帛	-11.8162
恭謹	-11.8163
碑隂	-11.8167
恵帝	-11.817
武藝	-11.8171
從征伐	-11.8172
律吕	-11.8173
上儀同	-11.8174
庭堅	-11.8183
太建	-11.8186
談論	-11.8186
分寸	-11.8192
王欽若	-11.8194
羽儀	-11.8196
孝綽	-11.8205
勸農	-11.8205
三十餘人	-11.8209
三百六十	-11.821
劉湛	-11.8212
三十餘年	-11.8213
伐邾	-11.8217
摠	-11.8219
胡騎	-11.8223
公卿大夫	-11.8229
于晉晉	-11.8234
上疏諫	-11.8235
孝閔帝踐阼	-11.8237
北境	-11.8238
五品以上	-11.8242
繼嗣	-11.8243
家無餘財	-11.8244
賦一卷	-11.8246
潯	-11.8247
全琮	-11.8248
禖	-11.8249
冦準	-11.8249
黿	-11.8251
殳	-11.8253
澠池	-11.8253
東閣	-11.8253
舟楫	-11.8253
悒	-11.8254
頷	-11.8254
垂簾	-11.8255
文信侯	-11.8255
頓首曰	-11.8255
辟公府	-11.8255
薇	-11.8257
璆	-11.8257
蒼生	-11.8257
騖	-11.8257
藩邸	-11.8257
年十一	-11.8258
炅	-11.8258
淯	-11.8259
長幼	-11.8259
顏	-11.8259
汨	-11.8259
遘	-11.8259
璵	-11.826
丼	-11.826
驕奢	-11.8261
䔍	-11.8261
李傕	-11.8262
暾	-11.8266
叔敖	-11.8266
歐陽脩	-11.8268
莫肯	-11.8269
雞鳴	-11.827
乞罷	-11.8271
築壘	-11.8272
宜速	-11.8272
撫慰	-11.8273
以城降	-11.8273
别種	-11.8275
讜言	-11.8277
􁅊	-11.828
韓子内	-11.8285
鉅萬	-11.8288
甲乙	-11.8288
嚴整	-11.8291
武帝受禪	-11.8292
冨貴	-11.8293
九寸	-11.8295
可不慎	-11.8295
倉頡	-11.8304
避席	-11.8305
尤精	-11.8313
八年春正月	-11.8313
關西	-11.8313
典農	-11.8316
災害	-11.8317
射姑	-11.8318
竭力	-11.8318
雍邱	-11.8319
浮華	-11.8322
大疫	-11.8322
伐我我	-11.8327
發憤	-11.8329
神龜	-11.8335
無愧	-11.8341
者數百人	-11.8347
首虜	-11.835
奔赴	-11.8354
傳檄	-11.8355
分為二	-11.8359
十餘丈	-11.8367
湘東	-11.8387
升降	-11.8391
刎	-11.8392
十有七	-11.8392
聞之怒	-11.8395
師旅	-11.8395
秦孝公	-11.8397
摛	-11.8399
己夘	-11.84
不能自存者	-11.8402
鄄	-11.8403
呈秀	-11.8404
孝武西遷	-11.8405
㪚騎常侍	-11.8406
諸葛瑾	-11.8406
徐孝嗣	-11.8406
蝦	-11.8407
寶夤	-11.8408
直閤將軍	-11.8408
蜺	-11.8409
廣陽王	-11.841
端明殿學士	-11.841
衿	-11.841
番禺	-11.8411
郞	-11.8413
蹋	-11.8413
様	-11.8414
聮	-11.8415
冠軍将軍	-11.8415
安釐王	-11.8415
掎	-11.8415
秭歸	-11.8415
訕	-11.8415
置百官	-11.8416
蠅	-11.8419
濰	-11.8419
藺相如	-11.8419
寺碑	-11.8419
毉	-11.8419
溝壑	-11.8419
賽	-11.842
倉廪	-11.842
郾	-11.842
嫪毐	-11.842
庫狄	-11.8421
賃	-11.8421
呪	-11.8421
獨孤信	-11.8421
筦	-11.8421
鹹	-11.8422
曳	-11.8423
漲	-11.8424
敺	-11.8424
涇陽君	-11.8425
西陽王	-11.8425
嫚	-11.8426
嗾	-11.8426
州安置	-11.8426
鐔	-11.8426
䂓	-11.8428
舉賢良	-11.8429
五丈	-11.843
菩薩	-11.843
雇	-11.8432
蔿	-11.8433
漕運	-11.8434
陽處父	-11.8434
圯	-11.8435
峰	-11.8435
稷契	-11.8436
太常丞	-11.8436
竇武	-11.8437
嚚	-11.8438
昆陽	-11.8438
與同郡	-11.844
武靈王	-11.8441
畜牧	-11.8442
自縊死	-11.8444
督責	-11.8446
廢黜	-11.845
設壇	-11.845
郷薦	-11.845
陷陣	-11.8451
顔回	-11.8451
江夏太守	-11.8453
孤寡	-11.8454
能否	-11.8459
夾攻	-11.846
齊受禪	-11.8466
剛直	-11.8466
豪彊	-11.8469
應募	-11.8473
祁山	-11.8477
東宮	-11.8477
衞大將軍	-11.8479
積聚	-11.8481
戰破之	-11.8483
碩徳	-11.8485
吏二千石	-11.8485
果毅	-11.8486
浮圖	-11.8492
易牙	-11.8493
汝才	-11.8497
聖躬	-11.8499
子晳	-11.8499
萬暦中	-11.8501
率諸軍	-11.8504
陽亭侯	-11.8509
招納	-11.8513
四十六年	-11.8513
與之盟	-11.8516
竟不能	-11.8521
乎孔子曰	-11.853
惑衆	-11.8533
淂罪	-11.8534
謂羣臣曰	-11.8538
公孫龍	-11.8549
大眼	-11.8557
靖難	-11.8561
七十六	-11.8564
唯陛下	-11.8565
数日	-11.857
譟	-11.857
便弓馬	-11.8573
祓	-11.8574
喚	-11.8574
栩	-11.8576
滕薛杞小邾	-11.8577
悠	-11.8578
沌	-11.8578
貰	-11.8579
郗鑒	-11.858
雁	-11.858
擠	-11.858
慕容暐	-11.8581
㦯	-11.8581
莬	-11.8581
郫	-11.8582
垂拱	-11.8582
䕶衛	-11.8583
齕	-11.8583
夏侯淵	-11.8584
沃野	-11.8584
𢋫	-11.8585
湧	-11.8585
仄	-11.8585
拱手	-11.8589
磧	-11.8589
都督同知	-11.8591
犇	-11.8591
尫	-11.8591
夜襲	-11.8591
都虞候	-11.8592
豆盧	-11.8593
王崩子	-11.8594
武王伐紂	-11.8594
頴川	-11.8594
安南將軍	-11.8594
青溪	-11.8595
湾	-11.8596
鬪	-11.8597
千餘騎	-11.86
率所部	-11.86
部大人	-11.8602
絲竹	-11.8604
宫闈	-11.8606
波斯	-11.8606
良霄	-11.8608
諡曰康	-11.8609
司州牧	-11.8612
防風	-11.8618
訓導	-11.8627
公曰諾	-11.8633
晨夜	-11.8634
遣其将	-11.8636
三百石	-11.8648
裴度	-11.865
有流星	-11.8651
幽并	-11.8654
賜絹	-11.8657
供奉	-11.8659
南康王	-11.8664
異端	-11.8665
為之備	-11.8667
太上皇帝	-11.8669
茂才	-11.867
甲仗	-11.8678
大不敬	-11.8693
億萬	-11.8703
輔佐	-11.8703
滁州	-11.871
右光禄大夫	-11.8714
持久	-11.8722
興師伐	-11.8722
詣京師	-11.8722
下令曰	-11.8725
寰宇	-11.8726
震懼	-11.8734
化大行	-11.8738
祥符	-11.8738
濩	-11.8741
率所領	-11.8742
車駕至自	-11.8744
觀文殿學士	-11.8744
之樞謹按	-11.8745
峡	-11.8746
驃騎大将軍	-11.8747
轢	-11.8747
擣	-11.8748
貨賄	-11.8748
孜孜	-11.8748
錬	-11.8752
穫	-11.8752
三郤	-11.8752
知永興軍	-11.8752
菲	-11.8753
鄩	-11.8754
嘔血	-11.8754
震恐	-11.8754
道不拾遺	-11.8755
田子方	-11.8755
遙光	-11.8755
膏腴	-11.8756
沓	-11.8756
延陵季子	-11.8757
傒	-11.8758
撃破之	-11.8758
邯郸	-11.8758
燬	-11.8759
宋蘇轍撰	-11.8759
精銳	-11.8759
龍圖閣學士	-11.876
嵐	-11.8761
頵	-11.8761
鬢	-11.8761
沫	-11.8762
二百五十	-11.8762
湮	-11.8762
畜産	-11.8763
馳騁	-11.8763
仇讎	-11.8763
下廷尉	-11.8763
茫	-11.8764
鳳凰	-11.8764
族兄	-11.8766
爼	-11.8766
曹利用	-11.877
証	-11.877
周文育	-11.8773
為天下笑	-11.8774
談笑	-11.8775
玉璽	-11.8781
占候	-11.8782
累擢至	-11.8782
考績	-11.8788
廢帝即位	-11.8789
西南夷	-11.8794
以疾辭	-11.8795
潘美	-11.8796
屏風	-11.8797
夫槩	-11.88
發䘮	-11.8803
林鐘	-11.8807
檢討	-11.8809
寡人寡人	-11.8809
太湖	-11.8811
其渠帥	-11.8814
問其故對曰	-11.8821
東陽太守	-11.8828
平章事	-11.883
記十卷	-11.8831
詐稱	-11.8831
即位是為	-11.8838
六畜	-11.8841
奔散	-11.8847
千户所	-11.8849
關内侯	-11.8856
司寇	-11.8861
十萬之衆	-11.887
皆伏誅	-11.8872
圖籍	-11.8877
弢	-11.8889
侍宴	-11.8892
㡬何	-11.8893
獲全	-11.8898
郡功曹	-11.8901
鳴鼓	-11.8905
濡須	-11.8911
周世宗	-11.8913
羽葆鼓吹	-11.8914
洛邑	-11.8916
漢王諒	-11.8917
賢愚	-11.8917
威振	-11.8918
矧	-11.892
逯	-11.8921
弈	-11.8921
翥	-11.8921
阿那肱	-11.8921
賵	-11.8921
不知何許人	-11.8922
彭城王義康	-11.8922
考烈王	-11.8923
顙	-11.8923
楮	-11.8923
九域志	-11.8923
㺯	-11.8923
娱	-11.8924
灘	-11.8924
穆叔	-11.8925
欽定重訂契丹國志卷	-11.8925
另	-11.8925
貿	-11.8926
逍遥	-11.8926
煇	-11.8927
槀	-11.8927
醴泉	-11.8927
腫	-11.8927
殷勤	-11.8928
櫛	-11.893
百有餘	-11.8931
羨	-11.8932
諠	-11.8932
僂	-11.8932
衰絰	-11.8932
縢	-11.8932
魯仲連	-11.8934
帙	-11.8935
幟	-11.8935
徽宗即位	-11.8935
仭	-11.8935
菟	-11.8935
㐲	-11.8935
不亦宜乎	-11.8936
諦	-11.8937
迺	-11.8937
謂秦王曰	-11.8938
灵	-11.8939
于齊齊	-11.894
夐	-11.8942
千百	-11.8943
李彪	-11.8945
㫤	-11.8946
天監元年	-11.8947
白公勝	-11.8948
洗馬	-11.8951
以萬數	-11.8951
河中府	-11.8952
公子糾	-11.8952
車駕幸	-11.8953
教坊	-11.8955
任昉	-11.8958
别有傳	-11.8959
程嬰	-11.896
為謀主	-11.8961
彭澤	-11.8961
郡國志	-11.8962
千餘户	-11.8963
父子兄弟	-11.8964
編脩	-11.8966
臣僚	-11.8967
海濵	-11.8977
青冀	-11.8979
不遑	-11.898
輕財	-11.8988
修國史	-11.8992
欽定重訂大金國志卷	-11.8994
甚惡之	-11.8994
五嶽	-11.9023
氣候	-11.9028
廷尉卿	-11.9033
八品	-11.9034
高第	-11.9034
招致	-11.9039
虞仲	-11.904
驪山	-11.9048
畏憚	-11.9049
流俗	-11.9065
封都亭侯	-11.9084
公子申	-11.9086
潼	-11.9087
偼	-11.9089
搴	-11.909
猺	-11.9092
甑	-11.9093
號慟	-11.9094
卲	-11.9094
鷺	-11.9096
碣	-11.9096
鉛	-11.9096
憺	-11.9097
龍驤将軍	-11.9097
爐	-11.9097
氾	-11.9097
緋	-11.9097
鞶	-11.9099
中書博士	-11.9099
嶮	-11.9099
伐紂	-11.91
报	-11.91
刘	-11.91
瞞	-11.9101
陴	-11.9102
㳂	-11.9102
大長秋	-11.9103
垂涕	-11.9103
懸瓠	-11.9103
槨	-11.9104
泮	-11.9105
縞	-11.9105
怛	-11.9105
知諫院	-11.9106
颯	-11.9106
㐫	-11.9106
漬	-11.9107
遒	-11.9108
泠	-11.9109
哲宗即位	-11.911
飱	-11.911
感激	-11.911
蚪	-11.9112
鼐	-11.9112
四十餘萬	-11.9113
隤	-11.9114
𨼆	-11.9114
郛	-11.9114
莊襄王	-11.9115
蠭	-11.9115
珩	-11.9116
三年春二月	-11.9116
松栢	-11.9117
數十篇	-11.9119
嚻	-11.9121
謫戍	-11.9122
租税	-11.9123
數十騎	-11.9124
俘斬	-11.9126
鄄城	-11.9126
有虞氏	-11.9129
諫諍	-11.9129
定律令	-11.9129
案范書闕	-11.9131
所憚	-11.9133
左衞將軍	-11.9134
姑孰	-11.9138
侵掠	-11.9138
聲如雷	-11.9139
仁宗即位	-11.9143
宫掖	-11.9144
斌卿	-11.9145
摠兵	-11.9145
露布	-11.9148
句容	-11.9155
年十九	-11.9156
府參軍	-11.9157
彭寵	-11.9159
芝龍	-11.9161
杜衍	-11.9165
弗聼	-11.9167
子也母曰	-11.9168
焚燒	-11.9169
希烈	-11.9169
南豫州刺史	-11.917
宣帝即位	-11.918
田疇	-11.9186
趙穿	-11.9196
髙陽氏	-11.9201
霸王之	-11.9201
金幣	-11.9215
董賢	-11.9217
渉經史	-11.9224
僉書	-11.9226
以功進	-11.924
儀一卷	-11.9244
楚令尹	-11.9245
六壬	-11.9263
偓	-11.9267
郴	-11.9269
傳首京師	-11.9274
晉魯齊宋	-11.9275
綠	-11.9276
翟璜	-11.9276
滬	-11.9277
水溢	-11.9279
扉	-11.9279
征虜将軍	-11.9279
𤨏	-11.9279
以母老	-11.928
鰌	-11.928
鸚	-11.928
涿鹿	-11.9281
天下幸甚	-11.9282
丁零	-11.9282
劑	-11.9282
缶	-11.9283
嗤	-11.9283
馹	-11.9283
征西将軍	-11.9284
騾	-11.9284
鈐	-11.9285
貪殘	-11.9286
昩	-11.9286
卆	-11.9286
右諭徳	-11.9286
浹	-11.9288
桎梏	-11.9289
蕚	-11.929
釋褐	-11.9291
董仲舒	-11.9291
筐	-11.9293
茨	-11.9293
朱鮪	-11.9297
太戊	-11.9297
觚	-11.9297
墓誌	-11.93
匏	-11.9301
羣盜	-11.9301
語人曰	-11.9303
冠冕	-11.9305
圓丘	-11.9313
援琴	-11.9313
耕種	-11.9314
城隍	-11.9319
韓宣子	-11.9319
應劭	-11.9322
呂后	-11.9326
雷雨	-11.933
傳於世	-11.9331
貧窮	-11.9331
髙辛氏	-11.9332
車裂	-11.9333
劉隗	-11.9335
薨無子	-11.9337
薨諡	-11.9347
歌詩	-11.935
陪臣	-11.9351
弋陽	-11.9352
世紀云	-11.9353
六十萬	-11.9355
五千餘人	-11.9359
嫁女	-11.9364
游吉	-11.939
滎	-11.9399
遑	-11.9402
務農	-11.9404
甚嘉之	-11.9416
行臺尚書	-11.9422
三百五十	-11.943
公子雍	-11.9435
未央	-11.9436
鄯	-11.9439
鼔吹	-11.945
崙	-11.9451
鄂勒歡	-11.9451
俳	-11.9451
因家焉	-11.9452
杜弢	-11.9455
艸	-11.9455
倕	-11.9455
安北將軍	-11.9456
鵞	-11.9456
塡	-11.9456
詮	-11.9456
縋	-11.9457
褰	-11.9457
艶	-11.9458
有政績	-11.9458
蕭道成	-11.9458
姨	-11.9458
刹	-11.9459
太白晝見	-11.946
解褐	-11.9461
事無大小	-11.9461
豢	-11.9461
殷景仁	-11.9462
泫	-11.9462
芟	-11.9463
婿	-11.9464
銅印	-11.9464
孳	-11.9465
枷	-11.9465
怵	-11.9465
鄭許曹	-11.9466
彞	-11.9468
蹟	-11.9468
騶虞	-11.9469
鏃	-11.9469
彭蠡	-11.947
為郡吏	-11.947
康成注	-11.947
荆棘	-11.9472
禹偁	-11.9473
珮	-11.9473
濊	-11.9473
浄	-11.9473
惮	-11.9474
栗腹	-11.9474
冺	-11.9474
閩越	-11.9474
鼈	-11.9475
珙	-11.9476
筴	-11.9477
涖盟	-11.9478
匕首	-11.9479
騰蛟	-11.9481
武威太守	-11.9484
世本云	-11.9484
以功授	-11.9485
驍果	-11.9487
子太叔	-11.9487
延岑	-11.9489
承旨	-11.9489
俘獲	-11.9489
大月氏	-11.9492
二千餘里	-11.9492
家僮	-11.9493
女壻	-11.9501
七曜	-11.9502
商鞅	-11.9503
輿駕	-11.9503
清靜	-11.9507
周廸	-11.9509
寢廟	-11.9517
大宗伯	-11.952
秦本紀	-11.9521
萬四千	-11.9524
丑父	-11.9525
左都御史	-11.9526
艾陵	-11.9528
元顥	-11.9532
帝初即位	-11.9532
優游	-11.9533
知杭州	-11.9536
苗裔	-11.954
輔導	-11.954
躬耕	-11.9546
公及諸侯	-11.9552
十丈	-11.9567
持節都督	-11.9576
肖	-11.9582
州軍事	-11.9594
辰星	-11.9599
介幘	-11.9626
提婆	-11.9635
太極前殿	-11.9636
棒	-11.9638
鑕	-11.9639
悠悠	-11.9639
盻	-11.964
蜂起	-11.964
鳶	-11.9642
琅	-11.9643
踣	-11.9644
拱辰	-11.9644
慠	-11.9644
狷	-11.9644
酸棗	-11.9644
壍	-11.9644
彜	-11.9644
逕	-11.9645
納哈出	-11.9647
大理評事	-11.9647
棐	-11.9648
沮渠䝉遜	-11.9648
皁	-11.9648
勢傾	-11.9648
隋煬帝	-11.9649
䁀	-11.9649
暘	-11.965
宇文泰	-11.965
莋	-11.965
刷	-11.965
闌	-11.9651
壙	-11.9651
吊	-11.9654
范曄	-11.9655
如魯聘	-11.9656
璇	-11.9656
副元帥	-11.9656
郟敖	-11.9657
礼部尚書	-11.9658
問之對曰	-11.9659
司馬彪	-11.966
錄尚書	-11.966
净	-11.9661
四星在	-11.9661
最知名	-11.9662
彝	-11.9662
学	-11.9662
淸	-11.9662
侯瑱	-11.9664
􁄂	-11.9665
從父弟	-11.9667
涽王	-11.9669
豪桀	-11.9669
洸	-11.967
告人曰	-11.9674
詣廷尉	-11.9678
被髪	-11.9679
鄧析	-11.9679
張邦昌	-11.9679
玩好	-11.9685
盟誓	-11.9686
虢叔	-11.9687
軍大敗	-11.9689
突圍	-11.969
閭邱	-11.9692
城成周	-11.9695
豫讓	-11.9705
剛毅	-11.9718
皇覽	-11.9728
從其計	-11.9754
阜陵	-11.9761
語之曰	-11.9763
敬憚	-11.9779
者不可勝數	-11.9787
寡婦	-11.9795
瀛州刺史	-11.9802
帖木真	-11.9803
公子棄疾	-11.9808
文明太后	-11.981
十餘嵗	-11.9813
蜡	-11.9818
葭萌	-11.9824
五兵尚書	-11.9826
䆳	-11.9826
賀若弼	-11.9826
畮	-11.9827
茀	-11.9827
見而竒之	-11.9829
襲父爵	-11.9829
宣仁后	-11.9832
迸	-11.9832
謁者僕射	-11.9833
侣	-11.9833
礟	-11.9835
鍇	-11.9836
魚鼈	-11.9836
將作監	-11.9836
鎰	-11.9837
鍊	-11.9837
煽	-11.9838
祅	-11.9838
眄	-11.9838
逈	-11.9839
佾	-11.9839
姦宄	-11.984
方從哲	-11.984
鶉	-11.984
贅	-11.984
窶	-11.9842
汲黯	-11.9843
槐里	-11.9843
掇	-11.9843
鍜	-11.9844
璡	-11.9844
樊噲	-11.9847
拏	-11.9847
掉	-11.9847
豸	-11.9848
長七尺	-11.9848
顆	-11.9848
菌	-11.985
黁	-11.985
晢	-11.9851
釜	-11.9852
固辭不受	-11.9852
邰	-11.9853
葆	-11.9853
互市	-11.9859
㢘頗	-11.9859
瓦解	-11.9865
驚駭	-11.9867
矯㫖	-11.9868
休範	-11.987
湟中	-11.9872
君臣之義	-11.9872
譬猶	-11.9872
蕭幹	-11.9874
達奚	-11.9875
拜郎中	-11.9877
汶山	-11.9882
痛惜	-11.9889
雅頌	-11.9889
永徽	-11.9889
百倍	-11.989
嫌疑	-11.9896
涇陽	-11.9896
臣願陛下	-11.9897
地理志	-11.991
膠西	-11.993
仇讐	-11.9937
記二卷	-11.9946
匡救	-11.9964
馳赴	-11.998
永初元年	-11.9982
曰美哉	-11.9985
帝嘉之	-11.9994
邽	-11.9994
朕躬	-11.9999
畯	-12.0008
淖	-12.0019
録事參軍	-12.002
晦日有蝕之	-12.002
驃騎大将軍開府儀同三司	-12.0021
灸	-12.0022
幽冀	-12.0022
瘦	-12.0022
墩	-12.0022
郳	-12.0023
咲	-12.0023
思話	-12.0024
沍	-12.0025
宇宙	-12.0025
子孫以國為氏	-12.0025
㳫	-12.0026
洺	-12.0027
大將軍梁冀	-12.0027
身長七尺	-12.0027
稽顙	-12.0027
州團練副使	-12.0027
杵	-12.0028
披靡	-12.0028
毳	-12.0028
洫	-12.0028
㒷	-12.0028
繢	-12.0028
庻吉士	-12.0029
妣	-12.003
笠	-12.003
熖	-12.0031
儂	-12.0032
泣涕	-12.0032
轘	-12.0033
倐	-12.0033
懟	-12.0033
鬯	-12.0033
萬餘級	-12.0036
寥	-12.0037
顕	-12.0037
中書門下	-12.0038
螭	-12.0038
跖	-12.0039
羽林監	-12.0039
帑藏	-12.004
墳籍	-12.0043
蘿	-12.0045
珝	-12.0046
東甌	-12.0046
梟首	-12.0049
乙弗	-12.005
渢	-12.0053
个	-12.0053
鹽池	-12.006
千里之外	-12.0061
太蔟	-12.0065
長三尺	-12.0065
子亹	-12.0065
廬舍	-12.0067
被髮	-12.0068
蠲除	-12.0069
枝江	-12.0072
廣陵太守	-12.0073
嶺表	-12.0073
第宅	-12.0074
躍馬	-12.0076
尚書吏部郎	-12.0078
曹邾	-12.0089
十有八	-12.0099
徴舒	-12.0101
司宼	-12.011
諺	-12.0123
妻王氏	-12.0132
之甚也	-12.0153
南北郊	-12.0155
雷霆	-12.0181
諱改	-12.0192
將相大臣年表	-12.0199
運糧	-12.0201
璝	-12.0204
金章紫綬	-12.0206
伐桀	-12.0208
長沙王乂	-12.0208
丁母憂	-12.0215
暖	-12.0216
墅	-12.0216
桶	-12.0217
柤	-12.0217
太府卿	-12.0217
蛾	-12.0217
氓	-12.0218
㑹稽王道子	-12.0219
公孫瓚	-12.0221
蹴	-12.0221
毁瘠	-12.0221
喇	-12.0221
栁元景	-12.0221
嚢	-12.0222
軍諮祭酒	-12.0222
氂	-12.0223
勗	-12.0223
靴	-12.0223
征北將軍	-12.0225
五銖錢	-12.0225
屬國都尉	-12.0226
搢紳	-12.0226
緤	-12.0226
貍	-12.0227
孝㢘	-12.0227
紈	-12.0227
値	-12.0228
甚見親	-12.0228
吕公著	-12.0228
皇妣	-12.0228
殷仲堪	-12.0231
面縛	-12.0231
澍	-12.0232
邘	-12.0232
姓纂云	-12.0232
椒房	-12.0233
京師地震	-12.0234
㑹稽内史	-12.0234
頎	-12.0235
杜佑	-12.0238
宗正卿	-12.0238
染干	-12.0239
奚斤	-12.0239
諸侯伐鄭	-12.0239
列為諸侯	-12.024
閘	-12.024
配饗	-12.0241
數百騎	-12.0243
寗喜	-12.0252
鮑牧	-12.0252
爾朱氏	-12.0255
資産	-12.0256
神宗即位	-12.0256
史記世家	-12.0256
浚儀	-12.0256
義興太守	-12.026
被創	-12.0262
兩浙	-12.0266
荆蠻	-12.0267
陳留太守	-12.027
范不載	-12.0274
星隕	-12.0274
浙東	-12.0275
來歙	-12.0285
所生母	-12.0285
奔潰	-12.0287
逋逃	-12.0289
全活	-12.029
系本	-12.0294
遭母憂	-12.032
溉田	-12.032
巨萬	-12.0328
赧	-12.0345
景公景公	-12.0347
師大敗	-12.0355
何故對曰	-12.0379
鴻臚卿	-12.0381
皇長子	-12.0388
哀慟	-12.0398
門下省	-12.04
忌諱	-12.0404
宋蕭常撰	-12.0411
平東將軍	-12.0412
籕	-12.0414
茵	-12.0414
錄事參軍	-12.0415
補歴代史表卷	-12.0416
右都御史	-12.0416
豢龍	-12.0417
表例説	-12.0417
鮮卑寇	-12.0418
咸陽王禧	-12.0418
羽葆	-12.0418
邙	-12.0419
箸	-12.0419
㗖	-12.0419
埭	-12.0419
孝經論語	-12.0419
犄角	-12.042
悶	-12.042
碏	-12.042
清河王懌	-12.0421
癰	-12.0421
䍐	-12.0421
估	-12.0422
有此姓	-12.0422
崤	-12.0422
槍	-12.0423
嗚咽	-12.0423
硯	-12.0426
檝	-12.0427
摹	-12.0427
緹騎	-12.0428
上疏曰臣聞	-12.0428
琢	-12.0429
徘徊	-12.043
讟	-12.043
祥瑞	-12.0431
庠序	-12.0432
布政司	-12.0432
难	-12.0433
愕然	-12.0433
工匠	-12.0433
公子騑	-12.0433
据	-12.0433
於帝帝	-12.0434
黥布	-12.0434
以他事	-12.0435
醜奴	-12.0436
倉廩	-12.0436
嘆息	-12.0438
耴	-12.0439
四海之内	-12.0439
千五百里	-12.044
貝勒	-12.0441
薑	-12.0441
槁	-12.0442
積官至	-12.0442
衛尉卿	-12.0443
問焉曰	-12.0444
大戴禮	-12.0445
伍胥	-12.0446
臧質	-12.0447
眞宗即位	-12.0447
狐突	-12.0449
蓄積	-12.0451
大理卿	-12.0452
驅馳	-12.0453
卒于家	-12.0455
博物志	-12.0455
弋仲	-12.0455
渠彌	-12.0458
滄海	-12.0458
百五十里	-12.0467
萬餘口	-12.0468
齊伐魯	-12.0473
為上客	-12.048
糧運	-12.0484
巫咸	-12.0487
稱萬嵗	-12.0503
領縣二	-12.0522
十有五	-12.0523
慰諭	-12.0537
公會諸侯	-12.0541
繫囚	-12.0548
冉閔	-12.055
孔子聞之曰	-12.0588
火焚	-12.0593
弔祭	-12.0602
賀拔岳	-12.0611
到彦之	-12.0616
桂陽王休範	-12.0617
豬	-12.0618
張衡云	-12.0618
逢吉	-12.062
怱	-12.062
欽定四庫全書補歴代史表卷	-12.0621
碌	-12.0621
緜竹	-12.0621
琚	-12.0622
舡	-12.0623
悽	-12.0623
妘	-12.0623
摽	-12.0624
楙	-12.0624
樗里疾	-12.0626
十有四	-12.0626
威烈王	-12.0627
詿誤	-12.0628
糗	-12.0628
以老病	-12.0628
掌書記	-12.0629
楊元感	-12.0629
賾	-12.063
蒜	-12.0631
釀	-12.0631
龍圖閣待制	-12.0631
逃竄	-12.0632
甘粛	-12.0632
戊巳校尉	-12.0632
燁	-12.0632
武王克商	-12.0632
躭	-12.0633
凛	-12.0633
𨗳	-12.0633
聪	-12.0633
珏	-12.0633
熏	-12.0634
刅	-12.0635
賈昌朝	-12.0635
季平子	-12.0636
妻陳氏	-12.0636
劬	-12.0636
翮	-12.0636
畚	-12.0637
罟	-12.0638
廷麟	-12.0639
躓	-12.0639
指麾	-12.0639
動揺	-12.0639
龍驤	-12.064
濙	-12.064
岱宗	-12.0642
鴟夷	-12.0643
侈靡	-12.0643
幻	-12.0644
現	-12.0644
延頸	-12.0645
姑熟	-12.0645
不可不察	-12.0645
其亡乎	-12.0645
處耘	-12.0646
僧祐	-12.0646
一無所受	-12.0647
拂衣	-12.0649
飢寒	-12.065
僧綽	-12.065
夾鐘	-12.0651
萬餘騎	-12.0651
郭黙	-12.0652
華歆	-12.0652
將下軍	-12.0653
熊羆	-12.0654
籍其家	-12.0656
馬牛羊	-12.0661
由是觀之	-12.0664
古人有言	-12.0682
錫爵	-12.0686
太子舎人	-12.0703
荆湖	-12.0712
司農卿	-12.0733
誦詩	-12.0752
酣飲	-12.0776
十有六	-12.0802
四年春二月	-12.0803
英賢傳	-12.0811
輜	-12.0814
髙貴鄉公	-12.0817
灊	-12.082
筏	-12.0824
蕤	-12.0826
建威将軍	-12.0827
澣	-12.0827
進位柱國	-12.0827
彭城王勰	-12.0828
蓽	-12.0828
貿易	-12.0829
姿貌	-12.0829
栅	-12.083
漣	-12.0831
拆	-12.0832
樞密	-12.0834
玦	-12.0835
吕大防	-12.0835
讖	-12.0835
港	-12.0835
治書侍御史	-12.0835
煒	-12.0836
提㸃刑獄	-12.0836
徔	-12.0836
歸田里	-12.0836
宣陽門	-12.0836
綢繆	-12.0836
鱄	-12.0836
禼	-12.0836
歜	-12.0837
韞	-12.0837
靑	-12.0837
訂	-12.0838
舁	-12.0838
胤	-12.0838
夙沙	-12.0839
擐甲	-12.084
荀朂	-12.0841
芸	-12.0841
拭	-12.0841
覌	-12.0841
黽	-12.0843
惴	-12.0843
慕容恪	-12.0843
毖	-12.0843
祁犂	-12.0843
董安于	-12.0843
哺	-12.0844
元州明降	-12.0846
蟄	-12.0847
自經死	-12.0847
澤潞	-12.085
闻	-12.085
新序卷	-12.085
茷	-12.085
季康子	-12.0851
努力	-12.0851
銓衡	-12.0851
雌雄	-12.0851
琥	-12.0851
受顧命	-12.0852
季桓子	-12.0853
肢	-12.0853
鄒衍	-12.0854
路明改	-12.0855
將上軍	-12.0856
湝	-12.0858
齡石	-12.0859
困乏	-12.0859
寀	-12.086
鉅野	-12.0862
離騷	-12.0862
廣漢太守	-12.0862
舉孝㢘	-12.0863
鹿鳴	-12.0864
霤	-12.0864
惻然	-12.0867
羅什	-12.0867
負薪	-12.0871
齊王憲	-12.0872
終其身	-12.0875
莊二十	-12.0897
曰人生	-12.091
仕宦	-12.0937
鞅鞅	-12.0937
偽諡	-12.0943
匈奴單于	-12.0959
碑頌	-12.0989
絶域	-12.0999
芊	-12.1023
鞞	-12.1035
宇文化及	-12.1035
趙彦深	-12.104
襁褓	-12.104
繖	-12.1041
陳顯達	-12.1041
皇甫嵩	-12.1042
䢵	-12.1043
酪	-12.1043
岩	-12.1043
墨綬	-12.1044
頃零	-12.1045
湓	-12.1045
玷	-12.1045
恂恂	-12.1046
鉦	-12.1046
甦	-12.1046
馬一匹	-12.1046
芥	-12.1046
都水使者	-12.1047
瘴	-12.1047
有惠政	-12.1049
蘇轍	-12.105
徠	-12.1051
㸑	-12.1052
帷帳	-12.1053
遐邇	-12.1053
紲	-12.1053
蒙恬	-12.1054
挕	-12.1054
擴廓	-12.1054
䦨	-12.1054
甬	-12.1054
桴	-12.1054
見而異之	-12.1055
蟹	-12.1055
茸	-12.1055
輻	-12.1056
少孤貧	-12.1056
雍州牧	-12.1057
旴	-12.1057
仲山甫	-12.1058
東平王蒼	-12.1059
僧尼	-12.106
荀罃	-12.106
簋	-12.106
跽	-12.106
毋䘏	-12.1061
螽	-12.1061
元璐	-12.1062
羑里	-12.1062
㸔	-12.1063
櫝	-12.1064
揜	-12.1064
幾瑟	-12.1065
水經注	-12.1065
吕誨	-12.1066
千鈞	-12.1068
凨	-12.1068
皇太妃	-12.1069
跗	-12.1069
手刃	-12.1072
竇泰	-12.1074
鄭譯	-12.1076
恃險	-12.1078
戰國䇿	-12.1079
財産	-12.108
安漢公	-12.1081
集六卷	-12.1081
諸臣列傳	-12.1085
范陽盧	-12.1086
𤣥囂	-12.1086
集五十卷	-12.1087
僖三十	-12.1088
漠北	-12.1091
紹聖初	-12.1093
十有一	-12.112
澶	-12.1139
丞尉	-12.1191
百畆	-12.1219
􁋢	-12.125
臬	-12.1254
璽紱	-12.1256
星孛	-12.1256
暅	-12.1258
叨	-12.1259
墊	-12.126
煚	-12.126
耨	-12.126
節閔帝	-12.126
幔	-12.126
斛斯椿	-12.1261
跛	-12.1261
線	-12.1262
尖	-12.1263
庫莫奚	-12.1263
戴若思	-12.1263
虺	-12.1263
宣徽使	-12.1265
嚙	-12.1265
滸	-12.1266
文燦	-12.1266
迤	-12.1267
肌	-12.1267
𥿄	-12.1267
煉	-12.1267
宜都王	-12.1267
欄	-12.1268
豫章王嶷	-12.1268
儵	-12.1268
控弦	-12.1268
凟	-12.1268
時人為之語曰	-12.1269
不設備	-12.1269
韐	-12.127
沱	-12.127
纊	-12.127
璪	-12.1271
盱眙	-12.1271
喟然嘆曰	-12.1271
緼	-12.1271
拖	-12.1272
籩豆	-12.1272
爇	-12.1272
金百鎰	-12.1274
腥	-12.1274
叠	-12.1275
司馬休之	-12.1275
積薪	-12.1277
震孺	-12.1277
尼堪	-12.1277
鏁	-12.1279
疆場	-12.1279
欒黶	-12.128
八佾	-12.128
虖	-12.1281
竽	-12.1281
曲沃武公	-12.1282
善談論	-12.1284
臺榭	-12.1285
樞機	-12.1286
羊舌肹	-12.1289
左衛将軍	-12.1291
姓苑云	-12.1291
卽位	-12.1292
貨賂	-12.1293
宵遁	-12.1293
甘卓	-12.1298
􁠷	-12.13
瓦刺	-12.1305
加太子太保	-12.1305
姒姓	-12.1331
贈太保	-12.1396
國子學	-12.1404
又東過	-12.1432
軺車	-12.1439
柰	-12.1462
别部司馬	-12.1469
膂	-12.147
戬	-12.1471
听	-12.1476
従事中郎	-12.1476
蕭寳夤	-12.1476
浟	-12.1481
赫連昌	-12.1482
穗	-12.1483
司徒王導	-12.1484
牛渚	-12.1484
瀚	-12.1484
哇	-12.1484
﨑	-12.1484
遨	-12.1485
謂諸將曰	-12.1487
歧	-12.1487
鈕	-12.1488
啻	-12.1488
宣徽南院使	-12.1488
麋鹿	-12.1489
軋	-12.1489
不旋踵	-12.1489
賫	-12.1489
為己任	-12.1489
五經博士	-12.149
幃	-12.149
墠	-12.1491
壠	-12.1491
二十八宿	-12.1491
宝	-12.1492
竑	-12.1492
耘	-12.1492
簞	-12.1493
里領縣一	-12.1494
腆	-12.1495
蘖	-12.1497
繭	-12.1498
崑山	-12.1499
攅	-12.15
今據字面改	-12.1501
鄢郢	-12.1501
古文尚書	-12.1501
賞賚	-12.1501
閎夭	-12.1502
鷄鳴	-12.1502
規矩	-12.1503
徐鉉	-12.1504
魯隠公	-12.1504
至大官	-12.1504
呼韓邪單于	-12.1504
鑽	-12.1505
娼	-12.1505
武陵太守	-12.1506
吕覧	-12.1507
黍稷	-12.1507
禹貢天文不及	-12.1508
雁門	-12.1509
衙門	-12.1515
九年春正月	-12.1519
西曹掾	-12.1535
嗟歎	-12.1559
獻公獻公	-12.1565
黎庶	-12.1576
辟為掾	-12.1582
尭舜	-12.1583
可圖也	-12.1588
嘻	-12.1609
破秦軍	-12.1647
貟外郎	-12.1661
官氏志	-12.167
闋	-12.1696
鄚	-12.1697
玖	-12.17
晉熙王	-12.17
續後漢書卷	-12.1702
毌	-12.1702
欽定四庫全書續後漢書卷	-12.1702
兵部右侍郎	-12.1704
通直郎	-12.1704
猖	-12.1706
漙	-12.1707
乕	-12.1707
郪	-12.1708
琅邪臨沂人	-12.1709
棺槨	-12.1709
硤	-12.1709
晉安王子勛	-12.1709
踴	-12.171
任城王澄	-12.1711
陲	-12.1711
棄城走	-12.1712
䝉驁	-12.1712
秃髪	-12.1713
麈	-12.1713
觔	-12.1714
諒祚	-12.1715
輈	-12.1715
井陘	-12.1715
墀	-12.1715
榦	-12.1716
盧多遜	-12.1716
蟣	-12.1716
慴	-12.1716
棼	-12.1716
閗	-12.1717
葵邱	-12.1717
埃	-12.1717
皇太孫	-12.1718
䜿	-12.1719
集賢院學士	-12.1719
仲虺	-12.172
猫	-12.172
㝡	-12.172
虱	-12.172
酢	-12.1721
贛	-12.1721
銅鞮	-12.1722
囷	-12.1722
鏑	-12.1722
臨海太守	-12.1722
鐘磬	-12.1723
襁	-12.1723
徐廣曰	-12.1724
啄	-12.1725
東方朔	-12.1725
攝提	-12.1726
符璽	-12.1727
護兒	-12.1727
彄	-12.1728
愀	-12.1729
棱	-12.1729
褒姒	-12.173
敗我師于	-12.1732
嘱	-12.1732
囹圄	-12.1733
滁陽	-12.1733
冀州牧	-12.1734
㬰	-12.1737
鶚	-12.1738
緣邊	-12.1738
採訪	-12.1739
孔悝	-12.1741
祁奚	-12.1741
适	-12.1743
瞽叟	-12.1747
苖裔	-12.1749
開府儀同	-12.1754
公孫敖	-12.1755
單穆公	-12.1757
部貟外郎	-12.1774
愛其才	-12.1789
指揮同知	-12.1825
侃侃	-12.1834
為世所	-12.1835
宣撫司	-12.184
讓不受	-12.189
軿	-12.1907
袞	-12.1928
眺	-12.193
赫連勃勃	-12.1937
孱	-12.1938
妃嬪	-12.1938
掣	-12.1938
樞宻副使	-12.1939
緦	-12.194
裾	-12.1941
燝	-12.1942
矍	-12.1942
寧朔將軍	-12.1942
毛文龍	-12.1942
隃	-12.1943
伏波將軍	-12.1945
螺	-12.1945
彈琴	-12.1945
悆	-12.1946
僥	-12.1946
禇淵	-12.1947
疆埸	-12.1947
塜	-12.1947
諝	-12.1947
司馬子如	-12.1948
聚斂	-12.1948
嗣偽位	-12.1948
岫	-12.1948
天雄軍	-12.1949
軟	-12.1949
吃	-12.1949
茍晞	-12.1949
柴桑	-12.195
總百揆	-12.1951
淆	-12.1951
玫	-12.1952
薈	-12.1952
自今以後	-12.1952
枋頭	-12.1953
衣一襲	-12.1954
珊瑚	-12.1954
鎮東大將軍	-12.1954
箧	-12.1955
燃	-12.1955
薩里罕	-12.1955
皦	-12.1955
峪	-12.1956
昃	-12.1956
武王克殷	-12.1956
綈	-12.1958
陶唐氏	-12.1958
亱	-12.1958
少皥	-12.1959
珍玩	-12.1959
攵	-12.196
𬒳逮	-12.196
蘊	-12.1961
奉陽君	-12.1961
儷	-12.1961
嗔	-12.1961
庄	-12.1961
沭	-12.1962
韭	-12.1962
粢盛	-12.1962
涼州牧	-12.1962
焚香	-12.1962
靈公靈公	-12.1963
譔	-12.1963
昌齡	-12.1964
爌	-12.1964
洋洋	-12.1965
有至性	-12.1965
脾	-12.1966
茅茨	-12.1966
孔雀	-12.1966
諄	-12.1966
蛟龍	-12.1969
縉雲	-12.1969
迷惑	-12.1974
偈	-12.1978
揖讓	-12.198
貜	-12.1983
百六十里	-12.2038
滁	-12.2038
其僕曰	-12.204
浩浩	-12.2097
年四十六	-12.2105
宗實録	-12.2145
沙鉢略	-12.2158
淑媛	-12.2163
斁	-12.2171
察孝亷	-12.2172
烱	-12.2174
昞	-12.2175
蔣琬	-12.2176
揚武將軍	-12.2179
螟	-12.2179
文惠太子	-12.2179
荻	-12.2179
宋史本紀	-12.218
知河南府	-12.218
彎弓	-12.2181
磯	-12.2181
滏	-12.2181
牂	-12.2181
瓢	-12.2182
備法駕	-12.2182
瑪	-12.2183
招討使	-12.2183
人也曾祖	-12.2183
案晉書	-12.2183
趙南星	-12.2184
㰱	-12.2184
新垣衍	-12.2184
幅巾	-12.2185
葅	-12.2185
筆札	-12.2185
懣	-12.2186
遹	-12.2186
赦其境内	-12.2188
遼東之役	-12.2188
轉運副使	-12.2189
閧	-12.2189
娑	-12.2189
車騎大将軍	-12.2189
良家子	-12.219
兢兢	-12.219
顔色不變	-12.2191
份	-12.2191
弋獵	-12.2191
鬚眉	-12.2191
水漿不入口	-12.2192
第五倫	-12.2192
獻方物	-12.2193
顛倒	-12.2194
扎	-12.2194
狸	-12.2194
孛羅	-12.2195
曹劌	-12.2196
弥	-12.2196
仁夀宫	-12.2196
咒	-12.2196
劄	-12.2196
焼	-12.2196
峨	-12.2197
郤犫	-12.2198
綉	-12.2199
溲	-12.2199
搤	-12.2199
犖	-12.2199
衽	-12.2202
言于公曰	-12.2205
成公成公	-12.2205
費無極	-12.2206
蹷	-12.2207
伍奢	-12.2208
有重名	-12.2221
旱蝗	-12.2226
十畝	-12.223
令尹子西	-12.2231
年四十七	-12.2234
百斛	-12.2235
赫赫	-12.2241
爵關内侯	-12.2256
右副都御史	-12.2335
占之曰	-12.2336
慬	-12.24
通事舍人	-12.2407
以字為氏	-12.2411
􁀊	-12.2416
㩁	-12.242
征東大將軍	-12.2421
夤	-12.2421
媛	-12.2423
捃	-12.2423
宣徽北院使	-12.2425
丧	-12.2425
提㸃	-12.2425
起居舍人	-12.2425
厦	-12.2426
列在齊史	-12.2427
白虹貫日	-12.2427
洿	-12.2428
翡翠	-12.2428
裴叔業	-12.2428
金印紫綬	-12.2429
狭	-12.2429
開倉振恤	-12.2429
新淦	-12.243
朱齡石	-12.243
呼韓邪	-12.2431
攫	-12.2431
爼豆	-12.2431
觀文殿大學士	-12.2432
唁	-12.2433
漏泄	-12.2433
撫軍大將軍	-12.2434
在相位	-12.2435
袁崇煥	-12.2435
隼	-12.2435
苛刻	-12.2436
慰喻	-12.2436
歊	-12.2436
凑	-12.2436
洶洶	-12.2437
利鹿孤	-12.2437
謀反伏誅	-12.2437
跂	-12.2438
規模	-12.2438
阡陌	-12.2438
讁	-12.2439
蒯瞶	-12.2439
鷹犬	-12.244
䄠	-12.244
都䕶治所	-12.244
抄掠	-12.2442
介子推	-12.2442
以夀終	-12.2443
楊漣	-12.2443
刑部主事	-12.2443
骨都侯	-12.2443
韋昭注	-12.2445
蕢	-12.2445
汔	-12.2447
窳	-12.245
厘	-12.246
喟然歎曰	-12.2466
炮烙	-12.2467
僮僕	-12.2468
有日矣	-12.2482
宋朝登科	-12.2662
司馬消難	-12.2666
睚眦	-12.2668
仙琕	-12.2668
縹	-12.267
默	-12.2671
輼輬車	-12.2672
鄞	-12.2672
長二尺	-12.2672
紡績	-12.2674
陥	-12.2675
從祖弟	-12.2676
昭奚恤	-12.2677
撿	-12.2677
鶉火	-12.2677
嚕	-12.2678
呼吸	-12.2679
鶡	-12.2679
良娣	-12.268
屛	-12.268
刧	-12.268
瀝	-12.2682
隕霜	-12.2682
有饑色	-12.2683
楛	-12.2683
咫尺	-12.2683
茭	-12.2683
隆平集卷	-12.2684
淛	-12.2685
僅以身免	-12.2685
張齊賢	-12.2686
汀	-12.2686
賄賂	-12.2686
沃沮	-12.2686
洪武𥘉	-12.2686
銜枚	-12.2687
縞素	-12.2687
聞而嘉之	-12.2687
纛	-12.2687
侏儒	-12.2687
苕	-12.2688
刮	-12.2688
皥	-12.2688
匐	-12.2688
糟	-12.2688
祈禱	-12.2688
捲	-12.2689
柞	-12.2689
堦	-12.2689
舩	-12.269
雷電	-12.269
彌縫	-12.269
廵按御史	-12.2691
裴頠	-12.2691
人名原作	-12.2692
見謝書	-12.2693
豪俠	-12.2693
咏	-12.2693
靁	-12.2693
淛江	-12.2694
黨錮	-12.2694
剖符	-12.2696
蕙	-12.2698
筩	-12.2699
郭藥師	-12.2699
仲孫蔑	-12.2699
靖郭君	-12.27
驪戎	-12.2701
侁	-12.2702
副縂兵	-12.2703
躒	-12.2704
十年春正月	-12.2705
溧陽	-12.2709
叔孫僑如	-12.2711
鄘	-12.2717
觜	-12.291
以王父字為氏	-12.2911
一卷周易	-12.2915
列在隋史	-12.2919
太子左衛率	-12.2923
鐇	-12.2924
妓妾	-12.2927
荗	-12.2929
潼関	-12.293
罽賔	-12.2931
尺牘	-12.2932
直龍圖閣	-12.2932
飼	-12.2933
灣	-12.2933
遄	-12.2933
屣	-12.2933
掊	-12.2933
騏	-12.2934
灤	-12.2934
賢良方正	-12.2935
龎涓	-12.2936
嶸	-12.2936
棫	-12.2936
莆	-12.2936
燉煌	-12.2937
歉	-12.2937
轝	-12.2937
髙句麗	-12.2937
祝詛	-12.2938
酎	-12.2939
繯	-12.2939
烏虖	-12.2939
太子中允	-12.2939
諒闇	-12.2939
榭	-12.294
訃	-12.294
鱉	-12.294
酇	-12.294
穹	-12.294
苫	-12.294
苻健	-12.2941
憇	-12.2941
鈇鉞	-12.2941
糲	-12.2942
羖	-12.2942
十有餘年	-12.2943
厓	-12.2943
嫌隙	-12.2943
幸其第	-12.2943
不血食	-12.2944
麓川	-12.2944
俟斤	-12.2944
七世孫	-12.2944
脆	-12.2945
娯	-12.2947
釵	-12.2947
漯	-12.2947
黻	-12.2948
搶	-12.2948
鐃	-12.2948
騂	-12.2948
撮	-12.2948
櫃	-12.295
宷	-12.2951
𣢾	-12.2951
穡	-12.2952
縡	-12.3173
馛	-12.3176
萱	-12.3177
鑪	-12.3179
蝨	-12.3181
悁	-12.3184
藜	-12.3193
喋	-12.3193
旐	-12.3194
棋	-12.3194
曙	-12.3194
鄅	-12.3198
墉	-12.3199
啗	-12.3199
冇	-12.32
阸	-12.32
琯	-12.3201
磊	-12.3201
会	-12.3201
菊	-12.3202
縵	-12.3203
蛤	-12.3203
牓	-12.3203
祸	-12.3204
銍	-12.3204
戅	-12.3204
陔	-12.3205
敳	-12.3205
鐫	-12.3208
鎛	-12.321
軺	-12.3211
讋	-12.3212
彷	-12.3212
晊	-12.3212
喝	-12.3216
佻	-12.3217
侄	-12.322
霆	-12.328
犍	-12.3351
珧	-12.3449
紬	-12.3452
眭	-12.3456
礙	-12.3459
蒱	-12.3462
軄	-12.3463
鷂	-12.3464
盩	-12.3464
賭	-12.3465
賖	-12.3466
憕	-12.3466
捫	-12.3468
榷	-12.3468
糠	-12.347
迓	-12.3471
盼	-12.3471
穣	-12.3472
祲	-12.3473
堠	-12.3474
痺	-12.3475
犛	-12.3476
倅	-12.3476
鯨	-12.3476
頺	-12.3477
萼	-12.3478
醪	-12.3478
佼	-12.3479
凾	-12.3479
皿	-12.3479
粧	-12.348
緊	-12.348
濂	-12.3481
炮	-12.3482
堇	-12.3482
蹲	-12.3483
妲	-12.3483
嫄	-12.3484
毀	-12.3484
洹	-12.3485
熒	-12.3486
苓	-12.3488
彚	-12.3488
瑭	-12.3488
𥅆	-12.349
誹	-12.3491
藐	-12.3491
漦	-12.3499
簧	-12.3504
儺	-12.3734
淀	-12.3735
丰	-12.374
筝	-12.374
拿	-12.3741
諏	-12.3742
删	-12.3743
𣪚	-12.3745
氍	-12.3747
窕	-12.3748
僰	-12.3748
罘	-12.3749
獬	-12.375
澠	-12.3752
臚	-12.3752
卉	-12.3752
毬	-12.3753
慾	-12.3753
蠢	-12.3754
糒	-12.3754
嚼	-12.3755
瞳	-12.3755
鶩	-12.3755
栽	-12.3756
迕	-12.3756
闍	-12.3756
鬛	-12.3757
届	-12.3759
迯	-12.3761
糊	-12.3761
惨	-12.3762
醸	-12.3762
傋	-12.3763
麑	-12.3764
旤	-12.3765
鑚	-12.3766
匽	-12.3766
巂	-12.4007
飮	-12.4016
髭	-12.4024
悳	-12.4024
t	-12.4025
籖	-12.4025
勍	-12.4025
<	-12.4026
杓	-12.4027
訏	-12.4028
町	-12.4029
蹊	-12.403
檦	-12.403
戹	-12.403
衎	-12.403
灞	-12.4031
鄾	-12.4033
淝	-12.4034
袐	-12.4035
𡨕	-12.4035
哂	-12.4035
濞	-12.4036
禜	-12.4036
剌	-12.4037
耜	-12.404
筍	-12.404
蚌	-12.4041
睫	-12.4041
戇	-12.4044
㳙	-12.4045
俻	-12.4045
嗷	-12.4046
笈	-12.4047
􁂠	-12.4049
塤	-12.4049
梏	-12.405
狙	-12.4053
嘔	-12.406
鏊	-12.4066
气	-12.4252
賨	-12.431
僦	-12.4316
仚	-12.4319
簀	-12.4319
枵	-12.432
虫	-12.4322
緹	-12.4323
开	-12.4323
麽	-12.4323
麄	-12.4324
禫	-12.4324
嘖	-12.4326
嶇	-12.4326
蚝	-12.4326
橈	-12.4334
惎	-12.4335
无	-12.4337
􁇢	-12.4337
址	-12.4338
陿	-12.434
狁	-12.4342
鸇	-12.4343
巔	-12.4344
麦	-12.4344
珊	-12.4362
豷	-12.4364
鰥	-12.4389
笳	-12.4609
屩	-12.4613
喫	-12.4614
崑	-12.4615
麞	-12.4618
媍	-12.462
鼉	-12.462
眊	-12.4621
濼	-12.4622
怕	-12.4622
驄	-12.4622
帆	-12.4625
嫣	-12.4627
縈	-12.4627
芍	-12.4627
欹	-12.4628
㬌	-12.4628
禿	-12.4628
蚩	-12.4628
崛	-12.4628
廱	-12.4628
鼃	-12.4629
吻	-12.463
孑	-12.463
涘	-12.4632
埓	-12.4632
璹	-12.4633
覡	-12.4633
閥	-12.4633
瞀	-12.4634
芷	-12.4634
傖	-12.4634
筯	-12.4635
􁇧	-12.4635
庳	-12.4636
虡	-12.4636
娃	-12.4636
傴	-12.4637
瘤	-12.4637
衒	-12.4638
裦	-12.464
疚	-12.464
膾	-12.4641
𣆀	-12.4642
緍	-12.4642
茗	-12.4643
矌	-12.4644
獺	-12.4646
瘧	-12.4647
矰	-12.465
萄	-12.4653
泇	-12.4653
俈	-12.4655
揄	-12.466
咱	-12.4922
燦	-12.4922
莎	-12.4928
瑯	-12.4929
紕	-12.493
哽	-12.4931
褾	-12.4932
疢	-12.4935
焜	-12.4937
垍	-12.4938
拽	-12.4939
穽	-12.494
壕	-12.4941
躄	-12.4941
䲭	-12.4942
醖	-12.4942
樅	-12.4942
抹	-12.4943
遫	-12.4943
桷	-12.4943
吮	-12.4944
螫	-12.4944
湔	-12.4945
奩	-12.4946
撙	-12.4946
縲	-12.4947
羇	-12.4948
瞎	-12.4948
酹	-12.4948
鏐	-12.4949
恫	-12.4949
喈	-12.495
塾	-12.4951
崱	-12.4951
瞰	-12.4952
閈	-12.4952
靷	-12.4953
醯	-12.4956
刲	-12.4958
祊	-12.4961
杰	-12.4962
靄	-12.4965
鐙	-12.4978
巗	-12.5238
䟱	-12.5248
郏	-12.5251
辮	-12.5254
棻	-12.5257
𥪡	-12.5259
珎	-12.5262
廿	-12.5264
胆	-12.5264
澡	-12.5266
蓆	-12.5266
簠	-12.5266
䘖	-12.5267
臝	-12.5268
摎	-12.5268
泳	-12.527
簟	-12.527
諉	-12.527
澳	-12.527
柝	-12.5272
䑛	-12.5272
蚊	-12.5273
斮	-12.5273
躝	-12.5273
傀	-12.5273
綖	-12.5273
侫	-12.5273
间	-12.5273
虒	-12.5274
嫠	-12.5275
忩	-12.5275
𩔖	-12.5276
徯	-12.5276
痼	-12.5277
邗	-12.5278
瑨	-12.5278
詒	-12.528
瑰	-12.5282
熨	-12.5284
恧	-12.5289
𤯝	-12.5289
珀	-12.5295
湣	-12.5461
闐	-12.5555
麝	-12.5576
耏	-12.5586
旟	-12.5589
嗚	-12.5591
紼	-12.5593
囑	-12.5593
絕	-12.5594
𤦺	-12.5595
拄	-12.5595
莚	-12.5595
痍	-12.5595
驃	-12.5596
鍚	-12.5598
卨	-12.5598
巍	-12.5598
栒	-12.5599
獷	-12.5599
欷	-12.5599
炯	-12.5599
槌	-12.56
襜	-12.5601
簇	-12.5601
壟	-12.5602
窈	-12.5602
术	-12.5603
蕞	-12.5604
喆	-12.5604
稲	-12.5605
踪	-12.5605
媮	-12.5605
翜	-12.5605
澥	-12.5606
𫐠	-12.5606
獅	-12.5606
閟	-12.5607
甗	-12.5607
憊	-12.5608
诸	-12.5608
崗	-12.5608
鍵	-12.5608
霓	-12.5608
肓	-12.5609
歃	-12.561
餔	-12.5611
皞	-12.5611
箎	-12.5613
焱	-12.5614
頁	-12.5615
叵	-12.5616
芋	-12.5617
卣	-12.562
薙	-12.563
萍	-12.5633
襖	-12.592
囙	-12.5921
囤	-12.5931
僨	-12.5931
瘖	-12.5933
檐	-12.5933
閿	-12.5934
軛	-12.5935
韍	-12.5935
癃	-12.5937
柷	-12.5937
棓	-12.5938
霾	-12.5938
腴	-12.5938
坪	-12.5939
𦕈	-12.594
坻	-12.5941
澁	-12.5941
鵰	-12.5942
踧	-12.5943
偘	-12.5944
膓	-12.5946
饜	-12.5947
捋	-12.5947
溜	-12.5947
肋	-12.5947
鯈	-12.5947
湍	-12.5948
芹	-12.5948
哱	-12.5948
澨	-12.5949
窒	-12.5949
夥	-12.5953
嵊	-12.5954
𬞞	-12.5955
庀	-12.5955
懔	-12.5956
憸	-12.5956
藿	-12.5957
趺	-12.5959
揉	-12.5959
剏	-12.5962
肰	-12.5963
妒	-12.5963
蹌	-12.5968
厪	-12.5972
尨	-12.5973
橚	-12.5974
磾	-12.6253
儛	-12.6281
扯	-12.6287
撼	-12.6289
彡	-12.6289
塚	-12.629
醳	-12.629
蝮	-12.6291
忸	-12.6292
椹	-12.6293
璀	-12.6294
滉	-12.6295
攽	-12.6296
榑	-12.6297
㚟	-12.6298
蓨	-12.63
酔	-12.6301
誾	-12.6303
迁	-12.6304
笮	-12.6304
蔭	-12.6304
靂	-12.6304
騅	-12.6305
蠋	-12.6305
榔	-12.6305
蕕	-12.6306
亜	-12.6306
扑	-12.6306
詗	-12.6306
観	-12.6308
佖	-12.6308
匍	-12.6309
薤	-12.631
垠	-12.6311
矇	-12.6312
癲	-12.6313
鼗	-12.6313
盭	-12.6314
晤	-12.6314
暝	-12.6315
萎	-12.6316
橞	-12.6316
埨	-12.6317
埜	-12.6317
忒	-12.632
瞶	-12.632
墡	-12.632
柸	-12.6337
杠	-12.6647
悺	-12.6647
騩	-12.6648
鷩	-12.6649
翌	-12.6659
双	-12.666
撣	-12.6661
㴶	-12.6664
焯	-12.6664
臍	-12.6667
瀍	-12.6667
噎	-12.6669
厖	-12.6669
喘	-12.6669
緌	-12.667
扺	-12.6671
翽	-12.6671
鈇	-12.6672
痩	-12.6672
猩	-12.6673
眸	-12.6673
噶	-12.6674
搢	-12.6675
貼	-12.6676
抒	-12.6676
晰	-12.6677
儈	-12.6677
恁	-12.6677
薺	-12.6677
嗛	-12.6678
殻	-12.6678
􁱝	-12.6678
痕	-12.6679
鐶	-12.6679
剗	-12.6679
鱣	-12.668
饉	-12.668
噍	-12.6681
晴	-12.6682
昝	-12.6682
芰	-12.6683
棃	-12.6684
贜	-12.6685
仡	-12.6685
佇	-12.6687
喃	-12.6688
銚	-12.6689
鋐	-12.669
檇	-12.6691
㢮	-12.6692
􁂜	-12.6693
菅	-12.6696
画	-12.6698
螘	-12.6703
燠	-12.6705
邶	-12.6719
氈	-12.7037
頍	-12.7037
楧	-12.7038
煨	-12.7041
樟	-12.7043
鄼	-12.7044
絫	-12.7044
嚈	-12.7047
韈	-12.7047
旧	-12.7048
賙	-12.7049
梳	-12.7049
漚	-12.705
佺	-12.705
媳	-12.7051
窆	-12.7053
肈	-12.7055
揔	-12.7056
碓	-12.7056
瀾	-12.7057
剸	-12.7057
透	-12.7057
瑊	-12.7057
綯	-12.7058
鄪	-12.7058
漾	-12.706
佷	-12.706
鸛	-12.706
涵	-12.7061
獮	-12.7061
憮	-12.7061
廾	-12.7061
滴	-12.7062
鄷	-12.7062
揀	-12.7063
襯	-12.7063
儐	-12.7063
桁	-12.7063
棹	-12.7063
礫	-12.7064
莠	-12.7064
攣	-12.7065
猨	-12.7065
噤	-12.7065
艷	-12.7065
嘷	-12.7066
箐	-12.7066
涙	-12.7067
􁅳	-12.7067
权	-12.7068
杅	-12.7068
櫜	-12.7068
鮭	-12.7068
嶢	-12.7069
筒	-12.7069
籲	-12.7069
疥	-12.707
蜩	-12.7072
䦧	-12.7072
貃	-12.7074
甓	-12.7074
娀	-12.7075
榱	-12.7076
咫	-12.7079
苹	-12.708
騮	-12.743
嶲	-12.7435
篾	-12.7437
闟	-12.7439
您	-12.744
琡	-12.7444
侖	-12.7446
蜋	-12.7447
咤	-12.7447
淞	-12.7448
甪	-12.7448
焬	-12.7449
艫	-12.745
甡	-12.745
懃	-12.745
吸	-12.7451
瑑	-12.7451
浡	-12.7452
埤	-12.7453
綟	-12.7454
蝉	-12.7454
翖	-12.7454
掻	-12.7454
內	-12.7454
鮫	-12.7455
尠	-12.7455
㸅	-12.7456
㪍	-12.7456
墯	-12.7456
柚	-12.7456
酗	-12.7456
愞	-12.7457
恰	-12.7457
裭	-12.7457
㮣	-12.7458
扳	-12.7458
鄟	-12.7459
襚	-12.7459
榴	-12.746
潄	-12.746
畛	-12.7461
扄	-12.7461
䢴	-12.7462
鸜	-12.7462
憬	-12.7462
帚	-12.7462
抶	-12.7463
隩	-12.7463
恡	-12.7463
剴	-12.7463
楓	-12.7463
泆	-12.7463
鯢	-12.7464
仿	-12.7466
鍤	-12.7466
䥖	-12.7467
嬌	-12.7467
歘	-12.7468
蕉	-12.747
揑	-12.747
倮	-12.747
閾	-12.7472
譌	-12.7473
蕐	-12.7474
趯	-12.7475
薏	-12.7476
菱	-12.7479
諲	-12.7482
羹	-12.7482
彀	-12.7483
粢	-12.7484
姤	-12.7498
趕	-12.784
敔	-12.7856
紡	-12.7857
伾	-12.7857
庲	-12.7857
簴	-12.7861
宀	-12.7862
䭾	-12.7862
㢸	-12.7863
菰	-12.7864
𣲖	-12.7864
偦	-12.7866
鴞	-12.7866
佔	-12.7867
愜	-12.7868
胊	-12.7868
踦	-12.7869
虙	-12.7869
紋	-12.787
麃	-12.787
㪷	-12.7871
菩	-12.7871
棚	-12.7871
􁒭	-12.7871
嶼	-12.7872
醬	-12.7872
沬	-12.7873
䍧	-12.7873
婪	-12.7874
脰	-12.7876
縚	-12.7876
峩	-12.7876
趫	-12.7877
繄	-12.7877
寿	-12.7877
捄	-12.7877
荏	-12.7878
憝	-12.7878
跼	-12.7879
徨	-12.7879
窖	-12.7879
痿	-12.7879
鵒	-12.7879
纚	-12.788
嶧	-12.788
茄	-12.788
楶	-12.788
睂	-12.7881
嬙	-12.7881
岢	-12.7881
悮	-12.7881
终	-12.7881
阡	-12.7882
暌	-12.7883
㕠	-12.7883
跱	-12.7885
􁔨	-12.7886
軏	-12.7889
魑	-12.7889
鍰	-12.7889
窹	-12.7889
坫	-12.7892
眅	-12.7893
狶	-12.7897
罍	-12.7897
语	-12.79
鳸	-12.8236
溧	-12.824
扛	-12.8276
塌	-12.8288
灝	-12.8294
褫	-12.8295
仝	-12.8296
楩	-12.8296
娉	-12.8297
溼	-12.8298
㕓	-12.83
窄	-12.8301
濃	-12.8301
嵒	-12.8302
臿	-12.8302
袋	-12.8303
蛆	-12.8303
莪	-12.8303
梃	-12.8304
儇	-12.8304
揩	-12.8304
欎	-12.8306
渤	-12.8307
剿	-12.8307
曆	-12.8308
琉	-12.8308
臀	-12.8309
碍	-12.8309
玳	-12.831
歂	-12.831
鷰	-12.8311
睥	-12.8312
俁	-12.8312
牱	-12.8313
抛	-12.8313
莞	-12.8313
魔	-12.8314
㴻	-12.8314
宙	-12.8314
眎	-12.8315
释	-12.8316
辤	-12.8316
傚	-12.8316
滓	-12.8316
塑	-12.8317
𢷬	-12.8318
磚	-12.8318
蜃	-12.8319
蠒	-12.8319
梲	-12.8319
􁐨	-12.832
蓂	-12.832
逭	-12.8321
怳	-12.8321
獫	-12.8322
咋	-12.8322
憗	-12.8322
熸	-12.8322
絙	-12.8322
婣	-12.8322
竢	-12.8322
囏	-12.8325
蹵	-12.8326
漷	-12.8328
爝	-12.8328
楠	-12.8328
烷	-12.8328
藳	-12.8328
蔗	-12.8332
髹	-12.8336
腎	-12.8337
蟆	-12.8736
峝	-12.8736
椀	-12.8739
麕	-12.874
蜴	-12.8742
恇	-12.8745
堊	-12.8746
噴	-12.8749
籛	-12.8749
舳	-12.8749
蝎	-12.875
呻	-12.875
罩	-12.8751
磑	-12.8752
筌	-12.8752
扜	-12.8753
𥚹	-12.8755
鵶	-12.8755
檉	-12.8755
攴	-12.8755
蠕	-12.8755
錞	-12.8756
唃	-12.8756
剃	-12.8757
䆠	-12.8757
爍	-12.8759
嵎	-12.876
餚	-12.876
掬	-12.876
熛	-12.8761
齓	-12.8761
傘	-12.8761
溯	-12.8762
堉	-12.8763
偲	-12.8763
坌	-12.8763
襪	-12.8765
苡	-12.8766
鷇	-12.8766
􁊞	-12.8767
輗	-12.8768
𣅿	-12.8768
祻	-12.8768
壚	-12.8768
壝	-12.8769
窬	-12.877
洶	-12.877
楞	-12.877
葷	-12.877
阁	-12.8771
势	-12.8771
竆	-12.8771
曦	-12.8772
喀	-12.8773
姝	-12.8773
顱	-12.8773
沲	-12.8773
蹔	-12.8773
蹉	-12.8774
詖	-12.8774
爟	-12.8774
靦	-12.8775
爺	-12.8776
衲	-12.8776
娟	-12.8777
倀	-12.8778
忳	-12.8778
惆	-12.8779
隹	-12.8783
㯽	-12.8784
扃	-12.8786
廌	-12.8788
賠	-12.921
槽	-12.9213
唶	-12.9214
黟	-12.9221
蚕	-12.9222
駹	-12.9223
閡	-12.9224
嶓	-12.9227
蕡	-12.9229
麫	-12.9229
虨	-12.9231
哆	-12.9231
􁇨	-12.9232
遅	-12.9233
洼	-12.9233
煞	-12.9235
鄬	-12.9235
鄋	-12.9236
溴	-12.9236
剰	-12.9236
妤	-12.9237
忮	-12.9237
聯	-12.9237
𤇺	-12.9238
窻	-12.924
插	-12.924
喑	-12.924
鰲	-12.9242
彎	-12.9243
耑	-12.9243
晧	-12.9244
窩	-12.9244
飈	-12.9244
站	-12.9244
匀	-12.9244
姙	-12.9244
臶	-12.9245
淅	-12.9245
垓	-12.9245
边	-12.9245
褧	-12.9246
壐	-12.9246
簷	-12.9246
媧	-12.9247
鮓	-12.9247
櫂	-12.9247
搥	-12.9247
鈿	-12.9247
耉	-12.9249
姧	-12.9249
蹯	-12.9249
鞋	-12.9249
呐	-12.925
訝	-12.9251
媟	-12.9251
姣	-12.9252
箒	-12.9252
蒭	-12.9252
􁂷	-12.9253
咈	-12.9254
鏌	-12.9256
橡	-12.9258
鴛	-12.9262
斶	-12.9264
觥	-12.9266
渺	-12.9267
雊	-12.927
藕	-12.9271
禊	-12.9717
褎	-12.9723
鄳	-12.9723
蜮	-12.9723
㫋	-12.9723
豭	-12.9724
剉	-12.9725
煤	-12.9725
枸	-12.9726
惙	-12.9729
漼	-12.9729
縯	-12.9729
苾	-12.973
燄	-12.973
舋	-12.973
忖	-12.973
樛	-12.973
􁍇	-12.9731
蠃	-12.9731
栻	-12.9731
騃	-12.9732
誖	-12.9733
鮦	-12.9733
褏	-12.9734
梢	-12.9734
匭	-12.9734
瀏	-12.9734
藎	-12.9735
駃	-12.9735
梭	-12.9735
窓	-12.9736
瀨	-12.9736
踖	-12.9736
黌	-12.9736
􁂫	-12.9737
灶	-12.9737
觶	-12.9737
挐	-12.9738
尢	-12.9738
厷	-12.9738
秤	-12.9739
黧	-12.974
怏	-12.974
晹	-12.974
頲	-12.974
郠	-12.9741
躐	-12.9741
佽	-12.9741
蟇	-12.9741
蔞	-12.9741
螻	-12.9742
凄	-12.9742
澎	-12.9742
秫	-12.9742
烜	-12.9742
􁈍	-12.9743
羝	-12.9743
霣	-12.9743
枋	-12.9744
畦	-12.9744
昀	-12.9745
醤	-12.9746
珌	-12.9746
瀬	-12.9746
経	-12.9747
癉	-12.9747
腊	-12.9747
幬	-12.9747
婭	-12.9748
檣	-12.9749
寞	-12.9749
絓	-12.9749
鄏	-12.9749
翣	-12.975
罝	-12.975
𬒮	-12.9751
郲	-12.9751
痾	-12.9751
踉	-12.9752
譆	-12.9753
蓻	-12.9754
鷁	-12.9754
荃	-12.9756
玁	-12.9756
葑	-12.9758
恍	-12.9761
瓆	-12.9763
奡	-12.9764
惏	-12.9768
䄍	-13.0206
輾	-13.0244
龑	-13.0246
灃	-13.0246
譓	-13.0248
荧	-13.0249
翎	-13.0249
匙	-13.025
稗	-13.025
鞾	-13.025
旍	-13.025
戞	-13.025
蛭	-13.0251
粃	-13.0251
砍	-13.0252
桒	-13.0252
睛	-13.0254
哷	-13.0255
离	-13.0258
苧	-13.0259
婕	-13.0259
涎	-13.0259
惛	-13.0259
蹐	-13.026
焰	-13.026
鄡	-13.026
芽	-13.0261
妊	-13.0261
砭	-13.0262
垕	-13.0262
黛	-13.0262
厔	-13.0262
箝	-13.0262
瘼	-13.0263
㶏	-13.0263
问	-13.0263
懶	-13.0264
邿	-13.0264
鵾	-13.0264
鋗	-13.0264
觖	-13.0265
鋋	-13.0265
屹	-13.0265
頟	-13.0265
秪	-13.0266
榕	-13.0266
垜	-13.0266
雑	-13.0266
斈	-13.0266
吭	-13.0267
㷀	-13.0267
􁈊	-13.0267
擘	-13.0268
梱	-13.0268
澇	-13.0268
釧	-13.0268
猱	-13.0268
杷	-13.0269
棍	-13.0269
眴	-13.027
箏	-13.027
鋌	-13.027
獪	-13.027
嘨	-13.0272
絁	-13.0272
咀	-13.0273
凃	-13.0273
甿	-13.0274
躊	-13.0274
潏	-13.0274
还	-13.0274
咳	-13.0274
褕	-13.0275
慊	-13.0275
劌	-13.0275
訿	-13.0277
鈹	-13.0277
𢃄	-13.0278
胞	-13.0279
埸	-13.0281
鐺	-13.0281
溟	-13.0282
蟒	-13.0282
儗	-13.0283
翀	-13.0285
泐	-13.0285
脤	-13.0287
哦	-13.0287
匜	-13.0291
蘋	-13.0296
飂	-13.0789
蛸	-13.0789
謏	-13.0791
埿	-13.0797
猘	-13.0799
緱	-13.0801
㑺	-13.0802
慆	-13.0805
聫	-13.0805
暎	-13.0805
𬗟	-13.0807
砫	-13.0808
敲	-13.0808
癭	-13.0808
崞	-13.081
淘	-13.081
瞋	-13.081
蜓	-13.0811
禡	-13.0813
灋	-13.0813
騄	-13.0815
済	-13.0816
啚	-13.0816
簏	-13.0817
獞	-13.0817
茈	-13.0817
淤	-13.0818
帔	-13.0819
魃	-13.0819
幵	-13.0819
鶂	-13.0819
悄	-13.0819
欬	-13.0819
詼	-13.0821
响	-13.0822
濘	-13.0822
􁲍	-13.0822
冂	-13.0822
䞇	-13.0822
鋏	-13.0823
澌	-13.0823
瀉	-13.0823
犴	-13.0824
猊	-13.0824
𥜗	-13.0825
吼	-13.0825
糅	-13.0825
杪	-13.0825
瘥	-13.0826
邡	-13.0826
瀀	-13.0826
蠖	-13.0828
慍	-13.0828
宧	-13.0828
硬	-13.0829
劈	-13.0829
娄	-13.083
祛	-13.083
崢	-13.083
濆	-13.083
櫻	-13.0831
蹠	-13.0832
汛	-13.0832
悃	-13.0832
愾	-13.0832
秬	-13.0833
懴	-13.0836
蘩	-13.0836
攖	-13.0836
禨	-13.0837
汋	-13.0837
箾	-13.0838
满	-13.0838
躅	-13.0839
㭬	-13.0839
頫	-13.0839
黝	-13.084
嫓	-13.084
憖	-13.0841
腓	-13.0842
旛	-13.0843
臞	-13.0846
琁	-13.0858
鍭	-13.086
熺	-13.0862
寠	-13.0869
劊	-13.1355
蝸	-13.1377
儦	-13.1378
鄺	-13.1379
猇	-13.1385
椅	-13.139
韃	-13.1391
膰	-13.1391
澘	-13.1394
糯	-13.1395
廧	-13.1395
騧	-13.1396
偫	-13.1397
忙	-13.1398
膊	-13.1398
􁔱	-13.1398
甖	-13.1398
謩	-13.1399
鼙	-13.14
龠	-13.14
应	-13.1401
妍	-13.1402
髑	-13.1402
丨	-13.1403
㒒	-13.1403
飡	-13.1403
黏	-13.1404
芾	-13.1404
肻	-13.1404
晶	-13.1404
簣	-13.1406
圡	-13.1406
猳	-13.1406
粳	-13.1406
飰	-13.1406
豉	-13.1406
睔	-13.1406
週	-13.1407
􁌲	-13.1407
賡	-13.1407
曅	-13.1408
蝟	-13.1409
蚋	-13.1409
摺	-13.141
諗	-13.141
罌	-13.141
枲	-13.1411
砮	-13.1411
鍔	-13.1411
惬	-13.1411
漑	-13.1411
杆	-13.1411
蓴	-13.1412
􁒐	-13.1412
鷃	-13.1413
頔	-13.1413
嚬	-13.1413
迩	-13.1414
鍋	-13.1414
卄	-13.1414
旉	-13.1415
錙	-13.1415
栲	-13.1415
蛙	-13.1416
夂	-13.1416
实	-13.1416
濺	-13.1416
癖	-13.1417
衊	-13.1417
漓	-13.1417
独	-13.1417
瞫	-13.1418
粘	-13.1418
鄲	-13.1419
啞	-13.1419
歠	-13.1419
尒	-13.142
盞	-13.142
呶	-13.142
耋	-13.142
饔	-13.142
烺	-13.1421
筲	-13.1422
瑚	-13.1422
􁥌	-13.1422
劝	-13.1423
眥	-13.1424
雱	-13.1424
腯	-13.1426
蟾	-13.1426
愒	-13.1427
藟	-13.1427
籟	-13.1427
柎	-13.1431
睠	-13.1431
餧	-13.1432
瞬	-13.1432
荳	-13.1433
徉	-13.1437
磻	-13.1442
􁲃	-13.1442
茯	-13.1444
泜	-13.1444
闸	-13.1448
巏	-13.1449
郥	-13.1455
轓	-13.1994
幍	-13.2001
茌	-13.2003
􁌆	-13.2007
螢	-13.2013
眕	-13.2016
銃	-13.2018
㬭	-13.2018
溳	-13.2019
䊸	-13.202
姆	-13.2021
簸	-13.2022
褌	-13.2022
鎸	-13.2022
澈	-13.2023
蔕	-13.2023
篚	-13.2024
橦	-13.2024
鴿	-13.2025
瀹	-13.2026
鬴	-13.2026
甾	-13.2026
曖	-13.2027
啁	-13.2027
騠	-13.2028
摸	-13.2029
銕	-13.203
㶚	-13.203
逥	-13.203
洄	-13.203
吒	-13.203
罇	-13.203
棖	-13.2031
攢	-13.2031
斋	-13.2031
胔	-13.2031
帕	-13.2032
畸	-13.2032
奍	-13.2032
薮	-13.2032
􁇚	-13.2032
杌	-13.2032
螳	-13.2033
翛	-13.2034
頬	-13.2034
㷊	-13.2034
儘	-13.2034
肫	-13.2035
牗	-13.2035
鑨	-13.2035
淋	-13.2036
䐗	-13.2036
竸	-13.2036
牣	-13.2036
蠹	-13.2037
带	-13.2038
締	-13.2038
𧖟	-13.2038
謄	-13.2039
桔	-13.2039
塼	-13.2039
怍	-13.2039
餬	-13.2039
馗	-13.2039
琿	-13.204
孀	-13.204
榼	-13.204
蕳	-13.204
廋	-13.204
籀	-13.2041
鄍	-13.2041
鱓	-13.2042
轜	-13.2043
萑	-13.2043
麵	-13.2043
盬	-13.2043
饟	-13.2043
厩	-13.2044
鄃	-13.2045
齪	-13.2045
聒	-13.2045
玢	-13.2047
楸	-13.2047
躔	-13.2047
兜	-13.2047
悊	-13.205
檟	-13.205
駸	-13.2052
瑺	-13.2052
蜻	-13.2052
畹	-13.2053
撟	-13.2053
瘐	-13.2057
珫	-13.2057
棁	-13.2057
棡	-13.2058
舖	-13.2058
蜒	-13.2058
宁	-13.2059
蔀	-13.2062
廛	-13.2062
萯	-13.2062
蚓	-13.2066
権	-13.2071
傉	-13.2646
睆	-13.2661
駵	-13.2672
㢠	-13.2674
𧦬	-13.2677
羑	-13.2679
帢	-13.268
玹	-13.2681
嬀	-13.2682
劼	-13.2683
絻	-13.2683
荂	-13.2683
旡	-13.2684
娵	-13.2685
滙	-13.2687
徕	-13.2688
攔	-13.2688
罡	-13.2689
瘉	-13.2689
㟁	-13.269
瑙	-13.2691
搔	-13.2692
廥	-13.2692
柿	-13.2692
晻	-13.2693
絆	-13.2694
漊	-13.2695
獗	-13.2696
噂	-13.2696
稾	-13.2696
慥	-13.2696
䖝	-13.2697
灅	-13.2697
慇	-13.2697
疹	-13.2697
眤	-13.2698
寬	-13.2698
㢲	-13.2699
硃	-13.2699
饘	-13.2699
殚	-13.2699
鍛	-13.2699
䣙	-13.2699
窑	-13.27
磋	-13.27
籃	-13.2701
倧	-13.2701
燀	-13.2701
璯	-13.2701
薜	-13.2701
膴	-13.2701
􁗉	-13.2702
桉	-13.2702
髫	-13.2702
禠	-13.2703
券	-13.2703
苔	-13.2703
菆	-13.2704
踔	-13.2704
䂖	-13.2704
疈	-13.2704
栝	-13.2705
珦	-13.2705
樾	-13.2705
﨣	-13.2705
葩	-13.2706
齔	-13.2707
綢	-13.2707
綆	-13.2707
玭	-13.2707
鞀	-13.2708
礱	-13.2708
矚	-13.2709
躇	-13.271
瑠	-13.271
咢	-13.271
覯	-13.271
朘	-13.271
淶	-13.271
惹	-13.2711
飜	-13.2711
噓	-13.2711
諼	-13.2711
聆	-13.2711
螯	-13.2712
罅	-13.2712
芘	-13.2713
熄	-13.2713
秔	-13.2714
祍	-13.2714
鑱	-13.2714
壎	-13.2714
佶	-13.2714
曝	-13.2714
禚	-13.2715
貔	-13.2715
鄎	-13.2718
噩	-13.2718
俑	-13.2719
僃	-13.2719
瓴	-13.272
琹	-13.272
岔	-13.2721
紉	-13.2723
鼬	-13.2723
尙	-13.2723
蓯	-13.2723
邅	-13.2724
礬	-13.2725
呴	-13.2726
鼫	-13.2726
藋	-13.2727
惺	-13.2728
袷	-13.273
敫	-13.273
堨	-13.2732
鉶	-13.2733
蠎	-13.2734
婧	-13.2735
銮	-13.2737
浃	-13.2738
䪫	-13.2744
膿	-13.2752
翂	-13.2759
鄱	-13.3343
涽	-13.338
蜥	-13.3385
轟	-13.3388
慺	-13.3388
昫	-13.3389
渌	-13.3389
靬	-13.3391
袛	-13.3395
讇	-13.3395
椰	-13.3395
􁐞	-13.3395
牾	-13.3399
㴞	-13.3399
蛄	-13.3401
㻱	-13.3401
槥	-13.3402
嬈	-13.3403
暵	-13.3403
満	-13.3403
缾	-13.3404
輼	-13.3404
裯	-13.3404
磽	-13.3404
坰	-13.3404
鄤	-13.3404
麛	-13.3404
唅	-13.3405
鑛	-13.3405
藂	-13.3406
斄	-13.3406
㻛	-13.3407
覦	-13.3407
劘	-13.3408
䳒	-13.3409
軨	-13.3409
觟	-13.3409
嘘	-13.3411
訌	-13.3411
畟	-13.3412
洊	-13.3412
醊	-13.3412
国	-13.3413
曶	-13.3413
憘	-13.3413
瞢	-13.3413
惽	-13.3414
栰	-13.3414
秺	-13.3414
匃	-13.3414
礮	-13.3415
刓	-13.3415
莧	-13.3415
餗	-13.3416
茱	-13.3417
楣	-13.3417
錠	-13.3417
埏	-13.3417
􁨄	-13.3417
埆	-13.3417
憍	-13.3417
蓁	-13.3418
搬	-13.3418
䜌	-13.3419
輳	-13.3419
牕	-13.3419
懍	-13.342
􁪽	-13.342
秸	-13.342
襆	-13.342
串	-13.342
茝	-13.342
苪	-13.3421
稌	-13.3421
裡	-13.3422
襠	-13.3423
璲	-13.3423
蚠	-13.3424
轔	-13.3424
憯	-13.3425
逿	-13.3425
篳	-13.3425
禭	-13.3425
牼	-13.3426
綌	-13.3426
槎	-13.3426
幞	-13.3426
勌	-13.3427
嫘	-13.3427
菘	-13.3427
蝶	-13.3428
甝	-13.3428
擺	-13.3428
幪	-13.3428
鶬	-13.3429
眘	-13.3429
痊	-13.343
壷	-13.343
緻	-13.343
彳	-13.3432
忼	-13.3432
柙	-13.3432
鄐	-13.3434
柈	-13.3434
嵕	-13.3434
廏	-13.3435
栘	-13.3435
萭	-13.3436
湳	-13.3436
􁃕	-13.3437
臊	-13.3437
朾	-13.3438
菫	-13.3438
蒔	-13.3441
偰	-13.3443
輴	-13.3445
溠	-13.3447
葪	-13.3449
儞	-13.3468
隍	-13.4046
浤	-13.415
鄮	-13.4152
霫	-13.4156
􁂒	-13.4165
啾	-13.4167
邛	-13.4167
饕	-13.4167
洚	-13.4167
淥	-13.4168
紑	-13.4169
猒	-13.417
薔	-13.4171
訞	-13.4172
瞭	-13.4172
遡	-13.4173
劎	-13.4173
熞	-13.4173
隟	-13.4173
广	-13.4174
絇	-13.4174
㠯	-13.4174
軔	-13.4174
禴	-13.4174
婤	-13.4175
睇	-13.4175
瀦	-13.4176
鵜	-13.4176
韎	-13.4177
妳	-13.4177
仔	-13.4177
蛉	-13.4177
螣	-13.4177
很	-13.4178
纖	-13.4178
嬃	-13.4178
穟	-13.4179
渑	-13.4179
纏	-13.4179
韝	-13.418
燻	-13.418
氲	-13.418
壩	-13.4181
嫫	-13.4181
倬	-13.4181
袚	-13.4181
颶	-13.4181
滚	-13.4181
砌	-13.4181
𨳩	-13.4181
䌫	-13.4181
鮀	-13.4182
羶	-13.4182
鼷	-13.4183
硎	-13.4183
鰓	-13.4184
踝	-13.4185
訽	-13.4185
貓	-13.4185
躪	-13.4186
鷖	-13.4186
腳	-13.4186
张	-13.4187
鷟	-13.4187
軷	-13.4187
倿	-13.4187
菼	-13.4187
蹏	-13.4188
闒	-13.4188
窽	-13.4188
糸	-13.4188
些	-13.4188
湄	-13.4189
庐	-13.4189
曁	-13.419
渫	-13.419
鞈	-13.419
凜	-13.4191
亼	-13.4191
㠶	-13.4191
眡	-13.4191
癯	-13.4192
丿	-13.4192
袀	-13.4192
滍	-13.4193
骫	-13.4193
甃	-13.4193
师	-13.4194
盌	-13.4194
僬	-13.4194
姁	-13.4194
戄	-13.4194
饁	-13.4195
宄	-13.4195
蟀	-13.4195
瑍	-13.4196
獳	-13.4196
罐	-13.4196
袿	-13.4197
蜕	-13.4197
熬	-13.4197
鷲	-13.4197
硜	-13.4197
籞	-13.4198
裼	-13.4198
衜	-13.4198
诚	-13.4198
匾	-13.4199
酅	-13.42
処	-13.42
痢	-13.4201
璃	-13.4201
􁐺	-13.4202
埰	-13.4202
倜	-13.4202
㹠	-13.4202
枽	-13.4203
价	-13.4203
􁁅	-13.4204
獒	-13.4204
鐻	-13.4204
枰	-13.4205
綀	-13.4205
蓏	-13.4207
嗑	-13.4207
艤	-13.4211
郚	-13.4211
斚	-13.4211
亀	-13.4211
罏	-13.4212
橒	-13.4212
􁁃	-13.4213
皐	-13.4218
蚯	-13.422
鼄	-13.4221
厶	-13.4229
央	-13.4963
剄	-13.4963
恙	-13.4971
􁆚	-13.4982
叫	-13.4985
髽	-13.4987
仵	-13.4992
㞐	-13.4994
咷	-13.4997
祋	-13.4998
踶	-13.4999
􁐇	-13.4999
煢	-13.4999
郔	-13.5
泂	-13.5001
焞	-13.5001
浿	-13.5003
鱠	-13.5004
揵	-13.5004
鏄	-13.5005
絪	-13.5005
亓	-13.5006
䂮	-13.5006
㗋	-13.5007
櫪	-13.5008
絍	-13.5008
霅	-13.5008
諟	-13.5009
瓖	-13.5009
橇	-13.5009
咥	-13.501
屮	-13.501
噣	-13.501
綃	-13.501
旿	-13.501
俌	-13.501
獼	-13.5011
鉷	-13.5012
瀟	-13.5012
么	-13.5012
鏢	-13.5012
倞	-13.5012
漉	-13.5012
崎	-13.5013
戻	-13.5013
戣	-13.5013
牁	-13.5013
凊	-13.5013
搭	-13.5014
醋	-13.5014
詫	-13.5014
拮	-13.5015
圳	-13.5015
餱	-13.5016
粆	-13.5016
琱	-13.5016
㵼	-13.5016
𠫭	-13.5016
禈	-13.5016
愓	-13.5016
桮	-13.5017
簉	-13.5017
确	-13.5017
巘	-13.5017
霏	-13.5018
蜎	-13.5019
笋	-13.5019
骭	-13.5019
薌	-13.5019
褻	-13.5019
枌	-13.502
韮	-13.502
虔	-13.5021
翾	-13.5021
閃	-13.5021
谢	-13.5022
􁂧	-13.5022
麩	-13.5022
窠	-13.5022
絛	-13.5022
麀	-13.5023
檛	-13.5023
窪	-13.5023
倓	-13.5023
䁥	-13.5025
胖	-13.5025
噏	-13.5026
涅	-13.5026
楗	-13.5026
帋	-13.5027
鍥	-13.5027
汩	-13.5027
襌	-13.5028
眙	-13.5028
执	-13.5028
裻	-13.5028
釃	-13.5029
謼	-13.5029
缷	-13.5029
黈	-13.503
杉	-13.503
篙	-13.503
蘘	-13.503
觳	-13.5031
鷗	-13.5031
籩	-13.5031
漪	-13.5031
穂	-13.5031
甎	-13.5032
侏	-13.5032
蕨	-13.5033
眯	-13.5033
蓩	-13.5033
穄	-13.5033
漱	-13.5033
嘶	-13.5036
􁌫	-13.5036
篩	-13.5038
耼	-13.5038
惱	-13.5039
蓧	-13.5039
嗌	-13.5039
蒢	-13.5039
綫	-13.504
剕	-13.504
僱	-13.5041
蓲	-13.5042
潾	-13.5042
銛	-13.5042
犵	-13.5042
迃	-13.5044
咬	-13.5044
呦	-13.5044
埴	-13.5045
𦂳	-13.5045
蓉	-13.5045
脞	-13.5047
撡	-13.5048
窅	-13.5048
勖	-13.5052
歅	-13.5053
莹	-13.5056
棪	-13.5057
甜	-13.5061
汊	-13.5894
鰕	-13.5896
鎦	-13.5897
輛	-13.59
豦	-13.59
鷦	-13.5903
奫	-13.5905
􁁄	-13.5905
􁝮	-13.5905
鴡	-13.5907
􁲋	-13.5907
珤	-13.5908
蝘	-13.5908
撇	-13.5909
慣	-13.591
姺	-13.591
禑	-13.591
躧	-13.5911
秕	-13.5911
傿	-13.5912
鼇	-13.5912
裠	-13.5912
嵌	-13.5912
疝	-13.5912
襈	-13.5913
蹢	-13.5913
麯	-13.5913
艇	-13.5914
澂	-13.5914
拇	-13.5915
鏖	-13.5915
瀧	-13.5915
繍	-13.5915
衺	-13.5916
柜	-13.5916
煆	-13.5916
菹	-13.5917
剙	-13.5918
鵷	-13.5918
鐲	-13.5918
擗	-13.5919
桱	-13.5919
沇	-13.592
嵯	-13.592
鶘	-13.592
屧	-13.592
􁋊	-13.592
搨	-13.592
賧	-13.5921
縟	-13.5922
尓	-13.5922
鑣	-13.5923
閙	-13.5923
覉	-13.5923
諰	-13.5923
侲	-13.5923
暍	-13.5923
髆	-13.5924
幙	-13.5924
頞	-13.5924
痴	-13.5924
橙	-13.5924
凰	-13.5925
垝	-13.5925
幗	-13.5925
蹰	-13.5925
梦	-13.5925
浰	-13.5925
氤	-13.5925
騒	-13.5926
滽	-13.5926
㷌	-13.5926
炷	-13.5927
涔	-13.5927
瞷	-13.5927
絝	-13.5927
絅	-13.5928
残	-13.5928
阤	-13.5929
樏	-13.5929
􁁬	-13.5929
殣	-13.5929
觝	-13.5929
􁀨	-13.593
刵	-13.593
慷	-13.593
蝝	-13.593
䍽	-13.593
揷	-13.5931
穷	-13.5931
燋	-13.5931
薶	-13.5931
諢	-13.5931
硖	-13.5931
篝	-13.5931
悱	-13.5932
忬	-13.5932
􁒏	-13.5932
溵	-13.5932
籧	-13.5933
拈	-13.5933
葫	-13.5933
駉	-13.5934
贒	-13.5935
陑	-13.5935
艴	-13.5936
玀	-13.5936
𠢐	-13.5937
檮	-13.5937
慓	-13.5937
瞪	-13.5937
頳	-13.5938
㪯	-13.5938
[...]
