<unk>	0
<s>	0
</s>	0
/	-3.97026
(	-4.29317
之	-4.29425
)	-4.54531
也	-4.56459
為	-4.7111
)(	-4.78464
者	-4.88697
而	-4.9222
有	-5.07316
以	-5.11619
則	-5.20362
不	-5.51738
其	-5.52587
主	-5.54045
一	-5.59688
日	-5.60529
/)	-5.72617
□	-5.74492
無	-5.74927
如	-5.75035
中	-5.75668
在	-5.80207
於	-5.80486
人	-5.80767
若	-5.83364
故	-5.85848
生	-5.8792
星	-5.92475
與	-5.94067
見	-5.94489
三	-5.95357
水	-5.96102
得	-5.98812
月	-5.98994
上	-5.99949
子	-6.02351
大	-6.03466
天	-6.05192
二	-6.06752
四	-6.07848
金	-6.08682
是	-6.08988
火	-6.09433
至	-6.12102
曰	-6.15138
或	-6.15503
行	-6.1564
又	-6.17628
陽	-6.18432
自	-6.19534
土	-6.20013
木	-6.20325
合	-6.20346
多	-6.20609
用	-6.20775
入	-6.21705
五	-6.23267
吉	-6.25851
時	-6.25894
貴	-6.27332
出	-6.30133
▁	-6.32409
此	-6.34497
相	-6.35001
下	-6.35914
地	-6.38811
皆	-6.39331
分	-6.39695
氣	-6.40161
隂	-6.40294
命	-6.42676
凶	-6.42997
神	-6.43424
乃	-6.43813
所	-6.5347
六	-6.53826
亦	-6.54839
位	-6.54937
後	-6.57556
年	-6.58259
正	-6.5916
居	-6.5926
成	-6.62581
言	-6.63391
未	-6.63473
官	-6.63567
同	-6.64417
煞	-6.64994
明	-6.65086
宫	-6.67139
事	-6.67186
當	-6.68888
必	-6.68916
方	-6.70806
矣	-6.70813
來	-6.71146
作	-6.71266
數	-6.71431
辰	-6.72001
王	-6.72099
死	-6.73519
起	-6.74629
九	-6.74891
于	-6.76947
身	-6.7753
及	-6.7852
從	-6.79727
財	-6.81203
七	-6.81209
八	-6.82497
宜	-6.82502
論	-6.82801
遇	-6.83041
臨	-6.84515
平	-6.87222
心	-6.87936
更	-6.88016
國	-6.89905
道	-6.90901
即	-6.90984
非	-6.91953
度	-6.92561
定	-6.93351
運	-6.94959
逢	-6.9499
元	-6.95417
内	-6.9544
亥	-6.95473
忌	-6.95538
巳	-6.95645
寅	-6.96105
兩	-6.9618
名	-6.96502
外	-6.9669
十	-6.96874
喜	-6.97343
福	-6.97993
重	-6.98702
雖	-6.98766
可	-6.98915
處	-6.99768
前	-7.00022
龍	-7.0112
卦	-7.01668
申	-7.01701
旺	-7.02193
兵	-7.02304
午	-7.02811
甲	-7.03354
刑	-7.03571
小	-7.04206
占	-7.04802
長	-7.05562
乾	-7.05669
將	-7.06075
取	-7.06782
山	-7.07237
本	-7.08134
禄	-7.08194
難	-7.08205
已	-7.08244
酉	-7.08376
守	-7.08401
加	-7.09255
嵗	-7.09258
馬	-7.09418
丑	-7.10149
易	-7.10322
家	-7.10424
交	-7.10881
然	-7.11862
君	-7.12467
破	-7.1262
謂	-7.12741
反	-7.12929
乎	-7.12931
去	-7.1328
夫	-7.15073
凡	-7.15092
立	-7.15184
應	-7.15746
㑹	-7.15824
傷	-7.15895
始	-7.17178
戌	-7.17708
南	-7.18355
復	-7.19167
干	-7.19889
物	-7.2065
女	-7.20654
法	-7.20768
鬼	-7.21402
離	-7.21518
先	-7.2172
災	-7.22398
臣	-7.22743
食	-7.23524
象	-7.23865
北	-7.24065
徳	-7.24461
五行	-7.25412
又曰	-7.2574
門	-7.26152
周	-7.26772
俱	-7.26906
亡	-7.27002
動	-7.2731
○	-7.27318
發	-7.27473
西	-7.27653
東	-7.27969
失	-7.28034
通	-7.28238
化	-7.28441
能	-7.29227
憂	-7.29229
尅	-7.29468
云	-7.29605
風	-7.29682
變	-7.29736
安	-7.29972
爲	-7.30413
坤	-7.3075
不可	-7.30969
空	-7.31018
要	-7.31452
天下	-7.3237
文	-7.32439
餘	-7.328
髙	-7.33286
何	-7.33457
常	-7.33592
隂陽	-7.33755
利	-7.34142
形	-7.35055
初	-7.36044
卯	-7.36212
足	-7.37873
少	-7.379
終	-7.38037
虚	-7.38516
謂之	-7.387
好	-7.38748
體	-7.38882
禍	-7.38979
犯	-7.40155
各	-7.40676
殺	-7.40682
衝	-7.41132
經	-7.41402
格	-7.4172
耳	-7.4174
丁	-7.42217
庚	-7.42924
角	-7.43616
休	-7.43895
我	-7.44002
坐	-7.4445
須	-7.44891
病	-7.45548
知	-7.45565
欲	-7.46144
白	-7.47083
直	-7.47603
公	-7.47811
陰	-7.4829
極	-7.4899
推	-7.49112
局	-7.49389
十二	-7.49787
日月	-7.5077
夏	-7.50787
丙	-7.5109
敗	-7.51368
盡	-7.51505
民	-7.51723
光	-7.51781
乙	-7.5226
理	-7.52398
向	-7.52482
全	-7.52629
過	-7.5268
因	-7.52939
今	-7.5407
限	-7.54113
順	-7.54337
壬	-7.54361
祥	-7.54727
危	-7.54737
咎	-7.55321
宿	-7.55663
德	-7.55882
性	-7.5673
進	-7.56927
實	-7.57088
祿	-7.57361
惡	-7.5799
亂	-7.5826
受	-7.58391
頭	-7.58524
春	-7.58655
歸	-7.58745
義	-7.59473
絶	-7.59534
一曰	-7.59764
害	-7.60159
天地	-7.60187
帝	-7.60481
節	-7.60576
夜	-7.62066
印	-7.62422
建	-7.62663
左	-7.62829
次	-7.62853
縣	-7.6288
辛	-7.63551
止	-7.63687
貴人	-7.63815
百	-7.63848
善	-7.64697
和	-7.64801
流	-7.64944
右	-7.655
艮	-7.65566
疾	-7.65604
甲子	-7.65836
惟	-7.66
伏	-7.66541
到	-7.66999
黄	-7.67219
帶	-7.6726
屬	-7.6785
退	-7.68319
求	-7.68606
使	-7.68677
悔	-7.68859
晉	-7.6901
乗	-7.69072
逺	-7.6945
世	-7.6952
清	-7.70273
張	-7.70287
震	-7.70295
却	-7.70701
首	-7.70715
妻	-7.70736
戊	-7.70864
歲	-7.70959
近	-7.7124
秋	-7.71412
字	-7.71451
支	-7.71565
所以	-7.71569
齊	-7.71596
損	-7.71738
音	-7.72084
色	-7.7242
萬	-7.72538
且	-7.72872
藏	-7.73343
强	-7.73745
之象	-7.74256
聲	-7.74794
既	-7.75298
焉	-7.75313
坎	-7.75436
母	-7.75748
富貴	-7.75968
觀	-7.76114
冬	-7.76199
制	-7.76235
虎	-7.76813
是也	-7.77133
目	-7.77458
半	-7.77613
癸	-7.78078
太陽	-7.78208
逆	-7.78433
乘	-7.79138
灾	-7.80108
萬物	-7.80819
開	-7.80981
吝	-7.81264
傳	-7.81674
計	-7.81729
深	-7.8236
但	-7.83186
盛	-7.83201
書	-7.83335
精	-7.83413
令	-7.83542
隨	-7.83811
照	-7.84362
夘	-7.84371
故曰	-7.84943
兼	-7.84959
等	-7.85063
圖	-7.85123
朝	-7.85353
君子	-7.85436
口	-7.85543
不能	-7.86315
龜	-7.8687
克	-7.8705
樂	-7.87217
之地	-7.87274
獨	-7.87383
秦	-7.87426
富	-7.87818
榮	-7.87957
諸	-7.8881
葢	-7.88818
墓	-7.8912
漢	-7.89139
治	-7.8932
竒	-7.89715
勝	-7.8973
赤	-7.90531
丙寅	-7.90885
軍	-7.90943
比	-7.91071
己	-7.91173
斗	-7.91353
巽	-7.91437
聚	-7.91702
衆	-7.91722
井	-7.91797
猶	-7.91872
並	-7.92316
太隂	-7.92396
真	-7.92551
興	-7.92807
以為	-7.92829
飛	-7.92968
散	-7.93016
解	-7.93018
尾	-7.9306
異	-7.93755
莫	-7.94066
武	-7.94719
謀	-7.94773
甲寅	-7.94862
别	-7.94939
三合	-7.95361
積	-7.95453
衰	-7.95624
而不	-7.95743
戰	-7.958
視	-7.95922
弱	-7.95956
男	-7.96154
并	-7.96634
斷	-7.96836
雨	-7.9702
除	-7.97491
天子	-7.97494
牛	-7.97648
吉凶	-7.97854
背	-7.98
還	-7.99425
州	-8.00278
便	-8.00475
參	-8.00655
曜	-8.00722
畢	-8.00763
顯	-8.00944
太	-8.00957
暗	-8.00966
不宜	-8.01036
晝	-8.01161
偏	-8.01655
權	-8.0238
不得	-8.02727
轉	-8.03253
高	-8.03466
賊	-8.03846
類	-8.03967
配	-8.04
房	-8.04054
被	-8.04357
刻	-8.04439
間	-8.04993
丙午	-8.05296
太白	-8.05442
生人	-8.05538
骨	-8.05659
意	-8.05702
石氏曰	-8.05748
之中	-8.05985
室	-8.06002
益	-8.06172
之類	-8.06738
輕	-8.07032
上下	-8.07214
之數	-8.08012
併	-8.08103
壬子	-8.08189
伐	-8.08229
師	-8.08244
切	-8.08746
厯	-8.08779
所謂	-8.09033
兵起	-8.09362
㐫	-8.09435
羅	-8.09547
丙丁	-8.0987
甲戌	-8.11176
城	-8.11636
孤	-8.11662
甲申	-8.11671
期	-8.12035
親	-8.12084
舉	-8.12248
修	-8.12502
力	-8.1257
按	-8.12756
信	-8.13072
宋	-8.13158
辰戌	-8.13264
政	-8.13452
剛	-8.13685
石	-8.13749
蓋	-8.13755
十一	-8.13913
降	-8.14217
癸亥	-8.14217
之氣	-8.14236
指	-8.14327
厚	-8.14361
不利	-8.14789
靈	-8.14894
空亡	-8.15129
田	-8.15286
其國	-8.15356
滿	-8.15376
對	-8.15501
氏	-8.1556
丁巳	-8.16637
車	-8.16672
庚寅	-8.16853
看	-8.16918
甲午	-8.17047
就	-8.17351
最	-8.17538
助	-8.17546
勢	-8.18014
滅	-8.18087
微	-8.1813
值	-8.1828
之位	-8.18482
歳	-8.18566
遂	-8.18629
夀	-8.18677
只	-8.18688
稱	-8.1908
甚	-8.19279
戊午	-8.19357
青	-8.19651
望	-8.20134
宅	-8.20257
怕	-8.20982
兮	-8.21121
再	-8.21125
金水	-8.21131
四時	-8.21181
原	-8.21356
穴	-8.21358
客	-8.21471
蛇	-8.21479
致	-8.21943
丙子	-8.22077
老	-8.22335
共	-8.22569
三十	-8.22707
十六	-8.22842
賤	-8.23199
戊寅	-8.23305
父	-8.23456
𤣥	-8.23495
中有	-8.2352
測曰	-8.2355
由	-8.23587
千	-8.24269
説	-8.24327
乙丑	-8.24868
眼	-8.24906
二十	-8.25108
他	-8.25136
禮	-8.25141
白虎	-8.25141
太嵗	-8.2519
拱	-8.25485
横	-8.25501
戊辰	-8.25659
庫	-8.25662
玉	-8.25727
壬午	-8.25786
落	-8.25948
寒	-8.26311
熒惑	-8.26433
乙酉	-8.26568
甲乙	-8.26671
美	-8.26678
似	-8.2675
庚午	-8.26948
課	-8.27062
孛	-8.27082
庚申	-8.27158
己亥	-8.27287
之所	-8.27351
五星	-8.27475
癸丑	-8.27568
官星	-8.27603
總	-8.27805
翼	-8.27902
小人	-8.28043
不見	-8.28222
升	-8.28276
逄	-8.28664
可以	-8.28731
載	-8.28807
胎	-8.28837
走	-8.28908
年月	-8.28985
差	-8.29094
癸酉	-8.29129
乙亥	-8.29486
尤	-8.29497
財官	-8.2953
古	-8.29647
執	-8.29661
魏	-8.29669
邑	-8.29713
紀	-8.29761
長生	-8.29762
留	-8.29785
薄	-8.29926
辰巳	-8.29966
己巳	-8.30097
輔	-8.30102
三月	-8.30167
宮	-8.3021
箕	-8.30214
楚	-8.30606
窮	-8.30708
壬寅	-8.31032
戊子	-8.31105
柔	-8.31214
衛	-8.3132
河	-8.31426
置	-8.31495
正月	-8.31553
詳	-8.31971
納音	-8.32022
貞	-8.32255
▁(	-8.32584
者也	-8.33125
丙戌	-8.33379
四柱	-8.33455
諸侯	-8.33492
生旺	-8.33525
干上	-8.34081
鄉	-8.34593
丁未	-8.34663
雲	-8.34726
丁丑	-8.3495
左右	-8.3498
辛未	-8.35005
府	-8.35024
消	-8.3503
列	-8.35081
威	-8.35088
将	-8.35201
面	-8.35239
疑	-8.35358
庚辰	-8.35634
陳	-8.3572
宗	-8.3594
進士	-8.36005
任	-8.36043
必有	-8.36155
垣	-8.3624
壬申	-8.36279
學	-8.36283
十五	-8.36325
廣	-8.36387
仁	-8.36508
生於	-8.36609
壬癸	-8.36618
引	-8.3665
丙申	-8.36696
息	-8.36733
舍	-8.36786
己丑	-8.36787
商	-8.37032
急	-8.37096
祖	-8.37125
戊申	-8.37178
父母	-8.37325
短	-8.37465
爻	-8.37465
雷	-8.3753
二十四	-8.38126
豐	-8.38133
兌	-8.38146
十月	-8.38153
又云	-8.38218
章	-8.38377
驚	-8.38382
庚子	-8.38427
伯	-8.38619
都	-8.38824
己未	-8.38902
身命	-8.38943
之事	-8.38961
戊戌	-8.39017
庚辛	-8.39027
五十	-8.39274
否	-8.39354
貧	-8.39358
辛丑	-8.39547
丁亥	-8.39791
刃	-8.3982
有兵	-8.39868
昌	-8.40083
十三	-8.40142
移	-8.40181
兄弟	-8.4036
哉	-8.40423
依	-8.40552
功	-8.40741
辛酉	-8.40894
盖	-8.40967
傷官	-8.40984
辛亥	-8.41279
王者	-8.41291
固	-8.413
士	-8.41406
暴	-8.41417
亢	-8.4182
黒	-8.41922
炁	-8.42011
露	-8.42143
陰陽	-8.42238
不同	-8.42269
著	-8.42317
例	-8.42421
卷	-8.42491
咸	-8.42719
壽	-8.4275
癸未	-8.43003
表	-8.43055
聖人	-8.43329
辨	-8.43399
庚戌	-8.43531
虛	-8.43637
丁酉	-8.43716
純	-8.4383
奎	-8.43913
秀	-8.43987
侯	-8.43993
根	-8.44062
尚書	-8.44329
也故	-8.44337
賢	-8.44362
躔	-8.4467
訟	-8.44978
日時	-8.45018
候	-8.45192
乙未	-8.45244
細	-8.45297
之間	-8.45329
壬辰	-8.45775
大貴	-8.45794
癸巳	-8.45811
壬戌	-8.45859
氐	-8.45949
六合	-8.4608
甘氏曰	-8.46136
甲辰	-8.46494
辛巳	-8.46603
存	-8.46862
軫	-8.47136
燕	-8.47195
逆行	-8.47237
畏	-8.47329
眉	-8.47439
二月	-8.47571
趙	-8.47576
漸	-8.47728
㣲	-8.47972
己酉	-8.48049
遷	-8.48086
尊	-8.48153
華	-8.48288
魚	-8.48365
海	-8.48439
養	-8.48683
太乙	-8.4877
誅	-8.48956
卒	-8.49006
二十五	-8.49017
后	-8.49191
蝕	-8.49347
火土	-8.49529
志	-8.49579
兆	-8.49608
卜	-8.49989
雜	-8.50506
是謂	-8.50595
丙辰	-8.50835
䘮	-8.50857
情	-8.50934
封	-8.51149
㓙	-8.5116
闗	-8.512
囚	-8.5141
朔	-8.51465
妙	-8.51552
㸔	-8.51566
胃	-8.51575
十二月	-8.51651
至於	-8.51814
則為	-8.51837
路	-8.52155
恩	-8.52354
景	-8.52523
代	-8.52707
手	-8.5277
三十六	-8.52814
干支	-8.52819
戊巳	-8.52893
四月	-8.53334
說	-8.53335
登	-8.53367
名曰	-8.53388
乙巳	-8.53481
蒙	-8.5367
服	-8.53729
辰酉	-8.53732
夾	-8.53744
歴	-8.54
十一月	-8.54202
晦	-8.54233
野	-8.54593
司	-8.54636
舉人	-8.54715
澤	-8.54858
聞	-8.54956
陷	-8.55184
序	-8.55207
防	-8.55345
東南	-8.55432
折	-8.55707
辰未	-8.55753
問	-8.55852
三年	-8.55888
婁	-8.56549
律	-8.5655
夭	-8.56626
郗萌曰	-8.57019
永	-8.57251
辰辰	-8.57305
聖	-8.57402
五月	-8.57556
一日	-8.57758
新	-8.57898
八月	-8.57951
平丅	-8.58094
困	-8.58253
辰午	-8.58289
舊	-8.58317
遲	-8.58404
語	-8.58672
喪	-8.58693
末	-8.58738
之人	-8.5883
花	-8.5883
来	-8.58844
昴	-8.58898
出入	-8.58934
縱	-8.59069
不足	-8.59163
連	-8.59217
符	-8.59224
春秋	-8.59236
東方	-8.594
而後	-8.59425
辰丑	-8.59605
紋	-8.59654
濟	-8.59751
十八	-8.59817
詩	-8.59865
泰	-8.59941
冬至	-8.59968
梁	-8.60018
為主	-8.60112
辰星	-8.60136
才	-8.60153
考	-8.60537
為福	-8.60612
強	-8.60717
太極	-8.60725
逐	-8.60782
二十八	-8.60822
十四	-8.60964
豈	-8.61006
辰申	-8.61044
旺相	-8.61081
印綬	-8.61207
自然	-8.61282
禽	-8.6131
鳴	-8.61328
鼻	-8.61337
八卦	-8.6139
尚	-8.6141
辰亥	-8.61435
羣	-8.61667
言之	-8.61689
專	-8.61753
辰卯	-8.61756
六月	-8.61818
元年	-8.62049
一生	-8.62126
端	-8.62157
圓	-8.62238
魯	-8.62346
納	-8.62375
血	-8.62376
盈	-8.62513
雄	-8.62659
爭	-8.62698
廢	-8.62888
斯	-8.62911
荆州占曰	-8.63014
相生	-8.6302
號	-8.63087
夜生	-8.6313
軌	-8.63275
持	-8.63429
辰寅	-8.63511
青龍	-8.63631
廟	-8.63646
遊	-8.63696
愛	-8.63773
邪	-8.63826
侵	-8.6383
將軍	-8.63903
辰子	-8.63942
革	-8.63947
統	-8.64039
職	-8.64314
早	-8.64373
者為	-8.64429
陵	-8.64553
旱	-8.64755
堂	-8.64968
思	-8.65368
人之	-8.65416
乙卯	-8.66063
術	-8.6618
布	-8.66199
二年	-8.66237
唐	-8.66288
備	-8.66331
施	-8.66371
不用	-8.66562
枝	-8.66724
天乙	-8.66848
西北	-8.66891
子孫	-8.67207
不成	-8.67209
以上	-8.67561
幽	-8.67572
扶	-8.67676
發用	-8.67717
月建	-8.68057
婦	-8.68389
駕	-8.6849
智	-8.68728
改	-8.68788
李	-8.6888
湏	-8.68881
十七	-8.68992
之義	-8.69029
部	-8.69166
造化	-8.69221
日干	-8.69494
吾	-8.6963
鳥	-8.69669
往	-8.69718
久	-8.69873
履	-8.69957
察	-8.70078
貫	-8.70109
九月	-8.70134
靜	-8.70236
遭	-8.70308
林	-8.70356
恐	-8.70443
為用	-8.70593
天之	-8.70984
柱	-8.71056
西方	-8.71379
西南	-8.71382
承	-8.71474
乾坤	-8.71788
六十	-8.71963
日蝕	-8.72058
覆	-8.72078
七月	-8.72106
保	-8.72191
不出	-8.72305
為官	-8.72405
十九	-8.72419
招	-8.72623
關	-8.731
身旺	-8.73424
大臣	-8.73974
攻	-8.73987
不然	-8.74079
産	-8.7418
男女	-8.74234
羊	-8.7455
良	-8.74842
日辰	-8.75045
得地	-8.75146
不明	-8.75148
識	-8.75276
不知	-8.75525
申酉	-8.75537
隔	-8.75575
鄭	-8.75596
進退	-8.75889
減	-8.75945
掌	-8.75953
丁卯	-8.7596
具	-8.76152
又為	-8.76245
二十一	-8.76265
獲	-8.76359
患	-8.76365
揚	-8.76394
假	-8.76805
屯	-8.77021
經云	-8.77221
際	-8.77433
淫	-8.7758
收	-8.77855
太陰	-8.77921
决	-8.78045
衣	-8.78123
文章	-8.78202
質	-8.78475
奪	-8.78522
闕	-8.78617
教	-8.78894
兊	-8.78917
而無	-8.78965
暈	-8.79106
尋	-8.79222
會	-8.79233
鼎	-8.79316
食神	-8.79485
順行	-8.79546
夷	-8.79564
一名	-8.79595
獄	-8.79692
季	-8.79743
二十二	-8.79935
同宫	-8.79949
里	-8.79967
怒	-8.80113
恒	-8.80201
附	-8.803
機	-8.80347
也若	-8.80588
四方	-8.80622
彼	-8.80624
辛卯	-8.80895
達	-8.80907
如此	-8.80937
殃	-8.81008
劉	-8.81124
魄	-8.81146
仍	-8.8121
填星	-8.81361
結	-8.81383
禄馬	-8.81395
三十二	-8.81446
不吉	-8.81467
財帛	-8.81489
互	-8.81532
江	-8.81576
曲	-8.81596
越	-8.81724
愈	-8.81761
市	-8.8186
東北	-8.82119
有憂	-8.82201
福禄	-8.82859
旬	-8.82926
之道	-8.83081
之理	-8.83241
南方	-8.83268
擊	-8.83419
嵗星	-8.83631
泉	-8.83638
之法	-8.83675
水火	-8.83742
敵	-8.83903
業	-8.83905
勞	-8.83957
朱雀	-8.84
倍	-8.84205
屋	-8.84272
造	-8.84273
每	-8.84506
火羅	-8.84584
濁	-8.84638
隠	-8.84649
運行	-8.84717
包	-8.85084
救	-8.85105
二十七	-8.85185
者主	-8.85384
羊刃	-8.85408
魁	-8.85434
脱	-8.85552
缺	-8.85574
二十六	-8.85594
四十	-8.85767
管	-8.85976
金木	-8.86107
偶	-8.86182
官禄	-8.8622
玄	-8.86246
旦	-8.86266
刼	-8.86316
是為	-8.86342
辰戌丑未	-8.86647
晝夜	-8.86779
容	-8.86814
冲	-8.87012
舎	-8.87285
三日	-8.87307
前後	-8.87376
静	-8.87419
卑	-8.87549
驛馬	-8.87672
假令	-8.87718
耗	-8.88142
篇	-8.88212
禍福	-8.88231
避	-8.8825
死絶	-8.88281
昏	-8.88445
嫌	-8.88451
厄	-8.88901
羽	-8.88905
注	-8.88949
𤣥武	-8.89006
休囚	-8.89036
黄帝占曰	-8.89082
皆為	-8.89185
垂	-8.89281
免	-8.89487
貪	-8.89643
敬	-8.89729
寅午戌	-8.89911
一度	-8.89928
四季	-8.90026
詩斷	-8.9031
戍	-8.90315
北方	-8.90406
夏至	-8.90508
癸卯	-8.90573
謙	-8.90638
邊	-8.90697
營	-8.90873
己卯	-8.90905
各有	-8.90952
三百六十	-8.90984
栁	-8.91056
行年	-8.91066
仲	-8.91297
三竒	-8.91469
閏	-8.91541
孟	-8.91572
犬	-8.91728
吏	-8.91824
儀	-8.92044
生氣	-8.92047
葬	-8.92214
一年	-8.92286
賦	-8.92295
第	-8.92352
若有	-8.92371
蹇	-8.93067
皇	-8.93394
月令	-8.93417
牽牛	-8.93442
棄	-8.93443
而為	-8.93523
繼	-8.93566
四十九	-8.9363
壁	-8.93713
源	-8.93882
七星	-8.93891
苦	-8.9427
扵	-8.94477
遁	-8.94668
之象也	-8.94822
而已	-8.94872
有氣	-8.94915
亦有	-8.94943
三傳	-8.95016
資	-8.95041
申子辰	-8.9515
奸	-8.95177
木星	-8.95201
三元	-8.95238
康	-8.95289
孫	-8.95353
争	-8.95552
草	-8.95642
婦人	-8.9571
七煞	-8.95719
二十三	-8.95901
旅	-8.95922
不及	-8.95944
用事	-8.95972
雙	-8.96012
集	-8.96071
愚	-8.96158
相逢	-8.96242
奔	-8.9625
䑕	-8.96292
之時	-8.96426
之神	-8.96721
孝	-8.96907
先天	-8.9695
唯	-8.9704
勾陳	-8.97048
黃	-8.97155
器	-8.9723
衡	-8.97279
則有	-8.97377
赦	-8.97581
天干	-8.97917
其中	-8.97993
亥子	-8.98051
透	-8.98074
福徳	-8.98131
二星	-8.98184
占曰	-8.98564
也如	-8.98681
隆	-8.98793
腹	-8.98826
步	-8.98863
烏	-8.98868
又有	-8.99059
則吉	-8.99317
率	-8.99335
壯	-8.99389
為人	-8.99488
柱中	-8.9973
傍	-8.99741
/□	-8.99773
筭	-8.99776
星辰	-8.99799
子午	-8.99964
水土	-9
黑	-9.00045
而成	-9.00295
滯	-9.00321
爾	-9.00333
命宫	-9.00461
之宫	-9.00556
泊	-9.00557
雖有	-9.00561
特	-9.00672
崩	-9.00738
剥	-9.0083
狼	-9.01003
郡	-9.01006
命主	-9.01061
功名	-9.01093
千里	-9.01194
金星	-9.01279
距	-9.01414
誠	-9.01446
速	-9.01486
迎	-9.01579
延	-9.01655
歌	-9.01656
亦主	-9.01799
四正	-9.02054
地支	-9.02119
浮	-9.02176
閉	-9.02193
雞	-9.02237
怪	-9.02263
故也	-9.02321
不相	-9.02335
官煞	-9.0244
臨官	-9.02527
驗	-9.02529
係	-9.02578
變化	-9.02579
丑未	-9.02634
寧	-9.02735
火星	-9.02748
不過	-9.02893
太歲	-9.03003
妄	-9.03057
黄道	-9.03059
㢲	-9.03064
吉星	-9.03105
無氣	-9.0318
徒	-9.03259
沉	-9.03374
不安	-9.03389
均	-9.03454
女主	-9.03477
紫	-9.03581
是以	-9.03692
宫主	-9.03781
少年	-9.03837
倚	-9.03956
辭	-9.04084
誤	-9.04146
弟	-9.04226
中央	-9.04257
寳	-9.04339
嘉	-9.04339
土計	-9.04376
為吉	-9.04422
人君	-9.04441
人命	-9.04621
女人	-9.04801
然後	-9.04867
内外	-9.05057
淺	-9.0526
鬬	-9.05342
秋冬	-9.05344
其所	-9.05442
者乃	-9.05493
寅卯	-9.05518
兵大起	-9.05541
堅	-9.05726
豫	-9.05801
衍	-9.05837
天元	-9.05865
南北	-9.05899
繫	-9.059
中孚	-9.05953
春夏	-9.06108
鎮	-9.06109
盗	-9.06186
抱	-9.06208
必主	-9.06286
維	-9.06321
之説	-9.06503
木炁	-9.06568
支上	-9.06589
天門	-9.06711
忽	-9.06901
支干	-9.07028
返	-9.07069
日在	-9.072
姤	-9.07327
低	-9.07793
約	-9.07815
殿	-9.07835
咸池	-9.07915
主星	-9.07915
出於	-9.08083
朱	-9.0813
侍郎	-9.08221
温	-9.08571
兑	-9.08575
生時	-9.08622
天道	-9.08724
第一	-9.0874
田宅	-9.08863
䧟	-9.08975
奉	-9.09023
用神	-9.09275
塞	-9.09435
官印	-9.0947
魂	-9.09736
巫咸曰	-9.09784
韓	-9.09804
亦不	-9.09819
一星	-9.09828
御	-9.09848
縮	-9.09858
據	-9.09863
専	-9.09895
之上	-9.09982
二十九	-9.10208
幹	-9.10429
天地之	-9.10443
六害	-9.1046
享	-9.10558
珠	-9.10607
釋	-9.10667
慶	-9.10668
主人	-9.10696
崇	-9.10726
疾病	-9.10806
不通	-9.10888
金神	-9.11037
縁	-9.11135
人主	-9.11305
毛	-9.11493
東西	-9.11513
曹震圭曰	-9.11561
之鄉	-9.11589
一云	-9.11695
姓	-9.11767
𫝊	-9.11894
稍	-9.11963
逃	-9.12053
丘	-9.12057
熒惑犯	-9.12079
許	-9.12183
之命	-9.12257
平生	-9.12303
假如	-9.12345
星主	-9.12372
宣	-9.12379
九十	-9.12385
三十日	-9.12622
在寅	-9.1271
寡	-9.12723
胡	-9.12767
戒	-9.12784
圍	-9.12817
以其	-9.12836
夬	-9.12839
了	-9.1284
貌	-9.12908
緩	-9.13222
邦	-9.13223
十日	-9.13485
故以	-9.13532
仰	-9.1359
黨	-9.13694
私	-9.13719
小過	-9.13807
陽氣	-9.13809
日生	-9.13945
若是	-9.13996
亦可	-9.14013
補	-9.14016
感	-9.14109
緯	-9.14224
二千一百	-9.14281
勾	-9.14532
射	-9.14627
不為	-9.14766
陽刃	-9.14822
果	-9.14929
二千二百	-9.15152
十干	-9.15323
負	-9.15373
㫁	-9.15571
大水	-9.15694
條	-9.15709
無所	-9.15724
俗	-9.15824
肉	-9.15836
罪	-9.15896
金火	-9.16131
太子	-9.16158
虧	-9.16238
畫	-9.16326
旁	-9.16334
大吉	-9.16335
流星	-9.16439
刑衝	-9.16488
裏	-9.16513
五日	-9.17333
五年	-9.1741
大小	-9.17427
接	-9.17811
在於	-9.17818
東井	-9.1798
之日	-9.18172
水星	-9.18272
枯	-9.18434
谷	-9.18456
為貴	-9.18494
歳星	-9.18667
潤	-9.1868
人生	-9.189
寶	-9.18926
蠱	-9.19012
殊	-9.19043
婚	-9.19126
經曰	-9.19276
人得	-9.19277
木火	-9.19367
環	-9.19421
蟲	-9.19497
又如	-9.19537
段	-9.19647
刼煞	-9.19715
齒	-9.19881
柳	-9.20014
者以	-9.20047
三公	-9.20197
傾	-9.20339
之說	-9.20604
酒	-9.20674
究	-9.20681
淵	-9.2072
比肩	-9.20888
星入	-9.20888
羅㬋	-9.20918
起於	-9.20963
一百	-9.2107
芒	-9.2107
三陽	-9.2109
抵	-9.2135
為陽	-9.21425
慎	-9.21734
兒	-9.21734
之星	-9.21757
坎離	-9.21795
卿	-9.21822
發福	-9.21913
北斗	-9.22352
庶	-9.22418
不可以	-9.22426
辛夘	-9.22588
基	-9.22746
盜	-9.22752
庭	-9.22772
額	-9.23164
子丑	-9.23218
歸妹	-9.2322
太白犯	-9.23244
行人	-9.23285
貧賤	-9.23492
遺	-9.23618
混	-9.23652
徵	-9.2366
孔	-9.23839
地之	-9.23901
而生	-9.23966
為財	-9.2397
鬼神	-9.24005
拜	-9.24181
數也	-9.24276
口舌	-9.24505
饑	-9.24539
毒	-9.24573
觜	-9.24585
所在	-9.24594
漏	-9.24634
三十一	-9.24659
昭	-9.24764
辰為	-9.24911
冠	-9.24982
之意	-9.25094
三方	-9.25136
爵	-9.25234
六甲	-9.25378
授	-9.25417
史	-9.25444
霜	-9.25499
營室	-9.25535
為天	-9.25763
亥卯未	-9.25864
便是	-9.25942
審	-9.2595
神煞	-9.25991
亦是	-9.25994
夢	-9.26058
臺	-9.26064
隱	-9.26071
賁	-9.26121
佐	-9.26189
註	-9.26278
適	-9.26459
丈	-9.26481
得之	-9.2649
榖	-9.26665
明堂	-9.26794
楊	-9.26912
没	-9.26913
樞	-9.26913
川	-9.26915
六十四	-9.26968
蔽	-9.27011
懐	-9.27053
属	-9.27081
宫中	-9.27085
消息	-9.27135
而得	-9.27193
為禍	-9.27231
河圖	-9.27301
英	-9.27304
己夘	-9.27311
太守	-9.27355
推之	-9.27361
之下	-9.27385
征	-9.27512
相合	-9.2774
賦云	-9.27777
循	-9.27936
日主	-9.27983
輪	-9.27987
天罡	-9.28181
何以	-9.28282
之變	-9.28311
人民	-9.28557
徙	-9.28583
南斗	-9.28601
水孛	-9.28649
紅	-9.28727
絲	-9.29043
案	-9.29187
紫炁	-9.29255
相尅	-9.29326
盤	-9.29381
畜	-9.29554
需	-9.2965
彗	-9.29665
一陽	-9.29682
錯	-9.29857
七日	-9.29932
三十三	-9.29986
後天	-9.29995
傳曰	-9.30021
雀	-9.30021
増	-9.3011
的	-9.30188
得其	-9.3025
乙夘	-9.30414
量	-9.30427
熒惑守	-9.30447
舌	-9.30484
險	-9.30509
大將軍	-9.30515
詩曰	-9.3052
精神	-9.30563
含	-9.30577
况	-9.30589
京房曰	-9.30621
若遇	-9.30844
甲巳	-9.30943
陸	-9.30981
沈	-9.31
肥	-9.31064
御史	-9.31089
呼	-9.31115
學堂	-9.31256
吉神	-9.31285
懼	-9.31503
池	-9.31569
墜	-9.31628
大抵	-9.3183
殘	-9.32057
脈	-9.32083
設	-9.32098
超	-9.32111
狗	-9.32174
哭	-9.32176
奴	-9.3233
脉	-9.32417
有所	-9.3242
而有	-9.32457
之月	-9.32459
一位	-9.32507
聰明	-9.32545
旗	-9.32571
禹	-9.32594
掩	-9.32636
皆以	-9.32659
名利	-9.32789
徃	-9.32967
烈	-9.33134
大人	-9.33286
界	-9.33589
三分	-9.33679
而言	-9.33692
不忌	-9.33716
七十	-9.33884
妻子	-9.33901
凡事	-9.33909
流年	-9.33974
不和	-9.33981
提	-9.34123
用之	-9.34143
腰	-9.34218
狐	-9.34238
萃	-9.34269
土星	-9.34275
天空	-9.34387
粟	-9.34531
貴賤	-9.34651
八十	-9.34711
三十四	-9.34748
違	-9.34757
畧	-9.34776
其數	-9.34974
倒	-9.35011
厥	-9.35095
而下	-9.35129
也其	-9.35178
在午	-9.35183
同人	-9.35225
獻	-9.35283
亦然	-9.35284
天后	-9.35312
螣蛇	-9.35313
住	-9.35432
中國	-9.35544
日之	-9.35668
愁	-9.35785
在子	-9.35857
當生	-9.35886
未濟	-9.36168
洛書	-9.3619
四象	-9.36263
四十五	-9.3628
刀	-9.36328
側	-9.36338
待	-9.36411
厭	-9.36553
本命	-9.36644
計都	-9.36761
客星犯	-9.36809
帝座	-9.36836
巧	-9.36878
務	-9.3695
丁夘	-9.37203
海中占曰	-9.37226
犯守	-9.37292
在亥	-9.37333
奴僕	-9.37412
途	-9.37467
回	-9.37471
吳	-9.37474
巳午	-9.3756
始於	-9.37612
之物	-9.37715
脫	-9.37909
少隂	-9.3791
主有	-9.37966
嫁	-9.37979
大夫	-9.38025
遯	-9.38063
之始	-9.38325
族	-9.38336
四十八	-9.38377
䇿	-9.38402
巳酉丑	-9.38556
決	-9.3856
奇	-9.38873
在申	-9.38973
祿馬	-9.39006
分野	-9.39071
嚴	-9.39112
寛	-9.39158
軒轅	-9.39165
顧	-9.39391
為水	-9.39514
故名	-9.3955
儒	-9.39587
正官	-9.3961
偏官	-9.39652
妖	-9.39666
其餘	-9.39743
皆是	-9.39826
天上	-9.39945
迍	-9.40149
吕	-9.4031
小畜	-9.40335
品	-9.40355
徐	-9.40392
春秋緯曰	-9.40424
晝生	-9.40485
若逢	-9.40581
期三年	-9.40829
見之	-9.40928
上有	-9.40938
亦為	-9.41075
八字	-9.41111
乙木	-9.41146
閑	-9.41161
妾	-9.41178
謹	-9.41225
一月	-9.41284
人見	-9.41324
四分	-9.41363
屈	-9.41381
魁罡	-9.41407
逰	-9.41411
四星	-9.41471
丙火	-9.41558
四位	-9.4159
二日	-9.41614
水木	-9.41702
二宫	-9.41724
須女	-9.4174
居之	-9.42108
者皆	-9.42134
大將	-9.42135
逢之	-9.42185
恭	-9.42318
為一	-9.42352
分明	-9.424
交於	-9.42421
剛柔	-9.42506
燥	-9.42513
活	-9.4253
鳯	-9.42531
渙	-9.42532
叔	-9.42534
呉	-9.42547
四年	-9.42816
炎	-9.42893
輕重	-9.42914
遇之	-9.42953
乖	-9.42974
請	-9.43077
丙辛	-9.43132
蜀	-9.43147
無光	-9.4318
君臣	-9.43263
多死	-9.43265
彗星	-9.43275
若見	-9.43535
獸	-9.43545
凶神	-9.43622
遠	-9.4369
既濟	-9.43783
春分	-9.43933
觀之	-9.43944
大有	-9.44124
飢	-9.44166
故言	-9.44166
猪	-9.44251
迺	-9.44253
慮	-9.44267
唇	-9.44283
鷄	-9.44303
狀	-9.44393
丞相	-9.4441
孕	-9.44653
在未	-9.44657
行限	-9.44744
大過	-9.44764
游	-9.44771
九宫	-9.44808
懸	-9.44835
叛	-9.44852
百事	-9.44855
停	-9.44907
蠶	-9.44929
宗廟	-9.44931
拘	-9.44955
一氣	-9.45046
陳卓曰	-9.4514
六年	-9.45346
占病	-9.4535
鼓	-9.45441
在酉	-9.45463
悲	-9.45469
聽	-9.45496
嵗運	-9.4558
三十七	-9.4569
如何	-9.45723
閒	-9.45816
女子	-9.45849
乙庚	-9.45899
凶星	-9.46019
户	-9.46157
饒	-9.46176
天乙貴人	-9.46196
天牢	-9.46202
朱子	-9.46346
五行之	-9.46402
尖	-9.46434
三𫝊	-9.46445
立春	-9.46532
不行	-9.46542
在丑	-9.4658
秒	-9.46587
腎	-9.46646
骨肉	-9.46729
為凶	-9.46821
倉	-9.46868
北極	-9.46873
知其	-9.4702
歩	-9.47182
暮	-9.47231
夕	-9.47271
大運	-9.47285
禁	-9.4733
而行	-9.47387
刑害	-9.47428
名為	-9.47452
更有	-9.47492
甲木	-9.47709
斜	-9.47808
凌	-9.47841
丁壬	-9.47978
八十一	-9.48019
在天	-9.48184
草木	-9.48286
少陽	-9.48292
工	-9.48324
靣	-9.48475
為隂	-9.48527
省	-9.4854
妨	-9.48749
之後	-9.48761
只是	-9.48851
晚	-9.48879
其君	-9.48917
亨	-9.4896
沒	-9.48995
不如	-9.49002
璧	-9.49143
若在	-9.49163
記	-9.49454
兄	-9.49611
鹿	-9.49623
凖	-9.49647
續	-9.49648
索	-9.49658
歡	-9.4967
曹	-9.49697
陣	-9.49712
霧	-9.4977
竊	-9.49772
財星	-9.49792
二分	-9.49852
十分	-9.49881
熟	-9.49922
作事	-9.50029
者必	-9.50181
滛	-9.50276
婚姻	-9.50289
笑	-9.50315
珥	-9.50365
六爻	-9.50506
於此	-9.50883
觸	-9.50907
累	-9.50932
尺	-9.50955
旋	-9.50968
忠	-9.511
在上	-9.51143
又以	-9.51232
日行	-9.51259
三十五	-9.51309
五車	-9.51356
中年	-9.51405
惑	-9.51493
戴	-9.51584
加臨	-9.5175
得時	-9.51853
勿	-9.51903
單	-9.51914
太常	-9.51958
一分	-9.51995
赤道	-9.52013
秋分	-9.52027
域	-9.521
遷移	-9.52199
祀	-9.52223
衝破	-9.52244
財物	-9.52432
不盡	-9.52559
將相	-9.52655
為正	-9.52708
年月日時	-9.53037
午未	-9.53051
荆	-9.53251
三度	-9.53277
箇	-9.53359
有餘	-9.53441
格局	-9.53447
之兆	-9.53561
此宫	-9.53572
也又	-9.53693
嵗星犯	-9.53743
其下	-9.53912
穀	-9.54066
泥	-9.54098
振	-9.54185
辰星犯	-9.54193
科	-9.5433
此乃	-9.54334
蓍	-9.54407
填星犯	-9.54563
議	-9.54644
寄	-9.54673
句	-9.54683
荒	-9.54732
徴	-9.54768
貴神	-9.54775
不動	-9.54801
兎	-9.54841
天倉	-9.54983
錢	-9.55035
寅時	-9.55161
阻	-9.55175
貴顯	-9.55199
輿鬼	-9.55316
測	-9.5532
種	-9.55355
月蝕	-9.55373
丹	-9.55438
耶	-9.55441
三百	-9.55474
玉堂	-9.55474
无妄	-9.55475
戌亥	-9.55545
於是	-9.55703
家人	-9.55712
戊癸	-9.55773
大旱	-9.55988
故有	-9.55993
祭	-9.56003
剝	-9.56063
沐浴	-9.56069
味	-9.56114
病者	-9.56138
天馬	-9.56149
寅申	-9.56161
財旺	-9.56172
彗星出	-9.56291
太過	-9.56325
可知	-9.56389
京	-9.5661
晷	-9.56677
余	-9.56725
髪	-9.56747
男子	-9.56765
悉	-9.56766
姦	-9.56816
徑	-9.56836
其氣	-9.57053
三煞	-9.57059
凡占	-9.57195
夫婦	-9.57247
昔	-9.57339
茂	-9.57385
博	-9.57386
送	-9.57388
項	-9.57391
不必	-9.57402
不正	-9.57415
盗賊	-9.57421
欺	-9.57479
虞	-9.57488
叅	-9.57678
羅計	-9.57747
日為	-9.57779
煞星	-9.57987
幾	-9.58007
二十八宿	-9.58011
嗣	-9.58032
舒	-9.58051
竹	-9.58129
臨之	-9.58146
卯酉	-9.58162
東壁	-9.58281
天目	-9.58282
哀	-9.58318
逹	-9.58349
之體	-9.58371
嫁娶	-9.58374
色赤	-9.58447
一偏	-9.58457
之精	-9.58487
渾	-9.58504
戎	-9.58651
醜	-9.58673
見於	-9.58676
牽	-9.58678
十年	-9.58693
甘	-9.58759
辟	-9.58761
頤	-9.58795
値	-9.58846
七十二	-9.58846
在巳	-9.59098
故為	-9.59152
嘗	-9.59169
姑	-9.5938
是非	-9.59406
蒼	-9.59415
葉	-9.59432
凢	-9.59434
無窮	-9.59461
録	-9.59494
無成	-9.59595
之妙	-9.59602
風雨	-9.59713
之用	-9.59763
五鬼	-9.59843
於天	-9.59843
長官司	-9.59859
之處	-9.59882
路空	-9.59908
縱有	-9.59911
津	-9.6001
毫	-9.60101
滋	-9.60126
女命	-9.60168
往來	-9.60292
三刑	-9.60317
明夷	-9.60456
仇	-9.60531
不合	-9.60574
癸夘	-9.60674
四十二	-9.60686
藝	-9.60837
司馬	-9.6085
簡	-9.60861
賜	-9.609
郎	-9.60962
求財	-9.60996
罷	-9.61068
官符	-9.61089
平常	-9.61103
仙	-9.61173
乆	-9.61207
二百	-9.61447
鬭	-9.61453
辛金	-9.61473
六日	-9.61498
都憲	-9.6151
騰	-9.6152
墨	-9.61562
契	-9.61591
流行	-9.61654
古人	-9.61662
之内	-9.61699
疾厄	-9.61734
制伏	-9.61737
四十四	-9.61804
二交	-9.61805
耀	-9.61827
子時	-9.61868
天庭	-9.61883
卦氣	-9.61905
此言	-9.61915
去其	-9.61999
化為	-9.62087
班	-9.62142
以此	-9.62148
五穀	-9.62152
僧道	-9.62182
迷	-9.62185
者如	-9.6225
生物	-9.62256
衣食	-9.6233
不欲	-9.62344
大敗	-9.62669
濶	-9.62817
肩	-9.6282
地鏡曰	-9.62828
禀	-9.6283
廷	-9.62889
亡神	-9.62901
宻	-9.62907
算	-9.62908
屬木	-9.63242
土為	-9.63272
天下之	-9.633
易之	-9.63383
三星	-9.63404
癸水	-9.63442
身弱	-9.63448
沙	-9.63534
素	-9.63571
圗	-9.63594
懷	-9.63618
噬嗑	-9.63627
眀	-9.63657
末傳	-9.6369
月厭	-9.64017
人也	-9.64099
未為	-9.64202
趨	-9.6422
借	-9.64221
次之	-9.6427
刺	-9.64302
追	-9.64328
辱	-9.64356
猴	-9.6439
榮華	-9.64415
四仲	-9.64424
相應	-9.64565
惡星	-9.64569
安命	-9.64584
善惡	-9.64603
者是	-9.64606
醫	-9.6468
育	-9.64685
立命	-9.64789
一宫	-9.64798
太微	-9.64822
此格	-9.64833
五十五	-9.64839
人事	-9.64959
為鬼	-9.65042
鋒	-9.65048
底	-9.65073
六親	-9.65096
殷	-9.65099
頥	-9.65099
桓	-9.65107
同行	-9.65118
且如	-9.65133
座	-9.65172
甲日	-9.65217
堪	-9.65244
農	-9.65318
官事	-9.65433
若無	-9.65548
投	-9.65579
以成	-9.65647
邜	-9.65668
錫	-9.65712
一嵗	-9.65727
桃花	-9.65765
巢	-9.65769
三十八	-9.6589
華葢	-9.66011
已上	-9.66065
其上	-9.66094
其義	-9.66123
當之	-9.66134
朱子曰	-9.66234
終始	-9.66349
在辰	-9.66481
洞	-9.6651
最為	-9.66532
三十九	-9.66558
擇	-9.66628
萬里	-9.66824
倫	-9.66862
大畜	-9.6687
亦吉	-9.66977
色青	-9.67212
促	-9.67216
狂	-9.67223
取其	-9.6724
牙	-9.67251
上見	-9.67276
眞	-9.67278
月暈	-9.6734
庚金	-9.67386
相刑	-9.67421
終於	-9.67449
無疑	-9.67514
死於	-9.67551
戮	-9.67588
無不	-9.67653
敢	-9.67667
木為	-9.67687
損益	-9.67699
文王	-9.67731
大凶	-9.67764
不以	-9.67791
雉	-9.67827
稽	-9.67836
鍾	-9.67853
梟	-9.67856
隂氣	-9.67911
凝	-9.67931
賴	-9.6798
規	-9.68013
夫妻	-9.68203
又名	-9.68241
十二辰	-9.684
天下有	-9.68417
在戌	-9.68424
亥為	-9.6856
大煞	-9.68582
上元	-9.68616
塵	-9.68666
㫖	-9.68717
旬空	-9.68856
則以	-9.689
夭折	-9.68989
或有	-9.6905
官福	-9.69114
生死	-9.69193
刑囚	-9.69395
皆主	-9.69434
可見	-9.695
第二	-9.69527
黄帝曰	-9.69599
百姓	-9.696
四十三	-9.69631
己午	-9.69725
不言	-9.69824
焦	-9.69841
為妻	-9.69887
動靜	-9.69917
妻妾	-9.69929
廟旺	-9.69954
麥	-9.69985
泄	-9.70004
不論	-9.70136
也凡	-9.70174
曉	-9.70193
筮	-9.70237
抑	-9.70264
焚	-9.7027
重重	-9.70394
則不	-9.70489
四十六	-9.70595
不免	-9.70626
五度	-9.70712
之方	-9.70727
絡	-9.70755
迫	-9.70928
寅為	-9.70941
先生	-9.70947
慢	-9.70951
秉	-9.70986
有三	-9.7099
肺	-9.70993
放	-9.71001
怨	-9.71026
潛	-9.71029
充	-9.71047
砂	-9.7124
一世	-9.71267
五分	-9.71295
之辰	-9.71322
不敢	-9.71335
更得	-9.71348
居中	-9.71434
者亦	-9.71447
去之	-9.71538
厲	-9.71608
睽	-9.71734
毁	-9.71742
換	-9.71745
蕃	-9.71748
不定	-9.71792
戊己	-9.71793
貴氣	-9.71855
有水	-9.72057
百二十	-9.72244
大壯	-9.72286
訣	-9.72304
變而	-9.72306
荆州占曰太白	-9.72363
巳為	-9.72365
死氣	-9.72435
初傳	-9.7246
鷹	-9.72461
也此	-9.72476
冥	-9.7259
擬	-9.72614
司命	-9.72716
惠	-9.72761
其年	-9.72803
以下	-9.72941
午時	-9.72942
厯例曰	-9.72976
此是	-9.72991
若得	-9.72994
之士	-9.7308
流星犯	-9.7314
國有	-9.73203
睛	-9.73216
某	-9.73288
脚	-9.73297
聳	-9.73308
皇后	-9.73316
有大	-9.73332
談	-9.73335
五榖	-9.73341
冝	-9.73343
雌	-9.73344
兔	-9.73374
子午卯酉	-9.73377
午為	-9.73507
騎	-9.73536
般	-9.73568
為害	-9.73782
改元	-9.73788
刄	-9.73913
日出	-9.73928
皆有	-9.73934
之謂	-9.73941
也夫	-9.73969
减	-9.7397
材	-9.74058
準	-9.74086
麗	-9.74107
九星	-9.7412
三千六百	-9.74124
乏	-9.74127
告	-9.74135
寵	-9.74144
天下大亂	-9.74156
丑為	-9.7423
賔	-9.74253
子息	-9.74474
之象象曰	-9.74804
猛	-9.74843
昧	-9.74844
裁	-9.74889
二十日	-9.749
火木	-9.74919
脩	-9.74933
密	-9.74966
准	-9.75061
者謂	-9.75076
不喜	-9.75115
六分	-9.75121
申時	-9.75183
郗萌曰熒惑	-9.75353
佳	-9.75355
在下	-9.75492
洪範	-9.75503
主貴	-9.75602
吟	-9.75603
不出其年	-9.75637
萌	-9.75685
壓	-9.7569
堯	-9.75693
頼	-9.75707
瑞	-9.7571
貴格	-9.75727
顔曰	-9.75729
守之	-9.75741
繁	-9.75745
自刑	-9.75823
月將	-9.75876
寅夘	-9.75891
若還	-9.75931
始終	-9.75939
則凶	-9.75995
雪	-9.76027
星出	-9.76043
失其	-9.76052
五十六	-9.76085
故云	-9.761
丁火	-9.76132
分為	-9.76175
四十一	-9.76192
更加	-9.76257
二千四百	-9.76281
之數也	-9.76293
氣之	-9.76293
邵子	-9.76303
戌為	-9.76338
彗孛犯	-9.76415
剋	-9.76422
天狗	-9.76457
元武	-9.76489
得位	-9.7651
體用	-9.76517
月中	-9.76522
壞	-9.76539
謝	-9.76543
時上	-9.76613
夘酉	-9.76621
子曰	-9.76668
為兵	-9.76689
非常	-9.76728
一作	-9.76759
見金	-9.76853
光明	-9.76861
然則	-9.76923
出行	-9.76967
制之	-9.77164
一千二百	-9.77173
學者	-9.77252
予	-9.77258
肝	-9.77282
勇	-9.77291
至于	-9.77328
期二年	-9.7737
伏吟	-9.77392
内有	-9.77437
生子	-9.77469
色白	-9.77569
天徳	-9.77772
溢	-9.77778
願	-9.7779
亥時	-9.7787
十二宫	-9.77969
召	-9.7815
纒	-9.78156
有情	-9.78161
童	-9.78194
六畜	-9.78232
在外	-9.78275
正月起	-9.78331
則主	-9.78497
有喜	-9.78508
大衍	-9.78621
格如	-9.78627
幸	-9.78679
豪	-9.78693
而上	-9.78708
坤之	-9.78708
月行	-9.78776
之例	-9.78796
矣故	-9.78799
熱	-9.78882
旺氣	-9.78888
廬	-9.78936
合於	-9.78963
頂	-9.78974
有一	-9.78979
竟	-9.78995
之水	-9.79026
惡死	-9.79047
之前	-9.79049
最怕	-9.79224
客星	-9.79242
有救	-9.79265
此星	-9.79345
大赦	-9.79418
即是	-9.79427
屬水	-9.79477
一名天	-9.79563
也假令	-9.79569
孰	-9.79639
須要	-9.79716
茍	-9.79763
桑	-9.79778
濕	-9.79789
蔡	-9.7981
有四	-9.79814
期一年	-9.79824
戾	-9.79849
述	-9.79869
金匱	-9.79894
中間	-9.79932
數之	-9.79937
一刻	-9.79968
孔子	-9.80067
官祿	-9.8008
最忌	-9.80191
日中	-9.80204
刑尅	-9.80217
二位	-9.80252
天中	-9.80288
無子	-9.80379
湯	-9.80441
申為	-9.80473
弓	-9.80593
頑	-9.80644
通書	-9.80679
互換	-9.80683
晨	-9.80685
賈	-9.80704
凉	-9.80708
一千四百	-9.80711
亦無	-9.80874
一時	-9.80885
健	-9.81077
屬火	-9.81131
洛	-9.81132
此卦	-9.8135
於上	-9.81393
其位	-9.8145
一千三百	-9.81463
麻	-9.81463
奴婢	-9.81467
削	-9.81493
捕	-9.81494
洪	-9.81502
變為	-9.81511
較	-9.81516
斷之	-9.8152
馳	-9.81531
随	-9.81536
益之	-9.81538
不死	-9.81621
門户	-9.81662
黄帝	-9.81687
為上	-9.81707
百里	-9.81719
與日	-9.81795
其間	-9.81861
孛星	-9.81867
氏曰	-9.82167
四維	-9.82172
言其	-9.82173
切忌	-9.82199
二千五百	-9.82271
擾	-9.82282
戊土	-9.82298
典	-9.82316
唐開元占經卷	-9.82331
入於	-9.82368
責	-9.8237
着	-9.82371
領	-9.82381
火為	-9.82489
牢	-9.82586
㸃	-9.82601
隂陽之	-9.82696
月為	-9.82736
疊	-9.82758
酉為	-9.82844
以生	-9.82862
一千一百	-9.8289
遥	-9.82945
月孛	-9.82949
虹	-9.83001
也然	-9.83018
詔	-9.83034
三千五百	-9.83089
不祥	-9.83167
伸	-9.83227
灰	-9.83245
監	-9.83251
第三	-9.83251
毎	-9.8327
吉將	-9.83322
五十四	-9.83455
有力	-9.8347
明年	-9.83615
無情	-9.83688
京氏曰	-9.83732
功曹	-9.8388
生日	-9.83906
一千五百	-9.83936
藥	-9.84002
主事	-9.84019
易曰	-9.84021
病符	-9.84056
五十二	-9.84083
終身	-9.84101
杜	-9.84105
壬水	-9.84128
有財	-9.84196
帶煞	-9.84246
五十一	-9.84284
四度	-9.84292
反覆	-9.84348
田財	-9.84524
此為	-9.84562
驛	-9.84574
吉曜	-9.84584
清明	-9.84765
誰	-9.84772
酉時	-9.8478
周天	-9.84822
觧	-9.84955
聖洽符曰	-9.84969
未有	-9.84979
蔵	-9.85013
旣	-9.85019
踈	-9.85023
二千六百	-9.85037
三位	-9.85039
動摇	-9.85103
是故	-9.85327
上神	-9.85385
綱	-9.85416
父子	-9.85433
五十七	-9.85438
二度	-9.85474
二者	-9.85484
所生	-9.85525
牧	-9.85662
選	-9.85673
十五日	-9.85734
屬金	-9.85785
不出三年	-9.85816
頗	-9.85835
物之	-9.85839
金土	-9.85845
三千二百	-9.85859
秘	-9.85868
孤寡	-9.85911
身宫	-9.85942
相去	-9.85952
其星	-9.86147
調	-9.8615
見火	-9.86179
之火	-9.86266
丑時	-9.86327
年命	-9.86345
二氣	-9.86345
道路	-9.86383
河圖曰	-9.86395
之言	-9.86546
植	-9.86635
二千八百	-9.86647
合而	-9.86652
此時	-9.86655
㓕	-9.86661
把	-9.86738
也此課	-9.86747
𢃄	-9.86841
六陽	-9.86853
喜神	-9.87011
示	-9.87115
截	-9.87116
之學	-9.87221
亥子丑	-9.87255
日躔	-9.87416
郭	-9.87444
樹	-9.87459
河魁	-9.87492
雨水	-9.87518
一千八百	-9.87519
同類	-9.8757
影	-9.87574
鈎	-9.87576
度主	-9.87579
两	-9.87583
二千九百	-9.87643
有用	-9.87678
二千七百	-9.87716
勝光	-9.87728
時逢	-9.87782
左角	-9.87836
月犯	-9.87842
而蝕	-9.87869
失地	-9.87967
子為	-9.88064
聖人之	-9.88068
破敗	-9.88068
四十七	-9.88109
之本	-9.88126
太歳	-9.88229
四日	-9.8823
十五度	-9.88239
成敗	-9.88248
熒	-9.8826
火金	-9.88405
其説	-9.88584
即為	-9.88591
壊	-9.886
希	-9.88606
於下	-9.88615
資財	-9.88667
而反	-9.88681
小兒	-9.88704
公卿	-9.88707
手足	-9.88795
山林	-9.88869
一字	-9.88927
定主	-9.88943
潤澤	-9.89062
不在	-9.89151
取用	-9.89179
膽	-9.89207
弔客	-9.89211
九度	-9.89228
故稱	-9.89259
侍	-9.89286
聰	-9.89299
故曰云云劉曰	-9.8934
𦂳	-9.89341
熊	-9.8939
詞	-9.89398
日暈	-9.894
當以	-9.89409
歌曰	-9.89416
波	-9.89451
翻	-9.89452
邉	-9.89464
䕃	-9.89539
木局	-9.89546
皆不	-9.89555
之外	-9.89608
三台	-9.89609
逢生	-9.89703
之木	-9.89715
為災	-9.89739
書曰	-9.89757
他人	-9.89759
而終	-9.89773
煩	-9.89775
者貴	-9.89797
慈	-9.8994
而復	-9.89984
第四	-9.90072
一千七百	-9.90106
方為	-9.90113
不來	-9.90138
右行	-9.90218
三千三百	-9.9029
也又曰	-9.90315
三才	-9.90353
報	-9.90353
若守之	-9.9039
拆	-9.90402
祭祀	-9.90413
罔	-9.90446
十度	-9.90476
刑傷	-9.9049
二千三百	-9.90506
又是	-9.90524
狀元	-9.90539
諸星	-9.90563
髙强	-9.90658
十二支	-9.90748
郗萌曰嵗星	-9.90844
坐命	-9.90849
故謂之	-9.91036
巳時	-9.91042
文昌	-9.9107
三千七百	-9.91079
豕	-9.91125
三千四百	-9.91125
一千六百	-9.91165
三千一百	-9.91218
舞	-9.91279
天盤	-9.91301
役	-9.91311
奏	-9.91321
仲尼	-9.91375
起兵	-9.91386
莊	-9.91391
股	-9.91395
庸	-9.9142
三千九百	-9.91436
立秋	-9.91548
氣如	-9.91639
妻財	-9.91836
之土	-9.91853
必然	-9.91864
此二	-9.91907
為妙	-9.91929
為火	-9.92
三千八百	-9.92001
五十九	-9.9205
四千一百	-9.92061
本宫	-9.92152
鶴	-9.92156
排	-9.92191
者是也	-9.92204
式	-9.92225
仕	-9.92228
播	-9.92266
倘	-9.9228
得失	-9.92284
太㣲	-9.92294
騐	-9.92294
占事	-9.923
其理	-9.92334
入墓	-9.92371
道也	-9.92407
乃是	-9.92465
有福	-9.92483
相㑹	-9.92607
正印	-9.92711
而用	-9.92741
乙日	-9.92761
不生	-9.92766
完	-9.92822
戌時	-9.92891
蕩	-9.92908
克日	-9.92918
天市	-9.93079
其人	-9.93126
九年	-9.93139
涉	-9.93158
峯	-9.93178
官貴	-9.93187
氣也	-9.93244
熈	-9.93248
舟	-9.93252
地盤	-9.93259
喪門	-9.93272
犯之	-9.9328
在地	-9.93315
中宫	-9.93432
則是	-9.93492
必定	-9.9351
之名	-9.93567
妻宫	-9.93631
無咎	-9.93665
萬事	-9.93699
賛	-9.93742
火旺	-9.93779
主死	-9.93841
惡曜	-9.93939
自有	-9.93991
二百四十	-9.94001
古今	-9.94052
揲	-9.94069
流星入	-9.94069
至此	-9.94076
何曰	-9.94178
社	-9.94205
也故曰	-9.9421
六度	-9.94221
牛馬	-9.94229
圎	-9.94254
尤甚	-9.94313
必是	-9.94402
文武	-9.94449
歲運	-9.94478
六隂	-9.94561
帛	-9.94597
官職	-9.94687
中之	-9.94712
生者	-9.9474
裂	-9.94866
一千九百	-9.94884
相對	-9.94946
詐	-9.95058
矢	-9.95064
四千二百	-9.95083
最喜	-9.951
僕	-9.95104
科名	-9.9511
祖業	-9.95123
亦貴	-9.95126
不遇	-9.9513
埋	-9.95146
友	-9.95154
入廟	-9.95181
有二	-9.95206
耕	-9.95216
行運	-9.95219
破碎	-9.95258
受尅	-9.95303
皆吉	-9.95442
若不	-9.9556
六星	-9.95598
春生	-9.95632
天下大	-9.95633
反為	-9.95784
先後	-9.95861
悦	-9.95987
方可	-9.96014
之謂也	-9.96031
月日時	-9.96042
客星守	-9.96044
今日	-9.96052
攝提	-9.96076
晴	-9.96077
脾	-9.96086
五十三	-9.961
舜	-9.96113
習	-9.96119
偽	-9.96135
彌	-9.96137
撰	-9.96141
吐	-9.96145
之序	-9.96205
丗	-9.9622
雅	-9.96237
年正月	-9.96259
日月星辰	-9.9627
立夏	-9.96319
甘氏讃曰	-9.96352
之國	-9.96377
孤獨	-9.96497
三千	-9.96638
逺行	-9.96677
或曰	-9.96741
二千	-9.96787
主客	-9.96804
秋生	-9.96847
其邑	-9.9685
匿	-9.96958
㓜	-9.96971
不勝	-9.96986
六十日	-9.97004
托	-9.97015
罰	-9.97053
織女	-9.97067
乍	-9.97101
寅申巳亥	-9.97101
憑	-9.97111
者多	-9.97111
辰上	-9.97113
陶	-9.97145
之官	-9.97146
皮	-9.9717
未時	-9.97216
周而復始	-9.97222
小吉	-9.9723
七年	-9.97463
布政	-9.97505
受制	-9.97514
納甲	-9.97525
建禄	-9.97579
第五	-9.97682
倣此	-9.97822
則無	-9.97986
淮	-9.98007
大富	-9.9806
謬	-9.98064
快	-9.9807
欽	-9.98115
屠	-9.9812
添	-9.98126
㧞	-9.98139
臣下	-9.98165
升降	-9.98201
之卦	-9.98215
師之	-9.9824
無官	-9.98325
之分	-9.98347
格也	-9.98415
萬物之	-9.98435
之道也	-9.98551
生尅	-9.98552
之性	-9.9874
夘時	-9.98753
豹尾	-9.98841
正位	-9.98978
之災	-9.98995
氷	-9.99047
有喪	-9.99051
階	-9.99055
娶	-9.99091
爻變	-9.99106
顛	-9.9911
冦	-9.99143
贏	-9.99192
有五	-9.99202
天官書曰	-9.99237
其道	-9.99283
荆州占曰熒惑	-9.99351
為亂	-9.99353
守禦千户所	-9.9945
尅制	-9.99482
乗之	-9.99501
生我	-9.99503
一尺	-9.99521
庚日	-9.99552
消長	-9.99611
欽定四庫全書唐開元占經卷	-9.99662
死者	-9.997
星在	-9.99716
相貌	-9.99892
者謂之	-9.99898
福德	-9.99905
方位	-10
十二度	-10
有謀	-10.0004
岳	-10.0011
肆	-10.0016
香	-10.0016
蓬	-10.0016
吞	-10.0018
現	-10.0023
灼	-10.0025
貢	-10.0025
廼	-10.0025
網	-10.0035
申酉戌	-10.0038
月在	-10.0041
之貴	-10.0045
晚年	-10.0046
人所	-10.0048
地下	-10.0054
王良	-10.0057
宫室	-10.0063
癸日	-10.0066
亦名	-10.0069
寅午	-10.0073
覺	-10.0078
熒惑入	-10.0085
寸	-10.0091
一元	-10.0092
判	-10.0093
占之	-10.0102
為地	-10.0102
妃	-10.0106
校	-10.0109
喻	-10.011
四課	-10.011
穿	-10.0111
貫索	-10.0112
生成	-10.0116
迹	-10.0118
天津	-10.0119
有官	-10.0124
六十四卦	-10.0126
二三	-10.013
多主	-10.0137
常人	-10.0142
在卯	-10.0156
水為	-10.016
大寒	-10.016
未免	-10.0167
入太微	-10.0167
乾之	-10.0179
認	-10.0185
之極	-10.0188
讒	-10.019
析	-10.0194
以正	-10.0204
天下有兵	-10.0209
死亡	-10.0212
無有	-10.023
四夷	-10.0233
為煞	-10.024
有兵起	-10.0241
流血	-10.0246
天喜	-10.0249
官鬼	-10.0255
五位	-10.0257
節之	-10.0259
不貴	-10.0263
巫	-10.0267
除之	-10.0272
動而	-10.0276
餘分	-10.0278
破財	-10.0281
日忌	-10.0284
不至	-10.0298
之際	-10.0302
身强	-10.0308
六壬	-10.0312
或以	-10.0314
中元	-10.0314
人有	-10.0316
福星	-10.0316
闢	-10.0319
如是	-10.0322
肅	-10.0323
吴	-10.0325
討	-10.0325
釐	-10.0327
亥加	-10.0328
委	-10.0331
劒	-10.0332
隣	-10.0334
乂	-10.0336
是時	-10.0336
柄	-10.0343
六百	-10.0349
在前	-10.0358
不順	-10.036
同位	-10.0367
象也	-10.0379
乾亥	-10.0381
安身	-10.0394
疫	-10.0395
下有	-10.0398
者即	-10.0403
之餘	-10.0404
命中	-10.0405
未可	-10.0413
恃	-10.0424
佞	-10.0429
其次	-10.0432
羽林	-10.0433
之次	-10.0434
演	-10.0442
郊	-10.0445
瑩	-10.0445
大戰	-10.0449
法推	-10.0451
歟	-10.0458
顔	-10.0461
一身	-10.0475
五色	-10.048
互相	-10.0483
内亂	-10.0484
客星出	-10.0485
世之	-10.0489
日上	-10.049
襄	-10.049
無救	-10.0497
者非	-10.0508
弦	-10.0508
角亢	-10.0511
京房	-10.0518
九州	-10.0522
如逢	-10.0523
客星入	-10.0525
輿	-10.053
欽定四庫全書	-10.0537
屬土	-10.054
禱	-10.0542
筋	-10.0543
躍	-10.0544
次三	-10.0546
而論	-10.0548
諸事	-10.0551
廿	-10.0555
陳曰	-10.0568
一百八十	-10.0569
北辰	-10.0574
柱有	-10.0581
又名天	-10.0588
榮貴	-10.0591
隂陽相	-10.0602
於地	-10.0616
所居	-10.0618
火局	-10.0625
憲	-10.0632
入垣	-10.0636
卧	-10.0644
題	-10.0646
餘倣此	-10.0648
誕	-10.065
跡	-10.0652
籍	-10.0653
盈縮	-10.0653
潔	-10.0653
寃	-10.0654
藉	-10.0656
初年	-10.0656
身主	-10.0658
訖	-10.0667
時日	-10.0668
之運	-10.0672
忽然	-10.0679
第六	-10.0693
不寧	-10.0697
溺	-10.0697
起例	-10.0701
者其	-10.0709
得此	-10.071
為竒	-10.0719
程	-10.0728
元辰	-10.073
立冬	-10.0736
居於	-10.0743
天一	-10.0743
清貴	-10.0743
有罪	-10.0748
運至	-10.0749
弗	-10.0754
杖	-10.0756
奥	-10.0761
伏羲	-10.0764
月生	-10.0767
不妨	-10.0768
翕	-10.0769
該	-10.0771
百六	-10.0773
而言之	-10.0783
相扶	-10.0784
金局	-10.079
寅亥	-10.0796
赤色	-10.0797
與月	-10.0797
天獄	-10.0801
不失	-10.0804
僧	-10.0805
之義也	-10.0806
失位	-10.0806
財禄	-10.0807
成就	-10.0812
暑	-10.0817
長安	-10.0821
四孟	-10.0832
十里	-10.0837
七政	-10.0841
四九	-10.0842
掛	-10.0845
禾	-10.0855
八煞	-10.0864
曽	-10.0866
宇	-10.0867
勤	-10.0872
策	-10.0874
淳	-10.0875
攝	-10.0876
見水	-10.0878
三四	-10.0879
人多	-10.0879
穆	-10.0883
冠帶	-10.0886
飛鳥	-10.0888
足以	-10.0888
辛日	-10.089
此課	-10.09
顯達	-10.0904
銳	-10.0906
八宫	-10.091
丙日	-10.091
死符	-10.091
多則	-10.0913
尅妻	-10.0916
五六	-10.0922
之情	-10.0922
四海	-10.0924
一般	-10.0935
三宫	-10.0938
公侯	-10.0946
艮之	-10.0948
樓	-10.0955
十三度	-10.0957
在内	-10.0959
上九	-10.0962
無用	-10.0963
九分	-10.0967
當權	-10.097
命坐	-10.0971
帥	-10.0974
行度	-10.0978
金為	-10.0979
尸	-10.098
那	-10.098
賞	-10.0982
以五	-10.0982
頓	-10.0983
逸	-10.0993
牛生	-10.0995
虎豹	-10.1003
如甲子	-10.102
而出	-10.1029
六儀	-10.1032
註曰	-10.1036
辰時	-10.1036
人道	-10.1038
無破	-10.1044
泛	-10.1047
獨火	-10.1063
飛亷	-10.1066
偏財	-10.1067
天文	-10.1078
大角	-10.1083
筆	-10.1093
竭	-10.1094
天鏡曰	-10.1102
峻	-10.1103
㝛	-10.1104
夲	-10.1105
天刑	-10.1106
循環	-10.1107
之䇿	-10.1113
官旺	-10.1114
民多	-10.1122
建星	-10.1124
隅	-10.1127
詩云	-10.1129
之初	-10.1132
郗萌曰填星	-10.1134
一卷	-10.1169
五十八	-10.1174
觀其	-10.118
閣	-10.1182
之君	-10.1183
木生	-10.1183
卯為	-10.1186
叚	-10.1199
俯	-10.1201
融	-10.1204
居官	-10.1207
車騎	-10.1209
鴻	-10.121
唐瞿曇悉達撰	-10.121
己酉丑	-10.1212
不變	-10.1212
乳	-10.1213
節氣	-10.1213
閣老	-10.1214
以定	-10.1215
浪	-10.1216
所求	-10.1216
鉞	-10.1217
忘	-10.1217
費	-10.1219
拱夾	-10.1223
純陽	-10.1229
將死	-10.123
用兵	-10.1234
已為	-10.1255
小運	-10.1256
相連	-10.1257
之疾	-10.126
也或	-10.126
寜	-10.1266
尾箕	-10.1267
丙戊	-10.1268
首尾	-10.1273
㑹於	-10.1289
人物	-10.1296
夜半	-10.1312
七分	-10.1312
大利	-10.1314
従	-10.1316
為金	-10.1317
次五	-10.1318
耦	-10.132
經辰之	-10.1321
朋	-10.1322
祠	-10.1323
其形	-10.1325
證	-10.1326
貨	-10.1326
寒暑	-10.1327
也今	-10.1327
珍	-10.1327
狹	-10.1328
土也	-10.1328
操	-10.1329
宰	-10.1329
園	-10.1331
不是	-10.1333
俊	-10.1334
俱吉	-10.1335
坼	-10.1335
獅子	-10.1338
繩	-10.1341
日者	-10.1344
威權	-10.1356
失時	-10.1358
干頭	-10.1362
其性	-10.1368
故主	-10.1377
無力	-10.1382
燒	-10.1384
老陽	-10.1386
次四	-10.1389
求之	-10.139
發財	-10.1399
天下亂	-10.1409
吉㐫	-10.1411
之交	-10.1417
無傷	-10.1421
武曲	-10.1421
有疾	-10.1423
有權	-10.1426
無害	-10.1427
見土	-10.1429
見木	-10.1429
成功	-10.143
曰天	-10.1433
當時	-10.1434
值此	-10.1435
所臨	-10.1435
雲氣	-10.1444
祐	-10.1444
銜	-10.1444
略	-10.1446
須知	-10.1448
䕶	-10.1449
尒	-10.145
飾	-10.1451
糧	-10.1453
天數	-10.1462
雍	-10.1465
丑月	-10.1472
亡地	-10.1473
午加	-10.1477
秀氣	-10.1478
歲星	-10.1485
午月	-10.1487
二隂	-10.1488
火孛	-10.1492
其日	-10.1498
水局	-10.15
凶惡	-10.1502
財庫	-10.1505
非其	-10.1513
日入	-10.152
帝王	-10.152
天官符	-10.1523
初度	-10.1524
地户	-10.1525
傷殘	-10.1529
有變	-10.1531
日雨	-10.1532
巳土	-10.1535
豆	-10.1548
黍	-10.1549
鐘	-10.155
水之	-10.1551
文書	-10.1552
徹	-10.1558
稟	-10.1561
寇	-10.1562
驅	-10.1562
鑑	-10.1564
在其中	-10.1564
疎	-10.1566
之應	-10.1566
麄	-10.157
朝廷	-10.1572
無形	-10.1572
言之則	-10.1572
昆	-10.1572
象數	-10.1576
多是	-10.1576
未嘗	-10.1584
左行	-10.1585
次六	-10.1587
八年	-10.1589
有䘮	-10.1593
亥夘未	-10.1596
衆星	-10.1597
太𤣥	-10.1599
自旺	-10.16
其主	-10.1608
衣禄	-10.161
得令	-10.1617
生枝	-10.1623
之患	-10.1626
用數	-10.1628
中和	-10.1628
土木	-10.1633
引從	-10.1635
後有	-10.165
巨門	-10.1653
船	-10.1664
叠	-10.1666
員	-10.1671
佛	-10.1675
亦以	-10.1682
撓	-10.1683
哭泣	-10.1684
冷	-10.1685
斬	-10.1685
掃	-10.1686
割	-10.1688
子午夘酉	-10.1689
鮮	-10.169
為四	-10.1693
土功	-10.1693
徤	-10.1695
山川	-10.17
山崩	-10.1706
平平	-10.1707
不犯	-10.1707
色黄	-10.172
一卦	-10.1723
之功	-10.1728
十有二	-10.1729
次七	-10.1737
金玉	-10.174
月破	-10.1743
相克	-10.1745
七十六	-10.1748
必死	-10.1757
遇此	-10.1757
一也	-10.1757
性情	-10.1767
八度	-10.1773
左旋	-10.1778
十二日	-10.178
豹	-10.1782
巳亥	-10.1782
嶽	-10.1788
遣	-10.1799
生月	-10.1802
痛	-10.1802
錄	-10.1804
辯	-10.1806
醉	-10.1806
無極	-10.1807
相衝	-10.1809
託	-10.1809
襲	-10.181
繇	-10.1811
則應	-10.1811
邱	-10.1815
一百二十	-10.1816
嗔	-10.1817
縱横	-10.1823
為本	-10.1826
財印	-10.1834
成數	-10.1836
對照	-10.1837
二字	-10.1845
初一	-10.1851
惡之	-10.1855
出軍	-10.1855
陽明	-10.1858
之首	-10.1865
入宫	-10.1869
周禮	-10.1871
對衝	-10.1873
皆在	-10.1887
蒙之	-10.189
八分	-10.1894
忌星	-10.1895
奏書	-10.1899
七度	-10.1902
凶煞	-10.1905
公子	-10.1909
上文	-10.1916
湖	-10.1917
月宿	-10.192
喜忌	-10.1924
庻	-10.1926
響	-10.1926
地上	-10.1926
編	-10.1926
囊	-10.1928
括	-10.1931
岐	-10.1932
祝	-10.1932
勲	-10.1934
竈	-10.1935
相配	-10.1936
隂府	-10.1938
鼠	-10.1942
屏	-10.1943
九十六	-10.1947
六十三	-10.1949
禄主	-10.1949
律吕	-10.1951
大雪	-10.1968
道之	-10.1978
東行	-10.1981
尅害	-10.1981
得一	-10.199
下賤	-10.1997
夫人	-10.1998
又占曰	-10.2
在命	-10.2002
之臣	-10.2009
一箇	-10.2011
用也	-10.2017
百一十	-10.2017
三命	-10.2019
今以	-10.202
其色	-10.2028
一星在	-10.2031
而未	-10.2045
傳送	-10.2046
導	-10.2047
疏	-10.2053
纔	-10.2054
彰	-10.2054
齋	-10.2054
飄	-10.2055
𦵏	-10.2055
欠	-10.2055
直符	-10.2057
緒	-10.2058
戸	-10.2059
磨	-10.2059
塗	-10.2059
曾	-10.206
則曰	-10.2061
逼	-10.2062
塡星	-10.2062
鄙	-10.2065
飲食	-10.2065
陽也	-10.2066
諸家	-10.2071
歸於	-10.2074
所為	-10.2076
曲直	-10.2081
文學	-10.2083
八日	-10.2087
戊日	-10.2097
厨	-10.2099
由是	-10.2109
逺近	-10.211
地動	-10.2111
催官	-10.2111
見其	-10.2113
逆數	-10.2116
再見	-10.2123
日月之	-10.2127
相助	-10.213
六辛	-10.2134
其後	-10.2143
摇	-10.2146
大耗	-10.2147
博士	-10.2149
黄色	-10.2155
戌加	-10.2156
入命	-10.2168
享福	-10.2171
苗	-10.2179
蘇	-10.218
竅	-10.2182
億	-10.2182
不復	-10.2188
最宜	-10.2191
寡宿	-10.2196
貧窮	-10.2197
大人憂	-10.2198
不當	-10.22
身命主	-10.221
斗杓	-10.221
甲戊庚	-10.2213
三光	-10.2222
六十二	-10.2224
周公	-10.2224
糴貴	-10.2228
此則	-10.223
不畏	-10.2235
之形	-10.2241
萬民	-10.2241
上安命	-10.2254
此理	-10.2255
無財	-10.2259
寅月	-10.2262
兵革	-10.2263
入格	-10.2266
數至	-10.2268
而死	-10.2276
不從	-10.228
壬日	-10.2281
命之	-10.2283
如遇	-10.2294
旺於	-10.2295
喜見	-10.2297
㝠	-10.2306
踰	-10.2306
悖	-10.2306
各以	-10.2307
驟	-10.2308
成器	-10.231
奮	-10.2313
洩	-10.2313
繞	-10.2314
􁀙	-10.2317
化氣	-10.2323
丨悔	-10.2327
積筭起	-10.233
十二分	-10.2331
五諸侯	-10.2331
九日	-10.2332
六位	-10.2338
石氏曰嵗星	-10.2341
巳日	-10.2343
莫不	-10.2345
為母	-10.2346
之心	-10.2349
三限	-10.2354
巳上	-10.2359
必得	-10.2365
封侯	-10.2372
無憂	-10.238
自立	-10.2388
取之	-10.2391
太后	-10.2402
多病	-10.2411
之終	-10.2415
之所以	-10.2417
刼財	-10.2422
文曲	-10.2429
有功	-10.2431
鵲	-10.2432
地官符	-10.2433
酒色	-10.2437
故不	-10.2437
鐵	-10.2438
腦	-10.244
瘦	-10.2444
無定	-10.2445
增	-10.2445
福星貴人	-10.2446
妬	-10.2447
宰相	-10.2455
霹靂	-10.2456
取象	-10.2456
逃亡	-10.2459
百八十	-10.2461
為君	-10.2469
扶持	-10.2471
日十二時	-10.2471
七宿	-10.2473
郗萌曰熒惑守	-10.2474
受命	-10.2478
仁義	-10.248
大而	-10.249
何如	-10.2492
其法	-10.2498
忌見	-10.2503
其神	-10.251
三辰	-10.2513
於外	-10.2518
申加	-10.2529
申宫	-10.2529
月值	-10.2534
陽縣	-10.2535
傷身	-10.2537
為我	-10.2537
後宫	-10.2537
南極	-10.254
為真	-10.2541
聲名	-10.2541
紫宫	-10.2542
若居	-10.2545
不要	-10.255
恣	-10.2551
如人	-10.2551
尅身	-10.2553
酉加	-10.2557
效	-10.2559
身衰	-10.2559
卓	-10.2559
武王	-10.2564
魯齋	-10.2566
之宿	-10.2567
善星	-10.2569
遵	-10.2569
日禄	-10.2571
范	-10.2573
念	-10.2573
媒	-10.2573
偷	-10.2573
獵	-10.2577
陽干	-10.2578
彊	-10.258
以水	-10.2584
犴	-10.2585
學士	-10.2588
盜賊	-10.259
物也	-10.259
官魁	-10.2591
也言	-10.2591
荆州	-10.2592
奎婁	-10.2593
郗萌曰太白	-10.2595
十二年	-10.2596
過於	-10.2601
丙為	-10.2602
選擇	-10.2604
入卦	-10.2604
白色	-10.2607
移徙	-10.2607
往亡	-10.261
有星	-10.2613
此謂	-10.2614
舊本	-10.2624
逢金	-10.2624
荆州占曰月	-10.2627
食禄	-10.2627
於寅	-10.263
二陽	-10.2634
寅宫	-10.2645
其實	-10.2647
志曰	-10.2648
臨於	-10.2664
孚	-10.2665
人元	-10.2667
日馬	-10.267
彼此	-10.2674
天赦	-10.2677
後世	-10.2679
九五	-10.2683
媚	-10.2696
家宅	-10.2701
巨	-10.2701
更兼	-10.2701
定是	-10.2702
翔	-10.2702
勸	-10.2703
狠	-10.2703
若臨	-10.2705
三隂	-10.2706
經緯	-10.2706
亥上	-10.2706
拔	-10.2707
祟	-10.2707
纂	-10.2708
披	-10.2709
此以	-10.271
盲	-10.271
中末	-10.2715
凡人	-10.2719
氣色	-10.272
以後	-10.272
計孛	-10.2726
史記	-10.2734
填	-10.274
寅上	-10.2749
一隂	-10.2757
所忌	-10.2757
之金	-10.2759
可謂	-10.2761
以應	-10.2761
玉女	-10.2762
最吉	-10.2768
糴	-10.2773
不全	-10.2776
難星	-10.2778
無故	-10.2778
限行	-10.2788
壬為	-10.2788
于天	-10.2791
六十七	-10.2795
在夘	-10.2796
兊之	-10.2797
去極	-10.2797
以前	-10.2803
金生	-10.2806
為大	-10.2809
司空	-10.2814
之福	-10.2816
神明	-10.282
四百	-10.283
熾	-10.2831
迭	-10.2837
窺	-10.2837
虵	-10.2837
禪	-10.2838
猿	-10.2843
有八	-10.2844
旅之	-10.2845
純粹	-10.2848
當有	-10.2856
立身	-10.2864
丨凶	-10.2864
而止	-10.2867
對待	-10.287
必為	-10.2871
郗萌曰月	-10.2877
初九	-10.288
其說	-10.2882
無根	-10.2882
巳午未	-10.2883
凡命	-10.2884
貴命	-10.2889
七八	-10.2898
壬癸日	-10.2899
丑寅	-10.29
日破	-10.2902
大星	-10.2904
相見	-10.2904
六十六	-10.2908
禍患	-10.2919
金牛	-10.2919
天時	-10.2922
又占曰熒惑	-10.2924
論之	-10.2928
雖然	-10.2931
屬陽	-10.2932
之徒	-10.2934
經世之	-10.2934
不可不	-10.2945
正東	-10.2947
德合	-10.2947
大忌	-10.2952
皆可	-10.2954
輝	-10.2961
層	-10.2965
七十一	-10.2965
墳	-10.297
做	-10.2972
零	-10.2972
姬	-10.2972
應之	-10.2974
水中	-10.2974
暢	-10.2974
黙	-10.2975
九十一	-10.2976
懽	-10.2976
墻	-10.2978
五穀不成	-10.2979
薦	-10.298
之辰也	-10.2982
混雜	-10.2983
阿	-10.2986
在後	-10.2988
根基	-10.2988
煞旺	-10.299
術士	-10.2992
返吟	-10.2992
有急	-10.2992
常以	-10.2996
郎中	-10.2999
不問	-10.3003
元戎	-10.3004
在中	-10.3009
金旺	-10.3014
此四	-10.3015
日光	-10.3026
者言	-10.3026
武帝	-10.3031
庶人	-10.3035
比刼	-10.3042
四餘	-10.3048
年上	-10.305
破祖	-10.3053
癸為	-10.3055
八十四	-10.3056
一千	-10.3057
有死者	-10.3057
國家	-10.3067
則可	-10.307
本家	-10.3074
大亂	-10.3076
柱無	-10.3077
尅我	-10.3078
太白入	-10.3084
龍虎	-10.3088
疾疫	-10.31
受福	-10.3104
洎	-10.3104
始生	-10.311
招摇	-10.3111
収	-10.3112
讓	-10.3113
下臨	-10.3113
春秋潛潭巴曰	-10.3114
衝刑	-10.3114
齊伯曰	-10.3116
粗	-10.3116
期不出年	-10.3117
天官貴人	-10.3119
惟有	-10.312
髮	-10.312
訂訛	-10.3123
三五	-10.3124
野獸	-10.3126
黄白	-10.3128
芒角	-10.3133
六十一	-10.3133
然而	-10.3142
受氣	-10.3151
地中	-10.3154
太平	-10.3157
不善	-10.3162
大飢	-10.3165
日月五星	-10.3165
向背	-10.3167
中道	-10.317
為土	-10.3173
之正	-10.3174
大風	-10.3175
變色	-10.3182
干合	-10.3186
之端	-10.3192
九十二	-10.3193
禄位	-10.3197
法也	-10.3201
五墓	-10.3201
右角	-10.3201
不化	-10.3202
為重	-10.3203
彩	-10.3215
蠶室	-10.3218
天羅	-10.3218
更逢	-10.3218
四廢	-10.322
死神	-10.3221
使人	-10.3222
印堂	-10.3239
貪狼	-10.3241
亥月	-10.3244
辰戌丑未月	-10.3245
十二萬九千六百	-10.3253
歸禄	-10.3254
協	-10.3254
大饑	-10.3255
班固天文志曰	-10.3255
木旺	-10.3257
薨	-10.3258
爽	-10.3258
姜	-10.3262
頻	-10.3263
鑿	-10.3263
藩	-10.3264
水旺	-10.3264
艱難	-10.3265
六丁	-10.3271
修造	-10.3271
交而	-10.3281
禄馬貴人	-10.3281
辰宫	-10.3282
康節	-10.3283
七十五	-10.3284
體也	-10.329
五音	-10.3294
健旺	-10.3296
丨祥	-10.3297
之行	-10.3299
於人	-10.3303
酉戌	-10.3307
丨休	-10.3308
形者	-10.3309
如甲	-10.3309
震巽	-10.331
根本	-10.3324
行者	-10.3334
時干	-10.3334
矣若	-10.3337
財多	-10.3341
動也	-10.3344
酉月	-10.3346
寅加	-10.3347
六十八	-10.3352
之陽	-10.3354
事也	-10.3362
吉慶	-10.3363
囚死	-10.3368
此皆	-10.3371
力士	-10.3373
袁	-10.3383
不測	-10.3384
禦	-10.3388
妹	-10.3391
照臨	-10.3394
枉	-10.3395
墮	-10.3395
攸	-10.3398
沖	-10.3398
麟	-10.3398
標	-10.3399
以明	-10.34
奢	-10.3402
謁	-10.3406
順逆	-10.341
觜觹	-10.3414
驚恐	-10.3414
心鏡	-10.3415
天機	-10.3419
常居	-10.3424
行也	-10.3425
六四	-10.3426
一十	-10.3432
本年	-10.3434
有此	-10.3442
丨咎	-10.3443
丨吝	-10.3443
而非	-10.3443
地數	-10.3445
留守	-10.3447
水也	-10.345
出東方	-10.3451
以象	-10.3458
台	-10.3459
也天	-10.3461
得力	-10.3462
不易	-10.3464
神仙	-10.3466
順數	-10.3468
石氏曰太白	-10.3468
午上	-10.3472
能生	-10.3473
旺地	-10.3476
上吉	-10.3481
子上	-10.3482
大發	-10.3482
生意	-10.3483
休咎	-10.3496
之度	-10.3498
尅破	-10.35
只宜	-10.3501
有吉星	-10.3503
丞	-10.3517
之人也	-10.3519
侯王	-10.3522
生火	-10.3522
不入	-10.3522
狀如	-10.3525
八十三	-10.3528
不應	-10.353
反復	-10.353
三品	-10.3533
尹	-10.3534
福祿	-10.3534
戈	-10.3536
天雨	-10.3536
遞	-10.3539
占者	-10.3539
言也	-10.3542
悟	-10.3546
優	-10.3546
汝	-10.3548
烟	-10.355
石氏曰熒惑	-10.3553
豈不	-10.3554
寧按	-10.3556
不齊	-10.3558
尊卑	-10.3558
老隂	-10.3563
生來	-10.3564
艮為	-10.3568
所主	-10.357
華蓋	-10.3571
不居	-10.3574
倒食	-10.3574
徳合	-10.3577
不去	-10.3577
亦能	-10.3578
此例	-10.3589
以三	-10.359
國君	-10.359
道不通	-10.3591
之隂	-10.3592
次八	-10.3597
執法	-10.36
配合	-10.3602
占主	-10.3616
過房	-10.3617
斗建	-10.3617
人中	-10.3625
無道	-10.3627
城縣	-10.3628
生焉	-10.364
小滿	-10.3645
灸退	-10.3646
使我	-10.365
八十七	-10.3654
相攻	-10.3655
此法	-10.366
亦曰	-10.3671
成名	-10.3674
天德	-10.3676
受傷	-10.3677
四卦	-10.368
大陵	-10.3681
造化之	-10.3682
綿	-10.3686
壘	-10.3686
芒種	-10.3687
米	-10.3688
斂	-10.3689
援	-10.369
聴	-10.3691
允	-10.3691
價	-10.3692
憲副	-10.3692
芳	-10.3692
衞	-10.3693
一家	-10.3693
翁	-10.3698
揆	-10.3698
稀	-10.3698
不離	-10.3699
緣	-10.3699
激	-10.37
士卒	-10.3701
之財	-10.3704
官爵	-10.3705
閑極	-10.3707
蕭	-10.3708
限主	-10.3709
絶嗣	-10.3709
慕容	-10.3715
黒氣入	-10.3717
無常	-10.3719
炎上	-10.372
為憂	-10.3721
老人	-10.3723
大暑	-10.3724
亡刼	-10.3729
第十	-10.3734
一二	-10.3747
晝見	-10.3753
乙為	-10.3754
有光	-10.3758
其體	-10.3761
使者	-10.3762
六六	-10.3768
月内	-10.3789
寅卯辰	-10.3792
尅子	-10.3799
竒門	-10.38
酉丑	-10.3808
乎天	-10.3811
隂生	-10.3813
飲	-10.3818
一丈	-10.3818
犀	-10.3819
龍之	-10.382
到此	-10.3825
强弱	-10.3826
天官	-10.3834
兹	-10.3837
喬	-10.3839
橋	-10.3841
境	-10.3841
渉	-10.3841
倉庫	-10.3843
賓	-10.3844
臨身	-10.3844
恵	-10.3846
試	-10.3848
勃	-10.3849
呂	-10.385
英雄	-10.3851
之㑹	-10.3851
六十五	-10.3851
月徳	-10.3854
蛟龍	-10.3854
月德	-10.3856
旬中	-10.3856
先儒	-10.3858
華盖	-10.3859
土旺	-10.3862
初𫝊	-10.3862
相當	-10.3868
一變	-10.3871
孛羅	-10.3874
相交	-10.3875
明矣	-10.3877
對宫	-10.3877
庚申辛酉	-10.388
隂也	-10.3881
或問	-10.3882
定知	-10.3882
言語	-10.3887
衝尅	-10.3896
夘加	-10.3901
青色	-10.3902
雙女	-10.3905
罡	-10.3906
未必	-10.3906
小而	-10.3906
為體	-10.3909
八十八	-10.3915
八十五	-10.3934
冬月	-10.3942
艮寅	-10.3949
稷	-10.3955
貎	-10.3956
六五	-10.3965
第七	-10.3969
則氣	-10.3973
歲破	-10.3975
丅	-10.3979
七十九	-10.3981
發於	-10.3981
偃	-10.3983
像	-10.3984
僅	-10.3985
攷	-10.3987
潜	-10.3988
而去	-10.3989
劫	-10.399
針	-10.3991
不克	-10.3992
蓄	-10.3994
廉	-10.3994
辛戌	-10.3995
凍	-10.3995
敏	-10.3996
中犯乗守	-10.3997
鼔	-10.3997
檢	-10.3998
箭	-10.4
卷舌	-10.4
介	-10.4001
加時	-10.4003
奔走	-10.4006
四宫	-10.4008
重見	-10.4009
不戰	-10.4009
淮南子曰	-10.4011
孤辰	-10.4021
神將	-10.4022
血光	-10.4027
無妨	-10.4028
乘之	-10.404
太白守	-10.404
神后	-10.4044
所宜	-10.4052
却有	-10.4056
邵子曰	-10.4058
喜慶	-10.406
八際	-10.406
木氣	-10.4061
為旱	-10.4063
無功	-10.4064
皆得	-10.4067
帝旺	-10.4078
知縣	-10.4088
日以	-10.4088
巡山羅㬋	-10.4103
浮天空亡	-10.4103
惡煞	-10.4103
天庫	-10.4114
豈能	-10.4124
刪	-10.4131
蠶官	-10.4131
受之	-10.4134
硬	-10.4136
有憂若	-10.4139
匹	-10.414
原有	-10.4141
賀	-10.4141
不可得	-10.4142
霸	-10.4142
坤為	-10.4144
當為	-10.4144
範	-10.4145
嗟	-10.4146
命同	-10.4146
為夫	-10.4147
瓦	-10.4148
寺	-10.4148
暗昧	-10.415
鈇鑕	-10.415
賣	-10.4151
中傳	-10.4153
鎮星	-10.4155
相加	-10.4158
淺深	-10.4158
性命	-10.4158
極品	-10.416
無禮	-10.4163
孤貧	-10.4168
正財	-10.4169
其名	-10.4178
為僧道	-10.4178
丨吉	-10.4181
原本	-10.4185
末𫝊	-10.4188
藏於	-10.4189
從魁	-10.4195
命限	-10.4208
潤下	-10.4208
甲為	-10.4218
逆順	-10.422
官宫	-10.4225
子年	-10.423
又占曰熒惑守	-10.423
無依	-10.4231
八百	-10.4232
石氏曰熒惑守	-10.4242
丁日	-10.4254
不久	-10.4268
一物	-10.4269
福神	-10.4275
土孛	-10.4277
戌月	-10.4278
須是	-10.4279
填星守	-10.4284
曇瑩曰	-10.4288
淡	-10.429
鳩	-10.4291
席	-10.4295
中氣	-10.4297
驚蟄	-10.4298
璚	-10.4298
蠶命	-10.4298
靡	-10.43
酌	-10.43
濫	-10.43
鳳	-10.4303
一白	-10.4304
伍	-10.4304
諫	-10.4305
甲子日	-10.4306
桀	-10.4307
憎	-10.4307
各自	-10.4312
銅	-10.4313
夏月	-10.4316
小雪	-10.4316
填實	-10.4317
形也	-10.4319
而見	-10.4326
九百	-10.4328
則不能	-10.4328
清濁	-10.4331
相宜	-10.4333
無星	-10.4337
落空亡	-10.434
有人	-10.4341
若守	-10.4349
合格	-10.4359
無制	-10.4368
郄萌曰客星入	-10.4373
得用	-10.4373
相近	-10.4384
天心	-10.4385
長短	-10.439
求官	-10.4393
登明	-10.4395
入中宫	-10.4402
風從	-10.4403
百日	-10.4405
弧	-10.4406
六庚	-10.4407
與天	-10.4413
天命	-10.4416
其方	-10.4423
福力	-10.4425
此論	-10.4432
之禍	-10.4443
有土功	-10.4443
冰	-10.4443
鸞	-10.4449
涸	-10.4452
隕	-10.4459
噐	-10.4461
競	-10.4462
乃為	-10.4462
拂	-10.4462
摧	-10.4462
翰林	-10.4462
鄧	-10.4463
訛	-10.4464
亷	-10.4464
蟾	-10.4465
大梁	-10.4465
得財	-10.4466
破軍	-10.4469
不仁	-10.447
蝗	-10.4471
連珠	-10.4472
唱	-10.4472
籌	-10.4473
體數	-10.4474
豐隆	-10.4475
三尺	-10.4475
天文志曰	-10.4476
之門	-10.4492
之權	-10.4497
其事	-10.4502
家之	-10.4506
所屬	-10.4507
重則	-10.4508
是知	-10.4513
其地	-10.4513
若生	-10.4514
之事也	-10.4514
下生	-10.4514
交互	-10.4515
同居	-10.4517
不窮	-10.452
月刑	-10.4522
文曜鈎曰	-10.4524
不息	-10.4525
數者	-10.4529
和氣	-10.4535
者天	-10.4538
之職	-10.4539
坤申	-10.454
之年	-10.4542
七十三	-10.4545
七十七	-10.4546
日建	-10.4546
天醫	-10.4547
命逢	-10.4549
合照	-10.4555
十八日	-10.457
或在	-10.457
加亥	-10.4576
九三	-10.4576
八專	-10.4576
而又	-10.4578
男女宫	-10.458
欲知	-10.458
成家	-10.4594
地以	-10.4597
太初	-10.4597
七十八	-10.4597
燭	-10.4599
支神	-10.4599
二百九十	-10.4603
七百	-10.4611
也是故	-10.4613
啟	-10.4613
京房易傳曰	-10.4614
來者	-10.4614
嵩	-10.4619
后妃	-10.462
孽	-10.4621
弊	-10.4621
以至	-10.4622
韻	-10.4622
陽貴人	-10.4623
濛	-10.4623
𢎞	-10.4624
隨之	-10.4624
守照	-10.4625
和合	-10.4626
四千三百二十	-10.4626
塲	-10.4627
腐	-10.4627
羙	-10.4628
為印	-10.4629
綂	-10.4629
卵	-10.4629
躁	-10.4631
儲	-10.4631
跌	-10.4632
期不出三年	-10.4633
木之	-10.4636
震為	-10.4643
盪	-10.4643
一方	-10.4644
火也	-10.4655
無益	-10.4656
次二	-10.4657
分離	-10.4658
明也	-10.4662
主本	-10.4662
之神也	-10.467
之書	-10.4672
者吉	-10.4672
孛計	-10.4676
玉井	-10.4683
丙丁日	-10.4691
改正	-10.4696
須防	-10.4698
餘氣	-10.4701
災殃	-10.4702
亦宜	-10.4705
為木	-10.4706
彗孛	-10.4707
若夫	-10.471
甲卯	-10.4711
風憲	-10.4726
夫子	-10.4726
古之	-10.473
是主星	-10.4736
如木	-10.4738
四利三元	-10.4739
不堪	-10.4739
經星	-10.4739
終是	-10.4744
虚危	-10.4746
以日	-10.4747
週	-10.4748
上下相	-10.4753
太旺	-10.4753
獨行	-10.4755
地理	-10.4756
鏡	-10.4769
天河	-10.477
之應也	-10.4772
入傳	-10.4773
成形	-10.4773
給	-10.4776
照命	-10.4778
壅	-10.4779
於中	-10.4779
戚	-10.4782
身居	-10.4782
臂	-10.4783
駁雜	-10.4784
董	-10.4784
他星	-10.4784
期百八十日	-10.4785
撫	-10.4786
狄	-10.4787
劍	-10.4788
匈奴	-10.4788
敷	-10.4789
木土	-10.4789
各有所	-10.479
本是	-10.4791
人心	-10.4791
也葢	-10.4792
不出一年	-10.4792
懸針	-10.4793
打	-10.4794
聾	-10.4795
也又如	-10.4795
蚓	-10.4796
之世	-10.4797
助之	-10.48
金木水火土	-10.48
日鬼	-10.4803
遇火	-10.4811
萬物不成	-10.4815
之候	-10.4815
子平	-10.4834
强宫	-10.4837
木也	-10.4839
無禄	-10.484
一周	-10.4842
一命	-10.4847
三三	-10.4853
生木	-10.4859
喜行	-10.4864
且有	-10.4865
天下兵起	-10.4866
吉日	-10.487
數以	-10.487
相得	-10.4872
否則	-10.4874
雖是	-10.4875
極而	-10.4876
司徒	-10.4882
而不知	-10.4898
細推	-10.4899
星明	-10.49
又見	-10.4903
破敗五鬼	-10.4908
卦為	-10.4912
胷	-10.4915
夫星	-10.4918
胎月	-10.4919
止於	-10.492
枉矢	-10.4924
自是	-10.4933
為灾	-10.4935
吉昌	-10.4936
帝崩	-10.4936
有大兵	-10.4938
讀	-10.4938
浸	-10.4941
定其	-10.4946
不食	-10.4948
夷狄	-10.4948
叙	-10.4949
亮	-10.495
阜	-10.4951
啓	-10.4953
絀	-10.4953
變易	-10.4954
驕	-10.4955
歴例曰	-10.4956
採	-10.4957
様	-10.4958
圖書	-10.4962
五星從位起	-10.4963
晋	-10.4966
朝陽	-10.4966
福夀	-10.4966
歳運	-10.4972
决主	-10.4974
之半	-10.4975
則貴	-10.4977
反吟	-10.4977
必以	-10.4978
陽而	-10.4979
隂謀	-10.4982
財鄉	-10.4984
其他	-10.4985
全無	-10.4988
大凡	-10.4989
二刻	-10.4991
本位	-10.4992
生人見	-10.4995
科甲	-10.4996
乙辰	-10.4998
初初	-10.5002
有制	-10.5003
以金為	-10.5004
九十八	-10.5005
地而	-10.5007
占人	-10.5009
夀星	-10.5012
京氏曰日	-10.5015
太元	-10.5016
比和	-10.5023
皆然	-10.5026
有赦	-10.503
砂水	-10.503
房心	-10.5034
於内	-10.5042
難得	-10.5042
從革	-10.5043
又按	-10.5043
其光	-10.5047
其身	-10.5051
隂貴人	-10.5054
以土	-10.5054
亥宫	-10.5059
刑煞	-10.5065
以次	-10.5072
巳酉	-10.5075
天柱	-10.5076
為六	-10.5083
疆	-10.5087
忌曜	-10.5093
有竒	-10.5094
視其	-10.5095
黄幡	-10.5097
荆州占曰填星	-10.5101
者天之	-10.5103
五合	-10.5107
以致	-10.5107
方也	-10.5109
荆州占曰月暈	-10.511
大勝	-10.5113
偹	-10.5114
二百七十	-10.5115
黃帝占曰	-10.5115
數而	-10.5116
腫	-10.5119
奈	-10.5122
本主	-10.5122
渠	-10.5122
黎	-10.5123
瘡	-10.5126
匪	-10.5126
擅	-10.5127
突	-10.5127
入首	-10.5128
劣	-10.5128
抽	-10.5129
函	-10.513
北河	-10.513
惹	-10.5131
南至	-10.5131
件	-10.5131
㤗	-10.5131
坑	-10.5134
五常	-10.5135
溝	-10.5136
寒露	-10.5136
八方	-10.5137
五嶽	-10.5138
婦女	-10.5141
四煞	-10.5141
隂人	-10.5143
貧寒	-10.5143
先天圖	-10.5146
家性爲	-10.5149
其用	-10.5154
多有	-10.5155
六十九	-10.5155
大如	-10.5162
日有	-10.5163
洛陽	-10.5166
六戊	-10.5169
及其	-10.5171
也盖	-10.5172
入局	-10.5173
土金	-10.5176
之徳	-10.5177
水流	-10.5184
氣者	-10.5188
屬隂	-10.5193
在東方	-10.5196
寅午戌月	-10.5197
午戌	-10.5198
一寸	-10.5206
未加	-10.5207
此三	-10.5215
而明	-10.522
刑破	-10.5221
則一	-10.5225
制煞	-10.523
馬生人	-10.5234
昴星	-10.524
陽極	-10.5244
九四	-10.5245
為子	-10.5247
此人	-10.525
則知	-10.5256
建始	-10.5257
總論	-10.5262
不好	-10.5266
寅戌	-10.5267
譽	-10.5271
子宫	-10.5275
形體	-10.5276
卯月	-10.5278
六宫	-10.5278
年六月	-10.5279
圭	-10.5281
奚	-10.5288
錦	-10.5294
䝉	-10.5295
屢	-10.5295
宏	-10.5295
嬴	-10.5296
遍	-10.5296
訓	-10.5298
必須	-10.5299
愆	-10.5299
出入留舍	-10.53
冇	-10.5301
霜降	-10.5301
計羅	-10.5302
胥	-10.5303
八九	-10.5304
考原曰	-10.5304
刑衝破害	-10.5304
復生	-10.5306
卜筮	-10.5308
而作	-10.5312
之嵗	-10.5313
二星在	-10.5314
尤妙	-10.5316
皇帝	-10.5317
只有	-10.532
形如	-10.532
亨通	-10.5323
五五	-10.5325
相同	-10.5326
羣隂	-10.5329
形而	-10.5334
七十四	-10.5338
見財	-10.5339
列宿	-10.5342
子月	-10.5343
不實	-10.5345
休廢	-10.5345
而能	-10.535
日刑	-10.5353
洛書曰	-10.5355
㑹合	-10.5374
文星	-10.538
八十二	-10.538
一切	-10.5384
辰加	-10.5387
日合	-10.5388
西行	-10.5396
二七	-10.5399
有聲	-10.5403
忌之	-10.5405
初六	-10.5408
所指	-10.541
入酉	-10.541
雜氣	-10.5411
無所不	-10.5419
坐煞向煞	-10.5419
分數	-10.5421
卒子	-10.5425
加之	-10.5436
成帝	-10.5437
於未	-10.5444
一周天	-10.5447
有成	-10.5453
與人	-10.5454
定吉凶	-10.5455
歛	-10.5462
為隂陽	-10.5464
朗	-10.5467
胸	-10.5468
所以為	-10.5469
蘭	-10.5469
玉歴曰	-10.547
一二三四	-10.5471
䜛	-10.5472
石氏曰太白守	-10.5473
出走	-10.5473
南門	-10.5474
臭	-10.5475
期六十日	-10.5476
勞苦	-10.5476
屍	-10.5477
昇	-10.5478
入于	-10.5482
水火土石	-10.5484
毅	-10.5487
生財	-10.5488
興隆	-10.549
酒食	-10.5501
他鄉	-10.5501
氣從	-10.5503
九醜	-10.5506
其本	-10.5512
其勢	-10.5517
兩儀	-10.552
枕	-10.5521
大兵起	-10.553
未宫	-10.5534
舉兵	-10.5534
透出	-10.5539
酉上	-10.5543
遁得	-10.5545
得水	-10.555
木金	-10.555
不須	-10.5553
稱王	-10.5565
申上	-10.5566
单	-10.557
魁星	-10.5575
加酉	-10.5578
淮南	-10.5579
地道	-10.558
不熟	-10.5581
子位	-10.5583
外有	-10.5585
其鄉	-10.5593
而取	-10.5594
冬夏	-10.5595
亦如	-10.5595
通天竅	-10.5597
庚酉	-10.56
為父	-10.5602
在日	-10.5604
法令	-10.5607
尤為	-10.5609
宫安命	-10.561
郗萌曰熒惑入	-10.5611
九十九	-10.5612
二尺	-10.5612
以水為	-10.5614
煞神	-10.562
遼	-10.5621
溪	-10.5622
古今同	-10.5622
所見	-10.5624
在北	-10.5625
六癸	-10.5626
正也	-10.5629
戌宫	-10.563
稻	-10.5632
出西方	-10.5633
吹	-10.5635
天府	-10.5639
事多	-10.5639
参	-10.564
夀夭	-10.5641
雌雄	-10.5641
坦	-10.5642
無實	-10.5644
仕宦	-10.5644
桂	-10.5644
國亡	-10.5645
慕	-10.5645
顚	-10.5645
探	-10.5645
棺	-10.5645
飽	-10.5646
寓	-10.5647
鄰	-10.5648
尼	-10.5651
覽	-10.5651
窠	-10.5653
無患	-10.5653
小暑	-10.5654
嬰	-10.5655
表裏	-10.5656
田園	-10.5658
時有	-10.5659
霍	-10.5664
貧夭	-10.5667
白衣	-10.5668
卦之	-10.5677
龍徳	-10.5679
不怕	-10.568
此等	-10.5681
天皇	-10.5685
九二	-10.5686
注云	-10.5688
發達	-10.5688
八十九	-10.5689
守命	-10.5695
反此	-10.5695
紋者	-10.5696
將有	-10.5697
不雨	-10.5698
妻兒	-10.5702
一説	-10.5703
巳未	-10.5709
立成	-10.5713
發明	-10.5715
為佳	-10.5716
飛入	-10.5716
孝武	-10.5731
視之	-10.5736
四隂	-10.5737
巽巳	-10.574
從之	-10.574
二八	-10.5741
早年	-10.5745
生數	-10.5745
多者	-10.5751
四四	-10.5751
大海	-10.5765
成王	-10.5765
弑	-10.5766
純隂	-10.5766
或如	-10.5769
離為	-10.5775
其北	-10.5776
逄之	-10.578
二爻	-10.5781
受其	-10.5786
腸	-10.5787
十八度	-10.5793
苑	-10.5797
一品	-10.5798
偏正	-10.5798
隋	-10.5802
然也	-10.5807
分别	-10.5815
便為	-10.5815
郗萌曰月暈	-10.5816
此之謂也	-10.5819
恨	-10.5822
弔	-10.5823
軒	-10.5823
囘	-10.5824
春月	-10.5826
大兵	-10.5828
哲	-10.5829
社稷	-10.5829
銷	-10.5829
昻	-10.5832
洎此宮	-10.5832
二十四氣	-10.5833
俾	-10.5834
壇	-10.5835
太蔟	-10.5835
陽生	-10.5836
逢火	-10.5836
今人	-10.5836
的煞	-10.5838
璣	-10.5838
下賊上	-10.5838
彭	-10.5838
武職	-10.5839
躬	-10.5841
近臣	-10.5841
𨽻	-10.5844
天棓	-10.5845
也謂	-10.5847
夘為	-10.5849
聲音	-10.5856
天苑	-10.586
理也	-10.5863
之相	-10.5865
皆自	-10.5866
合局	-10.587
青雲	-10.587
身坐	-10.5873
次第	-10.5875
丁為	-10.5876
正二刻	-10.5878
人身	-10.5879
難成	-10.5879
旺則	-10.589
右轉	-10.5894
五帝	-10.5897
陽遁	-10.5909
丑加	-10.5909
戊為	-10.5919
丑宫	-10.592
同躔	-10.5923
自此	-10.5923
望之	-10.5931
赤氣	-10.5932
甲乙丙丁	-10.5944
河南	-10.5946
今按	-10.5949
閉日	-10.5954
用財	-10.5957
生而	-10.596
則其	-10.5968
福壽	-10.597
圖曰	-10.5972
衆人	-10.5973
州府	-10.5973
天將	-10.5973
此名	-10.5978
石氏曰辰星	-10.5979
尅山家	-10.5979
邵	-10.5983
八十六	-10.5985
天地人	-10.5992
之元	-10.5993
命者	-10.5994
死生	-10.5994
加寅	-10.5996
相侵	-10.5997
居其	-10.5998
太極之	-10.6001
生萬物	-10.6003
棟	-10.6003
九十四	-10.6009
臧	-10.601
布帛	-10.601
狼星	-10.601
黜	-10.6011
誣	-10.6013
九十三	-10.6013
抝	-10.6014
歎	-10.6014
兇	-10.6015
潰	-10.6016
甲辰乙巳	-10.6017
弑其君	-10.6017
熙	-10.6018
娼	-10.6019
傅	-10.602
擒	-10.602
娘	-10.6021
故其	-10.6021
佩	-10.6023
相隨	-10.6025
宿從位降	-10.6026
三曰	-10.6027
頌	-10.603
廓	-10.6031
講	-10.6034
者所以	-10.6035
山水	-10.6037
其南	-10.6038
終不	-10.604
不起	-10.6043
獲福	-10.6045
不知其	-10.6046
變也	-10.6048
實沈	-10.6049
勝負	-10.6049
剛日	-10.606
道理	-10.6064
在東	-10.6072
二百二十	-10.6078
小者	-10.6078
水金	-10.6079
位也	-10.6082
生也	-10.6083
豈有	-10.6083
動静	-10.6083
更無	-10.6095
不止	-10.6096
本身	-10.6099
三百六十日	-10.6099
而知	-10.6101
夏令	-10.6101
可也	-10.6105
隂建	-10.6116
得火	-10.6122
赤氣入	-10.6124
髙強	-10.6125
利名	-10.6125
隨時	-10.6131
修方凶	-10.6133
四五	-10.6134
旺處	-10.6135
五緯	-10.6135
星紀	-10.6137
出門	-10.6142
殆	-10.6143
流星出	-10.6145
天闗	-10.6146
旺而	-10.6157
登科	-10.6161
不作	-10.6164
中外	-10.6165
頃	-10.6165
不已	-10.6167
吉㓙	-10.6169
在黄道内	-10.617
申月	-10.617
用起	-10.617
逢空	-10.6171
局中	-10.6172
衰敗	-10.6173
氣運	-10.6175
不待	-10.6176
運限	-10.618
之論	-10.618
破家	-10.6183
在南	-10.6185
臣謀主	-10.6185
下弦	-10.6187
此又	-10.6187
京氏	-10.619
豈可	-10.6193
明而	-10.6196
欄	-10.6197
萬人	-10.6197
虐	-10.6199
績	-10.6199
築	-10.62
稼穡	-10.62
此煞	-10.62
鋭	-10.6201
繫者	-10.6203
副	-10.6205
懦	-10.6206
贅	-10.6206
㡬	-10.6207
輔弼	-10.6208
上起	-10.6208
而起	-10.6209
勉	-10.6209
如甲日	-10.621
跛	-10.6212
隂徳	-10.6212
馴	-10.6213
九十七	-10.6216
鶉首	-10.6216
當年	-10.6218
爲飛伏	-10.6219
不與	-10.6224
江河	-10.6225
宣王	-10.6226
二曰	-10.6226
乾為	-10.6229
二五	-10.6229
朔日	-10.6231
鶉火	-10.6231
亦同	-10.6238
為身	-10.624
從來	-10.6242
其時	-10.6242
反吉	-10.6245
隂極	-10.6246
止有	-10.6249
隔角	-10.625
更在	-10.6259
其常	-10.6261
第八	-10.6268
刑星	-10.6268
酉亥	-10.6271
各得	-10.6271
交加	-10.6278
定位	-10.628
遷官	-10.6281
輕則	-10.6282
甲子乙丑	-10.6285
戮死	-10.6286
極則	-10.6289
禮樂	-10.6291
又謂	-10.6298
一際	-10.6299
在天為	-10.6304
可畏	-10.631
有殃	-10.6323
渾天	-10.6325
位居	-10.6327
亦得	-10.6329
初生	-10.633
交易	-10.6331
生金	-10.6333
可取	-10.6334
不遂	-10.6336
三合前方	-10.634
不時	-10.634
同度	-10.6341
三合後方	-10.6342
七百二十	-10.6344
王侯	-10.6345
亥中	-10.6345
有大䘮	-10.6348
以知	-10.6349
十有八	-10.6355
天理	-10.6356
天關	-10.6357
平日	-10.6364
度數	-10.6375
有亡國	-10.6377
亦須	-10.6379
年干	-10.6379
有大水	-10.6381
申子	-10.6382
紛	-10.6385
祈	-10.6388
其禍	-10.6389
地平	-10.6389
生逢	-10.639
祚	-10.639
闊	-10.6391
趣	-10.6393
況	-10.6393
敎	-10.6393
桃	-10.6393
八節	-10.6393
電	-10.6394
澄	-10.6395
橫	-10.6395
隂遁	-10.6396
亥未	-10.6397
甫	-10.6397
伊	-10.6397
頸	-10.6397
區	-10.6398
奔波	-10.6399
佑	-10.64
瑕	-10.64
杵	-10.6401
相遇	-10.6404
义	-10.6404
賢人	-10.6405
乘旺	-10.6405
殘疾	-10.6405
怯	-10.6406
答曰	-10.6407
穏	-10.6408
九坎	-10.6411
圜	-10.6412
火居	-10.6417
妨夫	-10.642
白羊	-10.642
人間	-10.6421
城郭	-10.6423
火神	-10.6423
九天	-10.6425
辛苦	-10.6427
災煞	-10.6428
稱意	-10.643
收日	-10.6431
愚謂	-10.6439
而發	-10.6439
加申	-10.6441
秋月	-10.6441
午宫	-10.6445
戌上	-10.6446
七爲	-10.6446
六七	-10.6451
巳月	-10.6458
相從	-10.6463
黄帝占曰填星	-10.6464
七宫	-10.6466
石氏曰填星	-10.6467
輔星	-10.6471
白露	-10.6481
干犯	-10.6481
災禍	-10.6484
上弦	-10.649
病死	-10.6491
從此	-10.6493
十一度	-10.6496
冬至後	-10.6497
丨災	-10.65
本於	-10.65
寅辰	-10.6502
一本	-10.651
合化	-10.6511
其室	-10.6517
金紫	-10.6526
餘倣此推	-10.6529
人相食	-10.6531
淪	-10.6534
旺鄉	-10.6535
譬	-10.6536
立向凶	-10.6538
正直	-10.654
黄鐘	-10.654
青黒	-10.6541
利害	-10.6541
不宜見	-10.6542
十三年	-10.6546
嵗月	-10.6546
又何	-10.6547
槩	-10.6554
動則	-10.6555
坎為	-10.6556
杓	-10.6557
乎其	-10.6559
春秋緯	-10.6564
可言	-10.6566
白氣	-10.6566
不常	-10.6567
大雨	-10.6569
日害	-10.657
自生	-10.6574
俱在	-10.6576
最凶	-10.6581
敦	-10.6581
運斗樞曰	-10.6584
朽	-10.6586
蜂	-10.6586
而南	-10.6586
宋均曰	-10.6589
評	-10.659
丸	-10.6591
鈍	-10.6592
見則	-10.6592
斧	-10.6593
星孛	-10.6594
三交	-10.6595
小分	-10.6595
四肢	-10.6595
大火	-10.6595
闔	-10.6596
優游	-10.6597
衢	-10.6598
上克下	-10.6601
婢	-10.6602
腰金	-10.6602
矣此	-10.6603
六三	-10.6604
儉	-10.6605
珞琭子	-10.6606
為陰	-10.6608
卯加	-10.6609
天槍	-10.661
閣道	-10.661
其國有	-10.6612
變通	-10.6616
不義	-10.6617
二六	-10.6617
流星抵	-10.6624
未能	-10.6626
戰不勝	-10.6629
星不明	-10.663
方是	-10.6642
有理	-10.6645
二百五十六	-10.6651
不善終	-10.6653
天有	-10.6654
是年	-10.6655
落空	-10.6658
之差	-10.6663
可知矣	-10.6664
可知也	-10.6667
丈夫	-10.667
於前	-10.6673
九十五	-10.6675
未申	-10.6678
大明	-10.6678
無差	-10.6678
配之	-10.6683
相反	-10.6684
利用	-10.6686
兵罷	-10.669
主妻	-10.6691
上生	-10.6703
其象	-10.6703
為命主	-10.6704
人倫	-10.6711
能制	-10.6718
太一	-10.672
主命	-10.6729
大參	-10.6737
走馬六壬神后	-10.6738
義也	-10.6739
書云	-10.6754
黒色	-10.6758
正氣	-10.676
多少	-10.6762
隂位	-10.6763
安縣	-10.6767
鴈	-10.677
男命	-10.6773
不備	-10.6776
梗河	-10.6778
無一	-10.6788
九九	-10.6788
小限	-10.6789
煙	-10.6793
虚實	-10.6794
拙	-10.6795
郷	-10.6797
陽宫	-10.6797
碍	-10.6797
蔀	-10.6797
絞	-10.6798
之用也	-10.6799
蛟	-10.6799
帝覽嬉曰	-10.68
輸	-10.6801
采	-10.6803
孝服	-10.6805
萬九千	-10.6806
其子	-10.6812
當雨不雨	-10.6812
黄泉	-10.6824
郄萌曰	-10.6826
三九	-10.6827
之機	-10.6827
巳丑	-10.6828
江湖	-10.6831
便以	-10.6833
子日	-10.6835
於子	-10.6835
初三	-10.6836
斗牛	-10.6837
相害	-10.684
所用	-10.6849
地有	-10.6852
變者	-10.6852
之命也	-10.6854
嵗破	-10.6857
必能	-10.6857
二卷	-10.6861
隂主	-10.6861
尋常	-10.6861
之類是也	-10.6862
之體乃	-10.6862
又五日	-10.6864
為忌	-10.6869
偏印	-10.6869
黃帝占曰嵗星	-10.687
元氣	-10.687
三十年	-10.6872
度半	-10.6881
何謂	-10.6882
榮顯	-10.6885
權貴	-10.6891
天下大水	-10.6894
厠	-10.6899
聚於	-10.6903
大司馬	-10.6905
所得	-10.6907
孤神	-10.6916
注曰	-10.6919
為客	-10.6922
三八	-10.6926
端門	-10.6931
未來	-10.6932
若更	-10.6934
留逆	-10.6937
開山凶年	-10.6941
所作	-10.6942
命在	-10.6943
十六日	-10.6948
三者	-10.695
類也	-10.6953
小寒	-10.6954
之屬	-10.6955
嵗中	-10.6956
卯未	-10.6957
依此	-10.6957
南行	-10.6959
有九	-10.6968
相似	-10.6969
大臣有	-10.697
離宫	-10.6975
匏𤓰	-10.6981
金多	-10.6981
王死	-10.6987
漢書	-10.6988
矛	-10.699
也詩曰	-10.6992
墟	-10.6992
盟	-10.6993
叢	-10.6994
多招	-10.6995
欲得	-10.6997
擁	-10.6997
泣	-10.6998
馮	-10.6999
棲	-10.7
河鼓	-10.7
百二十占曰	-10.7001
館	-10.7003
戲	-10.7003
相望	-10.7004
壠	-10.7004
握	-10.7005
聖賢	-10.7006
東西南北	-10.7007
虜	-10.7007
罕	-10.7007
命曰	-10.7009
岡	-10.701
鱗	-10.701
天紀	-10.7013
飛來	-10.7014
又無	-10.7015
陽神	-10.7016
絆	-10.7016
所載	-10.7017
高强	-10.7018
寶光	-10.7018
師于	-10.7025
隂中	-10.703
公孫	-10.7031
註云	-10.7032
翼軫	-10.7034
重逢	-10.7036
無兵	-10.7038
如此則	-10.7039
輩	-10.7046
所出	-10.7048
壬申癸酉	-10.7049
小耗	-10.7051
三百三十	-10.7053
天星	-10.7055
甲寅乙卯	-10.7056
臣有謀	-10.7059
易云	-10.706
在人	-10.7061
殺人	-10.7063
酉宫	-10.7066
天願	-10.7071
甲乙日	-10.7073
支為	-10.7075
未上	-10.7075
夏生	-10.7076
太公	-10.708
民飢	-10.7081
火氣	-10.7083
不發	-10.7089
十有五	-10.7091
而實	-10.7093
故易	-10.7094
至老	-10.7094
天以	-10.7094
荆州占曰嵗星	-10.7095
一百五十	-10.7096
以火為	-10.7096
正南	-10.7098
五者	-10.7106
廟堂	-10.7106
三奇	-10.7107
隂隂	-10.7114
又主	-10.7114
平地	-10.7114
官至	-10.7123
商王	-10.7125
極於	-10.7126
之厄	-10.7127
更看	-10.7131
尺二寸	-10.7138
國有憂	-10.7141
經世	-10.7142
天子之	-10.7144
後人	-10.7144
不可言	-10.7144
巽為	-10.7149
行疾	-10.715
開山立向修方凶太	-10.7151
不惟	-10.7153
漢中	-10.7155
人馬	-10.7157
治也	-10.716
知之	-10.7167
將星	-10.7169
修方	-10.717
兩頭	-10.7171
命也	-10.7172
陰神	-10.7173
天下多	-10.7173
金氣	-10.7174
諸侯有	-10.7174
牀	-10.7181
更遇	-10.7182
令星	-10.7184
九流	-10.7187
等事	-10.719
寂	-10.719
生處	-10.7192
交㑹	-10.7194
穢	-10.7195
灌	-10.7198
鶉尾	-10.7203
查	-10.7204
攢	-10.7204
天禄	-10.7205
石氏讚曰	-10.7205
堆	-10.7207
贊	-10.7207
闇	-10.7207
紂	-10.7207
譌	-10.7207
富貴雙全	-10.7208
鄴	-10.7208
近貴	-10.7209
矩	-10.7209
李仝曰	-10.7209
觀月經	-10.7209
晏	-10.7209
擢	-10.721
松	-10.721
旌旗	-10.721
渡	-10.7211
這	-10.7211
滑	-10.7212
攙	-10.7212
征伐	-10.7212
捨	-10.7214
閭	-10.7214
普	-10.7214
提綱	-10.7217
傷妻	-10.7218
備矣	-10.7219
經營	-10.7219
坐山	-10.722
為權	-10.7225
長女	-10.7227
土司空	-10.7228
也且	-10.7229
前程	-10.7229
於心	-10.7231
大限	-10.7233
天氣	-10.7238
又曰嵗星	-10.7238
水生	-10.7242
貴禄	-10.7242
民流亡	-10.7244
不良	-10.7248
以道	-10.725
是何	-10.725
六氣	-10.7253
忠臣	-10.7258
入此	-10.7262
如無	-10.7264
堡	-10.7265
陽建	-10.7266
不受	-10.7268
一百六十	-10.7269
尅日	-10.7276
始出	-10.7278
亦不能	-10.728
一體	-10.7282
四者	-10.7283
臣欲	-10.7289
若非	-10.7293
制化	-10.7293
察其	-10.7295
有印	-10.7298
天體	-10.7302
而在	-10.7317
主富	-10.732
陽中	-10.7329
申亥	-10.7331
而立	-10.7331
仔細	-10.7331
諭	-10.7339
山向	-10.7339
故自	-10.734
有六	-10.7346
凶禍	-10.735
木木	-10.7351
於物	-10.7351
邦國	-10.7355
利以	-10.7357
一百三十	-10.7357
解元	-10.736
不逺	-10.7361
天地間	-10.7361
逢財	-10.7363
中星	-10.7364
未發	-10.7366
須看	-10.7367
斗柄	-10.7367
正西	-10.7368
者死	-10.7372
星占三	-10.7373
方成	-10.7375
不滿	-10.7377
主大貴	-10.738
通變	-10.738
陽徳	-10.7382
臨財	-10.7382
辛為	-10.7384
巫咸曰太白	-10.7387
坐禄	-10.7389
明則	-10.739
而退	-10.7391
則又	-10.7394
盛而	-10.7399
小餘	-10.7401
有形	-10.7401
將兵	-10.7403
皆從	-10.7404
䟽	-10.7407
別	-10.7409
尉	-10.7411
性急	-10.7412
燈	-10.7414
汚	-10.7416
畔	-10.7416
㢘	-10.7417
幼	-10.7417
禄元	-10.7418
昔王由是	-10.742
肇	-10.7421
忙	-10.7421
丙午丁未	-10.7422
三代	-10.7422
之家	-10.7422
成都	-10.7422
此書	-10.7423
纎	-10.7423
拒	-10.7423
戀	-10.7425
從其	-10.7427
隄防	-10.743
大將出	-10.7433
殊不知	-10.7434
作用	-10.7434
陽數	-10.7434
原守	-10.7437
其分	-10.7437
藝術	-10.7437
之理也	-10.7439
前一辰	-10.7439
光輝	-10.7443
水旱	-10.7445
俱貴	-10.7447
其吉凶	-10.7452
由此	-10.7455
居家	-10.7458
黄帝座	-10.7459
亦難	-10.7462
骨起	-10.7465
四隅	-10.7468
徃來	-10.7468
只為	-10.7469
風雲	-10.7469
聚散	-10.747
火火	-10.747
通書曰	-10.7471
以來	-10.7471
兵死	-10.7472
八八	-10.7473
蛇虎	-10.7479
成於	-10.7485
見官	-10.7486
月朔	-10.7487
火生土	-10.7488
甲申乙酉	-10.7491
五十日	-10.7494
者何也	-10.7497
嵗君	-10.7497
七七	-10.7499
干神	-10.75
存乎	-10.7502
吉丅	-10.7502
此數	-10.7503
盛則	-10.7505
天街	-10.7506
禄貴	-10.7506
術家	-10.7507
火多	-10.7509
中下	-10.7511
吉利	-10.7511
有土功事	-10.7511
或見	-10.7513
然亦	-10.7517
十八年	-10.7518
應在	-10.7519
夾拱	-10.7519
死敗	-10.7521
故爲	-10.7523
赤星	-10.7523
乙丙丁	-10.7526
成象	-10.7528
動作	-10.7529
加子	-10.753
不絶	-10.7534
無以	-10.7534
此命	-10.7534
一一	-10.7539
陰人	-10.7541
最重	-10.7545
之聲	-10.7549
始也	-10.755
見貴	-10.755
牛羊	-10.7552
千五百	-10.7553
起者	-10.7554
則非	-10.7558
數曰	-10.756
星曜	-10.7565
難免	-10.7567
尅夫	-10.7568
木盛	-10.7569
求其	-10.7571
日用	-10.7575
夜貴	-10.7578
十四年	-10.7583
圓而	-10.7588
一歲	-10.7594
神也	-10.7594
世子	-10.7595
故能	-10.7597
重權	-10.7598
一曰有	-10.7599
進神	-10.76
五際	-10.7601
六二	-10.7601
臨照	-10.7601
襄王	-10.7602
寅木	-10.7606
陽貴	-10.7606
一六	-10.7607
終也	-10.7608
財祿	-10.7609
是也如	-10.7611
恩星	-10.7613
鬼賊	-10.7614
不能自	-10.7616
二十七日	-10.7618
挨	-10.762
福厚	-10.762
失道	-10.7621
歲枝	-10.7623
蟄	-10.7628
星入命	-10.763
創	-10.763
嗚呼	-10.7631
膠	-10.7631
歷	-10.7631
河皷	-10.7632
人情	-10.7632
蔭	-10.7633
豁	-10.7633
巨蟹	-10.7634
盧	-10.7635
軸	-10.7636
苟	-10.7636
匡	-10.7637
陞	-10.7637
寢	-10.7639
洪潤	-10.7639
牆	-10.7641
窄	-10.7642
离	-10.7642
驀	-10.7642
王廷光曰	-10.7643
石勒	-10.7643
研	-10.7644
壮	-10.7644
膏	-10.7644
飛宫	-10.7645
期三十日	-10.7645
无咎	-10.7645
巨富	-10.7646
互垣	-10.7646
繼是謂	-10.7647
所云	-10.7647
無水	-10.7648
午中	-10.765
臨日	-10.7654
要知	-10.7656
三卷	-10.7656
跳	-10.7657
一例	-10.7658
山縣	-10.7658
之勢	-10.7659
火羅計孛	-10.7663
夜生人	-10.7664
文明	-10.7665
三百二十	-10.7666
貧薄	-10.7667
貴格云	-10.7667
四刻	-10.7668
降婁	-10.7668
昭明	-10.7671
朔望	-10.7675
能尅	-10.7677
宦者	-10.7679
庫樓	-10.7684
干透	-10.7685
少女	-10.7695
七公	-10.7697
有兩	-10.7699
大者	-10.7702
月日	-10.7705
一百四十	-10.7707
三變	-10.7709
以火	-10.7713
動者	-10.7713
詳之	-10.7715
缺陷	-10.7715
二至	-10.7716
值之	-10.7729
有傷	-10.773
積水	-10.7731
竒偶	-10.7732
冬至日	-10.7732
又得	-10.7741
第九	-10.7742
建除	-10.7743
日下	-10.7747
問曰	-10.7748
安得	-10.7756
交差	-10.7757
之力	-10.7759
耳目	-10.776
慾	-10.7763
俟	-10.7764
大熟	-10.7765
則日	-10.7766
君王	-10.7772
遁甲	-10.7775
周子	-10.7775
不逢	-10.7778
荆州占曰熒惑守	-10.7782
長年	-10.7783
無故自	-10.7788
六變	-10.779
近於	-10.7799
重者	-10.7801
餘年	-10.7804
上盤	-10.7812
者名曰	-10.7814
金剛	-10.7816
中分	-10.7818
一旬	-10.7821
二十四度	-10.7821
辰星守	-10.7823
者以其	-10.7825
五品	-10.7826
正垣	-10.7829
時刻	-10.7835
若與	-10.7835
專政	-10.7836
亦自	-10.7837
遇水	-10.784
其一	-10.784
生貴子	-10.7842
明帝	-10.7844
軟	-10.7845
睡	-10.7846
為天地	-10.7846
天吏	-10.7848
安居	-10.7848
踐	-10.7849
緑	-10.7851
第二星	-10.7851
瞽	-10.7851
羲	-10.7851
難為	-10.7852
趾	-10.7854
㦸	-10.7854
矣然	-10.7855
暇	-10.7856
大人當之	-10.7857
効	-10.7858
狡	-10.7858
姑洗	-10.7859
欣	-10.786
鈞	-10.7861
破散	-10.7861
諸煞	-10.7862
歇	-10.7863
岸	-10.7863
以四	-10.7863
為天之	-10.7863
蘭臺	-10.7864
上元甲子	-10.7864
坤艮	-10.7865
酋	-10.7865
山根	-10.7872
四金	-10.7872
君死	-10.7876
則必	-10.7879
甲子旬	-10.788
所由	-10.788
謀反	-10.7882
暗合	-10.7884
畨	-10.7884
五千	-10.7885
刪去	-10.7886
以時	-10.7886
刑獄	-10.7886
見庚	-10.7894
前一位	-10.7894
在斗	-10.7896
有火	-10.7896
寅巳	-10.79
富而	-10.7901
無非	-10.7903
火炎	-10.7909
災福	-10.791
乙辛	-10.7911
地閣	-10.7913
謹按	-10.7913
不見其	-10.7922
心腹	-10.7925
者正	-10.7929
為太尉	-10.7929
水多	-10.7934
喜怒	-10.7935
嵗駕	-10.7938
少㣲	-10.7938
何所	-10.794
不救	-10.7941
不能制	-10.7941
盛衰	-10.7943
兩宫	-10.7946
南河	-10.7952
五爲	-10.7953
六辛日	-10.7954
衰旺	-10.7954
乘白虎	-10.7955
在乎	-10.7955
子雲	-10.7958
此亦	-10.7959
有倚托	-10.796
來尅	-10.7961
平行	-10.7963
無餘	-10.7963
日支	-10.7963
生扶	-10.7968
火燒	-10.7974
庚辛日	-10.7974
荆州占曰辰星	-10.7975
為性	-10.7977
在其中矣	-10.799
權星	-10.7991
火月	-10.7992
以别	-10.7994
解之	-10.7996
徙居	-10.7999
等日	-10.8001
下為	-10.8007
上官	-10.8008
出乎	-10.8008
柔日	-10.8009
亦當	-10.8012
運氣	-10.8016
風流	-10.8019
以見	-10.8021
十六卦	-10.8026
生于	-10.8033
可用	-10.8039
而自	-10.804
朝元	-10.8042
各以其	-10.8045
形神	-10.8047
孟子	-10.8049
在此	-10.805
一爻	-10.8051
者歟	-10.8052
𫝊送	-10.8053
九地	-10.8055
官鄉	-10.8064
不得力	-10.8065
皷	-10.8066
誇	-10.8066
欲其	-10.8067
坐實	-10.8067
墓庫	-10.807
主政	-10.8072
土宿	-10.8074
謀事	-10.8075
莫能	-10.8076
古者	-10.8076
神樞經曰	-10.8077
線	-10.808
薪	-10.808
喉	-10.8081
鳯凰	-10.8082
火盛	-10.8083
煉	-10.8084
整	-10.8084
無凶	-10.8085
僉憲	-10.8085
旨	-10.8086
麤	-10.8086
挺	-10.8086
勞碌	-10.8086
四十日	-10.8087
顛倒	-10.8087
酷	-10.8088
臻	-10.8088
惜	-10.8088
膺	-10.8088
兵權	-10.8089
大神	-10.8089
枝葉	-10.8092
蒸	-10.8093
附路	-10.8094
女牀	-10.8095
墓絶	-10.8095
束	-10.8096
霽	-10.8096
主夀	-10.8097
程子	-10.8097
疾厄宫	-10.8097
状	-10.8097
死囚	-10.8098
伏兵	-10.8102
天首	-10.8106
萬五千	-10.8108
一十二	-10.8113
他宫	-10.8113
祖宗	-10.8115
陰私	-10.8116
大槩	-10.8122
同前	-10.8123
遇金	-10.8125
入南斗	-10.8128
諧	-10.813
順而	-10.8133
七九	-10.8135
人主憂	-10.8135
孤尅	-10.8138
命身	-10.8139
戌中	-10.8141
占訟	-10.8141
禽獸	-10.8141
兵出	-10.8149
先生曰	-10.8154
之氣也	-10.8155
民人	-10.8158
亦不可	-10.8159
大義	-10.8159
人皆	-10.8162
八門	-10.8162
蒼龍	-10.8162
福氣	-10.8165
稱帝	-10.8167
甘氏曰熒惑	-10.8175
十六度	-10.818
不甚	-10.8181
不雜	-10.8185
大起	-10.8187
支辰	-10.819
發生	-10.8191
氣候	-10.8193
西門	-10.8195
月以	-10.82
眼目	-10.8201
八尺	-10.8207
風雷	-10.8208
信也	-10.8213
例推	-10.8214
今測	-10.8216
五氣	-10.8218
貴乎	-10.822
十七度	-10.8222
正北	-10.8223
居上	-10.8229
四六	-10.8231
辛癸	-10.8232
如占	-10.8235
五隂	-10.8235
貴臣	-10.8237
若逄	-10.824
文字	-10.8241
皆同	-10.8241
晦日	-10.8241
文公	-10.8247
六十甲子	-10.8251
遲疾	-10.8251
云云	-10.8253
易者	-10.8254
失勢	-10.8261
終無	-10.8265
天火	-10.8268
而進	-10.8268
古法	-10.827
胎元	-10.8273
上天	-10.8276
一半	-10.8286
大小運	-10.8286
長而	-10.829
冀	-10.8295
震艮	-10.8298
海中占曰熒惑	-10.8302
石氏讃曰	-10.8305
其凶	-10.8308
而推	-10.8309
潦	-10.8312
攘	-10.8314
又值	-10.8314
凖頭	-10.8314
㕘	-10.8315
盆	-10.8317
藴	-10.8317
蒲	-10.8319
南官候曰	-10.8319
鑄	-10.832
冊	-10.832
懶	-10.8321
茅	-10.8322
詭	-10.8322
尚有	-10.8322
西官候曰	-10.8323
積尸	-10.8323
副使	-10.8324
雙魚	-10.8324
𤣥枵	-10.8325
壺中子云	-10.8325
艱辛	-10.8326
論其	-10.8327
市賈	-10.8328
寅申己亥	-10.8329
苖	-10.833
金石	-10.8331
臯	-10.8331
蓍龜	-10.8334
陽道	-10.8336
數十	-10.8339
門戸	-10.8344
晷長	-10.8344
主富貴	-10.8345
丑戌	-10.8345
日出夘	-10.8346
不容	-10.8346
必敗	-10.8348
一週	-10.8348
救神	-10.8351
十有九	-10.8352
解神	-10.8354
不取	-10.8355
九卿	-10.8355
三十度	-10.8356
以十二	-10.8361
晦朔	-10.8362
為患	-10.8363
八風	-10.8364
是書	-10.8373
得土	-10.8373
天地萬物	-10.8375
順布	-10.8376
王莽	-10.8379
日則	-10.8381
治之	-10.8384
震之	-10.8387
所守	-10.8393
十二位	-10.8394
人主有憂	-10.8396
隂道	-10.8399
旺之地	-10.8401
然其	-10.8402
四爲	-10.8404
直符加	-10.8407
地網	-10.841
之辭	-10.8414
月煞	-10.8417
木生火	-10.8417
入東井	-10.8417
其書	-10.842
正當	-10.8421
納財	-10.8422
八爲	-10.8422
六丙	-10.8423
盛也	-10.8423
至午	-10.8423
財神	-10.8424
經天	-10.8427
當頭	-10.843
庚午辛未	-10.843
先看	-10.843
能知	-10.8432
不可見	-10.8432
十五年	-10.8432
黒氣	-10.8433
天地之數	-10.8434
東門	-10.8434
其言	-10.8438
坤乙	-10.8438
孝經	-10.8439
進而	-10.8441
有生	-10.8446
皆言	-10.8453
於後	-10.8453
及第	-10.8457
家道	-10.8457
天恩	-10.8464
街	-10.8466
而隂	-10.8479
即以	-10.8482
清秀	-10.8483
屯之	-10.8483
子加	-10.8484
其行	-10.849
筭得	-10.8491
不能生	-10.8495
在腹	-10.8497
巳宫	-10.8497
甲己	-10.8498
多疾	-10.8498
同論	-10.8499
天厨	-10.8501
四百八十	-10.8508
三百五十	-10.8509
開元	-10.8516
中正	-10.852
瀆	-10.8521
千四十	-10.8527
四際	-10.8527
地方	-10.8527
隂干	-10.853
冬生	-10.8536
之色	-10.8536
甲戌乙亥	-10.8538
宫分	-10.854
帝覽嬉曰月	-10.8541
毋	-10.8541
至今	-10.8544
一十五	-10.8547
恰	-10.8547
相資	-10.8548
宛	-10.8549
斛	-10.8549
救助	-10.855
涼	-10.855
駁	-10.8551
確	-10.8552
靠	-10.8552
術數類	-10.8552
𤣥冥占曰	-10.8553
漢書五行志曰	-10.8553
挾	-10.8553
髓	-10.8554
鑒	-10.8554
地四	-10.8555
玉厯曰	-10.8555
秩	-10.8555
督	-10.8555
彪	-10.8555
滿用	-10.8557
无	-10.8557
買	-10.8558
粹	-10.8559
貼	-10.8559
壺	-10.856
􁁿	-10.856
匠	-10.856
廵	-10.8562
溫	-10.8562
潮	-10.8562
六七八九	-10.8563
無間	-10.8564
長者	-10.8564
壬癸亥子	-10.8564
衣服	-10.8565
時則	-10.8565
玩	-10.8565
朋友	-10.8566
爪	-10.8567
■	-10.8567
對曰	-10.8568
羡	-10.8568
牡	-10.8571
隴	-10.8571
蝠	-10.8572
株	-10.8572
三六	-10.8576
長沙	-10.8577
壬戌癸亥	-10.8582
不富	-10.8582
㑹之	-10.8586
程子曰	-10.8592
破害	-10.8592
皇極	-10.8596
壬子癸丑	-10.8604
多見	-10.8605
酉金	-10.8607
分隂陽	-10.8609
在西方	-10.8612
甸	-10.8615
假令甲子	-10.8617
亦非	-10.8618
時臨	-10.8621
為殃	-10.8621
三百八十四	-10.8624
憂患	-10.8624
坐之	-10.8626
有異	-10.863
嵗時	-10.8634
不嫌	-10.8634
帶疾	-10.8638
謀望	-10.8638
事不	-10.8638
成立	-10.8643
郄萌曰客星守	-10.8646
六乙	-10.8646
之源	-10.8648
觜參	-10.8649
歲徳	-10.865
者勝	-10.865
反是	-10.8652
最要	-10.8653
多憂	-10.8656
羣臣	-10.8658
榮昌	-10.8662
化成	-10.8663
在已	-10.8664
併則	-10.8666
不得其	-10.8666
亡也	-10.8667
中藏	-10.8668
以待	-10.8668
申金	-10.8669
更㸔	-10.8671
年四月	-10.8672
百世	-10.8672
七十日	-10.8674
以木為	-10.8684
二曜	-10.8686
又逢	-10.8686
大吕	-10.8689
田宅宫	-10.8697
雲如	-10.8704
騎官	-10.8704
神氣	-10.8706
又遇	-10.8706
未當	-10.8707
加未	-10.8709
金生水	-10.871
歲刑	-10.8711
而東	-10.8711
尅戰	-10.8714
三際	-10.8715
得志	-10.8716
巳巳	-10.8717
凶將	-10.8718
流亡	-10.872
文帝	-10.8721
四體	-10.8725
生於申	-10.8726
官居	-10.8732
頭髙	-10.8733
以命	-10.8734
呪	-10.8736
嵗星守	-10.8737
六癸日	-10.874
性剛	-10.8743
二百三十	-10.8747
邊兵	-10.8748
者天地之	-10.8749
遇火羅	-10.8749
民流	-10.8749
則陽	-10.875
或是	-10.8751
子云	-10.8752
歲月	-10.8753
九六	-10.8754
天尾	-10.8755
其心	-10.876
帝覽嬉曰月暈	-10.876
虚中	-10.8762
巫咸	-10.8771
喜事	-10.8771
年少	-10.8771
斗魁	-10.8772
之師	-10.8774
黒道	-10.8775
不長	-10.8775
天魁	-10.8777
國多	-10.8779
並起	-10.8781
惡弱	-10.8781
二二	-10.8786
脊	-10.8788
死䘮	-10.879
鼈	-10.8791
天下兵	-10.8791
杪	-10.8793
司馬彪天文志曰孝	-10.8794
幷	-10.8795
春夏秋冬	-10.8795
鞭	-10.8795
翰	-10.8795
涵	-10.8796
甄曜度曰	-10.8796
旌	-10.8797
靜而	-10.8797
轄	-10.8798
以理	-10.8798
培	-10.8799
眠	-10.8799
踵	-10.8799
覩	-10.88
猜	-10.88
迴	-10.88
蠻	-10.88
鬱	-10.8802
掠	-10.8802
猾	-10.8802
嫩	-10.8802
群	-10.8803
而不能	-10.8803
寅中	-10.8805
田蠶	-10.8806
啞	-10.8806
午日	-10.8807
扶身	-10.8807
預	-10.8807
此即	-10.8808
懿	-10.8808
次吉	-10.8809
産厄	-10.881
星戊	-10.881
主兵	-10.8812
夷則	-10.8818
處暑	-10.8819
深淺	-10.882
翌	-10.8822
伐鄭	-10.8824
山之	-10.8828
破蕩	-10.8834
大臣誅	-10.8834
有慶	-10.8835
仲春	-10.8836
而不用	-10.884
㑹稽	-10.8841
吕申	-10.8845
人遇	-10.8846
之時也	-10.8846
如金	-10.8846
義例	-10.8849
相傷	-10.8852
司天	-10.8852
四曰	-10.8853
不顯	-10.8858
十四度	-10.8859
石氏曰客星守	-10.8861
大事	-10.8864
富有	-10.8867
豐厚	-10.8869
重犯	-10.8873
不識	-10.8874
五尺	-10.8875
取義	-10.8876
附耳	-10.8876
五不	-10.888
生水	-10.8881
宰輔	-10.8882
離祖	-10.8887
四寸	-10.8897
乾坤之	-10.8898
少微	-10.8899
二百八十	-10.89
牢獄	-10.891
天下安	-10.8916
不可用	-10.8918
滿日	-10.892
隂盛	-10.8929
二百六十	-10.8931
人以	-10.894
)(□/□)	-10.8941
二句	-10.8948
名天	-10.8953
王道	-10.8954
得金	-10.8958
相和	-10.8959
金金	-10.896
小星	-10.896
郗萌曰嵗星守	-10.8965
之位也	-10.8972
但得	-10.8972
其應	-10.8974
之所由	-10.8974
於陽	-10.8976
戰於	-10.8978
臣謀	-10.8978
流水	-10.8978
不失其	-10.8982
午火	-10.8991
石氏曰填星守	-10.8993
大禍	-10.8996
子辰	-10.9004
方能	-10.9007
代立	-10.9007
為賊	-10.9018
之基	-10.9022
歲徳合	-10.9024
白雲	-10.9025
更帶	-10.9025
好色	-10.9026
銀	-10.903
釣	-10.9032
郄萌曰客星	-10.9033
荘	-10.9033
𤣥齋曰	-10.9034
胎神	-10.9035
法以	-10.9038
䖏	-10.9039
中生	-10.904
四星在	-10.904
漫	-10.9042
綬	-10.9042
加以	-10.9043
宇宙	-10.9044
另	-10.9044
元命包曰	-10.9045
堪輿經曰	-10.9045
洗	-10.9046
春秋感精符曰	-10.9047
𤣥戈	-10.9048
子母	-10.9049
納音為	-10.9051
破軍殺將	-10.9051
駒	-10.9052
院	-10.9052
綏	-10.9052
水火木金	-10.9052
有合	-10.9052
進人口	-10.9053
不可犯	-10.9053
必見	-10.9053
撃	-10.9053
簒	-10.9054
羸	-10.9054
陋	-10.9054
四千三百	-10.9054
有德令	-10.9054
淨	-10.9054
魂魄	-10.9055
怕逢	-10.9056
積隂	-10.9057
耿	-10.9058
升殿	-10.906
袖中金	-10.9061
頁	-10.9062
霞	-10.9065
厯例曰凡	-10.9066
星占十	-10.9066
事皆	-10.9066
制其	-10.9067
賢愚	-10.9068
商賈	-10.9069
主人勝	-10.9072
午酉	-10.9076
昴畢	-10.908
校官	-10.9082
丙申丁酉	-10.9087
而已矣	-10.9088
其福	-10.9088
救之	-10.9089
陽故	-10.9091
上總	-10.9092
在西	-10.9095
三合六合	-10.9098
徒流	-10.9099
後二辰	-10.9102
終日	-10.9111
天樞	-10.9114
天船	-10.9115
上六	-10.9115
色黒	-10.9116
譬如	-10.9116
雲雨	-10.912
神靈	-10.9122
其類	-10.9125
十十	-10.9137
其變	-10.9138
運到	-10.9139
柔順	-10.914
丙寅丁卯	-10.9152
而北	-10.9152
天厠	-10.9153
隂私	-10.9156
入宅	-10.9159
不交	-10.916
五寸	-10.916
而動	-10.9165
以陽	-10.9167
日夜	-10.9171
之正位	-10.9173
之文	-10.9179
坐貴	-10.9181
夜將	-10.9181
空虚	-10.9184
尤重	-10.9184
土神	-10.9185
二象	-10.9188
爵禄	-10.9188
甲生	-10.919
禄命	-10.919
禍不	-10.9192
而至	-10.9193
亦多	-10.9194
遇煞	-10.9196
皆凶	-10.9196
巳加	-10.9198
石氏曰月	-10.92
火入	-10.9206
年時	-10.9206
青赤	-10.9207
賤人	-10.9209
太尉	-10.921
相逄	-10.9211
六子	-10.9213
水神	-10.9213
甲庚	-10.9215
犯乗	-10.922
之異	-10.9221
非惟	-10.9222
賢者	-10.9224
則從	-10.9224
為尊	-10.9225
離鄉	-10.9225
先天之	-10.9232
為相	-10.9233
只以	-10.9233
變則	-10.9239
兩重	-10.924
右旋	-10.924
三元紫白上元一白	-10.9242
取諸	-10.9249
開物	-10.925
艮丙	-10.9251
尤忌	-10.9252
端正	-10.9255
此限	-10.926
通月氣	-10.926
此説	-10.9267
外國	-10.9268
書之	-10.9269
倣	-10.9272
多因	-10.9274
曹震圭	-10.928
星度	-10.9282
九爲	-10.9282
肘	-10.9283
丙寅日	-10.9284
他禽	-10.9284
艱	-10.9288
以八	-10.929
澗	-10.9291
金絶	-10.9293
生尅制化	-10.9295
日行一度	-10.9296
恤	-10.9297
者何	-10.9297
忍	-10.9299
國有大	-10.9301
慝	-10.9303
沛	-10.9304
腑	-10.9304
足肣	-10.9306
荆州占曰客星守	-10.9306
鈎鈐	-10.9307
孫士毅	-10.9307
亭	-10.9308
訪	-10.9308
昀	-10.9308
裔	-10.9309
靖	-10.9309
䰟	-10.9309
運喜	-10.931
霖	-10.931
糴大貴	-10.931
梅	-10.931
富貴榮華	-10.931
國易政	-10.9311
一行	-10.9313
床	-10.9313
獐	-10.9313
亾	-10.9315
迍邅	-10.9316
財旺生官	-10.9319
稜	-10.9319
羅網	-10.9319
北河戍	-10.932
超羣	-10.9321
積筭	-10.9322
當作	-10.9324
減力	-10.9326
神為用	-10.9327
豐盈	-10.9329
崇勲	-10.933
在南方	-10.933
學問	-10.9335
異姓	-10.9336
虎狼	-10.9338
王室	-10.9341
格縁	-10.9344
閉口	-10.9344
不臨	-10.9344
行藏	-10.9351
五曰	-10.9354
艮巽	-10.936
上應	-10.936
以候	-10.9362
卯宫	-10.9364
土多	-10.9364
赤黄	-10.9364
六際	-10.9372
宫度	-10.9374
日食	-10.9377
六甲日	-10.9378
情性	-10.9378
五不遇	-10.9382
二爲	-10.9386
十倍	-10.9387
有大喪	-10.9387
季月	-10.9393
縱然	-10.9394
而分	-10.9394
背禄	-10.9395
下元	-10.9398
而長	-10.9406
從天	-10.9412
五陽	-10.9413
所當	-10.9413
寅午戌火	-10.9415
大恭	-10.9418
隂貴	-10.9424
水生木	-10.9425
執政	-10.9426
必先	-10.9428
分度	-10.9428
天廟	-10.9428
萬八千	-10.9429
伏藏	-10.9433
二宿	-10.9436
以兵	-10.9436
年七月	-10.9437
龍穴	-10.9441
和徳	-10.9444
百年	-10.9451
丈人	-10.9454
四七	-10.9455
定為	-10.9456
十九年	-10.9457
巳中	-10.9461
之府	-10.9469
井鬼	-10.9471
亢金	-10.9473
通於	-10.9481
以當	-10.9483
雹	-10.9485
亦不宜	-10.9485
作六合	-10.9492
日禽	-10.9497
失財	-10.9499
有軍	-10.9499
竒數	-10.9501
便有	-10.9503
為命	-10.9504
以類	-10.9504
吉㑹	-10.9505
莽	-10.9506
五事	-10.9506
不立	-10.9508
開日	-10.9513
度分	-10.9517
而變	-10.9517
以配	-10.9518
星乙	-10.9519
丙丁火	-10.9525
俱全	-10.9525
寧縣	-10.9526
精氣	-10.9527
宜行	-10.9532
十四日	-10.9533
為禄主	-10.9535
每月	-10.9539
世人	-10.954
若入	-10.954
建元	-10.9543
象曰	-10.9547
有道	-10.9547
失行	-10.9551
得貴人	-10.9551
曹操	-10.9552
緊	-10.9558
所傷	-10.9558
日日	-10.956
竇	-10.9561
同到	-10.9562
巳卯	-10.9562
膝	-10.9562
皇帝王伯	-10.9565
驪	-10.9566
璇	-10.9566
巡	-10.9567
𤓰	-10.9567
芝	-10.9567
赤雲	-10.9567
遮	-10.9567
蟠	-10.9568
訂	-10.9568
吸	-10.9569
慿	-10.9569
冶	-10.957
淹	-10.957
方吉	-10.957
膚	-10.957
雷霆	-10.9571
爛	-10.9572
逞	-10.9573
游魂	-10.9573
者一曰	-10.9573
淫泆	-10.9573
胎養	-10.9574
遶	-10.9575
鬚	-10.9575
臨官帝旺	-10.9576
身命二主	-10.9576
九疇	-10.9576
甲午乙未	-10.9577
得所	-10.9582
之相也	-10.9583
䨇	-10.9583
事不成	-10.9584
雷電	-10.9584
主夭	-10.9585
弟兄	-10.9585
之墓	-10.9585
有小	-10.959
燋	-10.959
化象	-10.9591
千户所	-10.9596
又曰天	-10.96
與前	-10.96
喜逢	-10.96
否泰	-10.9601
稍輕	-10.9601
九十日	-10.9606
上旬	-10.9607
軍中	-10.961
入命宫	-10.961
歌云	-10.9612
反主	-10.9614
元首	-10.9615
因而	-10.9618
将軍	-10.962
相濟	-10.9625
宫也	-10.9629
遼東	-10.9629
巽辛	-10.963
不肯	-10.9633
如甲人	-10.9637
喜身旺	-10.9637
郎位	-10.9638
重叠	-10.9642
長男	-10.9643
事業	-10.965
東海	-10.9651
母星	-10.9656
平生多	-10.9658
後一辰	-10.9661
䏻	-10.9662
害子	-10.9663
若犯	-10.9666
東山	-10.9667
星宿	-10.9667
是月	-10.9668
重而	-10.9669
年九月	-10.967
淫亂	-10.9671
財喜	-10.9672
大要	-10.9672
色黃	-10.9679
紀法	-10.9682
兩府	-10.9696
之器	-10.9699
甲申日	-10.9699
也須	-10.97
遊年	-10.9701
運中	-10.9702
三旬	-10.9711
大旺	-10.9714
逢水	-10.9715
春秋分	-10.9715
以求	-10.9718
已後	-10.972
逢土	-10.9721
祿主	-10.9722
相犯	-10.9723
三百一十	-10.9724
入箕	-10.9725
忌行	-10.9727
不親	-10.9732
坐下	-10.9736
著於	-10.9745
易以	-10.9746
頭低	-10.9748
死一曰	-10.9754
生土	-10.9761
雨露	-10.9762
以五行	-10.9763
三百四十	-10.9765
擊之	-10.977
逆則	-10.9772
逢官	-10.9773
官訟	-10.9774
豫州	-10.9781
煞刃	-10.9784
有災	-10.9784
無火	-10.9786
同在	-10.9789
爐	-10.9796
夾貴	-10.9797
千八十	-10.98
出外	-10.9805
人主有	-10.9807
故日	-10.9807
而守之	-10.9807
避之	-10.981
之任	-10.981
獨立	-10.9813
蒼白氣入	-10.9813
自來	-10.9819
山頭	-10.982
亦作	-10.9823
十二㑹	-10.9827
臍	-10.9827
片	-10.9829
聊	-10.983
概	-10.9832
濡	-10.9832
篤	-10.9832
磨蝎	-10.9832
䖝	-10.9833
模	-10.9833
尤凶	-10.9833
九寸	-10.9833
七十二候	-10.9833
朝天	-10.9834
之末	-10.9834
年五月	-10.9835
等謹案	-10.9836
鬢	-10.9836
想	-10.9838
徧	-10.9838
大林	-10.9838
嵗星入	-10.9839
則能	-10.9839
摩	-10.9839
廪	-10.984
鎖	-10.984
縈	-10.984
伴	-10.9842
刀砧	-10.9842
蠢	-10.9843
疵	-10.9843
墳墓	-10.9843
有反臣	-10.9844
慘	-10.9845
恊	-10.9845
籥	-10.9847
虢	-10.9848
期二十日	-10.9848
一隂一陽	-10.9848
畝	-10.9848
大臣為亂	-10.9849
煇	-10.985
巷	-10.9851
忻	-10.9851
閉塞	-10.9854
京師	-10.9854
兼有	-10.9855
乾坤坎離	-10.9856
相承	-10.9858
天子有	-10.9861
辰中	-10.9862
貧苦	-10.9862
土氣	-10.9862
於天地	-10.9862
獬	-10.9864
成局	-10.9865
如在	-10.9866
見辛	-10.9867
井泉	-10.9867
减半	-10.9869
期六月	-10.987
十二時	-10.987
出于	-10.9871
數起	-10.9871
血氣	-10.9873
日月㑹於	-10.9874
平頭	-10.9875
見戊	-10.9877
不具	-10.9878
南吕	-10.9879
室家	-10.9879
主文章	-10.988
富足	-10.9882
孤寒	-10.9883
戊午己未	-10.9884
只怕	-10.9884
則隂	-10.9885
背祿	-10.9886
公卒子	-10.9886
星辛	-10.9886
月支	-10.9887
壬辰癸巳	-10.9889
損傷	-10.9891
私門	-10.9893
辰月	-10.9897
亦凶	-10.9897
土居	-10.9897
倒限	-10.9897
二十年	-10.9898
如甲寅	-10.9903
順數至	-10.9904
軍市	-10.9904
天廐	-10.9906
而西	-10.9909
六為	-10.9909
天人	-10.9911
催	-10.9913
之禄	-10.9915
道徳	-10.9923
帶殺	-10.9927
不平	-10.9928
四神	-10.9929
王孫	-10.993
赤氣出	-10.9935
害也	-10.9936
荆州占曰太白守	-10.9936
夀考	-10.9937
者皆為	-10.9937
水位	-10.9938
厥隂	-10.9939
輕清	-10.9942
山下	-10.9944
寅日	-10.9945
未成	-10.9945
髙貴	-10.9947
一辰	-10.9948
下文	-10.9949
難以	-10.9949
伐木	-10.995
安能	-10.9951
木羅	-10.9952
有徳	-10.9953
之南	-10.9956
之榮	-10.9958
亦猶	-10.9958
三百八十	-10.996
戊辰己巳	-10.996
以此為	-10.9964
錢財	-10.9965
申辰	-10.9969
職位	-10.9975
弱宫	-10.998
武徳	-10.999
失度	-10.9992
水氣	-10.9993
五七	-10.9996
詳其	-10.9997
相成	-10.9998
行乎	-11.0001
十六年	-11.0002
來侵	-11.0003
代之	-11.0003
生我者	-11.0004
為司空	-11.0016
己申	-11.0019
相停	-11.0019
昭公	-11.0024
在震	-11.0026
之體也	-11.0026
而遇	-11.0035
金孛	-11.0037
一十六	-11.004
戊巳日	-11.004
衰則	-11.0044
太重	-11.0047
石氏曰熒惑入	-11.0047
星丙	-11.0051
可免	-11.0053
庚辛為	-11.0054
好殺	-11.0056
復歸	-11.0056
見丙	-11.0057
荆州占曰熒惑入	-11.0063
宜用	-11.007
其野	-11.007
大武	-11.0072
豈非	-11.0076
星甲	-11.0076
中書	-11.0081
先王	-11.0081
星壬	-11.0081
日宿	-11.0082
我禽	-11.0085
致其	-11.0085
亥將	-11.0086
土生	-11.0089
此圖	-11.009
無尅	-11.0092
交戰	-11.0092
為人性	-11.0094
碎	-11.0094
傷人	-11.0096
凶曜	-11.0097
不能尅	-11.0097
蜺	-11.0099
不純	-11.0099
天文志	-11.0102
嘆	-11.0102
蹄	-11.0102
菽	-11.0103
而後有	-11.0107
春秋運斗樞曰	-11.011
浩	-11.0111
胃昴畢	-11.0111
傷官傷盡	-11.0111
董仲舒	-11.0112
劈	-11.0112
螣	-11.0114
豕生	-11.0114
星癸	-11.0114
號曰	-11.0115
六日七分	-11.0115
茀	-11.0115
末年	-11.0116
毀	-11.0116
觜觿	-11.0118
李鼎祚曰	-11.0118
姚	-11.0118
神白經云	-11.012
嬪	-11.012
卿相	-11.012
瘥	-11.0121
死喪	-11.0121
堯舜	-11.0122
穩	-11.0122
等事宜	-11.0122
齡	-11.0122
謗	-11.0123
中犯乘守	-11.0123
皆由	-11.0123
潭	-11.0123
迷惑	-11.0123
虗	-11.0123
合煞	-11.0124
梗	-11.0125
怠	-11.0126
級	-11.0126
天囷	-11.0126
之流	-11.0127
不違	-11.0128
破相	-11.0129
諸儒	-11.0129
珞琭子云	-11.0129
巴	-11.0129
不治	-11.013
二百五十	-11.0131
蹻	-11.0131
自縊	-11.0132
㺄	-11.0133
疲	-11.0135
黄鍾	-11.0136
有誅者	-11.0137
十日不下	-11.0139
興造	-11.0142
名譽	-11.0144
未見	-11.0146
三十日不下	-11.0147
使之	-11.0148
飛天	-11.015
星躔	-11.015
也且如	-11.0151
天下大旱	-11.0154
少卿	-11.0154
四瀆	-11.0156
權柄	-11.0156
去一	-11.0158
榮枯	-11.016
八白	-11.016
有子	-11.0161
旬首	-11.0161
天潢	-11.0161
星庚	-11.0163
星丁	-11.0164
斷其	-11.0167
後學	-11.0167
為祥	-11.0172
如正月	-11.0174
羅孛	-11.0176
日生人	-11.0176
柔弱	-11.0177
不肖	-11.018
皆屬	-11.0183
困於	-11.0184
極貴	-11.0186
析木	-11.0186
六卦	-11.0186
置為	-11.0188
本乎	-11.0188
再行	-11.0189
官禄宫	-11.0191
徳神	-11.0193
之灾	-11.0197
宅經	-11.0199
除之得	-11.0203
郎將	-11.0203
剛柔相	-11.0204
畫卦	-11.0205
令不行	-11.0208
隂陽和	-11.0209
元命	-11.0211
一萬	-11.0218
宋書天文志曰晉	-11.0221
天田	-11.0223
七元	-11.0226
也又云	-11.0226
起于	-11.0226
為福徳	-11.0235
作福	-11.0238
水鄉	-11.0238
黄赤	-11.0239
會於	-11.0239
直使	-11.0241
居下	-11.0243
皆無	-11.0249
陽位	-11.025
若出	-11.0252
相乘	-11.0257
三十分	-11.0272
所直	-11.0275
無土	-11.0278
盡於	-11.028
須得	-11.0281
更值	-11.0281
一㸃	-11.0285
為父母	-11.0287
申庚	-11.029
有名	-11.0291
地二	-11.0292
原無	-11.0294
之德	-11.0299
又當	-11.03
足下	-11.03
逆而	-11.03
一百七十	-11.0302
來年	-11.0303
無衝	-11.0304
時支	-11.0308
得木	-11.0308
穀貴	-11.0309
入獄	-11.031
門庭	-11.0312
天五	-11.0316
和平	-11.0319
色黑	-11.033
妨害	-11.0331
二十四山	-11.0335
冨	-11.0335
妻位	-11.0336
則止	-11.0336
也假如	-11.0337
可得而	-11.0337
不拘	-11.0338
而致	-11.0341
丑上	-11.0342
主病	-11.0343
隂數	-11.0345
尅命	-11.0345
七曜	-11.0346
星占四	-11.0347
内戰	-11.0347
十一年	-11.0349
限逢	-11.0353
死絶則	-11.0366
宫殿	-11.0366
荆州占曰客星入	-11.0368
不一	-11.0368
本無	-11.0374
外人	-11.0375
碧	-11.0375
加日	-11.0375
失之	-11.0376
初爻	-11.0379
大㑹	-11.0384
傳於	-11.0384
煞印	-11.0385
囬	-11.0386
庚子日	-11.0388
者此人君	-11.0389
皓	-11.0389
琴堂	-11.0392
姻	-11.0393
系	-11.0394
弼	-11.0394
雁	-11.0394
展	-11.0395
寫	-11.0396
巻	-11.0396
駭	-11.0396
警	-11.0397
宗鏡	-11.0397
屈伸	-11.0398
忠孝	-11.0398
瞻	-11.0398
揖	-11.0399
巍	-11.0399
却得	-11.0399
蠻夷	-11.04
見貴人	-11.04
號令	-11.04
漂	-11.04
昂	-11.0401
凸	-11.0401
淑	-11.0401
貝	-11.0401
甞	-11.0402
道路不通	-11.0402
四陽	-11.0403
紛紛	-11.0403
侮	-11.0403
廊廟	-11.0404
祕	-11.0405
東出	-11.0405
粉	-11.0406
戯	-11.0406
裳	-11.0407
惻	-11.0407
之課也象曰	-11.0408
班固	-11.0408
汲	-11.0408
歳月	-11.0409
伺	-11.0409
焰	-11.041
甘露	-11.041
繋	-11.041
殂	-11.0411
五星在	-11.0412
邀	-11.0413
翳	-11.0413
逓	-11.0413
太史	-11.0413
裘	-11.0413
殿駕	-11.0416
爭訟	-11.0419
五福	-11.042
繫於	-11.042
坡	-11.042
同處	-11.0421
奸淫	-11.0421
獄訟	-11.0421
性情形體	-11.0422
並見	-11.0425
尤的	-11.0425
卦也	-11.0427
爾雅曰	-11.043
焉故	-11.0433
星明大	-11.0435
入輿鬼	-11.0436
渉害	-11.0439
分而為	-11.0439
柔剛	-11.0441
張衡	-11.0441
戊子己丑	-11.0442
之所生	-11.0448
以爲	-11.0448
最嫌	-11.0451
妨妻	-11.0458
貴人禄馬	-11.046
一歳	-11.0462
之令	-11.0465
逐月	-11.0465
因之	-11.0469
為首	-11.0469
龜卜	-11.047
更相	-11.0473
有常	-11.0473
甲辰日	-11.0474
氐宿	-11.0475
猶有	-11.0477
不背	-11.0486
出師	-11.0486
敵人	-11.0488
夘上	-11.0488
推其	-11.049
用此	-11.0491
傍有	-11.0493
七寸	-11.0493
來臨	-11.0494
諸神	-11.0495
中𫝊	-11.0497
之原	-11.0497
交中	-11.0499
夭夀	-11.05
馬元	-11.0504
不能勝	-11.0504
路傍	-11.0505
為次	-11.0506
得意	-11.0507
矣今	-11.0507
虚名	-11.0508
太師	-11.0508
延年	-11.0511
北落	-11.0512
之光	-11.0512
故知	-11.0515
隂建於	-11.0516
向上	-11.0516
多災	-11.0516
將出	-11.0519
乾宫	-11.0521
守東井	-11.0526
乎此	-11.0529
庶出	-11.0531
冬水	-11.0531
乘氣	-11.0539
光芒	-11.0539
六八	-11.0541
以立	-11.0541
上宫	-11.0542
六尺	-11.0544
年中	-11.0548
禮義	-11.0549
交數	-11.0553
二際	-11.0554
長子	-11.0561
山家	-11.0563
三星在	-11.0564
參將	-11.0567
季夏	-11.0567
大衍之數	-11.0573
而居	-11.0576
號天	-11.0577
為司徒	-11.0582
天地之心	-11.0584
月氣	-11.0585
不可當	-11.0587
十七年	-11.0588
絶處	-11.0591
不敬	-11.0591
財食	-11.0591
存其	-11.0593
又在	-11.0594
夏至後	-11.0594
人死	-11.0598
十三日	-11.0599
其宫	-11.0599
坤下	-11.0601
安寧	-11.0616
比之	-11.0619
尊貴	-11.0622
本象	-11.0623
大時	-11.0624
惟宜	-11.0625
將來	-11.0626
𫝊曰	-11.0627
孛月	-11.0627
卯戌	-11.0628
也按	-11.0628
鬼旺	-11.0632
易政	-11.0633
強宫	-11.0635
帶合	-11.0636
化火	-11.0639
金鄉	-11.0641
水性	-11.0644
無所得	-11.0651
與水	-11.0651
壬子日	-11.0658
矣夫	-11.0659
之分野	-11.066
而入	-11.066
其外	-11.0661
行南	-11.0665
處世	-11.0669
乎地	-11.067
見前	-11.0677
凶吉	-11.0679
功成	-11.068
圏	-11.0684
吊	-11.0684
曠	-11.0684
記曰	-11.0685
爍	-11.0688
渭	-11.0688
闡	-11.0691
本數	-11.0691
漁	-11.0691
否之	-11.0691
石氏曰流星入	-11.0692
架	-11.0692
竿	-11.0693
讐	-11.0693
両	-11.0693
神名	-11.0694
叶	-11.0694
棘	-11.0694
湛	-11.0695
千萬	-11.0695
給諫	-11.0695
氐房心	-11.0695
明萬民英撰	-11.0695
此地	-11.0696
拾	-11.0696
廉貞	-11.0697
譬之	-11.0697
期九十日	-11.0697
暫	-11.0698
元㑹運世	-11.0699
捧	-11.0699
即位	-11.0699
閩	-11.07
也所以	-11.07
杵臼	-11.07
錯綜	-11.07
從陽	-11.0701
呈	-11.0701
攀	-11.0702
倪	-11.0702
巖	-11.0703
麒麟	-11.0704
俱無	-11.0704
鳥獸	-11.0704
夹	-11.0705
孝經章句曰	-11.0705
其徳	-11.0705
撞	-11.0706
那堪	-11.0707
皇極經世書	-11.0707
天下和平	-11.0707
尤吉	-11.0707
不出二年	-11.0709
穰	-11.0709
浄	-11.0709
寳瓶	-11.0711
皇太子	-11.0711
與金	-11.0712
乾甲	-11.0713
六爲	-11.0713
煦按	-11.0714
黄氣	-11.0714
賢良	-11.0715
乞	-11.0716
肅殺	-11.0716
搜	-11.0717
顯貴	-11.0718
為政	-11.0719
以安	-11.0719
雙親	-11.0723
世俗	-11.0726
之分也	-11.0727
風塵	-11.0728
積日	-11.0729
當應	-11.0729
小腸	-11.073
中取	-11.0732
庚寅辛卯	-11.0733
亦要	-11.0733
玉衡	-11.0733
離火	-11.0737
臨支	-11.0737
紫白	-11.0739
之尊	-11.0739
奈何	-11.0743
火光	-11.0744
歸魂	-11.0744
化水	-11.0746
伏逆	-11.0747
令人	-11.0748
為最	-11.0749
朝堂	-11.0751
補龍	-11.0752
益州	-11.0753
推太乙	-11.0753
鬼谷	-11.0755
多能	-11.0756
尺五寸	-11.0757
消詳	-11.0758
萬物皆	-11.0758
民多疾	-11.0765
發用為	-11.0768
揚州	-11.0769
形貌	-11.0772
未盡	-11.0775
其文	-11.0776
閏月	-11.0777
禮記	-11.0779
光澤	-11.078
又占曰嵗星守	-11.0781
盛陽	-11.0782
刃煞	-11.0782
兖州	-11.0783
乙酉日	-11.0785
不得地	-11.0788
化木	-11.0792
次看	-11.0793
加於	-11.0793
合神	-11.0796
百二十日	-11.0797
萬二千	-11.0798
分晝五十	-11.0798
逢煞	-11.0802
舉事	-11.0804
休旺	-11.0807
目下	-11.0807
之精也	-11.081
事事	-11.0812
氣象	-11.0812
存焉	-11.0812
者富貴	-11.0813
治亂	-11.0817
九數	-11.0817
老人星	-11.0819
黄鐘之	-11.0819
地氣	-11.0821
相距	-11.0822
得局	-11.0824
四立	-11.0824
乃能	-11.0824
刺史	-11.0827
六壬日	-11.0828
正廟	-11.0828
又看	-11.0829
巫咸曰熒惑守	-11.083
必作	-11.083
水盛	-11.0831
被人	-11.084
貴相	-11.0844
▁元	-11.0845
四字	-11.0846
百六十	-11.0846
如甲乙	-11.085
丙壬	-11.085
名臣	-11.0851
印旺	-11.0852
龍蛇	-11.0853
兵將	-11.0853
金居	-11.0858
近侍	-11.086
不清	-11.086
有助	-11.0862
四柱中	-11.0864
其國有憂	-11.0867
次序	-11.0868
本末	-11.0869
午巳	-11.087
而歸	-11.087
開門	-11.0874
甲丙	-11.0874
中心	-11.0876
四尺	-11.0876
有禍	-11.0878
之干	-11.088
家室	-11.0882
則福	-11.0883
人之所	-11.0883
大率	-11.0886
相親	-11.0889
天髙	-11.0891
自死	-11.0894
又作	-11.0897
不憂	-11.0897
之術	-11.0901
秋金	-11.0903
又曰嵗星守	-11.0903
舉其	-11.0904
之類也	-11.0909
為五十	-11.0912
寅夘辰	-11.0919
直難	-11.092
雖無	-11.0924
重濁	-11.0925
有禄	-11.0926
肖	-11.0926
不露	-11.0929
無心	-11.093
之難	-11.093
病人	-11.0935
紫微	-11.0935
加官	-11.0938
相死	-11.0941
室壁	-11.0949
參差	-11.095
此章	-11.0951
日子時	-11.0955
太白犯守	-11.0956
六府	-11.0958
需之	-11.096
陰氣	-11.0974
產	-11.0979
再遇	-11.0979
疇	-11.098
鈎陳	-11.098
若值	-11.0983
旺火	-11.0986
到頭	-11.0986
在北方	-11.0986
羞	-11.0989
暖	-11.099
稼	-11.0991
纍	-11.0991
明白	-11.0991
彈	-11.0991
宋書天文志曰	-11.0992
㓂	-11.0993
湧	-11.0993
四變	-11.0994
脇	-11.0994
障	-11.0995
娶婦	-11.0996
告貴	-11.0997
噬	-11.0997
森	-11.0998
鄕	-11.0998
羊刄	-11.0999
矣而	-11.0999
客大勝	-11.1
朴	-11.1
洽	-11.1001
逾	-11.1001
骸	-11.1002
幣	-11.1002
窩	-11.1003
数	-11.1003
妃后	-11.1003
釁	-11.1003
鰥寡	-11.1003
六乙日	-11.1004
濃	-11.1006
變異	-11.1006
時憲書	-11.1007
不分	-11.1008
之卦也	-11.1008
三爻	-11.1009
燃	-11.101
甲午日	-11.101
都督	-11.1011
死而	-11.1011
兹謂	-11.1012
昏迷	-11.1013
自古	-11.1013
未央	-11.1019
古歌云	-11.1019
壽夭	-11.1019
亥卯	-11.1022
鎻	-11.1023
淺薄	-11.1023
石氏	-11.1024
犬生子	-11.1027
星家	-11.1027
兩星	-11.1028
摇動	-11.1028
土地	-11.1031
巳申	-11.1034
申巳	-11.1035
滿野	-11.1036
十二神	-11.1037
塡實	-11.1038
天將軍	-11.1039
雙全	-11.104
太玄	-11.104
其力	-11.1042
無他	-11.1044
出羣	-11.1047
乃五行	-11.1052
其日宜	-11.1052
十二宫中	-11.1055
天乙貴	-11.1057
人民飢	-11.1058
復還	-11.106
者君	-11.1062
之格	-11.1062
鬼神之	-11.1066
人得之	-11.1068
有神	-11.1068
食傷	-11.1072
二火	-11.1073
加盤	-11.1076
九紫	-11.1076
若行	-11.1077
荆州占曰流星	-11.1083
禳	-11.1087
誰知	-11.1087
三角	-11.1092
江縣	-11.1093
黄帝占曰月	-11.1093
宿一偏西二度	-11.1093
乙丑日	-11.1095
萬三千	-11.1097
青州	-11.1098
輔臣	-11.1098
各得其	-11.1099
坐煞	-11.1099
限中	-11.1099
為白虎	-11.1105
之厯	-11.1109
寅位	-11.1111
以諭	-11.1111
何憂	-11.1115
同心	-11.1127
雙生	-11.1128
相雜	-11.113
八星	-11.113
多凶	-11.1131
生助	-11.1137
春令	-11.1139
生年	-11.1146
商人	-11.1146
破印	-11.1152
逐年	-11.1158
生育	-11.1159
傷財	-11.116
車馬	-11.1162
堂堂	-11.1168
其嵗	-11.117
公事	-11.1171
星照	-11.1173
郗萌占曰月	-11.1174
甲戌旬	-11.1177
為事	-11.1182
合起	-11.1186
退而	-11.1195
郗萌曰辰星	-11.1196
河内	-11.1197
須㸔	-11.1198
減之	-11.1204
平滿	-11.1212
河間	-11.1216
萬象	-11.1216
海中占曰嵗星	-11.1217
此之謂	-11.1217
不信	-11.1217
七八月	-11.1225
周流	-11.1227
福徳宫	-11.123
度距	-11.1233
官庫	-11.1237
六己	-11.1241
故無	-11.1242
之客	-11.1243
短命	-11.1244
清髙	-11.1249
申戌	-11.1249
無射	-11.1251
星己	-11.1252
見癸	-11.1254
所藏	-11.1255
壬亥	-11.1255
不照	-11.126
好惡	-11.1261
如甲子日	-11.1261
或作	-11.1261
相制	-11.1262
石氏曰客星入	-11.1263
庚辰辛巳	-11.1264
丙子丁丑	-11.1265
失次	-11.1266
三爲	-11.1267
水朝	-11.1268
子水	-11.1269
相通	-11.127
不收	-11.1273
嵗星犯守	-11.1275
太和	-11.1279
旺中	-11.128
辛未日	-11.1281
天地之間	-11.1282
為救	-11.1282
化煞	-11.1287
五宫	-11.1288
甲辰旬	-11.1291
為生氣	-11.1291
别有	-11.1291
限星	-11.1291
亥水	-11.1292
自己	-11.1292
答	-11.1293
沸	-11.1297
破亡	-11.1297
走失	-11.1298
餙	-11.1298
𠖇	-11.1301
門具將發	-11.1302
初一日	-11.1303
墓神	-11.1303
所指之國	-11.1304
周易	-11.1304
綠	-11.1305
所居之	-11.1306
永平	-11.1307
睟	-11.1308
誥	-11.131
勒	-11.131
籠	-11.1311
悞	-11.1311
順行十二辰	-11.1311
以備	-11.1312
菓	-11.1313
瘟	-11.1313
紹	-11.1313
邊境	-11.1314
壤	-11.1314
㪚	-11.1315
探花	-11.1315
嘯	-11.1315
仗	-11.1316
為官印	-11.1316
巫咸讃曰	-11.1317
遙	-11.1318
卽	-11.1318
濳	-11.1319
秀麗	-11.132
技	-11.132
必致	-11.1322
坤上	-11.1323
智慧	-11.1324
螟蛉	-11.1325
運轉	-11.1325
入亢	-11.1325
音聲	-11.1325
暌	-11.1326
庾	-11.1327
勾絞	-11.1327
熒惑逆行	-11.1327
天秤	-11.1328
壬午癸未	-11.1331
求事	-11.1334
置閏	-11.1336
鑄印	-11.1337
尅我者	-11.1339
異常	-11.1339
偏枯	-11.1339
有白衣	-11.134
反背	-11.1343
怪異	-11.1345
石氏曰嵗星守	-11.135
災咎	-11.1351
太冲	-11.1351
星學大成卷	-11.1355
地元	-11.1356
實則	-11.1359
旬内	-11.1365
與時	-11.1366
楊氏	-11.1367
最難	-11.1367
威武	-11.1368
者盖	-11.1372
生地	-11.1372
相併	-11.1373
所尅	-11.1375
飲酒	-11.1376
傷害	-11.1376
兩般	-11.1377
猶可	-11.1377
庫墓	-11.1378
與坤	-11.1379
守心	-11.138
宗人	-11.138
暴死	-11.1383
十一曜	-11.1388
客勝	-11.1392
帶刃	-11.1397
通闗	-11.1401
三門	-11.1401
順則	-11.1404
有黒痣	-11.1405
遭刑	-11.1411
寅甲	-11.1412
不到	-11.1412
炎炎	-11.1413
有尅	-11.1417
三焦	-11.1421
見火羅	-11.1424
逢生旺	-11.1424
所傳	-11.1425
泄氣	-11.1426
為㓙	-11.1428
則用	-11.1429
午位	-11.1431
色惡	-11.1433
若帶	-11.1439
景長	-11.1439
徐州	-11.144
入天市	-11.1445
交錯	-11.1449
榖貴	-11.145
分晝夜	-11.1451
為正官	-11.1454
今厯	-11.1454
下盤	-11.1456
五殘	-11.1457
黒雲	-11.1459
天三	-11.1463
論五行	-11.1465
天子失	-11.1465
之母	-11.1465
考之	-11.1466
平縣	-11.1467
守房	-11.1469
河圖帝覽嬉曰月	-11.147
耳假令	-11.1473
有反者	-11.1479
九賛	-11.1479
少男	-11.1485
二卦	-11.1485
豈知	-11.1487
之為言	-11.1494
神龜	-11.1498
二寸	-11.1499
三合局	-11.1501
丑日	-11.1501
謀為	-11.1501
亦謂	-11.1509
政令	-11.151
東方木	-11.1512
黃帝占曰熒惑	-11.1514
十有一	-11.1515
海中	-11.1518
刑合	-11.1519
兩邊	-11.1523
雖貴	-11.1525
兖	-11.1528
並行	-11.1536
國有兵	-11.1538
不傷	-11.1538
必貴	-11.1543
長大	-11.1545
巳火	-11.1546
妻星	-11.1546
肯	-11.1552
孛同	-11.1554
天地之中	-11.1555
江南	-11.1557
相乗	-11.1558
土生金	-11.156
之宮	-11.1562
五弱	-11.1562
申位	-11.1567
二十三日	-11.1567
取財	-11.1575
乙竒	-11.1579
之狀	-11.1582
七赤	-11.1582
海中占曰太白	-11.1583
二切	-11.1583
不移	-11.1584
元士	-11.159
財官印綬	-11.1591
此類	-11.1595
限遇	-11.1602
春木	-11.1605
匱	-11.1605
餘皆	-11.1605
胞	-11.1606
求福	-11.1611
忒	-11.1611
稚	-11.1611
註文	-11.1611
齧	-11.1612
尊長	-11.1616
方圓	-11.1618
海水	-11.1621
無端	-11.1622
髀	-11.1622
織	-11.1623
其母	-11.1624
大數	-11.1624
牝	-11.1624
易緯曰	-11.1624
嶺	-11.1625
絳	-11.1626
期百八十日逺一年	-11.1626
軍在外	-11.1627
麋	-11.1627
打頭火	-11.1628
援神契曰	-11.1629
合誠圖曰	-11.1629
鯉	-11.163
軀	-11.1631
葬造後	-11.1631
形夫	-11.1632
魚星	-11.1633
鹽	-11.1633
鑰	-11.1633
成勾己	-11.1634
供	-11.1634
駝	-11.1634
褒	-11.1635
狸	-11.1635
天月二徳	-11.1636
天徳月徳	-11.1636
惶	-11.1636
官煞混雜	-11.1636
婢妾	-11.1637
憕	-11.1637
雛	-11.1638
赫	-11.1638
劒鋒	-11.1639
閻	-11.1639
霄	-11.1639
崖	-11.1639
春秋圗曰	-11.1639
溝瀆	-11.164
臆	-11.164
替	-11.1641
蹤	-11.1641
翹	-11.1641
悴	-11.1641
煎	-11.1642
惕	-11.1643
穎	-11.1643
春秋緯曰彗星出	-11.1644
必因	-11.1645
文曜鈎曰熒惑	-11.1645
庖	-11.1645
煌	-11.1645
鑚	-11.1645
囦	-11.1647
赴	-11.1647
經絡	-11.1647
摶	-11.1648
費力	-11.1648
蹇滯	-11.1649
自子至	-11.1649
變動	-11.1649
細推詳	-11.1649
奸邪	-11.165
覇	-11.165
苻	-11.165
紀綱	-11.1651
聘	-11.1652
翟	-11.1654
妖星	-11.1654
南河戍	-11.1655
兒孫	-11.1655
較量	-11.1655
屋上	-11.1656
根源	-11.1657
顯赫	-11.1657
丙辰丁巳	-11.1657
闗梁	-11.166
被傷	-11.1661
母倉	-11.1665
朱子謂	-11.1666
庶民	-11.1669
天下大赦	-11.167
昊天	-11.167
龍角	-11.1671
亦爲	-11.1672
修營	-11.1673
京氏曰日蝕	-11.1676
秀而	-11.1677
將軍死	-11.1682
丙子日	-11.1685
莫教	-11.1688
炁孛	-11.1694
法經曰	-11.1697
飛刃	-11.1697
此所謂	-11.1697
觀物	-11.1699
天干透	-11.17
月空	-11.17
乾上	-11.1701
安静	-11.1701
天年	-11.1702
縱使	-11.1703
太卜	-11.1709
厚薄	-11.1711
奎宿	-11.1715
古今同一星	-11.1716
梟神	-11.1717
失物	-11.172
却是	-11.1721
主一生	-11.1723
欽定四庫全書欽定協紀辨方書卷	-11.1723
病訟	-11.1724
不足以	-11.1725
宜忌	-11.1728
聚衆	-11.1728
星命	-11.1729
河水	-11.173
積卒	-11.1739
刑殺	-11.174
官災	-11.174
陽刄	-11.1742
又次之	-11.1743
黑道	-11.1754
清竒	-11.1754
二干	-11.1756
虎視	-11.1757
内篇	-11.1759
丑中	-11.1765
之始也	-11.1768
六戊日	-11.1776
不顧	-11.1777
支干上	-11.1778
宿中	-11.1781
行遲	-11.1782
元來	-11.1782
顯逹	-11.1782
又加	-11.1784
炁星	-11.1788
神將吉	-11.1788
主為人	-11.1793
蝕神	-11.1794
明暗	-11.1797
然必	-11.1798
交車	-11.1802
衰弱	-11.1802
秋令	-11.1806
不改	-11.181
示人	-11.1817
庶子	-11.1818
寄生	-11.182
散為	-11.1823
失禮	-11.1824
又占曰嵗星	-11.1824
國亂	-11.1827
無名	-11.1836
嵗徳	-11.1837
天鬼	-11.1839
牛女	-11.1843
自身	-11.1847
兩位	-11.1849
皆因	-11.185
刑法	-11.1851
反成	-11.1855
性格	-11.1855
守輿鬼	-11.1857
此說	-11.1862
西東	-11.1868
無物	-11.187
日徳	-11.187
相輔	-11.1871
卯時	-11.1879
天象	-11.188
本原	-11.1881
六十年	-11.1883
小口	-11.1884
課也	-11.1884
一百一十	-11.1885
而推之	-11.1886
術數	-11.1892
必招	-11.1897
我者	-11.19
未知	-11.1902
從心	-11.1903
福慶	-11.1903
十六位	-11.1904
參兩	-11.1912
坎癸申辰	-11.1913
火制	-11.1921
或遇	-11.1922
不能成	-11.1924
我尅	-11.1932
官司	-11.1938
之憂	-11.194
月通	-11.1941
在東井	-11.1942
不獨	-11.1942
七十二日	-11.1946
晶	-11.1949
卜之	-11.195
俞	-11.1951
所止	-11.1952
蔡氏	-11.1953
和順	-11.1953
身亡	-11.1955
屵	-11.1955
期在	-11.1956
己身	-11.1958
汗	-11.1959
療	-11.196
淋	-11.196
斤	-11.1961
閔	-11.1962
日益	-11.1962
肚	-11.1962
頦	-11.1963
咽	-11.1963
囿	-11.1964
吁	-11.1965
感精符曰	-11.1966
顴	-11.1968
紐	-11.1968
五行要論云	-11.1968
祉	-11.1968
遏	-11.1969
憐	-11.1969
二十九日	-11.1969
横吉安	-11.197
瑞應圖曰	-11.197
不見之形	-11.197
爰	-11.1971
礙	-11.1971
偕	-11.1971
僵	-11.1972
皇極經世	-11.1972
郭璞	-11.1972
轅	-11.1972
生旺則	-11.1974
冡	-11.1974
之長生	-11.1974
娵訾	-11.1974
鈐	-11.1974
謡	-11.1974
劍鋒	-11.1974
窟	-11.1975
逮	-11.1975
捉	-11.1975
煖	-11.1977
䑓	-11.1978
詰	-11.1978
堅牢	-11.1978
喧	-11.1978
唫	-11.1979
伏尸	-11.1979
染	-11.198
髙祖	-11.1981
親戚	-11.1981
弄	-11.1982
榆	-11.1982
不調	-11.1982
土土	-11.1982
贏縮	-11.1982
踦	-11.1983
失國	-11.1984
天蝎	-11.1986
乘軒	-11.1986
井欄	-11.1987
雞鳴	-11.199
峙	-11.199
兵起宫中	-11.199
入井	-11.1991
聮	-11.1991
也其日忌	-11.1993
獨歩	-11.1993
吳越	-11.1995
六十日不下	-11.1996
漸漸	-11.1996
失利	-11.1998
兩全	-11.1999
五伯	-11.2
一篇	-11.2001
三百七十	-11.2002
二中	-11.2005
淫慾	-11.2006
庚子辛丑	-11.2013
離珠	-11.2015
亦通	-11.2017
土重	-11.202
也曇瑩曰	-11.2021
震雷	-11.2022
無衝破	-11.2023
巳字	-11.2023
卯木	-11.2024
尺六寸	-11.2025
自殺	-11.2025
論曰	-11.2027
大都	-11.2031
愚按	-11.2032
天根	-11.2033
日法	-11.2034
𤣥胎	-11.2042
少子	-11.2042
刼殺	-11.2042
本體	-11.2047
入貴格	-11.2049
惠王	-11.2049
究其	-11.205
刻八分	-11.205
庚辛壬癸	-11.2053
人民饑	-11.2057
月食	-11.2058
囚者	-11.2059
好命	-11.2062
失火	-11.2067
不載	-11.2068
相背	-11.2069
天子以	-11.2076
卦變	-11.2084
山澤	-11.2084
雜氣財官	-11.2086
孝經内記曰日	-11.2091
人之命	-11.2092
戊子日	-11.2095
憂喜	-11.2097
年月日	-11.21
二課	-11.2103
有雲	-11.2105
六丙日	-11.2106
兩濟	-11.2107
甘氏曰嵗星	-11.2107
此象	-11.211
祖父	-11.2112
正形	-11.2113
以俟	-11.2114
甘氏曰熒惑守	-11.2115
長垣	-11.2115
黄帝占曰太白	-11.2117
尅母	-11.2117
丙竒	-11.2118
互見	-11.212
有急令	-11.2123
亦忌	-11.2127
天王	-11.213
五行生旺	-11.2132
也餘倣此	-11.2136
大興	-11.2137
母子	-11.214
起筭	-11.2141
一運	-11.2142
承天	-11.2145
州刺史	-11.2152
却喜	-11.2154
暗中	-11.2154
民饑	-11.2157
惠帝	-11.2158
石氏曰太白入	-11.2159
截路	-11.2159
必遭	-11.2159
虛中	-11.2165
天江	-11.2174
官刑	-11.2175
兩極	-11.2178
建祿	-11.2179
四庫	-11.218
專論	-11.2186
楚王	-11.2188
稱心	-11.2191
兵在外	-11.2193
三合五行	-11.2195
井中	-11.2197
艮上	-11.22
也故以	-11.2202
於西方	-11.2204
夘月	-11.2204
命元	-11.2206
從下	-11.2212
艮兊	-11.2218
入室	-11.2221
庚壬	-11.2222
辛酉日	-11.2223
夘未	-11.2224
祗	-11.2226
大道	-11.2229
格葢	-11.223
别無	-11.2231
多智	-11.2232
吉陳曰	-11.2234
二品	-11.2237
室宿	-11.2238
若能	-11.2239
何者	-11.2241
不為凶	-11.2242
欲求	-11.2243
郗萌曰客星	-11.2244
財宫	-11.2247
二百一十六	-11.225
多淫	-11.225
大動	-11.2252
以義	-11.2256
形勢	-11.2258
相關	-11.2264
能為福	-11.2264
以養	-11.2274
鳴吠	-11.2275
離上	-11.2277
元帝	-11.2278
有聲名	-11.2281
何疑	-11.2287
亡國	-11.2288
於東南	-11.229
未有不	-11.2291
痣	-11.2292
槍	-11.2292
河海	-11.2293
霆	-11.2294
年而	-11.2295
廕	-11.2297
玉管照神	-11.2299
泗	-11.23
守昴	-11.23
景帝	-11.2301
鄒	-11.2302
考異郵曰	-11.2303
妓	-11.2305
受兵	-11.2306
茫	-11.2306
喘	-11.2307
司馬彪天文志曰	-11.2307
傲	-11.2308
衣裳	-11.231
河圖帝覽嬉曰月犯	-11.231
諌	-11.231
股肱	-11.231
遽	-11.231
郄萌曰有星入	-11.2311
嚮	-11.2312
敘	-11.2312
脛	-11.2312
沐	-11.2313
松柏	-11.2313
莭	-11.2313
罹	-11.2313
屬翼軫分	-11.2313
氣數	-11.2314
廷尉	-11.2315
嗇	-11.2315
牧養	-11.2317
期不出二年	-11.2317
繹	-11.2317
恠	-11.2317
桐	-11.2318
軍敗	-11.2318
枚	-11.2318
艮震	-11.2318
映	-11.2319
聨	-11.2319
扐	-11.2319
恥	-11.232
狐狢	-11.2321
如意	-11.2321
個	-11.2321
絶命	-11.2322
斧鉞	-11.2322
立是謂	-11.2322
護	-11.2322
壽促	-11.2322
與我	-11.2323
有亂臣	-11.2323
耆	-11.2323
漂流	-11.2323
掌握	-11.2324
禄馬同鄉	-11.2324
妻家	-11.2324
泛濫	-11.2326
劇	-11.2326
赴任	-11.2327
飬	-11.2327
一畫	-11.2328
蒙昧	-11.2329
郗萌曰太白守	-11.233
二千石	-11.233
命書	-11.2331
逃走	-11.2334
限數	-11.2335
卯辰	-11.2336
所制	-11.2337
冀州	-11.2337
通判	-11.2339
釋氏	-11.2339
客星干犯	-11.2341
將帥	-11.2344
貴人多死	-11.2345
壬癸水	-11.2347
近君	-11.2347
鴈行	-11.2348
戰鬭	-11.2349
分氣候	-11.2358
耗散	-11.2358
其意	-11.2361
爐中	-11.2363
便作	-11.2363
期三月	-11.2368
遷轉	-11.2369
血支	-11.2377
雲漢	-11.2379
受殃	-11.2384
婁宿	-11.2385
閉物	-11.2385
夘戌	-11.2387
忠直	-11.2389
衝合	-11.2394
而用之	-11.2396
宅墓	-11.2396
軍上氣	-11.2399
天淵	-11.24
善終	-11.24
在己	-11.2403
之軰	-11.2407
禍殃	-11.241
熒或	-11.2412
人民流亡	-11.2413
甲申旬	-11.242
入斗	-11.2421
黑色	-11.2422
上爻	-11.2424
火鄉	-11.2425
主弱	-11.2428
天綱	-11.2429
禄居	-11.243
剛强	-11.2432
相錯	-11.2436
致富	-11.2441
雖曰	-11.2443
邑有兵	-11.2451
血忌	-11.2453
只在	-11.2455
凶死	-11.2457
開龜	-11.2458
義理	-11.2461
后族	-11.2463
滅亡	-11.2464
官位	-11.2465
至尊	-11.2466
併臨	-11.2467
此條	-11.2468
角木	-11.2469
賊臣	-11.247
黃帝	-11.2475
太始	-11.2476
九位	-11.2477
年月貴	-11.2477
獲其	-11.2479
得之者	-11.2483
有出者	-11.2486
中興	-11.2488
可見矣	-11.2491
正道	-11.2493
不為害	-11.2495
附於	-11.2498
相繼	-11.2499
精明	-11.2499
重疊	-11.2506
二黑	-11.2506
扶助	-11.2511
倚托	-11.2514
兩課	-11.2517
好事	-11.2522
青白	-11.2523
案宋書天文志曰	-11.2526
臨身命	-11.2527
難逃	-11.2531
㑹于	-11.2534
豐足	-11.2537
㑹諸侯	-11.2538
赤星入	-11.2539
最𦂳	-11.2541
有夀	-11.2544
戰尅	-11.2545
切不可	-11.2549
髙下	-11.255
柱中無	-11.2556
術者	-11.2558
乾卦	-11.2562
甲寅旬	-11.2564
也朱子曰	-11.2564
受胎	-11.2566
支離	-11.2567
頭圓	-11.2569
宦	-11.2586
月陽建	-11.2587
干音	-11.2589
灾禍	-11.259
水絶	-11.259
乎陽	-11.2592
三寸	-11.2597
巫咸曰填星	-11.2597
紫㣲	-11.2598
三能	-11.2599
躔度	-11.2599
列於	-11.2603
六巳日	-11.2603
之晷	-11.2613
凡論	-11.2613
一課	-11.2615
離壬寅戌	-11.2619
生旺之地	-11.2623
巫咸曰嵗星	-11.2626
始于	-11.2627
宜詳	-11.2631
巳酉丑月	-11.2632
不殊	-11.2632
惟忌	-11.2635
黄龍	-11.2638
八變	-11.2639
多寡	-11.2643
青黄	-11.2644
天輔	-11.2646
六處	-11.265
蚩尤	-11.2652
圓圖	-11.2653
乙巳日	-11.2656
山東	-11.266
縷	-11.266
各分	-11.2661
廊	-11.2662
弓弩	-11.2663
紫氣	-11.2663
靈棋	-11.2663
出月左方日在	-11.2664
希夷	-11.2664
為幣	-11.2665
奠	-11.2665
輻	-11.2665
岱	-11.2666
敗絶	-11.2666
財官印	-11.2666
反對	-11.2667
頷	-11.2667
瞳	-11.2668
鎔	-11.2668
鱉	-11.2669
疼	-11.2669
瓶	-11.2669
趕	-11.2669
簿	-11.2671
春秋合誠圖曰	-11.2671
期百二十日	-11.2672
元命苞曰	-11.2672
翰苑	-11.2672
出衆	-11.2673
僚	-11.2673
菜	-11.2673
態	-11.2673
震上	-11.2674
榜眼	-11.2674
裹	-11.2674
正月建寅	-11.2674
攜	-11.2675
輯	-11.2675
倡	-11.2675
帯	-11.2676
北官候曰	-11.2676
專以	-11.2677
黍稷	-11.2677
痕	-11.2677
麓	-11.2678
儘	-11.2679
參旗	-11.2679
荆州曰客星	-11.268
裕	-11.268
搏	-11.268
何也曰	-11.2682
分刺灸之	-11.2682
遊魂	-11.2682
色蒼	-11.2683
炳	-11.2684
丙丁巳午	-11.2684
鄭氏	-11.2684
荷	-11.2687
忠良	-11.2689
苛	-11.2691
鑑云	-11.2691
石氏曰彗星出	-11.2693
靈臺	-11.2693
遲速	-11.2694
為直符	-11.2697
旡妄	-11.27
相照	-11.2702
向前	-11.2703
姚興	-11.2704
炁月	-11.2704
丑丑	-11.2706
卓立	-11.2707
建武	-11.271
改元永	-11.2712
金銀	-11.2713
炁木	-11.2718
南方火	-11.2721
巫咸曰熒惑	-11.2724
金尅木	-11.2724
日丙寅時	-11.2724
􁎮	-11.2725
支合	-11.2725
日辰時	-11.2728
一陽生	-11.2729
宫立命	-11.2731
無疆	-11.2734
如玉	-11.274
龜星	-11.2741
虧盈	-11.2742
留連	-11.2744
形容	-11.2747
其星不明	-11.2748
獄事	-11.275
清華	-11.2751
眉目	-11.2751
日照	-11.2751
見義例	-11.2752
人口	-11.2755
富豪	-11.2756
命母	-11.2757
家門	-11.2761
以禮	-11.2761
受生	-11.2766
白手	-11.2766
辛亥日	-11.2767
色黄白	-11.2767
雷公	-11.2768
千二百	-11.2772
方隅	-11.2773
貧下	-11.2774
有白衣之㑹	-11.2781
為太極	-11.2782
六旬	-11.2783
又占曰太白	-11.2787
己午未	-11.2788
長生之地	-11.279
為上格	-11.2791
圓者	-11.2793
九星在	-11.2795
二百五十二	-11.2796
病患	-11.2798
宿一偏東三度	-11.2798
風伯	-11.28
長夀	-11.2801
王者有憂	-11.2803
乾兌	-11.2803
所謀	-11.2805
三河	-11.281
二十日以上	-11.2812
郗萌曰填星守	-11.2812
隂宫	-11.2812
只要	-11.2821
舉動	-11.2822
最貴	-11.2824
次舍	-11.2824
山河	-11.2825
𤣥妙	-11.2825
右耳	-11.2827
相等	-11.2827
十二次	-11.2831
殃咎	-11.2837
遥克	-11.2841
一百九十	-11.2843
小旱	-11.2845
景星	-11.2845
邊地	-11.2845
財帛宫	-11.2846
巫咸曰太白守	-11.2852
易位	-11.2854
天網	-11.2855
萬世	-11.2861
尤宜	-11.2867
戊寅日	-11.2868
觀之則	-11.2871
寅巳申	-11.2871
出遊	-11.2874
後限	-11.2875
而終於	-11.2876
黄帝占曰熒惑	-11.2876
月光	-11.2876
一段	-11.2879
命裏	-11.288
泰山	-11.2882
傷尅	-11.2883
五行之氣	-11.2883
主宰	-11.2884
氣和	-11.2885
往往	-11.2886
安然	-11.2886
巫咸曰辰星	-11.2887
入營室	-11.2888
限到	-11.2888
壬辰日	-11.2888
舊事	-11.2888
失政	-11.2888
百事皆	-11.2892
六十日内	-11.2896
但知	-11.29
三方主	-11.29
占婚	-11.2903
離散	-11.2917
只取	-11.2917
南方運	-11.2918
癸巳日	-11.2925
震下	-11.2931
北陸	-11.2932
又曰熒惑	-11.2932
休敗	-11.2933
愚曰	-11.2935
頭足	-11.2935
六庚日	-11.2939
就中	-11.294
二十一度	-11.2952
法度	-11.2955
相戰	-11.2955
乾坎	-11.2957
㐫死	-11.2958
泊命	-11.2959
乗氣	-11.2962
秦伐	-11.2962
冲破	-11.2968
擇日	-11.2972
寅邜	-11.2972
有憂一曰	-11.2974
乙未日	-11.2974
五黄	-11.2979
爻象	-11.2981
丁亥日	-11.2981
震庚亥未	-11.2985
千六十	-11.2986
桓公	-11.2987
戌未	-11.2995
相盪	-11.2998
重輕	-11.3
亦如之	-11.3001
入軫	-11.3002
四墓	-11.3003
改元建	-11.3005
壬寅日	-11.3008
出河	-11.3009
太多	-11.301
何處	-11.301
木兆	-11.3013
其人必	-11.3014
所在也	-11.3017
坤地西南	-11.3021
夀元	-11.3023
萬化	-11.3023
所建	-11.3023
栗	-11.3024
駿	-11.3029
詘	-11.3029
閨	-11.303
崔	-11.3031
無私	-11.3032
佚	-11.3032
牝牡	-11.3033
竄	-11.3034
豺	-11.3034
昬	-11.3035
憂疑	-11.3035
五十有五	-11.3036
蟄蟲	-11.3036
選擇宗鏡曰	-11.3037
修倉庫	-11.3037
有黜者	-11.3038
耶律	-11.3039
徳秀	-11.3039
孝經雌雄圖曰	-11.3039
蒿	-11.3039
癡	-11.3039
鮑	-11.304
潘	-11.304
僻	-11.304
偉	-11.304
扇	-11.3041
頒	-11.3041
汪	-11.3041
劔	-11.3041
分配	-11.3041
絮	-11.3042
雕	-11.3042
躓	-11.3042
恬	-11.3044
太傅	-11.3044
有徳令	-11.3044
膀胱	-11.3045
啼	-11.3046
狭	-11.3047
鐡	-11.3047
受其殃	-11.3048
綴	-11.305
吠	-11.305
梯	-11.305
行財運	-11.305
灾福	-11.3051
有戮死者	-11.3051
毫釐	-11.3051
五臟	-11.3053
度去極	-11.3053
徽	-11.3053
者此也	-11.3054
辛巳日	-11.3054
鉤	-11.3054
顓頊	-11.3056
袍	-11.3056
太宰	-11.3058
汾	-11.306
太簇	-11.3062
焦延夀曰	-11.3062
庚戌辛亥	-11.3063
燕趙	-11.3065
刑罰	-11.3068
老子	-11.3069
在焉	-11.3073
口訣	-11.3074
馬生子	-11.3075
隂陽升降	-11.3077
悦喜	-11.3078
生涯	-11.3078
澗下	-11.3079
一理	-11.3081
后宫	-11.3082
造父	-11.3083
傾危	-11.3085
其法以	-11.3086
其情	-11.3086
仲秋	-11.3086
真假	-11.3089
雒書	-11.3091
困窮	-11.3091
見木炁	-11.3094
有火災	-11.3096
戊戌己亥	-11.3096
倒衝	-11.3098
七百六十	-11.3101
廟樂	-11.3101
來往	-11.3103
鳴吠對	-11.3104
真官	-11.3105
作空亡	-11.3107
西没	-11.3108
餘奴	-11.3109
卦爻	-11.311
侍從	-11.3111
絶地	-11.3113
昴宿	-11.3121
虛危	-11.3122
盈虚	-11.3126
張子	-11.3129
失脱	-11.3131
男兒	-11.3131
孤陽	-11.3132
煞曜	-11.3135
樹木	-11.3136
入月中	-11.3136
尅父母	-11.3137
開市	-11.3139
一元之	-11.3141
海中占曰熒惑守	-11.3142
和諧	-11.3142
弧星	-11.3145
南陽	-11.3147
又怕	-11.3149
掛一	-11.315
相順	-11.3152
四序	-11.3154
紫微宫	-11.3155
休息	-11.3156
辛為官	-11.3158
一十三	-11.3161
王者憂	-11.3169
一隅	-11.317
庚午日	-11.317
嵗煞	-11.3171
在陽宫	-11.3175
眼下	-11.3175
龍門	-11.3178
財官俱	-11.3184
在東南	-11.3185
囚星	-11.3186
為仇	-11.3187
大流星	-11.3194
二十有四	-11.3195
郗萌曰嵗星入	-11.3195
尾宿	-11.3202
牛角	-11.3202
太衝	-11.3208
不完	-11.321
身命宫	-11.321
四百九十	-11.3211
井宿	-11.3213
妙理	-11.3213
天巫	-11.3221
妙用	-11.3225
前圖	-11.3225
須當	-11.3228
長久	-11.3234
申子辰水	-11.3238
不乆	-11.3239
一隂生	-11.3242
窮通	-11.3242
列國	-11.3246
郗萌曰流星	-11.3246
石氏曰太白犯	-11.3247
作亂	-11.3249
足開	-11.3252
天蓬	-11.3255
建旺	-11.3255
小周	-11.326
文曜鈎曰太白	-11.3262
千五十	-11.3267
太虚	-11.3269
尊星	-11.327
精微	-11.327
積薪	-11.3274
集於	-11.3274
西方金	-11.3281
六寸	-11.3284
同知	-11.3285
侯伯	-11.3288
丨灾	-11.3294
枕主	-11.3299
日墓	-11.33
語言	-11.3306
相貌宫	-11.3307
星入月中	-11.331
天下有急	-11.3311
己巳日	-11.3312
只作	-11.3316
一條	-11.3316
馬牛	-11.3316
止忌	-11.3317
六十卦	-11.3317
河東	-11.3321
哀帝	-11.3323
昭王	-11.3323
春風	-11.3324
南山	-11.3327
四季月	-11.3327
居南	-11.3333
六百四十	-11.3335
木為財	-11.3336
九百四十	-11.3349
涯	-11.335
古歌	-11.3351
𦂳要	-11.3354
庭中	-11.3356
尅竊	-11.3357
旺相氣	-11.336
三皇	-11.3362
十二吉山宜寅午戌申子辰年月日時	-11.3363
輔佐	-11.3366
中男	-11.3366
氏崩	-11.3366
柱中有	-11.3367
天西北	-11.3371
諸宫	-11.3371
雜卦	-11.3374
􁵸	-11.3378
按此	-11.3379
兩卦	-11.3382
相感	-11.3388
白虹	-11.3388
東西咸	-11.3391
后合	-11.3392
其國有兵	-11.3393
參伐	-11.3396
隂陽之氣	-11.3399
在奎	-11.3399
寸二分	-11.34
所忌者	-11.3401
腕	-11.3407
天地之氣	-11.3408
北斗魁中	-11.3409
綸	-11.341
洋	-11.341
頭目	-11.3412
踏	-11.3413
娣	-11.3413
虹蜺	-11.3414
福最	-11.3416
症	-11.3416
頰	-11.3416
句為一條	-11.3417
荀	-11.3418
澁	-11.3418
狡猾	-11.3419
身孤	-11.3419
以五色占	-11.342
驂	-11.342
陟	-11.342
匀	-11.3421
行人未至	-11.3421
搆	-11.3421
寤	-11.3421
凑	-11.3421
有始無終	-11.3422
枯槁	-11.3422
䖍	-11.3422
鑠	-11.3423
春占	-11.3423
斥	-11.3423
牲	-11.3424
在何宫	-11.3424
村	-11.3424
總要厯曰	-11.3425
僣	-11.3425
陷弱	-11.3426
結婚姻	-11.3427
石氏曰月暈	-11.3428
謫	-11.3428
滄海	-11.3428
呼吸	-11.3429
術曰置	-11.3429
悍	-11.3429
姿	-11.3429
甚明	-11.343
恱	-11.343
帳	-11.3431
殞	-11.3431
洞微	-11.3431
造𦵏	-11.3431
𨼆	-11.3432
前五辰	-11.3432
去復還	-11.3432
紊	-11.3433
詞訟	-11.3433
棗	-11.3434
堤	-11.3434
楊柳	-11.3434
姊妹	-11.3435
清潔	-11.3435
觴	-11.3436
思慮	-11.3436
貳	-11.3437
韋	-11.3437
惡人	-11.3438
龜蓍	-11.3439
伏犀	-11.3439
筭外即	-11.344
藻	-11.3441
酸	-11.3441
睿	-11.3442
裝	-11.3442
待時	-11.3443
恢	-11.3443
丁癸	-11.3443
心性	-11.3444
太過不及	-11.3444
雨雪	-11.3445
斬闗	-11.3445
江海	-11.3448
恐懼	-11.3449
壬申日	-11.3449
胎孕	-11.345
天子有喜	-11.345
句為一條言	-11.345
威儀	-11.3451
歡樂	-11.3451
嵗月日時	-11.3456
吉凶禍福	-11.3457
秋冬夜生	-11.346
發逹	-11.3462
魯衛	-11.3463
百川	-11.3464
工夫	-11.3466
水火相	-11.3466
在胃	-11.3467
六白	-11.3468
者言萬物	-11.3471
所生之	-11.3472
進賢	-11.3473
灾殃	-11.3473
海中占曰太白守	-11.3473
古今同二星	-11.3474
賢士	-11.3474
毒害	-11.3475
孟春	-11.3477
守禦	-11.3477
損財	-11.3479
天涯	-11.3479
幽州	-11.3481
夭亡	-11.3481
可制	-11.3482
非謂	-11.3483
大腸	-11.3484
壬寅癸卯	-11.3489
戰鬬	-11.3496
未詳	-11.3497
夾禄	-11.3498
向下	-11.3501
四野	-11.3505
如甲子年	-11.3506
五百七十	-11.3506
金錢	-11.3507
武庫	-11.3507
六甲生人	-11.3508
北夷	-11.3512
外篇	-11.3513
大臣有誅	-11.3515
小衍	-11.3517
厯法	-11.3517
去地	-11.352
尅父	-11.3524
暴敗	-11.3525
黄帝占曰熒惑守	-11.3526
先起	-11.3529
到老	-11.3529
於西北	-11.3529
在西南	-11.353
貧富	-11.3531
大驛	-11.3531
官灾	-11.3535
氣散	-11.3535
發動	-11.3536
胃昴	-11.3537
一路	-11.3538
失職	-11.3541
不可擊	-11.3544
不殆	-11.3544
小赦	-11.3547
存亡	-11.355
六秀	-11.3558
臨日辰	-11.3563
禄存	-11.3565
冬令	-11.3569
其邦	-11.3573
主貧賤	-11.3576
主聰明	-11.3576
參宿	-11.3576
合此格	-11.3577
頭尖	-11.3578
巽下	-11.3582
雷雨	-11.3583
兩端	-11.3585
辰巳午未	-11.3586
聚㑹	-11.3587
授時	-11.3588
水泛	-11.3594
淮南子	-11.3596
萬物之所	-11.3599
三停	-11.36
白氣入	-11.3605
荆州占曰嵗星守	-11.3607
為僧	-11.3614
以寅為	-11.3614
宗星	-11.3621
多端	-11.3624
不幸	-11.3624
遇土計	-11.3624
收藏	-11.3626
相傳	-11.3626
智者	-11.3628
為奴	-11.3629
環繞之	-11.3638
七百七十	-11.3638
被刑	-11.3642
入奎	-11.3644
目疾	-11.3649
蓬星	-11.3653
假使	-11.3655
候星	-11.366
稱兵	-11.3662
幹事	-11.3664
旬始	-11.3668
雲龍	-11.368
名之曰	-11.3688
所歸	-11.369
財元	-11.3701
木曜	-11.3708
乙癸	-11.3708
為𦂳	-11.371
陽爻	-11.3714
火庫	-11.3716
方伯	-11.3718
遂意	-11.3729
一端	-11.373
方圖	-11.3736
十有七	-11.3737
相迎	-11.374
之輩	-11.374
卯酉為	-11.3745
終須	-11.3746
財寳	-11.3747
不孝	-11.375
限宫	-11.3753
氣盛	-11.3757
保其	-11.3761
下獄	-11.3767
兌丁巳丑	-11.377
衝擊	-11.3774
忌土計	-11.3778
十二吉山宜亥卯未巳酉丑年月日時	-11.3778
能發福	-11.3796
穆帝	-11.3797
屏星	-11.3799
難獲	-11.38
孤立	-11.3809
當至不至	-11.3809
有誅	-11.381
與德神併	-11.3811
湊	-11.3813
踝	-11.3814
較之	-11.3815
成鈎己	-11.3815
文耀鈎曰	-11.3816
壬騎龍背	-11.3816
黃帝占曰客星入	-11.3816
成物	-11.3817
日生刺是謂	-11.3817
豎	-11.3817
廣聖厯曰	-11.3817
五虎遁	-11.3818
汙	-11.3819
邾	-11.3819
無有不	-11.382
咬	-11.382
軍上	-11.382
赧王	-11.382
摘	-11.382
不出年	-11.382
鵠	-11.3822
剪	-11.3823
樞要厯曰	-11.3823
冢	-11.3823
誼	-11.3823
何承天	-11.3823
淸	-11.3824
五子元	-11.3825
河圖洛書	-11.3825
陂	-11.3825
㨿	-11.3825
冒	-11.3826
入北斗	-11.3826
河洛	-11.3826
盃	-11.3826
貶	-11.3826
携	-11.3826
欽定四庫全書子部七	-11.3826
寕	-11.3826
付	-11.3826
輙	-11.3826
喚	-11.3827
貴登天門	-11.3827
悠	-11.3827
箕尾	-11.3827
霜雪	-11.3827
浮沉	-11.3828
閙	-11.3828
桑柘	-11.3829
准上文	-11.3829
㳺	-11.3829
矜	-11.3829
黔	-11.3829
輪廓	-11.383
鎗	-11.383
旄	-11.383
渴	-11.3831
閼	-11.3832
攀鞍	-11.3832
拳	-11.3832
夏氏曰日	-11.3832
纓	-11.3832
糓	-11.3833
瑞應圖曰王者	-11.3833
臼	-11.3833
闌	-11.3834
闘	-11.3834
僭	-11.3834
怡	-11.3834
弑君	-11.3834
唐沈芝云	-11.3834
鵝	-11.3835
走飛草木	-11.3836
餓死	-11.3837
林鍾	-11.3837
傅說	-11.3837
讀書	-11.3837
困苦	-11.3839
眷屬	-11.3839
右掖門	-11.3839
兜財	-11.3839
猖狂	-11.384
髙叢	-11.384
六爲宗廟	-11.3841
喜忌篇云	-11.3841
浴盆	-11.3841
墀	-11.3843
晚景	-11.3844
大會	-11.3844
精誠	-11.3845
天賊	-11.3845
日庚辰時	-11.3845
莫言	-11.3845
寅刑巳	-11.3848
師巫	-11.3848
螟	-11.3851
走獸	-11.3851
陰干	-11.3852
來降	-11.3854
榖雨	-11.3855
堅剛	-11.3856
日甲子時	-11.3857
搖	-11.3858
漏闗	-11.3859
旺相休囚	-11.3859
五十日不下	-11.3859
身強	-11.3863
露齒	-11.3863
别位	-11.3867
𤣥機	-11.3867
貞雜	-11.3869
長庚	-11.387
天下有大	-11.3877
難測	-11.3878
古今同三星	-11.388
季春	-11.3882
平安	-11.3884
在黄道外	-11.3886
張良	-11.3888
不昌	-11.3889
春冬	-11.3892
星不具	-11.3895
議論	-11.3898
不離乎	-11.3899
王氏	-11.3899
所值	-11.39
桓王	-11.3901
衰鄉	-11.3902
則夢	-11.3907
其國兵起	-11.3908
巳刑申	-11.3908
其志	-11.391
庚辰日	-11.3914
不通月氣	-11.3916
發越	-11.3918
救解	-11.3919
神祗	-11.392
丁酉日	-11.3922
源流	-11.3924
入太㣲	-11.3925
暗曜	-11.3926
石虎	-11.3926
星臨之	-11.3932
一千八十	-11.3934
家資	-11.3936
荆州占曰嵗星入	-11.394
鬼門	-11.3942
顔色	-11.3945
同宮	-11.3946
災害	-11.3947
互加	-11.3951
冨貴	-11.3952
單行	-11.3953
四百四十	-11.3953
安樂	-11.3955
刀兵	-11.3957
宫中有	-11.396
財局	-11.3961
三百六十五度四分度之一	-11.3962
中台	-11.3964
大臣謀	-11.3971
只因	-11.3973
六丁日	-11.3978
星守照	-11.3982
九江	-11.3993
不覺	-11.3995
物物	-11.4002
三日宫	-11.4008
仔細推	-11.4015
夜照	-11.4015
細詳	-11.4021
運動	-11.4024
環繞	-11.4027
水府	-11.4029
被尅	-11.4031
大衍之數五十	-11.4036
五百四十	-11.4037
享用	-11.4037
許多	-11.4039
平章	-11.4042
土局	-11.4045
部位	-11.4047
寄於	-11.4049
西北方	-11.4049
不寜	-11.4051
我尅者	-11.4055
非横	-11.4056
申子辰月	-11.4058
如是則	-11.4059
有箇	-11.406
留伏逆	-11.4066
月德合	-11.4067
坎下	-11.4071
太原	-11.409
與日同	-11.4092
蒼白	-11.4096
分奪	-11.4101
相闗	-11.4102
因妻	-11.4108
相逐	-11.411
兄弟宫	-11.4112
紅潤	-11.4115
行南運	-11.4118
睦	-11.4126
虚宿	-11.413
坎艮	-11.4133
地煩	-11.4134
前限	-11.4136
戰勝	-11.4146
災厄	-11.4148
反目	-11.415
靈王	-11.4154
海内	-11.4164
無救助	-11.4164
所向	-11.4165
受賜	-11.4169
三百九十	-11.4171
合朔	-11.4173
雍州	-11.4173
也家性爲	-11.4173
患難	-11.4173
填星逆行	-11.4174
夜占	-11.4175
平原	-11.418
十二吉山宜申子辰寅午戌年月日時	-11.4183
不禁	-11.4186
如甲乙日	-11.4188
度今在	-11.4194
幸臣	-11.4196
伐齊	-11.4196
而言則	-11.4199
符合	-11.4206
坤卦	-11.4207
值空亡	-11.4208
三十六卦	-11.4211
非真	-11.4211
以陽為	-11.4212
克支	-11.4212
五星聚	-11.4214
眥	-11.4215
亥卯未月	-11.4215
無虧	-11.4219
强國	-11.422
夘辰	-11.4222
時上偏官	-11.4223
傅説	-11.4223
挟	-11.4227
祖暅	-11.4227
驥	-11.4231
敗臼	-11.4232
艾	-11.4232
碌碌	-11.4233
金木水火	-11.4234
捐	-11.4234
楊筠松	-11.4235
塊	-11.4235
燔	-11.4236
撮	-11.4237
綿綿	-11.4238
一三五七九	-11.4239
筐	-11.4239
潁	-11.4239
聾啞	-11.4239
所理之方	-11.424
四更子正二刻	-11.424
梧	-11.424
滂	-11.424
蕪淫	-11.424
一晝一夜	-11.4241
莘	-11.4241
佈	-11.4241
隊	-11.4241
傑	-11.4242
宫起甲子	-11.4242
剖	-11.4242
鑰匙	-11.4242
孳	-11.4243
揲蓍	-11.4243
杼	-11.4243
自上而下	-11.4243
啄	-11.4243
檀	-11.4244
絕	-11.4244
關梁不通	-11.4244
萍	-11.4244
蟬	-11.4245
宴	-11.4245
几	-11.4245
沃	-11.4245
穽	-11.4246
喙	-11.4246
挫	-11.4246
眸	-11.4247
酒旗	-11.4247
飄蓬	-11.4247
狩	-11.4247
紅鸞	-11.4248
肌	-11.4248
康寧	-11.4248
塵埃	-11.4249
禾稼	-11.4249
煥	-11.425
脾胃	-11.425
歸忌	-11.425
土厚	-11.425
癆	-11.4251
乖違	-11.4251
捕捉	-11.4252
宸	-11.4252
顴骨	-11.4252
朔至	-11.4252
瞻視	-11.4253
孩	-11.4254
開闢	-11.4254
陞遷	-11.4255
請謁	-11.4255
少人知	-11.4255
誘	-11.4255
熒惑逆行守	-11.4255
庶幾	-11.4257
臥	-11.4257
痩	-11.4258
悅	-11.4259
唐虞	-11.4259
僖公	-11.426
粧	-11.426
天弁	-11.426
尤佳	-11.4261
赤雲氣入	-11.4262
見孛	-11.4263
天下大飢	-11.4264
脂	-11.4265
水火既濟	-11.4266
黄氣入	-11.4267
䘮弔	-11.4267
初末	-11.4268
洛書曰日	-11.4268
臣為亂	-11.4272
咸恒	-11.4273
三日以上	-11.4273
遷移宫	-11.4274
争訟	-11.4274
貧困	-11.4277
伊尹	-11.4283
和睦	-11.4287
九尺	-11.4289
徒配	-11.4291
横列	-11.4294
謀兵	-11.4294
最妙	-11.4297
胞胎	-11.4297
四千九十六	-11.4298
浮雲	-11.4298
自恣	-11.4298
吉星照	-11.4301
兩箇	-11.4301
震動	-11.4302
提要	-11.4303
只恐	-11.4303
隂柔	-11.4306
髙低	-11.4313
大將死	-11.4314
去極九十	-11.4315
都是	-11.4316
㓜年	-11.4317
伏殃	-11.432
甲午旬	-11.4323
權衡	-11.4329
父母兄弟	-11.4333
陽剛	-11.4334
利禄	-11.4337
邑且	-11.4337
徒然	-11.4338
星得地	-11.4339
歸垣	-11.4345
依前	-11.4349
主口舌	-11.435
公訟	-11.4357
日辰上	-11.4361
留止	-11.4363
陸費墀	-11.4363
閑神	-11.4367
純陰	-11.4367
逆轉	-11.4368
甲戊	-11.4368
部郎	-11.4373
外夷	-11.4374
一百八	-11.4375
荆州占曰彗星	-11.4375
閒神	-11.4379
交泰	-11.4381
四表	-11.4385
一嵗之	-11.4386
羅計孛	-11.4391
先賢	-11.4392
左右角	-11.4395
甘氏曰辰星	-11.4396
不知所	-11.4398
春三月	-11.4411
安命在	-11.4413
一百九十二	-11.4415
者數之	-11.4416
牛宿	-11.4416
二十八宿分	-11.4417
孤虚	-11.4418
天德合	-11.4427
尅宅	-11.4428
坎癸	-11.443
天徳合	-11.443
八千	-11.4431
離别	-11.4433
光耀	-11.4433
甘氏曰太白	-11.4434
兒女	-11.4437
八寸	-11.445
兼全	-11.445
在日時	-11.4452
太白晝見	-11.4457
天子憂	-11.4458
語曰	-11.4466
聖王	-11.4472
民多死	-11.4473
君臣相	-11.4481
天英	-11.4483
限元	-11.4486
亥戌	-11.4488
為貴格	-11.4489
根於	-11.449
相叅	-11.4494
日卯時	-11.4495
墓門	-11.4497
一句	-11.4497
調和	-11.4501
居垣	-11.4505
仲夏	-11.4507
立穴	-11.4512
横財	-11.4513
震兌	-11.4515
日木土	-11.4519
可救	-11.4522
崩子	-11.4523
七百三十	-11.4523
日月夾	-11.4524
春秋緯曰熒惑	-11.4549
㐫將	-11.4554
襄公	-11.457
隂在上	-11.4571
八刻	-11.4572
莫非	-11.4578
化縣	-11.4579
己酉丑月	-11.4579
吉詩曰	-11.458
一尺五寸	-11.458
夕見	-11.4581
營運	-11.4584
八百三十	-11.4585
偏宜	-11.459
應乎	-11.4597
離坎	-11.4599
相類	-11.4604
在軫	-11.4607
死炁	-11.4607
如人之	-11.4612
遊行	-11.4612
開山立向修方吉太歲	-11.4618
帶印	-11.4626
寅字	-11.4636
横死	-11.4649
蚩尤旗	-11.4649
瞢	-11.465
光潤	-11.465
媾	-11.4651
軻	-11.4654
餓	-11.4654
篇云	-11.4657
岀	-11.4658
囷	-11.4659
芮	-11.4659
京房易候曰	-11.4662
膿血	-11.4663
北方水	-11.4664
䫫	-11.4665
危亡	-11.4666
石氏占曰月	-11.4667
光武	-11.4667
甄	-11.4667
閫	-11.4668
敝	-11.4669
期一年逺二年	-11.4669
姊	-11.4671
燠	-11.4671
譎	-11.4671
筵	-11.4672
浦	-11.4673
輒	-11.4673
溟	-11.4673
呻吟	-11.4675
竪	-11.4675
叫	-11.4675
玷	-11.4676
首仰足肣	-11.4676
易傳	-11.4676
讎	-11.4676
寐	-11.4676
油	-11.4676
鞍	-11.4676
莒	-11.4677
遐	-11.4678
鵬	-11.4678
錦衣	-11.4678
鍵閉	-11.4679
馭	-11.4679
天市垣	-11.4679
有女䘮	-11.4679
餌	-11.4679
虫	-11.468
刑戮	-11.468
任督	-11.468
徐揚人	-11.468
交限	-11.468
蹈	-11.468
毒藥	-11.468
不貴即富	-11.468
茹	-11.4681
庇	-11.4681
彫	-11.4682
鍵	-11.4682
勵	-11.4682
珪	-11.4682
孟康曰	-11.4683
跨	-11.4683
蠅	-11.4683
收斂	-11.4683
糞	-11.4684
耐	-11.4684
伎	-11.4684
頽	-11.4684
瘳	-11.4684
天廩	-11.4685
容貌	-11.4685
通身旺月	-11.4685
葛	-11.4686
襟	-11.4686
璽	-11.4686
嬌	-11.4688
此氣見	-11.4688
扺	-11.4688
圉	-11.4689
不可執一	-11.4689
彭城	-11.4689
西北運	-11.469
淵源	-11.469
缶	-11.469
連茹	-11.469
區區	-11.469
伐楚	-11.4691
掖	-11.4691
非其人	-11.4691
弓矢	-11.4691
悚	-11.4692
安撫司	-11.4694
瓮	-11.4694
狐疑	-11.4695
不出五年	-11.4695
日乙丑時	-11.4695
家業	-11.4696
危殆	-11.4696
閃	-11.4697
國有大䘮	-11.4697
韓魏	-11.4697
他皆倣此	-11.4698
風吹	-11.4698
邯	-11.4698
堅固	-11.4701
竒耦	-11.4705
鬬訟	-11.4705
溷	-11.4706
吞㗖	-11.4707
虚詐	-11.471
丙戌丁亥	-11.4712
淫蕩	-11.4714
兵革起	-11.4717
入庫	-11.4717
聲譽	-11.4718
忠信	-11.4718
蔡氏曰	-11.4719
墓辰	-11.4721
萬户	-11.4722
動植	-11.4723
艮坤	-11.4723
洪範五行	-11.4723
國有喪	-11.4724
孫權	-11.4729
漢書曰	-11.4733
大溪	-11.4733
富貴貧賤	-11.4735
五百八十	-11.4736
攻戰	-11.4736
亥為天門	-11.4745
詩書	-11.4745
加十五日指	-11.4745
死絶之地	-11.4746
動物	-11.4746
甘氏曰太白守	-11.4748
司危	-11.4751
天下不安	-11.4751
齊魯	-11.4752
郗萌曰月犯	-11.4753
正郎	-11.4762
有水災	-11.4764
皆倣此	-11.4764
未嘗不	-11.4765
間量	-11.4765
孤苦	-11.4767
駟	-11.4772
星入垣	-11.479
萬國	-11.4791
溺水	-11.4791
亢宿	-11.4797
光彩	-11.4801
歸根	-11.4805
䘮車	-11.4808
湯火	-11.4809
政事	-11.4811
和元年	-11.4812
得其所	-11.4813
秦漢	-11.4816
漢武	-11.4821
䘮門	-11.4824
甘氏曰月	-11.4827
破字	-11.4827
應驗	-11.4829
星明大則	-11.483
難保	-11.4831
有阻	-11.4831
之大者	-11.4834
强臣	-11.4839
巫咸曰熒惑入	-11.4839
午未申酉	-11.4839
日戊辰時	-11.4839
可考	-11.4841
夏秋	-11.4852
畢宿	-11.4856
推詳	-11.4858
灾異	-11.4858
月徳合	-11.4863
所著	-11.4864
納音尅	-11.4866
異名	-11.4869
鬼鄉	-11.487
甘氏曰嵗星守	-11.4878
燕王	-11.488
修徳	-11.4882
彗星見	-11.4892
永嘉	-11.4895
㣲加	-11.4901
好樂	-11.4904
戌亥子丑	-11.4906
白玉	-11.4916
歳君	-11.4916
造作	-11.4918
每年	-11.4919
巽風	-11.4928
頭面	-11.4932
以庚為	-11.4932
日月之行	-11.4935
尺三寸	-11.4947
凶暴	-11.495
寸八分	-11.4954
雙行	-11.4958
安得不	-11.4972
别本	-11.4977
其星明	-11.4979
何足	-11.5001
興衰	-11.5003
禳之	-11.5003
不住	-11.5011
兩河	-11.5011
缺陷者	-11.5011
衰絶	-11.5019
隂府太	-11.5029
不停	-11.5035
相冲	-11.5048
馬多死	-11.5049
長流	-11.5054
失令	-11.5056
尅剥	-11.5057
蓋山黄道貪	-11.5063
財爻	-11.5073
青黑	-11.5074
乾巽	-11.5083
哀公	-11.5091
水厄	-11.5091
前賢	-11.5094
昊	-11.5095
官府	-11.5096
黑氣	-11.5098
主夭折	-11.5099
珞琭	-11.511
其國亡	-11.511
黒白	-11.5111
腋	-11.5112
迅	-11.5116
欹	-11.5117
措	-11.5117
伊川	-11.5117
婆	-11.5119
晨昏	-11.5119
嘘	-11.5119
謨	-11.512
宵	-11.512
臟	-11.5122
所理之地	-11.5122
灑	-11.5122
自下而上	-11.5123
弋	-11.5123
伏兵大禍	-11.5124
黯	-11.5125
孤辰寡宿	-11.5125
釡	-11.5125
漆	-11.5125
鋪	-11.5127
迂	-11.5127
畋獵	-11.5127
蝦	-11.5127
垠	-11.5128
踞	-11.5128
梓	-11.5128
青囊	-11.5128
巾	-11.513
勅	-11.513
羿	-11.513
熖	-11.5131
課凡課	-11.5131
松栢	-11.5131
罵	-11.5131
覔	-11.5131
彚	-11.5133
結喉	-11.5133
灸	-11.5133
先起兵者	-11.5133
孕生男	-11.5133
沾	-11.5133
貞正也	-11.5134
七八九六	-11.5134
截路空亡	-11.5134
不出百八十日	-11.5135
旣濟	-11.5136
繭	-11.5136
彖	-11.5136
采真歌云	-11.5136
垢	-11.5137
天月二德	-11.5138
甡	-11.5138
伶仃	-11.5138
開倉庫	-11.5139
卅	-11.5139
睢	-11.5139
一動一靜	-11.5139
頴	-11.514
靑	-11.514
乾坤艮巽	-11.514
谿	-11.514
陛	-11.5141
幕	-11.5142
嗜	-11.5142
管攝	-11.5142
多火災	-11.5143
朱子語	-11.5143
貯	-11.5144
掀	-11.5144
亘	-11.5144
填星出入留舎	-11.5144
時上偏財	-11.5145
理愚歌云	-11.5146
菑	-11.5146
林鐘	-11.5148
箱	-11.5148
祁	-11.5149
干支上	-11.5149
禽在天號	-11.515
缺唇	-11.515
狼虎	-11.515
索隠曰	-11.515
彗星犯	-11.5151
臣謀其主	-11.5151
穉	-11.5151
寒熱	-11.5152
􁀴	-11.5152
日己巳時	-11.5152
饗	-11.5153
悖逆	-11.5153
冕	-11.5154
財官印食	-11.5154
文魁	-11.5155
額上	-11.5155
考原	-11.5156
財多身弱	-11.5156
斗罡	-11.5157
逝	-11.5157
木火土金	-11.5161
祼	-11.5162
賊盗	-11.5162
卦氣圖	-11.5164
灼龜	-11.5165
刼刃	-11.5165
畢月烏	-11.5165
其色赤	-11.5167
皇恩	-11.5168
圍城	-11.5169
景公	-11.517
最佳	-11.517
桓𤣥	-11.5171
自一至	-11.5171
澮	-11.5174
舊説	-11.5177
身命坐	-11.5177
顯榮	-11.5179
匿謀	-11.5179
三十有六	-11.5179
是天皇	-11.518
張子曰	-11.5182
日庚申時	-11.5185
甲生人	-11.5186
與日合	-11.5187
終不能	-11.5188
傷妻子	-11.5189
周旋	-11.519
財豐	-11.5193
何愁	-11.5194
減半	-11.5197
異路	-11.5201
皆不吉	-11.5202
在都司城	-11.5202
宗室	-11.5207
夜鳴	-11.5222
適變	-11.5224
出端門	-11.5224
季秋	-11.5229
四品	-11.5236
君子小人	-11.5237
災迍	-11.5241
左手	-11.5241
眉頭	-11.5243
居西北	-11.5246
折足	-11.5252
虛實	-11.5253
人物之	-11.5254
延長	-11.5255
共成	-11.5255
客軍	-11.5255
靜動	-11.5258
顯露	-11.5258
嘉平	-11.5259
饑人相食	-11.5259
乾為天	-11.526
此篇	-11.5261
炎火	-11.5263
翼宿	-11.5264
山東北	-11.5274
孔子曰	-11.5275
六百七十	-11.5275
石氏曰客星出	-11.5275
空虛	-11.5277
登髙	-11.5278
造物	-11.5279
城頭	-11.5284
粟貴	-11.5285
經商	-11.5285
天左旋	-11.529
歲德	-11.5292
老少	-11.5295
丑中有	-11.5298
巫咸曰嵗星守	-11.5298
郡國	-11.5304
日辰年命	-11.5305
作六害	-11.5308
天月徳	-11.5325
幽王	-11.5326
黄帝占曰熒惑入	-11.5333
王卒子	-11.5337
官吏	-11.534
郗萌曰太白入	-11.5344
水溢	-11.5345
虛名	-11.535
尚可	-11.5352
盗氣	-11.5352
心包	-11.5354
非輕	-11.5363
病疾	-11.5365
天地之道	-11.5365
透露	-11.5365
丑戌未	-11.5372
加減	-11.5382
巽離	-11.5386
邪正	-11.539
不䏻	-11.5396
原始	-11.5397
九百八十	-11.5398
軍門	-11.5401
神農	-11.5416
權印	-11.5427
克賊	-11.5429
百二十里	-11.5433
形質	-11.5464
歳徳	-11.5468
太康	-11.5474
飛走	-11.5478
君子之道	-11.5479
照身命	-11.548
七尺	-11.5483
妻妾宫	-11.5486
安康	-11.5486
戊寅己卯	-11.5501
土功事	-11.5505
石氏曰熒惑犯	-11.5506
天駟	-11.5521
四百六十	-11.5524
無虞	-11.5526
重厚	-11.5535
四丈	-11.5543
巳酉丑金	-11.5565
縦	-11.5566
為之主	-11.5569
大疫	-11.5576
女虚危	-11.5576
日日鬬者	-11.5583
開山立向	-11.5586
海中占曰月犯	-11.5586
粘	-11.5586
蠻夷長官司	-11.5587
鬲	-11.5588
秘訣	-11.5588
徭	-11.5588
共合數二十	-11.5589
恁地	-11.559
腮	-11.559
入紫宫	-11.5594
首仰足開	-11.5594
侈	-11.5599
丙辛化水	-11.5599
栽	-11.56
轂	-11.5601
醒	-11.5601
官福田財	-11.5602
紆	-11.5603
魴	-11.5603
蘓	-11.5604
亞	-11.5604
販	-11.5604
滔	-11.5604
鴨	-11.5604
壅塞	-11.5605
炭	-11.5605
燦	-11.5605
欽天監	-11.5606
諸事皆忌	-11.5606
選擇通書	-11.5606
挈	-11.5606
委曲	-11.5606
萊	-11.5607
殽	-11.5607
拗	-11.5607
疽	-11.5608
展轉	-11.5608
晨出東方	-11.5608
尺是中道	-11.5609
頡	-11.561
盈虧	-11.561
踐位是謂	-11.561
厭對	-11.561
鈇鉞	-11.561
賜諸侯	-11.5611
翊	-11.5611
丁壬化木	-11.5612
傷官見官	-11.5612
宜天徳月徳天徳合月徳合	-11.5612
贅壻	-11.5612
阿脩	-11.5612
漢文帝	-11.5612
期不出一年	-11.5613
魚鹽貴	-11.5613
廹	-11.5615
寨	-11.5615
敖	-11.5615
烹	-11.5615
噪	-11.5615
飛廉	-11.5615
鮮卑	-11.5615
萬年書	-11.5616
天一生水	-11.5616
譖	-11.5618
仲吕	-11.5618
恃勢	-11.5618
戕	-11.5618
甲禄在寅	-11.5618
僕射	-11.5618
孤鸞	-11.5618
洪範五行傳曰	-11.5618
技藝	-11.5619
棟梁	-11.5619
翁姑	-11.5619
輔臣有誅	-11.5619
沿	-11.562
欺詐	-11.562
雲氣如	-11.562
飛㢘	-11.5621
鬪	-11.5621
蟹	-11.5621
咽喉	-11.5622
争競	-11.5622
分氣候三十六	-11.5622
板	-11.5622
慳吝	-11.5623
服藥	-11.5624
迤	-11.5624
蒿矢	-11.5624
秃	-11.5624
灘	-11.5625
懲	-11.5626
花酒	-11.5626
奮發	-11.5627
一本云	-11.5627
樸	-11.5628
項羽	-11.563
銖	-11.5631
金榜	-11.5631
療病	-11.5631
貉	-11.5631
知州	-11.5632
朱鳥	-11.5633
豪富	-11.5633
無辜	-11.5633
日戊申時	-11.5638
咸康	-11.5641
安排	-11.5642
章閏	-11.5643
六乙生人	-11.5643
美貌	-11.5645
産業	-11.5645
施恩	-11.5646
榮華富貴	-11.5647
黄帝占曰太白守	-11.5651
互變	-11.5652
暗耗	-11.5656
日庚午時	-11.5657
亢池	-11.5659
䎡	-11.566
偏官有制	-11.5663
仲冬	-11.5666
專權	-11.5666
清閒	-11.5666
宿一偏西一度	-11.5668
五穀傷	-11.5671
失脫	-11.5671
穀雨	-11.5674
夭壽	-11.5679
乖離	-11.5679
通火氣	-11.5682
州牧	-11.5682
音律	-11.5682
忌身弱	-11.5684
界限	-11.569
孤窮	-11.5691
飛禽	-11.5691
最為竒	-11.5692
歳運同	-11.5695
不是主星	-11.5696
三傳皆	-11.5697
西沒	-11.5697
宮室	-11.5705
印助	-11.5706
伏誅	-11.5711
主惡死	-11.5712
四十九内減之餘二十	-11.5713
䧟弱	-11.5717
甘氏曰熒惑入	-11.5717
臣誅	-11.5721
不能為害	-11.5721
闕門	-11.5725
司祿	-11.5727
一千五十	-11.5729
解除	-11.573
紫㣲宫	-11.573
何妨	-11.5731
郗萌曰熒惑犯	-11.5733
震兊	-11.5745
乗白虎	-11.5748
膽氣	-11.5753
認氣	-11.5758
宅舍	-11.576
横紋	-11.576
同姓	-11.5762
顔子	-11.5765
諸書	-11.5773
厄難	-11.5787
䇿數	-11.5799
勿用	-11.5799
蓍數	-11.5802
分輕重	-11.5805
卿大夫	-11.581
盗神	-11.5828
四百二十	-11.583
昏明	-11.5834
海中占曰嵗星守	-11.5837
有大憂	-11.5843
九百六十	-11.5844
十餘日	-11.5863
卦畫	-11.5872
光榮	-11.5875
得其正	-11.5876
十日以上	-11.5881
主其人	-11.5901
於其間	-11.5902
刼的	-11.5916
庚辛申酉	-11.5938
三箇	-11.594
欽定協紀辨方書卷	-11.5947
尊重	-11.5956
軰	-11.5958
尺一寸	-11.5972
元年正月	-11.5976
矣是故	-11.5987
甘氏曰填星	-11.6001
求謀	-11.601
小會	-11.6015
八煞宫	-11.602
如甲見	-11.6021
君不安	-11.6026
下旬	-11.6028
桓帝	-11.6039
不可不知	-11.6046
開山立向修方吉開山凶	-11.6048
五百里	-11.605
水星在	-11.6051
四百三十	-11.6054
事皆吉	-11.6064
辜	-11.6074
朓	-11.6075
兾	-11.6084
暉	-11.609
慧	-11.609
肢	-11.609
黄白氣入	-11.6091
縊	-11.6093
胄	-11.6093
斧斤	-11.6093
尚未	-11.6094
憂驚	-11.6095
校尉	-11.6095
浴	-11.6095
驢	-11.6097
觀物篇	-11.6097
初行其道起於	-11.6097
蕪	-11.6098
弃	-11.6098
㕑	-11.6098
俛	-11.6099
繆	-11.6099
𤣥㝠占曰	-11.6099
五爲天位	-11.61
擔	-11.61
薛	-11.6101
棒	-11.6101
有囚色	-11.6101
鈴	-11.6101
忿	-11.6102
劉向以為	-11.6102
乾鑿度	-11.6102
五百六十	-11.6103
净	-11.6103
派	-11.6103
鳧	-11.6103
七爲失志	-11.6103
窒	-11.6104
乙庚化金	-11.6104
豳	-11.6105
絃	-11.6105
揮	-11.6105
戌酉申	-11.6106
邁	-11.6106
一百六十七億九千六百一十六萬	-11.6106
寅與亥合	-11.6106
醇	-11.6107
畿	-11.6108
鑞	-11.6108
銓	-11.6108
舅	-11.6108
芽	-11.6108
漁獵	-11.6109
粮	-11.6109
倦	-11.6109
眡	-11.6109
醴	-11.611
横吉下有柱	-11.611
皎	-11.611
遜	-11.611
蛛	-11.611
石榴	-11.6111
顓	-11.6111
慷慨	-11.6111
碩	-11.6111
槐	-11.6111
獐鹿	-11.6111
駟馬	-11.6111
巽坎艮坤	-11.6112
腧	-11.6112
神煞起例	-11.6112
􁂂	-11.6112
行身旺運	-11.6112
癱	-11.6113
綱紀	-11.6113
拖	-11.6113
戊癸化火	-11.6113
尤𦂳	-11.6113
廻	-11.6113
扁	-11.6114
卿監	-11.6114
乾隆四十六年	-11.6114
偕老	-11.6114
留二十日以上	-11.6114
永樂大典	-11.6115
掇	-11.6115
賾	-11.6115
規矩	-11.6115
連綿	-11.6115
負海	-11.6115
星欲明	-11.6116
偃蹇	-11.6116
養育	-11.6116
春秋感精符曰日蝕	-11.6116
居四正	-11.6117
螻	-11.6117
慎勿	-11.6117
亡神刼煞	-11.6117
嫡	-11.6117
一丈三尺	-11.6118
嬰兒	-11.6118
承漿	-11.6118
斵輪	-11.6118
枷	-11.6118
弑主	-11.6118
早晚	-11.6119
學憲	-11.6119
廵狩	-11.6119
禹貢	-11.6119
民多病	-11.612
㽔賓	-11.612
寅午戌火局	-11.612
莖	-11.6122
掘	-11.6122
大臣當之	-11.6123
匣	-11.6123
營室東壁	-11.6123
甲丙戊庚壬	-11.6123
訴	-11.6124
娶妻	-11.6125
揚子雲	-11.6125
渾儀	-11.6126
端的	-11.6127
輦	-11.6127
慶賀	-11.6127
造微賦云	-11.6128
結果	-11.6128
痊	-11.6129
兩角間	-11.6131
哇	-11.6131
剛健	-11.6133
棄市	-11.6133
欲自立	-11.6134
七日以上	-11.6135
猪羊	-11.6136
伏匿	-11.6136
餘皆倣此	-11.6136
三碧	-11.6137
踐位	-11.6138
辛邜	-11.614
己邜	-11.6141
砂中	-11.6143
車輪	-11.6143
井鉞	-11.6145
徙都	-11.6148
日壬寅時	-11.6148
第一段	-11.6148
丁邜	-11.615
丅吝	-11.615
晦滯	-11.6152
玉枕	-11.6152
胃宿	-11.6153
朔日食	-11.6153
戊申己酉	-11.6154
日戊寅時	-11.6154
火尅金	-11.6155
茂盛	-11.6155
王敦	-11.6158
勞力	-11.6158
首仰	-11.616
以木論	-11.616
應鐘	-11.6163
天下飢	-11.6165
年月大貴	-11.617
右手	-11.6171
有死色	-11.6175
紫色	-11.6175
異端	-11.6178
孛照	-11.618
土圭	-11.6181
改元元	-11.6184
土為財	-11.6186
庚午壬午	-11.6189
遺文	-11.619
川縣	-11.619
折除	-11.619
豐滿	-11.6195
奴僕宫	-11.6197
垣城	-11.6198
司令	-11.6201
隠公	-11.6202
孰能	-11.6204
客大將	-11.6204
冠世	-11.6208
度量	-11.6209
胷中	-11.621
刼亡	-11.621
吉何曰	-11.6211
詔命	-11.6213
日月同宫	-11.6219
遊禍	-11.6219
全備	-11.622
國有大喪	-11.6221
上生下	-11.6223
課葢	-11.6224
成熟	-11.6226
天廏	-11.6226
解救	-11.6228
韓楊曰熒惑	-11.6232
崩太子	-11.6238
居其上	-11.6248
溺死	-11.6254
復姤	-11.6255
易林	-11.6257
在地下	-11.6258
讒臣	-11.626
女主有憂	-11.6269
和親	-11.6271
大臣有憂	-11.6271
十二律	-11.6272
紫木	-11.6273
逢印綬	-11.6275
先㸔	-11.628
孕婦	-11.628
六庚加	-11.6287
運風憲	-11.6321
在高强	-11.6321
陳卓曰客星	-11.6322
第三星	-11.6327
巫咸曰填星守	-11.6338
忌修方	-11.634
欽定四庫全書唐開元占經卷一百	-11.6348
南陸	-11.6357
必待	-11.6366
者陽之	-11.6369
始皇	-11.6393
郎官	-11.6401
不諧	-11.6405
相接	-11.6415
年命上	-11.6424
昌縣	-11.6448
通泰	-11.645
倚數	-11.6472
韓楊曰	-11.6498
假令正月	-11.65
准此	-11.6502
將誅	-11.6526
野雞	-11.6529
海中占曰填星	-11.654
九百七十	-11.6561
尊榮	-11.6562
動搖	-11.6584
劉氏	-11.6603
瓜	-11.6605
昦	-11.6608
榜	-11.6609
塜	-11.6609
液	-11.6611
長三尺	-11.6612
與太白合	-11.6614
未當至而至多病	-11.6616
凡人命	-11.6616
彘	-11.6618
春秋元命包曰	-11.6619
陳卓曰嵗星	-11.662
爾雅	-11.6621
恍	-11.6621
行人未還	-11.6622
抛	-11.6623
洪範傳曰	-11.6623
春秋潜潭巴曰	-11.6624
利見大人	-11.6624
娼妓	-11.6624
綵	-11.6624
石氏曰有星入	-11.6625
匝	-11.6625
些	-11.6625
考靈曜	-11.6625
李淳風	-11.6625
有休色	-11.6626
閻東叟云	-11.6626
不出九十日	-11.6627
釵	-11.6627
揑	-11.6627
攻城	-11.6627
這裏	-11.6627
汨没	-11.6627
樞紐	-11.6628
慳	-11.6628
燎	-11.6628
上表章	-11.6628
巔	-11.6628
用四十有九	-11.6629
宓	-11.6629
疋	-11.6629
潛潭巴曰	-11.663
兀	-11.663
債	-11.663
徭役	-11.663
曲沃	-11.663
痔	-11.663
躡	-11.6631
夰	-11.6631
喝	-11.6631
笏	-11.6631
諒	-11.6632
宴樂	-11.6632
鰥	-11.6632
求醫療病	-11.6632
天原發微	-11.6632
鴈侣	-11.6632
靨	-11.6632
穹	-11.6632
辰午酉亥	-11.6633
湘	-11.6633
以㑹經運	-11.6633
賦歛	-11.6634
栢	-11.6634
苞	-11.6634
陽男隂女	-11.6634
天羅地網	-11.6635
藁	-11.6635
爐冶	-11.6635
恪	-11.6636
隐	-11.6636
有星孛于	-11.6636
吊客	-11.6636
勁	-11.6636
抗	-11.6636
斧鑕	-11.6637
琅	-11.6637
蜚	-11.6637
妖孽	-11.6637
憤	-11.6637
婿	-11.6637
此下原有	-11.6638
交媾	-11.6638
相為表裏	-11.6638
蹶	-11.6639
下元甲子	-11.6639
婁金狗	-11.6639
徐廣曰	-11.6639
攴	-11.664
柴	-11.664
萬有一千五百二十	-11.664
暨	-11.664
寅午戍	-11.664
横吉揄仰	-11.664
燿	-11.664
揭	-11.6641
刀劍	-11.6641
宫坐命	-11.6641
啇	-11.6641
六庚生人	-11.6641
場	-11.6641
其救也	-11.6642
扶桑	-11.6642
右執法	-11.6642
三百八十四爻	-11.6643
犬吠	-11.6643
拓	-11.6643
聰慧	-11.6643
歇滅	-11.6643
徼	-11.6644
稽疑	-11.6644
重審	-11.6644
丕	-11.6644
愁苦	-11.6645
螫	-11.6645
鋤	-11.6645
葆	-11.6646
丙與辛合	-11.6646
刑囚暗耗	-11.6646
八十一首	-11.6646
崢	-11.6647
日癸亥時	-11.6647
三百六十五日	-11.6647
猿猴	-11.6647
荅曰	-11.6647
四分之一	-11.6648
伶	-11.6649
暴虐	-11.6649
都尉	-11.6649
棿擬之	-11.6649
宀	-11.665
亭亭	-11.665
下獄死	-11.6651
畏懼	-11.6651
日丙申時	-11.6652
賔客	-11.6652
太史公	-11.6652
竝	-11.6652
迄	-11.6653
萌芽	-11.6654
白鹿	-11.6654
紫綬	-11.6654
后夫人	-11.6654
衰病	-11.6655
上尅下	-11.6655
饑寒	-11.6656
滋潤	-11.6656
繫辭	-11.6656
浙人	-11.6657
少昊	-11.6657
陳蔡	-11.6658
斬刈	-11.6659
搃	-11.6659
嗣位是謂	-11.666
白日生人	-11.666
六丙生人	-11.666
滎	-11.666
疑惑	-11.6661
日辛巳時	-11.6662
日壬申時	-11.6663
建破平收日	-11.6663
軍罷	-11.6664
旺相相生	-11.6665
類聚	-11.6666
厯上元	-11.6667
莫測	-11.6667
為吉兆	-11.6668
傒	-11.6669
槩論	-11.667
揚雄	-11.6673
給事	-11.6675
日甲寅時	-11.6677
卑賤	-11.6679
要訣	-11.668
河漢	-11.6684
壽考	-11.6684
貞緯	-11.6685
血刃	-11.6687
溪縣	-11.6689
機謀	-11.6689
之貌也	-11.6691
猶豫	-11.6691
殺其君	-11.6693
應鍾	-11.6701
公私	-11.6709
尊親	-11.6711
呪曰	-11.6715
期十月	-11.6716
明健	-11.6721
外倣此	-11.6723
九焦	-11.6724
火燭	-11.6725
望斗	-11.6725
楚滅	-11.6733
隔絶	-11.6735
險難	-11.674
一千六十	-11.6743
八百四十	-11.6745
公吏	-11.6746
安葬	-11.6747
荆州占曰月犯	-11.6749
五行無氣	-11.675
天稷	-11.6769
徐揚	-11.677
進職	-11.6772
庚子壬子	-11.6773
夀筭	-11.6776
財官旺	-11.6779
雞雉	-11.6781
七百五十	-11.6781
去極一百	-11.679
婺女	-11.6794
色慾	-11.6795
通達	-11.6798
入畢中	-11.68
加日辰	-11.6804
太尊	-11.6817
軍將死	-11.6855
千古	-11.6856
单行	-11.6858
不可救	-11.6862
季氏	-11.6881
一定之	-11.6891
民疾疫	-11.6895
君臣和	-11.6914
改元太	-11.6923
四百五十	-11.6924
丑寅卯辰	-11.6943
末限	-11.6956
有兵喪	-11.6969
又占曰填星	-11.6987
前後各	-11.7044
春木旺	-11.7047
悼	-11.7047
潢	-11.7054
死無疑	-11.7059
李氏	-11.7065
下尅上	-11.7075
石氏曰客星	-11.7088
廐	-11.7091
孟夏	-11.7091
失其所	-11.711
甲辰甲戌	-11.7127
刼奪	-11.7131
數之用	-11.7136
乾亥兌丁	-11.7141
弁	-11.7154
棓	-11.7163
遲留	-11.7164
冀雍	-11.7165
譚	-11.7166
隂府太嵗	-11.7166
荆州占曰客星	-11.7166
尢	-11.7167
𧺫	-11.7171
淆	-11.7173
沮	-11.7173
峽	-11.7174
姒	-11.7175
按周髀長	-11.7176
濵	-11.7176
晡	-11.7177
漠	-11.7178
甲巳化土	-11.7178
眩	-11.7178
栽種牧養納畜	-11.7178
天德月德天德合月德合	-11.7178
滴	-11.7178
招搖	-11.7179
蕾	-11.7179
𡨕	-11.7179
甲丙庚壬	-11.7179
弇	-11.718
噫	-11.718
悶	-11.7181
學館	-11.7182
赤地千里	-11.7182
瘧	-11.7182
洋洋	-11.7182
亳	-11.7182
行幸遣使安撫邊境選將訓兵	-11.7183
惆悵	-11.7183
歐	-11.7183
渝	-11.7183
太乙抱蟾	-11.7183
叩	-11.7184
隂男陽女	-11.7185
呈兆	-11.7185
秀而不實	-11.7185
匙	-11.7185
分一更戌初	-11.7186
榦	-11.7186
澆	-11.7186
掃舍宇	-11.7187
皮膚	-11.7187
挑	-11.7187
穿鑿	-11.7187
外髙内下	-11.7187
分三更亥正三刻	-11.7187
韶	-11.7188
痢	-11.7188
易妖占曰	-11.7188
僉	-11.7188
日禄歸時	-11.7188
嘔	-11.7188
邢	-11.7188
伶俐	-11.7188
桓温	-11.7189
畱	-11.7189
凋	-11.7189
滄	-11.7189
臉	-11.7189
奕	-11.7189
晉灼曰	-11.7189
朔旦冬至	-11.7189
妻賢子孝	-11.719
險阻	-11.719
柯	-11.7191
桞	-11.7191
羨	-11.7191
冉	-11.7191
晉陽秋曰	-11.7191
搶	-11.7192
􁁊	-11.7192
栁星張	-11.7192
誓	-11.7192
倖	-11.7192
舉正直	-11.7192
眇	-11.7193
横渠	-11.7193
經綸	-11.7193
逈	-11.7193
穿井	-11.7193
河圗曰	-11.7193
豎造	-11.7194
朔日有食之	-11.7194
員郎	-11.7194
石氏曰流星出	-11.7194
團	-11.7195
首仰足肣身折内外相應	-11.7195
消磨	-11.7195
聰俊	-11.7196
譯	-11.7196
㨗	-11.7196
牖	-11.7196
劉歆	-11.7196
所喜者	-11.7196
隤	-11.7197
左掖門	-11.7197
眷	-11.7197
驚惶	-11.7197
枯朽	-11.7197
紹興	-11.7198
期四十日	-11.7198
徐子平	-11.7198
七百二十九	-11.7198
禎祥	-11.7198
鬼旺身衰	-11.7198
熄	-11.7199
弩	-11.7199
辦	-11.7199
龎	-11.72
飯	-11.72
巫咸曰彗星出	-11.7201
娛	-11.7201
孚過	-11.7202
怙	-11.7202
聦明	-11.7202
淚	-11.7203
碓	-11.7203
昨	-11.7204
戌刑未	-11.7204
樞機	-11.7204
金櫃	-11.7204
豫章	-11.7206
嘴	-11.7206
粒	-11.7206
劉備	-11.7207
掲	-11.7207
釣起	-11.7207
歐陽	-11.7207
郵	-11.7207
琴瑟	-11.7208
市樓	-11.7209
日癸巳時	-11.721
躭	-11.721
特達	-11.721
日戊午時	-11.721
日庚子時	-11.7211
蛇蚓	-11.7211
梵	-11.7212
仁慈	-11.7212
吾儒	-11.7212
撒	-11.7213
結穴	-11.7214
恕	-11.7215
囚禁	-11.7215
甘氏曰彗星出	-11.7216
機巧	-11.7216
日壬辰時	-11.7217
茶	-11.7217
布衣	-11.722
鎭星	-11.722
祈福	-11.722
漢武帝	-11.7221
飛騰	-11.7222
井竈	-11.7222
有黒子	-11.7222
日庚寅時	-11.7223
等閒	-11.7225
求醫	-11.7228
期十日	-11.7229
枯骨	-11.723
日丙午時	-11.723
猛虎	-11.7231
先天八卦	-11.7232
羖首	-11.7232
資助	-11.7232
清閑	-11.7233
遲延	-11.7233
第四課	-11.7235
珠玉	-11.7235
鼻梁	-11.7235
田産	-11.7237
曲折	-11.7237
甘氏曰日在	-11.7238
洫	-11.7238
剝復	-11.7239
去極七十	-11.7241
白羊宫	-11.7241
祿馬貴人	-11.7242
石崇	-11.7242
財生官	-11.7243
隂陽二氣	-11.7246
隱伏	-11.725
日甲申時	-11.7253
的刃	-11.7257
韓信	-11.7257
廣陵	-11.7259
低頭	-11.7261
公姑	-11.7262
立劵交易	-11.7263
俯仰	-11.7265
律厯	-11.7265
天芮	-11.7272
進爵	-11.7272
趨乾	-11.7277
未判	-11.7277
信息	-11.728
於是乎	-11.7281
孝順	-11.7282
地裂	-11.7282
不睦	-11.7284
相貎	-11.7288
四千六	-11.7297
專制	-11.7305
舊圖	-11.7312
二十餘	-11.7338
在隂宫	-11.7338
闗係	-11.736
雨澤	-11.7366
年乙未丙申丁酉戊戌己亥庚子辛丑	-11.7372
強弱	-11.7407
天官書	-11.7409
地大動	-11.7409
尺八寸	-11.7417
行西運	-11.7443
星守命	-11.7447
二而四	-11.7468
慈善	-11.7481
宿一偏東二度	-11.7482
侍衛	-11.7506
河圖帝覽嬉曰	-11.7545
差錯	-11.7556
孝經内記曰	-11.7557
鳥飛	-11.7575
石氏曰填星犯	-11.7641
土計孛	-11.7648
遲遲	-11.7661
第三宫	-11.7721
壬癸生人	-11.7725
鎭	-11.7746
廩	-11.775
魚鹽	-11.775
絓	-11.7754
焱	-11.7755
祇	-11.7756
日蝕諸侯	-11.7758
犧牲	-11.776
怖	-11.7764
日必有灾雲	-11.7765
徘徊	-11.7767
鉛	-11.7767
朕	-11.7768
翠	-11.7768
焦延壽曰	-11.7768
冡宰	-11.7768
藝文志	-11.7769
愧	-11.7769
凹	-11.7769
瀦	-11.777
窮理盡性	-11.7771
諷	-11.7771
矛盾	-11.7772
瀛	-11.7772
襯	-11.7772
隲	-11.7772
鴛鴦	-11.7772
晷影	-11.7772
高宗日傍氣圖曰日	-11.7772
炤	-11.7773
尚書中候曰	-11.7773
泆	-11.7773
孝經内記圖曰日	-11.7773
不註宜	-11.7774
門為直使	-11.7774
瘢	-11.7774
嫉	-11.7774
郢	-11.7774
隂陽老少	-11.7774
亟	-11.7774
愽	-11.7775
分旦刻卯初	-11.7775
五穀不登	-11.7775
官至三品	-11.7776
四爲公侯	-11.7776
一萬八百	-11.7776
泓	-11.7776
靈憲曰	-11.7776
琢	-11.7776
魅	-11.7776
睹	-11.7776
渚	-11.7777
釵釧	-11.7777
閱	-11.7777
寥	-11.7777
二四六八十	-11.7777
淄	-11.7777
零落	-11.7777
忌月破平日收日	-11.7778
瀉	-11.7778
以元經㑹	-11.7778
鬼谷子云	-11.7779
首仰足肣有内無外	-11.7779
鳳凰	-11.7779
財命有氣	-11.7779
黃帝曰客星	-11.7779
并屬井鬼分	-11.7779
峰	-11.7779
聼	-11.7779
三方對照	-11.7779
轉禍為福	-11.778
秦始皇	-11.778
璞	-11.778
閹	-11.778
皂	-11.778
韋昭洞紀曰	-11.7781
參天兩地	-11.7781
鑾	-11.7781
貪婪	-11.7781
無極而太極	-11.7781
金轝	-11.7781
杯	-11.7781
瀝	-11.7781
壻	-11.7782
直之日宜	-11.7782
三爲進人	-11.7782
易書詩春秋	-11.7782
自天來	-11.7782
塟	-11.7783
俸	-11.7783
跖	-11.7783
漿	-11.7783
天馬地驛	-11.7783
蘆	-11.7783
巫醫	-11.7784
帷	-11.7784
騷	-11.7784
不出六十日	-11.7784
儻	-11.7784
丰	-11.7784
先難後易	-11.7785
凝結	-11.7785
五榖不成	-11.7785
衷	-11.7785
之位平滿	-11.7786
粱	-11.7786
永寧	-11.7786
夙	-11.7786
一百四十四	-11.7786
璇璣	-11.7787
留二十日	-11.7787
潜潭巴曰	-11.7787
龔	-11.7787
屛星	-11.7787
先貧後富	-11.7787
洲	-11.7787
迤邐	-11.7788
萬五千里	-11.7788
隧	-11.7788
平洋	-11.7788
只是一箇	-11.7788
王者惡之	-11.7788
叅詳	-11.7789
背禄逐馬	-11.7789
室火猪	-11.7789
濯	-11.7789
臺閣	-11.7789
刻及分	-11.779
宴㑹	-11.779
三命通㑹卷	-11.779
堕	-11.779
日乙巳時	-11.779
三方四正	-11.7791
堪輿	-11.7791
劉裕	-11.7792
甑	-11.7792
司馬懿	-11.7792
台輔	-11.7792
誦	-11.7792
正謂此也	-11.7792
有赦令	-11.7793
田庄	-11.7793
親友	-11.7793
卲	-11.7794
飛天禄馬	-11.7794
五臓	-11.7794
太僕	-11.7794
胡氏曰	-11.7795
從中起	-11.7796
肢體	-11.7796
侏	-11.7797
攅	-11.7797
張氏曰	-11.7798
丙合辛	-11.7798
侵凌	-11.7798
緇	-11.7798
宫安命論	-11.7799
申子辰水局	-11.7799
仰觀	-11.7799
間量府	-11.78
五潢	-11.78
無雲而	-11.78
橋梁	-11.78
快樂	-11.78
七百四十	-11.78
彦	-11.7801
五穀大貴	-11.7801
荆州占	-11.7801
蟻	-11.7801
日辛酉時	-11.7801
荒淫	-11.7801
為兵喪	-11.7802
奸私	-11.7802
日辛未時	-11.7804
日乙亥時	-11.7804
日癸未時	-11.7805
堪輿家	-11.7806
巳酉丑金局	-11.7806
逰魂	-11.7806
鷄鳴	-11.7806
行年本命	-11.7806
涂	-11.7806
雲氣在敵陣上	-11.7807
鳳閣	-11.7808
干戈	-11.7809
急脚	-11.781
築室	-11.781
㧞晉	-11.781
果老	-11.781
後天八卦	-11.7811
東方朔	-11.7811
刑憲	-11.7813
日甲午時	-11.7815
癸邜	-11.7815
遣使	-11.7816
日丁亥時	-11.7818
再嫁	-11.7821
丅悔	-11.7822
雜緯	-11.7823
歲熟	-11.7824
孤單	-11.7824
員外	-11.7826
關梁	-11.7826
温厚	-11.7826
設使	-11.7827
平淡	-11.7831
一朞	-11.7832
有小兵	-11.7833
九九八十一	-11.7834
貴人祿馬	-11.7839
錯亂	-11.784
金牛宫	-11.7841
减福	-11.7843
生成之數	-11.7843
宋鄭	-11.7844
乖張	-11.7844
劉曜	-11.7853
竒儀	-11.7857
今通書	-11.7866
妙訣	-11.7883
萬頃	-11.7894
東井輿鬼	-11.7907
不可測	-11.7915
垣廟	-11.7953
八百五十	-11.7954
壬申癸酉甲戌乙亥丙子丁丑戊寅己卯	-11.7961
四百七十	-11.7982
丅休	-11.7984
唐志	-11.7994
來尅我	-11.8025
甘氏曰填星守	-11.8049
人馬宫	-11.8054
尺七寸	-11.8157
囚繫	-11.8165
星學大成卷十	-11.8298
五百五十	-11.8313
雒	-11.8327
太白出西方	-11.8339
九百五十	-11.8353
者言乎其	-11.8381
彎	-11.8381
蔚	-11.8384
炬	-11.8387
矯	-11.8387
蛤	-11.8387
融結	-11.8388
顙	-11.8388
鴛	-11.8389
魏氏圖曰	-11.8389
聦	-11.839
繳	-11.839
翅	-11.839
惱	-11.8391
日其未出	-11.8391
病者瘥	-11.8392
止忌安撫邊境選將訓兵出師	-11.8392
藪	-11.8392
岷	-11.8393
曆	-11.8393
出貨財	-11.8393
裡	-11.8394
京房妖占曰	-11.8394
炙	-11.8395
嫉妬	-11.8395
隄	-11.8395
飄蕩	-11.8395
册	-11.8396
話	-11.8396
溝渠	-11.8396
腥	-11.8396
五百一十二	-11.8396
有相色	-11.8397
帑	-11.8397
急急如律令	-11.8397
訾	-11.8397
瘵	-11.8398
出師上官赴任臨政親民	-11.8398
窘	-11.8398
塌	-11.8398
誌	-11.8398
緊要	-11.8398
不貴則富	-11.8399
核	-11.8399
三四品貴	-11.8399
猫	-11.8399
燦然	-11.8399
甲與巳合	-11.8399
西王母	-11.84
汎	-11.84
齋戒	-11.8401
氣質之性	-11.8401
期八十日	-11.8401
值之日宜	-11.8401
五與十	-11.8401
含文嘉曰	-11.8401
羔	-11.8401
涇	-11.8402
迯	-11.8402
直足直	-11.8402
隘	-11.8402
讙	-11.8402
有千里之行	-11.8402
謾	-11.8402
郄萌曰客星舍	-11.8403
斡	-11.8403
坤艮坎巽	-11.8403
伏叚	-11.8403
司馬遷天官書曰	-11.8404
栽種	-11.8404
怎	-11.8404
哭泣之事	-11.8404
三易洞璣卷	-11.8404
觸水龍	-11.8404
黿	-11.8404
杏	-11.8404
噎	-11.8404
銓部	-11.8405
蔑	-11.8405
墮胎	-11.8405
䆒	-11.8405
竺	-11.8405
履霜	-11.8406
勘	-11.8406
螽	-11.8406
謫戍	-11.8406
贛	-11.8406
隗	-11.8406
寔	-11.8407
横吉上有仰下有柱	-11.8407
磑	-11.8407
撥	-11.8408
江淮	-11.8408
軒昻	-11.8408
之初一日入	-11.8408
聫	-11.8409
春秋圖曰嵗星	-11.8409
誡	-11.8409
豺狼	-11.841
臣弑君	-11.841
賞賜	-11.841
祭酒	-11.8411
轡	-11.8411
仆	-11.8411
五總龜	-11.8411
納音屬金	-11.8411
舘	-11.8412
荄	-11.8412
署	-11.8412
影響	-11.8412
鄂	-11.8412
垓	-11.8413
六壬大全	-11.8413
乙與庚合	-11.8413
詣	-11.8414
五爲天子	-11.8414
仁義禮智	-11.8414
曲脚	-11.8414
淹留	-11.8415
懷孕	-11.8415
袁天綱云	-11.8415
祸	-11.8415
隂中之陽	-11.8415
榭	-11.8416
汜	-11.8417
英豪	-11.8418
多水災	-11.8418
犧	-11.8418
淹滯	-11.8418
留不去	-11.8418
斬首	-11.8419
頺	-11.8419
陪	-11.8419
有土功之事	-11.8419
鴉	-11.8419
六十有四	-11.842
蝗蟲	-11.842
行東南運	-11.842
􁃦	-11.842
温潤	-11.842
尺寸	-11.8421
涿	-11.8421
賦斂	-11.8421
蔓	-11.8421
天子惡之	-11.8421
閎	-11.8422
洮	-11.8422
勑	-11.8423
日乙酉時	-11.8423
岑	-11.8423
摹	-11.8423
天下安寧	-11.8423
苻堅	-11.8423
宿雲氣干犯占	-11.8423
沽	-11.8424
蒼蒼	-11.8424
貸	-11.8424
枯燥	-11.8424
祠祀	-11.8426
天桴	-11.8426
丙丁屬火	-11.8427
如前説	-11.8427
爭競	-11.8427
日乙未時	-11.8428
巧妙	-11.8429
栖	-11.8429
嘷	-11.843
􁜤	-11.843
日戊子時	-11.843
千鍾	-11.8431
日丁酉時	-11.8431
自午至亥	-11.8432
巽離兊	-11.8433
日己亥時	-11.8434
畫八卦	-11.8436
眉毛	-11.8436
日甲辰時	-11.8436
雙魚宫	-11.8437
日丙戌時	-11.8438
詩斷木星	-11.8438
日丁未時	-11.8439
衣冠	-11.844
弦望	-11.844
尾火虎	-11.844
日壬午時	-11.8441
簇長官司	-11.8441
人之生也	-11.8444
六百三十	-11.8444
乙邜	-11.8445
阻隔	-11.8445
其下之國	-11.8446
日丙子時	-11.8447
甲乙寅卯	-11.8449
往来	-11.845
尚質	-11.8453
力停	-11.8454
日月拱夾	-11.8458
是主星晝生	-11.8458
日辛亥時	-11.8458
吊起	-11.8461
之納甲也	-11.8463
依托	-11.8464
登第	-11.8465
日壬子時	-11.8468
軍民府	-11.8471
流蕩	-11.8475
安牀	-11.8481
充實	-11.8481
水大出	-11.8494
年乙丑丙寅丁卯戊辰己巳庚午辛未	-11.85
有暴兵	-11.8511
番	-11.8514
有死王	-11.8517
隋志	-11.8524
父兄	-11.8531
日癸丑時	-11.8531
八百六十	-11.8547
十有三	-11.8549
各得其所	-11.8551
通金氣	-11.8553
政令不行	-11.8558
悼公	-11.8578
庚酉辛	-11.8596
詳審	-11.8603
臣弑主	-11.8628
投江	-11.8643
午未申酉戌亥	-11.8652
大人有憂	-11.8667
孛同行	-11.8694
度半在黄道	-11.8715
度在黄道外	-11.8741
子母相	-11.8834
九百三十	-11.8853
陸費墀欽定四庫全書	-11.8871
渾渾	-11.8882
四千四	-11.8905
丅凶丅凶丅凶丅凶	-11.8946
科舉	-11.8975
十二吉山宜巳酉丑亥卯未年月日時	-11.901
朞	-11.9013
人生子無	-11.9021
丨平	-11.9028
缺盆	-11.903
五百九十	-11.9036
黒痣	-11.9037
曇瑩	-11.9044
郤	-11.9044
蓮	-11.9045
選擇宗鏡	-11.9046
枲	-11.9046
神藏煞沒	-11.9047
汨沒	-11.905
臀	-11.905
釀	-11.9051
楯	-11.9052
髭	-11.9053
異苑曰	-11.9053
插	-11.9053
折桂	-11.9054
瓠	-11.9055
聲如雷	-11.9056
譜	-11.9056
殖	-11.9056
與填星合	-11.9057
雒罪級曰	-11.9057
曷	-11.9057
㵼	-11.9057
二四六八	-11.9057
征討	-11.9058
一看命	-11.9058
蒭	-11.9059
安撫邊境選將訓兵出師	-11.906
舛	-11.906
動而生陽	-11.906
囂	-11.9061
巡狩	-11.9061
占者得之	-11.9061
立之是謂	-11.9061
漣	-11.9062
陜	-11.9062
㓗	-11.9062
諸葛	-11.9063
昩	-11.9063
抱朴子曰	-11.9063
天寶厯曰	-11.9064
解除求醫療病	-11.9064
黄帝曰流星入	-11.9064
葦	-11.9064
坊	-11.9065
延熹	-11.9065
殻	-11.9065
詔命公卿招賢	-11.9065
語笑	-11.9065
此二段	-11.9065
朦	-11.9065
化煞為權	-11.9065
羗	-11.9066
涌	-11.9066
月恩四相	-11.9066
肣	-11.9066
凋零	-11.9066
四大吉時	-11.9067
綜	-11.9067
中央大星	-11.9067
聖人作易	-11.9068
車騎滿野	-11.9068
巫咸曰客星出	-11.9069
瑜	-11.9069
赫赫	-11.9069
宥	-11.9069
周髀	-11.9069
横吉内外自橋	-11.9069
三更子初一刻	-11.907
攣	-11.907
㐮	-11.907
曽文辿	-11.907
摘亡辟曰	-11.907
前二辰為	-11.907
凡㸔命	-11.907
天一地二天	-11.907
二交金木	-11.907
舟楫	-11.9071
市賈有利	-11.9071
襦	-11.9071
天下更政	-11.9071
元枵	-11.9072
横吉内外相應自橋揄仰上柱足足肣	-11.9072
癰	-11.9072
官福二宫	-11.9072
揷	-11.9072
嗑	-11.9072
太玄經卷第	-11.9073
􁁜	-11.9073
欽定四庫全書三易洞璣卷	-11.9073
辰與酉合	-11.9073
血支血忌	-11.9073
期百日	-11.9074
蹙	-11.9074
换	-11.9074
於國内	-11.9074
子與丑合	-11.9075
啟蒙	-11.9075
醮	-11.9075
韜	-11.9075
店	-11.9075
製	-11.9075
子寅辰午申戌	-11.9075
舟船	-11.9075
綰	-11.9076
扶筐	-11.9076
宓圗	-11.9076
匏	-11.9077
妒	-11.9077
丑刑戌	-11.9077
乾兊離震	-11.9077
厥妖	-11.9077
歌舞	-11.9077
税	-11.9077
京都	-11.9078
寶瓶	-11.9078
褰	-11.9078
陸績	-11.9078
憚	-11.9079
天網四張	-11.9079
愍	-11.9079
荘公	-11.9079
樞要歴曰	-11.9079
顛狂	-11.9079
琴	-11.908
鰲	-11.908
羲軒	-11.908
有自立者	-11.908
妍	-11.908
内外相應	-11.908
鴟	-11.908
墨子曰	-11.908
寂寞	-11.9081
理之自然	-11.9081
震坎艮	-11.9081
財官雙美	-11.9081
羌	-11.9081
人生六畜有	-11.9081
諏訾	-11.9081
悮	-11.9081
土埋雙女	-11.9081
甕	-11.9081
孤孀	-11.9081
㝷	-11.9082
行木火運	-11.9082
舂	-11.9082
逆行四孟	-11.9083
天鏡曰天雨	-11.9083
血脉	-11.9083
府尹	-11.9083
鵰	-11.9083
延頸	-11.9083
外頗同	-11.9084
甲食丙	-11.9084
弓箭	-11.9084
尅妻害子	-11.9085
樊	-11.9085
丮	-11.9085
玉兎	-11.9085
漤	-11.9085
孥	-11.9085
九州殊口	-11.9086
匹配	-11.9087
愎	-11.9087
闈	-11.9087
魏氏曰	-11.9087
渡河	-11.9088
屈曲	-11.9088
彊梁	-11.9088
有竒令	-11.9088
黃鍾	-11.909
懸索	-11.909
顒	-11.909
狢	-11.909
秘訣云	-11.9091
闕丘	-11.9091
竊詳	-11.9091
遡	-11.9091
沖和	-11.9092
稽留	-11.9092
覊絆	-11.9092
礥	-11.9092
日丙辰時	-11.9092
暘	-11.9092
支壠	-11.9093
納畜	-11.9094
亦不註忌	-11.9094
有用之星	-11.9094
哺	-11.9095
日癸酉時	-11.9095
韯	-11.9095
日己未時	-11.9095
裸形	-11.9096
戶	-11.9096
陽中之隂	-11.9098
鎬	-11.9098
日己酉時	-11.9098
荆州占曰月蝕	-11.9098
角木蛟	-11.9099
日丁巳時	-11.9099
日丁丑時	-11.9101
淫奔	-11.9101
日甲戌時	-11.9102
隔界	-11.9102
日戊戌時	-11.9102
牟	-11.9104
相生相尅	-11.9105
焌	-11.9105
月金水運	-11.9107
莫大於	-11.9108
葉落	-11.9111
日辛丑時	-11.9116
赤如血	-11.9122
日己丑時	-11.9128
津河	-11.913
土尅水	-11.916
古今同四星	-11.9162
以吉論	-11.9166
木命人	-11.9209
八百七十	-11.9217
將軍為亂	-11.9228
大衍五十	-11.925
海中占曰填星守	-11.9279
百四十有四	-11.9325
辛巳壬午癸未甲申乙酉丙戌丁亥戊子	-11.9331
本生年	-11.9365
星占五十	-11.9386
一丈一尺	-11.9389
石氏曰月犯	-11.9484
十有六	-11.9536
四分度之一	-11.9538
白衣之㑹	-11.9556
文志曰晉	-11.9601
與火同	-11.9696
三千七十	-11.9715
兌六白震八白中九紫乾	-11.9727
旛	-11.9744
峒	-11.9746
北極出地	-11.9746
袁紹	-11.9747
浙	-11.9749
麞	-11.9751
簷	-11.9752
碣石	-11.9753
荅	-11.9755
其進舍也	-11.9756
鄆	-11.9756
粥	-11.9756
臓	-11.9758
飭	-11.9758
啣	-11.9758
眎	-11.9763
海中占曰月暈	-11.9763
捷	-11.9767
槽	-11.9767
針刺	-11.9767
茲	-11.9767
秤	-11.9768
遐齡	-11.977
蹲	-11.977
嫗	-11.977
啾	-11.9771
六千五百六十一	-11.9772
繒	-11.9772
賄	-11.9772
奄	-11.9772
兵發伺始入處之率一日期十日軍罷	-11.9774
溶	-11.9775
施恩封拜	-11.9775
䧏	-11.9775
慶賜賞賀宴㑹	-11.9775
黃帝占曰客星出	-11.9776
膻	-11.9776
兟	-11.9776
欽定四庫全書子部七提要	-11.9776
原發㣲	-11.9776
君臣父子	-11.9776
七百二十九賛	-11.9776
日暈而珥	-11.9776
瑯琊王	-11.9777
金白水清	-11.9777
裁製	-11.9777
挽	-11.9777
所宿之國	-11.9777
凡所忌者則不註宜所宜者亦不註忌	-11.9777
隼	-11.9777
侣	-11.9777
弦望晦朔	-11.9778
日有食之	-11.9778
當憂不憂	-11.9779
巒	-11.9779
佛氏	-11.9779
滓	-11.9779
脅	-11.9779
自然而然	-11.9779
磬	-11.9779
摺	-11.978
青色三物厭日之光	-11.978
僮	-11.978
姙	-11.978
六爲上禄	-11.978
蝀	-11.9781
螮	-11.9781
壬禄在亥	-11.9781
乖戾	-11.9781
贈	-11.9781
笙	-11.9781
昭昭	-11.9782
辵	-11.9782
眉濃	-11.9782
沓	-11.9782
韋昭	-11.9782
㤙	-11.9782
剗	-11.9782
演孔圖曰	-11.9782
春秋考異郵曰	-11.9783
孟仲季	-11.9783
揫	-11.9783
終而復始	-11.9783
星伴月	-11.9783
幃	-11.9784
翮	-11.9784
璋	-11.9784
冐	-11.9784
撲	-11.9784
轍	-11.9784
玅	-11.9785
刋	-11.9785
牂	-11.9785
冗	-11.9785
玉管照神局	-11.9786
二十八宿山經曰	-11.9786
近中宫故為	-11.9786
昱	-11.9786
東官候曰	-11.9786
貼肉	-11.9786
赫奕	-11.9786
化鬼為官	-11.9786
駢	-11.9786
僖	-11.9787
痰	-11.9787
㕔	-11.9788
乾兊离震	-11.9788
賜爵	-11.9788
蹉	-11.9788
杭	-11.9788
丐	-11.9789
鷙	-11.9789
總要歴曰	-11.9789
職元局主	-11.9789
禍百端	-11.9789
殄	-11.9789
蛀	-11.9789
脹	-11.979
走他鄉	-11.979
䕫	-11.979
蛾	-11.979
佐助期曰	-11.9791
石氏曰彗孛干犯	-11.9791
寒暑晝夜	-11.9791
東甌	-11.9791
冽	-11.9791
逆行變色	-11.9792
漳	-11.9792
車騎將軍	-11.9792
開拓	-11.9792
鍼	-11.9792
焉乾隆四十六年	-11.9792
燾	-11.9792
涕	-11.9792
唾	-11.9793
貿	-11.9793
竒一偶	-11.9793
加一級	-11.9793
特逹	-11.9793
迅速	-11.9793
僧尼	-11.9794
易有太極	-11.9794
吹律	-11.9794
愕	-11.9794
吉無不利	-11.9794
詹	-11.9795
乘凶將	-11.9795
阪	-11.9796
游䰟	-11.9796
奔馳	-11.9796
行限遇之	-11.9796
申未午	-11.9797
胎生元命	-11.9797
謹慎	-11.9797
兩干不雜	-11.9797
丁與壬合	-11.9797
仕路	-11.9798
斵	-11.9798
中赤外青	-11.9798
轟	-11.9798
恓惶	-11.9798
犬矢	-11.9798
竦	-11.9798
祛	-11.9798
緋	-11.9799
散漫	-11.9799
淫佚	-11.9799
太史令	-11.9799
不出四十日	-11.9799
為應造葬後	-11.9799
當此之時	-11.9799
不出百日	-11.9799
溝壑	-11.98
幂	-11.98
䋲	-11.98
酆	-11.98
日丁卯時	-11.98
左右執法	-11.98
焦枯	-11.98
所在之方	-11.9801
犢	-11.9801
么	-11.9802
通作分	-11.9802
滔滔	-11.9802
燧	-11.9802
虓	-11.9802
鶚	-11.9803
去煞留官	-11.9803
宜守舊	-11.9804
血腥	-11.9804
棺槨	-11.9805
猛烈	-11.9805
陳卓曰彗星出	-11.9806
水尅火	-11.9806
女主當之	-11.9807
行金水運	-11.9808
敦厚	-11.9808
富貴兩全	-11.9809
師曠	-11.9809
最為良	-11.9809
木尅土	-11.9811
寘	-11.9811
砧	-11.9813
畛	-11.9813
獲麟	-11.9814
周匝	-11.9814
日酌行	-11.9814
弹射	-11.9814
之謂也修夫	-11.9816
餘准此	-11.9817
郗萌曰太白犯	-11.9818
鄭𤣥注	-11.9818
與太白相	-11.9819
稅	-11.982
趨避	-11.9821
盡之矣	-11.9827
跙	-11.9833
衛軍民指揮使司	-11.9833
攡	-11.9839
八百九十	-11.984
日庚戌時	-11.9843
臣中兵也	-11.9848
所自出	-11.9851
其所以然	-11.9858
古今同五星	-11.9863
雨雹	-11.9957
郗萌占曰	-12.0096
百五十里	-12.0149
宜天徳月徳天徳合月徳合天赦天願	-12.0152
上官赴任臨政親民	-12.0245
四十九内減之餘	-12.0337
亥戊子己丑庚寅辛卯壬辰癸巳經世之	-12.035
丨	-12.0383
廏	-12.0397
壬子癸丑甲寅乙卯丙辰丁巳戊午	-12.0415
四千九十	-12.0459
甲寅辰巽戌坎辛申丑癸坤	-12.0485
建破平收	-12.0492
朦景	-12.0495
身命主星入	-12.0508
尭	-12.0511
豕生六畜	-12.0513
昔人所謂	-12.0514
公卒世子	-12.0528
弛	-12.0528
彬	-12.053
睒	-12.0531
周顯王	-12.0531
兕	-12.0534
毬	-12.0534
咋	-12.0535
杞	-12.0535
臰	-12.0536
太乙金鏡式經	-12.0536
囧	-12.0536
小限流星	-12.0538
駙	-12.0539
料	-12.054
以入日占	-12.0541
船渡水	-12.0541
杜預	-12.0541
下一爻變	-12.0542
五位相得而各有合	-12.0542
葵	-12.0542
羈	-12.0543
扈	-12.0543
管輅	-12.0543
巫咸曰流星入	-12.0543
侖	-12.0544
埃	-12.0544
破土安葬啟攢	-12.0544
生生不窮	-12.0544
豪傑	-12.0544
苫	-12.0545
歆	-12.0545
晨見東方	-12.0545
玅選	-12.0546
期三年逺五年	-12.0546
八尺之表	-12.0546
晦朔弦望	-12.0546
自午至	-12.0546
尺有五寸	-12.0546
日用旺相	-12.0546
恙	-12.0546
宣政事	-12.0547
煦	-12.0547
欒	-12.0547
翩	-12.0547
土符地囊土王用事後	-12.0547
臣不忠	-12.0548
鬼金羊	-12.0548
石氏外官	-12.0548
跪	-12.0548
琨	-12.0548
土王用事	-12.0548
槖	-12.0549
盻	-12.0549
浚	-12.0549
邇	-12.0549
衙	-12.0549
建子之月	-12.0549
若角動	-12.0549
○○/○○○○○○)	-12.055
參同契	-12.055
八門杜	-12.055
噀	-12.0551
東海王越	-12.0551
土厚地方	-12.0551
塘	-12.0551
玉霄寶鑑	-12.0551
猩	-12.0551
人倫風鑑云	-12.0551
闓	-12.0551
婉	-12.0552
蜜	-12.0552
午與未合	-12.0552
貲	-12.0552
所宿國	-12.0552
譙	-12.0552
癰疽	-12.0552
劉向洪範傳曰	-12.0552
天統乎體	-12.0552
侔	-12.0553
二至二分	-12.0553
消爍	-12.0553
期不出百八十日	-12.0553
三三而九	-12.0553
堅氷	-12.0553
攬	-12.0553
舩	-12.0553
得一分三	-12.0553
興販	-12.0554
月恩四相時徳	-12.0554
寰	-12.0554
沈芝云	-12.0554
漂蕩	-12.0554
濓溪	-12.0554
隂陽二遁	-12.0554
一南一北	-12.0554
兢	-12.0554
芻	-12.0555
庶㡬	-12.0555
消息盈虚	-12.0555
儔	-12.0556
囹圄	-12.0556
疉	-12.0556
悠悠	-12.0557
晁	-12.0557
麦	-12.0557
窰	-12.0557
功曺	-12.0557
衘	-12.0558
瞿	-12.0558
山澤通氣	-12.0558
煆煉	-12.0558
熬	-12.0558
土能生金	-12.0558
徇	-12.0558
俠	-12.0559
昃	-12.0559
覓	-12.0559
性命之理	-12.0559
組	-12.0559
覆燈	-12.0559
猷	-12.0559
什	-12.0559
痼疾	-12.0559
犬生六畜	-12.0559
定章曰	-12.056
一隂一陽之謂道	-12.056
綱領	-12.056
一日一夜	-12.056
齦	-12.056
占病必死	-12.056
大矣哉	-12.056
饕	-12.056
膏澤	-12.0561
易飛候曰天雨	-12.0561
少年及第	-12.0561
呵	-12.0562
癩	-12.0562
末助初	-12.0562
氛	-12.0562
邕	-12.0562
雨風露雷	-12.0563
井木犴	-12.0563
窈窕	-12.0563
岩	-12.0563
艶	-12.0563
迨	-12.0563
巳與申合	-12.0563
膈	-12.0564
冲漠	-12.0564
瓊	-12.0564
斵削	-12.0564
周天之度	-12.0564
首仰足肣内髙外下	-12.0565
四木度	-12.0565
鉅鹿	-12.0566
指揮	-12.0566
進退存亡	-12.0567
闔闢	-12.0568
謾語	-12.0568
下克上	-12.0568
揣	-12.0569
不貧則夭	-12.0569
分隂分陽	-12.0569
迴避	-12.0569
繩索	-12.0569
皇太后	-12.057
堯典	-12.0571
鹹	-12.0571
陂池	-12.0571
薊	-12.0571
與太乙合	-12.0571
其國君死	-12.0572
焯	-12.0572
關隘	-12.0572
邃	-12.0574
斿	-12.0574
甲與己合	-12.0574
如雞子	-12.0574
嚎	-12.0574
諸葛亮	-12.0575
蓐	-12.0575
行東北運	-12.0575
去官留煞	-12.0576
作日之財	-12.0578
各隨其	-12.0578
包括	-12.0578
十干十二支	-12.0578
龜板	-12.0579
日壬戌時	-12.058
乙丁己辛癸	-12.0581
慙	-12.0581
慵	-12.0582
在赤道外	-12.0583
棿	-12.0584
鱔	-12.0584
慳貪	-12.0584
日短星	-12.0587
悸	-12.0587
太白與歳星	-12.059
姚萇	-12.0611
行北運	-12.0619
星占六十	-12.0623
月並出	-12.0642
縦横	-12.0647
安其居	-12.0658
虹貫	-12.0673
火生於寅	-12.0681
軍民宣慰使司	-12.0682
與喜相	-12.0754
催官篇	-12.0781
渾淪	-12.0795
八八六十四	-12.0972
丙申丁酉戊戌己亥庚子辛丑壬寅癸卯	-12.107
擇吉日	-12.1183
甲辰乙巳丙午丁未戊申己酉庚戌辛亥	-12.1271
丨凶丨凶丨凶丨凶	-12.1284
嵗枝德	-12.1335
旭	-12.1339
離壬丙乙	-12.1339
元一白震六白艮八白坎九紫坤	-12.1341
月日蝕不見光	-12.1347
人生六畜無	-12.1358
女人入此相者	-12.1359
當黜者	-12.1359
臑	-12.1359
擺	-12.136
時行八分	-12.1364
盾	-12.1364
寂然至無	-12.1368
袤	-12.137
䟦	-12.137
聞喜不喜	-12.1371
弧矢	-12.1371
幟	-12.1372
縫針	-12.1372
襍	-12.1374
卬	-12.1374
禎	-12.1374
天子自將兵	-12.1375
綉	-12.1375
一中一下	-12.1376
行惠愛雪寃枉緩刑獄	-12.1376
汪洋	-12.1376
礪石	-12.1377
蛙	-12.1377
躔婁宿號天	-12.1377
長星短星	-12.1377
耽	-12.1377
苐	-12.1377
三百六十五日四分日之一	-12.1377
雙山五行	-12.1378
蠡	-12.1378
殤	-12.1378
長數丈	-12.1378
日右六十干支從建	-12.1378
日壬戌大海水伐	-12.1378
一寒一暑	-12.1378
日癸丑桑柘木伐	-12.1379
日庚戌釵釧金義	-12.1379
日戊午天上火義	-12.1379
日甲寅大溪水專	-12.1379
用事宜忌具於表欽定協紀辨方書卷	-12.1379
倐	-12.1379
罟	-12.1379
日甲辰覆燈火制	-12.1379
天目外迫	-12.1379
懈	-12.1379
杳	-12.1379
覃恩	-12.1379
憒	-12.138
河鼓二偏東	-12.138
診	-12.138
廖	-12.138
杲	-12.138
日庚午路傍土伐	-12.138
日丙子澗下水伐	-12.138
日乙丑海中金制	-12.138
日甲戌山頭火制	-12.138
起坎一	-12.138
日己巳大林木義	-12.138
日辛未路傍土義	-12.138
渥	-12.138
十惡大敗	-12.138
破屋壞垣	-12.138
日丁酉山下火制	-12.1381
日丙寅鑪中火義	-12.1381
日戊寅城頭土伐	-12.1381
日癸巳長流水制	-12.1381
騮	-12.1381
四千三百七十四	-12.1381
閲	-12.1381
日丙申山下火制	-12.1381
日壬辰長流水伐	-12.1381
日庚辰白鑞金義	-12.1381
日戊子霹靂火制	-12.1381
趯	-12.1381
日己亥平地木制	-12.1381
日甲申井泉水伐	-12.1381
星命溯源	-12.1381
􁈯	-12.1381
日丁亥屋上土伐	-12.1382
日乙酉井泉水伐	-12.1382
箒	-12.1382
春秋漢含孳曰	-12.1382
五榖不登	-12.1382
占卷一百	-12.1382
􁃽	-12.1382
宮初度是為	-12.1382
縫	-12.1382
惰	-12.1383
星神常居其上	-12.1383
印綬生身	-12.1383
平治道塗	-12.1383
絲綿	-12.1383
納采問名	-12.1383
簪	-12.1383
鸞鳯	-12.1383
觀物内篇之	-12.1383
有吉有凶	-12.1384
鼎鼐	-12.1384
一動一静	-12.1384
時月将申加	-12.1384
買賣	-12.1384
陽生於子	-12.1384
周敬王	-12.1384
繕城郭	-12.1384
元之元之元	-12.1384
縛	-12.1384
吞啖	-12.1384
裒	-12.1384
行幸遣使	-12.1385
嬉	-12.1385
堦	-12.1385
營建宫室	-12.1385
邈	-12.1385
崔嵬	-12.1385
呌	-12.1386
沂	-12.1386
羝	-12.1386
冏	-12.1386
朢	-12.1386
譛	-12.1386
不在此論	-12.1386
磊	-12.1387
媒妁	-12.1387
蚕	-12.1387
蘖	-12.1387
韓趙魏	-12.1387
廣雅曰	-12.1387
兩軍相當	-12.1387
滚	-12.1387
牒	-12.1387
萬一千五百二十	-12.1387
日忌詞訟	-12.1387
莫不皆然	-12.1388
五六品貴	-12.1388
握鏡曰	-12.1388
遇而不遇	-12.1388
瞬	-12.1388
氏為皇后	-12.1388
迥	-12.1388
北落師門	-12.1388
燼	-12.1388
棋	-12.1389
譏	-12.1389
日東風	-12.1389
蠧	-12.1389
臟腑	-12.139
甘氏占曰	-12.139
團圓	-12.139
兵法曰	-12.139
地分乎用	-12.139
有女喪	-12.139
摺折	-12.139
星不欲明	-12.139
幡	-12.1391
賭	-12.1391
姑姨	-12.1391
詎	-12.1391
邉疆	-12.1391
癘	-12.1392
王者以赦除咎	-12.1393
心月狐	-12.1394
趂	-12.1394
奧	-12.1394
之課象曰	-12.1394
優劣	-12.1394
詞館	-12.1394
驅馳	-12.1394
輟	-12.1394
殫	-12.1395
抄	-12.1395
首仰足開有内	-12.1395
薫	-12.1395
潼	-12.1396
姐	-12.1396
衮	-12.1396
刑囚直難	-12.1396
馬生六畜	-12.1396
各從其類	-12.1397
裴	-12.1397
金騎人馬	-12.1398
嶠	-12.1398
張月鹿	-12.1398
攔	-12.1398
蔣	-12.1398
方州部家	-12.1398
璺	-12.1398
糠	-12.1399
星非其故	-12.1399
喆	-12.1399
諱	-12.1399
在壬亥之間	-12.1399
悲泣	-12.14
戊與癸合	-12.1401
軋	-12.1401
優㳺	-12.1401
躔斗宿號天	-12.1401
鯨	-12.1402
溝洫	-12.1402
逵	-12.1402
膩	-12.1403
拱禄拱貴	-12.1403
旻	-12.1403
三合前辰	-12.1404
害命坐人	-12.1404
日辛夘時	-12.1404
叨	-12.1404
耜	-12.1405
爪牙	-12.1405
錦繡	-12.1407
千變萬化	-12.1407
沼	-12.1407
猪㺄	-12.1409
萬無一失	-12.1409
圡	-12.1409
説文曰	-12.1409
纒綿	-12.1411
堰	-12.1412
世家曰	-12.1413
䦯	-12.1413
螺	-12.1414
釜	-12.1417
旡	-12.142
芻藁	-12.1421
作吉論	-12.1421
霰	-12.1421
宿雲氣干犯占蒼白雲氣入	-12.1422
房日兎	-12.1423
天地自然之	-12.1424
有使來	-12.1429
度於辰在	-12.1429
度及分	-12.1433
一千九十	-12.1436
主大權	-12.144
堪誇	-12.1441
以其日占	-12.1456
行屬於	-12.1468
四千一	-12.1475
易大傳	-12.1488
五百十	-12.1627
熒惑入輿鬼	-12.1634
月害在	-12.1664
庚辰辛巳壬午癸未甲申乙酉丙戌	-12.1876
丙寅丁卯戊辰己巳庚午辛未壬申癸酉	-12.1923
度少去極	-12.2064
與熒惑合	-12.2132
獅	-12.22
日即止	-12.2208
元一白乾六白坤八白巽九紫中	-12.2219
離六白中八白兌九紫艮	-12.222
納音屬木開山立向修方吉	-12.2232
鶉	-12.2234
納音屬水開山立向修方吉	-12.2237
屬尾箕分	-12.2239
元一白巽六白離八白坤九紫震	-12.2239
桴	-12.2246
頬	-12.2251
祲	-12.2254
朒	-12.2255
州按禹貢	-12.2261
入賤格	-12.2263
時月将未加	-12.2264
時月将午加	-12.2265
其於十二子為	-12.2269
膞	-12.227
氏欲為天子魏氏圖曰	-12.2271
月也律中	-12.2272
飍	-12.2272
汨	-12.2272
蚩	-12.2272
天包地外	-12.2273
犯乘守	-12.2274
白虹貫日	-12.2274
馳騁	-12.2274
思過半矣	-12.2274
譲	-12.2275
覃	-12.2275
掉	-12.2276
蹉跎	-12.2277
俄	-12.2277
塚	-12.2278
求財物買臣妾馬牛	-12.2279
蝶	-12.2279
卸	-12.2279
臘	-12.2279
一行禪師	-12.2279
順飛九宫	-12.228
侃	-12.228
唐王希明撰	-12.2281
斃	-12.2281
月災祥見在	-12.2281
娠	-12.2281
蜒	-12.2281
詩㫁太陽	-12.2282
宋均注曰	-12.2282
楫	-12.2283
位至公卿	-12.2283
𠂻	-12.2283
稳	-12.2283
顗	-12.2283
蠲	-12.2284
共合數三十	-12.2284
繒帛	-12.2284
櫃	-12.2284
攔截	-12.2284
呪咀	-12.2285
到山到向	-12.2285
娥	-12.2285
濮	-12.2285
暝	-12.2285
摭	-12.2285
長十餘丈	-12.2285
薇	-12.2286
泯	-12.2286
日庚申石榴木專	-12.2286
耄	-12.2287
隙	-12.2287
日己未天上火專	-12.2287
日辛酉石榴木專	-12.2287
毌	-12.2288
嘻	-12.2288
嶓	-12.2288
萬不失一	-12.2288
槎	-12.2288
天目内迫	-12.2289
發屋折木	-12.2289
修造動土	-12.2289
日乙亥山頭火義	-12.2289
躔軫宿號天	-12.2289
耑	-12.2289
瞭	-12.2289
忌祈福求嗣上册進表章	-12.2289
卯與戌合	-12.2289
天地之數五十有五	-12.2289
行冬令則	-12.2289
日晝㝠者	-12.2289
揜	-12.229
剃	-12.229
期一年逺三年	-12.229
猥	-12.229
日戊戌平地木專	-12.229
扛	-12.229
嬖	-12.229
四中一下	-12.229
滙	-12.229
捲	-12.229
日乙未砂石金制	-12.229
日辛巳白鑞金伐	-12.229
日辛丑壁上土義	-12.2291
劑	-12.2291
時斷六壬日生時	-12.2291
鸞鳳	-12.2291
芝蘭	-12.2291
蚤	-12.2291
窖	-12.2291
月中日躔在	-12.2291
躔畢宿號天	-12.2292
破軍死將	-12.2292
擕	-12.2292
痺	-12.2292
塋	-12.2292
官居極品	-12.2292
月波洞中記	-12.2292
星隕如雨	-12.2293
愷	-12.2293
讚	-12.2293
養命之源	-12.2293
柰	-12.2293
晃	-12.2294
獺	-12.2294
時月将戌加	-12.2294
身衰鬼旺	-12.2294
叟	-12.2294
時斷六庚日生時	-12.2294
賂	-12.2294
君臣慶㑹	-12.2295
唐瞿曇悉逹撰	-12.2295
瘟疫	-12.2295
弭	-12.2295
霹	-12.2295
沱	-12.2295
年月時中	-12.2295
晨出夕	-12.2295
時時日併衝憂傷妻子	-12.2296
沅	-12.2296
反凶為吉	-12.2296
時斷六丙日生時	-12.2296
陞擢	-12.2296
卭	-12.2296
宼	-12.2296
隸	-12.2296
峩	-12.2296
祿馬同鄕	-12.2297
樑	-12.2297
飡	-12.2297
時斷六戊日生時	-12.2297
𦙍	-12.2297
䜟	-12.2297
荆州占曰有星入	-12.2297
彛	-12.2297
簾	-12.2298
造葬後	-12.2298
姪	-12.2298
諾	-12.2298
神頭祿乃	-12.2298
四千七十	-12.2298
咳𠻳	-12.2298
躔張宿號天	-12.2298
麾	-12.2298
天數五地數五	-12.2299
杠	-12.2299
簾幙	-12.2299
騫	-12.2299
燄	-12.2299
筥	-12.2299
陳卓曰彗孛干犯	-12.2299
繕	-12.2299
甦	-12.23
滕	-12.23
疴	-12.23
鹵	-12.2301
謂年月日時胎	-12.2301
欽天監時憲科天文生	-12.2301
瘖	-12.2301
窮則變	-12.2301
儈	-12.2301
二中二下	-12.2301
臚	-12.2301
忌軍事	-12.2301
湎	-12.2301
詢	-12.2301
秭	-12.2301
周定王	-12.2302
三中一下	-12.2302
倉廩	-12.2302
而蝕戒之在	-12.2302
𣺌	-12.2302
鑪	-12.2302
瘞	-12.2302
吃	-12.2302
武后改元	-12.2303
太乙在一宫	-12.2303
日干上午	-12.2303
眚	-12.2303
火性炎上	-12.2304
庡	-12.2304
孺	-12.2305
膓	-12.2305
聿	-12.2305
紙	-12.2305
鏘鏘	-12.2305
將太衝天馬方	-12.2305
卜法詳考	-12.2305
擲	-12.2306
㽔賔	-12.2306
三台八座	-12.2306
燭神經云	-12.2306
福無涯	-12.2306
蜮	-12.2306
有流民	-12.2306
死於非命	-12.2306
天衝地擊	-12.2307
俘	-12.2307
辰戍丑未	-12.2307
未可便言	-12.2307
先富後貧	-12.2307
𣲖	-12.2307
芬	-12.2307
鞅	-12.2307
艻	-12.2307
亂臣在内	-12.2307
午至亥	-12.2307
諸不入局	-12.2308
瘋跛	-12.2308
毓	-12.2308
躔牛宿號天	-12.2308
罙	-12.2308
庄	-12.2309
豕韋	-12.2309
塩	-12.2309
始吉終	-12.2309
逋	-12.2309
躔箕宿號天	-12.2309
欽定四庫全書六壬大全卷	-12.231
暑寒晝夜	-12.231
躔心宿號天	-12.231
甲以辛為官	-12.231
自將兵於野	-12.231
札	-12.2311
揄	-12.2311
耻	-12.2311
范蠡	-12.2311
栽培	-12.2311
湣	-12.2311
財不聚	-12.2311
厯上元甲子至今	-12.2312
逡巡	-12.2312
以卜有求	-12.2312
償	-12.2312
笠	-12.2313
墓神覆日	-12.2313
儋	-12.2313
日己夘時	-12.2313
踪	-12.2313
穫	-12.2314
鰍	-12.2314
𤯝	-12.2314
天皇大帝	-12.2315
蛄	-12.2315
四千三十	-12.2315
蝦鬚	-12.2316
支加干	-12.2316
録尚書事	-12.2316
𬎼賔	-12.2317
豬	-12.2317
訥	-12.2317
巳中戊土	-12.2321
癆瘵	-12.2321
羮	-12.2324
賑	-12.2324
緜	-12.2324
四千二十	-12.2325
宣撫司	-12.2334
箕水豹	-12.2339
駮	-12.234
九千九百	-12.2349
十三萬一千	-12.2351
鸜	-12.2365
月木火運	-12.2416
百四十里	-12.2428
歳星與熒惑	-12.2453
太白與熒惑	-12.247
在府東	-12.2571
入天軍	-12.2882
常居月建前	-12.2957
丅吝丅吝丅吝丅吝丅吝丅吝丅吝丅吝	-12.3174
丨休丨休丨休丨休丨休丨休丨休丨休	-12.3177
丨咎丨咎丨咎丨咎丨咎丨咎丨咎丨咎	-12.3185
四千八百	-12.3185
烘	-12.3199
丨祥丨祥丨祥丨祥丨祥丨祥丨祥丨祥	-12.3216
中六白坎八白震九紫巽	-12.3222
丅休丅休丅休丅休丅休丅休丅休丅休	-12.3226
坤六白兌八白離九紫坎	-12.3231
幹土枝	-12.3234
幹金枝	-12.3235
幹水枝	-12.3235
幹火枝	-12.3236
幹木枝	-12.3237
納音屬土開山立向修方吉	-12.3238
劫煞災煞月煞月刑月害月厭	-12.3239
蝎	-12.3246
丅吉丅吉丅吉	-12.325
畆	-12.3255
聲之善者	-12.3261
簇	-12.3262
殛	-12.3262
艮六白巽八白乾九紫兌	-12.3264
屛	-12.3265
爨	-12.3265
入正形者	-12.3267
騶	-12.3268
漚	-12.3269
篇其次又當	-12.3269
螳	-12.327
兖青人	-12.327
蚯蚓結	-12.3274
舡	-12.3274
乾兌離震	-12.3274
時月将巳加	-12.3275
熹	-12.3275
鍊	-12.3275
周厲王	-12.3276
䛕	-12.3277
棺木貴	-12.3278
羆	-12.3279
禮斗威儀曰	-12.3279
嚚	-12.328
再自乗	-12.328
出辰入申	-12.328
踒	-12.328
爇	-12.3281
惨	-12.3281
春木夏火秋金冬水	-12.3282
京氏易傳曰	-12.3282
時月将辰加	-12.3282
火入金鄉	-12.3282
第一百零	-12.3282
跗	-12.3283
度太去極	-12.3283
明時總要曰	-12.3284
葬造後六十日内	-12.3284
瑶	-12.3284
中伺其出日而數之期二十日	-12.3284
日九百四十分日之	-12.3284
足開首仰	-12.3284
濱	-12.3284
行秋令則	-12.3285
欵	-12.3285
複	-12.3285
日癸亥大海水專	-12.3285
日有蝕之	-12.3285
日丙午天河水專	-12.3286
欽定四庫全書太乙金鏡式經卷	-12.3286
日壬子桑柘木專	-12.3286
豚	-12.3286
雋	-12.3286
𣺌茫	-12.3286
祭祀祈福求嗣	-12.3286
不可舉事用兵	-12.3286
春秋圗曰辰星之	-12.3286
諂	-12.3287
撩	-12.3287
日丁巳沙中土專	-12.3287
波濤	-12.3287
鴞	-12.3287
襲爵受封	-12.3287
貪財壞印	-12.3287
日戊辰大林木專	-12.3287
髃	-12.3287
行春令則	-12.3287
淊	-12.3287
求醫療病餘皆不忌	-12.3288
躔胃宿號天	-12.3288
洒	-12.3288
刑冲破害	-12.3288
忤	-12.3289
尠	-12.3289
結婚姻納采問名嫁娶進人口般移安牀	-12.3289
上册進表章	-12.3289
夜裏生人	-12.3289
日己丑霹靂火專	-12.3289
邊夷兵起	-12.329
捕捉畋獵取魚	-12.329
簮	-12.329
門為直使管十時	-12.3291
券	-12.3291
各具一太極	-12.3291
以月建入中宫	-12.3291
御定星厯考原	-12.3291
歙	-12.3291
衾	-12.3291
臣弑其主	-12.3292
兵部尚書	-12.3292
爟	-12.3292
犇	-12.3292
三爻俱變為	-12.3292
紳	-12.3292
黄白氣出	-12.3292
亶	-12.3293
富而且貴	-12.3293
六儀擊刑	-12.3293
有立侯王	-12.3293
䲭	-12.3293
鰌	-12.3293
宫欄駕經	-12.3293
寅丑子亥	-12.3293
陽以隂為	-12.3294
和碩莊親王	-12.3294
晞	-12.3294
琅玕經節要	-12.3294
漾	-12.3295
當出不出	-12.3295
欽定四庫全書星學大成卷二十	-12.3295
期百八十日若一年	-12.3295
經日之甲一經月之	-12.3295
時斷六丁日生時	-12.3295
兠	-12.3295
外卦初爻	-12.3295
錮	-12.3295
元亨利貞	-12.3296
劫煞災煞月煞月刑月害月厭大時天吏	-12.3296
龍吟虎嘯	-12.3296
咨嗟	-12.3296
三地四天五地六天七地八天九地十	-12.3296
躔觜宿號天	-12.3297
釜甑	-12.3297
不註忌	-12.3297
其失次見於	-12.3297
漲	-12.3297
踴	-12.3298
就位相尅	-12.3298
騂	-12.3298
熒惑出入留舎	-12.3298
太公兵法曰	-12.3298
翺	-12.3298
司馬季主	-12.3298
瘡痍	-12.3298
隻	-12.3298
童謡曰	-12.3298
媵	-12.3299
仝	-12.3299
互為其根	-12.3299
居其旁則取	-12.3299
軒轅十四偏西	-12.3299
潯	-12.3299
袪	-12.3299
大衍索隠	-12.3299
乑	-12.3299
大衍之數五十其用四十有九	-12.3299
証	-12.3299
儼	-12.33
搜神記曰	-12.33
躔亢宿號天	-12.33
島	-12.33
行不遇盗雨不雨	-12.33
劭	-12.33
京房易飛候曰	-12.33
時斷六癸日生時	-12.3301
魔	-12.3301
躔翼宿號天	-12.3301
諤	-12.3301
擘	-12.3302
柏	-12.3302
太白出入留舎	-12.3302
脣	-12.3302
躔房宿號天	-12.3302
䍧	-12.3302
贍	-12.3302
葭	-12.3302
春夏為水秋冬為	-12.3302
藍	-12.3302
過與不及	-12.3302
挹	-12.3303
胙	-12.3303
君弱臣强	-12.3303
時月将子加	-12.3303
唆	-12.3303
汶	-12.3303
䦨	-12.3304
蝟	-12.3304
因妻致富	-12.3304
蜃	-12.3305
僊	-12.3305
蘊	-12.3305
躔璧宿號天	-12.3305
贓	-12.3305
剩	-12.3305
遅	-12.3306
萬六千二百	-12.3306
始擊將	-12.3306
生人以為暗星	-12.3306
禝	-12.3306
乞丐	-12.3306
黄雲氣入	-12.3306
賖	-12.3306
除舊布新	-12.3306
縉紳	-12.3306
阡陌	-12.3306
乾南坤北	-12.3307
五日六十時	-12.3307
曀	-12.3307
自左而右	-12.3307
邳	-12.3307
悵	-12.3307
逥	-12.3307
磁	-12.3308
糊	-12.3308
旬尾加旬首	-12.3308
瘀	-12.3308
噩	-12.3308
卉	-12.3308
重犯竒儀	-12.3309
子中癸水	-12.3309
人舉薦	-12.3309
躔氐宿號天	-12.331
離東坎西	-12.331
三傳戌午寅	-12.331
􁃭	-12.3311
棣	-12.3311
寅中有甲	-12.3311
控	-12.3311
猱	-12.3311
脆	-12.3311
藜	-12.3312
躔尾宿號天	-12.3312
富貴䨇全	-12.3312
吻	-12.3313
七經星之辛二百	-12.3313
水泛木浮	-12.3313
六經星之庚二百	-12.3313
練	-12.3313
五經星之己二百	-12.3314
四經星之戊二百	-12.3314
擎	-12.3314
酬	-12.3314
一經星之乙二百	-12.3314
三經星之丁二百	-12.3314
二經星之丙二百	-12.3314
邠	-12.3315
帝出乎震	-12.3315
皿	-12.3315
經星之甲二百	-12.3315
九經星之癸二百	-12.3315
呻	-12.3315
二支皆得	-12.3315
祓	-12.3316
一萬七千二十四	-12.3316
巳日還位	-12.3316
遁甲演義	-12.3317
甲祿在寅	-12.3317
尺而至於泉	-12.3317
俚	-12.3317
􁁆	-12.3318
咨	-12.3318
烜	-12.3318
以運經世	-12.3318
閤	-12.3319
械	-12.3319
危月燕	-12.3321
砭	-12.3323
雖生干而	-12.3323
守窮途而恓惶	-12.3323
刅	-12.3325
皇甫謐曰	-12.3325
鎣	-12.3325
仿	-12.3326
嘬	-12.3327
也費直曰自	-12.3329
銘	-12.3331
發微論	-12.3335
王璋曰	-12.3338
身旺喜財	-12.3342
壬寅癸卯甲辰乙巳丙午丁未戊申己酉	-12.3445
厭大時天吏四廢	-12.3473
庚戌辛亥壬子癸丑甲寅乙卯丙辰	-12.3488
寅刑己	-12.351
石氏曰他星守	-12.3532
之第二十	-12.3855
甲戌乙亥丙子丁丑戊寅己卯庚辰	-12.3931
宿一偏東五度	-12.3957
一萬六千	-12.4197
丅吉丅吉丅吉丅吉	-12.4245
丨悔丨悔丨悔丨悔丨悔丨悔丨悔丨悔	-12.4262
月朔有風雨	-12.4317
又曰䑕齧	-12.4344
納音屬火開山立向修方吉	-12.4347
十二吉山宜己酉丑亥卯未年月日時	-12.4348
獬豸	-12.4367
薆	-12.4369
痿	-12.4373
槁	-12.4375
焦延夀	-12.4378
雹下或	-12.4379
王廷光	-12.4379
蚩尤之旗	-12.438
橿	-12.438
四煞沒時	-12.4381
陳留王	-12.4382
巫咸占曰月暈	-12.4383
謟	-12.4385
論䜟曰	-12.4387
誨	-12.4388
何爲也曰	-12.4389
惢	-12.4389
鋩	-12.4391
遨	-12.4391
郗	-12.4392
尚書緯曰	-12.4392
出辰初初刻	-12.4393
滌	-12.4393
中爻變復為	-12.4394
喁	-12.4394
主人小勝	-12.4394
澹	-12.4394
七日来復	-12.4394
多學少成	-12.4395
坪	-12.4395
盼	-12.4395
烽	-12.4395
膂	-12.4395
公羊傳曰	-12.4395
彷	-12.4395
臸	-12.4395
串	-12.4396
故所忌如此	-12.4396
脯	-12.4396
易水育吾子識	-12.4396
疥	-12.4396
曵	-12.4396
霾	-12.4397
己丑庚寅辛卯壬辰癸巳經辰之	-12.4397
揉	-12.4397
峨	-12.4397
經日之甲一經月之午七經星之	-12.4397
天寳歴曰	-12.4397
者月中凶神也其日忌	-12.4397
諡	-12.4397
咄	-12.4398
吕氏春秋曰	-12.4398
交退伏神	-12.4398
綽	-12.4398
棄命就財	-12.4399
汭	-12.4399
繡	-12.4399
楨	-12.4399
明萬民英撰三辰通載	-12.4399
相死不死出走	-12.44
輅	-12.44
日戊申大驛土寳	-12.44
縞	-12.44
勛	-12.4401
日庚寅松柏木制	-12.4401
成鈎已	-12.4401
琭	-12.4401
雷乃發聲	-12.4401
艮納丙	-12.4401
時斷六辛日生時	-12.4401
咥	-12.4401
時斷六乙日生時	-12.4401
木能生火	-12.4402
門具将發	-12.4402
霽不霽	-12.4402
壑	-12.4402
鬍	-12.4402
度日出辰初一刻	-12.4402
扆	-12.4402
詩緯曰	-12.4402
頒詔施恩封拜詔命公卿招賢舉正直	-12.4402
七經星之辛一百	-12.4403
亥初二刻	-12.4403
蹰	-12.4403
慄	-12.4403
春丑夏辰秋未	-12.4403
脁朒	-12.4403
礪	-12.4403
臨朝稱制	-12.4404
聖祖仁皇帝	-12.4404
虺	-12.4404
安身傍鬼	-12.4404
幇	-12.4404
雷風相薄	-12.4404
五臟六腑	-12.4404
補垣塞穴	-12.4404
青雲得路	-12.4404
五帝内座	-12.4404
孀	-12.4404
日安撫邊境	-12.4405
時月将丑加	-12.4405
宫車晏駕	-12.4405
可坐不可向	-12.4405
五姓修宅	-12.4405
鞶	-12.4405
腰金衣紫	-12.4406
𥪡	-12.4406
整容剃頭整手足甲	-12.4406
期一年中二年逺三年	-12.4406
西門出東門	-12.4406
鄊	-12.4406
膊	-12.4406
淬	-12.4406
肓	-12.4406
寂然不動	-12.4406
仰觀俯察	-12.4407
倍海國	-12.4407
見足少陽	-12.4407
餘可類推	-12.4407
乘軒衣冕	-12.4408
四經星之戊一百	-12.4408
行人立至	-12.4408
三經星之丁一百	-12.4408
夫榮子貴	-12.4408
犯西方七宿	-12.4408
鳬	-12.4408
五經星之己一百	-12.4408
八經星之壬一百	-12.4408
欻	-12.4408
二經星之丙一百	-12.4408
一經星之乙一百	-12.4409
夀難延	-12.4409
應刪去一	-12.4409
簞	-12.4409
經星之甲一百	-12.4409
逡	-12.4409
六經星之庚一百	-12.4409
生月帶祿	-12.4409
庚禄在申	-12.4409
鄭康成	-12.4409
禧	-12.4409
詛	-12.441
子旺母衰	-12.441
咫	-12.441
嘻嘻	-12.441
詁	-12.441
朦朧	-12.441
邅	-12.4411
茾	-12.4411
煅	-12.4411
背禄而不貧	-12.4411
兗	-12.4412
變凶為吉	-12.4412
躔女宿號天	-12.4412
纏	-12.4412
窬	-12.4412
掣	-12.4412
之分在天文	-12.4413
五穀以水傷	-12.4413
八龍七鳥九虎六蛇	-12.4413
奪夫權	-12.4413
黑白分明	-12.4414
火能生土	-12.4414
瘠	-12.4414
臨衝窵合	-12.4414
况於人乎	-12.4414
莢	-12.4414
角亢氐房	-12.4415
兵喪並起	-12.4415
嚘	-12.4415
躔參宿號天	-12.4415
僑	-12.4415
上取籌閉地户	-12.4415
出將入相	-12.4415
嵐	-12.4415
一定不易	-12.4416
天地定位山澤通氣	-12.4416
泊戌曰	-12.4416
劘	-12.4416
猛虎伏岡	-12.4416
犯東方七宿	-12.4416
壬與丁合	-12.4417
日出入晝夜時刻	-12.4417
二中三下	-12.4417
疣	-12.4417
諍	-12.4417
嘶	-12.4417
安帝義熈	-12.4417
為了戾	-12.4417
七千一百	-12.4418
觸類而長	-12.4418
凈	-12.4418
生人以為䕃星	-12.4418
禇	-12.4418
躔危宿號天	-12.4418
廡	-12.4419
分七釐	-12.4419
犯南方七宿	-12.4419
褚	-12.4419
生人以為囚星	-12.4419
幻	-12.442
生人以為印星	-12.442
棠	-12.442
九八七六	-12.442
袴	-12.442
它	-12.442
琅玕經云	-12.442
斗繫丑未	-12.442
凡吉凶相抵不註忌	-12.442
咏	-12.4421
䘏	-12.4422
缾	-12.4422
胚	-12.4422
帙	-12.4422
禺	-12.4422
熏	-12.4422
穣	-12.4423
煞官混雜	-12.4423
莾	-12.4423
剉	-12.4423
癶	-12.4424
蚌	-12.4424
凛	-12.4424
聯	-12.4424
斫	-12.4425
絹	-12.4426
八經星之壬二百	-12.4426
雎	-12.4427
㤀	-12.4428
憙	-12.4428
則星墜為	-12.4428
㗊	-12.443
通明賦云	-12.443
瘤	-12.443
天元羸弱	-12.4431
跋	-12.4431
周景王	-12.4431
倂	-12.4431
懋	-12.4432
洵	-12.4433
流亡去其鄉	-12.4433
蟊	-12.4434
綘	-12.4435
沁	-12.4438
瞶	-12.4439
潞	-12.4441
乾坤艮㢲	-12.4442
㗖	-12.4442
覧	-12.4444
捄	-12.4445
柱下史	-12.4447
犯軒轅大星	-12.4454
娄	-12.4456
直日子時起	-12.4457
▁第三十	-12.4462
在宣府東	-12.4472
開倉庫出貨財修置產室	-12.4547
六萬四千	-12.4548
壁宿一偏東	-12.4665
文志曰孝	-12.4671
周天三百六十五度	-12.5209
分今厯景長	-12.5419
斗宿一偏西	-12.5428
日得酉人民	-12.5511
丅灾丅灾丅灾丅灾丅灾丅灾丅灾丅灾	-12.5535
閶闔風	-12.5593
塡	-12.5597
納音屬金開山立向修方吉	-12.5599
溱	-12.5608
磔	-12.5609
又曰熒惑與辰星	-12.5618
筠	-12.562
唐孔氏曰	-12.5621
君子失機	-12.5625
腿	-12.5627
嬗	-12.5627
蜋	-12.5628
遘	-12.563
帝加元服	-12.5631
其陘道於	-12.5632
其俞注於	-12.5633
其滎流於	-12.5633
猝	-12.5634
三合兼臨官	-12.5634
蔡季通	-12.5634
靚	-12.5636
元包經傳卷	-12.5637
草木萌動	-12.5637
裙	-12.5638
五尺七寸六分	-12.5638
六神悉伏	-12.5638
喑	-12.5639
㺯	-12.5639
滲	-12.5639
莱	-12.5639
瑯	-12.564
賺	-12.564
蕡	-12.564
聵	-12.564
所乗之機	-12.5641
䜿	-12.5641
唐瞿曇悉達撰太白占	-12.5641
一十三億九千九百六十八萬	-12.5642
成變化而行鬼神	-12.5642
京房對災異曰	-12.5642
曹震圭曰正月宜	-12.5642
裸	-12.5642
財官無氣雖得滋助亦輕	-12.5643
色三物厭日之光	-12.5643
汐	-12.5644
與德合併猶忌	-12.5644
堵	-12.5644
兩儀四象八卦	-12.5644
夣	-12.5644
郄	-12.5645
褐	-12.5645
陽貴申加亥	-12.5645
愼	-12.5646
侑	-12.5646
月朔日日蝕	-12.5646
扣	-12.5646
止不忌祭祀	-12.5646
躔昴宿號天	-12.5646
躔鬼宿號天	-12.5646
粲	-12.5646
在天成象在地成形	-12.5646
四離四絶	-12.5646
二萬八千二百一十一兆九百九十	-12.5646
坏	-12.5646
萬七千四百五十六億	-12.5647
鐸	-12.5647
朱漢上曰	-12.5647
京房曰䑕無故	-12.5647
猬	-12.5647
隂錯陽差	-12.5647
椿	-12.5647
躔角宿號天	-12.5647
并屬斗牛分	-12.5648
分五更丑正初刻	-12.5648
邵泰衢	-12.5648
隳	-12.5648
用癸乙丁辛時	-12.5648
覃恩肆赦施恩惠恤孤惸	-12.5648
度日出寅正二刻	-12.5648
日癸酉劒鋒金義	-12.5648
坤納乙癸	-12.5648
用艮巽坤乾時	-12.5649
觽	-12.5649
劫煞災煞月煞月刑月厭四廢	-12.5649
度日出寅正三刻	-12.5649
大角偏西	-12.5649
土符地囊	-12.5649
憾	-12.5649
躔井宿號天	-12.5649
右四象八卦六	-12.5649
夏氏日暈圖曰日	-12.5649
日丙辰沙中土寳	-12.565
日乙巳覆燈火寳	-12.565
咀	-12.565
桎梏	-12.565
不與德合併如常例	-12.565
日丁未天河水寳	-12.565
日辛亥釵釧金寳	-12.565
日己酉大驛土寳	-12.565
賒	-12.5651
迸	-12.5651
偏陰偏陽	-12.5651
宿一偏東一度四十	-12.5651
戢	-12.5651
五曜連珠	-12.5651
九分晝四十	-12.5651
秦王翦	-12.5651
嚼	-12.5651
丑子亥戌	-12.5651
陬	-12.5651
欝	-12.5651
訐	-12.5651
郭景純	-12.5651
遄	-12.5651
喫	-12.5652
午為火旺之地	-12.5652
宣布政事慶賜賞賀宴㑹	-12.5652
佗	-12.5652
第一百十	-12.5652
幢	-12.5652
捍	-12.5652
時月将寅加	-12.5652
淘	-12.5652
晉中興徵祥説曰	-12.5653
貽	-12.5653
鴿	-12.5653
秦昭襄王	-12.5653
陽貴巳加亥	-12.5653
時斷六甲日生時	-12.5653
日癸未楊栁木伐	-12.5653
珞	-12.5653
蹊	-12.5653
一百五十五萬五千二百	-12.5653
遟	-12.5653
日壬午楊栁木制	-12.5653
分二更戌正三刻	-12.5654
有操持	-12.5654
分二更亥初三刻	-12.5654
煨燼	-12.5655
漓	-12.5655
與巽爲飛伏	-12.5655
織女一偏東	-12.5655
金神入火鄕	-12.5655
庵	-12.5655
時月将酉加	-12.5655
塹	-12.5655
媐	-12.5655
淮南子曰嵗星舍	-12.5655
與德願併	-12.5655
趍	-12.5655
歸根復命	-12.5655
袖	-12.5656
犍	-12.5656
忉	-12.5656
蔡西山	-12.5656
廣聖歴曰	-12.5656
中犯乘守心明堂	-12.5656
北落師門偏東	-12.5656
饌	-12.5656
故納干於	-12.5656
眊	-12.5656
鸇	-12.5656
九經星之癸一百	-12.5656
觭	-12.5657
也孫炎曰	-12.5657
内卦初爻	-12.5657
鴆	-12.5657
六七品貴	-12.5657
時斷六巳日生時	-12.5657
碭	-12.5657
䄂	-12.5657
二明三暗	-12.5657
刖	-12.5657
朱草生	-12.5657
蜉	-12.5657
按宋書天文志曰魏	-12.5658
二十八宿山經注曰	-12.5658
鷂	-12.5658
三十日其君憂	-12.5658
三爻皆變而之	-12.5658
罘	-12.5658
矗	-12.5658
濤	-12.5658
瘋	-12.5658
輆	-12.5659
稔	-12.5659
子弑父	-12.5659
財絶命衰	-12.5659
肱	-12.5659
歉	-12.5659
鑽	-12.5659
贄	-12.5659
子午邜酉	-12.5659
螢	-12.5659
堆金積玉	-12.566
𧖟	-12.566
柝	-12.566
湮	-12.566
瘂	-12.566
甘氏曰彗孛干犯	-12.566
耳目口鼻	-12.566
亹亹	-12.566
週而復始	-12.566
慨	-12.566
礦	-12.566
入若守天市	-12.566
嵬	-12.566
歿	-12.566
曝	-12.5661
泳	-12.5661
罇	-12.5661
茨	-12.5661
郟	-12.5661
分二更亥正初刻	-12.5662
讃	-12.5662
驁	-12.5662
鈎命决曰	-12.5662
五億五千九百八十七萬二千	-12.5662
删	-12.5662
頭伏足伏	-12.5662
涪	-12.5663
謐	-12.5663
柢	-12.5663
陽順隂逆	-12.5663
卦王風從	-12.5663
弱喜旺忌	-12.5663
贖	-12.5664
經籍志	-12.5664
一二三四五六七八	-12.5664
先凶後吉	-12.5664
嶷	-12.5664
雙鴛合	-12.5664
宙	-12.5664
欽定四庫全書卜法詳考卷	-12.5664
禮部侍郎胡煦撰	-12.5664
罄	-12.5664
菟	-12.5664
戱	-12.5664
勹	-12.5664
天下兵悉起	-12.5665
蒂	-12.5666
呴	-12.5666
有亡國死王	-12.5666
唐瞿曇悉達撰熒惑占	-12.5666
沴	-12.5666
出地上三十六度	-12.5666
夏草遭霜	-12.5666
圃	-12.5667
以減二十九餘	-12.5667
之事則占於	-12.5667
王朔曰日	-12.5667
軹	-12.5667
避難逃生	-12.5667
木入秦州	-12.5668
褓	-12.5668
砌	-12.5668
痴	-12.5668
餒	-12.5668
生人以為貴星	-12.5668
躔奎宿號天	-12.5668
生起干上之	-12.5669
躔栁宿號天	-12.5669
淮南鴻烈	-12.5669
瀘	-12.5669
忩	-12.5669
生人以為耗星	-12.5669
易坤靈圖曰	-12.5669
耋	-12.567
俗諺云	-12.567
卒在前車騎次之大將居中出門無剽掠	-12.5671
得位行不失勝行失敗色	-12.5671
百二十占他星	-12.5671
蒼白雲氣入	-12.5671
躋	-12.5672
杌	-12.5672
衫	-12.5672
躔星宿號天	-12.5672
百戰百勝	-12.5672
陰錯陽差	-12.5672
太乙萬神䕶吾三軍令敵莫敢當我筭得	-12.5673
乙巳丙午丁未戊申己酉	-12.5673
漬	-12.5673
穿心六害	-12.5674
鑕	-12.5674
馨	-12.5674
犂	-12.5674
瑣	-12.5674
糺	-12.5674
虚名虚利	-12.5675
龢	-12.5675
搔	-12.5675
窻	-12.5675
方以牛脯	-12.5675
蚣	-12.5675
蜈	-12.5675
昕	-12.5675
躔室宿號天	-12.5675
租	-12.5675
危疑者甚	-12.5676
跟	-12.5677
櫪	-12.5677
鄢	-12.5677
沮渠蒙遜	-12.5678
瘁	-12.5678
天傾西北	-12.5678
洎此宮冝春	-12.5679
金寒水冷	-12.5679
鏃	-12.5679
出則禍除	-12.568
廞	-12.568
赤奮若	-12.568
漢高帝	-12.5681
襁	-12.5681
貍	-12.5682
覿	-12.5682
鬛	-12.5683
茆	-12.5683
大戴禮	-12.5685
煞反為權	-12.5686
日伏夜遊	-12.5688
瀾	-12.5689
􁤽	-12.5691
盂	-12.5692
劃	-12.5692
艸	-12.5699
稠	-12.57
飛走木草	-12.5701
褁	-12.5703
滿日閉日劫煞災煞月煞月刑月	-12.5736
壬寅癸卯甲辰乙巳丙午	-12.5862
劫煞災煞月煞月刑月	-12.5878
厯例曰常居月建	-12.6092
巳戊午己未庚申辛酉壬戌癸亥經世之	-12.6121
己丑庚寅辛卯壬辰癸巳經世之	-12.6145
犯積薪四十	-12.6231
結婚姻納采問名嫁娶	-12.6499
運身旺喜財身弱喜旺	-12.676
軫宿一偏西	-12.6838
開市立劵交易納財開倉庫出貨財	-12.6887
柳宿一偏西	-12.6921
一等右純乎	-12.6993
利有攸往	-12.6997
吉凶悔吝生乎動	-12.7001
覞	-12.7009
利渉大川	-12.7018
葱	-12.7019
䀠	-12.703
正月起辰逆行十二辰	-12.704
出月左方日在甲寅歳星將出而不出	-12.7043
月動有音	-12.7044
赤黒色三物厭日之光	-12.7044
青色之星有兩青方在其旁出而生	-12.7044
舜置十二牧其一也	-12.7049
欎	-12.705
壹	-12.7052
麟徳厯	-12.7052
官事難觧	-12.7053
蹷	-12.7053
縑	-12.7054
星學大成	-12.7055
髻	-12.7055
駞	-12.7055
天子為軍自守	-12.7056
緫	-12.7057
𤨏	-12.7057
繪	-12.7058
今之談命者	-12.7059
春戌夏丑秋辰冬未	-12.706
厦	-12.706
耼	-12.7062
嗉	-12.7063
撼	-12.7063
皝	-12.7063
度日出卯正三刻	-12.7064
民食三升	-12.7064
又曰䑕無故	-12.7066
􁀾	-12.7067
易萌氣樞曰	-12.7067
以三約之為宫數不	-12.7067
樗	-12.7067
軨	-12.7068
甌	-12.7068
睚	-12.7068
葺	-12.7068
陽貴子加亥	-12.7069
㓛	-12.7069
抉	-12.7069
隂貴午加亥壬日	-12.707
輗	-12.707
路無破官至	-12.7071
鉄	-12.7071
屑	-12.7071
熛	-12.7071
妊	-12.7072
糜	-12.7072
衿	-12.7072
陽貴亥加亥	-12.7072
罦	-12.7072
偏隂偏陽	-12.7072
樵	-12.7073
侗	-12.7073
用數之用二百五十二	-12.7073
炫	-12.7073
扄	-12.7073
有兵兵罷無兵兵起	-12.7073
塑	-12.7073
消息盈虛	-12.7073
曳	-12.7073
騏	-12.7074
故所忌如此與德合	-12.7074
陽貴夘加亥	-12.7074
墾	-12.7074
嗤	-12.7074
妣	-12.7074
斌	-12.7074
韁	-12.7074
吭	-12.7075
按星經步天歌	-12.7075
㳟	-12.7075
髙宗占曰月暈	-12.7075
隂貴夘加亥	-12.7075
綝	-12.7076
詆	-12.7076
十不用餘五屬土土生金故曰金	-12.7076
首仰足肣内外自隨	-12.7076
拯	-12.7076
顕	-12.7076
則亦猶是矣	-12.7076
京房易𫝊曰	-12.7076
犯杵星九	-12.7077
山崩水灌	-12.7077
懾	-12.7077
赤色之星有兩赤方在其旁出而生	-12.7077
軔	-12.7077
文曜鉤曰	-12.7077
丙寅熒惑將出而不出其與日合	-12.7077
四十六日内暈者赤	-12.7077
芸	-12.7078
畤	-12.7078
一百七萬一千里	-12.7078
庚寅太白將出而不出其與日合	-12.7078
隂貴申加亥	-12.7078
日丁丑澗下水寳	-12.7078
萇	-12.7078
嘖	-12.7079
児	-12.7079
嚙	-12.7079
尻	-12.7079
不透要衝	-12.7079
陽貴未加亥	-12.7079
譴	-12.7079
吼	-12.7079
日主徤旺	-12.7079
星變色而白期	-12.7079
劵	-12.7079
安帝義熙	-12.7079
鵓鴿駝鈴	-12.7079
也此課㓜明曰	-12.708
昉	-12.708
己未庚申辛酉壬戌癸亥經辰之	-12.708
日丙戌屋上土寳	-12.708
郁	-12.708
刁	-12.708
全身逺害	-12.708
愿	-12.708
徂	-12.708
溜	-12.708
日甲午砂石金寳	-12.708
駃	-12.708
日庚子壁上土寳	-12.7081
移根換葉	-12.7081
鬯	-12.7081
珂	-12.7081
觔	-12.7081
煞前主後	-12.7081
迓	-12.7081
岌	-12.7081
鳶	-12.7081
并屬井鬼分外鎮	-12.7081
南河三偏東	-12.7081
陌	-12.7082
囓	-12.7082
二十六萬二千一百四十四	-12.7082
汀	-12.7082
應改條目	-12.7082
日丁夘鑪中火義	-12.7082
未知孰是	-12.7082
芟	-12.7082
譁	-12.7082
屎	-12.7082
鯀	-12.7082
䖟	-12.7082
𥘉	-12.7082
矮	-12.7082
死囚刑克	-12.7083
䍚	-12.7083
石之山谷中	-12.7083
渤	-12.7083
西山真氏曰	-12.7083
鏗	-12.7083
𦦨	-12.7083
撣	-12.7083
渇	-12.7083
艷	-12.7083
五岳四瀆	-12.7083
犖	-12.7083
㒁	-12.7083
偪	-12.7083
道徳功力	-12.7083
隂貴子加亥丙日	-12.7083
摸	-12.7084
止忌軍事療病餘皆不忌	-12.7084
分攢㸃寅初三刻	-12.7084
堯舜禹湯	-12.7084
靁	-12.7084
天狼偏西	-12.7084
曇	-12.7084
齎	-12.7084
碩果不食	-12.7085
綦	-12.7085
宋史藝文志	-12.7085
春辰夏未秋戌冬丑	-12.7085
浹	-12.7085
罌	-12.7085
瓘	-12.7085
福善禍淫	-12.7085
宜安撫邊境	-12.7085
装	-12.7085
其進舎也	-12.7086
絺	-12.7086
忌月建月破平日收日	-12.7086
因財致禍	-12.7086
靳	-12.7086
經元之甲一經㑹之午七經運之	-12.7086
繼善篇云	-12.7086
犯甘氏外官三	-12.7086
炊	-12.7086
挺詐有内	-12.7087
蜾	-12.7087
吕氏春秋曰亂國之妖	-12.7087
縲	-12.7087
太極本無極	-12.7087
昏刻酉正一刻	-12.7087
道德功力	-12.7087
兜	-12.7087
妻重子晚	-12.7087
尙	-12.7087
揺	-12.7087
鞏	-12.7088
氂	-12.7088
燮	-12.7088
水位天下以水為	-12.7088
絛	-12.7088
内髙外下疾輕足發	-12.7088
内格外垂	-12.7088
挂	-12.7088
河圖曰太白之精散為	-12.7089
横吉内外自舉	-12.7089
癤	-12.7089
霑	-12.7089
焼	-12.7089
槃	-12.7089
濬	-12.7089
星變色而黄期	-12.7089
耒	-12.7089
犯土司空十五	-12.709
瑟	-12.709
摯	-12.709
兼三才而兩之	-12.709
擢髙科	-12.709
狴	-12.709
蔟	-12.709
仄	-12.709
蒔	-12.7091
矞	-12.7091
噲	-12.7091
姥	-12.7091
彀	-12.7091
鷁	-12.7091
横吉上柱外内自舉柱足以作	-12.7091
時申將占	-12.7092
分四更子正一刻十	-12.7092
太極是生兩儀兩儀生四象四象生八卦	-12.7092
筒	-12.7092
䇂	-12.7092
三春九夏	-12.7092
行南河戍中若留止	-12.7092
靈城精義	-12.7092
安帝隆安	-12.7093
俱比俱不比	-12.7093
扃	-12.7093
宄	-12.7094
娱	-12.7094
樽	-12.7094
扮	-12.7094
唐瞿曇悉達撰辰星占	-12.7094
賣盡田園	-12.7094
犯天苑十九	-12.7094
弹	-12.7094
汁	-12.7094
暐	-12.7094
溯	-12.7094
照臨十二宫命宫守照命宫	-12.7094
砥	-12.7095
陽明燥金	-12.7095
縳	-12.7096
縻	-12.7096
璜	-12.7097
癭	-12.7097
蝸	-12.7097
益後續世	-12.7097
棊	-12.7097
庚與乙合	-12.7097
嘍	-12.7097
帝王世紀曰	-12.7098
坂	-12.7098
源髓歌云	-12.7098
扞	-12.7098
藿	-12.7098
殁	-12.7098
龞	-12.7098
晉中興書曰	-12.7098
甜	-12.7099
合諸說觀	-12.7099
逅	-12.7099
欽天監時憲科博士	-12.7099
貂	-12.7099
髯	-12.71
檜	-12.71
宿止又換	-12.71
無聲無臭	-12.71
銕	-12.71
歸岱嶺	-12.71
煇夢契響	-12.71
客曜臨朝	-12.7101
為反臣中外兵以德令解之	-12.7101
絹為藉大將再拜祝曰	-12.7101
腴	-12.7101
欽定四庫全書天原發微卷	-12.7101
春秋繁露曰	-12.7101
擄	-12.7101
都指揮使司	-12.7102
飱	-12.7102
悽	-12.7102
革故鼎新	-12.7102
圈	-12.7102
之能事畢矣	-12.7103
劾	-12.7103
扉	-12.7103
駱	-12.7103
生人以為福星	-12.7103
紏	-12.7103
熨	-12.7103
冄	-12.7103
咮	-12.7103
橘	-12.7103
陽男陰女	-12.7103
慰	-12.7104
詡	-12.7105
進德修業	-12.7105
彞	-12.7105
誑	-12.7105
嗃	-12.7105
戴天履地	-12.7105
蠏	-12.7106
饋	-12.7107
朏	-12.7107
天寳厯曰	-12.7108
兩儀生四象	-12.7108
之次未央曰	-12.7108
退身避位	-12.7108
僥	-12.7108
篡	-12.7109
黽	-12.7109
旂	-12.7109
縵	-12.7109
仡	-12.711
拑	-12.7112
酢	-12.7112
斁	-12.7112
隋開皇	-12.7112
眵	-12.7113
也在地以謂之	-12.7113
聞盗來不來徙官	-12.7113
㐲	-12.7115
出地三十六度	-12.7115
涎	-12.7116
憧	-12.7116
老當益壯	-12.7117
椎	-12.7118
涖	-12.7118
更六甲生人陽刃	-12.7118
絜	-12.7118
嶮	-12.712
黄白雲氣入	-12.7123
如粉絮	-12.7123
鄖	-12.7125
餘命用並亦准前	-12.7125
凡觀是書須	-12.7125
顆	-12.7127
噣	-12.7127
沔	-12.7129
踖	-12.7129
竒門大全云	-12.713
䣛	-12.7132
元時禽起例	-12.7132
元時禽子	-12.7132
元日禽日月火水木金土	-12.7133
佷	-12.7134
狐假虎威	-12.7136
鐘之下宫	-12.7194
萬六千六百	-12.7385
分角宿一偏東	-12.7578
石氏曰黃白星	-12.8191
婺	-12.8249
央	-12.8562
六萬七千	-12.8598
丨凶丨凶丨大丨凶	-12.8609
下元一白坎六白乾八白艮九紫離	-12.8673
宕	-12.8685
坎六白乾八白艮九紫離中元一白	-12.8689
下元一白巽六白離八白坤九紫震蓋山	-12.8696
梏	-12.8702
二十四山並無尅冬至後尅乾亥兌丁	-12.8702
寧按月令註陳氏云	-12.8702
姝	-12.8703
覷	-12.8706
酥	-12.8707
開物成務冒道	-12.8709
李鼎祚	-12.871
球	-12.8711
袵	-12.8713
紫白上元一白乾六白坤八白巽九紫中	-12.8713
螾	-12.8714
下元一白離六白中八白兌九紫艮蓋山	-12.8714
雊	-12.8716
穡	-12.8717
山其澤藪曰	-12.8718
後天而奉天時	-12.872
洙	-12.872
􁜳	-12.872
女宿一偏西	-12.8721
德合赦願併猶忌	-12.8722
矰	-12.8722
堠	-12.8723
娟	-12.8723
盞	-12.8723
耍	-12.8724
東風解凍	-12.8725
壟	-12.8725
鞠	-12.8725
哮	-12.8726
疚	-12.8726
獺祭魚	-12.8726
河圖曰填星之精散為	-12.8728
㒺	-12.8728
虬	-12.873
剔	-12.873
頫	-12.873
程叔子曰	-12.873
又曰太白守左角為	-12.873
春夏為木秋冬為	-12.8731
宋張行成撰	-12.8731
覘	-12.8731
眦	-12.8732
醜甡甡	-12.8732
櫽	-12.8732
鶡	-12.8732
河出圖洛出書	-12.8732
俶	-12.8733
構	-12.8733
魍	-12.8734
出之禍除赤	-12.8734
甲十干支所納之音也	-12.8734
赥	-12.8734
永康元年十二月	-12.8735
訝	-12.8735
纛	-12.8735
汧	-12.8735
檻	-12.8735
江河淮濟	-12.8735
聒	-12.8735
萼	-12.8735
篁	-12.8736
匆	-12.8736
渺	-12.8736
迦	-12.8736
淨隂淨陽	-12.8736
赫連勃勃	-12.8736
䴡	-12.8736
莅	-12.8736
殯	-12.8736
涘	-12.8736
溉	-12.8736
壬寅辰星將出而不出其與日合	-12.8736
翫	-12.8736
瞀	-12.8736
乾道成男坤道成女	-12.8737
琬	-12.8737
性理大全	-12.8737
碌	-12.8737
王希明曰	-12.8737
千倉萬箱	-12.8737
憊	-12.8737
窩鉗乳突	-12.8738
禿	-12.8738
國不可舉事用兵必受其殃	-12.8739
齎貝贖狸不聽我辭繫於虎鬚牽不得來	-12.8739
溼	-12.8739
今儀象志無	-12.874
麒	-12.874
瞑	-12.874
隂注陽受	-12.874
分攢㸃寅正二刻	-12.874
否則如常例也	-12.874
黷	-12.874
二萬三千三百七十六	-12.874
目耳鼻口	-12.874
姨	-12.8741
槨	-12.8741
佀	-12.8741
愴	-12.8741
金克於木故	-12.8741
丼	-12.8741
通卦騐曰	-12.8741
分一更戌正初刻	-12.8742
宮初度日出卯	-12.8742
弘	-12.8742
時以初昏候之月見	-12.8742
公卿招賢舉正直施恩惠恤孤惸宣政事	-12.8742
炟	-12.8742
聶	-12.8742
赧	-12.8742
沭	-12.8742
外象外數	-12.8743
禮緯含文嘉曰	-12.8743
鄩	-12.8743
頒詔覃恩肆赦施恩封拜	-12.8743
鋸	-12.8743
眂	-12.8743
行狠了戾孤辰	-12.8743
陀	-12.8744
易象圖説	-12.8744
昏刻酉正三刻	-12.8744
卻	-12.8745
將以順性命之理	-12.8745
頗宜時帶偏官	-12.8745
餐	-12.8745
篾	-12.8745
雑	-12.8745
轝	-12.8745
日壬申劔鋒金義	-12.8745
日己卯城頭土伐	-12.8745
玉宇金堂	-12.8745
凄	-12.8745
椒	-12.8745
樣	-12.8745
裨	-12.8745
以畨禽為	-12.8746
山正運屬	-12.8746
修置産室	-12.8746
嚢	-12.8746
粤	-12.8746
灞	-12.8746
閡	-12.8746
漦	-12.8746
慶賜賞賀	-12.8747
白赤黒色三物厭日之光白色之星有兩	-12.8747
日壬申劒鋒金義	-12.8747
流血滂沱	-12.8747
瘍	-12.8747
𦕈	-12.8747
廸	-12.8747
昭太后崩	-12.8748
日己夘城頭土伐	-12.8748
閠	-12.8748
天尊地卑乾坤定矣	-12.8748
袂	-12.8748
奭	-12.8748
躔宿俱出玉關經玉關歌	-12.8748
乙戊己辛壬	-12.8748
五嵗再閏	-12.8748
躔虚宿號天	-12.8748
寗	-12.8748
轎	-12.8748
鏤	-12.8748
术	-12.8748
纉	-12.8749
爆	-12.8749
藐	-12.8749
㬥	-12.8749
寖	-12.8749
河圖曰辰星之精散為	-12.8749
售	-12.8749
犯甘氏中官二	-12.8749
齊伯五星占曰嵗星出入留舍	-12.8749
人倫大統賦	-12.8749
☷	-12.8749
官愛多合	-12.8749
日辛夘松柏木制	-12.8749
栽植種蒔	-12.8749
不暇細具	-12.8749
豊	-12.875
開休生三門	-12.875
君臣失禮而輔臣有誅者若免罷去	-12.875
洹	-12.875
洿	-12.875
土符土府地囊	-12.875
隂貴丑加亥乙日	-12.875
珊	-12.8751
阡	-12.8751
澇	-12.8751
宫則大神臨	-12.8751
攪	-12.8751
内髙外下	-12.8751
中伺其出日而數之	-12.8752
喃	-12.8752
憶	-12.8752
三嵗一閏	-12.8752
四十五度五物各九	-12.8752
年登故宜獲福	-12.8752
瑤	-12.8752
飫	-12.8752
刻二分晝四十	-12.8752
犯平星三石氏曰	-12.8752
七宿之域有謀反若	-12.8752
汰	-12.8752
羂	-12.8753
詠	-12.8753
欽定四庫全書太清神鑑卷	-12.8753
蠒	-12.8753
閽	-12.8753
非貧即夭	-12.8753
室繕城郭築隄防興造動土豎柱上梁	-12.8753
修築園圃	-12.8753
刎	-12.8753
初爻納甲也其明堂之	-12.8753
加陽建破為	-12.8753
天赦天願月恩四相時徳王日	-12.8753
榴	-12.8753
當憂不憂頼五行之救助	-12.8753
挺詐有外	-12.8753
帝座偏西二度	-12.8753
雖生支而却	-12.8753
藺	-12.8753
橈	-12.8753
鶻	-12.8753
生人以為禄主星甲生人以為	-12.8753
挺詐内外自舉	-12.8754
上冊受封	-12.8754
挺詐内外自垂	-12.8754
立人之道曰仁與義	-12.8754
絣	-12.8754
脁	-12.8754
琮	-12.8754
藕	-12.8754
甲乙丙丁戊己庚辛壬癸	-12.8754
?	-12.8754
髙足直諸事利益頭	-12.8754
界之此一際也	-12.8754
攢㸃寅初初刻	-12.8755
欽定四庫全書御定星厯考原卷	-12.8755
囉	-12.8755
晁公武讀書志	-12.8755
諸述譔之所經説亦十二開别	-12.8755
王充論衡	-12.8755
☲	-12.8755
☵	-12.8755
用者三不用者一	-12.8755
鯁	-12.8755
咳	-12.8756
内自舉外來正足發	-12.8756
荔	-12.8756
寝	-12.8756
十七萬七千一百四十七	-12.8756
惆	-12.8756
蛡	-12.8756
禍敗發於元亡	-12.8756
☱	-12.8756
筦	-12.8756
經辰之酉二千二百	-12.8757
塡星將出而不出其與日合	-12.8757
正月在辰逆行四季	-12.8757
春夏為金秋冬為	-12.8757
雲行雨施	-12.8757
鬼谷遺文云	-12.8757
倨	-12.8757
足禄多財	-12.8757
溥	-12.8757
惓	-12.8757
上長下短	-12.8757
發伺始入處之率一日	-12.8757
忖	-12.8758
戴九履一左三右七二四為肩六八為足	-12.8758
者月神隨月建	-12.8758
惷	-12.8758
曺	-12.8758
睂	-12.8759
寅午戌馬居申	-12.8759
期三年中五年逺七年	-12.8759
珎	-12.8759
奉㫖依議欽	-12.8759
本類星末類彗	-12.8759
稗	-12.876
昜	-12.876
牧羊稻園聞虎	-12.876
珮	-12.876
涓	-12.876
一生二二生三三生萬物	-12.876
瓢	-12.8761
倔	-12.8761
泠	-12.8761
上宋邵雍撰觀物篇	-12.8761
乾坤寳典曰	-12.8761
蕕	-12.8761
隍	-12.8762
窓	-12.8762
親姻哭送	-12.8762
始勤終怠	-12.8762
百千萬億	-12.8762
四千六百六十五萬六千	-12.8762
角兵吏有	-12.8762
晰	-12.8763
蹟	-12.8763
瞞	-12.8763
合誠圗曰	-12.8764
先㐫後吉	-12.8765
趨吉避凶	-12.8765
八十二度八分度之五	-12.8765
占山占向	-12.8765
昌邑王賀	-12.8765
􁐍	-12.8765
俎	-12.8766
敗秦軍于	-12.8766
璃	-12.8766
寮	-12.8766
(●●●●/●●●●)	-12.8766
韞	-12.8767
膳	-12.8767
泌	-12.8767
玊	-12.8767
易有太極是生兩儀	-12.8767
四以減二十九餘二十五也	-12.8767
􁏹	-12.8767
洧	-12.8768
菲	-12.8768
墊	-12.8768
捽	-12.8768
迪	-12.8769
儕	-12.8769
䭾	-12.8769
星犯石氏中官	-12.8769
孱	-12.877
啖	-12.877
巽五坎六艮七坤八	-12.877
湫	-12.877
賚	-12.877
窑	-12.8771
詮	-12.8771
馬劣財微	-12.8771
挍	-12.8771
有逆謀天子	-12.8772
抜	-12.8772
題鴈塔	-12.8772
春夏為火秋冬為水	-12.8772
鱻	-12.8772
𬎼	-12.8773
枵	-12.8773
刈	-12.8773
壙	-12.8774
袋	-12.8774
仙人過橋	-12.8774
笞	-12.8774
鏘	-12.8774
仙人上馬	-12.8775
論語䜟曰	-12.8776
有不然者是之謂抝斯為動矣	-12.8776
演禽通纂	-12.8776
諜	-12.8776
祺	-12.8776
簟	-12.8777
籬	-12.8777
鄫	-12.8777
水一火二木三金四土五	-12.8777
飴	-12.8777
上一蔀首為	-12.8777
頭起身重足發如仰月	-12.8777
蓼	-12.8778
羶	-12.8778
廂	-12.8778
鉅	-12.8778
佃	-12.8779
巓	-12.8779
爼	-12.878
鍬	-12.878
小盈大虧恐是刼財之地	-12.8781
雨霽蒙驛克	-12.8781
青赤時為父子	-12.8782
州周官曰	-12.8784
𣪚	-12.8784
牛生人一首	-12.8784
荼	-12.8784
皃	-12.8784
鄗	-12.8784
譶	-12.8786
鉏	-12.8787
揔	-12.8788
愠	-12.8789
彤	-12.8791
木不南奔	-12.8791
加艮則艮臨	-12.8791
噴	-12.8791
服又其外方五百里曰	-12.8792
櫟	-12.8793
侟	-12.8797
踤	-12.8798
綺	-12.8798
犬羣嘷	-12.8801
上門亂首	-12.8803
宜歸運元	-12.8804
自子順行極	-12.8806
乞伏乾歸	-12.8808
忝	-12.881
撝	-12.881
􁡍	-12.8818
㦯	-12.8824
鶤	-12.8827
悔吝生乎動者也	-12.8844
􁛜	-12.8844
旬隂在丁	-12.8948
萬七千三百	-12.8949
寸七分今厯景長	-12.9039
乙亥丙子丁丑戊寅己卯庚辰辛巳壬午	-12.9516
犯積卒五石氏曰	-13.0257
劫煞災煞月煞月刑月厭大時天吏	-13.0395
炵	-13.0583
更詳日干於所生月内有	-13.0628
利有攸徃	-13.063
下元一白艮六白巽八白乾九紫兌蓋山	-13.064
震六白艮八白坎九紫坤	-13.0646
䦕山立向修方	-13.0661
日雨立止不止	-13.0669
曄	-13.068
嚨	-13.07
傕	-13.0701
河圖曰熒惑之精流為	-13.0701
行纒鞋袴	-13.0701
軾	-13.0703
仮	-13.0703
穴宜挨左加	-13.0704
下元一白坤六白兌八白離九紫坎蓋山	-13.0708
循喉嚨	-13.0709
瓏	-13.0712
飪	-13.0712
鵞	-13.0713
扸	-13.0713
玲	-13.0714
宋蔡沈撰	-13.0715
笋	-13.0715
雖在朝廷常有	-13.0715
歘	-13.0716
水澤腹堅	-13.0716
星殿局朝元	-13.0716
佯	-13.0717
匕	-13.0717
事類總集	-13.0717
氏欲為天子雌雄圖曰	-13.0718
琯	-13.072
潄	-13.072
訽	-13.0721
於是日月迺次於	-13.0722
顋	-13.0723
何㦸解解	-13.0723
老曰河圖將來告帝	-13.0723
唇紅齒白	-13.0724
哂	-13.0724
一白坎六白乾八白艮九紫離下元一白	-13.0724
摎	-13.0725
隂中有陽陽中有隂	-13.0725
􁌫	-13.0725
笑裏藏刀	-13.0726
倀	-13.0726
絲繭不收	-13.0726
利公不利私	-13.0726
覲	-13.0727
疝	-13.0727
檀道鸞晉陽秋曰孝武	-13.0727
荆梁豫人	-13.0727
倩	-13.0727
兄友弟恭	-13.0728
𬒳	-13.0728
下元一白中六白坎八白震九紫巽蓋山	-13.0728
氏欲為天子孝經雌雄圖曰	-13.0728
經絡醞釀開市立劵交易納財	-13.0729
儗	-13.0729
嘲	-13.0729
揀	-13.0729
申二己酉三庚戌四辛亥五壬子六癸丑	-13.073
苔	-13.0731
一六二七三八四九	-13.0732
子才略美好求我長女賤薄不與反得醜	-13.0732
神迎鬼避	-13.0733
櫴	-13.0733
磤	-13.0733
禆	-13.0733
行客三舍名曰	-13.0733
麈	-13.0733
苴	-13.0733
早旱晚水	-13.0734
褥	-13.0734
茸	-13.0734
𤣥冥曰客星出	-13.0734
嶂	-13.0735
罅	-13.0735
以甲丙戊庚壬五陽干係之以五	-13.0735
籟	-13.0735
五十日其未出五日必有灾雲	-13.0735
腐草為螢	-13.0735
怏	-13.0735
磕	-13.0735
納音火徵火得	-13.0735
起工架馬	-13.0736
捴	-13.0736
日風從陽宫來	-13.0736
四十日其未出四日必有灾雲	-13.0736
敜	-13.0736
熿	-13.0736
黒色之星有兩黒方在其旁出而生天	-13.0736
赤縷貫睛	-13.0736
正日景以求地中	-13.0737
瓉	-13.0737
衎	-13.0737
濞	-13.0737
孃	-13.0737
弈	-13.0737
殍	-13.0737
赤道二出黄道南白道二出黄道西	-13.0737
戻	-13.0738
􁞳	-13.0738
臏	-13.0738
沐浴整容剃頭整手足甲求醫療病	-13.0739
犯四輔一荆州占曰	-13.0739
日乙卯大溪水專	-13.0739
隂貴巳加亥癸日	-13.0739
淶	-13.0739
貊	-13.0739
黻	-13.0739
蜴	-13.0739
旉	-13.0739
氾	-13.0739
又曰鷄不卵而生子	-13.0739
出東掖門為相受命東南出	-13.074
猶披尠福	-13.074
丙年在辛丁年在	-13.074
噂	-13.074
白方在其旁出而生	-13.074
颺	-13.074
月二十六二十七二十八	-13.074
犯鼈星十	-13.074
貟	-13.074
開渠穿井安碓磑補垣塞穴修飾垣墻	-13.0741
去其上下不可以為兆可開	-13.0741
慽	-13.0741
藹	-13.0741
下宋邵雍撰觀物篇	-13.0741
豋	-13.0741
鴽	-13.0741
壬戌二癸亥三經辰之	-13.0741
日丁卯鑪中火義	-13.0742
經受病可治	-13.0742
据	-13.0742
鍜	-13.0743
殮	-13.0743
燬	-13.0743
北辰紫宫衣冠立中含	-13.0743
不仁不義庚辛與甲乙交差	-13.0743
徨	-13.0743
縂	-13.0743
選將訓兵	-13.0743
黧	-13.0744
二百字真經	-13.0744
煆	-13.0744
否則抝鄉其抝處	-13.0744
殉	-13.0744
草蛇灰線	-13.0744
一曰水二曰火三曰木四曰金五曰土	-13.0744
怪九身無頭魂驚魄去不可以居	-13.0744
旱一曰大水道不通貴人死以入日占國	-13.0745
當其囚也而有王色	-13.0745
溽	-13.0745
伯氏客宿	-13.0745
旱多火災萬物五穀不成	-13.0745
司馬遷班固竝以	-13.0745
筍	-13.0745
乙卯丙辰丁巳戊午己未庚申辛酉	-13.0745
嵓	-13.0745
士農工商	-13.0746
繘	-13.0746
㛰	-13.0746
窕	-13.0746
一百八十二度半强	-13.0746
盱	-13.0746
伋	-13.0746
入積卒若守之兵大起士卒大行若多死	-13.0746
近期一年逺期三年	-13.0746
阯	-13.0746
刻一週天又二變	-13.0746
瑾	-13.0746
螟蟲為賊害我	-13.0746
筌	-13.0746
羊禽獸多疾疫若守之二十日	-13.0746
日壬寅金箔金寳	-13.0746
日壬寅金箔金寶	-13.0746
䌓	-13.0747
蜩	-13.0747
膀	-13.0747
􁟧	-13.0747
受虧主病故也	-13.0747
日丙戌屋上土寶	-13.0747
日乙夘大溪水專	-13.0747
罡塞鬼户	-13.0747
顰	-13.0747
丁未戊申己酉庚戌辛亥壬子癸丑甲寅	-13.0747
其國以土起兵若有土功之事天下旱	-13.0747
行惠愛雪寃枉緩刑獄入學沐浴	-13.0747
驩	-13.0747
日丁丑澗下水寶	-13.0747
時尅應蓬值	-13.0748
☰	-13.0748
臣在内天下有兵而倉庫之户	-13.0748
髙宗日傍氣圖曰日暈	-13.0748
􁁃	-13.0748
理於賢人亂於不肖成於妙用敗於不能	-13.0748
矚	-13.0749
一呼一吸	-13.0749
篋	-13.0749
跼	-13.0749
𥙿	-13.0749
天有三辰地有四行	-13.0749
禍起蕭墻	-13.0749
孝靈光和	-13.0749
春桃生花季女宜家受福	-13.0749
臨昴胃之鄉人元有害	-13.0749
木運忌用金年月日時	-13.0749
祫	-13.0749
懝	-13.0749
火運忌用水年月日時	-13.0749
椹	-13.0749
晉安帝元興	-13.0749
天數中於五地數中於六	-13.075
鷺	-13.075
霈	-13.075
侶	-13.075
度日出卯初一刻	-13.075
鬻	-13.075
偎	-13.075
元張理撰	-13.075
天刑朱雀白虎天牢元武勾陳	-13.075
嫂	-13.075
宿一偏東四度十	-13.075
值月刑從月刑論	-13.075
土運忌用木年月日時	-13.075
易象圖說外篇卷	-13.075
水運忌用土年月日時	-13.075
讕	-13.075
金運忌用火年月日時	-13.075
○○○○○○)	-13.075
誹	-13.075
破平日收日閉日劫煞災煞月煞月刑月	-13.075
夥	-13.075
名士有憂王者任用小人忠臣被害有死	-13.075
狷	-13.0751
熒惑入東井太白隨之	-13.0751
河圖曰嵗星之精流為	-13.0751
浼	-13.0751
㩣	-13.0751
有物混成先天地生	-13.0751
縠	-13.0751
碑	-13.0751
是知五行通道	-13.0751
四耗四廢四忌四窮	-13.0752
懇	-13.0752
隂貴亥加亥丁日	-13.0752
沫	-13.0752
立天之道曰隂與陽立地之道曰柔與剛	-13.0752
倜	-13.0752
締	-13.0752
卞	-13.0752
司命司中司	-13.0752
沍	-13.0752
摽	-13.0752
春酉夏子秋卯冬午	-13.0752
星犯敗臼十二	-13.0753
餗	-13.0753
娉	-13.0753
薰	-13.0753
䷋	-13.0753
軄	-13.0753
破屋壊垣	-13.0754
羖	-13.0754
周子曰陽變隂合而生水火木金土	-13.0754
摠	-13.0754
五萬一千八百四十	-13.0754
婬	-13.0754
癃	-13.0754
𤾉	-13.0754
度日出夘初二刻	-13.0754
酗	-13.0754
頭見足發内外相應	-13.0754
萎	-13.0754
髦	-13.0755
雷風相薄水火不相射八卦相錯	-13.0755
赤雲氣如波揚入	-13.0755
拈	-13.0755
玉皇鑾駕	-13.0755
諑	-13.0755
善惡相伴摇動遷移	-13.0755
封域則在於	-13.0755
穴挨西獸	-13.0755
鯽	-13.0755
在定海縣東	-13.0755
一生二二生三	-13.0756
檀道鸞晉陽	-13.0756
閶	-13.0756
躔宿俱出玉闗經玉闗歌	-13.0756
京氏妖占曰月	-13.0756
一陰一陽之謂道	-13.0756
厝	-13.0756
産遺季紵衣	-13.0756
撿	-13.0756
李巡曰言萬物	-13.0756
黄色之星有兩黄方在其旁出而生天	-13.0757
塔	-13.0757
毆	-13.0757
六分七釐五毫	-13.0757
圖經緯上中下	-13.0757
蠓	-13.0757
物不成魚鹽貴一曰以水為敗糴大貴	-13.0758
宋文帝元嘉	-13.0758
含神霧曰	-13.0759
王者發之不出七十日	-13.0759
寅之日候五車	-13.0759
昆侖旁薄	-13.0759
嚌	-13.0759
犯騎官四甘氏曰	-13.0759
害津關不通一曰大水入城郭	-13.0759
沬	-13.076
日忌為凶事利為吉事	-13.076
磚	-13.076
義不勝情以欲自	-13.076
詿	-13.076
星其宿有六星位居	-13.076
二七為火三八為木四九為金五十為土	-13.076
嘿	-13.0761
幄	-13.0761
陘	-13.0761
莊親王等	-13.0761
中道天下太平出陽道旱	-13.0761
蛁	-13.0761
男迎女送	-13.0761
霣	-13.0761
值丑時作用時	-13.0761
生夕死名曰嬰鬼不可得祀	-13.0761
承前或譯為	-13.0761
有風燭之患	-13.0761
移逺就近	-13.0761
下於空亡自乾南首	-13.0761
分一更戌正三刻	-13.0761
大風寒大貴小風寒小貴	-13.0761
忽來而迅速	-13.0761
犬生人之形而	-13.0761
列大夫有放逐者五官	-13.0761
行軒轅中犯女主女主失勢	-13.0762
二十六萬五千七百二	-13.0762
半覆地上半	-13.0762
躆	-13.0762
利貞誠之復	-13.0762
有福無難人一生	-13.0762
糾	-13.0762
帝座偏東二度	-13.0762
百足俱行相輔為强三聖翼事王室寵光	-13.0762
行者不行來者不來	-13.0762
貔	-13.0762
占除望拜	-13.0762
攫	-13.0762
河圖洛書相為經緯八卦九章相為表裏	-13.0762
敞	-13.0762
渫	-13.0763
棧	-13.0763
㳅	-13.0763
根在苗先實從花後	-13.0763
萬物皆備於我	-13.0763
䈥	-13.0763
凱	-13.0763
三牙鬚人	-13.0763
春戊寅夏甲午秋戊申冬甲子	-13.0763
欽定四庫全書三命通會卷	-13.0764
蠡海集曰	-13.0764
蹐	-13.0764
人有罪黜者	-13.0765
庒	-13.0765
觚	-13.0765
旃	-13.0765
䟎	-13.0765
懌	-13.0765
普䕶福生聖心	-13.0765
午未申酉戌亥子丑寅夘辰	-13.0765
憩	-13.0765
濆	-13.0765
甲子入第三紀	-13.0765
算外章嵗十九章閏七	-13.0765
闚	-13.0766
𤣥冥曰彗星出	-13.0766
箭發離弓	-13.0766
蝮	-13.0766
守墳墓為人主有哭泣	-13.0766
皬	-13.0766
縉	-13.0767
旒	-13.0767
緝	-13.0767
踊	-13.0767
䷫	-13.0767
啗	-13.0767
太清神鑑	-13.0767
兩儀生四象四象生八卦八卦	-13.0767
如遇徳猶忌之日則仍註忌	-13.0768
五日四分日之一	-13.0768
每見貴人食禄無非	-13.0768
縶	-13.0768
畺	-13.0768
甲子入第一紀	-13.0768
行不行來不來見人不見	-13.0768
赶	-13.0769
萹	-13.0769
隷	-13.0769
宿一偏西五度三十	-13.0769
不得行不行來不來擊盗	-13.0769
梢	-13.0769
蒯	-13.0769
獰	-13.077
明程道生撰	-13.077
紡	-13.077
毉	-13.077
龠	-13.077
辰是為孫矣	-13.077
崧	-13.0771
巂	-13.0771
然難盡拘一	-13.0771
唁	-13.0771
中秘宻經	-13.0772
人疲馬劣	-13.0772
圵	-13.0772
甹	-13.0772
有命將征伐之事一曰大赦可以解其患	-13.0772
緘	-13.0773
入東門出西門大國破亡若順入西	-13.0773
若乃身旺鬼絶雖破命而長年	-13.0773
御史大臣有死者若入端門守	-13.0773
赦過宥罪	-13.0773
崗	-13.0773
釗	-13.0774
隟	-13.0774
鷕	-13.0774
妭	-13.0774
五氣順布四時行焉	-13.0775
濩	-13.0775
簧	-13.0775
貓	-13.0775
埜	-13.0775
𠻳	-13.0776
四煞五鬼六害七傷	-13.0776
赭	-13.0776
致役乎坤	-13.0776
仞	-13.0777
嬃	-13.0777
巟	-13.0777
嫚	-13.0777
噉	-13.0778
棹	-13.0778
朽木難雕	-13.0778
樛	-13.0779
很	-13.0779
如羊投虎口	-13.0779
王命興輔佐	-13.0781
帷簿不脩	-13.0781
臮	-13.0783
尫	-13.0783
摓	-13.0783
鬩	-13.0783
攄	-13.0785
菙	-13.0786
瀰	-13.0786
紗	-13.0787
息數視之以為	-13.0787
鞋	-13.0788
罩	-13.0788
焍	-13.0788
夸	-13.0789
泝	-13.0789
返吟拖戈	-13.0789
漕	-13.079
牌	-13.079
楓	-13.079
鉗	-13.0791
蛇頭開口	-13.0791
低頭竊視有所畏避行	-13.0791
圯	-13.0791
蘄	-13.0793
國曰凉元曰	-13.0793
褭	-13.0793
囤	-13.0793
雺	-13.0793
猗	-13.0794
䷗	-13.0794
鈕	-13.0795
方之宿色當	-13.0796
又隔八位而生	-13.0796
僞	-13.0796
犯南門二石氏曰	-13.0797
隰	-13.0798
灣	-13.08
垁	-13.08
砉	-13.0801
湍	-13.0802
􁁾	-13.0803
𠢐	-13.0803
忪	-13.0804
驫	-13.0804
􁁇	-13.0805
觥	-13.0805
妻灾課以夫年	-13.0805
歾	-13.0807
咿	-13.0812
闐	-13.0813
氓	-13.0817
白馬朱鬛	-13.0831
怫	-13.0833
求財物買臣妾馬牛請謁追亡人漁獵	-13.0838
星犯天江二十	-13.1123
身旺喜財身弱喜旺忌刼	-13.1212
上官赴任臨政親民結婚姻納采問名	-13.1639
己未庚申辛酉壬戌癸亥經世之	-13.2486
寅之精不周風至	-13.3124
丅平丅平丅平丅平	-13.3136
無三邜旱種	-13.3145
丅凶丅凶丅大丅凶丅凶	-13.3176
䪼	-13.3178
鵙	-13.3178
請謁追亡人漁獵不得	-13.3186
三字全謂之占盡	-13.3188
欋	-13.3189
秫	-13.319
援神契曰神靈孳液百寳為用則	-13.319
咆	-13.3192
恁	-13.3192
蟈	-13.3193
宋書符瑞志	-13.3194
於四立之前各旺一十八日	-13.3196
讌	-13.3201
嗚	-13.3203
靷	-13.3204
䏴	-13.3205
天之氣經于角軫其歳得	-13.3206
後周衞元嵩述唐蘇源明傳唐李江注	-13.3207
票	-13.321
帔	-13.3211
䆕	-13.3211
斲	-13.3212
鼦	-13.3212
出之則禍除赤氣入	-13.3213
飊	-13.3213
十九十不用餘九屬金金生水故曰水如	-13.3213
荳	-13.3214
隂不生獨陽不成	-13.3214
穄	-13.3215
田鼠化為鴽	-13.3215
從之伐者利有功	-13.3216
庀	-13.3217
夕多風日西則景朝多隂	-13.3217
淩	-13.3217
蚪	-13.3217
於調絃難希律吕	-13.3217
當自作一類㸔	-13.3217
一十不用餘一屬水水生木故曰木如	-13.3217
聞朝歡而旋泣	-13.3218
輕者疾重者夭	-13.3218
嫪	-13.3221
﨑	-13.3221
蠪	-13.3222
䋚	-13.3222
禋	-13.3224
朦影刻分	-13.3224
菊	-13.3224
牘	-13.3225
㝡	-13.3225
磐	-13.3225
色不明主人勝客明客勝主人巫咸	-13.3225
厭後枝幹自相配者為隂將	-13.3226
你	-13.3226
儆	-13.3226
凜	-13.3226
陳蕃大將軍竇武	-13.3226
澶	-13.3226
孝安永初三年	-13.3226
厭前枝幹自相配者為陽將	-13.3227
問病尋醫弔孝送喪	-13.3227
扎	-13.3228
䃸	-13.3228
之月下旬二十五日下價為本以建	-13.3228
則景短多暑日北則景長多寒日東則景	-13.3229
僂	-13.3229
僮妾獨宿長女未室利無所得	-13.3229
天地始肅禾乃登	-13.3229
䷓	-13.3229
潑	-13.3229
嶇	-13.3229
綪	-13.3229
霿	-13.3229
霚	-13.3229
壬寅二癸卯三甲辰四乙巳	-13.323
土圭之法測土深	-13.323
㹠	-13.3231
作建論不作德論	-13.3231
噓	-13.3231
之上生一竒一偶則為	-13.3231
磹	-13.3231
熸	-13.3232
㷔	-13.3232
躑	-13.3232
騋	-13.3232
欽定協紀辨方書	-13.3233
青道二出黄道東	-13.3233
凥	-13.3233
廚	-13.3233
日忌逺行歸家移徙	-13.3233
將星扶徳天乙加臨	-13.3233
歸焉所以聖人有言曰	-13.3233
讟	-13.3233
􁂫	-13.3233
貧鬼守門日破我盆	-13.3233
為財為馬以代其勞	-13.3233
守鼈星為有白衣之	-13.3234
褊	-13.3235
妥	-13.3235
鐃	-13.3235
入南斗天下受爵禄期六十日若九十日	-13.3235
坎納戊離納己	-13.3235
喨	-13.3235
崛	-13.3235
凰	-13.3235
癎	-13.3236
詈	-13.3236
臬	-13.3236
虚五虚一之說	-13.3236
忡	-13.3236
欽定四庫全書欽定恊紀辨方書卷	-13.3236
命西南出刑事也期以春夏	-13.3237
者正月起酉逆行四仲	-13.3237
以當一杪十二杪計	-13.3237
度日出卯初初刻	-13.3237
剛中有柔柔中有剛	-13.3237
蔴	-13.3237
洶	-13.3237
六十日其未出六日必有灾雲	-13.3237
交與奏事郎中張文彬等轉奏本日奉㫖	-13.3237
跛踦相隨日暮牛罷陵遲後旅失利亡雌	-13.3237
䒶	-13.3237
䷖	-13.3237
前一日四絶後	-13.3237
日癸卯金箔金寳	-13.3237
朔旦冬至夜半甲子時與日月五星俱起	-13.3237
無力助分輕重言之運喜忌同上	-13.3237
遁歌曰天上六乙合	-13.3237
醬	-13.3237
勾陳得位不虧小信以成仁	-13.3238
春卯夏午秋酉冬子	-13.3238
在五星皆從而聚于一舍其下之國可以	-13.3238
蓬瀛書曰子年在	-13.3238
入守羽林有兵起若	-13.3238
逆行變色成勾己天下大兵關梁不通	-13.3238
癖	-13.3239
曹震圭曰小耗者小損也乃	-13.3239
熒惑留逆犯守乘凌	-13.3239
七十日其未出七日必有灾雲	-13.3239
晒	-13.3239
崇釋則離宫修定歸道乃水府求𤣥	-13.3239
瀚	-13.3239
若平直洪潤動而旺相	-13.3239
萱	-13.324
四乙丑五丙寅六丁卯	-13.324
駈	-13.324
拭	-13.324
罃	-13.324
震中爻變為兌	-13.324
礫	-13.324
龍吟虎嘯風雨助其休祥	-13.324
雉入大水為蜃	-13.324
丙戌三丁亥四戊子五己丑六	-13.324
殪	-13.324
衆鳥所翔中有大	-13.324
近於庚支干相配為庚	-13.324
或指事以陳謀	-13.324
櫜	-13.324
守魚星之陽為大旱魚行人道	-13.3241
謀上一曰大臣有戮死者石氏曰	-13.3241
􁃰	-13.3241
日乙巳覆燈火寶	-13.3241
日辛亥釵釧金寶	-13.3241
命起一宫順行八宫不遊中五筭外	-13.3242
定磉扇架	-13.3242
帚	-13.3242
所留之舎其國	-13.3242
舜升大禹石夷之野徵詣	-13.3242
上所得之辰為時	-13.3242
搬	-13.3242
法書藏在蘭臺雖遭亂潰獨不遇	-13.3242
赤憂兵積尸成山	-13.3242
十九分三更子初初刻	-13.3242
可知之矣以星經	-13.3242
娯	-13.3242
日丁未天河水寶	-13.3242
日丙辰沙中土寶	-13.3242
日壬午楊柳木制	-13.3242
日己酉大驛土寶	-13.3242
日癸未楊柳木伐	-13.3242
日辛卯松柏木制	-13.3242
疒	-13.3242
隕石于宋五	-13.3242
􁃵	-13.3242
者月中善神也所直之日宜	-13.3242
司馬彪天文志曰光武建武十	-13.3242
直符前三六合位	-13.3242
横吉上柱内外自舉	-13.3242
酒旗天下大酺有酒肉財物賜若爵宗室	-13.3242
日入申正二刻八分夜五十八刻十四分	-13.3242
癸未甲申乙酉丙戌丁亥戊子	-13.3242
幘	-13.3243
如陽遁一局甲子	-13.3243
戰陣則宜背之	-13.3243
穪	-13.3243
義不相屬故與併猶忌	-13.3243
也化教勸率	-13.3243
吉方起手連及修之無害	-13.3243
罝	-13.3243
庚寅二辛卯三壬辰四癸巳	-13.3243
獲其王以其地為	-13.3243
隂也為陽所破也是	-13.3243
獷	-13.3244
宫中天子自出行誅期百八十日逺一年	-13.3244
曼	-13.3244
鐔	-13.3244
之支配當方之干隂陽自相配合為日以	-13.3244
歲後歲對歲前歲位	-13.3244
其年四方反叛内	-13.3244
第一星先至去極	-13.3244
君君臣臣父父子子	-13.3244
淮南萬畢術曰	-13.3244
入天庭色白潤澤為期百八十日有赦	-13.3244
瘴	-13.3244
當其死也而有王色	-13.3244
入犯上台司命近臣有	-13.3244
子丑寅夘辰巳午未申酉戌亥	-13.3244
用無定體惟化是體	-13.3244
當其王也而有相色	-13.3244
臣弑其君子弑其父	-13.3244
讀書敏求記	-13.3244
鍳	-13.3244
黥	-13.3244
屩	-13.3244
日甲午砂石金寶	-13.3244
琳	-13.3245
平星執政臣憂若有罪誅者期一年	-13.3245
無輔皆貧薄之人	-13.3245
入天囷天下兵起囷倉儲積之物	-13.3245
尸流血不可當也期百八十日若一年	-13.3245
日庚子壁上土寶	-13.3245
歲對歲前歲位歲後	-13.3245
蓏	-13.3246
之時以平明候之月見	-13.3246
天之所予福禄常在不憂危殆	-13.3246
天氣上騰地氣下降	-13.3246
日一千三百四十分日之	-13.3246
該館詳核訂正	-13.3246
二更亥初初刻十	-13.3246
修飾垣墻平治道塗破屋壞垣伐木	-13.3246
悝	-13.3246
順抱擊者勝	-13.3246
􁌏	-13.3246
天下兵起馬多死其國憂	-13.3246
遼耶律純撰	-13.3246
惇	-13.3247
形有餘而神不足	-13.3247
嘹	-13.3247
命起武徳順行十六神	-13.3247
遫	-13.3247
熯	-13.3247
前六限為長後六限為消	-13.3247
勻	-13.3247
守天紀幸臣執權有兵起王者有憂	-13.3247
崆	-13.3247
椀	-13.3247
淲	-13.3247
牧野甲子平旦天下	-13.3247
艮中爻變為巽	-13.3247
蛆	-13.3247
訊	-13.3247
企	-13.3247
初刻十三分晝	-13.3247
土潤溽暑大雨時行	-13.3247
在吾右身安吉不危殆	-13.3247
天光下臨地徳上載	-13.3247
橑	-13.3247
為傍風皆以甲配之者	-13.3247
配合相迎利之四	-13.3247
而五與之俱其數十有	-13.3247
鵩	-13.3247
犯守積水其國有水災	-13.3248
蘭蕙出蓬蒿	-13.3248
其為常也立仁立義其為事也或見或聞	-13.3248
初一刻六分晝五十三刻三分	-13.3248
官日守日相日	-13.3248
日入酉正二刻九分夜四十二刻十二分	-13.3248
月隂陽二建合於	-13.3248
正初刻晝四十八刻	-13.3248
歲位歲後歲對歲前	-13.3248
狥	-13.3248
隱隱隆隆	-13.3248
汴	-13.3248
槌	-13.3249
緡	-13.3249
淖	-13.3249
當其休也而有王色	-13.3249
萑	-13.3249
入奎有偽令來者若出奎有偽令出使者	-13.3249
崒	-13.3249
莠	-13.3249
欨	-13.3249
歲前歲位歲後歲對	-13.3249
聞喜不喜是六甲之虧盈	-13.3249
晩	-13.3249
丙為勃兮庚為格格則不通勃亂逆	-13.3249
隂貴酉加亥戊日	-13.3249
恓	-13.325
犯乘鈎鈐大臣有	-13.325
翬	-13.325
下宋鮑雲龍撰明鮑寧辨正	-13.325
戊子二己丑三庚寅	-13.325
劉向鴻範傳曰	-13.325
息一氣以凝神消五行而通道	-13.325
甲年在己乙年在	-13.325
厰	-13.325
犯相星輔臣凶	-13.325
稂	-13.325
變段星寳瓶宫	-13.325
金殿玉階行	-13.325
☶	-13.325
吸王方氣噴	-13.325
蜣	-13.325
詩推度災曰	-13.3251
角宿一偏西四度	-13.3251
糗	-13.3251
一更酉正三刻	-13.3251
分用一進一退	-13.3251
十二㑹三百六十運四千三百二十世	-13.3251
盥	-13.3251
罸	-13.3251
舉照臨東海尨降庭堅為陶叔後	-13.3251
蟇	-13.3251
衆神集聚相與議語南國虐亂百姓	-13.3251
三十不用餘三屬木木生火故曰火如	-13.3251
日癸酉劔鋒金義	-13.3251
皇極經世觀物外篇衍義	-13.3251
醖	-13.3251
餁	-13.3251
入五諸侯伺其出日而數之	-13.3252
整容剃頭整手足甲求醫療病裁製營建	-13.3252
近期一年逺期五年	-13.3252
時日相衝憂傷妻子	-13.3253
梨	-13.3253
籙	-13.3253
㥷	-13.3253
人上門由賴	-13.3253
洪範天文星辰變占	-13.3253
入房三道為天子有子	-13.3253
嗄	-13.3253
當論度則論度	-13.3253
築隄防興造動土修倉庫修置	-13.3253
跂	-13.3253
㐜	-13.3253
旦刻寅初三刻	-13.3253
易象圖說内篇卷	-13.3253
陽主干隂主支	-13.3253
首俯足肣身節折	-13.3253
之有逆賊若火災	-13.3253
之次其應甲庚丙壬	-13.3253
剽	-13.3253
咠	-13.3253
李花再實鴻卵降集仁	-13.3253
積不善之家必有餘殃	-13.3253
運初至於衰鄉猶披	-13.3253
人君不安欲求賢佐有入中	-13.3253
戊申巳酉庚戌辛亥壬子癸丑甲寅乙卯	-13.3253
星犯參旗二十海中占曰	-13.3253
十二月陽建於丑而	-13.3253
期三年中期六年逺期九年而災至	-13.3253
諛	-13.3253
近於甲支干相配	-13.3253
灊	-13.3254
閥	-13.3254
鼷	-13.3254
姤遯否觀剥坤	-13.3254
六害之徒命有七傷之事	-13.3254
窪	-13.3254
晝不見日夜不見月	-13.3254
耘	-13.3254
觝	-13.3254
奥府衆利所聚可以饒有樂我君子	-13.3254
江河淮海天之	-13.3254
精休旺以為妙窮通變以為	-13.3254
三月戊辰四月己巳五月戊午八月己	-13.3254
九月戊戌十月己亥十一月戊子	-13.3254
太白逐日遊方	-13.3254
長大成就柔順利貞君臣	-13.3254
三月陽建於辰隂建於申	-13.3254
日癸夘金箔金寳	-13.3254
陽其國有喜居隂有憂	-13.3254
㽔	-13.3255
紘	-13.3255
懸象著明莫大乎日月	-13.3255
㢤	-13.3255
犯守騎官有兵起馬多發若多死	-13.3255
宋丁易東撰	-13.3255
䁲	-13.3255
亹	-13.3255
萬物之所成終而所成始也	-13.3255
陽二氣逆順折除	-13.3255
奪神功改天命	-13.3255
昔者聖人之作易也	-13.3255
清人髙子久屯外野逍遥不歸思我	-13.3255
髠	-13.3255
齮	-13.3255
八孤臨於五墓戌未東行	-13.3255
宂	-13.3255
巽朱雀坤太隂乾太	-13.3255
愀	-13.3255
杅	-13.3255
王日官日相日民日守日	-13.3255
纗	-13.3255
聆	-13.3255
防患憂禍不存	-13.3255
𩔖	-13.3255
本無吉日以王日代之	-13.3255
禰	-13.3256
行犯守軒轅女主失政若失	-13.3256
忌月建土府月破平日收日	-13.3256
弄巧成拙	-13.3257
太陽為日太隂為月少陽為星少隂為辰	-13.3257
畏懼悚息終無	-13.3257
彝	-13.3257
晴明物不成風從乾來	-13.3257
螭	-13.3257
㕓	-13.3257
國有謀兵四夷兵起來侵中國邊境有憂	-13.3257
磾	-13.3257
其餘辰則一辰當一得數	-13.3257
則止其本節所當之卦則取其宫數	-13.3257
晅	-13.3257
者自建辰向前數之春夏至	-13.3257
价	-13.3257
大事卜小事筮	-13.3257
庚禄在申辛禄在酉	-13.3257
柚	-13.3257
諦	-13.3257
歳位歳後歳對歳前	-13.3258
水流濕火就燥	-13.3258
嚇	-13.3258
帝座其色白者為有赦	-13.3258
入西華門出端門	-13.3258
跣	-13.3258
窈	-13.3258
抹	-13.3258
默	-13.3258
䷊	-13.3258
天四變含地四變	-13.3258
路多枳棘步刺我足不利旅客為心作毒	-13.3258
金雞鳴玉犬吠	-13.3258
☳	-13.3258
入畢中各伺其出日而數之	-13.3258
氣之位也又以干為	-13.3258
臨喜怒宫喜宫	-13.3258
懃	-13.3258
自子之坎一至	-13.3259
估	-13.3259
應雷而化者木之	-13.3259
日生忌火夜生忌土	-13.3259
逆行若留止衡中	-13.3259
撻	-13.3259
初傳已加子末傳卯加戌	-13.3259
秬	-13.326
今開元十二年甲子	-13.326
長陳蔡之患賴楚以安	-13.326
宗正左右羣臣多死若更政令人主有憂	-13.326
早霜晚雪傷害禾麥損功棄力	-13.326
絝	-13.326
䷠	-13.326
之至妙至妙者	-13.326
曲為之解而不能通	-13.326
淇	-13.326
當其相也而有王色	-13.326
隔位之干配隂建者為	-13.326
鷸	-13.326
建除滿平定執破危成收開閉	-13.326
産室開渠穿井安碓磑補垣	-13.326
錘	-13.326
九月陽建於戌隂建於寅	-13.326
五官亂宰相有憂	-13.326
㩀	-13.3261
杆	-13.3261
星總龜筭法置積日加	-13.3261
膎	-13.3261
鼉	-13.3261
主欺夫奪權	-13.3261
歳前歳位歳後歳對	-13.3261
䷁	-13.3261
一千八百六十六萬二千四	-13.3261
敕	-13.3261
白鳥銜餌鳴呼其子旋枝張翅來從其母	-13.3261
紱	-13.3261
低足飄諸事蹊蹺	-13.3261
噂噂所言莫如我垣	-13.3261
多言少實語無成事	-13.3261
守入土司空有土徭之事	-13.3261
敺	-13.3261
晝將乗朱雀尅宅	-13.3261
筴	-13.3261
聖人南面而聽天下	-13.3261
歳對歳前歳位歳後	-13.3262
應露而化者草之	-13.3262
狂横起於勾絞	-13.3262
鑛	-13.3262
文山紫芝雍梁朱草	-13.3262
東隣嫁女為王妃后莊公築館以尊	-13.3262
舟子濟脱無	-13.3262
厪	-13.3262
行不從天關不出其年有兵	-13.3262
望尚阿衡太宰周公藩	-13.3262
期三年中五年逺九年	-13.3262
䷀	-13.3262
子午九乙庚丑未八丙辛寅申七丁壬	-13.3262
應雨而化者走之	-13.3262
有八位而用止于	-13.3262
泪	-13.3263
煬	-13.3263
應風而化者飛之	-13.3263
臝	-13.3264
莩	-13.3264
方以類聚物以羣分	-13.3264
期二十日為兵發伺	-13.3264
陡	-13.3264
其煇夢契響皆依於	-13.3264
唐開元十二年甲子嵗積得	-13.3264
地夫一廛田百畝菜	-13.3264
戊以助甲成功	-13.3264
日月居中五星緯外	-13.3264
至今二百七十六萬一千	-13.3264
悋	-13.3264
人主憂王者戒慎左右期不出百八十日	-13.3264
營建宮室修宮室繕城郭	-13.3265
剛柔相呼二姓為家霜降既同惠我以仁	-13.3265
臣中外兵以德令解謂赦令也	-13.3265
氣合於丙戌為地網貴人不居故壬跨在	-13.3265
犯氐左星左中郎將誅死	-13.3265
酺	-13.3265
未起失利後市不得	-13.3265
歹	-13.3265
戚應聘齊秦	-13.3266
瓚	-13.3266
皥	-13.3266
以天月將加所用正時	-13.3267
矅	-13.3267
萬物者土也土之所居者四季也	-13.3267
聪	-13.3267
太白當效而出色	-13.3267
謔	-13.3267
孿	-13.3267
為計神始擊將在	-13.3267
有佞臣謀其君以口舌為害人主有憂	-13.3267
䷒	-13.3267
宿一偏西五度四十	-13.3267
年甲子入第六紀	-13.3267
為将星利用四金時吉元	-13.3267
甲娶乙妻隔八	-13.3267
丁遁得丙午為干支同體故即用	-13.3267
不用宫數與長星同	-13.3268
杻	-13.3268
因禍受福喜盈	-13.3268
懵	-13.3268
印綬逢華尊居翰苑	-13.3268
忱	-13.3268
枳	-13.3268
過時不歸雌雄苦悲徘徊外國與	-13.3268
䃧	-13.3268
䷪	-13.3268
上土微微布散作界連接	-13.3268
天坤位相對名曰天空貴人有獨無對故	-13.3268
江河淮海天之都市商人受福國家	-13.3268
澤為矢所射傷我	-13.3268
賈耽所集	-13.3268
𠫭	-13.3268
無合有合後學難知得一分三前賢不載	-13.3269
春夏旺秋冬衰泊巳曰	-13.3269
蠟	-13.3269
除之得度餘以六十乗之	-13.3269
王者不宜出宫下殿有謀匿於	-13.3269
笥	-13.3269
拊	-13.3269
拘制籠檻不得	-13.3269
大臣有誅若諸侯戮死期二年石氏曰	-13.3269
守營室為大人忌以赦令解之	-13.3269
度距西南星先至去極	-13.3269
欽定四庫全書焦氏易林卷	-13.3269
漢焦贛撰	-13.3269
感夜而變者體之	-13.3269
感晝而變者形之	-13.3269
得七以減二十九餘二十二也	-13.327
感寒而變者情之	-13.327
感暑而變者性之	-13.327
垜	-13.3271
廄	-13.3271
弜	-13.3271
大月從夫順數小月從婦逆	-13.3271
氣合於壬辰為天羅貴人不居故戊跨在	-13.3271
琦	-13.3271
鋻	-13.3271
蕚	-13.3272
穗	-13.3272
以為進退去合伏之日餘	-13.3272
䃔	-13.3272
三十五日為神在日其	-13.3272
年為氣絶鬼賊	-13.3272
歸稻池經涉	-13.3272
𤼵	-13.3273
宗星宗室之臣有分離者	-13.3273
蕃而留不去楚國凶殃	-13.3273
霓	-13.3273
魑	-13.3273
范望字叔明解賛	-13.3273
囏	-13.3273
逕	-13.3273
顛宀勹盈	-13.3273
􁄄	-13.3273
􁅨	-13.3273
錡	-13.3274
菓貴一曰魚鹽貴價十倍不出	-13.3274
如蛇在灰如鱔在塵	-13.3274
蔕	-13.3275
擯	-13.3275
餔	-13.3275
太柔為水太剛為火少柔為土少剛為石	-13.3275
殳	-13.3275
讁	-13.3275
誩	-13.3275
奩	-13.3276
顏	-13.3276
䑛	-13.3276
太陽少陽太剛少剛之用數	-13.3276
太隂少隂太柔少柔之用數	-13.3276
駑	-13.3276
㽞	-13.3276
日行十二分度之一	-13.3278
伯蹇叔盲	-13.3278
餘與瑋琳洞	-13.3278
媱	-13.3279
剛太柔少剛少柔	-13.3279
􁇨	-13.3279
去地可六丈大而赤	-13.3279
墩	-13.3279
至足分别論之如不與正形同是為抝動	-13.3279
進呈御覽	-13.3279
藳	-13.328
憫	-13.328
峕	-13.328
䷂	-13.328
身弱喜旺忌七煞傷官	-13.3282
畀	-13.3282
阱	-13.3282
胖	-13.3282
㕈	-13.3282
䷏	-13.3282
得行者行來者來擊盗	-13.3282
為臣詐稱詔	-13.3282
酒酸魚敗衆莫貪嗜	-13.3283
擣	-13.3283
弸	-13.3284
朶	-13.3285
一旬之内於年中而問干一	-13.3285
邴	-13.3285
故二十八宿半見半隠	-13.3285
廋	-13.3286
瑰	-13.3286
䇿以四約之歸扐得	-13.3286
屾	-13.3286
㗇	-13.3287
溧	-13.3287
㩴	-13.3289
瀏	-13.329
上宋鮑雲龍撰明鮑寧辨正	-13.329
岵	-13.329
叡	-13.3291
巟茾莫黙	-13.3292
钁	-13.3292
澡	-13.3293
銍	-13.3293
稿	-13.3293
𥙷	-13.3294
魒	-13.3294
龖	-13.3294
􁟎	-13.3294
琁	-13.3295
諏	-13.3296
􁆅	-13.3296
豨	-13.3296
五神相尅三生定命	-13.3296
扢	-13.3296
斑	-13.3297
押	-13.3297
怵惕惻隱於赤	-13.3297
鐏	-13.3297
鐶	-13.3298
過揲之數亦四	-13.33
趹	-13.3303
絪	-13.3303
埀	-13.3303
占其金木之内顯	-13.3304
之形非在其一有𢃄	-13.3305
盍	-13.3307
㤰	-13.3307
酇	-13.3308
麃	-13.3308
陕	-13.3309
迃	-13.331
五星氣合之變出	-13.3311
笛	-13.3312
狧	-13.3323
又就其中分為太	-13.3323
矦	-13.3326
元禽星㑹者稀日	-13.3327
在慈利縣西	-13.3335
肪	-13.335
鏩	-13.3354
以實而無愧於	-13.3366
日干於所生月内有力無力有	-13.3384
星犯北落十四石氏曰	-13.4139
丁巳戊午己未庚申辛酉壬戌癸亥	-13.5947
左事王公岳牧	-13.6485
蓁	-13.6498
狊	-13.65
磎	-13.6502
郭璞注山海經云	-13.6508
睪	-13.6514
六白震八白中九紫乾	-13.652
蚗	-13.6522
韮	-13.6523
寧按月令註馬氏云	-13.6524
十一分七釐五毫則夏至之晷	-13.6525
五行質具於地而氣行於天	-13.6529
受氣臨官晚年不佳又曰	-13.6531
急急如𤣥女律令	-13.6531
日平梳兩髻在	-13.6531
関	-13.6537
乘之以正周度贏縮舉	-13.6537
係之天干之首為甲	-13.6538
不祥之器不得已而用之	-13.6541
埻	-13.6541
㜑	-13.6541
時可種禾豆夏至	-13.6541
裊	-13.6541
䪻	-13.6543
禽星㑹者稀日虚月	-13.6543
其非縱羣曜吉而莫能為福	-13.6543
稲	-13.6543
生子耳鼻在腹及背	-13.6543
衒	-13.6544
格也喜忌篇文義同如	-13.6545
俿	-13.6545
週而與日發於箕始	-13.6545
芡	-13.6545
豉	-13.6545
徊	-13.6546
峭	-13.6547
己酉二庚戌三辛亥四壬子	-13.6547
磉	-13.6547
變者化之漸化者變之成	-13.6547
嗅	-13.6547
惘	-13.6548
明黄道周撰貞圖經	-13.6548
蹢	-13.6548
渰	-13.6549
所蔽當日則光盈就日則光盡	-13.6549
日望月則月食月掩日則日食	-13.6549
春多膏澤夏潤優渥稼穡	-13.6549
之沴診諸水火	-13.6549
淺深得乗風水自成	-13.6549
蜥	-13.6549
木恃榮華故隂氣刑之	-13.655
葩	-13.655
立春木立夏火立秋金	-13.655
之地舜置十二牧則其	-13.655
也從仲夏以至夏之盡及四季	-13.655
月建入中宫順飛九宫遇本年	-13.655
[...]
