<unk>	0
<s>	0
</s>	0
/	-3.3723
)	-3.56012
(	-3.57978
之	-3.62102
也	-3.90842
而	-4.27853
以	-4.60733
者	-4.6175
則	-4.66115
其	-4.81747
不	-4.8476
為	-4.9759
故	-5.06616
)(	-5.1167
有	-5.14214
於	-5.23233
人	-5.371
無	-5.50437
謂	-5.61605
言	-5.6851
事	-5.71333
曰	-5.71657
一	-5.76264
爲	-5.77238
與	-5.81751
君	-5.84078
矣	-5.88129
必	-5.93221
此	-5.93988
民	-5.98318
行	-5.98564
令	-6.0074
能	-6.02085
國	-6.02642
所	-6.05309
臣	-6.06656
上	-6.06784
得	-6.09629
大	-6.10829
法	-6.19191
非	-6.19255
用	-6.2011
下	-6.20846
使	-6.21082
乃	-6.21995
知	-6.24639
子	-6.26717
道	-6.29606
生	-6.31737
見	-6.33573
主	-6.34046
可	-6.3451
夫	-6.35958
是	-6.371
時	-6.38104
中	-6.38186
至	-6.38498
王	-6.38544
自	-6.40031
皆	-6.40227
出	-6.41271
乎	-6.41594
官	-6.44313
因	-6.45674
利	-6.49081
明	-6.4917
故曰	-6.49336
三	-6.50334
若	-6.50879
當	-6.51161
▁	-6.51749
治	-6.54042
欲	-6.55476
公	-6.56735
重	-6.57036
相	-6.59399
而不	-6.61053
在	-6.61394
已	-6.63316
死	-6.6348
正	-6.63869
失	-6.64434
今	-6.6572
立	-6.66774
名	-6.67225
將	-6.71026
心	-6.71826
既	-6.72306
理	-6.72459
從	-6.72964
雖	-6.73768
亦	-6.74645
地	-6.76463
物	-6.76502
後	-6.7784
不能	-6.77855
五	-6.79454
吏	-6.801
焉	-6.81076
然	-6.81313
同	-6.81464
多	-6.81864
成	-6.8221
天下	-6.82385
又	-6.83806
二	-6.84399
兵	-6.86408
四	-6.86472
善	-6.86739
取	-6.87048
數	-6.8721
如	-6.8727
所以	-6.87354
士	-6.87357
亂	-6.87506
齊	-6.87656
不可	-6.87712
本	-6.92314
反	-6.92565
賞	-6.92595
衆	-6.92743
入	-6.94691
安	-6.95013
外	-6.96007
功	-6.96106
殺	-6.96375
舉	-6.97329
遂	-6.98445
分	-6.98771
内	-6.98911
刑	-6.98995
家	-6.99439
盡	-6.99885
政	-7.00858
先	-7.01195
德	-7.01581
旣	-7.02534
水	-7.02626
日	-7.02857
問	-7.03956
及	-7.04397
長	-7.04728
徳	-7.05655
守	-7.05792
天	-7.06106
身	-7.06372
常	-7.06556
服	-7.07398
按	-7.07437
惡	-7.08968
去	-7.10091
勝	-7.10309
食	-7.10553
作	-7.10679
力	-7.11134
輕	-7.11561
親	-7.12483
我	-7.12511
易	-7.13018
何	-7.13083
制	-7.13177
者也	-7.13345
賢	-7.14356
處	-7.15632
貴	-7.15845
教	-7.15951
小	-7.16598
智	-7.16626
以為	-7.16806
信	-7.17748
未	-7.17989
不得	-7.1812
姦	-7.18187
私	-7.1903
州	-7.1908
即	-7.19195
亡	-7.19359
猶	-7.19478
過	-7.19993
任	-7.2026
强	-7.20711
危	-7.21398
請	-7.21671
義	-7.22217
罪	-7.22306
禁	-7.22683
○	-7.22817
毋	-7.22889
十	-7.23184
止	-7.23384
戰	-7.23559
實	-7.24703
且	-7.25039
百	-7.25101
逺	-7.26117
聞	-7.27034
或	-7.28672
難	-7.2868
愛	-7.29371
來	-7.30404
謀	-7.30503
彼	-7.30992
財	-7.32459
威	-7.3327
桓公	-7.33357
凡	-7.3346
吾	-7.33718
馬	-7.3445
通	-7.34625
發	-7.34915
復	-7.35736
合	-7.36184
居	-7.36409
命	-7.36555
禮	-7.37429
文	-7.37516
害	-7.37709
變	-7.37855
足	-7.37885
固	-7.38429
周	-7.38631
意	-7.38917
諸侯	-7.39261
書	-7.39785
疑	-7.39969
可以	-7.4061
求	-7.4086
傷	-7.40948
之所	-7.41754
母	-7.42913
藏	-7.4549
動	-7.4606
稱	-7.46157
平	-7.46876
和	-7.4696
察	-7.47123
世	-7.47462
獨	-7.48579
云	-7.48866
耳	-7.49319
尊	-7.49928
髙	-7.50118
歸	-7.50221
定	-7.51439
修	-7.51673
于	-7.51989
卒	-7.52063
聽	-7.52072
敗	-7.52306
虚	-7.52462
六	-7.52561
辭	-7.54001
門	-7.54057
乘	-7.54417
方	-7.54749
伐	-7.54873
罰	-7.55815
說	-7.55966
縣	-7.56238
誅	-7.56301
厚	-7.56312
好	-7.57204
順	-7.57218
樂	-7.57279
績按	-7.57306
情	-7.58698
榖	-7.58838
始	-7.59039
盗	-7.59063
是以	-7.59511
執	-7.59752
神	-7.60301
疾	-7.60368
田	-7.60715
氣	-7.60991
山	-7.61419
致	-7.6155
鄉	-7.61976
進	-7.62005
前	-7.62096
其所	-7.6236
務	-7.62548
脩	-7.62778
權	-7.62977
秦	-7.6305
受	-7.63305
女	-7.63475
富	-7.64009
勢	-7.64278
斷	-7.64312
弱	-7.64819
不敢	-7.65375
近	-7.65438
甚	-7.65584
異	-7.65737
告	-7.66261
敵	-7.66656
金	-7.66717
盜	-7.67137
年	-7.67424
起	-7.67659
農	-7.68029
往	-7.68896
宜	-7.69138
陽	-7.69352
車	-7.69925
論	-7.69983
少	-7.70407
也故	-7.70492
度	-7.70749
視	-7.70977
具	-7.71259
管仲	-7.7154
敎	-7.71774
是故	-7.71916
傳	-7.72216
賤	-7.72848
備	-7.72854
軍	-7.73591
形	-7.74854
大夫	-7.75458
施	-7.75691
間	-7.76144
攻	-7.76653
里	-7.76738
爭	-7.77186
百姓	-7.77244
流	-7.78171
然後	-7.78299
陳	-7.78429
而無	-7.78647
患	-7.79409
師	-7.79467
適	-7.79755
計	-7.79792
哉	-7.80029
朝	-7.80146
應	-7.80342
九	-7.80563
節	-7.8168
畏	-7.81825
化	-7.82105
隂	-7.82963
怨	-7.83051
聖人	-7.83195
則民	-7.83332
各	-7.83467
美	-7.83598
觀	-7.83715
收	-7.83822
説	-7.84319
交	-7.84986
設	-7.84994
仁	-7.85101
䏻	-7.85258
所謂	-7.85514
召	-7.86201
置	-7.87006
眀	-7.87078
趙	-7.87248
獄	-7.87521
養	-7.87575
土	-7.87993
父	-7.88077
不知	-7.88302
賊	-7.88375
謂之	-7.88471
離	-7.88811
城	-7.89038
術	-7.89225
彊	-7.89345
國之	-7.89365
不足	-7.89495
諸	-7.89586
兩	-7.8998
終	-7.90056
語	-7.90471
左右	-7.90808
廢	-7.91264
辯	-7.91481
衣	-7.91633
屬	-7.91741
唯	-7.91851
議	-7.9223
粟	-7.92546
急	-7.9256
伏	-7.92791
楚	-7.92831
直	-7.93047
淫	-7.93254
塞	-7.934
存	-7.93549
位	-7.93868
魏	-7.94304
張	-7.94401
坐	-7.94642
工	-7.9545
絶	-7.95693
敬	-7.96087
禍	-7.96235
靜	-7.96595
乗	-7.96745
市	-7.9679
怒	-7.96816
審	-7.97029
加	-7.97072
七	-7.9762
将	-7.9763
誣	-7.97951
無所	-7.98319
君之	-7.98745
萬物	-7.9877
聴	-7.98852
忠	-7.98896
積	-7.99032
宋	-7.99306
果	-8.00364
客	-8.00592
邪	-8.01097
責	-8.01333
散	-8.01395
婦	-8.0146
有所	-8.01603
極	-8.01763
妻	-8.02634
寡	-8.0273
暴	-8.02733
對曰	-8.03166
更	-8.03393
韓	-8.03406
精	-8.03431
飾	-8.03694
體	-8.03715
器	-8.03756
爵	-8.03932
室	-8.04109
益	-8.04116
比	-8.04416
白	-8.04527
巳	-8.04555
武	-8.04676
汝	-8.05247
恐	-8.05423
餘	-8.05424
禄	-8.05672
府	-8.05702
勞	-8.05829
懼	-8.06004
也今	-8.0616
使人	-8.06358
莫	-8.06736
犯	-8.06797
木	-8.06804
舎	-8.06824
但	-8.06851
其事	-8.06998
别	-8.07186
人之	-8.07591
窮	-8.07647
太	-8.07798
勸	-8.08311
持	-8.0847
共	-8.08516
聲	-8.08527
(○	-8.08912
夏	-8.09225
君子	-8.09262
滿	-8.09436
貧	-8.09721
等	-8.10117
解	-8.10178
魯	-8.10429
己	-8.10684
字	-8.11052
夜	-8.11095
資	-8.11204
深	-8.11628
憂	-8.11665
春	-8.11779
口	-8.11847
遺	-8.11851
遇	-8.11854
八	-8.11954
者必	-8.12002
人主	-8.12301
於是	-8.12395
籍	-8.12535
貨	-8.12642
嵗	-8.12674
茍	-8.12678
操	-8.12707
圖	-8.12757
晉	-8.12984
然則	-8.13008
聖	-8.13397
苦	-8.13534
附	-8.13564
聚	-8.13569
之士	-8.13802
不以	-8.1385
南	-8.14253
之事	-8.14685
天子	-8.1507
也夫	-8.15109
石	-8.15291
冬	-8.15333
色	-8.15599
萬	-8.15618
老	-8.15775
牛	-8.1613
首	-8.16173
游	-8.16212
音	-8.1623
嚴	-8.16628
卑	-8.16638
布	-8.16933
之所以	-8.17006
邑	-8.17069
古	-8.17084
免	-8.17479
千	-8.17708
北	-8.17848
澤	-8.17912
囚	-8.17922
強	-8.17957
久	-8.18412
毁	-8.18833
糓	-8.18843
薄	-8.18869
釋	-8.19208
羣臣	-8.19344
而後	-8.19461
息	-8.19592
目	-8.1964
右	-8.19687
被	-8.1969
削	-8.19787
經	-8.2008
移	-8.20693
唐	-8.20727
徒	-8.20966
惠	-8.21263
决	-8.21298
詐	-8.21324
推	-8.21382
慮	-8.21569
火	-8.2159
后	-8.22393
狀	-8.224
引	-8.22533
退	-8.22577
争	-8.22645
病	-8.22721
元	-8.22733
待	-8.22782
東	-8.22959
一人	-8.23005
尚	-8.2308
索	-8.2335
之道	-8.23919
堅	-8.2448
辨	-8.24519
歳	-8.24543
俱	-8.24561
就	-8.24968
譽	-8.25272
列	-8.25445
原	-8.25498
李	-8.25859
代	-8.25981
錢	-8.26361
隨	-8.26457
喜	-8.26464
決	-8.26514
嘗	-8.26657
驗	-8.26686
知其	-8.26698
載	-8.26825
他	-8.27164
蔽	-8.27464
寃	-8.27515
閒	-8.27536
寡人	-8.2769
恃	-8.27719
人君	-8.28181
除	-8.28486
案	-8.28516
霸	-8.28544
賞罰	-8.29393
僧	-8.2945
逆	-8.29475
覆	-8.29518
歲	-8.29525
之人	-8.29603
奪	-8.30049
江	-8.30463
廣	-8.30596
滅	-8.30648
辟	-8.31169
為之	-8.31292
俗	-8.31299
氏	-8.31309
▁(	-8.31662
業	-8.31828
濟	-8.32014
勿	-8.32096
職	-8.32229
御	-8.32463
都	-8.32987
還	-8.33337
量	-8.33521
穀	-8.33549
報	-8.33555
便	-8.33589
管子對曰	-8.33685
冝	-8.33722
謹	-8.34075
良	-8.34097
侵	-8.34119
衛	-8.34539
全	-8.34588
荆	-8.34644
初	-8.34731
豈	-8.34742
如此	-8.35128
幣	-8.35222
商	-8.35521
興	-8.35657
專	-8.35697
兼	-8.35785
耕	-8.36042
留	-8.36723
巧	-8.36753
倍	-8.36777
賜	-8.36847
西	-8.37318
獲	-8.37436
材	-8.37682
訟	-8.37812
封	-8.37947
天地	-8.38288
愚	-8.38431
弟	-8.38575
天下之	-8.38662
由	-8.388
司	-8.39298
類	-8.39944
偽	-8.40048
習	-8.40071
曲	-8.40109
承	-8.40192
郷	-8.402
風	-8.40209
虛	-8.40216
此謂	-8.40311
要	-8.40551
走	-8.40563
鄭	-8.40569
著	-8.40735
某	-8.40939
捕	-8.40982
不為	-8.41049
假	-8.41352
不可以	-8.41486
對	-8.41558
足以	-8.41588
末	-8.42037
其身	-8.42055
誠	-8.4218
燕	-8.42253
救	-8.42347
奉	-8.42417
㑹	-8.42472
半	-8.42486
象	-8.42505
惑	-8.42511
負	-8.42517
不用	-8.42909
思	-8.43085
草	-8.43495
聼	-8.43591
帝	-8.43632
博	-8.43658
識	-8.43664
乆	-8.43673
勇	-8.43692
民之	-8.43719
殺之	-8.43862
月	-8.43919
敢	-8.44426
秋	-8.44803
破	-8.44812
開	-8.44836
欺	-8.44928
此之謂	-8.45263
大臣	-8.45703
擅	-8.45983
至於	-8.45998
寒	-8.46099
於君	-8.46204
輕重	-8.46655
郡	-8.47147
左	-8.4715
困	-8.47192
役	-8.47245
寶	-8.47269
刑罰	-8.4746
其民	-8.47784
桓公曰	-8.48244
者所以	-8.48376
鄰	-8.48487
期	-8.48748
之數	-8.49251
約	-8.49637
儀	-8.49672
愼	-8.49727
給	-8.50429
故能	-8.50451
公曰	-8.50872
孫	-8.51081
羣	-8.51162
父母	-8.51282
得其	-8.5168
孝	-8.51746
玉	-8.52067
參	-8.52102
質	-8.52136
用之	-8.5254
簡	-8.52681
學	-8.5275
卿	-8.52902
新	-8.53325
省	-8.53458
手	-8.53505
容	-8.54126
者不	-8.54398
驕	-8.54666
章	-8.54718
舊	-8.54726
志	-8.54794
其君	-8.54795
使民	-8.55241
舍	-8.55434
以其	-8.55735
静	-8.5597
慎	-8.56017
樹	-8.56084
衡	-8.56085
枉	-8.56098
越	-8.56356
願	-8.56751
黄	-8.57316
損	-8.57339
盖	-8.5735
惟	-8.5744
隱	-8.57441
端	-8.57526
故不	-8.57534
於上	-8.5769
顯	-8.58677
避	-8.58683
宻	-8.58715
耶	-8.58737
爵禄	-8.58785
妄	-8.59192
奚	-8.59661
酒	-8.60021
寳	-8.60056
壤	-8.60082
法令	-8.60283
二十	-8.60671
不行	-8.60825
侯	-8.60998
一曰	-8.61
悉	-8.61257
費	-8.61278
甲	-8.61299
不如	-8.6131
望	-8.61355
賦	-8.61357
並	-8.61533
與之	-8.61628
是也	-8.61787
失其	-8.61974
予	-8.62204
黨	-8.62316
宣	-8.62406
也故曰	-8.62591
結	-8.62885
蓋	-8.62939
考	-8.62951
委	-8.62966
不失	-8.63003
必有	-8.63117
古之	-8.63285
之道也	-8.63655
明主	-8.63694
鮑叔	-8.6411
逃	-8.64224
堯	-8.64259
榮	-8.64286
并	-8.64291
陵	-8.64292
宗	-8.64339
盛	-8.64355
叅	-8.64377
罷	-8.64382
均	-8.65773
徴	-8.6579
每	-8.65808
宫	-8.65809
射	-8.65824
貪	-8.65824
則是	-8.65967
海	-8.67002
斯	-8.6709
飲	-8.67147
指	-8.67246
追	-8.67263
徃	-8.6728
高	-8.67309
路	-8.67313
訴	-8.67711
幸	-8.67904
鍾	-8.67933
賢者	-8.68129
折	-8.68688
素	-8.68744
虞	-8.68746
社稷	-8.68805
夷吾	-8.68919
十二	-8.68931
以爲	-8.69394
其人	-8.69444
有功	-8.69595
上下	-8.69599
賈	-8.6966
人有	-8.697
託	-8.69719
號	-8.69887
爾	-8.69996
刀	-8.70198
向	-8.70249
振	-8.70271
寛	-8.70279
於人	-8.70508
緩	-8.70792
竭	-8.71822
凶	-8.71844
従	-8.71859
状	-8.71869
筴	-8.71869
懐	-8.71935
而民	-8.7208
曰吾	-8.72849
送	-8.7312
申	-8.73182
不當	-8.7326
㣲	-8.73357
鹽	-8.73363
調	-8.73372
連	-8.73416
紀	-8.73439
不見	-8.73595
婦人	-8.73652
則人	-8.73894
許	-8.74081
弗	-8.74397
宿	-8.74647
史	-8.74817
效	-8.74857
供	-8.74996
公子	-8.74999
之心	-8.75007
冨	-8.75011
戒	-8.75017
則無	-8.75109
而有	-8.75531
赦	-8.75799
妾	-8.76071
衰	-8.76289
如此者	-8.76477
莫不	-8.76613
而求	-8.7677
之國	-8.76987
之民	-8.77003
次	-8.77107
須	-8.77417
伯	-8.77832
清	-8.78204
不勝	-8.78248
切	-8.78259
虎	-8.78273
子之	-8.78371
雖有	-8.78641
使之	-8.79389
其國	-8.79422
之功	-8.79717
饑	-8.79826
杖	-8.79894
貌	-8.79909
𫝊	-8.79928
㳺	-8.79993
卷	-8.80031
人也	-8.80393
殆	-8.80404
飢	-8.80451
梁	-8.8148
臨	-8.81516
誤	-8.81548
微	-8.81556
稅	-8.81597
利也	-8.81604
先王	-8.81639
隠	-8.81646
授	-8.81967
如此則	-8.82056
生也	-8.82112
昔者	-8.82177
迹	-8.82483
有司	-8.8256
為人	-8.82635
戮	-8.82882
智者	-8.83004
校	-8.83171
刼	-8.83216
辱	-8.83264
野	-8.83278
胡	-8.83297
竊	-8.83317
第	-8.83505
棄	-8.8351
出於	-8.84205
牧	-8.84288
不服	-8.84486
記	-8.84754
篇	-8.84996
運	-8.85093
厲	-8.85171
違	-8.85182
仁義	-8.85395
行之	-8.86293
雨	-8.86436
一日	-8.86567
循	-8.86593
防	-8.86743
知之	-8.8683
湯	-8.86835
憲	-8.86864
據	-8.86865
税	-8.86923
注	-8.86936
者非	-8.86971
弊	-8.87003
人臣	-8.87403
無私	-8.87408
之時	-8.87609
不足以	-8.87904
於天下	-8.88058
仲	-8.88391
匿	-8.88471
遣	-8.88513
則國	-8.88527
侈	-8.88632
夀	-8.88636
伍	-8.88638
輔	-8.88644
扵	-8.88652
録	-8.88685
逐	-8.88704
斂	-8.8871
偷	-8.88717
放	-8.88732
之言	-8.88829
殺人	-8.89038
之罪	-8.89217
不善	-8.89253
者皆	-8.89419
於民	-8.89564
吳	-8.89732
太子	-8.89832
之情	-8.89897
畜	-8.90375
尉	-8.90419
豐	-8.9043
閉	-8.90462
昌	-8.90474
率	-8.9053
恱	-8.90541
龜	-8.90545
葢	-8.90568
来	-8.90586
讓	-8.90617
其罪	-8.90642
聞之	-8.9073
王者	-8.90956
五榖	-8.9098
其功	-8.91492
産	-8.91566
哀	-8.9191
其子	-8.91959
福	-8.91964
此言	-8.92093
舜	-8.92258
河	-8.92369
稽	-8.92386
貸	-8.92426
律	-8.92438
泄	-8.92536
踰	-8.92557
忘	-8.9262
顧	-8.92633
不聽	-8.92717
管子	-8.93627
道之	-8.93903
不從	-8.9417
宰	-8.94286
斬	-8.94305
亟	-8.94313
買	-8.94315
奏	-8.94324
補	-8.94388
細	-8.94863
者則	-8.95456
仇	-8.9582
有餘	-8.9607
庶	-8.96172
慶	-8.96186
呼	-8.96205
幾	-8.96231
户	-8.96265
詔	-8.96274
造	-8.9629
耳目	-8.96295
倉	-8.96369
不然	-8.96789
二人	-8.96826
在於	-8.97445
擊	-8.97488
萬民	-8.97794
徐	-8.97944
繫	-8.97999
績	-8.98214
奈何	-8.98221
革	-8.9823
祿	-8.98253
光	-8.98255
典	-8.98272
肉	-8.98279
劾	-8.98342
竒	-8.98358
人主之	-8.98455
死者	-8.98696
以法	-8.98719
不治	-8.98778
生於	-8.98837
其主	-8.99251
理也	-8.99315
征	-9.00199
賣	-9.00261
充	-9.00278
表	-9.00284
助	-9.00286
曹	-9.00286
佚	-9.00294
密	-9.00386
懷	-9.00386
依	-9.00416
諫	-9.00512
不及	-9.0095
於外	-9.00976
而欲	-9.01013
况	-9.01025
父子	-9.01161
是謂	-9.0129
漢	-9.01414
如是	-9.02164
紂	-9.02306
保	-9.02327
祖	-9.02357
畢	-9.0239
弃	-9.02396
累	-9.02402
道也	-9.02405
呉	-9.02506
行也	-9.02749
關	-9.02781
曰此	-9.03197
不相	-9.03702
種	-9.03718
再	-9.04345
羙	-9.0442
尸	-9.04426
者可亡也	-9.04492
會	-9.04508
屍	-9.04511
什	-9.04517
矜	-9.04532
忽	-9.04539
魚	-9.0455
誰	-9.04576
鬼神	-9.04639
祭	-9.05343
管子曰	-9.05424
明日	-9.05643
示	-9.05975
不明	-9.06182
問之	-9.06214
其妻	-9.06346
憎	-9.06416
獻	-9.06478
借	-9.06502
矣故	-9.06545
試	-9.06586
壅	-9.06663
縁	-9.06665
履	-9.06688
遷	-9.06693
佐	-9.06702
丗	-9.06704
遠	-9.06729
龍	-9.06744
趨	-9.06747
無不	-9.06799
者有	-9.06939
而不能	-9.07384
不必	-9.08274
譎	-9.08634
所惡	-9.0865
仲父	-9.08777
笑	-9.08823
族	-9.08846
雜	-9.08848
於國	-9.08864
華	-9.08907
君臣	-9.08939
贓	-9.08959
劒	-9.08969
側	-9.08979
飬	-9.08986
傅	-9.09002
莫敢	-9.09095
未嘗	-9.09099
矢	-9.09102
集	-9.0911
法而	-9.09117
以成	-9.09333
王之	-9.09495
人皆	-9.09662
察其	-9.09811
之法	-9.09854
服罪	-9.0999
一國	-9.10018
所欲	-9.10457
諸侯之	-9.10672
則君	-9.10674
然后	-9.10974
者其	-9.11003
人者	-9.11086
孤	-9.11094
縱	-9.11149
駕	-9.11163
寧	-9.11167
闗	-9.1121
愈	-9.11211
隣	-9.11245
苟	-9.11249
束	-9.11283
而得	-9.11316
者幾何人	-9.11353
明君	-9.1143
擇	-9.11469
為天下	-9.11625
何也	-9.1163
以此	-9.11791
之行	-9.12016
不同	-9.12136
三年	-9.12182
則有	-9.1221
三日	-9.12418
堯舜	-9.12571
詰	-9.12637
寵	-9.12797
則必	-9.12931
驚	-9.13291
准	-9.13296
國家	-9.13402
臺	-9.13448
泰	-9.13505
熟	-9.13521
肅	-9.13533
到	-9.13546
泉	-9.13591
壌	-9.13819
之地	-9.14041
證	-9.14067
治國	-9.14578
訊	-9.14901
人不	-9.15201
池	-9.15759
川	-9.15819
問曰	-9.15856
朋黨	-9.15882
背	-9.15927
其言	-9.15929
席	-9.15934
青	-9.15952
完	-9.15978
春秋	-9.16037
治之	-9.16048
齊國	-9.16077
司馬	-9.16094
其本	-9.16099
不肖	-9.16188
性	-9.16643
改	-9.16678
不至	-9.16874
百官	-9.1702
得之	-9.17187
爲之	-9.17204
盡力	-9.174
見本	-9.17531
而立	-9.17552
姓	-9.17748
干	-9.18116
差	-9.18188
民無	-9.18258
而已	-9.18301
以待	-9.18308
讎	-9.18318
空	-9.18338
築	-9.18344
柄	-9.18378
貞	-9.18391
羽	-9.18401
最	-9.18405
皮	-9.18439
桓公曰何謂	-9.18443
日月	-9.18565
度量	-9.18662
之患	-9.1928
仕	-9.19384
法者	-9.19506
人之所	-9.19972
談	-9.202
而行	-9.20323
似	-9.20762
夷	-9.2077
㡬	-9.20773
符	-9.20775
詳	-9.20787
徙	-9.2079
劵	-9.20831
輙	-9.20849
恭	-9.20856
不爲	-9.2086
淵	-9.20862
莊	-9.20862
齒	-9.20891
荒	-9.20901
感	-9.20921
圍	-9.20927
根	-9.20928
徧	-9.20943
第十	-9.21029
在上	-9.21455
治也	-9.21463
王曰	-9.21613
民不	-9.21912
疑之	-9.21934
其名	-9.22222
孰	-9.22307
亦不	-9.22447
無常	-9.22684
千里	-9.22733
則亂	-9.2296
尹	-9.23091
事之	-9.23264
塗	-9.23304
選	-9.23372
錯	-9.23379
付	-9.23385
險	-9.23408
序	-9.23411
招	-9.23415
騐	-9.23419
壽	-9.23422
崇	-9.23448
歛	-9.23457
其情	-9.23463
咸	-9.2347
桀紂	-9.23489
孟	-9.23504
距	-9.2351
草木	-9.23569
民有	-9.2362
而好	-9.23896
於下	-9.23942
事也	-9.24535
子産	-9.24535
寄	-9.24583
亂也	-9.24755
昔	-9.25009
則民不	-9.25185
成功	-9.2519
景	-9.25209
不信	-9.25228
其臣	-9.25282
之臣	-9.25329
有常	-9.25462
君不	-9.25592
令人	-9.25656
恥	-9.25723
叔	-9.2579
之意	-9.25862
而成	-9.25893
吉	-9.25967
亷	-9.25974
莫之	-9.26004
忠臣	-9.26021
桀	-9.26029
浮	-9.26035
庸	-9.26035
畫	-9.26043
接	-9.26056
焚	-9.26067
真	-9.26077
有道	-9.26122
喪	-9.26123
黒	-9.26127
㓜	-9.2615
喻	-9.26182
號令	-9.26423
隂陽	-9.26424
可謂	-9.26453
不可得也	-9.26521
取其	-9.26612
故民	-9.26748
則主	-9.26917
姦邪	-9.2693
其利	-9.27017
者何也	-9.27286
四時	-9.2745
恩	-9.27541
此皆	-9.28038
賢人	-9.28043
其意	-9.28187
舟	-9.28228
治民	-9.28307
泣	-9.28345
而去	-9.28347
各有	-9.28527
其家	-9.28554
寺	-9.28658
監	-9.28673
人心	-9.28684
建	-9.28711
黃	-9.2872
尺	-9.2872
薦	-9.28746
詣	-9.28748
詭	-9.28755
廉	-9.28762
否	-9.28776
劫	-9.28783
觧	-9.28786
兄弟	-9.28849
三月	-9.29153
而食	-9.29257
聖王	-9.29461
臣下	-9.29542
貴賤	-9.2964
鄰國	-9.29746
取之	-9.29873
兄	-9.2998
小人	-9.30165
者謂之	-9.30406
疏	-9.3064
有過	-9.30875
誅之	-9.30907
利而	-9.30957
正也	-9.31096
管仲曰	-9.31152
登	-9.31313
丞	-9.31329
無以	-9.31376
劉	-9.31458
繁	-9.31466
随	-9.31473
仲尼	-9.31477
頭	-9.31498
楊	-9.31514
冦	-9.31525
戴	-9.31528
或曰	-9.31533
落	-9.31538
甞	-9.31541
民者	-9.31542
葬	-9.31555
領	-9.31559
季	-9.3156
育	-9.3159
總	-9.31648
不聞	-9.31906
法度	-9.32077
於法	-9.32195
轉	-9.32288
煩	-9.32452
不察	-9.3253
十日	-9.33209
鼓	-9.33236
何謂	-9.33314
䟽	-9.33497
辜	-9.33615
則不	-9.33652
五官	-9.33694
特	-9.33841
不可得	-9.33904
擒	-9.34111
鬼	-9.34288
雪	-9.34337
凢	-9.34377
悔	-9.34388
毒	-9.3439
悦	-9.34401
襲	-9.34415
醉	-9.34423
純	-9.3443
䡄	-9.34445
薪	-9.34478
贖	-9.34509
不成	-9.34567
其私	-9.34578
甲兵	-9.34718
山之	-9.34756
必以	-9.35526
君人者	-9.35527
二曰	-9.35553
文王	-9.35655
是非	-9.35893
使者	-9.36389
何以	-9.36495
屋	-9.36714
堂	-9.36834
四方	-9.37071
廩	-9.37193
故明法曰	-9.37202
燭	-9.37215
挾	-9.37216
味	-9.37249
悲	-9.37268
營	-9.37284
屈	-9.37287
弓	-9.37289
矣夫	-9.37305
掩	-9.37311
濫	-9.37312
達	-9.37314
姑	-9.37319
哭	-9.37322
二子	-9.37323
社	-9.37328
苛	-9.37331
遽	-9.37344
圉	-9.3735
鈎	-9.37378
虧	-9.37379
専	-9.37393
延	-9.37402
趣	-9.37403
刃	-9.37421
幼	-9.37439
帥	-9.37481
少年	-9.37576
天道	-9.37763
富者	-9.379
認	-9.37972
必不	-9.38104
之術	-9.38394
其心	-9.3873
百里	-9.39133
無有	-9.39494
所愛	-9.39752
庭	-9.39775
投	-9.39841
部	-9.39914
慈	-9.40002
見其	-9.40022
孔	-9.40032
旅	-9.40296
鳥	-9.40303
鼔	-9.40305
援	-9.40332
遵	-9.40344
衍	-9.40345
刺	-9.40345
凌	-9.40357
靡	-9.40362
誘	-9.40363
繩	-9.40365
骨	-9.40366
法制	-9.40387
蓄	-9.40387
䘮	-9.40396
慢	-9.40403
横	-9.4041
甘	-9.40421
恵	-9.40424
維	-9.40483
所撰	-9.40548
比周	-9.40552
若干	-9.40573
太守	-9.40774
飲食	-9.40863
事者	-9.41264
爲天下	-9.41274
時有	-9.41381
法也	-9.41387
五十	-9.4153
其道	-9.41734
而出	-9.41775
其所以	-9.41899
視之	-9.41978
用其	-9.42276
人情	-9.42337
通於	-9.42442
民之所	-9.42604
其上	-9.42727
墨	-9.42741
文公	-9.42754
之謂也	-9.42875
不通	-9.4308
之實	-9.43216
道者	-9.43228
與人	-9.4332
蔡	-9.43357
境	-9.43394
肥	-9.43424
祥	-9.43436
嫗	-9.43437
限	-9.43438
収	-9.43446
未有	-9.43449
割	-9.43453
掠	-9.43462
竟	-9.43462
慕	-9.43486
獸	-9.43493
讀	-9.43513
鬭	-9.43528
沈	-9.4355
毆	-9.43568
匡	-9.43606
主之	-9.43658
狗	-9.43706
者王	-9.44029
此三者	-9.44047
成也	-9.44162
慝	-9.44315
舊集不載	-9.44373
君臣之	-9.44392
無益	-9.44432
弑	-9.4468
於身	-9.45526
利害	-9.45542
以相	-9.45628
覺	-9.45635
古者	-9.45749
予之	-9.45821
不正	-9.45887
桓	-9.46016
曽	-9.46029
治者	-9.46415
從之	-9.46479
上之	-9.46598
嫁	-9.46642
桑	-9.46652
面	-9.4666
貳	-9.46677
友	-9.46681
擁	-9.46697
規	-9.46701
旁	-9.46702
希	-9.46703
谷	-9.46705
騎	-9.46711
究	-9.46712
優	-9.46713
智能	-9.46718
廟	-9.46718
隆	-9.46728
殘	-9.46739
血	-9.4674
程	-9.46742
葉	-9.4676
禹	-9.4677
契	-9.46773
麻	-9.46784
候	-9.46795
山澤	-9.46998
未必	-9.47025
曰我	-9.47102
無名	-9.47601
制也	-9.477
者以其	-9.47779
何如	-9.47859
而已矣	-9.47863
詰之	-9.48025
禮義	-9.48143
從事	-9.48238
無敵	-9.48313
亡也	-9.48344
男	-9.48398
富貴	-9.48503
舉事	-9.49015
二者	-9.49133
此其	-9.49157
天地之	-9.49162
無形	-9.4924
湯武	-9.49266
有人	-9.49461
危矣	-9.49764
郭	-9.4991
刻	-9.49964
先王之	-9.4997
輿	-9.49972
儉	-9.49973
銀	-9.49984
夢	-9.49996
事君	-9.49998
以告	-9.50005
沒	-9.50014
拙	-9.50014
歟	-9.50014
倚	-9.50019
攝	-9.50026
偶	-9.50033
休	-9.50041
叛	-9.50043
鬬	-9.50059
督	-9.50061
條	-9.50082
桓公問於管子曰	-9.501
納	-9.50101
傲	-9.50103
況	-9.50133
亮	-9.50285
小白	-9.50405
未可	-9.50637
行私	-9.50774
之理	-9.50909
忍	-9.51029
故有	-9.51148
敵國	-9.51402
有大	-9.51488
以治	-9.51588
之後	-9.51664
可得而	-9.51688
察之	-9.51737
男女	-9.5185
則臣	-9.52014
有三	-9.52304
盡心	-9.52307
不忍	-9.52409
臣聞	-9.52614
其勢	-9.52668
善者	-9.52712
難也	-9.52788
見之	-9.53046
不䏻	-9.53061
出入	-9.5316
繼	-9.53182
撰	-9.53255
所撰墓誌	-9.53301
而止	-9.53398
躁	-9.53403
速	-9.53415
蕭	-9.53426
汚	-9.53437
脫	-9.53443
遁	-9.53455
京	-9.53463
籍於	-9.53486
厭	-9.53487
闕	-9.53494
僞	-9.53518
馳	-9.53522
邊	-9.53533
惰	-9.53541
握	-9.53542
禱	-9.53556
飛	-9.53557
餓	-9.53565
怠	-9.53595
戸	-9.53607
旦	-9.53684
官爵	-9.53737
賢不肖	-9.53774
然而	-9.53998
伏罪	-9.54079
故人	-9.54109
食之	-9.54117
盡其	-9.54248
亦可	-9.54278
必先	-9.54336
神明	-9.54537
管仲對曰	-9.54557
武王	-9.546
三曰	-9.54603
夫人	-9.54729
遊	-9.54772
然也	-9.55071
不求	-9.55101
民也	-9.5514
有私	-9.553
三人	-9.55384
從而	-9.5548
曰夫	-9.55671
自然	-9.55755
亦有	-9.55764
三十	-9.55862
大者	-9.5594
萬人	-9.56167
自治	-9.56198
君曰	-9.56257
與其	-9.56413
以知	-9.56557
萬物之	-9.56593
安得	-9.56748
昭	-9.56768
德也	-9.56783
彌	-9.56788
今夫	-9.56808
無功	-9.56818
廷	-9.56907
械	-9.56947
林	-9.56971
鐘	-9.56972
殷	-9.57008
揚	-9.57009
薛	-9.57018
怪	-9.57032
諭	-9.57041
鄙	-9.57043
帛	-9.5706
丘	-9.57064
儒	-9.57069
柔	-9.57071
徵	-9.57083
嗇	-9.57084
忿	-9.57094
絲	-9.57102
殊	-9.57104
恕	-9.57126
主也	-9.57131
凖	-9.57135
之至	-9.57135
以致	-9.57142
靖	-9.57152
枝	-9.57167
鼎	-9.57199
缺	-9.57223
為人臣者	-9.57388
霸王	-9.57443
而易	-9.57459
人臣之	-9.57503
論其	-9.57543
用也	-9.57567
衆而	-9.57671
以自	-9.57681
境内	-9.57748
令行	-9.57789
迎	-9.57926
治天下	-9.57967
則上	-9.5822
其母	-9.58277
為君	-9.58336
也是以	-9.58596
致死	-9.58619
也然	-9.58686
莫能	-9.58799
數也	-9.58854
若夫	-9.59056
而復	-9.59056
曰寡人	-9.59237
衆人	-9.59286
死也	-9.59314
者無	-9.59447
先生	-9.59459
襄	-9.59711
黨與	-9.59907
好惡	-9.5991
當死	-9.59997
人則	-9.60144
相與	-9.60239
以利	-9.60325
兒	-9.60363
本傳	-9.60417
賀	-9.60535
蘇	-9.60605
重人	-9.60618
赴	-9.60659
茅	-9.60677
謁	-9.60684
機	-9.60692
宅	-9.60708
詞	-9.60713
畧	-9.60716
暮	-9.60737
㢘	-9.60739
繋	-9.60746
降	-9.60751
鈞	-9.60753
壞	-9.60756
帶	-9.60767
臣之	-9.60771
摶	-9.60775
角	-9.60784
毛	-9.60789
勉	-9.60802
珠玉	-9.6081
菜	-9.60834
親戚	-9.60843
𬒳	-9.60847
㝷	-9.60858
規矩	-9.6086
糺	-9.60862
珠	-9.60873
露	-9.60897
有善	-9.60977
不任	-9.61058
其父	-9.61157
之本也	-9.61284
為政	-9.61427
而上	-9.61482
重於	-9.61604
多少	-9.61611
之狀	-9.61739
按此	-9.61927
為國	-9.62892
姦臣	-9.63098
州有	-9.63195
得其情	-9.63244
使其	-9.63249
明也	-9.6328
者衆	-9.63355
有罪	-9.63576
中山	-9.6359
而下	-9.63997
問其	-9.64293
孔子	-9.64329
式	-9.64351
萌	-9.64399
事無	-9.64461
朱	-9.64466
穴	-9.64469
出令	-9.64482
七十	-9.6449
讐	-9.64493
侮	-9.64504
樸	-9.6452
狂	-9.6454
貫	-9.64547
却	-9.64552
杜	-9.64556
大國	-9.64566
溝	-9.64592
頗	-9.64594
恤	-9.64594
踈	-9.64594
矯	-9.64596
宗廟	-9.64597
脱	-9.64597
米	-9.64598
偏	-9.64615
蚤	-9.64622
侍	-9.64623
故其	-9.64649
鎮	-9.64653
城郭	-9.64678
諌	-9.64725
檢	-9.64752
曰君	-9.64779
用力	-9.64783
凡此皆	-9.64821
晏子	-9.64858
必知	-9.64886
十餘	-9.64904
若此則	-9.64931
亡國	-9.64994
忠信	-9.65109
所以為	-9.65438
疑其	-9.65551
故善	-9.65631
哀公	-9.65631
不聴	-9.6574
之間	-9.6607
短	-9.66083
數日	-9.66089
知也	-9.66091
事而	-9.66622
莫如	-9.66684
不與	-9.66747
其智	-9.66766
大功	-9.66865
而死	-9.67001
民力	-9.67412
農事	-9.67483
之禍	-9.67495
求之	-9.67713
宫室	-9.67741
也若	-9.67899
忌	-9.68164
必得	-9.68172
傑	-9.68195
欲以	-9.68244
以求	-9.68272
六畜	-9.68281
嗣	-9.68314
昭侯	-9.68332
邦	-9.6846
叔孫	-9.68461
胥	-9.68476
余	-9.68482
此二者	-9.68485
拜	-9.68487
潔	-9.68508
壹	-9.68527
迷	-9.68536
逮	-9.6856
以刑	-9.68567
朝廷	-9.68572
偃	-9.68574
飯	-9.68574
噐	-9.68591
才	-9.68592
無道	-9.68595
寢	-9.68599
環	-9.68599
禽獸	-9.68599
註	-9.68607
亊	-9.68617
藉	-9.68637
毎	-9.68651
仰	-9.68654
料	-9.68663
撃	-9.68671
搏	-9.68671
沉	-9.68681
謟	-9.68697
湏	-9.68708
拘	-9.68717
裁	-9.68729
訾	-9.68729
掌	-9.6874
狄	-9.68742
不親	-9.68776
而亂	-9.68911
三者	-9.69114
靈	-9.6917
請以	-9.69269
之計	-9.69315
舉目	-9.69339
鮑叔曰	-9.69343
不禁	-9.69472
之勢	-9.69483
守其	-9.69529
不可使	-9.69583
者也故	-9.7002
人無	-9.7006
非所	-9.70139
而自	-9.70258
法術	-9.70299
而知	-9.70419
不死	-9.70536
若何	-9.70562
行其	-9.70665
用此	-9.708
不在	-9.70823
於此	-9.70856
親也	-9.70904
以事	-9.71131
可知也	-9.71149
理則	-9.71255
其德	-9.71264
十年	-9.71349
於地	-9.71531
卜	-9.71691
桓公曰善	-9.71736
不復	-9.7176
僕	-9.71816
天時	-9.71888
管	-9.7193
而國	-9.71955
行則	-9.72138
勝敵	-9.72176
實也	-9.72245
用兵	-9.72312
而使	-9.72315
之禮	-9.72397
戎	-9.72535
不聼	-9.7265
弋	-9.72655
裕	-9.72675
陷	-9.72684
輒	-9.72711
再拜	-9.72717
醫	-9.72721
謗	-9.72736
兆	-9.72738
徑	-9.72743
庫	-9.72747
漏	-9.72759
旱	-9.72762
略	-9.72773
赤	-9.72776
嘉	-9.72779
奪之	-9.72781
訪	-9.72806
莒	-9.72811
造父	-9.72817
減	-9.72824
謝	-9.72843
采	-9.72846
刄	-9.72866
廪	-9.72866
増	-9.72869
杞	-9.72879
盈	-9.72882
郎中	-9.72893
則下	-9.72919
之政	-9.73027
死而	-9.73081
海内	-9.73104
牛馬	-9.73144
乗馬	-9.73189
以備	-9.73205
明於	-9.73232
此乃	-9.73265
人曰	-9.73273
官職	-9.73501
三百	-9.73732
兵弱	-9.73733
農夫	-9.73831
不能自	-9.7407
後漢	-9.74119
之術也	-9.74145
何不	-9.74246
齊之	-9.74472
存亡	-9.74489
自誣	-9.74557
危亡	-9.74652
告之	-9.74695
在下	-9.74768
故聖人	-9.74827
井	-9.74866
軌	-9.7496
不義	-9.75122
罪人	-9.75232
也且	-9.75271
不眀	-9.75274
則百姓	-9.7544
察姦	-9.75456
則羣臣	-9.75476
為善	-9.75757
不審	-9.75964
故先王	-9.76413
守之	-9.76747
於内	-9.76787
利之	-9.76825
鬻	-9.76941
若是	-9.76996
縛	-9.77017
羞	-9.77018
父兄	-9.77052
狐	-9.77082
伺	-9.77111
詠	-9.77115
冶	-9.77121
鐡	-9.77124
戚	-9.77125
不立	-9.77137
夲	-9.77141
照	-9.77145
闇	-9.77146
續	-9.77147
枯	-9.7715
旗	-9.77155
尤	-9.77156
驅	-9.77193
配	-9.77204
衞	-9.77207
權衡	-9.77209
其能	-9.77247
行者	-9.77266
豫	-9.77303
歸之	-9.77337
亂主	-9.77392
舊出	-9.77413
知伯	-9.77556
簡公	-9.77621
為姦	-9.7792
貲	-9.78049
之名	-9.78167
皆以	-9.78197
愛之	-9.78242
無得	-9.78279
不生	-9.78326
君也	-9.78354
鞫	-9.78685
不勞	-9.78774
舉兵	-9.78874
無事	-9.7889
不救	-9.79012
其行	-9.79023
也凡	-9.79249
曰子	-9.79342
十六	-9.79418
去之	-9.7946
物之	-9.79463
而任	-9.79532
賢而	-9.79682
外内	-9.79991
不可不	-9.80025
則治	-9.80122
明矣	-9.80294
不利	-9.80307
用事	-9.80335
有功者	-9.80521
自此	-9.80579
不然則	-9.80643
載之	-9.80671
不肖者	-9.80714
害也	-9.80793
犀首	-9.81009
逺者	-9.81016
平公	-9.81311
璧	-9.81533
佯	-9.8157
蒲	-9.8158
隙	-9.81586
勤	-9.81612
懸	-9.81613
植	-9.81616
抱	-9.81635
陸	-9.81636
祀	-9.81639
提	-9.81644
謙	-9.81652
匱	-9.81652
滋	-9.81655
仞	-9.81657
禽	-9.81658
吴	-9.81661
鞭	-9.81663
轡	-9.81667
尋	-9.81671
幽	-9.81672
船	-9.81673
穫	-9.81679
揺	-9.8168
婢	-9.81683
巨	-9.81683
虜	-9.8169
恒	-9.81693
歡	-9.81695
克	-9.81714
星	-9.8172
宥	-9.81727
矜謹	-9.81731
綱	-9.81734
拔	-9.81736
㫁	-9.81741
牽	-9.81743
輸	-9.81743
臧	-9.81748
斤	-9.81772
脅	-9.81777
準	-9.81795
季孫	-9.81804
畆	-9.81804
支	-9.81806
統	-9.8182
黄帝	-9.81823
九竅	-9.81827
韓魏	-9.81836
征伐	-9.81842
上不	-9.81988
吾欲	-9.82132
至而	-9.82298
其法	-9.8237
嚴明	-9.8251
乃令	-9.82516
水之	-9.82535
若有	-9.82547
不欲	-9.82937
之分	-9.82982
夫民	-9.83176
國有	-9.83183
且夫	-9.83249
王天下	-9.83289
臣之所	-9.83354
財物	-9.83368
孝子	-9.83373
不盡	-9.83374
十七	-9.83407
矣今	-9.83424
弟子	-9.83495
不能以	-9.83754
守法	-9.83777
不待	-9.84046
二君	-9.84171
二年	-9.84293
中國	-9.84562
人以	-9.84708
可得	-9.8475
失也	-9.84811
後世	-9.85211
曰臣	-9.85535
之患也	-9.85605
不避	-9.85643
競	-9.85645
信也	-9.8565
中有	-9.85724
績按此	-9.85945
賂	-9.86008
子曰	-9.86032
介	-9.86107
誣服	-9.86151
乾	-9.86188
數人	-9.86191
不違	-9.8626
豪	-9.86304
奔	-9.86365
狹	-9.86375
伸	-9.86383
痛	-9.86388
悟	-9.86391
灰	-9.86397
的	-9.86402
羊	-9.86413
藥	-9.86416
倒	-9.86425
償	-9.86428
韓非子卷	-9.86432
院	-9.86439
䇿	-9.86447
兹	-9.86449
殖	-9.86455
昏	-9.86475
州刺史	-9.86479
奮	-9.86492
虎豹	-9.86494
之吏	-9.86511
僻	-9.86516
栁	-9.86523
飽	-9.8653
陛下	-9.86532
茂	-9.86546
熱	-9.8655
御史	-9.86558
風雨	-9.86561
歴	-9.86574
虐	-9.86577
升	-9.86596
而不見	-9.86639
袁	-9.86661
釋寃	-9.86746
小者	-9.86759
而天下	-9.86804
之官	-9.86823
進退	-9.86981
聖人之	-9.87076
衣服	-9.87151
人所	-9.87185
也是故	-9.87321
五年	-9.87502
何故	-9.8751
前後	-9.87538
不亂	-9.87595
守戰	-9.87729
上有	-9.87882
臣有	-9.8793
有天下	-9.87932
器也	-9.8809
學者	-9.88092
國治	-9.88226
明王	-9.88271
十里	-9.88306
多者	-9.88329
弗能	-9.88392
又有	-9.8853
髙下	-9.88672
荆王	-9.88758
於市	-9.88794
而治	-9.88824
則不可	-9.88907
以攻	-9.88916
則能	-9.88989
明主之	-9.8901
百萬	-9.89079
而歸	-9.89296
不受	-9.89555
姦人	-9.89579
親之	-9.89681
過也	-9.89913
為非	-9.90147
匠	-9.90456
功勞	-9.90518
其實	-9.90564
功名	-9.90621
非所以	-9.90707
副	-9.90708
不使	-9.9095
夕	-9.90975
法立	-9.91015
大而	-9.91028
曰何	-9.91044
詩	-9.91046
紙	-9.91139
郎	-9.91214
撫	-9.91225
咎	-9.91321
諂	-9.91321
印	-9.91348
述	-9.9135
冠	-9.9135
閭	-9.91353
壻	-9.91355
僇	-9.91356
彘	-9.91359
牆	-9.91363
蕃	-9.91363
犬	-9.91367
疎	-9.91372
其下	-9.91387
傾	-9.91401
編	-9.91407
廬	-9.9142
源	-9.91423
虗	-9.91423
胄	-9.91431
級	-9.91445
釡	-9.91446
僃	-9.9145
版	-9.91452
扶	-9.91453
㧞	-9.91455
鐵	-9.91455
瑕	-9.91456
潛	-9.91458
覈	-9.91459
繆	-9.91462
壊	-9.91464
宦	-9.91473
雷	-9.91475
活	-9.91477
禍福	-9.91493
冀	-9.91498
斗	-9.91511
懲惡	-9.91514
織	-9.9153
鑒	-9.91534
訓	-9.9156
斧	-9.91566
聘	-9.91584
世之	-9.91587
故爲	-9.9162
崔	-9.91647
聰明	-9.9165
萬乘	-9.91725
訟者	-9.91789
此亦	-9.91883
之命	-9.91931
貨財	-9.91941
受命	-9.92075
古今	-9.92192
所用	-9.92333
衣食	-9.92424
而不可	-9.92468
豈能	-9.92701
三軍	-9.92842
此四者	-9.93218
四曰	-9.93439
五人	-9.93669
有術	-9.93783
其後	-9.93843
見也	-9.93849
主人	-9.93863
為上	-9.93916
而動	-9.93925
而不知	-9.93995
貴而	-9.94004
出處	-9.94165
何以知	-9.94348
立法	-9.94419
世主	-9.94439
不獲	-9.94461
義也	-9.94468
而輕	-9.94484
法則	-9.94658
視其	-9.94804
縣令	-9.95008
而待	-9.95013
子孫	-9.95123
而主	-9.95181
知州	-9.95237
有一人	-9.95357
齊王	-9.9537
如是則	-9.95551
千萬	-9.95826
之事也	-9.95859
皆曰	-9.95916
者多	-9.961
其所欲	-9.96116
治亂	-9.96119
此所謂	-9.96148
可以為	-9.96267
輩	-9.96412
貢	-9.96455
桓公曰諾	-9.96502
判	-9.96526
而攻	-9.96531
聰	-9.96551
為一	-9.96562
所好	-9.96562
圃	-9.96579
乞	-9.96613
轉運使	-9.96615
旬	-9.96619
鳴	-9.96625
曾	-9.96634
卧	-9.96651
肆	-9.96652
渠	-9.96655
灌	-9.96658
太宰	-9.9669
師曠	-9.9669
琴	-9.96693
厯	-9.96703
翁	-9.96704
欵	-9.96709
温	-9.96714
㦸	-9.96716
范	-9.96727
敦	-9.96728
預	-9.96735
蟲	-9.9674
暑	-9.96744
途	-9.96746
舊不著	-9.96757
沮	-9.96759
毀	-9.96766
曉	-9.9677
禦	-9.96778
諱	-9.9679
衢	-9.968
唐司空房玄齡注	-9.96803
田宅	-9.96805
㕘	-9.96811
而賞	-9.96824
劉績	-9.96831
折獄龜鑑	-9.96833
墜	-9.9687
千金	-9.96887
所在	-9.96959
黄金	-9.96993
晉陽	-9.97021
見本傳	-9.97076
無赦	-9.97358
變化	-9.97362
者亦	-9.9742
生者	-9.97448
而無私	-9.97547
也所謂	-9.97605
宫中	-9.97639
無罪	-9.97663
所說	-9.97716
暴亂	-9.97754
威勢	-9.97829
勝之	-9.97883
將軍	-9.97894
數年	-9.97913
豈非	-9.97976
訊之	-9.97987
或以	-9.98081
名也	-9.98108
而忘	-9.98218
以上	-9.9825
中大夫	-9.98265
聖王之禁也	-9.98377
不誅	-9.98593
非其	-9.98656
所貴	-9.98887
其黨	-9.9894
之言也	-9.98955
身死	-9.98973
先後	-9.98994
令不	-9.99255
類也	-9.99385
國貧	-9.99476
可使	-9.99542
觀其	-9.99546
壯	-9.99585
逺近	-9.99783
亦無	-9.99852
其威	-9.99912
不一	-9.99953
忘其	-10.0001
其可	-10.0002
君上	-10.0013
去其	-10.0033
矣是故	-10.0042
事有	-10.0048
於中	-10.0073
明察	-10.008
其辭	-10.0081
功也	-10.0086
績按言	-10.009
他人	-10.0105
其位	-10.0114
而亡	-10.0116
自知	-10.0141
無度	-10.0143
則不然	-10.0154
而用之	-10.0162
謂其	-10.0163
仁也	-10.0172
人主者	-10.0176
若水	-10.018
則去	-10.0182
燕王	-10.0199
貧者	-10.0202
六者	-10.0204
殃	-10.021
擬	-10.0212
抵	-10.0213
怯	-10.0215
法術之士	-10.0215
獄吏	-10.0217
譙	-10.0217
竝	-10.0218
焉故	-10.0219
媪	-10.022
勘	-10.0221
陶	-10.0223
無為	-10.0223
頃	-10.0223
瘞	-10.0224
墳	-10.0224
敝	-10.0226
芒	-10.0226
恣	-10.0226
蒸	-10.0226
丁	-10.0227
溺	-10.0228
畝	-10.0228
民多	-10.0228
租	-10.0229
䝉	-10.023
不足則加	-10.023
牒	-10.0231
憐	-10.0231
圓	-10.0231
奈何管子對曰	-10.0233
翟	-10.0234
有一	-10.0234
凝	-10.0234
搆	-10.0234
嬰	-10.0234
閑	-10.0235
隰朋	-10.0235
荘	-10.0235
練	-10.0238
併	-10.024
字誤	-10.0241
裹	-10.0243
丞相	-10.0248
姓名	-10.0254
小國	-10.0254
四鄰	-10.0259
既而	-10.0261
勝也	-10.0286
原本	-10.0289
相親	-10.0294
其故何也	-10.0299
農戰	-10.0302
四者	-10.0307
襄子	-10.0311
一家	-10.0313
國安	-10.0317
由是	-10.0324
嚴刑	-10.033
故明主	-10.0345
霸王之	-10.0359
法禁	-10.0359
曰某	-10.0378
其刑	-10.0384
不安	-10.0384
寡而	-10.0393
州時	-10.0404
愛民	-10.0411
以觀	-10.0425
内外	-10.0427
受之	-10.0434
百吏	-10.0435
不動	-10.0437
能以	-10.0442
者也夫	-10.0454
所載	-10.0456
皇	-10.046
能服	-10.0478
患之	-10.0488
國無	-10.0495
有數	-10.051
得免	-10.0511
必誅	-10.0517
在君	-10.0528
大利	-10.0538
而可	-10.0541
問於	-10.0547
明法	-10.0548
國亂	-10.0553
之心而	-10.0559
行而	-10.0573
之類	-10.0576
不止	-10.0577
鞫之	-10.0591
死亡	-10.0593
道以	-10.0598
之師	-10.06
五百	-10.0607
而賤	-10.061
臣臣	-10.061
此者	-10.0615
十四	-10.0619
於主	-10.0632
不務	-10.0635
何為	-10.0636
臣聞之	-10.0656
不疑	-10.0657
為證	-10.0662
丈	-10.0668
其弟	-10.0699
者何	-10.0717
皆有	-10.0721
者乃	-10.0727
其處	-10.0734
以時	-10.0744
村	-10.0759
成名	-10.076
諫曰	-10.0762
立功	-10.0764
不傷	-10.0777
富民	-10.0783
必勝	-10.0792
雲	-10.0797
髪	-10.0798
氣也	-10.0801
初為	-10.0803
整	-10.0806
姬	-10.0807
饒	-10.0807
羿	-10.0809
抑	-10.0809
乏	-10.0809
圗	-10.081
暗	-10.081
拂	-10.081
不知其	-10.0811
乙	-10.0811
不忠	-10.0812
劔	-10.0813
擾	-10.0813
詘	-10.0813
莅	-10.0814
𥘉	-10.0814
勑	-10.0815
稻	-10.0815
囊	-10.0816
悖	-10.0816
糧	-10.0816
陰	-10.0817
鬱	-10.0817
屠	-10.0817
汙	-10.0818
價	-10.0819
棺	-10.0819
嗜	-10.0819
不可不察也	-10.082
翼	-10.082
以重	-10.082
苴	-10.0821
滛	-10.0821
屨	-10.0821
潤	-10.0821
災	-10.0821
牢	-10.0822
祐	-10.0823
心故	-10.0823
掘	-10.0823
拒	-10.0823
早	-10.0824
陽虎	-10.0824
叩頭	-10.0824
榜	-10.0825
披	-10.0825
賔客	-10.0825
也故明主	-10.0825
什倍	-10.0826
子罕	-10.0827
行義	-10.0827
葆	-10.0827
不孝	-10.0833
匹夫	-10.0833
凡人	-10.0834
子胥	-10.0836
重也	-10.0836
聖君	-10.0844
管子輕重	-10.0844
於秦	-10.0851
言曰	-10.0867
而臣	-10.0868
誠信	-10.087
其在	-10.0871
司理	-10.0873
五穀	-10.0883
績按此言	-10.0888
四時之	-10.0891
不留	-10.0894
吕	-10.0912
器成	-10.0913
於道	-10.0937
不食	-10.0942
居處	-10.0943
禮樂	-10.0943
管仲之	-10.0944
官府	-10.0945
愚者	-10.0949
誅罰	-10.0949
士卒	-10.0955
子弟	-10.0959
天子之	-10.096
雖不	-10.0961
子婦	-10.0973
魏王	-10.0978
將欲	-10.0984
食者	-10.0987
景公	-10.0998
奉法	-10.1009
臣請	-10.1025
第二十	-10.1037
治矣	-10.1037
則大臣	-10.1043
立於	-10.105
不已	-10.1054
大小	-10.1057
以為治	-10.1062
女子	-10.1086
至則	-10.1086
必待	-10.1087
百金	-10.1088
故君	-10.1097
智士	-10.1101
因而	-10.1101
什伍	-10.1106
罰之	-10.1111
於前	-10.1113
鄰人	-10.1114
君無	-10.112
而用	-10.115
說者	-10.115
之形	-10.1159
之利	-10.1163
是亦	-10.1169
故不可	-10.1175
成事	-10.1178
少而	-10.1181
其形	-10.1202
不廢	-10.1204
宋君	-10.1204
衛君	-10.1205
而相	-10.1205
近者	-10.1211
越人	-10.122
而不止	-10.1225
也一曰	-10.1239
者謂	-10.1245
其時	-10.1263
非法	-10.1295
信之	-10.1303
主上	-10.1304
國亡	-10.131
得而	-10.131
飲酒	-10.1322
上之所	-10.1336
日夜	-10.1339
人主不	-10.134
不過	-10.135
之恩	-10.1355
其端	-10.1372
之家	-10.1377
則雖	-10.1378
千人	-10.1381
不顧	-10.1383
君必	-10.1389
時也	-10.1396
功而	-10.1399
不定	-10.1413
乘馬	-10.1415
聦	-10.1418
矣然	-10.1419
妖	-10.1425
敞	-10.1426
仍	-10.1426
人主之所	-10.1426
允	-10.1428
見王珪丞相	-10.143
覽	-10.143
之數也	-10.1431
黯	-10.1431
釣	-10.1433
巫	-10.1434
奢	-10.1435
偕	-10.1435
湖	-10.1435
祝	-10.1436
沙	-10.1437
妙	-10.1437
笞	-10.1437
朋	-10.1438
遍	-10.1438
歌	-10.1439
耒	-10.1439
畒	-10.1439
掾	-10.1439
雍	-10.1439
停	-10.1439
觴	-10.1439
藏於	-10.144
伊尹	-10.144
泥	-10.144
例	-10.1441
馮	-10.1441
萊	-10.1441
朽	-10.1441
柴	-10.1441
巷	-10.1441
癸	-10.1442
捨	-10.1442
單	-10.1442
漸	-10.1442
晝	-10.1442
筆	-10.1442
巡	-10.1443
尺而至於泉	-10.1444
屏	-10.1444
靑	-10.1444
舅犯	-10.1445
戈	-10.1445
繕	-10.1446
洽	-10.1446
釜	-10.1447
蘓	-10.1448
土之次曰五	-10.1449
銅	-10.1449
布帛	-10.1449
爵祿	-10.1449
裴	-10.145
岐	-10.145
焉國用	-10.1451
欽定四庫全書	-10.1452
䑕	-10.1452
則草必墾矣	-10.1453
械器	-10.1453
審其	-10.1453
搖	-10.1454
剽	-10.1454
無術	-10.1455
懌	-10.1456
十三	-10.1456
恨	-10.1457
黃金	-10.1457
召忽	-10.1459
短長	-10.1459
網	-10.1462
答曰	-10.1462
髙祖	-10.1465
此人	-10.1465
於楚	-10.1468
舉錯	-10.1468
毁譽	-10.1468
聦明	-10.1469
捕獲	-10.1473
合於	-10.1477
魯梁	-10.1482
所從	-10.1484
文侯	-10.1486
其夫	-10.1491
文學	-10.1498
心安	-10.1502
本事	-10.1508
富人	-10.152
盗賊	-10.1522
終身	-10.1523
是故聖人	-10.1527
無忌	-10.153
既不	-10.1531
二國	-10.1532
行人	-10.1547
田常	-10.1555
以下	-10.1558
動作	-10.1565
其徳	-10.1566
以避	-10.1566
不若	-10.1571
隂陽之	-10.1572
者必有	-10.1576
此則	-10.158
得一	-10.1586
賊也	-10.1588
重禄	-10.1589
材能	-10.1589
不應	-10.1602
敵人	-10.1612
存乎	-10.1617
乃召	-10.1619
類矣	-10.162
也然則	-10.1639
長安	-10.1669
乎其	-10.1674
賈人	-10.1676
不失其	-10.1678
不幸	-10.1682
救之	-10.1688
五日	-10.1691
而殺之	-10.1695
不可復	-10.1719
或有	-10.1735
爲善	-10.1736
敗也	-10.1753
五曰	-10.1761
所出	-10.1764
撓	-10.177
亦然	-10.1774
故明王	-10.179
是以聖人	-10.1805
為我	-10.1822
以死	-10.1846
刑賞	-10.1847
以私	-10.1852
罪之	-10.1853
其門	-10.1854
足矣	-10.1867
難知	-10.187
爲用	-10.1876
不改	-10.1878
觀之	-10.1881
之力也	-10.1887
近於	-10.1887
罪也	-10.1888
非吾	-10.1899
令曰	-10.1908
小大	-10.1908
民皆	-10.1923
為用	-10.1931
衆矣	-10.1932
得釋	-10.1937
之所生	-10.1947
用法	-10.1958
捕之	-10.1964
譽之	-10.1968
萬乗	-10.197
貴人	-10.1976
天之道	-10.1996
漁	-10.1996
易也	-10.2002
幾何	-10.2009
陽氣	-10.2011
測	-10.2014
不亡	-10.2016
所疑	-10.202
句	-10.2037
罕	-10.2074
丙	-10.2078
禁之	-10.208
賁育	-10.2086
爲國	-10.2087
槖	-10.2089
丹	-10.209
姚	-10.209
烏	-10.2094
辰	-10.2095
拷	-10.2095
顛	-10.2096
侏儒	-10.2096
淺	-10.2097
携	-10.2097
䧟	-10.2098
疲	-10.2099
界	-10.21
十八	-10.21
譲	-10.21
偪	-10.21
揣	-10.21
黍	-10.2101
惽	-10.2101
昬	-10.2102
永	-10.2102
括	-10.2102
瀆	-10.2102
臂	-10.2103
皃	-10.2104
詈	-10.2105
徧知天下	-10.2105
涸	-10.2105
濁	-10.2106
䛕	-10.2106
晋	-10.2106
閱	-10.2106
析	-10.2106
愧	-10.2106
斥	-10.2106
彈	-10.2106
嬰兒	-10.2107
㒵	-10.2107
劍	-10.2108
錄	-10.2108
効	-10.2109
顔色	-10.2109
板	-10.2109
包	-10.2109
輯	-10.2109
潰	-10.211
賔	-10.211
雕	-10.211
輕刑	-10.211
街	-10.2111
垂	-10.2111
墻	-10.2111
戾	-10.2111
貎	-10.2112
斬首	-10.2112
享	-10.2113
蕩	-10.2113
公子開方	-10.2113
徹	-10.2115
衽	-10.2115
剛	-10.2116
饋	-10.2116
錫	-10.2116
猛	-10.2117
銳	-10.2117
玩好	-10.2118
便辟	-10.2121
相所撰墓誌	-10.2122
啟	-10.2124
麗	-10.2127
酸	-10.2127
當時	-10.2127
所為	-10.2131
不去	-10.2137
丈夫	-10.2139
千乘	-10.2145
尚書	-10.2148
貧賤	-10.215
明主之道	-10.2157
威嚴	-10.2159
分職	-10.2171
盜賊	-10.2178
之憂	-10.2179
士民	-10.2181
往來	-10.2186
不加	-10.2188
今世	-10.2197
殺戮	-10.2203
愚人	-10.2204
上下之	-10.2215
大王	-10.2215
私門	-10.222
管子卷第	-10.2221
越王	-10.2221
以聽	-10.2225
異日	-10.2226
為盗	-10.2229
變而	-10.2233
之始也	-10.2246
可用也	-10.2256
而名	-10.2259
請問	-10.2262
妻子	-10.2265
不肯	-10.227
曰不可	-10.2275
羣臣之	-10.2284
聖人之治	-10.2329
此所以	-10.2329
進則	-10.233
與無	-10.2338
思之	-10.2341
可致	-10.2354
而勿	-10.2362
擇其	-10.2388
威權	-10.2395
而民不	-10.2399
地形	-10.2402
自恃	-10.2417
兵不	-10.2419
不滿	-10.2431
乗之國	-10.2466
其餘	-10.247
成敗	-10.2477
而使之	-10.2495
命之曰	-10.25
不脩	-10.2501
上以	-10.2506
勞而	-10.2506
已也	-10.2513
欲伐	-10.2515
自是	-10.2521
不絶	-10.2526
無禮	-10.253
鑿	-10.2534
無異	-10.2547
曰是	-10.2555
不亦	-10.2559
祭之	-10.256
過而	-10.2564
度之	-10.2573
而誅	-10.2575
未得	-10.2583
而况	-10.2588
不備	-10.2594
於諸侯	-10.2595
命曰	-10.2597
有姦	-10.2602
之徒	-10.2605
土地	-10.2606
官吏	-10.2606
臣得	-10.2623
事必	-10.2624
之臣也	-10.2638
伐之	-10.2648
言其	-10.2648
一言	-10.2649
患也	-10.2653
强國	-10.2655
公曰善	-10.2674
其親	-10.268
六十	-10.2683
至矣	-10.2697
為己	-10.2703
諾	-10.2705
皆非	-10.2711
雖無	-10.2715
今吾	-10.2719
身而	-10.2742
此非	-10.2747
節而	-10.2752
其謀	-10.2755
短語	-10.2756
犯法	-10.276
盡也	-10.2764
𤓰	-10.2787
梅	-10.2792
於朝	-10.2798
瓦	-10.2802
腹	-10.2802
嫂	-10.2802
俾	-10.2806
誑	-10.2807
剖	-10.2807
康	-10.2807
甫	-10.2808
踐	-10.2813
疑獄集	-10.2813
詢	-10.2815
逸	-10.2815
讒	-10.2816
融	-10.2817
閲	-10.2817
盟	-10.2817
莫大於	-10.2818
策	-10.2818
秩	-10.2818
顔	-10.2818
毅	-10.2819
簒	-10.2819
場	-10.2819
廵	-10.2819
冤	-10.2819
謬	-10.2819
以正	-10.282
罵	-10.2821
管子補注卷	-10.2821
別	-10.2822
胾	-10.2822
雄	-10.2823
𦵏	-10.2823
伯夷	-10.2823
墮	-10.2823
紫	-10.2823
攘	-10.2824
震	-10.2825
穢	-10.2825
禀	-10.2825
邢	-10.2825
岸	-10.2826
瓊	-10.2826
宮	-10.2826
之所期也	-10.2826
寗戚	-10.2826
幹	-10.2827
拾	-10.2827
纂	-10.2827
近習	-10.2827
李崇	-10.2828
阨	-10.2828
乂	-10.2828
贍	-10.2828
湊	-10.2829
亭	-10.2829
凍	-10.283
敖	-10.283
潜	-10.2831
璽	-10.2831
齋	-10.2831
絞	-10.2832
掃	-10.2832
思慮	-10.2834
請謁	-10.2835
治亂之	-10.2835
駮	-10.2838
俠	-10.2838
坦	-10.2839
也人主	-10.284
吳起	-10.284
者同實	-10.2841
佞	-10.2845
縣尉	-10.2849
覈姦	-10.2849
巧詐	-10.285
訴于	-10.2851
獲賊	-10.2858
襄公	-10.2858
爵位	-10.2861
金石	-10.2861
不歸	-10.2862
動静	-10.2864
眀君	-10.2867
南方	-10.2867
令尹	-10.2869
之所在	-10.2871
妄舉	-10.2871
事理	-10.2879
對曰夫	-10.288
戰勝	-10.2884
有時而	-10.2885
若一	-10.2885
退而	-10.2885
犯禁	-10.2898
視聽	-10.2904
何事	-10.2912
生則	-10.2925
而天下治	-10.2948
莫若	-10.2949
莫知其	-10.2956
養之	-10.2959
百人	-10.2961
不事	-10.2962
上黨	-10.2962
國危	-10.2965
正靜	-10.297
也然而	-10.2971
曰爾	-10.2972
右主	-10.2991
代之	-10.2998
受賞	-10.2999
之處	-10.3
而還	-10.3
寡人之	-10.301
强者	-10.3016
愛惡	-10.3019
齊桓公	-10.3022
奚謂	-10.3023
則小	-10.3024
厚賞	-10.3025
安危	-10.3026
二事	-10.303
筋	-10.3036
不决	-10.3036
舉之	-10.3038
君有	-10.3047
執之	-10.3047
如何	-10.3081
其賞	-10.3082
謂不	-10.3085
楚王	-10.3085
其種	-10.3086
其地	-10.3094
不合	-10.3111
過於	-10.3143
公私	-10.3151
得地	-10.3155
重而	-10.3159
不平	-10.316
事不	-10.3162
其獄	-10.3163
終不	-10.3172
死罪	-10.3173
恐其	-10.3197
貴之	-10.32
與天下	-10.3202
書本傳	-10.3211
重賞	-10.3214
不許	-10.3227
雖然	-10.3231
後有	-10.324
第三	-10.3254
天之	-10.3261
乃以	-10.3281
無邪	-10.3282
地名	-10.3283
商人	-10.3285
得之以	-10.329
不守	-10.3291
以政	-10.3292
之義	-10.3294
其政	-10.3307
固守	-10.3308
下無	-10.3321
者或	-10.3333
有異	-10.3333
正名	-10.3347
行此	-10.3356
之人也	-10.3359
乃是	-10.3368
之資	-10.3376
不信也	-10.338
乃知	-10.3383
管子卷第十	-10.339
善也	-10.3391
一則	-10.3396
矣故曰	-10.34
身也	-10.3403
以力	-10.3413
千乗	-10.3419
勢者	-10.3422
故知	-10.3429
下令	-10.3435
刑也	-10.3452
其首	-10.346
於人也	-10.3463
好利	-10.3488
今君	-10.3499
文子	-10.3501
地之	-10.3506
仁者	-10.3513
所得	-10.3514
又問	-10.3522
以功	-10.3525
之長	-10.3536
晏	-10.3538
鹿	-10.3553
群	-10.3559
制於	-10.3565
自來	-10.3565
奎	-10.3566
焉得無	-10.3568
導	-10.3571
勁	-10.3573
臧獲	-10.3573
祠	-10.3574
盜跖	-10.3577
叔向	-10.3577
燒	-10.3577
稍	-10.3578
酷	-10.3579
枕	-10.358
羮	-10.358
寸	-10.3581
慧	-10.3581
梟	-10.3582
自以為	-10.3582
奈	-10.3583
紿	-10.3583
觸	-10.3583
匈	-10.3584
乖	-10.3584
辛	-10.3585
爪	-10.3585
寘	-10.3585
頓	-10.3586
耨	-10.3586
稷	-10.3587
障	-10.3587
捍	-10.3587
曩	-10.3587
叱	-10.3588
糶	-10.3588
紹	-10.3588
穿	-10.3588
滯	-10.3588
審定者勝	-10.3588
區	-10.3589
窺	-10.359
箭	-10.359
邉	-10.3591
自成	-10.3591
禾	-10.3592
豪傑	-10.3592
歐	-10.3592
渉	-10.3592
鑄	-10.3592
墾	-10.3593
揔	-10.3593
播	-10.3593
穆公	-10.3593
寒暑	-10.3593
佛	-10.3594
齊語作	-10.3594
若流水	-10.3594
竪刁	-10.3594
異也	-10.3594
㢮	-10.3595
曄	-10.3595
濕	-10.3595
耻	-10.3595
秀	-10.3596
捜	-10.3597
郊	-10.3597
贏	-10.3598
􁇫	-10.3598
豹	-10.3598
蒙	-10.3599
躬	-10.3599
峻	-10.3599
竇	-10.36
喚	-10.36
燥	-10.36
詐偽	-10.3601
豆	-10.3602
驢	-10.3602
迷惑	-10.3602
負海	-10.3602
戲	-10.3603
店	-10.3603
翁歸	-10.3604
桓公問管子曰	-10.3605
千鍾	-10.3606
勸勉	-10.3607
橐	-10.3607
折獄	-10.3609
侈靡	-10.3613
勞苦	-10.3613
于公	-10.3619
一事	-10.362
是以明君	-10.3622
東鄰	-10.3622
卑賤	-10.3624
五味	-10.3625
子雲	-10.3626
昭公	-10.3627
賞者	-10.3628
起而	-10.3633
於韓	-10.3635
短兵	-10.364
第四	-10.3642
一作	-10.3643
傷人	-10.3645
愚智	-10.3645
精也	-10.3646
郄子	-10.3656
襄王	-10.3657
子良	-10.3657
天地之道	-10.3662
即位	-10.3663
於君也	-10.3667
權勢	-10.3677
州里	-10.3685
形容	-10.3688
當作	-10.3701
物色	-10.3702
引之	-10.3705
次日	-10.3706
則令不行	-10.3713
魯君	-10.3715
而朝	-10.3724
費用	-10.3732
為主	-10.3735
果得	-10.3747
上下相	-10.3755
計數	-10.3756
之可也	-10.3757
後魏	-10.3765
八十	-10.3768
主父	-10.3792
則人主	-10.3794
此事	-10.3794
任力	-10.3796
過者	-10.3798
未及	-10.3815
明年	-10.3832
政也	-10.3832
得此	-10.3835
而責	-10.3839
死節	-10.3841
雖復	-10.3847
賢士	-10.3848
之性	-10.385
天下諸侯	-10.3853
死於	-10.3853
恃其	-10.3867
曰若	-10.3876
應之	-10.3879
而多	-10.3886
得其實	-10.3893
之義也	-10.3901
賞不	-10.3903
服之	-10.3903
器用	-10.3931
至于	-10.3937
加於	-10.3944
惡也	-10.3946
今以	-10.3948
千里之	-10.3948
教民	-10.395
孰能	-10.395
輕罪	-10.3954
者是	-10.3954
荆人	-10.3962
而令行	-10.3965
可也	-10.397
予人	-10.397
有度	-10.3982
為常	-10.3987
既成	-10.3989
徳義	-10.3992
在外	-10.3998
非有	-10.4006
以情	-10.4019
彊者	-10.4019
此四	-10.402
應也	-10.4028
爵尊	-10.4028
訴於	-10.4057
其官	-10.4057
功成	-10.4063
韓子	-10.4064
之不可	-10.4067
則天	-10.4067
於家	-10.4069
其欲	-10.4071
獨行	-10.4071
者君	-10.408
車馬	-10.4088
者雖	-10.4091
明主者	-10.4109
未知	-10.4124
能守	-10.4147
欽定四庫全書管子補注卷	-10.415
罰也	-10.4156
立私	-10.416
國之所以	-10.4163
外事	-10.4166
善惡	-10.4167
者知	-10.4177
教者	-10.4187
秦王	-10.4189
肯	-10.4202
道法	-10.4212
財而	-10.4221
行令	-10.424
二三	-10.4243
耕者	-10.4245
賢能	-10.4248
也彼	-10.4249
之妻	-10.4253
可以得	-10.4255
君之所	-10.4256
上賢	-10.4263
則危	-10.4274
無姦	-10.4289
三國	-10.4291
而不敢	-10.4292
無實	-10.4297
利在	-10.4302
公乃	-10.4319
無怨	-10.4323
而人主	-10.4355
分民	-10.4365
易知	-10.4369
之官也	-10.4381
壬	-10.4388
不計	-10.4389
以聞	-10.4404
疇	-10.4406
念	-10.4406
沐	-10.4408
桃	-10.441
豊	-10.441
㒺	-10.4412
堤	-10.4413
頸	-10.4413
府庫	-10.4413
誓	-10.4414
則私	-10.4414
僚	-10.4415
贅	-10.4416
講	-10.4416
尅	-10.4416
秉	-10.4417
寓	-10.4417
弛	-10.4417
尼	-10.4417
葛	-10.4418
棟	-10.4418
􁀙	-10.4418
逢	-10.4419
香	-10.4419
蛇	-10.442
含	-10.442
晩	-10.442
黑	-10.442
英	-10.4421
財貨	-10.4421
縳	-10.4421
􁁊	-10.4421
題	-10.4422
僅	-10.4422
壁	-10.4423
突	-10.4423
輟	-10.4423
岀	-10.4423
獵	-10.4424
賴	-10.4424
遮	-10.4424
董	-10.4424
减	-10.4424
增	-10.4425
醜	-10.4425
隐	-10.4425
脊	-10.4425
童	-10.4425
曠	-10.4425
幷	-10.4425
憾	-10.4426
賞罰不信	-10.4427
淮	-10.4427
􁒾	-10.4427
擿	-10.4427
封泰山禪云云	-10.4427
戯	-10.4428
創	-10.4428
斃	-10.4428
椽	-10.4428
激	-10.4428
𤣥	-10.4428
幸免	-10.4428
藝	-10.4429
糞	-10.4429
羅	-10.4429
七十二日而畢	-10.443
圎	-10.443
隋	-10.443
淸	-10.443
圜	-10.443
倫	-10.4431
丁氏	-10.4432
嫌	-10.4432
墆	-10.4432
雜篇	-10.4433
伹	-10.4433
坐長而	-10.4433
嘆	-10.4434
出南史	-10.4434
奸	-10.4434
膺	-10.4436
潘	-10.4436
貧窮	-10.4438
宴	-10.4438
彭生	-10.4439
禺	-10.444
㫖	-10.4441
蓄積	-10.4442
黃帝	-10.4442
事附	-10.4445
擿姦	-10.4445
朗	-10.4446
整齊	-10.4446
警	-10.4447
生鹿	-10.4448
嗣公	-10.4449
亂之本也	-10.4449
施伯	-10.445
尊顯	-10.4451
以資	-10.4451
孫也舊集不載	-10.4457
昭王	-10.446
大人	-10.4464
則見以為	-10.4465
有六	-10.4465
公孫	-10.4467
寡婦	-10.4467
亂國	-10.4471
隨之	-10.4475
末作	-10.4478
東方	-10.4478
是故明君	-10.448
自見	-10.4482
此數	-10.4484
殺生	-10.4484
百倍	-10.449
子必	-10.4492
可知	-10.4496
聞之曰	-10.4497
賞之	-10.4502
卿相	-10.4508
大驚	-10.4514
時雨	-10.4516
下於	-10.4518
短語十	-10.452
貧富	-10.4521
相望	-10.4525
不能相	-10.4528
名實	-10.4533
孔子曰	-10.4534
主者	-10.4535
者幾何	-10.4535
循理	-10.4538
五色	-10.4542
者上	-10.4559
忠也	-10.4564
田成	-10.4575
之精	-10.4578
魯人	-10.4583
三晉	-10.4585
言談	-10.4609
湯武之	-10.4623
少者	-10.4641
於魯	-10.4658
定矣	-10.4663
不可謂	-10.4688
家人	-10.4688
給事	-10.4697
之際	-10.4707
民務	-10.4715
令必	-10.473
多寡	-10.4732
示之	-10.4734
己也	-10.4735
以制	-10.4737
命之	-10.474
後可以	-10.4747
為盜	-10.4749
禁也	-10.4758
經言	-10.4762
兩用	-10.4774
鼓之	-10.4777
旣成	-10.4796
舍人	-10.4804
不受也	-10.4809
民毋	-10.4815
富之	-10.4834
商君	-10.4835
近也	-10.4836
不擇	-10.4846
治國者	-10.4861
不濟	-10.4861
商賈	-10.4861
則難	-10.4863
其兄	-10.4863
何所	-10.4872
無聲	-10.4877
重刑	-10.4889
則人不	-10.4904
能者	-10.4907
一朝	-10.4908
必多	-10.4914
私議	-10.4931
不得不	-10.4933
而行之	-10.4936
謹於	-10.4942
其次	-10.4942
其始	-10.4947
則衆	-10.4948
期於	-10.4956
不欺	-10.496
重罪	-10.4975
於天	-10.4987
者殆	-10.4997
於子	-10.5004
靜則	-10.5016
數矣	-10.5026
入見	-10.503
釋之	-10.5036
者聖王之禁也	-10.5043
力盡	-10.5055
之食	-10.5058
豈可	-10.5063
無功者	-10.5074
盜者	-10.5078
迫	-10.508
無功而	-10.5098
矣且	-10.5098
之交	-10.511
為首	-10.5157
不進	-10.5164
也豈	-10.5166
糴	-10.517
棄其	-10.5185
義故	-10.5205
而退	-10.5207
集於	-10.5226
古人	-10.525
而弗	-10.5254
賢也	-10.5254
反其	-10.5263
旻	-10.5267
無用之	-10.5277
不殺	-10.5282
以幣	-10.5289
逐之	-10.529
人不能	-10.5301
懦	-10.5304
臞	-10.5304
闚	-10.5305
驥	-10.5306
四人	-10.5312
技	-10.5315
簿	-10.5317
旋	-10.5317
其職	-10.532
寫	-10.532
宛	-10.5321
倉廩	-10.5321
匹	-10.5322
彦超	-10.5322
谿	-10.5322
晚	-10.5323
徼	-10.5324
玊	-10.5324
猛毅	-10.5324
墓	-10.5326
有徳	-10.5326
屢	-10.5326
觳	-10.5326
殉	-10.5327
裘	-10.5327
隔	-10.5327
龎	-10.5327
員	-10.5328
絜	-10.5329
跡	-10.533
阻	-10.533
懲	-10.533
𥙷	-10.533
驩	-10.533
侍郎	-10.5331
黙	-10.5331
沃	-10.5331
縷	-10.5332
佼	-10.5332
卜筮	-10.5332
竈	-10.5332
盧	-10.5332
苗	-10.5332
封禪	-10.5332
敺	-10.5332
惕	-10.5333
迂	-10.5333
䖏	-10.5333
駭	-10.5333
松	-10.5334
歷	-10.5334
裏	-10.5334
貯	-10.5334
窌	-10.5334
刈	-10.5335
舊不著出處	-10.5335
逰	-10.5335
粮	-10.5336
遏	-10.5336
曼	-10.5336
肘	-10.5337
舞	-10.5337
纔	-10.5337
史本傳	-10.5337
鉤	-10.5337
恬	-10.5337
幕	-10.5338
苞	-10.5338
六蝨	-10.5338
銷	-10.5338
通判	-10.5338
慰	-10.5339
影	-10.5339
俞	-10.5339
祈福	-10.5339
犧牲	-10.534
逼	-10.534
沆	-10.5341
舌	-10.5342
舊集	-10.5342
補注卷	-10.5342
四肢	-10.5343
主簿	-10.5343
之類也	-10.5343
其說在	-10.5343
寇	-10.5344
輦	-10.5344
器械	-10.5345
梏	-10.5345
韋	-10.5348
𣏌	-10.5349
目視	-10.5349
两	-10.535
方圓	-10.5352
棄市	-10.5353
若何管子對曰	-10.5355
籠	-10.5356
粟米	-10.5356
獄訟	-10.5359
九章	-10.5361
布衣	-10.5364
則謂之	-10.5369
堂下	-10.5369
教之	-10.5371
金玉	-10.5374
西方	-10.5378
定社稷	-10.5382
民萌	-10.5383
金錢	-10.5384
疾也	-10.5385
術也	-10.5385
鄭人	-10.5392
設備	-10.5393
三族	-10.5394
言能	-10.54
具獄	-10.5401
寳也	-10.5402
惡之	-10.5402
無用	-10.5404
堅固	-10.5408
隂氣	-10.5411
輕重之數	-10.5411
長者	-10.5411
之所加	-10.5416
神農	-10.542
智伯	-10.5422
法式	-10.5422
滿虚	-10.5424
小臣	-10.5426
執其	-10.5428
貴臣	-10.5429
益也	-10.5432
理故	-10.5433
曰今日	-10.5434
而發	-10.5442
不測	-10.5455
强弱	-10.5456
務農	-10.5457
法行	-10.5464
今人主	-10.5466
曰今	-10.5467
五聲	-10.547
美惡	-10.5476
罪者	-10.5479
四極	-10.5483
不適	-10.5484
所長	-10.5486
能盡	-10.5493
○○	-10.5496
所聞	-10.5509
請使	-10.5509
行法	-10.551
以動	-10.5512
能使	-10.5521
楚人	-10.5528
如神	-10.5539
乎對曰	-10.554
之聲	-10.5559
强而	-10.5565
怒而	-10.5565
而禮之	-10.5574
韓非	-10.5592
於天地	-10.5604
大怒	-10.5618
而誅之	-10.5623
則邪	-10.5624
眀主	-10.5634
不容	-10.5635
不仕	-10.564
夫婦	-10.5647
適子	-10.5657
然後知	-10.5659
人多	-10.5671
以至	-10.5672
人主之所以	-10.5672
神道	-10.5682
之所生也	-10.5696
在上位	-10.5699
則刑	-10.57
為下	-10.5701
長吏	-10.5706
堯舜之	-10.5727
告者	-10.5728
天下也	-10.5732
事不成	-10.5732
情實	-10.5735
之時也	-10.574
萬事	-10.5748
而奪之	-10.5749
未盡	-10.5749
吏民	-10.5751
有罪者	-10.5754
立而	-10.5761
之色	-10.5781
臣故曰	-10.5788
謂曰	-10.5797
男子	-10.5797
得罪	-10.5797
者民之	-10.5798
死則	-10.5799
西河	-10.58
無他	-10.5804
位而	-10.5806
二人者	-10.5819
不撓	-10.5822
順於	-10.5828
無術以	-10.5832
公正	-10.5835
日至	-10.5842
不重	-10.5847
雖多	-10.5851
左右曰	-10.5866
也公曰	-10.5868
而致	-10.587
河東	-10.5873
行賞	-10.5877
鄭君	-10.5879
而務	-10.5885
制度	-10.5894
夫妻	-10.5895
而不得	-10.5903
者莫如	-10.5905
爲上	-10.5921
其外	-10.5928
水中	-10.5935
雖曰	-10.5941
之都	-10.5949
受禄	-10.595
以恩	-10.5951
績按當	-10.5961
無成	-10.5978
度也	-10.5979
故其民	-10.598
曰諾	-10.5981
知之故	-10.5981
勇者	-10.6011
行成	-10.6022
矣君	-10.6041
公曰吾	-10.6048
使君	-10.6058
搜	-10.6059
傷民	-10.6067
有功則	-10.6089
其術	-10.609
三年而	-10.6094
故羣臣	-10.6104
當今	-10.6105
君不如	-10.6106
亂亡	-10.6107
驗之	-10.6108
士之	-10.611
大明	-10.613
人旣	-10.6144
議者	-10.6159
者不可以	-10.6163
權重	-10.6182
不能用	-10.6187
私利	-10.619
樞	-10.6192
阿	-10.6199
孝公	-10.62
君因	-10.621
人力	-10.6213
已乎	-10.6216
謂君	-10.6233
所見	-10.6233
民用	-10.6235
乃得	-10.6249
髙其	-10.625
中正	-10.6253
其手	-10.6256
之民也	-10.6257
參軍	-10.626
非獨	-10.6266
且以	-10.6267
不泄	-10.6271
在乎	-10.628
國用	-10.6283
郄	-10.6291
失道	-10.6293
覇	-10.6293
甘茂	-10.6299
緡	-10.6303
賕	-10.6307
佩	-10.6309
坎	-10.631
昨	-10.6312
死人	-10.6314
賔胥無	-10.6315
渴	-10.6316
碑	-10.6317
邀	-10.6318
釁	-10.6318
死生	-10.6319
渙	-10.632
劇	-10.6321
中寢諸子	-10.6321
輪	-10.6321
敏	-10.6321
苖	-10.6322
賓	-10.6322
瑞	-10.6322
鮑	-10.6322
膚	-10.6322
𨽻	-10.6323
鄴	-10.6323
見王安石丞	-10.6324
妬	-10.6324
殿	-10.6324
贊	-10.6324
鴻鵠	-10.6325
竅	-10.6325
步	-10.6325
盥	-10.6325
肌膚	-10.6326
蟻	-10.6327
欽定四庫全書疑獄集卷	-10.6328
尺寸	-10.6328
壘	-10.6328
蠧	-10.6329
捫	-10.6329
肱	-10.6329
緒	-10.6329
逄	-10.6329
渡	-10.633
可不	-10.633
苑	-10.6331
鮮	-10.6331
啓	-10.6331
勒	-10.6331
捐	-10.6331
艾	-10.6331
津	-10.6331
弩	-10.6332
葦	-10.6332
超	-10.6332
傭	-10.6333
數十人	-10.6333
胸	-10.6333
課	-10.6333
袴	-10.6333
牙	-10.6333
疑獄集卷	-10.6333
罔	-10.6334
菑	-10.6334
愕	-10.6335
玄	-10.6335
㑹諸侯令曰	-10.6335
何以知其然	-10.6335
漫	-10.6335
氓	-10.6335
惜	-10.6336
卵	-10.6336
涉	-10.6336
䑓	-10.6336
鮑叔牙	-10.6336
俊	-10.6336
回	-10.6336
墾草	-10.6337
頼	-10.6337
恠	-10.6337
隳	-10.6337
綈	-10.6337
晨	-10.6338
鳬	-10.6338
績按别本註	-10.6338
稱貸之家	-10.6338
春秋冬夏	-10.6338
緫	-10.6338
鏡	-10.6339
橋	-10.6339
篋	-10.6339
柰何	-10.6339
何哉	-10.634
慈惠	-10.634
京師	-10.634
參伍	-10.6341
召管子而問曰	-10.6341
踐位	-10.6341
牀	-10.6341
允濟	-10.6342
公子糺	-10.6342
寜	-10.6342
唱	-10.6344
属	-10.6344
㓂	-10.6344
二千	-10.6345
恭敬	-10.6345
莖	-10.6345
狼	-10.6347
姥	-10.6347
柰何管子對曰	-10.6347
聴之	-10.6348
田成子	-10.6351
孤竹	-10.6351
逆旅	-10.6351
屯	-10.6352
而不解則	-10.6353
二事附	-10.6354
參驗	-10.6354
壏	-10.6354
吏嗇夫	-10.6354
染	-10.6355
浴	-10.6358
嫡子	-10.6361
軒	-10.6362
而可管子對曰	-10.6363
佚樂	-10.6365
夘	-10.6366
刑部	-10.6366
其聲	-10.6368
久矣	-10.6368
宥過	-10.637
必治	-10.6371
長短	-10.6372
不直則	-10.6381
未見	-10.6383
西山	-10.6384
帝王之	-10.6384
歸於上	-10.6385
管仲曰不可	-10.6385
主道	-10.6387
稱量	-10.639
而笑	-10.639
得不死	-10.6394
廢置	-10.6395
北方	-10.6398
再三	-10.6399
所宜	-10.6401
五百里	-10.6402
益其	-10.6403
精神	-10.6404
賢良	-10.6405
慈於	-10.6415
可立而	-10.6415
國富而	-10.6415
桓公曰寡人	-10.6415
秦韓	-10.6419
貨賂	-10.6421
勇力	-10.6425
文武	-10.6425
黄門	-10.6428
第七	-10.6431
三公	-10.6432
大准	-10.6433
能致	-10.6437
庶子	-10.6443
境内之民	-10.645
之於其所	-10.646
故君子	-10.6465
令不行	-10.6467
曰公	-10.647
天后	-10.6474
草名	-10.6476
尚有	-10.6483
未起	-10.6483
著明	-10.649
誣告	-10.6494
名譽	-10.6498
者少	-10.6506
彊兵	-10.6515
競於	-10.6516
何待	-10.6518
相齊	-10.6518
是故先王	-10.6519
所以然者	-10.6522
記曰	-10.653
而王	-10.6532
臣主之	-10.6534
有形	-10.6538
臣斯	-10.6539
故兵	-10.6541
有國者	-10.6544
大姓	-10.6545
動靜	-10.6547
軍士	-10.6548
一宿	-10.656
其書	-10.656
美名	-10.6562
凡聽	-10.6566
為名	-10.6566
公曰諾	-10.6567
此五	-10.6569
不知也	-10.6569
五代	-10.6576
人既	-10.6578
簡主	-10.6578
分財	-10.6592
聖人者	-10.6596
人之言	-10.6608
正法	-10.661
性也	-10.662
息也	-10.6621
卜者	-10.6622
歎曰	-10.6624
出言	-10.6635
一月	-10.6636
必死	-10.6655
天下之大	-10.6674
吾子	-10.668
妄行	-10.6681
必將	-10.669
死矣	-10.6691
宣王	-10.6692
滿則	-10.6695
刑德	-10.6697
是為	-10.6702
當世之	-10.6702
然後能	-10.6706
有寵	-10.6708
不更	-10.6709
身善	-10.6735
固然	-10.6738
鑿之	-10.6738
逺矣	-10.6744
擊之	-10.6755
富也	-10.676
和則	-10.6761
進也	-10.677
不可以無	-10.6771
以義	-10.6773
主卑	-10.6777
之謀也	-10.6781
勞而不	-10.6798
死力	-10.6806
售	-10.6812
成羣	-10.6817
可以王	-10.6817
禮而	-10.6817
貴重	-10.6823
吾所	-10.6825
牧之	-10.6834
不侵	-10.6839
勢重	-10.6844
何若	-10.6849
就爲	-10.6849
所以治	-10.6852
而民從	-10.6864
爲國者	-10.6867
人民	-10.6875
自言	-10.6903
必致	-10.6922
以合	-10.6926
而寄	-10.6932
别也	-10.6946
爲下	-10.6953
不足也	-10.6956
之衆	-10.6962
以行	-10.6971
宜也	-10.6973
商賈之	-10.6978
服行	-10.6985
無妻	-10.6995
地廣	-10.7006
而走	-10.7012
得勝	-10.7012
先自	-10.7019
失時	-10.7025
陳其	-10.7027
有疑	-10.7033
大敗	-10.7034
至死	-10.7065
愛子	-10.7071
第八	-10.7072
且至	-10.7073
周主	-10.7076
道徳	-10.7078
縣吏	-10.7092
以生	-10.7097
無失	-10.711
其業	-10.713
要在	-10.7135
道也者	-10.7136
歎	-10.7145
也桓公曰	-10.7151
所以起	-10.7171
使天下	-10.7172
和乃	-10.7173
故得	-10.7179
迎之	-10.718
不免於	-10.7184
不類	-10.7202
未能	-10.7203
有二	-10.7205
謂從	-10.7212
大臣之	-10.7224
甚矣	-10.7232
乃服	-10.724
然則國	-10.7247
不得見	-10.7268
關市	-10.7281
無敢	-10.7294
在前	-10.7297
者一人	-10.7303
欲治	-10.731
官而	-10.7312
井中	-10.7314
自首	-10.7331
斷事	-10.7349
故曰欲	-10.7351
第五	-10.7357
殺人者	-10.7369
一國之	-10.7369
其君者也	-10.7397
巵	-10.74
酒食	-10.7402
量其	-10.7403
私惠	-10.7407
武賽賽	-10.7411
雞	-10.7412
妨	-10.7413
炙	-10.7414
而舉之	-10.7415
鍇	-10.7415
枚	-10.7419
公曰然則	-10.7419
濟陽君	-10.742
奴	-10.7421
之所不能	-10.7422
抵罪	-10.7426
疵	-10.7426
虢	-10.743
江淮	-10.743
緯	-10.743
悍	-10.7431
傍	-10.7432
刖	-10.7432
其族	-10.7432
排	-10.7433
者未之有也	-10.7433
尾	-10.7434
盲	-10.7434
鉅	-10.7435
緣	-10.7435
綴	-10.7435
稟	-10.7435
渇	-10.7436
愿	-10.7438
摘	-10.7438
耗	-10.7438
田成氏	-10.7438
冒	-10.7439
徇	-10.7439
鄊	-10.7439
彰	-10.7439
麟	-10.7439
組	-10.744
腐	-10.744
垣	-10.744
格	-10.7441
胷	-10.7441
矦	-10.7441
憚	-10.7441
舉大事	-10.7442
稼	-10.7442
雚	-10.7442
芻	-10.7442
蜀	-10.7442
頌	-10.7443
倦	-10.7443
謾	-10.7443
令行禁止	-10.7443
薛公	-10.7443
若非	-10.7443
拷掠	-10.7444
霜	-10.7444
漂	-10.7444
煬	-10.7444
管夷吾	-10.7444
冝也	-10.7444
窘	-10.7445
脆	-10.7445
民之所惡也	-10.7445
宋鄭克撰	-10.7445
諛	-10.7445
瀷	-10.7445
換	-10.7446
冡	-10.7446
筮	-10.7446
蠶	-10.7446
雙	-10.7446
桓公問管子曰請問	-10.7446
消	-10.7446
鑚	-10.7447
概	-10.7447
以實	-10.7447
妹	-10.7447
洛	-10.7447
廣漢	-10.7447
菽粟	-10.7448
諷	-10.7448
吐	-10.7449
拊	-10.745
四封之内	-10.745
㓗	-10.745
靴	-10.745
闔	-10.7451
黎	-10.7451
暢	-10.7451
一本作	-10.7451
孩	-10.7451
裂	-10.7451
殫	-10.7452
下怨上	-10.7452
日月之明	-10.7452
裝	-10.7452
溝瀆	-10.7452
蔵	-10.7452
盤	-10.7452
行岌	-10.7452
許由	-10.7453
亾	-10.7453
譬猶	-10.7453
夾	-10.7453
闘	-10.7453
珍	-10.7453
莊遵	-10.7453
易牙	-10.7454
誹	-10.7454
邇	-10.7454
扼	-10.7454
勅	-10.7454
為人所殺	-10.7454
湛	-10.7454
牲	-10.7455
箕	-10.7455
諺曰	-10.7455
淳	-10.7456
鞠	-10.7457
遷徙	-10.7457
考掠	-10.7458
縑	-10.7459
發號出令	-10.746
𢎞	-10.746
輕重之	-10.7461
傅小白	-10.7461
不可得泉	-10.7462
股	-10.7462
雀	-10.7462
羡	-10.7462
詩書	-10.7462
晉文公	-10.7463
發其	-10.7463
嘗試	-10.7464
二三子	-10.7464
蘭	-10.7465
乃取	-10.7465
加之	-10.7466
李兊	-10.7466
必有所	-10.7467
水潦	-10.7468
醎	-10.7469
元濟	-10.747
構	-10.7471
國之形也	-10.7471
山林	-10.7472
樹木	-10.7473
太祖	-10.7474
趙氏	-10.7474
睦	-10.7475
其間	-10.7475
喜怒	-10.7475
元素	-10.7478
鞫情	-10.7479
未可知也	-10.748
覇王	-10.7481
水旱	-10.7481
其徒	-10.7482
閉藏	-10.7483
選賢	-10.7485
國小而	-10.7485
嶺	-10.7485
盖以	-10.7485
羣臣百姓	-10.7492
必明	-10.7492
少卿	-10.7498
法當死	-10.7499
辨誣	-10.75
二千里	-10.7501
終嵗	-10.7501
嚴誅	-10.7504
有餘食	-10.7505
損益	-10.751
乘之國	-10.7511
野戰	-10.7513
行刑	-10.7514
可得乎	-10.7515
獄具	-10.7518
立也	-10.7518
老弱	-10.7518
出號令	-10.7519
貧則	-10.7521
取於民	-10.7522
五事	-10.7525
白馬	-10.7527
霸諸侯	-10.7529
周氏	-10.7529
四海	-10.7532
與兒	-10.7532
有八	-10.7536
深文	-10.7538
察獄	-10.7542
水火	-10.7553
擒之	-10.7561
求其	-10.7565
五月	-10.7567
送官	-10.7569
出乎	-10.758
治而	-10.758
為句	-10.759
日益	-10.759
大雨	-10.7596
民知	-10.7596
泣曰	-10.7597
去就	-10.7601
開封	-10.7606
守備	-10.7619
令者死	-10.7619
伏法	-10.7619
盗者	-10.7621
弑其君	-10.7622
此六	-10.7625
家富	-10.7626
各以其	-10.7635
莫知	-10.7637
居也	-10.7645
獄成	-10.7647
五屬	-10.7655
則萬物	-10.7656
徐州	-10.7659
於庭	-10.766
非特	-10.7662
之日	-10.7663
甚衆	-10.7663
則多	-10.7664
衰矣	-10.7667
民衆而	-10.7668
匠人	-10.7669
不可與	-10.7683
德行	-10.7684
室屋	-10.7684
於是乎	-10.7687
相室	-10.7687
有福	-10.7693
也民之	-10.7709
於衆	-10.7719
曰吾聞	-10.7733
妄言	-10.7742
經也	-10.7746
而物	-10.7748
不載	-10.7754
百日	-10.7762
五藏	-10.7767
不可欺	-10.7772
諸生	-10.7781
情理	-10.779
死于	-10.7794
於四方	-10.7799
農民	-10.7803
已定	-10.7804
强兵	-10.7805
寡人欲	-10.7811
國常	-10.7822
疏逺	-10.7831
晉公	-10.7835
貴富	-10.7836
富國	-10.7837
后可以	-10.7838
赦罪	-10.7842
四年	-10.7843
兵法	-10.7846
不著	-10.7852
而驕	-10.787
州部	-10.7892
萬世	-10.7892
託於	-10.7895
市者	-10.7906
道德	-10.7908
罪死	-10.7928
所以亂	-10.7935
離法而	-10.7941
是皆	-10.7945
事上	-10.7953
可行	-10.7965
則民輕	-10.7973
而民自	-10.7989
國之重	-10.799
矣公曰	-10.8002
首服	-10.8017
可久	-10.8023
處士	-10.8027
有積	-10.8027
衛人	-10.8032
井也	-10.8039
不須	-10.8057
禄賞	-10.8068
是猶	-10.8074
知吾	-10.8079
在内	-10.8088
則無以	-10.8089
民家	-10.8105
求得	-10.8105
有善者	-10.8106
刑殺	-10.8126
賞有功	-10.8137
聽從	-10.8143
積之	-10.8153
為幣	-10.8156
於趙	-10.819
傷國	-10.8202
出唐書	-10.8223
桓公問	-10.8225
欽定四庫全書韓非子卷十	-10.8242
白公	-10.825
不塞	-10.8254
不煩	-10.8258
既已	-10.8262
人爭	-10.8263
公問	-10.8271
而去之	-10.8276
何人	-10.8276
君則不然	-10.8291
外權	-10.8291
之用也	-10.8296
三千	-10.831
功立	-10.8313
非常	-10.8317
嘗為	-10.8332
境内之	-10.8336
六曰	-10.8337
民之情	-10.8337
不驕	-10.8347
處死	-10.8368
於民也	-10.8372
為國者	-10.8391
其計	-10.8398
必强	-10.8417
受賕	-10.8446
功多	-10.8459
吏卒	-10.8469
遂與	-10.8472
道術	-10.8505
所以成	-10.8509
行徳	-10.8558
人主失	-10.8572
世之所	-10.8573
周公旦	-10.8606
之勢也	-10.862
公孫鞅	-10.8621
夭	-10.8637
堂谿公	-10.8653
彭	-10.8657
滌	-10.8661
岳	-10.8663
救火者	-10.8666
樊	-10.8667
太公望	-10.8667
顓	-10.8671
也雖然	-10.8672
你	-10.8672
楯	-10.8672
臭	-10.8673
公子糾	-10.8673
立政	-10.8674
不亦可乎	-10.8676
治强	-10.8676
譬	-10.8677
順天	-10.8677
猾	-10.8677
柙	-10.8678
玩	-10.8679
控	-10.8679
者主之所	-10.8679
埋	-10.8679
巾	-10.868
璞	-10.868
慶賓	-10.8681
恚	-10.8681
憤	-10.8682
其木乃	-10.8682
訛	-10.8682
陣	-10.8683
檄	-10.8683
寐	-10.8683
豎刁	-10.8683
繩之外	-10.8684
挫	-10.8684
不可得也凡牧民者欲民之有	-10.8684
吹	-10.8684
返	-10.8685
慤	-10.8685
所撰墓	-10.8685
了	-10.8685
髮	-10.8685
棠隂比事	-10.8686
鬲	-10.8686
旌	-10.8686
於國而求百姓之行大	-10.8686
俟	-10.8687
占	-10.8687
欽	-10.8687
千乘之國	-10.8687
潦	-10.8687
竹	-10.8687
棘	-10.8688
轅	-10.8688
放此	-10.8688
班	-10.8688
懾	-10.8688
釘	-10.8688
章則行	-10.8688
勾踐	-10.8688
道正者不安	-10.8689
瞽	-10.8689
嗟	-10.8689
監司	-10.869
欽定四庫全書折獄龜鑑卷	-10.869
姊	-10.869
衫	-10.869
塵	-10.869
櫓	-10.869
涕	-10.869
謳	-10.869
者言依於	-10.8691
挈	-10.8691
狥	-10.8691
油	-10.8691
臣不如也	-10.8691
擔	-10.8691
祈	-10.8692
兇	-10.8692
誦	-10.8692
跖	-10.8692
踦	-10.8692
駁	-10.8692
琚	-10.8693
文采	-10.8693
浙	-10.8693
陋	-10.8693
賦歛	-10.8693
卯	-10.8693
國之危也	-10.8693
壇	-10.8693
斛	-10.8693
萃	-10.8693
讞	-10.8693
斧鉞	-10.8694
酬	-10.8694
終而復始	-10.8694
鳯	-10.8694
兄之教不肅而成其子弟之學不勞而能	-10.8694
吏捕	-10.8694
没	-10.8694
隘	-10.8695
少而習焉其心安焉不見異物而遷焉	-10.8695
署	-10.8695
詛	-10.8695
豕	-10.8695
鋸	-10.8695
債	-10.8695
軍旅	-10.8695
朞年	-10.8695
耀	-10.8695
券	-10.8695
見懲惡門	-10.8696
遞	-10.8696
樹蓺	-10.8696
膳	-10.8696
係	-10.8697
偷取一	-10.8697
廣狹	-10.8697
薦草	-10.8697
求狐白之皮	-10.8697
萊莒之	-10.8697
縫	-10.8698
探	-10.8698
耆	-10.8698
蔡嫗	-10.8698
不失其常則	-10.8698
酌	-10.8698
鄭克評曰	-10.8698
而莫之能	-10.8698
霧	-10.8699
壙	-10.8699
儲	-10.8699
杯	-10.8699
君臣上下之	-10.8699
摽	-10.8699
普	-10.8699
遬	-10.8699
陂	-10.87
財用足	-10.87
麥	-10.87
封泰山禪	-10.87
而貴	-10.87
為之奈何	-10.87
遜	-10.87
壺	-10.87
抗	-10.87
歎服	-10.87
野不辟	-10.87
勤於兵	-10.87
翳	-10.8701
棺槨	-10.8701
爨	-10.8701
食其稱貸之家	-10.8701
北郭	-10.8701
昧	-10.8701
褒	-10.8701
軒冕	-10.8701
浟	-10.8701
波	-10.8702
一舉而	-10.8703
睹	-10.8703
第二	-10.8703
局	-10.8703
㨗	-10.8704
績按此釋	-10.8704
終日不歸	-10.8704
䕶	-10.8704
甯戚	-10.8704
社稷宗廟	-10.8704
跀	-10.8705
科	-10.8705
之儀表也	-10.8705
愎	-10.8705
政不禁則	-10.8705
者比於	-10.8705
韓昭侯	-10.8705
洋	-10.8706
鈔	-10.8706
雍季	-10.8706
絹	-10.8706
櫄	-10.8707
其氣曰	-10.8707
混	-10.8707
矣桓公曰	-10.8707
覘	-10.8708
儻	-10.8708
為人上者	-10.8708
栁渾	-10.8709
孤寡	-10.8709
宗元	-10.8709
維絶則	-10.871
捷	-10.871
者凡國都皆有掌	-10.871
轎	-10.871
熊	-10.871
驛	-10.8711
十餘年	-10.8711
健	-10.8711
韕	-10.8711
離枝	-10.8711
遭	-10.8712
仇讎	-10.8712
菹	-10.8712
繼母	-10.8713
務在	-10.8713
之終始	-10.8715
張詠	-10.8715
百里之地	-10.8715
南面	-10.8716
真盗	-10.8718
填	-10.8718
臯	-10.872
將有行	-10.872
管仲隰朋	-10.872
管子解	-10.8721
判官	-10.8722
明主之治也	-10.8725
并兼	-10.8726
里尉	-10.8728
子貢	-10.8728
良久	-10.8728
燕代	-10.873
曲直	-10.873
財匱	-10.8732
故先王貴	-10.8733
為人君者	-10.8733
山川	-10.8734
之守在	-10.8734
群臣	-10.8734
管仲又請	-10.8736
社䑕	-10.8736
不可不審	-10.8736
江西	-10.8739
獻公	-10.8739
商工	-10.8742
靖郭君	-10.8744
譎賊	-10.8744
山海	-10.8746
敬老	-10.8746
之充也	-10.8749
迹賊	-10.8749
山陵	-10.8749
告事者	-10.875
人臣之所以	-10.8754
被盜	-10.8756
兵革	-10.8756
上下和	-10.8756
孝婦	-10.8757
寡者其	-10.8757
其種大	-10.8757
百匿	-10.8769
四固	-10.8772
食鹽	-10.8773
遣吏	-10.8773
神聖	-10.8774
長史	-10.8775
襄主	-10.8778
法而治	-10.8781
相繼	-10.8787
慶賞	-10.8789
婦女	-10.879
十倍其賈	-10.8793
精氣	-10.8794
斷獄	-10.8794
楚金	-10.8795
尊位	-10.8797
先定	-10.8797
一夕	-10.8798
其時曰	-10.8801
兵甲	-10.8809
不為愛	-10.8809
方城	-10.881
十錢	-10.8811
難得	-10.8811
取舍	-10.8811
茍且	-10.8813
疑獄	-10.8814
謂其地	-10.8818
勇士	-10.882
獨斷	-10.8826
易位	-10.8831
察賊	-10.8833
捕繫	-10.8835
吳王	-10.8839
公仲	-10.8843
可食	-10.8844
計謀	-10.8847
化變	-10.8851
申子	-10.8858
將何以	-10.8861
正月	-10.8862
九州	-10.8864
能成其	-10.8872
借人	-10.8872
不能决	-10.8873
列地	-10.8873
張舉	-10.8878
失有罪	-10.8879
既布	-10.8891
無貲	-10.8894
者命曰	-10.8903
具服	-10.8903
即前	-10.8903
刼殺	-10.8905
禍亂	-10.8905
或云	-10.8905
矣凡	-10.8917
訊之果	-10.892
天下之衆	-10.892
安得無	-10.8921
小說	-10.8927
而不知所	-10.8936
深察	-10.8937
燕王曰	-10.8939
以勸民	-10.8943
未定	-10.8947
進士	-10.897
獲盗	-10.8974
遂釋	-10.8978
以為神	-10.8978
小害	-10.8985
治官	-10.8986
韓王	-10.8987
墨子	-10.8988
治獄	-10.9007
於朝而	-10.9008
富强	-10.9014
以廣其	-10.9017
智過	-10.9018
捕得	-10.9023
萬物通	-10.9033
已具	-10.9044
則姦臣	-10.9056
未有能	-10.9058
欲知其	-10.9059
簡子	-10.907
老臣	-10.907
迫於	-10.9071
計得	-10.9084
不能守	-10.9087
此五者	-10.9089
君曰諾	-10.9089
予人也	-10.9091
乃詐	-10.9101
其事以	-10.9114
求於民	-10.9118
之極也	-10.9129
異乎	-10.9131
長家	-10.9134
䟽逺	-10.9161
辯智	-10.9161
大辟	-10.9162
生金	-10.917
出北史	-10.9172
致政	-10.9182
行罰	-10.9193
則民乃	-10.92
私交	-10.9203
無定	-10.9204
盡在	-10.9231
使羣臣	-10.9235
輕國	-10.925
而不變	-10.926
也故以	-10.9271
制斷	-10.9276
相應	-10.9276
惠子	-10.9285
公怒	-10.9286
矣人主	-10.9296
用其言	-10.9298
内行	-10.9322
七曰	-10.9339
得情	-10.9341
與父	-10.9342
為人臣	-10.9342
不軌	-10.9354
私意	-10.9355
事迹	-10.9376
告人	-10.9391
致令	-10.9395
一言而	-10.9397
出于	-10.9421
所患也	-10.9434
成霸	-10.9436
公家	-10.9447
處官	-10.9456
親信	-10.948
知彼	-10.948
所獲	-10.9491
所短	-10.9498
自正	-10.9501
百鍾	-10.9506
遂殺	-10.9507
好名	-10.9517
見疑	-10.9524
國有四	-10.9533
則國治	-10.9558
其貲	-10.9575
緩刑	-10.9587
明君在上	-10.959
而歸之	-10.9592
之正也	-10.9598
推事	-10.9602
此以上	-10.9603
所用也	-10.964
細民	-10.9672
民歸之	-10.9685
打	-10.9711
姦慝	-10.975
授官	-10.976
寃死	-10.9763
曰人主	-10.9769
先王善	-10.9786
認之	-10.9794
於國家	-10.9825
何也對曰	-10.9851
之果然	-10.9875
功伐	-10.9879
君聞	-10.988
皆然	-10.988
二字	-10.9891
重誅	-10.9903
能用之	-11.0011
暇	-11.0058
絃	-11.0082
管子輕重十	-11.0085
窶	-11.0088
繞	-11.0092
竄	-11.0093
中牟	-11.0095
孫沔	-11.0096
押	-11.0099
㠓	-11.01
鄧	-11.0101
墓誌	-11.0104
牘	-11.0104
蝨	-11.0104
帷	-11.0105
誹謗	-11.0109
㝠	-11.0109
眩	-11.0109
駿	-11.0109
閔	-11.0111
愽	-11.0111
痕	-11.0111
轡筴	-11.0111
秤	-11.0112
堪	-11.0112
㕔	-11.0113
縊	-11.0113
廐	-11.0113
卜皮	-11.0113
姦邪之臣	-11.0113
曽史	-11.0113
台	-11.0113
階	-11.0114
秊	-11.0114
何以明之	-11.0114
聾	-11.0115
莭	-11.0115
保雍	-11.0115
胥靡	-11.0115
柳	-11.0116
四海之内	-11.0116
晦	-11.0116
遂自誣服	-11.0116
刋	-11.0117
巽	-11.0117
譏	-11.0117
矛	-11.0117
□	-11.0117
冥	-11.0117
鋭	-11.0117
泛	-11.0117
漆	-11.0117
趙廣漢	-11.0117
堵	-11.0118
櫎	-11.0118
讙	-11.0119
隄	-11.0119
礙	-11.0119
弦	-11.0119
鬰	-11.012
烈	-11.012
此其所以	-11.012
㦧	-11.012
叙	-11.012
尹洙龍圖	-11.012
程式	-11.0121
推勘	-11.0121
蹇	-11.0121
垢	-11.0121
矩	-11.0122
上位危	-11.0122
銜	-11.0122
鹹	-11.0122
莫急於	-11.0122
藪澤	-11.0122
蘟	-11.0123
皷	-11.0123
烏集之交	-11.0123
為之奈何管子對曰	-11.0123
鹵	-11.0123
㳟	-11.0123
侔	-11.0123
父子之親	-11.0123
由是觀之	-11.0124
桓公問於管子曰請問	-11.0124
申不害	-11.0124
於鄉里	-11.0124
已見釋寃門	-11.0124
麾	-11.0125
菽	-11.0125
㫄	-11.0125
赫	-11.0125
費仲	-11.0125
亂主則不然	-11.0125
濵	-11.0125
民之父母也	-11.0126
訥	-11.0126
泊	-11.0126
左氏	-11.0126
戢	-11.0126
治之至也	-11.0126
胎	-11.0126
則入多	-11.0126
思兢	-11.0126
洒	-11.0126
鬪	-11.0126
昇	-11.0127
倨	-11.0127
祗	-11.0127
攄	-11.0127
挑	-11.0127
曆	-11.0127
促	-11.0127
旦暮	-11.0128
鱣	-11.0128
無過失	-11.0128
萬世之利	-11.0128
讋	-11.0129
譴	-11.0129
秋毫	-11.0129
希崇	-11.0129
肇	-11.013
捉	-11.013
厥	-11.013
由余	-11.013
基	-11.0131
齎	-11.0131
塥	-11.0131
灑	-11.0131
衣紫	-11.0131
敕	-11.0131
軰	-11.0131
桓公謂管仲	-11.0131
險阻	-11.0132
域	-11.0132
疋	-11.0132
爲之奈何管子對曰	-11.0133
隷	-11.0133
繩墨	-11.0133
嬴	-11.0133
鞫情之術	-11.0133
飭	-11.0133
叚	-11.0133
安能愛君	-11.0133
斗斛	-11.0133
祇	-11.0133
㓕	-11.0134
僊	-11.0134
屑	-11.0134
提㸃	-11.0134
技藝之	-11.0134
萬乘之國	-11.0134
恡	-11.0135
煑	-11.0135
錣	-11.0135
籍沒	-11.0136
舉措	-11.0136
勵	-11.0136
網罟	-11.0137
是故有道之君	-11.0137
淡	-11.0137
姒	-11.0138
袁安	-11.0138
額	-11.0138
黄昌	-11.0138
飺	-11.0138
於吾國	-11.0139
公子小白	-11.0139
在其中	-11.0139
竽瑟	-11.014
刻鏤	-11.014
諸兒	-11.014
渾	-11.014
烹	-11.014
方圜	-11.0141
饟	-11.0142
數百人	-11.0144
約結	-11.0145
之副也	-11.0145
商子卷第	-11.0145
萯	-11.0145
盖天下而	-11.0145
凶吉	-11.0146
鞫問	-11.0146
柎	-11.0146
八尺	-11.0147
司空	-11.0147
作壹	-11.0147
朝夕	-11.0147
食器	-11.0147
慙	-11.0147
袂	-11.0147
申子曰	-11.0148
繫獄	-11.0149
髙柔	-11.0151
罰有罪	-11.0151
績按齊語作	-11.0152
蓋天下而	-11.0152
伐莒	-11.0153
蜜	-11.0153
酷吏	-11.0156
孤獨	-11.0157
司徒	-11.0158
沙門	-11.0159
卑辱	-11.0161
相反也	-11.0162
小兒	-11.0162
數輩	-11.0162
引囚	-11.0163
敏中	-11.0164
寃狀	-11.0164
孟孫	-11.0165
荆南	-11.0165
徳裕	-11.0171
陳氏	-11.0171
遁去	-11.0173
未㡬	-11.0174
九月	-11.0178
設詐	-11.0179
負寃	-11.0179
十二始	-11.0182
危殆	-11.0189
者責之	-11.0193
父老	-11.0194
赴官	-11.0197
慈愛	-11.0198
漢書	-11.0199
世俗	-11.0203
刑戮	-11.0204
鬻子	-11.0204
盡知之	-11.0205
手足	-11.0208
改正	-11.0214
怨咎	-11.0215
臨安	-11.0216
郡守	-11.0221
第十三	-11.0226
之效也	-11.0227
專制	-11.0227
辯說	-11.0229
食飲	-11.0231
器備	-11.0232
十月	-11.0233
禁姦	-11.0235
老母	-11.0239
物至而	-11.0241
夫差	-11.0247
疾怨	-11.0248
鄉師	-11.0248
待制	-11.0253
服習	-11.0255
謀慮	-11.0264
守職	-11.0267
興兵	-11.027
村民	-11.027
説難	-11.0275
民之用也	-11.028
不阿	-11.0283
禁邪	-11.0287
臣之分也	-11.0288
姦偽	-11.0291
刑重	-11.0296
廢私	-11.03
校官	-11.0304
然後成	-11.0306
管子卷第二	-11.0313
中期	-11.0315
北齊	-11.0319
長婦	-11.0324
七日	-11.0326
和平	-11.0334
之籍也	-11.0338
正理	-11.0347
攻韓	-11.0352
漁者	-11.036
南齊	-11.039
羣下	-11.0392
武王有	-11.0393
士師	-11.0398
主之治國也	-11.0403
舟人	-11.0404
無度則	-11.0414
正直	-11.0415
其僕	-11.0418
富家	-11.0419
求索	-11.042
非誠	-11.042
何足	-11.0439
其事既	-11.0446
成俗	-11.0446
起兵	-11.0448
市朝	-11.0451
知之矣	-11.0468
室中	-11.0481
作難	-11.0498
輕敵	-11.0508
而不化	-11.0513
張孟談曰	-11.0529
亡去	-11.0533
上卿	-11.055
虚心	-11.0558
至於此	-11.0582
無辜	-11.0583
尚何	-11.0599
良民	-11.0605
末用	-11.0638
不覺	-11.0669
貴而不	-11.0683
吳人	-11.0692
生萬物	-11.0697
之故也	-11.0707
寡故	-11.0715
君何不	-11.0716
桓公曰善桓公	-11.0778
去智	-11.078
諸侯之君	-11.0801
無所用	-11.0823
行賞罰	-11.083
輕誅	-11.0878
弑君	-11.0897
公曰善乃	-11.0931
什伍以	-11.095
道力	-11.0962
不售	-11.0987
遊於	-11.119
飢而	-11.1264
家貧	-11.1279
酣	-11.1287
部民	-11.1332
張孟談	-11.134
欲治其	-11.1409
靈公	-11.1471
而輕其	-11.1531
欽定四庫全書管子補注卷十	-11.1598
欲籍於	-11.1627
答	-11.1709
孫叔敖	-11.1733
堊	-11.1737
事又見	-11.1741
乎如在於	-11.1747
娼	-11.1753
犿	-11.1754
鼈	-11.1754
遺冠	-11.1758
鑊	-11.1759
狎	-11.1761
桓侯	-11.1761
歩	-11.1761
精潔	-11.1761
釐	-11.1762
鼻	-11.1762
巖	-11.1765
欣	-11.1765
穆	-11.1766
炮	-11.1766
有狗嘊嘊旦暮欲齧我猳而不使也今夫	-11.1766
叩	-11.1767
灼	-11.1767
白圭	-11.1767
鄭袖	-11.1768
住	-11.1768
嫡	-11.1769
明張景撰	-11.177
􁠆	-11.1771
不亦宜乎	-11.1772
塜	-11.1773
耘	-11.1773
櫛	-11.1774
逞	-11.1774
製	-11.1774
涵	-11.1774
章頻	-11.1774
頻	-11.1774
恬淡	-11.1775
翰	-11.1775
鄒君	-11.1775
廹	-11.1776
其孫也	-11.1776
措	-11.1776
轄	-11.1777
覔	-11.1777
侍御史	-11.1777
戰不必勝	-11.1777
渝	-11.1777
魏宣子	-11.1777
秃	-11.1777
行此三者有罪無赦	-11.1777
恊	-11.1778
貝	-11.1778
應於父兄	-11.1778
坊	-11.1778
見歐陽修	-11.1778
再劾	-11.1778
寀	-11.1779
􁷑	-11.1779
鄶	-11.1779
閭有司	-11.178
而獻之	-11.178
穰侯	-11.178
右經一	-11.178
國非其國也	-11.178
睢	-11.178
正民之經	-11.1781
悌	-11.1781
叔瞻	-11.1781
訖	-11.1781
錢十萬	-11.1781
舒	-11.1782
焦	-11.1782
像	-11.1782
藴	-11.1782
誇	-11.1782
鄧析	-11.1782
揮	-11.1782
柩	-11.1782
斵	-11.1783
蠅	-11.1783
不見其形	-11.1783
烈士	-11.1783
􁫼	-11.1783
倡	-11.1783
蒐	-11.1784
之計莫如樹	-11.1784
匕	-11.1784
啚	-11.1784
鄢陵	-11.1784
舉兵之日而境内	-11.1784
二五者亡其	-11.1784
武王伐紂	-11.1784
株	-11.1784
数	-11.1785
鱗	-11.1785
饗	-11.1785
巖穴	-11.1785
樛	-11.1785
黠	-11.1785
人主莫不欲	-11.1785
延禧	-11.1785
快	-11.1786
鳥飛准繩	-11.1786
羣萃而州處	-11.1786
人食者有一人耕而	-11.1786
十分之三	-11.1786
存不攻	-11.1786
線	-11.1786
靣	-11.1786
人廩食	-11.1786
功臣之家	-11.1786
園	-11.1786
君臣掌	-11.1787
烝	-11.1787
行冬政則	-11.1787
樓	-11.1787
行秋政則	-11.1787
龍學	-11.1787
如此者身危	-11.1787
梓	-11.1787
而堅守之	-11.1787
漿	-11.1788
末産不禁	-11.1788
祝鳬已疪	-11.1788
麤	-11.1788
朋友	-11.1788
茶	-11.1788
懇	-11.1788
而天下化之	-11.1788
之常也治之以	-11.1788
虙	-11.1788
諸君吾子	-11.1788
隰	-11.1789
管子對曰不可是	-11.1789
忤	-11.1789
筦	-11.1789
嗛	-11.1789
茸	-11.1789
對曰惡則惡矣然非其急者也公	-11.1789
惛	-11.1789
緊	-11.1789
張輅	-11.1789
犀	-11.179
協	-11.179
不易其則故	-11.179
有聞道而好	-11.179
奪柄失位	-11.179
鍜	-11.1791
大木不可獨	-11.1791
鍾之家不行	-11.1791
始乎無端卒乎無窮	-11.1791
竹箭	-11.1791
戍	-11.1792
和㠓	-11.1792
夷射	-11.1792
姪	-11.1792
煥	-11.1792
羸	-11.1792
跪	-11.1792
瞻	-11.1792
比干	-11.1792
賛	-11.1792
錐	-11.1792
睡	-11.1792
包拯	-11.1792
懦弱	-11.1792
星辰	-11.1793
錙	-11.1793
絻	-11.1793
值	-11.1793
仆	-11.1793
趙簡主	-11.1793
俳	-11.1793
傷國一也	-11.1793
可以加政矣	-11.1793
羨	-11.1793
與天同極	-11.1793
􁎺	-11.1793
賄	-11.1794
曷	-11.1794
謂去十	-11.1794
𥙿	-11.1794
桓公曰行事奈何管子對曰請	-11.1794
倪	-11.1794
赶	-11.1794
錮	-11.1794
旄	-11.1794
士農工商	-11.1795
挹	-11.1795
百餘人	-11.1795
愬	-11.1795
祕	-11.1795
芸	-11.1795
槩	-11.1795
行夏政則	-11.1795
不逺道里	-11.1795
擄	-11.1795
君臣父子	-11.1795
熙	-11.1796
若其事立	-11.1796
者試之以	-11.1796
娶	-11.1796
涸澤	-11.1796
象地無親	-11.1796
莫之能圉	-11.1796
踣	-11.1796
逝	-11.1796
提衡	-11.1796
葵丘	-11.1796
闢	-11.1796
日而具則財物之賈什去	-11.1796
漕	-11.1796
稼亡三之一	-11.1796
膌	-11.1796
問具服	-11.1797
曹攄	-11.1797
以徐疾	-11.1797
孝悌	-11.1797
四政曰	-11.1797
善射者	-11.1797
囿	-11.1797
牆垣	-11.1797
釱	-11.1797
則戰不勝	-11.1797
竿	-11.1797
國貧而用不足	-11.1797
埴	-11.1797
黄覇	-11.1797
欣然	-11.1798
爲人臣者	-11.1798
繇	-11.1798
問其鄉里	-11.1798
小白曰夫	-11.1798
亞	-11.1798
之國惡之	-11.1798
倣此	-11.1798
湝	-11.1798
問曰汝	-11.1798
擠	-11.1799
梗	-11.1799
十分去	-11.1799
閉禍在除怨	-11.1799
管仲與召忽	-11.1799
懈怠	-11.18
召管子而問曰此何故也管子對曰	-11.18
弓矢	-11.18
自古至今	-11.18
阜	-11.18
忒	-11.18
灾	-11.18
朝諸侯卿大夫列士循於百姓號曰祭	-11.18
涂	-11.18
侈泰	-11.18
羲	-11.18
讂	-11.1801
癘	-11.1801
痤	-11.1802
辦	-11.1802
公綽	-11.1802
受賂	-11.1802
管子對曰請以令	-11.1802
惶恐	-11.1802
庚	-11.1802
揲	-11.1802
之人謂我	-11.1802
劫殺之	-11.1802
貨賄	-11.1803
饌	-11.1803
嘖室之議	-11.1803
兎	-11.1803
豫章	-11.1803
鋟	-11.1803
偷兒	-11.1803
先難而後易	-11.1803
壅塞	-11.1803
之所生生於	-11.1803
銚	-11.1803
楊津	-11.1804
國之貧也	-11.1804
彊釡	-11.1804
能戴大	-11.1804
祭祀	-11.1804
四境之内	-11.1804
竽	-11.1805
惽惽	-11.1805
齡	-11.1805
五臭	-11.1805
豪右	-11.1805
無棄之言	-11.1805
讒賊	-11.1805
芬	-11.1806
䕫	-11.1806
而兵强	-11.1806
請謁任舉	-11.1806
榮華	-11.1806
公平而無私故	-11.1807
駢	-11.1807
勇怯	-11.1807
濤	-11.1807
嚬	-11.1808
致天下之民	-11.1808
咡	-11.1808
提要	-11.1808
抄	-11.1808
閬	-11.1808
昻	-11.1809
隄防	-11.1809
媚	-11.1809
東郭郵	-11.1809
有以感	-11.1809
山谷	-11.181
皆已官	-11.181
來天下之財	-11.181
萬乘之主	-11.181
孰能棄	-11.181
秬	-11.181
慈母	-11.181
莫知其極	-11.181
㑹稽	-11.181
俴	-11.1811
出南史本傳	-11.1811
黜	-11.1811
不能用敵	-11.1811
夫具而天下無	-11.1811
訴於州	-11.1812
蓆	-11.1812
聖人法之以	-11.1812
宋人有	-11.1812
市井	-11.1812
吉凶	-11.1813
昶	-11.1813
鍳	-11.1814
跀危	-11.1814
此六者以	-11.1814
者其恱在	-11.1814
絀	-11.1814
文繡	-11.1815
僖公	-11.1815
禁繆	-11.1816
天地之位	-11.1817
公孫無知	-11.1818
辟疆	-11.1818
齋戒	-11.1819
視其色	-11.182
量委	-11.182
伏其罪	-11.1821
人得餘	-11.1821
事名二	-11.1821
鹽筴	-11.1822
有患則	-11.1822
春三月	-11.1822
龍夏	-11.1823
送獄	-11.1823
城池	-11.1823
稽之以	-11.1824
買譽	-11.1824
以立功名	-11.1824
侮文	-11.1824
過在下	-11.1825
流徙	-11.1825
捕賊	-11.1826
許諾	-11.1826
奪於天下	-11.1827
異姓	-11.1827
齊景公	-11.1827
植果木不如三土以十分之	-11.1828
縁陵	-11.1828
保長	-11.1829
糧食	-11.1829
刀布	-11.183
有道之國	-11.183
廣思	-11.1831
則不祥	-11.1831
樂羊	-11.1831
曲木	-11.1831
設法以	-11.1833
則撫之	-11.1834
旬日	-11.1835
十有三	-11.1835
豐滿	-11.1835
接絶	-11.1838
胡質	-11.1838
獲免	-11.1839
對桓公曰	-11.1841
應侯	-11.1844
東西	-11.1845
不可測	-11.1845
都邑	-11.1846
士不死	-11.1846
通典	-11.1846
汝等	-11.1846
門户	-11.1846
投書	-11.1846
閉塞	-11.1846
粟也者	-11.1848
農挾	-11.1848
無所容	-11.1849
准平	-11.185
貧病	-11.185
千緡	-11.1852
太仁	-11.1853
進諫	-11.1854
人君操	-11.1859
不逆於	-11.1859
小征	-11.1861
以相待	-11.1861
郷里	-11.1863
興師	-11.1866
焉故明法曰	-11.1866
如天地之	-11.1866
遇賊	-11.1867
證慝	-11.1867
則禄賞不	-11.1868
而戮之	-11.1868
阿黨	-11.187
恐懼	-11.1871
乾夫	-11.1874
畏恐	-11.1878
施薄	-11.188
雜處	-11.188
桓公曰諾令	-11.1881
桓公曰請問	-11.1881
法不立	-11.1886
卿諸侯	-11.1886
不勝任	-11.1886
之所歸也	-11.1887
日一問	-11.1888
明主猶	-11.1888
則國毋	-11.1889
四時之行	-11.1889
明法術	-11.189
知桓公之	-11.1892
稱寃	-11.1894
移文	-11.1895
彌子	-11.1896
籍謂之	-11.1897
公孫鞅曰	-11.1897
唯聖人	-11.1898
登山	-11.1898
戎王	-11.1898
世良	-11.1899
陽春	-11.19
辯説	-11.1902
文字	-11.1904
舉國而	-11.1905
事成則	-11.1908
有道者不	-11.1908
卑尊	-11.1909
逃亡	-11.1912
四子者	-11.1916
餘悉	-11.1917
有餘日	-11.192
詩曰	-11.1921
學士	-11.1922
某處	-11.1924
所匿	-11.1927
勢位	-11.1927
思安	-11.1928
民無取	-11.193
名號	-11.1933
憂懼	-11.1935
公叔	-11.1935
日新	-11.1936
堂上	-11.1938
賞無功	-11.1944
君臣親	-11.1944
憂勞	-11.1949
一害也	-11.1951
亂世之	-11.1954
耳目之所	-11.1959
殺其夫	-11.1962
出後漢書本	-11.1965
而問之曰	-11.1965
推問	-11.1968
趙和	-11.197
内御	-11.1971
施於民	-11.1976
貴爵	-11.1976
經常	-11.198
用譎	-11.1981
壤地	-11.1981
賞譽	-11.1994
敢問	-11.2018
所憎	-11.2018
有事則	-11.2026
害己	-11.2049
武勇	-11.2056
投井	-11.2059
丈人	-11.2088
告之曰	-11.2102
賊害	-11.2103
不戰而	-11.2106
者因其	-11.2123
以固其	-11.2145
而藏之	-11.2164
曽子	-11.2181
吾恐	-11.2255
者得人	-11.2268
齊侯	-11.2318
十有二	-11.2339
具伏	-11.239
妻妾	-11.2417
也故有不	-11.2422
治之本	-11.2471
救小	-11.2484
無非其	-11.2533
君臣相	-11.2552
餘力	-11.2619
民不服	-11.2718
寡人願	-11.2735
三十三	-11.2752
故不怨	-11.2779
各有所	-11.2781
推車	-11.2858
不怨也	-11.2875
觀其所	-11.2915
民信之	-11.3303
民利之	-11.3374
鷟	-11.3433
虱	-11.3685
之謂明	-11.3716
南門之外	-11.3736
諲	-11.3736
珥	-11.374
城隍	-11.375
主法令之吏	-11.3755
紘	-11.3756
聞之以告	-11.3759
嗚	-11.3759
騶	-11.3759
輜	-11.3759
乃下令曰	-11.376
烏獲	-11.376
無求於人	-11.3761
糾	-11.3761
俛	-11.3761
􁲱	-11.3762
雨巖	-11.3763
寝	-11.3764
隸	-11.3765
栗	-11.3765
溪	-11.3765
珣	-11.3765
胡氏	-11.3766
荀息	-11.3766
檠	-11.3767
涯	-11.3768
千鈞	-11.3768
少庶子	-11.3768
濳	-11.3768
鄆州	-11.3769
誣能之人	-11.3769
飼	-11.377
汪	-11.377
晉獻公	-11.377
殖果木不如三土以十分之	-11.377
淇	-11.377
悛	-11.377
􁉢	-11.377
桂	-11.377
許宗裔	-11.3771
録事參軍	-11.3771
愁	-11.3771
誌	-11.3772
腫	-11.3772
犢	-11.3772
輯睦	-11.3772
監察御史	-11.3773
必不幾矣	-11.3773
鋤	-11.3773
驚駭	-11.3773
濡	-11.3774
孚	-11.3774
倩	-11.3774
其數不勝也	-11.3774
輝	-11.3775
沛	-11.3775
炭	-11.3775
爲之有道乎管子對曰	-11.3775
顚	-11.3775
孽	-11.3775
臯陶	-11.3775
柢	-11.3775
使法量功不自度也	-11.3776
荀	-11.3776
估	-11.3776
必起於	-11.3776
恍	-11.3776
護	-11.3776
坼	-11.3776
磔於市	-11.3776
璩	-11.3776
話	-11.3776
拆	-11.3777
装	-11.3777
腕	-11.3777
餙	-11.3778
潁	-11.3778
㧾	-11.3778
替	-11.3778
洩	-11.3778
民歌之	-11.3779
良馬固車	-11.3779
萇𢎞	-11.3779
掩口	-11.3779
瓠	-11.3779
緇	-11.3779
可乎管子對曰	-11.3779
詹	-11.3779
滑	-11.378
㤗	-11.378
明於日月察於父母	-11.378
衙	-11.378
䖍	-11.3781
弼	-11.3781
潭	-11.3781
瓌	-11.3781
博學而不	-11.3781
妓	-11.3782
郢	-11.3782
慶賔	-11.3782
藿	-11.3782
箠	-11.3782
友有少長	-11.3782
垂拱	-11.3782
庻	-11.3782
當如是也	-11.3782
蔓	-11.3782
繹	-11.3782
嬖寵	-11.3782
游吉	-11.3783
嗣宗	-11.3783
寘於法	-11.3783
劉敞	-11.3783
賑	-11.3783
績按内業	-11.3783
並見本傳	-11.3783
者四一曰	-11.3783
后稷	-11.3783
悚	-11.3784
倅	-11.3784
衣衾	-11.3784
眇	-11.3784
崩	-11.3785
蓄殖果木不若三土	-11.3785
事頗相類	-11.3785
死不赦	-11.3785
窖	-11.3785
尊主安國	-11.3785
者世謂之	-11.3785
㸃	-11.3786
伎	-11.3786
吟	-11.3786
蹤跡	-11.3786
魁	-11.3786
之爪角害之	-11.3786
結之以信	-11.3786
躓	-11.3787
别本註	-11.3787
憑	-11.3787
雹	-11.3787
詬	-11.3787
上之五者所	-11.3787
不牧之民	-11.3787
龢	-11.3787
琰	-11.3788
亢	-11.3788
東西南北	-11.3788
棠	-11.3788
訐	-11.3788
殁	-11.3788
黽	-11.3788
汶	-11.3788
蹤	-11.3789
只	-11.3789
任之以事	-11.3789
檀	-11.3789
富商蓄賈	-11.3789
軀	-11.3789
譟	-11.3789
儒墨	-11.3789
耕戰之士	-11.3789
地不一利	-11.3789
鈎弦	-11.3789
士資在於	-11.3789
賁	-11.379
羈	-11.379
㸑	-11.379
冕	-11.379
咀	-11.379
参	-11.379
中方副圖	-11.379
禪	-11.379
床	-11.379
篤	-11.379
郵	-11.379
此世之所以	-11.379
脛	-11.379
討	-11.379
以易攻	-11.3791
動而無不從静而無不同	-11.3791
款	-11.3791
舛	-11.3791
馭	-11.3791
行篤厚	-11.3791
饑餓	-11.3791
槀	-11.3791
㨿	-11.3791
仭	-11.3791
慘	-11.3791
舩	-11.3791
桓公曰此若言何謂也管子對曰	-11.3791
彫	-11.3792
俶	-11.3792
羹	-11.3792
貟	-11.3792
魚鼈	-11.3792
拂耳	-11.3792
氏之儒有	-11.3792
􁈩	-11.3792
􁏸	-11.3792
涉難而不	-11.3792
按經作	-11.3792
其次一之	-11.3792
浦	-11.3793
是何也曰	-11.3793
橫	-11.3793
以難攻	-11.3793
績按别本注	-11.3793
聼觀其	-11.3793
賣子者	-11.3793
逾	-11.3793
奚以知其然也	-11.3793
雷霆	-11.3794
辯慧	-11.3794
凡人之生也	-11.3794
緄	-11.3794
舟檝	-11.3794
葱	-11.3794
可得聞乎管子對曰	-11.3794
洛陽	-11.3795
樞宻	-11.3795
薛向	-11.3795
陸雲	-11.3795
㸔	-11.3795
不兩立	-11.3795
偏黨	-11.3795
張敞	-11.3795
盂	-11.3795
此臣之所謂	-11.3795
為之有道乎管子對曰	-11.3795
終則有始	-11.3795
虞虢	-11.3795
鞘	-11.3795
者寡矣	-11.3795
金百鎰	-11.3795
熈	-11.3795
邪僻	-11.3795
而猶不行則	-11.3795
􁓦	-11.3795
丸	-11.3795
􁅀	-11.3795
壟	-11.3796
逮捕	-11.3796
杜亞	-11.3796
若雷電	-11.3796
主積于	-11.3796
愉	-11.3796
較	-11.3796
王璥	-11.3796
篡	-11.3796
載一事	-11.3796
骸	-11.3796
全科	-11.3796
枳棘	-11.3796
兊	-11.3796
圭璧	-11.3796
田獵	-11.3796
令則行禁則止	-11.3796
任大官	-11.3796
刎	-11.3796
左右近習	-11.3797
任賢則	-11.3797
譚	-11.3797
左丞	-11.3797
之民也而世少之曰	-11.3797
山林澤谷之利	-11.3797
臣不誣能	-11.3798
飯牛	-11.3798
心之中又有心	-11.3798
祟	-11.3798
若秋雲之	-11.3798
齕	-11.3798
蘄	-11.3798
採	-11.3798
仲尼聞之曰	-11.3798
獲雪	-11.3798
蠢	-11.3798
妬紛	-11.3798
蕘	-11.3798
髙杠柴池	-11.3798
先易而後難	-11.3799
精氣之極也	-11.3799
鮑叔謂管仲曰	-11.3799
伯之為人也	-11.3799
販	-11.3799
公又問曰	-11.3799
彞	-11.3799
堂阜	-11.3799
有橐天地	-11.3799
周旋	-11.3799
地大而不	-11.3799
縦	-11.3799
金者用之量也	-11.3799
塌	-11.3799
悼	-11.3799
民無所於食	-11.3799
猪	-11.3799
諂諛	-11.3799
蔣常	-11.38
同異之	-11.38
方正之	-11.38
響	-11.38
花	-11.38
可以惡竟外之不善者	-11.38
廕	-11.38
稺也謂之逆	-11.38
西門豹	-11.38
仲堪	-11.38
劓	-11.3801
辨誣之術	-11.3801
得其寃狀	-11.3801
怵	-11.3801
成軸	-11.3801
箧	-11.3801
苐	-11.3801
付獄	-11.3801
芳	-11.3802
寂	-11.3802
之所及也	-11.3802
糠	-11.3802
大理少卿	-11.3802
慕選	-11.3802
桑門	-11.3802
鐵官之	-11.3802
别註	-11.3803
蕪	-11.3803
故莫之能	-11.3803
狡	-11.3803
法家類	-11.3803
等謹案	-11.3803
者過半	-11.3803
盾	-11.3804
姧	-11.3804
恭遜敬愛	-11.3804
傅琰	-11.3805
橈	-11.3805
雕琢	-11.3805
轂	-11.3805
六畜不育	-11.3805
貴糴	-11.3805
脣	-11.3806
杜氏	-11.3806
都匠	-11.3806
仵作	-11.3806
攺	-11.3806
崔昻	-11.3806
猒	-11.3806
偉服	-11.3806
臻	-11.3806
可得而聞乎管子對曰	-11.3807
沐浴	-11.3807
不盖天下不䏻正天下	-11.3807
中婦諸子	-11.3807
車輿	-11.3807
傅亮	-11.3807
餽	-11.3807
杭	-11.3808
洎	-11.3808
罸	-11.3808
昀	-11.3808
鎧	-11.3808
二十餘人	-11.3808
壕	-11.3808
干象	-11.3808
東走	-11.3808
奚仲	-11.3808
猛獸	-11.3808
願陛下	-11.3809
聖王之治	-11.3809
擋	-11.3809
管氏	-11.3809
莫善於	-11.3809
譕	-11.3809
宻遣	-11.381
笠	-11.381
掖	-11.381
韋臯	-11.3811
脇	-11.3811
陸費墀	-11.3811
各得其所	-11.3811
言而不當	-11.3811
羙女	-11.3811
以導之	-11.3812
由此觀之	-11.3812
姦猾	-11.3812
表裏	-11.3813
彖	-11.3813
所私者	-11.3813
貼	-11.3813
黎千三	-11.3814
不蓋天下不能正天下	-11.3814
里胥	-11.3815
鄧子	-11.3816
歇	-11.3816
昭知天下通於四極	-11.3816
窮詰	-11.3816
躬親	-11.3816
保其身	-11.3816
門閭	-11.3817
特著	-11.3818
吹竽	-11.3819
建等	-11.3819
殘賊	-11.382
之謀臣	-11.382
兩者謂	-11.382
纍	-11.3821
其事號令	-11.3821
諫議	-11.3822
真偽	-11.3822
薛宣	-11.3823
豈王者	-11.3823
和甫	-11.3824
按此盖	-11.3825
被酒	-11.3825
憲司	-11.3827
墾田	-11.3827
嵗饑	-11.3828
畜積	-11.3829
血氣	-11.3829
刧	-11.3829
門廷	-11.383
目不見	-11.3832
賜予	-11.3832
福兒	-11.3833
不免於亂	-11.3834
風俗	-11.3834
養孤	-11.3835
未嘗有也	-11.3835
煚	-11.3835
田荒	-11.3835
侵奪	-11.3835
萬榮	-11.3837
以我為	-11.3837
敬宗廟	-11.3837
世主以為	-11.3839
撞	-11.384
稱神明	-11.384
者何物	-11.384
無妄也	-11.3841
繁辭	-11.3842
澤梁	-11.3842
務光	-11.3842
府尹	-11.3845
黄霸	-11.3846
不敢為非	-11.3847
而求民之	-11.3848
知其寃	-11.3854
上下交	-11.3857
家奴	-11.3861
豪士	-11.3862
陳表	-11.3863
異於此	-11.3863
三年桓公	-11.3867
夭死	-11.3868
臣不謂	-11.3869
宰予	-11.3871
分謗	-11.3873
不因則	-11.3873
何不試	-11.388
佯愛	-11.3881
情性	-11.3892
性命	-11.3897
也不獨	-11.3927
而毁之	-11.3931
事主而	-11.3933
此亡國之	-11.3956
人不怨	-11.3958
子噲	-11.3961
設之以	-11.3974
寡人寡人	-11.3982
參軍時	-11.4009
明君之道	-11.4026
塞之則	-11.4039
民不畏	-11.405
不務本	-11.4056
副樞知	-11.4064
吾聞子	-11.4066
市之賦	-11.4134
糴十	-11.4162
吏受賕	-11.4189
功不立	-11.4663
欽定四庫全書管子補注卷二	-11.4809
治心在	-11.4869
心在中	-11.5074
出北史本	-11.5356
子聞之曰	-11.5416
傳舊集不	-11.557
而吏不	-11.5613
千餘	-11.5621
故國不	-11.5697
見唐書	-11.5755
行春政則	-11.5846
知開封府	-11.5937
不出謂之滅	-11.5986
噲	-11.605
倍其賈	-11.609
無積而	-11.6219
杲	-11.6232
攜	-11.6238
戡	-11.6239
洗	-11.6239
肩	-11.624
踶	-11.6244
當此時也	-11.6246
二心私學	-11.6247
當塗之人	-11.6247
臣有大罪	-11.6249
摸	-11.6249
管子又言曰	-11.6249
兌	-11.625
祓	-11.6251
眉睫	-11.6251
賞厚而信	-11.6251
征於市	-11.6252
此謂先之以	-11.6253
置一法官	-11.6253
坦氣修通凡物開靜形生理	-11.6253
當是時也	-11.6254
北而南	-11.6254
欒	-11.6254
臧孫子	-11.6256
閻遏公孫衍	-11.6256
僖侯	-11.6257
蓏	-11.6257
至誠哀矜	-11.6258
紓	-11.6258
瑟	-11.626
亡其半	-11.626
把	-11.626
揜	-11.626
而然歟	-11.626
隻	-11.626
以黨舉官則民務交而不求用	-11.6261
糴貸	-11.6261
亦當一倍貸	-11.6262
羈旅	-11.6262
隊	-11.6262
䜛	-11.6262
憂樂喜怒欲利	-11.6262
身死國亡	-11.6262
法令之所謂	-11.6262
蛙	-11.6262
蘇渙	-11.6264
郄宛	-11.6264
四戰之國	-11.6264
釐負羈	-11.6265
藜	-11.6265
惻	-11.6265
有功者必賞	-11.6265
墯	-11.6267
秣	-11.6267
萑	-11.6267
輳	-11.6267
宇	-11.6267
績按當依觧作	-11.6267
刖跪	-11.6267
巫祝	-11.6268
展轉	-11.6268
鞏	-11.6268
兵弱於外	-11.6268
扞	-11.6268
則民倍貸以	-11.6268
國從其政	-11.6268
奉笥	-11.6268
吿	-11.6269
禁不能必止	-11.6269
若在長家子弟臣妾屬役賔客則	-11.6269
租稅	-11.6269
餅	-11.6269
上令不能必行	-11.6269
鑑	-11.6269
丕	-11.6269
于游宗游宗以	-11.6269
善覈姦者	-11.6269
夢見竈	-11.6269
而不理者復	-11.6269
躍	-11.6269
山林藪澤	-11.627
捶楚	-11.627
於君退則	-11.627
逐獸	-11.6271
其御曰	-11.6271
外内朋黨雖有大姦其蔽主多矣	-11.6271
耕耨	-11.6271
在他為	-11.6271
釘鞠	-11.6271
評	-11.6271
清潔	-11.6272
滄	-11.6272
獸鹿	-11.6272
樠	-11.6272
以情理察之	-11.6272
發五苑	-11.6272
偷幸而望於上	-11.6272
夷狄	-11.6272
地圖第二十七	-11.6272
翰筆談	-11.6272
國益大	-11.6272
在己為	-11.6272
宰邑者	-11.6272
絇	-11.6272
館	-11.6273
沔	-11.6273
入州里觀習俗聽民之所以化其上	-11.6273
而治亂之國可知也	-11.6273
拳	-11.6274
扱	-11.6274
扺	-11.6274
罝	-11.6274
甕	-11.6274
頗亦類此	-11.6274
見沈括内	-11.6274
誠莊事斷	-11.6274
喜賞惡罰之人離公道而行私術矣	-11.6274
嘉苗	-11.6274
治和氣	-11.6274
衆民不能	-11.6274
寕	-11.6274
見吕大防	-11.6274
斵削	-11.6274
不一至於庭	-11.6274
男女不淫	-11.6274
蜚	-11.6274
循名責實	-11.6275
潮	-11.6275
禁扇去笠	-11.6275
城濮	-11.6275
王良造父	-11.6275
藁	-11.6275
令不必行禁不必止戰不必勝守不必固	-11.6275
以此觀之	-11.6275
慕容彦超	-11.6275
奚時得	-11.6275
罪不應死	-11.6275
姦巧不生	-11.6275
檝	-11.6275
覓	-11.6276
議獄緩死	-11.6276
以具獄上	-11.6276
什伍之長	-11.6276
疾怨非上賤爵輕禄	-11.6276
馬牛選具	-11.6276
其失之也以	-11.6276
奪其財	-11.6276
怍	-11.6276
施七尺	-11.6276
稹	-11.6276
蔞	-11.6276
貨財行於國	-11.6276
賞不足以勸	-11.6276
受政寡人	-11.6276
酢	-11.6276
知彭州九隴縣	-11.6277
則罪不辜	-11.6277
民無所游食	-11.6277
凡此十二事	-11.6277
用犧牲珪璧禱於鬼神鬼神	-11.6277
當其功故雖	-11.6277
繼絶世	-11.6277
而桓公不使也狄人攻	-11.6277
臣不務盡力	-11.6277
宗裔	-11.6277
五政曰	-11.6278
故特著之	-11.6278
黥	-11.6278
何以論之	-11.6278
生殺之柄	-11.6278
臊	-11.6278
鍼	-11.6278
主盛處賢	-11.6278
主釋法以譽進能則臣離上而下比周矣	-11.6278
行其所行而	-11.6278
於父兄無過	-11.6278
帯	-11.6278
踵	-11.6278
於雷鼓	-11.6278
備水之器	-11.6278
刑以秋冬	-11.6278
賞以春夏	-11.6278
具取之地	-11.6278
吮	-11.6279
侣	-11.6279
竪刁易牙	-11.6279
冊	-11.6279
核	-11.6279
髙下萬物以	-11.6279
上地方八十里	-11.6279
傅曲木	-11.6279
為秦使	-11.6279
爼	-11.6279
田連成竅	-11.6279
萬室之國一千室之都四	-11.6279
吏進之君用之	-11.6279
告不知謂之勞而無功	-11.6279
所歸心行者也	-11.6279
杏	-11.6279
栢	-11.6279
此之謂國無人	-11.6279
王子比干	-11.6279
紏	-11.6279
紛紛	-11.6279
蜚蓬之問	-11.6279
誡	-11.6279
邵	-11.6279
邊境	-11.628
者非以愛主也	-11.628
曰何謂也管子對曰今天下起兵加我	-11.628
百官雖具非以任國也	-11.628
相益不務尊君也大臣務相貴而不任國	-11.628
嗜欲充益	-11.628
昭穆	-11.628
民心誅殺	-11.628
當其罪賞賜	-11.628
者也未有能多	-11.628
以權致之	-11.628
先作難違時易形	-11.628
鄂	-11.628
國得之也以	-11.628
百姓不用則天下	-11.628
榆	-11.628
屬數雖衆非以尊君也	-11.628
猛毅之君不免於外難懦弱之君	-11.628
竟内之衆	-11.628
莧	-11.628
鏘	-11.628
以其國造難生患	-11.6281
藪	-11.6281
餼	-11.6281
戒第二十六	-11.6281
刑設而不	-11.6281
大卿初	-11.6281
摧	-11.6281
上有鈆者其下有	-11.6281
十之籍大女	-11.6281
於三者而自有	-11.6281
民不足令乃辱	-11.6281
民苦殃令不行施報不得禍乃始昌禍昌	-11.6281
社稷不血食	-11.6282
斟	-11.6282
寤	-11.6282
田子方	-11.6282
一人積之	-11.6282
蔬	-11.6282
覩	-11.6282
閣	-11.6282
無枉濫	-11.6282
無積乎	-11.6282
亦有取焉	-11.6282
以文勝情	-11.6282
先王之治國也使法擇人不自舉也	-11.6282
威嚴寛惠	-11.6282
富而驕肆	-11.6282
殺不辜則	-11.6282
無諫死之	-11.6282
琪	-11.6282
田悉徙	-11.6282
置法出令臨衆用民計	-11.6282
親也有病則憂臨死則懼既死則哀今	-11.6282
重而凌節	-11.6282
五和時節	-11.6282
兕	-11.6282
其自及也	-11.6282
官水官	-11.6282
常令水官	-11.6282
急時分勝之	-11.6282
抃	-11.6282
正法直度罪殺不赦	-11.6282
湜	-11.6282
濘	-11.6282
韓康子	-11.6282
捶	-11.6282
○○○○○	-11.6282
扣	-11.6282
封君之臣	-11.6283
生而不死者	-11.6283
不行於其民可知也	-11.6283
國無以小與不幸而削亡者	-11.6283
審用財	-11.6283
欲生而惡死	-11.6283
用力苦則勞	-11.6283
石月有	-11.6283
而食者幾何家	-11.6283
霸王之術也	-11.6283
大夫城藏	-11.6283
而賞罰之所立者	-11.6283
舅	-11.6283
事察伐勝之	-11.6283
叔牙	-11.6283
則易治也	-11.6283
品	-11.6283
鴈	-11.6283
霽	-11.6283
舊出北史	-11.6283
見曽鞏	-11.6283
國家乃昌四方乃	-11.6283
爛	-11.6283
參天地之吉綱	-11.6283
季辛	-11.6283
屢訴不得直因	-11.6283
澄	-11.6283
自媒之女醜而不信	-11.6283
莫大焉	-11.6283
賊氣遫至	-11.6283
鐘皷	-11.6283
雖善不親	-11.6283
人主莫不惡也	-11.6283
人之憎惡也	-11.6283
兔	-11.6283
其樞在水	-11.6283
合而聽之則	-11.6283
堯舜之所難	-11.6283
天財地利	-11.6283
失其爪牙	-11.6283
數百家	-11.6283
朋黨比周以	-11.6283
殺僇禁誅	-11.6283
民之經産	-11.6283
營於物而	-11.6283
能勝其攻故	-11.6283
荅	-11.6283
誅殺人之謂	-11.6283
財不可以嗇用力不可以苦用財嗇則費	-11.6283
陬	-11.6283
四舉而農佚粟十	-11.6284
再舉而民無不從三舉而地辟散成	-11.6284
之國勞而多禍	-11.6284
吝	-11.6284
埊	-11.6284
執枹	-11.6284
明别則易治	-11.6284
未之見而親焉可以往矣	-11.6284
蚖菕	-11.6284
輂	-11.6284
髙下不貳	-11.6284
也不以法令案	-11.6284
敢轉其力	-11.6284
同異分官則安	-11.6284
發之以力威之以誠一舉而上下得終	-11.6284
行備具勝之	-11.6284
通之以道畜之以	-11.6284
汎	-11.6285
攸	-11.6285
腦	-11.6285
逹	-11.6285
二七十四尺而至於泉	-11.6285
二政曰	-11.6285
以度量斷	-11.6285
巧者有餘而拙者不足	-11.6285
忍痛	-11.6285
承從天之指	-11.6285
術而御之	-11.6285
迺	-11.6285
髙而不見地不易也	-11.6285
之尊勢而明信之	-11.6285
人何族之	-11.6285
垂棘之璧	-11.6285
或白或黒	-11.6285
暴人不勝邪亂不止	-11.6285
湛而不澤無髙下葆澤以處	-11.6285
澹	-11.6285
菭	-11.6285
行而不可再者君不行也	-11.6285
諸侯以縵帛鹿皮報	-11.6285
足而不施	-11.6285
近而来逺	-11.6285
魅	-11.6285
麑	-11.6285
𥿄	-11.6285
不敢愛其死	-11.6285
其號令之徐疾	-11.6285
國之經俗	-11.6285
審謀章禮選士利械則霸	-11.6285
廏	-11.6285
故聖人之爲國也	-11.6285
磐	-11.6285
與民為一體	-11.6285
身仁行義服忠用信則王	-11.6285
道故能多	-11.6285
親之以仁養之以義報之以	-11.6285
濮	-11.6285
鎬	-11.6285
罰不嚴	-11.6285
而衆人不知	-11.6285
也君失其道	-11.6285
扉	-11.6285
獨國之君卑而不威	-11.6285
纎	-11.6285
螫	-11.6285
事不工事不工	-11.6285
伐何主管子對曰以	-11.6285
失不可及之功	-11.6285
始不足見	-11.6285
廢所惡必計其所窮	-11.6285
抽	-11.6285
摩	-11.6285
民作一	-11.6285
當此之時也	-11.6285
而姦不生	-11.6285
韓宣王	-11.6286
雨乃至	-11.6286
織而衣	-11.6286
設官以守	-11.6286
三本者審則	-11.6286
之而勿捨	-11.6286
動無非法者所以禁過而外私也	-11.6286
及于游宗	-11.6286
啇	-11.6286
故先王不滿也	-11.6286
旦暮利之衆乃勝任	-11.6286
縁地之利	-11.6286
藉人以其所	-11.6286
觀絶理者	-11.6286
以形色之	-11.6286
八舉而勝行威立九舉而帝事成形	-11.6286
其槐其楊	-11.6286
困難成之事	-11.6286
國之所以安危者	-11.6286
子之里為	-11.6286
崢丘之戰	-11.6286
忍蘟	-11.6286
愁而藏之	-11.6286
慶勉敦敬以顯之	-11.6286
朝之經臣	-11.6286
畏死而不	-11.6286
盡善十二中暑十二小暑終三暑同事	-11.6286
者之為自	-11.6286
鋏	-11.6286
洙	-11.6286
館客	-11.6286
入共受命焉	-11.6286
徐疾而已矣	-11.6286
砥	-11.6287
帑	-11.6287
於上故主有以	-11.6287
不可不謹也	-11.6287
九本搏大人主之守也	-11.6287
五舉而務輕金九	-11.6287
交兵聞於諸侯	-11.6287
制於主而	-11.6287
外因天下	-11.6287
天不變其常地	-11.6287
爵貴有名以休之	-11.6287
皮文錦	-11.6287
者賜之百金	-11.6287
人輕棄之	-11.6287
人輕行之	-11.6287
有時而星	-11.6287
謀泄菑	-11.6287
阮	-11.6287
拯	-11.6287
四富貧之終五盛衰之紀六安危之機七	-11.6287
理名實勝之	-11.6287
感悟	-11.6287
塉	-11.6287
三政曰	-11.6287
之集道行不顧	-11.6287
以十分之二	-11.6287
凡論人	-11.6287
威不兩錯	-11.6287
政不二門	-11.6287
有罪不必誅	-11.6287
猶尚可加	-11.6287
省事少食	-11.6287
羣木安逐	-11.6287
見司馬光丞	-11.6287
誋	-11.6287
軺	-11.6287
辱舉其死	-11.6287
下情上而道止謂之侵	-11.6287
不動而疾	-11.6287
乎吾亦鑒焉管子對曰夷吾	-11.6287
也管子曰千人之	-11.6287
也而以上為	-11.6287
五沃之土	-11.6287
使海於有弊渠彌於有陼綱山於有牢	-11.6287
冗	-11.6287
則姦不生	-11.6287
取逺道	-11.6287
君服赤色味苦味	-11.6287
問曰幾何人	-11.6287
墙	-11.6287
墮倪	-11.6287
巨橋之粟	-11.6287
民亂於内	-11.6287
渚	-11.6287
皮幣不衣	-11.6287
臨事不信於民	-11.6287
芬然若	-11.6287
諸侯失於外	-11.6287
賢者食於能	-11.6287
軍之守也六紀審	-11.6287
連什伍	-11.6287
鎌	-11.6287
鬭士食於功	-11.6287
鰥	-11.6288
鎰	-11.6288
兠	-11.6288
所謂治國者主道明也	-11.6288
王天下而失天之道天下不可得而王也	-11.6288
羿之道非射也造父	-11.6288
一朝素賞	-11.6288
互	-11.6288
人事之起近親造怨	-11.6288
梁聚之言	-11.6288
生棟覆屋怨怒不及弱子下瓦慈母操箠	-11.6288
管仲復於桓公曰	-11.6288
上尊而民從	-11.6288
也而令乃行	-11.6288
升加一	-11.6288
定選士勝	-11.6288
曰號令也斧鉞也禄賞也六攻者何也	-11.6288
桓公又問曰	-11.6288
瞠	-11.6288
積之多寡定府官之計數養老弱而勿通	-11.6288
耗而釡	-11.6288
舉所美必觀其所終	-11.6288
貴有以行令	-11.6288
道有損瘠	-11.6288
闟	-11.6288
眀劉績撰	-11.6288
標	-11.6288
年三卿使四輔	-11.6288
里之外二千里之内諸侯三年而朝習命	-11.6288
合小以攻大	-11.6289
寄生之君	-11.6289
隕	-11.6289
作色曰	-11.6289
出魏志本傳	-11.6289
春事二十五日之内	-11.6289
錠	-11.6289
上察於天下	-11.6289
二十乗先	-11.6289
依名而斷	-11.6289
合内空周外	-11.6289
天道之極逺者自親	-11.6289
定制禄勝	-11.6289
想思之	-11.6289
持滿者與天	-11.6289
曰浩浩乎	-11.6289
曰田若干	-11.6289
槍	-11.6289
此其可比於君子之德	-11.6289
無翼而飛	-11.6289
燋	-11.6289
者皆受天	-11.6289
至卑耳之谿	-11.6289
賤則以幣予	-11.6289
㢲	-11.6289
冬行秋政霧	-11.6289
卒輕患而傲敵	-11.6289
城陽大夫	-11.6289
幭	-11.6289
耕者幾何家	-11.6289
行夏政雷	-11.6289
鹽之重升加分	-11.6289
舉發以禮時禮必得	-11.6289
㑹諸侯令曰以爾封内之財物國之所有	-11.6289
南方副圖	-11.6289
和好不基貴賤無司事變日至	-11.6289
官處四體而無禮者流之焉莠命	-11.6289
定方用勝	-11.6289
能止乎能	-11.6289
㐫	-11.6289
帝王者用	-11.6289
繦	-11.6289
君臣共道則亂	-11.6289
出風俗通	-11.629
治民一衆	-11.629
溢	-11.629
由是知名	-11.629
藏不忍行	-11.629
輕重丙第八十二	-11.629
五衢之民	-11.629
人殺妻之父母兄弟數口	-11.629
告其相曰	-11.629
奪之以㑹	-11.629
敢犯我	-11.629
日益長利以作	-11.629
正彼天植	-11.629
睹庚子金行御天子	-11.629
韻	-11.629
風雨無違	-11.629
􁝈	-11.629
霆	-11.629
槨	-11.629
山川之故祀必以時六㑹諸侯令曰以爾	-11.629
行春政烝泄	-11.629
請四輔	-11.629
定綸理勝	-11.629
典品	-11.629
蒞	-11.629
徽	-11.629
實輔四時	-11.629
房	-11.629
肝	-11.629
衷	-11.629
垤	-11.629
生慶忌	-11.629
行於其民	-11.629
褐	-11.629
之一分在	-11.629
吾國之竒出	-11.629
專予禄	-11.629
小國諸侯不	-11.629
幾察也	-11.629
弱必同	-11.629
暨	-11.629
樛留	-11.629
無誹譽	-11.629
算	-11.629
逆氣生	-11.629
㙗	-11.629
七臣七主第五十二	-11.629
不出於口不見於色	-11.629
二中郢賜與十二中絶收聚十二大暑至	-11.629
人心之變	-11.629
以物則物輕	-11.629
伐者霸	-11.629
兵無主則不蚤知	-11.629
刑以弊之	-11.629
喜無以賞怒無以殺喜以賞怒以殺怨乃	-11.629
夏行春政風	-11.629
尊而下卑逺近不乖此居於圖南方方外	-11.629
岱	-11.629
心術上第三十六	-11.629
惡得伐不	-11.629
故不以天下為	-11.629
故凡用兵	-11.629
曰寡人不幸而好	-11.629
有日不足	-11.629
民除害	-11.629
禁發必有時	-11.629
義者莫肯	-11.629
者心也安	-11.629
而莫索	-11.629
能依鬼神作法詛呪	-11.629
錢五倍	-11.629
齓	-11.629
􁧫	-11.629
十二小榆賜予十二中寒收聚十二中榆	-11.6291
定死生勝定成敗勝定依竒勝	-11.6291
民之所利立之所害除之則民人從	-11.6291
藪澤以時禁發之	-11.6291
行秋政雷	-11.6291
縗	-11.6291
天不一時	-11.6291
之以物則物重不	-11.6291
人情非不愛其	-11.6291
何以知之子産曰	-11.6291
先令之失	-11.6291
四萬二千金	-11.6291
囷窌之數	-11.6291
威利之操	-11.6291
守圉之備	-11.6291
宫室必有度	-11.6291
版法解第六十六	-11.6291
甲十萬	-11.6291
能用天下之權	-11.6291
草木雖美	-11.6291
賡	-11.6291
遷封食邑	-11.6291
之外三千里之内諸侯五年而㑹至習命	-11.6291
事而竣公又問焉曰於子之屬有	-11.6291
聽治不公	-11.6291
鮑叔馳而西	-11.6291
見是土也命之曰	-11.6291
使國君得其治則人君從㑹	-11.6291
市賦百取二	-11.6291
請命於天地知氣和則生物從	-11.6291
不正廣其荒	-11.6292
佳	-11.6292
猶軸	-11.6292
庖	-11.6292
置儀設法	-11.6292
不亦無術乎	-11.6292
制於臣矣	-11.6292
審其四時	-11.6292
紀必由	-11.6292
螘	-11.6292
隨時而變	-11.6292
非其難者也	-11.6292
七二十八	-11.6292
信明聖	-11.6292
張詠尚書	-11.6292
捧手	-11.6292
期於興利除害	-11.6292
熯焚鄭地使城	-11.6292
美者應其	-11.6292
不利作土功之事	-11.6292
不如為善於	-11.6292
不難矣	-11.6292
之官則舉事而有功此居於圖北方方外	-11.6292
乎衆人之用其心也愛者憎之始也	-11.6292
也然而不敢者	-11.6292
代王聞之	-11.6292
以奉其主	-11.6292
伐檀柘	-11.6292
侵其北	-11.6292
其地而走	-11.6292
刑曹駮	-11.6292
十二期風至戒秋事十二小	-11.6292
厩	-11.6292
反報曰	-11.6292
吾國之豪	-11.6292
啼	-11.6292
士之有田而不	-11.6292
彼道不	-11.6292
得失之數皆在此	-11.6292
從昆弟	-11.6292
故曰山林雖	-11.6292
春行冬政肅	-11.6292
此國筴之	-11.6292
深之議	-11.6292
炎	-11.6292
瑗	-11.6292
秋行夏政葉	-11.6292
立邑置廧	-11.6292
者其人莫往道	-11.6292
者幾何人餘子	-11.6292
莫貴於勝	-11.6292
軍并其地	-11.6292
鑄幣而	-11.6292
降齊者十分之	-11.6292
肢	-11.6292
之務則功得而無害	-11.6292
九和時節	-11.6292
困通於出入之度則深入而不危審於動	-11.6292
常疾收孤寡三㑹諸侯令曰田租百取五	-11.6292
竒舉發不意則士歡用	-11.6292
著於取與之分則得地而不執	-11.6292
行冬政耗	-11.6292
行春政華	-11.6292
道路偕度量一稱數	-11.6292
墝	-11.6292
盡於此乎管子	-11.6292
惠也刑罰必也	-11.6292
之則非有補於	-11.6292
人有喪雌雄	-11.6292
代谷之上	-11.6292
君不聞此所謂逺於	-11.6292
天覆萬物	-11.6292
孰知其則	-11.6292
故國不虚	-11.6292
春秋冬夏不更其節	-11.6292
有刑至無刑	-11.6292
東山之西水深滅垝	-11.6292
莫要於	-11.6292
衡山之械器	-11.6292
賊比也	-11.6292
項	-11.6292
則鄰國親	-11.6292
右聖人法之以	-11.6292
大收十二寒至	-11.6292
有行伍	-11.6292
民知而取之	-11.6292
水者八千里	-11.6292
治濕氣	-11.6292
退而脩鄉	-11.6292
飲於白后之井	-11.6292
彊國少	-11.6293
出耕十二天氣下賜與十二義氣至	-11.6293
北方副圖	-11.6293
仗	-11.6293
昭昭	-11.6293
受而官	-11.6293
令而不行則	-11.6293
察盗之術	-11.6293
謹按大明律云	-11.6293
鄰國有事鄰國	-11.6293
陌	-11.6293
七十二家	-11.6293
下之人守	-11.6293
不疾其威	-11.6293
主有憂則	-11.6293
令之所止令之所發	-11.6293
以結交焉	-11.6293
其所任官者	-11.6293
則民之報上亦	-11.6293
前心術作	-11.6293
地利者權	-11.6293
天子之春令也以	-11.6293
威下繫於民	-11.6293
居室如	-11.6293
從令者不輯	-11.6293
思人衆兵彊	-11.6293
愛慾	-11.6293
技巧	-11.6293
擅破一國彊在	-11.6293
攻堅則	-11.6293
故游商得	-11.6293
故無顧	-11.6293
於器械之利則	-11.6293
毋功而可以得富者	-11.6293
琅	-11.6293
白心第三十八	-11.6293
知行情	-11.6293
管子入復	-11.6293
者不得復築也屋之燒者不得復葺也令	-11.6293
能圉我	-11.6293
能害己者必齊也	-11.6293
計緩急之事則危危而無難	-11.6293
託幽而威可載也	-11.6293
請以平賈取之	-11.6293
輕重乙第八十一	-11.6293
辜限外死者	-11.6293
開闔	-11.6293
形勢器械	-11.6294
幣輕則	-11.6294
焉無不可以	-11.6294
知先後不失地利	-11.6294
㤀	-11.6294
之歸之也譬若市人	-11.6294
先王知其然故	-11.6294
凋	-11.6294
剛柔	-11.6294
即令隰朋	-11.6294
鄰國有焉	-11.6294
鱉	-11.6294
不濟乎寡人大惑	-11.6294
之所生從法之不立也	-11.6294
偕習以悉	-11.6294
兵尚矛	-11.6294
勿敢左右	-11.6294
地之東西二萬八千里南北二萬六千里	-11.6294
山林之中	-11.6294
旨	-11.6294
有功畜之以道養之以	-11.6294
百姓不安其居	-11.6294
聞之果令人之衡山求買械器	-11.6294
蠭	-11.6294
道備矣	-11.6294
還四年伐孤竹	-11.6294
順殺氣	-11.6294
用九數	-11.6294
立義而加之以勝至威而實之以	-11.6294
九竅五慮	-11.6294
不勸勉不行制不死節	-11.6294
思之思之	-11.6294
奥	-11.6294
者上之所以一民使下也私	-11.6294
者下之所以侵	-11.6294
筭	-11.6294
而還與衆人同	-11.6294
行軍襲邑舉錯	-11.6294
貰	-11.6294
上下不和雖安必危	-11.6294
削衡山之	-11.6294
失天之度雖滿必涸	-11.6294
安髙在乎同利	-11.6294
彗星見則	-11.6294
忽然易	-11.6294
是故大國之君	-11.6294
曰此若言	-11.6294
棠見是土也命之曰	-11.6294
築城郭	-11.6294
者置之黃金一斤直食八石民之	-11.6294
脚	-11.6294
葺	-11.6294
蛟龍得水而神可立也虎豹	-11.6294
行不必同	-11.6294
鉏	-11.6294
龍蛇	-11.6294
不得食于	-11.6294
之通施也	-11.6294
什一之師	-11.6294
使吾萌春有以倳耜夏有以決芸	-11.6294
勢第四十二	-11.6294
十年之蓄積	-11.6294
圉發不意故莫之	-11.6294
忌於辱	-11.6294
數戰則士疲數勝則君驕驕君使疲民則	-11.6294
明法解第六十七	-11.6294
正第四十三	-11.6294
無好無惡	-11.6294
無遺利無隱治	-11.6294
爲此有道乎管子對曰	-11.6294
糗	-11.6294
說行若風雨發如雷電此居於圖方中	-11.6294
貧富之不訾	-11.6294
輔其過則社稷	-11.6294
鍾其出之	-11.6294
袖	-11.6295
刑則交寒害	-11.6295
是以小者兵挫而地削大者身死而國亡	-11.6295
有土之君	-11.6295
閇	-11.6295
不可量則衆	-11.6295
有罪必誅	-11.6295
粗	-11.6295
非鬼神之力也	-11.6295
尊君卑臣非計親也以	-11.6295
繑	-11.6295
里也步者	-11.6295
不以彤弓石璧	-11.6295
二升少半	-11.6295
人唯恐其不復	-11.6295
假貸吾貧萌使有以	-11.6295
准此而行	-11.6295
勿與分於	-11.6295
如飛鳥	-11.6295
威勢也故威勢	-11.6295
此五子者	-11.6295
獨出獨入	-11.6295
睹甲子木行御	-11.6295
萬有餘里	-11.6295
角試否臧收天下之豪傑有天下之稱材	-11.6295
論百工之銳器	-11.6295
無若諸侯	-11.6295
想	-11.6295
始乎無端道也卒乎無窮	-11.6295
乍	-11.6296
居數月	-11.6296
購	-11.6296
狴	-11.6296
不聽於天	-11.6296
逗	-11.6296
則勞臣	-11.6296
召忽强武	-11.6296
尹洙	-11.6296
盡其民力	-11.6296
知益州	-11.6296
課其功	-11.6296
鰥寡	-11.6296
不僇賢人	-11.6296
不私其利	-11.6296
不能得之於	-11.6296
之日發五政	-11.6296
任法第四十五	-11.6296
倍之力而不至者有	-11.6296
北海之衆	-11.6296
北澤燒	-11.6296
十口之家十人	-11.6296
崖	-11.6296
得天極則	-11.6296
得繕冢墓	-11.6296
故必勝而無敵四機不	-11.6296
敘	-11.6296
月食則	-11.6296
朝先王之廟觀於周室	-11.6296
此皆距周七千八百	-11.6296
民不安其居	-11.6296
求天下之精材	-11.6296
涿	-11.6296
為此有道乎管子對曰	-11.6296
無鹽則腫守圉之	-11.6296
百口之家百人	-11.6296
稱貸之家皆齊首	-11.6296
稽顙	-11.6296
立臺榭	-11.6296
義審而禮明	-11.6296
障塞不審不過八日而外賊得	-11.6296
無聚衆	-11.6296
衾	-11.6296
兵尚脅盾	-11.6296
察數而知治審器而識勝	-11.6296
死亡不食不過四日而軍財在敵	-11.6296
酖	-11.6296
瘳	-11.6296
劌	-11.6296
察國本	-11.6296
二十四月	-11.6296
公子糺召忽	-11.6296
吾貧萌	-11.6296
大城不	-11.6296
得聚庸	-11.6296
昔者聖王之治其民也	-11.6296
曰寡人多務令衡籍吾國	-11.6296
用鹽獨	-11.6296
能反其性	-11.6296
離枝聞之	-11.6296
三升少半	-11.6296
之有所不行也	-11.6296
事語第七十一	-11.6296
仁慈孝於父母長弟聞於鄉里者有則以	-11.6296
八舉時節	-11.6296
則民多詐	-11.6296
善習五官謹修三官必設常主計必先定	-11.6296
明主之治天下也	-11.6296
者謹守	-11.6296
貪於土	-11.6296
大勝無不勝也此居於圖南方方外	-11.6297
徑乎不知	-11.6297
此亦可謂昔者	-11.6297
書録解題	-11.6297
而守不固戰不勝而守不固則國不安矣	-11.6297
鯀	-11.6297
剪	-11.6297
澗	-11.6297
蠋	-11.6297
乳	-11.6297
傰	-11.6297
則歸之於民	-11.6297
周勝大明則	-11.6297
樹木之勝霜	-11.6297
禮孝弟	-11.6297
胙	-11.6297
衆在廢私	-11.6297
飄	-11.6297
五升少半	-11.6297
人言市有虎	-11.6297
充其言則	-11.6297
其士民貴	-11.6297
則戰之自勝	-11.6297
勝則險阻不守	-11.6297
受息之萌九百餘家	-11.6297
塗濡	-11.6297
所謂能以所不	-11.6297
於水則神	-11.6297
有千金之賈	-11.6297
桂氏	-11.6297
泉之不竭	-11.6297
者與功而不與分焉	-11.6297
舉不失天時	-11.6297
言之不可復者	-11.6297
霸臣貪	-11.6297
鮑叔乃告	-11.6297
齊有渠展之鹽	-11.6297
圭	-11.6297
博一純固則獨行而無敵	-11.6297
弭	-11.6298
桓公築夷儀以封之	-11.6298
以其所有易其所無	-11.6298
於山五尺見水	-11.6298
樞言第十二	-11.6298
人主天下之有	-11.6298
以時禁發	-11.6298
助之發	-11.6298
有犯禁而可以得免者則斧鉞不足以	-11.6298
物之髙者也	-11.6298
號令不足以使下	-11.6298
閎	-11.6298
不治奚待於	-11.6298
丹青	-11.6298
予而無取者天地之配也	-11.6298
人之所重也	-11.6298
以予齊	-11.6298
伐齊納公子糺	-11.6298
則賔者不肅	-11.6298
哉我無	-11.6298
地不辟則	-11.6298
墳墓之所在	-11.6298
定周室天下	-11.6298
戰而懼	-11.6298
攻之自毁	-11.6298
明王知其然故	-11.6298
矣不當盡語我昔者無道之	-11.6298
立政九敗解第六十五	-11.6298
臣離味	-11.6298
與地同極	-11.6298
興兵而南存宋鄭	-11.6298
謂之蔽才其罪五有司	-11.6298
進退無儀則政令不行	-11.6298
釬	-11.6298
穰	-11.6298
黨比周以	-11.6298
鱗獸之火	-11.6298
發乎不意	-11.6298
犴	-11.6298
民賤其爵服	-11.6298
畋	-11.6298
商販	-11.6299
之則幷與	-11.6299
之陳無種者	-11.6299
以教其子弟	-11.6299
君勿救	-11.6299
塲	-11.6299
大匡第十八	-11.6299
成囷京者二家	-11.6299
所慮而請	-11.6299
故上令而下應主行而臣從	-11.6299
朝者義之理也	-11.6299
民輕其禄賞	-11.6299
理不上通	-11.6299
管仲再拜稽首	-11.6299
與女及	-11.6299
莫樂之則莫哀之	-11.6299
莫生之則莫死之	-11.6299
輕民處	-11.6299
遺苞	-11.6299
量能而	-11.6299
金玉雖多	-11.6299
金與粟爭貴	-11.6299
鍿	-11.6299
雖犯禁而可以得免	-11.6299
齊國危矣	-11.6299
其主主因離法而聽之此所謂	-11.6299
力成吾君之禍	-11.6299
壟墓	-11.6299
失生之國惡	-11.6299
宵	-11.6299
已語我昔者有道之君	-11.6299
有家不治	-11.6299
置儀法	-11.6299
衆寡同力	-11.6299
行乞者	-11.6299
計必先定	-11.6299
貧民貧	-11.6299
風與日爭明則	-11.6299
鬈	-11.6299
脅盾	-11.6299
輅	-11.6299
致其力	-11.6299
重民散	-11.6299
丁壯者	-11.6299
不行其野不違其馬	-11.6299
五家之數殊而用一也桓公曰	-11.6299
以文克齊	-11.6299
以鄭城與宋水為請	-11.6299
入而不至謂之	-11.6299
召忽奉公子糺	-11.6299
問鄉之	-11.6299
多者千萬少者六七百萬其出之中	-11.6299
散積聚	-11.6299
此兵之三闇也	-11.6299
此其何故也管子	-11.6299
沐涂樹之枝	-11.6299
沸	-11.6299
莫不欲利而惡害	-11.6299
請式璧而聘之	-11.6299
足以勸民號令不足以使下斧鉞不足以	-11.6299
彦	-11.63
鑰	-11.63
為開封府	-11.63
塞心術計數	-11.63
山髙而不崩則祈羊至	-11.63
理之至也	-11.63
平原之隰奚有於髙	-11.63
後必相	-11.63
明勝大周則	-11.63
校尉縁無忌以致罪	-11.63
版法第七	-11.63
而求上之毋危	-11.63
透	-11.63
上之法制	-11.63
主之分也	-11.63
九變第四十四	-11.63
亭亭	-11.63
以御其司命故民力可	-11.63
任小物	-11.63
先易者	-11.63
公子彭生	-11.63
出而不入謂之	-11.63
勇勝怯智勝愚	-11.63
勸之以慶賞	-11.63
四海之人	-11.63
坐長什倍	-11.63
家與府爭貨	-11.63
尺而至於泉付山	-11.63
府不積貨	-11.63
急作五聲	-11.63
故野不積草	-11.63
施九十	-11.63
民和輯	-11.63
泲	-11.63
皮幹筋角	-11.63
而不能以國詘	-11.63
能後其身	-11.63
輿死扶傷	-11.63
逺近一心	-11.63
遼	-11.63
重積徳	-11.63
雖心之所	-11.63
齊國之社稷	-11.63
牧民第一	-11.63
疆	-11.63
吾欲藉於	-11.6301
差肩而	-11.6301
人不一事	-11.6301
合於天地之	-11.6301
大山之隈奚有於深	-11.6301
民不得操	-11.6301
祈祥	-11.6301
一女必有一	-11.6301
乎管子對曰可夫	-11.6301
女樂三	-11.6301
守之以筴	-11.6301
管子對曰昔者桀	-11.6301
鵠鵾之所在君	-11.6301
冶之於金	-11.6301
姦智生	-11.6301
恃不信之人而求以	-11.6301
所欲者能得諸民	-11.6301
故君道立	-11.6301
棧臺之職	-11.6301
治國有三	-11.6301
祝融	-11.6301
累代之功	-11.6301
説以進	-11.6301
陶之於埴	-11.6301
閈	-11.6301
不我欺	-11.6301
叢	-11.6301
不仕與耕者	-11.6301
田野充	-11.6301
箎	-11.6301
不忠君不能奪	-11.6301
兵弱而士不厲	-11.6301
在子期年子	-11.6301
在臣期年臣	-11.6301
小稱第三十二	-11.6301
干戚	-11.6301
敦慤	-11.6301
治事加於	-11.6301
無功而可以得富	-11.6301
轝	-11.6301
一施七	-11.6301
人獨操國	-11.6301
其唯無	-11.6301
可化而使之	-11.6301
寛舒	-11.6301
慤愿	-11.6301
方六里	-11.6301
歸親於上矣	-11.6301
洀	-11.6301
而兵出於竟	-11.6301
萬家以上	-11.6301
見其不可也惡之	-11.6301
魂	-11.6301
鳥獸	-11.6301
御神用寶	-11.6302
九合諸侯	-11.6302
心之在體君之位也	-11.6302
明日管仲朝公	-11.6302
籍求於民	-11.6302
不審則姦	-11.6302
以致民利	-11.6302
在愛施	-11.6302
天子出令命左右	-11.6302
官長任事守職	-11.6302
意一心	-11.6302
曰夷吾與召忽	-11.6302
楟	-11.6302
童山竭澤	-11.6302
籍而務則	-11.6302
霸形第二十二	-11.6302
鷙	-11.6302
磔	-11.6302
無守城	-11.6302
閇藏	-11.6302
枳	-11.6302
宿治者削	-11.6303
二十國之筴也	-11.6303
煇	-11.6303
九守第五十五	-11.6303
公子糺可謂有	-11.6303
壮	-11.6303
尺而至於泉其下	-11.6303
彼幸而	-11.6303
結紐	-11.6303
誼	-11.6303
則長子死	-11.6303
士修身功材	-11.6303
年之積粟行於	-11.6303
比黨者	-11.6303
盛怨氣	-11.6303
祠部	-11.6303
菱	-11.6303
廵檢	-11.6303
一事能變	-11.6303
主尊臣卑	-11.6303
隨之以法	-11.6303
毉	-11.6303
諸侯卿大夫列士循於百姓發號出令曰	-11.6303
輕民輕	-11.6303
不言之言	-11.6303
則邪人不	-11.6303
召管仲管仲至公	-11.6303
晉和凝撰	-11.6303
犇	-11.6303
獨行而無敵矣	-11.6303
芋	-11.6303
近親愛	-11.6303
顧憂者可與致道	-11.6303
于仲文	-11.6304
彊國衆先舉	-11.6304
鍊	-11.6304
圜豚豚乎莫得	-11.6304
君鑄錢立幣民	-11.6304
帚	-11.6304
春采生秋采蓏夏處隂冬處陽	-11.6304
時而王不難矣	-11.6304
物固有形形固有名	-11.6304
者置之黄金一斤直食八石民之	-11.6304
與物俱長	-11.6304
贛	-11.6304
髙下令之徐疾	-11.6304
鰥寡獨老不與得焉	-11.6304
不相睹	-11.6304
之籍去分	-11.6304
以為民紀	-11.6304
典冠	-11.6304
夷貉之	-11.6304
少長貴賤不相踰越	-11.6304
山諸侯之國	-11.6304
日新其德	-11.6304
津梁	-11.6304
罪入以	-11.6304
美哉岪岪	-11.6304
行則百吏皆	-11.6304
視宫室觀車馬衣服而侈儉之國可知也	-11.6304
請立為大司	-11.6304
周書曰	-11.6305
之秋大	-11.6305
唐戴胄	-11.6305
不足者皆以其事業	-11.6305
城不固	-11.6305
常不變	-11.6305
發於名聲	-11.6305
眀於機數	-11.6305
聖人成之	-11.6305
則是上妄	-11.6305
塩	-11.6305
之髙行也	-11.6305
蓑	-11.6305
五量之宗也	-11.6305
入國第五十四	-11.6305
剰	-11.6305
形勢解第六十四	-11.6305
碣	-11.6305
丐	-11.6305
亦勿聽	-11.6305
吾不識	-11.6305
天子之容	-11.6305
寂泊	-11.6305
尊君尊	-11.6305
嶠	-11.6305
怙	-11.6305
掇	-11.6305
擅主者	-11.6305
桑麻計其六畜之産而貧富之國可知也	-11.6305
止其養	-11.6305
然故諶杵習士聞識博學之	-11.6305
甃	-11.6305
縞	-11.6305
而不行謂之	-11.6305
胜	-11.6305
言待感	-11.6305
詭俗異禮	-11.6305
遫	-11.6305
推而往不	-11.6306
君子食於道則	-11.6306
大男食	-11.6306
大臣不和	-11.6306
賀獻	-11.6306
一農之事	-11.6306
令之行也	-11.6306
民不足以守	-11.6306
田野視其耕芸計其農事而飢飽之國可	-11.6306
舟船	-11.6306
集不載	-11.6306
新唐書	-11.6307
以來逺人	-11.6307
冐	-11.6307
建康	-11.6307
引而來不	-11.6307
弔	-11.6307
爲己用	-11.6307
諸侯可令	-11.6307
得失之質	-11.6307
猥	-11.6307
生上位	-11.6307
則使無由	-11.6307
君若有過	-11.6307
小謹者不大立	-11.6307
滿稽斷	-11.6307
鞍	-11.6307
日至始數四十六日	-11.6308
知得失	-11.6308
恭遜	-11.6308
禺氏之	-11.6308
草田多	-11.6308
鹽鐵	-11.6308
紛	-11.6308
爲兵之數	-11.6308
之人非生而	-11.6308
刁	-11.6308
恪	-11.6308
愜	-11.6308
亡雜篇十	-11.6308
凡心之形過知失生	-11.6308
心術下第三十七	-11.6308
召忽雖不得	-11.6308
四十倍之粟	-11.6308
有飢色	-11.6308
歸齊若流	-11.6308
毒而無怒怨而無言欲而無謀	-11.6308
仄	-11.6308
何如管子曰	-11.6308
儐	-11.6308
庄	-11.6308
必諾之言不足信也	-11.6308
敝袴	-11.6308
棄萬苛	-11.6308
謂寡人曰	-11.6308
管子對曰北郭	-11.6309
戌	-11.6309
僉	-11.6309
有老父	-11.6309
棲	-11.6309
農夫不失其	-11.6309
之急度	-11.6309
君子食於道小人食於力	-11.6309
有内憂	-11.6309
上賦重	-11.6309
故其諾未	-11.6309
而不行則賞罰	-11.6309
民心易	-11.631
子婦孝	-11.631
能君萬物	-11.631
淫非之地	-11.631
不法法則	-11.631
今在魯	-11.631
則其所立亦	-11.631
堅脆	-11.631
夫天地一險一易若鼓之有	-11.631
如此之臣不可謂	-11.631
幨	-11.631
蘇瓊	-11.631
衝	-11.631
郭躬	-11.631
餓餒	-11.631
内業作	-11.631
擊亂以	-11.631
運萬物運則萬物賤萬物賤則萬物可因	-11.631
於召陵	-11.631
平治天下及	-11.631
炊	-11.631
則人畏其	-11.631
而國貧者	-11.6311
宫室臺榭	-11.6311
貶	-11.6311
定民之居成民之事	-11.6311
相陳以	-11.6311
鮑叔隰朋	-11.6311
之裁大故能兼	-11.6311
人使人相	-11.6311
其所謹者	-11.6311
耕芸	-11.6311
主則主不得	-11.6312
國地大而	-11.6312
柱	-11.6312
業程於	-11.6312
仲尼不知善賞	-11.6312
優笑	-11.6312
具則戰	-11.6312
往小侯以	-11.6312
能審察	-11.6312
以付法	-11.6312
於燥濕	-11.6312
是威下分也	-11.6312
毋赦者	-11.6312
犂	-11.6312
以田曰	-11.6312
子言伐莒	-11.6312
知識故人	-11.6312
者不敢讓	-11.6312
無戰心	-11.6313
善人在則	-11.6313
王霸之	-11.6313
自古以	-11.6314
箕鄭	-11.6314
國雖小	-11.6314
葅	-11.6314
乆而不勝其福	-11.6314
雕文刻鏤	-11.6314
事再其本	-11.6314
以奉天子	-11.6314
唇	-11.6314
左操五音右執五味	-11.6314
民邪途	-11.6314
生也吾欲藉於	-11.6314
百利不得	-11.6314
而后止	-11.6314
諸侯莫不來服	-11.6314
君臣下第三十一	-11.6314
操持不	-11.6314
事不能再其本而上之求焉無止	-11.6314
收藏之	-11.6314
明於機數	-11.6314
自取之也	-11.6314
覆載萬民	-11.6314
非所取也	-11.6314
菅	-11.6315
衣裳賀之	-11.6315
邊鄙	-11.6315
上與君	-11.6315
致天下之精材	-11.6315
民亂曰	-11.6315
物守法者	-11.6315
貴賤不求其	-11.6316
侑	-11.6316
恭祖舊	-11.6316
絻黒	-11.6316
非兹是無以	-11.6316
薦之先	-11.6316
屩	-11.6316
酤	-11.6317
庾	-11.6317
而求令之	-11.6317
四其本則	-11.6317
旌之以	-11.6317
無遺善無隱姦	-11.6317
重於親戚	-11.6317
上無量	-11.6317
疾病姑樂乎	-11.6317
而不計失	-11.6317
纓	-11.6318
後舉者	-11.6318
比官中之事	-11.6318
中射之士	-11.6318
而民可使	-11.6318
哤	-11.6318
曰寡人有千嵗之食而無百嵗之夀今	-11.6318
片	-11.6318
而無所定	-11.6319
賠	-11.6319
之所起也	-11.6319
其應物也若偶之	-11.6319
所由生	-11.6319
則民之用者	-11.6319
不可損益也	-11.6319
倉廩實則知禮節衣食足則知榮辱	-11.6319
姦邪盜賊	-11.6319
道其道則	-11.6319
之道畢矣	-11.632
眞	-11.632
功賞賢	-11.632
國必亡	-11.632
正籍者	-11.632
霸國者	-11.632
旦暮從事於	-11.6321
伯夷叔齊	-11.6321
國少先舉	-11.6321
首者賜之	-11.6321
充不美則	-11.6321
明年狄人伐	-11.6321
卑身雜處	-11.6321
有地牧民者務在四時	-11.6321
君出致於	-11.6321
紉	-11.6321
豺	-11.6321
君小人也	-11.6322
祖無功者	-11.6322
之無益故	-11.6322
勿望而	-11.6322
諒	-11.6322
則忠臣無	-11.6323
有亡失	-11.6323
君朝令	-11.6323
埏	-11.6323
榬	-11.6323
不自進	-11.6323
人之求事也	-11.6323
子出奉令則	-11.6323
有正食而盜食	-11.6323
知禍福之	-11.6325
脩令者	-11.6325
則立於一	-11.6325
也以夏日至始數	-11.6326
年不決	-11.6326
而勿盡桓公曰	-11.6326
日不食無	-11.6326
鮑叔許諾	-11.6327
乘馬之數	-11.6328
何可無	-11.6328
不言其外	-11.6329
見災變之氣	-11.6329
不然民重	-11.633
里之情通矣堂	-11.633
人雖衆不	-11.633
佯憎	-11.633
溶	-11.633
蒿	-11.633
利者天下	-11.6332
問左右左右	-11.6333
有傷敗	-11.6333
村童	-11.6333
知所必	-11.6333
夫爭天下者	-11.6336
夫善用	-11.6336
罪身者民	-11.6337
欠	-11.6337
天子中而	-11.6339
曰壅臣	-11.6339
成形於	-11.6341
工役者	-11.6341
賞重則	-11.6341
以出征	-11.6342
瓜	-11.6343
不可法故	-11.6347
韋丹	-11.6347
請以令使	-11.6348
沉香	-11.635
有非常之	-11.6352
能殺力	-11.6352
五位之	-11.6361
不譽者	-11.6364
此兩者	-11.6365
金起於汝漢	-11.6369
見察姦門	-11.6377
而不赦有	-11.6379
以巧言	-11.6385
官不理	-11.6387
雖利不	-11.6391
法愛於	-11.6392
之張官	-11.6394
者勿征於	-11.6405
而宫室美	-11.6412
兵强故	-11.6412
勝任之	-11.6437
知臣莫	-11.6439
九十二日謂之	-11.6444
無以有其	-11.6456
緩其刑	-11.6476
君知臣	-11.6541
則得其所	-11.6603
以給其	-11.6606
入而不出謂之	-11.6612
令之不行	-11.6613
子無征養	-11.6627
籍於六畜	-11.6692
小恥不	-11.6697
夫民之不	-11.673
乘馬第	-11.6793
必信則	-11.6796
可藏而	-11.6953
免於賊	-11.6972
得不化	-11.7123
酒酣	-11.7146
主之所處	-11.7216
守靜人物	-11.7539
壯男	-11.7753
人物則皇	-11.7998
世之王者	-11.8515
民輕生	-11.8547
寘于法	-11.9014
益令者	-11.9155
無刑至有刑	-11.945
征於關	-11.9504
宏	-11.9536
天地萬物之橐	-11.9549
文節級	-11.9554
天下者必先	-11.9555
孫長卿	-11.9556
嘷	-11.9557
㤥	-11.9567
謂齊王曰	-11.9569
既至妻	-11.9569
臘	-11.9571
廂	-11.9571
智術之士	-11.9573
者是望不得	-11.9573
靳宗說	-11.9573
范且虞慶	-11.9575
舉兵而伐	-11.9577
蔑	-11.9579
儒者以為害義故不	-11.9579
紳	-11.9581
州民有積為仇者一日諸子私謂其母曰	-11.9582
程戡宣徽知	-11.9582
敬以哀	-11.9583
老且病恐不得更	-11.9583
請以母死報仇乃殺其母置	-11.9583
釋法而任	-11.9583
獄未具	-11.9583
錘	-11.9584
枷	-11.9584
能愛君君必去之公曰諾	-11.9584
譎盗之術	-11.9584
果獲真盗	-11.9585
不可以得安也必曰我	-11.9586
至治之國	-11.9586
鉸	-11.9586
駑	-11.9586
不臣天子不友諸侯	-11.9588
耕作而食之掘井而飲之	-11.9588
人衆兵强	-11.9588
昊	-11.9588
年穀熟	-11.9589
其有寃乃	-11.959
人求之不移日而得之	-11.959
好服紫	-11.959
世主必從而禮之	-11.959
以便宜戮	-11.959
子服厲伯	-11.959
民之所樂民强民强	-11.959
有數乎管子對曰	-11.9591
沼	-11.9592
同氣相求	-11.9592
惟良折獄	-11.9592
逵	-11.9592
諺	-11.9594
岳州沅江令	-11.9594
芊	-11.9594
標題	-11.9594
燈	-11.9594
詎	-11.9594
搒	-11.9595
私君事去	-11.9595
衰而國失固	-11.9595
臣不如隰朋請立	-11.9596
熾	-11.9596
㕘軍時	-11.9596
轍	-11.9596
焉得不服	-11.9596
范純仁	-11.9596
騙	-11.9596
櫝	-11.9596
潘崇曰	-11.9596
綽	-11.9596
寅	-11.9598
也雖有聖智	-11.9598
吏卒游徼	-11.9598
椁	-11.9598
何官之吏	-11.9598
諤	-11.9598
贈	-11.9598
刑重而必	-11.9598
民不敢試	-11.9598
相去逺矣	-11.9598
粜	-11.9598
行端直	-11.9598
譽者不能進	-11.9598
肌	-11.9599
為袁州司理	-11.9599
棧	-11.9599
艷	-11.9599
厮	-11.9599
展	-11.96
然則寡人安	-11.96
座	-11.96
腸胃	-11.96
開封府判官時	-11.96
也鄭縣人	-11.96
竦	-11.96
遥	-11.96
剟	-11.96
丞相知潤州有婦人夫出	-11.96
朴	-11.96
為我用者	-11.96
王蜀時	-11.96
离	-11.96
陼	-11.96
顛頡之脊	-11.96
辭屢變	-11.9601
蘇渙郎中知	-11.9602
而後書之既引伏獄未上而其家人復訴	-11.9602
利莫長於	-11.9602
所失衫袴是一端布	-11.9602
論如法	-11.9602
事合而利異者	-11.9602
嘗有入此者乎對曰無有	-11.9602
態	-11.9602
有愛妾	-11.9602
盡如比干	-11.9602
莫之能廢也	-11.9602
葛源葛源郎中	-11.9602
驗是其夫否皆言井深不可	-11.9602
則貨財上流	-11.9603
時之快	-11.9603
獲於貧窮	-11.9603
剌	-11.9604
前秦苻融	-11.9604
行刑重其輕者輕者不	-11.9604
有盜殺人	-11.9604
肋	-11.9604
人主孤而毋内	-11.9604
今世主皆	-11.9604
啗	-11.9604
寺丞王璩	-11.9604
弃道理	-11.9604
成天下之功也	-11.9604
批	-11.9604
爭産者	-11.9604
腰	-11.9604
膠	-11.9604
至曲必	-11.9604
豁	-11.9604
伏其辜	-11.9605
臣不如東郭牙請立以為	-11.9605
屛	-11.9605
廼	-11.9605
不蔽之術	-11.9605
琢	-11.9605
鞅	-11.9605
察而疑之問	-11.9606
同聲相應	-11.9606
培	-11.9606
孟常芒卯	-11.9606
褊	-11.9606
卞	-11.9606
浸	-11.9606
禇	-11.9606
兮	-11.9606
四貧民	-11.9606
拓	-11.9606
漆雕之	-11.9606
無常儀的	-11.9606
餉	-11.9606
䋲	-11.9606
上無事而民自試	-11.9606
余讀管	-11.9606
宜與殺人同不宜以大逆論	-11.9606
揭	-11.9606
於季氏	-11.9606
然後可興	-11.9606
與人家安厝	-11.9606
豪家舉事只言	-11.9606
之世者必為	-11.9606
於不通之野	-11.9606
本事而事末作	-11.9606
瑾	-11.9606
粥	-11.9606
蓬之問不在所賔	-11.9606
方偕大卿為御史臺推直官	-11.9606
績按齊語	-11.9607
乎左右對曰	-11.9607
簾	-11.9607
男女無别	-11.9607
糲	-11.9607
錄囚徒	-11.9607
牝	-11.9608
蓄殖果木不如三土以十分之七	-11.9608
以刑去刑	-11.9608
牓	-11.9608
駻	-11.9608
撲	-11.9608
而問之果	-11.9608
顔涿聚曰	-11.9608
入朝廷觀左右本求朝之臣	-11.9608
刪	-11.9608
段	-11.9608
畵	-11.9608
者君臣之所共立也權	-11.9608
赭	-11.9608
蹈	-11.9608
驟	-11.9608
瑜	-11.9608
績按别本	-11.9608
繡	-11.9608
裔	-11.9608
而譙之曰	-11.9608
両	-11.9609
國無常經	-11.9609
簮	-11.9609
䏻彊其兵	-11.9609
上爵列	-11.9609
勢利官大	-11.9609
朝不鼎饋	-11.9609
所連及	-11.9609
躁則失	-11.9609
所與居皆其所	-11.9609
獄久不決	-11.9609
㟁	-11.9609
全心在中不可蔽	-11.9609
刳	-11.9609
妾與小吏為姦	-11.9609
揑	-11.9609
殻	-11.9609
淚	-11.9609
耳不聦	-11.9609
下令曰某日大	-11.9609
不聽者存	-11.9609
兄殺弟	-11.9609
募	-11.9609
巧佞而好利	-11.9609
袪	-11.9609
銘	-11.9609
不能勿惡	-11.9609
冲	-11.9609
十至於私人之門	-11.9609
後事本朝終於	-11.9609
敎器備利	-11.9609
材臣不務竭能	-11.9609
藏謂苞	-11.9609
誨	-11.9609
銖	-11.9609
疽	-11.961
朞	-11.961
儗	-11.961
吠	-11.961
垝	-11.961
毋告不知與不	-11.961
至自有道	-11.961
邜	-11.961
埤	-11.961
執玉以見請為關内之侯	-11.961
欲廢之則亦惑也	-11.961
者必多矣	-11.961
鍵	-11.961
難之曰海有風波安知	-11.961
眉	-11.9611
之則親利之	-11.9611
髀	-11.9611
之意同矣	-11.9611
孝悌忠順之道	-11.9611
盥漱	-11.9611
言室滿室言堂滿堂	-11.9611
不惡死則	-11.9611
人主失守則危	-11.9611
柔安靜樂	-11.9611
為鄆帥日	-11.9611
臥	-11.9611
以倮獸之火㸑	-11.9611
取人以已	-11.9611
合天下之權	-11.9611
屎	-11.9611
父之子郡縣	-11.9611
用譎以擿	-11.9611
霸王之名不成	-11.9611
韜	-11.9611
牘視其印文則無少異誣者	-11.9612
察事情	-11.9612
枷一囚立於馬市宣言	-11.9612
善用人者必	-11.9612
四百六十	-11.9612
𬞞	-11.9612
立為定額	-11.9612
後母所生非	-11.9612
愷	-11.9612
於法不可理	-11.9612
曰均之死也戮死	-11.9612
果弱魯君	-11.9612
無所逃其	-11.9612
闗市之征	-11.9612
鏤	-11.9613
貴而主斷	-11.9613
無以使下	-11.9613
秦發兵	-11.9613
詣廷尉	-11.9613
畱	-11.9613
索國之富強不可得也	-11.9613
右菁茅謀	-11.9613
在申子之	-11.9613
富商子	-11.9613
菑及之	-11.9613
訂	-11.9613
鍛	-11.9613
餘則否	-11.9613
不能至扵其所欲至	-11.9613
之皆殺也乃捕仇家	-11.9613
卑賤不待尊貴而	-11.9613
後天而奉天	-11.9613
惠文君	-11.9613
按晉書本傳	-11.9613
於耕農	-11.9613
椒	-11.9613
滯而雜	-11.9613
痤疽	-11.9613
若因夜虚	-11.9613
見曽肇内	-11.9613
鄰人之父	-11.9613
嫡妻無子其妾有子夫死為妾所逐	-11.9614
眀賞不費	-11.9614
人之有禍	-11.9614
呌	-11.9614
納汝女為子婦許嫁其女汝家有之乎	-11.9614
色動又告之曰汝且死書	-11.9614
藩	-11.9614
訊之囚對如	-11.9614
鋌	-11.9614
不可勝救	-11.9614
以環其私	-11.9614
則民自試	-11.9614
為坐客所	-11.9614
為惠於法之内	-11.9614
豈有中毒而能終席	-11.9614
大臣不因左右而	-11.9614
婚	-11.9614
尊賢授德則	-11.9614
曰長婦執爵而致也	-11.9614
藏温濡	-11.9614
𨼆	-11.9614
舉時節	-11.9615
悵然失色	-11.9615
憶	-11.9615
飄風暴雨	-11.9615
庇	-11.9615
劵抑汝女為婢指十萬為	-11.9615
有滿虛	-11.9615
獲真盜	-11.9615
疚	-11.9615
胃	-11.9615
芨	-11.9615
處不華	-11.9615
闊	-11.9615
之歸己也	-11.9615
侠	-11.9615
其功順天者天助之其功逆天者天違之	-11.9615
其草宜	-11.9615
巢	-11.9615
梁壻復貪鄙畏	-11.9615
楫	-11.9615
一女已適人	-11.9615
均地分力使民知時	-11.9615
廢上之制	-11.9615
微妙之言	-11.9615
東以弱齊	-11.9615
此固以失霸王之道	-11.9615
父亡未	-11.9615
甥	-11.9615
目不淫心無他	-11.9615
知耀州	-11.9615
至味而罷	-11.9615
見杏核	-11.9615
計凡付終務本飭末則富	-11.9615
霸王之名可成	-11.9615
鮑叔不以我爲	-11.9615
大勝者積衆	-11.9615
甯	-11.9615
告偽為州印	-11.9616
授生徒	-11.9616
橘	-11.9616
失而國危	-11.9616
功立而名成	-11.9616
發小兵以服	-11.9616
萬頃爲戸	-11.9616
錢若水為同州推官	-11.9616
穎	-11.9616
鹿皮四	-11.9616
為大理寺詳斷官時	-11.9617
瘠	-11.9617
幅	-11.9617
家號寃	-11.9617
以盡民力	-11.9617
名卑地削	-11.9617
悅	-11.9617
不言之聲	-11.9617
妾以為妻	-11.9617
後魏髙謙之	-11.9617
而簡其業	-11.9617
辜限計日而日以百刻計之死在限外	-11.9617
飄風一	-11.9617
乃夜放驢出而藏其鞍	-11.9617
乗爲耕田	-11.9617
冢	-11.9617
國富兵彊	-11.9617
子罕為出彘	-11.9617
審則法令固賞罰必	-11.9617
庸主之所易	-11.9617
廊	-11.9617
戕	-11.9617
所以勸功也	-11.9617
標題今補	-11.9617
浪	-11.9617
牖	-11.9617
縵	-11.9617
不中法者不	-11.9617
國無以大與幸而有功名者	-11.9617
弓弩之	-11.9617
煜	-11.9617
祔	-11.9618
艱	-11.9618
函	-11.9618
推所毆時在限外四刻因訴於郡得原父	-11.9618
昔晉武庫火張華以為積油	-11.9618
衆暴寡	-11.9618
往者不至來者不極	-11.9618
德也道不可量德不可數	-11.9618
櫑	-11.9618
民産之所有餘不足而存亡之國可知也	-11.9618
范忠宣	-11.9618
不利彌甚	-11.9618
國之所以亂者	-11.9618
地貟第五十八	-11.9618
尊賢授徳則	-11.9618
桂萬榮	-11.9618
行二曰舉	-11.9618
懈	-11.9618
接之以禮和之以樂期之以事攻之以官	-11.9619
歐養坦氣修通凡物開靜形生理	-11.9619
不可以示人	-11.9619
前漢時	-11.9619
袵	-11.9619
捧椀以	-11.9619
有功必賞	-11.9619
此其所以然者由	-11.9619
鎖	-11.9619
黄金一筴也江陽之珠一筴也秦	-11.9619
忱	-11.9619
瓴	-11.9619
窟穴	-11.9619
舡	-11.9619
董閼于	-11.9619
右石璧謀	-11.9619
因殺陳依律	-11.9619
太子在帝側遂問之對曰夫繼母如母	-11.9619
守辜而傷者死	-11.9619
左酒右醬	-11.9619
廧	-11.9619
弇	-11.9619
提㸃河北刑獄時	-11.9619
殳	-11.9619
漢景帝時廷尉上囚防	-11.9619
繼母陳殺防	-11.9619
見知不悖	-11.9619
頂	-11.9619
顧憲之	-11.9619
餌	-11.9619
不可兩守	-11.9619
問政於仲尼仲尼曰政在	-11.9619
子母復	-11.9619
徧行而不盡也	-11.9619
於貨中舟人	-11.9619
是利姦邪而	-11.9619
曹孫宿	-11.9619
月恭校上	-11.9619
朐	-11.9619
罰罪有過以懲之殺僇犯禁以振之	-11.9619
能而受官	-11.9619
輕財而重名	-11.9619
遲	-11.9619
鄢郢	-11.9619
韈	-11.9619
幾行義勝之	-11.962
彀	-11.962
我昔者有道之君	-11.962
禁藏第五十三	-11.962
下手之日母恩絶矣	-11.962
人主愈蔽	-11.962
人枉其法	-11.962
其所不能已	-11.962
咄	-11.962
成事以質	-11.962
無疾風	-11.962
父之故比之於母今繼母無狀手殺其父	-11.962
萬戸爲開口	-11.962
儆	-11.962
先王取天下	-11.962
南方本圖	-11.962
四鄰諸侯之義仲父不當盡	-11.962
小好脩逺	-11.962
昔從事於此	-11.962
濬	-11.962
烝其首子而	-11.962
穉	-11.962
聽而不聞	-11.962
藻	-11.962
通判䖍州	-11.962
𤣥官聴	-11.962
􁁴	-11.962
鴻	-11.9621
桴	-11.9621
橋店主張逖妻歸寧有	-11.9621
安重榮	-11.9621
故附著之	-11.9621
相踰越	-11.9621
孱	-11.9621
燼	-11.9621
蒸細薪	-11.9621
它	-11.9621
昭奚恤	-11.9621
狸	-11.9621
獄獨留一人留者色動	-11.9621
當詣宅矣亦無難色	-11.9621
秪	-11.9621
上不愛民民不死	-11.9621
不方之政	-11.9621
之佐既無有	-11.9621
也李南公李南公尚書	-11.9621
五年大夫請受變	-11.9621
以區區之齊	-11.9621
僱	-11.9621
兵士不用	-11.9621
呵	-11.9621
善馭馬	-11.9621
外障距内比周	-11.9621
戶	-11.9621
搔	-11.9621
死者無知則	-11.9621
沈存中内翰云	-11.9621
淩	-11.9621
糟	-11.9621
諸侯使者無所致百官有司無所復	-11.9621
在蜀三年不知其父死及代還銓吏不為	-11.9622
嬖	-11.9622
鞘中正等不	-11.9622
袒	-11.9622
選賢遂材	-11.9622
不能野原又多	-11.9622
語者否對曰廷掾疑君乃收廷掾	-11.9622
䂓矩	-11.9622
呈	-11.9622
曰吾視食者皆以右手	-11.9622
曰殺人者汝也囚不知所以然	-11.9622
獨以左今死者傷右肋此汝殺之明也囚	-11.9622
長在乎任賢	-11.9622
乙弱各有青赤痕南公	-11.9622
共殺女奴	-11.9622
别而聽之則	-11.9622
守職百官有常	-11.9622
放舊罪	-11.9622
曰毆妻之父母即是義絶	-11.9622
梲	-11.9622
浧	-11.9622
篲星	-11.9622
者其人莫來道	-11.9622
詣若水㕔事	-11.9622
起令乃廢驟令而不行民心乃外	-11.9622
之鄧思賢人名也始傳此術遂名其書	-11.9623
詐之人不敢	-11.9623
靈臺之	-11.9623
驂	-11.9623
始於患者不與其事	-11.9623
左手正櫛	-11.9623
成而悔從政	-11.9623
箴	-11.9623
蟡與慶忌	-11.9623
雜他藥相因既	-11.9623
其言而求其	-11.9623
奇	-11.9623
宗山陵火起油衣中其事正爾主守者遂	-11.9623
岑	-11.9623
廥	-11.9623
求雖不得	-11.9623
涇	-11.9623
聨	-11.9623
菀	-11.9623
親兒犯三千條悖逆之罪	-11.9623
上令難行	-11.9623
兵者凶器	-11.9623
南公曰吾能立使之食引出問曰吾	-11.9623
子以死亡	-11.9623
專信一人	-11.9623
對曰非為君也為先君	-11.9623
徐敬業	-11.9623
愛惡榮辱	-11.9623
懐其禄	-11.9623
旅舊則民不	-11.9623
檻	-11.9623
櫻	-11.9623
汨	-11.9623
洿	-11.9623
知和州民有訴弟為人所殺	-11.9623
知象乃	-11.9623
秦西巴	-11.9623
翦	-11.9623
致魯之政	-11.9623
蓬	-11.9623
鈎慝之術者	-11.9623
離内逺遊	-11.9623
鷄	-11.9623
鼠處穴要宋田夾塞兩川使水不得東流	-11.9623
蔣	-11.9623
伊	-11.9623
卒使坐廢田里	-11.9623
秇	-11.9624
有利欲之心	-11.9624
親其事者不規其道	-11.9624
嘿	-11.9624
故法立而不	-11.9624
世犯吾君命而廢吾所立奪吾	-11.9624
九㑹大命焉出常至	-11.9624
介蟲之火	-11.9624
代鳥飛	-11.9624
以葉塗	-11.9624
全生之說勝則	-11.9624
君若欲定	-11.9624
嗚呼美哉	-11.9624
定實虚勝定盛衰勝舉機誠要則敵不量	-11.9624
州司以為不道縁坐妻子刑曹	-11.9624
從簾中推出示	-11.9624
捨状以探情	-11.9624
故凋落也	-11.9624
明於治亂之道	-11.9624
易國之成俗	-11.9624
此居於圖東方方外	-11.9624
然後應諸侯	-11.9624
煖	-11.9624
用利至誠則敵不校	-11.9624
畜之以道則民和養之以	-11.9624
若水固辭	-11.9624
訊之果然蓋南方有櫸	-11.9624
退而脩家是故匹夫有善	-11.9624
重則雨雹	-11.9624
齊桓公將救之	-11.9624
君服黑色味鹹味	-11.9624
交物因方則械器備	-11.9624
又試之亦然吏遂得弛	-11.9624
能存而能亡者蓍龜與龍	-11.9625
則禁令不行	-11.9625
或世見	-11.9625
曖	-11.9625
以力役明	-11.9625
峜	-11.9625
過與不及	-11.9625
還四頭老㹀	-11.9625
以人役上	-11.9625
在路之時金已化為土矣	-11.9625
夷門軍府事長垣縣有四	-11.9625
得乃自斫其右臂誣以殺人官司莫能辨	-11.9625
得濕則燔府為上聞仁宗悟曰頃	-11.9625
於六律也	-11.9625
絳	-11.9625
㢮刑罰赦	-11.9625
之說勝則繩墨不正	-11.9625
以重相推	-11.9625
以防其姦	-11.9625
假我道	-11.9625
免於罪是	-11.9625
凡將立事	-11.9625
動弱必從	-11.9625
四百里而後可田也楚欲吞宋鄭	-11.9625
孫登比彈	-11.9625
封禪第五十	-11.9625
戻	-11.9625
扇	-11.9625
敺養坦氣修通凡物開静形生理	-11.9625
有人主之名而	-11.9625
朕	-11.9625
械器不奉	-11.9625
減二等	-11.9625
瑶	-11.9625
纒	-11.9625
而不忘焉可以來矣	-11.9625
臣下不順	-11.9625
軍殺將	-11.9625
鍾磬之閒	-11.9625
馬知節	-11.9625
􁔻	-11.9625
則欺誣以取之欺誣不可得則求其罪以	-11.9625
卯合男女十二中卯十二下卯三卯同事	-11.9625
夘薄百爵十二白露下收聚十二復理賜	-11.9625
此居於圖	-11.9625
令不行禁不止	-11.9626
七法第六	-11.9626
子欲分其財	-11.9626
頑	-11.9626
人田莫能得	-11.9626
一弟與妻子耳長卿曰殺弟者兄也豈	-11.9626
啓其藏捕	-11.9626
從外作	-11.9626
情求不上通	-11.9626
所蔽塞也	-11.9626
於謀殺不當復坐其妻	-11.9626
旂	-11.9626
盡召其黨以乳醫示之	-11.9626
肕	-11.9626
金玉貨財之說勝則爵服下流	-11.9626
務尊主	-11.9626
因天地之形	-11.9626
藏薄純	-11.9626
五㑹諸侯令曰修春秋冬夏之常祭食	-11.9626
五政茍時	-11.9627
用譎鈎慝	-11.9627
漢宣帝時	-11.9627
五年産犢三十頭	-11.9627
則兵無敵	-11.9627
兵官之吏	-11.9627
則樸樸則	-11.9627
璡	-11.9627
程顥察院	-11.9627
稱火燒夫死夫家疑之	-11.9627
見李畋	-11.9627
三翁乎老父驚駭服罪	-11.9627
二口一殺之一活之	-11.9627
何說之詳也老父曰	-11.9627
俎豆	-11.9627
分遣掩討	-11.9627
善為鈎距以得事情	-11.9627
夷吾受之則	-11.9627
悉貸之	-11.9627
是以三軍之衆	-11.9627
曾肇内翰	-11.9627
未窮破用之	-11.9627
殺僇以聚財	-11.9627
毛嬙西施	-11.9627
畜産也	-11.9627
稼穡	-11.9627
積薪燒之	-11.9627
紊	-11.9627
能弱齊矣夷吾不受彼知其將反於齊	-11.9627
與張氏某年月日某人抱去某人見之顥	-11.9627
三年名卿請事二年大夫通吉凶	-11.9627
下簡劾治簡以舊案示之曰此爾婦翁書	-11.9627
何足道哉	-11.9627
倉廩空虚財用不足	-11.9627
公曰何故對曰	-11.9627
劵取其田	-11.9627
喜樂哀怒	-11.9627
峭	-11.9627
日月不明天不易也山	-11.9627
有蓄積則乆而不匱器械	-11.9627
枝詞不伏	-11.9627
百戰百勝	-11.9627
知子莫若父	-11.9627
績按前作	-11.9627
賞罰不明則民	-11.9627
輕君而重於	-11.9627
逼宣家訪妾宣再從弟思兢	-11.9627
釆	-11.9627
限滿不平復	-11.9627
隠正道	-11.9627
雖有聖人惡用之	-11.9627
審取與以	-11.9627
設爵禄所以	-11.9628
六者皆自	-11.9628
危本不稱	-11.9628
曹攄明婦	-11.9628
已廪之矣泰	-11.9628
年四十人已謂之	-11.9628
曰雖不聽而可以得存	-11.9628
期於利民而	-11.9628
痩	-11.9628
齊糶十錢	-11.9628
備具無常無方應也	-11.9628
外見於形容可知於顔	-11.9628
承天議曰獄貴情斷疑則	-11.9628
此居於圖西方方外	-11.9628
泰秋民	-11.9628
牡	-11.9628
稱疾不出	-11.9628
見通典不著	-11.9628
顧憂謂	-11.9628
牟	-11.9628
六千里之侯則大人從	-11.9628
獲真賊	-11.9629
午	-11.9629
桐	-11.9629
其草冝	-11.9629
夸	-11.9629
爪牙也	-11.9629
虞部所	-11.9629
一人為伴	-11.9629
僑	-11.9629
參曰父由子死若以䘮延是殺父不坐皆	-11.9629
善服氣以物塞鼻則氣結	-11.9629
妻生子貧不能	-11.9629
扛	-11.9629
曰七十六謂老父曰是子之生其父	-11.9629
父救不止恚赴井死參當兄弟重辟衆請	-11.9629
臨政官	-11.9629
醬	-11.9629
集施利填委	-11.9629
史江琛取刺史裴光	-11.9629
告駙馬崔宣謀反	-11.9629
喫	-11.9629
國之稱號亦更矣	-11.9629
官失其能	-11.9629
教器備利	-11.9629
斷而决於	-11.9629
櫜	-11.9629
者行此節則	-11.9629
衛文昇	-11.9629
裳	-11.9629
閇藏之氣	-11.9629
器成於僇	-11.9629
夘合男女十二中夘十二下夘三夘同事	-11.9629
詭禁不修不過六日而竊盜者起	-11.9629
錢不五六年	-11.9629
至善不戰	-11.9629
徤	-11.963
因戾不受訓遣之郭氏夫婦	-11.963
仲父不當盡語我昔者有道之	-11.963
備其械器	-11.963
審而出者	-11.963
懷繩與准鉤多備規軸減溜大成是唯時	-11.963
㪷	-11.963
使魯敗	-11.963
公法而行私惠	-11.963
可與慮始	-11.963
可與樂成功	-11.963
尉男子曹芬兄弟	-11.963
每事皆	-11.963
若善走	-11.963
道塗無行禽	-11.963
今滿意在射鳥非有心於中人	-11.963
其無心於驚馬也故不以	-11.963
出嫁親女	-11.963
國危至善不戰	-11.963
尊其貨賄	-11.963
歐陽頴	-11.963
甲厲兵	-11.963
綂	-11.963
腴	-11.963
顔色不變	-11.963
簿民有借	-11.963
守之而後修勝心焚海内	-11.963
者未之甞聞	-11.963
妻謀殺	-11.9631
提㸃河東刑獄時	-11.9631
作兄釋作澤此類甚衆大匡載召忽語曰	-11.9631
故首著焉	-11.9631
貽	-11.9631
告慶乃復	-11.9631
蟡	-11.9631
遣而傷者死濤求其故而未得死者子訴	-11.9631
俟免䘮	-11.9631
枝解於楚	-11.9631
求賊不得	-11.9631
汝父也來就汝居具陳其由張氏子驚疑	-11.9631
美惡賢不肖愚俊之所	-11.9631
艾若一者從于殺與于殺若一者	-11.9631
謂齊王曰臣死之後王車裂	-11.9631
譽之不勸	-11.9631
七十二日而畢睹戊子土行御天子	-11.9631
乃能窮天地被四海	-11.9631
云書是光書語非光語前後三使	-11.9631
以尺寸量短長則	-11.9631
出而道留	-11.9631
吿有而不以吿	-11.9631
子固辭	-11.9631
意於法之外	-11.9631
慎十號	-11.9631
束矢以罰	-11.9631
民之所以守戰至死而不德其上者	-11.9631
沈括内翰說	-11.9631
甚也臻以為疑反訊告者乃得其實	-11.9631
聞之悲不自勝奉伯嗟	-11.9631
貢師泰	-11.9631
輿之重加以異	-11.9631
􁲕	-11.9631
旗物尚黑	-11.9631
􁚫	-11.9631
專於意一於心耳目端知逺之證	-11.9632
囚不可殺後得其實	-11.9632
夫婦妃匹之合	-11.9632
監司怒有惡語濤歎曰官可奪	-11.9632
賞有過無	-11.9632
與前王比隆	-11.9632
先此二者則	-11.9632
十一仞見水	-11.9632
於國有所不知政	-11.9632
正而積之	-11.9632
泆	-11.9632
不欺其民也	-11.9632
不足以實其	-11.9632
之流亞歟	-11.9632
取斗粟舂之可棄者十纔一二	-11.9632
受君令而	-11.9632
天子富有	-11.9632
戰不勝而守不固	-11.9632
敢就舎憲未布	-11.9632
求救於	-11.9632
流水之原	-11.9632
累訴不	-11.9632
若存若亡	-11.9632
莫明焉	-11.9632
訟獄者	-11.9632
不聽而可以得存者	-11.9632
拱	-11.9632
彗星	-11.9632
彊國衆	-11.9633
雅	-11.9633
河南尹	-11.9633
雖得天下吾不生也兄與我齊國之政也	-11.9633
汗	-11.9633
撻	-11.9633
正形攝德	-11.9633
湯放桀	-11.9633
厠	-11.9633
問霸第六十二	-11.9633
知河南府伊陽縣	-11.9633
者不可勝數也	-11.9633
趾	-11.9633
銛	-11.9633
非用人也	-11.9633
則富富者	-11.9633
參於日月	-11.9633
寂乎其無	-11.9633
戰易勝敵	-11.9633
書割取	-11.9633
曹參軍時禁中露積油幕一夕火主守者	-11.9633
校尉與無忌罪均臣子於君父不得稱誤	-11.9633
漻	-11.9633
燔	-11.9633
矣若不可諱	-11.9633
磚	-11.9633
秇稷	-11.9633
精存自生其外安榮	-11.9633
與楚人戰	-11.9633
藏慈厚	-11.9633
褓	-11.9633
詮	-11.9633
鉗	-11.9633
可坐而待	-11.9634
故曰道之出也	-11.9634
五尺見水不	-11.9634
可以分與財	-11.9634
唐李傑為河南尹有寡婦告其子不孝	-11.9634
囘	-11.9634
大女食鹽	-11.9634
帝之王謹逃其爪牙	-11.9634
所以彊求	-11.9634
曰使之使不得不使	-11.9634
曰兒昨	-11.9634
曰法為天下公朕安得阿親戚詔復議徳	-11.9634
糺雖得	-11.9634
若敖之在	-11.9634
行薄純	-11.9634
觀樂玩好之說勝則	-11.9634
請喚舍人	-11.9634
諧諧故	-11.9634
諸生之職	-11.9634
野與市爭民	-11.9634
唐司空房玄齡	-11.9634
號審教施則不險山河	-11.9634
開口千萬	-11.9634
不讓賢	-11.9635
也劉崇龜	-11.9635
薺	-11.9635
也問者曰	-11.9635
竹擔可舉	-11.9635
義則淫然而自至	-11.9635
鹿皮報	-11.9635
不險山河	-11.9635
之欲利者	-11.9635
乎莫得其	-11.9635
僮	-11.9635
因其所以來	-11.9635
媒	-11.9635
必有千鍾之藏藏繦百萬	-11.9635
必農農則草必墾矣	-11.9635
於法則止功	-11.9635
曰此驢行急而汗非長行人也見人	-11.9635
民之且所用者君已廩之矣	-11.9635
猜	-11.9635
當十石	-11.9635
筠	-11.9635
聖人因之故能	-11.9635
茨	-11.9635
裒	-11.9635
毋曰不同	-11.9635
瞿	-11.9635
􁃛	-11.9635
官論職	-11.9636
不當則誅	-11.9636
命工圖火所經	-11.9636
咠	-11.9636
天下不患無財患無人以分之	-11.9636
得其利焉	-11.9636
焉可誅也	-11.9636
絕	-11.9636
受令於天	-11.9636
是為自亂	-11.9636
比校民之有道者	-11.9636
緝績徽織	-11.9636
臣乎吾亦鑒焉管子對曰夷吾聞之	-11.9636
遵主令而行之	-11.9636
麋	-11.9636
䂓	-11.9636
是故人主有	-11.9636
關市之征	-11.9636
十仞見水	-11.9636
身第六十一	-11.9636
使牛主認之因獲其	-11.9636
偹	-11.9636
分之一也	-11.9636
明其法禁	-11.9636
洪	-11.9636
蹙	-11.9636
遇之無禮	-11.9636
䀹	-11.9636
國平而姦省	-11.9636
服長纓	-11.9636
此殆天災	-11.9636
民之司命也黄金刀	-11.9636
研	-11.9636
螾	-11.9636
諧輯以悉莫之	-11.9636
􁜦	-11.9636
㓙	-11.9637
可淺可深可浮可	-11.9637
朔	-11.9637
乃字之誤	-11.9637
君不歸楚	-11.9637
大男大女食鹽者	-11.9637
長十連為鄉鄉有良人	-11.9637
一髙一下	-11.9637
大臣不能侵其勢	-11.9637
持之甚猛弟婦恐有所傷	-11.9637
於法則行不	-11.9637
杠	-11.9637
甲不堅	-11.9637
言七凡	-11.9638
易知耳乃令破䑕	-11.9638
囑	-11.9638
為五伯長	-11.9638
山川則威令	-11.9638
悞	-11.9638
惶怖	-11.9638
簑	-11.9638
莖黒秀	-11.9638
陪	-11.9638
㒒	-11.9638
則愚智不分	-11.9638
為上幣黄金為中幣刀布為下幣	-11.9638
熯	-11.9638
犯詛渝盟	-11.9638
盾櫓	-11.9638
粟府無	-11.9638
𦕈	-11.9638
不得其心則	-11.9638
凝於體色此其	-11.9638
召逺在脩近	-11.9638
布衫蒙頭	-11.9638
戮其黨明	-11.9638
攻城圍邑	-11.9638
於衣食之利	-11.9638
琳	-11.9638
立壤列	-11.9638
縻	-11.9638
論必葢世	-11.9638
非難辨	-11.9638
綦	-11.9639
猶如是乎	-11.9639
四維不張國乃滅亡	-11.9639
乆而不勝其禍	-11.9639
孫在之為人也善言	-11.9639
伍於四時	-11.9639
姙	-11.9639
春夏秋冬	-11.9639
此亦可謂昔者無道之	-11.9639
者民之司命也	-11.9639
漬	-11.964
羣臣士民之	-11.964
合刑名	-11.964
吾得之矣	-11.964
梨	-11.964
民非其民也	-11.964
為山隂令	-11.964
不厭詐偽	-11.964
不難奪子而行天下	-11.964
之氓社稷也而	-11.964
二十年前	-11.964
侈靡第三十五	-11.964
便僻不能食其	-11.964
城必拔	-11.964
棁	-11.964
次浮也	-11.964
腓	-11.964
與之分級而上	-11.964
靳	-11.964
之名而實	-11.9641
乘車之㑹三	-11.9641
為岐州刺史有武功人齎絹三百	-11.9641
授官予爵	-11.9642
荆攻魏	-11.9642
恢	-11.9642
之法犯矣	-11.9642
可以危救敵之國	-11.9642
直言武子	-11.9642
不得不成故	-11.9642
斬大山毋	-11.9642
檢付契書	-11.9642
毋行大火毋	-11.9642
窻	-11.9642
迷而失道	-11.9642
丁官念二	-11.9642
僧有夜飲火其廬者歸罪瘖奴軍	-11.9642
家機所出者錢若干	-11.9642
戰勝之器攻取之數	-11.9642
觀察使魏少游	-11.9642
可欲之類	-11.9642
毋或作	-11.9642
裁大者衆之所比也	-11.9642
桓公召管仲	-11.9643
者不怨上	-11.9643
凉	-11.9643
民不幸生	-11.9643
民望絶於上	-11.9643
守禮莫若敬	-11.9643
與時變而不化	-11.9643
莫若樂節樂莫若禮	-11.9643
手足拇動	-11.9643
猿	-11.9644
擢	-11.9644
羆	-11.9644
邸	-11.9644
過而不聽於忠臣	-11.9644
上服度則六親固	-11.9644
屬於農	-11.9644
沌沌乎博	-11.9644
俈	-11.9644
故德行立	-11.9644
李獄官也	-11.9644
王安禮	-11.9644
飾臺榭廣	-11.9644
心詔以明付表	-11.9644
怒憂患	-11.9644
罪在變化	-11.9644
莫不賔服	-11.9645
出有彈	-11.9645
者何也榖有所藏也	-11.9645
不怵乎好	-11.9645
則下無怨心	-11.9645
雙虎之皮	-11.9645
非所設也其動	-11.9645
仇由之君	-11.9646
地之財具	-11.9646
儔	-11.9646
譬之若	-11.9646
鐸	-11.9646
䕫一足	-11.9646
一羊皮各言	-11.9646
不迫乎惡	-11.9646
揖譲	-11.9646
潄	-11.9646
甸	-11.9646
鐘磬之間	-11.9646
髙下中幣制下上之用	-11.9646
千六百	-11.9647
未嘗得人	-11.9647
中程者賞	-11.9648
令改適婦守節不移姑愍之宻自殺親黨	-11.9648
成以束矢	-11.9648
右傳韓非子卷十	-11.9648
有天子諸侯	-11.9648
凑	-11.9648
㐲	-11.9648
交錢物	-11.9648
勇於義者	-11.9648
唐崔黯鎮湖南有惡少	-11.9648
過在自用	-11.9648
迪	-11.9649
國多財則逺者來地辟舉則民留處	-11.9649
守在倉廪	-11.9649
以犀甲一㦸	-11.965
張希崇鎮邠	-11.965
葢以此耳	-11.965
巳見釋寃門	-11.965
唐吕元膺	-11.965
守法之官日行	-11.965
揨	-11.965
癰	-11.9651
州郡不能	-11.9651
仞見水則免	-11.9651
蠻	-11.9652
昔三代	-11.9652
也深淵	-11.9652
荻	-11.9652
澇	-11.9653
出南史袁湛傳	-11.9653
而無敵令行而	-11.9654
中其忌諱	-11.9654
蹻	-11.9654
各便其	-11.9654
悵	-11.9654
數披其木毋使	-11.9654
亂天下者也	-11.9655
能彊其兵	-11.9655
養之以五乘	-11.9656
放所認	-11.9656
勸之以殉	-11.9656
匿名書	-11.9656
貉	-11.9657
以璽問之以信	-11.9657
絓	-11.9658
􁁜	-11.9658
斫	-11.9659
蒼	-11.9659
車之㑹六九合諸侯一匡天下	-11.966
以天下之目視則無不見	-11.966
以天下之耳聽則無不聞	-11.966
審利害之	-11.966
緝	-11.966
乘為耕田	-11.966
萬頃為户	-11.966
之變氣應之以	-11.9662
乘之國中而立市東西南北度	-11.9662
剌剌	-11.9662
壺餐	-11.9662
笄	-11.9662
餒	-11.9663
絲竹之	-11.9663
杼	-11.9663
桓公與管仲	-11.9663
鄧文原	-11.9663
度數之理以	-11.9666
流沙西虞	-11.9666
拘秦夏	-11.9667
問其故對曰	-11.9667
少室周	-11.9667
觽	-11.9667
罪不赦	-11.9668
三守不完則	-11.9669
則無以正天	-11.9671
百之令短兵	-11.9671
鄒	-11.9673
后妃夫人	-11.9675
詡	-11.9675
敢為欺	-11.9677
鍔	-11.9677
嶷	-11.9679
盾一㦸	-11.968
公曰何謂也管子對曰	-11.968
餳	-11.9683
與秦人戰	-11.9685
江表𫝊	-11.9687
荆王弟在秦秦不出也	-11.9692
樂正子春	-11.9694
崔子之徒	-11.9712
子何故不	-11.9714
之奈何管仲對曰	-11.9725
公曰寡人有	-11.9726
君乃不殺	-11.9728
繁於文	-11.9733
得無危故	-11.9744
在焉桓公	-11.9762
年不解	-11.9848
寒之隂十二大寒終三寒同事六行時節	-12.0258
鎻	-12.0752
唐書李	-12.241
分而審責於羣臣有司則下不乘上賤不	-12.2528
際	-12.2708
而不起此病	-12.3673
不出百里而來	-12.3859
一子無征	-12.3959
壌守之若干	-12.4107
弊邑之君	-12.4266
壤守之若干	-12.4305
日至始數九十二日謂之	-12.4323
後魏李崇為揚州刺史	-12.4365
何以待之管	-12.4366
甲士當被兵之數	-12.4376
之用何也曰非號令	-12.4408
親也貴也貨也色也巧佞也玩好也三	-12.441
九德出焉	-12.4453
於汝漢之右	-12.4475
家人藏其皮冠	-12.448
於置夫人也	-12.4512
蟲有蚘	-12.4518
吾恐其以我	-12.4518
神不淫於外	-12.4524
教洗莫洗	-12.4527
在於謹廩	-12.4531
臣免死罪矣	-12.4531
坦氣脩通凡物開静形生理	-12.4532
曰教住莫住	-12.4534
苖賁皇	-12.4537
不漏可以盛酒	-12.4537
而蹈弦	-12.4537
岌	-12.4542
獻伯之儉也	-12.4543
藏庫前文節級妻	-12.4543
里之情通矣	-12.4544
辯於地利而	-12.4546
乆不决詔	-12.4546
使竪牛請之叔孫竪牛	-12.4546
應死通判不肯用其言	-12.4546
欺之曰吾已為爾請之矣使爾	-12.4546
沅	-12.4546
餐	-12.4549
説而太息左右	-12.4549
太仁太不忍人	-12.4549
恃人之以愛	-12.4549
羣臣百姓之所善則君	-12.4549
邦之利噐	-12.4549
内業四十九區言五凡物之精此則	-12.4553
君賜之玊環壬	-12.4553
妬而欲殺之	-12.4553
此於民無厚也	-12.4553
紅	-12.4553
輕而操實	-12.4553
辟治官職以	-12.4553
鄭長者有言	-12.4556
六元何犿註	-12.4556
列星流於天地之	-12.4556
精謂神之至靈者	-12.4556
人曰是何也對曰書言之固然	-12.4556
故以無為無思為虛	-12.4556
而國日削矣當	-12.4556
賞天下之人不人得一	-12.4556
一石榖搗得三斗米	-12.4559
杳乎如入於淵淖	-12.4559
謂之鬼神藏於	-12.4559
遇明即活	-12.4559
鐵工姓名	-12.4559
不以無為為有常	-12.4559
善者我能以	-12.4559
士卒坐陳者里有書社	-12.4559
蘇其兵中原	-12.4559
逋債者	-12.4562
親親而愛私	-12.4562
人有氣則存故	-12.4562
今有馬於此	-12.4562
使人問左右盡報弗聞	-12.4562
公以此人是	-12.4562
勃	-12.4562
卑而大臣重	-12.4562
大體第二十九	-12.4562
巡牌者	-12.4562
民傳妖法	-12.4562
臧獲雖賤不託其足	-12.4562
農夫惰於田	-12.4562
飾子女狗馬以娛其	-12.4562
暮從事於此	-12.4562
頴	-12.4564
聽左右之請	-12.4565
子謂弟子曰	-12.4565
李疵視中山	-12.4565
瘡	-12.4565
不以與下則賢去而	-12.4565
不勝拷掠乃誣服	-12.4565
主使民飾於	-12.4565
入者舉爲最	-12.4565
國逾貧而用逾不足也	-12.4565
州民李氏	-12.4565
張四官人	-12.4565
戰士怠於行陣	-12.4565
攻齊荆之事	-12.4565
斷而髪不斷	-12.4565
曰尚浴免則	-12.4565
枉法為治	-12.4565
蝨官生必削	-12.4565
瓜瓠葷菜百果	-12.4567
䑛鋤刃	-12.4568
伉	-12.4568
去楯櫓	-12.4568
季孫養孔子之徒所朝服	-12.4568
孤憤第十一	-12.4568
後數日果得真盗	-12.4568
徙其獄于澧州	-12.4568
徳故曰上徳	-12.4568
戰毒輸於	-12.4568
李應言諫議為	-12.4568
棘刺之母猴	-12.4568
白玉之巵	-12.4568
益深桓侯	-12.4568
自直之箭自圜之木	-12.4568
説林下第二十三	-12.4568
重人之隂情	-12.4568
門非可疑耶乃親劾治具	-12.4568
雖曰好徳全賞而不與雖曰惡	-12.4568
非地與城亡也	-12.4568
使涸竭也	-12.457
戊	-12.4571
圃而隨文學者邑之半	-12.4571
者弱以弱去强者	-12.4571
濮水之上	-12.4571
一視牘而辨之	-12.4571
不應扁鵲出桓侯又不悦居十日扁鵲	-12.4571
之耻於君子矣	-12.4571
之耻於小人而	-12.4571
入人田中	-12.4571
弃灰於街	-12.4571
所使者乃常人若此者敗亡	-12.4571
為禮者事通人之樸心	-12.4571
盛陽之氣	-12.4571
筮者云憂獄	-12.4571
謂與天下合同人皆	-12.4571
講亦悔不講亦悔王	-12.4571
趮	-12.4573
是日也郎中	-12.4574
公腓痛足痺	-12.4575
建寧府	-12.4575
則功不立名不	-12.4575
安心之法也	-12.4575
殺女子之母	-12.4575
不能耳士無弊	-12.4575
仇家放火	-12.4575
任所愛不均	-12.4575
伯樂教二人相踶馬	-12.4575
伺者曰胡	-12.4575
俯	-12.4575
先誡御者曰王適有言必	-12.4575
可以戱而不可	-12.4575
君明而嚴則羣臣忠	-12.4575
因揄刀而劓羙人	-12.4575
堦	-12.4575
壑谷鬴洧之卑	-12.4575
安危第二十五	-12.4575
弗貴也何則	-12.4575
怒曰劓之	-12.4575
恱愛之甚於	-12.4575
暫	-12.4575
木連狗取聲為義即國家也言易	-12.4575
牙終能亡國滅	-12.4575
疾疫當此時也民富且驕牧民者厚收善	-12.4575
置礫湯中	-12.4575
而寫之師㳙	-12.4575
聞季之不為文也	-12.4575
與坐者以十數而	-12.4575
行人燭過	-12.4575
西伯昌	-12.4575
見王常掩鼻	-12.4575
觀音感應	-12.4575
論囹圄而出薄罪	-12.4575
質偽銀者	-12.4575
身殺國分為	-12.4575
迕	-12.4575
金錢落索環	-12.4575
東郭之狗喻易牙言其人殘忍同於狗矣	-12.4576
泯	-12.4578
充盈謂完	-12.4578
克諧氣自來也	-12.4578
刑法也謂得	-12.4578
扄	-12.4578
謀始受其傭而中道被脅以行卒得免死	-12.4578
不從之妻乃自沐枕枕而寢融曰	-12.4578
事浮屠法相聚祈禳名白衣㑹	-12.4578
具沐夜授	-12.4578
功名第二十八	-12.4578
夢乘馬南渡	-12.4578
守道第二十六	-12.4578
曰何謂也對曰	-12.4578
澶	-12.4578
為之若何對曰國雖	-12.4578
為賞以毁為罰也	-12.4578
之所以欲有賢	-12.4578
也衆人之為禮也	-12.4578
夜叩府告	-12.4578
孤憤五蠧	-12.4578
宿妻家是夜妻	-12.4578
愛非其有以	-12.4578
所殺妻兄疑	-12.4578
李瓉註	-12.4578
棘刺之端	-12.4578
知齊之巧臣而	-12.4578
索景德以前舊	-12.4578
芻水之利	-12.4578
見其可說之	-12.4578
證見其不可惡之	-12.4578
鋒	-12.4578
鴟夷子皮	-12.4578
與富民有仇誣以歲殺人十二祭磨駞神	-12.4578
疾疫當此時也民	-12.4579
衛公子開方去其千	-12.4579
擡	-12.4581
蹷	-12.4581
也胡向胡向少卿	-12.4581
謂生簒殺之心若草木之生榮	-12.4581
多棘刺	-12.4581
夣	-12.4581
令忠以義雖	-12.4581
楚苞茅之	-12.4581
而人主之明塞矣	-12.4581
行於不肖則賢智之士	-12.4581
雖犯於强乃以公義故無	-12.4581
可以雪耻	-12.4581
告者遂伏辜	-12.4581
明戡疑之或謂無足疑戡曰殺人而自置	-12.4581
東郭敞	-12.4581
犯雖輕弱	-12.4581
用事者過矣	-12.4581
謨	-12.4581
馴	-12.4581
一字以上罪	-12.4581
乎師曠曰不如清	-12.4581
也非競取	-12.4581
亦可謂善察姦	-12.4581
可得而聞乎師曠曰不可	-12.4581
宣撫司移文	-12.4581
室言於堂滿	-12.4581
布耳目察民事而先知	-12.4581
彭節齋	-12.4581
掠之趣作誣狀	-12.4581
曰不獻三城	-12.4581
曰言於室滿	-12.4581
有姦灼然是	-12.4581
民釋實事而誦虚詞	-12.4581
無救赦之	-12.4581
特貸出之	-12.4581
狥兩營	-12.4581
病愈殺牛塞禱	-12.4581
義者將立民之所	-12.4581
翢	-12.4581
言論忠信法術	-12.4581
說在文公之	-12.4581
赴谿而掇金	-12.4581
輕物重生之士	-12.4581
顊	-12.4581
額刺二形	-12.4581
顙呌子	-12.4581
此其可誅之時必不得失之	-12.4582
于仇人之門而訴之仇	-12.4582
事君是所願也得於君者是將欲過其千	-12.4582
以魚去蠅	-12.4584
以管仲之聖而	-12.4584
卦	-12.4584
對曰鳥以數	-12.4584
中章胥己	-12.4584
百官之吏亦知	-12.4584
䕃	-12.4584
主也勞民力奪民財危民死	-12.4584
主在上則人臣去	-12.4584
人害涸旱不	-12.4584
先人而自後而無以為	-12.4584
先人自後大國	-12.4584
則民傷其所惡	-12.4584
則民安其所樂	-12.4584
司城子罕謂宋君曰慶賞賜	-12.4584
崇侯惡來知	-12.4584
恃人之為吾善也	-12.4584
慮私家之	-12.4584
斷其下頷	-12.4584
束十疋也	-12.4584
此謂先之以政飄風暴雨	-12.4584
比干子胥知	-12.4584
民害涸旱	-12.4584
爭其亂也甚於無	-12.4584
用人第二十七	-12.4584
積力唯田疇	-12.4584
索民之疾作而	-12.4584
終以為不直	-12.4584
者造誣也但	-12.4584
而不以私害法	-12.4584
臣心無窮	-12.4584
與人相善也無	-12.4584
苦執申之	-12.4584
董師秀	-12.4584
馬甚瘦	-12.4584
六曰嵗曰食曰	-12.4584
六者有樸必削	-12.4584
内被其利澤殷民舉首而望文王願	-12.4584
吻	-12.4584
好曰志曰行	-12.4584
撿	-12.4584
治大國小治小國大	-12.4584
用力寡而功	-12.4584
田伯鼎好士	-12.4584
難四第三十九	-12.4584
柰	-12.4585
敺衆移民	-12.4586
文王臣故曰濟濟多士殷民化之紂之	-12.4586
秋糴以五春	-12.4586
也其意必得齊國然後稱所	-12.4586
遂卒卒十月隰朋亦卒桓公去易牙豎刁	-12.4586
開方在衛當嗣君之位今	-12.4586
富則淫淫則有蝨	-12.4587
以棘刺之端為母猴	-12.4587
棄財走者	-12.4587
邦亡身死故曰	-12.4587
之此積之本	-12.4587
君臣非有骨肉之親	-12.4587
子文色動應對失節於是	-12.4587
案亦無所異黄用	-12.4587
魏志胡質字文徳為常	-12.4587
太公望東封於齊	-12.4587
奬	-12.4587
一匡天下九合諸侯	-12.4587
皆以時代為次	-12.4587
說難第十二	-12.4587
不應死中復	-12.4587
不能别清濁之聲	-12.4587
乃先宣言曰	-12.4587
也王罕王罕大卿知潭州	-12.4587
以渴服馬	-12.4587
使民有功與無功俱賞	-12.4587
兩日昌字	-12.4587
其束矣此亦	-12.4587
冰炭不	-12.4587
刀於厨而	-12.4587
又譽其矛曰吾矛之利	-12.4587
吾所問於女	-12.4587
商臣為太子既	-12.4587
大誅報小罪	-12.4587
有時先事有時先政有時先德有時先	-12.4587
添	-12.4587
濕水也左水右馬馮字	-12.4587
為天子伐楚	-12.4587
率興利之人	-12.4587
甗	-12.4587
而事齊則所	-12.4587
聞此聲者	-12.4587
請觧炮烙之刑	-12.4587
謂富者秋時以五糴之至	-12.4587
財匱而民望	-12.4587
農商官三者國之常	-12.4587
近優而逺士	-12.4587
酉	-12.4587
難三第三十八	-12.4587
齊使老儒掘藥於馬梨之山	-12.4587
偉	-12.4587
某縣之壤	-12.4588
居少年有李若	-12.4589
時眉州大姓孫延世為偽契奪族人田	-12.4589
見李泰伯主簿所撰	-12.4589
見質而色動遂窮詰	-12.4589
太守東莞盧顯為人所殺求賊未得	-12.4589
運使委頻驗治頻曰劵墨浮朱上	-12.4589
身其妻盈氏	-12.4589
不葬孝公犇宋宋襄公率諸侯以伐齊戰	-12.4589
公子開方五味不至於是乎復反易牙	-12.4589
共殺羣吏而立公子無虧故公死七日不	-12.4589
民失士此四者用所以害君義失正也夫	-12.4589
謂上無時之徴一也澤不	-12.4589
集男女三百餘人就中喚	-12.4589
扳	-12.459
人者之為其臣也皆	-12.459
他事有十言之	-12.459
善不如此一言也	-12.459
為監察御史頻乃坐不即具獄降	-12.459
胡質集隣髙柔察色	-12.459
衢州開化人	-12.459
軍營士竇禮出不還營以為	-12.459
安到郡不入府先	-12.459
時楚王英謀	-12.459
爭以為阿附反虜法與同罪	-12.459
繫者數千人	-12.459
顯宗怒甚吏	-12.459
事則偽有餘而實不足也	-12.459
及猶預也矯偽也上預下	-12.459
周鄧析撰	-12.459
得安心法故也	-12.459
此六者過常以	-12.459
稀	-12.459
過稅務出銀	-12.459
一曰造父為齊王駙駕	-12.459
不能决黒白之	-12.459
不能審得失之地	-12.459
主貴多變國貴少變	-12.459
之事燕無功而	-12.459
令工施鉤梯而	-12.459
仲尼以文王為智	-12.459
其譽自進	-12.459
勢不兩存	-12.459
又從而尊之	-12.459
史記自叙	-12.459
君徳薄不足	-12.459
咺	-12.459
嘉靖乙未	-12.459
於時必失失則廢而不濟失植之正而不	-12.459
是國為越也	-12.459
毬塲以俟宰殺既	-12.459
犀車良馬	-12.459
禱也今王病而民以牛禱病愈殺牛塞禱	-12.459
臣竊以王為過堯舜	-12.459
訾其里正與伍老屯二甲	-12.459
説者成伍	-12.459
貨而匱民	-12.459
進不臣君退不為家	-12.459
中亂復反豎刁利言卑辭不在側復反	-12.459
亂且危敗亡	-12.459
交而力伐四鄰公薨六子皆求立易牙與	-12.459
内不量力外	-12.459
戰事兵用曰强	-12.459
數日不歸忽聞菜園井中有死人即徃	-12.459
權臣振主君欲去之必	-12.459
權衡之稱者不可欺以輕重	-12.459
物無不陷也	-12.459
瑰	-12.459
聴民不聴則	-12.459
臨之必危殆	-12.459
驍	-12.459
之屈而事之	-12.4592
蔣常覘嫗思彦集兒	-12.4592
執以詣縣	-12.4592
集為人數不足且放	-12.4592
放出令典獄	-12.4592
不可賢也植而無	-12.4592
主行於信又能遜	-12.4592
共語即記之明日復爾	-12.4592
制臣故可以王也	-12.4592
去之而亂臨之而殆則後	-12.4592
失其義正而倚以	-12.4592
對曰公當召	-12.4592
文武之材又不任作役若此	-12.4592
樂雖廣其威可	-12.4592
法令毁於官請謁得於上則黨與成於下	-12.4592
等謂率而齊之	-12.4592
臣主同勢則俱奮威權故刑罰大	-12.4592
公曰使子有三歸之家	-12.4593
曰臣富矣然而臣	-12.4593
惋	-12.4593
不以相及也遂分别具奏	-12.4593
以待有事而為之若何	-12.4593
凶也惡稔易誅吉也	-12.4593
安曰如有不合太守自當	-12.4593
帝感悟即報許得出者四百餘家	-12.4593
故平以滿無事而	-12.4593
於人必有所主主於財	-12.4593
獄理其無明驗者條上出之府丞掾吏皆	-12.4593
矢石之所及	-12.4593
雖復千嵗常令自	-12.4593
諧	-12.4593
也無上之名無君之禄不事仕而事力	-12.4593
兼監商稅有賈	-12.4593
曰若保非盜	-12.4593
郤	-12.4593
世智則力可以	-12.4593
亂於心則失矣	-12.4593
使遺涇原都監向曰此	-12.4593
其所而能濟成也	-12.4593
區區者虚也人而無良焉故曰虚也凡堅	-12.4593
去六者則心反	-12.4593
執詣府治之果	-12.4593
安寧者心	-12.4593
故神農教耕而王天下師其	-12.4593
曰澤命不渝	-12.4593
有大臣餉人物	-12.4593
民愚則智可以	-12.4593
然亦不敢遽	-12.4593
確	-12.4593
竊金不止	-12.4593
篋書其上曰	-12.4593
臣者不忠而邪以趨爵禄亂俗敗	-12.4593
一人知之一人不	-12.4593
不入公門	-12.4593
不可陷之楯與無不陷之矛	-12.4593
不能還其倍價者則	-12.4593
且豐多刑豐而又妄振非刻	-12.4593
主道者使人臣	-12.4593
亂世絶嗣	-12.4593
交合則自進	-12.4593
亦用粟之什一計四時常有所	-12.4593
以子之矛陷子之楯何如其人弗能應也	-12.4593
伶	-12.4593
何種也對曰此車軛也	-12.4593
使施於天下故大臣不親小民疾怨天下	-12.4593
依浮屠法相聚	-12.4593
免於相雖嗜魚	-12.4593
其馮昌殺之乎	-12.4593
及其求之則忽忽然而不得	-12.4593
司聲之官隨君所好不	-12.4593
君不能審立其法以	-12.4593
呂	-12.4593
四種謂四時皆種	-12.4593
國舉賢恃之	-12.4593
夜入人家杖背而已	-12.4593
孫罵祖	-12.4593
少資之令其逺去	-12.4593
府庫謂府之庫新有徴	-12.4593
彌積故為國紀	-12.4593
得霸矣今吾有欲王其可乎管仲對曰公	-12.4593
御製讀韓非子	-12.4593
忘主死交以進其譽	-12.4593
忠臣死於非罪	-12.4593
忠臣非罪而死	-12.4593
恣欲於馬	-12.4593
悗	-12.4593
所羞爲利	-12.4593
拽	-12.4593
攝領府事	-12.4593
故推令問	-12.4593
是故官之失其治也是主以譽	-12.4593
晩置太子	-12.4593
期以新沐枕	-12.4593
棗栗足以活民	-12.4593
氣則無所不變化故	-12.4593
為中女坎為中男	-12.4593
無以安衆心	-12.4593
爲上舉得二爲次得一為下	-12.4593
田鮪教其子田章曰	-12.4593
皆自謂真	-12.4593
禮不謹則民不脩廉論賢不	-12.4593
縱盜而捕繫平民以應命	-12.4593
蚤生而晚殺五	-12.4593
言人供關市府庫之徴	-12.4593
言心明察若在其側	-12.4593
設法者自著擇人量功	-12.4593
足以戰民乎狐子對曰	-12.4593
逺如欲窮之則無其極	-12.4593
雖勤似后	-12.4593
馬見圃池	-12.4593
𢷬	-12.4593
也言欲繋屬	-12.4595
善桓公又問管子曰終身有天下而勿失	-12.4595
財無使他外	-12.4595
下預上事則	-12.4595
公錢即積	-12.4595
一再則宥三則不赦凡孝悌忠信賢良	-12.4595
人阻其路塞其遂守而物修故著之簡筴	-12.4595
伸謂放恣也	-12.4595
其所勉力事務	-12.4595
各明白而分	-12.4595
敬而從命無	-12.4595
暴則傷民毋監于	-12.4595
桓公問管仲曰寡人	-12.4595
者但屬意於私	-12.4595
而邪臣起於非功	-12.4595
臣或下交於人恃	-12.4595
芒謂芒然不曉識	-12.4595
言失任臣之理	-12.4595
變隨化也淵泉而不盡微約而流施是以	-12.4595
進公又問焉賔胥無對曰古之王者其君	-12.4595
止者粟少而民無積也常山之東河汝之	-12.4595
比周者凡有公是之	-12.4595
無功而敗法自量	-12.4595
國無人者非朝臣	-12.4596
衰也家與家務	-12.4596
心應天時然後	-12.4596
賁皇非	-12.4596
土所生木實	-12.4596
曰臣貴矣然而臣貧	-12.4596
於泉山之上命之曰	-12.4597
耦	-12.4597
兄於弟無厚	-12.4597
刀殺逖其刀	-12.4597
心欲安静慮欲深逺	-12.4597
曰顧小利則大利之殘也	-12.4597
獲真殺人者	-12.4597
至明店人趂正等拔刀血甚狼	-12.4597
重家安鄉重家則	-12.4597
其塗因粟也	-12.4597
内有徳澤於人民	-12.4597
國有十者上無使	-12.4597
大夫自還而不盡忠外則諸侯連朋合與	-12.4597
如耳魏齊	-12.4597
宰人頓首	-12.4597
家從故平安之時滿	-12.4597
沔疑其枉而留訊之州將怒然終不敢	-12.4597
無怨讎於鄰敵	-12.4597
猳	-12.4597
食餘有數彼守國者守	-12.4597
􁚔	-12.4597
下令謂郡縣屬大夫里邑皆籍粟入若干	-12.4597
君素皆知之	-12.4597
室之邑必有萬鍾	-12.4597
而害不得生况	-12.4597
肥墝人之	-12.4597
蓄積錢幣所謂萬	-12.4597
鵝	-12.4597
孫沔副樞為趙州司理	-12.4597
孰與始強	-12.4597
家後即其家得	-12.4597
未㡬得真	-12.4597
發屬縣為捕者所	-12.4597
被髪而御婦人	-12.4597
飲者十六人適如其數捕	-12.4597
不行所以失勢也	-12.4597
中猶合也不合三政者	-12.4597
之流潤澤均加于萬物故曰聖人	-12.4597
也湯武致强而征諸侯服其力也	-12.4597
事無常而法令申不	-12.4597
亦何忍哉	-12.4597
令則道之利在	-12.4597
倍主位而嚮私交	-12.4597
偏故内怨起之	-12.4597
其入多其出少	-12.4597
其分而取者	-12.4597
則臣下恣行而國權大傾不	-12.4597
勸飯之説	-12.4597
却走馬以糞	-12.4597
口中虱也	-12.4597
古伍字謂偶合也言雖	-12.4597
可知則其形可索也	-12.4597
叶	-12.4597
君事則去之也	-12.4597
和雖獻璞而未	-12.4597
固執四時之政	-12.4597
圈	-12.4597
國為之訟寃	-12.4597
大政開國	-12.4597
失盜而捕繫平民以逃責	-12.4597
如神而物備存矣	-12.4597
小政䠞國故	-12.4597
左右專以其心斷者中主也臣有所愛而	-12.4597
弗予任章曰	-12.4597
復于里尉里尉以復于州長州長以計于	-12.4597
復生将誰使定	-12.4597
必從而伺之	-12.4597
携妻息	-12.4597
改資州轉運使檄	-12.4597
故惡還及身	-12.4597
故而私賞罰也	-12.4597
於事不合法	-12.4597
明其法而固守之羣臣	-12.4597
治事則不以官	-12.4597
爵行而兵弱	-12.4597
狙	-12.4597
狙伺也謂	-12.4597
當今之世為人主忠計	-12.4597
疑奚與媪	-12.4597
祿行而國貧	-12.4597
禄與共分也	-12.4597
私交則不公而	-12.4597
私賞之有所惡而	-12.4597
筵	-12.4597
聽其理亂之音也	-12.4597
舉毋能進毋功者聖王之禁也交人則以	-12.4597
若無煩亂	-12.4597
蛟	-12.4597
計度而知之也	-12.4597
謂積勞之臣論其功多則	-12.4597
餘力於心莫負	-12.4597
不化者則由所出	-12.4597
不變故也觀而移變之	-12.4597
中年畝二石一夫	-12.4597
之條故不勞自舉度也	-12.4597
事皆匿而不行也	-12.4597
信皆自任胷	-12.4597
先後之異故曰無	-12.4597
反以利欲塞也	-12.4597
大小亦是囚家	-12.4597
平公問叔向曰	-12.4597
必防攻也	-12.4597
所死者非罪所起者非功也然則	-12.4597
捕吏伏拷	-12.4597
故道之與德無	-12.4597
有夫婦共訟其子不孝者	-12.4597
朋黨共譽之故	-12.4597
杜猶衝也	-12.4597
毒酒盃中而殺之	-12.4597
無材雖譽之	-12.4597
瞑	-12.4597
祭天所奠也	-12.4597
私人之門謂所與	-12.4597
積財之功未	-12.4597
罪雖重下無怨氣私之所加賞雖多士不	-12.4597
臆以理其事人人	-12.4597
觸也言水行	-12.4597
農工雖農亦通	-12.4597
道德同體而無	-12.4597
邪臣非功而起	-12.4597
邸於璧	-12.4597
降福故壤土	-12.4597
領而有十尺即長一丈也	-12.4597
笥	-12.4597
積其財以無	-12.4598
食美車多醴財	-12.4598
之藏藏繦千萬千室	-12.4598
也各於縣州	-12.4598
於縣邑當	-12.4598
曰此若言何謂也管子對曰國之廣狹	-12.4598
之尉分里以	-12.4598
不自曉故下通人情以問所	-12.4598
二嵗代將亂而	-12.4598
人也不貴其人博學也欲其人之和同以	-12.4598
國小臣必循利以相就也故舉國之士以	-12.4598
好而不已是以為	-12.4598
姦人之雄也	-12.4598
徑謂邪行	-12.4598
所惡皆反於法故自傷	-12.4598
有功雖誹之	-12.4598
生事故事多也	-12.4598
皆流遁繆妄之事	-12.4598
私行所以禁之也	-12.4598
義可廣又十	-12.4598
而守法爲之可也	-12.4598
而誹者不能退也	-12.4598
荳	-12.4598
薦人令仕得	-12.4598
越法行事謂之侵所好	-12.4598
漱	-12.4599
迓	-12.4599
伐也伐逆不伐順伐險不伐易伐過不伐	-12.46
殺飛鳥五政	-12.46
𣪚	-12.46
事之時收積至時散其積	-12.46
價得其利也	-12.46
天於人無厚	-12.46
子吾得自	-12.46
寳慶年間	-12.46
州將反喜謂沔曰	-12.46
德靜正隂之	-12.46
惻故以憂恤哀	-12.46
成熟揫斂之	-12.46
曰行僻自用無禮諸侯則亡身之至也	-12.46
杜衍丞相	-12.46
河東提刑	-12.46
父於子無厚	-12.46
理其用翻乃	-12.46
積者立餘	-12.46
積謂富而積	-12.46
醴	-12.46
之肥墝有數終	-12.46
事類相從	-12.46
以死而仲孫疑之	-12.46
善明設法而不以私防者也而無道之君	-12.46
官旣積財人	-12.46
戰必削至亡國無	-12.46
所印文書	-12.46
時下令收糴也則魏李悝行平糴之法上	-12.46
此由不利農少粟之害也粟者王之	-12.46
熟糴三捨一中熟糴	-12.46
符融沐枕獄吏滌屨	-12.46
羨在大夫也天子以客行令以時出熟	-12.46
而矯悖也為下而勝逆也國家有悖逆反	-12.46
里胥嘗責	-12.46
陷隊之士	-12.46
順理而不失之謂道道	-12.46
首以結案也然則追責贓證可不審謹乎	-12.46
不知治者必曰	-12.46
五行第四十一短語十五一者	-12.46
以清亷事上	-12.46
全活者數十人	-12.46
内搆黨與外	-12.46
内無伏怨	-12.46
善氣迎人親於	-12.46
富順監按疑獄	-12.46
德者不疾而	-12.46
心意定則理明	-12.46
政行德常能謙	-12.46
曰昭王之問	-12.46
濆	-12.46
王晦叔丞相知	-12.46
筩	-12.46
與我爭勇	-12.46
謂全心以德感物者也	-12.46
謙順故無	-12.46
讓不與物爭濆動亂也	-12.46
賞之猶至於無賞也	-12.46
不重之結雖固必	-12.46
之早死也故曰	-12.46
之毎里滿此九如此則水可走上矣	-12.46
之理可間者則有	-12.46
也以刀刺	-12.46
也禮者因人之情	-12.46
五蠧第四十九	-12.46
交能易作	-12.46
交能易作謂雖士亦	-12.46
代商人之子侵夜斃	-12.46
以一人之力禁一國	-12.46
以其所以亂者治	-12.46
以斬首之功為	-12.46
以殺人之刀換下一口	-12.46
修正理而動故能	-12.46
兄曰澤命不渝而注乃以	-12.46
其功逆天者	-12.46
其變千狀	-12.46
凡言與行思中以	-12.46
利合而惡同	-12.46
前後相排則	-12.46
博囉哈雅	-12.46
去彼取此	-12.46
又欲置公子職商臣作	-12.46
古之聽獄者求所以生之	-12.46
合境庖丁	-12.46
吏集鄰里	-12.46
君始制法	-12.46
君子以折獄致刑	-12.46
嗔	-12.46
四璧周禮所謂四珪有邸者也	-12.46
國伍鄙立五	-12.46
國非其國也此三者亡國之	-12.46
多嵗不加樂	-12.46
大人之義權而合道	-12.46
奚以教寡人	-12.46
孔墨孔墨不	-12.46
封内仵作行人	-12.46
弑子般	-12.46
愚誣之學襍反之	-12.46
所屬之數雖曰	-12.46
所爲旣不合理	-12.46
控謂頓也言	-12.46
撫州司法	-12.46
攝其廣又百嵗之後天	-12.46
日損故復小	-12.46
明刑不戮	-12.46
易平易不牢固謂	-12.46
曰何謀此愼密之至	-12.46
曲則衝而觸有所毁傷	-12.46
更用他官覆治	-12.46
書語之雅馴者率多本管子管子天下之	-12.46
有下人之色	-12.46
材振四海王之佐也千	-12.46
楊氏母女	-12.46
業則農桑廢	-12.46
正直而還山集谷曲則曲矣而名繩焉以	-12.46
此八者匹夫之私	-12.46
水頓挫而却	-12.46
求盜而捕繫平民以希賞	-12.46
法遇民民	-12.46
泱	-12.46
洹	-12.46
流而却退	-12.46
澤恩之命甚陋不可徧舉書	-12.46
烏鳥之性多	-12.46
無守禦之備也	-12.46
狡謂猜也言	-12.46
猜初雖相善	-12.46
獨孤國非其國也鄰國皆險	-12.46
璧而祈請其福祥也	-12.46
略不顧問	-12.46
疑則臣下無所取	-12.46
百慮其家不一圖	-12.46
管氏對曰從今之後二十嵗天下安	-12.46
紀亂故復	-12.46
置毒鱉肉	-12.46
義者謂各處其	-12.46
而注乃謂召忽呼管仲	-12.46
能知天則祭以四	-12.46
臣所與交通者皆貨	-12.46
舎所以舎之異也	-12.46
見謂不忘而恃	-12.46
計其理實	-12.46
謂各得自通於	-12.46
輕似無物見瘞某處	-12.46
農勉疾商	-12.46
遂獲清雪	-12.46
道之用也貴其重也毋與不可毋彊不	-12.46
郊迎管子而問焉管仲辭讓然後對以	-12.46
醒	-12.46
鑿龜數筴兆曰大吉而以攻	-12.46
非其人故其人但	-12.46
高而不崩	-12.46
黒牛而以布裹其角	-12.46
革邪化令往民移	-12.46
毫	-12.4601
䡄出之屬也	-12.4601
之重一也今九	-12.4601
二捨一下熟中分之	-12.4601
倍重數也泰夏賦	-12.4601
桓公曰天下之數盡於䡄出之屬也	-12.4601
法而行私者也為人上者釋法而行私則	-12.4601
相交接否之謂也何慈之有乎	-12.4601
程戡仇門仲游帥宇	-12.4601
而出矣財物在下幣之九在大夫然則幣	-12.4601
謂保有其人	-12.4601
重什倍而萬物輕大夫謂賈之子	-12.4601
重而萬物輕若此則國財九在大夫矣國	-12.4601
故賔虞朝	-12.4601
言毋用佞人也用佞人則私多行毋蓄	-12.4601
不忘故彼不報也	-12.4601
之宗十家	-12.4601
又弑閔公	-12.4601
可知起下文也	-12.4601
填五十枚賣者堅稱三百	-12.4601
天之所助雖小必大天之所違雖成必敗	-12.4601
幾於不結	-12.4601
未必當賞則明然	-12.4601
無所比可謂逺於二三子	-12.4601
璘	-12.4601
論上下之所貴賤者而彊弱之國可知也	-12.4601
餘拙者用之不足	-12.4601
也四人均能故	-12.4601
事未道者不可以言名成功然	-12.4601
及行禄賞翻在衆下故不	-12.4601
國絶無後桓公聞之使	-12.4601
左右不論能而有爵禄則百姓	-12.4601
生於粟也故禁末作止竒巧而利農事今	-12.4601
𤓰瓠葷菜百果	-12.4602
聞而非之曰	-12.4603
於法之外三	-12.4603
豎	-12.4603
質曰此士無讐而有少妻所以死	-12.4603
㤙	-12.4603
不論志行	-12.4603
割河東而講	-12.4603
无	-12.4603
其德憂哀	-12.4603
嚴順謂德雖嚴然	-12.4603
四政曰求有德賜布施於民	-12.4603
山之上命曰復吕其草魚膓與蕕其木乃	-12.4603
曰國小無禮不用諫臣則絶世之勢也	-12.4603
欲人惡盛陽之氣也	-12.4603
田中之廬欲漏之不	-12.4603
秋揫也時物	-12.4603
結堅實故	-12.4603
羣臣左右諫曰夫	-12.4603
聚而收之也	-12.4603
順秋氣而靜居不	-12.4603
之心油然生矣今	-12.4603
以丙丁之日發五政一政曰求有功發	-12.4603
因而逃去詔令	-12.4603
官所在擒姦	-12.4603
昏亂之君	-12.4603
民有被盜殺者其妻	-12.4603
相與請至縣	-12.4603
禝	-12.4603
能事重重能制輕然後慈	-12.4603
霜氣肅殺	-12.4603
餚	-12.4603
不法古不修今	-12.4603
惡氣迎人害於	-12.4603
三七二十一尺而至於泉	-12.4603
五寸之的引十歩之逺非羿逄䝉不能必	-12.4603
使吏卒盡執	-12.4603
使士不兼官故技長使人不同功故莫爭	-12.4603
先定謙柔之	-12.4603
全心之氣	-12.4603
出俸錢	-12.4603
分下亦積一分	-12.4603
則無不耀無	-12.4603
后書曰無若丹朱敖	-12.4603
問死事之寡其餼	-12.4603
夫不與而怨	-12.4603
女之容色	-12.4603
寡謂其妻餼廪言給其	-12.4603
尸則為媪受捕賊之責	-12.4603
彭思永彭思永	-12.4603
掠遂伏誅後半年强盜始敗于儀真獄成	-12.4603
昔者周人有天下諸侯賔服名	-12.4603
曰弱於始	-12.4603
有失左右中期之對	-12.4603
此必盜也乃捕	-12.4603
為許州司理	-12.4603
知其材之所當	-12.4603
禮法竟以改邪	-12.4603
窑中即斬以應命囚亦久厭	-12.4603
義者行之美者也	-12.4603
而已矣曰某縣之	-12.4603
聖人在上賢人在下位動而履規矩常自	-12.4603
見曽子曽子	-12.4603
言毋使暴使	-12.4603
豚	-12.4603
財旣入市則公私共積之上雖積	-12.4603
速不崇朝	-12.4603
雖復隱處常	-12.4603
一道路博出入審閭閈	-12.4603
下法則雖有廣地衆民猶不能以	-12.4603
不忘故彼不結	-12.4603
不為之動既而果	-12.4603
不能以多力易人	-12.4603
世之知管子者殊淺也管子書多古字如	-12.4603
之則失其所親也	-12.4603
之道也故明法曰專授則失凡	-12.4603
乘之君無備必有	-12.4603
也仲尼幾而取之與處乆而	-12.4603
事上而求遷者則如	-12.4603
五尺之愚童子	-12.4603
五種無不宜其	-12.4603
亡玊簮	-12.4603
人散故復寡	-12.4603
人臣黨而成羣	-12.4603
以和為誑而刖其	-12.4603
以敬事端	-12.4603
以示人則人不復行此道	-12.4603
以輔行王事	-12.4603
佑	-12.4603
何武王之敢窺哉	-12.4603
作摶忒作貣宥作侑	-12.4603
使弱以衆致寡	-12.4603
倍貸謂貸	-12.4603
億萬之心亡武王以一心存故有國之君	-12.4603
其優賞厚薄	-12.4603
其足以戰民乎狐子曰不足文公曰吾	-12.4603
内業諸篇則未	-12.4603
則國非其國而民	-12.4603
及執事并建立	-12.4603
取道邊死人	-12.4603
古治獄之官	-12.4603
問刑論有常以行不可改也今其事之	-12.4603
問吏所明欲知	-12.4603
問政於師曠曰太師	-12.4603
器所以理農	-12.4603
因元日上	-12.4603
在其側以徙其	-12.4603
墨子為木鳶	-12.4603
夕果歸家	-12.4603
始誦必作其次則	-12.4603
始誦而作	-12.4603
宣歙間有强盜夜殺一行旅棄	-12.4603
將為行祭至	-12.4603
引問無以證明	-12.4603
往至死人邊若與死人共語	-12.4603
思合中和	-12.4603
恩施之徳然見	-12.4603
悴	-12.4603
擣	-12.4603
故曰深其根	-12.4603
故著此二事使	-12.4603
於人故巧者	-12.4603
於天下後世者豈徒其功烈哉及讀心術	-12.4603
於次誦則	-12.4603
日陽也月隂也物皆	-12.4603
欲冨貴全夀而	-12.4603
武王以臣代君則非簒也	-12.4603
殺之類禍福同矣知備此五者人君天地	-12.4603
法制予人則必有亂亡之禍如此者亡	-12.4603
為人臣者重私而輕公矣	-12.4603
無他故異物	-12.4603
無知植物則有	-12.4603
狹坐之人見後	-12.4603
獄具將伏法	-12.4603
獨王謂無四	-12.4603
王之疑己也	-12.4603
王使玉人相之	-12.4603
田此四士者天下之賢人也猶尚精一	-12.4603
疑酒有毒覆	-12.4603
百姓無他寶	-12.4603
目易人烏獲舉千鈞之重	-12.4603
知形不如知能知能不如知意故主兵必	-12.4603
簒者則以紂	-12.4603
終故可往矣	-12.4603
而恣羣臣威嚴已廢權勢已奪令不得出	-12.4603
舜之有天下也禹	-12.4603
萬乗之國失其守國非其國也天下皆理	-12.4603
詹子之察	-12.4603
認云非妻也遂收豪家鞫	-12.4603
謂之簒之豈能使紂	-12.4603
貧賤死夭	-12.4603
貨財商賈之人不論	-12.4603
輗	-12.4603
追逮之苦	-12.4603
道其事若自然失天之道雖立不安其道	-12.4603
違失其理必敗亡	-12.4603
還山集谷	-12.4603
長始一周	-12.4603
闓	-12.4603
隱没金	-12.4603
雖有惻然見而	-12.4603
非不存也而	-12.4603
􁷐	-12.4603
㝷至於極則近於心心	-12.4603
下曲水道	-12.4603
之有闗中河内也	-12.4603
人所殺而失其首	-12.4603
則國必富位必尊能適衣服去玩好以奉	-12.4603
則除身之危	-12.4603
右𫝊韓非子卷十	-12.4603
周其智於六合則神傷	-12.4603
善持勢者蚤絶	-12.4603
四人交能易	-12.4603
因不寵任而踈	-12.4603
屍則為媪受捕賊之責凡宿海上	-12.4603
復繆於訓故益使後人疑惑不能究知世	-12.4603
思索太精則矜	-12.4603
汝不然子死汝手矣乃命以其財三	-12.4603
知周於六合之内者吾知生之有	-12.4603
空若環之中所謂齊	-12.4603
者則數加恩意以	-12.4603
而漸以取進耳欲王天下	-12.4603
而用必贍身必安矣能移無益之事無	-12.4603
肄	-12.4603
能而有爵禄則百姓	-12.4603
臥猶息	-12.4603
與我俱生	-12.4603
道故曰與我俱生也	-12.4603
酒酹地曰汝之婦翁智人也時以子㓜故	-12.4603
雅奥難句而	-12.4603
風動波應大小唯	-12.4603
逐之罕令引歸	-12.4604
九合諸侯一匡天下	-12.4604
希亮奏乞以宇所上封事付有司即其言	-12.4604
送案問悉獲其黨	-12.4604
部不受亡至京師執政令劾以在官無故	-12.4604
吏不知印文更時	-12.4604
子令顙之作聲如傀儡子粗能辨其一二	-12.4604
輕重自在重或前或後不	-12.4604
之美者也貎美故民歌之	-12.4604
也舉困難之事	-12.4604
以復于里尉	-12.4604
凡出入不時衣服不中	-12.4604
十藏於上三	-12.4604
天下而奪於其下何數也管子對曰君分	-12.4604
天有雲氣而不易也	-12.4604
宙合之意上通於天之上下泉於地之	-12.4604
無不見假令不見是	-12.4604
義美故民樂之民之所歌樂者美行	-12.4604
老人之子無影遂	-12.4604
與之死事孤	-12.4604
萬物輕則士偷幸三怠在國何數之有彼	-12.4604
餼生食廪米粟之屬	-12.4604
人心一國威齊士義通上之治以	-12.4604
執官都之職者問其	-12.4604
曰吾夫也以聞	-12.4604
聞於臺省吉	-12.4604
識故於人也無私	-12.4604
辭功禄明	-12.4604
道易國之常賜賞恣於	-12.4604
非其民如此者滅主之道也故明法曰令	-12.4604
之屬移變	-12.4604
代馬走使盡其力	-12.4604
以此事君此所謂誣能簒利之臣者也	-12.4604
則田荒而國貧矣凡農者月不足而	-12.4604
汾	-12.4604
神廬謂廟祠也日所次隅曰曋言	-12.4604
而舉言上而見之	-12.4604
非但疾怨又非上輕賤爵	-12.4604
犒	-12.4606
五七三十五	-12.4606
不獲尉執一人指為	-12.4606
之得其人以獻渙曰弓手見血衣當自取	-12.4606
儕	-12.4606
呼他人此必為姦訊之而服他日果得真	-12.4606
攝而問之即自引伏數日間思安亦為人	-12.4606
曰弓手見血衣	-12.4606
無不生故和	-12.4606
今但見質若徃不獲送官	-12.4606
姦劫弑臣第十四	-12.4606
春嬴育夏養長秋聚收冬	-12.4606
曰非子之所知也	-12.4606
殿中侍御史時	-12.4606
知偽詐之	-12.4606
言上之四時皆	-12.4606
謂順時理軍	-12.4606
其草兢與薔	-12.4606
反坐責為文學參軍福州安置	-12.4606
夫輕重彊弱之形諸侯合則	-12.4606
尺而至於泉山之上命之曰	-12.4606
為發運判官患官舟多	-12.4606
發故屋辟故	-12.4606
知潭州時	-12.4606
砥礪殺矢	-12.4606
取贓閲之	-12.4606
妄發其端未嘗不中秋毫也然而	-12.4606
時其理微暗	-12.4606
欲得首結案乃嚴督里胥遍行	-12.4606
相視而笑無名喜曰得之矣	-12.4606
索會一丐者病	-12.4606
葍	-12.4606
一男纔數	-12.4606
不足故敬心	-12.4606
丹朱慢而不恭故曰敖敖在堯時雖凡下	-12.4606
亂國故明法曰所謂亂國者臣術勝也	-12.4606
五謂每時之	-12.4606
人知終始	-12.4606
其羣臣明理以佐主故主明主明而國治	-12.4606
加極典防疑其	-12.4606
可亂也故羣臣不敢行其私貴臣不得蔽	-12.4606
呪	-12.4606
堅明以自處也	-12.4606
守柔弱之節而	-12.4606
常科當奉而行之此不	-12.4606
徳幾於不報	-12.4606
恐衆怨而殺之	-12.4606
村民相逢擊落	-12.4606
桓公又問於管子曰有人	-12.4606
死王事之子孫	-12.4606
漢孫寳為京兆尹有賣鐶散者今	-12.4606
獲㝠助	-12.4606
疾於雷鼔也	-12.4606
盛瓦礫	-12.4606
穗	-12.4606
者天下鮮矣	-12.4606
而遍天下故	-12.4606
聼之師曠不得已	-12.4606
若不慕賞不畏刑意氣内得	-12.4606
起者九誅	-12.4606
鐶餅也於都市	-12.4606
隨若此者當原其初始	-12.4606
黨而成朋如此則主弱而臣	-12.4606
㢤	-12.4606
三十五而至於泉也	-12.4606
下取於人輕然不難	-12.4606
不恃仰人而食	-12.4606
不行將何待乎	-12.4606
不費於宫	-12.4606
中秋毫為拙	-12.4606
乃取水左右各一人使	-12.4606
之作不足以自食也然則民舎	-12.4606
之則已竄矣於是以	-12.4606
之故得簒名	-12.4606
之無使人見怨隂	-12.4606
事道然後可以言名然	-12.4606
今不然故致怪之	-12.4606
代公道生並是	-12.4606
以告於君此求	-12.4606
以大牽小以	-12.4606
以臣代君於理是也	-12.4606
伇	-12.4606
佛座下	-12.4606
信不然之物	-12.4606
俱認之不能制	-12.4606
倒言反事	-12.4606
先為鴈行以	-12.4606
其霜雪夏	-12.4606
凡所建必建	-12.4606
則上令輕法制毁權重之人不論	-12.4606
前歌後舞乎則武王	-12.4606
君事故須禁之也	-12.4606
君人而不能知立君之道以	-12.4606
君公法求人私	-12.4606
問何故服罪曰不任捶楚求速死耳居	-12.4606
土主和故	-12.4606
在爵禄之位也	-12.4606
大有臣甚大將反	-12.4606
夫竈一人煬焉則後人無從見矣	-12.4606
好言可惡之事	-12.4606
子齊大夫聞君之將行故告中	-12.4606
存韓第二	-12.4606
宋君而奪其政	-12.4606
客驢韁斷并鞍失之	-12.4606
寢諸子諸侯諸子之居中寢者	-12.4606
常禮退朝常鼎饋而	-12.4606
廷掾耳又問鈐下	-12.4606
彼積勞之人不務盡力則兵士不戰矣豪	-12.4606
恃其辯巧自異	-12.4606
惔	-12.4606
成蜚一日而敗	-12.4606
或髙或下各有草	-12.4606
托	-12.4606
挾知而問	-12.4606
於南意北而至于北茍大意得不以小缺	-12.4606
於物逆天絶理毒	-12.4606
日潮浮二屍	-12.4606
書詣府請如元約	-12.4606
有也故治亂不以法斷而	-12.4606
松栢不凋輟	-12.4606
柯	-12.4606
桓公自莒反于齊使鮑叔牙	-12.4606
械送闕下	-12.4606
殂却妳子五更初墻頭舁過凶器	-12.4606
民倍本行而求外勢	-12.4606
流四海故也向能去其辯巧與	-12.4606
為主之重者也	-12.4606
為政先小從	-12.4606
無處可舎	-12.4606
營物過分	-12.4606
牛肥膌及老而死者皆舉之以知其數也	-12.4606
用附下成恩枉	-12.4606
由穴入佛	-12.4606
瘁	-12.4606
盃	-12.4606
置水官令習水者	-12.4606
義之意也故禮出乎義義出乎理理因乎	-12.4606
而伐趙趙	-12.4606
而與壻遺書	-12.4606
至者則當起	-12.4606
藏之無形天之道也疑今者察之古不知	-12.4606
行禮故黨多交親也	-12.4606
西門豹為鄴令	-12.4606
言而不可復者君不言也	-12.4606
訊問乃姦	-12.4606
請問備五害之道管子對曰請除五害之	-12.4606
諸侯而不拂近無不服逺無不聽夫明王	-12.4606
謂抱蜀者祠器也故曰抱蜀不言而廟堂	-12.4606
謂此地生某草	-12.4606
賜賞者人君所獨用也	-12.4606
越職行恩	-12.4606
軾	-12.4606
辨而婦人獨知	-12.4606
迅	-12.4606
阻不平易也	-12.4606
隂陽之氣然後化之也	-12.4606
鳥之覆卯	-12.4606
三代無能授於有能桀紂失之湯武得之	-12.4606
三者有罪無赦告	-12.4606
下則淫泆	-12.4606
不重鐵反旅陳於金	-12.4606
之聲以成安樂之音	-12.4606
交於驕暴則	-12.4606
今之天下即古之天下豈有二天下而行	-12.4606
以掩骸為加功	-12.4606
初為洪州	-12.4606
則臣有依駟之	-12.4606
十有三具者皆	-12.4606
取人乎失之	-12.4606
名故王道狹也	-12.4606
命取兩家繰	-12.4606
咸通故可審合理	-12.4606
善於荆王而	-12.4606
國子主斷獄故不在三大夫之數	-12.4606
嫁子於滿盛之	-12.4606
孜	-12.4606
得其所以生之者	-12.4606
得萬物有極然	-12.4606
情則物理極極	-12.4606
所為既不合理	-12.4606
有可生之理以其	-12.4606
梜	-12.4606
母既乖大功不讁之制又失婦人三	-12.4606
氏東南有	-12.4606
渭	-12.4606
滿盛之國不可以仕	-12.4606
為東海太守	-12.4606
片言可以折獄	-12.4606
牗	-12.4606
用之器物也	-12.4606
田墾則粟多粟多則國富	-12.4606
發蓐而席弊甚	-12.4606
目有所不見耳有所不	-12.4606
矛楯之説也	-12.4606
破趙而三分其地	-12.4606
竭故於其生有	-12.4606
組令之如是	-12.4606
而常經不失也	-12.4606
行者不止築者知倦	-12.4606
見三大夫所選舉者此言選舉者	-12.4606
視子猶蚤虱	-12.4606
謂路形若轅而又	-12.4606
植固而不動竒邪乃恐	-12.4606
民不以珠玉重	-12.4608
有能以民之財力上陷其主而可以	-12.4608
之賢故曰易賢不肖也	-12.4608
所歸故百姓不	-12.4608
果反宇自訟	-12.4608
㝷丈之數者不可差以長短	-12.4608
中地方百里萬室之	-12.4608
也夫生殺之柄專在大臣而主不危者未	-12.4608
以治田土泰秋田	-12.4608
使尉居焉	-12.4608
信安始而可對曰始於	-12.4608
再行者則由	-12.4608
同所以結恩好也	-12.4608
喪蒸不聚	-12.4608
國有常經則人知終始	-12.4608
士謂里尉每里當	-12.4608
官百能管子對曰何謂百能桓公曰使智	-12.4608
擅生殺處威勢操令行禁止之柄以御其	-12.4608
次還須曲木求其類	-12.4608
法廢而私行則人主孤特而獨立人臣	-12.4608
謂臣有忠言不可	-12.4608
里每時當有㑹	-12.4608
上令輕法制毁	-12.4608
不可顧小利而移	-12.4608
且以右手自承	-12.4608
之數者不可差以長短	-12.4608
之賞奪君之富	-12.4608
以事君矣民倍本行而求外勢則國之情	-12.4608
倮獸謂	-12.4608
先傅直木直木又求直木直木	-12.4608
列業也臣有用少而家業富禄寡	-12.4608
棧敗矣喻小人用	-12.4608
翫	-12.4608
而資財多則以枉法取於人故也	-12.4608
親踈之殺凡此	-12.4608
言取一日之利可	-12.4608
言君王豪盛處	-12.4608
開引罪黨上聞	-12.4608
韜也謂韜其章而	-12.4608
黄后之井	-12.4608
不當廢廢興	-12.4608
之理難明故惑也	-12.4608
也異趣而同歸古今一也	-12.4608
人事則愛惡相攻	-12.4608
代之雖盡力弊翼而終竟不	-12.4608
以日次隅之所以	-12.4608
以觀其則動則失位靜乃自得道不	-12.4608
使弊其羽翼	-12.4608
依稱也代衰則臣富故臣多	-12.4608
修小禮行小義飾小	-12.4608
候人物此	-12.4608
具凡欲以貢齊也	-12.4608
則聲服俱變	-12.4608
卒年謂終年如此管仲	-12.4608
君㓜則母	-12.4608
咎而已不敢怨及他人至弱子	-12.4608
将用民力者	-12.4608
将立朝廷者	-12.4608
所進者君舉用之也	-12.4608
損不多慈母便操箠而怒之喻人主過由	-12.4608
政韓億知洋州	-12.4608
敗敵所得之物應受分	-12.4608
旣有獨名	-12.4608
曰贅福下	-12.4608
物理可謂有德也	-12.4608
當廢也五材	-12.4608
神廬之時或薦珍貨雖	-12.4608
穡之地荆棘生焉	-12.4608
精祥也如此	-12.4608
者急分與之可以得勝	-12.4608
者牧養謂其人不能自	-12.4608
聲謂樂聲衆亂	-12.4608
自責乃遷怒而罰之	-12.4608
至覆屋但自	-12.4608
處華屋之	-12.4608
語及斯事	-12.4608
謹小恥禁微邪	-12.4608
選擇其善者以成	-12.4608
郭氏諸親與義子	-12.4608
禧	-12.4608
以其名呼之可	-12.4609
兵車之㑹六	-12.4609
出錢與同營	-12.4609
至崇笞女巫一百遂釋	-12.4609
宜殺而不殺	-12.4609
州時耒陽民為	-12.4609
知鄧州有富人	-12.4609
觀行第二十四	-12.4609
國尉分地以	-12.4609
曰火自我出故遺其跡某家者欲自免也	-12.4609
有四十之籍	-12.4609
久墳瘞之處	-12.4609
之能作人言	-12.4609
叔向賦獵	-12.4609
呌子置喉中	-12.4609
嚢	-12.4609
堙	-12.4609
夫施功而不鈞位雖髙	-12.4609
必亂至削	-12.4609
必治至强國	-12.4609
有青州男子趙宇上言元昊	-12.4609
破釘鞠之數	-12.4609
詭使第四十五	-12.4609
貿	-12.4609
逕	-12.4609
陳希亮大卿為開封府司録	-12.4609
下之利皆用	-12.4609
乃屠刀也	-12.4609
之使其臣也用必	-12.4609
予人軍而重予人玉重宫門之營而輕四	-12.4609
亦已幸矣	-12.4609
令煩則民詐政擾則民不定	-12.4609
以幣民曰無幣以	-12.4609
其兒又計小兒正得此財不能全䕶故且	-12.4609
制不能加也	-12.4609
勢旣凌君故爵	-12.4609
勢者君之輿威者君之策	-12.4609
喪之禮使人皆	-12.4609
女及壻省其手書顧謂掾	-12.4609
州縣或能明證得以伸理此凡庸何	-12.4609
幣雖設此	-12.4609
府若為推勘	-12.4609
慕賞乃善	-12.4609
於郎門之	-12.4609
智力足以自居度此女壻	-12.4609
智謀士盡其謀百工盡其巧若此則可以	-12.4609
治不踰官雖知	-12.4609
温飽十	-12.4609
為魏將而攻中山	-12.4609
爵制而不可加則	-12.4609
用介士所	-12.4609
畏刑懲過	-12.4609
百姓無賢人則不	-12.4609
編棧者先附曲木其	-12.4609
若干今上歛	-12.4609
論上下之所貴賤者而强弱之國可知也	-12.4609
謂道因德以生	-12.4609
身故曰環其	-12.4609
重者政與軍若失主不然輕與人政而重	-12.4609
飬儒侠難至	-12.4609
駒	-12.4609
七與壻子	-12.4609
三者有罪無赦告國子曰工賈出入不應	-12.4609
上當操大義而主	-12.4609
不一則毒流不辜	-12.4609
不得翦其私羣臣不得辟其所親愛聖君	-12.4609
不至必貧國	-12.4609
不舉起十人之繇千	-12.4609
不過三官五	-12.4609
之數有以賙	-12.4609
之精者生於蟡蟡者一頭而兩身其形若	-12.4609
之號令賞罰地形利害天下莫	-12.4609
之辜指顧之	-12.4609
也愈不幾	-12.4609
也故言姦心豈	-12.4609
也昔者紂為	-12.4609
人之所制者有不	-12.4609
人無私故萬	-12.4609
今君立扶臺五衢之衆皆作	-12.4609
令侵則法不	-12.4609
以財為訟壻持	-12.4609
假因也因女之能食主	-12.4609
先其君以惡者侵其刑而	-12.4609
先君行善則是侵君	-12.4609
公問自今之後運之合滿何	-12.4609
兵廣地富國之必	-12.4609
其家之父母與之	-12.4609
分財即以十之三與子	-12.4609
别男女大小其不	-12.4609
制度官都復自有常	-12.4609
則乖正故	-12.4609
則五衢之内阻棄之地也起一人之繇百	-12.4609
則思慮熟思慮熟則得事理	-12.4609
南梁顧憲之為建康令有失牛者	-12.4609
口之數當受地若干	-12.4609
可省作者半	-12.4609
名滿於天下不若其	-12.4609
君之所藏者温和	-12.4609
君臣上下貴賤皆從法此謂	-12.4609
君隨臣愛惡則威德	-12.4609
否曰然防令校其幅尺廣狹	-12.4609
周公不以管	-12.4609
善者此誠善也故天下服	-12.4609
嚮	-12.4609
地折長補短方數千里名師數十百萬秦	-12.4609
大而且衆也	-12.4609
大致不以反經小過而	-12.4609
專聽其大臣者危主也故	-12.4609
小人冀其利	-12.4609
廵行部内	-12.4609
役者則免之	-12.4609
得事理則必成功	-12.4609
愈禁愈犯	-12.4609
戈於外然則國不得耕此非天凶也此人	-12.4609
所藏隱可得	-12.4609
承奉君敬	-12.4609
探情偽	-12.4609
政其理曠	-12.4609
故其言也不廢其事也不隨原始計實	-12.4609
故天下清而百姓	-12.4609
旱謂其水慘澁而無光	-12.4609
昔之日已往而不	-12.4609
昔者齊桓公九合諸侯一匡天下	-12.4609
是與不肖論賢也	-12.4609
曰君必惠民而已矣景公	-12.4609
有富民病將死子方三嵗乃命	-12.4609
未必皆有罪今	-12.4609
枚因致喧	-12.4609
枯死止其	-12.4609
某榖造成也	-12.4609
根黨盤亦	-12.4609
案人比地有十口五	-12.4609
椀	-12.4609
為東陽令	-12.4609
無得入同其惡	-12.4609
無求無設則無慮無慮則反覆	-12.4609
爲人臣者重私而輕公矣	-12.4609
父在已離母死不	-12.4609
猶困苦其有怠	-12.4609
獄窮治贓狀已具	-12.4609
用曲木又施直木則失其類而	-12.4609
田墾田墾則粟多粟多則國富國富者兵	-12.4609
留其事將如之何	-12.4609
皆在於臣故曰失也	-12.4609
皆碎村民甘	-12.4609
盗賊無從而勝	-12.4609
眀刑之猶至於無刑也	-12.4609
省視作者取其半功	-12.4609
矩繩墨也夫矩不正不可以求方繩不信	-12.4609
窺井蔡髙宿海	-12.4609
競得使民偷	-12.4609
罪不辜則與	-12.4609
者戰勝戰勝者地廣是以先王知衆民	-12.4609
而有黜陟	-12.4609
聖人行權亦猶	-12.4609
臆	-12.4609
與三老里有司伍長行里因父母案行閱	-12.4609
葉亦草名唯生葉無莖在	-12.4609
著其名於疾	-12.4609
行故官危也	-12.4609
行賞於善人行罰於凶	-12.4609
言故也臣有善行不可	-12.4609
誇大也天與聖	-12.4609
謂刑於冬	-12.4609
謂君之出言人乃順而	-12.4609
謂疾者雖不任	-12.4609
財者不如無奪時如以予人食者不如	-12.4609
跋	-12.4609
遂南北之大意不以曲飛小缺	-12.4609
部民王乂為賊所刼捕得	-12.4609
里胥洪氏利	-12.4609
重其輕者輕其重者輕者不	-12.4609
錯董生之語時	-12.4609
門之外而令之	-12.4609
開罪黨以	-12.4609
集南北亦	-12.4609
雍熙中	-12.4609
飼其有功省其	-12.4609
不助天地不與舉	-12.4609
不飛不鳴	-12.4609
主言是本物其	-12.4609
乃令四封之内脩兵	-12.4609
之寡人無行女安聞之吾聞之先人諸侯	-12.4609
之所收贓惟絲	-12.4609
之時彌子瑕有寵	-12.4609
也天下太平之士不可以	-12.4609
事如何亦公之問辭也	-12.4609
人主者夢見日奚為見寡人而夢見竈	-12.4609
人之作日亡半日十日則亡五	-12.4609
人雖小而振怒也	-12.4609
今謀欲㝷於道	-12.4609
令曰常以秋	-12.4609
以國讓子之	-12.4609
以播其音音之髙下	-12.4609
以省其功費	-12.4609
作樂易先古政	-12.4609
侈謂過常也	-12.4609
傴	-12.4609
兕虎之害	-12.4609
兵有四患則	-12.4609
其經則庶	-12.4609
其賢而吏舉	-12.4609
凡此皆因地而成	-12.4609
凡牧民者欲民之正也欲民之正則	-12.4609
卒謂所當治水	-12.4609
博故事無過	-12.4609
吉凶之驗不妄	-12.4609
吾欲優患除害將小能察大為之	-12.4609
唐閻濟美	-12.4609
唯愛心安也	-12.4609
四季而正位在六月也	-12.4609
四極謂國之四鄙也自官	-12.4609
土雖均王	-12.4609
地以積隂成體	-12.4609
大國不可以小道理	-12.4609
大女吾子謂	-12.4609
大樹深根不可伐大	-12.4609
天氣以積陽成德故通陽氣然後能事	-12.4609
始遣吏按鞫	-12.4609
子今道舉為刼叔父已	-12.4609
安公曰安之	-12.4609
安得無危鮑叔曰公必用夷吾之言公不	-12.4609
官甲輙賂吏使掠服之	-12.4609
家全活之知其所	-12.4609
家則與之俱亡	-12.4609
家物與被盜	-12.4609
富者出息以	-12.4609
封二子者各萬家之縣一	-12.4609
小男小女也按古之石准今之三	-12.4609
張式郎中	-12.4609
形聲常依序	-12.4609
戎馬乏	-12.4609
成故謂之道也	-12.4609
所以助土氣	-12.4609
所以示輕財	-12.4609
所廪餼	-12.4609
所見之事皆不善	-12.4609
抵當也不知仲父之聖	-12.4609
故將反為害	-12.4609
故曰上離其道下失其事	-12.4609
故曰臺榭相望者	-12.4609
散一枚之重	-12.4609
斗斛區釜以	-12.4609
明一人之行而百姓定矣	-12.4609
明主弗受也	-12.4609
是寡人當有罪	-12.4609
時袁相國滋亦在幕中	-12.4609
曰景公不知用勢	-12.4609
曰某疑此事有枉	-12.4609
末也本大而	-12.4609
末小則難崩	-12.4609
棄人謂有過不	-12.4609
欲民之有禮	-12.4609
此土王之時故服	-12.4609
此地圖之常也人之衆寡士之精	-12.4609
為見公也公怒曰吾聞	-12.4609
無功者妄受	-12.4609
無有遺脫	-12.4609
無行女安聞之	-12.4609
無過於父兄見稱於州	-12.4609
燈下識認暴客迨	-12.4609
營生以致富	-12.4609
猶踈則數	-12.4609
珪璧不足以享鬼	-12.4609
甚大則逼君	-12.4609
甚得齊民	-12.4609
田可播殖者	-12.4609
皆法人情律法也	-12.4609
皆泣謝而去	-12.4609
皓	-12.4609
矣紹興己未乃從人借得之	-12.4609
私以適重人哉此必不顧	-12.4609
筫	-12.4609
管仲對曰夷吾聞之聖人先知無形今	-12.4609
管子對曰未可民心未	-12.4609
級欲為官者為	-12.4609
縲囚訴	-12.4609
義也欲民之有義則小義不可不行	-12.4609
義士不歸也	-12.4609
老而死者皆舉之	-12.4609
者所以招合鬼神精氣之道也	-12.4609
而不為變者可謂	-12.4609
而師曠晏子不知除患	-12.4609
而聲好下曲食好	-12.4609
而聽命遵國之常令	-12.4609
聲其音中角	-12.4609
能走者馬也能	-12.4609
臣之作福所邀射	-12.4609
若靜心則	-12.4609
茍免而已故不進廉意也	-12.4609
蔞下於荓荓下於蕭蕭下於薜薜下於萑	-12.4609
處亦當絶之凡此守地者所	-12.4609
衛國侏儒有見公者曰臣之夢賤矣公曰	-12.4609
覬	-12.4609
言子受政而	-12.4609
言道無他善	-12.4609
訓成俗而刑罰省數也	-12.4609
詰之對曰此非某刀	-12.4609
課遂有羡	-12.4609
謂勤力於無	-12.4609
謂短者生	-12.4609
讁乃以叔母為朞親而令二子	-12.4609
豬	-12.4609
責知其能隨而任之則自課厲而	-12.4609
超絶而又	-12.4609
蹊	-12.4609
身俱進者	-12.4609
近城郭之大小名邑	-12.4609
送州宗裔引慮	-12.4609
進此人君必用之	-12.4609
邪不可不禁也	-12.4609
里尉其在里尉及于州長其在州長及于	-12.4609
重交好則挾朋黨	-12.4609
陕	-12.4609
雖大而吞聲過發他	-12.4609
非是予求管子書	-12.4609
風雨有常百貨成	-12.4609
養之數欲有所復除也	-12.4609
魯境亦死今殺君亦死同是死	-12.4609
内翰云世人以竹木牙骨之	-12.4611
爲多以狹爲廣	-12.4611
上犯禁則難治也故治國常富而亂國	-12.4611
實賢謂之不肖實不肖謂	-12.4611
第二十八制分第二十九君臣上第三十	-12.4611
上則擅君之柄下則用人	-12.4611
事業及其名位	-12.4611
令故令敬也	-12.4611
以類善天地萬物從而	-12.4611
則敢陵上犯禁	-12.4611
則象法化决	-12.4611
君子知善惡必報繩繩戒	-12.4611
告之以時而民不知不道之以事而民不	-12.4611
喪者毁厝之息謂	-12.4611
國之急者必先禁末作文巧	-12.4611
國者必先富民然	-12.4611
天時地利猶有	-12.4611
客罷以疾告是夜暴卒	-12.4611
慢則不及事由人	-12.4611
施功謂施恩於	-12.4611
有功者怨故雖	-12.4611
有功者施恩不	-12.4611
有髙位人不	-12.4611
比所破纔十	-12.4611
無幣請輸	-12.4611
習為精厲	-12.4611
而不知則是姦心之	-12.4611
豈得不多而殊乎	-12.4611
逺古卑人	-12.4611
重送葬則費用廣	-12.4611
不使而父子兄弟不忘其功右士農工商	-12.4611
不寤民乃自	-12.4611
不明故有功者危	-12.4611
不舉起百人之繇萬	-12.4611
不閉外内交通則男女之别毋自正矣	-12.4611
主不能然故以	-12.4611
主乃比之讒賊	-12.4611
之所資也獨明者天下之利器也獨斷者	-12.4611
之萬物之時也強之強之萬物之	-12.4611
五日而尚有起夏作是春失其地夏失其	-12.4611
人主不周密則正言直行之士	-12.4611
仗劒逐之	-12.4611
内以從于齊齊亦	-12.4611
劉湜焚屍髙防劾病	-12.4611
口故曰婦人能食其意	-12.4611
吕公綽侍讀知開封府有營婦夫	-12.4611
國家煩亂萬民心怨此其必亡也猶自萬	-12.4611
大國之不服者奈何管仲對曰先愛四封	-12.4611
夫正直之法度罪	-12.4611
宗裔卷紬髙防校布	-12.4611
官都重門擊	-12.4611
定故曰營壘	-12.4611
宫墻毁壊門	-12.4611
山之見榮者謹封而	-12.4611
幾事不密	-12.4611
情彌虚也	-12.4611
意以規度主之情也	-12.4611
故人皆反於朴素今	-12.4611
故盛必失而雄必敗夫上	-12.4611
於化而欲變俗易	-12.4611
施者大尺之名	-12.4611
早何食一云粟一云	-12.4611
易得交通	-12.4611
曰不忍也其母詬	-12.4611
曰予曰有先後	-12.4611
此三者聖人之所則也聖人畏	-12.4611
殺僇必信民畏而懼武威旣明令不再行	-12.4611
求百姓之尊主政令不可得也上好詐謀	-12.4611
江分表裏章辨朱墨	-12.4611
汲者生其婬放	-12.4611
沾體塗足暴其	-12.4611
無功則臣勸也	-12.4611
父之語寡人畢矣然則寡人何事乎哉亟	-12.4611
王夏殷周	-12.4611
矣故人莫不化上	-12.4611
祖始也尊立祖廟	-12.4611
綬	-12.4611
膚盡其四支之力以疾從事於	-12.4611
良田所以賞戰士	-12.4611
苧蔣也編苧	-12.4611
行凡國之重也必待兵之勝也而國乃重	-12.4611
襏襫謂麤堅之衣	-12.4611
言執法者必當深植而固守則不可動移	-12.4611
論議侵理則功過	-12.4611
謂禽獸之屬	-12.4611
谷水巷	-12.4611
谷水巷井則出	-12.4611
輔官齊政之法	-12.4611
輕令則有無	-12.4611
逐之所以養嘉	-12.4611
鄰國每動重富君之民貧者重貧富者重	-12.4611
長心謂謀慮逺也	-12.4611
隔也有所隔	-12.4611
雖卑不可勝	-12.4611
非侮而何	-12.4611
魯請比於	-12.4611
下非地則無所容居	-12.4611
下髙田撫	-12.4611
不事於齊至	-12.4611
不脩其兵革故出入自	-12.4611
不進廉意	-12.4611
之處即甲士下之	-12.4611
也女無淫事訓也	-12.4611
人上者衆謀矣	-12.4611
人上而衆謀之雖欲毋危不可得也號令	-12.4611
令而多行者也故曰上苛則下不	-12.4611
以冬無事之時籠	-12.4611
以狀聞於府	-12.4611
伐功行賞之事	-12.4611
佼以進其譽	-12.4611
債而食謂從	-12.4611
八分有職卿相之守也十官飾勝備威	-12.4611
其人謂於操事輕重之	-12.4611
其榮者君謹封而祭之距封十里而	-12.4611
兾	-12.4611
則羣臣仰利害也如此則姦人	-12.4611
則費財憂主亦傷國也故曰一也	-12.4611
則載其所食而	-12.4611
十之籍吾子	-12.4611
原無象勝之	-12.4611
又經緯日月之時候使人用之也	-12.4611
君服黄色味甘味聴宫聲	-12.4611
唐杜亞字次公鎮維	-12.4611
土生數五土氣	-12.4611
士八千人奉之以車馬衣裘多其資	-12.4611
夫城郭之厚薄溝壑之淺深門閭之尊卑	-12.4611
嫁其嫂因誣其子為	-12.4611
子之朝一戰大勝	-12.4611
子辜二十年撫	-12.4611
封之其畜以散亡故桓公	-12.4611
山發而出水金從之蚩尤受而制之以爲	-12.4611
必察有功不	-12.4611
必治也治則姦臣困而法術之士顯是故	-12.4611
成謂諸侯自盟要	-12.4611
掲示之乃房陵商人道	-12.4611
是人君非發號令收穡而	-12.4611
時土豪李甲者兄死	-12.4611
有形而後知之臣非聖也善承	-12.4611
有餘兵不用且詭而陳之以	-12.4611
本定獨威勝	-12.4611
桓公城楚丘	-12.4611
殺君次自殺	-12.4611
泉深淺各有其位	-12.4611
牧民者使士無邪行女無淫事士無邪行	-12.4611
瓮間得土二百五十餘塊	-12.4611
生於勞身是故主上用財毋	-12.4611
由前政多善故甲	-12.4611
皆忘主而趨私佼矣故明法曰比周以相	-12.4611
簡選稽考之以知其能	-12.4611
育故明主之務務在行道不顧小物燕爵	-12.4611
能事地又經緯星	-12.4611
脩舊法擇其善者舉而嚴用之	-12.4611
臨下視其兵不足	-12.4611
苴草謂其草深	-12.4611
茂能有所覆藏	-12.4611
行師用兵必	-12.4611
術數則羣臣易欺之國無明法則百姓輕	-12.4611
襄州中廬令有賊	-12.4611
訊不得情偶於賊	-12.4611
試誨之也	-12.4611
財幣足之使出周	-12.4611
賊所掠者賊即引伏	-12.4611
賢武王賢武王伐殷克之七年而崩周公	-12.4611
辟之也猶夏之就凊	-12.4611
通乎隂氣所以事地也經緯星	-12.4611
遂於列肆索金鎔	-12.4611
遂遣掾就案其事	-12.4611
里民送於縣	-12.4611
除人害者幾何矣制地君曰理國之道地	-12.4611
非是故姦邪之人用國	-12.4611
飛者鳥也今不	-12.4611
靑后之井	-12.4612
弱之應八存亡之數九練之以散群傰署	-12.4612
遷衆使二分具本	-12.4612
攻蠻夷	-12.4612
出鎮太原	-12.4612
可為典獄之	-12.4612
揄	-12.4612
不止者不必得	-12.4612
似蛇蠶似蠋人見蛇則驚駭見蠋則毛起	-12.4612
傭直而嫁其女於他人汝将	-12.4612
兠子數乘命闗連僧入對	-12.4612
告縣曰師出	-12.4612
家乃獲釋	-12.4612
後有所容也	-12.4612
必虚其心然	-12.4612
掃席前曰拚盥	-12.4612
見善從之聞義則服温柔孝悌	-12.4612
賕其里民使出就吏獄具	-12.4612
鄣	-12.4612
三十六弟子職第五十九雜篇十先生施	-12.4612
以左手舉匕筯因語之曰他人行	-12.4612
備至具實吐之	-12.4612
先應在後如	-12.4612
各有綱要	-12.4612
彼矜者滿也滿者	-12.4612
徑發官差人追	-12.4612
得其所故無怨望也	-12.4612
徹盥器也	-12.4612
惟濟引問面給以食而	-12.4612
惡聲往則惡響	-12.4612
惽故知之者	-12.4612
應之則善在	-12.4612
日掌賞賞	-12.4612
死不以理遂付有司案治	-12.4612
無邦將何至哉	-12.4612
知四時不知四時乃失國之基不知五	-12.4612
福善禍淫	-12.4612
積善餘慶積惡餘殃	-12.4612
符融曰二人	-12.4612
行法以率人	-12.4612
論人才行	-12.4612
踐其血亟走避之尋被追捕繫獄半年不	-12.4612
一事與此相似	-12.4612
不一況於人之	-12.4612
中使前後相受以尺	-12.4612
也令者所以令人知事也法律政令者	-12.4612
事不怠故能起身之財	-12.4612
交不失禮行此三者	-12.4612
亶	-12.4612
先生乃坐出入恭敬如見賔客危坐	-12.4612
八觀第十三法禁第十四重令第十五	-12.4612
六謂隂陽四	-12.4612
其所積疾之疾之萬物之師也	-12.4612
其長八尺以其名	-12.4612
則羿逄䝉以五寸	-12.4612
司馬子反渇而求飲	-12.4612
君德見侵	-12.4612
堕	-12.4612
多也夫富國多粟生於農故先王貴之凡	-12.4612
如此者可謂愚士	-12.4612
委曲隨於女謁若食之	-12.4612
故無敢姦能誣禄至於君者矣故相任寅	-12.4612
時之化舉若秋時	-12.4612
時其業必見簡弃	-12.4612
有功當得禄則佯辭之以	-12.4612
汎拚謂汎	-12.4612
法者所以興功懼暴也律者所以定分止	-12.4612
率循也無知則	-12.4612
王主必度	-12.4612
短續短以	-12.4612
而封臣之能以車兵進退成功立名者割	-12.4612
職故明法曰主雖不身下	-12.4612
能隱藏則	-12.4612
臣之能謀厲國定名者割	-12.4612
自矜者小	-12.4612
貨則人賈市主好宫室則工匠巧主好文	-12.4612
貴之時計其價以	-12.4612
身也公曰請問	-12.4612
送縣一問	-12.4612
長徳謂恩施廣也	-12.4612
陳留有一老人年八十餘	-12.4612
露故萬物利也	-12.4612
非本無過	-12.4612
鶴脛非所斷鳬	-12.4612
不勤則困苦以辱	-12.4612
不可復行而不可再者有國者之大禁也	-12.4612
不用其智謀與祭時	-12.4612
不舉起千人之繇十萬	-12.4612
不行親近故曰	-12.4612
不賢則動皆違理故兹適於危	-12.4612
之先後者當知其	-12.4612
之山播而入深淵其死而不振也必	-12.4612
也莊周所謂	-12.4612
事亦無曠故	-12.4612
人倡而和事	-12.4612
仇家得其迹與媪約曰期十日不得	-12.4612
他國來分明勸勉而與	-12.4612
以任苦著者也	-12.4612
作之後常案行堤有	-12.4612
作大雨各葆其所可治者趣治以徒	-12.4612
倚而邪則法亂而身危故可恐也	-12.4612
僧既不知形狀各模不同公怒	-12.4612
先人而自後	-12.4612
其下有鉒	-12.4612
其夫已死哭不哀而懼是以知	-12.4612
其種大葦無	-12.4612
冬行霜雪夏行雨	-12.4612
則材能之臣去亡矣彼智者知吾情	-12.4612
前後曰先後詩	-12.4612
化出令纔往則民移	-12.4612
千世亂而	-12.4612
取土於中秋夏取土於外濁水入之不能	-12.4612
和菭以相及也	-12.4612
唐李至逺	-12.4612
問之乃繼母也因咄	-12.4612
嗇於用財不以賞賜則立功之士	-12.4612
地下覆下	-12.4612
夫正人無求	-12.4612
好加名於人	-12.4612
孤謂死王	-12.4612
宋之水輕勁而	-12.4612
州言病風狂不語並不	-12.4612
平縣有盗掠人子女者既擒獲	-12.4612
庸臣亦能行	-12.4612
忠信可結於諸侯臣不如也	-12.4612
愚戇而好貞	-12.4612
愚臣雖有損於	-12.4612
感泣而去	-12.4612
持也蜀祠器也君人者但抱祠器以身率	-12.4612
損於令主人雖云上賢而	-12.4612
撤	-12.4612
撫人若此可以禦	-12.4612
故使臣攝之	-12.4612
於八帝之中神農所存事迹獨少則以不	-12.4612
於愚人賢士程	-12.4612
於敵矣竭盡也	-12.4612
旣未能誅且固事	-12.4612
時賢者居上	-12.4612
晉安重榮鎮	-12.4612
智謀或君有	-12.4612
智過於轅門	-12.4612
書右手從	-12.4612
有四秋而分有四時故曰農事且作請以	-12.4612
未及此論也	-12.4612
果伐魯魯不敢戰去國五十里而為之	-12.4612
止河伯娶婦事	-12.4612
正名法備則事無	-12.4612
沉故愚戇而好貞萃	-12.4612
滯故聖人無事也	-12.4612
潭州屬縣有亡命卒剽攻為鄉	-12.4612
為之其功既成莫知其釋之	-12.4612
然不言廟堂之政	-12.4612
煎	-12.4612
瓴甋也言欲	-12.4612
祭祀之時非不上賢但	-12.4612
祭者掌禮以行事所用其	-12.4612
禺猶區也十	-12.4612
秉柄也柄	-12.4612
秋起繇而無止此之謂	-12.4612
給大雨堤防可衣者衣之	-12.4612
義於人者則鬼	-12.4612
而不倦民不憚勞苦故不均之	-12.4612
而已非能有所益	-12.4612
而止之則無時成書	-12.4612
能勿求諸人而	-12.4612
自後射一箭而斃聞者莫不増快	-12.4612
舉事而不時力雖盡其功	-12.4612
若稅免若役	-12.4612
薛向樞密	-12.4612
要靡事商賈爲技藝皆以避農戰	-12.4612
覆育萬人	-12.4612
詐死伺間即逸去再捕得復	-12.4612
謂其立法但能害	-12.4612
謂色青而細	-12.4612
辟則自善	-12.4612
近火方知熱	-12.4612
這	-12.4612
適故曰無益旣	-12.4612
適理而欲則	-12.4612
鄰家子女	-12.4612
鉒	-12.4612
閭閈不設出入毋時早晏不禁則攘奪竊	-12.4612
陛下迫促府縣此賊	-12.4612
陵州仁夀縣有	-12.4612
雜故輕疾而易死也	-12.4612
面加詰責抽劒令自殺之其父	-12.4612
頓卒怠倦以辱之	-12.4612
頓士民病蓄積索田疇荒囷倉虚	-12.4612
顯學第五十	-12.4612
齊晉謂齊之西而晉之東	-12.4612
一壇是則使	-12.4612
一曰視其所愛以分其威	-12.4612
三時謂春夏秋此時木方	-12.4612
上有丹沙者	-12.4612
不水死乎雖果為仇所殺若不得	-12.4612
不生怨怒無有上下相親兵	-12.4612
不練吾兵不實諸侯故敢救吾讎内脩兵	-12.4612
不能易故聖也	-12.4612
之土若在陵在山在隫在衍其隂其陽盡	-12.4612
之威武藝	-12.4612
之慝顯矣	-12.4612
之旗各有所當若	-12.4612
之櫎若干請	-12.4612
之能為士者則足	-12.4612
之衆有所征古者諸侯大國有五百里	-12.4612
九十物每州有常而物有次羣土之長是	-12.4612
九章一曰舉日章則	-12.4612
也不人告也不户	-12.4612
也故國富兵	-12.4612
事君君好法則	-12.4612
事生此謂以刑	-12.4612
五粟五章五粟之狀淖而不肕	-12.4612
五粟五粟之物或赤或	-12.4612
亦有嗣之而報	-12.4612
亦有患太弱亦有患必	-12.4612
人君唯無聽	-12.4612
人善則吏受上賞不善則吏當罰	-12.4612
人有百年之	-12.4612
仇覽為蒲亭長	-12.4612
以先者之過	-12.4612
以敬始封之君也	-12.4612
以死人之力與客生力戰	-12.4612
使其什伍各相	-12.4612
侵者也上無	-12.4612
入共國所有	-12.4612
六馬之足	-12.4612
其下有銅金此山之見榮者也	-12.4612
其散施於人不顧	-12.4612
其水倉其民	-12.4612
其由故曰如神用也	-12.4612
其謬之甚	-12.4612
其足以進退之度四曰	-12.4612
凡國無法則衆不知所	-12.4612
刑侵則無辜	-12.4612
初見秦第一	-12.4612
利故能攻國	-12.4612
則諸侯服其政鄰敵畏其威雖不用	-12.4612
則髙位安	-12.4612
加一人而天	-12.4612
卞和之忠	-12.4612
却興兵而伐必取	-12.4612
去括乃是	-12.4612
叄	-12.4612
召集葱地左右居人呼令前一一聼之遂	-12.4612
各主異位毋使讒人亂普而	-12.4612
各權則其威	-12.4612
合于國奉者皆置而劵之以	-12.4612
君斯作矣人胥	-12.4612
君見其意臣	-12.4612
吳人也為句章令有妻殺夫因放火燒舍	-12.4612
周軍之勝華軍之勝	-12.4612
唐李汧公鎮	-12.4612
噲好賢故	-12.4612
四㑹之後徭役	-12.4612
固於心度時論用	-12.4612
國之社稷而不恤吾衆也	-12.4612
土地髙下水	-12.4612
土車什一雨	-12.4612
在人故不逺也	-12.4612
地之職自然齊一而保國也	-12.4612
堅故不可伐材其伐材必以冬也	-12.4612
天下一物不能當也	-12.4612
妾余之詐	-12.4612
始也陳從始	-12.4612
委諸從事從事疑	-12.4612
安能䝉死亡	-12.4612
密賢人之守也五紀不解庶人之守也	-12.4612
封表以示之問知是何物也	-12.4612
小能則察知其	-12.4612
屈故戰不勝	-12.4612
屈産之乘	-12.4612
左丞何承天議曰婦人	-12.4612
幸之心矣為人君者倍道	-12.4612
弗忍而與	-12.4612
後矣故曰課凶飢計師役觀臺榭量國費	-12.4612
徧知天下審御機數此兵主之事也	-12.4612
必主與大臣之德行	-12.4612
慝是故忘主	-12.4612
戰士飢則力	-12.4612
所以有國之術	-12.4612
托危於外	-12.4612
損瘠則死期將	-12.4612
故易常而巧官以諂上謂之騰亂至則虐	-12.4612
故曰去好去惡	-12.4612
敗故當有藏處	-12.4612
斗三升三	-12.4612
於身也官職法制政敎	-12.4612
既明其誣遂	-12.4612
明威之振	-12.4612
易牙以調和事公公曰	-12.4612
是故農之子常	-12.4612
晚置太子	-12.4612
智以引其外權	-12.4612
曰叔向師曠之對皆偏辭也	-12.4612
曰吾所寄幣於子者若干	-12.4612
有爪角也	-12.4612
朝有經臣國	-12.4612
李士衡觀察	-12.4612
李璡璡	-12.4612
榮華而相驕故以	-12.4612
樹喻惡也	-12.4612
欲理荒人無得苛虐但使盡	-12.4612
此火王之時故	-12.4612
殺寺奴取財去而博者四人	-12.4612
求若竇嬰	-12.4612
治止令具物之名件而去後半年縣獲强	-12.4612
浣	-12.4612
漸除其害	-12.4612
潭深也此以大	-12.4612
火氣舉君	-12.4612
為證而誑言	-12.4612
烹小鮮	-12.4612
牆閉謂築牆有所遮閉雖通路	-12.4612
王亶父為狄所攻乃去	-12.4612
王鍔匿名至逺憶姓	-12.4612
生焉故曰覆育萬人	-12.4612
生者安定之死者	-12.4612
田以時撫於主上坐長加十也女貢織帛	-12.4612
田山不被	-12.4612
當制地之時君為此言	-12.4612
當階所以拒管仲言魯齊二君	-12.4612
發姦摘伏如	-12.4612
百穫近識者莫	-12.4612
百貨出於地人得以	-12.4612
皆以得然莫知其極故曰可以安而不可	-12.4612
盗之沈於	-12.4612
盗賊發其比伍中	-12.4612
督察也謂	-12.4612
祐之以福祥也	-12.4612
管仲走君曹劌抽	-12.4612
籍其人使富貧財力相兼	-12.4612
細又恡	-12.4612
細無不入也	-12.4612
經緯日月	-12.4612
綧	-12.4612
纎細也嗇恡	-12.4612
羣臣之情態	-12.4612
羽者所以抑盛陽	-12.4612
者所以諷動之令歸齊也	-12.4612
者故曰百穫也	-12.4612
者財其粮用也	-12.4612
而征己國與敵國皆當知之故徧知千里	-12.4612
而明君者審禁	-12.4612
耽	-12.4612
能盡以喻君代臣亦然故曰	-12.4612
臣死於非罪而邪臣起於非功富貴尊顯	-12.4612
至仁感物	-12.4612
至故守不固也	-12.4612
臿	-12.4612
與囚欵同	-12.4612
舉事而材自練	-12.4612
苦之味者	-12.4612
范仲淹	-12.4612
荆魏不能獨立	-12.4612
藝文志	-12.4612
衣食足耳目榖衣食足則侵	-12.4612
親獲十餘人	-12.4612
觿	-12.4612
觿解不可解	-12.4612
調福州長溪尉縣媪二子漁於海而	-12.4612
謂什人共貯	-12.4612
謂其事業最可以益人者遂	-12.4612
謂初㑹諸侯上下得終其禮自	-12.4612
謂此地號呼之	-12.4612
謂水官與三老五長等行視其里	-12.4612
貪賞畏罰	-12.4612
赤銅上有赭者下有鐵此山之見榮者也	-12.4612
連有所統屬	-12.4612
逺用長近用短也	-12.4612
逺而難極也	-12.4612
過不能罰吏	-12.4612
道故視天	-12.4612
遠而難極也	-12.4612
金上有慈石者	-12.4612
鈆	-12.4612
錯法而民無邪	-12.4612
鎮江南有舟人傭載	-12.4612
長兵短兵各有所利	-12.4612
霸者或不能廣積粟故	-12.4612
非私天下之利也	-12.4612
韓滉在潤州	-12.4612
食知其家數	-12.4612
高獨謂媪色有寃不可不為理也乃隂察	-12.4612
鵲章則行陸八曰舉狼章則行山九曰舉	-12.4612
君雖彊本趣耕	-12.4612
諾行之管仲	-12.4613
以羽獸之火爨	-12.4613
三千里之外諸侯丗一至	-12.4613
發善必審於密執威必明於中	-12.4613
訟二十年不得直沆至又訴尹氏出積	-12.4613
殺正商賈之利而益農夫之事	-12.4614
喜也者怒也者	-12.4614
人君雖欲自	-12.4614
刑罰一差人無所	-12.4614
措手足故曰縣命	-12.4614
故君子繩繩乎	-12.4614
死人斷手足立於寺門	-12.4614
知河中府	-12.4614
立而重珠玉	-12.4614
者察于事故不官	-12.4614
銀二鋌質錢十萬	-12.4614
下地方百二十里	-12.4614
今空以言	-12.4614
則至絞已言生而應	-12.4614
國一千室之都四	-12.4614
妖妄之言	-12.4614
婦人能食其意	-12.4614
成而乃逺古卑人	-12.4614
於象而欲論材審用猶絶長以	-12.4614
是不違私道也	-12.4614
曰不違公道	-12.4614
物而旁通	-12.4614
臣之所以為公者乃是私也名	-12.4614
行公道而託其私焉寖	-12.4614
貞正也謂正心	-12.4614
賞其所善則	-12.4614
髙士必順	-12.4614
丞相劉沆知衡州日有大姓尹氏欲買	-12.4614
乃因是夕罷歸騎及門而墜死隣證	-12.4614
也凡國有三制有制人者有	-12.4614
也凡牧民者欲民之	-12.4614
也有如此者皆以法度加之不	-12.4614
亡媪指某氏為仇告縣捕賊吏	-12.4614
人則宗廟滅	-12.4614
人有敦敬則慶	-12.4614
以臣主有得	-12.4614
使固桓公曰然則何以守時管子對曰夫	-12.4614
侵之論則下無	-12.4614
先定卿大夫之家然	-12.4614
内固之一可	-12.4614
則士無戰志	-12.4614
劉相隣證韓參乳醫	-12.4614
化邪歸於正直	-12.4614
即勝能自有其	-12.4614
可取為證尹不能對遂伏罪	-12.4614
國兼正天下	-12.4614
多所黜易吏	-12.4614
官吏國豪有急難可令	-12.4614
官爭理職則國治	-12.4614
察而知之置之於身勿令下	-12.4614
引乳醫為證一	-12.4614
必合於時義	-12.4614
怨疾必生	-12.4614
息止也左手	-12.4614
懈怠敵人來侵其費更多嗇恡	-12.4614
戒紂之失	-12.4614
戰不勝弱也地四削入諸侯	-12.4614
攝郡究其風俗考其枉直	-12.4614
故君名聞於天下	-12.4614
故春事二十五日之内耳也	-12.4614
明王雖勝攻於三器亦	-12.4614
曰若田百頃户鈔豈特收此乎始為劵時	-12.4614
曲可直可言可黙此言指意要	-12.4614
有天下其所運用則不	-12.4614
有百倍之利矣	-12.4614
權者所以知輕重也君人者必知	-12.4614
殺有過終不免赦	-12.4614
濟濟多士殷民化之紂之	-12.4614
知然後可以行放	-12.4614
礙而欺誑也	-12.4614
社稷之無危不可得也上恃龜筮好用巫	-12.4614
絞來皆有因而	-12.4614
與蒲以為笠	-12.4614
薄稅斂輕刑罰此	-12.4614
蚤起父子兄弟不忘其功	-12.4614
行此三者為上舉得二者	-12.4614
衡有數乎管子對曰衡無數也衡者使物	-12.4614
謂立君以主之	-12.4614
賦與人秋則	-12.4614
躁之人妄有所變也	-12.4614
農人之子朴質	-12.4614
道正之士從此亡之敵國	-12.4614
重之相因時之化舉無不	-12.4614
類善也閉其	-12.4614
馬管子對曰國無儲在令桓公	-12.4614
鬱濁謂穢塞不潔清者也困滯謂	-12.4614
三帝之時天下	-12.4614
下皆服其法度也	-12.4614
不動則望有	-12.4614
不行故辱也	-12.4614
且死所以國敗	-12.4614
个	-12.4614
也正數之户既避其籍則	-12.4614
五戰而至於兵	-12.4614
交外人雖企慕於仁而所謀	-12.4614
亮笑曰若䑕屎先	-12.4614
人有不生而致死者也	-12.4614
人能興利	-12.4614
令此諸賢各處諸侯之國	-12.4614
以泄其恨隂	-12.4614
使關市幾而不	-12.4614
兩者不衡立故	-12.4614
兵也此之謂三官有三令而兵法治也五	-12.4614
兵士不用民偷處而不事積聚則囷倉空	-12.4614
其徳如此則九	-12.4614
其版籍所以俟亂	-12.4614
其逺國大夫則	-12.4614
冬不就温更以寒暑致災終無益	-12.4614
凡謂都數也	-12.4614
出又易之禮義	-12.4614
刑僇矣何功澤之加哉	-12.4614
刑譴何榮之可得	-12.4614
制又遷之刑法	-12.4614
則無殘盡於	-12.4614
則足矣然而民有	-12.4614
則過慮不得不知不得不知則	-12.4614
十倍山田以君寄幣振其不贍未淫	-12.4614
喻賢者不避亂	-12.4614
器則國治不肖之君不能勝六攻而立三	-12.4614
四稱第三十三	-12.4614
因耨田得馬蹄金一瓮	-12.4614
地利所在管子對曰山上有赭者其下有	-12.4614
壤自塞而行者江河之謂也	-12.4614
壥	-12.4614
夀夭貧富無徒歸也	-12.4614
夏尚赤之類	-12.4614
大賈蓄家之所役屬増其利耳	-12.4614
崢丘地名未	-12.4614
嶮	-12.4614
帝者之臣其實師也故	-12.4614
常謂五常也備	-12.4614
幣事諸侯諸侯不敢犯也主之所以	-12.4614
廢之則冦來無以禦	-12.4614
得於國也諸侯之謀慮得於外也然	-12.4614
心之君處常能順	-12.4614
忌怨也諸侯欲以結盟致怨於	-12.4614
忿速濟斷沒法也	-12.4614
怒者所以止此	-12.4614
怨而無言言不可不	-12.4614
恥不可得也凡牧民者欲民之	-12.4614
懐他計反	-12.4614
成故國昌	-12.4614
所委積之物	-12.4614
改先者之所圖今不當有進	-12.4614
故夫人被外太	-12.4614
故微子不與於紂之難而封於宋以	-12.4614
故禁不止也	-12.4614
故萬人一軍五	-12.4614
斬豈合相縁既所縁之人亡則所因之罪	-12.4614
於天下然則吾民常	-12.4614
於海使有弊	-12.4614
時非所言必致刑僇	-12.4614
有聞道而好爲郷者一郷之人也	-12.4614
桓公使管仲求	-12.4614
桓公許諾以汶為	-12.4614
櫎市准曰上無幣有	-12.4614
次武各驅憲之俱解	-12.4614
欲民之有恥	-12.4614
欲神則入而	-12.4614
止徒坐頻會赦恩今	-12.4614
此厲民之道也民之	-12.4614
此居於圖北方方外必得文威武官習勝	-12.4614
此至九舉說九合諸侯之所致	-12.4614
此轉更偷生也	-12.4614
歸而脩於政不脩於兵革自圉辟人以過	-12.4614
殤	-12.4614
毒怨恨續赴其行毒之法	-12.4614
泄謀災必至故曰災極至	-12.4614
為其贍不憂國也	-12.4614
王臣故曰制在一人	-12.4614
用私財供	-12.4614
田發草上得其數矣民人所食人有若干	-12.4614
甲兵則大國亦	-12.4614
當兩階之	-12.4614
百步之外	-12.4614
皆服不須用兵	-12.4614
相兼者諸侯十二故天下之君頓㦸	-12.4614
相語以事相示以	-12.4614
祏故伏尸滿衍兵決而無止輕重之家復	-12.4614
積漸積微使主迷惑而不自知也上則相	-12.4614
竅所司各	-12.4614
竪刁堂巫公子開方	-12.4614
練習士卒則可以勝	-12.4614
群䡄相壤冝	-12.4614
羽北方聲也火王之時不	-12.4614
者操轡也故曰造父之術非馭也奚仲之	-12.4614
而不悟民乃自	-12.4614
能勝六攻而立三	-12.4614
自犯其過也	-12.4614
苓	-12.4614
蕘之言賢聖	-12.4614
蜜瓶入亮	-12.4614
行又止之度量	-12.4614
行師十萬	-12.4614
諸侯稱仁焉	-12.4614
資用也率土之	-12.4614
賞之臣欲有所罰主	-12.4614
賤且寡好為迂大凡	-12.4614
車器也方圜曲直皆中	-12.4614
輕而萬物重	-12.4614
韟	-12.4614
風雲以舉翼也	-12.4614
食則道情	-12.4614
飲於赤后之井	-12.4614
館每來於此以安之也	-12.4614
黃金爲中幣	-12.4614
􁃅	-12.4614
王質待制知	-12.4614
信賞審罰爵材禄能則強	-12.4615
明法審數立常備能則治	-12.4615
生處死謹賢修伍則衆	-12.4615
置大夫以爲廷安	-12.4615
鉞	-12.4615
不忍水旱其種大菽細菽多白實蓄	-12.4615
五殖五殖之狀甚澤以䟽離	-12.4615
攻得而知時是故先王之伐也必先戰而	-12.4615
衆然後攻餘	-12.4615
量吾衆寡可敵彼	-12.4615
黒實朱跗	-12.4615
謂以蠻夷	-12.4615
骨之骼也	-12.4615
彼衆存則我不	-12.4615
於大帥故相之宇下	-12.4615
樹下得屍	-12.4615
此謂五害五害之屬水最	-12.4615
胡童自陳有卒剽刼其衣服於黄堂之側	-12.4615
之材當收聚之	-12.4615
五素不得一紫	-12.4615
夙興夜寐衣帶必	-12.4615
居人故危殆也	-12.4615
怒以付吏将黥配之仲	-12.4615
明山之曾青一筴也	-12.4615
易吏案治其誣乃辨	-12.4615
是謂學則少者之事夜寐	-12.4615
朝益暮習小心翼翼一此不	-12.4615
朱夀昌中散知閬州	-12.4615
沱	-12.4615
法不勤飾於官	-12.4615
行必正直游居有常必就有	-12.4615
謂小童衣服尠薄而剽	-12.4615
髪繞炙而	-12.4615
一女不賢翁病困思	-12.4615
之士察於天地知	-12.4615
其所以買名者用非道	-12.4615
則遵禮經	-12.4615
四謂喜怒惡欲	-12.4615
地方百二十里通於中地方百里右地里	-12.4615
天下之敗也而賢者	-12.4615
如此則國平而	-12.4615
字文通為	-12.4615
尉有僧積施財甚厚其徒殺而瘞之	-12.4615
故云不主一物功用無方旁通	-12.4615
文王資費仲而	-12.4615
方謂法術言法術通	-12.4615
明主在上位有必治之勢則羣臣不敢	-12.4615
有法者以法行無法者以類舉	-12.4615
矣獻卿揣其有姦	-12.4615
穽	-12.4615
聚立謂天下	-12.4615
自言能治田土不能治田土者殺其身以	-12.4615
處令一腹心人	-12.4615
財兒必不全	-12.4615
郡中盗賊閭里輕	-12.4615
錢惟濟留後知綘州民有條桑者	-12.4615
下重上輕正用左手傷右臂也誣者引	-12.4615
不坐毆殺之罪而坐毆傷之罪法無	-12.4615
九竅流血	-12.4615
内則本務外則	-12.4615
則上重下輕今	-12.4615
命再劾之乃因客散	-12.4615
喜也君自行之殺戮	-12.4615
失常者亂天未	-12.4615
家事父母之則也正	-12.4615
必公誠於國以	-12.4615
必當反白	-12.4615
所在及吏受取請求銖兩之姦皆知之	-12.4615
普天之下莫非王土率土之濵莫非王臣	-12.4615
曰居寺者樂於知事	-12.4615
有某客船	-12.4615
棗	-12.4615
正色謂後至者曰汝	-12.4615
死節臣下之則也盡力	-12.4615
滿虚在物在物	-12.4615
生養萬物地之則也治安百姓主之則也	-12.4615
知能順地之利則	-12.4615
者有比周内爭之亂此其所以然者由主	-12.4615
與失人同也	-12.4615
谷不徙而水不絶也	-12.4615
賜太平公主鈿	-12.4615
雍州别駕有	-12.4615
㓜官第八㓜官圖第九五輔第十	-12.4615
一親來所以合親	-12.4615
上謂水從來處髙之者欲注下取勢也	-12.4615
之者何也從主之所欲也而	-12.4615
二則力不齊故内衰也	-12.4615
令模前後交付	-12.4615
其母曰以酖殺人上天何祐母	-12.4615
取故鄙人不虚與故也	-12.4615
可留停故動化其故以就其	-12.4615
君明相賢必從説	-12.4615
多也桓公曰善勿	-12.4615
夫至用民者殺之危之勞之	-12.4615
寒之至于身也是故夜	-12.4615
工靡夫楚王好小腰而美人省食吳王好	-12.4615
強國爲圈弱國爲屬	-12.4615
循理其智雖	-12.4615
循理而自求也	-12.4615
思安被害之苦	-12.4615
怸以菭	-12.4615
慶忌者其狀若人其長四寸衣黄衣冠	-12.4615
憾妄以斧	-12.4615
敵謀我所以外難	-12.4615
新然亦循故之四時周	-12.4615
春多風而旱	-12.4615
時事而輕地利輕地利而求田野之辟倉	-12.4615
時君之衡藉而無止民食十	-12.4615
期年上計	-12.4615
欲乗此擠	-12.4615
濶	-12.4615
焫	-12.4615
爲置法官	-12.4615
畔	-12.4615
相也陳功而加之以德論勞而昭之以法	-12.4615
矯妄幻惑	-12.4615
禺故曰十禺若	-12.4615
竭故復貧也	-12.4615
竿之本其	-12.4615
而守法為之可也	-12.4615
若不生得是君與寡君	-12.4615
言人皆有道但	-12.4615
言於三土十分	-12.4615
謂一親往死一親來生	-12.4615
賢者勸而暴人止	-12.4615
賢者勸而暴人止則功名立其後矣蹈白	-12.4615
輕死死與不食者天下之所共惡也然而	-12.4615
近代有人因行商回見	-12.4615
追速致逺	-12.4615
部郎中宿州有民剚刃其妻而妻族受賂	-12.4615
酒而進之子反曰	-12.4615
集州縣官吏索	-12.4615
馬亮馬亮尚書知	-12.4615
一人從幽州來驢䭾鹿脯至滄州界	-12.4615
一樹一穫者	-12.4615
三十之籍吾子食二石月有二十之籍	-12.4615
三十頭牛	-12.4615
三老里有司伍長案行之常以朔日始出	-12.4615
上五者皆生財之術故	-12.4615
上見功而賤則	-12.4615
下獨王貧賤	-12.4615
下盡力於農矣故曰君明相信五官肅士	-12.4615
不報降監舒州靈	-12.4615
不意彼不能測知	-12.4615
不汙手足其種大重細重白莖白秀無不	-12.4615
不盛義不尊而好加名	-12.4615
不絶故曰大賢之	-12.4615
不義富貴志士所以	-12.4615
不能勝攻三器自毁	-12.4615
不能守其物亡必不返於連比之	-12.4615
並處而難得	-12.4615
中正中正然	-12.4615
主之無使讒人交	-12.4615
乃是殺一妳子函首葬之以屍易此良家	-12.4615
之奈何管子對曰作内政而寓軍令焉為	-12.4615
之散金財用	-12.4615
九竅則各有職司不能以此	-12.4615
也如是則不肖者在上位矣然則賢者不	-12.4615
也言欲轉化	-12.4615
也謹嚴也言	-12.4615
争事而外市	-12.4615
事鄰敵不免於死亡之患故曰主功有素	-12.4615
人中鈎殆於死今乃用之可乎鮑叔曰彼	-12.4615
人之動必闇知	-12.4615
人人之敗也常自此是故聖人著之簡筴	-12.4615
人各懷二心心	-12.4615
人君不用下令	-12.4615
人君之言當仁以化	-12.4615
付終謂財	-12.4615
以偷盗治偷盗	-12.4615
以寛裕其政	-12.4615
以毛獸之火㸑	-12.4615
以決塞奪之以輕重行之以仁義故與天	-12.4615
以示之明刑罰以致之故曰頓卒	-12.4615
以號召收求天下之賢士飾玩好使出周	-12.4615
任鳥馬之飛走而	-12.4615
住在北州	-12.4615
何所對曰在某	-12.4615
使收門士衆	-12.4615
使海於有弊	-12.4615
倦以辱之	-12.4615
僕十數人	-12.4615
億視舊牘	-12.4615
充國今乃	-12.4615
先奏至樂	-12.4615
兕虎有域	-12.4615
八十六篇	-12.4615
其下小其上隨水而行地有不生草者必	-12.4615
其名籍於國都也	-12.4615
其君動也君若宥而反之其	-12.4615
其枯旱故葆	-12.4615
其積薪也以事之	-12.4615
其端操不息修業亦不	-12.4615
其行法度者但往行而進不却來	-12.4615
内富而外飾於貧窮内逸而	-12.4615
再重而告之	-12.4615
凡民者莫不惡罰而畏罪是以人君嚴	-12.4615
凶而民飢也辟之以號令引之以徐疾施	-12.4615
出崔家妾	-12.4615
分官以守之	-12.4615
則傷心矣傷	-12.4615
則多賢是以聖王敬畏戚農	-12.4615
力欲兼他	-12.4615
加其嚴酷也	-12.4615
務學詩書隨	-12.4615
務時因勝之	-12.4615
勝之心可以焚灼於海内	-12.4615
勝者法立令行之謂勝法立令行故羣臣	-12.4615
匽	-12.4615
十人之聚日五	-12.4615
卒連長率之十連	-12.4615
危危窮窮皆	-12.4615
原死豈法意乎數上	-12.4615
反也其物莫	-12.4615
取其貲非自首而捕得	-12.4615
取財者比請之得减死	-12.4615
可御也欲民之可御則法不可不審法者	-12.4615
吏民少解輙披籍	-12.4615
和協輯睦以備	-12.4615
唐裴均鎮襄陽日里俗妻有外情乃託	-12.4615
喜剗其稅歸之名於公上踰二十年且偽	-12.4615
因責其能以隨之猶傶則踈之	-12.4615
因道而知則	-12.4615
固之則長久	-12.4615
國及譯傳言語相	-12.4615
國多力而天下莫	-12.4615
國弱諫臣死而諛臣尊私情行而公法毁	-12.4615
國欲無危得已乎	-12.4615
塞忠臣之欲謀	-12.4615
壅遏之患亂主則不然法令不得至於民	-12.4615
壅遏之道也故明法曰令出而留謂之壅	-12.4615
壊范且	-12.4615
士乃自厲	-12.4615
壯者預定之以	-12.4615
大雖復行仁不遇	-12.4615
失相輔可	-12.4615
失謀而敗國之危也	-12.4615
失謂是而非	-12.4615
好自勉以聚	-12.4615
如葦大長以美其細者如雚如蒸欲有與	-12.4615
始取夫三大夫之家方六里而一	-12.4615
子反以為大戮故	-12.4615
定計財勝	-12.4615
客刺我請以聞臺中驚擾思兢	-12.4615
客至天津橋	-12.4615
宣妻曰須絹三百疋	-12.4615
專聽重臣如此故羣臣皆務其黨重臣而	-12.4615
居城諸嫗	-12.4615
岐杖䇿而	-12.4615
工技力於	-12.4615
市無偷盗	-12.4615
市鹿脯不限其價其主見識之推獲	-12.4615
希崇並付齊賢兩易	-12.4615
師克在和也	-12.4615
常道格之其	-12.4615
幸其名利也	-12.4615
廢舎則百	-12.4615
引汝同謀何路自	-12.4615
弱之中自致於無患也	-12.4615
徒負勿入	-12.4615
得時故曰費力也	-12.4615
微服伺於臺側	-12.4615
德幾於不報	-12.4615
心在中而正則無過	-12.4615
必是門士以燎寒耳	-12.4615
必足欲贍	-12.4615
怨怒但可藏之在心	-12.4615
怨起而不復反衆勞而不得息則必有崩	-12.4615
患第二十八	-12.4615
惟無為可以規之	-12.4615
應也者非吾所設故能無	-12.4615
戍名也假設	-12.4615
戎凡此七者義之體也夫民必知義然	-12.4615
所賦之命也	-12.4615
按周禮荒政	-12.4615
捕至庭下	-12.4615
推官有偽造印者吏	-12.4615
推譲每輒	-12.4615
撙	-12.4615
撙節也言自	-12.4615
攻者出十亡百	-12.4615
政寓之田獵故曰政有所寓	-12.4615
故以耕則多粟以	-12.4615
故明法曰所死者非罪所起者非功然則	-12.4615
故肆直也	-12.4615
敎萬民郷風	-12.4615
敗亡立至	-12.4615
敵也謂卿大夫	-12.4615
斷近習不敢賣重	-12.4615
於主則威民信其法則親是故明王審法	-12.4615
於人但嚴守利	-12.4615
曋	-12.4615
曰凡一年之中十二月作土功有時則	-12.4615
曰吾欲殺正商賈之利而益農夫之事	-12.4615
更有何事以	-12.4615
有罪者吏必能	-12.4615
有迹可求而	-12.4615
有道乎管子對曰請以令	-12.4615
有道者則湯武也所以不平稱	-12.4615
朋黨亦所謂姦人之雄也	-12.4615
期頤實	-12.4615
未解尚十二三用上下文義及叅以經史	-12.4615
李牧之為也	-12.4615
果木過十年漸就	-12.4615
枯悴故曰十穫也	-12.4615
柘	-12.4615
桀為天子能	-12.4615
桐柞莫不秀長其榆其	-12.4615
樂聚之力以兼人之	-12.4615
樞主運轉者	-12.4615
樞機之發榮辱	-12.4615
樹人謂濟	-12.4615
權伏之所以固供者之意	-12.4615
權者所以知輕重	-12.4615
欲有所矜免也	-12.4615
此王者之大轡也桓公問管子曰請問幣	-12.4615
此謂備之常時禍何從來所以然者獨水	-12.4615
殷主先祖不滅後	-12.4615
殷得巨橋粟欲使糴貴	-12.4615
殺僇必信民畏而懼武威既	-12.4615
殺其徒而自首者當原今殺人	-12.4615
毆死獄久不決	-12.4615
比擬奏請	-12.4615
民不偷營	-12.4615
民以此爲教	-12.4615
民偷處而不事積聚	-12.4615
決決之故理	-12.4615
泔	-12.4615
法地以為政故	-12.4615
深故死之也	-12.4615
清河太守時	-12.4615
為武陽令	-12.4615
為隰州軍事推官	-12.4615
然後湯武之師起也	-12.4615
熰	-12.4615
熺	-12.4615
熺星之明或	-12.4615
牛羊其泉白	-12.4615
猛以濟寛	-12.4615
猛毅者伐懦弱者	-12.4615
猶立朝夕於運均之上	-12.4615
獄者所以止罪邪止罪邪	-12.4615
獵犬肉食之	-12.4615
率之三軍故有中軍之	-12.4615
由是火㡬息	-12.4615
當推以為先今反	-12.4615
當明道路之令	-12.4615
疑者表而發之其所未解者置之不敢以	-12.4615
疥	-12.4615
痟	-12.4615
痟首疾也	-12.4615
百姓曰仁君也不可	-12.4615
皆備之則何須	-12.4615
相距六千里大人謂天子三公四輔也	-12.4615
矣其可乎管仲對曰未可君若欲正卒伍	-12.4615
知兵權則失輕重之節	-12.4615
知見也人且	-12.4615
立法術設度數	-12.4615
第八十五輕重庚第八十六	-12.4615
節而卑屈也	-12.4615
篇凡中外書五	-12.4615
簡公謂子産曰	-12.4615
索虚車益	-12.4615
終於兩浙轉運使	-12.4615
終無方勝之	-12.4615
緩其獄後數日果得殺人者	-12.4615
縣縣令江某郎中取	-12.4615
繆讀曰謬假此	-12.4615
繆過以惛則憂憂則所以伎苛	-12.4615
繡文刻	-12.4615
纎嗇省用以備	-12.4615
罪過而聽重臣之所言故臣有所欲賞主	-12.4615
義有七體七體者何曰孝悌慈	-12.4615
考訊引伏奎獨疑之	-12.4615
者其國必削善爲國	-12.4615
者至危不知禍	-12.4615
而州里不稱吏進此人君承用之其	-12.4615
聖王敬畏農而戚近之	-12.4615
肖者意多敗也	-12.4615
脂澤粉黛	-12.4615
脩之此莫能	-12.4615
臨其位危亡可	-12.4615
自君以下其位	-12.4615
自書所訴不能書者吏受之	-12.4615
自東萊通魚	-12.4615
至尚有慢易之辭	-12.4615
至重者不來此謂以刑去刑	-12.4615
與之重官則	-12.4615
舉故萬物得度也	-12.4615
良人率之五	-12.4615
若犯令者罪死不赦然則與折取之逺矣	-12.4615
若花落之	-12.4615
莊莊矜直	-12.4615
藏百鍾富商蓄賈藏五十鍾内可以	-12.4615
蛆螣蚼蠋	-12.4615
蜂蠆有毒故必計其所窮知	-12.4615
行此四言也	-12.4615
術以陳其事也	-12.4615
衝水可据者据之終	-12.4615
裁斷為器	-12.4615
覜	-12.4615
言欲候氣	-12.4615
言解人之邪	-12.4615
計不然殺汝必矣	-12.4615
計急必取而逃	-12.4615
計謀財用先	-12.4615
詆	-12.4615
謀乃保國問所以	-12.4615
謂不然攄曰宫掖禁嚴非外人	-12.4615
豪傑不安其位則良臣出積勞之人不	-12.4615
豪傑不安其位而積勞之人不	-12.4615
貧兵弱戰則不勝守則不固雖出名器重	-12.4615
賞罰之紀要也	-12.4615
賢者意多成不	-12.4615
賢者能進不	-12.4615
赦後不造法皆不死遂以疑讞之卒免死	-12.4615
身内情外其	-12.4615
軍之親自營也	-12.4615
轢	-12.4615
辭伏者自以為不寃	-12.4615
農人之子有秀異之材可為士者即所謂	-12.4615
農人佚樂而粟得十全	-12.4615
迹其由緒	-12.4615
進而却行故危	-12.4615
道之臣無道之臣以戒桓公	-12.4615
道常在而不離	-12.4615
適可以知内自	-12.4615
都以臨下視有餘不足之處輒下水	-12.4615
酲	-12.4615
酲酒病也	-12.4615
重泉之戍	-12.4615
重賦斂多兊道以	-12.4615
錄事㕘軍	-12.4615
防可治者章而上之都都以春少事作之	-12.4615
陷崔宣	-12.4615
隧	-12.4615
雇	-12.4615
雍狐之㦸芮戈是	-12.4615
雖復退身終不	-12.4615
雖有髙下之殊	-12.4615
雪宫門夜失行馬	-12.4615
非上反違法制以結連	-12.4615
非此塗理絶言象縁坐	-12.4615
顧之意故謀泄	-12.4615
食生梅使黄門以銀	-12.4615
養長老慈	-12.4615
騷	-12.4615
髙則髙天下下則下天髙我下則財利	-12.4615
魏公琦之兄也	-12.4615
魯請從服	-12.4615
黨者處後夫朋黨者處前賢不肖不分則	-12.4615
不令得立者	-12.4617
來未有不以輕重	-12.4617
毁天尊佛像可以比也兄甚竒之	-12.4617
而能成其王者也公曰何謂管子對曰虙	-12.4617
親所訟者疑其法未能决	-12.4617
之至機也謂之國機輕重之法曰自言能	-12.4617
得二為次	-12.4617
衆如此者欲脅君也	-12.4617
一其民人之心	-12.4617
不立而國無常法也主	-12.4617
傷事而妨	-12.4617
八觀第十三	-12.4617
其傷於本事而妨於	-12.4617
官爵十年而亡倍人倫而禽獸行十年而	-12.4617
必勝殘息誅然	-12.4617
愛主也以畏主之	-12.4617
日而陽凍釋七十日而隂凍釋隂凍釋而	-12.4617
明君公國一民以	-12.4617
而後彼官亦	-12.4617
若桓靈之	-12.4617
非愛主也以畏主之威勢也百姓之	-12.4617
一以供官也	-12.4617
七舉而外内	-12.4617
也夫欲定末者必先	-12.4617
也春出原農事之不本者謂之	-12.4617
也立朝夕所以正東西	-12.4617
事之輕重然後國可	-12.4617
令死其本事也	-12.4617
以害他國也	-12.4617
以輕重御天下之道也謂之數應桓公問	-12.4617
六舉而絜知事變	-12.4617
别苗莠列	-12.4617
厲而勝任	-12.4617
固始行於天下矣此其後楚人攻宋鄭燒	-12.4617
天施地化日夜不	-12.4617
天變化日新之理故	-12.4617
夫用人者當以	-12.4617
居其所樂則	-12.4617
得利衆自	-12.4617
息故能生成不已	-12.4617
悲憤呌呼似若可信者	-12.4617
所謂隂陽不測	-12.4617
故曰懦弱之君不免於内亂明君不	-12.4617
敦土而不遷	-12.4617
於殺法所不許也又當原其情理豈可一	-12.4617
欲取人必先審	-12.4617
欲成事必先立其凖的事不	-12.4617
民亦務本而去	-12.4617
求百姓之安難兵士之死節不可得也朝	-12.4617
法令以愛人	-12.4617
無伍失民	-12.4617
登降揖讓貴賤有等親	-12.4617
知茍適可	-12.4617
科斷盡心君子亦	-12.4617
縱其淫辟	-12.4617
義以尊於道者	-12.4617
至也是藏一分以致諸侯之一分	-12.4617
至其成也由由乎	-12.4617
苧	-12.4617
蔽美揚惡則内亂自是起	-12.4617
藏輕國常有十國之筴也故諸侯服而無	-12.4617
請問國㑹管子對曰君失大夫	-12.4617
謂苗轉長	-12.4617
證逮數百人獄連年不决詔取付御史臺	-12.4617
遬宻也謂苗之	-12.4617
重之相因若春時	-12.4617
韓琚司封	-12.4617
一方暗莫	-12.4617
七桓公問於管子曰寡人幼弱惛愚不通	-12.4617
三堯在臧於縣返於連比若是者必從是	-12.4617
不得則危故命之曰	-12.4617
不敢欺亂主則不然聽無術數斷事不以	-12.4617
不貧戰而必勝勝而不死得地而國不敗	-12.4617
不賦於民財用足也魯梁之君聞之則	-12.4617
不顯習其兵事故曰事有所	-12.4617
中得故簡而	-12.4617
中方本圖	-12.4617
主令不得行而下情不上通人臣之力能	-12.4617
乃都秤碎者	-12.4617
之主故可畏也	-12.4617
之其心異此	-12.4617
之吏失其治故明法曰官之失其治	-12.4617
之立國城必依山	-12.4617
之謀可為動者為之動伐譚萊而不有也	-12.4617
之防夾水四道禾稼不傷	-12.4617
也攟收拾也	-12.4617
也毋邇其求言上之敗常貪於金	-12.4617
也離情謂離心也	-12.4617
事失其本業	-12.4617
二十七人而奉一	-12.4617
亦可行求於今然利散	-12.4617
人共殺其夫也	-12.4617
人君唯毋聽兼愛之	-12.4617
人怨其來久所以	-12.4617
人能知吉凶之先見故	-12.4617
仁者善用智者善用非其人則	-12.4617
代彼若百官之有其分也	-12.4617
以待君之令相室之任也繕器械選練士	-12.4617
以文錦虎豹皮報諸侯之使垂櫜而入攟	-12.4617
以正户籍謂之	-12.4617
以為綱紀而有牢固	-12.4617
以禦危害如	-12.4617
以義愛非天屬黄之所恨意不在呉原死	-12.4617
侯伯面各三千里	-12.4617
信賞審罰爵材禄䏻則	-12.4617
倉在今廣平郡曲周縣也	-12.4617
僻易義則以	-12.4617
兄弟相戚骨肉相親國無飢民此之謂	-12.4617
公曰爾婦執爵毒因婦起豈可誣	-12.4617
其削亡也則以臣主有失故也	-12.4617
其失度者則	-12.4617
其所成成必知其所用用必知其所利害	-12.4617
其涂逺而至難故先王各用於其重珠玉	-12.4617
凡為節度當合於	-12.4617
分民則猶百姓也於	-12.4617
則傷人不用則怨故曰取人以已成事以	-12.4617
則可以定威	-12.4617
則君人者勢傷而威日衰矣故	-12.4617
則君已藉九矣有衡求幣焉此	-12.4617
則四氣和可知故生物從之	-12.4617
則射御勇力之士	-12.4617
則爵服不可不貴也爵服加	-12.4617
功議曰律謀反者斬身亡即無斬法若情	-12.4617
動則失位	-12.4617
千滕魯之粟四流而歸我若下深谷者非	-12.4617
厚順不逆時氣	-12.4617
反於禽獸然則禮義	-12.4617
取與不擇而	-12.4617
司然則令不行禁不止故曰私議自貴之	-12.4617
君亦猶是也公曰然則	-12.4617
君今請不盟從此即退可也	-12.4617
君唯毋聽觀樂玩好則敗凡觀樂者宫室	-12.4617
君子儼然不動	-12.4617
君服黃色味甘味聽宫聲	-12.4617
君而通妹是謂惡親不畏	-12.4617
問於仁良其	-12.4617
善令人知分	-12.4617
嚴其誅罪	-12.4617
嚴酷臣益偷	-12.4617
四子旣逐而有四	-12.4617
因知此婦與	-12.4617
困獸猶鬬其所終	-12.4617
國政微為則	-12.4617
土功之事土乃益剛令甲士作堤大水之	-12.4617
地而予之非吾所欲也不予而與戰必不	-12.4617
大征謂以天下之衆有	-12.4617
天下也小匡第二十内言三	-12.4617
天子加命立	-12.4617
夫動衆當令主	-12.4617
夫靜與作時以	-12.4617
姦偽易禄也	-12.4617
宋文帝時剡縣人黄	-12.4617
官圖第九	-12.4617
定生處死謹賢脩伍則衆	-12.4617
定聞知勝	-12.4617
寗戚寗戚應	-12.4617
将用民䏻者	-12.4617
小女奴逃亡不知所之奴父母訟於州命	-12.4617
尚有不供者則加之	-12.4617
工人有逆順事有稱量人心逆則人不用	-12.4617
常生自列於上	-12.4617
年成都三年五倍其初言大王雖有衆	-12.4617
并兼攘奪	-12.4617
幾於息故不可不正也	-12.4617
弟不田農但弋獵	-12.4617
張鷟搜鞍濟羙鈎篋	-12.4617
往行不來而民	-12.4617
後行若耳目	-12.4617
得保其首領父母妻子完安於内故民未	-12.4617
從事凾首乖崖察額	-12.4617
恃但自恃其	-12.4617
恥不立人君無以自守也	-12.4617
息所以安然而無憂也	-12.4617
我以無能其敗必覆軍殺將故曰兼愛之	-12.4617
或祭星以祈風	-12.4617
或遇水灾	-12.4617
所以興禮義今犯罪者非以乖	-12.4617
故但存其一怨	-12.4617
故功之不立名之不章	-12.4617
故天子籍於幣諸侯籍於食中	-12.4617
故百姓隨而聚之供其所須而利之	-12.4617
故衆理相當上下相親巧者奚仲之所以	-12.4617
故退身不舎端	-12.4617
方至可以出	-12.4617
於國也諸侯之謀慮	-12.4617
明主者兼聽獨斷多其門	-12.4617
是者先雖聚	-12.4617
有名有實必	-12.4617
有祭明星者	-12.4617
有賊而又不知則不臣不子也	-12.4617
朋黨者處前	-12.4617
朝服濟河故不稱甲兵文	-12.4617
桓公許諾魯人請盟曰魯小國也固不帶	-12.4617
權節其用論比計制	-12.4617
正數之人若丁壯	-12.4617
此三者遇之而不	-12.4617
此戍名欲人	-12.4617
民察必放之	-12.4617
民能致粟又秀材生焉	-12.4617
法而趨有勢如此則慤愿之人失其職而	-12.4617
渠彌於有陼	-12.4617
滿量依樂致度者所以晦其	-12.4617
為主反其侵地	-12.4617
為天下致利除害也	-12.4617
無能之士上通邪枉之臣專國主明蔽而	-12.4617
熰熱甚也	-12.4617
獄囚謁告	-12.4617
王質母原馬亮悉貸	-12.4617
珠起於赤野之末光	-12.4617
用財嗇則	-12.4617
申主任勢守數以	-12.4617
申布秋利	-12.4617
異國之人是為	-12.4617
異方所用各有不	-12.4617
當致死所謂在三如一今賊	-12.4617
白之子當千金凡貢制中二齊之	-12.4617
皆應死富民不勝	-12.4617
皆竭能盡力以治其事亂主則不然故	-12.4617
眀法審數立常備䏻則治	-12.4617
私議自貴則民退靜隱伏窟穴就山非世	-12.4617
移之如是則慶賞雖重民不勸也殺戮雖	-12.4617
程簿舊錢王璩故簡	-12.4617
立利除害	-12.4617
筴也用貢國危出	-12.4617
管仲曰君與地以汶	-12.4617
管氏言此乃古之陳設致財之道	-12.4617
精選士卒	-12.4617
綈十三月而管子令人之魯梁魯梁	-12.4617
縁有此黄門非有求於爾乎吏叩頭曰彼	-12.4617
者斤刀也故曰奚仲之巧非	-12.4617
者方六里田之	-12.4617
者此常利之所以不舉事之所以困者也	-12.4617
者能先後於君	-12.4617
而應筴國奉決	-12.4617
而救宋大敗齊師公怒歸告管仲曰請脩	-12.4617
而敵不敢校也得地而國不敗者因其民	-12.4617
而曰不竭者此非理之言也	-12.4617
而知之不習而成者也故其賢足可	-12.4617
而退而人以此自得行於世也	-12.4617
而野不為姦慝	-12.4617
耗之道也是故明君審察事理慎觀終始	-12.4617
聖人之智不用其力而任衆人之力故以	-12.4617
聞知敵謀	-12.4617
至亂可待	-12.4617
至竹箭有餘於國竒怪時來珍異物聚旦	-12.4617
若此則民勝矣雖然勝民之	-12.4617
萬事萬行非身	-12.4617
萬人同一心	-12.4617
蜜黄門素怨藏吏乃以䑕屎投	-12.4617
袁滋鑄金孫寳秤散	-12.4617
覆軍敗將之事然則射御勇力之士不厚	-12.4617
言當固物情謹聲	-12.4617
言能通上隂	-12.4617
謂上欲有所	-12.4617
謂稱有道之君無道之君有	-12.4617
謂郊祀天地神	-12.4617
豐則務施功大而不伐業	-12.4617
財物通交有無使人之所求各得其	-12.4617
貯器當錮	-12.4617
起而君在危殆之中矣故曰羣徒比周之	-12.4617
踈貴戚	-12.4617
踈貴戚則有外	-12.4617
輕重丁第八十三輕重戊第八十四輕重	-12.4617
辟之若尊譚未勝其本亡流而下	-12.4617
通若道然	-12.4617
速得意於天下	-12.4617
連故二百人	-12.4617
運之謀崇替相因若天地	-12.4617
遣戮屍	-12.4617
鄙輸貨故貧	-12.4617
鄭子産聞婦人哭使人執而問之果手刃	-12.4617
鄰之好杜賔客之交惡其名	-12.4617
金重令徐則	-12.4617
鎧矛㦸是	-12.4617
閉藏百事盡止	-12.4617
院有鐵佛	-12.4617
險政政險民害害乃怨怨則凶故曰讂充	-12.4617
雖使三堯在臧但懸其物而不散施之	-12.4617
靜作得度	-12.4617
非齊國之利也桓公不	-12.4617
願君之逺易牙	-12.4617
食桓公立貢數文行中七年龜中四千金	-12.4617
馬桓公曰行幣	-12.4617
黙其神以	-12.4617
揖	-12.4618
攻先攻而	-12.4619
骼	-12.4619
土之次曰五桀五桀之狀甚鹹以苦其物	-12.4619
戒來故禍不萌通而民無患咎桓公曰請	-12.4619
於其君慮殺其主謂之公過諸公過之家	-12.4619
能亡之故不攻	-12.4619
察所惡之方而	-12.4619
斯亦可稱也	-12.4619
於大水及海者命曰	-12.4619
材謂可以充兵器	-12.4619
百物乃收使民	-12.4619
肺	-12.4619
腎	-12.4619
下外出於四海之外合絡天地以	-12.4619
名若山然也	-12.4619
仲對曰可夫水之性以髙走下則疾至於	-12.4619
其泛溢	-12.4619
唐人小說所	-12.4619
國中飽簡主	-12.4619
施免罪之牒居二日廣陵王欣家奴面	-12.4619
杜鎬侍郎	-12.4619
甚峻松	-12.4619
膬	-12.4619
自告牒下因	-12.4619
謂卒有暴溢或能漂	-12.4619
蹤見一老姥	-12.4619
輙曰僧道	-12.4619
辰以收斂殺	-12.4619
辰掌收收	-12.4619
山之陽九州之民乃知榖食而天下化之	-12.4619
漸攻於君	-12.4619
葷	-12.4619
􁋂	-12.4619
一士毋頓一㦸而辟方都二	-12.4619
不躬不親庶民不信	-12.4619
也君朝令而夕求具民肆其財物與其五	-12.4619
也栁慶後周栁慶	-12.4619
争絲一團	-12.4619
事吾畏言不欲	-12.4619
以刑治以賞戰	-12.4619
以法其不從法甚者危殺之其次勞苦飢	-12.4619
冬之冰夏之火皆	-12.4619
出於他水溝流於大水及海者命曰川水	-12.4619
博聞辯慧	-12.4619
可以不完郭周不可以外通里域不可以	-12.4619
可以朝天下桓公曰寡人欲毋	-12.4619
君人者莫不有餘財	-12.4619
問直其寃免死者六人正其尉故入之罪	-12.4619
善不告而去何也其徒色動因執之得	-12.4619
報斝爵祭神以謝過耳	-12.4619
夫明王不美宫室非喜小也不聽	-12.4619
宋傅季珪為山隂令有賣糖賣針	-12.4619
害己者其可得哉	-12.4619
師行無成功空費	-12.4619
從命欲求可與謀	-12.4619
循以邦計貳職權	-12.4619
掛絲於柱鞭之有少鐵屑焉乃罰賣糖者	-12.4619
於人無荒亡之行於身桓公退再拜命曰	-12.4619
曰明曰聖也	-12.4619
此極則姦者不敢	-12.4619
渇之將欲用之	-12.4619
禽獸聚麀然人殺禽獸無罪則戮之可也	-12.4619
若夫黄覇戮三男王尊殺假子	-12.4619
言故行年六十而老吃也管子	-12.4619
駐	-12.4619
䏻制人人亦不䏻制	-12.4619
一一面詰之	-12.4619
三土謂五粟	-12.4619
下觀不及者以自	-12.4619
不以術權之	-12.4619
不得東流兩	-12.4619
不肅貴賤不	-12.4619
不能成一輪	-12.4619
且定故不疑	-12.4619
中和愼敬能	-12.4619
中心無所專固有善則	-12.4619
中滿於九州	-12.4619
之以法舉而得其人坐而收其福不可勝	-12.4619
之國不可以無千金之蓄飾百	-12.4619
之國不可以無萬金之蓄飾千	-12.4619
之火故曰羽獸之火	-12.4619
之聞者稱快	-12.4619
九㑹之後威行海内雖居	-12.4619
五㑹之後兵	-12.4619
五沃五位	-12.4619
享祭之禮也	-12.4619
人之所得設也	-12.4619
令水上髙必大	-12.4619
以千百數	-12.4619
何如管子對曰梁聚之言非也彼輕賦	-12.4619
來事之端不知其兆者	-12.4619
侯伯帝王之事	-12.4619
假令管仲力死成	-12.4619
元何犿註外儲説右	-12.4619
充言心也心欲忠	-12.4619
克勝也謂不	-12.4619
免謂益有謹勵	-12.4619
兵而有功入其	-12.4619
其名籍之本則財署知聚財傰署	-12.4619
其謂國相則功	-12.4619
刅	-12.4619
則彼安有自還之大夫獨委之彼諸侯之	-12.4619
則柔順故	-12.4619
則能察天極	-12.4619
則辱可閉也	-12.4619
功力未見於國	-12.4619
功有大小器有精	-12.4619
勉以顯之也	-12.4619
動若竒邪	-12.4619
勞法獲美	-12.4619
勸而不怠故能起本也	-12.4619
原察也農事不	-12.4619
叅軍有捕得殺人者既自誣服良肱獨以	-12.4619
各定其先後之差也	-12.4619
名求實之飾	-12.4619
君欲變其令令尊於君不	-12.4619
和故讒人無所	-12.4619
善農者能多致市利則自	-12.4619
在衍在丘在山皆	-12.4619
地之極理善莫大焉	-12.4619
均陶者之	-12.4619
大理斷令决杖防覆之云某人病風不語	-12.4619
夫也信宿獄不成吏懼	-12.4619
失下故守大夫以	-12.4619
嫡威重則兄弟	-12.4619
小曰室大曰廡	-12.4619
山至數第七十六	-12.4619
川蓋睢汴也	-12.4619
建事之宗	-12.4619
後廢他國也	-12.4619
微管仲吾其	-12.4619
悉其聰明致其忠愛	-12.4619
所為也乃召州内刀匠示之有郭門者言	-12.4619
所立堅則不可	-12.4619
手所作去	-12.4619
指意也當承	-12.4619
捜索其家	-12.4619
操兩可之說設無窮之	-12.4619
攻者起一得十國	-12.4619
放之驢㝷向餵	-12.4619
敦敬有功名之士必爵禄順而與之	-12.4619
文設武伏如其不然則天位不可得也	-12.4619
於草積下得之人服其智	-12.4619
施散之無方聚之不可計	-12.4619
既悲且懼	-12.4619
旬月豈不呼索飲食再劾其事	-12.4619
易也利害也難易也開閉也殺生也謂之	-12.4619
是故先王必有置也然	-12.4619
有麋麃又且多鹿其泉	-12.4619
本務當原察	-12.4619
柞	-12.4619
桓公曰何謂二豫之外管子對曰萬	-12.4619
楚人又遮取宋田夾兩	-12.4619
民不附父母暴而無恩則子婦不親臣下	-12.4619
無此其具則	-12.4619
無籍而國利歸於君也夫以室廡籍謂之	-12.4619
爵貴以休之	-12.4619
猶倚伏也聖人之取天下	-12.4619
王與晉厲公戰	-12.4619
瓴甋私空其	-12.4619
當以漸也順也靡也謂物順	-12.4619
疇隴也謂	-12.4619
看	-12.4619
知然九本所以搏	-12.4619
知盡入於市	-12.4619
祀神而動	-12.4619
祝祝史鳬	-12.4619
神之所在故畏敬	-12.4619
稅籍曲直可判郡	-12.4619
積年以來空交分	-12.4619
粟土粟土之次曰五沃五沃之物或赤或	-12.4619
縑入市遇雨以縑	-12.4619
縣之筴守一縣以一	-12.4619
者不審則邪臣上通而便辟制威如此則	-12.4619
者王得其半者霸是故聖王卑禮以下天	-12.4619
者當均列之	-12.4619
而貴義與德大武三	-12.4619
臧獲御之則為人笑王良御之	-12.4619
致禍故恐	-12.4619
芒羣藥安聚以圉民殃其林其漉其槐其	-12.4619
若能解道之一言	-12.4619
萬嵗樓	-12.4619
蓮與蘪蕪藁本白芷其澤則多魚牧則	-12.4619
蔽美揚惡	-12.4619
蘓顯甫李	-12.4619
號令於國中曰	-12.4619
蟠	-12.4619
衆以某孤立不狎	-12.4619
視敵所憎者多與賂令以	-12.4619
親則禍憂至故淵不涸則所欲者至涸則	-12.4619
親戚危其社稷社稷戚於親不	-12.4619
詔使者曰寡君有不令之臣在君之國願	-12.4619
說疑第四十四	-12.4619
貨財上流賞罰不信民無	-12.4619
輕而金得九	-12.4619
逆天舉事故	-12.4619
逺無蔽獄孤寡無	-12.4619
鄠	-12.4619
閽	-12.4619
阪	-12.4619
隴而種也	-12.4619
離謂次位	-12.4619
靜則思慮審	-12.4619
養則衆散亡君臣各	-12.4619
馳車千駟不足	-12.4619
驗伍偶相與俱得其	-12.4619
髙下葆澤以處是謂位土位土之次曰五	-12.4619
鮑叔曰君使人請之魯公曰施伯	-12.4619
鮑叔言事若不	-12.4619
㭍	-12.4619
一國陸地之數謂之幣	-12.4619
一舉兵而國四禍	-12.4619
三守謂明賢耕	-12.4619
上引猶君恩下流人心上就也	-12.4619
上智之所難知	-12.4619
上用入則務本疾作以實倉	-12.4619
不兩盛故	-12.4619
不可不興也曰民知	-12.4619
不可夫本富而財物衆不能守則	-12.4619
不均平和調則地利或	-12.4619
不守重刑明	-12.4619
不遇害而人臣	-12.4619
主不好本	-12.4619
主之所以尊者	-12.4619
主之道也故明法曰下情不上通謂之塞	-12.4619
之不可直用刑勝也	-12.4619
之在心所謂夜行者心行也能心行	-12.4619
之所夜發至鎮	-12.4619
之智思慮者無不知也以衆人之力起事	-12.4619
之此皆夏令	-12.4619
之自用樹福則國從	-12.4619
之興也六者	-12.4619
之貴賤若干凡方六里用幣若干	-12.4619
之際并行視之	-12.4619
之雖有冦賊	-12.4619
之鹽得五十合而	-12.4619
乎道言也則法術之士	-12.4619
乗之國中而立市東西南北度	-12.4619
也兵出必取取必能有之按兵	-12.4619
也平土政	-12.4619
事用之水常可制而使	-12.4619
事畢登來事未起方冬無	-12.4619
于百姓則萬民懟怨逺其	-12.4619
人主操逆人臣操順先王重榮辱榮辱在	-12.4619
人以求名譽非	-12.4619
人君唯毋聽羣徒比周則羣臣朋黨蔽美	-12.4619
人者皆怠於農戰矣	-12.4619
令之以終其欲明之	-12.4619
以不徧知哉	-12.4619
以安羣生得以育故萬民驩盡其力而樂	-12.4619
以救民之急	-12.4619
以教其子弟相語以利相示以時	-12.4619
以易之者何也大官尊位不然則尊爵重	-12.4619
以有禮愼此四者所以行之也桓公曰請	-12.4619
以此事君者皆姦人也而人君聽之焉得	-12.4619
以牧其民則衆不敢踰軌而行矣下有五	-12.4619
以知其市之賈負任擔荷服牛輅馬	-12.4619
以貪名加	-12.4619
以養親戚恭敬忠信以事君上中正比	-12.4619
企	-12.4619
伐材用毋於三時羣材乃植而造器定冬	-12.4619
休居不聴	-12.4619
但主能度而	-12.4619
位受厚禄	-12.4619
何也曰滋味也聲色也然後	-12.4619
假令財與人鈞同人	-12.4619
傅隆議	-12.4619
先古聖王皆不能	-12.4619
先王之在天下也民比之神明之	-12.4619
公欲速得意於天下諸侯則事有所	-12.4619
其力而勿奪其時以利之如此則衆親上	-12.4619
其報所以明厚	-12.4619
其欲治又不甚也	-12.4619
其生無復致	-12.4619
其色以自窮詰	-12.4619
兼以譎取之	-12.4619
出器謂可出用之器處器謂	-12.4619
分則已尚	-12.4619
利盡歸於	-12.4619
制下上之用	-12.4619
制禄亦與	-12.4619
則主尊顯故曰銜令者君之尊也人主	-12.4619
則天下莫能與之	-12.4619
則無聊而茍且故不	-12.4619
則謀臣死而諂臣尊矣故曰諂讒飾過之	-12.4619
功不有桀紂之	-12.4619
勝不死不敗也	-12.4619
勝則上令不行	-12.4619
千嵗萬嵗	-12.4619
博厚則感人	-12.4619
卿貴不臣化為	-12.4619
厚罰多斂	-12.4619
去此百里浦汊中	-12.4619
又執短兵列陣而	-12.4619
又大施忠焉可為憂者為之憂可為謀者	-12.4619
友則不親以此	-12.4619
反其侵地正其封	-12.4619
反准賦䡄幣	-12.4619
取與之必因於時也時則動不時	-12.4619
受辭者名之運也	-12.4619
可得聞乎伯髙對曰上有丹沙者下有	-12.4619
可與廷尉争	-12.4619
名故皆設備	-12.4619
吏民相告訐	-12.4619
君之憂人故廣	-12.4619
君能善用臣	-12.4619
周徧無得有	-12.4619
和調和調乃	-12.4619
善可稱故弱也	-12.4619
嚴為防禁以尊其生	-12.4619
四時第四十	-12.4619
四者謂不貧得	-12.4619
因機而發非	-12.4619
圂	-12.4619
土豪殺人而遺其妻金	-12.4619
地大不耕	-12.4619
埀	-12.4619
塗乾則輕	-12.4619
士以更次益薪積之水旁州大夫將之唯	-12.4619
士所勸者唯勇則	-12.4619
壽命長而天下自理也	-12.4619
外之有徒禍乃始牙衆之所忿寡不能	-12.4619
多智而又安靜二者能	-12.4619
大臣得罪勿出封外是為漏情	-12.4619
大臣非國老則君親	-12.4619
夫是故商之子常	-12.4619
奪貧弱終不	-12.4619
好全生則羣臣皆全其生而生又	-12.4619
子反辭以心疾	-12.4619
子職第五十九	-12.4619
子致胙於桓公而不受天下諸侯稱順焉	-12.4619
官稟君命而	-12.4619
家族使相連以事相及以	-12.4619
寒之用人君所立以均	-12.4619
寒氣肅殺	-12.4619
寛以濟猛	-12.4619
寡人幼弱惛愚不通	-12.4619
寵而使人刺之不	-12.4619
將改復本情未有能終為意也	-12.4619
小問第五十一	-12.4619
小戎里有司率之四里	-12.4619
屍水中遂失其屍或為元謀或從而加功	-12.4619
州軍事推官	-12.4619
巨瘞堷	-12.4619
巨雄翡燕小鳥皆歸之	-12.4619
布則民之所欲無不得矣夫民必得其	-12.4619
常以言翹明其與人也其愛人也其有	-12.4619
幄中聞酒臭而還曰今日之戰	-12.4619
廩重有加十謂大家委貲家曰上且	-12.4619
彌亘於河	-12.4619
待其享祭鬼神之	-12.4619
律度焉則民被刑僇而不從於主上此筴	-12.4619
後悖於前	-12.4619
得也戰而必勝者法度審也勝而不死者	-12.4619
得而稽之如此者人主之位也	-12.4619
德者賢人所	-12.4619
心故言一體	-12.4619
必主與大臣之徳行	-12.4619
忘束縛在魯也使	-12.4619
忠也者民懷之嚴也者民畏之禮也者	-12.4619
忠哉但以無益而徒死也	-12.4619
忠愛之而適足以殺之	-12.4619
意是故明君兼愛以親之明	-12.4619
愚人兵在頸方	-12.4619
慎觀終始審察事理	-12.4619
慕賞或用	-12.4619
慮管仲曰非婢子之所知也婢子曰公其	-12.4619
憚亂主闇上之患禍而	-12.4619
戎事之大可	-12.4619
我致綈千匹賜子金三百斤什至而金三	-12.4619
或散金財有所	-12.4619
所以能期於此	-12.4619
所謂亢之為言也	-12.4619
持滿者則與天合	-12.4619
持謂見刼執也	-12.4619
挿	-12.4619
接人事故雖下勞不謀	-12.4619
摭	-12.4619
收亡國聚散民立社稷主置宗廟令	-12.4619
故曰朝不貴經臣則便辟得進毋功虚取	-12.4619
故曰理代之言	-12.4619
故能致逺以數縱	-12.4619
整肅然以	-12.4619
數見侵伐	-12.4619
方殷未可	-12.4619
於勤勞可以致勢而權	-12.4619
於身也官職法制政教	-12.4619
施而可弱而	-12.4619
既有貪忌之	-12.4619
旣使婦人為政則百度	-12.4619
易夫勝民之	-12.4619
春箕宿	-12.4619
是以上之人務	-12.4619
是以上及下之事謂	-12.4619
是以官人不官事人不事獨立而	-12.4619
晤當淵寂	-12.4619
曰汝非以彼所分財少乎皆曰然即命各	-12.4619
曰盗殺其徒者死當原質	-12.4619
曰輸財所以納財於民	-12.4619
有司巳於事而竣	-12.4619
有罪者則償之也	-12.4619
朝而後勝也其前政	-12.4619
木蕃滋數大條直以長其澤則多魚牧則	-12.4619
枋羣木數大條直以長其隂則生之楂	-12.4619
校除復重	-12.4619
桓公曰善管仲死已	-12.4619
棄近而就	-12.4619
楚棘見是土也命	-12.4619
樹以荆棘	-12.4619
檿	-12.4619
櫟	-12.4619
此事逺聞而	-12.4619
此非臺省所能决	-12.4619
歸心於農	-12.4619
殖果木不若三土以十分之四	-12.4619
毋先物動	-12.4619
毛獸西方白虎	-12.4619
民銜之法令之合於民心如符節之相得	-12.4619
氣之濳然而	-12.4619
求寢於門外車箱中許之	-12.4619
決之令通潘音翻	-12.4619
決瓁洛之水通之杭莊之閒	-12.4619
決瓁洛之水通之杭莊之間	-12.4619
沫	-12.4619
治和氣用五數飲於	-12.4619
法數則事簡故身不勞	-12.4619
減死一等	-12.4619
為人致利除害	-12.4619
為備者起謂其材所	-12.4619
為政者田疇	-12.4619
焉可忽哉	-12.4619
焉明主之使逺者來而近者親也	-12.4619
無害人之心	-12.4619
無忿争之心	-12.4619
無職事家又無	-12.4619
無通於百縣則	-12.4619
猶不親而况於	-12.4619
猶縁木而	-12.4619
獲其妾宣乃	-12.4619
玉貨財必欲得其所好然則必有以易之	-12.4619
王之本也然而與危亡	-12.4619
王事必理以	-12.4619
王者行事必順三政	-12.4619
理可以得勝也	-12.4619
琦	-12.4619
生全則萬方輻湊生盡則鴻毛不振故曰	-12.4619
男女不整齊亂鄉子弟者有乎	-12.4619
疈	-12.4619
發其積藏出其資財以予其逺近兄弟以	-12.4619
發草此之謂籍於號令管子曰滕魯之粟	-12.4619
百則使吾國之粟	-12.4619
皆以為得實若水獨疑之留其獄數日不	-12.4619
皆心之所使故象君位	-12.4619
盗殺其徒而	-12.4619
相地沃塉以差	-12.4619
相曰夷吾大夫曰寗戚隰朋賔胥無鮑叔	-12.4619
矣而未知義然	-12.4619
知進而不知退也	-12.4619
知齊二者其國	-12.4619
碍	-12.4619
禁令可立	-12.4619
禆	-12.4619
禮又不能明也	-12.4619
秋行五刑誅大罪所以禁淫邪	-12.4619
穫司空之事也	-12.4619
窮治所犯	-12.4619
竅穴若	-12.4619
笙	-12.4619
篋銀在其中封	-12.4619
粖	-12.4619
綱山於有牢	-12.4619
罰上執權	-12.4619
羣臣之情不效	-12.4619
老不長慮困乃	-12.4619
者此世之所謂	-12.4619
者非無壤土也其所事者非其功也夫凶	-12.4619
而外財之門	-12.4619
而藏故若練絲	-12.4619
而遁邏者得之質抵之死轉運使楊告駮	-12.4619
而驕者損其	-12.4619
耳必將復其不忠	-12.4619
肖者唯退也	-12.4619
肖者舉事則事敗使於人之所不能	-12.4619
背公故多亂	-12.4619
能善納則何	-12.4619
若因處虚守静人物則皇	-12.4619
苦謂濫惡	-12.4619
茍謂非時	-12.4619
荆趙之意絶	-12.4619
荑	-12.4619
蔽可以重載者	-12.4619
處安處安然	-12.4619
處身之行則其理可云矣	-12.4619
虚能貫穿人	-12.4619
虞度也主能	-12.4619
血氣衣服足以適寒温禮儀足以别貴賤	-12.4619
血汙衣遽驚走邏者因捕送	-12.4619
衆也隨之以暴謂之内戰桓公曰善哉筴	-12.4619
衆忿難犯故必	-12.4619
行謂行人也所	-12.4619
行邪者不變	-12.4619
衛為主反其侵地吉臺原姑與	-12.4619
衡言易政利民也毋犯其凶言中正以蓄	-12.4619
衣凍寒食	-12.4619
衺	-12.4619
西方副圖	-12.4619
西面以與秦	-12.4619
見之自念不為主人所納而强求宿	-12.4619
親傷所恃者司馬	-12.4619
言祭時為物作	-12.4619
詣縣矣因	-12.4619
詩所謂予曰	-12.4619
説林上第二十二	-12.4619
調日有長乆以此觀之其利百倍故常以	-12.4619
諭被盗者悉裁其贓	-12.4619
諸侯可朝也而謀臣不為引軍而退復與	-12.4619
諸侯稱仁焉通齊國之魚鹽	-12.4619
財竭則不能	-12.4619
貪鄙之為	-12.4619
賈知物價	-12.4619
賢人之避亂	-12.4619
賢能陳力而崇	-12.4619
足以避燥濕	-12.4619
近時小說載	-12.4619
通於可不利害之理循發	-12.4619
遂至於成功而	-12.4619
遍六合之種一一考之	-12.4619
道非天下之大道也君欲勝民則使有司	-12.4619
里故五十人	-12.4619
銀山及溝瀆	-12.4619
錣籌也	-12.4619
鍾當米六斛四斗是	-12.4619
長率之十	-12.4619
闕故以管仲為悖	-12.4619
陵陸丘	-12.4619
隟不能計度而知之	-12.4619
雷旱非無雨露也其燥濕非其時也亂	-12.4619
革更也賦敷	-12.4619
韓子二十卷	-12.4619
順㫖妄族平人	-12.4619
飱	-12.4619
饒若此者	-12.4619
馬女而吝愛於粟米貨財也厚藉	-12.4619
麻白其布	-12.4619
玉起於禺氏	-12.4619
乃爾父未居前數十年所鑄何也其人遂	-12.4619
動而無不從靜而無不同	-12.4619
始去發䘮既除服	-12.4619
可耳桓公曰行事奈何管子對曰請以令	-12.4619
博聞多見	-12.462
出令命左右司	-12.462
追店人十五以上	-12.462
地下包絡天地	-12.462
茍非其人道不虚行	-12.462
冰	-12.462
南至琅邪司馬曰亦先王之	-12.462
夏日之不煬非愛火也	-12.462
帝之王童山竭澤有虞之王燒	-12.462
於身體不適便	-12.462
期賞而必故曰信	-12.462
樞者居中以運外動而不窮者也言	-12.462
求寒所謂濫	-12.462
濫謂泛冰於水以	-12.462
隂里齊地也	-12.462
出行者將欲幽君也	-12.462
則也地不易其則故萬物生焉主不易其	-12.462
四者一作而上	-12.462
從樂而不反者謂之荒先王有	-12.462
所好者私欲也	-12.462
所惡者公義也	-12.462
盗者始伏其	-12.462
鬱塞也君之令而不	-12.462
一頭雨霽當别	-12.462
下管氏但舉其目或有數	-12.462
不勸而自勵	-12.462
之急也如此則民向風而從化	-12.462
之節夫繩扶撥以	-12.462
乎管仲曰苗始其少也眴眴	-12.462
也故有事事也毋事亦事也吾畏事不欲	-12.462
二豫之外	-12.462
人事婦人之性險	-12.462
从	-12.462
以顯其本謀之功何善如	-12.462
但此書多從	-12.462
何取證便坐杖刑况禁	-12.462
其分則國寧矣故名之曰不	-12.462
凡數財署	-12.462
功但一時	-12.462
十使吾國	-12.462
又問管仲曰何行管仲	-12.462
執威謂行刑	-12.462
失於小人過於君子其	-12.462
封於太山禪於梁父	-12.462
封於太山禪於梁父者必抱菁茅一束以	-12.462
川築堤而壅	-12.462
已國有置然	-12.462
已蔽而刦已刦而弑凡人君之所以	-12.462
役便事而省費	-12.462
得人則福多	-12.462
得施恩而求善	-12.462
心善心可生也	-12.462
怨淺失於小人其	-12.462
所設身必與	-12.462
故曰刑省治寡朝不合衆右三本君之所	-12.462
於社曰釁社	-12.462
春主仁故所藏者不忍之	-12.462
曰何謂國無儲在令管子對曰一農之量	-12.462
曹署著其名以司之	-12.462
有其國者異姓之	-12.462
有貴賤令有緩急故物有輕重	-12.462
桓公問管子曰梁聚謂寡人曰古者輕賦	-12.462
此亦為費數而得一耳也	-12.462
此往情不至則	-12.462
此立時之政管	-12.462
母先物動	-12.462
沒其財故曰	-12.462
浩滿三之於乃請以令使九月種麥日至	-12.462
漢慕容彦超善捕	-12.462
然而人君不能治故使蓄賈游市	-12.462
理合聚於内出空於外	-12.462
百金之蓄飾以此與令進退此之謂	-12.462
秋為西成尚有	-12.462
秩積也食	-12.462
立其功凡此皆為重本也	-12.462
糧食如此者必亡	-12.462
而土位居中	-12.462
肅寒也冬氣	-12.462
胡向少卿	-12.462
脱其常服以就功	-12.462
覆後一人至求庇廕因	-12.462
訣	-12.462
足者當補之	-12.462
輕我重天下多我寡然	-12.462
迹者履之所出善者恩之所生	-12.462
閭閈不	-12.462
雖知之常曰何知雖謀之	-12.462
餼而空理事	-12.462
一國同一意	-12.462
一枚秤	-12.462
一殺尚有參差必再殺然後可齊	-12.462
一而八萬管子即令桓公與民通輕重藏	-12.462
三在上一在下復筴也大夫	-12.462
三男以子還母	-12.462
上侵故國亂	-12.462
不合於天雖滿必涸不合	-12.462
不如止而不盟也	-12.462
不富哉商賈之人何	-12.462
不畏惡親聞容	-12.462
不當其官此三本者治亂之原也故國有	-12.462
不舉故曰重任	-12.462
不輕侮諸侯動衆用兵必	-12.462
不遂谿谷報上之水不安於藏内毁室屋	-12.462
丞相在中書	-12.462
之以武是故天下小國諸侯既服桓公莫	-12.462
之債皆削	-12.462
之地臣下莫	-12.462
之性其至於死	-12.462
之所棄逐也今齊以其重寶貴買吾	-12.462
之數君悉知	-12.462
之曰若受富民錢欲出其死	-12.462
之致盡理無可宥江陵雖遇赦恩	-12.462
之賜之百金管子又曰	-12.462
之重用幣若干故幣	-12.462
之長分州以	-12.462
之長臣能得之賜之百金管子又曰誰能	-12.462
乎伯髙對曰	-12.462
也人主之所以使下盡力而親上者必	-12.462
也故曰先王之禁山澤之作者博民於生	-12.462
也桓公曰民居定矣事已成矣吾欲從事	-12.462
也知道之不可行則沈抑以辟罰	-12.462
二者遇㑹若	-12.462
五官各有其横曰五横	-12.462
人之所有多少各	-12.462
人財竭則侵	-12.462
人食者謹置公幣焉大家衆小家寡山田	-12.462
人馬假其食民鄰縣四面皆櫎	-12.462
令左司馬伯公將白徒而鑄錢於莊山令	-12.462
以使下非斧鉞	-12.462
以家習不革	-12.462
以掩屍也	-12.462
以血澆落	-12.462
何謂獨貴獨賤管子對曰榖重而萬物輕	-12.462
使人君行逆不修道誅殺不以理重賦斂	-12.462
使人送女奴於知州	-12.462
備官者可奉以	-12.462
傷田野殘禾稼故君謹守泉金之謝物且	-12.462
入甲舍貨財皆	-12.462
全其形目也	-12.462
六舉而絜知事變七舉而内外	-12.462
兵不呼儆不茍聚不妄行不	-12.462
兵亂内作以召外冦此危君之	-12.462
兵曹劌之	-12.462
其所行之行所長	-12.462
其故貲故國中大給崢丘之謀也此之謂	-12.462
其民而不擾佚	-12.462
内侵故地虧	-12.462
册	-12.462
出大令故天下諸侯常	-12.462
制而後用故	-12.462
則令廢告狂惑之人則身害故曰與不可	-12.462
則何功而不成也	-12.462
則居然自獲其利也	-12.462
則屠酤之汁肥流水則蟁	-12.462
則攘奪竊盗	-12.462
則有成功不稱動甲兵之事以遂文武之	-12.462
則民富令順民心則威令行使民各	-12.462
則民踈之道之不厚遇之無實詐	-12.462
則遂成其禍	-12.462
力而儉則富夫物莫虚至必有以也故曰	-12.462
加十是一家十戸也出於國	-12.462
十二小郢至	-12.462
十日而服之管子告魯梁之賈人曰子	-12.462
十釡之鹽七百六十八斤	-12.462
千乗之國者器之制也五者其理可知也	-12.462
南公塞鼻	-12.462
厲於墾闢	-12.462
友幾於不親見愛之交幾於不結見施之	-12.462
可以為天下王所以謂	-12.462
可得而誅政成國安以守則固以戰則	-12.462
同舟而濟胡越不患異心	-12.462
君且使使者桓公使八使者式璧而聘之	-12.462
君之舉臣亦猶是也	-12.462
君信而臣繼之	-12.462
君必不去魯	-12.462
君怒魯桓彭生	-12.462
吾何能惜之	-12.462
吾親也公曰親之奈何管子對曰審吾疆	-12.462
唯應所感也	-12.462
四萬二千金廓然虚桓公惕然太息曰吾	-12.462
國之所以存明主之所以賞有功禽獸者	-12.462
國子弟之無上事衣食	-12.462
國舉發必當以禮	-12.462
在上幣貲在下國	-12.462
均衣單衣	-12.462
坐猶或可赦	-12.462
坐長而十倍上下令曰貲家假幣皆以	-12.462
垂櫜言其空	-12.462
城之而楚不敢隳也東發宋田夾兩川使	-12.462
大夫受邑以幣人馬受食以幣則一國之	-12.462
天時不作勿	-12.462
女奴今得之矣知州驚曰安在若水	-12.462
子也於子之不愛將何有於公公喜	-12.462
安則致下數事	-12.462
官未知據何條例詔依有功議斷放由是	-12.462
宜死者生宜蟄者鳴	-12.462
寡人管仲對曰滋味動	-12.462
實共罵棄市亦	-12.462
審器而識勝	-12.462
尊鬼謂謹其	-12.462
對曰夫運謀者天地之	-12.462
尚書李南公知長沙縣日有	-12.462
居不時飲食不節寒暑不適則形體累而	-12.462
巧伎勇力不為愛重	-12.462
帝位也陽者進謀已下公問之辭也	-12.462
幣謂鄰縣曰有實者皆勿左右不贍則且	-12.462
度宜而行故	-12.462
廢更起或	-12.462
弑謂殺親也	-12.462
彊而取之則一釡	-12.462
心之在體當身之中凡身之	-12.462
忘出如莒時也使管子	-12.462
慶賞則民輕難量民力則事無不成不彊	-12.462
或十人聚作主	-12.462
所不晤依賢以問之故其	-12.462
所作常能	-12.462
所施政教與時	-12.462
政審於時而察於用而	-12.462
數之運將陟	-12.462
數理也國無常經人力必竭	-12.462
數變易則事繁	-12.462
文王再駕伐崇武王再	-12.462
於幣者也以國幣之分復布百姓四減國	-12.462
於愛民公曰愛民之道奈何管子對曰公	-12.462
於諸侯其可乎管子對曰未可若	-12.462
於馬前曰仲父之聖至若此寡人之抵罪	-12.462
旣得其定數下其	-12.462
旣齊則天下服故請問	-12.462
日中無影時八月中取	-12.462
旱有所秎	-12.462
明度其不虞	-12.462
明於致諸侯之理	-12.462
昬飲此水上之樂也賈人蓄物而賣	-12.462
曰祭川曰	-12.462
曰魯之境去國五十里亦無不死而已左	-12.462
曹駮坐妻孔議詈母	-12.462
月盈則蝕	-12.462
有伐而不得者也	-12.462
有盜入其家	-12.462
有義之士内外	-12.462
服之至人所與則薄	-12.462
朝以市權利也	-12.462
未也夫齊衢處之本通達所出也游子勝	-12.462
桓公曰卒伍定矣事已	-12.462
桓公曰甲兵大足矣吾欲	-12.462
桓公曰衡數吾已得聞之矣請問國	-12.462
權臣列亦分也	-12.462
欲知其勤且觀其	-12.462
此者三可當師之一至敵國	-12.462
武是也桓公問於管子曰吾欲守國財而	-12.462
民事謂常費也言	-12.462
民富寡人欲殺商賈之民以益四郊之民	-12.462
民得其饒是謂流膏令下貧守之往往而	-12.462
沃塉而不	-12.462
治民務積聚也	-12.462
減矣桓公問於管子曰吾欲富本而豐五	-12.462
澤下降苗	-12.462
為廷尉乃曰吾聞老人之子不耐寒	-12.462
無吏則無蓄積	-12.462
無報明厚	-12.462
無方而富也莫知生所在故曰無方也	-12.462
然則神筮不靈神龜	-12.462
物有豫則君失筴而民失生矣故善	-12.462
猶未消潰	-12.462
王天下不可得也地大國富人衆兵彊此	-12.462
王子城父為將弦子	-12.462
生之養也好惡喜怒哀樂生之變也	-12.462
由前行多修	-12.462
男大女之所食鹽也	-12.462
界毋受其貨財而美為皮幣以極聘	-12.462
異國之人所謂非我族類者也今	-12.462
當何時作之管子曰春三月天地乾燥水	-12.462
疑我當保子以	-12.462
發其積藏出其財物以	-12.462
發於勤勞	-12.462
盛陽乘盛	-12.462
直猶當也謂決	-12.462
知州屢趣之不能得上下皆怪之若水一	-12.462
知歙州富家有	-12.462
短語六管子曰身不善之患毋	-12.462
磨勘黯言澤與父不通問者三年借非匿	-12.462
秋畢宿	-12.462
稷之任者也	-12.462
竝處而難得	-12.462
箓	-12.462
管仲有病桓公往問之曰仲父	-12.462
管子對曰以魯為主反其侵地常	-12.462
管子曰天下有兵則積藏之粟足以備其	-12.462
節時於政與時	-12.462
篋而洩重射輕	-12.462
粟忱不認	-12.462
粤厚也宛順也天	-12.462
糺察之官得入人罪者	-12.462
緩怠不傲下國雖富不侈泰不縱欲兵雖	-12.462
緩怠必輕於	-12.462
緩急之事皆已計定則二者之危無所	-12.462
縷帛也言每於朝置	-12.462
罰則賢聖無從竭能行貨財而得爵禄則	-12.462
翡燕小鳥	-12.462
考其定數以命之也	-12.462
者必失外亂	-12.462
者猶日五候之	-12.462
而不費賞罰明則勇士勸也三官不繆五	-12.462
而任數理足自明人但	-12.462
而制法言能	-12.462
而欲飲不可得其故何也婦人對曰易牙	-12.462
而爭依於已	-12.462
而用財飲食有量衣服有制宫室有度六	-12.462
而畏其武桓公知天下小國諸侯之多與	-12.462
而與人徒使豪富侵	-12.462
聞人共畏之故	-12.462
能矣桓公退再拜之曰夫子數以此言者	-12.462
脩小禮行小義飾小廉謹小恥禁微邪	-12.462
自事獨立於無過	-12.462
與天下齊准彼物輕則見泄重則見射此	-12.462
興豐則士輕禄民簡賞彼善	-12.462
若似也謂君之材能多似有	-12.462
茍避世則晦明藏用	-12.462
莅民如父母則民親愛之道之純厚遇之	-12.462
莞而樹之吾謹逃其蚤牙則天下可陶而	-12.462
萬金之賈千乗之國	-12.462
薪蒸之所積虞師之事也決水潦通溝瀆	-12.462
處楚商容處宋季勞處魯	-12.462
衆非禄賞無以勸民六攻之敗何也	-12.462
行冬政落	-12.462
被於暮故賤賣而貴買四郊之民賣賤何	-12.462
言一國之内耕	-12.462
言人君若不能權其利門制其輕重	-12.462
言曰吾親民民不親也故曰親近者言無	-12.462
言曰若水所以留其獄者	-12.462
詔期前後農夫以時	-12.462
說勝則巧佞者用	-12.462
調隂陽為物也	-12.462
謂上九㑹	-12.462
謂以何國為	-12.462
謂用門扇	-12.462
謂私候之假令築一堵之	-12.462
貪人自相殺傷	-12.462
賤人之所以亡其卑也故曰賤有以亡卑	-12.462
起居時飲食節寒暑適則身利而	-12.462
身無職事家無常姓列上下之	-12.462
身立而民化	-12.462
農夫寒耕暑	-12.462
道而光榮	-12.462
選人者問以	-12.462
鄉而怨怒不及也	-12.462
金上有慈石者下有銅金上	-12.462
錢幣無補於	-12.462
鑄幣而無已乃今使民下相役耳惡能以	-12.462
隂故雷也	-12.462
障防安水藏使時水雖過度無害	-12.462
雖鑄幣無限極	-12.462
難緩急之事皆有可危之理故曰危危	-12.462
非於死之日而後有名也其前行多修	-12.462
非此之外則朝聘之數逺近各有	-12.462
非禮勿視聽	-12.462
非私草木愛魚鼈也惡廢民於生	-12.462
饒取類於山也	-12.462
馬之數求盡也彼王者不奪民時故五	-12.462
馬者布幣於國幣	-12.462
鮑叔牙奉杯而起曰使公	-12.462
鶩	-12.462
𥜗	-12.462
􁎖	-12.462
不竭于上	-12.462
一千視之謂曰今官所鑄不五六年	-12.4621
凡數財署殺僇以聚財勸勉以	-12.4621
必得文威武官習勝	-12.4621
成隂陽之用也	-12.4621
村校中往往	-12.4621
此居圖方中右中方本圖	-12.4621
罟	-12.4621
八元何犿註	-12.4622
咀咀口和嚼之謂三月之	-12.4622
地方數千里	-12.4622
渾初凝類口所嚼食也	-12.4622
先首免罪便欲	-12.4622
立令之所行者多而所廢者寡則民不誹	-12.4622
主肺辛主腎苦主肝甘主心五藏	-12.4622
令時昆明池	-12.4622
具而後生肉脾生	-12.4622
内言九桓公將東	-12.4622
則無差忒	-12.4622
可得籍鬼神乃可得而籍夫管子對曰厭	-12.4622
唐張松	-12.4622
問於管仲曰我	-12.4622
宙合廣積善以通天上	-12.4622
富家翁貲二	-12.4622
暴人起而姦邪作矣計上之所以愛民者	-12.4622
民不誹議則	-12.4622
法之所立令之所行與其所廢者鈞則國	-12.4622
知江寧府	-12.4622
者寡而所廢者多則民不	-12.4622
若常守中	-12.4622
觀猶不可得其	-12.4622
以從騎䭾	-12.4622
以相為匿是	-12.4622
兄仕江南為法官嘗有子毁父畫像為	-12.4622
十嵗强作一十	-12.4622
姦勝則國必削民有餘	-12.4622
宻問守門者曰誰載藁	-12.4622
扼塞也恐	-12.4622
推吏獄典同	-12.4622
杜震序	-12.4622
爵必以其力則	-12.4622
生成須立法以治之在於名實相	-12.4622
禍避於萬里之外能以此制彼者唯能以	-12.4622
藏於胷脅	-12.4622
藏於胷脅姦藏禍息故逺避	-12.4622
誕	-12.4622
謂因地之勢	-12.4622
一百然後斬之	-12.4622
中心自得也	-12.4622
二毁斗也	-12.4622
五土十地	-12.4622
亦旣有辱當	-12.4622
其感服今	-12.4622
其有田邑之人今移於市	-12.4622
博塞長姦	-12.4622
反拘留之則彼逾叛矣	-12.4622
可代天下無道取其位而君之也	-12.4622
周沆侍郎嘗	-12.4622
國無姦民則都無	-12.4622
嫂曰不疑因相與大喜吏即擒之	-12.4622
尺而傷不及寸白請詳捕果獲真殺人者	-12.4622
有善言可玩故	-12.4622
有大明之德可以	-12.4622
桓公曰皮幹筋角竹箭羽毛齒革不足	-12.4622
民利封土	-12.4622
物有倍叛而	-12.4622
用之不同其事遂異也	-12.4622
百百官也言百官皆	-12.4622
知事之不可兼也故名	-12.4622
祭祀之費家雖有小損	-12.4622
而復計度所	-12.4622
聖人由此知言之不可兼也故博	-12.4622
能忘官貨則	-12.4622
葦無赨莖白秀五位之土若在岡在陵在	-12.4622
藪斬羣害以	-12.4622
蘢	-12.4622
見一房無燭	-12.4622
証	-12.4622
諸侯之商賈立客	-12.4622
謂涸澤之中有谷有水	-12.4622
道之所言其理	-12.4622
道之所言者一也而用之者異	-12.4622
長數謂速長	-12.4622
開國以納之也	-12.4622
除其田以待春之耕也	-12.4622
驕而不已則	-12.4622
鼠	-12.4622
䖟及彼白昌山	-12.4622
一家之人耳言無廣逺	-12.4622
不足則怨怒故	-12.4622
之滿虚而輕重其禄然	-12.4622
九月種麥日至而穫	-12.4622
也久也服也習也謂人服習	-12.4622
二曰見賢不	-12.4622
今君獨立無與則是有害故甚可	-12.4622
使上之傰署財署分知其事各具	-12.4622
傰猶曹	-12.4622
克親貴以	-12.4622
其二分餘放此	-12.4622
其言順而澤	-12.4622
冬事不過所求必得所惡必伏	-12.4622
凡此雖曰有	-12.4622
則不覺向日則	-12.4622
則倉廩虚肥籍	-12.4622
又不移前欵楚金憂悶	-12.4622
又必當和同	-12.4622
塞其幸者但得貪食而已無餘利	-12.4622
多桔符榆其山之末有箭與苑其山之	-12.4622
已精練然	-12.4622
往來不能思也	-12.4622
德則神歆也	-12.4622
或因亡國或因滅家	-12.4622
捕盗帥一人脅使條陳諸縣強暴	-12.4622
撃者本無殺意邂逅致死乃坐杖罪或用	-12.4622
政者所以節制	-12.4622
故可以為天下主	-12.4622
散之於衆使	-12.4622
日掌陽月掌隂星掌和陽	-12.4622
晉曹攄字顔逺為	-12.4622
暁	-12.4622
期於泰舟之野期軍士桓公乃即壇而立	-12.4622
正准壊險以	-12.4622
毆佃客死	-12.4622
無失外事之時也辰時也	-12.4622
盜賊之人常欲	-12.4622
知永興軍時大姓范偉冐武功令祚為祖	-12.4622
神不測者也故	-12.4622
禪籍不如令者不得從天子下諸侯載其	-12.4622
種粟者甲在内而處葉居	-12.4622
穿祚墓以	-12.4622
精一其氣	-12.4622
罪人以儋年不嗜	-12.4622
而南行故司馬正	-12.4622
舊宗則收散親	-12.4622
蟠委地也	-12.4622
蠅集其首因發髻	-12.4622
諸侯兵之不足當引其事之闕	-12.4622
謂設祭以顯	-12.4622
辱忍而生全齊將得之而	-12.4622
辱猶逆也逆	-12.4622
逆上之氣生	-12.4622
逺胾近醬	-12.4622
鄰國之君俱不賢然	-12.4622
重寳分其威威貴於寳不	-12.4622
野有障塞	-12.4622
開國以納善	-12.4622
陽親而隂	-12.4622
雖聞道但好理家此但	-12.4622
非吾儀雖利不	-12.4622
髙下肥墝物有所	-12.4622
龔	-12.4622
䇡公州之飾焉以	-12.4622
一匡天下本仁祖義成其霸業所行權	-12.4622
一物塞汝鼻汝能終不食乎其人懼即食	-12.4622
三倍重邦布之籍終	-12.4622
三公之錫命尚	-12.4622
上不行君令下不合於	-12.4622
上事子之力也是以式璧而聘子以給鹽	-12.4622
上帥其士所為	-12.4622
上有白毛長史韋道	-12.4622
下以為天子羞遂下拜登受賞服大路龍	-12.4622
下審更相序	-12.4622
下視肥墝觀地	-12.4622
下謂庶人上謂	-12.4622
不憂其職務也	-12.4622
不正名分不原情理	-12.4622
不聞所以有殆	-12.4622
不聴而可以得存者	-12.4622
不足而御其財物	-12.4622
且審故謂之聰	-12.4622
乃行至於邑郊鮑叔令車二十	-12.4622
之事周而聽	-12.4622
之人謀郭周外通則姦遁踰越者作里域	-12.4622
之兵不求其地所以君可	-12.4622
之國官賦䡄符	-12.4622
之故不踰於	-12.4622
之欲使之明識正	-12.4622
之王者非仁也	-12.4622
之理然後可以長	-12.4622
之舉大夏帷	-12.4622
之要可與萬	-12.4622
乏於食者謂豪富之家收藏其	-12.4622
乘之號而無千乘之用	-12.4622
也以事其主終而復始愛親善養思敬奉	-12.4622
也堯為匹夫不能	-12.4622
也大國畏威事如臣僕	-12.4622
也子反受而飲之子反	-12.4622
也牽家馬軛家車者幾何	-12.4622
也行私惠而赦有罪則是使民輕上而易	-12.4622
事不給故本事不得立	-12.4622
事之委積可彼此相勝輕	-12.4622
事矣是敺國而捐之也故曰觀樂玩好之	-12.4622
二十三地數第七十七揆度第七十八國	-12.4622
云是流兵背役	-12.4622
五沃五物各有異則五沃之狀剽怸	-12.4622
交則不結以此有	-12.4622
人已衣被之後餘衣若干别	-12.4622
人能因時來輔成	-12.4622
人董及祖恱收	-12.4622
什二筴也皮革筋角羽毛竹箭器械財物	-12.4622
介蟲北方	-12.4622
令使者賫石璧而與仍	-12.4622
令罷杞兵	-12.4622
以一家之筴守	-12.4622
以前無狗後無彘者	-12.4622
以成新道定國安家然後可	-12.4622
以攻齊國若之何	-12.4622
以時鈞脩焉使刻鏤文采毋敢造於	-12.4622
以有餘補不足	-12.4622
以給鹽菜之用	-12.4622
以識此管子對曰君勿患且使外	-12.4622
以賞則死怯民勇勇民死國	-12.4622
任猶載也謂	-12.4622
伏利謂貨利	-12.4622
伏法高端明殿學士襄之弟也	-12.4622
伏者發而用	-12.4622
伸之曰若逺年	-12.4622
似可與索	-12.4622
何事最難	-12.4622
作亂欲公之死	-12.4622
使無劵契之責	-12.4622
使臣不能受命	-12.4622
侈謂饒多也末事不饒多	-12.4622
俠客殺告者語了遂侵晨	-12.4622
修牆屋	-12.4622
修道途便	-12.4622
俱平所以人君視兩	-12.4622
倫無得過其	-12.4622
假道於虞	-12.4622
偽作倉督馮忱書盗糶	-12.4622
先勝服近習	-12.4622
先故之臣謂祖考時舊臣也今	-12.4622
公乗無正	-12.4622
公戰故兵弱	-12.4622
共罵母黄令死黄忿恨自縊已值赦律子	-12.4622
兵則以賜貧甿若此則菹菜鹹鹵斥澤山	-12.4622
兵車之㑹謂	-12.4622
其一在國管仲懼而復之	-12.4622
其境也欲魯梁人速知之	-12.4622
其守列投蟁虵巨雄新冠五尺請挾彈	-12.4622
其情也故曰無根而固	-12.4622
其深及冠從右方	-12.4622
其深至膝若右	-12.4622
其理可言也	-12.4622
其田必見禽	-12.4622
其種大水腸細水腸赨莖	-12.4622
其積粟之數	-12.4622
其賞罰之數必先	-12.4622
兼愛無遺是謂君心必先順教萬民鄉風	-12.4622
冒者耳非義也	-12.4622
冬春推隂以生陽	-12.4622
准幣直幣而庚之	-12.4622
凡土王之時所生之物但開通	-12.4622
凡此必資衆力則妨農	-12.4622
凢說之難	-12.4622
出令有徐疾物有輕重然	-12.4622
出十空者	-12.4622
刑法繁則姦不禁	-12.4622
刑致罪以符之	-12.4622
利之物能惑哉	-12.4622
利人之事積	-12.4622
制為秦州司理	-12.4622
則不屈靜則不變不變則無過故曰不伐	-12.4622
則事平理均也	-12.4622
則全人命	-12.4622
則其形自生	-12.4622
則其明不絶	-12.4622
則國勢不用已乎管子對曰今以諸侯	-12.4622
則國必亂矣	-12.4622
則當權而改之	-12.4622
則苗從下生上引一尺	-12.4622
則衆疲而散	-12.4622
則通晤循而	-12.4622
前妻女欲奪財物乃誣	-12.4622
剽堅也怸	-12.4622
功苦上完利監	-12.4622
加于尊位功力未見於國者則不可授	-12.4622
劾之即伏吏民	-12.4622
勁銳搏	-12.4622
勝任也而衆者不愛則不親不親則不明	-12.4622
勝則姦人在上位人君唯毋聽請謁任	-12.4622
北伐孤竹	-12.4622
十四山權數第七十五山至數第七十六	-12.4622
十錢人家受食十	-12.4622
危難則智謀變而通之	-12.4622
又能率人	-12.4622
及出行縣	-12.4622
取市未央畢而委	-12.4622
可殺趙當何以處載父子祖孫互相殘戮	-12.4622
右首憲凡	-12.4622
司聲之官直得禄而	-12.4622
各有可用之性	-12.4622
各賜以酒	-12.4622
合之曰契	-12.4622
合於民情則民受其辭民受其辭則名聲	-12.4622
吏之急難可使者幾何人大夫	-12.4622
吏民賢不肖及姦邪罪名	-12.4622
君之國岋乎桓公觀於	-12.4622
君之所審者三一曰	-12.4622
君之竒邪能有革化	-12.4622
君以威覆下下以産供	-12.4622
君伐菹薪煑泲水	-12.4622
君故民之戴上如日月親君若父母凡將	-12.4622
君直幣之輕重以	-12.4622
唐徐有功為司刑丞時有韓	-12.4622
問一民有幾年之食也問兵車之計幾何	-12.4622
問紬線胎心用何物一云杏核一云瓦子	-12.4622
囊橐之食	-12.4622
四時之朝夕御之以輕重之准然	-12.4622
因舊也非吾	-12.4622
囷倉空虚	-12.4622
國好力此謂以難攻國好言此謂以易攻	-12.4622
圖必不失也	-12.4622
在泰山之南故	-12.4622
堇	-12.4622
境内莫衣紫	-12.4622
士利械則	-12.4622
外淫于馳騁田獵内縱于美色淫聲下乃	-12.4622
多獲而後反	-12.4622
多致錢帛募匿妾者	-12.4622
夜入茍家	-12.4622
大寒乃至甲兵乃	-12.4622
天下致利除害也草茅弗去則害禾	-12.4622
天使使者臨君之郊請使大夫初飭左右	-12.4622
天地設而民生	-12.4622
天威不違顔咫尺小白承天子之命而毋	-12.4622
夫任人以事者必擇其可	-12.4622
夷吾之所患者諸侯之	-12.4622
好惡形於心百姓化	-12.4622
如此則事變日至無寧居基漸	-12.4622
姦偽易禄者既當	-12.4622
婦人好殺而不勇好富而忘貧馳獵無窮	-12.4622
婿	-12.4622
孔竅虛	-12.4622
守其時有官天財何求於民桓公曰何謂	-12.4622
家也者以因人之所重	-12.4622
家有同謀者	-12.4622
家臣自代亦須知其數也	-12.4622
察其言不情乃問汝户㡬等曰上等汝家	-12.4622
實雖不言曰吾親民而民親矣莅民如仇	-12.4622
少時謁郡僚有争	-12.4622
尚書李南公	-12.4622
居二十五家則	-12.4622
山發而出水金從之蚩尤受而制之以為	-12.4622
工能積財舉而長之	-12.4622
左秋殺於右夏長於前冬藏於後生長之	-12.4622
已守其謝富商蓄賈不得如故此之謂國	-12.4622
帝問於伯髙曰吾欲陶天下而以	-12.4622
師之三至可	-12.4622
師之事也論百工審時事	-12.4622
幣帛以事齊桓公之左右無不受重	-12.4622
平准萬家	-12.4622
張詠尚書鎮蜀日	-12.4622
彼羣木桐柞	-12.4622
後令衛公子	-12.4622
後欲求令行不可得	-12.4622
得之以死得之以生	-12.4622
從事魏道勝曰使君在滄州	-12.4622
必與下論而後定如	-12.4622
必苞苴財貨好遺	-12.4622
必順聞聞審謂之	-12.4622
忠日損之而患多者惟欲多忠少欲智也	-12.4622
忠誠收聚而賙恤之令其大	-12.4622
愚臣深罪厚罰以	-12.4622
懷善而不知乎	-12.4622
戎馬生於郊	-12.4622
我必無功故近於醜	-12.4622
我用善者用非有使非人揆度第七十八	-12.4622
或授之以社	-12.4622
所謀必得用	-12.4622
所道人求本者食吾本粟因吾本幣騏驥	-12.4622
才能之人去亡	-12.4622
抱法處勢	-12.4622
按此註多非當依後	-12.4622
推㝷其終	-12.4622
擇才授官	-12.4622
故不給之食	-12.4622
故曰以小兵而服大兵也	-12.4622
故曰受辭者名之運也明主之治天下也	-12.4622
故曰靜乃自得道在天地之	-12.4622
故貴不能威富不能	-12.4622
故道無所處	-12.4622
敗夫令出而廢舉	-12.4622
數治以力攻者出一取十以言攻者出十	-12.4622
文書其實無金	-12.4622
方肅殺故曰	-12.4622
於中橋南北	-12.4622
於官羣臣務佼而求用然則無爵而貴無	-12.4622
旣作故改	-12.4622
旣有兵難	-12.4622
旣飭君乃有國	-12.4622
旱水泆民失本則	-12.4622
昉	-12.4622
明主知其然故	-12.4622
明當物生之	-12.4622
易令謂變令錯儀	-12.4622
春秋冬夏不知時終始作功起衆立宫室	-12.4622
是以我有過為而民	-12.4622
時也山川涸落天氣下地氣上萬物交通	-12.4622
時也禮也必得其	-12.4622
時見曰㑹欲求	-12.4622
晉之無有也信秦之有餘也必	-12.4622
曰不長不利作土功之事放農焉利皆耗	-12.4622
曰從左方	-12.4622
曰耽於女樂不顧國政	-12.4622
曰見其若此其厚而不死列陳可以反於	-12.4622
曰言歸者死	-12.4622
更將五乗	-12.4622
更有不可於此者	-12.4622
有不合於令之所謂者雖有功利則謂之	-12.4622
有二國之籍者六千萬	-12.4622
有急名則少緩之	-12.4622
有技巧出用則能利	-12.4622
有根本綱紀	-12.4622
有禮義也夫民無禮義則上下亂而貴賤	-12.4622
有能必任之以職	-12.4622
服白味辛	-12.4622
本業故無蓄積	-12.4622
東尉胡某	-12.4622
桑麻皆安其處由田之事也行	-12.4622
桓公之所以身死十一日蟲出	-12.4622
植必令得其正	-12.4622
楚有汝漢之	-12.4622
橑	-12.4622
櫻桃在焉於是	-12.4622
欲以齊國服諸	-12.4622
正則人知所	-12.4622
此乘天威而動天下之道也故智者役	-12.4622
此者動必有功也	-12.4622
此而民不西者秦士戚而民苦也	-12.4622
死十一日蟲出	-12.4622
死者何也唯無得之堯舜禹湯文武孝己	-12.4622
民之不給百倍其本	-12.4622
民則慕而不費用矣	-12.4622
民心亂臣多	-12.4622
民非作力毋以致財天下	-12.4622
水泉之所傷水泆之國常操十分之二漏	-12.4622
汐利以疾作	-12.4622
河濟之流南輸梁趙宋	-12.4622
治國用民之道	-12.4622
治而不亂明而不蔽	-12.4622
泉踊降雨下山水出海路距雨露屬天地	-12.4622
法不平令不全	-12.4622
法而不克其罪則姦不	-12.4622
深是故國有徳義未	-12.4622
滿取其露見不隠也	-12.4622
潘溢者	-12.4622
潤有一尺	-12.4622
為官司所檢	-12.4622
為審刑院詳議官	-12.4622
為常州團練推官	-12.4622
為由余請期	-12.4622
為虎傅翼	-12.4622
焉國用十不足則加十焉人君之守髙下	-12.4622
無上事乃率子	-12.4622
無兵誅暴暴必	-12.4622
無刑禁邪邪必	-12.4622
無根而固	-12.4622
無異議者則尚之于天子	-12.4622
無親戚者必遺其妻子酒三石肉三鼎行	-12.4622
無障谷無貯粟無易樹子無以妾	-12.4622
然則羽卵者	-12.4622
然而人事不及用不足者何也利有所并	-12.4622
煑鹽然鹽之賈必四什倍君以四什之賈	-12.4622
牛羊其地其樊俱	-12.4622
獵取禽以助也	-12.4622
王延禧朝議	-12.4622
王欲復戰	-12.4622
王質王質待制	-12.4622
理於祭祀之時	-12.4622
生然則從欲	-12.4622
生物共𤣥官	-12.4622
田者封畛既泯質劑且亡未能斷	-12.4622
留一日把百日餔民	-12.4622
當一軍之用	-12.4622
疾憊裸露者	-12.4622
登謂髙田之萌	-12.4622
發其宿嫌	-12.4622
發善謂行賞	-12.4622
白者不忍違	-12.4622
白茅與雚其木	-12.4622
百升加什耗而釡千君伐菹薪煑泲水	-12.4622
百姓治治亂在主而已矣故曰主身者正	-12.4622
百嵗之後吾君	-12.4622
百斤什至而金	-12.4622
皆持其名而去於人則過惡日	-12.4622
盛陽之性失在	-12.4622
[...]
