<unk>	0
<s>	0
</s>	0
/	-3.18441
(	-3.64309
)	-3.77832
)(	-3.98857
之	-4.57243
以	-4.89563
也	-5.04348
為	-5.08682
而	-5.36519
有	-5.39107
者	-5.48224
増	-5.50978
日	-5.53411
於	-5.55286
其	-5.55376
不	-5.66411
一	-5.68066
中	-5.71881
上	-5.74923
人	-5.76608
曰	-5.81214
月	-5.81298
春	-5.8226
時	-5.83933
大	-5.8851
生	-5.89343
至	-5.91723
則	-5.93621
詩	-5.96266
如	-6.02948
水	-6.03392
三	-6.03784
子	-6.09544
天	-6.1814
夜	-6.19353
出	-6.19389
秋	-6.21132
在	-6.22227
花	-6.22535
無	-6.23248
行	-6.24155
原	-6.25511
作	-6.30645
故	-6.33178
自	-6.34449
下	-6.37126
增	-6.37424
夏	-6.37733
山	-6.39946
令	-6.40849
用	-6.41355
皆	-6.47587
此	-6.48245
風	-6.4923
長	-6.4953
與	-6.49607
及	-6.49858
所	-6.5004
五	-6.50064
二	-6.50525
得	-6.51829
四	-6.52532
冬	-6.52566
王	-6.53667
見	-6.54908
成	-6.57206
方	-6.58533
書	-6.58921
後	-6.60367
事	-6.60586
乃	-6.62962
陽	-6.64122
入	-6.64158
正	-6.66148
氣	-6.66971
雨	-6.69456
取	-6.70026
又	-6.70436
年	-6.71898
言	-6.72265
初	-6.72272
火	-6.7235
金	-6.72434
白	-6.73238
𫝊	-6.73247
食	-6.74082
相	-6.74628
地	-6.77516
注	-6.7795
隂	-6.78499
始	-6.78713
分	-6.79725
謂	-6.8074
可	-6.80978
朝	-6.81081
小	-6.81221
酒	-6.81225
雲	-6.81449
賜	-6.81874
開	-6.82057
云	-6.82098
嵗	-6.82109
道	-6.84466
謂之	-6.86283
當	-6.86537
門	-6.88132
官	-6.88704
名	-6.88735
明	-6.88743
即	-6.88932
神	-6.89038
南	-6.89087
葉	-6.89485
是	-6.89865
文	-6.90363
多	-6.90371
石	-6.90908
九	-6.91007
亦	-6.923
寒	-6.93596
物	-6.93699
扵	-6.94948
元	-6.95241
新	-6.95311
六	-6.9558
木	-6.95985
▁	-6.97233
數	-6.97246
黄	-6.97321
法	-6.97743
前	-6.97784
常	-6.98319
節	-6.98396
使	-6.985
帝	-6.99646
主	-7.02288
未	-7.02681
土	-7.0272
種	-7.03153
復	-7.03172
東	-7.04174
和	-7.04395
詔	-7.05226
青	-7.05564
草	-7.05926
公	-7.06202
若	-7.06524
樂	-7.06678
已	-7.06723
光	-7.06818
先	-7.07181
起	-7.07599
十	-7.08099
命	-7.08991
龍	-7.09564
内	-7.09687
合	-7.09735
觀	-7.11159
今	-7.11193
玉	-7.11199
民	-7.12124
或	-7.1218
去	-7.13135
西	-7.14128
因	-7.14647
香	-7.14758
國	-7.14787
家	-7.15902
七	-7.16286
凡	-7.16538
色	-7.17655
立	-7.17811
欲	-7.18016
清	-7.18456
州	-7.1864
來	-7.18877
星	-7.18986
過	-7.19258
祭	-7.19483
經	-7.19583
同	-7.2012
髙	-7.20332
北	-7.20402
熟	-7.20501
從	-7.20796
臣	-7.2121
田	-7.21274
各	-7.21806
馬	-7.21851
註	-7.22189
宜	-7.22757
諸	-7.23352
焉	-7.23369
禮	-7.23456
必	-7.24766
正月	-7.24786
殿	-7.25523
衣	-7.25827
服	-7.26389
平	-7.26551
實	-7.2684
華	-7.27102
知	-7.27589
盡	-7.27851
樹	-7.28011
聲	-7.2802
重	-7.28207
心	-7.28265
宫	-7.28586
傳	-7.2899
置	-7.29758
矣	-7.29821
魚	-7.30639
然	-7.32277
疏	-7.32922
間	-7.34675
居	-7.35301
周	-7.3535
將	-7.362
百	-7.37565
歸	-7.37734
八	-7.37986
應	-7.38019
占	-7.3857
進	-7.38613
徳	-7.38905
兩	-7.39402
次	-7.39483
治	-7.40344
通	-7.4134
五月	-7.4148
收	-7.41616
還	-7.4222
何	-7.42412
宴	-7.42902
李	-7.43112
獻	-7.43532
候	-7.43631
君	-7.4383
三月	-7.43922
坐	-7.44165
盛	-7.44194
張	-7.44492
八月	-7.44542
二月	-7.44894
来	-7.45328
集	-7.46015
定	-7.46164
晝	-7.4625
聞	-7.46484
問	-7.46548
記	-7.46692
外	-7.47257
飛	-7.47804
林	-7.47903
處	-7.48035
四月	-7.48036
頭	-7.48279
四時	-7.48896
每	-7.49046
極	-7.49129
遂	-7.49202
女	-7.4968
等	-7.50629
安	-7.51662
十月	-7.52085
▁(	-7.52893
能	-7.53067
少	-7.53497
更	-7.54031
御	-7.54609
動	-7.55118
既	-7.55965
雪	-7.56123
城	-7.5632
志	-7.56663
賦	-7.5678
本	-7.56883
乾	-7.57105
萬	-7.57213
度	-7.57305
九月	-7.57424
歌	-7.57466
修	-7.59526
辰	-7.59527
師	-7.60021
望	-7.601
于	-7.60112
七月	-7.60849
祀	-7.61193
古	-7.61557
似	-7.61826
飲	-7.62288
景	-7.62587
惟	-7.62999
舉	-7.63348
㑹	-7.63613
鳴	-7.63805
嘗	-7.64537
散	-7.64554
祠	-7.64849
朔	-7.64863
廟	-7.65157
士	-7.65419
臨	-7.65658
請	-7.65702
止	-7.65781
非	-7.66332
奏	-7.66566
宿	-7.66713
刻	-7.66823
六月	-7.67296
落	-7.67494
好	-7.68193
滿	-7.68262
流	-7.68355
十二月	-7.68617
聖	-7.69779
幸	-7.70003
廣	-7.70205
閏	-7.70364
縣	-7.70384
建	-7.70939
鳥	-7.71148
異	-7.71405
餘	-7.71684
思	-7.71759
著	-7.71773
歳	-7.71812
深	-7.71978
甚	-7.72052
江	-7.72211
學	-7.73021
直	-7.73226
登	-7.73575
象	-7.73611
歴	-7.74007
奉	-7.74102
就	-7.74298
麥	-7.7461
赤	-7.74743
竹	-7.75134
河	-7.75291
終	-7.75454
以為	-7.75605
池	-7.7572
歲	-7.75827
首	-7.76027
海	-7.76426
暮	-7.76548
半	-7.76785
陳	-7.76821
字	-7.76962
堂	-7.77127
原禮	-7.77575
畢	-7.77622
紅	-7.77765
逺	-7.79241
泉	-7.79299
親	-7.79675
近	-7.79708
寺	-7.79856
衆	-7.80162
向	-7.8049
仙	-7.80731
興	-7.80848
别	-7.81115
蠶	-7.82
易	-7.82106
對	-7.8222
萬物	-7.82519
漢	-7.82597
會	-7.82665
太	-7.82732
臺	-7.82874
具	-7.83134
早	-7.83335
靈	-7.83373
車	-7.83394
變	-7.83775
采	-7.84328
武	-7.84515
紀	-7.85355
設	-7.8549
制	-7.85585
霜	-7.85771
宗	-7.85774
我	-7.8579
老	-7.85947
降	-7.86368
千	-7.86461
熱	-7.86477
一日	-7.86596
舊	-7.86894
唐	-7.86914
三日	-7.87164
獨	-7.87317
冬至	-7.87318
曲	-7.87482
造	-7.87571
送	-7.87576
枝	-7.87589
夢	-7.87832
足	-7.87885
照	-7.87896
猶	-7.88119
十一月	-7.8815
市	-7.88353
封	-7.88455
十二	-7.88614
母	-7.89053
交	-7.89511
錢	-7.89666
五日	-7.8992
加	-7.90151
齊	-7.9017
共	-7.90264
高	-7.90523
求	-7.9056
莭	-7.90704
語	-7.90831
遊	-7.90876
身	-7.90961
客	-7.90971
布	-7.90975
燈	-7.91035
受	-7.91055
逰	-7.91846
梁	-7.9215
意	-7.92855
氏	-7.93103
禁	-7.9312
露	-7.93319
𤼵	-7.93858
室	-7.93917
世	-7.9455
耳	-7.95061
都	-7.95067
爲	-7.9541
宋	-7.95528
乎	-7.95664
紫	-7.95684
序	-7.95784
寳	-7.9607
夕	-7.96129
雖	-7.96689
位	-7.96838
章	-7.9692
藏	-7.96961
期	-7.9706
舞	-7.97523
牛	-7.97554
善	-7.97566
府	-7.97648
晴	-7.97775
細	-7.97951
喜	-7.98068
根	-7.98606
野	-7.98833
史	-7.98959
隨	-7.99135
精	-7.99304
列	-7.99544
遇	-7.99555
午	-7.99619
郡	-8.00072
毎	-8.00265
燕	-8.00276
伏	-8.00293
天下	-8.0056
温	-8.00582
微	-8.00608
空	-8.00766
左	-8.0102
視	-8.01027
冰	-8.0149
米	-8.01686
耕	-8.01935
疾	-8.02098
試	-8.02117
稱	-8.02351
迎	-8.02408
甲	-8.0248
勝	-8.02509
鼓	-8.03423
信	-8.03705
司	-8.0381
發	-8.03849
致	-8.04203
畫	-8.04283
角	-8.04286
射	-8.04651
雷	-8.04791
将	-8.04993
増本草綱目	-8.05033
眀	-8.05136
郊	-8.05195
旦	-8.05232
圖	-8.05449
貴	-8.05501
晚	-8.05575
轉	-8.05603
備	-8.05888
兵	-8.05916
便	-8.0612
律	-8.06317
兮	-8.06466
雞	-8.06641
連	-8.06671
真	-8.07033
梅	-8.07467
手	-8.07732
義	-8.07845
桃	-8.07929
目	-8.08257
果	-8.08417
化	-8.08419
形	-8.08722
宣	-8.09524
率	-8.09643
採	-8.09946
佛	-8.10494
天子	-8.10517
劉	-8.10664
教	-8.10825
申	-8.11128
輕	-8.11213
乗	-8.11287
留	-8.11339
除	-8.11525
所以	-8.11805
掌	-8.12012
俗	-8.12043
羅	-8.12069
且	-8.12197
口	-8.12286
羣	-8.12428
暑	-8.12586
給	-8.12883
斗	-8.12935
雜	-8.12973
軍	-8.13141
良	-8.13985
召	-8.14219
論	-8.1431
改	-8.14669
尚	-8.14672
吉	-8.1491
移	-8.15167
三年	-8.152
政	-8.15605
日月	-8.15845
氷	-8.16692
引	-8.16704
卷	-8.16819
里	-8.17121
澤	-8.17348
省	-8.17395
録	-8.17437
力	-8.17548
肉	-8.1758
拜	-8.17772
豆	-8.17843
解	-8.17949
皮	-8.18179
夫	-8.18259
燭	-8.18399
路	-8.18496
吏	-8.18509
厯	-8.18534
薄	-8.19006
齋	-8.19009
功	-8.19671
右	-8.20221
表	-8.20567
瑞	-8.20714
莫	-8.20786
亭	-8.20987
放	-8.21303
晨	-8.21314
羊	-8.21438
樓	-8.21488
末	-8.21564
苦	-8.21891
榖	-8.22021
絲	-8.22028
祖	-8.22073
慶	-8.22221
再	-8.22297
看	-8.2231
結	-8.22589
晝夜	-8.2261
皇	-8.22836
臘	-8.22846
閣	-8.2298
條	-8.23362
隂陽	-8.23504
但	-8.24649
屬	-8.24722
二年	-8.24781
謝	-8.24857
號	-8.24902
積	-8.25059
𩔖	-8.25061
忽	-8.2516
咸	-8.252
社	-8.25216
説	-8.25358
守	-8.2552
菜	-8.25683
盖	-8.25707
絶	-8.25863
卿	-8.2589
載	-8.25948
庭	-8.26078
理	-8.26121
珠	-8.26316
升	-8.2641
御製	-8.26623
二十	-8.27026
容	-8.2733
稻	-8.27331
養	-8.28003
體	-8.28093
随	-8.28163
房	-8.28266
井	-8.28426
蟲	-8.28485
要	-8.28765
旱	-8.28793
丹	-8.28916
卜	-8.29054
勞	-8.29107
蓋	-8.29171
儀	-8.2933
九日	-8.29637
比	-8.30002
俱	-8.30081
農	-8.30378
七日	-8.30463
並	-8.30508
器	-8.30779
告	-8.30842
推	-8.30921
授	-8.3095
莖	-8.31164
僧	-8.31227
藥	-8.31355
毛	-8.31736
嘉	-8.31743
醉	-8.31777
面	-8.31922
陰	-8.32167
賞	-8.32255
不可	-8.32403
執	-8.32477
端	-8.32598
錄	-8.32724
冷	-8.32774
急	-8.32942
浮	-8.33169
益	-8.33514
難	-8.33644
羽	-8.33697
桑	-8.3371
懐	-8.33839
考	-8.33998
息	-8.3414
永	-8.34271
吾	-8.34441
漏	-8.34503
聚	-8.34522
失	-8.34528
許	-8.35131
甘	-8.3524
往	-8.35451
久	-8.35985
遣	-8.36047
美	-8.36224
園	-8.36226
符	-8.36395
屋	-8.36453
鄉	-8.3683
之時	-8.37315
天地	-8.37337
漸	-8.37374
利	-8.37764
順	-8.37878
陵	-8.38095
選	-8.38318
薦	-8.38337
任	-8.38337
覆	-8.38351
曉	-8.38364
嚴	-8.3839
碧	-8.38403
離	-8.38597
刑	-8.38757
蘭	-8.38846
素	-8.39152
呼	-8.39172
湯	-8.39526
晉	-8.39796
筆	-8.3998
黒	-8.4001
歡	-8.40156
茶	-8.40168
持	-8.4066
院	-8.40726
依	-8.40819
到	-8.4083
含	-8.41507
須	-8.41723
名曰	-8.42079
殺	-8.42129
㣲	-8.42262
音	-8.42746
計	-8.42984
孫	-8.42987
指	-8.43043
溪	-8.43317
春秋	-8.43327
味	-8.4342
壇	-8.43519
承	-8.43665
魏	-8.43696
納	-8.43794
影	-8.4391
楊	-8.43974
菊	-8.442
鶴	-8.44217
皇帝	-8.44425
夏至	-8.4452
施	-8.44632
遺	-8.45281
懸	-8.45434
上元	-8.45449
朱	-8.46115
元年	-8.46235
陽氣	-8.46316
察	-8.46433
仲	-8.46486
麻	-8.46589
豐	-8.47113
接	-8.47493
竝	-8.47527
立春	-8.47834
之日	-8.4797
戒	-8.48107
榮	-8.48419
代	-8.48588
飯	-8.48591
夀	-8.4886
吹	-8.48985
詞	-8.4899
敬	-8.49049
一名	-8.49071
感	-8.49076
運	-8.49172
昌	-8.49395
翠	-8.49466
草木	-8.49507
聼	-8.49538
辭	-8.49585
按	-8.49621
銅	-8.49655
芳	-8.49864
常以	-8.50142
舍	-8.50277
斷	-8.5036
願	-8.50435
調	-8.50449
寅	-8.50467
可以	-8.50486
孝	-8.5049
仍	-8.5055
惡	-8.50642
駕	-8.50646
涼	-8.50707
故曰	-8.50708
垂	-8.50747
性	-8.50924
罷	-8.5115
虎	-8.51477
栁	-8.51695
元日	-8.51754
郎	-8.51789
職	-8.51802
詣	-8.51882
盤	-8.51998
十日	-8.5237
户	-8.52521
講	-8.5258
酉	-8.52736
尊	-8.52739
議	-8.52857
報	-8.52912
情	-8.52922
延	-8.53381
待	-8.53401
仁	-8.53553
參	-8.53972
扇	-8.53981
昭	-8.54045
最	-8.54155
工	-8.54853
帶	-8.55104
裏	-8.55162
歩	-8.55797
驚	-8.55932
虚	-8.56203
盈	-8.56257
洞	-8.56259
蔵	-8.5626
業	-8.56296
毋	-8.5633
増玉海	-8.56337
助	-8.56917
雙	-8.56945
覺	-8.56977
昏	-8.5717
英	-8.57853
谷	-8.58179
第	-8.58214
典	-8.58363
丁	-8.58373
笑	-8.58438
兒	-8.58478
兼	-8.58615
不得	-8.58775
朕	-8.58834
亥	-8.59005
不知	-8.59098
勿	-8.59113
緑	-8.5943
忌	-8.59644
籍	-8.59668
厚	-8.59759
尾	-8.59777
茂	-8.59786
悉	-8.60364
然後	-8.60368
二日	-8.60382
川	-8.60607
泥	-8.61
管	-8.6104
被	-8.6106
趙	-8.61065
蓮	-8.61091
沙	-8.61538
祥	-8.61644
食之	-8.61855
紙	-8.61891
邊	-8.62006
賢	-8.62018
部	-8.62049
増齊民要術	-8.62094
潤	-8.62169
休	-8.62238
退	-8.62912
讀	-8.62955
傷	-8.63085
侯	-8.6319
幽	-8.63206
鏡	-8.63292
橋	-8.63451
旗	-8.63486
逐	-8.63539
凉	-8.63721
侍	-8.63793
監	-8.64676
原淮南子	-8.64775
商	-8.64799
編	-8.64837
短	-8.65204
秦	-8.6546
爾	-8.65492
不能	-8.65584
左右	-8.6561
愛	-8.65763
棗	-8.65868
鹽	-8.65886
箭	-8.6594
潮	-8.66006
才	-8.6602
却	-8.66029
父	-8.66288
中有	-8.66453
戌	-8.66522
三十	-8.66616
崇	-8.66693
晦	-8.66939
圓	-8.67057
并	-8.67064
閒	-8.67112
鼔	-8.6713
京	-8.67197
塞	-8.67249
粟	-8.67256
繁	-8.67267
秀	-8.67314
消	-8.67324
病	-8.67345
苑	-8.67733
百官	-8.68058
騎	-8.68076
宮	-8.68102
烟	-8.68362
供	-8.68405
㸃	-8.68516
蛇	-8.68556
卧	-8.68597
窮	-8.69695
凍	-8.69798
綵	-8.69835
十五日	-8.69848
岸	-8.69857
烏	-8.69895
遲	-8.69925
破	-8.69926
波	-8.69933
側	-8.69955
學士	-8.69995
湖	-8.70422
舟	-8.70658
於是	-8.70712
卯	-8.70886
獸	-8.7107
暖	-8.71228
祝	-8.71266
濕	-8.71274
旬	-8.71758
燒	-8.71896
五色	-8.72067
楚	-8.72459
洗	-8.72529
肥	-8.7255
松	-8.72571
揚	-8.72767
尋	-8.72887
飬	-8.73139
𤓰	-8.73251
穴	-8.73499
呉	-8.73706
龜	-8.73706
季	-8.73764
坤	-8.73833
霧	-8.73857
德	-8.73866
班	-8.73927
總	-8.73936
稍	-8.7395
寄	-8.73959
宻	-8.73974
黑	-8.74764
禾	-8.74815
卦	-8.74942
詔曰	-8.751
越	-8.75104
關	-8.75133
麴	-8.75211
灰	-8.75234
之所	-8.75243
伯	-8.75274
鳳	-8.75357
錦	-8.75412
庶	-8.75665
昔	-8.75699
蒼	-8.76284
銀	-8.76344
閉	-8.76474
尤	-8.76587
康	-8.76681
折	-8.76733
死	-8.76759
殊	-8.76774
全	-8.76843
肅	-8.7689
背	-8.77034
浸	-8.77298
習	-8.77538
蒸	-8.77555
旁	-8.77618
丸	-8.77791
静	-8.77841
壁	-8.78073
適	-8.78141
堅	-8.78197
一月	-8.78205
閑	-8.78237
春分	-8.78336
月令	-8.78468
統	-8.78518
冠	-8.78533
闕	-8.78846
誰	-8.7937
宵	-8.79437
席	-8.79509
蜜	-8.79522
特	-8.79634
綠	-8.79677
補	-8.79691
殘	-8.79692
辟	-8.79733
戲	-8.80295
五行	-8.80571
蜀	-8.80595
獲	-8.80648
穀	-8.80717
顧	-8.80784
眼	-8.80965
均	-8.81054
竒	-8.81086
圍	-8.81113
唯	-8.81161
宅	-8.81168
寧	-8.812
五年	-8.81493
簡	-8.81524
辛	-8.81818
叢	-8.81931
配	-8.82016
夫人	-8.82117
廵	-8.82184
苗	-8.8219
佳	-8.82199
羣臣	-8.82259
鬼	-8.82433
汁	-8.82477
麗	-8.82515
約	-8.82571
念	-8.82574
甲子	-8.82616
假	-8.82619
詩云	-8.82823
胡	-8.83309
福	-8.8334
貢	-8.83572
盆	-8.83635
者也	-8.83849
濟	-8.83944
戸	-8.83992
暴	-8.84007
索	-8.84124
履	-8.8416
務	-8.84404
恐	-8.84825
賀	-8.84996
校	-8.85386
像	-8.85465
枯	-8.85553
續	-8.85587
徧	-8.85648
韓	-8.85677
瓜	-8.85694
差	-8.85763
尚書	-8.85903
東方	-8.85925
曰此	-8.86087
従	-8.86122
而不	-8.86477
庚	-8.86709
煮	-8.86791
館	-8.86884
仰	-8.86965
吳	-8.86995
魯	-8.87125
湏	-8.87165
葢	-8.87235
収	-8.87266
固	-8.87277
原夏小正	-8.87287
拂	-8.87296
之後	-8.87485
筍	-8.87696
婦	-8.87855
南方	-8.88321
四日	-8.88325
桂	-8.88339
乞	-8.88474
回	-8.88681
害	-8.88707
他	-8.88781
織	-8.88813
吐	-8.88845
冬月	-8.88995
西南	-8.89018
是日	-8.89057
丑	-8.89129
者為	-8.89502
一人	-8.89694
孔	-8.89744
孟	-8.89838
后	-8.90002
汝	-8.90226
鄭	-8.90315
荷	-8.90321
乘	-8.9034
觧	-8.90368
輪	-8.90394
栽	-8.90411
蕭	-8.90414
營	-8.90423
凝	-8.90428
鎮	-8.90485
亂	-8.9049
逹	-8.9053
枕	-8.90531
戰	-8.90536
之氣	-8.9106
寒食	-8.91647
徐	-8.91655
製	-8.91707
衛	-8.91789
炎	-8.91793
繼	-8.9195
輿	-8.91968
圗	-8.91977
蘇	-8.92011
衡	-8.92014
予	-8.92053
油	-8.92105
十八日	-8.92206
天道	-8.92318
之中	-8.92524
四年	-8.92632
有司	-8.92827
三十日	-8.93043
驗	-8.93202
享	-8.93237
甕	-8.93432
尺	-8.93484
七年	-8.93485
植	-8.93613
逢	-8.93625
振	-8.93741
賣	-8.93744
減	-8.93747
風雨	-8.93749
反	-8.93757
船	-8.93769
鳯	-8.9377
不見	-8.94269
題	-8.94654
避	-8.94844
十六日	-8.95097
八日	-8.95192
震	-8.95289
戴	-8.95327
斜	-8.95339
原詩	-8.95343
品	-8.95353
徴	-8.95362
存	-8.95431
從之	-8.95442
斯	-8.95455
北方	-8.95609
十五	-8.9582
增玉海	-8.96211
六年	-8.96655
鐘	-8.96808
芽	-8.96825
遍	-8.96841
孤	-8.96948
徃	-8.97022
饗	-8.97045
□	-8.97127
十一日	-8.97209
吟	-8.97211
句	-8.97573
勸	-8.97809
充	-8.97919
京師	-8.97935
諸侯	-8.98015
故事	-8.98111
西方	-8.98281
恩	-8.98843
仗	-8.98858
炊	-8.9886
釋	-8.98872
骨	-8.98881
崔	-8.98893
謹	-8.98908
憂	-8.98929
倉	-8.98934
太宗	-8.99059
太守	-8.9909
富	-8.99345
太白	-8.99389
春夏	-8.99774
一年	-9.00026
由	-9.00034
頒	-9.00224
停	-9.00335
大如	-9.0044
如此	-9.00456
繞	-9.00532
愈	-9.00704
眠	-9.00705
預	-9.00713
密	-9.00717
輙	-9.00741
柳	-9.00742
琴	-9.00797
識	-9.01514
十三日	-9.01794
十四	-9.02131
霞	-9.02333
四方	-9.02396
舒	-9.02423
柔	-9.02435
荒	-9.02457
量	-9.02474
勤	-9.02509
蒲	-9.02544
横	-9.02546
唱	-9.02568
投	-9.02713
清明	-9.02979
六日	-9.03381
東北	-9.03439
術	-9.03557
黍	-9.0363
一嵗	-9.03922
戊	-9.03945
帛	-9.04027
杜	-9.04148
爵	-9.04222
役	-9.04301
擊	-9.04304
界	-9.04307
忠	-9.04309
橘	-9.04322
杯	-9.04325
干	-9.04326
損	-9.04344
遷	-9.04373
争	-9.04374
傾	-9.04376
赴	-9.04383
糞	-9.04384
佐	-9.04413
聽	-9.04453
閏月	-9.04573
出入	-9.04764
之以	-9.04775
之月	-9.05423
洛	-9.05429
為之	-9.05484
十二日	-9.05689
淡	-9.05748
以下	-9.05765
十四日	-9.06068
至於	-9.06094
牀	-9.06097
煎	-9.06176
程	-9.06195
旋	-9.06219
郭	-9.06225
滅	-9.06249
環	-9.06276
穿	-9.06307
墨	-9.06311
資	-9.06316
豈	-9.06649
罪	-9.07761
映	-9.07766
丙	-9.07835
災	-9.07935
塵	-9.08068
苖	-9.0807
明日	-9.08092
博	-9.081
七月七日	-9.08179
進士	-9.082
偶	-9.08226
千里	-9.08323
十三	-9.08865
秋分	-9.08901
芝	-9.0916
腹	-9.09658
秋冬	-9.09666
洲	-9.09735
貧	-9.0981
賔	-9.09817
牡丹	-9.09962
辨	-9.09992
染	-9.10026
夘	-9.10027
邪	-9.10067
剛	-9.10092
艾	-9.101
蘇軾	-9.10102
印	-9.10111
珍	-9.10115
韻	-9.10126
隐	-9.10128
蟄	-9.10136
隔	-9.10149
暗	-9.10154
十七日	-9.10382
生於	-9.10622
上有	-9.11377
擇	-9.11402
壬	-9.11536
科	-9.11616
雀	-9.11647
邑	-9.11779
鹿	-9.11839
立冬	-9.11863
保	-9.11929
畜	-9.11988
質	-9.11992
粉	-9.12109
翔	-9.12109
愁	-9.12113
疎	-9.12124
壽	-9.12129
塗	-9.12141
立秋	-9.12145
機	-9.12148
案	-9.12157
畧	-9.12161
寛	-9.12177
桐	-9.12214
疑	-9.12217
宰相	-9.12351
而後	-9.12441
葉似	-9.12455
吕	-9.12536
飾	-9.13066
澄	-9.13209
祈	-9.13267
葵	-9.13471
之間	-9.13546
訖	-9.13641
走	-9.13716
立夏	-9.13733
餅	-9.13879
爛	-9.1389
所謂	-9.13917
粥	-9.14021
獵	-9.14059
只	-9.14065
蟬	-9.1409
顔	-9.141
繫	-9.14104
頌	-9.14131
盧	-9.14138
殷	-9.14147
二十三日	-9.14157
鼎	-9.14174
鮮	-9.14178
廢	-9.14191
西北	-9.14197
卒	-9.14211
膏	-9.14241
帯	-9.14256
每月	-9.14287
彼	-9.14294
寝	-9.14295
二十日	-9.14353
啟	-9.14367
牲	-9.1463
重陽	-9.151
貯	-9.15115
帳	-9.15134
民用	-9.15466
恒	-9.15919
嶺	-9.16059
開花	-9.1607
遥	-9.16097
族	-9.16129
綿	-9.1618
鷹	-9.16214
晩	-9.1624
沈	-9.16257
浄	-9.16274
領	-9.16279
卵	-9.16282
團	-9.16285
丘	-9.16295
敕	-9.16298
竿	-9.16302
十年	-9.16436
狀	-9.1645
太平	-9.16573
用事	-9.16656
日出	-9.16668
示	-9.16755
虞	-9.16884
黄帝	-9.17005
江南	-9.1706
長安	-9.17146
十九日	-9.17752
夷	-9.18063
隠	-9.18072
之事	-9.18078
刀	-9.18091
日中	-9.1824
巧	-9.18329
競	-9.18335
煖	-9.18342
簾	-9.18343
棲	-9.18403
勅	-9.1843
妙	-9.18452
䟽	-9.18464
曽	-9.18484
物候	-9.18831
季夏	-9.18913
上下	-9.19062
先生	-9.19258
伐	-9.19337
春風	-9.19375
状	-9.19433
夜半	-9.19474
仲春	-9.19511
陸	-9.19563
禽	-9.19716
白居易	-9.19765
賦詩	-9.19895
兹	-9.20247
街	-9.20338
徹	-9.20377
負	-9.2044
否	-9.20452
雅	-9.20494
巢	-9.20528
籠	-9.20546
顯	-9.20571
巨	-9.20576
椒	-9.20582
明堂	-9.20594
劍	-9.20597
切	-9.20603
抱	-9.20637
披	-9.20639
核	-9.20658
大寒	-9.2066
用之	-9.20921
一時	-9.2095
二十九日	-9.21264
太常	-9.21384
丈	-9.21537
視之	-9.21744
東南	-9.2182
篇	-9.21829
曝	-9.22194
姓	-9.22506
打	-9.22576
虹	-9.22584
材	-9.22632
占驗	-9.22659
訪	-9.22738
有一	-9.22758
征	-9.22783
陶	-9.22807
羙	-9.22819
鳩	-9.22855
齒	-9.22864
徑	-9.22867
綴	-9.2289
啓	-9.22897
貫	-9.22918
開元	-9.2316
萌	-9.23162
翼	-9.23536
每嵗	-9.23879
大小	-9.24134
底	-9.24523
而出	-9.24583
附	-9.24685
堪	-9.24745
忘	-9.24765
撰	-9.24793
産	-9.24808
吴	-9.24908
刺	-9.2492
幹	-9.24977
坎	-9.24978
雜紀	-9.24982
曹	-9.25
渡	-9.25024
爐	-9.25063
哉	-9.25086
竟	-9.2512
翻	-9.25149
真人	-9.25314
二十八日	-9.25315
前後	-9.25398
頂	-9.25421
人家	-9.25509
太陽	-9.25537
四月八日	-9.25963
夏月	-9.26005
門外	-9.26147
武帝	-9.26399
謁	-9.26723
童	-9.2693
催	-9.27181
淮	-9.27249
軒	-9.27261
姑	-9.27267
津	-9.27269
獄	-9.2728
壺	-9.27301
彌	-9.27307
十一	-9.27323
威	-9.27336
两	-9.27352
竭	-9.27391
遠	-9.27394
頓	-9.27394
訓	-9.27395
倍	-9.274
據	-9.274
牙	-9.27417
叔	-9.27452
雍	-9.27466
泰	-9.27536
原選擇歴書	-9.28014
雨水	-9.28244
夜則	-9.28635
不敢	-9.28763
而生	-9.28766
為一	-9.28922
弦	-9.29041
畏	-9.29288
巖	-9.29354
凌	-9.29613
政典	-9.29622
誦	-9.29635
宰臣	-9.29645
䑕	-9.29649
淺	-9.29677
牢	-9.29718
權	-9.29732
浴	-9.29758
峯	-9.29762
鑄	-9.29768
輦	-9.29772
克	-9.29777
覽	-9.29779
談	-9.29793
漿	-9.29797
值	-9.29806
雩	-9.29852
陣	-9.29858
栗	-9.29914
集説	-9.29949
二十四日	-9.30019
霜降	-9.30063
四時之	-9.30166
二十五日	-9.30229
道士	-9.30353
牧	-9.30484
各有	-9.30923
以上	-9.31152
以其	-9.31479
丞	-9.31651
限	-9.31765
乆	-9.31816
睡	-9.31845
閲	-9.31912
荆	-9.31946
薑	-9.3195
東西	-9.32035
禱	-9.3208
雄	-9.321
憶	-9.32102
規	-9.32122
說	-9.32134
原書	-9.32156
僕	-9.32163
幕	-9.32172
銜	-9.3218
雉	-9.32181
佩	-9.32191
衰	-9.32215
毒	-9.3222
詠	-9.32228
恭	-9.32243
淵	-9.32243
余	-9.32245
枚	-9.32882
大夫	-9.33058
諺云	-9.3334
三月三日	-9.334
者以	-9.33419
杖	-9.3378
融	-9.34068
維	-9.34136
盛夏	-9.34139
槐	-9.34163
韋	-9.34183
斤	-9.3423
潔	-9.34409
決	-9.34477
員	-9.34567
杏	-9.34591
裘	-9.34609
格	-9.34612
戎	-9.3462
革	-9.34644
坊	-9.34665
揺	-9.34676
㫖	-9.34677
惠	-9.34696
買	-9.34725
翁	-9.34736
曰吾	-9.34766
暢	-9.34773
瓊	-9.34773
層	-9.34776
麟	-9.34782
増名勝志	-9.34836
白露	-9.35135
令人	-9.35306
貞	-9.35593
小兒	-9.35705
水中	-9.36202
是也	-9.36322
徒	-9.36413
晋	-9.36481
其中	-9.36623
増淮南子	-9.36845
源	-9.3685
頃	-9.3687
束	-9.36893
宰	-9.36977
育	-9.37021
階	-9.37089
飄	-9.37101
騰	-9.37168
免	-9.3717
寒暑	-9.37172
緩	-9.37225
驅	-9.37227
築	-9.37265
藝	-9.3727
七夕	-9.37282
座	-9.37293
賈	-9.37304
雁	-9.37325
箋	-9.37325
明年	-9.37326
算	-9.37326
饑	-9.37336
化為	-9.37628
太學	-9.38105
十餘	-9.38245
慈	-9.38315
敢	-9.38381
乳	-9.389
所在	-9.39028
之屬	-9.39042
誕	-9.39431
片	-9.3949
赦	-9.39513
九年	-9.39541
私	-9.39554
三百	-9.3958
銘	-9.39648
天氣	-9.39696
增齊民要術	-9.39733
燥	-9.39739
十六	-9.39751
課	-9.39775
讀書	-9.39818
傅	-9.3982
縷	-9.39827
増雲笈七籖	-9.3983
幾	-9.3985
而已	-9.39853
耀	-9.39864
繡	-9.39875
曾	-9.39888
虛	-9.39889
導	-9.39895
宫中	-9.39897
絃	-9.39916
囊	-9.3992
范	-9.39922
竊	-9.39937
傍	-9.39942
掩	-9.39947
友	-9.39971
招	-9.39978
百姓	-9.39999
荔枝	-9.40079
諸州	-9.40093
増唐㑹要	-9.40116
隂氣	-9.40122
結實	-9.40337
二十二日	-9.40399
神仙	-9.40473
鴈	-9.40475
仲秋	-9.40517
不及	-9.40602
南郊	-9.40848
梅花	-9.40862
可食	-9.41314
服之	-9.41546
二百	-9.41786
今年	-9.41817
於此	-9.41899
鍾	-9.41956
中秋	-9.42088
乙	-9.42163
之曰	-9.42304
筵	-9.42429
詳	-9.42458
純	-9.42472
揷	-9.42482
鋤	-9.42499
帥	-9.42536
住	-9.42547
單	-9.42553
偏	-9.42556
剪	-9.4256
渠	-9.42565
例	-9.42581
絳	-9.42587
薪	-9.42591
鐵	-9.42592
倒	-9.42595
碑	-9.42601
輝	-9.42605
患	-9.42612
艮	-9.42634
亡	-9.42642
䝉	-9.4265
躬	-9.42651
鑿	-9.42661
禹	-9.42671
追	-9.42679
暉	-9.42687
太祖	-9.42759
梨	-9.42835
之法	-9.42843
季冬	-9.42866
髙祖	-9.42888
雞鳴	-9.42914
二十一日	-9.42947
司馬	-9.43093
防	-9.43337
朔日	-9.43651
之則	-9.43812
渚	-9.43899
五更	-9.43942
頗	-9.43996
隆	-9.4432
仙人	-9.44325
時有	-9.44459
種之	-9.44542
其日	-9.44813
晏	-9.45018
斂	-9.4514
馳	-9.45187
御史	-9.45275
鸞	-9.45275
扶	-9.45285
端午	-9.45298
允	-9.4531
宇	-9.45335
鵲	-9.45342
寫	-9.45344
弓	-9.4535
玩	-9.45356
原禮是月也	-9.4537
贊	-9.45371
爰	-9.45373
沉	-9.45392
練	-9.4541
煑	-9.45413
强	-9.45427
脂	-9.45439
䧏	-9.4547
隂乾	-9.45671
癸	-9.45745
二十七日	-9.45784
冬夏	-9.45813
本草	-9.45938
是月	-9.46064
數十	-9.46439
帝紀	-9.46661
禁中	-9.46935
中書	-9.47141
故以	-9.47326
臘月	-9.47411
五榖	-9.47448
舜	-9.47563
脚	-9.47791
一石	-9.47814
村	-9.47833
晷	-9.48051
彩	-9.48111
寢	-9.48127
髪	-9.48145
提	-9.48148
曙	-9.48151
犯	-9.48164
旅	-9.4817
判	-9.48178
績	-9.4818
研	-9.48203
豫	-9.48213
付	-9.48218
擁	-9.48255
悲	-9.48259
韭	-9.48269
頻	-9.48286
碎	-9.4829
整	-9.48309
柱	-9.48313
也故	-9.48505
朝夕	-9.48635
者謂	-9.48674
丞相	-9.48723
之言	-9.48778
故謂之	-9.48916
二十六日	-9.48932
孟春	-9.48967
一曰	-9.49142
季秋	-9.49145
巳	-9.4921
婦人	-9.49487
對曰	-9.49735
之初	-9.49862
式	-9.50009
亦有	-9.50051
之𩔖	-9.50265
聖人	-9.503
遣使	-9.5035
也言	-9.50411
明皇	-9.5043
不足	-9.50432
隅	-9.5045
賤	-9.50526
夏日	-9.5057
㡬	-9.50819
違	-9.51052
蠟	-9.51056
犬	-9.51062
曜	-9.51091
㸔	-9.51096
塘	-9.5112
暫	-9.51129
徵	-9.51132
𤣥	-9.51137
簿	-9.5114
署	-9.51151
效	-9.51162
繩	-9.51166
觸	-9.51169
滴	-9.51176
滋	-9.5118
怪	-9.51184
煙	-9.51187
廻	-9.51188
㨗	-9.51209
壯	-9.51214
焦	-9.51223
刺史	-9.51236
潛	-9.51248
勒	-9.51248
委	-9.51285
文武	-9.51591
六十	-9.51675
其時	-9.51991
王者	-9.52101
元和	-9.52346
兆	-9.53117
人神	-9.53408
大雪	-9.53516
五十	-9.53617
竈	-9.53938
探	-9.53949
循	-9.5399
速	-9.53993
輔	-9.54019
故也	-9.54046
蔡	-9.5406
瓶	-9.54066
踏	-9.54074
塔	-9.54081
牽牛	-9.54086
夾	-9.5409
掃	-9.54102
䇿	-9.5412
達	-9.54145
避暑	-9.54154
厲	-9.54168
撫	-9.54186
爽	-9.54196
鬱	-9.54197
響	-9.5421
蕩	-9.54212
滑	-9.5422
禄	-9.54222
譜	-9.54241
趣	-9.54241
絹	-9.54257
屈	-9.54265
游	-9.54282
博士	-9.54305
借	-9.54307
蓬	-9.54308
哀	-9.54332
驚蟄	-9.54348
壬子	-9.54457
天之	-9.54575
八十	-9.54878
不復	-9.55134
之地	-9.55175
公卿	-9.55281
北斗	-9.55425
飲酒	-9.55467
而去	-9.55491
妻	-9.55595
是為	-9.55673
魄	-9.55686
芋	-9.55745
是謂	-9.55778
三時	-9.55832
中氣	-9.55838
立春日	-9.55843
十二時	-9.56061
杜甫	-9.56431
一斗	-9.56496
者皆	-9.56601
蔓	-9.56704
累	-9.56727
中央	-9.57117
液	-9.57123
酌	-9.57155
逸	-9.57178
腰	-9.57203
澗	-9.57214
𢎞	-9.57219
慮	-9.57283
炭	-9.57283
支	-9.57294
闌	-9.57298
熙	-9.57305
包	-9.57308
渾	-9.57309
磨	-9.57309
尹	-9.57316
弱	-9.57324
警	-9.57326
濃	-9.57334
寶	-9.57336
添	-9.57351
財	-9.57358
輸	-9.57361
隋	-9.57363
架	-9.57367
誠	-9.57381
想	-9.57387
灑	-9.57399
瞻	-9.57401
輒	-9.57404
粒	-9.57405
䨇	-9.57427
有餘	-9.57438
場	-9.57461
是以	-9.57504
此時	-9.57507
時也	-9.57651
取之	-9.58134
君子	-9.5838
今日	-9.58381
車駕	-9.58411
三公	-9.58477
賜宴	-9.58705
飲食	-9.58743
至春	-9.58743
五月五日	-9.58863
八年	-9.58975
日在	-9.59037
増農政全書	-9.59062
其上	-9.59153
季春	-9.59235
取其	-9.59729
二十四	-9.59784
増詩	-9.59869
也者	-9.60034
南北	-9.60054
妃	-9.60058
西域	-9.60106
男	-9.60111
再拜	-9.60221
農事	-9.60309
呈	-9.60364
四十	-9.60384
茅	-9.60424
血	-9.60446
堯	-9.60458
墜	-9.60461
觴	-9.60481
藉	-9.60486
縱	-9.60493
巫	-9.60522
境	-9.60525
厥	-9.60528
逆	-9.60553
寕	-9.60561
増酉陽雜俎	-9.60564
抽	-9.60567
躍	-9.60567
穫	-9.60575
屢	-9.60578
爪	-9.60578
雕	-9.60583
藻	-9.60584
縁	-9.60589
饒	-9.60589
葦	-9.60592
阿	-9.60598
脯	-9.60612
裴	-9.60615
協	-9.60665
裹	-9.60694
自是	-9.60701
甲寅	-9.6073
土人	-9.60739
芒種	-9.60795
後苑	-9.60964
禮畢	-9.61034
九月九日	-9.61399
遊方	-9.61422
後五日	-9.61487
匹	-9.61721
火候	-9.61752
晦日	-9.61808
黄色	-9.62308
属	-9.62709
自然	-9.62872
皆有	-9.62992
増管子	-9.6318
羞	-9.6328
之禮	-9.63411
厭	-9.63419
數百	-9.63426
二年正月	-9.63484
上曰	-9.63533
不同	-9.63541
此日	-9.63628
嶽	-9.63657
零	-9.63707
貨	-9.63765
汲	-9.63777
霽	-9.63791
蕃	-9.63797
囚	-9.63807
庫	-9.63847
織女	-9.63873
板	-9.63876
勢	-9.63878
人間	-9.63878
呼為	-9.63885
㓜	-9.6389
濶	-9.63898
潭	-9.63915
激	-9.6395
裂	-9.63954
泛	-9.63958
増水經注	-9.63965
上言	-9.63981
壓	-9.63986
后土	-9.64033
鼠	-9.64051
宗廟	-9.64136
正旦	-9.64466
十八	-9.64472
天地之	-9.64541
鴻	-9.64579
孔子	-9.64697
河東	-9.64854
故云	-9.65548
之神	-9.65792
大者	-9.6582
沒	-9.6598
際	-9.6612
也注	-9.66166
以後	-9.66325
狀如	-9.66331
増宋史	-9.66553
掘	-9.66599
其實	-9.66606
葉如	-9.66694
歎	-9.67075
愆	-9.67192
矢	-9.67233
欣	-9.67238
兔	-9.67275
雌	-9.67279
展	-9.67279
契	-9.67281
汗	-9.67287
旌	-9.67301
諭	-9.67307
超	-9.67309
脩	-9.67311
纂	-9.67313
黎	-9.67319
巾	-9.67335
鐡	-9.67345
網	-9.67345
脱	-9.67348
怨	-9.67354
趨	-9.67362
肺	-9.67376
把	-9.67377
洪	-9.67386
刈	-9.6739
蘂	-9.67399
帷	-9.674
優	-9.67418
妓	-9.67422
肝	-9.67442
寔	-9.67481
増唐書	-9.67503
桃花	-9.6825
漏刻	-9.68568
朔望	-9.68766
第一	-9.68832
答	-9.69001
增禮	-9.69238
皆以	-9.69741
於天	-9.69756
又曰	-9.69847
榖雨	-9.69972
羮	-9.70219
大雨	-9.70238
故名	-9.70394
而成	-9.70404
之義	-9.70463
三尺	-9.70704
蜂	-9.70717
柏	-9.7074
笛	-9.70769
蝶	-9.70784
灌	-9.70794
鞭	-9.70817
纔	-9.70866
猛	-9.70869
芸	-9.70874
嗣	-9.70885
敎	-9.70889
嫩	-9.70891
奴	-9.70896
毬	-9.70903
繋	-9.70906
原後漢書	-9.70953
札	-9.70961
溝	-9.70965
淨	-9.70969
裁	-9.7097
璧	-9.70974
之上	-9.71037
原參同契朝	-9.7105
杏花	-9.71058
一尺	-9.71211
長短	-9.71219
節序	-9.71299
平旦	-9.71335
庚子	-9.71396
畝	-9.71432
衣服	-9.71576
之餘	-9.71585
使者	-9.71683
初五日	-9.71683
之道	-9.71879
山中	-9.72013
増禮	-9.72052
子孫	-9.72122
郡國	-9.72243
置酒	-9.72268
物也	-9.72371
無所	-9.72647
迎春	-9.7265
焚	-9.72651
以象	-9.7267
小雪	-9.72707
沃	-9.72746
風吹	-9.72775
出於	-9.72801
寸	-9.73172
何以	-9.73189
主人	-9.73466
光明	-9.73469
清風	-9.73502
不出	-9.73599
萬年	-9.73922
之數	-9.7396
祗	-9.74129
蒿	-9.74169
斫	-9.74246
抵	-9.74325
紛	-9.74327
増北史	-9.74333
儒	-9.74372
藍	-9.74384
州刺史	-9.74464
捧	-9.74466
憐	-9.7447
其子	-9.74484
線	-9.74486
酸	-9.74496
活	-9.745
箔	-9.74507
寡	-9.7451
四季	-9.74512
煩	-9.74514
塲	-9.74526
罰	-9.74528
租	-9.74556
囘	-9.74556
弄	-9.74557
之始	-9.74558
鱗	-9.74566
釀	-9.74566
黃	-9.74592
瓦	-9.74599
錫	-9.74602
軟	-9.74603
䖏	-9.74608
儉	-9.74613
擬	-9.74614
基	-9.74619
圎	-9.74627
燃	-9.74631
稀	-9.74633
蔽	-9.74635
靜	-9.74668
筒	-9.74669
專	-9.74676
蠻	-9.7469
增本草綱目	-9.74716
豪	-9.74747
麫	-9.7478
斛	-9.74796
迹	-9.74796
至秋	-9.74836
黄鍾	-9.74839
山川	-9.75049
豐年	-9.75069
上旬	-9.7517
白色	-9.75264
皇后	-9.75268
星辰	-9.75291
各一	-9.75388
祭祀	-9.75411
孟冬	-9.75505
洛陽	-9.75508
東風	-9.75776
起居	-9.76015
每至	-9.76017
四海	-9.7612
日為	-9.7635
埋	-9.7643
太隂	-9.76529
女子	-9.76807
大暑	-9.77263
以此	-9.77437
山有	-9.7778
岳	-9.77825
襄	-9.77831
詩序	-9.78088
瑩	-9.78172
邦	-9.7823
禪	-9.78248
戍	-9.78304
僚	-9.7831
簇	-9.7834
葛	-9.78342
歇	-9.78357
増漢書	-9.78366
稼	-9.78368
増陶朱公書	-9.78378
額	-9.7838
鶯	-9.78388
膽	-9.78396
乍	-9.78405
揮	-9.78412
秩	-9.78413
諫	-9.78413
漲	-9.78415
孕	-9.78415
莊	-9.7842
惜	-9.78427
糧	-9.78428
倚	-9.78434
巽	-9.7844
遽	-9.78442
昬	-9.78453
䕶	-9.78456
鈞	-9.78461
嘯	-9.78463
賊	-9.78468
鈎	-9.78468
肆	-9.7847
啼	-9.78478
邉	-9.78482
健	-9.78484
奪	-9.78488
渉	-9.78501
竅	-9.78503
痛	-9.78505
彈	-9.78509
秘閣	-9.78512
巴	-9.78517
稲	-9.78526
舎	-9.78528
胎	-9.7853
夲	-9.78539
蕪	-9.78545
撃	-9.78553
磬	-9.78557
介	-9.78564
装	-9.78585
嘉禾	-9.78591
併	-9.78608
趙孟頫	-9.78614
成都	-9.78842
朱子	-9.78891
將軍	-9.78907
漬	-9.78973
何也	-9.79234
數日	-9.79389
祭之	-9.79398
必有	-9.79653
以待	-9.79737
枝葉	-9.79808
司天	-9.7987
二人	-9.79906
士女	-9.80214
仲冬	-9.80434
范成大	-9.80477
周禮	-9.80525
中元	-9.80527
隴	-9.80538
冬日	-9.80792
日行	-9.80826
原爾雅	-9.80828
小寒	-9.81017
家人	-9.81262
其所	-9.81618
衝	-9.81703
呂	-9.81726
芒	-9.81745
増宋史禮志	-9.81979
司空	-9.82077
増拾遺記	-9.82077
一嵗之	-9.8209
太和	-9.82094
人日	-9.8213
帖	-9.82179
十九	-9.82183
杜甫詩	-9.82191
候選	-9.82194
悦	-9.82235
朶	-9.82299
芟	-9.82304
霄	-9.82337
徙	-9.82361
憲	-9.82371
醫	-9.82375
鼻	-9.82375
炙	-9.82391
侵	-9.82393
垣	-9.82396
膳	-9.82398
耶	-9.82405
俟	-9.82419
踰	-9.82433
敷	-9.82439
爭	-9.82452
怒	-9.82455
飽	-9.82455
審	-9.82459
犀	-9.82473
伴	-9.82482
淘	-9.82491
步	-9.82495
冊	-9.82497
慎	-9.82504
叩	-9.82526
羔	-9.82527
太平興國	-9.82532
甘露	-9.82543
薛	-9.82551
袁	-9.82554
鬚	-9.82571
樽	-9.82587
陂	-9.8261
鞠	-9.82644
鳥獸	-9.82663
子弟	-9.82668
顆	-9.82668
父母	-9.82679
五穀	-9.82899
戊子	-9.8291
車馬	-9.82987
己	-9.8322
冬至後	-9.8342
嵗時	-9.83447
初八日	-9.83456
人有	-9.835
田家	-9.83552
子時	-9.836
也疏	-9.83609
五六月	-9.83619
三伏	-9.83791
月朔	-9.84083
其葉	-9.8419
使人	-9.84311
是時	-9.84324
古者	-9.84326
檢	-9.84547
觀之	-9.84593
至此	-9.84817
先是	-9.85159
近臣	-9.85193
南風	-9.85208
飲之	-9.85333
某	-9.85514
莫不	-9.85549
無事	-9.85551
禮部	-9.8559
烈	-9.85706
無人	-9.85849
酢	-9.85862
桑葉	-9.85896
原漢書	-9.8612
輅	-9.86154
暇	-9.86207
低	-9.86331
子曰	-9.86401
秘	-9.86412
綺	-9.86482
沸	-9.86506
繭	-9.86512
副	-9.86521
岐	-9.86524
屏	-9.86535
蒙	-9.86537
柴	-9.86537
胥	-9.86537
漫	-9.8654
岡	-9.86545
跡	-9.86545
攝	-9.86551
伊	-9.8656
狗	-9.86565
藤	-9.86572
鋪	-9.86576
徽	-9.86584
普	-9.86588
冥	-9.86593
増左𫝊	-9.866
舌	-9.86601
斑	-9.86602
二月二日	-9.86621
菖蒲	-9.86627
裳	-9.8663
箕	-9.86631
割	-9.86642
蚊	-9.86647
鬭	-9.86647
浪	-9.86648
插	-9.86651
菩薩	-9.86655
滯	-9.86659
喧	-9.86663
略	-9.86663
餌	-9.86668
煥	-9.8667
餞	-9.86674
参	-9.86675
斧	-9.86678
浦	-9.8668
増易通卦驗	-9.8668
殻	-9.86681
創	-9.86689
音比	-9.86691
東坡	-9.86692
紗	-9.86693
丁亥	-9.86693
邱	-9.86707
朗	-9.8671
塊	-9.86712
上夀	-9.86728
婦女	-9.86728
轡	-9.86732
原唐書	-9.86743
嗟	-9.86754
勉	-9.86766
知縣	-9.86772
状如	-9.86837
自今	-9.86848
逺近	-9.86884
測	-9.87285
登髙	-9.87374
人皆	-9.87406
侍郎	-9.87493
甕中	-9.87494
以成	-9.87494
一刻	-9.87605
賜之	-9.87759
御書	-9.87823
結子	-9.8786
風俗	-9.88065
冬則	-9.88359
之内	-9.88441
有三	-9.88454
増通典	-9.88488
氣也	-9.88682
日入	-9.88708
一夕	-9.88984
小者	-9.89466
原管子	-9.89659
午時	-9.89878
圃	-9.89916
之官	-9.89936
為人	-9.90054
五六	-9.90058
曬	-9.90082
一莖	-9.90088
了	-9.90098
都人	-9.90226
銷	-9.90366
鏤	-9.90383
勿令	-9.90525
習射	-9.90558
敗	-9.90712
絮	-9.90719
長生	-9.90745
蔬	-9.90808
樞	-9.90819
黄花	-9.90831
榆	-9.90856
瑶	-9.90857
錯	-9.90878
醒	-9.90881
奔	-9.90884
與之	-9.90892
芥	-9.9092
弗	-9.90922
翰林	-9.90923
三四	-9.90933
贈	-9.90942
况	-9.90946
摩	-9.90948
膠	-9.90955
潜	-9.90957
太蔟	-9.90969
竇	-9.9097
偃	-9.90975
疫	-9.90983
廼	-9.90988
蓄	-9.90995
邀	-9.90999
䕃	-9.91001
畱	-9.91001
浩	-9.91002
増後漢書	-9.91005
恵	-9.91012
講武	-9.91014
稷	-9.91016
己酉	-9.91016
朋	-9.91027
闔	-9.91029
宛	-9.91032
之下	-9.91043
飼	-9.91055
硯	-9.91061
携	-9.91065
蟹	-9.91072
耗	-9.91072
往往	-9.91088
上帝	-9.91096
増晉書	-9.91098
原荆楚嵗時記	-9.91138
二十四氣	-9.91188
漢書	-9.91343
郊祀	-9.91365
童子	-9.91417
年年	-9.91461
不過	-9.91598
元旦	-9.91684
毎嵗	-9.91743
萬里	-9.91771
男女	-9.91777
七十	-9.91794
水上	-9.91811
地氣	-9.91902
穆	-9.91931
侍中	-9.92049
久之	-9.9226
仲夏	-9.92324
未嘗	-9.92967
曰我	-9.93657
十七	-9.93737
不用	-9.93975
増易	-9.94226
廬	-9.94299
初置	-9.9434
以示	-9.94345
子午	-9.94444
見一	-9.94648
弟	-9.94805
風至	-9.94853
蓮花	-9.94968
之末	-9.95013
居之	-9.95068
藏之	-9.95087
桓	-9.95109
廷	-9.9525
圭	-9.95254
衙	-9.95308
尖	-9.95329
燎	-9.95396
流水	-9.95435
芻	-9.95436
棄	-9.95441
葡萄	-9.95457
尼	-9.95459
崖	-9.95462
戊寅	-9.95468
亮	-9.95474
湘	-9.95475
濁	-9.95486
齎	-9.95492
標	-9.95494
危	-9.95498
旺	-9.955
捕	-9.95502
葱	-9.95502
幡	-9.95507
虧	-9.95514
泣	-9.95515
闗	-9.95516
困	-9.95529
凖	-9.95534
賛	-9.95537
叙	-9.95539
價	-9.95548
脆	-9.95553
驛	-9.95553
那	-9.95555
翅	-9.95562
除夕	-9.95564
熊	-9.95565
懼	-9.95575
餳	-9.95577
釵	-9.95578
透	-9.95582
扉	-9.95584
俾	-9.95592
鴉	-9.95597
盞	-9.95598
廽	-9.956
聊	-9.95603
函	-9.95606
原遵生八牋	-9.95609
増續文獻通考	-9.95616
俊	-9.95618
駐	-9.9562
豹	-9.95623
墮	-9.95625
糖	-9.95634
狂	-9.95636
之不	-9.9564
兄弟	-9.95647
拾	-9.95649
太后	-9.95659
電	-9.95687
料	-9.95691
寒氣	-9.95777
蓼	-9.9578
衣冠	-9.958
李賀	-9.95838
南海	-9.95893
以正月	-9.95972
司徒	-9.95998
時雨	-9.96032
十一年	-9.96033
中國	-9.96128
始生	-9.96237
春月	-9.96254
於東	-9.9628
公曰	-9.96416
内外	-9.96551
春時	-9.96691
三五	-9.96741
初四日	-9.97072
年七月	-9.97117
殿前	-9.97144
原易	-9.9716
則為	-9.97364
十二辰	-9.97366
中旬	-9.97368
於地	-9.97472
請以	-9.97507
今朝	-9.9759
以金	-9.9764
此月	-9.97683
中星	-9.97723
百刻	-9.97741
増唐會要	-9.97878
注云	-9.97893
見之	-9.98007
又有	-9.98036
増蘇軾	-9.98056
有異	-9.98243
夏之	-9.98301
増玉海紹興	-9.98374
百草	-9.98558
山在	-9.98673
也今	-9.98716
嵗星	-9.98854
月初	-9.9902
夜漏	-9.99207
生者	-9.9927
百里	-9.99403
日夜	-9.9943
有光	-9.99502
又云	-9.99652
勃	-9.99821
臘日	-9.99966
浣	-9.99998
色白	-10.0001
増南史	-10.0001
簷	-10.0004
涸	-10.0006
尉	-10.0011
屯	-10.0012
鍼	-10.0013
増圖經本草	-10.0015
薺	-10.0016
療	-10.0017
笙	-10.0019
蛾	-10.0019
歷	-10.0021
蘆	-10.0022
希	-10.0023
摘	-10.0024
穗	-10.0024
壊	-10.0024
魁	-10.0026
窺	-10.0026
勲	-10.0027
儲	-10.0027
隣	-10.0027
須臾	-10.0027
㧞	-10.0028
伺	-10.0028
搗	-10.0028
柰	-10.0029
舂	-10.003
牽	-10.003
増國語	-10.003
社稷	-10.003
鈴	-10.003
挂	-10.003
覩	-10.0031
擲	-10.0032
太極	-10.0032
丙寅	-10.0032
秉	-10.0032
強	-10.0033
幣	-10.0033
疇	-10.0034
貌	-10.0035
几	-10.0036
彦	-10.0038
俯	-10.004
陛下	-10.004
袍	-10.004
亷	-10.0041
悟	-10.0041
汎	-10.0042
㫁	-10.0045
甲乙	-10.0049
賔客	-10.0053
釀酒	-10.0054
増史記	-10.0066
二年十一月	-10.0072
嶺南	-10.0076
二曰	-10.0083
空中	-10.0088
冬至日	-10.0089
古之	-10.0105
以獻	-10.0112
其事	-10.0117
菊花	-10.0122
玉女	-10.0125
寒露	-10.0133
可愛	-10.0144
其樹	-10.0149
七十二	-10.0154
多少	-10.016
山谷	-10.0169
有人	-10.0176
諸軍	-10.0189
常有	-10.0193
宴於	-10.0193
三升	-10.0208
五刻	-10.0217
有四	-10.022
亦曰	-10.0221
和氣	-10.0291
縣有	-10.0301
其下	-10.0303
五經	-10.0317
有大	-10.0323
順時	-10.0371
其根	-10.0384
五百	-10.0385
城南	-10.0395
春日	-10.0401
其後	-10.041
宜春	-10.0412
夜夢	-10.0416
蟻	-10.0418
漁	-10.0424
减	-10.0432
天時	-10.0441
有所	-10.0441
大水	-10.047
形如	-10.0472
神光	-10.0476
八分	-10.0493
韓愈	-10.0495
五星	-10.0496
順天	-10.0496
於時	-10.0503
冶	-10.0515
甫	-10.0516
一級	-10.0518
甜	-10.0519
欽	-10.0521
荘	-10.0522
溫	-10.0522
墓	-10.0522
剝	-10.0523
烝	-10.0523
纒	-10.0523
韶	-10.0523
敦	-10.0524
壅	-10.0524
截	-10.0524
豕	-10.0524
樵	-10.0525
紹	-10.0525
稽	-10.0525
笋	-10.0525
蠅	-10.0525
饋	-10.0527
乏	-10.0527
迷	-10.0527
䆫	-10.0527
溢	-10.0527
遵	-10.0528
毫	-10.0528
增管子	-10.0528
誓	-10.0528
種者	-10.0528
沐浴	-10.0529
貸	-10.053
救	-10.0531
腦	-10.0532
鵝	-10.0532
騐	-10.0533
粧	-10.0534
呌	-10.0534
淫	-10.0534
股	-10.0535
没	-10.0535
局	-10.0536
原國語	-10.0537
茱萸	-10.0537
㳺	-10.0537
谿	-10.0537
巷	-10.0538
貞觀	-10.054
鞍	-10.0542
賜近臣	-10.0542
成熟	-10.0543
蟄蟲	-10.0545
晝日	-10.0556
弟子	-10.0556
玉海	-10.0556
夏則	-10.0563
北郊	-10.0577
終日	-10.0579
白虎	-10.0579
丙子	-10.0583
酘	-10.0585
三元	-10.061
不盡	-10.0623
亦可	-10.0629
上已	-10.0638
而小	-10.0638
古人	-10.0653
也謂	-10.0656
相似	-10.0672
乃止	-10.068
君臣	-10.0681
水旱	-10.0687
不成	-10.0688
三年十一月	-10.0699
荅	-10.0722
十三年	-10.0722
其聲	-10.0739
必以	-10.0744
萬嵗	-10.0744
秋風	-10.0756
無不	-10.0759
處暑	-10.0761
下有	-10.0768
禳	-10.0776
醴	-10.0794
社日	-10.0795
孟夏	-10.0795
者天之	-10.08
花開	-10.0812
梅雨	-10.0831
故為	-10.0842
以水	-10.0846
周公	-10.0852
朝日	-10.0872
十有二	-10.0872
者謂之	-10.0875
其花	-10.0883
以十月	-10.0883
澆	-10.0897
而至	-10.09
四分	-10.0903
一宿	-10.0917
雨雪	-10.0922
半月	-10.0974
大火	-10.0979
有白	-10.0983
凋	-10.0989
數千	-10.0991
以應	-10.101
唐書	-10.1012
太廟	-10.1015
倦	-10.1018
閤	-10.1018
数	-10.1019
瓣	-10.1023
番	-10.1029
狩	-10.1031
飢	-10.1033
淳	-10.1034
漉	-10.1037
陛	-10.1041
篆	-10.1041
填	-10.1042
檀	-10.1043
寵	-10.1044
攻	-10.1044
促	-10.1044
粲	-10.1045
粗	-10.1046
觀燈	-10.1046
加十五日斗指	-10.1046
操	-10.1046
述	-10.1047
拱	-10.1048
簫	-10.1048
㽔賔	-10.1048
輔臣	-10.1049
策	-10.105
煒	-10.105
孰	-10.105
沐	-10.105
阜	-10.105
櫻桃	-10.1051
婢	-10.1052
郷	-10.1052
縦	-10.1052
稠	-10.1054
馮	-10.1054
漆	-10.1055
詰	-10.1055
斬	-10.1055
鄴	-10.1056
啖	-10.1056
厨	-10.1056
丁巳	-10.1056
奇	-10.1057
宸	-10.1058
卓	-10.1058
叟	-10.1059
絡	-10.106
太史	-10.106
緣	-10.1061
氊	-10.1061
酥	-10.1063
峰	-10.1063
胃	-10.1063
庻	-10.1065
軸	-10.1066
糕	-10.1068
増春秋繁露	-10.1068
因以	-10.1069
豬	-10.1069
營室	-10.1074
有聲	-10.1075
己未	-10.1078
丙辰	-10.108
晴雨	-10.1101
六月六日	-10.1103
之時也	-10.1124
可作	-10.1124
功臣	-10.1127
雲氣	-10.1128
瑞雪	-10.1129
置閏	-10.113
若有	-10.1131
下旬	-10.1133
初七日	-10.1137
東井	-10.1153
貴賤	-10.1158
月色	-10.1163
每日	-10.1166
之半	-10.1167
何如	-10.1167
之音	-10.1174
小暑	-10.1174
迎氣	-10.1175
南山	-10.1175
一百	-10.1193
小滿	-10.1202
之際	-10.1222
立秋日	-10.1273
黄道	-10.1277
之物	-10.128
望日	-10.1282
周天	-10.1289
公主	-10.1295
正中	-10.1312
然則	-10.1343
元氣	-10.1349
二尺	-10.1355
五帝	-10.1356
増舊唐書	-10.1359
老人	-10.1371
置於	-10.1388
之處	-10.1395
人呼為	-10.1398
初六日	-10.1399
也又	-10.1406
收之	-10.1415
以聞	-10.1438
在天	-10.1445
其氣	-10.1447
隂陽之	-10.1453
各以	-10.1462
後十五日斗指	-10.1473
區	-10.149
茹	-10.1491
門下	-10.1505
攤	-10.1506
稔	-10.1506
氣候	-10.153
一歲	-10.1531
泰山	-10.1534
舉人	-10.1536
得一	-10.1538
行事	-10.1548
盛於	-10.1555
妾	-10.1557
風起	-10.1576
蕉	-10.1577
坑	-10.1586
甲申	-10.1587
長夏	-10.159
以進	-10.159
奠	-10.1596
栢	-10.1597
凶	-10.1599
互	-10.1599
戚	-10.1599
未央	-10.16
莖葉	-10.16
衢	-10.16
霍	-10.1605
堤	-10.1606
麋	-10.1606
衫	-10.1606
膝	-10.1606
寜	-10.1606
祥符	-10.1607
培	-10.1607
牕	-10.1607
匝	-10.1607
以供	-10.1608
㦸	-10.1608
畔	-10.1608
嚢	-10.1609
削	-10.1609
𨽻	-10.1609
亟	-10.161
肩	-10.161
寓	-10.1611
靡	-10.1611
青龍	-10.1612
鑑	-10.1612
閩	-10.1613
决	-10.1613
濯	-10.1613
繒	-10.1613
原陶朱公書	-10.1613
霑	-10.1613
嫁	-10.1614
輩	-10.1614
襲	-10.1614
東坡詩云	-10.1614
臂	-10.1614
跪	-10.1614
簮	-10.1615
圜	-10.1615
冲	-10.1616
快	-10.1616
折楊栁	-10.1617
鬻	-10.1617
李嶠	-10.1617
鄰	-10.1617
葩	-10.1618
楮	-10.1618
返	-10.1618
彭	-10.1619
挺	-10.1619
増魏書	-10.162
匠	-10.1621
眷	-10.1622
䖍	-10.1622
卑	-10.1623
曝乾	-10.1624
兎	-10.1624
増唐書百官志	-10.1625
菽	-10.1625
藕	-10.1625
不食	-10.1626
穂	-10.1626
慕	-10.1626
東方朔	-10.1627
憑	-10.1628
未有	-10.1631
庚寅	-10.1631
上巳	-10.1633
春色	-10.1636
九天	-10.164
之一	-10.1643
味甘	-10.1647
之意	-10.1648
人也	-10.1653
古今	-10.1655
霜雪	-10.1668
一卷	-10.1674
秋氣	-10.1677
生子	-10.1679
太一	-10.168
觀者	-10.1686
吏民	-10.1703
元夕	-10.1705
之制	-10.1714
燈燭	-10.1716
之聲	-10.1721
一度	-10.1726
自此	-10.1729
千年	-10.1732
貞元	-10.1734
非常	-10.1736
前一日	-10.1743
上御	-10.1744
人謂之	-10.1749
至冬	-10.175
得其	-10.1755
初生	-10.177
親王	-10.1775
正嵗	-10.1786
初九日	-10.1789
而有	-10.1789
之令	-10.179
七八月	-10.1791
天文	-10.1792
大旱	-10.1799
起於	-10.1805
舍人	-10.1806
昇	-10.1812
初夏	-10.182
何處	-10.1829
而行	-10.1833
采根	-10.1834
正月一日	-10.1836
以備	-10.1839
來年	-10.1848
重九	-10.187
禦	-10.1872
縣西	-10.1887
採之	-10.189
號曰	-10.1896
可為	-10.1898
不為	-10.1903
九十	-10.1906
山林	-10.191
政和	-10.1914
已後	-10.1916
初二日	-10.1927
小豆	-10.1932
雪詩	-10.1932
三刻	-10.1937
夢中	-10.1947
四刻	-10.1953
昨	-10.1955
學者	-10.1957
日暮	-10.1979
其餘	-10.198
曲江	-10.1993
生葉	-10.2022
十刻	-10.2024
不宜	-10.204
少陽	-10.2042
作樂	-10.2045
者名	-10.2049
五寸	-10.2053
青色	-10.2061
家家	-10.2071
原選擇歴書二	-10.2074
祭於	-10.2074
壬午	-10.2089
米貴	-10.21
聞之	-10.211
十分	-10.2111
甲午	-10.2131
相見	-10.2135
増史記天官書	-10.214
株	-10.2164
衍	-10.2169
排	-10.217
珪	-10.2177
盂	-10.2185
牆	-10.2186
婆	-10.2187
翰	-10.2188
螢	-10.2189
邦國	-10.2189
畆	-10.2189
揖	-10.2191
迭	-10.2191
鯉	-10.2191
腎	-10.2191
醪	-10.2192
歛	-10.2192
牡	-10.2192
聘	-10.2193
兄	-10.2193
遙	-10.2193
寤	-10.2193
欄	-10.2194
洽	-10.2194
辯	-10.2195
見其	-10.2195
濤	-10.2195
糠	-10.2195
菱	-10.2195
窟	-10.2196
缺	-10.2196
蠧	-10.2196
醤	-10.2196
覧	-10.2197
隊	-10.2197
壮	-10.2198
原雜占	-10.2199
菴	-10.2199
其法	-10.2199
勁	-10.22
眞	-10.2201
謨	-10.2201
掛	-10.2201
䑓	-10.2201
暄	-10.2201
範	-10.2201
翰林學士	-10.2202
眉	-10.2202
萼	-10.2202
乙酉	-10.2203
稼穡	-10.2204
芙蓉	-10.2204
濡	-10.2204
籬	-10.2204
腸	-10.2204
類	-10.2205
曠	-10.2205
蟾	-10.2205
逼	-10.2206
城郭	-10.2206
娥	-10.2206
臥	-10.2208
☱	-10.2209
今人	-10.2209
祭天	-10.2209
踈	-10.2211
慰	-10.2211
藉田	-10.2211
稜	-10.2213
糉	-10.2213
父老	-10.2213
一陽	-10.2217
庚戌	-10.2218
暴乾	-10.2219
郡守	-10.2219
東郊	-10.2228
戊辰	-10.2229
八九	-10.2231
俄而	-10.2231
庚辰	-10.2232
夜雨	-10.2233
一千	-10.2235
絲竹	-10.2235
數丈	-10.2236
次第	-10.2242
毎歳	-10.2243
張説	-10.2256
真君	-10.2257
者所以	-10.2264
嵗之	-10.2267
次五日	-10.2269
閏餘	-10.2269
乃命	-10.2275
瘡	-10.2291
有小	-10.2306
玉堂	-10.2311
知其	-10.2315
初十日	-10.2316
白雲	-10.2351
北風	-10.2353
清明日	-10.2353
南至	-10.2358
初三日	-10.2363
春雨	-10.2372
朝賀	-10.2381
吞	-10.2384
六氣	-10.2395
不覺	-10.2403
皆可	-10.2407
土王	-10.2421
之家	-10.2423
暑月	-10.2443
然而	-10.2445
文曰	-10.2452
之氣也	-10.2469
池中	-10.2478
春酒	-10.2479
秋七月	-10.2491
有二	-10.2493
家貧	-10.2501
辰星	-10.2515
於庭	-10.2515
忽有	-10.252
天下之	-10.2528
也註	-10.2535
早春	-10.254
新年	-10.254
恨	-10.2561
文章	-10.2562
下降	-10.2562
四五	-10.2567
京城	-10.2572
之夕	-10.2575
内有	-10.2575
不絶	-10.2581
俗名	-10.2582
唐太宗	-10.2596
民事	-10.2607
如何	-10.2608
之候	-10.2618
春三月	-10.263
是故	-10.264
北極	-10.2643
原四民月令	-10.2667
縣令	-10.2673
為大	-10.2673
明月	-10.268
酒食	-10.2681
則不	-10.269
二十五	-10.2696
百餘	-10.2701
石上	-10.2709
夏小正	-10.271
諺	-10.2724
日次	-10.2737
天而	-10.2738
增詩	-10.2749
謂曰	-10.2751
天門	-10.2752
俗以	-10.2753
年夏四月	-10.2754
斗柄	-10.2759
十日一	-10.2774
黨	-10.2775
閭	-10.2777
五尺	-10.278
饌	-10.2783
寐	-10.2783
辛巳	-10.279
下種	-10.279
嘆	-10.2795
山下	-10.28
扈	-10.2802
丙午	-10.2805
乞巧	-10.2805
督	-10.2807
晝則	-10.2808
時令	-10.281
黄龍	-10.281
跳	-10.2811
裙	-10.2811
芹	-10.2811
綱	-10.2813
砂	-10.2814
醬	-10.2815
鳯凰	-10.2815
湛	-10.2815
髮	-10.2815
酬	-10.2815
逄	-10.2816
剥	-10.2816
梗	-10.2817
税	-10.2817
拒	-10.2817
幄	-10.2818
畿	-10.2818
帽	-10.2819
牌	-10.2819
糜	-10.2819
紺	-10.2819
昴	-10.2819
㝠	-10.282
熏	-10.282
邵	-10.2821
剖	-10.2821
智	-10.2821
哭	-10.2822
狼	-10.2822
襟	-10.2822
閱	-10.2822
遮	-10.2823
葭	-10.2823
棚	-10.2823
嚮	-10.2823
播	-10.2823
癸巳	-10.2823
釣	-10.2823
甲戌	-10.2823
净	-10.2824
孚	-10.2824
炒	-10.2824
肇	-10.2824
挽	-10.2827
吉凶	-10.2827
姑洗	-10.2827
刹	-10.2827
吸	-10.2827
三素雲	-10.2827
忙	-10.2828
婚	-10.2828
捨	-10.2828
耆	-10.2828
上以	-10.2828
脉	-10.2829
拔	-10.283
㤙	-10.2831
淳化	-10.2832
杵	-10.2832
鮪	-10.2832
撒	-10.2832
穰	-10.2833
夣	-10.2833
膾	-10.2833
攪	-10.2834
鉤	-10.2834
故有	-10.2835
太尉	-10.2835
牓	-10.2835
兌	-10.2835
閤門	-10.2835
疊	-10.2836
朝廷	-10.2836
百僚	-10.2837
梵	-10.2837
元祐	-10.2838
☶	-10.2838
仕	-10.2839
増法苑珠林	-10.2841
増唐書禮樂志	-10.2841
主簿	-10.2844
増帝京景物畧	-10.2844
駟	-10.2845
羲和	-10.2845
原雲笈七籖	-10.2846
原晉書	-10.2848
樹下	-10.2849
愧	-10.2852
宗室	-10.2858
侍臣	-10.2858
蠶市	-10.2866
早晚	-10.2869
盛暑	-10.2873
元豐	-10.2889
去皮	-10.289
舊俗	-10.2892
七八	-10.2902
諺曰	-10.2915
受命	-10.292
一章	-10.2922
二月八日	-10.2928
其色	-10.2928
麻子	-10.2937
處處	-10.2937
時人	-10.2947
注春	-10.295
人以	-10.2952
金吾	-10.2962
異之	-10.2968
雜記	-10.2969
江東	-10.298
故人	-10.2984
之乃	-10.299
國家	-10.2994
有五	-10.2995
三曰	-10.3007
名為	-10.3008
亦不	-10.3011
十九年	-10.3013
三十六	-10.3025
其形	-10.3031
宗紀	-10.3033
在地	-10.3039
為小	-10.3046
三分	-10.3053
三朝	-10.3058
至今	-10.3061
十四年	-10.3073
焚之	-10.3087
春生	-10.309
仁宗	-10.3097
相去	-10.3102
覆之	-10.3105
當時	-10.3106
樂章	-10.3112
二三月	-10.3113
半夜	-10.3126
叢生	-10.3128
八尺	-10.3133
白玉	-10.3133
中出	-10.3134
其地	-10.3136
丈餘	-10.3142
獻之	-10.3147
之形	-10.3151
十五年	-10.3166
相傳	-10.3179
陽春	-10.3181
文帝	-10.3184
赤色	-10.319
不死	-10.3214
文公	-10.3225
實録	-10.3229
以十	-10.3231
春氣	-10.3244
伏日	-10.3249
郡縣	-10.3267
二分	-10.3279
三更	-10.3281
夏時	-10.3302
六時	-10.3303
無雨	-10.3304
隻	-10.3309
春寒	-10.3309
城門	-10.331
十七年	-10.3318
八月采	-10.333
主有	-10.333
毎年	-10.333
三百六十	-10.3367
黄金	-10.3368
日午時	-10.3375
海中	-10.3382
物皆	-10.3389
至是	-10.3392
元年正月	-10.3396
為正	-10.3402
行禮	-10.3411
奏事	-10.3418
之精	-10.3419
事也	-10.342
原埤雅	-10.343
一葉	-10.3432
海上	-10.3434
箇	-10.3438
増内經	-10.3439
其數	-10.3442
春初	-10.3449
祐	-10.3451
人多	-10.3454
禊	-10.3454
競渡	-10.346
蜡	-10.3462
州人	-10.3462
已而	-10.3462
瓠	-10.3467
沛	-10.3469
匏	-10.3469
一兩	-10.3471
嫌	-10.3473
床	-10.3475
娱	-10.3476
祁	-10.3476
酣	-10.3478
犁	-10.3479
卯時	-10.348
陪	-10.3481
滄	-10.3481
己丑	-10.3483
捲	-10.3484
榜	-10.3484
盃	-10.3484
顓頊	-10.3484
増嘉定縣志	-10.3485
様	-10.3486
渴	-10.3486
芡	-10.3487
弋	-10.3487
乂	-10.3487
驢	-10.3487
敞	-10.3487
握	-10.3487
原農政全書	-10.3488
會稽	-10.3488
彘	-10.3488
鮑	-10.3488
僅	-10.3488
㢲	-10.3488
灼	-10.3489
蛟	-10.3489
逍遥	-10.3489
牖	-10.349
禽獸	-10.3491
丁丑	-10.3491
壑	-10.3491
砌	-10.3491
鬬	-10.3491
脾	-10.3491
泄	-10.3491
雛	-10.3491
蒜	-10.3492
飭	-10.3492
烹	-10.3492
廊	-10.3493
緯	-10.3493
隙	-10.3493
滌	-10.3493
諧	-10.3493
猿	-10.3494
該	-10.3494
灘	-10.3494
阮	-10.3494
己亥	-10.3494
夭	-10.3495
增酉陽雜爼	-10.3495
珥	-10.3495
蓬萊	-10.3495
淮南	-10.3496
禘	-10.3496
觀稼	-10.3496
昧	-10.3496
江淮	-10.3497
擣	-10.3497
謀	-10.3497
天竺	-10.3497
褥	-10.3498
原左𫝊	-10.3498
消息	-10.3498
其皮	-10.3499
皓	-10.3499
菰	-10.35
殆	-10.35
囬	-10.35
費	-10.35
膚	-10.35
䄂	-10.3501
遞	-10.3501
換	-10.3502
崑崙	-10.3502
縈	-10.3502
皁	-10.3502
☳	-10.3503
餐	-10.3504
耘	-10.3505
月中	-10.3506
幷	-10.3506
珊瑚	-10.3507
嗜	-10.3508
祫	-10.3509
龍見	-10.3509
倉庚	-10.3509
☰	-10.3511
蓐收	-10.3511
胄	-10.3512
衣裳	-10.3513
将軍	-10.3518
增漢書	-10.3519
燃燈	-10.3525
以来	-10.3527
十人	-10.3529
進退	-10.353
甲辰	-10.353
慶雲	-10.3532
元宵	-10.3539
西京	-10.354
多雨	-10.354
人掌	-10.3544
賜羣臣	-10.3547
鬼神	-10.3554
亦以	-10.3555
即位	-10.3556
二年九月	-10.356
柄	-10.3564
芝草	-10.3569
正月十五日	-10.3575
朱明	-10.3576
増白虎通	-10.3579
土功	-10.3582
春水	-10.3582
水浸	-10.3583
一枚	-10.3588
増王	-10.3591
去年	-10.3591
亦名	-10.3598
北面	-10.361
之象也	-10.3617
之辰	-10.3633
飛去	-10.3635
欽定四庫全書御定月令輯要卷	-10.3641
一夜	-10.3642
欲知	-10.3647
王母	-10.3655
所居	-10.3673
政事	-10.3677
来年	-10.3684
之用	-10.3686
下水	-10.3687
入學	-10.3687
王公	-10.3689
之極	-10.3693
二刻	-10.3699
者亦	-10.3701
郎中	-10.3704
日有	-10.371
天寳	-10.3728
原開天遺事	-10.3736
雞子	-10.3743
所生	-10.3747
地上	-10.3754
一枝	-10.3763
州縣	-10.3767
草生	-10.3767
以竹	-10.3775
毎至	-10.3788
漢中	-10.3795
元正	-10.3797
萬物皆	-10.3805
八風	-10.3806
不須	-10.382
初一日	-10.3826
而止	-10.3838
吉日	-10.3854
問曰	-10.3855
明朝	-10.3863
日光	-10.3869
從官	-10.3872
前有	-10.3894
金錢	-10.3895
至日	-10.39
同用	-10.3904
一升	-10.3905
不至	-10.3926
不欲	-10.3932
析	-10.394
相𫝊	-10.395
入水	-10.3958
始出	-10.3963
以授	-10.3965
至于	-10.3989
天有	-10.3993
不生	-10.3999
五時	-10.4008
食時	-10.4011
刻漏	-10.4018
其名	-10.402
長春	-10.403
秋月	-10.403
月為	-10.4031
卿等	-10.4035
相與	-10.4046
曰朕	-10.4064
宦	-10.4064
熟時	-10.4086
杓	-10.4087
六合	-10.4087
上親	-10.4097
而為	-10.4101
而入	-10.4108
元年四月	-10.4121
爾雅	-10.4141
武帝紀	-10.4148
糟	-10.4153
大熟	-10.4162
孟秋	-10.4164
逮	-10.417
云是	-10.4176
大臣	-10.4181
盛陽	-10.4182
主水	-10.4182
杪	-10.4182
一種	-10.4184
五方	-10.4185
風土記	-10.4186
怕	-10.4186
色青	-10.4186
癸亥	-10.4187
媚	-10.4187
餘分	-10.4187
亞	-10.4188
增後漢書	-10.4191
城東	-10.4191
増遼史禮志	-10.4191
穢	-10.4191
廷尉	-10.4192
槿	-10.4192
姚	-10.4192
遼	-10.4192
蝗	-10.4193
梁武帝	-10.4193
臯	-10.4194
叚	-10.4194
己巳	-10.4195
演	-10.4195
楊萬里	-10.4195
針	-10.4195
國子監	-10.4195
遁	-10.4195
増述異記	-10.4196
痕	-10.4196
歐陽	-10.4197
増埤雅	-10.4197
𧖟	-10.4197
亨	-10.4198
鉸	-10.4198
鹹	-10.4199
坡	-10.4199
炁	-10.42
遶	-10.42
淚	-10.42
沾	-10.42
祇	-10.42
增雲笈七籖	-10.42
誤	-10.4201
馴	-10.4201
之外	-10.4201
毁	-10.4201
縮	-10.4202
増四民月令	-10.4203
庸	-10.4203
倣	-10.4203
醮	-10.4204
紹興	-10.4204
兑	-10.4204
☵	-10.4204
螺	-10.4204
畤	-10.4204
緒	-10.4205
鄙	-10.4205
旄	-10.4205
聳	-10.4205
亊	-10.4205
紋	-10.4205
靖	-10.4205
駒	-10.4205
秫	-10.4205
糶	-10.4205
除夜	-10.4206
貼	-10.4206
浥	-10.4206
☲	-10.4206
陟	-10.4206
祚	-10.4208
嫗	-10.4208
窠	-10.4208
祝融	-10.4208
軌	-10.4208
姿	-10.4208
臻	-10.4208
掖	-10.4208
婁	-10.4208
拾遺	-10.4208
酪	-10.4209
戊戌	-10.4209
百寮	-10.4209
蚌	-10.4209
坼	-10.4209
屠	-10.4209
縛	-10.4209
賽	-10.421
咽	-10.421
六出	-10.421
黙	-10.421
昊天	-10.4211
妄	-10.4211
翳	-10.4212
峻	-10.4212
讓	-10.4212
問其故	-10.4213
原南史	-10.4214
蚤	-10.4214
扶桑	-10.4214
作詩	-10.4214
蓴	-10.4215
壠	-10.4215
喻	-10.4215
藁	-10.4215
色黄	-10.4216
籌	-10.4217
簟	-10.4217
豔	-10.4217
諷	-10.4218
敏	-10.4218
途	-10.4218
蘋	-10.4218
增左傳	-10.4219
鄧	-10.4219
戊巳	-10.422
其方	-10.422
増夢溪筆談	-10.4222
敵	-10.4222
翟	-10.4223
修撰	-10.4224
二千石	-10.4224
雒陽	-10.4224
臣僚	-10.4224
苞	-10.4225
増乾淳嵗時記	-10.4227
禪師	-10.4228
乙未	-10.4229
辰巳	-10.423
魏文帝	-10.4231
太乙	-10.4231
戊午	-10.4232
良久	-10.4236
侍讀	-10.4237
苕	-10.4239
廣陵	-10.4242
申時	-10.4244
萬夀	-10.4249
姓名	-10.4251
一寸	-10.4256
毎歲	-10.4257
人亦	-10.4264
黄昏	-10.4266
歌舞	-10.4269
大中	-10.4274
以定	-10.4276
雨則	-10.4281
延年	-10.4282
夏至日	-10.4283
士庶	-10.4285
清眀	-10.4289
華山	-10.4291
以次	-10.4292
法善	-10.4293
元年五月	-10.4295
開皇	-10.4295
暈	-10.4299
所用	-10.4308
附子	-10.4309
見於	-10.4313
宣和	-10.4313
樂府	-10.4319
廣州	-10.4319
東向	-10.4322
黒色	-10.4323
黄雀	-10.4328
之盛	-10.4332
記之	-10.4333
致祭	-10.4333
夷則	-10.4335
龍池	-10.4337
二十八	-10.4337
太元	-10.4345
田野	-10.4345
二年六月	-10.4346
小麥	-10.4346
右主	-10.4362
冬生	-10.4379
相對	-10.4383
張樂	-10.4386
水底	-10.4388
乃出	-10.4394
十二年	-10.4399
民間	-10.4401
陰陽	-10.4402
號為	-10.4416
樹木	-10.4425
海棠	-10.4432
無射	-10.4442
於外	-10.4444
大風	-10.4458
之名	-10.4481
秋為	-10.4483
年十	-10.4487
以正	-10.4493
暑氣	-10.4508
行之	-10.451
三人	-10.4512
而長	-10.4516
月晦	-10.4525
至則	-10.4547
土地	-10.4556
賞花	-10.456
色如	-10.4569
為春	-10.457
望之	-10.4578
鄉人	-10.4588
三嵗	-10.4589
得之	-10.4599
四人	-10.4603
不勝	-10.4604
歲星	-10.4612
辰為	-10.462
之南	-10.4629
鶉	-10.463
十八年	-10.463
曰天	-10.4632
三年八月	-10.4646
南吕	-10.4647
和之	-10.4657
草也	-10.4666
都城	-10.467
其間	-10.4672
郡人	-10.4677
西有	-10.4677
月半	-10.4685
勸農	-10.4686
大麥	-10.4686
當為	-10.4687
七刻	-10.4695
夜中	-10.4703
諸生	-10.4704
禮樂	-10.4719
燈火	-10.4736
為民	-10.478
秋成	-10.4789
又以	-10.4817
國子	-10.4827
宫人	-10.4837
以紀	-10.4851
則無	-10.4856
一朝	-10.4861
而歸	-10.4862
漢武帝	-10.4863
子也	-10.4865
秋日	-10.4866
御樓	-10.4878
帝曰	-10.4889
月有	-10.4907
白虎通	-10.4907
中宫	-10.491
春則	-10.4912
官府	-10.4913
之人	-10.492
之徳	-10.4921
而無	-10.4933
疆	-10.4934
通鑑	-10.4935
級	-10.4941
炬	-10.4944
畦	-10.4945
俸	-10.4948
邸	-10.4951
蔟	-10.4951
匪	-10.4952
峽	-10.4954
徼	-10.4955
寂	-10.4956
諌	-10.4956
赫	-10.4957
狐	-10.4957
浙	-10.4957
匱	-10.4958
晝漏	-10.496
汪	-10.496
跋	-10.496
嵩	-10.496
幅	-10.4961
棟	-10.4961
帚	-10.4962
覲	-10.4962
木葉	-10.4962
冐	-10.4963
淑	-10.4963
扣	-10.4963
日次初一日	-10.4964
搜	-10.4964
旛	-10.4964
慘	-10.4964
薇	-10.4964
茵	-10.4964
増清異錄	-10.4965
稅	-10.4965
軫	-10.4965
瀉	-10.4965
厠	-10.4965
抑	-10.4965
億	-10.4966
児	-10.4966
之分野	-10.4966
磔	-10.4967
牝	-10.4967
縫	-10.4967
寇	-10.4968
冒	-10.4968
組	-10.4968
勾	-10.4968
増羣芳譜	-10.4969
原酉陽雜俎	-10.4969
檻	-10.4969
蛤	-10.497
堆	-10.497
燠	-10.497
閨	-10.4971
廵狩	-10.4971
曵	-10.4971
元稹	-10.4971
枸杞	-10.4971
喬	-10.4971
賁	-10.4971
巵	-10.4972
腐	-10.4972
豊	-10.4972
墳	-10.4973
樊	-10.4973
増癸辛雜識	-10.4973
聒	-10.4974
郢	-10.4974
甸	-10.4974
攸	-10.4974
奢	-10.4975
責	-10.4975
興慶宫	-10.4975
廹	-10.4975
軰	-10.4975
𫀆	-10.4975
魂	-10.4975
麪	-10.4975
釐	-10.4976
陬	-10.4976
枇杷	-10.4976
壬寅	-10.4976
犢	-10.4977
繕	-10.4977
増左傳	-10.4977
逾	-10.4977
蓂	-10.4977
衞	-10.4978
㪚	-10.4979
猪	-10.4979
蝦蟇	-10.498
聨	-10.498
冕	-10.498
增淮南子	-10.4981
乙丑	-10.4981
癘	-10.4981
誅	-10.4981
繪	-10.4981
増玉海淳熙	-10.4982
涯	-10.4982
錦繡	-10.4983
秧	-10.4984
喉	-10.4984
拳	-10.4985
遐	-10.4987
麓	-10.4987
蒔	-10.4987
廵守	-10.4989
縳	-10.499
壬辰	-10.499
沈約	-10.4992
林鍾	-10.4992
☷	-10.4992
遲遲	-10.4992
尚書省	-10.4993
四方之	-10.4994
篤	-10.4996
宴羣臣	-10.4997
洞庭	-10.4997
原本草綱目	-10.4997
詳定	-10.4998
噐	-10.5
李白詩	-10.5004
守歳	-10.5004
真珠	-10.5005
詩話	-10.5006
升降	-10.5007
位也	-10.5009
晦朔	-10.5013
上巳日	-10.5022
汝南	-10.5022
一二	-10.5023
增齊民要術作	-10.5024
二寸	-10.5028
甘泉	-10.5029
者其	-10.5038
五行之	-10.5044
桃李	-10.5045
萬歲	-10.5046
樂詞	-10.5047
襄陽	-10.5049
中央土	-10.5049
為名	-10.5054
樂工	-10.5054
荆州	-10.5055
亦如之	-10.5056
圖經	-10.5068
無風	-10.5074
薦新	-10.5076
經云	-10.5082
焚香	-10.5082
或曰	-10.5083
雨後	-10.5091
太清	-10.5097
土牛	-10.51
種麥	-10.5102
之位	-10.5109
詩曰	-10.5112
佳節	-10.5114
景龍	-10.5118
以時	-10.5129
三旬	-10.5135
夏旱	-10.5137
山上有	-10.514
日以	-10.5143
百蟲	-10.5147
十數	-10.515
陰氣	-10.5155
太初	-10.5157
帝君	-10.5177
八九月	-10.5181
從臣	-10.5183
於上	-10.5184
之象	-10.5187
功成	-10.5194
人君	-10.5198
日中時	-10.5225
各一人	-10.5234
不雨	-10.5237
春園	-10.5238
增晉書	-10.5238
不如	-10.5238
之士	-10.5245
千餘	-10.5254
酘之	-10.5261
之始也	-10.5262
之兆	-10.5267
祈榖	-10.5283
㑹於	-10.5283
以奉	-10.5293
苑中	-10.5294
里有	-10.5295
何時	-10.5298
大率	-10.5307
號令	-10.5311
年正月	-10.5323
嵗首	-10.5332
三老	-10.5339
有差	-10.5343
中和	-10.5347
旂	-10.5353
東門	-10.5355
地中	-10.5372
天師	-10.538
夏秋	-10.5384
第二	-10.5385
秋時	-10.5387
候氣	-10.5388
胡桃	-10.5396
四曰	-10.5404
正月七日	-10.5414
上皇	-10.542
四年二月	-10.5433
其人	-10.544
帝以	-10.5441
冬官	-10.5445
宜令	-10.5445
未成	-10.5459
髙下	-10.5463
又名	-10.5465
不許	-10.5467
辛夘	-10.5475
可用	-10.5483
見日	-10.5488
不然	-10.549
三年四月	-10.5506
所見	-10.5525
而大	-10.5535
詔以	-10.5548
土之	-10.5554
人事	-10.5561
今夜	-10.5568
八卦	-10.5572
是其	-10.5573
俄	-10.5579
六十日	-10.5582
人曰	-10.5582
二十七	-10.5586
水火	-10.5587
山東	-10.5602
光武	-10.5605
南極	-10.5617
二千	-10.5624
二年四月	-10.5648
氏之	-10.5659
梧	-10.5659
髙宗	-10.566
南陽	-10.5666
蔓生	-10.5669
百日	-10.568
七里	-10.5682
夏正	-10.5688
八刻	-10.5689
原史記	-10.5694
之首	-10.5696
有功	-10.5708
湧	-10.5716
者不	-10.5719
皆用	-10.5721
増田家五行	-10.5728
投之	-10.5734
月七日	-10.5738
之東	-10.5738
仲月	-10.574
為末	-10.5741
入室	-10.5761
晡	-10.5767
人物	-10.577
話	-10.5774
獮	-10.5775
怠	-10.5778
白鶴	-10.5784
冢	-10.5785
語曰	-10.5785
何為	-10.5786
莎	-10.5787
戯	-10.5787
霖	-10.5788
喚	-10.5789
幼	-10.5789
汾	-10.579
刃	-10.579
値	-10.579
増宋史五行志	-10.5791
茄	-10.5791
廂	-10.5792
卉	-10.5792
淹	-10.5792
莧	-10.5793
宋書符瑞志	-10.5793
姬	-10.5794
璫	-10.5794
巡	-10.5794
泊	-10.5795
以八月	-10.5795
刋	-10.5795
風從	-10.5796
姤	-10.5797
討	-10.5797
蠲	-10.5797
拊	-10.5798
增唐書百官志	-10.5799
溜	-10.5799
翌日	-10.5799
嫁娶	-10.5799
異物志	-10.5799
羹	-10.5799
校獵	-10.5799
暨	-10.5799
黏	-10.5799
庖	-10.58
㕔	-10.58
虫	-10.58
妖	-10.5801
複	-10.5801
梧桐	-10.5801
筐	-10.5801
䴡	-10.5802
謫	-10.5802
原左傳	-10.5803
循環	-10.5803
弧	-10.5804
阻	-10.5804
熬	-10.5804
蘿	-10.5804
弩	-10.5804
鴨	-10.5804
穎	-10.5804
増玉海元祐	-10.5804
睹	-10.5804
綘	-10.5804
姦	-10.5805
版	-10.5805
劉禹錫	-10.5805
増酉陽雜爼	-10.5805
彊	-10.5805
儺	-10.5805
簪	-10.5805
鳳凰	-10.5806
態	-10.5806
靣	-10.5806
啇	-10.5806
邁	-10.5807
増種樹書	-10.5807
桴	-10.5807
桺	-10.5807
紐	-10.5807
拌	-10.5808
羲	-10.5808
霹靂	-10.5808
倫	-10.5809
匿	-10.5809
茍	-10.5809
癸丑	-10.5809
墻	-10.5809
究	-10.581
綾	-10.581
舘	-10.581
菌	-10.581
恤	-10.581
勇	-10.581
現	-10.581
夬	-10.581
緋	-10.5811
提要録	-10.5811
釁	-10.5811
脫	-10.5811
狄	-10.5811
綬	-10.5811
既而	-10.5811
幔	-10.5811
增圖經本草	-10.5811
距	-10.5812
増世説	-10.5812
括	-10.5812
什	-10.5812
敇	-10.5813
漳	-10.5813
芍藥	-10.5813
二十八宿	-10.5813
奥	-10.5813
原説文	-10.5813
萌芽	-10.5813
董	-10.5813
鑒	-10.5813
西王母	-10.5813
丙戌	-10.5813
森	-10.5814
煉	-10.5814
花落	-10.5814
増後漢書禮儀志	-10.5814
揭	-10.5814
愚	-10.5814
搏	-10.5814
通攷	-10.5814
遂以	-10.5815
攀	-10.5815
紫宸	-10.5815
薤	-10.5815
餉	-10.5815
千五百	-10.5815
媒	-10.5815
碾	-10.5816
腥	-10.5816
笑曰	-10.5816
疋	-10.5816
宰執	-10.5816
壤	-10.5817
混	-10.5817
霏	-10.5818
應鍾	-10.5818
悠悠	-10.5818
增爾雅翼	-10.5818
訣	-10.5819
㢠廻	-10.5819
鮓	-10.5819
汴	-10.582
増抱朴子	-10.5821
屑	-10.5821
拭	-10.5822
辛亥	-10.5822
達旦	-10.5822
劣	-10.5822
擾	-10.5823
㡌	-10.5823
隱	-10.5824
爆竹	-10.5824
蔥	-10.5824
軒轅	-10.5825
經筵	-10.5826
増山家清供	-10.5827
帖子	-10.5827
壬戌	-10.5828
陶潛	-10.5829
昆明	-10.5829
庚申	-10.5829
學士院	-10.583
蜩	-10.583
供養	-10.5831
連理	-10.5832
善惡	-10.5832
農夫	-10.5833
稱賀	-10.5835
三陽	-10.5836
踏青	-10.5836
月令曰	-10.5837
増爾雅翼	-10.5839
月失政	-10.5839
年二月	-10.584
泥封	-10.584
今之	-10.5843
七百	-10.5844
原周禮夏官	-10.5844
高祖	-10.5844
螢火	-10.5846
増唐六典	-10.5847
白鹿	-10.5848
甞	-10.5848
増説文	-10.585
甚美	-10.5853
時刻	-10.5858
為陽	-10.5859
温泉	-10.586
一株	-10.5861
太素	-10.5861
三寸	-10.5863
命婦	-10.5866
蒼龍	-10.5867
翫月	-10.5871
告朔	-10.5876
計吏	-10.5879
離宫	-10.5879
王維	-10.588
應制	-10.5884
木蘭	-10.5885
孟子	-10.5887
清凉	-10.5895
日照	-10.5898
實如	-10.5899
辛丑	-10.5904
改元	-10.5906
星出	-10.5906
一家	-10.5912
四月初	-10.5912
無差	-10.5915
司命	-10.5923
日占	-10.593
州府	-10.5931
日食	-10.5934
一行	-10.5936
不凋	-10.5939
四面	-10.5942
五代	-10.5945
占城	-10.5952
即今	-10.5955
無窮	-10.5958
月八日	-10.5958
改為	-10.596
蜀人	-10.5961
山水	-10.5967
俗謂之	-10.5969
丹陽	-10.597
辰時	-10.5973
赤帝	-10.5977
正陽	-10.5977
張華	-10.5987
細雨	-10.5991
赤道	-10.6
宫殿	-10.6006
縣志	-10.6014
生而	-10.6018
河北	-10.6034
金銀	-10.6054
未盡	-10.6054
白雪	-10.6058
廬山	-10.6073
少年	-10.6076
五年九月	-10.6088
於西	-10.6089
其音	-10.6089
大官	-10.6093
九重	-10.6096
涼風	-10.6098
麥秋	-10.6105
江水	-10.6106
昨夜	-10.6111
之本	-10.6122
當日	-10.6129
陽而	-10.6132
平地	-10.6135
所司	-10.6135
城西	-10.6136
其功	-10.6137
史記	-10.6144
大理	-10.6147
而退	-10.6148
六百	-10.6156
五聲	-10.6175
老子	-10.6176
上辛	-10.6177
農人	-10.6179
分龍	-10.618
以助	-10.6182
門前	-10.6191
太子	-10.6192
以爲	-10.6199
以五	-10.6204
之卦	-10.6207
至午	-10.6207
七言詩	-10.6223
此謂	-10.6226
香氣	-10.6228
以二月	-10.623
後有	-10.6233
必得	-10.6234
乃成	-10.6236
萬國	-10.6237
賜酒	-10.6242
之状	-10.6247
雲物	-10.6248
殿上	-10.6266
從此	-10.6272
於下	-10.6272
大會	-10.6278
欲得	-10.6279
名也	-10.6296
詔書	-10.6307
獻嵗	-10.6309
禮儀	-10.631
初八	-10.6312
三年五月	-10.6313
百花	-10.6317
始於	-10.6323
中宗	-10.6339
江上	-10.634
上昇	-10.6341
中夜	-10.6343
受朝	-10.6345
其𩔖	-10.6347
數里	-10.6355
日南	-10.6362
旦日	-10.637
今夕	-10.6399
以避	-10.6406
神人	-10.6421
壇上	-10.6422
復生	-10.6425
四十八	-10.6425
條風	-10.6433
入地	-10.6442
十里	-10.6443
四門	-10.6446
一分	-10.6446
紫色	-10.6456
驗之	-10.6456
生也	-10.6457
冬寒	-10.6458
以六月	-10.6459
祀之	-10.646
事之	-10.646
五官	-10.6461
乃去	-10.647
衆僧	-10.6472
雖有	-10.6479
林中	-10.648
而香	-10.6486
之使	-10.6489
元年九月	-10.6494
第三	-10.6499
於中	-10.6512
台	-10.6519
立春詩	-10.6523
之功	-10.6523
所宜	-10.6536
當用	-10.654
睿	-10.6547
一大	-10.6552
為佳	-10.6556
使君	-10.6564
潦	-10.6572
既至	-10.6573
之長	-10.6578
西北風	-10.6585
以木	-10.6587
花木	-10.659
弊	-10.6594
有黄	-10.66
小人	-10.6615
蔀	-10.662
風流	-10.6625
卯酉	-10.6635
與天	-10.6641
黄氣	-10.6655
雨露	-10.6664
扵是	-10.6667
白如	-10.6668
翰林院	-10.6669
國有	-10.6671
拘	-10.6672
槎	-10.6683
蒐	-10.6684
孝經緯	-10.669
扁	-10.6691
蜃	-10.6691
山人	-10.6692
增漢書律歴志	-10.6693
渭	-10.6693
鷺	-10.6694
夙夜	-10.6695
柑	-10.6697
萍	-10.6698
石榴	-10.6698
奈	-10.6698
讌	-10.6699
農家	-10.6699
不寒	-10.6699
訟	-10.6699
灑掃	-10.67
洎	-10.6701
準	-10.6701
纁	-10.6702
狙	-10.6702
挑	-10.6703
邇	-10.6703
蘖	-10.6704
模	-10.6704
三年九月	-10.6704
飈	-10.6704
閙	-10.6705
柿	-10.6705
嘉祐	-10.6705
貽	-10.6705
瑟	-10.6706
䋲	-10.6706
突	-10.6706
闈	-10.6707
耒	-10.6707
聴	-10.6707
澀	-10.6707
司農	-10.6707
紛紛	-10.6708
轂	-10.6708
替	-10.6708
屛	-10.6708
稚	-10.6708
幸玉津園	-10.6708
潘	-10.6709
哲	-10.6709
貢舉	-10.6709
溉	-10.6709
咏	-10.671
効	-10.671
熈	-10.6711
筋	-10.6711
駭	-10.6711
掾	-10.6711
鬢	-10.6712
項	-10.6713
廩	-10.6713
渥	-10.6713
辟雍	-10.6713
筠	-10.6713
日月星辰	-10.6714
歐陽修	-10.6714
箴	-10.6714
増玉海祥符	-10.6714
侈	-10.6715
榛	-10.6715
駢	-10.6715
京兆	-10.6715
節度使	-10.6715
通典	-10.6716
癸酉	-10.6716
繇	-10.6716
鑾	-10.6717
鋒	-10.6717
萹	-10.6717
熾	-10.6717
偹	-10.6718
十直齋日	-10.6718
段	-10.6718
驕	-10.6718
諱	-10.6719
螽	-10.6719
謙	-10.6719
㑹稽	-10.672
榻	-10.672
痩	-10.672
犧牲	-10.672
忩	-10.672
覈	-10.672
澹	-10.672
皂	-10.6721
謝靈運	-10.6721
嬰	-10.6721
捉	-10.6721
爻	-10.6721
?	-10.6722
記云	-10.6723
糴	-10.6723
糓	-10.6723
徃徃	-10.6723
棹	-10.6723
增羣芳譜	-10.6723
慧	-10.6723
松柏	-10.6723
原齊民要術	-10.6723
濛	-10.6723
滓	-10.6724
茟	-10.6724
百餘里	-10.6724
萎	-10.6725
箱	-10.6725
七年九月	-10.6725
増紀厯撮要	-10.6725
角亢	-10.6725
蘓	-10.6726
戈	-10.6726
蓍	-10.6727
氐	-10.6727
獺	-10.6727
乙亥	-10.6727
萃	-10.6727
誕辰	-10.6728
盗	-10.6729
壬申	-10.6729
抄	-10.673
閉蔵	-10.673
豫章	-10.673
乗輿	-10.673
一曲	-10.673
釋奠	-10.6731
入於	-10.6731
帆	-10.6731
賚	-10.6731
剪綵	-10.6732
泡	-10.6732
贏	-10.6732
增宋史	-10.6733
祥瑞	-10.6733
蠢	-10.6734
原通考	-10.6734
寅申	-10.6735
宏	-10.6736
翹	-10.6736
舫	-10.6737
麤	-10.6737
噉	-10.6739
専	-10.6739
鄉里	-10.674
最佳	-10.6741
辛酉	-10.6742
色赤	-10.6745
増山海經	-10.6745
數寸	-10.6747
壬癸	-10.6747
張衡	-10.6748
律厯	-10.6751
也夏小正曰	-10.6751
江湖	-10.6752
田獵	-10.6753
者言	-10.6753
牛羊	-10.6754
癸未	-10.6754
孝經緯曰	-10.6758
屏風	-10.6758
而斗建	-10.6761
祈福	-10.6762
乙卯	-10.6762
白居易詩	-10.6762
變化	-10.6763
不問	-10.6764
百工	-10.6764
増通鑑	-10.6765
辛未	-10.6765
白帝	-10.6766
少卿	-10.6768
往来	-10.6768
無疆	-10.677
枝條	-10.677
祖宗	-10.6771
七夕詩	-10.6777
循行	-10.6782
月之卦也	-10.6783
皆如	-10.6787
月上	-10.679
賔主	-10.6791
眀堂	-10.6793
雲霧	-10.6795
王建	-10.6797
之故	-10.6802
之理	-10.6805
二丈	-10.6809
大閲	-10.6819
五百里	-10.6819
無私	-10.682
百榖	-10.682
夜深	-10.6825
自後	-10.6826
探春	-10.6833
秋夜	-10.684
未至	-10.684
山上	-10.6847
而復	-10.6847
桃花水	-10.685
澄清	-10.6851
大樂	-10.6851
羣官	-10.6855
者何	-10.6859
其母	-10.6859
明旦	-10.6872
史官	-10.6876
東海	-10.6877
盛徳	-10.6878
之閒	-10.6887
有紫	-10.689
至夏	-10.689
正義	-10.6893
元武	-10.6895
父子	-10.6898
可種	-10.6899
日沒	-10.6899
賢良	-10.6908
之風	-10.6912
積雪	-10.6914
太嵗	-10.6914
殺氣	-10.6915
白衣	-10.6916
亭午	-10.6917
化成	-10.692
處也	-10.6923
一更	-10.6925
也淮南子	-10.6927
樓下	-10.6929
五色雲	-10.6929
還家	-10.693
霜露	-10.6944
莭氣	-10.6952
其風	-10.6957
曰某	-10.6958
好學	-10.6959
如願	-10.6961
謁者	-10.6963
及第	-10.6967
諸國	-10.6973
金玉	-10.6974
百物	-10.6978
増晋書	-10.6983
府志	-10.6984
已上	-10.6985
暮春	-10.699
所造	-10.7008
長養	-10.7017
聞其	-10.7027
暑熱	-10.7033
冀	-10.7035
五夜	-10.7041
車騎	-10.7042
半夏	-10.7045
萬方	-10.7046
四十九	-10.7051
河南	-10.7056
六寸	-10.7057
去其	-10.7072
於前	-10.7072
𩔖也	-10.7073
則有	-10.7074
宮中	-10.7079
齋戒	-10.708
正月三日	-10.7081
太原	-10.7086
成功	-10.7086
自有	-10.7088
隆冬	-10.709
一斤	-10.7094
時政	-10.7097
以通	-10.7104
君王	-10.7105
夏四月	-10.7115
以充	-10.712
月明	-10.7132
百錢	-10.7133
戌時	-10.7134
曰今日	-10.7135
山居	-10.7138
詔賜	-10.7141
一篇	-10.7143
所進	-10.7144
之狀	-10.7148
木香	-10.7159
二十一	-10.7161
井水	-10.7163
李白	-10.7167
種竹	-10.7179
射之	-10.7189
東作	-10.7192
正見	-10.7207
布政	-10.7212
殺之	-10.7213
有年	-10.7216
觀書	-10.7222
則以	-10.7225
春者	-10.724
漢官儀	-10.724
方盛	-10.7243
青陽	-10.7243
四五月	-10.725
三秋	-10.7254
長也	-10.7258
閏十二月	-10.7258
一室	-10.7263
光照	-10.7265
雲開	-10.7273
於四時	-10.7274
八月九月	-10.7276
春草	-10.7284
七月熟	-10.7297
牲以	-10.731
忽見	-10.7315
原禮乃	-10.7316
於大	-10.7316
増書	-10.7319
月出	-10.7325
冬青	-10.7325
洗之	-10.7339
花實	-10.7357
同時	-10.7365
靈山	-10.7367
大師	-10.7371
二年八月	-10.7371
舊制	-10.7379
有徳	-10.7382
九年十一月	-10.7388
州郡	-10.7394
一丈	-10.74
不去	-10.7411
國朝	-10.7413
白馬	-10.7416
黄雲	-10.7428
之政	-10.7431
土中	-10.7434
明星	-10.7434
史臣	-10.7447
之戲	-10.7448
十卷	-10.745
十萬	-10.7455
大酺	-10.7455
竹筍	-10.7457
青蒿	-10.7459
閏三月	-10.7483
月詩	-10.7488
夜行	-10.749
夜有	-10.7491
之國	-10.7496
飾以	-10.7498
知之	-10.7502
節氣	-10.7503
之號	-10.7503
天神	-10.7509
三年正月	-10.751
肅宗	-10.7514
其性	-10.7529
月行	-10.7549
先王	-10.7549
受之	-10.7551
上清	-10.7554
土氣	-10.7558
者乃	-10.7563
至正	-10.7569
無定	-10.7573
所出	-10.7583
之職	-10.7589
増家語	-10.7598
馬射	-10.7599
春官	-10.7603
二十餘	-10.7616
時至	-10.7616
主旱	-10.762
火樹	-10.7632
朔旦	-10.7649
淳熙	-10.7651
増齊民要術作	-10.7658
的	-10.7659
酺	-10.7661
眀日	-10.7663
庾	-10.7671
柘	-10.7678
和風	-10.7681
弼	-10.7681
嬪	-10.7683
梓	-10.7683
山海經	-10.7683
行道	-10.7688
尅	-10.7689
雹	-10.7689
鵠	-10.769
輟	-10.769
庾信	-10.7691
漢舊儀	-10.7692
賑	-10.7693
苧	-10.7693
昆	-10.7697
而下	-10.7697
燧	-10.7698
不通	-10.7698
技	-10.7701
謬	-10.7701
懷	-10.7702
鹵簿	-10.7702
千秋節	-10.7703
驟	-10.7703
寥	-10.7704
懽	-10.7704
増月令章句自	-10.7704
卽	-10.7704
茫	-10.7704
馥	-10.7705
梟	-10.7705
亘	-10.7705
域	-10.7705
炳	-10.7705
鞏	-10.7705
栖	-10.7705
傲	-10.7707
糾	-10.7707
鬰	-10.7707
蹄	-10.7708
機杼	-10.7708
譯	-10.7708
禺	-10.7708
洒	-10.7709
圜丘	-10.7709
盂蘭盆	-10.7709
鷄	-10.7709
般	-10.7709
撲	-10.7709
盜	-10.7709
辦	-10.7709
窓	-10.7709
臍	-10.7709
一日一夜	-10.771
牒	-10.771
或作	-10.771
攷	-10.7711
梅堯臣	-10.7711
贄	-10.7712
闇	-10.7712
奮	-10.7713
原梁元帝纂要	-10.7713
廡	-10.7713
臧	-10.7713
唐明皇	-10.7714
両	-10.7714
篩	-10.7714
梨園	-10.7715
泗	-10.7715
隕	-10.7715
弛	-10.7716
虢	-10.7716
楹	-10.7716
七月十五日	-10.7716
其年	-10.7716
蠱	-10.7716
増列子	-10.7717
泛舟	-10.7717
五品以上	-10.7717
矩	-10.7717
佑	-10.7717
姜	-10.7717
目為	-10.7717
苔	-10.7717
參差	-10.7718
檢校	-10.7718
梯	-10.7718
茗	-10.7718
増隋書	-10.7718
裕	-10.7718
緝	-10.7719
釡	-10.7719
夏至之日	-10.7719
榴	-10.7719
張說	-10.7719
榴花	-10.7719
罕	-10.7719
遜	-10.772
楓	-10.772
岑	-10.772
原列子	-10.772
馨	-10.772
叶	-10.772
泝	-10.772
笳	-10.772
完	-10.7721
縱横	-10.7721
梳	-10.7721
亢	-10.7721
查	-10.7721
召近臣	-10.7721
櫟	-10.7721
焰	-10.7721
齡	-10.7721
褐	-10.7721
增續文獻通考	-10.7722
險	-10.7722
圈	-10.7722
旣	-10.7722
軿	-10.7722
藜	-10.7723
偷	-10.7723
増名醫别録	-10.7723
蒂	-10.7723
撤	-10.7723
鳧	-10.7723
原禮天子居	-10.7723
樣	-10.7723
澇	-10.7723
弓矢	-10.7724
薔薇	-10.7724
召輔臣	-10.7724
增唐會要	-10.7724
奎	-10.7724
楷	-10.7724
滕	-10.7724
原春秋繁露	-10.7724
羡	-10.7725
塾	-10.7725
祈禱	-10.7725
乙巳	-10.7726
掠	-10.7726
𥜗	-10.7726
邢	-10.7726
集說	-10.7726
倪	-10.7727
蔗	-10.7727
砧	-10.7728
茸	-10.7728
増汜勝之書	-10.7728
丙丁	-10.7728
欺	-10.7728
餻	-10.7728
祠后土	-10.7729
鴿	-10.7729
菘	-10.7729
誡	-10.7729
少皥	-10.7729
肌	-10.773
渙	-10.773
醋	-10.773
周書時訓曰	-10.773
匀	-10.7731
庚辛	-10.7731
駿	-10.7731
班固	-10.7731
蝦	-10.7731
晉樂志曰	-10.7732
丁酉	-10.7732
釘	-10.7732
娯	-10.7732
貪	-10.7732
束帛	-10.7732
牟	-10.7733
月建	-10.7734
荀	-10.7734
釜	-10.7734
各有差	-10.7735
河豚	-10.7736
增田家五行	-10.7737
供奉	-10.7738
孛	-10.7739
寘	-10.774
今嵗	-10.774
斗指	-10.774
増東京夢華録	-10.7742
增宋史禮志	-10.7744
増通考	-10.7744
増曲洧舊聞	-10.7745
増三禮義宗	-10.7748
千畝	-10.7749
天下太平	-10.775
顔色	-10.7751
社前	-10.7752
朱雀	-10.7752
世祖	-10.7753
蔡𫝊	-10.7754
自此始	-10.7755
也物	-10.7755
中和節	-10.7756
味辛	-10.7757
波斯國	-10.7757
武陵	-10.7762
徳也	-10.7763
增周禮	-10.7763
中丞	-10.7766
之歌	-10.7767
由是	-10.777
百穀	-10.777
上作	-10.7771
百辟	-10.7775
門戸	-10.7776
四維	-10.7777
漢武	-10.7779
東壁	-10.7781
又作	-10.7782
朝霞	-10.7785
正月朔	-10.7786
説文	-10.7786
為閏	-10.7786
炎帝	-10.7788
最宜	-10.7789
以給	-10.7792
而鳴	-10.7796
蠶室	-10.7798
殿庭	-10.7799
大悦	-10.78
最先	-10.7802
河朔	-10.7802
芳草	-10.7803
四年四月	-10.7803
羣飛	-10.7804
増韓愈	-10.7805
西湖	-10.7807
龍眼	-10.7807
星居	-10.7808
清暑	-10.7809
建武	-10.7811
沙門	-10.7812
生氣	-10.7814
暴雨	-10.7816
從容	-10.782
新茶	-10.7821
今月	-10.7823
前代	-10.7824
授衣	-10.7824
太極殿	-10.7825
生育	-10.783
詞云	-10.7834
樹髙	-10.7836
四年正月	-10.7839
開元二	-10.7841
出水	-10.7845
其徳	-10.7847
山山	-10.7852
而祭之	-10.7853
客至	-10.7854
牛馬	-10.7855
既望	-10.7858
奏請	-10.7866
芝生	-10.7868
香山	-10.7869
之民	-10.787
執事	-10.7872
内人	-10.7875
新羅	-10.7882
猶未	-10.7884
吏部	-10.7895
晴明	-10.7897
春光	-10.79
在亥	-10.7905
五政	-10.7908
先聖	-10.7924
許之	-10.7925
之心	-10.7926
制度	-10.7931
二十二	-10.7933
千金	-10.7936
巳時	-10.7937
蔓延	-10.7944
防風	-10.7945
百二十	-10.7946
節度	-10.7949
不受	-10.7951
一百二十	-10.7957
四百	-10.7958
五里	-10.7961
五味	-10.7961
行漏	-10.7962
秋蘭	-10.7963
青女	-10.797
如初	-10.7971
各以其	-10.7985
形似	-10.7993
吞之	-10.7997
凄	-10.8005
本朝	-10.8015
其旁	-10.802
更相	-10.8028
庭中	-10.8028
上公	-10.8029
懐詩	-10.8034
夜視	-10.8043
常服	-10.8048
中外	-10.8048
大明	-10.805
常山	-10.8052
節物	-10.8057
進酒	-10.8061
者曰	-10.8069
楊梅	-10.8076
以五月五日	-10.8099
過則	-10.8107
六七月	-10.8113
所載	-10.8113
之要	-10.8127
疏言	-10.8128
所作	-10.813
此為	-10.8131
在於	-10.8132
井中	-10.8133
暮夜	-10.8145
當年	-10.8153
千萬	-10.8155
依舊	-10.8156
黄門	-10.8174
之術	-10.8179
風生	-10.8179
青雲	-10.8199
舟中	-10.8199
之前	-10.8201
六月中	-10.8203
道也	-10.8208
廟在	-10.821
每夜	-10.8211
兵部	-10.8213
不解	-10.8218
而罷	-10.8221
焉其	-10.8226
正月二日	-10.8229
不歸	-10.823
承天	-10.8232
即是	-10.8238
海水	-10.824
月九日	-10.8244
法酒	-10.8245
行人	-10.8248
天帝	-10.8249
已生	-10.8262
金石	-10.8268
不應	-10.827
初秋	-10.8272
答曰	-10.8272
五年五月	-10.8277
生萬物	-10.8281
盛長	-10.8282
凡三	-10.8284
觀酺	-10.8289
臨水	-10.8295
十五夜	-10.8301
其光	-10.8306
數年	-10.8308
以禦	-10.831
在外	-10.832
貯之	-10.833
過此	-10.8332
之注	-10.8332
年少	-10.8333
淮南子注	-10.8342
不利	-10.8342
毎月	-10.8342
五曰	-10.8342
凉風	-10.8352
夜鳴	-10.8354
二月十五日	-10.8358
未知	-10.8376
月祭	-10.8376
元君	-10.8379
文宗	-10.8385
音也	-10.839
極星	-10.8391
行宫	-10.8404
三斗	-10.8408
平原	-10.8413
耐	-10.8425
與日	-10.843
天徳	-10.8431
不動	-10.8432
二三	-10.8437
荅曰	-10.844
得金	-10.8441
應時	-10.8447
朝陽	-10.8448
之美	-10.8455
乃至	-10.8456
細如	-10.8461
後人	-10.8473
已下	-10.8477
入見	-10.8478
御定月令輯要卷十	-10.8478
帝王	-10.8478
可以為	-10.8485
堂前	-10.8487
不必	-10.8487
夏氣	-10.8488
西山	-10.8494
紅白	-10.8498
天河	-10.8499
王之	-10.8502
赤光	-10.8503
雲陽	-10.8525
大事	-10.8544
而細	-10.8545
開寳	-10.8546
雨詩	-10.8549
至八月	-10.856
秋雨	-10.8572
因名	-10.8577
有六	-10.8579
居人	-10.858
☴	-10.8582
第四	-10.8584
城中	-10.8589
不言	-10.8591
徳殿	-10.8595
八百	-10.8602
内出	-10.8603
在内	-10.8607
其令	-10.8609
南面	-10.8616
三月中	-10.8617
賦序	-10.8623
至期	-10.8624
為常	-10.8625
每年	-10.8626
眀皇	-10.8647
非時	-10.8649
以土	-10.8655
漢時	-10.8657
之色	-10.8658
十有	-10.8662
淮南子	-10.8671
朔旦冬至	-10.8672
風景	-10.8674
多者	-10.868
増田家雜占	-10.8683
夏雲	-10.8687
丁夘	-10.8689
其言	-10.8692
出地	-10.8692
杭州	-10.8698
與諸	-10.8699
人謂	-10.8702
門内	-10.8703
水氣	-10.8713
五分	-10.8715
少時	-10.8717
二至	-10.8722
皆得	-10.8734
氏掌	-10.8741
褒	-10.8744
其精	-10.8746
道人	-10.8747
楝	-10.875
星月	-10.8759
君之	-10.8762
翫	-10.8766
帝京景物畧	-10.8767
臼	-10.8773
以手	-10.8774
而起	-10.8778
宋史禮志	-10.878
地無	-10.8783
之道也	-10.8783
邑人	-10.8784
唐六典	-10.8786
陽縣	-10.8786
冬十月	-10.8787
肯	-10.8788
原周禮天官	-10.8798
陌	-10.8799
菉豆	-10.8802
敘	-10.8804
鯨	-10.8807
増齊民要術崔寔曰	-10.8807
薫	-10.8808
迥	-10.8808
鑰	-10.8808
增名勝志	-10.8809
押	-10.8811
杭	-10.8811
風俗通	-10.8812
㳟	-10.8812
軾	-10.8813
皎	-10.8813
祓除	-10.8813
先以	-10.8813
島	-10.8814
仞	-10.8814
誇	-10.8814
沿	-10.8814
搖	-10.8814
儼	-10.8814
祓	-10.8814
夙	-10.8815
椀	-10.8815
庚午	-10.8815
璽	-10.8816
着	-10.8816
鶻	-10.8816
韓琦	-10.8816
鎖	-10.8817
弹	-10.8817
纂要曰	-10.8817
殖	-10.8817
纎	-10.8818
鈿	-10.8818
弓弩	-10.8818
獺祭魚	-10.8818
揉	-10.8819
增夢溪筆談	-10.8819
蛀	-10.8819
恕	-10.8819
翦	-10.8819
數尺	-10.8819
仲春之月	-10.8819
萊	-10.8819
瀛	-10.882
誥	-10.882
鉦	-10.882
灾	-10.882
増益部方物畧記	-10.882
崔憬曰	-10.882
虵	-10.882
頴	-10.882
較	-10.882
欵	-10.8821
朴	-10.8821
漠	-10.8822
遯	-10.8822
償	-10.8822
瓢	-10.8822
蔚	-10.8823
增選擇歴書	-10.8823
鴽	-10.8823
天倉開	-10.8823
巒	-10.8823
譽	-10.8823
橛	-10.8823
猷	-10.8823
袖	-10.8823
仲冬之月	-10.8823
蔡邕	-10.8824
薯	-10.8824
吿	-10.8824
朔日值	-10.8824
祓禊	-10.8824
岫	-10.8824
耜	-10.8824
爇	-10.8824
漾	-10.8824
四瀆	-10.8825
逕	-10.8825
蔣	-10.8825
𦂳	-10.8825
縑	-10.8825
馭	-10.8825
閶闔	-10.8826
龕	-10.8826
慿	-10.8826
陀	-10.8826
葺	-10.8826
擘	-10.8826
潁	-10.8826
縹	-10.8826
鑚	-10.8827
之節初五日	-10.8827
益州	-10.8827
撥	-10.8827
暘	-10.8827
陸游	-10.8827
増輟耕録	-10.8827
昧爽	-10.8827
敲	-10.8828
塩	-10.8828
綏	-10.8828
増避暑録話	-10.8828
恊	-10.8829
准	-10.8829
焙	-10.8829
庠	-10.8829
句芒	-10.8829
嚼	-10.8829
髻	-10.8829
弁	-10.883
伍	-10.883
攜	-10.883
琯	-10.883
蘿蔔	-10.883
鳬	-10.883
頼	-10.883
樞宻	-10.883
增農政全書	-10.883
膺	-10.883
諤	-10.883
瓊林苑	-10.883
司天監	-10.883
槌	-10.883
謳	-10.883
裝	-10.883
郝	-10.8831
惲	-10.8831
貉	-10.8831
啄	-10.8832
吹笙	-10.8832
中書門下	-10.8832
天正	-10.8832
太常卿	-10.8832
穹	-10.8832
僕射	-10.8832
戾	-10.8833
増隋書天文志	-10.8833
天尊詳見	-10.8833
鴛鴦	-10.8833
尸	-10.8834
暍	-10.8834
増師曠占	-10.8834
承㫖	-10.8834
劇	-10.8834
祿	-10.8835
鵲巢	-10.8835
劒	-10.8835
在京	-10.8835
増後漢書明帝紀永平	-10.8835
振旅	-10.8835
顒	-10.8835
障	-10.8836
暝	-10.8836
䟦	-10.8836
麞	-10.8836
偉	-10.8836
囀	-10.8836
搆	-10.8836
荚	-10.8837
原宋史	-10.8837
淒	-10.8837
恣	-10.8838
頤	-10.8838
月令天道月卦	-10.8838
颶風	-10.8838
收斂	-10.8839
増史記封禪書	-10.884
逃	-10.884
移栽	-10.884
籥	-10.884
枉	-10.884
衷	-10.8841
􁀥	-10.8841
矜	-10.8842
覔	-10.8842
倩	-10.8842
増李尤	-10.8842
煎湯	-10.8843
楸	-10.8843
詔褒	-10.8843
娶	-10.8843
腊	-10.8843
磧	-10.8843
窖	-10.8844
原酉陽雜爼	-10.8844
秤	-10.8844
嘲	-10.8844
王羲之	-10.8844
篴	-10.8844
茭	-10.8845
眺	-10.8845
醜	-10.8845
戊申	-10.8845
粟米	-10.8845
原楚辭	-10.8846
桶	-10.8846
春夏秋冬	-10.8846
戮	-10.8846
池塘	-10.8846
鱠	-10.8846
鳸	-10.8846
人心	-10.8847
増隋書禮儀志	-10.8847
少昊	-10.8847
茅君	-10.8848
増四民月令正月	-10.8849
十二度	-10.8849
長尺餘	-10.8849
自生	-10.885
曹植	-10.885
乾淳嵗時記	-10.885
水嬉	-10.8851
增玉海紹興	-10.8851
禰	-10.8853
麵	-10.8853
四五尺	-10.8854
教坊	-10.8856
原白虎通	-10.8857
袴	-10.8858
三四尺	-10.8858
女貞	-10.8858
諸王	-10.8858
列侯	-10.8859
為一端	-10.8859
増遵生八牋	-10.886
義倉	-10.8861
其木	-10.8861
嵩山	-10.8862
存問	-10.8864
御座	-10.8864
黄梅雨	-10.8864
履端	-10.8864
㠯	-10.8865
麻姑	-10.8865
舍利	-10.8866
應制詩	-10.8868
司馬光	-10.8869
不肯	-10.8869
其味	-10.887
太康	-10.8873
雨打	-10.8875
亦得	-10.8876
畦種	-10.8876
辰戌	-10.8876
乾坤	-10.8877
七尺	-10.8877
慶雲見	-10.8878
士臣	-10.8878
百鬼	-10.888
真武	-10.8882
貢士	-10.8883
鼓吹	-10.8884
羅浮	-10.8885
聖夀	-10.8888
教之	-10.8888
命有司	-10.889
判官	-10.889
為中時	-10.8892
純陽	-10.8893
獻夀	-10.8893
不禁	-10.8894
造化	-10.8896
黑色	-10.8896
生長	-10.8896
少許	-10.8896
以下皆	-10.8897
蒸熟	-10.89
杜陽	-10.8901
政不失	-10.8901
侍宴	-10.8901
紫微	-10.8902
聲調	-10.8902
八音	-10.8908
月忌	-10.8908
陽氣始	-10.8909
名之曰	-10.891
門之外	-10.8912
燈市	-10.8913
丁未	-10.892
在地中	-10.892
及諸	-10.8923
桓公	-10.8927
内侍	-10.8927
靈臺	-10.8928
石湖	-10.8932
每遇	-10.8933
唐制	-10.8937
改用	-10.8937
晏子	-10.8937
穀雨	-10.894
十天	-10.8942
輕重	-10.8945
上春	-10.8946
以火	-10.8946
食也	-10.8947
雷聲	-10.895
水晶宫	-10.8951
白日	-10.8951
十月一日	-10.8952
相呼	-10.8954
宴射	-10.8956
冬𤓰	-10.8958
祭神	-10.896
黄梅	-10.8961
滿城	-10.897
周易	-10.8972
甚盛	-10.8974
宴飲	-10.8975
月光	-10.8977
玉輅	-10.8979
曰昔	-10.898
長沙	-10.8983
不在	-10.8985
聖徳	-10.8986
上生	-10.8989
大赦	-10.8989
宋玉	-10.8993
和元年	-10.8994
味苦	-10.8994
玉露	-10.8995
悉以	-10.8996
則知	-10.8999
五人	-10.9004
取出	-10.9009
五嵗	-10.901
以為常	-10.9011
三十二	-10.9012
六甲	-10.9018
北辰	-10.9019
不忘	-10.902
原禮命	-10.9024
靈芝	-10.9032
味如	-10.9035
青鳥	-10.9039
子丑	-10.9041
從祀	-10.9041
奉和	-10.9042
未時	-10.9043
上弦	-10.9047
天子乃	-10.9051
然也	-10.9054
熟食	-10.9055
二升	-10.9055
千官	-10.9056
神宗	-10.9057
御定月令輯要卷	-10.9058
何必	-10.9059
雷雨	-10.9062
太官	-10.9067
不畏	-10.9071
安公	-10.9072
一遍	-10.9072
勤政樓	-10.9073
夕陽	-10.9074
貴人	-10.9074
腹中	-10.9075
雲漢	-10.9086
元年二月	-10.9086
嘗新	-10.9087
實有	-10.9088
巳午	-10.9088
五斗	-10.9092
清和	-10.9092
古法	-10.9093
甚多	-10.9095
閏法	-10.9095
以三月	-10.9096
花樹	-10.9099
道路	-10.9099
其莖	-10.9101
尺五寸	-10.9101
東有	-10.9108
之夜	-10.9109
文王	-10.9112
而多	-10.9113
春盤	-10.912
歸家	-10.912
品以	-10.9123
百合	-10.9123
諸司	-10.9133
正當	-10.9136
白而	-10.9137
得此	-10.9139
上計	-10.914
神女	-10.9142
羞以	-10.9151
於南	-10.9161
中天	-10.9162
天統	-10.9163
退而	-10.9167
侍從	-10.9168
秋者	-10.9168
禁令	-10.9174
亦如	-10.9183
入内	-10.919
之属	-10.9193
者即	-10.9194
甲子日	-10.9198
户部	-10.9198
正朔	-10.9199
四象	-10.9201
右行	-10.921
紫花	-10.9217
增易	-10.9217
在位	-10.9224
園中	-10.923
不祥	-10.9232
六度	-10.9237
埋之	-10.9238
時務	-10.9242
使民	-10.9247
青青	-10.9249
相應	-10.9252
丈夫	-10.9254
萬人	-10.926
清水	-10.926
選人	-10.9262
自古	-10.9264
神農	-10.9266
星也	-10.9268
徳言	-10.9269
師曰	-10.927
書生	-10.9274
二十六	-10.9282
十有二月	-10.9284
夜分	-10.9287
曰卿	-10.9289
水面	-10.9292
奉詔	-10.9294
一次	-10.9299
取此	-10.9302
得名	-10.9302
取水	-10.9303
其家	-10.9306
百五十	-10.9311
増唐㑹要貞觀	-10.9312
百事	-10.9314
求之	-10.9315
其故	-10.9316
異香	-10.9317
夏雨	-10.9319
三年春	-10.9321
七分	-10.9323
一聲	-10.9326
髙年	-10.9337
置之	-10.9337
成萬物	-10.9341
去地	-10.9345
太公	-10.9346
者則	-10.9347
止於	-10.9358
春秋分	-10.9359
五升	-10.936
初吉	-10.9366
是夜	-10.9366
故言	-10.9369
國史	-10.9369
而上	-10.9373
午夜	-10.9386
内火	-10.9387
春牛	-10.939
正西	-10.9391
除之	-10.9391
從事	-10.9399
詔令	-10.9404
此鳥	-10.9413
出郊	-10.9413
一晝夜	-10.9415
一氣	-10.9415
臣王	-10.9415
三統厯曰	-10.9417
應節	-10.9419
地黄	-10.9433
而隂	-10.9436
是夕	-10.9448
陽始	-10.9449
至夜	-10.945
百年	-10.9451
寸許	-10.9455
而食	-10.9459
以防	-10.9459
代宗	-10.9482
至暮	-10.9499
即此	-10.9501
歳除	-10.9506
懐中	-10.9508
地官	-10.9509
草書	-10.951
不失	-10.9515
以飬	-10.953
始開	-10.9533
星主	-10.9541
時候	-10.9551
不可以	-10.9552
立秋後	-10.9556
其制	-10.956
侍講	-10.9564
以白	-10.957
長樂	-10.9573
正是	-10.9584
象閏	-10.9599
歌曰	-10.9602
白石	-10.9604
日暈	-10.9607
能知	-10.9617
者主	-10.9634
凡此	-10.9647
春二月	-10.9647
更有	-10.9661
以祈	-10.9667
葉落	-10.9668
人力	-10.9677
澤中	-10.968
増蘇軾詩	-10.9687
桃仁	-10.9701
至曉	-10.9701
清明前	-10.9705
諸道	-10.9706
實也	-10.971
上天	-10.9718
七人	-10.9725
不甚	-10.9727
中流	-10.9742
火火	-10.9755
兒女	-10.976
出火	-10.9761
故知	-10.9761
以五月	-10.9763
下元	-10.9772
者必	-10.9773
言事	-10.9786
盛開	-10.9794
山南	-10.98
七寸	-10.9808
三年二月	-10.9809
隨月	-10.981
宣武	-10.9818
之朝	-10.9824
南人	-10.9827
欽定四庫全書御定月令輯要卷十	-10.9827
二年二月	-10.9838
在辰	-10.9843
夜作	-10.9846
紅花	-10.9851
一本	-10.9858
外國	-10.9859
石為	-10.9869
書云	-10.9872
無水	-10.9878
閏九月	-10.9892
又得	-10.9892
隂也	-10.99
四月一日	-10.9906
紅色	-10.9919
上林	-10.9921
占曰	-10.9929
也䟽	-10.9932
冬至之日	-10.9937
其禮	-10.994
正月中	-10.9942
六年十一月	-10.9942
春華	-10.9949
長夀	-10.9952
誕日	-10.9955
月月令曰	-10.9956
奏樂	-10.9962
嵗終	-10.997
正月十四日	-10.9972
花葉	-10.9972
原後漢書禮儀志	-10.9976
未必	-10.9976
因為	-10.9981
二十九	-10.9989
皆成	-10.9991
寒水	-10.9993
記其	-10.9994
是嵗	-10.9995
熙寧	-11.0003
四十五日	-11.0004
增埤雅	-11.0006
射的	-11.0007
辰正	-11.0008
七十二日	-11.001
兖州	-11.0011
四年六月	-11.0015
吕氏春秋	-11.0015
陸㳺	-11.0016
開時	-11.0018
丑未	-11.0019
三禮義宗	-11.0028
江淹	-11.0028
増梁書	-11.0037
増周禮地官	-11.0038
嬉	-11.0041
踐	-11.0043
蝕	-11.0044
肄	-11.0044
濵	-11.0046
日得壬	-11.0049
藩	-11.0051
耦	-11.0053
沴	-11.0053
猨	-11.0053
瀘	-11.0054
棉	-11.0054
綜	-11.0055
闢	-11.0055
増論衡	-11.0055
誨	-11.0056
甑	-11.0056
芎	-11.0057
麋角	-11.0057
天文志	-11.0058
睛	-11.0058
梭	-11.0058
麝	-11.0059
奚	-11.0059
原晋書	-11.006
渭濵	-11.0061
原羣芳譜	-11.0061
濾	-11.0061
个	-11.0062
沫	-11.0062
徐鉉	-11.0062
媪	-11.0063
盝	-11.0063
磚	-11.0063
惰	-11.0064
陋	-11.0064
碁	-11.0064
翎	-11.0064
原千金月令	-11.0064
褰	-11.0064
椘	-11.0065
雌雄	-11.0065
溝瀆	-11.0066
郞	-11.0066
壘	-11.0066
覿	-11.0066
朒	-11.0066
増乾淳嵗時記元夕	-11.0066
綯	-11.0067
晒	-11.0067
不已	-11.0067
䘮	-11.0067
餔	-11.0067
叱	-11.0067
靛	-11.0067
増西湖志餘	-11.0067
暎	-11.0068
彰	-11.0068
茲	-11.0068
趂	-11.0068
㓂	-11.0068
幢	-11.0068
求遺書	-11.0068
禎	-11.0068
蠡	-11.0069
廓	-11.0069
狹	-11.0069
萋萋	-11.0069
逓	-11.007
溲	-11.007
援	-11.007
匣	-11.007
恬	-11.007
飛白書	-11.007
甯	-11.0071
訴	-11.0071
嵌	-11.0071
鶉火	-11.0071
辜	-11.0071
菑	-11.0072
誌	-11.0072
悽	-11.0072
飮	-11.0072
禀	-11.0072
瞽	-11.0072
芬	-11.0072
禮部尚書	-11.0072
紵	-11.0073
怡	-11.0073
摭	-11.0073
艷	-11.0073
轝	-11.0073
棘	-11.0073
漂	-11.0073
筯	-11.0073
柯	-11.0073
旭	-11.0073
擢	-11.0073
噴	-11.0073
竪	-11.0074
摧	-11.0074
岩	-11.0074
増玉海崇寧	-11.0074
籃	-11.0074
増廣志	-11.0074
禅	-11.0074
炷	-11.0075
以灰	-11.0075
反舌無聲	-11.0075
晷景	-11.0075
茯苓	-11.0076
㸑	-11.0076
曷	-11.0076
頸	-11.0076
栁絮	-11.0076
袒	-11.0076
囂	-11.0076
彫	-11.0077
貳	-11.0077
増楊升菴集	-11.0077
稗	-11.0077
贍	-11.0077
天寶遺事	-11.0077
詎	-11.0077
顕	-11.0077
峭	-11.0078
鬛	-11.0078
颯	-11.0078
増玉海慶厯	-11.0078
為下時	-11.0078
纓	-11.0078
原漢書律歴志	-11.0078
農隙	-11.0078
陪位	-11.0078
增國語	-11.0078
嶺表錄異	-11.0079
郁	-11.0079
宋之問	-11.0079
杜牧	-11.0079
原道經	-11.0079
葫蘆	-11.0079
蹟	-11.0079
計偕	-11.0079
㝎	-11.008
偽	-11.008
曦	-11.008
臭	-11.008
閎	-11.008
滛	-11.008
甄	-11.008
増政和本草	-11.008
荼	-11.008
醸酒	-11.008
鐘鼓	-11.0081
寃	-11.0081
祛	-11.0081
疲	-11.0081
咎	-11.0081
酎	-11.0081
朽	-11.0081
縠	-11.0081
荻	-11.0081
跨	-11.0081
揆	-11.0081
皺	-11.0081
貂	-11.0082
慚	-11.0082
勘	-11.0082
浚	-11.0082
耿	-11.0082
伏羲	-11.0083
祀竈	-11.0083
沼	-11.0083
増宋書	-11.0083
邕	-11.0083
增名醫别錄	-11.0083
擕	-11.0083
豚	-11.0083
銓	-11.0083
渡河	-11.0083
師曠	-11.0084
甃	-11.0084
託	-11.0084
斾	-11.0084
増食譜張手美	-11.0085
硬	-11.0085
摹	-11.0085
渇	-11.0085
晏殊	-11.0085
莢	-11.0085
刼	-11.0085
笠	-11.0085
望春亭	-11.0085
沆	-11.0085
岱	-11.0086
増清異録	-11.0086
籖	-11.0086
逝	-11.0086
館閣	-11.0086
獄訟	-11.0086
訛	-11.0087
増開天遺事	-11.0087
肴	-11.0087
金木水火	-11.0087
肌膚	-11.0087
椹	-11.0087
田租	-11.0087
原逸周書	-11.0087
挹	-11.0087
顥	-11.0087
濫	-11.0087
藿	-11.0088
廉	-11.0089
埃	-11.0089
筩	-11.0089
曼	-11.0089
伶	-11.0089
詢	-11.0089
鹿角	-11.0089
穄	-11.009
蒺藜	-11.009
凛	-11.0091
孚甲	-11.0091
供帳	-11.0091
瘞	-11.0091
惑	-11.0091
絞	-11.0091
如彈丸	-11.0091
滋味	-11.0091
永徽	-11.0092
壞	-11.0092
泰畤	-11.0092
贖	-11.0092
訊	-11.0092
伎	-11.0093
三年一閏	-11.0093
溽暑	-11.0094
慢	-11.0094
招搖指	-11.0094
旨	-11.0094
卭	-11.0095
九成宫	-11.0095
仇	-11.0095
原續文獻通考	-11.0096
城隍	-11.0096
東嶽	-11.0096
瀝	-11.0096
緩急	-11.0096
膩	-11.0097
諡	-11.0098
百卉	-11.0098
彗	-11.0098
寅夘	-11.0098
喪	-11.0098
鍾馗	-11.0098
竈神	-11.0099
祟	-11.0099
侣	-11.01
喙	-11.01
榭	-11.01
詔曰朕	-11.01
昏眀	-11.0101
夕牲	-11.0102
杏仁	-11.0102
燿	-11.0103
麥秀	-11.0103
老翁	-11.0103
日昃	-11.0104
黍米	-11.0104
漸漸	-11.0105
孔氏	-11.0105
秀才	-11.0105
玉璽	-11.0106
洗眼	-11.0106
夹鍾	-11.0106
斗建	-11.0106
宣示	-11.0107
或有	-11.0107
戴勝	-11.0107
澡	-11.0108
尤甚	-11.0108
毛羽	-11.0109
鬭雞	-11.0109
迄	-11.0109
南薰	-11.011
訶	-11.011
丁卯	-11.0111
祖考	-11.0111
御前	-11.0111
淮南子註	-11.0113
慶厯	-11.0113
未央宫	-11.0114
原風土記	-11.0114
之嵗曰	-11.0114
内庫	-11.0117
縱觀	-11.0118
講論	-11.0118
五岳	-11.012
白髪	-11.012
尹氏	-11.012
桃符	-11.012
表裏	-11.012
太液池	-11.0121
雅樂	-11.0121
朱子注	-11.0123
四年九月	-11.0123
申酉	-11.0123
宋史職官志	-11.0124
羽毛	-11.0124
柏葉	-11.0125
雜録	-11.0125
出門	-11.0125
増吕氏春秋	-11.0127
養老	-11.0127
舊儀	-11.0128
丹鳳	-11.0128
天門冬	-11.0129
望之如	-11.0129
竹醉	-11.013
肅殺	-11.0131
臨川	-11.0134
三卷	-11.0134
凡四	-11.0134
七年四月	-11.0136
公權	-11.0136
不寐	-11.0141
春鳥	-11.0141
獸之	-11.0142
其祀	-11.0143
原周禮地官	-11.0143
為上時	-11.0145
六尺	-11.0145
八十里	-11.0145
茂盛	-11.0146
髙麗	-11.0152
召對	-11.0153
放燈	-11.0154
唐書厯志	-11.0155
集賢	-11.0156
真宗	-11.0157
火災	-11.0162
此是	-11.0162
方丈	-11.0163
耳目	-11.0163
有客	-11.0164
大呂	-11.0166
中書令	-11.0167
取汁	-11.0167
清明節	-11.0169
隂雨	-11.017
軍士	-11.017
王勃	-11.0173
為候	-11.0174
賜百官	-11.0174
鄭公	-11.0174
咸通	-11.0174
男子	-11.0176
相逢	-11.0176
相繼	-11.0176
賜從官	-11.0176
朝獻	-11.0178
千歲	-11.018
凡有	-11.0181
戌亥	-11.0181
王褒	-11.0187
三輔	-11.019
五十里	-11.0191
金蓮	-11.0191
之至也	-11.0193
陽和	-11.0193
香美	-11.0196
徳宗	-11.0198
周之	-11.0198
交易	-11.0198
歎曰	-11.0198
京官	-11.0199
来日	-11.0202
庭樹	-11.0202
以禮	-11.0206
文昌	-11.0208
金鏡	-11.0209
合歡	-11.021
増玉海紹興十	-11.021
數百人	-11.0212
増周禮	-11.0213
入貢	-11.0215
大内	-11.0217
見東方	-11.0217
仙女	-11.0217
金龜	-11.0221
因留	-11.0223
子由	-11.0227
帝親	-11.0229
待詔	-11.0231
古今注	-11.0234
飛鳥	-11.0237
之若	-11.024
含笑	-11.024
後魏	-11.0242
佛寺	-11.0243
秋風起	-11.0246
書籍	-11.0246
玉燭	-11.025
不厭	-11.0252
増杜甫詩	-11.0253
之交	-11.0253
苦寒	-11.0254
兩制	-11.0256
乃罷	-11.0256
三十餘	-11.0256
未眀	-11.0258
五品	-11.0258
限以	-11.0259
燈山	-11.0259
樹上	-11.026
一片	-11.026
春令	-11.0262
儀注	-11.0263
地理	-11.0264
春末	-11.0269
浮雲	-11.027
北齊	-11.0273
如飴	-11.0273
羣神	-11.0277
甘雨	-11.0279
世家	-11.0282
斗杓	-11.0283
書院	-11.0285
人言	-11.029
天意	-11.0293
丑時	-11.0296
而物	-11.0298
頒行	-11.03
三官	-11.0305
三館	-11.0305
於太廟	-11.0312
不堪	-11.0314
禮成	-11.0315
城北	-11.0315
無忌	-11.0318
俗𫝊	-11.0318
改正	-11.032
金色	-11.0323
髙廟	-11.0325
牛酒	-11.0325
為茹	-11.0332
金盤	-11.0333
世人	-11.0338
三統	-11.0339
羣書	-11.034
元會	-11.034
主雨	-11.0347
運行	-11.0352
舉家	-11.0353
神異	-11.0357
主祠	-11.0363
旦而	-11.0364
小而	-11.0369
之方	-11.0373
音聲	-11.0375
郊見	-11.0375
何人	-11.0377
映日	-11.0379
文字	-11.0381
九日詩	-11.0383
試之	-11.0386
稱其	-11.0386
雲母	-11.0388
正東	-11.0389
穆宗	-11.039
孝子	-11.039
二字	-11.0391
人統	-11.0393
誰能	-11.0401
方出	-11.0401
度數	-11.0403
種禾	-11.0404
祠官	-11.0413
大豆	-11.0414
結夏	-11.0415
李公	-11.0415
梨花	-11.0416
極寒	-11.0417
之節	-11.042
長史	-11.0421
旬日	-11.0427
赤氣	-11.0427
増白居易	-11.0433
是月也	-11.0435
燒之	-11.0435
湖上	-11.0436
雨多	-11.0449
寅時	-11.0456
終嵗	-11.0461
盆中	-11.0465
御筆	-11.0467
祭也	-11.0472
清香	-11.0476
百神	-11.0478
燈光	-11.0487
朔方	-11.0488
之異	-11.0489
以紙	-11.0489
和平	-11.0489
増唐㑹要開元十	-11.0493
都下	-11.0493
國獻	-11.0497
如絲	-11.0498
生苗	-11.0498
故稱	-11.0498
至三	-11.0501
孝經	-11.0503
月影	-11.0506
原野	-11.0507
西成	-11.0508
人或	-11.0514
公田	-11.0516
種黍	-11.0517
已過	-11.0518
不合	-11.0519
二七	-11.052
北陸	-11.0528
之每	-11.053
海南	-11.0532
天晴	-11.0537
望後	-11.0542
平明	-11.0546
兩頭	-11.0546
葉青	-11.0546
美人	-11.0551
之木	-11.0557
者咸	-11.0561
正晝	-11.0563
日精	-11.0568
以七月	-11.0568
識者	-11.0571
禮官	-11.0573
春旱	-11.0574
雲中	-11.0575
心星	-11.0575
尚有	-11.0577
既成	-11.0577
猶在	-11.0581
猶有	-11.0584
之宜	-11.0584
正月旦	-11.0589
至七月	-11.059
一首	-11.0592
農桑	-11.0597
遣使者	-11.0598
定時	-11.0602
神龍	-11.0607
於人	-11.0607
嘗有	-11.0612
文宣王	-11.0615
之樂	-11.0615
増唐會要開元	-11.0622
低田	-11.0625
學生	-11.0627
爾雅翼	-11.0634
風寒	-11.0644
可觀	-11.0645
暮秋	-11.0654
夜燈	-11.0657
盛冬	-11.0659
中元日	-11.066
官各	-11.0664
乃有	-11.0668
季月	-11.0673
得過	-11.0674
州西	-11.0677
相國	-11.068
恐其	-11.0683
惟有	-11.0685
城外	-11.0685
根下	-11.0685
紅紫	-11.0688
夏六月	-11.0691
成也	-11.0692
沃之	-11.0708
三十年	-11.0712
以施	-11.0718
眀月	-11.0718
一合	-11.0721
送之	-11.0721
日冬至	-11.0726
朝會	-11.0728
所感	-11.0732
花朝	-11.0743
方熟	-11.0746
二斗	-11.0746
八月一日	-11.0755
閏十一月	-11.0756
酺宴	-11.0762
子者	-11.0762
伐之	-11.0763
以禳	-11.0772
十有一	-11.0772
春歸	-11.0773
三兩	-11.0787
則鳴	-11.0788
頗有	-11.0788
中則	-11.0791
四月四日	-11.0799
之具	-11.0803
亦謂之	-11.0811
採桑	-11.0811
後十日	-11.0811
生魄	-11.082
原禮孟	-11.0828
先後	-11.0831
食物	-11.0837
侍者	-11.0838
月餘	-11.084
秋三月	-11.0847
於河	-11.0852
四民	-11.0857
天漢	-11.086
一歳	-11.0864
芳春	-11.0866
之謂	-11.0869
火以	-11.0871
連山	-11.0872
夜開	-11.088
七言	-11.0881
清光	-11.0883
已成	-11.0885
長大	-11.0886
易曰	-11.0894
火山	-11.0901
中庭	-11.0901
初伏	-11.0902
暑退	-11.0903
可謂	-11.0907
民皆	-11.0911
養之	-11.0912
上書	-11.0915
赤豆	-11.0919
九江	-11.0933
諸侯之	-11.094
自註	-11.0942
池上	-11.0943
復出	-11.0946
之句	-11.0946
漏盡	-11.095
葉細	-11.0954
刑部	-11.0955
不息	-11.0956
迎日	-11.0963
以四月	-11.0966
所建	-11.097
露氣	-11.0972
之端	-11.0976
庶人	-11.0991
未及	-11.0996
侍御	-11.0996
受其	-11.0996
政教	-11.1001
木王	-11.1007
可知	-11.101
有僧	-11.1013
昔有	-11.1015
増唐詩紀事景龍	-11.1027
州牧	-11.1037
安國	-11.1039
漢人	-11.1051
下也	-11.1056
嵗事	-11.1058
於陽	-11.1071
九月十月	-11.1074
北向	-11.1077
民安	-11.1078
山石	-11.108
萬春	-11.1082
天馬	-11.109
不易	-11.1096
二年五月	-11.1113
乃生	-11.1114
大衍	-11.1122
西風	-11.1122
一百八	-11.1135
皇城	-11.1138
日影	-11.1139
曰君	-11.114
陽也	-11.1144
不滿	-11.1148
林木	-11.1151
宣帝	-11.1164
之又	-11.1174
其狀	-11.1177
鳴於	-11.118
乙夘	-11.1186
不容	-11.1193
原田家雜占	-11.1193
増宋㑹要	-11.1197
者具	-11.1204
雖無	-11.1208
始見	-11.1208
為始	-11.1212
尋之	-11.1218
原感應篇	-11.1219
頃之	-11.1221
月十五日	-11.1225
時莭	-11.1226
春来	-11.1229
傳曰	-11.1236
室中	-11.124
増海	-11.1244
池水	-11.1246
使之	-11.1249
一周天	-11.1251
木為	-11.1253
也於是	-11.1263
而知	-11.1279
月十六日	-11.1281
如玉	-11.1288
令諸	-11.1291
無聲	-11.1291
榖貴	-11.1297
火王	-11.1299
國中	-11.13
縣東	-11.1319
日落	-11.1327
推之	-11.1329
天寒	-11.1334
在前	-11.1335
妨	-11.1352
九月初	-11.1354
增史記天官書	-11.1362
増玉海雍熙	-11.1372
秋水	-11.1387
平生	-11.1392
水晶	-11.1395
手詔	-11.1402
終也	-11.1403
原拾遺記	-11.1407
金明池	-11.1408
水澆	-11.1409
本草綱目	-11.1416
上問	-11.1417
樓上	-11.1417
啟蟄	-11.1421
多在	-11.1425
増李	-11.1425
言之	-11.1429
九嵗	-11.143
正元	-11.1432
唐書百官志	-11.1435
月建焉而辰在	-11.1438
交於	-11.1446
正北	-11.1447
秋霖	-11.1449
禜	-11.145
貺	-11.1451
周易集解	-11.1454
都尉	-11.1456
柞	-11.1458
鼜	-11.1458
翰林院編修加	-11.1458
上命	-11.1459
寺僧	-11.1465
鼈	-11.1467
宫闕	-11.1467
攘	-11.1468
瀆	-11.147
唐書禮樂志	-11.1471
慶元	-11.1471
薙	-11.1473
逰人	-11.1473
大同	-11.1474
增四民月令	-11.1474
鰲山	-11.1475
囿	-11.1475
薰	-11.1478
増舊唐書百官志	-11.1478
草色	-11.1478
鵬	-11.1479
沈佺期	-11.1481
増周禮天官	-11.1482
稭	-11.1482
猫	-11.1483
呂氏春秋	-11.1483
僖	-11.1484
蛙	-11.1485
絜	-11.1485
鼉	-11.1485
爍	-11.1485
徂	-11.1486
衮	-11.1487
奄	-11.1488
叅	-11.1488
颺	-11.1488
蜘蛛	-11.1488
者多	-11.1489
釋迦	-11.1489
楠	-11.149
曛	-11.149
沔	-11.1491
麒麟	-11.1491
鍊	-11.1491
魚鼈	-11.1491
燋	-11.1491
舟楫	-11.1491
􁆸	-11.1492
杼	-11.1492
聰	-11.1493
昌齡	-11.1493
日初出	-11.1493
蔴	-11.1493
措	-11.1493
晨出曰	-11.1493
冉冉	-11.1493
耒耜	-11.1493
醇	-11.1493
丕	-11.1494
斵	-11.1494
筭	-11.1494
有鳥	-11.1494
左旋	-11.1494
猜	-11.1494
蓬莱	-11.1494
懶	-11.1494
祼	-11.1494
隂雲出	-11.1494
増皇極經世	-11.1495
鎔	-11.1495
耨	-11.1495
揀	-11.1495
錦袍	-11.1495
張耒	-11.1496
荇	-11.1496
歉	-11.1496
張衡東京賦	-11.1497
入小學	-11.1497
淋	-11.1497
跗	-11.1497
繆	-11.1497
扁鵲	-11.1497
波斯	-11.1497
睇	-11.1497
㯽榔	-11.1497
籜	-11.1497
蒋	-11.1497
鵲始巢	-11.1497
隰	-11.1498
穉	-11.1498
増漢書天文志	-11.1498
煇	-11.1498
紈	-11.1498
太液	-11.1498
校尉	-11.1498
蓐	-11.1499
劵	-11.1499
橙	-11.1499
湯餅	-11.1499
恃	-11.1499
鴟	-11.1499
嶠	-11.1499
挈	-11.1499
原事物紀原	-11.15
杏園	-11.15
靄	-11.15
太僕寺	-11.15
黛	-11.15
墀	-11.15
増宋書禮志	-11.15
飱	-11.15
彝	-11.15
鹿角解	-11.15
白日昇天	-11.1501
椿	-11.1501
関	-11.1501
採蘭雜志	-11.1501
絺	-11.1501
馬蹄	-11.1501
鸞鳯	-11.1502
貎	-11.1502
蹈	-11.1502
觜	-11.1502
葅	-11.1502
春服	-11.1502
箸	-11.1502
翮	-11.1503
勵	-11.1503
零落	-11.1503
桑椹	-11.1503
灸	-11.1503
禋	-11.1503
澍	-11.1503
冩	-11.1503
淪	-11.1503
鄂	-11.1503
醖	-11.1503
原雲仙雜記	-11.1503
増唐詩紀事	-11.1504
増玉海乾道	-11.1504
苛	-11.1504
鄭康成	-11.1504
忻	-11.1504
摸	-11.1504
羯鼓	-11.1504
鉢	-11.1504
扆	-11.1504
琳	-11.1504
蹇	-11.1504
花萼樓	-11.1505
孤寡	-11.1505
恍	-11.1505
遣中使	-11.1505
高祖紀	-11.1505
舄	-11.1505
警衆	-11.1505
撾	-11.1505
各自	-11.1505
剡	-11.1505
增水經注	-11.1505
増漢書五行志	-11.1506
太史奏	-11.1506
荆楚歳時記	-11.1506
誘	-11.1506
原周禮春官	-11.1506
寮	-11.1506
杳	-11.1506
開封府	-11.1506
坂	-11.1506
娛	-11.1506
欝	-11.1506
籞	-11.1506
入山修	-11.1506
帟	-11.1506
嚥	-11.1506
脊	-11.1506
何首烏	-11.1506
娟	-11.1506
京兆府	-11.1507
彎	-11.1507
盗賊	-11.1507
腫	-11.1507
壚	-11.1507
李商隐	-11.1507
毌	-11.1507
祖禰	-11.1507
苫	-11.1507
礙	-11.1508
律中黄鍾	-11.1508
做	-11.1508
増漢書文帝紀十	-11.1508
井花水	-11.1508
鋭	-11.1509
鵞	-11.1509
幘	-11.1509
桞	-11.1509
蔕	-11.1509
貝	-11.1509
睂	-11.1509
熒惑	-11.1509
木棉	-11.1509
咒	-11.1509
枳	-11.1509
悵	-11.1509
譏	-11.1509
網罟	-11.1509
蹕	-11.1509
璞	-11.151
僧孺	-11.151
垢	-11.151
翕	-11.151
琢	-11.151
増舊唐書禮儀志	-11.151
鎻	-11.151
冡	-11.151
甌	-11.1511
霤	-11.1511
遏	-11.1511
裾	-11.1511
失其	-11.1511
元嘉十	-11.1511
憫	-11.1512
青城山	-11.1512
天官	-11.1512
孺	-11.1512
潑	-11.1512
綂	-11.1512
原禮天子乃	-11.1512
燦	-11.1512
辛卯	-11.1512
四時纂要	-11.1512
俗云	-11.1513
仲淹	-11.1513
彭城	-11.1513
朓	-11.1513
園囿	-11.1513
月置或進在	-11.1513
柹	-11.1513
麝香	-11.1513
壟	-11.1513
趾	-11.1514
増太平廣記	-11.1514
陁	-11.1514
侍衛	-11.1514
巳亥	-11.1514
天寳遺事	-11.1514
蕨	-11.1514
鑪	-11.1514
頃刻	-11.1515
増漢書郊祀志	-11.1515
耆老	-11.1515
佇	-11.1515
分寸之	-11.1515
婉	-11.1515
綸	-11.1515
米賤	-11.1515
榆莢	-11.1515
旻	-11.1515
逵	-11.1515
反舌	-11.1516
氛	-11.1516
牋	-11.1516
金華殿	-11.1516
淨洗	-11.1516
逶迤	-11.1517
謡	-11.1517
虞世南	-11.1517
増後漢書祭祀志	-11.1517
顛	-11.1517
袂	-11.1518
藴	-11.1518
傑	-11.1518
后妃	-11.1518
太常博士	-11.1518
春秋元命苞	-11.1518
柷	-11.1518
滎陽	-11.1518
眄	-11.1518
笏	-11.1518
產	-11.1518
笥	-11.1518
賞花釣魚	-11.1518
威儀	-11.1518
氷泮	-11.1518
硫黄	-11.1518
赭	-11.1518
蜥	-11.1518
批	-11.1519
躡	-11.1519
慨	-11.1519
原東方朔占書	-11.1519
昇平	-11.152
寀	-11.152
攬	-11.152
𢎞農	-11.152
纖	-11.152
增洞冥記	-11.152
耽	-11.152
為火	-11.152
册	-11.1521
梢	-11.1521
増帝京景物略	-11.1521
増漢書律歴志	-11.1521
盧橘	-11.1521
蒻	-11.1521
夹	-11.1522
熖	-11.1522
鄴中記	-11.1522
奎婁	-11.1522
白虎通徳論曰	-11.1522
譬	-11.1522
槩	-11.1522
禾稼	-11.1522
原隋書	-11.1522
瀾	-11.1522
增宋書	-11.1523
庶㡬	-11.1523
挟	-11.1523
伏翼	-11.1523
坤艮	-11.1523
丙申	-11.1523
后稷	-11.1523
檐	-11.1523
瓤	-11.1524
資治通鑑	-11.1524
樞宻院	-11.1524
掇	-11.1524
槍	-11.1524
麟徳殿	-11.1524
螳蜋	-11.1524
章句	-11.1524
太平御覽	-11.1525
爼	-11.1525
常參官	-11.1525
禊飲	-11.1525
原史記天官書	-11.1525
摶	-11.1525
建寅之月	-11.1526
鸞鳳	-11.1526
卿大夫	-11.1526
呵	-11.1526
傅休奕	-11.1526
原北史	-11.1527
宴近臣	-11.1527
禾黍	-11.1527
蕭瑟	-11.1527
裔	-11.1527
荆湖	-11.1528
原易通卦驗	-11.1528
交錯	-11.1528
筌	-11.153
開元中	-11.153
宛轉	-11.153
巫祠	-11.153
府庫	-11.1531
増本草拾遺	-11.1531
麯	-11.1531
律中無射	-11.1531
増漢書武帝紀元封	-11.1532
都鄙	-11.1533
襦	-11.1533
調露	-11.1533
考其	-11.1533
珍果	-11.1533
天台	-11.1533
悔	-11.1533
五嵗再閏	-11.1533
冨	-11.1533
此之謂	-11.1533
薺麥	-11.1533
日月之行	-11.1534
槁	-11.1534
昆明池	-11.1535
驪山	-11.1535
訾	-11.1536
襄公	-11.1536
方来主	-11.1536
評	-11.1536
浴佛	-11.1536
復始	-11.1537
五六尺	-11.1537
瑀	-11.1537
知制誥	-11.1537
主来年	-11.1537
増周易集解	-11.1537
黄鵠	-11.1538
酒酣	-11.1538
科斗	-11.1539
睢	-11.1539
製造	-11.1539
九衢	-11.1539
收歛	-11.1539
交趾	-11.154
増荆楚嵗時記	-11.154
笙歌	-11.154
校定	-11.1541
單衣	-11.1541
司業	-11.1541
積聚	-11.1542
起居注	-11.1542
掘土	-11.1542
飛昇	-11.1542
角黍	-11.1543
増楚辭	-11.1544
平陸	-11.1544
寢廟	-11.1545
傾城	-11.1545
多有之	-11.1545
庾肩吾詩	-11.1545
御筵	-11.1545
治服之	-11.1546
夫婦	-11.1547
行春令	-11.1547
蜀郡	-11.1548
俗呼	-11.1548
聖製	-11.1549
暑雨	-11.1551
二月開花	-11.1552
増梁簡文帝	-11.1552
晨昏	-11.1552
黄白色	-11.1552
増筍譜	-11.1552
衣裘	-11.1552
可憐	-11.1553
粉團	-11.1553
大蜡	-11.1554
賜御書	-11.1554
黒豆	-11.1554
史館	-11.1554
太祝	-11.1554
精舍	-11.1555
自開	-11.1556
苦菜	-11.1556
凝結	-11.1557
畫工	-11.1557
皇考	-11.1558
安静	-11.1559
御製夏日	-11.156
玉津	-11.156
百二十人	-11.156
永嘉	-11.156
㤗山	-11.156
羣吏	-11.1563
萬姓	-11.1563
洪武	-11.1563
四尺	-11.1563
景福	-11.1565
孝宗	-11.1566
寳鏡	-11.1568
質明	-11.1568
二刻半	-11.1569
不輟	-11.1569
桂林	-11.1569
安福	-11.157
大司農	-11.157
元年十月	-11.157
連珠	-11.1571
綵勝	-11.1571
不可勝	-11.1571
閉目	-11.1572
千餘人	-11.1573
養蠶	-11.1573
進呈	-11.1575
養萬物	-11.1576
州界	-11.1576
月生苖	-11.1577
前殿	-11.1577
小盂	-11.1578
不拘	-11.1579
立夏日	-11.1579
一臼	-11.158
漉出	-11.1581
髙適	-11.1582
仁義	-11.1584
轉對	-11.1584
玉杯	-11.1585
樓臺	-11.1585
決明	-11.1586
俗呼為	-11.1587
酒饌	-11.1587
公與	-11.1588
六畜	-11.1588
虎頭	-11.159
池澤	-11.159
百福	-11.1591
飛騎	-11.1591
三十卷	-11.1592
太真	-11.1595
五年正月	-11.1595
涼風至	-11.1596
一箇	-11.1596
千載	-11.1597
紫禁	-11.1598
七月一日	-11.1599
辛香	-11.16
田禾	-11.1601
燒香	-11.1601
郎君	-11.1602
典禮	-11.1602
合昏	-11.1602
大稔	-11.1604
早梅	-11.1604
八月十五日	-11.1604
進御	-11.1605
之一候	-11.1605
便止	-11.1605
詳見	-11.1605
今宵	-11.1606
力士	-11.1606
唐書歴志	-11.1609
立夏後	-11.1612
忽聞	-11.1613
髙昌	-11.1614
州常以五	-11.1614
公侯	-11.1616
行冬令	-11.162
太室	-11.1621
茅山	-11.1622
石壁	-11.1623
曰妾	-11.1624
石穴	-11.1625
郊廟	-11.1625
美田	-11.1626
明年正月	-11.1629
河漢	-11.1629
東京	-11.1631
本義	-11.1635
冰雪	-11.1635
六典	-11.1637
牲用	-11.1638
風塵	-11.1639
大抵	-11.164
夀星	-11.164
四孟	-11.1641
漁人	-11.1643
端居	-11.1646
歳首	-11.1647
永平	-11.1647
果然	-11.1649
三月十八日	-11.1649
老君	-11.165
列坐	-11.165
國人	-11.1652
累月	-11.1653
百果	-11.1656
西園	-11.1656
乗馬	-11.1659
以告	-11.1659
由此	-11.166
八莭	-11.166
俗傳	-11.1662
供佛	-11.1662
重午	-11.1662
登歌	-11.1663
晨起	-11.1665
紀聞	-11.167
乆之	-11.167
進讀	-11.167
玉皇	-11.1672
桂樹	-11.1672
生薑	-11.1673
然其	-11.1677
牡丹花	-11.1679
子産	-11.1682
每歲	-11.1683
勿食	-11.1686
葵子	-11.1686
黒雲	-11.1686
始動	-11.1687
收藏	-11.1688
畢集	-11.1689
銘曰	-11.1689
旦起	-11.1692
行像	-11.1693
樓前	-11.1697
年豐	-11.1701
進奉	-11.1704
六斗	-11.171
于廟	-11.1713
次對	-11.1713
明珠	-11.1719
聲如	-11.172
増唐㑹要開元二十	-11.1725
於南郊	-11.1727
一束	-11.1731
立春後	-11.1732
桂子	-11.1734
千六百	-11.1736
鍾山	-11.1736
日西	-11.1736
仙家	-11.1737
前期	-11.174
也夏小正	-11.174
早起	-11.174
之精也	-11.174
省官	-11.1743
之曲	-11.1743
月旦	-11.1746
如此則	-11.175
於禁中	-11.1751
之數也	-11.1751
北山	-11.1752
増玉海祥符三年	-11.1753
除道	-11.1753
歸来	-11.1754
玉泉	-11.1755
無有	-11.1755
之體	-11.1756
黄衣	-11.1759
苦雨	-11.1761
日辰	-11.1764
城縣	-11.1767
經宿	-11.1768
清河	-11.1768
調和	-11.1769
水潦	-11.177
地形	-11.1772
帳中	-11.1773
時見	-11.1775
源出	-11.1776
石室	-11.1776
國學	-11.1778
臣等	-11.1779
四丈	-11.1779
者非	-11.178
音律	-11.1781
所獲	-11.1784
千門	-11.1788
海内	-11.1788
故號	-11.1789
則寒	-11.179
乞子	-11.1791
洛中	-11.1796
御殿	-11.1796
朝野	-11.1798
寺前	-11.18
迎年	-11.1801
寒食詩	-11.1801
厯書	-11.1804
瑞應	-11.1806
山藥	-11.1807
午後	-11.1811
黄河	-11.1814
長秋	-11.1818
軍事	-11.1819
土不	-11.1825
同知	-11.1828
居士	-11.183
長吏	-11.1831
召見	-11.1831
出納	-11.1834
歴數	-11.1837
老酒	-11.1839
月與	-11.1839
不識	-11.184
月二日	-11.1842
春分之	-11.1846
☴)	-11.1853
之日也	-11.1854
寒甚	-11.1855
學道	-11.1856
迎冬	-11.1856
景物	-11.186
受賜	-11.1861
納之	-11.1863
題詩	-11.1864
數人	-11.1868
落葉	-11.1874
區種	-11.1875
望前	-11.1877
春雪	-11.1878
秋興	-11.1892
舉酒	-11.1894
已定	-11.1896
夜氣	-11.1906
走馬	-11.1906
舊事	-11.1906
有罪	-11.1911
一丸	-11.1912
迎陽	-11.1916
二七日	-11.1916
無蟲	-11.1916
之間有	-11.1916
三日後	-11.1917
夢得	-11.192
諸色	-11.1925
霜後	-11.1925
萬物成	-11.1929
始鳴	-11.1938
門樓	-11.1939
陽長	-11.194
武王	-11.1943
五采	-11.1945
長老	-11.1946
七星	-11.1948
為名也	-11.195
拜天	-11.1952
花果	-11.1953
不差	-11.1958
祭服	-11.1958
光眀	-11.1959
自稱	-11.196
賜名	-11.1967
之説	-11.1969
曉則	-11.1974
皆見	-11.1975
樹花	-11.1981
每以	-11.1991
秋後	-11.1992
石間	-11.1997
重五	-11.2006
迎秋	-11.2012
在午	-11.2013
三百里	-11.2016
秋令	-11.2016
始生於	-11.2016
應天	-11.2018
部侍郎	-11.202
都無	-11.2022
三司	-11.2028
白晝	-11.2028
人主	-11.2031
澆之	-11.2031
野生	-11.2048
水洗	-11.205
宫門	-11.2052
晴天	-11.2052
望見	-11.2052
短長	-11.2055
二月初	-11.2065
之瑞	-11.2068
出身	-11.2071
千秋	-11.2072
師而	-11.2078
已復	-11.2083
出逰	-11.2085
死者	-11.2086
得之以	-11.2087
擇日	-11.2087
行千里	-11.2099
為水	-11.2099
江夏	-11.21
而青	-11.2106
二年七月	-11.2106
小殿	-11.2107
功徳	-11.211
呼之	-11.2118
其詞	-11.2122
水清	-11.2123
以杖	-11.2125
到此	-11.2125
浮陽	-11.2129
龍沙	-11.2132
大小麥	-11.2134
為孤	-11.2134
大吉	-11.2137
朝臣	-11.2137
者以其	-11.2161
逺行	-11.2162
時果	-11.2171
相從	-11.2174
子母	-11.2177
吏人	-11.2181
而不見	-11.2183
未明	-11.2184
務農	-11.2188
江山	-11.219
何所	-11.2192
日日	-11.22
其鄉	-11.2211
不習	-11.2224
諸天	-11.2229
自能	-11.223
花似	-11.2238
九月熟	-11.225
除日	-11.2253
上升	-11.2253
之名曰	-11.2254
張燈	-11.2258
雪中	-11.2259
注謂	-11.2263
生意	-11.2269
涌	-11.2272
皆在	-11.2285
高宗	-11.2286
如此者	-11.2298
本無	-11.2305
者並	-11.2308
亦當	-11.2329
如麥	-11.233
河内	-11.2336
六年十二月	-11.2348
唐貞觀	-11.2355
成數	-11.2355
十一月十	-11.2356
照夜	-11.2357
秋霜	-11.2361
玉山	-11.2371
正月二十日	-11.2373
子似	-11.2379
其父	-11.2386
必用	-11.2391
經冬	-11.2392
可見	-11.2418
夏寒	-11.2418
終身	-11.242
息於	-11.2424
秋聲	-11.2425
夫子	-11.2427
無令	-11.2428
與客	-11.2432
有驗	-11.2441
諸山	-11.2453
以測	-11.2463
來朝	-11.2465
枝上	-11.2468
光燭	-11.2469
又詔	-11.248
覆以	-11.248
種麻	-11.2482
水仙	-11.2483
而味	-11.2491
閏二月	-11.2501
注今	-11.2504
避風	-11.2506
春隂	-11.251
列星	-11.2511
在田	-11.2525
更為	-11.2529
初嵗	-11.253
化生	-11.2531
中有一	-11.2539
殺草	-11.2547
配以	-11.2564
或用	-11.2566
含元殿	-11.257
四月五月	-11.2575
縣北	-11.258
奏曰	-11.258
日夕	-11.2583
生根	-11.2585
九成	-11.2589
象人	-11.2589
引之	-11.2597
收子	-11.26
動則	-11.2604
也故曰	-11.2614
持齋	-11.2617
蘇軾詩	-11.2618
東都	-11.2627
正始	-11.2648
遊於	-11.2652
内殿	-11.2652
騎士	-11.2665
従之	-11.2669
至十月	-11.2674
雞人	-11.2687
熟者	-11.2689
唐書禮志	-11.2694
風急	-11.2695
三月之時	-11.2698
香湯	-11.2705
口中	-11.2707
富春	-11.2714
火正	-11.2719
病不	-11.2722
不異	-11.2728
陽雲出	-11.2736
終而	-11.2758
嘉其	-11.2789
十丈	-11.2809
行樂	-11.282
四始	-11.283
背有	-11.2831
癸夘	-11.2833
通考	-11.284
初成	-11.2847
二枚	-11.285
句云	-11.2854
其理	-11.2854
果有	-11.2866
十六年	-11.2878
日歴	-11.2893
夏官	-11.2895
章帝	-11.2901
為戲	-11.2901
李商隠	-11.2907
米一石	-11.2909
五年四月	-11.2921
元年三月	-11.2921
正月朔旦	-11.2925
宜男	-11.2935
洛陽人	-11.2938
飴	-11.2942
分賜	-11.2954
在戍	-11.2956
山頂	-11.2959
皇祐	-11.2962
挈壺	-11.2979
十二律	-11.2999
原田家五行	-11.3001
以紅	-11.3011
生魚	-11.3013
二十年	-11.3014
増唐㑹要開元	-11.302
發生	-11.3032
月莭晝	-11.3035
北門	-11.3067
江州	-11.3085
是歲	-11.3095
漢書律歴志	-11.3096
増元史	-11.3099
大合樂	-11.31
齊民要術	-11.3107
九年四月	-11.3116
皆有之	-11.3119
搜神記	-11.3126
筍譜	-11.3126
邜	-11.3129
椰	-11.3134
員外郎	-11.3134
衾	-11.3135
苐	-11.3137
施恵	-11.3138
豁	-11.3138
七十六	-11.3139
縚	-11.314
乖	-11.3141
季秋之月	-11.3141
璣	-11.3141
拙	-11.3141
莠	-11.3142
此法	-11.3144
増瑯嬛記	-11.3144
庾肩吾	-11.3145
蒨	-11.3145
憩	-11.3145
睦	-11.3145
擦	-11.3146
正齒位	-11.3146
棠	-11.3146
倅	-11.3147
恰	-11.3147
伽	-11.3148
増百怪斷經	-11.3148
閽	-11.3148
終而復始	-11.3149
衞士	-11.3149
番禺	-11.315
无	-11.3151
竦	-11.3151
醢	-11.3151
祉	-11.3151
宋書百官志	-11.3152
荆楚歲時記	-11.3152
正白	-11.3152
漚	-11.3152
鉛	-11.3153
孝弟	-11.3153
秃	-11.3153
原圖經本草	-11.3154
翰墨	-11.3155
塜	-11.3155
増莊子	-11.3155
糊	-11.3155
原荘子	-11.3156
宼	-11.3156
悪	-11.3156
右春坊右	-11.3156
姝	-11.3156
望春宫	-11.3156
河西	-11.3156
粳	-11.3156
吼	-11.3156
汙	-11.3156
豎	-11.3157
瓮	-11.3157
三品以上	-11.3157
燼	-11.3157
冦	-11.3158
賭	-11.3158
撮	-11.3158
幃	-11.3159
名醫别録	-11.3159
陶𢎞景	-11.3159
懿	-11.3159
踝	-11.3159
廸	-11.3159
渤	-11.3159
租税	-11.3159
増桯史	-11.316
汶	-11.316
浹	-11.316
齊東野語	-11.316
灣	-11.316
火星中	-11.316
増玉海淳化五年	-11.316
外臺秘要	-11.316
五年十月	-11.316
琛	-11.3161
圉	-11.3161
絕	-11.3161
試詩賦	-11.3161
鉉	-11.3161
罏	-11.3162
熙寜	-11.3162
駁	-11.3162
疉	-11.3162
奔走	-11.3162
鴝鵒	-11.3162
漢宣帝	-11.3162
舅	-11.3162
芎藭	-11.3163
増樂緯	-11.3163
熊羆	-11.3163
郃	-11.3163
􁰳	-11.3163
増博物志	-11.3163
挾	-11.3163
歙	-11.3164
貿	-11.3164
痺	-11.3164
帕	-11.3164
駘蕩	-11.3164
分夜漏三十	-11.3164
换	-11.3164
遨	-11.3164
畨	-11.3164
蔀七十六嵗次	-11.3164
浙江	-11.3164
脈	-11.3164
増異苑	-11.3164
威靈仙	-11.3164
憚	-11.3164
畋	-11.3164
煌煌	-11.3164
鐃	-11.3165
澶	-11.3165
岳陽風土記岳州	-11.3165
募	-11.3165
趺	-11.3165
瑑	-11.3165
瘤	-11.3165
騷	-11.3165
罟	-11.3166
漕	-11.3166
溽	-11.3166
伸	-11.3166
鰲	-11.3166
坦	-11.3166
碩	-11.3166
五言詩	-11.3166
李徳裕	-11.3166
眩	-11.3166
珮	-11.3166
藪	-11.3166
憇	-11.3166
茰	-11.3166
泮	-11.3167
孟嘗君	-11.3167
輯	-11.3167
䭔	-11.3167
慈恩寺	-11.3167
酋	-11.3167
㽞	-11.3167
洩	-11.3167
橘柚	-11.3167
後漢書和帝紀永元	-11.3167
秔	-11.3167
迴	-11.3167
膢	-11.3167
封泰山	-11.3168
蕪菁	-11.3168
凱	-11.3168
秘書省	-11.3168
穠	-11.3169
謂左右曰	-11.3169
豳	-11.3169
㬌	-11.3169
徂暑	-11.3169
淒淒	-11.317
娘	-11.317
𣗳	-11.317
張九齡	-11.317
私第	-11.317
紞	-11.317
罅	-11.317
邈	-11.317
璋	-11.317
纊	-11.3171
筴	-11.3171
瘦	-11.3171
各得其	-11.3171
春秋感精符	-11.3171
傘	-11.3171
王而萬物	-11.3171
黿	-11.3171
涿	-11.3171
元枵	-11.3171
溥	-11.3171
剰	-11.3172
㺯	-11.3172
貴戚	-11.3172
乾元殿	-11.3172
増荘子	-11.3172
琶	-11.3172
苟	-11.3172
朏	-11.3172
嵐	-11.3172
堇	-11.3172
琰	-11.3172
係	-11.3172
原藏經	-11.3172
演繁露	-11.3172
胡椒	-11.3172
増選擇歴書	-11.3172
椎	-11.3172
螻	-11.3172
辱	-11.3173
售	-11.3173
托	-11.3173
増湘山野録	-11.3173
滉	-11.3173
蕎麥	-11.3173
麥門冬	-11.3173
鷗	-11.3174
仁也	-11.3174
牘	-11.3174
木鐸	-11.3174
榆栁	-11.3174
琪	-11.3174
㤀	-11.3174
文獻通考	-11.3174
權徳輿	-11.3174
圖經夲草	-11.3174
衛尉	-11.3175
五色線	-11.3175
俄頃	-11.3175
射干	-11.3175
芳菲	-11.3175
芼	-11.3175
晞	-11.3175
北方元武之宿	-11.3175
孳	-11.3175
毛毨	-11.3175
毅	-11.3176
晒乾	-11.3176
翩	-11.3176
飲酎	-11.3176
瞿	-11.3176
景祐	-11.3176
聼政	-11.3176
鸚鵡	-11.3176
便民圗纂	-11.3176
増晉書天文志	-11.3176
増農桑通訣	-11.3176
紉	-11.3176
南越志	-11.3176
月終則	-11.3176
睠	-11.3176
原居家宜忌	-11.3176
増星經	-11.3176
妍	-11.3176
烘	-11.3176
増玉海至道元年	-11.3176
琴瑟	-11.3177
増後漢書律歴志	-11.3177
紏	-11.3177
矯	-11.3177
黜	-11.3177
廣義注	-11.3177
瘴	-11.3177
車旂	-11.3177
倡	-11.3177
増晉書樂志	-11.3177
日卯時月在	-11.3177
增唐㑹要	-11.3178
祭司寒	-11.3178
䦨	-11.3178
綽	-11.3178
性理大全	-11.3178
猛獸	-11.3178
窻	-11.3178
魏武	-11.3178
冠帶	-11.3179
撻	-11.3179
增北史	-11.3179
宵旰	-11.3179
湍	-11.3179
逐疫	-11.3179
宥	-11.3179
龍涎	-11.3179
夏枯草	-11.3179
沂	-11.3179
沮	-11.3179
烽	-11.3179
靄靄	-11.3179
欖	-11.3179
國史補	-11.3179
凉風至	-11.3179
酷	-11.3179
繚	-11.3179
控	-11.3179
騶	-11.3179
搗汁	-11.3179
鵲橋	-11.3179
辟疫	-11.3179
僻	-11.318
墟	-11.318
斟	-11.318
稽古	-11.318
二百卷	-11.318
廳	-11.318
阿措	-11.318
偕	-11.318
鷹化為鳩	-11.318
苽	-11.318
委貌	-11.318
羗	-11.318
夾鍾	-11.3181
渾儀	-11.3181
刮	-11.3181
團扇	-11.3181
冠冕	-11.3181
采蘩	-11.3181
刑罰	-11.3181
喘	-11.3181
或退在	-11.3181
淫所勝平以	-11.3181
紘	-11.3181
戀	-11.3182
越王	-11.3182
于闐	-11.3182
井華水	-11.3182
擎	-11.3182
逡廵	-11.3182
増務本新書	-11.3182
増宋史樂志	-11.3182
昴畢	-11.3182
麾	-11.3182
虐	-11.3182
錐	-11.3182
幟	-11.3182
需	-11.3183
屠蘇	-11.3183
増舊唐書音樂志	-11.3183
瑤	-11.3183
景靈宫	-11.3183
艱難	-11.3183
溟	-11.3183
嗚	-11.3183
堕	-11.3183
増詩疏廣要	-11.3183
憎	-11.3183
遲速	-11.3183
臟	-11.3184
以享	-11.3184
􁃽	-11.3184
太清樓	-11.3184
鉏	-11.3184
拖	-11.3185
譲	-11.3185
野蠶成繭	-11.3185
緹	-11.3186
薰風	-11.3186
葭灰	-11.3186
鉞	-11.3186
觀刈麥	-11.3186
杞	-11.3186
鵙始鳴	-11.3186
蕭蕭	-11.3186
晋書樂志	-11.3187
増後漢書章帝紀建初	-11.3187
雄雞	-11.3187
尊卑	-11.3187
滚	-11.3187
索隠	-11.3187
陸龜䝉	-11.3187
淞	-11.3187
老杜詩云	-11.3187
乃還	-11.3187
爆	-11.3187
鎗	-11.3187
増西京雜記	-11.3187
􁁿	-11.3188
歐陽公	-11.3188
都督	-11.3188
孟冬之月	-11.3188
月令章句	-11.3188
蔓菁	-11.3188
厄	-11.3188
小白花	-11.3188
飛蛾	-11.3188
壻	-11.3188
絨	-11.3188
配享	-11.3188
右旋	-11.3188
章得象	-11.3189
列女𫝊	-11.3189
有二種	-11.3189
芬香	-11.3189
蟄蟲坏户	-11.3189
楊柳	-11.3189
漫漫	-11.319
儀仗	-11.319
刳	-11.319
郭璞	-11.319
王洙	-11.319
國子學	-11.319
増路史	-11.319
宋祁	-11.319
琅邪	-11.3191
水始涸	-11.3191
棗栗	-11.3191
綃	-11.3192
五加皮	-11.3192
粱	-11.3192
滇	-11.3192
彪	-11.3192
慙	-11.3192
不生蟲	-11.3193
日候之甲	-11.3193
晷影	-11.3193
京兆尹	-11.3193
閉關	-11.3193
盌	-11.3193
日躔	-11.3193
蚯蚓出	-11.3193
其味甘	-11.3193
皎然	-11.3194
諸般	-11.3194
廪	-11.3194
詩七月曰	-11.3194
増雲笈七籤	-11.3195
煗	-11.3195
増周髀算經	-11.3195
日月五星	-11.3195
王建宫詞	-11.3195
霰	-11.3195
坊巷	-11.3195
炊飯	-11.3195
去滓	-11.3196
江浙	-11.3196
數十丈	-11.3196
増南史齊	-11.3196
珉	-11.3196
祠宇	-11.3196
閉塞	-11.3196
四卷	-11.3197
厓	-11.3197
葛衣	-11.3197
曹彬	-11.3197
甘露降	-11.3197
增農桑輯要	-11.3197
羣后	-11.3197
口脂	-11.3197
場圃	-11.3198
醃	-11.3198
園圃	-11.3199
團團	-11.3199
辟邪	-11.3199
芻狗	-11.3199
原荆楚歳時記	-11.3199
晝漏五十	-11.32
盈尺	-11.32
勝負	-11.32
椒盤	-11.32
鱗甲	-11.32
閉藏	-11.32
氷凍	-11.32
原内經	-11.3201
木連理	-11.3201
遼東	-11.3201
居中央	-11.3201
大赦天下	-11.3202
副使	-11.3202
汾隂	-11.3202
氣和則	-11.3202
測景	-11.3202
孟浩然	-11.3202
離離	-11.3203
村落	-11.3203
朝集使	-11.3203
雷電	-11.3203
煎餅	-11.3203
獅子	-11.3203
鏤雞子	-11.3203
稱觴	-11.3203
扵東郊	-11.3203
蒼蒼	-11.3204
至未時	-11.3204
吹笛	-11.3204
辛苦	-11.3204
飢寒	-11.3204
風雪	-11.3204
法帖	-11.3205
長春節	-11.3205
芬芳	-11.3206
蘇轍	-11.3206
休息	-11.3206
郎臣	-11.3207
原玉燭寳典	-11.3207
增酉陽雜俎	-11.3207
白露降	-11.3207
建丑	-11.3207
夙興夜寐	-11.3208
士大夫	-11.3209
増宋書符瑞志漢	-11.321
增田家雜占	-11.321
正衙	-11.321
岐伯	-11.321
茄子	-11.321
一觔	-11.3211
原後漢書律歴志	-11.3211
博雅	-11.3211
課試	-11.3211
蝗蟲	-11.3211
澤蘭	-11.3211
五月丙午	-11.3212
脾主	-11.3212
梓州	-11.3213
山礬	-11.3213
納涼	-11.3213
冰井	-11.3217
銀河	-11.3217
導從	-11.3217
蜉蝣	-11.3218
有司奏	-11.3218
玉牒	-11.3218
花卉	-11.3218
執燭	-11.3218
辟兵	-11.3218
龍潭	-11.3219
中黄門	-11.322
度量	-11.3221
門閭	-11.3221
九寸	-11.3221
東臯	-11.3222
陸㳺詩	-11.3222
行也	-11.3222
白鷺	-11.3223
衛士	-11.3223
鍾律	-11.3224
晡時	-11.3225
入閤	-11.3225
表賀	-11.3226
洗目	-11.3226
者為勝	-11.3227
印度	-11.3227
作坑	-11.3227
卷耳	-11.3227
運轉	-11.3229
今兹	-11.3229
山谷及	-11.3229
教授	-11.323
工師	-11.323
所歌也	-11.323
從魁	-11.3231
參軍	-11.3231
加減	-11.3232
穴口	-11.3232
受業	-11.3233
攤令	-11.3234
直學士	-11.3235
桂枝	-11.3235
打毬	-11.3235
杜甫詩云	-11.3235
弦望	-11.3236
考試	-11.3236
晨夕	-11.3237
炎熱	-11.3238
王維詩	-11.3238
増沈佺期	-11.3239
子受制	-11.324
建炎	-11.324
累年	-11.324
誦經	-11.324
相蜂	-11.324
以鹽	-11.324
佳辰	-11.324
徃來	-11.3241
留守	-11.3242
騎射	-11.3242
紫㣲	-11.3242
澆灌	-11.3243
禽經	-11.3243
里社	-11.3243
勞苦	-11.3244
賜絹	-11.3244
王公以下	-11.3244
有刺	-11.3245
貧民	-11.3246
白兔	-11.3246
總章	-11.3247
楚師	-11.3247
杪秋	-11.3247
太史令	-11.3247
枝幹	-11.3248
禱雨	-11.3248
浣花	-11.3248
元帝	-11.3248
百戲	-11.3248
乆服	-11.3249
可免	-11.3249
兩岸	-11.3249
神爵	-11.3249
代序	-11.3249
歴代	-11.325
三月三日取	-11.3251
俗號	-11.3251
諸衛	-11.3251
月俸	-11.3252
牛角	-11.3252
順時氣	-11.3252
乘馬	-11.3253
昇天	-11.3253
服飾	-11.3254
執政	-11.3254
魏文	-11.3254
十二月八日	-11.3254
西陸	-11.3255
文帝紀	-11.3256
川谷	-11.3256
舒州	-11.3257
集觧	-11.3257
長一尺	-11.3257
者陽氣	-11.3257
雨雹	-11.3258
龜魚	-11.3258
藏冰	-11.3258
髙數尺	-11.3259
歌吹	-11.3259
拜舞	-11.3259
晨興	-11.3259
承露	-11.326
盲風	-11.3261
玉芝	-11.3262
更㸃	-11.3262
伐木	-11.3262
續命	-11.3262
既覺	-11.3263
咸池	-11.3264
六壬	-11.3265
圗經	-11.3265
王珪	-11.3265
増南方草木状	-11.3265
畫圖	-11.3265
只是	-11.3267
讀法	-11.327
寒食節	-11.327
朕甚	-11.3271
數十里	-11.3271
女工	-11.3272
左氏	-11.3272
四月十五日	-11.3274
成式	-11.3274
不復見	-11.3274
如珠	-11.3275
上黨	-11.3276
羣仙	-11.3277
正月甲子	-11.3278
貢物	-11.3278
増齊民要術凡	-11.328
登樓	-11.328
收蔵	-11.3282
陰盛	-11.3282
扈從	-11.3284
五色玉	-11.3284
三百六十日	-11.3284
水涸	-11.3287
臘雪	-11.3288
霖雨	-11.3288
太微	-11.3288
辛氏	-11.3289
増北史魏	-11.3289
劉向	-11.329
親耕	-11.3291
既醉	-11.3292
園林	-11.3293
何須	-11.3293
率更	-11.3293
立班	-11.3294
宴罷	-11.3294
燈夕	-11.3296
章奏	-11.3296
幸金明池	-11.3297
平湖	-11.3298
凉州	-11.3298
陰乾	-11.33
烏頭	-11.3302
奉迎	-11.3302
到處	-11.3304
安息	-11.3304
賜飲	-11.3305
雞頭	-11.3305
羣鳥	-11.3306
鄉村	-11.3306
治兵	-11.3307
丁香	-11.3308
石灰	-11.331
寳歴	-11.331
見訖	-11.3311
荷葉	-11.3311
其首	-11.3311
濟南	-11.3312
賜爵	-11.3312
河圖	-11.3313
平仲	-11.3313
諸陵	-11.3314
相承	-11.3314
増齊民要術種	-11.3316
龍虎	-11.3317
清涼	-11.3318
升殿	-11.3318
芳樹	-11.332
陳寳	-11.332
本司	-11.3324
昨日	-11.3326
月律謂之	-11.3326
牛女	-11.3327
緡	-11.3327
太師	-11.3327
忽然	-11.3328
登臺	-11.3329
河水	-11.3335
獻功	-11.3337
郎官	-11.3337
盤龍	-11.3337
講官	-11.3339
不暇	-11.3341
嘉魚	-11.3341
門户	-11.3342
太歳	-11.3343
宿根	-11.3343
晚宴	-11.3343
瑩中	-11.3348
正月晦日	-11.335
相賀	-11.3351
立表	-11.3352
閏六月	-11.3354
果實	-11.3356
莫知	-11.3357
除田	-11.3359
四年十一月	-11.336
萬寳	-11.336
諸路	-11.3362
作餅	-11.3362
二月十二日	-11.3363
食鹽	-11.3367
七枚	-11.3368
西向	-11.3369
祥雲	-11.337
之本也	-11.3372
年老	-11.3373
百病	-11.3374
増杜甫	-11.3376
潔白	-11.3377
禮拜	-11.3378
設宴	-11.3379
晉書	-11.338
宫室	-11.3382
酒味	-11.3385
海中有	-11.3387
兵馬	-11.3387
退朝	-11.3388
永明	-11.3389
増玉海皇祐	-11.3389
經義	-11.339
百家	-11.339
金陵	-11.339
或乗	-11.3393
極歡	-11.3397
屬天	-11.3399
風穴	-11.34
悉皆	-11.3402
帝命	-11.3409
種豆	-11.3409
清旦	-11.341
糯米	-11.341
隠詩	-11.3411
春睡	-11.3414
也然則	-11.3418
夜讀書	-11.3426
久雨	-11.3428
元真	-11.343
也但	-11.3432
五運	-11.3435
鏤金	-11.3436
細草	-11.3438
親御	-11.3438
大吕	-11.3439
春禽	-11.344
百縣	-11.344
載酒	-11.3442
朝拜	-11.3445
起舞	-11.345
妃子	-11.3451
各異	-11.3452
宴㑹	-11.3453
秦王	-11.3454
詩二首	-11.3455
載記	-11.3455
便是	-11.3456
日脚	-11.3458
道俗	-11.3459
言訖	-11.3462
應舉	-11.3462
帝御	-11.3463
讀之	-11.3464
六千	-11.3464
用夏正	-11.3465
天關	-11.3465
酒果	-11.3468
細葉	-11.3471
尚食	-11.3471
八年十二月	-11.3475
明府	-11.3476
無烟	-11.3479
春洲	-11.3479
紫草	-11.348
漢家	-11.3481
仍令	-11.3484
得失	-11.3485
不可得	-11.3487
建星	-11.3488
青白色	-11.3489
莭物	-11.349
餘月	-11.3491
入閣	-11.3493
精神	-11.3493
西流	-11.3496
耕種	-11.3497
流星	-11.35
立廟	-11.3502
日曝	-11.3503
布葉	-11.3506
王融	-11.3508
恒山	-11.351
道御	-11.351
可喜	-11.3514
作酢	-11.3515
三卯	-11.3515
授書	-11.3515
草堂	-11.3517
隂陽書	-11.3517
望祭	-11.352
蜀主	-11.352
有頃	-11.3521
於其中	-11.3522
武官	-11.3523
臺上	-11.3526
暮節	-11.3527
之樂也	-11.3527
翼日	-11.3528
最盛	-11.3529
豈不	-11.3529
養長	-11.3531
屬和	-11.3532
月暈	-11.3535
行孝	-11.3539
造酒	-11.3541
不測	-11.3544
六月一日	-11.3545
問何	-11.3547
八寸	-11.3548
并州	-11.355
施行	-11.3551
但見	-11.3553
隂氣始	-11.3554
詔近臣	-11.3558
端門	-11.3558
正位	-11.3558
作羮	-11.3558
八月初	-11.3559
槐葉	-11.3565
令有司	-11.3567
享先	-11.357
紅葉	-11.3571
不停	-11.3575
作息	-11.3575
便成	-11.3575
烈日	-11.3578
山亭	-11.3579
縣官	-11.3587
仰天	-11.3592
元㑹	-11.3592
圃中	-11.3593
若能	-11.3593
佳人	-11.36
後世	-11.36
之義也	-11.3601
喜事	-11.3603
幽州	-11.3604
香味	-11.3604
終始	-11.3605
最多	-11.3608
伏見	-11.3617
百歩	-11.3622
太皇太后	-11.3625
科舉	-11.363
盤石	-11.3634
祈年	-11.3639
武成	-11.3641
降誕	-11.3642
素秋	-11.3643
同心	-11.3643
煮食	-11.3653
於丑	-11.3655
樂正	-11.3655
閏年	-11.3656
宴樂	-11.3657
水浸之	-11.3663
改名	-11.3667
居民	-11.3667
八節	-11.3676
更名	-11.368
一旬	-11.3683
増徐	-11.3686
安得	-11.3686
中山	-11.369
一隻	-11.3692
大驚	-11.3694
秦中	-11.3694
日而畢	-11.3699
臘月二十四	-11.3699
小旱	-11.3701
相望	-11.3705
盛寒	-11.3707
重光	-11.3709
子路	-11.3711
從今	-11.3716
風霜	-11.3719
之法也	-11.3722
五臺	-11.3723
禮記	-11.3724
文集	-11.373
山河	-11.3734
等分	-11.3734
諸公	-11.3747
放春	-11.3753
周官	-11.3757
延入	-11.3758
行列	-11.3763
再三	-11.3771
僧徒	-11.3772
令傷	-11.3774
六宫	-11.3777
少雨	-11.3781
人影	-11.3784
周正	-11.3784
於左右	-11.3786
百尺	-11.3793
秋耕	-11.3795
服物	-11.3797
引水	-11.3798
種法	-11.3799
三日雨	-11.38
因號	-11.3802
一日二日	-11.3807
耐寒	-11.3808
九年正月	-11.3812
四字	-11.3815
不斷	-11.3818
品物	-11.3819
簡子	-11.3826
東觀	-11.3829
帳殿	-11.3838
五年三月	-11.3838
首夏	-11.3839
太山	-11.3847
遣人	-11.3853
嵗華	-11.3855
之妻	-11.3857
人面	-11.3861
書禮志	-11.3874
數萬	-11.3883
秋露	-11.3885
亥子	-11.3895
子位	-11.3899
種𤓰	-11.3899
貞元十	-11.39
王四季	-11.3901
則日行	-11.3901
黑雲	-11.3908
朱夏	-11.3909
先帝	-11.391
義者	-11.3913
乃歸	-11.3924
八月十五夜	-11.3935
始熟	-11.3955
五十三	-11.3959
在堂	-11.3993
妻子	-11.3994
和順	-11.4002
日一酘	-11.4011
深秋	-11.403
氣色	-11.403
入申	-11.4055
復還	-11.406
五榖不	-11.4073
増唐㑹要貞觀十	-11.4073
其名曰	-11.4073
積月	-11.408
必晴	-11.4081
日晴主	-11.4096
崇文	-11.4105
微行	-11.4113
雜物	-11.4121
百斛	-11.4137
里中	-11.4148
淮南子曰	-11.416
農時	-11.4171
七年十二月	-11.4198
御集	-11.4199
天降	-11.42
春渚	-11.4203
尺許	-11.4208
不敬	-11.4211
二十八年	-11.4212
射堂	-11.4214
有一種	-11.4217
鄉飲酒	-11.4223
鯉魚	-11.4224
還宫	-11.4238
十月朔	-11.4259
草樹	-11.4263
五年十一月	-11.4268
之氣乘之也	-11.431
九月十五日	-11.4332
時廵	-11.4335
行秋令則	-11.4335
通典唐	-11.4337
駕幸	-11.4362
山中有	-11.4369
髙低	-11.4372
江頭	-11.4374
采莖	-11.4378
則殺	-11.4379
増玉海紹興二十五年	-11.4387
乃取	-11.4388
五月六月	-11.4393
人日詩	-11.4415
五月十三	-11.4422
稽首	-11.4423
虞人	-11.4429
成閏	-11.4437
石井	-11.4447
官吏	-11.4451
建寅	-11.4465
象四時	-11.4473
寅日	-11.4474
忍	-11.4486
猶可	-11.4488
為飾	-11.45
棠梨	-11.4502
貧無	-11.4507
文選	-11.4519
未申	-11.4519
農書	-11.4525
原舊唐書	-11.4536
發生之	-11.4538
之數五十	-11.454
九月八日	-11.4563
増乾淳歳時記	-11.4573
天宗	-11.459
筮	-11.4602
三月桃花	-11.4602
周文	-11.4611
有大小	-11.4612
増山堂考索	-11.4618
夏至後	-11.4628
己夘	-11.4661
外更	-11.4679
其妻	-11.4699
龍星	-11.4699
三百六十五日	-11.4712
拜賀	-11.4719
鴻鴈来	-11.4744
世宗	-11.4751
百斤	-11.4752
里許	-11.4762
四月八	-11.4775
終身不	-11.4779
城東南	-11.4783
二十一年	-11.4827
炬照	-11.4841
隩	-11.4856
正月十五	-11.4883
河清	-11.4917
長二尺	-11.4921
原周禮	-11.4922
糯	-11.494
主晴	-11.4943
恠	-11.4973
清明後	-11.4977
雍州	-11.4977
揚州	-11.4994
二月十九日	-11.5001
常以二月	-11.5001
食貨志	-11.5006
九月三日	-11.5008
科掌印給	-11.5068
深紅	-11.5071
三百六	-11.5076
田家五行	-11.5076
農政全書	-11.5077
窺管	-11.5078
進賢	-11.5089
昃	-11.5098
瘟疫	-11.5104
九月一日	-11.5106
玉海乾徳	-11.511
增清異錄	-11.5113
右軍	-11.5114
為下考	-11.5118
晶	-11.5118
六十刻	-11.5119
為中考	-11.512
配天	-11.512
囚徒	-11.5123
本草拾遺	-11.5127
詩疏廣要	-11.5127
東京夢華錄	-11.5128
檠	-11.5128
嵗壹見其貢	-11.5128
劭	-11.5129
各掌其	-11.5129
鄒	-11.5132
蝠	-11.5134
山家清供	-11.5135
荆楚嵗時記	-11.5135
菩	-11.5136
青瑣	-11.5137
二至二分	-11.5137
南越	-11.5138
轅	-11.5138
第六	-11.5139
擊柝	-11.5139
蛻	-11.5139
梁元帝	-11.514
儒臣	-11.5142
譙	-11.5142
闐	-11.5143
昊	-11.5143
金櫻子	-11.5144
泱	-11.5145
黔	-11.5145
蹶	-11.5146
篚	-11.5147
鷓	-11.5147
劾	-11.5147
謠	-11.5147
鐸	-11.5147
己卯風	-11.5148
心如月	-11.5148
林邑國	-11.5149
偈	-11.5149
牽牛織女	-11.5149
剛柔	-11.515
杷	-11.5151
燄	-11.5151
漠漠	-11.5151
六年八月	-11.5152
隋書文帝紀開皇	-11.5152
侍宴應制詩	-11.5152
肢	-11.5153
廐	-11.5153
煬	-11.5153
増玉海熙寧	-11.5153
翆	-11.5153
雚	-11.5153
増周禮春官	-11.5154
絡緯	-11.5154
楚辭	-11.5154
原尸子	-11.5154
促織鳴	-11.5154
檢討	-11.5155
原論衡	-11.5155
水泉動	-11.5155
瑣	-11.5156
觔	-11.5156
濮	-11.5156
鄊	-11.5156
熙寕	-11.5156
癢	-11.5157
孝經論語	-11.5157
薦福寺	-11.5157
五味脯	-11.5157
増唐書地理志	-11.5157
僊	-11.5157
齧	-11.5158
陳百戲	-11.5158
増宋史食貨志	-11.5158
寰	-11.5158
元和志	-11.5158
艱	-11.5158
御坐	-11.5158
遭	-11.5159
亦如之注	-11.5159
銖	-11.5159
干戈	-11.5159
𢷬	-11.5159
櫻笋	-11.5159
醅	-11.5159
二百三十五	-11.5159
制誥	-11.5159
莱	-11.5159
臾	-11.5159
陜	-11.5159
辟寒金	-11.516
婺	-11.516
負戴	-11.516
緊	-11.516
時政記	-11.516
擊毬	-11.516
北南臣僚	-11.516
白頭翁	-11.516
翩翩	-11.516
蕈	-11.516
御崇政殿	-11.516
劉邦彦十	-11.5161
奕奕	-11.5161
胷	-11.5161
叨	-11.5161
原博物志	-11.5161
奸	-11.5161
虚危	-11.5161
玊	-11.5161
畵	-11.5161
尺寸	-11.5161
剉	-11.5161
絢	-11.5162
一晝一夜	-11.5162
璘	-11.5162
悅	-11.5162
蹉	-11.5162
葡	-11.5163
鬼臼	-11.5163
増玉海景祐二年	-11.5163
氤氲	-11.5163
雷霆	-11.5163
蜚	-11.5163
艶	-11.5163
賔虞	-11.5163
増宋會要	-11.5164
擁蔽	-11.5164
増紀歴撮要	-11.5164
顗	-11.5164
荀爽曰	-11.5164
罔	-11.5165
搗爛	-11.5165
厦	-11.5165
嬌	-11.5165
靑	-11.5165
顏	-11.5165
璟	-11.5165
潁川	-11.5165
藍尾	-11.5165
増周易集觧	-11.5165
稊	-11.5165
星回于天	-11.5165
舉孝廉	-11.5165
萱	-11.5165
礬	-11.5166
涕	-11.5166
峙	-11.5166
堦	-11.5166
孔雀	-11.5166
嵇	-11.5166
豺	-11.5166
丹砂	-11.5166
律中應鍾	-11.5166
奭	-11.5166
影堂常祭	-11.5166
熹	-11.5166
時天徳星寳光星	-11.5166
月窮于紀	-11.5166
殿中侍御史	-11.5167
炯	-11.5167
僉	-11.5167
年不壊	-11.5167
炕	-11.5167
箬	-11.5167
凑	-11.5167
老學庵筆記	-11.5167
襍	-11.5167
萵苣	-11.5167
恢	-11.5168
朱子語録	-11.5168
増北京嵗華記	-11.5168
懋	-11.5168
叩齒	-11.5168
墉	-11.5168
粤	-11.5168
絙	-11.5168
后之井以	-11.5168
慕容	-11.5168
昂	-11.5168
楙	-11.5168
痢	-11.5168
周禮夏官校人	-11.5168
惶	-11.5168
抃	-11.5168
蜕	-11.5168
墅	-11.5168
時月仙星福徳星	-11.5168
赤靈符	-11.5168
猴	-11.5169
禧	-11.5169
頰	-11.5169
飡	-11.5169
剔	-11.5169
元嘉二十	-11.5169
单	-11.5169
唾	-11.5169
曄	-11.5169
䏻	-11.517
日窮于次	-11.517
葷	-11.517
淸	-11.517
穡	-11.517
疲倦	-11.517
雒	-11.517
堯典	-11.517
槃	-11.517
籙	-11.517
増𫝊燈録	-11.517
降婁	-11.5171
九子糉	-11.5171
増玉海嘉定	-11.5171
認	-11.5171
舉賢良	-11.5171
數飲於	-11.5171
五十五刻	-11.5171
蜀葵	-11.5171
褚	-11.5171
郗	-11.5171
加元服	-11.5171
椽	-11.5171
蹙	-11.5171
猗	-11.5171
扶南國	-11.5172
踊	-11.5172
遒	-11.5172
嘘	-11.5172
其失次	-11.5172
狎	-11.5172
肖	-11.5172
凱風	-11.5172
巳日還位	-11.5172
羸	-11.5172
妊	-11.5172
増事物紀原	-11.5173
瘧	-11.5173
原范成大村田樂府序	-11.5173
鸎	-11.5173
啟閉	-11.5173
晉書律歴志	-11.5173
潞州	-11.5173
噫	-11.5173
構	-11.5173
雊	-11.5173
胸	-11.5173
増荔枝譜	-11.5173
舶	-11.5173
螭	-11.5173
粔	-11.5173
􁭤	-11.5173
霸	-11.5173
旒	-11.5173
菁	-11.5174
酸棗	-11.5174
翛	-11.5174
堯叟	-11.5174
㐲	-11.5174
奩	-11.5174
庭燎	-11.5174
叛	-11.5174
城門銘	-11.5174
漢書魏相𫝊	-11.5174
辟蚊	-11.5174
攽	-11.5174
春鶯囀	-11.5174
朱櫻	-11.5174
蜜蠟	-11.5174
辟寒香	-11.5174
蔞蒿	-11.5175
封禪	-11.5175
増蕪史	-11.5175
敺	-11.5175
東華門	-11.5175
跌	-11.5175
埽	-11.5175
烏鵲	-11.5175
池沼	-11.5175
瓏	-11.5175
韋應物	-11.5175
増夲草綱目	-11.5175
大慶殿	-11.5175
華林園	-11.5175
赬	-11.5175
時天開星少微星	-11.5175
蛾眉	-11.5175
蹤	-11.5175
靈威仰	-11.5175
旰	-11.5175
拍	-11.5176
豺祭獸	-11.5176
股肱	-11.5176
證	-11.5176
旌旗	-11.5176
涵	-11.5176
迎春苑	-11.5176
撞	-11.5176
瘁	-11.5176
細剉	-11.5176
黼	-11.5176
横汾	-11.5176
粘	-11.5176
時在午位故	-11.5176
款冬	-11.5176
正月之吉	-11.5176
讀春令	-11.5176
蘩	-11.5176
瘟	-11.5177
奕	-11.5177
曳	-11.5177
示輔臣	-11.5177
豢	-11.5177
汐	-11.5177
是乾在	-11.5177
鴻雁	-11.5178
泉湧	-11.5178
塢	-11.5178
愕然	-11.5178
航	-11.5178
尚書大𫝊	-11.5178
三公九卿	-11.5178
喫	-11.5178
掃除	-11.5178
斥	-11.5178
硃砂	-11.5178
窒	-11.5178
拆	-11.5178
明堂右个	-11.5178
罄	-11.5178
湔	-11.5179
季冬之月	-11.5179
鎬	-11.5179
増金史	-11.5179
賡	-11.5179
冽	-11.5179
宫嬪	-11.5179
煦	-11.5179
鞋	-11.5179
耍	-11.5179
赤光照室	-11.5179
右英夫人	-11.5179
薹	-11.5179
霓裳	-11.5179
六千分	-11.5179
原抱朴子	-11.5179
隆慶	-11.5179
加卯順數至	-11.5179
酉蔀七十六嵗凡三百四嵗	-11.5179
挑菜	-11.5179
廿	-11.518
蔞	-11.518
田䑕化為鴽	-11.518
増易通卦騐	-11.518
琥	-11.518
佚	-11.518
鍰	-11.518
商旅	-11.518
迨	-11.518
迸	-11.518
庵	-11.518
扈竊	-11.518
苣	-11.518
仲呂	-11.518
刁	-11.518
屨	-11.518
折楊柳	-11.518
敲氷	-11.518
詵	-11.518
閏當在此年	-11.518
頺	-11.518
飄飄	-11.518
麑	-11.518
蟋蟀居壁	-11.5181
逋	-11.5181
珠簾	-11.5181
鑼	-11.5181
贅	-11.5181
謂侍臣曰	-11.5181
輦下嵗時記	-11.5181
蕙	-11.5181
叡	-11.5181
川芎	-11.5181
扃	-11.5181
韋荘	-11.5181
乘輿	-11.5181
原初學記	-11.5181
店	-11.5181
蓮花漏	-11.5181
享先農	-11.5181
増楚通志	-11.5181
天文院	-11.5181
殃	-11.5181
鵝毛	-11.5181
𫝊柑	-11.5181
恵連	-11.5181
月者間亦有之	-11.5181
櫻	-11.5182
櫃	-11.5182
宋仁宗	-11.5182
悚	-11.5182
擅	-11.5182
閙蛾	-11.5182
增蠡海集	-11.5182
董仲舒雨雹對	-11.5182
赫赫	-11.5182
元冥	-11.5183
大中祥符元年	-11.5183
鷙	-11.5183
兒童	-11.5184
盼	-11.5184
太宗御書	-11.5184
春荑	-11.5184
暵	-11.5184
虺	-11.5184
参差	-11.5184
夙興	-11.5184
熨	-11.5184
坏	-11.5184
増參同契	-11.5184
賈島	-11.5184
黄鍾之宫	-11.5184
制國用	-11.5184
增政和本草	-11.5184
奉冊	-11.5184
肅慎	-11.5184
龎	-11.5184
粢盛	-11.5184
種桑	-11.5184
深紅色	-11.5184
迅	-11.5184
紳	-11.5185
鷁	-11.5185
勣	-11.5185
仁壽	-11.5185
玉宸殿	-11.5185
紆	-11.5185
山谷詩云	-11.5185
䍷	-11.5185
増大戴禮	-11.5186
戻	-11.5186
増燕翼詒謀録	-11.5186
銀杏	-11.5186
枕簟	-11.5186
煩暑	-11.5186
罍	-11.5186
聰敏	-11.5186
結寔	-11.5186
白虎通德論曰	-11.5186
秪	-11.5186
芳林園	-11.5186
范仲淹	-11.5186
小分龍	-11.5187
沍	-11.5187
蹴	-11.5187
京尹	-11.5187
掣	-11.5187
栢梁體	-11.5187
爱	-11.5187
剪刀	-11.5187
岱宗	-11.5187
老㓜	-11.5187
十二支	-11.5187
律中姑洗	-11.5187
賀知章	-11.5187
陶潜	-11.5188
天貺	-11.5188
東夷𫝊	-11.5188
鎭	-11.5188
介胄	-11.5188
塑	-11.5188
抗	-11.5188
凜	-11.5188
瘠	-11.5188
磯	-11.5188
謝惠連	-11.5188
原周禮秋官	-11.5188
桃始華	-11.5188
簫鼓	-11.5189
塡	-11.5189
膜	-11.5189
親戚	-11.5189
孩	-11.5189
盪	-11.5189
人氣在	-11.5189
凊	-11.5189
帝王世紀	-11.5189
菹	-11.5189
陸機	-11.5189
峴	-11.5189
猥	-11.5189
凍釋	-11.5189
黍稷	-11.5189
逖	-11.519
姥	-11.519
吏部尚書	-11.519
抹	-11.519
飬老禮	-11.519
原論語	-11.519
律中夷則	-11.519
髙禖	-11.519
愬	-11.5191
侵晨	-11.5191
蜻	-11.5191
沸湯	-11.5191
貴妃	-11.5191
公卿大夫	-11.5191
纉	-11.5191
上封事	-11.5191
押班	-11.5191
捕蟬	-11.5191
闥	-11.5192
六年七月	-11.5192
以水沃	-11.5192
岑參	-11.5192
韓翃	-11.5192
燒灰	-11.5192
後漢書郎顗𫝊	-11.5192
荆楚	-11.5192
原千金方	-11.5192
置律學	-11.5192
休沐	-11.5192
尚書大傳	-11.5192
殷勤	-11.5192
増子夜歌	-11.5192
桐始華	-11.5192
閹茂	-11.5193
大明殿	-11.5193
痘	-11.5193
昜	-11.5193
胭	-11.5193
茫然	-11.5193
増洛陽伽藍記	-11.5193
増漢書食貨志	-11.5193
毳	-11.5193
生白花	-11.5194
長二寸許	-11.5194
増家塾事親	-11.5194
阡陌	-11.5194
原紀厯撮要	-11.5194
宋陳元靚撰	-11.5194
荏	-11.5194
魚鑰	-11.5194
太史局	-11.5194
潘炎	-11.5194
讃	-11.5194
鏘	-11.5195
地菩薩如十	-11.5195
原水經注	-11.5195
於民者	-11.5195
度支	-11.5195
辟惡	-11.5195
讀時令	-11.5195
栗烈	-11.5195
正日臨朝	-11.5195
泫	-11.5195
罩	-11.5195
臺諫	-11.5195
二月下種	-11.5195
聽政	-11.5196
輻	-11.5196
骨肉	-11.5196
季夏土王	-11.5197
楼	-11.5197
賴	-11.5197
増謝朓詩	-11.5197
腴	-11.5197
離騷	-11.5197
凰	-11.5197
地理志	-11.5197
頒氷	-11.5197
曲江池	-11.5197
契丹	-11.5198
東廵狩	-11.5198
原南方草木狀	-11.5198
散漫	-11.5198
皴	-11.5198
糗	-11.5198
枕席	-11.5198
􁒊	-11.5198
雨諺云	-11.5198
髄	-11.5199
優劣	-11.5199
昆吾	-11.5199
磴	-11.5199
波浪	-11.5199
倭	-11.52
増元和志	-11.52
集賢院	-11.52
花信風	-11.52
赤鯉	-11.52
武成王	-11.52
榖賤	-11.52
珍羞	-11.52
付史館	-11.5201
汎舟	-11.5201
舉寃獄	-11.5201
増元史祭祀志	-11.5201
夏竦	-11.5201
赤小豆	-11.5201
昇仙	-11.5202
考績	-11.5202
考課	-11.5202
以示羣臣	-11.5202
肪	-11.5202
舉觴	-11.5202
譚	-11.5202
雙闕	-11.5202
黄庭堅	-11.5202
助生氣	-11.5202
四時氣候	-11.5202
蜂蜜	-11.5202
徳也主	-11.5202
煨	-11.5203
鰣魚	-11.5203
鴨卵	-11.5203
皎皎	-11.5204
増周易集解乾	-11.5204
七襄	-11.5204
張道陵	-11.5204
豆粥	-11.5204
廱	-11.5205
歲時廣記	-11.5205
河決	-11.5205
濟濟	-11.5205
狭	-11.5205
腓	-11.5205
對延英	-11.5206
五代史	-11.5206
玳	-11.5206
十三絃	-11.5206
唐堯	-11.5206
蘇頌	-11.5206
鄉貢	-11.5206
也位於	-11.5207
秘省	-11.5207
幌	-11.5207
靚	-11.5207
原風俗通	-11.5207
有數種	-11.5207
旬中無	-11.5207
一畨	-11.5208
増蠡海集	-11.5208
盈縮	-11.5208
原世説	-11.5208
其神如	-11.5209
忍冬	-11.5209
沛然	-11.5209
獄刑	-11.5209
讀五時令	-11.5209
昉	-11.521
欒	-11.5211
孝感	-11.5211
貲	-11.5212
蕷	-11.5212
原吕氏春秋	-11.5212
圖說	-11.5212
戚里	-11.5213
排當	-11.5213
流汗	-11.5213
孔子廟	-11.5213
孜	-11.5214
榮茂	-11.5214
肅肅	-11.5214
早晩	-11.5214
長春殿	-11.5214
嘉賔	-11.5214
沐髪	-11.5214
凌空	-11.5214
撚	-11.5215
薫風	-11.5215
増玉海祥符七年	-11.5215
驚覺	-11.5215
不得避	-11.5216
増舊唐書徳宗紀貞元	-11.5216
安石榴	-11.5216
因天時	-11.5216
射雉	-11.5216
原禽經	-11.5217
蟬鳴	-11.5217
竒絶	-11.5217
執徐	-11.5218
詔曰夫	-11.5218
潤澤	-11.5218
萬幾	-11.5218
銅儀	-11.5218
再宿	-11.5219
十二年五月	-11.5219
增清異録	-11.5219
踐更	-11.5219
錢塘	-11.5219
射鹿	-11.5219
擊鼓	-11.5219
轉運	-11.522
東岳	-11.522
臨軒	-11.522
韓魏公	-11.522
嵗旦	-11.5221
驅獸	-11.5221
刀尺	-11.5221
叩頭	-11.5221
佩魚	-11.5221
状似	-11.5221
䇿問	-11.5221
羊裘	-11.5222
京畿	-11.5223
路寢	-11.5224
深淺	-11.5224
貢獻	-11.5224
延夀	-11.5224
大如指	-11.5225
㕔事	-11.5225
頗似	-11.5226
嘉祥	-11.5226
鄭氏	-11.5226
互相	-11.5227
孟冬十月	-11.5227
十哲	-11.5227
為前行	-11.5227
邸第	-11.5228
原孟子	-11.5229
七月六日	-11.5229
寳鼎	-11.523
長生草	-11.523
射栁	-11.5231
思慮	-11.5231
黄雀風	-11.5231
金匱	-11.5232
石渠	-11.5233
員外	-11.5233
提舉	-11.5234
十三度	-11.5234
代謝	-11.5234
政要	-11.5234
渭水	-11.5234
孤虚	-11.5234
路駕	-11.5234
兹辰	-11.5234
栢葉	-11.5235
燈輪	-11.5235
南呂	-11.5237
小童	-11.5238
河伯	-11.5239
依依	-11.5239
珠翠	-11.5239
司寇	-11.5239
奈何	-11.5239
春帖子	-11.524
四十里	-11.5241
嘉榖	-11.5241
倍收	-11.5241
少頃	-11.5241
文武官	-11.5242
㸃燈	-11.5243
春蒐	-11.5243
清濁	-11.5243
酒醒	-11.5244
以太牢	-11.5244
綈	-11.5244
失所在	-11.5244
雲霄	-11.5244
增爾雅	-11.5244
武德	-11.5245
細磨	-11.5246
數百里	-11.5246
土圭	-11.5247
夜泊	-11.5247
蕉子	-11.5248
孔廟	-11.5248
日蝕	-11.5251
鐘鳴	-11.5251
綵燕	-11.5251
韶年	-11.5251
露為霜	-11.5251
隂陽之氣	-11.5252
呉興	-11.5252
故以名	-11.5252
甘澤	-11.5252
纂要秋曰	-11.5252
義井	-11.5253
河洛	-11.5253
宻封	-11.5254
屋室	-11.5254
至道二年	-11.5254
天祐	-11.5255
甚佳	-11.5256
徃来	-11.5256
馳道	-11.5257
五行志	-11.5257
首尾	-11.5258
材官	-11.5258
秋分之日	-11.5259
動静	-11.5259
苦熱	-11.5259
味甜	-11.526
冬夏常	-11.526
玉壺	-11.526
正閏餘	-11.526
觀覽	-11.5261
採藥	-11.5261
根莖	-11.5261
踏歌	-11.5261
掘地	-11.5261
共工	-11.5261
藥市	-11.5263
侍女	-11.5264
特異	-11.5264
嶽瀆	-11.5265
蠶桑	-11.5266
朔晦	-11.5267
疾苦	-11.5268
血氣	-11.5268
雨霽	-11.5269
晦堂	-11.527
二弟	-11.5271
時日仙星鳳輦星	-11.5271
於是乎	-11.5271
章閣	-11.5271
伏臘	-11.5271
參政	-11.5271
四年五月	-11.5272
郊壇	-11.5272
白鴈	-11.5272
均田	-11.5273
来貢	-11.5273
皮薄	-11.5274
爛然	-11.5275
種大豆	-11.5276
日雨主	-11.5278
致養	-11.528
送窮	-11.528
老農	-11.5281
芳辰	-11.5281
増孟子	-11.5282
萬福	-11.5283
含桃	-11.5283
肅然	-11.5283
晝短	-11.5284
上旬得	-11.5284
耕桑	-11.5285
嘆曰	-11.5285
教化	-11.5286
花朶	-11.5287
身輕	-11.5287
白蠟	-11.5288
左手	-11.5289
簷下	-11.529
向曉	-11.5293
東陸	-11.5293
歴志	-11.5294
至来年	-11.5294
九尺	-11.5294
相催	-11.5295
稱疾	-11.5297
句龍	-11.5297
村人	-11.5298
四年八月	-11.5301
汝州	-11.5302
賜帛	-11.5302
月令天道	-11.5306
種植	-11.5306
改易	-11.5306
如中國	-11.5307
祈雨	-11.5307
丹鳥	-11.5308
為人所	-11.531
大敗	-11.531
上曰朕	-11.5311
玉衡	-11.5311
伯玉	-11.5312
増爾雅	-11.5312
之為言	-11.5313
原杜甫	-11.5313
潤州	-11.5313
風飄	-11.5314
宿齋	-11.5314
是乎	-11.5315
五瓣	-11.5315
紛然	-11.5315
福州	-11.5317
湖州	-11.5317
孔公	-11.5317
露臺	-11.5318
無逸	-11.5318
世世	-11.5318
繁星	-11.5318
千錢	-11.532
萬𩔖	-11.532
原杜甫詩	-11.532
虹見	-11.532
月為嵗首	-11.5321
欣然	-11.5322
題云	-11.5324
凡五十	-11.5325
朱草	-11.5325
不倦	-11.5325
心鏡	-11.5326
融風	-11.5326
回文	-11.5327
頒賜	-11.5328
草枯	-11.533
速成	-11.533
誦書	-11.5331
常以三月	-11.5332
半空	-11.5332
百藥	-11.5333
賜進士	-11.5333
神麴	-11.5334
紙筆	-11.5334
歸路	-11.5334
番上	-11.5337
内苑	-11.5338
土德	-11.5339
都堂	-11.534
手指	-11.534
金帛	-11.5343
乙夜	-11.5344
命學士	-11.5344
時人謂之	-11.5345
無限	-11.5346
蔓草	-11.5349
良辰	-11.535
種稻	-11.535
左傳	-11.5351
湖南	-11.5352
祭器	-11.5352
合格	-11.5353
斜陽	-11.5353
榮光	-11.5354
閉門	-11.5354
蜀地	-11.5356
地統	-11.5357
最髙	-11.5357
数日	-11.5357
三月十日	-11.5357
即席	-11.5358
三伏中	-11.5358
十一月十二月	-11.5358
布散	-11.5358
雷鳴	-11.5358
如大豆	-11.5359
晉公	-11.5361
勿使	-11.5363
於東郊	-11.5365
火炎	-11.5365
少府	-11.5366
滿室	-11.5367
吴越	-11.5368
正月十六日	-11.537
校官	-11.5371
俗謂	-11.5372
莫知所	-11.5376
林亭	-11.5376
禁止	-11.5377
自兹	-11.5378
多病	-11.5381
地祗	-11.5381
蘭草	-11.5382
天街	-11.5383
如車輪	-11.5383
二百五	-11.5385
張良	-11.5386
旁有	-11.5386
肥地	-11.5387
楝花	-11.5388
瑞香	-11.5392
水湧	-11.5393
農民	-11.5396
終歳	-11.5397
嘗麥	-11.5398
卯酉年	-11.5398
鳴鼓	-11.5399
歳暮	-11.54
石虎	-11.54
入穴	-11.54
宿直	-11.54
歴歴	-11.54
光澤	-11.54
長庚	-11.5401
薄田	-11.5403
恠之	-11.5404
平澤	-11.5407
下弦	-11.5411
㡬時	-11.5412
三月一日	-11.5412
宜暑	-11.5413
竹刀	-11.5414
丁謂	-11.5416
咸和	-11.5416
每五日	-11.5417
嵗稔	-11.542
漁者	-11.5421
爛如	-11.5422
徹夜	-11.5422
遥夜	-11.5422
増玉海建隆	-11.5422
為虚甲	-11.5423
掘取	-11.5427
世間	-11.5432
天保	-11.5433
刪	-11.5434
洛水	-11.5435
雜色	-11.5436
七斗	-11.5437
也是故	-11.5437
翠葉	-11.5437
題名	-11.5437
増朱子	-11.5438
臨安	-11.5443
永和	-11.5444
與羣臣	-11.5444
吳越	-11.5445
御定月令輯要卷二十	-11.5447
出震	-11.5449
鳥飛	-11.545
竹林	-11.5452
之弊	-11.5455
枝間	-11.5457
有芒	-11.5457
河間	-11.5467
相遺	-11.5467
闕下	-11.5468
每月三	-11.5469
四寸	-11.547
妨農	-11.5471
𤼵聲	-11.5472
等奏	-11.5475
言隂氣	-11.5475
馬氏	-11.5476
居易	-11.5479
火燒	-11.5483
恐不	-11.5488
宋公	-11.5489
随四時	-11.5489
四月朔	-11.549
清霜	-11.5492
宜蠶	-11.5494
極乾	-11.5497
隂乾用	-11.5499
新論	-11.55
品以下	-11.5501
二尺許	-11.5502
九榖	-11.5502
入藥	-11.5504
夏日長	-11.5506
閏月則	-11.5507
六律	-11.5508
鳴鼔	-11.5509
六十者	-11.5509
西域記	-11.551
㑹宴	-11.551
夏季	-11.551
相屬	-11.551
來歲	-11.551
卿雲	-11.551
尊長	-11.5513
不能自	-11.5514
星紀	-11.5514
益氣	-11.5515
修治	-11.5516
明目	-11.5518
迎神	-11.5519
得良	-11.552
果木	-11.5527
以木為	-11.5529
失火	-11.5531
一嵗三	-11.5532
東序	-11.5532
夜静	-11.5533
輕雲	-11.5538
生芽	-11.5543
形圓	-11.5544
南京	-11.5545
麥熟	-11.5546
風至四十五	-11.5546
居安	-11.5547
河鼓	-11.5548
五指	-11.5549
唐開元	-11.5552
有白鶴	-11.5559
髙㑹	-11.556
律呂	-11.5562
李商隠詩	-11.5562
不失其	-11.5564
天監六年	-11.5565
三品	-11.5566
天之道	-11.5572
日曬	-11.5573
瑞氣	-11.558
二三寸	-11.5582
月令孟	-11.5583
十歩	-11.5584
同宿	-11.5587
梧州	-11.559
獲禽	-11.5591
巖下	-11.5591
端首	-11.5593
了無	-11.5593
埋於	-11.5595
蟲蟻	-11.5605
睿宗	-11.5606
千文	-11.5615
不减	-11.5617
火炬	-11.5622
西北風主	-11.5639
下漏	-11.5647
草緑	-11.5648
出沒	-11.5649
十二月二十一日	-11.5651
最長	-11.5661
俄有	-11.5665
十四年四月	-11.5667
十一年十一月	-11.5675
萬騎	-11.5677
顧謂	-11.5691
豈可	-11.5692
種葵	-11.5713
諸臣	-11.5724
水水衡記黄河水	-11.5729
近世	-11.5743
氣味	-11.5748
筮之	-11.5758
絶句	-11.5761
土俗	-11.577
功力	-11.5783
歳星	-11.5804
日夜分	-11.5805
八年正月	-11.581
蟲食	-11.5811
人號為	-11.5829
隂陽氣	-11.5838
百匹	-11.5858
時正東	-11.5869
常式	-11.589
之風也	-11.5893
一百六	-11.5896
豈如	-11.5898
寳厯	-11.5904
悉用	-11.5908
樓觀燈	-11.5916
以生其	-11.5917
香草	-11.595
魏公	-11.5975
忽有一	-11.5987
乳香	-11.6031
唐太宗詩	-11.6043
十畝	-11.6047
十月十日	-11.6063
五十卷	-11.6069
順隂陽	-11.6083
史院	-11.6104
備禮	-11.6104
蒸食	-11.6104
後園	-11.6128
一斛	-11.6165
恨不	-11.6166
夜夢一	-11.6172
増農政全書正月	-11.6214
功過	-11.6231
簡文	-11.6266
一百五	-11.6269
金闕	-11.6274
百畝	-11.6278
醴泉	-11.631
温公	-11.6354
隴西	-11.6355
云爾	-11.6371
桃樹	-11.6385
八十九	-11.6387
泉涌	-11.6388
受詔	-11.6399
增史記	-11.6406
種芋	-11.6413
旂衣	-11.642
當午	-11.6421
羣物	-11.6439
三月六日	-11.6461
穆帝	-11.6473
萬五千	-11.6484
氣也故	-11.6515
在京師	-11.6525
十二月十六日	-11.6567
翰林院侍講	-11.6589
丈許	-11.6604
先王之	-11.6616
月之時自	-11.6638
開元十三年	-11.6643
慈竹	-11.666
講學士	-11.6713
原皇極經世	-11.6719
郡第	-11.6722
冀州	-11.6807
原獨㫁	-11.6809
八年四月	-11.6871
女冠	-11.6878
英宗	-11.6882
孤竹	-11.6917
中皆有	-11.6935
凄凄	-11.6937
花盛開	-11.6969
十一月十一日	-11.6986
風從南	-11.6989
麥麴	-11.6997
水衡記黄河水	-11.6998
講説	-11.7073
魏明帝	-11.7082
増嵗華紀麗譜	-11.7127
辟蟲	-11.7161
帝配	-11.7168
四月十四日	-11.7316
刪定	-11.733
二月二十四日	-11.7343
增家語	-11.7345
蔬食	-11.7353
年七十	-11.7395
増唐書太宗紀貞觀	-11.7413
夏官司馬	-11.7419
錢帛	-11.7442
車輪	-11.7455
原晉書禮志	-11.7458
蒲澗	-11.7464
盲	-11.7519
増魏書靈徴志	-11.7544
農耕	-11.7552
原荆楚歳時記五月五日	-11.7553
地菩薩如	-11.7568
方寸	-11.7587
昳	-11.7587
原參同契	-11.7587
物也位於	-11.7591
陶朱公書	-11.7591
不妨	-11.7592
翰林院侍	-11.7599
酉陽雜俎	-11.7599
孟昶	-11.7603
㤗	-11.7605
俚	-11.7608
獲白麟	-11.761
驪	-11.7611
擭	-11.7614
抱朴子	-11.7614
隋書禮儀志	-11.7615
種樹書	-11.7616
為上考	-11.7618
使帥其	-11.7618
唐㑹要	-11.7619
復得子	-11.7621
原周禮乃立	-11.7622
姑蘇	-11.7622
瀆山	-11.7623
屬而掌邦	-11.7623
夭鳥	-11.7623
樃	-11.7625
以佐王	-11.7626
山川形勢	-11.7626
烏夜啼	-11.7626
愷	-11.7627
法苑珠林	-11.7629
上職方	-11.7629
琅	-11.7629
墾	-11.763
阪	-11.763
立秋之日	-11.7631
増周禮秋官	-11.7632
廣恵倉	-11.7632
月令輯要	-11.7633
歐	-11.7633
蓂莢	-11.7634
詹	-11.7636
都督府	-11.7636
官其属六十掌邦	-11.7636
彛	-11.7637
遑	-11.7637
四十八箭	-11.7637
元史祭祀志	-11.7638
増嬾真子錄	-11.7639
戞	-11.7639
増千金月令	-11.764
泚	-11.764
獲玉印	-11.7641
莒	-11.7641
増佛國記	-11.7641
蜀芥蕓薹	-11.7641
鯽	-11.7642
洙	-11.7642
月上寅采	-11.7643
有道術	-11.7643
鵪	-11.7643
哲宗	-11.7644
覓	-11.7644
聞喜宴	-11.7644
呪	-11.7645
桐花鳯	-11.7645
鬱金香	-11.7645
裡	-11.7645
械	-11.7645
棊	-11.7645
皚	-11.7645
劈正斧	-11.7646
漚鳥	-11.7646
周益公日記	-11.7646
昊天上帝	-11.7647
鸞刀	-11.7647
俎	-11.7648
焕	-11.7648
貍	-11.7648
増唐書五行志	-11.7648
原獨斷	-11.7648
瀏	-11.7648
天行健	-11.7648
啓蟄	-11.7649
烟靄	-11.765
天官冡宰	-11.765
春生夏長	-11.765
灌溉	-11.765
龔	-11.765
涖	-11.7651
尺堂階	-11.7651
號曰助天	-11.7651
増物理論	-11.7651
安樂窩	-11.7651
去人近	-11.7651
戲馬臺	-11.7651
渭川	-11.7651
􁀔	-11.7651
柚	-11.7651
僮	-11.7651
梁簡文帝	-11.7652
枲	-11.7652
辛辣	-11.7652
怖	-11.7652
唐書選舉志	-11.7652
侑	-11.7652
宗正寺	-11.7652
赤熛怒	-11.7652
觱發	-11.7652
即事詩	-11.7652
埒	-11.7652
畫鴨子	-11.7652
湏臾	-11.7652
塤	-11.7653
南方草木狀	-11.7653
倐	-11.7653
三足烏	-11.7654
増名醫别錄	-11.7654
盒	-11.7654
王子喬	-11.7654
原周禮春官大宗伯以	-11.7654
原東京夢華録	-11.7654
又禮志	-11.7654
彷彿	-11.7654
魅	-11.7654
疣	-11.7654
翾	-11.7654
昕	-11.7655
茜	-11.7655
原荀子	-11.7655
増東陽縣志	-11.7655
獻弓弩	-11.7655
楨	-11.7655
豉	-11.7655
兾	-11.7655
杜審言	-11.7655
乾淳歲時記冬至	-11.7655
煙嵐	-11.7655
蚯蚓結	-11.7655
分夜漏五十	-11.7656
開白花	-11.7656
鯢	-11.7656
戶	-11.7656
焯	-11.7657
元亨利貞	-11.7657
觀察使	-11.7657
俠	-11.7657
望氣經	-11.7657
溺	-11.7657
下田家志	-11.7657
槊	-11.7657
之維則	-11.7657
嵗有閏	-11.7657
惜分隂	-11.7657
著於令	-11.7657
方故使為	-11.7657
民之府	-11.7657
潘岳	-11.7657
建隆四年	-11.7658
瀑	-11.7658
猿猴	-11.7658
俯仰	-11.7658
脛	-11.7658
舅姑	-11.7658
門萬物已	-11.7658
采根暴乾	-11.7658
奉天書	-11.7658
左春坊左	-11.7658
隈	-11.7658
皇太子	-11.7658
集賢校理	-11.7658
輿服志	-11.7659
増寰宇記	-11.7659
日行一度	-11.7659
虎豹	-11.7659
晏元獻	-11.7659
碓	-11.7659
通事舍人	-11.7659
盾	-11.7659
經冬不凋	-11.7659
蓘	-11.7659
鱨	-11.7659
噎	-11.7659
夀星之次	-11.7659
禮神玉	-11.7659
賜高年	-11.7659
余且	-11.7659
穰苴	-11.7659
曰講官起居注翰林院侍	-11.7661
藹	-11.7661
嚙	-11.7661
萄	-11.7661
夏侯湛	-11.7661
何承天	-11.7661
孝經援神契	-11.7661
洒掃	-11.7661
秘書監	-11.7661
鬐	-11.7661
䇿一道	-11.7661
器皿	-11.7661
寂寂	-11.7661
如弹丸	-11.7661
樝	-11.7661
卬	-11.7661
征鳥厲疾	-11.7661
濯枝雨	-11.7661
躁	-11.7661
太牢	-11.7661
颶	-11.7661
木有文	-11.7662
湯沐浴令人	-11.7662
鮒	-11.7662
笨	-11.7662
栁宗元	-11.7662
澤瀉	-11.7662
開墾	-11.7662
閏年圖	-11.7662
噶	-11.7662
洛濵	-11.7662
驂	-11.7662
原周益公日記	-11.7662
吐蕃	-11.7662
孫覿	-11.7662
簸	-11.7662
給事中	-11.7662
㵼	-11.7662
公羊傳	-11.7662
増漢書武帝紀元鼎	-11.7662
西南風主	-11.7662
癸卯	-11.7663
陕西	-11.7663
鴛	-11.7663
原隋書天文志	-11.7663
含樞紐	-11.7663
菠薐	-11.7663
儀式	-11.7663
咨嗟	-11.7663
悖	-11.7663
桑柴	-11.7663
辰戌丑未	-11.7663
慵	-11.7664
䖟	-11.7664
杜鵑	-11.7664
沁	-11.7664
湜	-11.7664
米九斗	-11.7664
皥	-11.7664
詭	-11.7665
琦	-11.7665
樸	-11.7665
季春出火	-11.7665
増閩部疏	-11.7665
㬉	-11.7665
増居家必用	-11.7665
迓	-11.7665
四政曰	-11.7665
增朝野僉載	-11.7665
好事者	-11.7665
春日載陽	-11.7665
無恙	-11.7665
苓	-11.7665
以犬嘗	-11.7665
俛	-11.7665
鳯皇集	-11.7665
公羊𫝊	-11.7665
務盡地	-11.7665
南任也	-11.7665
増桂海花志	-11.7665
太平御覧	-11.7665
帀	-11.7665
掐	-11.7665
擷	-11.7665
時眀輔星貴人星	-11.7665
降聖節	-11.7665
蹔	-11.7665
鴈北鄉	-11.7665
雉雊雞乳	-11.7665
涎	-11.7666
鷹隼	-11.7666
三百六十五度	-11.7666
淫於内治以	-11.7666
一日一度	-11.7666
抛	-11.7666
用酒脯	-11.7666
彌勒	-11.7666
庌	-11.7666
増鄭氏家範	-11.7666
計獄	-11.7666
増本草經	-11.7666
彥	-11.7666
振貸	-11.7666
賈誼	-11.7666
大雨時行	-11.7666
笞	-11.7666
髠	-11.7666
堯樽	-11.7666
栱	-11.7666
瑕	-11.7666
軀	-11.7666
驤	-11.7666
以滿為限	-11.7666
橈	-11.7666
郵	-11.7666
鍊形	-11.7666
駛	-11.7666
閻	-11.7667
淳祐	-11.7667
甘藷	-11.7668
醴泉出	-11.7668
歆	-11.7668
二政曰	-11.7668
元樞經	-11.7668
惕	-11.7668
方春東作	-11.7668
棧	-11.7668
韌	-11.7668
䜿	-11.7668
汜	-11.7668
汀	-11.7668
薍	-11.7668
三日太史謁之天子	-11.7668
亢旱	-11.7668
東方蒼龍之宿	-11.7668
陳彭年	-11.7668
麋角解	-11.7668
㽔	-11.7668
襪	-11.7669
聼訟觀	-11.7669
列仙𫝊	-11.7669
權量	-11.7669
炮	-11.7669
二三丈	-11.7669
崑	-11.7669
縉	-11.7669
轉運使	-11.7669
些	-11.7669
挼	-11.7669
紫笋	-11.7669
緗	-11.7669
五經通義	-11.7669
増王居明堂禮	-11.7669
歳歳隂在	-11.7669
瞬息	-11.7669
移春檻	-11.7669
􁀺	-11.7669
増便民圖纂十一月	-11.7669
曨	-11.7669
無逸篇	-11.7669
寶鼎	-11.7669
增春秋繁露	-11.767
鶡	-11.767
警蹕	-11.767
簧	-11.767
菅	-11.767
磑	-11.767
䧟	-11.767
倘	-11.767
厚二寸	-11.767
壹	-11.767
䭾	-11.767
指天下皆	-11.767
䓁	-11.767
原述異記	-11.767
厰	-11.767
牛塘利	-11.767
獻馴象	-11.767
開細白花	-11.767
二年閏二月	-11.767
儆	-11.767
冬蠶成繭	-11.767
沖	-11.767
灋	-11.767
辨才	-11.767
李泌	-11.7671
周而復始	-11.7671
瑛	-11.7672
大鴻臚	-11.7672
陲	-11.7672
曺	-11.7672
巘	-11.7672
韞	-11.7672
西京雜記戚夫人侍兒賈佩蘭	-11.7672
晳	-11.7672
都䕶	-11.7672
五年再閏	-11.7672
増玉海嘉祐四年	-11.7672
日在内衡	-11.7672
民所疾苦	-11.7672
簁	-11.7672
繕寫	-11.7672
自天而下	-11.7672
述職	-11.7672
鸕	-11.7672
凌烟閣	-11.7672
増廣州記	-11.7672
天子請客	-11.7672
律中太蔟	-11.7672
繹	-11.7672
蓽撥	-11.7672
莽	-11.7673
五年春正月	-11.7673
一隂生	-11.7673
賖	-11.7673
顛倒	-11.7673
魔	-11.7673
嵗嵗隂在	-11.7673
原感遇	-11.7673
夏令則國	-11.7673
拯	-11.7673
玻	-11.7673
仲夏之月	-11.7673
儀禮士冠禮	-11.7673
増詩䟽廣要	-11.7673
墾闢	-11.7673
律長六寸	-11.7673
檉	-11.7673
瓚	-11.7673
精之帝而	-11.7673
西方白虎之宿	-11.7673
草木黄落	-11.7674
洪範	-11.7674
元㝠	-11.7674
旃	-11.7675
五日一朝	-11.7675
囷倉	-11.7675
九月采實	-11.7675
袪	-11.7675
韓退之	-11.7675
宴從臣	-11.7675
蘼	-11.7675
髙尺許	-11.7675
㯶櫚	-11.7675
卓帳	-11.7675
商賈	-11.7675
増洞冥記	-11.7675
櫸	-11.7675
儔	-11.7675
四部書	-11.7675
徭役	-11.7675
距日冬至四十	-11.7675
週	-11.7675
鑊	-11.7675
凛然	-11.7675
律中南吕	-11.7675
曰某日立	-11.7675
蠏	-11.7675
輦上詣	-11.7675
槽	-11.7675
殼	-11.7675
千七百	-11.7676
増沈約詩	-11.7676
璇	-11.7676
増逸周書	-11.7676
原國史補	-11.7676
秦始皇	-11.7676
彚	-11.7676
巔	-11.7676
稈	-11.7676
御乾元門	-11.7676
樾	-11.7676
葬	-11.7676
謂輔臣曰	-11.7676
開細花	-11.7676
名註中官為	-11.7676
増研北雜志	-11.7676
御製初秋	-11.7676
膳膏	-11.7676
缸	-11.7676
立春之日	-11.7676
虎始交	-11.7676
麛	-11.7676
棣	-11.7677
六十四卦	-11.7677
有冬有夏	-11.7677
増鶴慶府志	-11.7677
潞	-11.7677
原越絶書	-11.7677
槖	-11.7677
迢遞	-11.7677
待漏院	-11.7677
晁	-11.7677
璇璣	-11.7677
傚	-11.7677
増隋書食貨志	-11.7677
三嵗一閏	-11.7677
原春明退朝録	-11.7677
增宋史律歴志	-11.7677
鋸	-11.7677
鄭司農云	-11.7677
靂	-11.7677
李晟	-11.7677
蠕	-11.7677
霶	-11.7677
鯁	-11.7677
俞	-11.7677
承恩	-11.7677
氣罰見	-11.7677
洗沐	-11.7677
滄浪	-11.7677
瑯	-11.7677
耐久	-11.7677
蘸	-11.7677
試賢良方正	-11.7677
䪥	-11.7677
原東京夢華錄七夕以	-11.7677
堞	-11.7677
増野菜譜	-11.7677
孫叔敖	-11.7677
盟	-11.7677
鍳	-11.7677
弭	-11.7678
祀青帝	-11.7679
脣	-11.7679
涓涓	-11.7679
増圗經本草	-11.7679
椏	-11.7679
赫然	-11.7679
嶼	-11.7679
擔	-11.7679
原晋書王	-11.7679
原釋名	-11.7679
叠	-11.7679
缸内	-11.7679
缾	-11.7679
袁充	-11.7679
鳩杖	-11.7679
𤣥元皇帝	-11.7679
兩儀殿	-11.7679
冗	-11.7679
吝	-11.7679
斃	-11.7679
衿	-11.7679
魚袋	-11.7679
五星同色	-11.7679
原續文獻通考洪武	-11.7679
杞菊	-11.7679
飲一杯	-11.7679
龡	-11.7679
律中大呂	-11.7679
米三斗	-11.7679
誼	-11.7679
問如何是	-11.768
梔	-11.768
潄	-11.768
緻	-11.768
闋	-11.768
五辛盤	-11.768
増輝縣志	-11.768
東風觧凍	-11.768
莪蒿	-11.768
勃海	-11.768
悄	-11.768
神農氏	-11.768
髓	-11.768
拌匀	-11.768
昆蟲	-11.768
羣鳥養羞	-11.768
雍和殿	-11.768
膳夫	-11.7681
蛇醫	-11.7681
石廩	-11.7681
增左𫝊	-11.7681
洋洋	-11.7682
爬	-11.7682
窮困	-11.7682
著盆中	-11.7682
須叟	-11.7682
館閣官	-11.7682
横截	-11.7682
歴代帝王	-11.7682
㢘	-11.7682
天寳六載	-11.7682
屯田	-11.7682
挾纊	-11.7682
華陽國志	-11.7682
預知子	-11.7682
以太牢祠	-11.7682
卞	-11.7682
増後漢書安帝紀延光	-11.7682
律中林鍾	-11.7682
方寸匕	-11.7682
日一澆	-11.7682
栻	-11.7682
渺	-11.7682
瀕	-11.7682
煩襟	-11.7682
蒸餅	-11.7682
螻蟈鳴	-11.7682
鍼樓	-11.7682
閔	-11.7682
榮堇	-11.7682
禹錫	-11.7683
個	-11.7683
六十卦	-11.7683
騫	-11.7683
勾芒	-11.7683
朞	-11.7683
蠧魚	-11.7683
豐稔	-11.7683
増物原	-11.7683
帙	-11.7683
鄕	-11.7683
隋書音樂志	-11.7683
勢力	-11.7683
白居昜	-11.7683
礪	-11.7683
原戎事𩔖占	-11.7683
弹琴	-11.7683
皇甫	-11.7683
几杖	-11.7683
原開天遺事楊國忠	-11.7683
懐妊	-11.7683
細栁圈	-11.7683
絳囊	-11.7683
虹見主	-11.7683
講孝經	-11.7683
増會稽志	-11.7683
増談苑	-11.7683
柔桑	-11.7683
涷	-11.7683
箏	-11.7683
孟春之月	-11.7683
樞密	-11.7683
錬	-11.7683
咨	-11.7684
舎利	-11.7684
闚	-11.7684
賦七言詩	-11.7684
惆悵	-11.7684
鳳凰集	-11.7684
瀰	-11.7684
煜	-11.7684
一寸九節	-11.7684
件	-11.7684
捻	-11.7684
竽	-11.7684
𤼵斂	-11.7684
嘉靖	-11.7684
媿	-11.7684
孝文皇帝	-11.7684
日抱戴	-11.7684
松栢	-11.7684
滸	-11.7684
無知者	-11.7684
邳	-11.7684
閫	-11.7684
黔南	-11.7684
原魏書	-11.7684
増魏書靈徵志	-11.7684
如堵	-11.7684
恪	-11.7684
渝	-11.7684
瀹	-11.7684
種大小麥	-11.7684
耰	-11.7684
腐草為螢	-11.7684
起夜來	-11.7684
隠隠	-11.7684
賓	-11.7685
彤	-11.7685
詔禮官	-11.7686
匭	-11.7686
原莊子	-11.7686
彧	-11.7686
皮日休	-11.7686
邃	-11.7686
嬰蜺	-11.7686
朧	-11.7686
正月建寅	-11.7686
老嫗	-11.7686
前漢律厯志曰	-11.7686
慤	-11.7686
拜墓	-11.7686
周伯琦	-11.7686
御試舉人	-11.7686
悴	-11.7686
温庭筠	-11.7686
蔡襄	-11.7686
道二出黄道	-11.7686
閬	-11.7686
􁘀	-11.7686
𬒮	-11.7686
陕	-11.7686
芰	-11.7687
儂	-11.7687
莆	-11.7687
喚起	-11.7687
己卯	-11.7687
麽	-11.7687
綵縷	-11.7687
浃	-11.7687
曲阜	-11.7687
緧	-11.7687
薦宗廟	-11.7687
觥	-11.7687
増玉海祥符元年	-11.7687
拜掃	-11.7687
芬馥	-11.7687
颸	-11.7687
原通考正月	-11.7687
増史記律書	-11.7687
揮扇	-11.7687
晨出東方	-11.7687
紫陌	-11.7687
詹事	-11.7687
䃡	-11.7687
増元中記	-11.7687
苹	-11.7687
葦索	-11.7687
建亥之月	-11.7688
苴	-11.7688
蔀首	-11.7688
茈	-11.7688
鬚髪	-11.7688
珠璣	-11.7688
鈺	-11.7688
魏書釋老志	-11.7688
増南史謝	-11.7688
掲	-11.7688
櫂	-11.7688
蕭索	-11.7688
不舍晝夜	-11.7688
其數七其味苦其臭焦其	-11.7688
千齡節	-11.7688
柳絮	-11.7688
棒鼓	-11.7688
薁	-11.7688
躋	-11.7688
月禮記月令曰孟	-11.7689
蚯蚓	-11.7689
車轄	-11.769
櫚	-11.769
原古三墳	-11.769
蓴菜	-11.769
原唐詩紀事	-11.769
掦州	-11.769
諦	-11.769
周伯星	-11.769
余靖	-11.769
増遼史	-11.769
天寳十載	-11.769
弱冠	-11.769
所在有之	-11.769
村村	-11.769
賔僚	-11.769
鐘磬	-11.769
僖公	-11.769
刻六分	-11.769
早晏	-11.769
春秋冬夏	-11.769
樞密使	-11.769
原易乾鑿度	-11.769
曼陀羅	-11.769
條達	-11.769
用事火煙	-11.769
瞿塘	-11.769
虞舜	-11.769
馬嘶	-11.769
􁘅	-11.769
噬	-11.769
𣙜	-11.7691
啻	-11.7691
𤾉谷	-11.7691
罽	-11.7691
奬	-11.7691
蚓	-11.7691
踞	-11.7691
増海槎餘錄	-11.7691
夢華録	-11.7691
姨	-11.7691
月無中氣	-11.7691
賜新及第	-11.7691
原禮命有司	-11.7691
喝	-11.7691
増翰林志	-11.7691
辛夷	-11.7691
萍始生	-11.7692
而起助	-11.7693
長三丈	-11.7693
父兄	-11.7693
盬	-11.7693
樞宻使	-11.7693
詰旦	-11.7693
之道也逆之則傷	-11.7693
冬至前一日	-11.7693
小牘	-11.7693
山臊	-11.7693
敝	-11.7693
虹橋	-11.7693
身壬	-11.7693
八角磨盤	-11.7693
原歳時雜記端午	-11.7693
庮	-11.7693
楣	-11.7693
樗	-11.7693
汰	-11.7693
聶	-11.7693
薪柴	-11.7693
裙腰	-11.7693
黄褐侯	-11.7693
折衝	-11.7694
增南史	-11.7694
蜜煎	-11.7694
九域志	-11.7694
兆人本業	-11.7694
蟠	-11.7694
飬花天	-11.7694
揷栁	-11.7694
春秋二分	-11.7694
玉蘂花	-11.7694
祀先農	-11.7694
舂米	-11.7694
若於夜則月	-11.7694
覃	-11.7694
豁宿	-11.7694
有火光	-11.7695
峡	-11.7695
恱	-11.7695
謐	-11.7695
功曹	-11.7695
搭	-11.7695
聫	-11.7695
宣政殿	-11.7695
灼灼	-11.7695
含譽星見	-11.7695
増運氣論	-11.7695
帝親書	-11.7695
披襟	-11.7695
拂曙	-11.7695
王濬	-11.7695
翼軫	-11.7695
霂	-11.7695
子干丙子	-11.7695
日反支	-11.7695
樹檀	-11.7695
狩田	-11.7695
李昉	-11.7696
增齊民要術崔寔	-11.7697
洋	-11.7697
長九尺	-11.7697
供飬	-11.7697
綵仗	-11.7697
碗	-11.7697
臠	-11.7697
巫祝	-11.7697
搥	-11.7697
本命日	-11.7697
杜鎬	-11.7697
竹笋	-11.7697
酲	-11.7697
増一統志	-11.7697
子干甲子	-11.7697
綱目	-11.7697
枸	-11.7698
増玉海景徳	-11.7698
長一丈	-11.7698
器械	-11.7698
十餘里	-11.7698
增漢書武帝紀元封	-11.7698
忽憶	-11.7698
舉茂材	-11.7698
漢書禮樂志	-11.7698
示現	-11.7698
魏徵	-11.7698
𤨏	-11.7698
三洞奉道科	-11.7698
涉	-11.7698
開闢	-11.7698
陸贄	-11.7698
却鬼丸	-11.7698
子干庚子	-11.7698
㢠	-11.7699
傭	-11.7699
鵙	-11.7699
薛道衡	-11.7699
罌	-11.7699
増陸璣詩疏	-11.7699
五臟	-11.7699
臘月二十五	-11.77
髩	-11.77
决獄	-11.77
也萬物之所以	-11.77
時潮初	-11.77
趙普	-11.77
増録異記	-11.77
東萊	-11.77
矛	-11.77
駐輦	-11.77
醵	-11.77
莫見其	-11.77
夘蔀七十六嵗次	-11.77
峩	-11.7701
八九寸	-11.7701
司𨽻	-11.7701
增宋史河渠志	-11.7701
正月望夜	-11.7701
氣入口	-11.7701
綱紀	-11.7701
鰥寡孤獨	-11.7701
失逆	-11.7701
喉舌	-11.7701
溪蠻叢笑	-11.7701
瑒花	-11.7701
銳	-11.7701
彬	-11.7701
昻	-11.7702
懈	-11.7702
亳	-11.7702
淇	-11.7702
討論	-11.7702
萬物莫不	-11.7702
蹋	-11.7702
丁壯	-11.7702
拒霜	-11.7702
方之極自	-11.7702
褐色	-11.7702
霜始降	-11.7702
㤗始	-11.7702
增燕翼貽謀錄	-11.7702
增陶朱公書	-11.7702
攻駒	-11.7702
浮沉	-11.7702
杲	-11.7703
兗州	-11.7704
清亮	-11.7704
蒲萄	-11.7704
増後漢書百官志	-11.7704
精誠	-11.7704
十一月二十九日	-11.7704
増後漢書光武紀建武	-11.7704
刋石	-11.7704
原隰	-11.7704
甘菊花	-11.7704
蠟燭	-11.7704
元穎	-11.7704
原禮先立	-11.7704
增益部方物記	-11.7704
金天氏	-11.7704
周禮天官凌人	-11.7705
斗牽牛	-11.7705
曜靈	-11.7705
燕翼貽謀録	-11.7705
禿	-11.7705
衣狐	-11.7705
傷害	-11.7705
文徳殿	-11.7705
䅖青	-11.7705
呂氏春秋註	-11.7705
薦享	-11.7705
太平總	-11.7706
而有娠	-11.7706
者一人為	-11.7706
闘	-11.7706
俎豆	-11.7706
東牆	-11.7706
灌佛	-11.7706
陜西	-11.7706
盧多遜	-11.7706
萬物成熟	-11.7708
大晟樂	-11.7708
蕭颯	-11.7708
耿耿	-11.7708
曬乾	-11.7708
鯽魚	-11.7708
圖經云	-11.7708
増乾淳歳時記禁中臘月三十日	-11.7708
踐長	-11.7708
楊妃	-11.7708
行秋令	-11.7708
太醫	-11.7709
秉燭	-11.7709
惠連	-11.7709
竒巧	-11.7709
撓	-11.7709
晷漏	-11.7709
冝	-11.7709
漆器	-11.7709
上林賦	-11.7709
鈍	-11.7709
九嬪	-11.7709
天津橋	-11.7709
烟霞	-11.7709
禮部選士	-11.7709
青苔	-11.7709
嘉蓮	-11.7711
王安石	-11.7711
相國寺	-11.7711
複道	-11.7711
勾陳	-11.7711
松脂	-11.7711
採艾	-11.7711
春霆	-11.7711
魚醬	-11.7711
布帛	-11.7711
泗濵	-11.7712
曲江亭	-11.7712
羌	-11.7712
萬仞	-11.7712
播種	-11.7712
以孝聞	-11.7712
堯夫	-11.7712
綺羅	-11.7712
份	-11.7712
凍橘	-11.7712
春澑	-11.7712
停放	-11.7713
叔孫	-11.7713
錦帶	-11.7713
狀𩔖	-11.7713
李乂	-11.7713
薦鮪	-11.7713
黄河清	-11.7713
菊花賦	-11.7713
豁然	-11.7714
東廊	-11.7715
流鶯	-11.7715
原荆楚嵗時記寒食	-11.7715
萬邦	-11.7715
雞犬	-11.7715
内閣大學	-11.7715
藏彄	-11.7715
七十六嵗	-11.7716
皮革	-11.7716
陽氣施	-11.7716
紫白色	-11.7716
凍死	-11.7716
増漏刻經	-11.7716
山之陽	-11.7716
栢樹	-11.7716
雪霽	-11.7716
月上寅日	-11.7717
原南方草木状	-11.7718
増燕翼詒謀錄	-11.7718
琨	-11.7718
隘	-11.7718
呪曰	-11.7718
諸儒	-11.7718
刺桐	-11.7718
鎮惡	-11.7718
龍生日	-11.7719
榔	-11.7719
羅綺	-11.7719
數十歩	-11.7719
分日之	-11.7719
盧氏	-11.772
栁暗	-11.772
省牲	-11.772
光澤不	-11.7722
九陌	-11.7722
順時節	-11.7722
排門	-11.7722
躬耕	-11.7722
算學	-11.7722
富貴	-11.7722
一日洞元靈寳月十齋	-11.7722
月之行	-11.7723
枯死	-11.7723
注孝經	-11.7723
者言萬物	-11.7723
量功	-11.7723
聰明	-11.7723
削去	-11.7723
李嶠等	-11.7723
陶榖	-11.7723
採隂乾	-11.7723
𢎞䇿	-11.7723
表貢	-11.7724
七十二候	-11.7724
兵仗	-11.7724
十八候	-11.7725
増東京夢華錄	-11.7726
移仗	-11.7726
増食療本草	-11.7726
八九月熟	-11.7726
𤓰果	-11.7726
挨藍	-11.7726
西岳	-11.7726
交泰	-11.7727
戌臘	-11.7727
原續齊諧記	-11.7727
屠蘇酒	-11.7727
藏鉤	-11.7727
四分歴	-11.7729
太初厯	-11.7729
南陌	-11.7729
楚亭	-11.7729
四年春正月	-11.773
雞冠	-11.773
珍寳	-11.773
釋氏	-11.773
喜雨詩	-11.773
密封	-11.773
儒林	-11.773
増白虎通土	-11.773
燈籠	-11.773
於殿中	-11.7731
似荔枝而	-11.7731
秋獮	-11.7731
絃歌	-11.7731
填星	-11.7731
貨物	-11.7731
雞唱	-11.7731
十一月十二日	-11.7731
奏祥瑞	-11.7731
下逮	-11.7732
鍜	-11.7733
佛像	-11.7733
三月上旬	-11.7733
淑氣	-11.7733
斷獄	-11.7734
旗亭	-11.7734
祀南郊	-11.7734
凌晨	-11.7734
毋殺	-11.7734
帬	-11.7735
圖籍	-11.7736
内甕中	-11.7736
軍校	-11.7736
味酸	-11.7736
三月上已	-11.7737
採捕	-11.7737
隔宿	-11.7737
味聼	-11.7737
葉尖	-11.7737
阿魏	-11.7737
求福	-11.7737
水三斗	-11.7738
含情	-11.7738
世婦	-11.7738
水濵	-11.7738
念佛	-11.7738
茂美	-11.7738
明成祖	-11.7738
耗磨	-11.7738
翔集	-11.774
亘天	-11.774
律吕	-11.774
好讀書	-11.774
李白詩云	-11.774
沙苑	-11.774
詔州縣	-11.774
諌官	-11.7741
楊栁	-11.7742
庾信詩	-11.7743
洞洞	-11.7743
迎富	-11.7743
七月中旬	-11.7744
増搜神記	-11.7744
浩然	-11.7745
疾病	-11.7745
張翰	-11.7745
率羣臣	-11.7745
吉甫	-11.7745
膏澤	-11.7745
椰子	-11.7747
仙輿	-11.7747
早孤	-11.7747
能否	-11.7747
增白虎通	-11.7748
羣聚	-11.7748
宜春宫	-11.7748
左衛	-11.7748
御輦	-11.7748
徳宗詩	-11.7748
長幼	-11.7748
待旦	-11.7749
寄語	-11.7749
由来	-11.7749
連綿	-11.7749
寢殿	-11.7749
白如玉	-11.7751
筆墨	-11.7751
舞之以	-11.7751
殿柱	-11.7751
彌望	-11.7751
種藍	-11.7751
麥苖	-11.7751
三月二十七日	-11.7752
無怠	-11.7752
貢舉人	-11.7752
孟氏	-11.7752
栁條	-11.7752
日昳	-11.7755
他郡	-11.7755
西偏	-11.7755
芳菊	-11.7755
苐一	-11.7755
拂菻國	-11.7756
益智	-11.7756
昏旦	-11.7756
柴門	-11.7756
觀濤	-11.7756
石菖蒲	-11.7756
良宵	-11.7756
中尚署令	-11.7757
宿衛	-11.7758
俚俗	-11.7759
沉香	-11.7759
成穗	-11.7759
勞農	-11.7759
皮扇	-11.7759
久旱	-11.7761
飬老	-11.7761
加十五日	-11.7762
尤美	-11.7762
光彩	-11.7762
形體	-11.7763
牀頭	-11.7763
三峽	-11.7763
百餘年	-11.7763
母病	-11.7763
因以名	-11.7763
祈請	-11.7763
酉為秋	-11.7764
得其正	-11.7765
日出于	-11.7765
蘭亭	-11.7765
最勝	-11.7766
賔禮	-11.7767
老父	-11.7767
漸覺	-11.7767
五月二十五日	-11.7767
禾麥	-11.7769
打麥	-11.7769
編修	-11.7769
部右侍	-11.7769
監司	-11.777
玉階	-11.777
影燈	-11.777
歩厯	-11.777
雲低	-11.777
嘉賞	-11.777
南岳	-11.7772
松竹	-11.7772
道塲	-11.7772
旌門	-11.7773
六月十三日	-11.7773
漏澤	-11.7773
臘藥	-11.7773
乾徳二年	-11.7774
白居易早	-11.7774
待制	-11.7774
習舞	-11.7774
穆與	-11.7774
藍田	-11.7774
雄黄	-11.7776
蟬聲	-11.7776
司天言	-11.7776
豈知	-11.7776
稱慶	-11.7777
鹿鳴	-11.7777
講求	-11.7777
語笑	-11.7777
嘉瑞	-11.7777
奉賀	-11.7777
大有年	-11.7778
乾淳歳時記除夜	-11.7778
手掌	-11.7779
墜地	-11.7779
甚厚	-11.7779
私家	-11.7779
要看	-11.7779
侍老	-11.7779
皇祖	-11.778
河邊	-11.778
曝衣	-11.7781
往亡	-11.7781
孟嘉	-11.7782
至七月十五日	-11.7783
中的	-11.7783
方岳	-11.7783
訪問	-11.7784
一百五日	-11.7787
乾棗	-11.7787
浮圖	-11.7787
扵其上	-11.7787
朱鳥	-11.7788
岐王	-11.7788
羊毛	-11.7788
建康	-11.779
谷口	-11.779
液雨	-11.779
拜表	-11.779
卒歳	-11.7791
利市	-11.7791
大如李	-11.7791
紫莖	-11.7791
神祗	-11.7792
大儺	-11.7792
原禮昏	-11.7792
唐詩紀事景龍四年正月	-11.7793
京都	-11.7794
吳興	-11.7794
就席	-11.7794
義𩔖	-11.7795
命宰臣	-11.7795
酌酒	-11.7795
口號	-11.7797
兖	-11.7797
小童子	-11.7798
十洲	-11.7798
待我	-11.7799
尤盛	-11.7799
繞樹	-11.7799
増宋史禮志大中祥符元年	-11.78
金蓮花	-11.7801
致齋	-11.7802
八月八日	-11.7804
二十卷	-11.7805
驚異	-11.7805
祛疑説	-11.7806
加賞	-11.7806
采茶	-11.7812
穴外	-11.7812
頭上有	-11.7813
寳器	-11.7815
之曰汝	-11.7816
五際	-11.7819
漢書食貨志	-11.782
瓠子	-11.782
景短	-11.782
六十刻夜	-11.782
靈壇	-11.7823
引蔓	-11.7829
太陰	-11.7829
増金史禮志	-11.7833
維新	-11.7834
宜春苑	-11.7836
五色雲見	-11.7843
十月八日	-11.7844
庾公	-11.7848
酒糟	-11.785
三十里	-11.7852
宴饗	-11.7861
年秋八月	-11.7862
時出初	-11.7864
古未有	-11.7864
笛聲	-11.7871
花二候	-11.7876
鳥雀	-11.7878
鯉魚風	-11.7891
帝即位	-11.7904
髙一丈	-11.7909
三月此謂	-11.7909
黄龍見	-11.7917
乾淳歳時記端午	-11.7918
挈壺氏	-11.7919
増玉海祥符六年	-11.7965
職司	-11.7995
萬頃	-11.7997
朔望朝	-11.8009
之辰季	-11.8014
官司空	-11.8072
川澤	-11.8077
緑野	-11.8097
銷金	-11.8113
曰方春	-11.8161
御明堂	-11.8167
花三候	-11.8168
親製	-11.8171
台州	-11.8189
氣衝	-11.8214
根大如	-11.8234
呉郡	-11.8261
韋公	-11.8263
作黄衣	-11.8268
飲福	-11.8281
漢書武帝紀	-11.8293
明帝太和	-11.8299
得宦	-11.8313
十月十三日	-11.8328
日在足	-11.837
浸麴	-11.8378
都邑	-11.843
魏孝	-11.8501
形容	-11.8509
淡紅	-11.8544
酺三日	-11.855
清澄	-11.8585
忍寒	-11.8598
増玉海紹興十四年	-11.8612
月建寅	-11.8744
方来者	-11.8752
十匹	-11.8779
夀考	-11.8826
十九卷	-11.885
一百八十	-11.8964
宗實録	-11.9063
吞赤	-11.9068
殺雞	-11.9071
王建八月十	-11.909
衣朱衣	-11.9146
部左侍	-11.9162
范成大正月	-11.9177
記律書	-11.922
夕涼	-11.9228
三統厯曰立	-11.9273
縣西北	-11.933
平章事	-11.942
増唐本草	-11.9426
宣王廟	-11.95
垂拱殿	-11.9504
增後漢書明帝紀永平	-11.9539
日不殺	-11.9672
萬物随陽	-11.9775
建隆二年	-11.981
增皇極經世	-11.9814
百枚	-11.9857
紫姑神	-11.9893
皇祐三年	-11.9959
山有石	-11.9982
百丈	-11.9984
十有四	-11.9997
増玉海天禧	-12.0041
原遼史禮志	-12.0141
皇太后宫	-12.0148
草木萌動	-12.0216
太平興國二年正月	-12.0237
開元十六年	-12.0292
年十月二十	-12.0331
梁天監	-12.0346
瘡疥	-12.0416
臣皆賦	-12.0425
陽氣始萌	-12.0425
増玉海天聖	-12.0428
糵	-12.0573
漬麴	-12.0639
原南部新書	-12.0644
千緡	-12.0687
之氣乗之也又行	-12.071
增舊唐書	-12.0721
地官司徒	-12.0742
浮水面	-12.0772
其失次有應見	-12.0786
紡績	-12.0806
十五里	-12.0834
増宋史禮志大中祥符	-12.0853
增内經	-12.0873
秋官司	-12.089
增玉海淳化	-12.0894
原唐書食貨志	-12.0903
增參同契	-12.0909
武英殿總監造	-12.0917
増玉海政和	-12.092
牲毛之	-12.0921
牷	-12.0921
武英殿監造	-12.0923
荄	-12.0924
増玉海元豐	-12.0928
娠	-12.0929
翰林院侍讀	-12.0932
增梁書	-12.0933
箙	-12.0934
原周禮地官黨正	-12.0936
言之自午	-12.0936
蠡海集	-12.0938
紀厯撮要	-12.0938
鴻臚	-12.0941
之冬日至	-12.0942
躔	-12.0946
泂	-12.0946
習菴	-12.0946
訥	-12.0948
躑躅	-12.0948
洛陽伽藍記	-12.0949
增周禮天官	-12.0949
周禮地官鄉師	-12.0949
易通卦驗	-12.0949
奉聖亭侯	-12.0951
婆羅門	-12.0951
昭君墓	-12.0951
竹迷日	-12.0951
以畢春氣	-12.0951
侯禳	-12.0951
沓潮	-12.0951
荑	-12.0952
㪷	-12.0953
散騎常侍	-12.0953
遵生八牋	-12.0955
翰林院編修	-12.0955
太皥	-12.0956
増後漢書章帝紀元和	-12.0956
增正蒙	-12.0957
白堊	-12.0957
窩	-12.0957
主失財	-12.0957
月一易	-12.0957
硃	-12.0959
秕	-12.0959
入澤梁	-12.0959
之所致也	-12.0959
九門磔	-12.0959
鳥氏司	-12.0959
兀	-12.0961
同天節	-12.0961
嵗華紀麗	-12.0961
漢人南人	-12.0961
者有罰	-12.0961
輟耕録	-12.0963
曹溪寺	-12.0963
啞	-12.0963
之属象	-12.0963
跑	-12.0963
太平廣記	-12.0964
祲	-12.0965
江總入攝山棲霞寺詩序	-12.0965
增雍録	-12.0965
鷟	-12.0965
堂距邦	-12.0965
田車載	-12.0965
天遺事	-12.0967
蛛	-12.0967
不違時	-12.0967
張衡西京賦	-12.0967
再失閏	-12.0967
篙	-12.0967
鈐	-12.0967
鱧	-12.0967
㰂酒	-12.0967
澑	-12.0968
増夲草	-12.0968
楊栁枝	-12.0969
玉海熈寕	-12.0969
趋	-12.0969
神光照室	-12.0969
鶉火之次	-12.0969
劉蕡	-12.0969
灝	-12.0969
若耶溪	-12.0969
詹事府少詹	-12.0969
物又其外方五百里謂	-12.0969
賣春困	-12.0969
􁮺	-12.0969
後漢書百官志	-12.0969
洪範皇極	-12.097
脇	-12.0971
春可樂兮樂	-12.0971
晾	-12.0971
増禮郊特牲	-12.0971
鶉尾之次	-12.0971
甘松香	-12.0971
禪社首	-12.0971
僧伽大師	-12.0971
舊年燈	-12.0971
簼	-12.0971
羅漢絛	-12.0971
鬼宿渡河	-12.0971
氲	-12.0972
智慧	-12.0972
増魏書禮志	-12.0973
含光殿	-12.0973
櫛	-12.0973
爕	-12.0973
姻	-12.0973
踵	-12.0973
洪邁	-12.0973
烜	-12.0973
猫眼	-12.0973
峨	-12.0974
増宋史禮志政和三年	-12.0975
狥	-12.0975
地八天九地十	-12.0975
歌括云	-12.0975
永樂十	-12.0975
三統歴	-12.0975
命民社	-12.0975
太上老君	-12.0975
如車蓋	-12.0975
系	-12.0975
縑練	-12.0975
辛壬癸甲	-12.0975
陳王業	-12.0975
天地相遇	-12.0975
踼名	-12.0975
硫	-12.0976
原遵生八箋	-12.0976
莅	-12.0976
二年春正月	-12.0977
鬆	-12.0977
名山記	-12.0977
馭夫	-12.0977
儡	-12.0977
華清宫	-12.0977
鑽	-12.0977
桃花粥	-12.0977
熊膽	-12.0977
猫兒眼	-12.0977
増金史世宗紀	-12.0977
夜漏未盡	-12.0978
曈曈	-12.0978
進易解	-12.0978
十六國春秋	-12.0978
水調服	-12.0978
㐮	-12.0978
句曲山	-12.0978
學射山	-12.0978
實沈之次	-12.0978
惋	-12.0978
増周禮夏官	-12.0978
百子池	-12.0978
以章月	-12.0978
原紀歴撮要	-12.0978
太陽過宫	-12.0978
潮汐	-12.0978
蟳	-12.0978
裕陵	-12.0978
鼉鳴	-12.0978
増宋史理宗紀	-12.0979
慶善宫	-12.098
續齊諧記	-12.098
物畢成	-12.098
匡	-12.098
莫大乎	-12.098
錬形	-12.098
月上旬㧞毛入籠	-12.098
生山北	-12.098
鏃	-12.098
齎本月	-12.098
瑜	-12.098
李啇隐	-12.098
治平四年	-12.098
禍福	-12.098
嚶嚶	-12.098
増成都古今記	-12.098
愔	-12.098
秋白冬黒	-12.098
絍	-12.098
剝棗	-12.098
寛恤詔令	-12.098
王負戴於	-12.098
鶩	-12.098
轍	-12.0981
枌榆社	-12.0982
倖	-12.0982
原名勝志	-12.0982
搦	-12.0982
熯	-12.0982
盎	-12.0982
及尺餘	-12.0982
嬰兒	-12.0982
沅	-12.0982
種𤓰瓠	-12.0982
罇	-12.0982
史記龜䇿𫝊	-12.0982
畝收十石	-12.0982
祭馬歩	-12.0982
紬	-12.0982
原爾雅春為	-12.0982
料峭	-12.0982
謾	-12.0982
泠	-12.0983
兗	-12.0984
甲子朔旦	-12.0984
佗	-12.0984
東京夣華錄七	-12.0984
酹	-12.0984
備法駕	-12.0984
捍	-12.0984
早秋詩	-12.0984
黄道去極	-12.0984
之别名	-12.0984
吳葵華	-12.0984
祓除釁浴	-12.0984
颷	-12.0984
修火禁	-12.0984
冄	-12.0984
夏以十三月為	-12.0984
晝漏四十五刻	-12.0984
鴟尾	-12.0984
像現	-12.0984
易關市	-12.0984
殷七七	-12.0984
獻民數扵王	-12.0984
緹縞	-12.0984
蘅	-12.0984
李光地	-12.0985
謝朓詩	-12.0986
薩	-12.0986
挫	-12.0986
蜑	-12.0986
八佾舞	-12.0986
婆利國	-12.0986
昒	-12.0986
賜諸侯王	-12.0986
虞翻曰	-12.0986
雉尾蓴	-12.0986
餘此陽	-12.0986
增陳書宣帝紀太建	-12.0986
嶂	-12.0986
日在北陸	-12.0986
原易飛候	-12.0986
增齊民要術食經	-12.0986
昌平山水記	-12.0986
溷	-12.0986
澄水帛	-12.0986
狐目	-12.0986
癰	-12.0986
辟寒犀	-12.0986
通政使司右	-12.0986
陌上花	-12.0986
饁獸	-12.0986
校書郎	-12.0987
宰相宋琪等	-12.0987
袋盛	-12.0987
鴦	-12.0988
册府元龜	-12.0988
氤	-12.0988
驍	-12.0988
鈿車	-12.0988
宋史哲宗紀	-12.0988
三卿是	-12.0988
礫	-12.0988
葆	-12.0988
咫尺	-12.0988
斷獄訟	-12.0988
春耕夏耘秋	-12.0988
北戸錄	-12.0988
原翰墨大全	-12.0988
各從其事	-12.0988
或黄或	-12.0988
鴆	-12.0988
取之無所擇也	-12.0988
燔	-12.0988
綖	-12.0988
䄠	-12.0988
以十一月為正	-12.0988
剛柔始交	-12.0988
増五海	-12.0988
増宋書文帝紀元嘉二十	-12.0988
女兒莭	-12.0988
孚卵	-12.0988
惟瑛	-12.0988
文苑英華	-12.0988
桲	-12.0988
沉水香	-12.0988
炅	-12.0988
物𩔖相感志	-12.0988
瑞聖園觀稼	-12.0988
紫檀殿	-12.0988
鉅野	-12.0988
鳳毛金	-12.0988
勞農勸民	-12.0988
辣	-12.0988
獅	-12.0989
律中㽔賔	-12.099
春官宗伯	-12.099
醎	-12.099
光禄大夫	-12.099
騂	-12.099
春秋考異郵	-12.099
救荒	-12.099
犧	-12.099
增齊書	-12.099
滻	-12.099
聾	-12.099
原杜陽雜編	-12.099
塍	-12.099
宋史外國𫝊	-12.099
漕運	-12.099
種竹詩云	-12.099
莫大焉	-12.099
雲笈七	-12.099
凱旋	-12.099
右文殿	-12.099
岑参詩	-12.099
揮麈前錄	-12.099
索鬼神而祭祀	-12.099
縣西三十里	-12.099
蒼璧禮	-12.099
勿令泄氣	-12.099
塵埃	-12.099
増儀禮	-12.099
墠	-12.099
續博物志	-12.099
聰慧	-12.099
黄楊厄	-12.099
𤦺	-12.099
􁄾	-12.099
周禮夏官挈壺氏	-12.099
憫農歌	-12.099
瑱	-12.099
白獸樽	-12.099
紅綾扇	-12.099
至霸上	-12.099
虹蔵不見	-12.099
通政使司左	-12.099
鞠則見	-12.099
物之府	-12.0991
天寳四載	-12.0992
膢臘	-12.0992
煠	-12.0992
黄門郎	-12.0992
䜛	-12.0992
況	-12.0992
翡	-12.0992
靈源公	-12.0992
頽	-12.0992
茨菰	-12.0992
講洪範	-12.0992
保生要錄	-12.0992
味極甘	-12.0992
増集異記	-12.0992
王筠詩	-12.0992
讞	-12.0992
增隋書天文志	-12.0992
為立祠	-12.0992
若東南風	-12.0992
鴳	-12.0992
昆弟	-12.0992
果如其言	-12.0992
獄囚	-12.0992
范祖禹	-12.0992
乾象歴	-12.0992
原秦中嵗時記	-12.0992
増續夷堅志	-12.0992
搔	-12.0992
纎纎	-12.0992
輭	-12.0992
鞍轡	-12.0992
享先王以	-12.0992
刻夜損	-12.0992
原便民書	-12.0992
原禮乃命有司	-12.0992
吃	-12.0992
命羣臣賦詩	-12.0992
教治兵	-12.0992
服衮冕	-12.0992
洞陽宫	-12.0992
潼	-12.0992
穣	-12.0992
總章大廟	-12.0992
蔈定	-12.0992
雲如羣羊	-12.0992
鶉首之次	-12.0992
􁊥	-12.0992
以火燒之	-12.0994
曇	-12.0994
纍	-12.0994
酤	-12.0994
蹊	-12.0994
增宋史樂志	-12.0994
豐沛	-12.0994
侠	-12.0994
淫巧	-12.0994
哺	-12.0994
以手摩送之	-12.0994
増唐書天文志	-12.0994
鎧	-12.0994
㕑	-12.0994
増通鑑貞觀	-12.0994
言陽氣大	-12.0994
鵰	-12.0994
仆	-12.0994
匙	-12.0994
咎徵	-12.0994
帥其屬而	-12.0994
春青夏	-12.0994
燒存性	-12.0994
瑗	-12.0994
給紙筆	-12.0994
裀	-12.0994
隂乾為末	-12.0994
隧	-12.0994
麥花夜	-12.0994
入學習吹	-12.0994
冬曰烝	-12.0994
冰三其凌	-12.0994
招弭	-12.0994
焞	-12.0994
祭靈星	-12.0994
綌	-12.0994
置常平倉	-12.0994
芰荷	-12.0994
蘧	-12.0994
春生苖	-12.0994
陸璣詩疏	-12.0994
閼	-12.0994
原佛書	-12.0995
元氏掖庭記	-12.0996
籮	-12.0996
休咎	-12.0996
宣徳門	-12.0996
榨油	-12.0996
增論衡	-12.0996
菖葉	-12.0996
三時不害	-12.0996
其令郡國	-12.0996
沐浴齋戒	-12.0996
麴米春	-12.0996
前月閏	-12.0996
増唐㑹要顯慶	-12.0996
時摘取	-12.0996
蹙凌水	-12.0996
隄防	-12.0996
増說苑	-12.0996
增周禮秋官	-12.0996
嶷	-12.0996
敉	-12.0996
玘	-12.0996
粳米	-12.0996
薦寝廟	-12.0996
郭子儀	-12.0996
醉鄉日月	-12.0996
麛裘	-12.0996
乾明節	-12.0996
佃	-12.0996
儲光羲	-12.0996
國中屬而和者	-12.0996
增瑯嬛記	-12.0996
建寅為正	-12.0996
弓射之	-12.0996
涂	-12.0996
穟	-12.0996
紫雲樓	-12.0996
継	-12.0996
行春令則蝗	-12.0996
補小月	-12.0996
臛	-12.0996
菉	-12.0997
掦	-12.0997
春明退朝録	-12.0997
幸河東祠后	-12.0998
惻	-12.0998
濟世仁術	-12.0998
劔	-12.0998
時珍曰	-12.0998
律歷志	-12.0998
㬠	-12.0998
兔絲子	-12.0998
霜露既降	-12.0998
鞾	-12.0998
􁲖	-12.0998
困敦	-12.0998
増漢書武帝紀建元元年	-12.0998
暌	-12.0998
欽天監	-12.0998
范成大呉郡志	-12.0998
黄琮	-12.0998
三齋日	-12.0998
増食物本草	-12.0998
折衝都尉	-12.0998
湟	-12.0998
腑	-12.0998
課殿最	-12.0998
錦繡萬花谷	-12.0998
復槽水	-12.0998
餓鬼	-12.0998
鷹隼撃	-12.0998
也日之行	-12.0998
五月參則見	-12.0998
刷	-12.0998
字倒貼	-12.0998
恂	-12.0998
攅	-12.0998
日短至	-12.0998
有神助	-12.0998
析木之次	-12.0998
瓊林宴	-12.0998
盛徳在水	-12.0998
看麥娘	-12.0998
碕	-12.0998
種蘭香	-12.0998
章得象帖子	-12.0998
總章右个	-12.0998
置𢎞文	-12.0998
翠寒堂	-12.0998
肻	-12.0998
膠餅	-12.0998
舊唐書西戎傳	-12.0998
鑣	-12.0998
闔閭	-12.0998
陷	-12.0998
青陽左个	-12.0998
鼗	-12.0998
􁇪	-12.0998
瑒	-12.0998
増唐㑹要天寳	-12.0999
寰瀛	-12.0999
蚖	-12.0999
澣	-12.0999
歟	-12.0999
嬴	-12.1
肘後方	-12.1
懿宗	-12.1
氏家訓	-12.1
虱	-12.1
河淸	-12.1
讙	-12.1
毆	-12.1
無不悉	-12.1
碧漪	-12.1
原帝京景物略	-12.1
鑠	-12.1
増太平廣記謝自然	-12.1
増玉海太平興國五年	-12.1
履端於始	-12.1
廣袤	-12.1
永泰元年	-12.1
西溪叢語	-12.1
原集異記明皇	-12.1
大中祥符四年	-12.1
怯	-12.1
晝漏四十八刻	-12.1
􁁬	-12.1
事母至孝	-12.1
元𡨕	-12.1
劉孝威	-12.1
原韓非子	-12.1
増舊唐書明皇紀開元	-12.1
墻壁	-12.1
戢	-12.1
断	-12.1
旱芹	-12.1
暉暉	-12.1
沌	-12.1
海寕縣志	-12.1
獻楛矢石砮	-12.1
盍	-12.1
萬八千歲	-12.1
褊	-12.1
詡	-12.1
長八九尺	-12.1
霓裳羽衣曲	-12.1
馮翊	-12.1
駑	-12.1
鷙鳥不	-12.1
藋	-12.1
禍	-12.1
單閼	-12.1001
髯	-12.1001
款	-12.1001
𤾉	-12.1001
埀	-12.1002
楓窻小牘	-12.1002
窈	-12.1002
繚繞	-12.1002
元史世祖紀	-12.1002
寅申己亥	-12.1002
峻急	-12.1002
離合風	-12.1002
冕旒	-12.1002
増宋書符瑞志晋	-12.1002
晃	-12.1002
東觀漢記	-12.1002
葑	-12.1002
銜丹書	-12.1002
元鳥燕也	-12.1002
堋	-12.1002
嫩苗	-12.1002
建辰之月	-12.1002
咸亨	-12.1002
左脇	-12.1002
歸餘於終	-12.1002
港	-12.1002
蕓薹	-12.1002
轆	-12.1002
出蜀中	-12.1002
垜	-12.1002
范文正公	-12.1002
虹蜺	-12.1002
街衢	-12.1002
鏗然	-12.1002
存此月純陽疑於無隂故亦謂之隂月	-12.1002
盫	-12.1002
胡枲	-12.1002
舛	-12.1002
茘	-12.1002
𠻳	-12.1002
公羊春王正月	-12.1002
增路史	-12.1002
毓	-12.1002
羃	-12.1002
蜼	-12.1002
駙馬	-12.1002
高尺餘	-12.1002
上辛祈榖	-12.1002
元枵之次	-12.1002
南方有赤雲	-12.1002
命野虞	-12.1002
四方中星	-12.1002
夏潮大	-12.1002
峨眉山	-12.1002
撼	-12.1002
攢	-12.1002
槃瓠	-12.1002
種胡荽	-12.1002
蕖	-12.1002
蝡	-12.1002
褢	-12.1002
巷陌	-12.1002
磁	-12.1003
木也其牲以	-12.1003
増魏志	-12.1003
集英殿	-12.1003
璿	-12.1003
増北史魏孝文帝紀	-12.1003
㯶	-12.1003
肘	-12.1003
增物類相感志	-12.1003
永明九年	-12.1003
湖志餘	-12.1003
覊	-12.1003
𦍑	-12.1003
五穀不成	-12.1003
儲峙	-12.1003
挺重囚	-12.1003
群	-12.1003
謗	-12.1003
金史太宗紀天㑹	-12.1003
㳂	-12.1004
妃嬪	-12.1004
潢	-12.1004
瓘	-12.1004
皇覽逸禮	-12.1004
行御天子出令命左右	-12.1004
燕都逰覽志	-12.1004
白豆蔲	-12.1004
碣	-12.1004
不落夾	-12.1004
休澣	-12.1004
寖	-12.1004
耬	-12.1004
藹藹	-12.1004
鋤成行	-12.1004
初置七夕	-12.1004
崇文院	-12.1004
延英殿	-12.1004
揲	-12.1004
於元武門	-12.1004
經月不	-12.1004
聨句	-12.1004
㤗階	-12.1004
中書宻院	-12.1004
兢	-12.1004
則易之以	-12.1004
増西湖志餘淳熙	-12.1004
官少内	-12.1004
嵗終則㑹	-12.1004
帝女桑	-12.1004
懔	-12.1004
戊巳校尉	-12.1004
文潞公	-12.1004
方之弧以	-12.1004
是也歲欲	-12.1004
毣	-12.1004
洶	-12.1004
用禽獻	-12.1004
百華燈	-12.1004
盛徳在火	-12.1004
糜粥	-12.1004
腒	-12.1004
舍利放光	-12.1004
蚳	-12.1004
蛆	-12.1004
野薔薇	-12.1004
菖	-12.1004
函鍾	-12.1004
廣莫風至	-12.1004
増唐㑹要貞元	-12.1004
祥符四年	-12.1005
粢	-12.1005
娵訾	-12.1005
𠖇	-12.1005
忘倦	-12.1005
聿	-12.1005
久不雨	-12.1005
凌冬不凋	-12.1005
掉	-12.1005
獻繭於	-12.1005
馬承直	-12.1005
増本草衍義	-12.1005
汛	-12.1005
河南尹	-12.1005
増玉海淳化元年	-12.1005
原鶡冠子斗柄	-12.1005
増漢書宣帝紀元康	-12.1005
增大戴禮方	-12.1005
晝漏六十刻	-12.1005
楊綰	-12.1005
緼	-12.1005
舉黄旗	-12.1005
菟	-12.1005
萬物月為之佐時萬物	-12.1005
著器中	-12.1005
驚嘆	-12.1005
六齋日	-12.1005
彞	-12.1005
怪而問之	-12.1005
狸子肇肆	-12.1005
療病	-12.1005
笙簧	-12.1005
給春衣	-12.1005
綻	-12.1005
聞見後錄	-12.1005
貂裘	-12.1005
連亘	-12.1005
㑹慶莭	-12.1005
之所昨也	-12.1005
于耜	-12.1005
冬為信	-12.1005
匾	-12.1005
原朝野僉載	-12.1005
呬	-12.1005
喧闐	-12.1005
天地交泰	-12.1005
寳馬香車	-12.1005
尊皆有罍諸臣	-12.1005
庇	-12.1005
張仁亶	-12.1005
捫	-12.1005
日月為易	-12.1005
時天貴星太乙星	-12.1005
東井輿鬼	-12.1005
消夏灣	-12.1005
絁	-12.1005
羙農臺	-12.1005
芝生於名山之陰	-12.1005
茆	-12.1005
藏春塢	-12.1005
蟁蝱	-12.1005
輪囷	-12.1005
迎春髻	-12.1005
鏘鏘	-12.1005
黍臛	-12.1005
晟	-12.1006
翊	-12.1007
則為災	-12.1007
臨安府	-12.1007
薦時果	-12.1007
髭	-12.1007
都水監	-12.1007
斸	-12.1007
原相宅要説子午	-12.1007
橡栗	-12.1007
觀雲色	-12.1007
㕍	-12.1007
通天犀	-12.1007
飛龍在天	-12.1007
増舊唐書明皇紀天寳	-12.1007
示許長史	-12.1007
讚	-12.1007
亞夫	-12.1007
旬有五日	-12.1007
汚	-12.1007
米泔	-12.1007
飭躬	-12.1007
凟	-12.1007
劉勰新論	-12.1007
劚	-12.1007
原家語	-12.1007
周禮天官宫正	-12.1007
唐書儀衛志	-12.1007
増玉海乾徳四年	-12.1007
夜燈之始	-12.1007
孳尾	-12.1007
所立之官	-12.1007
掀	-12.1007
檜柏	-12.1007
鱣	-12.1007
七夕穿鍼詩	-12.1007
堰	-12.1007
天中節	-12.1007
天清節	-12.1007
婺女	-12.1007
寂寥	-12.1007
山林川澤	-12.1007
嶽鎮海瀆	-12.1007
後苑觀稻	-12.1007
敦牂	-12.1007
施㤙澤	-12.1007
日在中衡	-12.1007
晉書律厯志	-12.1007
會慶節	-12.1007
榖梁𫝊	-12.1007
殳	-12.1007
濯濯	-12.1007
祠先農	-12.1007
茅茨	-12.1007
貝母	-12.1007
軋	-12.1007
遊之極地則升降	-12.1007
𣙜酤	-12.1007
􁉸	-12.1007
都人士女	-12.1008
劇談録	-12.1008
子夜歌	-12.1009
冬日月㑹於	-12.1009
鉅	-12.1009
閏當在	-12.1009
竺	-12.1009
齊神武	-12.1009
五地六天	-12.1009
核中仁	-12.1009
纍纍	-12.1009
韋縚	-12.1009
増錄異記	-12.1009
蒞	-12.1009
原後漢書章帝紀	-12.1009
奮迅	-12.1009
扛	-12.1009
招提	-12.1009
髙陽氏	-12.1009
鮫綃	-12.1009
主生物	-12.1009
萍浮	-12.1009
鷹乃祭鳥	-12.1009
㨿	-12.1009
三日三夜	-12.1009
五品已上	-12.1009
京房易候	-12.1009
入名山	-12.1009
初一日洞元靈寳月十齋二十	-12.1009
増聞見録	-12.1009
増膳夫録汴中	-12.1009
晦朔弦望	-12.1009
朱子家禮集説	-12.1009
枕中記西河女子服枸杞法	-12.1009
欹	-12.1009
歐陽詢	-12.1009
水始氷	-12.1009
洛陽花木記	-12.1009
煩擾	-12.1009
禮記鄉飲酒曰	-12.1009
秦昭王	-12.1009
舉白旗	-12.1009
蕚	-12.1009
薰陸香	-12.1009
酷烈	-12.1009
髹	-12.1009
䕸	-12.1009
䙝	-12.1009
元宵前後	-12.1009
劍割肉	-12.1009
午甌茶	-12.1009
嗽	-12.1009
増史記封禪書髙祖	-12.1009
増齊民要術五月芒種莭	-12.1009
奐	-12.1009
彘膏塗	-12.1009
必釋菜	-12.1009
晁補之	-12.1009
曰令君	-12.1009
朝服而朝	-12.1009
榞	-12.1009
歸妹	-12.1009
盗啼	-12.1009
祀雨師	-12.1009
種冬藍	-12.1009
穜稑之種	-12.1009
笻	-12.1009
貛	-12.1009
赤奮若	-12.1009
逞	-12.1009
開禧元	-12.1009
韓愈南山詩	-12.1009
魦	-12.1009
羯	-12.101
干寳曰	-12.101
▁朱子曰	-12.1011
梁簡文	-12.1011
牂	-12.1011
鴻雁来	-12.1011
溶	-12.1011
畬	-12.1011
端午日賜	-12.1011
𫝊燈錄	-12.1011
捷	-12.1011
磅	-12.1011
躭	-12.1011
鑄鼎	-12.1011
種既生	-12.1011
緱氏	-12.1011
罝	-12.1011
隂在下	-12.1011
國老庶老	-12.1011
増隋書禮儀志後齊	-12.1011
廣寒殿	-12.1011
酒熟詩	-12.1011
增本草衍義	-12.1011
增輿地紀勝	-12.1011
膠牙餳	-12.1011
訃	-12.1011
賜御製詩	-12.1011
三輔黄圗	-12.1011
周宣王	-12.1011
四時占候	-12.1011
杜子美	-12.1011
母李氏	-12.1011
仁宗皇帝	-12.1011
刻巳未	-12.1011
原便民圖纂	-12.1011
原山居四要	-12.1011
増晋書律歴志	-12.1011
大皥句芒	-12.1011
姪	-12.1011
孶	-12.1011
宗尊也	-12.1011
犒	-12.1011
畚	-12.1011
白紵歌	-12.1011
范汪祠制	-12.1011
靉	-12.1011
原談薈正月	-12.1011
命漁師	-12.1011
壅塞	-12.1011
夕晴麻	-12.1011
崇儼	-12.1011
巴蜀	-12.1011
後漢書鍾離意	-12.1011
歐陽文忠公	-12.1011
水徳之始	-12.1011
秦中歲時記	-12.1011
羽籥	-12.1011
肚	-12.1011
舶䑲風	-12.1011
荻苗水	-12.1011
葦茭	-12.1011
藙	-12.1011
試武藝	-12.1011
隂在泉	-12.1011
一年之内有	-12.1011
萸	-12.1012
濬	-12.1012
霙	-12.1012
冉	-12.1013
淺水中	-12.1013
竄	-12.1013
唐書百官志少府監	-12.1013
增唐六典凡	-12.1013
篁	-12.1013
賀表曰	-12.1013
債	-12.1013
增唐會要天寳九載	-12.1013
慈烏巢	-12.1013
郟	-12.1013
増玉海嘉祐三年	-12.1013
湧幢小品	-12.1013
磁器	-12.1013
而問焉	-12.1013
金史世宗紀大定	-12.1013
隷	-12.1013
卷目録	-12.1013
天慶觀	-12.1013
妝	-12.1013
波濤洶湧	-12.1013
中和之氣	-12.1013
八月望夜	-12.1013
獺肝	-12.1013
粟米飯	-12.1013
聪	-12.1013
腸胃	-12.1013
饋遺	-12.1013
二百四十	-12.1013
原開天遺事長安	-12.1013
履襪	-12.1013
常氏日錄	-12.1013
御延和殿	-12.1013
敖	-12.1013
殄	-12.1013
清泠	-12.1013
盱	-12.1013
蕃廡	-12.1013
諒	-12.1013
中數曰嵗	-12.1013
二十四度去北	-12.1013
原宋書王	-12.1013
周禮天官内宰	-12.1013
増陳𤾉樂書	-12.1013
弱炊	-12.1013
旋味筍	-12.1013
日當其時	-12.1013
朔數曰年	-12.1013
机	-12.1013
棨	-12.1013
獲白鹿	-12.1013
立夏後申日	-12.1013
繡袍	-12.1013
翥	-12.1013
虈	-12.1013
趁	-12.1013
輜	-12.1013
辟蠧	-12.1013
頋	-12.1013
願陛下	-12.1013
陽生於子	-12.1014
袋	-12.1014
倐忽	-12.1014
別	-12.1014
白日昇仙	-12.1015
隗	-12.1015
増宋史天文志	-12.1015
愉	-12.1015
菩提	-12.1015
赤帝祝融	-12.1015
伶倫	-12.1015
和四年七月	-12.1015
春秋繁露王者能	-12.1015
竟陵王子良	-12.1015
依其言	-12.1015
李昉等	-12.1015
蘇易簡	-12.1015
鸚	-12.1015
龍朔二年	-12.1015
正月二月三月	-12.1015
原夲草綱目	-12.1015
原漢書郊祀志	-12.1015
増南史王僧孺	-12.1015
月正元日	-12.1015
民不安	-12.1015
流涕	-12.1015
禆	-12.1015
遨逰	-12.1015
駐蹕	-12.1015
㸑鼎	-12.1015
原隋書禮儀志隋制	-12.1015
宴京畿父老	-12.1015
嵓	-12.1015
捫蝨新話	-12.1015
是何祥也	-12.1015
楊師道	-12.1015
殽	-12.1015
藺	-12.1015
請以二月十六	-12.1015
赤壁賦	-12.1015
闉	-12.1015
乾㑹節	-12.1015
以三月九日	-12.1015
刑徳合門	-12.1015
剥鱓	-12.1015
原玉歴璇璣	-12.1015
命四監	-12.1015
増金史太祖紀	-12.1015
東京夢華錄八月秋社	-12.1015
東女國	-12.1015
瀛洲	-12.1015
烏膩	-12.1015
石流黄	-12.1015
簽	-12.1015
裙幄	-12.1015
訝	-12.1015
長慶中	-12.1015
阿驛	-12.1015
陰陽争	-12.1015
韭蓱韲	-12.1015
頻婆	-12.1015
骼	-12.1015
鵲巢知風	-12.1015
鷹乃學習	-12.1015
齊眡	-12.1015
昶	-12.1015
涒灘	-12.1016
宋史河渠志	-12.1017
溫庭筠	-12.1017
鍪	-12.1017
増張籍詩	-12.1017
増學圃雜疏	-12.1017
放榜	-12.1017
楊維楨	-12.1017
歳以為常	-12.1017
真臘國	-12.1017
賓客	-12.1017
渌	-12.1017
中華古今註	-12.1017
屧	-12.1017
砍	-12.1017
囓	-12.1017
増乾淳歳時記禁中	-12.1017
忒	-12.1017
欬	-12.1017
湫	-12.1017
漢書刑法志	-12.1017
珂	-12.1017
繡毬	-12.1017
貓	-12.1017
餒	-12.1017
先薦寢廟註	-12.1017
拍拍	-12.1017
揚子江	-12.1017
揫	-12.1017
於水際	-12.1017
生青熟	-12.1017
翼翼	-12.1017
耬耩	-12.1017
自空而下	-12.1017
至朔同日	-12.1017
行冬政	-12.1017
裵	-12.1017
詔送史館	-12.1017
鑾輿	-12.1017
降婁之次	-12.1017
陳暘樂書	-12.1017
雷𤼵聲	-12.1017
不可勝計	-12.1017
傅亮	-12.1017
大言賦	-12.1017
子午夘酉	-12.1017
慶成節	-12.1017
打耗	-12.1017
日候之乙	-12.1017
春色滿皇州	-12.1017
曲江春宴録	-12.1017
歡無極	-12.1017
祭先蠶	-12.1017
等二十四人	-12.1017
箧	-12.1017
簣	-12.1017
萸房	-12.1017
謿	-12.1017
貶	-12.1017
赤豆粥	-12.1017
錫慶院	-12.1017
黄鍾之宮	-12.1017
常平倉	-12.1019
簫管	-12.1019
懾	-12.1019
鐺	-12.1019
魚散子	-12.1019
棕	-12.1019
四月純陽用事	-12.1019
援筆	-12.1019
低昻	-12.1019
卑㓜	-12.1019
増唐書食貨志凡新附	-12.1019
妬	-12.1019
平坐鳴	-12.1019
瀟湘	-12.1019
秋秋之為言愁也愁之以時察守	-12.1019
縂	-12.1019
葱蒜	-12.1019
衘	-12.1019
遥相望	-12.1019
鏁	-12.1019
雲笈七籖茅盈	-12.1019
大火之次	-12.1019
封十八姨	-12.1019
憬	-12.1019
日雨人食	-12.1019
洱	-12.1019
猪脂	-12.1019
蟄䖝	-12.1019
蠛	-12.1019
八能士	-12.1019
原道書正月	-12.1019
増北京歳華記	-12.1019
夏后氏	-12.1019
左𫝊昭公	-12.1019
所吹者	-12.1019
摩㬋羅	-12.1019
朐	-12.1019
燃藜	-12.1019
秘書郎	-12.1019
聖祖降	-12.1019
臘前三白	-12.1019
裒	-12.1019
錫賚	-12.1019
須彌山	-12.1019
増橘錄	-12.1019
恢台	-12.1019
春風扇㣲和	-12.1019
狨	-12.1019
芍藥榮	-12.1019
葉如韭	-12.1019
薌脯	-12.1019
金桃銀桃	-12.1019
黄道游儀	-12.1019
丹田中	-12.1019
陽來復	-12.102
湊	-12.102
檜	-12.102
玉燭寳典	-12.102
開延英	-12.102
漢書武帝紀太始	-12.1021
執駒	-12.1021
匕	-12.1021
唳	-12.1021
長三四寸	-12.1021
周遭	-12.1021
冊府元龜	-12.1021
帔	-12.1021
皆月祭之	-12.1021
落更生	-12.1021
霜鹵	-12.1021
増桂海	-12.1021
太姥山	-12.1021
建已之月	-12.1021
成公綏	-12.1021
斗麴殺	-12.1021
禳禬	-12.1021
佯	-12.1021
党項	-12.1021
刻木為	-12.1021
原禮是月也天子乃	-12.1021
参知政事	-12.1021
増唐書李適𫝊	-12.1021
増神異經	-12.1021
披絮	-12.1021
景祐三年	-12.1021
澄霽	-12.1021
物於時為	-12.1021
目連經	-12.1021
荔枝奴	-12.1021
鎚	-12.1021
障塞	-12.1021
韉	-12.1021
𫝊云昔	-12.1021
仄	-12.1021
倮	-12.1021
免課	-12.1021
公旬用	-12.1021
卦六四	-12.1021
原東方朔占書一日得	-12.1021
命取冰	-12.1021
娑羅綿	-12.1021
宋子京	-12.1021
快快	-12.1021
柳宗元	-12.1021
樂飲宴	-12.1021
焚牧	-12.1021
燖	-12.1021
秋分在社	-12.1021
羝	-12.1021
羞寒花	-12.1021
耦耕	-12.1021
胡葱	-12.1021
豎造	-12.1021
醇酎	-12.1021
醺	-12.1021
青陽大廟	-12.1021
題四韻	-12.1021
􁂔	-12.1021
天寳二年	-12.1021
雷乃𤼵聲	-12.1022
腰背	-12.1023
豐穰	-12.1023
謂宰相曰	-12.1023
天皇大帝	-12.1023
檝	-12.1023
亭榭	-12.1023
人皆見之	-12.1023
増舊唐書德宗紀貞元	-12.1023
增後漢書光武紀建武	-12.1023
嶺表録異	-12.1023
朱鬛	-12.1023
李適詩	-12.1023
鰕	-12.1023
之所司者萬二千里其令曰	-12.1023
億載	-12.1023
増元稹詩	-12.1023
孔武仲	-12.1023
悸	-12.1023
樂遊苑	-12.1023
行春政	-12.1023
靈寳符	-12.1023
饔	-12.1023
優寵	-12.1023
兩兩相對	-12.1023
址	-12.1023
坦氣修通	-12.1023
増事文𩔖聚	-12.1023
増元史天文志	-12.1023
増宋史太宗紀淳化	-12.1023
天書再降	-12.1023
歸句曲	-12.1023
湘隂縣	-12.1023
濱	-12.1023
爆仗	-12.1023
用桑木	-12.1023
筝	-12.1023
粹	-12.1023
陡寒	-12.1023
鼐	-12.1023
冔	-12.1023
匪懈	-12.1023
升少半	-12.1023
原金門嵗節記洛陽人	-12.1023
和令調	-12.1023
夌	-12.1023
大廟大室	-12.1023
姊	-12.1023
扁豆	-12.1023
普賢	-12.1023
朮	-12.1023
澈	-12.1023
生于閏	-12.1023
莎雞振羽	-12.1023
虬	-12.1023
襯	-12.1023
逰斜川	-12.1023
陳後主	-12.1023
顧渚山	-12.1023
改正朔	-12.1025
啗	-12.1025
讀三朝寳訓	-12.1025
孝標	-12.1025
宋史選舉志	-12.1025
𥘉	-12.1025
彷	-12.1025
扐	-12.1025
漢靈帝	-12.1025
白芷	-12.1025
姑臧	-12.1025
廣異記	-12.1025
彤庭	-12.1025
梁書諸夷傳	-12.1025
淥	-12.1025
爨	-12.1025
甓	-12.1025
陵陽子明經	-12.1025
七月鳴鵙	-12.1025
九十六刻	-12.1025
報春鳥	-12.1025
孫逖	-12.1025
悲遊子	-12.1025
摩陂	-12.1025
曲水詩序	-12.1025
百九十二	-12.1025
祭五祀	-12.1025
萬物畢成	-12.1025
蘇頲應制	-12.1025
賞有功	-12.1025
車前子	-12.1025
雜咏	-12.1025
韜	-12.1025
嬉遊	-12.1025
峨峨	-12.1026
根荄	-12.1027
豺乃祭獸	-12.1027
御耒耜	-12.1027
憾	-12.1027
佞	-12.1027
増洛陽牡丹記	-12.1027
恭儉	-12.1027
臧榮緒晉書	-12.1027
劬	-12.1027
扁舟	-12.1027
撿	-12.1027
登科記	-12.1027
蟄蟲始振	-12.1027
三十九嵗	-12.1027
去皮尖	-12.1027
螘	-12.1027
見於成紀	-12.1027
鐘鼓樓	-12.1027
冬之徳寒寒不信	-12.1027
周必大	-12.1027
増事物紀原唐	-12.1027
天氣下降地氣	-12.1027
娃	-12.1027
拾遺記背明國	-12.1027
澹蕩	-12.1027
獻菊花酒稱	-12.1027
秋登慈恩浮	-12.1027
藐	-12.1027
謩	-12.1027
重明鳥	-12.1027
㸃艾杖	-12.1027
南康記	-12.1027
反支日	-12.1027
品藥性	-12.1027
噏	-12.1027
増玉海咸平五年	-12.1027
天貺莭	-12.1027
娵隅	-12.1027
延春閣	-12.1027
愛惜	-12.1027
望春門	-12.1027
獻白雉	-12.1027
而百姓有餘	-12.1027
芒種五月莭	-12.1027
靧面	-12.1027
食之甚美	-12.1027
騶虞	-12.1027
鮸	-12.1027
棒	-12.1027
夏之月日在	-12.1028
苦菜秀	-12.1028
色甚明	-12.1028
應詔詩	-12.1028
嵎	-12.1028
湓	-12.1028
刻三分夜	-12.1029
阮籍詩	-12.1029
榆荚	-12.1029
増南史宋孝武帝紀大明元年五月丙寅	-12.1029
三百六旬	-12.1029
長二三尺	-12.1029
雝	-12.1029
香美可食	-12.1029
東西南北	-12.1029
破陣樂	-12.1029
膳羞	-12.1029
宣和書譜	-12.1029
宰輔	-12.1029
洵	-12.1029
祁祁	-12.1029
蚖蠶	-12.1029
閟	-12.1029
青白花	-12.1029
䧺黄	-12.1029
以石壓	-12.1029
冬月采之	-12.1029
卧早起	-12.1029
増雜五行書	-12.1029
太昊	-12.1029
媛	-12.1029
海鷗	-12.1029
索靖	-12.1029
遘	-12.1029
鶯啼	-12.1029
也日影隨	-12.1029
假寐	-12.1029
増宋史禮志太宗	-12.1029
山稱萬嵗	-12.1029
每月朔望	-12.1029
玉樓春詞	-12.1029
玉盤盂	-12.1029
繞塔	-12.1029
肄習	-12.103
漁舟	-12.103
綰	-12.103
闡	-12.103
百工休	-12.103
簾幃	-12.103
汨	-12.1031
之時萬物始	-12.1031
六戊日	-12.1031
參知政事	-12.1031
悼	-12.1031
懇	-12.1031
應劭	-12.1031
无妄	-12.1031
螟	-12.1031
風颯然	-12.1031
灰藋	-12.1031
唐書高宗紀	-12.1031
増説苑	-12.1031
崩	-12.1031
幻	-12.1031
掾吏	-12.1031
杉木	-12.1031
王欽若	-12.1031
七月流火	-12.1031
令蠶妾	-12.1031
卑濕	-12.1031
四月五月采	-12.1031
孟婆	-12.1031
敷于散	-12.1031
波濤	-12.1031
燕子磯	-12.1031
節之中月	-12.1031
紀事詩	-12.1031
蝦蟹	-12.1031
郫	-12.1031
橡	-12.1031
斯螽動股	-12.1031
増唐會要貞觀	-12.1032
増齊書	-12.1032
躑	-12.1032
増玉海至和元年	-12.1032
榕樹	-12.1032
絹袋盛	-12.1032
耐旱	-12.1032
刀劍	-12.1032
慈寧宫	-12.1032
百餘丈	-12.1032
致仕官	-12.1032
莫曉其	-12.1032
𨽻太常	-12.1032
修内司	-12.1032
墐户	-12.1032
增玊海	-12.1032
西王母棗	-12.1032
轉運司	-12.1032
餘杭	-12.1032
九成宮	-12.1032
原詩二之日	-12.1032
執干戚	-12.1032
増桂海花木志	-12.1032
増選擇厯書	-12.1032
子干壬子	-12.1032
子干戊子	-12.1032
復元氏	-12.1032
恩及於	-12.1032
拈	-12.1032
日中測景	-12.1032
東南海中	-12.1032
汴渠	-12.1032
百年者如	-12.1032
者衆也	-12.1032
蒹	-12.1032
行夏政	-12.1032
觱	-12.1033
隄	-12.1033
霓	-12.1034
嚏	-12.1034
刑部尚書	-12.1034
墾田	-12.1034
以好酒	-12.1034
搬	-12.1034
瑟瑟	-12.1034
瀑布	-12.1034
造神麴	-12.1034
之徴也	-12.1034
増武林舊事	-12.1034
增開寳本草	-12.1034
榮辱	-12.1034
仲冬短	-12.1034
午未申酉	-12.1034
執矩	-12.1034
幔亭	-12.1034
廿五日	-12.1034
出凓下霜	-12.1034
無餘分是謂	-12.1034
黄龍負	-12.1034
餓	-12.1035
正月為端	-12.1035
孟夏之月	-12.1035
之號十有二	-12.1035
增魏志	-12.1036
酸收之以苦𤼵之	-12.1036
曹毗	-12.1036
以安身	-12.1036
元好問	-12.1036
後漢書安帝紀元初六年	-12.1036
舉賢良方正	-12.1036
僮僕	-12.1036
奔騰	-12.1036
稟	-12.1036
䜴	-12.1036
姦邪	-12.1036
忝	-12.1036
更三㸃	-12.1036
索綯	-12.1036
霸陵	-12.1036
日月行道	-12.1036
椶	-12.1036
泠然	-12.1036
漚麻	-12.1036
䕫州	-12.1036
七修𩔖稿	-12.1036
其數六其味鹹其臭朽其祀行祭先腎	-12.1036
問百年	-12.1036
堯舜	-12.1036
晼	-12.1036
菊華酒	-12.1036
菌桂	-12.1036
雲紀官	-12.1036
青陽右个	-12.1036
元封元年	-12.1038
佩帯	-12.1038
淅米	-12.1038
竒之因	-12.1038
枸杞湯	-12.1038
原古詩	-12.1038
枝柯	-12.1038
西北隅	-12.1038
鄭𤣥	-12.1038
驥	-12.1038
不能自存者	-12.1038
五木耳	-12.1038
大號山	-12.1038
生為春熟為秋	-12.1038
臉	-12.1038
閻立	-12.1038
閼逄	-12.1038
嵗時廣記	-12.104
閃	-12.104
龍圖閣	-12.104
每服一	-12.104
五而變	-12.104
原説苑	-12.104
祭其先	-12.104
莫嫌	-12.104
堂月令論	-12.104
為飛白	-12.104
睫	-12.104
圖冩	-12.104
叅軍	-12.104
蔓荆	-12.104
裂葉風	-12.104
雉震呴	-12.104
靴	-12.104
養壯佼	-12.104
以建子	-12.1041
倉開日宜	-12.1042
惻然	-12.1042
為瀉吸為補夫	-12.1042
道家以	-12.1042
㫖蓄	-12.1042
之用事常以	-12.1042
寄旺	-12.1042
増玉海宣和	-12.1042
旭旦	-12.1042
屆	-12.1042
年益夀	-12.1042
氣上騰	-12.1042
百舌鳥	-12.1042
呻	-12.1042
庸調	-12.1042
景雲見	-12.1042
甚香美	-12.1042
祥符五年閏十月	-12.1042
噀	-12.1042
水紀官	-12.1042
盧諶祭	-12.1044
九十以上	-12.1044
瘥	-12.1044
薦韭卵	-12.1044
㓕	-12.1044
之月法萬物	-12.1044
醿	-12.1044
嗛	-12.1044
後漢書章帝紀元和二年二月	-12.1044
規矩	-12.1044
餈	-12.1044
一百言演	-12.1044
嚢承	-12.1044
律中夹鍾	-12.1044
明堂左个	-12.1044
易之地家	-12.1044
春服既成	-12.1044
月幾望	-12.1044
范甯	-12.1044
騎火茶	-12.1044
鰽	-12.1044
黑猪渡河	-12.1044
呼萬嵗	-12.1046
斬伐	-12.1046
西都賦	-12.1046
負薪	-12.1046
丞相御史	-12.1046
宋史禮志太平興國九年	-12.1046
摯	-12.1046
日為千秋節	-12.1046
八十以上	-12.1046
扶疎	-12.1046
窈窕	-12.1046
莖梗	-12.1046
圯	-12.1046
墳典	-12.1046
越裳	-12.1046
擂	-12.1048
大撓作甲子	-12.1048
臨海異物志	-12.1048
風土記蜀之風俗	-12.1048
㸃檢	-12.1048
増天中記	-12.1048
書終篇	-12.1048
月宜加	-12.1048
糞掃	-12.1048
升擢	-12.1048
星亡有	-12.1048
月莭晝用十一文夜用	-12.1048
減一文	-12.1048
碑銘	-12.1048
結羊腸	-12.1048
自然汁	-12.1048
遴	-12.1048
妹	-12.1048
啾	-12.105
錦綺	-12.105
煤	-12.105
癡獃	-12.105
除肉刑	-12.105
諸葛武侯	-12.1052
增謝承後漢書	-12.1052
困乏	-12.1052
斷屠	-12.1052
吳儂	-12.1052
饅	-12.1054
潘尼	-12.1054
雄鳩	-12.1054
乾象法	-12.1054
日遣官	-12.1054
習水戰	-12.1054
𥚑	-12.1054
琴操	-12.1054
侍衞	-12.1054
龍見而雩	-12.1054
仲尼	-12.1054
歴率百年	-12.1054
人人自	-12.1056
襃	-12.1056
富貴坊	-12.1056
忠懿王	-12.1056
明堂太廟	-12.1056
増玉海天聖八年	-12.1057
謂建子之月	-12.1057
之辭也	-12.1058
孝弟力田	-12.1058
庾闡	-12.1058
無虚士	-12.1058
秉燭逰	-12.1058
聯	-12.1058
腰帯	-12.1058
隕霜	-12.1058
季春之月	-12.1058
益部方物記	-12.1059
逹磨	-12.1059
呵止	-12.1059
乾元元年	-12.1059
烈烈	-12.1059
牕格	-12.1059
赤幟	-12.1059
宰相及學士得從	-12.1061
斿	-12.1061
逆旅	-12.1061
菰菜	-12.1061
天根見	-12.1061
寎	-12.1061
涕泣	-12.1061
禊洛	-12.1063
之精其色	-12.1063
天道南行	-12.1063
後漢書郡國志	-12.1063
燕見於邑	-12.1063
之日祭之於	-12.1064
蘆葦	-12.1067
秋風辭	-12.1067
以名聞	-12.1067
囘班	-12.1067
秃師	-12.1067
幬	-12.1068
建道塲	-12.1069
八十一分	-12.1071
南二里	-12.1071
膏糜	-12.1071
金虀玉膾	-12.1071
爻十日為	-12.1073
酒三行	-12.1074
夜合花	-12.1075
增清凉山志中臺	-12.1075
煼	-12.1075
生山野	-12.1076
芽蘖	-12.1077
四仲之	-12.1077
餽歳	-12.1079
增世説	-12.1081
而頒之	-12.1084
之夀以	-12.1085
之辰仲	-12.1087
實作房	-12.1115
良弼	-12.1119
增玉海淳化五年	-12.112
月十有八日	-12.1121
日夜暈	-12.1122
増玉海元豐七年	-12.1126
尊之故	-12.1127
百畮	-12.1129
四百八十	-12.1132
人執之	-12.1134
嬾眞子録	-12.1158
南二十里	-12.1164
閭里	-12.1166
宿酘米	-12.1167
故一日之	-12.1171
千八百	-12.1183
梁書武帝紀	-12.1184
錢五千	-12.1186
氣行於	-12.1196
桑柘	-12.12
熙寧九年	-12.1219
紡	-12.1237
月奉教	-12.1268
唐㑹要貞觀十八年	-12.1287
寳厯元年	-12.1293
所從來	-12.1296
皇祐二年	-12.1297
増玉海雍熙四年	-12.1307
月内多	-12.1321
蒲澗寺	-12.1333
玉海天聖七年	-12.1344
象之法扵象魏	-12.1354
如火光	-12.136
開寳二年	-12.1365
午蔀七	-12.1381
麴糵	-12.1387
月斫為	-12.1398
有主者	-12.1415
増唐會要武徳	-12.1422
帛有差	-12.1422
大定十	-12.1429
曰來日	-12.1452
玉海康定元年九月	-12.146
之辰孟	-12.1509
應天府	-12.151
七十以上	-12.1535
杭州府	-12.1575
増嵗華紀麗譜正月	-12.158
八月十四夜	-12.1583
秋興賦	-12.16
秋聲賦	-12.1628
丈五尺	-12.1655
史記孝武	-12.171
充蔬	-12.1739
唐書太宗紀貞觀二年	-12.1751
年九月辛夘	-12.1752
旬為月	-12.1763
戍邊	-12.1766
原感應篇二十	-12.1796
増唐㑹要貞觀十三年	-12.1797
田家五行諺云	-12.1819
増宋㑹要太平興國	-12.186
増玉海皇祐五年	-12.1867
十餘丈	-12.1907
貴通考	-12.1922
東南隅	-12.1991
唐詩紀事景龍三年	-12.2172
迎紫姑	-12.22
時出二十	-12.2203
月為一月	-12.221
大衍之數	-12.2221
増玉海天禧二年	-12.2225
年二月晦	-12.2263
増玉海咸平四年	-12.2319
月令曰孟	-12.2331
貞觀六年	-12.2416
増玉海康定元年十	-12.248
蒿葉似	-12.256
拜稽首	-12.256
之數四十	-12.2562
五日四分日之一	-12.258
月收者為	-12.2697
翰林院侍講學	-12.2722
雙鯉	-12.2738
之氣乘之也又行	-12.2739
月㑹於鶉	-12.2751
増玉海祥符四年	-12.2757
冬而實	-12.2804
飲酒之禮	-12.2836
以正仲	-12.294
朔旦立春	-12.2948
同平章	-12.295
原書厥民	-12.3159
休奕詩	-12.3257
真人楊羲	-12.3578
年冬閏十	-12.3601
秋日月㑹於	-12.3679
水火木金	-12.3824
四分日之一	-12.3837
原書平秩	-12.4425
月十四日詔	-12.4551
八月白露節	-12.4808
御勤政	-12.4857
元年十二月二	-12.4968
州獻瑞	-12.4969
再餾飯	-12.505
幸含芳園	-12.5342
武徳二年	-12.5347
欽定四庫全書歲時廣記卷	-12.5357
增唐書太宗紀貞觀	-12.5385
生蟲損	-12.5397
律中中呂	-12.551
蟲羽其音徵	-12.5521
原祛疑	-12.5613
増玉海開寶	-12.5649
金史禮志天	-12.5661
増晉書禮志	-12.5715
增嵗華紀麗譜	-12.5753
有十二萬九	-12.5763
曰講官起居注	-12.5854
梔子花	-12.5857
畫見聞志	-12.5866
増束晳	-12.5876
在宗載	-12.588
咸和萬民	-12.5884
體數四而用三	-12.5887
也故晝數	-12.589
可見也故為	-12.589
焉耆國	-12.589
基命宥密	-12.5893
事交乎	-12.5902
刀剖之	-12.5902
十八羅漢	-12.5902
與時消息	-12.5906
賙	-12.5909
洞元靈寳月十齋	-12.5911
救時疾	-12.5912
則屬民而讀邦法	-12.5912
周禮地官牧人凡	-12.5912
天地相革	-12.5912
虞人入梁	-12.5912
軼	-12.5915
刋陽木	-12.5915
則與時而	-12.5915
天地革而四時成	-12.5915
教亦彌數	-12.5915
朝不廢朝	-12.5915
祠中嶽	-12.5915
莫不廢夕	-12.5915
彌親民	-12.5918
西漢㑹要	-12.5918
贊祝火神	-12.5918
増北齊書孝昭帝紀皇建元年八月	-12.5921
嵗時合耦	-12.5921
慧印三昧經	-12.5921
所祭者牢肉	-12.5921
日中與夕	-12.5921
朝之餘膳	-12.5921
桑枝湯	-12.5921
韋嗣立莊	-12.5921
建子之月	-12.5922
稂	-12.5924
監造官	-12.5924
䕶花鳥	-12.5924
饙	-12.5924
後漢書章帝紀建初	-12.5925
䃰	-12.5928
佛照光	-12.5928
優曇花	-12.5928
四時之居治	-12.5928
插芝蔴	-12.5928
松盆熰歳	-12.5928
獻生犀	-12.5928
虸	-12.5928
蚄	-12.5928
家塾事親	-12.5928
保章氏以	-12.5931
容成作葢天	-12.5931
置審刑院	-12.5931
花黄色不結實	-12.5934
行鄉飲酒之禮	-12.5934
欲其化也則	-12.5934
三年七月四日	-12.5934
三月三日蠶市之辰	-12.5934
二十日作帝範	-12.5934
凡染春暴練	-12.5934
卜蛙聲	-12.5934
溝底白	-12.5934
田雞呌得	-12.5934
置鑄錢監	-12.5934
賽路神	-12.5934
黑牡秬黍	-12.5934
海景徳四年	-12.5935
締	-12.5937
慳	-12.5937
羊腎一	-12.5937
不夜吠	-12.5937
中此即天地	-12.5937
増後山叢談	-12.5937
新宫銘	-12.5937
晝日三接	-12.5937
染絲帛	-12.5937
榖雨日辰值甲	-12.5937
經度制置使	-12.5937
裴耀卿	-12.5937
議立明堂	-12.5937
六氣一十八候皆	-12.5938
主旱雨分健龍主水	-12.594
侍讀學士李淑	-12.594
正午牡丹	-12.594
益部方物略記	-12.594
三日有霧歳熟	-12.594
上簡子塜	-12.594
上藥王廟	-12.594
之如秋陽之	-12.594
二十八日東嶽生辰	-12.594
以計率分	-12.594
原文子老子曰	-12.594
告閏朔	-12.594
太史釁龜	-12.594
定律尺	-12.594
封祀玉牒	-12.594
數有多有少	-12.594
文淵閣大學士兼	-12.594
泂酌亭	-12.594
然如秋陽之	-12.594
爽心宴	-12.594
牛騰馬	-12.594
盪邪齋	-12.594
置敖倉	-12.594
聖主厚祚	-12.594
謹蓋蔵	-12.594
進西域圖記	-12.594
開玉泉水	-12.594
崔寔曰	-12.5943
太上大道	-12.5943
焜煌	-12.5943
建寧府浦	-12.5943
燧取火	-12.5943
物又其外方	-12.5943
原寰宇記	-12.5943
原漢書董仲舒𫝊	-12.5943
彭城王義康	-12.5943
靈夀花	-12.5943
咮	-12.5943
汗淋學士	-12.5943
英烈王	-12.5943
菆	-12.5943
通義宫	-12.5943
進詩傳補注	-12.5943
麟趾褭蹏	-12.5943
京房易占	-12.5945
糅	-12.5946
進士籍而入選謂之春闈	-12.5946
二年正月有司奏今月	-12.5946
増談薈二月	-12.5946
増玉海嘉祐二年	-12.5946
二十有八星之	-12.5946
使廵省	-12.5946
朕即位以来	-12.5946
主有喜事大吉	-12.5946
二十九日幸慶善	-12.5946
五角六張	-12.5946
伍子胥	-12.5946
候赦法	-12.5946
内閣中書	-12.5946
冬析幹	-12.5946
勾漏洞天	-12.5946
厄魯特	-12.5946
君子履之必有	-12.5946
唐㑹要龍朔元年	-12.5946
地里志	-12.5946
増元嘉起居注	-12.5946
増晉書武帝紀泰始四年十二月	-12.5946
増玉海慶厯六年十一月二十九日獵城	-12.5946
增筆談	-12.5946
大飲烝	-12.5946
如意寳珠	-12.5946
宴麗正殿	-12.5946
寒奠體	-12.5946
幸闕里	-12.5946
徳潤泉	-12.5946
戴楸葉	-12.5946
採守宫	-12.5946
昌永保	-12.5946
春液角	-12.5946
會仙官	-12.5946
有雲迎日	-12.5946
木頭㸃	-12.5946
氷析灂	-12.5946
監門将軍判	-12.5946
監門衛	-12.5946
知更雀	-12.5946
秋合三材	-12.5946
興五年十一月庚午朔初置	-12.5946
船同侣	-12.5946
觀騎樓	-12.5946
課入農桑	-12.5946
辨門閏	-12.5946
選高才生	-12.5946
陸倕新漏刻銘	-12.5946
鬼姑神	-12.5946
易乾鑿度	-12.5947
雲笈七籖三洞奉道	-12.5948
繼之以燭	-12.5949
夜戒守	-12.595
金堂縣	-12.595
增李尤	-12.595
朝覲壇	-12.595
三年不窺	-12.595
三戌為臘	-12.595
備始凉	-12.595
分時化育	-12.595
原殷芸小説	-12.595
合射辟雍	-12.595
合璧連珠	-12.595
天三生木地	-12.595
天下險要	-12.595
季夏六月土王	-12.595
扵國城東南	-12.595
政和七年十一月	-12.595
日詔宴寧王	-12.595
晷如度	-12.595
朔不得中	-12.595
樞密直學士	-12.595
歲中三遷	-12.595
歲乃有殃	-12.595
獻女口	-12.595
獻書之路	-12.595
祭五星壇	-12.595
祭田婆	-12.595
羊腎粥	-12.595
追酬髙	-12.595
鍊剛造劍	-12.595
魚長三尺者	-12.595
上寅日取	-12.5953
寒暑相推而	-12.5953
枸把湯	-12.5953
歌鹿鳴之	-12.5953
鍋	-12.5953
二年三月詔曰	-12.5953
八月采實隂	-12.5953
原周禮秋官大行人	-12.5953
媧	-12.5953
日䝉古色目	-12.5953
闞	-12.5953
䆊	-12.5953
䕶門草	-12.5953
两翅大	-12.5953
五帝臘祖	-12.5953
伐木取竹箭	-12.5953
内外僕妾	-12.5953
冬至前米價	-12.5953
冬蟄春出	-12.5953
占子時左主	-12.5953
原越絶書越王問	-12.5953
去兹毒	-12.5953
四百八十九枚	-12.5953
増荆楚歳時記十二月八日為臘日	-12.5953
增四民月令冬十一月	-12.5953
增舊唐書禮儀志明堂	-12.5953
寢别内外	-12.5953
廟植圭	-12.5953
從省約	-12.5953
悽愴	-12.5953
扎拉巴	-12.5953
指兩辰之間	-12.5953
時左主行人右主吉	-12.5953
月夜乗舟	-12.5953
栩	-12.5953
法王料斗	-12.5953
甯戚飯牛	-12.5953
畝用子	-12.5953
盥漱	-12.5953
眩人目	-12.5953
神女捧日	-12.5953
禮部貢院	-12.5953
紀歷撮要	-12.5953
繽	-12.5953
考神納賔	-12.5953
而盛故潮獨大於餘	-12.5953
行入五岳	-12.5953
觀銅渾儀	-12.5953
註一嵗三百六十日	-12.5953
閉户視書	-12.5953
開誠示	-12.5953
隂氷厥陽氷厚	-12.5953
𤼵洛陽宫	-12.5953
柝	-12.5954
食療本草	-12.5955
齊竟陵王	-12.5955
原周禮春官占夢	-12.5956
夢之吉凶	-12.5956
五嶽四鎮	-12.5956
哢	-12.5956
宋史五行志大中祥符八年	-12.5956
笈	-12.5956
主年豐風雨	-12.5956
事之史凡記事之制	-12.5956
増唐會要永徽二年	-12.5956
威加海内	-12.5956
法度以修記	-12.5956
痟	-12.5956
匼	-12.5956
厚而皺	-12.5956
徤	-12.5956
三公行陵	-12.5956
丙暘暘乾	-12.5956
丙暘暘無	-12.5956
伎兒鳥	-12.5956
使民無空者也	-12.5956
元間大呂助	-12.5956
増公羊傳王正月疏	-12.5956
増宋史禮志真宗祥符	-12.5956
増玉海祥符三年正月二十八日	-12.5956
富立家	-12.5956
巳時左主	-12.5956
指十二辰之	-12.5956
於尚書臺	-12.5956
燥濕得所	-12.5956
特進佩魚	-12.5956
白麒麟璽	-12.5956
神䕶草	-12.5956
秘書總目	-12.5956
算外則	-12.5956
置木契	-12.5956
老駝知	-12.5956
聖姑祠	-12.5956
至適在晦	-12.5956
萩	-12.5956
萬物交通	-12.5956
萬物天子立司空使掌邦	-12.5956
誦經九函	-12.5956
迣	-12.5956
遁九局	-12.5956
酉時左	-12.5956
銅澡盤	-12.5956
隂將始刑	-12.5956
原周禮秋官小司	-12.5959
桑柘之火	-12.5959
火季夏取	-12.5959
以四孟之月	-12.5959
增宋書禮志	-12.5959
於苑囿	-12.5959
韓愈詩喚起	-12.5959
六韻詩	-12.5959
宴於桃花園	-12.5959
取枸把	-12.5959
熙朝樂事除夕	-12.5959
皇極天	-12.5959
増周禮秋官大行人	-12.5959
故大熱也	-12.5959
陽逹物風	-12.5959
二百一十有	-12.5959
命方相氏帥百𨽻	-12.5959
奏外辦皇帝出	-12.5959
戒不虞	-12.5959
朔日甲乙以紀	-12.5959
秋蘂冬	-12.5959
隂陽交接	-12.5959
以臘為閏	-12.5959
伶官奏	-12.5959
周禮冬官考工記	-12.5959
増淮南萬畢術	-12.5959
班五條詔書	-12.5959
箠	-12.5959
象冬所立官也是官	-12.5959
一年約法	-12.5959
不盈者名曰	-12.5959
丞相司直	-12.5959
伴月香	-12.5959
叢春亭	-12.5959
君曰漁	-12.5959
問訊家眷	-12.5959
天尊像記	-12.5959
寺塔現	-12.5959
希逹太子	-12.5959
延慶節	-12.5959
建神御庫	-12.5959
張王生辰	-12.5959
收莒芋	-12.5959
早蠶熟午	-12.5959
時左主他喜右主	-12.5959
時左主吉右	-12.5959
時左主得意右主	-12.5959
暹羅酒	-12.5959
書名玉歴	-12.5959
栁有八徳	-12.5959
樹木發壊	-12.5959
法八月中作	-12.5959
澍雨大	-12.5959
獻綬帯	-12.5959
玉杵臼	-12.5959
皇覧自	-12.5959
省獄舉寃	-12.5959
祭遁甲神	-12.5959
立宏詞科	-12.5959
紅丢丢	-12.5959
置廷尉平	-12.5959
習三禮	-12.5959
萬緡疋	-12.5959
蕃客奏事	-12.5959
薛濤井	-12.5959
薦麥𤓰	-12.5959
買白犬	-12.5959
辟蚤蝨	-12.5959
造大路	-12.5959
開龍口	-12.5959
闇中取物	-12.5959
雀子飛	-12.5959
雷電擊折	-12.5959
鞭春開	-12.5959
順陰義	-12.5959
鷕	-12.5959
龍池聖徳頌	-12.5959
周髀算經	-12.5959
圻	-12.5962
縞	-12.5962
色淺紫	-12.5962
祀先祖	-12.5962
夕以修令	-12.5962
氛氲	-12.5962
多一瓣	-12.5962
婣	-12.5962
五代史司天考	-12.5962
而潮小或者	-12.5962
原嘉定縣志	-12.5962
嘑	-12.5962
嘔	-12.5962
解州鹽池	-12.5962
伏壮於内使隂陽得成	-12.5962
冬之月天子居元堂	-12.5962
原禮是月也命工師	-12.5962
增乾淳嵗時記三月	-12.5962
後漢書祭祀志建武三十二年二月二十	-12.5962
掞	-12.5962
穊	-12.5962
能稍大	-12.5962
鈔	-12.5962
集仙𫝊	-12.5962
主酒食丑時	-12.5962
以月晦盤貯	-12.5962
増禮天子祭天地䟽	-12.5962
増雲仙襍記	-12.5962
大陵積尸之氣氣佚	-12.5962
天橋津	-12.5962
宣宗大中	-12.5962
日月相推	-12.5962
曹參軍事掌	-12.5962
歲六齋	-12.5962
燭影揺紅詞	-12.5962
紃	-12.5962
至棘店	-12.5962
虡	-12.5962
表參起居	-12.5962
起居郎掌	-12.5962
酒肴浮之流水	-12.5962
雲笈七籖明真科云	-12.5962
二八之門	-12.5962
兩莖相著	-12.5962
八穀皆	-12.5962
刻半従	-12.5962
四十四枝	-12.5962
如十月以應鐘為	-12.5962
忠孝圖	-12.5962
忠烈王	-12.5962
旗旛改	-12.5962
時日行地中	-12.5962
晚講坐講	-12.5962
服胡麻	-12.5962
歡樂井	-12.5962
歴五辰	-12.5962
民有單老孤稚不	-12.5962
氣蓄積太	-12.5962
流杯曲水	-12.5962
涉江鳴鼓	-12.5962
炎火行	-12.5962
監察御史	-12.5962
立祖神	-12.5962
糴秔稻	-12.5962
置集雅館	-12.5962
能自存主者郡縣咸	-12.5962
謌	-12.5962
韭菜露葵	-12.5962
餙	-12.5962
延福齋	-12.5964
居家必用	-12.5964
疥	-12.5965
終則令羣	-12.5965
密封勿令漏氣	-12.5965
樁	-12.5965
𡼏	-12.5965
入直臺	-12.5965
問人疾苦	-12.5965
潰	-12.5965
増南史梁武帝紀大同	-12.5965
增雲南志	-12.5965
樂宫東闕中樹上飛下止地文章五色	-12.5965
不與天相應	-12.5965
九日増減一刻	-12.5965
政化之本	-12.5965
方氣從所勝而來	-12.5965
朌	-12.5965
氣右行此月之中日	-12.5965
為之辟易故潮	-12.5965
祭馬神在通州北四	-12.5965
肦	-12.5965
霍融上言	-12.5965
時主有客來	-12.5965
此難難隂	-12.5965
璹	-12.5965
雲迎送	-12.5965
乾覆布兹亭育凡	-12.5965
以十二月為正	-12.5965
以戌臘午	-12.5965
分數四十六日則天子迎	-12.5965
増㑹稽志二月二日	-12.5965
増漢書武帝紀太初元年十	-12.5965
夏有水冬	-12.5965
官其属六十	-12.5965
念氣從	-12.5965
捎	-12.5965
日暖夜寒	-12.5965
春司御氣䖍恭報祀	-12.5965
此其生數	-12.5965
用乙夘歴	-12.5965
章敬寺賦詩	-12.5965
鄽	-12.5965
養贍給衣食	-12.5965
黴	-12.5965
一歲三華	-12.5965
丹霄殿樓	-12.5965
乃令左軍	-12.5965
以閏法乗	-12.5965
停放四月上旬	-12.5965
刻則合而為	-12.5965
勿市履屣	-12.5965
匪閏則其氣	-12.5965
増北史魏高祖紀太和	-12.5965
天源錄	-12.5965
太平惠民局	-12.5965
廵屬縣	-12.5965
従漚鳥游	-12.5965
御前釋褐	-12.5965
徴魯申公	-12.5965
招揺指未	-12.5965
持節行郡國	-12.5965
採藥時月	-12.5965
故出入卯酉之	-12.5965
方長不折	-12.5965
日者衆陽之	-12.5965
時每時各占	-12.5965
會天位	-12.5965
月者衆隂之	-12.5965
楓香脂	-12.5965
横公魚	-12.5965
澩	-12.5965
炊五斗米	-12.5965
璵	-12.5965
粉糝寒具	-12.5965
衰故晝	-12.5965
製寳符旗	-12.5965
豨薟	-12.5965
貞觀六年閏八月	-12.5965
飛數逐月	-12.5965
饗孤子	-12.5965
龍圖閣曲宴	-12.5965
􁀗	-12.5965
漢上朱氏易解	-12.5968
増周禮夏官司弓矢中春	-12.5968
増舊唐書文宗紀太和九年	-12.5968
弊訟登中於天府	-12.5968
澮	-12.5968
迎仙仗	-12.5968
後漢書郅惲	-12.5968
有争訟	-12.5968
至靑城	-12.5968
原禮命司徒循行	-12.5968
吐火羅國	-12.5968
増范成大上元呉中節物詩	-12.5968
多少皆平分	-12.5968
灞滻	-12.5968
辰在申司	-12.5968
菔	-12.5968
原東方朔外𫝊	-12.5968
左氏榖梁春秋	-12.5968
年十月鳳凰	-12.5968
殫	-12.5968
七月建申	-12.5968
保夀侯誕	-12.5968
功曹𡼏	-12.5968
商飈館	-12.5968
嚏噴	-12.5968
地過三丈也	-12.5968
増梁書武帝紀普通二年	-12.5968
増玉海咸平三年十一月	-12.5968
天之常道也	-12.5968
如此者歲大	-12.5968
故六淫謂之	-12.5968
槀本射干	-12.5968
江五里以須	-12.5968
泗水神	-12.5968
洗車雨	-12.5968
清澄甘潔	-12.5968
漚枲	-12.5968
炎暑赫	-12.5968
照庭火	-12.5968
百字以上	-12.5968
眚	-12.5968
祀九宫貴神	-12.5968
秋田為獮獮殺也	-12.5968
罝䍡設穽鄂	-12.5968
臘八粥	-12.5968
花如雪六出	-12.5968
賦八夕詩	-12.5968
農桑撮要	-12.5968
鐘為角仲呂為閏徴	-12.5968
隂生為火數	-12.5968
頒學合聲	-12.5968
鯥	-12.5968
黄綿襖子	-12.5968
之日𤼵五政一政曰	-12.5968
原道山清話	-12.5968
大率笨麴末一	-12.5968
齊民要術粟米麴作酢法	-12.5968
曰何以知	-12.5969
霆	-12.5969
淳化三年三月	-12.5969
舊唐書禮儀志	-12.5969
増海寧縣志	-12.597
緱	-12.597
年八月十五	-12.5971
増岩棲幽事山	-12.5971
義熙初	-12.5971
北京歲華記	-12.5971
増北齊書文宣	-12.5971
增元稹數蓂詩	-12.5971
癎	-12.5971
紀天保九年	-12.5971
不穿井	-12.5971
六甲左右靈飛	-12.5971
慝	-12.5971
木瓜而小	-12.5971
東平郡	-12.5971
白居易首夏詩	-12.5971
設金雞	-12.5971
釂	-12.5971
一人録軍國政要為時政記月送史館	-12.5972
以自知侍者之	-12.5972
夏正之月祭	-12.5972
曝衣樓天	-12.5972
潤之以風雨	-12.5972
生薤勿食	-12.5972
随甕大小	-12.5972
顔延之南郊	-12.5972
黄𤓰菜	-12.5972
七月七日是夕人家婦女	-12.5972
増岳陽風土記	-12.5972
増登真隠訣	-12.5972
増風角書	-12.5972
官儀辟雍去明堂三百歩	-12.5972
有瘧寒	-12.5972
某年月日	-12.5972
竺法真	-12.5972
給醫藥	-12.5972
羅浮山疏	-12.5972
鏞	-12.5972
汗浹衣	-12.5972
開講質問疑	-12.5972
韓愈南海神廟碑	-12.5972
上殿不下	-12.5972
乗坎執權	-12.5972
乳頭香	-12.5972
井七日七夜是謂水湅	-12.5972
井十度	-12.5972
人皇真官下日其日修	-12.5972
仙人掌草	-12.5972
冠禮沿革	-12.5972
分繭稱絲	-12.5972
制七魄	-12.5972
前汲井花水斗量著甕中量飯	-12.5972
剔燈杖	-12.5972
原周禮春官馮相氏	-12.5972
呼餘皇	-12.5972
和酒飲之	-12.5972
品物咸章	-12.5972
器亷以深	-12.5972
土潤溽暑	-12.5972
増保生要録	-12.5972
増玉海大中祥符九年	-12.5972
增周禮冬官㡛氏湅	-12.5972
增法苑珠林初	-12.5972
增漢書武帝紀建元元年秋七月	-12.5972
增隋書南蠻	-12.5972
婪	-12.5972
宰告曰	-12.5972
居側室	-12.5972
屯官循	-12.5972
嵗本論	-12.5972
師子尾拂	-12.5972
弗興畫龍	-12.5972
怯夜幡	-12.5972
戩	-12.5972
掐秋菜	-12.5972
掛塔燈	-12.5972
收桃葉	-12.5972
文光果	-12.5972
斗井花水一	-12.5972
日出入逺	-12.5972
日精月華	-12.5972
春鳩鳴	-12.5972
時地皇真官下日	-12.5972
時直傾之勿以	-12.5972
晝暴諸日夜宿諸	-12.5972
更沃至	-12.5972
来年榖資	-12.5972
案無留辭	-12.5972
欎	-12.5972
歩輦召學士	-12.5972
添色芙蓉花	-12.5972
炊飯薄攤使冷日未出	-12.5972
熛	-12.5972
狀元紅	-12.5972
玉精盌	-12.5972
瑰蓴	-12.5972
盖蠶叢	-12.5972
石粟米飯一石明旦作酢今夜	-12.5972
神司權萬物	-12.5972
竹本命	-12.5972
糜欽酒	-12.5972
罷苑馬	-12.5972
落雁木	-12.5972
蔓延木上四	-12.5972
蘭射干生	-12.5972
蜻蝏	-12.5972
補肺丸	-12.5972
販夫販	-12.5972
買春困	-12.5972
賜花作樂	-12.5972
起潄白餅	-12.5972
陽已生故	-12.5972
雨絳羅	-12.5972
香孩児營	-12.5972
齊暾樹	-12.5972
齊民要術種茄子法	-12.5972
􁀾	-12.5972
􁄂	-12.5972
御定月令輯要	-12.5972
天監七年	-12.5972
杉	-12.5973
廣利王	-12.5973
名山大川	-12.5974
孀	-12.5974
孝武帝紀太元	-12.5975
摛	-12.5975
鑽燧改火	-12.5975
苒苒	-12.5975
蝀	-12.5975
勿食大蒜勿	-12.5975
它	-12.5975
將及人所以及人者	-12.5975
從師受	-12.5975
日日未出前	-12.5975
易有太極	-12.5975
璧五星如	-12.5975
直萬錢	-12.5975
育時物	-12.5975
鄉試八月二十	-12.5975
露星宿	-12.5975
龜人上春釁龜	-12.5975
則怠怠則	-12.5975
増唐㑹要天寳六載正月	-12.5975
増唐書懿宗紀咸通	-12.5975
奏四庫書	-12.5975
建議仗下後	-12.5975
揑	-12.5975
晝則踡伏不	-12.5975
氣不行火氣漸臨水	-12.5975
炫燿	-12.5975
縣故城西	-12.5975
臘五帝校	-12.5975
騰躍甚	-12.5975
鸑	-12.5975
有嗽上氣	-12.5975
便殿對明皇撰詔誥時	-12.5975
原京房占	-12.5975
天地四時之官	-12.5975
愼	-12.5975
易飛候有雲大如車蓋	-12.5975
李白左右令各執牙筆呵之	-12.5975
楊維徳	-12.5975
水旱不調	-12.5975
沬	-12.5975
漸衰稍補腎助肺調和	-12.5975
胃氣無失其時	-12.5975
莫能書字帝勅宫嬪十人侍	-12.5975
虎賁羽林郎	-12.5975
識其神人	-12.5975
送職方	-12.5975
閏無中氣	-12.5975
三冬境	-12.5975
三星在隅	-12.5975
之儀以成一變	-12.5975
佐陽成物	-12.5975
作初初正初	-12.5975
典引引	-12.5975
冬夏致日春秋致月	-12.5975
刻却將	-12.5975
原樂律志	-12.5975
原蔡寛夫詩話	-12.5975
原齊書禮志	-12.5975
去地三丈	-12.5975
史記范睢	-12.5975
周禮春官肆師	-12.5975
増漢書韓延	-12.5975
夏小正隕麋角傳	-12.5975
安帝延光	-12.5975
宫寺焚香	-12.5975
常以立夏氣至	-12.5975
慎勿撓攪	-12.5975
手撥飯水量麴末為著飯上	-12.5975
推雪著區	-12.5975
政典命和	-12.5975
日而應月依隂	-12.5975
時天皇真官下日	-12.5975
晉書禮志武帝泰始	-12.5975
樂髓新經	-12.5975
海多大風	-12.5975
然後瀉飯著甕	-12.5975
燕九節	-12.5975
特進侯	-12.5975
皇天座	-12.5975
眀夜讀	-12.5975
秋鄉射	-12.5975
立甘露亭	-12.5975
竿於屋	-12.5975
籤	-12.5975
結綵為	-12.5975
縣民楊	-12.5975
而附陽盈於朔望消於朏魄	-12.5975
芒角也	-12.5975
薑棚覆	-12.5975
虚於上下弦息於輝	-12.5975
行九十餘萬里	-12.5975
課墾殖	-12.5975
農器圖	-12.5975
通乎晝夜之	-12.5975
遂取而書詔	-12.5975
鎮彭門	-12.5975
閡	-12.5975
雁也雁之	-12.5975
靈芝釣臺	-12.5975
十月末地	-12.5975
地鏡圖	-12.5975
擡	-12.5975
故不盡其辭也	-12.5975
時徧照天下	-12.5975
詩三首賜	-12.5975
里堂高	-12.5975
漪	-12.5975
極復動	-12.5975
刻八分夜漏四十	-12.5975
𡨕	-12.5976
月令廣義	-12.5976
本經訓	-12.5976
馮應京戴任	-12.5976
生兩儀兩儀生	-12.5976
徭	-12.5977
左春坊	-12.5977
煌	-12.5978
四時之孟月	-12.5978
増宋史禮志雍熙	-12.5978
跛	-12.5978
於櫃中	-12.5978
磨喝樂	-12.5978
詩幷序	-12.5978
刻魚形	-12.5978
嘴	-12.5978
昭帝紀始元	-12.5978
一葉報秋	-12.5978
代帝王美	-12.5978
作大匠為大匠卿三卿是為秋卿	-12.5978
像一軀	-12.5978
和劑局	-12.5978
婦人難産	-12.5978
季秋獻功裘	-12.5978
往岐亭	-12.5978
抬遺記	-12.5978
日至而畢注	-12.5978
時和年豐	-12.5978
朱子語𩔖	-12.5978
為百草之英	-12.5978
眀皇紀開元	-12.5978
糝	-12.5978
邵康莭	-12.5978
鳶	-12.5978
令仲春飬㓜小存諸孤季春賜貧窮賑乏	-12.5978
公曰方春生	-12.5978
困孤弱	-12.5978
増玉海皇祐二年十月以大饗慶成	-12.5978
宜助萌陽以育時物	-12.5978
後漢書郎顗傳	-12.5978
早夏催	-12.5978
春駐宫鶯	-12.5978
曲水湔裙	-12.5978
東京夢華錄中元莭	-12.5978
氐房心	-12.5978
絶省婦	-12.5978
貞女所以順陽氣崇生長也其賜民尤貧	-12.5978
初鳴咸	-12.5978
在析木	-12.5978
增玉海乾道	-12.5978
學生補國子學	-12.5978
祜	-12.5978
種於黄泉孳萌萬物	-12.5978
習射帝中的者	-12.5978
迂	-12.5978
邏	-12.5978
鄠	-12.5978
不與他判㫁	-12.5978
乎左右相目將	-12.5978
史記貨殖	-12.5978
名春光好神思自得及顧	-12.5978
和熹鄧	-12.5978
戱	-12.5978
指而笑	-12.5978
旋命之臨軒縱撃一曲	-12.5978
有閏之嵗	-12.5978
狄梁公祠	-12.5978
皆已𤼵坼	-12.5978
紫極宫	-12.5978
罐	-12.5978
羯鼔三	-12.5978
而嘆曰對此景物豈	-12.5978
酒獨髙力士遣取羯	-12.5978
雷收聲	-12.5978
䇿試諸生	-12.5978
七均之法	-12.5978
三月初葉大如	-12.5978
不雨命為	-12.5978
之日涖卜來歳之	-12.5978
之黍桑	-12.5978
九天使者降	-12.5978
也位於午在五月	-12.5978
也賔導也言陽始導隂氣	-12.5978
以八月八日沸星出時	-12.5978
以黍椹子各三升合種	-12.5978
伏閉盡日	-12.5978
佛甲草	-12.5978
使民知時	-12.5978
其主也又	-12.5978
内椒井中	-12.5978
制十二律以	-12.5978
刺史行事祠下	-12.5978
北人打圍	-12.5978
十一月十五日中宗誕辰	-12.5978
卜者問後歳	-12.5978
原後漢書律歴志日行北陸謂之冬	-12.5978
原晋書束晳	-12.5978
原漢武故事	-12.5978
吕公茭	-12.5978
周子南君	-12.5978
呼延氏	-12.5978
命司服	-12.5978
四經解	-12.5978
地數三十	-12.5978
増五雜組	-12.5978
増尸子神農	-12.5978
増湖湘故事	-12.5978
増玉海淳化五年十一月十七日	-12.5978
増開寳本草	-12.5978
大閱簡軍	-12.5978
天目筍	-12.5978
對選德殿	-12.5978
屐	-12.5978
山慈姑	-12.5978
山篦子	-12.5978
崇德殿	-12.5978
嵗星跳辰	-12.5978
嵗造弓弩箭	-12.5978
年髙致仕	-12.5978
建午之月	-12.5978
得金座像	-12.5978
御製蘇軾集	-12.5978
復練塘	-12.5978
息百長	-12.5978
慣	-12.5978
指星麥	-12.5978
採臼子	-12.5978
撲臕	-12.5978
政和六年閏正月	-12.5978
政成化	-12.5978
故陽氣避之下	-12.5978
敻	-12.5978
斯鳴矣	-12.5978
書日中星鳥	-12.5978
曹公器物	-12.5978
月以衞士帳上	-12.5978
月生者雖	-12.5978
月盡無雨	-12.5978
月盡而隂陽俱	-12.5978
有細齒	-12.5978
朝開暮落	-12.5978
極時致之也	-12.5978
檄	-12.5978
湼槃兜	-12.5978
滍	-12.5978
漏汋泉	-12.5978
濠	-12.5978
灘哥石	-12.5978
為䲭梟所搏	-12.5978
猛火油	-12.5978
獲鹿薦廟	-12.5978
王拜受之	-12.5978
琖	-12.5978
當大而反小	-12.5978
百枝燈樹	-12.5978
神光照殿	-12.5978
禳毒氣	-12.5978
種苴麻	-12.5978
穆陀樹葉	-12.5978
綽哈雅布	-12.5978
縣象著明	-12.5978
縮砂蔤	-12.5978
羣隂化	-12.5978
臘日龍沙㑹	-12.5978
芥心草	-12.5978
花萼不茂	-12.5978
蠶子變色	-12.5978
觀瑞物	-12.5978
觀築圜丘	-12.5978
設㑹作樂	-12.5978
誑	-12.5978
説林立夏日	-12.5978
謂十有二風	-12.5978
講乾卦	-12.5978
貢使衣馬	-12.5978
賜壽縷	-12.5978
贊陽秀物	-12.5978
足霜乃	-12.5978
輿人誦	-12.5978
迎風不冷	-12.5978
遡	-12.5978
都試騎士	-12.5978
重湯煮	-12.5978
金史章宗紀	-12.5978
銅渾更始	-12.5978
鏃等凡	-12.5978
開五節堰	-12.5978
雞舌香	-12.5978
駐色酒	-12.5978
鮨	-12.5978
齊民要術種冬葵法	-12.5978
龍又為火龍	-12.5978
𬎼	-12.5978
夢溪筆談	-12.5978
易繫辭	-12.5979
浴於川	-12.5979
冬獵為狩	-12.5979
淅	-12.598
枵	-12.598
􁆩	-12.5981
眇	-12.5981
增史記五帝紀	-12.5981
增紀歴撮要	-12.5981
綘囊盛	-12.5981
冬至陽始起	-12.5981
卷八夏令	-12.5981
增拾遺記岱輿山有	-12.5981
至微陽始動故土	-12.5981
一枚煎餅補天穿	-12.5981
乎風穴是	-12.5981
以寳函	-12.5981
嗔	-12.5981
天穿日以	-12.5981
深邃莫	-12.5981
石林燕語	-12.5981
神州地祗	-12.5981
置屋上謂之補天	-12.5981
要覽列子御風常以立	-12.5981
防禦使	-12.5981
風至草木皆生去則揺落謂之離合	-12.5981
㬰	-12.5981
二分者隂陽	-12.5981
人三斛貞婦有節義十斛甄表門閭旌	-12.5981
四十六日内出	-12.5981
増吹劍	-12.5981
増後漢書光武帝紀建武	-12.5981
奉柏梁	-12.5981
捐	-12.5981
望庚晴	-12.5981
王莽時	-12.5981
甲子夜半朔旦冬至	-12.5981
謝承舉	-12.5981
踣	-12.5981
之補腎	-12.5981
亾	-12.5981
來石首	-12.5981
守宫槐	-12.5981
届	-12.5981
弧棘矢	-12.5981
掌知漏刻	-12.5981
春鳴立夏止	-12.5981
有子曰黎為祝融	-12.5981
為上時中戊	-12.5981
至今猶然	-12.5981
遁甲書	-12.5981
青鳥鶬	-12.5981
事烝而獻功	-12.5981
付外施行	-12.5981
則蛟龍	-12.5981
名畫錄	-12.5981
坐板牀隨	-12.5981
増南史陳宣帝紀太建七年	-12.5981
増舊唐書中宗紀景龍四年	-12.5981
巨鼇出海	-12.5981
朝暮夜有	-12.5981
杏將吐	-12.5981
百官公卿表	-12.5981
相贈遺	-12.5981
舉赤旗則騎進	-12.5981
一線之功	-12.5981
三年十二月十四日幸	-12.5981
之分以日夜註	-12.5981
佐以苦辛以	-12.5981
光潤方莖紫節七	-12.5981
六年三月行	-12.5981
冬者歳之	-12.5981
刻頃侍中	-12.5981
動綿幕甕口三七日熟美釅少澱	-12.5981
南天氣至	-12.5981
却姦取	-12.5981
原幽怪	-12.5981
參議臣	-12.5981
取其刺可	-12.5981
問不熱之道	-12.5981
増周易集觧坤六	-12.5981
増周禮春官男巫	-12.5981
増玉海大觀元年	-12.5981
増論衡正月陽	-12.5981
増香譜	-12.5981
増齊民要術蘘荷宜在樹隂下	-12.5981
士試論議	-12.5981
壯者舞之	-12.5981
夜弗見	-12.5981
天基節	-12.5981
太平瑞聖花	-12.5981
奏新厯	-12.5981
宴蘂珠宫	-12.5981
寫新厯	-12.5981
尊儒貴學	-12.5981
平因以利鎌摩地刈之曝令燥後	-12.5981
庭鵲噪	-12.5981
日中為市	-12.5981
日初出時被	-12.5981
易先甲三日後甲三日	-12.5981
晝則日見之	-12.5981
曰善哉	-12.5981
曰此一事不喚我作天公可乎	-12.5981
更其肆	-12.5981
有暈主	-12.5981
有風調放火	-12.5981
歴宋用	-12.5981
歴正元歴	-12.5981
玉華池	-12.5981
生正與黍髙	-12.5981
當俱生鋤之桑令稀	-12.5981
白傘盖佛事	-12.5981
白日升天	-12.5981
盡故曰有四十六日而立	-12.5981
碧霞元君	-12.5981
祠奠拜	-12.5981
祭五帝於	-12.5981
箋心星在	-12.5981
維摩一契	-12.5981
縣壺以為漏以	-12.5981
縣次給	-12.5981
聖功頌	-12.5981
胞	-12.5981
臘曰嘉	-12.5981
苬	-12.5981
萌而赤	-12.5981
薊	-12.5981
衛輝府	-12.5981
設湯茗	-12.5981
講仁王經	-12.5981
謝自然披	-12.5981
豐年多慶	-12.5981
跂	-12.5981
輕身益氣	-12.5981
辟暑犀	-12.5981
迎佛水	-12.5981
避毒徙縣	-12.5981
酴醿酒	-12.5981
開淡紅花	-12.5981
閲武便	-12.5981
隔轍雨	-12.5981
集福世界	-12.5981
風俗通臘者	-12.5981
麴一斗殺米	-12.5981
黄雲扶日	-12.5981
促織志	-12.5981
即酬千萬	-12.5981
原周禮夏官大司馬遂以	-12.5981
原眞臘風土記真臘	-12.5981
堂中設迎涼	-12.5981
増海槎餘録	-12.5981
尺餘著	-12.5981
曰此是氷蠶絲所織	-12.5981
礱	-12.5981
詔曰農天下之	-12.5981
跼	-12.5981
風毒脚氣	-12.5981
髙二十餘丈	-12.5981
晉書樂志	-12.5981
大戴禮夏小正	-12.5982
别起義例	-12.5983
氣始盡也	-12.5983
至未位遯卦而後温厚之	-12.5983
雖生而未害於陽必	-12.5983
愕	-12.5983
増遼史聖宗紀統和	-12.5984
悠	-12.5984
八月上旬采	-12.5984
大将軍将軍之職	-12.5984
年冬十月行幸	-12.5984
御製途次	-12.5984
馬重績	-12.5984
主歲稔	-12.5984
人院試	-12.5984
夕夕月	-12.5984
天子始裘	-12.5984
氣推而上故大寒	-12.5984
貴邸宰臣巨	-12.5984
十月農功畢	-12.5984
增益州記	-12.5984
官九品以上	-12.5984
幼孤貧	-12.5984
掌門關	-12.5984
服青幘	-12.5984
耆舊相傳	-12.5984
莫知其極	-12.5984
退貪殘進柔良	-12.5984
非殊死	-12.5984
以衛尉為衛尉卿	-12.5984
君皮弁素積	-12.5984
增玉海祥符二年	-12.5984
墩	-12.5984
晏子景公	-12.5984
晝長而夜短	-12.5984
武王伐殷	-12.5984
歴代名畫記	-12.5984
歸化城	-12.5984
餧	-12.5984
閏月不告月	-12.5984
二月花色仍連著實	-12.5984
令種剛	-12.5984
冬祭曰烝	-12.5984
初六隂氣受任於太陽	-12.5984
小滿者言物	-12.5984
弔	-12.5984
於此小得	-12.5984
日出早雨	-12.5984
當有大水	-12.5984
相連累	-12.5984
行柔恵	-12.5984
雷始收聲	-12.5984
三條燭	-12.5984
之義以行之令事物各得	-12.5984
以梅葉湯洗之	-12.5984
准南子	-12.5984
周禮春官大胥	-12.5984
増玉海政和六年七月	-12.5984
増陸㳺嵗首書事詩	-12.5984
始於子在十一月	-12.5984
宿雨初晴景色明	-12.5984
寅人奉而成之仁以	-12.5984
扳	-12.5984
於甆器	-12.5984
朕親率	-12.5984
樹隂諷	-12.5984
淵凡十六所為九州七舍	-12.5984
漏也漏之箭晝夜共百	-12.5984
為之鋭減	-12.5984
蓑	-12.5984
一候餘九	-12.5984
一嵗初祭	-12.5984
一自以為水	-12.5984
三建之氣	-12.5984
三暑同事	-12.5984
上南郊賦	-12.5984
不時小兵時起土地侵削	-12.5984
乃子位之正天中之一陽也	-12.5984
之四府者	-12.5984
之數全是	-12.5984
之月為諸月之本	-12.5984
二月生苖其葉對	-12.5984
五色神芝	-12.5984
交㤗殿成	-12.5984
交通萬物	-12.5984
以半千獲	-12.5984
以微著為	-12.5984
修蒲津	-12.5984
元堂右个	-12.5984
冠冕朝服	-12.5984
出小弱夜半出中弱	-12.5984
則蚌蛤	-12.5984
十五日則閏	-12.5984
千七百二十八年	-12.5984
原史記秦紀	-12.5984
原吴下田家志	-12.5984
原神異經東	-12.5984
原菊譜	-12.5984
取水三斗三升	-12.5984
含玉魚	-12.5984
周祫以	-12.5984
命國醵	-12.5984
命將帥講武習射御角力	-12.5984
啓福齋	-12.5984
嘂	-12.5984
嘑旦以	-12.5984
四方伎藝舉集都人士女載酒争出擇	-12.5984
國先賢	-12.5984
圮	-12.5984
地氣上泄民多流	-12.5984
増漢書文帝紀二年九月	-12.5984
増聞見前錄洛中	-12.5984
大朝會儀	-12.5984
大難旁磔	-12.5984
始交後五日荔挺出	-12.5984
子由與先生	-12.5984
孔子厄於陳	-12.5984
寒筵氷	-12.5984
寳文閣	-12.5984
岀	-12.5984
度則日為退	-12.5984
張昌宗	-12.5984
彩虹入	-12.5984
得六十分	-12.5984
恥	-12.5984
惟東亭	-12.5984
慎火花	-12.5984
慶夀禮	-12.5984
應未申時	-12.5984
成天地之道輔相天地之宜以	-12.5984
招揺指午	-12.5984
授時歴	-12.5984
教養宗子	-12.5984
方老人舞之	-12.5984
日次子位當虚宿之躔度	-12.5984
春令則凍閉不	-12.5984
春草碧色詩	-12.5984
暑毋褰裳	-12.5984
月令問答	-12.5984
杉雖若乾枯	-12.5984
東京夢華録是	-12.5984
松風石	-12.5984
桂厚大無脊	-12.5984
梅杏柂桃	-12.5984
樓兒井	-12.5984
歩術生	-12.5984
池臺間引滿歌呼不復問其主人抵暮	-12.5984
減放洛水	-12.5984
漢案户	-12.5984
澤蘭生水澤中及下濕地	-12.5984
炊米六斗	-12.5984
烟火爆杖	-12.5984
燕口洞	-12.5984
牟呼栗多	-12.5984
獻良裘	-12.5984
玉華宫銘	-12.5984
王乃行羽物	-12.5984
王庭筠元宵	-12.5984
留客雨	-12.5984
疽	-12.5984
益腎氣	-12.5984
硝	-12.5984
祝畢便	-12.5984
祭馬社	-12.5984
禾生九穂圖	-12.5984
立六宗祠	-12.5984
粥謂之臘八粥	-12.5984
而中空其氣芬芳	-12.5984
而好學如日	-12.5984
脯法臘月初作	-12.5984
興作福地	-12.5984
花市以筠籠	-12.5984
芾	-12.5984
著祫嘗	-12.5984
西池春逰	-12.5984
詩曰風暄翠幕春沽酒	-12.5984
詩覺而記	-12.5984
調適黍熟穫之桑	-12.5984
議臣趙	-12.5984
貞元十八年九月癸亥	-12.5984
賜御書中庸	-12.5984
送師歸	-12.5984
還相為本	-12.5984
邠	-12.5984
閲兵車	-12.5984
隂乾十兩為末	-12.5984
雙仁者	-12.5984
雙鯉躍出	-12.5984
雲氣成宫闕	-12.5984
霖雨灌荼	-12.5984
露濕筠籠夜賣花	-12.5984
青白路	-12.5984
順陽布徳	-12.5984
顯慶元年十	-12.5984
飛勞君	-12.5984
高里祠后土	-12.5984
魏夫人降	-12.5984
鷹祭鳥	-12.5984
黍米三斗三升	-12.5984
臊	-12.5984
老枝擎重	-12.5986
斗指已為小滿	-12.5986
法甚詳	-12.5986
二十四時刻令	-12.5986
多暴風方冬	-12.5986
時主酒食	-12.5986
通政使司	-12.5986
涓	-12.5987
淮南子冬至陰氣極則	-12.5987
色變青	-12.5987
吠	-12.5987
土覆之肥茂早熟	-12.5987
許渾詩	-12.5987
髙五丈	-12.5987
十一月一日幸曲阜	-12.5987
増唐書百官志司門郎中員外郎	-12.5987
春見曰朝	-12.5987
櫓	-12.5987
汾隂脽上	-12.5987
生零陵山谷及	-12.5987
皮似桂	-12.5987
俊風滌凍	-12.5987
勿案驗	-12.5987
周禮地官州長	-12.5987
時主有酒食	-12.5987
良吏𫝊	-12.5987
隂乾圖經本草	-12.5987
骨利幹	-12.5987
京諸市署	-12.5987
修神祀	-12.5987
先後各五日	-12.5987
化柔萬物生長楙之於未	-12.5987
原漢書魏相傳	-12.5987
周禮天官小宰	-12.5987
増宋史禮志寧宗	-12.5987
天彭牡丹	-12.5987
張伯子	-12.5987
漣	-12.5987
者隂氣畢下故萬物	-12.5987
豭	-12.5987
資政殿	-12.5987
鴝	-12.5987
三致千	-12.5987
也以火守壺者夜則火視刻	-12.5987
乾知大始	-12.5987
助黄鍾宣氣而牙物也位於丑在十二	-12.5987
原金門歳節	-12.5987
夏行秋令則苦雨數來五穀不滋四鄙入	-12.5987
天柱五星在	-12.5987
子丑寅卯	-12.5987
數也分以日夜者異晝夜	-12.5987
旗則歩進	-12.5987
時萬物向成	-12.5987
水守壺者為沃漏	-12.5987
漢書文帝紀元年三月詔曰	-12.5987
澣垢	-12.5987
火光獸	-12.5987
為上時二月為中時三月為下時	-12.5987
胡汝嘉	-12.5987
説在宫内時	-12.5987
遯齋閒	-12.5987
鍾者種也	-12.5987
開黄白花	-12.5987
鮑姑艾	-12.5987
黄鍾黄者中之色	-12.5987
𫝊寫訛謬	-12.5987
㬥	-12.5987
不分晝夜者	-12.5987
之興五日翕	-12.5987
二十二日魚扵温	-12.5987
五日水澤腹堅	-12.5987
五日雉始雊	-12.5987
五日鷙鳥厲疾	-12.5987
亢八度	-12.5987
以雪水浸	-12.5987
伐竹木	-12.5987
佛頂菊	-12.5987
兜兜鳥	-12.5987
出大弱是	-12.5987
博陵崔	-12.5987
原神樞	-12.5987
原禮農乃登	-12.5987
原糚樓記	-12.5987
原開天遺事寧王	-12.5987
合醅飲	-12.5987
名弄玉	-12.5987
周禮天官宫伯	-12.5987
哈	-12.5987
嘗遇二月初詰旦巾櫛方畢時	-12.5987
國俗屠白	-12.5987
土旺四季	-12.5987
地上見龍在田天下文	-12.5987
均利器用	-12.5987
増後漢書禮儀志明帝永平二年三月	-12.5987
増昜緯	-12.5987
増玉海元豊元年十一月十	-12.5987
増荆溪疏	-12.5987
增元史英宗紀至治二年五月閏月	-12.5987
增書帝曰	-12.5987
夏歴漏刻	-12.5987
夢溪筆談六壬天十二辰	-12.5987
大晟府	-12.5987
宓戲氏	-12.5987
師壇祀以立	-12.5987
平權衡	-12.5987
彖	-12.5987
後漢書魯恭𫝊	-12.5987
得聖語	-12.5987
恚	-12.5987
戯其君乎	-12.5987
扞	-12.5987
招揺指申	-12.5987
撮其精要以𩔖分之	-12.5987
旅也言隂大旅	-12.5987
日則移於	-12.5987
明故曰登明	-12.5987
星見在天漢	-12.5987
時物成者衆	-12.5987
月收蕪菁	-12.5987
末三斗三升	-12.5987
枳柜	-12.5987
桑至春生一	-12.5987
楊公泉	-12.5987
正月乾之九三萬物棣通族	-12.5987
毎年一易	-12.5987
每時八刻二十分	-12.5987
洗兒會	-12.5987
炳燭之	-12.5987
獻總仙	-12.5987
王勃春思賦	-12.5987
甜肥脯	-12.5987
祀司民	-12.5987
祠先蠶	-12.5987
立石九經	-12.5987
竝蔕𤓰桃	-12.5987
笏頭金帶	-12.5987
綝	-12.5987
者秋皆賤逆此者貴	-12.5987
肆獻祼	-12.5987
荷花蕩	-12.5987
蓋屋瓦	-12.5987
蚺蛇膽	-12.5987
褭	-12.5987
觀祭山壇	-12.5987
談苑江南民	-12.5987
謹守泉布	-12.5987
警設守備	-12.5987
議禮局	-12.5987
賀琛𫝊	-12.5987
賜百福酒	-12.5987
路神通	-12.5987
造淡豉	-12.5987
避蟲毒	-12.5987
還精絳宫	-12.5987
錢龍宴	-12.5987
鑄開元通寳	-12.5987
風琶蠻	-12.5987
鸜鵒食蝗	-12.5987
黄帝問師曠曰吾欲	-12.5987
三月牡丹開於花盛處作	-12.5987
不寒蟄蟲復出	-12.5987
之日而識其	-12.5987
二月采根隂乾	-12.5987
仲冬之月日在斗	-12.5987
僎	-12.5987
周而復始日日無窮	-12.5987
味甘無毒主	-12.5987
四方来集	-12.5987
園亭勝地上下	-12.5987
増宋史禮志元祐二年	-12.5987
増張彚	-12.5987
増後漢書靈帝紀	-12.5987
増燕翼貽謀錄	-12.5987
増玉海景德四年十一月	-12.5987
庀	-12.5987
彘水畜	-12.5987
清音又	-12.5987
炳於丙大	-12.5987
瑣碎録	-12.5987
豆八十者五豆九十者	-12.5987
豐楙於戊理紀於已	-12.5987
趣民收斂	-12.5987
逹旦不寐	-12.5987
龍圖天章閣觀三聖御書	-12.5987
其明故形圓也	-12.5988
圓其質清日光照之則見其	-12.5988
故月望之日日月相望人居其間盡覩	-12.5988
則謂之魄	-12.5988
販	-12.5989
益部方物畧記	-12.5989
六月之辰謂之未未者味也	-12.5989
増舊唐書徳宗紀	-12.5989
秋分夕月	-12.599
年三百六十五	-12.599
炫	-12.599
增嘉定縣志	-12.599
露已團式詔司	-12.599
増金史選舉志	-12.599
燕避戊巳	-12.599
罘	-12.599
将作大匠	-12.599
男左女右	-12.599
白招拒	-12.599
皆銘其國名如貢使	-12.599
西蕃諸國通唐使處悉置銅魚	-12.599
重陽無雨一冬	-12.599
乃昌四方乃服此謂嵗徳	-12.599
之問何所	-12.599
儀同三司	-12.599
原廣博物志	-12.599
増髙僧𫝊	-12.599
增玉海淳熙十二年	-12.599
寒乃極國家	-12.599
寒暑失常	-12.599
恤㓜孤	-12.599
持鍼線	-12.599
春嬴育夏	-12.599
晉書慕容皝	-12.599
木曲直	-12.599
登之罘浮大海	-12.599
秋後辰日祀靈星	-12.599
長秋聚收冬閉藏大	-12.599
頑	-12.599
龍圗閣	-12.599
原素問	-12.599
増戴叔倫	-12.599
増黄帝宅經	-12.599
増齊民要術永嘉記曰	-12.599
小滿四月中	-12.599
年三月丙申	-12.599
御藥院	-12.599
月亦得作	-12.599
繅	-12.599
鵒	-12.599
内園官	-12.599
内科一道	-12.599
原師曠占	-12.599
取沉者速曝乾裹置至二月畦種	-12.599
増法苑珠林佛言正月	-12.599
摇	-12.599
枯栢再生	-12.599
水呪之	-12.599
燕昭王	-12.599
狩圍守也	-12.599
纈	-12.599
虞於是乎禁	-12.599
冤	-12.599
則草木蚤枯後乃	-12.599
十月小春梅蘂綻	-12.599
原影燈記	-12.599
原禮蠶事	-12.599
又曰四月陽雖用事而陽	-12.599
在酉大梁之	-12.599
増齊民要術師曠占五穀貴賤法常以	-12.599
大水敗其城郭	-12.599
如灰汁有異他水	-12.599
巍巍	-12.599
日三服百日	-12.599
有肉翅	-12.599
木也為仁其聲商也為義故太蔟為人統	-12.599
格秀草不實	-12.599
梁棟䆫	-12.599
正月二十一日帝	-12.599
江淮以南地氣	-12.599
沾衣便腐	-12.599
窨	-12.599
節讀書夏	-12.599
老還童	-12.599
自注鄉俗	-12.599
莊公二十	-12.599
薆	-12.599
蟲為災暴風	-12.599
醎㵼之	-12.599
頊	-12.599
騖	-12.599
三百六十五度四分度之	-12.599
上熏天	-12.599
主米暴貴	-12.599
之半天心無改移	-12.599
之氣乗之也又行秋令則	-12.599
乙丙丁戊	-12.599
九九八十一	-12.599
九月甘露頻降	-12.599
二月望日鬻蠶器	-12.599
二月開細花紫	-12.599
五京進紙造	-12.599
交萬物通	-12.599
使極冷	-12.599
元都大獻	-12.599
八角玉升	-12.599
刻二分立	-12.599
勸蠶事	-12.599
原草花譜	-12.599
可知否對曰歲欲	-12.599
吻	-12.599
坎壇祭	-12.599
増宋書孝武帝紀大明	-12.599
増容齋三筆	-12.599
增晋書	-12.599
夏山蒼翠而	-12.599
天喜時相合人和事不違禮中推	-12.599
州置常平倉粟	-12.599
帝籍之收	-12.599
度中月令	-12.599
延英議政	-12.599
意厚樂處感心㣲别	-12.599
撆	-12.599
斡	-12.599
斧斤以時入	-12.599
春秋宣公十	-12.599
昵	-12.599
晝漏六十三刻	-12.599
晝漏六十二刻	-12.599
月復全乎	-12.599
月言朔日言朝何	-12.599
本則茂而根大	-12.599
桑再椹	-12.599
正月分蒔宜	-12.599
注酉之氣乗之也	-12.599
涼風自至	-12.599
添踦贏二	-12.599
灌其𤓰	-12.599
為一科而	-12.599
燈畢都人争先出城	-12.599
瓶笙詩	-12.599
當至不至則	-12.599
登八公山	-12.599
白色根如小蒜一本	-12.599
相連愛	-12.599
祀其先祖	-12.599
禮志魏文帝黄初	-12.599
粽	-12.599
紓	-12.599
終於辰故	-12.599
考第羣臣	-12.599
者隂之精	-12.599
聮	-12.599
肥壤數枝一	-12.599
花七月結實	-12.599
苑丁未輿駕幸	-12.599
苑採甘露宴羣臣	-12.599
苦樂善	-12.599
苦艱蜀人	-12.599
藏九年米藏五年下濕之地	-12.599
藏五年米藏	-12.599
蜀人衣食常	-12.599
衆狙皆	-12.599
行仁政	-12.599
見還淹	-12.599
詔於洛相幽徐齊并秦	-12.599
詔於苑龍	-12.599
試身言書判	-12.599
賞陽臺樂前	-12.599
造牓天	-12.599
陳后山	-12.599
顆相依而生	-12.599
食一年辛苦一	-12.599
䕶霜雲	-12.599
䳺	-12.599
一九二九	-12.599
七九六十	-12.599
三日幸安樂	-12.599
三考黜陟	-12.599
三豆七十者四	-12.599
上慶歴聖	-12.599
主夜神呪	-12.599
事後母至孝	-12.599
二十五日老子度	-12.599
于虞淵	-12.599
五日九百四十	-12.599
以㫖甘	-12.599
伊耆氏	-12.599
伏獵侍郎	-12.599
停之酘畢	-12.599
僊籙	-12.599
元堂太廟	-12.599
六九五十四	-12.599
六十甲為	-12.599
冠帶有常	-12.599
勿伐樹木	-12.599
包藏萬物	-12.599
十一月癸卯詔	-12.599
十月為歳首	-12.599
千重襪	-12.599
卜筮日	-12.599
又其次為	-12.599
取蟾酥	-12.599
受命寳玉簡	-12.599
司正適	-12.599
司風令史	-12.599
名醫別録	-12.599
含元殿受冊	-12.599
周伏興	-12.599
嗔拳笑面	-12.599
四九三十六	-12.599
四十五頭	-12.599
固地蔵	-12.599
増朝野僉載	-12.599
増漢書武帝紀元狩六年六月詔	-12.599
増管子以夏日至始數	-12.599
增玉海祥符八年閏六月	-12.599
夕月於西郊	-12.599
夜不安枕	-12.599
天功大成	-12.599
太史所候皆云	-12.599
奏别鵠	-12.599
女子百户牛酒鰥寡孤獨髙	-12.599
妙覺集	-12.599
嫁娶周堂	-12.599
安身靜	-12.599
宋書符瑞志孝武帝	-12.599
宗入林	-12.599
定光佛生	-12.599
宜食韭	-12.599
寅之氣乘之也又行夏令則國	-12.599
寒暑有莭	-12.599
封諸葛	-12.599
巙	-12.599
帝祠去城	-12.599
常侍登	-12.599
建生大會齋	-12.599
建石經閣	-12.599
張耳陳餘	-12.599
徵𤓰事	-12.599
愈瘧酒	-12.599
撰朝㑹二舞儀	-12.599
故因秦	-12.599
日三尸遊两	-12.599
日抱珥	-12.599
日短星昴	-12.599
春脉如弦	-12.599
春風膏硯	-12.599
曰昧谷	-12.599
書大成殿牓	-12.599
术羮艾酒	-12.599
樗根餛飩	-12.599
櫾	-12.599
治平元年閏五月	-12.599
浣冬衣	-12.599
炬送歸	-12.599
為寒為冰	-12.599
為雚葦	-12.599
獻河清頌	-12.599
理道要	-12.599
用辰不用日	-12.599
申嚴百刑	-12.599
白虎議奏	-12.599
看花局	-12.599
神鼎出	-12.599
祥曦殿記注	-12.599
禁舉大火	-12.599
禴	-12.599
秔米酒	-12.599
秫黍米酒	-12.599
種葫蘿蔔	-12.599
端聖花	-12.599
給錢收	-12.599
緑荷包子	-12.599
繋牛牧馬	-12.599
翣	-12.599
者以中牢	-12.599
舉武猛	-12.599
莖九穗	-12.599
著緋乗	-12.599
蜡祭百神	-12.599
衡者所以平萬	-12.599
衣服有量	-12.599
袒免親	-12.599
製損齋記	-12.599
觶	-12.599
象膽随四時	-12.599
賢劫千佛	-12.599
足常預	-12.599
跪取觶	-12.599
跪奠觶	-12.599
辟官事	-12.599
辰弗集	-12.599
通政臣	-12.599
遣子入侍	-12.599
釀冬酒	-12.599
門兩扇	-12.599
面向殺地	-12.599
麥秀兩岐	-12.599
二弦之日日照其側人觀其傍故	-12.5991
半明半魄也晦朔之	-12.5991
日光所不照	-12.5991
都指揮	-12.5991
饁	-12.5992
月丙寅朔上	-12.5992
西京雜記曰	-12.5992
卷二十二晝夜令上	-12.5992
四分度之一日	-12.5992
中旦軫中	-12.5992
昏婁中旦氐中	-12.5992
翃	-12.5992
建焉而辰	-12.5992
放火燒之	-12.5993
原夏小正初昏	-12.5993
阡	-12.5993
葶藶	-12.5993
原霏雪録	-12.5993
増神異經東南海中有烜洲洲有	-12.5993
漢書髙帝紀髙帝	-12.5993
自西而東	-12.5993
増舊唐書憲宗紀	-12.5993
窕	-12.5993
葶	-12.5993
醫别錄	-12.5993
天監四年	-12.5993
岨	-12.5993
於明堂之中	-12.5993
覺身在	-12.5993
設黄麾	-12.5993
上帝於明堂	-12.5994
作器物也	-12.5994
則推案	-12.5994
十二土王令	-12.5994
合乃依常禮待之差	-12.5994
増魏書太宗紀	-12.5994
毎歳五月頒格	-12.5994
莎草長	-12.5994
釋道安	-12.5994
之舞隋書禮儀志	-12.5994
五雜爼	-12.5994
原晋書禮志	-12.5994
増玉海淳化四年正月	-12.5994
晝寝夢	-12.5994
火墓日也	-12.5994
瞿曇	-12.5994
車旗服飾皆	-12.5994
鈸	-12.5994
􁋜	-12.5994
三月丙戌朔	-12.5994
唐書食貨志開元二十	-12.5994
増雲笈七籖三元品戒	-12.5994
失武丁	-12.5994
徨	-12.5994
曰幽都	-12.5994
有司請令縣	-12.5994
腕	-12.5994
菡	-12.5994
蝉	-12.5994
隂陽交會	-12.5994
鵷	-12.5994
五禾大熟	-12.5994
以二月二日為踏青節	-12.5994
以共郊廟	-12.5994
十餘令執小青竹晝夜更撃其甕不得少	-12.5994
可求蛇醫四頭	-12.5994
味甘温無毒	-12.5994
増玉海皇祐三年七月	-12.5994
増續文獻通考苖人	-12.5994
增東京夢華録	-12.5994
於時為冬冬終也物終	-12.5994
李咸用	-12.5994
璜	-12.5994
石甕二枚每甕實	-12.5994
舊説龍與蛇	-12.5994
處甕前後設席燒香選小	-12.5994
言試之一日兩夜雨大注	-12.5994
趙子昂	-12.5994
輟王如	-12.5994
避熱時	-12.5994
酉陽雜爼王彦威	-12.5994
醉曰欲雨甚	-12.5994
隂者北方北伏也陽氣伏於下	-12.5994
頡	-12.5994
驚而寤	-12.5994
也歲欲惡惡草先生	-12.5994
五萬六千	-12.5994
亢中旦危中	-12.5994
仲夏之月日在東井	-12.5994
侍中版奏請中嚴	-12.5994
候月知雨	-12.5994
入陳於殿庭	-12.5994
再餾黍	-12.5994
午午者長也大也言物皆長	-12.5994
原侯鯖錄	-12.5994
各督其隊	-12.5994
名晦灰也火死為灰月光	-12.5994
増全唐詩話景龍三年	-12.5994
増吳志	-12.5994
増師曠占候月知雨多少	-12.5994
増漢書律歴志出甲於甲奮軋於	-12.5994
天秉陽	-12.5994
季冬之月日在婺女	-12.5994
宋書符瑞志大明五年	-12.5994
寅賔出日	-12.5994
寒氷厚	-12.5994
展孝思	-12.5994
幣以黒	-12.5994
廟曰皇考	-12.5994
建福門外	-12.5994
從未圓時	-12.5994
才藝所為合聲亦等其曲	-12.5994
斁	-12.5994
日掌賞賞為暑	-12.5994
明昌四年	-12.5994
星南方朱鳥之宿	-12.5994
時尚以蠶為市共	-12.5994
晝亡夜存	-12.5994
曰如何是	-12.5994
最深處	-12.5994
杲杲	-12.5994
榦	-12.5994
樂不知還	-12.5994
歲欲苦苦草先生	-12.5994
氣𤼵動	-12.5994
水海浮箭	-12.5994
氾勝書	-12.5994
池鹽生結	-12.5994
消更生故言朔日晝見夜藏	-12.5994
漑	-12.5994
為百姓䝉	-12.5994
熒煌	-12.5994
獠	-12.5994
盡似之也	-12.5994
知亳州	-12.5994
祖辰臘	-12.5994
祭先祖	-12.5994
簡便方女貞實	-12.5994
置百官待漏院	-12.5994
而天運近	-12.5994
聚則温	-12.5994
聞見後録	-12.5994
興寧三年	-12.5994
舊唐書中宗紀	-12.5994
般湼槃	-12.5994
艾葉成	-12.5994
花淡紫色	-12.5994
觀後苑瑞	-12.5994
詩豐年四海皆温飽願把歡心夀玉	-12.5994
誠齋雜記	-12.5994
諸葛亮	-12.5994
賈氏説林	-12.5994
過見之則白日昇仙	-12.5994
閲前代文	-12.5994
附地芟殺	-12.5994
陳土宜	-12.5994
陽氣初動	-12.5994
鬟	-12.5994
䤅	-12.5994
七日更酘用米	-12.5994
七籬頭吹	-12.5994
下則雨前	-12.5994
丑丑者紐也言終始之際	-12.5994
之墜歡	-12.5994
之行春居	-12.5994
之觀東郊跬	-12.5994
也晉書禮志	-12.5994
二日入酉初	-12.5994
亦竒法	-12.5994
以羅帛	-12.5994
以致玉童	-12.5994
作蠶蓐	-12.5994
傳序太宗	-12.5994
六十五刻夜	-12.5994
六舞散朝衣	-12.5994
冬聚夏散	-12.5994
列象拱極	-12.5994
初熟出殻即裹埋著	-12.5994
則省察民之	-12.5994
劒而歌曰長鋏歸来乎	-12.5994
厚朴子	-12.5994
原月山歌	-12.5994
去妖邪	-12.5994
及人之體	-12.5994
司獵官	-12.5994
司空司冬	-12.5994
四章為一蔀	-12.5994
圗畫見聞誌	-12.5994
土中至春三月悉芽生出而種之	-12.5994
増唐會要貞觀十六年	-12.5994
増本草圗經	-12.5994
増齊人月令四月八日	-12.5994
增京房易占立	-12.5994
增玉海景祐二年	-12.5994
夜撮蚤	-12.5994
天池以入於	-12.5994
天牛蟲	-12.5994
太平通濟䇿	-12.5994
宜晩田	-12.5994
宰相待漏	-12.5994
察行陵廟	-12.5994
射上中的者	-12.5994
山在目足以締夏首之新賞補春餘	-12.5994
嵗有四秋	-12.5994
建北太一宮	-12.5994
思惟樹	-12.5994
怱	-12.5994
手裏行厨	-12.5994
投壺梟	-12.5994
披樂善之邸坐忘憂	-12.5994
數將幾終歳且更始	-12.5994
明朝曬得背皮	-12.5994
春江釣叟圗	-12.5994
晝漏六十四刻	-12.5994
暑氣猶清芳草未歇	-12.5994
有埃墨墮	-12.5994
有星孛於	-12.5994
桑落酒	-12.5994
梧子大毎	-12.5994
楊誠齋詩云	-12.5994
此言半天	-12.5994
歸奇于扐以象閏	-12.5994
牛接角	-12.5994
物而得陽	-12.5994
珦	-12.5994
痊	-12.5994
痒	-12.5994
瘞鶴銘	-12.5994
盈車嘉穟	-12.5994
窄	-12.5994
立春前郊	-12.5994
箎	-12.5994
築㑹昌城	-12.5994
篥	-12.5994
羊羔酒	-12.5994
習其祥	-12.5994
而無角虎	-12.5994
自金吾仗亡命因敕晩開	-12.5994
至徳中有吐蕃	-12.5994
與上元夫人	-12.5994
芽向上	-12.5994
茶之佳者造在社前其次火前	-12.5994
草諯大月	-12.5994
莠雚葦	-12.5994
蓁	-12.5994
蜻蛚上堂	-12.5994
蠻江蛇	-12.5994
觀音生辰	-12.5994
論衡盛夏之時當風	-12.5994
豐狐文豹	-12.5994
賞歸九歌揚政要	-12.5994
躬修婦事	-12.5994
載誕之辰	-12.5994
進表影	-12.5994
遇閏嵗	-12.5994
鄭愔詩	-12.5994
里而近山曰	-12.5994
鑄九鼎成	-12.5994
閏節候全	-12.5994
雞侯菜	-12.5994
養生之首	-12.5994
鵞毛玉鳳花	-12.5994
麥爭場	-12.5994
𤾉若曰	-12.5994
􁍩	-12.5994
日日照其表人在其裏故不	-12.5994
増隋書百官志	-12.5994
陡	-12.5995
行御天子出令命	-12.5995
譁	-12.5995
十一月律謂之黄鍾何	-12.5995
潔冷如故雖盛暑赫日終不	-12.5995
順宗即位	-12.5995
以紐結	-12.5995
元化門校獵	-12.5995
瓠不成國有大兵	-12.5995
羆	-12.5996
増四時纂要正月	-12.5997
馮相氏	-12.5997
宋史神宗紀	-12.5997
撩	-12.5997
晉書武帝紀泰	-12.5997
祀昊天上帝於	-12.5997
阯	-12.5997
大雷震	-12.5997
玉海慶歴三年	-12.5997
萬物莩甲	-12.5997
嚶	-12.5997
今孟夏之制可	-12.5997
出均州太和山	-12.5997
氣為賊故王者	-12.5997
泓	-12.5997
獄案考皆以立	-12.5997
緬懷	-12.5997
一魚餘月	-12.5997
乗旗旄尚	-12.5997
位三政曰	-12.5997
其果棗	-12.5997
増北史庾季才	-12.5997
昴星中	-12.5997
治秋則欲修備	-12.5997
用漢臘蓋冬至後第三戌	-12.5997
盡遣吏上計	-12.5997
賞花釣魚以牡丹	-12.5997
邵康節	-12.5997
茇	-12.5997
八月四日出雕房北户竹下	-12.5997
勝者終年	-12.5997
十三州記	-12.5997
増漢書昭帝紀始元元年	-12.5997
増玉海寳元	-12.5997
夏種欲淺	-12.5997
心契九秋幹目	-12.5997
潤無泥	-12.5997
病取絲縷就北辰星求長命乃免	-12.5997
負者終年	-12.5997
鈕	-12.5997
中贅録蜀中風俗	-12.5997
乾搗末	-12.5997
危中旦七星中	-12.5997
叩齒十二通	-12.5997
唐輦下歲時記	-12.5997
増前定錄	-12.5997
増陶潜詩	-12.5997
張乖崖	-12.5997
春食苖夏食	-12.5997
智者謀謀者重故為權	-12.5997
概	-12.5997
民而飲酒	-12.5997
水浮二蛇	-12.5997
沣	-12.5997
為此春酒以介眉壽	-12.5997
相見乎離	-12.5997
羅公逺	-12.5997
虆	-12.5997
謂歳十二月	-12.5997
進退有度	-12.5997
遯齋閑覽	-12.5997
一所曲盡	-12.5997
一百六十八卷	-12.5997
不熟乃多女災	-12.5997
二年命有司議薦新	-12.5997
五穀皆入	-12.5997
傳不告月	-12.5997
元中記南方有炎山焉	-12.5997
勞置火	-12.5997
勸民種	-12.5997
原帝京景物畧五月	-12.5997
増玉海太平興國二年九月	-12.5997
季夏行春令則	-12.5997
密泥之	-12.5997
寒不時鷹隼蚤鷙四鄙入保	-12.5997
實鮮落國多風欬民乃遷	-12.5997
帝常用之	-12.5997
春𤼵春獻春首春首	-12.5997
根盤屈	-12.5997
氣㣲弱	-12.5997
濕地極	-12.5997
篠	-12.5997
蒍	-12.5997
虗	-12.5997
註戌之氣乗之也又行	-12.5997
講讀官	-12.5997
隰水潦禾稼	-12.5997
魏臺訪議	-12.5997
上千萬嵗夀	-12.5997
何㽔者下也賔者敬也言陽氣上極隂氣	-12.5997
兩重布盖甕口	-12.5997
其國有大凝山	-12.5997
其深不測	-12.5997
化為玉童長	-12.5997
千年不釋及齎至京師	-12.5997
原宋史禮志政和三年以	-12.5997
國貢常堅	-12.5997
増名勝志番禺縣	-12.5997
增儀禮士昏禮	-12.5997
增東京夢華錄四月	-12.5997
如匹帛	-12.5997
敗水泉咸竭民多疥癘	-12.5997
數年不敗	-12.5997
暹	-12.5997
服髪白再黒返	-12.5997
死復蘇生也	-12.5997
泅	-12.5997
浮箭而上登	-12.5997
消嚼之	-12.5997
淫於内治以醎	-12.5997
渹	-12.5997
為正周以	-12.5997
玉篆牌	-12.5997
百蟲飲此	-12.5997
草木花多五出雪花獨六	-12.5997
診	-12.5997
賞緋紫	-12.5997
通化門	-12.5997
金盆貯水漬白	-12.5997
雨水淘米炊	-12.5997
雨謂之液雨	-12.5997
鞵	-12.5997
颼颼	-12.5997
餾	-12.5997
鼎神䇿	-12.5997
一人燭不為	-12.5997
一嵗千釀	-12.5997
七徳舞	-12.5997
三十復終於	-12.5997
三日出夘正	-12.5997
上東坡步	-12.5997
上辰出池邉盥濯食蓬餌以	-12.5997
之常處也	-12.5997
之歲始冬至	-12.5997
之邉亭	-12.5997
乘青牛	-12.5997
九宫壇	-12.5997
九等出粟自五石至五斗為差下户不取	-12.5997
也歲欲旱旱草先生	-12.5997
事享於皇	-12.5997
五位缾	-12.5997
今年通閏	-12.5997
从	-12.5997
他辰至此	-12.5997
以學士入學宫而學之合舞等	-12.5997
以有年賜	-12.5997
以銀銅	-12.5997
仲冬行夏令則其國乃旱氛霧	-12.5997
伐則其音	-12.5997
佛桑花	-12.5997
使星向益	-12.5997
修戎講武	-12.5997
六甲日雲	-12.5997
其進退使應	-12.5997
内謂收斂	-12.5997
冬月扇面	-12.5997
出朱雀門	-12.5997
分掌三庫	-12.5997
刻玉簡	-12.5997
勸弱民	-12.5997
十二月之辰謂	-12.5997
千石魚陂	-12.5997
原易復卦疏	-12.5997
原梁元帝纂要十二月曰暮	-12.5997
原水經注很山縣	-12.5997
去酒省食	-12.5997
又問傳舍長答曰	-12.5997
及朝士宴	-12.5997
可得而禮矣漢舊儀漢法三	-12.5997
周人木徳以桃為	-12.5997
命晁迴	-12.5997
唧	-12.5997
嚴整仗衞	-12.5997
地所宜寛鄉斂以所種狹鄉	-12.5997
堤上吟	-12.5997
増唐明皇帝	-12.5997
増宋史真宗紀大中祥符三年	-12.5997
増春渚紀聞	-12.5997
増曺植	-12.5997
増玉海建炎二年九月	-12.5997
増詩小序	-12.5997
増越絶書	-12.5997
增左傳楚子	-12.5997
增通典後魏	-12.5997
增通鑑大厯十四年閏五月	-12.5997
壄	-12.5997
壽昌莭	-12.5997
夏駕湖	-12.5997
夜行以燭無燭則	-12.5997
天門為之開	-12.5997
夲草集解	-12.5997
始生成位於	-12.5997
婦官染采	-12.5997
孝建三年	-12.5997
孟嘗君遷之	-12.5997
孫伏伽	-12.5997
宣武觀大閲	-12.5997
宣澤亭	-12.5997
宴於寺之設㕔	-12.5997
寒耕暑芸	-12.5997
寧公主莊	-12.5997
寳岐殿	-12.5997
尹公潮	-12.5997
尾四度	-12.5997
嵗更刀	-12.5997
嵗長一寸	-12.5997
帑	-12.5997
建善齋	-12.5997
後漢書班固𫝊	-12.5997
忽忽歳	-12.5997
惟曰怨咨	-12.5997
所以成噐用	-12.5997
接輿釋	-12.5997
推正月朔歌	-12.5997
撤獸炭	-12.5997
撰西域圖志	-12.5997
攝生月令四月為乾	-12.5997
救窮草	-12.5997
教茇舍	-12.5997
數將幾	-12.5997
方又眀年則	-12.5997
日在表北	-12.5997
日星為紀	-12.5997
日是以為閏	-12.5997
日祀五帝	-12.5997
旬中空亡	-12.5997
星在南方之中	-12.5997
春女感陽	-12.5997
時畏景赫曦咸有鬱蒸之	-12.5997
月入夏展春	-12.5997
月窮盡	-12.5997
月計有餘	-12.5997
望拜黒山	-12.5997
朱脣玉羽	-12.5997
杏金丹	-12.5997
梁孝元	-12.5997
楂	-12.5997
樓下又申之以賞樂賦詩并序	-12.5997
此何祥也	-12.5997
此生有味在三餘	-12.5997
武帝紀魏咸熙三年	-12.5997
歩作畦	-12.5997
歲之冬至起	-12.5997
歸功於日	-12.5997
氣盈朔	-12.5997
汴都志	-12.5997
浚井改水	-12.5997
海神移徙	-12.5997
淖	-12.5997
渡江求兄	-12.5997
燠若曰	-12.5997
牛馬猪羊	-12.5997
玉片子	-12.5997
申嚴號令	-12.5997
申宮令	-12.5997
瘤根納藥	-12.5997
白堊標門	-12.5997
白龍皮	-12.5997
皆赤幘	-12.5997
看參星	-12.5997
真宗拜嶽	-12.5997
碧金僊	-12.5997
祭河瀆	-12.5997
祭馬祖執駒	-12.5997
禦寒毬	-12.5997
禮先師也	-12.5997
種大蒜	-12.5997
積嵗如月分	-12.5997
立詩賦式	-12.5997
童稚戲	-12.5997
竹使符	-12.5997
筍蕨羮	-12.5997
策試胄子	-12.5997
粱米酒	-12.5997
紫雲曲	-12.5997
經旬乃	-12.5997
置司田叅軍	-12.5997
置大小二學	-12.5997
羣書四部錄	-12.5997
而生丑中之	-12.5997
胡荽葅	-12.5997
臨海記郡	-12.5997
舉淹滯	-12.5997
茅龍更衣	-12.5997
茸母草	-12.5997
藏木瓜	-12.5997
藏韭菁	-12.5997
虎齒山	-12.5997
行秋令則天時雨汁瓜	-12.5997
衣單布	-12.5997
褚遂良	-12.5997
親客正	-12.5997
親賔會聚	-12.5997
諯	-12.5997
諶	-12.5997
諸侯来朝	-12.5997
貫月查	-12.5997
貴之與賤無	-12.5997
賜暑藥	-12.5997
赤縣之州	-12.5997
赦天下賜民爵	-12.5997
踆鴟	-12.5997
蹀	-12.5997
輝樓下風光	-12.5997
通鑑武徳	-12.5997
通鑑紀事	-12.5997
邀同列	-12.5997
那得帝王	-12.5997
鄷	-12.5997
醉飽髙眠真	-12.5997
金人捧	-12.5997
銅虎符	-12.5997
钁	-12.5997
長短焉太史立成法有四十八	-12.5997
開通濟渠	-12.5997
開頃刻花	-12.5997
陵恭述十	-12.5997
雉頭裘	-12.5997
雖濕亦無	-12.5997
雞桴粥	-12.5997
青苖簿而督之	-12.5997
頒新樂	-12.5997
首夏花萼樓觀羣臣宴寜王山	-12.5997
馬兜鈴	-12.5997
髙梁橋	-12.5997
鳥應隂	-12.5997
麻葛糕	-12.5997
黻	-12.5997
龍門賞雪	-12.5997
𠖇𠖇	-12.5997
遯六月之卦也	-12.5997
始生荔挺出蚯蚓結麋角解水泉動	-12.5998
益壯地始坼鶡旦不	-12.5998
垂拱二年	-12.5998
休假一日	-12.5998
膏其動注	-12.5998
糶風從南来	-12.5999
熒	-12.6
端拱元年八月	-12.6
郊祀志宣帝十三年	-12.6
袵	-12.6
夜露未晞茶芽	-12.6
廣輿圖	-12.6
水家儀凡	-12.6
采茶之法須是	-12.6
藶	-12.6
似橘而非若柚	-12.6
俯同其韻	-12.6
周昭王二十四年	-12.6
有給客橙	-12.6
猝	-12.6
周禮春官女巫	-12.6
咸平二年八月	-12.6
增神異經北方荒中有石湖	-12.6
金盞花	-12.6
高昌國	-12.6
芙	-12.6
似馬齒莧而	-12.6
備化之紀氣恊天休	-12.6
入口中咽	-12.6
八月採實	-12.6
劉殷𫝊	-12.6
占秋糶風從南	-12.6
土生於火	-12.6
孔叢子	-12.6
寳曰隂氣在	-12.6
扵上陽宫	-12.6
来下在目	-12.6
璞遊仙詩	-12.6
直言極	-12.6
祺	-12.6
花甚細	-12.6
赤結實如葶	-12.6
風雨主米貴	-12.6
鶻五月上旬	-12.6
七月十五日僧尼	-12.6
原文獻通考占城國	-12.6
原禮君子齊戒處必掩身	-12.6
去皮核搗	-12.6
又古詞云	-12.6
吕公著	-12.6
増玉海乾德四年	-12.6
増舊唐書太宗紀貞觀	-12.6
増舊唐書武宗紀	-12.6
天監四年六月壬戌	-12.6
從子至亥	-12.6
承明殿	-12.6
摩耶夫人	-12.6
旱則澆之	-12.6
晝見占曰	-12.6
朱鳥之宿	-12.6
杜甫遭田父泥飲詩	-12.6
汁兩石	-12.6
立春正月莭	-12.6
色黄潤立竿影見大熟是	-12.6
金盞花如小	-12.6
陽夏無伏隂春	-12.6
之雖天氣嚴寒	-12.6
也晉樂志曰十	-12.6
仁宗實錄	-12.6
令一人丞	-12.6
冬無愆	-12.6
動也言陽氣動於黄泉之下動	-12.6
北齊書神武	-12.6
原周禮天官司裘	-12.6
地始凍後五日雉入大水	-12.6
報本反始	-12.6
増遼史太祖紀天贊三年九	-12.6
山憶舊	-12.6
岐王有玉鞍一面	-12.6
左元放共遊薊子訓所坐欲起子訓欲	-12.6
幙	-12.6
年詔以生日為	-12.6
得象端午帖子	-12.6
懸波如瀑	-12.6
捶	-12.6
搢	-12.6
數七火氣舉君則順時	-12.6
日之中三雨今呼五	-12.6
正會禮正旦夜漏未盡七	-12.6
此鞍在	-12.6
永貞二年	-12.6
獸人冬獻狼	-12.6
紹聖四年	-12.6
者星名也	-12.6
至冬月則用	-12.6
萬物應陽而	-12.6
蘭射干芸荔之應	-12.6
蜻蜓	-12.6
要覽昔羽山有神人焉逍遥於中	-12.6
謂之應鍾何鍾動也言	-12.6
邅	-12.6
齊景公	-12.6
龍圖待制	-12.6
七月十八日大	-12.6
三門中曰	-12.6
上清宫成	-12.6
下絹簁	-12.6
不復償價	-12.6
丘奏之若樂	-12.6
之家皆效之	-12.6
之見侍者雖	-12.6
乾坤爽氣	-12.6
争馳逐	-12.6
二升粟麥	-12.6
五載一廵	-12.6
令人身輕齒堅	-12.6
以㑹天地之蔵	-12.6
以文章顯	-12.6
以給民太宗善之乃詔畝	-12.6
便於學者無	-12.6
元氣廣大	-12.6
元行冲	-12.6
入營室五度	-12.6
冬得生葵	-12.6
分悉刻	-12.6
利有攸徃	-12.6
劉禕之	-12.6
十四日増修	-12.6
半邊蓮	-12.6
取土泥	-12.6
取松實	-12.6
取絲𤓰	-12.6
吼地而生寒	-12.6
呂為商	-12.6
命農勉作	-12.6
唐書明皇紀開元二年	-12.6
喤	-12.6
嗣掌其月	-12.6
囚来歸	-12.6
四者免其半耗十七者皆免之	-12.6
塗面及	-12.6
塹	-12.6
増乾淳起居注淳熙	-12.6
[...]
